<unk>	0
<s>	0
</s>	0
之	-4.33148
/	-4.42489
(	-4.42816
)	-4.42816
也	-5.17303
者	-5.17719
不	-5.31978
一	-5.34566
以	-5.36018
爲	-5.37016
有	-5.44142
兩	-5.51563
中	-5.57999
而	-5.5848
上	-5.63104
人	-5.64401
無	-5.64477
大	-5.6777
其	-5.74424
生	-5.74651
天	-5.74682
於	-5.78735
心	-5.79689
三	-5.82369
方	-5.8982
下	-5.91512
如	-5.91858
行	-5.92393
得	-5.93145
道	-5.97456
自	-6.02626
子	-6.04778
則	-6.06205
神	-6.09124
氣	-6.09989
治	-6.11943
出	-6.1492
用	-6.15498
在	-6.20289
二	-6.20495
是	-6.21912
此	-6.22893
日	-6.2541
五	-6.28142
故	-6.29308
水	-6.30145
至	-6.30818
若	-6.31269
入	-6.31886
身	-6.33483
明	-6.33625
又	-6.34127
四	-6.35968
内	-6.36683
見	-6.36691
或	-6.38432
當	-6.38535
與	-6.39628
時	-6.40202
作	-6.41139
去	-6.41157
法	-6.4304
經	-6.43731
)(	-6.44404
令	-6.45908
主	-6.48238
風	-6.48259
眞	-6.51693
來	-6.51997
常	-6.52832
言	-6.52898
真	-6.53449
成	-6.54543
所	-6.54674
▁	-6.55053
地	-6.56991
相	-6.57155
分	-6.57598
名	-6.58651
合	-6.58689
靈	-6.59194
皆	-6.61125
後	-6.61312
事	-6.61665
文	-6.61933
服	-6.62418
取	-6.62853
即	-6.63009
同	-6.63251
通	-6.64125
仙	-6.65142
知	-6.65243
山	-6.65607
可	-6.65817
善	-6.6659
及	-6.6668
正	-6.67369
金	-6.70351
病	-6.70375
九	-6.72097
玄	-6.72843
陽	-6.7341
使	-6.73593
火	-6.74464
乃	-6.74902
白	-6.74907
長	-6.75663
復	-6.77671
多	-6.77812
能	-6.78864
前	-6.79116
玉	-6.79737
處	-6.798
矣	-6.79809
清	-6.80762
非	-6.8132
師	-6.82437
散	-6.8298
我	-6.83107
欲	-6.84299
精	-6.84471
今	-6.85273
書	-6.85698
食	-6.85791
亦	-6.86278
盡	-6.86426
重	-6.86852
從	-6.86919
過	-6.87466
符	-6.87522
和	-6.87777
死	-6.90028
君	-6.90724
六	-6.92643
七	-6.93569
起	-6.93583
雲	-6.94479
先	-6.94501
外	-6.94699
便	-6.94971
然	-6.95016
黄	-6.95135
受	-6.95287
八	-6.95742
頭	-6.95843
開	-6.96118
小	-6.96197
藥	-6.96631
命	-6.98028
應	-6.988
好	-6.98839
諸	-6.99104
曰	-6.99184
熱	-6.99648
未	-7.00117
右	-7.0045
惡	-7.01706
自然	-7.02073
更	-7.02123
化	-7.0275
樂	-7.02853
加	-7.03292
光	-7.03368
凡	-7.03551
不得	-7.03715
意	-7.03912
半	-7.04231
發	-7.04519
湯	-7.04604
青	-7.05098
空	-7.06058
云	-7.07162
傳	-7.07837
物	-7.07841
安	-7.09273
王	-7.09355
痛	-7.09652
各	-7.09762
已	-7.09806
解	-7.10155
口	-7.10187
天地	-7.11083
元	-7.1152
因	-7.11724
炁	-7.12093
存	-7.12412
將	-7.12792
月	-7.13553
難	-7.13746
理	-7.13991
字	-7.14865
結	-7.1487
陰	-7.14959
數	-7.15476
酒	-7.17152
不可	-7.17397
十	-7.17539
觀	-7.17686
邪	-7.17713
念	-7.17993
萬	-7.18023
吾	-7.18124
德	-7.18165
歸	-7.18427
度	-7.18855
門	-7.18872
本	-7.19283
年	-7.20334
家	-7.20798
耳	-7.20866
飛	-7.21133
高	-7.21786
急	-7.22181
乎	-7.22238
立	-7.22281
形	-7.22395
血	-7.22452
著	-7.23177
何	-7.23221
宫	-7.24583
苦	-7.25626
少	-7.25878
次	-7.25999
性	-7.27089
升	-7.27152
止	-7.27395
教	-7.27895
絶	-7.28855
公	-7.28892
還	-7.29649
虚	-7.30158
脉	-7.30244
實	-7.30251
反	-7.30572
根	-7.31731
體	-7.31841
色	-7.32428
滿	-7.32653
鬼	-7.32813
无	-7.33775
寒	-7.34027
目	-7.34174
世	-7.3445
傷	-7.34758
須	-7.34864
除	-7.35203
要	-7.35227
丹	-7.35242
思	-7.35274
流	-7.35423
赤	-7.35715
各一	-7.35769
動	-7.35799
極	-7.35915
骨	-7.37284
平	-7.3732
妙	-7.37918
共	-7.38161
甘草	-7.38885
石	-7.39294
微	-7.39803
居	-7.40381
會	-7.40555
華	-7.41034
香	-7.41356
說	-7.41387
等	-7.4165
宜	-7.41966
又方	-7.41989
願	-7.42279
但	-7.42315
轉	-7.4272
隨	-7.42835
定	-7.43049
利	-7.43148
深	-7.43451
信	-7.43653
真人	-7.43839
龍	-7.44553
冷	-7.44748
帝	-7.45028
向	-7.45178
各二	-7.45251
夫	-7.45284
修	-7.45387
學	-7.45547
降	-7.46253
不能	-7.46606
求	-7.47283
圓	-7.48788
運	-7.48826
星	-7.49893
面	-7.49964
飲	-7.50011
衆	-7.50561
别	-7.50888
聞	-7.50945
衣	-7.51303
離	-7.51434
洞	-7.52308
土	-7.5263
問	-7.52714
遊	-7.52866
變	-7.53801
百	-7.543
木	-7.54386
俱	-7.54415
莫	-7.54816
臣	-7.55119
了	-7.55194
景	-7.5538
致	-7.55868
藏	-7.56043
聲	-7.56618
且	-7.56791
休	-7.56801
功	-7.56837
久	-7.56965
塵	-7.57328
論	-7.57721
老	-7.57844
養	-7.57879
都	-7.57951
攝	-7.58035
足	-7.5812
枚	-7.58228
失	-7.59201
必	-7.59323
甚	-7.59593
遠	-7.59709
紫	-7.59917
覺	-7.6018
各三	-7.60414
滅	-7.60682
毒	-7.61064
異	-7.6125
初	-7.61675
却	-7.61691
太上	-7.628
守	-7.62899
悉	-7.63116
馬	-7.63428
雷	-7.63505
乾	-7.64083
悟	-7.64301
易	-7.64303
力	-7.65112
斷	-7.65219
灸	-7.65354
隂	-7.65421
間	-7.65871
煎	-7.65941
聖	-7.66008
品	-7.66578
奉	-7.66912
既	-7.67137
交	-7.67335
積	-7.67554
坐	-7.67888
召	-7.68004
喜	-7.6801
隱	-7.68377
贈	-7.69045
手	-7.69059
錢	-7.69215
國	-7.69486
疾	-7.69817
亂	-7.70415
始	-7.70545
東	-7.70554
千	-7.71767
某	-7.71949
雖	-7.71983
似	-7.72289
到	-7.72342
肉	-7.72754
語	-7.73058
親	-7.73301
志	-7.73853
閑	-7.74128
關	-7.74914
西	-7.75541
獨	-7.75721
女	-7.76001
引	-7.76725
勿	-7.76769
花	-7.76863
并	-7.77488
順	-7.77966
先生	-7.78048
裏	-7.78285
進	-7.78722
汁	-7.7894
末	-7.79064
義	-7.79191
黑	-7.79229
興	-7.79264
夜	-7.79392
左	-7.79684
朝	-7.79969
春	-7.80148
民	-7.80675
福	-7.80793
戒	-7.80801
並	-7.81048
舉	-7.81161
桂心	-7.81228
瘡	-7.81421
住	-7.81449
直	-7.8152
温	-7.81712
任	-7.81981
丸	-7.82153
虛	-7.82222
首	-7.82299
壽	-7.82903
腎	-7.83183
節	-7.83258
破	-7.84534
看	-7.84558
路	-7.84622
畢	-7.84956
速	-7.85246
全	-7.85583
腫	-7.85587
依	-7.86503
伏	-7.86908
報	-7.87083
愛	-7.87509
請	-7.87685
當歸	-7.88115
果	-7.88629
天下	-7.88782
哉	-7.89021
海	-7.89088
寳	-7.89204
皮	-7.89388
訣	-7.8951
持	-7.89555
北	-7.8962
一切	-7.8976
遇	-7.89955
收	-7.89956
服之	-7.89991
肺	-7.90008
忘	-7.90277
罪	-7.90305
周	-7.90339
指	-7.9039
布	-7.90542
象	-7.90565
稱	-7.90608
眼	-7.90658
章	-7.9092
鍊	-7.91021
再	-7.91294
南	-7.91321
十二	-7.91353
官	-7.93086
新	-7.93164
肝	-7.93359
兒	-7.93444
靜	-7.93521
逆	-7.93814
蟲	-7.93874
患	-7.94173
照	-7.94455
感	-7.94661
賢	-7.94895
呪	-7.9493
位	-7.94936
良	-7.95037
對	-7.95162
人參	-7.95188
吐	-7.95244
消	-7.9528
施	-7.9547
日月	-7.95481
味	-7.95594
調	-7.95657
具	-7.95753
不知	-7.95816
素	-7.95834
顯	-7.96365
經云	-7.96602
勝	-7.96733
乘	-7.96977
斗	-7.9717
眞人	-7.97492
雨	-7.97613
聚	-7.97962
情	-7.98019
宿	-7.98155
望	-7.98235
太	-7.98415
勞	-7.98517
齋	-7.9923
萬物	-7.99314
縁	-7.9935
輕	-7.99389
就	-7.99474
張	-7.99475
寶	-7.99488
業	-7.99887
强	-8.00388
許	-8.00647
達	-8.0102
上清	-8.01094
煑	-8.01109
幽	-8.01416
臨	-8.0142
謂	-8.01706
音	-8.0183
茯苓	-8.02146
所以	-8.02354
告	-8.02445
聽	-8.02474
九天	-8.02795
尊	-8.02884
號	-8.03219
害	-8.03224
俗	-8.03413
胎	-8.03496
由	-8.03759
餘	-8.04004
焉	-8.04185
他	-8.04206
堅	-8.04467
附子	-8.04998
膏	-8.05305
終	-8.05326
勑	-8.05338
蓋	-8.05368
盛	-8.05381
燒	-8.05904
種	-8.06147
遂	-8.06208
草	-8.06366
唯	-8.0639
尚	-8.07281
登	-8.07289
羅	-8.07326
乾薑	-8.07372
集	-8.07412
之人	-8.07457
保	-8.07816
神仙	-8.08064
弟子	-8.08276
投	-8.08324
歲	-8.08546
廣	-8.08641
識	-8.08808
刺	-8.09072
葉	-8.09087
禮	-8.09101
智	-8.0914
脾	-8.09229
惟	-8.10057
天尊	-8.10398
落	-8.10481
魂	-8.10489
又云	-8.10533
母	-8.10566
尋	-8.10623
細	-8.10824
于	-8.10925
爲末	-8.1113
臺	-8.11329
恩	-8.1133
證	-8.11534
帝王	-8.1166
紅	-8.11793
夢	-8.11846
切	-8.11853
補	-8.12131
息	-8.1222
大黄	-8.13049
室	-8.13704
愈	-8.1379
貪	-8.14022
救	-8.14116
益	-8.14322
境	-8.14547
仁	-8.15029
禁	-8.1522
走	-8.15256
無爲	-8.15478
想	-8.15667
而不	-8.15793
録	-8.1589
熟	-8.15907
長生	-8.16172
卧	-8.16196
迷	-8.16438
猶	-8.16658
皇	-8.16807
損	-8.17176
一兩	-8.17391
辭	-8.17803
大道	-8.18174
魔	-8.18301
生薑	-8.18429
令人	-8.18643
甲	-8.18701
犯	-8.19639
總	-8.19641
也故	-8.19651
細辛	-8.19865
陳	-8.1989
被	-8.20026
黄芩	-8.20099
謝	-8.20127
近	-8.20177
曲	-8.20228
防風	-8.20348
白术	-8.21175
窮	-8.21216
驚	-8.21456
留	-8.21583
之道	-8.21804
備	-8.21931
父母	-8.21938
期	-8.22049
放	-8.22075
承	-8.22538
祕	-8.23304
二十	-8.23662
容	-8.24076
劫	-8.24176
憂	-8.24224
永	-8.24243
府	-8.24294
執	-8.24369
恐	-8.24393
造	-8.24483
最	-8.24543
慧	-8.24732
迴	-8.24878
第一	-8.25079
早	-8.25168
視	-8.25189
秋	-8.25207
圖	-8.2548
勸	-8.25486
每	-8.25545
道德	-8.25581
固	-8.2575
修行	-8.25775
謹	-8.26272
候	-8.26582
房	-8.26654
朱	-8.26682
漸	-8.26798
之中	-8.26826
殺	-8.27224
浮	-8.27268
上下	-8.27482
大神	-8.27556
巳	-8.27684
林	-8.27891
壇	-8.28052
凶	-8.28263
客	-8.28719
制	-8.28756
古	-8.28972
屬	-8.29003
昇	-8.29209
為	-8.29275
芍藥	-8.29376
塗	-8.29448
卷	-8.29514
歌	-8.29566
把	-8.2964
背	-8.29965
往	-8.30052
做	-8.30169
己	-8.30188
辰	-8.30276
慈	-8.30351
隂陽	-8.30868
覆	-8.30923
奏	-8.3099
愚	-8.31471
箇	-8.31486
連	-8.31541
不敢	-8.31579
没	-8.31619
灰	-8.31829
懷	-8.31878
汝	-8.31946
注	-8.32015
閉	-8.32216
步	-8.32346
誰	-8.32406
薄	-8.32434
仰	-8.32708
宗	-8.32804
禍	-8.32869
笑	-8.33118
珠	-8.33176
機	-8.33188
洗	-8.33356
針	-8.33681
魚	-8.33977
光明	-8.33982
一升	-8.34042
夏	-8.34519
敬	-8.3459
助	-8.34829
貴	-8.35009
亡	-8.35043
司	-8.35054
敕	-8.35274
齊	-8.35316
河	-8.35444
脚	-8.35491
現	-8.35496
待	-8.3551
三界	-8.35623
堂	-8.3574
天尊至心信禮	-8.35803
斤	-8.36026
如此	-8.36035
鐵	-8.36303
記	-8.36966
類	-8.37213
吉	-8.37315
午	-8.37342
灾	-8.37455
堪	-8.37778
斯	-8.37953
秀	-8.38052
第二	-8.39094
蜜	-8.39489
可以	-8.39766
寧	-8.40062
誠	-8.40119
虎	-8.40157
免	-8.40297
輪	-8.40411
腹	-8.40731
士	-8.40813
假	-8.41244
帶	-8.41751
只	-8.41768
爭	-8.42208
穴	-8.42305
州	-8.42451
晨	-8.42558
仍	-8.42644
芎藭	-8.4266
得道	-8.42689
置	-8.42755
杏仁	-8.42849
遣	-8.42904
冬	-8.43509
部	-8.43713
棄	-8.43877
湯治	-8.43919
甘	-8.44026
退	-8.4429
威	-8.44359
呼	-8.44392
脫	-8.44424
名爲	-8.44541
條	-8.44662
鳳	-8.4482
敗	-8.44937
炒	-8.4499
效	-8.44994
亦可	-8.45494
蒙	-8.45881
鼻	-8.45964
索	-8.46042
廼	-8.46044
授	-8.46064
垂	-8.46209
煞	-8.46426
天道	-8.466
▲	-8.4679
髮	-8.4679
舌	-8.46886
回	-8.47061
乳	-8.47117
列	-8.47198
兵	-8.47459
中有	-8.47626
三十	-8.4767
比	-8.47696
使者	-8.47705
户	-8.48215
擣	-8.4829
端	-8.48308
以爲	-8.48318
豈	-8.48652
違	-8.48666
然後	-8.4873
衆生	-8.48767
車	-8.48931
超	-8.48949
李	-8.48953
陰陽	-8.48984
孝	-8.4915
弱	-8.49156
其人	-8.49166
舊	-8.49268
銖	-8.49353
十方	-8.494
一名	-8.49525
塞	-8.49592
第三	-8.49629
松	-8.49635
醫	-8.49773
專	-8.49778
含	-8.50174
醉	-8.50724
之所	-8.50794
參	-8.50969
道士	-8.51097
密	-8.51156
黄連	-8.5119
之法	-8.51358
角	-8.51388
活	-8.51756
牛	-8.51938
忽	-8.52061
諸天	-8.52141
鄉	-8.52167
詩	-8.52177
篇	-8.52512
傅	-8.5254
增	-8.52666
研	-8.52783
天師	-8.52879
遍	-8.53035
疑	-8.53075
露	-8.53459
怒	-8.53559
徹	-8.53788
累	-8.53956
榮	-8.53964
代	-8.53982
宣	-8.54079
計	-8.54114
建	-8.54319
封	-8.54463
學道	-8.54727
狂	-8.54732
米	-8.54738
寄	-8.54804
半夏	-8.54821
汗	-8.55009
厚	-8.55093
映	-8.55264
逐	-8.55281
謂之	-8.5529
逍遥	-8.55379
妄	-8.55404
申	-8.55459
樹	-8.55549
卒	-8.55572
偏	-8.55818
靈寳	-8.55827
遺	-8.55859
凝	-8.55942
日三	-8.5599
職	-8.56291
鬼神	-8.5646
瓊	-8.56724
附	-8.56765
石膏	-8.56949
庭	-8.57285
劉	-8.57669
暗	-8.57692
黒	-8.57713
祖	-8.57722
黃	-8.57741
帝君	-8.57808
精神	-8.57864
煙	-8.58035
竹	-8.58061
簡	-8.58198
冠	-8.582
考	-8.58249
急急如律令	-8.58257
沉	-8.58426
齒	-8.58486
生死	-8.58535
耶	-8.58845
充	-8.58888
各四	-8.58934
普	-8.59015
不止	-8.59051
唵	-8.59325
送	-8.59345
狀	-8.59385
天上	-8.59404
曉	-8.59554
無有	-8.59905
左右	-8.59919
耀	-8.59993
穢	-8.60133
名曰	-8.60141
霞	-8.60235
緊	-8.60338
竟	-8.60376
辛	-8.60402
誦	-8.60418
田	-8.60516
忌	-8.60698
爛	-8.60771
腹中	-8.60834
紙	-8.60912
啓	-8.60955
詳	-8.61138
麥門冬	-8.6115
元始	-8.61213
雪	-8.6123
拜	-8.6129
衰	-8.61359
財	-8.61493
兆	-8.61724
邊	-8.6175
三光	-8.61778
胃	-8.6196
大棗	-8.62217
四肢	-8.62405
是故	-8.62531
迎	-8.62611
瘥	-8.62782
舍	-8.6291
駕	-8.62985
器	-8.63091
付	-8.63138
刑	-8.63255
那	-8.63284
毛	-8.63493
吏	-8.63647
余	-8.63689
父	-8.6382
横	-8.63909
淨	-8.64053
按	-8.64061
燈	-8.64069
乾地黄	-8.64099
太陽	-8.64104
兼	-8.64158
寂	-8.64307
玉女	-8.64406
縱	-8.645
四時	-8.64664
示	-8.65007
濟	-8.65209
停	-8.65227
二兩	-8.65257
吹	-8.65461
之氣	-8.65614
小兒	-8.65681
勤	-8.65797
捨	-8.6583
筋	-8.65977
趣	-8.66188
谷	-8.66411
輔	-8.66659
城	-8.6687
産	-8.67012
波	-8.67295
佳	-8.67611
中央	-8.67672
爾	-8.67836
披	-8.67864
麻黄	-8.67864
分明	-8.67922
手足	-8.68048
太平	-8.68093
貧	-8.68131
烏	-8.68241
濁	-8.68361
愁	-8.68462
武	-8.6849
雙	-8.68547
一日	-8.68889
寒熱	-8.6889
玉清	-8.69329
籙	-8.69464
移	-8.69548
習	-8.69777
諱	-8.69896
三日	-8.70045
闕	-8.70065
科	-8.7009
赴	-8.70203
腰	-8.7026
飲食	-8.70502
覩	-8.70616
漢	-8.70769
人間	-8.70928
野	-8.70952
雞	-8.71004
白芷	-8.71142
鎮	-8.71274
之時	-8.71429
推	-8.7178
朗	-8.72034
賜	-8.72037
慶	-8.72546
返	-8.72581
美	-8.72653
漏	-8.7267
載	-8.72772
東方	-8.72881
護	-8.73036
太極	-8.7306
招	-8.73095
接	-8.73315
也夫	-8.73497
炙	-8.73919
羽	-8.74337
洪	-8.74402
大小	-8.74478
彼	-8.7461
筆	-8.74791
太一	-8.74855
吸	-8.7528
煩	-8.75284
透	-8.75371
不用	-8.75932
童	-8.76012
延	-8.7608
折	-8.76256
壯	-8.76257
宅	-8.76337
履	-8.7636
敢	-8.76379
愼	-8.76511
鳴	-8.76694
井	-8.76706
五帝	-8.76908
點	-8.77117
泉	-8.77127
災	-8.7716
談	-8.77224
五臟	-8.77244
自在	-8.77331
徒	-8.77453
蜀椒	-8.77482
咽	-8.77661
緑	-8.77692
姓	-8.77857
昔	-8.7787
五行	-8.78216
性命	-8.78228
殊	-8.78285
危	-8.78512
三元	-8.78568
各五	-8.78856
表	-8.78919
曜	-8.78974
打	-8.79478
衝	-8.79498
夫人	-8.79602
刀	-8.7973
腸	-8.79744
館	-8.79886
顔	-8.79888
雜	-8.79943
忠	-8.79954
浸	-8.80219
縣	-8.80408
丘	-8.8054
不足	-8.80571
惑	-8.8076
泄	-8.80852
祝	-8.80926
沸	-8.80927
懸	-8.80968
郎	-8.80988
粉	-8.81052
婦人	-8.81119
羊	-8.81288
負	-8.81321
察	-8.81498
訖	-8.81531
也今	-8.81551
震	-8.81779
凡人	-8.81827
怨	-8.82038
北方	-8.82132
旦	-8.82221
散治	-8.82234
管	-8.82728
敷	-8.82751
純	-8.82868
觸	-8.82909
差	-8.82925
予	-8.82981
二十四	-8.83045
太清	-8.8315
濕	-8.8327
鶴	-8.83364
欺	-8.83394
男	-8.83603
悲	-8.83831
暴	-8.83847
源	-8.83893
升麻	-8.83906
泥	-8.83922
伯	-8.83937
津	-8.83993
南方	-8.84014
物外	-8.84043
頓	-8.84062
因縁	-8.84194
醋	-8.84204
領	-8.84382
聖人	-8.84454
詞	-8.84475
驗	-8.84577
印	-8.84595
之後	-8.84698
不復	-8.84784
變化	-8.84787
摩	-8.84868
汗出	-8.84874
鼓	-8.84894
不見	-8.84896
將軍	-8.85048
黄耆	-8.8517
碎	-8.85187
侍	-8.85188
逢	-8.85304
儀	-8.85311
梁	-8.85548
去滓	-8.85605
訪	-8.85813
橘皮	-8.85821
上帝	-8.86122
昏	-8.86264
僞	-8.86367
吞	-8.8647
孔	-8.86477
罡	-8.86495
跡	-8.86573
金光	-8.86595
騰	-8.86647
釋	-8.86886
孤	-8.8692
友	-8.86934
奇	-8.87087
斬	-8.87091
短	-8.87221
寅	-8.87223
三兩	-8.87348
監	-8.8754
灌	-8.8761
是也	-8.87657
於是	-8.87682
十四	-8.87773
内外	-8.87987
寸	-8.88212
江	-8.88386
改	-8.88426
遲	-8.88471
設	-8.88509
這	-8.88592
不通	-8.88637
元帥	-8.88706
沈	-8.8882
顧	-8.89244
碧	-8.89476
倒	-8.89554
霜	-8.89614
得之	-8.8978
膽	-8.89811
搜	-8.89935
蓬萊	-8.8999
桔梗	-8.90017
也又云	-8.90066
策	-8.90128
韻	-8.90158
心中	-8.90294
三升	-8.90452
爲善	-8.90546
卯	-8.90552
法師	-8.90555
磨	-8.90569
頂	-8.9068
决	-8.91002
厚朴	-8.91052
五色	-8.91377
胡	-8.91424
療	-8.91775
善惡	-8.91819
句	-8.91919
十八	-8.92048
真君	-8.92074
右出洞真	-8.92236
巨	-8.92244
人也	-8.92257
慮	-8.92395
童子	-8.92497
各半	-8.92589
如是	-8.92654
膿	-8.92673
響	-8.92727
蛇	-8.92752
澄	-8.93023
第四	-8.93111
緩	-8.93296
冥	-8.93428
座	-8.9344
里	-8.93724
統	-8.93729
傾	-8.93923
麻	-8.93945
五方	-8.94043
行之	-8.94192
烏頭	-8.94212
恒	-8.9436
遠志	-8.9442
混	-8.94428
衛	-8.94438
染	-8.94572
御	-8.94809
帥	-8.94826
吴茱萸	-8.94883
拔	-8.94947
淵	-8.95016
剔	-8.95032
誡	-8.95059
煮	-8.95203
爲人	-8.95306
五嶽	-8.95335
豆	-8.95346
捉	-8.95417
用之	-8.95472
牛膝	-8.95479
世間	-8.95483
揚	-8.95543
男女	-8.95619
妖	-8.95622
脂	-8.95746
膝	-8.95909
追	-8.96077
五味子	-8.96091
英	-8.96145
川	-8.96173
蒸	-8.96227
怪	-8.9629
無常	-8.963
分别	-8.96398
魄	-8.96415
厥	-8.9644
契	-8.96706
錦	-8.9675
崇	-8.9678
莫不	-8.96933
務	-8.97134
無所	-8.97213
飯	-8.97273
者爲	-8.97274
獨活	-8.97437
肯	-8.97569
認	-8.97745
雄黄	-8.97808
哀	-8.97882
乞	-8.97902
量	-8.98029
尺	-8.98197
人人	-8.98301
滯	-8.98397
略	-8.98397
畏	-8.98404
特	-8.98454
巽	-8.98561
序	-8.98765
腦	-8.98865
採	-8.98936
暮	-8.99005
遷	-8.99031
七日	-8.99173
桂	-8.99173
自有	-8.99286
底	-8.99505
約	-8.99564
包	-8.99564
傷寒	-8.99621
便是	-8.99764
吟	-8.99812
澤	-8.99842
枝	-8.99865
獄	-8.99912
神靈	-9.00094
幾	-9.00104
天地之	-9.00138
丑	-9.00146
嚴	-9.00162
界	-9.00186
天君	-9.00194
質	-9.00243
試	-9.00477
尸	-9.00595
驅	-9.00674
之間	-9.00695
丹陽	-9.00821
傅之	-9.01021
渴	-9.01051
干	-9.01065
暖	-9.01271
亥	-9.01281
憑	-9.01297
畫	-9.0138
題	-9.0144
一者	-9.01467
鹽	-9.01497
主之	-9.01531
省	-9.01551
二者	-9.01597
歷	-9.01765
輒	-9.01917
戀	-9.01951
油	-9.01976
越	-9.0198
道人	-9.02033
第五	-9.02175
萬里	-9.02243
弦	-9.02357
幸	-9.02493
限	-9.02787
厄	-9.02841
洞天	-9.02952
曾	-9.02993
占	-9.0303
各有	-9.03039
霄	-9.03039
漬	-9.03041
知之	-9.03175
昌	-9.03185
銀	-9.0329
使人	-9.03314
霹靂	-9.03352
洞玄	-9.034
水火	-9.03566
滑	-9.03572
牙	-9.03584
尤	-9.03639
導	-9.03751
唱	-9.03808
身體	-9.03999
樓	-9.04002
坎	-9.04268
出入	-9.04284
原	-9.043
掌	-9.04303
重陽	-9.04312
十五	-9.0437
高上	-9.04453
吒	-9.04516
出家	-9.04555
電	-9.04986
富	-9.04999
咸	-9.05041
兮	-9.05084
刻	-9.05286
役	-9.05303
脹	-9.05309
二升	-9.05351
頻	-9.05502
奔	-9.05521
於此	-9.05563
四十	-9.05639
稍	-9.05724
虚空	-9.05883
枯	-9.06098
慢	-9.06153
十六	-9.06225
呪曰	-9.06226
政	-9.06324
古今	-9.06328
是以	-9.06393
籍	-9.06414
天之	-9.06422
徧	-9.06513
瘧	-9.06513
審	-9.06529
猪	-9.06588
無窮	-9.06734
小便	-9.06889
清浄	-9.06985
治之	-9.07009
造化	-9.07135
丁	-9.07177
術	-9.07297
眠	-9.07356
百日	-9.07359
適	-9.07376
詠	-9.0738
如何	-9.07449
臍	-9.07546
五十	-9.07625
一作	-9.07814
今日	-9.07822
是非	-9.0788
擊	-9.08062
翁	-9.0811
殃	-9.08132
者是	-9.08176
所謂	-9.08227
抱	-9.08296
熬	-9.08391
輸	-9.08451
鬱	-9.08652
誤	-9.08714
功德	-9.0874
希	-9.08788
之上	-9.08876
厭	-9.08953
元君	-9.09034
爲其	-9.09205
杖	-9.09326
剛	-9.09345
池	-9.09404
溪	-9.0943
每服	-9.09463
清靜	-9.09469
之以	-9.09594
痺	-9.0965
其中	-9.098
項	-9.09869
老子	-9.09879
歡	-9.09897
潤	-9.09972
銅	-9.1
道君	-9.10004
肥	-9.10014
雷霆	-9.1003
案	-9.10262
萬神	-9.10305
時時	-9.10373
者皆	-9.10384
賊	-9.10419
灸法	-9.10435
側	-9.10465
沙	-9.10504
筭	-9.10558
行道	-9.11067
傍	-9.1123
宮	-9.11259
西方	-9.11285
疏	-9.11285
酸	-9.11383
三年	-9.11783
覓	-9.11913
竈	-9.1196
急急如	-9.11988
游	-9.12023
一點	-9.12041
貼	-9.12279
喘	-9.1228
燒香	-9.12343
棗	-9.1238
者方	-9.12382
液	-9.12396
影	-9.12669
丹田	-9.12761
左手	-9.12827
智慧	-9.12915
多少	-9.12989
佩	-9.13034
格	-9.13126
勢	-9.13337
你	-9.13371
往來	-9.13709
枳實	-9.13795
須臾	-9.13884
有所	-9.13997
廢	-9.1402
營	-9.14156
豉	-9.14332
梵	-9.14354
○	-9.1438
相應	-9.14458
拆	-9.14459
急急	-9.14488
頌	-9.14516
即是	-9.1458
菜	-9.14593
戰	-9.14678
潔	-9.14688
之炁	-9.14761
比若	-9.14781
龍骨	-9.14808
不同	-9.1487
清凉	-9.14892
柔	-9.15145
般	-9.152
快	-9.15219
口中	-9.15235
一人	-9.15248
睡	-9.15257
乾坤	-9.15455
三者	-9.1556
瀉	-9.15635
四方	-9.15729
嘔	-9.15734
孫	-9.15836
此方	-9.15867
元氣	-9.15881
絲	-9.15941
獲	-9.16048
屋	-9.16058
喪	-9.16085
兩半	-9.16237
鼎	-9.16288
病者	-9.16308
病人	-9.16429
十日	-9.16473
一枚	-9.16644
悔	-9.16649
巾	-9.16667
暉	-9.16676
盈	-9.16692
慈悲	-9.16856
瑞	-9.16884
不須	-9.17354
疼痛	-9.1755
上皇	-9.17559
老君	-9.17579
若有	-9.17736
牢	-9.17835
阿膠	-9.17957
冤	-9.17981
欬	-9.18159
催	-9.18237
壞	-9.18393
責	-9.18433
殿	-9.18761
穿	-9.18807
像	-9.18874
浄	-9.18923
罪學士及百姓子	-9.18933
群	-9.1917
鎖	-9.19253
心下	-9.19285
扶	-9.19315
不及	-9.19348
趙	-9.19405
舞	-9.19508
誅	-9.19514
也若	-9.19527
避	-9.19561
前後	-9.19586
雲水	-9.19612
上元	-9.19879
也此	-9.19903
繩	-9.20119
牽	-9.2015
秘	-9.20216
暫	-9.20225
醮	-9.2024
盤	-9.20257
律令	-9.20279
律	-9.20285
嘉	-9.20388
玉帝	-9.20475
才	-9.20566
三十六	-9.20591
單	-9.20658
而已	-9.20689
續	-9.20722
而生	-9.20745
遭	-9.20919
圓治	-9.20945
太玄	-9.20983
禀	-9.20996
盟	-9.21025
徑	-9.21043
咎	-9.21104
資	-9.21106
無上	-9.21116
飽	-9.21125
心痛	-9.21374
清淨	-9.21379
三寸	-9.2152
溺	-9.21525
臭	-9.21551
繫	-9.21629
墮	-9.21659
惠	-9.21667
蕩	-9.21695
晝夜	-9.21728
不生	-9.21745
供養	-9.21802
短氣	-9.21978
各十	-9.22028
陵	-9.22083
隔	-9.22144
右二味	-9.2215
此爲	-9.2217
常以	-9.22264
困	-9.22378
卷之	-9.22499
迹	-9.22506
瑩	-9.2251
不動	-9.22737
誓	-9.22751
三天	-9.22899
五藏	-9.22912
防	-9.22937
唯唯	-9.23025
道之	-9.23103
振	-9.23104
委	-9.23112
巧	-9.23125
軒	-9.23191
潜	-9.23208
浪	-9.23269
治小兒	-9.23274
丈人	-9.23377
勿令	-9.23381
有餘	-9.23456
旋	-9.23554
也其	-9.23603
射	-9.23631
雷神	-9.23635
炎	-9.23697
悅	-9.23715
巴豆	-9.2374
坤	-9.23815
縛	-9.23834
氏	-9.23845
嘗	-9.2387
劇	-9.24178
或有	-9.2427
消息	-9.24411
峰	-9.24546
疼	-9.24665
三皇	-9.24953
仙人	-9.24971
芝	-9.25025
桃	-9.25055
服藥	-9.25173
柴胡	-9.25178
者乃	-9.25285
尾	-9.25335
頭痛	-9.25344
焚	-9.25433
殘	-9.25448
輝	-9.25532
歸去	-9.25536
至於	-9.25537
霧	-9.2559
之日	-9.25624
字起	-9.25677
第六	-9.25732
五雷	-9.25739
可得	-9.25765
錯	-9.25989
淋	-9.26004
生地黄	-9.2605
無極	-9.26123
紀	-9.26202
弗	-9.26217
纔	-9.26229
子孫	-9.26311
報應	-9.26623
肩	-9.26639
巖	-9.26875
胷	-9.2688
激	-9.26943
神明	-9.27004
麝香	-9.2753
讀	-9.27666
熏	-9.27668
柳	-9.27685
祈	-9.27699
院	-9.277
唾	-9.27807
礬石	-9.27841
功行	-9.27951
蓮	-9.27973
㝠	-9.28165
癰	-9.28196
三清	-9.28357
提	-9.28506
郡	-9.28532
怎	-9.28592
本類	-9.28612
餘方	-9.28615
飢	-9.28669
貌	-9.29134
昧	-9.29141
茶	-9.29167
纏	-9.29211
者以	-9.29256
冰	-9.29261
臟	-9.29323
崑崙	-9.29481
乗	-9.29649
地獄	-9.29729
片	-9.29819
爲度	-9.29908
戌	-9.29989
彌	-9.2999
西北	-9.30019
繞	-9.3002
愆	-9.30032
漿	-9.30033
毋	-9.30033
添	-9.30049
稽首	-9.30074
姑	-9.30081
翠	-9.30096
舟	-9.30128
爲之	-9.3019
不解	-9.30395
散見	-9.30424
淺	-9.30438
人民	-9.30471
不瘥	-9.30536
桃仁	-9.30678
鍾	-9.3077
减	-9.30794
禄	-9.30813
不過	-9.30821
弄	-9.30843
鳥	-9.30845
不死	-9.3095
際	-9.31093
髓	-9.31105
化爲	-9.31322
一寸	-9.31429
以此	-9.31468
校	-9.31505
萬劫	-9.31529
毫	-9.31621
北帝	-9.31706
競	-9.31712
無名者	-9.31963
身中	-9.32044
胷中	-9.32147
答	-9.3216
臂	-9.32183
蒼	-9.32227
澤瀉	-9.32277
者死	-9.323
桑	-9.32317
君子	-9.32333
之事	-9.32335
之精	-9.3236
玉皇	-9.32437
不欲	-9.32437
餐	-9.32439
典	-9.32463
穀	-9.32587
姜	-9.32655
其所	-9.3274
侯	-9.3276
賤	-9.32827
上氣	-9.32829
功成	-9.32886
取汁	-9.32979
市	-9.33113
倍	-9.33152
翻	-9.33284
金闕	-9.33343
痔	-9.33627
詣	-9.3363
宜服	-9.3366
此文	-9.33708
者當	-9.33708
緣	-9.33749
道友	-9.33845
三洞	-9.33889
墨	-9.33893
絳	-9.33924
死生	-9.33927
金丹	-9.3397
嬰	-9.33979
檢	-9.341
拂	-9.34109
給	-9.34141
障	-9.34142
雷火	-9.34238
三五	-9.34502
燥	-9.34514
者則	-9.3454
菴	-9.34757
忍	-9.34758
長春	-9.34775
掐	-9.34808
屈	-9.34812
换	-9.34817
竭	-9.34836
煉	-9.34873
辯	-9.34915
默	-9.34916
悶	-9.3492
雄	-9.35093
鏡	-9.35123
東南	-9.35318
三寳	-9.35445
浴	-9.35451
眉	-9.35662
顛倒	-9.35706
當以	-9.35716
丹砂	-9.35736
席	-9.35768
大將	-9.36287
呵	-9.36372
宴	-9.36503
詔	-9.36552
善人	-9.36616
寫	-9.36635
陽氣	-9.36731
人之	-9.36769
無形	-9.36841
而無	-9.37073
嶽	-9.37111
分三服	-9.37161
伐	-9.37225
請問	-9.37283
削	-9.37375
話	-9.37435
食之	-9.37585
曹	-9.38027
菖蒲	-9.38115
攻	-9.3814
儒	-9.38165
粥	-9.38209
寬	-9.38231
納	-9.38233
呈	-9.38281
遥	-9.38287
飛仙	-9.38315
不肯	-9.38323
柱	-9.38376
别有	-9.38422
何故	-9.38619
賢者	-9.38667
有三	-9.38712
栀子	-9.38908
啼	-9.3903
一斤	-9.39051
恭	-9.39082
權	-9.39146
繼	-9.39177
面目	-9.39229
富貴	-9.393
私	-9.39342
唎	-9.39349
第七	-9.39359
慕	-9.3942
羣	-9.39659
之士	-9.39722
皇天	-9.3975
酉	-9.39793
毁	-9.4
吴	-9.40052
輩	-9.40061
何以	-9.40162
而爲	-9.40234
元初	-9.40425
百壯	-9.40508
百年	-9.40535
又有	-9.40577
支	-9.40658
侵	-9.40763
九轉	-9.4081
大豆	-9.4082
綱	-9.40839
夷	-9.40858
辟	-9.40872
長安	-9.41073
亦有	-9.41173
日中	-9.41257
各六	-9.41324
雷電	-9.41414
清虚	-9.41447
石斛	-9.41596
述	-9.41597
葛根	-9.41632
三官	-9.41711
燭	-9.41755
宇	-9.41801
所言	-9.41861
天雄	-9.41914
修眞	-9.42046
白雲	-9.42202
兩手	-9.42236
其身	-9.42239
尿	-9.42255
竒	-9.42407
疰	-9.42415
膀胱	-9.42417
局	-9.42505
道者	-9.42532
貫	-9.42544
五日	-9.42604
日再	-9.4263
淫	-9.42643
焕	-9.42659
之神	-9.42753
一時	-9.42833
伴	-9.42921
十一	-9.42924
腹痛	-9.42943
再拜	-9.42957
囊	-9.43139
蘇	-9.43217
猛	-9.43322
酒服	-9.4338
屍	-9.43398
罰	-9.43527
禪	-9.43545
珍	-9.43551
園	-9.43557
忠孝	-9.43641
泥丸	-9.43663
化生	-9.43751
麻子	-9.4393
育	-9.44028
得其	-9.44038
裹	-9.44087
諸神	-9.44099
洞真	-9.44104
絡	-9.44176
書符	-9.44177
龜	-9.44188
淡	-9.44212
工	-9.44332
栝蔞根	-9.44348
魁	-9.44358
歎	-9.44444
徐	-9.44459
二首	-9.44485
日夜	-9.4449
況	-9.44519
學者	-9.44547
胞	-9.44589
小腹	-9.446
雷公	-9.44677
正一	-9.44698
陷	-9.44705
飲之	-9.44716
沖和	-9.44966
祥	-9.44984
日二	-9.44993
大聖	-9.45085
知其	-9.45166
攪	-9.45235
十三	-9.45239
硭硝	-9.45248
一身	-9.4525
九玄	-9.45271
阿	-9.45351
唤	-9.45371
騎	-9.45381
祐	-9.45388
例	-9.45411
愚生	-9.45414
階	-9.45434
中風	-9.45446
議	-9.45455
第八	-9.45497
而行	-9.45752
七十	-9.45883
於天	-9.4592
則爲	-9.46067
牡蠣	-9.46117
神人	-9.46118
三千	-9.46181
虚無	-9.46189
歩	-9.46196
膠	-9.46202
鼠	-9.4622
上真	-9.46237
郭	-9.46272
姦	-9.46296
髙	-9.46324
彊	-9.46337
夭	-9.46344
亭	-9.4637
謾	-9.46398
水中	-9.46491
日日	-9.46668
之内	-9.46907
蓯蓉	-9.47036
惜	-9.47139
瓦	-9.47146
貞	-9.47182
脣	-9.47205
爲惡	-9.47222
賞	-9.47298
粒	-9.47466
卿	-9.47526
自是	-9.47596
司命	-9.47647
全眞	-9.47743
无極	-9.47747
知母	-9.47777
凉	-9.47939
赤石脂	-9.47945
爲使	-9.48054
誇	-9.48087
環	-9.48109
者可	-9.48118
丹陽繼韻	-9.48125
庶	-9.48261
百病	-9.48282
演	-9.48306
携	-9.48309
净	-9.48362
使其	-9.48456
茅	-9.48493
爽	-9.48629
即愈	-9.48847
也又	-9.48859
七寳	-9.48881
竹葉	-9.48907
弘	-9.4892
太空	-9.48966
白歛	-9.48986
真道	-9.48994
無不	-9.49018
晝	-9.49058
其上	-9.49111
脩	-9.4912
發熱	-9.49128
康	-9.49134
究	-9.49149
癰疽	-9.49155
雅	-9.49162
葱白	-9.49168
恣	-9.49202
奪	-9.49338
脊	-9.49923
天門	-9.49971
玄妙	-9.49973
也凡	-9.50021
鉛	-9.50038
皆有	-9.50039
罷	-9.50113
壁	-9.50154
不仁	-9.50317
太隂	-9.50378
地黄	-9.50584
無量	-9.50606
宻	-9.50626
葱	-9.50662
祟	-9.50681
卦	-9.50894
喉	-9.5097
乏	-9.50989
掩	-9.51022
填	-9.5105
的	-9.5105
舒	-9.51055
豐	-9.51074
守一	-9.51167
上昇	-9.51241
吉凶	-9.51275
聖賢	-9.51289
未能	-9.51361
自知	-9.51416
腹滿	-9.51707
潰	-9.51849
上有	-9.51887
凡事	-9.52011
仲	-9.52031
讚	-9.52034
癡	-9.52056
奉行	-9.52168
度人	-9.52309
將來	-9.52312
可謂	-9.52314
心意	-9.52357
五升	-9.52428
爐	-9.5247
口口	-9.525
右出	-9.52646
復有	-9.52715
六十	-9.52796
焰	-9.52819
戲	-9.52826
縮	-9.52877
恍惚	-9.52936
網	-9.52951
積聚	-9.5302
託	-9.53029
拘	-9.53073
三月	-9.53097
麥	-9.535
亦不	-9.53546
不信	-9.53586
若能	-9.53612
預	-9.53619
輿	-9.53701
大便	-9.53711
行持	-9.53712
艾	-9.53806
秦芁	-9.53868
文書	-9.53878
入道	-9.53914
治病	-9.53941
束	-9.53961
秦	-9.5397
人身	-9.53996
一服	-9.54015
上天	-9.54049
恨	-9.54055
肘後	-9.54095
神王	-9.54285
何所	-9.54285
癢	-9.54313
團	-9.54348
痰	-9.5436
焦	-9.54495
是爲	-9.54599
所致	-9.54609
八景	-9.54696
泰	-9.54915
世人	-9.5492
又灸	-9.54924
蠟	-9.5493
燒灰	-9.55008
跨	-9.55013
犀角	-9.55018
剋	-9.55019
摧	-9.55063
丹參	-9.55096
南極	-9.55166
蜜和	-9.55287
爲道	-9.55678
㫖	-9.55736
兔	-9.55851
教化	-9.55854
杜仲	-9.55925
空心	-9.55956
神氣	-9.56023
袍	-9.56056
千里	-9.56057
辱	-9.56094
表裏	-9.56103
式	-9.56112
核	-9.56142
者亦	-9.56186
手執	-9.56191
般般	-9.56277
酆都	-9.5631
七祖	-9.56315
綿	-9.56337
弟	-9.56468
各等	-9.56516
不失	-9.56562
晴	-9.56682
邪氣	-9.56694
不絶	-9.56715
故云	-9.5678
五合	-9.56786
酢	-9.56826
莖	-9.56895
玄都	-9.56955
喫	-9.5702
拭	-9.5703
苦參	-9.57048
促	-9.57055
四者	-9.57062
些	-9.57096
金蓮	-9.57129
叔	-9.57184
訓	-9.57184
混沌	-9.57186
德君	-9.57351
金剛	-9.57418
男子	-9.57444
芒	-9.57591
烈	-9.57651
朱書	-9.57663
一方	-9.57798
北斗	-9.57863
昭	-9.57965
葛	-9.57981
紫菀	-9.5799
校正	-9.58033
宋朝	-9.58052
膿血	-9.58052
烟	-9.58078
少卿	-9.58099
軟	-9.58105
芳	-9.58115
掃	-9.58119
頑	-9.58121
其脉	-9.58241
大腸	-9.58256
道學不得	-9.58282
不安	-9.58318
逸	-9.58331
千金翼	-9.58396
痢	-9.58481
京	-9.58539
又方取	-9.58582
丈	-9.5864
循	-9.58928
賢聖	-9.58957
薯蕷	-9.58969
不出	-9.59105
整	-9.59158
謙	-9.59282
了了	-9.59362
門户	-9.59436
守太	-9.59513
草木	-9.59596
太素	-9.59691
肘	-9.59841
者也	-9.59841
東華	-9.59867
太虚	-9.59873
彩	-9.599
滓	-9.60019
礙	-9.60025
四兩	-9.60051
以水	-9.60117
林億	-9.60127
程	-9.60167
醒	-9.60267
掛	-9.6029
着	-9.60301
人有	-9.60312
生瘡	-9.60346
黄帝	-9.60458
一百	-9.60514
妻	-9.60691
天帝	-9.61009
不相	-9.61009
前胡	-9.61053
方便	-9.61058
腑	-9.61063
瘦	-9.61078
恁	-9.61085
茯神	-9.61103
三田	-9.61113
川芎	-9.61158
講	-9.6117
嬰兒	-9.61183
穩	-9.61251
山茱萸	-9.61255
杜	-9.61282
於人	-9.61294
墜	-9.61364
謁	-9.61386
偶	-9.6145
亦得	-9.61451
倚	-9.61463
膈	-9.61587
浮華	-9.61601
故曰	-9.61683
我身	-9.61752
飲酒	-9.61831
此法	-9.61964
無復	-9.61984
入符	-9.62123
具足	-9.62127
軍	-9.62179
鍾乳	-9.62262
赤小豆	-9.62268
廉	-9.62351
蝕	-9.62362
岸	-9.62366
汞	-9.6237
冒	-9.62372
減	-9.62374
淳	-9.62387
裙	-9.62387
希夷	-9.62399
沐浴	-9.62405
眀	-9.62419
獻	-9.62442
宋	-9.62443
輪迴	-9.62443
不如	-9.62446
鼻中	-9.62492
紫微	-9.6255
山侗	-9.62563
魂魄	-9.62594
號曰	-9.62915
殺人	-9.62953
澀	-9.63002
疽	-9.63069
至道	-9.63109
无上	-9.6315
善者	-9.6318
下之	-9.63281
論曰	-9.63289
枕	-9.63346
風雨	-9.63346
暑	-9.63428
霍亂	-9.63431
牒	-9.63493
匿	-9.63554
係	-9.63558
下降	-9.63789
胸	-9.63871
者即	-9.63882
中和	-9.63892
更相	-9.63916
姓名	-9.64335
師父	-9.64399
飄	-9.64459
防己	-9.64467
夕	-9.64519
小腸	-9.64556
鮮	-9.64571
無可	-9.64577
續斷	-9.64587
晋	-9.64605
嘆	-9.64647
途	-9.64652
若不	-9.64667
獸	-9.64694
籠	-9.64701
判	-9.64726
太微	-9.64917
答曰	-9.64969
中黄	-9.65089
不爲	-9.65252
億	-9.65317
小人	-9.65342
之下	-9.65342
皆是	-9.65377
繒	-9.65394
煑取三升分三服	-9.65426
不覺	-9.65479
粗	-9.65487
静	-9.65516
翼	-9.65536
摇	-9.65591
椎	-9.65637
艮	-9.65649
噫	-9.65666
雲霞	-9.65724
塗之	-9.65769
編	-9.65771
埋	-9.65771
一箇	-9.6623
通草	-9.66301
斷絶	-9.66323
北極	-9.66387
問曰	-9.66401
吾書	-9.66438
不成	-9.66664
餌	-9.66754
鸞	-9.66825
垢	-9.66828
酥	-9.66852
廟	-9.66871
苟	-9.66877
荒	-9.66888
靖	-9.66924
暢	-9.66947
屏	-9.66971
清閑	-9.66986
憶	-9.67008
二錢	-9.67072
龍虎	-9.6723
地上	-9.67356
右手	-9.67534
愚人	-9.67634
女人	-9.67647
逃	-9.67719
修鍊	-9.67795
也是	-9.67887
燕	-9.67896
癇	-9.67929
血脉	-9.67945
棲	-9.67961
二寸	-9.68024
帛	-9.68024
三教	-9.68109
六畜	-9.68145
延年	-9.68338
温服	-9.68432
後生	-9.68437
慾	-9.68476
愼之	-9.68493
惡人	-9.68726
次念	-9.68872
一宿	-9.68883
金玉	-9.68942
一錢	-9.68985
否	-9.69025
半兩	-9.69025
嗽	-9.69036
萬事	-9.69064
度世	-9.69079
搯	-9.69107
彈	-9.69114
擇	-9.69152
□	-9.69157
轟	-9.69174
乙	-9.69181
辨	-9.6919
仗	-9.69203
佐	-9.69227
右出洞玄	-9.69248
鐘	-9.69249
翳	-9.69255
滋	-9.69267
勉	-9.69282
通靈	-9.69321
名利	-9.69359
之文	-9.69364
陸	-9.69413
也天	-9.69426
此藥	-9.69491
是其	-9.69649
明月	-9.69652
也然	-9.69673
日用	-9.69715
者加	-9.69745
古者	-9.69756
第九	-9.69825
生於	-9.69856
相隨	-9.69858
芽	-9.70002
砂	-9.70018
闡	-9.70047
祖師	-9.7013
麫	-9.70155
一年	-9.70159
伸	-9.7021
皂莢	-9.70219
人情	-9.70237
調和	-9.70247
而死	-9.7025
瑶	-9.70295
▲▲	-9.70312
蒲黄	-9.7032
鞭	-9.70368
叩齒	-9.70394
煩惱	-9.7041
蔽	-9.70448
結成	-9.70469
齎	-9.70505
不樂	-9.70566
六合	-9.7067
六銖	-9.7086
天眞	-9.70931
東北	-9.7094
天人	-9.71029
八方	-9.71073
仙官	-9.71178
故也	-9.7118
血氣	-9.71418
甲乙	-9.71426
斧	-9.71458
割	-9.71462
四海	-9.71484
鋪	-9.71549
六甲	-9.71552
禱	-9.71553
旬	-9.71575
緫	-9.71606
苗	-9.71638
前程	-9.71732
五老	-9.71744
右四味	-9.71794
効	-9.71911
身心	-9.71979
四大	-9.71999
火急	-9.72177
而反	-9.72186
鑪	-9.72232
濃	-9.72242
與天	-9.72307
第十	-9.72314
平等	-9.72436
後世	-9.72512
混合	-9.72542
明師	-9.72542
捧	-9.72551
十七	-9.72556
麴	-9.72561
圍	-9.72609
蘭	-9.72766
靈寶	-9.72771
枉	-9.72857
上士	-9.73066
靈明	-9.73145
上古	-9.73195
即止	-9.73228
有一	-9.7326
淨明	-9.73399
八銖	-9.73485
爲子	-9.7354
史	-9.73826
清風	-9.73834
搗	-9.73836
)○(	-9.73873
尖	-9.73888
天文	-9.73891
飛行	-9.73895
歘火	-9.73936
排	-9.73946
一炁	-9.73957
兹	-9.74003
供	-9.74012
本來	-9.74023
平旦	-9.74051
戊	-9.74099
已上	-9.7412
九年	-9.74135
西山	-9.7416
不盡	-9.74248
灸之	-9.74291
二斗	-9.74317
東向	-9.74399
先生曰	-9.74402
憐	-9.74531
之心	-9.74622
細細	-9.74846
靈光	-9.74849
天罡	-9.74899
屑	-9.75019
天門冬	-9.75079
欣	-9.75115
乆	-9.75183
窗	-9.75185
彰	-9.75217
魏	-9.75233
囚	-9.75235
心腹	-9.7527
率	-9.75279
蹤	-9.7528
少許	-9.75446
下利	-9.75479
靈官	-9.75488
楊	-9.75495
簿	-9.75554
中元	-9.75561
故能	-9.75632
甲子	-9.75688
一曰	-9.75804
少氣	-9.75812
缺	-9.7586
長存	-9.76029
猪脂	-9.76048
空中	-9.76059
孰	-9.76104
遵	-9.76215
餅	-9.76337
準	-9.76369
脱	-9.76369
三氣	-9.76375
天皇	-9.76392
害風	-9.76395
鹹	-9.76411
段	-9.76414
嘔吐	-9.76489
此是	-9.7649
一合	-9.76515
何處	-9.76629
元始天尊	-9.76637
玉晨	-9.76939
水銀	-9.76951
薑	-9.771
握	-9.77192
馬風	-9.77201
劑	-9.77428
成就	-9.77435
鹿	-9.77469
瘡上	-9.77516
可用	-9.77537
此經	-9.77558
者有	-9.77567
腰痛	-9.77588
畜	-9.77655
松脂	-9.77664
盜賊	-9.77692
蘆	-9.77726
恃	-9.7773
喻	-9.77732
酬	-9.77748
用藥	-9.77753
玲瓏	-9.77755
九宫	-9.77771
一事	-9.77874
吽	-9.7789
合和	-9.77934
愁苦	-9.77946
百姓	-9.77958
酒服方寸七日三	-9.78039
圓明	-9.78095
符命	-9.78097
上仙	-9.78312
北向	-9.78344
來往	-9.78504
之屬	-9.78567
所爲	-9.78658
菟絲子	-9.78832
入室	-9.78835
藜蘆	-9.78853
邀	-9.78884
顛	-9.78916
憎	-9.7893
攢	-9.7898
虚實	-9.78992
醜	-9.78996
按之	-9.78998
村	-9.79024
何以故	-9.79029
玉京	-9.79033
綿綿	-9.79037
十九	-9.79059
竊	-9.79078
雷局	-9.79081
其治	-9.79117
各自	-9.79211
不明	-9.79241
神光	-9.79251
渾	-9.79322
五星	-9.79354
無名	-9.7936
次灸	-9.79488
人所	-9.79518
元陽	-9.7958
灑	-9.79582
神丹	-9.79656
亦無	-9.79702
右爲末	-9.79922
也子	-9.79922
爲一	-9.79989
季	-9.80081
誦經	-9.80111
鼈甲	-9.80113
天神	-9.80151
祕閣校理	-9.80154
聾	-9.80178
欲得	-9.80189
炁入	-9.80248
僻	-9.80273
基	-9.80324
值	-9.80327
據	-9.80328
旣	-9.80336
釣	-9.80362
教人	-9.80384
庵	-9.80448
其道	-9.80495
不利	-9.80512
故天	-9.80535
所生	-9.8058
倦	-9.8058
從來	-9.80753
可知	-9.80763
毎	-9.80848
馳	-9.81021
死者	-9.81053
椒	-9.81325
飛天	-9.81333
者從	-9.81341
病在	-9.81487
曝乾	-9.81505
澤蘭	-9.81532
丙	-9.81543
乍	-9.81555
絹	-9.81556
皂	-9.81569
無生	-9.81595
真文	-9.81604
懼	-9.81628
融	-9.81633
主人	-9.81634
借	-9.81651
配	-9.81659
鋒	-9.81666
劍	-9.81667
謀	-9.81668
太乙	-9.81707
唐	-9.81719
刀圭	-9.81724
博	-9.81738
選	-9.81752
熱病	-9.81831
肌肉	-9.81851
諸藥	-9.81868
行事	-9.82115
無憂	-9.82127
衆聖	-9.82222
洞神	-9.82241
如法	-9.82355
仙公	-9.8241
此人	-9.82437
思之	-9.82492
下痢	-9.82546
不食	-9.82553
亦治	-9.82653
所居	-9.82653
以傳	-9.82775
裂	-9.82844
以自	-9.82848
婆	-9.82876
糞	-9.82936
又曰	-9.8295
溢	-9.82954
庚	-9.82981
屎	-9.82992
荷	-9.82996
祭	-9.83061
頭面	-9.83102
發汗	-9.83222
言語	-9.8338
下血	-9.83437
肌	-9.83488
蓬	-9.83537
去皮	-9.83646
其心	-9.83678
不祥	-9.83699
五者	-9.83813
精氣	-9.83833
明堂	-9.84034
沫	-9.84109
蓬島	-9.84142
涎	-9.84153
焙	-9.84159
壬	-9.84191
五十壯	-9.84213
人心	-9.84233
宰	-9.84235
健	-9.84258
兇	-9.84264
澄清	-9.84304
乖	-9.84342
享	-9.84347
默默	-9.84378
嗣	-9.84425
右出洞眞	-9.84429
不調	-9.84466
飾	-9.84511
玄玄	-9.84545
漸漸	-9.84575
五寸	-9.84614
次第	-9.84629
修持	-9.84779
少陽	-9.84838
人生	-9.84876
吐血	-9.84977
八十	-9.84979
無事	-9.85181
腹脹	-9.8526
癲	-9.85288
崩	-9.85306
隨年壯	-9.85482
橋	-9.85522
彭	-9.8564
犬	-9.85641
祈雨	-9.85659
稀	-9.85687
壓	-9.85693
西南	-9.85713
四時五行	-9.85718
空洞	-9.85724
標	-9.85735
瞻	-9.85747
㑹	-9.85797
賓	-9.858
材	-9.85804
三合	-9.85826
圓成	-9.85889
下元	-9.85905
種種	-9.85907
又方燒	-9.8603
白虎	-9.86061
脹滿	-9.86115
右用	-9.86228
嚥	-9.8624
生滅	-9.86292
先以	-9.86436
顔色	-9.86458
言之	-9.8654
善哉	-9.8655
胎仙	-9.86572
瓜	-9.86691
太陰	-9.86708
火光	-9.86801
皓	-9.86817
三分	-9.86829
諸公	-9.86871
牡丹	-9.86901
莽草	-9.8692
盖	-9.86946
琴	-9.86973
失其	-9.87027
是我大病	-9.87062
而成	-9.87106
八月	-9.87117
頓服	-9.87246
生涯	-9.87261
之家	-9.8729
歇	-9.87315
榮華	-9.87322
三焦	-9.87397
所在	-9.87401
一月	-9.8743
久久	-9.87445
王者	-9.87539
各一兩	-9.87583
而得	-9.87623
右三味	-9.87645
頭上	-9.87696
眩	-9.8771
一丸	-9.87741
也是故	-9.8783
額	-9.87879
疾病	-9.87893
三十二	-9.87944
蒜	-9.87954
承負	-9.87987
不離	-9.88037
凡有	-9.88048
劒	-9.88103
吾奉	-9.88163
殻	-9.88165
湧	-9.88212
萬靈	-9.88263
槐	-9.88274
黄蘖	-9.88313
嘔逆	-9.8839
練	-9.88404
徳	-9.88444
滑石	-9.88483
奸	-9.88488
旗	-9.88502
署	-9.88512
凌	-9.8852
活計	-9.8852
女子	-9.8852
剪	-9.88527
争	-9.88529
踈	-9.88529
鬥	-9.88533
厨	-9.88536
終日	-9.88562
與人	-9.88707
俗人	-9.88885
本命	-9.89034
如前	-9.8911
測	-9.89157
根源	-9.8917
盜	-9.89301
各八	-9.89498
到處	-9.89501
天丁	-9.89574
爲天	-9.89646
又以	-9.89694
沖	-9.89729
浩	-9.89795
戴	-9.8981
鷄	-9.8981
善哉善哉	-9.89817
方取	-9.89839
嗔	-9.8987
右符	-9.89885
諫	-9.89907
若見	-9.89908
域	-9.8991
嶺	-9.89915
十月	-9.89917
涉	-9.89923
箭	-9.89926
云何	-9.89932
攀	-9.89933
扇	-9.89935
咄	-9.89939
僧	-9.89944
蓬瀛	-9.8996
篤	-9.89967
之門	-9.89976
渡	-9.89982
均	-9.89993
寢	-9.90004
魔王	-9.9002
法門	-9.90127
黄金	-9.90253
人自	-9.90309
六月	-9.90337
大乘	-9.90455
天下之	-9.905
之則	-9.90543
功夫	-9.90682
一分	-9.90711
婦	-9.90753
尊神	-9.90873
白蜜	-9.90944
相去	-9.91043
有功	-9.91111
産後	-9.91144
其意	-9.91232
頸	-9.9125
逮	-9.91252
起於	-9.91263
狗	-9.91289
陶	-9.91327
即爲	-9.91333
淪	-9.91333
盞	-9.91336
兄	-9.91383
廬	-9.91386
徘徊	-9.91388
撥	-9.9142
上宫	-9.91421
警	-9.91496
虧	-9.91521
扶風	-9.91703
黄芽	-9.91703
無毒	-9.91794
不行	-9.91797
不必	-9.9181
以來	-9.91853
眞道	-9.91968
三百	-9.91996
下一寸	-9.92098
以酒	-9.9215
邪精	-9.92186
塊	-9.92312
其氣	-9.92364
和氣	-9.92374
劣	-9.92592
隆	-9.92606
青龍	-9.92625
肚	-9.92684
併	-9.9276
怠	-9.92766
范	-9.92794
疾速	-9.92803
漆	-9.92819
卜	-9.92843
玉訣	-9.92844
闊	-9.92873
逝	-9.92904
駭	-9.92905
針灸	-9.92917
赤白	-9.92995
大法	-9.93056
不犯	-9.93088
何有	-9.93092
去滓内	-9.93199
脇	-9.93316
入腹	-9.93345
認得	-9.93586
故使	-9.93683
頃	-9.93733
一粒	-9.93737
傅之又方	-9.93744
其言	-9.93877
烹	-9.93931
相生	-9.94001
惱	-9.9404
他人	-9.94045
一斗	-9.94057
其二	-9.94096
修仙	-9.9411
社	-9.94118
蠱	-9.94126
作用	-9.94129
自得	-9.94181
岀	-9.94201
荆	-9.94267
莊	-9.94269
兌	-9.94273
問之	-9.94288
翫	-9.94296
乃可	-9.94304
无量	-9.94312
今古	-9.94328
竹瀝	-9.94332
物物	-9.94333
船	-9.94367
小麥	-9.94396
道衆	-9.94405
押	-9.94413
黙	-9.94422
逺	-9.9445
法服	-9.94502
五分	-9.94518
勿食	-9.9488
中間	-9.9499
不順	-9.95055
大羅	-9.9507
懈	-9.95289
三四	-9.95426
胃中	-9.95471
閑閑	-9.95488
之意	-9.95501
從此	-9.95517
衆多	-9.95717
炷	-9.95732
寸口脉	-9.95749
頰	-9.95763
相傳	-9.95764
兊	-9.95767
不問	-9.95785
尅	-9.95798
刃	-9.95823
開度	-9.95842
喝	-9.95845
匠	-9.95855
牀	-9.95877
下部	-9.95886
諾	-9.95924
治妊娠	-9.95927
薦	-9.95935
紋	-9.95937
通天	-9.95941
赫	-9.95943
襟	-9.95966
何時	-9.95986
之理	-9.96018
等分	-9.9602
天心	-9.96039
玉真	-9.96098
赤書	-9.96141
見其	-9.96339
皆以	-9.96454
陷中	-9.96604
與天地	-9.96677
正道	-9.96701
五兩	-9.96716
自己	-9.96765
無心	-9.96822
陰氣	-9.96875
無知	-9.96892
出於	-9.97078
以成	-9.97092
二氣	-9.9715
不孝	-9.97154
劔	-9.97157
濇	-9.97195
腐	-9.97218
臟腑	-9.97252
篆	-9.97283
完	-9.97285
皮膚	-9.97295
睛	-9.97306
叉	-9.97323
桑白皮	-9.97339
出世	-9.97345
太上大道君	-9.97345
番	-9.97368
晩	-9.97369
麤	-9.97377
擁	-9.97401
煥	-9.97402
洒	-9.9741
不言	-9.97435
懽	-9.9745
嘯	-9.97461
伊	-9.97466
其事	-9.97479
功曹	-9.97512
聦明	-9.97522
得失	-9.97528
風火	-9.97539
消渴	-9.97542
謫	-9.977
灾害	-9.97757
南嶽	-9.9783
土地	-9.97832
實則	-9.97869
之名	-9.9791
風仙	-9.9793
因而	-9.9794
唇	-9.97948
次存	-9.98029
凢	-9.98235
知音	-9.98266
不在	-9.98358
功滿	-9.98465
一云	-9.98516
皆當	-9.98611
羸	-9.98648
术	-9.98693
展	-9.9873
股	-9.98736
治下篩	-9.98745
晃	-9.98769
煩悶	-9.98841
滴	-9.98858
眥	-9.98862
檄	-9.98868
終南	-9.9887
賔	-9.98885
鬢	-9.98891
説	-9.98901
饑	-9.98907
錬	-9.98923
慵	-9.9897
無所不	-9.98976
不識	-9.99005
撰	-9.99013
鈎	-9.99022
殆	-9.99029
羸瘦	-9.99054
族	-9.99056
飄飄	-9.99206
太上道君	-9.99211
永永	-9.99252
象天	-9.99268
令使	-9.99314
九十	-9.99371
三十日	-9.99776
綿裹	-9.99794
心不	-9.99834
精進	-9.99956
得見	-9.99999
抵	-10.0016
得遇	-10.0024
一大	-10.0033
先天	-10.0046
津液	-10.0047
晚	-10.0049
蜀	-10.0049
薰	-10.005
豫	-10.0053
躍	-10.0053
嗟	-10.0054
盧	-10.0055
凖	-10.0055
仕	-10.0055
佛	-10.0056
衡	-10.0057
肅	-10.0058
至真	-10.0059
五氣	-10.0059
欽	-10.006
丙丁	-10.007
一二	-10.0073
十年	-10.0075
三炁	-10.0083
之言	-10.0092
九月	-10.0099
妙用	-10.01
清齋	-10.011
道法	-10.0113
者必	-10.0122
衣食	-10.0122
白皮	-10.0126
一氣	-10.0128
所行	-10.0137
之術	-10.014
治産後	-10.0141
故爲	-10.0144
風雷	-10.015
一片	-10.0151
腫痛	-10.0156
無私	-10.0164
以知爲度	-10.0164
電光	-10.0167
入符中	-10.0169
難治	-10.017
有人	-10.0178
服食	-10.0179
人皆	-10.0179
故名	-10.0187
悸	-10.0189
法身	-10.0198
枳殻	-10.0199
五味	-10.0199
床	-10.0203
截	-10.0205
煙霞	-10.0206
揺	-10.0207
挺	-10.0207
嚼	-10.0209
徵	-10.0209
泯	-10.0212
譚	-10.0212
哭	-10.0212
規	-10.0214
弊	-10.0214
操	-10.0215
旨	-10.0216
班	-10.0217
抛	-10.0217
玄中	-10.0217
叢	-10.0218
帔	-10.0218
紛紛	-10.022
萬物之	-10.0223
天有	-10.0226
相似	-10.0228
罔	-10.023
湯治産後	-10.0243
一首	-10.0251
三曰	-10.0251
賢明	-10.0261
隨縁	-10.0261
道學當念	-10.0271
山川	-10.0281
瘡口	-10.0287
身熱	-10.0299
無情	-10.0302
二七	-10.0305
非常	-10.0312
㕮咀	-10.0313
穴在	-10.0321
不可以	-10.0322
惡寒	-10.0325
稍稍	-10.0332
不自	-10.0335
猿	-10.0337
真炁	-10.0345
幻	-10.0349
維	-10.036
俠	-10.0362
嘘	-10.0369
梅	-10.0371
忙	-10.0371
畔	-10.0372
乃至	-10.0377
逹	-10.0378
場	-10.0378
崖	-10.0379
尼	-10.0379
勒	-10.0385
泛	-10.0385
藉	-10.0386
所以然者	-10.0388
褐	-10.0389
十分	-10.0392
頭戴	-10.0393
方大黄	-10.0404
呼吸	-10.0413
認取	-10.0414
爲佳	-10.0423
天地人	-10.0429
冠衣	-10.0434
惺惺	-10.0448
爲丸	-10.0449
六升	-10.0454
不下	-10.0457
仙道	-10.0457
胃氣	-10.0462
汙	-10.0467
靈靈	-10.0468
雖有	-10.0481
傳授	-10.0489
始終	-10.0489
之始	-10.0491
齋戒	-10.0492
故有	-10.0494
玄參	-10.0494
洗之	-10.051
疝	-10.0511
熨	-10.0515
八極	-10.0518
山林	-10.0519
不善	-10.0526
光陰	-10.0526
玄機	-10.0531
紫石英	-10.0531
射干	-10.0533
開悟	-10.0534
正月	-10.0536
皆可	-10.0536
栢	-10.0536
治婦人	-10.0537
孽	-10.0538
朱砂	-10.0538
鄧	-10.0538
橫	-10.054
羊肉	-10.054
聴	-10.054
壹	-10.054
貯	-10.0541
閣	-10.0541
三服	-10.0543
縳	-10.0543
遮	-10.0543
耕	-10.0546
逼	-10.0548
冀	-10.0549
遐	-10.0549
植	-10.0551
騁	-10.0551
費	-10.0552
瓊漿	-10.0552
一旦	-10.0553
八卦	-10.0556
拈	-10.0561
不能自	-10.0567
科曰凡	-10.0567
之處	-10.0572
二十七	-10.0575
是謂	-10.0576
三台	-10.0576
浮生	-10.0578
照耀	-10.0579
名山	-10.0579
經法	-10.0582
出血	-10.0584
長短	-10.0585
吾道	-10.0601
天蓬	-10.0611
凶惡	-10.0624
夜半	-10.0628
死人	-10.0633
家風	-10.0638
葶藶	-10.0641
見在	-10.0646
今朝	-10.0653
過去	-10.066
軀	-10.0677
也但	-10.0677
施行	-10.0679
匀	-10.068
頓服之	-10.0683
烏梅	-10.0694
吐下	-10.0695
癥	-10.0697
磁石	-10.0698
至誠	-10.0699
恬	-10.0705
侣	-10.0707
捲	-10.0709
粘	-10.0709
闇	-10.071
森	-10.0713
癸	-10.0714
詐	-10.0715
錫	-10.0716
揮	-10.0716
隅	-10.0717
俯	-10.0717
毒氣	-10.0721
可爲	-10.0721
二曰	-10.0721
乳香	-10.0722
奴	-10.0722
孟	-10.0723
當時	-10.0727
太真	-10.0729
人我	-10.073
二十日	-10.0732
元炁	-10.0733
福田	-10.0736
金華	-10.0738
寧海	-10.0739
苦海	-10.0742
牛黄	-10.0745
四升	-10.0747
紅塵	-10.0754
大洞	-10.0756
而有	-10.0759
日三服	-10.0759
七壯	-10.0763
臍下	-10.0765
而後	-10.0765
此皆	-10.0766
九色	-10.0772
保命	-10.0772
道成	-10.0772
玉字	-10.0779
皆須	-10.0789
不宜	-10.0791
十枚	-10.0793
一團	-10.0795
兆身	-10.0803
日三夜一	-10.0806
眞常	-10.0813
靈臺	-10.0815
礬	-10.0815
樞	-10.0816
甚者	-10.0823
之物	-10.0825
凡物	-10.0833
用心	-10.0833
不然	-10.0838
方見	-10.0845
玄元	-10.0847
之教	-10.0848
七寶	-10.0848
壘	-10.085
修道	-10.0852
方右用	-10.0858
咳	-10.0858
萎蕤	-10.0862
竅	-10.0863
也如	-10.0864
七星	-10.0868
爪	-10.0869
擲	-10.0874
洩	-10.0875
倉	-10.0876
說之	-10.0877
雀	-10.0878
何謂	-10.0878
大夫	-10.088
爲末以	-10.088
潭	-10.0881
耳聾	-10.0883
肆	-10.0884
晶	-10.0884
卑	-10.0884
猪膏	-10.0885
克	-10.0886
鉛汞	-10.0886
翔	-10.0888
銜	-10.0891
斑	-10.0892
眷	-10.0896
賦	-10.0897
虹	-10.0897
茂	-10.0897
微妙	-10.0903
恒山	-10.0914
利名	-10.0915
願聞	-10.0923
頌曰	-10.0925
上聖	-10.093
回頭	-10.0939
六天	-10.0951
天氣	-10.0964
朝元	-10.0965
此乃	-10.0971
事事	-10.0972
失之	-10.0985
萬象	-10.099
大神言	-10.0992
方可	-10.0995
何須	-10.1005
釜	-10.101
内有	-10.1011
步步	-10.1018
讓	-10.102
井花水	-10.1026
何不	-10.1027
耳目	-10.1028
金書	-10.103
第	-10.1033
副	-10.1039
雞子	-10.1045
糖	-10.1045
幼	-10.1052
此符	-10.1055
青木香	-10.1057
努力	-10.1065
袖	-10.1065
檀	-10.1067
蕭	-10.1068
婬	-10.1071
祠	-10.1074
威儀	-10.1079
識破	-10.1097
良又方	-10.1108
三塗	-10.1116
萬病	-10.1123
无爲	-10.1132
風月	-10.1142
患人	-10.1147
卷云	-10.1147
奉道	-10.1152
如有	-10.1162
吾言	-10.1166
之類	-10.1171
輕重	-10.1172
形容	-10.1179
千金	-10.1187
終不	-10.1189
取三升	-10.119
至眞	-10.1191
也吾	-10.1192
不去	-10.1196
不定	-10.1197
窌	-10.1204
失道	-10.121
太眞	-10.1214
脛	-10.1216
言也	-10.1217
水和	-10.1217
湯下	-10.1219
白薇	-10.1224
栀子仁	-10.123
系	-10.123
萬化	-10.1233
之宫	-10.1233
忿	-10.1236
服之又方	-10.1236
神君	-10.1237
漱	-10.1238
道也	-10.1238
製	-10.1238
箕	-10.1239
璧	-10.1243
不除	-10.1243
綵	-10.1247
閉塞	-10.1247
吾文	-10.1247
清酒	-10.1247
覽	-10.1248
範	-10.1249
述懷	-10.125
常行	-10.1252
雲中	-10.1253
木香	-10.1255
誕	-10.1257
當願一切	-10.1261
風冷	-10.1268
而自	-10.1279
學士	-10.1282
東海	-10.1284
神霄	-10.1289
能生	-10.1299
神通	-10.1315
不消	-10.1317
娑訶	-10.1322
眞珠	-10.1327
水雲	-10.1337
五六	-10.1339
仙家	-10.1348
星君	-10.1357
高下	-10.136
無道	-10.1361
人君	-10.1369
脉浮	-10.1371
四面	-10.1371
其德	-10.1378
處處	-10.1378
加至	-10.138
道家	-10.1381
某甲	-10.1382
痿	-10.1384
念道	-10.1391
脉來	-10.1398
害人	-10.1398
胃管	-10.1406
天元	-10.1407
芫花	-10.1409
朴	-10.141
癖	-10.141
盲	-10.1413
不悟	-10.1418
弓	-10.142
有病	-10.1425
買	-10.1425
乎哉	-10.1425
捐	-10.1426
栽	-10.1428
邑	-10.1428
抑	-10.1429
勾	-10.143
亘初	-10.1432
嫉妬	-10.1433
噎	-10.1436
咒曰	-10.1438
清明	-10.144
巢	-10.144
禮拜	-10.1444
世界	-10.1448
玉液	-10.1451
五炁	-10.1456
也人	-10.1461
以致	-10.1463
門人	-10.1463
不受	-10.1464
右五味	-10.1468
眞文	-10.1472
世世	-10.1478
行此	-10.1481
省悟	-10.1483
四分	-10.1486
一聲	-10.1486
五神	-10.1487
下手	-10.1489
及諸	-10.1494
天真	-10.1501
未有	-10.1502
論曰凡	-10.1504
爲法	-10.1507
無漏	-10.1512
擒	-10.1514
東西	-10.1521
冷水	-10.1528
用此	-10.1533
出離	-10.1533
歸來	-10.1533
在其中	-10.1537
九日	-10.1542
其形	-10.155
朽	-10.1554
之師	-10.1554
妊娠	-10.1561
鄰	-10.1564
脚氣	-10.1566
街	-10.1574
人道	-10.1587
蠶	-10.1587
地骨皮	-10.1587
檳榔	-10.159
者此	-10.1591
有過	-10.1592
商	-10.1593
瘰癧	-10.1595
疫	-10.1597
恚	-10.1598
兩邊	-10.1599
即瘥	-10.1601
訶	-10.1602
藍	-10.1604
甫	-10.1605
俯仰	-10.1605
歳	-10.1606
洽	-10.1607
酒下	-10.1607
捷	-10.1608
替	-10.1609
嫌	-10.1609
咽喉	-10.1609
蟾	-10.161
奥	-10.161
韓	-10.161
惹	-10.1612
蠱毒	-10.1613
刑罰	-10.1614
鑒	-10.1615
豪	-10.1618
裝	-10.162
九道	-10.1624
歡喜	-10.1626
空腹	-10.1628
賀	-10.1628
清静	-10.1633
養性	-10.1642
不可不	-10.1643
四月	-10.1647
金銀	-10.1649
炭	-10.166
冷熱	-10.1661
瘟	-10.1662
少陰	-10.1663
無邊	-10.1675
迴頭	-10.1675
已成	-10.1681
病苦	-10.1684
三里	-10.1684
又方以	-10.1696
心煩	-10.1698
何者	-10.17
得仙	-10.1714
跳	-10.1729
盆	-10.1731
血出	-10.1738
二年	-10.1739
天官	-10.1746
腋	-10.1746
與之	-10.1755
萬丈	-10.1757
乃得	-10.1762
天中	-10.1765
去來	-10.1775
艾葉	-10.178
寸口	-10.178
泣	-10.1782
硬	-10.1785
六者	-10.1787
刮	-10.1788
郞	-10.1788
鼈	-10.1788
胡粉	-10.179
者宜	-10.1792
甜	-10.1793
卓	-10.1793
趨	-10.1796
薪	-10.1801
▲▲▲	-10.1801
二分	-10.1801
曠	-10.1803
柏	-10.1803
吕	-10.1803
龍膽	-10.1803
陀	-10.1803
怕	-10.1805
百歲	-10.1808
相與	-10.181
逕	-10.181
五種	-10.1811
之外	-10.1812
流注	-10.1817
尸解	-10.1823
火鈴	-10.1826
有無	-10.1827
一方用	-10.183
青霄	-10.1834
麵	-10.1834
方知	-10.1834
寂然	-10.1837
其功	-10.1852
純陽	-10.1853
亦然	-10.1855
與神	-10.1857
粟	-10.1859
有道	-10.1862
不治	-10.1868
上眞	-10.1871
三尸	-10.1875
百神	-10.1877
者謂	-10.1882
怎生	-10.1884
周流	-10.1885
同前	-10.1888
天堂	-10.189
生人	-10.1894
不住	-10.19
三才	-10.1904
者主	-10.1911
地下	-10.1917
立功	-10.192
何爲	-10.192
互	-10.1923
誦之	-10.1923
者不	-10.1928
國家	-10.1935
知道	-10.1943
咒	-10.1951
將吏	-10.1952
五道	-10.1953
直符	-10.1954
有熱	-10.196
巨闕	-10.1971
衣服	-10.1977
忤	-10.1977
喘息	-10.1978
羚羊角	-10.1978
阻	-10.1978
生者	-10.1979
白石英	-10.1979
皆得	-10.198
腥	-10.198
遁	-10.1981
一具	-10.1982
所得	-10.1983
築	-10.1983
菊花	-10.1984
悟徹	-10.1985
耗	-10.1986
耐	-10.1986
囉	-10.1989
端的	-10.1989
伍	-10.1989
𦋇	-10.199
凈	-10.1992
愍	-10.1993
禳	-10.1993
兄弟	-10.1994
貴賤	-10.1995
枷	-10.1996
構	-10.2
賴	-10.2001
傷人	-10.2002
險	-10.2002
方寸	-10.2004
時有	-10.2006
硫黄	-10.2011
行功	-10.2017
二日	-10.2017
壯熱	-10.2021
赤帝	-10.2024
天法	-10.2026
九炁	-10.2036
遠近	-10.2038
一味	-10.2041
无窮	-10.2046
精思	-10.2056
天關	-10.2066
九幽	-10.2089
三七	-10.2093
上至	-10.21
動靜	-10.21
以何	-10.2106
三十二天	-10.2117
不正	-10.212
丈夫	-10.2126
虎龍	-10.2129
敢有	-10.2131
養就	-10.2136
攣	-10.2136
之數	-10.2136
萬縁	-10.214
靈童	-10.2144
上法	-10.2148
八十一	-10.215
只是	-10.2151
逍遥自在	-10.2152
之治	-10.2161
骸	-10.2161
風寒	-10.2163
踏	-10.2171
何必	-10.2172
叩	-10.2174
疥	-10.2175
涕	-10.2178
縫	-10.2179
甘遂	-10.2179
有知	-10.2182
丁香	-10.2183
鯉魚	-10.2183
繁	-10.2184
魁罡	-10.2184
屢	-10.2186
懶	-10.219
譽	-10.2191
喬	-10.2191
瑶臺	-10.2193
其三	-10.2199
兒孫	-10.2199
服方寸七	-10.2201
好生	-10.2207
者其	-10.2207
歡樂	-10.2211
者但	-10.2214
黄籙	-10.2216
絳宫	-10.222
治諸	-10.2224
布施	-10.2224
訣曰	-10.2229
石南	-10.223
返照	-10.2232
地户	-10.2235
又方治	-10.2238
不和	-10.224
之功	-10.2241
根本	-10.2247
胸中	-10.2251
之故	-10.2253
有心	-10.2256
得得	-10.2257
五月	-10.2262
三寶	-10.2267
多食	-10.2273
當先	-10.2279
良因	-10.2284
不以	-10.2289
生成	-10.2292
依法	-10.2293
明眞	-10.2298
國王	-10.2298
得其意	-10.2301
真王	-10.2301
狀如	-10.2309
福地	-10.231
威靈	-10.2311
成仙	-10.2314
大人	-10.2318
神驗	-10.2328
相見	-10.2342
元神	-10.2342
自生	-10.2342
因果	-10.2353
天王	-10.2354
腕	-10.2356
圓光	-10.2358
妙理	-10.2359
其神	-10.236
藁本	-10.2361
癲疾	-10.2361
不忘	-10.2364
剉	-10.2364
微火煎	-10.2366
論方	-10.2366
黄疸	-10.2369
臘	-10.2372
取之	-10.2372
茵芋	-10.2374
脇下	-10.2375
蜈蚣	-10.2375
圭	-10.2376
層	-10.2376
炊	-10.2377
旁	-10.2382
鑿	-10.2384
守道	-10.2385
下治	-10.2385
煩滿	-10.2387
些兒	-10.2389
鑑	-10.239
頗	-10.239
其子	-10.2391
金色	-10.2391
若欲	-10.2392
擎	-10.2392
與道	-10.2394
撫	-10.2394
滋味	-10.2394
綺	-10.2395
陳皮	-10.2395
也善哉善哉	-10.2395
成功	-10.24
罪賜	-10.2401
每日	-10.2403
虞	-10.2404
深知	-10.2404
寒暑	-10.2405
欲樂	-10.241
一道	-10.2412
風毒	-10.2416
煎湯	-10.2417
箇箇	-10.2419
紫府	-10.2419
祝曰	-10.2421
九霄	-10.2423
外臺	-10.2425
通明	-10.2428
經曰	-10.2436
機關	-10.2443
雷聲	-10.2443
則有	-10.2448
之本	-10.2454
玄天	-10.2465
太虛	-10.2472
方寸七	-10.2473
太白	-10.2477
方以	-10.2478
而言	-10.249
之義	-10.2508
古人	-10.2517
爲害	-10.2523
億萬	-10.2523
昇仙	-10.2525
㸃	-10.2526
不能言	-10.253
大帝	-10.2531
爲大	-10.2534
者是也	-10.2535
也真人	-10.2536
人中	-10.2537
其行	-10.2543
玉童	-10.2558
旱	-10.2563
瘻	-10.2564
二十五	-10.2566
豁	-10.2566
妃	-10.2569
𥿄	-10.2576
骷髏	-10.2578
切一	-10.2579
羹	-10.2581
壅	-10.2582
膜	-10.2582
也無	-10.2582
箇中	-10.2582
躡	-10.2584
分再服	-10.2584
薤白	-10.2586
帖	-10.2587
線	-10.2587
半升	-10.2589
冶	-10.2591
天機	-10.2591
在内	-10.2591
哥	-10.2591
濡	-10.2592
氣血	-10.2592
馨香	-10.2592
拱	-10.2594
魯	-10.2594
這箇	-10.2599
在上	-10.2599
樸	-10.26
月中	-10.2602
不負	-10.2605
導引	-10.2607
禁忌	-10.2609
更服	-10.2614
謹請	-10.2616
聰明	-10.2616
忽然	-10.2618
身形	-10.2618
數日	-10.2624
石灰	-10.2625
邪鬼	-10.2629
瘥又方	-10.263
炁吹	-10.2633
可不	-10.2634
是以真人	-10.2636
自言	-10.2637
去滓下	-10.2638
道言	-10.2644
亦如	-10.2647
金童	-10.2651
存亡	-10.2652
於中	-10.266
本文	-10.2661
亦名	-10.2665
達理	-10.2665
心地	-10.2665
二味	-10.2667
妙玄	-10.2675
是名	-10.2677
二儀	-10.2678
一寸半	-10.2681
一物	-10.2684
更生	-10.2692
不與	-10.2694
其君	-10.2697
民臣	-10.2704
唵吽吽	-10.2706
火輪	-10.2706
七月	-10.2707
不起	-10.2708
飛雲	-10.2709
煎取	-10.271
三宫	-10.271
其本	-10.2715
覺悟	-10.2716
后	-10.2722
惡者	-10.2729
右爲細末	-10.2737
雷鳴	-10.2739
在人	-10.2745
杯	-10.2747
氣不足	-10.275
臍中	-10.2755
氣神	-10.2755
者生	-10.2758
右法	-10.2759
不愈	-10.276
地仙	-10.2761
一卷	-10.2767
青童	-10.2767
煨	-10.2777
粳米	-10.2779
誥	-10.2781
柴	-10.2781
栢子仁	-10.2783
診	-10.2785
溟	-10.2787
車前子	-10.2787
春秋	-10.2788
軿	-10.2789
驢	-10.2789
妄語	-10.279
不能食	-10.2791
口噤	-10.2791
饒	-10.2791
稽	-10.2792
覷	-10.2793
腴	-10.2793
天將	-10.2795
趖	-10.2795
托	-10.2798
元始天王	-10.2799
一歲	-10.28
葵子	-10.28
竿	-10.2801
叅	-10.2802
窟	-10.2804
湖	-10.2804
和合	-10.2805
赦	-10.2806
肌膚	-10.2806
戮	-10.2806
板	-10.2811
匪	-10.2811
與地	-10.2812
豈不	-10.2813
誘	-10.2815
炎炎	-10.2815
化成	-10.2816
皆爲	-10.2823
譬如	-10.2827
火院	-10.2829
一念	-10.283
空外	-10.2834
其次	-10.2843
之子	-10.2845
惡風	-10.2854
者無	-10.2854
塵情	-10.2855
五錢	-10.2857
萬法	-10.2865
何也	-10.2867
三斗	-10.2875
之謂	-10.2883
明明	-10.2885
萬萬	-10.2885
煩熱	-10.2892
人不	-10.2893
須當	-10.2904
茱萸	-10.2907
天使	-10.2912
丸如梧子大	-10.2912
耳中	-10.2914
火燒	-10.2916
上書	-10.2919
三乘	-10.2924
罪福	-10.2934
二合	-10.2937
八百	-10.2937
通玄	-10.2944
惡瘡	-10.2946
芝草	-10.2946
賢人	-10.2949
未嘗	-10.295
絞	-10.296
眞仙	-10.2965
七轉	-10.2965
焚香	-10.2966
白日	-10.2966
大將軍	-10.2967
杏	-10.2967
有四	-10.2967
自在逍遥	-10.2969
道學	-10.297
真仙	-10.2977
壇前	-10.298
有此	-10.2983
炮	-10.2987
爲細末	-10.299
坑	-10.299
色界	-10.2996
鹿角	-10.2998
瓶	-10.2998
補之	-10.3003
株	-10.3007
乳汁	-10.3008
房室	-10.3009
馬鈺	-10.301
謬	-10.301
邈	-10.301
呪畢	-10.3011
裳	-10.3012
諦	-10.3014
劎	-10.3018
大指	-10.3018
鞋	-10.3021
寂寂	-10.3022
躬	-10.3023
其間	-10.3023
旦夕	-10.3026
爲末蜜丸如梧子大	-10.3026
悅喜	-10.3026
遊行	-10.3028
台	-10.3036
者常	-10.3038
同煎	-10.3039
如小豆	-10.3039
四聖	-10.304
南星	-10.3044
者如	-10.3044
必有	-10.3047
老人	-10.3052
閉目	-10.3055
輪轉	-10.3059
猶如	-10.3062
惡之	-10.3063
天雷	-10.3067
久服	-10.3067
羊脂	-10.3069
黄庭	-10.3071
以示	-10.3073
朔	-10.3074
也不	-10.3076
之臺	-10.3088
㝠㝠	-10.3091
不應	-10.3091
此三	-10.3092
三十年	-10.3094
食飲	-10.3094
無礙	-10.3094
我今	-10.3095
之際	-10.3096
吏兵	-10.3096
使得	-10.3099
家書	-10.3099
口訣	-10.31
靈源	-10.31
雲路	-10.3101
忘機	-10.3102
於地	-10.3111
隨其	-10.3114
黒炁	-10.3114
生姜	-10.3116
頓覺	-10.3119
昇玄	-10.3119
重者	-10.3121
之耳	-10.3122
十丸	-10.3128
光輝	-10.3129
不堪	-10.313
有時	-10.3135
含之	-10.3142
三徧	-10.3144
一石	-10.3146
真靈	-10.3147
人能	-10.3153
爲散	-10.3173
神符	-10.3177
教之	-10.3178
無明	-10.3178
飛昇	-10.3179
死亡	-10.3184
下愚	-10.3185
天書	-10.3186
福無	-10.3193
韭	-10.3194
如意	-10.3195
乃止	-10.3197
白礬	-10.3197
其病	-10.32
真形	-10.3201
痞	-10.3201
真符	-10.3201
頤	-10.3205
瀝	-10.3207
咳嗽	-10.3207
熱毒	-10.3209
萬古	-10.3209
卵	-10.3209
崔氏	-10.3211
荆芥	-10.3212
沐	-10.3212
輙	-10.3212
而去	-10.3212
大定	-10.3217
洲	-10.3218
得長生	-10.3219
見之	-10.322
無人	-10.3221
鄕	-10.3221
峯	-10.3222
靈書	-10.3222
寥	-10.3225
墟	-10.3225
躁	-10.3226
零	-10.3227
劈	-10.3227
飈	-10.3228
梨	-10.3229
朋	-10.3229
玄臺	-10.3229
黨	-10.3229
瘀血	-10.323
幡	-10.3231
訟	-10.3231
䰟	-10.3231
無爭	-10.3232
漬之	-10.3233
小豆	-10.3234
青山	-10.3235
勿使	-10.3235
一志	-10.3237
鄭	-10.3237
衮	-10.3238
各二兩	-10.3238
三島	-10.3239
本際經云	-10.324
欲死	-10.324
須知	-10.3244
家縁	-10.3245
不過三	-10.3249
一切衆生	-10.3249
當有	-10.325
之妙	-10.3256
太歲	-10.3257
入於	-10.3258
神祇	-10.3259
即得	-10.3264
其文	-10.3271
先身	-10.3281
一朝	-10.3283
通神	-10.3283
皆由	-10.3285
良久	-10.3286
堅固	-10.3288
慎	-10.3294
无有	-10.3301
子文	-10.3303
唯有	-10.3312
口乾	-10.3314
虚則	-10.3314
此病	-10.3319
太和	-10.3319
受命	-10.3322
動作	-10.3325
一般	-10.3331
一劑	-10.3341
成道	-10.3343
昇天	-10.3348
安寧	-10.3349
不已	-10.335
大德	-10.3353
味甘	-10.3357
不爾	-10.336
所說	-10.3366
時人	-10.3369
服一升	-10.3379
五石	-10.338
眼前	-10.3385
七分	-10.3388
一盞	-10.34
或爲	-10.3408
靈文	-10.3409
天意	-10.3414
一處	-10.3414
右七味	-10.3418
此書	-10.342
以應	-10.3421
直上	-10.3424
清清	-10.3427
水氣	-10.3432
分二服	-10.3433
礜石	-10.3435
低	-10.3437
澁	-10.3438
佑	-10.3442
人參甘草	-10.3443
潮	-10.3444
淚	-10.3445
栗	-10.3445
疲	-10.3446
藴	-10.3447
歛	-10.3448
齡	-10.3448
悟來	-10.345
郷	-10.345
崔	-10.3451
内藥	-10.3452
寃	-10.3452
禦	-10.3455
擾	-10.3455
而不止	-10.3455
葬	-10.3455
勘	-10.3457
歸依	-10.3457
從今	-10.3457
究竟	-10.3458
辦	-10.3458
脚弱	-10.346
聊	-10.3461
捕	-10.3461
之光	-10.3463
函	-10.3464
終身	-10.3465
長吏	-10.3465
方諸	-10.347
故得	-10.3473
食後	-10.3473
境界	-10.3477
下氣	-10.3488
四季	-10.3494
經戒	-10.3494
人行	-10.3494
氣逆	-10.3495
千古	-10.3495
也以	-10.3505
道理	-10.3509
何謂也	-10.3515
正是	-10.3515
眞空	-10.3518
七枚	-10.3519
學仙	-10.3527
安樂	-10.3528
太元	-10.3534
不退	-10.3554
疊	-10.3556
常有	-10.3561
之狀	-10.3566
非是	-10.3566
赤芍藥	-10.3571
律令敕	-10.3578
魂神	-10.3583
經教	-10.3583
正炁	-10.3587
蜜丸如梧子	-10.359
尋常	-10.359
實者	-10.3591
時復	-10.3593
五斗	-10.36
癰腫	-10.3603
地之	-10.3604
師曰	-10.3608
若無	-10.3615
雲山	-10.3616
如水	-10.3616
蟠	-10.3619
小便不利	-10.362
悟眞	-10.3622
相得	-10.3622
也眞人	-10.3622
風氣	-10.3625
與我	-10.3626
朵	-10.3626
心神	-10.3629
從前	-10.3634
閻	-10.3635
常住	-10.364
貝母	-10.3645
君所居	-10.3647
寒冷	-10.3649
狐	-10.3651
土瓜根	-10.3654
禹餘粮	-10.3656
其下	-10.3657
吾身	-10.3658
應物	-10.366
五臟六腑	-10.3662
應化	-10.3663
嗜	-10.3666
海藻	-10.367
陣	-10.3671
其後	-10.3671
噴	-10.3673
殷	-10.3675
惶	-10.3675
旛	-10.3676
悒悒	-10.3676
廓	-10.3678
秤	-10.3679
寡	-10.3679
仲景	-10.3681
縈	-10.3681
明珠	-10.3681
銷	-10.3682
黄帝云	-10.3683
簇	-10.3684
姿	-10.3684
方云	-10.3684
祀	-10.3686
躭	-10.3688
無毒主	-10.3689
上經	-10.3691
四曰	-10.3695
水一盞	-10.3699
未來	-10.37
乃能	-10.3707
内踝	-10.3708
運轉	-10.371
子午	-10.3711
乃爲	-10.3712
山頭	-10.3716
之曰	-10.3717
飛騰	-10.3719
七魄	-10.3719
在前	-10.372
千萬	-10.3724
之根	-10.3725
恩愛	-10.3726
塵縁	-10.3727
妖精	-10.3728
明旦	-10.3729
熬令	-10.3731
天樞	-10.3732
若此	-10.3732
拘急	-10.3745
無數	-10.3751
酒調	-10.3753
有德	-10.376
跳出	-10.3761
裏面	-10.3762
太帝	-10.3764
芒消	-10.377
下士	-10.3774
萬民	-10.3775
任意	-10.3779
宫中	-10.3783
重重	-10.3783
閭	-10.3784
以是	-10.3788
大賢	-10.3789
感應	-10.379
不可治	-10.3795
速至	-10.3797
誰能	-10.3802
可治	-10.3802
而行之	-10.3804
三沸	-10.3805
心香	-10.3808
柄	-10.3811
先師	-10.3818
治下篩酒服方寸七	-10.3819
所受	-10.3823
長齋	-10.3827
三尺	-10.3831
吾今	-10.3832
世事	-10.3833
者得	-10.3835
月經	-10.3837
腹内	-10.3837
相對	-10.3839
是時	-10.3843
煑取二升	-10.3847
以意	-10.3849
上登	-10.385
不從	-10.3851
誰知	-10.3854
其内	-10.3855
紙上	-10.3862
欲知	-10.3873
甑	-10.3877
此道	-10.3878
者多	-10.3883
涌泉	-10.3883
譬	-10.3886
胡洽	-10.3889
六丁	-10.3889
百里	-10.389
後聖	-10.3891
蘂	-10.3893
銅器中	-10.3895
喉痺	-10.3896
安得	-10.3896
石韋	-10.3896
巴戟天	-10.3896
之房	-10.3898
頭眩	-10.3898
撮	-10.39
袋	-10.3901
轄	-10.3901
再服	-10.3902
俟	-10.3903
老子曰	-10.3904
擔	-10.3904
鎭	-10.3906
匝	-10.3906
曆	-10.3907
二十八	-10.3908
革	-10.3909
祛	-10.3909
道學不得教人	-10.391
之室	-10.391
麗	-10.3912
拙	-10.3912
版	-10.3912
驕	-10.3913
勘破	-10.3915
榜	-10.3915
上帝敕	-10.3916
賣	-10.3916
庸	-10.3916
咽之	-10.3917
水煎	-10.3917
無言	-10.3918
蔭	-10.3919
柔弱	-10.3923
榮衛	-10.3923
縣官	-10.3925
修完	-10.3925
直待	-10.3929
聯	-10.393
奚	-10.3931
臣等	-10.3931
三人	-10.3932
發於	-10.3934
進退	-10.3934
十二月	-10.3944
疔	-10.3949
數十	-10.3949
朝禮	-10.3951
長壽	-10.3951
祥雲	-10.3952
氣力	-10.3952
光照	-10.3956
有異	-10.3961
明真	-10.3962
者即是	-10.3963
爲末蜜丸	-10.3966
後學	-10.3967
三魂	-10.3969
大風	-10.3973
速降	-10.3976
大千	-10.3981
持戒	-10.3984
此則	-10.3987
隨時	-10.3993
赤色	-10.3997
妄言	-10.4
風吹	-10.4001
壺中	-10.4004
小小	-10.4009
語言	-10.4013
半日	-10.4014
惡氣	-10.4021
山上	-10.4024
爲義	-10.4029
虚皇	-10.4034
心頭	-10.4035
長夜	-10.4036
又名	-10.4036
脾胃	-10.4037
不斷	-10.4048
夢中	-10.405
也所以	-10.405
各有所	-10.4051
衆人	-10.4056
不傳	-10.406
求道	-10.4066
洞眞	-10.4066
蹄	-10.407
法輪	-10.4085
大病	-10.4087
脅	-10.4093
虚寒	-10.4096
玄關	-10.4097
一尺	-10.4098
勑呪	-10.4108
則不	-10.411
有大	-10.4112
周天	-10.4118
腸鳴	-10.4119
方麻黄	-10.412
人家	-10.4121
文字	-10.4122
有箇	-10.4124
煅	-10.4124
瞿麥	-10.4126
丹成	-10.4127
萆薢	-10.4128
十五日	-10.4129
梳	-10.413
常存	-10.413
速起	-10.4131
哺	-10.4132
𩀱	-10.4134
蛾	-10.4134
通達	-10.4134
噀	-10.4136
𥙷	-10.4137
亦佳	-10.4137
祈晴	-10.4137
漂	-10.414
雖然	-10.4143
廻	-10.4143
草烏	-10.4145
濛	-10.4146
琅	-10.4146
漬一宿	-10.4147
六腑	-10.4147
訴	-10.4147
懃	-10.415
二十八宿	-10.415
暇	-10.415
巍巍	-10.415
玉華	-10.4152
陰中	-10.4152
於上	-10.4152
髮際	-10.4153
叱	-10.4154
晏	-10.4155
裁	-10.4156
日一	-10.4156
趁	-10.4157
治少小	-10.4157
拷	-10.4158
雲遊	-10.4158
夫婦	-10.4159
宸	-10.4159
債	-10.4161
擬	-10.4164
未知	-10.4166
胷滿	-10.4167
骨髓	-10.4168
得天心	-10.4172
燒末	-10.4178
路上	-10.4183
太微天帝君	-10.4188
妻子	-10.4196
洞房	-10.4198
如今	-10.4199
玄門	-10.421
塵勞	-10.4211
糊	-10.4211
玄武	-10.4215
過多	-10.4222
見於	-10.4227
足下	-10.4227
目前	-10.4228
玉花	-10.423
得此	-10.423
修真	-10.4231
勿復	-10.4233
念呪曰	-10.4234
神珠	-10.4239
也天地	-10.4239
午文	-10.4244
兩目	-10.4247
以水一斗	-10.4254
器中	-10.4257
名字	-10.4258
向上	-10.4259
爲真人	-10.4262
八節	-10.4264
飛龍	-10.4269
歲月	-10.4271
姓某	-10.4277
訖下	-10.4282
虚无	-10.4284
枸杞	-10.4287
三百六十	-10.4291
無限	-10.4296
上善	-10.4301
五曰	-10.4302
凡夫	-10.4315
結就	-10.4321
召呪	-10.4325
先食服	-10.4326
故知	-10.4332
行也	-10.4335
道性	-10.4339
愚者	-10.4341
教令	-10.435
爲帝王	-10.4351
無中	-10.4354
其狀	-10.4365
又方擣	-10.4365
㧞	-10.4365
火炙	-10.4367
爲體	-10.437
伏龍肝	-10.4376
致太平	-10.4376
煞炁	-10.4378
適寒温	-10.4379
跪	-10.4382
道意	-10.4383
矣故	-10.4383
八日	-10.4383
相通	-10.4383
沾	-10.4385
奴婢	-10.4386
淘	-10.4388
宵	-10.4389
迫	-10.439
料	-10.4392
結氣	-10.4392
轡	-10.4397
愧	-10.4399
庚辛	-10.4403
治卒	-10.4404
玉文	-10.4404
夀	-10.4405
猛吏	-10.4407
說法	-10.441
白帝	-10.4413
拘校	-10.4417
之身	-10.4422
五苦	-10.4424
會得	-10.4426
日出	-10.4426
善之人	-10.4426
九升	-10.4428
是天	-10.4438
先人	-10.444
飲水	-10.444
欲使	-10.4448
下焦	-10.445
無相	-10.4451
流水	-10.4454
書文	-10.4457
先煑	-10.4458
解脫	-10.4458
骨肉	-10.4473
右八味	-10.4477
役使	-10.4483
太平經	-10.4488
煞文	-10.449
故當	-10.4503
瘡中	-10.4504
於内	-10.4505
功名	-10.451
先用	-10.4513
空虚	-10.4513
亦是	-10.4518
大劫	-10.4524
也地	-10.4526
綻	-10.4529
大如	-10.4531
於道	-10.4541
念之	-10.4544
三素	-10.4548
不可勝	-10.455
三字	-10.4552
真經	-10.4557
一本	-10.4561
此即	-10.4561
右六味	-10.4565
妨	-10.4574
上道	-10.4575
煑取一升	-10.458
眞功	-10.4585
其餘	-10.4587
三十九	-10.4587
平生	-10.4593
髻	-10.4605
思惟	-10.4607
陽明	-10.4608
不可得	-10.4608
瘥後	-10.461
迸	-10.4618
不染	-10.4619
缺盆	-10.4619
孕	-10.4619
瘕	-10.4622
一性	-10.4627
變成	-10.463
掣	-10.4631
九靈	-10.4631
厲	-10.4632
無餘	-10.4632
水蛭	-10.4633
禽	-10.4633
柰	-10.4633
札	-10.4634
不收	-10.4634
其時	-10.4635
右七味㕮咀	-10.4636
壽命	-10.4638
瀛洲	-10.4638
火急奉行	-10.4638
凍	-10.4639
斑猫	-10.4639
即出	-10.4639
不若	-10.464
人事	-10.464
惻	-10.4643
介	-10.4643
痾	-10.4643
無異	-10.4644
洛	-10.4645
挑	-10.4646
挽	-10.4646
蔣	-10.4646
帀	-10.4647
膺	-10.4647
飮	-10.4648
探	-10.4649
遶	-10.4649
漫	-10.4651
正真	-10.4651
搜尋	-10.4651
紛	-10.4652
色黄	-10.4652
環堵	-10.4652
或問	-10.4653
鱗	-10.4654
馮	-10.4655
真性	-10.4658
追魂	-10.4658
瘵	-10.4659
右十味	-10.4661
形骸	-10.4663
喜怒	-10.4666
五千文	-10.4671
念念	-10.4673
思念	-10.4673
此之謂也	-10.4675
何曾	-10.4676
孔中	-10.4679
經絡	-10.468
心猿	-10.4682
不得卧	-10.4687
放下	-10.4694
玉泉	-10.4696
二月	-10.4697
塵世	-10.4697
自責	-10.4699
骨節	-10.4711
不至	-10.4711
五千	-10.4716
川烏	-10.4718
蜜丸	-10.472
自來	-10.4722
奉勸	-10.4724
未得	-10.473
觀者	-10.4734
無益	-10.4738
道陵	-10.4744
各七	-10.4745
得病	-10.4746
更不	-10.4753
紫蘇	-10.4762
音聲	-10.4764
百二十	-10.4765
相連	-10.4765
亦不可	-10.4766
形神	-10.4776
二炁	-10.479
下者	-10.4791
之德	-10.4791
有形	-10.4792
下入	-10.4795
二百	-10.4799
取其	-10.4802
大丹	-10.4804
故言	-10.4816
本無	-10.482
故人	-10.4825
傷於	-10.4827
悟道	-10.4831
帝勑	-10.4831
眞修	-10.4835
杵	-10.4839
重玄	-10.4846
酒一斗	-10.4848
各各	-10.4856
星宿	-10.4857
邪惡	-10.4858
豬	-10.4859
正氣	-10.4862
生地黄汁	-10.4862
人物	-10.4865
四等	-10.487
世俗	-10.4873
土皇	-10.4873
驚悸	-10.4875
之要	-10.4876
緋	-10.4876
膚	-10.4876
腰脊	-10.4877
搔	-10.4882
全真	-10.4883
相從	-10.4884
黍米	-10.4884
者悉	-10.4884
蛇牀子	-10.4884
連翹	-10.4885
孝道	-10.4886
郄	-10.4886
欬嗽	-10.4887
乾漆	-10.4888
神水	-10.489
地榆	-10.489
詮	-10.4891
鬚	-10.4891
傅上	-10.4892
馘	-10.4892
頻頻	-10.4893
翕	-10.4893
斜	-10.4893
右件	-10.4894
欬逆	-10.4894
區區	-10.4894
澆	-10.4895
梢	-10.4895
穹	-10.4895
雲步	-10.4895
羗活	-10.4896
偈	-10.4896
盃	-10.4896
离	-10.4897
旺	-10.4898
湛	-10.4898
牧	-10.4899
僕	-10.49
陷者中	-10.49
髪	-10.4901
矜	-10.4901
囑	-10.4901
漠	-10.4902
豈有	-10.4902
鑄	-10.4902
敲	-10.4904
水服	-10.4904
黒雲	-10.4905
尹	-10.4906
拖	-10.4906
晦	-10.4907
准	-10.4907
穎	-10.4908
金門	-10.4908
無涯	-10.4913
湛然	-10.4913
賈	-10.4913
斡運	-10.4914
浩劫	-10.4916
碗	-10.4917
目中	-10.4918
修之	-10.4918
林泉	-10.4926
日三又方	-10.4928
治在	-10.4929
有何	-10.4932
其數	-10.4932
敕召	-10.4933
社令	-10.4935
行雨	-10.4935
東嶽	-10.4937
來生	-10.4939
大者	-10.4946
桂心甘草	-10.4947
酒浸	-10.4949
灾變	-10.4951
財物	-10.4959
生氣	-10.4959
在心	-10.4968
常服	-10.4969
閑人	-10.497
不思	-10.497
感動	-10.4979
客於	-10.4982
山中	-10.4983
不合	-10.4992
如斯	-10.4996
吏民	-10.4998
一言	-10.5
相和	-10.5002
羅列	-10.5003
治風	-10.5011
養氣	-10.5012
行善	-10.5014
妙道	-10.5015
天地之間	-10.5015
非有	-10.5016
之罪	-10.5022
上品	-10.5022
疾苦	-10.5022
王公	-10.5023
虛皇	-10.5024
之宗	-10.5026
十銖	-10.5027
高聖	-10.5028
其日	-10.5028
也而	-10.5032
灌之	-10.5036
本師	-10.5038
此二	-10.5038
受生	-10.5039
之前	-10.5041
丸如梧子	-10.5042
月華	-10.5042
无上祕要卷之	-10.5045
一條	-10.505
令盡	-10.505
三一	-10.5054
十轉	-10.5055
戒者	-10.5056
身爲	-10.5063
曰夫	-10.5064
衆眞	-10.5072
閑中	-10.5075
不顧	-10.5075
六兩	-10.5079
死魂	-10.5081
其根	-10.5085
雌	-10.5086
五符	-10.51
閃	-10.5102
修齋	-10.5104
莫能	-10.5106
之館	-10.5109
藥力	-10.5109
不自知	-10.5111
携雲	-10.5112
無一	-10.512
三部	-10.5127
太上曰	-10.513
大有	-10.5132
栝蔞	-10.5132
久視	-10.5134
小童	-10.5134
髀	-10.5138
蒲	-10.5139
脉沉	-10.514
亘	-10.5141
疳	-10.5144
竹茹	-10.5144
甲乙云	-10.5144
古今録驗	-10.5145
遍身	-10.5146
朴硝	-10.5147
巴	-10.5149
爻	-10.5149
文章	-10.5151
積久	-10.5151
之章	-10.5153
艶	-10.5153
萌	-10.5153
猜	-10.5153
猾	-10.5154
寒水石	-10.5154
地黄汁	-10.5155
者天	-10.5155
涌	-10.5156
眸	-10.5156
不容	-10.5158
淹	-10.5158
除熱	-10.5159
佞	-10.516
亨	-10.5162
何如	-10.5164
墻	-10.5165
歟	-10.5165
酒服方寸七	-10.5165
合成	-10.5166
勇	-10.5166
優	-10.5166
攺	-10.5167
雕	-10.5168
拯	-10.5169
堆	-10.5169
岳	-10.517
墓	-10.517
鴻	-10.517
奢	-10.5171
貨	-10.5173
决烈	-10.5174
衒	-10.5176
呪唵	-10.5177
軌	-10.5181
常在	-10.5182
贊	-10.5183
赤子	-10.5185
經脉	-10.5189
四五	-10.519
關元	-10.5192
筋骨	-10.5192
上詣	-10.5193
邪僞	-10.5196
尺脉	-10.5196
七者	-10.5196
青黄	-10.5197
頂門	-10.5198
壬癸	-10.5198
矣夫	-10.52
燒之	-10.5204
帝敕	-10.5207
忘情	-10.5209
微火	-10.5213
明日	-10.5214
正教	-10.5217
瓊花	-10.5228
中宫	-10.5229
此者	-10.5229
瀉之	-10.5232
眞樂	-10.5232
訖次	-10.5233
俱忘	-10.5236
流光	-10.5237
幽微	-10.5237
消石	-10.5237
有五	-10.5238
痛不可忍	-10.5244
風雲	-10.5246
洞陽	-10.5247
利益	-10.5252
傷損	-10.5257
在外	-10.5257
以上	-10.5263
轉筋	-10.5274
服又方	-10.5284
及其	-10.5285
陰乾	-10.529
念呪	-10.529
共爲	-10.5291
於外	-10.5292
三壯	-10.5296
丹結	-10.5298
安坐	-10.5309
各異	-10.5311
愛之	-10.5317
之至	-10.5324
端正	-10.5325
未盡	-10.5327
二十丸	-10.5332
門主	-10.5333
方半夏	-10.5334
中古	-10.5341
應變	-10.5343
自安	-10.5345
若是	-10.5349
不禁	-10.5351
谿	-10.5352
苦酒	-10.5353
此明	-10.5353
踝	-10.5355
靈章	-10.5359
二丸	-10.5362
頂上	-10.5364
無他	-10.5366
酒三升	-10.5366
皆因	-10.5369
封之	-10.5373
金甲	-10.5376
卷中	-10.5382
舌上	-10.5382
炁一口	-10.5383
嘉祥	-10.5389
更有	-10.539
生萬物	-10.5392
以明	-10.5394
香煙	-10.5395
積行	-10.5397
恰	-10.5397
葵	-10.5399
四味	-10.5406
方寸匕	-10.5407
幾何	-10.5409
必死	-10.5411
水官	-10.5411
夢見	-10.5413
吞之	-10.5416
蛇床子	-10.5416
其實	-10.5421
大師	-10.5422
騫	-10.5424
撞	-10.5424
仙都	-10.5424
七月七日	-10.5426
可見	-10.5426
二千	-10.5427
二枚	-10.5427
亦復如是	-10.5427
濯	-10.5428
蜂	-10.5428
皇君	-10.5429
求仙	-10.5429
滌	-10.5429
天地開闢以來	-10.543
有益	-10.5431
拳	-10.5431
楚	-10.5432
洋	-10.5432
嚥液	-10.5432
長跪	-10.5433
罩	-10.5433
扶桑	-10.5433
俊	-10.5433
纖	-10.5434
坊	-10.5434
入水	-10.5434
嗚	-10.5434
謗	-10.5434
駐	-10.5435
堯	-10.5435
西王母	-10.5435
麽	-10.5436
征	-10.5437
愚癡	-10.5437
優游	-10.5438
輦	-10.5441
開闢	-10.5441
枝葉	-10.5441
歌舞	-10.5442
扃	-10.5443
一生	-10.5444
君臣	-10.5444
因緣	-10.5445
人亦	-10.5446
崑	-10.5446
長久	-10.5446
浩浩	-10.5448
故名爲	-10.5449
其要意	-10.5454
打破	-10.5455
安能	-10.5458
九竅	-10.546
春夏	-10.5461
三首	-10.5463
述意	-10.5464
輝輝	-10.5467
不移	-10.5468
清油	-10.5471
訣第一百	-10.5472
孝子	-10.5473
了眞	-10.5477
下方	-10.5477
問事	-10.5479
而出	-10.5483
寒氣	-10.5485
王氣	-10.5492
然而	-10.5493
五穀	-10.5495
也乃	-10.5495
格法	-10.55
其年	-10.55
蛟龍	-10.5503
燦	-10.5504
不得息	-10.5506
超然	-10.5506
如上法	-10.5511
千年	-10.5511
今人	-10.5515
消亡	-10.5516
神光燦	-10.552
相逢	-10.5525
晴空	-10.553
歸於	-10.553
二字	-10.5533
八升	-10.5533
金花	-10.5534
五更	-10.5537
氣結	-10.5538
此言	-10.5539
有情	-10.554
寳經	-10.5542
不老	-10.5545
國土	-10.5546
而上	-10.5546
上行	-10.5546
已下	-10.5549
吐逆	-10.5553
虚損	-10.5553
右㕮咀	-10.5576
三山	-10.5578
紫雲	-10.5579
金精	-10.558
爾時	-10.5582
而不能	-10.5586
本名	-10.5591
善哉子	-10.5596
青帝	-10.5601
氣息	-10.5605
頭頭	-10.5607
記之	-10.5612
下古	-10.5613
同心	-10.5614
壺	-10.5615
去之	-10.5617
但當	-10.5617
所傷	-10.5629
喉中	-10.5632
曰吾	-10.5635
當得	-10.5638
巽方	-10.564
當風	-10.5643
之位	-10.5646
發則	-10.5649
符中	-10.565
大小便	-10.5656
洞照	-10.5658
此箇	-10.5661
魅	-10.5663
者少	-10.5668
氣上	-10.5672
不隨	-10.5673
敦	-10.5675
節度	-10.5679
濾	-10.5688
青炁	-10.569
爪甲	-10.569
不聞	-10.5691
冲	-10.5693
藤	-10.5696
民間	-10.5698
庚申	-10.57
絮	-10.57
一家	-10.5701
挾	-10.5703
鉢	-10.5704
盈盈	-10.5704
之鄉	-10.5704
香豉	-10.5705
白玉	-10.5706
聞之	-10.5706
控	-10.5707
勃	-10.5708
鎻	-10.5708
循環	-10.5708
矯	-10.5709
鐶	-10.5709
啖	-10.571
慇懃	-10.571
呢	-10.5712
錦帔	-10.5712
吼	-10.5712
足以	-10.5714
戊己	-10.5715
香火	-10.5715
偃	-10.5716
月一日	-10.5718
無病	-10.5719
天涯	-10.5719
傲	-10.5719
濤	-10.5721
郊	-10.5721
利小便	-10.5722
鼇	-10.5722
神效	-10.5724
縱横	-10.5726
幹	-10.5727
三遍	-10.5729
太上老君	-10.5731
以治	-10.5732
良醫	-10.5732
細切	-10.5733
搜玄	-10.5733
遜	-10.5734
熱氣	-10.5735
丹霄	-10.5737
玉性	-10.5739
無價	-10.5742
佩之	-10.5743
大效	-10.5744
人多	-10.575
一字	-10.5751
無極之	-10.5753
常思	-10.5757
息肉	-10.5757
中秋	-10.5758
坐卧	-10.5766
胷脇	-10.577
二物	-10.5772
亦能	-10.5775
小便數	-10.5778
收攝	-10.5778
腸胃	-10.5779
真真	-10.5779
神神	-10.5782
中人	-10.5788
要道	-10.5793
洞明	-10.58
太古	-10.58
華蓋	-10.5801
者若	-10.5802
不許	-10.5802
金簡	-10.5809
視之	-10.5815
右二十	-10.5817
由是	-10.5821
爲妙	-10.583
震動	-10.5833
積年	-10.5835
下及	-10.5836
如故	-10.5839
悉皆	-10.5839
安閑	-10.5845
無拘	-10.5847
也唯唯	-10.5855
有二	-10.5868
丹藥	-10.5869
大熱	-10.5875
浮腫	-10.5881
玉京山	-10.5881
温酒	-10.5884
若人	-10.589
之地	-10.589
氣滿	-10.5892
玉光	-10.59
玉虛	-10.5901
養生	-10.5903
第十一	-10.5904
開明	-10.5909
金瘡	-10.5913
轉輪	-10.5913
玉童玉女	-10.5914
未見	-10.5914
少年	-10.5915
亦復	-10.5916
瑞氣	-10.5918
過於	-10.5918
之徒	-10.5918
青華	-10.592
道場	-10.5924
虚羸	-10.5942
水洗	-10.5944
天仙	-10.5945
主者	-10.5949
米飲	-10.5951
皇上	-10.5953
一百二十	-10.5953
父子	-10.5959
故稱	-10.596
得生	-10.5961
青宫	-10.5965
中来經曰	-10.5969
海上	-10.5971
價	-10.5972
愼無	-10.5973
醬	-10.5976
怡	-10.5976
功圓	-10.5977
弩	-10.598
蟬	-10.5983
呬	-10.5983
古之	-10.5984
擣篩	-10.5984
吞下	-10.5984
叩齒九通	-10.5986
劵	-10.5987
織	-10.5988
朴消	-10.5991
五月五日	-10.5992
批	-10.5992
加至三十丸	-10.5993
京兆	-10.5994
品科曰凡是道學當知	-10.5994
梯	-10.5995
羡	-10.5995
吐出	-10.5995
忒	-10.5998
朱雀	-10.5998
寵	-10.5999
况	-10.6
酌	-10.6
酷	-10.6001
菊	-10.6003
跨鶴	-10.6003
陪	-10.6004
叙	-10.6004
嫉	-10.6005
難爲	-10.6006
聳	-10.6006
澹	-10.6006
麟	-10.6008
恰似	-10.6008
之恩	-10.6008
加减	-10.6008
渺	-10.6009
財色	-10.6015
亂髮	-10.6016
擣末	-10.602
神虎	-10.602
皮毛	-10.6021
心主	-10.6022
男兒	-10.6023
忠信	-10.6036
人天	-10.6038
水調	-10.6042
虚心	-10.6046
響應	-10.6052
終始	-10.6053
敢不	-10.6059
復重	-10.606
便得	-10.606
絞去滓	-10.6061
生肌	-10.6062
洞府	-10.6064
然燈	-10.6065
慈心	-10.6066
令熟	-10.6067
衆賢	-10.607
風濕	-10.6077
白雪	-10.6077
瑞應	-10.6078
己身	-10.6081
十五丸	-10.6083
萬歲	-10.6086
水腫	-10.6087
虚而	-10.6089
萬年	-10.6094
而下	-10.6096
超昇	-10.6097
始生	-10.6098
黄炁	-10.6101
兩耳	-10.6102
使我	-10.6103
不息	-10.6104
益氣	-10.6104
不著	-10.6105
三業	-10.6106
召雷	-10.611
發背	-10.6112
百六	-10.6112
不空	-10.6113
靡	-10.6115
浮雲	-10.6116
殺生	-10.6119
福德	-10.612
少時	-10.6127
右三味治下篩	-10.6137
忘言	-10.6138
霸	-10.6149
隨意	-10.6156
六七	-10.6159
心上	-10.6165
腫方	-10.6168
之病	-10.6171
凝神	-10.6171
腹脹滿	-10.6173
服此	-10.6185
前藥	-10.619
煑取三升去滓分三服	-10.6191
玉臺	-10.6192
守之	-10.6194
急急奉	-10.62
於身	-10.6211
居之	-10.6215
事畢	-10.622
勸人	-10.6222
三關	-10.6223
則致	-10.6224
四十九	-10.6227
人者	-10.6227
釀	-10.6228
鈴	-10.6232
右五味㕮咀	-10.6239
思其意	-10.625
汁出	-10.6253
食前	-10.6254
偷	-10.6255
治也	-10.6258
事也	-10.6258
件	-10.6263
頷	-10.6264
猪苓	-10.6265
定志	-10.6266
澼	-10.6266
分四服	-10.6268
深處	-10.6268
先服	-10.6268
曝	-10.627
冥冥	-10.6271
六分	-10.6272
督	-10.6273
搏	-10.6274
以水三升煑取一升	-10.6275
飴	-10.6275
不當	-10.6281
一把	-10.6281
太衝	-10.6282
蓄	-10.6282
掣電	-10.6283
爍	-10.6283
勅	-10.6284
寺	-10.6284
喚	-10.6285
括	-10.6286
四極明科	-10.6286
祕呪	-10.6286
几	-10.6287
討	-10.6287
徃來	-10.6287
瞋	-10.6288
脯	-10.6289
栖	-10.6289
黎	-10.6289
婁	-10.6291
瓢	-10.6291
殿試	-10.6292
仙鄉	-10.6292
懇	-10.6293
巡	-10.6294
劒訣	-10.6295
爵	-10.6295
㣲	-10.6296
煑取四升	-10.6297
右呪畢	-10.6297
正中	-10.6299
簪	-10.63
天魔	-10.6301
詩詞	-10.6302
與其	-10.6307
杏人	-10.6317
東井	-10.6319
歸蓬島	-10.6322
拆起	-10.6324
快樂	-10.6335
須憑	-10.6336
二斤	-10.6337
流霞	-10.6338
兩脚	-10.6342
作伴	-10.6345
萬人	-10.6348
禹	-10.6349
以下	-10.6353
萬道	-10.636
即下	-10.6368
雲外	-10.6371
奉戒	-10.6372
八者	-10.6373
四寸	-10.6377
天地隂陽	-10.6377
道果	-10.6377
熱服	-10.6379
青精	-10.6385
故令	-10.6387
金虎	-10.6394
白髮	-10.6396
十二部	-10.64
何等	-10.6403
施爲	-10.6406
還丹	-10.6406
素靈	-10.6408
凢婦人	-10.6414
六情	-10.6418
行者	-10.643
明道	-10.6433
其處	-10.6438
依此	-10.644
絶滅	-10.6441
義曰	-10.6442
不審	-10.6447
必須	-10.6458
右三味㕮咀以	-10.646
愼勿	-10.646
心無	-10.6461
冬至	-10.6462
大羅天	-10.6464
所有	-10.6467
行人	-10.6468
得一	-10.6468
好把	-10.6471
見世	-10.6474
性月	-10.6474
承負之	-10.6475
可與	-10.6475
右二味以	-10.648
无形	-10.6486
右十六味	-10.6488
得成	-10.649
右二味爲末	-10.6491
神吏	-10.6491
相引	-10.6505
地官	-10.6505
清平	-10.6507
仁義	-10.6508
齋直	-10.6512
之辭	-10.6517
九寸	-10.6522
不中	-10.6523
蛟	-10.6524
九氣	-10.6527
之道也	-10.6529
當知	-10.6537
内觀	-10.6538
動則	-10.6539
如此矣	-10.6544
諸將	-10.6544
八素	-10.6545
流行	-10.6547
常常	-10.6554
更無	-10.6557
篩	-10.6559
所願	-10.656
酒調服	-10.6565
四象	-10.6567
痙	-10.6568
叁	-10.6572
䕡茹	-10.6573
調塗	-10.6574
而起	-10.6576
烏賊骨	-10.6576
百合	-10.6577
蕪荑	-10.6577
沃	-10.6577
蝱蟲	-10.6579
鵝	-10.6579
故吾	-10.6582
氤氲	-10.6583
奉北帝敕	-10.6586
蒼术	-10.6587
奈何	-10.6587
野葛	-10.6587
又問	-10.6587
搬	-10.6588
污	-10.6588
猫	-10.6589
啄	-10.6589
羞	-10.6589
絃	-10.659
昆	-10.6591
巔	-10.6593
有疑	-10.6593
遏	-10.6593
脆	-10.6595
算	-10.6595
糧	-10.6595
擘	-10.6596
日月星辰	-10.6596
曳	-10.6596
溉	-10.6596
奮	-10.6597
祚	-10.6598
妻男	-10.6598
羨	-10.6598
蟻	-10.6599
董	-10.66
萬世	-10.6601
復六十日	-10.6601
繡	-10.6603
言其	-10.6603
諭	-10.6604
五勞七傷	-10.6604
未悟	-10.6604
夙	-10.6605
讎	-10.6605
無欲	-10.6606
吐納	-10.6607
外臺云	-10.6607
不止方	-10.6608
常欲	-10.6608
黑豆	-10.6609
大戟	-10.661
貧窮	-10.6612
陽精	-10.6615
捉住	-10.6615
鬭	-10.6616
别研	-10.6618
中和之	-10.6618
碧落	-10.6619
清心	-10.6624
固固	-10.6625
蠻雷	-10.6626
墨書	-10.6626
補益	-10.6628
次用	-10.6628
犯之	-10.6629
卷之八	-10.663
顯現	-10.663
平復	-10.6631
端坐	-10.6635
神人言	-10.6639
昇入	-10.6639
謹召	-10.6642
盛則	-10.6644
教主	-10.6645
金牙	-10.6647
以道	-10.6647
流金	-10.6652
卯文	-10.6661
立愈	-10.6661
四體	-10.6662
成眞	-10.6663
不妨	-10.6668
第十二	-10.667
三過	-10.6671
右二味㕮咀	-10.6674
不平	-10.6681
大戒	-10.6682
力士	-10.6689
常念	-10.669
將息	-10.669
三陽	-10.6691
他年	-10.6693
初發	-10.6694
雷符	-10.6695
中士	-10.6696
可服	-10.6699
者先	-10.6701
宗師	-10.6709
此理	-10.671
面上	-10.6711
而來	-10.6711
所宜	-10.6713
傳之	-10.6714
爲君	-10.6722
水穀	-10.6724
天宫	-10.6726
秋冬	-10.6736
瘥止	-10.6739
右四味治下篩	-10.674
殺之	-10.6741
學而	-10.6744
金容	-10.6745
後有	-10.6747
時行	-10.6751
惡心	-10.6752
湯方	-10.6754
欲求	-10.6757
者廼	-10.6758
皮肉	-10.6758
九九	-10.6759
有分	-10.6764
所由	-10.677
得益	-10.6773
絞取汁	-10.6773
其要	-10.6773
右十一味	-10.6774
火車	-10.6774
以綿	-10.6775
易之	-10.6775
至德	-10.6779
合煎	-10.6779
神良	-10.6779
符呪	-10.6779
兩般	-10.678
七合	-10.6785
神名	-10.6786
思慮	-10.6789
雲霧	-10.6791
乃是	-10.6796
心火	-10.6796
急痛	-10.6797
死矣	-10.6798
右十味㕮咀	-10.6801
杳	-10.6805
萬鬼	-10.6807
紫金	-10.6808
動脉	-10.6811
君之	-10.6814
以其	-10.6824
投玄	-10.6827
漿水	-10.6836
十里	-10.6838
温病	-10.6838
合同	-10.6842
故以	-10.6844
催生	-10.6844
内諸藥	-10.6847
八合	-10.6847
文登	-10.6849
所屬	-10.6849
早悟	-10.6854
雲收	-10.6855
不來	-10.6857
霆	-10.6857
又能	-10.6858
門下獄	-10.6863
所見	-10.6863
突	-10.6863
黑帝	-10.6868
形長	-10.6869
卷之六	-10.6872
其義	-10.6876
存心	-10.6877
因何	-10.688
修身	-10.6881
一通	-10.6881
復爲	-10.6881
半錢	-10.6882
辛夷	-10.6884
柏子仁	-10.6885
右十二味㕮咀	-10.6886
鹿茸	-10.6886
逆氣	-10.6886
抽	-10.6889
趺	-10.6891
皂角	-10.6893
鬼臼	-10.6895
妬	-10.6896
垣	-10.6897
牌	-10.6898
完全	-10.6898
伽	-10.6898
令得	-10.6899
嚮	-10.6899
叫	-10.6899
手太陰	-10.69
偏枯	-10.6901
哩	-10.6901
除去	-10.6901
態	-10.6901
白日昇天	-10.6902
寐	-10.6903
擺	-10.6903
微咒曰	-10.6903
霹𩆝	-10.6903
薤	-10.6903
溶	-10.6905
窺	-10.6906
不失銖分	-10.6906
塵埃	-10.6906
太歳	-10.6906
蟠桃	-10.6907
措	-10.6907
肉桂	-10.6907
倒顛	-10.6908
失精	-10.6909
綱紀	-10.6909
鄙	-10.691
凋	-10.691
彦	-10.6911
樞機	-10.6911
喧	-10.6911
熨之	-10.6912
之性	-10.6912
吿	-10.6912
臻	-10.6912
戾	-10.6912
采	-10.6912
塵寰	-10.6913
咫尺	-10.6913
之境	-10.6914
鬼賊	-10.6914
驅雷	-10.6914
科曰	-10.6915
密封	-10.6917
猪肉	-10.6917
次以	-10.6917
剖	-10.6919
叩頭	-10.6919
厥逆	-10.692
罐	-10.6921
長生久視	-10.6921
則生	-10.6925
針刺	-10.6926
貧賤	-10.6932
也亦	-10.6932
於心	-10.6934
爲鄰	-10.6935
恣意	-10.694
行步	-10.694
三丸	-10.6945
一顆	-10.6946
自由	-10.6946
宿命	-10.6947
㧞度	-10.6948
受其	-10.695
清水	-10.6952
不失其	-10.6955
法度	-10.6955
回首	-10.6956
古者聖人	-10.6958
四直	-10.6959
象地	-10.6961
二尺	-10.6962
山水	-10.6962
丹霞	-10.6965
泰山	-10.6972
好道	-10.6979
反覆	-10.698
胡麻	-10.6982
身如	-10.6982
不覩	-10.699
也是以	-10.6992
皇人	-10.6992
小乘	-10.6994
義者	-10.6997
億劫	-10.6997
五字	-10.6998
而今	-10.6999
身有	-10.6999
四序	-10.7003
非一	-10.7005
子大	-10.7006
耶唯唯	-10.7008
法界	-10.701
不妄	-10.7014
乎故	-10.702
服一劑	-10.7021
成形	-10.7024
爲治	-10.7025
别是	-10.7027
三昧	-10.7031
未及	-10.7032
虚勞	-10.7039
面黑	-10.7039
深思	-10.7043
之果	-10.7045
其父母	-10.7045
故能成	-10.705
起土	-10.7055
中極	-10.7055
然夫	-10.7059
洞極	-10.706
不得食	-10.7063
唵吽	-10.7063
其理	-10.7068
右二味治下篩	-10.7068
二升半	-10.707
十八銖	-10.7071
普天	-10.7072
難也	-10.7073
八威	-10.7075
四假	-10.7076
令熱	-10.7077
以相	-10.7077
行法	-10.7078
右四味㕮咀	-10.7086
徧身	-10.7086
虚冷	-10.7091
用水	-10.7093
早早	-10.7094
合於	-10.7096
所致也	-10.7096
勸修	-10.7098
貴人	-10.7108
流火	-10.7108
隱書	-10.7113
和傅之	-10.7117
面赤	-10.7117
靈芝	-10.7118
腎氣	-10.712
各自有	-10.7122
一度	-10.7122
發心	-10.7124
豈可	-10.7125
加大黄	-10.7129
虛則	-10.713
侍衛	-10.713
斗口	-10.7133
得與	-10.7134
以藥	-10.7136
熱則	-10.7137
善功	-10.7138
汝等	-10.7139
上方	-10.7145
邪神	-10.715
煎令	-10.7151
中國	-10.7152
滿空	-10.7157
凡受	-10.7158
五年	-10.716
空心服	-10.7161
西向	-10.7162
内音	-10.7165
在乎	-10.7166
唾血	-10.7175
火雷	-10.7179
立至	-10.7181
乃以	-10.7182
神兵	-10.7187
已得	-10.7187
相宜	-10.7187
姜汁	-10.7188
作末	-10.719
戟	-10.7191
守一之法	-10.7191
腸中	-10.7191
姙娠	-10.7194
天天王姓	-10.7197
不夜	-10.72
湯治小兒	-10.7201
嚥氣	-10.7202
肋	-10.7204
不避	-10.7205
薏苡仁	-10.7206
太極真人	-10.7208
精光	-10.7208
代赭	-10.7208
乾嘔	-10.721
靈符	-10.7211
大功	-10.7212
淡竹葉	-10.7213
須要	-10.7214
絹袋盛	-10.7214
坡	-10.7215
五加皮	-10.7215
狼毒	-10.7215
璫	-10.7215
龐	-10.7217
轉相	-10.7218
咬	-10.7221
乞丐	-10.7222
拽	-10.7222
一卷上清	-10.7223
叩齒三通	-10.7223
艷	-10.7223
掘	-10.7224
駡	-10.7224
岡	-10.7224
聻	-10.7224
黍	-10.7225
狼	-10.7225
拒	-10.7225
夾	-10.7226
腋下	-10.7226
自相	-10.7226
九地	-10.7226
換	-10.7226
竝	-10.7227
鴨	-10.7228
嚤	-10.7228
𡨚	-10.7229
抄	-10.723
斗中	-10.723
宛	-10.7231
鬧	-10.7231
嬰姹	-10.7231
緯	-10.7231
鳥獸	-10.7231
輪回	-10.7231
二十一	-10.7232
忍辱	-10.7232
踐	-10.7232
尊卑	-10.7233
桐	-10.7233
舜	-10.7233
豁落	-10.7234
食頃	-10.7235
增損	-10.7235
頃刻	-10.7236
戎	-10.7237
誨	-10.7238
右十二味	-10.7238
藹	-10.7238
驀	-10.7238
衲	-10.7239
茟	-10.7239
簾	-10.724
行香	-10.724
邁	-10.724
仙真	-10.7242
漁	-10.7242
玉堂	-10.7242
俾	-10.7242
大明	-10.7245
棗膏	-10.7245
道眼	-10.7248
齋堂	-10.725
開口	-10.7252
四圍	-10.7256
錢重	-10.7258
藥成	-10.7259
以付	-10.7262
展轉	-10.7262
七百年	-10.7264
而復	-10.7264
天尊言	-10.7266
有爲	-10.7266
次下	-10.7267
明也	-10.7268
次内	-10.7268
炁布	-10.7269
所作	-10.7271
食後服	-10.7272
山東	-10.7273
太平之	-10.7274
赤炁	-10.7275
依舊	-10.7276
司馬	-10.7278
迴光	-10.7279
而止	-10.7279
其師	-10.728
混元	-10.7285
乳癰	-10.7287
不具	-10.7288
白茯苓	-10.729
妙經	-10.7291
而致	-10.7292
濟度	-10.7292
具位	-10.7295
青天	-10.7296
不論	-10.7297
香附子	-10.7298
現形	-10.7298
三十丸	-10.7298
所不及	-10.7301
勤苦	-10.7303
七元	-10.7303
天光	-10.7306
安置	-10.7313
飛步	-10.7313
夏月	-10.7314
畢竟	-10.7322
救苦	-10.7325
之年	-10.7325
者明	-10.7326
珠玉	-10.7327
所出	-10.7329
難以	-10.733
龍門	-10.7334
皆不得	-10.7338
不是	-10.7349
南宫	-10.735
漏蘆	-10.7353
得真	-10.7358
不知其	-10.7364
二人	-10.7367
通眞	-10.7368
明了	-10.7373
如此者	-10.7375
同卷	-10.7378
時節	-10.738
樂道	-10.7381
明光	-10.7386
化身	-10.7388
録籍	-10.7392
心性	-10.7396
見人	-10.7397
在於	-10.7397
麻油	-10.7398
四極	-10.7401
服十丸	-10.7406
目視	-10.7408
眞君	-10.7409
服二丸	-10.7412
平平	-10.7412
而長	-10.7412
十者	-10.7415
之國	-10.7415
力學	-10.7416
其法	-10.7416
靈根	-10.7416
惺	-10.7417
師弟子	-10.742
三拜	-10.7422
門在	-10.7423
亦非	-10.7424
天子	-10.7431
還反	-10.7437
天柱	-10.7437
已來	-10.7437
丹書	-10.7437
有毒	-10.7438
熟擣	-10.7442
服方寸七日三	-10.7443
諸法	-10.7446
真實	-10.7453
黄色	-10.7455
藏頭	-10.7455
時氣	-10.7458
爲天地	-10.7462
多者	-10.7462
水二升	-10.7463
於世	-10.7463
出現	-10.7463
爲本	-10.7463
本分	-10.7465
復發	-10.7465
不遠	-10.7465
非其	-10.7466
燦燦	-10.7468
當爲	-10.7469
紫書	-10.747
去矣	-10.7471
滅盡	-10.7472
以此爲	-10.7474
遊歷	-10.7477
吽吽	-10.7479
或在	-10.7483
湯中	-10.7487
所犯	-10.749
治傷寒	-10.7495
欲令	-10.7496
會於	-10.7497
歸命	-10.7497
文辭	-10.7503
同志	-10.7504
南向	-10.7511
善縁	-10.7514
下篩	-10.7517
汗不出	-10.7523
大將軍敕	-10.7524
入地	-10.7526
存思	-10.7528
不痛	-10.753
尺澤	-10.7533
高真	-10.7536
渠	-10.7538
亦不得	-10.7538
捻	-10.7539
分四服日三夜一	-10.754
一法	-10.7541
鍊就	-10.7544
漉	-10.7545
癃	-10.7545
藿香	-10.7547
熒惑	-10.7547
嬌	-10.755
䗪蟲	-10.755
餓	-10.755
暈	-10.7551
邪魔	-10.7551
拾	-10.7553
岑	-10.7553
翅	-10.7553
六根	-10.7553
澡	-10.7554
揩	-10.7555
窈	-10.7555
焚之	-10.7556
臘月猪脂	-10.7558
瑶池	-10.7558
便宜	-10.7558
綴	-10.7559
撼	-10.7559
涼	-10.756
一如	-10.756
絆	-10.7561
矢	-10.7561
穰	-10.7561
琳	-10.7562
癆	-10.7562
牡丹皮	-10.7562
罕	-10.7563
戹	-10.7563
萬種	-10.7563
欻	-10.7564
木蘭	-10.7564
禽獸	-10.7565
蹈	-10.7567
俏	-10.7567
戰鬥	-10.7568
鯨	-10.757
㤥	-10.757
諸病	-10.757
燦爛	-10.757
壑	-10.757
不肖	-10.7571
慳貪	-10.7572
馭	-10.7573
伎	-10.7573
山下	-10.7573
慚	-10.7574
叟	-10.7576
敕呪	-10.7576
洞淵	-10.7577
裘	-10.7578
助之	-10.7579
環墻	-10.7579
在天	-10.7579
急速	-10.758
罏	-10.7583
所能	-10.7583
安穩	-10.7585
方燒	-10.7586
變爲	-10.7587
吸入	-10.7588
對曰	-10.7588
傍人	-10.7588
輒有	-10.759
黄氣	-10.7591
何可	-10.7593
身重	-10.7595
常樂	-10.7598
本有	-10.7599
本相	-10.7603
記名	-10.7604
坎離	-10.7604
佩身	-10.7607
妄想	-10.7608
浸一宿	-10.7613
三度	-10.7613
無由	-10.7614
風虚	-10.7615
灾異	-10.7618
都仙	-10.7621
眞靈	-10.7623
天寳	-10.7625
赤鳳	-10.7626
登州	-10.7626
祖宗	-10.7626
金液	-10.7627
紫房	-10.7627
地皇	-10.7627
星辰	-10.763
醫者	-10.763
共生	-10.7634
視其	-10.7636
所欲	-10.7639
五辛	-10.7641
産婦	-10.7642
落魄	-10.7646
三枚	-10.7647
憂愁	-10.7648
玉籙	-10.765
以手	-10.7653
眞實	-10.7653
我心	-10.7654
百餘	-10.7655
上造	-10.766
如大豆	-10.7663
法海	-10.7663
所問	-10.7664
隻	-10.7666
鬼物	-10.7676
方生地黄	-10.7682
蓮花	-10.7682
掌中	-10.7683
大都	-10.7685
便把	-10.7686
唯天師	-10.7686
足少陰	-10.7692
真火	-10.7696
消滅	-10.7698
二十四氣	-10.7698
十一月	-10.7704
同學	-10.7711
不測	-10.7715
不入	-10.7716
足太陰	-10.7716
玉室	-10.7716
所求	-10.7716
神呪	-10.7719
服一合	-10.7721
眞經	-10.7722
邪文	-10.7723
者見世	-10.7729
七氣	-10.7732
不瘥更	-10.7732
桃花	-10.7732
存神	-10.7732
此疾	-10.7733
調服	-10.7734
紫虚	-10.7735
風流	-10.7736
玄母	-10.7743
遇風仙	-10.7745
門下	-10.7746
變神	-10.7746
高仙	-10.7755
唯唯右	-10.7757
非人	-10.7758
之證	-10.7762
三錢	-10.7776
平氣	-10.7777
陽九	-10.7782
各隨	-10.7784
方外	-10.7785
九天之	-10.7789
自出	-10.7796
風邪	-10.7809
流入	-10.781
其有	-10.7814
而痛	-10.7818
發者	-10.7818
助其	-10.7821
夫道	-10.7822
紫清	-10.7827
麻黄湯	-10.7827
是我	-10.783
幽冥	-10.7835
八會	-10.7838
中封	-10.784
有惡	-10.7842
殺鬼	-10.7844
者乎	-10.7845
休休	-10.7845
顆	-10.7847
修善	-10.7851
之端	-10.7853
歲兒	-10.7854
不求	-10.7856
示衆	-10.7859
了然	-10.7861
間使	-10.7863
三景	-10.7865
六極	-10.7866
煑取三升去滓	-10.7869
天命	-10.787
煎取三升	-10.7872
不能行	-10.7872
在此	-10.7873
其四	-10.7875
吹入	-10.7875
紫光	-10.7876
溝	-10.7876
羌活	-10.7881
不念	-10.7881
膩	-10.7881
玉虚	-10.7883
霍	-10.7885
召將	-10.7885
怖	-10.7887
痊	-10.7888
撲	-10.7889
泄痢	-10.7889
右九味	-10.789
慄	-10.789
魚際	-10.7891
欠	-10.7892
流精	-10.7892
太倉	-10.7893
稠	-10.7894
撒	-10.7894
綂	-10.7895
觜	-10.7897
厮	-10.7899
槌	-10.7899
𣑽	-10.7899
衞	-10.79
奈	-10.7901
熊	-10.7902
絶盡	-10.7902
憎愛	-10.7903
筵	-10.7904
巫	-10.7905
寇	-10.7905
摘	-10.7906
噉	-10.7907
雹	-10.7907
其色	-10.7907
毬	-10.7907
椀	-10.7907
斡旋	-10.7908
戚	-10.7909
亢	-10.7909
翹	-10.791
毒用	-10.791
屠	-10.7911
拍	-10.7911
無罣礙	-10.7912
至理	-10.7913
綬	-10.7913
指揮	-10.7914
羊腎	-10.7915
昂	-10.7915
熾	-10.7915
悠悠	-10.7915
日益	-10.7917
寓	-10.792
本是	-10.792
每服三錢	-10.792
儉	-10.7921
自養	-10.7922
架	-10.7922
紅霞	-10.7923
帳	-10.7923
亟	-10.7925
江海	-10.7926
雌黄	-10.7926
十洲	-10.7927
輕慢	-10.7927
有失	-10.7929
漸加	-10.7934
四合	-10.7934
二銖	-10.7938
成子	-10.7945
到此	-10.7946
做箇	-10.7947
何得	-10.7952
幾箇	-10.7953
渾身	-10.7953
太極真人曰修靈寳飛行三界之道當	-10.7955
神將	-10.7959
腹中痛	-10.7962
來去	-10.7962
玉名	-10.7963
九重	-10.7966
則用	-10.7967
遇重陽	-10.7971
六日	-10.7973
北海	-10.7975
内補	-10.7975
太守	-10.7977
占得	-10.7977
房中	-10.7978
度日	-10.7979
性靈	-10.7979
善心	-10.7979
同流	-10.7988
靈風	-10.7991
備急	-10.7992
依前	-10.8
没藥	-10.8005
桂枝湯	-10.8005
風狂	-10.8006
右十四味	-10.8007
虛无	-10.8007
百萬	-10.8011
清香	-10.802
無疑	-10.802
天君言	-10.8022
爲禍	-10.8024
杳冥	-10.8029
龍吟	-10.8032
勤修	-10.8033
良治	-10.8036
風眩	-10.8037
内消	-10.8042
出自	-10.8044
五戒	-10.8045
貪求	-10.8046
百會	-10.8047
水煑	-10.8056
人以	-10.8058
粉之	-10.8062
志堅	-10.8063
昔日	-10.8065
戒之	-10.807
無色	-10.8071
三味	-10.8073
百鬼	-10.8075
仍以	-10.8078
行而	-10.8085
七遍	-10.8086
乃後	-10.8087
成真	-10.809
劇者	-10.8094
行化	-10.8099
隂陽之	-10.8099
桂枝	-10.8104
金鼎	-10.8104
一齊	-10.8107
陽也	-10.8107
三種	-10.8108
空無	-10.8108
已後	-10.8108
玉符	-10.8115
煩心	-10.8117
右六味治下篩	-10.8121
妙法	-10.8125
霹靂震	-10.8128
罪無	-10.8128
靈物	-10.8129
力行	-10.813
未生	-10.8133
具說	-10.8142
愚迷	-10.8144
教戒	-10.8145
大凶	-10.8151
令兒	-10.8154
號令	-10.8156
本根	-10.8156
但見	-10.816
分三服治	-10.8163
百藥	-10.8164
或如	-10.8166
不敢有	-10.8167
號爲	-10.8169
疾者	-10.817
相類	-10.8171
氣絶	-10.8172
不昧	-10.8178
西東	-10.8181
止痛	-10.8181
四天	-10.8182
同一	-10.8182
一心	-10.8187
此非	-10.8187
能行	-10.8188
斛	-10.8188
太華	-10.8194
足太陽	-10.8195
室中	-10.8195
難得	-10.8199
深師	-10.8201
章門	-10.8202
當歸芎藭	-10.8203
今且	-10.8204
來問	-10.8207
向東	-10.8207
浮大	-10.8208
無染	-10.821
行藏	-10.8214
大仙	-10.8216
經文	-10.8218
人身中	-10.8223
黙念	-10.8225
有小	-10.8227
也言	-10.8232
白石脂	-10.8232
竹筒	-10.8233
霞光	-10.8233
癬	-10.8238
農	-10.8238
甆	-10.824
白芨	-10.8243
旋復花	-10.8244
足厥陰	-10.8244
痹	-10.8245
岐	-10.8246
宿上治	-10.8246
筒	-10.8247
灸三壯	-10.8247
趾	-10.8247
即以	-10.8248
夾脊	-10.8249
三道	-10.8249
𧏾	-10.8252
爇	-10.8253
姚	-10.8253
爲作	-10.8253
宿字君	-10.8254
旌	-10.8254
猛烈	-10.8255
洞中	-10.8255
郡界	-10.8255
遼	-10.8255
猪蹄	-10.8255
腠理	-10.8256
不畏	-10.8256
飡	-10.8256
鐺	-10.8257
碧霄	-10.8257
貝	-10.8257
棺	-10.8257
飆	-10.8257
糜	-10.8259
目赤	-10.8259
灼	-10.8259
萬二千物	-10.8259
迭	-10.8259
有膿	-10.826
哮吼	-10.826
代之	-10.8261
衫	-10.8261
迅	-10.8262
偉	-10.8262
餳	-10.8262
柯	-10.8262
吊	-10.8262
服一升日三	-10.8262
挂	-10.8263
眇	-10.8263
五靈	-10.8264
玩	-10.8264
虎嘯	-10.8264
衆真	-10.8264
悠	-10.8264
涓	-10.8265
哽	-10.8267
能爲	-10.8267
捺	-10.8268
噠	-10.8268
飛行上清	-10.8268
閬苑	-10.8269
敵	-10.827
天猷	-10.8271
笠	-10.8271
醴	-10.8272
只爲	-10.8273
劄	-10.8273
磬	-10.8274
虎狼	-10.8274
先須	-10.8275
十數	-10.8276
諧	-10.8276
雲朋	-10.8277
休要	-10.8279
俄	-10.8279
朝夕	-10.8283
冠帶	-10.8283
火坑	-10.8283
衆神	-10.8284
羽蓋	-10.8286
)▲(	-10.8286
授以	-10.8287
八難	-10.8287
尹喜	-10.8288
願得	-10.8288
痛處	-10.8291
福慶	-10.8292
木通	-10.8293
周旋	-10.8294
隴州	-10.8298
飢寒	-10.8298
流通	-10.8299
目下	-10.8299
人民萬物	-10.8299
永保	-10.8299
瓊林	-10.83
之初	-10.8301
霄漢	-10.8306
東方青	-10.8309
頤神	-10.831
當歸桂心	-10.8311
君王	-10.8311
人世	-10.8317
世情	-10.8318
立效	-10.8319
屬於	-10.832
出塵	-10.8321
安危	-10.8322
服餌	-10.8325
隨分	-10.8326
勑煞攝	-10.8328
發動	-10.833
宫殿	-10.8331
紫微宫	-10.8337
種民	-10.8337
雷丸	-10.8337
皓月	-10.8339
正法	-10.8341
知空	-10.8347
諸般	-10.8349
百節	-10.8355
白氣	-10.8356
福堂	-10.8356
清貧	-10.8357
枸杞根	-10.8359
洞達	-10.836
過度	-10.8362
則易	-10.8364
不可復	-10.8364
只要	-10.8366
八味	-10.8367
留心	-10.8369
亦當	-10.837
高卧	-10.8371
敬信	-10.8371
腎水	-10.8371
爲我	-10.8372
造物	-10.8382
熱盛	-10.8385
自古	-10.8387
消盡	-10.8389
官將	-10.8389
坦蕩	-10.8391
光射	-10.8393
日久	-10.8395
說破	-10.8396
以水二斗	-10.8396
湯洗	-10.8396
風痺	-10.8396
玄珠	-10.8396
冠服	-10.8398
烈火	-10.8399
自詠	-10.8403
立春	-10.8405
神聖	-10.8406
從心	-10.8407
取二升	-10.8413
中嶽	-10.8414
我來	-10.8416
不效	-10.8416
容易	-10.8425
澄澄	-10.8427
救度	-10.8427
真氣	-10.8433
形體	-10.8435
中央黄	-10.8442
小便難	-10.8444
起雷	-10.8445
相合	-10.8446
丹靈	-10.845
石上	-10.845
重陽師父	-10.8453
自家	-10.8458
甘露	-10.8459
明燈	-10.8464
其名	-10.8465
明目	-10.847
江河	-10.8472
元皇	-10.8474
五篇	-10.8476
消散	-10.8476
赤明	-10.8481
服湯	-10.8482
九星	-10.8488
學人	-10.8489
筆書	-10.849
仁者	-10.849
寒則	-10.8493
洞經	-10.8495
官屬	-10.8495
受道	-10.8495
儔	-10.8503
惟有	-10.8504
雲母	-10.8508
者非	-10.8508
玉精	-10.851
第十三	-10.852
如無	-10.8521
山海	-10.8521
水府	-10.8522
月明	-10.8525
碧天	-10.8526
群仙	-10.8532
家家	-10.8535
天下人	-10.8547
甚則	-10.8548
泡	-10.8549
使神	-10.8552
敕煞攝	-10.8555
六方	-10.8556
萬邪	-10.8562
常自	-10.8563
觀其	-10.8564
竹瀝湯	-10.8564
不修	-10.8567
倫	-10.8567
諸方	-10.8568
不作	-10.8569
薑汁	-10.8569
也非	-10.8574
矣然	-10.8576
續命湯	-10.8577
用事	-10.8578
形如	-10.858
清通	-10.8581
以生	-10.8585
月建	-10.8585
尋思	-10.859
猿馬	-10.859
之源	-10.859
右六味㕮咀以	-10.8591
方圓	-10.8595
滅形	-10.8601
三冬	-10.8601
經年	-10.8602
榆	-10.8604
神舟	-10.8605
牡	-10.8607
半夏湯	-10.8608
蓋之	-10.8611
見前	-10.8612
徃	-10.8612
關上脉	-10.8615
分爲三服	-10.8615
疹	-10.8615
燒作灰	-10.8615
臘月	-10.8616
何首烏	-10.8617
腰背	-10.8617
獨自	-10.8617
惕	-10.8619
食不消	-10.862
星斗	-10.862
氣衝	-10.8621
堪歎	-10.8622
芥	-10.8624
分五服	-10.8624
正心	-10.8627
勿以	-10.8627
庫	-10.8628
厠	-10.8629
墳	-10.8629
腰脚	-10.8631
瞑目	-10.8631
假令	-10.8631
允	-10.8631
辰戌	-10.8632
俞	-10.8632
琢	-10.8633
男左女右	-10.8633
交媾	-10.8633
雲朋霞友	-10.8634
𥘉	-10.8634
翛然	-10.8634
醴泉	-10.8636
摶	-10.8636
懺	-10.8636
某日	-10.8636
鴈	-10.8637
蔡	-10.8637
虔	-10.8637
鍜鍊	-10.8639
塵事	-10.864
目眩	-10.864
滿庭芳	-10.8641
䇿	-10.8641
贖	-10.8643
不得妄	-10.8643
癩	-10.8643
下三寸	-10.8643
昭然	-10.8644
也當	-10.8645
勵	-10.8645
未解	-10.8645
之人也	-10.8647
心灰	-10.8648
棋	-10.8648
踵	-10.8648
乾薑桂心	-10.8648
獵	-10.8649
正神	-10.8649
淮	-10.865
知之矣	-10.865
參差	-10.8651
二十年	-10.8652
柰何	-10.8652
雷部	-10.8654
洪波	-10.8654
火令	-10.8657
厥陰	-10.8658
敷之	-10.8663
遊宴	-10.8664
玉珮	-10.8664
服五合	-10.8665
天大	-10.8667
相親	-10.867
實核	-10.867
灰心	-10.8671
甲申	-10.8671
十惡	-10.8672
以粉	-10.8673
九真	-10.8675
三師	-10.8675
小事	-10.8676
黑色	-10.8676
多病	-10.868
日二服	-10.8682
難知	-10.8684
天蓬呪	-10.8688
滅亡	-10.8689
三間	-10.8689
大慈	-10.8689
山嶽	-10.8691
何事	-10.8692
某人	-10.8694
治一切	-10.8696
面有	-10.8696
祥瑞	-10.8703
筋急	-10.8703
不可妄	-10.8711
明矣	-10.8713
賊風	-10.8718
讀經	-10.8722
長年	-10.8723
欲絶	-10.8723
水煎服	-10.8724
往還	-10.8727
吐之	-10.8731
有縁	-10.8734
微言	-10.8735
清虛	-10.8737
威光	-10.8737
何人	-10.8739
求生	-10.8741
心自	-10.8742
相教	-10.8745
高明	-10.8745
青衣	-10.8749
臣某	-10.8751
注云	-10.8753
和光	-10.876
無定	-10.8761
心腹痛	-10.8762
眞箇	-10.8764
降臨	-10.8768
酒一升	-10.8769
西華	-10.877
同處	-10.8774
取北炁	-10.8776
青白	-10.8783
不欺	-10.8786
九天之上	-10.8786
却用	-10.8788
年命	-10.8793
何日	-10.8793
㕮咀以	-10.8796
隨人	-10.8796
痰飲	-10.8797
山居	-10.88
既得	-10.8801
元來	-10.8812
能知	-10.8815
斬鬼	-10.8817
也宜	-10.8819
浄清	-10.8825
耳後	-10.8828
而不知	-10.8829
大樂	-10.8831
今生	-10.8832
水一斗	-10.8832
自從	-10.8833
心開	-10.8837
右八味㕮咀以	-10.8838
洞徹	-10.8838
小者	-10.884
滅度	-10.884
者去	-10.8843
惡血	-10.8843
高眞	-10.8844
所不能	-10.8848
之書	-10.8848
惡肉	-10.8849
瓜子	-10.8852
心氣	-10.8854
之疾	-10.8854
說與	-10.8854
山山	-10.8855
符成	-10.8862
光景	-10.8863
矣今	-10.8864
本願	-10.8867
無以	-10.8868
隨吾	-10.8873
則死	-10.8875
不由	-10.8875
香爐	-10.8877
百邪	-10.8877
夫天	-10.8879
靈神	-10.8883
受天	-10.8883
崑崙山	-10.8886
加之	-10.8887
相欺	-10.889
濕痺	-10.8893
龍王	-10.8897
背上	-10.8898
彼此	-10.8899
未成	-10.8901
三世	-10.8901
塗之又方	-10.8902
過此	-10.8902
無故	-10.8903
南斗	-10.8907
受苦	-10.8907
受經	-10.8908
生時	-10.891
外衆	-10.8912
天之道	-10.8913
損人	-10.8914
名之爲	-10.8915
並是	-10.8917
减半	-10.8923
五行之	-10.8924
㕮咀以水	-10.8924
何其	-10.8924
太過	-10.8928
因以	-10.893
凡諸	-10.8931
之氣也	-10.8931
難言	-10.8934
即生	-10.8936
消除	-10.8937
化人	-10.8939
入口	-10.8942
五轉	-10.8942
則愈	-10.8942
心田	-10.8943
北炁	-10.8945
律令勑	-10.8947
又用	-10.8948
不可久	-10.8948
諸真人	-10.8951
芍藥甘草	-10.8952
反逆	-10.8953
讖	-10.8954
於天地	-10.8959
酒肉	-10.8959
服一丸	-10.8962
等分爲末	-10.8965
徒勞	-10.8967
聖王	-10.8967
這般	-10.8969
入山	-10.897
疸	-10.897
五彩	-10.8972
右十三味	-10.8984
也比若	-10.8985
聰	-10.8986
病也	-10.8987
客忤	-10.8988
犯者	-10.8989
卷之七	-10.8989
腹大	-10.8989
魘	-10.8989
足陽明	-10.8992
威神	-10.8992
囉哩㖫哩囉㖫	-10.8993
㿗	-10.8995
吻	-10.8996
期門	-10.8996
唯唯今	-10.8996
幾人	-10.8997
痂	-10.8998
𥿄朱書	-10.8998
大要	-10.8998
防葵	-10.8998
欵冬花	-10.9
生有	-10.9001
一周	-10.9001
加至二十丸	-10.9003
金龍	-10.9004
臼	-10.9005
瀆	-10.9005
有十	-10.9005
𡅗	-10.9006
嫩	-10.9006
蒴藋	-10.9006
蕪	-10.9006
蟹	-10.9006
匕	-10.9007
㦸	-10.9008
熱熱則	-10.9008
馥郁	-10.901
晡	-10.901
窒	-10.9012
叩齒十二通	-10.9012
兩脇	-10.9012
潑	-10.9013
猥	-10.9014
惡也	-10.9015
願念	-10.9016
盻	-10.9017
隸	-10.9017
道氣	-10.9017
寂寥	-10.9018
眄	-10.9018
服三丸	-10.9018
宇宙	-10.9018
囬	-10.9018
阜	-10.9018
夷狄	-10.9018
詰	-10.9019
員	-10.9019
匙	-10.902
仇	-10.902
迦	-10.902
銳	-10.902
陋	-10.902
輭	-10.9021
訾	-10.9021
十二日	-10.9022
恥	-10.9022
券	-10.9022
者早已成真道	-10.9023
抹	-10.9023
隴	-10.9023
六十日	-10.9024
無著	-10.9024
志意	-10.9025
澗	-10.9025
磚	-10.9025
支滿	-10.9025
江湖	-10.9026
肘後方云	-10.9028
日月星宿	-10.9029
屯	-10.9029
秦川	-10.9029
中府	-10.903
區	-10.903
地祇	-10.903
墮落	-10.9031
帽	-10.9032
芥子	-10.9032
天尊曰	-10.9033
敏	-10.9035
以養	-10.9037
一篇	-10.9038
虚幻	-10.9039
贈丹陽	-10.9039
脉也	-10.904
霞友	-10.9042
十斤	-10.9044
擲火	-10.9045
危亡	-10.9046
上衝	-10.9048
動摇	-10.9049
穀氣	-10.9049
頭建	-10.905
上通	-10.9053
神道	-10.9053
惡物	-10.9054
身軀	-10.9055
和平	-10.9057
正直	-10.9058
天庭	-10.9059
二七枚	-10.906
不拘時	-10.9061
六曰	-10.9062
華池	-10.9062
諸惡	-10.9062
猶是	-10.9063
青面	-10.9066
取汗	-10.9066
石門	-10.9066
黄素	-10.9067
夜光	-10.9067
紫庭	-10.9067
九祖	-10.9071
傳於	-10.9072
教其	-10.9074
更以	-10.9078
神仙之	-10.9081
瘥治	-10.9084
西嶽	-10.9086
以水四升	-10.9088
本源	-10.9092
符右符	-10.9093
無差	-10.9093
太極真人曰	-10.9094
符上	-10.9096
萬有	-10.9098
與道合	-10.9099
門開	-10.9106
由此	-10.9108
冬月	-10.9109
頓悟	-10.9117
禍福	-10.9118
佳又方	-10.9119
咽中	-10.912
白石	-10.9121
在下	-10.9123
不朽	-10.9127
經書	-10.9128
無方	-10.9128
刻書	-10.9128
爲非	-10.9131
大吉	-10.9135
明鏡	-10.9138
爲主	-10.9139
舌下	-10.9139
子母	-10.9142
兩頭	-10.9143
善也	-10.9149
精誠	-10.915
玉户	-10.9154
取四升	-10.9155
空腹服	-10.9155
十指	-10.9155
意者	-10.9156
怎得	-10.9159
時當	-10.9159
若干	-10.916
應是	-10.916
因此	-10.9161
其過	-10.9164
宿食	-10.9165
須用	-10.9168
降下	-10.9169
九州	-10.9169
明效	-10.9171
風波	-10.9172
發時	-10.9172
五霸	-10.9177
遠遊	-10.918
超三界	-10.9189
日三治	-10.919
方當歸	-10.919
當令	-10.919
運雷	-10.9195
大腹	-10.9199
身輕	-10.92
乃成	-10.9203
祖炁	-10.9203
白附子	-10.9204
尚書	-10.9204
九曲	-10.9204
婦人産後	-10.9212
體無	-10.9213
風府	-10.9216
但能	-10.9231
無失	-10.9235
四十五	-10.9236
不曉	-10.9238
赤腫	-10.9241
後用	-10.9242
八風	-10.9243
不勝	-10.9249
空青	-10.9252
意馬	-10.9252
不知人	-10.9252
散人	-10.9253
丸散	-10.9259
勿得	-10.926
遂成	-10.9261
成膿	-10.9263
疔瘡	-10.9265
方黄連	-10.9267
運度	-10.9275
以水七升煑取三升	-10.9285
不免	-10.9292
付歸	-10.9293
劉公	-10.9294
衢	-10.9295
火裏	-10.93
人命	-10.9303
一斗二升	-10.9305
虚書	-10.9308
二十九	-10.9309
運用	-10.9311
等也	-10.9313
善事	-10.9321
至今	-10.9324
古文	-10.9325
善德	-10.9327
當歸芍藥	-10.933
即消	-10.933
十天	-10.9331
姹	-10.9333
集驗	-10.9334
其音	-10.9335
花開	-10.9339
疾疾	-10.9342
休歇	-10.9344
皆從	-10.9346
湯灸法	-10.9354
不拘	-10.9354
也謂	-10.9356
畏之	-10.936
法教	-10.9361
大法師	-10.9362
藏之	-10.9362
以戒	-10.9364
方灸	-10.9365
玄宫	-10.9369
殺傷	-10.9371
甘草桂心	-10.9373
速降臨	-10.9376
金光呪	-10.9383
姜三片	-10.9391
贰	-10.9393
拌	-10.9394
曲池	-10.9394
懊	-10.9396
茵蔯	-10.9396
可畏	-10.9397
扁鵲云	-10.9397
蜚	-10.9398
糯米	-10.9398
狼牙	-10.9399
欲要	-10.94
蒿	-10.94
覆取汗	-10.94
圈	-10.9401
商陸	-10.9402
稍加至	-10.9403
各三兩	-10.9403
青童君	-10.9404
振寒	-10.9404
病上	-10.9407
耍	-10.9407
專心	-10.9407
如彈丸	-10.9408
鎚	-10.9408
腿	-10.9409
梧	-10.9409
無上祕要卷之	-10.941
毀	-10.941
老小	-10.9411
剥	-10.9411
伺	-10.9411
咭	-10.9412
掉	-10.9413
三天正法	-10.9413
嬉	-10.9414
曽	-10.9414
不可思議	-10.9414
汞鉛	-10.9414
閏	-10.9415
茹	-10.9415
迥	-10.9415
焙乾	-10.9415
凑	-10.9415
瑕	-10.9416
功過	-10.9417
各從其	-10.9417
圎	-10.9418
癰疽發背	-10.9418
叛	-10.9418
翊聖	-10.9418
儘	-10.9419
蒂	-10.9419
椿	-10.942
冗	-10.942
暨	-10.9422
有德之君	-10.9422
䟽	-10.9422
至心歸命	-10.9422
蒺藜子	-10.9422
遨遊	-10.9423
哆	-10.9423
祅	-10.9423
拂袖	-10.9424
丞	-10.9425
如常	-10.9425
隙	-10.9426
苦惱	-10.9427
五里	-10.9428
鍛鍊	-10.9429
熙	-10.9431
切痛	-10.9431
萬二千國	-10.9432
者死病人	-10.9434
有甚	-10.9434
宥	-10.9434
所以者何	-10.9434
去血	-10.9436
綸	-10.9436
輕賤	-10.9436
秀才	-10.9436
七祖父母	-10.944
內	-10.944
今報其	-10.944
根皮	-10.9442
破壞	-10.9443
惡鬼	-10.9443
工夫	-10.9443
沉香	-10.9444
作善	-10.9446
來降	-10.9447
有驗	-10.9448
性燭	-10.9453
飛揚	-10.9455
水七升	-10.9455
書名	-10.9457
深淺	-10.9459
雖復	-10.9463
服此藥	-10.9463
劫運	-10.9464
如膏	-10.9466
登壇	-10.9471
紫晨	-10.9474
自消	-10.9474
未曾	-10.9476
高皇	-10.9477
恰如	-10.9478
小品	-10.9478
斷穀	-10.9478
餘疾	-10.9479
通身	-10.9481
九者	-10.9481
龍漢	-10.9481
不達	-10.9482
車馬	-10.9482
孔穴	-10.9483
兵馬	-10.9484
不省	-10.9487
六寸	-10.9488
運行	-10.9488
一枝	-10.949
舌本	-10.9493
貪生	-10.9495
口吐	-10.9495
成事	-10.9496
烏藥	-10.9496
前谷	-10.9501
中真	-10.9503
靈真	-10.9507
當須	-10.9508
我師	-10.9515
不能得	-10.9516
雲歸	-10.9517
公子	-10.9518
諸仙	-10.9519
毛髮	-10.9519
天地之性	-10.952
尸蟲	-10.9527
刀山	-10.9528
人神	-10.9528
立身	-10.953
白馬	-10.9531
弱者	-10.9534
開闡	-10.9536
亦以	-10.9536
此三者	-10.9542
三部脉	-10.9548
和調	-10.9548
千千	-10.9548
風伯	-10.9549
收捉	-10.955
㗶	-10.955
無力	-10.9553
苦樂	-10.9555
一半	-10.9555
其蟲	-10.9559
開化	-10.9559
狂言	-10.956
無時	-10.956
太无	-10.956
一握	-10.9562
小指	-10.9568
一遍	-10.957
旋行	-10.9572
真空	-10.9573
煞鬼	-10.9573
藏於	-10.9574
湯治傷寒	-10.9576
會合	-10.9581
不壽	-10.9582
雷震	-10.9582
七寸	-10.9583
煎服	-10.9587
玉樓	-10.959
廣寒	-10.9592
勸化	-10.9593
全道	-10.9593
真聖	-10.9598
初服	-10.9601
九過	-10.9606
王治	-10.9609
變動	-10.961
之庭	-10.9619
也真人知之耶唯唯	-10.9623
天理	-10.9624
群生	-10.9626
聲色	-10.9629
卷之三十	-10.963
其家	-10.9631
治虛勞	-10.9636
所部	-10.9637
眞師	-10.964
金石	-10.9641
只用	-10.9641
玉章	-10.9646
玄風	-10.9648
客熱	-10.9649
道德仁	-10.9652
開張	-10.9653
哉然	-10.9654
眞性	-10.9657
以安	-10.9663
玄靈	-10.9665
久食	-10.967
有寒	-10.967
强者	-10.9671
衝天	-10.9671
浮而	-10.9678
右八味㕮咀	-10.9678
以類	-10.9678
取一斗	-10.9682
鍊成	-10.9686
腹中有	-10.9687
所成	-10.9687
癘	-10.969
者天之	-10.9695
書言	-10.9695
圓滿	-10.9696
右以	-10.9699
胞中	-10.97
右九味㕮咀	-10.9702
人皇	-10.9705
再念	-10.9705
悟得	-10.971
又方用	-10.9715
主將	-10.9716
俗事	-10.9717
周行	-10.9718
不久	-10.9722
天中有	-10.9724
其五	-10.9727
飛尸	-10.9728
火雲	-10.9728
雲集	-10.973
至于	-10.9733
丹天	-10.9736
方茯苓	-10.9737
香風	-10.9738
自非	-10.9739
不敬	-10.9739
四首	-10.974
石室	-10.9741
急至	-10.9744
字道	-10.9747
九千	-10.9752
凶事	-10.9754
三七日	-10.9759
隨病	-10.9761
三斤	-10.9762
皇道君	-10.9768
數百	-10.977
夜卧	-10.977
右㕮咀每服	-10.9773
神官	-10.9778
其證	-10.9779
用力	-10.9781
下後	-10.9782
五枚	-10.9787
脉微	-10.9792
來時	-10.9793
鳩尾	-10.9794
治上應	-10.9796
之冠	-10.9796
四司	-10.9796
生長	-10.98
蛻	-10.9802
即時	-10.9806
常用	-10.9807
南北	-10.9809
耆	-10.981
瘖	-10.981
右九味㕮咀以水一斗	-10.981
唯願	-10.9811
足大趾	-10.9811
變形	-10.9811
泔	-10.9812
味辛	-10.9813
百草霜	-10.9814
七年	-10.9815
荆瀝	-10.9815
瓜蒂	-10.9816
另	-10.9816
後生者	-10.9816
一日一夜	-10.9816
半盞	-10.9817
秃	-10.9818
曲泉	-10.9819
以是爲	-10.9819
臨泣	-10.9819
副帥	-10.9821
樣	-10.9821
軫	-10.9823
地膚子	-10.9823
插	-10.9823
在後	-10.9823
南方火	-10.9823
掠	-10.9828
松峰	-10.9828
雲氣	-10.9828
鷹	-10.9829
徐徐	-10.983
賁	-10.983
鑽	-10.983
腎輸	-10.9831
嚩	-10.9831
奏地仙得道上學之人言名於四天之王	-10.9831
蜂房	-10.9831
蓑	-10.9834
粧	-10.9834
縷	-10.9834
魒	-10.9834
肩背	-10.9835
靄	-10.9835
較	-10.9835
戈	-10.9836
上德之君	-10.9836
娑	-10.9836
浮世	-10.9837
盂	-10.9838
月水	-10.9839
紹	-10.9839
相搏	-10.9839
丹陽次韻	-10.9839
旅	-10.984
財貨	-10.984
籬	-10.9841
頒	-10.9841
顚倒	-10.9841
手少陰	-10.9842
年月日時	-10.9842
幅	-10.9842
凡軀	-10.9843
瑩徹	-10.9843
纓	-10.9843
昇玄經云	-10.9844
囂	-10.9844
受之於	-10.9844
黄鶴洞中仙	-10.9845
揖	-10.9845
十二時中	-10.9846
兀	-10.9847
銘	-10.9848
兩足	-10.9848
玉蘂	-10.9848
施惠	-10.9849
爰	-10.985
城郭	-10.985
莊嚴	-10.985
煖	-10.9852
副將	-10.9852
養浩	-10.9852
邦	-10.9853
愛憎	-10.9853
飛符	-10.9854
驛	-10.9854
刊	-10.9855
迸出	-10.986
非道	-10.9861
飲刀圭	-10.9861
仰卧	-10.9864
家緣	-10.9865
煎取一升	-10.9865
别後	-10.9866
太霄	-10.9868
到蓬萊	-10.987
在右	-10.9871
玉門	-10.9872
數數	-10.9874
卒死	-10.9875
浮沉	-10.9876
青鸞	-10.9876
功行滿	-10.9877
善乎	-10.9879
做神仙	-10.9882
興隆	-10.9882
冤結	-10.9883
服三合	-10.9884
常苦	-10.9885
光澤	-10.9886
一輪	-10.9887
大興	-10.9889
今天師	-10.989
一體	-10.9892
不虚	-10.9895
不散	-10.9898
之先	-10.9899
悔過	-10.9899
千杵	-10.9899
十丸日三	-10.99
侍香	-10.9904
良縁	-10.9906
過去生	-10.9906
衝開	-10.9911
只在	-10.9911
子細	-10.9912
如前法	-10.9912
神字	-10.9916
者哉	-10.9918
論曰夫	-10.9919
師尊	-10.992
不救	-10.9921
幻化	-10.9921
復更	-10.9922
七曜	-10.9926
與吾	-10.9927
虚熱	-10.9927
以救	-10.9929
滿口	-10.9932
中經曰	-10.9936
慶雲	-10.994
天府	-10.994
幸遇	-10.9944
此等	-10.9947
神文	-10.9949
元帥名	-10.995
勞宫	-10.9952
上管	-10.9952
六六	-10.9952
已有	-10.9953
五十日	-10.9964
十戒	-10.9968
濃煑	-10.9973
半斤	-10.9976
八年	-10.9978
王母	-10.998
宿世	-10.998
之官	-10.9981
勸君	-10.9982
上廉	-10.9983
命屬	-10.9984
内容	-10.9986
不懈	-10.9987
自致	-10.999
六度	-10.9991
急捉	-10.9992
人難	-10.9992
何一	-10.9995
從容	-11.0002
上帝勑	-11.0003
照破	-11.0007
羣生	-11.0007
之候	-11.0008
不可食	-11.001
解之	-11.0015
丹青	-11.0018
四邊	-11.0021
而歸	-11.0023
臨頭	-11.0023
獨立	-11.0027
氣象	-11.003
九陽	-11.0031
於其内	-11.0031
其性	-11.0032
五濁	-11.0032
今天上	-11.0033
聞知	-11.0037
罪過	-11.0038
乃復	-11.0038
某等	-11.004
之長也	-11.0045
莫知	-11.0049
妙門	-11.0049
神清	-11.0051
交結	-11.0053
詣師	-11.0056
日新	-11.0057
不詳	-11.0057
馳騁	-11.0058
則是	-11.0059
愈又方	-11.0061
積善	-11.0064
可覩	-11.0067
五香	-11.0069
可不愼	-11.007
處無爲	-11.007
日三夜二	-11.0071
比若人	-11.0073
世夢	-11.0076
合道	-11.0076
世外	-11.0078
華山	-11.0081
光彩	-11.0082
言曰	-11.0086
嶽先生	-11.0086
修習	-11.0091
赴蓬萊	-11.0092
非獨	-11.0094
也所謂	-11.0096
長命	-11.0096
是正	-11.0097
道本	-11.0099
照明	-11.0103
仙卿	-11.0104
七聖	-11.0116
分三服日三	-11.0117
白芍藥	-11.012
短長	-11.0124
無縁	-11.0125
動止	-11.0125
與世	-11.0125
清旦	-11.0126
手把	-11.0128
中賢	-11.0132
六時	-11.0138
無分	-11.0143
持齋	-11.0147
雷雨	-11.015
也故天	-11.0155
好事	-11.0155
密妙	-11.0157
若在	-11.0158
有幾	-11.0158
臨時	-11.0162
門外	-11.0165
上香	-11.0165
當歸甘草	-11.0167
地神	-11.0168
西風	-11.017
年月	-11.0171
不倦	-11.0174
反爲	-11.0177
之患	-11.0188
四斗	-11.0192
遠行	-11.0193
不勞	-11.0194
大哉	-11.0196
年少	-11.0196
閑遊	-11.0197
師法	-11.0201
玄微	-11.0202
無上道	-11.0209
生用	-11.021
之象	-11.0214
不渴	-11.0218
神寳	-11.022
神雷	-11.022
相承	-11.022
七徧	-11.0221
上聞	-11.0223
治法	-11.0227
玉龍	-11.0229
祕法	-11.023
驚癇	-11.023
頸項	-11.0231
當歸湯	-11.0235
大藥	-11.0236
前生	-11.0237
上啓	-11.0239
天中之	-11.0239
如棗核大	-11.0241
蜜和丸	-11.0244
奄	-11.0245
甘草湯	-11.0247
昨	-11.0247
之音	-11.0252
躑躅	-11.0254
小便赤黄	-11.0254
宛宛中	-11.0254
忻	-11.0255
如此則	-11.0256
鳩	-11.0256
鋭	-11.0257
髣髴	-11.0258
尻	-11.026
飛行羽經	-11.026
肝輸	-11.0261
雞子白	-11.0261
淬	-11.0261
圃	-11.0261
魁𩲃𩵄䰢魓𩳐魒	-11.0262
戸	-11.0263
綫	-11.0263
馨	-11.0264
竇	-11.0264
焦枯	-11.0264
宂	-11.0264
秉	-11.0265
賽	-11.0265
悮	-11.0265
大怒	-11.0266
貫衆	-11.0266
相當	-11.0267
禾	-11.0267
午時	-11.0268
搨	-11.0268
上相青童君	-11.0269
軒轅	-11.0269
真修	-11.0269
色白	-11.027
沉淪	-11.027
金臺	-11.027
功成行滿	-11.0271
悴	-11.0271
狹	-11.0271
麥糵	-11.0272
七升	-11.0272
烏兔	-11.0272
泊	-11.0272
拄	-11.0273
踪	-11.0273
住行坐卧	-11.0274
竟其天年	-11.0274
秋月	-11.0274
濫	-11.0275
原缺	-11.0276
耽	-11.0276
善哉子之言也	-11.0277
緒	-11.0277
必得	-11.0277
該	-11.0277
貸	-11.0277
六神	-11.0278
乹	-11.0278
陰痿	-11.0279
五人	-11.028
雷霆都司	-11.028
口訣云是	-11.028
進一服	-11.0281
忙忙	-11.0281
獅子	-11.0281
模	-11.0282
鼻塞	-11.0282
誰肯	-11.0285
碑	-11.0285
騰騰	-11.0286
營衛	-11.0286
研細	-11.0287
閑裏	-11.0287
摩之	-11.0287
援	-11.0287
如左	-11.0288
報之	-11.029
動揺	-11.0291
下鬼	-11.0292
樵	-11.0292
靈山	-11.0293
肛門	-11.0294
莫測	-11.0295
宗祖	-11.0298
玉札	-11.0298
大敦	-11.0299
貧富	-11.03
今明	-11.03
七十二	-11.0303
交接	-11.0305
厚薄	-11.0305
并治	-11.0306
慎勿	-11.0307
竹皮	-11.0313
玉兔	-11.0314
接引	-11.0315
服二合	-11.0317
悲傷	-11.0318
動一止	-11.032
瓊臺	-11.032
太極眞人	-11.0323
部領	-11.0323
視聽	-11.0325
絶慮	-11.0328
重樓	-11.0328
兒女	-11.0329
事意	-11.0329
京師	-11.0333
産難	-11.0336
大喜	-11.034
黄花	-11.0344
姹嬰	-11.035
童便	-11.035
上朝	-11.0352
心堅	-11.0355
隨機	-11.0355
初得	-11.036
不停	-11.0363
名書	-11.0364
九江	-11.0365
大蒜	-11.0366
鄉里	-11.0367
定是	-11.0371
不下食	-11.0371
仙宫	-11.0374
神真	-11.0376
順行	-11.0378
六道	-11.0379
後服	-11.0383
悶亂	-11.0384
下廉	-11.0384
相交	-11.0384
馬蹄	-11.0388
虚堂	-11.0388
之志	-11.0389
至死	-11.0391
通真	-11.0391
合擣	-11.0392
眞眞	-11.0396
滄海	-11.0396
家門	-11.0398
下世	-11.0399
太平氣	-11.0402
小便利	-11.0406
玉簡	-11.0406
諸經	-11.0412
眞明	-11.0413
復見	-11.0415
豈能	-11.0416
爲臣	-11.0417
令消	-11.0418
服御	-11.0419
而數	-11.0419
得汗	-11.042
全身	-11.042
南華	-11.0421
無罪	-11.0422
十餘	-11.0425
六府	-11.0427
玄虚	-11.0427
紅光	-11.0427
分付	-11.0432
常與	-11.0432
仙公曰	-11.0434
得自然	-11.0438
開通	-11.0439
裏急	-11.0441
有志	-11.0444
未足	-11.0446
眞通	-11.0448
心悶	-11.0448
青皮	-11.0449
者名爲	-11.0452
天報	-11.0453
四十八	-11.0458
騰空	-11.0461
即吐	-11.0463
右四味爲末	-11.0469
有一人	-11.0472
隨身	-11.0472
雙關	-11.0474
膈上	-11.0475
不愛	-11.0479
在家	-11.048
君父	-11.048
五常	-11.0486
驅邪	-11.0494
逍遥坦蕩	-11.0495
得乘	-11.0496
受持	-11.0496
者勿	-11.0497
玄虛	-11.05
脉大	-11.0502
三上香	-11.0505
之所以	-11.0506
无所	-11.0507
大臣	-11.0507
至孝	-11.0509
但以	-11.0509
能言	-11.051
老公	-11.0514
般若	-11.0518
解毒	-11.0518
而已矣	-11.0518
第十四	-11.0519
流轉	-11.0523
粟米	-11.0527
依科	-11.0534
微温	-11.0536
到頭	-11.0537
與俗	-11.0538
鈞	-11.0547
空裏	-11.0547
科戒	-11.0549
無我	-11.0551
炭火	-11.0552
十善	-11.0559
火炁	-11.0561
以苦酒	-11.0563
右五味爲末	-11.0563
腸癰	-11.0567
太靈	-11.057
萬不失一也	-11.0572
自愈	-11.0573
自易	-11.0574
此三人	-11.0576
酒色	-11.0576
厭世	-11.0576
無狀	-11.0578
因由	-11.0579
吒唎	-11.0581
十載	-11.0585
不舉	-11.0587
如雞子	-11.0589
方乾地黄	-11.0591
目痛	-11.0591
六真人	-11.0598
得其人	-11.0602
將興	-11.0605
右十五味㕮咀	-11.0607
咎在	-11.0607
上一寸	-11.061
神州	-11.0613
凶神	-11.0623
山色	-11.0624
得神仙	-11.0627
細辛桂心	-11.0633
一小	-11.0636
三毒	-11.0645
三十壯	-11.0645
諸疾	-11.0646
直至	-11.0648
初生	-11.0652
有效	-11.0657
以爲常	-11.0659
噦	-11.066
勞損	-11.0662
莫令	-11.0663
不差	-11.0664
各等分	-11.0665
隂氣	-11.0667
鍊氣	-11.0668
酒二升	-11.0668
赤黑	-11.0668
日吉	-11.0673
是道	-11.0673
水流	-11.0683
去滓分三服	-11.0685
呪曰唵	-11.0685
轉轉	-11.0686
派	-11.0688
零陵香	-11.069
𠔃	-11.0691
四明	-11.0692
玉眞	-11.0692
瘈瘲	-11.0693
立瘥	-11.0693
依方	-11.0697
一切諸	-11.0699
天乃	-11.07
治下篩以	-11.0701
右十九味	-11.0701
火龍	-11.0702
聦	-11.0703
雷兵	-11.0705
時間	-11.0707
右十七味	-11.0707
瘴	-11.0708
牢獄	-11.0708
上白	-11.0709
狂走	-11.0709
萊	-11.0709
右三味爲末	-11.0711
粮	-11.0713
鈍	-11.0713
牽牛	-11.0714
酆	-11.0715
急急如律令右呪畢	-11.0715
蔚	-11.0716
一升半	-11.0716
炓	-11.0718
免輪回	-11.0718
雞鳴	-11.0718
此其致也	-11.0718
超彼岸	-11.0718
鈺	-11.0719
歴	-11.0719
祐之	-11.0719
寵辱	-11.072
匡	-11.072
镇	-11.0721
臓	-11.0721
足少陽	-11.0721
奔波	-11.0721
瘤	-11.0722
用此方	-11.0723
蝸	-11.0723
南極上元君	-11.0723
詢	-11.0724
滚	-11.0724
三天玉童	-11.0726
稚	-11.0727
地戸	-11.0727
黄𥿄朱書	-11.0727
慘	-11.0727
𢬵	-11.0727
娱	-11.0728
扉	-11.0728
憩	-11.0728
販骨	-11.0729
郡縣	-11.073
謌	-11.073
戍	-11.073
太初	-11.073
烏龜	-11.0731
大小便不通	-11.0731
篇中	-11.0732
影響	-11.0732
建中湯	-11.0733
兵革	-11.0733
無比	-11.0733
勦	-11.0734
誑	-11.0734
行惡	-11.0735
七丸	-11.0736
縹緲	-11.0736
察察	-11.0736
是知	-11.0737
彼岸	-11.0737
鸞鶴	-11.0737
丞相	-11.0739
大化	-11.0739
怨咎	-11.074
人參茯苓	-11.0743
輕粉	-11.0745
官人	-11.0745
脅下	-11.0746
欄	-11.0747
仙王	-11.0747
去殻	-11.0753
甲寅	-11.0753
專專	-11.0755
逆天	-11.0755
變怪	-11.0761
不得眠	-11.0762
建齋	-11.0766
光耀	-11.0768
内廉	-11.0769
打坐	-11.0769
思量	-11.0769
不能飲食	-11.0771
恭惟某	-11.0772
大赤天	-11.0774
止渴	-11.0775
鬼魅	-11.0775
故聖人	-11.0777
玄理	-11.0777
三箇	-11.0777
炒令	-11.0778
山河	-11.078
正好	-11.078
本末	-11.0781
手脚	-11.0781
謹謹	-11.0782
抱一	-11.0783
皆愈	-11.0784
羽衣	-11.0785
各得其所	-11.0788
衰老	-11.0788
重陽子	-11.0789
處所	-11.0791
渴飲	-11.0792
服七丸	-11.0794
卷之十	-11.0796
化形	-11.0797
隨方	-11.0799
真人曰	-11.0799
壺天	-11.0801
鼎内	-11.0801
貪財	-11.0802
心月	-11.0804
乾燥	-11.0809
君頭建	-11.081
等病	-11.081
日精	-11.081
大抵	-11.0812
虎骨	-11.0813
六子	-11.0814
九百	-11.082
始學	-11.0821
黄泉	-11.0827
昇降	-11.0828
此二人	-11.0831
交會	-11.0836
有敕	-11.0838
悉除	-11.0838
手持	-11.0845
丹臺	-11.0847
久長	-11.0848
在左	-11.0856
高士	-11.0856
紫虛	-11.0857
横文	-11.0862
金烏	-11.0863
已知之矣	-11.0865
柔和	-11.0866
大聖衆	-11.0867
風刀	-11.0871
繒上	-11.0871
吾令	-11.0871
凡民	-11.0872
府右	-11.0875
之㫖	-11.0879
往往	-11.088
者令人	-11.0883
忽忽	-11.0883
取三升分三服	-11.0885
衆中	-11.0885
无復	-11.0887
甘草當歸	-11.0887
大害	-11.0892
已死	-11.0892
六十四	-11.0894
南炁	-11.0894
月照	-11.0895
向前	-11.0897
貼之	-11.0899
隨手	-11.0902
故古者聖賢	-11.0904
餘藥	-11.0904
細研	-11.0904
風池	-11.0905
神功	-11.0905
腫上	-11.0907
蒸之	-11.0908
雖是	-11.0909
多是	-11.091
難可	-11.0911
無益於	-11.0911
寶光	-11.0919
多則	-11.092
家人	-11.0921
風熱	-11.0923
皇老	-11.0925
乘風	-11.0929
冷氣	-11.0932
使者符	-11.0934
斷除	-11.0935
常居	-11.0935
靜定	-11.0937
忽有	-11.0937
辰文	-11.0938
玄教	-11.0945
三品	-11.0949
烊	-11.0953
莫教	-11.0954
分形	-11.0954
迷惑	-11.0954
十一者	-11.0963
不語	-11.0968
南山	-11.0969
小便赤	-11.0972
中部	-11.0973
鹽湯	-11.0973
居處	-11.0973
清和	-11.0975
和塗之	-11.0976
丹元	-11.0979
赤茯苓	-11.0983
熱藥	-11.099
第十六	-11.099
物情	-11.0998
養成	-11.0999
氣衰	-11.1001
急者	-11.1003
天地中和	-11.1005
大洞真經	-11.1005
難問	-11.1006
等閑	-11.1009
血不止	-11.1019
上升	-11.1019
方防風	-11.1021
則賜	-11.1022
春三月	-11.1025
洞元	-11.1026
茯苓白术	-11.1029
一隻	-11.1031
正觀	-11.1031
神鬼	-11.1032
氣急	-11.1033
妄行	-11.1035
漏下	-11.104
反復	-11.1041
不可忍	-11.1041
最爲	-11.1044
前來	-11.1044
太帝君	-11.1045
無間	-11.1049
象天地	-11.1049
如梧桐子大	-11.1057
陽關	-11.106
治食	-11.1062
還自	-11.1063
無休	-11.1064
遞	-11.1065
正覺	-11.1068
天地間	-11.1073
兆民	-11.1074
陸地	-11.1075
者以其	-11.1077
眞官	-11.1079
不欲食	-11.1081
精華	-11.1086
衆妙	-11.1087
上達	-11.1088
取瘥	-11.109
惡業	-11.1094
上焦	-11.1095
面色	-11.1095
須是	-11.1097
黄龍	-11.1099
以何爲	-11.1102
但恐	-11.1103
其辭	-11.1103
列宿	-11.1103
七宿	-11.111
者非也	-11.111
苦痛	-11.1111
以度	-11.1116
稱爲	-11.1119
乃知	-11.1119
同法	-11.1119
之觀	-11.112
六年	-11.1123
教門	-11.1127
直入	-11.1132
悉出	-11.1133
文相似各從其俗記吾	-11.1133
書辭而行之即太平矣	-11.1133
妙訣	-11.1135
存念	-11.1138
玄光	-11.1148
噤	-11.1158
一徧	-11.1159
不干	-11.1161
賜之	-11.1164
而用之	-11.1165
賁豚	-11.1165
肓	-11.1166
蔞	-11.117
豐隆	-11.1172
臑	-11.1173
乍寒乍熱	-11.1179
芒硝	-11.118
麝	-11.1181
擂	-11.1181
所聞	-11.1182
鵲	-11.1182
問修行	-11.1182
春又	-11.1184
悦	-11.1185
擦	-11.1186
憒憒	-11.1186
酪	-11.1186
榆白皮	-11.1186
嚙	-11.1186
萊州	-11.1188
廕	-11.1189
斟酌	-11.119
酸疼	-11.1191
一輪明月	-11.1192
妙處	-11.1192
燃	-11.1193
捏	-11.1193
甦	-11.1194
食氣	-11.1194
失度	-11.1195
熟地黄	-11.1195
寰	-11.1195
猪膽	-11.1196
艱	-11.1197
汲	-11.1197
啞	-11.1197
夏至之日	-11.1198
怛	-11.1198
楮	-11.1198
蹉跎	-11.1198
蓼	-11.1198
的端	-11.1199
誌	-11.1199
姪	-11.1199
別	-11.12
春分之日	-11.12
散治妊娠	-11.12
擾擾	-11.1201
立冬之日	-11.1201
清風明月	-11.1202
離鄉	-11.1204
岫	-11.1204
嶮	-11.1204
鵬	-11.1205
翮	-11.1205
瑟	-11.1205
炎帝	-11.1206
大寒	-11.1206
温瘧	-11.1207
垂拱	-11.1207
嚧	-11.1207
霽	-11.1207
太上洞玄靈寳	-11.1207
璇璣	-11.1208
收拾	-11.1208
秪	-11.1208
掃蕩	-11.1208
邇	-11.1208
寔	-11.1209
麾	-11.1209
鉤	-11.1209
苑	-11.1209
皇后	-11.121
憨	-11.1211
洪崖	-11.1211
宏	-11.1211
瓊瑶	-11.1211
蝶	-11.1211
饑寒	-11.1211
諳	-11.1212
供養三寳	-11.1212
抗	-11.1212
下土	-11.1212
紐	-11.1213
下古之人	-11.1213
遽	-11.1213
𩀱手	-11.1213
五雷使者	-11.1214
諮	-11.1214
珍寶	-11.1215
焚香關召	-11.1216
穩駕	-11.1216
大逆	-11.1216
内傳云	-11.1217
外臺作	-11.1218
凝滯	-11.1218
脾臟	-11.1219
以水三升	-11.1219
不令	-11.1219
蒼耳	-11.1219
纖塵	-11.122
棟	-11.122
這迴	-11.1221
罪學上道	-11.1222
勳	-11.1224
割斷	-11.1224
亘古	-11.1224
貽	-11.1225
黒暗	-11.1225
流灾	-11.1226
桃皮	-11.1227
交泰	-11.1227
香鑪	-11.1227
令匀	-11.1229
精血	-11.1229
雲雨	-11.123
襲	-11.123
愼之愼之	-11.1231
四溟	-11.1231
集議	-11.1232
大海	-11.1233
光芒	-11.1234
消魔	-11.1235
是癇候	-11.1235
人參當歸	-11.1236
衆道友	-11.1237
宫右在	-11.1237
盛衰	-11.1238
常當	-11.1239
手段	-11.124
昏迷	-11.1241
塗炭	-11.1241
變蒸	-11.1242
談笑	-11.1247
欲知其	-11.1247
世網	-11.1249
膝上	-11.1251
劔訣	-11.1252
奪命	-11.1252
因循	-11.1253
筋力	-11.1253
其罪	-11.1254
温中	-11.1255
决定	-11.1255
决要	-11.126
留飲	-11.126
寶經	-11.1263
然谷	-11.1263
安神	-11.1263
後復	-11.1266
道教	-11.1266
不易	-11.1266
恁時	-11.1266
槐子	-11.1267
不居	-11.1268
勞神	-11.127
王相	-11.1273
獨步	-11.1277
蓬萊路	-11.1278
第十五	-11.1279
桂心乾薑	-11.1279
專一	-11.128
太子	-11.1282
若要	-11.1282
猛悟	-11.1287
酒服之	-11.1288
疑惑	-11.1289
雌一	-11.1289
唯唯行去	-11.1292
部界	-11.1293
飛霞	-11.1294
半去滓	-11.1295
保舉	-11.1296
釜中	-11.1296
欲界	-11.1297
无常	-11.1299
百五十	-11.1299
採藥	-11.13
日興	-11.1301
不淨	-11.1304
瓊宫	-11.1305
煑取二升半	-11.1306
逆順	-11.1306
關衝	-11.1308
永無	-11.1311
何愁	-11.1317
叩頭搏頰各	-11.1318
二將	-11.1318
物我	-11.1319
次向	-11.1322
巳上	-11.1323
善能	-11.1326
經營	-11.1326
復何	-11.1334
教法	-11.1339
閉絶	-11.134
不貪	-11.134
洞章	-11.1342
内景	-11.1342
穀道	-11.1347
皆應	-11.1348
也子知之耶唯唯	-11.1349
九孔	-11.1351
以兩手	-11.1351
獨坐	-11.1351
一塊	-11.1351
弘道	-11.1352
以綿裹	-11.1352
存想	-11.1353
口舌	-11.1354
黄河	-11.1355
金光炁	-11.1356
次書	-11.1356
聖衆	-11.1358
至尊	-11.1367
會首	-11.1369
居山	-11.1369
乎夫	-11.1374
何勞	-11.1374
罪根	-11.1374
額上	-11.1376
也何以故	-11.1377
斬邪	-11.1379
鼻口	-11.1381
即安	-11.1387
或因	-11.1387
靜室	-11.1388
也其次	-11.1394
不足以	-11.1396
九尺	-11.1401
十二人	-11.1405
不敢妄	-11.1407
甚深	-11.1411
授之	-11.1415
無忌	-11.1418
直下	-11.1423
大乗	-11.1425
太山	-11.1425
衆官	-11.1428
兒生	-11.1429
湯藥	-11.1435
秋分	-11.1435
勤行	-11.1436
法王	-11.144
相逐	-11.144
在臍下	-11.1441
去離	-11.1441
孝順	-11.1445
悉得	-11.1445
華陽	-11.1449
安居	-11.1457
休教	-11.1461
雨師	-11.1461
地理	-11.1463
凶年	-11.1465
守本	-11.1466
膏成	-11.1467
放出	-11.147
頭重	-11.1474
萬變	-11.1475
明君	-11.1478
日平旦	-11.1482
遇師	-11.1483
上部	-11.1486
祥光	-11.149
頭風	-11.1493
無虧	-11.1493
終無	-11.1494
雷光	-11.1496
變通	-11.1502
澄湛	-11.1508
今世	-11.1514
存金光	-11.1518
帝命	-11.1524
靜中	-11.153
不愈者	-11.1532
具如	-11.1535
升降	-11.1544
右十八味	-11.1549
八寸	-11.155
病愈	-11.155
惡疾	-11.1555
非難	-11.1563
無害	-11.1565
洞室	-11.1565
四指	-11.1568
爲眞人	-11.1576
日光	-11.158
東南方	-11.1588
令病人	-11.1588
滅門	-11.1589
北酆	-11.1592
方寸七日三	-11.1595
安心	-11.1598
上奏	-11.1603
胷心	-11.1611
不曾	-11.1613
掖	-11.1614
吾門	-11.1615
之謂也	-11.1628
不嗜食	-11.1642
一種	-11.1644
緩急	-11.1652
分外	-11.1653
本身	-11.1655
隨風	-11.1655
飛空	-11.1655
牖	-11.1657
日一服	-11.1657
一句	-11.1661
黄華	-11.1661
乘空	-11.1661
大帝敕	-11.1662
菉豆	-11.1663
顱	-11.1674
太谿	-11.1674
缾	-11.1675
薔薇根	-11.1676
白頭翁	-11.1677
葦	-11.1678
溏	-11.1678
瞳	-11.1682
百行	-11.1682
腸澼	-11.1682
鳯	-11.1683
蚌	-11.1683
哪	-11.1685
撚	-11.1686
右七味㕮咀以水一斗	-11.1686
斡	-11.1686
寤	-11.1687
尾閭	-11.1687
胷痺	-11.1688
煑取三升分四服	-11.1689
跟	-11.1689
薊	-11.169
芬芳	-11.1691
諷	-11.1691
遺尿	-11.1691
太平經卷之一百	-11.1691
犢	-11.1691
秦椒	-11.1691
雷車	-11.1691
王不留行	-11.1691
皎潔	-11.1691
穴遠近法第	-11.1691
淨土	-11.1692
娘	-11.1692
飴糖	-11.1692
鍋	-11.1693
憂恚	-11.1693
仗劒	-11.1694
碾	-11.1694
薩	-11.1694
咳逆	-11.1694
癥瘕	-11.1694
角弓反張	-11.1695
掌握	-11.1695
十壯	-11.1695
鳳凰	-11.1696
斂	-11.1696
黯	-11.1696
琉璃	-11.1696
雞犬	-11.1697
趓	-11.1697
乾㯃	-11.1697
峻	-11.1698
我獨	-11.1698
皈	-11.1699
瘢	-11.1699
福報	-11.1699
槁	-11.1699
眞聖	-11.1699
恕	-11.1699
虢	-11.17
急急奉北帝敕四聖令	-11.17
儻	-11.17
姹女	-11.17
䖏	-11.17
沓	-11.17
協	-11.1701
道教義樞	-11.1701
逋	-11.1702
炎凉	-11.1702
刄	-11.1702
蔓	-11.1702
優劣	-11.1703
馥	-11.1703
太平經卷之四十	-11.1703
簫	-11.1703
匱	-11.1703
複	-11.1703
冬至之日	-11.1704
飄蓬	-11.1704
中古以來	-11.1704
輟	-11.1704
嵩	-11.1704
朋友	-11.1704
煞伐	-11.1705
擣碎	-11.1705
撇	-11.1706
癭	-11.1706
衷	-11.1707
肇	-11.1707
夾縛	-11.1707
輕者	-11.1707
幢	-11.1707
躋	-11.1708
評	-11.1708
取七升	-11.1708
鉞	-11.1708
跋	-11.1708
金剛大果	-11.1709
紏	-11.171
憚	-11.171
去皮尖	-11.171
季夏	-11.171
祈禱	-11.1711
勿失	-11.1711
猴	-11.1711
乾姜	-11.1712
右六味㕮咀	-11.1714
唯唯行	-11.1714
籟	-11.1714
至心稽首正真三寳	-11.1714
以手按	-11.1715
驟	-11.1715
名韁	-11.1715
弼	-11.1716
超造化	-11.1716
攢聚	-11.1717
淩	-11.1717
嵗	-11.1717
新鮮	-11.1717
火丹	-11.1717
憲	-11.1718
太平氣至	-11.1718
昊天	-11.1718
以水一升	-11.1719
遭遇	-11.1719
丙午	-11.1719
爲君長	-11.1719
珍寳	-11.172
玄洲	-11.1721
繁華	-11.1725
昇騰	-11.1725
令烊	-11.1725
祖師答曰	-11.1726
銀霞	-11.1726
庇	-11.1727
願國安寧	-11.1727
入齋堂	-11.1728
疊書	-11.1731
忽爾	-11.1734
王君	-11.1734
歷劫	-11.1734
飛火	-11.1734
黄𥿄	-11.1735
雲篆	-11.1735
之爲病	-11.1735
烈血	-11.1736
困窮	-11.1739
朝昏	-11.1739
胷膈	-11.1741
耳鳴	-11.1742
如雞子大	-11.1743
酒服方寸匕日三	-11.1743
圓融	-11.1744
都畢	-11.1746
堂堂	-11.1747
冬夏	-11.1748
多唾	-11.1748
斗一座	-11.1751
味甘平無毒	-11.1752
以為	-11.1755
隂陽相	-11.1756
所患	-11.1757
金間隔	-11.1762
上三天	-11.1764
劫劫	-11.1765
棲雲	-11.1765
脾輸	-11.1767
補肝	-11.1768
他時	-11.1772
關西	-11.1773
萬般	-11.1776
不改	-11.1778
天下之事	-11.1779
昔年	-11.178
勑召	-11.1783
幾度	-11.1785
湛湛	-11.179
洗去	-11.1794
一朵	-11.1795
洞靈	-11.1795
孤雲	-11.1796
青城	-11.18
國人	-11.1801
備足	-11.1801
煞攝	-11.1806
齋官	-11.1806
師寳	-11.1806
如棗	-11.181
得知之	-11.181
右五味㕮咀以水	-11.1811
落花	-11.1812
青布	-11.1814
青牛	-11.1815
沸湯	-11.1815
冷淡	-11.1815
贈張	-11.1815
孫眞人備急千金要方卷之三十	-11.1816
生薑汁	-11.1817
服五丸	-11.1819
天兵	-11.1822
黄丹	-11.1823
恐有	-11.1826
定録	-11.1826
覺了	-11.1829
朝朝	-11.1832
地膽	-11.1833
本元	-11.1836
日月星	-11.1838
致雨	-11.1842
告下	-11.1842
雲輿	-11.1843
辛苦	-11.1844
三四日	-11.1844
知友	-11.1846
爲天下	-11.1848
閑看	-11.1848
金字	-11.1848
休息	-11.1852
文武	-11.1854
相接	-11.1858
孫眞人備急千金要方卷之二十	-11.1861
不亂	-11.1862
木金	-11.1863
仁人	-11.1866
深山	-11.1867
始覺	-11.1868
道號	-11.1869
真誥	-11.187
如梧子大	-11.187
敕命	-11.1873
猶未	-11.1873
洞裏	-11.1876
豈知	-11.1877
驅使	-11.1878
九晨	-11.1885
千丈	-11.1888
要當	-11.1892
色之雲	-11.1893
認正	-11.1895
來迎	-11.1898
混成	-11.1899
汁和	-11.1902
調理	-11.1905
以授	-11.1906
務在	-11.1906
惡毒	-11.1908
平坐	-11.1916
其源	-11.1917
方右以	-11.1919
伏藏	-11.1921
其志	-11.1929
生肉	-11.1931
黄老	-11.1931
安靜	-11.1932
王侯	-11.1935
人參桂心	-11.1937
无色	-11.1945
兩乳	-11.1948
必先	-11.195
北辰	-11.1952
二景	-11.1956
方人參	-11.1957
甘草芍藥	-11.1961
十十	-11.1961
使帝王	-11.1967
白牛	-11.1975
棗核	-11.1975
但願	-11.1978
煑散	-11.1986
毎日	-11.199
百千	-11.1991
須教	-11.1993
來到	-11.2001
登仙	-11.2004
贈劉	-11.2009
也問曰	-11.2016
一部	-11.2019
千二百	-11.2025
亡靈	-11.2026
損傷	-11.2031
本性	-11.2032
堂下	-11.2032
豆汁	-11.2036
仙路	-11.2039
無功	-11.2045
其父	-11.2047
難遇	-11.2047
閑居	-11.2052
風害	-11.2054
玉芝	-11.2063
净洗	-11.2069
病源	-11.2083
不違	-11.2084
友人	-11.2092
亦无	-11.2096
王曰	-11.2097
七曰	-11.2098
不待	-11.2101
斗訣	-11.2101
月朔	-11.2102
酒漬	-11.2103
女青	-11.2104
能制	-11.2109
右五味治下篩	-11.2109
口苦	-11.2112
臍上	-11.2113
二卷	-11.2113
禁不可灸	-11.2117
十徧	-11.2119
虛空	-11.2119
仙童	-11.2121
六轉	-11.2123
空色	-11.2124
此證	-11.2128
陽光	-11.2129
深計	-11.2133
紫陽	-11.2137
本因	-11.2137
滑者	-11.2138
煑汁	-11.2139
求教	-11.2139
恣逍遥	-11.2141
右八味㕮咀以水一斗	-11.2145
泠	-11.2148
雲煙	-11.2157
孫眞人備急千金要方卷之十	-11.2159
各異自有自然元氣隂陽與吾	-11.2162
有疾病	-11.2163
雷令	-11.2163
名號	-11.2164
肛	-11.2165
治五勞七傷	-11.2166
輕舉	-11.2172
依時	-11.2182
月十五日	-11.2187
欬逆上氣	-11.2188
屈伸	-11.2188
隨我	-11.2189
濟物	-11.2195
胻	-11.2198
鱉	-11.2199
重陽全真集卷之	-11.2199
陽陵泉	-11.2202
隨處	-11.2202
支溝	-11.2202
白殭蠶	-11.2203
味酸	-11.2204
五音	-11.2205
陰陵泉	-11.2206
膊	-11.2207
釘	-11.2208
伏兔	-11.2208
孫眞人備急千金要方卷之五十	-11.2209
扁	-11.2209
悽	-11.2209
煆	-11.2209
舌拄上腭	-11.221
錐	-11.2211
孫眞人備急千金要方卷之八十	-11.2211
皰	-11.2213
彎	-11.2213
銚	-11.2213
湯調下	-11.2215
石榴皮	-11.2215
右手劒訣	-11.2215
巢源	-11.2215
立便	-11.2216
臉	-11.2216
牡蒙	-11.2216
顖	-11.2216
冲和	-11.2217
棘	-11.2218
鶯	-11.2218
腰背痛	-11.2218
隄防	-11.2218
肺癰	-11.2219
窠	-11.2219
頽	-11.222
茆	-11.222
儲	-11.2221
蝦蟆	-11.2221
昏昏默默	-11.2221
跛	-11.2221
隴西	-11.2222
塡	-11.2222
滅煙消	-11.2222
凛	-11.2222
六甲六丁	-11.2222
山魈	-11.2223
輕洩	-11.2223
莽	-11.2223
驂	-11.2223
募	-11.2224
黄耆湯	-11.2224
稼	-11.2224
肉蓯蓉	-11.2225
丘劉譚馬	-11.2226
寧耐	-11.2226
閃爍	-11.2227
馘魔	-11.2228
跂	-11.2228
膳	-11.2228
葆光	-11.2229
逞	-11.2229
踰	-11.2229
胷背	-11.2229
粲	-11.2229
俯視	-11.223
玎璫	-11.223
瞖	-11.223
級	-11.223
原赦	-11.2231
一斗五升	-11.2231
韶	-11.2231
貪嗔	-11.2231
凄	-11.2231
立春之日	-11.2231
傚	-11.2231
嵐	-11.2231
寅卯	-11.2232
狡	-11.2232
䘮	-11.2232
廷	-11.2232
攘	-11.2232
太眞科	-11.2232
陟	-11.2233
勑攝	-11.2233
羣魔	-11.2233
笞	-11.2233
心下堅	-11.2234
鬱鬱	-11.2234
饌	-11.2234
瞑	-11.2235
庶幾	-11.2235
孫眞人備急千金要方卷之七十	-11.2235
醋和	-11.2235
恁時節	-11.2236
蠅	-11.2236
槎	-11.2237
菩提	-11.2237
縱橫	-11.2238
萊陽	-11.2238
憫	-11.2238
馘滅	-11.2238
懈怠	-11.2238
孕婦	-11.2239
忝	-11.2239
甕	-11.2239
傑	-11.2239
艱難	-11.2239
臭穢	-11.224
輥	-11.224
嗜慾	-11.224
螫	-11.224
刳	-11.224
溜	-11.224
陌	-11.2242
氛	-11.2242
賞翫	-11.2243
放蕩	-11.2243
歷節	-11.2243
佑聖	-11.2244
流鈴	-11.2245
帙	-11.2246
肝膽	-11.2246
恢	-11.2246
開目	-11.2247
三十六部	-11.2248
豈得	-11.2248
奪筭	-11.2248
宛轉	-11.2249
几前	-11.2249
蟲出	-11.2249
不驕樂天	-11.2249
玄圃	-11.2249
長跪言	-11.225
祥煙	-11.2252
離坎	-11.2253
共成一	-11.2254
痢方	-11.2254
瓊樓	-11.2256
太原	-11.2256
反言	-11.2257
超越	-11.2258
恭敬	-11.2259
波羅	-11.2262
千金翼云	-11.2263
一方加	-11.2264
洗瘡	-11.2267
髙上	-11.2267
掃除	-11.2269
衆仙	-11.227
强弱	-11.2271
一千二百	-11.2274
治金瘡	-11.2276
泄利	-11.2276
保護	-11.2276
蓮華	-11.2278
驅除	-11.2278
延壽	-11.2278
普照	-11.2279
講師	-11.228
貪欲	-11.228
頭疼	-11.2281
小腹滿	-11.2282
不管	-11.2282
甲午	-11.2284
紫氣	-11.2285
告子	-11.2285
萬端	-11.2289
右手執	-11.229
六種	-11.2291
凶害	-11.2291
氣不和	-11.2292
談論	-11.2293
太平經云	-11.2295
堪可	-11.2297
燕山	-11.23
竹葉湯	-11.23
豁然	-11.23
針灸法	-11.2302
洗浴	-11.2303
水中金	-11.2306
在其内	-11.231
玉漿	-11.2311
六賊	-11.2312
長夜之	-11.2314
逃形	-11.2319
閃電	-11.2323
夫妻	-11.2326
解釋	-11.2327
改易	-11.2329
長生路	-11.2331
紫石	-11.2336
清吟	-11.2337
菴主	-11.234
總攝	-11.2344
各得其	-11.2348
煎湯下	-11.2348
治祟	-11.2349
靜坐	-11.235
天之所	-11.2352
紫蓋	-11.2355
遊戲	-11.2359
閉炁	-11.236
立秋	-11.2365
玄科	-11.2369
不肯力	-11.237
毒腫	-11.237
衆經	-11.2371
主帥	-11.2373
保守	-11.2373
語聲	-11.2376
并力	-11.2379
遞相	-11.2382
駕乘	-11.2384
相違	-11.2384
雲車	-11.2385
統領	-11.2392
白簡	-11.2392
大麥	-11.2394
早起	-11.2397
得天意	-11.2398
先亡	-11.2399
明聽	-11.2401
七次	-11.2402
大羅天上	-11.2403
積功	-11.2404
甘草人參	-11.2405
一場	-11.2408
煙火	-11.2411
群神	-11.2411
鬼使	-11.2411
熱即	-11.2415
召雷神	-11.2418
未必	-11.2419
黄芩甘草	-11.2419
其母	-11.2423
碧空	-11.2423
流傳	-11.2429
下賤	-11.2431
目光	-11.2431
取八合	-11.2436
去朝元	-11.2436
曰平	-11.2439
仙聖	-11.244
洗面	-11.2441
照見	-11.2444
嚥下	-11.2446
召龍	-11.2447
休言	-11.2451
心鏡	-11.2452
丸治	-11.2453
乎然	-11.2457
方丈	-11.2458
梵行	-11.2461
氣上衝	-11.2468
過責	-11.2471
萬福	-11.2472
五十丸	-11.2475
痛癢	-11.2476
千歲	-11.2478
卷之二十	-11.2487
方黄耆	-11.2494
百病方	-11.2498
仙品	-11.25
方杏仁	-11.25
受鍊	-11.2502
無所見	-11.2504
雷字	-11.2504
童顔	-11.251
營養	-11.2511
幽居	-11.2515
常須	-11.2517
贈李	-11.2519
興雲	-11.2523
欬唾	-11.2528
以水五升	-11.253
眞容	-11.2532
受福	-11.2535
應手	-11.2536
藥品	-11.2536
片時	-11.254
紫炁	-11.2544
交加	-11.2548
方蜀椒	-11.2551
其候	-11.2552
案行	-11.2553
可憐	-11.2554
傅之治	-11.2562
慕道	-11.2565
别卷	-11.2567
慎之	-11.257
之行也	-11.2571
不飢	-11.2572
侍經	-11.2572
馬猿	-11.2573
承當	-11.258
内視	-11.2582
也又有	-11.2588
俱實	-11.2591
糊丸	-11.2595
出没	-11.2596
諸瘡	-11.2598
紫芝	-11.26
彩雲	-11.2602
誓不	-11.2603
西方白	-11.2606
汁飲之	-11.2609
居家	-11.2612
頓明	-11.2616
大驗	-11.2617
使民	-11.2618
飽食	-11.2619
養萬物	-11.2626
遣呪	-11.2626
白鹿	-11.2634
无數	-11.2645
關節	-11.2645
大佳	-11.2646
之本也	-11.2651
齋法	-11.2655
鍊眞	-11.2655
還元	-11.2657
今已	-11.2663
全在	-11.2666
大忌	-11.2666
生麥門冬	-11.2675
辭語	-11.2681
皇帝	-11.2682
未滿	-11.2683
吽吒	-11.2684
芎藭當歸	-11.2689
苦辛	-11.2689
數年	-11.2691
心印	-11.2693
蠻	-11.2697
空觀	-11.2703
妙妙	-11.2705
蒺藜	-11.2725
形狀	-11.2726
白蓮	-11.2743
俠谿	-11.2744
養家	-11.2747
乳香没藥	-11.2747
皆悉	-11.2749
不能久立	-11.275
俠脊	-11.2753
軸	-11.2753
硏	-11.2754
瘈	-11.2754
蕪菁子	-11.2755
熏陸香	-11.2759
仙傳外科祕方卷之	-11.276
癉	-11.2761
加至四十丸	-11.2761
百壯穴在	-11.2762
駃	-11.2763
女萎	-11.2763
手陽明	-11.2764
肺痿	-11.2764
海蛤	-11.2765
漚	-11.2766
外踝上	-11.2766
溲	-11.2766
襯	-11.2767
嘶	-11.2769
摻	-11.277
亞	-11.277
苦瓠	-11.2771
䕶	-11.2771
闃	-11.2771
黄苓	-11.2771
燒令	-11.2772
牝	-11.2772
纂	-11.2772
駡詈	-11.2772
出汗	-11.2773
靴	-11.2773
袋盛	-11.2776
流金火鈴	-11.2776
立夏之日	-11.2777
薄苛	-11.2777
桑根白皮	-11.2777
釐	-11.2778
承漿	-11.2779
噏	-11.2779
經典	-11.2779
王喆	-11.278
孫眞人備急千金要方卷之六十	-11.278
斫	-11.278
侮	-11.278
諍	-11.2781
纏綿	-11.2781
渘	-11.2781
葵根	-11.2781
𩔖	-11.2782
檻	-11.2782
乾則易	-11.2782
牙齒	-11.2783
鴉	-11.2783
塚	-11.2784
翩翩	-11.2784
鋼	-11.2784
騾	-11.2785
酒服二十丸日	-11.2785
揀	-11.2785
沽	-11.2785
疆	-11.2786
七尺	-11.2786
翰	-11.2786
徴	-11.2786
兩手雷局	-11.2786
苦苦	-11.2786
完骨	-11.2786
潘	-11.2787
挫	-11.2787
汲汲	-11.2788
汎	-11.2788
陶陶	-11.2788
贍	-11.2788
琅玕	-11.2789
壼	-11.2789
人之言	-11.279
虬	-11.279
鏤	-11.279
右八味治下篩	-11.2791
氣財酒色	-11.2791
京骨	-11.2792
徊	-11.2792
也子知之邪唯唯	-11.2792
赫赫	-11.2792
上搶心	-11.2792
羲	-11.2793
荆棘	-11.2793
浮漚	-11.2793
我咱	-11.2793
顏	-11.2793
昭彰	-11.2794
遁尸	-11.2794
闌	-11.2794
太平經卷之一百一十	-11.2794
芋	-11.2794
卉	-11.2795
寶瓶	-11.2795
神煞	-11.2795
恣情	-11.2796
食之令人	-11.2796
有心之人	-11.2797
酒色氣財	-11.2797
濱	-11.2797
閒	-11.2797
稜	-11.2797
嘲	-11.2798
抽添	-11.2798
内耳中	-11.2799
縵	-11.2799
巽户	-11.2801
黒霧	-11.2801
祭祀	-11.2803
潤澤	-11.2803
攀縁	-11.2803
全家	-11.2803
做修持	-11.2804
幕	-11.2805
華胥	-11.2806
以水九升煑	-11.2807
大便難	-11.2807
賊害	-11.2811
右二味合	-11.2812
道學當念逰	-11.2813
猪腎	-11.2814
當奈何	-11.2814
公孫	-11.2815
圓治小兒	-11.2815
聽予	-11.282
迷津	-11.2821
脇痛	-11.2822
不敢失	-11.2822
水服方寸七日三	-11.2825
手太陽	-11.283
輕忽	-11.2832
百川	-11.2833
乎者也	-11.2833
丁寧	-11.2837
脉沈	-11.2837
修學	-11.284
昭昭	-11.2841
中焦	-11.2841
朝元去	-11.2841
故鄉	-11.2842
曾青	-11.2846
求乞	-11.2847
青蓮	-11.2847
千載	-11.2847
五斤	-11.2848
殊異	-11.2849
一方寸七	-11.2851
法海遺珠卷之十	-11.2852
青黑	-11.2854
雞子大	-11.2855
亡魂	-11.2857
是以聖人	-11.2859
相邀	-11.2859
妙趣	-11.286
五六日	-11.286
酢和	-11.2861
喜悅	-11.2867
筋攣	-11.2867
湧出	-11.2868
太極宫	-11.2868
愼之唯唯	-11.2869
奏告	-11.287
讀書	-11.2872
篇目	-11.2875
无上祕要卷之四十	-11.2875
無爲清浄	-11.288
玉房	-11.2882
宿縁	-11.2883
等身中	-11.2883
免離	-11.2884
乘雲	-11.2885
禁戒	-11.2887
死籍	-11.2888
能如是	-11.289
龜山	-11.2893
罪業	-11.2893
通玄妙	-11.2893
大黄湯	-11.2894
法海遺珠卷之三十	-11.2902
愛人	-11.2903
感通	-11.2904
相續	-11.2909
深謝	-11.2911
烹鍊	-11.2918
卒中惡	-11.2921
尿血	-11.2924
碧霞	-11.2925
驚動	-11.2925
寅文	-11.2933
呵出	-11.2934
萬類	-11.2934
應感	-11.2943
北方水	-11.2943
人屎	-11.2944
混世	-11.2944
經宿	-11.2944
精研	-11.2947
救治	-11.2948
法海遺珠卷之二十	-11.2952
不讓	-11.2952
云何哉	-11.2956
茯苓人參	-11.2957
朗然	-11.2959
大帝律令	-11.2959
靈泉	-11.2961
鐵精	-11.2971
前世	-11.2971
救濟	-11.2974
昇霞	-11.2974
天醫	-11.2975
可知也	-11.298
學問	-11.2982
百脉	-11.2983
變易	-11.2988
精微	-11.2988
松栢	-11.2988
閑吟	-11.2989
鬼官	-11.2995
小腹痛	-11.2996
孫眞人備急千金要方卷之	-11.3002
迎風	-11.3003
預知	-11.3003
戒律	-11.3003
何能	-11.3011
亦隨	-11.3013
每服一升	-11.3014
口鼻	-11.3017
淺深	-11.3017
無缺	-11.3017
宜乎	-11.3018
心臟	-11.3019
得瘥	-11.3022
者此是	-11.3025
訪道	-11.3028
也夫人	-11.3029
爲伴	-11.304
何等也	-11.3043
共記	-11.3045
精魂	-11.3051
欲吐	-11.3052
馬公	-11.3055
服十丸日三	-11.306
瘡癤	-11.3064
某將	-11.3066
大羅仙	-11.3066
行方便	-11.3066
漏泄	-11.3067
下古人	-11.3084
以水七升煑	-11.3085
何求	-11.3086
者方右用	-11.3087
服此方	-11.3087
萬聖	-11.3089
水服方寸七	-11.3099
裏頭	-11.3102
做作	-11.3109
愛欲	-11.3114
具問	-11.3115
通谷	-11.3118
服三十丸	-11.3123
長吉	-11.3127
下界	-11.3127
凡修	-11.313
而渴	-11.313
靡不	-11.3139
高會	-11.3149
衂	-11.3151
龍駕	-11.3155
食肉	-11.3158
臨事	-11.316
骨痛	-11.3165
椎下兩傍各一寸半	-11.3169
殊方	-11.3173
頭足	-11.3176
忘塵	-11.3179
光映	-11.318
張使者	-11.3181
兩劑	-11.3181
奪得	-11.3182
治之方	-11.3184
毒物	-11.3184
茅山	-11.3187
南方赤	-11.319
正路	-11.319
島	-11.3196
爲人所	-11.3198
光瑩	-11.3199
每服三十丸	-11.3207
忌食	-11.3207
終身不	-11.3211
授兆	-11.3214
蘇子	-11.322
米醋	-11.3242
得清凉	-11.3248
黑雲	-11.3255
故古者聖人	-11.3257
玉闕	-11.3259
所疑	-11.3265
火獄	-11.3271
七情	-11.3277
稍加	-11.3282
符籙	-11.3282
崩中	-11.3288
腫起	-11.3295
開懷	-11.3301
頭髮	-11.3309
攣急	-11.331
令焦	-11.3311
四十年	-11.3311
珮	-11.3313
奉受	-11.3318
塵沙	-11.3318
甚良	-11.3319
巽炁	-11.3324
蟾酥	-11.3325
温酒調下	-11.3326
開眼	-11.3326
厲兌	-11.3329
以冷水	-11.3334
腨	-11.3334
五尺	-11.3338
玄奥	-11.3341
玄胡索	-11.3344
苓	-11.3348
補腎	-11.335
更相承負	-11.335
歧	-11.3351
巽戸	-11.3351
本節後	-11.3351
霖	-11.3353
䚴	-11.3354
恐怖	-11.3354
蛇蛻皮	-11.3354
腹中絞痛	-11.3356
彩霞	-11.3358
疣	-11.3358
戶	-11.3359
五倍子	-11.3359
米泔	-11.336
手摩	-11.3361
趕	-11.3361
猖狂	-11.3361
醇酒	-11.3361
金雞叫	-11.3362
霐	-11.3362
哲	-11.3362
款款	-11.3362
幸得	-11.3362
修誦是經	-11.3362
閣校理	-11.3363
憤	-11.3363
風雲雷雨電	-11.3363
孩	-11.3363
蘿	-11.3363
斟	-11.3363
八素真經	-11.3364
浸淫	-11.3364
鍛	-11.3364
毗	-11.3365
北帝敕四聖令	-11.3365
蝦	-11.3365
藕	-11.3365
杳杳	-11.3366
煎取三升分三服	-11.3366
太𡻕	-11.3367
隊	-11.3367
狗脊	-11.3367
衍	-11.3367
虛實第	-11.3367
郝	-11.3368
笛	-11.3368
訛	-11.3369
玉清隱書	-11.3369
硯	-11.3369
綽	-11.337
三萬六千	-11.337
叩齒三十六通	-11.337
藜	-11.337
皺	-11.337
誹謗	-11.337
喗	-11.3371
哩囉	-11.3371
葩	-11.3371
右七味治下篩	-11.3371
塔	-11.3372
始知	-11.3373
茫茫	-11.3373
朝廷	-11.3373
逾	-11.3373
赴瑶池	-11.3373
附子一枚	-11.3373
挈	-11.3374
恬淡	-11.3374
木瓜	-11.3374
靉	-11.3375
牟	-11.3375
坦	-11.3375
姦猾	-11.3375
靜夜	-11.3375
裊	-11.3375
殷郊	-11.3376
氐	-11.3376
无上祕要卷之九十	-11.3377
倏忽	-11.3377
呪詛	-11.3377
蓬壺	-11.3377
鏁	-11.3377
慧劍	-11.3377
寥寥	-11.3378
恐懼	-11.3379
扣	-11.3379
煎令可丸	-11.3379
雲霓	-11.3379
衆賢共	-11.3379
檜	-11.3379
嵛	-11.3379
皇天后土	-11.338
煑令	-11.338
氈	-11.3381
豁暢	-11.3381
掀	-11.3381
咽液	-11.3382
闔	-11.3382
櫛	-11.3382
一點靈明	-11.3382
䇿役	-11.3382
咭唎	-11.3382
杳杳冥冥	-11.3382
消穀	-11.3383
太霄琅書	-11.3384
榻	-11.3384
謡	-11.3384
道學傳第	-11.3385
閉不通	-11.3386
本來一點	-11.3387
腰脊痛	-11.3389
堆裏	-11.339
昏昏	-11.339
蕩蕩	-11.3391
衂血	-11.3394
咽下	-11.3394
蹤跡	-11.3395
蚤	-11.3396
牛屎	-11.3397
繆	-11.3397
破軍	-11.3397
玉樞	-11.3398
蓬頭	-11.3398
天尊曰常當	-11.3398
不惜	-11.3399
都緣	-11.34
愉	-11.34
昨日	-11.3401
枸杞子	-11.3403
妖魔	-11.3403
追尋	-11.3404
令相得	-11.3404
團圓	-11.3406
海市	-11.3408
愚暗	-11.3408
謹按	-11.3409
玉屑	-11.3409
韭子	-11.3409
身經曰	-11.3413
伏尸	-11.3415
九層	-11.3417
得天心意	-11.3417
老氏	-11.342
右三味合	-11.342
蒼龍	-11.3421
影裏	-11.3423
邪祟	-11.3424
伐惡	-11.3425
洞泄	-11.3425
一派	-11.3425
徹視	-11.3426
牛肉	-11.3427
開天門	-11.3431
歲已上	-11.3432
講說	-11.3432
周遍	-11.3432
祝畢	-11.3432
西城	-11.3433
水旱	-11.3434
凡書符	-11.3434
從兹	-11.3437
海底	-11.3437
青童君曰	-11.3437
翼作	-11.3437
窮魂	-11.344
香油	-11.3442
全性命	-11.3443
酉文	-11.3448
靈苗	-11.3448
迴首	-11.3448
曰汝	-11.3452
去粗	-11.3452
設教	-11.3459
告斗	-11.3463
雄雞	-11.3463
身者從	-11.3464
照海	-11.3465
周迴	-11.3467
食不下	-11.3467
傅之治小兒	-11.347
乞食	-11.3485
七十二相	-11.3493
天尊至心信禮妙	-11.3494
離苦海	-11.35
法律	-11.35
寧解	-11.3501
人倫	-11.3504
内側	-11.3506
白鶴	-11.3507
丹房	-11.3508
時刻	-11.3513
遂致	-11.3515
天池	-11.3519
立夏	-11.3522
雜病	-11.3524
凝結	-11.3524
唯唯不敢	-11.3527
丁亥	-11.3527
寒寒則	-11.3528
開示	-11.3528
章句	-11.3529
三劑	-11.3531
朱宫	-11.3532
祖先	-11.3532
一㸃	-11.3533
清泉	-11.3534
清濁	-11.3535
葶藶子	-11.3538
合天心	-11.3539
河海	-11.354
靜處	-11.3543
幽深	-11.3543
合谷	-11.3547
七部	-11.3552
竒方	-11.3554
盆中	-11.3555
只今	-11.3562
灸刺	-11.357
仁愛	-11.3574
爽氣	-11.3583
舉體	-11.3583
物外逍遥	-11.3584
藥末	-11.3585
縣令	-11.3585
茯苓湯	-11.3586
盛德	-11.3592
心胷	-11.3594
單用	-11.3596
此之謂	-11.3608
始發	-11.361
便愈	-11.3613
增益	-11.3615
假合	-11.3616
禮樂	-11.3622
分部	-11.3629
四句	-11.363
未嘗有	-11.3632
玄圖	-11.3634
碧洞	-11.3636
入胃	-11.3639
師徒	-11.3639
行功成	-11.364
利爲度	-11.3643
靈珠	-11.3653
三帥	-11.3658
日再服	-11.3678
不壞	-11.3681
運動	-11.3684
左右同	-11.3686
衣被	-11.3686
何異	-11.3689
治産後中風	-11.3693
雷速起	-11.3694
悟理	-11.3696
冬瓜	-11.3701
地府	-11.3704
方獨活	-11.3707
圓治婦人	-11.3708
瑞雲	-11.3708
玉音	-11.3708
手大指	-11.3714
好學	-11.3719
亦齋	-11.372
九皇	-11.3725
之心也	-11.3726
容光	-11.3728
右四味㕮咀以	-11.3728
如梧子	-11.3729
也願聞	-11.373
不虧	-11.3732
降形	-11.3734
寶珠	-11.3739
眞人前	-11.374
脚踏	-11.3744
湯吞下	-11.3757
上大羅	-11.3761
一方有	-11.3762
道術	-11.3767
出筆	-11.3768
松風	-11.3769
天台	-11.3769
者皆由	-11.3778
本來眞	-11.3779
成敗	-11.3785
忘形	-11.3791
食前服	-11.3792
牛馬	-11.3794
到壇	-11.3794
讀誦	-11.3804
黄芩芍藥	-11.3805
三界十方	-11.3817
乳頭	-11.3827
桂心人參	-11.383
者一曰	-11.3846
涯	-11.385
虚煩	-11.3854
一碗	-11.3854
欲死方	-11.3868
治療	-11.387
考召	-11.3877
敕符呪	-11.3885
果報	-11.3889
粥飲	-11.389
捉鬼	-11.3891
絞痛	-11.3904
慧刀	-11.3906
桂心細辛	-11.3924
酒服方寸匕	-11.3931
念天蓬呪	-11.3935
修誦是經果而如願若欲	-11.3936
䵟	-11.3943
半夏湯治	-11.3957
桑螵蛸	-11.396
胳	-11.3963
石龍芮	-11.3966
甘松香	-11.3966
歸物外	-11.3969
芩	-11.397
拘攣	-11.3971
鑚	-11.3972
焙乾爲末	-11.3973
憒	-11.3973
韋	-11.3974
啜	-11.3974
米飲調下	-11.3974
鮓	-11.3975
窻	-11.3975
拏	-11.3976
惚	-11.3977
此蟲形如	-11.3977
惰	-11.3978
覆盆子	-11.3979
菌	-11.3979
腕骨	-11.3979
目𥆨𥆨	-11.398
貪巨禄文	-11.3981
鼠屎	-11.3982
筯	-11.3983
蛻殻	-11.3984
油膩	-11.3984
漓	-11.3984
荆芥穗	-11.3984
煩疼	-11.3984
蜣螂	-11.3986
蔓荆子	-11.3986
決	-11.3986
喎	-11.3987
此名爲	-11.3987
煎取二升	-11.3987
旋旋	-11.3987
保養	-11.3987
勇猛	-11.3987
嘈	-11.3987
這些兒	-11.3988
三千六百	-11.3988
籌	-11.3989
痼疾	-11.3989
黄檗	-11.3989
瀉心湯	-11.399
超生滅	-11.399
周而復始	-11.399
聆	-11.3991
幃	-11.3991
相通並力同心	-11.3991
葫蘆	-11.3991
韁	-11.3992
青蒿	-11.3992
青竹茹	-11.3993
訝	-11.3993
赶	-11.3993
蕤仁	-11.3993
從高墮下	-11.3993
殞	-11.3993
妒	-11.3993
氷	-11.3994
挹	-11.3994
么	-11.3994
狐疑	-11.3994
蠲	-11.3994
鞅	-11.3994
今故燒香自歸	-11.3994
葷	-11.3994
剉碎	-11.3995
决明子	-11.3995
坦然	-11.3995
廊	-11.3995
奎	-11.3996
課	-11.3996
窄	-11.3996
賢不肖	-11.3996
橘	-11.3996
卯酉	-11.3996
寒疝	-11.3997
蠢	-11.3997
贏	-11.3997
畝	-11.3997
中央黄老君	-11.3997
驚怖	-11.3998
塩	-11.3998
穹蒼	-11.3998
太素三元君	-11.3998
怯	-11.3998
發此證	-11.3998
羈	-11.3999
提挈	-11.3999
鷰	-11.3999
塘	-11.3999
列仙班	-11.3999
嗔怒	-11.3999
踴躍	-11.3999
纖毫	-11.3999
以類相從	-11.4
哭泣	-11.4
秋分之日	-11.4
豫章	-11.4
萼	-11.4
忿怒	-11.4
倡	-11.4
死入地獄	-11.4001
示門人	-11.4001
忻然	-11.4001
皎	-11.4001
葺	-11.4001
壤	-11.4002
猛獸	-11.4002
濰	-11.4002
海蟾	-11.4002
瞿	-11.4002
蕭條	-11.4003
關啓	-11.4003
僚	-11.4003
寂寞	-11.4003
魍魎	-11.4004
麒麟	-11.4004
瞽	-11.4004
長一丈	-11.4004
殷勤	-11.4004
胤	-11.4004
捻香	-11.4004
夜啼	-11.4005
飛天神王	-11.4006
黜	-11.4006
无上祕要卷之五十	-11.4006
慷慨	-11.4006
七八日	-11.4006
登眞隱訣	-11.4007
長三寸	-11.4007
男子女人	-11.4007
刷	-11.4007
寛	-11.4007
璞	-11.4008
會稽	-11.4008
出迷津	-11.4008
具述	-11.4008
薺	-11.4009
炅	-11.4009
吝	-11.4009
檀香	-11.4009
最好	-11.401
瑩瑩	-11.401
擣取汁	-11.401
鄠縣	-11.4011
右六味爲末	-11.4012
本行經云	-11.4012
推移	-11.4012
稔	-11.4014
衝陽	-11.4015
嗚呼	-11.4015
彭城	-11.4015
幘	-11.4015
樓閣	-11.4016
醺	-11.4016
豕	-11.4017
猛將	-11.4017
日一易	-11.4019
誦詠	-11.4023
知之邪唯唯	-11.4024
曷	-11.4024
仙籍	-11.4024
安排	-11.4024
塵垢	-11.4025
治愈者	-11.4025
錦繡	-11.4026
巳午	-11.4027
攸	-11.4028
南京	-11.4028
微祝曰	-11.4029
外廉	-11.403
制御	-11.4031
真人知之邪唯唯	-11.4032
烏麻	-11.4033
玉枕	-11.4033
畜積	-11.4033
伴侣	-11.4033
扶持	-11.4033
眉間	-11.4034
腹背	-11.4034
天中内音書於其上	-11.4035
以水二升煑	-11.4035
口燥	-11.4036
知不乎	-11.4036
願請問	-11.4036
和匀	-11.4039
圓灸法	-11.404
丁巳	-11.4041
孤魂	-11.4042
須彌	-11.405
群品	-11.4051
消災	-11.4053
太息	-11.4054
玉隆	-11.4055
温酒下	-11.4058
賊傷	-11.4061
不侵	-11.4062
神咒	-11.4062
動寂	-11.4064
貧閑	-11.4064
水雲遊	-11.4066
四維	-11.4067
做修行	-11.4068
朱書白	-11.4069
青巾	-11.4069
拆字	-11.4073
妙手	-11.4075
祕訣	-11.4077
處覓	-11.4078
迷迷	-11.4079
損益	-11.408
主簿	-11.408
三十斤	-11.4081
錢財	-11.4081
諸侯	-11.4084
十干	-11.409
酒煎	-11.4091
衰則	-11.4093
親屬	-11.4096
尸疰	-11.4096
胸脇	-11.4097
防風芎藭	-11.4098
隱士	-11.4102
黄昏	-11.4103
永斷	-11.4106
街前	-11.4108
未肯	-11.4109
姓字	-11.4109
主宰	-11.4114
安鎮	-11.4116
奉承	-11.4118
遍體	-11.412
相應和	-11.4121
忌諱	-11.4122
丹誠	-11.4123
焚符	-11.4123
今釋	-11.4129
取二升分三服	-11.4129
霞彩	-11.413
清爽	-11.4131
右等分	-11.4131
八表	-11.4137
絶穀	-11.4141
干君	-11.4143
无上祕要卷之三十	-11.4143
隨證	-11.4144
虚妄	-11.415
幾時休	-11.4159
右三味以	-11.4165
人也少	-11.4166
天曹	-11.4167
助吾	-11.417
玉庭	-11.4179
信任	-11.4181
法海遺珠卷之	-11.4182
隱隱	-11.4183
諸衆生	-11.4185
除害	-11.4186
收藏	-11.4189
普化	-11.4189
不欲見	-11.419
辰星	-11.4193
與天同	-11.4195
天衢	-11.4197
鑪中	-11.4199
玉篇	-11.4199
誰解	-11.4201
萬不失一	-11.4203
俗念	-11.4209
牢擒	-11.4225
師友	-11.4226
電火	-11.4234
頓服又方	-11.4236
人不識	-11.4238
者何也	-11.4242
三日三夜	-11.4254
長一尺	-11.4256
元父	-11.4258
求索	-11.4259
飲服方寸七日三	-11.4262
一方無	-11.4262
春色	-11.4267
黒煞	-11.4275
醋煮	-11.4276
玄壇	-11.4285
明科	-11.4286
左足	-11.4288
水五升	-11.4298
擒猿	-11.431
救急	-11.4311
芍藥當歸	-11.432
三升煑	-11.4325
千金翼無	-11.4327
矣善哉善哉	-11.433
土府	-11.4346
水三升煑取一升	-11.4348
漏蘆湯	-11.4368
昇天堂	-11.4369
周全	-11.4378
度厄	-11.4382
子知之耶唯唯	-11.4384
江南	-11.4388
爲一家	-11.439
虛勞	-11.4391
精專	-11.4393
教勑	-11.4399
渾如	-11.4404
古者聖賢	-11.4409
不出方	-11.4412
酸棗	-11.4413
牛乳	-11.4416
學之士	-11.4422
煑取五	-11.4439
邪妖	-11.4447
馬屎	-11.4449
達了	-11.445
離俗	-11.4451
親近	-11.4452
乾薑當歸	-11.4459
幽㝠	-11.4468
吟詠	-11.4469
棗肉	-11.4477
石硫黄	-11.451
肢節	-11.4515
治霍亂	-11.4523
言之今	-11.4524
治虚勞	-11.4537
右十一味㕮咀	-11.4538
乎善哉	-11.4542
者是其	-11.455
萬魔	-11.4552
坐忘	-11.4553
灸七壯	-11.4572
益壽	-11.4574
位登	-11.4581
治癰疽	-11.459
取五升去滓	-11.4598
炁入符	-11.4601
散治婦人	-11.4606
川山甲	-11.4612
膈輸	-11.4619
以水三斗煑	-11.4624
肢	-11.4627
悅澤	-11.4628
𤓰	-11.4629
杓	-11.4631
然谷主	-11.4636
嚏	-11.4637
晒	-11.4637
奼	-11.4638
臥	-11.464
落落	-11.4641
雍	-11.4643
糠	-11.4645
狸	-11.4645
擣三千杵	-11.4645
仆	-11.4646
蘸	-11.4646
敗醬	-11.4647
硝	-11.4647
痼	-11.4648
逗引	-11.4648
如大豆許	-11.4649
猪屎	-11.4649
痱	-11.4649
黄書白	-11.465
瘑	-11.465
袂	-11.4651
𩲕	-11.4651
龜蛇	-11.4651
行音土皇姓	-11.4652
宿食不消	-11.4652
照徹	-11.4653
阮	-11.4654
佗	-11.4654
宦	-11.4654
随	-11.4654
蟄	-11.4655
懷妊	-11.4655
鮑	-11.4656
殢	-11.4656
胥	-11.4656
稻	-11.4657
九老仙都	-11.4657
鼔	-11.4657
坼	-11.4657
掇	-11.4657
蓬頭垢面	-11.4657
穆	-11.4657
吃	-11.4658
藝	-11.4658
當日某帥	-11.4658
蓬萊閣	-11.4658
播	-11.4659
蒼蒼	-11.4659
什	-11.4659
太平經卷之九十	-11.4659
善哉子之問也	-11.4659
蜥蜴	-11.4659
伶俐	-11.466
瘙	-11.466
恤	-11.4661
欹	-11.4661
鑊	-11.4661
肩息	-11.4661
迮	-11.4662
服一錢七	-11.4662
墉	-11.4662
芤	-11.4662
南柯	-11.4663
本來面目	-11.4663
子午斗	-11.4663
五嶽四瀆	-11.4663
太丹隱書	-11.4663
迺	-11.4663
右出洞元	-11.4663
三塗五苦	-11.4663
貪狼	-11.4663
劃	-11.4664
何益於	-11.4664
若妊娠傷寒	-11.4664
秦皮	-11.4664
峙	-11.4664
緘	-11.4664
裔	-11.4665
醖	-11.4665
二處各七壯穴在	-11.4665
轟轟	-11.4665
之例是也	-11.4665
䑕	-11.4666
悒	-11.4666
撞透	-11.4666
葫	-11.4667
金木水火土	-11.4667
蝟皮	-11.4667
烘	-11.4667
闓	-11.4667
二百八十	-11.4667
聒	-11.4668
磁	-11.4668
鶉	-11.4668
諕	-11.4668
桓	-11.4668
眷屬	-11.4668
兢	-11.4668
急急如上帝律令	-11.4669
以酒五升	-11.4669
楸	-11.4669
寥廓	-11.4669
踏雲行	-11.4669
啼呼	-11.467
本身符	-11.467
何况	-11.467
簷	-11.467
剌	-11.467
風伯雨師	-11.4671
射工	-11.4671
譴	-11.4671
見天師言	-11.4671
有娠	-11.4671
潛	-11.4671
髯	-11.4671
律令大神	-11.4671
九天生神章	-11.4672
發遣	-11.4672
冝	-11.4672
燼	-11.4672
沙參	-11.4672
牋	-11.4673
昆布	-11.4673
樊	-11.4673
闚	-11.4674
嘻	-11.4674
暘谷	-11.4674
讒	-11.4674
百骸	-11.4674
三元玉檢	-11.4675
久不瘥	-11.4675
追薦	-11.4675
牛髓	-11.4675
永享	-11.4676
洗滌	-11.4676
勁	-11.4676
慙	-11.4676
讃	-11.4677
酩酊	-11.4677
亭亭	-11.4677
垂死	-11.4678
一點靈光	-11.4678
把握	-11.4678
橐	-11.4679
驅馳	-11.4679
碧漢	-11.4679
萬事休	-11.4679
浮黎	-11.468
四瀆	-11.468
琳宫	-11.468
俺	-11.468
飛霄	-11.4681
瞳子	-11.4681
緩弱	-11.4681
螘	-11.4681
𧵥	-11.4681
椒目	-11.4681
華麗	-11.4682
無爲無作	-11.4682
出凡籠	-11.4683
百日兒	-11.4684
僅	-11.4684
囚徒	-11.4685
地軸	-11.4685
調搽	-11.4685
无極大道	-11.4688
隋	-11.4688
胸滿	-11.4688
解肌	-11.4689
幾時	-11.4691
齎上金	-11.4691
普濟	-11.4692
稱天心	-11.4692
縛住	-11.4694
冰雪	-11.4694
温暖	-11.4694
榮枯	-11.4695
那箇	-11.4696
羊角	-11.4697
其爲人也	-11.4697
無益也	-11.4699
忠誠	-11.4701
髮灰	-11.4701
錯亂	-11.4702
桃李	-11.4702
欣然	-11.4702
沉沉	-11.4703
者則其人	-11.4703
昏暗	-11.4704
哀哉	-11.4705
刀兵	-11.4705
猛虎	-11.4705
松葉	-11.4706
中毒方	-11.4707
都市	-11.4707
黄婆	-11.4707
天突	-11.4707
十餘年	-11.4708
自然之術	-11.4708
赴壇	-11.471
眼界	-11.471
拜禮	-11.471
並力	-11.471
隨多少	-11.4712
桂心芎藭	-11.4712
十方三界	-11.4713
難逃	-11.4713
隨緣	-11.4714
公私	-11.4715
猪脂和	-11.4715
消磨	-11.4715
凡行持	-11.4716
右十五味	-11.4716
搶心	-11.4717
舊業	-11.4717
少澤	-11.4717
勤勞	-11.4718
神農	-11.472
親疏	-11.4722
數十年	-11.4723
以水六升煑取	-11.4723
遺棄	-11.4724
到底	-11.4725
留連	-11.4725
紫霄	-11.4725
偷盜	-11.4725
玉輿	-11.4726
恭審	-11.4726
祕呪曰	-11.4726
四十里	-11.4728
長史	-11.473
小腹急	-11.4732
眼暗	-11.4732
琴書	-11.4733
關羽	-11.4735
靈芽	-11.4736
灰汁	-11.474
救護	-11.474
雲漢	-11.4742
吉善	-11.4743
温瓊	-11.4744
急急如律令右符	-11.4748
化應聲天	-11.4751
大小便不利	-11.4751
草堂	-11.4752
終古	-11.4754
晃朗	-11.4755
三髻	-11.4756
愛河	-11.4758
鄰里	-11.4758
登玉清	-11.4758
敷藥	-11.4759
六七日	-11.4759
呼召	-11.4759
百部	-11.4761
無從得	-11.4765
適意	-11.4769
交錯	-11.477
雨澤	-11.4773
丁腫	-11.4773
巖前	-11.4774
發泄	-11.4776
柳枝	-11.4777
一斛	-11.4777
如省悟	-11.4777
捧出	-11.4782
㕮咀以水五升煑取二升	-11.4788
延命	-11.4794
二十八日	-11.4797
開顔	-11.4797
不以時	-11.4799
五痔	-11.4799
幽夜	-11.48
燈草	-11.48
莫待	-11.4801
一杯	-11.4801
地黄煎	-11.4801
帝皇	-11.4809
九壘	-11.4811
增年	-11.4815
心開悟	-11.482
歲星	-11.482
鼻衂	-11.4828
敕字	-11.4831
筭來	-11.4841
聲音	-11.4844
目録	-11.4846
得其所	-11.4856
關召	-11.487
乎唯唯	-11.4877
食茱萸	-11.4883
取二升去滓	-11.4883
累功	-11.4893
修補	-11.4905
問疑	-11.4906
諸道士	-11.4917
以水三升煑	-11.4927
孰能	-11.4937
呪訣	-11.4938
利鎖	-11.4939
善哉善哉愚生	-11.4952
癤	-11.4969
用此藥	-11.4973
以水五升煑	-11.4981
神効	-11.4989
雞子黄	-11.4991
宻呪	-11.5001
大丹成	-11.5032
酒服方寸七日二	-11.5033
脾脉	-11.5033
嘔血	-11.5036
吞服	-11.5036
微汗	-11.505
寧可	-11.5051
芍藥桂心	-11.5055
東北方	-11.5064
炁混合	-11.5069
惺灑	-11.5082
内補散	-11.5085
教示	-11.5093
迴轉	-11.51
微弱	-11.5102
乃敢	-11.5132
眞了了	-11.5152
天尊至心信禮真	-11.5159
輕輕	-11.5166
傳尸	-11.5167
細辛乾薑	-11.5169
尸鬼	-11.5176
勿怪	-11.5191
千餘	-11.5191
芝苗	-11.5198
願聞其	-11.5204
即瘥治	-11.523
二七壯	-11.5242
雷使者	-11.5244
煑取一升頓服	-11.5255
央	-11.5257
雞屎	-11.5267
祇	-11.5269
癸亥	-11.5272
贈趙	-11.5279
扁鵲	-11.5288
玉壺	-11.5292
逍遥物外	-11.5293
醮罷	-11.5301
社令雷	-11.5314
分三服又方	-11.5318
天下之人	-11.5321
酘	-11.5329
大杼	-11.5335
芍藥茯苓	-11.5337
其支者	-11.534
噓	-11.5342
個	-11.5342
嗌	-11.5343
骭	-11.5345
白鮮皮	-11.5347
右九味㕮咀以水九升煑	-11.5349
行間主	-11.5349
萎	-11.535
桐子大	-11.535
大麻仁	-11.5351
小腸輸	-11.5351
猬皮	-11.5351
膠飴	-11.5352
齲	-11.5352
丁卯	-11.5352
槲	-11.5354
以鼻引	-11.5354
白肉際	-11.5355
盥	-11.5355
搽	-11.5355
酸棗仁	-11.5356
琴瑟	-11.5357
婢	-11.5357
萆麻子	-11.5357
分六服	-11.5357
煎三上三下	-11.5357
留人門	-11.5357
歩罡	-11.5357
跌	-11.5358
絹袋	-11.5359
分作三服	-11.5359
日死何以知之	-11.536
男子婦人	-11.5361
羙	-11.5362
朒	-11.5363
秩	-11.5364
咖	-11.5364
抜	-11.5364
糟	-11.5364
不得屈伸	-11.5364
兩筋間	-11.5364
倣	-11.5365
霹	-11.5365
揭	-11.5365
攤	-11.5365
絹篩	-11.5365
𤮴	-11.5365
腮	-11.5366
篦	-11.5366
埃	-11.5366
臛	-11.5366
貟	-11.5367
飛行上昇	-11.5367
刹	-11.5368
有德之國	-11.5368
盤桓	-11.5368
蔬	-11.5368
陛	-11.5368
鬼箭羽	-11.5368
十七聖乘	-11.5369
瘥止又方	-11.5369
嫁	-11.5369
規矩	-11.5369
筠	-11.5369
聾盲	-11.5369
佚	-11.537
何從得	-11.537
戎鹽	-11.537
不知稍增	-11.537
梗	-11.537
梓	-11.537
懐	-11.537
服一刀圭	-11.537
大咎在此	-11.5371
燎	-11.5371
相引痛	-11.5371
茵	-11.5371
賒	-11.5371
鯉	-11.5372
蛻形	-11.5372
不得留停	-11.5372
父母兄弟	-11.5373
䖍	-11.5373
指撮	-11.5373
上腭	-11.5373
渭	-11.5373
蚊	-11.5374
道德之君	-11.5374
少商	-11.5374
七日七夜	-11.5375
娥	-11.5375
丘曾	-11.5375
立秋之日	-11.5375
尉	-11.5375
綾	-11.5375
頂戴	-11.5375
都仙真君	-11.5375
歸身歸神歸命	-11.5375
天上地下	-11.5375
帛裹	-11.5375
蹇	-11.5375
迤	-11.5375
斥	-11.5376
再拜長跪願曰	-11.5376
璨	-11.5377
嶂	-11.5377
九月九日	-11.5377
知其意	-11.5377
三部八景	-11.5377
笑傲	-11.5377
銀蟾	-11.5377
東西南北	-11.5377
叨	-11.5378
覃	-11.5378
叮囑	-11.5378
孝弟	-11.5379
盜汗	-11.5379
赴瀛洲	-11.5379
九祖父母	-11.5379
𡻕	-11.5379
暝	-11.5379
摸	-11.538
笙	-11.538
捷徑	-11.538
爇心香	-11.538
畧	-11.538
二十四生圖	-11.538
朗朗	-11.538
漫漫	-11.5381
天罡大聖	-11.5381
靈書紫文	-11.5381
時出爲師號	-11.5381
悼	-11.5381
右件各罰禮	-11.5381
益氣力	-11.5381
榖	-11.5382
拯救	-11.5382
嶽瀆	-11.5382
恍	-11.5382
乾葛	-11.5382
竅陰	-11.5382
岩	-11.5382
曠野	-11.5382
手少陽	-11.5382
桃葉	-11.5382
人發之治王	-11.5383
冗冗	-11.5383
臧	-11.5383
爲天問事	-11.5383
乞覓	-11.5383
晨夕	-11.5383
鳴天鼓	-11.5384
蕭蕭	-11.5384
袴	-11.5385
承誥奉行	-11.5385
堪嗟	-11.5385
儼然	-11.5385
貝齒	-11.5386
甯	-11.5386
鄽	-11.5386
暴虐	-11.5386
右四味㕮咀以水八升	-11.5387
支飲	-11.5387
有二種	-11.5388
紫微夫人	-11.5388
手臂	-11.5388
紅焰	-11.5389
飛捷使者	-11.5389
上皇元年	-11.5389
貲	-11.5389
肺臟	-11.5389
天上之事	-11.5389
玉陛	-11.539
霑	-11.539
閬	-11.5391
龕	-11.5391
趍	-11.5392
充盈	-11.5392
飬	-11.5393
脇下痛	-11.5394
足躡	-11.5394
褥	-11.5394
倉卒	-11.5394
暘	-11.5394
吁	-11.5395
喘逆	-11.5395
濛濛	-11.5395
攬	-11.5395
朱陵	-11.5395
雷斧	-11.5396
守拙	-11.5396
鬱儀	-11.5396
梭	-11.5396
妻妾	-11.5396
鍼	-11.5398
蟬蛻	-11.5398
愚闇	-11.5398
辛酉	-11.5398
孩兒	-11.5398
樊籠	-11.5399
霜雪	-11.5399
端嚴	-11.5399
如常法	-11.54
東牟	-11.54
虐	-11.54
堅牢	-11.54
策杖	-11.54
功效	-11.5401
藍青	-11.5401
贈華亭	-11.5401
胞胎	-11.5402
賄	-11.5402
中渚	-11.5402
降真炁	-11.5403
木防己	-11.5404
奥旨	-11.5404
道與德	-11.5404
射罔	-11.5404
七竅	-11.5406
禍殃	-11.5407
宿昔	-11.5407
災厄	-11.5407
河源	-11.5407
按摩	-11.5408
召役	-11.5409
北嶽	-11.5409
此四人	-11.541
超生死	-11.541
鶴鳴	-11.5411
散治産後	-11.5411
恬然	-11.5412
六尺	-11.5412
殺伐	-11.5412
勞役	-11.5413
豈敢	-11.5415
扁鵲曰	-11.5416
癢痛	-11.5416
根基	-11.5417
遣汝	-11.5417
講論	-11.5419
救拔	-11.5419
願聞其意	-11.542
陰囊	-11.542
啓奏	-11.542
武曲	-11.5424
携手	-11.5424
者其德如	-11.5424
章表	-11.5428
猪肝	-11.5431
先王之	-11.5433
水服方寸匕	-11.544
金橋	-11.5442
紫金丹	-11.5442
小續命湯	-11.5442
骨蒸	-11.5445
地裂	-11.5445
普告	-11.5445
掖門	-11.5448
細辛附子	-11.5448
主副	-11.5453
洞中天	-11.5453
朝金闕	-11.5454
逮及	-11.5454
執迷	-11.5455
太霞	-11.5455
雷城	-11.5456
助帝王	-11.5457
内汁中	-11.5458
章奏	-11.5458
搜求	-11.5459
賢儒	-11.5463
永劫	-11.5464
斗府	-11.5464
鍾離	-11.5464
宿勿食	-11.5466
靈砂	-11.5468
唯大神	-11.5469
天讖	-11.5469
中来經曰生	-11.5478
帝簡	-11.548
玉峰	-11.548
幽室	-11.5483
天使子	-11.5484
陽谿	-11.5489
紅葉	-11.5491
千斤	-11.5492
玉貌	-11.5492
火焰	-11.5493
香燈	-11.5495
衣冠	-11.5496
太平之氣	-11.5498
食穀	-11.5498
先祖	-11.5499
甲子日	-11.5499
證果	-11.5502
命籍	-11.5503
憂惱	-11.5506
諸男女	-11.5518
胃反	-11.553
寅午	-11.5544
萬姓	-11.5551
咽汁	-11.5558
次序	-11.5561
皮囊	-11.5569
贈京兆	-11.5572
符一道	-11.5578
趙公	-11.5587
斗煑取	-11.5598
學之以	-11.5605
萬頃	-11.5617
京門	-11.5629
不自覺	-11.5636
乞化	-11.5639
鹿肉	-11.564
眼視	-11.5643
牛羊	-11.5668
修性命	-11.5674
三月三日	-11.568
冷痢	-11.5708
重陽真人	-11.5713
踏碎	-11.5716
蓬萊島	-11.5722
至心稽首	-11.573
无所不	-11.5736
唇口	-11.5775
百丈	-11.5792
玄都玉京	-11.5797
失天心	-11.581
懷抱	-11.5829
呪塗	-11.5831
任他	-11.5838
裴	-11.584
真人知之耶唯唯	-11.5844
右十四味㕮咀以水	-11.5864
衰少	-11.5877
終不自	-11.5883
黄耆芍藥	-11.5889
分爲三	-11.5895
右總爲細末	-11.59
日二夜一	-11.5908
手掌	-11.5927
河伯	-11.5942
驚恐	-11.5949
湯治妊娠	-11.5959
煑取二升半分三服	-11.5968
謫仙	-11.5978
平無毒主	-11.6014
太微天帝	-11.6017
忘懷	-11.6023
右二十味爲末	-11.6043
芍藥黄芩	-11.6058
太極真人曰修靈寳飛行三界之道	-11.6058
永瘥	-11.6064
稍增	-11.6066
渚	-11.6094
映照	-11.6097
商丘主	-11.6105
陷谷	-11.6107
小便不通	-11.6107
司官	-11.6108
歘	-11.611
右㕮咀每服四錢	-11.6111
其蒸在	-11.6111
蚘蟲	-11.6112
賊殺	-11.6115
寅午斗	-11.6116
蜀㯃	-11.6117
鷹屎白	-11.6118
砒	-11.612
跗	-11.612
蛤	-11.6122
箴	-11.6122
之禁勿	-11.6122
販	-11.6123
癧	-11.6124
疵	-11.6124
牡荆子	-11.6125
喆	-11.6126
猪肪	-11.6126
霓	-11.6126
烏梅肉	-11.6127
石榴	-11.6127
竺	-11.6128
已覺矣	-11.6129
天雷隱隱	-11.6129
桑寄生	-11.613
朗照	-11.613
須延天	-11.613
麻麥	-11.6131
春夏秋冬	-11.6131
鹵	-11.6131
妥	-11.6131
眇眇	-11.6132
傻	-11.6132
食不化	-11.6133
䖟蟲	-11.6133
儛	-11.6134
治下篩爲粗散	-11.6134
疼痺	-11.6135
膨	-11.6135
役使鬼神	-11.6135
命侍女	-11.6135
店	-11.6135
蜃	-11.6135
萬劫一傳	-11.6135
萍	-11.6136
㗸	-11.6136
薛	-11.6136
右六味㕮咀以水一斗	-11.6137
化作微塵	-11.6137
高上玉皇	-11.6137
甲今歸命	-11.6137
也釋曰	-11.6137
北斗七星	-11.6137
彫	-11.6137
生冷酢滑	-11.6138
笈	-11.6138
煑取汁	-11.6138
符到奉行	-11.6138
睦	-11.6138
懣	-11.6138
知之耶唯唯行子已	-11.6138
懴	-11.6139
食之害人	-11.6139
皁	-11.6139
稷	-11.6139
分五服日三夜二	-11.614
汩	-11.614
款	-11.614
哦	-11.614
辜	-11.614
乖錯	-11.614
釵	-11.614
承負之責	-11.6141
祗	-11.6141
本命之日	-11.6141
高聖帝君曰	-11.6142
綜	-11.6142
經渠	-11.6142
天真皇人	-11.6142
模樣	-11.6142
窩	-11.6142
紈	-11.6142
謔	-11.6142
䄂	-11.6142
魓	-11.6142
婆訶	-11.6143
觀者至故名	-11.6143
矇	-11.6143
弟兄	-11.6143
枳	-11.6143
飄颺	-11.6143
鞍	-11.6143
不知加之	-11.6144
曹溪	-11.6144
悌	-11.6144
甘菊花	-11.6145
百壯三報	-11.6145
三九素語	-11.6145
今建齋立直燒香	-11.6145
疝瘕	-11.6145
洪禧	-11.6145
酣	-11.6145
瀟灑	-11.6145
上來至此	-11.6145
叩齒二十四通	-11.6145
方右取	-11.6145
元亨利貞	-11.6145
麴末	-11.6145
勸持經	-11.6145
行子已覺矣	-11.6146
右出道迹經	-11.6146
速現真形	-11.6146
狸骨	-11.6146
飛行玉清	-11.6146
麻子仁	-11.6146
譜録	-11.6146
異日功成	-11.6147
悵	-11.6147
榭	-11.6147
舂	-11.6147
礦	-11.6147
師尊大聖衆至眞之德得道之後昇入	-11.6147
大洞玉經	-11.6148
瓊蘂	-11.6148
七竅病	-11.6148
轅	-11.6148
芎	-11.6149
地上亦然	-11.6149
邵	-11.615
辛漢臣	-11.615
熈	-11.615
痒	-11.615
清微天	-11.615
趙公明	-11.615
帕	-11.6151
雉	-11.6151
兀兀	-11.6151
龜甲	-11.6151
七世父母	-11.6152
早晚	-11.6152
閼	-11.6152
急急如律令呪畢	-11.6152
高岑	-11.6152
受書爲	-11.6152
爲親屬兄弟	-11.6152
乙丑	-11.6152
亮	-11.6152
申酉	-11.6153
泄注	-11.6153
炁三口	-11.6153
泪出	-11.6153
究洽	-11.6153
城隍	-11.6153
顙	-11.6154
恒沙	-11.6154
沼	-11.6154
階級	-11.6154
須臾之間	-11.6154
曲澤	-11.6154
玉清真王	-11.6154
願聞之然	-11.6154
第二十一	-11.6154
登真隱訣	-11.6155
駢	-11.6155
紫㣲大帝	-11.6155
清明何童天	-11.6156
擅	-11.6156
虛羸	-11.6156
澆灌	-11.6156
藿	-11.6156
正文正辭	-11.6157
潄	-11.6157
鎗	-11.6157
預備	-11.6157
不可勝記	-11.6158
増	-11.6158
唳	-11.6158
耻	-11.6158
淡泊	-11.6158
殫	-11.6158
棒	-11.6158
徙	-11.6159
癇之爲病	-11.6159
骨癰	-11.6159
各七壯	-11.6159
科曰道士女冠	-11.6159
中來經曰	-11.6159
餓鬼	-11.6159
哀憐	-11.616
明月清風	-11.616
嬉戲	-11.616
仞	-11.616
輔佐	-11.616
韜光	-11.616
創	-11.6161
猛火	-11.6161
尤佳	-11.6161
嵯	-11.6161
攻擊	-11.6161
渾淪	-11.6161
匣	-11.6162
擁護	-11.6162
槃	-11.6162
貢	-11.6162
妖怪	-11.6162
曩	-11.6162
𣲖	-11.6162
戲弄	-11.6163
吉祥	-11.6163
萬物各得其所	-11.6163
撒手	-11.6164
蔬食	-11.6165
上天梯	-11.6165
共欺其上	-11.6165
古者帝王	-11.6166
嚴凝	-11.6166
緘口	-11.6166
卷之九十	-11.6166
蔕	-11.6167
鷄鳴	-11.6167
丁其狀	-11.6168
右符成	-11.6168
割愛	-11.6168
嵩高	-11.6168
瀟瀟	-11.617
夫人諱	-11.617
徹底	-11.617
鼓舞	-11.6172
陰陽造化	-11.6172
承負之厄	-11.6172
愛慾	-11.6172
誦讀	-11.6173
恢恢	-11.6173
襖	-11.6173
雪崖	-11.6173
骸骨	-11.6173
産乳	-11.6173
項負	-11.6174
寮	-11.6174
勑符呪	-11.6175
威雄	-11.6175
潮熱	-11.6175
怡然	-11.6176
逰	-11.6176
梅花	-11.6176
鐵杖	-11.6177
六銖衣	-11.6177
功徳	-11.6178
膏成去滓	-11.6178
岀家	-11.6179
婦女	-11.618
形軀	-11.618
休粮	-11.618
霍山	-11.618
總領	-11.6181
圖畫	-11.6181
判官	-11.6181
立効	-11.6181
服三劑	-11.6181
抽身	-11.6182
氣神和	-11.6183
雲軿	-11.6183
罔象	-11.6183
陸先生	-11.6183
無極大道	-11.6184
士庶	-11.6184
望蓬萊	-11.6184
法海遺珠卷之四十	-11.6185
户牖	-11.6186
彭祖	-11.6186
截斷	-11.6186
殿堂	-11.6188
天下地上	-11.619
丈人太	-11.619
長生不死	-11.6191
乳母	-11.6191
末蜜丸梧子大	-11.6192
知吉凶	-11.6192
流後生	-11.6195
凉藥	-11.6195
利貞	-11.6196
不可測	-11.6197
海水帝	-11.6198
長幼	-11.62
那堪	-11.62
出家兒	-11.6202
愚蒙	-11.6203
虎豹	-11.6205
欣欣	-11.6208
監臨	-11.6209
手小指	-11.6209
喘急	-11.6211
瓊房	-11.6211
統攝	-11.6212
輕泄	-11.6215
團團	-11.6215
灾禍	-11.6215
枯木	-11.6216
消魔經	-11.6218
校定	-11.6219
金閣	-11.6219
龍沙	-11.622
欺其上	-11.6221
詩曲	-11.6222
沈香	-11.6222
孫眞人備急千金要方卷之四十	-11.6225
公卿	-11.6229
金鑪	-11.6229
决斷	-11.623
天下太平	-11.623
際會	-11.6231
各以其	-11.6231
百尺	-11.6233
冤家	-11.6235
可否	-11.6237
惡核	-11.624
尊貴	-11.6242
八柱	-11.6242
興衰	-11.6244
司候	-11.6249
尤宜	-11.6251
龍蛇	-11.6254
髮落	-11.6255
各三壯	-11.6257
代回	-11.6259
寳冠	-11.6263
服五丸日三	-11.6264
上中下	-11.6268
十一卷	-11.6272
取瘥止	-11.6277
七壯又灸	-11.6291
億萬里	-11.6295
集驗方	-11.6309
仰嚥	-11.6321
豆豉	-11.6325
間隔	-11.6331
降授	-11.6336
食五辛	-11.6339
妻兒	-11.6343
火劒	-11.6347
治下篩先食	-11.6373
布裹	-11.6376
后土	-11.6398
龍蟠	-11.6403
仙儔	-11.6417
互相	-11.6422
恐畏	-11.6426
治崩中	-11.6437
八風散	-11.6455
裴君	-11.6459
天鈞	-11.6493
乾薑蜀椒	-11.6494
一尺二寸	-11.65
十壯穴在	-11.6515
洞真經云	-11.6521
三百六十五	-11.6543
右十味㕮咀以水一斗	-11.6562
之極也	-11.659
試問	-11.6595
斗牛	-11.6604
養沖和	-11.6604
育養	-11.6614
大黄黄芩	-11.663
五丸日	-11.6663
豈徒	-11.6663
百億	-11.6684
瘟疫	-11.6694
右四味㕮咀以水一斗	-11.6705
栢葉	-11.671
死不治	-11.675
領兵	-11.6772
禹餘天	-11.679
酒吞下	-11.681
楊柳	-11.6833
吸呼	-11.6855
鬱單	-11.6864
行道得道求仙得仙飛行太空騰景	-11.693
爲丸如梧桐子大	-11.6934
丸如彈子大	-11.6935
發其汗	-11.6938
嗌乾	-11.6941
商丘	-11.6941
胯	-11.6941
麞	-11.6944
陽谷主	-11.6945
服此湯	-11.6945
濼	-11.6945
腦户	-11.6946
洗手面	-11.6947
妬乳	-11.6947
腰背强	-11.6948
貟將	-11.6948
瀟洒	-11.6948
青黛	-11.6949
面䵟	-11.6952
灸五壯	-11.6952
小青龍湯	-11.6952
滛	-11.6953
麩炒	-11.6955
箸	-11.6955
泪	-11.6955
澤㯃	-11.6955
到仙鄉	-11.6956
腹中雷鳴	-11.6956
神霄真王	-11.6957
漏下赤白	-11.6957
瘀	-11.6957
愊	-11.6958
椹	-11.6958
齧	-11.6958
實熱也	-11.6958
蕤	-11.6959
腎瀝湯	-11.6959
少小嬰孺方	-11.6959
桶	-11.6959
酒疸	-11.696
秖	-11.6961
陽起石	-11.6961
内下部中	-11.6961
噙	-11.6961
青葙子	-11.6961
温脾湯	-11.6961
哂	-11.6962
張文仲	-11.6962
諂	-11.6962
五香連翹湯	-11.6963
楓香	-11.6963
薇	-11.6963
右二十一味	-11.6963
烜赫	-11.6963
諫而不從因而消亡矣	-11.6964
矩	-11.6964
嬰孩	-11.6964
方見别卷	-11.6965
搯煞文	-11.6965
舐	-11.6966
西江月	-11.6966
瓷	-11.6967
瘭疽	-11.6967
以類相	-11.6967
漠漠	-11.6968
有二種一者	-11.6969
觧	-11.6969
灌溉	-11.6969
咈	-11.6969
塞鬼路	-11.6969
靈飛六甲	-11.6969
鵠	-11.6969
松筠	-11.6969
錦飛裙	-11.6969
灸肺輸	-11.6969
闢	-11.697
肩井	-11.697
鼻孔中	-11.697
魓𩳐魒	-11.6971
梟	-11.6971
尸厥	-11.6971
運明天尊至心信禮	-11.6971
手足逆冷	-11.6971
澶	-11.6971
森森	-11.6972
茫	-11.6972
顚	-11.6972
携笻	-11.6972
敢有拒逆	-11.6972
豹尾	-11.6972
奔馳	-11.6973
咍	-11.6973
闘	-11.6973
危證	-11.6973
是爲可知	-11.6974
崆	-11.6974
商量	-11.6974
九丹上化胎精中記	-11.6974
雄黄雌黄	-11.6974
鳶	-11.6974
熟艾	-11.6974
甄	-11.6974
搐	-11.6975
以瘥爲度	-11.6975
冬葵子	-11.6975
𩲃	-11.6975
鈆丹	-11.6975
颺	-11.6975
旱魃	-11.6975
雞屎白	-11.6975
三道行書	-11.6975
韜	-11.6976
蠒	-11.6976
倘	-11.6976
乘雲駕龍	-11.6976
聞吾呼召	-11.6977
塞鬼路穿鬼心破鬼肚	-11.6977
扶摇	-11.6977
温疫	-11.6977
拊	-11.6977
不拘多少	-11.6977
紗	-11.6977
斃	-11.6977
嗷	-11.6978
削除罪録	-11.6978
次師弟子一時左行向	-11.6978
恬惔	-11.6978
涇	-11.6978
烏豆	-11.6978
唫	-11.6978
矛	-11.6978
勸捨惡	-11.6978
蘧廬	-11.6979
四直使者	-11.6979
歆	-11.6979
惙	-11.6979
萬道霞光	-11.6979
並皆治之	-11.698
童子小便	-11.698
虔誠	-11.698
正音土皇姓	-11.698
緑軿	-11.698
無作無爲	-11.698
翠霧	-11.698
雯	-11.698
憔悴	-11.698
訣傳來	-11.698
眺	-11.698
瑛	-11.6981
様	-11.6981
捜	-11.6981
圍繞	-11.6981
邪言邪文	-11.6982
眉毛	-11.6982
褁	-11.6982
姊妹	-11.6982
敷貼	-11.6982
武陵春	-11.6983
殄	-11.6983
這番	-11.6983
袁	-11.6983
廛	-11.6983
足脛	-11.6983
湧泉	-11.6983
掐煞文	-11.6983
十洲三島	-11.6984
意馬心猿	-11.6984
囂塵	-11.6984
可㤥哉可㤥哉	-11.6984
去成都	-11.6984
唏	-11.6985
偎	-11.6985
木郎呪	-11.6985
天文地理	-11.6985
松蘿	-11.6985
蠻觸	-11.6986
廳	-11.6986
皤溪	-11.6986
北斗七元	-11.6986
躔	-11.6986
九真中經	-11.6986
賞罰	-11.6986
搜獲	-11.6987
遯	-11.6987
穿鑿	-11.6987
樗	-11.6987
華佗	-11.6987
拔伸	-11.6987
桃枝	-11.6988
箱	-11.6988
桃康	-11.6988
和如泥	-11.6988
腥羶	-11.6988
曇	-11.6988
白蒺藜	-11.6989
遨	-11.6989
拍手	-11.6989
翼軫	-11.6989
無所忌	-11.6989
攀緣愛念	-11.699
朕	-11.6991
少人知	-11.6991
瓦礫	-11.6991
牓	-11.6991
粧點	-11.6991
爲經入於	-11.6991
不欲飲食	-11.6992
亂髮灰	-11.6992
苞	-11.6992
燒香然燈	-11.6992
入室燒香	-11.6992
蕩滌	-11.6992
姬	-11.6992
衿	-11.6992
爲源行於	-11.6992
爲輸過於	-11.6992
殃咎	-11.6992
隱軫	-11.6992
睹	-11.6992
君父師	-11.6992
哩囉㖫哩囉㖫	-11.6992
爲滎注於	-11.6992
脉也流於	-11.6992
波濤	-11.6993
欵	-11.6993
論一首	-11.6993
譁	-11.6993
外國放品	-11.6993
膏肓	-11.6994
析	-11.6994
甌	-11.6994
道眼開	-11.6994
大概	-11.6994
三惡道	-11.6994
河魁	-11.6995
陜右	-11.6995
赫奕	-11.6995
枯竭	-11.6995
明彰報應	-11.6996
槩	-11.6996
寳冠衣	-11.6996
倪	-11.6996
魔軍	-11.6997
苦酒和	-11.6997
勿懈	-11.6997
棹	-11.6998
愛惜	-11.6998
侍郞	-11.6998
芝田	-11.6998
銀牙	-11.6998
子細看	-11.6998
淹留	-11.6998
恪	-11.6998
金闕帝君	-11.6999
右十味治下篩	-11.6999
孜孜	-11.7
冬三月	-11.7
南北東西	-11.7
舞袖	-11.7
捷疾	-11.7
青蓮池上客	-11.7002
黒虎	-11.7002
天尊大果	-11.7002
游戲	-11.7003
飼	-11.7003
愚頑	-11.7004
取一斗去滓	-11.7004
汾陽解	-11.7005
捩	-11.7006
細剉	-11.7007
歡悅	-11.7008
者慙愧	-11.7009
渾似	-11.7009
群魔	-11.7009
諧師當	-11.7009
子言是也	-11.701
束骨	-11.701
㨿	-11.7011
紛華	-11.7011
旌陽	-11.7011
二色之光	-11.7011
閉户	-11.7011
咨	-11.7011
大洞眞經	-11.7012
燈以照	-11.7014
焕爛	-11.7014
榮辱	-11.7016
彈指	-11.7017
福禄	-11.7017
若道士女冠	-11.7017
絳闕	-11.7019
威嚴	-11.7019
任西東	-11.7023
何謂也然	-11.7025
飢渴	-11.7025
桃源	-11.7028
喉咽	-11.7028
瑞草	-11.7028
五廕	-11.7029
贈道友	-11.703
小兒驚癇	-11.7031
容儀	-11.7034
泉源	-11.7034
南昌	-11.7035
煅鍊	-11.7035
流芳	-11.7037
愛戀	-11.704
休誇	-11.704
何妨	-11.7041
行之九年	-11.7042
雲腴	-11.7045
樓臺	-11.7045
瓦器	-11.7051
一百八十	-11.7054
成大藥	-11.7055
興廢	-11.7057
腋下腫	-11.7069
黄籙醮	-11.7098
長七寸	-11.7101
瘡孔	-11.7106
鬱單无量天	-11.7117
釀酒	-11.7124
湯泡	-11.7152
右九味爲末	-11.7182
百千萬	-11.7204
前胡湯	-11.7214
沙界	-11.7247
加至二七	-11.7258
治産後血	-11.7265
羊髓	-11.7281
十四卷	-11.7283
粱米	-11.7301
萬疊	-11.7396
步煙霞	-11.7434
歷遍	-11.7458
可不愼乎	-11.7511
簿録	-11.753
擒捉	-11.7553
李大乘	-11.7557
旦空腹	-11.7557
治發背	-11.7577
右十二味㕮咀以水一斗	-11.7593
不知稍加	-11.7616
真誥第	-11.7665
滄	-11.7665
海島	-11.767
右十二味㕮咀以水一斗二升	-11.7729
梧子大	-11.7774
以酢漿	-11.7779
列缺主	-11.7817
糵	-11.7827
冬瓜仁	-11.7838
引小腹	-11.7841
奔豚	-11.7844
血蝎	-11.7851
雀屎	-11.7852
殭蠶	-11.7853
不可屈伸	-11.7855
攪匀	-11.7856
迎仙客	-11.7859
躄	-11.7859
痟	-11.786
罪不除也	-11.7861
⬤	-11.7862
大便不利	-11.7862
口噤不開	-11.7862
捌	-11.7862
葱豉	-11.7862
癭瘤	-11.7863
半身不遂	-11.7863
羊屎	-11.7864
浚儀原陽子趙宜眞集	-11.7865
味甘微寒	-11.7866
吸吸少氣	-11.7866
紀綱	-11.7866
攪令相得	-11.7867
皴	-11.7867
昊	-11.7867
五苓散	-11.7867
顴	-11.7868
骨碎補	-11.7869
醇	-11.787
稟	-11.787
冢	-11.787
附骨疽	-11.787
悉主之方	-11.7871
蛇蛻	-11.7871
㢘武破	-11.7872
啡	-11.7872
款冬花	-11.7872
河洛	-11.7872
痰涎	-11.7872
瘠	-11.7872
澤漆	-11.7872
書白繒高聖帝君曰	-11.7872
箍	-11.7872
㖿	-11.7872
媒	-11.7873
兜	-11.7873
賛	-11.7873
梵寳天	-11.7873
醫所不治	-11.7873
以水二升煑取一升	-11.7873
右爲末每服二錢	-11.7873
其支者從	-11.7874
四肢煩疼	-11.7874
肋間	-11.7874
鍾乳粉	-11.7874
䧺	-11.7874
肪	-11.7874
以鼻吸	-11.7874
以東流水	-11.7874
西江月裏	-11.7875
揉	-11.7875
追陪	-11.7875
暎	-11.7875
蓐	-11.7876
黶	-11.7876
齒齗	-11.7877
山梔子	-11.7877
挨	-11.7877
相去如人行十里久	-11.7877
也眞人知之耶唯唯	-11.7878
孤雲野鶴	-11.7878
灧	-11.7878
彀	-11.7878
落魄婪躭	-11.7879
行住坐卧	-11.7879
呌	-11.7879
胛	-11.7879
御史	-11.7879
碣	-11.7879
妙行真人	-11.788
覆燾	-11.788
雁	-11.788
開天門閉地	-11.788
伐廟	-11.7881
滚滚	-11.7881
者取訣於	-11.7881
心猿意馬	-11.7881
嘿	-11.7881
天火地火	-11.7881
忖	-11.7881
勃勃	-11.7882
絳宮	-11.7882
頑痺	-11.7882
電掣	-11.7882
鎔	-11.7883
飲食不消	-11.7883
饗	-11.7883
瓣	-11.7883
七言絕句	-11.7883
蓍	-11.7883
轂	-11.7883
虻	-11.7883
飛行太空	-11.7883
童稚	-11.7884
黄氣陽精	-11.7884
十二重樓	-11.7884
日四五度	-11.7884
增減	-11.7884
溉濟	-11.7885
竪	-11.7885
魑	-11.7885
摺	-11.7885
駒	-11.7885
䏶	-11.7886
絓	-11.7886
躋攀	-11.7886
頰車	-11.7886
城隍社令	-11.7886
無夢令	-11.7886
卷栢	-11.7886
肋端	-11.7886
四肢不舉	-11.7886
𩲓	-11.7886
狡猾	-11.7887
所行罪負	-11.7887
愠	-11.7887
钁	-11.7887
咀嚼	-11.7887
擎拳	-11.7887
踊	-11.7887
璈	-11.7887
春花秋月	-11.7888
痕	-11.7888
頭目眩	-11.7888
廉貞	-11.7888
汾	-11.7888
分梨十化	-11.7888
廵	-11.7888
狐狸	-11.7888
龍蟠虎	-11.7888
棚	-11.7889
復用前韻	-11.7889
廣寒之宫	-11.7889
明燈誦經思眞行道求仙上解七	-11.7889
迢迢	-11.7889
仙童玉女	-11.7889
褒	-11.789
炳	-11.789
誣	-11.789
青龍白虎	-11.789
筌	-11.789
踢	-11.7891
椽	-11.7891
夢寐	-11.7891
坐在立亡	-11.7891
燔	-11.7891
可駭哉可駭哉	-11.7891
荏子	-11.7891
沖融	-11.7891
虵	-11.7891
青書白	-11.7891
驅役	-11.7892
到如今	-11.7892
豁落七元	-11.7892
淋瀝	-11.7892
賾	-11.7892
裊裊	-11.7893
陞	-11.7893
太尉	-11.7893
淨明忠孝	-11.7893
芋栗	-11.7893
闡揚	-11.7893
黑龍散	-11.7893
十方世界	-11.7893
浩蕩	-11.7893
堤	-11.7893
摧殘	-11.7893
然後書符	-11.7893
恊	-11.7894
囓	-11.7894
米添	-11.7894
舄	-11.7894
一粒金丹	-11.7894
庚寅	-11.7894
三元八會	-11.7894
生肉膏	-11.7894
波瀾	-11.7895
十十相應	-11.7895
天地之心意	-11.7895
握固	-11.7895
浮名浮利	-11.7895
催促	-11.7895
灣	-11.7895
周行天下	-11.7896
湊	-11.7896
鸛	-11.7896
奕奕	-11.7896
妙行眞人	-11.7896
仔細	-11.7897
君臣民	-11.7897
巷	-11.7897
臨江仙	-11.7897
鳧	-11.7897
三元布經	-11.7897
令汁盡	-11.7897
福祚	-11.7897
𨼆	-11.7897
骰	-11.7898
𨽻	-11.7898
乳哺	-11.7898
悃	-11.7898
勞倦	-11.7898
地水火風	-11.7898
七十二候	-11.7899
慢慢	-11.7899
丫髻	-11.7899
翟	-11.7899
酒色財氣	-11.7899
列圖如左	-11.7899
笋	-11.79
無漏果	-11.79
萬派	-11.79
急急如雷祖	-11.79
諒	-11.79
寶鑑	-11.7901
莧	-11.7901
無盡藏	-11.7902
摧傾	-11.7902
䭀	-11.7902
拈弄	-11.7902
朦	-11.7902
枯朽	-11.7902
痊安	-11.7902
邃	-11.7902
驪	-11.7903
周匝	-11.7903
億兆	-11.7903
搜己過	-11.7903
姑姑	-11.7904
匹	-11.7905
渣	-11.7905
刑殺	-11.7905
删	-11.7905
追伐	-11.7906
諸天諸地	-11.7906
巿	-11.7907
枯槁	-11.7907
滄溟	-11.7907
下手遲	-11.7907
帷	-11.7907
軻	-11.7907
虱	-11.7908
堪嘆	-11.7908
鈕	-11.7909
繩墨	-11.7909
相尅賊	-11.791
莖葉	-11.791
整頓	-11.791
關令尹喜	-11.791
布帛	-11.7911
慰	-11.7911
樂清貧	-11.7911
遭逢	-11.7911
展手	-11.7911
穢慢	-11.7912
瞻視	-11.7912
葛藤	-11.7914
氣職主	-11.7914
叵	-11.7914
絲毫	-11.7914
妓樂	-11.7914
瞥	-11.7915
流曳	-11.7915
否泰	-11.7915
英雄	-11.7915
遲遲	-11.7916
以雞子白和	-11.7916
尺寸	-11.7916
寂淡	-11.7916
體義者	-11.7917
擺脫	-11.7917
兹蓋恭遇某	-11.7918
拉	-11.7918
纛	-11.7919
直饒	-11.7919
範軒	-11.7919
伫	-11.792
鐵柱	-11.792
都綂	-11.7921
在腕後	-11.7922
世態	-11.7923
洪災	-11.7924
日月五星	-11.7924
都督	-11.7925
敗壞	-11.7926
手中指	-11.7927
棲霞	-11.7929
鹿皮	-11.7929
趙州	-11.7929
養家苦	-11.7936
疏記	-11.7947
皆主之方	-11.7949
之效也	-11.7984
雷速發	-11.8
調風雨	-11.8016
隨意所	-11.8044
坦蕩逍遥	-11.8047
清泠	-11.8051
瘥乃止	-11.8055
一尺五寸	-11.8069
閻老	-11.807
遵奉	-11.8093
右十八味㕮咀	-11.8115
酒和服	-11.8116
正此也	-11.8135
煑取四升去滓	-11.8152
者於諸	-11.8164
卧不安	-11.8179
億億	-11.8184
小便澀	-11.8184
疫癘	-11.8216
治丈夫	-11.8232
擣絞取汁	-11.8258
玉清天中	-11.8258
花綻	-11.8324
斗柄	-11.8346
即出又方	-11.835
右十一味㕮咀以水一斗	-11.8353
十日愈	-11.8365
爲細末鍊蜜	-11.838
碧桃	-11.8398
四物湯	-11.8424
口相傳	-11.8432
吒娑訶	-11.845
粱	-11.8491
右十味㕮咀以水九升煑取三升	-11.8612
麵糊爲丸	-11.8615
京兆府	-11.8626
人之所不	-11.8694
水五升煑取二升	-11.8745
飄逸	-11.8766
豹	-11.879
病新瘥	-11.8829
凝水石	-11.884
後谿主	-11.8841
頭痛壯熱	-11.8845
堅如石	-11.8847
痘	-11.8848
黄芪	-11.8849
膂	-11.8849
䐜	-11.8852
瓮	-11.8853
靨	-11.8854
鬾	-11.8854
岐伯曰	-11.8855
百壯又灸	-11.8857
萹	-11.8857
紫荆皮	-11.8858
雚蘆	-11.8858
黄茋	-11.8858
蜂窠	-11.8859
僵仆	-11.8859
右爲粗末	-11.886
籙上清太上	-11.8861
肩髃	-11.8862
錘	-11.8862
階梯	-11.8862
瓠	-11.8863
挼	-11.8864
一顆明珠	-11.8864
癲癇	-11.8865
戰掉	-11.8866
藏頭拆字	-11.8866
搭	-11.8867
閴	-11.8867
牛角䚡	-11.8868
蜀漆	-11.8868
上帝有敕	-11.8868
烏喙	-11.8869
俠臍	-11.887
脫肛	-11.887
傻猿	-11.887
内酒中	-11.887
千乘萬騎	-11.8871
右五味㕮咀以水一斗	-11.8871
咜	-11.8871
艾炷	-11.8871
兠	-11.8872
日再夜一	-11.8872
昴	-11.8872
俛	-11.8873
三寳中来經曰	-11.8873
心腹絞痛	-11.8873
騰騰兀兀	-11.8873
侗	-11.8873
仙樂集卷之	-11.8873
内外二衆	-11.8873
九天玄女	-11.8874
摭	-11.8874
哺乳	-11.8874
㹠	-11.8874
三沸去滓	-11.8875
治月經不通	-11.8875
素靈大有妙經	-11.8875
山洞周迴	-11.8875
耿耿	-11.8876
滂	-11.8876
澹澹	-11.8876
州刺史	-11.8876
月水不利	-11.8876
仕宦	-11.8876
如指大	-11.8877
冩	-11.8877
浹	-11.8877
殗	-11.8877
小腸腑	-11.8877
如胡豆	-11.8877
檐	-11.8877
蘚	-11.8877
急急如大赤天帝	-11.8877
獨我揺頭不管	-11.8877
鬢髮	-11.8878
右二十三味	-11.8878
濕𧏾	-11.8878
飭	-11.8878
搦	-11.8878
月水不通	-11.8878
焮	-11.8878
刁	-11.8879
疥癬	-11.8879
靠	-11.8879
僂	-11.8879
雞肶胵	-11.8879
詭	-11.8879
沁	-11.888
羽輪奉迎甲身上登玉清宫紫	-11.888
癰癤	-11.888
輕身益氣	-11.888
勿令泄氣	-11.888
陜	-11.888
清風皓月	-11.8881
蓊	-11.8881
羊蹄根	-11.8881
兖	-11.8881
白堊	-11.8881
秦芃	-11.8881
蘇合香	-11.8882
籠罩	-11.8882
魁𩲃𩵄䰢	-11.8883
揣	-11.8883
无鞅數	-11.8883
得更生福慶之門甲得道眞與神合同畢	-11.8883
肉傷人神氣	-11.8883
三九二十七	-11.8883
烙	-11.8883
虜	-11.8883
赴蓬莊	-11.8883
怳	-11.8883
狗屎	-11.8883
襪	-11.8883
犀	-11.8883
身入光明上昇天堂衣食自然	-11.8884
撙	-11.8884
定志經云	-11.8884
恁麽	-11.8884
二丈四尺	-11.8884
耿	-11.8884
蛙	-11.8884
惺惺了了	-11.8884
結九幽長夜之府魂充考撻諸痛備嬰形	-11.8884
靂	-11.8885
飛砂走石	-11.8885
龍陽觀	-11.8885
小指次指	-11.8885
卜筭子	-11.8885
琅琅	-11.8885
煌	-11.8885
肱	-11.8885
佃	-11.8885
六丁六甲	-11.8885
七聖元紀經	-11.8885
錚	-11.8885
獰	-11.8886
澆溉	-11.8886
旭	-11.8886
蛄	-11.8886
烏晶	-11.8886
入髮際一寸	-11.8886
莎	-11.8886
魑魅	-11.8887
疋	-11.8887
唵吽吒	-11.8887
炬	-11.8887
三髻山侗	-11.8887
三官九府	-11.8887
峭	-11.8888
倖	-11.8888
校尉	-11.8888
虹霓	-11.8888
八節之日	-11.8888
以詩贈之	-11.8888
爕	-11.8888
荒郊	-11.8888
銅鏡鼻	-11.8888
麴糵	-11.8888
謹上啓	-11.8889
不忠不孝	-11.8889
澈	-11.8889
糝	-11.8889
八素眞經	-11.8889
平濇無毒	-11.8889
螋	-11.8889
裝嚴	-11.889
鍔	-11.889
昨夜	-11.889
叚	-11.889
玄之又玄	-11.889
饑渴	-11.889
超法界	-11.889
昩	-11.889
淑	-11.889
袐	-11.889
青要紫書	-11.8891
大唐陸海羽客王懸河修	-11.8891
盼	-11.8891
碧嶂	-11.8891
兵戈	-11.8891
緑靴	-11.8891
龍吟虎嘯	-11.8891
破傷風	-11.8891
羌	-11.8892
上上禪善无量壽天	-11.8892
獺肝	-11.8892
瑰	-11.8892
訖自下	-11.8892
㝷	-11.8892
隳	-11.8892
蹙	-11.8892
彤	-11.8893
頼	-11.8893
註	-11.8893
孝悌	-11.8893
梵摩迦夷天	-11.8893
者免内衆	-11.8893
汨	-11.8894
詺	-11.8894
也亦從慧本生	-11.8894
五五二十五	-11.8894
可得聞乎	-11.8894
粹	-11.8894
古今許龐家去也應都免輪回苦	-11.8894
迅速	-11.8894
紿	-11.8894
叮嚀	-11.8894
撻	-11.8894
九赤斑符	-11.8894
鄕里	-11.8894
芬	-11.8894
嬰兒姹女	-11.8895
謳	-11.8895
紂	-11.8895
劾	-11.8895
以意消息	-11.8895
鍾吕	-11.8895
疾速到壇	-11.8895
慨	-11.8896
賈奕天	-11.8896
郁	-11.8896
凡名參	-11.8896
飲酒食肉	-11.8896
就此文中	-11.8897
瑞靄	-11.8897
慳	-11.8897
瘳	-11.8897
寧海軍	-11.8897
仵	-11.8897
泥丸宮	-11.8897
哉善乎子	-11.8897
正一盟威	-11.8897
佞僞	-11.8897
千變萬化	-11.8898
贅	-11.8898
牽纏	-11.8898
狄	-11.8898
讁	-11.8898
无極世界	-11.8898
忿忿	-11.8899
干戈	-11.8899
捉祟	-11.8899
有歲數	-11.8899
清貧柔弱	-11.89
假軀	-11.89
虧盈	-11.89
顛狂	-11.89
常清常浄	-11.8901
九垓	-11.8902
天丁力士	-11.8902
踞	-11.8902
杖屨	-11.8902
藜杖	-11.8902
倐	-11.8902
伶	-11.8903
司農	-11.8903
萬事俱忘	-11.8903
煥爛	-11.8904
疇	-11.8904
世世不絶	-11.8904
牀席	-11.8904
鷗	-11.8904
色不變	-11.8904
燒香散花	-11.8905
幻軀	-11.8905
栽培	-11.8905
嗇	-11.8905
何以故譬如	-11.8906
如蟲行	-11.8906
浦	-11.8906
娶	-11.8906
觀身大戒	-11.8907
嶒	-11.8907
因墓中	-11.8907
天長觀	-11.8907
濛附	-11.8907
殯	-11.8908
旃	-11.8908
漲	-11.8908
詐僞	-11.8908
晉	-11.8908
郵	-11.8908
遄	-11.8909
憨癡	-11.8909
水晶宫	-11.8909
聽予勸	-11.8909
陡	-11.8909
巒	-11.891
幻境	-11.891
砌	-11.891
搖	-11.8911
潢	-11.8912
姑射	-11.8912
中來居世	-11.8912
相去何若	-11.8913
伏念某	-11.8914
廬陵	-11.8915
屋宇	-11.8915
歲已下	-11.8915
是人非	-11.8915
茅屋	-11.8917
罄	-11.8919
右十二味爲末蜜丸如梧子	-11.8921
襄	-11.8921
千里其次	-11.8921
當於何	-11.8922
令極熱	-11.8922
隂也主養	-11.8923
診候	-11.8923
吹嘘	-11.8924
陽也主生	-11.8924
汨没	-11.8924
悚	-11.8926
紫綬	-11.8927
銀青光禄大夫	-11.8927
九十尺	-11.893
願報師恩	-11.8931
道得道求仙得仙飛行太空騰景九天	-11.8931
闇昧	-11.8935
混沌一炁	-11.8937
漕	-11.8944
痛如刺	-11.8947
何也答曰	-11.8964
子之所問	-11.8974
蓬莊	-11.8979
擣下篩	-11.8979
嘔噦	-11.8997
以水四升煑取一升半	-11.901
皇妃	-11.9031
之門户也	-11.9047
以水一斗二升先煑	-11.905
水一升煑	-11.9143
丸如梧子大酒服二十丸	-11.9186
生神章	-11.9229
細尋思	-11.9285
以水五升煑取一升	-11.9317
往付	-11.9338
騁風流	-11.9421
㗶吒	-11.9637
已解矣	-11.9678
泥塗之	-11.981
㕮咀以水七升煑取二升半分三服	-11.9876
禁不可刺	-11.9885
壇場	-11.9914
右四味㕮咀以水六升煑取二升	-11.9939
痓	-11.9942
流氣飲	-11.995
三屍九蟲	-11.9953
臏	-11.9955
捋	-11.9957
守道而行	-11.9958
齗交	-11.9959
手足厥冷	-11.996
衾	-11.996
燒灰存性	-11.9961
卞	-11.9962
菟	-11.9963
天花粉	-11.9965
瞤	-11.9966
㯃	-11.9966
道士女冠	-11.9969
小便澁	-11.9971
麋	-11.9971
燒存性	-11.9972
䐃	-11.9972
啒	-11.9973
鑠	-11.9973
月胎者當預服此方	-11.9973
蘘	-11.9974
傳屍癆	-11.9974
解谿主	-11.9974
道君洞清	-11.9974
魈	-11.9975
苧	-11.9975
之明效也	-11.9975
大豆黄卷	-11.9976
全蝎	-11.9977
瘖不能言	-11.9977
泓	-11.9977
出娑婆	-11.9977
陽九百六	-11.9977
道君清微	-11.9977
粃	-11.9977
成煎猪膏	-11.9978
爲細末每服二錢	-11.9978
烹鉛	-11.9978
昊天玉皇上帝	-11.9978
椎下節間	-11.9978
髭	-11.9981
喎僻	-11.9981
此其致也釋曰	-11.9981
不得稽停	-11.9981
稍稍咽之	-11.9981
煻	-11.9982
憨憨	-11.9982
莖中痛	-11.9983
服五分七日三	-11.9983
異道雜仙	-11.9983
道全德之也貴大家總赴玉華會	-11.9983
羶	-11.9983
富貴榮華	-11.9983
楝	-11.9983
愼火草	-11.9984
蚯蚓屎	-11.9984
收捉爲禍	-11.9984
竟天年	-11.9984
食飲不下	-11.9984
旂	-11.9984
蝎	-11.9984
姹女嬰兒	-11.9985
餉	-11.9985
攪令調	-11.9985
删繁	-11.9985
繋	-11.9985
右四味各等分	-11.9986
菴䕡子	-11.9986
三陰三陽	-11.9986
善哉子之難問	-11.9986
覓殘餘	-11.9986
咱	-11.9986
明燈誦經思神念眞行道求仙飛騰九天	-11.9987
未發前	-11.9987
扶突	-11.9987
四肢沉重	-11.9987
各爲身計	-11.9988
鴟	-11.9988
辣	-11.9988
露蜂房	-11.9988
碌	-11.9988
高枕卧	-11.9988
五靈脂	-11.9988
列仙曹	-11.9988
十苦八難	-11.9988
司命司録	-11.9988
每服二十丸	-11.9989
倣傚	-11.9989
煅煉	-11.9989
磑	-11.9989
兩傍各一寸	-11.9989
八風十二痺	-11.9989
三道順行經云	-11.9989
熱酒調下	-11.9989
上昇南宫	-11.999
眉鬚	-11.999
法將班	-11.999
也兀底	-11.999
生蘆根	-11.999
寗	-11.9991
曝令乾	-11.9991
微火上煎	-11.9991
水雲遊歷	-11.9991
禁如藥法	-11.9991
時出爲帝師號曰	-11.9991
道學與人同	-11.9991
惹絆	-11.9992
棕	-11.9992
搥	-11.9992
西嶽華山	-11.9992
胳别走	-11.9992
嚴畏智詐	-11.9992
王治於其内	-11.9992
虎咆哮	-11.9992
十壯三報	-11.9992
喝將吏	-11.9992
浮萍	-11.9992
鴻濛	-11.9992
蛸	-11.9992
咳逆上氣	-11.9993
乞殘餘	-11.9993
姤	-11.9993
媚	-11.9993
右四天王	-11.9993
款冬	-11.9993
一隂一陽	-11.9994
閫	-11.9994
𨔼	-11.9994
恓	-11.9994
繫絆	-11.9994
訞	-11.9994
還知否	-11.9994
妍	-11.9994
鄷都	-11.9994
缸	-11.9994
青溪道士孟安排集	-11.9994
鼕	-11.9994
子孫醮縁重遇敬信全仗高眞度	-11.9994
家九祖父母惡對罪根三界司筭女青	-11.9995
雌雄	-11.9995
蓽	-11.9995
狠	-11.9995
匐	-11.9995
嚲	-11.9996
懿	-11.9996
無縈繫	-11.9996
蟻穿珠	-11.9996
鞠	-11.9996
太乙火府	-11.9996
殁	-11.9996
用金錢	-11.9996
掾	-11.9996
槽	-11.9996
鈐	-11.9997
蓂	-11.9997
如食法	-11.9997
瘖瘂	-11.9997
白馬尿	-11.9997
羯	-11.9997
者勸助	-11.9997
隱隱而痛者	-11.9997
驀山溪	-11.9997
北嶽恒山	-11.9997
栁	-11.9997
餒	-11.9997
撈	-11.9998
唵嚩𠯐囉喗	-11.9998
疽也上肉微起者	-11.9998
晦朔	-11.9998
補中益氣	-11.9998
俓	-11.9998
先人後己	-11.9998
盗	-11.9999
閼伯	-11.9999
倏欻	-11.9999
辯夫曰	-11.9999
諸君丈人	-11.9999
結空成	-12
一十二字召	-12
觴	-12
鄒	-12
也三洞珠囊卷之	-12
皂靴	-12
協晨	-12
非有非無	-12.0001
怱怱	-12.0001
邉	-12.0001
霞友雲朋	-12.0001
下一寸六分陷中仰而取之	-12.0001
自古到今	-12.0001
茸	-12.0001
佯	-12.0001
癡頑	-12.0001
傳非其人	-12.0002
奎婁胃昴畢觜參	-12.0002
餞	-12.0002
蝗	-12.0003
僣	-12.0003
佩身又書白紙本命八節日服之内思	-12.0003
開皇元年	-12.0003
王高上玉虛至極天尊特垂曲映令	-12.0003
訣第一百九十	-12.0003
沿	-12.0004
虎龍交媾	-12.0004
髏	-12.0004
勲	-12.0004
盟而傳	-12.0004
欲知其效	-12.0004
軋	-12.0004
一十八年	-12.0004
若道士若女冠	-12.0004
璽	-12.0004
詛	-12.0004
宫隱吾	-12.0004
上清變化七十四方經云	-12.0004
埪	-12.0004
績	-12.0005
不得有違	-12.0005
曲素訣辭	-12.0005
毁謗	-12.0005
煌煌	-12.0005
齏	-12.0005
冑	-12.0005
儵	-12.0005
行自得之	-12.0005
䧟	-12.0006
變化七十四方	-12.0006
懲	-12.0006
蹔	-12.0006
陂	-12.0007
颯	-12.0007
庖	-12.0007
遑	-12.0007
畦	-12.0007
安坐爲子	-12.0007
熖	-12.0007
宫宫中有帝君	-12.0007
子欲重知其	-12.0007
太平經卷之五十	-12.0008
漢安元年	-12.0008
洞玉經三十九章	-12.0008
重規合矩	-12.0008
功滿三千	-12.0008
度歲華	-12.0008
迢遞	-12.0008
紫度炎光經云	-12.0009
胸臆	-12.0009
僕射	-12.0009
憂愁思慮	-12.0009
苔	-12.0009
合而爲一	-12.0009
經一卷太上洞玄靈寳	-12.0009
右出洞真外國放品經	-12.001
墀	-12.001
承氣湯	-12.001
常融天	-12.001
岱	-12.001
簟	-12.0011
當此之時	-12.0011
蝨	-12.0011
三島十洲	-12.0011
榮華富貴	-12.0011
鱠	-12.0012
燁	-12.0012
安息香	-12.0012
隘	-12.0012
天長地久	-12.0012
王瓊文第	-12.0012
身中三五功曹左右官使者	-12.0012
茗	-12.0012
夏三月則變形爲	-12.0012
礪	-12.0012
簑	-12.0012
心中赤炁	-12.0012
竄	-12.0012
賡	-12.0012
簞瓢	-12.0012
賃	-12.0013
白雲深處	-12.0013
計較	-12.0013
鬱勃	-12.0013
查	-12.0013
航	-12.0013
浩渺	-12.0013
漏始發於頸	-12.0013
碍	-12.0013
芰	-12.0014
扶桑大帝	-12.0014
擾擾之屬	-12.0014
中内音書其上	-12.0014
潼	-12.0014
孺	-12.0014
謄	-12.0014
放心閑	-12.0016
豊	-12.0016
汴	-12.0016
遐齡	-12.0017
崗	-12.0017
塵活死人兮活死人	-12.0017
晷	-12.0017
鉅	-12.0017
釁	-12.0018
𣗳	-12.0018
守一明法	-12.0018
崐崘	-12.0018
樞環	-12.0019
感得十	-12.0019
後之學者	-12.0019
閤	-12.0019
曰吾昔	-12.0019
卑賤	-12.0019
越衡天	-12.002
摧挫	-12.002
燕京	-12.002
科曰凡道士女冠	-12.0021
規模	-12.0022
杆	-12.0024
秋三月則變形爲	-12.0025
萬八千	-12.0025
社稷	-12.0027
苗裔	-12.0028
以臘月猪脂和	-12.0029
其天上人壽	-12.0029
葷辛	-12.0034
右十味㕮咀以水一斗煑取三升分三服	-12.0036
右十三味㕮咀以	-12.0037
詶	-12.0044
藩	-12.005
有善意	-12.0056
丹成九轉	-12.0057
星中名	-12.0099
煑取二升七合分三服	-12.0138
祥光瑞	-12.0155
無灰酒	-12.0186
治之之方	-12.0253
稍加以知爲度	-12.0276
右八味㕮咀以水八升	-12.03
黄素四十四方經	-12.0314
一斗煑取五升	-12.0369
童玉女侍衛	-12.0404
丸日三稍加	-12.0413
㕮咀以水八升煑取二升半分三服	-12.051
右三十二味	-12.0539
玷	-12.0642
尊至心稽首	-12.0643
生神章第	-12.0801
水一斗二升煑取三升	-12.0857
太上黄素四十四方	-12.0905
右十味㕮咀以水九升	-12.1131
隱白主	-12.1192
孫眞人備急千金要方	-12.1196
十宣散	-12.1196
有微熱	-12.1196
物傷輒爲	-12.12
孫眞人備急千金要方卷之九十	-12.1201
復留主	-12.1202
罣礙	-12.1202
桃紅散	-12.1202
白楊皮	-12.1203
𥐻砂	-12.1205
薏苡	-12.1206
攅竹	-12.1207
饙	-12.1209
小便黄赤	-12.1211
糯	-12.1213
痠	-12.1213
飜	-12.1216
小腹絞痛	-12.1216
破故紙	-12.1216
陰谷主	-12.1217
新汲水	-12.1218
發作有時	-12.1218
楓	-12.1218
啹	-12.1218
硃砂	-12.1218
胎動不安	-12.1219
福山縣	-12.122
掣瘲	-12.122
已與道同	-12.122
猷	-12.1221
𠺕	-12.1222
渴欲飲水	-12.1222
湯若曾傷	-12.1223
坦坦	-12.1225
用雞子清	-12.1226
膕	-12.1226
右二味各等分爲末	-12.1226
小便淋瀝	-12.1226
恍恍惚惚	-12.1227
烜	-12.1228
謐	-12.1228
麻黄去沫	-12.1228
右出老子德經	-12.1229
鉗	-12.1229
繚繞	-12.1231
白馬莖	-12.1231
養氣全神	-12.1231
茄	-12.1231
九州社令	-12.1231
地二十億萬里第	-12.1231
掞	-12.1231
撩	-12.1231
父母夫人女第	-12.1231
羣衆叛	-12.1232
慘慘	-12.1232
不計遍數	-12.1233
常清常靜	-12.1233
食糞飲小便	-12.1233
太上靈寳天尊已得道大聖衆至眞尊神	-12.1233
右出洞真變化七十四方經	-12.1233
不限多少	-12.1233
不瘥重作	-12.1234
叹	-12.1235
爨	-12.1235
癎	-12.1235
右九味㕮咀以水九升煑取三升去滓	-12.1235
逼迫	-12.1235
子死腹中	-12.1235
道典論卷之	-12.1235
芫	-12.1236
冕	-12.1236
㾬	-12.1236
瘍	-12.1237
月水不調	-12.1237
懈惰	-12.1237
太極金書上經	-12.1237
灼灼	-12.1237
月生則受	-12.1237
坎虎離龍	-12.1238
在掌後	-12.1238
熬成膏	-12.1239
風刀之考	-12.1239
嗏	-12.1239
荄	-12.1239
鬼督郵	-12.1239
以爲天信其欲	-12.124
凡學上法當以	-12.124
孜	-12.124
蛔	-12.124
無作做	-12.124
在足内踝	-12.124
治百合病	-12.124
壘土皇常以	-12.124
㢘	-12.1241
用黄紙	-12.1241
閲	-12.1241
岌	-12.1241
麩	-12.1241
臊	-12.1241
鋤	-12.1241
酉戌亥	-12.1241
丿	-12.1241
與禽獸同	-12.1242
弃	-12.1242
𩵄䰢	-12.1242
呮	-12.1242
奪人所欲	-12.1243
相似故理	-12.1243
願以是功德歸流	-12.1243
搓	-12.1243
縻	-12.1243
年月日時告下具位	-12.1243
鷇	-12.1243
誰乎有身不自	-12.1243
味辛温無毒	-12.1244
煇	-12.1244
轍	-12.1244
當須立觀度人若	-12.1244
並力同心	-12.1244
二斗煑取一斗	-12.1244
鋒芒鋒芒光垂	-12.1244
朶	-12.1244
疱	-12.1244
五加酒	-12.1244
惛	-12.1245
腎中黒炁	-12.1245
厦	-12.1245
羽飛衣	-12.1245
蘖	-12.1245
戇	-12.1246
盪	-12.1246
與天爲怨	-12.1246
憶王孫	-12.1246
衹	-12.1246
𠰢	-12.1246
蚯蚓	-12.1246
今齋直燒香	-12.1246
一千五百	-12.1246
膠艾湯	-12.1246
元命真人	-12.1246
愼生冷	-12.1247
婚姻	-12.1247
興雲致雨	-12.1247
醪	-12.1247
𥹋	-12.1247
右出洞神經	-12.1247
螻蟻	-12.1247
必效方	-12.1247
猘	-12.1247
菩薩	-12.1248
白日登晨	-12.1248
彷徨	-12.1248
怜	-12.1248
舛	-12.1248
蠡	-12.1248
欒	-12.1248
無有解已	-12.1248
䑛	-12.1248
訣第七十	-12.1248
㡌	-12.1248
瘢痕	-12.1248
違科犯	-12.1248
風雲雷雨	-12.1248
韻琅琅	-12.1249
元惡之罪	-12.1249
官使者左右龍虎君侍香諸靈官當令	-12.1249
牆	-12.1249
霎	-12.1249
圄	-12.1249
恱	-12.1249
者死病若	-12.1249
朞	-12.125
淀	-12.125
願開陳	-12.125
三十六部尊經	-12.125
湘	-12.125
㬋	-12.125
瑶臺閬苑	-12.125
縹	-12.125
肺中白炁	-12.125
虎遶龍蟠	-12.1251
不可禁止	-12.1251
无思江由天	-12.1251
饋	-12.1251
爛熳	-12.1251
泮	-12.1251
遐邇	-12.1251
九幽玉匱	-12.1251
天師幸哀	-12.1252
灸大椎	-12.1252
鎮心圓	-12.1252
玉清㧞度七祖解脫怨魂三塗五苦	-12.1252
喙	-12.1252
淨明大教	-12.1252
茫茫苦海	-12.1253
太霄琅書瓊文帝章	-12.1253
耨	-12.1253
璫滴瑠玎	-12.1253
右出老子道經	-12.1254
峰巒	-12.1254
淨明忠孝全書卷之	-12.1254
閱	-12.1254
知去處	-12.1254
赤白帶下	-12.1254
虀	-12.1254
平胃散	-12.1254
湯送下	-12.1255
𩵄	-12.1255
基址	-12.1255
訖自此以下	-12.1255
火急降臨	-12.1255
玄㧞贖幽魂度仙南宫願從太空元始	-12.1255
久服輕身	-12.1255
急急如都天	-12.1255
五明宫	-12.1255
龜山元籙	-12.1255
九赤班符	-12.1255
七聖玄紀	-12.1256
四種人天	-12.1256
𩲸	-12.1256
海變桑田	-12.1256
弔	-12.1256
畏天威	-12.1256
食其肉	-12.1256
偕	-12.1256
出崑岡	-12.1256
羃	-12.1256
二千四百	-12.1256
天尊至心信禮運明	-12.1256
凛冽	-12.1256
曄	-12.1256
宿命因縁生	-12.1256
甲建立洞神三皇	-12.1256
竦	-12.1257
知常眞人姬志眞撰	-12.1257
无始真人言	-12.1257
誼	-12.1257
廪	-12.1257
頡	-12.1257
屣	-12.1257
青玉案	-12.1257
駿	-12.1258
菘	-12.1258
槍	-12.1258
娉	-12.1258
上街求乞	-12.1259
帯	-12.1259
淄	-12.1259
磻溪集卷之	-12.1259
骼	-12.1259
斲	-12.126
僊	-12.126
滄浪	-12.126
𦆵	-12.126
綝	-12.126
奬	-12.126
浮空而來	-12.126
搆	-12.1261
謨	-12.1261
囉哩㖫	-12.1261
壘四音土皇常以	-12.1261
槨	-12.1262
嘍	-12.1262
賑	-12.1262
門人靈真子朱抱一	-12.1262
言而止反成	-12.1262
㕮咀以水六升煑取三升	-12.1262
暄	-12.1263
今清齋絶塵爲	-12.1263
意持戒終身奉行是吾太上太上太乙第	-12.1263
陽之符則	-12.1264
曦	-12.1264
當此之日	-12.1264
轝	-12.1264
筍	-12.1265
傘	-12.1265
譏	-12.1265
嵒	-12.1265
淹汙辱	-12.1265
所以爾者	-12.1266
超凌三界	-12.1266
呻吟	-12.1266
叶	-12.1267
戸留人門	-12.1267
哉子之難也	-12.1267
行滿功成	-12.1267
渟	-12.1267
功過上真總領	-12.1267
徼	-12.1268
樽	-12.1268
昬	-12.1269
鑰	-12.1269
鷺	-12.1269
天關地軸	-12.1269
菽	-12.127
狩	-12.127
王所治之天有	-12.127
右十五味治下篩	-12.1271
緬	-12.1271
肴	-12.1272
械	-12.1272
罹	-12.1272
慊	-12.1273
錄	-12.1273
篋	-12.1274
僉	-12.1274
罵詈	-12.1276
軺	-12.1277
太上太真科經云	-12.1277
人悉來	-12.1277
笥	-12.1277
三五七九	-12.1278
荒蕪	-12.1278
騮	-12.1278
懵懂	-12.1278
刼	-12.1278
擗	-12.1279
帝消魔大王常以	-12.1279
輪羽車飛行雲中遊宴五嶽	-12.128
丐	-12.1281
儷	-12.1281
冬三月則變形爲	-12.1285
十拜若	-12.1286
崩中去血	-12.1287
洊	-12.1289
風引湯	-12.1289
帝大魔王頭戴横天	-12.1291
盍	-12.1292
崇文館學士	-12.1292
後聖李君	-12.1295
公慕治	-12.1296
法第四十	-12.1301
鐵雷師	-12.1313
㕮咀以水八升煑	-12.1332
齋品卷之五十	-12.134
以水八升煑	-12.1341
以猪脂和傅	-12.1423
方見第	-12.1427
治帶下	-12.1453
湛湛澄澄	-12.146
無形與道合眞	-12.1577
右十六味㕮咀以水一斗	-12.1594
戒也第	-12.1597
右十二味㕮咀以水一斗煑取三升	-12.1638
煑取二升半去滓分三服	-12.1825
右六味㕮咀以水八升煑	-12.2025
身生天受福南軒闔門昇度普天獲恩次	-12.2246
搶	-12.2386
澄澄湛湛	-12.2414
右十五味爲末蜜丸如梧子	-12.2444
第一百七十	-12.2466
得之以類相從因以相補共成一善辭矣	-12.2592
食不生肌	-12.2611
陰交主	-12.2614
孫真人備急千金要方卷之四十	-12.2621
此其候也	-12.2632
三上三下白芷色黄	-12.2633
蛀	-12.2634
裙太上神仙洞天元洞	-12.2636
腠	-12.2638
煎至七分去滓	-12.2639
清涕出	-12.264
蜜陀僧	-12.2641
蠡溝	-12.2642
烏雌雞一隻	-12.2642
鼽衂	-12.2642
他皆倣此	-12.2643
右七味㕮咀以水八升煑取三升	-12.2643
滎	-12.2644
如刀刺	-12.2645
害風兒怎生說	-12.2645
而爲說法果後而見此	-12.2645
終南山重陽子王嘉譔	-12.2646
月之時兒	-12.2646
叩齒五通	-12.2647
少氣不足以息	-12.2647
終南山重陽子王嚞譔	-12.2647
服三方寸七	-12.2648
之脉起於	-12.2649
病先發於	-12.2649
稅	-12.2649
祖師中天樞相伏魔	-12.265
陰下濕癢	-12.265
鵰	-12.2651
爲極細末	-12.2651
鶩	-12.2651
睿	-12.2651
啘	-12.2651
屈骨端	-12.2651
廣濟方	-12.2651
罌	-12.2652
呻	-12.2652
夢與鬼交	-12.2653
味甘温無毒	-12.2654
𤷍	-12.2654
一十字召	-12.2654
隔遇予	-12.2654
以水七升先煑	-12.2654
以詞贈之	-12.2655
擫	-12.2655
痣	-12.2656
螢	-12.2656
風雷水火四部神王	-12.2657
鯁	-12.2657
年四十已	-12.2658
不得轉側	-12.2658
醵	-12.2658
逍遥真自在	-12.2659
爺	-12.266
桕	-12.266
法海遺珠巻之	-12.266
微火煎三上三下	-12.266
雷公電母風伯雨師	-12.266
虚心實腹	-12.266
不聞香臭	-12.266
澄心遣慾	-12.266
𢖍	-12.266
黄包巾	-12.266
忠臣孝子	-12.2661
悍	-12.2661
旻	-12.2661
扎	-12.2661
胞衣不出	-12.2661
價直多少	-12.2661
者躭著	-12.2662
正月三月五月七月九月十一月	-12.2663
拜長跪言臣甲今歸命	-12.2663
西城王君	-12.2663
九日九夜	-12.2663
茶清調下	-12.2663
七祖充責	-12.2663
壠	-12.2664
搗練子	-12.2664
綦	-12.2664
脘	-12.2664
光兀騰騰	-12.2665
糺	-12.2665
餚	-12.2665
善男子善女人	-12.2665
竈突墨	-12.2665
日三四度	-12.2666
一轉六神藏	-12.2666
姙	-12.2666
呉	-12.2666
朂	-12.2666
自今以往	-12.2666
厢	-12.2666
太清玄元上三天无極大道	-12.2666
无極世界一百天尊慈悲應號	-12.2666
繚	-12.2666
一靈真性	-12.2666
党	-12.2666
唐天皇問曰	-12.2667
渝	-12.2668
帆	-12.2668
萬劫不原	-12.2668
亶	-12.2668
譜	-12.2668
摽	-12.2669
縉	-12.2669
曈	-12.2669
筴	-12.2669
取天門炁	-12.2669
珪璋	-12.2669
尋出路	-12.2669
況於人乎	-12.267
爆	-12.267
菲	-12.267
坎迎離	-12.267
九千九百度	-12.267
誦詠四天之音飛玄之章其日遣	-12.267
味苦甘	-12.2671
迄	-12.2671
金玄羽章	-12.2671
化毒消腫托裏散	-12.2671
蘇幕遮	-12.2672
澳	-12.2672
報師恩	-12.2672
唆	-12.2672
三轉動魁罡	-12.2672
笻	-12.2672
貰	-12.2672
珪	-12.2672
誠惶誠恐稽首頓首	-12.2672
喃	-12.2672
飲食减少	-12.2672
穗	-12.2673
庠	-12.2673
版上置	-12.2673
獠	-12.2673
太安皇崖天	-12.2673
悛	-12.2673
疃	-12.2673
僥	-12.2673
億曾萬祖	-12.2673
淸	-12.2674
閨	-12.2674
䰢	-12.2674
雀頭香	-12.2674
踏莎行	-12.2674
主㿗疝	-12.2674
蘂珠宫	-12.2674
燌	-12.2675
大洞經下云	-12.2675
海變松枯	-12.2675
邯	-12.2675
五言律詩	-12.2675
受人欽	-12.2675
嚞	-12.2675
阡陌	-12.2675
湲	-12.2675
上帝有勑	-12.2675
寶玄堂	-12.2675
蕉	-12.2675
守靈寳天文道士吞之靈炁鎮	-12.2675
積功累行	-12.2675
𨦲	-12.2675
撓	-12.2676
无解今故燒香歸命	-12.2676
壻	-12.2676
服損藥	-12.2676
高良薑	-12.2676
𨵙	-12.2676
凡八類至	-12.2676
摹	-12.2676
婚	-12.2677
覆令汗	-12.2677
覇	-12.2677
相去十里久	-12.2677
骨下陷中	-12.2677
赭	-12.2677
體投地歸命太上三尊願以是功德歸流	-12.2677
窑	-12.2678
垢面蓬頭	-12.2678
殂	-12.2678
濬	-12.2678
某郡縣鄕里	-12.2678
媾	-12.2678
北極紫微大帝	-12.2678
攝赴魁罡	-12.2678
窖	-12.2678
呪曰北斗斗中	-12.2678
喂	-12.2679
謟	-12.2679
悖	-12.2679
是男是女	-12.2679
袍金甲緑靴	-12.2679
盟威經云	-12.268
天尊告曰	-12.268
豈可聞乎	-12.268
性停命住	-12.268
𤑔	-12.268
緇	-12.268
潁	-12.268
上高坡	-12.2681
璣	-12.2681
臀	-12.2681
星圓鏡	-12.2681
若道士女官	-12.2681
兀兀騰騰	-12.2681
姻	-12.2681
儕	-12.2681
瞬	-12.2681
一靈眞性	-12.2681
壟	-12.2682
併手丸	-12.2682
熒	-12.2682
楹	-12.2682
徐來勒	-12.2682
悄悄	-12.2682
紋之繒	-12.2682
居百重之内	-12.2682
剡	-12.2683
急急如髙上玉皇紫微帝君律令	-12.2683
無刺已刺無	-12.2683
靈寶天尊已得道大聖衆至眞諸君丈人	-12.2683
巵	-12.2684
皋	-12.2684
風前月下	-12.2684
擢	-12.2684
已大覺矣	-12.2684
麨	-12.2684
菓	-12.2684
匆	-12.2684
大洞真經三十九章	-12.2684
裙頽雲髻第	-12.2684
徐法師云	-12.2685
樟	-12.2685
無生無滅	-12.2685
竚	-12.2685
追癆大將	-12.2685
仁義禮智	-12.2685
犯天禁	-12.2685
帝東華南極西靈北眞玄都玉京金闕七	-12.2685
得道大聖衆至眞諸君丈人三十二天帝	-12.2685
峨嵋山	-12.2686
觥	-12.2686
裾	-12.2686
煎至八分	-12.2686
鸕	-12.2686
妾	-12.2686
沌	-12.2686
隍	-12.2686
賫	-12.2687
叱咤	-12.2687
洎	-12.2687
鳳棲梧	-12.2687
揜	-12.2687
其星則號	-12.2687
嬴	-12.2687
沛	-12.2687
七星移度	-12.2687
霶	-12.2687
償	-12.2688
笑呵呵	-12.2688
放開心月	-12.2688
繕	-12.2688
驥	-12.2688
擒猿捉馬	-12.2688
杞	-12.2689
赤明和陽天	-12.2689
内音玉字下云	-12.2689
南極長生司命君	-12.2689
跧	-12.269
太明玉完天	-12.269
萬劫保智用豈但在厥年奉戒不暫	-12.269
苛	-12.269
右四味㕮咀以水六升	-12.269
訣第六十	-12.269
昇天堂衣食自然	-12.269
裒	-12.269
太黄皇曾天	-12.269
满	-12.269
晻	-12.2691
喑	-12.2691
孚	-12.2691
走骨行屍	-12.2691
咀	-12.2691
火棗交梨	-12.2692
嗅	-12.2692
慟	-12.2692
飛天神人曰	-12.2692
奕	-12.2693
今奉請	-12.2693
咦	-12.2693
四目老翁	-12.2693
爇名香	-12.2694
藻	-12.2694
賂	-12.2695
愴	-12.2695
聞命矣	-12.2695
剜	-12.2696
駟	-12.2696
柿	-12.2697
夸	-12.2698
瀑	-12.2698
罣	-12.2699
瘁	-12.2699
臯	-12.2699
匈	-12.2699
詒	-12.2699
詫	-12.2699
嶠	-12.27
萃	-12.27
珂	-12.2701
居閑處	-12.2701
在上清境	-12.2701
臆	-12.2701
天涯海角	-12.2701
卹	-12.2701
衆師兄	-12.2702
笏	-12.2702
畿	-12.2704
迨	-12.2705
所經出入	-12.2705
囿	-12.2707
墅	-12.2707
屨	-12.2707
遘	-12.2709
巍	-12.271
南北與東西	-12.2711
紺	-12.2712
月二十五日	-12.2713
挫銳	-12.2714
懆	-12.2714
玄靖法師	-12.2714
念前呪	-12.2716
一二三四五	-12.2716
周穆王	-12.2716
圭爛飲	-12.2717
煑取半升	-12.2718
届	-12.2723
臺中導引元氣又云	-12.2726
小兒頭瘡	-12.2791
右八味㕮咀以水一斗煑取三升	-12.2804
飲服三丸日	-12.281
直事第	-12.2818
糊爲丸如梧桐子大每服	-12.3103
内膠令烊	-12.3301
閭第	-12.3516
右四味㕮咀以水五升煑取	-12.3889
煑取一升半分三服	-12.391
右十一味㕮咀以水九升煑取三升	-12.3959
輸在第十	-12.4056
煑取七合	-12.4154
爲末每服二錢	-12.4233
時病新瘥食	-12.4247
椎下兩傍各三寸	-12.4258
各出半力	-12.4259
膀胱輸主	-12.4292
茯	-12.4294
多卧少起	-12.4295
熱酒調敷	-12.4296
在犍爲郡界	-12.4296
日四五服	-12.4296
蜀水花	-12.43
姜五片	-12.4301
鼽	-12.4302
服半升日三	-12.4303
五陪子	-12.4303
窈窈冥冥	-12.4306
粳	-12.4307
棊	-12.431
增寒壯熱	-12.431
而爲說法果後而見此王身若欲見	-12.431
萸	-12.4311
碓	-12.4311
一炊久	-12.4311
不過三四度	-12.4311
尿有餘瀝	-12.4311
空忘智慧	-12.4311
太上神仙洞地洞真	-12.4312
卒有所下	-12.4312
日平旦朱書東向服之	-12.4312
素奏丹符朱書白繒佩之以甲	-12.4312
煑五六沸	-12.4314
人共上書	-12.4314
薰陸香	-12.4315
旋覆花	-12.4315
描	-12.4315
心月照雲溪	-12.4316
日食起醉歸	-12.4317
齒落更生	-12.4317
堵	-12.4317
尪	-12.4318
剗	-12.4318
雚	-12.4318
出家之人若道士若女冠	-12.4319
齊唱滿庭芳	-12.4319
乾荷葉	-12.4319
靣	-12.4319
脉搏堅而長	-12.4319
豚	-12.432
膾	-12.432
燒船網	-12.432
霟	-12.4321
餔	-12.4321
右出洞真黄氣陽精經	-12.4321
大彰報應	-12.4321
頭痛項强	-12.4321
治白秃	-12.4321
米熟去滓	-12.4322
黧	-12.4322
青黄赤白黑	-12.4322
牙皆赤書白紙上存思訖	-12.4323
蚘	-12.4323
勺	-12.4323
六甲十二子	-12.4323
右二十六味	-12.4324
倨	-12.4324
鼉	-12.4325
滲	-12.4325
籜	-12.4325
无極世界一切神靈乞丐	-12.4325
呴	-12.4326
和胡粉傅之	-12.4326
十棗湯	-12.4326
車前草	-12.4326
右三十二字	-12.4326
先寒後熱	-12.4327
三五飛歩	-12.4327
机	-12.4327
眞人知之耶	-12.4327
張元伯	-12.4327
西龜王母	-12.4327
何鬼敢	-12.4327
擿	-12.4327
邐	-12.4327
金樓玉室	-12.4327
變化靈符此則	-12.4327
每服四錢	-12.4328
謎	-12.4328
紘	-12.4328
兩腎中間	-12.4328
人形惡鬼貌	-12.4328
袍鐵甲白結袴黄皮䩺鞋	-12.4328
識心見性	-12.4329
溫	-12.4329
塜	-12.4329
柞	-12.4329
亨轟滑辣救	-12.4329
荼	-12.4329
杳默昏冥	-12.433
綏	-12.433
鬲	-12.433
三指撮許	-12.433
戌辰斗	-12.433
雞舌香	-12.433
憾	-12.4331
惓惓	-12.4331
去爪甲如韭葉	-12.4331
酒服二方寸七日	-12.4331
入三分灸三壯在	-12.4332
五言絕句	-12.4332
矮	-12.4332
水者其人腹大	-12.4332
帝大魔王官屬招致	-12.4332
等行道得道	-12.4332
鄷	-12.4333
俗夫之人	-12.4333
禹餘糧	-12.4333
邂	-12.4334
騷	-12.4334
竒僞之物	-12.4334
窘	-12.4334
肝中青炁	-12.4334
綉	-12.4334
欬欬則	-12.4334
郁李仁	-12.4334
塑	-12.4334
慱	-12.4334
洞真青要紫書金根	-12.4334
大洞眞經三十九章	-12.4334
痛引腰背	-12.4335
追疔奪命湯	-12.4335
銓	-12.4335
子知之乎唯唯	-12.4335
怵	-12.4335
横天霸	-12.4335
愼口味	-12.4335
紆	-12.4335
角亢氐房心尾箕	-12.4335
令人肥健	-12.4335
饍	-12.4335
長跪言曰同法	-12.4335
六方八遠	-12.4336
礱	-12.4336
無大無小	-12.4336
生老病死	-12.4336
天圓地方	-12.4336
涸	-12.4336
彿	-12.4336
琪	-12.4336
右手尺中神門以後脉	-12.4336
長病得之死	-12.4336
而爲說法果後而	-12.4337
㝠寂玄通	-12.4337
㬠	-12.4337
醫所不能治	-12.4337
露宿圓	-12.4337
左手尺中神門以後脉	-12.4337
輪迴生死關	-12.4337
尺金龍一枚歸命	-12.4338
鑛	-12.4338
破鬼肚	-12.4338
痴	-12.4338
籥	-12.4338
三五七散	-12.4338
詎	-12.4338
有小毒主	-12.4338
呾	-12.4338
波梨答惒天	-12.4338
义	-12.4338
玉珮金璫太極金書	-12.4338
泒	-12.4339
汀	-12.4339
攄	-12.4339
罟	-12.4339
古往今來	-12.4339
之喜此文主	-12.4339
寒靈丹殿	-12.4339
行神仙之道當以	-12.4339
螻	-12.434
偽	-12.434
罽	-12.434
涵	-12.434
猪牙皂	-12.434
懵	-12.434
彷	-12.434
撤	-12.434
聶	-12.434
熁	-12.434
女姹嬰嬌	-12.434
何如善而不達何能安哉	-12.434
无解今依盟眞玉匱女青	-12.434
閔	-12.434
方无極太上靈寶天尊	-12.434
耄	-12.4341
儸	-12.4341
収	-12.4341
中亦使和心入	-12.4341
唵唵撼撼急召丁	-12.4341
得乘飛景	-12.4341
眦	-12.4341
鏗	-12.4342
行之十八年	-12.4342
需	-12.4342
訥	-12.4342
皚	-12.4342
鐵牛耕	-12.4342
齗	-12.4342
飛仙眞人神	-12.4342
右出妙真經	-12.4342
寒濇無毒	-12.4342
謦	-12.4342
也眞誥第五云	-12.4342
拐	-12.4342
週	-12.4342
閑裏尋閑	-12.4342
无上无下无	-12.4342
顒	-12.4342
翊	-12.4343
駙	-12.4343
延胡索	-12.4343
熠	-12.4343
燿	-12.4343
襆	-12.4343
弈	-12.4343
分作二服	-12.4343
七玄之祖	-12.4344
古聖人得之	-12.4344
大豆紫湯	-12.4344
跳出死生關	-12.4344
右出西昇經	-12.4344
彙	-12.4344
四色土皇地載周境四垂不極不窮	-12.4344
霈	-12.4344
從古到今	-12.4345
翎	-12.4345
酹江月	-12.4345
万	-12.4345
帥將吏兵	-12.4345
纒	-12.4345
蠍	-12.4345
三元玉檢布經	-12.4345
嵋	-12.4345
秋陽觀作	-12.4345
筲	-12.4345
悁	-12.4345
當云何乎	-12.4345
隈	-12.4345
鬱單無量天	-12.4345
古聖人失之	-12.4346
相携率	-12.4346
畢叩頭自搏各	-12.4346
慣	-12.4346
都天大雷公	-12.4346
深根固蔕	-12.4346
如豆粒	-12.4346
属	-12.4346
惠文真人	-12.4346
来	-12.4346
犯伐功斷事	-12.4346
立觀度人	-12.4346
上禪善無量壽天	-12.4346
勝己爭競功名	-12.4346
境滅心忘	-12.4347
排風湯	-12.4347
玄母八門	-12.4347
坐玉樓之中	-12.4347
大定癸卯	-12.4347
轉輪不滅	-12.4347
道迹經云	-12.4347
願如上法今歸命	-12.4347
涬	-12.4348
滕	-12.4348
唧	-12.4348
治産後惡露不	-12.4348
冨	-12.4348
十二人傳言奏事飛龍騎吏等一合來下	-12.4348
又一拜長跪願曰	-12.4348
次署侍	-12.4348
體天法道	-12.4349
剃	-12.4349
浣	-12.4349
皇夫人頭建	-12.4349
金真玉光八景飛經	-12.4349
晅	-12.435
金錢甲馬	-12.435
譯	-12.435
淨天地呪	-12.435
坐起卧息	-12.435
太上隱書經	-12.435
朱書青紙上	-12.435
肫	-12.435
百七十卷	-12.435
身長千丈	-12.435
我欲做神仙怎敢	-12.435
景之道行之八年則	-12.435
上揲阮樂天	-12.435
无極曇誓天	-12.435
值道化玄眞啓拔得入信根先師盟授三	-12.435
无極天尊已得道大聖衆至眞諸君丈人	-12.435
攛	-12.435
海角天涯	-12.435
怙	-12.435
胄	-12.4351
泝	-12.4351
下領兵將	-12.4351
爲末酒服方寸七日三又方	-12.4351
蓆	-12.4351
今日上告萬	-12.4352
菱	-12.4352
斕	-12.4352
舞六么	-12.4352
瑞鷓鴣	-12.4352
颭	-12.4352
丹陽又韻	-12.4352
埏	-12.4352
行道得道求仙得仙	-12.4352
禧	-12.4352
開明向有所	-12.4353
孛	-12.4353
攀縁愛念	-12.4353
九色離羅	-12.4353
綢	-12.4353
蝀	-12.4353
於南丹洞	-12.4353
元始天尊无極大道太上道君高上玉皇	-12.4353
急急如雷霆律令	-12.4353
身天尊者謹按	-12.4353
岐陽鎮	-12.4354
𠸎	-12.4354
荀	-12.4354
恐怒喜思憂	-12.4354
轆	-12.4354
甖	-12.4354
玄明恭慶天	-12.4354
糾	-12.4354
背師恩愛	-12.4354
確	-12.4355
藪	-12.4355
甎	-12.4355
宫中仍微祝曰	-12.4355
帝神氣太平	-12.4355
臣今正爾燒香	-12.4355
栰	-12.4356
驅雷役電	-12.4356
苽	-12.4356
奠	-12.4356
巫山一段雲	-12.4356
欎	-12.4356
元載孔昇天	-12.4356
峩	-12.4357
峽	-12.4357
揆	-12.4357
玄胎平育天	-12.4357
蘧	-12.4357
桃源憶故人	-12.4357
爭名競利	-12.4358
魂精秘音内諱玉佩	-12.4358
醮之誠仰降	-12.4358
佇	-12.4358
侈	-12.4358
玉鑪三澗雪	-12.4358
從上到下	-12.4358
心叮囑門中士再三惜寸陰	-12.4358
用風流散填	-12.4358
石景水母	-12.4359
瀋	-12.4359
天怨地咎	-12.4359
瞰	-12.4359
撫心琴	-12.4359
上三天玄元始三炁太上老君召出	-12.436
啗	-12.436
璇	-12.436
睫	-12.436
赴蓬宫	-12.436
荻	-12.436
黠	-12.436
妊	-12.436
咤	-12.4361
倏	-12.4361
火風地水	-12.4361
劬	-12.4361
太平經卷之七十	-12.4361
笑點頭	-12.4361
瞞	-12.4361
慼	-12.4361
道學傳第二云	-12.4361
中嶽嵩山	-12.4361
杉	-12.4361
羽飛裙頽雲髻	-12.4361
霹靂大震	-12.4362
巨細洪纖	-12.4362
瀟湘	-12.4362
子欲樂知其	-12.4362
穽	-12.4362
淵通元洞天	-12.4362
扄	-12.4363
吠	-12.4363
紊	-12.4363
蠧	-12.4363
苖	-12.4363
諺	-12.4363
屛	-12.4363
培	-12.4363
絕	-12.4364
上通無極下入幽冥	-12.4364
陵靡不周常卑故成淵海爲百川王是能	-12.4364
幙	-12.4364
筮	-12.4365
蹉	-12.4365
崞	-12.4365
上與天連	-12.4365
址	-12.4365
皓庭霄度天	-12.4365
鍊汞烹鉛	-12.4365
天尊告太上道君	-12.4365
霳	-12.4366
三元篇曰	-12.4366
吙	-12.4366
金玉化消	-12.4367
奧	-12.4367
嵓	-12.4367
桀	-12.4367
杪	-12.4367
霾	-12.4367
价	-12.4367
棲霞長春子丘處機撰	-12.4367
蔗	-12.4367
歸根復命	-12.4367
方无極飛天神王	-12.4368
隰	-12.4368
鷓	-12.4368
嵎	-12.4368
蹊	-12.4368
三十六部尊經至心稽首玄中大法師	-12.4368
捶	-12.4369
犂	-12.4369
迍	-12.4369
莭	-12.4369
海空智藏	-12.4369
草決明	-12.4371
右出洞玄赤書經	-12.4371
一刀兩段	-12.4372
吾無以加之也	-12.4373
頥	-12.4373
棗二十枚	-12.4373
陶隱居	-12.4373
贈濱州	-12.4374
紵	-12.4374
纍	-12.4376
者供給隨分	-12.4377
舅	-12.4377
無思無慮	-12.4381
舎	-12.4381
穊	-12.4382
閑般弄	-12.4382
超凡入聖	-12.4384
羽之裘腰帶	-12.4386
昭文館學士上柱國	-12.4386
俌	-12.4389
隄	-12.439
蹲	-12.4397
煑數沸	-12.4405
諏	-12.4408
戒神通普	-12.4411
每服二錢温酒調下	-12.4411
右八味㕮咀以水九升煑取	-12.4456
取二升七合分	-12.4536
以水一斗五升煑取五升	-12.4537
服七合日三	-12.5065
天大聖衆至真尊神无極大道	-12.5527
一斗四升煑取	-12.5589
明真科經云無極世界男女之人生世	-12.6023
中内音書於其上	-12.615
宜桂枝湯太陽病	-12.6274
萆	-12.6274
睾	-12.6282
肖	-12.6282
概	-12.6283
新汲井水	-12.6285
脂鵝脂	-12.6285
四肢淫濼	-12.6287
蕷	-12.6287
煮米糊	-12.6287
鼠尾草	-12.6289
三十九帝二十四眞	-12.6293
無一傷者爲	-12.6293
鄕諸靈官㧞贖	-12.6294
飱	-12.6294
吮	-12.6299
洮	-12.63
腑臟温病陰陽毒	-12.6303
右符章黄素朱書	-12.6304
獐	-12.6305
右件爲細末每服二錢水一盞	-12.6306
三皇五帝三王五霸	-12.6306
凾	-12.6307
有積氣在	-12.6307
炁天文化生	-12.6307
宫遣符呪唵	-12.6308
右八味㕮咀以水九升煑取三升去滓	-12.6309
馬藺子	-12.6309
更裏瞥看	-12.631
以乳兒令	-12.631
齁	-12.6311
獨活寄生湯	-12.6311
俻	-12.6311
微小爲消癉滑甚爲	-12.6311
㾓	-12.6311
脉養不可針灸其經足	-12.6311
妳	-12.6312
茱	-12.6313
鐄	-12.6313
故孔子曰	-12.6313
重何象象	-12.6313
針胃管補之關上脉	-12.6313
豸	-12.6314
葈	-12.6314
經病四至脫精五至死六至命盡	-12.6314
右十三味㕮咀以水九升	-12.6314
醁	-12.6315
再至曰平三至曰	-12.6315
如恒河沙	-12.6316
趺陽脉浮	-12.6316
犖	-12.6316
右九味㕮咀以水八升煑取三升	-12.6316
煑取五升分五服	-12.6317
六發狂風大霹靂	-12.6317
渉	-12.6317
金鈎釣	-12.6317
盎	-12.6318
圊	-12.6318
翦	-12.6318
此像生也大損元覺之神矣若能治之名	-12.6318
炲	-12.6319
茇	-12.6319
憧	-12.6319
咯	-12.6319
骨不成者能	-12.6319
神山無爲應縁長生子劉處玄造	-12.632
下台三青	-12.632
中台二白	-12.632
左眼爲日	-12.632
病當依源	-12.632
胭	-12.632
刻符文鎮	-12.632
十七聖乘德衆	-12.632
命人行年在	-12.632
獅	-12.6321
靳	-12.6321
日十五日十八日二十	-12.6322
鎖庵門	-12.6322
天羅地網	-12.6322
巳上諸蟲在人身中	-12.6322
君君夫人共乘八景	-12.6322
則應臟寒則應腑	-12.6322
道尊德貴	-12.6322
修德行道其神自詣諸百姓取	-12.6322
我身流溢	-12.6322
不已復感於邪内舍於	-12.6323
胞衣不下	-12.6323
莢	-12.6323
綃	-12.6324
右五味㕮咀以水五升煑取二升半	-12.6324
埿	-12.6324
三百卷玉訣九千篇符圖七千章	-12.6324
穄	-12.6324
黔	-12.6325
上乾即易	-12.6325
精進恭敬等	-12.6325
甞	-12.6325
竈中黄土	-12.6325
味甘微温無毒	-12.6326
屐	-12.6326
後聖九玄金闕帝君	-12.6326
清清泠泠	-12.6326
渴加栝蔞	-12.6326
緝	-12.6326
井鬼柳星張翼軫	-12.6326
醯	-12.6326
洞真天關三圖七星移度經	-12.6327
右出洞真迴元九道飛行羽經	-12.6327
爲末蜜丸如小豆大	-12.6327
侍衛聖君上登玉清金闕之宫次	-12.6327
圏	-12.6327
陰始生而成	-12.6327
合丹成丹鍊金成金飛行玄虛騰景太空	-12.6328
𠂢	-12.6328
四錢姜四片	-12.6328
富國安民	-12.6328
越婢湯	-12.6328
學仙道士常以本命甲子	-12.6328
則以九星爲	-12.6328
、	-12.6328
北帝勑煞	-12.6328
火針七鋥鋥三下	-12.6328
長居无爲衣食自然被受上聖濟度之恩	-12.6329
貎	-12.6329
足小趾外側	-12.6329
嘧	-12.6329
西方七寳金門皓靈	-12.6329
㕮咀以酒四斗漬	-12.6329
刺上記姓名年月於刺下投靈山之嶽	-12.6329
靈之公或號	-12.6329
天皇伽耶霹靂攝	-12.6329
拜長跪願曰	-12.633
祁	-12.633
两	-12.633
中下來降室内須臾化生	-12.633
常以鷄鳴陽光始分	-12.633
上清三天君列紀經	-12.633
天煞地煞年煞月煞日煞	-12.633
䕡	-12.6331
領仙玉郞	-12.6331
三九素語玉精真訣	-12.6331
烏賊魚骨	-12.6331
箔	-12.6331
謝如上法畢叩頭自搏各	-12.6331
止行之三十六年得	-12.6332
櫻	-12.6332
如黍粟	-12.6332
翡	-12.6332
獬	-12.6332
㾦	-12.6332
噪	-12.6332
神降真精	-12.6332
帝自降於寢房迎以	-12.6332
霞飛輪上昇上清宫	-12.6332
太黄翁重	-12.6333
桔	-12.6333
冐	-12.6333
神清氣爽	-12.6333
閽	-12.6333
去爪甲角如韭葉	-12.6333
兩傍各二寸	-12.6333
焱	-12.6334
常令酒氣相	-12.6334
大威德呪	-12.6334
湏	-12.6335
曼	-12.6335
爲微邪雖病即瘥	-12.6335
賊邪大逆十死不治反得	-12.6335
之則生逆之則死	-12.6335
𩲁	-12.6335
羅飛裙腰帶	-12.6335
者復除一病	-12.6335
鎊	-12.6335
左日右月	-12.6335
之人即奏名天王刻書	-12.6335
炕	-12.6335
在足外踝	-12.6336
服五分匕	-12.6336
𠷈	-12.6336
不知加至十丸	-12.6336
巓	-12.6336
舉惡勸捨	-12.6336
蟇	-12.6336
無邊無際無色之氣如是第	-12.6336
檝	-12.6336
憂樂之曲	-12.6336
蛭	-12.6337
咏	-12.6337
醎	-12.6337
鐸	-12.6337
上瑶岑	-12.6337
繭	-12.6337
大同小異	-12.6337
神雷轟轟龍雷作水水雷波翻社令雷	-12.6337
月用事則三分損一而生	-12.6337
塌	-12.6338
天靈節榮願保長生太玄之一守	-12.6338
不欲聞人聲	-12.6338
乘母爲實邪雖病自愈反得	-12.6338
右書一簡上	-12.6338
命魔靈幡	-12.6338
瞠	-12.6338
甲九祖父母生世之日所行	-12.6338
壘之地四音土皇地載周境四	-12.6338
所行罪負上觸天光生死殃對	-12.6338
裸	-12.6338
黛	-12.6338
如逆上清急急如	-12.6339
爲末蜜和丸如梧子大飲服	-12.6339
風鄰月伴	-12.6339
龔	-12.6339
姆	-12.6339
沴	-12.6339
日未出時	-12.6339
㓕	-12.6339
丹景道精隱地八術	-12.6339
四天王恒以八節月朔之日遊觀	-12.6339
并本命日朱書向	-12.6339
輅	-12.6339
一百二十過次師弟子一時左行向	-12.6339
攅	-12.6339
口是心非	-12.6339
然燈思眞轉經解㧞宿罪千咎萬愆願從	-12.6339
菡	-12.634
鋸	-12.634
胇	-12.634
胡燕屎	-12.634
淼	-12.634
仙諸靈官名山大澤一切神靈乞丐	-12.634
踴	-12.634
病聲之候也	-12.6341
尊師答曰謹按	-12.6341
沮	-12.6341
太上太霄琅書經云	-12.6341
春去秋來	-12.6341
萬世不可易也	-12.6341
鯤	-12.6341
書文埋所住嶽	-12.6341
科品齎黄紋之繒	-12.6341
甲九祖父母生存所行元惡醜逆觸犯	-12.6342
其是之謂乎	-12.6342
惜芳時	-12.6342
七言律詩	-12.6342
簸	-12.6342
疰鬼疰	-12.6342
形相比於上	-12.6342
右十三味㕮咀以水一斗煑取三升	-12.6342
太極濛翳天	-12.6342
齦	-12.6342
儂	-12.6342
庾	-12.6342
惺惺洒洒	-12.6342
日入生加	-12.6342
清酒三斗漬	-12.6342
叩齒九通祝曰制萬魔致神仙	-12.6342
穿鬼心破鬼肚	-12.6343
昨宵夢	-12.6343
犒	-12.6343
子自若愚	-12.6343
有金名玉	-12.6343
大洞雌一篇目云	-12.6343
曰同法某甲九祖父母生世之日所行	-12.6343
熛	-12.6343
方安土符	-12.6343
陽始生而成	-12.6343
躑	-12.6344
有表無裏	-12.6344
報天重功	-12.6344
履薄冰	-12.6344
婉	-12.6344
蘘荷根	-12.6344
圜	-12.6344
蹶	-12.6344
錡	-12.6344
依此儀違奪筭	-12.6344
十戒十四持身	-12.6344
瑜	-12.6344
眞誥第七云	-12.6344
神符宣告	-12.6344
西州續命	-12.6344
鋅	-12.6344
三郎霹靂震天地	-12.6344
使者使者速起唵	-12.6344
𠯐	-12.6344
兵馬各九億萬騎	-12.6345
天煞地煞	-12.6345
嚀	-12.6345
戯	-12.6345
倩	-12.6345
上方靈寳无極至道開化真經卷	-12.6345
地司太𡻕	-12.6345
服錢五七	-12.6345
覿	-12.6345
鏑	-12.6345
始學之人名録上言高上帝君録校玄名	-12.6345
湮	-12.6345
牒年月日時牒具位姓某押	-12.6345
簡注上我名於	-12.6345
一處七壯穴在	-12.6345
上會靈寳太玄都玉京	-12.6345
俞二穴在第	-12.6345
太上靈寳淨明洞神上品經	-12.6345
莫不𨽾焉號曰	-12.6345
譔	-12.6345
年月日具位	-12.6346
乂	-12.6346
合明天帝日	-12.6346
可謂得道意矣然	-12.6346
明傳教法師黄元吉編集嗣	-12.6346
鎧	-12.6346
告文右朱書	-12.6346
長生乆視	-12.6346
之中魂充考楚萬痛備嬰長淪萬劫終天	-12.6346
嶽再拜長跪言曰同法	-12.6347
某嶽先生某甲等上啓	-12.6347
寜	-12.6347
瑣	-12.6347
杲	-12.6347
煙消火滅	-12.6347
鏳	-12.6347
出光明上昇天堂衣食自然甲身得道與	-12.6348
書白紙服之	-12.6348
眞人呼日爲	-12.6348
瀾	-12.6348
好生度命天尊至心歸命	-12.6348
丫	-12.6348
誹	-12.6348
逗	-12.6348
淇	-12.6348
篙	-12.6349
病爲瘧者令人	-12.6349
知白守黑	-12.6349
仙風道骨	-12.6349
返老還童	-12.6349
是故古聖賢	-12.6349
疫毒流行	-12.6349
糲食麤衣	-12.6349
䢖	-12.6349
兩傍相去各一寸五分	-12.6349
帝王國主君臣吏民受道法師父母	-12.6349
燧	-12.6349
過去高上玉皇天尊	-12.6349
胃昴畢觜	-12.6349
某甲體眞合仙俯仰遣	-12.6349
至心歸命西方太妙至極天尊至心歸命	-12.6349
垠	-12.635
釜底墨	-12.635
彖	-12.635
雩	-12.635
北方玄上玉晨天尊至心歸命東北	-12.635
攧	-12.635
皇天尊至心歸命下方	-12.635
皇洞神天尊	-12.635
鏤板印行	-12.635
丹陽問何名	-12.635
方無極飛天神王長生大聖無量度人	-12.635
廣靈之堂	-12.635
皇上天尊至心歸命	-12.635
天災自消星宿復位	-12.6351
司馬季主	-12.6351
縞	-12.6351
而直書其銘曰	-12.6351
恙	-12.6351
湍	-12.6351
來迎兆身上昇太清	-12.6351
蓬萊穩路	-12.6351
進道無替位登	-12.6351
磐	-12.6352
嚇	-12.6352
開天門閉地户留人門	-12.6352
庄	-12.6352
蔵	-12.6352
不澤毛折乃死	-12.6352
敝	-12.6352
千頭萬緒	-12.6352
受血而能	-12.6352
惒	-12.6352
女通靈事畢復位萬神潜寧右出金籙經	-12.6352
舘	-12.6353
孳	-12.6353
後聖道君列紀云	-12.6353
糲	-12.6353
攖	-12.6353
泳	-12.6353
頌道爲无心宗一切作福田立功无定主	-12.6353
精麥髓	-12.6353
即得化生始分之中刻書金札以佩身	-12.6353
咽止次噏	-12.6353
此藥神功别有	-12.6353
猖	-12.6353
墾	-12.6354
元帥斷疰大將劉元帥	-12.6354
二二生三三生萬物	-12.6354
皷	-12.6354
其孰能與於此	-12.6354
無胃曰死	-12.6354
玄上太陰八	-12.6354
蚪	-12.6354
𠑽	-12.6354
固天元始之炁佩之	-12.6354
宫中眞皇君頭建	-12.6354
日不可用用之致	-12.6354
場密祝法	-12.6355
如湯沃雪	-12.6355
大逆十死不治	-12.6355
灘	-12.6355
若有一一衆生	-12.6355
諄	-12.6355
隨意述事	-12.6355
多胃少曰	-12.6355
廣建福田	-12.6355
遊山翫水	-12.6355
串	-12.6355
出神入夢	-12.6355
無夢無夢無夢	-12.6355
虚之氣結玉清	-12.6355
冽	-12.6356
繇	-12.6356
鶚	-12.6356
喜遷鶯	-12.6356
栢陵舍	-12.6356
訊	-12.6356
鼻引口吸	-12.6356
糴	-12.6356
寞	-12.6356
御太上无極道前右出明眞經次	-12.6357
坌	-12.6357
藋	-12.6357
煑四五沸	-12.6357
耎	-12.6357
普天率土	-12.6357
臠	-12.6357
諌	-12.6357
譚馬丘劉	-12.6358
𥬇	-12.6358
椅	-12.6358
琅玕華丹	-12.6358
瞀	-12.6358
交靈素綬	-12.6358
漾	-12.6358
也眞誥第	-12.6358
蝟	-12.6359
元明文舉天	-12.6359
大將周元帥	-12.6359
賞善罰惡	-12.6359
左右捧香驛龍騎吏侍香金童傳言散	-12.6359
脗	-12.6359
蹌	-12.6359
絲髮之間	-12.636
漁家傲	-12.636
王王者不受邪	-12.636
迪	-12.636
己應衆生注心莫不均大聖弘至教亦	-12.636
迓	-12.636
星精光口引嚥之	-12.636
距	-12.636
至萬道中王者	-12.636
寸長一尺二寸埋之所住	-12.6361
厖	-12.6362
兜術天	-12.6362
掲	-12.6362
惆	-12.6363
躅	-12.6363
鯢	-12.6363
也過此而下者	-12.6363
固蔕深根	-12.6363
嫂	-12.6363
紫鳳赤書	-12.6363
如君所說皆不合至真	-12.6363
蕭防判	-12.6363
哮	-12.6363
亦當修齋行香誦經	-12.6364
合爲腑其經	-12.6364
嶽幽執	-12.6364
神官侍衛神文營護行符者身	-12.6364
鼓孤眠内守	-12.6364
蛆	-12.6365
虎龍蟠遶	-12.6365
心清意靜	-12.6365
無漏無漏無漏	-12.6365
詆	-12.6365
往古來今	-12.6366
侍側次思	-12.6366
炁周遍一身至	-12.6366
之弟也而爲	-12.6366
蠻雷使者速起	-12.6366
戢	-12.6366
箒	-12.6367
繹	-12.6367
噬	-12.6367
馴	-12.6367
千萬丈秋三月頭建	-12.6367
册	-12.6367
以臘月猪膏	-12.6367
奔日月二景隱文云	-12.6367
羅㬋土宿	-12.6367
繪	-12.6367
㡧	-12.6367
苒	-12.6368
棠	-12.6368
重陽憫化妙行眞人	-12.6368
黿	-12.6369
過中不味	-12.6369
空洞靈章云	-12.637
靊	-12.637
无上正眞之道	-12.6371
洪氏之胞	-12.6371
炁下入身中思行	-12.6371
渇	-12.6372
貺	-12.6372
荔	-12.6373
轟雷掣電	-12.6373
也丹陽又問何者名爲	-12.6373
榦	-12.6374
豁豁洋洋	-12.6374
抬	-12.6375
琰	-12.6376
作禮上白天尊	-12.6377
尚可治急灸	-12.6378
髫	-12.6378
蚕	-12.6379
蜉	-12.638
第二十卷云	-12.638
周窮救急	-12.6381
糶	-12.6382
玃	-12.6383
根皆治戒所得神通故也	-12.6384
軾	-12.6384
企	-12.6384
入胃也其氣	-12.6384
奏真仙名録上言高上帝君	-12.6384
賸	-12.6385
淆	-12.6385
一品二品	-12.6386
金壺碧酒	-12.6387
裕	-12.6388
𢘆	-12.6389
隣	-12.639
靈上光臺	-12.639
敗仙相也	-12.6391
榛	-12.6391
綬虎頭鞶囊或著	-12.6394
渥	-12.6395
之神善能助	-12.6397
願念法門二衆無	-12.6398
灸腎輸百壯	-12.64
經苞之於	-12.6404
紗單衣或爲	-12.6405
方護法神王	-12.6406
乘青牛薄板車	-12.6407
芻	-12.6423
無上玄元運雷副相金闕	-12.6425
不知動入罪網不能自悟	-12.646
紙上服之叩齒九通仰存四土皇姓諱悉	-12.6473
味酸平無毒	-12.6512
隨而記之唯唯	-12.6565
右十一味㕮咀以水九升	-12.7078
和丸如大豆	-12.7193
右十一味㕮咀以水八升	-12.7257
水五升煑取三升	-12.7469
右十一味㕮咀以水一斗煑取三升	-12.7486
虧世世善結縁精思	-12.8135
合眞畢叩頭搏頰各	-12.8179
右十味㕮咀以水一斗煑取三升	-12.8436
者不可必謂其	-12.8767
𥐼	-12.8774
痎	-12.8779
奶	-12.878
之人不能梳理	-12.8782
右總爲細末每服二錢重	-12.8785
稈	-12.8787
關元瀉之尺脉	-12.8793
前受病移於	-12.8793
生病病實則	-12.8794
叠	-12.8795
駝	-12.8796
入二寸留七呼灸三壯在	-12.8796
病少愈而卒死何以知之曰	-12.8797
則陰病陰脉反小於寸口	-12.8797
脫腠理開汗大泄	-12.8799
牯	-12.88
乍來乍去	-12.88
重陽全眞集卷之	-12.88
鱔	-12.88
生凌忽心	-12.88
撾	-12.8801
日之脾閉塞不通身痛體重	-12.8801
俞穴中四穴輪轉周而復始俟蟲	-12.8801
穫	-12.8803
爲末蜜丸如梧子食後服	-12.8803
書此法著紙上	-12.8803
也眞人知之耶唯唯行子已知之矣	-12.8803
㗭	-12.8804
時發得病以	-12.8804
石煑取一石	-12.8804
胡居士云	-12.8805
䜟	-12.8805
啊	-12.8807
癫	-12.8807
小半夏加茯苓湯	-12.8808
玉霞紫映内觀	-12.8808
分三服如人行五里	-12.8808
刖	-12.881
汚	-12.881
交梨火棗	-12.8811
三發喧轟	-12.8811
右七味㕮咀以水九升煑取三升去滓	-12.8811
同煎至八分通口服	-12.8812
三月上建日採	-12.8812
或身即坐或流後生	-12.8812
人門撼地軸	-12.8814
稀稠得所	-12.8814
性光命似油	-12.8814
㕮咀以水七升煑取一升五合	-12.8814
以爲洞極之經	-12.8814
衃	-12.8815
譎	-12.8815
𠺒	-12.8816
皮毛肌膚筋脉	-12.8817
含樞紐	-12.8817
龍虎遶蟠	-12.8818
右十味㕮咀以水八升煑取三升	-12.8818
爲末白蜜和丸如梧子大	-12.8818
上合之時沐浴清齋	-12.8818
右手寸口氣口以前脉陰	-12.8818
右六味合服如	-12.8818
蒸五升米下	-12.8818
拓	-12.8818
欲飛登之法思見	-12.8818
脉養不可針灸其經手	-12.8818
度厄寳命長存符	-12.8818
心痛也厥心痛	-12.8818
續筋接骨	-12.8818
黏	-12.8819
軃	-12.8819
斗煑藥取	-12.8819
罪不除也或身即坐或流後生所以然者	-12.8819
帝玉司道君玄清洞元	-12.8819
鳳臺曲素上經	-12.882
前治陰後治陽	-12.8821
四垂不極不窮无邊无際其土皇常以	-12.8821
蠹	-12.8821
永壽元年	-12.8821
雲錦之袍冠七寳玉冠手執白	-12.8821
之氣通神招真保命長存服之八年則	-12.8821
這是獲罪於	-12.8821
僵	-12.8822
五帝命魔靈旛	-12.8822
爲末蜜丸如梧子酒服五丸日三	-12.8822
紙上投水中沐浴則	-12.8822
崔盧鄧竇四大天丁	-12.8822
駁	-12.8822
之簡思見二	-12.8823
爲我記名於白簡之上結録於青文之	-12.8823
若其腑臟有病從	-12.8823
㙛	-12.8823
取三升分温三服	-12.8823
畢以舌料	-12.8823
羽飛華裙建	-12.8823
𨊧	-12.8823
世界則萬靈束帶魔王稽首禮迎	-12.8823
咽液三十過行之十年	-12.8823
極老人來至授	-12.8823
次又陰咒曰	-12.8823
顯定極風天	-12.8825
咸賜如言	-12.8825
剩	-12.8825
去滓内芒消分三服	-12.8825
後跟骨上	-12.8825
其一帝輒備一門以奉屬於中央	-12.8825
燋	-12.8825
南極上元禁君	-12.8825
字三過畢曰願得與	-12.8825
簡録定名五老仙伯領仙玉郞化入我身	-12.8825
鬨	-12.8825
右五味㕮咀以水九升煑取三升分三服	-12.8825
綰	-12.8825
咒畢以舌䑛	-12.8825
如錐刀所刺	-12.8825
靚	-12.8825
㩉	-12.8826
釤	-12.8826
百壯横三間寸灸之	-12.8826
隨力所堪	-12.8826
悄	-12.8826
如麻豆粒	-12.8826
歘火大神鄧伯温	-12.8826
立春春分立夏夏至立秋秋分立冬冬至	-12.8826
迯	-12.8826
醅	-12.8826
急急如雷霆帝君律令	-12.8826
方萬里之事致	-12.8826
潜洞太虛圍	-12.8826
爲主四物從之先内主擣百杵乃次内	-12.8826
爲帝王良輔善吏	-12.8827
詈	-12.8827
右九味㕮咀以水七升煑取二升	-12.8828
蒞	-12.8828
柈	-12.8828
赳	-12.8828
澇	-12.8828
大黄瀉熱湯	-12.8828
芒盡來入喉中都畢又	-12.8828
土府一切神煞	-12.8828
安魂定魄	-12.8828
更擣三萬杵	-12.8828
黷	-12.8828
方畢次左行向	-12.8828
殟	-12.8828
龍景九鍊之符	-12.8828
以水一斗煑取六升	-12.8828
六壘金剛鐵澤地	-12.8828
扶桑暘谷神王	-12.8828
右二十五味㕮咀	-12.8829
藭	-12.8829
生冷醋滑	-12.8829
千千截首萬萬剪形	-12.8829
川撥棹	-12.8829
憍	-12.8829
櫟	-12.8829
祝畢去手勿復掩	-12.8829
欬經久不已傳入	-12.8829
瀰	-12.8829
臈	-12.8829
烖	-12.8829
右六味㕮咀以水七升煑取二升	-12.883
宙	-12.883
玎	-12.883
第一壘色潤地	-12.883
任人殺活	-12.883
彝	-12.883
螺	-12.883
裩	-12.883
右出眞迹經	-12.883
繒内神杖次	-12.883
出幽入冥	-12.883
願天願地願風願雲	-12.883
始皇孝芒天	-12.8832
傅之乾即易	-12.8832
喊	-12.8832
贈鳳翔府	-12.8832
下迎兆身上昇太清	-12.8832
淮南八公	-12.8832
帝用事三千三百度	-12.8832
恐如人將捕之	-12.8832
素玉女降見兆身通靈知	-12.8832
第二壘剛色地	-12.8832
八鍊丹胎玉符	-12.8832
二轉四煞没	-12.8833
四音土皇地載周境	-12.8833
第三壘石脂色澤地	-12.8833
三稜莪术	-12.8833
藐	-12.8833
四明破骸天猷滅𩔖神刀一下萬鬼自潰	-12.8833
琴棋書畫	-12.8833
願復乞問一	-12.8833
幽玉匱長夜之函普使人天離苦解脫消	-12.8833
玄都大洞三景弟子小兆眞人	-12.8833
聘	-12.8833
萬劫還生不人之道	-12.8833
高上玉晨命魔靈旛主制	-12.8833
者實因法服而得尊重	-12.8834
仁人之用心也	-12.8834
蓴	-12.8835
纈	-12.8835
闍	-12.8835
榰	-12.8835
素梟三神嚴駕䕫龍威	-12.8835
者實因輕慢為人輕賤	-12.8835
逢妖寸斬遇鬼	-12.8835
千乘萬騎之官服之八年則	-12.8835
右五味㕮咀以水八升煑取三升	-12.8835
天騶激戾威北	-12.8835
逆之則亂反順爲逆是謂關格病則生矣	-12.8835
无極元始高上玉帝太眞天尊	-12.8835
爲守藏史	-12.8835
瘡因風致腫	-12.8835
盒	-12.8835
精玉符上清瓊宫	-12.8835
靈入砂内煞邪精北帝敕召	-12.8835
𧷤	-12.8835
中山神呪元始玉文持誦一	-12.8836
却鬼延年按行五嶽八海知聞魔王	-12.8836
死不旋踵	-12.8836
端正端正則和利難傷	-12.8836
哯	-12.8836
戕	-12.8836
内托千金散	-12.8836
日夜半一月三日三時香湯沐浴	-12.8836
盧仝七椀	-12.8836
三十萬兵衞我九重	-12.8836
瀲	-12.8836
蘊	-12.8836
元陰陽變化二符	-12.8836
先服上符後服下符臨服符時叩齒	-12.8836
四萬劫一開道士命屬	-12.8836
钁天大斧斬鬼五形炎帝烈血北斗	-12.8836
帀外黄赤二氣更相纏繞洞映一身夫人	-12.8836
浥	-12.8836
瘃	-12.8836
綠	-12.8836
者足少陰經也病苦	-12.8836
𠻗	-12.8836
第四壘潤澤地	-12.8837
方赤書玉文十二字則	-12.8837
列星亂行	-12.8837
唱人各恭敬	-12.8837
病在上食後服病在下	-12.8837
太陰與陽明爲表裏	-12.8837
諠	-12.8837
璋	-12.8837
怨天咎地	-12.8837
幷	-12.8837
傖	-12.8837
禬	-12.8837
而藏氣通於内外部亦隨而應之	-12.8837
紲	-12.8837
小陽九小百六	-12.8837
瞎	-12.8837
運關三百三十度謂天氣王於	-12.8837
邢	-12.8837
敕呪南方丙丁君流金擲火鈴	-12.8837
竈君殿下玉仙明英童子姹女尊神	-12.8837
菽之重與	-12.8837
三洞飛玄之炁	-12.8838
泆	-12.8839
彪	-12.8839
鈔	-12.8839
色小理者則	-12.8839
驎	-12.8839
日宫太陽帝君	-12.8839
逭	-12.8839
七映紫臺	-12.8839
蕙	-12.8839
南方梵寳昌陽丹靈真老	-12.8839
拘魂制魄	-12.8839
秋之日晡時	-12.8839
嗄	-12.8839
者真文也其餘非也	-12.8839
侍衛勿不精有考吏	-12.8839
向叩齒心存曰	-12.8839
唦	-12.8839
攪勿住手	-12.8839
犍	-12.8839
眞清眞浄	-12.8839
任長淪萬劫終天無解今依盟眞	-12.8839
嶽先生之號生年屬	-12.8839
弟子某甲年若干若	-12.8839
更哩囉出舍郞	-12.8839
月用事則三分益一而生	-12.8839
色鳳章頭戴	-12.8839
行復爲子說	-12.8839
琚	-12.884
憊	-12.884
波黎答惒天	-12.884
煑取六升去滓内	-12.884
忙裏偷閑	-12.884
蒼舌緑齒四目老翁天丁力士威南禦	-12.884
西北極髙之	-12.884
三界九道二十五性色等	-12.884
斬釘截鐵	-12.884
鞅數劫億宗以來逮及某身	-12.884
高上三寳領仙侍郞五方五帝監靈大夫	-12.884
中諸神仙乞丐原	-12.884
九宫眞人神仙玉女	-12.884
摙	-12.884
治在蜀郡界	-12.884
者願見明師不論	-12.884
謹請元應太皇府一炁都綂大將軍	-12.884
荏	-12.884
荅	-12.8841
一十二拜長跪言曰同法	-12.8841
垂恩曲映特見哀原賜	-12.8841
高皇四司五帝十二仙	-12.8841
汧	-12.8841
衣飛青羽	-12.8841
𠲰	-12.8841
賭	-12.8841
卧月眠雲	-12.8841
熔	-12.8841
帝眞符召直符	-12.8841
方宿者當署	-12.8841
晨隱書金玄	-12.8841
軿下迎兆身	-12.8841
百千萬重道炁千二百官君太清玉陛下	-12.8842
一百二十尺或一十二尺金龍一枚歸命	-12.8842
侍香金童散華玉女五帝直符	-12.8842
挹流芳其妙難思議	-12.8842
披髮跣足	-12.8843
槿	-12.8843
軰	-12.8843
篁	-12.8843
姜棗煎服	-12.8843
摧强挫銳	-12.8843
楯	-12.8843
笳	-12.8843
子欲知其審實	-12.8843
仿	-12.8843
砲	-12.8843
辟尸千里祛却不祥敢有小鬼欲來	-12.8843
𠰸	-12.8843
曬	-12.8843
起於一終於十	-12.8843
方赤書玉文十二字右十二字則	-12.8843
无朗朗超十方結空峙玄霄	-12.8843
終南山重陽子王喆譔	-12.8843
奉齋朝天文	-12.8843
撅	-12.8843
真人來見玉女衛形當以	-12.8843
從羌老仙官騰天之騎五千人上詣	-12.8844
玉寳元靈元老帝君	-12.8844
芝英衆眞百靈交會在此香火之前願	-12.8844
蘆芽穿膝之法	-12.8844
畹	-12.8844
飛天人偈頌曰	-12.8844
紳	-12.8844
簀	-12.8844
右十二味爲末蜜和丸如梧子	-12.8844
足小趾次趾	-12.8844
霰	-12.8844
強	-12.8844
昭清覺靜慧	-12.8844
湎	-12.8844
燮	-12.8844
之道也逆之則傷	-12.8844
兵各布星光速助某帥𦋇捕爲	-12.8844
度者在天中度者在神靈小度者在人也	-12.8844
敖	-12.8844
明公所治主	-12.8844
智慧恒觀身學道之所先眇	-12.8844
次復爐法香	-12.8844
長病得之死卒病得之生三部脉	-12.8844
琦	-12.8845
保言晃晃金剛軀	-12.8845
南方玄眞萬福天尊至心歸命西南方	-12.8845
方度仙上聖天尊至心歸命東方玉	-12.8845
未來太極天尊至心歸命玉京玄臺紫微	-12.8845
靜室之中自然生金液丹	-12.8845
胠	-12.8846
疴	-12.8846
不萌枝上	-12.8846
蠎	-12.8846
嶽仙官十二人悉乘	-12.8846
急急如道祖至尊行軍律令	-12.8846
迂	-12.8846
𠺗	-12.8846
區别功過修飛仙之道當以其日	-12.8846
絳章單衣	-12.8846
霞飛輪下降兆房	-12.8846
囉哩㖫哩㖫囉	-12.8846
大而緩者是脾之乘	-12.8846
牘	-12.8846
西北方无量太華天尊至心歸命上方玉	-12.8846
榴	-12.8846
生君司命司録南極度世君	-12.8846
翰寵妙成天	-12.8846
傳言奏事飛龍騎吏等	-12.8846
璀	-12.8847
韮	-12.8847
前頭路險	-12.8847
捱	-12.8847
漣	-12.8847
氲	-12.8847
溷	-12.8847
麯	-12.8847
右八味㕮咀以水六升煑取二升	-12.8847
呤	-12.8847
嚕	-12.8847
以精炁行乎其中	-12.8847
蝖飛蠕動蚑行喘息一切衆生	-12.8847
行年本命衝破厭殺元辰刑害災禍疾病	-12.8847
親同學門人隱居山林學眞	-12.8847
隱地八術	-12.8847
瞪	-12.8848
尓	-12.8848
金書玉字上經云	-12.8848
威靈恢廓	-12.8848
子辛子寅	-12.8848
天飜地覆	-12.8848
貶	-12.8848
三頭六臂	-12.8848
拗	-12.8848
其是之謂歟	-12.8848
嚮不力問	-12.8848
本淨元明	-12.8848
浮大而洪者是心之乘	-12.8848
赤帝丹靈老子太和玉女長生司馬	-12.8848
倶	-12.8848
右在太玄都玉京山元始靈寶	-12.8848
窶	-12.8848
霞之色流光	-12.8848
鳳臺如九天信高上玉晨命魔靈幡	-12.8848
鍜	-12.8848
皤	-12.8849
騎六千人上詣	-12.8849
神仙諸靈官罪結九幽謫役	-12.8849
士農商	-12.885
斝	-12.885
姊	-12.885
嘟	-12.885
本願各由人虚	-12.885
紙襖麻衣	-12.885
縑	-12.885
㾴	-12.885
此謂太過病在外其	-12.885
碩	-12.885
吾奉北極紫微大帝敕	-12.885
嘟咭唎吽吒噠囉噠囉	-12.885
殺愍濟群生慈愛廣救潤	-12.885
消釋乞某身與眞氣合德景福流光萬禍	-12.885
統領天兵隨侍某	-12.885
過想念在法第二戒者守	-12.885
針入三分留七分	-12.885
鞚	-12.885
𨾏	-12.885
𠱸	-12.885
居仙聖自相尋若不信法言胡	-12.885
臰	-12.885
七宿中外諸星官下違	-12.885
秀樂禁上天	-12.885
眵	-12.8851
書三十二字於	-12.8851
駸	-12.8851
旍	-12.8851
禺	-12.8851
忺	-12.8851
咆	-12.8851
斗綱運關	-12.8851
膓	-12.8851
蕕	-12.8851
𡜍	-12.8851
又云有問者曰今	-12.8851
海水帝神王頭建大晨寳明之冠衣	-12.8851
官飛行武騎八千人上詣	-12.8852
挿	-12.8853
㘅	-12.8853
違奪筭三百六十	-12.8853
嶷	-12.8853
致君澤民	-12.8853
鶻	-12.8853
星冠月帔	-12.8853
録形靈丸	-12.8853
俚	-12.8853
反此者病何如而反其氣來	-12.8853
金鉛玉汞	-12.8853
乞迴神駕下降	-12.8853
玉符兆欲致	-12.8853
黥	-12.8853
寳玄臺紫微上宫靈寳至眞明皇道君	-12.8853
舉動施爲平等一心人和神穆行常使然	-12.8853
面酒九再拜曰	-12.8853
年煞月煞	-12.8854
睎	-12.8854
翩	-12.8854
攴	-12.8854
萄	-12.8854
唵嚩𠯲囉㗶囉娑婆薩訶	-12.8854
直赴大羅宫	-12.8854
纜	-12.8854
竺落皇笳天	-12.8854
第八卷云陶弘景字通明魏郡平陽人也	-12.8854
迴天九霄白簡青	-12.8854
籃	-12.8854
太上无極大道至心	-12.8854
急救仙方卷之十	-12.8854
疢	-12.8854
陷起者必有病生	-12.8854
季裁量十四郎	-12.8854
帝玉司君當以立	-12.8854
師所在之方心拜三過願師得	-12.8854
繒佩之九年玉司削兆死過度兆生宫遣	-12.8854
聖文躬心承法恒如對神第九戒者不得	-12.8854
禮行道觀聽法音天王下降萬靈朝焉	-12.8855
願神願仙長生度世飛行上清	-12.8855
直不犯口過第六戒者	-12.8855
酒節行調和氣性神不損傷	-12.8855
徨	-12.8855
捫	-12.8855
鏘	-12.8855
誡第一百八十	-12.8855
鷃	-12.8855
馬劣猿顛	-12.8855
啞將大將李元帥崱額大將趙元帥	-12.8855
嬰嬌女姹	-12.8855
㦬	-12.8855
本願各由人虛	-12.8855
楗	-12.8855
耀明宗飄	-12.8855
聖水玉陽王處一撰	-12.8855
袒	-12.8855
龍景九文紫鳳赤書	-12.8855
冰清玉潔	-12.8855
火鈴又耶赤壁	-12.8855
犯衆惡第七戒者不	-12.8855
玄素紫名	-12.8855
下元符固天炁禳此災度陽九百六之會	-12.8855
曚	-12.8855
曰先順樂動	-12.8855
自然生金液丹碧芝英	-12.8856
劫交天地改易金玉山海人民鳥獸	-12.8856
超超太上仙	-12.8856
深根固蒂	-12.8857
無憎無愛	-12.8857
碁	-12.8857
菒	-12.8857
擯	-12.8857
禎	-12.8857
麻衣紙襖	-12.8857
浣溪沙	-12.8857
闐	-12.8857
宰輔大臣	-12.8857
徽	-12.8857
禋	-12.8857
復言曰我見	-12.8857
向服符先微呼八景陰名飛靈玉符服之	-12.8857
右七味㕮咀以水九升煑取三升分三服	-12.8858
諶	-12.8858
箋	-12.8858
大中至正之	-12.8858
懟	-12.8858
讌	-12.8858
藏機隱密	-12.8858
䙱	-12.8858
閡	-12.8858
鞶	-12.8858
飛行上清騰景九天	-12.8859
水三斗煑取一斗	-12.8859
愔	-12.8859
愜	-12.8859
締	-12.8859
茨	-12.8859
碽	-12.8859
虚生浪死	-12.8859
舉其綱見其始	-12.8859
麪	-12.8859
上清春三月則變形爲	-12.8859
瘮	-12.8859
頭建九元通天	-12.8859
魁𩲁𩵄䰢魓𩳐魒	-12.8859
拿	-12.886
萬苦千辛	-12.886
玄明恭華天	-12.886
至眞諸君丈人无極天尊願垂曲恩降賜	-12.886
觀明端靖天	-12.886
願得太上十方正眞之炁來入	-12.886
姮	-12.8861
左輔右弼	-12.8861
抃	-12.8861
常清常静	-12.8861
朢	-12.8861
洞玄太極隱注經	-12.8861
之氣覆冠我身若之	-12.8861
千人衛我前後以	-12.8861
方之騎神持	-12.8861
檠	-12.8861
玉姹金嬰	-12.8861
等得仙身生紫絡羽文	-12.8861
素語内祝第	-12.8861
恩十方玉童玉女侍衛香煙傳奏所	-12.8862
乃獨行真道而不言故能	-12.8862
挐	-12.8862
惟一日也如此法三年一埋不年年	-12.8862
桐板上記年月日子某郡某縣	-12.8862
萬民之罪福也	-12.8862
玉女五帝直符各三十六人	-12.8863
向服之行事訖朱書符	-12.8863
絲纏之著符投	-12.8863
堦	-12.8864
旒	-12.8864
宿右八天位在	-12.8864
哄	-12.8864
寨	-12.8864
凈明忠孝全書卷之	-12.8864
雲錦之囊	-12.8864
絜	-12.8864
右出洞玄隱注經	-12.8864
蕖	-12.8864
桴	-12.8864
爲之亦言足	-12.8864
鬬	-12.8865
右出洞真九眞中經	-12.8865
吳	-12.8865
風花雪月	-12.8865
偯	-12.8865
廣寧子郝大通撰	-12.8865
褰	-12.8865
犁	-12.8865
▁至心信禮	-12.8865
塋	-12.8865
戊辰戊戌	-12.8865
錦衣之百日	-12.8865
山君无不降見於兆形也太上	-12.8866
趄	-12.8866
曖	-12.8866
劉凝之字志安小名長年南郡枝江人也	-12.8866
簮	-12.8866
一切衆生各有縁品	-12.8866
之日朱書桐板之上令廣	-12.8866
在犍爲郡南安縣去成都一百	-12.8866
筏	-12.8866
胝	-12.8866
常浄常清	-12.8868
𡨋	-12.8868
咷	-12.8868
牲	-12.8868
盾	-12.8868
鬱察山浮羅之嶽	-12.8868
櫃	-12.8868
藥圃芝田	-12.8869
庻	-12.8869
九還七返	-12.8869
仃	-12.8869
改頭换面	-12.8869
霹靂金光速現形	-12.8869
盱	-12.8869
呆	-12.8869
蜩	-12.8869
金鼎一溪雲	-12.8869
神州七轉七變經云紫晨	-12.8869
絁	-12.8869
蕃	-12.887
闈	-12.8871
柒	-12.8871
湫	-12.8871
贄	-12.8871
儹	-12.8871
愚生甚畏之子知畏	-12.8871
混混沌沌	-12.8871
蔑	-12.8871
壹善壹惡爲	-12.8871
罪福縁對㧞度上品	-12.8871
㑺	-12.8872
毒不去其根在	-12.8872
氣八節中立	-12.8872
也但存思服御依節行之爾九年	-12.8873
白芭蕉	-12.8873
不肯受因留結爲積故知	-12.8873
覈	-12.8873
侶	-12.8873
撆	-12.8873
星往守之行	-12.8873
面建十法座	-12.8873
輻	-12.8875
長春子丘公	-12.8875
技	-12.8877
之女也而曰	-12.8878
日煞時煞	-12.8879
愕	-12.8879
輕泄漏慢	-12.8879
上九天帝王神君衆仙靈官心存九再拜	-12.8879
大唐陸誨羽客王縣河修	-12.888
䘙	-12.888
或有恊僞	-12.8882
日及本命日	-12.8882
里中迴眞下映入兆	-12.8882
駞	-12.8883
睠	-12.8883
涂	-12.8884
汹	-12.8884
捍	-12.8886
紬	-12.8886
騫華樹下	-12.8886
薙	-12.8886
觔	-12.8886
來而久住者病在	-12.8886
十投而一止者	-12.8886
酆都紏察司	-12.8886
輸百壯服續命湯若	-12.8887
旄	-12.8889
儼	-12.889
蠆	-12.889
雲之中當叩齒	-12.889
濳	-12.889
訂	-12.889
臟無氣却後	-12.889
言聽動觀	-12.8891
絛	-12.8891
籤	-12.8894
犗	-12.8894
狎	-12.8894
琯	-12.8895
荊	-12.89
俸	-12.8901
德具足者四迷	-12.8902
唎勑吒娑訶吽	-12.8905
甸	-12.8909
品混沌一炁都雷	-12.8911
鵷	-12.8914
天上天下如此種種	-12.8915
厪	-12.8925
察使鐵雷師行便冝事五品	-12.8927
三徧兩手相叉	-12.8929
有若干千億萬衆	-12.893
彈子大每服一丸	-12.8931
芘	-12.8934
乞身生天受福南	-12.9703
北方洞陰朔單鬱絶五靈玄老君	-13.1759
自隨而記之	-13.1821
三月行道思神招靈以	-13.185
來輔某身乞解除先世	-13.1973
時帝君太一五神混合變化爲一大神	-13.2054
桞	-13.206
之三皇其優者若	-13.2074
其優劣相懸如此矣	-13.2075
七轉七變儛天經	-13.2082
合前成四兩半	-13.2085
之五帝其優者比若四分	-13.2087
娠	-13.2091
袍金甲朱履	-13.2097
局右手劒訣叉腰	-13.2097
淳善信奉正真	-13.2102
牛拽車車中載寶	-13.2102
之三王其優者比若四分	-13.2106
枋	-13.2112
薯	-13.2116
急急如髙上神霄真王律令	-13.2116
解毒生肌定痛散	-13.2118
則陽病陽脉反逆大於寸口	-13.2118
品八治也第	-13.2118
𦛗	-13.2118
之五霸其優者比若四分	-13.2118
捧香驛龍騎吏侍香金童	-13.2119
糊爲丸如菉豆大	-13.2122
髙上神霄玉清真王律	-13.2122
奰	-13.2122
靈寳真一自然經訣云	-13.2123
瘋	-13.2123
以能生爲義謂能生	-13.2123
腸實而胃虚	-13.2124
名爲大洞極天之政事	-13.2124
灰臘月猪膏和傅	-13.2126
玕	-13.2127
真而爲說法果後而見是真若欲見	-13.2127
垓	-13.2128
蜆	-13.2129
右二味以水六升煑取二升分	-13.2129
日二十四日二十八日二十九日三十日	-13.213
芹	-13.2131
麑	-13.2131
㕤	-13.2131
痏	-13.2131
來聞吾住即	-13.2131
蹋	-13.2131
䜴	-13.2133
枸	-13.2133
漩	-13.2133
癜	-13.2133
柘	-13.2135
嘔多涎沫氣下泄不療	-13.2135
服符存使者真形守	-13.2135
麄	-13.2137
唵吽吽三檀那韓難延乾夷勑	-13.2137
符舊文出太上變化空洞第	-13.2137
放猿兒耍	-13.2137
一轉收城隍二轉	-13.2137
袍着靴手執	-13.2137
火律令大神鄧天君	-13.2139
販骨幾千遭	-13.2139
帝靈寳赤書玉篇文上	-13.2139
爲末蜜和丸如梧子大空腹服	-13.2139
隠	-13.2141
針關元補之尺脉	-13.2141
抓	-13.2141
髖	-13.2141
惔	-13.2142
不出四百日内促則	-13.2143
應增損斟酌賒促賒	-13.2143
肶	-13.2143
帀一室存五老仙伯在	-13.2143
昻	-13.2143
泚	-13.2143
桄	-13.2143
堊	-13.2144
休否則藏神前變形於外人	-13.2145
凭	-13.2145
𠻳	-13.2145
澠	-13.2145
也靈寶齋戒威儀經訣下云	-13.2145
若在一轉而行精進心不懈退	-13.2145
踒	-13.2145
三月西華虛皇君則變形	-13.2145
右三十六三次右六十	-13.2145
先取譩譆後取天牖風池	-13.2147
太上律令猛吏銀牙	-13.2147
日二月八日三月	-13.2147
今當反神還乎	-13.2147
寳名宫府鄕居服御靈符	-13.2147
㕮咀以水一斗二升煑取四升分五服	-13.2147
二輸主治丹毒	-13.2147
天皇地皇人皇大字	-13.2147
左癱右痪	-13.2147
却用烏龍角貼	-13.2147
愬	-13.2147
𩆝	-13.2149
㕮	-13.2149
乘萬騎之官服符修行八年則高上感悅	-13.2149
旙	-13.2149
清信弟子皆與勇猛飛天齊功	-13.2149
飛天未得道者也是道十轉弟子	-13.2149
全不産及斷緒	-13.2149
念前呪書符符成吸將	-13.2149
恣忿縱欲	-13.2149
成符存符成將立	-13.2149
此天自然之法也故	-13.2149
治下篩空心酒服方寸七日三治漏下去	-13.2149
看人人生人皈依鬼擯伏邪不干其正以	-13.2149
考對在兆形永與	-13.2149
食先吐而後下	-13.2149
玉童九人給兆通靈召八景	-13.215
傴	-13.215
猿顛馬劣	-13.215
瘼	-13.215
襌	-13.2151
殠	-13.2151
蜒	-13.2151
七升煑取二升半去滓内膠令烊分三服	-13.2151
拘校上古中古下古文	-13.2151
璹	-13.2151
世間法及出世法	-13.2151
以我簡録付監真使者定録	-13.2151
畋	-13.2151
累累如貫珠	-13.2151
㕮咀以水一斗二升煑取四升去滓内	-13.2151
七政八靈太上皓兇長顱巨獸手把	-13.2151
九靈太妙龜山元	-13.2151
紅時紅似猩猩血	-13.2151
至殿下九拜	-13.2151
諛	-13.2151
雲輿羽蓋給兆飛行右	-13.2151
齪	-13.2151
書白紙男先服後服	-13.2152
君太上丈人皇上老君皇上丈人青靈上	-13.2152
廖	-13.2152
清和眞人尹志平撰	-13.2152
渌	-13.2153
譛	-13.2153
宫畢又向星微祝曰	-13.2153
日九月三日十二月四日一年四過	-13.2153
撑	-13.2153
窬	-13.2153
暦	-13.2153
無石斛栝蔞地骨桑	-13.2153
書白紙女先服後服	-13.2153
馺	-13.2154
王嚴駕䕫龍坐騎飛虎獅子白𤢟獬	-13.2154
火炎雷烈火九天	-13.2154
下情無任激切	-13.2154
服明丹之華挹扶晨之	-13.2154
繿	-13.2154
駱	-13.2154
髮白反黑齒落	-13.2154
灸三焦輸隨年壯	-13.2154
下布星光𦋇捉爲禍鬼神無致逃形	-13.2154
二三四五六七八九十十一十	-13.2154
五惡寂住停	-13.2154
從生得道從道得仙從仙得	-13.2154
步爲法其次廣	-13.2154
眞人知之耶唯唯子已知之矣	-13.2154
謝如上法畢叩頭自搏各一十二過謝	-13.2155
淖	-13.2156
王飛霄之曲瓊文帝章	-13.2156
噠哪吽吽咭唎攝	-13.2156
綆	-13.2156
之中其道畢修養	-13.2156
十丸日再稍加至二十丸	-13.2156
呑	-13.2156
歷劫辛苦无由解脫	-13.2156
玄運來相征	-13.2156
破廟大將翟世寧	-13.2156
趺陽脉浮而澀浮	-13.2156
右十一味㕮咀以水二斗煑取	-13.2156
一故能致瑞應也諸	-13.2157
善者致善惡者致惡正者致正邪者致邪	-13.2157
瑞者清也靜也	-13.2157
端正清靜至誠感天無有惡意瑞應善物	-13.2157
自然之術無可怪也故人	-13.2157
胗	-13.2158
十丸日二加至五十丸	-13.2158
䏚	-13.2158
初生於自然虛洞之中虛皇玉帝受之於	-13.2158
炖	-13.2158
瑑	-13.2158
雛	-13.2158
伏望聖慈允	-13.2158
匃	-13.2158
𨤲	-13.2158
妹	-13.2158
将	-13.2158
帝招靈致真攝魔之符	-13.2158
𥊺	-13.2158
吾在壇前立待報應	-13.2158
婦人絶嗣不生	-13.2158
斸	-13.2158
潦	-13.2158
石精金光藏景録形	-13.2158
礎	-13.2158
雷二雷三雷四雷五	-13.2158
𨚧摩坦婁于翳天	-13.2158
丁督轄法中某將搜捉爲禍	-13.2158
亦不須爲其悉說也	-13.2158
味爲末蜜和擣五千杵丸如梧子大	-13.2158
睆	-13.2158
者常願發心為	-13.2158
𡼳	-13.2159
思神念真燒香然燈清齋靜室乞得滅除	-13.2159
如此之罪咸乞	-13.2159
每服五錢水二盞	-13.216
憁	-13.216
洞玄靈寳八仙王教誡經	-13.216
辯夫曰受恩更問餘解如天尊所說	-13.216
鰥	-13.216
无窮无境无邊无際皆綱維之	-13.216
遙	-13.216
嗛	-13.216
古者聖帝明王	-13.216
楚些招魂	-13.216
治下篩酒下方寸七日	-13.216
它	-13.216
涿	-13.216
蒓	-13.216
人而授勿泄眞文	-13.216
功徳資被群生離苦	-13.216
汰	-13.216
願陰願陽願太空願太无	-13.216
今檄起太乙火府某將及本	-13.216
書丹字六音授於兆身便引黄氣二十四	-13.216
浮偽不奉正真	-13.216
七十二光奇毛異骨飛羽衣裳乘	-13.2161
誦經行道解㧞宿愆謝罪三元上求神仙	-13.2161
麓	-13.2162
兑	-13.2162
駑	-13.2162
爲此諸病盛則瀉之虛則補之	-13.2162
玉皇上帝律令勑右	-13.2162
覘	-13.2162
龍飛奔都天五將噉雷發聲飛	-13.2162
以水一斗二升煑取六升去滓	-13.2162
竹籬茅舍	-13.2162
並頽雲三角	-13.2162
劒神王斬邪滅蹤紫炁	-13.2162
鬽	-13.2162
人人有分箇箇圓明	-13.2162
冼	-13.2162
啟	-13.2162
歲一周子亦是也	-13.2162
精兵前去地頭	-13.2162
螂	-13.2162
隷	-13.2162
丈人太一君太一丈人	-13.2163
若天中等分墓色應之必死不治看	-13.2164
敢當不伏順行	-13.2164
百谷沸騰何	-13.2164
移根風輪左轉火車右	-13.2164
喋	-13.2164
見者入地萬丈化作飛灰古木惡廟永劫	-13.2164
大魔王束帶稽首禮迎仙官侍衛入	-13.2164
百日真人降形仙人詣房授子神真	-13.2164
經入室百日與神人共言三年室生自然	-13.2164
繒九寸佩身八年帝	-13.2164
混化君冠服太上神仙洞	-13.2164
竽	-13.2164
雨陣所至川流洪	-13.2164
魁罡之下無動無作	-13.2164
𡂑	-13.2164
𦔳	-13.2164
右九味爲末蜜丸如梧子酒服二十丸	-13.2164
積七千年其文	-13.2164
同一路初不傾邪看	-13.2164
故遺吾下具	-13.2164
有五行亦自有隂陽	-13.2164
櫓	-13.2164
氣止修之九年則	-13.2164
畢嚥氣二十四過止又丹書	-13.2164
符命謹當告下右符到奉敕如前謹檄太	-13.2164
門丞户尉	-13.2164
飊	-13.2164
努	-13.2165
河四海九江水帝十二河源河伯河侯河	-13.2165
硃	-13.2165
蝸角蠅頭	-13.2166
檗	-13.2166
味爲末蜜丸如梧子大酒服五丸日三	-13.2166
鍳	-13.2166
掇扶桑之丹椹	-13.2166
𢠾	-13.2166
趯	-13.2166
吽吒唎唻吔娑訶	-13.2166
咺	-13.2166
峨峨皇極觀赫赫瓊林房	-13.2166
胸憑仰息	-13.2166
贈濬州王三校尉	-13.2166
還向月建平坐叩齒三十六通閉眼存呼	-13.2166
面誦太空之章一	-13.2166
九天魁罡雲路追捉	-13.2166
刈	-13.2166
子丑寅卯辰巳午未申	-13.2166
曙	-13.2166
氊	-13.2166
黜妻屏子	-13.2166
九色龍錦羽裙腰帶流金火鈴虎符龍書	-13.2166
五色飛驎執九色之節	-13.2166
灸第七椎兩傍各	-13.2166
稽首頓首再拜	-13.2166
而去者謂之地下主者	-13.2166
光色沌沌	-13.2166
入室燒香北向九拜朝禮玉天畢北向	-13.2166
六十日至百日兒一服二合半	-13.2166
周易參同契簡要釋	-13.2166
地煞年煞月煞日煞時煞一切	-13.2166
帝小陽九小百六天氣勃於	-13.2166
早賜靈批隨願	-13.2166
朝入希林宇夕宴丹微房	-13.2166
止便服紫書丹字行此道八年夫人授兆	-13.2166
洞真黃氣陽精三道順行經	-13.2166
浴兒避眼及陰	-13.2166
脈	-13.2166
龍飛尺素隱訣云	-13.2166
獺	-13.2166
以棘刺橫人行道	-13.2167
瘲	-13.2168
殖	-13.2168
真形五藏神君各保安寧急急如	-13.2168
蕺	-13.2168
云口是禍之門我道舌爲禍本根不語無	-13.2168
西方七寶金門皓靈	-13.2168
乗天丹霞赫衝吞魔食鬼横身飲風	-13.2168
啨	-13.2168
七千年聽得三傳	-13.2168
木郎太乙三山雄	-13.2168
霹靂破石泉源通坤	-13.2168
伐非神光所照萬鬼俱摧流鈴急召雷火	-13.2168
夫色慾敗事	-13.2168
正炁蕩滌凶邪	-13.2168
自然之號考官所治普統	-13.2168
軔	-13.2168
不極不窮无邊无際无色之氣如是第	-13.2168
仁賢明儒道術聖智	-13.2168
前三三與後三三	-13.2168
右師弟子對齋九十日或三十日洞	-13.2168
字於青紙上露於中庭	-13.2168
寳香一炷十方肅清法鼓三通萬神咸	-13.2168
嵇	-13.2168
投一枚於釜中祝曰	-13.2168
數亦終於十	-13.2168
玄都丹臺白玉金	-13.2168
行天下有學仙行道朝禮諸天燒香誦經	-13.2168
籠飛鳥走獸	-13.2168
室壁奎婁	-13.2168
帝君太帝丈人九老仙都君九炁丈人	-13.2169
東極老人青華大神上相司馬青童	-13.2169
治百萬人仙可待	-13.2169
无心宗一切作福田立功无定主	-13.2169
眶	-13.217
則肉腐爲膿	-13.217
味辛温濇無毒	-13.217
兆身役使仙官取自然靈藥又以	-13.217
藎	-13.217
善哉子之難也得其意然	-13.217
鴿	-13.217
三年審定尅見真	-13.217
吱	-13.217
昺	-13.217
顰	-13.217
十五年身有玉光内外洞徹長生天地	-13.217
太上靈寳無量度人上品妙經云	-13.217
洸	-13.217
真晨嬰之冠三角結餘髮散之垂腰上著	-13.217
矚	-13.217
社謀者天地四時社稷山川祭祀	-13.217
天德值合之時	-13.217
槊	-13.217
皇上清无崖无極空洞之	-13.217
陁	-13.217
𡺿	-13.2171
惟太上善人之爲行也乃	-13.2171
七元擎持玉案對立臣	-13.2171
仙兵馬騎乘各九億萬衆一合	-13.2171
天尊言修奉清戒每合天心常行大慈願	-13.2171
仙得仙合丹成丹鍊金成金	-13.2171
故天地未分之時積氣都	-13.2171
昇入无形與三寳齊輪	-13.2171
煦	-13.2172
在手小指外側本節	-13.2172
夕噏三晨光	-13.2172
𠷉	-13.2172
焜	-13.2172
壮	-13.2172
耘	-13.2172
人得見之壽長久	-13.2172
五光七白靈蔬者薤菜也白素飛龍者	-13.2172
吩	-13.2172
浚	-13.2172
玉液一名飛龍雲腴一名鍊五石之華膏	-13.2172
絳囊盛帶	-13.2172
耀天之麾五帝五色元皇太眞	-13.2172
長齋奉戒自得度世	-13.2172
霔	-13.2172
龍功曹冠帶羽服金眞鳳章神仙使者交	-13.2172
三月九元上虛皇君則變形爲	-13.2172
回後天而先天復有名而無名	-13.2172
在九天天關之上有	-13.2172
寳君是我第	-13.2172
治身何如及治萬民	-13.2172
無色根雲層峨峨唯有元始浩劫之家	-13.2172
皆受書爲地下主者	-13.2172
紙上服之叩齒十二通微咒曰	-13.2172
經也拘校上古中古下古	-13.2172
罪不除何其重也	-13.2172
贔	-13.2172
身影却嫌多	-13.2172
飛行玄虛上昇玉清	-13.2172
今故燒香自歸高上至極天尊得道之後	-13.2172
金仙玉童太華玉女	-13.2172
不退可得㧞度五道不履三惡	-13.2173
大賢樂經戒受之爲身	-13.2173
慊慊尊教不	-13.2173
極將更死痛惱吾故及弱齡棄世以學道	-13.2173
上十方香從東方起周下方如上法還西	-13.2173
乘素雲瓊輿	-13.2173
沂	-13.2174
呶	-13.2174
囷	-13.2174
禇	-13.2174
灸脾募百壯	-13.2174
而短者是肺之乘	-13.2174
鋌	-13.2174
癸卯歲寧海州東牟鄉貢進士	-13.2174
租	-13.2174
五老寳經及十二願玄母八	-13.2174
罵	-13.2174
玉池東盟威聖者	-13.2174
弧	-13.2174
急急如玄天上帝律令	-13.2174
派弟子徐慧校正玉真先生語錄	-13.2174
發之治王八十年第	-13.2174
軍中方掞口	-13.2174
金液丹精芝英神仙交會齋堂洞映	-13.2174
化毒散血拔毒散	-13.2174
南天大聖衆至眞尊神无極大道南上	-13.2174
埴	-13.2174
太上靈寳淨明玉真樞真經	-13.2174
尢	-13.2174
就此文中分爲三别第一	-13.2174
年中一過如此經四十五日乃止順行至	-13.2174
殳	-13.2174
治身何如及以治萬民	-13.2174
胱	-13.2174
一分爲二成夫婦天下施於地懷妊於玄	-13.2175
應衆生注心莫不均大聖	-13.2175
高上玉晨太上大道君萬仙上聖无極	-13.2175
魂受考撻諸痛備嬰長淪萬劫終天	-13.2175
瘭	-13.2175
矓	-13.2176
南方梵寶昌陽丹靈	-13.2176
弛	-13.2176
老尊神諸天帝皇妙行真人	-13.2176
丕	-13.2176
五千文十緯經第五云	-13.2176
常以月一日三日五日	-13.2176
幈	-13.2176
飛丹紫華流精	-13.2176
坂	-13.2176
日先服下符後服上符	-13.2176
神符第三玉訣第四靈圖第五譜録第六	-13.2176
聲九州社令一一呼名誅	-13.2176
裛	-13.2176
郢	-13.2176
閉塞濁炁混凝	-13.2176
之策從青帝胡老之官飛行甲騎	-13.2176
乘會當體道眞右出仙公請問經次出道	-13.2176
五勞六極七傷	-13.2176
勾婁吉利	-13.2176
千和萬合自然成真	-13.2176
唵吽吽衆神稽首邪魔皈正敢有	-13.2176
太上靈寳淨明道元正印經	-13.2176
太乙火府分司本司	-13.2176
惡獲罪不輕	-13.2176
敎	-13.2176
洞神三皇符圖玉字若受眞文可云靈	-13.2176
煎令沸三上三下	-13.2176
祓	-13.2176
罪根功德開度建齋燒香請謝十方願爲	-13.2176
蘩	-13.2176
部領仙通隨侍某帥真君	-13.2176
隱文知者飛昇	-13.2176
硫	-13.2176
菩	-13.2176
甲子甲戌甲申甲午甲辰甲寅	-13.2177
九玄元父太虛玄母元始天王高上玉虛	-13.2177
實通有有竟不有无无无不	-13.2177
而爲說法而如所願若欲	-13.2177
大大則虛虛則寒	-13.2178
鰲	-13.2178
燒鐵令赤投	-13.2178
收心不放馬猿顛	-13.2178
唵吽吽兠術梵應雷轟攝	-13.2178
崛	-13.2178
訖自此以下是大叚第	-13.2178
喏	-13.2178
百八十戒三百大戒	-13.2178
三皇内文天文大字	-13.2178
社里邑君	-13.2178
哧	-13.2178
囉娑婆薩訶	-13.2178
律第七威儀第八方法第九衆	-13.2178
扶植綱常	-13.2178
東海東華玉妃渟文期	-13.2178
碪	-13.2178
謇	-13.2178
釡	-13.2178
𠰉	-13.2178
𤙖	-13.2178
㶟	-13.2178
三十二天帝君玉京玄都紫微	-13.2178
上宫至心歸命一切眞仙得道聖衆右出	-13.2178
億曾萬祖父母伯叔兄弟	-13.2178
光明上昇天堂衣食自然甲身得道上與	-13.2178
取八升去滓内藥煑取	-13.2178
右出明眞經次復爐法香	-13.2178
坊州曹解元	-13.2178
幔	-13.2178
恡	-13.2178
悰	-13.2178
惡者死慈善者生	-13.2178
搜捕天魔地妖龍精虎怪爲禍妖孽𡨚親	-13.2178
文中分爲五别第一	-13.2178
曵	-13.2178
畢仰嚥八氣止行之八年	-13.2178
畢師弟子一時左	-13.2178
病爲治餘病非對	-13.2178
瘞	-13.2178
發金容體映玉光五色紫章七十二變精	-13.2178
百日至二百日一服三合	-13.2178
與天共事治無窮極之術也長相與	-13.2178
道生一一生二二生三三生萬物	-13.2178
右出洞真太微黄書經	-13.2179
二人左右龍虎騰天羽騎二十四萬衆飛	-13.2179
无形與道合眞次	-13.2179
西北上方三十二拜	-13.2179
鬼所不放億罪兆過觸犯三元百八十條	-13.2179
靈狼牙猛吏流金火鈴	-13.2179
以戒掩目若聞好惡之言	-13.2179
所不宜聞所不宜言所不宜用	-13.2179
坰	-13.2179
太上靈寳首入淨明四䂓明鑑經	-13.2179
玉胎瓊液之膏	-13.2179
蚣	-13.2179
蜮	-13.2179
䪼	-13.218
曰萬法皆空一誠爲實	-13.218
痤	-13.218
尔	-13.218
復譽於俗事也	-13.218
心呪出將入符	-13.218
開明三景是爲天根上無復祖唯道爲身	-13.218
頴	-13.218
上清九眞中經内訣云	-13.218
倬	-13.218
周行天下司察善惡功過輕重列言	-13.218
垛	-13.218
煙浪雲濤	-13.218
百二十曹陰陽水火左右中宫考吏之罪	-13.218
翺	-13.218
舞又欽古先生	-13.218
蒙恬造筆	-13.218
陽動則陰隨氣運則血行	-13.218
隨功受賞進品上秩復諸天位謹上啓聞	-13.218
雷水火雷電霄雲天丁官將諸部吏兵	-13.218
之日列奏真仙	-13.218
右出洞玄元始五老赤書玉篇經	-13.218
今故燒香願以是功	-13.218
明旦晨曉依法行道續更啓聞	-13.218
貴生鬼道貴終	-13.2181
偏傾偏傾則	-13.2181
嫗	-13.2181
徤	-13.2181
鏃	-13.2181
滇	-13.2181
[...]
