<unk>	0
<s>	0
</s>	0
,	-1.89819
。	-3.38899
、	-3.39589
:「	-4.48527
!	-4.51386
者	-4.88788
。」	-4.89222
?	-5.04199
時	-5.26777
不	-5.30605
有	-5.3298
彼	-5.41835
;	-5.42805
爾時	-5.44185
:『	-5.44574
已	-5.51535
為	-5.52921
如是	-5.53238
我	-5.59051
。「	-5.70001
世尊	-5.75095
行	-5.82342
於	-5.85596
?」	-5.87542
言	-5.8768
若	-5.88113
曰	-5.88429
比丘	-5.89153
是	-5.89172
此	-5.89972
。』	-5.9013
法	-5.9075
故	-5.93722
生	-5.94866
:	-5.9551
諸比丘	-5.97791
以	-5.98342
之	-6.05006
無	-6.08883
人	-6.11291
身	-6.13756
得	-6.14249
見	-6.17872
而	-6.2206
心	-6.25079
受	-6.26478
如	-6.26781
所	-6.26951
也	-6.27502
中	-6.27931
其	-6.28496
便	-6.37486
說	-6.38403
當	-6.38777
耶	-6.3879
王	-6.39894
云何	-6.40169
汝	-6.40496
欲	-6.4115
及	-6.4151
阿難	-6.4266
▁	-6.42889
一時	-6.48457
謂	-6.49721
如來	-6.50388
亦	-6.53039
知	-6.55196
諸	-6.55503
即	-6.56413
佛	-6.58618
意	-6.59768
是時	-6.60066
一	-6.61739
何	-6.61824
樂	-6.62555
自	-6.63485
從	-6.63557
復	-6.67557
作	-6.68814
想	-6.69607
苦	-6.70806
住	-6.72489
非	-6.72595
食	-6.72629
大	-6.7274
至	-6.72784
名	-6.73702
天	-6.73905
善	-6.74074
或	-6.74498
道	-6.76252
與	-6.76471
在	-6.76974
聞佛所說	-6.78083
色	-6.78711
盡	-6.79142
處	-6.79655
念	-6.83523
出	-6.83733
婆羅門	-6.84055
皆	-6.8628
復次	-6.88512
來	-6.88966
令	-6.89346
歡喜奉行	-6.90594
相	-6.92547
上	-6.93337
如是我聞	-6.93517
等	-6.94601
梵志	-6.95775
能	-6.96282
乃至	-6.96684
無有	-6.97886
語	-6.98407
滅	-6.99565
問	-7.00569
眾	-7.00599
起	-7.01825
觀	-7.01923
今	-7.02205
一切	-7.02852
識	-7.03478
聞	-7.04206
入	-7.04706
三	-7.0811
施	-7.08207
四	-7.08268
是故	-7.11082
應	-7.11331
事	-7.11748
斷	-7.12806
則	-7.13199
多	-7.13273
常	-7.14273
眾生	-7.15112
因	-7.15181
二	-7.15222
取	-7.16119
是謂	-7.16895
於是	-7.17893
世間	-7.18739
沙門	-7.19068
使	-7.20275
可	-7.20289
答曰	-7.20586
死	-7.21065
離	-7.21366
?』	-7.21593
捨	-7.21973
白佛言	-7.22186
白	-7.22647
本	-7.22779
持	-7.22926
所以者	-7.24671
惡	-7.2473
我今	-7.26033
止	-7.29952
地	-7.30057
水	-7.30149
覺	-7.31087
著	-7.31279
世尊告諸比丘	-7.31483
解脫	-7.31947
求	-7.32231
經	-7.32322
修	-7.3321
所謂	-7.35098
清淨	-7.3644
義	-7.37665
戒	-7.38769
瞿曇	-7.4044
愛	-7.40558
是名	-7.41877
去	-7.42676
長者	-7.43578
坐	-7.44274
下	-7.44359
子	-7.45233
習	-7.45535
報	-7.45581
隨	-7.45673
俱	-7.46842
善哉	-7.47145
耳	-7.47219
定	-7.47997
勝	-7.48047
向	-7.48503
供養	-7.49737
正	-7.50823
極	-7.50862
(	-7.51808
我等	-7.53005
亦不	-7.53534
後	-7.5492
具足	-7.55683
前	-7.55787
五	-7.55902
力	-7.56124
諸賢	-7.56326
然	-7.56679
火	-7.56772
又	-7.5713
業	-7.57464
智	-7.58413
成	-7.58691
若有	-7.589
具	-7.59133
大王	-7.59172
答	-7.59654
還	-7.60498
淨	-7.60688
成就	-7.60892
六	-7.61285
教	-7.61874
汝等	-7.62528
少	-7.62679
思惟	-7.63579
!」	-7.64062
喜	-7.64551
病	-7.64699
明	-7.65437
弟子	-7.65733
口	-7.65837
無量	-7.66463
信	-7.66652
七	-7.66753
緣	-7.67593
共	-7.6803
不得	-7.68639
論	-7.69013
佛言	-7.69046
過	-7.6952
因緣	-7.69583
師	-7.69634
利	-7.69966
佛說此經已	-7.70161
他	-7.70549
佛住舍衛國祇樹給孤獨園	-7.71048
歡喜	-7.71463
諸天	-7.71613
空	-7.71699
猶如	-7.71721
各	-7.71751
內	-7.72284
慧	-7.73633
願	-7.73703
尊者	-7.73744
依	-7.73807
先	-7.73935
現	-7.7411
沙門瞿曇	-7.74183
當知	-7.74321
度	-7.74714
學	-7.748
。」「	-7.75557
是為	-7.75815
世	-7.76213
衣	-7.7738
世尊告曰	-7.77446
不知	-7.77589
智慧	-7.78786
不能	-7.78803
悉	-7.78811
家	-7.79181
國	-7.79279
但	-7.79781
除	-7.79888
重	-7.80304
亦復如是	-7.80394
好	-7.8101
難	-7.81544
餘	-7.82266
命	-7.82492
聲	-7.82612
尊者阿難	-7.82655
種	-7.83151
眼	-7.83759
種種	-7.8391
答言	-7.85294
譬如	-7.85886
味	-7.86272
尊	-7.86476
所說	-7.87054
未	-7.87465
解	-7.8773
更	-7.88287
往	-7.89086
瞋恚	-7.89552
)	-7.89626
說法	-7.90136
必	-7.90192
果	-7.90443
迦葉	-7.90514
異	-7.91185
八	-7.91908
佛在舍衛國祇樹給孤獨園	-7.92153
不可	-7.92885
》	-7.93691
痛	-7.93738
息	-7.94003
憂	-7.94146
集	-7.95121
女	-7.95339
風	-7.95512
第一	-7.95531
等正覺	-7.95636
出家	-7.95742
父母	-7.96154
聞如是	-7.96355
足	-7.96426
癡	-7.9702
觸	-7.97047
莫	-7.9711
由	-7.97112
吾	-7.97327
生死	-7.97869
外	-7.97983
涅槃	-7.9817
佛告	-7.98238
用	-7.98336
香	-7.98988
彼人	-7.99001
賢者	-7.99019
將	-8.00066
居士	-8.00091
無常	-8.00707
趣	-8.01204
分	-8.01724
乎	-8.02259
於彼	-8.0273
飲食	-8.03092
.	-8.03125
轉	-8.0395
數	-8.0415
樹	-8.042
高	-8.0423
。』」	-8.04346
立	-8.04388
身壞命終	-8.04471
小	-8.04751
舍利弗	-8.0513
作是念	-8.05146
精進	-8.05179
實	-8.05671
地獄	-8.0577
名曰	-8.06221
貪	-8.06358
次	-8.06386
同	-8.06428
設	-8.06562
所以然者	-8.06588
告	-8.06811
日	-8.06961
妙	-8.07204
母	-8.07631
老	-8.07653
聚	-8.07726
乃	-8.07889
分別	-8.0799
界	-8.08097
一者	-8.08102
唯	-8.08549
根	-8.088
殺	-8.08946
恚	-8.10234
。』「	-8.10421
既	-8.10474
護	-8.10499
金	-8.10826
功德	-8.10856
方便	-8.1128
梵行	-8.11482
山	-8.11497
流	-8.11786
頭	-8.12204
名為	-8.12276
二者	-8.12638
象	-8.13038
何等為	-8.13163
廣	-8.13404
命終	-8.13516
到	-8.14045
門	-8.14083
長	-8.14676
福	-8.15077
滿	-8.1543
車	-8.15431
壞	-8.15474
愚癡	-8.15509
此是	-8.161
初	-8.16577
汝今	-8.16956
比丘尼	-8.17201
或有	-8.17274
人民	-8.17476
復有	-8.1753
神	-8.1797
詣	-8.18484
寶	-8.18919
惱	-8.19311
十	-8.19426
壽	-8.19662
城	-8.20236
恒	-8.20794
鼻	-8.21334
所有	-8.21346
稽首佛足	-8.21653
牛	-8.22567
之法	-8.23079
彼比丘	-8.23476
三者	-8.23918
問曰	-8.23963
化	-8.24018
發	-8.24147
安	-8.24371
雖	-8.24853
摩	-8.24933
失	-8.25241
千	-8.25397
光明	-8.25448
於此	-8.25915
不見	-8.26133
不樂	-8.26219
斯	-8.27077
乘	-8.27369
對	-8.27485
律	-8.27568
舌	-8.27866
猶	-8.27881
觀察	-8.28382
形	-8.2931
魔	-8.29388
稱	-8.29725
華	-8.29727
結	-8.29755
請	-8.30207
見已	-8.30663
邪見	-8.30805
羅	-8.30907
布施	-8.31394
何等	-8.31554
墮	-8.31622
梵天	-8.31623
不善	-8.31767
亦有	-8.31879
三昧	-8.32066
增	-8.32334
思	-8.32893
帝釋	-8.33694
修習	-8.33851
邪	-8.34198
此人	-8.34254
復問	-8.34728
聽	-8.34861
無所著	-8.34912
今日	-8.351
梵	-8.35513
會	-8.3609
害	-8.36193
如實知	-8.36198
舍	-8.3627
過去	-8.36353
馬	-8.36365
沒	-8.36734
罪	-8.36762
主	-8.36948
聞已	-8.37304
光	-8.37475
遠離	-8.37539
亦復	-8.38661
方	-8.39
亦無	-8.39065
那	-8.39462
皆悉	-8.39523
夫	-8.39573
有一	-8.39938
往詣	-8.40083
忍	-8.40197
第二	-8.40341
九	-8.40633
婆	-8.40658
三十三天	-8.40744
修行	-8.40758
舉	-8.4107
恭敬	-8.41364
自然	-8.42045
佛告比丘	-8.42374
甚	-8.42688
親	-8.42758
久	-8.4286
當作是學	-8.42978
頭面禮足	-8.43234
龍	-8.43556
患	-8.43895
治	-8.43897
獲	-8.43917
迦	-8.44563
安隱	-8.44815
月	-8.44833
於中	-8.44872
花	-8.45433
如此	-8.45601
退坐一面	-8.45605
所作	-8.46053
五百	-8.46235
深	-8.46267
天王	-8.46529
善法	-8.46604
速	-8.46741
聖	-8.47042
德	-8.47052
不應	-8.4709
離欲	-8.47172
邊	-8.47272
燒	-8.4738
之所	-8.47699
誰	-8.4778
正法	-8.48183
要	-8.48374
造	-8.48487
自在	-8.48521
太子	-8.4873
宜	-8.48935
我當	-8.4894
計	-8.49083
守	-8.49764
縛	-8.50012
女人	-8.50057
劫	-8.50074
正見	-8.50735
:「『	-8.51196
疑	-8.51664
婦	-8.51922
又復	-8.52117
若比丘	-8.52272
致	-8.52601
獨	-8.52806
阿	-8.52956
意云何	-8.53254
四者	-8.53688
照	-8.53818
林	-8.54152
正念	-8.5431
梵行已立	-8.54647
諦	-8.54879
持戒	-8.54963
竟	-8.54966
禪	-8.55097
而說偈言	-8.55146
來詣佛所	-8.55345
宮	-8.55481
歎	-8.55765
財	-8.55831
陀	-8.56204
飲	-8.57066
證	-8.57337
佛說	-8.5734
勿	-8.57374
不也	-8.57391
敬	-8.57408
優婆塞	-8.57477
婬	-8.57545
真實	-8.57655
物	-8.57743
尊者舍梨子	-8.57757
出家學道	-8.58238
歡喜隨喜	-8.58263
僧	-8.58417
疾	-8.58632
悲	-8.58722
無所	-8.58734
無明	-8.58798
即便	-8.588
便作是念	-8.58807
終	-8.59314
覆	-8.59385
相應	-8.59822
唯然	-8.59826
歸	-8.5994
宮殿	-8.60022
不復	-8.60379
合	-8.60894
轉輪聖王	-8.60987
己	-8.61019
而不	-8.61514
棄	-8.6161
園	-8.61668
別	-8.61867
須	-8.62158
何以故	-8.62246
不生	-8.62296
遊	-8.6238
諦聽	-8.62432
善逝	-8.62525
摩納	-8.627
雨	-8.62828
在一面坐	-8.63126
各各	-8.6319
夜	-8.63222
天子	-8.64084
不淨	-8.64585
無欲	-8.64739
云何為	-8.64802
知如真	-8.6533
往詣佛所	-8.65697
終不	-8.66117
復作是念	-8.66266
此法	-8.66655
手	-8.6716
百	-8.67246
第三	-8.67299
非法	-8.67572
父	-8.67637
散	-8.67707
我所	-8.6777
亦如是	-8.6832
。』」「	-8.68327
熱	-8.68496
畜生	-8.69315
以此	-8.69507
真	-8.69851
No	-8.70432
賢聖	-8.70451
草	-8.70476
佛說如是	-8.7049
般涅槃	-8.70548
默然	-8.71048
乞食	-8.7133
《	-8.71771
却坐一面	-8.72321
厭	-8.72433
遠	-8.72439
居	-8.725
)。	-8.73204
不著	-8.73297
是我	-8.73336
無上	-8.73344
尊者舍利弗	-8.73372
而去	-8.74011
波斯匿王	-8.74036
直	-8.74202
若有比丘	-8.74252
破	-8.74277
黑	-8.7445
普	-8.7459
視	-8.74659
奉	-8.7466
天下	-8.74832
苾芻	-8.74932
如法	-8.74933
受持	-8.75067
海	-8.75309
今當	-8.75344
釋	-8.75434
貪欲	-8.75448
之中	-8.75554
大臣	-8.75604
輩	-8.75957
不為	-8.76221
爾	-8.76391
執	-8.76431
剎利	-8.76586
身體	-8.76639
不如	-8.76922
興	-8.77002
往至	-8.77017
阿羅漢	-8.77134
後世	-8.776
釋提桓因	-8.77754
尋	-8.77868
童子	-8.77889
長夜	-8.77911
銀	-8.78133
慢	-8.78644
壽命	-8.78723
其心	-8.79078
煩惱	-8.79099
年	-8.7929
我亦	-8.79582
攝	-8.79707
剃除鬚髮	-8.80159
恐怖	-8.80733
犯	-8.80737
藏	-8.80743
喻	-8.80886
即從坐起	-8.81025
波	-8.81146
禮	-8.81736
中有	-8.81785
近	-8.81797
然後	-8.818
放逸	-8.81901
我於	-8.82126
臥	-8.82139
開	-8.82229
說偈言	-8.82347
池	-8.8251
不起	-8.82523
脫	-8.8253
財物	-8.83114
被	-8.83292
柔軟	-8.83543
佛告諸比丘	-8.83544
何謂	-8.84059
之人	-8.84204
最上	-8.84255
賢	-8.84774
天上	-8.85477
熟	-8.85584
何故	-8.85785
親近	-8.86202
目連	-8.86537
多聞	-8.86666
覺知	-8.86728
快樂	-8.86792
是名為	-8.8721
欲得	-8.87224
瞋	-8.8738
遙見	-8.87447
神足	-8.87613
土	-8.87714
進	-8.87723
北	-8.87763
於我	-8.88006
一人	-8.88105
現在	-8.88534
云	-8.88576
捨離	-8.88727
及諸	-8.89027
無恚	-8.89112
到已	-8.89198
可得	-8.89437
鉢	-8.89499
滅盡	-8.89529
兩	-8.8954
夫人	-8.89591
難陀	-8.89824
陰	-8.89857
五者	-8.90309
汝當	-8.90648
順	-8.90653
最	-8.90663
雜	-8.90745
村	-8.90799
誦	-8.91344
彼時	-8.91656
著衣持鉢	-8.91851
字	-8.92025
所作已辦	-8.92035
天帝釋	-8.92117
有此	-8.92379
盛	-8.92686
諸根	-8.92823
并	-8.92871
虛妄	-8.93071
訖	-8.93078
衣被	-8.93593
菩薩	-8.93658
一心	-8.93854
白世尊	-8.93868
即說偈言	-8.94059
憶	-8.94093
提	-8.94274
莊嚴	-8.94333
座	-8.94369
次第	-8.94455
面	-8.94477
偈	-8.9457
諍	-8.94724
調	-8.94937
不離	-8.95158
調伏	-8.9519
比	-8.95313
彼天子	-8.95337
未來	-8.95341
動	-8.95583
正智	-8.95664
眷屬	-8.95767
其人	-8.9577
自知	-8.95882
究竟	-8.95883
心不	-8.96052
寧	-8.96354
類	-8.96523
通	-8.96577
宿	-8.96739
白世尊言	-8.96828
神通	-8.96904
床	-8.9703
悉皆	-8.9726
師子	-8.974
於色	-8.97446
睡眠	-8.975
惡不善法	-8.97529
唯願世尊	-8.9783
畏	-8.97874
加	-8.97882
走	-8.97964
所行	-8.98004
姓	-8.98303
七寶	-8.98461
如是說	-8.98513
有人	-8.98642
示	-8.98682
亦當	-8.98765
名色	-8.98874
惠施	-8.98996
出要	-8.99015
隨時	-8.99121
增長	-8.99302
葉	-8.99471
置	-8.99561
之處	-8.99597
聚落	-8.99723
稅	-8.99726
有漏	-8.9987
心解脫	-8.99927
𧗪	-8.99979
河	-9.00026
水精	-9.00038
堅固	-9.0007
捨家	-9.0015
我聞如是	-9.00199
肉	-9.00308
人間	-9.00505
令我	-9.00574
施設	-9.00609
最勝	-9.00732
和	-9.00858
遍	-9.01054
體	-9.0116
作是言	-9.01341
不受	-9.01401
遊行	-9.01455
阿修羅	-9.01606
作是說	-9.01911
奉事	-9.02009
不放逸	-9.02028
雲	-9.02166
國王	-9.02189
其身	-9.02245
我說	-9.02368
沙	-9.02451
無餘	-9.02527
學道	-9.02555
服	-9.02636
端正	-9.02724
滿足	-9.02783
苦痛	-9.02911
漏	-9.02935
蓋	-9.03011
為是	-9.03061
飯	-9.03096
安樂	-9.03101
告曰	-9.03268
轉輪王	-9.03378
勅	-9.0355
如真	-9.03589
于	-9.03645
退	-9.03712
反	-9.03756
世尊告	-9.04279
骨	-9.04279
石	-9.04881
若干	-9.04941
正受	-9.05009
節	-9.05062
刺	-9.05184
毒	-9.05239
極為	-9.05341
齋	-9.0548
間	-9.05582
適	-9.0575
一向	-9.06081
教授	-9.06081
器	-9.06114
一切眾生	-9.06169
多聞聖弟子	-9.06228
苦行	-9.06256
白言	-9.06442
更樂	-9.06537
他人	-9.06647
四方	-9.0668
妄語	-9.06768
有所	-9.06812
鐵	-9.06826
不信	-9.0715
穢	-9.07164
修妬路	-9.07281
若復	-9.07521
我不	-9.07558
嚴	-9.07793
有大	-9.07944
老死	-9.08108
如是見	-9.08174
漸	-9.08324
寂滅	-9.08418
聖弟子	-9.08629
阿那律陀	-9.08839
恐	-9.08872
聚落主	-9.08996
伽	-9.09182
妄言	-9.09224
以為	-9.09258
伏	-9.09305
木	-9.0938
世界	-9.09514
吹	-9.09562
樓	-9.09579
無為	-9.09598
五欲	-9.09878
天人	-9.09991
兒	-9.10144
首	-9.10224
佛告阿難	-9.10505
所見	-9.10576
便得	-9.10579
却	-9.10586
慈	-9.10819
放	-9.10875
境界	-9.10908
減	-9.11012
愚	-9.11116
眾中	-9.11116
亦非	-9.11153
「	-9.11165
饒益	-9.11271
其中	-9.11561
性	-9.11657
阿須倫	-9.11734
拔	-9.11766
昔	-9.11774
唯願	-9.12081
盜	-9.1226
第四	-9.12347
懷	-9.12354
善知識	-9.12364
尼	-9.12411
目	-9.1251
二十	-9.12583
於法	-9.12598
記	-9.12787
若彼	-9.12859
十二	-9.13289
果報	-9.13329
何所	-9.13371
告諸比丘	-9.13454
怨	-9.13652
智者	-9.137
永	-9.13706
制	-9.13867
而得	-9.13957
大眾	-9.13973
不解	-9.14067
平等	-9.14097
今此	-9.14136
愛樂	-9.1419
繫	-9.14281
大師	-9.14283
守護	-9.1431
皮	-9.14329
我是	-9.14377
無想	-9.14379
樹下	-9.14525
半	-9.1461
四天王	-9.14777
毀	-9.14795
苦惱	-9.14838
鬼	-9.14905
微妙	-9.14962
遂	-9.14974
舍梨子	-9.15348
路	-9.15412
不住	-9.15472
讚歎	-9.15603
髮	-9.15716
眾人	-9.15958
堂	-9.16174
殺生	-9.16222
說此偈已	-9.16228
捉	-9.16337
罪人	-9.1676
不苦不樂	-9.16775
諸有	-9.16836
了	-9.1744
林中	-9.17521
毛	-9.17602
虛空	-9.17779
無家	-9.17804
亦爾	-9.17865
積	-9.18064
從是	-9.18086
思想	-9.18182
量	-9.18307
或復	-9.18368
聖眾	-9.18483
理	-9.18546
至世尊所	-9.18603
止息	-9.18609
有四	-9.18685
至信	-9.18703
日月	-9.18732
!』	-9.18788
便有	-9.18883
至真	-9.19021
而生	-9.19258
......」	-9.19279
不善法	-9.19318
矣	-9.19332
隨意	-9.19449
渴	-9.1951
二人	-9.19658
青	-9.19676
染	-9.19942
呼	-9.20147
摩訶男	-9.2032
八萬四千	-9.20394
經行	-9.2042
輪	-9.20421
王言	-9.20546
棄捨	-9.20788
梨	-9.20912
諸佛	-9.20914
毘	-9.20978
決定	-9.21052
乳	-9.2116
大海	-9.21307
或以	-9.2136
染著	-9.21415
復以	-9.21591
住處	-9.21595
珍寶	-9.21636
即是	-9.21723
應當	-9.21728
得道	-9.21812
佛住王舍城迦蘭陀竹園	-9.2213
損	-9.22151
諸法	-9.22233
人中	-9.22309
比丘當知	-9.22358
四種	-9.225
輸汝	-9.22557
鬼神	-9.22601
亂	-9.22695
違	-9.22861
我已	-9.23095
卿	-9.23111
聲聞	-9.23116
稽首禮足	-9.23256
無我	-9.23569
刀	-9.23599
若人	-9.2363
心穢	-9.23721
慧解脫	-9.2383
變	-9.24028
飯食	-9.24164
無數	-9.24265
提婆達兜	-9.24523
有三	-9.24609
七重	-9.24806
愛欲	-9.2499
族	-9.24991
精勤	-9.25123
賊	-9.25374
在家	-9.25427
舍利	-9.25616
一處	-9.25693
寂靜	-9.25708
畢	-9.25777
東	-9.25917
熾然	-9.25943
瘡	-9.26153
聞法	-9.26217
憂慼	-9.26239
麤	-9.26269
達	-9.26292
!」「	-9.26371
為我	-9.26384
懈怠	-9.26557
男	-9.2656
怒	-9.26618
始	-9.26815
報言	-9.27087
彼等	-9.2709
我見	-9.27116
餓鬼	-9.2714
際	-9.27154
因此	-9.27238
戲	-9.27252
縱廣	-9.27335
著袈裟衣	-9.27363
若無	-9.27444
世人	-9.27589
唯有	-9.27628
氣	-9.27792
外道	-9.28022
無畏	-9.28259
趣向	-9.28313
阿那律	-9.2845
能令	-9.28494
打	-9.28531
悔	-9.28549
四大	-9.28661
即沒不現	-9.28696
知法	-9.28715
生地獄中	-9.28898
此事	-9.28933
正定	-9.28941
得解脫	-9.29109
白佛	-9.29128
士	-9.29227
作禮而去	-9.29437
望	-9.29538
志	-9.2957
修梵行	-9.29733
犯戒	-9.29755
隨順	-9.29774
似	-9.29847
遇	-9.29863
滅度	-9.29927
恩	-9.29955
如上說	-9.29973
之時	-9.29979
拘	-9.30217
衣服	-9.30435
講堂	-9.30518
眾多比丘	-9.30549
勤	-9.30582
尊重	-9.30709
疑惑	-9.30903
強	-9.30931
南	-9.31262
而行	-9.31323
且	-9.3141
一一	-9.3144
東方	-9.31469
無復	-9.31469
辟支佛	-9.31659
是等正覺	-9.31762
新	-9.32022
其義	-9.3208
眾多	-9.32174
何等為四	-9.32212
況復	-9.32272
於佛	-9.32622
慳	-9.32704
忉利天	-9.32713
為人	-9.32821
行者	-9.33025
如是比丘	-9.33119
又問	-9.3316
文	-9.33161
今者	-9.33186
當為	-9.33315
一法	-9.33318
嫉妬	-9.33514
云何為四	-9.33924
之心	-9.34074
所作已作	-9.3409
敷	-9.34161
就	-9.34169
甚奇	-9.3418
當為汝說	-9.34197
赤	-9.34505
支	-9.34918
見佛	-9.34934
真諦	-9.34982
此比丘	-9.34987
羅漢	-9.35012
是則	-9.35079
晝夜	-9.35214
西	-9.35252
多有	-9.35259
避	-9.35312
語言	-9.3534
歡悅	-9.35385
如彼	-9.35449
授	-9.35503
有何	-9.35546
譬	-9.35593
五陰	-9.35706
兩舌	-9.35897
羅云	-9.35975
有二	-9.3603
甚深	-9.36102
垢	-9.36139
末	-9.36365
鳥	-9.36476
不念	-9.36623
所問	-9.36647
不以	-9.36717
是苦	-9.36735
即時	-9.36865
尊者阿那律陀	-9.36915
妻	-9.36947
有是	-9.37044
淨戒	-9.37239
萬	-9.37278
頌	-9.37338
鬪諍	-9.37342
亦如是說	-9.37389
愛念	-9.3739
存	-9.37439
塵	-9.3753
慈心	-9.37534
御	-9.3757
舍利弗言	-9.37606
我為	-9.37789
諸弟子	-9.37854
讚	-9.37864
善男子	-9.37981
男女	-9.37993
魔波旬	-9.38009
消	-9.38131
輕	-9.38183
倒	-9.3821
纏	-9.38299
臣	-9.38299
法者	-9.38368
說偈	-9.38377
憍慢	-9.38403
財寶	-9.38643
顏色	-9.3866
稱譽	-9.38749
跡	-9.38798
何等為三	-9.38825
恩愛	-9.38879
養	-9.38929
亦如	-9.3907
問訊	-9.39128
微	-9.39182
枝	-9.39397
若見	-9.39542
美	-9.3989
熾盛	-9.39941
留	-9.39957
奴婢	-9.40018
眾僧	-9.40078
▁[	-9.40079
第五	-9.40089
堅	-9.40321
非我	-9.40491
降伏	-9.40603
白衣	-9.4067
不可稱計	-9.40753
優婆夷	-9.40766
皆是	-9.40772
七重欄楯	-9.40784
天人師	-9.40825
施與	-9.40834
像	-9.40867
三種	-9.41081
絕	-9.41107
增益	-9.41283
無事	-9.41345
如是知	-9.41388
善思念之	-9.41442
士夫	-9.41474
無上士	-9.41492
利益	-9.4154
世尊說偈答	-9.41708
欲令	-9.41813
鬪	-9.41926
和合	-9.42001
稱說	-9.42193
未得	-9.42243
作如是	-9.42293
細	-9.42457
造作	-9.42514
之道	-9.42581
作是念已	-9.42652
生天	-9.42664
世尊即說偈言	-9.42693
善惡	-9.42719
益	-9.42767
易	-9.42774
十六	-9.43067
作是	-9.43127
身心	-9.43183
我欲	-9.43206
四諦	-9.43444
此處	-9.43487
長老	-9.43512
教誡	-9.43627
受教	-9.43664
遣	-9.43693
何者	-9.43738
情	-9.43773
歲	-9.43843
若不	-9.43907
亦然	-9.44134
牟尼	-9.44187
昇	-9.44301
彼天	-9.44435
降	-9.4453
惡行	-9.4456
若我	-9.44662
名字	-9.45035
句	-9.45077
大仙人	-9.45083
數數	-9.45153
坐禪	-9.45176
民	-9.45218
布	-9.45221
為首	-9.45297
軍	-9.453
遮	-9.45424
妻子	-9.45467
所以	-9.45511
當以	-9.45518
未曾	-9.45523
中間	-9.45679
稽首	-9.45722
覩	-9.45776
內外	-9.45926
作如是言	-9.4594
虛	-9.46128
破壞	-9.46278
呵	-9.46331
為第一	-9.4637
作如是說	-9.46465
所知	-9.46469
我生已盡	-9.46642
世間解	-9.46745
凡	-9.46801
嫉	-9.46804
手執	-9.46913
伺	-9.46957
億	-9.47076
多人	-9.47436
瓔珞	-9.47507
品	-9.4756
為彼	-9.47618
藥	-9.47711
故曰	-9.47854
而住	-9.47889
正命	-9.47897
雜色	-9.48013
屬	-9.4808
不與	-9.48242
心意	-9.48314
邪婬	-9.48315
都	-9.48331
天女	-9.48357
必得	-9.48424
密	-9.48495
勸發渴仰	-9.48653
餘如上說	-9.48653
六者	-9.4887
欲求	-9.4897
波旬	-9.4905
禁戒	-9.49074
其有	-9.49109
哀	-9.49179
清	-9.49211
泥	-9.49233
意行	-9.49253
彼眾生	-9.49424
生於	-9.4943
所為	-9.49478
北方	-9.49533
彼一切	-9.49648
收	-9.4969
若能	-9.49802
側	-9.49818
眠	-9.49835
以其	-9.49864
有餘	-9.49994
五蓋	-9.50047
祇樹給孤獨園	-9.50188
正覺	-9.50278
諸眾生	-9.50294
往來	-9.50391
何因	-9.50538
離諸	-9.50707
周那	-9.50773
於諸	-9.50861
福德	-9.50904
憶念	-9.5098
云何為五	-9.51049
。《	-9.51052
我有	-9.51073
殿	-9.51092
尚	-9.51128
比丘僧	-9.51272
善說	-9.51305
周匝	-9.51419
可愛	-9.51431
黃	-9.51434
辯	-9.51453
平	-9.51461
富	-9.51531
龍王	-9.51561
咸	-9.52071
負	-9.52152
洗	-9.52219
惡業	-9.52274
快	-9.52276
......	-9.52291
勇猛	-9.52293
威儀	-9.52358
而作是念	-9.52446
活	-9.52461
當來	-9.52495
未曾有法	-9.52499
精舍	-9.52546
婆羅	-9.52561
短	-9.52886
須彌山	-9.52999
善行	-9.53007
晝	-9.53032
拘薩羅王波斯匿	-9.53048
頂禮佛足	-9.53098
即從座起	-9.53295
知見	-9.53305
磨	-9.53317
▁「	-9.53445
云何比丘	-9.53561
化作	-9.53621
珠	-9.53714
當有	-9.53724
增上	-9.5375
或有一人	-9.53849
在此	-9.53891
羊	-9.53913
血	-9.53919
央掘魔	-9.5396
歡喜踊躍	-9.53974
知足	-9.5398
不與取	-9.54352
七日	-9.54357
心生	-9.54377
是以	-9.54415
濟	-9.54526
瓶	-9.5462
正使	-9.54623
幢	-9.54725
罵	-9.54773
是也	-9.54921
室	-9.54992
憂苦	-9.55066
彌	-9.55186
問言	-9.55209
帝	-9.55261
底	-9.5534
上座	-9.55558
田	-9.55598
若有沙門	-9.55669
諸沙門	-9.55757
默	-9.55823
苦滅	-9.55971
不用	-9.56001
以是因緣	-9.56081
不喜	-9.56086
上下	-9.561
非為	-9.5618
住住	-9.56193
吐	-9.56224
見之	-9.56256
豈	-9.56305
已生	-9.56323
俗	-9.56365
苦樂	-9.56497
身行	-9.56512
諸人	-9.56636
得阿羅漢	-9.56641
當念	-9.56676
飛	-9.56729
惡趣	-9.56799
焰	-9.56805
逆	-9.56846
薄	-9.56913
所言	-9.56918
猗	-9.56984
阿難言	-9.57005
共相問訊	-9.57116
已知	-9.57233
入於	-9.57396
更有	-9.57433
此三	-9.57442
非是	-9.5752
顛倒	-9.57605
教化	-9.57645
西方	-9.57738
佛遊舍衛國	-9.57848
若有人	-9.57854
中阿含經	-9.57898
夜叉	-9.58008
云何知	-9.58228
仰	-9.58342
最後	-9.58478
正語	-9.58522
貧窮	-9.58648
己身	-9.58694
音	-9.58695
仙人	-9.58718
端	-9.58766
辭	-9.58821
自念	-9.58831
知識	-9.58917
在前	-9.58941
王子	-9.58976
群	-9.5899
承事	-9.59022
步	-9.59133
欲使	-9.5925
自知不受後有	-9.59298
無食	-9.59423
不能自勝	-9.59451
不失	-9.59504
諸苾芻	-9.59702
若欲	-9.59941
曉	-9.59956
訶	-9.59969
衰	-9.60039
種子	-9.60043
所生	-9.60115
不久	-9.6017
障	-9.60183
共相	-9.60212
倍	-9.60236
必當	-9.60289
里	-9.60341
住於	-9.60426
生已盡	-9.60443
隨所	-9.6045
勸	-9.60526
左右	-9.60539
曾	-9.60683
兵	-9.60699
佛在	-9.6072
從彼	-9.60806
不動	-9.60825
錢財	-9.60828
幾	-9.60901
幻	-9.60974
今正是時	-9.61164
不愛	-9.61216
閻浮提	-9.61322
王舍城	-9.61326
侍者	-9.61431
王所	-9.6148
三界	-9.61528
無不	-9.61541
慚愧	-9.61698
異我	-9.6171
頗有	-9.61767
啼哭	-9.61921
是佛所說	-9.62229
乞	-9.62303
越	-9.62382
今我	-9.62395
莫令	-9.62512
金銀	-9.62712
安隱快樂	-9.6284
塔	-9.6285
四十	-9.63079
正業	-9.63129
有信	-9.63154
所得	-9.63173
天神	-9.63228
不作	-9.6326
辦	-9.63323
除去	-9.63351
四面	-9.63493
悅	-9.63521
沐浴	-9.63572
何法	-9.6362
此名	-9.63635
明行成	-9.63949
稱歎	-9.64105
君	-9.64134
位	-9.64185
所欲	-9.64246
岸	-9.64262
名稱	-9.64264
不捨	-9.64286
渡	-9.64396
當學	-9.64482
不更受	-9.64593
無所有	-9.64604
供	-9.64656
大人	-9.64667
容色	-9.64791
如是如是	-9.64931
冥	-9.65049
傷	-9.65188
蛇	-9.65316
?』」	-9.65425
地獄中	-9.65453
有愛	-9.65512
如前	-9.65522
善來	-9.65578
泥犁中	-9.65661
極大	-9.65712
亦知	-9.65759
善思	-9.65925
當復	-9.65989
眼識	-9.66013
獄卒	-9.66106
漏盡	-9.66233
猶如有人	-9.6624
貴	-9.66275
明日	-9.6635
腹	-9.6636
生天上	-9.66411
漸漸	-9.66452
喜樂	-9.66574
暫	-9.66677
比丘是	-9.66978
鹿	-9.67064
敗壞	-9.67097
三法	-9.67133
遊戲	-9.67162
湯藥	-9.67164
得法眼淨	-9.67181
比丘白佛	-9.67196
比丘者	-9.67239
無間等	-9.67322
已斷	-9.67457
廣大	-9.67472
已盡	-9.67487
正思惟	-9.67514
彼諸比丘	-9.67633
惡法	-9.67764
離於	-9.67903
狗	-9.67927
闍	-9.67973
已說	-9.68
及以	-9.68001
法御	-9.68038
不食	-9.68058
眾祐	-9.68063
在勝林給孤獨園	-9.68086
獄	-9.68152
尊者大目揵連	-9.6819
況	-9.68256
云何名為	-9.686
綺語	-9.68622
記說	-9.6864
諸惡	-9.68642
?」「	-9.68647
值	-9.68744
浮	-9.68746
道人	-9.68793
蟲	-9.6889
苦滅聖諦	-9.689
所造	-9.68941
廣說	-9.69274
佛說是	-9.69277
然彼	-9.69278
壁	-9.69279
七者	-9.69394
彼便	-9.69416
佛語	-9.6951
無色	-9.69555
央掘魔羅	-9.69563
六入	-9.69588
何為	-9.69607
垂	-9.69725
彌勒	-9.69756
無漏	-9.69817
却住一面	-9.69855
甘露	-9.69886
甚特	-9.69924
何處	-9.69939
調御	-9.69998
能得	-9.70016
右	-9.70043
與我	-9.70126
何以	-9.70295
風吹	-9.70392
備	-9.70401
念言	-9.7041
呪	-9.7048
食已	-9.70549
根本	-9.70553
餘人	-9.70634
沸	-9.70671
須彌山王	-9.70781
慧者	-9.70784
東晉罽賓三藏瞿曇僧伽提婆譯	-9.70822
因緣故	-9.70883
城中	-9.70908
魔王	-9.7095
世尊以偈答	-9.70971
波羅	-9.71077
而作是說	-9.71225
▁No	-9.71231
則不	-9.71306
園中	-9.71315
齊	-9.71423
索	-9.71454
見此	-9.71572
玉女	-9.71615
第六	-9.71643
諛諂	-9.71646
第七	-9.71773
律中	-9.71898
不欲	-9.71981
無邊	-9.72027
使人	-9.72105
利養	-9.72152
差	-9.72308
舊	-9.72473
行道	-9.72542
作是語	-9.72546
不行	-9.72552
在於	-9.72588
魚	-9.72595
城郭	-9.72624
此天	-9.72699
作如是念	-9.72726
迴	-9.7283
威德	-9.72832
斷除	-9.72844
福田	-9.72856
正方便	-9.72885
戰	-9.72887
脚	-9.72956
便生	-9.73021
佛名	-9.7316
四禪	-9.73256
三十	-9.73318
並	-9.73373
救	-9.73399
天宮	-9.734
筋	-9.73443
優陀夷	-9.73471
汝可	-9.73509
丈夫	-9.73538
號佛	-9.73719
浴池	-9.73739
十一	-9.73758
得度	-9.73814
彼諸	-9.73839
光色	-9.73854
此身	-9.73878
各自	-9.7401
意惡行	-9.74043
百千	-9.74096
愁憂	-9.74122
不能得	-9.74193
刀杖	-9.7425
能知	-9.74292
欲界	-9.74301
粳米	-9.74381
弊	-9.74399
了知	-9.74403
蜜	-9.74434
急	-9.74458
奪	-9.74474
細滑	-9.74511
展轉	-9.74512
濁	-9.74669
愁	-9.74672
欺誑	-9.74673
馬瑙	-9.74685
得須陀洹	-9.74715
無異	-9.74792
絕妙	-9.74806
不如實知	-9.7482
見法	-9.7489
眾苦	-9.74957
佛世尊	-9.74983
淨除其心	-9.75004
云何為三	-9.75021
」	-9.75034
心得解脫	-9.75131
此諸	-9.75143
於正法	-9.75216
比丘眾	-9.75228
工師	-9.75282
多所饒益	-9.75479
博聞	-9.75519
而來	-9.7556
作沙門	-9.7558
流布	-9.75596
十五日	-9.75826
甚難	-9.75901
麁	-9.75904
以此因緣	-9.75918
某	-9.76081
皆有	-9.76093
來至	-9.76103
六十	-9.76202
賢者阿難	-9.76207
是故名為	-9.76213
莖	-9.76233
大地	-9.76302
之事	-9.76399
烏	-9.76406
修習多修習	-9.76458
雜阿含經	-9.76533
入處	-9.76596
忘	-9.76614
於後夜時	-9.76666
一為	-9.76749
手足	-9.76925
於世間	-9.77074
如我	-9.77079
思念	-9.77339
種姓	-9.7735
謂之	-9.77359
侍	-9.77372
阿羅訶	-9.77445
增壹阿含經	-9.77474
優	-9.77494
有國名	-9.77495
其所	-9.77496
復更	-9.77566
我今欲	-9.77577
)《	-9.77593
投	-9.77652
世尊便說此偈	-9.7768
再三	-9.77701
惟	-9.77706
供給	-9.77756
馬寶	-9.77761
食之	-9.77799
有五	-9.77841
樂受	-9.78005
承	-9.78016
導	-9.78106
未生	-9.78141
怖	-9.78223
抱	-9.78226
變易	-9.78255
禪思	-9.78314
異學	-9.78335
信心	-9.78349
曲	-9.78372
不殺	-9.784
網	-9.78444
已得	-9.78499
截	-9.78507
草木	-9.78518
而有	-9.78528
靜	-9.78537
出生	-9.78558
心念	-9.78644
阿那含	-9.78666
無病	-9.78957
二為	-9.78963
侵	-9.79044
亦復不	-9.79277
朝	-9.79292
羅睺羅	-9.79352
我今寧可	-9.79412
須陀洹	-9.79415
南方	-9.79439
十八	-9.79575
則無	-9.79588
不斷	-9.79633
及餘	-9.79658
水中	-9.79742
正志	-9.79854
災患	-9.799
純	-9.7995
意念	-9.80049
相見	-9.80063
若干種	-9.80204
不聞	-9.80266
指	-9.80285
是法	-9.80348
常當	-9.80355
究竟苦邊	-9.80443
晨朝著衣持鉢	-9.80501
彼於	-9.80679
所應	-9.80817
不敢	-9.80887
惡口	-9.80895
作證	-9.80896
諸行	-9.80947
以是	-9.80961
一切世間	-9.8113
即以	-9.81168
空處	-9.81253
自歸	-9.81286
此實餘虛	-9.81307
御者	-9.81314
或時	-9.81347
屈	-9.81367
不忘	-9.81377
油	-9.81428
禪定	-9.81464
辯才	-9.81527
宿命	-9.81577
隨喜	-9.81697
演	-9.8176
出世	-9.81806
皆由	-9.81828
詣佛所	-9.81885
白王言	-9.81904
或有人	-9.81979
今世	-9.81992
著衣	-9.82079
受生	-9.82131
若於	-9.82154
七寶所成	-9.82208
此中	-9.82222
專	-9.82254
罰	-9.82334
書	-9.82357
滅法	-9.82381
見我	-9.82384
『	-9.82473
】	-9.82512
善處	-9.82534
號	-9.82573
空中	-9.82575
入城乞食	-9.82585
共論	-9.8264
形體	-9.82715
自覺	-9.82737
聞佛	-9.8281
大海水	-9.82818
悔過	-9.82881
典	-9.82885
作惡	-9.82893
演說	-9.82894
則為	-9.829
他化自在天	-9.83086
此世	-9.83102
決	-9.8312
闇	-9.83182
出現於世	-9.83275
百歲	-9.83343
為食	-9.8335
馳走	-9.83459
正念正智	-9.83487
彼若	-9.83544
須臾	-9.83564
彼為	-9.836
怨家	-9.83621
仁	-9.83629
當得	-9.83644
合會	-9.83652
世尊為	-9.83704
不遠	-9.83895
已過	-9.83906
當求方便	-9.83922
惡知識	-9.83928
寂	-9.83962
長者子	-9.84113
實爾	-9.84269
貪著	-9.84302
轉增	-9.8434
至誠	-9.84347
厚	-9.84454
有如是	-9.84456
穀	-9.84473
斫	-9.84545
惡不善之法	-9.84552
清涼	-9.84568
年少	-9.84569
見者	-9.84577
猪	-9.84585
驢	-9.8461
象寶	-9.84657
宣說	-9.84664
許	-9.84775
說言	-9.84804
是三	-9.84976
此二	-9.85109
此非	-9.85194
力士	-9.85197
塗	-9.8522
獵師	-9.85264
三為	-9.85323
如人	-9.85349
自稱	-9.85439
不同	-9.85493
屋	-9.85519
雞	-9.85563
傳	-9.85564
暮	-9.85615
受法	-9.85689
夢	-9.85704
邑	-9.85793
聖王	-9.85795
此義	-9.85867
二名	-9.85926
諸方	-9.85964
至彼	-9.86044
永除	-9.86108
非常	-9.86163
奉行	-9.86182
忽	-9.86196
死者	-9.86201
往昔	-9.86205
神力	-9.8634
我知	-9.86403
笑	-9.86468
佛法	-9.8648
若有眾生	-9.86531
麻	-9.86537
卑	-9.86602
不盜	-9.86624
是人	-9.86628
勞	-9.86636
寒	-9.86641
圍遶	-9.86671
歌舞	-9.86728
無量善修	-9.8682
父王	-9.86896
無智	-9.87043
其上	-9.87113
男子	-9.87174
信根	-9.87187
逼	-9.87203
慳貪	-9.87253
群臣	-9.87375
不說	-9.87383
作如是見	-9.87406
妙法	-9.87414
不忍	-9.87425
意識	-9.87498
知時	-9.87645
背	-9.87715
船	-9.8776
引	-9.87764
若好	-9.87771
人所	-9.87789
而告之	-9.8781
為身	-9.87831
碎	-9.87844
周	-9.87901
難得	-9.87943
曠野	-9.87999
釋種	-9.88048
知已	-9.88129
遺	-9.8817
沙門婆羅門	-9.8825
無知	-9.88255
善知	-9.88306
一日	-9.88331
汝央掘魔羅	-9.88373
聞之	-9.88379
云何名	-9.88396
彼亦	-9.88409
銅	-9.88447
污	-9.88512
生者	-9.88531
而為	-9.88646
生此	-9.88663
箭	-9.88724
有四種	-9.88793
善見	-9.88803
族姓子	-9.88837
人身	-9.88865
彼岸	-9.88872
領	-9.88931
尼拘陀	-9.88949
國界	-9.88958
四法	-9.89033
我今當	-9.89035
有諸	-9.89064
頂	-9.8907
頗	-9.89093
所須	-9.89134
助	-9.89233
至於	-9.89348
諍訟	-9.89453
四念處	-9.89502
身見	-9.89618
設有	-9.89622
酥	-9.89672
復言	-9.89683
極妙	-9.89742
汝當住	-9.89756
而坐	-9.89783
塵垢	-9.89805
繫著	-9.8981
薪	-9.89915
呵責	-9.89938
而自	-9.89961
軟	-9.89972
星	-9.89978
恒河沙剎	-9.89985
修行精勤	-9.90058
無結無怨	-9.90075
為有	-9.90221
身惡行	-9.90316
汝今當速	-9.90398
慧劍	-9.90424
而汝不	-9.90457
房	-9.90463
出離	-9.90469
受樂	-9.9051
長養	-9.90656
我身	-9.90783
十四	-9.90813
還歸	-9.90893
亡	-9.90995
與彼	-9.91025
而言	-9.91044
嚴飾	-9.91086
喚	-9.91094
無恚無諍	-9.91207
結跏趺坐	-9.91216
何者為	-9.91239
祀	-9.91295
都無	-9.91382
有七	-9.91383
議	-9.91499
當自	-9.91521
受苦	-9.91521
依無欲	-9.91585
無上善法	-9.91602
六入處	-9.91691
彼云何名為	-9.91735
生滅	-9.91788
蜱肆	-9.91801
精	-9.9181
歸依	-9.91966
無惡	-9.92011
乾	-9.92019
待	-9.92107
博	-9.9211
臭	-9.9216
從坐起	-9.92161
酒	-9.92182
煮	-9.92196
暴	-9.92207
顯	-9.9222
親族	-9.92234
忍辱	-9.92244
若汝	-9.92246
齒	-9.92249
建立	-9.92266
炎	-9.92282
法中	-9.92287
拘絺羅	-9.92392
舉衣鉢	-9.92401
若醜	-9.92426
往至世尊所	-9.92508
園林	-9.92548
國土	-9.9256
給	-9.92574
一比丘	-9.9261
在彼	-9.92717
臥具	-9.92774
彼處	-9.92804
不飲酒	-9.92821
杖	-9.93012
安住	-9.93073
不貪	-9.93099
浴	-9.93113
此間	-9.93167
諸尊	-9.93236
送	-9.93325
彼不	-9.9339
佛為	-9.93418
部	-9.93435
不自	-9.93471
極廣甚大	-9.93499
說之	-9.93508
然復	-9.93543
無有是處	-9.93667
大德	-9.93711
諸王	-9.9374
車𤦲	-9.93787
日中	-9.93792
意業	-9.93794
居士子	-9.93853
作禮	-9.93968
故名	-9.9404
度世	-9.94083
迦葉如來	-9.94099
尊者阿那律	-9.94142
洗足	-9.9418
天使	-9.9435
逐	-9.94441
五根	-9.94491
應供	-9.94516
整衣服	-9.94571
持此	-9.94625
生時	-9.9463
亦無有	-9.94645
懊惱	-9.94656
羅網	-9.9468
常行	-9.94692
何況	-9.94727
有大威德	-9.94768
無穢	-9.94804
聖所	-9.94831
無厭足	-9.94867
我自	-9.94898
所可	-9.94971
善根	-9.95173
不犯	-9.95195
樂於	-9.95212
八者	-9.95237
識亦復如是	-9.95262
還宮	-9.95283
蒙	-9.95362
我聞	-9.9541
何因緣	-9.95435
泥洹	-9.95491
是謂比丘	-9.95508
如是等	-9.95513
責	-9.95577
尸	-9.95578
割	-9.95597
落	-9.95605
識滅	-9.95623
如今	-9.95641
閉	-9.95676
目揵連	-9.95697
糞	-9.957
當知是	-9.95823
此亦如是	-9.95835
恒河沙	-9.95835
寂然	-9.9587
當作	-9.95873
結加趺坐	-9.95879
希有	-9.95926
國中	-9.95934
聞此語已	-9.95952
以手	-9.95998
察	-9.96017
冷	-9.9602
愛敬	-9.96048
差別	-9.96122
合掌	-9.9626
小兒	-9.96307
三事	-9.96313
舍衛國	-9.96374
於其	-9.96385
飲酒	-9.96429
輕慢	-9.96456
差別者	-9.96504
天地	-9.9652
此沙門	-9.96524
依於	-9.96562
見世尊	-9.9659
欄楯	-9.96768
非梵行	-9.96853
擔	-9.96856
行慈	-9.96865
言語	-9.96865
鼓	-9.96904
未久	-9.96931
常念	-9.96974
至心	-9.96976
洗浴	-9.96978
迦旃延	-9.97
七法	-9.97005
遍滿一切世間成就遊	-9.97031
何緣	-9.97042
二種	-9.97097
有一比丘	-9.97111
阿闍世王	-9.97136
叉手	-9.97159
便為	-9.97174
變化	-9.97265
移	-9.97392
揵	-9.97411
悟	-9.97451
識處	-9.97467
亦能	-9.97486
不令	-9.97562
何等為五	-9.97597
而作	-9.97612
徹	-9.97628
二俱	-9.97757
已滅	-9.97768
禮事	-9.97785
竭	-9.97808
乏	-9.97858
澤	-9.97901
此等	-9.97995
惡見	-9.9801
彼沙門	-9.98067
謗	-9.98089
無學	-9.9811
犢子	-9.98139
懺悔	-9.98199
便退而去	-9.98255
若得	-9.98262
來至此	-9.98328
以法	-9.98357
曾見	-9.98376
彼彼	-9.9838
教人	-9.98455
餘比丘	-9.98492
隨其	-9.98494
有時	-9.98509
胎	-9.98529
令其	-9.9856
常住	-9.98563
為何等	-9.98593
有為	-9.98616
心中	-9.98654
華鬘	-9.98697
不須	-9.9882
身口意	-9.9884
行梵行	-9.98846
此說	-9.98954
來者	-9.99006
露	-9.99007
賢善	-9.99016
如意足	-9.99054
烏陀夷	-9.9911
答我	-9.99113
即得	-9.99134
或有一	-9.9919
飾	-9.99237
遭	-9.99283
如實知之	-9.99339
載	-9.99355
金剛	-9.99381
於欲	-9.99383
諸漏已盡	-9.99415
我以	-9.99532
威神	-9.99542
凡夫	-9.99547
一名	-9.996
求索	-9.99601
六情	-9.99629
殺害	-9.99667
則有	-9.99799
處處	-9.99826
有異比丘	-9.99854
不壞	-9.99938
尊者大目犍連	-9.99972
相在	-9.99991
堪能	-9.99994
堪任	-10.0004
王即	-10.0007
佛遊	-10.0009
知之	-10.0011
輪寶	-10.0017
哀愍	-10.002
為說法	-10.0021
或有眾生	-10.0024
燈	-10.0024
由旬	-10.0035
宣	-10.0036
樹木	-10.0039
不取	-10.0041
為說	-10.0044
令得	-10.0045
戰鬪	-10.0048
奇	-10.0049
熱惱	-10.005
祠	-10.0055
四部之眾	-10.0066
心無放逸	-10.0068
盲	-10.0068
心與慈俱	-10.0073
餘者	-10.0075
如是受	-10.0086
由此	-10.0103
長壽	-10.0107
逮	-10.0113
因緣生	-10.0115
瞻	-10.0126
彼因	-10.013
現法	-10.0133
山中	-10.0134
若近	-10.0134
非時	-10.0135
意欲	-10.0142
海水	-10.0147
厭離	-10.0156
憙	-10.016
野	-10.0163
尾	-10.0179
羅剎	-10.0185
睡	-10.0187
有三種	-10.019
名聞	-10.0191
攝受	-10.0191
作是思惟	-10.0193
實有	-10.0194
知有	-10.0197
則知	-10.0202
損減	-10.0202
可知	-10.0206
乃能	-10.0227
佛告婆羅門	-10.0231
於一切	-10.0232
若遠	-10.0239
而無	-10.0272
為習	-10.0277
未曾有	-10.0291
盡形壽	-10.0293
潤	-10.0294
金翅鳥	-10.0295
交露	-10.0296
說頌	-10.0299
有覺	-10.0302
虫	-10.0306
a	-10.0316
在一面立	-10.0319
入舍衛城乞食	-10.0322
為一	-10.0322
牆	-10.0324
善生	-10.0336
樂痛	-10.0337
住者	-10.0339
謂此	-10.0343
園觀	-10.0345
我住	-10.0352
六處	-10.0353
所食	-10.0354
斷絕	-10.0359
為佛作禮	-10.0362
愚者	-10.0362
真正	-10.0363
受者	-10.0365
婆羅門言	-10.0367
之所說	-10.0369
娛樂	-10.0375
免	-10.0383
甘	-10.0395
非人	-10.0396
沙門婆羅門等	-10.0398
。「『	-10.0402
或復有	-10.0408
一切皆	-10.0411
產	-10.0413
彼已	-10.0425
我本	-10.0426
若當	-10.0429
熾燃	-10.0431
牙	-10.0434
皆當	-10.0435
臨	-10.0437
壞敗	-10.044
五欲功德	-10.0445
退住一面	-10.0445
賴吒惒羅	-10.0453
不知如真	-10.0456
亦是	-10.0473
不退	-10.0485
共諍	-10.0492
影	-10.0494
佛住	-10.0496
汝等當知	-10.0498
得涅槃	-10.05
獸	-10.05
世尊說	-10.0508
不息	-10.0508
善趣	-10.0516
詣世尊所	-10.0519
以不	-10.0523
為佛	-10.0528
學道者	-10.0529
正行	-10.0537
廣布	-10.0538
貢高	-10.0545
則便	-10.055
繩	-10.0553
礙	-10.0557
飢	-10.056
此諸賢	-10.0561
地界	-10.0563
誹謗	-10.0569
瞿	-10.0569
病瘦醫藥	-10.0573
塚間	-10.0574
祇洹	-10.0574
伽彌尼	-10.0576
生死已盡	-10.0577
酪	-10.0579
村邑	-10.0579
不異	-10.058
於現法中	-10.0583
最妙	-10.0586
卿等	-10.0589
雖復	-10.0595
光音天	-10.0606
五法	-10.0609
桄	-10.0615
自作證成就遊	-10.0615
試	-10.062
目乾連	-10.0626
洲	-10.0634
愚人	-10.064
諸臣	-10.0642
生彼	-10.0651
梵王	-10.0657
若樂	-10.0659
彼作是念	-10.0676
猶若	-10.0684
婆私吒	-10.0686
柱	-10.0692
色相	-10.0696
愚癡人	-10.0697
功	-10.0701
大目揵連	-10.0703
狂	-10.0704
膝	-10.0706
遠塵離垢	-10.0707
度世間愛	-10.0714
大迦葉	-10.0721
出現世間	-10.0728
黠	-10.073
出現	-10.073
之德	-10.0733
疾病	-10.0738
無諍	-10.0745
正盡苦	-10.0752
牀	-10.0757
法眼	-10.0761
婇女	-10.0761
兄弟	-10.0763
煩	-10.0771
而起	-10.0784
不妄語	-10.0791
來詣	-10.0801
識住	-10.0807
邊際	-10.0808
貧	-10.081
不害	-10.0818
摩訶	-10.0821
即於	-10.0825
術	-10.0826
駕	-10.083
憎嫉	-10.0832
復生	-10.0833
飢渴	-10.0835
欲有所問	-10.0837
靜處	-10.0839
下賤	-10.0849
問佛	-10.0849
不婬	-10.0852
剎利種	-10.0852
來下	-10.0854
不求	-10.0854
苦受	-10.0854
過去世時	-10.086
永超世	-10.086
食訖	-10.0865
怖畏	-10.087
衣鉢	-10.0879
之上	-10.0879
牢	-10.0879
羅陀	-10.0889
若內	-10.0892
復有聲聞	-10.0896
是謂名為	-10.0897
是事	-10.0898
獨一靜處	-10.0902
烟	-10.0908
審	-10.0909
聽法	-10.0922
五種	-10.0936
十法	-10.0939
連	-10.0944
能自	-10.0944
斷於	-10.0955
但當	-10.0956
鳴	-10.0957
即往	-10.0957
跋耆	-10.0963
吒	-10.0963
往彼	-10.0963
論議	-10.0965
便說此偈	-10.0966
惡欲	-10.097
在遠離獨住	-10.0972
周匝圍遶	-10.0973
親屬	-10.0974
毘沙門天王	-10.0978
此四	-10.0985
倍常	-10.0992
得此	-10.0997
嚴駕	-10.1013
若苦	-10.1013
惑	-10.1017
衣食	-10.1025
集會	-10.1031
四為	-10.1035
是為三	-10.1038
相隨	-10.1042
當云何	-10.1058
求方便	-10.1074
即為	-10.1089
豐	-10.1089
為作	-10.1096
如是次第	-10.1103
1	-10.1103
第八	-10.1105
若復有人	-10.1107
當求	-10.1111
日出	-10.1112
便知	-10.1114
我於無量阿僧祇劫	-10.1116
七重垣牆	-10.1116
叉手向佛	-10.1119
鬘	-10.1131
逮得般涅槃	-10.1133
賢聖弟子	-10.1135
心善解脫	-10.1144
五十	-10.1158
取滅度	-10.1159
自思惟	-10.1164
各有	-10.117
有二種	-10.1179
苦集聖諦	-10.1184
氣力	-10.1189
為苦	-10.1195
我慢	-10.1199
亦如上說	-10.1211
無過	-10.1216
依止	-10.1226
當修	-10.1229
終無是處	-10.1233
當如是學	-10.1236
驚	-10.1238
囉	-10.1242
靖	-10.1243
甚為	-10.1244
雜色可觀	-10.1256
擲	-10.1263
解脫知見	-10.1266
一切怖	-10.1268
於世	-10.1276
受具足	-10.1285
說戒	-10.1287
聞此	-10.1289
口中	-10.1289
遙	-10.1291
色界	-10.1296
現世	-10.1301
謂三	-10.1305
善女人	-10.1305
所念	-10.1307
在世	-10.1309
無也	-10.1311
為善	-10.1313
得脫	-10.1314
不定	-10.1314
。」』	-10.1329
之行	-10.1335
其後	-10.1336
迎	-10.1343
燃	-10.1353
久見	-10.1357
故有	-10.1357
於地	-10.1365
得清淨	-10.1374
淚	-10.1375
非不	-10.1376
罵詈	-10.1379
境	-10.1381
障礙	-10.1382
色味	-10.1384
是名比丘	-10.1385
不隨	-10.1386
圓滿	-10.1386
殊勝	-10.1388
二法	-10.1388
端嚴	-10.1388
譏	-10.1389
有言	-10.139
善住	-10.1394
全	-10.1396
樂著	-10.1405
我今當說	-10.1409
彼國	-10.141
十二因緣	-10.1412
結使	-10.1419
為欲	-10.1423
諸天子	-10.1427
此則	-10.1434
消滅	-10.1436
非我所	-10.144
)(	-10.1443
惡人	-10.1446
我先	-10.1447
於汝	-10.1448
敬重	-10.1459
無疑	-10.1475
卷	-10.1491
哉	-10.1494
緣生	-10.15
良	-10.1512
交	-10.1513
非無習	-10.1522
愚癡無聞凡夫	-10.1528
懸	-10.1529
蓮華	-10.1529
醫	-10.1529
不能令	-10.153
禮敬	-10.1532
阿毘曇	-10.1532
澡浴	-10.1534
音聲	-10.1536
七重行樹	-10.1536
住止	-10.1538
不可意	-10.1538
與大比丘眾五百人俱	-10.1539
鬚閑提	-10.154
發露	-10.1547
惡色	-10.1547
宜應	-10.155
當於爾時	-10.1569
世間有	-10.157
左	-10.1575
離殺	-10.1582
啟	-10.1586
泥犁	-10.1588
更不	-10.1591
勝妙	-10.1596
前後圍遶	-10.1616
看	-10.1617
可意	-10.1618
八十	-10.1618
因是	-10.1621
時節	-10.1622
在中	-10.1627
昔日	-10.1632
還復	-10.1636
九者	-10.165
兜率天	-10.1652
珠寶	-10.1653
少有	-10.1656
敗	-10.1658
牽	-10.1661
髓	-10.1664
灑	-10.167
導師	-10.1671
寤	-10.1671
富貴	-10.1672
伴	-10.1673
妹	-10.1678
四維上下	-10.1682
喪	-10.1683
治化	-10.1683
速疾	-10.1685
四天下	-10.1688
人皆	-10.1693
如實	-10.1699
得定	-10.1703
無明者	-10.1704
生苦	-10.1706
為惡	-10.1707
競	-10.172
出城	-10.172
成就歡喜已	-10.1724
與汝	-10.1724
別離	-10.1742
十方	-10.1743
樂住	-10.175
灰	-10.1751
墮惡趣	-10.1751
出入	-10.1755
當生	-10.1764
我弟子	-10.1766
沙彌	-10.1787
得生天上	-10.1787
』	-10.1789
而復	-10.1791
然我	-10.1793
知是	-10.1796
燋	-10.18
得勝	-10.1804
禁	-10.1805
於此法	-10.1806
於受	-10.181
汝等當	-10.1814
能使	-10.1817
諷誦	-10.1817
最尊	-10.1818
慈愍	-10.1819
即自	-10.182
佛在舍衛國	-10.1821
譬如有人	-10.1823
我實	-10.1825
有大威神	-10.1827
受報	-10.1828
康強	-10.1829
八千	-10.1829
人間遊行	-10.1834
積聚	-10.1834
息寂	-10.1836
略說乃至	-10.1837
尊者難陀	-10.1838
苦滅道跡聖諦	-10.1843
於大眾中	-10.1858
刀劍	-10.186
無覺	-10.1861
火燒	-10.1862
佛所	-10.1866
有色	-10.1867
吾今	-10.1871
勝者	-10.1877
大會	-10.1883
不正思惟	-10.1884
令人	-10.1885
是比丘	-10.1888
受行	-10.1889
精勤方便	-10.1891
若沙門	-10.1893
十種	-10.1897
妄	-10.1903
所受	-10.1903
告言	-10.1909
周遍	-10.191
休息	-10.1913
見有	-10.192
色滅	-10.1924
四神足	-10.1925
三百	-10.1925
欲愛	-10.1926
有六	-10.1935
無垢	-10.1935
斷滅	-10.1943
愍	-10.1944
不修	-10.1946
佛即	-10.1947
態	-10.1949
有力	-10.1952
夏	-10.1954
其福	-10.1955
鞞	-10.1955
譯	-10.1959
諸外道	-10.1963
伎樂	-10.1963
未盡	-10.1964
早	-10.1964
尊者摩訶迦旃延	-10.1964
瞻視	-10.1965
牢固	-10.1966
栴檀	-10.1968
繫縛	-10.1968
自見	-10.197
譬喻	-10.1972
專精思惟	-10.1972
於其中間	-10.1974
人民熾盛	-10.1975
白淨	-10.1977
來至我所	-10.1978
經歷	-10.1981
道跡	-10.1988
佛說是經	-10.1992
何等為十	-10.1993
喜已	-10.1993
身如身	-10.1995
知彼	-10.1997
我即	-10.2004
我於爾時	-10.2004
繫念	-10.2015
為優婆塞	-10.2016
千由旬	-10.2018
諸婆羅門	-10.2019
難提	-10.2027
色集	-10.2028
略說	-10.2034
當觀	-10.2035
故說	-10.2035
於如來	-10.2043
往昔已	-10.2043
十者	-10.2045
於他	-10.205
欲貪	-10.2051
哭	-10.2062
有一人	-10.2065
言說	-10.2068
大地獄	-10.2073
叉	-10.2074
身觸	-10.2075
如是行	-10.2076
使我	-10.2084
得解	-10.2085
善業	-10.2086
尼揵	-10.2091
充滿	-10.2092
槃	-10.2096
3	-10.21
無煩	-10.2101
諸天眾	-10.2107
於其中	-10.2114
迷	-10.2114
盧	-10.2118
嫌	-10.212
今已	-10.212
欲想	-10.2121
遶	-10.2121
姊妹	-10.2124
弗于逮	-10.2125
心中所念	-10.2127
坐已	-10.2128
於苦	-10.2133
尊者摩訶迦葉	-10.2133
不現	-10.2135
尊者舍黎子	-10.2137
得法	-10.2137
不敬	-10.2149
若有異道人	-10.2151
射	-10.2156
將來	-10.2159
?「	-10.2161
如來弟子	-10.2163
便當	-10.2168
隱	-10.217
面前	-10.2171
我昔	-10.2171
雖有	-10.2175
枝葉	-10.2178
住此	-10.2181
從座起而去	-10.2181
不成	-10.2183
及與	-10.219
厭患	-10.2191
正等正覺	-10.2197
道者	-10.2202
得見	-10.2202
商人	-10.2203
生子	-10.2203
不還	-10.2219
汝實	-10.2225
諸龍	-10.2236
說經	-10.2243
為王	-10.2245
住彼	-10.2257
夜半	-10.2261
饒	-10.2263
畫	-10.2265
彼有	-10.2267
為最	-10.2267
是義	-10.2269
汁	-10.227
要當	-10.227
任	-10.2272
不可思議	-10.2277
悲泣	-10.2277
須深	-10.2279
一日一夜	-10.2283
我今問汝	-10.229
禮佛	-10.229
難可	-10.2291
如來所說	-10.2292
城門	-10.2298
成阿羅漢	-10.2299
地味	-10.2299
亦不見	-10.23
婆羅門種	-10.2308
彼於後時	-10.2309
我亦如是	-10.232
金輪	-10.2325
善心	-10.233
一切諸	-10.2331
三藏	-10.2332
大樹	-10.2332
若細	-10.2335
其水	-10.2336
所在	-10.2339
汝等比丘	-10.2347
一切處	-10.2354
聖法	-10.236
亦為	-10.2361
限	-10.2381
意不	-10.2381
我此	-10.2383
無礙	-10.2387
容	-10.2398
如是廣說	-10.2398
從座起	-10.2401
顧	-10.2404
念佛	-10.2404
喜心	-10.2406
延	-10.2408
私	-10.2417
玉女寶	-10.2418
天眼	-10.2421
臂	-10.2422
健	-10.2423
頓	-10.2424
有因緣	-10.2424
必有是處	-10.2424
前世	-10.2424
檀	-10.2425
化樂天	-10.2429
聰明	-10.2429
裂	-10.243
汝於	-10.2431
已訖	-10.2433
親友	-10.2433
接	-10.2434
出家修道	-10.2435
虎	-10.2437
還至	-10.2437
流離王	-10.2438
出息	-10.2438
聰明智慧	-10.2441
s	-10.2443
比丘所	-10.2445
則生	-10.2447
靡不	-10.2453
四事	-10.2455
五事	-10.2456
斯陀含	-10.2459
定意	-10.2463
不染	-10.2465
成就歡喜	-10.2466
護國	-10.2469
此見	-10.247
天眾	-10.2471
有何因緣	-10.2484
甚多	-10.2484
坐臥	-10.2492
正道	-10.2494
五為	-10.2494
千歲	-10.2497
舍衛城	-10.2498
知此	-10.2498
教令	-10.2499
聞者	-10.2505
卷第二十	-10.2515
大山	-10.2517
以是故	-10.252
出已	-10.2529
能斷	-10.2532
得生	-10.2541
之想	-10.2541
若外	-10.2542
而能	-10.2546
醜	-10.2555
攝持	-10.2557
付	-10.2559
此眾生	-10.2564
弊惡	-10.2566
劍	-10.257
宗	-10.2577
為我說	-10.258
遍滿	-10.2589
行滅	-10.2589
亦說	-10.2591
如斯	-10.2592
世尊歎	-10.2594
以鐵	-10.2594
不實	-10.2601
易不難得	-10.2601
奉持	-10.2601
菩提	-10.2606
信樂	-10.2606
念法	-10.2608
大目乾連	-10.261
汝自	-10.261
心無	-10.2611
若過去	-10.2612
大苦	-10.2614
為最勝	-10.2618
我寧可	-10.2619
之福	-10.2619
受身	-10.2625
居士寶	-10.2629
有子	-10.2632
日夜	-10.2637
大福祐	-10.2642
第十	-10.2649
諸人民	-10.2652
人民之類	-10.2662
三月	-10.2663
長老比丘	-10.2663
所願	-10.2668
我至誠	-10.2674
常樂	-10.2676
有常	-10.2682
我不見	-10.2685
而說	-10.2698
黃金	-10.2704
無所有處	-10.2712
說是	-10.2715
普照	-10.2723
泉	-10.2723
初禪	-10.2724
炙	-10.2729
慧羸	-10.2731
伎	-10.2732
當知此	-10.2735
賜	-10.2736
殃	-10.2738
嗚呼	-10.2744
阿脩羅	-10.2745
爪	-10.2746
安慰	-10.2748
寺	-10.275
4	-10.2752
長短	-10.2755
叉手向	-10.2758
宋	-10.2761
苦集	-10.2761
村落	-10.2763
名譽	-10.2764
大人之相	-10.2764
默然而住	-10.2764
是我所	-10.2764
一切行無常	-10.2768
房舍	-10.2773
時有一天	-10.2778
施行	-10.2785
於人	-10.2788
不殺生	-10.2789
見彼	-10.2803
出世間	-10.2804
彼王	-10.2806
諸梵行	-10.2814
後夜	-10.2823
福報	-10.2826
多少	-10.2826
是身	-10.2827
已解	-10.2833
自作	-10.2836
久住	-10.2838
入城	-10.2845
雙	-10.2852
有八萬四千	-10.2855
成神通	-10.2857
四兵	-10.2858
當斷	-10.2861
五百人	-10.2861
切	-10.2872
律儀	-10.2872
道法	-10.2874
又有	-10.2876
惡道	-10.2881
不可得	-10.2892
第四禪	-10.2893
維	-10.2897
狐疑	-10.2899
我今當往	-10.29
有異	-10.2902
不虛	-10.2902
何因何緣	-10.2902
撿	-10.2904
輸	-10.2909
圓	-10.2912
梵行者	-10.2913
橫	-10.2913
晨朝	-10.2914
毀呰	-10.2914
元	-10.2917
白狗	-10.2918
多羅	-10.2921
能為	-10.2921
不盡	-10.2922
稽首作禮	-10.2923
救護	-10.2924
非義	-10.2926
於眾	-10.293
善念	-10.2935
如汝所言	-10.2935
愛盡	-10.2945
不可計	-10.2949
說偈問佛	-10.295
不肯	-10.2952
當共	-10.2953
無著	-10.2958
聚會	-10.2962
若生	-10.2962
種種說法	-10.2965
愧	-10.2965
忽然	-10.2969
得自在	-10.2971
不移動	-10.2972
薩	-10.2973
但為	-10.2977
本末	-10.2986
色無常	-10.299
惡不善	-10.2994
善能	-10.2996
踊躍	-10.2997
何等法	-10.3003
以自	-10.3004
壯	-10.3008
四聖諦	-10.3008
當如	-10.3011
若使	-10.3011
不具	-10.3014
一劫	-10.3015
懼	-10.3017
一面	-10.3026
繞	-10.3034
寧可	-10.304
千世界	-10.3041
當受	-10.3047
天王釋	-10.3051
恒水	-10.3052
師子吼	-10.3061
憎	-10.3061
表	-10.3082
穿	-10.3082
危	-10.3083
自今已後	-10.3083
文殊師利	-10.3084
無比	-10.3085
三明	-10.3085
質多羅長者	-10.3089
自害	-10.3095
鴦掘魔	-10.3098
尸婆羅	-10.3098
其意	-10.3099
隋言	-10.3099
法依	-10.31
其子	-10.3105
身諸光明遍照	-10.3105
自護	-10.3111
明達	-10.3118
彼女	-10.3118
諸比丘尼	-10.3129
錢	-10.3132
治生	-10.3133
不相	-10.3135
亦不知	-10.3136
意法	-10.3137
若現在	-10.3138
遙見世尊	-10.3148
善宿	-10.315
天子復	-10.3154
向佛	-10.3157
闇冥	-10.316
之後	-10.3162
汝是	-10.3175
得阿那含	-10.3181
不正	-10.3182
閻浮	-10.3183
奢	-10.3183
是沙門	-10.3187
至竟	-10.319
閑居	-10.3191
阿難比丘	-10.3192
誠	-10.3198
無熱	-10.3208
佛教	-10.321
作此	-10.3215
已來	-10.3217
善護	-10.3225
其事	-10.3227
譽	-10.3234
每	-10.3241
向者	-10.3243
客	-10.3245
鞭	-10.3246
鷄	-10.3246
折	-10.3247
出種種	-10.3251
威力	-10.3252
諸生活具	-10.3256
塗香	-10.3256
偏袒	-10.3257
邪命	-10.3257
繞三匝而去	-10.3259
給孤獨長者	-10.3259
有大如意足	-10.326
尊者大目乾連	-10.3262
生厭	-10.3263
二事	-10.3264
亦莫	-10.3264
無愧	-10.3268
瞿曇彌	-10.327
其餘者為癡	-10.3273
昇進	-10.3277
有想	-10.328
堪	-10.3284
貪伺	-10.3284
為大	-10.3286
彼梵志	-10.3298
欲者	-10.33
居家	-10.3301
佛告迦葉	-10.3304
受之	-10.3313
日日	-10.3316
到佛所	-10.3324
無能	-10.3324
摩尼	-10.3326
我說彼	-10.333
昔時	-10.3331
尊者阿難白	-10.3341
分布	-10.3346
為汝說	-10.3346
群生	-10.3347
然後乃	-10.3347
耆	-10.3349
卷第三十	-10.3349
以彼	-10.3354
種族	-10.3356
遍淨天	-10.3359
池水	-10.3359
若未來	-10.3359
為樂	-10.3365
不覺	-10.3367
斷諸	-10.3371
令彼	-10.3372
如來說	-10.3376
我言	-10.3379
如是觀	-10.3383
尊者大迦旃延	-10.3385
婢	-10.3386
尊者賴吒惒羅	-10.3386
頂生王	-10.3388
奴	-10.3391
豆	-10.3392
窟	-10.34
床褥	-10.3412
為行道	-10.3415
逼迫	-10.3421
令有	-10.3421
讚嘆	-10.3421
溫	-10.3421
圍繞	-10.3422
右膝著地	-10.3424
六法	-10.3425
利刀	-10.3425
智者所	-10.3429
雨勢	-10.3432
而今	-10.3432
家中	-10.3432
天復以偈讚	-10.3433
所求	-10.3434
動搖	-10.3438
陀羅	-10.3443
緣起	-10.3443
不從	-10.3446
諸善法	-10.3449
說此	-10.3452
金輪寶	-10.3454
色愛	-10.3456
聚集	-10.3457
置於	-10.346
通達	-10.3465
王波斯匿	-10.3468
而彼	-10.3474
或作	-10.3478
喜悅	-10.3479
在上	-10.3484
大王當知	-10.3489
我從	-10.3491
四寶	-10.3501
龍象	-10.3503
法如法	-10.3505
欲知	-10.3507
不苦不樂受	-10.3507
苦盡	-10.3516
多羅樹	-10.3526
七覺意	-10.3527
此事實	-10.3529
非一	-10.3532
有生	-10.3535
而取	-10.3538
欺	-10.3539
內心	-10.3545
恣	-10.3546
處所	-10.3551
之眾	-10.3555
猶豫	-10.3559
躬	-10.3565
踰闍那	-10.3565
斷此	-10.3567
化生	-10.3568
旃陀羅	-10.3574
自守	-10.3575
質	-10.3577
弟	-10.3578
斯等	-10.3579
熾	-10.358
彼諸眾生	-10.358
爛	-10.3586
歌	-10.3588
奇哉	-10.3597
宜知是時	-10.3604
甚可愛樂	-10.3605
須跋陀羅	-10.3606
必至惡處	-10.3606
得安樂	-10.3607
羅睺羅阿修羅王	-10.3607
而自娛樂	-10.3608
顯現	-10.3608
求欲	-10.361
跋陀和利	-10.3611
電	-10.3612
共和合	-10.3624
於未來世	-10.3626
生老病死	-10.3627
不計	-10.363
大神	-10.3635
滅道跡	-10.3638
念處	-10.3639
色具足	-10.364
已復	-10.3642
自身	-10.3646
經戒	-10.3647
癡人	-10.3652
不識	-10.3652
毘舍	-10.3653
之義	-10.3664
復語	-10.3666
亦不能	-10.3671
我師	-10.3672
不墮	-10.3677
結縛	-10.3678
便可	-10.3694
女寶	-10.3698
好色	-10.37
有天子	-10.3702
卷第四十	-10.3705
得利	-10.3707
弓	-10.3717
示現	-10.3723
皮肉	-10.3724
受此	-10.3726
少欲	-10.3735
欝單曰	-10.3737
無願	-10.3743
病人	-10.3745
有熱	-10.3753
沙門梵志	-10.3754
不畏	-10.3757
不在	-10.3757
有罪	-10.376
返	-10.376
感	-10.3763
比丘尼是	-10.3765
便自	-10.3766
須菩提	-10.3767
含	-10.3768
東西	-10.3773
四千	-10.3773
眼觸	-10.3775
貫	-10.3776
圍	-10.3777
榮	-10.3778
顯示	-10.378
龜	-10.3782
麥	-10.3782
一由旬	-10.3783
苦諦	-10.3786
諸尼乾	-10.3787
共相娛樂	-10.3792
燒炙	-10.3793
佛告王	-10.3796
由是	-10.3796
人乎	-10.38
世間人	-10.3801
羸	-10.3802
穢污	-10.3803
云何為六	-10.3803
時到	-10.3805
作福	-10.3805
惡念	-10.3806
巧	-10.3823
色想	-10.383
於如來所	-10.3834
改	-10.3838
欲見	-10.3848
非沙門	-10.3856
從此	-10.3858
諸結	-10.3859
之言	-10.3866
不厭	-10.3869
其地	-10.3875
衣裳	-10.3876
同一	-10.3878
或食	-10.388
憂惱	-10.388
專心	-10.388
皆以	-10.3882
欲斷	-10.3885
三尊	-10.3887
▁爾時	-10.3889
及其	-10.389
便往至	-10.3892
善解	-10.3893
行施	-10.3898
七百	-10.39
大天王	-10.3905
得漏盡	-10.3906
釜	-10.3907
口行	-10.3907
互相	-10.3908
香華	-10.3915
金色	-10.3917
若以	-10.3917
仙	-10.3919
逝	-10.3919
或生	-10.3922
殊	-10.3925
宮中	-10.3929
誦習	-10.393
是非	-10.3932
世尊知	-10.3936
歸命	-10.3937
所依	-10.3938
寶車	-10.394
語已	-10.3941
逢	-10.3942
勒	-10.3942
封	-10.3944
孝	-10.3944
奇特	-10.3949
誓	-10.3954
咽	-10.3954
尼健子	-10.396
死此生彼	-10.3963
童女	-10.3963
廁	-10.3964
眾寶	-10.3965
正等覺	-10.3965
宋天竺三藏求那跋陀羅譯	-10.3966
苦覺	-10.3967
捨覺分	-10.3969
白王	-10.3975
得大果報	-10.3976
有觀	-10.3982
彼不應來	-10.3984
無有量	-10.3985
熏	-10.3991
思量	-10.3995
得正見	-10.3997
十力	-10.4006
優婆離居士	-10.4007
無色界	-10.4007
大天	-10.402
過度	-10.4021
已後	-10.4023
當行	-10.4024
勤修	-10.4025
必有	-10.4036
亦名	-10.4037
此地	-10.4042
長大	-10.4053
變易法	-10.4056
經法	-10.4062
我心	-10.4072
禮世尊足	-10.4075
我正法	-10.4076
用是故	-10.4078
佛告之	-10.4079
缺	-10.4079
國人	-10.4086
正知	-10.4092
汝所	-10.4095
命盡	-10.4096
無相	-10.4098
窮	-10.41
婬欲	-10.4101
十事	-10.4107
身中	-10.4108
阿那含果	-10.411
娑羅	-10.4112
寧有	-10.4116
滅道跡如實知	-10.4119
天及人	-10.4121
觀此	-10.4125
占	-10.4132
陵	-10.4132
夷	-10.4136
得定心	-10.4137
當往	-10.4137
七覺分	-10.4137
雪山	-10.4139
買	-10.4139
略說如前	-10.414
可久	-10.4141
受極重苦	-10.4143
示教利喜	-10.4143
跋	-10.4144
意亦復如是	-10.4144
頗梨	-10.4144
質直	-10.4149
尼揵親子	-10.415
勇	-10.415
唾	-10.415
多諸	-10.4152
邪業	-10.4152
赫然大明	-10.4154
安樂住	-10.4154
自致涅槃	-10.4154
聖戒成就	-10.4155
佛便告	-10.4159
此摩牢	-10.4159
安般	-10.4161
及諸比丘	-10.4161
火然	-10.4166
之身	-10.417
往至彼	-10.4172
華香	-10.4177
無諸	-10.4177
往問	-10.4179
阿那邠邸長者	-10.418
諸世間	-10.4187
行非法	-10.4196
唯願世尊受我	-10.4207
戒取	-10.4209
不足	-10.4211
彼婆羅門	-10.422
憂愁	-10.422
生諸	-10.4225
精進力	-10.4226
諸有沙門	-10.4227
獨處	-10.4228
應詣彼	-10.4229
未起	-10.4234
離貪	-10.424
畜	-10.4241
無量百千	-10.4242
掉	-10.4249
專精	-10.4249
閻浮洲	-10.4249
何義	-10.4251
摩羅	-10.4252
佛告梵志	-10.4254
妙行	-10.4255
所聞	-10.4258
猛	-10.4259
福利	-10.4266
執持	-10.4267
有此四	-10.4267
又告	-10.4269
形色	-10.4269
出於	-10.4281
苦聖諦	-10.4282
受其	-10.4283
觀法	-10.4284
自手	-10.4285
人天	-10.429
悉能	-10.4298
忘失	-10.4302
低	-10.4305
謂聖弟子	-10.4306
如來所	-10.4307
諸梵志	-10.4307
義者	-10.4307
世尊即	-10.4308
百年	-10.4308
最為第一	-10.4311
均頭	-10.4318
解說	-10.4318
赤真珠	-10.4319
之物	-10.432
佉	-10.432
二日	-10.432
慕	-10.4324
角	-10.4324
七覺支	-10.4327
正盡覺	-10.4327
非無	-10.4327
觸嬈	-10.4329
困	-10.433
謂四	-10.4332
慶	-10.4332
從是因緣	-10.4334
止觀	-10.4338
栽	-10.4339
正信非家	-10.4339
拭	-10.4339
嶮	-10.434
不如施一	-10.435
毘摩質多羅阿修羅王	-10.435
不變易	-10.4352
所趣	-10.4356
自恣	-10.4357
尊者婆耆舍	-10.4358
云何見	-10.4361
求安隱快樂	-10.4362
陀然	-10.4364
汝若	-10.4368
能忍	-10.437
命根	-10.4372
而作是語	-10.4372
般泥洹	-10.4375
當受持	-10.438
禮拜	-10.4383
虛空中	-10.4388
如有	-10.4389
長跪	-10.4398
如似	-10.4399
於後	-10.4402
世尊聞已	-10.4407
何者是	-10.4409
因此故	-10.4412
之力	-10.4414
磨滅	-10.4423
欲生	-10.4424
不依	-10.4434
諸受	-10.4438
大雨	-10.4441
八萬	-10.4441
阿難白佛言	-10.4442
行法	-10.4446
即生	-10.4447
則能	-10.4448
彼沙門瞿曇	-10.4448
三十二	-10.4449
如上	-10.445
盛滿	-10.4458
洗足已	-10.4467
當於	-10.4472
自有	-10.4479
如世尊說	-10.449
阿難白佛	-10.4494
若此	-10.4495
?』「	-10.4503
入地獄	-10.4505
若色	-10.4506
大典尊	-10.4506
還自	-10.451
湯	-10.4513
見是	-10.4515
得樂	-10.4519
鈎	-10.4519
星宿	-10.4521
嚩	-10.4522
契經	-10.4523
錄	-10.4524
彼一切非我	-10.4525
啼泣	-10.4526
欝	-10.4527
【	-10.4527
無量空處	-10.4528
說者	-10.4528
渧	-10.4528
死後	-10.4529
復有三法	-10.453
剎帝利	-10.453
會中	-10.4531
大將	-10.4531
灌頂	-10.4531
飛行	-10.4531
妙色	-10.4532
阿練若	-10.4534
顏貌端正	-10.4538
僧不壞淨	-10.4541
清白	-10.4541
從今日始	-10.4543
正見乃至正定	-10.4543
優鉢羅	-10.4546
大沙門	-10.4549
幾法	-10.4551
之具	-10.4559
色是我	-10.456
風界	-10.4566
戒律	-10.4567
閑靜	-10.4569
是何	-10.4572
不亂	-10.4574
彼言	-10.4581
為我說法	-10.4582
千子	-10.4584
須拔	-10.4586
四意止	-10.4593
供養父母	-10.4595
無令	-10.4598
久遠	-10.4601
床榻	-10.4611
共同	-10.4615
不相在	-10.4616
便滅	-10.4623
生此念	-10.4624
不悔	-10.4628
云何為二	-10.4631
乃至邪見	-10.4636
偷盜	-10.4637
而出	-10.4639
大歡喜	-10.4644
蜱肆王	-10.4649
歎說	-10.465
無量眾生	-10.4663
說此偈	-10.4686
超	-10.4695
假	-10.4695
福業	-10.4698
向彼	-10.4704
相續	-10.4707
多所	-10.4708
常為	-10.4709
蘇	-10.471
娑	-10.4711
標	-10.4712
注	-10.4717
斧	-10.4717
漿	-10.4717
朽	-10.4718
異學箭毛	-10.472
波羅㮈	-10.4722
優多羅	-10.4723
闊	-10.4723
在虛空中	-10.4724
清苦行苦行	-10.4725
鞞摩質多羅阿修羅王	-10.4728
不壞淨	-10.4729
尊者摩訶拘絺羅	-10.473
入村乞食	-10.473
可往	-10.4732
不欺	-10.4732
聞是語	-10.4733
之業	-10.4734
尊者大拘絺羅	-10.4736
繫念在前	-10.4738
玉耶	-10.4742
善友	-10.4745
不語	-10.4751
初夜	-10.4751
病苦	-10.4752
不煩熱	-10.4763
略	-10.4764
三禪	-10.4766
自說	-10.4768
正思	-10.4771
說此法	-10.4775
所縛	-10.4776
見也	-10.4779
由此因緣	-10.4781
無罪	-10.4788
隨其所	-10.4792
是為四	-10.4793
合掌白佛	-10.4795
惡魔	-10.48
此婆羅門	-10.4809
月天子	-10.4812
務	-10.4815
伽藍	-10.4815
止宿	-10.4817
前後	-10.4824
三十二相	-10.4824
天帝	-10.483
萬歲	-10.4839
有十	-10.4843
毘舍離	-10.4844
婦女	-10.4848
古	-10.4851
死苦	-10.4855
或有沙門	-10.4857
汝莫	-10.4865
欲取	-10.4867
謂有	-10.487
顧念	-10.4871
心懷	-10.4873
劣	-10.4879
諸梵行者	-10.488
師長	-10.488
諸佛世尊	-10.4884
還詣	-10.4887
擾	-10.4897
如來藏	-10.4898
命終之後	-10.4899
二曰	-10.4901
苑	-10.4903
我無	-10.4903
漬	-10.4906
卒	-10.4907
嬈	-10.4909
邏	-10.4913
諫	-10.4916
震動	-10.4919
諦觀	-10.492
捷疾	-10.492
知其	-10.492
以是義故	-10.4923
特	-10.4923
清旦	-10.4923
不善根	-10.4924
潤澤	-10.4925
獼猴	-10.4925
諸上座	-10.4927
以何等故	-10.4927
於其夜	-10.4928
閻羅王	-10.493
臭穢	-10.493
床臥具	-10.4931
氣力如常	-10.4931
大力	-10.4932
如月	-10.4933
彼佛	-10.4935
一月	-10.4935
斷欲	-10.4936
從坐起去	-10.4939
還精舍	-10.4945
樂住遠離	-10.4946
十五	-10.495
正觀	-10.4951
法及比丘眾	-10.4952
歸佛	-10.4954
夢見	-10.4956
昔者	-10.496
因此故說	-10.4962
有情	-10.4963
相違	-10.4964
手長者	-10.4973
已見	-10.498
是說	-10.4982
不堪	-10.4988
受罪	-10.4988
自知自覺	-10.4988
得無	-10.4991
答我言	-10.4992
非身	-10.4993
逮得	-10.4996
所居	-10.5003
我今已	-10.5005
意解	-10.5006
三日	-10.5007
諸比丘白佛	-10.5008
我所見	-10.5011
諸餘	-10.5014
之曰	-10.5015
止住	-10.5024
而聽	-10.5025
邪念	-10.5028
沫	-10.503
我常	-10.5033
聞其	-10.504
坐具	-10.5041
當捨	-10.5053
自行	-10.5056
色患	-10.5059
修善	-10.5061
摩竭	-10.507
持戒者	-10.5079
耆闍崛山	-10.508
五比丘	-10.5097
肥	-10.5097
儀	-10.5102
亦可	-10.5103
擊	-10.5103
是故我	-10.5106
如汝	-10.5107
若知	-10.5108
大智	-10.5108
汝本	-10.5114
法律	-10.5116
伽羅	-10.5116
亦不得	-10.512
米	-10.5121
翅	-10.5121
增伺	-10.5121
蘊	-10.5122
大海中	-10.5124
蔭	-10.5125
徑	-10.5125
焉	-10.5125
麁澁	-10.5126
掘	-10.5126
行在祇樹給孤獨園	-10.5126
闕	-10.5126
噉	-10.5127
鉤	-10.5127
檀越	-10.5129
坐一樹下	-10.5131
涕	-10.5132
謗毀	-10.5132
行布施	-10.514
開解	-10.5146
作不善業	-10.5148
逆風	-10.5149
即還	-10.5152
此是實	-10.516
鼻香	-10.516
道弟子	-10.516
若無常	-10.5163
傷害	-10.5163
流轉	-10.5166
墮地獄	-10.5166
法行	-10.5166
如實觀察	-10.517
有眾多比丘	-10.5171
三惡道	-10.5175
此三法	-10.5176
無窮	-10.518
然此	-10.5185
癰	-10.5189
彼尊者	-10.5201
見如實	-10.5206
或說	-10.5206
但有	-10.521
如是再三	-10.5211
我所說	-10.5211
身長	-10.5213
人有	-10.5213
問我	-10.5215
覺悟	-10.5222
枯	-10.5223
心之所念	-10.5223
從佛受教	-10.5244
九十	-10.525
縱廣五十由旬	-10.5255
現身	-10.5256
不墮惡趣	-10.5257
何物	-10.5263
為知	-10.5265
得知	-10.5268
為他	-10.5268
增減	-10.527
第一義	-10.5271
苦習	-10.5274
高廣	-10.5275
彼長者	-10.5278
我問	-10.5289
空閑	-10.5291
如是耳	-10.5291
縱	-10.5294
盡已	-10.5294
賤	-10.5295
不護	-10.5297
過是	-10.5299
善現	-10.5303
悉知	-10.5304
或言	-10.5304
淨修梵行	-10.5306
梵志梵摩	-10.5306
等覺	-10.5306
是聖	-10.5308
賴吒和羅	-10.5313
問世尊	-10.5313
淳	-10.5314
不能知	-10.5317
憍	-10.5323
歷	-10.5325
騎	-10.5327
資	-10.5328
厄	-10.5329
亦得	-10.5331
雷	-10.5331
尺	-10.5332
心定	-10.5333
螺	-10.5334
齊是不過	-10.5334
】【	-10.5336
長跪叉手	-10.5336
上天	-10.5337
兼	-10.5338
因此清苦行苦行	-10.5339
所以稱	-10.534
敷座	-10.534
得究竟智	-10.5345
耗	-10.5345
露地	-10.5349
求義及饒益	-10.5349
安快	-10.5351
於今	-10.5353
當勤方便	-10.5353
智慧者	-10.5356
優婆私	-10.5357
威光	-10.5359
其法	-10.5363
象馬	-10.5364
即出	-10.5368
疑蓋	-10.537
慧根	-10.5372
長者家	-10.5378
身業	-10.5379
舉身	-10.5379
設復	-10.5381
無憂	-10.5387
眼根	-10.5389
恨	-10.539
身命	-10.5392
施者	-10.5393
真珠	-10.5393
設當	-10.5393
不可愛	-10.5394
學者	-10.5397
大梵天王	-10.5399
往詣彼	-10.5405
廢	-10.541
色像	-10.5413
身口	-10.542
所纏	-10.5424
不滅	-10.5426
摩竭國	-10.5428
害心	-10.5428
非道	-10.5429
所說法	-10.5433
竹	-10.5436
識集	-10.5437
受於	-10.5442
毘婆尸佛	-10.5445
即與	-10.5446
大小	-10.5446
羅婆	-10.5447
其行	-10.5452
世無	-10.5453
議已	-10.546
施主	-10.546
一曰	-10.5462
教勅	-10.547
樂覺	-10.5482
羅閱城	-10.5482
最為	-10.5493
何等人	-10.5501
聽受	-10.5502
上坐	-10.5506
豫	-10.5512
災	-10.5515
所有眾生	-10.5515
彼以	-10.5516
誰能	-10.5516
六為	-10.5516
信施	-10.5517
尼乾	-10.5522
諸門	-10.5526
休	-10.5532
充	-10.5533
累	-10.5534
有疑	-10.5534
斛	-10.5536
瘦	-10.5537
貪愛	-10.5539
總	-10.554
樵	-10.554
物主	-10.5541
世尊是法根	-10.5541
公	-10.5541
不起諸漏	-10.5542
迷惑	-10.5542
孔雀	-10.5544
侍從	-10.5547
毒痛不可忍	-10.5548
我不說	-10.555
盡其形壽	-10.5552
天下人	-10.5554
稱讚	-10.5556
盡諸有漏	-10.5557
摶食	-10.5557
當如是答	-10.556
釋迦	-10.5561
意止	-10.5562
人言	-10.5568
不復生	-10.557
多行	-10.5573
漏盡阿羅漢	-10.5574
彼行禪者	-10.5579
若生人中	-10.558
若有一人	-10.5583
之本	-10.5591
法服	-10.5592
覺法	-10.5595
汝等諦聽	-10.5596
不放逸住	-10.5601
心樂	-10.5601
取其	-10.5605
便起	-10.5611
教法	-10.5616
更相	-10.5616
一分	-10.5619
所覆	-10.5619
來入	-10.5621
復有四	-10.5622
奉上	-10.5626
棺	-10.5637
阿育	-10.5638
復有眾生	-10.564
香氣	-10.5646
聽我	-10.5653
眼見色	-10.5655
從何	-10.566
當與	-10.5661
聖人	-10.5664
得福	-10.5664
王聞	-10.5667
已起	-10.5669
復於	-10.5669
證法	-10.5669
汝應	-10.5679
得歡喜	-10.5679
識止處	-10.5681
即問	-10.5681
觀已	-10.5684
閑	-10.5688
依滅	-10.5689
齋戒	-10.5691
馳	-10.5692
耳聲	-10.5695
為本	-10.57
有一天子	-10.57
拜	-10.5702
食者	-10.5706
苦者	-10.571
嫁	-10.5711
沙門道人	-10.5712
佛告舍利弗	-10.5718
善修	-10.5727
營	-10.5728
中夜	-10.5731
即詣	-10.5731
良馬	-10.5735
氏	-10.5735
可樂	-10.5735
光焰	-10.5736
樹間	-10.574
我時	-10.574
獲得	-10.5743
世有	-10.5743
登	-10.5751
十三	-10.5753
遲	-10.5756
太	-10.5756
何事	-10.5756
忉利諸天	-10.576
稻	-10.5761
淨行	-10.5761
耕	-10.5761
崩	-10.5763
苦患	-10.5763
慧力	-10.5765
椎	-10.5765
作善	-10.5766
愚惑	-10.5769
沙門果	-10.5769
罪未畢	-10.5769
相娛樂	-10.577
不用處	-10.5771
無慙	-10.5771
詣彼	-10.5772
掉悔	-10.5772
減損	-10.5774
兄	-10.5774
洞然	-10.5774
有覺有觀	-10.5775
為上	-10.5778
惡不善業	-10.5778
便得滅	-10.5786
乃至命盡	-10.5789
友	-10.58
兜率陀天	-10.5804
如是比	-10.5813
若麁	-10.5823
長壽王	-10.5824
當知彼	-10.5828
。『	-10.583
推	-10.5832
至佛所	-10.5837
其頭	-10.5837
多修習	-10.5838
即入	-10.5839
慚	-10.5843
五力	-10.5851
所施	-10.5853
佛弟子	-10.5856
彼所	-10.5859
從今	-10.586
大象	-10.5861
見一	-10.5862
不精進	-10.5868
敢	-10.587
傍	-10.5871
是亦	-10.5871
還家	-10.5872
便不	-10.5874
為不	-10.5887
頂禮	-10.5889
補特伽羅	-10.5895
釘	-10.5895
復告	-10.5899
識無常	-10.59
諸天人	-10.5904
而立	-10.5909
鈴	-10.5909
得安隱	-10.5913
法已	-10.5914
惡心	-10.5915
此為	-10.5915
更生	-10.5915
餘處	-10.5916
還入	-10.5922
迦羅	-10.5922
支節	-10.5922
歡	-10.5923
世中	-10.5927
大力士	-10.593
大火	-10.5932
2	-10.5934
八法	-10.5937
山林	-10.5941
愛著	-10.5957
今在	-10.596
此經	-10.5963
眾惡	-10.5963
吾欲	-10.5964
汝見	-10.5966
有身	-10.5967
琴	-10.5969
崇	-10.5974
以何	-10.5978
第二禪	-10.5978
婆悉咤	-10.5978
疲勞	-10.598
頸	-10.598
皆得	-10.5982
寶物	-10.5983
如上廣說	-10.5985
顏貌	-10.5985
偽	-10.5988
長阿含經	-10.599
庶幾	-10.599
行此	-10.599
三十七品	-10.5992
毘尼	-10.5994
轉法輪	-10.5995
光澤	-10.5997
不受後有	-10.5999
帝釋天王	-10.6004
白髮	-10.6005
佛住王舍城	-10.6008
尼拘陀梵志	-10.6015
我曹	-10.6021
居士婦	-10.6022
如實知見	-10.6023
怨憎	-10.6024
年少比丘	-10.6027
更無	-10.603
知佛	-10.6036
意知法	-10.6039
互	-10.6049
不審	-10.6051
厭惡	-10.6051
使不死	-10.6052
道士	-10.6052
舌味	-10.6055
高下	-10.6058
如汝所說	-10.6063
無央數	-10.6065
彼斷	-10.607
化自在天	-10.6071
敬禮	-10.6076
便能	-10.6076
我得	-10.6079
世尊與	-10.6085
入彼	-10.6088
或在	-10.6093
念身	-10.6097
名德	-10.6097
五百比丘	-10.6098
戶	-10.6099
車乘	-10.61
到時	-10.6103
其餘	-10.6111
便以	-10.6113
徒	-10.6118
憂悲	-10.6119
有所說	-10.612
水界	-10.612
欲往	-10.6124
非有	-10.6136
知者	-10.6139
樓觀	-10.614
不相應	-10.6158
彼法	-10.6163
起於	-10.6165
不了	-10.6166
是為二	-10.6167
那羅	-10.6168
斷五下分結	-10.6169
殘	-10.6171
殺之	-10.6175
池中	-10.6178
慎	-10.6179
釋氏	-10.618
香稻	-10.6187
海中	-10.6188
倚	-10.6192
欣	-10.6193
取著	-10.6194
過失	-10.6196
莫不	-10.6198
栰	-10.6198
有勝	-10.6203
竪	-10.6204
脇	-10.6206
張	-10.6209
疊	-10.6209
詐	-10.621
劇	-10.621
迦旃	-10.6214
我今日	-10.6215
三法衣	-10.6218
盜賊	-10.6218
拘翼	-10.6219
學戒	-10.622
枕	-10.6221
經書	-10.6223
非有想非無想處	-10.6226
此世間	-10.6226
半月	-10.6226
尊者鳩摩羅迦葉	-10.6227
嫌怖久	-10.6228
衰退	-10.6228
火焰	-10.6229
減少	-10.6232
十善	-10.6237
四部眾	-10.624
而命終	-10.624
百由旬	-10.6241
二正士共論	-10.6242
二禪	-10.6242
拘薩羅國	-10.6244
行於	-10.6255
八百	-10.6256
即勅	-10.6265
取此	-10.6265
何以不	-10.6268
還生	-10.6272
為他所	-10.6273
理家	-10.6273
即告	-10.6274
青色	-10.6283
貪嫉	-10.6284
樂報	-10.6284
王位	-10.6286
遊於	-10.6287
此岸	-10.6287
生善處	-10.6292
之報	-10.6296
極廣	-10.6297
門外	-10.6299
欲來	-10.6302
道從	-10.6304
八解脫	-10.6305
祇	-10.6306
精進沙門	-10.631
尊師	-10.6315
有八	-10.6321
道中	-10.6323
如意	-10.6325
得信	-10.6329
右手	-10.6335
捨此	-10.6341
此五	-10.6342
問汝	-10.6342
令不	-10.6353
皆為	-10.6361
聽許	-10.6362
故名為	-10.6363
仁者	-10.6365
佛復告	-10.6365
諸苦	-10.6368
所獲	-10.6369
從佛聞	-10.6375
彼云何	-10.6375
普周	-10.6376
不如法	-10.6381
梵天王	-10.6391
於佛前	-10.6393
行故	-10.6395
子孫相承	-10.6411
此女	-10.6413
佛經	-10.6416
濕	-10.6418
王復	-10.6422
白色	-10.6423
往見	-10.6423
婦人	-10.6424
故生	-10.6425
孔	-10.6425
生已	-10.6426
以此為	-10.6428
餅	-10.643
9	-10.6432
勿復	-10.6435
解了	-10.6435
不習	-10.6437
輒	-10.6439
修學	-10.6439
怪	-10.644
復為	-10.6441
醜陋	-10.6441
成道	-10.6445
今有	-10.6447
起居輕	-10.6448
彼等於中	-10.645
鉢頭摩	-10.6451
=	-10.6451
如是為	-10.6451
大善見王	-10.6451
敷尼師檀	-10.6452
成就此法者	-10.6454
諸塵垢盡	-10.6454
踊	-10.6454
擣	-10.6456
少欲知足	-10.6456
第三禪	-10.6456
輔相婆羅門	-10.6457
擲置	-10.6461
殊妙	-10.6463
無事比丘行於無事	-10.6463
地肥	-10.6465
為無常	-10.6466
我悉	-10.6472
念欲	-10.6474
有結	-10.6475
邪定	-10.6476
轉減	-10.6478
若如是者	-10.6485
唱言	-10.6489
外道異學	-10.6492
餘眾生	-10.6494
誡	-10.6495
重擔	-10.6496
]《	-10.6497
法故	-10.6501
前進	-10.6504
語我言	-10.6514
不悅	-10.6515
是為七	-10.6516
吾當	-10.6518
分明	-10.6523
眾生之類	-10.6526
定心	-10.6527
能解	-10.6527
見如來	-10.6528
皆來	-10.6532
無厭	-10.6535
真人	-10.654
獨一	-10.6541
彼則	-10.6543
比丘亦復如是	-10.6554
中央	-10.6556
得大	-10.6559
心清淨	-10.6562
七為	-10.6569
正直	-10.6571
謂為	-10.6571
火界	-10.6577
無怨	-10.6579
入息	-10.6582
若聖弟子	-10.6584
於外	-10.6592
見他	-10.6593
停	-10.66
使不	-10.6604
然今	-10.6606
召	-10.6607
若有一	-10.6612
信解	-10.6625
至此	-10.6627
一千	-10.6635
愛生	-10.6636
諸漏	-10.6637
欲心	-10.6639
最大	-10.6641
便習	-10.6642
汝為	-10.6643
想滅	-10.6645
便成	-10.6649
三寶	-10.6649
唱	-10.6649
所止	-10.6656
爾所	-10.6656
即起	-10.6656
諾	-10.6661
分別其義	-10.6661
當滅	-10.6664
請佛	-10.6669
須達	-10.667
追	-10.6672
辱	-10.6672
并及	-10.6674
優婆斯	-10.6675
炭	-10.6676
市	-10.6676
炬	-10.6679
醉	-10.6681
採	-10.6681
再	-10.6684
屋舍	-10.6684
郁伽長者	-10.6688
若世尊	-10.6688
七重鈴網	-10.669
為道	-10.669
柔和	-10.669
薩遮尼犍子	-10.6691
或能	-10.6691
與大比丘眾俱	-10.6692
以是之故	-10.6693
針	-10.6693
遍滿一方成就遊	-10.6695
至無為處	-10.6695
有知有見	-10.6697
暖	-10.6699
覆蓋	-10.67
我若	-10.6708
六萬	-10.6709
緣此	-10.671
我能	-10.6711
諸善	-10.6711
且止	-10.6712
禮佛足	-10.6714
床臥	-10.6717
作佛	-10.6721
彼色	-10.6723
天耳	-10.6725
應如是	-10.6726
凡人	-10.6726
行步	-10.6728
然不	-10.673
諸比丘聞已	-10.673
作如是語	-10.6731
為勝	-10.6734
為汝	-10.6741
復作	-10.6742
王阿闍世	-10.6742
無力	-10.6743
為諸比丘說	-10.6748
此苦	-10.6748
為轉輪王	-10.6752
咎	-10.6753
收攝	-10.6757
終無	-10.6758
威	-10.676
有七寶	-10.6761
觀外	-10.6762
應與	-10.6763
與諸比丘	-10.6763
識知	-10.6765
語彼	-10.6765
子孫	-10.6766
教示	-10.6767
若時如來出	-10.6769
無極	-10.6771
於虛空中	-10.6778
惡言	-10.6779
種類	-10.6786
不疑	-10.6786
得出	-10.6788
展轉相	-10.679
天主	-10.6801
因欲	-10.6802
遍受	-10.6805
斷殺	-10.6812
彼於爾時	-10.6814
大富	-10.6815
水上	-10.6822
好惡	-10.6831
有緣	-10.6832
所樂	-10.6833
其間	-10.6834
不能自	-10.6844
四種兵	-10.6853
黠慧	-10.6854
大水	-10.6871
向於	-10.6873
彼應	-10.6878
說偈答	-10.6881
若天	-10.689
是則為	-10.6892
一切法	-10.6895
淨潔	-10.6903
㲲	-10.6904
彼女人	-10.6907
則於	-10.6911
商主	-10.6912
漏盡智	-10.6916
般	-10.6918
曜	-10.6918
塞	-10.6919
成佛	-10.6919
偏	-10.692
丈	-10.692
離生喜	-10.692
醯	-10.6921
沈	-10.6922
得大果	-10.6923
一切悉	-10.6923
顏	-10.6925
冬	-10.6927
若曹	-10.6927
運	-10.6928
期	-10.6928
多聞聖弟子於	-10.6928
何用	-10.6928
賣	-10.6929
須摩提女	-10.6929
慇懃	-10.693
滿願子	-10.693
將欲	-10.693
善無毒女	-10.6931
此亦	-10.6932
小土城	-10.6933
六觸入處	-10.6934
滅已	-10.6934
大河	-10.6934
拂	-10.6935
鋸	-10.6935
緣欲	-10.6935
意妙行	-10.6935
帝釋天主	-10.6936
剎利頂生王	-10.6938
是故說	-10.6938
瞋恨	-10.6941
我生此法	-10.6941
周匝校飾	-10.6942
變悔	-10.6945
大愛道	-10.6946
所成	-10.6951
知義	-10.6954
得離	-10.6956
六年	-10.6956
離車	-10.6958
受滅	-10.696
尊敬	-10.6965
語我	-10.6968
則於晡時	-10.697
有道有	-10.6972
或持	-10.6974
盡苦際	-10.6974
道路	-10.698
純一	-10.6987
我復	-10.6989
遍覺	-10.6991
能除	-10.6991
皆共	-10.6995
謂眼	-10.7007
退轉	-10.7007
定根	-10.7007
一指	-10.701
梵天上	-10.701
以偈答	-10.7014
持鉢	-10.7015
默然住	-10.7019
即復	-10.7022
帝王	-10.7023
修行梵行	-10.7024
成就此	-10.7025
名阿	-10.7028
如說	-10.7028
後有	-10.703
萬二千	-10.703
今現在	-10.7034
諸眾生輩	-10.7035
受請	-10.7036
若行	-10.7042
無觀	-10.7046
無結	-10.7052
之間	-10.7052
我非	-10.7058
阿羅漢果	-10.7058
吾等	-10.7065
三世	-10.7071
聞世尊	-10.7073
與人	-10.7076
於此處	-10.7076
貪婬	-10.708
諸釋	-10.7092
不恭敬	-10.7098
受諸	-10.7098
所致	-10.7102
當思惟	-10.7103
復重	-10.7104
其處	-10.7107
無求	-10.7111
誨	-10.7113
本無	-10.7115
死時	-10.7115
見色	-10.7116
一身	-10.7116
坑	-10.7118
如是生	-10.712
為諸	-10.7121
女曰	-10.7122
難提波羅陶師	-10.7124
是無常	-10.7128
不及	-10.713
緣覺	-10.7135
身自歸	-10.714
未來世	-10.714
故來	-10.7141
與之	-10.7152
不然	-10.7153
戒行	-10.7158
不入	-10.7159
諸比丘白	-10.7161
誑	-10.7161
已辦	-10.7162
而還	-10.7163
八萬四千歲	-10.7164
閻摩王	-10.7165
捕	-10.7165
震	-10.7167
鑽	-10.7167
緩	-10.7168
事者	-10.7169
是勝	-10.717
教已	-10.717
斬	-10.7172
柔	-10.7173
伐	-10.7174
荒	-10.7174
懷妊	-10.7174
戀	-10.7175
錯亂	-10.7175
踰	-10.7175
優婆離	-10.7176
假使	-10.7176
春	-10.7177
豪貴	-10.7178
若作	-10.718
白㲲	-10.7181
在內	-10.7182
彈琴	-10.7182
偏袒右肩	-10.7183
歡喜頂禮	-10.7184
不聽	-10.7185
就座而坐	-10.7185
隨逐	-10.7186
一意	-10.7187
多羅行樹	-10.7188
篤信	-10.7189
杵	-10.7189
遍于祇洹	-10.719
復入	-10.7191
次復	-10.7191
得無上	-10.7191
膿血	-10.7192
令汝	-10.7192
摩訶迦葉	-10.7193
乃爾	-10.7193
行惡	-10.7193
究竟梵行	-10.7196
歡樂	-10.7197
善者	-10.7198
惡鬼	-10.7198
未終	-10.7199
更不復受	-10.72
往至佛所	-10.7204
念此相	-10.7208
於一面坐	-10.7209
有取	-10.7211
晡時從禪	-10.7211
大小便	-10.7215
七由旬	-10.7217
之論	-10.7218
日天子	-10.7221
天中	-10.7221
慈悲	-10.7223
著地	-10.7229
是為五	-10.723
不久當	-10.7231
謂因	-10.7232
三曰	-10.7244
十惡	-10.7245
若其	-10.7247
是誰	-10.725
若干想	-10.7251
說伽陀	-10.7251
無得	-10.726
有眾生	-10.7262
佛問	-10.7263
如來出世	-10.7263
從佛	-10.7272
修身	-10.7285
又沙門瞿曇	-10.7285
尚不	-10.7286
如應	-10.7286
又不	-10.7288
耆舊	-10.7294
便害	-10.7304
不死	-10.7308
受奉行	-10.7309
得羅漢	-10.731
八種	-10.7312
所起	-10.7317
與五百	-10.7332
諸國	-10.7338
國人民	-10.7341
復自念	-10.7342
舍衛	-10.7342
舍那	-10.7349
心住	-10.7353
為人所	-10.7356
於眼	-10.7357
不安	-10.7357
各異	-10.7359
已捨	-10.7363
舍利弗比丘	-10.7365
是二	-10.7365
彼識	-10.7371
水火	-10.7373
伊	-10.7374
不善業	-10.7377
獨住	-10.7377
不善行	-10.7378
依法	-10.7378
獨坐	-10.7379
一人言	-10.7379
狀	-10.7382
無有我	-10.7385
卵	-10.739
聖道	-10.7393
色陰	-10.7393
音樂	-10.7393
於眾生	-10.7405
至于	-10.7405
習近	-10.7406
作已	-10.7407
十萬	-10.7408
愛喜	-10.741
印	-10.7412
當說	-10.7415
復念	-10.7416
欲樂	-10.7418
8	-10.7418
屠	-10.7418
5	-10.7419
擇	-10.742
光明照耀	-10.7421
曇彌	-10.7425
有過	-10.7425
新歲	-10.7427
鳩	-10.7429
守獄者	-10.7429
樹林	-10.7429
蘭	-10.7429
保	-10.743
蚊虻	-10.7432
及比丘僧	-10.7432
或為	-10.7433
虛偽	-10.7433
法樂比丘尼	-10.7434
溝	-10.7435
謙	-10.7435
呪願	-10.7435
恃	-10.7435
從坐起而去	-10.7436
受無量苦	-10.7436
超越	-10.7438
整	-10.7438
阿攝惒邏延多那摩納	-10.7439
天及魔	-10.7441
鴦崛髻	-10.7441
所住	-10.7441
跋迦梨	-10.7442
第九	-10.7442
生善處天上	-10.7442
所有諸	-10.7444
永盡無餘	-10.7444
此事不然	-10.7445
彼見色光明尋復滅	-10.7446
田家	-10.7448
氣味	-10.7452
兵眾	-10.7453
花實	-10.7459
之明	-10.7459
滿財長者	-10.746
生喜	-10.7465
乃至自知不受後有	-10.7466
無因	-10.7469
佛道	-10.747
躬自	-10.7473
安立	-10.7475
七處	-10.7478
作業	-10.7479
沙門義	-10.748
增多	-10.7482
四門	-10.7484
花果	-10.7485
又如	-10.7487
下至	-10.7487
聞法已	-10.7489
說是法	-10.7491
精進根	-10.7492
有大功德	-10.7498
解脫處	-10.7499
光照	-10.7505
熱鐵	-10.7505
我等當	-10.7517
盡知	-10.7519
欲相應	-10.752
宮內	-10.752
成此法	-10.7527
南無	-10.7532
精勤不懈	-10.7534
梵志種	-10.7535
有著	-10.7535
坐起	-10.754
而後	-10.7547
防	-10.7553
汝言	-10.7558
穢惡	-10.7563
將諸	-10.7564
常懷	-10.7566
尊者阿難語	-10.757
佛時	-10.7574
大乘	-10.7577
床座	-10.758
汝師	-10.758
我及世間	-10.758
今以	-10.7581
阿修羅王	-10.7583
能分別	-10.7587
流出	-10.7588
可行	-10.7589
岸上	-10.7591
驚怖	-10.7596
婆羅門長者	-10.7598
過去事	-10.7602
念根	-10.7603
諸小王	-10.7604
斷受	-10.7604
墮惡道	-10.7608
我於彼	-10.7614
明了	-10.7617
十善業	-10.7618
從其	-10.7634
如我今日	-10.7635
捨身	-10.764
誰為	-10.7643
識是我	-10.7644
有欲	-10.7645
世尊告阿難	-10.7647
一種	-10.7647
應說	-10.7649
亦自	-10.7658
沙門法	-10.7663
萬由旬	-10.7664
於上	-10.7666
惠	-10.7668
默然受請	-10.7669
道德	-10.7671
問訊已	-10.7671
為愛	-10.7671
於王	-10.7671
電光	-10.7673
外道出家	-10.7674
翳	-10.7675
諸煩惱	-10.7675
彼罪人	-10.7677
王前	-10.7678
敷座而坐	-10.7678
驅	-10.7681
谷	-10.7681
是三種	-10.7681
飢餓	-10.7681
掃	-10.7681
6	-10.7682
飢饉	-10.7686
漸次	-10.7687
輪迴	-10.7689
吉	-10.7689
勢	-10.7689
不兩舌	-10.7689
人眾	-10.769
臺	-10.769
縮	-10.769
是已	-10.7691
天雨	-10.7692
廬	-10.7693
八字	-10.7694
行澡水	-10.7694
三摩竭	-10.7695
從更復更	-10.7696
慰勞	-10.7697
毀謗	-10.7697
咄	-10.7698
隣	-10.77
果證	-10.7701
發起	-10.7703
生處	-10.7703
過去久遠	-10.7704
端政	-10.7708
月八日	-10.7708
廣長各二千里	-10.7709
世之希有	-10.7709
從人至	-10.771
談論	-10.771
濡	-10.771
謂四念處	-10.7711
正身正意	-10.7713
耆闍崛山中	-10.7714
又彼	-10.7716
尊者浮彌	-10.7716
或一	-10.772
摸	-10.7721
夫主	-10.7721
壽終	-10.7724
羅雲	-10.7724
令滅	-10.7728
如是二三四	-10.7729
能行	-10.773
其形	-10.773
審諦	-10.7731
謂八正道	-10.7731
可見	-10.7741
昇上	-10.7744
彼雖	-10.7745
過去世	-10.7746
命終時	-10.7747
自覺知	-10.7748
不可行	-10.7751
共論議	-10.7754
解脫已	-10.7755
終後	-10.7756
月宮殿	-10.7756
是變易法	-10.7763
無漏心解脫	-10.7765
一切智	-10.7765
是汝師	-10.7774
三業	-10.7781
無人	-10.7783
此大地	-10.7787
雙樹間	-10.7789
受歲	-10.779
遊觀	-10.7796
得其便	-10.7798
三千	-10.7798
是為一	-10.78
豈非	-10.7801
清淨心	-10.7802
無所畏	-10.7804
共議	-10.7807
苦陰	-10.7813
除諸亂	-10.7814
以一	-10.7815
梵摩	-10.7816
為從	-10.7817
大施	-10.7822
彼眾	-10.7823
生歡喜	-10.7823
來此	-10.7825
愛法	-10.7829
他世	-10.7829
以偈問	-10.7832
作王	-10.7834
二三	-10.7836
知色	-10.7836
懈	-10.784
我所說者	-10.7844
聞世尊所說	-10.7846
世尊弟子	-10.7848
不清淨	-10.7854
是常	-10.7855
為人說	-10.7857
阿須倫王	-10.786
能度	-10.786
十由旬	-10.7862
頭陀	-10.7866
識味	-10.7867
出家學道者	-10.7868
國事	-10.7875
即知	-10.788
他作	-10.7881
三毒	-10.7888
以此緣	-10.7888
淨信	-10.7891
訖已	-10.7894
緣故	-10.7896
無患	-10.7899
履	-10.7901
次有	-10.7901
自當	-10.7902
即彼	-10.7902
身光	-10.7908
難陀比丘	-10.7909
獲福	-10.7911
得大福	-10.7919
苦因	-10.7921
空無	-10.7922
惡意	-10.7923
灌	-10.7925
腹中	-10.7926
賢聖法	-10.7927
緣眼	-10.7928
於長夜	-10.793
摩那	-10.7932
有想無想處	-10.7934
惜	-10.7942
六界	-10.7943
最第一	-10.7944
頃	-10.7945
有幾	-10.7945
作大	-10.7948
優波離	-10.7954
如來正法	-10.7955
拘薩羅	-10.7955
阿颰	-10.7956
輿	-10.7956
有邊	-10.7958
官	-10.7958
菴	-10.7961
無二	-10.7961
豐饒	-10.7963
敵	-10.7964
三字	-10.7965
淫	-10.7965
是彼	-10.7965
敬順	-10.7966
弱	-10.7968
因緣此	-10.7969
與大比丘眾千二百五十人俱	-10.7969
剋	-10.797
略說如上	-10.797
墜	-10.797
戾	-10.7971
云何為十	-10.7971
像類	-10.7972
長苦行尼揵	-10.7972
阿奇	-10.7973
犁	-10.7973
腦	-10.7974
青蓮華	-10.7976
於現法中自知自覺	-10.7977
剎利王	-10.7977
世尊所說	-10.7977
因此緣此	-10.7977
泥犁旁	-10.7978
真淨王	-10.7978
如所說	-10.7979
以七寶成	-10.7979
自相謂言	-10.7979
譯聞如是	-10.7979
無能及者	-10.798
各各自鳴	-10.798
著三法衣	-10.798
男子女人	-10.7981
無量方便為彼說法	-10.7982
以法治化	-10.7982
畢竟	-10.7984
深義	-10.7985
白象	-10.7988
斷不與取	-10.7989
三衣	-10.799
巖	-10.8
為弟子	-10.8002
所標	-10.8004
長久	-10.8005
或為行道	-10.8009
於佛法中	-10.801
以何因緣	-10.8013
日宮殿	-10.8015
火坑	-10.8022
地獄苦	-10.8023
勤苦	-10.8025
是為八	-10.8031
其色	-10.8033
是故當知	-10.8036
為非	-10.8045
若在	-10.8048
謂彼	-10.8048
作頌	-10.8054
以見	-10.8054
乃至大	-10.806
戒具足	-10.8069
願佛	-10.807
佛亦	-10.8075
如是觀者	-10.8077
邊有	-10.8077
縱廣五百由旬	-10.8078
我當為汝	-10.808
種種諸	-10.8084
惡聲	-10.8096
遠來	-10.8099
須跋	-10.81
甚善	-10.8101
族姓	-10.8101
無貪	-10.8102
不得自在	-10.8108
淨心	-10.811
成就遊	-10.8117
豈不	-10.8118
諸商人	-10.8119
地動	-10.8119
無福	-10.8127
平正	-10.8127
取食之	-10.8129
頂上	-10.8133
須陀	-10.8134
自歸佛	-10.8135
河水	-10.8139
馬車	-10.8141
諸阿修羅	-10.8141
床上	-10.8141
可以	-10.8142
出水	-10.8146
從座起去	-10.8149
不出	-10.8156
不過	-10.8158
有種種	-10.816
迦葉佛	-10.816
寶藏	-10.8163
種種飲食	-10.8164
六師	-10.8172
入此	-10.8176
所出	-10.8176
然其	-10.8176
隨行	-10.8178
身死	-10.8179
不堪任	-10.8179
不退轉	-10.8182
應當知	-10.8185
安處	-10.8188
扇	-10.8193
我法	-10.8194
五盛陰	-10.8194
即是我	-10.8195
殿上	-10.8197
不絕	-10.8197
叫喚	-10.8201
斯人	-10.8202
是處	-10.8203
惡者	-10.8204
禮足	-10.8205
統	-10.8205
王有	-10.821
裹	-10.8214
數千萬	-10.8217
覲	-10.8219
陛	-10.8221
而問	-10.8228
言論	-10.8231
旋	-10.8232
自生	-10.8232
丘	-10.8233
手中	-10.8234
談	-10.8236
煙	-10.8236
究	-10.8236
圖	-10.8237
毒箭	-10.8238
婆蹉種出家	-10.8238
須陀洹果	-10.824
疲	-10.8241
豪	-10.8242
飛鳥	-10.8243
膏	-10.8244
扶	-10.8244
比丘修習念身	-10.8244
在後	-10.8244
入定	-10.8245
純一滿淨	-10.8246
為誰	-10.8246
淵	-10.8246
吉祥	-10.8247
披	-10.8247
趣至惡處	-10.8248
何由	-10.8249
雜阿含	-10.8249
死屍	-10.8249
啄	-10.825
地大動	-10.8252
沙門鳩摩羅迦葉	-10.8253
宿命智	-10.8254
念覺分	-10.8255
害他	-10.8255
常在	-10.8256
無為無求	-10.8256
無生	-10.8258
敗劫	-10.8259
寒熱	-10.826
賢者大拘絺羅	-10.8261
云何得	-10.8262
身證	-10.8262
後復	-10.8263
聞其所說	-10.8263
墮落	-10.8266
不苦不樂痛	-10.8267
大聖	-10.8267
彼如是知	-10.8273
清明	-10.8273
一生	-10.8276
諸所有色	-10.8278
頭那	-10.828
善攝	-10.8281
染污	-10.8284
其口	-10.8284
極精勤	-10.8286
空地	-10.8286
親親	-10.8288
弊魔	-10.829
大家	-10.8291
之類	-10.8292
進止	-10.8292
阿難曰	-10.8293
四海	-10.8299
大龍	-10.8302
甘露法	-10.831
得道者	-10.831
中道	-10.8314
授與	-10.8315
智慧解脫	-10.8315
是謂第三	-10.8318
得無所畏	-10.8318
意生	-10.832
毘羅	-10.8324
何所起	-10.8325
婆提	-10.8328
如上所說	-10.8331
護諸根	-10.8331
樹枝	-10.8332
五道	-10.8333
」《	-10.834
永滅	-10.8341
世尊復說偈	-10.8343
王者	-10.8344
九法	-10.8347
護戒	-10.8348
信力	-10.8353
此五受陰	-10.8354
善法堂	-10.8357
無量識處	-10.836
智慧成就	-10.836
邪語	-10.8361
開示	-10.8363
度彼岸	-10.8363
度一切	-10.8365
利根	-10.8367
作諸	-10.8367
之子	-10.8369
增上慢	-10.8371
三惡行	-10.8376
為多	-10.8377
墮於	-10.8378
江	-10.838
樹者	-10.8384
生天之	-10.8385
不別	-10.8387
過患	-10.8387
相謂言	-10.8393
滅無餘	-10.8394
見諸	-10.8394
上妙	-10.8404
得入	-10.8406
聽汝	-10.8407
食時	-10.8411
復至	-10.8419
有何義	-10.8422
不增	-10.8423
別知	-10.8425
善調	-10.8428
淨天	-10.8433
,『	-10.8436
天樂	-10.844
音響	-10.8443
釋迦文	-10.8444
不獲	-10.8445
至得第四禪成就遊	-10.8445
三結	-10.8447
相似	-10.8449
便得安隱	-10.8453
於正法中	-10.8457
使者	-10.8459
捨於	-10.8459
觀視	-10.8461
三痛	-10.8462
有天	-10.8462
苦報	-10.8464
迹	-10.8464
有此三	-10.8464
有也	-10.8465
輪王	-10.8477
滿中	-10.8485
為己	-10.8489
灰河	-10.8493
不為惡	-10.8497
原	-10.8499
兩邊	-10.85
毗	-10.85
受快樂	-10.8501
調御丈夫	-10.8502
搏	-10.8503
阿耨達龍王	-10.8504
今可	-10.8508
腸	-10.8511
讀	-10.8512
還來	-10.8512
續	-10.8513
玉	-10.8514
一子	-10.8514
一切諸法	-10.8517
汝欲	-10.8519
毀辱	-10.8521
憍慠	-10.8523
他信施	-10.8525
愍傷	-10.8525
目犍連	-10.8526
具受	-10.8527
棘	-10.8528
捫摸	-10.8528
孤	-10.8528
世尊在	-10.8528
今世後世	-10.8528
行口	-10.8529
不孝父母	-10.8529
汝能	-10.853
五受陰	-10.8531
欝單越人	-10.8531
]	-10.8532
逸	-10.8532
此沙門瞿曇	-10.8533
調戲	-10.8533
鮮	-10.8534
禽獸	-10.8534
低頭	-10.8535
偷	-10.8535
毒蛇	-10.8535
盡諸有結	-10.8536
代	-10.8537
解義	-10.8538
前後圍繞	-10.8539
堪耐	-10.8542
菩薩摩訶薩	-10.8542
頞波羅延	-10.8545
來至佛所	-10.8545
愛滅	-10.8545
地獄眾生	-10.8546
賢者迦旃延	-10.8546
鬪訟	-10.8547
往返	-10.8548
婆羅邏	-10.8548
彼苦行者	-10.8549
在大眾中	-10.855
化作五百	-10.8551
早起	-10.8552
乞求	-10.8552
盡滅	-10.8552
得第一	-10.8553
內覺	-10.8553
云何為一	-10.8555
及比丘眾	-10.8555
比丘觀身如身	-10.8557
生喜樂	-10.8557
剎利女	-10.8561
能修	-10.8561
便生此念	-10.8562
三名	-10.8563
不廣分別	-10.8564
孝順父母	-10.8564
聞聲	-10.8568
園苑	-10.8569
不瞋	-10.8571
作是觀	-10.8571
在世間	-10.8573
緣愛	-10.8577
論說	-10.8577
謂比丘	-10.8581
欲漏	-10.8584
乃得	-10.8584
不顛倒	-10.8587
修四念處	-10.8594
當取	-10.8595
人命	-10.8599
緣斯	-10.8599
亦復然	-10.8599
赤色	-10.8601
所愛	-10.8602
永盡	-10.8605
共鬪	-10.8607
唯除	-10.8608
覺樂	-10.8608
斷一切	-10.8613
得斯陀含	-10.8617
欲食	-10.8617
。』『	-10.8618
後生	-10.8619
亦應	-10.8621
竹林	-10.8621
不違	-10.8623
釋迦文佛	-10.8623
生恐怖	-10.8623
之食	-10.8628
如斯之	-10.863
是謂第二	-10.8633
受此行	-10.8634
已住	-10.8635
眼觸因緣生	-10.8636
正信	-10.8637
為沙門	-10.8644
已度	-10.8645
謂我	-10.8651
起瞋恚	-10.8652
昔有	-10.8655
於法得	-10.8655
不淨想	-10.8658
以教	-10.8661
得滅	-10.8662
摩尼寶	-10.8664
受是	-10.8672
彼比丘應	-10.8674
口意	-10.8676
將詣	-10.8683
此言	-10.8686
見聞	-10.8686
依此	-10.8687
具足清淨	-10.8694
謂六	-10.8699
天身	-10.8699
四見中	-10.8704
心法	-10.8706
而般涅槃	-10.8706
得至涅槃	-10.8708
生法	-10.8712
滅訖	-10.8714
起增上	-10.8716
說斯偈	-10.8718
我本所	-10.8733
火中	-10.8733
乃有	-10.8736
五樂	-10.8741
力故	-10.8747
一方	-10.8749
流水	-10.8758
增其	-10.8761
其樹	-10.8762
識界	-10.8763
在一處	-10.8766
之意	-10.8769
生恚	-10.877
得至	-10.877
諸小	-10.8771
復問言	-10.8781
身行善	-10.8785
持衣鉢	-10.8788
受陰	-10.8788
馬王	-10.8792
不宜	-10.8793
世尊而說	-10.8795
生欲	-10.8798
四天王天	-10.8799
正向	-10.8801
都不	-10.8805
朋友	-10.8807
意善行	-10.8807
涌	-10.8809
綖	-10.8809
梵世	-10.8809
瑞	-10.8809
指鬘	-10.8809
建	-10.881
7	-10.8811
童	-10.8813
不復受	-10.8813
僧伽梨	-10.8813
我在	-10.8813
㝹	-10.8814
乾闥婆	-10.8815
劫貝	-10.8817
四十里	-10.8818
頻	-10.8818
求利	-10.8818
堂上	-10.8819
清徹	-10.8819
鹽	-10.8819
罵辱	-10.882
樓閣	-10.8821
問訊世尊	-10.8821
未知	-10.8821
欣悅	-10.8824
發心	-10.8825
頻毘娑羅王	-10.8825
斂	-10.8825
殊特	-10.8825
踊躍歡喜	-10.8828
周匝圍繞	-10.8828
疲極	-10.8828
慙愧	-10.8828
阿羅呵	-10.8829
於內	-10.8829
煩勞	-10.8829
婚	-10.8829
前行	-10.883
拔絕	-10.883
不止	-10.883
爾許	-10.8832
惒	-10.8832
極大富樂	-10.8832
長夜安樂	-10.8833
壓	-10.8834
得甘露味	-10.8834
依此林住	-10.8834
祭祀	-10.8835
修無上梵行	-10.8835
說微妙法	-10.8837
復有叢樹名	-10.8838
色受陰	-10.884
別譯	-10.884
加赦國王梵摩達哆	-10.884
因陀羅	-10.884
盡當	-10.8841
復有十	-10.8841
於後時	-10.8842
呪術	-10.8843
一坐食	-10.8845
尊者大迦葉	-10.8845
身分	-10.8847
洗鉢	-10.8848
覆藏	-10.885
無餘涅槃	-10.8852
佛身	-10.8853
還于	-10.8853
念天	-10.8854
離愛	-10.8855
迦葉比丘	-10.8855
中生	-10.8856
肘	-10.8856
贖命	-10.8859
末利	-10.8861
生不善念	-10.8862
長遠	-10.8864
增廣	-10.8869
禮佛足已	-10.8872
來到	-10.8875
知漏	-10.8878
道迹	-10.8884
彼當	-10.8887
作嬈亂	-10.8889
有智	-10.8889
無缺	-10.889
如實法	-10.8892
拘樓	-10.8894
二分	-10.8895
修習於	-10.8899
五百弟子	-10.8902
毘婆尸如來	-10.8904
共會	-10.8906
諸惡業	-10.8908
我等今日	-10.8908
當問	-10.8908
奉施	-10.8911
所相	-10.8912
樂行	-10.8913
梵摩達王	-10.8914
受用	-10.8915
大目連	-10.8919
無色愛	-10.892
講	-10.8923
應時	-10.893
於識	-10.8932
彼轉輪王	-10.8932
好喜	-10.8934
便作是說	-10.8937
有疑惑	-10.8939
戒德	-10.8946
身上	-10.8947
我心中	-10.8952
若善男子	-10.8953
我聞世尊	-10.8955
日一食	-10.8956
一切苦	-10.8956
事業	-10.8961
平旦	-10.8971
實為	-10.8975
或至	-10.8975
生人中	-10.8983
觀身	-10.8989
便問	-10.899
法說	-10.8991
懷愁憂	-10.8991
具大	-10.8995
或依	-10.8996
若說	-10.8999
畏怖	-10.9004
信解脫	-10.9005
見其	-10.9014
終不得	-10.9015
其數	-10.9018
縛著	-10.9019
汝今可	-10.9022
當盡	-10.9022
隨心	-10.9024
受佛	-10.9025
詣向	-10.9027
已知我心	-10.903
共居	-10.903
以偈	-10.9031
及法	-10.9038
其命	-10.904
此色	-10.9042
現前	-10.9047
戒者	-10.9052
心常	-10.9053
身有	-10.9053
未至	-10.9059
珍	-10.9062
亂想	-10.9066
從癡	-10.9068
是真	-10.9068
母胎	-10.9072
有種種樹	-10.9076
實是	-10.9077
智慧人	-10.908
具戒	-10.9082
自當知	-10.9082
前坐	-10.9087
貌	-10.9089
生盲	-10.9089
座上	-10.909
復白	-10.9094
為天	-10.9099
不得解脫	-10.9103
欲聞	-10.9103
是佛	-10.9104
束	-10.9104
器仗	-10.9105
不稱	-10.9106
我便	-10.9106
刃	-10.9113
有法	-10.9113
彌醯	-10.9114
常法	-10.9115
地中	-10.9115
弘	-10.9116
不順	-10.9116
屍	-10.9116
馬師	-10.9116
定生喜	-10.9116
有兩	-10.9116
分衛	-10.9117
瑜誐	-10.9119
絃	-10.912
甞	-10.9123
悔恨	-10.9125
源	-10.9126
向上	-10.9126
以是緣故	-10.9126
糞掃衣	-10.9127
屎	-10.9127
淳陀	-10.9129
命即是身	-10.9129
無後死	-10.9129
即於座上	-10.9129
月十五日	-10.9129
於佛不壞淨	-10.913
雹	-10.913
茶	-10.9131
乞食已	-10.9131
威儀禮節	-10.9131
慎莫	-10.9132
金銀珍寶	-10.9132
八正道	-10.9133
暗	-10.9133
以信堅固	-10.9134
快哉	-10.9134
快得善利	-10.9134
吉凶	-10.9134
憐愍	-10.9134
若不爾者	-10.9134
非有邊非無邊	-10.9134
佛在王舍城迦蘭陀竹林	-10.9135
頭上	-10.9135
優鉢	-10.9135
無有厭足	-10.9136
安置	-10.9136
親近善知識	-10.9136
騎乘	-10.9137
煑	-10.9137
以欲為本	-10.9137
入晝正受	-10.9137
如是一切善法	-10.9137
饒財多寶	-10.9138
四正斷	-10.9138
恐畏	-10.9139
上中下	-10.9139
尼揵子	-10.914
百阿那含	-10.914
有差別	-10.9141
主兵臣寶	-10.9141
在閑靜之處	-10.9142
飽	-10.9142
百正見人	-10.9142
提婆達多	-10.9142
有義有	-10.9143
當修行一法	-10.9147
潔	-10.9148
諸末羅	-10.9148
得十種功德	-10.915
尊長	-10.9151
得力得	-10.9152
令不生	-10.9153
其身光明遍照	-10.9156
相與	-10.9156
澡	-10.9161
不苦不樂覺	-10.9162
自樂	-10.9172
受我	-10.9174
住王舍城	-10.9174
終身行	-10.9178
惡名	-10.9185
以刀	-10.919
和上	-10.9193
苾芻眾	-10.9195
七子	-10.9201
諦受	-10.9205
依離	-10.9207
諸離車	-10.9212
作意	-10.9217
何等為七	-10.9219
聞我	-10.922
法師	-10.922
口出	-10.9221
亦不為	-10.9221
此賢	-10.9221
象舍利弗	-10.9222
知苦	-10.9226
種種界	-10.9228
生長	-10.9228
城邑	-10.9232
莫作	-10.9234
新學	-10.9235
捨心	-10.9236
取之	-10.9238
受戒	-10.9239
中有一	-10.9244
法教	-10.9246
光明照	-10.9252
詣尊者阿難所	-10.9253
意根	-10.9255
城內	-10.9262
彼知此	-10.9263
明淨	-10.9264
有王名	-10.9264
經典	-10.9265
而可	-10.9265
以何為	-10.9265
此即是	-10.9268
口惡行	-10.9271
以無	-10.9271
我家	-10.9273
隨從	-10.9273
已竟	-10.9274
有比丘	-10.9277
以此義	-10.9277
恭敬供養	-10.9278
成佛道	-10.9279
謂八聖道	-10.9281
千二百	-10.9284
若有問	-10.9285
敷床	-10.9287
頭面	-10.9288
尊貴	-10.929
我今亦	-10.929
所覺	-10.9292
本處	-10.9293
為無有	-10.9299
又言	-10.9312
釋種子	-10.9314
各各相	-10.9323
羅閱祇	-10.9324
有病	-10.9324
不好	-10.9326
異道	-10.9327
佛所說	-10.933
從是致	-10.9332
微細	-10.9334
我向	-10.9334
可忍	-10.9342
云何為七	-10.9343
相好	-10.9345
欲問	-10.9345
常以	-10.9351
僧伽	-10.9351
向涅槃	-10.9353
使令	-10.9354
意在	-10.9356
陳	-10.9359
病者	-10.9361
正說	-10.9363
彼天神	-10.9368
之相	-10.9372
不至	-10.9373
是謂第一	-10.9378
意所	-10.9378
無害	-10.938
現神足	-10.9384
十九	-10.9384
與佛	-10.9386
迴轉	-10.9386
口業	-10.9393
斷生死	-10.9394
樹神	-10.9395
曇	-10.9395
嗜	-10.9399
其土	-10.94
有此法	-10.9401
自安	-10.9402
不異我	-10.9402
事火	-10.9404
段	-10.9405
以水	-10.9409
至涅槃	-10.941
蔽	-10.941
造立	-10.9416
入水	-10.9417
自然粳米	-10.9419
得修梵行	-10.9419
過夜平旦	-10.9419
慰	-10.9425
川	-10.9425
遍照	-10.9426
成敗	-10.9426
米穀	-10.9427
謝	-10.9427
雄	-10.9432
罪故	-10.9432
輸屢那	-10.9433
汗	-10.9433
稟	-10.9434
算	-10.9435
燕坐	-10.9437
欲為	-10.9438
地神	-10.9439
泡	-10.944
垢穢	-10.944
如餘沙門	-10.944
手自斟酌	-10.9441
長夜輪轉	-10.9441
兵仗	-10.9441
素	-10.9441
佛前	-10.9441
報之	-10.9441
何所見我	-10.9443
我從今日	-10.9443
從受復受	-10.9443
若無常者	-10.9444
萬物	-10.9444
悅澤	-10.9444
周旋	-10.9445
明行足	-10.9446
瞿耶尼	-10.9446
隱覆	-10.9447
敷演	-10.9447
東面	-10.9447
識受陰	-10.9447
髑髏	-10.9447
調笑	-10.9448
迦蘭陀竹園	-10.9448
良福田	-10.945
成大果報	-10.945
修心	-10.9451
族姓女	-10.9452
尼師壇	-10.9452
捷疾具足	-10.9453
我於今者	-10.9454
我等寧可	-10.9454
他心智	-10.9455
和順	-10.9455
不脫	-10.9457
沙門瞿曇弟子	-10.9458
五百乘車	-10.9458
腐敗	-10.9458
身不	-10.946
五戒	-10.9462
優陀耶	-10.9466
就坐	-10.947
東向	-10.9471
修諸善法	-10.9473
明智	-10.9477
娑羅樹	-10.9477
國中有	-10.9478
可憙	-10.9479
僧伽羅摩	-10.9481
財產	-10.9481
如佛所說	-10.9484
無癡	-10.9484
來還	-10.9485
不作是念	-10.9487
死人	-10.949
耳鼻	-10.9494
口生	-10.9498
作是念言	-10.95
相連	-10.95
樹下坐	-10.9503
清淨行	-10.9503
諸力士	-10.9504
若魔	-10.9505
竟亦	-10.9505
以此方便	-10.9506
責數	-10.9508
風雨	-10.9509
或著	-10.9509
有明	-10.9511
求於	-10.9513
入地獄中	-10.9514
五日	-10.9514
證知	-10.9515
供養沙門	-10.9523
聞如來	-10.9525
閻浮地	-10.9526
眾生生	-10.9527
得無漏	-10.9528
我亦不	-10.9533
所生處	-10.9533
不習近	-10.9533
消盡	-10.9534
不觀	-10.9537
得生天	-10.9542
宜速	-10.9542
家家	-10.9544
之日	-10.9545
毘婆尸	-10.9548
復還	-10.9552
不可樂	-10.9553
此語	-10.9557
諸鬼神	-10.9557
依住	-10.9558
汝知	-10.9561
諸家	-10.9564
不空	-10.9567
俱解脫	-10.9571
求道	-10.9577
身善行	-10.9578
與諸	-10.9582
輪轉	-10.9583
王有子	-10.9583
及後世	-10.959
以天眼	-10.9593
極惡	-10.9597
其母	-10.9597
諸比丘僧	-10.96
亦皆	-10.9603
種種供養	-10.9612
我父	-10.9614
此名為	-10.9616
善覺	-10.962
惡慧	-10.9627
皆歡喜	-10.963
道諦	-10.9633
佛告長者	-10.9635
乘車	-10.9635
心結	-10.9637
日光	-10.9639
欲念	-10.9641
與此	-10.9643
一切諸行	-10.9644
其家	-10.9645
石室	-10.9648
為癡	-10.9649
無愛	-10.9651
得果	-10.9651
王女	-10.9652
當如是	-10.9654
廣長	-10.9666
見人	-10.9673
則滅	-10.9677
諸經	-10.9678
是等	-10.968
法相應	-10.9681
王宮	-10.9689
入涅槃	-10.9695
復有諸	-10.9695
無義	-10.9698
之衣	-10.97
今欲	-10.97
行乞食	-10.9701
此是我	-10.9704
在地	-10.9706
有五百	-10.9706
來問	-10.9707
七種	-10.9708
而為說法	-10.9709
卷第十	-10.9711
阿含	-10.9711
來世	-10.9716
既見	-10.9718
四名	-10.9719
欲何所	-10.9719
蹈	-10.9726
所害	-10.973
自往	-10.9733
甲	-10.9733
亦各	-10.9733
常有	-10.9734
慙	-10.9736
髻	-10.9738
勝法	-10.9739
斯陀含果	-10.974
匝	-10.9742
若因	-10.9743
勤方便	-10.9745
波羅奈	-10.9745
大祀	-10.9746
清信士	-10.9747
如是三	-10.9748
能以	-10.9751
雷電	-10.9752
于時	-10.9752
剝	-10.9753
挽	-10.9753
便捨而去	-10.9753
所持	-10.9754
梯	-10.9754
見王	-10.9754
禍	-10.9755
項	-10.9755
良醫	-10.9756
寬	-10.9757
委	-10.9758
堅實	-10.9758
荼	-10.9759
何所有故	-10.976
於此正法	-10.9761
由何	-10.9761
醫藥	-10.9762
不知苦之本際	-10.9762
〔	-10.9762
旨	-10.9763
揚	-10.9764
鬪戰	-10.9764
鄙	-10.9765
之聲	-10.9765
稍	-10.9765
重法	-10.9765
毘摩質多羅	-10.9765
野干	-10.9766
姦	-10.9767
慮	-10.9767
固	-10.9767
身身觀念住	-10.9767
檀越施主	-10.9768
邪志	-10.9769
所生之處	-10.9769
誹謗賢聖	-10.977
錯	-10.977
共集	-10.977
赤珠	-10.977
四部兵	-10.977
犬	-10.977
形貌	-10.9771
毛竪	-10.9771
和雅	-10.9772
露地經行	-10.9772
塔寺	-10.9773
羞恥	-10.9773
入王舍城乞食	-10.9773
夫婿	-10.9773
汝當為諸年少比丘說	-10.9774
乃至無數眾鳥相和而鳴	-10.9775
顯現梵行	-10.9775
當廣布一法	-10.9775
世尊說此頌	-10.9776
晚	-10.9776
持是	-10.9776
神德	-10.9777
財貨	-10.9777
此兒	-10.9777
摩納磨	-10.9777
默然不答	-10.9778
高百由旬	-10.9781
白銀	-10.9782
皆大歡喜	-10.9782
恒伽	-10.9784
為妙	-10.9785
拘牢婆王	-10.9785
大聲聞	-10.9786
不得久住	-10.9789
修多羅	-10.9789
有自然	-10.979
卷上	-10.979
散壞	-10.979
如之何	-10.9791
異見	-10.9791
三十六	-10.9798
城外	-10.98
於空	-10.9804
劫數	-10.9805
還本	-10.9806
意觸	-10.981
四字	-10.9811
莊嚴其身	-10.9812
瞿曇沙門	-10.9816
成劫	-10.9817
兇惡	-10.9819
六百由旬	-10.9821
無他	-10.9821
彼見	-10.9822
四王天	-10.9822
二處	-10.9824
有勝如	-10.9824
難解	-10.9824
是故汝等	-10.9824
不具足	-10.9825
依遠離	-10.9825
所更	-10.9826
此念	-10.9827
居止	-10.983
大患	-10.9831
何等為八	-10.9833
哀愍故	-10.9837
亦善	-10.9839
致此	-10.9839
諸如來	-10.984
美色	-10.9844
說此語	-10.9846
謂言	-10.9847
無苦	-10.9848
停住	-10.9851
曉了	-10.9854
出現世	-10.9857
宮門	-10.986
為緣	-10.986
懷歡喜	-10.9865
一向樂	-10.987
復有一	-10.9871
如故	-10.9874
放捨	-10.9874
更無餘	-10.9875
最初	-10.9878
眼滅	-10.9878
於中起	-10.9879
世尊於	-10.9881
富樂	-10.9888
村中	-10.9893
或復有時	-10.9896
三人	-10.9896
不語結	-10.9899
行身惡行	-10.9902
有四事	-10.9904
以知	-10.9905
如是展轉	-10.9905
兩手	-10.9912
專一	-10.9913
不傾動	-10.9914
不乎	-10.9916
聞彼	-10.9919
。」《	-10.992
則是	-10.9921
尋時	-10.9923
無間	-10.9925
隨意所	-10.9927
不使	-10.9927
我於此	-10.9927
邪行	-10.9928
我意	-10.9931
餘罪	-10.9934
無有人民	-10.9935
便入	-10.9937
於諸天	-10.9938
次第而	-10.9939
義理	-10.9941
千一百	-10.9944
共行	-10.9944
其罪	-10.9952
離此	-10.9953
若汝等	-10.9956
道行	-10.9957
不欲令	-10.9961
比丘所行	-10.9962
所因	-10.9962
伽陀	-10.9966
彼樹	-10.9972
有沙門	-10.9973
起大	-10.9978
若比丘眾	-10.9978
遍覆	-10.9981
身作證	-10.9983
阿修羅眾	-10.9984
習行	-10.9988
是智	-10.999
昔所	-10.999
設我	-10.9991
歡喜心	-10.9994
靜默	-10.9996
久久	-10.9998
不向	-10.9998
相師	-11.0011
恒河	-11.0012
在眾中	-11.0013
政	-11.0014
五百比丘尼	-11.0016
妙好	-11.002
王及	-11.0022
大明	-11.0025
觀內	-11.0027
說如是	-11.0031
可喜	-11.0034
無常想	-11.0034
樂滅	-11.0039
斷愛	-11.0039
可敬	-11.004
千六百	-11.004
遣使	-11.0041
想念	-11.0042
若行者	-11.0048
亦當知	-11.0053
有樂	-11.0053
彼命終	-11.0054
或於	-11.0056
若族姓子	-11.0058
旦	-11.0059
駕乘	-11.0061
緣彼	-11.0062
法句	-11.0063
㮈	-11.0073
輔相	-11.0073
恐懼	-11.0074
則以	-11.0076
浣	-11.0077
人心	-11.0078
鹹	-11.008
識神	-11.0084
輙	-11.0084
哆	-11.0086
軀	-11.0088
羞	-11.0088
騰	-11.0088
映	-11.009
邪方便	-11.0091
於何	-11.0093
初生	-11.0093
耨	-11.0093
為他說	-11.0093
辨	-11.0096
三千大千世界	-11.0096
〕-【	-11.0097
那提迦	-11.0097
詰	-11.0097
0	-11.0098
犢	-11.0098
啼	-11.0098
諸智梵行者	-11.0099
撰	-11.0099
無限	-11.01
流注	-11.0101
如律業	-11.0101
鏡	-11.0101
痛痒	-11.0102
念力	-11.0102
涉	-11.0103
藕根	-11.0103
法法觀念住	-11.0103
身體輕便	-11.0104
香花	-11.0104
婆悉吒	-11.0104
說此義	-11.0104
且置	-11.0105
能捨惡	-11.0105
悉入	-11.0106
身更	-11.0106
鞞舍	-11.0106
大梵	-11.0107
好醜	-11.0108
象力	-11.0109
利劍	-11.0111
斷疑度惑	-11.0111
諸根寂靜	-11.0111
尼乾子	-11.0111
現法樂居	-11.0113
繁茂	-11.0113
卷下	-11.0113
比丘起發牛角娑羅林	-11.0113
夫婦	-11.0114
稱量	-11.0114
就座	-11.0117
苦哉	-11.0117
優鉢羅花	-11.0117
有慧	-11.0118
能滅	-11.0118
駛流	-11.012
捨去	-11.0121
變異	-11.0121
寂無音	-11.0121
四萬二千由旬	-11.0121
佛告摩訶男	-11.0122
汝所修行	-11.0125
分散	-11.0125
正士	-11.0125
不作惡業	-11.0125
此食	-11.0126
欲還	-11.0127
低舍	-11.0129
之樂	-11.0129
不復更	-11.013
燋爛	-11.0132
百種	-11.0135
於己	-11.0137
是謂第五	-11.0139
不染著	-11.014
通利	-11.0141
不可恃怙	-11.0142
專念	-11.0143
彼愚癡人	-11.0143
周匝無量	-11.0144
舉聲	-11.0147
身妙行	-11.0148
承受	-11.0152
大熱	-11.0153
是央掘魔	-11.0154
並皆	-11.0155
愍念	-11.0155
給使	-11.0155
是謂第四	-11.0156
地獄諸眾生輩	-11.0158
比丘成就	-11.016
作師子吼	-11.0161
此二法	-11.0161
出種種香	-11.0169
甘美	-11.0175
說是語	-11.0175
為大患	-11.0175
毘舍離城	-11.0176
受福	-11.0178
除滅	-11.0178
其國	-11.0179
而食	-11.018
田作	-11.0181
名曰善	-11.0181
比丘尼成就	-11.0182
不可量	-11.0189
二邊	-11.0189
聞此語	-11.019
可畏	-11.0196
下車	-11.0197
有煩	-11.0198
念已	-11.0207
極苦	-11.0208
是四	-11.0214
命過	-11.0217
即從	-11.0218
所記	-11.0221
無念	-11.0226
汝先	-11.023
斷知	-11.0231
不爾	-11.0233
是名如來	-11.0238
如是此	-11.024
黑白	-11.0242
畏懼	-11.0244
牧	-11.0244
生三十三天	-11.0246
諸比丘聞	-11.0246
食後	-11.0249
如是思惟	-11.0255
欲詣	-11.0256
少壯	-11.0258
復能	-11.026
天文	-11.0261
四大洲	-11.0275
如此之	-11.0275
應奉事	-11.0275
邪道	-11.0276
非智	-11.0278
無有能	-11.0282
老母	-11.0282
轉相	-11.0283
墮地	-11.0284
退法	-11.0288
清淨梵行	-11.0289
為其	-11.0291
告苾芻眾	-11.0293
八日	-11.0293
無見	-11.0293
即取	-11.0299
如是眾生	-11.03
習於	-11.0302
名色滅	-11.0306
有名色	-11.0311
亦不說	-11.0313
染著心	-11.0316
善說法	-11.0316
意所念	-11.0318
深法	-11.032
堪忍	-11.0322
住立	-11.0322
於汝等	-11.0329
不顧	-11.033
不可見	-11.0331
我因	-11.0333
昨日	-11.0334
閻浮提人	-11.0334
觸生	-11.0339
有是法	-11.0341
▁2	-11.0345
緣觸	-11.0351
數千	-11.0355
上虛空中	-11.0355
如其	-11.0358
諸比丘等	-11.0358
分陀利	-11.0359
已除	-11.0361
大仙	-11.0365
劍樹	-11.0367
無有異	-11.0371
而歸	-11.0373
二比丘	-11.0374
二千	-11.0375
盡諸漏	-11.0377
廟	-11.0377
受集	-11.0379
非聖	-11.038
集講堂	-11.0386
或見	-11.0386
後誦	-11.0389
如法說	-11.039
壽命延長	-11.0392
羅陀比丘	-11.0392
老病死	-11.0392
誓願	-11.0393
大樂	-11.0397
如來說法	-11.0399
不毀	-11.0407
愁慼	-11.0415
八為	-11.0415
是耳	-11.0416
欲意	-11.0418
刈	-11.0419
下意	-11.0419
摩訶迦旃延	-11.042
宛轉	-11.0423
衛	-11.0424
之數	-11.0424
列	-11.0424
勤精進	-11.0424
其最後王	-11.0427
眾具	-11.0428
幡	-11.0429
老苦	-11.0433
弗	-11.0433
之罪	-11.0434
入三摩地	-11.0435
省	-11.0435
坌	-11.0436
懃	-11.0437
裸形	-11.0438
匿	-11.0438
街巷	-11.0438
晨	-11.0439
奈何	-11.0439
諂	-11.0439
如上三經	-11.044
補	-11.044
步兵	-11.044
三藐三佛陀	-11.0441
有憂慼邪行	-11.0441
佛住波羅㮈國仙人住處鹿野苑中	-11.0441
遊化	-11.0441
捨覺支	-11.0442
欝多囉究留人輩	-11.0443
抄	-11.0443
聾	-11.0443
裏	-11.0443
十號具足	-11.0443
消息	-11.0443
合掌向佛	-11.0444
憍尸迦	-11.0444
誤	-11.0444
差摩比丘	-11.0444
闍維	-11.0444
祠祀	-11.0445
嬉戲	-11.0445
寡	-11.0445
斯惒提	-11.0446
跪	-11.0446
i	-11.0447
俱盧奢	-11.0448
間錯	-11.0448
菴婆羅	-11.0448
憐念	-11.0449
膚	-11.0451
我本為汝說	-11.0452
剃髮	-11.0452
若為諸年少比丘說教此	-11.0452
憂悲苦惱	-11.0452
津	-11.0453
弊魔波旬	-11.0453
研	-11.0453
孤獨	-11.0453
自然生	-11.0453
樹葉	-11.0454
以義饒益	-11.0454
摩訶卑耶和題俱曇彌	-11.0455
長生太子	-11.0455
生死長遠	-11.0456
總持	-11.0457
來詣我所	-11.0457
如是修	-11.0458
正謂此	-11.0458
宮殿住處	-11.0458
為弟子說法	-11.0458
舍宅	-11.0459
從燕坐起	-11.0459
亦二岐道	-11.0461
不能答	-11.0463
熱鐵丸	-11.0463
佛法僧	-11.0465
增進	-11.0465
則法不衰	-11.0466
有異道人	-11.0466
閻浮車問舍利弗	-11.0468
三菩提	-11.0469
夏坐	-11.0469
愍傷世間	-11.0469
浮彌	-11.0469
徒眾	-11.047
若坐	-11.0471
修諸梵行	-11.0473
諸比丘眾	-11.0475
共坐	-11.0476
所思	-11.0478
叢林	-11.0479
慈悲心	-11.048
入定意	-11.0481
瓦石	-11.0481
釋子	-11.0483
離生喜樂	-11.0483
法也	-11.0485
於世尊所	-11.0486
中所有	-11.0487
大士	-11.0488
修羅	-11.0494
可厭患	-11.0494
至究竟	-11.0495
忉利天上	-11.0496
今為	-11.0498
為彼說法	-11.05
為賊	-11.05
為世間	-11.0502
謂八支聖道	-11.0505
不明	-11.0514
亦知彼天如是	-11.0514
諸神	-11.0516
大風起	-11.0519
時王	-11.0524
佛以	-11.0524
可說	-11.0526
欲起	-11.0527
行盡	-11.0529
老死滅	-11.0531
觀彼	-11.0532
餘沙門	-11.0539
令坐	-11.0541
心自念	-11.0541
亦從	-11.0544
其本	-11.0546
惡馬	-11.0553
猶故	-11.0557
四人	-11.0562
若有此	-11.0563
滅之	-11.0565
無有餘	-11.0567
告阿難	-11.0571
往語	-11.0572
神變	-11.058
諸年少	-11.0582
從愛	-11.0585
無濁	-11.0591
歸法	-11.0598
極淨	-11.06
別有	-11.0601
意故	-11.061
世世	-11.0613
悅樂	-11.0617
應知	-11.0619
欲入	-11.062
大身	-11.0633
出家者	-11.0634
施食	-11.064
藍	-11.0641
諸阿須倫	-11.0643
行欲	-11.0649
便得解脫	-11.0656
求自	-11.0657
念戒	-11.0663
說是偈	-11.0664
諸欲	-11.0667
在一面住	-11.0667
隨彼	-11.0667
薩羅	-11.0668
自證	-11.0672
二字	-11.068
妙音	-11.0681
如是法	-11.0684
他家	-11.0692
之家	-11.0692
彼行	-11.0694
四姓	-11.0694
修道	-11.0697
或從	-11.0699
猶不	-11.0706
於世尊	-11.0711
心故	-11.0711
諮	-11.0716
願王	-11.0716
有禪	-11.0717
根門	-11.072
問之	-11.0722
最極	-11.0726
有邊無邊	-11.0731
定力	-11.0731
為最上	-11.0734
葬	-11.0737
豐樂	-11.0743
起想	-11.0747
為自	-11.0748
所用	-11.0752
一面坐	-11.0757
人輩	-11.0768
獵師眷屬	-11.0773
我今可	-11.0774
其面	-11.0774
但以	-11.0774
受人信施	-11.0776
不隨時	-11.0776
賓頭盧	-11.0778
是故我今	-11.0779
黑繩	-11.078
宅	-11.0783
色如	-11.0783
滯	-11.0784
鐵丸	-11.0785
戱	-11.0785
絡	-11.0785
作方便	-11.0785
戴	-11.0786
忿	-11.0788
恒在	-11.0791
得成	-11.0792
役	-11.0792
顏貌端政	-11.0793
強耆	-11.0793
賞	-11.0793
八十種好	-11.0795
二十億耳	-11.0796
梵身天	-11.0796
婬怒癡	-11.0797
貨	-11.0797
集在一處	-11.0798
猶如王及大臣有	-11.0799
明旦	-11.0799
燥	-11.0799
外觀色	-11.0799
默然不對	-11.0799
勇健	-11.0801
惡露	-11.0802
琉璃及水精	-11.0802
壽命極長	-11.0803
講論	-11.0803
割截	-11.0804
我慢繫著使	-11.0804
戲笑	-11.0804
中夭	-11.0804
食噉含消	-11.0804
香潔	-11.0805
迫	-11.0805
屠牛	-11.0806
令心	-11.0806
諸善普至	-11.0806
此跡	-11.0806
拘娑羅國王長壽	-11.0807
侶	-11.0807
未離	-11.0808
熟視	-11.0808
耀	-11.0808
諸見	-11.0809
受持學戒	-11.0809
古昔	-11.081
若諸梵行來問	-11.081
招	-11.0811
作倡伎樂	-11.0812
肆	-11.0812
煩熱	-11.0813
煩惱隨增	-11.0814
衰老	-11.0814
斷者	-11.0815
隨所欲	-11.0815
訓誨	-11.0816
瞿曇彌大愛	-11.0816
王告	-11.0816
死亡	-11.0817
支提	-11.0818
麤細	-11.0818
階道	-11.0819
皆是阿羅漢	-11.0822
心生歡喜	-11.0824
無有猶豫	-11.0824
劫中	-11.0826
仙餘財主	-11.0827
十二種	-11.0829
已畢	-11.083
佛告犢子	-11.083
無有空缺	-11.083
得大利	-11.0831
來生人間	-11.0831
於善法	-11.0832
當令	-11.0833
露坐	-11.0834
諍事	-11.0839
能起	-11.0841
貪嗜	-11.0844
離垢	-11.0846
窟中	-11.0848
四衢道	-11.085
入第四禪	-11.0851
斷三結	-11.0854
至彼岸	-11.0855
此身中	-11.0856
賢劫中	-11.0856
還去	-11.0857
我憶	-11.0858
財利	-11.0862
賴吒和羅言	-11.0863
具說	-11.0866
不離欲	-11.0868
一食	-11.0871
彼得	-11.0872
有苾芻	-11.0876
是念	-11.0876
作此說	-11.0877
象師	-11.0877
識陰	-11.0879
往到	-11.088
麤言	-11.0881
若言	-11.0882
教誨	-11.0882
同學	-11.0884
有大智慧	-11.0885
此二人	-11.0886
五日出	-11.0891
不近	-11.0893
王夢	-11.0895
坐於	-11.0895
入內	-11.0897
此非我	-11.0897
婆羅門食	-11.0898
復起	-11.0899
大姓	-11.0899
之色	-11.09
明者	-11.0903
破戒	-11.0907
而不能	-11.0909
共語	-11.0913
石山	-11.0914
若有惡	-11.0915
諸聲聞	-11.0917
為眾	-11.0918
歸依佛	-11.0918
周行	-11.0919
城名	-11.092
何集	-11.0925
若如來	-11.0925
得盡	-11.0927
有眾多	-11.0928
善觀	-11.0929
燒其	-11.093
於心	-11.093
入般涅槃	-11.0934
若異	-11.0934
聞說	-11.0935
如是悲	-11.0937
是謂此人	-11.0938
身行惡	-11.0944
如佛	-11.0944
得天眼	-11.0952
息止	-11.0952
今得	-11.0954
不妄	-11.0958
處於	-11.0958
正慧	-11.0958
亂心	-11.0959
無益	-11.0959
欲度	-11.0965
上尊	-11.0966
無緣	-11.0968
心行	-11.097
將護	-11.0971
內有	-11.0985
岸邊	-11.0986
所識	-11.0989
往詣佛	-11.099
真金	-11.0992
覺想	-11.0993
乃可	-11.0993
此眾	-11.0993
從行	-11.0998
既生	-11.1006
地主	-11.1023
三惡	-11.1033
火災	-11.1036
更求	-11.1038
為有我	-11.104
於父母	-11.1051
患故	-11.1054
一毛	-11.106
言教	-11.1062
中後	-11.1064
少食	-11.1066
㷿	-11.1067
此閻浮提	-11.1071
欲至	-11.1075
去地	-11.1078
於彼處	-11.1078
汝云何	-11.1079
婆蹉	-11.1081
復有一種沙門婆羅門	-11.1081
過去諸佛	-11.1081
相習近	-11.1083
色有	-11.1083
奉侍	-11.1085
所化	-11.1086
地種	-11.1091
其有人	-11.1095
取命終	-11.1097
度脫	-11.1101
於人間	-11.1105
有婆羅門	-11.1107
所說者	-11.1108
問諸比丘	-11.1112
來生此	-11.1112
覺觀	-11.1117
樂欲	-11.1129
無數百千	-11.1129
斯事	-11.1134
末羅	-11.1136
澡洗	-11.1137
我受持	-11.114
第一也	-11.114
不解脫	-11.1141
闡陀	-11.1142
訶責	-11.1143
同時	-11.1144
出遊	-11.1144
若比丘於	-11.1146
敬待	-11.1146
常安隱	-11.1146
善聽	-11.1148
賓	-11.1148
傾	-11.1149
汝從何來	-11.115
捐	-11.1151
得一心	-11.1154
賴	-11.1155
欄	-11.1156
成等正覺	-11.1157
洪	-11.1158
剎	-11.1158
復云何業	-11.1158
升	-11.1159
柱栿	-11.116
均	-11.1161
娑羅林	-11.1161
清淨法	-11.1161
麗	-11.1162
玄	-11.1162
胸	-11.1163
得光明而見色	-11.1163
見是相已	-11.1164
狹	-11.1164
悲號	-11.1165
蕩	-11.1165
羽	-11.1165
過惡未解故不死	-11.1166
鬘童子	-11.1166
肉段	-11.1166
睒	-11.1167
兜術天	-11.1167
愈	-11.1167
屏處	-11.1168
唐	-11.1168
念覺支	-11.1169
無明漏	-11.1169
過中食	-11.1169
葉華實	-11.1169
舌知味	-11.1169
炷	-11.117
練	-11.117
陸	-11.117
三耶三佛	-11.1171
拘隣	-11.1172
園觀浴池	-11.1172
申	-11.1172
迦毘羅衛	-11.1173
誠實	-11.1173
臣佐	-11.1173
官屬	-11.1173
宗親	-11.1173
脂	-11.1173
穴	-11.1173
掩	-11.1175
東西南北	-11.1175
捨戒罷道	-11.1175
轉向苦邊	-11.1176
煎	-11.1176
乃至車𤦲馬瑙等寶	-11.1176
無覺無觀	-11.1177
起居輕利	-11.1177
皆悉知之	-11.1178
澆	-11.1179
各各和鳴	-11.1179
毗舍佉優婆夷	-11.1179
神通力	-11.1179
願樂欲聞	-11.118
善受善持	-11.118
賢聖八品道	-11.118
長幼	-11.118
露遮	-11.1181
晝日	-11.1181
七日七夜	-11.1181
完具	-11.1182
沙門釋子	-11.1182
尸婆	-11.1183
故稱	-11.1183
生聞梵志	-11.1183
入滅盡定	-11.1183
便取	-11.1184
形像	-11.1185
彼亦如是	-11.1185
橋	-11.1185
足蹈	-11.1185
日天宮殿	-11.1186
世間有常	-11.1187
得善利	-11.1188
有流	-11.1188
獲沙門果	-11.1188
究羅檀頭	-11.1189
名之為	-11.1189
定覺分	-11.1191
往詣長者家	-11.1192
聖體	-11.1195
多有人民	-11.1199
作如是論	-11.1199
未解	-11.12
牧牛人	-11.1203
明燈	-11.1205
彼比丘應如是	-11.1206
梵志陀然	-11.1207
諸大	-11.1208
若在家者	-11.121
散亂	-11.1213
而行布施	-11.1214
人中尊	-11.1215
能制	-11.1223
所疑	-11.1223
去未久	-11.1227
比丘對	-11.1228
不善處	-11.1232
如王	-11.1232
多聞者	-11.1233
舍羅	-11.1234
等事	-11.1234
五結	-11.1236
恣意	-11.1237
道也	-11.1242
其婦	-11.1242
盡無餘	-11.1243
莫念	-11.1245
於諸善法	-11.1245
命既	-11.1247
於彼命終	-11.125
熏修	-11.1251
六月	-11.1254
何生	-11.1255
而欲	-11.1258
善色	-11.126
種種葉	-11.1262
則無有	-11.1264
見色是我	-11.1265
中妙	-11.1265
相觸	-11.1266
善法轉增	-11.1269
其有眾生	-11.127
之名	-11.1271
適意	-11.1271
住世	-11.1272
竹園	-11.1274
若眼見色	-11.1274
諸尼揵	-11.1276
而見	-11.1278
去離	-11.128
句義	-11.128
其味	-11.1281
修善行	-11.1285
是世間	-11.1286
唯世尊	-11.1289
憂畏	-11.1291
聖諦	-11.1292
以是言	-11.1295
堅住	-11.1297
當言	-11.1301
能壞	-11.1303
禮事彼	-11.1304
王欲	-11.1306
四大天王	-11.1308
十七字	-11.1312
備具	-11.1313
盡壽	-11.1313
閻浮利	-11.1316
此三種	-11.132
七事	-11.1325
世尊以	-11.1326
心便	-11.1331
住舍衛國	-11.1332
第一者	-11.1333
解其義	-11.1334
貪欲蓋	-11.1335
從生	-11.1338
八難	-11.1338
復非	-11.1339
名號	-11.1342
有漏盡	-11.1343
汝父	-11.1344
語長者	-11.1346
令歡喜	-11.1346
手捉	-11.1348
一切人	-11.135
淨水	-11.1352
或墮	-11.1352
▁一時	-11.1352
曾聞	-11.1356
鉢中	-11.1357
阿育王	-11.1359
有喜	-11.136
何功德	-11.1362
善勝	-11.1365
比丘尼以	-11.1368
十四日	-11.1368
持齋	-11.137
現於世間	-11.1371
著意	-11.1375
邪智	-11.1376
天也	-11.1378
深妙	-11.1378
我與	-11.138
於我所	-11.138
求出家	-11.1385
若多聞聖弟子	-11.1386
散華	-11.1388
向須陀洹	-11.1392
極有	-11.1393
五下分結	-11.1402
生死智	-11.1403
五百由旬	-11.1404
胎生	-11.1407
命終生天	-11.1408
而不知	-11.1412
之難	-11.1413
可捨	-11.1414
到彼	-11.1416
世尊復問	-11.1416
除諸	-11.1418
攝心	-11.1422
更有餘	-11.1428
師言	-11.1429
入已	-11.1438
正解脫	-11.1438
令斷	-11.144
十一法	-11.144
作火	-11.1446
以天眼觀	-11.1446
歸比丘僧	-11.1447
善思惟	-11.1453
有如是等	-11.1461
火種	-11.1461
淨解脫	-11.1466
堪能離	-11.1467
無所受	-11.1467
諸眾生等	-11.1467
其宮	-11.1471
蓮花	-11.1475
請問	-11.1477
法觀	-11.1477
甚大	-11.1478
無量惡不善之法	-11.1483
以尼師檀著	-11.1485
常與	-11.1486
命異身異	-11.1489
王意	-11.149
惱亂	-11.1491
中路	-11.1492
五功德	-11.1493
則非	-11.1494
七千	-11.1496
嬈亂	-11.1497
未曾見	-11.1497
者之所行	-11.1498
不沒	-11.1499
謂正見	-11.1501
人生	-11.1503
纏縛	-11.1509
」「	-11.1513
此五法	-11.1515
汝何故	-11.1516
無事處	-11.1517
念者	-11.1518
九為	-11.152
便從	-11.1522
竊	-11.1524
於現法	-11.1526
迦尸	-11.1527
彼婦人	-11.1527
百六十	-11.1528
我以此	-11.1529
溺	-11.153
關	-11.153
巨	-11.1531
肩	-11.1532
利故	-11.1535
慞惶	-11.1535
謀	-11.1537
淨想	-11.1537
金銀琉璃	-11.1538
忠	-11.1539
粮	-11.1541
護持	-11.1541
輦	-11.1542
嘗	-11.1542
汙	-11.1542
鴦	-11.1544
癩	-11.1544
耆婆伽	-11.1545
鎧	-11.1545
非有想非無想	-11.1546
其池	-11.1546
修福	-11.1546
孝順	-11.1546
光音	-11.1546
棄捐	-11.1547
脊	-11.1547
此世彼世	-11.1547
匠	-11.1547
考	-11.1548
世間眼滅	-11.1548
婆耆奢	-11.1548
騾	-11.1549
如是受苦樂	-11.155
正欲	-11.155
重生令增廣	-11.155
諂曲	-11.155
菓	-11.1551
於眾中	-11.1551
侍衛	-11.1551
寐	-11.1553
與其	-11.1553
喚呼	-11.1553
苗	-11.1553
胞	-11.1554
鼠	-11.1555
迦毘羅越	-11.1556
祇洹精舍	-11.1556
身猗息	-11.1557
盜竊	-11.1557
內懷憂慼	-11.1558
ā	-11.1558
若此眾生成就身	-11.1559
凡夫之人	-11.1559
囑累	-11.1559
如來法	-11.156
金毘羅	-11.156
僕從	-11.1561
尊師阿蘭那為弟子說法	-11.1561
瑪瑙	-11.1562
有大神力	-11.1562
繞佛三匝	-11.1563
寒氷地獄	-11.1563
良田	-11.1563
酥油	-11.1564
佛在羅閱城迦蘭陀竹園所	-11.1564
三明婆羅門	-11.1564
所謂論者	-11.1566
整御天下	-11.1568
如病	-11.1568
眼知色	-11.1569
北首	-11.157
惒破	-11.157
洹	-11.1571
向於捨	-11.1571
致比丘訶數詰責	-11.1571
板	-11.1572
佛遊王舍城	-11.1572
成正覺	-11.1572
六千由旬	-11.1573
彼最後王	-11.1574
為作留難	-11.1574
正真	-11.1574
中阿含	-11.1574
疾病困篤	-11.1575
聖賢	-11.1575
鎖	-11.1575
精進覺分	-11.1576
攝衣持鉢	-11.1576
清淨無穢	-11.1576
卵生	-11.1577
次第乞食	-11.1578
修此	-11.1579
修習滿足	-11.158
莫作是觀	-11.1581
便念	-11.1582
自他作	-11.1582
現在無常	-11.1585
漸損	-11.1589
五穀	-11.159
奉敬	-11.159
十歲	-11.1593
有想無想	-11.1594
對治	-11.1596
有一大樹	-11.1596
心淨	-11.16
不得食	-11.1602
大功德	-11.1602
願無願	-11.1603
與王	-11.1604
勝負	-11.1604
統領	-11.1606
之寶	-11.1609
臣民	-11.1615
合成	-11.1615
空三昧	-11.1616
果實	-11.1621
而與	-11.1622
比丘如是	-11.1623
如是事	-11.1624
即自念	-11.1624
設使	-11.1626
四分	-11.1627
與他	-11.1628
語諸比丘	-11.1628
淨信心	-11.1629
無惱	-11.1629
退減	-11.163
諸外道出家	-11.1631
止諍	-11.1634
出舍衛城	-11.1637
法施	-11.1639
清淨道	-11.164
諸山	-11.1641
持禁戒	-11.1643
給與	-11.1647
戒成就	-11.1647
不改	-11.1649
三昧成就	-11.165
光天	-11.1654
欲有	-11.1659
相類	-11.166
復有餘	-11.1663
此賢者	-11.1666
想生	-11.1667
增上心	-11.1667
告我	-11.1671
樂聞	-11.1674
道說	-11.1677
地上	-11.1678
識患	-11.168
取彼	-11.1684
惡處	-11.1687
行跡	-11.1688
二萬	-11.1692
行慈心	-11.1693
邊見	-11.1693
佛子	-11.1694
具足住	-11.1696
欲作	-11.1696
覺意	-11.1697
舍梨子比丘	-11.1699
還出	-11.1706
解知	-11.1708
嚴身	-11.1709
為得	-11.171
果樹	-11.1714
一切人民	-11.1717
相可	-11.1718
分別法	-11.172
自憶	-11.172
安隱處	-11.172
八經	-11.1724
除斷	-11.1727
今汝	-11.1729
十一字	-11.1734
為是誰	-11.1734
寧當	-11.1741
山巖	-11.1741
離散	-11.1744
有三十三天	-11.1745
籌	-11.1749
修正見	-11.1749
後世人	-11.1751
悉見	-11.1755
勝前	-11.1757
語汝	-11.1758
婆羅婆	-11.1762
取般涅槃	-11.1762
十二由旬	-11.1765
身也	-11.1769
苾芻尼	-11.1772
得供養	-11.1773
入地	-11.1776
并諸	-11.1777
何由而	-11.1779
長生	-11.1779
善賢	-11.1786
齊是	-11.1789
離苦	-11.1791
善言	-11.1793
六種	-11.1795
大泥犁	-11.1797
聞正法	-11.1801
皆在	-11.1802
所有法	-11.1802
觀見	-11.1804
得甘露	-11.1807
受命	-11.1808
令從是	-11.181
二三四五六七	-11.181
從本	-11.1815
業報	-11.182
心即	-11.1824
諸患	-11.1825
孫	-11.1827
彼諸天	-11.1829
消化	-11.1829
未有	-11.1832
得聞	-11.1833
可修	-11.1836
有恐怖	-11.1836
四百	-11.184
其次	-11.184
田業	-11.1845
用作	-11.1849
正為	-11.1849
諸童子	-11.1851
遠離於	-11.1852
百二十	-11.1854
實無	-11.1858
梵迦夷天	-11.1862
能伏	-11.1863
▁6	-11.1864
阿耨達	-11.1865
舒	-11.1869
如日	-11.1874
他國	-11.1875
大鐵	-11.1875
汝往	-11.1875
如來終	-11.1876
無始生死	-11.1877
詣此	-11.1877
彼必	-11.1883
兇	-11.1886
作人	-11.1887
希	-11.1891
齊是為	-11.1893
稽首禮	-11.1894
𧂐	-11.1896
▁7	-11.1897
命終者	-11.1905
無信	-11.1905
欝單越	-11.1909
尊者舍梨子復	-11.1914
猶有	-11.1917
價	-11.1921
以來	-11.1924
見地	-11.1925
當用	-11.1926
我不知	-11.1926
案	-11.1927
身形	-11.1927
在一樹下	-11.1927
即前	-11.1928
修慧	-11.1928
今復	-11.1933
食噉	-11.1935
如來死後	-11.1936
善學	-11.1936
生瞋恚	-11.1937
垂珞	-11.1939
鋒	-11.194
十七	-11.194
曼	-11.194
餘者虛妄	-11.1941
不妄言	-11.1942
涼	-11.1942
周利槃特	-11.1943
向如來	-11.1943
吞	-11.1943
剌	-11.1944
洞	-11.1944
弄	-11.1944
大女人瞿曇彌	-11.1946
賈	-11.1946
自有財物	-11.1947
酸	-11.1949
更說	-11.195
叫	-11.195
赫	-11.1951
擯	-11.1951
兇暴	-11.1951
阿那毘羅大風	-11.1951
摩竭提	-11.1952
氍	-11.1952
暢	-11.1952
庶	-11.1953
我今自歸於	-11.1953
綿	-11.1953
須達多	-11.1953
法本	-11.1953
三摩耶	-11.1954
我曾	-11.1954
奔	-11.1954
阿濕貝	-11.1955
朋	-11.1955
今得此身	-11.1956
巷	-11.1956
療	-11.1956
續受斯	-11.1956
此山	-11.1957
世間無常	-11.1957
▁14	-11.1957
長吏	-11.1957
善住象王	-11.1958
秋	-11.1958
逮得己利	-11.1958
攀緣	-11.1959
不轉	-11.1959
四日	-11.1959
嘆	-11.196
匹	-11.196
芥子	-11.196
酷	-11.196
右旋	-11.196
等正覺所知所見	-11.196
與白衣共	-11.196
哥	-11.1961
債	-11.1961
摧伏	-11.1961
恭敬圍繞	-11.1961
納受	-11.1963
貧乏	-11.1963
誹謗聖人	-11.1964
苦出要諦	-11.1965
西面	-11.1966
剃頭	-11.1966
仙尼	-11.1967
尊者阿難及諸比丘	-11.1967
流淚	-11.1967
尊者金毘羅	-11.1967
有大名稱	-11.1967
蹋	-11.1968
法法成就	-11.1968
南面	-11.1968
幻化	-11.1968
初始	-11.1969
集坐講堂	-11.1969
千三百	-11.1969
汝頗	-11.197
欝多羅	-11.197
黑雲	-11.1971
步軍	-11.1971
燈明	-11.1971
擾亂	-11.1972
摩竭提國	-11.1972
自貢高	-11.1972
阿夷	-11.1972
竹林加蘭哆園	-11.1973
自身作證	-11.1974
增上慧學	-11.1975
親厚	-11.1975
生憂	-11.1975
十為	-11.1976
去來	-11.1976
俱熾	-11.1977
尊者尸婆羅	-11.1978
僧迦摩	-11.1978
唯佛	-11.1979
如是純大苦聚滅	-11.198
惡友	-11.1982
欣樂	-11.1982
便自覺知	-11.1983
滅除	-11.1985
於身	-11.1987
賴吒惒羅居士子	-11.199
離越	-11.1993
穢濁	-11.1993
食飲	-11.1994
有禪三昧	-11.1995
諸仙人	-11.1996
於肩上	-11.1996
世有常	-11.1997
心大歡喜	-11.1997
莫怖	-11.2002
經第	-11.2006
以得	-11.2007
仰臥	-11.2008
世尊教	-11.2009
不免	-11.2014
度世解脫	-11.2017
卷第五十	-11.202
諸所有	-11.2022
云何為八	-11.2024
是謂比丘成就	-11.2024
佛知	-11.2025
為刺	-11.2026
淨居	-11.2031
使得	-11.2032
知不	-11.2034
如我所	-11.2036
護世	-11.2036
種種方便	-11.2036
將至	-11.2039
此道	-11.204
唯願尊者	-11.2041
四曰	-11.2041
邪見者	-11.2042
我今問	-11.2042
黃色	-11.2042
此五盛陰	-11.2047
現在前	-11.2048
捨之	-11.2048
資生	-11.2049
終不能	-11.205
如是久住	-11.205
大丈夫	-11.2051
恩愛別離	-11.2051
亦隨	-11.2052
憎惡	-11.2054
在其中	-11.2056
小王	-11.2057
有好	-11.2058
即復問	-11.2058
大池	-11.2059
道品	-11.206
彼土	-11.2066
好者	-11.2067
名何等	-11.2069
遍觀	-11.207
乃為	-11.2082
他受	-11.2082
內受	-11.2085
離不與取	-11.2086
法輪	-11.2086
善自	-11.2088
千光明	-11.209
復見	-11.2091
自饒益	-11.2092
不妙	-11.2094
如理	-11.2096
香樹	-11.2098
尊者迦葉	-11.2099
成熟	-11.2099
彼心	-11.21
本為	-11.21
志求	-11.2102
汝今云何	-11.2103
能說	-11.2103
千踰闍那	-11.211
若受	-11.2111
令起	-11.2111
諸善業	-11.2112
如來聖眾	-11.2113
不可念	-11.2114
此偈	-11.2114
梵志報	-11.2115
怨結	-11.2119
諸比丘受教	-11.2119
無所取	-11.2121
瞋恚蓋	-11.2129
離一切	-11.213
聞有	-11.2142
不退法	-11.2142
住在	-11.2144
復當	-11.2145
大目犍連所見	-11.2153
當從	-11.2153
最為勝	-11.2156
即共	-11.2163
善解脫	-11.2163
欲有所說	-11.2166
風起	-11.2171
所逼	-11.2176
所犯	-11.2178
欲試	-11.2178
詣佛	-11.2178
往詣世尊所	-11.218
族姓男	-11.2182
來問我	-11.2187
當般涅槃	-11.2188
燒然	-11.2189
息滅	-11.2189
善人	-11.219
如前說	-11.2191
彼比丘聞佛所說	-11.2191
如此事	-11.2191
之教	-11.2194
頗更有	-11.2196
非父母	-11.2204
或二	-11.2205
斷邪見	-11.2205
有見	-11.2211
恚念	-11.2212
無受	-11.2213
於王舍城	-11.2218
觸因緣生受	-11.2223
以此法	-11.2223
必生	-11.2223
在眾	-11.2223
不惱	-11.2224
坐者	-11.2228
於一切眾生	-11.2235
應得	-11.2235
意向	-11.2236
大國	-11.2238
二龍王	-11.2241
乃從	-11.2242
其德	-11.2243
心生欲	-11.2251
身識	-11.2251
是為六	-11.2263
善教	-11.2267
色者	-11.2278
觸緣	-11.228
如是乃至	-11.228
當見	-11.2281
不如一	-11.2284
汝以	-11.2285
須彌	-11.2287
可共	-11.2287
顧視	-11.2288
已至	-11.2293
向下	-11.2294
持用	-11.2297
晡時	-11.2297
世尊遙見	-11.2297
大風	-11.2299
生老死	-11.2308
正坐	-11.2308
何足	-11.2309
為不善	-11.2309
中劫	-11.231
善法轉減	-11.2311
彼鬼	-11.2315
我已知	-11.2316
商	-11.2317
自稱說	-11.2322
誣謗	-11.2324
優鉢羅華	-11.2325
業故	-11.233
瞿迦梨	-11.2331
地平正	-11.2331
其主	-11.2332
搖	-11.2336
行禪者	-11.2338
如是字	-11.2338
種德	-11.2339
四德	-11.2341
生梵天	-11.2342
不擇	-11.2344
祐	-11.2344
誦經	-11.2344
夭	-11.2346
奈	-11.2347
典尊	-11.2348
我盡恭敬	-11.2348
摩呵男	-11.2349
摩牢	-11.235
才	-11.2351
調伏欲貪	-11.2352
生何處	-11.2354
超術梵志	-11.2355
大善	-11.2356
嚕	-11.2356
求學	-11.2356
慧眼	-11.2357
彈	-11.2357
波頭摩	-11.2358
約	-11.2358
彼作是說	-11.2358
勉	-11.2358
搔揵提迦	-11.2358
樹提迦	-11.2359
扼	-11.236
主兵寶	-11.236
不放逸為其根本	-11.2361
縣官	-11.2362
我為多行	-11.2362
百倍	-11.2363
六日	-11.2364
塹	-11.2364
盈	-11.2365
階	-11.2365
足下	-11.2366
貧賤	-11.2366
養育	-11.2367
不恐怖	-11.2367
羸瘦	-11.2367
附	-11.2368
儲	-11.2368
夜摩天	-11.237
瞿陀尼洲	-11.237
乾竭	-11.237
諸仙	-11.237
曠	-11.237
掠	-11.237
恕	-11.2371
取水	-11.2371
內無色想	-11.2371
願世尊	-11.2372
年耆	-11.2372
忽然不現	-11.2372
容貌	-11.2372
世間集	-11.2372
穢污心命終	-11.2372
麁惡	-11.2373
佛法中	-11.2373
七有天人往	-11.2373
六識身	-11.2374
說微妙之法	-11.2374
共相問訊慰勞	-11.2374
塵土	-11.2374
巢	-11.2375
裟	-11.2375
見法得法	-11.2375
更不復受胎	-11.2375
殖	-11.2375
佛告婆蹉	-11.2375
此女人	-11.2376
正念正智而身覺樂	-11.2376
彷	-11.2376
謂聖所說	-11.2376
行苦行者	-11.2376
牆壁	-11.2377
饌	-11.2377
容貌端正	-11.2377
五髻乾闥婆王子	-11.2378
祿	-11.2378
摩訶拘絺羅	-11.2379
出家為道	-11.2379
精勤舉心	-11.238
憍陳如	-11.238
經第四竟	-11.238
閉塞	-11.2381
修念覺分	-11.2381
牛角娑羅林	-11.2382
難詰	-11.2382
飄	-11.2382
已生善法	-11.2382
寂定	-11.2382
棄家學道	-11.2383
有大威力	-11.2383
正見乃至正定為八	-11.2383
諸大眾	-11.2383
陰蓋	-11.2384
與諸天	-11.2384
入第二禪	-11.2384
不讚歎	-11.2385
初一日誦	-11.2385
無有病痛	-11.2385
首陀	-11.2385
於其晨朝	-11.2385
能了知	-11.2385
適悅	-11.2386
人壽八萬歲時	-11.2386
出入息	-11.2386
諸法法眼生	-11.2387
苦痛辛酸	-11.2387
別異	-11.2388
衰耗	-11.2388
鍮蘆吒	-11.2389
博聞誦習	-11.2389
於虛空	-11.239
斷之	-11.239
瓜	-11.239
向斯陀含	-11.239
尋復	-11.2391
拘尸城	-11.2391
知滅	-11.2392
惋	-11.2392
所患	-11.2392
復以偈報	-11.2393
其異道人	-11.2393
▁丘	-11.2393
了達	-11.2394
得大功德	-11.2395
香塗身	-11.2395
迦羅越	-11.2395
不以為	-11.2395
所有穢污	-11.2396
受持五戒	-11.2396
眾多比丘集於食堂	-11.2396
然我今日	-11.2396
如其像定	-11.2396
非義饒益	-11.2396
葢	-11.2397
朽壞	-11.2398
清淨無瑕穢	-11.2399
向阿那含	-11.2399
此眾生類	-11.24
反復	-11.24
繩床	-11.2401
以智慧	-11.2401
悉共	-11.2402
即自莊嚴	-11.2403
譬如士夫	-11.2403
頭髮	-11.2404
姓字	-11.2406
那伽	-11.2407
從何而生	-11.2407
如有知	-11.2409
軍眾	-11.241
三塗	-11.241
天輪寶	-11.2411
開悟	-11.2411
有德	-11.2411
由彼	-11.2413
華果	-11.2413
七寶具足	-11.2415
伊羅	-11.2416
義說	-11.2417
供養禮事	-11.2422
變易之法	-11.2423
和合者	-11.2423
我子	-11.2426
苦生	-11.2428
為福	-11.243
牧牛者	-11.2431
思議	-11.2431
於戒	-11.2433
尸棄佛	-11.2434
觸而生	-11.2435
尊者優陀夷	-11.2435
斷妄言	-11.2436
有命	-11.2437
不數	-11.2438
念過去	-11.2439
合掌恭敬	-11.2442
最小	-11.2444
發往	-11.2446
無反復	-11.2448
可念	-11.245
即將	-11.2452
善戒	-11.2452
人於世間	-11.2453
害覺	-11.2453
乃至大海	-11.2455
?」』	-11.2456
尋即	-11.2458
四如意足	-11.2461
侍人	-11.2461
提舍	-11.2462
廣說如上	-11.2463
諮問	-11.2464
上頭	-11.2464
報我	-11.2465
七反	-11.2466
彼即	-11.247
所依住	-11.247
無主	-11.2471
汝等頗見	-11.2474
教訓	-11.2475
尊師法	-11.2475
年歲	-11.2477
若有問者	-11.2479
美食	-11.248
如是功德	-11.2483
即持	-11.2483
入正法	-11.2485
不近食	-11.2485
欲與	-11.2497
母名	-11.2499
去已	-11.25
之屬	-11.2501
猛熱	-11.2501
我行	-11.2504
沙門瞿曇所說	-11.2506
百踰闍那	-11.2506
五通	-11.2508
我等應共	-11.251
至後世	-11.2511
為病	-11.2517
善受持誦	-11.2518
果實天	-11.2527
大智慧	-11.2528
二十一	-11.2531
為八	-11.2532
持來	-11.2533
水種	-11.2534
陣	-11.2536
在王舍城	-11.2537
勿令	-11.254
我及	-11.254
退失	-11.2543
法相	-11.2551
所治	-11.2555
興起	-11.2558
有過失	-11.2558
不應作	-11.2558
作是語已	-11.2566
何須	-11.2568
有智慧	-11.257
攝諸根	-11.2572
生般涅槃	-11.2573
若至	-11.2573
所從來	-11.2574
本生	-11.258
知是處	-11.2581
善持	-11.2582
世尊作是念	-11.2584
作此念	-11.2587
食竟	-11.2589
一偈	-11.26
復詣	-11.2601
以己	-11.2602
移動	-11.2602
水沫	-11.2604
猶尚	-11.2607
亦當如是	-11.2608
集在	-11.2609
僧中	-11.261
不淨行	-11.2612
梵志女	-11.2614
盡有漏	-11.2614
中者	-11.2614
彼捨	-11.2615
行路	-11.2616
懷恐怖	-11.2616
遺餘	-11.2618
當語彼	-11.2622
還白	-11.2625
有三十二相	-11.2627
有三事	-11.2628
北面	-11.2632
於舍衛國	-11.2643
左手	-11.2645
真說	-11.2645
餘事	-11.2651
是為第一	-11.2655
婆羅門居士	-11.2656
極受	-11.2661
阿難報	-11.2663
今且	-11.2665
魔軍	-11.2667
器樹	-11.2669
他有	-11.267
有老	-11.267
毘舍佉優婆夷	-11.2671
不恚	-11.2675
三昧定	-11.2676
種種異	-11.2679
但欲	-11.2684
見到	-11.2684
觀相	-11.2684
繫心	-11.2685
大悲	-11.2689
當歸	-11.2691
寂止	-11.2691
千年	-11.2693
記之	-11.2694
乃是	-11.2696
上有	-11.2697
觸食	-11.2698
諸行無常	-11.27
恒自	-11.27
相去	-11.2708
於自	-11.2709
行來	-11.2711
得無為	-11.2713
樹上	-11.2716
此城	-11.2716
又以	-11.2717
更苦	-11.2718
輕賤	-11.272
斷壞	-11.2726
令我得	-11.2729
坐處	-11.273
習法	-11.273
不縛	-11.273
若比丘觀	-11.2733
工	-11.2733
便捨	-11.2736
莊	-11.2736
世尊所	-11.2738
不造	-11.2741
是名世間	-11.2747
於佛法	-11.2748
從事	-11.2754
喜覺分	-11.2755
。」』」	-11.2757
土地	-11.2757
或得	-11.276
長者婦	-11.276
多聞比丘	-11.2761
為人時	-11.2768
三時	-11.2771
逝心理家	-11.2772
畜牧	-11.2772
徐	-11.2773
女即	-11.2774
復有六	-11.2778
縷	-11.2779
獄中	-11.2781
三十六萬里	-11.2781
有戒	-11.2786
蹬	-11.2786
難見	-11.2786
▁時	-11.2788
盡力	-11.2788
真為	-11.279
眾事	-11.2791
滋	-11.2791
七重壁	-11.2792
藥叉女	-11.2792
自思念	-11.2793
一歲	-11.2793
所學	-11.2794
久受苦	-11.2794
不懷	-11.2796
拏	-11.2797
其城	-11.2797
爭	-11.2797
》、《	-11.2797
得錢財	-11.2798
后	-11.28
知止足	-11.2801
賀	-11.2802
此是無記	-11.2802
諸佛常法	-11.2803
種種談譁	-11.2803
槨	-11.2803
高廣正等	-11.2803
服飾	-11.2803
機	-11.2804
頰鞞王	-11.2805
涕泣	-11.2805
欺詐	-11.2805
非想非非想處	-11.2805
弗那婆修	-11.2806
異學無恚	-11.2806
如來不終	-11.2806
令諸眾生作如是	-11.2806
摧	-11.2806
充足	-11.2806
卑賤	-11.2807
於四聖諦未無間等	-11.2807
大城	-11.2807
遷	-11.2807
波梨子	-11.2808
集一處	-11.2808
憶念不忘	-11.2808
頻婆娑羅王	-11.2808
卵生龍	-11.2808
行此法	-11.2809
却後七日	-11.2809
即我身是	-11.2809
剃鬚髮	-11.2809
打破	-11.281
火燒頭	-11.281
伸	-11.281
現法自知作證	-11.281
經第二竟	-11.2811
已生惡不善法	-11.2811
度一切色想	-11.2811
心開意解	-11.2811
猛焰	-11.2811
渧水	-11.2811
金錢	-11.2811
有滅則生滅	-11.2811
鏁	-11.2811
燈光如來	-11.2812
供辦	-11.2812
最下	-11.2812
拘那含	-11.2812
是故彼等作如是	-11.2812
沒溺	-11.2812
蠅	-11.2812
真實不異	-11.2813
生者有者乃至住者	-11.2813
提頭賴吒天王	-11.2813
翼從	-11.2813
善伴黨	-11.2814
周聞十方	-11.2814
何得	-11.2814
隨所解答	-11.2815
遙見佛來	-11.2815
先祖	-11.2815
化作年少	-11.2815
共論此事	-11.2815
齊限	-11.2816
無明漏心解脫	-11.2816
生善趣	-11.2817
下劣	-11.2817
焰天	-11.2818
以成	-11.2819
拍	-11.2819
尊者賓頭盧	-11.2819
五欲之中	-11.282
身毛皆竪	-11.282
聰慧	-11.2821
工師種	-11.2821
正身端坐	-11.2821
入安陀林	-11.2821
多耆奢	-11.2822
歎譽	-11.2822
究竟梵行訖	-11.2822
為七	-11.2822
不以刀杖	-11.2823
駈	-11.2823
彼亦得滅	-11.2824
怨憎會苦	-11.2824
而語之	-11.2824
生畜生中	-11.2824
究竟白淨	-11.2824
增上意學	-11.2825
瞋怒	-11.2825
立念在	-11.2826
舉體	-11.2826
凶	-11.2826
逼切	-11.2827
丹本	-11.2827
水流	-11.2827
遮羅	-11.2827
懷恐懼	-11.2827
利樂	-11.2828
白象寶	-11.2828
瞋纏	-11.2829
一百由旬	-11.2829
相貌	-11.2829
如是比丘觀內	-11.2829
朱利槃特比丘	-11.283
復以何因緣	-11.283
若魔天	-11.283
卒起	-11.2831
慳嫉	-11.2832
共往	-11.2832
香湯	-11.2832
於異時	-11.2832
非不如法	-11.2833
實語	-11.2834
往詣彼城	-11.2834
此不應詣彼	-11.2835
車軍	-11.2836
得眼林	-11.2839
求解脫	-11.284
兩足	-11.284
千二百五十	-11.2841
三結盡	-11.2841
覺道	-11.2842
世尊復告諸比丘	-11.2843
過於人	-11.2844
身生	-11.2846
難提波羅陶師離	-11.2847
可貴	-11.2847
毒痛	-11.2848
婆羅門即	-11.2851
此三是	-11.2851
識食	-11.2852
一伏婬	-11.2856
擇法	-11.2856
乃往	-11.2856
無眾生生	-11.2857
迦花	-11.2858
閻浮樹	-11.2861
如說說	-11.2861
當捨離	-11.2861
白帝釋	-11.2863
不待時	-11.2864
有四種軍	-11.2865
及身口	-11.2866
我聞法已	-11.2866
是為第三	-11.2867
而令	-11.287
於我法中	-11.2873
二百五十	-11.2876
墮地獄中	-11.2876
香美	-11.2877
未能	-11.2877
過七日	-11.2879
諸人等	-11.2881
亦以	-11.2882
當更	-11.2882
施彼	-11.2883
自由	-11.2883
明照	-11.2883
清淨戒	-11.2885
彼士夫	-11.2885
定起	-11.2886
為諸聲聞	-11.2886
佛為說法	-11.2887
五色	-11.2888
天上天下	-11.2891
欲受	-11.2892
靜室	-11.2895
恒喜	-11.2897
即詣佛所	-11.2898
等無有異	-11.2898
焰摩天	-11.2899
謂善男子	-11.2903
過此	-11.2903
梵行具足	-11.2907
婆蹉白佛	-11.2907
7)	-11.2909
計我	-11.291
相離	-11.2913
及天	-11.2913
呼阿難	-11.2913
音響王	-11.2916
我初	-11.2917
昨夜	-11.2919
災變	-11.2921
於此命終	-11.2921
入室	-11.2922
行善法	-11.2923
汝且	-11.2926
聞知	-11.2926
律出家	-11.2927
一向說	-11.2934
行處	-11.2939
已樂中	-11.2939
我說是	-11.2943
成阿那含	-11.2944
麁言	-11.2948
愚夫	-11.2949
能勝	-11.2949
著色	-11.295
華樹	-11.2951
聽我說	-11.2952
生酥	-11.2952
必能	-11.2955
出聲	-11.2958
妄想	-11.2958
此林	-11.296
從東方來	-11.296
以是因緣故	-11.2962
世俗	-11.297
八聖道	-11.2971
敬信	-11.2974
車兵	-11.2975
行十善	-11.2975
觸集	-11.298
或有比丘	-11.2981
不雨	-11.2986
尚不能	-11.2988
我等意	-11.2989
治之	-11.2991
此何因	-11.2993
信佛	-11.2995
其根	-11.2995
正心	-11.2996
其邊	-11.2996
諸優婆塞	-11.2999
是偈已	-11.3
永斷	-11.3001
六通	-11.3005
皆能	-11.3014
此瞿曇	-11.3014
未成	-11.3016
其有比丘	-11.3017
具行	-11.3017
入初禪	-11.3019
種種果	-11.3019
害念	-11.302
如何	-11.302
水災	-11.3023
從如來聞	-11.3026
馬兵	-11.3026
著鐵	-11.3029
今來	-11.3032
高大	-11.3034
石上	-11.3038
鉗	-11.3038
是無常法	-11.3039
立正念	-11.3039
當來世	-11.3042
即往至	-11.3047
當來有	-11.3049
能具	-11.305
大法	-11.3051
山頂	-11.3053
阿波	-11.3053
漏盡比丘	-11.3057
不移	-11.3059
不樂彼	-11.3065
亦不應	-11.3065
斷截	-11.3069
不可稱	-11.3069
汝等可	-11.3072
娶	-11.3073
而問之	-11.308
手長者有	-11.3082
解脫成就	-11.3084
修梵行者	-11.3085
汝勿	-11.3087
視之	-11.3089
云何三	-11.3092
有事因此事	-11.3092
便告	-11.3092
王法	-11.3095
佛足	-11.3096
淨者	-11.3096
實如	-11.31
應真	-11.3106
我為汝說	-11.3107
無老	-11.3107
佛塔	-11.3109
修戒	-11.3109
何等為六	-11.3112
在人間	-11.3115
眾人所	-11.3115
何因緣故	-11.3119
受胎	-11.3121
著身	-11.3121
集聚	-11.3125
若眼	-11.3128
不憎惡	-11.3129
無疑難	-11.3131
舍衛城中	-11.3133
有因	-11.3135
義饒益	-11.3136
王童子	-11.3136
勝人	-11.3142
轉壞	-11.3143
今佛	-11.3144
歸命佛	-11.3145
雲集	-11.3146
正治	-11.3147
無有智慧	-11.3156
此四法	-11.3158
所不能	-11.3164
作轉輪聖王	-11.3165
七十	-11.3169
大叫喚	-11.3182
生是念	-11.3185
當勤	-11.3185
得真實	-11.3185
國內	-11.3187
不觸	-11.3187
向法次法	-11.319
修治	-11.3192
是間	-11.3192
無喜	-11.3196
即語	-11.3199
令淨	-11.3206
能生	-11.3218
婆陀	-11.3218
掌	-11.322
照明	-11.3221
百阿羅漢	-11.3221
世尊復告	-11.3223
即於彼	-11.3226
塗身	-11.3226
鐵城	-11.3231
於前	-11.3233
有他世	-11.3234
昧	-11.3235
繒	-11.3237
廣長各	-11.3239
丸	-11.3241
秦言	-11.3242
額	-11.3243
其山	-11.3245
佐	-11.3246
廣解其義	-11.3246
參	-11.3247
逕	-11.3247
𠻬帝比丘	-11.3249
姉妹	-11.3249
柔濡	-11.3249
摩竭陀	-11.325
無明滅則行滅	-11.325
千倍	-11.3251
在拘薩羅人間	-11.3251
兜	-11.3252
已生者重生令增廣	-11.3252
里巷	-11.3252
錦	-11.3252
融消	-11.3253
獨靜思惟	-11.3253
惹	-11.3254
穀米	-11.3254
右脇	-11.3254
群黨	-11.3255
帶	-11.3255
江河	-11.3255
寄	-11.3255
鈍	-11.3255
二足尊	-11.3256
有一行欲人	-11.3256
枉	-11.3256
隥	-11.3256
非有非無後死	-11.3256
鵄鵂	-11.3257
夏安居	-11.3257
諸天天道	-11.3257
憎愛	-11.3258
莊飾	-11.3259
禮佛而退	-11.3259
恬	-11.3259
如來終不終	-11.3259
重閣	-11.3259
形色轉好	-11.326
幽	-11.326
後秦弘始年佛陀耶舍共竺佛念譯	-11.326
獲大利	-11.326
澁	-11.326
三摩地	-11.3261
行住坐臥	-11.3261
南西北方	-11.3261
先苦而後樂	-11.3261
千輻	-11.3262
魔身天	-11.3262
各共	-11.3262
焚燒	-11.3262
妨	-11.3262
癡薄	-11.3263
彼業	-11.3263
有限	-11.3263
廣長舌	-11.3263
吼	-11.3264
遶佛三匝	-11.3264
入法	-11.3264
若婆羅門	-11.3264
謂女人不	-11.3264
絞	-11.3265
賈客	-11.3265
復有說言	-11.3265
驅馳	-11.3266
破裂	-11.3266
女人奉持	-11.3266
受患	-11.3267
自娛	-11.3267
填	-11.3267
經第六竟	-11.3268
迸	-11.3268
懺	-11.3268
未生善法	-11.3268
溉灌	-11.3268
小腸	-11.3268
而令或一若男若女	-11.3269
梵行清白	-11.3269
釋氏摩訶男	-11.327
經第一竟	-11.327
諸小阿修羅王	-11.327
黑闇	-11.3271
尊者三彌提	-11.3271
技	-11.3271
印可	-11.3271
三結已盡	-11.3271
由己自在	-11.3271
入第三禪	-11.3272
具白世尊	-11.3272
四增上心	-11.3272
六千梵志	-11.3272
制外怨敵	-11.3273
終亡	-11.3273
無如此事	-11.3274
觀此義已	-11.3274
和悅	-11.3274
不知恩	-11.3274
一梵行而遊人間	-11.3274
於一面立	-11.3274
復有二法	-11.3274
鬚	-11.3275
俱致年	-11.3277
悉皆大明	-11.3277
毘沙	-11.3277
人之所	-11.3278
八萬四千由旬	-11.3278
生聞婆羅門	-11.3279
尊者難提	-11.3279
財富	-11.328
須彌留山王	-11.3281
不壞信	-11.3282
著糞掃衣	-11.3283
眼色	-11.3283
城廓	-11.3284
微妙第一	-11.3284
身身念	-11.3287
生不可	-11.3287
尊者跋陀和利	-11.3288
便懷恐怖	-11.3289
甚為難得	-11.3289
佛在王舍城	-11.3289
若梵	-11.3289
王莫恐	-11.3291
㮈林	-11.3291
有一類	-11.3292
自歸命	-11.3293
䏶	-11.3293
未來無常	-11.3293
唯然世尊	-11.3293
永離	-11.3293
二生	-11.3295
辦具	-11.3296
滅度後	-11.3297
復從他	-11.3298
相累	-11.3298
高座	-11.3299
若有人來	-11.3301
於此世	-11.3303
無想天	-11.3303
入大海	-11.3304
緣日光	-11.3304
不能捨離	-11.3305
昨	-11.3305
彼眾生等	-11.3306
教訶	-11.3308
成就七寶	-11.3308
持去	-11.3309
稱善	-11.3309
却後	-11.3309
諸上座比丘	-11.3311
願未來	-11.3312
臥起	-11.3313
受佛教已	-11.3313
斯言	-11.3315
修安那般那念	-11.3315
守門人	-11.3315
竟日	-11.3315
覆護	-11.332
於四念處	-11.332
白骨	-11.3321
成無上	-11.3322
在於此	-11.3325
𧗪家	-11.3326
明相	-11.333
猶人	-11.3333
於此眾中	-11.3335
於四聖諦	-11.3338
為命異身異	-11.3339
無上正真	-11.334
默然而	-11.334
諸水	-11.3341
然火	-11.3341
愛生已	-11.3343
不離於	-11.3344
修禪	-11.3345
阿須倫眾	-11.3345
燒燃	-11.3345
近在	-11.335
意亦如是說	-11.3355
為從是	-11.3357
比丘答言	-11.3357
盡形壽不殺	-11.3358
於五欲	-11.336
以熱鐵	-11.3361
其聲	-11.3362
知如真者	-11.3362
行求	-11.3362
誰有	-11.3363
有此二法	-11.3364
五欲自娛	-11.3367
入舍衛城	-11.3371
如實知故	-11.3373
二月	-11.3373
前說	-11.3374
汝速	-11.3375
彼林	-11.338
其根本	-11.3381
正念正知	-11.3384
恒有	-11.3385
為諸比丘說法	-11.3388
四月	-11.3388
汝今當知	-11.3391
所趣向	-11.3392
在家者	-11.3393
有山名	-11.3395
執杖	-11.3397
持法	-11.3404
最好	-11.3409
不由他	-11.341
如是姓	-11.3412
得第四禪成就遊	-11.3413
受其教	-11.3413
斯由	-11.3413
諸漏盡	-11.3417
餓鬼中	-11.3417
六念	-11.3422
如是廣布	-11.3422
即尋	-11.3426
王復告	-11.3428
開意	-11.3435
而受	-11.3438
直見	-11.3439
正趣	-11.344
比丘必	-11.3442
是其	-11.3443
有是處	-11.3444
我說此	-11.3445
何故不	-11.3449
趣覺	-11.3449
學力	-11.3453
汝等見	-11.3454
耳識	-11.3459
失念	-11.3462
南北	-11.3464
我應	-11.3464
而走	-11.3466
無死	-11.3467
又其	-11.3468
卷第四	-11.347
他化自在	-11.3471
婆羅門白佛	-11.3471
有一婆羅門	-11.3475
當犯	-11.3476
能轉	-11.3478
與善知識	-11.3481
覺分	-11.3482
知味	-11.3484
為內	-11.3484
汝今自	-11.3485
於五受陰	-11.3486
先所	-11.3489
無雜	-11.3491
梵童子	-11.3495
教他	-11.3495
當還	-11.3497
亦有二	-11.35
當與我	-11.35
無實	-11.3503
見諦	-11.3508
彼受此	-11.3509
不斷絕	-11.3511
不報	-11.3511
而便	-11.3515
!』」	-11.3516
有一梵志	-11.3516
學問	-11.3519
亦有此	-11.352
唯有一	-11.352
其果	-11.3525
生厭離	-11.3532
各各自	-11.3532
▁9	-11.3532
汝去	-11.3536
去後	-11.3536
三經	-11.3536
終不能得	-11.3541
七識住	-11.3545
離喜	-11.3545
從是本	-11.3545
捨欲	-11.3551
觀覺	-11.3552
諸義	-11.3552
勅左右	-11.3554
有穢	-11.3554
於天上	-11.3563
世間轉	-11.3566
眾中有	-11.3567
或自	-11.3568
三佛	-11.3569
安隱涅槃	-11.3569
若學	-11.357
調順	-11.3572
更復	-11.3575
佛出世	-11.3575
七佛	-11.3585
今沙門瞿曇	-11.3589
多者	-11.3592
相聚	-11.3596
形相	-11.3606
婆羅門女	-11.362
彼地獄中諸眾生	-11.362
▁8	-11.3624
以兩手	-11.3631
有五事	-11.3631
諸群臣	-11.3632
唯願世尊聽	-11.3635
作何等	-11.3637
無施	-11.3638
佛說經	-11.3639
長者白佛	-11.3644
原本	-11.3647
婆羅門等	-11.3649
如是聖弟子	-11.3655
等者	-11.3661
於東方	-11.3661
少分	-11.3661
除其	-11.367
無有愛	-11.367
得三明	-11.3673
恭	-11.3675
不知不見	-11.3676
此衣	-11.3679
無與等	-11.3679
從口	-11.3679
問訊佛	-11.3685
貝	-11.3693
美味	-11.3694
儀容	-11.3695
仗	-11.3699
納	-11.37
無有常	-11.3701
便盡	-11.3701
起塔	-11.3704
駛	-11.3705
響	-11.3709
若求	-11.371
少多	-11.3711
我等今者	-11.3712
不成男	-11.3714
欲害	-11.3715
銜	-11.3717
受味	-11.3718
策	-11.3718
獲於	-11.3718
育	-11.3719
髀	-11.372
陂	-11.3722
齎	-11.3722
吏	-11.3722
墻	-11.3723
得證	-11.3723
阿濕波誓	-11.3724
矛	-11.3724
幼	-11.3725
恥	-11.3725
滅止	-11.3726
悉是	-11.3726
有後世	-11.3726
麻油	-11.3728
證得	-11.3728
辟	-11.3728
般遮翼	-11.3728
紹王位	-11.3728
三事和合觸	-11.3729
鼓聲	-11.373
輪有千輻	-11.373
斤	-11.373
壍	-11.373
井	-11.373
如實顯現	-11.373
諸根寂定	-11.3731
毗舍	-11.3731
盛壯	-11.3732
澄	-11.3732
今悉	-11.3732
欝鞞羅	-11.3733
九眾生居	-11.3733
七日之中	-11.3733
骸骨	-11.3734
斗	-11.3734
來迦毘羅林	-11.3734
紹	-11.3734
搥	-11.3735
法次法向	-11.3735
晉	-11.3735
波吒羅	-11.3735
婆梨	-11.3736
富樓那	-11.3736
無有人	-11.3737
▁26(1	-11.3737
靈	-11.3737
捶杖	-11.3737
見是事已	-11.3738
放大光明	-11.3738
溢	-11.3738
娑多耆利	-11.3739
究牟陀	-11.3739
豪族	-11.3739
暉	-11.3739
涅盤	-11.3739
八千里	-11.3739
沙門瞿曇宗本	-11.374
得不動心	-11.374
圓寂	-11.374
縱廣正等	-11.3741
離於喜欲	-11.3741
命亦未終	-11.3741
耆年	-11.3741
得初禪成就遊	-11.3741
其體	-11.3742
盡於苦際	-11.3742
質多	-11.3742
勸請	-11.3742
入道	-11.3743
悋	-11.3743
隨此眾生之所作業	-11.3743
鼻嗅香	-11.3743
瞑	-11.3743
浚輸	-11.3743
前後導從	-11.3744
羂	-11.3744
一時佛在舍衛國祇樹給孤獨園	-11.3744
語尊者阿難	-11.3744
煩熱苦報	-11.3744
百千兩金	-11.3744
博戲	-11.3745
見其如真	-11.3745
吠	-11.3745
有因有緣	-11.3745
塜間	-11.3746
倦	-11.3747
捐棄	-11.3747
野象	-11.3747
往來善處	-11.3747
正智正繫念	-11.3748
起想著	-11.3748
脈	-11.3748
均頭沙彌	-11.3748
如法法王成就七寶	-11.3749
宗族	-11.3749
睹	-11.3749
愚癡凡夫	-11.3749
及父母	-11.375
慎勿	-11.375
沈沒	-11.375
天中天	-11.3751
?』」「	-11.3751
無處不遍	-11.3752
薪草	-11.3752
尼乾陀	-11.3752
正向涅槃	-11.3752
火出	-11.3753
有何差別	-11.3753
復有七法	-11.3753
波羅提木叉	-11.3753
能堪忍	-11.3753
不達	-11.3753
受夏坐	-11.3754
欝低迦	-11.3754
上至	-11.3754
乃至正見	-11.3754
擇法覺分	-11.3754
優頭槃	-11.3755
常住不變	-11.3755
拘樓孫如來	-11.3755
過三月已	-11.3756
流轉生死	-11.3756
唯願如來	-11.3757
生斯念	-11.3757
聖戒	-11.3758
惡比丘	-11.3758
有百	-11.3759
空寂	-11.3759
林木	-11.3759
自娛樂	-11.376
空閑處	-11.376
如師子	-11.376
睡眠蓋	-11.376
根莖	-11.376
他化樂天	-11.376
利益安樂	-11.376
行止	-11.3762
有身集	-11.3763
普遍充滿	-11.3763
舉手	-11.3764
不安隱	-11.3765
國中人民	-11.3765
那羅陀	-11.3765
而問此義	-11.3766
著好衣	-11.3766
斯須	-11.3767
不憙	-11.3768
白蓮華	-11.377
然後乃出	-11.377
受世尊教	-11.3771
安居	-11.3772
應如是答	-11.3773
生愁慼	-11.3773
恒沙	-11.3774
十二月	-11.3774
梵天子	-11.3775
形容	-11.3777
在外	-11.3779
凡諸有為甚	-11.3779
此是真實	-11.3779
唯願大王	-11.378
己利	-11.3781
未曾有之法	-11.3783
雪山王	-11.3784
以指	-11.3785
四不壞淨	-11.3786
惱害	-11.3787
雜華	-11.3791
汝今諦聽	-11.3793
自制	-11.3793
而說此偈	-11.3794
十九字	-11.3796
饒益他	-11.3798
行無放逸	-11.3798
亦不可	-11.3799
離貪欲	-11.38
眾會	-11.3802
尚能	-11.3804
而答	-11.3806
釜中	-11.3807
所取	-11.3808
無量諸	-11.3812
若依	-11.3812
得心解脫	-11.3814
善見王	-11.3815
乃至七	-11.3816
入海	-11.3817
命終之後生	-11.3819
磨滅法	-11.3821
於現世	-11.3823
異道人	-11.3824
汝說	-11.3825
以供	-11.3827
汝等莫	-11.3831
共往詣	-11.3832
知苦滅	-11.3833
未離欲	-11.3834
非真	-11.3836
衣長	-11.3837
長者遙見	-11.3838
生怖畏	-11.3839
惡性	-11.3839
告苾芻	-11.384
周迴	-11.384
生活	-11.3842
國政	-11.3844
一萬	-11.3844
他方	-11.3849
諸國王	-11.385
經第五	-11.3851
有諍	-11.3854
經第三	-11.3854
衣廣	-11.3855
足足	-11.3855
汝等頗	-11.3856
在一	-11.3857
從一	-11.3859
五人	-11.386
現在色	-11.3861
弓箭	-11.3864
面色	-11.3864
所住處	-11.3865
即召	-11.3867
十六字	-11.3867
趣智	-11.3867
正見成就	-11.3868
念僧	-11.3868
是名第二	-11.3868
不樂著	-11.3869
來至世尊所	-11.3873
最後身	-11.3874
上生	-11.3877
今夜	-11.3879
生眼識	-11.388
尊者阿難所說	-11.3881
世尊說此	-11.3881
瑪瑙等七寶所成	-11.3882
師云	-11.3887
師法	-11.3888
持水	-11.3888
自殺	-11.389
如是行者	-11.3894
離妄言	-11.3895
若識	-11.3898
求財	-11.3901
非有非無	-11.3904
我當云何	-11.3904
聖慧	-11.3905
觀看	-11.3906
非法行	-11.3907
後必	-11.3908
亦作是念	-11.3913
問此義	-11.3916
天壽	-11.3919
大眾中	-11.3925
閻浮利天下人	-11.3926
一切知	-11.3932
受此苦	-11.3932
持淨戒	-11.3933
人所敬	-11.3934
從坐而	-11.3934
未曾聞	-11.3938
籌量	-11.394
瓦	-11.3947
於後世	-11.3949
不能復	-11.3949
聞此已	-11.395
能捨	-11.3952
自能	-11.3959
坐定	-11.3963
神識	-11.3963
不勤	-11.3963
奉法	-11.397
彼地獄中	-11.3971
受法現樂	-11.3971
爾乃	-11.3973
來集	-11.3973
卷第二	-11.3974
不綺語	-11.3976
脂粉	-11.3979
有天神	-11.3982
火光	-11.3984
各相	-11.3986
卷第三	-11.3991
眾香	-11.3997
金棺	-11.4004
南行	-11.4007
汝亦如是	-11.4007
四事供養	-11.4015
可觀	-11.4016
結恨	-11.4016
上首	-11.4017
性行	-11.4017
佛舍利	-11.4019
身熱	-11.4022
病法	-11.4026
從後	-11.4029
善哉善哉	-11.403
若復比丘	-11.4031
不復見	-11.4033
慢者	-11.4034
異比丘	-11.4036
器盛	-11.4037
修善法	-11.4038
道眼	-11.4039
復有聲聞於	-11.404
智生	-11.404
佛經戒	-11.4043
兩岸	-11.4045
象王	-11.4047
無目	-11.4049
殺生者	-11.405
有三事勝	-11.4051
欺餘	-11.4052
愁憂苦惱	-11.4052
首陀羅	-11.4054
不自知	-11.4055
鼻識	-11.406
火滅	-11.4063
大威德	-11.4063
沙門不得	-11.4065
活命	-11.4067
在樹下	-11.4074
其夜	-11.4076
如是名為	-11.4078
趣涅槃	-11.4079
身所作	-11.4085
如癰	-11.4088
毘沙門王	-11.4088
我等今	-11.409
如是等法	-11.4091
護己	-11.4094
聞尊者	-11.4095
彼族姓子	-11.41
或有是時	-11.4101
自活	-11.4104
貪取	-11.4107
長老上尊比丘	-11.4108
不下	-11.4108
但說	-11.4109
亦不樂	-11.411
是故言	-11.4111
墮三惡趣	-11.4113
恒常	-11.4116
念施	-11.4123
房中	-11.4126
彌薩羅	-11.4129
國土人民	-11.4132
六事	-11.4138
不久住	-11.4139
現在苦	-11.4139
惡邪見	-11.414
鸚鵡摩納	-11.414
百由延	-11.4141
菩提樹	-11.4147
不復還	-11.4149
界異	-11.415
千人	-11.4153
王太子	-11.4158
目連報	-11.4161
無事處山林樹下	-11.4161
四種軍	-11.4163
何等為二	-11.4163
當般泥洹	-11.4165
隨後	-11.4167
遂至	-11.4167
以此偈	-11.4167
而退	-11.4168
護之	-11.4169
默自	-11.4173
譬如人	-11.4174
車聲	-11.4177
竟不	-11.4182
法門	-11.4182
不傷	-11.4184
不遠有	-11.4184
義利	-11.4184
為對	-11.4185
腐	-11.419
尊者薄拘羅	-11.4193
冠	-11.4202
即受教	-11.4202
下方	-11.4204
淨滅枝	-11.4204
富蘭那	-11.4204
尊者烏陀夷	-11.4205
四部	-11.4206
不進	-11.4208
是真諦	-11.4208
佛所說法	-11.421
𤦲	-11.4212
莫令餘比丘	-11.4214
眴	-11.4215
罪業	-11.4216
摩得梨	-11.4217
峯	-11.4217
盛陰	-11.4218
校	-11.4218
過惡	-11.4222
獲者獲	-11.4222
貢	-11.4223
勑	-11.4225
藝	-11.4225
信戒	-11.4225
眾生類	-11.4225
章	-11.4226
測	-11.4226
如大地土	-11.4226
刑	-11.4227
梵主天	-11.4227
胡麻	-11.4227
生惡處地獄中	-11.4227
須摩提	-11.4227
讓	-11.4228
知捨如真	-11.4228
閡	-11.4228
充實	-11.4229
工巧	-11.4229
欝單越洲	-11.4229
閻浮里地	-11.4229
不必	-11.423
剃	-11.423
布薩	-11.4231
共相慰勞	-11.4231
腰	-11.4231
障閡	-11.4231
攀	-11.4231
姿	-11.4231
無明所	-11.4231
牢獄	-11.4232
憒閙	-11.4232
摩竭陀大臣雨勢	-11.4232
眾生生受	-11.4232
頭面著佛足	-11.4232
如是純大苦聚集	-11.4232
三摩提	-11.4232
起世因本經	-11.4232
峻	-11.4232
彌羅摩	-11.4232
藏臣	-11.4232
我非彼有	-11.4233
山上	-11.4233
無所有入處	-11.4234
復有叢林名	-11.4234
自方便斷燕坐	-11.4234
現法自知作證具足住	-11.4235
未聞	-11.4235
從空下	-11.4235
如來亦非終亦非不終	-11.4235
優填王	-11.4235
徧	-11.4236
攻伐	-11.4236
綵	-11.4236
親里	-11.4236
摶	-11.4236
鬪亂彼此	-11.4237
自知為	-11.4237
牛糞	-11.4237
荷	-11.4237
青黃赤白	-11.4238
禁制	-11.4238
庠序	-11.4238
監	-11.4238
陷	-11.4239
鞞留羅大將	-11.4239
􂌞	-11.4239
獨住遠離	-11.4239
兜婆	-11.4239
砌	-11.4239
拘耶尼	-11.4239
阿浮陀	-11.4239
尸利掘	-11.424
其中有	-11.424
生善處天中	-11.4241
得第三禪成就遊	-11.4241
式詰如來	-11.4241
多諸珍寶	-11.4241
𦼇	-11.4241
宮牆七重	-11.4242
護念清淨	-11.4242
0)	-11.4242
有九	-11.4242
欲別知	-11.4242
經第九竟	-11.4242
肌	-11.4243
相繼之法	-11.4243
住一林中	-11.4243
法次法說	-11.4243
校飾	-11.4244
是謂欲別知	-11.4244
齒落	-11.4244
縫	-11.4245
不蘭迦葉	-11.4245
天冠	-11.4245
。」』「	-11.4245
為慈愍故	-11.4246
野馬	-11.4246
為從何來	-11.4246
穌息	-11.4247
是生滅法	-11.4247
復有五法	-11.4248
叔	-11.4248
乾沓和	-11.4249
與世尊面相問訊慰勞	-11.4249
赴	-11.425
淫泆	-11.425
住已而觀	-11.425
毛孔	-11.4251
加陵伽波惒邏	-11.4251
二萬一千由旬	-11.4251
阿耨達多龍王	-11.4251
敗壞無餘	-11.4251
入長者舍	-11.4252
能伏他眾	-11.4252
乃至眾鳥	-11.4252
劫波	-11.4253
發欲求方	-11.4253
甘露門	-11.4253
邪盛大會	-11.4253
𤺙	-11.4253
莫恐	-11.4253
猗覺分	-11.4254
耆婆	-11.4254
婬行	-11.4254
遊行人間	-11.4254
或時行者	-11.4254
生可意不可意	-11.4254
因本	-11.4254
是故我說	-11.4255
受持跋地羅帝偈	-11.4256
形類	-11.4256
欲有所行但有	-11.4256
成其	-11.4256
云何欲別知	-11.4257
意疾止	-11.4257
治國	-11.4257
瞻波	-11.4257
惡不善業盡	-11.4257
象跡	-11.4258
拳扠	-11.4259
是謂欲斷	-11.426
增上戒學	-11.426
四千里	-11.4261
世尊默然受請	-11.4261
濕生	-11.4261
愚闇	-11.4263
是則名為	-11.4263
於佛所	-11.4264
婬亂	-11.4264
五欲悉虛	-11.4265
不可說	-11.4266
寶蓋	-11.4266
正智正念	-11.4267
聽我問	-11.4268
真實法	-11.4268
滿財	-11.4269
彼必得果	-11.4271
非梵志	-11.4272
毀壞	-11.4272
是名丈夫	-11.4272
汝曹	-11.4274
空無所有	-11.4274
誣謗世尊	-11.4275
意不忘	-11.4276
山谷	-11.4276
寒冷	-11.4277
欲不淨想	-11.4277
七不衰法	-11.4281
此樹	-11.4282
此五事	-11.4282
脫生	-11.4282
彼水聚	-11.4282
年老	-11.4282
王頂生	-11.4284
汝等當學	-11.4286
是為第四	-11.4286
云何欲斷	-11.4287
何以故名為	-11.4287
眼生	-11.4288
未見	-11.4289
教我	-11.4289
即於佛前	-11.4292
從是習	-11.4293
歸趣	-11.4294
而行乞食	-11.4294
復觀	-11.4295
不可以	-11.4295
隨法	-11.4299
至再三	-11.4303
自謂	-11.4304
正爾	-11.4307
倍復	-11.4307
堂閣	-11.4307
皆悉無常	-11.4307
有神足	-11.4313
財業	-11.4313
種種香熏	-11.4315
隨意所欲	-11.4315
相向	-11.4317
梵志族	-11.4319
斷彼法	-11.4319
擊之	-11.432
諸弟子等	-11.4322
執事	-11.4326
不得出	-11.4328
精進方便	-11.4329
不怖	-11.4329
怠	-11.4331
是為第二	-11.4331
出於世間	-11.4332
隱沒	-11.4333
調和	-11.4333
有漏心解脫	-11.4333
亂念	-11.4333
諸大臣	-11.4336
西天譯經三藏朝奉大夫試	-11.4338
怨親	-11.4339
無作	-11.434
安隱眠	-11.4345
愛憎	-11.4347
內身	-11.4347
生於天上	-11.4347
汝今當	-11.4348
好衣	-11.4348
。』?」	-11.4348
生可意	-11.435
本為人	-11.435
隨汝所	-11.4352
復有一種	-11.4357
以偈歎	-11.4364
有一天	-11.4365
其前	-11.4365
大堅固	-11.4367
持律	-11.4367
我等聞已	-11.4369
若斷	-11.437
為何所	-11.4374
肉血	-11.4377
甚難得	-11.4379
欲著	-11.4381
得免	-11.4384
即白	-11.4386
集諸	-11.4388
如是說已	-11.439
五欲樂	-11.4391
阿難當知	-11.4393
內外身	-11.4394
施人	-11.4396
眾共	-11.4399
華實	-11.4401
乘於	-11.4409
望得	-11.4413
五下分結盡	-11.4416
不惑	-11.4416
色離	-11.4418
如殺	-11.4419
善修梵行	-11.4425
應答	-11.4427
恭敬問訊	-11.4428
羅閱城中	-11.4429
其轉輪王	-11.4441
歡喜園	-11.4444
亦不從	-11.4448
有妙	-11.4448
恭敬禮事	-11.4449
何等名為	-11.4451
受教已	-11.4451
無放逸	-11.4453
轉成	-11.4454
有所犯	-11.446
其舍	-11.4461
界中	-11.4462
寶珠	-11.4463
云何比丘知	-11.4464
三惡趣	-11.4466
樂覺者	-11.4469
梵音	-11.4472
諸婇女	-11.4475
與諸大眾	-11.4475
有緣生	-11.4478
或坐	-11.448
五支	-11.4481
所有光明	-11.4482
長者當知	-11.4482
家業	-11.4483
云何有人	-11.4485
供養佛	-11.4487
隨生	-11.449
三歸	-11.4492
如是智慧	-11.4495
以他心智	-11.45
從剎利	-11.4501
現在樂	-11.4505
天上諸天	-11.4506
放逸行	-11.451
世間人民	-11.4514
惱觸	-11.4516
有此見	-11.452
白尊者阿難	-11.4521
至七日	-11.4524
念誦	-11.4525
此居士	-11.4528
取涅槃	-11.453
提婆	-11.4535
聞佛說	-11.4536
倍增	-11.4537
歎言	-11.454
廣分別	-11.4542
善本	-11.4543
可親	-11.4545
當思	-11.4551
即念	-11.4552
名者	-11.4553
何等是	-11.4555
所護	-11.4561
作種種	-11.4562
前立	-11.4564
後善	-11.4569
乃知	-11.457
於何處	-11.457
彼處已	-11.4571
推求	-11.4574
耶舍	-11.4575
始有	-11.4578
不如是說	-11.4582
便失	-11.4583
不合	-11.4585
能降伏	-11.4587
梵摩達	-11.4587
從初	-11.4589
五百童子	-11.4589
一類	-11.459
隱形	-11.459
阿闍世	-11.459
如來不久	-11.4593
受佛教	-11.4595
與我等	-11.4597
出外	-11.46
於此法中	-11.4606
何謂為	-11.4607
色出要	-11.4607
於大眾	-11.4609
轉復	-11.4609
聚落中	-11.4609
自造	-11.4611
於僧	-11.4614
大恐怖	-11.4618
有五種	-11.462
八部	-11.4621
在人中	-11.4625
苦際	-11.4625
有福	-11.4627
彼城中	-11.4628
意行惡	-11.4628
世間滅	-11.4634
不正念	-11.464
共集會	-11.4641
心識	-11.4645
善意	-11.4654
卷第五	-11.4663
極好	-11.4667
我前	-11.4668
七人	-11.4672
慧觀	-11.4679
所說偈	-11.4679
弟子眾	-11.4681
不污	-11.4682
擲著	-11.4684
婬女	-11.4685
僕使	-11.4688
世界邊	-11.4688
漂	-11.4692
何所求	-11.4694
自餘	-11.4695
於夜	-11.4696
得利養	-11.4696
我與世	-11.4703
棄於	-11.4703
生染著	-11.4704
若成就	-11.4717
滿其中	-11.4718
悲心	-11.4719
車馬	-11.4721
若干百	-11.4721
阿那邠邸	-11.4729
女人不得	-11.4731
宜當	-11.4731
行如是大施	-11.4732
般咃	-11.4732
給孤獨	-11.4734
塔廟	-11.4737
大利	-11.4737
泥犁勤苦	-11.4739
得出家	-11.474
五千	-11.474
俱行	-11.4741
諸比丘見已	-11.4743
以是十業得	-11.4743
渠	-11.4745
阿吒吒	-11.4746
不破	-11.4747
屏	-11.4748
經無量時	-11.4749
金翅鳥王	-11.475
淺	-11.475
以鑽鑽	-11.475
懶惰	-11.4751
祕	-11.4751
凾	-11.4752
埀	-11.4753
草蓐	-11.4753
小便	-11.4753
當以五事	-11.4754
朱	-11.4754
舞	-11.4754
口言善	-11.4755
梵梵所化	-11.4756
舍中	-11.4757
庫藏	-11.4757
突	-11.4757
姝好	-11.4757
其諸獄卒	-11.4757
獻	-11.4758
奔茶梨迦	-11.4758
大福	-11.4758
筋骨	-11.4758
多薩阿竭	-11.4758
冤	-11.4759
濕生龍	-11.4759
團	-11.4759
宴坐思惟	-11.4759
堅牢	-11.4759
毘舍佉	-11.4759
刻	-11.476
踈	-11.476
筆	-11.476
羹	-11.476
遵	-11.476
舉足	-11.4761
悴	-11.4761
四萬里	-11.4761
盲子	-11.4762
摩伽陀國	-11.4762
寫	-11.4762
瞎	-11.4763
魂神	-11.4763
婬泆	-11.4764
得第二禪成就遊	-11.4764
所得果報	-11.4764
婆伽婆在舍衛城祇樹給孤獨園	-11.4764
惡伴黨	-11.4764
今為所在	-11.4764
墨	-11.4764
片	-11.4765
一切皆是	-11.4765
端正姝好	-11.4765
調悔	-11.4765
菩提樹下	-11.4765
奉迎	-11.4765
受諸苦惱	-11.4765
善道	-11.4765
心修習	-11.4765
三繞彼城	-11.4766
岳	-11.4766
尊者勒叉那	-11.4766
不瞋恚	-11.4766
醯魔波低	-11.4766
俱耶尼	-11.4767
從何所來	-11.4767
衣毛皆竪	-11.4767
鈍根	-11.4767
西晉	-11.4768
執扇扇佛	-11.4768
歡喜而樂	-11.4768
齊整	-11.4768
僮僕	-11.4769
是此尊者	-11.4769
哩	-11.4769
盡有漏成無漏	-11.4769
澡罐	-11.4769
七匝	-11.4769
毾𣰆	-11.477
鬪亂	-11.477
腸胃	-11.477
調貢高	-11.477
妙與不妙	-11.4771
入室燕坐	-11.4771
經第八竟	-11.4771
亦有中夭者	-11.4771
諸佛世尊常所說法	-11.4771
從頭至足	-11.4771
滅有對想	-11.4772
胞胎	-11.4772
彼於受	-11.4772
拄杖	-11.4773
不色無有量	-11.4773
都邑	-11.4773
亡失	-11.4773
受想行識	-11.4773
繞三匝	-11.4773
合為一	-11.4774
非形體具足	-11.4774
至舍衛國祇樹給孤獨園	-11.4774
妓樂	-11.4774
未得欲得	-11.4775
粗	-11.4775
守護諸根	-11.4776
所牽	-11.4776
如王邊城	-11.4776
山澤	-11.4777
種種眾鳥	-11.4777
神寺	-11.4779
其身上	-11.4779
脅	-11.478
無所乏	-11.478
迦梨	-11.4782
隨順燕坐	-11.4782
萬毒並至	-11.4782
俱薩羅國	-11.4783
則解其義	-11.4783
算數	-11.4783
華氏	-11.4784
獲福無量	-11.4785
生漏梵志	-11.4785
諸天得勝	-11.4785
遠近	-11.4785
卑下	-11.4785
鉢器	-11.4789
晝度樹	-11.4789
告群臣	-11.479
求願	-11.479
謂苦聖諦	-11.4793
愛惜	-11.4793
白衣聖弟子	-11.4795
一義	-11.4796
轉移	-11.4797
宣令	-11.4797
佛告央掘魔羅	-11.4797
為無有本	-11.4799
難國王	-11.48
焰摩迦比丘	-11.4801
令得安隱	-11.4803
禮事於彼	-11.4803
皆生天上	-11.4804
大正殿	-11.4805
知領群特	-11.4807
廣普	-11.4807
又且	-11.4808
不得久存	-11.4808
於過去	-11.4809
?』『	-11.4809
佛告摩納	-11.4811
黑業	-11.4811
財主	-11.4812
從口出	-11.4812
兩頭	-11.4816
諸天及人	-11.4816
犢子梵志	-11.4819
正理	-11.4819
家屬	-11.482
不曾	-11.4825
當遠離	-11.483
有比丘名	-11.4836
曇摩	-11.4837
增益諸天	-11.4838
不畜	-11.484
不復生死	-11.4843
七竟	-11.4844
犯禁戒	-11.4844
不惡口	-11.4846
此是汝師	-11.4846
王子孫相承	-11.4846
謂十	-11.4852
雙樹	-11.4852
放逸故	-11.4853
一邊	-11.4859
非神	-11.4862
八千象	-11.4862
即於彼處	-11.4863
百千萬	-11.4865
得盡諸漏	-11.4868
第四沙門	-11.4868
諸法之本	-11.4868
若法	-11.4869
白淨法	-11.4874
多事	-11.4878
無量種	-11.488
令知	-11.488
血流	-11.4882
自觀身	-11.4883
退沒	-11.4885
當解	-11.4887
願聞	-11.4888
緣生法	-11.489
隨身	-11.4893
自陳	-11.4894
則知我	-11.4894
金師	-11.4894
記念	-11.4895
諸梵行人	-11.4895
防護	-11.4896
諸比丘白世尊	-11.4901
此必	-11.4904
號曰	-11.4904
歸依法	-11.4905
念惡	-11.4906
斷五蓋	-11.4907
善法增長	-11.491
將無	-11.491
生眼	-11.491
眾多比丘聞	-11.4913
當為說	-11.4915
受他	-11.4917
於空中	-11.4919
殺人	-11.4924
彼頂生王	-11.4925
若見沙門	-11.4925
如來常	-11.4926
界俱	-11.4928
斷貪欲	-11.493
諸苾芻眾	-11.493
唯一	-11.4931
如是數	-11.4935
兜羅	-11.4935
離殺生	-11.4936
與眾多比丘	-11.4938
鬚髮	-11.4942
著水中	-11.4946
佛如是說	-11.4948
或臥	-11.4948
即捨	-11.4949
無是處	-11.4951
愛緣	-11.4951
當詣	-11.4951
并餘	-11.4951
守門	-11.496
獲此	-11.496
知我心	-11.4967
覺觸	-11.4972
諸業	-11.4973
恒以	-11.4973
難知	-11.4976
用是	-11.4981
觀眾生類	-11.4984
飲食施	-11.4985
無增減	-11.4986
世尊便說斯	-11.4987
無咎	-11.4995
財施	-11.4996
四遠	-11.4998
八見中	-11.5001
患苦	-11.5003
燒脣	-11.5005
以此句	-11.5008
歸家	-11.5013
多聞聖弟子若	-11.5018
受五戒	-11.5018
入于	-11.5018
如鳥	-11.5024
門戶	-11.5027
斷見	-11.5031
群牛	-11.5034
無牢	-11.5039
所染	-11.504
見如真	-11.504
奉事剎利	-11.5044
作此言	-11.5045
求福	-11.5046
無數劫	-11.505
受王教	-11.5052
長者報	-11.5052
我今已得	-11.5052
人非人身	-11.5055
得度世	-11.5061
所熏	-11.5062
啟白	-11.5063
復有沙門	-11.5064
信法	-11.5069
以七寶作	-11.507
有愧	-11.5071
福祐	-11.5072
天金	-11.5072
來此間	-11.5073
疑結	-11.5073
即告之	-11.5074
言辭	-11.5075
斷絕離	-11.5076
意行善	-11.5077
世尊知已	-11.5083
世間常	-11.5084
命清淨	-11.5086
此正法	-11.509
善巧	-11.5091
經過	-11.5092
截耳	-11.5101
若他	-11.5101
已壞	-11.5103
則不能	-11.5104
三十三	-11.5105
不廢	-11.5106
共戰	-11.5107
無量心	-11.5108
一事	-11.5109
世尊與諸大眾	-11.511
我種	-11.5112
為主	-11.5119
無形	-11.5121
諸有眾生	-11.5121
自用	-11.5122
皆出	-11.5127
諸夜叉	-11.5132
不信者	-11.5134
花鬘	-11.5135
復以偈答	-11.5135
退還	-11.5136
聲聞眾	-11.5139
此國	-11.514
純白	-11.5141
不邪婬	-11.5141
向惡趣	-11.5142
心所念	-11.5144
若臥	-11.5149
此石	-11.5149
當作是念	-11.5154
亦餘	-11.5158
如車輪	-11.5159
七寶者	-11.516
母難陀	-11.5162
北方天下	-11.5167
不覩	-11.5167
即滅	-11.5168
善好	-11.5178
正住	-11.5179
味著	-11.518
以偈頌	-11.518
斷心	-11.5184
發遣	-11.5185
梵志當知	-11.5187
不思	-11.5192
在何所	-11.5199
復走	-11.52
惡龍	-11.52
善丈夫	-11.5202
手自	-11.5205
池側	-11.5206
謂貪欲	-11.5209
問尊者阿難	-11.5213
此象	-11.5214
離塵	-11.5214
但念	-11.5219
多欲	-11.5223
實不可	-11.5226
諸重擔	-11.5226
當善受持	-11.5231
以斯	-11.5232
如無常	-11.5236
蓮	-11.524
叢	-11.5249
外道梵志	-11.5249
式	-11.5252
深入	-11.5252
無染	-11.5261
之患	-11.5268
莫起	-11.5271
眾味	-11.5281
阿難邠坻	-11.5282
毗婆尸	-11.5283
大精進	-11.5284
亦異	-11.5287
若彼比丘	-11.5287
併取	-11.5291
溪㵎	-11.5293
閻	-11.5295
幸	-11.5295
覓	-11.5295
瑕穢	-11.5295
男女大小	-11.5296
希望	-11.5297
枝葉華實	-11.5298
按	-11.5299
於七日中	-11.5299
經道	-11.53
四輩弟子	-11.53
善觀察	-11.53
街	-11.53
黎	-11.5303
來生此間	-11.5303
枚	-11.5303
乖	-11.5303
分散破壞	-11.5305
阿僧祇劫	-11.5305
基	-11.5305
泣	-11.5305
往取	-11.5306
內寂其心	-11.5306
寢	-11.5307
烏鳥	-11.5307
須臾之間	-11.5309
丹	-11.5309
隸	-11.5309
亦復不能	-11.531
拘牟陀	-11.531
齋日	-11.531
子曹	-11.531
一正見人	-11.5311
茂	-11.5311
富蘭那迦葉	-11.5311
紺青色	-11.5312
光顏	-11.5312
鑿	-11.5312
猛盛	-11.5312
融銅	-11.5312
知上如真	-11.5313
曇摩留支	-11.5313
莫知所	-11.5313
耕種	-11.5313
四寸	-11.5314
色白如	-11.5314
慘	-11.5314
從後說絕	-11.5314
不如有人以	-11.5314
長生童子	-11.5314
佛住摩拘羅山	-11.5314
如截多羅樹頭	-11.5314
頭面禮世尊足	-11.5314
語亦善	-11.5315
無愁憂慼	-11.5315
七重交露	-11.5315
篋	-11.5315
竝	-11.5315
無病無上安隱涅槃	-11.5315
餘則虛妄	-11.5315
第四分別誦	-11.5316
此法有諍	-11.5316
央掘魔羅以偈答	-11.5316
虧	-11.5316
摩多離	-11.5316
無慚無愧	-11.5316
蜂	-11.5316
意思食	-11.5316
陶	-11.5316
與如來等	-11.5317
必受苦果地獄之報	-11.5317
僂	-11.5317
差降	-11.5317
葦	-11.5318
茂盛	-11.5318
歡娛	-11.5319
糧	-11.5319
閻王	-11.5319
五結樂子	-11.5319
十二部經	-11.5319
將五百比丘	-11.5319
象兵	-11.5319
嫌責	-11.5319
非沙門稱沙門	-11.5319
卷第一	-11.532
並作是	-11.532
栴檀香	-11.532
善男子捷疾具足	-11.532
燒香	-11.532
火種居士	-11.532
亦復不知	-11.532
神止處	-11.5321
善惡業報	-11.5321
斯有是處	-11.5321
為人說法	-11.5321
啼哭號呼	-11.5321
選擇	-11.5321
繼	-11.5321
色為常	-11.5322
不為他人之所輕毀	-11.5322
得阿耨多羅三藐三菩提	-11.5322
一切世間不可樂想	-11.5322
楚	-11.5322
日初出	-11.5322
單	-11.5322
鞞陀提	-11.5322
高廣大床	-11.5322
綜	-11.5322
淨意	-11.5322
苑中	-11.5322
劒	-11.5322
▁11	-11.5323
結相隨	-11.5323
亦知從是沒	-11.5323
後受苦報	-11.5323
亦知是更苦	-11.5324
㮈女	-11.5324
亦知是所樂	-11.5324
必受苦果現法之報	-11.5324
禮佛而去	-11.5324
或一若男若女	-11.5324
無上福田	-11.5324
阿須輪	-11.5324
後受樂報	-11.5324
則知上如真	-11.5324
床敷臥具	-11.5325
萎	-11.5325
放牛人	-11.5325
准	-11.5325
普熏	-11.5325
剎那	-11.5326
修增上慈	-11.5326
無行般涅槃	-11.5326
增一阿含	-11.5326
慧者聞喻	-11.5326
滿富城中	-11.5326
膿血流出	-11.5327
中後彷徉	-11.5327
乘虛而行	-11.5327
▁12	-11.5327
在其中甚	-11.5328
入他家	-11.5328
是佛弟子名	-11.5328
長者給孤獨	-11.5328
悅豫	-11.5328
軛	-11.5329
斷此諍	-11.5329
第	-11.533
為他人說	-11.533
義味具足	-11.533
見此比丘	-11.533
不可稱量	-11.5331
此為何義	-11.5331
所以族姓子	-11.5332
以氍氀	-11.5332
蹹	-11.5333
專念不忘	-11.5333
悲鳴	-11.5334
刀分	-11.5335
舍羅步	-11.5335
念如來事	-11.5335
釋摩男	-11.5335
遮迦越羅王	-11.5336
畫師	-11.5336
經營	-11.5336
輸迦長者	-11.5336
慳垢	-11.5336
心中不生	-11.5337
阿闍梨	-11.5337
心靖得喜	-11.5337
我作剎利頂生王	-11.5337
尊者婆耆奢	-11.5338
觀興衰法	-11.5339
若行者向念	-11.5339
佛告玉耶	-11.5339
於佛不壞淨成就	-11.534
普遍	-11.534
阿鼻地獄中	-11.534
憂慼不樂	-11.5341
樓上	-11.5341
形體具足	-11.5341
鞞摩質多囉阿修囉王	-11.5341
不牢要	-11.5343
四阿含	-11.5344
踊躍無量	-11.5344
及眷屬	-11.5345
婆耆舍	-11.5346
得具足戒	-11.5348
在閑靜處	-11.5348
驅出	-11.5348
最為上	-11.5348
當生何處	-11.5349
從世尊聞	-11.5349
我自知	-11.535
第二第三	-11.535
緣生有老死	-11.5351
壽千歲	-11.5351
一一門	-11.5351
受其報	-11.5352
不捨方便	-11.5354
一意得定	-11.5354
阿那邠祁長者	-11.5355
苦滅道跡聖諦如實知	-11.5355
而說法	-11.5355
非有願非無願行	-11.5356
精勤修習	-11.5356
覺受樂	-11.5357
寂默	-11.5357
有身滅	-11.5358
或有業能令眾生	-11.5358
象首	-11.5358
無有遺餘	-11.5359
莫與	-11.536
根熟	-11.536
風輪	-11.5361
用是因緣	-11.5363
身口意業	-11.5364
臭處	-11.5366
是故稽首禮	-11.5366
烟出	-11.5367
隨順法	-11.5368
承事供養	-11.5368
可聞法	-11.5369
無如是事	-11.5369
七百由旬	-11.537
罪人入	-11.5371
相視	-11.5371
平地	-11.5371
佛說此人	-11.5372
纏裹	-11.5372
獵師食	-11.5372
超出	-11.5372
定生喜樂	-11.5372
開門	-11.5373
如是觀察	-11.5373
此苦聖諦	-11.5374
我恒	-11.5376
流入	-11.5377
受具足戒	-11.538
具足而受	-11.5381
隨轉	-11.5382
名某	-11.5383
彼等眾生	-11.5391
妄說	-11.5391
諸根具足	-11.5393
是謂三種	-11.5394
四無所畏	-11.5394
想知滅	-11.5394
貪樂	-11.5396
佛告帝釋	-11.5396
龍神	-11.5397
八支	-11.5398
豫知	-11.5399
清泉	-11.5399
無上尊	-11.5401
月光長者	-11.5401
為多行無	-11.5403
永無	-11.5411
在閑居	-11.5412
入胎	-11.5413
持五戒	-11.5415
取泥洹	-11.5416
因苦行	-11.5419
開覺	-11.5419
五百歲	-11.542
既得	-11.5423
其音	-11.5427
可止	-11.5431
城治化	-11.5434
復用	-11.5435
於中所有	-11.5438
無乏	-11.5441
一切沙門	-11.5442
爾也	-11.5442
皆悉具足	-11.5443
受齋	-11.5446
咸共	-11.5448
以法教	-11.5453
四足	-11.5453
與比丘眾	-11.5455
斷欲貪	-11.5455
與無數	-11.5458
便成阿羅漢	-11.5461
以火燒	-11.5463
為變易法	-11.5464
起迎	-11.5465
以慧觀	-11.5465
諸人輩	-11.547
為最第一	-11.5472
求財物	-11.5473
有諸門	-11.5473
老人	-11.5475
所知見	-11.5477
長老上尊	-11.5479
共俱	-11.5481
世所	-11.5487
無明使	-11.5488
應當學	-11.5491
失利	-11.5499
獲安隱	-11.55
斷諸煩惱	-11.5502
四句	-11.5503
中門	-11.5504
等等	-11.5505
十五字	-11.5508
於我前	-11.551
無色有	-11.5513
心不解脫	-11.5521
持不忘	-11.5524
成須陀洹	-11.5524
欲見世尊	-11.5525
諸華	-11.5528
隨風	-11.5534
將去	-11.5544
何謂四	-11.5545
極重	-11.5545
出家人	-11.5547
毒藥	-11.5549
彼不知如真	-11.555
三乘	-11.5555
集坐	-11.5558
心不生	-11.5559
次法	-11.556
尊者舍利弗語	-11.5561
我已解	-11.5562
我不堪任	-11.5562
比丘尼眾	-11.5563
諸法本	-11.5565
事因此事	-11.5566
閻浮洲中	-11.5567
諸賢當知	-11.5569
漏心解脫	-11.5573
彼大眾	-11.5575
不記	-11.5584
而不見	-11.5588
共詣	-11.5591
於三十三天	-11.5594
毘沙門	-11.5595
廣遠	-11.5596
已得解脫	-11.5598
染欲	-11.5598
而得解脫	-11.56
無瞋	-11.5601
不繫著	-11.5602
善見天	-11.5605
有補特伽羅	-11.5605
當獨一靜處	-11.5607
苦聖諦如實知	-11.561
相近	-11.5612
有男女	-11.5613
而過	-11.5619
於斯	-11.562
福盡	-11.5622
是如法	-11.5626
增一	-11.5626
宜可	-11.5629
持八關齋	-11.5631
黑色	-11.5631
六百	-11.5634
無過於	-11.5634
由其	-11.5635
之座	-11.5635
甚苦	-11.5642
所了	-11.5647
以飲食	-11.5648
身苦行	-11.5649
不可輕	-11.5655
當奉行	-11.5657
入我法	-11.5662
金寶	-11.5664
若作是說	-11.5666
多種	-11.5666
如是長壽	-11.5667
咽喉	-11.5669
得斯陀含果	-11.5676
少病	-11.5678
初善	-11.5681
是有為	-11.5681
悉令	-11.5682
世間貪	-11.5684
梵志施設	-11.5686
奉事梵志	-11.5687
於聖法	-11.5688
不作惡	-11.5691
能破	-11.5694
亦不著	-11.5695
不捨離	-11.5696
此法有	-11.57
在彼住	-11.57
二百	-11.57
乘象	-11.5702
還得	-11.5706
無記	-11.5708
清淨信	-11.5711
行正法	-11.5714
為欲何	-11.5714
不見一法	-11.572
都無所	-11.572
訟	-11.5727
此經名	-11.5727
謂無明	-11.5728
普集	-11.5734
非是我	-11.5736
常自	-11.5738
是我師	-11.5738
受信施食	-11.5739
能說法	-11.5742
之內	-11.5745
勿得	-11.5746
七覺	-11.5748
一向記	-11.5749
婆伽婆	-11.5753
賢士	-11.5754
肩上	-11.5755
率	-11.5756
當取滅度	-11.5759
百生	-11.5774
為我作	-11.5775
正殿	-11.5777
以此故	-11.5778
道𧗪	-11.5778
若爾	-11.578
▁5	-11.578
為直念	-11.578
觀察非我	-11.578
知苦習	-11.5781
然後得	-11.5792
知者當	-11.5798
堪受	-11.58
多財	-11.5801
儻	-11.5809
何所繫	-11.5815
歲數	-11.5816
生人間	-11.5822
佛坐	-11.5825
此四事	-11.5827
所制	-11.5827
閣	-11.5831
捨壽	-11.5837
尸棄	-11.5838
不腐	-11.5838
彼天帝釋	-11.5841
為諸法	-11.5845
實非	-11.5848
八種道	-11.585
一年	-11.585
種種花	-11.5851
然燈	-11.5853
劫盜	-11.5859
此等名為	-11.586
五納	-11.586
拘夷	-11.586
村人	-11.5861
阿那邠祁	-11.5861
机	-11.5862
正見人不如施	-11.5862
蚊蚋	-11.5863
彼聖弟子	-11.5864
以此行	-11.5866
初生時	-11.5866
或學	-11.5871
受斯	-11.5877
惱苦	-11.5878
困篤	-11.588
曩	-11.588
織成	-11.5885
攻	-11.5886
呼呼婆	-11.5886
言有我	-11.5887
魔王眷屬	-11.5887
無相心三昧	-11.5888
求歸依處	-11.5889
拘樓秦佛	-11.5889
長壽博士	-11.589
夜闇中	-11.5891
有所論說	-11.5891
捺	-11.5892
紺馬寶	-11.5892
俟	-11.5893
集會聽法	-11.5894
梵志國師	-11.5894
弗婆提洲	-11.5895
懸繒	-11.5895
極懷歡喜	-11.5895
轡	-11.5896
波浪	-11.5896
無憂慼正行	-11.5896
頞浮陀	-11.5896
瘦弱	-11.5896
清潔	-11.5896
不無恩	-11.5897
若男若女	-11.5897
鸚鵡摩牢兜羅子	-11.5898
九十日	-11.5898
籍	-11.5898
嘿然	-11.5899
完	-11.5899
爐	-11.59
寒暑	-11.59
洞燃俱熾	-11.59
神珠寶	-11.59
如甲上土	-11.59
田宅	-11.59
主兵臣	-11.5901
筏	-11.5902
徐徐	-11.5902
撮	-11.5902
聲聞緣覺	-11.5903
箭毛	-11.5903
是無所有處成就遊	-11.5903
石蜜	-11.5903
善住尼拘類樹王	-11.5903
最為上首	-11.5903
鹿野苑中	-11.5904
有六牙	-11.5904
趣向離	-11.5904
駱駝	-11.5904
無穢污無上安隱涅槃	-11.5904
真偽	-11.5904
大苦災患	-11.5904
善義善	-11.5905
調伏世間貪憂	-11.5905
肝	-11.5905
被袈裟	-11.5905
句味	-11.5905
以五繫縛	-11.5905
拘睒彌	-11.5905
跋地羅帝偈	-11.5906
毀罵	-11.5906
不還此世	-11.5906
偃	-11.5906
倉庫	-11.5906
乘船	-11.5906
眾寶瓔珞	-11.5906
席	-11.5906
後漢安息國三藏安世高譯	-11.5906
抂	-11.5906
幢幡	-11.5906
不饒益苦	-11.5906
帛	-11.5907
專念不亂	-11.5907
紺色	-11.5907
從三昧起	-11.5907
甜	-11.5907
紫磨金	-11.5908
序	-11.5908
諸小國王	-11.5908
高樓上	-11.5908
從宴坐起	-11.5908
羯	-11.5908
身作證具足住	-11.5908
十五日說從解脫時	-11.5909
問訊聖體	-11.5909
將來之世	-11.5909
懸繒幡蓋	-11.5909
膽	-11.5909
嚴備	-11.5909
覺礫拘荀大	-11.5909
毘沙門大天王	-11.5909
驚懼	-11.5909
深嶮	-11.5909
路側	-11.5909
函	-11.5909
謬	-11.5909
雅	-11.5909
鴿	-11.591
尊者跋陀羅	-11.591
為當來有本	-11.591
巨富	-11.591
細軟	-11.591
若有人者	-11.591
聞佛此語	-11.591
▁10	-11.591
如是比丘隨其身行	-11.591
此識身及外境界一切相	-11.5911
六思身	-11.5911
蹲	-11.5911
常隨不離	-11.5911
蘆	-11.5911
陰馬藏	-11.5911
善眼大師	-11.5912
歸依三寶	-11.5912
典兵寶	-11.5912
佛住迦毘羅衛國尼拘律園	-11.5912
迦蘭陀	-11.5912
令不行惡	-11.5912
此是何人	-11.5912
執手	-11.5913
碧	-11.5913
所以善男子	-11.5913
佛住拘睒彌國瞿師羅園	-11.5913
祭祀儀禮	-11.5914
梵及餘世間	-11.5914
胎生龍	-11.5914
勤加精進	-11.5914
是說苦邊	-11.5915
各還本處	-11.5915
廣布無常想	-11.5915
更互相	-11.5915
微劣	-11.5916
相應念想	-11.5916
城三匝	-11.5916
蠅蚤	-11.5916
卷第六	-11.5916
明日清旦	-11.5917
此五根	-11.5917
!』「	-11.5917
著僧伽梨	-11.5917
於空靜處	-11.5917
初生之時	-11.5917
大如車輪	-11.5918
波羅蜜	-11.5918
墮負處	-11.5918
咨嗟稱歎	-11.5918
修於梵行	-11.5919
善然可	-11.5919
或至樹下空安靜處	-11.5919
受惡報	-11.5919
萬端	-11.592
口言惡	-11.592
輕毀	-11.5921
降雨	-11.5921
褥	-11.5921
普四方面各有	-11.5921
半由旬	-11.5921
道場	-11.5922
九十一劫	-11.5922
眾多異學	-11.5922
撾打	-11.5922
共戰鬪	-11.5923
三十一劫	-11.5923
是即名為	-11.5923
種種經書	-11.5923
正勤	-11.5923
去後不久	-11.5923
不自譽	-11.5924
聞此正法	-11.5924
內無求欲	-11.5924
陸地	-11.5924
經第十竟	-11.5925
便走欲求解脫	-11.5926
力士屈申臂頃	-11.5926
賢良	-11.5926
宗奉	-11.5926
為其說法	-11.5926
殘害	-11.5926
日大城郭	-11.5926
乃至於斯	-11.5927
佛在拘薩羅人間	-11.5927
贖	-11.5928
獲如斯	-11.5928
聽我所說	-11.5928
觸緣受	-11.5928
唯願天王	-11.5931
共住	-11.5931
赤馬	-11.5931
迭相	-11.5931
是即名為佛最勝法	-11.5932
滅盡定	-11.5932
瑞應	-11.5933
四辯	-11.5933
如前所說	-11.5934
商佉	-11.5934
當念修行	-11.5935
鬚閑提異學	-11.5935
亦復無	-11.5936
自然變成	-11.5936
調達	-11.5937
柯	-11.5937
色最勝	-11.5937
鹹苦	-11.5938
天地大動	-11.5938
乃至未盡	-11.5939
作是學	-11.5939
火燃	-11.5941
緣有有生	-11.5941
供具	-11.5941
尊者二十億耳	-11.5942
徹聽	-11.5942
藥草	-11.5942
苦盡諦	-11.5945
近遠	-11.5945
應懃修集	-11.5946
尊者羅睺羅	-11.5947
相揩	-11.5947
亦在眾中	-11.5947
渡水	-11.5947
有水生	-11.5947
開發	-11.5948
汝等今者	-11.5948
悉當	-11.5948
而無有異	-11.595
城壁	-11.5951
萬二千里	-11.5953
力勢	-11.5953
世間出生	-11.5953
而取命終	-11.5954
成無漏	-11.5954
無價	-11.5954
天及人民	-11.5954
身壞	-11.5955
受王教已	-11.5956
恚怒	-11.5956
當以此方便	-11.5956
即於其夜	-11.5956
馭者	-11.5957
四指	-11.5957
毘富羅山	-11.5957
超度	-11.5957
未熟	-11.5958
作身業	-11.5958
聞某	-11.596
常喜	-11.5962
尊者舍梨子歎	-11.5964
增上戒	-11.5967
有此功德	-11.5972
缺減	-11.5972
飛在虛空	-11.5972
為最妙	-11.5973
不見不知	-11.5973
迦遮延	-11.5973
非無因緣	-11.5974
斷邪婬	-11.5974
脫衣	-11.5975
如來死後有	-11.5978
修無常想	-11.5979
涅槃道	-11.5981
猶未	-11.5982
不懈	-11.5984
聲聞弟子	-11.5985
此閻浮洲	-11.5986
觀法如法	-11.5987
豈當	-11.5988
可法滅	-11.599
觀察無常	-11.5992
容受	-11.5992
得大福祐	-11.5992
如來之所說	-11.5993
前為佛作禮	-11.5993
身出火	-11.5994
出於世	-11.5994
速滅	-11.5994
守門者	-11.5995
安隱得	-11.5997
經第十	-11.5997
空入處	-11.6001
便往至世尊所	-11.6001
獸王	-11.6002
云何為二法	-11.6003
水草	-11.6003
向阿羅漢	-11.6005
常無常	-11.6005
住一劫	-11.6007
被燒	-11.6007
便不生	-11.6008
為非常	-11.6012
七千由旬	-11.6013
無與等者	-11.6013
由愛	-11.6015
罪人報	-11.6016
不滿足	-11.6017
山間	-11.6018
至王所	-11.6018
復再三	-11.6022
眾生無始生死	-11.6022
莫得	-11.6022
知諸法	-11.6024
虛空之中	-11.6025
四體	-11.6026
賢死	-11.6028
坐樹下	-11.6029
乃至梵天	-11.6029
四大海水	-11.6029
更樂滅	-11.603
梵行之人	-11.6033
能堪任	-11.6033
麤食	-11.6033
發願	-11.6035
律亦復如是	-11.6036
愛結	-11.6037
世尊亦說	-11.6037
是故當知是	-11.6038
慧明	-11.6041
沙門及婆羅門	-11.6042
憶本	-11.6044
無放逸行	-11.6044
端心	-11.6045
阿浮	-11.6047
既到	-11.6048
共聚集	-11.6049
苦如真	-11.605
四洲	-11.6052
長者女	-11.6052
民眾	-11.6052
阿難言不	-11.6054
以神足	-11.6055
意識法	-11.6057
起慈心	-11.6058
諸功德	-11.606
空界	-11.6061
欲壞	-11.6062
彼大天王	-11.6064
喘息	-11.6064
二十二	-11.6065
非家	-11.6068
衣重	-11.607
無量空	-11.607
居士種	-11.607
月光	-11.6071
其父	-11.6072
自性	-11.6073
可愛樂	-11.6073
越生	-11.6074
遙聞	-11.6075
舉著	-11.6076
有求欲	-11.6077
上流	-11.6086
長子	-11.6087
而食之	-11.6088
勤加	-11.609
梵行著	-11.609
佛告大王	-11.6091
六方	-11.6091
受極苦	-11.6092
之原	-11.6094
生彼中	-11.6095
禪室	-11.6096
不律儀	-11.6097
拔出	-11.6098
鸚鵡摩納白	-11.6103
五十由旬	-11.611
或有一人心	-11.6111
十速證	-11.6114
悔心	-11.6115
當從是	-11.6118
無所復	-11.612
護心	-11.6122
口四	-11.6122
還所止	-11.6126
淨妙	-11.6128
梵行清淨	-11.6128
不侵	-11.6133
他人心	-11.6135
離熾然	-11.6141
輕慢於	-11.6147
如刺	-11.6149
可法生	-11.6151
便語	-11.6152
此五百比丘	-11.6153
之士	-11.6158
漏失	-11.6162
不偷盜	-11.617
郡國	-11.6171
亂風	-11.6174
眼識色	-11.6182
速往	-11.6186
字為	-11.6187
從是得	-11.6189
在前住	-11.619
明經	-11.6192
亦復知	-11.6193
惡戒	-11.6194
恭敬承事	-11.6195
所污	-11.6199
各縱廣五十由旬	-11.6205
歸依僧	-11.6207
除盡	-11.6208
便般涅槃	-11.6211
與長者	-11.6212
在前行	-11.6216
尊重恭敬	-11.6218
惡語言	-11.6229
厭足	-11.6232
痛苦	-11.6234
莫能	-11.6234
作事	-11.6235
說偈問	-11.6237
善向	-11.6243
聽聞	-11.6244
供養舍利	-11.6247
滅沒	-11.6248
斷結	-11.6249
常存	-11.625
無慳	-11.6253
人形	-11.6253
釋女	-11.6254
於諸世間	-11.6256
譬如世間	-11.6261
結盡	-11.6261
命見	-11.6262
中間有	-11.6263
將五百	-11.6267
世尊知彼	-11.6271
其處縱廣	-11.6272
外國	-11.6273
一句	-11.6276
世尊境界	-11.6281
萬四千	-11.6282
吾今當	-11.6282
離邪婬	-11.6282
不能動	-11.6283
諸尊長	-11.6298
復以手	-11.6299
入識處	-11.6299
四子	-11.6304
是為九	-11.6307
遊王舍城	-11.6311
滅界	-11.632
種金翅鳥	-11.6323
功德具足	-11.6336
曹	-11.6338
得定意	-11.6343
則不然	-11.6347
於諸法	-11.6358
訓	-11.636
受我請	-11.6363
以偈報	-11.6363
六觸	-11.6364
起雲	-11.6365
說法要	-11.6366
越祇	-11.6366
莫作是說	-11.638
語尊者舍利弗	-11.6382
慧者見	-11.6382
無復有	-11.6393
相憎	-11.6397
以慈心	-11.6397
脫一切苦	-11.6397
此界	-11.64
顯照	-11.6404
作如是學	-11.6404
於中住	-11.6414
牛王	-11.6417
剎利眾	-11.6417
行惡法	-11.6419
此四諦	-11.642
不欺誑	-11.6425
2)	-11.6425
汝等應	-11.6434
告語	-11.6438
善御	-11.6439
之變	-11.6439
使結	-11.644
之宜	-11.6444
便生惡	-11.6444
未來色	-11.6446
東門	-11.6449
此世界	-11.6451
現法苦	-11.6454
十肘	-11.6457
山石	-11.6463
家食	-11.6465
自以為樂	-11.6466
又聞	-11.6473
種種香	-11.6473
至王舍城	-11.6477
鍑	-11.6482
頭摩	-11.6482
已遠離此	-11.6484
生彼天	-11.6485
屈伸	-11.649
精勤修	-11.6491
聚沫	-11.6491
刺人	-11.6491
彼地獄諸眾生	-11.6491
師教	-11.6496
滅定	-11.6499
習行不斷	-11.65
還活	-11.6501
飛行皇帝	-11.6502
今當說	-11.6502
膩	-11.6502
疫	-11.6503
深遠	-11.6505
膿	-11.6505
護眼根	-11.6506
目連比丘	-11.6507
現在世	-11.6507
楞	-11.6508
獄亦廣五百由旬	-11.6511
阿毘脂	-11.6511
闍尼沙	-11.6511
以何緣	-11.6511
由他	-11.6511
我住無	-11.6512
有所答對	-11.6513
聰	-11.6513
護念	-11.6513
照耀	-11.6514
級	-11.6514
我念往昔	-11.6515
桓	-11.6515
抑	-11.6516
效	-11.6516
純大苦聚	-11.6516
鷹	-11.6518
脣舌	-11.6518
二十四萬里	-11.6518
予	-11.6518
而自遊戲	-11.6518
嗣	-11.6518
現在泥洹	-11.6518
豐熟	-11.6518
瘂	-11.6519
餘皆虛妄	-11.6519
趣非品	-11.6519
乘虛	-11.6519
生火長養	-11.6519
輕慢自有財物	-11.6519
糠	-11.652
為王者所識	-11.652
閃電	-11.652
戀慕	-11.6521
耻	-11.6522
八萬小洲	-11.6522
跋提	-11.6522
鳩尸那城	-11.6522
如前廣說	-11.6523
詳	-11.6523
無明緣行	-11.6523
不寒不熱	-11.6524
頗梨赤珠	-11.6524
取緣有	-11.6524
有侍者比丘名曰羅陀	-11.6525
塵勞	-11.6525
授決	-11.6525
商人主	-11.6526
轂	-11.6526
車𤦲馬瑙等	-11.6526
此一補特伽羅	-11.6526
那優羅	-11.6526
是故此法則	-11.6526
焦	-11.6527
讖	-11.6527
膠	-11.6528
我慢使繫著	-11.6528
故此補特伽羅	-11.6528
彼此定樂欲住	-11.6528
驗	-11.6528
耐	-11.6528
百須陀洹	-11.6529
除愈	-11.6529
芭	-11.6529
梵釋	-11.6529
矜	-11.6529
恚恨	-11.6529
自以為得脫	-11.6529
蟻	-11.6529
婆利師迦	-11.653
天龍鬼神	-11.653
掃灑	-11.653
所謂阿提目多迦	-11.653
況欲出其上	-11.653
婆羅門於本劫本見	-11.653
殊低沙迦利迦	-11.653
蘇摩那	-11.653
非想非非想入處	-11.6531
藪	-11.6531
拘尸那竭	-11.6531
得大果大福利	-11.6531
遊提迦	-11.6532
屈申臂頃	-11.6532
轉向善趣	-11.6532
去佛不遠	-11.6532
縈	-11.6533
佳	-11.6533
有所益	-11.6533
人獲安	-11.6533
捨於重擔	-11.6533
鉾	-11.6534
世尊默然受	-11.6534
瞻仰	-11.6534
二十一結	-11.6534
八關	-11.6534
工師族	-11.6534
彼黑繩大地獄中	-11.6534
約勅	-11.6535
欣然微笑	-11.6535
鬱單曰	-11.6535
精懃	-11.6535
守護眼根	-11.6535
阿迦尼吒	-11.6535
以淨天耳	-11.6535
嫁娶	-11.6535
嫌怖久捨	-11.6535
莫以非法	-11.6536
稻穀	-11.6536
n	-11.6536
指髻	-11.6536
生天長壽	-11.6536
慈仁	-11.6536
復以何故名為	-11.6536
拘那含牟尼佛	-11.6536
翫習	-11.6537
引導	-11.6537
四雙八輩	-11.6537
優多羅童子	-11.6537
一水乳	-11.6537
解脫見慧成就	-11.6537
摩利迦	-11.6537
臨命終時	-11.6538
萬二千由旬	-11.6538
辛苦	-11.6538
及諸智梵行人	-11.6538
漏盡心解脫	-11.6538
無義相應	-11.6539
俱相類相聚相應相可	-11.6539
恣汝所問	-11.6539
發歡喜心	-11.6539
身知細滑	-11.6539
善惡之報	-11.6539
饍	-11.6539
行施修福	-11.654
離本相	-11.654
屠殺	-11.654
修行一法	-11.654
說如來常恒不變如來之藏	-11.654
革屣	-11.654
不煩熱命終	-11.6541
若使一切眾生無有	-11.6541
彼依此處	-11.6542
離瞋恚	-11.6542
六想身	-11.6542
分別曉了	-11.6542
變為	-11.6542
捷	-11.6542
王園比丘尼眾中	-11.6542
夜將向旦	-11.6543
卒暴	-11.6543
彼意恚	-11.6543
不能污王	-11.6544
善觀分別	-11.6544
病瘦	-11.6544
日大宮殿	-11.6544
阿㝹羅度	-11.6544
壽二萬歲	-11.6544
為從何生	-11.6544
田主	-11.6544
當來有愛	-11.6544
老病	-11.6544
多有錢財	-11.6544
少病少惱	-11.6544
調適	-11.6544
稍減	-11.6545
覆面	-11.6545
斷除諸有	-11.6545
縱廣二萬里	-11.6545
難提波羅	-11.6546
修多羅廣說	-11.6546
墮淚	-11.6546
宗重	-11.6546
誠心	-11.6546
來至此間	-11.6546
覆以錦綺羅	-11.6546
所從起	-11.6547
勝林給孤獨園	-11.6548
有泥犁名	-11.6548
宗敬	-11.6548
殼自	-11.6548
是我常所	-11.6548
著肩上	-11.6548
得出離清淨	-11.6548
如是說言	-11.6548
必有此處	-11.6548
佛般泥洹	-11.6549
多病	-11.6549
以三昧心	-11.655
從今已後	-11.655
而有差降安樂住止	-11.655
在無事處	-11.655
尸羅	-11.6551
徑路	-11.6551
愁憂不樂	-11.6551
如是等名為	-11.6551
盡苦邊	-11.6551
降魔	-11.6552
劫奪	-11.6552
救頭	-11.6553
不可療治	-11.6553
為父母所	-11.6553
顧戀	-11.6553
求火	-11.6555
赤石	-11.6555
流血	-11.6556
謂有比丘知	-11.6556
無餘涅槃界	-11.6556
優劣	-11.6557
阿梨	-11.6557
如來今日	-11.6557
欲得食	-11.6558
狐疑斷	-11.6558
共俱定	-11.6558
大目犍連	-11.6558
工師女	-11.6558
律尊師	-11.6561
牛羊	-11.6561
拘舍	-11.6561
最後邊	-11.6562
徐行	-11.6562
復教他人使不	-11.6563
三十三天晝度樹	-11.6563
無漏法	-11.6563
得生梵天	-11.6565
善法講堂	-11.6565
壞亂	-11.6566
覺寤	-11.6566
不真人法	-11.6566
有長者名	-11.6567
慙愧羞厭	-11.6568
增長善法	-11.6569
尊者須菩提	-11.6569
世尊告彼比丘	-11.6569
尊者阿難叉手向佛	-11.6569
相逢	-11.6571
遣信	-11.6571
真知識	-11.6572
彼作願行行	-11.6572
更不受有	-11.6572
逝心	-11.6573
起偷婆	-11.6573
正赤	-11.6573
譬如國王	-11.6573
入正法耶	-11.6573
復有叢林名曰	-11.6573
我悉知之	-11.6573
堆壓	-11.6574
無母子畏	-11.6574
必不得果	-11.6574
乃生天上	-11.6574
瞿迦梨比丘	-11.6575
身心熱	-11.6575
具足戒	-11.6577
六衰	-11.6577
隱藏	-11.6577
無有狐疑	-11.6579
三千由旬	-11.658
變成	-11.658
自莊嚴	-11.6582
尊者闡陀	-11.6585
皆同一	-11.6586
紅蓮華	-11.6588
種種華	-11.6592
一踰闍那	-11.6593
作倡	-11.6593
葬法	-11.6593
法及比丘僧	-11.6594
或為他	-11.6595
離慳貪	-11.6595
有佛出世	-11.6595
御車	-11.6597
是謂第七	-11.6597
不停	-11.6598
滅盡無餘	-11.6602
是謂第六	-11.6603
修七覺分	-11.6605
截手足	-11.6605
諸娑羅樹	-11.6608
娶婦	-11.6609
動轉	-11.661
何觸	-11.6613
七年	-11.6614
汝愚癡人	-11.6614
千二百五十人	-11.6616
所漂	-11.6619
乾陀	-11.6619
是轉輪王	-11.6619
腐壞	-11.6619
無懈怠	-11.6619
可斷法	-11.662
諸釋氏	-11.6621
心不移動	-11.6624
波利	-11.6624
皆在是	-11.6624
此苦集聖諦	-11.6628
當來事	-11.6628
以神通力	-11.6629
如世尊所說	-11.663
與大比丘	-11.663
種種乘	-11.6633
兜率	-11.6634
千二百由旬	-11.6634
族姓子所為	-11.6634
忍樂	-11.6635
次復入	-11.6635
歸命法	-11.6636
小豆	-11.6637
三達	-11.6637
作惡行	-11.6638
是名第一	-11.664
呪說	-11.664
增損	-11.6641
依律	-11.6641
最勝最妙	-11.6642
而取滅度	-11.6644
於彼岸	-11.6644
以何法	-11.6647
聽出家	-11.6649
主藏	-11.665
即入三昧	-11.6651
得阿羅漢道	-11.6652
山林樹下	-11.6652
備諸	-11.6652
善調御	-11.6652
天女復	-11.6654
以天耳聞	-11.6655
行精勤	-11.666
諸佛所	-11.666
是謂有人	-11.6661
中最為第一	-11.6671
斷除一切	-11.6674
何故名為	-11.6679
梵志如是見	-11.6679
其志	-11.668
諸年少比丘	-11.6681
此不可得	-11.6685
略說法	-11.6687
賢聖戒	-11.6695
神足第一	-11.6697
婆伽婆在	-11.6701
威光顯	-11.6702
共相應	-11.6702
聲聞乘	-11.6702
風種	-11.6704
眾生因欲	-11.6712
汝今何故	-11.6712
令墮	-11.6722
蒙佛	-11.6726
曾於	-11.673
二方	-11.6731
諸法之	-11.6734
他物	-11.674
三方	-11.6742
前已說	-11.6745
設使離	-11.6746
罪福	-11.6747
為根本	-11.6749
何等類	-11.6751
無德	-11.6752
冥中	-11.6752
惡貪	-11.6755
無有後世	-11.6757
香好	-11.6758
能致	-11.6767
淨除	-11.6771
得清澄	-11.6771
盡漏	-11.6776
四沙門果	-11.6778
從父母	-11.6783
盡諦	-11.6787
三事勝閻浮提	-11.679
不礙	-11.6791
敷妙	-11.6791
首陀羅種	-11.6795
光相	-11.6795
恚使	-11.6796
離兩舌	-11.6799
順趣	-11.6799
心得自在	-11.68
是處不	-11.6801
不善戒	-11.6801
從外	-11.6802
牧牛	-11.6807
不可數	-11.681
八萬四千車	-11.6812
善治	-11.6814
此三族姓子	-11.6819
直道	-11.6823
專意	-11.6824
與說法	-11.6825
來往	-11.6826
一處坐	-11.6826
知苦如真	-11.6828
百千億	-11.6828
習學	-11.6829
彼天輪寶	-11.6829
是阿羅漢	-11.6829
生煩惱	-11.6834
勝智	-11.6844
善來比丘	-11.6846
聞其言	-11.6848
斷欲愛	-11.685
欲鬪	-11.685
城中有	-11.6851
二足	-11.686
墮在	-11.6861
三族姓子	-11.6862
乘馬	-11.6866
是一義	-11.687
阿練若行	-11.6872
我今亦當	-11.6874
為法本	-11.6876
得現法	-11.6879
持三衣	-11.6881
得應真	-11.6883
寧能	-11.6884
當正思惟	-11.6893
金樓	-11.6894
入泥犁	-11.6901
遍淨	-11.6902
見災患	-11.6905
心熱	-11.6906
賢者諦	-11.6907
大林	-11.6915
內懷	-11.6917
法增長	-11.6918
所從生	-11.6919
外有山	-11.6922
久存於世	-11.6927
昇虛空	-11.693
二十四	-11.693
即乘	-11.6932
與相見	-11.6934
外門	-11.6937
起世經	-11.6939
不可修	-11.6949
自觀察	-11.6953
諸天女	-11.6953
深廣	-11.6956
六根	-11.6957
自覺悟	-11.6965
八萬人	-11.6968
一其心	-11.6975
命存	-11.6976
奉事供養	-11.6979
或妙	-11.6983
隨流	-11.6983
禮法	-11.6983
侍佛	-11.6983
長者居士	-11.6985
凡愚	-11.699
恭敬禮拜	-11.699
等利	-11.6991
先世	-11.6994
五百優婆塞	-11.6995
生梵天上	-11.6997
仙人住處	-11.7
住真諦	-11.7004
供養衣被	-11.7004
風災	-11.7005
園門	-11.7005
善調伏	-11.7007
世間便有	-11.7013
可習法	-11.7016
世間所有	-11.702
臥地	-11.7022
惡罵	-11.7024
四非常	-11.7035
從禪覺	-11.7042
不眠	-11.7047
王勅	-11.7052
使者言	-11.7053
又能	-11.7059
難遇	-11.706
樂更樂	-11.7062
生光音天	-11.7065
第十五	-11.7069
非律	-11.7071
隨使死	-11.7073
於樹下	-11.7074
四衢	-11.7075
擎	-11.7076
齊此	-11.7085
無後世	-11.7085
所知法	-11.7086
至善處	-11.709
尊者優婆離	-11.7091
父名	-11.7092
聞說法	-11.7105
阿梨吒	-11.7106
無為道	-11.7106
石擲	-11.712
二千里	-11.712
行邪婬	-11.7122
為彼說	-11.713
知他心	-11.7133
鐵圍山	-11.7134
悉備	-11.7134
有孝順父母	-11.7135
為彼等	-11.7135
舍利弗所說	-11.7137
乃至百千	-11.7137
不得清淨	-11.7137
至舍衛城	-11.715
上味	-11.7152
受苦無量	-11.7153
枰	-11.7156
虎魄	-11.7156
二百由旬	-11.7158
其手	-11.716
山側	-11.7161
我不聽	-11.7162
怙	-11.7166
結不斷	-11.7166
瞻波迦	-11.7169
持慧	-11.717
植	-11.717
帳	-11.717
癡惑	-11.7173
佛皆離是	-11.7174
阿摩勒	-11.7174
轉還不得舒張	-11.7177
蝕	-11.7177
凝	-11.7177
菴羅園	-11.7177
四意斷	-11.7178
未生有漏	-11.7178
瑟	-11.7179
四百八十里	-11.7179
我今真為轉輪聖王	-11.7179
必至善處	-11.718
絲	-11.718
燃燈	-11.7181
如其像	-11.7182
戮	-11.7182
香熏	-11.7182
三千大千剎土	-11.7183
羅摩	-11.7183
乃至純大苦聚集	-11.7184
寸	-11.7185
條	-11.7185
捨之而去	-11.7185
縈髻	-11.7185
冷暖	-11.7185
傾臥	-11.7186
尊者盧夷強耆	-11.7186
孝養父母	-11.7186
異學鞞摩那修	-11.7187
不覺忽至	-11.7187
旬	-11.7187
有十種業	-11.7187
鍼	-11.7187
還顧	-11.7188
枯竭	-11.7188
輪圓山	-11.7188
鏤	-11.7189
巴連弗邑	-11.7189
掬	-11.719
能自記說	-11.719
愛滅則取滅	-11.7191
寧有閑暇見答	-11.7191
質多羅	-11.7191
則有憂慼苦不樂	-11.7191
身知觸	-11.7191
須陀味	-11.7192
欝瘦歌邏梵志	-11.7192
一須陀洹不如施百須陀	-11.7192
諳	-11.7192
舐	-11.7192
世尊所說法	-11.7193
著鎧	-11.7193
摩那婆	-11.7193
巡	-11.7193
最在後	-11.7193
景	-11.7193
駿疾	-11.7194
上方	-11.7194
日誦	-11.7194
踝	-11.7194
瞋忿	-11.7194
波羅㮈㮈	-11.7194
生滅則老	-11.7195
放牛兒	-11.7195
或心願效如是如是	-11.7195
征	-11.7195
臼	-11.7196
隨藍	-11.7196
伺察	-11.7196
悶	-11.7196
-	-11.7196
請佛及比丘僧	-11.7196
迦維羅衛	-11.7196
狼	-11.7196
知其如真	-11.7197
屎尿	-11.7197
姊	-11.7197
稗	-11.7197
苦習盡道	-11.7197
編	-11.7198
儉	-11.7198
佯	-11.7198
四三二	-11.7198
湧	-11.7199
腎	-11.7199
如來有後死	-11.7199
強健	-11.7199
是無量識處成就遊	-11.7199
天竺	-11.72
敷坐具	-11.72
無瑕穢	-11.72
樂少苦多	-11.72
菜	-11.72
隔	-11.7201
高才	-11.7201
促	-11.7201
矟	-11.7202
麁手釋	-11.7202
十不善業	-11.7202
長衰	-11.7202
乃至七世父母	-11.7202
高四千里	-11.7203
廣演其義	-11.7203
飯佛及比丘僧	-11.7203
誡勅	-11.7203
經無量時長遠道中	-11.7203
妻子奴婢	-11.7204
間廁	-11.7204
鵡	-11.7204
字某	-11.7204
世尊為法主	-11.7205
飽滿	-11.7205
漏盡智通作證	-11.7205
八戒	-11.7205
按摩	-11.7206
成道果	-11.7206
過惡未盡故不死	-11.7206
築	-11.7206
獲大果報	-11.7206
所謂金銀琉璃	-11.7206
壽百歲	-11.7206
一一諸門	-11.7206
拘牟陀花	-11.7206
誦習典經	-11.7207
黑婢	-11.7207
婆迦梨	-11.7207
我及世間是常	-11.7207
星中月	-11.7207
弗婆提人	-11.7207
猫	-11.7208
釋迦牟尼佛	-11.7208
見四真諦	-11.7208
離殺斷殺	-11.7208
諸釋種	-11.7208
黑冥	-11.7209
家中居	-11.7209
汝等共來	-11.7209
幹	-11.7209
易染為色	-11.7209
當念奉行	-11.7209
姑	-11.7209
塵土坌	-11.7209
最在前	-11.7209
襯體	-11.721
釋氏難提	-11.721
羽寶之車	-11.721
還歸其家	-11.721
從此安隱度至閻浮洲	-11.721
優波先那	-11.7211
於末劫末見	-11.7211
招提僧	-11.7211
開導	-11.7211
唯願為說	-11.7211
不失時節	-11.7211
瞿師羅長者	-11.7211
佛住舍衛國	-11.7212
唯願說之	-11.7212
安隱樂住	-11.7212
非賢者法	-11.7212
光耀	-11.7212
漫	-11.7212
觀已而渡	-11.7212
生於天中	-11.7212
行報故	-11.7212
唯無上梵行訖	-11.7212
有人出已而住	-11.7212
作是論	-11.7213
種種豐饒	-11.7213
阿若拘隣	-11.7213
尼彌王	-11.7213
我今歸依佛	-11.7213
端正無雙	-11.7213
世尊呼汝	-11.7213
歡喜信受	-11.7214
諸蟲	-11.7214
鐵刺	-11.7214
作諸惡行	-11.7214
我聲聞中第一比丘	-11.7214
白珂	-11.7214
隷	-11.7214
殊異	-11.7215
怨敵	-11.7215
導從	-11.7215
阿修囉	-11.7215
八萬四千夫人及女寶	-11.7216
庫藏盈溢	-11.7216
將諸比丘眾	-11.7216
妓女	-11.7216
得人上之法	-11.7216
聰明黠慧	-11.7216
狂惑	-11.7217
空野	-11.7217
+(	-11.7217
終始	-11.7217
令從是致墮	-11.7217
相為何等為	-11.7217
垢膩	-11.7218
染汙	-11.7218
有八萬	-11.7218
高樓	-11.7218
失定而滅	-11.7219
賢者目揵連	-11.7219
彼必統領此一切地	-11.7219
說從解脫	-11.7219
之所稱譽	-11.722
以此事故	-11.722
佛告文殊師利	-11.7221
成阿耨多羅三藐三菩提	-11.7222
無數方便	-11.7223
有所照	-11.7223
戒定慧	-11.7223
苦習諦	-11.7223
往見如來時	-11.7224
垂下	-11.7224
長生博士	-11.7224
具大神通	-11.7225
耕田	-11.7225
彼等諸門	-11.7225
說是經	-11.7225
頻來	-11.7226
取兵仗	-11.7226
)【	-11.7226
不是不非	-11.7226
駿疾具足	-11.7227
尊者那伽達多	-11.7227
器中	-11.7228
諦如	-11.7228
面目	-11.7229
從初禪起	-11.7229
補治衣	-11.723
往佛所	-11.723
餘者不如	-11.7231
與晝無異	-11.7231
長存	-11.7232
四維	-11.7232
默然而坐	-11.7232
塵穢	-11.7233
其座	-11.7233
諸清信士	-11.7234
羅闍	-11.7235
舉動	-11.7235
甚深微妙大	-11.7235
生緣老	-11.7235
修摩提女	-11.7237
即於現法	-11.7237
神足之力	-11.7237
雨舍	-11.7242
坐已定	-11.7242
心不生惡	-11.7244
立字	-11.7244
出要界	-11.7244
無量百千歲	-11.7244
悉達	-11.7245
菴羅園中	-11.7245
無量無邊	-11.7246
薄地	-11.7246
怖取	-11.7247
多習	-11.7248
阿頭	-11.7248
大梵王	-11.7248
滿度摩城	-11.7249
無所有處想	-11.725
存命	-11.7251
墮負門	-11.7251
看視	-11.7251
惟願	-11.7252
自相娛樂	-11.7252
雖爾	-11.7252
大林中	-11.7254
困苦	-11.7254
人出現於世	-11.7255
上尊長老	-11.7258
瞿陀尼人	-11.7259
至無有命終	-11.726
有如是報	-11.7261
復還入	-11.7261
於閑靜處	-11.7261
供養奉事	-11.7262
四念處修習多修習	-11.7262
如實觀	-11.7262
供養眾僧	-11.7264
識入處	-11.7264
志意	-11.7264
無有損	-11.7265
有佛名	-11.7266
惶怖	-11.7267
中何因何緣	-11.7268
生草	-11.727
轉轉	-11.727
無慚	-11.7271
日沒	-11.7271
稱怨	-11.7272
若干種想	-11.7273
內外俱	-11.7273
有三因緣	-11.7274
仰觀	-11.7276
十念	-11.7276
亦不堅固	-11.7277
知出要如真	-11.7278
作此念已	-11.728
志性	-11.7281
尊者目揵連	-11.7282
遮止	-11.7284
道品法	-11.7284
難值	-11.7288
心念善	-11.7288
盜他物	-11.7291
八大地獄	-11.7292
林間	-11.7292
七頭	-11.7295
若劣	-11.7296
侍從世尊	-11.7297
長夜受苦	-11.7299
居處	-11.7299
莫復	-11.7304
其影	-11.7305
之態	-11.7306
彼天眾	-11.7309
其中眾生	-11.7312
彌勒如來	-11.7313
我此定	-11.7314
淨不淨	-11.7315
大梵天	-11.7317
知出入	-11.7318
長夜之中	-11.7318
天魔波旬	-11.7321
餘殘	-11.7324
真子	-11.7324
得勝妙	-11.7326
著睡眠	-11.7329
心念惡	-11.7332
東出	-11.7334
當棄	-11.7334
而笑	-11.7336
我所說法	-11.7337
廣演法	-11.7337
大過	-11.7339
至舍衛國	-11.7342
前際	-11.7343
之所成就	-11.7344
他界	-11.7345
迦葉佛時	-11.7346
當何所	-11.7346
著右肩上	-11.7348
是名優婆塞	-11.735
至沙門瞿曇所	-11.7352
相率	-11.7353
大闇	-11.7354
毘舍婆	-11.7355
我語彼	-11.7358
內結	-11.7359
作轉輪王	-11.7361
謂緣無明行	-11.7361
亦同	-11.7364
未斷	-11.7364
世尊便說偈	-11.7366
9)	-11.7367
都不見	-11.7368
同利	-11.7368
欝單曰人	-11.7375
蠕動之類	-11.7377
而說偈	-11.7377
十一為	-11.7378
受安樂	-11.7379
當知是人	-11.7379
住不放逸	-11.7381
飛來	-11.7383
六受身	-11.7385
不得涅槃	-11.7387
縛結	-11.7392
正受住	-11.7394
守攝	-11.7396
速嚴駕	-11.7401
毛髮	-11.7401
復作是言	-11.7405
或云	-11.7405
深信	-11.7409
如來大師	-11.7409
有十種	-11.741
御心	-11.7412
大動	-11.7417
所應作	-11.7418
皆黑	-11.7418
天神復說偈	-11.7422
施設斷	-11.7429
我昔曾	-11.7434
身身觀念處	-11.7434
遠離一切	-11.744
彼觀此	-11.7441
同聲	-11.7444
勸他	-11.7446
定趣	-11.7447
又更	-11.745
俗人	-11.7452
即辦	-11.7456
汝所言	-11.7458
至無為	-11.7461
如夢	-11.7462
瓔珞樹	-11.7466
意計	-11.7466
樹影	-11.7467
食堂	-11.7473
各別	-11.7476
尚可	-11.7486
說苦聖諦	-11.7486
尊者舍利弗所	-11.749
是故汝今	-11.7497
如是出生	-11.7498
寶山	-11.7502
有所疑	-11.7502
方面	-11.7504
然可	-11.7509
國邑	-11.7509
我佛世尊	-11.7511
下過	-11.7515
色香味	-11.7517
勿起	-11.7522
熱沸	-11.7523
跋陀	-11.7526
八關齋法	-11.7526
九種	-11.7527
心生惡	-11.7529
自思	-11.7536
故則有	-11.7544
至長者家	-11.7547
難事	-11.7549
尊者阿那律所	-11.755
阿練	-11.7555
諍鬪	-11.7555
是何法	-11.7556
有慚	-11.7559
入村	-11.7561
母胎事	-11.7561
所攝	-11.7564
便生欲	-11.7566
河岸	-11.7567
為非人	-11.757
遺法	-11.757
中年	-11.7571
華池	-11.7576
郡	-11.7577
視瞻	-11.7578
上廣	-11.758
八萬四千人	-11.7586
恒念	-11.7589
猶不能	-11.7592
一切善法	-11.761
謂有一人	-11.7612
後久久	-11.7616
後日	-11.7621
更不復	-11.7622
在舍衛國	-11.7622
於三明	-11.7625
侍臣	-11.7627
不墮惡	-11.7636
苦出要	-11.7638
覺了	-11.7642
戒香	-11.7643
入房	-11.7643
以杖	-11.7643
愁苦	-11.7647
諍競	-11.766
為正說	-11.766
愛護	-11.7674
第十六	-11.7677
沒不現	-11.7678
何謂五	-11.768
金山	-11.7681
以他心智觀	-11.7682
奔走	-11.7694
可愛念	-11.7697
失信	-11.77
孫陀利	-11.7709
彼色若	-11.771
天眼第一	-11.7715
無所知	-11.7715
害界	-11.7735
漸漸至	-11.7736
與比丘僧	-11.7738
生極苦	-11.7748
仙聖	-11.7753
入三昧	-11.7755
曠野中	-11.7758
更不受	-11.7758
當奉持	-11.7758
十踰闍那	-11.7762
可爾	-11.7766
學遠離	-11.778
求解	-11.7785
令增廣	-11.7789
隨使使	-11.7793
愛別離苦	-11.7794
護口	-11.7794
我今自歸	-11.7794
淨眼	-11.7798
水邊	-11.7805
聽之	-11.7806
面訶	-11.7808
至園中	-11.7811
眾輩	-11.7813
八支聖道	-11.782
法以何為	-11.7823
請求	-11.7826
遙見世尊在	-11.7827
撲	-11.7827
滿度摩	-11.7833
似如	-11.7833
其宮殿	-11.784
斷愛欲	-11.7851
怖懼	-11.7853
得須陀洹果	-11.7853
然後當	-11.7858
於苦集聖諦	-11.7865
雪	-11.7867
入空處	-11.7875
最為妙	-11.7876
彼因餘比丘	-11.7877
三分	-11.7877
聖眾善趣	-11.7879
百千由旬	-11.7881
鑊	-11.7881
諦觀思惟分別	-11.7883
藕	-11.7885
獵師眷屬境界	-11.7886
眼觸生受	-11.7889
綺	-11.7889
生淨信	-11.7889
皰	-11.7889
盈溢	-11.7889
陀驃摩羅子	-11.7889
澡豆	-11.789
明月珠	-11.789
伏藏	-11.7892
第一澡水	-11.7892
定光如來	-11.7892
有明月	-11.7892
融	-11.7893
預	-11.7893
婁	-11.7894
隨三昧心	-11.7895
紺	-11.7896
下鬚髮	-11.7897
穌	-11.7898
鍱	-11.7898
苦毒辛酸	-11.7898
地為大動	-11.7899
鹿紐	-11.7899
翻	-11.79
取一芥子	-11.79
讒	-11.79
尊者盧耶強耆	-11.79
纏身	-11.79
怛	-11.79
閻王復問	-11.7901
漸至	-11.7901
衣毛為竪	-11.7901
環	-11.7903
決所疑	-11.7903
叉手合掌	-11.7904
摩訶衍	-11.7904
瓮	-11.7904
司	-11.7904
唯此為	-11.7904
夕	-11.7905
敬事師長	-11.7905
遜	-11.7905
忌	-11.7906
權	-11.7906
於如來法中	-11.7906
彼於此間	-11.7906
與衣鉢俱	-11.7906
惓	-11.7906
蚖	-11.7906
幻偽	-11.7907
搆	-11.7907
怯弱	-11.7907
緣眾生清淨	-11.7907
鴈	-11.7907
或有餘比丘	-11.7907
挍	-11.7907
胡	-11.7907
差降安樂住止	-11.7907
嗟	-11.7907
織	-11.7907
從滅盡定起	-11.7907
潛	-11.7908
意觸生受	-11.7908
求救護處	-11.7908
如實無我	-11.7908
輔	-11.7909
飲食知節	-11.7909
資財無量	-11.7909
晃昱天	-11.7909
牙齒	-11.7909
價直	-11.7909
6)	-11.7909
三彌提	-11.7909
負債	-11.791
吹彼水沫	-11.791
外見色	-11.791
姝	-11.791
為四眾	-11.791
或自見彼	-11.791
􂌶	-11.7911
􂍃	-11.7911
得內止	-11.7911
般闍羅	-11.7911
晃	-11.7911
為斷無常	-11.7911
罽	-11.7911
稽首足下	-11.7911
材	-11.7911
如來之藏	-11.7911
缺漏	-11.7912
長身婆羅門	-11.7912
竺法護譯	-11.7912
段段	-11.7912
怯	-11.7912
穢汙	-11.7912
受三自歸	-11.7912
不敬長老	-11.7912
槽	-11.7912
縱橫	-11.7913
!』『	-11.7913
少出多減	-11.7913
餓	-11.7913
屣	-11.7913
慈地比丘	-11.7913
鮮潔	-11.7913
觸滅則受滅	-11.7913
案行天下	-11.7914
宿舊	-11.7914
一身一想	-11.7914
即於坐上	-11.7914
誘	-11.7914
彼色最上	-11.7914
脾	-11.7914
日大城郭之光明	-11.7914
為自在王	-11.7914
謨尸羅長者	-11.7914
惡魔波旬欲	-11.7915
摩竭國王頻毘娑羅	-11.7915
蜜丸	-11.7915
生生無惡	-11.7915
所至到	-11.7915
憂悲惱苦	-11.7915
往詣沙門瞿曇所	-11.7915
乳母	-11.7915
俱毘陀羅	-11.7916
難陀浴池	-11.7916
文殊	-11.7916
七肘	-11.7916
迮	-11.7916
二山中間	-11.7916
苦滅道聖諦	-11.7916
鉢頭摩華	-11.7916
東枝	-11.7916
瑩	-11.7916
遠來乞者	-11.7916
默然可之	-11.7917
我是彼所	-11.7917
猶去村不遠	-11.7917
胝	-11.7917
若有婆羅門道人	-11.7917
沐浴澡洗	-11.7917
母腹中	-11.7917
同梵行者	-11.7918
艱	-11.7918
簡	-11.7918
各各自相謂言	-11.7918
極大久遠	-11.7919
捕魚	-11.7919
壽四萬歲	-11.7919
化生龍	-11.792
是無量空處成就遊	-11.792
卑劣	-11.792
極重甚苦	-11.792
耳聞聲	-11.792
馳散	-11.792
遊步	-11.7921
在舍衛國祇樹給孤獨園	-11.7921
正智心善解脫	-11.7921
熟酥	-11.7921
知苦滅道如真	-11.7921
嫌恨	-11.7921
之所致也	-11.7921
畔	-11.7921
一心聽	-11.7921
便失定	-11.7921
於一面住	-11.7921
默然不語	-11.7922
貴賤	-11.7922
尊者沙門二十億	-11.7922
僧坊	-11.7922
自今以後	-11.7923
憒亂	-11.7923
覺彼心而	-11.7923
二因二緣	-11.7923
拘牟頭	-11.7923
唯願聽許	-11.7923
習白衣行	-11.7923
能轉趣涅槃	-11.7923
卷第九	-11.7924
外六入處	-11.7924
長爪	-11.7924
拘牟陀華	-11.7924
能善於大人相法	-11.7924
如愚如	-11.7924
生惡趣泥犁中	-11.7925
壽命長短	-11.7925
以刀自殺	-11.7925
波遮悉多羅那	-11.7925
知此苦滅道如真	-11.7925
渴乏	-11.7925
為水所漂	-11.7926
熱惱大地獄	-11.7926
入室坐禪	-11.7926
恭奉	-11.7926
高聲唱	-11.7927
如偈所說	-11.7927
癰本	-11.7927
持此功德	-11.7927
下車步進	-11.7927
悒	-11.7927
流馳	-11.7927
世尊漸與	-11.7927
知此苦習	-11.7927
意之所念	-11.7927
不染不著	-11.7927
李	-11.7928
宿罪	-11.7928
心不捨瞋恚	-11.7928
何緣男子女人	-11.7928
今附秦錄	-11.7928
遍滿成就遊	-11.7928
得最上潔白	-11.7929
得清淨真實中住	-11.7929
不善與苦果受於苦報	-11.7929
知此苦滅	-11.793
四十億眾	-11.793
愛己	-11.793
收攝衣鉢	-11.793
無因無緣	-11.7931
破骨	-11.7931
時已到	-11.7931
真人法	-11.7931
出入想知滅定	-11.7932
大臣雨勢	-11.7932
俱薩羅	-11.7932
禘婆達兜	-11.7932
復有階道至	-11.7932
其本縱廣	-11.7932
根原	-11.7933
文字	-11.7933
是謂聖弟子得	-11.7933
大德大力	-11.7934
行於無事	-11.7934
善男子難陀	-11.7934
乃至不受後有	-11.7934
名稱遠聞	-11.7935
無有疑	-11.7935
生聞梵志復問	-11.7935
尊卑	-11.7936
因彼故	-11.7936
勿造斯觀	-11.7937
如是修習念身	-11.7937
受夏坐訖	-11.7938
當知是沙門	-11.7938
出房	-11.7938
於學地	-11.7938
炎摩天	-11.794
乘不具足	-11.7941
深達	-11.7941
到彼岸	-11.7942
惡不善之念	-11.7942
與無央數	-11.7943
由旬一倍有	-11.7943
我今稽首禮	-11.7944
諸河流行	-11.7944
能斷貪欲	-11.7945
今此眾中	-11.7946
如實不知	-11.7946
大眾之中	-11.7947
如是不久當得	-11.7948
欲貪斷	-11.7948
泉水	-11.7948
山野	-11.795
當起增上	-11.795
善隨從	-11.7951
華葉	-11.7952
開化	-11.7953
故稱第一	-11.7954
諸仁者	-11.7954
三百由旬	-11.7956
有異婆羅門	-11.7956
而求出家	-11.7956
勿起是	-11.7957
依怙	-11.7957
好床	-11.7957
我今為汝說	-11.7957
兒息	-11.7962
▁1(1	-11.7963
端坐	-11.7964
色不具足	-11.7965
於近處	-11.7965
維耶	-11.7965
竟夜	-11.7967
輕重	-11.7968
變現	-11.797
種德婆羅門	-11.797
猶若如	-11.7971
行不慢	-11.7973
七十二	-11.7974
乃至尊者大目犍連	-11.7974
得增上心	-11.7974
拘利	-11.7974
斷酒	-11.7975
銀粟	-11.7975
黑繩地獄	-11.7976
迴向	-11.7977
終日	-11.7977
精勤思惟	-11.7978
令得安樂	-11.7978
怨恨	-11.7981
穢污心	-11.7982
撲著	-11.7983
之頃	-11.7983
許可	-11.7984
善能分別	-11.7984
光所照	-11.7985
而於後時	-11.7986
不隨使使	-11.7987
化作弟子	-11.7988
兩眼	-11.7988
世尊過夜平旦	-11.799
當於是時	-11.7991
地獄卒	-11.7993
欲為不淨	-11.7994
彼心修習	-11.7994
悉皆具足	-11.7996
善訶	-11.7997
成辦	-11.7998
相續生	-11.7998
無害念	-11.8
不隨使死	-11.8
為心結	-11.8002
化生金翅鳥	-11.8002
勿憂	-11.8003
方便修習	-11.8003
誠如	-11.8006
至如來所	-11.8008
紫金	-11.8009
正法治化	-11.8011
無學地	-11.8012
身不淨行	-11.8012
師子長者	-11.8012
舉頭	-11.8014
佛復告曰	-11.8015
取彼眾生	-11.8016
營生	-11.8017
央掘魔羅復	-11.802
諸有情	-11.802
河流	-11.8024
我此識身及外境界一切相	-11.8024
。」「『	-11.8026
摩尼珠	-11.8026
作惡業	-11.8033
人仙	-11.8037
此道受	-11.8039
何益	-11.8043
彼比丘作是念	-11.8044
極小	-11.8044
白黑	-11.8045
下置	-11.8048
今此世間	-11.8051
入不用處	-11.8051
燈火	-11.8051
三部	-11.8053
不憍恣	-11.8054
頭痛	-11.8055
作如是想	-11.8055
修七覺意	-11.8059
天人世間	-11.806
正見業	-11.8062
乃至七日	-11.8062
觸生愛	-11.8062
長者舍	-11.8065
無量善法	-11.8066
然不受	-11.8066
心正解脫	-11.8073
不稱彼	-11.8074
阿耨達池	-11.8078
苦治	-11.8079
說如是法	-11.808
欲破壞	-11.808
此間人	-11.808
一切入處	-11.8083
在耆闍崛山	-11.8083
面相	-11.8085
心念言	-11.8087
舒手	-11.8091
求實	-11.8093
汝波旬	-11.8094
離欲解脫	-11.8096
在上坐	-11.8096
差摩	-11.8097
現法後世	-11.8098
悲哭	-11.8099
夜則	-11.811
告御者	-11.8112
毘舍佉優婆夷聞	-11.8113
勸人	-11.8113
如是我法	-11.8114
二沙彌	-11.8122
往世尊所	-11.8123
不墮三惡趣	-11.8125
所敬重	-11.8128
法法相	-11.813
親近供養	-11.8132
心意識	-11.8133
豈能	-11.8134
入母胎	-11.8137
之像	-11.8141
無所有處天	-11.8143
議論	-11.8145
善心解脫	-11.8146
具分別	-11.8149
我一向記	-11.8155
諸君	-11.8155
第一禪	-11.8159
四百由旬	-11.816
阿難對言	-11.816
有念有	-11.8164
罪報	-11.8165
不善心	-11.8165
疑使	-11.8166
眾花	-11.817
得苦盡	-11.8171
遙見佛	-11.8187
如實見	-11.8188
無常者是苦	-11.819
令致	-11.8195
當于	-11.8195
種種鳥	-11.8197
今此所來	-11.8198
美妙	-11.8205
今此比丘	-11.8205
冷水	-11.8207
為冷	-11.8214
八萬四千馬	-11.8214
空舍	-11.8215
謂殺生	-11.8218
出母胎	-11.8218
少光	-11.822
施安	-11.8224
我今以此	-11.8224
銅器	-11.8226
皆以七寶	-11.8232
我法中	-11.8235
鹿野園中	-11.8245
不休息	-11.8254
樂閑居	-11.8266
於中若有	-11.8268
目乾連比丘	-11.8268
豈可	-11.8269
隨法行	-11.827
自境界	-11.827
同趣	-11.8273
頭陀行	-11.8275
手脚	-11.8281
佛及比丘僧	-11.8287
得供養恭敬	-11.8289
域	-11.8292
四大身	-11.8297
命自活	-11.8298
思惟分別	-11.8299
其妻	-11.8302
捨棄	-11.8308
世尊食已	-11.8311
受教誡	-11.8311
純金	-11.8312
諸罪人	-11.8314
解此義	-11.8315
還歸本	-11.8317
1)	-11.832
傾動	-11.832
脣口	-11.8325
亦非沙門	-11.8328
得善解	-11.8329
花香	-11.8338
為友	-11.8341
有四輩	-11.8343
河兩岸	-11.8348
鐵鉗	-11.8351
悉來集	-11.8358
說三受	-11.8359
頗見	-11.8364
講說	-11.8365
所欺	-11.837
幼小	-11.8379
毘舍離國	-11.8385
此小兒	-11.8393
善守護	-11.8395
鬘樹	-11.8406
無欲念	-11.8415
通證	-11.8416
知其意	-11.842
有大樹	-11.8427
佛住毘舍離	-11.8433
復告比丘	-11.8436
百分	-11.8442
隨所知	-11.8444
第一之德	-11.8448
行此道	-11.8453
我為汝等	-11.846
所不喜	-11.847
行法者	-11.847
紅	-11.8471
亦知彼天	-11.8487
應器	-11.8495
日增	-11.8498
唱令	-11.8505
如來出現世	-11.8508
蓋覆	-11.8524
臣白王	-11.8526
地獄罪	-11.8526
3)	-11.8527
第十一	-11.853
七月	-11.8534
貪欲瞋恚	-11.8544
技術	-11.8548
復何緣	-11.8551
正法律	-11.8555
能令得沙門	-11.8578
轉輪	-11.8581
十日	-11.8584
百八	-11.8589
八萬四千象	-11.859
諸惡法	-11.859
被服	-11.8591
意志	-11.8596
自養	-11.8598
閻羅	-11.8598
彼所起	-11.8605
作如是知	-11.8606
敬奉	-11.861
天光明不如	-11.8612
以三事	-11.8612
魔境界	-11.8613
離綺語	-11.8614
嚴四兵	-11.8614
朱利槃特	-11.862
結所繫	-11.862
花葉	-11.8627
受我教	-11.8628
安那般那念	-11.8629
懷憂	-11.863
亦作是說	-11.8632
年二十	-11.8633
九字	-11.8636
卷第七	-11.8638
有一人來	-11.8639
有智慧者	-11.864
無差別	-11.864
護覺意	-11.8645
阿那含不如施	-11.8648
攀緣識住	-11.8652
自隱	-11.8652
漢	-11.8653
千兩金	-11.8653
併	-11.8653
考掠處	-11.8654
獺	-11.8654
栖	-11.8656
拔箭	-11.8656
歌詠	-11.8656
涌沸	-11.8658
豪姓	-11.8659
獵	-11.8659
色離如實知	-11.8659
橋梁	-11.866
循	-11.866
槃頭	-11.8661
不知出要	-11.8661
把	-11.8662
撓	-11.8662
宰	-11.8663
何其速哉	-11.8663
危脆	-11.8663
茲	-11.8663
自放恣	-11.8664
放蕩	-11.8665
如實無間等	-11.8665
甚姝好	-11.8666
賢善偈及以義	-11.8666
毘摩質多	-11.8666
不長不短	-11.8666
尼羅浮	-11.8666
鼻知香	-11.8667
魚鼈	-11.8667
鄰	-11.8667
拄	-11.8667
糞屎	-11.8668
可得久住	-11.8668
西壁	-11.8669
叵	-11.8669
悶絕	-11.8669
忻	-11.867
為善得善	-11.867
七日出時	-11.867
疲倦	-11.867
輔相大堅固婆羅門	-11.867
鉢囉	-11.867
無上正真之道	-11.867
辜	-11.8671
於如來所出家修梵行	-11.8671
弊宿	-11.8671
彫	-11.8671
不賤他	-11.8671
屈伸臂頃	-11.8672
選	-11.8672
聖法印	-11.8672
出興于世	-11.8672
撫	-11.8672
耽	-11.8672
師子吼而吼	-11.8673
大善利	-11.8673
九十六	-11.8674
與此梵志	-11.8674
非自非他無因作	-11.8674
巴	-11.8674
施佛及隨佛大苾芻眾	-11.8674
慳貪嫉妬	-11.8674
初夜後夜	-11.8674
卷第八	-11.8675
於某處	-11.8675
我實見之	-11.8675
不了可憎行	-11.8675
過去未來現在	-11.8675
閻浮提洲	-11.8676
安詳	-11.8676
墮於惡趣	-11.8676
減損阿須倫眾	-11.8676
瀉	-11.8677
衝	-11.8677
有一種人	-11.8677
靈鷲山	-11.8677
法法觀念處	-11.8677
世尊弟子眾善趣向	-11.8677
取滅則有滅	-11.8678
斬截	-11.8678
狐狼	-11.8678
剛強	-11.8678
牟	-11.8678
縣	-11.8678
說種種法	-11.8678
憔悴	-11.8678
清信女	-11.8678
螺聲	-11.8678
若能爾者	-11.8678
唯佛能知	-11.8678
賢聖八道	-11.8679
隨魔自在	-11.8679
非想非非想	-11.8679
摩羅迦舅	-11.8679
此大沙門不能消食	-11.8679
捨世貪憂	-11.8679
衰減	-11.8679
主藏臣寶	-11.8679
阿臈鬼	-11.8679
剖	-11.8679
圓光	-11.868
尸利沙	-11.868
不由於他	-11.868
下有園觀浴池	-11.868
跋陀羅	-11.868
夜摩諸天	-11.868
精神	-11.8681
轉輪王欲試	-11.8681
振	-11.8681
伺求其便	-11.8682
敘	-11.8682
於世尊法得無所畏	-11.8682
行滅則識滅	-11.8682
於大眾前敷座而坐	-11.8682
從我學梵行	-11.8682
良藥	-11.8682
思惟死想	-11.8682
省察	-11.8682
隆	-11.8683
肺	-11.8683
其水涼冷	-11.8683
梨犀達多	-11.8683
竊盜	-11.8684
脩	-11.8684
大火聚	-11.8684
求免脫	-11.8684
兜瑟哆天	-11.8684
盈滿	-11.8684
迷亂	-11.8684
肌肉	-11.8685
鉢陀摩	-11.8685
乃至蜫蟲	-11.8685
拾	-11.8685
滓	-11.8685
軸	-11.8685
獼猴池側重閣講堂	-11.8685
以何事故	-11.8685
揈	-11.8685
障蔽	-11.8685
娑婆世界主梵天王	-11.8685
欝多囉究留洲	-11.8685
潔淨	-11.8686
陸生花	-11.8686
▁13	-11.8686
屋宅	-11.8686
善住大龍象王	-11.8686
舉罪比丘	-11.8686
幻術	-11.8686
喙	-11.8686
不增不減	-11.8686
從法化生	-11.8686
佛遊拘樓瘦	-11.8686
我般涅槃後	-11.8687
識滅則名色滅	-11.8687
入羅閱城乞食	-11.8687
却敵	-11.8687
有欲界人身四大諸根	-11.8687
從座而起	-11.8687
五百由旬小地獄中	-11.8687
夜過晨朝	-11.8687
憎嫉惱	-11.8687
瑟曇	-11.8688
著袈裟	-11.8688
默然受已	-11.8688
澡手	-11.8688
此法無諍	-11.8688
恤	-11.8688
勤修齋戒	-11.8688
後悔無益	-11.8688
臨終	-11.8688
波羅牢伽彌尼	-11.8688
知此漏	-11.8689
乃至最後寒氷地獄	-11.8689
掣	-11.8689
ha	-11.8689
牛師子園	-11.8689
拼度	-11.8689
蚊	-11.8689
療治	-11.869
明行具足	-11.869
兒子	-11.869
歸命比丘僧	-11.869
呵罵	-11.869
聞斯語	-11.869
緣種種界生種種觸	-11.869
右脇而臥	-11.869
無休息	-11.8691
那羅聚落	-11.8691
針毛鬼	-11.8691
枝條	-11.8691
為原首	-11.8692
嫁女	-11.8692
勸進	-11.8692
福貴	-11.8692
除鬚髮	-11.8692
得人四種如意之德	-11.8692
逆順	-11.8692
俱而受	-11.8692
優多羅摩納	-11.8693
在如來前坐	-11.8693
頂生聖王	-11.8693
家家乞食	-11.8693
猗覺意	-11.8693
兜率哆天	-11.8693
周圍	-11.8693
無知無見	-11.8693
相和而鳴	-11.8694
金鈴	-11.8694
亦常讚歎	-11.8694
復以此偈報	-11.8694
著五納衣	-11.8694
大如車軸	-11.8694
迦葉復	-11.8694
心終不著	-11.8694
羸劣	-11.8694
諷誦讀	-11.8694
乃至無數眾鳥相和	-11.8695
提婆達兜愚人	-11.8695
久不來此	-11.8695
多銅釜	-11.8695
敷床座	-11.8695
硨𤦲	-11.8695
大人八念	-11.8695
婆羅豆婆遮婆羅門	-11.8695
如其正受	-11.8696
拘摩羅	-11.8696
耆域	-11.8696
未生惡不善法	-11.8696
身至梵天	-11.8696
於色生厭	-11.8697
緣自覺知	-11.8698
曩昔	-11.8698
意無憂慼	-11.8698
莫令增長	-11.8698
善現苑	-11.8698
尊祐	-11.8699
聖八支齋	-11.8699
阿蘭若	-11.8699
世尊告一比丘	-11.8699
調亂	-11.8699
亦煎亦	-11.8699
鹿頭	-11.8699
觸之猶如迦旃隣提衣	-11.8699
具受眾苦	-11.87
廣博	-11.87
六五四三二	-11.87
為諸比丘所	-11.87
梵輪	-11.87
內所攝	-11.87
賢者離越哆	-11.87
有如無	-11.8701
旋轉	-11.8701
小千世界	-11.8701
城中治化	-11.8701
脹	-11.8702
御床	-11.8702
亦當恭敬	-11.8702
棘刺	-11.8702
除去五飾	-11.8702
大天㮈林	-11.8702
世間諦如有	-11.8702
菴羅女	-11.8702
陀驃比丘	-11.8703
違背	-11.8703
在彼眾中	-11.8703
終不能捨	-11.8703
紅色	-11.8704
毘紐迦旃延氏婆羅門尼	-11.8704
城邑聚落	-11.8704
廣為眾生	-11.8704
現得報	-11.8704
骨節	-11.8705
釋迦文佛弟子	-11.8705
須摩竭陀池側	-11.8705
有色無色	-11.8706
十六分中	-11.8707
巨海	-11.8707
慳悋	-11.8707
我佛世尊有最	-11.8707
住無動	-11.8708
眾亂想	-11.8708
彼亦無常	-11.8708
不食肉	-11.8708
於處得心淨	-11.8709
以十五日月滿時	-11.8709
乃得出	-11.871
其數無量	-11.871
來白我	-11.871
同伴	-11.8711
導首	-11.8712
多聞聖弟子如是觀者	-11.8712
濕生金翅鳥	-11.8712
六愛身	-11.8712
色為大患	-11.8713
壯熱	-11.8713
染家	-11.8713
炎熱	-11.8714
其後亂風吹大	-11.8714
作諸功德	-11.8714
懈慢	-11.8714
尊者滿慈子	-11.8715
從想有終	-11.8715
慚力	-11.8715
安徐	-11.8715
或截其	-11.8717
開敷	-11.8717
六觸身	-11.8717
搏食	-11.8717
可憎惡	-11.8717
大幸	-11.8718
皮囊	-11.8718
骨肉	-11.8718
而白我	-11.8718
五百人俱	-11.8719
優毘迦葉	-11.8719
於諸法中	-11.872
隨意自在	-11.872
是為垢穢	-11.8721
大鐵圍山	-11.8721
猶如有人欲得	-11.8721
大腸	-11.8722
一旦	-11.8722
智者之所	-11.8723
近著行	-11.8724
成就天眼	-11.8724
禮拜供養	-11.8724
生彼間	-11.8724
盜他	-11.8726
緣受有有	-11.8726
毘羅比丘尼	-11.8726
一坐而食	-11.8726
攝守	-11.8727
白尊者摩訶迦旃延	-11.8728
烟起	-11.8729
在佛前	-11.8729
食自然粳米	-11.873
可敬可	-11.873
當修四念處	-11.8731
有賊來	-11.8731
共愛敬	-11.8731
安隱之處	-11.8732
大長者家	-11.8732
而受夏坐	-11.8732
大苦陰	-11.8733
有善利	-11.8734
思惟此義	-11.8734
淨光天	-11.8735
噉食	-11.8735
謂五受陰	-11.8735
勇猛精進	-11.8736
性命	-11.8737
三十日	-11.8737
我於今日	-11.8737
虛誑	-11.8738
棄結	-11.8739
聞我所說	-11.874
佛悲愍	-11.8741
惡露不淨	-11.8741
割其	-11.8743
有七種	-11.8744
經七日	-11.8744
過其上	-11.8745
亦當修習	-11.8745
即以神足	-11.8745
胎生金翅鳥	-11.8748
知見清淨	-11.8748
欲令我得	-11.875
九月	-11.8752
不離渴	-11.8753
付授	-11.8756
婆羅門長者居士	-11.8758
教人不殺	-11.8759
以是當知	-11.876
六入滅	-11.8761
佛告目連	-11.8762
大洲	-11.8763
諸相師	-11.8763
廣說乃至	-11.8766
七重寶	-11.8768
非一義	-11.8768
悉知之	-11.8769
諸疑惑	-11.877
流河	-11.8772
著新	-11.8773
後不復	-11.8777
阿梨吒比丘	-11.8778
收取	-11.8781
唯聖	-11.8781
苦毒	-11.8781
惟觀	-11.8782
上士	-11.8785
眾鳥	-11.8786
亦應如是	-11.8789
此是何等	-11.8792
果林	-11.8793
八方	-11.8795
尊那	-11.8797
汝等苾芻	-11.8799
故彼起	-11.8799
水性	-11.8799
久存	-11.88
尊者阿那律陀白	-11.8801
亦不如是說	-11.8801
悉了知	-11.8803
要令	-11.8803
報恩	-11.8808
有五受陰	-11.8809
作如是問	-11.8811
都盡	-11.8812
以手摩	-11.8814
未竟	-11.8817
此是小	-11.8818
設方便	-11.8822
不惑不	-11.8822
無有堅固	-11.8824
伏婬	-11.8827
土石	-11.8828
汝等應當如是	-11.8831
大釜	-11.8832
為他說法	-11.8832
憍慢婆羅門	-11.8833
降神	-11.8836
一切天人	-11.8838
扇大海	-11.8838
修慈	-11.8841
至無事處	-11.8845
當觀是	-11.8849
問其所	-11.8852
無學人	-11.8855
二十五	-11.8856
是名第三	-11.8858
梵行久	-11.886
是為初	-11.8863
自貴	-11.8866
血塗	-11.8869
未來事	-11.8869
受如是苦	-11.8871
迴還	-11.8873
鐵地	-11.8879
有㷿	-11.8879
無學戒	-11.8883
勿使	-11.8884
無有虛妄	-11.8886
履行	-11.8895
諸支節	-11.8901
無他世	-11.8902
大雲	-11.8904
當發心	-11.8907
諸弟子恭敬	-11.8909
逮得於	-11.8909
通徹	-11.891
非常想	-11.8912
鐵釘	-11.8923
如汝所	-11.8926
得道真	-11.8926
雨七寶	-11.8926
無學正見	-11.893
雖有此	-11.8933
杖捶	-11.8936
多聞聖弟子作如是	-11.8941
彼地獄眾生	-11.8945
能降	-11.8961
十一事	-11.8963
改悔	-11.8964
緣起法	-11.897
限量	-11.8972
可厭	-11.8982
受欲樂	-11.8982
中庭	-11.8987
祖	-11.8991
其邊際	-11.8992
各不相	-11.8999
起烟	-11.8999
彼等諸	-11.9001
婆耆	-11.9002
住四念處	-11.9003
信敬	-11.9003
若於受	-11.9011
自在天子	-11.903
於宮中	-11.9033
若有來問	-11.9043
三法度	-11.9047
向所說	-11.9047
於靜室	-11.9051
「『	-11.9058
地皮	-11.9061
無遺餘	-11.9062
更莫	-11.9062
志在	-11.9066
為大祀	-11.9075
異忍	-11.9088
一千由旬	-11.9094
巧師	-11.9102
疑難	-11.9102
去不久	-11.9114
離不如實知	-11.9115
復觀此	-11.912
自覺成	-11.9125
放光	-11.9131
最重	-11.9161
諸結使	-11.917
口及意	-11.9171
相助	-11.9174
度一切無量識	-11.9177
何等五	-11.9177
復以偈	-11.9182
如來及比丘僧	-11.9187
竟不得	-11.9191
從佛受	-11.9193
憂悲苦	-11.9195
栴	-11.9204
閻浮利地	-11.9212
此四聖諦	-11.9216
得法眼	-11.9219
二萬里	-11.9222
四倒	-11.9237
四種寶	-11.925
汝於今	-11.9251
大果報	-11.9253
當獲	-11.9255
自知自覺自作證	-11.9262
非人所造	-11.9264
吾當為汝分別	-11.9266
自存	-11.9272
當不有	-11.9275
波斯匿	-11.9286
謂四聖諦	-11.9289
拔髮	-11.9297
著一面	-11.9301
非常非無常	-11.9315
漏盡意解	-11.9318
從是起	-11.9319
世人所不	-11.9324
告諸比丘尼	-11.9331
聖諦未無間等	-11.9334
愁惱	-11.9337
思惟觀察	-11.9345
如所聞	-11.9352
勝進	-11.9354
斯由精勤	-11.9358
有五因緣	-11.9362
大慈	-11.9363
得作沙門	-11.9369
離渴	-11.9375
三善根	-11.9376
紫	-11.9379
水洗	-11.9384
靡	-11.9386
至觀覺	-11.9394
稚	-11.9404
依一林	-11.9405
鑊中	-11.9409
滅此法	-11.9413
烟火	-11.9426
往問訊	-11.9426
爛壞	-11.9434
不作福	-11.9435
勿怖	-11.944
瞿陀尼	-11.9445
揩	-11.9446
得四禪	-11.9454
二由旬	-11.9454
能救	-11.9455
國富	-11.9459
癡冥	-11.9459
生長增廣	-11.9469
未生欲漏而	-11.9471
城中人民	-11.9474
四色蓮華	-11.9475
孰	-11.9476
雲雷	-11.9477
佉提羅迦	-11.948
精進覺意	-11.9481
當修五力	-11.9482
水為之開	-11.9485
跋地羅帝偈及其義	-11.9485
大眾圍遶	-11.9486
魯醯遮婆羅門	-11.9486
以譬喻得解	-11.9487
藤	-11.9487
廣演	-11.9487
小床	-11.9487
絺	-11.9488
焰摩迦	-11.9488
而闍維之	-11.9488
因色勝如	-11.9489
彼一切從愚癡	-11.9489
當修七覺支	-11.9489
若比丘有信	-11.9489
偷婆	-11.949
自出意治國	-11.9491
弗迦娑	-11.9492
憹	-11.9493
為我略說法要	-11.9494
阿耆毘	-11.9494
彼第二人	-11.9494
磧	-11.9494
流惱熱憂	-11.9495
如至誠知	-11.9495
當來受樂報	-11.9496
當來亦受樂報	-11.9496
阿僧祇	-11.9496
何等為痛癢	-11.9497
諷	-11.9497
控	-11.9497
皆燋	-11.9499
欲令熟者	-11.9499
霧	-11.9499
戰慄	-11.9499
擬	-11.95
近食	-11.95
當來受苦報	-11.95
剛	-11.95
跳	-11.95
棒	-11.95
崖	-11.9501
號咷	-11.9501
狐	-11.9501
兔	-11.9501
若慧弟子	-11.9501
祇桓	-11.9501
多陀阿伽度	-11.9502
捨此惡見	-11.9502
維耶離	-11.9502
芻	-11.9502
受極嚴苦	-11.9502
其食少者	-11.9502
洋	-11.9502
詵陀迦旃延	-11.9503
繁	-11.9503
恭恪	-11.9503
尻亦食	-11.9503
捫	-11.9503
蔓	-11.9504
償	-11.9504
未滅未	-11.9504
禾	-11.9504
群鹿	-11.9504
芬	-11.9504
怕	-11.9505
當修五根	-11.9505
閙	-11.9505
莊挍	-11.9505
擘	-11.9505
辛	-11.9505
餉	-11.9505
膊	-11.9506
自貴賤他	-11.9506
歌聲	-11.9506
從何處來	-11.9506
否	-11.9506
王子須菩提	-11.9506
檢	-11.9507
識緣名色	-11.9507
於諸世間都無所取	-11.9507
無量色是神施設而施設	-11.9507
蜇	-11.9507
異學哺羅陀子	-11.9507
魔王眷屬所不至處	-11.9507
奏	-11.9508
鬱	-11.9508
倡妓及往觀聽	-11.9508
忍不令退	-11.9508
如力士屈伸臂頃	-11.9508
兵杖	-11.9508
趣於涅槃	-11.9508
汝聞越祇	-11.9508
守護從解脫	-11.9509
無有窮盡	-11.9509
當修四如意足	-11.9509
泥羅浮陀	-11.9509
昇正殿	-11.9509
倉	-11.9509
槍	-11.951
詰責	-11.951
稱揚	-11.951
靡所不	-11.951
八萬四千眾	-11.951
作光明想	-11.951
佛住毘舍離獼猴池側重閣講堂	-11.951
禿	-11.951
椎胸	-11.951
究竟邊際	-11.951
窓	-11.9511
從黑雲沙	-11.9511
此人善法滅	-11.9511
定覺意	-11.9511
燒胃	-11.9511
而世尊今教我斷	-11.9511
彼有智者作	-11.9511
策慮	-11.9511
無苦無樂	-11.9511
如實而不知	-11.9512
險	-11.9512
鮮明	-11.9512
意觸入處	-11.9512
龍及金翅鳥	-11.9512
導引	-11.9512
緒	-11.9512
婆迦梵	-11.9512
費	-11.9512
聽我於正法中為優婆塞	-11.9513
屈伸低	-11.9513
堅強	-11.9513
樂聞法	-11.9513
眼觸入處	-11.9513
彈指頃	-11.9513
不來此世	-11.9513
無恨心	-11.9514
見法自知作證	-11.9514
聽乃敢陳	-11.9514
恡	-11.9514
擗	-11.9514
發歡喜之心	-11.9514
亦是識止處從是習	-11.9514
已得如是定心	-11.9515
精氣	-11.9515
隨汝意	-11.9515
沸伽羅娑羅婆羅門	-11.9515
不白不黑	-11.9515
久住於世	-11.9516
閻浮里內	-11.9516
等長夜輪轉生死	-11.9516
守護意根	-11.9516
南枝	-11.9516
鵠	-11.9516
即其日	-11.9516
緣取有	-11.9516
亦當知受何行令	-11.9516
善知識共和合	-11.9516
朽邁	-11.9516
族姓之子	-11.9516
對所牽	-11.9517
未曾憶	-11.9517
毘舍羅婆如來	-11.9517
黨	-11.9517
乃至純大苦聚滅	-11.9517
與自發露律	-11.9517
到已禮世尊足	-11.9517
則我身是	-11.9517
野狐	-11.9517
當修四禪	-11.9517
骨髓	-11.9517
見法般涅槃	-11.9517
跛	-11.9518
行已則受	-11.9518
妾	-11.9518
忿恨	-11.9518
自稱姓名	-11.9518
火㷿	-11.9518
於所聞法	-11.9518
耶若達	-11.9519
有目之士	-11.9519
於四城門	-11.9519
水澆頭種	-11.9519
摩佉	-11.9519
寒地獄	-11.9519
七世以來父母	-11.9519
參議	-11.9519
大弟子等	-11.9519
裁	-11.9519
膖脹	-11.952
三事和合生	-11.952
聖人所習	-11.952
埋	-11.952
不樂故解脫	-11.952
狂亂	-11.952
一由延	-11.952
無瑕	-11.952
塼	-11.952
在世尊後	-11.952
有想無想處天身	-11.952
祇夜	-11.952
頗羅墮	-11.952
當修四正斷	-11.952
若干種木	-11.952
佛在釋翅	-11.9521
沼	-11.9521
生極快樂	-11.9521
尼拘留	-11.9521
重一迦利沙	-11.9521
族姓子剃除鬚髮	-11.9521
所居之處	-11.9521
與善知識從事	-11.9521
點	-11.9521
無常苦想	-11.9521
萬倍	-11.9521
竪立	-11.9521
是佛性	-11.9521
係	-11.9522
萬民	-11.9522
趣向滅戲道跡	-11.9522
m	-11.9522
鞍	-11.9522
交通	-11.9522
內有色想	-11.9522
懷姙	-11.9522
𦝩	-11.9522
調柔	-11.9523
甚為難	-11.9523
波婁沙	-11.9523
我弟子中第一	-11.9523
涎	-11.9523
吾當為汝廣分別	-11.9523
形體不具足	-11.9523
念不錯亂	-11.9523
現法樂住	-11.9524
決定正向	-11.9524
寂寞	-11.9524
富留那	-11.9524
斷一切欲愛	-11.9524
腳	-11.9524
得度世道	-11.9524
九孔	-11.9525
當修八支聖道	-11.9525
八大人念	-11.9525
出要為樂	-11.9525
叫喚地獄	-11.9525
心驚毛竪	-11.9525
二百五十戒	-11.9525
朗	-11.9525
凶暴	-11.9525
燒齗	-11.9525
伊沙陀羅	-11.9526
二十五年	-11.9526
y	-11.9526
說梵世法	-11.9526
皮膚	-11.9526
拘屢孫如來	-11.9526
肪	-11.9526
低沙	-11.9526
所傷	-11.9526
莫不歡喜	-11.9526
於沙門瞿曇所出家修梵行	-11.9526
銅釜中	-11.9526
如來知一人意之所念	-11.9526
拔祇國	-11.9527
鸚鵡摩納都提子	-11.9527
女妓	-11.9527
瓶沙王	-11.9527
婬妷	-11.9527
睡眠纏	-11.9527
陶師	-11.9527
到世尊所	-11.9527
映障	-11.9527
亦不有想亦不無想	-11.9527
其林縱廣	-11.9527
懷忿	-11.9528
作衣竟	-11.9528
其最小者	-11.9528
破碎	-11.9528
鉢曇摩	-11.9528
兵將寶	-11.9528
世雄	-11.9528
所以族姓子剃除鬚髮	-11.9528
吒鵂	-11.9528
強記	-11.9528
雪山夜叉復	-11.9528
愛緣取	-11.9529
錢寶	-11.9529
皆由前世	-11.9529
厥	-11.9529
尸舍婆林	-11.9529
交接	-11.9529
販賣	-11.9529
關閉	-11.9529
從根本治	-11.9529
黃蓮華	-11.953
諸小天王	-11.953
乾沓惒	-11.953
富隣尼	-11.953
陶屋	-11.953
悔過此說	-11.953
鹿住優婆夷	-11.953
不得無上安隱涅槃	-11.953
提惒達哆	-11.9531
雞頭梵志	-11.9531
知此漏習	-11.9531
猥多	-11.9531
諸漏不盡	-11.9531
彈指	-11.9531
帝穌嚕	-11.9531
梵摩渝	-11.9531
有身滅道跡	-11.9531
今為鉢和蘭	-11.9532
婢使	-11.9532
當鑿山	-11.9532
反覆	-11.9532
二十里	-11.9532
昇進得止息處	-11.9532
隨順教	-11.9532
頭生白髮	-11.9532
觀覺興衰	-11.9533
惰	-11.9533
無有瑕穢	-11.9533
有樓櫓却敵臺閣	-11.9533
耶若達梵志	-11.9533
右脇著地	-11.9534
後當說	-11.9534
阿夷羅婆提	-11.9534
歎未曾有	-11.9534
誰當信	-11.9534
東海	-11.9534
今我此身	-11.9534
捨此住止	-11.9534
知此漏滅	-11.9534
此義於我	-11.9535
行已足	-11.9535
自然出生	-11.9535
充滿其中	-11.9535
伊沙陀羅山	-11.9535
給恤	-11.9536
羅網懸	-11.9536
成就於佛不壞淨	-11.9536
佛在羅閱城	-11.9536
教人令行	-11.9536
無有形相	-11.9536
為人演說	-11.9537
云何名優婆塞	-11.9537
著鎧持仗	-11.9537
六畜	-11.9537
運集	-11.9537
興四種軍	-11.9538
如桃華色	-11.9538
有八未曾有法	-11.9538
閉口姓	-11.9538
如說修行	-11.9538
陀那林	-11.9539
其邊無際	-11.9539
緣識有名色	-11.9539
共鬪諍	-11.9539
高七十里	-11.9539
在世尊前	-11.9539
以何方便	-11.9539
有二岐道	-11.9539
痛不可言	-11.954
閻羅言	-11.954
其心不定	-11.954
惡朋友	-11.954
外敵	-11.9541
拔刀	-11.9541
師子座	-11.9541
無有怯弱	-11.9541
共言語	-11.9541
燕坐思惟	-11.9542
當修十無學法	-11.9542
貪欲纏	-11.9542
色是無常	-11.9542
當受我請	-11.9542
漂沒	-11.9543
極為苦痛	-11.9543
半座	-11.9544
五髻	-11.9544
惟舍利國	-11.9544
彼此定	-11.9545
豔天	-11.9545
所求不得苦	-11.9545
色盛陰	-11.9545
豐足	-11.9545
稠林	-11.9546
真金色	-11.9546
自知如法	-11.9547
掌中	-11.9547
見風塵	-11.9547
與諸眷屬	-11.9547
背痛	-11.9547
閻浮洲一智慧商人	-11.9548
行法知如真	-11.9548
現在無為	-11.9548
緣無明有行	-11.9548
亦至再三	-11.9548
緣起經	-11.9549
上昇	-11.955
摩竭陀國	-11.955
讀誦	-11.955
壽命延長至	-11.9551
佛便說是	-11.9552
彼若欲得	-11.9552
在高樓上	-11.9552
蚊蚋行	-11.9552
請辭	-11.9553
娛樂其中	-11.9553
緣愛有受	-11.9554
後脚	-11.9554
不隨他	-11.9554
甚眾多	-11.9554
有大神足	-11.9555
以無數方便	-11.9556
伎兒	-11.9556
不復殺生	-11.9557
成陰陽	-11.9557
以正求	-11.9558
加害	-11.9558
住於佛前	-11.9558
皆悉了知	-11.9559
殃福	-11.9559
無量識處想	-11.9559
律儀斷	-11.9559
食地味	-11.956
以邪求	-11.956
盡能分別	-11.9561
放光明	-11.9562
乃至略說	-11.9562
布現	-11.9562
尊者跋迦梨	-11.9563
當修十一切處	-11.9564
追念	-11.9564
我曹種	-11.9565
我離受	-11.9566
我答彼	-11.9566
水精門	-11.9566
施惠	-11.9566
生老病死因	-11.9566
教誡說法	-11.9566
謂信力	-11.9567
為麤段	-11.9567
生地諸比丘	-11.9568
無瞋心	-11.9568
出家受戒	-11.9568
成就調御	-11.9569
娑羅林中	-11.9569
隱處	-11.9569
無量空處想	-11.9569
繫心住	-11.9569
智慧梵行者	-11.9569
諸業盡	-11.9569
興兵	-11.9569
案行	-11.957
不住善相應捨	-11.957
色貌	-11.957
殺害眾生	-11.9571
孔中	-11.9571
老死集	-11.9573
如來身者	-11.9574
色轉好	-11.9574
云何得滅	-11.9574
成就十一法	-11.9577
三萬	-11.9579
白珠	-11.958
陀驃摩羅子比丘	-11.9581
汝等善思念之	-11.9581
若他說	-11.9581
五里	-11.9583
頭面禮足在一面坐	-11.9584
五逆	-11.9584
應儀	-11.9585
墮於地獄	-11.9585
愚癡之人	-11.9587
其婢	-11.9587
自然而有	-11.9587
除却	-11.9587
嗜欲	-11.9588
出家之人	-11.9589
復過其上	-11.959
等七寶所成	-11.9592
出煙	-11.9593
慧得解脫	-11.9594
無有邊際	-11.9595
諸阿修羅見	-11.9595
緣更樂	-11.9596
二恒河沙剎	-11.9597
覆蔽	-11.9597
如是最小	-11.96
不可親近	-11.9601
欲設大祀	-11.9602
舍利子	-11.9602
以防	-11.9603
而語彼	-11.9604
頭向下	-11.9605
便以手	-11.9606
短壽	-11.9609
棄家	-11.961
十月	-11.9611
不趣涅槃	-11.9612
中千世界	-11.9612
牛馬	-11.9612
乃至馬瑙	-11.9613
若本有	-11.9615
復於後時	-11.9617
戒盜	-11.9617
慈哀	-11.9617
未獲	-11.9619
修行布施	-11.962
聞佛說法	-11.9622
納衣	-11.9622
無有愁憂	-11.9622
何等為九	-11.9622
邪慢	-11.9623
難提波羅陶師離受	-11.9624
貧苦	-11.9625
於四方面	-11.9625
如尊師	-11.9626
妙華	-11.9627
若有比丘依	-11.9627
謂五欲功德	-11.9628
從禪	-11.9628
乃至得阿羅漢	-11.9632
唯佛世尊	-11.9632
漬身	-11.9633
神通具足	-11.9633
洗手足	-11.9634
生華實	-11.9634
敬僧	-11.9636
平等解脫	-11.9636
所作業	-11.9637
七寶之所成就	-11.964
五藏	-11.9645
心不變易	-11.9645
眼耳鼻舌身	-11.9649
自防護	-11.9652
其狀	-11.9652
無有差別	-11.9656
不善聚	-11.9659
凡夫地	-11.9662
起貢高	-11.9663
法滅故	-11.9665
跋耆人	-11.9673
城七重	-11.9673
依滅盡	-11.9675
受諸苦	-11.9679
工師受信施	-11.9686
水器	-11.9692
口行善	-11.9693
汝等亦當	-11.9696
賢劫	-11.9697
若不解脫	-11.9697
其中或有	-11.9705
無猶豫	-11.9706
得上人法	-11.971
轉更增	-11.9713
起欲心	-11.9718
何由得	-11.9723
晝夜常	-11.9743
一切有為	-11.9748
汝惡魔	-11.9754
汝等不應	-11.9754
懷慚愧	-11.9765
比丘眼見色	-11.9766
毀害	-11.9769
於過去世	-11.977
志願	-11.9779
所不及	-11.9781
修齋戒	-11.9785
過咎	-11.9787
幾因緣	-11.9792
自悔過	-11.9795
8)	-11.9798
迴車	-11.9808
尊者目連	-11.9815
禮拜問訊	-11.9817
師徒	-11.9817
聽正法	-11.9818
過夜	-11.9819
養活	-11.9826
得至彼岸	-11.9855
種種莊嚴	-11.986
不能令得	-11.9862
方宜	-11.9881
起憍慢	-11.9882
百億	-11.9883
祇樹	-11.9885
無所犯	-11.9886
及與彼	-11.9887
因此事	-11.9889
是非人	-11.989
自知證	-11.9899
1)]	-11.9906
掉心	-11.9911
5)]	-11.9912
十二萬里	-11.9917
枯樹	-11.9918
禮事供養	-11.9927
彼獄中	-11.9934
頗曾	-11.9936
養眾	-11.9938
尼連禪河側	-11.9939
百千萬歲	-11.9954
非常苦	-11.9958
法次法	-11.9977
在水上	-11.9979
剎利大姓	-11.9985
暫忘	-11.9994
截手	-11.9995
掘地	-11.9997
央	-12.0001
舍衛城中有	-12.0003
人身中	-12.0021
大寶藏	-12.0032
寶器	-12.0051
釋提桓因告	-12.0065
奉上如來	-12.0084
有人來問	-12.0088
相應偈	-12.0095
聞世尊遊	-12.0102
作是事	-12.0116
於惡道	-12.0118
至命欲	-12.0119
緣有生	-12.0125
復勅	-12.0131
第一夫人	-12.0136
當供給	-12.0162
投水	-12.0165
若人非人	-12.0173
我聲聞中	-12.0176
所來處	-12.0176
會說經	-12.0189
資財	-12.0214
肉眼	-12.0225
神足飛	-12.0225
色究竟天	-12.0252
告勅	-12.0258
兜率陀	-12.0258
六入處滅	-12.0262
雞頭	-12.0277
金幢	-12.0309
我今要當作	-12.0318
能辦	-12.033
尊者摩訶迦	-12.0331
百千年	-12.0337
馭	-12.0339
昇堂	-12.034
覺苦覺者	-12.0343
緣行識	-12.0347
世間有邊	-12.0351
所教勅	-12.0362
證者證	-12.0363
金鬘女	-12.0368
黎民	-12.0368
由延	-12.0369
人命極	-12.0369
▁1(	-12.0369
閑靜處	-12.0369
日暮	-12.037
歸依於	-12.0377
二千五百	-12.0379
撾捶	-12.0383
者作如是觀	-12.0383
阿羅漢不如施	-12.0384
何緣所生	-12.0384
蜱肆王復	-12.0385
摩訶波闍波提比丘尼	-12.0386
六百四十里	-12.039
擔負	-12.0391
寧可更增	-12.0394
三界知如真	-12.0394
壁火焰至	-12.0395
貸	-12.0395
躃	-12.0396
篤	-12.0397
維耶梨國	-12.0397
自給活	-12.0397
伴黨	-12.04
誅	-12.0401
翫	-12.0401
糩	-12.0401
婆句梵天	-12.0401
熱鐵地上	-12.0402
長衰永失	-12.0403
金粟	-12.0404
燭	-12.0404
默然而許	-12.0404
施滿閻浮場凡夫	-12.0405
與慈俱	-12.0405
入滅正受	-12.0406
得最上慧觀法	-12.0406
奧	-12.0406
黎努王	-12.0406
凍	-12.0407
冬夏	-12.0408
寢息	-12.0408
當自得之	-12.0408
時有天子名曰	-12.0408
當來亦受苦報	-12.0408
慈孝	-12.0409
阿㝹樓駄	-12.0409
住已解脫	-12.0409
淪	-12.0409
人壽十歲時	-12.0409
諸長老輩	-12.0409
􂌤	-12.041
𦟛	-12.041
獲大果	-12.0411
頂戴	-12.0411
其食多者	-12.0411
實意居士	-12.0411
此於彼施	-12.0411
我不見於過去及今現在而有別異	-12.0411
陋	-12.0411
啟王	-12.0412
捨心住正念正智	-12.0412
於現法中自身作證	-12.0412
啻	-12.0412
提頭賴吒	-12.0413
封戶	-12.0413
已生者令退	-12.0413
鞞提	-12.0413
無慙無愧	-12.0413
擿	-12.0413
迦旃隣提迦衣	-12.0413
群盲	-12.0413
不謗如來	-12.0414
貯	-12.0414
汲	-12.0414
耳知聲	-12.0415
誐	-12.0415
僉	-12.0415
銖	-12.0415
則得苦邊	-12.0415
傷歌邏摩納	-12.0415
等正覺得先佛最勝處	-12.0415
灰土	-12.0416
郡國縣邑	-12.0416
多聞聖弟子寧於中見我	-12.0416
施四方一切持鉢僧食	-12.0416
呻吟	-12.0416
梵志瞿默目揵連	-12.0416
飛騰虛空	-12.0417
珓	-12.0417
鶴	-12.0417
薰	-12.0417
五體投地	-12.0417
鷲	-12.0417
居吒奢摩	-12.0417
諸有智者	-12.0418
咄哉	-12.0418
挍飾	-12.0418
六內入處	-12.0418
囊	-12.0418
八十年	-12.0418
祝	-12.0418
優樓頻螺迦葉	-12.0418
百六十八萬里	-12.0419
謨	-12.0419
人在其上結加趺坐	-12.0419
驅逐	-12.0419
猥	-12.0419
冀	-12.0419
不望其報	-12.0419
有慚有愧	-12.0419
嚙	-12.0419
慇懃方便時救令滅	-12.0419
萬比丘皆得阿羅漢	-12.042
當於彼時	-12.042
有形之類	-12.042
雄猛	-12.042
如是過去無常	-12.042
怡	-12.042
是謂真人法	-12.0421
拘物頭	-12.0421
無罣礙	-12.0421
隨所聞法	-12.0421
金幢二婆羅門	-12.0421
珂	-12.0421
尊者弗迦邏娑利	-12.0421
從冥入冥	-12.0421
生無不死	-12.0422
躍	-12.0422
七重牆壁	-12.0422
專注	-12.0422
屈申	-12.0422
娑婆世界	-12.0422
未來現在無常	-12.0422
泥犁中罪人	-12.0422
賴吒	-12.0422
卜	-12.0422
成佛未久	-12.0422
巾	-12.0422
毗婆尸菩薩	-12.0423
化樂諸天	-12.0423
謂忿諍故	-12.0423
摩睺羅伽	-12.0423
如是正心解脫	-12.0423
屑	-12.0423
我為其說	-12.0423
是謂尊者薄拘羅	-12.0424
此得福多	-12.0424
皆正知之	-12.0424
眠寤語默	-12.0424
如來非終非不終	-12.0424
四者識食	-12.0424
費迦沙	-12.0424
一銅釜	-12.0424
罷	-12.0424
罽賓	-12.0424
若不依二三	-12.0424
鞞訶提	-12.0424
隨護斷	-12.0424
為欲愛所	-12.0424
摩頭揵	-12.0424
諱	-12.0424
從此世至	-12.0424
改往修來	-12.0424
月大城郭	-12.0425
壽五百歲	-12.0425
有五種事	-12.0425
有異比丘來詣佛所	-12.0425
施諸窮乏	-12.0425
行澡水畢	-12.0425
往詣尊者舍梨子所	-12.0425
於夏四月	-12.0425
法者應如是答	-12.0425
瓫	-12.0425
計挍	-12.0426
縱廣一由旬	-12.0426
故不如我	-12.0426
作此語已	-12.0426
於世尊略說法中	-12.0426
姨	-12.0426
煖	-12.0426
是識所住	-12.0426
其人平生	-12.0426
此外更無	-12.0427
翅甯梵志	-12.0427
齧	-12.0427
嚮	-12.0427
散如來上	-12.0427
不轉趣涅槃	-12.0427
遶三匝而去	-12.0427
和上尼	-12.0427
偏露右肩	-12.0427
兄弟二人	-12.0427
澡浴遊戲	-12.0427
是識止處已知	-12.0427
非生彼非非生彼	-12.0427
輕躁	-12.0427
隨順於法	-12.0427
廣說如前	-12.0428
空安靜處	-12.0428
過去未來現在無常	-12.0428
唯有一子	-12.0428
水精欄琉璃	-12.0428
金欄銀	-12.0428
強梁	-12.0428
㷿摩天	-12.0428
我曾生彼	-12.0428
貪瞋癡	-12.0428
親覲	-12.0428
還本國	-12.0428
識住增長	-12.0428
去來現在	-12.0429
人生子壽	-12.0429
欽	-12.0429
到已在前	-12.0429
如優曇鉢花	-12.0429
S	-12.0429
今世人	-12.0429
各次第坐	-12.0429
一乘道淨	-12.0429
未度者	-12.0429
乃至受於極嚴重苦	-12.0429
閑房	-12.0429
一日之中	-12.043
他化自轉天	-12.043
合掌問訊	-12.043
迦毘羅	-12.043
輕軟	-12.043
不癡律	-12.043
詩	-12.043
籠	-12.043
三十六物	-12.043
頭衣燒	-12.043
色界天身	-12.043
與共會	-12.043
齊此不過	-12.043
喧閙	-12.0431
l	-12.0431
滿呼王子	-12.0431
破群比丘	-12.0431
ka	-12.0431
苦無我想	-12.0431
法成就須陀洹	-12.0431
某甲	-12.0431
皺	-12.0432
象形如	-12.0432
修念覺意	-12.0432
懊憹	-12.0432
命終得生晃昱天中	-12.0432
非汝所應	-12.0432
焚	-12.0432
向涅槃之道	-12.0432
𤻀	-12.0432
墮三惡道	-12.0432
此諸善功德	-12.0432
現如是相入此舍者	-12.0432
銀鈴	-12.0433
市買	-12.0433
瞿波離比丘	-12.0433
鼉	-12.0433
桃	-12.0433
光曜	-12.0433
色緣生眼識	-12.0433
隨汝所欲	-12.0433
轉於梵輪	-12.0433
亦為有本	-12.0433
世已來父	-12.0434
深坑	-12.0434
息心靜默	-12.0434
是謂王城	-12.0434
知此漏滅道如真	-12.0434
壽八萬歲	-12.0434
戟	-12.0434
欲界天身	-12.0434
異學三部諷誦	-12.0434
迦毘羅衛國	-12.0434
尊者真迦旃延	-12.0434
厨	-12.0434
為七分	-12.0434
一道跡一向作世證	-12.0434
嫌怖	-12.0435
彼眾合大地獄中	-12.0435
後漢	-12.0435
今在何處	-12.0435
汝亦應爾	-12.0435
蔑	-12.0435
敷尼師壇	-12.0435
修擇法覺分	-12.0435
此五言道	-12.0435
住於天住	-12.0435
我亦知之	-12.0435
眠睡	-12.0435
瑁	-12.0435
可敬可貴	-12.0435
林樹間	-12.0435
如實了知	-12.0435
退走	-12.0435
還捨法服	-12.0435
除世貪憂	-12.0436
擒	-12.0436
貧匱	-12.0436
雜色車園	-12.0436
一為直見	-12.0436
在如來前	-12.0436
廣果天	-12.0436
輦輿	-12.0436
緣種種受生種種	-12.0436
我心中不生疑患	-12.0436
稍稍	-12.0436
媚	-12.0436
皮緩	-12.0436
不羞不	-12.0436
盲無目	-12.0436
必有二處真諦不虛	-12.0437
甚可畏	-12.0437
亦不有限亦不無限	-12.0437
邦土	-12.0437
令我失定而滅	-12.0437
我於路中見一大身	-12.0437
執刀自殺	-12.0437
欝多羅僧	-12.0437
無有所乏	-12.0437
不可稱記	-12.0437
垂覆五十由旬	-12.0437
受生色像寶	-12.0437
極為端正	-12.0437
施持戒人	-12.0437
生餘意生天中	-12.0437
遍布	-12.0438
即成沙門	-12.0438
在佛前坐	-12.0438
金師精舍	-12.0438
兩脚	-12.0438
己身壞死	-12.0438
當廣演布	-12.0438
宗主	-12.0438
枝葉四布五十由旬	-12.0439
失譯人名	-12.0439
演布	-12.0439
不多聞愚癡凡夫	-12.0439
即如其像三昧	-12.0439
欠拏太子	-12.0439
與汝共	-12.0439
誦法句	-12.044
五道大神	-12.044
見此眾生死時	-12.044
師子大將	-12.044
猶若天華	-12.044
裸	-12.044
無數劫事	-12.044
生滅則老死滅	-12.044
宣示	-12.044
藥叉	-12.044
能得出要	-12.0441
如是三請	-12.0441
韋提希子	-12.0441
不知厭足	-12.0441
轉增轉	-12.0441
當願我	-12.0441
醉象	-12.0441
為世尊縫衣	-12.0442
生死之海	-12.0442
未知智	-12.0442
正遍知	-12.0442
掉悔蓋	-12.0442
於此五欲功德	-12.0443
鞞羅	-12.0443
不移動心解脫	-12.0443
屋舍牆壁皆崩壞盡	-12.0443
若使有人	-12.0443
向於善趣	-12.0443
隨汝所問	-12.0443
地主大王	-12.0444
魔王波旬	-12.0444
於國於身妻子皆無他	-12.0444
復以何緣	-12.0444
我不但有是法	-12.0444
究羅帝	-12.0444
壽命極短	-12.0444
樂寂靜之處	-12.0444
見聞疑罪	-12.0445
受籌	-12.0445
便著種種具莊	-12.0445
住平等見	-12.0445
為天為人	-12.0445
飛在空中	-12.0445
改過	-12.0446
識盛陰	-12.0446
聞沙門瞿曇釋種子	-12.0446
香油	-12.0447
弗于逮天下人	-12.0447
阿支羅迦葉	-12.0447
依倚	-12.0447
須毘羅	-12.0447
悲愍	-12.0447
永無餘	-12.0447
飲食知量	-12.0447
四衢道頭	-12.0448
枯死	-12.0448
持僧伽梨	-12.0448
光明普照	-12.0448
大叫喚地獄	-12.0449
縛所縛	-12.0449
不復更求	-12.045
四正勤	-12.045
難可救	-12.045
即燒其	-12.0451
愚癡憍慢	-12.0451
勸導	-12.0451
污染	-12.0451
著意命終	-12.0452
信樂出家	-12.0452
如理宣說	-12.0452
高一由旬	-12.0453
從第四禪起	-12.0453
此則名為	-12.0453
修習安那般那念	-12.0453
戒德具足	-12.0453
倍復瞋恚	-12.0453
漏盡阿羅漢終不	-12.0454
拔濟	-12.0454
慢無間等	-12.0454
收縛	-12.0454
或居高巖	-12.0454
還至佛所	-12.0454
繫閉	-12.0455
如屈伸臂頃	-12.0455
猛火	-12.0455
我聞沙門瞿曇	-12.0455
須達長者	-12.0456
結所繫法	-12.0456
尊者婆拘盧	-12.0457
涼冷	-12.0457
大海之中	-12.0457
微雨	-12.0457
諸等心天	-12.0457
唯畏	-12.0457
復聽我說	-12.0458
二正士	-12.0458
積至于膝	-12.0458
不近境界	-12.0459
者所斷	-12.0459
作斯念	-12.046
及四種軍	-12.0461
前禮佛足	-12.0461
內自思惟	-12.0461
南方去此過	-12.0461
死怖	-12.0461
若尊者薄拘羅	-12.0462
利斧	-12.0463
主藏臣	-12.0463
如有知是時	-12.0464
曼陀吉尼池	-12.0465
宣傳	-12.0465
短命	-12.0465
荔	-12.0465
以自娛樂	-12.0466
大燒炙	-12.0466
兒婦	-12.0466
斷惡不善	-12.0467
以放逸故	-12.0467
道德弟子	-12.0468
罪人在中	-12.0468
矛刺	-12.0469
占相	-12.0469
前脚	-12.0469
等正覺出現於世	-12.0469
輕舉	-12.0469
受罪眾生	-12.047
小復前	-12.0471
悲憹	-12.0471
而令眾生	-12.0471
世尊默然而許	-12.0471
披羅門迦羅越	-12.0471
六入處集	-12.0472
平滿	-12.0472
如實知苦滅	-12.0472
陀娑比丘	-12.0472
得休息	-12.0473
增盛	-12.0473
終不得離	-12.0473
常行乞食	-12.0474
當遠離之	-12.0474
幻師	-12.0474
為不衰	-12.0475
縛束	-12.0475
若耳聞聲	-12.0476
所作惡業	-12.0477
病差	-12.0478
於現在世	-12.0478
不知慚愧	-12.0478
善見山	-12.0478
如實而知之	-12.0478
行於梵行	-12.0479
起沫	-12.048
便得光明而見色	-12.048
味甘	-12.0481
田地	-12.0481
專正	-12.0482
佉提羅迦山	-12.0483
迦尸國	-12.0483
極知足	-12.0484
善能說法	-12.0484
眷屬圍遶	-12.0484
明珠	-12.0484
殿前	-12.0484
將養	-12.0485
更不復生	-12.0486
慈母	-12.0486
南向	-12.0487
將士	-12.0488
觸嬈眾生	-12.0488
執杖釋	-12.0489
空虛	-12.049
而不懈怠	-12.049
尊者羅云	-12.0491
調馬師	-12.0494
釋梵	-12.0495
救濟	-12.0498
西向	-12.05
極堅	-12.05
不調者	-12.05
求作沙門	-12.0503
是謂第八	-12.0505
苦切	-12.0505
論士	-12.0506
供養承事	-12.0507
了叫喚	-12.0508
往見佛	-12.0509
自不殺生	-12.051
若有善男子	-12.0511
沙門釋種子	-12.0512
往反	-12.0512
樹王下	-12.0512
精勤學	-12.0513
若干好法	-12.0513
記論	-12.0514
信心清淨	-12.0515
無量無數	-12.0515
溪水	-12.0518
行如是道	-12.0518
志惟	-12.0523
若干弊惡	-12.0523
比丘眾前敷座而坐	-12.0527
漏盡通	-12.0529
假令	-12.0529
雜穢	-12.0529
水灌	-12.0529
入其舍	-12.0532
見世尊默然受請	-12.0536
如此之人	-12.054
以此因緣具白	-12.0541
優陀	-12.0544
式佛	-12.0549
依正思惟	-12.0552
香𧂐	-12.0552
寶藏如來	-12.0556
儻能	-12.0562
得是處	-12.0562
是謂成就第	-12.0567
老死滅道跡	-12.0573
於過去劫	-12.0585
思惟無常想	-12.0586
給施	-12.0592
言象如	-12.0594
王復念	-12.06
賢聖法中	-12.0603
作誓願	-12.0605
五句	-12.0606
入有想無想處	-12.0621
有梵志名	-12.0622
有瞋恚心	-12.0639
白諸上座	-12.0644
離麤言	-12.0644
嫁與	-12.0645
梵志在無事處	-12.0646
鳥獸	-12.0662
沙門瞿曇所說如	-12.0665
叫喚大地獄	-12.0667
能得消	-12.0672
聲聞中第一	-12.0681
諸闇冥	-12.0692
城乞食	-12.0692
孫陀利河	-12.0696
勝閻浮提	-12.0723
有命終者	-12.0725
在門外	-12.0728
為微細	-12.0733
6)]	-12.0739
終無此	-12.0754
大驚怖	-12.0757
與人說法	-12.0761
以翅搏	-12.0774
壘	-12.0791
大闇冥	-12.0796
重於戒	-12.0797
者內為	-12.0799
拘盧奢	-12.0806
4)	-12.0817
餘者不	-12.0836
當來無	-12.0837
獲其福	-12.0845
解悟	-12.0847
從此而	-12.0856
由何而	-12.086
離欲貪	-12.0865
手指	-12.0867
況復餘	-12.0873
聞是事	-12.0881
事務	-12.0889
念覺意	-12.0905
彼壽轉	-12.0908
十八種	-12.0909
起惡心	-12.0911
永離於	-12.0915
天路	-12.0915
著衣裳	-12.0916
大姓家	-12.0918
非兄弟	-12.0942
與汝說	-12.0957
惱熱	-12.0981
祖父	-12.0985
所從來生	-12.0995
瞻婆	-12.1
四為直	-12.1002
近惡知識	-12.1009
於世尊前	-12.1018
巧方便	-12.102
爾所福	-12.1035
頭面禮	-12.104
污戒	-12.1041
默自思	-12.1044
瑙桄	-12.1048
有一沙門梵志	-12.1053
速證涅槃	-12.1092
世有佛	-12.1098
二為直	-12.1107
快說此	-12.1141
各相謂	-12.1144
縈髮目揵連	-12.1153
般泥洹經	-12.1183
草座	-12.1189
為新學	-12.119
住不遠	-12.1196
優婆	-12.1197
十二年	-12.1208
各隨所	-12.1234
等當善受持	-12.1252
5)	-12.1276
共更增行善	-12.1278
恭敬尊重	-12.1278
轉輪聖王出現世	-12.1285
上下遍	-12.1287
最上最勝	-12.1289
毘摩質多羅阿修羅	-12.1315
鉗開	-12.1317
母真正	-12.1344
外身身觀	-12.1349
稱一處知	-12.1354
未得者得	-12.1355
陰陽	-12.1356
稠	-12.1364
如王所夢	-12.1366
曀	-12.137
是不非	-12.1373
隨意而食	-12.1376
稱一處見	-12.1377
甚深微妙	-12.1377
衢	-12.1379
飛往居吒奢摩離大樹	-12.138
上方去此過	-12.138
捫象得	-12.1382
􂌡	-12.1385
梟	-12.1385
四部之兵	-12.1391
手所擥及	-12.1391
棺斂	-12.1391
第三群鹿	-12.1392
閑靜之處	-12.1392
過是已有	-12.1392
往取香稻	-12.1393
般泥曰	-12.1394
與人共	-12.1394
意亦不在	-12.1394
得大廣報	-12.1394
治化人民	-12.1394
刀兵劫	-12.1395
鏡面王	-12.1395
我為此比丘說行無放逸	-12.1397
妓	-12.1397
輭	-12.1397
毘闍延	-12.1397
一男兒	-12.1398
無有糠糩	-12.1398
猴	-12.1398
因施主淨	-12.1399
阿摩晝	-12.1399
徐庠	-12.1399
記天必雨而	-12.14
斯非摩訶衍	-12.14
奕	-12.1401
奈女	-12.1401
彼因極重善觀	-12.1402
後世亦無化生	-12.1402
其邊無限	-12.1402
去垢極淨	-12.1402
㵎	-12.1403
月盛滿時	-12.1403
心便不向	-12.1403
那拘羅長者	-12.1403
與阿難俱	-12.1404
弗婆提	-12.1405
長阿含	-12.1405
穢惡厭患	-12.1405
第四群鹿	-12.1406
三彌離提	-12.1406
得第一座	-12.1406
持澡豆至水	-12.1406
如佛者也	-12.1406
塊	-12.1407
拒	-12.1407
生地諸優婆塞	-12.1407
邁	-12.1408
四交道	-12.1408
中央濁四邊清	-12.1408
是阿難或為行道	-12.1408
緣名色故	-12.1408
我色勝	-12.1409
月天宮殿	-12.1409
嗚	-12.1409
觝	-12.1409
在彼居止	-12.1409
舉足還復	-12.1409
靜寂	-12.1409
他方世界	-12.1409
郡縣	-12.141
以五繫	-12.141
卑陋	-12.1411
攝受心住	-12.1411
一闡提	-12.1411
所謂此有故	-12.1411
鐵臼	-12.1411
被法服	-12.1411
得多可噉食	-12.1411
百千萬倍	-12.1411
苦樂自作	-12.1412
佐助	-12.1412
潤漬	-12.1412
妬	-12.1412
娠	-12.1412
摩訶南	-12.1412
億波提	-12.1412
駄	-12.1412
寇	-12.1413
斑	-12.1413
副	-12.1413
題	-12.1413
以金鉢盛	-12.1413
悚	-12.1414
當爾之時	-12.1414
貪恚癡	-12.1414
釿	-12.1414
滅盡作證	-12.1414
受人中福	-12.1415
及餘比丘善護	-12.1415
賓伽羅	-12.1415
不放逸為本	-12.1415
右脇臥	-12.1415
儒	-12.1415
穀貴	-12.1415
無復遺餘	-12.1415
薄餅	-12.1415
不復學直	-12.1415
長夜得義饒益	-12.1415
駏	-12.1416
不轉增急	-12.1416
上漏為	-12.1416
鍊	-12.1416
受嚴切苦	-12.1416
維衛佛	-12.1416
行緣識	-12.1416
開元錄	-12.1416
如影隨形	-12.1416
須彌山頂	-12.1416
擎舉	-12.1416
羊鳴	-12.1416
誰能堪任	-12.1417
嘖	-12.1417
宿毘梨天子	-12.1417
甚可怖畏	-12.1417
沓	-12.1417
種種器仗	-12.1417
少無色是神施設而施設	-12.1417
受滅則愛滅	-12.1417
我知世尊如是說法	-12.1417
陌	-12.1417
常好布施	-12.1418
飼	-12.1418
釧	-12.1418
犍	-12.1418
王童子耆婆先那	-12.1418
刀劒	-12.1418
年百二十	-12.1418
犲狼	-12.1418
奉獻	-12.1418
如法以道求	-12.1418
頭面著地	-12.1418
默然許之	-12.1418
崩壞	-12.1418
受集道跡	-12.1418
平復如故	-12.1418
應學如是	-12.1418
欲如火坑	-12.1418
護諸根亦有	-12.1419
依彼而住	-12.1419
非天非	-12.1419
七黑山	-12.1419
隨葉佛	-12.1419
幡蓋	-12.1419
悋惜	-12.1419
鹿子母	-12.1419
是謂我於佛而有法靖	-12.1419
浪	-12.1419
施與沙門婆羅門	-12.1419
蒲	-12.142
當念戒德具足	-12.142
彼如是考治	-12.142
時時乃出	-12.142
炎赫	-12.142
尼犍若提子	-12.142
㯓	-12.142
瓔	-12.142
端正無比	-12.142
若提子	-12.142
比丘不放逸慧	-12.142
野獸	-12.142
色聲香味細滑	-12.1421
偶	-12.1421
於無餘涅槃界而般涅槃	-12.1421
末佉梨	-12.1421
痰	-12.1421
央掘魔羅以偈問	-12.1421
恠	-12.1421
無虫水中	-12.1421
一劫有餘	-12.1421
佛弟子婆離	-12.1421
西北方去此過	-12.1421
削	-12.1422
燒舌已	-12.1422
劣弱	-12.1422
數千萬歲乃竟	-12.1422
爪上土	-12.1422
十惡業道	-12.1422
撥	-12.1422
院	-12.1422
為魔所縛	-12.1422
峰	-12.1423
因四事故	-12.1423
編髮	-12.1423
鞞舍離麗掣	-12.1423
隋天竺沙門達摩笈多譯	-12.1423
沾	-12.1423
能生眼智明覺	-12.1423
婢婦	-12.1423
要當使罪	-12.1423
六外入處	-12.1424
不愚不癡	-12.1424
所住之處	-12.1424
不作證欲作證	-12.1424
五支物主	-12.1424
習是習	-12.1424
乃至離邪見	-12.1424
集普會講堂	-12.1424
令我長夜得	-12.1425
漸漸長大	-12.1425
算數目揵連	-12.1425
芭蕉樹	-12.1425
修持梵行	-12.1425
失譯人名今附	-12.1425
多聞比丘明達智慧	-12.1425
賓自	-12.1425
不失其義	-12.1425
檻	-12.1425
不謗賢聖	-12.1425
從是本從是習從是因緣	-12.1425
我所愛者	-12.1425
村北尸攝惒林	-12.1425
此世他世	-12.1425
竟為所在	-12.1425
作苦邊	-12.1425
東晉錄	-12.1425
余	-12.1425
威勢	-12.1426
出入行來	-12.1426
在學地	-12.1426
五下結	-12.1426
空無邊處	-12.1426
灌其身	-12.1426
肌膚	-12.1426
於勝處	-12.1426
烏鵄	-12.1426
便自安住	-12.1426
譬如力士屈伸臂頃	-12.1427
隨順宴坐	-12.1427
急求方便	-12.1427
十支居士八城人	-12.1427
問已不知	-12.1427
剝皮	-12.1427
尸蔔	-12.1427
我恒歎說	-12.1427
以七寶作七重壁	-12.1427
既出家已	-12.1427
號咷叫喚	-12.1427
商主外道出家	-12.1427
種種飛鳥相和而鳴	-12.1427
善住龍象	-12.1427
施與閻浮提凡夫人	-12.1427
法鏡經	-12.1427
於一日中	-12.1427
活大地獄	-12.1428
其樹亦高六拘盧	-12.1428
閱叉	-12.1428
喜覺支	-12.1428
皆悉除盡	-12.1428
六十二見	-12.1428
膿血地獄	-12.1428
善教善訶	-12.1428
從四方來	-12.1428
祀場	-12.1428
還為白衣	-12.1428
則為歎說我	-12.1428
求乞財物	-12.1428
約誓	-12.1428
世界中間	-12.1428
牟犁破群那	-12.1428
祇陀	-12.1428
ṭ	-12.1429
窮乏	-12.1429
身諸苦痛	-12.1429
侯	-12.1429
問訊慰勞	-12.1429
▁(2	-12.1429
修不淨觀	-12.1429
便自消滅	-12.1429
拘孫	-12.1429
行禪者衰退則知衰退如真	-12.1429
顧望	-12.1429
履水如地	-12.1429
趣泥犁之路	-12.1429
平整	-12.1429
道是道	-12.143
亦有十六諸小地獄	-12.143
光祿卿明教大師臣法賢奉詔譯	-12.143
至一樹下	-12.143
杻	-12.143
滋甚	-12.143
以手打	-12.143
慧力羸	-12.143
柔弱	-12.143
芬馥	-12.143
唯願世尊為諸比丘說此妙	-12.143
在竹林迦蘭哆園	-12.143
毘那耶迦	-12.143
嗔	-12.143
自知作證	-12.1431
瞿師羅園	-12.1431
暉赫	-12.1431
澡浴遊戲受樂	-12.1431
尊師阿蘭那	-12.1431
皆歸於	-12.1431
那利鴦伽	-12.1431
觀察思惟分別	-12.1431
民物	-12.1431
顧眄	-12.1431
彼因此行	-12.1431
奔茶利迦華等	-12.1431
摩利夫人	-12.1431
端坐思惟	-12.1431
身壞死時生惡趣泥犁中	-12.1431
尊者曇彌	-12.1431
深淵	-12.1432
刀刃	-12.1432
不學具戒及世尊境界諸微妙法	-12.1432
能降伏魔	-12.1432
諂偽	-12.1432
晡利多居士	-12.1432
旃檀	-12.1432
屈顧	-12.1432
苦滅道跡聖諦不如實知	-12.1432
彌絺羅	-12.1432
琉璃欄水精	-12.1432
銀欄金	-12.1432
市易	-12.1432
除毒箭	-12.1432
前後相違	-12.1432
種種淨美飲食	-12.1432
地水火風	-12.1432
彼盡入	-12.1432
亦復教人	-12.1433
邦	-12.1433
一切種智	-12.1433
為諸善本	-12.1433
散落	-12.1433
來生此人間	-12.1433
海水兩披	-12.1433
復有餘因緣	-12.1433
捨離不住	-12.1433
乘寶羽之車	-12.1434
出家為要	-12.1434
充遍	-12.1434
維摩質阿須倫	-12.1434
晃曜	-12.1434
阿私羅仙人提鞞邏	-12.1434
硨𤦲瑪瑙等	-12.1434
常當修習	-12.1434
愛繫其	-12.1434
東北方去此過	-12.1434
迦絺那法	-12.1434
得上穌息	-12.1435
西天譯經三藏朝散大夫試	-12.1435
優鉢蓮華	-12.1435
彼非我有	-12.1435
徹照	-12.1435
置鐵	-12.1435
鞞蘭若	-12.1435
水精鈴	-12.1435
不生無念患	-12.1435
眾多上座比丘	-12.1436
麤堅園觀	-12.1436
貞	-12.1436
明月珠寶	-12.1436
邪見顛倒	-12.1436
六為直方便	-12.1436
集四種軍	-12.1436
種種諸鳥	-12.1436
於無央數道	-12.1436
渡已至彼岸	-12.1436
知已妄言	-12.1436
質多羅象子比丘	-12.1436
還歸所在	-12.1437
作十八變	-12.1437
如諸佛法	-12.1437
文章	-12.1437
八十億	-12.1437
自觀己	-12.1437
復不如一	-12.1437
有益無益	-12.1437
囚	-12.1437
大人根智	-12.1437
趺	-12.1437
自為世間人說	-12.1437
欄楯七重	-12.1437
補納衣	-12.1437
何由永滅	-12.1437
食訖收	-12.1438
枝葉華果	-12.1438
無所觸犯	-12.1438
身下出火	-12.1438
斷種無子	-12.1438
尼民陀羅山	-12.1438
色是神	-12.1438
設有此言	-12.1438
二十億	-12.1438
彼作如是憶念	-12.1438
廣演流布	-12.1438
遍淨光天	-12.1438
旋珠	-12.1438
敷好坐具	-12.1438
威容	-12.1438
彼因此處	-12.1439
於王國於太子於夫人皆無他	-12.1439
流聞天下	-12.1439
聖輔臣	-12.1439
發誓願	-12.1439
赫然	-12.1439
旃	-12.1439
佛在摩竭國	-12.1439
相繼法	-12.1439
即於座上得法眼淨	-12.144
暴雨	-12.144
東方去此過	-12.144
小地獄中	-12.144
消散	-12.144
良友	-12.144
欝陀羅羅摩子	-12.144
住至一劫不可救濟	-12.144
獲大福	-12.144
仍	-12.1441
又大婆羅門	-12.1441
專精一意	-12.1441
於夜分	-12.1441
未來生天	-12.1441
身上出火	-12.1441
裝	-12.1441
我於往昔	-12.1441
甚奇特	-12.1441
度疑彼岸	-12.1441
如來所說正法	-12.1442
涕零	-12.1442
蓋不足言	-12.1442
某生某處	-12.1442
奢羅浮	-12.1442
見已自比	-12.1442
受滅則有滅	-12.1442
狸	-12.1442
隨其所用	-12.1442
道德諦	-12.1442
尊者阿難執拂侍佛	-12.1442
頭冠	-12.1442
周匝欄楯	-12.1443
登第二	-12.1443
云何修行念	-12.1443
豪尊	-12.1443
算計而	-12.1443
五下分結已斷	-12.1443
生於善處	-12.1444
墮泥犁中	-12.1444
薄賤故	-12.1444
智謀	-12.1444
不受死屍	-12.1444
深奧深照	-12.1444
軟根	-12.1444
復以此偈問	-12.1444
東園鹿子母堂	-12.1445
若干百千俱致年	-12.1445
躭	-12.1445
滅諸無明闇	-12.1445
集在講堂	-12.1445
深八萬四千由旬	-12.1446
福德潤澤	-12.1446
如理修行	-12.1446
田舍	-12.1446
憎諍	-12.1446
一一如前	-12.1446
姑嫜	-12.1446
假借	-12.1447
一者長壽	-12.1447
卷第十四	-12.1447
繞城三匝	-12.1447
最尊第一	-12.1447
害意瞋	-12.1447
跋提長者	-12.1447
為三十三天王	-12.1447
和調	-12.1447
香汁	-12.1448
即便嚴駕	-12.1448
與面前律	-12.1449
星散	-12.1449
度一切無所有處	-12.145
光明熾盛	-12.145
無願三昧	-12.145
尊者橋㷿鉢帝	-12.145
或心變易	-12.145
但諸梵志	-12.145
入于地獄	-12.145
鼉山怖林鹿野園中	-12.145
小洲	-12.145
世人所應供養	-12.145
尊者舍利子	-12.1451
卷第十五	-12.1451
斷麤言	-12.1451
千俱致年	-12.1451
奉持禁戒	-12.1452
無量無限	-12.1452
多有珍寶	-12.1452
陰持入	-12.1452
無復狐疑	-12.1453
八由旬	-12.1453
侵欺	-12.1453
意法亦復如是	-12.1453
西方去此過	-12.1453
識所住處	-12.1454
娑衣	-12.1454
汝莫作是念	-12.1454
共鬪戰	-12.1454
孰知	-12.1454
竟日夜	-12.1454
生無熱天	-12.1454
依彼住	-12.1455
卷第十六	-12.1455
謁	-12.1455
不習因緣	-12.1456
少色行為身	-12.1456
何者為妙	-12.1456
世後際	-12.1456
不可窮	-12.1457
寶柱	-12.1457
跓	-12.1457
相承用	-12.1457
出家成道	-12.1457
併力	-12.1457
或有人無求欲生	-12.1457
鞭杖	-12.1458
正身正念	-12.1458
比丘方便所應	-12.1458
已後乃從	-12.1458
無間地獄	-12.1458
婆羅墮	-12.1459
得大善利	-12.1459
截鼻	-12.1459
彼行不棄	-12.1459
我今宜可	-12.1459
萬六千里	-12.1459
增伺而	-12.1459
東南方去此過	-12.1459
七返	-12.146
從右脇	-12.146
初無厭足	-12.1461
成無上道	-12.1461
敬仰	-12.1462
四大造	-12.1463
樂閑靜之處	-12.1463
供設	-12.1463
尊者富隣尼	-12.1463
亦誣謗	-12.1463
種種飛鳥	-12.1463
瓠	-12.1464
是真婆羅門	-12.1464
則又不及	-12.1464
燈燭	-12.1464
俗數	-12.1464
常當遠離	-12.1465
信敬心	-12.1465
金剛三昧	-12.1466
我亦有彼	-12.1466
世尊告波斯匿王	-12.1466
隨其力	-12.1466
現神變	-12.1468
普賢	-12.1468
前受水	-12.1468
愧力	-12.1468
莫觸嬈如來	-12.1469
彌滿	-12.1469
逆流	-12.147
欲求何等	-12.1473
重濁	-12.1473
相善相應	-12.1473
不善身行	-12.1473
眾生因婬故至增上婬故	-12.1474
不自舉	-12.1474
高士	-12.1475
安慰一切眾生	-12.1475
受此惡	-12.1477
舍衛城內	-12.1477
大燒炙地獄	-12.1477
瞋恚責數	-12.1479
:「『「	-12.148
我當與汝	-12.148
應作善	-12.148
將五百弟子	-12.1481
變壞	-12.1481
生中國	-12.1481
猶如商人	-12.1483
思想修習	-12.1484
即斷彼	-12.1484
未得證	-12.1484
是則為愛	-12.1484
少許	-12.1485
便得久存	-12.1486
依憑	-12.1487
為諸弟子說	-12.1487
人所愛敬	-12.1488
江迦葉	-12.1491
和敬	-12.1491
掃除	-12.1492
內實無	-12.1492
內實有	-12.1492
卵生金翅鳥	-12.15
嗅香	-12.1504
滿度摩王	-12.1508
懈墮	-12.1511
意不恚	-12.1512
腐爛	-12.1518
不守根	-12.1527
神祇	-12.1528
正法殿	-12.1531
愛有求	-12.1534
往迎	-12.1536
六十里	-12.1548
殿舍	-12.1548
亦從直	-12.1552
抱兒	-12.156
更增行善	-12.1561
四十由旬	-12.1562
有果有	-12.1566
若不依一	-12.1568
知無他世	-12.158
手擎	-12.1588
譬猶	-12.1603
得見清淨	-12.1605
諸技術	-12.1607
十種功德	-12.1608
聞彼說	-12.1613
廣為人說	-12.1614
汝等亦應	-12.1614
懷瞋恚	-12.1632
濁亂	-12.1637
不久亦當	-12.1659
尼師檀	-12.1661
著財物	-12.1664
告諸臣	-12.1666
眠臥	-12.1704
年幼	-12.1709
天復說偈	-12.1716
已有便	-12.1718
石壁	-12.172
為汝等說	-12.1721
親侍	-12.1726
於如來前	-12.1763
後際	-12.1764
作田業	-12.1784
損害	-12.1804
百里	-12.181
復教他人使行	-12.1818
揵陀	-12.1837
離諸煩惱	-12.184
閻浮提地	-12.184
何謂為四	-12.1844
供奉	-12.1846
覆五十由旬	-12.186
覆其身	-12.1863
在羅閱祇	-12.1884
二千四百	-12.1897
牀臥	-12.191
賴吒惒羅族姓子	-12.1927
罪畢	-12.1933
善法已生	-12.1967
方域	-12.1974
江水	-12.1981
尚未	-12.1988
傍臣	-12.199
尼拘類樹	-12.1991
降伏外道	-12.1997
信三寶	-12.2017
正覺之樂	-12.2037
永不復	-12.2038
音樂樹	-12.2038
軍陣	-12.2061
服藥	-12.2066
至阿難所	-12.2075
我及世間有邊	-12.211
我寧可往	-12.2121
以翅搏海	-12.2122
閻浮利天下	-12.2137
長跪白	-12.214
共諍訟	-12.216
了了	-12.2164
捶	-12.2167
拔鬚	-12.2179
肯	-12.225
此受法現	-12.2259
▁125(	-12.2262
憍恣	-12.2266
無瞋恚心	-12.2267
內外身身觀	-12.2285
告侍者	-12.229
世有邊	-12.2306
尼拘	-12.2314
無常變易	-12.2316
甖	-12.2322
口行惡	-12.2359
以正法治	-12.2362
恣意所	-12.2381
麤澁	-12.2405
聽我出家	-12.2405
純大苦聚滅	-12.2432
辟支	-12.2434
一會說	-12.2438
高巖	-12.2443
鸚鵡摩納答	-12.2443
具足奉	-12.2444
無後生死	-12.2451
窮困	-12.2452
大快見	-12.2457
轉相承用	-12.247
修八聖道	-12.2472
萬里	-12.2473
不過七	-12.2474
晡	-12.2482
漚	-12.2483
蹶	-12.2485
梁	-12.2488
干	-12.2491
佛說此經	-12.2491
領群特	-12.2493
久為資養	-12.2493
鷲鳥	-12.2494
一面而	-12.2494
已生便滅	-12.2494
渚	-12.2495
亂風從四面	-12.2496
為汝引喻	-12.2497
探	-12.2498
已習已行已多作	-12.2498
占候	-12.2499
十五日月滿時	-12.2499
舞聲	-12.2499
馬碯	-12.25
婆拘羅	-12.25
及王大臣	-12.25
紀	-12.2502
先樂而後樂	-12.2502
何其駛哉	-12.2503
壽十歲	-12.2505
儞	-12.2506
飛鳥相和而鳴	-12.2507
頻鞞娑羅王	-12.2508
亦從邪	-12.2508
射術	-12.2509
象馬牛羊	-12.2509
壇	-12.2509
百緣覺	-12.251
優陀那偈	-12.251
識離如實知	-12.251
六百八十萬由旬	-12.251
懷毒害	-12.251
四徼道	-12.2511
鄉	-12.2512
平治道路	-12.2512
若凡夫人	-12.2512
賒	-12.2512
乾枯	-12.2512
在目前	-12.2513
規	-12.2513
虱	-12.2514
䟽	-12.2514
猶如今人	-12.2514
雀	-12.2514
郭	-12.2514
奉行經戒	-12.2514
周旋往來	-12.2515
身體爛熟	-12.2515
場	-12.2515
慢緩	-12.2516
箭刺	-12.2516
復云何業獲報	-12.2516
藉	-12.2516
少於睡眠	-12.2516
須夜摩天	-12.2517
農	-12.2517
舒展	-12.2517
倡伎及往觀聽	-12.2517
生故有老死	-12.2518
問異答	-12.2518
當合未合不知牛處	-12.2518
佛住拘留搜調	-12.2519
說此頌	-12.2519
身一想	-12.2519
須彌留山	-12.2519
夜夢見十事	-12.2519
不想入	-12.2519
餘則虛名	-12.2519
生樂生喜	-12.2519
無上愛盡解脫	-12.2519
眉	-12.252
欲共天鬪	-12.252
磔	-12.252
逃	-12.2521
在意所欲	-12.2521
敦	-12.2521
墟	-12.2521
知我如是說法	-12.2521
善調象師	-12.2521
芥	-12.2521
劈	-12.2521
婆四吒優婆夷	-12.2521
拘尸王城	-12.2521
大醫王	-12.2522
名色緣六入	-12.2522
析	-12.2522
垂愍	-12.2522
鐵槨中	-12.2522
曝	-12.2523
廣學多聞	-12.2523
革	-12.2523
鍾	-12.2523
主藏聖臣寶	-12.2523
丘塚間	-12.2524
顏容	-12.2524
彩畫姝好	-12.2524
法宜速除斷	-12.2524
劫波育	-12.2524
弓矢	-12.2524
杅	-12.2525
朝覲	-12.2525
傴	-12.2525
信家非家	-12.2525
蹄	-12.2525
施四方一切僧園林	-12.2525
嗽	-12.2525
求死不得	-12.2525
往古	-12.2526
吟	-12.2526
欲自試	-12.2526
鉞	-12.2526
脂膏	-12.2526
在佛後	-12.2526
算術	-12.2526
經數日	-12.2527
翠	-12.2527
効	-12.2527
有一非少色是神施設而施設	-12.2527
眾名香	-12.2527
滅則觸滅	-12.2527
若有無量善法	-12.2527
入波羅㮈城乞食	-12.2527
見覺是神	-12.2527
尊者大周那	-12.2527
怛囉	-12.2527
疾疫劫	-12.2527
泡沫	-12.2527
上有曲箱蓋	-12.2527
婬逸	-12.2527
燼	-12.2528
甚愛敬念	-12.2528
若復比丘意欲求	-12.2528
緣覺不如施	-12.2528
於殺生淨除其心	-12.2528
優曇鉢	-12.2528
光明昱爍	-12.2528
企	-12.2529
神法能覺	-12.2529
色為是常	-12.2529
鵄	-12.2529
工匠	-12.2529
假號	-12.2529
梵身諸天	-12.2529
燒腭	-12.2529
耳鼻口身意	-12.2529
光明遠照	-12.2529
溷	-12.2529
小地獄出	-12.2529
勤行精進	-12.2529
烏晡沙他	-12.2529
二萬四千里	-12.2529
或有摸象得其	-12.2529
禱	-12.253
渾	-12.253
周遍其四體	-12.253
東西馳走	-12.253
本有妙色	-12.253
壽未幾	-12.253
受福無窮	-12.253
琴音	-12.253
閑暇	-12.2531
貞潔	-12.2531
雨舍公	-12.2531
其味如蜜	-12.2531
便從句梨睒大樹	-12.2531
獲無量福	-12.2531
誹	-12.2531
粉	-12.2531
掃帚	-12.2531
舅	-12.2531
佃家	-12.2531
行欲者無障礙	-12.2531
稼	-12.2531
琴聲	-12.2531
赤馬天子	-12.2531
縻	-12.2531
在舍衛城祇樹給孤獨園	-12.2531
行七步	-12.2531
千二百里	-12.2531
惡業果故	-12.2532
有恨心	-12.2532
為在行者比丘為	-12.2532
度說竟	-12.2532
盲冥	-12.2532
金翅之鳥	-12.2532
在門外立	-12.2532
迅	-12.2532
欝茂	-12.2532
優陀延	-12.2532
十二部	-12.2532
致此變	-12.2532
默然無言	-12.2532
𡁠	-12.2532
下方去此過	-12.2532
婆羅門因此於本劫本見起論	-12.2532
康	-12.2533
遊鞞舍離	-12.2533
外有七重多	-12.2533
說言無記	-12.2533
肅	-12.2533
踐	-12.2533
獨步無	-12.2533
當共撰集	-12.2533
迦栴延	-12.2533
虛空雲中	-12.2533
發掘者	-12.2533
當患厭	-12.2533
阿練茹	-12.2533
刷	-12.2533
隋天竺三藏闍那崛多等譯	-12.2533
先所聞法	-12.2533
不加刀杖	-12.2533
廓	-12.2533
斫迦羅	-12.2533
諸長老等	-12.2533
以扇扇佛	-12.2534
是非有想非無想處成就遊	-12.2534
吸	-12.2534
如是睡眠便可	-12.2534
搥胸	-12.2534
諸仁者輩	-12.2534
那提伽	-12.2534
阿鋡	-12.2534
極為殊妙	-12.2534
持斧入	-12.2534
從我行梵行	-12.2534
松	-12.2534
偏露右	-12.2534
警	-12.2534
萠	-12.2535
鞞藍大富婆羅門	-12.2535
遏	-12.2535
臥鐵床	-12.2535
行此七法	-12.2535
是為苦行離垢法也	-12.2535
最在其	-12.2535
身上出水	-12.2535
施百須陀洹	-12.2535
極懷瞋恚	-12.2535
轅	-12.2535
髻髮	-12.2535
取彼地獄諸眾生	-12.2535
現是神通從空而來	-12.2535
k	-12.2535
畜牧產業不可稱計	-12.2535
摩鳩羅	-12.2535
搔揵地	-12.2536
其苑縱廣	-12.2536
鞘	-12.2536
比丘語已不	-12.2536
盡其壽命	-12.2536
竹叢	-12.2536
頻隣曇花	-12.2536
威顏	-12.2536
靡伏	-12.2536
蛇旬	-12.2536
善人得意	-12.2536
借	-12.2537
有何等異	-12.2537
安隱趣涅槃	-12.2537
速求解脫	-12.2537
面如桃華色	-12.2537
佛住巴連弗邑鷄林	-12.2537
恭順	-12.2537
阿修羅軍	-12.2537
非本念	-12.2537
眾生所受苦樂皆因	-12.2537
當沒一一	-12.2537
復有業能令眾生	-12.2537
悵	-12.2537
去世尊不遠	-12.2537
一切諸佛極方便求如來之藏	-12.2537
璫	-12.2537
禿頭沙門	-12.2537
一切諸行皆悉無常	-12.2537
八楞	-12.2537
珍奇	-12.2537
𢷏置熾燃熱鐵地上	-12.2537
是眾生居	-12.2537
說此經已	-12.2537
pa	-12.2538
唼	-12.2538
百斯陀含	-12.2538
遷變	-12.2538
外有好	-12.2538
擯棄	-12.2538
揭	-12.2538
捐除	-12.2538
無空缺處	-12.2538
何時當復	-12.2538
婆羅門及諸尊長	-12.2538
盡見盡知	-12.2538
鑒	-12.2538
擇法覺支	-12.2538
伽池側	-12.2539
面相問訊慰勞	-12.2539
入火光三昧	-12.2539
遍淨諸天	-12.2539
精進覺支	-12.2539
如此之比	-12.2539
種殖	-12.2539
貞良	-12.2539
風日所逼	-12.2539
婆羅門及尊長者	-12.2539
整御	-12.2539
r	-12.2539
途	-12.2539
於如來塔	-12.2539
未出家時	-12.2539
殷	-12.2539
此非其宜	-12.2539
非異非不異	-12.2539
婆素跋陀	-12.2539
梯陛	-12.2539
給孤長者	-12.2539
從遠而來	-12.2539
懷憎嫉	-12.2539
取他女	-12.2539
苗稼	-12.2539
c	-12.254
爪甲	-12.254
承佛教	-12.254
具護諸根	-12.254
最在其前	-12.254
駒	-12.254
起慈愍心	-12.254
乃至第四禪具足住	-12.254
世尊迴顧	-12.254
隨汝意答	-12.2541
𤛓	-12.2541
如我解佛所說	-12.2541
與千二百五十比丘	-12.2541
佛便說	-12.2541
沙彌周那	-12.2541
無能侵	-12.2541
晃若金山	-12.2541
十六見中	-12.2541
毘舍浮佛	-12.2541
澄清	-12.2541
圍二百八十里	-12.2541
候	-12.2541
君臣	-12.2541
坐高標下	-12.2541
祇陀王子	-12.2541
三轉十二行	-12.2542
蹴	-12.2542
聽我懺悔	-12.2542
於居士意云何	-12.2542
而廣說之	-12.2542
諸漏穢污	-12.2542
豹	-12.2542
猶如鴈王	-12.2542
發微笑	-12.2542
其國久	-12.2542
以守為	-12.2542
飢儉	-12.2542
隨國俗法	-12.2542
奔茶利迦花	-12.2542
遲緩	-12.2543
唯願哀愍	-12.2543
枝葉分布二千里	-12.2543
名及色	-12.2543
此身中餘在	-12.2543
盜他財物	-12.2543
反縛兩手	-12.2543
振動	-12.2543
諸上尊比丘	-12.2543
飡	-12.2543
西南方去此過	-12.2543
若世尊為諸比丘說	-12.2543
即彼處沒	-12.2544
黑沙地獄	-12.2544
鬚髮自落	-12.2544
博叉	-12.2544
乃知是習因緣	-12.2544
作福得善	-12.2544
諸比丘於中食後	-12.2544
深淺	-12.2544
尤	-12.2544
彼以清淨天眼出過於	-12.2544
步步	-12.2544
行禪者衰退而謂熾盛	-12.2544
乃至馬瑙七寶所成	-12.2544
螫	-12.2544
刀師氏聚落主	-12.2544
從佛口生	-12.2544
歡樂如王	-12.2544
水喻人	-12.2544
現在得無為	-12.2544
象馬車乘	-12.2545
苦集滅道	-12.2545
觀自義	-12.2545
上流般涅槃	-12.2545
神妙天	-12.2545
第三念誦	-12.2545
婆羅突邏闍	-12.2545
從此岸至彼岸	-12.2545
轉無上法輪	-12.2545
亦生彼亦不生彼	-12.2545
我及世間半常半無常	-12.2545
說如是偈	-12.2545
王舍城迦蘭陀竹林	-12.2545
作如是論議	-12.2545
弩	-12.2545
七段	-12.2545
驅遣	-12.2545
若見彼女人	-12.2545
計著住彼	-12.2545
遊步康強	-12.2545
斧在口中	-12.2546
廣說其義	-12.2546
忽沒不現	-12.2546
玷牟留外道出家	-12.2546
幾許	-12.2546
付囑	-12.2546
布吒婆樓	-12.2546
交橫	-12.2546
盡向佛說	-12.2546
不生身病想患	-12.2546
高下縱廣	-12.2546
嚫	-12.2546
忽爾	-12.2546
失譯人名今附秦錄	-12.2546
蔭世尊身	-12.2546
從無想定起	-12.2546
此比丘寧可樂彼	-12.2546
比丘極是	-12.2546
行禪者熾盛而謂衰退	-12.2546
五為直業	-12.2547
亦有邊亦無邊	-12.2547
祭	-12.2547
心無有諍	-12.2547
與阿須倫共鬪	-12.2547
身下出水	-12.2547
疲乏	-12.2547
弗袈裟裟羅	-12.2547
赤蓮華	-12.2547
晨旦	-12.2548
亂想之念	-12.2548
異學沙門文祁子	-12.2548
亦為七寶之所成就	-12.2548
梵光音天	-12.2548
不缺不	-12.2548
汝是何人	-12.2548
應與起偷婆	-12.2548
聚落城邑	-12.2548
由食而存	-12.2548
求有利	-12.2549
為眾說法	-12.2549
長夜當得不饒益苦	-12.2549
此集此因此生此緣	-12.2549
臭處不淨	-12.2549
尠少	-12.2549
我盡能	-12.2549
其守獄卒	-12.2549
思量觀察	-12.2549
𨫼	-12.2549
未來久遠	-12.2549
諸四眾	-12.2549
有勇猛意	-12.2549
自悔責	-12.2549
其處縱廣八萬	-12.2549
大人根相	-12.2549
明審如有	-12.2549
義有若干	-12.2549
邪見成就邪見	-12.2549
斷除貪伺	-12.2549
不貪利養	-12.255
心猗息	-12.255
是事不然	-12.255
初禪具足住	-12.255
駃	-12.255
非常苦空非身	-12.255
可應望	-12.255
世典幽微	-12.255
色觀色	-12.255
身遭苦患	-12.255
從今以後	-12.255
即便捨去	-12.2551
末利優婆塞	-12.2551
沙門今定	-12.2551
吳月支	-12.2551
眾皆奉學戒及世尊境界諸微妙法	-12.2551
無貢高天	-12.2551
可應求	-12.2552
彌多求比丘	-12.2552
無眾苦患	-12.2552
蓊	-12.2552
欝單曰天下人	-12.2552
青紅黃白蓮	-12.2552
鎧甲	-12.2552
汝來共	-12.2552
繒衣	-12.2552
從東方出	-12.2552
微塵	-12.2552
從舍衛國至婆雞帝	-12.2552
微笑	-12.2553
娑羅園林	-12.2553
仁輩	-12.2553
弗波育帝	-12.2553
數數伺	-12.2553
道跡斷智淨	-12.2553
彌多羅比丘尼	-12.2553
得比丘分	-12.2553
傘蓋覆燈	-12.2553
愛滅則受滅	-12.2553
如是至三	-12.2554
汝當知之	-12.2554
心意錯亂	-12.2554
住壽一劫若減一劫	-12.2554
承奉	-12.2554
勸助	-12.2554
卑盧異學	-12.2554
精細	-12.2554
八為直定	-12.2554
其福難量	-12.2554
恭敬合掌	-12.2554
基業	-12.2554
色者無常	-12.2554
以其善根	-12.2554
劍刺	-12.2555
照曜	-12.2555
迦摩天子	-12.2555
欠	-12.2555
求覓	-12.2555
順風香	-12.2555
劫成敗時	-12.2555
嗟歎佛	-12.2555
而此尊者	-12.2555
意繫法	-12.2556
跋祇	-12.2556
眠寤	-12.2556
自捨己	-12.2556
色繫眼	-12.2556
眼繫色	-12.2556
提頭賴	-12.2557
亦逆順風香	-12.2558
知此人成就	-12.2558
成無上正真之道	-12.2558
呻	-12.2558
光潤	-12.2559
甚難可得	-12.2559
持鉢乞食	-12.2559
萬苾芻得阿羅漢果	-12.256
然後生彼	-12.256
更不造新	-12.256
覺如覺	-12.256
可就此坐	-12.256
著釜中	-12.256
我今為汝轉	-12.256
我當往彼	-12.2561
須待	-12.2561
所謂七寶者	-12.2561
具陳	-12.2561
汝亦當復轉	-12.2562
若現世色	-12.2562
能斷愚癡	-12.2562
諸妙香	-12.2562
貪著利養	-12.2563
卷第十三	-12.2563
彼所乘	-12.2563
所謂為捨	-12.2563
欲求其福	-12.2563
若現世欲	-12.2563
是亦為著	-12.2563
求於牢要	-12.2564
十五日月	-12.2564
釋羇瘦	-12.2564
前後圍繞而為說法	-12.2564
修阿練若行	-12.2564
萬六千歲	-12.2564
有風輪來	-12.2564
轉輪聖王成就此	-12.2564
卷第十二	-12.2565
和尚	-12.2565
作衣已	-12.2565
不得者得	-12.2565
從第二禪起	-12.2566
佛告婆蹉種出家	-12.2566
善法潤澤	-12.2566
血肉	-12.2566
王又命	-12.2566
兩足尊	-12.2567
瓦師	-12.2567
妹婦	-12.2567
隨時禮拜	-12.2567
緣行有識	-12.2567
乘白馬	-12.2567
我與世有常	-12.2568
補縷低迦	-12.2568
塢	-12.2568
鄣	-12.2568
取而食之	-12.2569
身壞死	-12.2569
便得解脫智	-12.2569
[...]
