<unk>	0
<s>	0
</s>	0
。	-1.76258
者	-4.42873
故	-4.47393
,	-4.54388
謂	-4.93159
有	-5.01568
非	-5.15075
是	-5.18335
、	-5.23114
若	-5.25778
名	-5.3003
此	-5.4277
彼	-5.43415
生	-5.44747
為	-5.46896
於	-5.48591
如	-5.5237
.	-5.52857
法	-5.53148
無	-5.54354
以	-5.56284
及	-5.61531
等	-5.62483
不	-5.62561
說	-5.67934
中	-5.68315
得	-5.71562
心	-5.78214
二	-5.78602
一	-5.81466
云何	-5.81923
時	-5.82491
或	-5.85705
至	-5.90314
也	-5.90617
?	-5.94895
耶	-5.95384
緣	-5.989
言	-5.99096
因	-6.01502
答	-6.03254
三	-6.033
起	-6.08976
亦	-6.1091
即	-6.13544
論	-6.16405
行	-6.16741
與	-6.16966
答曰	-6.1705
諸	-6.17195
由	-6.17346
受	-6.19094
義	-6.22385
定	-6.22427
如是	-6.23852
問	-6.28877
身	-6.29463
色	-6.30271
見	-6.32197
依	-6.32439
四	-6.34296
唯	-6.34302
餘	-6.34544
▁	-6.37179
斷	-6.37252
攝	-6.38855
:	-6.44387
業	-6.45072
已	-6.46016
後	-6.4699
相	-6.47752
一切	-6.48185
而	-6.48436
果	-6.48478
滅	-6.52026
是名	-6.52762
善	-6.58014
道	-6.58245
能	-6.58732
住	-6.59299
相應	-6.62267
處	-6.6254
人	-6.63168
修	-6.63924
智	-6.64549
除	-6.65458
從	-6.66271
五	-6.69711
應	-6.70415
識	-6.70871
欲	-6.71194
乃至	-6.71313
作	-6.71549
皆	-6.71552
捨	-6.719
復次	-6.71957
所	-6.73398
又	-6.73707
我	-6.74621
觀	-6.76529
性	-6.78991
明	-6.79444
雖	-6.79576
成	-6.80291
上	-6.82324
意	-6.83354
多	-6.84428
欲界	-6.85703
想	-6.86133
之	-6.8619
知	-6.86673
離	-6.86969
樂	-6.87307
前	-6.88361
苦	-6.89491
觸	-6.90032
」	-6.90246
體	-6.91117
成就	-6.92891
自	-6.92977
事	-6.93218
入	-6.93385
根	-6.93828
通	-6.94077
俱	-6.9603
佛	-6.99808
隨	-7.00306
煩惱	-7.00918
勝	-7.01602
立	-7.02403
釋	-7.02452
。「	-7.03798
六	-7.05107
然	-7.05356
愛	-7.05682
故名	-7.05854
名為	-7.05959
取	-7.06093
同	-7.06447
盡	-7.06675
此中	-7.06995
(	-7.09025
解脫	-7.09159
未來	-7.10332
有說	-7.10473
無漏	-7.1108
在	-7.11406
別	-7.11426
初	-7.1148
界	-7.11535
令	-7.1181
問曰	-7.11821
七	-7.11873
下	-7.1215
地	-7.13057
顯	-7.13209
是故	-7.13743
先	-7.14329
異	-7.15197
亦爾	-7.15555
位	-7.16407
大	-7.17373
現在	-7.17744
八	-7.20209
則	-7.20927
由此	-7.21131
色界	-7.21709
境	-7.22086
分	-7.22713
差別	-7.2336
幾	-7.25137
慧	-7.2537
轉	-7.26047
力	-7.27494
未	-7.28181
聲	-7.31337
其	-7.32294
無明	-7.33735
過去	-7.3394
結	-7.34197
今	-7.35085
現	-7.35198
便	-7.35259
有漏	-7.35527
戒	-7.35834
分別	-7.364
具	-7.37405
復	-7.3886
思	-7.39128
但	-7.39328
天	-7.39635
異熟	-7.39919
證	-7.4002
不善	-7.41389
所以者何	-7.41761
有情	-7.42661
出	-7.43063
貪	-7.43135
可	-7.43827
何	-7.44701
無色	-7.44812
淨	-7.4519
十	-7.45337
)	-7.45353
相續	-7.45757
覺	-7.4626
是謂	-7.46863
中有	-7.47184
用	-7.47615
外	-7.49747
眼	-7.50888
眾生	-7.51021
當	-7.51589
加行	-7.5182
食	-7.51938
他	-7.52518
念	-7.54083
正	-7.54216
即是	-7.54476
學	-7.5448
解	-7.5463
難	-7.55325
隨眠	-7.55439
經	-7.56513
理	-7.56984
不能	-7.5909
空	-7.59333
類	-7.59541
執	-7.59681
無有	-7.60058
語	-7.60278
過	-7.60548
各	-7.61087
世尊	-7.62071
次第	-7.63137
釋曰	-7.63414
涅槃	-7.64314
種	-7.64369
頌曰	-7.64764
無學	-7.64805
總	-7.64874
必	-7.64982
趣	-7.65235
疑	-7.65302
自性	-7.66341
信	-7.66629
增上	-7.66689
退	-7.66828
既	-7.66873
惑	-7.66879
對	-7.66948
內	-7.67679
極	-7.67971
九	-7.68168
無記	-7.6851
云	-7.68576
無間	-7.68579
無色界	-7.68995
復有說者	-7.69378
邪見	-7.6955
亦有	-7.6969
引	-7.69753
;	-7.69762
少	-7.69947
聖	-7.70603
方	-7.70749
所依	-7.71599
本	-7.7177
世	-7.72353
諸法	-7.72546
喜	-7.72863
現在前	-7.7364
惡	-7.74092
使	-7.74208
蘊	-7.74426
如何	-7.74469
破	-7.7662
為因	-7.76898
所緣	-7.77042
數	-7.78014
染	-7.78386
重	-7.79091
順	-7.79161
思惟	-7.8031
共	-7.80415
決定	-7.81251
所攝	-7.8203
聖道	-7.82058
遍	-7.82444
或有	-7.82448
常	-7.82481
約	-7.82629
門	-7.82658
忍	-7.83271
何故	-7.83513
見道	-7.84196
乃至廣說	-7.84908
無量	-7.85298
增	-7.85859
集	-7.85892
壞	-7.86651
造	-7.86826
次	-7.87352
施	-7.87718
大種	-7.87766
三界	-7.88007
行相	-7.88042
王	-7.88241
亦如是	-7.88465
品	-7.88682
不得	-7.89353
於彼	-7.90267
報	-7.90304
無表	-7.90311
善根	-7.90922
文	-7.91368
味	-7.91563
第二	-7.91843
當言	-7.92197
實	-7.92398
對治	-7.93449
不生	-7.93651
意識	-7.93788
阿羅漢	-7.94029
偈曰	-7.94219
無為	-7.94224
世間	-7.94244
不同	-7.94339
不應	-7.94466
持	-7.95129
眾	-7.95137
汝	-7.95764
因緣	-7.95882
故說	-7.96173
少分	-7.96192
剎那	-7.96366
於此	-7.96662
若爾	-7.96863
第三	-7.97354
論曰	-7.97458
如說	-7.97624
現前	-7.97674
法智	-7.97796
求	-7.97837
或作是說	-7.98637
境界	-7.98781
異生	-7.9883
所說	-7.98977
不成就	-8.00067
應知	-8.00826
眼識	-8.01009
聞	-8.01032
設	-8.01444
失	-8.01992
方便	-8.02101
合	-8.02183
菩薩	-8.02219
律儀	-8.02812
繫	-8.02993
所有	-8.0302
物	-8.03045
水	-8.03312
三種	-8.03492
命	-8.03607
他心智	-8.03658
二種	-8.04339
者謂	-8.05996
量	-8.06136
於中	-8.06319
許	-8.07049
發	-8.07701
不可	-8.08683
支	-8.08782
聚	-8.08959
邊	-8.09281
不相應	-8.09696
解云	-8.10002
能生	-8.10091
何謂	-8.10197
慢	-8.1044
火	-8.10697
遠	-8.11759
風	-8.11845
諦	-8.12571
死	-8.13024
欲界繫	-8.13481
不說	-8.14285
還	-8.14462
爾時	-8.14616
》	-8.14823
亦非	-8.15179
近	-8.1532
四大	-8.15388
不定	-8.16307
第四	-8.16372
廣	-8.16378
如來	-8.16781
何以故	-8.16826
色無色界	-8.16879
俱生	-8.18248
究竟	-8.18769
縛	-8.19421
更	-8.20061
故知	-8.20496
教	-8.20799
亦名	-8.20944
五蘊	-8.21895
若有	-8.224
補特伽羅	-8.22687
師	-8.22705
盡智	-8.24289
來	-8.24526
厭	-8.24569
障	-8.24785
據	-8.24795
如此	-8.24824
種種	-8.24839
建立	-8.24949
纏	-8.25058
一一	-8.25732
表	-8.26
靜慮	-8.26243
尋	-8.26472
眼根	-8.2669
此是	-8.26739
諸根	-8.26878
且	-8.26889
何緣	-8.26941
和合	-8.27203
遮	-8.27244
恒	-8.2741
故名為	-8.2807
不爾	-8.28207
善法	-8.28292
道智	-8.28553
妙	-8.28664
亦不	-8.29035
根本	-8.29298
有為	-8.29507
頌	-8.29508
此二	-8.29516
清淨	-8.29715
麁	-8.29737
香	-8.30001
當知	-8.303
世俗	-8.30529
相應法	-8.30616
第一	-8.3118
無常	-8.31183
壽	-8.31472
染污	-8.31819
曰	-8.32194
陰	-8.32684
同分	-8.32923
心所	-8.33004
瞋	-8.33014
世第一法	-8.33077
初靜慮	-8.33439
上地	-8.33567
亦是	-8.33586
害	-8.33823
舉	-8.33859
功德	-8.34121
形	-8.34246
比丘	-8.34355
殺	-8.34536
略	-8.34851
說名	-8.35468
猶如	-8.35776
辨	-8.36384
滿	-8.36442
違	-8.36578
自在	-8.36918
經說	-8.37078
有餘師說	-8.37379
所以	-8.37485
喻	-8.38306
生死	-8.38572
并	-8.38752
善心	-8.38866
所生	-8.38927
子	-8.39058
唯有	-8.39223
劣	-8.39316
計	-8.39654
)。	-8.39749
不成	-8.39863
正理	-8.39937
中間	-8.40018
身見	-8.40074
感	-8.40366
地獄	-8.40473
要	-8.41253
句	-8.41275
隨順	-8.41317
而不	-8.41707
自地	-8.41775
四種	-8.41815
向	-8.42249
聖者	-8.42332
福	-8.4345
等者	-8.43511
雖有	-8.43632
所起	-8.43751
此即	-8.44071
化	-8.44248
問何故	-8.44292
流	-8.44588
有二種	-8.45016
色界繫	-8.45539
就	-8.45564
足	-8.45891
自體	-8.46257
習	-8.4665
三世	-8.47017
十二	-8.47221
癡	-8.47427
墮	-8.4755
業道	-8.4757
彼法	-8.47648
小	-8.47951
有二	-8.48168
巳	-8.48715
諸行	-8.48833
此法	-8.48942
擇滅	-8.49005
心心所法	-8.49158
禪	-8.49343
下地	-8.49467
將	-8.49476
已生	-8.49511
皆是	-8.49645
豈不	-8.49996
名色	-8.5014
命根	-8.50185
非想非非想處	-8.50253
女	-8.50301
未斷	-8.50534
亦應	-8.50816
不起	-8.50981
相似	-8.51275
所作	-8.51282
遍知	-8.51416
生時	-8.51648
離欲	-8.51673
望	-8.5211
修道	-8.52405
應說	-8.52446
利	-8.52657
細	-8.5267
所得	-8.52744
長	-8.52841
息	-8.52946
婆沙	-8.52998
相違	-8.53092
命終	-8.53239
衣	-8.53376
修所斷	-8.53438
施設	-8.5359
第四靜慮	-8.53675
往	-8.53908
德	-8.54287
不知	-8.54633
諸有	-8.55562
僧	-8.55965
作用	-8.56378
部	-8.56621
為體	-8.56628
已說	-8.5666
罪	-8.56784
論云	-8.57028
若法	-8.57238
故言	-8.57402
非得	-8.58185
全	-8.58237
說名為	-8.58293
白	-8.58374
護	-8.58455
聖人	-8.58564
正見	-8.58717
《	-8.58719
等流	-8.59056
契經	-8.59132
外道	-8.59174
論曰至	-8.59278
前後	-8.59336
初禪	-8.59541
山	-8.60065
種子	-8.6009
非餘	-8.60213
苾芻	-8.60228
如前	-8.60765
所餘	-8.60767
增長	-8.611
經部	-8.61158
作如是說	-8.6129
諸餘	-8.61471
意根	-8.61498
極微	-8.61591
家	-8.61607
動	-8.61744
劫	-8.62667
減	-8.62686
度	-8.62786
或曰	-8.63017
復有	-8.63146
了	-8.63167
微	-8.63403
又解	-8.63488
去	-8.63665
身中	-8.63762
治	-8.63941
假	-8.64382
日	-8.64656
有三	-8.64803
論主	-8.64901
記	-8.65263
若依	-8.65344
如契經說	-8.65393
自相	-8.65475
十一	-8.65499
漏	-8.65515
頗有	-8.65528
邪	-8.65548
不見	-8.65946
屬	-8.66011
光	-8.66407
解脫道	-8.66582
同類	-8.66677
似	-8.6712
已得	-8.67195
離染	-8.67273
蓋	-8.67313
未得	-8.67428
心不相應行	-8.6766
辯	-8.67728
可得	-8.67878
不斷	-8.67889
此論	-8.68019
聲聞	-8.68032
展轉	-8.6829
生故	-8.6859
現觀	-8.69101
緣起	-8.69457
世俗智	-8.69478
無別	-8.69517
無所有處	-8.69787
樂根	-8.70203
謂彼	-8.70219
未生	-8.70466
乃	-8.70478
作意	-8.70479
字	-8.70715
類智	-8.70741
速	-8.70769
正理論云	-8.70795
漸	-8.70802
親	-8.70903
樂受	-8.71117
如前說	-8.71182
五根	-8.71683
亦無	-8.71725
容	-8.71832
因果	-8.71978
熟	-8.71979
誰	-8.7236
愚	-8.72369
色等	-8.72413
阿毘達磨	-8.72581
恚	-8.73033
見所斷	-8.73096
著	-8.73276
稱	-8.73489
簡	-8.73828
已斷	-8.73872
功能	-8.74034
止	-8.7411
此說	-8.74136
彼說	-8.74301
何等	-8.74348
不淨	-8.74441
有頂	-8.74541
等無間緣	-8.746
虛空	-8.74703
異熟果	-8.75065
圓滿	-8.75248
能緣	-8.75363
有四	-8.75491
述	-8.75783
不名	-8.7589
無想	-8.75917
猶	-8.76304
五種	-8.76407
若無	-8.76871
見苦所斷	-8.77067
無間道	-8.77086
謂於	-8.77087
若言	-8.77088
無覆無記	-8.7744
永斷	-8.77611
可知	-8.77643
現在前時	-8.77997
寂靜	-8.78282
最後	-8.78299
四蘊	-8.78677
各別	-8.78701
觀察	-8.78703
憂	-8.78717
不共	-8.78906
說為	-8.79083
過去未來	-8.79201
兩	-8.79267
雜	-8.79278
顛倒	-8.79395
無色界繫	-8.79795
願	-8.79812
苦諦	-8.8014
非有	-8.80413
譬如	-8.80462
曾	-8.80598
復次若	-8.80636
頗	-8.81036
苦智	-8.81071
十六	-8.81156
具足	-8.81386
礙	-8.81433
若謂	-8.81612
兼	-8.81713
實有	-8.81743
像	-8.81798
三昧	-8.81819
母	-8.82148
第六	-8.82179
瞋恚	-8.82286
沒	-8.82365
等智	-8.82954
不與	-8.82958
心心所	-8.83722
勝解	-8.83775
遍行	-8.841
能令	-8.84154
易	-8.84219
覆	-8.84235
尋伺	-8.84373
所引	-8.84409
痛	-8.84466
有作是說	-8.84722
眼等	-8.84791
獨	-8.85193
怖	-8.8529
一分	-8.8568
五識	-8.85792
此定	-8.86078
憂根	-8.86094
最勝	-8.86195
若於	-8.86341
二者	-8.86342
能為	-8.86378
修斷	-8.86521
前說	-8.86578
最	-8.86622
若人	-8.86806
念住	-8.8687
散	-8.86967
樹	-8.86971
第五	-8.86995
輕	-8.87078
諸煩惱	-8.87213
隨轉	-8.87249
謂除	-8.87364
勢力	-8.87418
好	-8.87634
尊者	-8.87663
果故	-8.87874
種類	-8.88012
俱起	-8.88149
及餘	-8.88208
現行	-8.88279
隨增	-8.88554
耳	-8.88559
能起	-8.88627
居	-8.88699
遠離	-8.8874
長養	-8.88984
羅	-8.89056
起故	-8.89078
第二靜慮	-8.89112
見取	-8.89146
若以	-8.89169
有異	-8.89324
三摩地	-8.89383
半	-8.89424
有餘	-8.89437
竟	-8.89458
眾同分	-8.89679
無相	-8.8968
無漏法	-8.90097
有學	-8.90139
喜根	-8.90309
生者	-8.90411
見斷	-8.90561
此三	-8.90792
等持	-8.91181
病	-8.91248
藏	-8.91386
宗	-8.91715
精進	-8.91733
皆有	-8.91947
廣說	-8.92097
非是	-8.92129
若說	-8.92429
須	-8.92524
慈	-8.92704
阿羅漢果	-8.93069
無願	-8.93102
進	-8.93254
主	-8.93739
謂此	-8.93775
開	-8.93853
道諦	-8.93948
行者	-8.93962
一者	-8.94123
非擇滅	-8.94212
此云	-8.94484
若不	-8.94568
有色	-8.94654
第三靜慮	-8.95544
不動	-8.95554
而生	-8.95604
並	-8.95604
此義	-8.95642
等至	-8.9588
由彼	-8.96236
離繫	-8.965
有為法	-8.96518
而非	-8.96743
沙門	-8.96776
。】「	-8.96935
現見	-8.97144
身根	-8.97165
頂	-8.97294
真	-8.97423
熱	-8.97522
豈	-8.97543
修習	-8.97764
爾	-8.978
從此	-8.97802
一時	-8.97872
亦然	-8.97888
一切法	-8.97917
亦得	-8.97917
同類因	-8.97994
十八	-8.98074
。」【	-8.98288
非學非無學	-8.98434
伺	-8.98465
婆羅門	-8.98554
法故	-8.98642
得果	-8.98723
戒禁取	-8.98967
器	-8.99
唯是	-8.99606
准	-8.99762
煖	-8.99808
加	-8.99914
塵	-9.00229
四諦	-9.00564
悲	-9.00681
威儀	-9.00788
意業	-9.00917
自身	-9.00969
前生	-9.01071
財	-9.0125
所斷	-9.01284
不然	-9.01505
或有說者	-9.01587
一向	-9.01775
應言	-9.01826
勝義	-9.02049
為境	-9.02072
近分	-9.02256
覺支	-9.02271
十八界	-9.02327
謗	-9.02501
已滅	-9.02538
被	-9.02562
應作是說	-9.03039
上界	-9.03125
凡夫	-9.03129
無想定	-9.03144
應知亦爾	-9.03417
寶	-9.03503
五陰	-9.03722
惡作	-9.04085
受等	-9.04094
一剎那	-9.04364
無邊	-9.04599
變	-9.04722
心所法	-9.04789
不修	-9.04855
有身見	-9.04982
等無間	-9.05012
空無邊處	-9.05356
伏	-9.05374
敬	-9.05441
男	-9.05739
答有	-9.05871
問若	-9.06009
垢	-9.06045
無生智	-9.06378
倒	-9.06435
鼻	-9.06453
依止	-9.06528
乘	-9.06609
空處	-9.06613
般涅槃	-9.06816
闕	-9.06868
己	-9.06997
憶	-9.07175
斯	-9.07277
受生	-9.07292
俱有	-9.07325
惡趣	-9.07649
性故	-9.07719
染心	-9.07787
別有	-9.07812
苦受	-9.07972
越	-9.08188
月	-9.08288
貪等	-9.08569
苦集	-9.08902
顯示	-9.09178
安	-9.09343
有三種	-9.09739
即此	-9.09784
故立	-9.09801
識住	-9.09825
弟子	-9.099
五部	-9.10183
為性	-9.10282
問若爾	-9.10468
國	-9.10533
迦	-9.10583
一識識	-9.10755
能斷	-9.10787
此經	-9.10847
深	-9.10854
終	-9.1086
我見	-9.10908
十二處	-9.10985
餘法	-9.11449
如人	-9.11629
輕安	-9.11719
思惟斷	-9.11751
象	-9.11796
不立	-9.11885
強	-9.11926
初定	-9.11928
雖無	-9.12074
口	-9.12191
能引	-9.12226
不作	-9.12246
一種	-9.12358
目	-9.12592
諸天	-9.12608
棄	-9.12665
眠	-9.12787
二定	-9.12941
等起	-9.12998
評曰	-9.13033
不退	-9.1308
亦說	-9.1316
間	-9.1323
所造	-9.13294
出家	-9.13394
造色	-9.13482
義故	-9.13561
況	-9.13627
不律儀	-9.13771
位中	-9.13905
獨覺	-9.13934
善業	-9.14005
不淨觀	-9.14064
有漏無漏	-9.14154
而得	-9.14354
不緣	-9.14405
能知	-9.14567
處所	-9.14589
但由	-9.14627
為緣	-9.14687
如是等	-9.1473
入正性離生	-9.14762
飲食	-9.14892
諸蘊	-9.15023
而有	-9.15099
勿	-9.15155
法界	-9.15468
惡行	-9.15594
手	-9.156
即彼	-9.15697
色處	-9.15833
所言	-9.16172
意樂	-9.16346
影	-9.16353
有法	-9.16372
見道所斷	-9.16434
:「	-9.16454
謂諸	-9.16935
夜	-9.17052
不言	-9.1707
勤	-9.17086
立為	-9.17109
沙門果	-9.17215
滅智	-9.17255
欲令	-9.17306
安住	-9.17413
青	-9.17436
亦能	-9.17489
悔	-9.17607
滅定	-9.17737
若成就	-9.17855
平等	-9.18046
婆	-9.18106
田	-9.18162
唯說	-9.18248
輪	-9.18295
摩	-9.18311
永	-9.18426
無記心	-9.18471
那	-9.18623
損	-9.18835
所行	-9.18859
對法	-9.18932
不繫	-9.18963
是故說	-9.18978
惱	-9.18995
佛世尊	-9.19198
因故	-9.19394
後起	-9.19447
隨其所應	-9.19488
佛說	-9.19648
所謂	-9.19655
受用	-9.19896
此四	-9.19899
得解脫	-9.19944
事故	-9.20081
為一	-9.20203
能作	-9.20229
段食	-9.20312
二十	-9.20349
彼成就	-9.20396
謂欲界	-9.20428
老死	-9.20566
不許	-9.20759
闇	-9.20815
異熟因	-9.20855
以彼	-9.20922
歸	-9.20978
第七	-9.20985
皆名	-9.21021
無我	-9.21027
答應作四句	-9.21098
障礙	-9.2129
識無邊處	-9.21482
超	-9.21546
果報	-9.21579
或復	-9.21714
凡夫人	-9.2179
過失	-9.21857
有別	-9.21882
但說	-9.21902
問此	-9.21911
見集所斷	-9.22046
未知智	-9.22094
最初	-9.22186
此釋	-9.22339
故無	-9.22506
菩提	-9.22628
有部	-9.22782
十四	-9.22786
同時	-9.22965
正法	-9.23071
十五	-9.23148
而說	-9.23185
不為	-9.23216
一法	-9.23261
欣	-9.23262
怨	-9.23439
生欲界	-9.23566
語業	-9.23576
九品	-9.23729
彼一切	-9.23851
置	-9.2426
殺生	-9.24314
而起	-9.24403
有一	-9.24546
金	-9.24683
舌	-9.24756
所造色	-9.24791
此智	-9.24814
此中說	-9.24925
此文	-9.24971
故作是說	-9.24975
不善心	-9.25002
四句	-9.25091
能作因	-9.25093
同一	-9.25096
欲色界	-9.25098
生無色界	-9.25166
有何	-9.25186
知他人心智	-9.25225
路	-9.25226
有漏法	-9.25308
猛利	-9.25315
於諸	-9.25319
百	-9.25372
例	-9.25447
苦根	-9.25477
有對	-9.25543
。《	-9.25628
別故	-9.25677
准此	-9.25752
是則	-9.25801
諸色	-9.25845
四靜慮	-9.26115
助	-9.26177
招	-9.26232
總名	-9.2635
苦法忍	-9.26375
未至	-9.26405
不捨	-9.2673
燒	-9.26796
見諦	-9.27023
種性	-9.27104
化生	-9.27315
轉故	-9.27434
故非	-9.27454
親近	-9.27485
悉	-9.27539
待	-9.2754
總說	-9.27545
不攝	-9.27622
有五	-9.27923
如是說者	-9.27929
能造	-9.28138
所修	-9.28552
第八	-9.28597
生得	-9.28685
無知	-9.2869
異熟生	-9.28699
穢	-9.28813
一心	-9.28924
黑	-9.29156
為顯	-9.29201
見苦斷	-9.29326
不受	-9.29844
應無	-9.29873
意界	-9.29877
答也	-9.2989
經言	-9.29921
諸有情	-9.30009
迷	-9.30061
現起	-9.30155
老	-9.30213
所知	-9.30345
不還	-9.30357
前三	-9.30493
於欲界	-9.30517
廣說乃至	-9.30631
有時	-9.30665
俱時	-9.30685
此人	-9.30698
標	-9.30736
隨一	-9.30748
緣識	-9.30801
增上緣	-9.30918
有報	-9.31007
比智	-9.31095
牛	-9.31119
智者	-9.31214
眷屬	-9.31428
亂	-9.31657
增益	-9.31834
法處	-9.32119
眼界	-9.3216
安立	-9.32193
是時	-9.32221
出離	-9.32606
依此	-9.32707
如世尊說	-9.32812
四禪	-9.331
智慧	-9.33196
以此	-9.33313
能感	-9.33315
身識	-9.33328
處中	-9.33374
陀	-9.33412
法中	-9.3353
續	-9.3354
說法	-9.33733
無漏道	-9.33922
聖種	-9.34093
轉變	-9.34138
所見	-9.3416
無餘	-9.3424
未來現在	-9.34264
九地	-9.34349
殊勝	-9.34394
如實知	-9.34417
容有	-9.3451
我等	-9.34616
非無	-9.34748
說一切有部	-9.34786
俱有因	-9.34817
士用果	-9.34957
經中	-9.34993
頭	-9.35001
味相應	-9.35046
章	-9.35197
身業	-9.35254
空三昧	-9.35331
答言	-9.35393
非常	-9.35506
與彼	-9.35569
生有	-9.35595
大毘婆沙	-9.35597
非色	-9.35641
犯	-9.35649
有四種	-9.35975
六處	-9.36095
天眼	-9.36096
遍處	-9.3612
救	-9.36142
獲	-9.36241
此言	-9.36252
此心	-9.3631
睡眠	-9.3635
異生性	-9.36463
一類	-9.36544
互相	-9.3659
身語業	-9.37186
滅盡定	-9.37316
此業	-9.37518
制	-9.37574
中無	-9.37681
色無色	-9.37741
他心	-9.37825
得生	-9.37856
千	-9.37908
答如是	-9.38044
勝故	-9.38206
非我	-9.38223
如彼	-9.38408
而無	-9.38454
尊	-9.38464
有緣	-9.38678
城	-9.38754
則有	-9.38776
光明	-9.38877
高	-9.3897
等三	-9.39013
不還果	-9.3903
別說	-9.39039
凡	-9.39285
色蘊	-9.39286
信等五根	-9.39551
作是說	-9.39718
六識	-9.39763
照	-9.39771
染污心	-9.39819
真實	-9.39884
父	-9.39928
益	-9.4004
憶念	-9.40081
預流果	-9.40219
得阿羅漢果	-9.40267
掉	-9.4037
在欲界	-9.40414
前二	-9.4044
為依	-9.40593
見道斷	-9.40815
調	-9.40855
一處	-9.40908
父母	-9.40932
與果	-9.41141
緣緣識	-9.41174
以何等故	-9.41224
二明	-9.41364
海	-9.41386
問也	-9.41412
如次	-9.41451
有覆無記	-9.41557
第四禪	-9.41616
若得	-9.41654
力故	-9.41771
非因	-9.41773
苦法智忍	-9.42049
上下	-9.42056
供養	-9.42079
掉舉	-9.42218
花	-9.4222
相故	-9.42385
令心	-9.42569
始	-9.42601
內外	-9.42649
見滅所斷	-9.42705
妙行	-9.42763
年	-9.4277
堅	-9.42811
先說	-9.42829
非聖	-9.42842
須陀洹	-9.42914
指	-9.42953
眾多	-9.4298
為同類因	-9.43051
自然	-9.43094
過去現在	-9.43119
夫	-9.43278
大地	-9.43348
寧	-9.43523
惡戒	-9.43824
行蘊	-9.43919
已知根	-9.43972
五見	-9.44022
理實	-9.44033
必無	-9.44063
慚	-9.44118
有漏緣	-9.44128
過去未來現在	-9.44341
欲貪	-9.44588
正受	-9.44728
世尊說	-9.44943
諍	-9.44966
不善法	-9.45014
告	-9.45014
各有	-9.45097
面	-9.45547
唯一	-9.45556
壽量	-9.45559
何者	-9.45673
一明	-9.45842
上品	-9.45882
不復	-9.45951
逆	-9.45961
利根	-9.4602
斷故	-9.46101
故作斯論	-9.46107
無礙	-9.4626
去來	-9.46282
阿	-9.46362
等故	-9.46425
無漏緣	-9.46578
攝故	-9.46624
無慚	-9.46657
頓	-9.46664
骨	-9.46707
識處	-9.46757
軟	-9.46802
彼亦如是	-9.46804
依身	-9.46885
梵志	-9.46923
入定	-9.46931
此事	-9.46988
方能	-9.47013
五趣	-9.4702
述曰此	-9.47047
異故	-9.47058
何所	-9.47086
境故	-9.47133
諸佛	-9.47187
無為法	-9.47228
願智	-9.47231
生等	-9.47275
必有	-9.47347
了知	-9.47429
三明	-9.47501
善不善	-9.47544
共相	-9.4764
而住	-9.47741
如實	-9.47864
輪王	-9.4787
心王	-9.47951
濁	-9.47952
等流果	-9.47968
神	-9.48059
三結	-9.4807
答彼	-9.48127
後生	-9.48202
唯緣	-9.4826
梵	-9.48285
四大種	-9.48291
過患	-9.48337
預流	-9.48403
六種	-9.48515
餘處	-9.48564
我所	-9.48636
亦復如是	-9.48646
靜	-9.48738
證得	-9.48765
不離	-9.48787
何因	-9.48848
作因	-9.48865
說有	-9.49031
責	-9.49102
法念住	-9.49102
非唯	-9.49121
數數	-9.4919
女人	-9.49199
三根	-9.49219
俗	-9.49316
愛結	-9.49362
無常想	-9.49534
坐	-9.4995
傳	-9.50097
一生	-9.50116
是也	-9.50167
一切眾生	-9.50235
是說	-9.5032
無因	-9.50323
上流	-9.50345
心心數法	-9.50439
十三	-9.50506
滅道	-9.50656
受持	-9.50661
則無	-9.5077
中陰	-9.50786
興	-9.50885
體性	-9.51153
脫	-9.51161
三品	-9.51209
有何差別	-9.51267
二因	-9.51341
未來世	-9.51395
生滅	-9.51426
若然者	-9.51607
大種所造	-9.51613
滅諦	-9.51628
遇	-9.51628
貪欲	-9.51711
義是	-9.5176
後二	-9.51841
又如	-9.51877
恐	-9.51919
讚	-9.5207
超越	-9.52077
道類智	-9.52123
四相	-9.52133
八智	-9.52197
既無	-9.52241
必定	-9.52243
若生	-9.52292
彼地	-9.52326
一切皆	-9.52384
無心	-9.52434
之所	-9.52471
方得	-9.52528
所不攝	-9.52595
心等	-9.52609
婬	-9.52715
是名非	-9.52798
達	-9.52824
是善	-9.52881
學心	-9.52883
見結	-9.52949
就中	-9.53073
養	-9.53235
身受	-9.53364
枝	-9.5339
後有	-9.53395
諸結	-9.53397
不失	-9.53409
不依	-9.53449
增上果	-9.53546
於他	-9.53599
無上	-9.53637
苦樂	-9.53736
異類	-9.53829
遂	-9.53976
所成	-9.53994
不現在前	-9.54047
時解脫	-9.54141
能持	-9.54211
微細	-9.54318
變壞	-9.54371
勝處	-9.5438
退法	-9.54521
練根	-9.54543
又彼	-9.54651
藥	-9.54715
四念住	-9.54756
不善根	-9.54817
捨根	-9.54827
翻	-9.55064
洲	-9.55075
修行	-9.55161
此亦	-9.55178
尼	-9.5526
久	-9.55318
云何非	-9.55327
於境	-9.55399
隨眠隨增	-9.55424
斷惑	-9.55511
餘三	-9.55538
於餘	-9.55567
無想天	-9.55581
得非擇滅	-9.55617
生已	-9.55632
歸依	-9.55686
表業	-9.55733
善惡	-9.55883
一果	-9.56011
四聖諦	-9.56067
第九	-9.56143
則應	-9.56327
彼得	-9.56338
但言	-9.5641
舊	-9.56463
喜樂	-9.56479
自界	-9.5653
無漏智	-9.56623
尚	-9.5668
河	-9.5677
未來修	-9.56777
所化	-9.5683
無畏	-9.56865
問何故作此論	-9.57031
身心	-9.57186
出世	-9.57216
集智	-9.57295
昔	-9.57327
會	-9.5735
所受	-9.57469
無間生	-9.57697
此名	-9.57849
遊	-9.5786
苦法智	-9.57887
阿毘曇	-9.5805
若心	-9.58186
能治	-9.583
多少	-9.58303
無諍	-9.5864
無色定	-9.58752
可愛	-9.58765
有差別故	-9.58768
謂若	-9.58786
今當說	-9.59056
盜	-9.5911
反	-9.59188
又云	-9.59451
嗔	-9.59463
色無色界繫	-9.59497
三業	-9.59532
燈	-9.59584
龍	-9.59612
三十六	-9.59714
不信	-9.5976
請	-9.5992
謂善	-9.6002
略說	-9.60035
非理	-9.60053
次第生	-9.60089
別立	-9.60106
發起	-9.60191
或說	-9.60262
誦	-9.6037
阿難	-9.6038
一切有情	-9.60401
無礙道	-9.60522
有多	-9.6058
第十	-9.60592
彼非	-9.60609
非業	-9.6061
冷	-9.60615
或非	-9.60636
暫	-9.6067
情	-9.60743
十智	-9.60842
復次此	-9.60853
已上論文	-9.60854
無所	-9.60925
故曰	-9.60939
勝進	-9.61037
世界	-9.61068
作是念	-9.61074
立名	-9.611
斷煩惱	-9.61199
多分	-9.61367
不由	-9.6152
後三	-9.6153
所緣緣	-9.61532
為名	-9.61619
迴轉	-9.61627
應有	-9.61648
留	-9.61682
無容	-9.61692
相應因	-9.61747
近事	-9.61851
四緣	-9.62059
然後	-9.62204
了別	-9.6221
遍行隨眠	-9.62221
心法	-9.62237
舍	-9.62343
飲	-9.62392
隱	-9.62419
毒	-9.62446
短	-9.62467
此身	-9.62491
隨煩惱	-9.6278
二根	-9.62809
漸次	-9.62921
所立	-9.63069
是無記	-9.63115
而言	-9.63319
第三禪	-9.63362
徵	-9.63423
是故不說	-9.63507
為自性	-9.63577
引生	-9.6362
聖教	-9.63675
盛	-9.63742
雖復	-9.63786
五百	-9.63817
應名	-9.63833
生處	-9.63882
如所說	-9.63896
復說	-9.63904
八種	-9.63947
大悲	-9.64036
有六	-9.64179
執我	-9.64246
其體	-9.64294
正知	-9.64411
妄	-9.64434
眼識界	-9.6474
以為	-9.64878
若是	-9.64883
金剛喻定	-9.64958
現世	-9.65009
具縛	-9.65089
色陰	-9.65115
棄捨	-9.65318
心不	-9.65351
世俗道	-9.65354
無學法	-9.6544
由斯	-9.65469
聚中	-9.6557
是彼	-9.65634
二界	-9.65652
畢竟	-9.65777
無愧	-9.65806
復次以	-9.65893
緣故	-9.65953
為先	-9.65991
六識識	-9.66014
顯色	-9.66045
遣	-9.66118
歡喜	-9.66125
五識身	-9.66153
業果	-9.66234
第四句	-9.66274
無教	-9.664
入胎	-9.66416
說曰	-9.66422
勸	-9.66467
二禪	-9.66521
已下	-9.666
能取	-9.66665
十七	-9.66667
諸業	-9.66723
無學心	-9.66749
我今	-9.66782
池	-9.66851
此地	-9.66885
便有	-9.66951
漏盡	-9.6698
非不	-9.6699
四無色	-9.67114
二緣	-9.6713
彼於	-9.67286
鬼	-9.67295
正念	-9.67322
答無	-9.67449
尸羅	-9.67461
應成	-9.67465
此明	-9.67607
虛誑語	-9.67657
有尋有伺	-9.67706
是不善	-9.67713
至得	-9.67725
互	-9.67835
答諸	-9.67836
一來果	-9.67845
得正決定	-9.67875
姓	-9.67997
我當	-9.68088
慧解脫	-9.68128
三禪	-9.68134
覺分	-9.68243
上座	-9.68288
耳識	-9.68352
故不名	-9.68365
草	-9.68392
行陰	-9.68478
到	-9.68574
如理	-9.6858
正思惟	-9.686
馬	-9.68618
隨行	-9.68631
十九	-9.68821
潤	-9.68836
慳	-9.68867
隔	-9.68873
後說	-9.6888
成立	-9.68894
誑	-9.68943
不放逸	-9.69003
都無	-9.69055
未盡	-9.69256
彼無	-9.69267
別相	-9.69286
二處	-9.69333
俱舍	-9.69375
人趣	-9.69458
不住	-9.69465
勢用	-9.69495
六因	-9.69728
歿	-9.69733
愚癡	-9.69874
更無	-9.69923
覺觀	-9.69931
三地	-9.69961
於自	-9.69968
能證	-9.69977
從彼	-9.70048
林	-9.701
經主	-9.70103
名曰	-9.70126
圓	-9.7022
懷	-9.70222
諸地	-9.70371
不樂	-9.70499
斷善根	-9.70559
普	-9.70622
倍	-9.70699
梵行	-9.70799
疾	-9.7084
然彼	-9.70866
死生	-9.70905
緣欲界	-9.70962
生色界	-9.71008
道支	-9.71009
必不	-9.71049
皆得	-9.71103
有差別	-9.71156
恭敬	-9.7116
須陀洹果	-9.71204
不可說	-9.71209
修道所斷	-9.71233
齊	-9.7126
眼見	-9.71493
是苦	-9.71498
脩	-9.71506
或時	-9.71539
為我	-9.71561
與此相違	-9.71591
諸惑	-9.71673
明知	-9.71696
不壞	-9.71733
神足	-9.71779
資	-9.71785
二智	-9.71855
無報	-9.71875
偏	-9.71877
能見	-9.7195
末	-9.72045
背	-9.72052
百千	-9.72159
者何	-9.72161
二果	-9.7217
但有	-9.72184
入出息	-9.72228
若作是說	-9.72455
是何	-9.72528
學無學	-9.72669
勢	-9.72684
體是	-9.72742
取果	-9.72744
和	-9.72816
定有	-9.72829
分明	-9.72847
宮	-9.72875
曾得	-9.72986
化心	-9.73003
一切應分別	-9.73005
撥	-9.73076
赤	-9.73093
男女	-9.73143
皆能	-9.7316
盡智無生智	-9.73292
無異	-9.7338
一切處	-9.73421
無智	-9.73434
於一	-9.73585
有幾	-9.73612
若業	-9.73644
流轉	-9.7371
簡擇	-9.73835
此非	-9.73859
為勝	-9.73965
不行	-9.73978
人中	-9.7398
魔	-9.74078
晝	-9.74243
唯於	-9.74285
法爾	-9.74423
等見	-9.74524
刀	-9.74551
戒取	-9.74623
及與	-9.7469
更樂	-9.74718
汝等	-9.74742
聚集	-9.74835
如其次第	-9.7484
四沙門果	-9.74854
破僧	-9.7489
意近行	-9.74908
若起	-9.7504
無貪	-9.7512
為所緣	-9.75161
邊見	-9.75194
近行	-9.75209
造作	-9.75229
獲得	-9.75276
家家	-9.75328
有覺有觀	-9.75343
石	-9.75412
後時	-9.75595
託	-9.7561
法入	-9.75687
相望	-9.75772
色入	-9.7582
起時	-9.75858
身證	-9.75907
可說	-9.75918
五蓋	-9.75993
阿那含	-9.76021
一切隨眠隨增	-9.76042
不通	-9.76056
於前	-9.76067
有見	-9.76108
見色	-9.7623
當說	-9.76266
是名為	-9.76282
俱行	-9.76297
不具	-9.76356
是我	-9.76366
愛盡	-9.76414
生起	-9.76453
故彼	-9.76511
梵世	-9.76521
無流	-9.76569
本論	-9.7657
形色	-9.76608
貪瞋癡	-9.76675
能了別	-9.76696
邊際	-9.76707
亦通	-9.76801
或無	-9.76833
如比丘	-9.76913
八地	-9.7696
純	-9.76974
憍	-9.76985
彼亦	-9.77067
惡業	-9.77161
相應故	-9.77175
殊	-9.77215
作如是	-9.77246
有因	-9.7739
難也	-9.77404
隨相	-9.77436
但是	-9.7757
明了	-9.77572
若不爾者	-9.77719
愧	-9.77746
取蘊	-9.77792
當來	-9.77804
第二禪	-9.77906
若彼	-9.77921
唯除	-9.77936
無退	-9.78033
此復云何	-9.781
初二	-9.78236
作如是言	-9.7828
離繫得	-9.78326
退失	-9.78345
一切使使	-9.78438
新	-9.78453
作四句	-9.78505
生於	-9.78519
其相	-9.78519
忿	-9.78836
異相	-9.78888
恩	-9.78913
節	-9.78947
資糧	-9.78968
身表	-9.79109
緣彼	-9.79276
二法	-9.79281
華	-9.79381
聖諦	-9.79383
有人	-9.79385
作業	-9.79422
無對	-9.79443
眼觸	-9.79463
四行	-9.79471
隨心轉	-9.79558
彼有	-9.79596
四大造	-9.79893
順決擇分	-9.7995
晝夜	-9.79977
於一切	-9.79997
印	-9.80025
未離欲染	-9.80222
心俱	-9.80229
生因	-9.80362
如文可解	-9.80486
傍生	-9.80575
何故名	-9.80583
鈍根	-9.80611
唯依	-9.80657
謂有	-9.80667
時得	-9.8068
現在世	-9.80739
非見	-9.80764
二義	-9.80822
當生	-9.8084
又此	-9.80897
二心	-9.80935
道法智	-9.80955
鈍	-9.81024
一念	-9.81048
神通	-9.81071
三者	-9.81155
中說	-9.81155
為是	-9.81189
何法	-9.81223
示	-9.81247
謂前	-9.81248
甚	-9.8131
意處	-9.81338
見至	-9.81343
第二句	-9.8141
災	-9.81443
果者	-9.81468
有八	-9.81487
何處	-9.81595
能發	-9.81661
無漏心	-9.81683
不染污	-9.81697
假立	-9.81699
無也	-9.81714
又說	-9.81732
得故	-9.81772
不應說	-9.81808
定心	-9.81888
色法	-9.81926
苦聖諦	-9.82042
次第緣	-9.82048
故正理云	-9.82055
集諦	-9.8206
修所成	-9.8212
對治故	-9.8225
十種	-9.82326
作者	-9.82415
香味	-9.82438
他身	-9.82474
也問	-9.82743
悅	-9.82777
俗智	-9.82887
斷善	-9.82901
上二界	-9.83051
極成	-9.83096
一切遍	-9.83176
或依	-9.83327
車	-9.83329
彼心	-9.83357
大師	-9.83576
喜足	-9.83584
意行	-9.8362
遍行因	-9.83668
死有	-9.83678
毀	-9.83683
大梵	-9.83712
依何	-9.83808
不待	-9.83837
所繫	-9.83891
有愛	-9.83896
應非	-9.83983
人天	-9.84096
質	-9.84098
復作是說	-9.84112
不相應法	-9.84142
怖畏	-9.84165
諸所有	-9.84201
苦行	-9.84243
種姓	-9.84319
未來四	-9.84339
薪	-9.84438
謂從	-9.84484
念處	-9.84492
受報	-9.84578
此下	-9.84719
眾苦	-9.84736
相雜	-9.84799
阿那含果	-9.84826
調伏	-9.84918
得名	-9.8492
一切煩惱	-9.84943
穢污	-9.8498
轉根	-9.85007
賢聖	-9.85159
正智	-9.85159
不淨想	-9.85198
第三句	-9.85269
問何等法	-9.85281
相應耶	-9.85289
何謂非	-9.85328
滅時	-9.85873
若作	-9.85908
三受	-9.85944
收	-9.85986
染著	-9.85988
名之為	-9.8604
不了	-9.86077
便生	-9.86084
極少	-9.86121
愛樂	-9.86234
別釋	-9.86273
下品	-9.86345
非心	-9.86346
梵王	-9.86458
又世尊言	-9.86509
設成就	-9.8657
眼耳	-9.8666
應知此中	-9.86681
設有	-9.86712
大德	-9.86747
妄語	-9.86836
雨	-9.86889
一人	-9.86927
天中	-9.86946
異名	-9.86953
義者	-9.86954
皆無	-9.8698
過未	-9.87036
是有為	-9.87131
能了	-9.87178
已知	-9.87179
轉法輪	-9.87239
俱解脫	-9.87284
六根	-9.87321
無用	-9.87355
經中說	-9.87391
問答	-9.87519
胎	-9.87582
恚結	-9.87604
第四定	-9.87755
廣大	-9.87788
生相	-9.87861
畏	-9.87878
無差別	-9.87906
非情	-9.87922
未知當知根	-9.87928
此亦如是	-9.87965
法性	-9.88115
乎	-9.88137
勝果道	-9.88157
未知根	-9.88243
或由	-9.88295
無失	-9.88296
具壽	-9.88298
若生欲界	-9.88309
修道斷	-9.88369
六識身	-9.88377
餘皆	-9.88532
身念住	-9.88585
五地	-9.88599
未曾得	-9.88651
功用	-9.88728
黃	-9.88758
濕	-9.88764
如有	-9.88831
道理	-9.88841
受樂	-9.89157
然此	-9.89247
學法	-9.89272
有所	-9.89289
則不	-9.89295
南	-9.89325
自下	-9.89357
放逸	-9.89358
續生	-9.89365
為幾緣	-9.89579
三因	-9.89639
我慢	-9.89648
此道	-9.89772
我說	-9.89786
此五	-9.89788
增故	-9.89806
諸阿羅漢	-9.89813
有成就	-9.89925
一地	-9.89955
夢	-9.90014
說亦如是	-9.90039
釋也	-9.90186
雜染	-9.90194
莫	-9.90213
雖是	-9.90225
雲	-9.9032
六界	-9.90389
不相應行	-9.90464
偈	-9.90484
更有	-9.90593
心心法	-9.90599
不善業	-9.90606
相應心	-9.90612
止息	-9.90664
冥	-9.90694
無能	-9.90701
相續中	-9.90786
際	-9.90791
定中	-9.90791
頌中	-9.90888
為說	-9.90893
應作四句	-9.9091
比	-9.91005
證知	-9.91034
木	-9.91081
盡無生智	-9.91157
三不善根	-9.91159
靜慮中間	-9.91195
工巧	-9.91197
亦與	-9.9144
一品	-9.91503
初得	-9.91547
三緣	-9.91584
隨信行	-9.91725
首	-9.91746
報法	-9.91845
思擇	-9.91868
亦名為	-9.9188
學位	-9.91927
為欲	-9.91953
也言	-9.92044
擇法	-9.92081
為等無間	-9.92115
九種	-9.92175
之時	-9.92234
謂色	-9.92264
見道中	-9.92288
未離欲	-9.92455
律	-9.92578
未離	-9.92599
不以	-9.92623
無漏根	-9.92747
六地	-9.92783
初起	-9.92812
毘	-9.92812
無尋無伺	-9.92822
身行	-9.92829
意識相應	-9.92869
非如	-9.9302
初句	-9.93099
已辯	-9.93116
宿	-9.93131
亦復	-9.93151
得成	-9.93178
梵天	-9.93218
身語	-9.93293
故得	-9.93383
自部	-9.93386
迹	-9.93406
心生	-9.93455
唯在	-9.93464
睡	-9.93589
此根	-9.93598
亦攝	-9.93613
衰	-9.93637
為正	-9.93656
當有	-9.93695
二俱	-9.93735
無記法	-9.93774
所證	-9.93794
可見	-9.9382
身口業	-9.93903
法輪	-9.9391
與心	-9.9394
除餘法	-9.94014
何況	-9.94032
繫縛	-9.94078
滅故	-9.94092
地中	-9.94095
安隱	-9.94157
苾芻當知	-9.94188
又契經說	-9.94225
周	-9.94287
攝受	-9.94357
差別故	-9.94377
地界	-9.94383
有為相	-9.94475
業異熟	-9.94483
無表色	-9.94668
有異熟	-9.9473
亦成就	-9.94787
生長	-9.94791
總相	-9.94817
生天	-9.94817
皆通	-9.94894
彼不	-9.94919
已離欲染	-9.94942
正理云	-9.94992
之中	-9.95002
毘婆沙師	-9.95024
作是言	-9.95091
雙	-9.95173
若緣	-9.95268
未曾	-9.9528
直	-9.95374
有勝	-9.954
患	-9.95446
問云何	-9.95463
四陰	-9.95465
所依身	-9.95508
心故	-9.95516
惡不善法	-9.95537
正覺	-9.9555
一緣	-9.9558
俱轉	-9.95624
是色	-9.9583
幾根	-9.95879
其義	-9.95902
是有漏	-9.96108
生得善	-9.96141
應許	-9.96146
頌言	-9.96253
辟支佛	-9.96265
地等	-9.9628
無學正見	-9.96325
不苦不樂受	-9.96338
修慧	-9.96358
無異熟	-9.96372
寬	-9.96394
言顯	-9.96397
敘	-9.96444
欲顯	-9.96508
非受	-9.96528
契經說	-9.96655
薩婆多	-9.96768
說一切有部發智	-9.96771
或以	-9.96812
復次比丘	-9.9687
之言	-9.9695
便作是念	-9.96967
見苦	-9.97026
何不	-9.97034
答此	-9.9708
自他	-9.97132
不盡	-9.97165
所發	-9.97166
饒益	-9.97241
本有	-9.97289
積集	-9.97313
二十二根	-9.97326
賢	-9.97335
書	-9.97353
諸見	-9.97379
有業	-9.97461
都	-9.97476
有退	-9.97571
以諸	-9.97655
覺知	-9.9766
拔	-9.97674
無執受	-9.97675
如先說	-9.97709
羅漢	-9.97737
彼結	-9.97746
除何等法	-9.97751
心相應	-9.97754
邪命	-9.97879
利益	-9.97886
現在無	-9.97888
有七	-9.97893
何用	-9.97906
餓鬼	-9.97912
前際	-9.98105
以是事故	-9.9812
善色	-9.98169
增盛	-9.98187
若生色界	-9.98247
損減	-9.98259
離染得	-9.98267
唯此	-9.98279
聽	-9.98329
及諸	-9.98368
等法	-9.98448
分位	-9.9845
習智	-9.98481
彼根	-9.98552
爾所	-9.98573
變化心	-9.98587
疑結	-9.98598
導	-9.98636
是無漏	-9.98698
芽	-9.98717
非異熟	-9.98737
雜亂	-9.9876
而轉	-9.98765
視	-9.98852
擇	-9.98874
牽	-9.98909
具知根	-9.98923
前所說	-9.98924
無欲	-9.9896
一切智	-9.98962
彼人	-9.98977
畜生	-9.99057
諂	-9.99066
狹	-9.99144
受想行識	-9.99175
二形	-9.99184
非定	-9.99273
無過	-9.99308
鐵	-9.99317
通達	-9.99413
不異	-9.99448
故不說	-9.99487
積	-9.9952
慚愧	-9.99572
八解脫	-9.99596
然非	-9.997
頌曰至	-9.99721
得自在	-9.99768
氣	-9.99811
餘四	-9.9989
相應無明	-9.99891
此處	-9.99916
密	-9.99931
意說	-9.99943
於色	-9.99979
卵	-9.99992
斷滅	-9.99996
業感	-9.99998
懈怠	-10.0004
無緣	-10.0018
增上慢	-10.002
云何通	-10.0024
能招	-10.003
若斷	-10.0032
有執受	-10.0035
言說	-10.0048
伽	-10.0056
或是	-10.0057
方名	-10.0059
二生	-10.0059
於法	-10.0061
無生	-10.0066
不共無明	-10.007
非報非報法	-10.0078
三十三天	-10.0082
謂除前相	-10.0084
持戒	-10.0087
不時解脫	-10.0088
見苦集所斷	-10.009
初禪地	-10.0102
滅者	-10.0114
淨解脫	-10.0115
漸漸	-10.0118
已上	-10.0121
信根	-10.0127
若無漏	-10.013
依彼	-10.0131
三蘊	-10.0151
薄伽梵	-10.0153
已盡	-10.0165
欲界修所斷	-10.0182
久住	-10.0197
】【	-10.02
犯戒	-10.0202
不相離	-10.0211
色想	-10.0216
謂依	-10.0223
具有	-10.0226
善等	-10.0226
未來法	-10.0227
所應	-10.0229
斷結	-10.023
正理論	-10.0237
毘婆沙	-10.0239
不欲	-10.0242
遲	-10.0252
等四	-10.0252
心解脫	-10.0253
士	-10.0254
令彼	-10.0256
能依	-10.0283
嫉	-10.0285
牒	-10.0286
根本地	-10.0287
與餘	-10.0288
餘如前說	-10.0289
現有	-10.0289
言無	-10.0294
若定	-10.0298
諸有情類	-10.0299
鳥	-10.0305
無斷	-10.0313
惛沈	-10.0325
別解脫律儀	-10.0325
專	-10.0334
五支	-10.0335
有五種	-10.0338
加行善	-10.034
此等	-10.034
七種	-10.0346
恃	-10.035
捨受	-10.0357
即名	-10.0358
作證	-10.036
仙人	-10.0363
缺	-10.0371
喜覺支	-10.0372
非於	-10.0373
非法	-10.0374
言依	-10.0375
常住	-10.0378
授	-10.0379
受想	-10.039
不應道理	-10.0391
惡道	-10.0392
雜修	-10.0394
如契經言	-10.0398
四果	-10.0406
若觸	-10.0418
處起	-10.0425
學處	-10.0438
隨法行	-10.0442
迴	-10.0451
修定	-10.0453
別緣	-10.0454
一行	-10.0455
受者	-10.0457
是故彼	-10.046
雖不	-10.0463
段	-10.0463
若據	-10.0466
所緣境	-10.0475
能滅	-10.0475
總緣	-10.0485
以是故	-10.0488
希求	-10.0494
前已說	-10.0497
虛	-10.0501
業力	-10.0504
謂佛	-10.0504
九智知除滅	-10.051
五因	-10.0511
皆悉	-10.0512
餘二	-10.052
等言	-10.0521
彼作是說	-10.053
傍	-10.0533
知見	-10.0541
答若	-10.0541
廣說如上	-10.0544
舊云	-10.0549
眼見色	-10.055
淨無漏	-10.0552
善行	-10.0557
未起	-10.0558
是何義	-10.0561
但緣	-10.0562
若智	-10.057
定無	-10.0576
猶豫	-10.0586
體非	-10.0588
劣故	-10.0589
酒	-10.0593
波	-10.0601
依初靜慮	-10.0601
者即	-10.0602
曾聞	-10.0605
百大阿羅漢等造三藏法師玄奘奉詔譯	-10.0624
說言	-10.0629
有覆無記心	-10.0633
無見	-10.0633
於我	-10.0638
沙	-10.0641
今詳	-10.0647
所觸	-10.0648
謂由	-10.0653
有餘師言	-10.0659
云何為	-10.0668
舍利子	-10.0669
一切種	-10.0676
佛告	-10.0684
緣色	-10.0686
等取	-10.0687
曲	-10.0689
變異	-10.0698
三諦	-10.0705
故應	-10.0712
為果	-10.0717
假名	-10.0718
諸隨眠	-10.0723
前四	-10.0724
六入	-10.0726
結使	-10.0727
八根	-10.0736
今此	-10.0737
應果	-10.0737
非一切	-10.0747
厭離	-10.0754
決	-10.0769
受苦	-10.0774
有如是	-10.0775
苦集諦	-10.0775
即以	-10.0779
為有	-10.0784
】	-10.0786
飢	-10.0798
一說	-10.0803
薄	-10.0803
七日	-10.0809
謂之	-10.0812
三無漏根	-10.0814
如是名為	-10.0816
有用	-10.0818
不遍	-10.0822
與前	-10.0824
差別者	-10.084
此見	-10.0841
信勝解	-10.0842
竝	-10.0848
布施	-10.0848
是故偏說	-10.0849
有作用	-10.0851
如是思惟	-10.0859
二十二	-10.0866
今時	-10.0868
上來	-10.0872
女根	-10.0876
為令	-10.0877
室	-10.0879
取境	-10.0879
謬	-10.0887
可意	-10.0888
各各	-10.089
長者	-10.0892
引發	-10.0894
釋頌	-10.0899
不取	-10.09
一劫	-10.0904
既言	-10.0906
無漏慧	-10.0906
三藏	-10.0907
焰	-10.0913
轉輪王	-10.0915
能離	-10.0919
結盡	-10.0938
土	-10.0939
莊嚴	-10.094
令其	-10.0944
俱非	-10.095
勤修	-10.095
二部	-10.0959
有情數	-10.0959
彼經	-10.0963
未至定	-10.0968
忍智	-10.0971
但名	-10.0972
天趣	-10.0977
能憶	-10.0984
謂三界	-10.0987
判	-10.0992
疏	-10.0993
引起	-10.1002
不善無記	-10.1002
審	-10.1002
我執	-10.1002
是人	-10.1017
寂	-10.1024
禮	-10.1024
福業	-10.1027
滅盡	-10.1028
由是	-10.1037
是常	-10.104
念覺支	-10.1042
有為緣	-10.1043
葉	-10.1051
穀	-10.1055
命者	-10.1057
如是所說	-10.1073
非實	-10.1075
從此第二	-10.1077
我於	-10.1082
聖法	-10.1087
同前	-10.1087
作是	-10.1088
損害	-10.1089
非所斷	-10.1094
七支	-10.1095
變易	-10.1096
有非	-10.1097
不隱沒無記	-10.1099
見滅斷	-10.1104
實義	-10.1104
故唯	-10.1111
謂欲界繫	-10.1117
為證	-10.1124
尊重	-10.1126
有情居	-10.1127
同故	-10.1128
不應言	-10.1131
能障	-10.1131
住處	-10.1137
十二入	-10.1145
為加行	-10.1145
所執	-10.1155
壽命	-10.1157
謂生欲界	-10.1169
常見	-10.1174
無礙解	-10.119
不動法	-10.1197
於苦	-10.1198
可爾	-10.12
相違故	-10.1204
守護	-10.1205
佛教	-10.121
傳說	-10.1212
餘煩惱	-10.1217
號	-10.1235
即便	-10.1235
三事	-10.1236
五取蘊	-10.1241
佛經說	-10.1246
三性	-10.125
臥	-10.1251
族	-10.1262
八智知除滅	-10.1266
園	-10.1269
習氣	-10.1271
歲	-10.1283
若執	-10.1285
善不善無記	-10.1286
起者	-10.1287
無學位	-10.1289
唯取	-10.1289
在家	-10.1294
現在一	-10.1295
列	-10.1302
當得	-10.1308
二人	-10.1308
麤	-10.1309
杖	-10.1309
尊者舍利弗	-10.1312
誰成就	-10.1314
應是	-10.1315
宜	-10.1315
非想	-10.1316
令他	-10.1316
事業	-10.1318
彼行	-10.1325
入見道	-10.1329
而能	-10.1335
無學道	-10.1335
諸心	-10.1335
而未	-10.1335
無二	-10.1338
理故	-10.1339
唯與	-10.134
於所緣	-10.1342
雖非	-10.1349
言我	-10.1368
心起	-10.137
得涅槃	-10.1371
生中	-10.1372
能得	-10.1373
泥	-10.1381
契經中說	-10.1386
通果心	-10.1386
難可	-10.1391
無作	-10.1392
別明	-10.1393
非無漏	-10.1396
若有漏	-10.1396
是其	-10.14
名也	-10.1403
誹謗	-10.1417
退時	-10.1419
故說為	-10.1426
問彼	-10.1428
名有	-10.1436
繫屬	-10.144
二見	-10.1445
數習	-10.1449
義也	-10.1457
生彼	-10.1461
等事	-10.1462
釋云	-10.1464
三定	-10.1469
非數滅	-10.147
北	-10.147
渴	-10.147
後念	-10.1472
隨應	-10.1483
金剛	-10.1487
謂根	-10.1488
眼入	-10.1491
名身	-10.1493
師說	-10.15
識界	-10.1501
雜穢語	-10.1501
受蘊	-10.1503
欲界中	-10.1505
以何	-10.1506
逼	-10.1507
意入	-10.1509
天上	-10.151
慧根	-10.1514
亦成	-10.1515
是因	-10.1521
品類	-10.1522
凡夫性	-10.1523
賊	-10.1532
觸處	-10.1537
無所緣	-10.1537
散亂	-10.1538
為遮	-10.1546
彼宗	-10.1549
唯修所斷	-10.1554
過去世	-10.1561
若修	-10.1562
依處	-10.1562
四智	-10.1574
麁細	-10.1581
有四句	-10.1581
色愛盡	-10.1584
先起	-10.1587
他地	-10.1587
不生法	-10.1589
及相應法	-10.1595
離欲界染	-10.1595
見集斷	-10.1597
有殊	-10.1601
論文	-10.1603
對治道	-10.1607
思惟所斷	-10.1611
而作此論	-10.1614
而不說者	-10.1615
皆具	-10.1615
學者	-10.162
別解脫	-10.1621
萬	-10.1622
於佛	-10.1627
自知	-10.1638
縱	-10.1639
髮	-10.1646
撥無	-10.1648
無所有	-10.1648
所取	-10.165
無尋唯伺	-10.1657
男根	-10.1658
二諦	-10.1662
不染無知	-10.1663
惠	-10.1687
故不立	-10.169
訶	-10.1693
斯陀含果	-10.1698
斷智	-10.171
勝劣	-10.1711
雜修靜慮	-10.1716
出要	-10.172
初剎那	-10.1725
謂不善	-10.1727
四行相	-10.1728
令不	-10.1728
安樂	-10.173
全無	-10.1739
行人	-10.1742
不可得	-10.1748
信等	-10.1755
堅固	-10.1757
百年	-10.1757
箭	-10.1763
所長養	-10.1763
何義	-10.1772
前五	-10.1776
色身	-10.1778
起欲	-10.1784
香等	-10.1788
若干	-10.1799
定者	-10.1819
欲漏	-10.1823
防護	-10.1823
契經中	-10.1824
微妙	-10.183
答以	-10.1833
不可見	-10.1841
應理	-10.1841
彼言	-10.1845
欲愛	-10.1856
造業	-10.1857
領納	-10.1857
之法	-10.187
欲染	-10.1872
福田	-10.1873
存	-10.1873
鏡	-10.1878
得不還果	-10.1882
毛	-10.1883
一由	-10.1893
無記根	-10.1901
此復	-10.191
大地法	-10.1912
佛經	-10.1915
彼作是念	-10.1916
無覆無記心	-10.1917
近住	-10.1918
端嚴	-10.1918
謂欲	-10.1922
所捨	-10.1928
長等	-10.1935
六智	-10.1939
三洲	-10.1942
品中	-10.1945
非實有	-10.1947
盡故	-10.1948
乳	-10.195
成就過去	-10.195
根者	-10.1954
後際	-10.1956
出定	-10.1962
宿住	-10.1963
若先	-10.1963
但依	-10.1963
牟尼	-10.1964
當云何通	-10.1968
無慚無愧	-10.1969
可言	-10.1973
皆不	-10.1974
佛法	-10.1978
非一	-10.1978
提	-10.1979
皮	-10.1979
西	-10.1979
親友	-10.1981
又若	-10.1981
失念	-10.1983
無覆	-10.1983
何以	-10.1985
顯了	-10.1987
其中	-10.2001
法類	-10.2001
見諦斷	-10.2004
肉	-10.2004
耳根	-10.2004
不相違	-10.2005
修惑	-10.2015
何故不說	-10.2017
已起	-10.202
二乘	-10.2022
為俱有因	-10.2028
道故	-10.203
諸有為法	-10.2035
於後	-10.2038
相似因	-10.2045
為止	-10.2047
復言	-10.2054
不隨	-10.2056
狂	-10.2069
心受	-10.2076
有心	-10.2083
空界	-10.2088
期心	-10.2088
通二	-10.2089
自類	-10.2092
有此	-10.2093
假說	-10.2095
音聲	-10.2103
如上	-10.2104
若受	-10.2106
入母胎	-10.2108
非遍行	-10.2109
彼定	-10.2109
如前釋	-10.2112
威勢	-10.2113
彼尊者	-10.212
一界	-10.212
不相似	-10.2126
清	-10.2128
三界繫	-10.2131
所住	-10.2136
已離	-10.214
其義云何	-10.214
滿足	-10.214
斷見	-10.2146
憙	-10.2147
風界	-10.2153
纏所纏	-10.2157
防	-10.2158
瓶	-10.2168
二由	-10.2169
熏	-10.2174
道聖諦	-10.2174
八品	-10.2175
非緣	-10.218
義成	-10.218
破壞	-10.2184
正定	-10.2191
法相	-10.2194
縷	-10.2196
九根	-10.2201
緣起法	-10.2208
可有	-10.2209
不相	-10.2216
過現	-10.2221
五境	-10.2237
衣服	-10.2244
善巧	-10.2245
還生	-10.2245
隱沒	-10.2246
別者	-10.2248
妨	-10.2249
句義	-10.2253
威儀路	-10.2257
在定	-10.2259
如是乃至	-10.2261
餘地	-10.2261
簡別	-10.2261
如前所說	-10.2262
謂無漏	-10.2262
境界緣	-10.2263
避	-10.2265
有覆	-10.2268
理亦不然	-10.2269
有流	-10.2271
伽他	-10.2276
底	-10.2281
在身	-10.2282
以無	-10.2288
善取法相善思惟善解	-10.2295
此則	-10.2298
能對治	-10.23
化作	-10.2302
於所	-10.2304
又問	-10.2309
一切地	-10.2317
推	-10.2319
功力	-10.2319
軍	-10.2321
三無色	-10.2322
所顯	-10.2326
順正理論	-10.2328
恨	-10.2328
不順	-10.2331
甚深	-10.2335
又諸	-10.2344
何故說	-10.2346
後後	-10.2346
發語	-10.2348
即有	-10.2353
若離	-10.2358
隨彼	-10.2362
在未來	-10.2364
乃至非想非非想處	-10.2367
富	-10.237
而彼	-10.2377
界地	-10.2379
色貪	-10.2379
皆應	-10.2384
遭	-10.2393
珠	-10.2393
入滅定	-10.2399
四支	-10.2411
工巧處	-10.2414
二分	-10.2416
諸得	-10.2416
四無量	-10.2418
見結繫	-10.2418
答如	-10.2421
十智知	-10.2421
未滅	-10.2424
二十八	-10.2426
因此	-10.2429
問何故名	-10.2433
為苦	-10.2433
其心	-10.2434
弱	-10.2446
彼由	-10.2448
法念處	-10.2453
致	-10.2455
猶有	-10.2457
已辨	-10.2458
二地	-10.2461
善有漏	-10.2463
不違	-10.2469
我宗	-10.2469
邪智	-10.247
依地	-10.2471
其相云何	-10.2488
應不	-10.2496
變化	-10.2498
現法	-10.2499
如是已說	-10.2504
他人	-10.252
學人	-10.2523
亦緣	-10.2527
亦可	-10.2534
無窮	-10.2538
色有	-10.2551
彼所	-10.2554
中品	-10.2556
二道	-10.2557
斷遍知	-10.2559
擊	-10.2562
初生	-10.2565
非善	-10.257
各異	-10.258
定成	-10.2584
施主	-10.2584
能修	-10.2585
長時	-10.2585
行相轉	-10.2585
日月	-10.2586
無明使	-10.2589
或於	-10.2592
得修	-10.2593
一切時	-10.2595
色相	-10.2606
若於此事	-10.2618
非隨眠隨增	-10.262
謂阿羅漢	-10.2624
許有	-10.2626
服	-10.2628
却	-10.2629
速疾	-10.2634
若許	-10.2646
後方	-10.2649
得定	-10.2651
緣欲界繫	-10.2653
增減	-10.2657
斯陀含	-10.2659
自害	-10.2659
大海	-10.2662
而般涅槃	-10.267
是以	-10.2676
受陰	-10.2678
守	-10.2686
行故	-10.2692
受業	-10.2695
貪愛	-10.27
三乘	-10.2701
釋言	-10.2713
過去法	-10.2715
識蘊	-10.2716
由何	-10.2722
離繫果	-10.2726
受戒	-10.2732
未能	-10.2733
是道	-10.2741
見疑	-10.2742
他相續	-10.2742
客	-10.2743
定是	-10.2744
非我行相	-10.2745
十二支	-10.2746
刺	-10.2746
非理作意	-10.2748
語言	-10.2748
有為無為	-10.2758
時分	-10.2762
梵云	-10.2765
然諸	-10.2772
成故	-10.2779
死時	-10.278
堪能	-10.2782
暫時	-10.2785
心數	-10.2805
有所緣	-10.2807
欲色	-10.2807
宿住隨念智	-10.2808
奪	-10.2815
便起	-10.2817
無覺無觀	-10.2817
少欲	-10.2819
彼色	-10.2823
有我	-10.2827
通三界	-10.2828
臣	-10.2832
非離	-10.2833
處處	-10.2836
二十四	-10.2837
義如前說	-10.2838
一切有為	-10.2838
何故不	-10.2841
真諦	-10.2849
具二	-10.285
卷	-10.2852
初念	-10.2853
意識界	-10.2854
彼斷	-10.2855
外法	-10.2858
故成	-10.2858
可名	-10.2858
有果	-10.286
語表	-10.2863
終不	-10.2868
已成	-10.2871
愛未盡	-10.2871
煖等	-10.2873
不觀	-10.2875
無勝	-10.2875
此因	-10.2879
定非	-10.2886
後位	-10.2888
寒	-10.2889
說此	-10.2891
有大	-10.29
三行	-10.2902
義准	-10.2908
諸漏	-10.2908
能遮	-10.2916
五十	-10.2919
通果	-10.2921
邪定	-10.2922
意觸	-10.2925
相對	-10.293
憍慢	-10.2931
士用	-10.2936
辦	-10.2936
活	-10.2944
天授	-10.2954
俱是	-10.2956
七地	-10.2958
若在	-10.2962
是有	-10.2969
既不	-10.297
諸相	-10.2971
攝在	-10.2972
所治	-10.2974
用故	-10.2975
是業	-10.2989
難知	-10.299
一切入	-10.2991
大乘	-10.2992
眼色	-10.2995
此有	-10.2996
耳鼻舌身	-10.2999
前文	-10.3002
必應	-10.3004
我已	-10.3016
心亂	-10.3017
上上	-10.302
行苦	-10.3022
若能	-10.3025
為門	-10.3027
無明結	-10.3027
暖	-10.304
下下	-10.3047
但為	-10.3048
無間業	-10.3054
斷對治	-10.3054
更不	-10.3054
為食	-10.3062
卷第二十	-10.3063
無漏戒	-10.3071
村	-10.3076
八萬	-10.3076
次說	-10.3079
炎	-10.3081
五戒	-10.3082
隨所	-10.3086
般	-10.3087
理應	-10.3088
以世俗道	-10.3089
方成	-10.3093
離欲染	-10.3097
起緣	-10.3099
智見	-10.3102
問如	-10.3104
為善	-10.3108
此顯	-10.3111
持息念	-10.3112
已斷已遍知	-10.3115
平	-10.3116
色根	-10.3117
內法	-10.3122
亦同	-10.3123
非彼	-10.3126
不染	-10.3131
三識	-10.3132
得起	-10.3134
沈	-10.3137
識身	-10.3141
宣說	-10.315
云何不	-10.3153
受異熟	-10.3162
相應者	-10.3164
染法	-10.3164
一云	-10.3166
世尊弟子	-10.3168
謂心	-10.3169
無漏律儀	-10.317
善通	-10.3172
佛身	-10.3174
未知欲知根	-10.3174
座	-10.3182
軛	-10.3189
盲	-10.3189
牙	-10.319
若住	-10.3191
彼同分	-10.3192
定故	-10.3198
作意相應	-10.3201
滅法	-10.3214
踰繕那	-10.3219
廣說如前	-10.3225
修得	-10.3236
無漏者	-10.3237
惱害	-10.3239
不苦不樂	-10.3242
我我所	-10.3244
邊執見	-10.3245
亦應爾	-10.325
交	-10.3254
打	-10.3255
!	-10.3256
若異此者	-10.3258
知他心	-10.3258
鉢	-10.326
是見	-10.3261
若由	-10.3264
實體	-10.3266
灰	-10.3267
若餘	-10.3274
詞	-10.3278
得遍知	-10.328
若從	-10.3282
不護	-10.3283
無知根	-10.3285
善趣	-10.3286
士夫	-10.3288
論師	-10.3295
二業	-10.3296
勝者	-10.33
煩	-10.3303
此類	-10.3307
見滅	-10.331
喜覺意	-10.3315
通慧	-10.332
苦痛	-10.3325
意地	-10.3328
增廣	-10.333
美	-10.3332
威德	-10.3332
亦生	-10.3338
在色界	-10.3339
見集	-10.334
領	-10.3344
不滅	-10.3349
志	-10.3356
一名	-10.3362
詳	-10.3364
之人	-10.3369
十六行	-10.3376
退分	-10.338
證淨	-10.3391
犢子部	-10.3392
身壞命終	-10.3393
隨逐	-10.3399
諸弟子	-10.3402
臥具	-10.3402
戒盜	-10.3407
色者	-10.341
性罪	-10.3411
且如	-10.3413
九結	-10.3416
名等	-10.3419
是處	-10.3422
一字	-10.3423
亦由	-10.3425
道果	-10.3434
結生	-10.3441
而於	-10.3446
希望	-10.3456
別解脫戒	-10.3459
應作	-10.3461
讚歎	-10.3467
眼處	-10.3467
是無常	-10.3478
心次第生	-10.3491
作此	-10.3495
一有情	-10.3496
何名	-10.35
而作論	-10.3502
或無處所	-10.3502
淨信	-10.3503
以是	-10.3504
憎	-10.3504
亦如	-10.3509
香味觸	-10.351
幾非	-10.3512
有漏道	-10.3517
入涅槃	-10.352
三法	-10.3525
無違	-10.3526
觸界	-10.3526
誠	-10.3528
總名為	-10.353
不入	-10.353
罵	-10.3531
理趣	-10.3537
若見	-10.3538
譬喻	-10.3539
摩訶	-10.3541
愛結繫	-10.3544
舌識	-10.3545
佛為	-10.3546
瀑流	-10.3547
發生	-10.3548
又正理云	-10.355
一物	-10.355
不必	-10.3562
不轉	-10.3566
謂有漏	-10.3577
眼等五根	-10.3591
是欲界	-10.3591
纔	-10.3597
離欲界欲	-10.36
為難	-10.3601
雖亦	-10.3603
十六行相	-10.3603
彼業	-10.3604
梵眾天	-10.3607
如是說	-10.3608
三十七	-10.3608
佛於	-10.3609
三果	-10.3612
未知	-10.3614
非根	-10.3625
等諸	-10.3628
淨居	-10.363
生上	-10.3632
為所依	-10.3644
身繫	-10.3646
希	-10.3651
中般	-10.3652
報因	-10.3654
今應	-10.3655
四者	-10.3655
餘心	-10.3657
而立	-10.3657
四生	-10.3661
識陰	-10.3663
是故此	-10.3665
二結	-10.3667
喜受	-10.3667
亦以	-10.3675
次生	-10.3675
唯修	-10.3676
無癡	-10.3685
本得	-10.369
非諸	-10.369
非愛	-10.3693
尋求	-10.37
是無學	-10.3703
正勤	-10.3703
不從	-10.3705
引經	-10.3708
西方	-10.371
如是一切	-10.3717
及修所斷	-10.3721
毘奈耶	-10.3722
一趣	-10.3725
一界一處一蘊攝	-10.3726
順退分	-10.3728
法體	-10.3729
婆沙云	-10.3729
與此	-10.373
威勢緣	-10.373
智力	-10.3731
橫	-10.3732
熾然	-10.3733
退者	-10.3736
有十	-10.3737
應斷	-10.3737
如斯	-10.374
因何	-10.3742
猗	-10.3742
無有是處	-10.3744
能為因	-10.3744
八十	-10.3744
等志	-10.3745
雜心	-10.3745
然於	-10.3747
頓得	-10.3752
有九	-10.3756
四處	-10.3763
諸眾生	-10.377
三寶	-10.3772
無明緣行	-10.3775
勤策	-10.3788
不現	-10.3788
非過去	-10.3791
即前	-10.3794
他化自在天	-10.3796
經文	-10.3797
七智知	-10.3808
六十	-10.3808
永盡	-10.381
既有	-10.3811
無義	-10.3812
所覺	-10.3813
芽等	-10.383
斷者	-10.3836
為他	-10.3839
欲界有	-10.3841
身形	-10.385
極多	-10.3853
成就現在	-10.3854
使所使	-10.3854
心中	-10.3854
扼	-10.3865
得有	-10.3866
正斷	-10.3881
若未	-10.3881
除入	-10.3881
既說	-10.3884
此約	-10.3886
生疑	-10.389
善無記	-10.3891
或無記	-10.3891
恒時	-10.3893
及彼	-10.3899
天耳	-10.3902
體相	-10.3903
此位	-10.3903
經所說	-10.3905
定地	-10.3907
擇法覺支	-10.3915
非由	-10.3918
功	-10.3919
幾是	-10.3919
四明	-10.3921
伹	-10.3928
口行	-10.393
一來	-10.3931
譯	-10.3937
一因	-10.3938
圓德	-10.3942
上上品	-10.395
彼是	-10.3953
卑	-10.3954
定成就	-10.3958
依未至定	-10.3965
再	-10.3967
三十二	-10.397
有體	-10.3971
心數法	-10.3975
出息入息	-10.3978
能燒	-10.3981
界者	-10.3981
色香味觸	-10.3992
設爾何失	-10.3993
波羅	-10.3997
八支	-10.3999
無別體	-10.4
濫	-10.4002
那落迦	-10.4004
何者為	-10.4007
火界	-10.401
有支	-10.4013
違害	-10.4015
處得	-10.4016
不定故	-10.4021
何為	-10.4025
成就未來	-10.4032
又於	-10.4033
決擇	-10.4035
展轉相	-10.4035
緣生	-10.4043
異說	-10.405
入出	-10.4053
皆以	-10.4062
唯得	-10.4068
眾緣	-10.4071
此識	-10.4072
耽	-10.4074
餘文可知	-10.4077
便得	-10.408
初二靜慮	-10.4081
謂一切	-10.4083
當知已說	-10.4084
五識相應	-10.4084
九十八使	-10.4085
此依	-10.4087
梵眾	-10.4088
於上	-10.4088
財物	-10.4089
諸趣	-10.4092
覺慧	-10.4093
鹿	-10.4094
觀待	-10.4095
所依止	-10.4098
靜慮支	-10.4098
彼執	-10.4101
無色中	-10.4102
有漏善	-10.4103
計我	-10.4104
陰界入攝	-10.411
如何可說	-10.411
類智品	-10.4129
現前故	-10.4129
於身	-10.4131
斷已	-10.4133
九無間道	-10.4134
除上爾所事	-10.4135
齋	-10.4142
執受	-10.4143
仍	-10.4144
聞慧	-10.4145
彼因	-10.4146
念覺意	-10.4147
多聞	-10.4162
三有	-10.4165
十一處	-10.4166
欣樂	-10.4169
示現	-10.4173
無障	-10.4174
因生	-10.4177
是慧	-10.4189
受相應	-10.4191
諸智	-10.4193
苦集滅道	-10.4197
無量等	-10.4199
隣近	-10.4199
何所攝	-10.4204
未離色界貪	-10.4208
串習	-10.4212
離生喜樂	-10.4212
羯磨	-10.4215
知根	-10.4215
下劣	-10.4216
塗	-10.4221
總結	-10.4223
心無間	-10.4223
十八界十二入五陰	-10.4226
雖同	-10.4228
本相	-10.4228
善知	-10.4231
能破	-10.4234
故說名	-10.4235
根本業道	-10.4242
此緣	-10.4245
乃至無所有處	-10.425
此與	-10.4257
是何耶	-10.4258
出息	-10.4259
別名	-10.4263
因名	-10.4272
勝妙	-10.4273
遮止	-10.4275
婦	-10.4277
觸入	-10.4286
修所斷法	-10.4287
十八界十二處五蘊攝	-10.429
諸比丘	-10.4291
意顯	-10.4291
論說	-10.4295
音	-10.4298
現量	-10.4305
聖弟子	-10.4306
預流者	-10.4307
所作因	-10.4308
通三性	-10.431
三十一	-10.4316
如上說	-10.432
故今	-10.4321
於欲	-10.4321
有六種	-10.4323
此諸	-10.4324
入息	-10.4324
斷道	-10.4327
悕望	-10.434
揵度	-10.4345
有礙	-10.4347
【	-10.4355
所滅	-10.4355
此亦非理	-10.4359
聲處	-10.4363
異地	-10.4367
以上	-10.4368
烟	-10.4371
曾無	-10.4375
不害	-10.4376
應如	-10.4377
所居	-10.4379
合成	-10.4382
非不善	-10.4389
應修	-10.4392
卵生	-10.4395
悟	-10.44
無差別故	-10.44
二釋	-10.4403
地獄中	-10.4404
隨念	-10.4408
分齊	-10.4413
諸行滅	-10.4417
第一義	-10.4423
欲樂	-10.4424
七生	-10.4426
疎	-10.4426
破戒	-10.4431
實物	-10.4435
絕	-10.4436
處故	-10.4441
現在法	-10.4445
四根	-10.4449
數滅	-10.4449
不壞淨	-10.4452
地大	-10.4455
本性	-10.4459
故亦名	-10.4459
空三摩地	-10.4466
身力	-10.4467
一切遍使	-10.447
謂契經說	-10.4471
相似故	-10.4473
諸位	-10.4473
時即	-10.4476
瞋恚結	-10.4477
時捨	-10.4477
苦等	-10.4481
無明漏	-10.4481
謂緣	-10.4481
問言	-10.4484
彼時	-10.4495
勝德	-10.4496
五事	-10.4498
七智	-10.4498
若爾何故	-10.4498
欲使	-10.4501
角	-10.4505
不用處	-10.4506
飲酒	-10.4508
相者	-10.4509
一切有為法	-10.4514
離間語	-10.4515
苦因	-10.452
女身	-10.4521
有對觸	-10.4524
得戒	-10.4524
精勤	-10.4528
男子	-10.4536
有差別者	-10.4537
為斷	-10.4546
苦果	-10.4549
為其	-10.4552
是實	-10.4562
餘部	-10.4562
從何	-10.4563
無表業	-10.457
述曰	-10.4576
隨所應	-10.4577
二蘊	-10.4577
與識	-10.4579
傷	-10.4587
此即問也	-10.4591
因義	-10.4592
無瞋	-10.4592
若當	-10.4592
正命	-10.4593
所逼	-10.4596
得阿羅漢	-10.4597
等方便	-10.4598
三分	-10.46
及無漏	-10.461
加行得	-10.461
極光淨	-10.4611
滅界	-10.4622
不求	-10.4622
於心	-10.4622
問諸	-10.4622
了義	-10.4627
經部師	-10.4628
猛	-10.4632
詮	-10.4633
更相	-10.4636
鼻識	-10.4642
下中上	-10.4649
諸有漏法	-10.4649
未有	-10.465
業報	-10.4653
能捨	-10.4656
優婆塞	-10.4657
無形	-10.4657
欲邪行	-10.4658
關	-10.4659
不與取	-10.466
有能	-10.467
諸善法	-10.4673
業生	-10.4673
資具	-10.4677
具足住	-10.4679
得不律儀	-10.4683
延	-10.4689
性者	-10.469
寂滅	-10.4694
或不繫	-10.4699
諸善	-10.47
翻此	-10.4704
諸異生	-10.4704
彼處	-10.4706
法類智	-10.4724
太	-10.4726
二事	-10.4739
無數	-10.4742
多種	-10.4744
帝釋	-10.4747
虫	-10.4749
何等名為	-10.4755
二世	-10.4755
是非學非無學	-10.4756
唯有一	-10.4756
慢類	-10.4756
論主破	-10.4758
糞	-10.4758
尚不	-10.4762
厭患	-10.4762
威	-10.4763
行捨	-10.4767
諸師	-10.477
所使	-10.4772
二門	-10.4778
後心	-10.4783
若欲	-10.4785
已失	-10.4792
十五心	-10.4802
與樂	-10.4804
緣緣	-10.4804
我語取	-10.4807
能成	-10.4808
己身	-10.4808
諸外道	-10.481
作如是念	-10.4813
厭背	-10.4815
比量	-10.4815
以能	-10.4824
無始	-10.4824
恚結繫	-10.4827
能除	-10.4828
熾盛	-10.4828
各三	-10.4829
不能生	-10.4836
勞	-10.4839
生緣	-10.4847
最上	-10.4859
貪著	-10.486
於三	-10.4861
立根	-10.4872
四念處	-10.4878
造作增長	-10.4881
不現行	-10.4883
黑白	-10.4884
詣	-10.4884
何故作此論	-10.4888
准前	-10.4888
呼	-10.4889
有種種	-10.4889
身量	-10.4889
相依	-10.489
緣未來	-10.4892
星	-10.4893
無果	-10.4893
具三	-10.4895
五通	-10.49
飢渴	-10.4902
能行	-10.4904
往來	-10.4904
慳結	-10.4904
勝進道	-10.4906
便能	-10.491
法耶	-10.4914
人間	-10.4914
品類足論	-10.4916
前已	-10.4917
互為因	-10.492
者正理云	-10.4921
唯有漏	-10.4923
取結	-10.4933
已顯	-10.4933
戲	-10.4936
通緣	-10.4944
生名	-10.4951
壽行	-10.4956
隨意	-10.4961
廣說如	-10.4964
非蘊攝	-10.4964
或名	-10.4967
空行	-10.497
他界緣	-10.4972
文中	-10.4977
所緣者	-10.4978
三見	-10.4981
見惑	-10.4984
貪瞋	-10.4987
羊	-10.4994
一身	-10.4995
現觀邊	-10.4997
嫉結	-10.5002
九十八隨眠	-10.5003
相續轉	-10.5008
不應理	-10.501
析	-10.5013
善業道	-10.5013
諸定	-10.5016
身觸	-10.5021
歎	-10.5025
即說	-10.5026
閉	-10.5038
心念住	-10.5038
心意識	-10.504
推度	-10.5041
投	-10.5042
蜜	-10.5043
即於	-10.5043
無癡善根	-10.5052
意故	-10.5052
慢結	-10.5054
梨	-10.5055
修未來	-10.5061
七覺支	-10.5062
左	-10.5063
一智	-10.5063
不須	-10.5063
墮惡趣	-10.5063
所成就	-10.5067
一根	-10.5068
四食	-10.5069
歡	-10.5073
佛弟子	-10.5075
連	-10.5076
佛所說	-10.5078
羸劣	-10.5083
污	-10.5085
未說	-10.5092
自分	-10.5094
生喜	-10.5094
何地	-10.5098
隨業轉	-10.5099
獨立	-10.51
是無為	-10.5105
*	-10.5108
思惟斷因	-10.511
世第一	-10.5111
入聖道	-10.5114
二類	-10.5114
修道中	-10.5115
任持	-10.5116
忘失	-10.5117
一句	-10.5118
留難	-10.5119
云何名	-10.5121
法智品	-10.5124
偏說	-10.5124
乾	-10.5126
為根	-10.5129
三和	-10.513
在彼	-10.5132
異者	-10.5145
變礙	-10.515
有根	-10.5155
則說	-10.5156
唯善	-10.5159
已滅不失	-10.5159
何故但說	-10.5161
成佛	-10.5164
但應	-10.5168
能繫	-10.5172
意趣	-10.5176
耶答	-10.5178
相應縛	-10.5187
北洲	-10.5192
結所繫	-10.5197
異生聖者	-10.52
有言	-10.5201
醉	-10.5201
唯欲界	-10.5202
差別相	-10.5204
尋思	-10.5208
四部	-10.5211
於義	-10.5212
若色	-10.5213
古	-10.5215
於未來	-10.5223
諸使	-10.5224
苦類智	-10.5227
復云何通	-10.5231
復次彼	-10.5234
猶未	-10.5237
成一	-10.5239
佛出世	-10.5241
不越	-10.5242
有十八	-10.5245
殺等	-10.5247
能伏	-10.5248
內身	-10.5252
是一	-10.5258
正語	-10.5258
在前	-10.5261
三善根	-10.5265
信解	-10.5268
謂初	-10.527
若諸	-10.5271
三三摩地	-10.5271
為大	-10.5273
贍部洲	-10.5275
如文可知	-10.5275
聲界	-10.5276
藉	-10.5276
一業	-10.5278
胎生	-10.5279
所覆	-10.528
跋	-10.5283
別義	-10.5284
呪	-10.5285
有過去	-10.5287
濟	-10.5287
飛	-10.5288
見聞	-10.5301
諸識	-10.5305
無有愛	-10.5307
果實	-10.5311
出現	-10.5315
以慧	-10.5317
因緣故	-10.5323
堪忍	-10.5324
有何義	-10.5325
不可意	-10.5326
等中	-10.5336
云何無學	-10.5336
亦應說	-10.5338
二受	-10.5341
世俗正見	-10.5344
皆容	-10.5352
應分別	-10.5354
自相續	-10.5355
此亦不然	-10.536
前因	-10.536
因力	-10.5372
俱得	-10.5373
有漏者	-10.5374
非所	-10.5375
不亂	-10.5379
如實知見	-10.538
無倒	-10.5383
此相	-10.5383
二十一	-10.5384
或可	-10.5386
一百	-10.5388
故論云	-10.5389
第九解脫道	-10.539
禁	-10.54
滅法智	-10.5402
汝今	-10.5403
緣現在	-10.5404
謂意	-10.5405
不名為	-10.5411
通依	-10.5414
能顯	-10.5417
所緣故	-10.542
謂無記	-10.5421
第一句	-10.5423
見滅道所斷	-10.5424
轉輪聖王	-10.5426
慮	-10.5427
大德說曰	-10.5427
總而言之	-10.5427
思所成	-10.5428
第二定	-10.5433
諸惡	-10.5437
事者	-10.5438
得一	-10.544
蟲	-10.544
為三	-10.5445
非識識	-10.5446
能與	-10.5446
諸世間	-10.5448
餘殘	-10.545
心品	-10.5452
見斷因	-10.5452
積聚	-10.5456
遮罪	-10.5458
何差別	-10.5458
能於	-10.5459
第二師	-10.5462
及遍行隨眠隨增	-10.5463
隨觀	-10.5464
滑	-10.5466
三惡行	-10.5475
經云	-10.5477
正明	-10.5487
便為	-10.5488
生識	-10.5489
緣識及緣緣識	-10.5489
於此中	-10.549
重說	-10.5497
緣境	-10.5498
有多種	-10.5499
謂先	-10.5499
先時	-10.5501
現法樂	-10.5503
七處善	-10.5505
增語觸	-10.5509
漂	-10.5516
薩	-10.5519
於爾時	-10.5522
改	-10.5523
意止	-10.5525
事中	-10.5528
有教	-10.5529
歸趣	-10.5529
非現在	-10.5531
半月	-10.5533
有漏心	-10.5534
下界	-10.5542
得得	-10.5543
彼界	-10.5546
方有	-10.5547
勝論	-10.555
仙	-10.5551
住果	-10.5559
謂餘	-10.5563
有分	-10.5564
亦從	-10.557
乃至廣作四句	-10.5575
四識住	-10.5579
結斷	-10.5583
欲界沒	-10.5583
呵責	-10.5589
學見迹若阿羅漢	-10.559
信等五	-10.5598
應更	-10.56
腹	-10.5602
二說	-10.5602
謂無	-10.5603
停	-10.5603
一間	-10.5604
所聞	-10.5604
大煩惱地法	-10.5606
處少分	-10.5606
梵福	-10.5609
如是類	-10.5609
機	-10.5611
緣三世	-10.5618
此中有	-10.5619
越界	-10.5627
多法	-10.5632
執為	-10.5634
巧便	-10.5635
能詮	-10.5636
無願三昧	-10.5638
我所見	-10.5638
惡見	-10.5641
見已	-10.5645
可解	-10.5646
答依	-10.5647
乃至有頂	-10.5651
為何等	-10.5652
便於	-10.5656
但以	-10.5658
必依	-10.5663
此果	-10.5664
或執	-10.5665
阿毘曇毘婆沙論	-10.5665
或復有執	-10.5668
大劫	-10.5669
重擔	-10.5671
善品	-10.5671
近對治	-10.5672
州	-10.5677
非所緣	-10.5677
三妙行	-10.5679
皆同	-10.5686
設許	-10.5686
下分	-10.5691
鬘	-10.5691
釋頌本	-10.5692
如是諸	-10.5695
中除	-10.5696
五品	-10.5706
二字	-10.5707
想陰	-10.571
此上	-10.571
修所斷結	-10.5723
智耶	-10.5724
明利	-10.5732
如是比丘	-10.5734
不久	-10.5735
滅作證	-10.5737
學見迹阿羅漢	-10.5739
有情類	-10.5741
三十	-10.5742
信勝解練根作見至	-10.5742
蘊處界	-10.5743
此八	-10.5746
外物	-10.5747
前七	-10.5754
尊者眾賢造三藏法師玄奘奉詔譯	-10.5755
有想	-10.5761
如前應知	-10.5762
血	-10.5764
煩惱斷	-10.5766
行道	-10.5769
耽著	-10.5769
二句	-10.577
淨色	-10.5777
要由	-10.5781
應思	-10.5785
十八界中	-10.5788
時有	-10.5803
一切隨眠	-10.5805
相生	-10.5808
斷彼	-10.5814
青等	-10.5816
加行道	-10.5818
先有	-10.5819
有欲	-10.5819
盡壽	-10.5819
非想非非想	-10.5823
非智知	-10.5825
經義	-10.5826
所問	-10.5826
四定	-10.5826
第二明	-10.583
謂色界	-10.5831
聞所成	-10.5833
樂故	-10.5837
意惡行	-10.5838
落	-10.5838
菩提分法	-10.5839
豈非	-10.5842
已正當	-10.5842
正起	-10.5845
提婆達多	-10.5846
此生	-10.5847
識依	-10.5849
知他心智	-10.5849
何得	-10.585
舍利弗	-10.5851
是異熟	-10.5852
緣無漏	-10.5852
諸苾芻	-10.5856
魚	-10.5858
彌	-10.5862
亦為	-10.5867
九智	-10.5877
皆非	-10.5879
若成就過去法智	-10.5879
彼相應	-10.588
展轉為因	-10.5881
於三界	-10.5881
於道	-10.5882
或因	-10.5888
伴	-10.589
濕生	-10.589
身等	-10.5897
依未至	-10.5904
已去	-10.5912
有十二	-10.5912
文句	-10.5919
端	-10.5921
未來三	-10.5923
布	-10.5926
現身	-10.5928
本無	-10.593
八勝處	-10.593
承	-10.5931
五法	-10.5932
大小	-10.5932
是義不然	-10.5933
彼岸	-10.5934
退墮	-10.5937
若已	-10.5938
諦理	-10.5939
分為	-10.594
受果	-10.5943
如色	-10.5945
世尊為	-10.5947
後得	-10.5947
別異	-10.5948
者則	-10.5951
九十八	-10.5952
不雜	-10.5953
無處所	-10.5957
謂諸異生	-10.5959
通行	-10.5962
境界故	-10.5963
若觀	-10.5965
惡法	-10.5965
三由	-10.5969
蘊中	-10.5973
或執為	-10.5976
廣果	-10.5978
俱有法	-10.5982
唯無漏	-10.5982
見到	-10.5982
所依大種	-10.5984
此善根	-10.5985
設有而失	-10.5986
不造	-10.5986
難云	-10.5989
隨信隨法行	-10.5994
謂諸有情	-10.5997
奉	-10.5998
忘	-10.5999
善士	-10.6002
證滅	-10.6004
聞已	-10.6006
煩惱障	-10.601
策	-10.6013
二通	-10.6016
若未得	-10.6016
為緣生	-10.6017
云何知然	-10.602
業所引	-10.6025
欲取	-10.6026
籌	-10.6026
彼依	-10.6027
護根	-10.6027
若法非	-10.6028
是真	-10.6031
界中	-10.6035
吒	-10.6037
四聖種	-10.6038
生老死	-10.6039
即緣	-10.604
相攝	-10.6041
心定	-10.6043
不能起	-10.6045
堪	-10.6049
如理應思	-10.605
憂苦	-10.6051
障故	-10.6057
上生	-10.606
受念住	-10.6062
無恚	-10.6064
破云	-10.6065
大眾部	-10.6067
異門	-10.607
非苦	-10.6072
非道	-10.6073
七有	-10.6076
體也	-10.6089
此之	-10.6096
緣一切法	-10.6097
無貪善根	-10.6098
擔	-10.61
闍	-10.6104
覩	-10.6105
鼓	-10.6106
磨	-10.6106
畫	-10.6106
拘	-10.6107
三摩提	-10.611
境中	-10.6112
聖慧	-10.6113
成熟	-10.6114
得色界善心	-10.6114
空中	-10.6114
佛言	-10.6122
青色	-10.6127
劫初	-10.6127
趣向	-10.6133
此間	-10.6136
運	-10.6141
於二	-10.6142
若餘法	-10.6143
無明觸	-10.6153
麁惡語	-10.6158
無體	-10.6159
如何說	-10.6164
捨根相應	-10.6165
煗	-10.6166
住分	-10.6166
十法	-10.6168
有貪	-10.6168
謂我	-10.617
惡心	-10.6173
身語二業	-10.618
誤	-10.618
有事	-10.6181
為對治	-10.6182
在過去	-10.6186
多時	-10.6191
四方	-10.6199
中般涅槃	-10.6208
見修所斷	-10.6211
於餘處	-10.6215
問何	-10.6215
識所識	-10.6219
道類智時	-10.622
是假	-10.6221
道者	-10.6228
隨欲	-10.6229
色界中有	-10.6234
不能斷	-10.6235
顯現	-10.6239
遊戲	-10.624
不現前	-10.6242
亦知	-10.6245
應生	-10.6253
是學	-10.6254
東	-10.6256
可立	-10.6257
智果	-10.6258
所染	-10.6264
未來八	-10.6264
世間第一法	-10.6267
體類	-10.6269
意界意識界	-10.627
任運	-10.6273
評	-10.6273
然有	-10.6275
莖	-10.6279
准此論文	-10.6281
修行者	-10.6286
彼果	-10.6292
四十	-10.6293
支節	-10.6293
得遍知時	-10.6295
巧	-10.6299
道斷	-10.63
或起	-10.6305
損益	-10.6307
一切有	-10.6308
皆由	-10.6313
互為果	-10.6314
尊者阿難	-10.6314
作論	-10.6316
得勝	-10.6318
四法	-10.632
無疑	-10.6323
得律儀	-10.6331
異此	-10.6332
其理	-10.6332
七心界	-10.6342
曾見	-10.6343
令生	-10.6345
增語	-10.6349
適	-10.6349
四地	-10.6351
知彼	-10.6356
身口	-10.6357
不至	-10.6357
依緣	-10.6358
過故	-10.6359
尊者世友作如是說	-10.636
所作已辦	-10.6363
思慧	-10.6366
表無表	-10.6367
眾具	-10.6369
初二解脫	-10.6371
通五部	-10.6372
多人	-10.6374
果耶	-10.6384
夢中	-10.6385
沙門婆羅門	-10.6388
見所斷法	-10.639
現在前故	-10.6393
齊此	-10.6396
所許	-10.6396
無染	-10.6397
等覺支	-10.6397
斷壞	-10.6397
內心	-10.6401
下下品	-10.6402
前心	-10.6403
覺意	-10.6405
各一	-10.6407
先已	-10.6408
謂身	-10.6413
有記	-10.6415
第三定	-10.6417
一相續	-10.6417
樂根相應	-10.6418
色聲	-10.6418
若行	-10.6419
彼二	-10.6424
及欲界	-10.6429
苦集智	-10.6433
五者	-10.6439
不可言	-10.6443
隨應現修	-10.6443
欲界繫法	-10.6444
生上地	-10.6448
無色界繫法	-10.6454
臨	-10.6455
一色	-10.6457
瘡	-10.6458
鄔波索迦	-10.6458
說能為緣	-10.646
敵	-10.6461
新云	-10.6462
相應俱有	-10.6462
五受	-10.6462
盧	-10.6464
不隨增	-10.6472
狗	-10.6472
欲有	-10.6473
不受後有	-10.6475
緣有漏	-10.6477
又言	-10.6477
母胎	-10.6478
前八	-10.6478
云何知	-10.6479
若此	-10.648
餘八	-10.6482
染污法	-10.6482
麥	-10.6484
欲界中有	-10.6486
離貪	-10.6486
染汙	-10.6493
是心	-10.6498
誓	-10.6501
生欲色界	-10.6506
無色法	-10.6514
無漏初靜慮	-10.6518
不別	-10.652
有實	-10.6526
名見	-10.6529
次第者	-10.6532
眼等根	-10.6532
依第四靜慮	-10.6537
通有漏無漏	-10.6537
住相	-10.654
異學	-10.6543
何等為	-10.6545
能斷煩惱	-10.6548
不障	-10.6548
床	-10.655
某	-10.655
示導	-10.6551
放	-10.6556
亦依	-10.6559
無定	-10.6559
遍緣	-10.6559
步	-10.656
別解	-10.6561
不忘	-10.6563
多故	-10.6564
既爾	-10.6569
一剎那頃	-10.6569
宿命	-10.6578
力強	-10.6579
一諦	-10.6583
非顛倒	-10.6583
善戒	-10.6583
欲界繫善心	-10.6584
報生	-10.6585
當斷	-10.6585
此無表	-10.6585
使使	-10.6586
觀行者	-10.6586
或應	-10.6588
餘師	-10.6592
恒有	-10.6594
名義	-10.6595
得二	-10.6597
得預流果	-10.6597
解釋	-10.6599
為得	-10.66
道比智	-10.66
除前	-10.6602
先得	-10.6602
此執	-10.6603
方便道	-10.6603
身語表	-10.6604
隨其	-10.6607
手足	-10.6611
四神足	-10.6613
彼心與	-10.6614
鈍根者	-10.662
無漏行	-10.662
解脫心	-10.662
體雖	-10.6627
不動心解脫	-10.6627
實我	-10.6627
無此	-10.6628
離欲惡不善法	-10.6635
盡無生	-10.6636
他部	-10.6638
展轉相望	-10.6639
前念	-10.6642
集法智	-10.6643
意識法	-10.6644
欲界法	-10.6645
衰損	-10.6646
苑	-10.6648
正觀	-10.6649
御	-10.6657
皆成就	-10.6658
為增上	-10.6662
世人	-10.6665
利根者	-10.6666
知法	-10.6666
婬欲	-10.6671
若與	-10.6672
淨居天	-10.6672
畢竟無	-10.6675
根相應	-10.6677
非所緣故隨增非相應故	-10.6677
處界	-10.6678
彼相應法	-10.6681
不可轉	-10.6682
順解脫分	-10.6684
不獲	-10.6685
復云何	-10.6686
識緣	-10.669
出定心	-10.669
剎那滅	-10.6691
第二句者	-10.6691
實無	-10.6693
相離	-10.6693
為障	-10.6694
居士	-10.6694
此契經	-10.6696
過去耶	-10.6698
恐怖	-10.6699
道中	-10.6701
法師	-10.6702
作緣	-10.6703
頓斷	-10.6704
三相	-10.6705
或欲界繫	-10.6708
由業	-10.6708
但於	-10.6708
身惡行	-10.6709
便違	-10.6713
名得	-10.6715
不遮	-10.6717
女男	-10.6719
一識	-10.6722
由前	-10.6723
想蘊	-10.6725
婆娑	-10.6726
船	-10.6726
釋第二句	-10.673
滅類智	-10.6732
迦葉	-10.6732
數法	-10.6733
貴	-10.6733
滅作證時	-10.6736
諸受	-10.6737
長夜	-10.6737
正義	-10.6738
自有	-10.6739
無心位	-10.6739
不俱	-10.6741
攝益	-10.6742
有其	-10.6745
訛也	-10.6749
與心相應	-10.6758
果名	-10.6761
成業道	-10.6762
非食	-10.6763
根故	-10.6764
緣過去	-10.6764
定生	-10.6764
成就過去法智	-10.6766
不還者	-10.6773
色聲香味觸	-10.6777
不忍	-10.6777
由先	-10.6778
而行	-10.6779
諸根因	-10.6779
一是	-10.6779
有功能	-10.6781
如其	-10.6783
欲生	-10.6789
見諦所斷	-10.6789
相攝者	-10.6794
無間等	-10.6794
彼道	-10.6794
業有	-10.6794
果生	-10.6796
答若已滅不失則成就	-10.6796
國王	-10.6797
無漏識	-10.6797
相觸	-10.6798
言詞	-10.6804
現在修	-10.6807
隨身	-10.6808
彼滅已不失	-10.6808
及色界	-10.681
不決定	-10.6811
昇	-10.6812
作惡	-10.6812
方生	-10.6813
我生已盡	-10.6813
不解	-10.6814
第二剎那	-10.682
心與	-10.682
於識	-10.6822
無事	-10.6827
義中	-10.6829
有想無想	-10.6834
後果	-10.6836
或善	-10.6837
要期	-10.6837
風輪	-10.6837
非異	-10.6839
根境	-10.6842
昧	-10.6842
諸欲	-10.6845
不聞	-10.6847
作是語	-10.6848
謝	-10.6849
法蘊	-10.6849
或有說	-10.6855
滅道智	-10.6855
三三昧	-10.6856
義無礙解	-10.6862
此所說	-10.6862
不如	-10.6866
故婆沙云	-10.6866
疑惑	-10.6875
如經說	-10.6877
十力	-10.6882
喜根相應	-10.6883
善者	-10.6887
何以故說	-10.6894
衣等	-10.6894
一晝夜	-10.6896
諸論	-10.6897
自業	-10.6898
永離	-10.6899
內無色想	-10.6901
成滿	-10.6902
如佛	-10.6903
誰不成就	-10.6904
便捨	-10.6906
順下分結	-10.6906
起已	-10.6907
非見斷非思惟斷因	-10.6908
天神	-10.6909
毘鉢舍那	-10.6911
是法	-10.6911
二眼	-10.6915
更生	-10.6917
以明	-10.6918
或生	-10.692
想等	-10.692
大梵王	-10.692
索	-10.6921
作是思惟	-10.6926
何相	-10.6928
餘界	-10.693
大種造	-10.6932
則不應言	-10.6938
中唯	-10.6939
識所緣	-10.6941
易了	-10.6944
前位	-10.6944
已見	-10.6945
善慧	-10.6947
識等	-10.6949
信解脫	-10.695
一切結	-10.6954
苦苦	-10.6956
緣三種	-10.6957
知苦	-10.6966
此不應理	-10.6968
或不	-10.6972
相似法	-10.6973
知有	-10.6976
不相應故	-10.6979
由旬	-10.698
寂默	-10.6985
第四句者	-10.6989
無間起	-10.6989
於四	-10.6989
又應	-10.6991
此想	-10.6991
盡漏	-10.6992
今得	-10.6993
苦惱	-10.6993
於中有	-10.6996
餘經	-10.6998
射	-10.6998
因也	-10.7002
天子	-10.7002
為樂	-10.7008
住時	-10.701
教誡	-10.7011
多生	-10.7012
勇	-10.7013
網	-10.7014
出世間	-10.7014
億	-10.7014
頌文	-10.7015
住異	-10.7016
謂能	-10.7017
此於	-10.7017
或取	-10.7019
自宗	-10.7019
不能修	-10.7019
復起	-10.7023
所觀	-10.7029
狹小	-10.7032
無解脫	-10.7033
答應言	-10.7036
心便	-10.7039
非修	-10.7039
三漏	-10.7042
無覺有觀	-10.7042
行滅	-10.7043
已後	-10.7044
二支	-10.7047
所宗	-10.705
無愛	-10.7052
不過	-10.7053
以故爾	-10.7054
三時	-10.706
四業	-10.7061
何別	-10.7062
因見苦斷	-10.7064
正解脫	-10.7073
有染	-10.7073
我是	-10.7073
增上者如前說	-10.7076
此何所	-10.7078
見者	-10.7083
苦滅	-10.7084
亦不能	-10.709
所趣	-10.7092
諸心所法	-10.7094
富貴	-10.7101
無漏得	-10.7101
深生	-10.7103
八支聖道	-10.7104
是無明	-10.7104
器世間	-10.7105
施者	-10.7106
不令	-10.7109
戒禁	-10.711
未至中間	-10.7111
接	-10.7112
趣涅槃	-10.7112
師云	-10.7113
澁	-10.7116
現在耶	-10.7116
定力	-10.7119
於後時	-10.712
無根	-10.7122
順受	-10.7123
欲界善心	-10.7126
所食	-10.7131
答應作是說	-10.7133
災患	-10.7133
亦容	-10.7135
有餘師說至	-10.7135
通三世	-10.7135
當辯	-10.7138
入聖	-10.7139
二云	-10.7144
增上緣故	-10.7147
餘趣	-10.7155
未來有	-10.7158
反難	-10.716
微劣	-10.7163
執有	-10.7163
不定業	-10.7167
彼滅	-10.7168
不增	-10.7168
世尊所說	-10.7175
是所	-10.7175
加行故	-10.7176
方可	-10.7177
樂欲	-10.7178
嚴	-10.7178
卷第五	-10.7179
等流性	-10.718
何法名	-10.718
復有二種	-10.7184
出體	-10.7187
限	-10.7191
十業道	-10.7192
滅盡三昧	-10.7195
所欲	-10.7196
得成就	-10.7197
近遠	-10.7199
不平等	-10.7199
險	-10.7199
油	-10.72
無色界中	-10.7202
不願	-10.7205
性類	-10.7207
是事	-10.7209
訖	-10.7211
怨家	-10.7212
於有情	-10.7217
淨定	-10.7227
此二法	-10.7227
妻	-10.7228
樂住	-10.7233
於其	-10.7235
是因緣	-10.7236
二品	-10.7248
以無漏道	-10.7259
其餘	-10.7259
所依故	-10.7261
嗅	-10.7261
大王	-10.7262
一切遍因	-10.7263
謂學	-10.7265
住律儀	-10.7266
殺害	-10.7266
心一境性	-10.7268
聖言	-10.7268
五行	-10.7269
緒	-10.7276
此中所說	-10.7277
不隱沒無記色	-10.7282
生愛	-10.7284
未斷未遍知	-10.7285
如言	-10.7289
眼觸所生受	-10.7292
無間緣	-10.7294
無二結繫	-10.7294
出觀	-10.7298
消	-10.7301
成時	-10.7304
諸聖者	-10.7304
難得	-10.7305
苦諦所斷	-10.7312
有一類	-10.7313
則不成就	-10.7313
如理作意	-10.7313
此境	-10.7315
色受想行識	-10.7316
生老病死	-10.7318
且據	-10.7319
得須陀洹果	-10.7323
如是如是	-10.7325
諸大種	-10.7328
厭捨	-10.7331
起貪	-10.7332
入定心	-10.7333
相續緣	-10.7334
而為	-10.7338
貪嗔	-10.7339
第三句者	-10.7341
漸增	-10.7342
前師	-10.7344
十歲	-10.7351
不自	-10.7352
地故	-10.7353
樂想	-10.7361
捨離	-10.7362
實事	-10.7363
各自	-10.7365
等業	-10.7365
亦許	-10.7367
是謂非	-10.737
無明隨眠	-10.7371
三心	-10.7372
五明	-10.7375
離非想非非想處染	-10.7376
九十	-10.7377
緣下	-10.7381
安布	-10.7385
故無有失	-10.7387
如理所引	-10.7388
學無學非學非無學	-10.7391
本論說	-10.7394
二名	-10.7396
蘇	-10.7399
分中	-10.7399
隙	-10.7399
因等起	-10.74
得非得	-10.7401
浮	-10.7401
彼盡	-10.7401
齒	-10.7402
旨	-10.7402
摽	-10.7405
戰	-10.7407
如有一類	-10.7412
所害	-10.7414
而不能	-10.7415
昧劣	-10.7415
其事云何	-10.7417
不自在	-10.7417
亦起	-10.7419
即應	-10.742
彼類	-10.7424
十一種	-10.7426
欲知	-10.7427
正生	-10.7427
然此不	-10.7431
此二種	-10.7433
總標	-10.7434
彼所緣	-10.7438
發戒	-10.7438
壞故	-10.7438
三無為	-10.7438
今當	-10.7443
如本	-10.7444
四因	-10.7452
聚義	-10.7454
報業	-10.7455
極遠	-10.7456
四事	-10.7457
滅相	-10.7464
此頌	-10.7476
同處	-10.7477
愛恚	-10.7478
先觀	-10.748
思業	-10.7486
於何處	-10.7487
增者	-10.7487
不同分	-10.7487
三生	-10.7491
丈夫	-10.7491
壞時	-10.7492
亦無有失	-10.7495
緣闕	-10.7498
佉	-10.7499
外人	-10.75
人所	-10.7501
寺	-10.7503
如眼	-10.7503
作方便	-10.7504
思等	-10.7504
初說	-10.7507
彼過去	-10.7507
之心	-10.7508
勝定	-10.7508
分別論者	-10.7509
不應作是說	-10.7509
勇猛	-10.7511
算	-10.7513
非時	-10.7514
非有情數	-10.7514
識生	-10.7519
云何學	-10.752
或成就	-10.7522
一切有漏	-10.7522
何者是	-10.7525
知足	-10.7528
見道位	-10.753
阿毘達磨藏	-10.7531
斷欲	-10.7532
轉成	-10.7535
無病	-10.7536
由此因緣	-10.7538
便成	-10.7541
緣法	-10.7545
非人	-10.7545
非見斷非思惟斷	-10.7549
遍淨天	-10.755
心狂	-10.7551
是實有	-10.7552
後世	-10.7554
見所斷惑	-10.7557
攝一切	-10.7564
比丘思惟法生	-10.7564
謂過去	-10.7564
盡是	-10.7568
今欲	-10.7571
見滅所斷邪見	-10.7576
不死	-10.7577
皆為	-10.7579
頃	-10.758
從欲界	-10.7581
若我	-10.7583
先所	-10.7586
薩迦耶見	-10.7597
或應說	-10.7597
柔軟	-10.7598
應以	-10.7599
第二釋	-10.7601
欲愛未盡	-10.7602
哉	-10.7602
稍	-10.7602
有德	-10.7603
助伴	-10.7603
五欲	-10.7604
理教	-10.7605
斷知	-10.7607
由二	-10.7609
可得故	-10.7612
無他心智	-10.7612
復生	-10.7613
可然	-10.7614
高舉	-10.7618
思法	-10.7618
不寂靜	-10.7619
天處	-10.7621
心頃	-10.7622
亦捨	-10.7625
可生	-10.7626
唯受	-10.7631
貪故	-10.7635
即無	-10.7635
由三	-10.7636
不應作	-10.764
身念處	-10.7642
造論	-10.7644
自力	-10.7647
合說	-10.7648
有力	-10.7649
除非	-10.7649
三歸	-10.7651
定慧	-10.7664
於善	-10.767
十二心	-10.7679
敘異說	-10.7679
噉	-10.7681
有身見邊執見	-10.7682
之義	-10.7683
不墮惡趣	-10.7684
奢摩他	-10.7687
於過去	-10.7688
境界有對	-10.7689
於四聖諦	-10.7692
惛	-10.7692
有邊	-10.7696
此品	-10.7696
不一切遍	-10.7699
三惡趣	-10.7702
而現在前	-10.7703
兒	-10.7704
還得	-10.7712
識食	-10.7712
貪瞋慢	-10.7712
加行位	-10.772
勝解作意	-10.7724
有過	-10.773
無漏定	-10.7737
違經	-10.7737
若有因	-10.7737
謂法智	-10.7743
已斷故	-10.7745
斷一切	-10.7752
乃至第四靜慮	-10.7753
遍淨	-10.7761
獨名	-10.7761
先後	-10.7763
一部	-10.7766
一頌	-10.7768
折	-10.777
如水	-10.777
餘人	-10.7771
思量	-10.7775
一一皆	-10.7775
以欲界	-10.7776
心相續	-10.7782
神境	-10.7783
釋迦	-10.7783
除此	-10.7783
准知	-10.7783
無我行	-10.7785
所以今當說	-10.7787
唯佛	-10.7789
應當	-10.779
起下	-10.779
生法	-10.779
伎	-10.7793
十處	-10.7797
習諦	-10.7798
非智	-10.7799
含	-10.78
如前已說	-10.7804
時解脫阿羅漢	-10.7805
未已生	-10.7806
愚夫	-10.7808
生般	-10.7808
無實	-10.7808
無量無邊	-10.7811
三十四	-10.7812
邪行	-10.7816
問佛	-10.7818
有爾所	-10.7821
故說名為	-10.7821
本質	-10.7827
此六	-10.7836
背捨	-10.7839
六心	-10.7843
無色界無	-10.7844
永滅	-10.7844
餘方	-10.7845
共生	-10.7845
斷欲界	-10.7849
聲說	-10.7855
不正	-10.7856
總明	-10.7857
於如是	-10.7861
或二	-10.7863
自作	-10.7863
出離依	-10.7872
及無為	-10.7873
即成	-10.7874
在現在	-10.7875
樂痛	-10.7879
七句	-10.7879
云何成就	-10.7881
納息	-10.7882
此亦應爾	-10.7884
是故世尊	-10.7886
苦類智已生	-10.7888
不明了	-10.7891
觀身	-10.7891
精	-10.7892
四無色定	-10.7892
是緣	-10.7893
亂心	-10.7894
此難不然	-10.7895
是勝義	-10.7897
貪欲蓋	-10.7899
我有	-10.7899
負	-10.79
降伏	-10.79
多剎那	-10.7901
處說	-10.7902
三無數劫	-10.7902
說一切	-10.7903
敷	-10.7904
所說當云何通	-10.7906
申	-10.7907
得六	-10.7911
暗	-10.7911
二三	-10.7911
方起	-10.7913
又非	-10.7916
乞食	-10.7917
究竟故	-10.7919
緣義	-10.7919
愛敬	-10.7921
略有二種	-10.7921
得聖	-10.7924
可為	-10.7925
第二念	-10.7925
彼不應作是說	-10.793
巳上	-10.7934
起煩惱	-10.7934
彼雖	-10.7935
退故	-10.7936
歷	-10.7939
起欲界	-10.7941
慈悲	-10.7944
此觀	-10.7947
由有	-10.7949
為四	-10.7954
爾時世尊	-10.7956
之處	-10.796
理成	-10.7962
遠故	-10.7963
增進	-10.7977
後四	-10.7979
得滅盡定	-10.7979
謂無色界	-10.7984
毘婆闍婆提	-10.7985
或色界繫	-10.7987
不墮	-10.7987
宣	-10.7987
經部答	-10.7989
一極微	-10.7991
彼天	-10.7991
次後	-10.7993
漏盡通	-10.7994
無相三昧	-10.7995
梵行已立	-10.7998
犍度	-10.8001
復以	-10.8001
一眼	-10.8002
若比丘	-10.8004
及根	-10.8005
念慧	-10.8005
降	-10.8009
呵	-10.8009
修多羅	-10.8009
咸	-10.8011
得罪	-10.8016
復次欲界	-10.8018
業障	-10.802
如何可言	-10.8029
觀諦	-10.8029
共有	-10.8029
有三句	-10.8031
故不別說	-10.8031
及彼相應	-10.8033
於現	-10.8034
如一	-10.8041
如上所說	-10.8042
有法非	-10.8043
僧破	-10.8043
我體	-10.8044
廣說亦爾	-10.8048
命終時	-10.8049
有樂	-10.805
成就過去未來	-10.8052
緣無色界繫	-10.8054
汝宗	-10.8061
所愛	-10.8063
色生	-10.8068
俱無	-10.8069
此中依	-10.8072
第九品	-10.8075
我為	-10.8083
四境	-10.8087
或為	-10.8088
獄	-10.8094
生老住無常	-10.8095
不清淨	-10.8096
分二	-10.81
見處	-10.8102
非一切遍	-10.8103
毘柰耶	-10.8105
為二	-10.8105
創	-10.8106
云何無記	-10.8108
侵	-10.8118
唯不善	-10.812
鬼趣	-10.8122
侍	-10.8125
得滅定	-10.8125
矣	-10.8126
心無	-10.8127
既許	-10.8127
不覺	-10.8128
廣說四句	-10.8128
在此	-10.8128
剎那等起	-10.8129
皆成	-10.8129
可轉	-10.8131
所求	-10.8133
十六心	-10.814
所更	-10.8142
空無願	-10.8146
苦忍	-10.8147
取果與果	-10.815
非遍	-10.8151
舌根	-10.8152
既是	-10.8152
如我	-10.8154
已解脫	-10.8154
身中有	-10.8156
貪欲瞋恚	-10.8157
從此第三	-10.8157
隱沒無記	-10.8159
中劫	-10.8159
幾種	-10.816
易可	-10.8161
餘者	-10.8163
一切是	-10.8168
七識住	-10.8173
共業	-10.8174
不能知	-10.8176
諸功德	-10.8178
為初	-10.8179
自性斷	-10.818
非斷	-10.818
離欲貪	-10.818
彼便	-10.8185
復問	-10.8186
無願三摩地	-10.8187
釋第四句	-10.8189
眼識乃至意識	-10.8193
亦言	-10.8196
作事	-10.8197
非俱有因	-10.82
餘智	-10.8201
令我	-10.8203
觀外色	-10.8205
一世	-10.8205
尊者妙音作如是說	-10.8205
水界	-10.8207
所除	-10.8208
無色有	-10.821
賤	-10.8211
相屬	-10.8214
九處	-10.8214
甘露	-10.8216
蛇	-10.822
無知他人心智	-10.8221
厚	-10.8222
即顯	-10.8223
怛	-10.8226
其身	-10.8227
鹽	-10.8229
無明等	-10.8229
慶喜	-10.823
漸得	-10.8234
三災	-10.8235
假想	-10.8238
習盡道	-10.8238
力劣	-10.824
四道	-10.8241
非斷智知	-10.8242
是謂差別	-10.8248
無記性	-10.8253
因苦法智斷	-10.8254
所持	-10.8256
名說	-10.8264
定應	-10.8267
堅牢	-10.827
時彼	-10.8272
在三界	-10.8274
可樂	-10.8278
不繫法	-10.828
不可知	-10.8281
非全	-10.8281
想異	-10.8284
一蘊	-10.8287
能正	-10.8287
體即是	-10.8291
入滅盡定	-10.8293
靜慮律儀	-10.8296
最勝故	-10.8299
縛所縛	-10.8299
復有何	-10.83
最為	-10.8303
微塵	-10.8304
如見	-10.8308
內無色想觀外色	-10.831
已離色染	-10.8311
聰慧	-10.8313
心現在前	-10.8315
向道	-10.8315
尊弟子	-10.8318
蘊界處	-10.8318
已離色界貪	-10.8318
有二十	-10.8319
有增上用	-10.8319
元	-10.8323
三靜慮	-10.8324
追悔	-10.8324
無始時來	-10.8326
上得	-10.8327
均	-10.8327
十界	-10.8327
截	-10.8328
急	-10.833
或作	-10.833
邪婬	-10.8332
朋	-10.8333
無量有情	-10.8333
行報	-10.8335
住故	-10.8335
言為顯	-10.8342
能續	-10.8343
羞	-10.8346
為求	-10.835
八界	-10.8351
非色法	-10.8352
有取	-10.8354
有他心智	-10.8356
沙門性	-10.8357
不正知	-10.8362
應知此	-10.8366
諸根大種	-10.8368
類中	-10.8368
無願相應	-10.837
忍果	-10.8373
若識	-10.8374
違理	-10.8374
果法	-10.8378
諸預流者	-10.8381
或多	-10.8382
或不善	-10.839
婆沙一百	-10.8391
為何所	-10.8393
師釋	-10.8395
未熟	-10.8408
謂眼	-10.841
欲尋	-10.841
若不成就	-10.8414
愛盡上愛未盡	-10.8415
若如理所引了別	-10.8419
大造	-10.842
忍位	-10.8421
謂如有一	-10.8423
一支	-10.8426
天眼耳	-10.8433
推求	-10.8434
乞	-10.8436
一想	-10.8437
最極	-10.8437
=	-10.8437
發聲	-10.8438
僧伽	-10.8439
餘一切	-10.8442
五心	-10.8442
瞿	-10.8443
隨其事	-10.8443
稻	-10.8444
諸加行道	-10.8445
快樂	-10.8446
死後	-10.8446
等相	-10.8446
得彼	-10.8447
遮遣	-10.8449
復有苾芻	-10.845
師子	-10.8452
等生	-10.8452
畜	-10.8455
察	-10.8464
解脫者	-10.8464
止觀	-10.8465
餘蘊	-10.8466
生在	-10.8467
或在	-10.8468
非心數	-10.8472
佛所	-10.8473
所為	-10.8473
此難	-10.8474
福業事	-10.8477
處非處	-10.8478
不斷善根	-10.8479
不定者	-10.8482
生地獄中	-10.8484
證法	-10.8486
五果	-10.8486
身異	-10.8489
無覆無記色	-10.8492
善性	-10.8493
名同分	-10.8498
於欲界中	-10.8502
之與	-10.8502
世尊亦說	-10.8502
如以	-10.8503
心得解脫	-10.8507
所增隨眠	-10.8508
第一句者	-10.8509
因性	-10.851
外難	-10.8511
詰	-10.8513
不能引	-10.8513
身語意	-10.8516
其量	-10.8517
了達	-10.8517
未得世俗智現在前	-10.8518
相續故	-10.8518
自說	-10.8519
有常	-10.8521
乃至若	-10.8521
三義	-10.8522
為治	-10.8522
見盡斷	-10.8524
議	-10.8524
青黃赤白	-10.8531
身分	-10.8537
能入	-10.8538
無垢人	-10.8538
涉	-10.8541
集聖諦	-10.8544
毛孔	-10.8546
自在天	-10.8546
所得法	-10.8548
及修斷使使	-10.8552
眾中	-10.8556
教化	-10.8557
在於	-10.8558
善思	-10.8558
如是見	-10.8558
日夜	-10.8558
應當知	-10.8559
明淨	-10.8565
為十	-10.857
緣自	-10.857
疑蓋	-10.8571
離諸	-10.8573
廣分別	-10.8573
薪等	-10.8575
顯宗論	-10.8576
以一	-10.8579
異熟生心	-10.8581
無色貪	-10.8582
餘根	-10.8583
等物	-10.8584
雖說	-10.8584
三界見所斷	-10.8585
妙高山	-10.8586
能轉	-10.8588
譬喻者	-10.8588
現法樂住	-10.8589
此應	-10.8592
不能緣	-10.8592
一增上	-10.8597
一以	-10.8597
其性	-10.8598
攝持	-10.8599
八道支	-10.8602
當觀	-10.8603
五無間業	-10.8606
緣四諦	-10.8608
道類忍	-10.8608
無有差別	-10.8611
由因	-10.8616
他性	-10.862
不善色	-10.8621
亦修	-10.8622
第一有	-10.8623
名有隨眠	-10.8626
有法是	-10.8626
欲界苦	-10.8628
聞法	-10.8633
性相	-10.8638
起惑	-10.8639
彼復	-10.864
此實餘虛妄	-10.8641
勝用	-10.8643
得是時修	-10.8644
沒生	-10.8646
能受	-10.8647
持心	-10.8647
不破	-10.865
若見圓滿世	-10.8653
苾芻尼	-10.8653
乖	-10.8658
便無	-10.8658
上三靜慮	-10.866
瞿曇	-10.8661
無不	-10.8662
阿羅漢果攝	-10.8663
鼻根	-10.8664
無漏故	-10.8666
二三四	-10.867
根義	-10.8673
若有是事	-10.8673
多名身	-10.8678
相應不相應	-10.8679
三念住	-10.868
謂未來	-10.8682
鴿	-10.8683
喜相應	-10.8685
之因	-10.8686
但約	-10.8686
威儀心	-10.8688
如是等類	-10.8689
同地	-10.8691
亦應然	-10.8691
正性	-10.8695
法智類智	-10.8698
滅道法智	-10.8701
亦有差別	-10.8704
受心	-10.8704
引經證	-10.8707
初師	-10.8708
諸界	-10.8709
已復	-10.8713
得道	-10.8716
是謂成就	-10.8717
及彼同分	-10.8718
何須	-10.8719
岸	-10.8721
耳鼻舌身意	-10.8725
心行	-10.8728
邪性	-10.8733
意欲	-10.8733
業煩惱	-10.8734
有身	-10.8736
欲界身	-10.8738
種族	-10.8744
觸食	-10.8744
是第二	-10.8744
時解脫練根作不動	-10.8746
念前世智	-10.8751
必生	-10.8754
想心	-10.8758
根本靜慮	-10.8761
順住分	-10.8762
已得不失	-10.8766
六境	-10.8767
奢	-10.8768
誰能	-10.8769
何故世尊	-10.8769
釋初句	-10.877
等覺	-10.8772
房	-10.8773
餘色	-10.8773
名身等	-10.8774
不等	-10.8776
貪不善根	-10.8777
一界一入一陰攝	-10.8782
不得生	-10.8784
兩說	-10.8789
已捨	-10.8791
若善	-10.8794
天眼通	-10.8797
若有是處	-10.8798
邪慢	-10.8802
退果	-10.8803
人壽	-10.8806
初靜慮中	-10.8806
不在	-10.8809
蔽	-10.881
心不相應	-10.881
諸所有色	-10.8811
故契經說	-10.8811
解脫故	-10.8813
問頗有	-10.8813
有少	-10.8814
苦故	-10.8814
總立	-10.882
謂自	-10.8823
所緣隨增	-10.8823
百二十	-10.8826
散心	-10.8827
色界繫法	-10.8832
長益	-10.8832
無過去	-10.8836
化身	-10.8837
此中何故不說	-10.8839
煩惱垢	-10.8839
實非	-10.8841
威力	-10.8847
何理	-10.8848
方所	-10.8853
緣識及緣緣識所增隨眠	-10.8855
有未來	-10.8856
然無	-10.8856
非愛果	-10.886
未來無	-10.8861
生位	-10.8864
害他	-10.8867
如種	-10.8872
彼所說	-10.8872
能觀	-10.8873
所識	-10.8877
今應思擇	-10.8877
無如是事	-10.8879
羯剌藍	-10.888
促	-10.888
矯	-10.888
豆	-10.8881
內等淨	-10.8882
餘位	-10.8882
繁	-10.8882
悶	-10.8883
非梵行	-10.8883
獸	-10.8884
利養	-10.8884
苦智已生	-10.8886
頂法	-10.8887
前言	-10.8887
道智未生	-10.8888
酢	-10.8888
唱	-10.889
無一	-10.889
應辯	-10.8891
宮殿	-10.8893
忿等	-10.8902
非因緣	-10.8903
此滅	-10.891
卷第三十	-10.8911
欲貪隨眠	-10.8911
細滑	-10.8912
唯立	-10.8912
應立	-10.8914
淨初靜慮	-10.8914
其事	-10.8916
合故	-10.8917
謂愛	-10.8919
此經中	-10.8922
護法	-10.8923
於中有二	-10.8925
不貪	-10.8927
高下	-10.8927
毘婆沙師說	-10.8928
一切法皆	-10.8933
一體	-10.8938
於何	-10.8945
彼經說	-10.8948
初無漏	-10.8949
見使	-10.8951
二識	-10.8953
正釋	-10.8955
最後解脫道	-10.8957
治道	-10.8959
邊際定	-10.8963
會釋	-10.8965
同異	-10.8966
受三歸	-10.8967
除色想	-10.8974
能盡	-10.8975
二解脫	-10.8976
不息	-10.898
如欲界	-10.8981
不能令	-10.8982
曾有	-10.8985
愁	-10.8986
具四	-10.8986
一入	-10.8986
廣釋	-10.899
可取	-10.8991
思惟法	-10.8994
此唯	-10.8994
隔越	-10.8995
身不	-10.8996
破也	-10.8997
於果	-10.8998
樂淨	-10.8999
右	-10.8999
若有起	-10.9003
呪術	-10.9006
旋	-10.9006
智現在前	-10.9007
非業緣	-10.901
通釋	-10.9012
顯彼	-10.9012
既非	-10.9016
業故	-10.9017
果道	-10.9019
彼加行道時	-10.9019
慧力	-10.902
觀見	-10.902
若入	-10.9022
黠	-10.9022
難言	-10.9024
見滅斷有漏緣	-10.9027
見所斷結	-10.9027
窮	-10.9027
在無色界	-10.9027
三識識	-10.9027
十遍處	-10.9028
斷善根者	-10.9031
非處	-10.9033
所以也	-10.9036
定知	-10.9037
言有	-10.9038
無罪	-10.904
不相觸	-10.9042
相應使	-10.9046
第一明	-10.9048
夢見	-10.9057
餘因	-10.906
第	-10.9061
為因故	-10.9061
無漏他心智	-10.9063
六愛身	-10.9063
唯見	-10.9064
六通	-10.9066
亦見	-10.9066
中間禪	-10.9071
述曰此下	-10.9071
或無處	-10.9076
顯形	-10.9076
生地獄	-10.9078
猗覺意	-10.9078
故佛	-10.9079
斷智知	-10.9081
生下	-10.9081
定當	-10.9082
此下第二	-10.9087
問若爾何故	-10.909
生緣老死	-10.9091
超入	-10.9091
修等智	-10.9091
可成	-10.9092
此後	-10.9092
退住	-10.9093
畢竟斷	-10.9093
如何名	-10.9095
即能	-10.9101
㮈落迦	-10.9102
此色	-10.9104
道力	-10.9104
大文第	-10.9104
食等	-10.9107
外處	-10.9107
後一	-10.9107
對法諸師	-10.9108
彼過去法智耶	-10.9109
隨界	-10.9112
聲聞獨覺	-10.9114
定生喜樂	-10.9115
所明	-10.9116
于	-10.9116
甘	-10.9119
數行	-10.9119
泉	-10.9121
第三果	-10.9124
多諸	-10.9129
譬	-10.9136
非心相應	-10.9151
彼亦是	-10.9153
皆可	-10.9153
十一界	-10.9153
不同故	-10.9155
波羅蜜多	-10.9155
斷律儀	-10.9156
纏退時	-10.9156
見苦所斷法	-10.9157
故不相違	-10.9159
佛語	-10.916
此能	-10.9161
長短	-10.9162
是果	-10.9162
熱惱	-10.9164
還滅	-10.9167
利他	-10.9167
彼所有	-10.9173
其果	-10.9173
修加行	-10.9173
未來造色	-10.9177
中生	-10.9178
阿難陀	-10.9179
俱滅	-10.9183
及無為法	-10.9186
答不爾	-10.9188
界品	-10.9188
如經言	-10.9195
集類智	-10.9205
過去造色	-10.9205
於世間	-10.9207
若就	-10.9209
如今	-10.921
堅信堅法	-10.9212
現觀邊世俗智	-10.9213
無心定	-10.9216
不應修	-10.922
他界	-10.922
是他聚故	-10.9222
盛陰	-10.9224
緣苦集	-10.9225
廣說如經	-10.9226
跡	-10.9228
虗空	-10.9228
於下	-10.9229
無障礙	-10.9229
除欲	-10.9231
若爾何緣	-10.9237
五人	-10.9237
所施	-10.9243
六欲天	-10.9245
入處	-10.925
謂無學	-10.9253
生無色	-10.9261
偏增	-10.9267
正行	-10.9268
所隨增	-10.9268
緣滅	-10.9271
斷時	-10.9271
此忍	-10.9272
期	-10.9272
三道	-10.9273
此亦應然	-10.9274
觀彼	-10.9279
於世	-10.928
必具	-10.928
品類足說	-10.9281
緣不繫	-10.9281
比知	-10.9282
根本禪	-10.9286
總集	-10.9288
根性	-10.9288
則不如是	-10.9288
諸靜慮	-10.9288
念力	-10.9289
未來耶	-10.9291
有別法	-10.9292
欲愛盡	-10.9293
正見等	-10.9297
受念處	-10.9298
順現法受	-10.9299
如是諸法	-10.9305
四心	-10.9306
惟	-10.9308
學見	-10.931
且初	-10.9318
十七界	-10.932
天人	-10.9321
離欲界	-10.9323
自心	-10.9323
如意	-10.9324
此四種	-10.9327
所說義	-10.9328
但可	-10.9329
堅實	-10.9332
於理	-10.9333
解了	-10.9334
同一果	-10.9336
論主答	-10.934
與後	-10.9342
色時	-10.9342
正量部	-10.9342
若諸有情	-10.9342
修所成慧	-10.9343
尊者世友	-10.9343
勝行	-10.9345
世法	-10.9347
鄙	-10.9351
陳	-10.9352
屈	-10.9353
健	-10.9355
羯	-10.9355
東方	-10.9356
行世	-10.9356
召	-10.9356
乃至識	-10.9357
定得	-10.9357
默然	-10.9359
隨心	-10.936
由得	-10.9361
此念	-10.9362
答由	-10.9365
道品	-10.9368
立一	-10.9368
逼切	-10.9369
力用	-10.9369
契經所說	-10.9369
對法者	-10.937
順現法受業	-10.9374
成劫	-10.9379
彼身	-10.938
必成就	-10.9381
邪方便	-10.9382
形量	-10.9384
下文	-10.9385
亦不應理	-10.9399
壁	-10.9402
皆依	-10.9405
染淨	-10.9411
若爾云何	-10.9412
汝說	-10.9412
引果	-10.9415
住不律儀	-10.9417
如何得	-10.942
定業	-10.9422
卑慢	-10.9429
雖於	-10.9431
隨轉色	-10.9435
結中	-10.9436
習修	-10.9436
顧	-10.9437
色識	-10.9439
供	-10.945
十纏	-10.9451
見道所斷法	-10.9453
修練根	-10.9455
有執	-10.9457
犯重	-10.9458
所隨	-10.9459
邪念	-10.9461
諸瑜伽師	-10.9463
捷疾	-10.9463
演說	-10.9464
見苦集滅道及修所斷	-10.9464
反詰	-10.9465
大眾	-10.9466
三義觀	-10.9467
阿素洛	-10.9471
知識	-10.9471
壞劫	-10.9474
如是次第	-10.9474
適意	-10.9476
神變	-10.9477
剎帝利	-10.9478
二無心定	-10.9479
三慧	-10.9481
廣如	-10.9481
拔濟	-10.9485
野	-10.9486
起慢	-10.9487
有漏行	-10.9487
第三明	-10.9488
一切世間	-10.9489
黑闇	-10.9494
必起	-10.9494
遍身	-10.9496
由此故說	-10.9498
慧眼	-10.9502
即名為	-10.9503
色究竟天	-10.9505
福德	-10.9506
諸有為	-10.9509
攝一切法	-10.9509
心如實知	-10.9512
異緣	-10.9513
天眾	-10.9513
輕重	-10.9514
漏處攝	-10.9514
非正	-10.9516
非學非無學法	-10.9516
所緣故隨增非相應故	-10.9518
通三	-10.9518
因不相應	-10.9519
以何為	-10.9521
餘七	-10.9522
有對色	-10.9523
今說	-10.9523
生身	-10.9526
至教	-10.9535
力能	-10.9535
心轉	-10.9537
中亦有	-10.9538
愛果	-10.9539
正解	-10.9541
逼迫	-10.9541
身輕安	-10.9544
能順	-10.9545
問何緣	-10.9545
未來生	-10.9546
捨故	-10.9547
則不然	-10.9548
緣滅諦	-10.9549
身作證	-10.9551
已作	-10.9552
色聚	-10.9554
即由	-10.9555
善報	-10.9556
於色界	-10.9557
三和合	-10.9559
聖語	-10.9561
意思惟相應	-10.9562
迦濕彌羅國	-10.9568
行處	-10.9571
修梵行	-10.9573
彼比丘	-10.9576
云何不善	-10.9576
此意	-10.9578
欲界善	-10.958
及一切	-10.9581
念念	-10.9581
起現在前	-10.9583
無力	-10.9583
〔	-10.9587
樓	-10.9587
皆名為	-10.9588
轉生	-10.9591
兩釋	-10.9591
邪語	-10.9593
從多分說	-10.9593
有別體	-10.9594
慈氏	-10.9594
評曰應作是說	-10.9594
麁顯	-10.9595
吉祥	-10.9595
相待	-10.9596
譏	-10.9598
有喜	-10.9599
堂	-10.9602
如眼識	-10.9606
懼	-10.9607
正說	-10.9609
決定別有	-10.9612
威儀工巧	-10.9613
智知	-10.9613
造惡	-10.9613
若色界	-10.9614
餘經說	-10.9616
而是	-10.9622
為道	-10.9622
所作事	-10.9622
其事如是	-10.9624
依主釋也	-10.9624
死想	-10.9625
難陀	-10.963
正精進	-10.963
經部宗	-10.9632
若無者	-10.9633
鼻舌	-10.9634
未來十	-10.9634
初盡智	-10.9636
彼加行道	-10.9637
若取	-10.9638
所依所緣	-10.9639
遠近	-10.964
又論云	-10.9642
此中不說	-10.9648
恥	-10.9649
彼於此	-10.965
斷末摩	-10.9651
不善善有漏	-10.9657
於無色界	-10.966
餘九	-10.9665
地者	-10.9667
剎那剎那	-10.9667
文義	-10.9668
謂有一類	-10.967
用增	-10.9671
未至地	-10.9675
或先有不失	-10.9676
生後	-10.9677
隨縛	-10.9679
不別立	-10.9682
唯攝	-10.9683
色無為心不相應行	-10.9688
嫉慳	-10.9689
由他	-10.9689
具說	-10.9692
或復有	-10.9695
語惡行	-10.9695
謂異生	-10.9698
為顯示	-10.97
隨所得	-10.9701
預	-10.9703
所纏	-10.9705
或有過去愛結繫	-10.9706
離欲染時	-10.9707
尸	-10.971
佛法僧	-10.9715
極為	-10.9717
開示	-10.9717
仁	-10.9717
寄	-10.9718
此中但說	-10.972
祠	-10.972
健達縛	-10.972
選擇	-10.972
癰	-10.972
術	-10.9721
疲	-10.9721
違逆	-10.9722
充	-10.9723
故婆沙	-10.9726
夏	-10.9727
無漏四靜慮	-10.9728
達羅	-10.9728
引業	-10.9728
俱聚中	-10.9729
發業	-10.9732
與一切	-10.9734
妙法	-10.9736
無結盡	-10.9736
死生智	-10.9737
若約	-10.9743
更加	-10.9747
隨義	-10.9748
苦性	-10.9748
一切色	-10.9752
無前後	-10.9755
多住	-10.9758
能令心	-10.976
除無明	-10.976
頌答	-10.9764
一切心	-10.9767
信受	-10.9768
差別云何	-10.9776
住非律儀非不律儀	-10.9779
轉者	-10.9782
一身中	-10.9782
立支	-10.9784
離色	-10.9786
彼必	-10.9787
見法	-10.9789
共心	-10.979
異於	-10.9791
謂己	-10.9793
離一切	-10.9795
下兩句	-10.9797
得果時	-10.98
制伏	-10.9801
或緣	-10.9803
如王	-10.9808
不犯	-10.9809
於中間	-10.9809
非等無間緣	-10.981
唯能	-10.9816
二取	-10.9816
異處	-10.9817
二禪地	-10.9817
所相	-10.9823
學慧	-10.9827
耶解云	-10.9828
與未來	-10.9828
是故不立	-10.9829
醜陋	-10.9833
宋	-10.9833
喬答摩	-10.9834
淨戒	-10.9841
幻	-10.9841
非無記	-10.9842
無學慧	-10.9842
經意	-10.9842
弘	-10.9846
耆	-10.9846
不復生	-10.9848
壞敗	-10.9848
陀羅	-10.9851
以三事故	-10.9851
設法	-10.9852
勝利	-10.9853
非真	-10.9854
執取	-10.9855
惡業道	-10.9856
形相	-10.9856
分為二	-10.9859
煩惱故	-10.986
心所念法	-10.986
功能差別	-10.9862
第九無間道	-10.9862
有境	-10.9863
以種種	-10.9866
成三	-10.9866
別法	-10.987
計度	-10.9871
此二俱	-10.9875
道諦所斷	-10.9876
即滅	-10.9883
生非想非非想處	-10.9883
空非我	-10.9885
無間滅	-10.9886
正見相應	-10.9887
欲界見苦所斷	-10.9891
無記業	-10.9893
此據	-10.9893
若現在前	-10.9894
第三第四靜慮	-10.9894
乃至未	-10.9896
有依	-10.9896
疑使	-10.99
復有餘	-10.9905
初後	-10.991
亦唯	-10.9913
名異生性	-10.9914
所詮	-10.9915
能斷善根	-10.9916
遍滿	-10.9919
無想異熟	-10.9926
鬪諍	-10.9927
離煩惱	-10.9928
滅已	-10.9929
捨前	-10.9931
是則應	-10.9933
三云	-10.9933
增損	-10.9936
自在故	-10.9937
謂離	-10.9941
起滅定	-10.9941
由根	-10.9942
無中有	-10.9942
色耶	-10.9944
百劫	-10.9945
卷第七	-10.9946
釋第三句	-10.9947
共相作意	-10.9947
及除	-10.9947
趣中	-10.9949
應受	-10.9954
謂或有執	-10.9955
吾	-10.9955
至生相	-10.9957
半超	-10.9959
尊者舍利子	-10.996
即於彼	-10.9961
以後	-10.9962
無慚愧	-10.9963
化事	-10.9967
唯生	-10.997
不分別	-10.997
亦當	-10.9971
彼於此道	-10.9971
世尊告曰	-10.9974
醫	-10.9974
仰	-10.9974
茲	-10.9974
及住	-10.9976
一陰	-10.9979
屍	-10.9982
及彼相應無明	-10.9982
隨根	-10.9984
十二緣起	-10.9995
於自地	-10.9997
牽引	-10.9997
各四	-10.9999
有形	-11
身見邊見	-11.0001
名何法	-11.0002
七使	-11.0004
樂等	-11.0004
有色有情	-11.0005
通經	-11.0008
由加行	-11.0009
梵住	-11.0015
空界色	-11.0016
我應	-11.002
九結中	-11.0022
一釋	-11.0023
最為勝	-11.0023
諸得俱起	-11.0026
所須	-11.0027
口業	-11.0029
及心	-11.0034
轉時	-11.0036
是共	-11.0038
離生	-11.0038
曾未	-11.0043
不共心	-11.0045
前解	-11.0046
無垢	-11.0049
六明	-11.005
法生時	-11.0051
證不還果	-11.0054
其所	-11.0054
今言	-11.0055
無學人	-11.0056
謂若法	-11.0058
無依	-11.006
一二分或	-11.0062
說彼	-11.0063
多行	-11.0065
亦斷	-11.0067
三位	-11.0068
所因	-11.0077
二俱繫	-11.0077
蔭	-11.0078
唯應	-11.0079
更互	-11.0081
二相	-11.0081
答因	-11.0086
聚落	-11.0087
復從	-11.0089
漸減	-11.0089
逮	-11.009
「	-11.009
餘緣	-11.0091
慈心	-11.0092
在初	-11.0092
起愛	-11.0093
四大所造	-11.0094
能遍	-11.0096
問此說	-11.0096
拏	-11.0097
唐捐	-11.0098
希有	-11.0098
見修	-11.0099
嶮	-11.01
後釋	-11.0101
逢	-11.0103
美妙	-11.0105
惱亂	-11.0106
又契經言	-11.0107
勝解力	-11.0108
喪	-11.0108
盡不失	-11.0108
初明	-11.0111
分三	-11.0111
應同	-11.0112
由此因故	-11.0114
總有四種	-11.0114
已熟	-11.0121
俱害	-11.0123
已有	-11.0127
有增減	-11.013
中所有	-11.0132
淨妙	-11.0132
無學見	-11.014
釋名	-11.0144
依於	-11.0145
遣他	-11.0145
三根相應	-11.0146
有苦	-11.0151
切	-11.0152
三處	-11.0152
慢等	-11.0154
中際	-11.0158
共生因	-11.0159
教他	-11.0161
一界一入	-11.0162
如何成	-11.0164
所樂	-11.0164
已度	-11.0166
加行後起	-11.0167
笑	-11.0168
所緣斷	-11.0168
意成	-11.0169
欲界死	-11.0173
當知此義有餘	-11.0174
應爾	-11.0175
若不盡	-11.0178
不顛倒	-11.018
欲止	-11.0181
一來者	-11.0182
除一切法	-11.0183
上中下	-11.0185
周遍	-11.0187
所縛	-11.0188
又無	-11.0188
淨相	-11.0189
不調	-11.0189
不約	-11.0193
藏中	-11.0193
眾生數	-11.0194
自性與自性不相應	-11.0195
由二緣	-11.0196
初無漏心	-11.0197
三門	-11.0197
是修道斷	-11.0198
欲界三部	-11.0199
自境	-11.0201
正業	-11.0202
不斷者	-11.0203
此既	-11.0203
尊者佛陀提婆說曰	-11.0205
久遠	-11.0206
非見性	-11.0206
及無色界	-11.0207
無始來	-11.0209
不和合	-11.0211
已了別今了別當了別	-11.0211
假有	-11.0215
六者	-11.022
注	-11.0222
彼諸	-11.0223
解脫得	-11.0223
更有說者	-11.0225
此問	-11.0229
束	-11.0229
質直	-11.0229
尺	-11.0231
欲界結	-11.0232
妻子	-11.0233
受化者	-11.0234
盡諦	-11.0236
國土	-11.0236
印度	-11.0237
現在前者	-11.0238
名沙門果	-11.0239
聞聲	-11.0243
一少分	-11.0244
於自身	-11.0249
損壞	-11.0249
地法	-11.0258
相差別	-11.0258
連續	-11.0258
中間定	-11.0264
分析	-11.0266
是故名為	-11.0267
福行	-11.0273
無間地獄	-11.0273
是智	-11.0275
近分地	-11.0277
婆羅	-11.0278
續善根	-11.0278
則為	-11.0279
何時	-11.0279
發識	-11.0279
婆沙一百一十	-11.028
決斷	-11.028
意妙行	-11.0281
諸惡行	-11.0282
合立	-11.0282
定戒	-11.0284
此三種	-11.0284
未了	-11.0287
八解脫道	-11.0288
在何位	-11.029
法智相應	-11.0291
或八	-11.0294
學無學法	-11.0296
有聲	-11.0296
本所	-11.0297
定蘊	-11.0304
斷治	-11.0305
六句	-11.0306
中云	-11.0308
語表業	-11.031
力等	-11.0317
無相三摩地	-11.0317
修善	-11.0321
於一切法	-11.0322
見智慧	-11.0322
斷常	-11.0323
解脫障	-11.0323
云何法入	-11.0325
釋種	-11.0328
無為緣	-11.0329
唯約	-11.0329
色中	-11.033
彼於爾時	-11.0332
不能取	-11.0332
有作是言	-11.0335
心之	-11.0335
彼師	-11.0336
離第四靜慮染	-11.0339
知已根	-11.034
現觀時	-11.0342
如其所應	-11.0343
堅法	-11.0344
尊者瞿沙	-11.0344
得阿那含果	-11.0344
慼	-11.0345
密意	-11.0347
加行善心	-11.0348
於此處	-11.0348
無明結未斷	-11.0348
審慮	-11.0349
於母	-11.0351
於一切時	-11.0352
牢固	-11.0353
集智未生	-11.0354
見中	-11.0354
廣辯	-11.0354
火災	-11.0355
支體	-11.0355
於諦	-11.0356
此眾生	-11.0357
別解律儀	-11.0358
於此義中	-11.0358
取至境	-11.0358
一相	-11.0359
義言	-11.0359
肘	-11.036
在意地	-11.0361
諸道	-11.0362
已來	-11.0363
起加行	-11.0364
典	-11.0364
通於	-11.0364
園林	-11.0364
初果	-11.0365
爛	-11.0366
亦爾耶	-11.0368
廢立	-11.0371
罰	-11.0371
修所斷心	-11.0373
非報緣	-11.0374
見滅所斷有漏緣	-11.0377
勿有	-11.0378
於五	-11.0378
緣諦	-11.0379
轉增	-11.0379
又正理	-11.0381
云何法界	-11.0388
食者	-11.0391
鬪	-11.0392
容受	-11.0393
無行	-11.0393
即知	-11.0395
定根	-11.0396
緣使	-11.0397
繫心	-11.0399
雜故	-11.0402
滿業	-11.0406
超一切	-11.0411
道類智忍	-11.0415
餘惑	-11.0419
入無想定	-11.042
二滅	-11.0421
諸聖	-11.0421
如法	-11.0428
依色	-11.0429
為境界	-11.0431
色無色界苦	-11.0435
諸沙門婆羅門	-11.0439
繫耶	-11.0439
過慢	-11.044
非法智	-11.0442
者即是	-11.0443
辭	-11.0444
其人	-11.0445
集滅	-11.0445
法門	-11.0448
有實體	-11.0449
順生	-11.0449
依之	-11.0451
得知	-11.0453
此行	-11.0453
非增上緣	-11.0456
於其中	-11.0458
香界	-11.0458
此偈	-11.0458
彼捨	-11.0459
為上首	-11.0461
聲等	-11.0464
般涅槃者	-11.0464
幾隨眠隨增	-11.0467
謂於此事	-11.0468
盡諸漏	-11.0469
敗	-11.047
慧者	-11.0473
煩惱使	-11.0474
彼所起心不相應行	-11.0476
擇法覺意	-11.0476
徒	-11.0477
愛取	-11.0477
若知	-11.0479
少入	-11.0479
本無今有	-11.048
作所依	-11.048
嘗	-11.0481
戒等	-11.0483
世所	-11.0487
竊	-11.0487
擲	-11.0487
理不成故	-11.0489
於地獄	-11.0489
妙欲	-11.049
升	-11.049
委	-11.0493
如實了知	-11.0494
金銀	-11.0494
佛契經	-11.0495
是麁	-11.0495
下三無色	-11.0495
答一增上	-11.0496
是世俗	-11.0496
陵	-11.0497
彼中	-11.0498
頻	-11.0498
佛不	-11.0498
名修所斷	-11.0499
墜	-11.0501
近住律儀	-11.0501
所斷法	-11.0504
業用	-11.0505
大善地法	-11.0506
法前得	-11.0507
彼文	-11.051
非異緣	-11.0511
有補特伽羅	-11.0512
臭	-11.0512
梵本	-11.0513
復更	-11.0513
要待	-11.0514
梵天上	-11.0517
生初靜慮	-11.0518
煩惱相應	-11.0521
唯四	-11.0524
流至	-11.0525
此中說之	-11.0528
是名法入	-11.0529
此十	-11.0529
空空	-11.0529
婆沙一百三十	-11.053
作是念言	-11.0533
標名	-11.0535
五力	-11.0538
彼法非	-11.0538
為能作因	-11.054
何果攝	-11.0543
立解脫	-11.0544
即於此	-11.0544
若諸聖者	-11.0547
令身	-11.0548
有眾多	-11.0553
有無量	-11.0555
便斷	-11.0555
色界法	-11.0555
從他	-11.0555
皆從	-11.0556
不相續	-11.0558
及不繫	-11.0563
身內	-11.0565
俱通	-11.0567
必由	-11.057
一處少分	-11.0571
自餘	-11.0571
云云	-11.0574
自稱	-11.0574
其因	-11.0574
地獄趣	-11.0576
便壞	-11.0579
諸無漏	-11.058
謂若有	-11.058
先斷	-11.0581
所對	-11.0581
麁心	-11.0581
有心位	-11.0582
修學	-11.0584
色界死	-11.0584
而實	-11.0585
外器	-11.0586
於現在	-11.0587
齊何	-11.0591
有結	-11.0593
後師	-11.0594
作論者	-11.0599
世尊告	-11.0601
非過去非未來非現在	-11.0601
見彼	-11.0601
心所起去來屈申迴轉身教	-11.0602
正語正業正命	-11.0604
果也	-11.0607
殘	-11.0607
前攝後	-11.0608
默	-11.0608
開避	-11.0609
順上分結	-11.0611
息風	-11.0612
廢	-11.0613
十年	-11.0613
善處	-11.0613
燋	-11.0615
不續	-11.0616
是見性	-11.0618
勢力劣故	-11.0618
此律儀	-11.0619
離下染	-11.0619
繩	-11.062
與上相違	-11.062
徹	-11.062
餘或成就或不成就	-11.0621
入見諦者	-11.0622
作所緣	-11.0623
浴	-11.0623
生報	-11.0623
良	-11.0623
外境	-11.0624
縱廣	-11.0625
摧	-11.0626
非業道	-11.0627
正等覺	-11.0627
何妨	-11.0629
隣虛	-11.063
擬	-11.0633
割	-11.0634
女男根	-11.0634
隨一現前	-11.0637
唯無記	-11.0638
名想	-11.0638
作三句	-11.0641
前行	-11.0641
身命	-11.0642
四月	-11.0645
男身	-11.0646
善說	-11.0646
云何欲界繫	-11.0646
近事律儀	-11.0648
百歲	-11.0653
過去者	-11.0655
隨所應當	-11.0659
不生故	-11.0661
資益	-11.0665
生欲界梵世	-11.0665
因明	-11.0666
相應思	-11.0669
是故先說	-11.0671
上所說	-11.0671
外緣	-11.0677
已壞	-11.0679
隨生	-11.0685
問起	-11.0686
四品	-11.0686
起染	-11.0688
如是已說至	-11.0689
以自	-11.069
法無礙解	-11.0692
除去	-11.0693
是名法界	-11.0693
無復	-11.0695
體即	-11.0698
或學	-11.0699
如大	-11.0702
強故	-11.0705
此戒	-11.0709
論主難	-11.0711
二趣	-11.0714
雜緣	-11.0715
論主釋	-11.0715
無喜樂	-11.0716
合為	-11.0717
即生	-11.0717
二靜慮	-11.0721
彼想	-11.0721
句身	-11.0726
當為	-11.0727
出心	-11.0729
別有體	-11.0729
初三	-11.073
謂未知當知根	-11.0731
色漏有漏	-11.0732
知他	-11.0733
十二種	-11.0738
如實見	-11.0742
一形	-11.0742
後攝前	-11.0743
證阿羅漢果	-11.0744
有頂地	-11.0744
露	-11.0748
死屍	-11.0749
惑得	-11.0749
何異	-11.075
障礙有對	-11.075
怨敵	-11.0754
三心頃	-11.0757
無益	-11.0758
天帝釋	-11.076
在後	-11.0761
續善	-11.0762
乙	-11.0763
扶	-11.0765
白佛言	-11.0765
纏退	-11.0766
當分別	-11.0766
童子	-11.0767
阿毘	-11.0767
酬	-11.0768
免	-11.0768
力所引	-11.0771
學智	-11.0773
如燈	-11.0774
伊	-11.0775
喜等	-11.0776
十大	-11.0779
不發	-11.0781
無間罪	-11.0782
果義	-11.0782
緣見滅斷	-11.0784
文身	-11.0786
滅位	-11.0791
無色界遍行	-11.0791
死者	-11.0792
受身處	-11.0794
緣和合	-11.0798
成就四大	-11.0799
非決定	-11.0799
顯宗	-11.08
現在大種	-11.0801
不也	-11.0801
強盛	-11.0805
如應當知	-11.0805
九十八隨眠中	-11.0806
不重	-11.0806
言論	-11.0807
佛作是說	-11.0807
修者	-11.0812
為五	-11.0816
不障礙	-11.0816
聲入	-11.0817
前之	-11.0818
三昧修	-11.082
未離欲界貪	-11.0822
進根	-11.0823
覺悟	-11.0825
隨從	-11.0827
四受	-11.0827
有上	-11.0828
無所依	-11.0828
自果	-11.083
憂喜	-11.083
淨心	-11.0831
合緣	-11.0833
然不	-11.0834
謂諸隨眠	-11.0842
本法	-11.0844
簡異	-11.0848
所止	-11.0849
勝義諦	-11.0851
無分別	-11.0852
見盜	-11.0852
相別	-11.0861
寧知	-11.0861
力令	-11.0862
隣	-11.0862
惑業	-11.0871
有是處	-11.0879
者不然	-11.0881
淨者	-11.0884
身業語業	-11.0885
謂有為法	-11.0886
三無漏	-11.0886
餘不定	-11.0887
四洲	-11.0887
非因計因	-11.0888
地獄畜生餓鬼	-11.0888
至涅槃	-11.0888
正生時	-11.0889
以下	-11.0892
是名身念處	-11.0892
愛結未斷	-11.0892
以何為自性	-11.0893
故作此論	-11.0896
沙門瞿曇	-11.0898
諸忍	-11.0899
虛妄	-11.0901
集聚	-11.0901
謂或有	-11.0902
經論	-11.0903
諸有欲令	-11.0904
秋	-11.0905
彼即是彼	-11.0905
能牽	-11.0906
不勝法	-11.0907
黃門	-11.0907
於內	-11.0907
能自	-11.0907
洗	-11.0907
麻	-11.0908
四云	-11.0908
身語意業	-11.0908
博	-11.0911
日光	-11.0912
若無記	-11.0913
無煩惱	-11.0913
有相	-11.0914
或思惟	-11.0914
鉤	-11.0914
唐言	-11.0917
無上菩提	-11.0917
數論	-11.0918
故無有過	-11.092
自利	-11.0922
然由	-11.0923
身處	-11.0923
通二種	-11.0924
作第四句	-11.0927
得一來果	-11.0927
預流向	-11.0928
說亦爾	-11.093
得決定	-11.093
於四諦	-11.0935
但能	-11.0938
二行	-11.0938
愛著	-11.0942
不善業道	-11.0945
蘊滅	-11.0946
於緣	-11.0947
云何非學非無學	-11.0948
三字	-11.095
有十種	-11.095
隨所依	-11.0951
自行	-11.0954
四識	-11.0955
復次若法	-11.0955
除苦根	-11.0957
得擇滅	-11.0958
報果	-11.0958
依因	-11.0959
喜無量	-11.0959
對向	-11.0963
復有一類	-11.0969
餘師說	-11.0971
十隨眠	-11.0975
非無願	-11.0976
非報	-11.0977
非眾生數	-11.098
相續生	-11.0981
二以	-11.0983
此通	-11.0986
毀壞	-11.0987
名有執受	-11.0987
順下分	-11.0987
緣苦	-11.0992
由見	-11.0995
不成故	-11.0995
五蘊為體	-11.0999
謂過去現在	-11.1
至此	-11.1
思所成慧	-11.1003
緣色界繫	-11.1003
不立為	-11.101
謂貪	-11.1011
乃至意	-11.1011
無尋	-11.1013
巳生	-11.1015
不命終	-11.102
水等	-11.102
必當	-11.1021
前八遍處	-11.1022
空定	-11.1022
若有人	-11.1023
詞無礙解	-11.1025
或過去或未來或現在	-11.1027
阿含	-11.1027
品類足	-11.1031
掘	-11.1032
分別意識	-11.1033
必須	-11.1034
利樂	-11.1034
念等覺支	-11.1035
序	-11.1037
非業相應	-11.1038
任	-11.1039
巳下	-11.104
懸	-11.104
下三靜慮	-11.1041
盡法智斷	-11.1043
登	-11.1044
非無間緣	-11.1045
斷生命	-11.1045
正勝	-11.1046
墮負	-11.1048
自相共相	-11.105
以無漏	-11.1051
佛世尊說	-11.1053
諸心所	-11.1053
鏡等	-11.1055
有九種	-11.1055
尊者妙音說	-11.1055
由業力	-11.1055
能引起	-11.1055
為所緣增上	-11.1055
瞋等	-11.1057
九無礙道	-11.1058
由此證知	-11.1058
依第二靜慮	-11.1061
慢結繫	-11.1061
類智品道	-11.1063
可以	-11.1064
問答分別	-11.1066
不能見	-11.1067
如是相	-11.1068
合會	-11.1068
遣使	-11.1069
不用	-11.1076
及過去現在	-11.1077
愁憂	-11.1077
未滿	-11.108
增一	-11.108
將欲	-11.1082
稱讚	-11.1086
逼惱	-11.1086
以色	-11.1088
得般涅槃	-11.1091
以於	-11.1094
命終捨	-11.1098
已便	-11.1098
非無學	-11.1099
法得起	-11.1101
多羅	-11.1104
若成	-11.1105
幾隨眠	-11.1105
通一切	-11.1109
苦比智	-11.1109
無色者	-11.111
生等相	-11.1113
此行相	-11.1117
上分結	-11.1118
若成就過去	-11.1118
邪見等	-11.112
無間解脫	-11.1121
結現在前	-11.1123
世尊言	-11.1123
雖能	-11.1124
廣略	-11.1125
別觀	-11.1126
施設論	-11.1126
從因生	-11.1126
得果故	-11.1126
彼答言	-11.1127
非所隨增	-11.1131
有行	-11.1132
亦定	-11.1135
僧眾	-11.1135
不喜足	-11.1137
順現	-11.1138
非證	-11.1138
無記耶	-11.1138
諸無間道	-11.1141
一心頃	-11.1141
於人	-11.1143
缺減	-11.1148
忍斷	-11.1148
或復有說	-11.1152
於自相續	-11.1154
答有說	-11.1157
無漏五蘊	-11.1157
離貪心	-11.1158
一月	-11.1161
更無餘	-11.1161
過此	-11.1163
不合	-11.1163
違越	-11.1169
名色緣識	-11.1169
非他心智	-11.117
為遮彼執顯	-11.1171
驚	-11.1172
墮一世	-11.1174
集類智未生	-11.1174
所造業	-11.1175
應說而不說者	-11.1176
順勝進分	-11.1176
宅	-11.1177
陸	-11.1179
各二	-11.1179
所燒	-11.118
復由	-11.118
不耶	-11.118
隨心轉非受相應	-11.118
未來七	-11.118
此方	-11.1181
第二生	-11.1181
五下分結	-11.1182
逐	-11.1184
減少	-11.1185
可欣	-11.1188
向涅槃	-11.1189
云何名為	-11.1189
屠	-11.119
飯	-11.1191
哀愍	-11.1191
離苦	-11.1194
八者	-11.1197
體性是	-11.1201
私	-11.1201
不更	-11.1206
北俱盧洲	-11.1206
此我	-11.1207
他物	-11.1209
是集	-11.121
徵也	-11.121
放逸處	-11.1211
而復	-11.1212
聞說	-11.1212
出入息	-11.1213
二千	-11.1214
傍生趣	-11.1214
意言	-11.1214
第二解脫	-11.1222
有幾種	-11.1224
建	-11.1225
唯一剎那	-11.1225
不記	-11.1225
種種差別	-11.1227
類故	-11.1227
慳嫉	-11.1229
為餘	-11.1229
不減	-11.123
非要	-11.1232
如世尊言	-11.1236
能往	-11.1241
彼聚	-11.1243
緣力	-11.1248
雖斷	-11.1249
別顯	-11.1249
則不爾	-11.1249
出時	-11.125
當辨	-11.1251
欲界心	-11.1256
緣欲	-11.126
有諸有情	-11.1264
相貌	-11.1267
一心中	-11.1267
如應	-11.1267
淨不淨	-11.1269
無現在	-11.1269
第三解脫	-11.1272
乃至第四禪	-11.1273
得也	-11.1274
且說	-11.1274
及一切遍	-11.1275
非律儀非不律儀	-11.1278
使性	-11.1281
非即	-11.1281
乃名	-11.1289
大千	-11.1291
更有餘	-11.1293
持業釋	-11.1295
親近勝法不	-11.1296
無相無相	-11.1299
餘身	-11.13
相應慧	-11.1305
得盡智時	-11.1305
未證	-11.1306
法身	-11.1307
有貪心	-11.1308
尊者和須蜜說曰	-11.1308
後四勝處	-11.1309
受緣愛	-11.1309
男根女根	-11.1314
無漏業	-11.1314
彼識	-11.1315
離染時	-11.1317
諸陰	-11.1322
如餘	-11.1322
迦葉波	-11.1323
應問彼言	-11.1324
通局	-11.1325
單	-11.1326
依靜慮中間	-11.1326
此難非理	-11.1327
滅聖諦	-11.1327
祠祀	-11.1328
救護	-11.1329
無同類因	-11.133
此即初也	-11.133
途	-11.133
理不應然	-11.1331
里	-11.1333
飲諸酒	-11.1335
或無色界繫	-11.1337
床座	-11.1337
為後	-11.134
已入	-11.134
竪	-11.134
是結	-11.1341
復次為	-11.1341
欲色界繫	-11.1346
法智比智	-11.1347
弟	-11.135
而可	-11.1351
一切有漏法	-11.1352
苦集滅道智	-11.1353
何為餘	-11.1355
獄卒	-11.1358
生初禪	-11.1363
而不說	-11.1363
好聲	-11.1366
道路	-11.1367
當見	-11.1371
不穢污	-11.1372
彼結非	-11.1372
所對治	-11.1372
復次諸	-11.1373
除欲界	-11.1374
欲境	-11.1375
得非數滅	-11.1377
九法	-11.1377
欲天	-11.138
隨轉戒	-11.1381
法界攝	-11.1381
為最勝	-11.1385
別也	-11.1386
非想非非想處繫	-11.1387
願力	-11.1387
鼻等	-11.139
於一時	-11.1393
彼等起	-11.1397
或從	-11.1404
無學智	-11.1412
無餘斷	-11.1416
等活	-11.1417
得與	-11.1418
由此故知	-11.1419
捨戒	-11.1421
緣何	-11.1421
幾智	-11.1424
非擇滅得	-11.1425
各別故	-11.1425
恚癡	-11.1425
漏無漏	-11.1428
又見	-11.1429
苦集滅	-11.143
或一	-11.1431
善學色	-11.1433
引證	-11.1434
未捨	-11.1434
八十九	-11.1435
諸善根	-11.1437
觀此	-11.1438
由心	-11.144
便應	-11.1441
於三世	-11.1442
十方	-11.1444
色界善心	-11.1445
其形	-11.1446
復能	-11.1447
五義	-11.1448
分別行	-11.1449
復有過去愛結繫耶	-11.145
非明非無明觸	-11.1457
順現受	-11.1458
無雲	-11.1459
多念	-11.1459
次復	-11.1459
無用故	-11.146
依下地	-11.1463
吐	-11.1463
謂此俱有相應	-11.1465
甞	-11.1465
素怛纜	-11.1468
染時	-11.147
不增不減	-11.1471
有三品	-11.1473
亦無有過	-11.1473
肩	-11.1474
耽嗜依	-11.1474
盡未知智斷	-11.1475
訶責	-11.1476
一味	-11.1477
營	-11.1479
五結	-11.1481
則繫	-11.1481
乃得	-11.1483
二無礙解	-11.1484
餘生	-11.1484
互不相攝	-11.1484
隨得	-11.1486
出離尋	-11.1487
自見	-11.1489
親屬	-11.1491
有漏無明漏	-11.1491
銅	-11.1491
族姓	-11.1493
決定故	-11.1493
根品	-11.1494
以此故知	-11.1496
為首	-11.1498
無貪等	-11.1502
一來向	-11.1503
正慧	-11.1505
能取果	-11.1506
依前	-11.1509
如說云何	-11.1509
無第二	-11.1509
念根	-11.1511
則不能	-11.1512
性是	-11.1513
亦於	-11.1513
饒益他	-11.1514
彼則	-11.1514
癡不善根	-11.1515
彼境	-11.1515
雖俱	-11.1515
二緣生	-11.1516
聞思所成	-11.1516
作如是釋	-11.1519
無想三昧	-11.152
多求	-11.1524
世現見	-11.1524
所釋	-11.1525
不應正理	-11.1525
二應分別	-11.1525
無別故	-11.1526
教授	-11.1526
密意說	-11.1527
當知亦如是	-11.1528
見道修道所斷	-11.1529
為喻	-11.153
共有法	-11.1532
生般涅槃	-11.1533
神境通	-11.1534
外別有	-11.1534
畢竟不生	-11.1535
為等無間緣	-11.1536
他故	-11.1539
佛契經說	-11.154
少故	-11.1541
中根	-11.1543
欲界色	-11.1543
見有	-11.1545
誑語	-11.1549
制多	-11.1551
離界	-11.1556
有十六	-11.1556
欲界天	-11.1557
復次依	-11.156
正現在前	-11.1561
不退法	-11.1562
樹下	-11.1563
必無有	-11.1563
即得	-11.1563
同此論	-11.1563
三四	-11.1563
能厭	-11.1564
身口意	-11.1565
可說為	-11.1569
欲說	-11.157
三際	-11.157
可厭	-11.1573
離彼	-11.1574
無情	-11.1575
不修身	-11.1576
此下第二明	-11.1576
結法	-11.1576
色等境	-11.158
餘道	-11.1581
復次欲	-11.1581
諸無漏法	-11.1582
不散	-11.1584
是心所	-11.1586
云何色陰	-11.159
設得	-11.1592
語妙行	-11.1592
有十一	-11.1594
他害	-11.1595
斫	-11.1595
有漏身口戒無教	-11.1597
同婆沙	-11.1598
答雖	-11.1598
復還	-11.1599
阿羅漢向	-11.16
而名	-11.16
此愛	-11.1601
等皆	-11.1602
七覺	-11.1603
是世	-11.1603
謂虛空	-11.1605
善惡業	-11.1607
能化	-11.1607
則能	-11.1607
其名	-11.1608
以契經說	-11.1608
大生	-11.1609
思願	-11.1609
必是	-11.161
待因	-11.1614
)?	-11.1615
若習若修若多所作	-11.1615
解脫果	-11.1617
津液遍滿	-11.1618
如偈說	-11.1619
全超	-11.162
身見等	-11.162
以身	-11.1622
故此不說	-11.1624
體未斷	-11.1624
有對法	-11.1624
聞所成慧	-11.1626
其體是何	-11.1626
不繫心	-11.1627
安置	-11.1627
凝	-11.1628
覩史多天	-11.163
涼	-11.163
代	-11.1631
旦	-11.1631
甚為	-11.1632
若汝言	-11.1632
邏	-11.1634
昏	-11.1634
堪任	-11.1634
怯	-11.1635
譬喻者說	-11.1636
義是相應義	-11.1636
是一切遍	-11.1639
不實	-11.164
捨命	-11.1641
亡	-11.1642
及法處	-11.1644
意所念	-11.1646
現在時	-11.1652
那羅延力	-11.1654
剎那頃	-11.1656
未至禪	-11.1658
動身	-11.1663
為支	-11.1663
謂住	-11.1665
云何說	-11.1666
緣修斷	-11.1666
經主於此	-11.1667
唯欲界繫	-11.1667
或無漏	-11.1667
六品	-11.1672
滅雙因	-11.1676
非身	-11.1678
一應分別	-11.1679
四正斷	-11.168
繫念	-11.168
煗等	-11.1684
諸處	-11.1691
結集	-11.1692
不愛	-11.1692
總有二種	-11.1694
即前所說	-11.1694
夜摩天	-11.1695
唯顯	-11.1695
謂無明	-11.1696
一問	-11.1699
謂見	-11.17
煗法	-11.1704
總有三	-11.1705
不可以	-11.1706
異生位	-11.171
此解	-11.1712
有所作	-11.1713
金輪	-11.1725
外無別	-11.1725
欲界色界	-11.1726
未見	-11.1726
有八種	-11.1727
從初	-11.1727
不爾故	-11.1727
若欲界	-11.173
八云	-11.173
依主釋	-11.1731
所遮	-11.1731
受想思觸思惟覺觀	-11.1733
斷善根時	-11.1734
正滅	-11.1736
四大種所造	-11.1738
體故	-11.174
無常滅	-11.1747
想受	-11.1748
智緣盡	-11.1748
一剎那中	-11.1749
能修未來	-11.1749
不了義	-11.1751
育多婆提	-11.1751
如受	-11.1752
前四勝處	-11.1752
一方	-11.1754
趣入	-11.1754
是識	-11.1755
本論中	-11.1756
復次行者	-11.1757
捨不成就得成就	-11.1758
則是	-11.1758
不得此無表	-11.1759
謂初靜慮	-11.1759
見苦集滅所斷	-11.1759
苦智已生集智未生	-11.1761
證智	-11.1763
故先	-11.1763
觸等	-11.1763
三十三	-11.1765
或非學非無學	-11.1768
苾芻等	-11.1769
無願無相	-11.177
吉	-11.177
亦不應	-11.1771
棄背	-11.1771
尚無	-11.1773
壯	-11.1773
是顛倒	-11.1774
或有漏	-11.1774
諸門分別	-11.1776
休息	-11.1776
集智已生	-11.1776
阿僧祇	-11.1776
名稱	-11.1777
住劫	-11.1777
發勤精進	-11.1779
二分別	-11.178
三智	-11.178
攬	-11.1781
善友	-11.1782
喜捨	-11.1783
帶	-11.1786
走	-11.1787
內處攝	-11.1789
閑	-11.179
第九解脫	-11.179
鬼神	-11.179
禪枝	-11.1791
俱胝	-11.1794
汁	-11.1794
二月	-11.1794
餘五	-11.1796
嫉妬	-11.1796
修心	-11.1798
命行	-11.1799
或修所斷	-11.1799
此在何位	-11.1799
萬六千	-11.18
三類	-11.1802
味界	-11.1803
四取	-11.1808
色無為	-11.1811
成實	-11.1811
未至定靜慮中間	-11.1812
及彼相應法	-11.1815
身壞	-11.1817
諸有漏	-11.1817
又彼所說	-11.1817
此時	-11.1822
非但	-11.1822
已永斷	-11.1827
正生位	-11.1828
次觀	-11.1828
不戒律處	-11.1828
必同	-11.183
以愛	-11.1831
領受	-11.1833
一日	-11.1833
亦令	-11.1836
欲為	-11.1837
如是觀	-11.1838
依欲界身	-11.1839
增時	-11.1839
所斷結	-11.1843
八忍	-11.1845
親近多修學	-11.1848
慈等	-11.1853
生梵世	-11.1855
麁重	-11.1861
謂已得	-11.1862
解義	-11.1862
捨覺支	-11.1863
若法入	-11.1865
問此中	-11.1865
六觸	-11.1868
斷集	-11.1868
無遮	-11.187
治生	-11.1871
發智	-11.1875
正道	-11.1877
令得	-11.1878
寂靜勝	-11.1879
汝應	-11.1888
引彼	-11.1889
移	-11.1894
方處	-11.1894
明觸	-11.1895
身口非戒無教	-11.1902
門也	-11.1903
得四沙門果	-11.1903
法及定不生法	-11.1906
答因增上	-11.1907
離色界染	-11.1907
審思	-11.1907
或不斷	-11.1911
化語	-11.1912
無餘依涅槃界	-11.1913
答為欲分別契經	-11.1913
已還	-11.1914
施設論說	-11.1916
已離欲	-11.1916
復作此論	-11.192
脇尊者言	-11.192
勳	-11.1921
未離無色界貪	-11.1922
謂隨	-11.1922
見處非見	-11.1922
故名無間	-11.1923
傾動	-11.1923
垂	-11.1923
中有身	-11.1925
津	-11.1925
鳴	-11.1926
渡	-11.1931
幾智現在前	-11.1932
受異熟果	-11.1933
有性	-11.1933
界繫	-11.1933
草木	-11.1933
亦在	-11.1933
臺	-11.1934
殊勝功德	-11.1936
云何色界繫	-11.1936
有兩	-11.1938
命根眾同分	-11.1939
塵垢	-11.1939
善五蘊	-11.1939
能長養	-11.194
乏	-11.1941
灑	-11.1943
欲界三種	-11.1944
層級	-11.1946
有益	-11.1947
斷有頂	-11.1947
或有欲令	-11.1949
戲論	-11.1952
有想無想處	-11.1955
應供	-11.1955
現在造色	-11.1957
所餘一切	-11.1958
不誤	-11.196
龍王	-11.1966
緣不斷	-11.1969
幾欲界繫	-11.1971
是意識	-11.1971
名勝	-11.1971
貌	-11.1972
為緣故	-11.1973
境界智	-11.1977
三釋	-11.1981
無記者	-11.1981
二十三	-11.1984
愛等	-11.1985
苦行相	-11.1986
病者	-11.1987
無漏作意相應	-11.1988
勤精進	-11.199
別因	-11.1992
壞苦	-11.1993
三種業	-11.1995
極光淨天	-11.1997
空無我	-11.1997
無勞	-11.1997
遍六識	-11.2
是遍行	-11.2001
四顛倒	-11.2004
依上地	-11.2005
離欲得	-11.2006
先已說	-11.2006
也正理論云	-11.2006
斷界	-11.2007
異師	-11.2009
已離欲界貪	-11.2009
耳等	-11.2012
無厭	-11.2015
亦隨	-11.2015
所得果	-11.2016
相續者	-11.2018
就明	-11.202
解脫道時	-11.2021
少有	-11.2021
施與	-11.2023
若爾應	-11.2026
當受	-11.2031
有別物	-11.2031
及修所斷隨眠隨增	-11.2032
無色染	-11.2034
緣非學非無學	-11.2038
諸法相	-11.204
而自	-11.2042
初禪枝	-11.2043
於五取蘊	-11.2048
亦如前說	-11.2049
以前	-11.205
堅住	-11.2052
命終生	-11.2053
能益	-11.2055
謗因	-11.2055
修彼道時	-11.2055
除色	-11.2056
此理	-11.2057
餘六	-11.2058
世親	-11.2058
斷諸煩惱	-11.2058
不悅	-11.2062
散善	-11.2063
摶食	-11.2066
虛空界	-11.2068
發智論	-11.2071
勤求	-11.2071
八萬劫	-11.2072
及緣	-11.2072
山頂	-11.2076
如汝	-11.2076
外門轉	-11.2078
歌	-11.208
智所知	-11.2081
評家	-11.2082
生無想天	-11.2082
遷	-11.2082
坑	-11.2082
是愛	-11.2083
釋迦牟尼	-11.2084
氏	-11.2084
法蘊足論	-11.2084
中定	-11.2085
有漏慧	-11.2086
摧伏	-11.2088
無見無對	-11.2089
諸餘心心所法	-11.2089
塚間	-11.2089
閻浮提	-11.209
有情名	-11.2091
無間道中	-11.2092
結前	-11.2092
產	-11.2092
滅智已生	-11.2092
名句文身	-11.2092
儀	-11.2093
城邑	-11.2094
得住	-11.2096
而由	-11.2096
如先	-11.2096
色愛	-11.2098
傷害	-11.21
畢	-11.21
等念	-11.2101
至彼	-11.2102
學心者	-11.2104
佛知	-11.2104
悅意	-11.2105
此剎那	-11.2106
諸無漏道	-11.2106
如經	-11.2107
作意等	-11.2107
無染心	-11.2108
數起	-11.2109
如理思惟	-11.211
而問	-11.2112
緣道	-11.2114
依無色定	-11.2119
已至	-11.212
空無願無相	-11.2122
苦集滅智	-11.2123
邪思惟	-11.213
煩惱業	-11.213
也又	-11.213
譽	-11.2134
解脫門	-11.2134
念覺	-11.2138
八日	-11.2138
一分別	-11.2138
增上義	-11.2139
苦相	-11.214
復作是念	-11.214
初禪二禪	-11.214
加行時	-11.2144
異部	-11.2145
前三句	-11.2146
後文	-11.2147
為增上緣	-11.2149
散壞	-11.215
瀑流軛	-11.2151
問何等	-11.2154
修身	-11.2154
故云	-11.2155
經生	-11.2156
靜慮地	-11.2156
彼所執	-11.2158
行相故	-11.2159
謂見苦所斷	-11.216
非過去現在	-11.2162
色愛未盡	-11.2164
何界	-11.2164
一期	-11.2166
於父母	-11.2181
若阿羅漢	-11.2184
種等	-11.2184
憂慼	-11.2187
本來	-11.2187
能覺	-11.2188
成就三	-11.219
同依	-11.219
爾者	-11.2191
未名	-11.2192
定障	-11.2195
憶知	-11.2196
第二第三靜慮	-11.2198
水中	-11.2199
則成就	-11.22
害母	-11.22
於六	-11.2202
無色解脫	-11.2203
於父	-11.2204
法要	-11.2206
出息入息覺知	-11.2211
施福	-11.2214
慧為體	-11.2216
所有隨眠	-11.2217
作欲界化	-11.2219
勝果	-11.222
或餘	-11.2224
答若前生未斷則繫	-11.2225
順上分	-11.2228
▁論	-11.2235
生苦	-11.2235
凡夫聖人	-11.2235
煞	-11.2237
義是根義	-11.2237
如意足	-11.2237
復為	-11.2237
身表業	-11.2238
▁15	-11.2239
應觀	-11.224
名遍知	-11.2243
說是語	-11.2243
羸	-11.2244
揵	-11.2244
勤策律儀	-11.2245
異前	-11.2245
前說為善	-11.2245
闕緣	-11.2247
必先	-11.2248
忽	-11.2248
當言為緣而不為因	-11.2248
團	-11.2249
邑	-11.2253
如前廣說	-11.2253
一入少分	-11.2253
焚	-11.2255
醎	-11.2256
使所不使	-11.2257
四類	-11.2257
焉	-11.2258
此師意說	-11.226
競	-11.226
穿	-11.2262
二十五	-11.2263
故契經言	-11.2264
繫故	-11.2267
漏盡智	-11.2268
反問	-11.2268
亦應如是	-11.227
一切遍使使	-11.2272
初靜慮地	-11.2274
所化有情	-11.2276
一切皆是	-11.2282
所感異熟	-11.2283
大法	-11.2284
地繫	-11.2286
生欲界中	-11.2286
入正性離生者	-11.2287
陰中	-11.2289
婆沙評家	-11.229
有剎那	-11.229
男女根	-11.2291
發無表	-11.2291
未斷故	-11.2293
不往	-11.2293
而命終	-11.2295
及得	-11.2296
滅耶	-11.2298
已具	-11.2299
攝彼	-11.2299
第五明	-11.23
未斷為因	-11.23
不攝不相應	-11.2301
無損	-11.2304
生大	-11.2305
不定聚	-11.2305
五十二	-11.2306
於己	-11.2309
必不生	-11.231
小相	-11.231
及未來現在	-11.2311
預流一來	-11.2312
後復	-11.2312
光音天	-11.2313
當果	-11.2314
般若	-11.2317
非結	-11.2317
一境	-11.2321
無想有情	-11.2321
非福	-11.2321
光音	-11.2325
五識身相應	-11.2327
染污慧	-11.2328
廣明	-11.2334
迴向	-11.2334
教無教	-11.2337
定不定	-11.2338
九解脫道	-11.234
眼識等	-11.2341
觸為緣	-11.2345
是行	-11.2345
亦不可	-11.2346
欲等	-11.2346
一事	-11.2347
復有說	-11.2347
現修	-11.2348
無滯	-11.2352
其力	-11.2353
現行故	-11.2353
不明	-11.2353
離欲時	-11.2354
過去色	-11.2356
所能	-11.2359
總別	-11.236
言音	-11.2361
云何得知	-11.2362
是名外	-11.2363
已受	-11.2363
而無有	-11.2366
但據	-11.2368
易知	-11.2368
問為	-11.2371
十一根	-11.2373
五見中	-11.2374
忍法	-11.2375
護覺意	-11.2375
不爾云何	-11.2375
俱時生	-11.2377
見所斷心	-11.2382
堅執	-11.2382
化人	-11.2382
二俱不繫	-11.2383
遺	-11.2383
自體不應自體	-11.2384
若無漏為加行	-11.2385
遠分對治	-11.2388
諸心心所	-11.2388
唯以	-11.2389
非理所引	-11.239
順後句	-11.239
阿世耶	-11.2394
為三果	-11.2396
彼行者	-11.2396
集類智已生	-11.2397
有過去法智	-11.2397
如何言	-11.2398
侵惱	-11.2398
分為三	-11.2399
眼識相應	-11.2399
有情名聲	-11.24
亦得名	-11.2401
相續不斷	-11.2401
眼識生	-11.2402
不修心	-11.2402
來詣佛所	-11.2402
緣身慧	-11.2403
二俱有過	-11.2403
染故	-11.2403
不違理	-11.2404
灾	-11.2404
殺生等	-11.2404
恣	-11.2404
名內	-11.2405
相似相續	-11.2408
半行頌	-11.2409
身行口行	-11.241
飾	-11.2411
應思擇	-11.2412
自性善	-11.2413
問如是	-11.2413
谷	-11.2414
從癡生	-11.2414
阿笈摩	-11.2415
同性	-11.2416
學道	-11.2418
於前所說	-11.2419
自在等	-11.242
者論云	-11.2421
欲得	-11.2421
三禪地	-11.2421
定覺支	-11.2423
屠羊	-11.2423
七慢	-11.2423
有無明結繫	-11.2423
等種種	-11.2424
皰	-11.2425
風吹	-11.2426
惡意樂	-11.2426
分位差別	-11.2427
無間解脫道	-11.2429
等義	-11.2429
相資	-11.243
有罪	-11.2432
前三無色	-11.2435
若法界	-11.2437
或云	-11.2439
有阿羅漢	-11.2442
不識	-11.2445
法證淨	-11.2445
或唯	-11.2448
執有我	-11.2449
空相應	-11.2449
及過去未來	-11.245
煖法	-11.245
文證	-11.2452
謂四靜慮	-11.2455
最重	-11.2456
已說自性	-11.2456
是名色陰	-11.2456
彼既	-11.2456
捨異生性	-11.2459
虛空非擇滅	-11.2463
佛獨覺	-11.2465
受用退	-11.2465
相應觸	-11.2467
已修	-11.2473
前八品	-11.2474
所以不	-11.2475
間隔	-11.2476
諸緣	-11.2477
大士	-11.2478
此下釋	-11.2479
見苦集	-11.248
緣滅道	-11.2481
手等	-11.2482
此七	-11.2485
非觸	-11.2485
是四智	-11.2486
六智知	-11.2488
亦應名	-11.2492
害尋	-11.2494
如何知	-11.2497
欲界初靜慮	-11.2498
中住	-11.2498
與後生	-11.2499
無行般涅槃	-11.25
見修所斷法	-11.2501
准此釋	-11.2501
行蘊攝	-11.2502
總攝	-11.2505
無缺	-11.2507
十六種	-11.2508
行施	-11.2508
結縛	-11.2509
有表業	-11.2515
聖教中	-11.2515
釋下兩句	-11.2519
云何行陰	-11.2523
生本	-11.2531
善無色	-11.2536
如是展轉	-11.2539
有漏身進	-11.254
樂著	-11.2542
不具足	-11.2543
答若法	-11.2544
秦	-11.2545
見四諦	-11.2548
極妙	-11.2549
無願無願	-11.2553
為四緣	-11.2554
使緣使非相應使	-11.2554
堅等	-11.2555
引眾同分	-11.2555
生處得智	-11.2555
苦未知智	-11.2557
正方便	-11.2557
警	-11.2562
盡不失則成就	-11.2562
行緣識	-11.2563
慰	-11.2564
體性是何	-11.2564
見習斷	-11.2564
懃	-11.2565
七八	-11.2565
智證通	-11.2566
禽獸	-11.2568
象馬	-11.2569
緣已生法	-11.2569
雜穢	-11.257
目連	-11.2571
緣見苦斷	-11.2572
有覆無記色	-11.2573
不攝何等	-11.2574
脚	-11.2575
膩	-11.2575
於定	-11.2575
彼眾生	-11.2576
擾亂	-11.2576
此二十二根	-11.2576
如此等	-11.2576
衛	-11.2577
宿業	-11.2578
四面	-11.2578
嫉慳結	-11.2579
正理釋云	-11.258
修習多修習	-11.258
孔	-11.2582
乃至阿羅漢果	-11.2583
豐	-11.2583
空無相	-11.2583
載	-11.2585
便失	-11.2585
大種造色	-11.2585
現在二	-11.2585
為一增上	-11.2586
仗	-11.2586
契經說故	-11.2589
聖位	-11.2591
強力	-11.2594
最大	-11.2595
燈焰	-11.2597
略去	-11.2597
地攝	-11.2598
層	-11.2602
毗婆沙師	-11.2603
品惑	-11.2605
具二種	-11.2606
乃至離	-11.2606
不染污心	-11.2607
契經言	-11.2609
如是四種	-11.2609
第六句	-11.261
不共業	-11.261
為何果攝	-11.2613
起惡	-11.2613
經部師說	-11.2614
六十二見	-11.2615
就勝說	-11.2615
十位	-11.2615
是名行陰	-11.2615
一界一處	-11.2616
幾緣緣	-11.2617
天道	-11.2618
近因	-11.2619
日出	-11.262
所緣已斷	-11.2622
毗	-11.2622
今見	-11.2626
成辦	-11.2626
或見	-11.2627
有處說	-11.2628
亦然者	-11.2629
或四	-11.263
能解	-11.2632
求得	-11.2634
未成	-11.2635
彼有情	-11.2636
云何一	-11.2637
又復	-11.2637
是食	-11.2639
所領	-11.264
六觸處	-11.264
增上心	-11.2644
或觀	-11.2648
盡知	-11.2648
離此	-11.2649
法隨法行	-11.265
體應	-11.265
未來所修	-11.2653
眼見色已	-11.2653
九遍知	-11.2658
返	-11.2658
有宗	-11.2661
如後當	-11.2664
一義	-11.2665
能斷惑	-11.2669
然於此中	-11.2672
能引發	-11.2673
毘婆沙師至	-11.2674
起用	-11.2674
不因	-11.2674
下上	-11.2676
今於此中	-11.2676
一切諸法	-11.2677
文中初問	-11.2677
相去	-11.2679
不隱沒無記心	-11.2681
重釋	-11.2682
如世間說	-11.2682
三千	-11.2683
更說	-11.2684
觀色	-11.2685
謂欲色界	-11.2687
定感	-11.2687
見趣	-11.2687
容起	-11.2688
告言	-11.2689
欲界所繫	-11.269
一切不善	-11.2694
八十八	-11.2694
或無學	-11.2694
慈定	-11.2696
觀苦	-11.2697
在身中	-11.2698
不殺	-11.2698
此界	-11.2703
設難	-11.2703
惑故	-11.2707
彼命終生	-11.2707
故於此中	-11.271
後邊	-11.2711
煩惱盡	-11.2714
謂意根	-11.2714
若無常若苦若空若無我	-11.272
迦旃延子造五百羅漢釋	-11.2721
北涼天竺沙門浮陀跋摩共道泰等譯	-11.2721
所繫事	-11.2722
有過去愛結	-11.2723
若退法者	-11.2725
別類	-11.2725
識緣名色	-11.2726
十八界攝	-11.2728
滅類智已生	-11.2728
堅信人	-11.2731
彰	-11.2731
四大王眾天	-11.2734
無因無緣	-11.2734
廣如彼釋	-11.2735
親里	-11.2737
筏	-11.2738
色名	-11.2739
滅智未生	-11.2741
及色	-11.2741
於現法中	-11.2742
是名內	-11.2742
禪中間	-11.2743
調柔	-11.2743
影像	-11.2743
色界繫善心	-11.2744
貧	-11.2747
體已斷	-11.2747
藍	-11.2749
調達	-11.2749
業品	-11.2749
財寶	-11.2751
善逝	-11.2755
諸色界繫善心	-11.2756
此由	-11.2756
愛語	-11.2758
非陰攝	-11.2758
為過患	-11.2759
初解脫	-11.2762
佛僧	-11.2762
纏心	-11.2764
比智分	-11.2765
流通	-11.2766
能了知	-11.2767
對治修	-11.2769
三苦	-11.2769
有學位	-11.2773
立蓋	-11.2773
樂苦	-11.2774
根力	-11.2776
五種斷	-11.2777
是名苦聖諦	-11.2777
諸欲界繫善心	-11.2778
害界	-11.2782
▁說	-11.2782
五色根	-11.2783
能礙	-11.2783
復作是言	-11.2783
扇搋等	-11.2784
善通達	-11.279
義便	-11.2791
過去大種	-11.2791
經亦說	-11.2792
有問言	-11.2792
亦明	-11.2794
方便善心	-11.2795
何事	-11.2797
二問	-11.2799
識相應	-11.28
諸聖弟子	-11.28
行解	-11.2804
前前	-11.2804
教理	-11.2804
有一種	-11.2806
鼻舌身	-11.2807
心次第	-11.2809
入聖道者	-11.2809
況復	-11.2811
於一切眾生	-11.2812
三障	-11.2815
教法	-11.2815
諸不善心	-11.282
所依者	-11.282
除異熟	-11.2822
而作是說	-11.2826
謂預流果	-11.2827
廣果天	-11.2827
辯無礙解	-11.283
何世	-11.283
已起滅法智	-11.283
唯三	-11.2831
壞者	-11.2832
淨故	-11.2833
捨成就得不成就	-11.2838
七寶	-11.284
云何苦聖諦	-11.2842
厭惡	-11.2843
如過去	-11.2846
名譽	-11.2847
離散	-11.2851
先見	-11.2851
則不應說	-11.2852
類釋	-11.2852
合集	-11.2852
與他	-11.2853
自識	-11.2853
不多	-11.2856
六法	-11.2858
剎那定	-11.2859
住彼	-11.2861
云何無漏	-11.2862
謂無色界生長	-11.2867
智體	-11.2868
已斷因	-11.2869
經久	-11.2873
彼根非	-11.2875
彼結盡非果攝	-11.2875
修所斷惑	-11.2875
應如是	-11.2879
唯自	-11.2882
是不繫	-11.2884
別別	-11.2886
第二第三第四靜慮	-11.2891
欲心	-11.2895
尊者世友說曰	-11.2896
亦得名為	-11.2897
中立	-11.2897
是道諦	-11.2898
根本定	-11.2901
先來	-11.2901
墮地獄	-11.2903
婆沙一百五十	-11.2903
苦未知智斷	-11.2905
馳	-11.2906
并前	-11.2906
出過	-11.2907
法界一分	-11.2908
伺察	-11.2909
緣苦諦	-11.291
未離初靜慮染	-11.291
小惑	-11.2911
米	-11.2911
各有四	-11.2911
依四靜慮	-11.2912
設成就現在	-11.2913
聰明	-11.2914
杌	-11.2915
我及世間	-11.2915
烏	-11.2917
叉	-11.2917
焚燒	-11.2919
生等生	-11.292
火焰	-11.2921
白法	-11.2921
禪者	-11.2922
出家者	-11.2922
求解脫	-11.2924
下賤	-11.2924
種種想	-11.2925
而作	-11.2925
眼等識	-11.2925
又婆沙	-11.2927
不成就欲界繫善心	-11.2927
立為根	-11.2931
是佛	-11.2933
苾芻戒	-11.2934
為所緣故	-11.2936
應一向記	-11.2937
水災	-11.2937
釋經	-11.2937
後報	-11.2937
往昔	-11.2938
苦盡	-11.2939
三人	-11.2939
所感	-11.2943
亦無有	-11.2943
表無表業	-11.2944
從此第四	-11.2944
成六	-11.2946
勝道	-11.2947
持業釋也	-11.2948
學見現在前	-11.2949
能識	-11.2949
退阿羅漢果	-11.2951
無色界沒	-11.2951
五順下分結	-11.2954
故非識住	-11.2955
能分別	-11.2956
復次世尊	-11.2957
力生	-11.2958
來至	-11.2959
如下	-11.2959
此洲	-11.296
色心不相應行	-11.296
有死生	-11.296
思相應	-11.296
謂無施	-11.2961
慧蘊	-11.2961
契	-11.2962
退已	-11.2963
聲香味觸法	-11.2964
除通果心	-11.2964
六垢	-11.297
隨流	-11.297
願我	-11.2973
如實覺	-11.2976
不還向	-11.2977
唯在欲界	-11.2979
或撥無	-11.2981
盡無餘	-11.2981
佛以	-11.2983
所緣有對	-11.2983
妙色	-11.2984
見道所斷結	-11.2985
一面	-11.2986
見集滅道	-11.2987
餘想	-11.299
無想定滅盡定	-11.2991
除他心智	-11.2997
自品	-11.2997
七隨眠	-11.2997
此唯攝	-11.2998
世俗智現在前	-11.2999
習諦所斷	-11.2999
不復更	-11.3001
四字	-11.3002
命終已	-11.3004
彼意	-11.3004
所依根	-11.3005
有愛結繫	-11.3008
有二義	-11.3009
說彼為	-11.301
若唯	-11.3013
唯是善	-11.3015
我亦	-11.3016
色界繫造色	-11.3019
入五陰	-11.302
可了	-11.302
意思	-11.3023
諸結使	-11.3024
頓起	-11.3024
不如實知	-11.3026
業緣	-11.3029
於修所斷法	-11.3031
能進	-11.3032
婆沙三十	-11.3033
緣無為	-11.3036
互不相	-11.3038
陰界入	-11.3038
順生受	-11.3038
皆唯	-11.304
學見迹	-11.3041
菩提分	-11.3043
本事	-11.3043
名現在	-11.3044
亦作是說	-11.3045
色界中	-11.3046
謂處卵㲉	-11.3047
空行相	-11.3048
最後心	-11.3048
為簡	-11.3049
道現觀三心頃	-11.305
因論生論	-11.305
邪精進	-11.3051
狂亂	-11.3051
此師	-11.3052
根律儀	-11.3054
下釋	-11.3054
眼根乃至無色界修所斷無明隨眠	-11.3055
雖與	-11.3057
不可得故	-11.306
無有能過	-11.3062
內入	-11.3062
勝功德	-11.3062
怯弱	-11.3063
唯意識	-11.3064
無時非因	-11.3065
難了	-11.3066
頓緣	-11.3066
能善	-11.3066
要有	-11.3068
災橫	-11.3069
移轉	-11.307
名即差別	-11.3071
設劬勞	-11.3071
見欲界色	-11.3072
卷第九	-11.3072
法智斷	-11.3073
異生法	-11.3073
彼緣	-11.3075
彼應	-11.3076
臍	-11.3076
入初靜慮	-11.3076
緣三諦	-11.3077
追	-11.3078
生得善心	-11.3078
皆如前說	-11.3079
名劣	-11.3079
阿毗達磨	-11.3079
其理極成	-11.3081
拒	-11.3082
斷遍知所遍知	-11.3082
麟角喻	-11.3083
苾芻眾	-11.3083
入非想非非想處	-11.3085
力士	-11.3086
究	-11.3087
猴	-11.3087
內有	-11.3089
苦智耶	-11.3089
理亦應然	-11.309
諂曲	-11.309
泥洹	-11.309
四分	-11.3091
此云何	-11.3091
二入	-11.3094
三部	-11.3094
設當	-11.3094
准婆沙	-11.3095
精血	-11.3095
同是	-11.3097
諸如是等	-11.3097
名細	-11.3098
諸諦	-11.3099
述曰此釋	-11.3101
總觀	-11.3102
道戒	-11.3106
長壽	-11.3107
而受	-11.3108
義說	-11.3111
識所依	-11.3114
眾人	-11.3115
味定	-11.3117
苦集道	-11.312
味著	-11.3121
緣修所斷	-11.3121
非勝	-11.3124
無色界繫善心	-11.3124
二種業	-11.3128
定量	-11.3128
能觸	-11.3128
諸無為法	-11.3128
彼計	-11.3129
起增上慢	-11.313
命等	-11.3133
不爾者	-11.3133
發願	-11.3134
自此已下	-11.3135
方得生	-11.3138
同一果故	-11.314
修不淨觀	-11.314
生眼識	-11.3142
此義云何	-11.3144
通說	-11.3148
一切結盡	-11.3149
能辦	-11.3149
增上忍	-11.315
覆藏	-11.3151
結眠沒	-11.3152
異也	-11.3154
餘事	-11.3156
瑜伽師	-11.3157
唯觀	-11.3158
得離繫	-11.316
答云	-11.3163
及滅道智	-11.3164
五妙欲	-11.3165
大眾部等	-11.3166
作是釋	-11.3166
通所依	-11.3169
麁惡	-11.317
無嗔	-11.3172
或彼	-11.3172
千年	-11.3173
作是問	-11.3173
如世間	-11.3173
彼上座	-11.3175
如依	-11.3175
設彼	-11.3182
欲界繫造色	-11.3182
共住	-11.3185
通難	-11.3185
猶如有一	-11.3186
白色	-11.3186
由慧	-11.3189
知過去	-11.3191
損惱	-11.3192
四無礙解	-11.3202
更起	-11.3207
有九品	-11.3207
異熟障	-11.3209
記別	-11.3209
一時得	-11.3209
少時	-11.321
觀行	-11.321
先離欲	-11.3211
大仙	-11.3211
一結	-11.3212
幾法相應	-11.3212
作加行	-11.3219
此中有說	-11.322
因謂因	-11.3221
若諸異生	-11.3222
觀智具足	-11.3232
此後於彼復起	-11.3233
得定心住正住	-11.3234
倒想	-11.3234
不共法	-11.3234
如是不放逸觀	-11.3235
道未知智	-11.3236
受想等	-11.3236
謂欲界色界生長	-11.3237
糞穢	-11.3238
或三界繫或不繫	-11.3238
非樂	-11.3239
正念正定	-11.3239
立宗	-11.3239
設盡便失則不成就	-11.324
令住	-11.3241
除其自性	-11.3241
欲界一切	-11.3241
取陰	-11.3242
離初禪欲	-11.3243
及不定受	-11.3245
相應義	-11.3245
暴流	-11.3245
依定	-11.3246
識身足論	-11.3247
多耶	-11.3247
或依未至滅	-11.3248
血肉	-11.3248
捨念	-11.3249
暢	-11.325
緣緣識所增隨眠	-11.325
頞部曇	-11.3251
自地味相應	-11.3252
謂欲界生長	-11.3252
尊者瞿沙說曰	-11.3252
覺法	-11.3253
道類智未生	-11.3253
非界非處	-11.3255
多句身	-11.3255
枯	-11.3256
驅	-11.3256
穴	-11.3256
相同	-11.3258
酪	-11.3258
又由	-11.3258
彈	-11.3259
故偏說之	-11.3259
檀	-11.3259
已離無所有處染	-11.3259
逸	-11.326
犢子	-11.326
如實知色	-11.326
衣鉢	-11.3261
春	-11.3261
說之為	-11.3262
不由加行	-11.3265
決擇分	-11.3266
而滅	-11.3269
如譬喻者	-11.327
卷第四十	-11.3271
身入	-11.3274
未離染	-11.3275
瞋癡	-11.3276
七云	-11.328
根本四禪	-11.3289
千世界	-11.329
熏習	-11.3292
有尋伺	-11.3292
相合	-11.3294
善染	-11.3298
雖皆	-11.33
餘識	-11.33
尚不能	-11.3301
六云	-11.3303
不緣下	-11.3304
發心	-11.3304
增上者	-11.3305
能憶知	-11.3306
惑斷	-11.3307
癡人	-11.3307
有何意耶	-11.3308
滅想	-11.331
至究竟	-11.3312
中夭	-11.3312
差	-11.3313
各具	-11.3314
續起	-11.3315
先以	-11.3316
釋上兩句	-11.3317
熟變	-11.3318
亦不可說	-11.3324
各有二	-11.3325
此三結	-11.3328
異熟大種	-11.3329
梵音	-11.3329
如是已辯	-11.3329
十一切入	-11.3332
由三緣	-11.3332
可令	-11.3334
次前	-11.3334
修所斷無明隨眠	-11.3337
所辯	-11.3337
無雜亂	-11.3337
勝法	-11.3339
故偏	-11.334
緣道諦	-11.3342
修無常想	-11.3343
乘前	-11.3345
毗婆沙	-11.3347
還起	-11.3349
相妨	-11.335
未來五	-11.3353
或即	-11.3353
五類	-11.3354
八法	-11.3356
同一所緣	-11.3357
就勝	-11.3358
作是念已	-11.3359
所招	-11.3361
力勝	-11.3361
頓生	-11.3363
依自	-11.3365
得名為	-11.3368
遍一切	-11.3369
四句分別	-11.3371
順樂受業	-11.3374
執持	-11.3374
量等	-11.3376
二十種	-11.3377
身妙行	-11.3379
誰有	-11.3379
求生	-11.3379
扇搋	-11.338
神力	-11.3381
自界緣	-11.3384
所緣縛	-11.3385
第十一	-11.3389
謂聖者	-11.339
乃能	-11.3394
喜處	-11.3394
堪達	-11.3396
諸字	-11.3398
擾	-11.3399
共因	-11.3399
見行	-11.34
第一義諦	-11.34
禪定	-11.3402
色無色界結	-11.3404
通餘章義准此應知	-11.3406
先滅	-11.3406
謂色界繫	-11.3408
諸方	-11.3409
名預流	-11.341
極重	-11.341
無貪性	-11.3414
十大地法	-11.3415
躁動	-11.3417
隨屬	-11.3418
風災	-11.3421
類別	-11.3422
為根本	-11.3423
即為	-11.3424
但應說	-11.3426
隨時	-11.3426
親教	-11.3427
筋	-11.3429
修世俗智	-11.3429
到彼岸	-11.3431
澤	-11.3432
謂契經中世尊善語善詞善說	-11.3433
勇健	-11.3433
側	-11.3434
骨瑣	-11.3434
輕安樂	-11.3434
清涼	-11.3434
對觀	-11.3435
於其中間	-11.3436
價	-11.3436
所了	-11.3437
瞻	-11.3438
常有	-11.3438
得好	-11.3439
伐	-11.344
外入	-11.3441
而依	-11.3441
愍	-11.3441
前釋	-11.3442
伴侶	-11.3443
法智未知智	-11.3444
汝作是言	-11.3445
眼等五識	-11.3446
揭	-11.3446
吹	-11.3446
小兒	-11.3447
聲聞辟支佛	-11.3447
是第一	-11.3448
小煩惱地法	-11.3449
王位	-11.3449
抱	-11.3451
二識識	-11.3453
顛倒想	-11.3453
所更事	-11.3454
羅剎	-11.3454
有學異生	-11.3456
煮	-11.3457
得無為	-11.3457
受欲有	-11.3458
為集	-11.346
不立根	-11.346
是有對	-11.3461
事現觀	-11.3464
五云	-11.3464
西方師	-11.3465
諸愛	-11.3472
三識身	-11.3472
立遍知	-11.3475
梵輔天	-11.3476
是阿羅漢	-11.3478
漸捨	-11.3478
非學非無學見	-11.348
對法藏	-11.3483
唯成就	-11.3484
資助	-11.3486
為所緣境	-11.3488
成就無色界繫有覆無記心	-11.3488
餘有為法	-11.3492
比丘如是思惟	-11.3494
欲界煩惱	-11.3497
修他心智	-11.3499
樂報	-11.3499
知一切法	-11.35
頓現觀	-11.3501
無量種	-11.3501
於此位	-11.3502
謂捨	-11.3504
若法是	-11.3505
一正明	-11.3506
合立一	-11.3506
所殺	-11.3507
是見道斷	-11.3507
並生	-11.3508
命意捨	-11.3511
為等流果	-11.3516
欲覺	-11.3516
在人中	-11.3516
修道所斷法	-11.3517
無色地	-11.3517
所障	-11.3523
盡時	-11.3525
苦憂根	-11.3527
出滅定	-11.3528
地獄等	-11.3529
大地獄	-11.3532
十千	-11.3536
等引	-11.3539
時定	-11.3539
身長	-11.3539
緣滅類智斷	-11.354
精進覺支	-11.354
義利	-11.3541
是總	-11.3543
過也	-11.3544
已離染	-11.3544
誰為	-11.3546
心所中	-11.3549
頌明	-11.355
俱有相應	-11.3551
無緣法	-11.3554
有十四	-11.3554
此語	-11.3561
無漏心心所法	-11.3563
名有隨眠心	-11.3563
易得	-11.3565
滅離	-11.3566
如諸	-11.3572
一一別	-11.3572
此種	-11.3572
雖多	-11.3575
入過去	-11.3577
相異	-11.3579
有表	-11.3579
火大	-11.358
未知當知	-11.3585
依六地	-11.3586
而死	-11.3587
因者一因	-11.3588
若成就過去空	-11.3589
歸依佛	-11.359
本有教不失	-11.359
餘物	-11.3591
無記性攝	-11.3592
云何色界	-11.3592
若法有	-11.3594
生上界	-11.3596
三支	-11.3596
共許	-11.3598
所造色非有見色	-11.3601
霧	-11.3601
時愛心解脫	-11.3601
於佛法	-11.3601
由隨	-11.3602
義是界義	-11.3603
帝	-11.3603
且依	-11.3604
見結未斷	-11.3605
成就幾不成就幾	-11.3605
見苦時	-11.3607
器中	-11.3607
見苦集斷不一切遍	-11.361
之差別	-11.3612
經云何通	-11.3613
令起	-11.3614
不善身表	-11.3615
欲界相應	-11.3616
復觀	-11.3617
頞	-11.3617
欲界見道所斷	-11.3618
揣食	-11.3618
弊	-11.3618
首盧	-11.3619
必與	-11.3619
苦類智忍	-11.362
說如此	-11.362
舒	-11.3621
之果	-11.3622
伴性	-11.3622
看	-11.3622
膝	-11.3623
不名增長	-11.3624
讀	-11.3624
諸部	-11.3625
􂌞	-11.3626
心力	-11.3626
故別立	-11.3626
藥草	-11.3626
大不善地法	-11.3626
俱名	-11.3627
微廣	-11.3627
古昔	-11.3627
故彼所言	-11.3627
汝聽	-11.3628
率	-11.3628
隨何	-11.3628
名句	-11.3628
見滅道	-11.3629
薰	-11.363
准此應知	-11.3631
等時	-11.3634
非識住	-11.3635
擾惱	-11.3638
何故唯說	-11.3639
端正	-11.364
惑滅	-11.3642
初入	-11.3644
若遇	-11.3646
善不善無記者	-11.3646
被燒	-11.3647
又婆沙云	-11.3647
悉皆	-11.3647
所入	-11.3648
能染	-11.3649
修道所滅	-11.365
富樂	-11.365
應知亦然	-11.3651
生色無色界	-11.3651
生歡喜	-11.3652
得阿羅漢果時	-11.3653
為淨	-11.3653
禁戒	-11.3654
多欲	-11.3657
云何想陰	-11.3658
起等起	-11.366
苾芻律儀	-11.3661
是定	-11.3662
相隣	-11.3663
無學正思惟	-11.3665
不應許	-11.3665
彼事	-11.3667
今欲說	-11.3667
智作證	-11.3667
成就不成就	-11.3668
云何善	-11.3669
答此中	-11.3669
隨轉身口業	-11.3672
順後次受業	-11.3674
有二類	-11.3675
以手	-11.3675
通與	-11.3682
未離貪	-11.3682
類忍	-11.3682
時人	-11.3684
不但	-11.3684
身界	-11.3687
初靜慮眼識	-11.3689
善法報	-11.3691
有取結繫	-11.3692
是名意界	-11.3694
非常等	-11.3695
重得	-11.3695
如觀	-11.3697
為遍行因	-11.3701
能遍知	-11.3702
漸命終	-11.3702
若成就未來	-11.3703
十五界	-11.3703
人也	-11.3704
是名第二	-11.3705
有求	-11.3705
此岸	-11.3709
釋第二	-11.3712
永不生	-11.3713
豈得	-11.3713
生天上	-11.3715
然其	-11.3716
離虛誑語	-11.3716
下苦	-11.3716
疑心	-11.3718
非無色界	-11.3718
不應成	-11.3719
堅性	-11.3719
現觀邊忍所	-11.3719
初釋	-11.3722
離喜	-11.3724
且約	-11.3725
十二行	-11.3725
眾聖	-11.3728
下八地	-11.373
第四禪地	-11.373
去來世	-11.3733
起世俗心	-11.3734
謂無為法	-11.3736
隨其所	-11.3736
餘境	-11.374
十三界	-11.3742
世中	-11.3744
集滅道	-11.3744
當知是	-11.3745
中各	-11.3746
優	-11.3746
必俱	-11.3748
所稱	-11.3748
心悅	-11.3748
離初靜慮染	-11.3748
妙欲境	-11.3749
信樂	-11.3752
唯許	-11.3753
亦不成就	-11.3753
行動	-11.3755
轉計	-11.3757
善見	-11.3758
無色界死	-11.376
火等	-11.3761
若退若生	-11.3764
三名	-11.3764
謂自界四	-11.3764
體別	-11.3766
八聖道	-11.3769
闕一	-11.3772
諦現觀	-11.3774
俱能	-11.3774
者為說	-11.3775
五緣	-11.3776
曉了	-11.3777
有餘依涅槃界	-11.3777
還與	-11.3777
彼定成就	-11.3779
欲愛已盡	-11.378
慈無量	-11.3781
所引經	-11.3781
邪道	-11.3782
惡口	-11.3782
見苦諦時	-11.3784
卒	-11.3786
無常行相	-11.3787
欲漏有漏	-11.3787
一千	-11.379
引後	-11.379
所緣故隨增亦相應故	-11.3791
攀	-11.3791
如理應知	-11.3792
花鬘	-11.3792
異時	-11.3793
不退法者	-11.3794
〕-【	-11.3795
俱舍論	-11.3796
附	-11.3796
須彌山	-11.3796
故佛唯說	-11.3797
闇中	-11.3797
非學非無學慧	-11.3798
譬如有人	-11.3798
配	-11.3799
順樂受觸	-11.3799
准上	-11.3799
捺落迦	-11.38
▁界	-11.38
集異門足論	-11.3801
敬禮	-11.3802
亦無失	-11.3803
偷盜	-11.3803
錄	-11.3804
於此間	-11.3804
第十六心	-11.3806
救濟	-11.3807
六十二	-11.3807
無著	-11.3807
當於爾時	-11.3808
外道執	-11.3808
是名想陰	-11.3809
於所緣境	-11.3809
誰復	-11.3809
又彼所言	-11.381
復有二法	-11.3811
醫藥	-11.3812
真解脫	-11.3813
兩句	-11.3813
十善業道	-11.3814
已起滅	-11.3814
所引發故	-11.3816
軌範師	-11.3818
見言不見	-11.3819
謂諸聖者	-11.3819
釋第三	-11.3821
月輪	-11.3821
林中	-11.3825
是因義	-11.3825
由斯故說	-11.383
穢污心	-11.383
非時解脫	-11.383
答若現在前	-11.3835
就初	-11.3838
苦下	-11.384
道法忍	-11.3843
無色界修所斷	-11.3844
初心	-11.3844
上有	-11.3848
若住非律儀非不律儀	-11.3848
近治	-11.385
不用定	-11.385
故彼所說	-11.3854
分段	-11.3854
是過去	-11.3856
順退	-11.3859
三百	-11.3859
不墮界	-11.3861
云何受陰	-11.3862
纏垢	-11.3864
常我	-11.3865
前世	-11.3866
世智	-11.3869
曾起	-11.3869
生住滅	-11.3871
隨地	-11.3876
能越	-11.3877
故不立根	-11.3877
第二念等	-11.3879
是眼	-11.3882
火燒	-11.3882
器故	-11.3888
無覺	-11.389
緣非所斷	-11.3892
能壞	-11.3892
地神	-11.3896
定品	-11.3897
過失故	-11.3898
事用	-11.3902
如樹	-11.3903
故作是言	-11.3904
味身	-11.3904
義同	-11.3905
入無想	-11.3906
善利	-11.3908
彼由此	-11.3909
便般涅槃	-11.3914
法處所攝	-11.3916
所依處	-11.3918
於上地	-11.3919
真道	-11.3919
答眼根	-11.392
說此為	-11.3921
所斷結種斷	-11.3924
非等無間	-11.3929
有漏心心所法	-11.393
知想	-11.3931
欲界有情	-11.3931
親愛	-11.3934
亦具	-11.3938
未得故	-11.3939
滅類智未	-11.394
若謂此	-11.394
有諸外道	-11.3946
為住	-11.3947
此相違	-11.3948
道下	-11.3948
解脫蘊	-11.3948
答當言	-11.3949
息故	-11.3949
類性	-11.395
四天王	-11.3951
名利	-11.3954
故意	-11.3954
若不得	-11.3956
行修	-11.3957
次第起	-11.3957
得須陀洹果乃至阿羅漢果	-11.3959
得捨	-11.3959
作種種	-11.396
有隨眠	-11.396
婆沙七十	-11.396
通云	-11.3961
是無對	-11.3963
若未滅設滅已失則不成就	-11.3964
如色界	-11.3964
無不皆	-11.3966
好色非好色	-11.3967
達分善根	-11.3967
此皆	-11.3967
力起	-11.3968
阿修羅	-11.397
諸解脫道	-11.3973
緣使亦相應使者	-11.3973
相應使非緣者	-11.3974
於理為善	-11.3975
數復	-11.3976
經部難	-11.3976
次第非次第緣緣	-11.3976
勤勇	-11.3977
獨處	-11.3977
半擇迦	-11.3978
或二或三	-11.3978
由如是等種種因緣	-11.3978
所依性	-11.3978
滅受想定	-11.3979
非色界	-11.398
有一人	-11.398
見亦見處	-11.398
不攝者何	-11.398
本性念生智	-11.398
亦不成	-11.398
及彼生等	-11.3981
彼心俱有	-11.3982
固	-11.3983
綺語	-11.3984
沙彌	-11.3985
又佛	-11.3985
有異故	-11.3985
地水火風	-11.3985
速疾迴轉	-11.3986
流注	-11.3986
緩	-11.3987
若有者	-11.3989
若不如理所引了別	-11.3989
渧	-11.399
十一地	-11.399
房舍	-11.3991
塔	-11.3991
能任持	-11.3992
此文初也	-11.3992
蔑	-11.3993
靜慮無色	-11.3994
依此地	-11.3994
惡友	-11.3994
香入	-11.3995
除世貪憂	-11.3997
相順	-11.3998
教證	-11.3999
一業引	-11.3999
辛	-11.3999
曾得未曾得	-11.3999
此位中	-11.4
依第四禪	-11.4
復有三	-11.4
何等未斷	-11.4
嚴飾	-11.4001
蚊	-11.4001
成十八	-11.4003
是名受陰	-11.4003
兔	-11.4003
多用功	-11.4003
數量	-11.4004
刃	-11.4005
源	-11.4005
掉悔	-11.4006
諸佛世尊	-11.4006
舍利弗阿毘曇論	-11.4006
但得	-11.4007
約地	-11.4008
傷歎	-11.401
受律儀	-11.4011
餘一切法	-11.4013
千歲	-11.4014
不得言	-11.4015
水火	-11.4018
蒙	-11.4019
由貪	-11.4022
欲界繫無覆無記心	-11.4023
未曾得道	-11.4024
異想	-11.4024
堅著	-11.4025
定覺意	-11.4029
修知他人心智	-11.403
故世尊說	-11.403
亦不得	-11.4031
少多	-11.4032
離殺生	-11.4032
無境界	-11.4033
如眼根	-11.4033
無漏離繫得	-11.4033
審觀	-11.4034
此即第一	-11.4035
思惟道	-11.4035
淨慧	-11.4036
想行蘊	-11.4037
得作證	-11.4038
不立蓋	-11.404
是名色界	-11.404
所應作	-11.404
但作	-11.4044
相狀	-11.4046
還生欲界	-11.4047
行迹	-11.4049
如何可	-11.4049
作等無間緣	-11.4051
依欲界	-11.4052
入見道者	-11.4055
更不復	-11.4057
有垢	-11.4058
行緣	-11.4059
世間道	-11.406
無常等	-11.4061
如是種類	-11.4062
准正理	-11.4065
類不同	-11.4065
後因	-11.4065
他心智通	-11.4065
若能了別	-11.4067
留住	-11.407
問云	-11.4072
有何別	-11.4077
等定	-11.4084
有前後	-11.4085
活命	-11.4086
七返	-11.4088
必待	-11.4088
四證淨	-11.4089
知受	-11.4089
論宗	-11.4093
總有十	-11.4095
大梵天	-11.4096
靜慮中	-11.4096
若不爾	-11.4097
往彼	-11.4099
有二事	-11.4103
得俱起	-11.4109
其數	-11.4109
文中初	-11.4115
等無間所緣增上	-11.4116
依經	-11.4119
耳鼻舌身意識	-11.412
容有退	-11.412
無容起	-11.4123
云何有漏	-11.4126
由因力	-11.4126
增上力故	-11.4127
不生欲界	-11.4128
赤色	-11.4131
圓滿者	-11.4132
諸色法	-11.4132
多界	-11.4134
本論言	-11.4134
五業	-11.4136
滅則	-11.4136
章義	-11.4138
餘有情	-11.4138
中不說	-11.4138
八事	-11.414
從下	-11.414
得靜慮	-11.4141
念住等	-11.4144
胎卵	-11.4145
餘行相	-11.4151
謂空無邊處	-11.4151
於此地	-11.4152
大欲	-11.4152
故此識	-11.4152
靜等三行	-11.4154
業法煩惱所生報我分攝	-11.4156
生老無常	-11.4157
如世	-11.4158
滅已不捨	-11.4158
遍行隨眠相應識	-11.4158
為境界故	-11.4158
定不成就	-11.4158
滅智道智	-11.4159
若依未至定	-11.4159
遍淨愛盡	-11.416
未離色染	-11.4161
退捨	-11.4162
一切世間不可樂想	-11.4164
彼作是言	-11.4164
生住異滅	-11.4165
答諸法	-11.4165
為己	-11.4166
為自性故	-11.4166
緣使非相應者	-11.4167
煩惱現在前	-11.4169
所造色非有對色	-11.417
俱生聚中	-11.417
不別說	-11.4171
相應故隨增非所緣故	-11.4171
不出	-11.4171
苦智集智	-11.4173
順不定受	-11.4173
無漏色	-11.4174
青瘀	-11.4175
從前	-11.4175
色愛盡遍知	-11.4178
是我所	-11.4179
衣服飲食	-11.4179
取緣有	-11.418
裹	-11.4181
修觀	-11.4182
推徵	-11.4183
如有頌言	-11.4184
自分因	-11.4184
自根	-11.4184
輔佐	-11.4186
補	-11.4188
不應為難	-11.4188
無分別故	-11.4188
諂誑	-11.4189
是不共	-11.4192
種性根	-11.4193
好香	-11.4193
稱譽	-11.4194
竭	-11.4194
淨及無漏	-11.4194
而轉根者	-11.4195
渚	-11.4197
惠施	-11.4198
云何意界	-11.4198
草等	-11.42
盡當知	-11.4201
一日一夜	-11.4202
趣道	-11.4204
契經中言	-11.4204
相擊	-11.4205
憎惡	-11.4205
憂惱	-11.4206
何勞	-11.4208
但立	-11.4215
趣體	-11.4216
成就遊	-11.4217
下分結	-11.4219
三十五	-11.4221
此中意說	-11.4221
門中	-11.4222
應遍知	-11.4224
同類因生	-11.4225
令有情	-11.4227
非緣使亦非相應使者	-11.4229
隨斷	-11.4229
令諸有情	-11.4231
自覺	-11.4234
乃至命終	-11.4235
中有二	-11.4238
五無間	-11.4239
果滿	-11.4239
除滅智	-11.4242
過重	-11.4242
取結繫	-11.4244
七者	-11.4248
第八解脫	-11.4251
此中應說	-11.4252
貪瞋等	-11.4252
五淨居	-11.4252
佛證淨	-11.4254
唯願	-11.4256
以見	-11.4258
無學果	-11.4258
義如前釋	-11.4259
受入	-11.4261
疑隨眠	-11.4262
欲色二界	-11.4263
眾僧	-11.4264
假說為	-11.4264
惡慧	-11.4265
語律儀	-11.4268
三世法	-11.4271
有是事	-11.4274
為境故	-11.428
四無畏	-11.4285
謗果	-11.4286
通有漏	-11.4287
前雖	-11.4287
從三	-11.4289
共有因	-11.429
於下地	-11.4291
一不成就	-11.4291
非親	-11.4293
七根	-11.4294
覆蔽	-11.4295
應如是說	-11.4297
宿住智	-11.4299
卷第一	-11.4301
色非色	-11.4303
耳鼻舌身根	-11.4303
兩解	-11.4305
未久	-11.4305
斷德	-11.4305
信心	-11.4307
盡未知智	-11.4308
能表	-11.4308
無亂	-11.4309
於何時	-11.4309
本處	-11.432
此惑	-11.4327
捨受相應	-11.4329
意觸樂受	-11.433
總釋	-11.433
名無執受	-11.4336
計有	-11.4338
卷第四	-11.4342
此二智	-11.4343
是根本	-11.4344
得俱生	-11.4344
如來力	-11.4346
亦無退	-11.4349
故思	-11.4349
虛誑	-11.435
不定中	-11.4351
道所斷	-11.4352
般涅槃時	-11.4352
事成	-11.4354
若世俗為加行	-11.4357
為因等無間所緣增上	-11.4358
成道	-11.4358
名須陀洹	-11.4359
毘尼	-11.4361
離殺	-11.4361
執受大種為因	-11.4362
全分	-11.4362
第六轉	-11.4362
卷第二	-11.4364
惛沈睡眠	-11.4366
思種	-11.4366
云何不繫	-11.4368
亦不說	-11.4368
彼根緣	-11.4369
出水	-11.437
苦智相應	-11.437
錯	-11.437
種種苦	-11.437
稱為	-11.4371
如來應正等覺	-11.4371
隨尋轉非伺相應	-11.4371
天眼天耳	-11.4372
無斯過失	-11.4373
髻	-11.4373
取像	-11.4373
六結所繫	-11.4373
禪中	-11.4373
身邊二見	-11.4373
自性解脫	-11.4374
那含	-11.4375
貧窮	-11.4375
胎中	-11.4375
所壞	-11.4376
此生故彼生	-11.4377
果性	-11.4379
界二處四蘊攝	-11.4379
談	-11.438
爪	-11.438
飄	-11.438
欺	-11.4381
若作此解	-11.4381
響	-11.4382
修所斷隨眠	-11.4382
無處無容	-11.4382
酥	-11.4382
有漏及無漏	-11.4383
決判	-11.4383
有貪隨眠	-11.4384
數習數修數多所作	-11.4384
徑	-11.4384
染污不染污	-11.4386
悋	-11.4387
當知總說	-11.4387
復有三業	-11.4387
長老	-11.4388
無學正智	-11.439
有情同分	-11.439
太子	-11.4393
猪	-11.4396
名隨信行	-11.4398
四禪地	-11.4399
五順上分結	-11.44
佛告阿難	-11.4403
他心通	-11.4405
緣非境界緣	-11.4405
為常	-11.4405
文中有二	-11.4406
是名意入	-11.4408
二行相	-11.4409
唯有二	-11.4411
種果	-11.4415
不遠	-11.4415
二萬	-11.4418
現見世間	-11.4419
所歸依	-11.4421
一境轉	-11.4421
又經中說	-11.4422
成就欲界繫無覆無記心	-11.4423
一道	-11.4423
互為因果	-11.4426
與過去	-11.4428
而去	-11.4434
無漏緣隨眠	-11.4437
進退	-11.4438
是無畏	-11.4439
假使	-11.4439
共相應	-11.4443
有隨眠心	-11.4447
第四明	-11.4448
輪轉	-11.4448
非苦智	-11.4448
二結繫	-11.4451
用功	-11.4453
有增	-11.4453
具二義	-11.4455
三句	-11.4456
若住不律儀	-11.4457
日輪	-11.4458
諸不善	-11.4459
無願耶	-11.4459
身有教	-11.4459
得一果	-11.4464
妄執	-11.4465
地獄中有	-11.4467
愚惑	-11.4468
云何意入	-11.4469
俱盧舍	-11.447
色界法現在前	-11.4472
蘊相續	-11.4476
諍根	-11.4476
三聚	-11.4481
一一極微	-11.4482
佛法中	-11.4482
定無有	-11.4482
救也	-11.4484
所待	-11.4487
本宗	-11.4489
於染	-11.449
皆不成就	-11.4491
所等起故	-11.4491
智人	-11.4495
法界中	-11.4496
前難	-11.4496
得殺罪	-11.4497
滅壞	-11.4498
亦不相違	-11.4499
捨得	-11.4501
所說云何通	-11.4502
說此名	-11.4504
如是三種	-11.4505
眼耳鼻舌身	-11.4508
有何過	-11.4509
比丘思惟	-11.451
三學	-11.4511
無對法	-11.4512
如金剛	-11.4513
滅道諦	-11.4515
未曾有	-11.4515
即同	-11.4516
可了知	-11.4517
有變礙	-11.4518
經證	-11.4522
語具	-11.4526
有過去愛結繫	-11.4529
無漏緣使	-11.4529
無色界無色	-11.453
得未曾得	-11.4531
合為一	-11.4531
和合性	-11.4534
具攝	-11.4534
持對治	-11.4534
展轉相緣	-11.4538
樂行	-11.454
能害	-11.454
相應隨增	-11.4541
阿僧企耶	-11.4541
若思惟法不生	-11.4546
若法勝非勝能生	-11.4546
色界無色界	-11.4546
別處	-11.4546
非汝	-11.4548
本有教便失	-11.4548
六足	-11.455
心所起集聲音句言語口教	-11.455
有漏身進有漏身除	-11.4551
彼諸外道	-11.4552
復有別	-11.4555
智遍知	-11.4556
集智已生滅智未生	-11.4556
能如實知	-11.4557
是名第四	-11.4557
厭食想	-11.4558
住等	-11.4559
有恚結繫	-11.456
過去業	-11.4562
可退	-11.4563
四禪枝	-11.4566
聖者生無色界	-11.4566
愛恚慢	-11.4567
良田	-11.4569
除類滅道智	-11.4569
脇尊者曰	-11.457
如是補特伽羅	-11.457
足前為	-11.457
可施設	-11.4571
心迴	-11.4572
此即第二	-11.4572
稟	-11.4572
是有餘說	-11.4574
謂一切法	-11.4575
見滅見道所斷	-11.4576
二禪枝	-11.4577
屈伏	-11.4577
說如是言	-11.4579
瓦	-11.4579
求覓	-11.458
戾	-11.458
充滿	-11.4581
無常苦想	-11.4581
是故不應	-11.4581
崇	-11.4582
鄔陀夷	-11.4582
其體未斷	-11.4582
不能一趣繫念一境	-11.4583
散動馳流	-11.4583
弊惡	-11.4583
理必不然	-11.4583
及色無色界	-11.4584
相續一趣繫念一境	-11.4584
十色入	-11.4586
色界大種	-11.4586
刀杖	-11.4587
等者等取	-11.4588
七善士趣	-11.4588
剌	-11.4588
曇摩	-11.4588
兵	-11.4588
祇	-11.4588
降雨	-11.4588
審諦	-11.4588
諸有此見	-11.4589
莊嚴身	-11.4591
次起	-11.4591
善說法	-11.4591
隨闕一	-11.4591
是修道	-11.4592
齊此名為	-11.4592
見非見處	-11.4594
而得生故	-11.4595
等流異熟	-11.4595
而白佛言	-11.4596
除自體	-11.4596
答曰或有說者	-11.4596
順捨	-11.4597
怒	-11.4597
忍所斷	-11.4598
有對無對	-11.4599
隨眠品	-11.46
一切善法	-11.4603
諸纏	-11.4605
兄	-11.4605
有餘師	-11.4606
情數	-11.4606
世尊何故	-11.4607
豈不此	-11.4608
是修所斷	-11.4609
大富	-11.461
自成	-11.461
述經部	-11.4612
是誰	-11.4612
百五十	-11.4614
要須	-11.4614
了了	-11.4614
同類遍行	-11.4617
意樂故	-11.4618
更受	-11.4619
無表耶	-11.462
勝知見	-11.4621
善見天	-11.4621
第三釋	-11.4621
觸對	-11.4622
是相應義	-11.4622
天中有	-11.4623
如火	-11.4623
緣聲	-11.4627
比丘尼	-11.4629
異生斷	-11.4631
為本	-11.4632
若於此	-11.4635
和合生	-11.4641
緣下地	-11.4642
印可	-11.4643
如法智	-11.4644
味故	-11.4644
俱行心	-11.4644
謂知	-11.4645
能緣一切法	-11.4645
當勝解	-11.4645
三有為相	-11.4648
諍論	-11.465
四見	-11.4651
非色界繫無覆無記心	-11.4651
燈明	-11.4652
嗅香	-11.4652
不俱時	-11.4653
此居第	-11.466
習法智	-11.4663
當廣說	-11.4663
是名第一	-11.4663
能覆	-11.4666
逆次	-11.4669
擇滅無為	-11.4669
義邊	-11.467
謂心心所	-11.4671
順彼	-11.4672
五比丘	-11.4673
眠時	-11.4673
增勝	-11.4677
於中有三	-11.4679
十色界	-11.4679
無為解脫	-11.468
我語	-11.4681
城中	-11.4683
息念	-11.4683
要具	-11.4683
令知	-11.4685
緣滅法智斷	-11.4689
末摩	-11.4689
之相	-11.4692
雖亦有	-11.4692
順流	-11.4692
學根	-11.4692
自力起	-11.4693
害父	-11.4694
此如前	-11.4695
身識界	-11.4695
眾妙聲	-11.4696
退轉	-11.4697
得無學果	-11.4699
無明慢掉	-11.4701
正宗	-11.4704
唯聖者	-11.4705
心相生	-11.4706
法處攝	-11.4707
六十五	-11.4709
若更	-11.471
出入	-11.4711
具戒	-11.4718
現在四大	-11.4721
心無間生	-11.4722
恚尋	-11.4723
更立	-11.4723
水輪	-11.4723
習未知智	-11.4726
但應言	-11.4731
中有位	-11.4733
勝因	-11.4733
何故不立	-11.4734
為因生	-11.4735
教戒	-11.4735
無我觀	-11.4735
盡作證	-11.4735
對餘	-11.4738
謂無緣法身分	-11.4739
五道	-11.4739
他有情	-11.4741
幾無記	-11.4744
可愛果	-11.4745
見相應法	-11.4745
即此復從	-11.475
不可說言	-11.4751
欲求	-11.4756
於彼相應法	-11.4758
麁等三行	-11.476
異心	-11.4761
集滅道智	-11.4763
未得無色界善心	-11.4764
次第說	-11.4767
若意入	-11.4768
經是此論所依根本	-11.4768
苦無我想	-11.4769
諸結盡	-11.477
離下地染	-11.477
非不善非不善為因	-11.4771
若別說者	-11.4773
如前說者好	-11.4774
何以不	-11.4775
欻	-11.4777
欲有相續	-11.4777
九十一劫	-11.4778
成近事	-11.4778
倦	-11.4778
憑	-11.4778
欲界見滅所斷	-11.4779
窣堵波	-11.4779
審察	-11.478
久時	-11.478
孫	-11.4781
相續轉變差別	-11.4782
樂變化天	-11.4782
通異熟	-11.4783
小乘	-11.4783
無異故	-11.4784
維	-11.4784
鮮	-11.4785
若依正理	-11.4786
錢	-11.4786
復應	-11.4786
七十五法中	-11.4786
所念	-11.4786
劬勞	-11.4788
從貪生	-11.4788
彼作經者	-11.4788
理實應言	-11.4788
問誰	-11.4789
碎	-11.479
療	-11.4791
請問	-11.4792
夷	-11.4793
於戒	-11.4794
世道	-11.4796
苦滅聖諦	-11.4797
第六明	-11.4798
我已知苦	-11.4798
及虛空	-11.48
煗頂	-11.4803
二十中劫	-11.4803
彼云何斷	-11.4805
自種	-11.4806
於諸有情	-11.4806
正學	-11.4809
十六字	-11.481
彼諸得	-11.481
樂斷	-11.4812
起此見	-11.4813
四十四	-11.4814
離彼染	-11.4816
修戒	-11.4817
此業能感	-11.4817
於涅槃	-11.4818
北方	-11.4819
無窮過	-11.482
色蘊攝	-11.4822
嚴身	-11.4823
所增	-11.4823
四諦智	-11.4826
相近	-11.4826
在何處	-11.4827
故唯說	-11.4828
說一切有部答	-11.4829
生死中	-11.483
心相應法	-11.4834
盡法智	-11.4837
謂有身見	-11.4837
各有三	-11.4837
煩惱大地	-11.4839
執著	-11.484
不得自在	-11.4843
類智忍	-11.4848
於文	-11.4848
無色界一	-11.4851
經部釋	-11.4851
靜慮等	-11.4852
奉行	-11.4852
無減	-11.4853
可名為	-11.4858
成滿時	-11.4862
欲界繫大種	-11.4866
聞思	-11.4869
是故此法	-11.4869
淨想	-11.4869
像色	-11.4873
大覺	-11.4873
若於彼	-11.4876
第三師	-11.4876
欲界修道所斷	-11.4878
非無色界繫善心	-11.4878
釋前	-11.4878
如是等法	-11.4882
魔王	-11.4883
生惡趣	-11.4883
深入	-11.4888
緣無記	-11.4888
汝意	-11.4892
子等	-11.4893
相顯	-11.4893
歸敬	-11.4894
起結	-11.4896
得阿耨多羅三藐三菩提	-11.4896
巳斷	-11.4899
思食	-11.4899
阿羅漢最後心	-11.49
幾學	-11.4902
所說復云何通	-11.4902
上妙	-11.4902
是苦諦	-11.4903
弟子眾	-11.4908
見隨眠	-11.4912
亦有二種	-11.4912
望於	-11.4913
欲使彼	-11.4914
古師	-11.4917
謂善不善	-11.4919
無漏三無色	-11.492
此願智	-11.4921
感果	-11.4923
無所緣故	-11.4923
緣苦法智斷	-11.4923
所屬	-11.4926
名一剎那	-11.4926
無相耶	-11.4931
問豈不	-11.4931
捨近行	-11.4933
離第三靜慮染	-11.4938
昔云	-11.4942
答諸法彼心相應	-11.4945
無巧便	-11.4946
四通行	-11.4947
彼法得生老住無常	-11.4949
十想	-11.4951
道諦繫法	-11.4951
如意根	-11.4951
苦諦繫法	-11.4952
三禪枝	-11.4953
此四無量	-11.4953
分分	-11.4954
符	-11.4955
是集諦	-11.4956
非同類因	-11.4958
道支現在前	-11.4961
所緣行相	-11.4961
初兩句	-11.4962
五識識	-11.4963
得不動	-11.4965
散地	-11.4965
業能感	-11.4965
謂世俗智	-11.4967
若依未至	-11.4968
為例	-11.4969
於彼色起無覆無記眼識	-11.4971
約世	-11.4972
當知亦爾	-11.4972
若實	-11.4972
柔	-11.4973
能治彼	-11.4975
靜慮無漏	-11.4975
槃	-11.4975
村落	-11.4977
曲穢濁	-11.4978
分限	-11.4978
於中初	-11.4978
阿練若	-11.4979
七十三	-11.498
成阿羅漢	-11.4981
共生共住共滅	-11.4982
有諍	-11.4982
四倒	-11.4982
有成就大種	-11.4983
窟	-11.4984
不說自成	-11.4984
植	-11.4986
悲心	-11.4987
賢聖弟子	-11.4988
皆共	-11.4989
軌則	-11.4989
八聖道支	-11.499
賴	-11.499
雖具	-11.4991
給孤獨	-11.4991
菓	-11.4991
不相離故	-11.4991
幾使所使	-11.4992
叫	-11.4992
一界少分	-11.4992
次兩句	-11.4993
嬈亂	-11.4994
喚	-11.4995
互相望	-11.4996
出佛身血	-11.4997
調適	-11.4997
三德	-11.4997
喻顯	-11.4998
已勝解	-11.4999
三分別	-11.4999
母腹	-11.4999
繫不繫	-11.4999
採	-11.5
冠	-11.5
世友	-11.5002
藥叉	-11.5003
劍	-11.5003
得清淨	-11.5004
等正覺	-11.5004
九種結	-11.5005
良醫	-11.5005
欝	-11.5006
閑居	-11.5007
一因生	-11.5007
正理破云	-11.5008
斷欲界結	-11.5008
不淨觀持息念	-11.5009
不學	-11.5009
亦不違理	-11.501
便住	-11.501
苦根憂根	-11.5012
不成就不善心	-11.5013
就中有二	-11.5014
若智生	-11.5015
不可施設	-11.5019
調御	-11.502
為遮彼意顯	-11.5021
展轉乃至	-11.5023
無害	-11.5024
苦報	-11.5024
隨滅	-11.5025
緣縛斷	-11.5025
勢分	-11.5029
非欲界繫	-11.5031
是境界緣	-11.5034
順次生受業	-11.5034
遍知苦	-11.5034
兼顯	-11.5037
漸斷	-11.5038
為方便	-11.5038
故但說	-11.5039
不善有覆無記	-11.504
總有三種	-11.504
馬勝	-11.5041
苦集聖諦	-11.5042
證成	-11.5043
是所隨增	-11.5043
行苦行	-11.5045
隣次	-11.5046
不著	-11.5047
長行	-11.5048
敬重	-11.505
三應分別	-11.5052
名斷智	-11.5053
邪業	-11.5054
壽盡	-11.5054
起惑退	-11.5056
以方便	-11.5057
若實人若趣若	-11.5057
但起	-11.5058
功用果	-11.5062
云何識陰	-11.5063
因大種	-11.5065
已斷遍知	-11.5066
若本不得	-11.5067
為誰	-11.5068
集法忍	-11.507
且應	-11.5071
色界繫大種	-11.5071
無顛倒	-11.5071
巳說	-11.5074
離殺等	-11.5076
尊作是說	-11.5077
能施	-11.5077
無遍處	-11.5079
猶為	-11.5082
影顯	-11.5085
何容	-11.5088
十使	-11.509
樂覺	-11.5091
章中	-11.5091
言語	-11.5092
入初禪	-11.5093
證一來果	-11.5094
一切染污心	-11.5095
見他	-11.5095
更無別	-11.5098
今復	-11.5105
流出	-11.5105
二百五十	-11.5112
法救	-11.5115
所攝受	-11.5121
感異熟	-11.5127
能遍緣	-11.5131
七十二	-11.5135
工巧處心	-11.5137
無學心者	-11.5137
乳等	-11.5141
六種性	-11.5141
問世尊說	-11.5143
解脫道中	-11.5144
不動行	-11.5145
頓捨	-11.5145
色無色界煩惱	-11.5146
但與	-11.5147
四界	-11.5148
八萬歲	-11.5148
何法為	-11.5148
不苦不樂捨	-11.5149
淨四靜慮	-11.5151
能入正性離生	-11.5152
為二果	-11.5154
翻為	-11.5156
非律儀	-11.5158
五蘊為性	-11.5159
於正法	-11.5159
觀四諦	-11.5164
前來	-11.5164
染不染	-11.5168
先辯	-11.5169
未得退	-11.5169
異性	-11.517
苦具	-11.5171
先未得	-11.5173
於此位中	-11.5174
彼成就此	-11.5175
火合	-11.5177
無戒	-11.5178
正斷神足	-11.5179
不恭敬	-11.518
於欲界修所斷法	-11.5181
但取	-11.5182
云何修所斷	-11.5183
五受根	-11.5183
表色	-11.5184
於生死	-11.5184
薩迦耶	-11.5184
及見集所斷遍行隨眠隨增	-11.5185
恚結未斷	-11.5186
當知此說有	-11.5187
則不定	-11.5187
能護	-11.519
已得無色界善心	-11.519
荷	-11.5191
邪性定聚	-11.5191
尊者波奢說曰	-11.5192
支分	-11.5192
住時勢分	-11.5194
無二無量	-11.5195
電	-11.5195
唯緣欲界	-11.5195
測	-11.5197
法智忍	-11.5197
斯有何失	-11.5197
於理無違	-11.5197
已說體性	-11.5198
夜增	-11.5199
輕躁	-11.5199
輕安覺支	-11.52
儒童	-11.52
無間道時	-11.5202
阿毘曇八犍度論	-11.5202
助道法	-11.5204
憍逸	-11.5204
狼	-11.5204
誰言	-11.5204
僧伽藍	-11.5205
如是說者好	-11.5205
俱時而生	-11.5206
搆	-11.5207
聖智	-11.5207
無有退	-11.5207
納	-11.5208
往詣	-11.521
燃	-11.521
順後受業	-11.521
憍慢結	-11.521
如前已辯	-11.521
色界凡夫	-11.5211
塞	-11.5211
之外	-11.5213
脩習	-11.5213
現法涅槃	-11.5215
惜	-11.5215
揚	-11.5215
或有眾生	-11.5216
蘇迷盧	-11.5216
能超	-11.5216
弓	-11.5216
履	-11.5217
隨煩惱纏	-11.5219
盡作證時	-11.522
謂有苾芻	-11.5224
無覺無觀定	-11.5229
是名識陰	-11.523
萬劫壽	-11.5231
能與果	-11.5233
不壞信	-11.5237
修厭	-11.5239
未來禪	-11.5247
此滅盡定	-11.5248
唯異生	-11.5248
無漏信	-11.5249
又如經說	-11.525
體實	-11.5251
亦復然	-11.5257
無覆無記法	-11.5259
色等五	-11.5259
色等五蘊	-11.526
不現見	-11.5262
等越次取證	-11.5263
觀欲界苦	-11.5265
此有二種	-11.5265
是名共	-11.5269
諍訟	-11.5271
靜慮果	-11.5273
涅槃寂靜	-11.5274
先作是說	-11.5274
是名第三	-11.5274
不得是時修	-11.5275
正滅時	-11.5275
有因法	-11.5277
斷絕	-11.528
勝樂	-11.5281
上忍	-11.5283
方便得	-11.5283
離飲酒	-11.5284
後更	-11.5286
色界繫無覆無記心	-11.5286
初修	-11.5289
雖然	-11.5293
擇滅得	-11.5296
問幾是	-11.5297
緣餘法	-11.5297
暴惡	-11.5297
學無學心	-11.53
釋通	-11.53
釋頌文	-11.5302
不了知	-11.5303
內淨	-11.5304
天宮	-11.5306
謂未離欲界貪	-11.5311
經主此中	-11.5313
十入	-11.5314
勝慧	-11.5318
從多	-11.5325
殺業	-11.5325
入根本	-11.5332
能引生	-11.5333
為異熟因	-11.5339
微微	-11.534
越次取證	-11.5343
護持	-11.5346
諸聖道	-11.5346
後識	-11.5353
非色界繫善心	-11.5353
白佛	-11.5353
今世	-11.5353
滅作證九結盡	-11.5362
後當廣	-11.5362
明無明	-11.5364
眼能見	-11.5365
得是時	-11.5366
發言	-11.5366
亦可言	-11.5367
不依無色	-11.5367
了義經	-11.5368
唯據	-11.5368
墮在	-11.5368
頌說	-11.5368
念相應	-11.5371
有情世間	-11.5371
命終心	-11.5372
如文	-11.5374
來入	-11.5376
別標	-11.5381
此中偈曰	-11.5381
緣色無色界繫	-11.5382
初二定	-11.5382
立一遍知	-11.5383
順逆	-11.5383
能憶念	-11.5384
十結眠沒	-11.5384
因緣生	-11.5384
逮解脫戒	-11.5385
我愛	-11.5386
令成	-11.5386
八字	-11.5388
爾許	-11.5388
頗成就	-11.5389
諸愚夫	-11.5391
學無學練根已	-11.5393
未滅設滅已失	-11.5393
生眼智明覺	-11.5396
八戒	-11.5396
與未知欲知根相應	-11.5397
第二第三第四禪	-11.5398
未得無漏智現在前	-11.5399
愛喜適意	-11.5399
身口無教	-11.5401
後二遍處	-11.5401
順不苦不樂受業	-11.5401
細分	-11.5402
無諍願智	-11.5402
所不能	-11.5403
苦習	-11.5403
先已得	-11.5405
眼所識色	-11.5405
諸漏永盡	-11.5406
見集滅道及修所斷	-11.5407
離非梵行	-11.5409
貝	-11.5409
無想眾生	-11.5409
靜妙離	-11.541
聽聞正法	-11.541
盡諦所斷	-11.5412
所不得法	-11.5412
諸大論師	-11.5413
六思身	-11.5414
萎	-11.5414
諸極微	-11.5415
泛	-11.5415
鎮	-11.5416
輩	-11.5417
淳	-11.5417
屋	-11.5417
欲貪瞋恚	-11.5419
善眼識	-11.5419
偽	-11.5419
有餘復言	-11.5419
忍許	-11.542
無上正等菩提	-11.5421
嫌	-11.5422
娑	-11.5422
逆罪	-11.5422
貧賤	-11.5423
法念住現在修	-11.5423
先捨	-11.5425
寒熱	-11.5426
所以然者	-11.5426
無漏智現在前	-11.5426
或有人	-11.5427
憐愍	-11.5427
修行廣布	-11.5427
珍寶	-11.5427
短促	-11.5427
慢過慢	-11.5428
哀	-11.5428
輻	-11.5428
有情數攝	-11.543
忍辱	-11.5431
略而不論	-11.5432
從此第五	-11.5432
迎	-11.5432
有財釋	-11.5433
諸異生類	-11.5434
此宗	-11.5434
備	-11.5435
鑽	-11.5435
三十六隨眠	-11.5439
素	-11.5439
非所緣縛	-11.544
謂或有說	-11.5442
入第四靜慮	-11.5443
堅信	-11.5444
學者生無色界	-11.5447
勤行	-11.545
由此道理	-11.5453
名目	-11.5454
一切功德	-11.5455
外處攝	-11.5456
有七種	-11.5456
彼外道	-11.5458
善意樂	-11.5458
在九地	-11.5459
然契經說	-11.546
化主	-11.5462
一一剎那	-11.5471
心隨轉法	-11.5471
昔有	-11.5473
愛觸	-11.5473
聲顯	-11.5474
生芽	-11.5475
身在欲界	-11.5477
色界善	-11.5478
著色	-11.548
退法種性	-11.5482
以來	-11.5482
唯意地故	-11.5483
食之	-11.5484
第二解	-11.5489
欲流	-11.5494
如本論說	-11.5495
而知	-11.5498
於誰	-11.5499
非分故	-11.5503
九界	-11.5503
謂瑜伽師	-11.5504
究竟斷	-11.5506
謂異熟因	-11.5507
有覺有觀定	-11.5508
如此義	-11.551
胎藏	-11.5512
天女	-11.5524
及數滅	-11.5524
麥等	-11.553
至阿羅漢	-11.5531
不成就欲界繫有覆無記心	-11.5534
何處說	-11.5536
眼所見	-11.5537
向果	-11.5539
內外法	-11.554
因斯	-11.554
上立	-11.5542
經但說	-11.5542
上句	-11.5543
七明	-11.5543
外道計	-11.5543
宿命智	-11.5551
此即總	-11.5552
緣見苦所斷	-11.5554
境識	-11.5554
下根	-11.5558
約處	-11.5558
入離生	-11.5559
現在識	-11.5559
故不別	-11.5559
卷第三	-11.556
無妨	-11.5561
殺罪	-11.5562
是故前說	-11.5565
幾善	-11.5565
有太過失	-11.5567
謂眼耳鼻舌身	-11.5568
應無有	-11.5568
以何因	-11.5568
諦所攝	-11.5576
非學非無學智	-11.5581
能速	-11.5585
內處	-11.5588
梵輔	-11.5591
加行心	-11.5594
調象	-11.5596
諸惡趣	-11.5599
諸聖諦繫法	-11.56
種善根	-11.56
無求	-11.5604
意觸不苦不樂受	-11.5605
夜分	-11.5607
相應等持	-11.5608
見道位中	-11.5609
若不生不思惟	-11.5609
非時食	-11.5609
過難	-11.561
愛行者	-11.5613
眼根乃至無色界	-11.5613
非有身見為因非有身見因	-11.5614
越次	-11.5616
處母胎卵膜漸厚	-11.5618
滅智已生道智未生	-11.562
聖道無間	-11.5621
勅	-11.5622
不正義	-11.5623
成就初禪行	-11.5623
法住智	-11.5624
匠	-11.5625
黃色	-11.5626
亦現在前	-11.5627
諸煩惱中	-11.5627
生人中	-11.5629
若意界	-11.563
遊行	-11.5631
過惡	-11.5631
正滅位	-11.5634
便為無用	-11.5635
非根法	-11.5635
辱	-11.5635
不相障礙	-11.5636
慶	-11.5636
丸	-11.5637
順取	-11.5637
不相雜亂	-11.5638
俱生品	-11.5641
勵	-11.5641
證預流果	-11.5642
無邊空處	-11.5644
救云	-11.5644
慇懃	-11.5644
兩眼	-11.5644
果非有果	-11.5645
如佛說	-11.5645
掌	-11.5645
非異熟生	-11.5645
業所生	-11.5646
殷重	-11.5647
井	-11.5648
此事不然	-11.565
不修戒	-11.565
臂	-11.5651
愈	-11.5651
現在若現在前	-11.5651
具正勤正知正念	-11.5651
群	-11.5652
圍繞	-11.5653
牟呼栗多	-11.5654
預流果攝	-11.5654
翅	-11.5655
三界四部	-11.5656
鄔波	-11.5657
苦邊	-11.5658
已下一行頌	-11.5659
因苦類智斷	-11.5661
上大	-11.5661
大地法十	-11.5663
如是應知	-11.5663
不敬	-11.5666
不修慧	-11.5667
墮落	-11.5668
答應說而不說者	-11.567
如何得知	-11.5672
世俗正智	-11.5672
若成就身	-11.5672
向上	-11.5673
先未	-11.5675
由此應知	-11.5676
安布差別	-11.5677
今日	-11.5683
執我我所	-11.5684
無邊行相	-11.5687
有如是想	-11.5687
次一句	-11.5688
一趣道	-11.5689
纏縛	-11.569
學戒	-11.569
麁動	-11.569
愛相應	-11.5691
七眾	-11.5691
除自性	-11.5692
欲現	-11.5697
若於是處	-11.5703
得大果	-11.5703
一境性	-11.5704
對法宗	-11.5705
不能觀	-11.5706
所收	-11.5709
二十九	-11.5711
及得預流果	-11.5711
正直	-11.5715
經不說	-11.5715
善不善色	-11.5717
無餘依	-11.5717
都無有	-11.5721
六通中	-11.5722
大地法中	-11.5723
天壽	-11.5729
卷第六	-11.5733
故有差別	-11.5734
云何捨根	-11.5734
堅牢故	-11.5734
情非情	-11.5736
恚界	-11.5738
云何意根	-11.5739
體各別	-11.574
羸劣故	-11.5741
最麁	-11.5742
是何法	-11.5743
而不可說	-11.5743
禪戒	-11.575
不善心俱	-11.5751
法藏	-11.5752
結繫	-11.5753
欲界凡夫	-11.5754
非凡夫	-11.5754
無有異	-11.5757
阿毘曇說	-11.5757
互相攝	-11.5758
已捨故	-11.576
五無間道	-11.5763
善不善法	-11.5763
不極成	-11.5766
由田	-11.5767
名沙門	-11.5771
有勝劣	-11.5772
故名大悲	-11.5778
隨眠之所隨增	-11.5778
覆障	-11.578
無色有情	-11.5781
義辯	-11.5787
死已	-11.579
無漏慧根	-11.579
故不應責	-11.5791
如箭	-11.5793
起此定	-11.5793
厭生死	-11.5794
不斷煩惱	-11.5802
今依	-11.5804
從業生	-11.5805
所知境	-11.5806
無想有情天	-11.5806
那伽	-11.5806
前後際	-11.5807
諸律儀	-11.5809
內道	-11.5813
有四相	-11.5815
是性罪	-11.5816
不決定故	-11.5818
三結盡	-11.5819
能發起	-11.5823
苦所逼	-11.5824
威儀路心	-11.5824
便自	-11.5831
云何不斷	-11.5833
無常行	-11.5835
名捨根	-11.5835
總相說	-11.5838
染慧	-11.5839
要先	-11.5839
不堅	-11.5839
身業口業	-11.584
命過	-11.5841
非無差別	-11.5842
安住法	-11.5842
寧說	-11.5844
應不名	-11.5845
樂速通行	-11.5851
一向無漏	-11.5853
所作業	-11.5853
與空三昧相應	-11.5855
非等無間非等無間緣	-11.5859
不燒	-11.5861
感得	-11.5861
復次若法是	-11.5862
是無漏故	-11.5862
為令已生惡不善法斷故	-11.5862
西方諸師	-11.5862
苦類智未生	-11.5863
村邑	-11.5863
觸緣受	-11.5864
能取境	-11.5867
撿	-11.5868
如上所言	-11.5869
倚	-11.587
色等五境	-11.587
俱時起	-11.5871
超過	-11.5871
證圓寂	-11.5871
煙	-11.5871
間雜	-11.5872
迦濕彌羅	-11.5873
彼說非理	-11.5873
於道思惟道	-11.5874
修道位	-11.5875
髓	-11.5875
地染	-11.5875
阿毘達磨俱舍釋	-11.5875
六受身	-11.5876
親附	-11.5876
奇	-11.5877
眼識所依	-11.5878
有漏他心智	-11.5878
勒	-11.5879
世八法	-11.588
雪	-11.588
曇	-11.5881
作如此	-11.5883
計常	-11.5885
名喜根	-11.5886
第二果	-11.5887
為益	-11.5888
謀害	-11.5888
自界地	-11.5889
六隨眠	-11.589
得斯陀含果	-11.5892
佗心智	-11.5893
此即第一明	-11.5893
斷修惑	-11.5895
四大洲	-11.5898
若依初禪	-11.5898
表示	-11.5898
斷九品	-11.5899
下一頌	-11.5902
無量眾生	-11.5905
體實有	-11.5906
品類差別	-11.5908
尊勝	-11.5908
未離欲貪	-11.5911
不為他	-11.5912
先辨	-11.5914
此四善根	-11.5915
堪達法	-11.5917
詮表	-11.5919
女寶	-11.5921
右脇	-11.5923
分量	-11.5924
無相現在前	-11.5927
第八有	-11.5927
謂聖弟子	-11.5928
易滿	-11.593
亦應許	-11.5933
新生	-11.5938
恚心	-11.5938
是故說為	-11.5938
說此言	-11.5939
滯	-11.5939
諸行無常	-11.5941
中間靜慮	-11.5946
為一因	-11.5948
成善等	-11.5953
受想行	-11.5955
太過失	-11.5955
名彼同分	-11.5957
有緣法	-11.5957
舍利子等	-11.5959
唯有四	-11.596
四種行相	-11.5962
性相違故	-11.5963
有三世得	-11.5965
猗樂	-11.5971
一種子	-11.5973
能斷道	-11.5973
部多	-11.5973
能損	-11.5974
立善士趣	-11.5975
能淨	-11.5976
見滅所斷有漏緣及遍行隨眠	-11.5978
增上所生	-11.5984
法應爾	-11.5986
香處	-11.5989
善根斷	-11.5992
無明結繫	-11.5993
讚佛	-11.5994
已遮	-11.5995
欲界貪	-11.5998
信戒	-11.5999
立此名	-11.6001
善來	-11.6006
栽	-11.601
遠性	-11.6011
強勝	-11.6014
熏成	-11.6014
所牽	-11.602
波伽羅那	-11.6023
何故言	-11.6024
擇滅非擇滅	-11.6025
次明	-11.6028
若處所有	-11.6031
修慈	-11.6036
所習	-11.6036
緣縛	-11.6036
離欲人	-11.6038
解脫知見	-11.6039
自共相	-11.604
到已	-11.6044
施食	-11.6044
各異故	-11.6049
中有生有	-11.605
顯形色	-11.6053
中熟	-11.6057
顯己	-11.6058
善修習	-11.6061
此根何果攝	-11.6062
修治	-11.6063
一等智	-11.6063
此章願具	-11.6067
在第四靜慮	-11.6069
設已滅而失	-11.607
精進覺意	-11.6072
則顯	-11.6074
他宗	-11.6075
有俱不修	-11.6075
歿生無色界	-11.6075
為見結所繫	-11.6078
流類	-11.6079
無記非我分攝	-11.6079
隨增性	-11.608
現有身表	-11.608
若法與彼法	-11.608
答是作論者意欲爾故	-11.6081
立誓	-11.6082
無罣礙智	-11.6083
苦法智斷	-11.6085
不違法相	-11.6086
斷何界	-11.6089
正性定聚	-11.6091
如何乃言	-11.6091
何行相	-11.6091
此責不然	-11.6092
心隨轉非受相應	-11.6092
比丘當知	-11.6092
昇進	-11.6093
取結未斷	-11.6093
初三解脫	-11.6094
喜憂捨	-11.6094
想受滅解脫	-11.6095
字緣	-11.6095
化地部	-11.6095
界退還	-11.6096
拘礙	-11.6096
來生此間	-11.6097
寬狹	-11.6097
三界二處五蘊攝	-11.6098
彌勒	-11.6098
黑黑	-11.6099
師子吼	-11.6099
竹	-11.61
汎	-11.6101
殿	-11.6102
良藥	-11.6102
四諦所斷	-11.6103
𣣋	-11.6103
離色染	-11.6103
片	-11.6103
灌	-11.6104
有因有果	-11.6104
船筏	-11.6105
在欲色界	-11.6106
踰	-11.6106
孔雀	-11.6108
牆	-11.6113
捉	-11.6113
忌	-11.6114
兩舌	-11.6114
菩提樹下	-11.6114
流布	-11.6114
不愛果	-11.6114
奔	-11.6114
軟中上	-11.6115
意思食	-11.6116
兩種	-11.6118
占相	-11.6119
針	-11.6119
各各相	-11.612
謂色蘊	-11.6122
緣是業緣	-11.6122
舍利	-11.6123
阿那	-11.6126
成就過去空	-11.6128
騰	-11.6129
和集	-11.6129
稱歎	-11.613
能出離	-11.6131
不殺生	-11.6134
云何喜根	-11.6135
五逆	-11.6135
人民	-11.6137
此句	-11.6138
六門	-11.6139
修習圓滿	-11.6139
此最	-11.6139
離欲邪行	-11.6141
非眾妙聲	-11.6142
五受陰	-11.615
二不成就	-11.6152
不淨相	-11.6153
慢使	-11.6155
能見色	-11.6156
是正義	-11.6156
捨壽行	-11.6157
則知	-11.6157
覺了	-11.6159
已斷為因	-11.6163
慈心定	-11.6163
順樂受等	-11.6163
實有物	-11.6166
然實	-11.6167
水火風	-11.6168
令有相續	-11.6173
非無色界繫有覆無記心	-11.6177
瓶等	-11.6177
四根相應	-11.6177
苦諦習諦	-11.618
答為止他宗顯正	-11.618
為其自性	-11.6182
善士趣	-11.6182
見軛	-11.6183
方般涅槃	-11.6184
餘三諦	-11.6185
及三無為	-11.6186
於生死中	-11.6189
願具	-11.6191
生得慧	-11.6191
彼同分眼	-11.6192
是則應說	-11.6192
道迹	-11.6193
超定	-11.6199
佛轉法輪	-11.6199
緣見修所斷	-11.6203
修苦行	-11.6203
辨差別	-11.6204
能斷結	-11.6205
明記	-11.6205
修所斷煩惱	-11.6207
八智知	-11.6209
未來修七	-11.6209
設諸根緣	-11.621
入第二靜慮	-11.6211
始生	-11.6213
大善地	-11.6217
明闇	-11.6218
是故無有	-11.6225
相翻	-11.6226
無熱	-11.6231
上兩句	-11.6232
俱有諸法	-11.6232
本不得	-11.6232
順樂受	-11.6233
即由此故	-11.6239
品別	-11.6243
暴	-11.6244
無因緣	-11.6245
深心	-11.6247
此等皆	-11.6247
所證擇滅	-11.6253
為我說	-11.6254
由延	-11.6259
欲界繫有覆無記心	-11.626
於色界中	-11.6261
偏立	-11.6266
則不生	-11.6268
業隨轉	-11.6272
害覺	-11.6273
或有覺有觀	-11.6274
從強	-11.6275
理證	-11.6276
必無退	-11.6276
邪解脫	-11.6277
要依	-11.6284
根境識	-11.6284
於諸欲	-11.6285
緣生法	-11.6288
一切煩惱皆	-11.629
已離欲者	-11.6292
如是廣說	-11.6293
於未來世	-11.6293
花果	-11.6294
大種為幾緣	-11.6296
離無所有處染	-11.6296
作次第	-11.6297
三界五部	-11.6297
集諦繫法	-11.6299
滅諦繫法	-11.6299
忍可	-11.6301
形狀	-11.6303
不知足	-11.6305
復次若人無慧無明未斷	-11.6305
若前未生設生已斷則不繫	-11.6309
況有	-11.631
等智耶	-11.6311
正語正業正命正身進正身除	-11.6311
及染污無覆無記識	-11.6312
一所緣	-11.6312
謂諸外道	-11.6312
軟聲非軟聲	-11.6313
有警覺	-11.6317
最後身	-11.6317
妍膚非妍膚	-11.6318
一解脫道	-11.6318
具見世尊弟子	-11.6319
謂二相應法	-11.632
於是處	-11.632
獨行	-11.6321
乃至時解脫轉根作不動	-11.6321
百福	-11.6321
不成就眼界	-11.6321
為止如是說者意	-11.6322
不成就色界繫善心	-11.6322
速進道	-11.6322
□	-11.6325
既生彼巳	-11.6326
有俱修	-11.6326
害生命	-11.6326
彼繫	-11.6327
愛緣取	-11.6327
二十二根中	-11.6327
利鈍	-11.633
於彼等起心不相應行	-11.6333
於見道中	-11.6333
痛想行識	-11.6334
義准已成	-11.6334
無相違失	-11.6335
有嫉結繫	-11.6336
准前應知	-11.6336
同在一	-11.6337
初生時	-11.6337
傍生鬼趣	-11.6337
商	-11.6337
無變礙	-11.6338
以是義故	-11.6338
初位	-11.6339
無如是失	-11.6339
種類同故	-11.6339
無漏功德	-11.6339
若餘心不相應行	-11.6339
智遍知所遍知	-11.6339
四天下	-11.634
謂彼有情	-11.6341
詐	-11.6341
故不名為	-11.6341
保	-11.6341
塹	-11.6342
緣無斷	-11.6343
而猶	-11.6343
空無邊處近分	-11.6343
㮈	-11.6343
諸貪等貪	-11.6344
別建立	-11.6345
必定應	-11.6345
見滅斷邪見	-11.6345
㸦	-11.6346
顯宗云	-11.6347
空解脫門	-11.6347
智知除苦集智	-11.6347
牆壁	-11.6347
荼	-11.6348
務	-11.6348
惛眠	-11.6348
每	-11.6348
憤恚	-11.6348
翳	-11.6349
病人	-11.6349
冬	-11.6349
給	-11.6349
出胎	-11.6351
於人中	-11.6352
吞	-11.6352
無慚無愧相應	-11.6352
頗胝迦	-11.6352
融	-11.6352
喉	-11.6353
鷄	-11.6353
飲噉	-11.6353
甲	-11.6354
次第緣者	-11.6355
翼	-11.6356
令不生	-11.6356
虎	-11.6357
所謂此見	-11.6357
劫壞	-11.6357
乖違	-11.6357
摩羅	-11.636
非無色界繫無覆無記心	-11.6361
去來今	-11.6364
流轉生死	-11.6366
若成就現在	-11.6368
諸不善業	-11.6369
白骨	-11.6369
所斫	-11.6369
異趣	-11.6371
恒成就	-11.6372
緣是異緣	-11.6373
婆娑云	-11.6377
我於此	-11.6378
六十四	-11.6379
有十三	-11.6382
唯修斷	-11.6382
無斯過	-11.6383
且止	-11.6383
通三種	-11.6387
有漏五蘊	-11.6389
聖眾	-11.639
遇緣	-11.6391
有餘於此	-11.6392
所著	-11.6396
法俱得	-11.6397
戒禁取疑	-11.6399
得四相	-11.6401
有為無漏	-11.6402
恩德	-11.6403
總說為	-11.6404
緣是增上緣	-11.6404
根非根	-11.6405
無障住	-11.6408
法入中	-11.6411
等字	-11.6411
幾非心	-11.6411
唯無記性	-11.6412
此國	-11.6412
淨四無色	-11.6413
依彼地	-11.6415
色界遍行	-11.6417
大種為因	-11.642
無記為因	-11.6423
為非理	-11.6428
妙高	-11.643
應分別記	-11.6434
別離	-11.6434
聖無漏	-11.6435
能有所	-11.6436
若爾何故至	-11.6437
准釋	-11.6442
恚觸	-11.6442
見道所斷有漏緣	-11.6443
又經說	-11.6444
等諦	-11.6445
身無教	-11.6446
處胎	-11.6447
上坐	-11.645
云何無色界繫	-11.6454
入第四禪	-11.6457
是假名	-11.6458
同一行相	-11.6461
便明	-11.6463
離雜穢語	-11.6464
雜蘊	-11.6464
及諸異生	-11.6467
無間而生	-11.6472
除戒道	-11.6473
無過去現在	-11.6475
無量住	-11.6476
於先時	-11.6476
同聚	-11.6478
易地	-11.6485
最初得	-11.6487
工巧心	-11.6487
共一	-11.6489
便知	-11.649
曾當	-11.649
不應立	-11.6491
第三第四	-11.6492
成就色界繫善心	-11.6495
當言成就	-11.6495
恐彼	-11.6496
謂契經言	-11.6499
同喻	-11.6503
作如是問	-11.6503
不善思	-11.6505
何以言	-11.6507
謂意界意識界	-11.6509
十八種	-11.6511
生彼處	-11.6512
色界有為緣	-11.6513
能永	-11.6514
卷第八	-11.6516
不相應無明	-11.6518
五識界	-11.6518
所棄	-11.6523
修集	-11.6524
手執	-11.6527
方便求	-11.653
類同	-11.6531
一切聖者	-11.6531
無勝處	-11.6534
業果故	-11.6534
被損	-11.6536
能生初禪地眼識	-11.6537
集下	-11.6543
時心解脫	-11.6543
餘五因	-11.6545
餓	-11.6546
應理論者	-11.6547
此下第	-11.6548
更無有	-11.6549
咎	-11.6551
有愛結前生未斷	-11.6551
學人離結使	-11.6552
色聲觸	-11.6553
不成就色界繫無覆無記心	-11.6554
得漏盡	-11.6555
若生欲界住律儀	-11.6556
見道邊等智	-11.6559
死後有想	-11.656
疑惑猶豫	-11.656
上下地	-11.6563
淨第四靜慮	-11.6563
與喜覺支相應	-11.6563
唯見所斷	-11.6563
所緣境故	-11.6564
未來世中	-11.6564
刧	-11.6565
第三生	-11.6566
前無想定	-11.6566
往趣	-11.6567
道俱生戒	-11.6568
覺隨轉非觀相應	-11.6571
從彼歿	-11.6573
而不捨	-11.6573
色界四部	-11.6574
道比忍	-11.6575
意入法入	-11.6575
准上論文	-11.6576
佛眼	-11.6577
彼所得斷	-11.6577
隨信行隨法行	-11.6578
豫	-11.6578
雜緣法念住	-11.6578
入正決定	-11.6578
變吐	-11.658
容預	-11.658
薩婆多宗	-11.658
專注	-11.658
朋黨	-11.658
往詣佛所	-11.6581
猶預	-11.6581
十不善業道	-11.6581
義是入義	-11.6581
三摩跋提	-11.6582
八萬四千	-11.6583
獵	-11.6584
前境	-11.6584
見諦所滅	-11.6584
瞋恚使	-11.6584
涌	-11.6585
依此有彼有	-11.6585
聖道現前	-11.6585
佛告苾芻	-11.6585
墮諸惡趣	-11.6586
不隨心轉	-11.6587
幼	-11.6587
舉罪	-11.6587
六想身	-11.6588
傲	-11.6588
地水	-11.6588
鞞	-11.6588
繞	-11.6589
明昧	-11.659
嗢	-11.659
所化生	-11.659
亦應無	-11.6591
苗	-11.6591
馱	-11.6593
安足處	-11.6593
無間獄	-11.6593
披	-11.6594
道共戒	-11.6596
四大幾緣緣	-11.6597
已離初靜慮染	-11.6597
迴轉戒	-11.6598
入無想三昧	-11.6599
雖爾	-11.6599
迷亂	-11.66
毒箭	-11.66
有恩	-11.6601
顏	-11.6602
序分	-11.6602
五盛陰	-11.6605
此即第二明	-11.6606
九斷智	-11.6606
久習	-11.6606
五上分結	-11.6607
雪山	-11.6608
學見迹修所斷	-11.6609
逆流	-11.6611
戒律	-11.6611
幾過去	-11.6613
領解	-11.6616
居家	-11.6616
近住戒	-11.6617
論中說	-11.6617
巳去	-11.6618
永斷智	-11.662
殺加行	-11.6621
二百	-11.6622
修觀行者	-11.6622
盡理	-11.6624
順信	-11.6624
語聲	-11.6625
法供養	-11.6626
違宗	-11.6631
緣是起緣	-11.6633
此中何法	-11.6636
都盡	-11.6636
疑結繫	-11.6638
互相違故	-11.6639
論主述	-11.6641
或見所斷	-11.6642
從此無間	-11.6642
作相似因	-11.6642
問曰若然者	-11.6643
色聲等	-11.6645
所餘諸	-11.6648
最多	-11.6654
想顛倒	-11.6654
決定當	-11.6655
成二十	-11.6655
滅作證無結	-11.6656
色是我	-11.666
最細	-11.6663
種種身	-11.6664
名身證	-11.6667
有分限	-11.6668
依初定	-11.6671
異界	-11.6679
偏多	-11.6679
生色界中	-11.6682
傍論	-11.6686
於樂受	-11.6687
謂已離欲界貪	-11.6687
所集	-11.6689
忍非智	-11.669
四軛	-11.669
意法意識	-11.6692
千踰繕那	-11.6693
聖性	-11.6693
見滅見道	-11.6694
正教	-11.6696
小七	-11.6701
餘支	-11.6701
能通達	-11.6703
士用增上	-11.6703
歸佛	-11.6703
前門	-11.6708
身中可得	-11.671
無增減	-11.6711
為不淨	-11.6713
故說此言	-11.6713
入二陰	-11.6715
法智苦智	-11.6715
類同故	-11.6715
還入	-11.6717
順後次受	-11.672
應習	-11.6723
能永斷	-11.6724
繫事	-11.6726
問若爾云何	-11.6727
還復	-11.6727
緣苦類智斷	-11.6731
四緣生	-11.6734
聖道力	-11.6734
依第三靜慮	-11.6735
狀	-11.6737
在見道	-11.6739
欣求	-11.674
名大地法	-11.6742
有處有	-11.6744
豈成	-11.6744
一時俱	-11.6747
解脫涅槃	-11.675
自下第二	-11.6754
所往	-11.6755
觀不淨	-11.676
依初禪	-11.6761
二根相應	-11.6763
彼相應無明	-11.6766
唯感	-11.677
妙智	-11.6774
諸餘未來	-11.6774
非欲界繫善心	-11.6786
上下縱廣	-11.6794
見滅所斷疑	-11.6801
勝事	-11.6806
設生已斷	-11.6808
終不能	-11.6809
若如病若如癰若如箭若	-11.6809
四大色身攝法	-11.6811
若前未生	-11.6811
不安隱	-11.6811
斷三結	-11.6811
嚴淨非嚴淨	-11.6812
法後非得	-11.6812
謂法智已滅不失	-11.6813
滅受想解脫	-11.6814
總顯	-11.6815
亦得此無表	-11.6816
空空無願無願無相無相	-11.6817
法前非得	-11.6817
身口有教	-11.6817
定俱生戒	-11.6817
惛沈掉舉	-11.6817
剎	-11.6819
次舉頌答後釋頌本	-11.682
如實人若想憶想	-11.682
稱量	-11.682
殖	-11.6821
未來修八智	-11.6821
螺	-11.6822
身中有過去愛結繫	-11.6823
於色無色界法	-11.6823
得果滅盡定	-11.6824
親近善士	-11.6824
除遣修	-11.6824
第八句	-11.6825
毘婆沙說	-11.6826
如病如癰	-11.6826
預流果能作證向	-11.6826
破法輪僧	-11.6827
是名第五	-11.6828
貞	-11.6828
十大地	-11.6829
不猛利	-11.683
能入見道	-11.6831
骨節	-11.6831
一福量	-11.6832
憍陳如	-11.6833
得證淨	-11.6833
汝等苾芻	-11.6833
答欲令疑者得決定故	-11.6833
迦多衍尼子	-11.6834
真實義	-11.6834
錯亂	-11.6834
焦	-11.6834
性類差別	-11.6835
不更生	-11.6837
理必應爾	-11.6837
慕	-11.6838
有行般涅槃	-11.684
謂隨算數漸次順次相續次第	-11.684
勞倦	-11.684
審觀察	-11.6842
初念無表	-11.6843
若作是言	-11.6843
覆此想此忍此見此	-11.6844
不可思議	-11.6844
唾	-11.6845
傍布	-11.6846
非色界繫有覆無記心	-11.6847
匱	-11.6847
刀兵	-11.6847
困	-11.6847
一智知謂	-11.6847
徒眾	-11.6848
卷云	-11.6848
又許	-11.6849
馳流	-11.685
欲界四部	-11.685
捕	-11.685
原	-11.685
為所依故	-11.6852
成佛時	-11.6852
齋戒	-11.6853
入定時	-11.6853
扇	-11.6853
著欲	-11.6853
提婆	-11.6854
更無異	-11.6855
戒證淨	-11.6856
是善性	-11.6858
有想天	-11.686
門人	-11.686
形顯	-11.686
所得自體	-11.6861
有如是相	-11.6863
根少分相應	-11.6866
身根極微	-11.6868
是道支	-11.6873
修聖道	-11.6876
問世尊何故	-11.6876
何等為五	-11.6881
皆不應理	-11.6881
練根時	-11.6883
集比智	-11.6884
有色法	-11.6885
答如有一類	-11.6886
壞僧	-11.6887
與心俱	-11.6889
受色界有	-11.689
如是比	-11.689
豈不相違	-11.689
界善見智慧	-11.6893
皆是苦	-11.6894
諸契經中	-11.6895
請佛	-11.6897
名俱解脫	-11.6898
近分定	-11.6899
滅比智	-11.69
乃至道智	-11.6902
滅法智忍	-11.6903
內六處	-11.6904
暖等	-11.6905
所詮義	-11.6906
無常相	-11.6907
隨眠是所隨增	-11.6908
衣服等	-11.691
是無為法	-11.691
無漏初禪	-11.6912
幾有對	-11.6914
其量云何	-11.6916
餘隨所應	-11.6921
一切法無我	-11.6923
下句	-11.6924
煖頂	-11.6926
未來修四	-11.693
來世	-11.693
石等	-11.6933
不共事	-11.6936
後當說	-11.6937
隱沒無記心	-11.6944
各有三種	-11.6947
世路	-11.6949
不離根	-11.6951
識支	-11.6952
不堪	-11.6954
能有所作	-11.6957
梵宮	-11.696
亦有四種	-11.6962
晝增	-11.6962
山林	-11.6963
歷六	-11.6968
自地煩惱	-11.6969
邪覺	-11.6971
名色為緣	-11.6988
於經中說	-11.6988
極大	-11.6989
轉隨轉	-11.6989
喜樂一心	-11.6991
律儀不律儀	-11.6993
聞思修	-11.6995
增上戒	-11.6997
此贍部洲	-11.7001
集遍知	-11.7006
所等起	-11.7007
慧為性	-11.7008
應知即是	-11.701
施物	-11.7011
依未至地	-11.7011
空處近分	-11.7014
准此文	-11.7014
愚人	-11.7016
恚使	-11.7017
化生有情	-11.7017
長行釋	-11.7021
各各別	-11.7021
隨所欲	-11.7025
墮惡道	-11.7029
持令	-11.703
非可意	-11.7033
二二分或	-11.7034
加行無間解脫道時	-11.7037
非聖語	-11.7043
能生長	-11.7043
將死	-11.7045
前品	-11.7045
婆沙四十	-11.7047
左右	-11.7047
答初問	-11.7048
是相應因	-11.7052
謂自界三	-11.7052
苦蘊	-11.7055
同一剎那	-11.7058
不見色	-11.7059
十支	-11.706
軌範	-11.7061
立為支	-11.7061
轉根時	-11.7061
梵淨行	-11.7063
風大	-11.7063
有爾所隨眠隨增	-11.7064
現在未來一	-11.7064
唐	-11.7064
宿住通	-11.7064
名有貪心	-11.7065
從緣生	-11.7065
犯一	-11.7066
身好聲非	-11.7067
通果心品諸得俱起	-11.7068
北俱盧	-11.7068
蘇尸摩	-11.7069
相應受想行識	-11.7069
不適意	-11.707
或無或一二三四	-11.707
作留難	-11.7071
苦遲通行	-11.7073
快	-11.7073
九無間道九解脫道	-11.7074
正破	-11.7077
住本性	-11.7077
離非想非非想處欲	-11.7077
正理三十	-11.7077
嗜	-11.7078
有緣生	-11.7081
有部宗	-11.7081
讀誦	-11.7083
謂先未曾得	-11.7083
正語業命	-11.7083
除法滅道智	-11.7084
洛叉	-11.7084
妻妾	-11.7084
率爾	-11.7085
作此論已	-11.7087
歡喜踊躍	-11.7087
所可用	-11.7088
炭	-11.7088
財富	-11.7088
施設足論	-11.7088
淚	-11.7089
正理救云	-11.7089
日初分	-11.709
珍	-11.709
寧不	-11.7091
忿覆	-11.7091
歇	-11.7091
五取陰	-11.7092
誘	-11.7093
眼觸所生愛	-11.7094
約體	-11.7094
童	-11.7095
及法入	-11.7096
是增上果	-11.7096
玄	-11.7096
無貪為性	-11.7098
龍象	-11.7098
輒	-11.7098
封	-11.7098
意樂喜捨	-11.7099
色取蘊	-11.7099
不染心	-11.7099
色界繫有覆無記心	-11.7101
教誨	-11.7101
為所緣繫	-11.7101
名異義同	-11.7102
影光	-11.7103
重罪	-11.7105
辯才	-11.7105
依如是義	-11.7106
那庾多	-11.7109
斛	-11.7118
世俗等見	-11.712
舉頌答	-11.7121
而於其中	-11.7121
是以不說	-11.7125
別立為	-11.7126
能得得	-11.7127
自在起	-11.7127
意處法處	-11.7129
欲瀑流	-11.7131
所獲	-11.7135
得無間罪	-11.714
黃等	-11.7142
能表示	-11.7143
滅沒	-11.7145
愛取有	-11.7146
於色等	-11.7149
有十二種	-11.7151
有所緣法	-11.7156
聽法	-11.7157
已謝	-11.716
唯加行得	-11.7162
釋後兩句	-11.7163
然有差別	-11.7164
止住	-11.7165
得果轉根故失	-11.7165
俱舍師救云	-11.7166
謂生欲色界	-11.7175
七隨眠中	-11.7176
復何所	-11.7177
例此應	-11.7177
戒類	-11.7178
所熏	-11.7181
無差	-11.7183
內門轉	-11.7184
無色界繫有覆無記心	-11.7184
佛正法	-11.7184
長養眼	-11.7184
遮防	-11.7185
不應責	-11.7188
是應理論者	-11.7189
彼成就色界繫	-11.7191
無是事	-11.7191
依男身	-11.7199
起惡心	-11.7203
幾無色界繫	-11.7204
有覆心	-11.7205
非心法	-11.7206
非界非入	-11.7209
信敬	-11.7213
非想非非想處諸行滅	-11.7213
起煩惱現在前	-11.7215
由此勢力	-11.7215
可壞	-11.7219
壁等	-11.7222
所相法	-11.7224
非離染得	-11.7227
及眷屬	-11.7227
信根相應	-11.7227
卷第六十	-11.7228
所餘諸法	-11.723
如瓶	-11.723
彼業果	-11.7231
通三界繫	-11.7232
而坐	-11.7233
非遍行因	-11.7239
能照	-11.7242
名多名身	-11.7245
引例	-11.7245
得果已	-11.7251
出界	-11.7251
幾根滅	-11.7253
內門轉故	-11.7255
幾色界繫	-11.7259
慢隨眠	-11.726
應辨	-11.7262
一切生死	-11.7265
現未	-11.7267
設成就未來	-11.7267
名隨法行	-11.7267
無學身中	-11.727
無相定	-11.7273
例同	-11.7275
不共因	-11.7275
能攝益	-11.7279
本論文	-11.728
見不相應法	-11.7281
二十七	-11.7285
謗因邪見	-11.7285
尊者婆	-11.7287
說偈	-11.729
集法智忍	-11.7297
後兩句	-11.7302
況能	-11.7303
五學處	-11.7303
復有餘師說	-11.7305
所說偈	-11.7308
法生住老無常	-11.731
有四行相	-11.7311
有漏緣隨眠隨增	-11.7313
倍增	-11.7315
諸句	-11.7319
離第二靜慮染	-11.7324
何繫心心法	-11.7328
非業非業異熟	-11.7329
若未已滅設已滅而失則不成就	-11.7329
設生已斷則不繫	-11.7329
及過去非現在	-11.7331
若於此事有過去愛結繫	-11.7332
如事知見	-11.7333
歡行轉	-11.7334
緣名緣義者	-11.7334
入佛法	-11.7336
所造觸	-11.7337
由此故言	-11.7337
應反詰記	-11.7339
非道計道	-11.734
或執第一	-11.734
識見家	-11.7341
意觸所生受	-11.7341
目揵連	-11.7344
此法是何	-11.7345
澡浴	-11.7345
威儀路工巧處	-11.7345
下半頌	-11.7345
貢高	-11.7346
無明分觸	-11.7346
底沙	-11.7347
玉	-11.7347
名緣已生	-11.7348
𨵗	-11.7348
設成就過去未來	-11.7348
為菩提分法	-11.7349
苾芻苾芻尼等	-11.7349
謂一切有為法	-11.7349
悕求	-11.7349
因果相屬	-11.7349
同分彼同分	-11.735
未得已失	-11.7351
炷	-11.7351
婆羅痆斯	-11.7352
淺	-11.7352
今欲說之	-11.7352
嬈	-11.7352
遍行非遍行	-11.7352
發露	-11.7353
後世感苦異熟	-11.7354
各據一義	-11.7354
斷他命	-11.7355
六恒住	-11.7355
謗道邪見	-11.7355
斥	-11.7357
眾生數非眾生數	-11.7357
於苦思惟苦	-11.7357
於集思惟集	-11.7357
令生相續	-11.7357
於滅思惟滅	-11.7357
頸	-11.7357
所以得知	-11.7358
枝葉	-11.7358
幢	-11.736
僮僕	-11.736
舞	-11.7361
孤	-11.7361
七智知除比智	-11.7361
心及心法	-11.7363
茂	-11.7364
徵問	-11.7365
不苦不樂痛	-11.7366
輸	-11.7366
總攝一切	-11.7367
觸思識	-11.7367
見集所斷法	-11.7368
能發表	-11.7368
詩	-11.737
等起善	-11.737
皮肉	-11.7373
婆訶	-11.7373
入此定	-11.7374
九無間道八解脫道	-11.7374
溺	-11.7375
出現世間	-11.7377
告他	-11.7379
瑞相	-11.7379
從他聞	-11.7381
前六品	-11.7381
非欲界繫無覆無記心	-11.7382
五順下分結中	-11.7384
幾見所斷	-11.7385
解脫道攝	-11.7387
持雙	-11.7388
有愛使	-11.7388
順次	-11.7389
十九云	-11.7391
剡浮洲	-11.7392
此下第一	-11.7395
不分明	-11.7396
先所得	-11.7397
現等覺	-11.7398
東西	-11.7399
事為自性	-11.74
法智品道	-11.7401
彼種類	-11.7401
由此義故	-11.7405
四取中	-11.7407
何者是耶	-11.7408
色為所緣	-11.7409
受想行蘊	-11.7409
意勢	-11.7412
文中有三	-11.7413
越度	-11.7414
名對法藏	-11.7414
此下大文第	-11.7416
隨喜	-11.7417
心栽	-11.7418
有四事	-11.742
相續而轉	-11.7421
心所念	-11.7422
極熱	-11.7425
無遺	-11.7427
器世界	-11.7428
苦諦斷	-11.7428
略舉	-11.7431
門竟	-11.7432
說名成就	-11.7433
不成業道	-11.7434
名異熟生	-11.7434
菩薩母	-11.7434
立不善根	-11.7442
異品	-11.7442
必應有	-11.7443
是名色入	-11.7447
非學非無學心俱	-11.745
還來	-11.745
何不許	-11.745
對法中	-11.7452
起滅法智	-11.7459
離色愛	-11.7459
辭辯	-11.746
初發	-11.7463
修十六行相	-11.7466
或無覺無觀	-11.7466
都不	-11.7467
不說餘	-11.7467
違正理	-11.7468
釋第五	-11.7472
覺支道支	-11.7472
為煩惱所	-11.7473
受想思	-11.7473
耳鼻舌	-11.7475
彼一切盡	-11.7477
云何可爾	-11.7479
有上中下	-11.7479
若實人若趣	-11.748
如實觀	-11.7482
彼得亦	-11.7482
無色界命終	-11.7486
見諦道	-11.749
是假有	-11.7492
傳生	-11.7495
多物	-11.7504
十九根	-11.7505
極細	-11.7507
展轉相因	-11.7507
第二釋也	-11.7508
不相應行蘊	-11.751
欲令彼	-11.7511
所生果	-11.7514
難滿	-11.7518
在六地	-11.7521
三界善根	-11.7523
緣上界	-11.7536
二萬劫	-11.754
依根本地	-11.7544
彼所宗	-11.7545
貪等煩惱	-11.7547
餘有漏法	-11.7549
想思觸	-11.7552
問何故世尊	-11.7556
肉眼	-11.7556
及無色界生長	-11.7556
各有二種	-11.7558
或有尋有伺	-11.7559
云何色入	-11.7559
何獨	-11.7563
定應許	-11.7567
復有三種	-11.7574
斷見惑	-11.7574
離第四靜慮	-11.7575
來去	-11.7578
踰繕那量	-11.7578
無餘涅槃界	-11.7584
八等至	-11.7587
令現前	-11.7587
於此經中	-11.7588
微聚	-11.7589
不成就色界繫有覆無記心	-11.7591
見斷法報	-11.7592
法竟	-11.7596
名識住	-11.7597
在五識	-11.76
耽嗜	-11.76
無邊識處	-11.7601
射分定	-11.7602
以彼劣故	-11.7603
離空無邊處染	-11.7604
或執為尊	-11.7604
二禪三禪四禪	-11.7604
輿	-11.7605
集聲音句言語口教	-11.7606
共感一果	-11.7607
彼不得無教	-11.7608
憶本所作	-11.7608
喜樂捨	-11.7608
正現前位	-11.7609
動轉	-11.7609
已了別非今了別非當了別	-11.761
六識相應	-11.761
似自因	-11.7611
初說為善	-11.7611
無漏聖道	-11.7612
遙	-11.7612
摶	-11.7612
迅速	-11.7612
此不決定	-11.7614
製	-11.7615
瑜伽	-11.7616
乃至離無所有處欲	-11.7616
斧	-11.7617
令心高舉	-11.7618
憤	-11.7618
我已知	-11.7618
嬰孩	-11.7619
至已生位	-11.7619
總有四	-11.762
有別意趣	-11.7621
若本不得世俗智現在前	-11.7621
審決	-11.7622
若汝不說	-11.7622
阿羅	-11.7623
生等五因	-11.7623
自活	-11.7626
決度	-11.7626
無記無色	-11.7626
三界遍行及修所斷隨眠隨增	-11.7626
處轉故	-11.7626
厄	-11.7627
更互相	-11.7627
隨眠異熟眼識	-11.7627
憎背	-11.7628
六內處	-11.7628
相異熟業	-11.7629
瘦	-11.7629
希奇	-11.7629
脩習多脩習	-11.763
赴	-11.763
離俱繫	-11.763
戶	-11.7631
三杖	-11.7631
或有生疑	-11.7631
祖	-11.7631
潔	-11.7631
欣慰	-11.7631
若過去若未來若現在	-11.7632
由如是理	-11.7632
怨親	-11.7633
細滑入	-11.7636
見色眼	-11.7636
應成無用	-11.7636
聲聞乘	-11.7637
善染無記	-11.7637
材	-11.7638
紅	-11.7639
諸仙	-11.7639
緣是相續緣	-11.764
閻	-11.764
無明為緣	-11.7641
疾疫	-11.7641
諸無色界繫善心	-11.7642
等意解脫	-11.7643
方域	-11.7643
厭逆	-11.7646
下三句	-11.7646
醯	-11.7647
已吐	-11.7648
喜足少欲	-11.7648
自下地	-11.7648
答亦應說	-11.7653
劫初時	-11.7653
一切有情皆	-11.7655
猛火	-11.7655
俱時起故	-11.7657
靜息	-11.7658
下地煩惱	-11.7659
列名	-11.7661
能隨順	-11.7662
屬主	-11.7664
身受心法	-11.7664
用勝故	-11.7668
能防	-11.767
以二事故	-11.7671
雜心論	-11.7672
想受滅	-11.7672
謂彼先	-11.768
遍一切處	-11.7682
展轉相攝	-11.7683
汝所執	-11.7684
造無間業	-11.7686
唯目	-11.7686
衰退	-11.769
非學非無學無色	-11.7692
欲界一切隨眠隨增	-11.7692
法應如是	-11.7694
或無覺有觀	-11.7694
義不定故	-11.7695
答若得	-11.7698
妙好	-11.77
有漏緣使	-11.77
想微細	-11.7703
體無異	-11.7705
由加行得	-11.7712
名知根	-11.7715
苦智現在前	-11.7718
是故應知	-11.773
三十二相	-11.7732
論主答也	-11.7732
唯佛世尊	-11.7738
又世尊說	-11.774
有四行	-11.774
觸生受	-11.7743
未聞法	-11.7747
業所感	-11.7749
四瀑流	-11.775
大德說	-11.7751
破法輪	-11.7751
而體非	-11.7759
頂位	-11.7763
五濁	-11.7767
誓願	-11.777
隨世	-11.777
不成就眼識界	-11.7775
靜慮各二種	-11.7778
以諸聖者	-11.7782
若聲界	-11.7784
昔時	-11.7787
上地煩惱	-11.7791
聚同分	-11.7792
故偏說	-11.7798
唯是有漏	-11.7803
人天中	-11.7805
順次生受	-11.7807
三界見道所斷	-11.781
色界修所斷善	-11.7812
有頂天	-11.7817
令他知	-11.782
真實作意	-11.7821
無想事	-11.7822
不以此	-11.7826
無覆心	-11.7829
可見法	-11.7832
法類智品	-11.7832
餘生中	-11.7836
無常性	-11.7837
福增長	-11.7837
諸作是說	-11.7837
敘異	-11.7842
評家云	-11.7843
法智分	-11.7845
乃至最後	-11.7846
不還果攝	-11.7847
舉數	-11.7848
進修	-11.7849
非有想非無想	-11.7849
意觸苦受	-11.7855
色界通一切及思惟所斷	-11.7858
瑞	-11.7859
同許	-11.7859
非想非不想	-11.7861
下別釋	-11.7862
無漏無所有處	-11.7863
生未滅	-11.7864
起四無量	-11.7864
善一蘊染四蘊無記二蘊	-11.7866
不成就無色界繫無覆無記心	-11.7867
若智地若觀解脫心	-11.7869
脇	-11.7871
思惟斷法報	-11.7871
貪所起	-11.7871
色香味	-11.7878
已斷為因及未斷為因	-11.7879
憂處	-11.788
扇𢮎	-11.788
果攝義	-11.7881
空處識處	-11.7882
幾非陰界入攝	-11.7882
順苦受業	-11.7882
純黑	-11.7883
苦速通行	-11.7885
謟	-11.7885
養因	-11.7885
謂聖種所攝	-11.7885
不成就得成就	-11.7886
已了別非今了別當了別	-11.7886
法未知當知根相應	-11.7886
非端嚴	-11.7887
思已業	-11.7887
當言善耶	-11.7887
未離第三靜慮染	-11.7888
阿毘達磨俱舍論	-11.7889
斷何繫結	-11.7889
滅有對想	-11.789
隨依何地	-11.789
幾隨眠所緣故隨增亦相應故	-11.789
頌云	-11.789
牢	-11.7891
糠	-11.7892
雜揵度	-11.7892
練	-11.7892
即此勝行及前所說	-11.7892
自身他身	-11.7892
麤細	-11.7893
身作證具足住	-11.7894
彼非得	-11.7895
汗	-11.7897
腐	-11.7898
不得別解脫律儀	-11.7898
嬰兒	-11.7899
珞	-11.7899
緣是報緣	-11.7899
剎那相續	-11.79
裂	-11.7901
乃至非想非非想處染	-11.7901
隨其次第	-11.7902
廣如彼說	-11.7903
倉	-11.7904
平等受受所攝	-11.7905
味相應初靜慮	-11.7905
緣色界繫無色界繫	-11.7906
借	-11.7906
無記心俱	-11.7906
名斷界	-11.7907
滋	-11.7907
應捨置	-11.7907
斬	-11.7907
精舍	-11.7908
巨	-11.7908
命清淨	-11.791
擯	-11.791
驢	-11.7912
飽	-11.7912
來生人中	-11.7913
得初果	-11.7914
自在而轉	-11.7915
矩	-11.7915
彼一切加行無間解脫道	-11.7917
精進念定慧根	-11.7918
猛焰	-11.7918
契經雖作是說	-11.7919
蟻	-11.792
念親近多修學	-11.792
七識界	-11.792
滅盡涅槃	-11.7921
此經意說	-11.7921
煩惱縛	-11.7924
能說者	-11.7924
峯	-11.7925
熊	-11.7926
防守	-11.7928
誦持	-11.7928
何等時成就過去法智	-11.7928
萬踰繕那	-11.7929
辦事	-11.7929
勝義善	-11.7932
捨而不得	-11.7933
樂喜捨	-11.7936
約剎那	-11.7936
怪	-11.7937
食香	-11.7939
修羅	-11.7944
無明流	-11.7946
如理師	-11.7949
境界力	-11.7951
為等無間所緣增上	-11.7955
悟入	-11.7957
字界	-11.796
彼梵志	-11.796
舉喻	-11.7964
八解脫道中	-11.7966
餘無漏慧	-11.7969
下一行頌	-11.7969
運身	-11.797
最妙	-11.7971
此下明	-11.7973
捨根亦爾	-11.7973
輪寶	-11.7976
有軛	-11.7977
行相差別	-11.7981
後二靜慮	-11.7981
一切聖法	-11.7983
傍生鬼	-11.7986
無流法	-11.7986
云何聲界	-11.7986
不成就欲界繫無覆無記心	-11.7987
世間正見	-11.7987
瞋纏	-11.7987
所斷遍知	-11.799
滅類智斷	-11.799
名阿毘曇	-11.7991
海中	-11.7994
同一所依	-11.7997
若依無色定	-11.7998
上首	-11.7999
色界沒生欲界	-11.8004
共相應故	-11.8007
從彼生	-11.8008
理亦應	-11.8009
不見色眼	-11.8017
當來世	-11.802
殺業道	-11.8021
已起已	-11.8022
所計	-11.8022
光影	-11.8023
他界地	-11.8025
淨初禪	-11.8027
亦不戒律	-11.8029
性羸劣故	-11.8029
依餘地	-11.8031
除善非	-11.8037
修七智	-11.8044
足指	-11.8045
云何為五	-11.8048
出無想	-11.805
正定聚	-11.8062
入無色定	-11.8065
問如所說	-11.8067
望前	-11.8068
想等想施設言說	-11.8068
心等相續	-11.8069
相好	-11.8073
大海中	-11.8074
道法智忍	-11.8074
決定無有	-11.8081
五陰性	-11.8088
答第二問	-11.8095
故立為根	-11.8095
唯是無漏	-11.8099
大慈	-11.81
離初靜慮	-11.8101
入正法	-11.8103
未知智現在前	-11.8104
業招	-11.8105
有五品	-11.8105
有餘師釋	-11.8106
大河	-11.8107
彼過去耶	-11.8107
染無記	-11.811
障聖道	-11.8114
出家人	-11.8115
當更	-11.8115
凡聖	-11.8119
為生因	-11.812
大煩惱地	-11.8123
必還	-11.8124
勢力所引	-11.8126
受戒時	-11.8129
友	-11.8129
有欲心	-11.813
雜亂失	-11.8131
必不起	-11.8132
財位	-11.8135
不可見法	-11.8136
唯法念住	-11.814
招後有	-11.8141
除無色染	-11.8141
地獄眾生	-11.8143
此是我	-11.8143
發欲界語	-11.8148
牽後有	-11.815
是盡或無生	-11.8151
未曾見	-11.8152
欲愛使	-11.8155
四塵	-11.8157
所斷惑	-11.8157
作四行相中隨一行相	-11.8158
通三界九地	-11.8162
已知根具知根	-11.8163
思法等	-11.8164
即此攝	-11.8164
見道諦時	-11.8166
便止	-11.8167
非味相應耶	-11.8168
是心垢	-11.8168
心住正住	-11.8168
謂已入正性離生	-11.8168
有覺有觀離生喜樂	-11.8171
兔角	-11.8172
已了別今了別非當了別	-11.8173
迦旃延子造	-11.8173
瞋隨眠	-11.8173
相應起故	-11.8173
者顯彼自性	-11.8173
有能了別色界繫	-11.8173
失願	-11.8175
大城	-11.8175
幾隨眠所緣故隨增非相應故	-11.8175
稼	-11.8175
常無常	-11.8176
阿毘達磨諸論師	-11.8177
幾隨眠相應故隨增非所緣故	-11.8177
設緣已斷	-11.8177
喜根護根	-11.8178
傍生餓鬼	-11.8178
瞿陀尼	-11.8179
廣說乃至為令已生善法堅住乃	-11.8179
朝	-11.818
諸天眾	-11.818
都無所	-11.818
欲若勤若信	-11.8181
第二靜慮近分	-11.8181
有定不定	-11.8181
色有相續	-11.8181
𤏙	-11.8182
六處緣觸	-11.8183
令增長	-11.8183
諸梵眾	-11.8184
寫	-11.8184
見倒	-11.8184
付	-11.8184
但有虛言	-11.8185
未來現前正起	-11.8185
施戒修	-11.8185
淡	-11.8186
瑟	-11.8186
迷謬	-11.8186
若外色眼識所知	-11.8187
參	-11.8188
旋火輪	-11.8188
轂	-11.8188
怠	-11.8188
離此地染	-11.8188
安穩	-11.8189
差降	-11.819
骨鎖	-11.8191
映奪	-11.8192
臨命終時	-11.8192
近事女	-11.8192
是名聲入	-11.8194
生彼間	-11.8194
眉間	-11.8194
鉢羅奢佉	-11.8194
死生智力	-11.8195
是故世尊說	-11.8195
邪志	-11.8196
靈	-11.8196
阿伽	-11.8197
此即第三明	-11.8197
剋	-11.8197
沉	-11.8198
推尋	-11.8198
沙門婆羅門等	-11.8199
忽然	-11.8199
漬	-11.8199
戚	-11.82
煖頂忍	-11.8202
勤三摩地	-11.8203
幽	-11.8204
威光	-11.8204
蘭	-11.8205
勤策戒	-11.8207
貯	-11.8207
露形	-11.8207
內色想	-11.8207
失願結	-11.8207
連縛	-11.8208
業為生因	-11.8209
出血	-11.8209
天眼見	-11.8209
緣自相續	-11.821
鮮白	-11.8213
捶	-11.8213
令不散	-11.8214
有覆無記無覆無記色	-11.8216
不定地	-11.8216
異熟何處	-11.8217
問若法是	-11.822
作是問言	-11.8223
見道修道斷	-11.8225
無色界通一切及思惟所斷	-11.8225
云何聲入	-11.8229
耳觸	-11.823
此中但依	-11.8232
此三皆	-11.8232
通六識身	-11.8233
愛非愛	-11.8235
增進根	-11.8238
六百	-11.8238
不善安住	-11.8239
是蘊義	-11.8241
為他說	-11.8243
無記心命終	-11.8243
戒定慧	-11.8243
眼不見	-11.8244
劫減	-11.8244
入出息地	-11.8245
加行道時	-11.8249
大地十	-11.8251
四意止	-11.8253
香象	-11.8253
所繫縛	-11.8254
無熱天	-11.8254
九地聖道	-11.8254
諸勝進道	-11.8255
無有是事	-11.8256
財施	-11.8258
界趣生	-11.8259
千劫	-11.8265
佛生身	-11.8265
最後剎那	-11.8266
雙因	-11.8268
根蘊	-11.827
無間滅意	-11.8278
燈光	-11.8279
一中劫	-11.828
若聲入	-11.828
可意聲	-11.8285
義得成	-11.8286
相應共有法	-11.8288
受七生	-11.8291
成四句	-11.8294
得聖果	-11.8297
違教	-11.8299
五六七	-11.8299
無見結繫	-11.8311
一坐	-11.8314
十六識內十	-11.8315
聽聞	-11.8315
離非時食	-11.832
最尊	-11.832
慧非見	-11.8324
不應執	-11.8327
卷第十	-11.8327
感異熟果	-11.8331
其母	-11.8331
結生心	-11.8335
根本煩惱	-11.8335
自性無記	-11.8337
身口行	-11.8342
無學位中	-11.8347
六種姓	-11.8349
不得律儀	-11.8356
或無尋無伺	-11.8359
皆是無常	-11.836
色界沒生無色界	-11.8361
所以不說	-11.8361
見聖諦	-11.8363
有心定	-11.8364
宗義	-11.8364
造逆	-11.8364
但有一	-11.8366
像現	-11.8367
精進根	-11.8367
有二十一	-11.8369
不為障	-11.837
三十一使	-11.8371
成就色界繫無覆無記心	-11.8381
此下第三明	-11.8384
容可	-11.8386
息求	-11.8388
位建立	-11.8391
無如是過	-11.84
而有差別	-11.8403
於何位	-11.8404
至世尊所	-11.8406
婆沙一百七	-11.8411
退不退	-11.8414
口惡行	-11.8418
諸如來	-11.8421
八千	-11.8421
人同分	-11.8425
自下第三	-11.8427
息不轉	-11.8428
除北俱盧	-11.8435
一滅不起	-11.8436
色染無色染	-11.8439
六月	-11.8448
謂諸聖者住胎	-11.8451
無祠祀者	-11.8452
具支	-11.8452
他妻	-11.8453
為恚結所繫	-11.8453
染無知	-11.8456
信解脫轉根作見到	-11.8459
時解脫阿羅漢練根作不動	-11.846
是凡夫性	-11.846
非淨非無漏耶	-11.846
無比	-11.8461
此位名	-11.8462
依何定滅	-11.8463
善業為眷屬	-11.8465
數取趣	-11.8465
得修習修	-11.8468
或不善或無記	-11.8468
珊	-11.8468
局	-11.847
即彼愛未盡	-11.847
相雜念住	-11.8471
叢林	-11.8471
顯有過去愛結	-11.8471
已離無色界貪	-11.8472
方隅	-11.8473
除去色想	-11.8474
工	-11.8474
從此以後	-11.8475
剎利	-11.8475
結縛隨眠隨煩惱纏	-11.8477
畦	-11.8478
不正思惟	-11.8478
試	-11.8479
結跏趺坐	-11.8479
學練根	-11.848
身語意惡行	-11.848
餘文可解	-11.848
今欲分別	-11.848
結前問起	-11.8481
貫	-11.8481
曜	-11.8481
欲愛瞋恚	-11.8482
俱時而起	-11.8482
復以何緣	-11.8482
牛貨	-11.8483
銷	-11.8484
漏盡智力	-11.8484
王舍城	-11.8484
本文	-11.8485
三界二入五陰	-11.8485
善哉善哉	-11.8485
洗浴	-11.8485
有餘部說	-11.8486
有對造色	-11.8486
是分別論者	-11.8486
那羅延	-11.8486
已滅名過去	-11.8487
蓮花	-11.8487
循	-11.8487
與彼相應	-11.8488
何以知之	-11.8488
近事等	-11.8488
幾思惟斷	-11.8488
捷利	-11.8488
念定慧	-11.849
空一顯色	-11.849
五下分結盡	-11.8491
基	-11.8493
眼等六根	-11.8494
從瞋生	-11.8494
忘念	-11.8494
在色無色界	-11.8494
追求	-11.8495
有餘復說	-11.8495
末尼	-11.8495
堅相	-11.8496
短壽	-11.8496
六十劫	-11.8496
幾使使	-11.8496
齋支	-11.8497
緣起支	-11.8498
善不善業	-11.8498
銀	-11.8498
爭	-11.8499
惰	-11.8499
豪	-11.85
兜	-11.85
剃	-11.8504
唯意地	-11.8504
堅強	-11.8506
剪剃	-11.8509
依未至滅	-11.851
是名聲界	-11.8512
妙行惡行	-11.8513
柯	-11.8514
不得解脫	-11.8515
承事	-11.8516
無所畏	-11.8516
為善說	-11.8516
婆沙一百四十	-11.8516
短長	-11.8517
遙見	-11.8518
非六生	-11.8522
書分	-11.8524
然契經中	-11.8524
清妙	-11.8524
緣三界繫及不繫	-11.8525
非得為體	-11.8526
思所不攝	-11.8528
勝進分	-11.853
例釋	-11.853
若一處內	-11.8532
內門	-11.8534
彼定不成就	-11.8534
大海水	-11.8535
滑性	-11.8535
捨心定	-11.8537
行相猛利	-11.854
集會	-11.854
傳聞	-11.8544
難養	-11.8545
無邊空	-11.8547
下三定	-11.8548
極速	-11.8548
吾我	-11.8552
自性念住	-11.8556
香氣	-11.8556
八解脫道時	-11.8556
生遍淨	-11.8559
敘異說也	-11.8561
與彼相違	-11.8563
輕性	-11.8563
諸結斷	-11.8563
一切染污法	-11.8565
盡無生智二	-11.8567
相應故言少分	-11.8569
無色有相續	-11.857
人趣中	-11.8572
無常苦	-11.8577
伽羅	-11.8585
婬愛	-11.8585
於一切有情得	-11.8586
前三果	-11.8587
論主意	-11.859
彼未來耶	-11.8591
小四相	-11.8591
世俗心現在前	-11.8592
自己	-11.8594
婆沙八十	-11.8596
徵難	-11.8597
象馬等	-11.8605
伏除	-11.8609
僧寶	-11.8611
或無尋唯伺	-11.8611
餘十七界	-11.8612
彼現在耶	-11.8617
五枝	-11.8618
無色界二部	-11.862
諸染污法	-11.8622
於自所緣	-11.8629
不絕	-11.8633
聞他	-11.8636
)。《	-11.8638
有退義	-11.864
未來有身見	-11.8642
與此相應	-11.8643
散無表	-11.865
欣厭	-11.8655
無羞	-11.8659
初中後	-11.866
諸聖諦繫根法	-11.8661
心展轉相緣	-11.8661
四諦理	-11.8665
十二行相	-11.867
僧證淨	-11.8671
作無間業	-11.8674
不飲酒	-11.8674
審知	-11.8681
一踰繕那	-11.8682
發身識	-11.8687
因果性	-11.8689
毀犯	-11.8694
見道及修	-11.8695
無量境界	-11.8698
墮三世	-11.8708
此不相違	-11.8709
瓶衣	-11.8711
逆超	-11.8722
我不復	-11.8723
由彼力	-11.873
第二靜慮色	-11.8732
苦樂受	-11.8732
臘縛	-11.8735
欲界命終	-11.8739
受近事律儀	-11.874
耳鼻舌根	-11.874
故言少分	-11.8741
不了別	-11.8743
文中有三初	-11.8743
准正理論	-11.8748
後有愛	-11.8749
百踰繕那	-11.875
俱生品諸根	-11.875
次對現在	-11.875
無施與者	-11.8754
如實人念憶念	-11.8754
見道十五心頃	-11.8754
未證欲證	-11.8758
作亦名增長	-11.8758
無愛樂者	-11.8759
金剛喻	-11.8761
未得欲得	-11.8761
無學人欲得阿羅漢	-11.8762
欲色界三部	-11.8764
十八界十二處五蘊	-11.8764
先有身表不失	-11.8765
行相所緣	-11.8765
此文應如是說	-11.8766
布灑他	-11.8766
此業定當	-11.8768
交涉	-11.8769
耳聞	-11.8769
比丘定親近多修學已	-11.877
難斷難	-11.877
何見攝	-11.8771
諸經中	-11.8771
內災	-11.8772
明非其因	-11.8772
當廣分別	-11.8772
縛著	-11.8772
死後無想	-11.8772
是等無間亦等無間緣	-11.8773
得獲成就	-11.8773
畜生餓鬼	-11.8774
攝一全	-11.8775
婆須蜜	-11.8775
此則總說	-11.8776
可積集	-11.8777
生彼天	-11.8777
漸略	-11.8777
集異門	-11.8778
力勢	-11.8778
歌舞	-11.8778
化法調伏	-11.8779
如實知之	-11.878
根少入	-11.8781
內無色想觀外諸色	-11.8781
無常苦空無我	-11.8781
替	-11.8782
準	-11.8782
傲逸	-11.8782
唯佛能知	-11.8783
四十八	-11.8783
身受樂	-11.8783
按	-11.8783
策勵	-11.8783
名色緣六處	-11.8784
外觀色	-11.8784
商侶	-11.8784
檢	-11.8785
不見言見	-11.8785
為目何義	-11.8786
無損害	-11.8786
改易	-11.8786
堤塘	-11.8787
諦聽	-11.8787
膜	-11.8787
語二業	-11.8787
虧	-11.8787
鬼界	-11.8788
下中上品	-11.8788
窓	-11.8789
梵福量	-11.879
剛強	-11.879
周圍	-11.879
瀑流軛取	-11.8791
無所有處解脫	-11.8791
洛迦	-11.8792
伽陀	-11.8792
安足	-11.8793
送	-11.8793
欲色界遍行及修所斷隨眠隨增	-11.8794
疲勞	-11.8794
古德	-11.8795
老年	-11.8796
合掌	-11.8796
乃至無所有處染	-11.8796
無學智現在前	-11.8796
孔隙	-11.8796
金剛座	-11.8797
梁	-11.8797
食所食	-11.8798
諸欲界繫有覆無記心	-11.8798
懈	-11.8799
從此第六	-11.8799
安靜	-11.88
王聞	-11.88
卷第十一	-11.8801
羯剌藍位	-11.8801
此說非理	-11.8801
四意斷	-11.8801
契約	-11.8802
習法智斷	-11.8802
微微心	-11.8803
毫	-11.8805
餘則不爾	-11.8806
正等正覺	-11.8811
欻然	-11.8812
」「	-11.8814
本論師	-11.8815
錦	-11.8815
苦類忍	-11.8817
無覺有觀定	-11.8817
商人	-11.8819
定前心	-11.8819
集諦亦如是	-11.882
作是釋言	-11.8822
六觸身	-11.8823
頂墮	-11.8823
告曰	-11.8823
正辨	-11.8824
見集所斷遍行隨眠	-11.8825
我從今	-11.8825
故獨名	-11.8827
欲貪纏	-11.8828
賢聖品	-11.8832
愱結	-11.8833
能牽引	-11.8834
為他說法	-11.8835
依未至定滅	-11.8835
有中夭	-11.8835
彼於如是	-11.8838
二種俱	-11.8842
是假非實	-11.8842
有人云	-11.8842
動搖	-11.8845
此中唯說	-11.8846
眼及色	-11.8848
盲人	-11.885
所得擇滅	-11.8851
差別之相	-11.8855
所緣念住	-11.8855
少年	-11.8855
初剎那後	-11.8858
已曾得	-11.886
何等為四	-11.8861
遍沒	-11.8864
眾賢	-11.8869
結生時	-11.8869
論議	-11.8871
此等名為	-11.8873
俱舍師破	-11.8875
幾界幾處幾蘊攝	-11.8876
勝義苾芻	-11.8876
供養恭敬	-11.8877
次辨	-11.8881
七八品	-11.8885
欲軛	-11.8889
前三解脫	-11.889
無恥	-11.8891
以慧為體	-11.8891
欲界諸煩惱	-11.8896
愛非愛果	-11.8901
世品	-11.8902
幾非學非無學	-11.8905
法為能作因	-11.891
何以說	-11.8926
正理論師	-11.8927
十一界十一	-11.8927
謂命意捨	-11.8929
不移動	-11.8931
舉頌	-11.8955
殊妙	-11.8956
法二俱解脫	-11.8957
可愛異熟	-11.896
八月	-11.8962
羊等	-11.8963
善男子	-11.8964
眼不見色	-11.8964
所顯義	-11.8967
練根得	-11.8976
欲界初禪	-11.898
無學練根	-11.8985
不緣下地	-11.899
見斷法斷	-11.899
見行者	-11.8991
有餘師言至	-11.8992
未來所造色	-11.8993
是故但說	-11.8994
七百	-11.8995
劫數	-11.9004
有二釋	-11.9005
非欲界繫有覆無記心	-11.9005
虛空無為	-11.9015
人天趣	-11.9024
無間同類	-11.9027
國人	-11.903
下一句	-11.9031
一向記	-11.9033
無限	-11.9034
離不與取	-11.9034
若生遍淨	-11.9039
退法阿羅漢	-11.9042
得無漏離繫得	-11.9045
無評家	-11.9049
斷色無色界結	-11.9053
有根身	-11.9055
色界三部	-11.9056
不可害	-11.9057
次對過去未來	-11.9058
彼得無教	-11.9062
生初禪識	-11.9063
不處威儀	-11.9064
次對過去現在	-11.9066
苦邊際	-11.9067
順不苦不樂受觸	-11.9067
諸論皆	-11.9067
次對未來現在	-11.9068
九智知	-11.9068
少境界	-11.9069
熾	-11.907
生得眼	-11.9071
起欲界纏退時	-11.9073
無學若智若見現在前	-11.9074
道俱有戒	-11.9075
麟角	-11.9075
去來屈申迴轉身教	-11.9076
未永斷	-11.9076
固執	-11.9077
能助	-11.9077
非相應繫	-11.9077
智攝一切智	-11.9078
煩惱等斷	-11.9079
善染污無覆無記	-11.9081
樂遲通行	-11.9082
法念住為加行	-11.9082
三界三部	-11.9083
苦忍苦智	-11.9084
擁護	-11.9087
調戲	-11.9087
隥	-11.9087
嗣	-11.9088
內有色想觀外色	-11.909
猗覺支	-11.909
不可為例	-11.9091
眼觸所生想	-11.9091
危	-11.9091
有見無見	-11.9092
養育	-11.9092
臭穢	-11.9092
覓	-11.9092
筆	-11.9093
泰法師	-11.9093
修所斷有覆無記心	-11.9094
無所有處愛盡	-11.9095
不必須通	-11.9096
依三界身	-11.9096
復應思擇	-11.9096
是彼類故	-11.9097
已見諦者	-11.9097
非當取	-11.9098
造此論	-11.9098
囊	-11.9099
竅隙	-11.9099
幾結所繫	-11.9099
周匝	-11.91
非所許故	-11.91
皷	-11.91
聖所愛戒	-11.91
迷悶	-11.91
若內若外	-11.9101
巖	-11.9101
稽首	-11.9102
百俱胝	-11.9103
四諦境	-11.9104
唯是異熟	-11.9104
怙	-11.9105
弄	-11.9105
苦空無我	-11.9105
猶如有人	-11.9105
津漏	-11.9105
反責	-11.9106
官	-11.9107
未嘗	-11.9107
陷	-11.9108
黑繩	-11.9108
彼法是何	-11.911
長者子	-11.9111
諸無色界繫無覆無記心	-11.9112
鑒	-11.9112
諸色界繫有覆無記心	-11.9112
能了別不繫法	-11.9113
腦	-11.9113
聚集出現	-11.9114
吞噉	-11.9115
圍遶	-11.9115
艱	-11.9115
安樂遊處	-11.9115
)【	-11.9115
根所取	-11.9116
欺誑	-11.9117
從無始來	-11.9118
盤	-11.9118
四根本靜慮	-11.9119
同時因果	-11.9119
諸色界繫無覆無記心	-11.9119
復次欲現	-11.912
無學正勤	-11.9121
罽賓國	-11.9121
坐禪	-11.9122
復有欲令	-11.9122
如是等事	-11.9124
信解脫人	-11.9126
復次諸瑜伽師	-11.9126
標宗	-11.9127
若成就大種	-11.9128
更求	-11.9129
能斫	-11.9132
遍行惑	-11.9134
靜行相	-11.9138
被縛	-11.9139
乃至九十八使	-11.914
遠續	-11.9147
便違契經	-11.915
智非見	-11.9152
與法智相應	-11.9154
親近多修學已	-11.9156
總有六	-11.9157
經律	-11.916
具有三	-11.9165
所誦	-11.9169
何緣不許	-11.9169
諸力士	-11.917
何所不攝	-11.9172
四隨相	-11.9175
見滅所斷有漏緣隨眠	-11.9175
慚恥	-11.9177
如先已說	-11.9178
誓受	-11.9179
心狂亂	-11.9181
相別云何	-11.9183
五結中	-11.9185
無餘涅槃	-11.9187
開解	-11.9191
更不受	-11.9193
善有漏慧	-11.9194
無間生七	-11.9195
引婆沙	-11.9196
釋初兩句	-11.9199
一向不善	-11.92
三界貪	-11.9201
色界繫心俱	-11.9204
之異名	-11.9207
離間	-11.9209
歡慼	-11.921
熏修	-11.9211
無實體	-11.9213
過去諸佛	-11.9214
勤方便	-11.9221
由是因緣	-11.9223
於內身	-11.9226
空無邊處解脫	-11.923
破闇	-11.9232
因作論	-11.9232
義不相應故	-11.9234
能雜修	-11.9234
乃至梵世	-11.9237
遍行隨眠隨增	-11.924
則不繫	-11.9242
汝若謂	-11.9244
一來果攝	-11.9246
陰想陰	-11.9247
論者作如是言	-11.9248
入彼定	-11.9249
異大種	-11.9252
名法隨法行	-11.9254
力所引起	-11.9255
觸生愛	-11.9257
依經部宗	-11.9258
再說	-11.9259
名住異	-11.9261
能為轉	-11.9264
初勝處	-11.9264
俱舍師	-11.9265
諸學者	-11.9265
捨惡戒	-11.9267
已離欲界染	-11.927
復有餘師	-11.927
謝滅	-11.9271
相應俱有法	-11.9272
第三定中	-11.9276
引自果	-11.9277
成就色界繫有覆無記心	-11.9279
能資	-11.9284
覆蓋	-11.9286
自高	-11.9286
諸有漏行	-11.9291
不立為根	-11.9296
長短等	-11.9296
此經所說	-11.9299
德田	-11.9302
老病死	-11.9302
名為對法	-11.9302
此下大文第二	-11.9307
自了知	-11.9314
亦同此	-11.9315
無邊際	-11.9317
與無慚無愧相應	-11.9324
諸學處	-11.9324
彼成就欲界繫	-11.9324
力無畏	-11.9326
九有情居	-11.9327
怨害	-11.9333
無色界繫無覆無記心	-11.9334
他聚故	-11.9337
作次第緣	-11.9341
心品中	-11.9344
為現法樂住	-11.9344
作是執	-11.935
苦集類智	-11.936
眾生居	-11.9361
設成就過去	-11.9361
苦諦繫非根法	-11.9362
恚結繫耶	-11.9364
五結眠沒	-11.9366
苦諦繫根法	-11.9367
何故但言	-11.9368
成就得不成就	-11.9369
俱舍論疏	-11.9371
始從	-11.9371
世羅	-11.9374
三界繫及不繫	-11.9375
次對未來	-11.9377
加行成滿	-11.9378
知解受	-11.9383
謂聖者住胎	-11.9385
得遍知三結盡	-11.9385
現有善身語表	-11.9385
一切隨眠相應識	-11.9386
不成就無學心	-11.9387
乃至即得阿羅漢果	-11.9388
通六識	-11.939
善惡無記	-11.9391
過去法智耶	-11.9391
有為相應縛非所緣縛	-11.9392
若非此所增隨眠	-11.9392
但一增上	-11.9393
不成就學心	-11.9394
無漏忍時	-11.9394
白髮	-11.9395
解分智	-11.9395
若惑若疑若猶豫	-11.9397
未解欲解	-11.9397
自性於自性	-11.9399
定俱有戒	-11.9399
先未曾侵惱	-11.94
順前句	-11.94
占	-11.94
離有頂染	-11.9403
若外聲耳識所知	-11.9403
未見諦	-11.9404
更增	-11.9404
轉根作不動	-11.9405
念住現在一	-11.9405
而不作是說者	-11.9406
興者已盡則不繫	-11.9406
幾結繫	-11.9407
髮毛等	-11.9407
我昔	-11.9407
未得聖法	-11.9407
無相違過	-11.9407
末劫末見	-11.9407
非黑非白	-11.9408
梯	-11.9408
業非業報	-11.9409
與念覺支相應	-11.9409
廛	-11.9409
值	-11.9409
極多十九	-11.9409
亦非相應縛者	-11.941
我已證滅	-11.9411
憍陣那	-11.9411
少光天	-11.9412
八十八隨眠	-11.9412
平等香	-11.9413
此責非理	-11.9414
設成就過去現在	-11.9415
即由此理	-11.9415
亡失	-11.9416
釋提桓因	-11.9417
理必應然	-11.9418
炬	-11.9419
結加趺坐	-11.942
拘隣	-11.942
外國諸師	-11.942
為得未得而學	-11.942
殞	-11.9421
入無餘涅槃	-11.9421
鄔	-11.9422
肉團	-11.9422
誨	-11.9422
雞	-11.9422
黨	-11.9423
苦智習盡道智	-11.9423
謂若麁若苦若障	-11.9423
矜	-11.9423
匿	-11.9423
何繫結滅	-11.9424
瞋恚愚癡	-11.9424
述異說也	-11.9425
三千大千世界	-11.9425
爛壞	-11.9425
庸	-11.9426
休	-11.9426
經偏說	-11.9428
斯有何過	-11.9428
現在唯修世俗	-11.9429
惡阿世耶	-11.9429
浣	-11.9429
㲲	-11.943
非數緣盡	-11.9431
若時菩薩	-11.9431
魯	-11.9431
月白半第八日	-11.9431
義是漏義	-11.9432
次舉頌答	-11.9432
泄	-11.9433
無想正受	-11.9433
抑	-11.9434
并無為法	-11.9435
無量識處	-11.9435
三界一切遍使使	-11.9436
一向倒	-11.9436
雷	-11.9436
十萬	-11.9437
釋迦菩薩	-11.9438
特	-11.9438
研	-11.9439
巡	-11.944
君	-11.9442
此下第一明	-11.9443
法後得	-11.9444
卷第十二	-11.9445
集聖諦亦爾	-11.9445
能得清淨	-11.9448
菩提樹	-11.9449
易養	-11.9449
震	-11.945
四十四智	-11.9453
始終	-11.9458
▁「	-11.9458
轉成學	-11.9459
念法師	-11.9461
聞思修所成	-11.9461
三性分別	-11.9463
專念	-11.9464
功德田	-11.9465
得與所得	-11.9466
互為緣	-11.9467
有身見結	-11.9468
悲心定	-11.947
謂無明行	-11.947
大臣	-11.9474
受苦樂	-11.9475
所作事業	-11.9478
眼等諸根	-11.9478
所記	-11.9478
後法樂	-11.9478
教勅	-11.9479
大梵天王	-11.9481
淨穢	-11.9482
不墮惡道	-11.9486
詰問	-11.9487
立識住	-11.9488
與三根相應	-11.9491
十二使	-11.9495
三解脫門	-11.9495
田器	-11.9498
見道所斷邪見	-11.9499
無上覺	-11.95
能制伏	-11.9507
緣無境	-11.9509
何殊	-11.951
唯有一種	-11.9512
優波	-11.9515
相連	-11.9516
引本論	-11.9518
善說法中	-11.952
業增上力	-11.9527
定受業	-11.9531
正理四十	-11.9533
修道位中	-11.9537
指事	-11.9538
後對過去	-11.9541
少有所	-11.9549
然後乃	-11.9555
識為緣	-11.9555
復有四種	-11.9556
內淨信	-11.9557
羅國	-11.9558
眾生居處	-11.956
此中總說	-11.9568
至色究竟	-11.9573
成逆罪	-11.9583
第三第四禪	-11.9589
除遣	-11.9593
見瀑流	-11.96
獄中	-11.96
離麁惡語	-11.9601
則止	-11.9601
一俱盧舍	-11.9604
聲非異熟	-11.9616
隱沒無記不隱沒無記	-11.9623
二事俱	-11.9628
諸聖諦繫非根法	-11.9629
非情數	-11.964
王宮	-11.9652
現法果	-11.9656
全離欲	-11.966
見非智	-11.9665
十八物	-11.9679
成無用	-11.9683
無因義	-11.9684
為止他	-11.969
非見非見處	-11.9691
雜毒	-11.9691
三十六使	-11.9694
見所斷修所斷	-11.9695
道諦繫非根法	-11.9696
因中因	-11.9697
道未知忍	-11.9698
假非實	-11.9701
苦集法智	-11.9702
劇苦	-11.9705
不善隱沒無記	-11.9718
二心俱生	-11.972
四二分或	-11.9725
樂根喜根捨根	-11.9725
謂入現觀苦	-11.9727
異生三十一隨眠	-11.9727
集滅現觀各四心頃	-11.9728
助力	-11.9728
聖道一時俱斷	-11.9729
觀涅槃寂滅	-11.973
士用及增上	-11.973
見道修道	-11.9732
見行過患	-11.9732
三轉十二行相	-11.9732
憂悲苦惱	-11.9733
無常想一緣	-11.9734
彼作是答	-11.9736
諸根長養大種增益	-11.9737
尊者世親造三藏法師玄奘奉詔譯	-11.9739
三結乃至九十八隨眠	-11.9739
凡夫人到	-11.9739
順不逆	-11.9739
理定不然	-11.974
有為所緣縛亦相應縛	-11.974
抄	-11.9741
意觸所生愛身	-11.9741
由一事故	-11.9741
苦比忍	-11.9742
說一切有部俱舍論	-11.9742
謂欲界生長已離欲界貪	-11.9742
眼觸所生思	-11.9743
我已斷集	-11.9743
諸界諸趣諸生	-11.9743
稠林	-11.9743
眼色為緣生眼識	-11.9744
尊者曇摩多羅	-11.9745
一晝一夜	-11.9745
階	-11.9745
由二事故	-11.9746
彼成就無漏初靜慮	-11.9747
有智同梵行者	-11.9747
讚美	-11.9747
幾因相應	-11.975
怨憎	-11.975
無始已來	-11.975
艱辛	-11.9751
醜	-11.9751
尊者婆須蜜說	-11.9751
於彼諸色勝知勝見	-11.9751
但名造作	-11.9751
設成就未來現在	-11.9752
最為殊勝	-11.9752
名色緣觸	-11.9752
尊貴	-11.9752
假實	-11.9753
十智為性	-11.9754
行緣無明	-11.9754
是貪等流	-11.9754
勢力強故	-11.9754
九上緣惑	-11.9754
超昇離生	-11.9754
生等四相	-11.9755
聰叡	-11.9755
柱	-11.9755
初安足	-11.9756
下八諦	-11.9756
遲速	-11.9756
楚	-11.9756
日月輪	-11.9757
通四念住	-11.9757
牢獄	-11.9757
訓釋	-11.9758
環	-11.9758
依何義說	-11.9759
輞	-11.976
諸法自相共相	-11.976
室羅筏	-11.976
忻	-11.9761
映	-11.9761
糞掃衣	-11.9763
咽喉	-11.9765
恩田	-11.9765
道未知智斷	-11.9765
及學無學心	-11.9765
資財	-11.9765
咽	-11.9766
准前說	-11.9768
誑惑	-11.9768
經生聖者	-11.9768
光法師	-11.9769
且初明	-11.977
摸	-11.977
央	-11.977
比度	-11.9771
習未知智斷	-11.9771
現報業	-11.9771
聖者三隨眠	-11.9771
瑠璃	-11.9772
偏重	-11.9773
從煩惱生	-11.9774
如理應說	-11.9774
鏡面	-11.9776
問因論生論	-11.9779
思慮	-11.9782
顧戀	-11.9783
故彼論云	-11.9784
稟性	-11.9785
諸欲界繫無覆無記心	-11.9786
幾結盡	-11.9786
上座部	-11.9787
非前非後二心	-11.979
能招異熟	-11.9791
諸法性相	-11.9791
若入此定	-11.9791
火聚	-11.9792
凡位	-11.9792
五有漏處	-11.9798
來生此	-11.9798
行相微細	-11.9798
萬歲	-11.9799
設有現在	-11.9799
上昇	-11.9799
能仁	-11.9801
白黑	-11.9802
決定安立	-11.9802
不相應行陰	-11.9804
百四十	-11.9806
和會	-11.9808
軟根	-11.981
可畏	-11.9811
南方	-11.9821
喜心定	-11.9822
在未來世	-11.9822
深廣	-11.9824
諸佛皆	-11.9826
極微聚	-11.9831
諸法無我	-11.9833
牛羊	-11.9838
盡智時得	-11.9843
隱顯	-11.9844
世間現見	-11.9846
標釋	-11.9851
三科	-11.9851
起如是心	-11.9852
如佛契經說	-11.9852
由此二因	-11.9853
起殺加行	-11.9856
若有苾芻	-11.9857
色界繫善心捨成就得不成就	-11.9859
如施設論說	-11.9859
領觸	-11.986
以無用故	-11.9861
不斷心俱	-11.9866
劫初時人	-11.9871
佛弟子眾	-11.9872
遍照	-11.9876
不斷無色	-11.988
罪福	-11.9885
應果性	-11.9891
斷五品	-11.9895
贍部洲人	-11.9897
婆沙師	-11.9899
能緣行相	-11.9902
凡夫共	-11.9903
緣他相續	-11.9917
分別契經義	-11.992
及彼相應俱有	-11.9931
戒取疑	-11.9932
九品惑	-11.9947
苦際	-11.9956
何緣不說	-11.9958
因見滅斷	-11.9962
無行動	-11.9976
能引眾同分	-11.9977
餘不定如前	-11.9977
海水	-11.9978
妄計	-11.998
須陀洹斯陀含	-11.9985
王臣	-11.9988
非法智相應	-11.9994
第二識住	-11.9995
有為沙門果	-11.9996
集諦繫根法	-12.0007
二有中間	-12.001
已下一頌	-12.0021
以一切法為	-12.0021
青黃	-12.0029
雖殊	-12.0031
非前非後	-12.0031
善隱沒無記	-12.0032
是以不	-12.0033
雜修定	-12.0033
五順下分	-12.0038
花香	-12.0038
妬	-12.004
發身語業	-12.004
眼觸不苦不樂受	-12.0041
滅諦繫根法	-12.0041
得現法樂住	-12.0043
已生今生當生不定	-12.0044
行邪行	-12.0049
道諦繫根法	-12.0051
成就過去現在	-12.0056
無教戒	-12.0056
隻	-12.006
色聲香味	-12.006
所引意識	-12.0062
速證	-12.0063
若如是者	-12.0063
尊上彼	-12.0066
能荷	-12.0067
七十七智	-12.0067
此眾生若根成就	-12.0067
謂空已滅不失	-12.0068
及見苦所斷遍行隨眠隨增	-12.0068
及現在非過去	-12.0069
應無差別	-12.007
而於此非所緣縛	-12.007
如來無所著等正覺	-12.007
苦類智未已生	-12.0071
有為所緣縛非相應縛	-12.0071
此中有愛結前生未斷者	-12.0071
四三二一	-12.0072
除異熟及離繫	-12.0073
除上爾所	-12.0073
一起一住一滅	-12.0074
乃至幾纏所纏	-12.0075
上正決定	-12.0075
心向彼	-12.0075
名句文	-12.0077
姚秦罽賓三藏曇摩耶舍	-12.0077
外國師	-12.0078
織	-12.0078
慼行轉	-12.008
文中初結前	-12.0081
當作是觀	-12.0083
為愛結所繫	-12.0083
富春沙門遁麟述	-12.0084
無有中愛	-12.0084
涅	-12.0084
慶慰	-12.0085
無量光天	-12.0085
汝何所欲	-12.0086
任運轉故	-12.0087
燋熱	-12.0088
即彼隨眠緣此未斷	-12.0088
入息出息	-12.0089
起他心智現在前	-12.0089
能為障	-12.0089
現在未來五	-12.009
愛慢無明	-12.009
為分別慧	-12.009
心平等性	-12.009
一起便住	-12.009
謂諸具縛補特伽羅	-12.0091
與他心智相應	-12.0092
液	-12.0092
寸	-12.0092
非見亦非見處	-12.0093
符秦罽賓三藏僧伽提婆共竺佛念譯	-12.0093
述曰此牒	-12.0093
一切忍現在前	-12.0094
五不善處	-12.0094
朽	-12.0094
存濟	-12.0094
從果為名	-12.0094
羸弱	-12.0095
欲染瞋恚	-12.0095
諸漏已盡	-12.0096
麟喻	-12.0097
如先所說	-12.0097
執受大種為因聲	-12.0097
三十四念	-12.0098
沙門釋光述	-12.0098
本得無漏智現在前	-12.0098
毘舍佉	-12.0098
廣說乃至勵意不息	-12.0099
漸次順次相續次第數為第	-12.0099
滅盡正受	-12.0099
莊飾	-12.01
鹹	-12.01
見苦見集所斷	-12.0101
便生喜足	-12.0101
名世俗諦	-12.0101
於被障色	-12.0101
振	-12.0102
撥為無	-12.0102
漫	-12.0103
尤重	-12.0103
三和合觸	-12.0104
場	-12.0104
橋	-12.0104
無如是義	-12.0104
例亦應然	-12.0104
寤	-12.0104
立果名	-12.0105
第九品惑	-12.0105
毱	-12.0106
念正智	-12.0106
曼馱多	-12.0107
無一補特伽羅	-12.0107
餘位不爾	-12.0107
故名阿毗達磨	-12.0108
正念正知	-12.0108
鉾	-12.011
有部答也	-12.011
胡	-12.011
不可見無對	-12.011
相無差別	-12.0111
由一切因	-12.0111
獨覺菩提	-12.0111
然無評家	-12.0111
江	-12.0113
遶	-12.0113
牟	-12.0113
若成就法智	-12.0113
出離遠離所生	-12.0113
秤	-12.0114
徐	-12.0114
已離第三靜慮染	-12.0114
取非至境	-12.0115
上三句	-12.0115
唯緣自地	-12.0115
若遠若近	-12.0116
吸	-12.0116
眼識所識	-12.0116
形貌	-12.0118
波旬	-12.0118
邪見撥無	-12.0118
靜慮無漏律儀	-12.0121
隨念分別	-12.0121
此釋不然	-12.0121
樂喜捨根	-12.0122
為助伴	-12.0124
集異門論	-12.0124
烈	-12.0125
苦類智斷	-12.0125
六善處	-12.0126
修所斷染	-12.0126
劫盜	-12.0128
出母胎	-12.0129
經多時	-12.0129
曾習	-12.013
心定不成就	-12.0131
鼓聲	-12.0132
亦可了知	-12.0132
顯彼對治	-12.0135
俱盧	-12.0135
散動	-12.0137
正在定	-12.014
到涅槃	-12.0141
還生色界	-12.0146
無所顧	-12.0148
無慚無愧不相應	-12.0149
漸現觀	-12.0149
無量空處	-12.0149
增長廣大	-12.015
三界見修所斷	-12.0152
清淨品	-12.0153
貪所繫	-12.0158
法界所攝	-12.0159
天雨	-12.0159
及修所斷隨眠	-12.016
共受用	-12.0166
下中品	-12.0167
我今應	-12.0169
修四行相	-12.0174
處中無表	-12.0176
當言為緣	-12.0177
通果心俱	-12.0177
由心力	-12.0181
最後解脫道中	-12.0183
近事戒	-12.0186
四天王天	-12.0195
神用	-12.0202
滅類智忍	-12.0204
第九品染	-12.0207
殖順解脫分	-12.0215
皆通二種	-12.0216
無煩天	-12.0222
法諸得俱起	-12.0232
於他有情	-12.0238
取為緣	-12.0242
發業心	-12.0263
戲笑	-12.027
一縷	-12.0275
同類遍行因	-12.0277
慈滿	-12.028
實事唯	-12.0282
初釋初句	-12.0284
極少八	-12.0286
嗔恚	-12.0291
有力能	-12.0291
欲界色界無色界	-12.0293
諸不還者	-12.0302
夜摩	-12.0305
不可稱	-12.0316
心中可得	-12.0317
見苦集斷	-12.0325
是彼對治	-12.0326
惡魔	-12.0329
名心隨轉	-12.0335
成就無色界繫善心	-12.0338
無明瀑流	-12.0345
具四緣	-12.0347
禮敬	-12.0348
巳知	-12.0354
色界繫法現在前	-12.0364
驚怖	-12.0364
堅持	-12.0369
微薄	-12.037
從此大文第	-12.0371
違本論	-12.0378
勸學	-12.0381
此心復從	-12.039
有一類補特伽羅	-12.0391
一起不滅	-12.0394
修道所斷使	-12.0398
彼根或緣	-12.0398
無為沙門果	-12.04
已修已息	-12.0404
能發語	-12.0405
何繫心心所滅	-12.0406
娑羅	-12.0417
尊者阿那律	-12.0418
住不律儀及非律儀非不律儀	-12.0419
無善身語表	-12.042
信等五三無漏根	-12.0423
傾向彼	-12.0423
以因緒緣故	-12.0423
戀	-12.0424
四身繫中	-12.0425
作威勢緣勝	-12.0428
發出度	-12.0429
及餘趣人	-12.043
逝	-12.0431
所修未來麁等三行相	-12.0431
慼行相轉	-12.0431
此中義意	-12.0432
白白異熟業	-12.0433
若言為我說	-12.0433
最廣	-12.0434
謂根見苦斷	-12.0434
幾根現前	-12.0435
是謂此處略毘婆沙	-12.0435
又六因中	-12.0435
過去空耶	-12.0435
煗頂忍世第一法	-12.0436
無垢人生無色界	-12.0437
類此應知	-12.0437
并學無學	-12.0437
正語正業正命正身除	-12.0437
欣慕	-12.0439
心善解脫	-12.0439
從彼處沒	-12.0439
百八受	-12.044
或執出離	-12.044
荒	-12.0441
因集生緣	-12.0441
順苦受觸	-12.0441
若生極光淨	-12.0441
訛	-12.0442
總相別相	-12.0442
俱舍頌疏記論本第	-12.0442
親近善知識	-12.0442
可意不可意	-12.0443
欲界繫見苦所斷心	-12.0443
造色色非可見色	-12.0443
非次第亦非次第緣緣	-12.0443
若成就善色	-12.0443
苦智習智	-12.0444
所修行道未知智	-12.0444
鞞婆沙論	-12.0444
如順正理	-12.0444
非有邊非無邊	-12.0445
非無記非無記為因	-12.0445
農夫	-12.0446
離三界染	-12.0446
奢摩他毘鉢舍那	-12.0446
此是佛經	-12.0447
九結所繫	-12.0447
卑賤	-12.0447
咸作是說	-12.0447
薩埵	-12.0447
金剛喻定現在前時	-12.0448
三阿僧祇劫	-12.0448
體未斷所緣未斷	-12.0449
不可說彼或彼或異	-12.0449
剃除鬚髮	-12.045
馳散	-12.0451
〕	-12.0451
七智知除苦集滅智	-12.0451
此例不然	-12.0452
見聞覺知	-12.0452
壓	-12.0452
推度性故	-12.0453
如前已釋	-12.0454
昨	-12.0454
遍知所緣故斷	-12.0454
誡	-12.0454
進斷餘結	-12.0454
如彼論說	-12.0454
校	-12.0454
初習業	-12.0455
姊妹	-12.0455
多諸過患	-12.0455
理不成立	-12.0455
閑靜	-12.0456
富異熟果	-12.0457
閡	-12.0457
吠	-12.0457
案	-12.0458
慇	-12.0458
丈	-12.0458
復次此四果位	-12.0458
號叫	-12.0458
生住老無常	-12.0458
經幾時	-12.0458
福非福	-12.0458
非極成故	-12.0459
●	-12.0459
十二有支	-12.0462
無漏斷得	-12.0462
一行半頌	-12.0463
炙	-12.0463
諸大聲聞	-12.0464
毛端	-12.0464
舉頌本	-12.0464
及根見集	-12.0465
如前已辨	-12.0465
琉璃	-12.0465
大目揵連	-12.0465
法捨意近行	-12.0465
淪	-12.0466
沈沒	-12.0466
向北	-12.0466
諸無色界繫有覆無記心	-12.0466
訓	-12.0467
識宿命智	-12.0467
盈	-12.0467
三十二字	-12.0467
云何當令	-12.0468
得生住老無常	-12.0468
西域記	-12.0468
鹵	-12.0469
生上三定	-12.0469
黠慧	-12.047
不一不異	-12.047
而不廣分別	-12.0471
易脫	-12.0472
貪慢結	-12.0472
窣	-12.0472
敷演	-12.0473
不移	-12.0474
下文云	-12.0475
是則不應	-12.0475
龜	-12.0476
雜心云	-12.0477
更互相依	-12.0478
經歷	-12.0478
婆沙一百八十	-12.0481
修妙相業	-12.0482
善現天	-12.0482
於此八智	-12.0482
聖者以世俗道	-12.0483
非趣攝	-12.0484
見滅道斷	-12.0485
藤	-12.0485
具五因	-12.0487
軟軟	-12.0487
現在未來四	-12.0487
能為障礙	-12.0488
伴類	-12.0489
金輪上	-12.049
若謂不然	-12.049
言非苾芻	-12.0491
諸有智者	-12.0491
斷一切及一切遍	-12.0494
受具戒	-12.0495
身口意業	-12.0496
所引契經	-12.0496
東南	-12.0497
須彌婁	-12.0498
半劫	-12.0499
是故無過	-12.05
可愛境	-12.05
憍陳那等	-12.05
戒執取	-12.0501
依心轉	-12.0503
文字	-12.0504
最上品	-12.0504
被障	-12.0505
爾時阿難	-12.0506
九隨眠隨增	-12.051
輪圍	-12.0512
第二第三禪	-12.0514
秦言	-12.0515
憶持	-12.0516
云何為六	-12.0516
犯重人	-12.0517
相續久住	-12.052
勝論師	-12.0522
前後相違	-12.0525
現法受	-12.0529
分折	-12.0531
說一切有部難	-12.0533
初無學心	-12.054
汝等應	-12.0541
魔軍	-12.0541
使盡作證	-12.0543
畜生趣	-12.0545
如次應知	-12.0546
依五地	-12.0549
獨覺乘	-12.055
何以知	-12.0551
成就眼界	-12.0554
亂倒	-12.0568
迷理	-12.0575
有覆無覆	-12.0581
二十一種	-12.0589
又於此中	-12.059
四聖諦理	-12.0591
詳其	-12.0591
互相似	-12.0595
四無色解脫	-12.0602
作苦邊際	-12.0604
八十一	-12.0612
知他有漏心	-12.062
全離染	-12.0623
彼根或因	-12.0635
無中夭	-12.064
正見正智	-12.0643
根境識三	-12.0654
智自遍知	-12.0663
非緣使亦非相應使	-12.0686
高廣	-12.0691
財供養	-12.0718
有漏緣使使	-12.0722
決了	-12.0736
十八界中幾	-12.077
二欲界見集所斷	-12.0772
臨入	-12.0772
何繫心心所現前	-12.0776
無漏果耶	-12.0779
一來不還	-12.0789
九根少分相應	-12.079
四結眠沒	-12.079
若前不生	-12.079
人若想憶想	-12.0791
調順	-12.0791
不說業相應非業相應	-12.0795
空三摩地已起滅不失	-12.0799
因者二因	-12.08
若空若無我	-12.08
五下分煩惱	-12.0801
謂生欲界住律儀	-12.0801
在此在彼	-12.0801
或九或十	-12.0802
見解射方便	-12.0802
不善非見斷	-12.0803
共曇摩崛多等譯	-12.0804
使斷智三結永盡	-12.0805
非生滅若未滅	-12.0807
法智比智等智	-12.0809
阿那般那	-12.0809
依無覺無觀三昧	-12.0809
式	-12.081
遍淨愛未盡	-12.081
四向四果	-12.0811
非不善亦非不善因	-12.0811
學六覺支	-12.0812
諸餘染污苦諦	-12.0812
悲喜捨	-12.0812
彼說未至言	-12.0813
沒欲界生時	-12.0814
心隨轉心不相應行	-12.0814
軌	-12.0815
不善心捨不成就得成就	-12.0815
攝種性諸根	-12.0816
處非處智力	-12.0816
潤益	-12.0817
色十一中	-12.0817
今次應辯	-12.0817
遊履	-12.0817
四十六心所	-12.0818
如伽他說	-12.0819
十六聖行	-12.0819
砂	-12.0819
如種子法	-12.0819
漏盡智證明	-12.0819
佐	-12.082
身語意妙行	-12.082
淳熟	-12.082
深坑	-12.082
離欲愛時	-12.082
或有沙門婆羅門	-12.082
所緣已斷其體已斷	-12.082
不招異熟	-12.0821
所修行苦法智	-12.0821
眠夢	-12.0821
所緣已斷其體未斷	-12.0822
如餘處說	-12.0822
奇哉	-12.0823
當言為因當言為緣	-12.0823
癈	-12.0824
同緣一境	-12.0824
及見苦集所斷非遍行	-12.0825
慈悲喜捨	-12.0826
沃	-12.0826
舊隨界	-12.0826
釋第一句	-12.0827
鐘	-12.0827
光澤	-12.0827
無始生死	-12.0827
我已修道	-12.0827
沙門法寶撰	-12.0828
萌	-12.0828
論意各別	-12.0828
未離第二靜慮染	-12.0829
彼異於彼	-12.0829
過去緣過去	-12.0829
躁	-12.0829
理且可然	-12.0829
成就欲界繫有覆無記心	-12.083
又若爾者	-12.083
阿闍梨	-12.083
隨流非流	-12.083
非常苦空非我	-12.083
條	-12.0831
起貪等貪	-12.0831
踊躍	-12.0831
番	-12.0832
善知心迴轉	-12.0832
藕	-12.0833
是隨眠性	-12.0834
欝單越	-12.0834
嚴具	-12.0834
愁惱	-12.0834
捐	-12.0834
刑	-12.0834
浪	-12.0834
闡	-12.0834
天帝	-12.0835
極微細故	-12.0835
諸思等思	-12.0835
卷第十四	-12.0835
黎	-12.0836
理亦不成	-12.0837
澡	-12.0837
茶	-12.0838
以四事故	-12.0839
由二因緣	-12.0839
欽	-12.0839
所起於法簡擇乃至毘鉢舍那	-12.084
訶厭	-12.084
蒲桃	-12.0844
半擇	-12.0844
無貪為體	-12.0845
邊際定力	-12.0845
現在緣現在	-12.0845
味相應初禪	-12.0846
有愛一分	-12.0846
已下半頌	-12.0847
依果報果	-12.0847
根本四靜慮	-12.0848
答互相攝	-12.0848
蓮華	-12.0848
頭痛	-12.0848
福業增長	-12.0848
災頂	-12.0849
宿住隨念智力	-12.085
於諸行中	-12.085
暫息	-12.0852
即於是處	-12.0852
貪瞋邪見	-12.0856
婆沙正義	-12.0857
心知分別	-12.0857
赫	-12.0858
有善巧作意	-12.0858
於諸法中	-12.0859
善阿世耶	-12.0862
莊嚴具	-12.0862
利刀	-12.0863
殺生業道	-12.0864
亦名出離	-12.0865
當知亦說	-12.0866
導引	-12.087
已盡地獄	-12.0873
幾有異熟	-12.0877
疎遠	-12.0878
天上人中	-12.0878
水土	-12.0881
無漏緣惑	-12.0883
交通	-12.0884
最大果	-12.0885
聞思慧	-12.0889
雜染清淨	-12.089
三世有異	-12.0892
覺察	-12.0892
壽異熟果	-12.0895
斷其命	-12.0896
大善地法十	-12.0898
一臘縛	-12.0899
善性攝	-12.0902
招愛果	-12.0904
眼能見色	-12.0905
世俗念住	-12.0906
別有實物	-12.0906
有心無心	-12.091
命終生無色界	-12.0917
方成業道	-12.0918
無作用故	-12.0919
所雜修	-12.0919
空無相無願	-12.0923
見道所斷有漏緣隨眠	-12.0931
青黃等	-12.0936
與正見相應	-12.0945
大文第二明	-12.0948
法他心智相應	-12.0949
設根緣	-12.0951
他界遍行	-12.0951
順決擇	-12.0955
從此大文第二	-12.0967
耳鼻	-12.0971
萬由旬	-12.0974
此下第三	-12.0974
四非三	-12.0977
證得擇滅	-12.0988
生色究竟	-12.0999
自妻	-12.1001
有為緣隨眠隨增	-12.1002
述曰此下釋	-12.1021
外仙	-12.1058
造色幾緣緣	-12.106
通見修所斷	-12.1086
緣識所增隨眠	-12.1088
欣尚	-12.1094
卷第十三	-12.1094
不敢	-12.1104
所住處	-12.1111
妙音	-12.1119
瞋恚蓋	-12.112
章及解章義	-12.1127
善及無記	-12.1134
千倍	-12.1138
尊者妙音	-12.1141
斷六品	-12.1142
不失則成就	-12.1165
破戒及起破戒煩惱	-12.1172
法為果則有	-12.1173
傾向寂靜	-12.1175
未來所修麁等三行	-12.1178
釋第六句	-12.1179
彼心與未來所修	-12.1181
虗	-12.1182
佗	-12.1183
生欲界戒律處	-12.1183
外觸身識所知	-12.1183
因者五因	-12.1184
滅現觀四心頃	-12.1185
不善非思惟斷	-12.1186
根力現在未來五	-12.1186
須陀洹果斯陀含果阿那含果	-12.1187
女根男根	-12.1187
見諦成就世尊弟子	-12.1188
為止彼意顯	-12.119
善業道俱生思究竟轉	-12.119
解脫勝處遍處	-12.119
非善非善為因	-12.119
緣學無學非學非無學者	-12.119
十大善地法	-12.1191
十七界十一處二蘊攝	-12.1191
解脫智見蘊	-12.1191
有已還無	-12.1191
及緣餘法法念住	-12.1192
有餘之說	-12.1193
無邊無際	-12.1195
齊限	-12.1196
定共戒	-12.1196
欲得修道	-12.1196
調練	-12.1197
依有覺有觀三昧	-12.1197
共味定	-12.1197
謂無緣根	-12.1197
雖作是說而不分別	-12.1198
習智已生	-12.1198
一切結盡遍知	-12.1198
八萬法蘊	-12.1199
與理相違	-12.12
大功用	-12.12
何理能遮	-12.1201
為一為異	-12.1201
覺隨轉心不相應行	-12.1201
謂除未來現前正起	-12.1201
尋與伺	-12.1201
□□	-12.1202
愛為起因	-12.1202
上座於此	-12.1203
作欲界語	-12.1203
破我品	-12.1203
篾	-12.1204
若以在身	-12.1204
證得無上正等菩提	-12.1205
所緣已斷及所緣未斷其體未斷	-12.1205
色界繫有覆無記心捨不成就得成就	-12.1205
不為因非不隨增	-12.1205
體未斷所緣已斷及所緣未斷	-12.1206
純熟	-12.1206
波羅提木叉	-12.1207
為欲顯示	-12.1207
祀	-12.1207
娶	-12.1208
受持讀誦	-12.1208
憍慢使	-12.1209
欲界法現在前	-12.1209
淳淨心	-12.1209
成就有漏無漏初靜慮	-12.1209
從此至彼	-12.1209
心明記性	-12.1209
答諸根緣	-12.1209
精勤修習	-12.121
耐	-12.121
煗頂忍	-12.1211
富異熟業	-12.1211
五十八法	-12.1211
成就無教耶	-12.1211
幾見非見處	-12.1212
某甲	-12.1213
百千萬	-12.1213
阿毘曇心論	-12.1213
激	-12.1214
朽敗	-12.1214
依經起問	-12.1214
曠野	-12.1215
諸餘法攝十	-12.1216
侶	-12.1216
閉尸	-12.1217
權	-12.1217
鎖	-12.1218
此言非理	-12.1218
奴	-12.1218
重累	-12.1219
泥犁	-12.1219
分位緣起	-12.1219
甞味	-12.1219
欲色二界一切遍使使	-12.122
不成就無色界繫善心	-12.122
就長行中	-12.122
不思議	-12.1221
六十四劫	-12.1221
見色聞聲	-12.1221
燥	-12.1221
謂無漏忍	-12.1221
出現於世	-12.1222
熱鐵丸	-12.1222
若麁若細	-12.1222
觀無常苦空無我	-12.1223
展轉相對	-12.1223
受陰想陰行陰	-12.1223
三界二入四陰	-12.1223
經中所說	-12.1224
生如是疑	-12.1225
雖有此理	-12.1226
經部諸師	-12.1227
樹木	-12.1227
耕	-12.1227
多羅樹	-12.1228
具壽當知	-12.1228
易地捨	-12.1228
鉢羅	-12.1228
髀	-12.1228
導養身	-12.1228
歸依僧	-12.1228
糞土	-12.1229
敏	-12.123
無八除入	-12.1231
色界生長有學異生	-12.1231
盈滿	-12.1231
知言不知	-12.1231
破僧罪	-12.1235
答後問	-12.1236
彼說不然	-12.1236
糧	-12.1236
自識宿命	-12.1236
雅	-12.1236
照了	-12.1237
憂悔	-12.1237
泛明	-12.1237
鉢特摩	-12.1241
極相違故	-12.1246
略有三種	-12.125
四識識	-12.1254
置記	-12.1254
學徒	-12.1257
隨應當知	-12.1263
乃至未捨	-12.1263
七等覺支	-12.1268
非所緣縛亦非相應縛	-12.1269
斷九種結	-12.1273
何咎	-12.1274
復云何知	-12.1277
法住法	-12.128
成已住	-12.1283
慚羞	-12.1283
或根緣	-12.1285
有增上力	-12.129
各有九品	-12.1292
第三識住	-12.1296
無學作意相應	-12.1299
一切有宗	-12.1305
名正性	-12.132
不待客因	-12.1325
此中何者是	-12.1326
邪見能斷善根	-12.1328
無實樂	-12.1337
殺盜	-12.1362
各立一	-12.1363
應立為根	-12.1364
作斯論	-12.1374
述正義	-12.1375
可破壞	-12.1376
修所斷結盡	-12.1409
成就無色界繫無覆無記心	-12.1421
若得不失	-12.1458
滅法忍	-12.1482
百大劫	-12.1518
與思俱轉	-12.1523
若法智已	-12.153
十二入幾	-12.1549
下兩句明	-12.1551
意法為緣	-12.1554
謂相應俱有同類	-12.1556
若智見解脫方便	-12.1571
心等無間法	-12.1571
心觸名觸	-12.1572
或成就或不成就	-12.1573
未生未出	-12.1574
命等八根	-12.1575
狎	-12.1577
無善身表	-12.1578
若諸異生住胎	-12.1581
見滅道所斷見結不相應法	-12.1582
未離無色染	-12.1583
聲音句言語口教	-12.1585
正斷神足現在未來四	-12.1585
分或見斷或思惟斷	-12.1586
如實觀苦集滅道	-12.1586
已說自性所以今當說	-12.1586
謂順現法受等	-12.1587
非心因法	-12.1587
若未已滅	-12.1587
諸宿住事	-12.1588
非田非器	-12.1588
隨造因	-12.159
由九根得	-12.159
欲令無如是過故	-12.159
亦得滿名	-12.1591
溉	-12.1592
已了別非今了別或當了別或不當了別	-12.1592
離欲界乃至無所有處染	-12.1593
先起滅者	-12.1594
施設論說當云何通	-12.1594
傍論已了	-12.1595
迦旃延	-12.1595
即是勸人	-12.1596
復次勸出家者	-12.1596
非業亦非業報	-12.1597
若住別解脫律儀	-12.1598
其體已斷耶	-12.1598
係	-12.1598
訶毀	-12.1598
唯人三洲	-12.1598
謂根修斷	-12.1598
種解脫分善	-12.1598
次四解脫	-12.1599
謂已斷善根	-12.1599
設盡便失	-12.16
彼相應行陰	-12.16
位修練根時	-12.16
苦集忍智	-12.16
斷上七地	-12.16
瘂	-12.1601
空無邊處諸行滅	-12.1601
於五見何見攝	-12.1601
靜慮解脫等持等至	-12.1602
能起此定	-12.1602
卷第十六	-12.1603
惛掉	-12.1603
意識身相應	-12.1603
毒蛇	-12.1603
無數劫	-12.1603
慈愍	-12.1604
卷第十七	-12.1604
雄	-12.1604
斷眾生命	-12.1604
信解脫見到	-12.1604
及相應根	-12.1604
教非無教	-12.1604
幾有漏幾無漏	-12.1604
罽賓	-12.1604
是了義說	-12.1605
答此增語所顯	-12.1605
勤䇿	-12.1605
卷第十五	-12.1605
過殑伽沙	-12.1605
堅軟	-12.1606
渡河	-12.1606
此師意	-12.1606
修超等至	-12.1606
鳩摩羅	-12.1608
謗滅邪見	-12.1608
點了	-12.1608
隨有所闕	-12.1608
飛鳥	-12.1608
若本得若本不得世俗智現在前	-12.1609
現無身表	-12.1609
泰	-12.161
昧鈍	-12.1611
硬	-12.1611
樂根苦根	-12.1611
擁	-12.1611
毀呰	-12.1611
挽	-12.1611
須陀洹斯陀含阿那含	-12.1611
婬怒癡	-12.1612
眼等四根	-12.1612
佛及弟子	-12.1612
則為唐捐	-12.1612
教誡示導	-12.1612
曾見梵王	-12.1612
靜室	-12.1612
遠塵離垢	-12.1612
從三根生	-12.1612
事成究竟	-12.1612
只	-12.1613
雨際	-12.1613
有一說者	-12.1613
渠	-12.1613
月九日	-12.1614
悴	-12.1614
胸	-12.1614
杜多功德	-12.1615
菴羅	-12.1615
祈	-12.1615
鳩	-12.1616
為攝散動馳流心	-12.1616
繼	-12.1616
必無退理	-12.1617
復進修行此定方便	-12.1617
由心安住等住近住	-12.1617
謂於加行所引生道	-12.1617
童女	-12.1617
脩所斷	-12.1618
於彼愛未盡	-12.1618
等謂等取	-12.1618
裟	-12.1618
咀	-12.1618
絲	-12.1618
吼	-12.162
先凡位	-12.162
說性已	-12.162
供給	-12.162
斗	-12.1622
智知除知他心智及滅	-12.1622
業之道	-12.1622
前兩句	-12.1622
緣欲界繫色界繫無色界繫	-12.1622
魅	-12.1622
憤發	-12.1622
詣佛所	-12.1623
何理相違	-12.1624
脣	-12.1624
佛涅槃後	-12.1624
司	-12.1625
難測	-12.1625
西國	-12.1626
刻	-12.1626
滴	-12.1626
遏	-12.1626
敬養	-12.1627
寶法師	-12.1627
多財釋	-12.1628
供奉	-12.1628
糜	-12.1628
相與所相	-12.1629
的	-12.1629
修彼道時修一意止現在前	-12.163
住中有位	-12.1631
慰喻	-12.1632
上兩句明	-12.1633
自下一頌	-12.1635
驗	-12.1637
善故名福	-12.1637
屋舍	-12.1638
第一雙	-12.1638
一切生分	-12.1638
親族	-12.164
齊量	-12.164
和合聚中	-12.164
四蘊為性	-12.1641
鬪亂僧	-12.1642
具五支	-12.1643
居止	-12.1643
順決擇分善根	-12.1644
論主破云	-12.1645
有想無想天	-12.1646
逼害	-12.165
成就過去所造色	-12.1651
反徵	-12.1651
非修地	-12.1653
殺生罪	-12.1653
於是比丘	-12.1654
以何為體	-12.1654
翻入無	-12.1655
萬物	-12.1656
設有過去未來	-12.1662
離彼欲	-12.1665
隔遠	-12.1667
妃	-12.167
十五日	-12.168
耳聞聲	-12.1681
非染污故	-12.1682
誦習	-12.1683
相符	-12.1691
即聖者依	-12.1696
自下第四	-12.1704
無漏意思惟相應	-12.1714
阿耨多羅三藐三菩提	-12.174
牽引業	-12.1742
兩句答初問	-12.1745
受欲界生	-12.1756
見集斷一切遍	-12.1767
集類忍	-12.1768
即由此因	-12.1769
千由旬	-12.1773
知他人心智七	-12.1775
通果無記	-12.1778
己宗	-12.1783
九眾生居	-12.1785
表及無表	-12.1798
生果功能	-12.1801
十四隨眠	-12.1808
垢穢	-12.1809
四萬劫	-12.1814
不信不相應	-12.1825
眼耳鼻舌	-12.1838
從彼沒	-12.1849
無色界繫善業	-12.1867
定非見斷	-12.187
眼耳鼻	-12.1884
色界有相續	-12.1886
宿住隨念	-12.1925
明分觸	-12.1947
四法忍	-12.1948
阿練若處	-12.195
百六十四	-12.195
搖	-12.1968
一時頓	-12.1976
小煩惱地	-12.1979
因集法智斷	-12.1984
大不善地	-12.1985
意業由意生受想思觸思惟	-12.1986
作四行相中隨一行相得阿羅漢果	-12.1991
善思惟善解	-12.1995
貪欲瞋恚愚癡	-12.1996
止他宗顯己義故	-12.1996
修餘功德	-12.1997
入現觀道類智時	-12.1998
為止彼執顯	-12.1999
色界生長補特伽羅	-12.2
他界地緣遍行隨眠	-12.2
先有善身表不失	-12.2
二定已上	-12.2
為遮彼執	-12.2001
共生因中因	-12.2001
及二相應根	-12.2002
諸法彼心相應彼俱有	-12.2003
勝知勝見	-12.2003
離第四禪欲	-12.2003
法智乃至道智	-12.2003
及無覆無記識	-12.2003
非理所引意業	-12.2004
迦濕彌羅國諸論師言	-12.2005
煖頂忍世第一法	-12.2005
名斷名離名滅名諦	-12.2006
魔梵	-12.2008
義是蓋義	-12.2008
悅喜心除欲不放逸心捨	-12.2008
依四或未至	-12.2008
有能了別欲界繫色界繫	-12.2009
意界法界意識界	-12.201
十五我所見	-12.201
同類遍行二因	-12.201
眼觸苦受	-12.2011
澁滑	-12.2011
文中有四初	-12.2011
身受心念住及緣餘法法念住	-12.2012
及增長時	-12.2012
邪見見取戒禁取	-12.2013
離識無邊處染	-12.2013
歡行相轉	-12.2013
天魔梵等	-12.2013
離自地染	-12.2014
非無記亦非無記因	-12.2014
非數緣滅	-12.2014
拳	-12.2015
無明所盲	-12.2015
異熟果心不現在前	-12.2015
此世他世	-12.2016
有三有為之有為相	-12.2016
次應廣釋	-12.2016
近因等起	-12.2016
造色色非有對色	-12.2016
我食此食	-12.2016
即彼隨眠若不緣此	-12.2016
有行般	-12.2017
髮毛爪齒	-12.2017
第十六道類智	-12.2017
死後斷滅	-12.2018
彼作經者意欲爾	-12.2018
好醜	-12.2019
凡夫人生無色界	-12.2019
七無記處	-12.2019
尋不相應伺	-12.2019
暖頂	-12.202
死此生彼	-12.202
若習若修	-12.202
凶	-12.2021
眾事分阿毘曇論	-12.2021
憎嫉	-12.2022
誓多林	-12.2022
見道修所斷一切隨眠	-12.2022
懷猶豫	-12.2023
彼初靜慮身	-12.2023
喬底迦	-12.2024
鼻識舌識	-12.2024
金錢	-12.2024
有間隙	-12.2025
立業道名	-12.2025
羞恥	-12.2025
大名經	-12.2026
舉初顯後	-12.2026
歡悅	-12.2026
蕩	-12.2026
舍宅	-12.2026
身身觀意止	-12.2026
欲色界無覆無記	-12.2027
六智知除他心苦集	-12.2027
乍	-12.2027
起欲發勤精進策心持心	-12.2027
所以先明	-12.2027
省	-12.2027
孝	-12.2027
以無心故	-12.2028
十界四處五蘊攝	-12.2028
若本不得無漏智現在前	-12.2028
藪	-12.2028
依如是理	-12.203
無味受	-12.203
誅	-12.2031
栗	-12.2031
賓	-12.2031
所造色為幾緣	-12.2031
迦延	-12.2032
詠	-12.2032
精勤數習此加行已	-12.2033
思惟此相精勤勇猛	-12.2033
緣攝助	-12.2033
此非正義	-12.2033
幸	-12.2033
聰	-12.2034
執藏防護	-12.2034
嚼	-12.2034
麁淺	-12.2034
奇特	-12.2034
總有幾種	-12.2034
歸佛法僧	-12.2035
無厭足	-12.2036
貪慢無明	-12.2036
隨心轉心不相應行	-12.2038
輪轉生死	-12.2039
通伏難	-12.2039
慢緩	-12.204
掃	-12.204
頂禮	-12.204
無如是能	-12.204
禮拜	-12.204
聲聞種性	-12.2041
未曾習	-12.2042
如實義者	-12.2042
來詣	-12.2042
駄	-12.2043
掣	-12.2043
棘	-12.2043
繁廣	-12.2043
闇昧	-12.2043
六十二界	-12.2044
筏蹉	-12.2044
謂所說語	-12.2044
蟣	-12.2044
資段食	-12.2045
妹	-12.2045
樂故心定	-12.2046
虱	-12.2046
制怛羅	-12.2046
八界二入四陰	-12.2047
支提	-12.2049
其理決定	-12.205
青光	-12.205
末陀	-12.2051
覽	-12.2052
類亦應然	-12.2052
多有所作	-12.2054
初禪第二禪	-12.2058
亦名為遠	-12.2062
牛主	-12.2063
勤修習	-12.2068
趣向涅槃	-12.2073
所以後說	-12.2074
可移轉	-12.2074
不苦不樂報	-12.2075
若一現在前	-12.2082
引經難	-12.2085
違自宗	-12.2094
立足處	-12.2094
老病	-12.2094
增長分智	-12.2098
瞋不善根	-12.2116
俱住法	-12.212
先對過去	-12.2131
不可見有對	-12.2144
戒道使	-12.2151
與見相應	-12.2152
所不攝無漏慧	-12.2169
迫	-12.2178
集滅道諦	-12.2185
以如是因	-12.2219
識身經	-12.222
無貪無瞋	-12.2246
流至此	-12.229
因滅法智斷	-12.2312
入一陰攝	-12.2317
普於一切	-12.2357
集諦繫非根法	-12.236
一行相現在修未來	-12.2361
衰老	-12.2368
滅諦繫非根法	-12.2391
次對過去	-12.2404
色界纏退時	-12.2406
六結眠沒	-12.2408
若退若勝進	-12.2422
得無漏智現在前	-12.2424
應捨置記	-12.2425
欲界修所斷善識	-12.243
無不善身語表	-12.243
無色界修所斷善識	-12.243
色無色界四部	-12.243
盡諦道諦所斷	-12.243
見苦集滅道所斷	-12.2431
能俱修時	-12.2434
三重三摩地	-12.2435
已得世俗智現在前時	-12.2435
若依漏盡身故則	-12.2435
結不悉盡	-12.2436
斷蓋制纏	-12.2436
因境斷識	-12.2437
練根作見至	-12.2437
眼根乃至無色界修所斷無明隨眠斷道	-12.2438
七結眠沒	-12.2438
同異句義	-12.2438
設得便失	-12.2439
九十八使盡作證九結永盡	-12.2439
忿怒	-12.2439
彼定不成就過去未來八	-12.244
善染污不隱沒無記	-12.244
定不當退	-12.2441
令身不現	-12.2441
生欲界若梵天上	-12.2441
彼成就四大耶	-12.2441
眼觸樂受	-12.2442
緣自他相續	-12.2442
識身論說	-12.2442
九結眠沒	-12.2443
竊盜	-12.2443
五順下分結盡遍知	-12.2443
見苦集所斷不遍行隨眠	-12.2443
閣	-12.2444
十善大地	-12.2445
優波提舍	-12.2445
見滅斷邪見相應無明	-12.2445
宴坐	-12.2446
名色六處觸受	-12.2447
評曰彼不應作是說	-12.2447
亦有色亦無色	-12.2447
沙門梵志	-12.2447
隨眠故名有隨眠心	-12.2447
圍	-12.2447
順後受	-12.2447
尊者覺天作如是說	-12.2447
欲令此疑得決定故	-12.2447
亦有邊亦無邊	-12.2448
項	-12.2448
三類智邊	-12.2449
不到欲到不獲欲獲不證欲證	-12.2449
卷第十八	-12.2449
眼緣色生眼識	-12.2449
若不同界遍行隨眠	-12.2449
俱分解脫	-12.2449
依七或未至	-12.245
尊者妙音亦作是說	-12.245
隨業轉非業	-12.245
漢	-12.2451
或是等無間非等無間緣	-12.2451
領納隨觸	-12.2451
佞	-12.2452
斯有是處	-12.2452
正見乃至正定	-12.2452
既生彼已唯受	-12.2452
若他隨眠	-12.2452
迫迮	-12.2452
一切染污心無記心	-12.2452
以如是等事故	-12.2452
不善根能斷善根	-12.2452
慧解脫俱解脫	-12.2453
如何乃說	-12.2454
若所餘緣	-12.2454
信等八根	-12.2454
與憂根相應	-12.2454
開悟	-12.2455
順暴流非暴流	-12.2455
道忍道智	-12.2456
九地類智品道	-12.2456
肥	-12.2456
嫁	-12.2457
隨心轉亦受相應	-12.2457
內入所攝	-12.2457
逝多林	-12.2458
非增長分	-12.2458
反詰記	-12.2458
顛墜	-12.2458
剪	-12.2458
從四因生	-12.2459
初習業位	-12.2459
心住等住	-12.2459
差別因緣不可得故	-12.2459
獲大果	-12.2459
何故乃言	-12.2459
旃荼羅	-12.246
理善成立	-12.246
於法簡擇	-12.246
是果亦有果	-12.246
盡形壽	-12.246
倍倍增	-12.246
答第三問	-12.246
乳房	-12.246
七界一處一蘊攝	-12.246
電光	-12.2461
訊	-12.2461
伸	-12.2461
瞋恚身縛	-12.2461
名梵輪	-12.2462
信解見至	-12.2462
卷第一百五	-12.2462
喜即喜受	-12.2462
喧	-12.2462
四分律	-12.2462
居士子	-12.2462
由法爾力	-12.2462
應說有未來	-12.2462
若爾何失	-12.2463
紛	-12.2463
問及頌答	-12.2463
蝦	-12.2463
依勝義理	-12.2464
旋環	-12.2464
能盡諸業	-12.2464
既不許然	-12.2465
隨信法行	-12.2465
遲鈍	-12.2465
裁	-12.2465
依何義立	-12.2465
應說有過去	-12.2465
適悅	-12.2465
通緣三界	-12.2465
如汝所說	-12.2466
如法修行	-12.2466
雜阿毘曇心論	-12.2466
授決	-12.2466
多用功力	-12.2466
既於加行所引生道	-12.2468
達磨	-12.2468
學所學	-12.2469
心便安住等住近住	-12.2469
裸形	-12.2469
略而不說	-12.247
溫	-12.247
寐	-12.247
證解脫得	-12.2471
累	-12.2471
僕	-12.2471
浸	-12.2471
落謝過去	-12.2472
非所問故	-12.2472
釋第五句	-12.2472
後識不生	-12.2472
生於天中	-12.2472
指節	-12.2473
鈴聲	-12.2474
訪	-12.2475
冷飢渴	-12.2475
珠寶	-12.2475
契經復說	-12.2475
躬	-12.2476
!」「	-12.2476
江河	-12.2477
厭患對治	-12.2477
鬚	-12.2477
校量	-12.2477
後半第九日	-12.2477
逝宮	-12.2477
洞	-12.2478
妙相業	-12.2478
能詮定量	-12.2478
由此已遮	-12.2478
諫	-12.2479
十惡業道	-12.2479
悲喜護	-12.248
欝多羅	-12.248
必無是處	-12.248
長壽久住	-12.2481
計度分別	-12.2482
起煩惱退	-12.2482
擣	-12.2484
無貪無恚無癡	-12.2484
非諦攝	-12.2488
甚深阿毘達磨	-12.2488
鋒	-12.2489
如是一切略為一聚	-12.2489
醉亂	-12.2489
成就男根	-12.249
及未來非過去	-12.2491
獵師	-12.2493
不威儀亦	-12.2493
者唯造作	-12.2496
三攝四	-12.2497
彰顯	-12.2502
法及諸法必不	-12.2503
是陰義	-12.2504
月十五日	-12.2509
是此所問	-12.2511
食噉	-12.2515
小三災	-12.2518
成食事	-12.2522
天及人	-12.2522
故最後說	-12.2525
製造	-12.2533
破壞僧	-12.2545
隨信隨法行現觀邊	-12.2547
狀貌	-12.255
業道與思俱轉	-12.2558
次第緣威勢	-12.2563
法空三摩地相應	-12.2577
永拔	-12.2588
斷欲修斷	-12.2596
麥芽	-12.2606
如向所	-12.262
可毀壞	-12.2626
能起身口業	-12.2637
初靜慮具足住	-12.2737
集類智忍	-12.2752
感心受	-12.2753
種殖	-12.2754
佛於經中	-12.2805
有前生愛結未斷	-12.2825
婆沙問云	-12.2842
是故得作	-12.2844
無餘身涅槃界	-12.2859
離無所有處欲	-12.2876
此實執身繫	-12.2878
若異生住胎	-12.2879
根集法智斷	-12.2879
謂根苦法智斷	-12.288
此想與定共生共住共滅	-12.2881
此一智謂世俗	-12.2884
次對過去未來現在	-12.2885
受想乃至煩惱使	-12.2887
名者名曰名	-12.2887
已離無色染	-12.2888
摩㝹摩	-12.2889
欲界見集所斷一切	-12.2889
俱不修時	-12.2889
由一切支	-12.289
設滅已失	-12.289
此中何以不說	-12.289
為令疑者得決定	-12.289
是不善根義	-12.289
謂於此事有愛結前生未斷	-12.2892
現有善身表	-12.2892
次第境界威勢緣	-12.2893
有成就善色	-12.2893
法觀法行	-12.2894
自性念生智	-12.2894
正學正生	-12.2894
現前行退	-12.2894
修道所斷染污智慧	-12.2895
諦時四心頃	-12.2895
界一入一陰攝	-12.2896
喜根憂根捨根	-12.2896
我物自體相分本性	-12.2896
卷第一百一	-12.2896
十法成就墮地獄速如𥎞	-12.2898
或善或不善或無記	-12.2898
捷	-12.2898
非味相應非無漏耶	-12.2898
歌詠	-12.2898
色界歿生色界	-12.2898
皆容緣故	-12.2899
何以作此論	-12.2899
不成就學根得學根	-12.29
起三無量	-12.29
卷第一百八	-12.29
答應說而不說者當知此義有餘	-12.2901
阿浮陀	-12.2901
樂斷樂修	-12.2901
尊者僧伽婆修	-12.2901
前興未盡	-12.2901
梵世愛盡	-12.2901
耻	-12.2901
眼及色為緣生眼識	-12.2902
卷第一百九	-12.2902
不隱沒無記智慧	-12.2902
答彼作論者意欲爾故	-12.2904
能斫所斫	-12.2904
卷第一百三	-12.2904
大目乾連	-12.2904
感非愛異熟	-12.2904
由此因緣故作斯論	-12.2904
得分別慧	-12.2905
除其自體	-12.2905
慳惜	-12.2905
單緣識	-12.2905
三和合故觸	-12.2905
譬如農夫	-12.2905
彼等起身語業	-12.2906
非暴流非順暴流	-12.2906
心如實知是內	-12.2906
世有一類補特伽羅	-12.2907
黑白黑白異熟	-12.2907
卷第一百四	-12.2908
生不共住不共滅	-12.2908
十力四無所畏	-12.2908
從障解脫	-12.2908
暇	-12.2908
識無邊處諸行滅	-12.2909
色等六境	-12.2909
嘉苗	-12.2909
意捨信等五根	-12.2909
脊	-12.2909
隨尋轉身語業	-12.2909
更互相望	-12.2909
以實而言	-12.291
若眾生於地獄中	-12.291
蹔	-12.291
稽	-12.291
卷第一百七	-12.291
總緣共相法念住	-12.291
思之可知	-12.291
善因非善	-12.2911
若別分別	-12.2911
民	-12.2911
及彼眷屬	-12.2911
踐	-12.2911
杵	-12.2912
曠	-12.2912
是心所與心相應	-12.2912
虗空非擇滅	-12.2913
欲界繫善心捨不成就得成就	-12.2913
法法觀意止	-12.2913
理亦無違	-12.2913
將命終時	-12.2913
及不染污有漏	-12.2914
非此所明	-12.2914
受諸劇苦	-12.2914
倡	-12.2914
從滅定起	-12.2915
歎譽	-12.2915
若行若住	-12.2915
徵責	-12.2915
五染污見	-12.2915
有勝有劣	-12.2915
追憶	-12.2916
摩納婆	-12.2916
映蔽	-12.2916
僻執	-12.2916
乖反	-12.2916
詭	-12.2916
誹謗違越拒逆	-12.2917
當言樂根相應	-12.2917
斷樂斷苦	-12.2917
婁	-12.2917
日後分	-12.2917
空無邊處愛盡	-12.2917
佛經云何通	-12.2917
有十五種	-12.2918
少所入	-12.2918
此即異生聖者	-12.2918
雹	-12.2918
慳悋	-12.2918
茅	-12.2918
以少從多	-12.2919
謂眼識耳鼻舌身意識	-12.2919
徵詰	-12.2919
鶴	-12.292
而行惠施	-12.292
卷第一百二	-12.292
尊者法救	-12.292
謂修所斷十隨眠	-12.292
七智知除他心滅道	-12.2921
波羅提木叉護	-12.2921
院	-12.2921
沐浴	-12.2922
我當為說	-12.2923
准前應說	-12.2923
立如是論	-12.2924
義是處義	-12.2924
芻	-12.2925
捺	-12.2925
琴	-12.2926
合為十	-12.2926
三耶三佛	-12.2926
答彼法或	-12.2927
十二分教	-12.2927
隣阿伽色	-12.2927
蟻卵	-12.2927
是善是常	-12.2927
牒前問起	-12.2928
所依及所緣	-12.2928
為有為無	-12.2929
逃	-12.2929
謂見所不攝無漏	-12.2929
上下傍布無二無	-12.2929
妄增益	-12.2929
十八意行	-12.2929
自界緣惑	-12.293
表釋迦遺法弟子	-12.293
風飄	-12.2931
六智知除知他心智及苦集	-12.2931
此能緣識	-12.2932
餘不相攝	-12.2933
作中四句	-12.2933
諸法法智相應	-12.2933
依契經故	-12.2934
又此定中	-12.2934
此道名為能	-12.2934
犬	-12.2934
麗	-12.2934
消化	-12.2935
二智知謂	-12.2935
雁	-12.2936
利他德	-12.2937
馳求	-12.2939
紙	-12.2939
嗢遮	-12.2941
琰魔王	-12.2943
三劫無數	-12.2944
史	-12.2946
意更愛	-12.2947
想思觸思惟覺觀解脫	-12.295
非等分	-12.295
彼見世間	-12.2951
慈心定加行	-12.2953
亦捨亦得	-12.2953
題	-12.2956
闕緣不生	-12.2963
次三句	-12.2965
隣逼	-12.2971
彼欲界意	-12.2993
無涅槃法	-12.3007
卷第一百六	-12.3007
而不說者當知此義有餘	-12.3015
想行識	-12.3021
災所壞	-12.3069
敢	-12.3086
論主徵	-12.3097
立通名	-12.3098
爾焰	-12.3104
且初第一	-12.3116
無貪無瞋無癡	-12.3118
無所有處諸行滅	-12.3144
告諸比丘	-12.3153
宗所許	-12.3156
說有去來	-12.3161
移動	-12.3179
此下第四明	-12.3199
增長分定	-12.325
思惟非想非非想處諸行	-12.3314
心及心所	-12.3321
為止他宗顯正義故	-12.3324
七根滅起	-12.3325
憍陳那	-12.3333
即此無間能生	-12.3335
爾炎	-12.335
尊上寂靜	-12.3356
九十二隨眠	-12.3358
界見苦集修所斷三部	-12.3359
苦集道智品無漏識	-12.336
色界見集所斷遍行隨眠相應識	-12.3361
阿毘達磨發智論	-12.3362
自體於自體	-12.3362
眼耳身觸所生愛身	-12.3363
有覆無記身語表	-12.3365
與心迴轉	-12.3365
導養	-12.3365
見道中十五心頃	-12.3365
非三摩地俱	-12.3366
開聖道門	-12.3366
不用處愛盡	-12.3366
饕	-12.3366
身見疑戒盜	-12.3366
阿迦尼吒	-12.3367
未離上染	-12.3367
大與所造	-12.3368
嫉結慳結	-12.3368
非苦非樂受	-12.3369
香入味入	-12.337
嗅甞覺	-12.337
卷第十九	-12.3371
甚深微妙大法光明	-12.3371
餮	-12.3371
結蘊第二中十門納息第四之	-12.3372
專一境	-12.3373
繫念眉間	-12.3375
鼻根舌根	-12.3375
未來現前必起	-12.3375
評曰不應作是說	-12.3375
超作意位	-12.3375
前不興	-12.3375
復次若處有	-12.3375
武	-12.3375
有所緣無所緣	-12.3376
優婆夷	-12.3376
此增上慢何緣	-12.3376
是此論根本	-12.3376
於八智中	-12.3376
本無今有有已還無	-12.3377
人不可退	-12.3377
蘊在心中	-12.3377
罽賓沙門	-12.3378
頂忍世第一法	-12.3378
染惱心	-12.3379
見滅道所斷有漏緣隨眠	-12.3379
不善因非不善	-12.3379
八道種	-12.338
女身所起煖	-12.338
無形二形	-12.338
謂欲界生長未離欲界貪	-12.338
尊者和須蜜	-12.3381
無貪無瞋正見	-12.3381
少淨天	-12.3381
本興未盡	-12.3381
尊者世友造三藏法師玄奘奉詔譯	-12.3382
非覺隨轉亦非觀相應	-12.3382
彼成就過去空耶	-12.3382
嘉	-12.3382
上流往色究竟	-12.3383
殷	-12.3383
有能了別無色界繫	-12.3383
甚深故難見	-12.3383
種類分同	-12.3383
餘殘三行	-12.3384
有別實物	-12.3384
今世後世	-12.3384
去來二世	-12.3384
8	-12.3384
嫉與慳	-12.3385
勤修厭捨	-12.3385
眠沒幾結	-12.3385
三和合故有觸	-12.3386
無量解脫勝處遍處	-12.3386
影光明闇	-12.3386
既生彼已	-12.3386
有自在力	-12.3387
躭	-12.3387
何以但說	-12.3387
餘經復說	-12.3388
保延三年	-12.3388
著衣持鉢	-12.3389
俱舍論疏卷第二十	-12.3389
憎嫌	-12.3389
色界繫善心捨不成就得成就	-12.3389
一時薄伽梵在室羅筏	-12.3389
勢力微劣	-12.3389
文中初牒	-12.339
名不雜緣	-12.339
掉悔蓋	-12.339
欲說何者	-12.339
或少或多	-12.339
非心非心所非心相應	-12.3391
如是之言亦不可說或彼或異	-12.3391
興衰	-12.3391
咸作是言	-12.3392
漏盡智證通	-12.3392
多聞聖弟子	-12.3393
准彼論文	-12.3393
陰入界	-12.3393
謙	-12.3394
智觀所化生	-12.3394
僻	-12.3395
訓誨	-12.3395
寡	-12.3395
虛偽	-12.3396
已種相身	-12.3396
安般念	-12.3396
佛在世時	-12.3396
不獲聖法	-12.3396
佛及獨覺	-12.3396
同分及命	-12.3396
唐捐其功	-12.3397
所修行忍	-12.3397
聾	-12.3397
趣苦滅道聖諦	-12.3397
華鬘	-12.3397
言過去無	-12.3397
彈斥	-12.3397
色聲香味細滑	-12.3398
賢聖默然	-12.3398
皇	-12.3398
買	-12.3398
牛馬	-12.3398
婆藪盤豆造陳天竺三藏真諦譯	-12.3399
修得天眼	-12.3399
猶存	-12.3399
緣緣樂根	-12.3399
優波婆娑護	-12.34
為活命故	-12.34
煎	-12.34
夜漸增	-12.34
濡	-12.3401
四靜慮四無色	-12.3401
坌	-12.3401
牛糞	-12.3401
相繫念思惟	-12.3401
故不應難	-12.3401
狐	-12.3401
尊者迦旃延子	-12.3402
能遮礙	-12.3402
勃	-12.3402
略為一聚	-12.3402
參差	-12.3403
踊	-12.3403
大德法救	-12.3403
馳走	-12.3403
如偈言	-12.3403
欲無無表離表而生	-12.3404
所施田	-12.3404
恭敬供養	-12.3405
涸	-12.3405
通見修斷	-12.3405
朋友	-12.3405
睺	-12.3405
為簡彼故	-12.3405
如來死後	-12.3406
洗足	-12.3406
非無常想生	-12.3407
捶打	-12.3407
曉	-12.3408
暮	-12.3408
四大王天	-12.3409
亦未名入	-12.3409
同部同品	-12.341
屎	-12.341
瑕	-12.341
闇鈍	-12.3411
庶	-12.3411
張	-12.3412
墨	-12.3412
滋長	-12.3414
平坦	-12.3414
驅役	-12.3414
未知智未生	-12.3415
水陸	-12.3415
甘蔗	-12.3418
潛	-12.3418
有部難也	-12.342
骨肉	-12.3421
林藤	-12.3422
有味受	-12.3422
由一增上緣	-12.3425
強弱	-12.3428
殑伽河	-12.343
謂彼天處	-12.3432
世親菩薩	-12.3435
莊	-12.3439
在家出家	-12.3442
色界遍行及修所斷隨眠隨增	-12.3454
有癡心	-12.3462
後身菩薩	-12.3465
迦濕彌羅國毘婆沙師	-12.347
樂等五受	-12.3471
道等四行	-12.3474
勝論外道	-12.3481
諸根見苦斷緣	-12.3481
居阿練若	-12.3495
緣道法智斷	-12.3496
牒救	-12.3515
界繫遍行隨眠及彼相應等法	-12.3538
所斷染污智慧	-12.3543
欲界及初靜慮	-12.3573
知老死滅	-12.3586
知他無漏心	-12.3597
及色界生長	-12.3607
六萬劫	-12.3659
有何勝利	-12.3692
科	-12.3716
為遮彼意	-12.3743
善亦善因	-12.3774
無貪無恚	-12.3814
有餘身涅槃界	-12.3832
七十五法	-12.3838
慳惜使	-12.384
此根為何繫結滅	-12.3852
彼捨善蘊五無記蘊	-12.3854
若住善心命終	-12.3857
滅作證六結盡	-12.3857
正寂靜滅沒除	-12.3858
謂攝三界各	-12.3859
四大增益軟美飽	-12.386
不喜不	-12.3861
三二分或	-12.3862
信欲不放逸念心捨	-12.3863
謂三界見道所斷無漏緣	-12.3863
七覺支八道支現在前	-12.3864
身甜酢苦辛醎淡涎癊	-12.3864
最後所捨得	-12.3864
思觸思惟覺觀	-12.3864
依無願三摩地入正性離生	-12.3865
除前所除	-12.3865
當不侵惱	-12.3867
不苦不樂捨念淨	-12.3868
墮地獄畜生餓鬼	-12.3869
答此說依空三摩地入正性離生	-12.387
眾生若解有	-12.387
住無想滅盡定	-12.3871
猶如龍象	-12.3871
畢竟離界	-12.3871
若并助伴	-12.3871
有色無見有對	-12.3871
滋潤	-12.3871
樂根苦根喜根憂根捨根	-12.3871
互有寬狹	-12.3872
結繫無嫉結繫	-12.3873
為止如是意	-12.3874
謂加他心	-12.3874
二界一處一蘊攝	-12.3874
加行解脫勝進道	-12.3874
諸根無緣因	-12.3875
加行得離染得	-12.3875
名色六入觸受	-12.3875
以清淨心遍解行	-12.3875
或餘智斷	-12.3875
循法觀	-12.3876
不善及善有漏	-12.3876
纏復還退時	-12.3876
中此最勝故	-12.3876
三界繫不繫者	-12.3877
知他人心	-12.3877
離一切色想	-12.3877
佛陀提婆	-12.3878
俱舍論頌疏論本	-12.3878
結使不悉盡	-12.3878
為愱結所繫	-12.3878
想滅解脫	-12.3879
刈	-12.3879
於未至定中	-12.3879
栴檀	-12.3879
[...]
