<unk>	0
<s>	0
</s>	0
。	-1.80935
之	-4.74574
▁	-5.07619
曰	-5.25018
以	-5.26939
也	-5.29966
為	-5.34431
而	-5.36132
有	-5.42003
於	-5.43834
者	-5.43927
)	-5.51383
(	-5.5221
其	-5.64071
人	-5.72466
不	-5.73739
,	-5.77645
一	-5.82356
至	-5.93722
師	-5.94966
*	-5.95324
無	-5.9723
道	-6.07077
時	-6.07176
大	-6.07753
見	-6.07928
自	-6.11153
云	-6.12179
中	-6.15947
王	-6.18779
即	-6.22733
則	-6.23833
此	-6.26041
乃	-6.28105
心	-6.28193
行	-6.2828
如	-6.31052
得	-6.33393
所	-6.34492
言	-6.34508
生	-6.34837
出	-6.34909
與	-6.35672
是	-6.36337
在	-6.37907
法	-6.38265
寺	-6.3928
故	-6.41546
三	-6.4415
經	-6.44397
後	-6.46861
上	-6.47956
又	-6.48238
山	-6.48897
及	-6.50376
來	-6.51317
僧	-6.51331
事	-6.52423
若	-6.54127
佛	-6.54217
明	-6.54779
我	-6.55576
子	-6.57282
名	-6.57654
皆	-6.57789
因	-6.60657
非	-6.61125
相	-6.62174
矣	-6.62878
遂	-6.64473
入	-6.66491
公	-6.68042
天	-6.70049
然	-6.71046
今	-6.71155
從	-6.7202
等	-6.73886
問	-6.7422
二	-6.74842
可	-6.75666
同	-6.76695
作	-6.77116
亦	-6.78313
當	-6.79089
聞	-6.80687
乎	-6.8173
下	-6.81797
令	-6.82285
日	-6.82352
文	-6.82401
身	-6.82474
復	-6.85324
眾	-6.8601
成	-6.86789
汝	-6.87192
將	-6.87407
處	-6.8782
知	-6.89983
四	-6.90602
方	-6.9136
初	-6.91606
多	-6.91775
本	-6.91941
欲	-6.92194
焉	-6.92356
善	-6.92522
傳	-6.92731
帝	-6.93049
禪師	-6.93348
諸	-6.93625
去	-6.93698
國	-6.93922
吾	-6.94008
世	-6.9401
前	-6.96447
或	-6.97132
既	-6.97541
說	-6.97696
請	-6.97862
常	-6.97992
法師	-6.99931
神	-6.99938
通	-7.00174
謂	-7.00475
正	-7.00577
義	-7.01933
立	-7.04202
五	-7.04334
高	-7.05199
光	-7.05801
居	-7.06926
地	-7.07939
能	-7.08773
住	-7.08805
歸	-7.08825
安	-7.09101
會	-7.09534
德	-7.09852
未	-7.09996
何	-7.10347
書	-7.10583
論	-7.12179
命	-7.12253
教	-7.132
▁|	-7.13632
觀	-7.14205
水	-7.14364
語	-7.15622
使	-7.1634
往	-7.16405
真	-7.17204
便	-7.17325
雖	-7.17591
重	-7.18718
已	-7.18765
還	-7.19479
用	-7.19988
起	-7.20398
元	-7.20794
學	-7.21178
遠	-7.21371
空	-7.21522
盡	-7.22536
耳	-7.2336
求	-7.23806
于	-7.24241
宗	-7.24329
禮	-7.24903
受	-7.25086
化	-7.25209
開	-7.25299
深	-7.25533
門	-7.26246
祖	-7.27681
長	-7.27889
意	-7.28914
理	-7.29327
著	-7.2937
智	-7.29558
巳	-7.29652
先	-7.30372
必	-7.3074
願	-7.31797
應	-7.32516
難	-7.32708
取	-7.34795
始	-7.34966
過	-7.35197
年	-7.35222
聖	-7.35325
發	-7.35587
家	-7.35725
造	-7.36137
信	-7.36138
金	-7.36849
.	-7.37287
修	-7.3731
死	-7.39022
坐	-7.39392
州	-7.3961
清	-7.40422
定	-7.40706
字	-7.41639
且	-7.41912
主	-7.42211
南	-7.42501
石	-7.42834
舉	-7.4351
業	-7.43653
食	-7.43948
依	-7.43957
彼	-7.44723
白	-7.45067
物	-7.45391
周	-7.45461
異	-7.45485
夫	-7.45913
出家	-7.46051
慧	-7.46274
實	-7.46275
風	-7.46382
廣	-7.47084
雲	-7.47252
度	-7.47274
聲	-7.47328
詔	-7.4737
解	-7.47552
思	-7.48191
別	-7.48249
耶	-7.48482
隨	-7.48621
分	-7.48778
稱	-7.5082
弟子	-7.51348
寶	-7.51416
西	-7.51629
集	-7.51715
果	-7.5213
藏	-7.52156
沙門	-7.5259
更	-7.53053
小	-7.53399
合	-7.53464
靈	-7.53695
玄	-7.54076
六	-7.54476
向	-7.54698
菩薩	-7.54772
志	-7.55005
內	-7.55019
○	-7.55087
尋	-7.55169
並	-7.55339
頭	-7.5581
止	-7.56169
流	-7.56692
七	-7.56859
性	-7.57399
數	-7.57443
八	-7.57454
外	-7.57747
像	-7.57983
少	-7.59236
奉	-7.59289
唐	-7.59299
興	-7.59404
釋	-7.5944
具	-7.59519
念	-7.59547
覺	-7.59554
悟	-7.59588
號	-7.61127
妙	-7.61406
十	-7.62338
凡	-7.63157
東	-7.63783
甚	-7.63809
持	-7.64091
共	-7.64275
但	-7.64282
和尚	-7.64486
形	-7.64665
斯	-7.65047
終	-7.65189
忽	-7.6668
龍	-7.66774
次	-7.66901
不可	-7.66988
華	-7.67112
力	-7.67244
兩	-7.67503
衣	-7.6781
齊	-7.68098
月	-7.68382
記	-7.68452
元年	-7.68673
親	-7.69707
猶	-7.69784
懷	-7.69836
九	-7.70556
唯	-7.7058
惟	-7.70597
一日	-7.70741
滅	-7.70847
情	-7.7098
絕	-7.71177
苦	-7.71567
哉	-7.71734
建	-7.72195
俱	-7.72688
遇	-7.72758
間	-7.72774
氏	-7.73044
於是	-7.73235
顯	-7.73236
各	-7.73379
禪	-7.73416
感	-7.73427
現	-7.73661
俗	-7.73958
遊	-7.73987
勝	-7.74183
君	-7.74231
體	-7.74262
施	-7.74583
陳	-7.74717
海	-7.74943
緣	-7.75424
如來	-7.7566
被	-7.75694
塔	-7.75711
淨	-7.75967
莫	-7.76571
戒	-7.76894
母	-7.77108
官	-7.77371
宜	-7.77482
要	-7.77639
每	-7.77766
極	-7.78081
福	-7.78101
足	-7.78667
照	-7.78708
好	-7.78803
夜	-7.78991
指	-7.79147
樂	-7.79153
城	-7.7939
達	-7.79553
講	-7.79566
識	-7.79932
路	-7.79998
餘	-7.80174
朝	-7.80878
古	-7.80978
三年	-7.81119
進	-7.81474
辭	-7.82712
夢	-7.82772
以為	-7.83059
佛法	-7.83114
手	-7.83146
致	-7.83172
老	-7.83337
不能	-7.83684
敬	-7.83699
色	-7.83934
師云	-7.83959
天下	-7.84059
師曰	-7.84766
獨	-7.8502
就	-7.85084
口	-7.85279
隱	-7.85567
蓋	-7.85718
火	-7.85826
到	-7.85912
爾	-7.86258
北	-7.86391
漢	-7.86756
惡	-7.87088
服	-7.87104
尚	-7.87629
失	-7.8836
二年	-7.88484
宋	-7.88972
歲	-7.89288
由	-7.8977
姓	-7.89828
豈	-7.89929
昔	-7.90052
益	-7.90462
甞	-7.90465
不得	-7.9068
勅	-7.90714
參	-7.90771
滿	-7.91413
錄	-7.92024
他	-7.92215
利	-7.92336
香	-7.92536
聽	-7.92583
守	-7.92755
張	-7.92936
林	-7.92961
對	-7.93044
李	-7.93096
氣	-7.93829
賢	-7.94116
誠	-7.94384
樹	-7.94707
和	-7.95279
誦	-7.95376
目	-7.95967
望	-7.9597
病	-7.9618
父	-7.96189
弘	-7.96486
院	-7.96522
宣	-7.96872
平	-7.97238
女	-7.97472
素	-7.97898
盛	-7.98059
治	-7.98612
須	-7.9872
供養	-7.98775
首	-7.98955
百	-7.9897
加	-7.99159
報	-7.99289
梁	-7.99348
新	-7.99396
離	-7.99524
都	-7.99581
登	-7.9971
斷	-8.0023
却	-8.00799
疑	-8.00989
置	-8.01559
承	-8.01622
告	-8.02148
賜	-8.02277
如是	-8.02416
許	-8.02432
一切	-8.02605
破	-8.02732
證	-8.0318
堂	-8.03388
部	-8.04073
延	-8.04134
并	-8.04219
動	-8.04283
嚴	-8.04308
羅	-8.04458
久	-8.04667
臣	-8.04788
永	-8.04846
引	-8.04852
遷	-8.04891
咸	-8.06552
卒	-8.0684
民	-8.0694
靜	-8.06972
易	-8.07089
了	-8.0721
密	-8.07874
轉	-8.0799
悉	-8.08002
執	-8.08139
表	-8.08273
留	-8.08422
千	-8.08702
萬	-8.08723
臨	-8.09093
寂	-8.09134
崇	-8.09793
濟	-8.1003
亡	-8.10226
改	-8.1034
乘	-8.10375
降	-8.10634
疾	-8.10934
近	-8.10943
殿	-8.11125
直	-8.11252
太子	-8.11541
壽	-8.11615
設	-8.11901
馬	-8.12024
惠	-8.12165
送	-8.12258
備	-8.12363
遣	-8.12379
示	-8.12397
捨	-8.12452
召	-8.12644
精	-8.12917
圓	-8.13112
略	-8.13374
位	-8.13532
眾生	-8.13882
宮	-8.14261
舊	-8.14312
微	-8.14856
晉	-8.1515
玉	-8.15484
載	-8.15749
土	-8.15764
仁	-8.15865
慈	-8.16114
如此	-8.16314
辯	-8.16337
制	-8.16431
答	-8.16849
習	-8.16909
寧	-8.16967
不知	-8.17286
魏	-8.1764
境	-8.17711
念佛	-8.18284
存	-8.18422
眼	-8.18529
尊	-8.18692
除	-8.18781
詣	-8.18823
兵	-8.19412
功	-8.19532
木	-8.19978
嗣	-8.20344
放	-8.20796
士	-8.20848
順	-8.21518
所以	-8.21531
陽	-8.2174
代	-8.22164
愛	-8.22281
固	-8.22436
尊者	-8.22752
結	-8.22768
啟	-8.22894
說法	-8.23029
音	-8.23206
譯	-8.23217
而不	-8.24344
散	-8.24378
人也	-8.24486
交	-8.24638
夏	-8.24713
經一卷	-8.24876
比丘	-8.25179
任	-8.25519
恒	-8.25699
殺	-8.25843
章	-8.26107
謝	-8.26227
機	-8.26696
普	-8.26701
垂	-8.26828
齋	-8.26895
兼	-8.27131
迎	-8.2732
巖	-8.27392
舍利	-8.27406
法華	-8.2829
亂	-8.28334
反	-8.28551
府	-8.29023
獲	-8.2915
總	-8.29601
末	-8.29602
室	-8.29714
類	-8.29847
草	-8.29869
律	-8.30082
屬	-8.3025
罪	-8.30269
運	-8.30285
鬼	-8.30295
息	-8.30403
全	-8.30485
授	-8.30545
變	-8.30727
四年	-8.30851
畢	-8.31498
面	-8.31581
景	-8.31665
大師	-8.31816
投	-8.31875
節	-8.31902
窮	-8.32097
仙	-8.3218
宿	-8.32809
遍	-8.32972
遺	-8.33347
超	-8.33362
看	-8.33408
徒	-8.33486
伏	-8.33607
吳	-8.33807
答曰	-8.33971
泉	-8.34127
蒙	-8.34179
黃	-8.34296
述	-8.34302
旨	-8.34347
期	-8.34551
拜	-8.34551
花	-8.34634
護	-8.34792
菴	-8.34897
群	-8.35253
曾	-8.35303
邪	-8.35401
虎	-8.35431
殊	-8.35983
仰	-8.35991
適	-8.36278
喜	-8.36365
推	-8.36397
歷	-8.36659
容	-8.36695
落	-8.3675
似	-8.36768
封	-8.36852
回	-8.36854
廢	-8.36978
幽	-8.37749
比	-8.37972
謁	-8.38319
接	-8.38523
舍	-8.38568
端	-8.38686
專	-8.38805
布	-8.39022
迹	-8.39173
辨	-8.39418
源	-8.39555
江	-8.39775
右	-8.39828
象	-8.39898
恐	-8.39978
視	-8.4003
美	-8.40042
雨	-8.40264
虛	-8.40277
奏	-8.40303
疏	-8.40333
圖	-8.40719
秀	-8.40845
妄	-8.41023
塵	-8.41212
勤	-8.41513
慶	-8.41551
器	-8.41741
孝	-8.41958
座	-8.42005
再	-8.42138
關	-8.42313
之所	-8.4265
恩	-8.42742
軍	-8.42902
乞	-8.4296
皇	-8.43158
華嚴	-8.43191
仍	-8.4333
三藏	-8.43437
涅槃	-8.43614
資	-8.4385
特	-8.44406
田	-8.44517
追	-8.44678
越	-8.44773
毀	-8.44808
累	-8.45109
待	-8.45325
父母	-8.4553
武	-8.4557
榮	-8.45572
勸	-8.45843
種	-8.4585
漸	-8.4637
貴	-8.46567
飛	-8.46867
淨土	-8.4692
計	-8.47052
儀	-8.47167
胡	-8.47199
脫	-8.47445
序	-8.47479
問曰	-8.47552
幸	-8.47778
尼	-8.48058
今日	-8.48135
談	-8.48214
秦	-8.48363
供	-8.48394
七日	-8.48442
列	-8.48672
積	-8.48705
顧	-8.48777
棄	-8.48791
簡	-8.4885
縣	-8.49002
議	-8.49034
御	-8.49346
錢	-8.49548
聖人	-8.49549
嘗	-8.49772
賊	-8.49834
太	-8.50027
切	-8.50202
品	-8.50231
彌	-8.50294
河	-8.50358
無所	-8.50434
輕	-8.50745
否	-8.50977
五年	-8.51007
約	-8.51122
澄	-8.51143
政	-8.51296
功德	-8.51507
退	-8.5169
誰	-8.51709
根	-8.52081
冥	-8.52297
劫	-8.52379
兒	-8.52402
印	-8.52684
移	-8.52817
據	-8.53013
驗	-8.53071
劉	-8.53193
臺	-8.53209
世尊	-8.53278
雜	-8.53574
半	-8.53642
儒	-8.53752
六年	-8.53977
卷	-8.54103
覩	-8.54215
竟	-8.54247
青	-8.5476
才	-8.54803
沒	-8.54806
忘	-8.55023
峯	-8.55214
撰	-8.55392
威	-8.55578
覆	-8.55822
惑	-8.56047
打	-8.56104
量	-8.56596
讀	-8.56775
於此	-8.571
奇	-8.57384
愈	-8.57503
、	-8.57549
增	-8.57851
省	-8.5786
恭	-8.58091
詳	-8.58397
道士	-8.58491
一曰	-8.58537
里	-8.58549
典	-8.58843
而去	-8.5889
般若	-8.59329
迷	-8.59446
所謂	-8.59512
客	-8.59674
務	-8.59774
春	-8.59861
牛	-8.59872
不見	-8.59882
休	-8.5996
勿	-8.60308
英	-8.60317
卿	-8.60325
大乘	-8.60495
藥	-8.60558
良	-8.60577
隆	-8.60717
史	-8.60749
紀	-8.6076
余	-8.60835
假	-8.61019
游	-8.61045
珠	-8.61066
徵	-8.61195
大士	-8.61224
有一	-8.6151
生死	-8.61585
救	-8.61593
喪	-8.61713
寄	-8.61771
想	-8.61824
谷	-8.61893
朗	-8.61921
偈	-8.62054
權	-8.62327
潛	-8.62466
付	-8.62547
如何	-8.62816
忠	-8.62832
阿	-8.62845
頓	-8.62982
影	-8.63238
底	-8.63277
梵	-8.63365
那	-8.634
寒	-8.63473
陰	-8.63916
詩	-8.63938
光明	-8.64168
預	-8.64181
繼	-8.64248
愚	-8.64373
頂	-8.64376
領	-8.64543
庵	-8.64642
聚	-8.64739
況	-8.64924
原	-8.64963
邊	-8.64972
左	-8.65109
房	-8.65247
隋	-8.65319
道場	-8.65479
養	-8.65608
池	-8.65797
堅	-8.65877
契	-8.66003
攝	-8.66118
骨	-8.66431
至於	-8.66913
郡	-8.67023
患	-8.67298
早	-8.67658
連	-8.67733
輒	-8.67769
道俗	-8.67847
禁	-8.67925
笑	-8.68462
充	-8.68899
波	-8.69015
者也	-8.69038
司	-8.69054
徹	-8.69196
壞	-8.69268
附	-8.69459
昭	-8.69468
界	-8.69589
負	-8.69789
茲	-8.69819
一人	-8.70224
天台	-8.70251
句	-8.70513
七年	-8.70966
天竺	-8.71251
燈	-8.71303
舟	-8.71438
統	-8.71507
尤	-8.71548
孫	-8.71638
收	-8.71952
注	-8.72099
。】「	-8.72355
裏	-8.72514
之後	-8.72517
涉	-8.7269
唱	-8.72784
步	-8.72797
續	-8.72945
給	-8.73235
洞	-8.73242
陵	-8.73416
謂之	-8.73443
符	-8.73499
趣	-8.7394
悅	-8.74325
慕	-8.74386
學者	-8.74454
迴	-8.74597
提	-8.74692
急	-8.74708
婆	-8.74716
諸佛	-8.74977
害	-8.7506
免	-8.75075
曇	-8.75084
率	-8.75263
試	-8.75327
莫不	-8.75342
融	-8.7548
某	-8.75539
冠	-8.75637
曉	-8.75765
露	-8.75959
摩	-8.75974
十二	-8.76117
居士	-8.76336
閑	-8.76461
遵	-8.76484
一時	-8.76548
金剛	-8.76672
雅	-8.76801
臥	-8.7695
導	-8.76989
葉	-8.77199
朕	-8.77212
味	-8.77238
只	-8.77385
幾	-8.77465
爭	-8.77619
呼	-8.77696
碑	-8.77805
幼	-8.77944
伯	-8.77953
勞	-8.78067
蘇	-8.7808
驚	-8.78153
背	-8.78237
沈	-8.7836
浮	-8.78378
之道	-8.78446
悲	-8.78809
訓	-8.78856
欽	-8.79022
強	-8.79179
十年	-8.79278
頗	-8.79489
闕	-8.79651
拔	-8.79777
阿難	-8.79814
。」【	-8.79822
博	-8.79868
赴	-8.80111
值	-8.80448
屈	-8.80518
老子	-8.80539
虗	-8.80579
因緣	-8.8071
雪	-8.80791
西方	-8.80829
哀	-8.80834
晚	-8.80901
厚	-8.80975
輪	-8.81116
跡	-8.81456
席	-8.81538
三昧	-8.81634
昌	-8.81653
訪	-8.81776
」	-8.81779
出世	-8.81894
折	-8.82044
質	-8.82081
迦葉	-8.82393
基	-8.82445
頌	-8.82644
鐵	-8.82663
助	-8.82708
車	-8.82774
自然	-8.83001
孤	-8.83011
決	-8.83115
泰	-8.83286
躬	-8.83391
洪	-8.83602
野	-8.83659
翻	-8.83682
松	-8.83931
天子	-8.84022
:「	-8.84267
曲	-8.84303
魚	-8.84324
律師	-8.84343
獻	-8.84394
最	-8.84395
鏡	-8.84421
清淨	-8.84464
赤	-8.84857
謹	-8.84858
營	-8.84888
考	-8.85052
侍	-8.85165
逢	-8.85208
履	-8.85745
懼	-8.85748
屋	-8.858
誓	-8.8607
京師	-8.86245
三寶	-8.86353
溪	-8.86364
祖曰	-8.86758
大眾	-8.86826
橫	-8.86867
魔	-8.86969
鉢	-8.87037
詞	-8.87065
智者	-8.87098
沙	-8.87108
乃至	-8.87127
五百	-8.87202
葬	-8.87274
標	-8.87285
鳥	-8.87286
墮	-8.87486
廟	-8.87608
世間	-8.87749
薄	-8.88067
狀	-8.88087
寫	-8.8825
徧	-8.88308
天地	-8.88326
傾	-8.88353
夷	-8.88422
希	-8.88803
傷	-8.88954
違	-8.89019
庭	-8.89019
縱	-8.89093
訖	-8.89338
揚	-8.89354
嶺	-8.8943
三日	-8.89433
覽	-8.89503
澤	-8.8956
對曰	-8.89571
予	-8.89612
誦經	-8.89627
振	-8.89668
申	-8.89783
憂	-8.89868
朱	-8.8988
楚	-8.90313
星	-8.90334
畫	-8.90362
納	-8.90424
可以	-8.90607
私	-8.90648
文殊	-8.90648
弗	-8.90932
己	-8.91166
痛	-8.91253
委	-8.91313
弟	-8.91332
偏	-8.91357
大德	-8.91481
雙	-8.9153
擬	-8.91643
秋	-8.91661
筆	-8.91698
川	-8.91789
喻	-8.91857
無量	-8.92124
敘	-8.92506
鳴	-8.92519
黑	-8.92603
外道	-8.927
慮	-8.92702
經云	-8.92788
由是	-8.9288
是以	-8.93053
鎮	-8.93095
園	-8.93111
廬山	-8.9313
讚	-8.9313
不敢	-8.93236
法門	-8.9331
一卷	-8.93321
又曰	-8.93339
方便	-8.9345
衛	-8.93558
二十	-8.93637
陛下	-8.9373
兄	-8.93743
釋迦	-8.93892
瑞	-8.94105
贊	-8.94158
皇帝	-8.94367
究	-8.94406
勢	-8.94406
補	-8.9444
走	-8.94494
淵	-8.94497
罷	-8.94504
纔	-8.94864
徐	-8.94946
友	-8.9497
苟	-8.95193
索	-8.95234
烏	-8.95481
犯	-8.95536
經論	-8.95551
屢	-8.95623
財	-8.95649
你	-8.95786
第	-8.95836
嘉	-8.95965
童子	-8.95998
術	-8.96251
左右	-8.96335
返	-8.96691
蜀	-8.96798
忍	-8.96813
損	-8.96897
上座	-8.97109
髮	-8.97412
歎	-8.97637
貫	-8.97761
峰	-8.98048
角	-8.9819
宅	-8.98311
閣	-8.98395
楊	-8.98529
禮拜	-8.98568
刻	-8.98587
升	-8.98719
觀音	-8.98792
▁|(	-8.98822
其所	-8.99012
無不	-8.99093
閱	-8.99226
呪	-8.99255
懸	-8.99271
地獄	-8.99428
稟	-8.99454
不同	-8.99568
莊嚴	-8.99763
演	-8.99857
吏	-8.99954
岸	-9.00015
觸	-9.00469
支	-9.00723
刀	-9.00727
門人	-9.00907
飲	-9.01098
邑	-9.01172
招	-9.01256
鼓	-9.01306
肉	-9.01307
趙	-9.0136
何以	-9.0141
西域	-9.01442
鄉	-9.01497
停	-9.01581
昇	-9.017
差	-9.01795
諱	-9.01893
夫人	-9.02042
飯	-9.02182
老僧	-9.02209
合掌	-9.02576
久之	-9.02615
披	-9.03054
倒	-9.03162
冬	-9.03345
康	-9.03416
速	-9.03427
富	-9.03442
旦	-9.03459
八年	-9.03867
篇	-9.0408
敢	-9.04131
偽	-9.04546
遽	-9.04702
妻	-9.04969
當時	-9.05006
默	-9.05092
條	-9.05102
保	-9.05533
莊	-9.05611
案	-9.05751
即是	-9.05793
戶	-9.05828
聞之	-9.05941
道人	-9.05947
按	-9.05949
擊	-9.05956
自是	-9.06056
側	-9.06169
臨濟	-9.06542
溫	-9.06628
泥	-9.06665
讓	-9.07068
逸	-9.07127
逆	-9.07627
競	-9.08008
乖	-9.08072
工	-9.08081
僧云	-9.08244
偶	-9.08333
飾	-9.0852
迦	-9.08644
爾時	-9.08659
樓	-9.08732
中有	-9.08821
蓮華	-9.08923
第一	-9.08942
祥	-9.08994
童	-9.09036
掌	-9.09073
。「	-9.09121
長安	-9.09293
精舍	-9.09372
怪	-9.09559
然後	-9.09744
宏	-9.09771
菩提	-9.09886
諸天	-9.10168
壁	-9.10199
未幾	-9.10501
羅漢	-9.10692
避	-9.10698
竊	-9.107
不為	-9.10754
正法	-9.10802
奪	-9.10918
酒	-9.11117
塗	-9.11137
庶	-9.11214
憑	-9.11253
敷	-9.11544
侯	-9.11673
貞	-9.11676
紫	-9.11983
魯	-9.12162
鑒	-9.1224
丘	-9.12275
繁	-9.12473
昏	-9.12493
輩	-9.1254
趨	-9.12584
仲	-9.12641
伊	-9.12663
馳	-9.12798
之間	-9.12846
為之	-9.12886
倫	-9.12935
行道	-9.12991
珍	-9.13069
話	-9.13728
船	-9.13862
恨	-9.13895
懺	-9.13914
舌	-9.13979
日月	-9.14066
役	-9.14424
麼	-9.1445
無有	-9.14538
世界	-9.14559
什	-9.14648
何不	-9.14688
先生	-9.1475
亦不	-9.14798
之人	-9.14822
明日	-9.14838
燒	-9.14845
伽藍	-9.14917
陀	-9.14927
毛	-9.14931
內外	-9.14969
紹	-9.15003
其事	-9.1503
而巳	-9.15206
盈	-9.15211
其人	-9.15283
三月	-9.15377
之曰	-9.15434
京	-9.15705
託	-9.1577
一部	-9.16021
二人	-9.16258
肅	-9.16262
見之	-9.16263
住持	-9.16307
十八	-9.16388
毒	-9.1639
謀	-9.16566
含	-9.1658
祐	-9.16618
創	-9.16648
亮	-9.16738
伐	-9.1676
抱	-9.16995
為人	-9.17078
刑	-9.17092
三十	-9.17242
僧尼	-9.17305
染	-9.17333
潤	-9.17468
怒	-9.17546
細	-9.17563
崩	-9.177
十六	-9.17701
修行	-9.18023
時有	-9.18165
第二	-9.18172
箇	-9.18226
震	-9.1825
剎	-9.18302
克	-9.18444
鍾	-9.18469
既而	-9.1847
往生	-9.18545
製	-9.18615
可謂	-9.18616
解脫	-9.18627
杖	-9.18875
師子	-9.18954
孔子	-9.18955
陸	-9.19023
)○	-9.1905
紙	-9.1908
之言	-9.19217
點	-9.19239
曹	-9.1931
不是	-9.1944
壇	-9.19474
聰	-9.19508
勒	-9.19527
燕	-9.19714
調	-9.19735
季	-9.1981
孔	-9.19836
沙彌	-9.20201
遣使	-9.20555
脩	-9.2059
獄	-9.20771
又問	-9.20796
駕	-9.20811
喚	-9.20931
齒	-9.21007
焚	-9.21112
族	-9.21152
乾	-9.21423
我今	-9.21508
岳	-9.21554
網	-9.21562
俄	-9.21569
逐	-9.21581
瞻	-9.21647
蛇	-9.21697
逾	-9.21806
四月	-9.22102
是故	-9.22134
歌	-9.2228
竹	-9.22371
云云	-9.22457
題	-9.22632
之事	-9.2268
偈曰	-9.22764
又云	-9.22818
顏	-9.22885
氏子	-9.22943
未甞	-9.23017
科	-9.23186
障	-9.23248
九月	-9.23251
責	-9.23354
湖	-9.23367
市	-9.23398
宇	-9.23423
君子	-9.23705
操	-9.23797
叔	-9.23821
長者	-9.23822
繫	-9.2389
八月	-9.23908
婆羅門	-9.23913
祇	-9.24088
法界	-9.24337
眾僧	-9.24464
帶	-9.24489
須臾	-9.24619
相見	-9.24648
戰	-9.24728
茂	-9.24768
龕	-9.24801
貪	-9.25008
誕	-9.25078
諫	-9.25206
蕭	-9.25337
謙	-9.25403
血	-9.25545
佛教	-9.25715
是也	-9.25742
十方	-9.25936
錫	-9.25937
歡喜	-9.25938
之時	-9.26089
九年	-9.26136
以此	-9.26475
不識	-9.26528
五月	-9.26561
米	-9.26591
之中	-9.26602
謬	-9.2663
活	-9.26674
畏	-9.26926
途	-9.2699
雄	-9.2699
諸方	-9.27026
旋	-9.27272
監	-9.27316
欣	-9.2762
滯	-9.27647
村	-9.27649
侍者	-9.27688
盜	-9.27778
丹	-9.27792
暢	-9.28156
。」	-9.2824
消	-9.28249
之心	-9.28306
貌	-9.28551
晝夜	-9.2866
遭	-9.28682
革	-9.28821
十月	-9.28909
如何是	-9.29066
三千	-9.29114
彌勒	-9.2916
徑山	-9.29193
云何	-9.29278
響	-9.29509
拘	-9.29553
狂	-9.29567
敗	-9.29655
寬	-9.29829
七月	-9.29977
前後	-9.30039
俊	-9.30173
吐	-9.30187
鬼神	-9.3021
十四	-9.30251
凝	-9.30265
夕	-9.30312
彥	-9.30385
不復	-9.30413
吉	-9.30588
稍	-9.30673
篤	-9.30715
十五	-9.30729
道者	-9.30876
擇	-9.30928
十二年	-9.30958
之法	-9.3096
葢	-9.30999
而逝	-9.31027
選	-9.31108
翁	-9.31179
純	-9.31185
傍	-9.31302
悔	-9.31637
靡	-9.31647
井	-9.31715
臨終	-9.31763
不許	-9.31913
空中	-9.31953
豐	-9.32198
穢	-9.32297
法身	-9.32433
籍	-9.32438
雲門	-9.32454
昧	-9.32469
無為	-9.32586
武帝	-9.32589
有人	-9.32727
編	-9.3275
奔	-9.32814
是時	-9.32889
賓	-9.33155
不及	-9.33223
其道	-9.33344
種種	-9.33466
婦	-9.33526
寺僧	-9.3363
佛像	-9.33674
二十年	-9.33694
堪	-9.33723
遁	-9.33729
甘	-9.33773
無常	-9.3379
暫	-9.33808
巨	-9.33936
撫	-9.3395
盧	-9.33955
鑑	-9.33967
此是	-9.34013
歎曰	-9.34081
是年	-9.34189
輔	-9.34205
勑	-9.34292
五十	-9.3439
十三	-9.34416
際	-9.34543
殷	-9.34575
彰	-9.34598
有大	-9.34613
山中	-9.34635
祈	-9.34642
例	-9.3467
帝曰	-9.34868
兮	-9.34912
端坐	-9.34983
尚書	-9.35122
旁	-9.35165
怨	-9.35166
幻	-9.35286
熟	-9.35503
塞	-9.3573
潔	-9.35855
脚	-9.35907
袈裟	-9.36069
洲	-9.36186
大聖	-9.36292
減	-9.36501
大王	-9.36517
厭	-9.36527
貧	-9.36623
荷	-9.36801
洗	-9.37034
甲	-9.37332
浮圖	-9.37337
四方	-9.3737
賴	-9.37542
床	-9.3758
危	-9.37635
祭	-9.37784
懺悔	-9.37795
未有	-9.37799
高祖	-9.37837
曠	-9.37887
採	-9.3795
徑	-9.3802
釋氏	-9.38146
蘭	-9.38384
】	-9.38453
扶	-9.3863
佛經	-9.3866
謂曰	-9.38694
精進	-9.38722
規	-9.3873
盤	-9.38771
錯	-9.38889
歟	-9.39072
長老	-9.39137
示寂	-9.39294
于時	-9.39339
有所	-9.39354
叢林	-9.39402
橋	-9.39428
虗空	-9.3944
三界	-9.39504
郭	-9.39508
至是	-9.39549
太祖	-9.39614
荒	-9.39682
薦	-9.39712
亦有	-9.39739
之說	-9.39881
緒	-9.39909
其中	-9.39991
管	-9.40038
寢	-9.40054
縛	-9.40222
誤	-9.40349
自在	-9.40364
六月	-9.40436
逮	-9.40566
而化	-9.40655
敏	-9.40758
檢	-9.40824
衰	-9.40894
慈悲	-9.40935
孰	-9.40941
受戒	-9.41026
商	-9.41048
銀	-9.41081
答言	-9.41117
見一	-9.41217
后	-9.41222
俾	-9.41253
天人	-9.41362
綱	-9.41432
郎	-9.41458
無生	-9.41475
彌陀	-9.41484
軌	-9.41505
崖	-9.41547
洛	-9.41658
竭	-9.41732
鐘	-9.4198
暴	-9.41989
銅	-9.42128
十二月	-9.42158
譽	-9.42196
津	-9.42233
之徒	-9.42236
煩惱	-9.42316
見佛	-9.42364
文字	-9.42377
燭	-9.42408
即位	-9.42525
禍	-9.42608
逝	-9.42654
遙	-9.42683
陶	-9.42696
大小	-9.42795
十一年	-9.4282
階	-9.42882
十一	-9.42992
頻	-9.42993
察	-9.4302
鳳	-9.4311
賞	-9.43395
墜	-9.4349
亦無	-9.43697
審	-9.43748
至今	-9.4381
其後	-9.43832
知其	-9.43969
不信	-9.44121
國王	-9.44175
三十年	-9.44225
智慧	-9.44232
翼	-9.44243
一念	-9.4427
汝等	-9.44275
鹿	-9.44341
在位	-9.44358
暗	-9.44439
麗	-9.44558
抗	-9.44567
瓶	-9.44587
豈不	-9.44597
韓	-9.44722
歡	-9.44777
十一月	-9.44792
僧道	-9.44918
晦	-9.44991
倍	-9.45253
誡	-9.45314
普賢	-9.45352
允	-9.45384
隔	-9.45624
熱	-9.45677
杜	-9.4569
隣	-9.45719
而已	-9.45821
混	-9.45864
)(	-9.45885
穴	-9.45943
不覺	-9.45969
候	-9.46323
蓮	-9.46502
不足	-9.46583
琳	-9.46603
若不	-9.46625
言訖	-9.46709
淳	-9.46767
乳	-9.46846
平生	-9.46864
之日	-9.46987
式	-9.47038
具足	-9.47081
作禮	-9.47203
校	-9.47223
何為	-9.47278
僧曰	-9.47517
贈	-9.47548
寡	-9.47559
費	-9.47759
浪	-9.47803
峻	-9.47857
達磨	-9.47934
茶	-9.47963
哲	-9.47985
正月	-9.48223
不動	-9.48227
舜	-9.48289
軀	-9.48292
勇	-9.48602
紅	-9.48711
此云	-9.48732
甘露	-9.48757
枝	-9.48784
灰	-9.48811
一心	-9.48871
二月	-9.49051
植	-9.49072
芳	-9.49127
古今	-9.49284
首座	-9.49302
冀	-9.4933
嵩	-9.49348
見其	-9.4935
展	-9.49513
腹	-9.49579
後世	-9.49736
呈	-9.49769
誅	-9.49823
譯經	-9.49981
所見	-9.49985
誨	-9.50025
頃	-9.50037
蘊	-9.50115
之地	-9.50123
殘	-9.50226
烈	-9.50324
四明	-9.50446
何處	-9.5047
亭	-9.50624
有僧	-9.50687
匠	-9.5113
十四年	-9.51156
之教	-9.51244
名曰	-9.51328
均	-9.51366
往來	-9.51428
數日	-9.51432
棲	-9.51446
以其	-9.51455
枯	-9.51582
臂	-9.51625
然則	-9.51677
大法	-9.51684
入室	-9.51723
鼎	-9.51943
戲	-9.51966
之士	-9.52028
抑	-9.52205
抵	-9.52208
太守	-9.52392
十七	-9.52442
金色	-9.52516
羊	-9.52544
皮	-9.52643
銘	-9.52703
億	-9.52787
尸	-9.52821
騰	-9.52846
大悲	-9.52873
職	-9.53151
人間	-9.53191
浴	-9.53237
逼	-9.53275
鄭	-9.53383
南嶽	-9.53471
止觀	-9.53483
蕩	-9.53619
暮	-9.53655
射	-9.53672
而出	-9.53696
囑	-9.53715
憶	-9.53808
眉	-9.5382
自此	-9.53823
擲	-9.53937
有二	-9.53975
所說	-9.5398
討	-9.54152
視之	-9.54247
騎	-9.54267
渡	-9.54355
湯	-9.54455
為僧	-9.54638
諦	-9.54654
夙	-9.54733
笑曰	-9.54741
洞山	-9.54746
陷	-9.548
棺	-9.54842
謗	-9.54963
短	-9.54976
寓	-9.55
洛陽	-9.55043
戴	-9.5511
額	-9.55149
丁	-9.55165
範	-9.55176
扣	-9.55215
域	-9.55261
斥	-9.55273
國師	-9.5533
遲	-9.55435
遐	-9.55511
栖	-9.5552
劍	-9.55575
僧問	-9.5565
驅	-9.55802
災	-9.55876
之旨	-9.55957
從之	-9.56026
其言	-9.5606
改元	-9.56173
趙州	-9.5619
慎	-9.56263
輿	-9.56275
尺	-9.56327
而無	-9.56412
晝	-9.56529
踰	-9.5657
思惟	-9.56645
某甲	-9.56685
產	-9.56818
十五年	-9.56854
白雲	-9.56905
王曰	-9.57079
和上	-9.57088
蔽	-9.57198
十三年	-9.57285
感應	-9.5731
何故	-9.57374
環	-9.57473
遠近	-9.57586
老人	-9.5759
第三	-9.57746
掩	-9.57788
韋	-9.5795
酬	-9.58255
何所	-9.58282
函	-9.58305
整	-9.58315
開皇	-9.58316
又有	-9.58329
法華經	-9.58353
干	-9.58412
作麼生	-9.58463
放光	-9.58479
厥	-9.58601
溈山	-9.5862
誘	-9.58865
神通	-9.58895
詮	-9.58952
判	-9.5901
爰	-9.59281
胎	-9.59351
而為	-9.59365
渠	-9.59393
偉	-9.59572
勵	-9.59576
厲	-9.59658
學士	-9.59672
這	-9.59675
鑄	-9.59814
此經	-9.59851
太宗	-9.59879
壯	-9.59903
受具	-9.59998
因果	-9.60017
妖	-9.60122
不出	-9.60188
祕	-9.60196
所居	-9.60305
荊州	-9.60424
檀越	-9.60499
猛	-9.60588
磨	-9.60652
淺	-9.60667
愧	-9.6071
庸	-9.60747
與之	-9.60808
德山	-9.60819
遮	-9.60868
裕	-9.60953
藉	-9.61173
丈	-9.61279
將軍	-9.61314
毘	-9.61335
濫	-9.61378
春秋	-9.61534
遠公	-9.61597
卓	-9.61639
罕	-9.61697
逃	-9.61807
忽見	-9.61912
十九	-9.62028
征	-9.62045
萬物	-9.6217
龜	-9.62232
牧	-9.62274
佛之	-9.62485
何得	-9.62491
竺	-9.62531
刃	-9.62607
貞觀	-9.62634
喝	-9.62689
奧	-9.62757
疎	-9.62926
即便	-9.62932
探	-9.62937
;	-9.62962
從此	-9.62995
鮮	-9.63129
祀	-9.63227
󲊛	-9.63252
男	-9.63256
闡	-9.63295
其徒	-9.63353
諸人	-9.6365
之功	-9.63665
互	-9.63703
嗟	-9.63783
明年	-9.63912
映	-9.6405
煩	-9.64252
優	-9.64369
家人	-9.6464
大道	-9.64727
呂	-9.6475
冷	-9.64782
居之	-9.64879
此事	-9.64897
育	-9.64909
東南	-9.64993
單	-9.65022
鄙	-9.65041
古人	-9.65075
社	-9.65269
惜	-9.65382
次第	-9.65402
宰	-9.65409
無相	-9.65442
不肯	-9.65497
儼	-9.65543
朔	-9.65568
必有	-9.65602
中國	-9.65636
之際	-9.65637
黨	-9.65647
鼻	-9.65674
黃龍	-9.65787
㵎	-9.6585
館	-9.65859
不然	-9.65906
不如	-9.65972
擁	-9.66076
僕	-9.66107
道德	-9.66124
頴	-9.66172
三百	-9.6623
豈非	-9.66265
四海	-9.66405
稽首	-9.66434
之外	-9.66448
大明	-9.6665
三世	-9.66667
無人	-9.66735
數十	-9.66972
邦	-9.66976
不以	-9.67026
慚	-9.67035
萬里	-9.67066
忌	-9.67118
人天	-9.67178
無礙	-9.6725
名為	-9.67337
人之	-9.6736
百丈	-9.67366
困	-9.67408
祖師	-9.67433
弊	-9.67435
嶽	-9.67541
鋒	-9.67541
測	-9.67563
醫	-9.67736
羽	-9.6776
之義	-9.67761
異之	-9.67887
焚香	-9.67993
鶴	-9.68055
受持	-9.68187
溺	-9.68369
有司	-9.68398
曜	-9.68429
謚	-9.68541
倚	-9.6856
以來	-9.68688
檀	-9.6874
若有	-9.68774
天王	-9.68864
占	-9.68893
七寶	-9.68928
肆	-9.68948
韻	-9.68985
練	-9.69055
杭州	-9.69065
斬	-9.69072
答云	-9.69173
禹	-9.69235
敕	-9.69257
漏	-9.69387
捉	-9.69461
告曰	-9.69488
皓	-9.6962
限	-9.69633
繞	-9.69662
警	-9.69692
防	-9.69704
三人	-9.69785
江陵	-9.69825
襲	-9.69861
辱	-9.69879
衡	-9.69948
崔	-9.70033
暉	-9.70036
成就	-9.70094
丞相	-9.70148
祿	-9.70211
復有	-9.7022
堯	-9.70249
詢	-9.70391
僅	-9.70462
】【	-9.70469
穆	-9.70493
貧道	-9.70506
窟	-9.70522
險	-9.70661
一夕	-9.70743
勉	-9.70786
聲聞	-9.70936
石頭	-9.70951
良久	-9.71019
睡	-9.71034
鑿	-9.71068
殆	-9.71114
金陵	-9.71142
先師	-9.71247
所在	-9.71305
傳燈	-9.71334
拂	-9.71347
翻譯	-9.71359
冲	-9.71445
浩	-9.71463
使人	-9.71512
或云	-9.71659
會稽	-9.71687
苑	-9.7186
竝	-9.71954
佛道	-9.71992
荊	-9.72058
孟	-9.72103
是非	-9.72155
策	-9.7221
發心	-9.72242
不食	-9.72255
覓	-9.72414
東西	-9.72623
泣	-9.72631
奴	-9.72659
曹溪	-9.72774
準	-9.72795
至此	-9.72834
而至	-9.72842
四十	-9.73075
時人	-9.731
割	-9.7315
把	-9.73201
携	-9.73229
維	-9.73258
祠	-9.73269
黃檗	-9.7327
清涼	-9.73292
閩	-9.73294
程	-9.73349
忽然	-9.7347
徙	-9.7349
紹興	-9.73504
不應	-9.73521
巧	-9.7356
罔	-9.73577
攻	-9.7361
諸經	-9.7365
蔭	-9.73663
佛祖	-9.73837
拈	-9.73838
巳而	-9.73907
有省	-9.73926
猷	-9.73945
築	-9.74012
西南	-9.74014
雷	-9.74083
辰	-9.74094
欺	-9.74112
小乘	-9.74154
麻	-9.74167
傑	-9.74185
准	-9.7424
其心	-9.74256
樹下	-9.74277
賦	-9.74583
岩	-9.74641
扇	-9.74643
開元	-9.74646
靈隱	-9.74685
而生	-9.74691
不絕	-9.74807
之意	-9.74825
哭	-9.74876
數百	-9.7489
而卒	-9.74892
寔	-9.7493
羣	-9.75009
買	-9.75024
齎	-9.75035
八十	-9.75037
缺	-9.7504
纏	-9.75049
百姓	-9.75136
循	-9.75142
伽	-9.75169
上下	-9.75234
尾	-9.75368
圍	-9.75375
一句	-9.75384
䇿	-9.75463
誌	-9.75584
讖	-9.75598
蹤	-9.7561
吞	-9.75664
分別	-9.7576
辦	-9.75806
闍維	-9.75833
王子	-9.75833
衍	-9.75854
上堂	-9.75855
諭	-9.75876
太平	-9.75889
或有	-9.75924
一名	-9.75947
柱	-9.75986
誦法華經	-9.76145
舒	-9.76249
慢	-9.76266
是為	-9.76308
所得	-9.76334
百年	-9.7636
龍樹	-9.76392
僧徒	-9.76404
終日	-9.76485
發願	-9.765
成佛	-9.76556
圓通	-9.76756
異香	-9.76761
訶	-9.76808
龍王	-9.76843
奘	-9.76866
而來	-9.76923
五日	-9.7694
飲食	-9.77234
懇	-9.77284
善惡	-9.77355
屍	-9.77443
有三	-9.7756
猶如	-9.77615
賣	-9.77717
奚	-9.77758
鈔	-9.77777
凡夫	-9.77878
虛空	-9.77965
而後	-9.7798
不在	-9.78029
佛性	-9.78083
千里	-9.78102
囊	-9.78181
怖	-9.78214
先是	-9.78351
阿育王	-9.78365
其身	-9.78409
犬	-9.78425
知之	-9.78468
不受	-9.78477
身心	-9.78508
捐	-9.78597
鴻	-9.78609
二卷	-9.78693
霜	-9.78732
薪	-9.78771
巡	-9.78782
炎	-9.78812
一生	-9.78868
摧	-9.78976
【	-9.78983
姑	-9.79001
屏	-9.79025
誦法華	-9.79053
涼	-9.79141
仰山	-9.79222
常住	-9.79225
七十	-9.7923
佛言	-9.79239
甫	-9.79329
西北	-9.79465
段	-9.79582
秉	-9.79632
乞食	-9.79661
皆是	-9.79691
釋道	-9.79817
弱	-9.79849
生於	-9.79865
四眾	-9.79894
此人	-9.79898
蟲	-9.79925
虔	-9.80024
肯	-9.80056
臻	-9.80056
耀	-9.80113
牒	-9.80151
格	-9.80273
淨業	-9.80295
范	-9.80349
朝廷	-9.80354
十六年	-9.80405
禪定	-9.80458
行者	-9.80515
窺	-9.80761
詠	-9.80763
禱	-9.80904
諸國	-9.81068
大業	-9.81098
旬	-9.81116
利益	-9.81143
威儀	-9.8115
在此	-9.81176
五臺	-9.81231
建塔	-9.81275
捧	-9.81343
的	-9.81357
百千	-9.81367
我等	-9.81396
牽	-9.81455
爛	-9.81457
而終	-9.81498
歸依	-9.81695
廓	-9.81849
墨	-9.81998
十卷	-9.82071
喫	-9.82186
祚	-9.82218
湛	-9.82273
至于	-9.8242
懿	-9.82442
踐	-9.82508
副	-9.82607
邁	-9.82653
南岳	-9.82714
兄弟	-9.82804
法藏	-9.82874
他日	-9.82885
賜號	-9.82906
請師	-9.82993
法眼	-9.8309
斗	-9.83107
虞	-9.83126
方等	-9.83174
乃曰	-9.83222
太后	-9.83233
大臣	-9.83261
甲子	-9.83265
之門	-9.83317
一千	-9.8333
侍郎	-9.83372
譏	-9.83413
起塔	-9.83541
伸	-9.83556
三卷	-9.83562
阿彌陀佛	-9.8365
彩	-9.83681
不生	-9.83757
駭	-9.83817
禮佛	-9.83888
無以	-9.84059
入道	-9.84158
若是	-9.84221
講說	-9.84278
播	-9.8429
入滅	-9.84315
十地	-9.84352
諮	-9.84428
本無	-9.84439
馬祖	-9.84448
門外	-9.8446
軒	-9.84513
得其	-9.84584
大覺	-9.84661
無異	-9.84706
碎	-9.84721
粒	-9.8475
南北	-9.85039
排	-9.85065
譬如	-9.85065
研	-9.85068
借	-9.85237
文帝	-9.85346
慈雲	-9.85375
氷	-9.8555
沉	-9.85593
語言	-9.8564
儉	-9.85818
熙	-9.85822
闇	-9.8584
邀	-9.85897
瓦	-9.86004
與麼	-9.86006
韶	-9.8602
祝	-9.86022
憲	-9.86126
敦	-9.86286
然而	-9.86425
廬	-9.86483
慰	-9.86489
第四	-9.86544
豈有	-9.86553
將來	-9.86591
不起	-9.86602
三教	-9.86683
諸法	-9.86697
透	-9.86703
煙	-9.86734
莫能	-9.86937
嫌	-9.86981
過去	-9.87005
畜	-9.87077
俄而	-9.87125
觀之	-9.87136
大夫	-9.87139
撥	-9.87178
卑	-9.87191
帛	-9.87273
上人	-9.87374
出入	-9.87385
雲居	-9.87387
班	-9.87423
坐禪	-9.87436
示眾	-9.87538
該	-9.87595
膝	-9.87597
所有	-9.8764
華嚴經	-9.87751
姚	-9.87824
跪	-9.87851
巢	-9.87853
十七年	-9.87901
帥	-9.8792
天童	-9.87934
南山	-9.87951
繩	-9.88032
分明	-9.88109
閉	-9.8811
肇	-9.88132
男女	-9.88142
之子	-9.88229
人皆	-9.88257
此土	-9.88333
之處	-9.88386
俗姓	-9.88423
命終	-9.88459
愍	-9.88495
勘	-9.88529
皆有	-9.88535
阿羅漢	-9.88544
不可以	-9.88599
墳	-9.88602
使者	-9.8862
境界	-9.88677
爽	-9.88717
偃	-9.88752
遼	-9.88778
且道	-9.88819
群臣	-9.88841
百餘	-9.8886
裂	-9.88864
東北	-9.88868
無盡	-9.88926
州刺史	-9.88927
六十	-9.88973
真如	-9.88997
入定	-9.89011
新羅	-9.89022
已來	-9.89069
介	-9.89082
未嘗	-9.89089
番	-9.89183
枕	-9.89314
問道	-9.89371
西天	-9.89419
南泉	-9.8947
剌	-9.89524
盖	-9.89539
癡	-9.89591
入山	-9.89606
板	-9.89725
實相	-9.89728
湘	-9.89768
安樂	-9.89802
傳法	-9.89963
之下	-9.89986
這箇	-9.90005
譬	-9.9004
衣服	-9.90093
一切眾生	-9.9012
侶	-9.90196
享	-9.90246
穿	-9.90251
五色	-9.90338
學徒	-9.90355
仕	-9.904
洽	-9.9043
卜	-9.9053
終不	-9.90538
一百	-9.90612
遶	-9.90646
碧	-9.90871
賤	-9.90926
為我	-9.90927
箭	-9.90927
洎	-9.91081
刊	-9.91134
牙	-9.91316
油	-9.91394
不相	-9.91422
言之	-9.91443
包	-9.91478
構	-9.91501
無心	-9.91517
嗚呼	-9.91684
醉	-9.91728
吟	-9.9173
衢	-9.91746
雪竇	-9.91756
不聞	-9.91797
妃	-9.9182
蓮花	-9.91823
一一	-9.91945
曆	-9.91987
仙人	-9.91995
恁麼	-9.92057
成都	-9.92063
場	-9.92096
較	-9.92119
得度	-9.92149
効	-9.92152
女人	-9.92253
江南	-9.92318
祥符	-9.92393
滅度	-9.92461
聖賢	-9.92474
忽有	-9.92625
世祖	-9.92666
仁義	-9.92669
語曰	-9.92725
不會	-9.92739
苦行	-9.92754
宗旨	-9.92858
隷	-9.92899
叩	-9.92906
杲	-9.93087
淪	-9.93142
凶	-9.9317
說偈曰	-9.93243
高僧	-9.93321
本傳	-9.93543
淫	-9.93636
課	-9.93643
世之	-9.93728
等經	-9.93779
棒	-9.93783
若此	-9.93826
不離	-9.93847
寵	-9.93886
瑩	-9.93887
釋慧	-9.93933
方丈	-9.93953
三十二	-9.93962
玅	-9.94037
發明	-9.94115
耕	-9.94129
羅什	-9.94266
牀	-9.94364
侵	-9.9439
聞者	-9.94461
午	-9.94553
滋	-9.94619
敵	-9.94661
匪	-9.94691
石室	-9.94763
污	-9.94882
罵	-9.95128
為師	-9.95128
嚮	-9.95128
柳	-9.95131
輝	-9.95232
淮	-9.95235
釋教	-9.95245
師乃	-9.95251
以手	-9.95392
束	-9.95399
之上	-9.95486
教化	-9.95517
未能	-9.95519
諡	-9.95528
贊曰	-9.95636
山寺	-9.95713
即以	-9.95723
則有	-9.95755
礙	-9.95758
劒	-9.95785
之風	-9.95791
佐	-9.9585
乏	-9.95865
奉佛	-9.95891
汝當	-9.95953
雞	-9.96026
受業	-9.96188
得道	-9.962
十萬	-9.96259
金剛經	-9.96264
眠	-9.96291
維摩	-9.96294
二十四	-9.96302
柔	-9.96348
罰	-9.96362
削	-9.96388
齡	-9.96393
褒	-9.96438
國公	-9.96459
何人	-9.96512
賀	-9.96615
驢	-9.96668
儲	-9.96673
江西	-9.9672
飢	-9.96878
相與	-9.97062
陰陽	-9.97226
付囑	-9.9724
小兒	-9.97288
故也	-9.97314
擔	-9.97351
瓊	-9.97422
潭	-9.97536
截	-9.97574
咎	-9.97605
灌	-9.97626
仁者	-9.9764
幡	-9.97659
數年	-9.97664
囚	-9.97664
亟	-9.97687
其志	-9.9769
明帝	-9.97744
激	-9.97787
國家	-9.97804
七歲	-9.97825
布施	-9.97852
汝今	-9.97898
吹	-9.97909
群生	-9.97961
其上	-9.9798
育王	-9.98096
未知	-9.98155
其家	-9.98172
太原	-9.98194
未審	-9.98197
而行	-9.9825
▁宋	-9.98263
膺	-9.98351
護法	-9.9836
不壞	-9.98374
拳	-9.98409
究竟	-9.98416
匡	-9.98432
乙	-9.98532
狗	-9.98546
之名	-9.98608
偕	-9.98609
局	-9.98696
法雲	-9.98734
眷屬	-9.98774
多少	-9.98813
搜	-9.98904
得一	-9.98921
什麼	-9.98945
錦	-9.98952
肩	-9.99045
自稱	-9.99067
是佛	-9.99121
屠	-9.99135
藝	-9.99152
貞元	-9.99153
▁唐	-9.99219
之理	-9.99236
神力	-9.9933
各有	-9.9933
巾	-9.99339
有異	-9.99435
雪峯	-9.99452
之內	-9.9946
十八年	-9.99465
坊	-9.99467
嘆	-9.99472
叟	-9.99484
師之	-9.99644
夜夢	-9.99648
刺	-9.99692
東山	-9.99717
叡	-9.99741
見者	-9.99748
往往	-9.99902
惱	-9.99964
弄	-9.99964
楞嚴	-10.0009
閻浮提	-10.0015
咨	-10.0019
靖	-10.0022
建立	-10.0025
無明	-10.0027
誣	-10.0038
為業	-10.004
戀	-10.0049
無窮	-10.0049
出於	-10.0052
許之	-10.0053
搆	-10.0055
白衣	-10.0069
掃	-10.0069
師因	-10.0074
成道	-10.009
輸	-10.01
所作	-10.0101
得法	-10.0102
紛	-10.0104
二十五	-10.0107
高宗	-10.0124
《	-10.0137
集眾	-10.0138
時如何	-10.0146
仗	-10.0154
六祖	-10.0156
溢	-10.0157
不言	-10.0157
司馬	-10.0171
灌頂	-10.0178
沐浴	-10.0184
其國	-10.0184
署	-10.0184
歿	-10.0185
括	-10.0185
挺	-10.0186
陋	-10.0187
四大	-10.019
詐	-10.0215
頃之	-10.0216
闢	-10.023
菜	-10.0231
濕	-10.0238
榻	-10.0238
提婆	-10.0243
落髮	-10.0252
徒眾	-10.0253
遜	-10.0257
胸	-10.0264
報恩	-10.0266
=	-10.0269
獸	-10.029
剛	-10.0302
之文	-10.0306
山林	-10.0308
釋僧	-10.0311
豪	-10.0313
真實	-10.0314
法王	-10.0315
帝王	-10.0332
衣鉢	-10.0339
可得	-10.0349
不用	-10.035
聊	-10.035
芝	-10.0357
將欲	-10.0358
東林	-10.0362
揖	-10.0368
垢	-10.0378
如今	-10.038
□	-10.0387
歸宗	-10.0388
輙	-10.0401
八萬四千	-10.0413
示疾	-10.0414
粥	-10.0417
珪	-10.042
天下之	-10.0421
姿	-10.0426
之類	-10.0427
四月八日	-10.0427
得之	-10.0431
正覺	-10.0434
蒼	-10.0434
兆	-10.0436
仁壽	-10.0438
現前	-10.0448
何如	-10.0452
既至	-10.0464
聰明	-10.0465
雖有	-10.047
佛事	-10.0474
頭陀	-10.0475
所造	-10.0476
其母	-10.0479
四部	-10.049
一言	-10.0491
一字	-10.0497
天宮	-10.0498
杭	-10.0507
十九年	-10.0519
其文	-10.0529
僧伽	-10.0531
併	-10.0533
高座	-10.0535
襄陽	-10.0543
永嘉	-10.0544
殺之	-10.0555
晨	-10.0556
匹	-10.0562
為大	-10.0569
觀世音	-10.057
趺坐	-10.0571
王公	-10.0573
元嘉	-10.0574
天寶	-10.0576
護持	-10.0579
諷	-10.0583
不勝	-10.059
亦云	-10.0592
外國	-10.0598
大海	-10.0605
不解	-10.0617
粗	-10.0622
來迎	-10.0627
悉皆	-10.0629
毫	-10.0631
辛	-10.0632
涌	-10.0649
灑	-10.065
諸僧	-10.0654
國人	-10.0654
拒	-10.0655
之前	-10.0661
其意	-10.0671
冤	-10.0675
安置	-10.0676
爐	-10.0678
恥	-10.0681
逈	-10.0683
寇	-10.0704
援	-10.0705
獎	-10.0705
十日	-10.0707
如故	-10.0718
帙	-10.0724
之力	-10.0731
子孫	-10.0735
裁	-10.0736
福田	-10.0743
歇	-10.0752
快	-10.0753
剪	-10.0754
靈山	-10.0764
)。(	-10.0765
未盡	-10.0774
淚	-10.0776
饒	-10.0779
材	-10.079
算	-10.0794
貨	-10.0794
元和	-10.0799
弓	-10.0802
老君	-10.081
虧	-10.0811
之禮	-10.0812
片	-10.0813
欝	-10.0817
平等	-10.0825
顒	-10.0832
授以	-10.0843
有何	-10.0844
今之	-10.0849
鸞	-10.085
遊方	-10.0867
帳	-10.0869
問之	-10.087
無著	-10.0871
竪	-10.0872
於中	-10.0872
京兆	-10.0873
梅	-10.0874
非一	-10.0876
永明	-10.0876
如意	-10.0878
諍	-10.0879
梵本	-10.0881
所著	-10.0881
之者	-10.0891
十餘	-10.0897
非常	-10.0898
柴	-10.0905
邈	-10.0908
號為	-10.0921
本來	-10.0927
豈可	-10.0934
壤	-10.0937
闍	-10.0937
定慧	-10.0938
派	-10.0946
高麗	-10.0952
價	-10.0955
漫	-10.0962
人民	-10.0968
玄奘	-10.0976
三乘	-10.098
鄴	-10.098
閒	-10.098
識者	-10.0986
一僧	-10.0986
無畏	-10.0993
最後	-10.1
當有	-10.1001
翰	-10.1008
不須	-10.1009
泛	-10.101
慧日	-10.1014
蘇州	-10.1015
掘	-10.1016
蔡	-10.1018
寒暑	-10.1022
而死	-10.1032
持戒	-10.1033
噉	-10.1043
俯	-10.1045
奮	-10.1048
於世	-10.1059
傅	-10.1059
及諸	-10.1059
多羅	-10.1061
寤	-10.1067
大慈	-10.1071
綿	-10.1073
無上	-10.1084
不自	-10.1088
殃	-10.109
帝釋	-10.1091
河東	-10.1094
寂滅	-10.1108
躍	-10.1109
此山	-10.1114
大事	-10.1118
戎	-10.1129
信心	-10.1129
邃	-10.1129
若能	-10.1133
五卷	-10.1134
轍	-10.1134
擾	-10.1136
書曰	-10.1137
填	-10.1138
刺史	-10.114
宴坐	-10.1141
二百	-10.1152
高僧傳	-10.1155
庫	-10.1156
薛	-10.116
不空	-10.1168
效	-10.1169
不久	-10.1176
王氏	-10.1177
號曰	-10.1181
國土	-10.1194
有四	-10.121
謂其	-10.1225
析	-10.1227
掛	-10.1231
始得	-10.1231
貢	-10.1232
聖教	-10.1233
訥	-10.1235
主人	-10.1238
穀	-10.1238
五祖	-10.1252
故知	-10.1256
釋法	-10.1256
鼠	-10.1257
詰	-10.1266
世人	-10.127
道也	-10.1271
由此	-10.1277
註	-10.1277
賈	-10.1279
欣然	-10.1289
絹	-10.1293
京城	-10.1295
三十六	-10.1297
是歲	-10.1303
叛	-10.1311
顗	-10.1314
蒲	-10.1317
郊	-10.1329
一年	-10.133
四人	-10.1333
邪見	-10.1338
捕	-10.1339
生淨土	-10.1341
籠	-10.1343
盲	-10.1343
其僧	-10.1344
皇后	-10.1347
大地	-10.1347
善知識	-10.1352
上有	-10.1358
相似	-10.1376
不定	-10.1385
握	-10.1404
埋	-10.1406
彭城	-10.1407
法席	-10.141
而退	-10.1417
讀誦	-10.1421
一乘	-10.1422
諾	-10.1424
岐	-10.1433
無間	-10.1433
眾人	-10.1437
霄	-10.1438
墓	-10.1442
炬	-10.1449
知見	-10.145
生滅	-10.1453
設齋	-10.1456
耶舍	-10.1458
糧	-10.1459
飽	-10.1466
幢	-10.1467
武德	-10.147
難陀	-10.148
佛日	-10.1481
所至	-10.1484
不忘	-10.1487
吉祥	-10.1488
二十七	-10.1489
搖	-10.149
未聞	-10.1491
奕	-10.1494
而成	-10.1495
仲尼	-10.1496
撿	-10.1497
魂	-10.1497
鎖	-10.1498
不思議	-10.15
道安	-10.1512
諸子	-10.1513
其法	-10.1514
臭	-10.1518
無數	-10.1521
故曰	-10.1521
名僧	-10.1529
公卿	-10.1531
少時	-10.1539
頌曰	-10.154
大慧	-10.1546
宰相	-10.1547
其地	-10.1548
毋	-10.1554
觀其	-10.1569
甲寅	-10.1571
又見	-10.1574
蹈	-10.1578
圓覺	-10.1584
五人	-10.1585
阻	-10.1587
為法	-10.1591
毗	-10.1592
道理	-10.1599
豁然	-10.1599
總持	-10.1602
襄	-10.1605
龍門	-10.1608
霞	-10.161
項	-10.1614
冊	-10.1615
胤	-10.1617
呵	-10.1625
自爾	-10.1628
和尚者	-10.164
庚子	-10.164
震旦	-10.1642
沐	-10.1645
旱	-10.1651
論曰	-10.1653
不輟	-10.1661
默然	-10.1663
庚申	-10.1665
兜率	-10.1672
說偈	-10.1676
虜	-10.1682
大曆	-10.1687
其間	-10.1695
沼	-10.1702
有餘	-10.1707
二日	-10.1717
其本	-10.1718
眾皆	-10.1725
足以	-10.1736
會昌	-10.1736
乃以	-10.1738
矯	-10.1743
銷	-10.1745
矜	-10.1751
一見	-10.1752
農	-10.1758
尹	-10.1762
玄宗	-10.1767
大笑	-10.1769
爵	-10.177
而坐	-10.177
吳越	-10.1771
柏	-10.1772
付法	-10.1782
公曰	-10.1788
草木	-10.1791
妻子	-10.1794
後於	-10.1798
未來	-10.18
顛	-10.1806
皆悉	-10.181
其子	-10.1813
其教	-10.1816
山僧	-10.1821
南海	-10.1825
知識	-10.1833
室中	-10.1839
烟	-10.1844
嘆曰	-10.185
廉	-10.1855
焰	-10.1859
愁	-10.1868
亦非	-10.1871
十人	-10.1872
奈何	-10.1875
後人	-10.1878
窣堵波	-10.1886
四百	-10.1891
禪師者	-10.1897
佩	-10.1899
綜	-10.19
輦	-10.1901
神明	-10.1902
自知	-10.1913
几	-10.1913
山谷	-10.1925
愆	-10.1931
霑	-10.1935
壽八十	-10.1936
藏經	-10.1939
令人	-10.1942
層	-10.1947
死生	-10.196
壑	-10.1962
凌	-10.1968
學人	-10.1976
文章	-10.1979
無事	-10.1979
馮	-10.1983
雪山	-10.1985
憫	-10.1995
晏	-10.1995
之相	-10.1997
卒於	-10.1998
臘	-10.1998
頹	-10.1999
頂禮	-10.2
〕	-10.2003
流通	-10.2005
不遠	-10.2007
桓	-10.2019
軸	-10.202
未曾	-10.2022
經二卷	-10.2022
系	-10.2025
辟	-10.2025
瘡	-10.2028
桂	-10.2031
年七十	-10.2033
變化	-10.2036
法智	-10.2037
麁	-10.2038
所知	-10.2049
麟	-10.2051
萬法	-10.2053
弼	-10.2053
係	-10.2057
不顧	-10.2057
嬰	-10.2059
法嗣	-10.206
不與	-10.2061
醒	-10.2061
佛寺	-10.2063
行業	-10.2063
區	-10.2076
揮	-10.208
山川	-10.2084
石霜	-10.2088
饑	-10.2094
述曰	-10.2098
不合	-10.2103
之盛	-10.2108
彭	-10.2109
入涅槃	-10.2109
心要	-10.211
經行	-10.2111
台	-10.2114
略曰	-10.2117
藻	-10.212
僧眾	-10.2122
剋	-10.2122
之書	-10.2124
其義	-10.2128
迫	-10.2129
不行	-10.2132
示之	-10.2141
侍中	-10.2146
方知	-10.2152
揭	-10.2155
禪宗	-10.2156
傲	-10.2157
梵僧	-10.2166
具戒	-10.2166
更有	-10.2177
慈氏	-10.2183
踏	-10.2185
纂	-10.2185
唐言	-10.2187
佛為	-10.219
道行	-10.2195
至德	-10.2206
度僧	-10.2208
四卷	-10.2239
當知	-10.2241
不忍	-10.2241
益州	-10.2244
噫	-10.2249
贍	-10.2251
與諸	-10.2251
生而	-10.2254
筆受	-10.2256
鄰	-10.2256
君臣	-10.2256
何必	-10.2256
同學	-10.2263
寶塔	-10.2268
行脚	-10.227
風雨	-10.227
藥山	-10.2272
爪	-10.2274
只是	-10.2277
陀羅尼	-10.228
妾	-10.2281
廣大	-10.2282
替	-10.2282
玄沙	-10.229
安得	-10.2305
未至	-10.2314
健	-10.2316
未及	-10.2325
坦	-10.2327
旻	-10.2329
伴	-10.2332
求之	-10.2338
燒香	-10.2342
更無	-10.2343
舍利弗	-10.2352
隅	-10.2354
入內	-10.2362
有聲	-10.2362
獵	-10.2363
東都	-10.2367
經像	-10.2376
作佛	-10.238
訣	-10.2381
其先	-10.2389
經律	-10.2398
員	-10.2399
般	-10.2404
無復	-10.2408
劣	-10.2408
為一	-10.2414
而立	-10.2416
絲	-10.2417
有緣	-10.2421
法性	-10.2422
恃	-10.2426
神異	-10.2426
戒行	-10.2428
丞	-10.2428
了也	-10.2433
我當	-10.2437
別有	-10.2439
瞋	-10.2449
擅	-10.245
倉	-10.2451
優波笈多	-10.2451
斂	-10.2455
昨	-10.2457
禮敬	-10.2457
如前	-10.246
朽	-10.2467
住處	-10.2467
門下	-10.2469
而下	-10.2469
坑	-10.2474
其一	-10.2478
自號	-10.2482
及其	-10.2483
旌	-10.2484
而能	-10.2484
中夜	-10.2493
無邊	-10.2494
亦名	-10.2502
太和	-10.2505
其名	-10.2505
妙法	-10.2507
奢	-10.2514
諸寺	-10.2517
泯	-10.2518
翠	-10.2518
戒律	-10.2525
大品	-10.2527
與我	-10.253
詎	-10.2532
壬申	-10.2539
暨	-10.2544
而有	-10.2545
茅	-10.2548
朴	-10.255
叉	-10.2562
豁	-10.2568
皎	-10.2569
六日	-10.2577
終於	-10.2577
稠	-10.2578
大教	-10.2578
又以	-10.2583
一旦	-10.2586
徽	-10.2594
同時	-10.2596
濁	-10.26
不滅	-10.2603
長生	-10.2605
訛	-10.2608
舞	-10.2609
謂眾曰	-10.2609
經典	-10.2613
完	-10.2622
城中	-10.2622
衲子	-10.2623
為善	-10.2624
飄	-10.2629
無對	-10.2629
道之	-10.2633
圓悟	-10.2639
二十一	-10.264
傳云	-10.2643
為道	-10.2649
淨慈	-10.2654
枉	-10.2655
不異	-10.2659
致敬	-10.266
法輪	-10.2667
故名	-10.2675
恭敬	-10.2676
丁未	-10.2677
與汝	-10.2681
第五	-10.2683
千餘	-10.2684
配	-10.2689
度人	-10.2693
韓子	-10.2695
飡	-10.2696
者乎	-10.2701
淨名	-10.2703
此乃	-10.2707
是知	-10.2708
夾	-10.271
之世	-10.2715
精勤	-10.2723
拯	-10.2726
宮殿	-10.2729
至矣	-10.2729
去也	-10.2731
王者	-10.2734
宵	-10.2735
西山	-10.2735
覲	-10.2745
日夜	-10.2746
神光	-10.2751
錢唐	-10.2752
吼	-10.2755
用心	-10.2756
梵語	-10.2764
長慶	-10.2765
記云	-10.2774
聖人之	-10.2774
後有	-10.2776
不可得	-10.2779
衲	-10.2785
其餘	-10.2787
袁	-10.2789
孕	-10.2789
宴	-10.2789
認	-10.279
相應	-10.2791
斫	-10.2792
舶	-10.2793
開悟	-10.2794
當為	-10.2795
眷	-10.2796
俟	-10.2797
恣	-10.2807
湧	-10.2807
不容	-10.2811
寺中	-10.282
麤	-10.2826
有情	-10.2836
不殺	-10.2837
尉	-10.2837
古之	-10.2838
明州	-10.2843
甚麼	-10.2847
女子	-10.2851
不淨	-10.2859
汗	-10.2863
摩訶	-10.2864
狹	-10.2868
華言	-10.287
二十八	-10.2882
修淨業	-10.2883
不從	-10.2884
醜	-10.2895
挽	-10.2899
二千	-10.29
其父	-10.2904
甲午	-10.2921
山下	-10.2924
霧	-10.2926
之流	-10.2927
雖復	-10.2928
汝可	-10.2929
剖	-10.2934
拄杖	-10.2939
縱橫	-10.294
以聞	-10.2946
熏	-10.2955
須彌	-10.2957
豫章	-10.2963
暑	-10.2963
而歸	-10.2966
翔	-10.2967
乍	-10.2973
百官	-10.2979
入城	-10.298
不著	-10.2982
七卷	-10.2986
之宗	-10.299
太尉	-10.2997
京邑	-10.3001
處處	-10.3002
幹	-10.3005
緇素	-10.3006
罽賓	-10.3012
化為	-10.3017
諸侯	-10.3019
個	-10.3022
關中	-10.3025
於彼	-10.3028
憤	-10.3032
不二	-10.3034
何事	-10.3034
匿	-10.3039
佳	-10.3045
緇	-10.3048
裴	-10.3051
天尊	-10.3051
其為	-10.3052
父子	-10.3056
亦可	-10.306
之志	-10.3067
維那	-10.3067
長沙	-10.3067
薨	-10.3067
攸	-10.3076
州人	-10.3077
全身	-10.3081
其年	-10.3086
何能	-10.309
之號	-10.3095
叢	-10.3104
朋	-10.3105
亘	-10.3106
伹	-10.3108
其說	-10.311
渾	-10.3111
挾	-10.3114
嗜	-10.3117
無知	-10.3123
不樂	-10.3128
詔曰	-10.313
或曰	-10.3131
桑	-10.3134
凡聖	-10.3138
戚	-10.3143
又於	-10.3143
相好	-10.3145
憩	-10.3148
架	-10.315
現在	-10.3152
不知何許人	-10.3153
稽	-10.3158
二教	-10.3162
安養	-10.3163
秘	-10.3167
南方	-10.3167
五部	-10.3176
翳	-10.3181
鷄	-10.3182
腰	-10.3184
吳興	-10.3187
剃髮	-10.3188
之聲	-10.3192
大悟	-10.3196
遂以	-10.32
相國	-10.3201
帝師	-10.3203
抄	-10.3203
天監	-10.3207
托	-10.321
九十	-10.321
凡有	-10.3214
跋	-10.3215
贖	-10.3215
拙	-10.3216
餅	-10.3217
鱗	-10.3219
學道	-10.322
請益	-10.3226
雍	-10.3228
未詳	-10.3234
辛酉	-10.3238
決定	-10.3239
綽	-10.3244
偷	-10.3252
剏	-10.3254
》	-10.3261
涅槃經	-10.3264
壬午	-10.3276
相傳	-10.3276
便是	-10.3277
諸王	-10.3278
慨	-10.3278
大同	-10.328
五臺山	-10.3282
是日	-10.3285
牢	-10.3288
真諦	-10.329
厨	-10.3295
猪	-10.3298
此則	-10.3305
僧傳	-10.3312
還有	-10.3315
講經	-10.3317
粟	-10.332
不測	-10.332
丙子	-10.332
後學	-10.3329
翹	-10.333
拾	-10.3335
於佛	-10.3336
寸	-10.3339
壽六十	-10.3349
存焉	-10.3349
婬	-10.336
之本	-10.3366
有無	-10.3371
蕃	-10.3373
然其	-10.3379
葛	-10.3385
二子	-10.3398
泥洹	-10.3399
微言	-10.3401
裝	-10.3403
瑜伽	-10.3404
供給	-10.3413
至元	-10.3414
乙未	-10.3414
不過	-10.3416
富貴	-10.3417
多聞	-10.342
由旬	-10.3423
疊	-10.3433
茶毗	-10.3437
舘	-10.3438
誥	-10.3438
酷	-10.344
所生	-10.3445
微妙	-10.3448
受之	-10.3454
戊申	-10.3459
迺	-10.3474
法堂	-10.3478
僧正	-10.3481
之罪	-10.349
闍黎	-10.3499
白馬	-10.35
無二	-10.3504
眾經	-10.3509
聯	-10.351
璧	-10.351
歛	-10.3511
庚戌	-10.3531
也無	-10.3533
與人	-10.3538
不易	-10.354
造寺	-10.3541
然也	-10.3542
而言	-10.3544
真人	-10.3546
婢	-10.3548
淡	-10.355
郁	-10.3551
能仁	-10.3552
於地	-10.3555
弘法	-10.3563
善哉	-10.3567
承天	-10.3568
嗣法	-10.3568
癸亥	-10.3571
以示	-10.3573
行之	-10.3574
北齊	-10.3576
倦	-10.3577
入京	-10.3579
耽	-10.3584
羅國	-10.3584
四日	-10.3586
愽	-10.3587
豈得	-10.359
曷	-10.359
鍾山	-10.3595
年二十	-10.3601
石門	-10.3611
戮	-10.3612
問訊	-10.3616
行化	-10.3617
希有	-10.3618
擒	-10.3619
三皇	-10.3619
揚州	-10.3623
促	-10.3624
終身	-10.3624
天神	-10.3631
一喝	-10.3632
其有	-10.3634
建元	-10.3638
行至	-10.364
丁卯	-10.3646
宮中	-10.3648
神仙	-10.3648
天上	-10.3648
擎	-10.3655
不亦	-10.3657
邕	-10.3658
梨	-10.3658
馬鳴	-10.3664
則無	-10.3665
抽	-10.3666
興化	-10.3667
作佛事	-10.367
漁	-10.3671
令其	-10.3671
一行	-10.3674
黃金	-10.3685
禪者	-10.3689
刪	-10.3697
電	-10.3698
貽	-10.37
豫	-10.3707
夢見	-10.3708
自謂	-10.3714
是何	-10.3716
乙酉	-10.3719
名山	-10.3719
之學	-10.372
於前	-10.3725
即為	-10.3727
不可思議	-10.3734
不盡	-10.3734
潮	-10.3734
銜	-10.3738
念念	-10.3738
行矣	-10.3742
代宗	-10.3743
皇太子	-10.375
適來	-10.3751
之語	-10.3757
至道	-10.3767
蔬	-10.3771
乾坤	-10.3771
其旨	-10.3774
筵	-10.3774
玩	-10.3777
五千	-10.3787
五里	-10.3791
不入	-10.3792
夫子	-10.3794
之初	-10.3795
丁亥	-10.3796
壬辰	-10.38
吾將	-10.3804
璉	-10.3812
大中	-10.3813
綵	-10.3815
晚年	-10.3816
陟	-10.3817
佛祖統紀	-10.3819
南陽	-10.383
靈異	-10.3836
乙卯	-10.3839
釋智	-10.384
艱	-10.3843
若無	-10.3846
蔚	-10.3852
荊溪	-10.3852
豆	-10.3853
旛	-10.3853
雀	-10.3855
龍宮	-10.3856
旅	-10.3857
此國	-10.386
明旦	-10.3874
拂子	-10.3874
亦是	-10.3883
金像	-10.3884
讚曰	-10.3885
驚異	-10.3885
不聽	-10.3888
第六	-10.3889
悼	-10.3891
𦘕	-10.3891
募	-10.3892
牆	-10.3893
因而	-10.3894
致書	-10.3896
寂然	-10.3898
為國	-10.3914
稱為	-10.3918
願力	-10.3918
丈六	-10.3919
諸弟子	-10.3921
跨	-10.3928
晃	-10.3928
浦	-10.3932
何謂	-10.3932
踞	-10.3935
福州	-10.3943
有旨	-10.396
乙巳	-10.3961
禪寺	-10.3969
丁巳	-10.397
國清	-10.3972
受苦	-10.3974
面西	-10.3975
受具戒	-10.398
三載	-10.3984
無我	-10.3986
湛然	-10.3989
東土	-10.3989
故有	-10.399
言語	-10.3991
沙門法	-10.3991
入寺	-10.3992
十三日	-10.3998
隨緣	-10.4001
建康	-10.4003
禮懺	-10.4004
畔	-10.4005
林中	-10.4005
禦	-10.4006
洪武	-10.4021
聞其	-10.4025
司徒	-10.4026
戊午	-10.4029
儼然	-10.4033
壬子	-10.4034
於人	-10.4034
賢首	-10.4037
釆	-10.4049
佛殿	-10.4049
河南	-10.4052
綺	-10.4056
未見	-10.4058
之德	-10.406
金銀	-10.4062
輟	-10.4064
大智	-10.4064
何者	-10.407
丁酉	-10.4075
為說	-10.4076
謾	-10.408
夾山	-10.4085
覧	-10.4086
大千	-10.4095
衣冠	-10.41
每日	-10.4101
嵩山	-10.4104
?」	-10.4106
梵志	-10.411
戊辰	-10.4112
福德	-10.4117
羯磨	-10.4119
饌	-10.4127
名字	-10.4129
其書	-10.4132
大興	-10.4136
終于	-10.4139
此身	-10.4142
多有	-10.4144
見聞	-10.4145
巴	-10.4147
蜜	-10.4154
有佛	-10.4156
至如	-10.4158
舉似	-10.4162
水中	-10.4164
別傳	-10.4172
耆	-10.418
丁丑	-10.4184
論云	-10.4192
千人	-10.4197
丈夫	-10.4203
陞座	-10.4204
無方	-10.4205
始終	-10.4205
姦	-10.4206
挹	-10.4206
沸	-10.4208
錢塘	-10.4213
癸未	-10.4229
捨身	-10.423
甲申	-10.4231
賢聖	-10.4234
乃問	-10.4236
皆為	-10.424
斤	-10.4244
其德	-10.4244
彈指	-10.4251
終南山	-10.4253
中間	-10.4256
辭去	-10.4265
手執	-10.4268
故云	-10.4269
丙辰	-10.4269
故能	-10.427
士庶	-10.4274
乃是	-10.428
巷	-10.4283
厄	-10.4285
不免	-10.4291
賢者	-10.4291
問其故	-10.4291
唯有	-10.4304
而止	-10.4308
乃云	-10.4308
庚午	-10.4313
神曰	-10.4314
無言	-10.4318
有時	-10.4325
自性	-10.4327
療	-10.4329
塔於	-10.4336
生平	-10.4341
戒壇	-10.4347
彈	-10.435
辛丑	-10.4352
詭	-10.4354
唯識	-10.4355
次日	-10.4358
將終	-10.4358
數千	-10.4363
模	-10.4365
忿	-10.4366
之術	-10.4368
護國	-10.4369
娶	-10.437
餐	-10.4371
而未	-10.4379
猶未	-10.4385
根本	-10.4385
丙午	-10.439
壬寅	-10.4392
未可	-10.4392
食之	-10.4398
昂	-10.4401
閻浮	-10.4404
狐	-10.4405
中興	-10.4407
但以	-10.4415
我是	-10.4421
子曰	-10.4423
焦	-10.4427
庚辰	-10.4429
大唐	-10.4432
街	-10.4433
廊	-10.4439
所感	-10.4439
若以	-10.444
則不	-10.4441
無他	-10.4441
償	-10.4448
綠	-10.4448
盆	-10.4448
名德	-10.445
此語	-10.445
恢	-10.445
會麼	-10.4457
或問	-10.4457
以自	-10.4461
謂之曰	-10.4463
受菩薩戒	-10.4465
尊宿	-10.447
二師	-10.4477
不死	-10.448
鈴	-10.4482
雪峰	-10.4484
聞法	-10.4485
而得	-10.4485
這僧	-10.4486
疲	-10.4487
憚	-10.4489
不曾	-10.449
禽	-10.4495
相繼	-10.4496
王宮	-10.4499
赦	-10.4504
此間	-10.4504
果報	-10.4507
六度	-10.4509
香氣	-10.4512
瞻禮	-10.4513
遙見	-10.4514
癸丑	-10.4515
知是	-10.4521
大迦葉	-10.4524
六百	-10.4526
釋門	-10.4527
斧	-10.4529
遷化	-10.453
一月	-10.4542
涯	-10.4543
自有	-10.4548
行於世	-10.4549
不必	-10.4549
論師	-10.4549
金山	-10.4553
相續	-10.4555
觀者	-10.4557
癸卯	-10.4558
大義	-10.4561
道家	-10.4561
壽七十	-10.4561
修道	-10.457
勃	-10.4572
隙	-10.4573
鞭	-10.4574
澆	-10.4574
?	-10.458
於大	-10.4588
蔣山	-10.4589
丙寅	-10.4597
辛亥	-10.4597
桃	-10.4601
此地	-10.4605
鄉人	-10.4606
二十一年	-10.4606
諧	-10.462
靡不	-10.4624
之業	-10.4641
無益	-10.4641
骸	-10.4643
六道	-10.4648
不通	-10.4653
躡	-10.4657
汎	-10.4657
阜	-10.4659
虐	-10.4659
訴	-10.466
貴賤	-10.4663
寺主	-10.4665
不知其	-10.4674
董	-10.4675
百歲	-10.4677
十歲	-10.4677
三觀	-10.468
丙申	-10.468
毱多	-10.4681
永安	-10.4683
欲以	-10.4684
開法	-10.4685
剡	-10.469
則天	-10.4694
廁	-10.4696
便打	-10.4698
心法	-10.4703
久矣	-10.4704
從容	-10.4706
二十餘	-10.4708
求出家	-10.4709
二十二	-10.4709
乃於	-10.471
見有	-10.4711
鄉里	-10.4721
乙亥	-10.4722
有道	-10.4727
是則	-10.4728
師資	-10.4731
鍊	-10.4735
辛巳	-10.4735
釋曇	-10.4735
淹	-10.4736
鄧	-10.4736
宗門	-10.4738
貶	-10.4739
悲泣	-10.4741
我心	-10.4742
儻	-10.4742
二十九	-10.4755
書云	-10.4758
畢竟	-10.4762
瑞應	-10.4763
泊	-10.4764
癸酉	-10.4765
真宗	-10.4766
所住	-10.4768
此言	-10.477
麥	-10.4775
踵	-10.4777
耳目	-10.4779
緩	-10.4781
蔬食	-10.4783
東方	-10.4794
司空	-10.4794
一聲	-10.4799
指示	-10.4801
子之	-10.4802
夢中	-10.4803
六時	-10.4808
為眾	-10.481
故其	-10.4811
奏曰	-10.4813
節度使	-10.4815
之境	-10.4817
薰	-10.4825
諒	-10.483
七百	-10.483
年六十	-10.4832
并州	-10.4834
梵天	-10.4842
是什麼	-10.4848
一云	-10.4849
心地	-10.485
律儀	-10.4852
堯舜	-10.4853
恬	-10.4855
銳	-10.4856
栴檀	-10.486
攀	-10.4861
即今	-10.4861
勗	-10.4862
毘尼	-10.4863
二親	-10.4864
消息	-10.4872
雖然	-10.4875
菩提樹	-10.4876
慧遠	-10.4881
藍	-10.4883
釋種	-10.4885
之謂	-10.4886
形像	-10.4892
粲	-10.4893
武宗	-10.4894
憐	-10.4895
少年	-10.4895
戊子	-10.4896
甲辰	-10.4898
既無	-10.4898
是名	-10.49
吾師	-10.4903
糞	-10.4903
換	-10.4905
眾中	-10.4906
跏趺	-10.4909
姬	-10.4909
措	-10.491
得舍利	-10.4912
(〔	-10.4913
為沙門	-10.4913
城南	-10.4913
白蓮	-10.4918
隱居	-10.4918
於我	-10.492
此處	-10.4922
繇	-10.4924
辛未	-10.4924
文義	-10.493
著述	-10.493
喜曰	-10.4931
如常	-10.4936
眾咸	-10.4939
一切法	-10.4942
廷	-10.4943
咄	-10.4945
不欲	-10.4949
棘	-10.4955
睿	-10.4956
禮樂	-10.4959
翌日	-10.496
不獲	-10.4964
守護	-10.4969
至期	-10.4971
奄	-10.4973
宗師	-10.4976
甲戌	-10.4981
圓明	-10.4981
翻經	-10.4982
竇	-10.4984
何有	-10.4989
圍繞	-10.499
渴	-10.4992
迨	-10.4994
漆	-10.4997
展轉	-10.4997
善根	-10.4998
再三	-10.5
苗	-10.5
不成	-10.5
歸心	-10.5007
書偈	-10.5009
之妙	-10.5015
大驚	-10.5017
戊寅	-10.5019
未得	-10.5022
二十三	-10.5022
鈍	-10.5025
萬行	-10.5026
而入	-10.5029
覔	-10.503
績	-10.5032
闊	-10.5036
沖	-10.5037
楷	-10.5037
所言	-10.5039
報應	-10.5039
為本	-10.5039
餌	-10.5041
僻	-10.5043
不巳	-10.505
地藏	-10.505
甚多	-10.505
寫經	-10.5051
吾今	-10.5052
師以	-10.5058
熾	-10.5061
若人	-10.5068
在於	-10.5068
在家	-10.507
比丘尼	-10.507
拋	-10.507
作麼	-10.5072
優劣	-10.5077
瞿	-10.5077
頑	-10.5079
感通	-10.5079
再拜	-10.508
子也	-10.5081
太上	-10.5082
士大夫	-10.5082
二十六	-10.5083
行人	-10.5088
目連	-10.5089
其數	-10.5089
通達	-10.5089
蘭若	-10.509
無語	-10.5104
足下	-10.5107
萬年	-10.511
便喝	-10.5112
御製	-10.5118
鷹	-10.5122
婁	-10.5123
奇之	-10.5129
西夏	-10.513
罪福	-10.5131
尋常	-10.5132
春秋七十	-10.5135
有五	-10.5139
文殊師利	-10.5141
廣州	-10.5142
文王	-10.5147
行世	-10.5148
丙戌	-10.5151
此寺	-10.5151
大集	-10.5151
戊戌	-10.5153
級	-10.5163
娑婆	-10.5164
自言	-10.5167
諸眾生	-10.517
寮	-10.5171
聖旨	-10.5171
之餘	-10.5172
宸	-10.5172
示滅	-10.5172
二乘	-10.5175
而自	-10.5177
遣人	-10.518
山云	-10.5184
妙喜	-10.5189
而復	-10.5195
庚寅	-10.5196
乙丑	-10.5198
年三十	-10.5206
織	-10.5208
事佛	-10.5208
至一	-10.5209
擯	-10.521
評	-10.521
鬱	-10.521
猿	-10.5211
萃	-10.5212
十五日	-10.5217
年中	-10.5218
之情	-10.5219
元祐	-10.522
教法	-10.522
至誠	-10.5221
萬人	-10.5242
所出	-10.5243
碩	-10.5244
鹽	-10.5247
所能	-10.5248
捷	-10.5252
窓	-10.5253
貯	-10.5254
建寺	-10.5254
琴	-10.5255
熊	-10.5255
嫉	-10.5256
胥	-10.5256
皆以	-10.5267
公案	-10.5268
者皆	-10.527
雍州	-10.5271
無遺	-10.5273
教之	-10.5274
綴	-10.5275
魔王	-10.528
三聖	-10.5285
為其	-10.5288
了無	-10.529
門徒	-10.5291
斌	-10.5291
吒	-10.5292
祖云	-10.5292
鳩	-10.5295
恕	-10.5298
做	-10.5298
針	-10.5299
西歸	-10.5302
驛	-10.5303
曳	-10.5304
喧	-10.5306
父王	-10.5312
寶雲	-10.5317
入宮	-10.5322
上曰	-10.5323
知有	-10.5326
有疾	-10.5337
沃	-10.5343
侮	-10.5348
梯	-10.5348
文武	-10.5349
剌史	-10.5352
殺人	-10.5354
玉泉	-10.5357
詩云	-10.5358
八歲	-10.536
頒	-10.5364
自得	-10.5366
珍寶	-10.5372
齋戒	-10.5379
廼	-10.5383
怠	-10.5386
顛倒	-10.5388
越州	-10.539
老宿	-10.5392
叫	-10.5393
楞伽	-10.5394
誦金剛經	-10.5398
海內	-10.5404
大通	-10.5411
之始	-10.5417
簿	-10.5421
夭	-10.5431
二字	-10.5432
蚤	-10.5433
數萬	-10.5434
已後	-10.5436
昨日	-10.5444
白佛言	-10.5445
眾曰	-10.5448
上竺	-10.545
忽聞	-10.5451
年正月	-10.5451
李氏	-10.5452
精神	-10.5453
焚之	-10.5455
四分	-10.5467
州剌史	-10.5472
神人	-10.5474
不少	-10.5476
曾無	-10.5482
請僧	-10.5484
結集	-10.5486
法者	-10.5487
極樂	-10.5489
普照	-10.549
我身	-10.5491
放下	-10.5497
佛理	-10.5499
師問	-10.5501
偈云	-10.5504
猶有	-10.5505
放生	-10.5506
吾當	-10.5507
周孔	-10.5522
添	-10.5523
岑	-10.5525
忤	-10.5526
緘	-10.5527
頓悟	-10.5527
低	-10.5528
聳	-10.5529
陣	-10.5529
佛陀	-10.5532
上表	-10.5532
數人	-10.5532
東晉	-10.5546
日用	-10.5549
▁齊	-10.5552
即於	-10.5553
枚	-10.5553
無一	-10.5556
畜生	-10.5562
山水	-10.5563
參禪	-10.5569
波羅	-10.557
鬪	-10.5571
芬	-10.5573
無別	-10.5573
仁宗	-10.5587
大將軍	-10.5588
無餘	-10.5589
中宗	-10.5591
始知	-10.5595
自古	-10.5598
鳳翔	-10.5603
與師	-10.5607
四諦	-10.5608
聾	-10.561
宗本紀	-10.5611
金輪	-10.562
不住	-10.5623
靈巖	-10.5623
食肉	-10.5625
自非	-10.5627
不失	-10.5629
悔過	-10.5629
為王	-10.5631
彼國	-10.5633
梁武	-10.5635
千年	-10.5646
癸巳	-10.5648
請住	-10.566
麓	-10.5662
陪	-10.5663
雕	-10.5667
佛心	-10.5667
罄	-10.567
西向	-10.5672
目前	-10.5672
因以	-10.5674
白言	-10.5675
膚	-10.5675
還家	-10.5676
大興善寺	-10.5676
見性	-10.568
一家	-10.5682
寺院	-10.5682
禪門	-10.5687
師為	-10.5688
壬戌	-10.5693
振錫	-10.5696
正念	-10.5698
講法華	-10.5699
丹陽	-10.5701
恰	-10.5703
告眾曰	-10.5705
確	-10.5707
料	-10.571
峙	-10.5713
撲	-10.5716
翫	-10.5716
乃為	-10.5719
座下	-10.5719
慈明	-10.5719
七佛	-10.5721
翰林	-10.5723
朝夕	-10.573
辛卯	-10.5741
與其	-10.5743
十餘里	-10.5745
相承	-10.5748
籌	-10.575
瓔珞	-10.575
餓鬼	-10.5758
語錄	-10.5765
為佛	-10.5766
化之	-10.5766
天祠	-10.5767
之性	-10.5772
奈	-10.5774
二僧	-10.5775
吳郡	-10.5777
入門	-10.5786
彼此	-10.5787
時號	-10.5789
四天王	-10.5794
城西	-10.5794
人心	-10.5797
言曰	-10.5798
羲	-10.5799
雉	-10.5801
流布	-10.5804
矢	-10.5804
有一人	-10.5805
東坡	-10.5807
迎之	-10.5807
遠曰	-10.5808
白馬寺	-10.5817
黃帝	-10.5818
有窣堵波	-10.582
延慶	-10.5822
蔣	-10.5825
叱	-10.5826
沙門慧	-10.5827
三衣	-10.5835
昔有	-10.5837
如其	-10.5838
迴向	-10.584
六卷	-10.5841
諸部	-10.5841
二十四年	-10.5845
下有	-10.585
千餘人	-10.5852
安曰	-10.5852
隨喜	-10.5853
肥	-10.5853
四十九	-10.5861
空寂	-10.5866
天寧	-10.5867
攝論	-10.5873
向西	-10.5877
之至	-10.5878
槃	-10.5884
持經	-10.5887
今者	-10.5888
谿	-10.589
蒼生	-10.5893
不明	-10.5893
牛頭	-10.5894
一室	-10.5895
塚	-10.5896
漂	-10.5898
六根	-10.5898
伺	-10.5899
御史	-10.59
讀書	-10.5901
弱冠	-10.5903
遂得	-10.5905
萬歲	-10.5909
何也	-10.5919
狀如	-10.5925
其門	-10.5925
今此	-10.5926
世俗	-10.5936
諸師	-10.5936
般涅槃	-10.5938
學佛	-10.5939
開堂	-10.594
人事	-10.5941
煬帝	-10.5941
百萬	-10.5941
炭	-10.5942
拏	-10.5944
邪正	-10.5945
佛所	-10.5946
而起	-10.5946
劇	-10.5947
衣食	-10.5955
歷代	-10.5955
薩	-10.5961
塔曰	-10.5961
妨	-10.5967
以求	-10.5968
者多	-10.5969
二十三年	-10.5975
傳之	-10.5979
孚	-10.5986
亦然	-10.5986
各各	-10.5987
聞而	-10.5988
禪林	-10.5994
莖	-10.5994
二者	-10.6001
文句	-10.6002
端正	-10.6003
公之	-10.6003
四面	-10.6003
千載	-10.6004
同歸	-10.6004
機緣	-10.6004
少林	-10.6005
以成	-10.6007
於後	-10.6007
不契	-10.6008
所為	-10.6012
奉勅	-10.6013
聽者	-10.6016
尊者曰	-10.6023
琛	-10.6025
罽賓國	-10.6025
萬壽	-10.6026
長子	-10.6027
佛說	-10.6029
洋	-10.6031
媼	-10.6032
煥	-10.6036
山神	-10.6036
頸	-10.6038
回向	-10.604
問云	-10.6046
因此	-10.6049
袖	-10.6063
坐逝	-10.6067
敬禮	-10.6069
取之	-10.6073
豈能	-10.6079
不善	-10.6081
丹霞	-10.6082
生時	-10.6085
如初	-10.6085
禪觀	-10.6088
琉璃	-10.6088
掠	-10.6091
頤	-10.6092
無疾	-10.6093
不斷	-10.6095
禪院	-10.6096
肅宗	-10.6096
垣	-10.6097
不至	-10.6097
褐	-10.61
法寶	-10.6103
後住	-10.6104
穆王	-10.6105
本紀	-10.6109
呼為	-10.6116
聲色	-10.6118
明月	-10.6122
此方	-10.6123
頂上	-10.6125
八日	-10.6129
所行	-10.6129
慚愧	-10.613
䖍	-10.6131
第十	-10.6131
敬之	-10.6133
可乎	-10.6136
即得	-10.6143
奉詔	-10.6148
放光明	-10.6156
一食	-10.6158
十六日	-10.616
大鑒之	-10.6166
庾	-10.6171
瞿曇	-10.6174
謂人曰	-10.6175
師事	-10.6177
可為	-10.618
伍	-10.6183
死者	-10.6184
轉法輪	-10.6186
為宗	-10.6187
無可	-10.6189
已上	-10.6189
是我	-10.62
彼岸	-10.6208
九流	-10.6208
西京	-10.6209
以事	-10.6211
所傳	-10.6213
心念	-10.6216
念誦	-10.6225
釋典	-10.6226
聽法	-10.6226
為先	-10.6231
羸	-10.6231
繪	-10.6232
塔于	-10.6235
榜	-10.6237
僉	-10.6239
一代	-10.6239
藹	-10.6243
寶藏	-10.6244
問答	-10.6248
無能	-10.6249
常以	-10.6254
其實	-10.626
讚歎	-10.6264
與佛	-10.6266
喚作	-10.6267
怡	-10.6268
莫測	-10.6269
大溈	-10.6271
諸比丘	-10.6278
岡	-10.628
嗔	-10.628
采	-10.6283
暇	-10.6284
因問	-10.6284
擬議	-10.6285
教門	-10.6287
若夫	-10.6288
懃	-10.6289
彫	-10.6292
迄	-10.6295
不拜	-10.6295
進士	-10.6295
西國	-10.6298
印度	-10.6299
去來	-10.63
都無	-10.6303
十餘年	-10.6307
不思	-10.6307
卒于	-10.631
觀察	-10.6313
光照	-10.6314
未足	-10.6316
傳授	-10.6316
四十年	-10.6316
之西	-10.6317
講堂	-10.6317
梵王	-10.6318
至理	-10.632
婦人	-10.6322
斛	-10.6324
得免	-10.6328
事之	-10.633
胄	-10.6331
故得	-10.6332
手足	-10.6333
靈寶	-10.6334
殞	-10.6335
兔	-10.6337
雙林	-10.6349
無由	-10.6351
本國	-10.6351
以偈	-10.6352
年十三	-10.6354
歸命	-10.6361
熈	-10.6365
永平	-10.6366
六經	-10.6367
少出家	-10.6369
投子	-10.6373
又復	-10.6373
無量壽	-10.6376
舉手	-10.6376
藤	-10.6379
塔寺	-10.6381
佛牙	-10.6387
庶幾	-10.6392
乃見	-10.6393
潭州	-10.6396
宣宗	-10.64
雲集	-10.6403
圓滿	-10.6418
國之	-10.6419
琰	-10.6423
其處	-10.6426
何其	-10.6428
入寂	-10.6429
〔	-10.6429
萌	-10.6429
衝	-10.6432
桐	-10.6433
杳	-10.6434
長齋	-10.6435
生天	-10.6437
泰山	-10.6448
達摩	-10.645
互相	-10.6451
不取	-10.6457
赫	-10.6465
禪法	-10.6471
裔	-10.6475
丕	-10.6478
蓄	-10.6482
天皇	-10.6483
梵行	-10.6484
戈	-10.6484
立寺	-10.6485
求法	-10.6486
取其	-10.6487
佛者	-10.6493
八卷	-10.6494
百億	-10.6499
觀心	-10.6501
周公	-10.6501
奇特	-10.6507
當來	-10.6508
公主	-10.6511
二十卷	-10.6516
王舍城	-10.6517
法要	-10.6519
法道	-10.652
稜	-10.6521
內典	-10.6524
突	-10.6529
之行	-10.6531
繡	-10.6532
賾	-10.6533
之論	-10.6533
江州	-10.6539
當世	-10.6545
第七	-10.6548
寺觀	-10.6555
住世	-10.6555
壽命	-10.6557
王聞	-10.6562
惡業	-10.6575
優婆塞	-10.6575
佛號	-10.6579
誦持	-10.6579
九歲	-10.658
絃	-10.6583
歐陽	-10.6584
中書	-10.6585
啼	-10.6588
遂使	-10.6592
佇	-10.6595
欲得	-10.6601
顏色	-10.6602
既不	-10.6604
十善	-10.6604
於道	-10.6604
言說	-10.6605
其神	-10.6606
儒者	-10.6612
諗	-10.6614
而還	-10.6616
龍象	-10.6626
後漢	-10.6629
飯僧	-10.663
驟	-10.6632
沾	-10.6635
獅子	-10.6638
年十五	-10.6638
精誠	-10.664
則是	-10.6643
鬚	-10.6652
至心	-10.6654
所聞	-10.6655
龜茲	-10.6658
帝崩	-10.6661
衲僧	-10.6665
或以	-10.6666
己丑	-10.6667
天帝	-10.6667
圓光	-10.6673
可也	-10.6675
商量	-10.6679
隴	-10.6681
樵	-10.6683
何足	-10.6683
來者	-10.669
憲宗	-10.669
葱嶺	-10.669
闔	-10.669
冐	-10.6695
以是	-10.6701
死心	-10.6702
談論	-10.6705
下勅	-10.6707
天樂	-10.6708
並是	-10.671
即日	-10.6713
至正	-10.6714
宛	-10.6716
佛名	-10.672
莫知	-10.6721
「	-10.6725
毗尼	-10.6728
廿	-10.6729
于闐	-10.673
浮屠	-10.6731
澡	-10.6732
旬日	-10.6735
畵	-10.6735
在前	-10.6736
欵	-10.6736
團	-10.6736
萬曆	-10.6736
帖	-10.6737
▁晉	-10.6738
心不	-10.6738
開示	-10.6738
沮	-10.6739
無極	-10.6742
所由	-10.6746
可知	-10.6748
中庸	-10.6753
大喜	-10.6757
二公	-10.6759
汝若	-10.676
郡守	-10.6764
相去	-10.6771
如法	-10.6772
一分	-10.6773
後生	-10.6776
最為	-10.678
西明寺	-10.6782
多所	-10.6784
得此	-10.6784
化人	-10.6784
永徽	-10.6785
用之	-10.6785
此子	-10.6789
卵	-10.6793
殺生	-10.6794
王言	-10.6794
輪王	-10.6796
既是	-10.6797
無名	-10.6797
寺塔	-10.6798
升座	-10.6801
三論	-10.6802
辯才	-10.6803
十里	-10.6804
非是	-10.6808
其所出法嗣	-10.681
稱之	-10.6815
亦復	-10.6821
弘明集	-10.6823
說之	-10.6831
五戒	-10.6833
勳	-10.6836
妹	-10.6838
二部	-10.6839
經文	-10.684
先後	-10.6842
九日	-10.6846
講席	-10.685
未始	-10.6851
謝曰	-10.6856
非我	-10.6861
且曰	-10.6862
其時	-10.6871
德行	-10.6872
己酉	-10.6874
正法眼藏	-10.6877
乃知	-10.6879
僊	-10.6882
千萬	-10.6883
爾時世尊	-10.6886
二十五年	-10.6888
西行	-10.6892
柯	-10.6893
安能	-10.6894
與語	-10.6901
僕射	-10.6903
西來	-10.6906
成實	-10.691
一法	-10.6912
之美	-10.6913
釋子	-10.6916
二十六年	-10.6916
山之	-10.6919
化作	-10.6923
不息	-10.6923
增長	-10.6926
四時	-10.6929
廣陵	-10.6929
終南	-10.6932
王即	-10.6933
梁武帝	-10.6934
百里	-10.6937
教授	-10.6938
經教	-10.6941
甄	-10.6942
稅	-10.6943
鋪	-10.6943
弘道	-10.6945
無敢	-10.6946
西湖	-10.6949
一身	-10.695
自餘	-10.6952
咸通	-10.6961
黎	-10.6961
何用	-10.6962
言也	-10.6963
年八十	-10.6964
風俗	-10.6974
大悅	-10.6974
己卯	-10.6978
堂中	-10.6981
之談	-10.6982
參軍	-10.6983
自後	-10.6986
鈞	-10.6992
無佛	-10.6993
只如	-10.6993
樞	-10.6995
不問	-10.6995
後因	-10.6999
十七日	-10.7001
威德	-10.7002
襟	-10.7005
沙門釋	-10.7006
明矣	-10.7006
祖宗	-10.7007
不止	-10.7009
日誦	-10.7016
末年	-10.7017
性命	-10.7017
詩曰	-10.7021
此皆	-10.7024
力士	-10.7026
作偈	-10.703
禍福	-10.703
莊子	-10.7033
譯出	-10.7037
自心	-10.7047
誑	-10.705
時王	-10.7051
金剛般若	-10.7052
祕密	-10.7053
聘	-10.7053
生也	-10.7055
法會	-10.7061
之甚	-10.7064
所願	-10.7065
問如何是	-10.7069
城東	-10.707
羅剎	-10.7079
復何	-10.708
萬象	-10.7085
見於	-10.7085
之化	-10.7086
不堪	-10.7091
椎	-10.7096
請為	-10.7099
延壽	-10.7106
栗	-10.7106
陳氏	-10.7107
其下	-10.7107
沿	-10.7108
法服	-10.7108
佛身	-10.7109
右手	-10.7111
祝髮	-10.7111
難提	-10.7122
示現	-10.7126
不求	-10.713
摩羅	-10.7133
浙	-10.7134
深入	-10.7136
斯言	-10.7139
之大	-10.7145
為說法	-10.7147
闍梨	-10.7148
變為	-10.7148
音樂	-10.7148
山頂	-10.7151
一二	-10.7153
有此	-10.7153
都督	-10.7154
不去	-10.7162
以法	-10.7165
這裏	-10.7166
本朝	-10.7168
其前	-10.7168
道吾	-10.7171
本心	-10.7174
輕重	-10.7176
便問	-10.7183
授記	-10.7185
之謂也	-10.719
前身	-10.719
三歲	-10.7202
唾	-10.7205
十四日	-10.7207
挂	-10.7207
慘	-10.7207
篆	-10.7209
恠	-10.721
二十二年	-10.7213
大統	-10.7213
今以	-10.7218
一也	-10.722
奏聞	-10.7223
猶在	-10.7224
受教	-10.7226
建武	-10.7227
沙門道	-10.7228
後至	-10.723
白光	-10.7233
故來	-10.7237
而不能	-10.7242
竹林	-10.7243
縣人	-10.7245
有功	-10.7246
誦之	-10.7252
今當	-10.7252
設教	-10.7256
太平興國	-10.7257
懶	-10.7259
蠻	-10.7263
樓閣	-10.7264
端坐而逝	-10.7265
師號	-10.7265
無始	-10.7265
汾陽	-10.7265
正宗	-10.7273
下座	-10.7276
去矣	-10.7278
此理	-10.7281
若欲	-10.7282
非有	-10.7285
巳後	-10.7285
古佛	-10.7288
繫念	-10.7289
之極	-10.7289
出門	-10.7294
叅	-10.7295
金光明	-10.7296
之歲	-10.7297
誌公	-10.7298
中道	-10.7299
四生	-10.73
動靜	-10.7303
阿毘曇	-10.7304
福業	-10.7309
安居	-10.7309
聞空中	-10.7311
聖道	-10.7317
從師	-10.7318
霸	-10.7318
屆	-10.732
輪迴	-10.7324
流沙	-10.7334
為汝	-10.7336
不答	-10.7337
親見	-10.7344
景德	-10.7346
住山	-10.7347
霍	-10.7349
來至	-10.7357
塑	-10.736
可觀	-10.7361
珣	-10.7361
一物	-10.7364
慈恩	-10.7365
近前	-10.7365
元帝	-10.7368
跋陀	-10.737
閏	-10.7371
燾	-10.7371
禽獸	-10.7372
香山	-10.7372
秩	-10.7373
己未	-10.7373
夜半	-10.7375
)。○	-10.7376
蓬	-10.7377
謫	-10.7377
開寶	-10.7378
時至	-10.7388
雲棲	-10.7395
須達	-10.7395
心印	-10.7396
乃令	-10.7396
淮南	-10.7399
往還	-10.74
以杖	-10.74
神僧	-10.74
三部	-10.7407
甯	-10.7412
無得	-10.7414
之恩	-10.7416
韜	-10.7416
竟不	-10.7419
藏之	-10.7422
穩	-10.7422
縷	-10.7424
軫	-10.7433
楊州	-10.7436
天龍	-10.7436
東夏	-10.7452
般若經	-10.7453
珍重	-10.7456
王臣	-10.7456
此二	-10.7461
人來	-10.7462
無非	-10.7462
泐潭	-10.7464
石上	-10.7465
亦以	-10.7465
久而	-10.7468
掖	-10.747
而寂	-10.7473
貝	-10.7478
邵	-10.7479
釣	-10.7479
詵	-10.7481
祗	-10.7481
綸	-10.7486
吉凶	-10.7489
王之	-10.7489
諸山	-10.749
二三	-10.7491
祈請	-10.7491
即往	-10.7497
國中	-10.7504
最勝	-10.7515
同志	-10.7519
安國	-10.752
語云	-10.7525
凡所	-10.7528
我於	-10.753
臺山	-10.7532
出山	-10.7533
圓照	-10.7534
三十一	-10.7536
黃梅	-10.7538
稚	-10.7539
炙	-10.7539
年十二	-10.7544
明珠	-10.7546
佛語	-10.7551
四十二	-10.7557
周武	-10.7561
城內	-10.7564
宣帝	-10.7567
官人	-10.7582
海中	-10.7583
佛乘	-10.7584
逍遙	-10.7588
禁中	-10.7592
訟	-10.7593
論議	-10.7595
猶是	-10.7599
釋氏之	-10.7599
人有	-10.7604
及至	-10.7604
其理	-10.7605
有神	-10.7607
如生	-10.7607
接引	-10.7608
而作	-10.761
數十人	-10.761
聖者	-10.7613
有光	-10.7613
未免	-10.7617
則知	-10.7618
開元寺	-10.762
此非	-10.7622
依止	-10.7622
頭上	-10.7629
之表	-10.7632
龍泉	-10.7636
無憂	-10.7637
三十餘	-10.7639
之苦	-10.7641
佗	-10.7641
因名	-10.7643
秊	-10.7649
魁	-10.7652
瞽	-10.7652
之要	-10.7653
無緣	-10.7655
恪	-10.7655
由來	-10.7657
震動	-10.7663
寺宇	-10.7676
末後	-10.7678
平日	-10.7682
授戒	-10.7682
隨機	-10.7682
微疾	-10.7682
難得	-10.7692
不違	-10.7693
涕	-10.77
來此	-10.7702
屯	-10.7703
教觀	-10.7704
經中	-10.7705
惶	-10.7706
武王	-10.7708
觀經	-10.7708
邸	-10.7712
諲	-10.7712
深信	-10.7719
三業	-10.772
北山	-10.7722
第八	-10.7724
吾道	-10.7727
男子	-10.7733
初住	-10.7734
年五十	-10.7736
更不	-10.7742
不疑	-10.7755
瓚	-10.7756
灾	-10.7758
亞	-10.7761
當此	-10.7764
膠	-10.7764
肘	-10.7764
無過	-10.7767
高行	-10.7768
聞見	-10.7768
王侯	-10.7771
普通	-10.7776
三學	-10.7778
本姓	-10.7779
加以	-10.778
所歸	-10.7781
龍潭	-10.7782
堅固	-10.7783
常在	-10.7787
十二卷	-10.779
化去	-10.7796
大小乘	-10.7798
以表	-10.7804
元豐	-10.7805
須是	-10.7805
三十卷	-10.7805
渡江	-10.781
是甚麼	-10.7812
清風	-10.7814
我以	-10.7816
欠	-10.7817
欲求	-10.782
竄	-10.7822
無法	-10.7823
鬻	-10.7823
將去	-10.7832
人物	-10.7834
時節	-10.7834
論義	-10.7834
出現	-10.7835
其師	-10.7839
皆得	-10.784
晉王	-10.7844
大怒	-10.7849
淨飯王	-10.7852
歲月	-10.7863
神變	-10.7864
於天下	-10.7865
以上	-10.7865
凉	-10.7866
差別	-10.7871
至京師	-10.7876
音聲	-10.7876
習禪	-10.7878
忝	-10.788
曩	-10.7881
雁	-10.7882
於寺	-10.7888
中天竺	-10.7891
苾芻	-10.7891
山門	-10.79
香花	-10.7903
三七日	-10.7906
無漏	-10.7906
年四十	-10.7919
八部	-10.7922
不變	-10.7924
摸	-10.7929
嘉禾	-10.793
汰	-10.7933
若干	-10.7933
裹	-10.7934
東京	-10.7936
蒸	-10.7937
瓜	-10.7937
上生	-10.7938
水陸	-10.7939
暖	-10.7941
稔	-10.7941
下詔	-10.7942
莫之	-10.7945
玉尺	-10.7949
於斯	-10.795
之南	-10.7951
向上	-10.7953
太史	-10.7955
本末	-10.7965
教也	-10.7966
故不	-10.797
八萬	-10.7971
諸公	-10.7975
帝以	-10.7976
成正覺	-10.7978
台州	-10.7979
授之	-10.7981
竦	-10.7982
殂	-10.7983
為弟子	-10.7985
勅令	-10.7986
神足	-10.7991
虫	-10.7991
而非	-10.7992
弔	-10.7994
概	-10.7994
晴	-10.7996
正是	-10.7999
霽	-10.8001
果有	-10.8002
縣令	-10.8009
見在	-10.8018
東宮	-10.8018
佛在	-10.8019
敬信	-10.8021
孤山	-10.8022
須彌山	-10.8027
長壽	-10.8032
孰能	-10.8033
五經	-10.8036
六合	-10.8036
閔	-10.8038
必當	-10.8042
每至	-10.8046
往復	-10.8047
傳記	-10.8049
荊南	-10.805
飲酒	-10.8051
歲時	-10.8051
一員	-10.8054
示微疾	-10.8055
七人	-10.8055
區區	-10.8055
羞	-10.8056
可見	-10.8057
香爐	-10.8058
之年	-10.8058
:	-10.8059
土地	-10.8061
不由	-10.8064
臘五十	-10.8067
怡然	-10.8067
見此	-10.8073
真淨	-10.8075
重之	-10.8078
錫杖	-10.8088
放還	-10.8092
與夫	-10.8093
孺	-10.8094
人多	-10.8098
修善	-10.8102
蹟	-10.8102
數珠	-10.8105
五帝	-10.8107
常有	-10.8111
孟子	-10.8112
勇猛	-10.8112
滌	-10.8113
煉	-10.8114
長蘆	-10.8114
如人	-10.8115
媿	-10.8116
梓	-10.8117
腸	-10.8118
傳燈錄	-10.8118
債	-10.8119
不安	-10.8121
化身	-10.8122
博士	-10.8125
初參	-10.8125
送之	-10.8127
秦王	-10.8133
緣起	-10.8135
之末	-10.8138
一百二十	-10.8139
作何	-10.8139
老師	-10.8139
果然	-10.8147
今古	-10.8149
己亥	-10.8153
當以	-10.8153
西竺	-10.8154
五歲	-10.8155
佛子	-10.8156
天后	-10.8159
其形	-10.8159
而不知	-10.816
譜	-10.8161
敲	-10.8161
章安	-10.8161
不宜	-10.8162
波旬	-10.8162
其像	-10.8165
現身	-10.8165
欲往	-10.8165
至京	-10.8166
經史	-10.8167
者哉	-10.8169
鑊	-10.8169
縮	-10.817
壓	-10.817
冶	-10.817
跳	-10.8171
忉利天	-10.8172
馱	-10.8172
事也	-10.8175
頂戴	-10.8175
無何	-10.8177
可不	-10.8178
母夢	-10.8179
奉法	-10.818
東海	-10.8182
士女	-10.8184
是汝	-10.8189
有疑	-10.819
石窟	-10.8191
香華	-10.8191
慨然	-10.8194
中印度	-10.8194
五十餘	-10.8197
又作麼生	-10.8199
化佛	-10.82
真身	-10.82
通鑑	-10.8201
餓	-10.8204
元來	-10.8207
聖寺	-10.8216
祈福	-10.8217
此中	-10.822
從來	-10.8221
宦	-10.8224
陞	-10.8226
身命	-10.8228
不捨	-10.823
巫	-10.823
報曰	-10.824
璞	-10.8241
衷	-10.8241
一箇	-10.8243
如斯	-10.8247
天之	-10.8249
至夜	-10.8249
不說	-10.825
巳來	-10.8255
不待	-10.8258
讀經	-10.8258
而求	-10.8258
病者	-10.8259
賢劫	-10.8261
忻	-10.8265
與眾	-10.8266
石壁	-10.8267
大弘	-10.8267
督	-10.8269
風吹	-10.827
生靈	-10.827
明之	-10.8273
面目	-10.8275
儔	-10.8275
佉	-10.8276
和合	-10.8278
專心	-10.8278
悚	-10.828
謨	-10.828
契悟	-10.8283
者必	-10.8284
迭	-10.8285
剎那	-10.8286
薦福	-10.8286
篋	-10.829
収	-10.8291
殯	-10.8291
悖	-10.8291
姓名	-10.8292
自今	-10.8293
已下	-10.8294
塊	-10.8295
濯	-10.8295
其風	-10.8297
兇	-10.8297
今欲	-10.8298
一遍	-10.8298
臨川	-10.8301
佛告	-10.8304
不就	-10.831
詣闕	-10.831
葬於	-10.8311
得見	-10.8316
山陰	-10.8317
餘杭	-10.8318
安隱	-10.8319
妄想	-10.8321
十八日	-10.8326
是謂	-10.8329
亨	-10.8335
諸菩薩	-10.8336
一者	-10.8337
能知	-10.8339
下山	-10.834
生處	-10.8341
塘	-10.8342
明道	-10.8342
鐸	-10.8342
獼猴	-10.8343
拱	-10.8343
是誰	-10.8343
帝問	-10.8346
天保	-10.835
喬	-10.835
簪	-10.835
忙	-10.8351
柄	-10.8351
不作	-10.8352
鳥獸	-10.8353
所須	-10.8354
流行	-10.8356
形骸	-10.8368
欲界	-10.837
竺法	-10.8373
林寺	-10.8373
無情	-10.8375
曰汝	-10.8378
故使	-10.8378
僚	-10.8378
史記	-10.8381
在世	-10.8383
書寫	-10.8384
李公	-10.8384
博通	-10.8389
世宗	-10.839
其寺	-10.8391
寶林	-10.8391
同行	-10.8392
受其	-10.8393
化胡	-10.8395
塵勞	-10.8398
吾有	-10.84
登座	-10.8403
蓮社	-10.8404
三十七	-10.8405
邇	-10.8405
天地之	-10.8406
直指	-10.8406
釋迦如來	-10.8408
而往	-10.841
多矣	-10.841
挫	-10.8411
栢	-10.8412
瘳	-10.8412
迸	-10.8413
將至	-10.8415
苦海	-10.8416
北面	-10.8416
誇	-10.8417
裘	-10.8419
服勤	-10.8421
是夕	-10.8424
詔天下	-10.8424
有七	-10.8425
出來	-10.843
何異	-10.8437
初至	-10.8439
太常	-10.844
士云	-10.8441
無形	-10.8441
化導	-10.8444
何曾	-10.8444
他人	-10.8447
己巳	-10.8448
大行	-10.8456
律藏	-10.8463
褚	-10.8464
改為	-10.8465
錐	-10.8465
於心	-10.8465
應當	-10.8466
晟	-10.8466
皷	-10.8466
今時	-10.8467
籙	-10.8468
磬	-10.847
仇	-10.8471
其語	-10.8473
都城	-10.8474
擢	-10.8479
方得	-10.8479
我所	-10.8485
之異	-10.8485
千古	-10.8486
吾聞	-10.8486
請問	-10.8486
千僧	-10.8488
道路	-10.849
奄然	-10.8492
修習	-10.8492
識之	-10.8494
或謂	-10.85
至大	-10.8503
內有	-10.8505
復來	-10.8505
德宗	-10.8512
詔住	-10.8515
我若	-10.8518
懈	-10.8518
念阿彌陀佛	-10.8519
欲令	-10.8522
諸州	-10.8523
大顛	-10.8526
槌	-10.8526
洪州	-10.8527
第九	-10.8528
作是念	-10.8528
瀆	-10.8529
鉤	-10.853
以身	-10.8531
愜	-10.8532
唯願	-10.8533
自若	-10.8533
母曰	-10.8534
舁	-10.8534
清凉	-10.8536
嫁	-10.8536
江左	-10.8541
大寂	-10.8544
政和	-10.8545
異僧	-10.8545
上首	-10.8547
婆羅	-10.8549
安坐	-10.8551
▁隋	-10.8552
大會	-10.8553
印可	-10.8553
之夕	-10.8555
所未	-10.8555
非法	-10.856
東行	-10.8561
後事	-10.8564
一方	-10.8565
炳	-10.8568
未必	-10.8571
求道	-10.8572
一朝	-10.8573
四十餘	-10.8574
所重	-10.8574
來也	-10.8577
從其	-10.8584
以告	-10.8587
之氣	-10.8591
復問	-10.8591
帽	-10.8595
粉	-10.8596
香火	-10.8599
駐	-10.8599
瞻仰	-10.8602
倡	-10.8604
主之	-10.8614
今在	-10.8615
固辭	-10.8615
四祖	-10.8625
五十年	-10.8628
中使	-10.8636
八百	-10.8636
忽夢	-10.8637
布袋	-10.8642
日課	-10.8642
四分律	-10.8643
之東	-10.8644
昔日	-10.8646
摩騰	-10.8648
釘	-10.865
此為	-10.8651
上品	-10.8652
髻	-10.8652
入地獄	-10.8653
鵝	-10.8653
心無	-10.8653
賷	-10.8653
君親	-10.8655
潰	-10.8655
笠	-10.8656
匝	-10.8656
王名	-10.8658
右脇	-10.8659
伏惟	-10.8659
𦦨	-10.866
嘯	-10.8661
冒	-10.8661
遐邇	-10.8661
莽	-10.8661
漠	-10.8662
狎	-10.8664
師於	-10.8664
先聖	-10.8665
三十五	-10.8669
大如	-10.8669
安公	-10.8672
儒釋	-10.8677
還山	-10.8687
何在	-10.8688
空有	-10.8688
汝何	-10.8689
之域	-10.8693
道無	-10.8696
之深	-10.8697
者矣	-10.8697
從上	-10.8698
當生	-10.87
二祖	-10.8701
何可	-10.8703
南湖	-10.8705
隱顯	-10.871
於時	-10.8712
以道	-10.8713
兀	-10.8714
月十五日	-10.8716
受生	-10.8717
烹	-10.8718
作是言	-10.872
沛	-10.8722
疋	-10.8722
教人	-10.8722
緝	-10.8723
雖不	-10.8723
恤	-10.8726
真偽	-10.8728
一片	-10.8733
乃有	-10.8733
奉行	-10.8736
甞於	-10.874
問其	-10.8741
寂靜	-10.8742
失其	-10.8747
孔子曰	-10.875
福寺	-10.8753
並皆	-10.8754
好學	-10.8757
此心	-10.8766
東流	-10.8769
菩薩戒	-10.877
坡	-10.8775
五天	-10.8776
二十日	-10.8777
驀	-10.8779
僣	-10.8783
虎丘	-10.8787
罪人	-10.8791
是一	-10.8791
以下	-10.8792
剃	-10.8794
不赴	-10.8796
俗人	-10.8802
揆	-10.8803
上元	-10.8804
持誦	-10.8807
商人	-10.8807
見師	-10.8808
三塗	-10.8809
張氏	-10.881
僧統	-10.881
百餘人	-10.8821
汲	-10.8824
不妄	-10.8825
尚書令	-10.8827
明智	-10.883
古德	-10.8831
囉	-10.8833
鑽	-10.8835
不了	-10.8835
宇文	-10.8836
姊	-10.8837
陀羅	-10.8839
北方	-10.8842
峽	-10.8845
諸聖	-10.8845
懲	-10.8847
既得	-10.8847
總管	-10.8848
岫	-10.8848
何由	-10.885
娘	-10.885
馭	-10.8851
誓願	-10.8861
二月八日	-10.8861
為什麼	-10.8863
所問	-10.8864
入關	-10.8867
金字	-10.8868
思量	-10.8877
金臺	-10.888
道教	-10.888
身體	-10.8886
得生	-10.8887
甚深	-10.8898
聖德	-10.8898
雪竇顯云	-10.8899
傳譯	-10.8901
汪	-10.8903
所及	-10.8904
之興	-10.8905
杭之	-10.8907
咽	-10.8909
聖僧	-10.8911
緯	-10.8913
乃止	-10.8913
姑蘇	-10.8915
旗	-10.8915
講肆	-10.8916
大寶	-10.8922
東陽	-10.8926
應真	-10.893
名號	-10.8931
大寺	-10.8931
教者	-10.8932
二十餘年	-10.8935
火燒	-10.8939
戒法	-10.894
著書	-10.8942
瑞像	-10.8944
壽五十	-10.8949
遂往	-10.8949
汝能	-10.8949
一點	-10.8951
奉之	-10.8952
草堂	-10.8956
青州	-10.896
不退	-10.8961
雲巖	-10.8961
燃	-10.8962
無所不	-10.8962
之儀	-10.8969
琦	-10.897
杵	-10.897
亦爾	-10.8971
仆	-10.8971
鹿苑	-10.8972
聞已	-10.8975
逝矣	-10.8976
衫	-10.8977
塢	-10.8981
祈雨	-10.8986
中書令	-10.8988
拈起	-10.8989
流水	-10.8993
玄旨	-10.8993
龍興寺	-10.8995
乃與	-10.8998
阿育	-10.9001
持鉢	-10.9008
門弟子	-10.9012
再來	-10.9012
言畢	-10.9012
金剛般若經	-10.9015
道法	-10.9016
開口	-10.9016
依舊	-10.902
飲水	-10.9026
江都	-10.9027
九州	-10.9027
事理	-10.903
過於	-10.9031
沙汰	-10.9033
訝	-10.9035
本性	-10.9036
遠矣	-10.9037
溟	-10.9039
一十	-10.9039
姪	-10.9039
駿	-10.904
漿	-10.904
但有	-10.9041
咲	-10.9042
峭	-10.9046
眾聖	-10.9053
口中	-10.9057
所致	-10.9058
本自	-10.9063
脇	-10.9065
無際	-10.9067
天師	-10.9068
此書	-10.9069
葬于	-10.9075
萬劫	-10.9076
一處	-10.9077
年十八	-10.9078
將何	-10.9085
律部	-10.9086
初無	-10.9093
棗	-10.9102
撓	-10.9105
青原	-10.9105
襄州	-10.9106
後來	-10.9108
分身	-10.9109
侯景	-10.911
宋元嘉	-10.9112
開山	-10.9112
唐書	-10.9112
無垢	-10.9114
我聞	-10.912
十一日	-10.9128
超然	-10.9128
石像	-10.9129
百家	-10.9131
受法	-10.9132
其性	-10.9137
法事	-10.9138
所載	-10.9138
城北	-10.9143
毅	-10.9145
名也	-10.9147
不假	-10.9151
何名	-10.9152
弑	-10.9154
阿闍世王	-10.9155
告眾	-10.9156
王問	-10.9157
者眾	-10.9159
生子	-10.916
殮	-10.9165
習定	-10.9166
不足以	-10.917
知者	-10.9171
萬億	-10.9171
應諾	-10.9172
筠	-10.9173
茫然	-10.9175
有法	-10.9179
大藏	-10.9179
吾宗	-10.9181
分為	-10.9181
和元年	-10.9182
建炎	-10.9182
金華	-10.9185
二經	-10.9188
為甚麼	-10.9193
之體	-10.9196
亦同	-10.9197
幼而	-10.9197
剃落	-10.92
議論	-10.9202
遠來	-10.9211
但見	-10.9212
我有	-10.9216
目之	-10.9216
府君	-10.9222
海東	-10.9224
樣	-10.9229
欲使	-10.9229
聖眾	-10.923
爾後	-10.9232
鼻孔	-10.9232
腦	-10.9233
線	-10.9233
燼	-10.9234
惻	-10.9235
進曰	-10.9236
一萬	-10.9238
粹	-10.9239
像前	-10.9241
心性	-10.9241
三者	-10.9243
道林	-10.9244
未易	-10.9246
率眾	-10.9248
以書	-10.9251
昆	-10.9253
惡之	-10.9253
留心	-10.9256
看經	-10.9256
天聖	-10.9259
三十餘年	-10.9264
告之曰	-10.9267
趺	-10.9269
而今	-10.927
二世	-10.9272
能言	-10.9273
即入	-10.9275
攝受	-10.9276
淨行	-10.9277
价	-10.9282
勤苦	-10.9284
水火	-10.9284
問言	-10.9285
何須	-10.9286
建大	-10.9288
乾元	-10.9289
人情	-10.9289
見而	-10.9293
大安	-10.9294
栽	-10.9294
慇懃	-10.9297
舍利塔	-10.9298
一下	-10.9298
琮	-10.9299
纖	-10.93
曹山	-10.9301
昭王	-10.9302
退之	-10.9302
州縣	-10.9303
闡揚	-10.9304
流俗	-10.9307
鞠	-10.9308
修多羅	-10.9309
心生	-10.931
直下	-10.931
臣等	-10.9315
寺有	-10.9316
殊不知	-10.9324
誰能	-10.9327
示以	-10.9331
殺害	-10.9331
言無	-10.9333
證果	-10.9334
萬世	-10.9334
法華三昧	-10.9342
退居	-10.9345
商那和修	-10.935
佛光	-10.935
若言	-10.9354
受用	-10.9355
拓	-10.9359
荀	-10.936
未了	-10.936
鵲	-10.936
慾	-10.9362
摩訶迦葉	-10.9363
巖頭	-10.9363
不改	-10.9363
呌	-10.9369
楊岐	-10.9369
潘	-10.937
之力也	-10.9371
遏	-10.9372
直須	-10.9373
悟曰	-10.9375
即時	-10.938
竊以	-10.9387
湖州	-10.9388
孔老	-10.9388
自云	-10.9388
遊戲	-10.9389
侍衛	-10.9393
遂與	-10.9393
充滿	-10.9395
直饒	-10.9398
法器	-10.9401
作家	-10.9402
三十三	-10.9404
文宣	-10.9405
我不	-10.9407
呪願	-10.9407
三尺	-10.9411
曰我	-10.9414
主事	-10.9417
之家	-10.942
聖迹	-10.9422
到此	-10.9422
神秀	-10.9423
坐化	-10.9424
距	-10.9431
為務	-10.9432
之源	-10.9433
槩	-10.9436
酌	-10.9437
發菩提心	-10.9437
俸	-10.9438
造像	-10.9442
異常	-10.9442
作什麼	-10.9445
不來	-10.9445
佛眼	-10.9445
影響	-10.9446
寶集作	-10.9447
何時	-10.9448
若使	-10.9449
詩書	-10.945
臨海	-10.9452
千佛	-10.9452
春秋八十	-10.9466
書之	-10.9472
見解	-10.9472
觀世音菩薩	-10.9481
涼州	-10.9482
復以	-10.9485
為心	-10.9486
廳	-10.9489
於上	-10.9492
持金剛經	-10.9492
丈餘	-10.9493
簾	-10.9494
勝鬘	-10.9496
謐	-10.9496
伎	-10.9497
屑	-10.9497
挑	-10.9498
璋	-10.9498
瞬	-10.9499
稻	-10.9501
為天下	-10.9502
搭	-10.9502
舛	-10.9502
黜	-10.9503
銓	-10.9503
芙蓉	-10.9503
之與	-10.9504
持齋	-10.9505
曰如何是	-10.9506
愚癡	-10.9508
晦堂	-10.9514
靈應	-10.9515
一寺	-10.9515
不令	-10.9515
躬自	-10.9518
滅之	-10.9522
何況	-10.9523
華藏	-10.9524
駕幸	-10.9524
坐具	-10.9527
老氏	-10.9528
河北	-10.9529
怖畏	-10.9533
性相	-10.9533
度牒	-10.9534
而食	-10.9539
所譯	-10.954
一門	-10.9541
進具	-10.9542
月餘	-10.9546
唯一	-10.9549
度脫	-10.9551
寶曇	-10.9551
汾州	-10.9553
如雲	-10.9554
威神	-10.9555
示眾云	-10.9556
不達	-10.9557
在焉	-10.9561
葱	-10.9562
渚	-10.9564
徽宗	-10.9564
撮	-10.9565
春正月	-10.9566
和南	-10.9567
羯	-10.9568
控	-10.957
有言	-10.9572
作大	-10.9573
藩	-10.9573
湖南	-10.9573
剝	-10.9574
日日	-10.9576
玄門	-10.9578
華亭	-10.9581
江東	-10.9581
召見	-10.9582
像法	-10.9584
若見	-10.9586
可知矣	-10.9587
百餘里	-10.9589
江表	-10.9589
以待	-10.9589
復見	-10.9592
閣下	-10.9594
青山	-10.9597
鬚髮	-10.9599
念佛三昧	-10.9601
之像	-10.9607
而住	-10.9607
見僧	-10.9612
同異	-10.9616
舍人	-10.962
直得	-10.962
天目	-10.9622
怛	-10.9622
枝葉	-10.9624
經卷	-10.9626
篤信	-10.9631
不一	-10.9633
怕	-10.9637
出沒	-10.9637
亦隨	-10.9638
聞此	-10.9647
眇	-10.9647
大愚	-10.9648
常州	-10.9652
紹隆	-10.9652
親近	-10.9653
神呪	-10.9657
能為	-10.9658
天雨	-10.9663
驚曰	-10.9672
年少	-10.9678
所獲	-10.9678
津梁	-10.9679
圓頓	-10.9681
博學	-10.9681
長史	-10.9685
何以故	-10.9686
經書	-10.9689
如雨	-10.9691
得法於	-10.9694
盂	-10.9697
實錄	-10.9698
袍	-10.9699
覈	-10.9705
協	-10.9706
饒益	-10.9706
忍辱	-10.9706
降伏	-10.9706
瘦	-10.9707
靈源	-10.9708
浸	-10.9709
普門品	-10.971
屨	-10.971
堆	-10.9712
生西方	-10.9712
渭	-10.9714
殄	-10.9716
大雨	-10.9718
未之	-10.9721
帝大悅	-10.9725
賜紫衣	-10.9727
俄有	-10.9728
顯慶	-10.9728
人壽	-10.9731
投身	-10.9733
供奉	-10.9734
通曰	-10.9736
如我	-10.9738
丙	-10.9743
本寺	-10.9744
即此	-10.9744
不知何	-10.9745
師一日	-10.9752
中原	-10.9753
相隨	-10.9756
名相	-10.9758
太極	-10.9763
禮謝	-10.9764
以資	-10.9767
太傅	-10.9768
或作	-10.9768
謂弟子曰	-10.9772
文宗	-10.9773
譚	-10.9774
感悟	-10.9775
月八日	-10.9775
壘	-10.9776
豕	-10.9777
繕	-10.9777
璨	-10.9778
禳	-10.9778
膳	-10.9779
瞑目	-10.9779
其妻	-10.9784
丸	-10.9785
無聞	-10.9786
猥	-10.9791
道流	-10.9791
闡提	-10.9795
宣和	-10.9795
僧俗	-10.9797
而說偈言	-10.9799
夏四月	-10.9803
已而	-10.9804
一鉢	-10.9805
二萬	-10.9805
□□	-10.9806
孝宗	-10.9807
其夜	-10.9811
之迹	-10.9812
夫婦	-10.9813
之句	-10.9813
如幻	-10.9814
日本	-10.9817
甞有	-10.9817
朝野	-10.9824
有頃	-10.9828
白日	-10.983
大定	-10.9832
佛前	-10.9834
推之	-10.9837
斯乃	-10.9838
然燈	-10.9842
會中	-10.9842
努力	-10.9843
炤	-10.9844
遠離	-10.9845
璟	-10.9845
塔銘	-10.9847
徘徊	-10.9848
旃檀	-10.9849
諸祖	-10.9852
時時	-10.9853
陽人	-10.9855
左溪	-10.9856
春秋七十有	-10.9863
隨意	-10.9865
長樂	-10.9866
出處	-10.9869
篤志	-10.987
四十餘年	-10.9871
南遊	-10.9871
不知所	-10.9872
淨因	-10.9875
生民	-10.9879
春秋六十	-10.988
意欲	-10.9882
故事	-10.9883
斯人	-10.9884
百步	-10.9885
慧解	-10.9886
一里	-10.9886
不朽	-10.9887
崇寧	-10.9888
法喜	-10.989
師與	-10.9893
十九日	-10.9895
拍	-10.9898
官至	-10.9898
微塵	-10.9899
親承	-10.99
詔以	-10.99
未終	-10.9903
佛國	-10.9904
不倦	-10.9905
車匿	-10.9905
瞎	-10.9906
䟦	-10.9908
豎	-10.9911
晉陽	-10.9912
秖	-10.9913
雲峯	-10.9915
老莊	-10.9915
戾	-10.9916
幣	-10.9916
義理	-10.9916
艾	-10.9917
一日忽	-10.9917
人倫	-10.9917
徇	-10.9917
服之	-10.9917
而返	-10.9919
盥	-10.992
狼	-10.9921
跋摩	-10.9923
靈驗	-10.9924
悠悠	-10.9925
專精	-10.9928
膏	-10.9929
見人	-10.9929
來參	-10.9929
於天	-10.9931
法名	-10.9933
大意	-10.9935
佛生	-10.9936
神化	-10.9939
往彼	-10.9942
朱氏	-10.9945
黃老	-10.9946
異日	-10.9948
又聞	-10.9951
復生	-10.9954
僧錄	-10.9957
百人	-10.9958
置於	-10.9958
沙門僧	-10.9965
信之	-10.9967
法相	-10.9967
幾何	-10.9972
汴	-10.9973
閻	-10.9975
九百	-10.9976
別立	-10.9979
二十八年	-10.9979
縫	-10.9983
相望	-10.9983
侃	-10.9983
孔雀	-10.9984
竈	-10.9986
煖	-10.999
饗	-10.999
非真	-10.999
隋開皇	-10.9992
梵音	-10.9994
泉州	-10.9997
􃕝	-10.9998
之數	-11
日光	-11.0003
幽州	-11.0004
小人	-11.0006
二百五十	-11.001
滅後	-11.0011
諷誦	-11.0012
佛堂	-11.0013
未明	-11.0013
禪誦	-11.0014
內道場	-11.0015
有箇	-11.0019
賓主	-11.0021
其可	-11.0027
等論	-11.0027
治之	-11.0032
不能自	-11.0032
神道	-11.0033
而上	-11.0033
善財	-11.0034
郡人	-11.0036
皆不	-11.0039
所成	-11.0039
何因	-11.0043
優波毱多	-11.0044
森	-11.0046
一枝	-11.0046
之狀	-11.0047
證明	-11.0048
矩	-11.0055
笛	-11.0056
拽	-11.0057
啖	-11.0058
所立	-11.0058
良由	-11.0059
蘿	-11.0061
佛以	-11.0062
倘	-11.0063
貸	-11.0063
處也	-11.0065
侈	-11.0067
島	-11.0068
聖人之道	-11.0068
摩頂	-11.0071
劉氏	-11.0072
不暇	-11.0074
止於	-11.0075
此其	-11.0075
目錄	-11.0076
入海	-11.0077
言下	-11.008
非人	-11.0081
異端	-11.0081
諸大	-11.0082
具說	-11.0082
一本	-11.0082
之難	-11.0083
讀之	-11.0085
神州	-11.0087
觀音像	-11.0091
四禪	-11.0092
或見	-11.0093
欲見	-11.0093
云爾	-11.0097
訛也	-11.0098
俱舍	-11.0098
身長	-11.01
字子	-11.011
無憂王	-11.0112
棄之	-11.0113
文集	-11.0114
無住	-11.0115
天台山	-11.0119
皆如	-11.012
葷	-11.0124
晤	-11.0124
興福	-11.0127
卦	-11.0128
箴	-11.0128
則曰	-11.013
乃作	-11.0131
天然	-11.0131
醮	-11.0131
藪	-11.0132
零	-11.0132
箇什麼	-11.0134
逕	-11.0135
甎	-11.0135
之物	-11.0136
入水	-11.0138
高昌	-11.0141
真言	-11.0141
聰敏	-11.0141
林下	-11.0143
太元	-11.0145
所疑	-11.0147
利物	-11.0148
不已	-11.0148
正當	-11.0149
智藏	-11.0155
精苦	-11.0157
妙用	-11.0159
崇信	-11.0159
之路	-11.016
復為	-11.016
既見	-11.0161
送至	-11.0165
安國寺	-11.0166
阿含	-11.0166
仁王	-11.0169
經藏	-11.0172
所撰	-11.0175
籤	-11.0177
兒孫	-11.018
太師	-11.0183
安在	-11.0185
即見	-11.0185
舊曰	-11.0186
大丈夫	-11.0187
六歲	-11.0188
造塔	-11.0188
一所	-11.0189
猶存	-11.0193
軟	-11.0196
又甞	-11.0198
缾	-11.0199
我為	-11.02
與同	-11.0207
少而	-11.0208
蜂	-11.0208
蟻	-11.0209
蠲	-11.0209
此時	-11.0209
林泉	-11.0209
受命	-11.021
▁慧	-11.021
同一	-11.021
法座	-11.0211
出城	-11.0212
枷	-11.0212
忠孝	-11.0214
之北	-11.0214
紂	-11.0214
四種	-11.0215
不悟	-11.0216
曾不	-11.0216
歸寂	-11.022
諸臣	-11.0222
大藏經	-11.0222
一小	-11.0224
隨時	-11.0229
皆從	-11.0232
不散	-11.0232
無定	-11.0236
▁法	-11.0245
年十六	-11.0248
有娠	-11.0253
山居	-11.0253
慈心	-11.0254
不孝	-11.0257
始末	-11.0258
江淮	-11.026
文公	-11.026
漢書	-11.0261
髓	-11.0263
甦	-11.0264
葬之	-11.0265
名利	-11.0269
瑠璃	-11.0269
十力	-11.0269
數百人	-11.027
一體	-11.027
而知	-11.0273
五色光	-11.0273
兩卷	-11.0274
竿	-11.0275
施行	-11.0276
倐	-11.0277
國清寺	-11.0278
百二十	-11.0279
貲	-11.0279
租	-11.0279
隘	-11.0282
諠	-11.0284
歸家	-11.0284
溝	-11.0284
大論	-11.0284
法度	-11.0285
大人	-11.0288
不現	-11.0293
相州	-11.0293
太山	-11.03
六人	-11.0303
吾欲	-11.0307
一首	-11.0309
年十七	-11.0309
不亂	-11.0313
問何	-11.0315
此兒	-11.0317
久住	-11.0318
青衣	-11.032
十誦	-11.0323
義疏	-11.0326
城門	-11.0328
二十七日	-11.0329
年二月	-11.0332
日夕	-11.0333
正觀	-11.0336
法照	-11.0337
驗之	-11.0339
會元	-11.034
苦節	-11.0344
技	-11.0345
州郡	-11.0345
異香滿室	-11.0347
樊	-11.0348
沐浴更衣	-11.0348
一夜	-11.0348
詆	-11.035
為文	-11.0351
蔑	-11.0356
年月	-11.0357
同居	-11.036
復還	-11.0367
藥王	-11.0368
法流	-11.0369
二十七年	-11.0374
祝曰	-11.0374
摩尼	-11.0375
主者	-11.0379
無用	-11.0381
南無	-11.0382
有沙門	-11.0385
法化	-11.0386
三藏法師	-11.0388
所宜	-11.0392
百濟	-11.0392
辟支佛	-11.0395
王位	-11.0397
所司	-11.0403
末法	-11.0404
厲聲	-11.0406
平時	-11.0407
杯	-11.041
灼	-11.0411
得脫	-11.0415
揀	-11.0416
餉	-11.0417
子弟	-11.0419
戍	-11.042
果得	-11.0421
着	-11.0421
百僚	-11.0422
瑤	-11.0424
天命	-11.0425
十五卷	-11.0425
其首	-11.0427
突厥	-11.0427
梗	-11.0427
繩床	-11.043
佞	-11.043
讒	-11.0436
僧祐	-11.0437
閻羅王	-11.0439
滴	-11.044
聚落	-11.0443
釋之	-11.0443
天眼	-11.0444
平王	-11.045
牟子曰	-11.0451
異道	-11.0451
亦如	-11.0451
宣律師	-11.0453
後唐	-11.0454
遊學	-11.0464
大有	-11.0468
少有	-11.0468
有兩	-11.0471
大振	-11.0472
疆	-11.0474
每歲	-11.0475
冀州	-11.0477
株	-11.0479
禮誦	-11.0482
聞異香	-11.0485
師友	-11.0486
隨眾	-11.0486
寶積	-11.0487
个	-11.0488
老漢	-11.0489
遞	-11.0489
遂為	-11.0491
懈怠	-11.0492
萬餘	-11.0493
二寺	-11.0494
千餘里	-11.0495
最初	-11.0495
疇	-11.0497
𨽻	-11.0498
衡嶽	-11.05
袒	-11.05
讎	-11.05
拊	-11.05
裳	-11.0501
龍山	-11.0502
首山	-11.0503
腥	-11.0503
奠	-11.0504
筋	-11.0504
肝	-11.0505
都尉	-11.0506
統紀	-11.0507
筌	-11.0508
徙居	-11.0508
是如來	-11.0508
奔走	-11.0511
自念	-11.0511
臣聞	-11.0512
之身	-11.0512
元魏	-11.0514
兜率天	-11.0515
瓦官寺	-11.0515
有小	-11.0517
宗教	-11.0518
戒本	-11.0519
即有	-11.0526
保寧	-11.0527
佛舍利	-11.0527
入藏	-11.0529
丈室	-11.0532
示人	-11.0543
參差	-11.0543
莊嚴寺	-11.0548
微笑	-11.0553
法和	-11.0557
不立	-11.0558
蟒	-11.0565
于此	-11.0566
紺	-11.0569
不妨	-11.057
斜	-11.0571
叶	-11.0572
罹	-11.0572
善男子	-11.0573
汙	-11.0574
汁	-11.0574
艸	-11.0574
隻	-11.0576
殫	-11.0577
攘	-11.0578
忽遇	-11.0579
炫	-11.0584
因號	-11.0587
蠶	-11.0587
內殿	-11.0593
上疏	-11.0594
過人	-11.0595
在彼	-11.0596
雲霧	-11.0597
宛然	-11.0597
之所以	-11.0601
其側	-11.0601
一偈	-11.0601
三峯	-11.0605
視聽	-11.0605
供佛	-11.0606
非所	-11.0606
衡山	-11.0612
大和	-11.0613
化緣	-11.0616
正教	-11.0619
諸惡	-11.062
分衛	-11.062
廣說	-11.0624
靈骨	-11.0626
塔廟	-11.0626
一丈	-11.0627
平元年	-11.0627
法衣	-11.0627
後以	-11.0638
玄義	-11.0639
主上	-11.0639
引入	-11.0641
疾病	-11.0641
聽受	-11.0642
入於	-11.0645
此法	-11.0645
無量壽佛	-11.0646
自幼	-11.0646
稱名	-11.0647
菓	-11.0647
西土	-11.0648
瀉	-11.0651
七十二	-11.0655
以何為	-11.0655
藍田	-11.0656
爇	-11.0658
南屏	-11.066
又言	-11.0665
出俗	-11.0673
得解脫	-11.0673
世號	-11.0674
登山	-11.0679
高尚	-11.0679
幽明	-11.0679
亦如是	-11.068
唯心	-11.068
年十九	-11.0686
以報	-11.0687
我欲	-11.069
有六	-11.0692
冬十月	-11.0694
聽之	-11.0694
之期	-11.0695
謚曰	-11.0695
佛書	-11.0697
即皇帝位	-11.0699
去世	-11.0699
領徒	-11.0699
則為	-11.07
僧法	-11.0701
以問	-11.0704
寺內	-11.0706
金石	-11.0708
吾不	-11.0711
何物	-11.0712
降魔	-11.0712
莫知所	-11.0712
師遂	-11.0713
九品	-11.0714
踊	-11.0715
南天竺	-11.0716
此道	-11.0718
賁	-11.0719
上柱國	-11.0721
不修	-11.0721
瑜	-11.0722
梵夾	-11.0722
誓曰	-11.0723
白王	-11.0725
衙	-11.0726
檢校	-11.0726
婉	-11.0727
瘞	-11.0728
凍	-11.0728
賚	-11.0729
箱	-11.0729
乃命	-11.0729
痕	-11.073
三世諸佛	-11.073
君王	-11.073
此意	-11.0732
於東	-11.0737
論一卷	-11.074
涅槃後	-11.074
國號	-11.0741
於法	-11.0747
始於	-11.0747
勸請	-11.0749
沙門智	-11.0752
拾得	-11.0753
此等	-11.0754
遂成	-11.0754
上方	-11.0759
太虗	-11.076
又何	-11.0762
生者	-11.0763
傾心	-11.0764
苦惱	-11.0765
寐	-11.0766
如夢	-11.0768
孰為	-11.0769
昔者	-11.0771
帝幸	-11.0774
故以	-11.0779
初生	-11.0783
居山	-11.0786
蜜多	-11.0786
幽顯	-11.0788
明白	-11.0788
五六	-11.0789
具陳	-11.079
諸苦	-11.0791
莊老	-11.0792
事畢	-11.0795
謝靈運	-11.0795
此三	-11.0796
資福	-11.0797
義也	-11.0801
其功	-11.0802
敬王	-11.0802
桀	-11.0802
千歲	-11.0803
薙染	-11.0804
畝	-11.0804
煮	-11.0804
了義	-11.0805
行願	-11.0805
以疾	-11.0807
終始	-11.0807
淑	-11.0807
引見	-11.0809
肌	-11.0809
不喜	-11.0809
一宿	-11.0812
僧等	-11.0816
靈芝	-11.0825
後魏	-11.0826
叩頭	-11.0827
義學	-11.0827
於西	-11.0828
諸有	-11.0831
尚不	-11.0834
令我	-11.0835
將謂	-11.0836
歸真	-11.0838
遊行	-11.0838
廣智	-11.0838
大石	-11.0838
意在	-11.0839
口出	-11.084
泣曰	-11.0841
稱善	-11.0842
如佛	-11.0845
圓相	-11.0846
澄觀	-11.0846
汝既	-11.0848
嘉定	-11.0851
勤修	-11.0852
山曰	-11.0856
真俗	-11.0856
不得巳	-11.0859
為主	-11.086
百餘年	-11.0862
止之	-11.0862
平地	-11.0862
卷下	-11.0863
兩手	-11.0867
金人	-11.0868
講演	-11.0868
所施	-11.0869
墮地	-11.0869
僧祇	-11.0869
螺	-11.0871
滿足	-11.0873
摘	-11.0875
驕	-11.0877
莫有	-11.0877
版	-11.088
宼	-11.088
興元	-11.088
什麼處	-11.088
萎	-11.0881
居焉	-11.0883
洒	-11.0883
欲為	-11.0884
抃	-11.0885
何言	-11.0885
其能	-11.0886
裙	-11.0886
裨	-11.0886
迦羅	-11.0887
今見	-11.0888
縈	-11.0888
杖錫	-11.089
在什麼處	-11.0891
閉目	-11.0896
舒州	-11.0899
法中	-11.09
風穴	-11.0903
無疑	-11.0904
實無	-11.0905
隨其	-11.091
三里	-11.091
名教	-11.0911
得疾	-11.0911
相公	-11.0913
禮部	-11.0915
續高僧傳	-11.0917
僧也	-11.0917
水上	-11.0918
不勞	-11.0919
怪之	-11.0922
三種	-11.0928
遠法師	-11.0928
異人	-11.0931
經律論	-11.0934
一世	-11.0935
其聲	-11.0935
我亦	-11.0937
到處	-11.0937
廓然	-11.094
莫知其	-11.094
以至	-11.0941
以明	-11.0941
秪	-11.0942
恒沙	-11.0942
報云	-11.0945
出自	-11.0945
君之	-11.0948
曹洞	-11.0951
開導	-11.0951
睦	-11.0952
天祐	-11.0953
茹	-11.0953
匱	-11.0954
澗	-11.0956
葺	-11.0956
脂	-11.0958
至尊	-11.0959
濬	-11.0959
涕泣	-11.0961
糜	-11.0962
掉	-11.0962
後進	-11.0964
悟道	-11.0966
道經	-11.0968
分座	-11.097
打破	-11.0972
座主	-11.0972
不下	-11.0977
國史	-11.0977
上書	-11.0978
以為常	-11.0981
先有	-11.0982
皎然	-11.0982
以此為	-11.0982
調達	-11.0982
為物	-11.0982
阿彌陀	-11.0989
天福	-11.0993
嘉興	-11.0995
當得	-11.0997
共相	-11.0997
手書	-11.0998
布衣	-11.0999
受五戒	-11.1001
崇敬	-11.1001
而歎曰	-11.1001
高下	-11.1005
香水	-11.1006
不無	-11.1007
轉輪王	-11.1007
南院	-11.1009
山龍	-11.1012
置之	-11.1014
救護	-11.1015
乾道	-11.1017
天親	-11.1017
大善	-11.1018
殿前	-11.1023
章句	-11.1027
高明	-11.1029
翠巖	-11.1031
脉	-11.1032
恚	-11.1033
滑	-11.1034
亦復如是	-11.1034
啄	-11.1034
房中	-11.1037
皐	-11.1038
若其	-11.1039
俞	-11.1039
施主	-11.1039
稀	-11.1041
撤	-11.1042
嚼	-11.1043
有八	-11.1045
枯木	-11.1052
謂是	-11.1052
為作	-11.1056
高聲	-11.1057
人身	-11.1059
宗之	-11.1066
常侍	-11.1066
率土	-11.1069
各自	-11.107
酒肉	-11.1073
見一人	-11.1076
入見	-11.1078
件	-11.1084
以奉	-11.1086
南康	-11.1088
既久	-11.1094
踈	-11.1097
不爾	-11.1098
之命	-11.1099
相顧	-11.1101
鼓山	-11.1102
聖像	-11.1105
吾子	-11.1106
乃往	-11.1107
每有	-11.1107
暹	-11.1108
為惡	-11.1109
息心	-11.1109
萬言	-11.1109
付之	-11.111
服其	-11.1111
渥	-11.1112
袋	-11.1112
延之	-11.1113
王及	-11.1113
前代	-11.1113
莫敢	-11.1115
老聃	-11.1115
甕	-11.1115
樞密	-11.1115
至彼	-11.1116
崑崙	-11.1118
入廬山	-11.112
倭	-11.112
世稱	-11.1121
挈	-11.1124
擊之	-11.1126
羈	-11.1128
鎮州	-11.1129
定業	-11.1131
半月	-11.1136
敷演	-11.1138
一面	-11.1138
本願	-11.1141
金粟	-11.1141
維摩經	-11.1142
道得	-11.1143
一指	-11.1143
石塔	-11.1145
精微	-11.1147
論語	-11.1147
行法	-11.115
真覺	-11.115
受禪	-11.1151
倏	-11.1152
在乎	-11.1153
危坐	-11.1155
演說	-11.1157
二十八日	-11.1157
年三月	-11.1169
得聞	-11.1169
無損	-11.1171
宗乘	-11.1172
竹林寺	-11.1174
前行	-11.1174
之君	-11.1175
生安養	-11.1175
若非	-11.118
而致	-11.1184
者何	-11.1185
海上	-11.1186
遊化	-11.1189
土木	-11.1189
興善	-11.119
撒	-11.1191
禎	-11.1193
端坐而化	-11.1194
龍池	-11.1195
趍	-11.1195
劄	-11.1195
㲲	-11.1196
殑伽河	-11.1197
芻	-11.1197
臯	-11.1198
社稷	-11.1198
蟠	-11.1199
周氏	-11.1199
南印度	-11.12
濱	-11.1201
腐	-11.1204
祭祀	-11.1204
肖	-11.1205
氈	-11.1212
之資	-11.1212
每以	-11.1213
中外	-11.1214
焚身	-11.1215
傍有	-11.1218
東歸	-11.1219
以詩	-11.1219
今為	-11.122
之福	-11.1224
又勅	-11.1226
城人	-11.1227
婦女	-11.1231
香嚴	-11.1232
五世	-11.1234
盡其	-11.1237
卿等	-11.1238
吳越王	-11.1239
若斯	-11.124
天性	-11.1246
五欲	-11.1247
乃自	-11.1247
宗風	-11.1248
豈無	-11.1249
四十八	-11.125
于今	-11.1251
節度	-11.1251
回首	-11.1251
況復	-11.1252
初見	-11.1254
子云	-11.1256
識得	-11.1261
飛來	-11.1261
二諦	-11.1267
為名	-11.1267
成帝	-11.1268
師兄	-11.127
摩訶衍	-11.1271
唄	-11.1272
鎧	-11.1272
頗有	-11.1272
揵	-11.1273
膽	-11.1274
鑪	-11.1274
廩	-11.1275
荼	-11.1275
敞	-11.1276
興善寺	-11.1276
法海	-11.1277
鍼	-11.1278
晨夕	-11.128
晞	-11.1282
苞	-11.1283
本是	-11.1285
自立	-11.1286
略無	-11.1288
歸方丈	-11.1294
豈以	-11.1294
天女	-11.1296
得失	-11.1297
諫曰	-11.1297
作此	-11.1301
起信	-11.1301
大宋	-11.1304
應物	-11.1304
寂照	-11.1307
厥後	-11.1309
長短	-11.131
流轉	-11.1312
假名	-11.1313
不願	-11.1313
謹言	-11.1319
玄風	-11.1319
又從	-11.1329
甚處	-11.133
雲中	-11.1331
幽微	-11.1332
武皇帝	-11.1335
論之	-11.1341
一如	-11.1343
寺之	-11.1347
前世	-11.1348
第一座	-11.1348
之首	-11.1349
建中	-11.1349
皆由	-11.1353
起居	-11.1353
篡	-11.1354
我師	-11.1355
阿師	-11.1355
巍巍	-11.1356
一宗	-11.1356
一夕夢	-11.1358
圜悟	-11.1358
醍醐	-11.1358
知事	-11.1359
楹	-11.136
漢地	-11.136
宥	-11.1361
遊歷	-11.1362
厝	-11.1362
華嚴寺	-11.1367
傳教	-11.1369
夜叉	-11.137
願師	-11.1371
三十九	-11.1375
此即	-11.1377
法也	-11.1377
云是	-11.1379
以供	-11.138
從前	-11.1382
每見	-11.1384
即遣	-11.1384
藥師	-11.1385
於洛陽	-11.139
氣力	-11.139
師便打	-11.1392
與道	-11.1394
異類	-11.1397
死後	-11.1399
作麼生會	-11.1399
始也	-11.1402
召入	-11.1403
亦應	-11.1404
昨夜	-11.1406
手中	-11.1407
問僧	-11.1408
之眾	-11.1409
了然	-11.1412
翊	-11.1414
大山	-11.1417
不虛	-11.1417
〕-【	-11.1423
亦猶	-11.1424
道成	-11.1425
不減	-11.1426
五道	-11.1426
神功	-11.1426
釋道安	-11.1431
處之	-11.1431
馨	-11.1437
是真	-11.1441
年九十	-11.1441
三萬	-11.1441
札	-11.1442
誚	-11.1443
燉煌	-11.1444
墟	-11.1445
建業	-11.1447
尚有	-11.1448
神宗	-11.1448
夜中	-11.1451
天禧	-11.1452
法花	-11.1452
時諸	-11.1455
無學	-11.1458
箇甚麼	-11.1459
符堅	-11.1459
其大	-11.1464
其室	-11.1468
凡三	-11.1469
思之	-11.147
處士	-11.1472
四十里	-11.1472
人生	-11.1475
業報	-11.1477
中有一	-11.1478
能令	-11.1481
佛意	-11.1484
於言下	-11.1485
亦何	-11.1487
家世	-11.1493
彌陀經	-11.1495
金光	-11.1496
入此	-11.1501
信受	-11.1501
入朝	-11.1502
吾所	-11.1502
白鶴	-11.1503
名聞	-11.1505
自覺	-11.1506
佛果	-11.1507
當年	-11.1508
人見	-11.151
隨處	-11.151
契丹	-11.1511
開講	-11.1515
龍興	-11.1516
致禮	-11.1517
之報	-11.1518
中來	-11.1518
阮	-11.152
箕	-11.1522
不語	-11.1522
販	-11.1522
至聖	-11.1523
筭	-11.1525
皇甫	-11.1525
▁明	-11.1525
老病	-11.1526
凋	-11.1528
至若	-11.153
臼	-11.153
逞	-11.1531
獄卒	-11.1534
斃	-11.1534
修淨土	-11.1535
可惜	-11.1535
世事	-11.1537
無恙	-11.1539
珠林	-11.1539
有物	-11.1541
楊都	-11.1544
與僧	-11.1545
隱士	-11.1546
以前	-11.1548
靈瑞	-11.1549
為正	-11.1549
及見	-11.1549
賜紫	-11.1549
方外	-11.155
那國	-11.1553
師至	-11.1555
造次	-11.1555
年六月	-11.1557
永興	-11.1557
大願	-11.1558
國有	-11.156
上都	-11.156
上古	-11.1561
之位	-11.1565
之音	-11.1569
良久曰	-11.1575
得佛	-11.1575
破戒	-11.1576
二名	-11.1577
即令	-11.1578
許多	-11.158
二月十五日	-11.1581
志在	-11.1583
議者	-11.1587
還歸	-11.1588
成一	-11.1591
九江	-11.1594
一切智	-11.1594
泄	-11.1595
不落	-11.1596
住徑山	-11.1597
法顯	-11.1597
投之	-11.16
聦	-11.1601
昱	-11.1601
娑	-11.1601
腋	-11.1602
師即	-11.1603
聞巳	-11.1603
廣慧	-11.1604
如有	-11.1605
三下	-11.1606
漲	-11.1607
繒	-11.1607
鎻	-11.161
釐	-11.161
方始	-11.1613
緬	-11.1615
莫大	-11.1617
宗廟	-11.1619
報應記	-11.162
流汗	-11.1623
大似	-11.1625
通身	-11.1626
靈鷲	-11.1626
不避	-11.1626
彈曰	-11.1629
人人	-11.1629
以金	-11.163
疑其	-11.1631
出塵	-11.1631
佛是	-11.1635
其高	-11.1641
宿命	-11.1642
無滯	-11.1642
異於	-11.1643
真空	-11.1646
戒定慧	-11.1648
以施	-11.1652
十載	-11.1661
昔如來	-11.1664
將入	-11.1665
食時	-11.1665
為是	-11.1668
伏願	-11.1668
代云	-11.1669
師子國	-11.1669
七尺	-11.1669
去之	-11.1673
忽一日	-11.1675
不載按佛祖統紀	-11.1675
以大	-11.1675
阿誰	-11.1679
獲舍利	-11.168
一毫	-11.1681
導師	-11.1682
還宮	-11.1682
繹	-11.1684
庠	-11.1685
相對	-11.1685
經七日	-11.1686
修福	-11.1686
義熙	-11.1687
昉	-11.1687
撞	-11.169
矧	-11.169
態	-11.169
獨坐	-11.169
盍	-11.1691
度眾生	-11.1691
天台教	-11.1693
無所得	-11.1693
不能得	-11.1693
秋七月	-11.1694
二菩薩	-11.1696
掇	-11.1697
其所以	-11.1698
之用	-11.17
諸沙門	-11.17
悋	-11.1702
之矣	-11.1702
當作	-11.1709
妙理	-11.1711
漢明	-11.1713
之亂	-11.1713
是何人	-11.1713
衡陽	-11.1714
後為	-11.1714
伏膺	-11.1715
不移	-11.1715
一百五十	-11.172
懺法	-11.1726
後身	-11.1728
如上	-11.173
使其	-11.173
所夢	-11.1737
佛出世	-11.1737
之典	-11.1738
不載	-11.1741
尺許	-11.1742
亦當	-11.1742
從者	-11.1748
普度	-11.1752
應機	-11.1755
溫州	-11.1756
寺東	-11.1757
僧伽藍	-11.1758
大旱	-11.1758
給侍	-11.1759
已前	-11.176
敬重	-11.176
佛菩薩	-11.1761
更相	-11.1762
今朝	-11.1764
譬喻	-11.1764
沙門惠	-11.1765
覺禪師	-11.1766
岱	-11.1767
弘濟	-11.1768
歸之	-11.1768
三百餘	-11.1771
煎	-11.1773
云和尚	-11.1773
冰	-11.1774
滿室	-11.1775
盟	-11.1775
琬	-11.1775
些子	-11.1776
兩街	-11.1776
嵓	-11.1777
漱	-11.178
黃巾	-11.1781
侔	-11.1781
時彼	-11.1781
股	-11.1781
賓客	-11.1783
乃得	-11.1785
囑累	-11.1785
癘	-11.1785
憲章	-11.1785
下生	-11.1786
觀音大士	-11.1787
須知	-11.1791
諸生	-11.1791
全無	-11.1792
未悟	-11.1792
馬氏	-11.1798
有過	-11.1799
白鹿	-11.1799
必以	-11.1804
姚興	-11.1809
有奇	-11.1811
作麼生是	-11.1814
著論	-11.1816
相從	-11.1816
首楞嚴	-11.1817
後還	-11.1817
造化	-11.1818
師因僧問	-11.1818
山河	-11.182
如其言	-11.182
過此	-11.1821
示其	-11.1823
居此	-11.1825
五載	-11.1826
西河	-11.183
錢塘人	-11.1831
北行	-11.1836
聖跡	-11.1838
」【	-11.1842
結茅	-11.1844
慧觀	-11.1844
道術	-11.1847
飲之	-11.1848
之尊	-11.1849
度僧尼	-11.185
意旨如何	-11.185
潯陽	-11.185
拶	-11.1854
便出	-11.1854
民間	-11.1854
飜	-11.1855
衒	-11.1856
鴿	-11.1857
堵	-11.1858
今有	-11.1858
琅	-11.1858
萬國	-11.1858
不昧	-11.1859
拭	-11.1859
當陽	-11.1859
太清	-11.186
曼	-11.186
又夢	-11.186
瞑	-11.1861
􂎫	-11.1861
五更	-11.1864
行事	-11.1864
訪道	-11.1864
鄒	-11.1865
風流	-11.1866
少室	-11.1867
甞與	-11.1868
清河	-11.1869
善法	-11.187
為國師	-11.187
終無	-11.1871
之瑞	-11.1871
桓玄	-11.1872
數里	-11.1873
眾請	-11.1874
增減	-11.1876
難以	-11.1877
無念	-11.1877
服膺	-11.1878
勿令	-11.1879
之室	-11.1881
之民	-11.1882
後主	-11.1884
龍華	-11.1884
第一義	-11.1885
呼曰	-11.1888
僖宗	-11.189
得麼	-11.1891
有一僧	-11.1892
張公	-11.1896
形貌	-11.1897
萬計	-11.1897
不輕	-11.1899
月二十三日	-11.1899
妙覺	-11.1902
請居	-11.1902
修證	-11.1903
之方	-11.1905
四王	-11.1905
絕倫	-11.191
工夫	-11.191
為太子	-11.191
乃謂	-11.1911
苦樂	-11.1913
尚未	-11.1922
建德	-11.1924
院主	-11.1926
口誦	-11.1932
瑗	-11.1935
奉表	-11.1935
為甚	-11.1936
願為	-11.1937
暠	-11.1938
乘空	-11.1939
經義	-11.194
吾教	-11.1941
隊	-11.1943
駝	-11.1943
萬卷	-11.1943
脈	-11.1944
瓦礫	-11.1945
萬乘	-11.1948
神氣	-11.1948
牌	-11.1949
猴	-11.1949
證義	-11.195
躁	-11.1951
隕	-11.1952
殖	-11.1953
西晉	-11.1954
昭宗	-11.1955
▁梁	-11.1957
慎勿	-11.1957
而亡	-11.1959
獲免	-11.196
肅然	-11.1962
普明	-11.1962
慕容	-11.1963
!	-11.1963
深山	-11.1966
西去	-11.1968
六通	-11.197
聞道	-11.1973
域中	-11.1975
色身	-11.1975
梵文	-11.1977
燒身	-11.1977
形容	-11.1977
浮山	-11.198
無虧	-11.1982
尊像	-11.1983
得出	-11.1984
四世	-11.1988
之側	-11.1988
空門	-11.1989
則其	-11.1991
時也	-11.1993
天柱	-11.1995
賦詩	-11.1997
四句	-11.1998
普濟	-11.1999
寶珠	-11.2
因明	-11.2001
見處	-11.2001
請和尚	-11.2002
知名	-11.2007
南京	-11.2008
未久	-11.2009
不窮	-11.201
目為	-11.2011
盛德	-11.2011
於今	-11.2013
六十餘	-11.2015
視其	-11.2015
智論	-11.2016
奉迎	-11.2018
龐	-11.202
為此	-11.2022
說偈言	-11.2024
漚	-11.2028
不敬	-11.2028
掬	-11.2028
陞堂	-11.2029
唱佛	-11.2029
駒	-11.2029
良久云	-11.203
虹	-11.203
趾	-11.2031
進退	-11.2031
搏	-11.2031
却問	-11.2032
閭	-11.2033
魄	-11.2033
勁	-11.2033
問法	-11.2033
𡨥	-11.2034
閫	-11.2034
令旨答	-11.2035
愴	-11.2036
調伏	-11.2037
斷絕	-11.2039
功成	-11.204
遷都	-11.204
當下	-11.2041
眼目	-11.2042
流涕	-11.2043
教義	-11.2044
聖人也	-11.2046
洗浴	-11.2047
顆	-11.2047
之樂	-11.205
聽經	-11.2051
僧史	-11.2051
所不能	-11.2052
因即	-11.2057
漸漸	-11.2058
今年	-11.2062
色界	-11.2063
演法	-11.2064
參學	-11.2065
少頃	-11.2065
聞師	-11.2066
作一	-11.2071
亦能	-11.2072
徧參	-11.2074
郎中	-11.2079
有識	-11.208
齊王	-11.208
如舊	-11.2081
慟	-11.2082
十數	-11.2083
悟入	-11.2083
聖壽	-11.2083
晨起	-11.2084
教主	-11.2085
沙門曇	-11.2086
嶺南	-11.2089
上帝	-11.209
真性	-11.2095
望見	-11.2096
無物	-11.2097
毘婆沙	-11.2098
山東	-11.21
路逢	-11.21
賜額	-11.2102
建安	-11.2102
都不	-11.2102
應時	-11.2104
一條	-11.2105
楊氏	-11.2105
百餘卷	-11.2106
檗	-11.2108
嶷	-11.2111
聖王	-11.2112
致使	-11.2113
呼之	-11.2114
瞋恚	-11.2115
大略	-11.2116
爭奈	-11.2117
無差	-11.2118
村人	-11.2119
孝子	-11.2122
吝	-11.2124
嘉祐	-11.2124
矚	-11.2124
丐	-11.2124
賑	-11.2125
薙落	-11.2126
永樂	-11.2127
開士	-11.2128
是大	-11.213
亦未	-11.2131
吉州	-11.2133
一百七十	-11.2133
不納	-11.2133
中夏	-11.2134
棄去	-11.2136
者歟	-11.2136
放之	-11.2138
祖道	-11.2139
五濁	-11.2139
實有	-11.2141
國主	-11.2141
江湖	-11.2141
其類	-11.2149
遂令	-11.2149
何緣	-11.2151
冬夏	-11.2151
三途	-11.2154
復往	-11.2155
和尚住	-11.2155
現形	-11.2156
二曰	-11.2158
所修	-11.2158
異相	-11.2159
襄王	-11.2161
流出	-11.2161
歸於	-11.2162
坐脫	-11.2166
中山	-11.2167
或言	-11.2167
外護	-11.217
帝為	-11.2171
吳氏	-11.2172
太武	-11.2173
日輪	-11.2173
禪經	-11.2176
四十九年	-11.2176
已得	-11.218
無厭	-11.218
略云	-11.2181
終焉	-11.2183
從事	-11.2184
達觀	-11.2185
序曰	-11.2186
諸賢	-11.2188
睿宗	-11.2189
既成	-11.2189
舊史	-11.2193
留之	-11.2197
便去	-11.2199
指歸	-11.22
其體	-11.2204
不逮	-11.2204
寺門	-11.2204
禪悅	-11.2204
杉	-11.2204
孩	-11.2205
瞥	-11.2205
濤	-11.2207
佑	-11.2207
臧	-11.2209
夷狄	-11.2209
邏	-11.2209
以相	-11.2212
浚	-11.2214
芒	-11.2214
昔在	-11.2214
犀	-11.2216
鴨	-11.2217
三祖	-11.2224
不傷	-11.2225
不道	-11.2226
必須	-11.2229
帝親	-11.223
令出家	-11.2233
竹園	-11.2233
忽起	-11.2236
可愛	-11.2237
後居	-11.2238
佛塔	-11.2245
聲教	-11.2248
六十四	-11.2249
焉能	-11.2249
不甚	-11.2251
會曰	-11.2254
賢愚	-11.2257
恐怖	-11.2259
刻石	-11.2262
三十四	-11.2267
相逢	-11.227
獨步	-11.2271
同參	-11.2272
紛然	-11.2274
深加	-11.2277
乃可	-11.228
之明	-11.2283
它	-11.2288
雖然如是	-11.2289
恒河沙	-11.229
而進	-11.2292
易之	-11.2292
阿修羅	-11.2293
盞	-11.2294
本起	-11.2295
炷香	-11.2295
浹	-11.2296
瓌	-11.2296
所推	-11.2298
澹	-11.2298
宇宙	-11.2298
祥雲	-11.23
修羅	-11.2302
發言	-11.2303
泓	-11.2303
靄	-11.2305
媚	-11.2306
簷	-11.2307
圃	-11.2308
書記	-11.2309
梵云	-11.231
光中	-11.231
放逸	-11.2313
起於	-11.2314
遺法	-11.2318
之形	-11.2319
一眾	-11.2319
神照	-11.2321
成實論	-11.2322
於朝	-11.2322
騰空	-11.2325
而行之	-11.2327
請講	-11.2328
道化	-11.2335
信向	-11.2336
一口	-11.234
今生	-11.2342
無倦	-11.2343
行香	-11.2344
聞其名	-11.2344
羅浮	-11.2345
瑞相	-11.2345
至人	-11.2346
必能	-11.2349
相遇	-11.235
講涅槃	-11.235
火宅	-11.2351
于地	-11.2351
天竺沙門	-11.2353
定光	-11.2354
覺而	-11.2355
者非	-11.2357
言行	-11.2358
因甚	-11.2359
景雲	-11.2359
無功	-11.2359
氏族	-11.236
常樂	-11.2362
一作	-11.2363
賜名	-11.2364
佛隴	-11.2365
來問	-11.2365
噉食眾生是	-11.2366
有問	-11.2369
拈拄杖	-11.2374
此義	-11.2375
是夜	-11.2375
犍	-11.2376
聽吾偈曰	-11.2377
萬古	-11.2379
斬之	-11.2379
待之	-11.2379
舅	-11.2381
辭眾	-11.2381
姜	-11.2385
禿	-11.2386
嫡	-11.2386
鏤	-11.2386
金玉	-11.2386
竅	-11.2388
崔浩	-11.2389
銕	-11.2389
溥	-11.2389
定林寺	-11.239
翰林學士	-11.239
疑之	-11.2394
戟	-11.2394
黷	-11.2395
醫藥	-11.2396
以神力	-11.2399
下詔曰	-11.2402
惕	-11.2406
鐫	-11.2406
然乎	-11.2407
可畏	-11.2409
不懈	-11.2409
本行經	-11.241
得入	-11.2411
錢氏	-11.2412
隴西	-11.2413
眾苦	-11.2415
即與	-11.2415
謂其徒曰	-11.242
經疏	-11.2424
孝武	-11.2425
歲次	-11.2426
隨順	-11.2429
其源	-11.2432
然無	-11.2433
有德	-11.2436
之季	-11.2436
詰之	-11.2437
不廢	-11.244
之機	-11.2445
念觀音	-11.2446
方廣	-11.2446
萬機	-11.2447
又作	-11.2449
寶蓋	-11.2456
聞此語	-11.2456
三度	-11.2457
乃復	-11.2457
百王	-11.2459
毘盧遮那	-11.2461
法護	-11.2462
立精舍	-11.2462
唱言	-11.2464
輯	-11.2465
聞佛	-11.2465
峯頂	-11.2468
存乎	-11.2469
來朝	-11.247
惰	-11.247
遺書	-11.2472
地上	-11.2472
鈎	-11.2473
誓不	-11.2473
金錢	-11.2474
指南	-11.2475
魅	-11.2477
屎	-11.2477
放大光明	-11.2478
達于	-11.2478
經歷	-11.2479
太始	-11.248
佛圖澄	-11.248
茫茫	-11.2481
瑯	-11.2481
鹽官	-11.2482
之重	-11.2483
裸	-11.2484
翅	-11.2485
眩	-11.2486
為世	-11.2486
講道	-11.2487
繆	-11.2487
誰知	-11.2488
甞問	-11.2488
痊	-11.2489
性空	-11.2489
郢	-11.2491
不當	-11.2491
嘲	-11.2491
勸人	-11.2492
至長安	-11.2494
佛印	-11.2494
容貌	-11.2495
失之	-11.2495
五行	-11.2495
足矣	-11.2496
得旨	-11.2497
克勤	-11.2501
愛之	-11.2501
龍猛	-11.2501
流淚	-11.2502
不到	-11.2506
不虗	-11.2508
法音	-11.2513
始興	-11.2513
論道	-11.2515
從而	-11.2516
九部	-11.2516
韶州	-11.2519
給事	-11.252
當自	-11.252
天花	-11.2524
二種	-11.2525
月十二日	-11.2525
聰慧	-11.2525
吏曰	-11.2526
非凡	-11.2526
始自	-11.253
卷第十	-11.253
禮義	-11.2533
分付	-11.2535
遂於	-11.2535
即命	-11.2536
辜	-11.2537
法琳	-11.2537
入中國	-11.2537
黑白	-11.2539
佛與	-11.254
悲喜	-11.2543
大和上	-11.2546
問師	-11.2549
北臺	-11.2551
五百年	-11.2551
閑居	-11.2553
玉女	-11.2554
南有	-11.2555
恍	-11.2556
些	-11.2556
覃	-11.2557
何等	-11.256
其行	-11.2563
▁周	-11.2564
請於	-11.2564
地下	-11.2565
沓	-11.2567
鷲	-11.2567
遣之	-11.2568
有能	-11.2568
需	-11.2569
師名	-11.2571
吁	-11.2571
剃染	-11.2572
累日	-11.2573
皂	-11.2573
左手	-11.2573
壺	-11.2574
寶應	-11.2575
庇	-11.2575
悶	-11.2575
正道	-11.2578
於外	-11.2578
而可	-11.2578
扉	-11.2578
蹲	-11.2578
耿	-11.2579
宛轉	-11.258
尹喜	-11.2581
人主	-11.2581
生生	-11.2584
自說	-11.2584
為上	-11.2587
權實	-11.2588
直至	-11.2588
甚矣	-11.259
一期	-11.259
上皇	-11.2591
第三子	-11.2592
以手指	-11.2593
淨覺	-11.2595
上天	-11.2597
勝業	-11.2598
而居	-11.2598
長大	-11.2599
其宗	-11.26
云我	-11.2603
奉安	-11.2603
其弟	-11.2603
即起	-11.2605
放過	-11.2605
有九	-11.2605
西僧	-11.2606
北有	-11.2607
圓融	-11.2607
之分	-11.2608
大赦	-11.2608
始皇	-11.2609
來日	-11.2611
顧視	-11.2612
是人	-11.2612
立碑	-11.2615
為尼	-11.2615
達者	-11.2615
取捨	-11.2617
年十四	-11.2617
語之曰	-11.2617
養之	-11.2621
所記	-11.2622
為諸	-11.2623
忽於	-11.2626
天衣	-11.2628
夢覺	-11.2628
四事	-11.2628
言已	-11.263
撫州	-11.2631
天界	-11.2631
不加	-11.2632
聽講	-11.2634
生死之	-11.2635
此何	-11.2645
禮謁	-11.2646
施食	-11.2647
二里	-11.265
佛老	-11.265
還俗	-11.2652
哥	-11.2653
其要	-11.2654
還鄉	-11.2657
見諸	-11.2657
武林	-11.2658
脣	-11.2658
本師	-11.2658
髭	-11.2659
倣	-11.266
而過	-11.266
婚	-11.2661
墻	-11.2661
惑眾	-11.2662
轉讀	-11.2663
憎	-11.2663
燎	-11.2663
不肖	-11.2664
洛京	-11.2664
鉅	-11.2666
諺	-11.2666
當於	-11.2666
訊	-11.2667
專志	-11.2667
惡人	-11.2667
迂	-11.2668
汝身	-11.2668
崇禎	-11.267
築室	-11.267
出家學道	-11.2672
怯	-11.2674
衿	-11.2676
布薩	-11.2677
有志	-11.2678
▁釋	-11.2678
旦夕	-11.268
翕然	-11.2681
却後	-11.2684
何法	-11.2691
說得	-11.2691
有生	-11.2695
什公	-11.2696
善友	-11.2698
石橋	-11.2699
兩人	-11.2701
玄理	-11.2703
者是	-11.2703
初出	-11.2703
商主	-11.2704
扶風	-11.2704
物外	-11.2705
焚燒	-11.2707
三十餘里	-11.2707
方可	-11.2709
光相	-11.271
諸君	-11.2715
清虛	-11.2717
淺深	-11.2721
財物	-11.2721
撰碑	-11.2721
住此	-11.2722
道光	-11.2722
舊名	-11.2725
一音	-11.2726
保福	-11.2726
今人	-11.2729
取一	-11.273
睦州	-11.2733
奉持	-11.2736
大陽	-11.274
至極	-11.2741
菴主	-11.2742
三千大千世界	-11.2742
青龍	-11.2743
皇極	-11.2744
便行	-11.2746
故號	-11.2747
講論	-11.2748
姑臧	-11.275
散騎常侍	-11.2751
如是等	-11.2751
傅奕	-11.2753
駢	-11.2753
纓	-11.2753
惟有	-11.2754
鋤	-11.2756
來儀	-11.2756
剔	-11.2757
峨	-11.2757
椀	-11.2758
奏請	-11.2758
之益	-11.2759
所學	-11.2759
拆	-11.276
髣髴	-11.2761
四天下	-11.2761
慧林	-11.2761
遯	-11.2762
煑	-11.2763
猛獸	-11.2763
憾	-11.2763
睹	-11.2764
論者	-11.2765
胡人	-11.2766
以致	-11.2767
鄴都	-11.2769
袪	-11.277
唐太宗	-11.2776
而滅	-11.2778
於物	-11.2779
不墮	-11.278
度之	-11.2782
大慈恩寺	-11.2783
之孫	-11.2784
相識	-11.2785
姓氏	-11.2789
殷勤	-11.2791
施者	-11.2792
八九	-11.2792
念經	-11.2792
驚怖	-11.2793
升堂	-11.2793
既有	-11.2796
大力	-11.2797
佛記	-11.2799
宣揚	-11.28
住寺	-11.2807
還復	-11.2808
大象	-11.2809
禪學	-11.2815
方來	-11.2815
五品	-11.2816
野人	-11.2817
隨方	-11.2821
善導	-11.2825
賓頭盧	-11.2832
避地	-11.2833
所證	-11.2833
在何處	-11.2833
世緣	-11.2838
手持	-11.284
數月	-11.2847
浣	-11.2848
離俗	-11.2848
鑰	-11.2848
民之	-11.285
幅	-11.285
逗	-11.285
請佛	-11.2851
吠	-11.2852
羨	-11.2852
潞	-11.2853
笏	-11.2853
尚在	-11.2854
𢹂	-11.2856
怙	-11.2858
靈感	-11.2858
餞	-11.2858
莊周	-11.2862
研究	-11.2863
持律	-11.2864
白佛	-11.2865
法主	-11.2865
諸書	-11.2867
太虛	-11.287
人世	-11.287
其略曰	-11.287
我見	-11.287
何耶	-11.2872
一味	-11.2877
弘贊	-11.2879
時阿育王	-11.2879
百有餘	-11.288
可往	-11.2881
─	-11.2881
漢魏	-11.2882
應聲	-11.2883
數載	-11.2883
第二出	-11.2883
四果	-11.2885
真佛	-11.2888
中路	-11.289
為寺	-11.2892
得往生	-11.2892
一何	-11.2893
非但	-11.2894
金帛	-11.2894
復至	-11.2897
其罪	-11.2901
梵經	-11.2901
及以	-11.2902
亦得	-11.2903
如水	-11.2905
今既	-11.2909
雷震	-11.291
曰吾	-11.291
徐氏	-11.2911
會得	-11.2913
上聞	-11.2918
頌云	-11.2918
百日	-11.2918
無聲	-11.2921
天華	-11.2921
以正	-11.2921
五十三	-11.2924
究其	-11.2925
斯則	-11.2926
二十六日	-11.2929
三國	-11.293
為最	-11.293
來世	-11.2931
別號	-11.2933
十方諸佛	-11.2933
忽見一	-11.2934
鬘	-11.2935
懊惱	-11.2937
喫飯	-11.2941
邢	-11.2942
咬	-11.2943
挍	-11.2944
囂	-11.2945
樸	-11.2945
州牧	-11.2947
而欲	-11.2947
梟	-11.2949
聆	-11.295
蓋以	-11.295
砂	-11.2952
山南	-11.2952
海水	-11.2952
遣中使	-11.2954
利生	-11.2957
今復	-11.296
婺州	-11.2961
高士	-11.2964
剃度	-11.2965
相國寺	-11.2966
念金剛經	-11.2971
大涅槃	-11.2973
信者	-11.2974
坐夏	-11.2974
久遠	-11.2975
絳	-11.2977
開發	-11.298
隨從	-11.2982
不祥	-11.2988
領眾	-11.2989
十四卷	-11.2992
越之	-11.2992
後入	-11.2993
源流	-11.2994
授與	-11.2996
辭親	-11.2997
覺寺	-11.2998
講授	-11.2998
作亂	-11.3
山人	-11.3001
大雲	-11.3003
獄中	-11.3006
重譯	-11.3006
三百六十	-11.3014
書生	-11.3014
禮之	-11.302
▁僧	-11.3022
講涅槃經	-11.3022
禾	-11.3024
先帝	-11.3025
三毒	-11.3025
殊勝	-11.3025
欲識	-11.303
日久	-11.303
茫	-11.3031
阿闍梨	-11.3031
有罪	-11.3031
每於	-11.3032
開化	-11.3034
泗州	-11.3038
劈	-11.3039
鎔	-11.3039
遺教	-11.3041
嶠	-11.3042
剩	-11.3042
九卷	-11.3043
廬陵	-11.3044
法教	-11.3044
弭	-11.3044
複	-11.3045
絡	-11.3046
萬善	-11.3046
大部	-11.3046
涸	-11.3046
貿	-11.3046
興國	-11.3047
城外	-11.3047
咸謂	-11.3048
或時	-11.3049
紳	-11.3049
一切諸	-11.3051
貴人	-11.3051
尊卑	-11.3053
設會	-11.3053
奉全身	-11.3053
毀佛	-11.3057
皇太后	-11.3059
棲賢	-11.3061
明明	-11.3061
中丞	-11.3065
西林	-11.3067
前有	-11.3068
堂宇	-11.3068
發揮	-11.3072
應之	-11.3072
今已	-11.3073
往詣	-11.3074
佛祖統紀卷第	-11.3074
本生	-11.3075
具如	-11.3075
為期	-11.308
六塵	-11.3081
異也	-11.3083
施之	-11.3083
故今	-11.309
後不知所終	-11.3092
流血	-11.3092
五百人	-11.3094
馬大師	-11.3095
故經云	-11.3095
太白	-11.3098
火焚	-11.3099
趂	-11.3099
心中	-11.31
報慈	-11.3104
形如	-11.3104
惜哉	-11.3105
奏云	-11.3105
南臺	-11.3106
清泰	-11.3108
既非	-11.3109
求佛	-11.311
菩薩像	-11.3111
生緣	-11.3112
勝負	-11.3114
昭覺	-11.3116
世世	-11.3118
修禪	-11.3119
中興寺	-11.3122
一塵	-11.3125
中臺	-11.3129
之道也	-11.313
舡	-11.3132
恩愛	-11.3132
善信	-11.3133
寢疾	-11.3134
能行	-11.3135
冕	-11.3135
巒	-11.3137
啞	-11.3138
愿	-11.3138
匣	-11.3138
加趺	-11.3138
肉身	-11.3139
彊	-11.3139
俱胝	-11.3139
薙髮	-11.3141
二十里	-11.3141
濡	-11.3142
春秋六十有	-11.3142
麈尾	-11.3143
出去	-11.3144
圍遶	-11.3145
攬	-11.3145
嘿	-11.3145
液	-11.3146
悽	-11.3146
店	-11.3147
化胡經	-11.3148
殿下	-11.3149
是否	-11.3152
信士	-11.3154
洞庭	-11.316
性海	-11.316
慧光	-11.3161
四門	-11.3162
娠	-11.3162
甞以	-11.3166
此名	-11.3167
大觀	-11.3168
得來	-11.3168
六萬	-11.3168
祈禱	-11.3174
河西	-11.3179
遑	-11.3179
年老	-11.3179
祠部	-11.3182
王乃	-11.3182
後代	-11.3184
王命	-11.3187
供施	-11.3188
惡趣	-11.3189
田地	-11.3191
在其中	-11.3196
摩耶	-11.3197
天中	-11.3197
力故	-11.3198
開門	-11.3198
此論	-11.32
莫測其	-11.3201
佛化	-11.3206
殿上	-11.3206
七十餘	-11.3209
稱佛名	-11.321
在昔	-11.3213
近日	-11.3213
厭離	-11.3216
芥	-11.3219
實為	-11.322
舉前話	-11.3224
所殺	-11.3225
禪師諱	-11.3226
昭玄	-11.3226
白居易	-11.3226
面前	-11.3228
金銅	-11.3228
因地	-11.323
四遠	-11.3233
巳上	-11.3233
馴	-11.3234
我來	-11.3237
企	-11.324
卷第一	-11.324
璣	-11.324
寅	-11.324
嶮	-11.324
自見	-11.3241
奉旨	-11.3241
卞	-11.3241
椒	-11.3241
酸	-11.3243
青蓮	-11.3244
》,	-11.3244
穹	-11.3244
和之	-11.3246
湛堂	-11.3247
雌	-11.3248
汲引	-11.3248
月二十一日	-11.3248
問佛	-11.325
胸中	-11.325
蒨	-11.3252
不事	-11.3253
一篇	-11.3258
陳留	-11.3259
甚眾	-11.3262
玄妙	-11.3265
為侍者	-11.3265
用處	-11.3266
其日	-11.3267
真心	-11.3268
特來	-11.3269
能生	-11.327
一著	-11.3272
十住	-11.3273
以濟	-11.3273
誅之	-11.3276
五色雲	-11.3278
經法	-11.3281
會下	-11.3288
家貧	-11.3294
聚徒	-11.3296
端嚴	-11.3296
不負	-11.3302
實際	-11.3302
之塔	-11.3303
歎異	-11.3304
造作	-11.3305
者甚眾	-11.3306
胡僧	-11.3307
善能	-11.3308
三代	-11.3309
得意	-11.3309
諸相	-11.3311
中人	-11.3311
有年	-11.3313
紫金	-11.3315
毀之	-11.3316
萬戶	-11.3319
法義	-11.332
行路	-11.332
日中	-11.3323
不墜	-11.3325
晉宋	-11.3327
重閣	-11.3327
語默	-11.3327
聃	-11.3328
願我	-11.3329
拂袖	-11.333
語其	-11.333
鸚鵡	-11.3332
入堂	-11.3332
有感	-11.3333
窆	-11.3334
山河大地	-11.3335
濛	-11.3336
濵	-11.3336
法雨	-11.3336
千數	-11.3336
數丈	-11.3336
有甚	-11.3337
萊	-11.3337
謂左右曰	-11.3337
穆宗	-11.3339
不可勝數	-11.3339
󰢍	-11.3339
俄見	-11.3339
梵書	-11.3339
九世	-11.3339
批	-11.3341
涓	-11.3342
不平	-11.3343
受報	-11.3344
菽	-11.3344
巳得	-11.3345
證聖	-11.3346
韓愈	-11.3346
諸外道	-11.3347
午時	-11.3349
紫衣	-11.3351
崑山	-11.3354
烽	-11.3354
我說	-11.3355
那裏	-11.3357
釋惠	-11.3358
執事	-11.3359
儒道	-11.336
孝經	-11.3363
過也	-11.3366
佛弟子	-11.3373
稱旨	-11.3375
在京	-11.3375
氣絕	-11.3376
群品	-11.3376
五陰	-11.3376
吾以	-11.3377
二十九年	-11.3379
目擊	-11.338
往昔	-11.3381
華山	-11.3382
何益	-11.3385
廢教	-11.3386
極樂世界	-11.3388
相次	-11.3392
四教	-11.3394
帝悅	-11.3396
其次	-11.3396
訪之	-11.3397
以居之	-11.34
又令	-11.3401
不稱	-11.3401
休去	-11.3402
行于世	-11.3403
留意	-11.3404
佛也	-11.3404
船子	-11.3407
送舍利	-11.3408
師既	-11.3409
中天	-11.341
相接	-11.3411
非吾	-11.3412
道風	-11.3413
不覩	-11.3413
悲夫	-11.3418
池中	-11.3421
百八	-11.3421
疫	-11.3422
罪過	-11.3422
十六觀	-11.3423
天道	-11.3425
卓然	-11.3425
幾人	-11.3427
以禮	-11.3429
深遠	-11.3429
一笑	-11.343
入蜀	-11.343
皆云	-11.343
帆	-11.3434
晁	-11.3434
漢武	-11.3434
初學	-11.3436
尿	-11.3437
幕	-11.3437
弘宣	-11.3438
君父	-11.3438
饋	-11.3439
削髮	-11.3439
鞋	-11.3439
祁	-11.344
夜則	-11.3441
貳	-11.3441
渺	-11.3441
魚肉	-11.3442
叉手	-11.3443
未成	-11.3444
貝葉	-11.3444
智通	-11.3444
扁	-11.3444
大乘經	-11.3445
尚存	-11.3445
復次	-11.3445
尋訪	-11.3447
知音	-11.3447
庭前	-11.3447
聿	-11.3449
如彼	-11.345
下語	-11.3453
景福	-11.3455
靈照	-11.3455
君子之	-11.3457
各一	-11.3458
給事中	-11.3461
常行	-11.3462
抑揚	-11.3462
建興	-11.3462
大風	-11.3462
弘教	-11.3466
平昔	-11.3467
無傷	-11.347
迄今	-11.3472
長夜	-11.3481
黎明	-11.3483
彌勒佛	-11.3483
罪業	-11.3485
未達	-11.3487
言其	-11.3487
得阿羅漢	-11.3487
以充	-11.3488
大劫	-11.3488
老和尚	-11.3489
宮人	-11.349
孫氏	-11.349
日照	-11.3491
在甚處	-11.3493
異域	-11.3497
定中	-11.3497
等事	-11.3497
遺命	-11.3499
得非	-11.3509
興皇	-11.3511
重興	-11.3515
有差	-11.3517
定州	-11.3519
別眾	-11.3519
僧會	-11.3521
犢	-11.3522
不遺	-11.3523
說戒	-11.3524
而言曰	-11.3524
間有	-11.3525
地藏菩薩	-11.3528
陜	-11.3528
對眾	-11.3528
不任	-11.3528
其經	-11.3532
豈不是	-11.3534
無病	-11.3535
秦主	-11.3537
狄	-11.3537
天下人	-11.3537
豁然大悟	-11.3538
恁麼道	-11.3538
便下座	-11.3539
剗	-11.354
遂即	-11.3541
澈	-11.3542
同於	-11.3542
躅	-11.3542
里人	-11.3542
文中子	-11.3543
醇	-11.3544
濃	-11.3545
覿	-11.3545
其口	-11.3546
僧寶傳	-11.3546
綾	-11.3546
釁	-11.3547
擁護	-11.3548
誦習	-11.3548
紐	-11.3552
宋高僧傳	-11.3552
轡	-11.3553
曠劫	-11.3553
當與	-11.3555
世家	-11.3555
道業	-11.3556
永寧	-11.3557
之高	-11.356
永泰	-11.3564
自他	-11.3567
有詔	-11.3567
玄化	-11.3569
銘曰	-11.3569
壽昌	-11.357
不殊	-11.3571
後果	-11.3572
不審	-11.3572
漁人	-11.3574
廢帝	-11.3575
以水	-11.3576
未曾有	-11.3582
不染	-11.3585
游方	-11.3587
汝是	-11.3587
那箇	-11.3589
照禪師	-11.3591
山有	-11.3593
隱於	-11.3595
為樂	-11.3596
繇是	-11.3597
化城	-11.3598
慈恩寺	-11.3599
文學	-11.3603
天竺國	-11.3603
客曰	-11.3603
到來	-11.3604
初祖	-11.3605
吾徒	-11.3605
聽其	-11.3605
月輪	-11.3609
出家人	-11.3611
迷悟	-11.3611
為誰	-11.3612
轉輪聖王	-11.3612
禧	-11.3612
照耀	-11.3613
三十里	-11.3616
安可	-11.3617
三門	-11.3619
承當	-11.362
月二十二日	-11.362
漢明帝	-11.3623
波若	-11.3624
之具	-11.3624
經年	-11.3624
甞曰	-11.3625
二大士	-11.3625
積善	-11.3626
瓘	-11.3628
渤	-11.3629
師子吼	-11.363
仞	-11.3631
高安	-11.3632
明教	-11.3632
帀	-11.3635
異乎	-11.3635
儞	-11.3637
牲	-11.3637
先王之	-11.3637
穎	-11.3639
献	-11.364
𥨊	-11.3641
不測其	-11.3641
麵	-11.3642
鉢盂	-11.3642
信施	-11.3644
鄞	-11.3644
之訓	-11.3645
收舍利	-11.3646
無染	-11.3646
孤負	-11.3647
支那	-11.3648
祥瑞	-11.3648
謂為	-11.3652
講華嚴	-11.3653
安心	-11.3655
尋陽	-11.3656
寺額	-11.3657
彼土	-11.3658
救之	-11.3658
恍然	-11.366
受罪	-11.366
出遊	-11.366
小異	-11.3662
經籍	-11.3664
製序	-11.3664
宗匠	-11.3666
莫非	-11.3667
其居	-11.3667
記曰	-11.3667
光宅	-11.3668
自誓	-11.367
此像	-11.3672
代之	-11.3673
罔極	-11.3675
牧牛	-11.3676
干戈	-11.3677
監護	-11.3677
金口	-11.3678
壽量	-11.3683
天魔	-11.3684
僧無對	-11.3685
五嶽	-11.3688
周旋	-11.3689
側有	-11.369
沙門玄奘	-11.369
五蘊	-11.3693
惟願	-11.3694
餘人	-11.3696
頓首	-11.3697
又諮	-11.3698
上堂曰	-11.3699
還見	-11.37
踊躍	-11.3703
內侍	-11.3703
如如	-11.3707
玄微	-11.3712
經營	-11.3713
千遍	-11.3721
自己	-11.3722
羅睺羅	-11.3724
精修	-11.3728
一切種智	-11.3729
出迎	-11.373
及乎	-11.3733
汝輩	-11.3733
橛	-11.3734
觀音勢至	-11.3736
妙果	-11.3739
普請	-11.3739
侍立	-11.374
泡	-11.3741
授菩薩戒	-11.3742
棟	-11.3742
善人	-11.3742
伎樂	-11.3742
寂寥	-11.3743
名稱	-11.3743
押	-11.3743
所執	-11.3743
澡浴	-11.3744
思議	-11.3748
二儀	-11.3749
鷲嶺	-11.375
崇重	-11.3755
一歲	-11.3755
大都	-11.3761
內史	-11.3761
誦彌陀經	-11.3762
拂衣	-11.3766
如流	-11.3769
道生	-11.3771
春秋五十	-11.3773
而天下	-11.3773
話頭	-11.3773
吾之	-11.3774
千五百	-11.3779
不可得而	-11.3781
追之	-11.3781
山西	-11.3781
高峯	-11.3785
中郎	-11.3789
迅	-11.379
含識	-11.3791
乃著	-11.3791
哀帝	-11.3792
致拜	-11.3792
含靈	-11.3794
一千年	-11.3794
文忠	-11.3798
莫是	-11.3799
光孝	-11.3805
疏鈔	-11.3807
長往	-11.3807
豈容	-11.3807
十種	-11.3813
至乎	-11.3814
柰	-11.3815
與子	-11.3815
眾共	-11.3815
理會	-11.3819
表曰	-11.382
日本國	-11.382
僧堂	-11.382
令僧	-11.3821
不存	-11.3828
璽	-11.3828
招提	-11.3828
中流	-11.3829
最上	-11.3831
芭蕉	-11.3832
璪	-11.3832
五尺	-11.3836
為沙彌	-11.3837
摩竭	-11.3837
崛	-11.3838
右脇而	-11.3839
鳩摩羅什	-11.384
習學	-11.3842
圭	-11.3842
蚊	-11.3842
綏	-11.3843
鳩摩羅	-11.3843
妙道	-11.3843
䭾	-11.3843
椽	-11.3845
趺坐而化	-11.3845
泌	-11.3846
撼	-11.3846
昶	-11.3847
乎哉	-11.3847
行狀	-11.3847
曄	-11.3847
講法華經	-11.3848
日出	-11.3849
元始	-11.3849
優婆夷	-11.385
口授	-11.385
弦	-11.385
琢	-11.3851
悴	-11.3852
弘福寺	-11.3852
臆	-11.3853
炊	-11.3856
都盡	-11.3857
必先	-11.3858
門戶	-11.3858
▁卷	-11.3859
開成	-11.3862
如何是佛	-11.3864
至洛陽	-11.3865
明暗	-11.3867
達多	-11.3869
之侶	-11.387
本迹	-11.3875
之制	-11.3876
堂內	-11.3877
萬餘人	-11.3879
本州	-11.388
於茲	-11.3881
言巳	-11.3882
五萬	-11.3883
則不然	-11.3885
而反	-11.3885
須菩提	-11.3886
佛家	-11.3887
五通	-11.3888
開目	-11.3889
起坐	-11.3892
自思惟	-11.3893
當是時	-11.3893
制度	-11.3894
佛滅後	-11.3896
散花	-11.3896
與俱	-11.3897
太陽	-11.3897
往參	-11.3899
覆之	-11.39
復出	-11.39
無主	-11.3902
遺言	-11.3905
必欲	-11.3907
所宗	-11.3907
五代	-11.3909
衣物	-11.3911
海印	-11.3912
泉云	-11.3912
東明	-11.3913
依法	-11.3915
建隆	-11.3915
思禪師	-11.3916
十念	-11.3918
香積	-11.392
嗟乎	-11.3921
徐州	-11.3922
望風	-11.3926
崇福	-11.3926
必死	-11.3926
復歸	-11.3931
出離	-11.3931
西蜀	-11.3933
遊山	-11.3933
為首	-11.3933
法筵	-11.3936
亥	-11.3938
崇福寺	-11.3939
之神	-11.394
而況	-11.3941
之服	-11.3943
佚	-11.3943
當今	-11.3945
闡化	-11.3946
罔措	-11.3946
杏	-11.3947
蘆	-11.3947
棹	-11.3947
無怠	-11.3949
誦呪	-11.395
鮑	-11.3951
躭	-11.3953
試之	-11.3953
神悟	-11.3954
置塔	-11.3954
隸	-11.3954
大圓	-11.3954
諳	-11.3955
飼	-11.3956
孟軻	-11.3956
滄海	-11.3957
柩	-11.3957
塗炭	-11.3958
縑	-11.3959
沫	-11.3959
歸信	-11.396
真乘	-11.396
三十八	-11.3961
不敢違	-11.3961
大雄	-11.3963
山行	-11.3964
通玄	-11.3965
說是	-11.3966
更衣	-11.3966
門前	-11.3968
毘曇	-11.3969
憂惱	-11.397
車駕	-11.397
判官	-11.3973
三七	-11.3974
稱其	-11.3975
德音	-11.3976
還國	-11.3977
雖無	-11.3977
以法付	-11.3979
長跪	-11.3981
忻然	-11.3981
他方	-11.3982
五穀	-11.3982
無故	-11.3985
至孝	-11.3985
致之	-11.3988
居民	-11.3989
經三卷	-11.3993
佛即	-11.3993
心源	-11.3994
有五百	-11.3995
三王	-11.3996
明了	-11.3996
勉之	-11.3999
明宗	-11.4
方欲	-11.4001
智海	-11.4001
特賜	-11.4002
然之	-11.4002
又為	-11.4007
方寸	-11.4009
漳	-11.401
加敬	-11.4017
獨處	-11.4017
九天	-11.4019
時方	-11.4022
信也	-11.4026
幽冥	-11.4028
一滴	-11.4028
普化	-11.4029
王與	-11.4031
之別	-11.4034
積年	-11.4034
歸向	-11.4034
不惑	-11.4035
向後	-11.4036
之屬	-11.4037
太初	-11.4038
化成	-11.4039
明德	-11.4039
不錄	-11.404
先德	-11.4041
尊重	-11.4042
祿山	-11.4044
望之	-11.4044
)【	-11.4044
巋	-11.4044
重罪	-11.4045
陛	-11.4047
六齋	-11.4048
迦毘羅	-11.4049
送還	-11.4051
菩提達磨	-11.4052
作甚麼	-11.4053
神會	-11.4055
涇	-11.4057
聻	-11.4058
欄	-11.4059
澄曰	-11.4061
可憐	-11.4061
詬	-11.4062
且喜	-11.4063
謙之	-11.4063
其夕	-11.4064
國內	-11.4065
驪	-11.4065
千聖	-11.4066
袂	-11.4066
羣臣	-11.4067
一品	-11.4069
其王	-11.4069
盛行	-11.407
僧房	-11.4071
頴川	-11.4071
五眾	-11.4072
祭酒	-11.4074
僧寺	-11.4075
先覺	-11.4079
自茲	-11.4079
失所在	-11.4084
淨戒	-11.4085
雖在	-11.4086
白象	-11.4087
都講	-11.4087
齋日	-11.4088
卷第二	-11.4089
遇疾	-11.409
莊宗	-11.409
破壞	-11.4093
鉢羅	-11.4095
因事	-11.4095
泊然	-11.4096
苦痛	-11.4096
知非	-11.4096
於長安	-11.4096
常誦	-11.4097
未是	-11.4097
教乘	-11.4098
大城	-11.4098
曾到	-11.4099
歌曰	-11.4101
來謁	-11.4103
見一僧	-11.4103
伯陽	-11.4104
三歸	-11.4104
通人	-11.4105
師便	-11.4108
愛其	-11.4109
領悟	-11.4111
甚處來	-11.4114
何哉	-11.4114
作者	-11.4114
一百一十	-11.4115
有人問	-11.4115
者三	-11.4119
林木	-11.4122
信矣	-11.4122
食訖	-11.4123
無所見	-11.4124
汝但	-11.4124
左僕射	-11.4124
言論	-11.4128
敢不	-11.4128
未出	-11.413
半日	-11.4131
不群	-11.4131
同侶	-11.4132
其徒曰	-11.4133
光武	-11.4134
七里	-11.4135
一夏	-11.4139
洛下	-11.414
寺沙門	-11.4141
願見	-11.4143
厭世	-11.4144
奉事	-11.4145
東門	-11.4147
法本	-11.4148
近世	-11.4149
等覺	-11.415
異同	-11.415
生知	-11.4153
甚麼處	-11.4155
雒陽	-11.4156
法侶	-11.4157
吾昔	-11.4157
窠	-11.4158
雖欲	-11.4158
槐	-11.4158
用此	-11.4159
黃蘗	-11.4159
立塔	-11.416
答之	-11.4161
湊	-11.4162
三十棒	-11.4162
東有	-11.4163
悞	-11.4164
中書舍人	-11.4164
旁出	-11.4165
野狐	-11.4166
嘉靖	-11.4166
湫	-11.4166
礪	-11.4166
之稱	-11.4166
文云	-11.4168
吸	-11.4168
舂	-11.4168
歆	-11.4168
羌	-11.4171
十方佛	-11.4171
流傳	-11.4175
簫	-11.4176
此亦	-11.4176
缽	-11.4176
之善	-11.4177
稱佛	-11.4177
三寸	-11.4178
還都	-11.4179
凡人	-11.4179
支遁	-11.418
觀察使	-11.4181
天堂	-11.4182
告之	-11.4184
初為	-11.4184
園中	-11.4185
拈香	-11.4187
後遇	-11.4188
家國	-11.4189
龍神	-11.4189
六十卷	-11.4192
絕粒	-11.4193
衡州	-11.4193
不若	-11.4194
我與	-11.4194
功德使	-11.4197
一切諸法	-11.4198
者耶	-11.4198
所述	-11.42
所明	-11.4201
八十一	-11.4203
感動	-11.4204
十餘人	-11.4204
一日問	-11.4205
處所	-11.4207
瑕	-11.4207
印土	-11.4208
不畏	-11.4208
歎其	-11.4208
羅山	-11.4209
人莫	-11.421
問之曰	-11.421
▁魏	-11.4214
那箇是	-11.4216
僧慧	-11.4216
鴈	-11.4219
此去	-11.422
吳王	-11.4221
波利	-11.4222
愛敬	-11.4222
頂骨	-11.4223
聞風	-11.4224
數百年	-11.4227
人中	-11.4227
皆來	-11.4228
雙樹	-11.423
參究	-11.4234
焉知	-11.4234
含生	-11.4238
嗣位	-11.4239
能誦	-11.4239
驚起	-11.4239
楚王	-11.424
山海	-11.4242
鉢中	-11.4242
總是	-11.4245
死矣	-11.425
居止	-11.4251
般若波羅蜜	-11.4251
旃	-11.4252
不要	-11.4253
忠信	-11.4253
臨行	-11.4254
有若	-11.4256
吾佛	-11.4257
惡道	-11.4258
財寶	-11.4258
座上	-11.4259
姜斌	-11.4259
八世	-11.4259
佛來	-11.4261
畫像	-11.4261
悉達	-11.4262
報身	-11.4262
非唯	-11.4263
喫茶	-11.4263
曇摩	-11.4264
睛	-11.4264
善業	-11.4264
年代	-11.4265
而已矣	-11.4266
化物	-11.4266
大旨	-11.4266
赤城	-11.4267
其光	-11.4269
主僧	-11.4272
又如	-11.4272
行住坐臥	-11.4272
莊王	-11.4274
萬二千	-11.4274
耐	-11.4274
垂拱	-11.4274
所從來	-11.4275
瑟	-11.4275
大樹	-11.4276
要且	-11.4276
蛙	-11.4277
揣	-11.4277
正宗記	-11.4278
毳	-11.4278
規矩	-11.4279
萬松	-11.4281
逡巡	-11.4281
之暇	-11.4281
瞞	-11.4282
凱	-11.4282
溈	-11.4283
穿鑿	-11.4285
於海	-11.4286
下至	-11.4287
中年	-11.4287
輕慢	-11.4288
戢	-11.4289
修念佛三昧	-11.429
京都	-11.4292
不差	-11.4292
隆安	-11.4292
衣法	-11.4294
至山	-11.4295
其衣	-11.4296
宰輔	-11.4296
在甚麼處	-11.4297
桑門	-11.4298
慧命	-11.4299
典籍	-11.43
新安	-11.4301
波斯	-11.4302
金剛窟	-11.4308
大像	-11.4311
薩婆	-11.4311
三五	-11.4319
女曰	-11.4319
與吾	-11.4319
吳主	-11.4327
自已	-11.4328
極多	-11.433
待制	-11.4334
開元中	-11.4334
勸令	-11.4335
一佛	-11.4335
舉頭	-11.4338
佛戒	-11.4342
明達	-11.4342
神色	-11.4347
萬歷	-11.4348
引之	-11.4349
三宗	-11.4349
之主	-11.4349
帝命	-11.4349
蓮池	-11.4351
遂入	-11.4351
風雲	-11.4352
道果	-11.4354
一隻	-11.4354
宗即位	-11.4355
寰	-11.4357
此僧	-11.4358
東來	-11.436
城邑	-11.436
慕道	-11.4368
真常	-11.4368
辭歸	-11.4369
潤文	-11.4369
將以	-11.4373
髑髏	-11.4373
彪	-11.4376
冏	-11.4376
杓	-11.4377
無取	-11.4377
乃入	-11.4378
即心即佛	-11.4378
七眾	-11.4378
卷上	-11.438
攝心	-11.4382
塼	-11.4383
插	-11.4383
䞋	-11.4384
回頭	-11.4385
傭	-11.4387
蘄州	-11.4388
螢	-11.4388
太極殿	-11.4389
頃刻	-11.4391
催	-11.4391
僧寶	-11.4391
脊	-11.4392
庖	-11.4392
閙	-11.4393
有子名	-11.4394
坎	-11.4395
如何得	-11.4395
庭中	-11.4395
快樂	-11.4397
囑曰	-11.4397
南面	-11.4398
佛土	-11.4399
俄頃	-11.4401
磧	-11.4402
見我	-11.4406
序云	-11.4407
機鋒	-11.4407
歸戒	-11.441
以偈曰	-11.4411
過之	-11.4412
昭慶	-11.4414
甚大	-11.4415
大眾部	-11.4415
之誠	-11.4416
嚴飾	-11.4416
取經	-11.4418
定王	-11.442
初心	-11.442
南行	-11.4421
隋文帝	-11.4422
塔院	-11.4424
而弗	-11.4426
忘其	-11.4426
記之	-11.443
舍衛國	-11.4432
異光	-11.4433
無量壽經	-11.4437
應詔	-11.4438
是經	-11.4439
有力	-11.444
善心	-11.444
高山	-11.4444
呪術	-11.4449
吳中	-11.4452
巳前	-11.4452
引至	-11.4452
先王	-11.4456
只為	-11.4457
誰為	-11.4459
抑亦	-11.4463
中和	-11.4464
坐亡	-11.4465
心行	-11.4466
後遊	-11.4466
緣覺	-11.4466
昭然	-11.4467
又喝	-11.4469
治國	-11.4469
器之	-11.4471
將盡	-11.4478
上京	-11.4478
佛智	-11.448
滕	-11.4483
億劫	-11.4484
即帝位	-11.4484
圓寂	-11.4484
一向	-11.4486
八尺	-11.4487
酥	-11.4488
葷血	-11.4489
往返	-11.4491
有聞	-11.4491
淨居天	-11.4492
及期	-11.4492
駁	-11.4493
輪轉	-11.4494
漕	-11.4495
貪欲	-11.4496
罔知	-11.4496
天明	-11.45
法師法嗣	-11.45
渝	-11.45
德光	-11.45
遘疾	-11.4501
甞著	-11.4502
麾	-11.4502
不犯	-11.4504
治平	-11.4505
乞歸	-11.4507
波羅蜜	-11.4508
與弟子	-11.4508
逐之	-11.4509
不憚	-11.4511
貧窮	-11.4511
調御	-11.4512
有異香	-11.4514
忽自	-11.4516
分散	-11.4516
觀法	-11.4517
神之	-11.4518
法界觀	-11.4519
來往	-11.452
於言下大悟	-11.4525
中華	-11.4526
天成	-11.4527
洞明	-11.4528
百尺	-11.453
又問曰	-11.4531
便禮拜	-11.4532
從今	-11.4532
尤善	-11.4534
難可	-11.4537
鄭氏	-11.4538
後如何	-11.4538
真容	-11.4541
列子	-11.4542
宗杲	-11.4543
病死	-11.4543
每一	-11.4543
諦觀	-11.4545
普門	-11.455
幾時	-11.4551
本名	-11.4553
所持	-11.4554
底人	-11.4558
七世	-11.456
今得	-11.4561
大抵	-11.4562
汝州	-11.4563
苦空	-11.4566
如日	-11.4567
次年	-11.4568
禪牀	-11.4569
鶴林	-11.4569
松江	-11.4569
聖上	-11.4569
大神	-11.4573
傳者	-11.4573
瑞光	-11.4574
一百八	-11.4575
數歲	-11.4577
院事	-11.4579
度生	-11.458
文明	-11.4583
寺眾	-11.4583
貞觀中	-11.459
萬五千	-11.459
皆同	-11.4591
球	-11.4593
甚盛	-11.4596
而笑	-11.4596
坐道場	-11.4597
辭還	-11.4598
一子	-11.4598
言句	-11.4599
般舟	-11.46
揑	-11.46
僧叡	-11.4601
官府	-11.4602
不生不滅	-11.4604
泗	-11.4604
德業	-11.4606
驥	-11.4607
汾	-11.4608
壯麗	-11.4609
豹	-11.4609
西堂	-11.4609
謠	-11.461
敝	-11.4611
馥	-11.4611
袞	-11.4612
腫	-11.4612
不論	-11.4613
五明	-11.4614
霖	-11.4614
曰和尚	-11.4615
謝安	-11.4615
信敬	-11.4615
蠧	-11.4616
蕪	-11.4618
無上菩提	-11.4622
海鹽	-11.4623
巖下	-11.4625
堦	-11.4625
初禪	-11.4628
愕然	-11.463
為皇太子	-11.4632
香湯	-11.4632
開演	-11.4635
儒家	-11.4635
見阿彌陀佛	-11.4637
有什麼	-11.4638
惡心	-11.4638
通論	-11.4638
還寺	-11.4639
彌陀佛	-11.4639
那羅	-11.4643
避之	-11.4647
至於此	-11.4648
淨心	-11.4649
不復見	-11.4649
祖父	-11.4649
南昌	-11.465
流支	-11.465
婆子	-11.4652
之靈	-11.4657
又與	-11.4659
棄家	-11.4663
決疑	-11.4668
禪室	-11.4668
其誠	-11.4669
云某甲	-11.467
道不得	-11.4674
指其	-11.4676
宗仰	-11.4681
所請	-11.4682
四十五	-11.4683
應天	-11.4683
主云	-11.4683
華頂	-11.4684
冥福	-11.4686
經于	-11.4689
不拘	-11.4689
淨住	-11.4691
之勝	-11.4692
親友	-11.4692
理事	-11.4692
法印	-11.4694
遺身	-11.4694
八戒	-11.4695
應對	-11.4696
石函	-11.4697
元帥	-11.4697
不幸	-11.4698
其外	-11.4698
千部	-11.47
參政	-11.47
普光	-11.47
欲知	-11.4701
▁張	-11.4701
有勅	-11.4701
其內	-11.4701
四寸	-11.4702
其福	-11.4702
四聖	-11.4703
使我	-11.4705
神龍	-11.4705
一棒	-11.4708
法苑珠林	-11.471
珪曰	-11.4713
跏趺而逝	-11.4713
願生	-11.4714
脫去	-11.4714
悠	-11.4715
訂	-11.4715
蒲州	-11.4715
宮室	-11.4716
觀行	-11.4716
所以者何	-11.4717
瀛	-11.4718
范陽	-11.4718
無端	-11.4719
福嚴	-11.472
勾	-11.472
尺餘	-11.472
而愈	-11.4721
其所出法嗣一	-11.4721
爍	-11.4721
有僧問	-11.4722
佛頂	-11.4722
眸	-11.4722
石城	-11.4722
諸禪	-11.4723
一毛	-11.4723
釜	-11.4723
不以為	-11.4725
捫	-11.4726
濂	-11.4726
不空三藏	-11.4728
繕寫	-11.4728
瑀	-11.4728
上堂云	-11.4728
勘破	-11.4729
福慧	-11.4732
天真	-11.4732
于闐國	-11.4732
友人	-11.4733
乘馬	-11.4734
二載	-11.4735
械	-11.4735
門人曰	-11.4735
表請	-11.4736
又詔	-11.474
後復	-11.474
滅法	-11.4742
周遍	-11.4743
方圓	-11.4743
所以為	-11.4745
二十餘里	-11.4747
碩德	-11.4748
忽不見	-11.4748
戒德	-11.4748
檀施	-11.4751
來至此	-11.4752
精嚴	-11.4752
滅佛法	-11.4755
含笑	-11.4757
俯仰	-11.4758
戒賢	-11.4759
火化	-11.4759
三身	-11.476
之器	-11.476
虛妄	-11.4765
楞嚴經	-11.4767
不傳	-11.4768
百川	-11.4768
五常	-11.4768
所欲	-11.4769
度者	-11.477
朵	-11.4771
平陽	-11.4771
據此	-11.478
并答	-11.4781
初夜	-11.4782
同遊	-11.4784
如一	-11.4784
此說	-11.4785
法師講	-11.4786
曾見	-11.4787
誰是	-11.4791
于世	-11.4792
原夫	-11.4792
白黑	-11.4793
深淺	-11.4794
致遠	-11.4795
并諸	-11.4798
上乘	-11.4799
以救	-11.48
但是	-11.4804
載之	-11.4812
若在	-11.4812
年至	-11.4813
並無	-11.4813
即能	-11.4814
嚴淨	-11.4814
迎請	-11.4815
怤	-11.4817
初謁	-11.4817
因爾	-11.4817
如是如是	-11.4818
小者	-11.4822
亦自	-11.4825
有云	-11.4825
改名	-11.4825
薩埵	-11.4825
如何是祖師西來意	-11.4828
耗	-11.483
恂	-11.4831
尸羅	-11.4831
珂	-11.4834
般若多羅	-11.4835
嚫	-11.4836
文德	-11.4836
慳	-11.4836
佛照	-11.4837
是法	-11.4837
掣	-11.4839
耄	-11.4839
安然	-11.4839
懌	-11.484
道悟	-11.484
武后	-11.484
南郊	-11.4841
觀佛	-11.4841
不好	-11.4841
題曰	-11.4842
蹋	-11.4842
嬰兒	-11.4842
負笈	-11.4842
不留	-11.4842
貺	-11.4843
曙	-11.4843
北天竺	-11.4843
合掌而逝	-11.4845
斯須	-11.4845
一則	-11.4846
猛虎	-11.4848
離生死	-11.4849
隨之	-11.4852
大方	-11.4852
面壁	-11.4852
往生淨土	-11.4853
▁陳	-11.4854
太康	-11.4855
居常	-11.4857
舍衛	-11.4857
長者子	-11.4858
之賓	-11.4861
三十三天	-11.4862
無道	-11.4862
化生	-11.4863
也未	-11.4864
匹夫	-11.4864
補處	-11.4865
昇天	-11.4865
次子	-11.4866
汝宜	-11.4867
宗極	-11.4867
以定	-11.4868
貞明	-11.4871
年登	-11.4871
不得不	-11.4871
聞聲	-11.4874
居于	-11.4874
王城	-11.4874
十八卷	-11.4875
而獨	-11.4877
慧覺	-11.4878
慧可	-11.4879
佛鑑	-11.488
之患	-11.4881
禮足	-11.4885
峯下	-11.489
離苦	-11.489
鄴下	-11.4891
昔人	-11.4892
所求	-11.4892
信宿	-11.4894
獨立	-11.4894
辭曰	-11.4896
庵主	-11.4896
之兆	-11.4898
庶子	-11.4898
遇一	-11.4898
禪寂	-11.4899
譯為	-11.4901
七歲出家	-11.4903
六部	-11.4905
世諦	-11.4905
又造	-11.4905
來下	-11.4906
當往	-11.4906
最高	-11.4908
未暇	-11.4912
二門	-11.4915
九重	-11.4915
覩其	-11.4919
還京	-11.4919
浮雲	-11.4922
驚覺	-11.4923
金剛智	-11.4923
知解	-11.4923
解衣	-11.4924
如風	-11.4926
神智	-11.4926
易曰	-11.4928
隆興	-11.4928
垂手	-11.493
信佛	-11.4932
託生	-11.4932
者多矣	-11.4933
覷	-11.4938
固請	-11.4938
庚	-11.4938
親臨	-11.4939
錄云	-11.4939
潤州	-11.494
噓	-11.4941
為第一	-11.4943
凡百	-11.4944
南史	-11.4944
弉	-11.4946
中書侍郎	-11.4948
汝欲	-11.4948
專修淨業	-11.4949
脅	-11.4949
東禪	-11.495
感夢	-11.4951
筏	-11.4951
劃	-11.4951
慍	-11.4951
譴	-11.4952
漉	-11.4952
我慢	-11.4952
留守	-11.4953
箋	-11.4954
僧錄司	-11.4954
出世法	-11.4954
長興	-11.4954
乾祐	-11.4954
鎚	-11.4955
嫗	-11.4956
相率	-11.4956
鑾	-11.4956
倩	-11.4957
伏惟陛下	-11.4957
孔丘	-11.4958
歲在	-11.4958
百千萬億	-11.4958
化行	-11.496
鵬	-11.496
寘	-11.4961
弘通	-11.4962
宗炳	-11.4963
艶	-11.4963
寺釋慧	-11.4967
像一軀	-11.4967
閉戶	-11.4968
斯文	-11.4969
法師曰	-11.4971
堂前	-11.4973
後參	-11.4976
施設	-11.4979
金光明經	-11.4982
百年後	-11.4982
所止	-11.4982
寧可	-11.4983
掘地	-11.4983
四十卷	-11.4984
六七	-11.4985
禪師示寂	-11.4985
者是也	-11.4985
捨家	-11.4985
白王言	-11.4986
熟視	-11.4987
不涉	-11.4988
具載	-11.4989
百氏	-11.499
文成	-11.4993
柰何	-11.4994
熏修	-11.4994
得否	-11.4996
密語	-11.4998
之緣	-11.4998
海會	-11.4998
一道	-11.4999
王氏子	-11.4999
牛頭山	-11.4999
六十年	-11.5001
金棺	-11.5003
禪床	-11.5006
隱隱	-11.5006
以拄杖	-11.5007
死人	-11.5007
彼有	-11.5008
接物	-11.501
孔子之	-11.5011
師範	-11.5011
自念言	-11.5011
掌中	-11.5013
乃能	-11.5016
尊貴	-11.5018
勝地	-11.5019
時眾	-11.502
餘皆	-11.5021
坦然	-11.5021
武陵	-11.5022
張氏子	-11.5024
中觀	-11.5029
畢集	-11.5029
三百年	-11.5031
○(	-11.5033
舉國	-11.5033
宿世	-11.5036
至七日	-11.5038
毗盧	-11.504
夢幻	-11.5041
多是	-11.5044
試經	-11.5044
然以	-11.5045
預知	-11.5045
西遊	-11.5046
禪客	-11.5047
正見	-11.5048
唯此	-11.5049
聖凡	-11.5049
其在	-11.5049
七百餘	-11.5051
字仲	-11.5052
之跡	-11.5055
不遇	-11.5056
遂命	-11.5056
麻谷	-11.5056
甚嚴	-11.5058
卯	-11.5059
憍慢	-11.5061
睡眠	-11.5063
瑛	-11.5063
本源	-11.5064
龔	-11.5064
江海	-11.5066
中天竺國	-11.5066
罷翁	-11.5066
蹇	-11.5066
寺側	-11.5067
鳳凰	-11.5068
若也	-11.5068
嵩嶽	-11.5068
親屬	-11.5069
向汝道	-11.5071
正信	-11.5072
帔	-11.5072
傅大士	-11.5072
仰云	-11.5072
䆳	-11.5073
大殿	-11.5073
壅	-11.5074
平章事	-11.5075
學問	-11.5076
林野	-11.5076
鼈	-11.5076
具述	-11.5076
稷	-11.5077
治世	-11.5078
蔓	-11.5079
檻	-11.508
黍	-11.5081
龍翔	-11.5082
來遊	-11.5083
紛紛	-11.5084
紆	-11.5084
此吾	-11.5085
移住	-11.5086
講法	-11.5088
南華	-11.509
慧能	-11.5091
九十六	-11.5091
滿月	-11.5093
晦迹	-11.5093
此生	-11.5093
執持	-11.5093
隻履	-11.5093
九旬	-11.5095
那爛陀寺	-11.5096
死屍	-11.5096
五百羅漢	-11.5097
宰臣	-11.5098
之禍	-11.5099
殿宇	-11.51
骨肉	-11.5101
彼佛	-11.5102
師云我	-11.5102
功臣	-11.5102
主簿	-11.5103
宋太祖	-11.5104
命師	-11.5104
志存	-11.5105
同聲	-11.5105
形神	-11.5107
之儔	-11.5109
八正	-11.5112
兩目	-11.5112
閻王	-11.5114
執筆	-11.5114
北禪	-11.5114
除之	-11.5115
辛苦	-11.5116
謹啟	-11.5116
豈是	-11.5118
齋僧	-11.513
大隋	-11.513
八人	-11.5133
數尺	-11.5134
乃遣	-11.5135
我昔	-11.5135
供僧	-11.5136
中途	-11.5137
眾多	-11.5137
虛無	-11.5138
二百餘	-11.5138
千金	-11.5141
斯事	-11.5142
道觀	-11.5144
六世	-11.5145
家風	-11.5145
洞然	-11.5147
後歸	-11.5147
二十人	-11.5148
銅像	-11.5149
衲衣	-11.5149
末代	-11.515
諸善	-11.515
更生	-11.5151
姓張氏	-11.5153
右僕射	-11.5154
蓋是	-11.5156
依言	-11.5156
室利	-11.5156
大元	-11.5156
直入	-11.5157
利養	-11.5157
其山	-11.516
同往	-11.5166
之由	-11.5166
金氏	-11.5168
顏子	-11.5168
又往	-11.5168
怒曰	-11.5169
十丈	-11.5171
說話	-11.5171
我本	-11.5173
呵呵大笑	-11.5176
左道	-11.5178
彬	-11.5179
沂	-11.5182
溈仰	-11.5182
受記	-11.5184
京輦	-11.5184
內翰	-11.5184
吳人	-11.5184
一錢	-11.5184
同安	-11.5185
奯	-11.5185
雖未	-11.5185
盡矣	-11.5186
亢旱	-11.5187
碑文	-11.5187
十方世界	-11.5189
璿	-11.519
竹篦	-11.5191
訾	-11.5191
於佛法	-11.5191
知歸子	-11.5191
斑	-11.5192
叨	-11.5193
鑊湯	-11.5193
按唐書	-11.5193
褰	-11.5194
嚙	-11.5194
圈	-11.5194
到這裏	-11.5194
見已	-11.5194
諂	-11.5196
衣裳	-11.5197
乃召	-11.5198
學通	-11.5198
噬	-11.5198
不休	-11.5198
豐干	-11.5199
佛圖	-11.5199
為民	-11.5199
祀之	-11.52
其辭	-11.5201
無罪	-11.5201
低頭	-11.5202
其位	-11.5202
十二因緣	-11.5203
竟無	-11.5204
以助	-11.5205
悔謝	-11.5205
寰中	-11.5208
既達	-11.521
不允	-11.5213
捨命	-11.5213
何獨	-11.5215
其塔	-11.5215
異哉	-11.5216
虗席	-11.5217
醴泉	-11.5219
學侶	-11.5221
熾然	-11.5222
師承	-11.5224
新經	-11.5227
遂至	-11.5229
皇祐	-11.523
一百卷	-11.5232
戶外	-11.5232
普賢菩薩	-11.5232
呪之	-11.5232
受學	-11.5235
忍大師	-11.5236
幽谷	-11.5236
草菴	-11.5236
甞謂	-11.5238
乃請	-11.5239
自然之	-11.5239
拜之	-11.524
無諍	-11.5243
之輩	-11.5244
顧問	-11.5244
忉利	-11.5244
淨土法門	-11.5245
廣濟	-11.5245
四五	-11.5249
五岳	-11.5251
臨安	-11.5253
尋之	-11.5254
峯云	-11.5257
悶絕	-11.5258
持此	-11.526
事迹	-11.5264
既覺	-11.5264
十二部	-11.5264
學業	-11.5265
救苦	-11.5265
若論	-11.5266
豈復	-11.5267
稍長	-11.527
長年	-11.527
咸共	-11.527
方外之	-11.5278
各異	-11.528
牖	-11.528
三十人	-11.5281
相違	-11.5281
」「	-11.5284
慧明	-11.5284
世傳	-11.5284
之始也	-11.5284
二寸	-11.5285
義天	-11.5285
之辭	-11.5286
梓州	-11.5287
州人也	-11.5289
建初	-11.529
如是者	-11.5292
平復	-11.5293
辭別	-11.5294
滅罪	-11.5296
彚	-11.5297
二聖	-11.5297
三品	-11.5298
東寺	-11.5299
帝聞	-11.5299
兩箇	-11.5301
初依	-11.5302
法施	-11.5302
國王大臣	-11.5302
爭得	-11.5304
軾	-11.5304
燦	-11.5305
中峯	-11.5306
眉毛	-11.5307
宣政院	-11.531
閤	-11.531
倪	-11.5311
尅	-11.5312
窗	-11.5314
喉	-11.5314
英宗	-11.5314
北門	-11.5314
我輩	-11.5316
鵠	-11.5316
提婆達多	-11.5317
以後	-11.5318
溈云	-11.5321
纘	-11.5322
別行	-11.5326
萬由旬	-11.5326
宣譯	-11.5328
進修	-11.5328
保壽	-11.533
喜怒	-11.5334
東遊	-11.5335
贊寧	-11.5337
殿中	-11.5338
康王	-11.5338
莫道	-11.5339
每夜	-11.534
堂上	-11.534
武昌	-11.5341
性命之	-11.5341
在心	-11.5341
後梁	-11.5341
妄言	-11.5342
從何	-11.5343
學於	-11.5344
奉上	-11.5344
賜謚	-11.5344
天平	-11.5344
改正	-11.5346
石柱	-11.5346
得箇	-11.5347
寶誌	-11.5347
年號	-11.5348
研精	-11.5349
驚問	-11.5349
唐虞	-11.535
數千人	-11.535
萬有	-11.5355
傳持	-11.5357
不畜	-11.5357
遍歷	-11.5362
無限	-11.5363
靈光	-11.5363
觀自在菩薩	-11.5364
遺迹	-11.5364
持佛名	-11.5365
一切處	-11.5366
五篇	-11.5368
依前	-11.5369
真觀	-11.5369
而興	-11.5371
奧義	-11.5373
新到	-11.5373
復言	-11.5379
三分	-11.538
說言	-11.5383
良以	-11.5385
勅謚	-11.5388
死於	-11.5389
而臥	-11.5389
修功德	-11.539
廢之	-11.539
陳氏子	-11.5393
趙郡	-11.5393
玄奧	-11.5394
魏主	-11.5396
去此	-11.5402
時有一	-11.5403
藏曰	-11.5403
知禮	-11.5406
遍參	-11.5408
鄭州	-11.541
何經	-11.5413
能使	-11.5413
僧問如何是	-11.5418
多年	-11.5419
士民	-11.5421
于是	-11.5422
用為	-11.5422
況乎	-11.5422
拄	-11.5423
教外別傳	-11.5424
受請	-11.5424
神武	-11.5424
汝等諸人	-11.5424
恒河	-11.5425
三德	-11.5426
康熈	-11.5426
蓮經	-11.5427
中食	-11.5427
報佛恩	-11.5429
唯見	-11.5429
詹	-11.543
這漢	-11.543
諸大德	-11.543
蓋其	-11.5431
燋	-11.5432
膩	-11.5433
弛	-11.5433
苕	-11.5433
隨師	-11.5433
法集	-11.5434
領解	-11.5434
循環	-11.5435
颺	-11.5435
巔	-11.5436
子厚	-11.5436
渡河	-11.5437
蹤跡	-11.5437
詶	-11.5438
優波離	-11.5439
帷	-11.5439
耻	-11.544
江浙	-11.5441
徒侶	-11.5442
呾	-11.5443
縉雲	-11.5447
耆宿	-11.5447
娑羅	-11.5448
呈偈曰	-11.5448
驚喜	-11.5448
首眾	-11.5449
縱有	-11.5451
▁釋慧	-11.5454
以佛法	-11.5456
資聖	-11.5456
上根	-11.5456
之先	-11.5457
於是乎	-11.5458
便欲	-11.5461
吳江	-11.5462
不可說	-11.5462
臥疾	-11.5463
之咎	-11.5465
因請	-11.5467
容止	-11.5468
力行	-11.547
驚歎	-11.547
而獲	-11.5471
帝諱	-11.5471
虎溪	-11.5472
但云	-11.5475
數十萬	-11.5475
淳化	-11.5477
永絕	-11.5479
古寺	-11.5482
以慈	-11.5482
入冥	-11.5492
諸德	-11.5492
剎利	-11.5493
十六卷	-11.5496
公私	-11.5497
告弟子	-11.5498
▁論	-11.55
禪那	-11.5501
而絕	-11.5503
別錄	-11.5504
承風	-11.5504
釋迦文	-11.5505
性好	-11.5506
相師	-11.5507
忠曰	-11.5508
不退轉	-11.5509
若謂	-11.5511
休息	-11.5512
付汝	-11.5513
友善	-11.5513
定林	-11.5515
唐史	-11.5516
清信	-11.5519
以授	-11.5521
瓦官	-11.5523
窟中	-11.5532
經題	-11.5535
兩儀	-11.554
即生	-11.554
信解	-11.5542
念觀世音	-11.5544
弟子慧	-11.5544
翱	-11.5544
聞說	-11.5545
旨趣	-11.5546
名士	-11.5546
憨	-11.5548
千七百	-11.5548
仁王經	-11.5548
摭	-11.5549
萇	-11.5549
酪	-11.5549
湘東王	-11.5549
聖果	-11.5549
彝	-11.555
擕	-11.5551
邊事	-11.5552
瑾	-11.5552
仍以	-11.5552
籬	-11.5552
砌	-11.5552
阿耨多羅三藐三菩提	-11.5552
荼毘	-11.5553
所害	-11.5554
鶴勒那	-11.5554
可得聞乎	-11.5555
㳂	-11.5555
江寧	-11.5556
奴婢	-11.5556
安禪	-11.5558
森羅	-11.556
金城	-11.556
聽眾	-11.5561
陌	-11.5561
白虹	-11.5562
牓	-11.5563
吐蕃	-11.5563
孜孜	-11.5564
敷揚	-11.5565
勢至	-11.5565
隨身	-11.5566
東平	-11.5568
念言	-11.5569
今則	-11.557
密多	-11.5572
本空	-11.5573
委曲	-11.5573
非實	-11.5573
不依	-11.5575
秘密	-11.5576
若有人	-11.5578
必得	-11.5581
青蓮華	-11.5581
疑惑	-11.5582
寶覺	-11.5582
弘護	-11.5583
得罪	-11.5583
靈塔	-11.5586
開先	-11.5588
義熈	-11.5591
夙夜	-11.5593
八千	-11.5594
堂堂	-11.5594
貞觀初	-11.5597
亦如之	-11.5598
諸根	-11.5598
棲止	-11.5601
這一	-11.5602
好惡	-11.5603
身死	-11.5605
寶座	-11.5605
向者	-11.5608
尤多	-11.5609
誠心	-11.5611
盡是	-11.5613
歷歷	-11.5615
安帝	-11.5615
清信士	-11.5616
達旦	-11.5616
直上	-11.5616
無子	-11.5617
紫雲	-11.5619
頷之	-11.5621
妙旨	-11.5622
數十年	-11.5624
木石	-11.5626
大和尚	-11.5627
何以知	-11.5633
一步	-11.5636
頗多	-11.5637
月二十四日	-11.5639
平居	-11.5645
孝文	-11.5646
自焚	-11.5647
甘泉	-11.5648
無上道	-11.5648
追福	-11.5652
儒教	-11.5652
彌天	-11.5653
在茲	-11.5653
壁間	-11.5654
徒勞	-11.5655
專念	-11.5659
夜分	-11.5661
非夫	-11.5662
境內	-11.5662
群經	-11.5664
汝道	-11.5664
以火	-11.5665
平江	-11.5665
得阿羅漢果	-11.5665
贄	-11.5666
殿庭	-11.5667
比邱	-11.5667
意識	-11.5667
䂮	-11.5668
釋提桓因	-11.5668
告言	-11.5671
姓李氏	-11.5671
煦	-11.5673
縉	-11.5673
一轉語	-11.5674
不載按	-11.5674
河沙	-11.5674
全體	-11.5675
躄	-11.5676
以是因緣	-11.5676
兒時	-11.5678
十世	-11.5678
真理	-11.5678
仰視	-11.5678
懸記	-11.5679
大用	-11.5679
眼睛	-11.568
裴休	-11.5681
全真	-11.5681
雋	-11.5683
檄	-11.5683
歷劫	-11.5683
智者大師	-11.5683
佛骨	-11.5686
門庭	-11.5686
搢紳	-11.5687
摹	-11.5689
眾寶	-11.5692
妍	-11.5692
蕭然	-11.5693
以歸	-11.5695
齊永明	-11.5695
廣德	-11.5695
之失	-11.5696
候之	-11.5696
商英	-11.5696
北斗	-11.5696
之色	-11.5697
九十日	-11.5698
殊途	-11.5702
法苑	-11.5703
種子	-11.5703
終身不	-11.5704
圓教	-11.5704
大家	-11.5704
雜心	-11.5705
華夏	-11.5705
五教	-11.5707
正殿	-11.5708
無識	-11.5713
三匝	-11.5716
僧事	-11.5716
興復	-11.5718
謂門人曰	-11.5718
靜慮	-11.572
寂光	-11.572
辨才	-11.5724
大內	-11.5725
墮落	-11.5725
修身	-11.5727
寶公	-11.5727
尤為	-11.5727
至治	-11.5727
亦不能	-11.5729
頓漸	-11.573
道力	-11.5731
於京師	-11.5732
與道士	-11.5735
物我	-11.5735
未敢	-11.5738
新譯	-11.574
老婆	-11.5741
表裏	-11.5745
又請	-11.5747
別駕	-11.5749
都邑	-11.575
入禁中	-11.5753
供具	-11.5754
之容	-11.5756
三十二相	-11.5758
周武帝	-11.5765
無作	-11.5766
或可	-11.5769
沙界	-11.577
所受	-11.577
閉門	-11.5773
東國	-11.5773
之辯	-11.5774
摩偷羅國	-11.5781
釋迦文佛	-11.5782
寶山	-11.5782
有異僧	-11.5783
十有餘	-11.5788
曰不會	-11.5789
雲門偃	-11.5793
設食	-11.5794
修學	-11.5795
白淨王	-11.5795
永和	-11.5797
蘇軾	-11.5797
皈	-11.5798
無外	-11.5798
眾見	-11.5799
莒	-11.5799
百餘步	-11.5799
宣武	-11.5799
寂寞	-11.58
埃	-11.58
鳩那羅	-11.5802
雖多	-11.5803
纖毫	-11.5803
南平	-11.5803
軻	-11.5805
妬	-11.5806
讐	-11.5806
以故	-11.5807
譖	-11.5807
飛空	-11.5807
硬	-11.5807
錠	-11.5808
賞罰	-11.5808
風化	-11.5808
舟航	-11.581
天文	-11.5811
天台教觀	-11.5811
高風	-11.5811
放生池	-11.5812
納之	-11.5812
捶	-11.5813
經四卷	-11.5813
岷	-11.5813
暴風	-11.5815
荷澤	-11.5815
經說	-11.5816
百部	-11.5818
龍牙	-11.5819
王經一卷	-11.582
床上	-11.5821
其色	-11.5821
愷	-11.5822
救世	-11.5822
三十三年	-11.5822
豈止	-11.5824
高陽	-11.5825
虛空中	-11.5826
深達	-11.5827
其兄	-11.5828
悚然	-11.5834
齊梁	-11.5835
集諸	-11.5837
承旨	-11.5838
十五里	-11.5841
年十一	-11.5841
善見	-11.5841
三百餘里	-11.5844
面門	-11.5846
弘闡	-11.5847
偽經	-11.5847
凡情	-11.5848
非時	-11.5848
匡山	-11.5849
治天下	-11.585
林間	-11.585
秋八月	-11.5851
竭誠	-11.5851
政事	-11.5852
長阿含	-11.5852
若得	-11.5852
降生	-11.5853
延祐	-11.5853
車馬	-11.5853
春秋八十有	-11.5854
靜坐	-11.5854
大經	-11.5855
春風	-11.5855
隋末	-11.5858
聞天樂	-11.586
僧無語	-11.586
凡經	-11.586
長丈餘	-11.5861
老母	-11.5861
咸見	-11.5862
真金	-11.5864
何謂也	-11.5864
無驗	-11.5865
祕書	-11.5865
之變	-11.5869
居易	-11.5873
由斯	-11.5873
暮年	-11.5873
假使	-11.5874
却是	-11.5874
諸佛菩薩	-11.5875
自家	-11.5878
問道於	-11.5878
釋老	-11.5879
惠帝	-11.5879
鹿門	-11.5888
廣化	-11.589
自陳	-11.5891
衢州	-11.5894
靈跡	-11.5894
形服	-11.5899
相待	-11.59
寶冠	-11.59
菩提心	-11.5903
歎息	-11.5903
奉先	-11.5905
溈山喆云	-11.5906
不踰	-11.5908
道本	-11.5908
便能	-11.5908
六趣	-11.5909
任其	-11.5909
於空中	-11.5911
形色	-11.5911
李氏子	-11.5912
萬眾	-11.5912
五種	-11.5913
智光	-11.5914
為君	-11.5916
腹中	-11.5918
之場	-11.5918
師子座	-11.5918
七載	-11.5918
四萬	-11.5918
淳熙	-11.592
一聞	-11.5922
無任	-11.5922
玄素	-11.5922
大河	-11.5925
龍圖	-11.5926
耶輸陀羅	-11.5929
勅旨	-11.593
十二時中	-11.593
忠懿王	-11.5931
康僧會	-11.5931
嵐	-11.5931
伊尹	-11.5931
精通	-11.5932
佛所說	-11.5933
弁	-11.5933
妊	-11.5933
喆	-11.5933
棟宇	-11.5934
葦	-11.5935
披剃	-11.5935
言訖而逝	-11.5936
武平	-11.5936
言笑	-11.5937
而為說法	-11.5937
不茹葷	-11.5938
衡岳	-11.594
分布	-11.5941
蠅	-11.5941
痾	-11.5942
證道	-11.5942
太宰	-11.5942
藥叉	-11.5943
縻	-11.5943
黃門侍郎	-11.5944
月二十九日	-11.5944
褥	-11.5945
逍遙園	-11.5945
梁天監	-11.5948
決擇	-11.5953
其猶	-11.5954
臘四十	-11.5954
萬數	-11.5956
妄語	-11.5956
起滅	-11.5958
察其	-11.596
九人	-11.5962
壽春	-11.5963
作福	-11.5968
帝即位	-11.5968
法鼓	-11.5969
滅盡	-11.5971
豈獨	-11.5972
遂依	-11.5973
清涼山	-11.5974
告諸	-11.5976
執侍	-11.5976
童女	-11.5977
夢梵僧	-11.5978
舉身	-11.598
談笑	-11.5981
濟物	-11.5983
江河	-11.5983
魏晉	-11.5987
祖述	-11.5987
建國	-11.5988
點頭	-11.5991
淨光	-11.5991
大聖人	-11.5993
起信論	-11.5997
雖殊	-11.5997
瑞巖	-11.5998
勸化	-11.5999
天帝釋	-11.5999
各一卷	-11.6
尊之	-11.6003
觀堂	-11.6004
形相	-11.6006
念彌陀	-11.6007
此蓋	-11.6007
宣說	-11.601
西魏	-11.6012
掘之	-11.6015
悟真	-11.6018
捨此	-11.6019
國界	-11.6019
之弊	-11.602
恐其	-11.6021
多寶	-11.6022
記得	-11.6023
大國	-11.6027
亦皆	-11.6027
文昌	-11.6027
娛	-11.6028
厲聲曰	-11.6032
五峯	-11.6032
世高	-11.6034
入大藏	-11.6035
光宅寺	-11.6038
釋玄	-11.6038
歸去	-11.6039
有徵	-11.6039
姓李	-11.6039
疑情	-11.6041
一女	-11.6042
隋大業	-11.6043
□□□	-11.6046
詔迎	-11.6047
業障	-11.6048
往謁	-11.6049
闍夜多	-11.605
順化	-11.6051
恭帝	-11.6052
故鄉	-11.6052
知命	-11.6053
鏡清	-11.6053
祖示寂	-11.6053
雁門	-11.6056
末後句	-11.6058
莾	-11.6059
蠡	-11.606
善誘	-11.6061
順帝	-11.6061
淳熈	-11.6063
峨眉	-11.6063
感通錄	-11.6063
柔軟	-11.6065
陂	-11.6065
嘉其	-11.6066
廡	-11.6066
謔	-11.6068
儕	-11.6068
每年	-11.6069
崗	-11.6069
千百	-11.6069
東林寺	-11.6069
火中	-11.6069
梁山	-11.6069
露柱	-11.6069
舊唐史	-11.6069
煌	-11.6071
撝	-11.6071
霹	-11.6072
宗本	-11.6073
瀑布	-11.6074
色相	-11.6074
庾信	-11.6074
燧	-11.6075
創寺	-11.6075
鳧	-11.6076
祇洹	-11.6076
拾遺	-11.6076
十三卷	-11.6076
窘	-11.6076
絕無	-11.6077
歎未曾有	-11.6077
洛州	-11.6077
志學	-11.6079
城郭	-11.608
兩京	-11.608
脛	-11.608
行頭陀	-11.6083
彌篤	-11.6083
雖異	-11.6085
東魏	-11.6085
澧州	-11.6086
五百餘里	-11.6086
佛世尊	-11.6087
汗流	-11.6089
此偈	-11.6092
所化	-11.6092
大賢	-11.6093
諸經論	-11.6093
根器	-11.6094
二家	-11.6095
二百餘里	-11.6095
萬德	-11.6095
不屈	-11.6096
三諦	-11.6096
方悟	-11.6097
前生	-11.6097
淨瓶	-11.6098
今世	-11.61
俱舍論	-11.6103
太學	-11.6104
一段	-11.6106
指揮	-11.6107
常誦法華	-11.6109
其迹	-11.6111
山北	-11.6113
佛慧	-11.6114
聽我	-11.6116
智度	-11.6119
真君	-11.6121
奉命	-11.6121
唱導	-11.6121
五味	-11.6122
不得已	-11.6123
出生死	-11.6125
色空	-11.6125
為汝說	-11.6125
極為	-11.6126
善巧	-11.6129
一貫	-11.6129
自持	-11.6129
像教	-11.6132
固有	-11.6132
亡名	-11.6133
往視之	-11.6135
人之所	-11.6136
臘三十	-11.6138
移居	-11.6139
來求	-11.6139
慈忍	-11.6139
宿習	-11.614
九十九	-11.6142
便即	-11.6144
資給	-11.6145
無依	-11.6146
狩	-11.6151
狗子	-11.6155
釋宗	-11.6161
彌勒菩薩	-11.6161
莫若	-11.6161
所習	-11.6161
却來	-11.6162
無私	-11.6164
說法要	-11.6164
道樹	-11.6167
有梵僧	-11.6168
所貴	-11.6168
飛行	-11.6168
存亡	-11.617
二年三月	-11.6172
年始	-11.6172
忘身	-11.6173
既畢	-11.6174
皆稱	-11.6176
只得	-11.6181
其才	-11.6184
善哉善哉	-11.6184
三朝	-11.6184
慙	-11.6189
有契	-11.619
侍從	-11.619
紇	-11.6191
其手	-11.6192
刈	-11.6192
蓬萊	-11.6193
章疏	-11.6194
上虞	-11.6197
涵	-11.6197
與麼道	-11.6199
兼通	-11.62
入塔	-11.62
北印度	-11.62
騁	-11.62
芽	-11.6202
或復	-11.6203
摧伏	-11.6204
乃爾	-11.6206
熙寧	-11.6207
緊	-11.6207
翠微	-11.6208
白㲲	-11.6209
八萬四千塔	-11.6209
立誓	-11.6212
之才	-11.6213
卉	-11.6215
途中	-11.6215
丹青	-11.6216
五十里	-11.6218
璽書	-11.6218
語弟子	-11.6219
乾寧	-11.622
沙門釋法	-11.6221
雲氣	-11.6221
小大	-11.6222
見文殊	-11.6222
遞相	-11.6223
塵垢	-11.6225
師子尊者	-11.6225
暴亡	-11.6226
毒龍	-11.6226
立理	-11.6226
兩日	-11.6227
哀愍	-11.6229
慶元	-11.6229
便成	-11.6229
諸郡	-11.6229
安知	-11.6231
至佛所	-11.6231
自責	-11.6231
姓陳氏	-11.6232
凡是	-11.6234
叱之	-11.6235
深生	-11.6237
不克	-11.6237
仁慈	-11.6237
其父母	-11.6238
南㵎	-11.6242
四依	-11.6246
程之	-11.6247
風動	-11.6248
薦福寺	-11.6249
非久	-11.625
奇異	-11.625
夫妻	-11.6252
以刀	-11.6254
十餘丈	-11.6261
暴死	-11.6261
留連	-11.6263
諸家	-11.6266
剪髮	-11.6267
所用	-11.6267
病中	-11.6268
於佛前	-11.6271
豈敢	-11.6272
妙相	-11.6272
季龍	-11.6272
柱下	-11.6275
入長安	-11.6278
開眼	-11.6282
無為之	-11.6286
尤甚	-11.6289
直是	-11.6289
律云	-11.6291
威力	-11.6292
萬一	-11.6295
尊師	-11.6298
靜室	-11.6298
姓王氏	-11.6299
覺悟	-11.6299
1	-11.63
什曰	-11.6301
福報	-11.6302
提多迦	-11.6304
牟	-11.6306
三層	-11.6308
大徹	-11.631
於淨土	-11.6313
謚文	-11.6313
明鏡	-11.6314
敢問	-11.6314
安樂行	-11.6315
騫	-11.6316
扈	-11.6317
隨行	-11.6317
歷年	-11.6317
其業	-11.6319
圭峯	-11.6321
禪要	-11.6321
詳定	-11.6322
元和中	-11.6323
今我	-11.6323
出鎮	-11.6324
十惡	-11.6325
泚	-11.6325
大愛道	-11.6326
之奇	-11.6326
悅之	-11.6326
繼之	-11.6327
塔中	-11.6327
終不能	-11.6328
疾苦	-11.6329
上天竺	-11.633
熾盛	-11.6331
楊傑	-11.6331
茗	-11.6331
十一卷	-11.6333
灰燼	-11.6334
變成	-11.6335
遘	-11.6335
黔	-11.6337
持念	-11.6337
名之曰	-11.6337
粮	-11.6339
鄂州	-11.634
觀音經	-11.6341
殉	-11.6341
善權	-11.6342
荐	-11.6343
妙門	-11.6344
稼穡	-11.6344
應化	-11.6344
曠野	-11.6344
勿復	-11.6347
尸利	-11.6347
卷第四	-11.6348
冥官	-11.6352
步步	-11.6355
將還	-11.6355
二主	-11.6357
轉經	-11.636
天和	-11.636
家事	-11.6361
立化	-11.6362
無力	-11.6363
曾孫	-11.6364
臣民	-11.6364
咸陽	-11.6364
外典	-11.6365
旽	-11.6365
生于	-11.6367
名之為	-11.6367
長干寺	-11.6368
造焉	-11.6369
清遠	-11.6369
神祇	-11.6371
法律	-11.6373
戒品	-11.6373
首尾	-11.6374
釋迦牟尼佛	-11.6374
大莊嚴寺	-11.6375
跪拜	-11.6376
毛孔	-11.6376
隨後	-11.6377
二老	-11.6377
愚人	-11.6377
血流	-11.638
大光明	-11.6383
秀才	-11.6384
智顗	-11.6384
文皇帝	-11.6385
年間	-11.6385
蜀人	-11.6388
霍山	-11.6389
額曰	-11.6389
立義	-11.6389
玄奘法師	-11.6391
二篇	-11.6391
間斷	-11.6392
投機	-11.6393
更名	-11.6396
象馬	-11.64
深明	-11.6401
水精	-11.6402
神農	-11.6403
昊天	-11.6403
臨朝	-11.6404
斯道	-11.6405
聲震	-11.6406
甞作	-11.6409
我已	-11.6412
一曰福州	-11.6413
不懼	-11.6414
經十卷	-11.6414
大林	-11.6419
本非	-11.6419
移時	-11.6422
寶華	-11.6423
一尺	-11.6424
正統	-11.6424
浙江	-11.6426
童真	-11.6426
百六十	-11.6428
一顆	-11.6432
房內	-11.6434
樓炭	-11.6436
應世	-11.6442
把住	-11.6442
彌遮迦	-11.6443
菩提流支	-11.6445
初在	-11.6447
提起	-11.6447
求哀	-11.6447
舍那婆私	-11.6448
毘舍	-11.645
未若	-11.6453
導引	-11.6454
尖	-11.6458
如火	-11.6458
韶國師	-11.6458
劉遺民	-11.6459
竟陵王	-11.646
百千萬	-11.646
跛	-11.6462
㝢	-11.6463
猜	-11.6463
階級	-11.6463
柳子厚	-11.6464
維摩詰	-11.6464
女真	-11.6465
員外郎	-11.6465
籃	-11.6466
十有二	-11.6467
名剎	-11.6467
繢	-11.6467
裡	-11.6468
官吏	-11.6469
巽	-11.6469
大施	-11.647
翛然	-11.647
航	-11.6471
唇	-11.6471
南門	-11.6472
筯	-11.6473
蕩蕩	-11.6473
咸亨	-11.6474
祉	-11.6476
塵埃	-11.6476
笈多	-11.6477
為貴	-11.6477
四天	-11.6477
嘉州	-11.648
言訖不見	-11.648
屈膝	-11.6481
鯨	-11.6482
翁曰	-11.6482
》、《	-11.6482
數十里	-11.6483
雙徑	-11.6485
一心念佛	-11.6486
鐵輪	-11.6486
師示眾云	-11.6487
乘輿	-11.6488
已成	-11.6488
不報	-11.6488
月光	-11.6488
手自	-11.649
始祖	-11.649
乃取	-11.6491
從他	-11.6492
遺風	-11.6492
慈濟	-11.6495
歸于	-11.6497
凡十	-11.6498
郡王	-11.6498
洞上	-11.6499
疏記	-11.6501
僧臘五十	-11.6502
徧歷	-11.6503
日暮	-11.6503
掃地	-11.6506
宋文帝	-11.6507
大戒	-11.6508
赫然	-11.6512
樂天	-11.6515
難測	-11.6515
立言	-11.6517
出外	-11.6519
大阿羅漢	-11.6519
無量劫	-11.652
此老	-11.6522
義解	-11.6525
劉公	-11.6527
王母	-11.6529
靈祐	-11.6531
正法眼	-11.6531
懷抱	-11.6532
事作麼生	-11.6532
一粒	-11.6533
內教	-11.6535
人力	-11.6536
溫公	-11.6537
歲餘	-11.6537
然哉	-11.654
結菴	-11.654
為害	-11.6543
勞苦	-11.6543
消滅	-11.6543
山澤	-11.6544
乃歎曰	-11.6545
奉戒	-11.6545
郡之	-11.6547
所資	-11.6548
鐘聲	-11.6551
當機	-11.6551
正理	-11.6552
忠國師	-11.6557
花嚴	-11.6558
飄然	-11.656
願得	-11.6561
楊枝	-11.6561
詔賜	-11.6561
可悲	-11.6565
萬八千	-11.6566
雪竇顯	-11.6569
盡敬	-11.6571
興教	-11.6573
劫中	-11.6574
其辭曰	-11.6575
清虗	-11.6576
劉向	-11.6576
了了	-11.6577
飲光	-11.6577
一種	-11.6579
地動	-11.6583
後遷	-11.6584
泉石	-11.6587
長沙寺	-11.6588
別院	-11.6588
誕生	-11.6589
行七步	-11.6589
遍滿	-11.659
氏女	-11.6593
誹謗	-11.6594
海雲	-11.6595
末世	-11.6596
迪	-11.6596
鹵	-11.6598
歐	-11.6598
光祿大夫	-11.6599
刳	-11.66
堤	-11.66
叵	-11.66
晷	-11.6603
鷲峯	-11.6604
執弟子禮	-11.6604
訃	-11.6604
閬	-11.6604
廻	-11.6605
楮	-11.6607
胃	-11.6607
頂門	-11.6608
酧	-11.6609
悛	-11.661
酋	-11.661
七月十五日	-11.6611
曾未	-11.6613
一虎	-11.6614
姓張	-11.6615
火光	-11.6615
拈出	-11.662
之裔	-11.6621
不損	-11.6621
工部	-11.6622
奔赴	-11.6622
居第一座	-11.6624
許詢	-11.6625
奧旨	-11.6625
白毫	-11.6625
阿恕伽王	-11.6625
經宿	-11.6626
在這裏	-11.6631
摩訶般若	-11.6633
竊聞	-11.6634
後忽	-11.6634
而問曰	-11.6635
麻衣	-11.6636
自負	-11.6636
愚者	-11.6637
頴悟	-11.6643
所敬	-11.6644
受業於	-11.6644
粥飯	-11.6645
福利	-11.6645
泰始	-11.6646
開闢	-11.6647
自惟	-11.6648
又打	-11.6648
第二子	-11.6652
回顧	-11.6652
無辜	-11.6654
寧有	-11.6655
黃冠	-11.6657
眾議	-11.6658
其女	-11.6659
▁趙	-11.666
并序	-11.6663
以俟	-11.6663
神遊	-11.6665
不見道	-11.6669
盧舍那	-11.6672
伽陀	-11.6672
昊	-11.6673
便與	-11.6673
塔所	-11.6673
未然	-11.6674
考其	-11.6676
入三昧	-11.6676
永劫	-11.6678
貪著	-11.6679
其親	-11.6679
慧寂	-11.6681
盧氏	-11.6682
討論	-11.6687
得戒	-11.6689
西印度	-11.6693
玉石	-11.6694
威靈	-11.6695
其二	-11.6695
元徽	-11.6695
異迹	-11.6699
獨行	-11.6699
香林	-11.6699
來報	-11.6701
即滅	-11.6702
居士傳	-11.6703
不仁	-11.6704
坐處	-11.6704
機辯	-11.6704
未決	-11.6705
優波	-11.6706
冥司	-11.6707
所不及	-11.6707
入院	-11.6707
重修	-11.6708
松下	-11.6709
近代	-11.6709
祇洹寺	-11.6709
寓居	-11.671
轉身	-11.6712
而問之	-11.6712
慶壽	-11.6712
作用	-11.6721
伏牛	-11.6724
告別	-11.6724
博達	-11.6724
東漢	-11.6726
般泥洹	-11.6726
末田地	-11.6726
言音	-11.6727
大呼	-11.6727
左街	-11.6728
佛入涅槃	-11.6729
于朝	-11.6731
周昭王	-11.6731
根源	-11.6731
巖谷	-11.6731
龐居士	-11.6732
一莖	-11.6733
五體投地	-11.6734
萬聲	-11.6734
憍	-11.6735
憍陳如	-11.6735
聞奏	-11.6736
冥報記	-11.6736
剎帝利	-11.6738
塵劫	-11.6738
逵	-11.6739
伎倆	-11.6739
散華	-11.6739
橘	-11.674
驗矣	-11.6741
鉗	-11.6741
擡	-11.6741
非關	-11.6741
即不然	-11.6741
端拱	-11.6741
趺坐而逝	-11.6742
崛多	-11.6742
航海	-11.6742
羹	-11.6742
軒轅	-11.6743
動搖	-11.6744
擘	-11.6744
今猶	-11.6744
氣息	-11.6746
以大法	-11.6746
霈	-11.6746
玷	-11.6746
冠冕	-11.6748
豈直	-11.6748
荊棘	-11.6748
秦州	-11.675
楫	-11.675
餧	-11.675
必矣	-11.6751
施與	-11.6752
經旨	-11.6753
難思	-11.6753
樓觀	-11.6753
殺戮	-11.6755
發聲	-11.6755
潦	-11.6757
頭面	-11.6758
遍照	-11.6759
君臨	-11.6759
南天竺國	-11.6759
赴闕	-11.676
棲心	-11.6762
道德之	-11.6762
稱佛號	-11.6763
無足	-11.6764
卷第三	-11.6765
舌根	-11.6765
怪問	-11.6766
所誦	-11.6769
致仕	-11.677
忽爾	-11.6771
慧持	-11.6774
博覽	-11.6774
告以	-11.6775
病苦	-11.6775
拜伏	-11.6777
相尋	-11.6778
繩牀	-11.678
刑部	-11.6781
國人也	-11.6784
汗下	-11.6785
嘉慶	-11.6786
通利	-11.6786
漳州	-11.6787
立像	-11.6788
辨正	-11.6788
雷雨	-11.6788
備矣	-11.6791
結庵	-11.6794
十萬偈	-11.6795
谷中	-11.6796
而言之	-11.6799
端然	-11.6799
新羅國	-11.68
孝廉	-11.68
無遮	-11.6801
有漏	-11.6801
清規	-11.6807
風起	-11.681
南公	-11.6811
魏太武	-11.6811
遠遊	-11.6813
福地	-11.6814
納衣	-11.6814
門風	-11.6816
怪其	-11.6816
咸皆	-11.6816
張陵	-11.6818
驚駭	-11.682
二女	-11.682
尼乾	-11.6821
剃頭	-11.6823
作功德	-11.6825
學大乘	-11.6826
尼寺	-11.6829
老翁	-11.6833
遠聞	-11.6834
▁釋僧	-11.6835
常存	-11.6836
因循	-11.6837
巳知	-11.6837
三十萬	-11.6838
士夫	-11.6839
顧謂	-11.6846
壽終	-11.6847
禁戒	-11.6848
常持	-11.6851
安州	-11.6852
尊敬	-11.6852
送出	-11.6854
旁有	-11.6857
召對	-11.6857
類此	-11.6857
夜坐	-11.6858
宣王	-11.686
安西	-11.6863
會稽人	-11.6863
秤	-11.6866
降雨	-11.6868
表一首	-11.6873
四載	-11.6873
鳥窠	-11.6874
興隆	-11.6875
說一切有部	-11.6876
蕭衍	-11.6876
妻也	-11.6877
律行	-11.6877
蹙	-11.6878
四十二章經	-11.688
頵	-11.688
讚佛	-11.688
鐺	-11.6881
傳於世	-11.6881
壹	-11.6882
蛻	-11.6883
攢	-11.6883
便起	-11.6884
椿	-11.6885
相謂曰	-11.6885
凡在	-11.6887
廬阜	-11.6887
羽儀	-11.6887
台之	-11.6887
劾	-11.6888
狥	-11.6888
撿挍	-11.6889
陽縣	-11.6889
屠兒	-11.689
一劫	-11.6891
玄暢	-11.6891
熈寧	-11.6892
譙王	-11.6893
商那	-11.6894
宋齊	-11.6895
祝融	-11.6895
來師云	-11.6895
固非	-11.6895
塵俗	-11.6896
蒞	-11.6897
不悅	-11.6898
報國	-11.6899
陵遲	-11.6899
邪說	-11.69
為友	-11.69
經三日	-11.6902
大歡喜	-11.6905
僧朗	-11.6906
居處	-11.6907
索筆	-11.6908
泰定	-11.6908
盡力	-11.6912
不豫	-11.6913
如之何	-11.6913
提唱	-11.6913
仰惟	-11.6913
接人	-11.6914
太行	-11.6915
神情	-11.6917
幡蓋	-11.6917
自信	-11.6918
身毒	-11.6919
小品	-11.6922
不能動	-11.6924
西川	-11.6924
輪回	-11.6925
五十餘年	-11.6926
上座部	-11.6926
一卷經	-11.6928
斯亦	-11.6928
明徹	-11.6934
狀若	-11.6936
道德經	-11.6938
謂師曰	-11.6939
忽有一	-11.6939
喪亂	-11.694
娛樂	-11.694
成功	-11.6942
入內殿	-11.6943
迎接	-11.6945
一千五百	-11.6945
千有餘	-11.6946
聖賢之	-11.6948
不預	-11.6948
燈錄	-11.6951
陳主	-11.6953
松源	-11.6954
師授	-11.6954
好事	-11.6957
談玄	-11.6959
好佛	-11.6959
弘誓	-11.6959
上統	-11.6962
吏部	-11.6963
普寂	-11.6963
色心	-11.6963
尊勝	-11.6963
座前	-11.6964
偶然	-11.6965
千由旬	-11.6965
知玄	-11.6966
御書	-11.6966
而沒	-11.6968
法幢	-11.6968
又嘗	-11.6969
地震	-11.6969
馬師	-11.6969
歸國	-11.6971
可知也	-11.6974
色如	-11.6978
甚厚	-11.698
呵曰	-11.6984
八難	-11.6987
之鄉	-11.6988
周易	-11.6988
三十一年	-11.6989
五逆	-11.699
跋陀羅	-11.6991
修持	-11.6992
年二十五	-11.6993
四主	-11.7
宿緣	-11.7
因僧問	-11.7001
排佛	-11.7004
行乞	-11.7005
諸軍事	-11.7008
使持節	-11.7009
上士	-11.7013
出家受具	-11.7014
字元	-11.7015
綬	-11.7017
摩突羅國	-11.7019
訢	-11.702
喫棒	-11.702
揩	-11.702
五燈	-11.702
華夷	-11.7022
林靈素	-11.7023
澄公	-11.7023
燬	-11.7025
容易	-11.7025
珉	-11.7026
𡉏	-11.7026
串	-11.7026
自西域	-11.7026
五祖戒	-11.7027
躋	-11.7027
蹶	-11.7028
洩	-11.7028
高百餘尺	-11.7028
相報	-11.7029
了悟	-11.703
眄	-11.7031
闥	-11.7032
摛	-11.7034
廊廡	-11.7034
鞍	-11.7034
虎豹	-11.7035
滓	-11.7036
餒	-11.7036
所翻	-11.7036
松柏	-11.7037
方士	-11.7038
黃州	-11.7038
朗然	-11.7039
法力	-11.7041
補陀	-11.7041
棟梁	-11.7042
表聞	-11.7043
開善	-11.7045
是月	-11.7046
父老	-11.7047
山之陽	-11.7048
具威儀	-11.7049
斯在	-11.705
去住	-11.7052
早晚	-11.7052
斯多	-11.7052
白雲端	-11.7052
符契	-11.7054
即勅	-11.7055
偕行	-11.7059
塔上	-11.7059
玉京	-11.7063
智度論	-11.7064
哲宗	-11.7066
聽習	-11.7067
此云覺	-11.7068
三清	-11.7068
遺跡	-11.7069
遊觀	-11.7069
即愈	-11.7071
揚都	-11.7071
萬七千	-11.7071
散亂	-11.7072
作舞	-11.7077
道場寺	-11.7077
宣德	-11.7082
金剛座	-11.7084
神廟	-11.7084
未到	-11.7085
塵外	-11.7085
反覆	-11.7086
鐵牛	-11.7086
默而	-11.7086
心體	-11.7088
特進	-11.7088
因茲	-11.709
攝山	-11.709
八十卷	-11.7093
鄴城	-11.7096
法付	-11.7098
解義	-11.7098
三日後	-11.71
紹聖	-11.7102
宋武	-11.7102
從何而	-11.7104
不詳	-11.7108
而不為	-11.7109
五寸	-11.711
一百三十	-11.711
宏智	-11.7112
萬回	-11.7116
是箇	-11.7121
聖明	-11.7121
二禪	-11.7122
佛力	-11.7123
燈燭	-11.7123
妙樂	-11.7123
就座	-11.713
水邊	-11.7132
高齊	-11.7132
牟子	-11.7133
去地	-11.7133
迦葉佛	-11.7138
此女	-11.7139
延請	-11.7143
臣下	-11.7145
袁州	-11.7146
與君	-11.7146
惡鬼	-11.7147
殿堂	-11.715
真文	-11.7151
酉	-11.7152
有異人	-11.7152
大機	-11.7152
寺舍	-11.7155
甘蔗	-11.7156
升天	-11.7161
楞伽經	-11.7161
潑	-11.7161
臘六十	-11.7163
了知	-11.7163
角干	-11.7163
御史中丞	-11.7164
建齋	-11.7164
堯封潛曰	-11.7165
螺溪	-11.7165
璩	-11.7165
塟	-11.7165
想見	-11.7165
兜	-11.7166
冡	-11.7166
西方聖人	-11.7167
惋	-11.7167
冢	-11.7167
鄭公	-11.7168
大中祥符	-11.7168
駄	-11.7168
金書	-11.7169
復興	-11.7169
三昧經	-11.717
卷第五	-11.717
恍惚	-11.717
穌	-11.717
俠	-11.7171
定水	-11.7171
令侍者	-11.7172
奸	-11.7173
嘻	-11.7173
梵唄	-11.7173
吻	-11.7174
稿	-11.7174
髠	-11.7174
咨決	-11.7176
榛	-11.7176
朋友	-11.7176
文殊普賢	-11.7177
蹄	-11.7179
滂	-11.7179
閭里	-11.7179
靖康	-11.7179
子貢	-11.7179
疇昔	-11.7181
膜拜	-11.7181
劉曜	-11.7182
教我	-11.7183
變易	-11.7183
天竺寺	-11.7185
便往	-11.7186
乾符	-11.7187
先世	-11.7188
旋繞	-11.7188
忽然不見	-11.7189
行步	-11.719
桃花	-11.7192
修治	-11.7192
祇園	-11.7192
緇白	-11.7193
如玉	-11.7194
孝武帝	-11.7194
陜西	-11.7195
噉食	-11.7196
必應	-11.7197
掩關	-11.7197
九峯	-11.7198
於市	-11.7199
冬十一月	-11.7199
求生淨土	-11.72
太保	-11.7201
眾集	-11.7203
石虎	-11.7203
向來	-11.7205
願陛下	-11.7206
皇上	-11.7207
安定	-11.7208
謝事	-11.7208
十八人	-11.7211
無色界	-11.7211
扶持	-11.7214
虗妄	-11.7215
奘法師	-11.7216
巡禮	-11.7217
非徒	-11.722
事跡	-11.7223
少選	-11.7223
與同學	-11.7227
殊異	-11.7227
歎服	-11.723
經函	-11.723
東臺	-11.7231
何妨	-11.7233
迄于	-11.7235
敬事	-11.7235
入房	-11.7235
處分	-11.7236
般若心經	-11.7237
叔父	-11.7238
陳郡	-11.7239
依教	-11.7239
第十三	-11.724
朝宗	-11.7242
▁第二十	-11.7243
具眼	-11.7244
摩耶夫人	-11.7244
請主	-11.7248
有犯	-11.725
遠方	-11.725
彌勒像	-11.725
童行	-11.7251
講主	-11.7253
塔號	-11.7254
入于	-11.7254
豈知	-11.7255
利根	-11.7256
年七歲	-11.7256
朕意	-11.7258
七廟	-11.7259
異學	-11.7262
詔入內	-11.7263
祝之	-11.7264
少長	-11.7265
歸敬	-11.7266
獨善	-11.7267
浩然	-11.7267
前漢	-11.7267
茨	-11.7272
遂投	-11.7273
周遊	-11.7275
西域記	-11.7275
龍飛	-11.728
真際	-11.7281
勅賜	-11.7282
六十二	-11.7284
樹木	-11.7284
遼東	-11.7285
俗諦	-11.7286
西涼	-11.7287
浙西	-11.7288
大梅	-11.7289
千二百	-11.7291
注解	-11.7292
傳語	-11.7292
五宗	-11.7293
淨居	-11.7295
萬民	-11.73
要識	-11.73
顯德	-11.7302
佛滅度後	-11.7302
拓跋	-11.7303
教汝	-11.7304
卍	-11.7304
與他	-11.7305
誰敢	-11.7306
愔	-11.7306
鍛	-11.7308
修梵行	-11.7308
棲霞	-11.7308
摶	-11.7308
武成	-11.7309
嬈	-11.7309
屣	-11.731
無違	-11.731
郝	-11.7311
萱	-11.7311
樂邦文類	-11.7312
上黨	-11.7312
四十五年	-11.7312
徤	-11.7313
璹	-11.7315
僧伽黎	-11.7315
騷	-11.7316
自由	-11.7316
肢	-11.7316
𤀹	-11.7316
誑惑	-11.7317
勝光寺	-11.7317
師事之	-11.7318
飛錫	-11.7319
僧禮拜	-11.732
燥	-11.732
笥	-11.7321
髦	-11.7321
盡禮	-11.7321
快活	-11.7321
􂌞	-11.7322
吊	-11.7322
靴	-11.7323
日益	-11.7323
咫尺	-11.7323
浩浩	-11.7326
眺	-11.7327
毫髮	-11.7327
楊子	-11.7328
聞鐘聲	-11.7328
東印度	-11.7329
鑽仰	-11.7329
睠	-11.7329
至金陵	-11.733
弋	-11.733
童稚	-11.7331
閭丘	-11.7331
拈花	-11.7331
翰墨	-11.7332
聲振	-11.7333
和尚寂	-11.7335
月氏國	-11.7337
承聖	-11.7337
所賜	-11.7339
華臺	-11.734
建鄴	-11.7341
經目	-11.7344
造論	-11.7344
禱之	-11.7345
脫衣	-11.7346
宗派	-11.7346
責之	-11.7346
結壇	-11.7347
七萬	-11.7348
城東南	-11.7349
得生淨土	-11.735
證悟	-11.7351
為大僧	-11.7353
得成佛	-11.7353
黃金色	-11.736
罔不	-11.7364
光明照	-11.7366
清流	-11.7366
詔書	-11.7367
同門	-11.7367
投誠	-11.7368
文書	-11.7368
不可測	-11.7369
祕藏	-11.7369
一千二百	-11.737
黃門	-11.7373
黃白	-11.7374
總統	-11.7374
丈許	-11.7376
大般若經	-11.7378
絕塵	-11.7378
順宗	-11.7379
染衣	-11.7379
師嗣	-11.7379
邑人	-11.738
梁肅	-11.738
敬仰	-11.7383
利害	-11.7383
擬對	-11.7384
妙義	-11.7386
居家	-11.7387
石勒	-11.7387
聲明	-11.7387
大雲寺	-11.7388
開府	-11.7389
廣福	-11.739
法燈	-11.739
淨飯	-11.7391
佛手	-11.7394
厭惡	-11.7395
師便喝	-11.7398
大駭	-11.7398
明皇	-11.74
遊京師	-11.7403
講華嚴經	-11.7404
頒行	-11.7405
金寶	-11.7406
母子	-11.7412
氣象	-11.7413
勝緣	-11.7413
百卷	-11.7415
三才	-11.7417
偈頌	-11.7418
異論	-11.7421
百五十	-11.7422
佛種	-11.7423
冥府	-11.7426
遁去	-11.7428
吾家	-11.7432
大慈悲	-11.7432
凡諸	-11.7432
唐慧	-11.7435
天冠	-11.7436
生極樂	-11.7438
受戒法	-11.7438
念珠	-11.7439
餘姚	-11.7439
失聲	-11.7442
賔	-11.7443
世務	-11.7443
儼曰	-11.7444
五層	-11.7446
諸路	-11.7447
看他	-11.7449
大闡	-11.7453
雲間	-11.7453
簡文	-11.7454
不屬	-11.7454
禪慧	-11.7456
蘄	-11.7456
五百里	-11.7456
三十二年	-11.7458
塔全身於	-11.7458
圖像	-11.7458
舫	-11.7458
五燈會元	-11.7459
大興國寺	-11.7459
醯	-11.7459
近遠	-11.746
雒	-11.746
睫	-11.7462
像設	-11.7463
盃	-11.7463
輻湊	-11.7465
畢命	-11.7465
形體	-11.7465
誼	-11.7465
檐	-11.7466
姥	-11.7467
鉗鎚	-11.7467
這老漢	-11.7468
屐	-11.7468
儒宗	-11.747
恨不	-11.747
疽	-11.747
半年	-11.747
詣佛所	-11.747
罕有	-11.7471
賄	-11.7471
與弟	-11.7471
飢渴	-11.7471
抉	-11.7472
弈	-11.7472
箸	-11.7473
鴻漸	-11.7473
儀軌	-11.7473
孝敬	-11.7474
不虧	-11.7475
指掌	-11.7476
閉關	-11.7476
淨穢	-11.7476
諭之	-11.7477
天威	-11.7477
河上	-11.7478
侍人	-11.7478
阿鼻	-11.7478
作詩	-11.7478
持犯	-11.7478
驚愕	-11.7479
孫綽	-11.7479
奏對	-11.7479
神理	-11.7479
還會麼	-11.7479
所應	-11.7481
嵒	-11.7482
激揚	-11.7482
汝諸人	-11.7482
得生天	-11.7483
編戶	-11.7484
赤烏	-11.7484
不能盡	-11.7485
東掖	-11.7485
祖嗣宗統	-11.7485
降神	-11.7486
還識	-11.749
那得	-11.7493
大鑑	-11.7494
簡文帝	-11.7494
求解脫	-11.7494
每月	-11.7495
問疾	-11.7497
輔相	-11.7498
執卷	-11.7499
秀州	-11.7502
所以道	-11.7502
清濁	-11.7502
涅槃經云	-11.7503
典座	-11.7504
力辭	-11.7504
六千	-11.751
得道者	-11.751
樹上	-11.7511
阿難言	-11.7511
誦蓮經	-11.7514
上殿	-11.7514
自代	-11.7516
大鑒	-11.7519
昭昭	-11.752
族姓	-11.752
惑亂	-11.7521
十有五	-11.7521
坐臥	-11.7522
有才	-11.7523
雅好	-11.7525
永康	-11.7525
重重	-11.7525
嘉平	-11.7526
王種	-11.7527
精靈	-11.7529
僖	-11.7531
終古	-11.7535
目視	-11.7542
後秦	-11.7544
二百年	-11.7546
萬事	-11.7547
何罪	-11.755
萬代	-11.755
香木	-11.7555
其美	-11.7556
勅召	-11.7557
強記	-11.7559
引去	-11.7561
北涼	-11.7561
乾德	-11.7561
唯佛	-11.7561
來告	-11.7562
六載	-11.7563
慰問	-11.7564
一切諸佛	-11.7565
平章	-11.7566
澄照	-11.7566
留難	-11.7566
百世	-11.7567
避難	-11.7567
何勞	-11.7577
僧伽羅	-11.7581
聚集	-11.7583
願垂	-11.7584
詎可	-11.7584
聖智	-11.7585
圓成	-11.7586
磐	-11.7588
翌	-11.7588
東下	-11.759
修德	-11.759
晉世	-11.759
並令	-11.7591
題云	-11.7591
若爾	-11.7591
奉使	-11.7593
寒山	-11.7597
暫時	-11.7598
翕	-11.7598
至晚	-11.7599
十部	-11.7599
侍者曰	-11.7602
諸剎	-11.7605
俗士	-11.7605
天縱	-11.7606
峴	-11.7607
二青衣	-11.7608
無忘	-11.7609
增一阿含	-11.7609
吏部尚書	-11.7609
薊	-11.761
俶	-11.761
竺法護	-11.7612
受具足戒	-11.7613
豬	-11.7614
毬	-11.7614
鴆	-11.7614
一紀	-11.7614
妙玄	-11.7614
灘	-11.7615
欒	-11.7617
汀	-11.7618
絮	-11.7619
崇奉	-11.7619
里許	-11.7619
何疑	-11.7619
泳	-11.762
襁褓	-11.762
相離	-11.7621
桎梏	-11.7622
弃	-11.7623
顥	-11.7623
塹	-11.7624
坤	-11.7624
迦葉波	-11.7625
慶曆	-11.7625
伏羲	-11.7626
西方淨土	-11.7626
咸平	-11.7626
拖	-11.7627
應供	-11.7627
建初寺	-11.763
徂	-11.7631
其人也	-11.7631
孔孟	-11.7632
喝一喝	-11.7632
曾子	-11.7633
滋味	-11.7634
詩文	-11.7634
一場	-11.7635
吾滅後	-11.7637
物情	-11.764
園林	-11.7641
都維那	-11.7643
杯渡	-11.7645
汲水	-11.7647
磨滅	-11.7648
參禮	-11.7649
巖穴	-11.7649
上清	-11.7651
高論	-11.7652
母胎	-11.7652
室內	-11.7653
欽山	-11.7653
軍國	-11.7654
因果經	-11.7654
鑄像	-11.7656
清高	-11.7656
毀壞	-11.7659
老氏之	-11.766
安住	-11.7661
疑滯	-11.7661
矛	-11.7662
妙音	-11.7666
繼席	-11.7666
齊州	-11.7668
四年正月	-11.7669
欽重	-11.767
慧照	-11.767
徒屬	-11.7671
禪律	-11.7671
北京	-11.7672
嗜欲	-11.7674
愛樂	-11.7676
名理	-11.7677
十八部	-11.7678
副使	-11.7678
擊鼓	-11.7678
路上	-11.7679
往西方	-11.7679
以祈	-11.7681
遺骨	-11.7681
使者曰	-11.7682
後夜	-11.7682
梵網	-11.7684
桓公	-11.7684
失色	-11.7686
朗公	-11.769
聖人之教	-11.769
金瓶	-11.7692
天授	-11.7695
忽覺	-11.7696
伽羅	-11.7698
太上皇	-11.7699
我這裏	-11.7702
稱阿彌陀佛	-11.7703
等閑	-11.7703
二尺	-11.7703
於戲	-11.7707
春二月	-11.7711
但能	-11.7712
前輩	-11.7713
中土	-11.7714
編年	-11.7718
往反	-11.7718
兩邊	-11.772
八方	-11.772
絕食	-11.772
寶積經	-11.7721
名香	-11.7721
江上	-11.7726
氣序	-11.7726
不期	-11.7727
得自在	-11.7728
將示寂	-11.7728
奇哉	-11.7729
貞觀元年	-11.7729
順治	-11.7731
未識	-11.7734
十有八	-11.7734
一曰杭州	-11.7737
汝曹	-11.7738
仍舊	-11.7738
亦不得	-11.7739
西院	-11.774
玄都	-11.7741
靜夜	-11.7742
豈徒	-11.7743
舉家	-11.7744
納戒	-11.7746
所存	-11.7748
懿宗	-11.7748
便殿	-11.7749
有何言句	-11.775
傳法正宗記	-11.7752
更加	-11.7753
無替	-11.7753
累官	-11.7754
觀門	-11.7757
奄然而化	-11.776
阿那含	-11.776
如鏡	-11.776
聖朝	-11.776
成等正覺	-11.7762
甜	-11.7764
見聞覺知	-11.7765
泊然而化	-11.7766
天下僧尼	-11.7766
重雲殿	-11.7767
扃	-11.7767
祗對	-11.7767
湮	-11.7769
雇	-11.7769
叚	-11.7769
葛藤	-11.777
苔	-11.7771
蒿	-11.7771
斡	-11.7771
紋	-11.7771
茆	-11.7772
桶	-11.7772
輕舉	-11.7774
草鞋	-11.7774
爆	-11.7775
三年三月	-11.7775
盛化	-11.7775
釵	-11.7775
鄱陽	-11.7775
蟬	-11.7776
雹	-11.7777
答話	-11.7777
塋	-11.7778
壽聖	-11.7778
瓢	-11.7778
痢	-11.7779
衾	-11.7779
愉	-11.7781
轂	-11.7783
夜來	-11.7786
殊俗	-11.7787
回互	-11.7787
苟非	-11.7788
三千里	-11.7789
印宗	-11.7789
頓教	-11.779
寫法華經	-11.7791
求福	-11.7793
書史	-11.7794
云這	-11.7797
舉進士	-11.7797
灼然	-11.7798
韜光	-11.78
寶坊	-11.7801
正眼	-11.7801
九千	-11.7801
稟受	-11.7801
各置	-11.7802
儀鳳	-11.7802
不云乎	-11.7805
宿業	-11.7806
合成	-11.7806
五位	-11.7807
淵源	-11.7807
微細	-11.7809
吳門	-11.7812
毅然	-11.7814
冥符	-11.7816
解說	-11.7816
寶印	-11.7818
甞夢	-11.7818
成誦	-11.7819
斥之	-11.7819
天台智者	-11.7823
樹枝	-11.7825
好事者	-11.783
神識	-11.7835
不滯	-11.7835
解釋	-11.7835
江夏	-11.7837
遂隱	-11.7837
寶池	-11.7842
無比	-11.7843
持呪	-11.7843
珠玉	-11.7845
後宮	-11.7845
貧女	-11.7846
平原	-11.785
遺文	-11.7852
高才	-11.7854
十戒	-11.7854
何充	-11.7856
法師宋	-11.7859
龜山	-11.7861
功業	-11.7861
頭痛	-11.7861
光陰	-11.7862
淨名經	-11.7862
六寸	-11.7863
雪堂	-11.7864
悉令	-11.7866
群書	-11.7867
禪居	-11.7869
觀想	-11.7871
吾巳	-11.7872
七祖	-11.7873
請留	-11.7874
臨機	-11.7875
慧忠	-11.7875
豈謂	-11.7876
濟濟	-11.7877
良久乃	-11.7879
之頃	-11.788
去年	-11.7881
郢州	-11.7882
西門	-11.7882
郡縣	-11.7883
拒之	-11.7885
火聚	-11.7885
隋初	-11.7889
千尺	-11.7892
寶唱	-11.7893
闐	-11.7893
赴京	-11.7895
緫	-11.7896
凝神	-11.7896
一任	-11.7897
倍加	-11.7898
藏身	-11.7899
太一	-11.7901
無慮	-11.7901
塔下	-11.7901
三千餘人	-11.7904
不能知	-11.7907
報恩寺	-11.7916
機語	-11.7917
哆	-11.7917
最為第一	-11.7917
器重	-11.7919
一隻眼	-11.7919
銑	-11.7921
野老	-11.7921
迦那提婆	-11.7921
稱臣	-11.7922
姚萇	-11.7922
講解	-11.7923
磚	-11.7924
俛	-11.7925
哮吼	-11.7925
嬪	-11.7925
白水	-11.7925
緋	-11.7925
僮	-11.7925
詰旦	-11.7926
钁	-11.7927
宛如	-11.7927
小劫	-11.7928
一衲	-11.7928
波瀾	-11.7928
甌	-11.7928
稼	-11.7929
一燈	-11.7929
荷擔	-11.7929
慼	-11.7931
壟	-11.7931
蕭瑀	-11.7933
未來世	-11.7935
纊	-11.7935
逆旅	-11.7936
契嵩	-11.7936
渤海	-11.7937
悟本	-11.7937
酣	-11.7939
切忌	-11.794
遊五臺	-11.7941
一隅	-11.7941
從何來	-11.7941
大雪	-11.7942
淨慧	-11.7944
洛邑	-11.7946
尤精	-11.7947
集會	-11.795
宜應	-11.7952
碩學	-11.7954
四十七	-11.7956
一百四十	-11.7956
沈約	-11.7957
我皇	-11.7958
勸善	-11.796
龍朔	-11.7962
設供	-11.7964
報應之	-11.7966
井中	-11.7968
號泣	-11.7968
義存	-11.7969
其為人	-11.797
四兵	-11.7974
天降	-11.7976
覺海	-11.7979
伏奉	-11.798
王之子	-11.798
天資	-11.7981
豈宜	-11.7981
趙氏	-11.7982
父兄	-11.7985
忽有省	-11.7987
寄宿	-11.7988
傳寫	-11.7989
善惡之	-11.7991
其詞	-11.7992
覆述	-11.7992
泛海	-11.7993
濟度	-11.7993
欲殺	-11.8
建昌	-11.8001
所制	-11.8001
江中	-11.8003
一般	-11.8003
流離	-11.8006
一寸	-11.8007
四十六	-11.8007
象王	-11.8008
宮內	-11.801
重病	-11.801
湧出	-11.8012
三十五年	-11.8012
唯有一	-11.8015
未合	-11.8019
誦金剛般若經	-11.802
谷隱	-11.8021
導從	-11.8025
不詳其所	-11.8025
寶臺	-11.8025
通塞	-11.8026
寶瓶	-11.8027
墮地獄	-11.8027
告終	-11.8027
驚懼	-11.8029
入洛	-11.803
潛子	-11.8034
賜坐	-11.8035
自欺	-11.8038
之子也	-11.8039
國祚	-11.8041
京兆人	-11.8046
三年正月	-11.8047
慧超	-11.8048
祖意	-11.805
釋迦佛	-11.805
不礙	-11.8054
真妄	-11.8054
本色	-11.8055
五十二年	-11.8057
元皇帝	-11.8057
母弟	-11.8066
太公	-11.8067
池水	-11.8068
三洞	-11.8069
若有所	-11.8069
成化	-11.807
佛祖綱目	-11.8071
散去	-11.8075
迥	-11.8077
致此	-11.8077
下馬	-11.808
語句	-11.808
癩	-11.8081
無疾而化	-11.8083
優填王	-11.8084
紵	-11.8084
追謚	-11.8085
粵	-11.8085
康居	-11.8086
搥	-11.8086
裒	-11.8086
迁	-11.8087
注云	-11.8088
七日七夜	-11.8088
慷慨	-11.8088
障礙	-11.8088
久久	-11.8088
禮部尚書	-11.8089
水月	-11.809
碣	-11.809
牘	-11.809
眾妙	-11.8091
鯉	-11.8091
五百歲	-11.8092
元符	-11.8092
敻	-11.8092
靳	-11.8092
燔	-11.8092
牀上	-11.8093
臥具	-11.8093
叢席	-11.8094
河中	-11.8095
吞之	-11.8096
故基	-11.8096
四夷	-11.8097
贍部洲	-11.8097
寂子	-11.8098
縉紳	-11.8101
披覽	-11.8107
悲鳴	-11.8109
錄事	-11.811
方袍	-11.811
老人曰	-11.8112
泰伯	-11.8114
弘忍	-11.8114
毒藥	-11.8115
密印	-11.8115
未遑	-11.8118
艱難	-11.812
廣度	-11.8121
不怠	-11.8124
致令	-11.8126
思念	-11.8126
四字	-11.813
市中	-11.8132
眉目	-11.8132
登壇	-11.8136
號哭	-11.8137
惟恐	-11.814
捨俗	-11.8141
一枚	-11.8142
越王	-11.8146
異部	-11.8148
還源	-11.8148
悲號	-11.8151
盛衰	-11.8152
斷肉	-11.8154
永隆	-11.8156
淳風	-11.8157
巨海	-11.8157
隨宜	-11.8158
饒舌	-11.816
太息	-11.8168
寶峯	-11.8169
朝臣	-11.817
先達	-11.8171
畢竟如何	-11.8172
阿育王塔	-11.8172
法花經	-11.8172
火滅	-11.8176
海外	-11.8176
易衣	-11.8178
北史	-11.818
李榮	-11.8181
以為然	-11.8182
天宮寺	-11.8182
戒殺	-11.8183
纔見	-11.8186
上幸	-11.8188
道眼	-11.8188
死罪	-11.8191
高潔	-11.8194
惟政	-11.8198
誦念	-11.8198
流注	-11.82
三百餘人	-11.8202
哀慟	-11.8204
夫子之	-11.8209
光輝	-11.8213
凝然	-11.8216
福力	-11.8222
經旬	-11.8223
脚下	-11.8225
二七日	-11.8226
譙	-11.8227
金剛神	-11.8228
光啟	-11.823
洗心	-11.823
五十二	-11.8231
顯宗	-11.8231
中國之	-11.8231
定中見	-11.8233
禱於	-11.8233
不可勝紀	-11.8235
大權	-11.8236
m	-11.8237
g	-11.8237
i	-11.8238
<	-11.8238
瘂	-11.8238
之意也	-11.8239
六波羅蜜	-11.8239
仍令	-11.8239
按宋史	-11.8239
遇害	-11.824
賺	-11.8241
不立文字	-11.8242
無量無邊	-11.8243
悟解	-11.8243
窄	-11.8243
貼	-11.8244
碓	-11.8245
迦維	-11.8245
懵	-11.8246
入對	-11.8246
侫	-11.8247
饍	-11.8247
支謙	-11.8248
毗盧遮那	-11.8249
染香集	-11.8249
檜	-11.825
煨燼	-11.825
桀紂	-11.825
嶼	-11.8251
瀝	-11.8251
譎	-11.8251
雷電	-11.8252
西秦	-11.8253
優陀	-11.8254
脇尊者	-11.8255
骸骨	-11.8256
年二十三	-11.8257
楊億	-11.8257
勞問	-11.8257
以其年	-11.8258
啜	-11.8259
都下	-11.826
寸陰	-11.826
京口	-11.8261
滿空	-11.8262
畫工	-11.8264
晨朝	-11.8264
避席	-11.8266
尊嚴	-11.8268
餘處	-11.8268
竺乾	-11.8268
四輩	-11.8268
淫祀	-11.827
叱曰	-11.8273
活計	-11.8273
大智度論	-11.8273
無虛	-11.8274
二十三日	-11.8281
不惜	-11.8282
麟德	-11.8282
大仙	-11.8285
飛走	-11.8285
禪定寺	-11.8285
戒日王	-11.8286
誕節	-11.8287
唱佛名	-11.8287
宰官	-11.8291
逆順	-11.8292
晚居	-11.8297
紫氣	-11.8298
晉太元	-11.8299
祖塔	-11.83
金碧	-11.8301
第一世	-11.8305
一株	-11.8305
金湯	-11.8307
僧伽梨	-11.8307
猛火	-11.8309
扣門	-11.831
恬然	-11.8311
身口	-11.8312
莫作	-11.8315
釋迦牟尼	-11.8317
諸功德	-11.8318
臥龍	-11.8323
釋梵	-11.8324
靈雲	-11.8325
乾明	-11.8327
什物	-11.8329
愚夫	-11.8331
三十四年	-11.8331
傍人	-11.8332
兩足	-11.8334
闡教	-11.8337
所製	-11.8341
大夏	-11.8344
即不問	-11.8349
庶人	-11.835
寺釋法	-11.8352
興廢	-11.8353
光彩	-11.8353
縱廣	-11.8354
不衰	-11.8356
一十二	-11.8359
宮城	-11.836
小參	-11.836
又撰	-11.8363
道士等	-11.8365
月二十五日	-11.8368
博識	-11.8372
無涯	-11.8374
6	-11.8377
授法	-11.8378
學小乘	-11.8383
入京師	-11.8384
等議狀一首	-11.8384
滲漏	-11.8389
未甞不	-11.8391
毘舍離	-11.8394
不厭	-11.8394
以神通力	-11.8395
之流也	-11.8396
近離甚處	-11.8402
殤	-11.8402
遵式	-11.8403
兩浙	-11.8404
大赦天下	-11.8404
𨤲	-11.8404
哩	-11.8405
廈	-11.8406
波斯匿王	-11.8407
三車	-11.8407
還本國	-11.8407
黃衣	-11.8407
賜紫方袍	-11.8407
乂	-11.8407
溉	-11.8409
涅	-11.8409
鞞	-11.841
風雷	-11.841
夔	-11.8411
拜謝	-11.8411
斐	-11.8412
掦	-11.8412
秦始皇	-11.8412
梧	-11.8412
粘	-11.8413
優曇	-11.8413
彥琮	-11.8413
泐	-11.8413
無虗日	-11.8414
斟酌	-11.8414
姻	-11.8414
踪	-11.8414
姚秦	-11.8414
毗曇	-11.8414
稽顙	-11.8415
迓	-11.8415
譁	-11.8415
博綜	-11.8416
噎	-11.8416
奐	-11.8416
懾	-11.8416
䟽	-11.8417
金襴	-11.8417
第一義諦	-11.8417
履踐	-11.8417
博聞	-11.8418
廝	-11.8418
拉	-11.8418
猗	-11.8419
不停	-11.8419
翦	-11.8419
屹然	-11.8419
雛	-11.8421
玉毫	-11.8424
拱手	-11.8426
相資	-11.8428
褁	-11.8429
積翠	-11.843
登具	-11.843
不啻	-11.8431
便歸方丈	-11.8432
屋宇	-11.8432
胡跪	-11.8432
年八十餘	-11.8437
垂範	-11.8438
萬物之	-11.8438
說禪	-11.8441
所寄	-11.8446
盡大地	-11.8447
圓覺經	-11.8447
盤石	-11.8449
圖寫	-11.8449
手把	-11.8449
隋文	-11.8451
諦聽	-11.8451
重疊	-11.8452
致謝	-11.8452
飛鳥	-11.8453
幻化	-11.8454
法蘭	-11.8454
謗佛	-11.8455
五乘	-11.8458
所未聞	-11.8459
洞云	-11.8459
彌陀像	-11.846
趙公	-11.8461
淨土院	-11.8461
學佛者	-11.8463
夢神人	-11.8463
數千里	-11.8465
漏盡	-11.8465
誦華嚴	-11.8467
咸和	-11.8468
編次	-11.8468
趂出	-11.8468
潤色	-11.847
南渡	-11.847
咸稱	-11.847
違背	-11.8472
律學	-11.8473
龍井	-11.8475
歷觀	-11.8475
皇子	-11.8475
天甯	-11.8481
儒生	-11.8482
見彌陀	-11.8485
當代	-11.8488
不信佛	-11.8491
有婆羅門	-11.8491
久視	-11.8492
數千言	-11.8492
浮石	-11.8496
九峰	-11.8496
仁孝	-11.8501
樹林	-11.8501
首楞嚴經	-11.8503
病愈	-11.8506
一童子	-11.8506
塗毒	-11.8508
遣弟子	-11.851
九祖	-11.8514
無瑕	-11.8514
周流	-11.8515
燕京	-11.8515
軍民	-11.8517
以正法	-11.8517
兵馬	-11.8519
安樂寺	-11.8521
婺	-11.8521
客僧	-11.8527
自恣	-11.8527
須陀洹	-11.8529
妙悟	-11.8533
再生	-11.8534
登高	-11.8534
苦哉	-11.8536
東川	-11.854
伽耶	-11.854
幸甚	-11.8543
寶林傳	-11.8547
宗統	-11.855
自娛	-11.8553
千卷	-11.8555
且置	-11.8556
孟子曰	-11.8559
被誅	-11.856
是何物	-11.8561
如響	-11.8563
求救	-11.8564
􂍓	-11.8568
妙法蓮華經	-11.8569
闞澤	-11.8569
慈愍	-11.8569
有所得	-11.8569
曦	-11.857
弩	-11.8571
頰	-11.8571
牟尼	-11.8571
尉遲	-11.8571
輔政	-11.8573
查	-11.8573
本郡	-11.8574
桑梓	-11.8576
得活	-11.8578
胝	-11.8579
澧陽	-11.8579
哭泣	-11.858
冥祥記	-11.858
訕	-11.858
意作麼生	-11.8582
國大都城	-11.8582
稱之曰	-11.8582
髫	-11.8583
混沌	-11.8583
爺	-11.8584
超果	-11.8584
捔	-11.8584
擲筆	-11.8585
騖	-11.8585
脫屣	-11.8586
捺	-11.8586
泝	-11.8586
闈	-11.8587
糅	-11.8587
慶雲	-11.8587
純陀	-11.8588
售	-11.8588
為眾說法	-11.8588
香鑪	-11.8588
臭穢	-11.8588
者何也	-11.8588
淩	-11.8589
送舍利于	-11.859
褊	-11.8591
幽棲	-11.8593
西域沙門	-11.8593
二十餘人	-11.8593
不煩	-11.8594
積薪	-11.8598
探賾	-11.8598
割愛	-11.8601
何敢	-11.8601
綱紀	-11.8605
對論	-11.8615
陀國	-11.8617
▁釋法	-11.8618
創立	-11.862
萬邦	-11.862
歸鄉	-11.8625
屠殺	-11.8626
所詮	-11.8626
眉間	-11.863
性剛	-11.8633
永昌	-11.8638
所居之	-11.8644
稱賞	-11.8644
縣尉	-11.8649
晉陵	-11.8651
仁和	-11.8651
隨父	-11.8652
良可	-11.8653
侍御	-11.8653
遙望	-11.8655
開運	-11.8656
營建	-11.8656
謝恩	-11.866
母氏	-11.8661
兗州	-11.8661
晚歲	-11.8662
題目	-11.8662
隨駕	-11.8664
焦山	-11.8665
紅蓮	-11.8666
萬方	-11.8672
祥光	-11.8673
抗禮	-11.8674
見空中	-11.8675
應聲曰	-11.8675
無爽	-11.8675
甘美	-11.8676
獨存	-11.8679
孔氏	-11.8679
默坐	-11.8683
舉目	-11.8687
萬安	-11.8688
忽感	-11.8689
王后	-11.869
堪任	-11.869
沙門道士	-11.8691
崇壽	-11.8691
蓮臺	-11.8696
成熟	-11.8696
三十載	-11.8697
蜀郡	-11.8698
盡得其	-11.8699
魏公	-11.8699
持驗	-11.87
坐斷	-11.8701
朝議	-11.8702
遣使迎	-11.8703
問如何	-11.8705
忽覩	-11.8708
太安	-11.871
銀臺	-11.8711
未就	-11.8714
於此處	-11.8714
甞聞	-11.8716
已久	-11.8717
集慶	-11.8717
綿州	-11.8718
㕘	-11.8722
僧坊	-11.8723
四十三	-11.8728
數論	-11.8732
校尉	-11.8733
寺廟	-11.8734
感疾	-11.8735
赧王	-11.8736
一切皆	-11.8737
摩拏羅	-11.8738
灯	-11.8738
垂示	-11.8738
壙	-11.8738
趙王	-11.8739
霅川	-11.874
窮神	-11.874
月支國	-11.8742
炷	-11.8743
銛	-11.8744
捲	-11.8744
姨母	-11.8745
窈	-11.8745
啼哭	-11.8745
縊	-11.8745
久居	-11.8745
窣	-11.8746
懽	-11.8746
火光三昧	-11.8747
蠟	-11.8747
䟦陀	-11.8748
栖霞	-11.8748
匪懈	-11.8748
笙	-11.8748
未之有也	-11.8748
奩	-11.8749
惛	-11.8749
菊	-11.8749
抹	-11.875
微塵數	-11.875
顙	-11.875
盎	-11.875
肚	-11.875
黿	-11.8751
阿毗曇	-11.8752
薩婆多	-11.8752
三十七年	-11.8752
蠱	-11.8753
惶怖	-11.8753
掀	-11.8753
灑掃	-11.8753
郵	-11.8753
歌舞	-11.8754
珙	-11.8756
小字	-11.8756
聖教序	-11.8757
改年	-11.8758
餘部	-11.8759
五十人	-11.8761
荊楚	-11.8761
法嗣會元	-11.8762
而為之	-11.8762
糺	-11.8763
先朝	-11.8766
聞空中聲	-11.8766
假寐	-11.8769
哀號	-11.877
憶念	-11.8771
度弟子	-11.8773
一十七	-11.8773
三惡道	-11.8774
龍樹菩薩	-11.8775
淨室	-11.8775
萬仞	-11.8775
此比丘	-11.8776
戒範	-11.8777
可得而	-11.8781
補闕	-11.8782
雨花	-11.8782
南唐	-11.8783
徐行	-11.8784
久留	-11.8786
二虎	-11.8786
紫微	-11.8791
三代之	-11.8791
始悟	-11.8791
耆舊	-11.8791
生天上	-11.8793
而異之	-11.8796
暴卒	-11.8797
晉義熙	-11.8798
降靈	-11.8801
獵者	-11.8802
住靈隱	-11.8803
高弟	-11.8803
勒那	-11.8806
花開	-11.8806
太玄	-11.8807
侍臣	-11.8809
其弊	-11.8811
墓所	-11.8812
瑯瑘	-11.8816
幽深	-11.8817
龍蛇	-11.8822
其詞曰	-11.8823
留神	-11.8826
官屬	-11.8826
相推	-11.8828
變俗	-11.8833
蒙恩	-11.8834
齋畢	-11.8836
杖頭	-11.8838
未甞有	-11.8843
──	-11.8844
直視	-11.8848
天曉	-11.8851
新州	-11.8851
建道場	-11.8855
一百六十	-11.8856
索水	-11.8859
讚嘆	-11.8862
景明	-11.8862
陳謝	-11.8864
七十四	-11.8864
遺民	-11.8865
無愧	-11.8865
非常之	-11.8869
法味	-11.8869
夏六月	-11.8872
楊公	-11.8872
而語之	-11.8875
揚化	-11.8877
筠州	-11.8879
處胎	-11.888
獻公	-11.8883
二員	-11.8884
羅浮山	-11.8884
2	-11.8885
永定	-11.8885
遍身	-11.8886
子之所	-11.8886
侍僧	-11.889
何者是	-11.8897
不干	-11.8897
掩耳	-11.8898
建伽藍	-11.8898
帝王之	-11.8899
只知	-11.8899
壬	-11.89
鴻臚	-11.8901
無位真人	-11.8901
演派	-11.8904
四洲	-11.8907
之世也	-11.8908
大唐西明寺沙門釋道宣撰	-11.8909
禪教	-11.891
只在	-11.891
翟	-11.8911
食頃	-11.8911
嬾	-11.8912
惠遠	-11.8913
王導	-11.8913
鴻臚卿	-11.8913
婿	-11.8913
護念	-11.8914
緇衣	-11.8914
𧦬	-11.8915
已酉	-11.8916
正月十五日	-11.8917
前導	-11.8917
付法藏傳	-11.8918
還返	-11.8918
煞	-11.8919
奎	-11.892
猫	-11.892
可免	-11.8921
𣏌	-11.8921
踢	-11.8923
瓮	-11.8923
捍	-11.8923
徼	-11.8924
冗	-11.8925
晡	-11.8927
剖析	-11.8927
幢幡	-11.8927
楊墨	-11.8928
聖典	-11.8928
畿	-11.8929
引頸	-11.8929
鉅鹿	-11.893
花果	-11.8932
休咎	-11.8933
丹丘	-11.8933
咄哉	-11.8935
後七日	-11.8936
華林	-11.8936
有一比丘	-11.8937
朱紫	-11.8937
絲竹	-11.8938
舊居	-11.8938
車溪	-11.8938
養育	-11.894
玄機	-11.894
百代	-11.8942
繼踵	-11.8942
若然者	-11.8943
香煙	-11.8947
氷雪	-11.8947
普光寺	-11.8949
念佛而化	-11.895
顗禪師	-11.8951
晝則	-11.8952
相仍	-11.8954
宗室	-11.8954
未忘	-11.8955
耆年	-11.8956
星宿	-11.8956
羣生	-11.8957
孰不	-11.896
孺子	-11.8962
講誦	-11.8962
諸葛	-11.8963
三句	-11.8964
年滿	-11.8969
飛去	-11.897
新舊	-11.8971
臨壇	-11.8972
□□□□	-11.8973
雲蓋	-11.8973
守節	-11.8976
幼年	-11.8978
捨宅	-11.8979
主客	-11.8979
才辯	-11.8986
三十餘人	-11.8988
裴公	-11.8989
柱國	-11.899
遍知	-11.8991
中央	-11.8992
稱讚	-11.8997
兩頭	-11.8997
秋九月	-11.8999
杜門	-11.9
轉輪	-11.9001
洎乎	-11.9001
嘉祥	-11.9002
安排	-11.9002
送歸	-11.9006
宮闕	-11.901
景文	-11.9011
顯揚	-11.9014
惡報	-11.9015
足跡	-11.9015
夜宿	-11.9018
哀哉	-11.9019
毒蛇	-11.9022
背上	-11.903
只解	-11.9031
朝恩	-11.9033
弘化	-11.9035
臨終時	-11.9036
青城	-11.9036
隨州	-11.904
慈氏菩薩	-11.9041
操行	-11.9043
永元	-11.9044
於其間	-11.9044
旻曰	-11.9046
兼濟	-11.9049
來看	-11.9051
一曰洪州	-11.9051
漸次	-11.9052
滄	-11.9054
起兵	-11.9054
接足	-11.9061
王即位	-11.9071
雲菴	-11.9072
聽出家	-11.9077
吳縣	-11.9077
岐州	-11.9085
無情說法	-11.9086
舍利五色	-11.9089
命工	-11.909
瑣	-11.9091
駒那羅	-11.9091
鞏	-11.9091
台宗	-11.9092
劬勞	-11.9092
照曜	-11.9093
十餘步	-11.9093
詰其	-11.9095
涪	-11.9095
蟬蛻	-11.9095
褫	-11.9095
淘	-11.9096
鐙	-11.9096
嘉會	-11.9097
習鑿齒	-11.9097
記莂	-11.9097
蒲坂	-11.9098
枳	-11.9098
牕	-11.9098
雷霆	-11.9099
輔教編	-11.91
塔基	-11.9101
槖	-11.9103
瘠	-11.9103
泮	-11.9103
霏	-11.9103
黃巢	-11.9105
喘	-11.9106
蒙遜	-11.9106
洪範	-11.9106
隨侍	-11.9106
睢	-11.9106
東西南北	-11.9107
王儉	-11.9107
時優波笈多	-11.9108
顏貌	-11.9109
生老病死	-11.911
糠	-11.911
忘疲	-11.9111
成佛道	-11.9114
袴	-11.9114
撫掌	-11.9117
影堂	-11.9118
十誦律	-11.9119
僧史略	-11.9119
懺罪	-11.912
西域傳	-11.9123
靈運	-11.9123
長久	-11.9123
紙筆	-11.9125
兼修	-11.9127
遺骸	-11.9129
乾封	-11.9131
設大會	-11.9131
道猷	-11.9133
區別	-11.9134
台教	-11.9136
玅喜	-11.9136
懇求	-11.9141
失却	-11.9142
血肉	-11.9143
雪嶺	-11.9143
氷釋	-11.9143
涌出	-11.9144
杜氏	-11.9144
壽七十二	-11.9151
彌隆	-11.9153
明晨	-11.9155
世典	-11.9156
更增	-11.9156
大司馬	-11.916
誦金剛般若	-11.9162
頓息	-11.9162
這個	-11.9162
稟承	-11.9162
表奏	-11.9164
垂訓	-11.9166
七部	-11.9169
華嚴宗旨	-11.9169
手寫	-11.9171
名儒	-11.9176
律宗	-11.9177
未曉	-11.9177
寶剎	-11.9177
後徙	-11.918
得錢	-11.918
百味	-11.9181
什麼處來	-11.9182
那邊	-11.9183
為之序	-11.9185
頷	-11.9186
塵沙	-11.9188
執政	-11.919
絕筆	-11.9194
諸眷屬	-11.9201
法忍	-11.9202
樹神	-11.9203
黃龍南	-11.9205
三峰	-11.9205
少許	-11.9207
大悲心	-11.9207
拜跪	-11.9208
同伴	-11.9209
其道者	-11.9215
凡二十	-11.9215
千八百	-11.9223
圖書	-11.9224
卜居	-11.9225
六尺	-11.9226
異俗	-11.9228
不誣	-11.9231
閻羅	-11.9233
代代	-11.9236
提舉	-11.9241
十餘卷	-11.9242
翼日	-11.9246
忽現	-11.9247
禁止	-11.9247
青松	-11.9248
不盜	-11.925
只這	-11.9253
祖考	-11.9253
祇是	-11.9254
菩提流志	-11.9256
建塔於	-11.9256
八十餘	-11.9259
周書異記	-11.9261
儒書	-11.9263
過患	-11.9264
失譯	-11.9266
阿那律	-11.9266
趙歸真	-11.9267
雷次宗	-11.9267
籥	-11.9268
朝散大夫	-11.9268
蹉過	-11.9269
憂波毱多	-11.927
即心是佛	-11.9271
賒	-11.9271
八字	-11.9271
曇無德	-11.9271
盂蘭盆	-11.9272
廛	-11.9272
玉華	-11.9273
顏延之	-11.9273
已亥	-11.9273
李翱	-11.9273
薜	-11.9274
徃	-11.9274
文正公	-11.9275
寇謙之	-11.9275
莫識	-11.9275
華林園	-11.9275
琇	-11.9275
端的	-11.9275
舌頭	-11.9275
虢	-11.9277
懋	-11.9277
磵	-11.9278
元史	-11.9278
湍	-11.9279
未詳何許人	-11.928
孽	-11.928
巍	-11.928
頭髮	-11.928
長松	-11.9281
蠢	-11.9282
匙	-11.9282
麋	-11.9282
部郎中	-11.9282
隳	-11.9283
礫	-11.9283
襍	-11.9284
大伽藍	-11.9284
薑	-11.9285
茶毘	-11.9286
周穆王	-11.9288
以旌	-11.9288
沈淪	-11.9288
讀法華經	-11.9289
劉裕	-11.9289
習俗	-11.929
黎庶	-11.929
長干	-11.9293
都長安	-11.9294
玄謨	-11.9298
大患	-11.9303
一半	-11.9303
親戚	-11.9304
仁壽二年	-11.9304
遙禮	-11.9305
雪庭	-11.9305
可否	-11.9306
嚴峻	-11.9306
驚怪	-11.9307
億萬	-11.931
四十一	-11.9314
以師禮	-11.9316
凌空	-11.9317
歸去來	-11.9319
王老師	-11.9326
私度	-11.9326
煥然	-11.9327
勅有司	-11.9328
每夕	-11.9329
五千文	-11.9332
雲雨	-11.9333
閩王	-11.9334
竭力	-11.9335
豫州	-11.9337
癡人	-11.934
領旨	-11.934
百錄	-11.9346
子韶	-11.9349
特異	-11.9351
奘師	-11.9352
不恁麼	-11.9354
燕王	-11.9354
河間	-11.9354
二十五日	-11.9356
聖境	-11.9358
加被	-11.9359
央	-11.9361
任運	-11.9365
食畢	-11.9369
常熟	-11.937
出三界	-11.937
百家之	-11.9371
觀音菩薩	-11.9371
闍王	-11.9372
士俗	-11.9377
孝明	-11.9377
營造	-11.9377
唯識論	-11.9381
文殊菩薩	-11.9383
不隔	-11.9385
舍利無數	-11.9387
后妃	-11.9388
大蟲	-11.9392
月堂	-11.9394
青色	-11.9395
省悟	-11.9397
古人道	-11.9398
教伊	-11.9399
伏地	-11.94
進止	-11.94
菩提寺	-11.9402
首謁	-11.9402
七遍	-11.9403
絕頂	-11.9403
圖形	-11.9404
鄂	-11.9406
答書	-11.9408
白氣	-11.941
僧璨	-11.9413
物表	-11.9416
鎮國	-11.942
箇漢	-11.942
朱門	-11.9423
晉州	-11.9426
驚嗟	-11.9431
瑯瑘覺云	-11.9433
池州	-11.9433
至暮	-11.9434
出雜阿含	-11.9435
蔡愔	-11.9435
瑫	-11.9436
故來相	-11.944
惲	-11.9441
欻	-11.9442
廣弘明集卷第	-11.9442
有限	-11.9443
屙	-11.9444
見普賢	-11.9444
良价	-11.9445
設千僧齋	-11.9447
開府儀同三司	-11.9448
鎮江	-11.9448
禮儀	-11.9449
卷第六	-11.945
意旨	-11.9452
最上乘	-11.9452
雞園	-11.9454
芮	-11.9454
駐錫	-11.9454
清涼國師	-11.9455
禾山	-11.9455
佛授記寺	-11.9457
嬴	-11.9457
杼	-11.9458
趁	-11.9458
漬	-11.9458
神鬼	-11.9459
踴躍	-11.9459
時如何師云	-11.9459
盪	-11.946
曹州	-11.946
暄	-11.9461
虎狼	-11.9461
吐舌	-11.9461
羶	-11.9461
憨山	-11.9462
無疾而終	-11.9463
僧擬議	-11.9463
怳	-11.9463
羡	-11.9464
顓頊	-11.9465
延年	-11.9466
昕	-11.9467
淆	-11.9467
各有所	-11.9468
孑	-11.9468
懸崖	-11.9469
疼	-11.9469
無量劫來	-11.9469
嵩岳	-11.9471
大雪山	-11.9472
蠢蠢	-11.9473
至其家	-11.9473
嗟歎	-11.9475
般舟三昧	-11.9476
忽大悟	-11.9476
喜躍	-11.9477
弘農	-11.9479
木叉	-11.9481
儀式	-11.9481
渚宮	-11.9481
寶殿	-11.9482
耳聾	-11.9483
常持金剛經	-11.9487
黎元	-11.9488
製文	-11.9489
嗚呼哀哉	-11.9489
悵然	-11.949
芥子	-11.9491
三輔	-11.9493
曇遷	-11.9493
西邁	-11.9494
群盜	-11.9495
京室	-11.9495
其所居	-11.9497
西番	-11.9499
菩提樹下	-11.9499
封禪	-11.9501
嘗謂	-11.9502
下筆	-11.9502
親疎	-11.9502
素服	-11.9502
西戎	-11.9503
稠禪師	-11.9506
青溪	-11.9509
婆娑	-11.951
流泉	-11.951
復甦	-11.9513
屏山	-11.9518
阿含經	-11.952
借問	-11.952
釋慧遠	-11.9521
後趙	-11.9522
幾乎	-11.9524
不能對	-11.9527
不替	-11.9527
雲峰	-11.9529
陸氏	-11.953
單傳	-11.9531
服飾	-11.9531
吉藏	-11.9531
弊衣	-11.9534
如晝	-11.9535
恁麼則	-11.9536
講貫	-11.9538
河內	-11.9539
執錫	-11.9539
獨尊	-11.9541
容儀	-11.9541
清潔	-11.9542
演福	-11.9542
為甚不	-11.9542
光祿	-11.9543
二十八祖	-11.9544
雙峯	-11.9544
不識字	-11.9544
幽旨	-11.9545
百數	-11.9547
盤山	-11.9552
三十年後	-11.9552
光燭	-11.9555
洞達	-11.9557
續高僧傳卷第	-11.9558
益加	-11.9562
過江	-11.9565
問話	-11.9566
孔門	-11.9572
大剎	-11.9574
記憶	-11.9575
接待	-11.9575
二年正月	-11.9576
聲譽	-11.9578
泉涌	-11.9579
廣利	-11.9579
朝士	-11.958
床前	-11.9583
魏文帝	-11.9583
舉揚	-11.9583
黃氏	-11.9584
山崩	-11.9587
符合	-11.9587
遺表	-11.9587
撰述	-11.9587
玄儒	-11.9589
阿恕伽	-11.9589
沈氏	-11.9589
躬往	-11.9592
綴文	-11.9593
感應傳	-11.9593
半身	-11.9596
桓帝	-11.9597
說止觀	-11.9599
近臣	-11.9602
琉璃王	-11.9604
二百餘人	-11.9605
白骨	-11.9611
各執	-11.9613
後三日	-11.9614
懺儀	-11.9614
佛剎	-11.9615
而告之曰	-11.9617
愕	-11.9618
二年五月	-11.9618
捨壽	-11.9618
邊際	-11.9619
未之信	-11.9621
婆須蜜	-11.9621
茅山	-11.9626
孝建	-11.9628
渙	-11.9629
隍	-11.963
亢	-11.9631
武德中	-11.9631
蒜	-11.9633
羅睺羅多	-11.9633
朕聞	-11.9633
隆興佛教編年通論卷第	-11.9634
善自護持	-11.9634
摩醯首羅	-11.9634
二十萬	-11.9634
大業初	-11.9635
脚跟	-11.9636
嶂	-11.9636
毫釐	-11.9637
左街僧錄	-11.9641
瞰	-11.9641
培	-11.9642
瀾	-11.9642
蟄	-11.9642
噴	-11.9643
颯	-11.9643
鷺	-11.9644
身口意	-11.9644
咀	-11.9645
冉	-11.9645
州司馬	-11.9645
往視	-11.9646
無憂王之所建也	-11.9646
虵	-11.9648
衎	-11.9648
閨	-11.9648
鈍根	-11.9648
悍	-11.9649
金容	-11.9649
轟	-11.965
菲	-11.9651
紊	-11.9651
竹杖	-11.9653
畋	-11.9654
便休	-11.9656
作務	-11.9657
垂淚	-11.9657
飈	-11.9658
夸	-11.9659
研窮	-11.9661
煙霞	-11.9662
貧賤	-11.9662
抄寫	-11.9664
立壇	-11.9664
走出	-11.9665
閱大藏	-11.9665
八卦	-11.9665
支下	-11.9668
金剛界	-11.9669
房宇	-11.967
午後	-11.9671
非常人	-11.9674
婬女	-11.9674
官司	-11.9674
宋史	-11.9676
博陵	-11.9678
禮覲	-11.9679
骨髓	-11.9679
士謙	-11.9684
四百餘里	-11.9684
教典	-11.9685
雲門寺	-11.9685
建浮圖	-11.9686
治罪	-11.9687
何期	-11.9691
胡氏	-11.9695
網羅	-11.9698
好箇	-11.97
不俟	-11.9703
可汗	-11.9704
於禁中	-11.9705
戶牖	-11.9708
述偈曰	-11.9709
舉兵	-11.9711
十乘	-11.9711
改容	-11.9714
聞其風	-11.9714
安般	-11.9719
慶喜	-11.972
呂光	-11.9721
截斷	-11.9724
月氏	-11.9725
侍左右	-11.9728
受三歸	-11.973
分舍利	-11.9731
三乘之	-11.9732
時有僧問	-11.9733
容色	-11.9735
勅遣	-11.9736
有甚麼	-11.9739
黑衣	-11.9741
流浪	-11.9742
無差別	-11.9745
曲盡	-11.9748
到家	-11.9752
海陵	-11.9754
入龕	-11.9755
不知所終	-11.9758
宣尼	-11.9761
稱歎	-11.9761
春夏	-11.9762
思慮	-11.9762
千載之	-11.9763
少孤	-11.9765
曇曜	-11.9767
首領	-11.9768
壁上	-11.9769
續集	-11.9771
損益	-11.9772
幼出家	-11.9772
不久當	-11.9775
江漢	-11.9781
夏五月	-11.9784
二年二月	-11.9787
兒女	-11.979
根性	-11.9792
年八十一	-11.9792
神祠	-11.9793
李老	-11.9796
經同本別譯異名	-11.9798
東面	-11.9802
丑	-11.9805
階下	-11.9806
浙東	-11.9809
為什麼不	-11.9809
喏	-11.9817
春三月	-11.9818
誦法花	-11.9819
摑	-11.9819
佛祖歷代通載	-11.982
耆闍崛山	-11.982
三摩地	-11.9821
麟德殿	-11.9822
無得而	-11.9823
卷中	-11.9823
嵬	-11.9824
溷	-11.9824
奮迅	-11.9826
彌沙塞	-11.9827
羿	-11.9828
欹	-11.9828
化度寺	-11.9828
卻	-11.9829
鬢	-11.9829
禮部侍郎	-11.983
虎丘山	-11.983
誄	-11.983
八關齋	-11.983
磁	-11.9831
澁	-11.9831
凾	-11.9831
寖	-11.9831
重瞳	-11.9831
張商英	-11.9831
安坐而化	-11.9832
所立也	-11.9832
淳祐	-11.9832
城東北	-11.9832
憂愁	-11.9832
講律	-11.9833
覇	-11.9833
非心非佛	-11.9833
黃色	-11.9834
頌德	-11.9834
聖容	-11.9834
磕	-11.9834
嬉	-11.9835
形質	-11.9835
甸	-11.9836
虞世南	-11.9836
襯	-11.9837
拯溺	-11.9839
湘州	-11.984
氛	-11.9841
撰集	-11.9842
賈客	-11.9842
亹亹	-11.9845
法式	-11.9846
向這裏	-11.9846
敗闕	-11.9849
吐納	-11.985
歿後	-11.9856
梵宇	-11.9856
妙典	-11.9858
觀自在	-11.9858
攀緣	-11.9859
勝境	-11.9862
詞義	-11.9862
以手摩	-11.9865
保護	-11.9868
殆非	-11.9868
烈王	-11.9868
謹奉	-11.9872
向上事	-11.9874
太史令	-11.9875
竟不能	-11.9877
不仕	-11.9878
峰頂	-11.9879
縱使	-11.988
先亡	-11.9881
廣平	-11.9883
宋朝	-11.9883
粲然	-11.9884
積雪	-11.9885
年甫	-11.9887
咸康	-11.9888
郎君	-11.9892
全提	-11.9893
翻身	-11.9898
彌增	-11.9904
三夕	-11.9906
大自在天	-11.9908
清辯	-11.9909
雙足	-11.9913
誦佛名	-11.9914
天祚	-11.9918
至于今	-11.992
題其	-11.9921
遂寢	-11.9923
玉清	-11.9923
衰老	-11.9925
人畜	-11.9926
年二十二	-11.9927
由茲	-11.9927
勸發	-11.993
冥感	-11.9933
變色	-11.9936
千計	-11.994
迷途	-11.9941
造疏	-11.9942
我今欲	-11.9944
文彩	-11.9949
悅服	-11.995
半夜	-11.9953
僧云和尚	-11.9959
不勝其	-11.9962
發蒙	-11.9963
有神人	-11.9963
疏十卷	-11.9968
赤色	-11.9968
第二世	-11.9972
少林寺	-11.9972
髮膚	-11.9977
見舊錄	-11.9978
僧旻	-11.9979
第四子	-11.9989
孤峯	-11.9992
卍進本	-11.9992
格言	-12
悵	-12.0004
晉安帝	-12.0004
戒珠	-12.0005
月望日	-12.0005
胷	-12.0006
觜	-12.0007
同泰寺	-12.0008
問津	-12.0008
已丑	-12.0009
了達	-12.0009
娑婆世界	-12.001
啼泣	-12.001
僧伽難提	-12.001
五祖演	-12.0011
那由他	-12.0011
釋尊	-12.0013
頞	-12.0013
鱉	-12.0016
醬	-12.0017
閟	-12.0018
東漸	-12.0018
慊	-12.0019
告門人曰	-12.0019
圭峰	-12.002
實叉難陀	-12.002
老子化胡	-12.0021
卷第七	-12.0022
幘	-12.0023
攪	-12.0024
澍	-12.0024
崇尚	-12.0025
糞掃	-12.0025
苗裔	-12.0026
熱惱	-12.0026
圓淨	-12.0026
熹	-12.0026
逋	-12.0027
頎	-12.0027
通貫	-12.0028
監察御史	-12.0028
肩輿	-12.0029
作麼生師云	-12.0029
延興寺	-12.0029
西史氏曰	-12.0029
蛟	-12.0029
慳貪	-12.003
闌	-12.003
刮	-12.003
滄溟	-12.0031
退轉	-12.0031
扶桑	-12.0031
恧	-12.0031
縶	-12.0032
輪奐	-12.0034
陳宣帝	-12.0034
了不可得	-12.0034
墮惡道	-12.0034
迦濕彌羅國	-12.0034
悟旨	-12.0034
堅持	-12.0036
只管	-12.0037
紈	-12.0037
爼	-12.0038
領袖	-12.0038
贍部	-12.0038
芟	-12.0039
左傳	-12.004
隨逐	-12.004
絲毫	-12.004
二十餘載	-12.0042
六百卷	-12.0042
四事供養	-12.0042
授受	-12.0042
寶幢	-12.0043
精究	-12.0044
手擎	-12.0044
列聖	-12.0047
緇徒	-12.0047
香油	-12.0049
今見在	-12.0049
塑像	-12.005
浴室	-12.005
梵剎	-12.005
竹菴	-12.0052
方術	-12.0053
京洛	-12.0056
識者以為	-12.0057
區分	-12.006
月朔	-12.006
天下後世	-12.006
資糧	-12.0061
披衣	-12.0061
寶曆	-12.0062
稟性	-12.0062
萬類	-12.0063
吾輩	-12.0064
孫權	-12.0065
隋季	-12.0065
菜食	-12.0066
餓死	-12.0068
臥病	-12.0068
何慮	-12.0069
精妙	-12.007
新豐	-12.0071
北魏	-12.0074
伐木	-12.0074
入般涅槃	-12.0074
登戒	-12.0078
迷惑	-12.0079
格物	-12.0081
毀謗	-12.0085
開視	-12.0086
觀音院	-12.009
無暇	-12.0091
五級	-12.0094
處厚	-12.0095
此云法	-12.0097
觸目	-12.0097
碑銘	-12.0098
豈不知	-12.0099
逾遠	-12.0101
救濟	-12.0108
忠臣	-12.0109
服藥	-12.011
布衲	-12.0112
幾許	-12.0113
萬遍	-12.0122
天鼓	-12.0124
不遑	-12.0124
綱目	-12.0125
城西北	-12.0127
修懺	-12.0129
聽許	-12.013
捨離	-12.0138
惜乎	-12.0139
大曆中	-12.0147
一匝	-12.0148
受歸戒	-12.015
祖師意	-12.0153
寂音	-12.0161
晝寢	-12.0162
志慕	-12.0165
含光	-12.0165
聖恩	-12.0173
不爽	-12.0178
謂王曰	-12.0179
終其身	-12.0182
累年	-12.0184
毀滅	-12.0185
製碑	-12.0186
獻帝	-12.0186
翠巖芝云	-12.0189
唯恐	-12.0191
曇無讖	-12.02
被旨	-12.0202
營福	-12.0204
沒交涉	-12.0204
智炬	-12.0205
毓	-12.0206
琯	-12.0206
周續之	-12.0207
錫號	-12.0208
向什麼處去	-12.0208
一心三觀	-12.0209
棊	-12.0209
付於汝	-12.021
迅速	-12.0211
腕	-12.0212
懍	-12.0213
鉉	-12.0214
濮	-12.0214
宕	-12.0215
岌	-12.0215
糓	-12.0215
赫連	-12.0215
芬馥	-12.0216
鋸	-12.0217
哺	-12.0218
賜紫服	-12.0219
云與麼則	-12.0219
翥	-12.0219
駱	-12.0219
穉	-12.022
腴	-12.022
墅	-12.022
泊然而逝	-12.022
嘔	-12.0221
三十餘載	-12.0221
駛	-12.0221
狸	-12.0221
鐘磬	-12.0222
𠃔	-12.0222
房玄齡	-12.0222
鎗	-12.0222
枷鎖	-12.0222
蒲團	-12.0222
噪	-12.0223
見別錄	-12.0224
隰	-12.0224
深器之	-12.0224
葵	-12.0224
羗	-12.0225
動容	-12.0225
持刀	-12.0226
矛盾	-12.0226
浹旬	-12.0227
藁	-12.0227
提撕	-12.0227
牛馬	-12.0228
尠	-12.0228
覘	-12.0228
百匹	-12.023
綱維	-12.023
五百餘	-12.023
說法度人	-12.0231
周匝	-12.0231
善屬文	-12.0231
慰喻	-12.0232
淮海	-12.0232
波濤	-12.0233
一日一夜	-12.0233
!」	-12.0233
教化眾生	-12.0234
謬矣	-12.0235
胸臆	-12.0235
天台止觀	-12.0236
僧云如何是	-12.0238
舅氏	-12.0238
鍮石	-12.0239
朱衣	-12.024
晦冥	-12.024
釋教錄	-12.024
儒墨	-12.0241
子湖	-12.0242
城隍	-12.0244
殆將	-12.0248
無算	-12.0248
斷臂	-12.0249
甘雨	-12.0249
歲久	-12.0249
耆老	-12.025
大哭	-12.0251
杜順	-12.0254
月三十日	-12.0256
慰勞	-12.0256
磐石	-12.0259
上藍	-12.026
只要	-12.0263
譯經院	-12.0264
嗣馬祖	-12.0265
何殊	-12.0266
周圍	-12.0266
悲哀	-12.0268
未見其	-12.0272
梁朝	-12.0274
前涼	-12.0279
教誡	-12.028
平旦	-12.0284
廊下	-12.0285
大善知識	-12.0288
累劫	-12.0288
三百五十	-12.0288
俄爾	-12.029
跏坐	-12.0291
└─	-12.0291
奉獻	-12.0293
天寶初	-12.0296
超越	-12.0297
孝慈	-12.0299
光滿室	-12.0304
稱揚	-12.0304
對揚	-12.0306
▁唐釋	-12.0308
若訥	-12.0309
侍女	-12.0312
無生滅	-12.0315
▁第三十	-12.0318
毗婆沙	-12.0319
金丹	-12.032
舍那	-12.032
指授	-12.0322
檀信	-12.0323
目覩	-12.0334
八十年	-12.0334
響應	-12.0338
卷舒	-12.0339
善逝	-12.0344
由余	-12.0349
帝在位	-12.0349
什麼處去	-12.0349
特加	-12.035
乾陀	-12.0351
雷同	-12.0354
向甚處	-12.0356
見梵僧	-12.0357
順寂	-12.0358
四科	-12.0358
諸魔	-12.0358
和氣	-12.0359
洞徹	-12.0362
累朝	-12.0363
雲岩	-12.0364
靈鷲山	-12.0365
肩上	-12.0371
日午	-12.0376
海岸	-12.0378
登位	-12.038
習氣	-12.0383
契合	-12.0384
扶宗	-12.0386
而甦	-12.0386
自矜	-12.0387
雜錄	-12.0389
爰自	-12.039
異術	-12.0392
寶閣	-12.0393
選佛	-12.0394
秦漢	-12.04
尊號	-12.0401
幾年	-12.0403
建精舍	-12.0403
檝	-12.0403
加精進	-12.0407
粳米	-12.0409
竪起拂子	-12.0409
見佛菩薩	-12.041
中書省	-12.041
孛	-12.0412
諷觀經	-12.0412
妓女	-12.0413
秦弘始	-12.0414
臍	-12.0416
海濱	-12.0417
帑	-12.0418
淅	-12.0419
砧	-12.0419
已卯	-12.0419
僭	-12.042
霔	-12.042
尊者毱多	-12.0421
締	-12.0422
庠序	-12.0422
藜	-12.0422
爻	-12.0422
慤	-12.0422
辟穀	-12.0422
鎧菴	-12.0423
槁	-12.0423
祟	-12.0423
夥	-12.0423
百二十人	-12.0423
榆	-12.0424
麟德元年	-12.0424
俛首	-12.0424
托鉢	-12.0424
誕育	-12.0424
自肯	-12.0424
貞觀三年	-12.0424
銘其塔	-12.0425
鬬	-12.0425
羽翼	-12.0426
張騫	-12.0427
耆闍	-12.0427
咏	-12.0427
愚智	-12.0427
歘	-12.043
誘掖	-12.043
坂	-12.0431
悸	-12.0431
征伐	-12.0435
蓼	-12.0439
精麁	-12.0439
第十一	-12.0439
墳典	-12.044
孟簡	-12.0441
悲慟	-12.0442
而娠	-12.0448
三韓	-12.0449
落髮受具	-12.0449
蘭陵	-12.0449
結社	-12.045
鐵圍山	-12.0451
梁高僧傳	-12.0452
修佛事	-12.0456
得須陀洹	-12.0456
提刑	-12.0457
避世	-12.0458
念佛而逝	-12.0462
不能屈	-12.0464
昇座	-12.0465
變現	-12.0466
卓爾	-12.0468
諸暨	-12.047
生忉利天	-12.0471
乘船	-12.0474
莫之能	-12.0475
至王所	-12.0478
貪愛	-12.0478
不寐	-12.048
便出去	-12.0484
行法華三昧	-12.0485
草庵	-12.0487
在目前	-12.0488
松林	-12.0488
不信佛法	-12.0493
竪義	-12.0494
弘演	-12.0495
一切世間	-12.0496
總攝	-12.0499
化洽	-12.0501
諮受	-12.0504
七晝夜	-12.0505
生彼國	-12.0505
久而不	-12.0506
短長	-12.0506
夢金人	-12.0509
巨石	-12.051
聞其說	-12.0511
桓王	-12.0512
尸解	-12.0514
手裏	-12.0514
習律	-12.0518
三昧經一卷	-12.0522
嵩高	-12.0526
袖中	-12.0528
一朵	-12.0529
禪苑	-12.0535
以事聞	-12.0536
解脫門	-12.0541
壽四十	-12.0547
生兜率	-12.0547
韶山	-12.0548
高麗國	-12.0548
年七十有	-12.055
最久	-12.055
龜茲國	-12.0552
罪報	-12.0558
末羅	-12.0558
儒林	-12.0558
未覩	-12.0561
寶函	-12.0563
慈尊	-12.0565
二途	-12.0569
靈巖寺	-12.0578
欽風	-12.0579
句句	-12.0583
水洗	-12.059
加害	-12.0593
天童華云	-12.0594
衣資	-12.0595
塵累	-12.0595
右街僧錄	-12.0596
鳴鐘	-12.0596
為之記	-12.0597
道得即	-12.0598
幸同泰寺	-12.0603
止之曰	-12.0604
汶	-12.0605
門樓	-12.0606
獅	-12.0606
云不會	-12.061
天龍八部	-12.0611
畫一圓相	-12.0611
千戶	-12.0611
汴京	-12.0612
昺	-12.0612
鄧州	-12.0613
李德裕	-12.0613
安忍	-12.0613
朞	-12.0616
贇	-12.0616
爪牙	-12.0616
傅毅	-12.0616
戌	-12.0617
睨	-12.0617
基址	-12.0618
閹	-12.0618
窮理盡性	-12.0618
猫兒	-12.0619
佛陀波利	-12.0619
轢	-12.0619
劬	-12.062
窹	-12.062
騰蘭	-12.062
筮	-12.062
槽	-12.0621
右街	-12.0621
見性成佛	-12.0621
縞	-12.0621
諛	-12.0621
庾氷	-12.0622
淋	-12.0622
摩其頂	-12.0622
滔滔	-12.0622
番禺	-12.0623
鷂	-12.0623
日嚴寺	-12.0623
鹹	-12.0623
千變萬化	-12.0624
鬧	-12.0624
旭	-12.0624
釋老志	-12.0624
笞	-12.0625
皆此類也	-12.0625
罩	-12.0625
披緇	-12.0626
杪	-12.0627
噩	-12.0627
矍	-12.0627
錦繡	-12.0627
款	-12.0628
晨昏	-12.063
祛	-12.063
匈奴	-12.063
淨域	-12.063
神呪經一卷	-12.063
盻	-12.0631
牝	-12.0631
閽	-12.0632
形狀	-12.0632
凜然	-12.0632
苛	-12.0633
支讖	-12.0633
齒牙	-12.0633
核	-12.0634
金縷	-12.0635
閴	-12.0636
工巧	-12.0636
坌	-12.0637
脩短	-12.0637
犢子	-12.0639
高峻	-12.0639
䞋施	-12.0642
凡一百	-12.0644
壇場	-12.0645
僧云某甲	-12.0645
飲噉	-12.0645
游戲	-12.0645
猶豫	-12.0647
仆地	-12.0647
滴水	-12.0648
張無盡	-12.065
可與言	-12.0651
道俗咸	-12.0653
普覺	-12.0654
維衛	-12.0655
史籍	-12.0656
斬首	-12.0657
村落	-12.0658
炳然	-12.0658
我得佛	-12.0659
五六里	-12.0659
朱陵	-12.066
千百億	-12.0663
積惡	-12.0665
五印度	-12.0668
青牛	-12.0676
詔徵	-12.0676
爾時太子	-12.0678
大智慧	-12.0678
綱要	-12.0685
禪房	-12.0689
開寶寺	-12.0691
數百里	-12.0691
懷讓	-12.0696
歡喜踊躍	-12.0697
無疆	-12.0698
斷髮	-12.0698
比丘答言	-12.0703
儀容	-12.0705
僧侶	-12.0706
郊迎	-12.0709
參馬祖	-12.0714
治病	-12.0715
武德初	-12.0716
天竺三藏	-12.0721
乘象	-12.0726
常熟人	-12.0726
瑯瑘王	-12.074
王妃	-12.0746
至廣州	-12.0748
清旦	-12.075
白銀	-12.0752
寶林寺	-12.0753
尊崇	-12.0754
潔淨	-12.0755
姓劉氏	-12.0755
界內	-12.0764
備載	-12.0766
心大歡喜	-12.0766
臺城	-12.0766
生一子	-12.0767
發願文	-12.078
趣向	-12.0781
大慧禪師	-12.0783
影像	-12.0783
賢哲	-12.0788
斷結	-12.079
結廬	-12.079
穆公	-12.0791
兩忘	-12.0793
默念	-12.0794
丈八	-12.0795
十月八日	-12.0796
八寸	-12.08
萬峯	-12.0802
談禪	-12.0805
隨其所	-12.081
宜速	-12.0811
唐貞觀	-12.0813
曇翼	-12.0813
縝	-12.0817
洛浦	-12.082
旃陀羅	-12.082
目犍連	-12.0822
仁王般若	-12.0822
祕書監	-12.0822
鵞	-12.0823
本際	-12.0823
拊掌	-12.0823
安坐而逝	-12.0824
贅	-12.0824
潼	-12.0824
悲感	-12.0825
悰	-12.0825
福祐	-12.0826
覬	-12.0827
臨淄	-12.0827
影不出山	-12.0827
鴉	-12.0828
東安寺	-12.0828
元本作	-12.0828
陸修靜	-12.0828
頻婆娑羅王	-12.0828
戡	-12.0829
奭	-12.0829
址	-12.0829
佛馱跋陀	-12.0829
脯	-12.0831
桓溫	-12.0831
悝	-12.0831
貞觀十九年	-12.0831
甚處去	-12.0831
豁然有省	-12.0831
芋	-12.0831
踴	-12.0831
黯	-12.0831
囀	-12.0832
賻	-12.0833
如入禪定	-12.0833
机	-12.0833
癈	-12.0833
汲汲	-12.0834
毛竪	-12.0834
徒跣	-12.0834
異道雜居	-12.0834
所以然者	-12.0835
廂	-12.0835
萬餘里	-12.0835
戀慕	-12.0835
為己任	-12.0835
蝕	-12.0836
何尚之	-12.0836
逅	-12.0836
四教儀	-12.0836
遒	-12.0837
隣國	-12.0837
媒	-12.0837
狐疑	-12.0837
西嶺	-12.0838
菁	-12.0838
臠	-12.0839
鮮卑	-12.084
纖塵	-12.084
蹊	-12.0841
疵	-12.0841
涎	-12.0842
忞	-12.0843
夜奢	-12.0843
光照室	-12.0843
牙齒	-12.0843
殘害	-12.0844
僚屬	-12.0844
溜	-12.0844
萬四千	-12.0844
三十六年	-12.0845
十七卷	-12.0845
旦暮	-12.0846
獷	-12.0846
第三世	-12.0847
向甚處去	-12.0847
附舶	-12.0849
劇談	-12.0849
車騎	-12.0849
冬十二月	-12.0852
充塞	-12.0853
林藪	-12.0854
庭宇	-12.0855
百穀	-12.0856
光耀	-12.0856
崩于	-12.0857
虎邱	-12.0857
精研	-12.0859
盛暑	-12.0859
染患	-12.086
太白山	-12.0863
課誦	-12.0866
泥牛	-12.0867
精爽	-12.0869
獵人	-12.087
籤云	-12.087
焚毀	-12.087
龍舒	-12.0872
湯武	-12.0872
工匠	-12.0873
臘月	-12.0874
禍亂	-12.0875
壽七十四	-12.0876
竪起	-12.0876
師於言下	-12.0878
森然	-12.0879
諮稟	-12.0879
數番	-12.088
發憤	-12.0882
唐開元	-12.0882
清晨	-12.0882
謂侍者曰	-12.0883
諸大乘經	-12.0883
宿衛	-12.0885
豈況	-12.0893
稽古	-12.0894
迴顧	-12.0895
廬州	-12.0897
閒居	-12.0898
隆慶	-12.09
緣熟	-12.0902
石刻	-12.0903
夷夏	-12.0905
於佛法中	-12.0905
軌範	-12.0909
孝養	-12.0914
代孫	-12.0916
襄公	-12.0918
慟哭	-12.0922
侍奉	-12.0925
曰恁麼則	-12.0927
雜華	-12.0928
無一物	-12.093
親族	-12.0934
綱宗	-12.0935
遺旨	-12.0938
靈鑒	-12.094
九歲出家	-12.0942
籍甚	-12.0943
辭退	-12.0944
血食	-12.0945
可勝言	-12.0951
昆弟	-12.0954
四十三年	-12.0965
御座	-12.0966
十有九	-12.0969
長三尺	-12.0975
冥冥	-12.0976
入方丈	-12.0977
周迴	-12.0987
競起	-12.0988
呂公	-12.0991
玄孫	-12.0995
棄俗	-12.0995
印施	-12.0997
衛將軍	-12.1002
緡	-12.1007
娶妻	-12.1009
無上法	-12.1016
疑網	-12.1024
▁宋釋	-12.1025
汾陽昭	-12.1026
蒼天蒼天	-12.1026
誦此經	-12.1027
鍬	-12.1027
見聶道真錄	-12.1027
求那跋摩	-12.1027
兜率陀天	-12.1029
坐致太平	-12.1029
雍熙	-12.1031
迦維羅衛	-12.1033
僧肇	-12.1034
衛元嵩	-12.1035
曼荼羅	-12.1035
惹	-12.1036
鬪諍	-12.1036
破頭山	-12.1038
明教大師	-12.104
譔	-12.104
御史大夫	-12.104
娉	-12.1041
的的	-12.1042
不飲酒	-12.1043
李憲誠	-12.1044
鷙	-12.1044
駟	-12.1044
鎬	-12.1046
靈瑞集	-12.1046
嗚	-12.1046
師云某甲	-12.1046
瞎漢	-12.1047
紿	-12.1047
莎	-12.1047
筆削	-12.1048
喙	-12.1049
丱	-12.1049
四十八願	-12.105
殻	-12.105
師問僧	-12.105
棧	-12.1051
簣	-12.1051
憙	-12.1051
膿血	-12.1051
鏘	-12.1052
螫	-12.1052
摩揭陀國	-12.1052
弱齡	-12.1053
天上天下	-12.1054
旋遶	-12.1055
祇陀	-12.1055
洋洋	-12.1056
婆沙	-12.1058
猨	-12.1059
五湖	-12.1059
蛤	-12.106
毀辱	-12.1061
搜揚	-12.1062
髮爪	-12.1062
施財	-12.1063
一百八十	-12.1064
風濤	-12.1066
持法華經	-12.1067
臭氣	-12.1069
露盤	-12.1069
英俊	-12.1071
釋迦老子	-12.1074
烈火	-12.1074
伊洛	-12.1075
燕趙	-12.1076
夏禹	-12.1076
郊祀	-12.1079
火坑	-12.1079
樓臺	-12.1081
鉤深	-12.1082
慈愛	-12.1083
第一句	-12.1083
仁祠	-12.1085
隨眠	-12.1086
唐高宗	-12.1087
宿植	-12.1089
忘寢	-12.1089
譬猶	-12.1089
飛騰	-12.1089
竦然	-12.1091
左邊	-12.1094
文殊師利菩薩	-12.1096
東夷	-12.1104
演教	-12.1106
千秋	-12.1106
十二部經	-12.1119
支離	-12.1119
南洲	-12.1119
遺訓	-12.1122
得恁麼	-12.1122
寺之東	-12.1125
群迷	-12.1125
有悟入	-12.1127
二千餘人	-12.1127
生兜率天	-12.1127
該通	-12.1131
伏乞	-12.1147
十科	-12.1149
凌雲	-12.1166
吾與汝	-12.1171
倏忽	-12.1172
不失其	-12.1178
遊西域	-12.1178
皇朝	-12.1181
五百餘人	-12.1187
十有三	-12.1189
保定	-12.1193
慧炬	-12.1193
十六字	-12.1195
遺教經	-12.1196
宜春	-12.1197
照燭	-12.1201
義例	-12.1203
長逝	-12.1209
持五戒	-12.1214
沙門曇摩	-12.1223
草堂寺	-12.1224
小乘學	-12.1224
荊山	-12.1225
佛陀難提	-12.1233
稱貧道	-12.1235
尊儀	-12.1238
六種震動	-12.1241
竺道祖	-12.1243
有二種	-12.1243
直至如今	-12.1247
搊	-12.1249
杜鴻漸	-12.125
柳宗元	-12.1251
竟陵文宣王	-12.1251
劭	-12.1251
從上諸聖	-12.1251
是同是別	-12.1252
邱	-12.1253
伽黎	-12.1253
翱翔	-12.1253
匃	-12.1253
傘	-12.1254
轅	-12.1254
并州人	-12.1255
三年二月	-12.1255
賂	-12.1256
戴逵	-12.1256
如何是佛法大意	-12.1257
帚	-12.1257
擬開口	-12.1258
蔔	-12.1258
掾	-12.1259
拳拳	-12.1259
巗	-12.1259
犧	-12.126
軼	-12.126
縗	-12.126
嗚咽	-12.126
櫓	-12.1261
寰宇	-12.1261
彖	-12.1261
大矣哉	-12.1261
堯舜周孔	-12.1262
于頔	-12.1262
凄	-12.1263
撻	-12.1264
諫議大夫	-12.1264
詡	-12.1264
宗族	-12.1264
汪大紳	-12.1265
褒貶	-12.1266
鈍置	-12.1266
武庫	-12.1266
以書抵	-12.1267
玲瓏	-12.1268
下禪床	-12.1269
甓	-12.127
喫茶去	-12.1271
摳衣	-12.1271
合掌而化	-12.1272
𧹞	-12.1273
有何功德	-12.1273
杯度	-12.1275
瀑	-12.1275
玉泉寺	-12.1275
穗	-12.1276
鴻臚寺	-12.1276
優游	-12.1277
默識	-12.1279
窆于	-12.1279
惶懼	-12.128
鹿野	-12.128
披閱	-12.1281
惱亂	-12.1283
支提	-12.1284
超邁	-12.1288
不如蜜多	-12.1289
有三種	-12.1292
華藏世界	-12.1294
潔齋	-12.1294
壽夭	-12.1294
華戎	-12.1296
盜賊	-12.1299
二千餘	-12.13
天界寺	-12.1306
晨興	-12.1306
杜口	-12.1315
長揖	-12.1316
儀衛	-12.1318
詞旨	-12.1319
領軍	-12.1322
廳事	-12.1322
右邊	-12.1327
寂默	-12.1328
忘返	-12.133
佛來也	-12.133
慈溪	-12.1333
華嚴疏	-12.1336
安慰	-12.1337
執役	-12.1338
凡厥	-12.1339
濟川	-12.1339
州都督	-12.134
專務	-12.1341
供養三寶	-12.1343
陰府	-12.1344
菩薩藏經	-12.1345
密庵	-12.135
忘却	-12.135
根塵	-12.135
乳母	-12.1351
布政	-12.1352
五彩	-12.1353
第十二	-12.1355
龍華寺	-12.1355
索隱	-12.1356
月餘日	-12.1359
付授	-12.1361
永寧寺	-12.1363
竪拂	-12.1367
今而後	-12.1368
繫獄	-12.1371
謂家人	-12.1371
屋壁	-12.1372
三百里	-12.1376
假託	-12.1384
見神人	-12.1386
爛然	-12.1388
房舍	-12.1393
貌如生	-12.1393
交接	-12.1398
九層	-12.1409
宋太宗	-12.1413
懺主	-12.1414
絳州	-12.1414
凡一十	-12.1425
有淺深	-12.1429
舍利無算	-12.1436
禱雨	-12.1437
徐陵	-12.144
上大悅	-12.1442
醫方	-12.1456
崔氏	-12.1457
崑	-12.1457
戲論	-12.1468
定祖圖	-12.1473
稱南無佛	-12.1474
舌根不壞	-12.1476
阿僧祇劫	-12.1476
淄	-12.1478
佛告阿難	-12.1478
刷	-12.1478
剽	-12.1478
筒	-12.1479
按明會典	-12.1479
于京師	-12.148
舊錄云	-12.148
躓	-12.148
三藏聖教序	-12.148
未詳氏族	-12.1481
亶	-12.1481
綿綿	-12.1482
拘尸城	-12.1482
駐蹕	-12.1482
廷尉	-12.1483
猪羊	-12.1483
呾羅	-12.1483
阿耨達	-12.1483
窶	-12.1484
頡	-12.1484
徭	-12.1484
褻	-12.1484
惺惺	-12.1485
黠	-12.1485
邪歸正	-12.1485
沔	-12.1486
總管府	-12.1487
擾攘	-12.1487
林間錄	-12.1488
泥犁	-12.1488
行方等懺	-12.1489
北山錄	-12.1489
色不變	-12.1489
貧乏	-12.1489
昆季	-12.149
棠	-12.149
陁	-12.149
劵	-12.1491
專心念佛	-12.1492
炮	-12.1492
微恙	-12.1493
法眼益	-12.1493
墾	-12.1493
於本寺	-12.1493
霅	-12.1494
玉華宮	-12.1494
禹穴	-12.1495
偁	-12.1495
瘁	-12.1495
磊	-12.1496
右一部	-12.1497
珮	-12.1497
襦	-12.1497
春秋九十	-12.1498
神告曰	-12.1498
疾疫	-12.15
那羅延	-12.15
檀那	-12.1501
四方學者	-12.1502
之謂歟	-12.1502
凌虛	-12.1504
仲冬	-12.1506
踊身	-12.1508
悲淚	-12.1509
快哉	-12.151
獻后	-12.1511
塚間	-12.1512
筆硯	-12.1513
連環	-12.1513
杖策	-12.1513
隋煬帝	-12.1514
徹底	-12.1515
不自知	-12.1516
紙錢	-12.1517
齋供	-12.1518
剎土	-12.1518
顏氏	-12.152
沙門不空	-12.1521
閱藏	-12.1524
兆民	-12.1525
種種供養	-12.1526
南山律	-12.153
宋京師	-12.1534
真歇	-12.1537
夏五十	-12.1537
良藥	-12.1539
六藝	-12.1541
念佛法門	-12.1544
魯直	-12.1545
旋轉	-12.1548
等筆受	-12.1554
而已哉	-12.1556
不能測	-12.1558
憐愍	-12.1558
扶餘	-12.1559
阿彌陀經	-12.1561
追封	-12.1561
天曆	-12.1565
覺範	-12.1567
龍顏	-12.1573
臣僚	-12.1575
慧遠法師	-12.1578
匡廬	-12.1581
激發	-12.1583
不妄語	-12.1587
少康	-12.1588
香味	-12.1589
收拾	-12.1592
祖師西來	-12.1593
入貢	-12.1593
四維	-12.1595
痛苦	-12.1595
傅氏	-12.1599
葉縣	-12.1615
几上	-12.1615
殆盡	-12.1616
成阿羅漢	-12.1621
十八變	-12.1623
改元建	-12.163
論二卷	-12.1631
一揆	-12.1635
世出世間	-12.1636
題詩	-12.1636
菩薩戒弟子	-12.164
七曜	-12.1647
竺曇	-12.1649
多寶塔	-12.1659
迷津	-12.1661
怪異	-12.1664
悟真寺	-12.1668
無令斷絕	-12.1692
制一首	-12.1693
景德傳燈錄	-12.1695
佛陀耶舍	-12.1697
瑱	-12.1697
璀	-12.1698
幞頭	-12.17
明星出時	-12.1701
勛	-12.1702
長生不死	-12.1703
迦旃延	-12.1705
讀佛經	-12.1705
不可稱計	-12.1705
不可勝計	-12.1706
蔡京	-12.1706
擺	-12.1706
常坐不臥	-12.1707
燒香禮拜	-12.1707
為母說法	-12.1707
紏	-12.1708
嫂	-12.1709
扭	-12.1709
蹕	-12.1709
武肅王	-12.171
卷第八	-12.171
磔	-12.171
水晶	-12.171
詁	-12.1711
輭	-12.1711
鑠	-12.1711
槐里	-12.1712
天人之際	-12.1713
痴	-12.1713
明眼人	-12.1713
問佛法大意	-12.1714
龍朔二年	-12.1714
麒麟	-12.1715
皈依	-12.1715
埋沒	-12.1715
晉天福	-12.1715
摧折	-12.1716
購	-12.1716
涕淚	-12.1716
涿	-12.1716
囿	-12.1717
歌詠	-12.1717
黃河	-12.1718
作是語	-12.1718
棚	-12.1719
膿	-12.1719
敬慕	-12.1719
犂	-12.172
騰騰	-12.1721
有所證	-12.1721
鴟	-12.1721
璡	-12.1722
邵武	-12.1722
扆	-12.1722
寂然不動	-12.1722
汩	-12.1722
不出戶	-12.1722
嗔恚	-12.1723
紙墨	-12.1723
過去諸佛	-12.1724
潢	-12.1724
策杖	-12.1725
太倉	-12.1725
神爽	-12.1729
柱史	-12.1729
卷軸	-12.173
掃除	-12.1731
出家修道	-12.1732
呪經一卷	-12.1733
育王塔	-12.1733
剡縣	-12.1735
倍增	-12.174
偽秦	-12.174
心自念言	-12.1741
左臂	-12.1742
七軸	-12.1742
懷璉	-12.1743
火葬	-12.1753
博究	-12.1755
以疾辭	-12.1755
洞曉	-12.1756
七百年	-12.1756
何因緣	-12.1756
顏回	-12.1757
武侯	-12.1758
綿歷	-12.1758
令還俗	-12.1759
五辛	-12.1767
恐懼	-12.1768
秘書	-12.1771
證菩提	-12.1779
號慟	-12.178
臨刑	-12.1784
年十歲	-12.1785
荊門	-12.1787
可見矣	-12.1792
逃難	-12.1798
禪林寺	-12.1798
開善寺	-12.18
引導	-12.1801
大集經	-12.1801
宋孝武	-12.1802
問群臣	-12.181
不二門	-12.1811
魏收	-12.1811
楚圓	-12.1814
迷悶	-12.1815
希奇	-12.1818
酬對	-12.1819
餘殃	-12.1819
夕死	-12.1829
文宣王	-12.1832
幢蓋	-12.1837
佛光寺	-12.1853
壽七十五	-12.1866
瑜伽論	-12.187
沙門釋慧	-12.1883
毘盧	-12.1891
外國沙門	-12.1895
魔軍	-12.1907
陜州	-12.1909
傳心印	-12.1922
摩竭提國	-12.1925
鹿野苑	-12.1926
向伊道	-12.193
五代史	-12.193
太平真君	-12.1931
錮	-12.1933
瑋	-12.1934
妓樂	-12.1935
速道速道	-12.1935
非謂此也	-12.1937
兩街僧	-12.1938
拗	-12.1939
廸	-12.194
個甚麼	-12.194
正量部	-12.1941
第十六	-12.1941
剜	-12.1943
旋踵	-12.1943
葛洪	-12.1944
猊	-12.1944
盜跖	-12.1945
捃	-12.1945
覿面	-12.1946
從空而下	-12.1946
慄	-12.1946
攔	-12.1947
憒	-12.1947
索筆書偈	-12.1948
劑	-12.1948
鯁	-12.1948
大蟒	-12.1948
羮	-12.1949
諜	-12.1949
岐嶷	-12.195
爨	-12.195
呵呵	-12.195
筌蹄	-12.195
辨正論	-12.195
砥	-12.1951
暴虐	-12.1951
惘	-12.1952
瘴	-12.1952
聞是語已	-12.1952
券	-12.1952
研覈	-12.1952
渴仰	-12.1952
馴伏	-12.1952
邯鄲	-12.1953
杜正倫	-12.1953
芙蕖	-12.1954
檀特	-12.1954
嚚	-12.1955
拍手	-12.1955
區宇	-12.1956
韞	-12.1957
瓠	-12.1957
梢	-12.1957
卓錫	-12.1957
十二遊經	-12.1958
譯場	-12.1958
姒	-12.1959
裴氏	-12.1959
沙門釋僧	-12.1962
刑罰	-12.1963
搖動	-12.1964
翹勤	-12.1966
迎佛骨	-12.1966
荷葉	-12.1966
曹洞宗	-12.1967
一切有情	-12.1968
廡下	-12.1968
莊飾	-12.1969
高二丈	-12.197
綱領	-12.1973
仁壽元年	-12.1975
遺囑	-12.1976
奇偉	-12.1977
毒害	-12.1977
降誕	-12.1978
欣慶	-12.1979
戶部	-12.1979
讚揚	-12.198
修葺	-12.1984
採藥	-12.1987
喚侍者	-12.1987
建窣堵波	-12.1988
殺活	-12.1989
心外無	-12.1991
居無何	-12.1992
都建康	-12.1999
現瑞	-12.1999
唐天寶	-12.2002
前件	-12.2005
太伯	-12.2008
妻妾	-12.2011
赤縣	-12.2016
紫蓋	-12.202
希遷	-12.2021
委悉	-12.2021
厭俗	-12.2023
民庶	-12.2023
嘉運	-12.2025
嘉瑞	-12.2026
年八十五	-12.2027
諍論	-12.2027
華麗	-12.2027
辟支	-12.2032
遺蹤	-12.2033
行數里	-12.2039
不知所在	-12.2039
乘舟	-12.204
五十九年	-12.2045
孟氏	-12.2046
新譯經	-12.2047
受大戒	-12.2058
鴈門	-12.206
兗	-12.2063
暇日	-12.2069
驚走	-12.2076
襄國	-12.2096
一萬八千	-12.2097
住此山	-12.2098
戒行精	-12.2099
伽梨	-12.2103
富陽	-12.2107
范氏	-12.2109
通玄寺	-12.2109
賜絹	-12.2115
鳥飛	-12.2116
西蕃	-12.2122
0	-12.2146
▁15	-12.2149
阿骨打	-12.215
大同小異	-12.2154
往從之	-12.2158
費長房	-12.2163
時有僧出	-12.2164
第七世	-12.2164
顰	-12.2165
毘婆尸佛	-12.2166
彎	-12.2167
靈根寺	-12.2169
孜	-12.2169
竺法蘭	-12.2169
如水中月	-12.217
曼陀羅	-12.217
埵	-12.2172
乳糜	-12.2173
東方朔	-12.2173
灌溪	-12.2174
人天眼目	-12.2174
漆桶	-12.2174
棃	-12.2175
槨	-12.2175
破邪論	-12.2175
四十八年	-12.2176
先天地生	-12.2176
稽古略	-12.2176
双	-12.2176
雷氏曰	-12.2177
得人身	-12.2177
齧	-12.2178
卭	-12.2179
國子博士	-12.2179
鷃	-12.2179
入於涅槃	-12.2179
瘥	-12.218
出廣異記	-12.218
菌	-12.218
祝髮受具	-12.218
慜	-12.218
𥧌	-12.2181
忒	-12.2181
珊瑚	-12.2181
優渥	-12.2181
鉛	-12.2181
淛	-12.2181
峩	-12.2181
文多不載	-12.2182
組	-12.2182
陶隱居	-12.2183
道士女冠	-12.2183
紫芝	-12.2184
闉	-12.2184
漓	-12.2185
饑渴	-12.2185
捕魚	-12.2186
零落	-12.2187
讜	-12.2187
感而遂通	-12.2187
龔氏	-12.2187
裩	-12.2187
寥寥	-12.2187
曝	-12.2189
惇	-12.2189
繼其席	-12.2189
赫奕	-12.2191
詧	-12.2191
怖懼	-12.2192
蝨	-12.2193
仁宗皇帝	-12.2194
鉞	-12.2194
駭異	-12.2197
苾	-12.2197
作十八變	-12.2198
左右街	-12.2199
不是不是	-12.2199
念佛不輟	-12.2201
伏犧	-12.2201
疹	-12.2201
傳法院	-12.2207
齊文宣	-12.2207
凝滯	-12.2207
抵掌	-12.2208
往依之	-12.2214
汴州	-12.2215
精廬	-12.2216
驅逐	-12.2216
精練	-12.2218
如是思惟	-12.2218
可不慎	-12.2219
莊嚴淨土	-12.222
屏除	-12.222
景德寺	-12.2222
追悔	-12.2223
風飄	-12.2223
河洛	-12.2224
關輔	-12.2224
寡言	-12.2224
消除	-12.2225
西來意	-12.2227
六十餘年	-12.223
統攝	-12.223
景祐	-12.2231
緇門	-12.2236
普陀	-12.2237
豪族	-12.2238
不詳其	-12.2241
擊節	-12.2242
二百七十	-12.2243
童壽	-12.2244
義學沙門	-12.2248
火焰	-12.2249
冠帶	-12.2251
既寤	-12.2252
何暇	-12.2253
茅茨	-12.2262
無以加	-12.2262
高蹈	-12.2276
西北隅	-12.2277
城市	-12.2292
寺之西	-12.23
年二十四	-12.2304
長阿含經	-12.2317
火災	-12.2321
江陰	-12.2323
嘉祥寺	-12.233
一百九十	-12.2333
戒檢	-12.2344
告諸比丘	-12.2348
嵩少	-12.2355
生人中	-12.2364
家者流	-12.2368
現神變	-12.237
一曰韶州	-12.2383
煬	-12.2384
魏孝文	-12.2385
祖師曹洞宗第	-12.2391
狀貌	-12.2392
二十四卷	-12.2394
續昭覺勤云	-12.2404
六牙白象	-12.2406
偽妄	-12.241
付法藏經	-12.241
忿怒	-12.2411
跏趺而化	-12.2412
唵	-12.2412
捨宅為寺	-12.2412
法嗣傳燈十	-12.2414
臨安府	-12.2416
婆舍斯多	-12.2417
設無遮大會	-12.2417
碍	-12.2417
右脇而臥	-12.2417
彙	-12.2419
甥	-12.2419
鬼子母	-12.2419
梓潼	-12.2419
律範	-12.242
晉孝武	-12.2421
呻吟	-12.2422
薙	-12.2422
安息國	-12.2422
嶸	-12.2423
頭面禮足	-12.2423
濠	-12.2423
攣	-12.2423
峨嵋	-12.2423
茵	-12.2423
出三藏記	-12.2424
王安石	-12.2424
李遵勗	-12.2424
奔湊	-12.2424
瘖	-12.2425
恊	-12.2425
輅	-12.2425
蟾	-12.2425
熒惑	-12.2425
文惠太子	-12.2425
永泰元年	-12.2425
甃	-12.2425
䘏	-12.2426
驍	-12.2426
秣	-12.2426
年二十八	-12.2427
憔悴	-12.2427
肉髻	-12.2427
苻堅	-12.2427
兢	-12.2429
愻	-12.2429
俘	-12.2429
挂錫	-12.243
年九歲	-12.243
跌	-12.243
詈	-12.243
𧂐	-12.243
大千世界	-12.243
真容院	-12.2431
頻伽	-12.2431
孝悌	-12.2431
布衣蔬食	-12.2431
瓣香	-12.2431
蝦	-12.2432
危險	-12.2432
銖	-12.2433
幃	-12.2433
西方三聖	-12.2433
爝火	-12.2434
秋毫	-12.2434
雲霞	-12.2436
蝶	-12.2436
削染	-12.2436
身長七尺	-12.2437
邠	-12.2437
鏗然	-12.2437
雞鳴	-12.2438
睇	-12.2438
罟	-12.2439
玄弉	-12.244
紕	-12.2441
包括	-12.2443
聞所未聞	-12.2446
淹留	-12.2447
十餘萬言	-12.2448
繫縛	-12.2448
生善處	-12.2449
為口實	-12.2454
遠邇	-12.2455
寒山子	-12.2455
二千餘里	-12.2457
提點	-12.2458
襲位	-12.2459
曇諦	-12.246
僧臘四十	-12.246
晦菴	-12.2463
支那國	-12.2467
離垢	-12.2467
迦葉佛時	-12.2469
年八十二	-12.2475
放曠	-12.2475
曲折	-12.2477
銳志	-12.2477
誦華嚴經	-12.2477
入其室	-12.2481
周顒	-12.2483
器宇	-12.2484
溫室	-12.2485
婆羅門種	-12.2485
開皇十年	-12.249
欲入涅槃	-12.2491
嚴整	-12.2496
院宇	-12.2497
欽仰	-12.2498
講筵	-12.2498
篇章	-12.2499
渡海	-12.2527
大人相	-12.2534
謗毀	-12.254
那伽	-12.2543
檀香	-12.2552
諸有情	-12.2552
與師同	-12.2554
屏絕	-12.2556
七級	-12.2561
日誦金剛經	-12.2566
鄉邑	-12.2571
僧尼道士	-12.2583
鐵圍	-12.2605
悲愍	-12.2609
嚴麗	-12.2611
昏迷	-12.2614
洗足	-12.2616
嘉歎	-12.2618
第十五	-12.2619
多寶寺	-12.2643
無心是道	-12.2646
錢買	-12.2649
俞氏	-12.2649
禪位于	-12.2652
韋提希	-12.2654
法炬	-12.2656
暗室	-12.2661
酤	-12.2663
剃除鬚髮	-12.2664
瑞應本起	-12.2664
勾踐	-12.2664
闍那崛多	-12.2665
罽	-12.2665
鵶	-12.2665
昆明池	-12.2668
娥	-12.2669
一大事因緣	-12.2669
陀羅尼經一卷	-12.267
阿毘達磨	-12.267
皋	-12.267
唯願世尊	-12.2671
欷	-12.2671
覯	-12.2672
藕	-12.2672
姙	-12.2673
天上人間	-12.2674
膏肓	-12.2674
霓	-12.2674
墀	-12.2675
攫	-12.2675
醜陋	-12.2675
安世高	-12.2675
散脂	-12.2675
廨	-12.2676
歐陽文忠公	-12.2676
讚唄	-12.2676
抖擻	-12.2676
耨	-12.2677
過目成	-12.2677
𩬊	-12.2677
內庭	-12.2677
中印度境	-12.2677
燃燈	-12.2677
仔細	-12.2677
擊磬	-12.2678
豚	-12.2678
礎	-12.2678
繒纊	-12.2679
嘶	-12.2679
歸依三寶	-12.2679
窅	-12.268
竣	-12.268
神龍元年	-12.268
十地品	-12.268
螻蟻	-12.2681
支道林	-12.2681
縵	-12.2682
修苦行	-12.2682
虬	-12.2682
磨衲	-12.2682
蝗	-12.2683
遣內侍	-12.2683
世業儒	-12.2683
廕	-12.2684
䟦摩	-12.2685
侍立次	-12.2685
規模	-12.2686
耆婆	-12.2687
驅馳	-12.2687
儗	-12.2687
端甫	-12.2688
匍匐	-12.2688
殷仲堪	-12.2689
飭	-12.2689
』	-12.269
讀金剛經	-12.269
純熟	-12.2691
戾止	-12.2691
吟詠	-12.2691
稍稍	-12.2691
習禪定	-12.2692
跋提	-12.2693
飢寒	-12.2695
河內人	-12.2695
造金銅	-12.2695
渙然	-12.2696
忘倦	-12.2696
答臣下審神滅	-12.2696
筍	-12.2696
蘭臺	-12.2698
昌黎	-12.27
無盡居士	-12.2701
仁恕	-12.2702
四句偈	-12.2702
軍旅	-12.2703
霜雪	-12.2704
僉議	-12.2704
湯藥	-12.2705
馳走	-12.2705
鄔波	-12.2706
踈山	-12.2707
偃息	-12.2708
徵詰	-12.2715
荷負	-12.2716
示誨	-12.2717
遺誡	-12.2718
勝劣	-12.2718
得未曾有	-12.2725
欽慕	-12.2725
二百八十	-12.2726
庫藏	-12.2727
越三日	-12.273
深坑	-12.2731
淨社	-12.2732
以淨土為	-12.2737
假借	-12.2743
出世間法	-12.2748
過去未來	-12.2748
無數劫	-12.2759
打鼓	-12.276
良可悲	-12.2769
周世宗	-12.2772
五十由旬	-12.2774
考試	-12.2777
聞此言	-12.2778
詭異	-12.2782
傷害	-12.2786
錢一萬	-12.2799
姓趙氏	-12.2807
瞻視	-12.2808
味甘	-12.2855
佛法金湯編	-12.2876
驚嘆	-12.2887
亦直云	-12.2892
潞州	-12.2898
法師玄奘	-12.2898
婆沙論	-12.2903
犍陟	-12.2911
向他道	-12.2913
大梵天王	-12.2915
普曜經	-12.2915
𤣱	-12.2918
搬	-12.2919
大慈大悲	-12.292
─────	-12.292
宿大哆	-12.2921
喚作什麼	-12.2921
結跏趺坐	-12.2922
沮渠蒙遜	-12.2923
惆悵	-12.2924
按佛祖統紀	-12.2925
暐	-12.2927
驃騎	-12.2927
崔皓	-12.2927
皎潔	-12.2927
枯槁	-12.2928
歧	-12.2928
三萬六千	-12.2928
怎	-12.2929
秣陵	-12.293
九十一劫	-12.293
罏	-12.293
天衣懷	-12.2931
碗	-12.2931
肺	-12.2932
生死事大	-12.2932
豪傑	-12.2932
感異夢	-12.2933
膏腴	-12.2933
有終焉之志	-12.2933
釰	-12.2933
瘵	-12.2933
百法論	-12.2933
贓	-12.2934
孟顗	-12.2934
這般	-12.2935
倜儻	-12.2935
蠹	-12.2935
禋	-12.2935
闤闠	-12.2935
西南隅	-12.2935
鍵	-12.2936
淡泊	-12.2936
管窺	-12.2936
馴擾	-12.2937
勌	-12.2937
幄	-12.2937
試經得度	-12.2937
崙	-12.2938
踐祚	-12.2938
蛆	-12.2938
蒙印可	-12.2938
優婆	-12.2938
瞪	-12.2939
語言文字	-12.2939
碁	-12.294
梗概	-12.294
設大齋	-12.2941
無疾而逝	-12.2942
皮肉	-12.2944
鼓舞	-12.2944
閿鄉	-12.2945
騾	-12.2945
參寥	-12.2945
豺狼	-12.2945
樞機	-12.2946
羊車	-12.2947
士衡	-12.2948
皇儲	-12.2951
棒喝	-12.2951
數十步	-12.2953
良醫	-12.2953
玉衡	-12.2953
大通元年	-12.2953
七十里	-12.2959
孝明帝	-12.2959
市肆	-12.296
懇切	-12.2961
許諾	-12.2963
烏巨	-12.2965
林壑	-12.2965
修福業	-12.2966
紀綱	-12.2967
操履	-12.2967
訣別	-12.2968
昏曉	-12.2968
默契	-12.2969
悔罪	-12.2972
松竹	-12.2974
手捧	-12.298
聚沙	-12.2982
暫息	-12.2983
希夷	-12.2984
柱杖	-12.2985
僧堂前	-12.2993
玉燭	-12.2993
年七十餘	-12.2993
背負	-12.2993
招提寺	-12.3002
宮商	-12.3006
巴西	-12.301
漁父	-12.3018
▁第四十	-12.303
池側	-12.3032
製疏	-12.3034
手巾	-12.3037
太宗皇帝	-12.3039
枯樹	-12.3043
刀割	-12.3054
十有六	-12.3071
為之銘	-12.3071
合為一	-12.3094
梵網經	-12.3099
香烟	-12.3113
執爐	-12.3115
聞於朝	-12.3115
入內供養	-12.3121
三尺許	-12.3148
一曰潭州	-12.315
為時所	-12.3162
蜜多羅	-12.3162
3	-12.3165
貞定王	-12.3168
郍	-12.3169
長慶稜	-12.3172
今正是時	-12.3174
顏真卿	-12.3179
於諸物中	-12.318
如來大法眼藏	-12.318
二百三十	-12.3181
無憂王所建	-12.3181
鏗	-12.3185
佛法無多子	-12.3187
樝	-12.3187
高二百餘尺	-12.3188
淥	-12.3188
釗	-12.3188
不與萬法為侶	-12.3189
壁立千仞	-12.3189
暎	-12.319
預知時至	-12.319
楔	-12.3191
盡未來際	-12.3191
粧	-12.3191
皤	-12.3191
橈	-12.3192
少欲知足	-12.3192
金剛杵	-12.3192
驤	-12.3193
列仙傳	-12.3193
渧	-12.3193
丹陽尹	-12.3193
罸	-12.3193
甲冑	-12.3194
忖	-12.3194
天息災	-12.3194
摩訶般若波羅蜜	-12.3195
繽紛	-12.3195
伶	-12.3196
朮	-12.3197
展坐具	-12.3197
怜	-12.3197
淨影寺	-12.3197
眴	-12.3197
煅	-12.3198
大曆九年	-12.3198
馳驛	-12.3198
痒	-12.3198
吾將去矣	-12.3198
國子祭酒	-12.3198
達磨多羅	-12.3198
稗	-12.3199
千福寺	-12.3199
陟岵寺	-12.32
傚	-12.32
綰	-12.32
濶	-12.32
波羅提	-12.32
妣	-12.32
羔	-12.32
契佛心	-12.3201
萍	-12.3201
氷霜	-12.3201
顓	-12.3201
曇摩難提	-12.3201
不遠千里	-12.3201
苴	-12.3201
紗	-12.3202
紹熙	-12.3202
瀟湘	-12.3203
􂌸	-12.3204
毗陵	-12.3204
二百九十	-12.3205
髯	-12.3205
黔黎	-12.3205
騐	-12.3206
慝	-12.3206
捷徑	-12.3206
庾亮	-12.3206
以此言之	-12.3207
匾	-12.3207
泠然	-12.3207
身長八尺	-12.3207
人無知者	-12.3208
諮詢	-12.3208
宦官	-12.3208
蜀王秀	-12.3208
薩婆多部	-12.3208
築壇	-12.3209
酢	-12.3209
給度牒	-12.321
崕	-12.321
藿	-12.3211
髀	-12.3212
馳騁	-12.3212
薛簡	-12.3214
虞舜	-12.3214
韶陽	-12.3215
何許人	-12.3217
未央	-12.3217
俯伏	-12.3217
奄爾	-12.3219
白蓮社	-12.3221
梁棟	-12.3221
楊雄	-12.3222
猛省	-12.3222
權衡	-12.3222
五百仙人	-12.3223
百辟	-12.3224
欻然	-12.3224
滔天	-12.3224
亭亭	-12.3226
僧臘六十	-12.3228
玉帛	-12.3229
老病死	-12.323
稱疾不	-12.3232
祠祀	-12.3233
曉夕	-12.3234
班固	-12.3235
雞林	-12.3235
榮辱	-12.3236
州開元寺	-12.3236
蕭條	-12.3238
阿難陀	-12.324
虔誠	-12.3254
遊獵	-12.3254
郡太守	-12.3255
以偈答	-12.3277
品藻	-12.3279
二百一十	-12.3285
牛羊	-12.3311
海隅	-12.3327
箭射	-12.3373
三百四十	-12.3378
大鑒之七世	-12.3387
側不遠	-12.3399
北天竺國	-12.3402
牽牛	-12.3403
八萬歲	-12.3415
大千界	-12.3422
述偈	-12.3436
勾麗	-12.344
得法眼淨	-12.3446
洹	-12.3449
與一掌	-12.3449
休璟	-12.3449
摩利支	-12.345
如來滅後	-12.345
億兆	-12.345
氤	-12.345
朱士行	-12.3452
甖	-12.3453
展兩手	-12.3454
慣	-12.3454
儀範	-12.3456
礴	-12.3457
蘧	-12.3458
耆域	-12.3458
是何言歟	-12.3459
殲	-12.3459
豁然開悟	-12.346
輥	-12.346
窠臼	-12.3461
苓	-12.3462
捋	-12.3462
艮	-12.3462
君臣父子	-12.3463
不載按舊唐書	-12.3463
璫	-12.3463
瞳	-12.3463
謂侍臣曰	-12.3463
凭	-12.3464
脇不至席	-12.3464
竚	-12.3465
剌血書	-12.3465
九十六種	-12.3466
蒼梧	-12.3466
老嫗	-12.3466
攝大乘論	-12.3466
中書門下	-12.3466
景濂	-12.3467
酬酢	-12.3467
隄	-12.3468
祖禰	-12.3468
周四千餘里	-12.3469
恰似	-12.3469
聞命矣	-12.3469
紛綸	-12.347
通事舍人	-12.347
輻輳	-12.3471
鏁	-12.3471
湻	-12.3471
其可得乎	-12.3471
北印度境	-12.3471
駮	-12.3472
韋陀	-12.3473
沸騰	-12.3473
魑魅	-12.3473
七寶莊嚴	-12.3473
堙	-12.3473
俚	-12.3473
沽	-12.3473
生我國	-12.3474
交趾	-12.3475
牢獄	-12.3476
堅牢	-12.3476
丱歲	-12.3476
喜慍	-12.3476
鷄鳴	-12.3477
估	-12.3477
成無上道	-12.3478
寗	-12.3478
袤	-12.3479
徽猷	-12.3479
儁	-12.3479
憮然	-12.348
闚	-12.3481
少昊	-12.3481
簸	-12.3481
擿	-12.3482
烏程	-12.3482
愛憎	-12.3483
聞者莫不	-12.3483
若能如是	-12.3484
鄙陋	-12.3486
巴蜀	-12.3487
玉岡	-12.3487
彌綸	-12.3487
善惡報應	-12.349
十餘遍	-12.3491
悠然	-12.3495
祝壽	-12.3495
波浪	-12.35
碧落	-12.3501
結繩	-12.3501
仲舒	-12.3502
扈從	-12.3503
隋西京	-12.3511
持齋戒	-12.3527
夢寐	-12.3533
鐘鼓	-12.3539
更無餘	-12.3549
州龍興寺	-12.3561
緇服	-12.3564
弓箭	-12.3572
千餘卷	-12.3615
化胡成佛	-12.3629
掛錫	-12.3642
有一長者	-12.3643
悟玄旨	-12.3646
太史奏	-12.3648
貧富	-12.3702
潘氏	-12.3703
那爛陀	-12.3707
七寸	-12.3713
滔	-12.372
富那夜奢	-12.3721
𨁝跳	-12.3722
洞山价	-12.3723
喪身失命	-12.3723
幟	-12.3725
羅閱城	-12.3726
淨土聖賢錄	-12.3726
去一惡	-12.3726
波羅柰	-12.3728
啐啄同時	-12.3728
支敏度	-12.3729
蒐	-12.3729
大業二年	-12.373
摩騰竺法蘭	-12.3731
也大奇	-12.3732
趯	-12.3732
拘尸那城	-12.3732
波羅奈國	-12.3732
屹	-12.3733
斯陀含	-12.3734
修法華懺	-12.3734
授歸戒	-12.3735
雞足山	-12.3735
郗	-12.3736
加趺而化	-12.3737
紛飛	-12.3738
楞	-12.3738
惺	-12.3738
搔	-12.3738
煎茶	-12.3738
夷夏論	-12.3738
藍谷	-12.3739
皖	-12.374
受持讀誦	-12.374
金錍	-12.374
阬	-12.3741
按魏書	-12.3741
脾	-12.3741
皆有佛性	-12.3742
霆	-12.3742
茸	-12.3742
巘	-12.3743
癢	-12.3743
䰂	-12.3743
湘宮寺	-12.3743
佃	-12.3744
鑾輿	-12.3744
纜	-12.3744
畋獵	-12.3744
櫛	-12.3745
唯心淨土	-12.3745
喟然	-12.3746
戰慄	-12.3746
陶侃	-12.3747
贏	-12.3748
臧否	-12.3748
綿竹	-12.3748
上元元年	-12.3749
酥酪	-12.3749
虎跑	-12.3749
擲筆而逝	-12.3749
絢	-12.375
嘴	-12.375
正恁麼時	-12.375
韓退之	-12.3751
膜	-12.3751
貞觀年中	-12.3751
耘	-12.3751
后稷	-12.3752
膊	-12.3752
只恁麼	-12.3752
涯涘	-12.3753
右脇而逝	-12.3753
頫	-12.3753
氓	-12.3753
顱	-12.3754
高尚其事	-12.3754
旌旗	-12.3754
不能自勝	-12.3754
䑛	-12.3755
省覲	-12.3757
蚩尤	-12.3757
泫	-12.3757
覃思	-12.3758
磴	-12.3758
翮	-12.3759
願生安養	-12.3759
縟	-12.376
撞著	-12.376
憊	-12.3761
續高僧傳卷第二十	-12.3761
安祿山	-12.3763
湖湘	-12.3764
價直	-12.3764
鮮潔	-12.3766
訶責	-12.3766
裹糧	-12.3767
誦法華維摩	-12.3769
野干	-12.3769
幾箇	-12.3771
雍容	-12.3772
青蓮花	-12.3774
孫皓	-12.3774
玄宗開元	-12.3778
戲之曰	-12.3779
秉忠	-12.3779
習毗尼	-12.3783
高一尺	-12.3783
孤峻	-12.3784
刻檀	-12.3785
廬江	-12.3793
毫端	-12.3801
滄州	-12.3804
持佛號	-12.3812
大品般若	-12.3818
元狩	-12.3836
百許人	-12.3837
奉勅撰	-12.3841
神龍二年	-12.3851
修十善	-12.3865
二十小劫	-12.3868
閻摩	-12.3889
嗜酒	-12.3901
貞觀十一年	-12.3908
禹湯文武	-12.3942
曇鸞	-12.3948
數千萬	-12.3958
持禁戒	-12.3971
一曰襄州	-12.3986
三皇五帝	-12.3988
鐫石	-12.399
5	-12.4
右遶	-12.4005
祖住世傳法	-12.4009
蜆	-12.4012
彌勒下生	-12.4013
卅	-12.4013
開示悟入	-12.4014
頔	-12.4015
空假中	-12.4016
閉却門	-12.4016
蕭子良	-12.4018
懦	-12.4018
太平廣記	-12.402
孳	-12.402
滁	-12.4021
鍋	-12.4021
聶	-12.4022
㒵	-12.4022
嬉戲	-12.4022
崎嶇	-12.4023
臨命終時	-12.4023
永初元年	-12.4023
誹	-12.4023
十一月二十三日	-12.4023
毉	-12.4024
乘白象	-12.4024
阿僧祇	-12.4024
牡	-12.4024
糾	-12.4026
賢劫千佛	-12.4027
拂拭	-12.4027
危脆	-12.4027
湮沒	-12.4028
四念處	-12.4028
東都事略	-12.4028
向甚麼處去	-12.4028
瀕	-12.4028
翠峯	-12.4028
哽	-12.4028
猒	-12.4029
螺髻	-12.4029
迤	-12.4029
僑	-12.4029
鶻	-12.403
嗜慾	-12.403
憎愛	-12.403
孃	-12.403
岑文本	-12.403
逼迫	-12.4031
十月十五日	-12.4031
凌晨	-12.4031
曇謨最	-12.4031
畦	-12.4032
驩	-12.4033
呼吸	-12.4033
却後七日	-12.4033
為方外友	-12.4033
種善根	-12.4033
綉	-12.4034
荒蕪	-12.4034
寤寐	-12.4034
秦檜	-12.4034
糊	-12.4035
陲	-12.4035
揜	-12.4035
癰	-12.4035
商侶	-12.4036
顏貌如生	-12.4036
欺誑	-12.4036
嗅	-12.4036
緇侶	-12.4036
受記莂	-12.4037
雖然如此	-12.4037
甍	-12.4038
六百五十七部	-12.4038
碌	-12.4041
紘	-12.4041
篁	-12.4042
僵	-12.4044
肴	-12.4044
碾	-12.4045
曖	-12.4052
醴	-12.426
恙	-12.429
唎	-12.4302
另	-12.4303
氐	-12.4308
勦	-12.431
妓	-12.4312
緜	-12.4317
燄	-12.4317
跣	-12.4317
篩	-12.4318
杙	-12.4318
繳	-12.4319
釧	-12.432
靠	-12.432
偘	-12.4323
燿	-12.4323
醻	-12.4324
啗	-12.4325
笻	-12.4326
寨	-12.4326
摽	-12.4326
􃆵	-12.4329
盾	-12.4329
恁	-12.4329
噀	-12.4331
蘂	-12.4331
薇	-12.4333
蚌	-12.4334
燁	-12.4334
蔕	-12.4336
旒	-12.4339
璘	-12.4612
珏	-12.4613
鄯	-12.4614
圜	-12.4614
跖	-12.4614
歙	-12.4616
澣	-12.4617
轝	-12.4619
翩	-12.462
蘽	-12.462
佯	-12.4624
謳	-12.4624
聒	-12.4625
沱	-12.4625
𡩋	-12.4626
窒	-12.4626
鑛	-12.4627
斵	-12.4628
楓	-12.4628
䗍	-12.4628
琶	-12.4628
罅	-12.4629
豔	-12.4629
詫	-12.4629
苫	-12.463
覊	-12.463
胞	-12.463
琨	-12.4631
蹴	-12.4631
眚	-12.4632
膓	-12.4632
粳	-12.4632
訐	-12.4633
擐	-12.4633
襆	-12.4635
汭	-12.4636
歉	-12.4637
鶯	-12.4637
輻	-12.464
悱	-12.464
縹	-12.4641
繭	-12.4642
麈	-12.4642
葩	-12.4642
讌	-12.4643
麴	-12.4648
4	-12.4909
扄	-12.4925
港	-12.4926
舩	-12.4926
寥	-12.4926
忉	-12.4929
郄	-12.493
葆	-12.493
殑	-12.493
裓	-12.4932
嵆	-12.4934
描	-12.4934
臟	-12.4934
倨	-12.4935
窻	-12.4936
癭	-12.4936
熒	-12.4936
娩	-12.4937
瑒	-12.4937
鶉	-12.4937
蓐	-12.4937
鉏	-12.4938
揄	-12.4938
攷	-12.494
禺	-12.494
閾	-12.4941
刁	-12.4941
舖	-12.4941
獠	-12.4941
圊	-12.4943
玻	-12.4943
蓊	-12.4944
癹	-12.4944
悄	-12.4945
暈	-12.4945
嗤	-12.4946
笳	-12.4946
匕	-12.4947
垠	-12.4949
籟	-12.4956
絛	-12.496
癯	-12.4962
硯	-12.5233
晶	-12.524
蹉	-12.5244
鄠	-12.5248
椅	-12.5251
扼	-12.5252
璇	-12.5252
箠	-12.5252
[...]
