<unk>	0
<s>	0
</s>	0
,	-2.33852
。	-2.93973
、	-3.95684
:	-4.74301
▁*	-4.90317
也	-5.11234
者	-5.1737
;	-5.19779
〕	-5.21445
「	-5.25015
一	-5.2629
》	-5.30406
之	-5.3079
二	-5.31267
▁〔	-5.32858
《	-5.33768
為	-5.38804
的	-5.3892
故	-5.42064
」	-5.47382
有	-5.57491
:「	-5.58
?	-5.63962
。」	-5.64431
不	-5.68187
是	-5.69197
三	-5.70174
)	-5.72321
於	-5.79092
(	-5.818
而	-5.81969
明	-5.82384
無	-5.84358
中	-5.84891
以	-5.85826
心	-5.86042
法	-5.96675
▁	-5.99588
此	-6.04644
人	-6.05949
等	-6.06779
如	-6.09122
與	-6.12642
行	-6.12735
生	-6.16653
在	-6.18465
即	-6.19331
相	-6.23564
若	-6.25884
四	-6.27031
言	-6.28256
經	-6.29587
時	-6.31539
我	-6.36744
身	-6.38516
佛	-6.39208
曰	-6.40744
說	-6.40908
。】「	-6.43009
】	-6.4343
大	-6.43541
得	-6.45139
其	-6.45595
見	-6.45756
▁【	-6.4676
及	-6.4918
非	-6.49304
名	-6.50459
所	-6.5396
菩薩	-6.59163
。」【	-6.60128
自	-6.60444
能	-6.61047
因	-6.6274
依	-6.64533
從	-6.65651
分二	-6.66326
上	-6.66957
則	-6.68062
。(	-6.69486
彼	-6.70471
諸	-6.707
眾生	-6.71853
作	-6.72794
謂	-6.72863
-	-6.74106
五	-6.74539
應	-6.74676
了	-6.75255
如來	-6.76684
處	-6.76707
問	-6.77553
本	-6.77647
至	-6.78507
亦	-6.79096
道	-6.79417
受	-6.80479
他	-6.81411
已	-6.82258
後	-6.82679
義	-6.83074
或	-6.87243
如是	-6.88553
事	-6.8858
又	-6.88591
子	-6.92294
云	-6.92826
地	-6.93029
入	-6.93537
釋	-6.93824
對	-6.95014
欲	-6.95101
初	-6.96475
!	-6.97741
出	-6.97818
觀	-6.97984
成	-6.98933
來	-6.99045
多	-6.99064
一切	-6.99802
起	-7.00046
由	-7.00483
肇	-7.00637
善	-7.01096
解	-7.01136
下	-7.01519
苦	-7.01922
可	-7.02424
但	-7.0286
空	-7.03262
前	-7.03435
當	-7.03862
皆	-7.03933
色	-7.03969
果	-7.04592
號	-7.06009
常	-7.06062
天	-7.06283
知	-7.07474
住	-7.07531
。「	-7.08127
▁|	-7.09667
意	-7.12086
同	-7.1252
未	-7.12576
論	-7.1316
智	-7.1373
修	-7.14216
王	-7.17767
性	-7.20613
定	-7.21129
答	-7.21647
盡	-7.22319
六	-7.22472
體	-7.24044
念	-7.24102
願	-7.25023
門	-7.25174
眾	-7.25174
卯	-7.25378
緣	-7.25508
用	-7.26592
理	-7.26609
文	-7.26714
卷	-7.27208
世尊	-7.27607
雖	-7.27951
將	-7.28365
〔	-7.28692
真	-7.28837
今	-7.2955
教	-7.29885
破	-7.31286
現	-7.32197
業	-7.32485
正	-7.33355
淨	-7.3356
想	-7.33724
分	-7.34271
寅	-7.34476
和	-7.3487
樂	-7.35117
」。	-7.35299
斷	-7.36102
過	-7.36163
辰	-7.36659
七	-7.36957
離	-7.37809
先	-7.38128
難	-7.38528
耶	-7.38711
丑	-7.388
界	-7.38864
。)	-7.3957
滅	-7.40214
結	-7.40571
八	-7.4108
巳	-7.41361
著	-7.41623
唯	-7.41759
」,	-7.4296
就	-7.43131
所以	-7.43191
壬	-7.43497
然	-7.43684
力	-7.44329
取	-7.44805
令	-7.44829
功德	-7.45154
分三	-7.45393
引	-7.45832
外	-7.4591
己	-7.46805
識	-7.4687
復	-7.47362
辛	-7.47691
要	-7.49067
化	-7.49192
煩惱	-7.50785
錄	-7.50894
會	-7.51552
內	-7.51853
去	-7.52465
次	-7.52693
並	-7.52992
求	-7.53097
境	-7.53696
年	-7.53761
汝	-7.53968
隨	-7.54173
十	-7.55041
不能	-7.55141
除	-7.55289
既	-7.55381
日	-7.5573
聞	-7.5629
癸	-7.57638
俱	-7.57997
何	-7.58213
捨	-7.58456
唵	-7.58903
施	-7.59654
戒	-7.59658
立	-7.59787
語	-7.60074
還	-7.60176
云何	-7.60283
重	-7.60284
名為	-7.60833
具	-7.60905
部	-7.6119
都	-7.63464
父母	-7.63766
別	-7.64038
指	-7.64643
世	-7.64753
解脫	-7.65052
標	-7.65407
實	-7.65479
師	-7.65537
學	-7.6619
開	-7.66355
斯	-7.66541
光	-7.66586
水	-7.66652
通	-7.66656
根	-7.66712
約	-7.66885
利	-7.67081
到	-7.67419
清淨	-7.67915
命	-7.68163
方	-7.68279
報	-7.68318
深	-7.68319
》、《	-7.68609
分別	-7.68655
餘	-7.69055
稱	-7.69085
罪	-7.69477
勝	-7.69751
須菩提	-7.71032
涅槃	-7.71161
德	-7.71711
持	-7.72739
物	-7.73234
請	-7.73299
惡	-7.73369
食	-7.73789
神	-7.73927
證	-7.7427
第二	-7.74479
異	-7.74663
便	-7.74931
向	-7.75191
聖	-7.75999
慧	-7.76274
即是	-7.76482
你	-7.76889
更	-7.77164
庚	-7.77277
妙	-7.78587
須	-7.78697
丁	-7.79099
度	-7.79106
聲	-7.79165
合	-7.79274
轉	-7.79704
藏	-7.79742
供養	-7.79764
有情	-7.79962
宗	-7.79967
。」「	-7.80108
愛	-7.80638
乃	-7.80674
」【	-7.80963
發	-7.81626
使	-7.81751
信	-7.81783
生死	-7.82044
福	-7.82385
親	-7.82627
大乘	-7.82682
午	-7.82789
悉	-7.82838
真言	-7.83097
共	-7.831
阿	-7.83366
主	-7.83856
廣	-7.84173
那	-7.84316
覺	-7.84325
被	-7.8442
好	-7.84506
僧	-7.84826
顯	-7.8543
位	-7.86123
法身	-7.86221
香	-7.86526
?」	-7.8819
寶	-7.88394
死	-7.88971
母	-7.89593
品	-7.8964
執	-7.89789
九	-7.90079
地獄	-7.9024
止	-7.90284
這	-7.90544
喻	-7.91284
世間	-7.91441
.)	-7.91689
不同	-7.91886
諸佛	-7.92146
集	-7.92586
小	-7.92808
註釋	-7.93751
總	-7.94454
比丘	-7.94882
極	-7.95
必	-7.95961
丙	-7.96638
病	-7.96776
a	-7.97179
修行	-7.97881
舉	-7.979
悟	-7.97909
火	-7.98034
.	-7.98511
形	-7.98936
攝	-7.99157
兩	-7.99995
觸	-8.00593
各	-8.00597
照	-8.00912
方便	-8.01134
□...□	-8.01152
傳	-8.01489
類	-8.01717
遍	-8.01808
往	-8.01813
無有	-8.02652
且	-8.03024
一卷	-8.03135
國	-8.03145
數	-8.03276
長	-8.04411
種	-8.04423
記	-8.04725
)。	-8.05078
菩提	-8.05081
白	-8.05254
爾時	-8.05529
帝	-8.05932
家	-8.06743
戊	-8.06772
遠	-8.06867
月	-8.06974
眼	-8.06985
南無	-8.07058
字	-8.07102
情	-8.07536
把	-8.08542
無量	-8.0867
略	-8.08986
T	-8.08994
貪	-8.09046
坐	-8.09397
耳	-8.09403
第一	-8.10071
是故	-8.10303
凡	-8.11403
娑婆訶	-8.1383
思	-8.1385
不得	-8.14856
它	-8.14887
乃至	-8.14999
乙	-8.15155
流	-8.16156
不應	-8.16319
何以故	-8.16402
於彼	-8.16407
1	-8.1651
造	-8.16549
今初	-8.1659
目	-8.16625
如此	-8.16773
阿難	-8.16794
自在	-8.17532
第三	-8.18011
動	-8.1823
無相	-8.1839
頭	-8.19336
高	-8.1945
智慧	-8.19454
面	-8.1949
2	-8.19869
現在	-8.19957
海	-8.20305
佛教	-8.20638
終	-8.20697
禮	-8.21342
羅	-8.21921
尊	-8.22861
金	-8.23347
可以	-8.23356
疑	-8.23403
他們	-8.23627
口	-8.23667
風	-8.23935
失	-8.24107
衣	-8.24175
存	-8.24321
千	-8.24346
所有	-8.24664
花	-8.24893
迷	-8.24988
安	-8.25053
聚	-8.25107
」(	-8.2541
禪	-8.25616
萬	-8.25791
差別	-8.25961
護	-8.26001
安樂	-8.26153
女	-8.26247
諸比丘	-8.26276
三界	-8.26487
分四	-8.26529
平等	-8.26583
歸	-8.26778
劫	-8.2763
故論文言	-8.27726
啊	-8.28266
歡喜	-8.29236
故言	-8.29389
無常	-8.29414
無明	-8.29483
始	-8.29543
不可	-8.29631
山	-8.29899
三念佛	-8.30246
量	-8.30264
金剛	-8.30299
具足	-8.30322
凡夫	-8.30374
世界	-8.30734
圓滿	-8.30743
足	-8.31488
味	-8.31719
道場	-8.31902
達	-8.31968
慈	-8.32483
因緣	-8.32655
惑	-8.3273
法界	-8.32832
成就	-8.32949
妄	-8.33379
乘	-8.33385
看	-8.33413
手	-8.33487
莊嚴	-8.33635
聽	-8.33646
蘊	-8.33852
說法	-8.33979
許	-8.34417
以為	-8.34697
精進	-8.35052
該	-8.35413
猶	-8.35441
乎	-8.35502
十二	-8.3558
示	-8.35679
諸法	-8.35945
滿	-8.36602
一切眾生	-8.36642
忍	-8.37108
3	-8.3711
加持	-8.37352
近	-8.37775
不見	-8.37814
邪	-8.37823
書	-8.38047
所謂	-8.3832
城	-8.38374
此二	-8.38404
誰	-8.38544
夫	-8.38598
百	-8.39177
述	-8.3936
這個	-8.39525
我今	-8.39997
順	-8.40007
聲聞	-8.40292
波	-8.40464
國王	-8.40475
障	-8.4073
之中	-8.40798
所說	-8.41181
最	-8.41425
微	-8.41491
似	-8.4202
我們	-8.42126
少	-8.42401
5	-8.42469
佛言	-8.42488
像	-8.42577
豈	-8.42618
7	-8.4325
她	-8.4345
句	-8.43783
塵	-8.43949
居	-8.44185
恩	-8.44215
密	-8.44462
新	-8.4491
卻	-8.45
8	-8.45002
莫	-8.45187
於此	-8.45552
父	-8.45707
二者	-8.46283
不知	-8.46292
如何	-8.46483
自然	-8.47063
散	-8.47182
自性	-8.47504
白佛言	-8.47742
是名	-8.48092
息	-8.48249
樹	-8.48423
之心	-8.48957
甲	-8.48983
種種	-8.49264
沒有	-8.49276
禪藏	-8.49463
此經	-8.49801
此初	-8.49853
故名	-8.49864
害	-8.49912
告	-8.49961
不生	-8.50036
頌	-8.50202
土	-8.5021
經曰	-8.5024
慈悲	-8.50291
□	-8.50403
悲	-8.50643
疏	-8.50712
第	-8.50721
敬	-8.51069
輪	-8.51078
十方	-8.51338
囉	-8.51347
供	-8.51442
福德	-8.51524
普	-8.52262
出家	-8.52941
其中	-8.53231
奉	-8.5332
何故	-8.5357
遮	-8.53583
原	-8.53793
婆	-8.53846
究竟	-8.54448
然後	-8.5463
偈	-8.54825
清	-8.54827
陀	-8.55164
喜	-8.55299
象	-8.55592
殺	-8.55708
之時	-8.55834
表	-8.55944
由於	-8.56062
增	-8.56118
一一	-8.56221
僅	-8.56294
摩	-8.56626
比	-8.56877
是以	-8.57154
決定	-8.57166
6	-8.5724
這些	-8.57491
寺	-8.57612
再	-8.57688
真如	-8.57714
一時	-8.57752
故云	-8.5798
勸	-8.58208
」、「	-8.58314
全	-8.58493
已經	-8.58542
讚	-8.58632
加	-8.58634
粗	-8.58715
絕	-8.5893
列	-8.58933
般若	-8.59144
無漏	-8.59244
壞	-8.59374
二乘	-8.59628
弟子	-8.5974
魔	-8.59756
爾	-8.59828
故知	-8.60297
中有	-8.60387
猶如	-8.60643
4	-8.60651
經典	-8.60725
印	-8.60763
假	-8.61204
而不	-8.61302
功	-8.6135
生起	-8.61523
尋	-8.61545
研究	-8.61572
興	-8.61596
舍利弗	-8.61754
瞋	-8.61791
之人	-8.62123
鼻	-8.62275
續	-8.62338
財	-8.62355
矣	-8.62364
間	-8.62367
周	-8.62441
第四	-8.62597
首	-8.62802
無邊	-8.63107
小乘	-8.63321
某	-8.63459
久	-8.63813
強	-8.64091
三寶	-8.64237
釋曰	-8.64458
上述	-8.64468
無生	-8.65038
孝	-8.65041
分明	-8.65447
誦	-8.65475
亦無	-8.65494
夜	-8.65756
獨	-8.65789
直	-8.66308
伯	-8.66426
雜	-8.66454
譯	-8.66466
摩訶	-8.66757
益	-8.66879
迴向	-8.67164
齊	-8.67262
趣	-8.6757
咒	-8.67591
仍	-8.67636
不動	-8.67651
哆	-8.6772
文字	-8.67774
永	-8.67885
人天	-8.67976
雲	-8.68287
細	-8.68287
一個	-8.68314
無為	-8.68315
尚	-8.68346
致	-8.68596
如論	-8.6868
伏	-8.68709
養	-8.68731
外道	-8.68898
邊	-8.68977
解釋	-8.69021
路	-8.6989
哩	-8.69943
。」】「	-8.7001
907	-8.70135
因果	-8.70246
大眾	-8.7041
北	-8.70731
二釋	-8.70774
思維	-8.71149
此是	-8.71353
因此	-8.71418
藥	-8.71631
又問	-8.71663
亂	-8.71935
。」(	-8.7206
以此	-8.7206
諸天	-8.72097
三乘	-8.72184
太子	-8.72199
虛空	-8.72281
過去	-8.72354
貪著	-8.7251
聖人	-8.7253
他人	-8.72719
染	-8.72756
佛如來	-8.72803
竟	-8.73115
犯	-8.7321
一念	-8.73359
利益	-8.7338
積	-8.73415
曾	-8.73505
大士	-8.73952
肉	-8.73989
華	-8.741
部分	-8.74202
沒	-8.74368
座	-8.74444
次第	-8.74534
自己	-8.74656
三昧	-8.74715
歎	-8.74766
齋	-8.74771
伽	-8.7485
經文	-8.75118
燈	-8.75214
變	-8.75225
甚	-8.75242
裏	-8.75279
遂	-8.75503
正法	-8.75539
救	-8.7554
之法	-8.75649
佛說	-8.75658
此中	-8.75667
寧	-8.75831
相續	-8.75839
亡	-8.75859
蓋	-8.76088
之後	-8.76311
勤	-8.76431
感	-8.76509
治	-8.76605
不住	-8.76733
圓	-8.76815
進	-8.77152
尼	-8.77508
初中分	-8.77958
婆羅門	-8.78172
內容	-8.78196
迦	-8.78206
制	-8.78222
放	-8.78267
反	-8.78699
沙門	-8.78762
代	-8.78904
之理	-8.78981
計	-8.7924
顛倒	-8.79337
發心	-8.79506
我等	-8.79509
智者	-8.7951
均	-8.79545
悉皆	-8.7956
傷	-8.79619
若有	-8.79976
觀察	-8.80159
覆	-8.80332
推	-8.80983
速	-8.80995
室	-8.80998
給	-8.81116
嚩	-8.81238
據	-8.81459
諸眾生	-8.81649
輪迴	-8.81661
節	-8.81827
不淨	-8.81839
當時	-8.82321
i	-8.82429
宣	-8.82696
龍	-8.82716
老	-8.83
靜	-8.8306
古	-8.83269
機	-8.83312
此三	-8.83422
虛	-8.83441
舍	-8.83626
大悲	-8.83638
縛	-8.83654
音	-8.83897
未來	-8.84357
勿	-8.84678
遇	-8.84923
亦不	-8.85004
祇	-8.85107
昔	-8.85122
之因	-8.8521
底	-8.8537
ā	-8.85372
辨	-8.85391
禪定	-8.85394
成佛	-8.85467
帙	-8.85557
訶	-8.85637
關於	-8.85783
舌	-8.85847
三種	-8.86099
這樣	-8.86147
所依	-8.86336
設	-8.86338
光明	-8.86382
屬	-8.86569
能生	-8.86633
淨土	-8.87446
辭	-8.87716
紙	-8.87979
任	-8.88192
精	-8.88196
無我	-8.88295
權	-8.88437
雙	-8.8849
河	-8.88561
實相	-8.88583
佛性	-8.8889
宜	-8.88944
佛法	-8.89075
法門	-8.89222
降	-8.89464
亦名	-8.89471
寂滅	-8.8954
相應	-8.89648
望	-8.89729
由此	-8.8975
講	-8.89751
提	-8.8985
習	-8.89853
頌曰	-8.89898
皈依	-8.90117
俗	-8.90275
獲	-8.90292
申	-8.90317
尾	-8.90557
點	-8.90597
輕	-8.90667
善惡	-8.90766
》(	-8.90976
南	-8.91064
容	-8.91243
目錄	-8.91424
元	-8.91456
陳	-8.91589
收	-8.91918
支	-8.91982
生滅	-8.91996
嚴	-8.92295
毗	-8.92335
切	-8.92356
待	-8.92421
易	-8.92427
眷屬	-8.92482
有三	-8.92746
遊	-8.92811
內外	-8.93079
麼	-8.93121
靈	-8.93198
倒	-8.93393
陰	-8.9351
寂	-8.93631
資	-8.93652
維摩詰	-8.93764
這種	-8.93919
大王	-8.94048
?」【	-8.94312
燒	-8.94398
一切法	-8.94433
蓮花	-8.94456
自身	-8.94497
消	-8.94554
受用	-8.94853
之所	-8.94901
可見	-8.94927
脫	-8.95312
備	-8.95421
守	-8.95436
幾	-8.9551
彌	-8.95618
四大	-8.95773
志	-8.95847
認為	-8.95904
無上	-8.95954
所作	-8.96074
毒	-8.96175
氣	-8.96375
玄	-8.96418
末	-8.96438
恭敬	-8.96542
沙	-8.96815
疾	-8.97047
宗密	-8.97051
簡	-8.97076
漏	-8.97091
繫	-8.97127
棄	-8.97206
野	-8.97276
回	-8.97301
中的	-8.97557
墮	-8.9756
今日	-8.97595
作為	-8.97691
身心	-8.97783
尊者	-8.97917
娑	-8.97949
癡	-8.98238
懷	-8.98309
損	-8.98747
序	-8.9884
恒	-8.98925
菩提心	-8.99037
已下	-8.99409
什曰	-8.99556
縱	-8.99685
君	-8.99795
個	-8.99961
等也	-8.99991
雖然	-9.00057
殊勝	-9.00435
留	-9.00607
載	-9.00665
20	-9.00736
故曰	-9.00749
名之為	-9.00821
梵	-9.0084
林	-9.0121
敦煌	-9.01254
解結	-9.01531
最後	-9.01692
十一	-9.01742
第五	-9.01773
e	-9.01846
徒	-9.01901
吽	-9.01934
寫	-9.01963
忘	-9.02133
這一	-9.02207
況	-9.02231
▁《	-9.02351
一樣	-9.024
每	-9.02472
承	-9.02578
諦	-9.02835
對治	-9.02855
r	-9.02902
源	-9.03106
惟	-9.03309
三世	-9.0339
贊	-9.03542
律	-9.03699
無盡	-9.03757
心中	-9.03859
受苦	-9.04195
置	-9.04208
左	-9.04331
迦葉	-9.04697
懺	-9.04701
u	-9.0476
西	-9.04866
現前	-9.0493
辯	-9.04946
有一	-9.04953
,」【	-9.04984
有無	-9.05351
殊	-9.05352
礙	-9.05475
哉	-9.05858
呢	-9.05866
刻	-9.06063
何以得知	-9.06119
經錄	-9.06185
您	-9.0646
平	-9.06552
超	-9.06567
演	-9.06579
詞	-9.066
無礙	-9.06647
決	-9.0685
娘	-9.06992
復次	-9.07156
垢	-9.07199
堅	-9.07223
惱	-9.07333
兒	-9.07507
應知	-9.07602
落	-9.07611
本文獻	-9.07705
隱	-9.07799
煞	-9.07806
可知	-9.08048
善法	-9.08109
題	-9.08172
寶髻	-9.08269
美	-9.08322
殘	-9.08372
談	-9.08688
就是	-9.0887
無所	-9.08987
ḥ	-9.09017
憂	-9.09123
若能	-9.09453
釐米	-9.09664
)「	-9.09723
馬	-9.09816
善根	-9.09818
總結	-9.09902
瞋恚	-9.09931
遣	-9.1007
著錄	-9.10172
受持	-9.10511
建立	-9.10554
長者	-9.10605
懺悔	-9.10645
蒙	-9.10698
含	-9.10823
說明	-9.11027
大藏經	-9.11028
科	-9.11137
金剛經	-9.11157
篇	-9.11182
的人	-9.11337
怖畏	-9.11362
善男子	-9.11418
仰	-9.11454
園	-9.11565
滿足	-9.11658
法性	-9.11754
垂	-9.11863
他的	-9.12085
錄文	-9.12114
半	-9.12302
愚	-9.1269
一者	-9.12723
之義	-9.12851
濟	-9.13008
之事	-9.13243
若不	-9.13352
如是我聞	-9.13469
休	-9.13638
施捨	-9.13663
邪見	-9.13789
頂	-9.13814
薩	-9.14417
之道	-9.14471
車	-9.14504
意識	-9.14726
神通	-9.14803
應該	-9.14804
)(	-9.14883
因為	-9.15066
境界	-9.15289
於意云何	-9.15307
恐	-9.15493
於我	-9.15615
助	-9.15655
12	-9.15716
差	-9.15816
」。「	-9.15829
珠	-9.15865
出生	-9.15868
布施	-9.15986
亦應	-9.1616
分五	-9.16317
冤	-9.16338
廣大	-9.16448
有何	-9.16678
第六	-9.16795
正念	-9.17169
石	-9.17171
守護	-9.17273
s	-9.17284
唐	-9.17302
穢	-9.17302
歲	-9.17332
不善	-9.17369
臨	-9.17378
依據	-9.17445
官	-9.17469
一種	-9.17504
持戒	-9.17526
骨	-9.17584
真實	-9.17948
關	-9.17951
青	-9.17967
本來	-9.18087
毀	-9.18285
群	-9.18297
注	-9.18308
應當	-9.18317
暫	-9.18474
讀	-9.1851
惡趣	-9.18528
東	-9.18571
運	-9.18579
梨	-9.18673
亦有	-9.18686
若無	-9.18782
患	-9.18874
o	-9.18901
文三	-9.19455
右	-9.19481
違	-9.1964
居士	-9.19646
寶藏	-9.19657
答曰	-9.19768
吾	-9.19816
期	-9.1982
亦是	-9.19964
六度	-9.20524
非是	-9.20585
錄文完	-9.20599
三業	-9.20661
鐵	-9.20747
步	-9.20768
五陰	-9.20906
大海	-9.20944
十六	-9.20982
無知	-9.21061
微塵	-9.21113
布	-9.21233
譬如	-9.21297
果報	-9.21336
忍辱	-9.21392
皆是	-9.21529
翻	-9.21663
視	-9.21734
冥	-9.21767
阿羅漢	-9.21822
儀	-9.21972
有二	-9.22185
是非	-9.22218
若爾	-9.22298
藏經	-9.22307
一標	-9.2233
旨	-9.22352
日本	-9.22468
報恩	-9.22504
經云	-9.22622
改	-9.22629
端	-9.22743
畫	-9.22841
怨	-9.22846
朝	-9.22857
早	-9.22886
吒	-9.22899
諸菩薩	-9.23019
具有	-9.23048
種子	-9.23065
際	-9.23097
宮	-9.23151
出世	-9.23156
9	-9.23225
自他	-9.23255
不斷	-9.23376
一心	-9.23443
於是	-9.23536
乞食	-9.23639
若謂	-9.23963
乞	-9.24185
例	-9.24254
欲界	-9.2429
該經	-9.24506
淨名	-9.24519
爾時世尊	-9.24562
走	-9.24606
獄	-9.24618
免	-9.24671
鬼	-9.24723
典籍	-9.2476
士	-9.24918
敬福經	-9.24946
喃	-9.25039
缺	-9.25045
睹	-9.25059
圓珍	-9.25064
而生	-9.25076
互	-9.2508
黑	-9.25087
二種	-9.25198
很	-9.25279
六根	-9.25573
m	-9.25613
生活	-9.25626
補特伽羅	-9.25824
:『	-9.25832
又解	-9.26061
咸	-9.26106
敘	-9.26127
交	-9.26136
g	-9.26149
所見	-9.26202
?】「	-9.26207
中間	-9.26433
退	-9.26442
前後	-9.26451
獻	-9.26591
亦非	-9.26711
眾多	-9.27036
列名	-9.27058
賊	-9.27103
得到	-9.27121
露	-9.2719
不受	-9.27226
如下	-9.27252
服	-9.27303
稽首	-9.27329
愚癡	-9.2736
能令	-9.27545
一般	-9.27555
質	-9.27677
著作	-9.27703
11	-9.27737
法師	-9.27902
雨	-9.27983
～	-9.28086
王子	-9.28161
逐	-9.28244
任何	-9.28268
附	-9.28383
二明	-9.28409
法相	-9.2853
中國	-9.28737
產生	-9.28752
所生	-9.28864
弘	-9.28912
39	-9.28946
做	-9.29083
飛	-9.29233
大正藏	-9.29298
——	-9.29402
十四	-9.29425
根據	-9.29492
飲食	-9.29622
一部	-9.29629
壽	-9.29868
接	-9.30064
器	-9.30088
玉	-9.30168
常住	-9.30262
文二	-9.30265
如幻	-9.30305
完全	-9.30353
t	-9.30541
安立	-9.30566
木	-9.3072
實際	-9.30735
世俗	-9.30786
憑	-9.30793
祖	-9.30824
之苦	-9.30852
特	-9.3103
賢	-9.3108
編	-9.31264
都是	-9.31362
ta	-9.31384
章	-9.3144
察	-9.31551
思想	-9.31552
適	-9.31552
正覺	-9.3164
鉢	-9.31671
吧	-9.31735
徵	-9.31755
不思議	-9.31881
遠離	-9.31889
盛	-9.31943
威儀	-9.31971
了知	-9.32021
鳥	-9.3203
十八	-9.32337
文獻	-9.32372
撰	-9.32375
災	-9.32529
無間	-9.32557
漸	-9.32613
不起	-9.3264
誠	-9.32676
詣	-9.32688
典	-9.3269
背	-9.32749
太	-9.32768
陀羅尼	-9.3289
四種	-9.329
補	-9.329
為了	-9.32912
按照	-9.33003
建	-9.33028
帶	-9.33028
餓鬼	-9.33209
群生	-9.33284
顯現	-9.33485
毛	-9.33749
出三藏記集	-9.34091
開元錄	-9.34248
所以者何	-9.34281
跡	-9.34353
禁	-9.34381
願共	-9.34451
□□	-9.34679
根本	-9.34717
五百	-9.34746
之處	-9.34801
若人	-9.3486
看到	-9.3497
何以	-9.35262
彼等	-9.35307
十三	-9.35382
壇	-9.35395
修道	-9.35504
905	-9.35524
牛	-9.35586
鬼神	-9.35599
累	-9.35601
思惟	-9.35673
有關	-9.35793
不離	-9.35826
正見	-9.35846
自體	-9.36086
色界	-9.36174
娑婆	-9.36383
三明	-9.36403
宿	-9.36532
一乘	-9.36534
我身	-9.36592
)。(	-9.3671
越	-9.36761
此身	-9.36984
專	-9.37065
影	-9.37171
之身	-9.37249
安住	-9.37296
成辦	-9.37393
黃	-9.37446
幻	-9.3756
大師	-9.37885
堪	-9.37934
所知	-9.37955
亦復如是	-9.37981
流傳	-9.38013
彼於	-9.38017
公	-9.38094
百千	-9.38161
文殊	-9.3823
秘密	-9.38287
我所	-9.38366
問題	-9.38408
窮	-9.38457
隸	-9.38526
詳	-9.38643
成為	-9.38847
相同	-9.38862
各種	-9.38881
妄想	-9.38945
包括	-9.38986
厭	-9.39094
論述	-9.39127
宋	-9.39177
痛	-9.39215
不可思議	-9.39216
沉	-9.39239
兼	-9.39281
;」【	-9.39486
其心	-9.39787
耆那教	-9.3999
七日	-9.40008
一明	-9.40032
!」	-9.40089
苦樂	-9.40371
返	-9.40378
惠	-9.40408
抄寫	-9.40482
堂	-9.40647
勞	-9.40703
所緣	-9.40847
六道	-9.4117
一些	-9.41176
釋迦	-9.41276
抄本	-9.41371
聖者	-9.41416
在此	-9.41467
▁ca	-9.41552
領	-9.41557
星	-9.41599
無色	-9.41682
打	-9.41734
那麼	-9.41792
髮	-9.41802
各各	-9.41869
笑	-9.41922
善哉	-9.41925
天地	-9.42002
汝等	-9.42014
人們	-9.42122
頓	-9.42124
彌勒	-9.42149
遭	-9.42393
增長	-9.42478
臣	-9.42546
三者	-9.42604
不成	-9.42627
諸有情	-9.42683
舊	-9.42753
熱	-9.42757
不異	-9.42767
互相	-9.42811
三藏	-9.42946
網	-9.43112
0	-9.43141
血	-9.43227
同一	-9.43229
......	-9.43256
後世	-9.43265
嚕	-9.43279
痛苦	-9.43332
亦如是	-9.43337
必須	-9.43458
唯有	-9.43501
不二	-9.43787
啟	-9.43807
漢	-9.4403
本無	-9.44133
唱	-9.44225
逆	-9.44413
於諸	-9.44551
馱	-9.44652
生於	-9.44832
『	-9.44862
佛告	-9.44872
抄	-9.45048
納	-9.45224
化身	-9.45267
作用	-9.45339
僧祐	-9.45371
盲	-9.45465
生曰	-9.45549
誓	-9.45675
住處	-9.45684
入藏錄	-9.45806
慮	-9.45817
題解	-9.45864
若干	-9.45936
整理	-9.45947
發願	-9.46296
五欲	-9.4633
較	-9.46413
以後	-9.46424
能成	-9.46734
1.	-9.47026
焰	-9.47157
固	-9.47165
彰	-9.47204
葉	-9.47231
草	-9.47242
寂靜	-9.47299
帝釋	-9.47451
24	-9.47547
無不	-9.47561
可得	-9.47768
同時	-9.47812
日月	-9.47879
發起	-9.47892
本節	-9.4792
非有	-9.4793
頭陀	-9.48166
登	-9.48361
帕瑪瓦蒂	-9.48457
活動	-9.48458
大德世尊	-9.48518
遺	-9.48544
自心	-9.48591
闇	-9.48637
甘露	-9.48661
它們	-9.48677
赤	-9.48757
通達	-9.48866
夢	-9.48939
ṃ	-9.49289
慢	-9.49314
編纂	-9.49343
āḥ	-9.49358
又云	-9.49394
田	-9.49507
四諦	-9.49569
念念	-9.49589
纔	-9.49671
為人	-9.49679
一人	-9.49719
拜	-9.4977
投	-9.49841
』	-9.499
短	-9.49928
圖	-9.49956
堅固	-9.50014
出現	-9.50042
增上	-9.50052
ś	-9.5006
還有	-9.501
最勝	-9.50214
泥	-9.50224
但是	-9.50416
整理者	-9.50495
比較	-9.50606
凡聖	-9.50655
以及	-9.50775
不為	-9.50962
體性	-9.50982
延	-9.51101
10	-9.51249
熟	-9.51272
那些	-9.51293
州	-9.51443
禮拜	-9.51458
劣	-9.51497
契	-9.51513
七寶	-9.51568
其身	-9.51627
左右	-9.51655
禪師	-9.51684
兩種	-9.51688
殃	-9.51692
不是	-9.52113
底本	-9.52116
不可得	-9.52147
送	-9.52166
飯	-9.52342
,1	-9.52356
軍	-9.52427
所攝	-9.52448
加行	-9.52476
如果	-9.52574
16	-9.52577
張	-9.52605
諍	-9.52659
▁D	-9.52663
訖	-9.52668
鑒	-9.52715
欲求	-9.52729
飲	-9.52829
稱為	-9.52853
總標	-9.52855
消災延壽藥師佛	-9.52908
王后	-9.52923
祗	-9.52928
寒	-9.52929
)、「	-9.53065
之果	-9.53088
萬行	-9.53125
云云	-9.53155
第八	-9.53156
ya	-9.53198
和合	-9.53297
情況	-9.53329
女人	-9.53397
則無	-9.53539
地藏	-9.53676
問也	-9.54048
有四	-9.54061
念佛	-9.54115
諦實	-9.54155
判	-9.54159
清涼	-9.54393
依止	-9.54398
洗	-9.54403
不捨	-9.54421
如是見	-9.54431
導師	-9.54471
第七	-9.5457
14	-9.54613
偽	-9.54783
摧	-9.5479
羅漢	-9.54861
法也	-9.54952
天神	-9.55279
所造	-9.55339
15	-9.55364
於中	-9.55427
2.	-9.55513
多聞	-9.55521
此四	-9.55528
頁	-9.5571
我慢	-9.55773
普賢	-9.55779
歷	-9.55793
懈怠	-9.55813
行者	-9.55863
30	-9.55913
廢	-9.5601
僧人	-9.56015
乳	-9.56048
問疾	-9.5609
終不	-9.56163
元年	-9.56167
五種	-9.5637
屬於	-9.56394
發現	-9.56452
以上	-9.56583
註	-9.56586
拏	-9.56685
無心	-9.56798
為因	-9.56819
嘆	-9.56897
所得	-9.56979
校本	-9.57014
恭	-9.57031
廣說	-9.57143
不定	-9.57229
割	-9.57288
藥師	-9.57316
收入	-9.57335
暗	-9.57358
畏	-9.57366
喪	-9.57378
折	-9.57389
貧	-9.57406
融	-9.57406
只	-9.5751
辰三	-9.57514
三十	-9.57538
雖有	-9.57582
威	-9.57628
聖賢	-9.57908
是為	-9.57996
民	-9.58037
之相	-9.58315
闕	-9.58522
不如	-9.58535
畢	-9.58536
未能	-9.58649
如法	-9.58661
。9	-9.58708
歸依	-9.58795
按	-9.58799
之門	-9.58844
無餘	-9.58882
愈	-9.58938
迹	-9.58939
浮	-9.59014
29	-9.59102
經論	-9.59242
資料	-9.5939
文云	-9.59428
主要	-9.59564
梵行	-9.59664
心所	-9.59668
而言	-9.59687
19	-9.59702
相好	-9.59791
有相	-9.59947
自己的	-9.60056
饒益	-9.60069
9、	-9.601
色身	-9.6013
為我	-9.60188
上下	-9.60237
四句	-9.60282
修習	-9.60286
虛妄	-9.60301
儀當演	-9.60388
文殊師利	-9.60489
歌讚	-9.60496
賜	-9.60499
當知	-9.60505
徹	-9.60505
須彌	-9.60531
能仁	-9.60568
國土	-9.6071
有人	-9.60792
此初也	-9.60796
否	-9.60944
有為	-9.61174
偈頌	-9.61206
40	-9.61245
名稱	-9.61251
緣起	-9.61341
單	-9.61561
活	-9.61711
校	-9.6178
大慈大悲	-9.61857
。10	-9.61884
巧	-9.61921
疑偽經	-9.61921
誤	-9.61926
妻	-9.61963
解冤釋結	-9.62017
臥	-9.62097
。」《	-9.62216
22	-9.62221
看來	-9.62265
池	-9.62359
是否	-9.62398
而起	-9.62636
一切有情	-9.6277
我當	-9.62884
如來說	-9.63158
十種	-9.63276
皆由	-9.63387
d	-9.63398
揚	-9.63566
灑	-9.63584
。」「1	-9.6359
階	-9.63638
刀	-9.63697
合掌	-9.63732
跋	-9.63748
或有	-9.63757
獲得	-9.63759
而已	-9.63761
福田	-9.63869
無義	-9.6395
別釋	-9.64272
仁	-9.64284
如前	-9.64303
參	-9.64319
亦爾	-9.64335
佈施	-9.64402
法寶	-9.64406
吉祥	-9.64425
名曰	-9.64443
話	-9.64528
此下	-9.64541
人民	-9.64642
進行	-9.64755
復有	-9.64879
途	-9.64979
耆那教認為	-9.65015
是人	-9.6507
謹	-9.65075
叫	-9.65083
其後	-9.65186
上來	-9.65199
淨度經	-9.65279
盜	-9.65304
禪宗	-9.65305
呼	-9.65317
招	-9.65345
摩尼	-9.65398
結合	-9.65417
曩	-9.65435
初中言	-9.65436
焉	-9.65442
不了	-9.65546
善巧	-9.65553
流通	-9.65564
答言	-9.65755
般	-9.65838
此時	-9.66007
志心	-9.66106
貴	-9.66202
配	-9.66278
以來	-9.66284
變化	-9.66295
無記	-9.66328
圓成	-9.66365
等者	-9.66403
有二種	-9.66461
佛土	-9.66496
恨	-9.6655
如如	-9.66558
的內容	-9.66613
大小	-9.66627
而得	-9.66705
爭	-9.66803
濁	-9.6689
一切智	-9.6689
擬	-9.66898
幽	-9.66993
怛	-9.67009
寬	-9.67033
問答	-9.67137
案	-9.67139
大慈悲	-9.6765
密教	-9.67774
敵	-9.67843
21	-9.67844
亦如	-9.67856
聖教	-9.6786
哀	-9.67913
珍	-9.68271
欺	-9.68302
題記	-9.68341
逢	-9.68348
敢	-9.68381
相違	-9.68426
參見	-9.68463
有漏	-9.68469
謝	-9.68496
非常	-9.68524
借	-9.68546
天下	-9.68557
無形	-9.68621
十七	-9.68718
十五	-9.68751
不著	-9.68887
方法	-9.68897
▁「	-9.69025
波羅蜜	-9.69184
而無	-9.69279
之罪	-9.69424
悔	-9.69426
則是	-9.69445
三毒	-9.69515
善女人	-9.69755
行人	-9.69809
此人	-9.69835
良	-9.69875
過患	-9.69925
存在	-9.70122
連	-9.70128
聽到	-9.70152
同前	-9.70156
調	-9.70199
勢	-9.70292
願我	-9.7031
906	-9.70325
天人	-9.70365
讀誦	-9.70372
×	-9.70373
偏	-9.70403
意樂	-9.7058
障礙	-9.70644
。』	-9.70676
施主	-9.70678
形態	-9.70891
富	-9.70901
條	-9.70982
本節意為	-9.71071
故不	-9.71124
有異	-9.7121
至於	-9.71278
名相	-9.71449
統	-9.71464
快樂	-9.71487
而成	-9.71637
宗教	-9.71701
導	-9.71771
此外	-9.71843
史	-9.71885
授	-9.71926
在於	-9.71936
琉璃	-9.72011
驗	-9.72062
奇	-9.72099
此云	-9.72146
披	-9.72188
謀	-9.72203
驚	-9.72226
賀	-9.72263
魚	-9.72291
成立	-9.72305
虎	-9.7231
不信	-9.72361
香花	-9.72783
什麼	-9.72813
色等	-9.72855
之一	-9.72919
若於	-9.72981
的研究	-9.73061
齋日	-9.7315
4、	-9.73158
謗	-9.73192
所言	-9.73201
今時	-9.73232
不須	-9.73262
學者	-9.73424
自有	-9.73433
不作	-9.73518
希	-9.73551
悅	-9.73575
掌	-9.73617
親友	-9.73683
世人	-9.73714
擔	-9.73721
怖	-9.73775
考	-9.7381
忽	-9.73894
北新	-9.73905
腳	-9.73912
此事	-9.7395
江	-9.7402
急	-9.74038
危	-9.74078
;「	-9.74097
見佛	-9.74136
法事	-9.74152
大聖	-9.74191
自利	-9.74248
勤修	-9.74299
圓明	-9.74324
總持	-9.74332
懼	-9.74352
僧法	-9.74466
廣解	-9.74477
聞法	-9.74545
敦煌遺書	-9.74761
義也	-9.74793
故應	-9.75013
先生	-9.75099
審	-9.75105
可能	-9.7512
其時	-9.75372
神力	-9.75448
禮佛	-9.75491
眾等	-9.75508
世親論	-9.75528
伺	-9.75529
憐憫	-9.7561
男	-9.75629
慶	-9.75664
燃	-9.75718
智昇	-9.75751
沒馱	-9.75755
橫	-9.75759
作者	-9.75797
何況	-9.75827
文軌	-9.75884
佛告阿難	-9.75998
十九	-9.76025
即為	-9.76092
六塵	-9.76132
無始	-9.76135
拔	-9.76157
時間	-9.7619
發菩提心	-9.76199
卷第	-9.76334
度眾生	-9.76351
以下	-9.76354
利他	-9.76367
的是	-9.76371
。】「(	-9.76476
隨喜	-9.76501
大體	-9.76524
天上	-9.76581
損害	-9.76582
時期	-9.76626
印度	-9.76753
佛身	-9.76894
名字	-9.76986
損惱	-9.77196
在空衣派的刊本中	-9.77309
最上	-9.7732
13	-9.77328
消滅	-9.77371
亦能	-9.77391
東域	-9.77406
遵	-9.77486
酬	-9.7751
劍	-9.77529
負	-9.77531
看著	-9.77531
文四	-9.77544
倍	-9.77572
吉	-9.77576
波羅	-9.7758
曉	-9.77597
天台	-9.77597
省	-9.7763
瑟吒	-9.77639
皆得	-9.77683
不少	-9.77692
薩嚩	-9.77716
提出	-9.7779
奴	-9.77792
無分別	-9.77848
觀音	-9.77926
大臣	-9.77972
之外	-9.77985
曾經	-9.77998
顧	-9.78001
能知	-9.78008
希有	-9.78021
怨敵	-9.7809
不識	-9.78148
鬼王	-9.78286
所欲	-9.78297
我見	-9.78397
此即	-9.78408
學處	-9.7845
何所	-9.78594
經中	-9.78718
17	-9.7872
翻譯	-9.78816
敷	-9.78929
非真	-9.7897
過失	-9.79007
這是	-9.7902
西方	-9.79045
n	-9.79132
一心頭面禮	-9.79235
A	-9.79236
亦可	-9.79278
我要	-9.79359
涉	-9.7938
天台教典	-9.79392
能斷	-9.79397
乾	-9.79417
顏	-9.79439
責	-9.79479
皮	-9.79506
為說	-9.79563
畜生	-9.79707
華嚴	-9.79788
所收	-9.79845
迴	-9.79972
另	-9.80064
子二	-9.80197
此明	-9.80213
即有	-9.80302
何時	-9.80335
多少	-9.80423
斷除	-9.80466
場	-9.80476
或為	-9.80505
k	-9.80529
頗	-9.80619
瑜伽	-9.80648
教主	-9.80696
纏	-9.80771
c	-9.80772
第九	-9.80825
25	-9.81032
氏	-9.81071
濕	-9.81184
殘片	-9.81288
二十	-9.81297
重要	-9.81305
諸根	-9.81306
恚	-9.81342
喜悅	-9.81366
何謂	-9.81417
務	-9.81439
泥犁	-9.8144
弟	-9.81509
兵	-9.81536
韻	-9.81539
佉	-9.81555
ra	-9.81579
酒	-9.81592
佛典	-9.81606
卿	-9.81698
安然	-9.81747
苦行	-9.81754
調伏	-9.8178
讓	-9.81829
並不	-9.81901
所有的	-9.81989
故說	-9.82129
一向	-9.82151
人身	-9.82222
18	-9.82247
四生	-9.82254
心念	-9.82329
諸經	-9.8246
所求	-9.82602
禮請	-9.82911
6、	-9.82951
彌勒頌曰	-9.83119
之間	-9.83172
謂之	-9.83172
即興而說	-9.8321
如是知已	-9.83249
大孝釋迦牟尼佛	-9.8327
索	-9.83287
無異	-9.83312
至今	-9.83359
能為	-9.83368
錢	-9.83391
樹下	-9.83393
勇	-9.83402
朋友	-9.83409
善知識	-9.83428
寄	-9.83482
淫	-9.83484
男女	-9.83492
庶	-9.83504
春	-9.83565
修多羅	-9.83604
覓	-9.83629
降伏	-9.83637
/	-9.83641
保	-9.83651
甚深	-9.83653
基本	-9.83673
何處	-9.83706
又復	-9.83888
之力	-9.84108
遙	-9.84254
於他	-9.84305
不復	-9.8434
住於	-9.84422
(「	-9.84453
不在	-9.84703
儀軌	-9.84717
師子	-9.84764
分六	-9.84796
之類	-9.84852
信心	-9.84867
二諦	-9.84877
得道	-9.84902
就中	-9.8493
移	-9.84987
法者	-9.85168
殿	-9.85229
同樣	-9.85259
以前	-9.85266
G	-9.85276
祥	-9.85391
47	-9.85399
客	-9.85403
祈	-9.85407
茲	-9.85438
薄	-9.85469
潤	-9.85495
你們	-9.856
何等為	-9.85634
萬法	-9.85706
所成	-9.85814
大地	-9.85857
3.	-9.85866
一日	-9.85889
靜慮	-9.85951
處處	-9.85961
正智	-9.85966
授記	-9.85973
生天	-9.86021
友	-9.86047
若見	-9.86074
道理	-9.86138
段	-9.86211
剎那	-9.86247
薩婆	-9.86381
見於	-9.86383
唯是	-9.86419
本經	-9.86489
首題	-9.86696
當然	-9.86857
詮	-9.86948
微妙	-9.8709
3、	-9.87135
十地	-9.87173
彩	-9.87202
叉	-9.87269
系統	-9.87286
寶石	-9.87322
酉	-9.87347
不退	-9.87379
。7	-9.87389
維摩經	-9.87403
封	-9.87455
憶念	-9.87476
散亂	-9.87548
完成	-9.87672
的經典	-9.87678
消除	-9.87679
無限	-9.87682
。6	-9.87726
事業	-9.87731
所引	-9.87767
失壞	-9.87853
2、	-9.88078
雖復	-9.88256
善業	-9.88328
v	-9.88412
無垢	-9.88499
必有	-9.88629
無作	-9.88666
比丘眾	-9.88721
惡業	-9.88821
之前	-9.88909
4.	-9.89093
S	-9.89249
分十	-9.89264
處所	-9.89326
敘述	-9.89329
闍	-9.89408
既無	-9.89437
減	-9.89461
圍	-9.89483
乖	-9.89515
婬	-9.89564
不滅	-9.89612
懸	-9.89639
正是	-9.89648
始終	-9.89672
知道	-9.90115
誰能	-9.90176
空中	-9.90203
性相	-9.90443
佛經	-9.90484
則有	-9.90526
文中	-9.90619
胎	-9.90631
還是	-9.90673
大德	-9.90786
相似	-9.90832
證明	-9.90869
非法	-9.90889
版	-9.90903
23	-9.90986
須菩提言	-9.91009
na	-9.91038
確	-9.91069
經言	-9.91078
」)	-9.91139
才	-9.912
方面	-9.91295
報身	-9.9141
籍	-9.91434
註疏	-9.91435
佛陀	-9.9148
洲	-9.91502
隔	-9.91511
尤	-9.91519
錯	-9.91571
犢子	-9.91588
陽	-9.91641
孤	-9.91641
精神	-9.91644
流轉	-9.91708
則為	-9.91721
開始	-9.91746
疑惑	-9.91793
魯	-9.91828
不可以	-9.91845
之境	-9.9188
義利	-9.91947
心生	-9.92009
不過	-9.92058
如其所	-9.92068
通過	-9.9207
無數	-9.92115
不許	-9.92395
到了	-9.92467
不實	-9.92547
無別	-9.92567
化生	-9.927
何不	-9.92718
各有	-9.92796
唯一	-9.92799
偉大的	-9.92859
亦然	-9.92911
亦即	-9.92912
四者	-9.92992
空寂	-9.93042
論文	-9.93072
相對	-9.93105
限	-9.93239
另一	-9.93423
悲心	-9.93433
指出	-9.93482
塗	-9.93505
sya	-9.9352
崇	-9.93655
△	-9.93663
全部	-9.9375
奉獻	-9.93764
戀	-9.93766
蘇	-9.93775
圍繞	-9.93779
私	-9.93787
行也	-9.93799
舒	-9.9381
寫作	-9.93826
宅	-9.93833
測	-9.93845
身體	-9.93849
頂禮	-9.93864
霑	-9.9388
付	-9.93884
教誡	-9.93901
入於	-9.93911
吠	-9.93932
解冤結菩薩	-9.93935
大慈	-9.93965
就象	-9.94023
冤家	-9.94115
實體	-9.94158
原因	-9.94174
妙法	-9.94192
隨順	-9.94271
入藏	-9.94278
言說	-9.94329
空生	-9.94384
顯示	-9.94434
為本	-9.94504
令其	-9.94555
祇有	-9.94645
其人	-9.94683
廣釋	-9.94753
異熟	-9.94776
億	-9.94823
。5	-9.94837
。4	-9.94879
造作	-9.94954
心無	-9.95054
是其	-9.95108
諸苦	-9.95214
而為	-9.95235
五根	-9.9533
二卷	-9.95352
塔	-9.95363
侍	-9.95403
空性	-9.95417
童子	-9.95471
寫本	-9.95595
殘卷	-9.95654
姓	-9.95698
即無	-9.95744
故名為	-9.95799
五識	-9.95801
昇	-9.95805
伊呬	-9.95876
伸	-9.95901
金色	-9.9592
彌陀	-9.95927
喬答摩	-9.95934
功能	-9.95934
灌頂	-9.95976
人中	-9.96003
倫	-9.96004
幡	-9.9602
儀文	-9.96036
蛇	-9.96037
:】「	-9.96055
資糧	-9.96059
讚揚	-9.96081
蟲	-9.96093
自二	-9.9613
慈心	-9.96152
鄉	-9.96161
眉	-9.96199
攝受	-9.96216
1、	-9.96249
即非	-9.96257
父王	-9.96366
娑嚩	-9.96373
古今	-9.96397
〕「	-9.96417
心不	-9.96451
修善	-9.96522
不會	-9.96591
引用	-9.9666
略釋	-9.96669
值	-9.96747
有大	-9.97023
命終	-9.9709
士夫	-9.97091
項	-9.97093
自行	-9.97412
vi	-9.97452
證菩提	-9.97468
眾苦	-9.975
當來	-9.97524
法中	-9.97528
若時	-9.97561
無法	-9.97633
演說	-9.97688
三千	-9.97738
法華	-9.9774
天女	-9.97777
及其	-9.97849
三時	-9.97851
我國	-9.97974
六識	-9.97978
仙	-9.9798
不也世尊	-9.98045
鏡	-9.98052
天子	-9.98101
滅盡	-9.98143
幸福	-9.98201
有所	-9.98224
對於	-9.98275
蘭	-9.98299
雪	-9.98306
敬禮	-9.98315
吃	-9.98324
缽	-9.98375
楞嚴	-9.98383
碎	-9.98393
東方	-9.98399
油	-9.98403
猛	-9.98421
研	-9.98429
不樂	-9.98455
刺	-9.98462
幸	-9.98477
富貴	-9.98486
薩婆訶	-9.9849
所撰	-9.98495
孝行	-9.98536
無人	-9.98562
剎	-9.98568
目前	-9.98594
它的	-9.98602
能除	-9.98615
避	-9.9864
龍王	-9.98658
科儀	-9.98683
遮止	-9.98704
天眼	-9.9871
精勤	-9.98781
應為	-9.98814
得解脫	-9.98822
受生	-9.98837
斷疑	-9.98873
捨身	-9.98898
46	-9.98908
。8	-9.98995
兩個	-9.99027
語言	-9.99067
為虛妄	-9.99125
經藏	-9.99126
以不	-9.9913
記載	-9.99133
摩耶	-9.9917
若言	-9.99322
比丘尼	-9.99383
此法	-9.99458
擊	-9.99578
達摩	-9.99622
現存	-9.99762
其所	-9.99771
執持	-9.99772
佛道	-9.99777
不然	-9.99909
誦經	-9.99931
即使	-10.0006
一相	-10.0016
即以	-10.0026
所行	-10.0026
我之	-10.0027
意為	-10.0031
三世諸佛	-10.0032
族	-10.0036
怒	-10.0036
派	-10.0037
則不	-10.0041
旋	-10.0044
念誦	-10.0044
於法	-10.0053
發生	-10.0054
努力	-10.0056
夫人	-10.0058
貞元	-10.0059
澄	-10.0059
託	-10.006
行道	-10.006
渡	-10.0064
慎	-10.0067
朗	-10.0068
召	-10.0074
履	-10.0079
曲	-10.0083
無校本	-10.0087
不壞	-10.0088
不以	-10.0099
依此	-10.0118
戒律	-10.0129
無色界	-10.0146
勝解	-10.0157
無住	-10.0162
之功德	-10.0178
不盡	-10.0187
若為	-10.0187
y	-10.019
是也	-10.0192
成正覺	-10.0194
的情況	-10.0197
六種	-10.0205
關係	-10.0212
之言	-10.0215
利養	-10.022
三卷	-10.0221
無畏	-10.0224
問曰	-10.0228
充	-10.0235
完	-10.0236
.)」「	-10.0241
勵力	-10.0251
放逸	-10.0253
怪	-10.0257
下至	-10.0257
淺	-10.026
禁誓	-10.0269
昏	-10.027
若是	-10.0277
若以	-10.0282
憶	-10.0289
故有	-10.0289
另外	-10.029
然而	-10.0291
杖	-10.0294
有些沙門	-10.0298
准	-10.0299
優	-10.03
起來	-10.03
防護	-10.03
竭	-10.0303
不依	-10.0305
慕	-10.0305
驅	-10.0305
床	-10.0305
雄	-10.0307
饑	-10.0307
大方便佛報恩經	-10.0308
?」「	-10.0308
愚夫	-10.0311
表示	-10.0311
祭	-10.0316
宣揚	-10.0317
北方	-10.0318
狂	-10.0319
度脫	-10.0325
萬物	-10.0327
法華經	-10.033
下來	-10.0341
整理本	-10.0361
諸行	-10.0364
種智	-10.0371
畢竟	-10.0371
唯識	-10.0373
成道	-10.0375
時代	-10.0383
大種	-10.0415
在家	-10.0418
奉行	-10.0425
所述	-10.0427
結集	-10.0434
滯	-10.0438
無窮	-10.0438
相當	-10.0442
畜	-10.0442
那個	-10.045
緣覺	-10.0461
而有	-10.0474
不覺	-10.0479
實有	-10.0482
菩薩行	-10.0484
既有	-10.0488
冊	-10.0489
有六	-10.0496
勝義	-10.0509
27	-10.0514
歡	-10.0519
解冤結	-10.0523
院	-10.0523
開元入藏錄	-10.0529
恣	-10.0533
夜叉	-10.0539
弱	-10.054
諦聽	-10.0543
防	-10.0543
仗	-10.0548
恆	-10.055
逃	-10.0551
銘	-10.0552
依怙	-10.0552
素	-10.0552
薩埵	-10.0554
赴	-10.0554
缽囉	-10.0555
薩哩嚩	-10.0561
一段	-10.0566
無著論云	-10.0569
般若波羅蜜	-10.0569
理論	-10.0582
有餘	-10.0584
分為	-10.0586
出於	-10.0591
三途	-10.0593
生活中	-10.0593
世上	-10.0596
此等	-10.0597
後有	-10.0599
故能	-10.0605
實無	-10.0606
變異	-10.0608
菩薩摩訶薩	-10.0642
已上	-10.0642
趣入	-10.0653
現世	-10.0659
散花	-10.0663
為他	-10.0665
譬	-10.0668
認識	-10.0684
持經	-10.0699
辦	-10.0711
日常	-10.0727
取捨	-10.0733
不足	-10.0752
產	-10.0759
卷上	-10.0762
原子	-10.0764
決示三種悉地法	-10.0765
係	-10.0768
這部	-10.077
難得	-10.0771
益意經	-10.0772
充滿	-10.0773
卷四	-10.0773
生命	-10.0773
嘗	-10.0775
是我	-10.0775
亡佚	-10.0776
方廣錩	-10.0777
創	-10.0777
皇	-10.0783
〉	-10.0784
大眾志誠	-10.0786
船	-10.0786
儒	-10.0788
御	-10.079
默	-10.0792
組織	-10.0792
奪	-10.0792
飾	-10.0793
忠	-10.0794
丑三	-10.0795
晚	-10.0796
牽	-10.0796
快	-10.0796
藉	-10.0797
▁A	-10.0798
隆	-10.0801
別餘	-10.0805
苦惱	-10.0807
滿月	-10.0808
稍	-10.0808
考察	-10.0808
需要	-10.0812
如斯	-10.0815
畔	-10.0816
契經	-10.0819
法施	-10.0829
華嚴經	-10.0833
武	-10.0843
貪愛	-10.0849
身之	-10.085
無論	-10.0852
的業	-10.0855
論主	-10.0856
滅度	-10.0859
一冊	-10.0864
經本	-10.0868
果頭	-10.0872
普與	-10.0873
無學	-10.0874
影響	-10.0874
名色	-10.0879
此下二	-10.0882
於己	-10.0883
佛果	-10.0893
三年	-10.0897
其餘	-10.0907
故經云	-10.0922
盧	-10.0925
而去	-10.0935
一分	-10.0939
五蘊	-10.0944
得阿耨多羅三藐三菩提	-10.0945
不取	-10.0952
業果	-10.0956
中國佛教	-10.0957
瓶	-10.0958
尾題	-10.0984
狀	-10.0986
非我	-10.1
更無	-10.1003
音聲	-10.1012
而是	-10.1016
了了分明	-10.1023
依處	-10.1023
首先	-10.1031
誡	-10.1031
污	-10.1032
侵	-10.1032
冀	-10.1033
如人	-10.1033
此為	-10.1034
此乃	-10.1038
內典錄	-10.1039
純	-10.104
追	-10.104
喚	-10.1046
保護	-10.1047
永遠	-10.1048
術	-10.1049
蔽	-10.105
禍	-10.1051
低	-10.1052
訓	-10.1054
詩	-10.1058
熱惱	-10.1058
伴	-10.106
提綱	-10.106
嫉妒	-10.1061
!】「	-10.1061
司	-10.1061
幻化	-10.1062
伏願	-10.1066
板	-10.1069
兄弟	-10.1072
顯果	-10.1073
而住	-10.1074
有些	-10.1075
如上	-10.1076
釋迦牟尼佛	-10.1077
不生不滅	-10.1078
壽者	-10.1087
孔	-10.1087
不應理	-10.109
積聚	-10.109
蓮	-10.1097
壽量	-10.1102
分析	-10.1105
現生	-10.1109
尊重	-10.1112
並非	-10.1122
眾經	-10.1123
如理	-10.1134
二年	-10.1138
行為	-10.1141
的話	-10.1146
法王	-10.115
染淨	-10.115
為二	-10.1155
所受	-10.1159
其義	-10.1165
」。)	-10.1166
三身	-10.1176
般若波羅蜜多	-10.1182
不僅	-10.12
人間	-10.1202
於一切	-10.1205
紅	-10.1212
本文	-10.1222
眼等	-10.1224
因而	-10.1235
依於	-10.1238
未得	-10.1241
一生	-10.1241
空界	-10.1251
涅槃經	-10.1256
希望	-10.1285
或復	-10.1285
不當	-10.1288
難量	-10.1288
P	-10.1291
秘	-10.1294
所為	-10.1296
立因	-10.1296
〕《	-10.1304
地藏王菩薩	-10.1311
振	-10.1312
夷	-10.1314
響	-10.1314
鎮	-10.1315
貫	-10.1318
喜樂	-10.1319
傾	-10.1319
鉢囉	-10.132
圓覺	-10.132
瘡	-10.1321
愧	-10.1329
毗盧	-10.1329
是經	-10.1331
雙親	-10.1332
救護	-10.1333
里	-10.1336
知見	-10.134
靈藥	-10.134
梵王	-10.1342
善友	-10.1345
皆有	-10.1345
五濁	-10.1345
壽命	-10.1347
空無	-10.1357
此之	-10.1358
是佛	-10.136
這樣的	-10.1361
五趣	-10.1363
8.	-10.1366
三千大千世界	-10.1368
未有	-10.1373
既然	-10.1386
有五	-10.1387
為其	-10.1391
證得	-10.1408
南方	-10.1418
第十	-10.1419
26	-10.1419
顯然	-10.1426
罪業	-10.1434
老死	-10.144
皆為	-10.1449
汝今	-10.1453
五道	-10.1454
為真諦	-10.146
根塵	-10.1467
我心	-10.1473
有其	-10.1475
欲令	-10.1488
人法	-10.1497
刊	-10.1498
實法	-10.1504
賢聖	-10.1505
意義	-10.1514
行相	-10.1546
慧眼	-10.1557
層	-10.1557
貪慾	-10.1559
所講的	-10.1564
繞	-10.1571
夏	-10.1576
消災	-10.1577
逸	-10.1578
北圖	-10.1578
吟偈	-10.1581
偶	-10.1584
房	-10.1586
抱	-10.1587
拘	-10.1587
檢	-10.1587
算	-10.1587
淚	-10.1588
角	-10.1588
直到	-10.1588
十齋日	-10.1589
婦	-10.1592
塞	-10.1594
冠	-10.1595
衣服	-10.1596
一句	-10.1598
臂	-10.1599
書寫	-10.1601
此第二	-10.1604
燃燈	-10.1615
略答	-10.1626
假名	-10.1634
持如是	-10.1637
199	-10.1646
諸見	-10.1668
此處	-10.1673
真理	-10.1676
不染	-10.1686
滅則	-10.1692
一千	-10.1695
不解	-10.1703
岸	-10.1706
無實	-10.1707
如意	-10.1708
28	-10.1713
八萬四千	-10.1721
三門	-10.1723
有此	-10.1726
最高	-10.1726
焚	-10.1733
善行	-10.1737
聞已	-10.1742
萬劫	-10.1742
之名	-10.1745
重罪	-10.1745
入儀	-10.1755
形成	-10.1756
殺生	-10.1775
此名	-10.1788
更有一	-10.1796
經題	-10.1801
洪	-10.1803
是道場	-10.1804
故稱	-10.1813
是指	-10.1818
七種	-10.1819
的著作	-10.1823
甘	-10.1826
不及	-10.1833
B	-10.1834
俯降道場	-10.1841
歌	-10.1845
暮	-10.1847
無由	-10.1848
開元釋教錄	-10.185
本身	-10.185
不令	-10.185
完整	-10.1851
不久	-10.1852
沙彌	-10.1854
于	-10.1857
也就是說	-10.1857
嫌	-10.1857
眾人	-10.1858
截	-10.1863
一點	-10.1863
棺	-10.1863
競	-10.1867
柱	-10.1869
獸	-10.187
亦不能	-10.1873
而作	-10.1874
輒	-10.1874
銀	-10.1874
正行	-10.1874
何為	-10.1877
號背	-10.1877
累劫	-10.1877
歇	-10.1879
戰	-10.188
往昔	-10.188
今當	-10.1886
真如佛性	-10.189
十惡	-10.1893
甚多	-10.1896
未嘗	-10.1897
方式	-10.1898
名號	-10.19
種類	-10.1904
若菩薩	-10.1906
於佛	-10.1911
出入	-10.1914
最初	-10.1919
從而	-10.1923
今言	-10.1936
來看	-10.1937
入涅槃	-10.1942
眼識	-10.1944
孝子	-10.1952
九種	-10.1955
若依	-10.1956
信解	-10.1958
的資料	-10.1963
別人	-10.1968
何用	-10.1971
年代	-10.1974
覺悟	-10.1978
如虛空	-10.198
離垢	-10.1983
原文	-10.1987
亦當	-10.1991
不孝	-10.1993
伽耶	-10.2008
惜	-10.2008
而來	-10.2011
真諦	-10.2017
無自性	-10.2022
無比	-10.2023
身中	-10.203
愛樂	-10.2034
意云	-10.2039
可愛	-10.2046
許多	-10.2049
見聞	-10.2051
五者	-10.206
之意	-10.2061
心歸命禮	-10.2082
四方	-10.2083
法會	-10.2087
不聽	-10.2088
能破	-10.2093
作佛	-10.2096
本覺	-10.2106
聖道	-10.2111
佈	-10.2119
我想	-10.2125
慧琳音義	-10.2126
規	-10.2132
府	-10.2134
旁	-10.2134
傍生	-10.2139
忿	-10.2139
格	-10.2142
側	-10.2144
衰	-10.2144
厚	-10.2144
牟尼	-10.2145
瑞	-10.2147
湯	-10.2147
飄	-10.215
稽首和南	-10.2151
晝夜	-10.2153
讚禮	-10.2155
稱揚	-10.2156
有三種	-10.2158
妻子	-10.2159
於身	-10.2161
謬	-10.2162
作因	-10.2166
5.	-10.2167
有見	-10.2172
無所得	-10.2174
三昧耶	-10.2183
貪瞋	-10.2184
為彼	-10.2185
l	-10.2185
摧伏	-10.2185
應以	-10.2186
無著	-10.2188
撰寫	-10.2189
無用	-10.2189
真正	-10.2199
違背	-10.2201
此五	-10.2202
大迦葉	-10.2207
現行	-10.2216
寶塔	-10.2221
ī	-10.2233
各自	-10.2235
作損惱	-10.224
恒沙	-10.2247
略說	-10.2256
忍受	-10.2258
真經	-10.2265
罪惡	-10.2272
va	-10.2274
八十	-10.2283
也是	-10.2284
迎	-10.2285
主宰	-10.2286
正文	-10.2287
諸聖	-10.2288
而說	-10.229
認	-10.2301
愆	-10.2304
偽經	-10.2304
極微	-10.2308
出離	-10.231
□□□	-10.2314
佛事	-10.2339
離諸	-10.2345
得菩提	-10.2349
是一	-10.236
四聲	-10.2363
佛語	-10.2372
從何	-10.2376
紫	-10.2379
不可說	-10.2381
令人	-10.2393
相等	-10.2394
發展	-10.2397
受戒	-10.2408
則非	-10.2417
享	-10.2417
優劣	-10.2422
是菩提	-10.2425
肢	-10.2426
歷代三寶記	-10.2431
介紹	-10.2432
敕	-10.2433
捨棄	-10.2434
潔	-10.2434
繁	-10.2439
伊	-10.2441
弗	-10.2442
整	-10.2443
博	-10.2443
趨	-10.2444
知其	-10.2444
拈	-10.2445
願賜	-10.2446
泉	-10.2446
遍計	-10.2448
黑暗	-10.2451
洞	-10.2451
恥	-10.2451
運載	-10.2452
」。】「	-10.2452
耀	-10.2454
拉	-10.2454
籠	-10.2457
例餘	-10.2464
頌云	-10.2468
除了	-10.2468
長壽	-10.2472
終日	-10.2476
界中	-10.2477
並且	-10.2477
難陀	-10.2479
所詮	-10.2481
救苦	-10.2482
甚至	-10.2483
不入	-10.2484
是菩薩行	-10.2485
道言	-10.2501
宣說	-10.2507
應如是	-10.2512
自性無	-10.2531
其它	-10.2535
彼我	-10.2546
這裏	-10.2546
此下三	-10.255
利根	-10.2555
淨穢	-10.2557
毫	-10.2558
求解脫	-10.2559
使用	-10.2563
如是等	-10.2569
上品	-10.2569
如我	-10.2569
令得	-10.2571
願力	-10.2575
一切諸佛	-10.259
多種	-10.2597
我為	-10.2597
失譯	-10.2601
正知	-10.2606
一處	-10.2607
廣明	-10.2612
轉變	-10.2613
無上菩提	-10.2636
均為	-10.2637
苦海	-10.264
解說	-10.2643
佛所	-10.2646
寂然	-10.2648
大道	-10.265
化佛	-10.2655
寫經	-10.2673
教法	-10.2679
隨其	-10.2683
注意	-10.2684
輸	-10.2685
片	-10.2687
難行	-10.2693
無因	-10.2696
哭	-10.2704
而且	-10.2704
經名	-10.2705
五字	-10.2708
黎	-10.2714
困	-10.2716
聖諦	-10.2719
此法會中	-10.2721
遵循	-10.2724
阿吒力	-10.2731
的文字	-10.2732
阿彌陀佛	-10.2733
拉雅納瓦蒂	-10.2734
須陀洹	-10.2737
是為入不二法門	-10.2738
束	-10.2738
瞿曇	-10.2738
療	-10.2741
瞻	-10.2744
惡人	-10.2745
巍巍	-10.2746
墜	-10.2748
泥洹	-10.2751
斷滅	-10.2751
珍寶	-10.2751
巴	-10.2752
圓融	-10.2752
醉	-10.2752
財富	-10.2754
繼	-10.2756
煩	-10.2757
雅	-10.2757
菩提薩埵	-10.2757
米	-10.2758
雪山	-10.2761
支分	-10.2762
此問	-10.2765
攀緣	-10.2765
非色	-10.2769
維德赫國王	-10.2775
營	-10.2777
肉眼	-10.2782
造像	-10.2782
和尚	-10.2784
肯定	-10.2796
是何	-10.2796
聖凡	-10.2796
昧	-10.2804
不敢	-10.282
見到	-10.2821
嚩囉	-10.2834
未曾	-10.2834
法雨	-10.2837
如同	-10.2841
諸如來	-10.2842
施設	-10.2843
我的	-10.2844
明受	-10.2844
諸煩惱	-10.2852
來到	-10.2862
不自	-10.2864
總明	-10.2865
知識	-10.2875
所化	-10.2881
持齋	-10.2896
淨信	-10.2904
大千	-10.2907
議	-10.2908
保存	-10.2917
為喻	-10.2923
無病	-10.2928
曹	-10.2951
三品	-10.2962
不用	-10.2963
誓願	-10.2966
端嚴	-10.2997
444	-10.3004
孰	-10.3007
相待	-10.3007
yā	-10.3011
維	-10.3011
蓮華	-10.3014
的典籍	-10.3015
渴	-10.3026
後來	-10.3035
阿修羅	-10.304
而自	-10.3044
一身	-10.3046
佛告須菩提	-10.3047
心裏	-10.3047
6.	-10.3048
南無三滿多	-10.3049
佛教文獻	-10.3049
碑	-10.3049
故無	-10.305
俄	-10.305
囑	-10.3051
曜	-10.3056
環	-10.3057
愁	-10.3057
蕩	-10.3057
睡	-10.3058
烏	-10.3059
鼓	-10.306
聰明	-10.3061
都序	-10.3061
諸佛菩薩	-10.3061
鞞	-10.3062
怛囉	-10.3063
選	-10.3063
屈	-10.3063
嬰兒	-10.3065
戲	-10.3066
冥陽	-10.3067
說偈	-10.3069
請問	-10.307
此心	-10.3071
南無大孝釋迦佛	-10.3071
賴	-10.3072
心王菩薩	-10.3073
亦云	-10.3073
愚人	-10.3074
諱	-10.3075
壞滅	-10.3079
何能	-10.3084
鉢羅	-10.3084
觀待	-10.3088
台	-10.3089
從此	-10.309
把它	-10.3091
不失	-10.3091
財物	-10.3093
靈藥智者	-10.3095
正觀	-10.3097
祇是	-10.3105
天帝	-10.3142
二邊	-10.3152
往來	-10.3161
一定	-10.3177
不堪	-10.3186
相比	-10.3186
32	-10.3189
彼岸	-10.3199
以明	-10.3199
感官智	-10.3209
囑累經	-10.3229
正在	-10.3239
為體	-10.3244
悲智	-10.328
無疑	-10.3282
其他	-10.3284
波囉	-10.3287
隨心	-10.329
四明	-10.3302
析	-10.3311
正以	-10.3313
年間	-10.3318
亦為	-10.333
漢文	-10.3347
戶	-10.335
干	-10.3356
輯	-10.3356
斫	-10.3359
十二部經	-10.3361
準	-10.3363
世尊在舍衛城祇樹給孤獨	-10.3364
縫繢裝	-10.3366
三十二	-10.3366
亦得	-10.3367
何須	-10.3367
隋	-10.337
遲	-10.337
穿	-10.3373
禁戒	-10.3374
麻	-10.3374
童	-10.3375
牒	-10.3376
仇	-10.3377
可參見	-10.3378
長短	-10.3382
秦言	-10.3384
呵	-10.3385
所抄	-10.3385
嘉	-10.3386
薰	-10.3387
鸚鵡	-10.3388
之本	-10.3389
前二	-10.339
胡	-10.3392
虔誠	-10.3392
分齊	-10.3396
鉤	-10.3396
更加	-10.3399
尋求	-10.34
三塗	-10.3401
開示	-10.3405
昔日	-10.3407
白衣	-10.341
寶積	-10.341
及諸	-10.3413
主張	-10.3415
金藏	-10.3416
性空	-10.3417
汝當	-10.3421
在一起	-10.3424
今天	-10.3431
直心	-10.3432
有法	-10.3437
我認為	-10.3437
教化	-10.344
現身	-10.3444
無定	-10.3444
又有	-10.3446
有十	-10.3452
益物	-10.3453
四禪	-10.3456
一問	-10.3459
稱念	-10.3461
為什麼	-10.3474
ka	-10.3476
身子	-10.3487
的文獻	-10.3492
染著	-10.3493
未見	-10.3495
而非	-10.3502
三根	-10.3506
以成	-10.351
八萬	-10.3511
總攝	-10.3516
但在	-10.3539
論云	-10.3541
身上	-10.3547
聞佛	-10.3548
常樂	-10.3554
真性	-10.3557
7.	-10.3564
異名	-10.3572
死後	-10.3574
不說	-10.3588
大藏	-10.3589
an	-10.3593
而行	-10.3595
之方便	-10.3614
六類	-10.3616
區別	-10.3618
九句	-10.3623
式	-10.3623
流行	-10.3638
表現	-10.3647
結界	-10.3647
及以	-10.3658
鈔	-10.3661
深入	-10.3667
等諸	-10.3679
阿難言	-10.3686
何者	-10.3687
眾經目錄	-10.3689
為一	-10.369
井	-10.3691
所許	-10.3691
商	-10.3692
伽陀	-10.3693
料簡	-10.3693
捐	-10.3696
無得	-10.3697
不行	-10.3699
工	-10.3702
唐代	-10.3703
得名	-10.3703
騰	-10.3703
這一點	-10.3704
優波離	-10.3705
大聖地藏王菩薩	-10.3706
諫	-10.3707
稿	-10.3707
京	-10.3709
鮮	-10.3709
奢	-10.3709
布佐	-10.371
罰	-10.3711
溫	-10.3712
藝	-10.3712
北宋	-10.3712
欣	-10.3712
需	-10.3712
晝	-10.3714
屋	-10.3715
濫	-10.3717
試	-10.3717
澤	-10.3718
裡	-10.3718
受請供養	-10.3719
胸	-10.372
諸人	-10.372
稟	-10.372
罵	-10.3722
尺	-10.3722
僕	-10.3722
純陀	-10.3723
不從	-10.3727
淵	-10.3728
湛然	-10.3729
覽	-10.373
刑	-10.3731
威德	-10.3732
穀	-10.3733
5、	-10.3734
汝心	-10.3737
一體	-10.3739
皆從	-10.374
除罪	-10.3741
刀劍	-10.3741
其母	-10.376
示現	-10.3764
護念	-10.3765
眼根	-10.3766
87	-10.3772
轉法輪	-10.3778
你的	-10.3782
作是	-10.3783
無上道	-10.3792
名聞	-10.3794
這就是	-10.3804
一切皆	-10.3804
加威	-10.3805
形式	-10.3806
成佛道	-10.3811
不忍	-10.3819
性質	-10.3836
何者是	-10.3837
雖不	-10.3842
施等	-10.3845
長時	-10.3851
微細	-10.3851
塵沙	-10.3854
諸欲	-10.3866
誐	-10.3867
疑經	-10.3867
不具	-10.3879
常時	-10.3893
甲本	-10.3899
或謂	-10.3908
共相	-10.3912
一法	-10.393
當作	-10.3933
醫	-10.3942
先後	-10.3943
神變	-10.3947
輝	-10.3952
00	-10.3976
狀態	-10.3982
本願	-10.3983
的部分	-10.3983
是則	-10.3985
六通	-10.3988
信仰	-10.3989
一直	-10.399
答也	-10.3993
件	-10.3995
觀點	-10.3999
皈	-10.4
眾生相	-10.4001
排	-10.4001
的一個	-10.4011
閉	-10.4011
檀	-10.4022
裴休	-10.4024
諸外道	-10.4029
採	-10.4035
來世	-10.4039
I	-10.4039
妨礙	-10.4039
分八	-10.4039
展	-10.404
作是念	-10.4041
由常看守心	-10.4041
祛	-10.4041
逝	-10.4043
佛告迦葉	-10.4043
寺院	-10.4043
不輕	-10.4044
我今稱讚	-10.4044
侶	-10.4046
惟願慈悲常攝受	-10.4046
祝	-10.4048
詳細	-10.4049
豎	-10.4051
輩	-10.4053
凝	-10.4055
瓔珞	-10.4056
豈不	-10.4056
玄奘	-10.4056
要求	-10.4057
或者	-10.4058
正因	-10.4058
陀羅	-10.4059
銅	-10.4059
擁護	-10.4059
男子	-10.406
漫	-10.406
歷劫	-10.406
目連	-10.4061
茶供養	-10.4062
爪	-10.4063
教誨	-10.4063
賓	-10.4065
軀	-10.4066
播	-10.4068
心地	-10.4069
樓	-10.407
育	-10.4071
本科儀	-10.4072
既不	-10.4072
番	-10.4073
箭	-10.4074
科文	-10.4074
丈六	-10.4075
卒	-10.4077
摩利支	-10.4077
端正	-10.4083
斗	-10.4083
毫無	-10.4084
數量	-10.4089
?「	-10.409
今生	-10.4095
惟淨	-10.4097
相互	-10.41
彼諸	-10.4111
無非	-10.4122
爛	-10.4123
是誰	-10.4124
明白	-10.4128
其實	-10.4128
女子	-10.4131
不應瞋	-10.4132
兩重	-10.4135
作饒益	-10.4143
壇場	-10.4147
三個	-10.4164
時有	-10.4165
其事	-10.4174
的關係	-10.4175
各處	-10.4187
威神	-10.4189
緣生	-10.4191
苦受	-10.4197
出來	-10.4198
墮地獄	-10.42
現見	-10.4205
佛地	-10.4206
不與	-10.4213
生歡喜	-10.4214
三十二相	-10.4214
所用	-10.4217
流出	-10.4218
實執	-10.4221
但能	-10.4222
曼怛囉	-10.4233
kā	-10.4239
譯者	-10.4241
得生	-10.4242
卷下	-10.4243
大覺	-10.4243
即時	-10.4246
恒常	-10.4257
靡	-10.4257
無過	-10.4261
去來	-10.4261
夢中	-10.4265
當生	-10.4267
俱生	-10.4269
感受	-10.4285
有對	-10.4302
我們可以	-10.4302
心所法	-10.4307
之教	-10.431
神我	-10.4315
大悲心	-10.4317
大家	-10.4318
齒	-10.4319
刻本	-10.432
施與	-10.4323
分之	-10.4327
長行	-10.4331
因故	-10.4332
於生死	-10.4337
人人	-10.434
我佛	-10.4346
將來	-10.435
為求	-10.4354
一詞	-10.4359
法無	-10.4362
不爾	-10.4363
五戒	-10.4371
一切諸	-10.4372
自知	-10.4374
引經	-10.4378
空衣派刊本	-10.4381
中道	-10.4382
排列	-10.4387
有一問答	-10.4388
▁'	-10.439
是時	-10.4391
條件	-10.4392
大唐內典錄	-10.4393
坐於一旁	-10.4393
苦痛	-10.4396
敦煌遺書中	-10.44
束縛	-10.44
禪源諸詮集都序	-10.4402
抑	-10.4403
人見	-10.4404
或觀察身內之	-10.4404
天台宗	-10.4406
怯弱	-10.4409
謙	-10.441
豈有	-10.4411
故於	-10.4411
唇	-10.4412
慳	-10.4413
重視	-10.4413
虔	-10.4413
華藏	-10.4413
汙	-10.4414
預	-10.4414
鳴	-10.4415
應了了分明	-10.4416
沈	-10.4416
豐	-10.4416
升	-10.4417
縣	-10.4418
無論如何	-10.442
寸	-10.442
似乎	-10.4421
率	-10.4421
婆希	-10.4422
陷	-10.4423
冬	-10.4424
裝	-10.4424
皇帝	-10.4424
滴	-10.4424
蜜	-10.4424
密咒	-10.4425
分七	-10.4428
秋	-10.4429
慚	-10.443
作禮	-10.443
無復	-10.443
刃	-10.443
憂惱	-10.443
羅剎	-10.4431
勇猛	-10.4431
陸	-10.4433
龕	-10.4434
龍樹	-10.4435
一合相	-10.4436
歸去來	-10.4438
罪人	-10.4439
兄	-10.4439
奴婢	-10.4448
在他	-10.4452
舍利	-10.4454
阿耨多羅三藐三菩提	-10.4455
第十一	-10.4457
身相	-10.4461
入定	-10.4462
有七	-10.4469
生死之	-10.4469
現量	-10.4474
śa	-10.4476
相也	-10.4477
諸罪	-10.448
帶來	-10.4481
成了	-10.4485
歸入	-10.4487
原來	-10.4491
不安	-10.4493
月光	-10.4497
重重	-10.4502
ni	-10.4504
放生	-10.4527
午三	-10.4529
共同	-10.4529
h	-10.4532
主人	-10.4532
悉能	-10.4539
千字文帙號	-10.4561
45	-10.4564
並是	-10.4567
自性成就	-10.457
明代	-10.4575
結成	-10.4577
僧伽	-10.4588
發阿耨多羅三藐三菩提心	-10.4596
而能	-10.4598
也有	-10.4598
六波羅蜜	-10.4599
如似	-10.4599
哆囉	-10.46
今此	-10.4604
若有人	-10.4604
無方	-10.4608
地方	-10.4614
不可能	-10.4615
第一義	-10.4619
理解	-10.462
極為	-10.4622
十分	-10.4629
是法	-10.464
利用	-10.4641
07	-10.4643
停	-10.4645
一節	-10.4645
仍然	-10.4658
之下	-10.467
十句	-10.4677
因由	-10.4681
為主	-10.4682
五年	-10.4685
人的	-10.4686
saṃ	-10.4693
號為	-10.4697
之業	-10.4702
這裡	-10.4704
從前	-10.4708
若論	-10.4708
歷代	-10.4713
依他	-10.4714
積集	-10.4718
地區	-10.4719
即得	-10.473
69	-10.4731
不墮	-10.4731
西夏	-10.474
有色	-10.4743
苦者	-10.4744
施者	-10.4752
她的	-10.4756
作如是	-10.4756
本節論述	-10.4757
若復有人	-10.4758
禪源諸詮集	-10.4759
三階教	-10.476
獅子	-10.4767
往生	-10.4767
北敦	-10.4768
F	-10.4768
哪	-10.4769
高山寺本	-10.477
如是如是	-10.4775
無見	-10.4775
崩	-10.4778
震	-10.4779
何有	-10.478
臺	-10.4781
優婆塞	-10.4781
直接	-10.4781
犯戒	-10.4781
托鉢	-10.4782
鮑善恢	-10.4783
欄	-10.4783
金剛經讚	-10.4784
參差	-10.4786
巨	-10.4788
判斷	-10.4788
品類	-10.479
匠	-10.479
練	-10.479
圭峰	-10.4792
遷	-10.4792
又名	-10.4792
瓦	-10.4792
下文云	-10.4793
西明寺	-10.4796
俱胝	-10.4796
災害	-10.4796
域	-10.4797
浴	-10.4797
乃至成佛	-10.4797
享受	-10.4797
透	-10.4798
草木	-10.4799
毒蛇	-10.4801
訛	-10.4801
暴	-10.4801
收藏	-10.4803
監	-10.4804
有說	-10.4805
徑	-10.4805
們	-10.4808
我應	-10.4809
十二因緣	-10.4812
說名	-10.4814
得見	-10.4818
囚	-10.4819
提到	-10.4819
伏聞	-10.482
逼惱	-10.4825
無緣	-10.4826
無憂	-10.4827
在我	-10.483
正確	-10.4831
段落	-10.4831
同誦	-10.4833
此由	-10.4834
不應貪著	-10.4835
後代	-10.4837
當為	-10.4839
,10	-10.4841
不出	-10.4842
子三	-10.4842
發菩提	-10.4848
以下是	-10.4849
豈可	-10.4856
為宗	-10.4858
別錄	-10.4858
孝順	-10.4864
修羅	-10.4869
摩訶薩	-10.487
不論	-10.487
之性	-10.4872
筆者	-10.4878
戒定慧	-10.4882
講的	-10.4884
法空	-10.4885
已知	-10.4886
無以	-10.4887
得失	-10.4888
願為	-10.489
卷二	-10.4894
愍	-10.4899
下品	-10.4903
仁者	-10.4905
國中	-10.4905
84	-10.4914
蹤	-10.4924
名真	-10.4928
離苦	-10.4931
皆悉	-10.4937
是在	-10.4937
八種	-10.4947
於十方	-10.495
得聞	-10.4952
已滅	-10.4957
受記	-10.4959
烈	-10.4966
金棺	-10.4968
52	-10.4968
體相	-10.4979
若悟	-10.4987
等等	-10.4989
來生	-10.4991
受樂	-10.4996
罪福	-10.4997
若欲	-10.5006
囉拏	-10.5011
令我	-10.5016
梵音	-10.5018
本性	-10.5021
一切諸法	-10.5023
罪垢	-10.5026
無貪	-10.5028
道德	-10.5032
由旬	-10.5034
聽了	-10.5037
兩者	-10.5038
誰為	-10.5043
更有	-10.5043
aḥ	-10.5045
後者	-10.5048
水中	-10.5062
我言	-10.5066
敦煌文獻	-10.5072
一百	-10.5079
餘處	-10.5087
55	-10.5093
如實	-10.5098
得度	-10.5099
佛弟子	-10.5108
此論	-10.5115
正明	-10.5117
有時	-10.5123
無益	-10.5124
之內	-10.5127
身根	-10.5134
複合體	-10.514
直觀智	-10.514
貞元入藏錄	-10.5141
廣破邪	-10.5144
從今	-10.5145
丈夫	-10.5145
逼	-10.5145
組成	-10.5146
周沙界	-10.5146
該文獻	-10.5148
基	-10.5148
曼	-10.515
外化	-10.5154
叡	-10.5154
諸善	-10.5156
靈魂	-10.5157
屍	-10.5159
如前所述	-10.516
衛	-10.5161
扶	-10.5161
著衣持鉢	-10.5161
搖	-10.5162
英	-10.5162
雷	-10.5163
已來	-10.5163
不絕	-10.5163
一心奉請	-10.5163
辯才	-10.5163
社	-10.5163
費長房	-10.5164
炷	-10.5165
奏	-10.5167
景	-10.5168
卑	-10.5169
身命	-10.5169
因中	-10.517
牙	-10.517
譏	-10.5171
經宣演	-10.5171
險	-10.5173
的原因	-10.5174
映	-10.5174
醯	-10.5175
三摩地	-10.5176
儀至	-10.5176
次序	-10.5176
添	-10.5176
芽	-10.5177
溺	-10.5177
剪	-10.5177
復有一解	-10.5177
倚	-10.5178
化眾生	-10.5178
榮	-10.5179
奚	-10.5179
潛	-10.518
怛姪他	-10.5181
讚歎	-10.5183
焦	-10.5183
捉	-10.5184
默然	-10.5184
諾賀	-10.5185
應是	-10.5186
這麼	-10.5186
奇哉	-10.5187
個如海量	-10.5188
離欲	-10.5188
醜陋	-10.5189
願諸	-10.519
冤讎	-10.519
塵勞	-10.5191
善逝	-10.5191
p	-10.5191
浪	-10.5193
法眼	-10.5193
𩕳	-10.5201
疾病	-10.5202
旋生	-10.5205
攝義	-10.5207
護法	-10.5209
之謂也	-10.5213
而後	-10.5218
師為	-10.522
三儀軌	-10.5227
此則	-10.5227
價值	-10.5235
倒想	-10.5244
宗密的	-10.5245
此品	-10.525
隨所	-10.5252
此亦	-10.5262
心為	-10.5265
於內	-10.5265
力士	-10.5269
文章	-10.5271
行願	-10.5274
作了	-10.5276
天宮	-10.5277
能燒	-10.5281
極樂	-10.5287
三法	-10.5287
梵天	-10.5287
不能得	-10.5288
心王	-10.5291
有力	-10.5291
正信	-10.5293
工作	-10.5295
論曰	-10.5297
卷數	-10.5298
八難	-10.5302
應須	-10.5303
於世	-10.5309
遍滿	-10.5316
正說	-10.5323
是實	-10.5329
明差別	-10.5334
耆那教的	-10.5334
莫不	-10.5342
妙香	-10.5347
上面	-10.5348
兩號	-10.5349
罪過	-10.5351
二十八	-10.5351
與此	-10.5363
的佛教	-10.5368
一致	-10.537
3)	-10.5373
所愛	-10.5379
煩惱性	-10.538
能力	-10.5383
能得	-10.5384
而白佛言	-10.5389
此偈	-10.5389
作業	-10.5392
護持	-10.5407
無故	-10.5425
回到	-10.5441
之物	-10.5444
誠心	-10.5445
入地獄	-10.5449
譯本	-10.5453
觀之	-10.5457
的著錄	-10.5461
而產生	-10.5463
為善	-10.5464
其次	-10.5466
方得	-10.5467
兩卷	-10.5477
。(「	-10.5485
反映	-10.5491
日光	-10.5492
後人	-10.5493
觀想	-10.5493
的作者	-10.5494
生者	-10.5494
中說	-10.5498
三空	-10.5504
寶珠	-10.5504
生信	-10.5504
全文	-10.5507
即便	-10.5509
法供養	-10.5518
由斯	-10.5523
之結	-10.5531
十善	-10.5534
修學	-10.5537
yo	-10.5538
我於	-10.554
能發	-10.5542
羯	-10.5548
+	-10.555
梁	-10.5551
祐	-10.5552
贍部洲	-10.5552
多有	-10.5552
然則	-10.5554
那樣	-10.5554
儘管	-10.5555
淨度三昧經	-10.5555
篇幅	-10.5555
脈	-10.5556
巴伐菩提	-10.5556
古代	-10.5556
屠兒	-10.5557
慚愧	-10.5558
高僧傳	-10.5559
▁C	-10.556
局	-10.5563
煙	-10.5564
磨	-10.5565
。3	-10.5565
義故	-10.5565
拾	-10.5566
殘缺	-10.5567
經說	-10.5568
瑩	-10.5568
慧琳	-10.5569
慈氏	-10.557
名義	-10.557
堆	-10.557
窣	-10.5572
非實	-10.5573
縱橫	-10.5573
戴	-10.5574
範	-10.5574
射	-10.5574
政	-10.5574
魂	-10.5574
斬	-10.5575
曳	-10.5576
奈	-10.5576
金銀	-10.5577
揭	-10.5577
梵志	-10.5577
師子吼	-10.5578
僧法誦出經	-10.5578
紀	-10.5578
輾轉	-10.5579
忻	-10.5579
閒	-10.558
教導	-10.5581
壁	-10.5581
藍	-10.5581
刊雕	-10.5582
譬喻	-10.5582
殺害	-10.5584
訪	-10.5584
般涅槃	-10.5585
斷見	-10.5585
大佛頂	-10.5586
輔	-10.5587
曠	-10.5588
之流	-10.5588
紛紛	-10.5588
輕重	-10.5589
金口	-10.5589
能與	-10.559
勢力	-10.5594
粗細	-10.5594
嫉	-10.5595
死時	-10.5597
東西	-10.5598
捧	-10.5598
香積	-10.5598
自覺	-10.5599
梵授王	-10.5599
坐禪	-10.5601
自恣	-10.5607
灑淨	-10.561
靈山	-10.5611
唯願	-10.5612
財寶	-10.5615
十八界	-10.5616
男根	-10.5616
疏文	-10.5618
從事	-10.5631
妄語	-10.5633
禮世尊	-10.5635
大智	-10.5643
十方世界	-10.5645
該號	-10.5645
但有	-10.5645
經常	-10.5647
道宣	-10.5649
》。《	-10.5657
延壽	-10.5658
文化	-10.5659
奉持	-10.5661
般若經	-10.5665
咒唵	-10.567
方能	-10.5677
讚曰	-10.5681
可分為	-10.5683
一切煩惱	-10.5687
得知	-10.5688
令彼	-10.5698
佛子	-10.5704
命的	-10.5705
人心	-10.5709
三賢	-10.5711
色心	-10.5711
於心	-10.5718
b	-10.5729
佛頂	-10.5731
隨意	-10.5733
迷情	-10.5735
是從	-10.5737
僧寶	-10.5738
諸種	-10.5746
捨離	-10.5752
石刻	-10.5756
是如來	-10.5758
的兒子	-10.5774
必要	-10.5779
地位	-10.5779
為眾生	-10.5782
明種子	-10.5783
當時的	-10.5808
聞經	-10.5811
亦未	-10.5812
釋也	-10.5815
未知	-10.5815
9.	-10.5828
起於	-10.5828
豈非	-10.5839
實行	-10.5843
他方	-10.5843
有緣	-10.5845
的形式	-10.5846
依次	-10.5849
勉	-10.5865
等四	-10.5869
亦同	-10.5877
後際	-10.5878
天王	-10.5883
可謂	-10.5883
受者	-10.5889
頭上	-10.5891
生時	-10.59
地上	-10.5904
刻經	-10.5907
其本	-10.591
行事	-10.5911
軌	-10.5914
首楞嚴經	-10.5927
聞此	-10.5928
閻浮提	-10.5932
於境	-10.5932
特別	-10.5951
不違	-10.5956
今世	-10.5957
tva	-10.5958
世紀	-10.5961
無名	-10.5962
大乘禪門	-10.5963
迦摩囉	-10.5964
36	-10.5967
彼無	-10.5968
威力	-10.5969
之自性	-10.597
今有解結	-10.5973
參考	-10.5973
入般涅槃	-10.5974
受持讀誦	-10.5975
錯誤	-10.5976
蔭	-10.5976
磧砂藏	-10.5977
天堂	-10.5978
釋論	-10.5979
心中了了分明	-10.5979
反映了	-10.5979
效	-10.598
所證	-10.598
枯	-10.5981
頻	-10.5982
震動	-10.5983
鬥爭	-10.5984
晉	-10.5984
猛烈	-10.5985
在前	-10.5986
唎	-10.5987
斂	-10.5987
宋代	-10.5987
孩兒	-10.5988
逾	-10.5988
狗	-10.5989
抉擇	-10.5989
初中引經	-10.5989
攬	-10.5989
腸	-10.599
漿	-10.5991
未曾有	-10.5992
耽	-10.5992
頃	-10.5993
梵授	-10.5995
炎	-10.5996
說此	-10.5996
燭	-10.5997
荒	-10.5997
賞	-10.5997
□□□□	-10.5997
願罪消滅	-10.5998
纖毫	-10.5998
瑜伽師地論	-10.5999
觀心	-10.6001
善事	-10.6002
引導	-10.6003
薄伽梵	-10.6004
依法	-10.6005
蹉	-10.6005
天聖釋教	-10.6006
實語	-10.6007
冰	-10.6007
領納	-10.6009
禮敬	-10.6009
資財	-10.601
恃	-10.6012
忽然	-10.6013
法王身	-10.6016
獵	-10.6018
四天王	-10.6023
著錄了	-10.603
四聖諦	-10.6032
真空	-10.6033
tad	-10.6036
明確	-10.6036
功用	-10.6037
陀那	-10.6037
行之	-10.6038
嚩羅	-10.6041
不通	-10.6044
人之	-10.6045
種姓	-10.6051
人所	-10.6051
指示	-10.6053
見其	-10.6054
不達	-10.6055
證真	-10.6057
直至	-10.6058
應身	-10.6059
是妄	-10.6059
59	-10.6061
如彼	-10.6069
已畢	-10.6077
非唯	-10.608
六情	-10.6084
他利	-10.6084
四天下	-10.6089
非不	-10.609
法珍	-10.6091
作損害	-10.6094
▁3	-10.6094
世世	-10.6099
此土	-10.61
四法	-10.6106
不敬	-10.6107
資生	-10.6111
妙用	-10.6112
的思想	-10.6113
心懷	-10.6124
總問	-10.6127
之過患	-10.6135
38	-10.6137
異體	-10.6139
不殊	-10.6149
請你	-10.6156
有心	-10.6159
生善趣	-10.6162
何因	-10.6167
生物	-10.6167
sa	-10.6168
本自	-10.6172
聽法	-10.6177
上來所	-10.6177
為難	-10.6177
甚大	-10.6179
之情	-10.6189
正道	-10.6193
結果	-10.6196
自證	-10.6197
慈父	-10.62
普遍	-10.6201
行孝	-10.6204
五眼	-10.6205
大力	-10.6212
行禮	-10.6215
明三種	-10.6226
事物	-10.6231
師長	-10.6233
斯則	-10.624
不要	-10.6245
變成	-10.6254
生故	-10.6263
大義	-10.627
大願	-10.627
六十	-10.6275
人相	-10.6278
於自身	-10.6284
無智	-10.6287
如是思維	-10.6289
難思	-10.6289
應有	-10.6293
相符	-10.6295
85	-10.6299
改為	-10.6299
—	-10.6301
子一	-10.6304
無能	-10.6307
有用	-10.6313
不退轉	-10.632
一次	-10.6327
48	-10.6328
彼此	-10.6328
憐	-10.6333
無言	-10.634
未生	-10.6342
粗重	-10.6344
究	-10.6349
時世尊	-10.6357
悟解	-10.6364
曾無	-10.6367
物質	-10.6367
筆	-10.6367
這樣說	-10.637
各有所	-10.6373
幢	-10.6375
的東西	-10.6379
法義	-10.6384
區	-10.6392
為大	-10.6393
乃是	-10.6395
令人喜悅適意	-10.6395
秦	-10.6398
摩囉	-10.6398
百年	-10.6401
大菩薩	-10.6401
覺性	-10.6402
貪嗔	-10.6404
線	-10.6404
泣	-10.6405
L	-10.6407
這個偉大的人	-10.6407
民間	-10.6408
王宮	-10.6408
如有	-10.6408
三種悉地法	-10.6409
料	-10.641
冷	-10.6411
麗	-10.6413
三重	-10.6413
季	-10.6414
包含	-10.6414
恰	-10.6416
肅	-10.6416
經過	-10.6417
怎麼	-10.6417
最澄	-10.6419
換	-10.6421
疲	-10.6422
差異	-10.6422
來至	-10.6422
仰啟	-10.6423
美德	-10.6425
克	-10.6425
超越	-10.6425
僧團	-10.6425
臣民	-10.6425
以此之故	-10.6426
恐怖	-10.6426
出版	-10.6426
楚	-10.6426
埋	-10.6427
無差別	-10.6427
珍貴	-10.6427
凶	-10.6428
割肉	-10.6428
爐	-10.6429
寶髻的	-10.6429
慰	-10.6429
奔	-10.643
如前所說	-10.6432
副	-10.6432
匝	-10.6433
所說法	-10.6433
調御	-10.6433
孟	-10.6435
圓覺經	-10.6436
模式	-10.6436
餐	-10.6437
誹謗	-10.6437
膽	-10.6438
汝於	-10.6438
弊	-10.6439
降臨	-10.644
村	-10.6441
色彩	-10.6441
向他	-10.6441
掃	-10.6442
如是說	-10.6442
長安	-10.6444
慈恩	-10.6445
也沒有	-10.6445
舉揚	-10.6445
叭囉	-10.6446
災難	-10.6446
聚落	-10.6447
應勵力	-10.6447
若此	-10.6448
地藏菩薩	-10.6448
降道場	-10.6448
達麼	-10.645
明淨	-10.6451
的時候	-10.6453
悉達	-10.6455
山林	-10.6455
苦集	-10.6457
無著論曰	-10.6458
的主要	-10.6458
再再	-10.6459
跛	-10.6459
體例	-10.646
口業	-10.6472
ma	-10.6478
有一個	-10.6479
不來	-10.6486
法樂	-10.6492
四十九	-10.6495
眾生見	-10.6499
信香	-10.6503
很高興	-10.6503
纔能	-10.6504
他心	-10.6506
最為	-10.652
六入	-10.6524
極難	-10.6525
善不善	-10.6533
的記載	-10.6534
三界外	-10.6535
計人	-10.6537
苦難	-10.6538
放光	-10.6543
佛國	-10.6543
明珠	-10.6549
樂受	-10.6549
不遠	-10.6549
真智	-10.6551
堅持	-10.6559
無染	-10.6559
大約	-10.6567
見諦	-10.657
手執	-10.6573
斷盡	-10.6578
只有	-10.6581
79	-10.6589
譯經	-10.6593
即成	-10.6593
是菩薩	-10.6596
不聞	-10.6606
的地方	-10.6607
皆能	-10.6612
以何	-10.6615
二相	-10.6621
之補特伽羅	-10.6624
即能	-10.6626
無念	-10.6627
生生	-10.6629
世尊告	-10.663
其光	-10.6633
二空	-10.6644
額	-10.6645
心性	-10.6646
所斷	-10.6646
應物	-10.6647
有智者	-10.6648
鄰	-10.6648
而修	-10.6653
壽者相	-10.6658
此理	-10.6658
要須	-10.6661
明三	-10.6664
為此	-10.6667
無為法	-10.6671
故我	-10.6673
pa	-10.6681
等故	-10.6684
之差別	-10.6685
初文分	-10.6686
ava	-10.6692
大量	-10.6696
愛見	-10.6698
喻如	-10.6705
如是世尊	-10.671
苦滅	-10.6718
佛前	-10.6718
出定	-10.6721
大乘經	-10.6723
部經典	-10.6724
禮懺	-10.6728
本人	-10.6731
的大藏經	-10.6743
不再	-10.6744
得果	-10.6747
此行	-10.6747
時節	-10.6754
的基本	-10.6757
道安	-10.6758
中無	-10.6759
欲得	-10.6761
之上	-10.6764
35	-10.677
欲明	-10.6774
德行	-10.6775
應成	-10.6776
生死苦	-10.6777
【	-10.6779
何等	-10.6781
慈母	-10.6787
它是	-10.6787
故此	-10.6789
觀見	-10.6793
作是言	-10.6793
的問題	-10.6803
二百	-10.6805
又言	-10.6811
之大	-10.6814
十方諸佛	-10.6817
結構	-10.6824
的不同	-10.683
五逆	-10.6836
所謂的	-10.6836
心也	-10.684
妄心	-10.6842
86	-10.6842
鋒	-10.6845
得益	-10.6846
立彼宗	-10.6846
巾	-10.6847
R	-10.685
慾望於此	-10.685
H	-10.6853
穢濁	-10.6853
警策	-10.6856
作法	-10.6856
系	-10.6857
生瞋恚	-10.6857
聯	-10.6858
程	-10.6858
44	-10.686
或在	-10.6861
順序	-10.6862
若有善男子	-10.6862
實踐	-10.6863
是菩薩淨土	-10.6863
宣演	-10.6864
異也	-10.6864
裝飾	-10.6865
探	-10.6865
首尾	-10.6865
之樂	-10.6866
傍	-10.6866
勘	-10.6866
腦	-10.6867
作者不詳	-10.6868
茶	-10.6869
濃	-10.687
增減	-10.687
泡	-10.687
提供了	-10.6871
清楚	-10.6871
津	-10.6872
盜賊	-10.6873
亦不見	-10.6873
涼	-10.6875
呈	-10.6877
杜	-10.6877
欠	-10.6877
三有	-10.6877
趙城金藏	-10.6878
孫	-10.6878
役	-10.6878
雞	-10.6879
閱	-10.6879
劇	-10.6879
地藏菩薩十齋日	-10.6879
安慰	-10.6879
侯	-10.6879
這個問題	-10.688
道之	-10.688
革	-10.6881
昌	-10.6882
枳	-10.6882
費	-10.6883
論應知	-10.6883
盈	-10.6883
殖	-10.6883
欄第	-10.6884
扇	-10.6885
嗟	-10.6885
以體收相	-10.6885
稻	-10.6885
咬	-10.6885
滋	-10.6886
拂	-10.6886
尸	-10.6886
堅牢	-10.6886
具體	-10.6886
教授	-10.6889
五官	-10.6889
品經	-10.689
永樂大典	-10.6891
肩	-10.6891
即於	-10.6891
鈍根	-10.6892
鈴	-10.6892
問言	-10.6893
論述了	-10.6893
如佛	-10.6894
阿那含經	-10.6895
應作	-10.6897
杵	-10.6899
毗婆沙師	-10.6899
心肝	-10.69
倘	-10.6902
自相	-10.6903
兩字	-10.6903
道心	-10.6904
阿鼻	-10.6905
習氣	-10.6906
彈指	-10.6907
菜	-10.691
枉	-10.6912
《〈	-10.6913
分身	-10.6915
我不	-10.6916
身份	-10.6918
58	-10.692
善吉	-10.6922
無執受	-10.6922
仙人	-10.6922
完全智	-10.6924
明顯	-10.6927
得大	-10.6929
譯為	-10.6936
斷煩惱	-10.6941
君子	-10.6942
息滅	-10.6943
到經本	-10.6945
十卷	-10.6945
前三	-10.6948
月十五日	-10.6948
ana	-10.6949
宮殿	-10.695
繫縛	-10.6951
三摩耶	-10.6953
主治	-10.6959
彼如是	-10.6959
三相	-10.696
世諦	-10.6964
萬億	-10.6965
名也	-10.6973
佛及	-10.6973
不放逸	-10.6978
總答	-10.6978
儀式	-10.6978
產生於	-10.6981
的重要	-10.6983
不能自	-10.6983
雖無	-10.6983
應無	-10.6984
煩惱障	-10.6986
所緣境	-10.6989
所取	-10.699
不詳	-10.6992
輕微	-10.6999
滿願	-10.7
標題	-10.7002
不可見	-10.7004
一起	-10.7004
無情	-10.7006
不合	-10.7013
的痛苦	-10.7015
貪欲	-10.7016
各地	-10.7027
但坐	-10.7028
真身	-10.7029
修持	-10.703
此義	-10.7033
百由旬	-10.7037
統一	-10.7039
方便智	-10.7044
無非是	-10.7047
周遍	-10.7047
常能	-10.7048
不明	-10.7048
方知	-10.7053
由是	-10.7062
四年	-10.7068
諸惡	-10.7069
心要	-10.7069
婆囉	-10.7072
76	-10.7086
應供	-10.709
有八	-10.7091
寶蓋	-10.7094
所修	-10.7094
電	-10.7097
或於	-10.7099
罪愆	-10.7102
無想	-10.7104
出世間	-10.7106
佛寶	-10.7111
收錄	-10.7112
或以	-10.7115
為諸	-10.7116
有八萬四千	-10.7117
的時間	-10.7125
60	-10.7126
兒子	-10.7126
正破	-10.7134
同體	-10.7135
定慧	-10.7146
所樂	-10.7148
ti	-10.7152
依持	-10.7162
之地	-10.7165
遍十方	-10.717
如來藏	-10.717
證入	-10.7175
我此身	-10.7176
不止	-10.7177
無滅	-10.718
生苦	-10.7181
由彼	-10.7188
苦因	-10.72
佛心	-10.7204
無量無邊	-10.7208
上文	-10.7212
四海	-10.7213
ād	-10.7214
內有	-10.7215
初文	-10.7216
其福	-10.7223
的說法	-10.7227
中有三	-10.7236
賤	-10.7239
六處	-10.7245
阿伽	-10.725
符	-10.7254
二人	-10.727
手等	-10.7277
存在於	-10.7286
俱有	-10.7291
聖眾	-10.7297
善人	-10.7301
一切世間	-10.7308
本源	-10.7308
真常	-10.7311
見道	-10.7312
結跏趺坐	-10.7313
份	-10.7316
厄	-10.7323
為說法	-10.7324
nā	-10.7325
聖典智	-10.7325
針	-10.7328
馬立奇	-10.7329
般若得經	-10.7329
來此	-10.7329
程度	-10.7329
遵守	-10.7332
太陽	-10.7333
幫助	-10.7333
諾	-10.7333
運動	-10.7335
海會佛菩薩	-10.7335
誑	-10.7337
由於專心繫念而認清	-10.7338
敦煌禪籍	-10.7338
無動	-10.7339
於世間一切事物也無所執取	-10.734
74	-10.7341
校勘	-10.7341
敗	-10.7342
誠心仰請	-10.7343
心是	-10.7343
摘	-10.7344
貝	-10.7345
唱題	-10.7345
優婆夷	-10.7347
翻譯的	-10.7348
書籍	-10.7348
須彌山	-10.7349
敬拜	-10.7349
衰損	-10.7351
皈依三寶	-10.7351
天上人間	-10.7352
詔	-10.7352
康	-10.7353
管	-10.7354
詐	-10.7354
增上慢	-10.7354
驕慢	-10.7356
一字	-10.7357
這說明	-10.7357
旃檀	-10.7358
擁	-10.7358
具備	-10.7358
戌	-10.7358
翳	-10.7359
耆	-10.7359
譯出	-10.7359
竹	-10.736
懇	-10.7361
損益	-10.7362
猛火	-10.7362
泯	-10.7362
谷	-10.7363
胎生	-10.7363
恢復	-10.7364
今欲	-10.7365
休息	-10.7365
擾	-10.7365
歡樂	-10.7365
澄觀	-10.7365
修菩薩行	-10.7367
怛他伽哆	-10.7367
信受	-10.7368
伐	-10.7368
涉及	-10.7368
囊	-10.7369
憍	-10.737
羞	-10.7371
刀山	-10.7371
佛眼	-10.7371
涅	-10.7372
以自	-10.7373
即名	-10.7375
未知法中	-10.7377
心王經	-10.7378
修福	-10.7379
善趣	-10.7379
悉應	-10.738
暇滿	-10.7381
加持誦	-10.7384
安置	-10.7384
證果	-10.7384
明其	-10.7386
謂於	-10.7386
迦羅	-10.7388
他是	-10.7391
隨逐	-10.7392
心者	-10.7392
女神	-10.7393
耽著	-10.7393
逐漸	-10.7393
得自在	-10.7394
一旦	-10.7395
恩愛	-10.7395
勢至	-10.7397
六賊	-10.7398
雖殊	-10.7399
普使	-10.7399
著述	-10.7402
冤結	-10.7404
迦葉菩薩	-10.7407
修得	-10.741
佛母	-10.741
安忍	-10.7413
染污	-10.7414
為當	-10.7415
佛剎	-10.7415
依彼	-10.7416
香壇	-10.7417
所斫	-10.7418
否則	-10.7419
有別	-10.7421
色處	-10.7422
但由於	-10.7425
心淨	-10.7425
妙理	-10.7432
勝利	-10.7433
音義	-10.7436
淨想	-10.7437
何曾	-10.7445
總之	-10.7446
右半葉	-10.7446
辦法	-10.7451
提到的	-10.7454
講說	-10.7455
明四	-10.7457
於其	-10.7464
您的	-10.7466
以是	-10.7471
六界	-10.7472
相到	-10.7479
虛名	-10.7479
能使	-10.7479
周錄	-10.7481
不修	-10.7483
昔時	-10.7486
本師	-10.7488
十力	-10.7496
得成	-10.7497
摩訶般若波羅蜜	-10.7498
瞋恨	-10.7503
增補	-10.7506
都有	-10.7508
誦出	-10.751
破壞	-10.7519
共住	-10.7522
作沙門	-10.7524
能見	-10.7525
想著	-10.7528
達到	-10.7528
相貌	-10.7529
萬善	-10.753
不名	-10.7531
四攝	-10.7532
最大	-10.7536
以何為	-10.7537
為何	-10.7538
絕無	-10.7542
悉地	-10.7544
斷絕	-10.7544
為義	-10.7545
魔王	-10.7546
j	-10.7548
不造	-10.7557
放在	-10.7564
於諸有情	-10.7567
我執	-10.7568
顯了	-10.7579
有為法	-10.758
凡人	-10.7589
有的	-10.7597
亦須	-10.7597
不假	-10.7602
兩行	-10.7613
惑也	-10.7632
意根	-10.7632
一劫	-10.7638
所說的	-10.765
的影響	-10.7651
道品	-10.7659
家中	-10.767
現法	-10.7678
非無	-10.768
所逼	-10.7683
為道	-10.7683
見此	-10.7685
法無我	-10.7686
性地	-10.77
居住	-10.7703
三輪	-10.7705
以彼	-10.7706
之善	-10.7719
不如法	-10.772
永無	-10.7721
皆空	-10.7723
本生	-10.7725
聞聲	-10.7729
常行	-10.7734
願消滅	-10.7735
國家	-10.7743
經部	-10.7744
pari	-10.7745
均有	-10.7746
得佛	-10.7752
願心	-10.7754
住世	-10.7759
八百	-10.7762
地獄中	-10.777
有疾	-10.7773
謂由	-10.7777
不易	-10.7777
之行	-10.7782
二親	-10.7786
有學	-10.7787
eka	-10.7794
人我	-10.7795
他們的	-10.7796
bhāva	-10.7797
初地	-10.7798
後時	-10.7798
顯真	-10.7801
49	-10.7801
既是	-10.7805
跟	-10.7806
之福	-10.781
分作	-10.7814
飲酒	-10.7814
的一種	-10.7821
為孝	-10.7821
咎	-10.7822
C	-10.7823
拙	-10.7824
一由旬純黃金色	-10.7826
無眾生	-10.7827
非命	-10.7828
三十七品	-10.7828
裂	-10.7829
眾聖	-10.7829
雙手合十	-10.7829
佛為心王菩薩說頭陀經	-10.783
美妙	-10.7831
感官	-10.7831
所藏	-10.7832
D	-10.7833
迅速	-10.7834
圖書館	-10.7834
蘇那	-10.7836
靠	-10.7836
十戒	-10.7836
雖非	-10.7836
控制	-10.7837
某些	-10.7837
造業	-10.7837
四部	-10.7838
目的	-10.784
聽到這些話	-10.784
闡	-10.7841
之文	-10.7842
是空	-10.7842
製	-10.7844
五色	-10.7844
麥	-10.7844
寫經造像	-10.7844
寡	-10.7845
還同	-10.7846
森林	-10.7846
出品名	-10.7848
鹿	-10.7848
飢渴	-10.7848
泰	-10.7848
折磨	-10.7849
精舍	-10.785
塊	-10.7851
楊	-10.7851
降魔	-10.7852
之際	-10.7852
袈裟	-10.7852
閻羅	-10.7852
乏	-10.7852
聞說	-10.7852
繩	-10.7853
睡眠	-10.7854
襲	-10.7854
跪	-10.7855
鳳	-10.7855
如能	-10.7855
峰	-10.7855
爰	-10.7856
近代抄本	-10.7856
但以	-10.7857
債	-10.7857
幼	-10.7857
若離	-10.7858
夕	-10.7858
液	-10.7858
渴仰	-10.7858
臥具	-10.7858
醒	-10.7859
狹	-10.7859
咽	-10.7859
五分	-10.7859
琉璃筒	-10.7859
尊貴	-10.7861
天竺	-10.7861
荷	-10.7861
舟	-10.7862
雁	-10.7864
羊	-10.7865
百千劫	-10.7865
溪	-10.7866
駕	-10.7867
委	-10.7868
湖	-10.7868
讚頌	-10.7868
嗚呼	-10.7869
婆羅	-10.7869
▁B	-10.7869
王舍城	-10.787
熾盛	-10.787
瑟	-10.7872
虧	-10.7873
(2)	-10.7873
化導	-10.7873
拔苦	-10.7874
為斷此疑	-10.7875
戒者	-10.7875
開元	-10.7875
」,「	-10.7878
婆耶	-10.7878
境界有對	-10.788
陣	-10.788
較多	-10.7882
業力	-10.7882
rā	-10.7882
與其	-10.7884
滿馱	-10.7884
食肉者	-10.7885
七年	-10.7885
經卷	-10.7888
塞那克	-10.7893
思量	-10.7893
說也	-10.7895
復原	-10.7897
實際上	-10.79
便能	-10.79
神足	-10.7901
是由	-10.7902
懷疑	-10.7907
親近	-10.7907
二智	-10.7908
假使	-10.7908
愛者	-10.7908
復言	-10.7916
皆以	-10.7917
排除	-10.7918
妄識	-10.7918
四十	-10.7922
不能救	-10.7923
對研究	-10.7924
bh	-10.7924
林中	-10.7926
若我	-10.7926
記錄	-10.7929
暫時	-10.7932
像前	-10.7932
亦應如是	-10.7937
根源	-10.7939
又是	-10.7939
六趣	-10.7941
妙善	-10.7941
分離	-10.7948
須依	-10.7949
面前	-10.7955
有境	-10.7956
利物	-10.7957
。—	-10.7957
的觀點	-10.7957
見色	-10.7962
淨度	-10.7963
正好	-10.7969
恒時	-10.7971
的五種	-10.7973
川	-10.7976
若許	-10.7978
正等	-10.7982
在內	-10.7983
乙本	-10.7984
引證	-10.7988
不轉	-10.799
七地	-10.799
可能是	-10.7994
瞋心	-10.7999
波羅蜜多	-10.8
於前	-10.8004
離去	-10.8007
千萬	-10.8008
本尊	-10.8013
有著	-10.8017
者是	-10.8022
初明	-10.8023
眾德	-10.8024
一面	-10.8037
請為	-10.8043
千劫	-10.8046
死者	-10.8046
三心	-10.8048
大品	-10.8062
諦實成就	-10.8062
盡力	-10.8064
前述	-10.8066
上的	-10.8067
所致	-10.8068
人物	-10.8068
pā	-10.807
署	-10.8071
是苦	-10.8074
所出	-10.8075
日日不	-10.8079
疏釋	-10.8079
些	-10.8081
於何	-10.8089
題名	-10.8092
文五	-10.8093
作福	-10.8093
淨心	-10.8094
觀世音菩薩	-10.8094
當於	-10.8103
不救	-10.8107
即知	-10.8107
以其	-10.8109
不悟	-10.8116
其父	-10.8118
止息	-10.812
勸修	-10.8121
分成	-10.8122
一切佛	-10.8125
婆伽	-10.8128
七住	-10.8133
悔過	-10.8137
五十	-10.8138
已得	-10.8138
普光	-10.814
百萬	-10.8142
造罪	-10.8142
二答	-10.8144
普為	-10.8147
華嚴宗	-10.8149
的形態	-10.8152
何謂為	-10.8152
衣食	-10.8158
一條	-10.8159
後三	-10.8163
罪障	-10.8166
令他	-10.8168
81	-10.8171
取相	-10.8174
得此	-10.8174
見我	-10.8175
說之	-10.8182
各異	-10.8186
他作	-10.8192
不言	-10.8195
感得	-10.8198
至少	-10.8198
因明	-10.8201
故得	-10.8206
如其	-10.8212
的藏經	-10.8215
仁師	-10.8216
āni	-10.8218
有過	-10.8218
取其	-10.8219
行布施	-10.822
無性	-10.8221
毛孔	-10.8223
與佛	-10.8227
論師	-10.8228
不求	-10.823
別有	-10.824
刪	-10.8249
能取	-10.825
口中	-10.8251
98	-10.8258
為作	-10.8265
邪正	-10.827
應修	-10.8276
得授記	-10.8278
攝持	-10.8281
於父母	-10.8281
神咒	-10.8291
97	-10.8296
能持	-10.8304
相離	-10.8305
多羅	-10.831
概	-10.8311
不欲	-10.8319
三生	-10.8322
得出	-10.8327
的註釋	-10.8328
予	-10.8336
見解	-10.8337
的確	-10.8338
團	-10.8339
自性成就之	-10.834
三尊	-10.834
放棄	-10.8347
貪求	-10.8347
非時	-10.8349
明立論因	-10.8349
著我	-10.8354
廣品歷章	-10.8356
黑城本	-10.8358
迦旃延	-10.8358
神王	-10.836
K	-10.836
誠心禮別	-10.836
J	-10.8361
泛	-10.8361
突	-10.8362
調查	-10.8364
甚多世尊	-10.8365
隋代	-10.8366
增加	-10.8366
譽	-10.8367
魔旬	-10.8367
綴接	-10.8367
譬如有人	-10.8368
法故	-10.8369
其他經錄	-10.8369
串習	-10.837
拋	-10.837
尸羅	-10.837
遶	-10.8371
憒鬧	-10.8371
塚間	-10.8372
完全相同	-10.8373
灰	-10.8374
逮	-10.8374
逝世	-10.8375
無著論	-10.8375
壓	-10.8375
阿彌	-10.8375
種性	-10.8375
黃金	-10.8376
縮	-10.8376
輕安	-10.8377
佚	-10.8377
掩	-10.8377
孕	-10.8377
壯	-10.8378
仁宗	-10.8378
牢	-10.8379
能與眾生	-10.838
家祕	-10.838
徐	-10.838
感覺	-10.8381
躬	-10.8381
中央	-10.8382
墨	-10.8382
身口意	-10.8382
若不爾者	-10.8382
揀	-10.8382
邦	-10.8382
勝鬘	-10.8383
策	-10.8383
捲	-10.8383
盤	-10.8384
喧	-10.8384
)《	-10.8384
丹	-10.8384
信士	-10.8384
夙	-10.8385
民眾	-10.8385
雲南	-10.8386
不肯	-10.8386
從來	-10.8386
皆消滅	-10.8387
髓	-10.8388
之首	-10.8389
乍	-10.8389
助伴	-10.8389
迫	-10.8389
以此驗	-10.8389
首殘	-10.8389
受到	-10.839
糞	-10.839
吳	-10.8391
魅	-10.8392
庭	-10.8393
吐	-10.8393
煉	-10.8395
曇	-10.8395
包	-10.8396
闡提	-10.8396
阿含經	-10.8396
達磨	-10.8396
祿	-10.8397
區分	-10.8397
國王啊	-10.8398
妄計	-10.8399
回答	-10.84
威光	-10.8404
今朝	-10.8405
類似	-10.8405
何名	-10.8405
喜捨	-10.8406
兩節	-10.8408
梵語	-10.8408
苦滅道	-10.8411
羅網	-10.8411
吏	-10.8411
編撰	-10.8413
抄經	-10.8413
怛羅	-10.8416
尚有	-10.8416
好象	-10.8417
普照	-10.8418
二卷本	-10.8418
得無生忍	-10.8419
多方	-10.842
成熟	-10.842
遠近	-10.8422
啟問	-10.8423
行持	-10.8423
觀法	-10.8425
睇	-10.8425
法藏	-10.8425
往往	-10.8428
,15	-10.8429
九品	-10.8434
大藏經的	-10.8435
十八界中	-10.8439
白世尊	-10.8444
17、	-10.8445
內地	-10.8446
萬德	-10.8447
唯佛	-10.8448
注釋	-10.8449
異本	-10.845
等同	-10.8451
段食	-10.8452
非虛	-10.8453
下劣	-10.8455
數數	-10.8457
形像	-10.8458
食之	-10.846
密意	-10.8461
身也	-10.8463
末世	-10.8466
無可	-10.8469
假立	-10.8472
何事	-10.8475
置於	-10.8476
句子	-10.8481
上方	-10.8481
應該是	-10.8485
據說	-10.8486
請師	-10.8487
亦以	-10.8488
教義	-10.8498
藏外	-10.8501
使者	-10.8506
造下	-10.8506
(6	-10.8506
喻比丘	-10.8512
此後	-10.8518
也可以	-10.8518
長生	-10.8521
圓通	-10.8523
變現	-10.8523
特點	-10.8523
辟支佛	-10.8525
義者	-10.8526
慧命	-10.8531
中品	-10.8532
亦復	-10.8536
動搖	-10.8536
常自	-10.8537
大小乘	-10.8538
大弟子	-10.8544
門中	-10.8552
異門	-10.8555
若有眾生	-10.8556
妄見	-10.8561
惡念	-10.8561
三災	-10.8566
無所染	-10.8567
慈尊	-10.8568
要是	-10.8575
何由	-10.8578
光照	-10.858
7、「	-10.8581
若由	-10.8581
是真	-10.8583
難可	-10.8587
將軍	-10.8589
戒行	-10.859
佛之	-10.8594
之體	-10.8598
雖行	-10.8602
明因	-10.8605
法輪	-10.8605
悟道	-10.8605
月一日	-10.8607
正義	-10.8608
如今	-10.8609
永不	-10.8609
斷常	-10.8615
又如	-10.8618
申三	-10.8623
本空	-10.8626
(10	-10.8628
許為	-10.8632
對境	-10.8633
身為	-10.8635
都無	-10.8636
不貪	-10.864
釋迦牟尼	-10.8641
了達	-10.8646
乃能	-10.8648
聞者	-10.8649
令諸	-10.8652
為正	-10.8654
九十	-10.8654
意業	-10.8655
甚難	-10.8655
如空	-10.8656
嚩日囉	-10.8657
能作	-10.8666
進入	-10.8667
行動	-10.8669
傳說	-10.8671
度人	-10.8672
三摩	-10.8674
眾善	-10.8676
□□□□□	-10.8677
亦不應	-10.8679
意地	-10.8682
8)	-10.8686
此言	-10.8687
諸佛子	-10.8693
無所有	-10.8697
四依	-10.8699
覺知	-10.8702
造論	-10.8704
釋迦如來	-10.8706
說者	-10.8709
故事	-10.8711
手持	-10.8712
四眾	-10.8714
43	-10.8718
慈覺	-10.8722
法喜	-10.8729
妙音	-10.873
現相	-10.8742
達囉	-10.8753
▁5	-10.876
不喜	-10.8768
如雲	-10.8772
難以	-10.8774
的願望	-10.8775
不任	-10.8784
以大悲	-10.8785
外凡	-10.8786
雜染	-10.8792
九歲	-10.8793
相關	-10.8801
我自	-10.8802
這兒	-10.8802
同為	-10.8802
勤精進	-10.8803
為養	-10.8807
體現	-10.8809
法想	-10.881
卷五	-10.8813
三句	-10.8814
可以肯定	-10.8816
高興地	-10.8826
我師	-10.8829
食物	-10.8841
彌勒菩薩	-10.8842
不變	-10.8843
後不久	-10.8848
總是	-10.8851
足下	-10.8861
〈	-10.8866
自性空	-10.8867
今我	-10.887
所有的人	-10.8871
貌	-10.8876
枝	-10.8877
獨立	-10.8879
ha	-10.8883
者何	-10.8884
(?)	-10.8885
結勸	-10.8888
所由	-10.8889
告言	-10.8893
整個	-10.8893
未一	-10.8894
阿那含	-10.8895
一部分	-10.8895
§9.2	-10.8901
異生	-10.8902
dvi	-10.8905
色相	-10.8906
綜	-10.8908
佛號	-10.8908
在僧法誦出經中著錄	-10.8911
綴	-10.8912
進一步	-10.8912
辭彙	-10.8913
艱苦	-10.8913
饒	-10.8914
討論	-10.8915
即從座起	-10.8918
括	-10.8918
而於	-10.8918
拳	-10.8919
為他人說	-10.8919
行施	-10.892
章句	-10.892
熏	-10.892
三藐三菩提	-10.8921
簡單	-10.8921
降臨道場	-10.8921
以下簡稱	-10.8921
規範	-10.8922
消失	-10.8923
辱	-10.8923
毗盧遮那	-10.8923
祭祀	-10.8925
莫作是念	-10.8926
高興	-10.8926
廻	-10.8926
該經的	-10.8927
臭	-10.8928
霞	-10.8928
十世紀	-10.8931
奧	-10.8931
霜	-10.8932
暢	-10.8932
名利	-10.8932
砂	-10.8933
苟	-10.8933
發表	-10.8934
大孝釋迦佛	-10.8934
以是義故	-10.8935
姑	-10.8937
諧	-10.8937
撰述	-10.8937
寶座	-10.8938
方按	-10.8938
薦	-10.8938
或云	-10.8939
安心	-10.8939
警策大眾	-10.8939
享樂	-10.894
從無始	-10.894
遺書	-10.894
斥	-10.894
啟請	-10.894
俯	-10.8941
妖	-10.8941
盆	-10.8941
廓	-10.8942
無生法忍	-10.8942
愚昧	-10.8943
漂	-10.8944
茂	-10.8944
大法	-10.8945
煮	-10.8945
貪瞋癡	-10.8945
無量劫來	-10.8945
攝受報恩	-10.8946
江河	-10.8946
來說	-10.8946
亮	-10.8947
卷三	-10.8947
之路	-10.8949
死入地獄	-10.8949
祖師	-10.8949
沐	-10.895
豆	-10.895
黨	-10.8952
予以	-10.8952
誘	-10.8953
耕	-10.8953
渾	-10.8953
子孫	-10.8954
樓閣	-10.8955
焚燒	-10.8955
淳	-10.8955
值得	-10.8957
惡魔	-10.8958
濟度	-10.896
矜	-10.896
墮落	-10.896
向上	-10.8963
未作	-10.8963
修成	-10.8963
惡心	-10.8964
三曼	-10.8964
父親	-10.8965
枕	-10.8965
長行及偈	-10.8965
燒香	-10.8966
戲論	-10.8967
作如是言	-10.8969
無量劫	-10.8971
大罪	-10.8972
使我	-10.8973
教化眾生	-10.8974
美惡	-10.8974
能詮	-10.8978
奉親	-10.8979
聞之	-10.8979
會啟	-10.898
他自己	-10.8982
嚴淨	-10.8983
專注	-10.8983
淺深	-10.8983
獲福	-10.8984
告訴	-10.8987
險道	-10.8987
任持	-10.8987
為令	-10.8988
之主	-10.8988
有多	-10.8989
所在	-10.899
行法	-10.899
一如	-10.8992
形容	-10.8993
無求	-10.8994
若在	-10.8995
起心	-10.8998
分段	-10.9005
自從	-10.9006
不忘	-10.9007
眼見	-10.9009
之恩	-10.901
之異	-10.9012
妙藥	-10.9014
相當於	-10.9016
正理	-10.9016
雖是	-10.9016
象王	-10.9019
實不	-10.9019
離開	-10.9021
90	-10.9021
從緣	-10.9021
不善業	-10.9023
妄念	-10.9023
首部	-10.9023
向佛	-10.9028
菩薩成佛	-10.9031
為先	-10.9037
末後	-10.9041
眾生佛性	-10.9044
》,《	-10.9049
惡口	-10.905
何得	-10.9053
十住	-10.9056
二十四	-10.9057
阿利	-10.9059
懺儀	-10.906
在那裏	-10.906
相反	-10.9062
執著	-10.9062
以智慧	-10.9064
總錄	-10.9068
作意	-10.9075
二十五	-10.9075
說有	-10.9077
懺法	-10.908
他說	-10.9081
可能性	-10.9081
14、	-10.9082
嘆佛	-10.9082
章疏	-10.9085
分位	-10.9089
不分別	-10.9091
世界海	-10.9094
凡情	-10.9095
神明	-10.9097
?』	-10.9098
有一定的	-10.9105
發現了	-10.9106
極大	-10.9112
這一切	-10.9118
病苦	-10.912
的功德	-10.9122
願望	-10.9123
13、	-10.9125
行處	-10.9132
15、	-10.9133
漸漸	-10.9138
256	-10.9138
的一切	-10.914
土地	-10.9144
10.	-10.9144
諸蘊	-10.9146
是常	-10.9147
觀行	-10.9153
百億	-10.9153
有實	-10.9154
之我慢	-10.9155
由他	-10.9164
且道	-10.917
果位	-10.917
理中	-10.9172
古人	-10.9174
同類	-10.9179
的身體	-10.9184
我是	-10.9187
時年十	-10.9187
非由	-10.9189
你要	-10.9189
與我	-10.919
取得	-10.9202
至誠	-10.921
今將	-10.9215
令諸眾生	-10.9221
女身	-10.9222
明行	-10.9231
之妙	-10.9235
表明	-10.9235
病者	-10.9244
5)	-10.9246
得人身	-10.9251
囉吽	-10.9256
下文	-10.9257
捨壽	-10.9258
是個	-10.9259
心識	-10.9264
不攝	-10.9264
此答	-10.9266
我王	-10.9268
唯依	-10.9268
未盡	-10.927
既至	-10.9271
誐誐	-10.9276
不等	-10.9277
書中	-10.9282
諸佛如來	-10.9284
下面	-10.9288
之王	-10.9294
知足	-10.9299
云何不	-10.93
不犯	-10.9302
而在	-10.9307
樂聞	-10.9313
道果	-10.9314
六欲	-10.9315
有四種	-10.9318
六個	-10.932
不息	-10.9321
得到的	-10.9324
三十六	-10.9325
眾會	-10.9329
其理	-10.9329
十億	-10.9334
能證	-10.9335
非理	-10.934
所應	-10.934
檀那	-10.9341
見性	-10.9343
四蘊	-10.9344
辟支	-10.9355
下是	-10.9355
自性不成	-10.936
及與	-10.936
真心	-10.9365
圓珍的	-10.9366
顯然是	-10.9366
不待	-10.9372
願此	-10.9373
用智	-10.9375
是一個	-10.9376
擇	-10.9377
實智	-10.938
那耶	-10.9384
三百	-10.9389
修證	-10.9393
令心	-10.9396
那裏	-10.9399
此苦	-10.9401
淨壇	-10.9403
未必	-10.9405
是一種	-10.9406
前說	-10.9409
為緣	-10.9411
香雲	-10.9412
法食	-10.9423
不虛	-10.9424
若住	-10.9426
生疑	-10.9431
諸部	-10.9437
見有	-10.9446
未離	-10.9449
樣	-10.9449
作惡	-10.9453
作大	-10.9453
依經	-10.9455
62	-10.9459
明立	-10.946
於何處	-10.9465
對照	-10.9465
若彼	-10.9472
欲望	-10.9474
旦	-10.9481
說完	-10.9481
緣故	-10.9484
一件	-10.9484
較大	-10.9487
時候	-10.949
應斷	-10.9491
伏願特垂	-10.9492
故非	-10.9493
但均未著錄見	-10.95
情況如	-10.95
我聞	-10.95
高下	-10.95
其餘部分未收	-10.9501
觀世音	-10.9501
範疇	-10.9501
號背面	-10.9502
涼土	-10.9504
心要法門	-10.9504
生瞋	-10.9504
單元	-10.9505
難敵王	-10.9505
儀宣演	-10.9505
來去	-10.9506
省察	-10.9507
當知是人	-10.9509
李	-10.951
宇宙	-10.9511
帛	-10.9512
之功	-10.9512
南北朝	-10.9513
即應	-10.9515
準備	-10.9515
端直	-10.9515
綱	-10.9517
教團	-10.9517
跋折	-10.9517
強調	-10.9518
分割	-10.9518
穩	-10.9518
醫藥	-10.9519
宗派	-10.9519
。......	-10.9519
絲	-10.952
勵	-10.952
詠	-10.952
學習	-10.952
恐懼	-10.952
構成	-10.952
踏	-10.9521
藥師琉璃光王佛	-10.9521
姚	-10.9521
故以	-10.9521
覆障	-10.9521
郎	-10.9522
忙	-10.9522
鴻	-10.9523
這部經在	-10.9523
這些經典	-10.9523
啼	-10.9523
嘿	-10.9524
不立	-10.9524
寢	-10.9524
壽者見	-10.9525
擬題	-10.9525
盤陀	-10.9526
十二支法	-10.9527
崔法珍	-10.9527
有礙	-10.9527
焚香	-10.9527
霧	-10.9527
不免	-10.9527
乾坤	-10.9527
貧窮	-10.9528
羸	-10.9529
採用	-10.9529
析津志	-10.953
吞	-10.953
𤙣	-10.953
31、	-10.953
藥師尊	-10.953
版本	-10.9531
吹	-10.9532
鬚	-10.9532
皈命	-10.9532
陵	-10.9532
充滿著	-10.9532
有尋有伺	-10.9532
鬥	-10.9533
南宋	-10.9534
詰	-10.9534
養育	-10.9534
朱	-10.9534
無生無滅	-10.9534
刊刻	-10.9535
遼	-10.9535
誇	-10.9535
晨	-10.9535
鈍	-10.9535
真偽	-10.9536
閻浮	-10.9536
趙渢碑	-10.9536
慳貪	-10.9536
勒	-10.9536
展轉	-10.9537
團圓	-10.9537
美好	-10.9537
武帝	-10.9538
衝	-10.9538
食者	-10.9538
大王莫	-10.9539
美女	-10.9539
改變	-10.9539
郡	-10.9539
薩訶	-10.9541
永絕	-10.9541
八住以上	-10.9541
奇妙稀有之法	-10.9541
髏	-10.9543
負財	-10.9546
常樂我淨	-10.9548
超過	-10.9549
有罪	-10.9549
爾許	-10.9551
仁王	-10.9553
很難	-10.9553
討	-10.9553
愛河	-10.9554
若善男子	-10.9555
全國	-10.9556
著相	-10.9557
高僧	-10.9557
火宅	-10.9558
棄捨	-10.9558
腹中	-10.9559
入壇	-10.9559
已生	-10.9561
來驗	-10.9561
麼囉	-10.9562
很多	-10.9562
城中	-10.9562
速疾	-10.9562
安隱	-10.9563
虛假	-10.9564
止觀	-10.9566
長養	-10.9567
字母	-10.957
一切善法	-10.9573
常見	-10.9574
18、	-10.9574
的結構	-10.9575
識界	-10.9576
師資	-10.9577
致力	-10.9577
的性質	-10.9581
生處	-10.9581
並沒有	-10.9582
無違	-10.9582
得解	-10.9582
版心	-10.9584
聚集	-10.9585
眾緣	-10.9586
帙號	-10.9586
眼目	-10.9588
更相	-10.9588
願垂	-10.9589
以生	-10.9594
恩德	-10.9596
義理	-10.9596
道俗	-10.9597
譯作	-10.9599
大都	-10.9601
不由	-10.9605
內心	-10.9605
尚未	-10.9606
承事	-10.9607
永超	-10.9608
難忍	-10.9608
明緣起	-10.961
厭離	-10.961
7)	-10.9616
孝道	-10.9617
大苦	-10.9617
女孩	-10.9618
化物	-10.962
不空	-10.962
作如是說	-10.9622
非謂	-10.9622
冤業	-10.9623
續藏	-10.9626
餘法	-10.9626
脫離	-10.9626
生身	-10.9628
自在王	-10.9629
上座	-10.963
離此	-10.9631
摧毀	-10.9631
合為一	-10.9632
證知	-10.9632
思念	-10.9633
出息	-10.9638
眾皆	-10.964
洪名	-10.9649
理無	-10.9651
傷害	-10.9652
此答也	-10.9655
水月	-10.9659
妙覺	-10.9661
結縛	-10.9662
所譯	-10.9664
電光	-10.9665
得到了	-10.9665
三昧經	-10.9669
一事	-10.9669
總體	-10.967
前際	-10.9672
己身	-10.9673
得之	-10.9676
相忘	-10.9682
摩細	-10.9683
所謂道	-10.9688
答云	-10.9689
能感	-10.9699
一毛孔	-10.9699
非一	-10.9699
大將	-10.9701
作此	-10.9703
八解脫	-10.9703
實現	-10.9703
一名	-10.9704
方可	-10.9709
傳統	-10.9723
舍衛城	-10.9727
諸師	-10.9729
外境	-10.9729
▁6	-10.9735
常在	-10.9736
傳本	-10.9738
遊行	-10.9741
一解	-10.9746
此節	-10.9747
向下	-10.975
明四種	-10.9752
原本	-10.9761
悟入	-10.9762
罪消滅	-10.9762
當說	-10.9762
舌根	-10.9768
諸光	-10.9771
因之	-10.9771
釋迦佛	-10.9774
漏盡	-10.9774
的名稱	-10.9774
今既	-10.9779
para	-10.978
序分	-10.9781
真正的	-10.9782
大智者	-10.9782
體非	-10.9794
五卷	-10.9794
印度佛教	-10.9795
勝者	-10.9796
諸多	-10.9796
行善	-10.9798
應如	-10.9803
收集	-10.9804
事實	-10.9805
何人	-10.9809
分為二	-10.9815
引起	-10.9815
修慧	-10.9815
千生	-10.982
bha	-10.9822
是研究	-10.9823
歸真	-10.9823
大梵天	-10.9826
4)	-10.9832
48、	-10.9841
約緣	-10.9841
應受	-10.9854
文句	-10.9856
咒南無	-10.9863
福慧	-10.987
顯明	-10.9873
為益	-10.9873
身語	-10.9874
若當	-10.9874
體也	-10.9874
榮耀	-10.9876
諸大眾	-10.9876
乃可	-10.9885
金剛般若	-10.9886
皆同	-10.989
之有情	-10.9892
是因為	-10.9892
力量	-10.9894
全無	-10.9895
既得	-10.9897
38、	-10.9898
yoga	-10.99
依教	-10.9902
不可為	-10.9903
果故	-10.9906
35、	-10.9912
眾罪	-10.9917
不畏	-10.9923
若作	-10.9927
了別	-10.9935
實物	-10.9936
轉輪聖王	-10.9944
降生	-10.9947
通常	-10.9949
過去等	-10.9951
之所能	-10.9959
到佛所	-10.9959
不以為	-10.9962
的目錄	-10.9963
時年	-10.9963
受身	-10.9967
所存	-10.9978
法喻	-10.9982
常以	-10.9982
94	-10.9984
實性	-10.9998
無際	-11.0003
讓我	-11.0005
前者	-11.0006
慾	-11.0008
卷第一	-11.0011
有兩	-11.0013
和上	-11.0014
少分	-11.0022
昔有	-11.0024
事物的	-11.0036
五體	-11.0038
山中	-11.0039
正確的	-11.0044
有二義	-11.0053
因為他	-11.0054
之想	-11.0056
特徵	-11.0056
三界中	-11.006
世尊在	-11.006
這些話	-11.0061
四卷	-11.0062
心起	-11.0063
不勤	-11.0065
還要	-11.0068
諸家	-11.0071
了義	-11.0074
所錄	-11.0076
我將	-11.0076
不去	-11.0077
義天	-11.0079
轉成	-11.008
美麗的	-11.0081
品行	-11.0088
一毫	-11.0095
於人	-11.0096
依無	-11.0102
因其	-11.0103
因時	-11.0106
佛教的	-11.0107
→	-11.011
如夢	-11.0112
graha	-11.0115
adhi	-11.0118
很快	-11.012
登壇	-11.012
是故我	-11.0121
哪些	-11.0122
成長	-11.0122
從佛	-11.0123
拘利耶王女蘇波婆沙	-11.0123
報恩會上	-11.0123
斯陀含	-11.0124
材料	-11.0124
房山石經	-11.0125
汝何	-11.0125
間錯	-11.0126
芬芳	-11.0126
為利他	-11.0127
一類	-11.0127
掉	-11.0129
僧法尼	-11.0129
莎	-11.013
混合	-11.013
達摩一宗	-11.0131
薩婆怛他伽哆	-11.0132
粘	-11.0133
背景	-11.0133
祇陀林	-11.0134
日改為	-11.0134
恐畏	-11.0135
權威	-11.0135
參禮	-11.0135
追求	-11.0135
矛盾	-11.0136
行住坐臥	-11.0136
以三十二相觀如來	-11.0136
警覺	-11.0136
另一方面	-11.0136
使他	-11.0137
給予	-11.0137
獨覺佛	-11.0137
少欲知足	-11.0138
無生滅	-11.0138
該詞	-11.0139
貧乏	-11.014
遙見	-11.014
瑪	-11.014
眷	-11.0141
陶	-11.0142
曆	-11.0142
缺乏	-11.0142
燄	-11.0143
即此	-11.0143
紹	-11.0144
髻	-11.0144
五月	-11.0144
陀羅尼經	-11.0145
細微	-11.0145
婚	-11.0145
模	-11.0145
五佛	-11.0145
蒂	-11.0146
瑜	-11.0146
無罣礙	-11.0147
稠	-11.0147
二空理	-11.0147
汲	-11.0149
E	-11.015
旗	-11.015
憎	-11.015
托	-11.015
啖	-11.015
纖	-11.015
赦	-11.0151
創始	-11.0151
照明菩薩	-11.0152
作此觀	-11.0152
嗜	-11.0152
通達空性	-11.0153
娑訶	-11.0153
凌	-11.0153
阿耨多	-11.0153
嚴飾	-11.0153
隙	-11.0154
剛	-11.0154
馳	-11.0154
閑	-11.0154
陰陽	-11.0155
職	-11.0155
塔寺	-11.0155
熾然	-11.0155
憂愁	-11.0156
翠	-11.0157
抄錄	-11.0157
召請	-11.0157
激	-11.0158
八王日	-11.0158
彌凱耶	-11.0159
零	-11.0159
騎	-11.0159
趙	-11.0159
昭	-11.0159
朽	-11.016
喉	-11.016
賀囉	-11.0161
禪悅	-11.0161
雪帝	-11.0161
付囑	-11.0161
者願施	-11.0162
悖逆	-11.0162
成相	-11.0163
他心智	-11.0163
空無所有	-11.0163
第二部分	-11.0164
癹吒	-11.0164
優曇	-11.0165
鐵城	-11.0165
竊	-11.0165
將其	-11.0165
飽	-11.0166
彈	-11.0166
汁	-11.0166
最上乘	-11.0166
立刻	-11.0167
中尊	-11.0167
檀越	-11.0168
維德赫	-11.0168
祠	-11.0168
斧	-11.017
佛如來手	-11.017
追悔	-11.017
變易	-11.017
得安樂	-11.017
薪	-11.0171
躍	-11.0171
毗尼	-11.0171
毒藥	-11.0172
消亡	-11.0172
斷臂	-11.0172
以求	-11.0173
敦煌佛教	-11.0173
它與	-11.0173
業身	-11.0173
皎	-11.0174
30、	-11.0175
食肉	-11.0176
水陸	-11.0176
同上	-11.0177
爭論	-11.0177
懷著	-11.0178
良緣	-11.0179
jīva	-11.0179
大威力	-11.0179
vā	-11.018
能如是	-11.018
難測	-11.0181
來源	-11.0183
藥師如來	-11.0183
感到	-11.0183
初一	-11.0186
怨親	-11.0186
迷惑	-11.0187
理事	-11.0187
千里	-11.0188
奉請	-11.0188
個別	-11.019
中觀	-11.019
猶如虛空	-11.0195
36、	-11.0196
1、「	-11.0197
不可量	-11.0198
可以在	-11.0201
兩舌	-11.0202
音樂	-11.0203
作佛事	-11.0207
必然	-11.0208
明闇	-11.0212
叢林	-11.0212
不清	-11.0215
母氏	-11.0216
二法	-11.0217
青色	-11.0218
西天	-11.0218
是不	-11.022
為於父母	-11.0221
以此為	-11.0222
32、	-11.0222
此陀羅尼	-11.0223
會主	-11.0224
等事	-11.0224
頭陀經	-11.0225
很可能	-11.0228
一聲	-11.0229
同於	-11.0231
波囉密	-11.0232
何由得	-11.0233
機根	-11.0234
行詣	-11.0235
於眾生	-11.024
這位	-11.0241
至今生	-11.0242
解除	-11.0243
於此經	-11.0246
真妄	-11.0249
普施	-11.025
第一部分	-11.0251
難知	-11.0252
依前	-11.0253
相逢	-11.0255
座上	-11.0255
於善法	-11.0258
若能如是	-11.026
不堪任	-11.0262
念彌陀	-11.0262
彼於自身注意觀察其	-11.0262
耳根	-11.0263
釋云	-11.0263
證實	-11.0263
疑問	-11.0264
發明	-11.0266
應如是注意觀察其	-11.0266
始覺	-11.0267
彼於自身他身兼顧注意觀察其	-11.0268
侍者	-11.0269
的第一	-11.0273
悉是	-11.0274
猶有	-11.0274
疏云	-11.0276
官屬	-11.0277
此第一	-11.0278
佛在	-11.028
四重	-11.028
無諍	-11.0281
空有	-11.0282
提及	-11.0282
或作	-11.0283
眾比丘	-11.0286
啟白	-11.0292
有可能	-11.0294
悟理	-11.0294
的區別	-11.0295
大致	-11.0298
定心	-11.0299
佛足	-11.03
一家	-11.0301
學道	-11.0302
第十二	-11.0302
先須	-11.0303
取證	-11.0307
99	-11.0308
慧心	-11.0316
卷一	-11.0317
自由	-11.032
略出	-11.032
於諸法	-11.0321
身業	-11.0326
生起因	-11.0326
世界的	-11.0327
我得	-11.0331
受苦相	-11.0333
68、	-11.0335
智人	-11.0337
以之為	-11.0339
一個人	-11.0339
死王	-11.034
持誦	-11.034
(《	-11.0346
空海	-11.0347
了他	-11.0347
受罪	-11.035
不亂	-11.0352
高尚	-11.0352
全身	-11.0353
10、	-11.0356
20、	-11.0356
大孝	-11.0358
妙伽陀	-11.0359
破戒	-11.036
開敷	-11.0362
下經云	-11.0363
經疏	-11.0366
已久	-11.0368
34、	-11.0369
敬意	-11.0371
四大種	-11.0372
識住	-11.0374
觀察法	-11.0375
母子	-11.0379
報答	-11.0385
如水	-11.0386
之極	-11.0386
各別	-11.0389
教示	-11.0389
宰	-11.0392
著名	-11.0403
明制	-11.0405
善心	-11.0405
蘊等	-11.0408
諸有	-11.0408
何故不	-11.0409
就會	-11.0411
常清淨	-11.0413
上至	-11.0416
道路	-11.0416
而安立	-11.0417
研究者	-11.042
能壞	-11.0421
永斷	-11.0429
不念	-11.043
存在著	-11.0434
看看	-11.0437
日日	-11.044
今者	-11.0444
生淨土	-11.0447
既知	-11.0448
初發心	-11.0451
供佛	-11.0451
王經	-11.0457
tā	-11.0462
我會	-11.0464
能忍	-11.0469
文義	-11.047
之火	-11.047
五部	-11.0472
若生	-11.0472
為性	-11.0475
彼有	-11.0476
自見	-11.0484
上師	-11.0488
且如	-11.049
諦實無	-11.0492
無起	-11.0498
想必	-11.05
無二	-11.0502
前生	-11.0503
十六種	-11.0511
二帙	-11.0512
萬歲	-11.0525
法音	-11.0534
此第三	-11.0534
又以	-11.0544
所破	-11.0544
必定	-11.0546
於其中	-11.0548
不曾	-11.0555
又曰	-11.0556
題目	-11.0558
一年	-11.0558
理性	-11.056
衣等	-11.0563
2、「	-11.0563
理破	-11.0563
若約	-11.0569
候	-11.0576
者多	-11.0584
禪觀	-11.0585
聽受	-11.0587
某一	-11.0593
道地	-11.0594
大多	-11.0594
世法	-11.0604
中有二	-11.0605
此一	-11.0606
終無	-11.0607
轉化	-11.0612
求佛	-11.062
般若部	-11.0622
所燒	-11.0623
其文	-11.0624
是知	-11.0626
處理	-11.0626
貪心	-11.0638
41	-11.064
卜	-11.0644
41、	-11.0645
復何	-11.0646
的特點	-11.0646
形成的	-11.0648
失譯經	-11.0655
同行	-11.0657
諸王	-11.0658
八部	-11.0662
。)(	-11.0662
攝諸	-11.0671
佛祖	-11.0671
絕於	-11.0672
本來無	-11.0683
永離	-11.0693
所感	-11.0693
內凡	-11.0697
部經	-11.0697
到底	-11.0701
的淨修林	-11.0703
▁2	-11.0714
沙數	-11.0714
實際是	-11.0718
另有	-11.072
法生	-11.0721
會有	-11.0727
信者	-11.073
三衣	-11.0731
閻羅王	-11.074
而坐	-11.074
如來所說	-11.0743
大劫	-11.0743
陀囉	-11.0745
醫王	-11.0746
生盲	-11.0748
生前	-11.0748
有若干	-11.0758
tri	-11.0758
三十年	-11.0758
也就	-11.0758
日夜	-11.0759
45、	-11.076
久住	-11.0761
與前	-11.0762
心境	-11.0762
見彼	-11.0762
33、	-11.0766
實無有法	-11.0774
銜接	-11.0781
纂	-11.0784
批評	-11.0784
蔓	-11.0784
ṛ	-11.0784
閏	-11.0785
不顯	-11.0788
今明	-11.0789
永元元年	-11.079
金剛般若波羅蜜經	-11.079
諸經要集	-11.079
虛偽	-11.079
餓	-11.0791
誐囉	-11.0792
哀憫	-11.0792
羯磨	-11.0793
叉欲	-11.0793
北京	-11.0794
律行	-11.0794
偷盜	-11.0796
舍利弗尊者	-11.0796
禽	-11.0796
西域	-11.0796
歷史	-11.0796
月八日	-11.0796
閱讀	-11.0799
人法兩俱	-11.0799
組	-11.08
併	-11.08
龜毛	-11.0801
傲慢	-11.0801
教示兩部祕要義	-11.0803
把它們	-11.0803
具說	-11.0804
劉	-11.0804
迄	-11.0804
剩	-11.0804
俾	-11.0804
一日一夜	-11.0805
相合	-11.0805
邏	-11.0805
頸	-11.0805
歷代經錄	-11.0805
首尾完整	-11.0806
純潔	-11.0806
劬勞	-11.0806
生其國	-11.0806
志公	-11.0806
忉利天	-11.0806
律儀	-11.0807
蒲	-11.0808
幹	-11.0808
罔極	-11.0808
補刊	-11.0808
歎佛偈	-11.0809
證盟	-11.0809
的基礎上	-11.0809
芥子	-11.0809
軟	-11.0809
庫	-11.0809
匹	-11.0809
湛	-11.0809
他身	-11.081
鸞宿本	-11.0811
巖	-11.0811
平靜	-11.0811
城市	-11.0812
阿吒力經典	-11.0812
錦	-11.0813
醜	-11.0813
掛	-11.0814
謹慎	-11.0814
狼	-11.0814
高麗	-11.0814
保持	-11.0814
亦猶如是	-11.0814
第十三	-11.0815
我愛執持	-11.0815
葬	-11.0815
惹	-11.0815
末尾	-11.0815
無去無來	-11.0815
毋	-11.0816
健	-11.0816
八哥	-11.0816
貴賤	-11.0816
鍐	-11.0816
傭	-11.0816
於餘	-11.0817
賢首	-11.0817
金輪	-11.0817
坑	-11.0817
庸	-11.0817
屠	-11.0817
農	-11.0817
19、	-11.0817
勝義諦	-11.0817
疲厭	-11.0818
設供	-11.0818
十月	-11.0818
廣博	-11.0818
三十三天	-11.0818
髮際	-11.0818
佩	-11.0819
倦	-11.0819
公主	-11.0819
消息	-11.0819
代表	-11.0819
講堂	-11.0819
割截	-11.082
擎	-11.0821
獨覺	-11.0821
沾	-11.0821
游	-11.0822
亦喻比丘身	-11.0822
皤	-11.0822
不多	-11.0823
揮	-11.0823
無處不	-11.0823
佐	-11.0824
驕	-11.0824
jñāna	-11.0824
浩浩	-11.0824
投誠	-11.0824
至佛所	-11.0825
該目錄	-11.0825
莖	-11.0825
天請問經疏	-11.0825
肉團	-11.0826
刀杖	-11.0826
摩哩	-11.0826
鎖	-11.0826
劃	-11.0827
的具體	-11.0827
站	-11.0827
大般若經	-11.0827
迥	-11.0827
產生的	-11.0828
圓照	-11.0829
猴	-11.0829
4、「	-11.0829
逕	-11.083
有德	-11.083
循	-11.083
海會聖賢	-11.083
夭	-11.0832
位置	-11.0832
既見	-11.0832
稱之為	-11.0833
擲	-11.0833
佛告諸比丘	-11.0833
朔	-11.0834
無數劫	-11.0834
證據	-11.0834
大怖畏	-11.0835
七諦	-11.0836
用之	-11.084
此下第二	-11.0841
該書	-11.0842
儘是	-11.0842
無對	-11.0842
上身	-11.0843
厭患	-11.0844
摩羅	-11.0844
沉淪	-11.0844
上昇	-11.0846
迷亂	-11.0846
奢摩他	-11.0847
報應	-11.0847
制止	-11.0848
回向	-11.0848
美麗	-11.085
daśa	-11.0852
有我相	-11.0853
慈風	-11.0854
再次	-11.0857
的對象	-11.0857
初靜慮	-11.086
梵文	-11.086
利害	-11.0862
居家	-11.0862
前殘	-11.0863
塵塵	-11.0863
惟願	-11.0865
天授	-11.0872
42	-11.0873
德也	-11.0873
皆因	-11.0879
靈文	-11.088
賀多	-11.088
密語	-11.0882
花雨	-11.0882
這部經	-11.0882
勤求	-11.0883
五百年	-11.0883
祇要	-11.0884
五識身	-11.0884
護國	-11.0885
理趣	-11.0887
根起	-11.0887
幾許	-11.0888
名數	-11.0891
若如是者	-11.09
你就	-11.0901
縱使	-11.0902
尚不	-11.0904
頂上	-11.0908
持五戒	-11.0911
當得	-11.0912
緣境	-11.0914
廣略	-11.0915
世尊說	-11.0917
其道	-11.0919
無一	-11.0919
誰多	-11.0921
parā	-11.0921
此說	-11.0922
重病	-11.0922
閑靜	-11.0924
寧可	-11.0924
六師	-11.0928
志誠	-11.0929
淨飯王	-11.093
性故	-11.0938
過來	-11.0941
應可	-11.0951
aṇa	-11.0953
喻於	-11.0958
的解釋	-11.096
善能	-11.0966
化人	-11.0974
眾生之	-11.0974
從初	-11.0976
受諸	-11.0977
非餘	-11.0977
拔除	-11.0978
造成	-11.0978
am	-11.098
入山	-11.098
莫問	-11.0982
dh	-11.0984
園林	-11.0984
略有	-11.0987
修忍辱	-11.0992
此中有	-11.0993
則能	-11.0994
現疾	-11.0997
諸菩薩等	-11.0998
別別	-11.1
40、	-11.1004
請世尊	-11.1005
無主	-11.1007
相遇	-11.1013
求利	-11.1016
十方三世	-11.1016
耳識	-11.1016
不相違	-11.1019
心住	-11.1021
性淨	-11.1022
何日	-11.1023
現證	-11.1024
十六行	-11.1026
別立	-11.1028
57、	-11.1028
引文	-11.1029
聞是	-11.1029
求得	-11.1031
始從	-11.1032
已離	-11.1035
比如	-11.1037
故不應	-11.1038
有執受	-11.1038
6、「	-11.1038
取水	-11.1038
菩薩戒	-11.1041
較為	-11.1041
應思	-11.1044
乃知	-11.1046
今日今	-11.1047
爾時如來	-11.1052
身見	-11.1056
所有眾生	-11.1058
攝取	-11.1062
始於	-11.1063
出現的	-11.1064
財施	-11.1064
得其	-11.1065
名言	-11.1071
諸善根	-11.1071
諸本	-11.1072
俗人	-11.1076
有生	-11.1076
智也	-11.1077
人無我	-11.1078
三卷本	-11.1085
能立	-11.1087
本論	-11.1087
就有	-11.1089
特為	-11.109
四恩	-11.1091
今始	-11.1096
父子	-11.1116
42、	-11.1125
無倒	-11.1134
空也	-11.1137
果因	-11.1139
之惑	-11.1142
dha	-11.1148
每個	-11.1155
命也	-11.1156
若如是	-11.1156
之日	-11.1159
符合	-11.116
遍法界	-11.1161
5、「	-11.1162
力故	-11.1163
復能	-11.1167
常無常	-11.1173
不改	-11.1175
空故	-11.1179
不惜	-11.118
發現的	-11.1182
可信	-11.1183
是耆那教	-11.1185
它們的	-11.1188
諸緣	-11.1189
極其	-11.119
在這	-11.119
珠寶	-11.1191
轉依	-11.1201
常淨	-11.1202
欲以	-11.1207
53	-11.1209
四分	-11.1212
凡心	-11.1213
故先	-11.1216
益也	-11.1222
可與	-11.1226
難逃	-11.1227
吾今	-11.1232
佛以	-11.1234
之香	-11.1241
拿	-11.1242
天龍	-11.1246
的其他	-11.1249
道根	-11.125
43、	-11.1251
當念	-11.1253
大藏佛	-11.1254
此類	-11.1255
至心	-11.1257
有不少	-11.1258
所著	-11.1262
非實有	-11.1265
執受	-11.1267
誦真言	-11.1267
後一	-11.1272
心口	-11.1275
有情義利	-11.1284
觀者	-11.1292
毫光	-11.1296
此約	-11.1301
故喻	-11.1307
我亦	-11.1308
在何處	-11.1324
見者	-11.1325
是諸	-11.1326
這兩部	-11.1328
佛菩薩	-11.1329
彼非	-11.1331
37、	-11.1332
空故無	-11.1333
他在	-11.1334
不食	-11.1334
之所依	-11.1335
故復	-11.1338
微點	-11.134
何物	-11.1341
75、	-11.1342
彼彼	-11.1347
境智	-11.1348
的存在	-11.1348
后	-11.1348
受其	-11.1348
āṇi	-11.1351
道中	-11.1353
hā	-11.1353
頭骨	-11.1353
迴光	-11.1355
百卷	-11.1356
當令	-11.1357
6)	-11.1368
坐於	-11.1371
46、	-11.1376
有無量	-11.1376
武周	-11.1379
31	-11.1381
父母之	-11.1383
得清淨	-11.1383
十二年	-11.1387
死生	-11.1392
註明	-11.1392
我已	-11.1393
二部	-11.1396
初生	-11.1399
其罪	-11.1399
他成	-11.1401
滅罪	-11.1406
迦囉	-11.1408
諸世間	-11.141
我若	-11.1411
所有一切	-11.1413
歸命	-11.1416
如經	-11.1417
誰人	-11.1417
信行	-11.1418
但念	-11.1423
而現	-11.1431
八句	-11.1432
尊卑	-11.1435
今則	-11.1436
行悲	-11.1442
著錄的	-11.1448
已說	-11.1449
找	-11.1455
現代	-11.1456
難見	-11.1456
當證	-11.1457
眾中	-11.1457
窟	-11.1458
又來	-11.1461
一真	-11.1466
腹	-11.1469
若得	-11.1471
pañca	-11.1472
是大	-11.1477
命在	-11.1479
不死	-11.1479
立足生根	-11.1483
V	-11.1487
水月觀音	-11.1491
學人	-11.1491
其上	-11.1493
誨	-11.1494
竺法護	-11.1494
27、	-11.1495
意謂	-11.1495
kaṣāya	-11.1496
慈愍	-11.1497
§4.4	-11.1498
的最短壽命	-11.1498
奈良	-11.1499
無障礙	-11.15
darśana	-11.15
80、	-11.1501
冤債	-11.1501
瞬間	-11.1502
一個巴利堯巴姆	-11.1502
危險	-11.1503
鬼趣	-11.1503
諦義證得經	-11.1504
三惡道	-11.1504
妙寶	-11.1507
態	-11.1508
掌握	-11.1509
寧為多不	-11.1509
由此可知	-11.1509
佛性觀修善法	-11.151
凡情上達大圓鏡	-11.151
趕快	-11.1511
柔	-11.1511
保留	-11.1512
悴	-11.1513
眼睛	-11.1513
仁壽	-11.1513
插	-11.1513
窗	-11.1514
修自他平等	-11.1514
混	-11.1515
摩耶夫人	-11.1517
蜂	-11.1517
強弱	-11.1517
吟	-11.1517
疊	-11.1517
定中	-11.1518
或兼察身內之生起與壞滅	-11.1518
偉大	-11.1519
房舍	-11.1519
金剛五禮	-11.1519
家庭	-11.152
典據	-11.152
臉	-11.152
百千萬億	-11.1521
驚訝	-11.1522
碧琉璃	-11.1522
所居	-11.1524
筏	-11.1524
右旋	-11.1524
充分	-11.1524
豐富	-11.1525
斑	-11.1525
回壇	-11.1525
篤	-11.1525
漂亮	-11.1525
來至佛所	-11.1526
提供	-11.1526
王言	-11.1526
公元	-11.1526
苾蒭	-11.1526
瑪特維	-11.1527
莊	-11.1527
阻	-11.1527
知無我	-11.1527
中找到	-11.1528
叩	-11.1528
維摩	-11.1528
尊勝破地獄法	-11.1528
幾乎	-11.1528
分為三	-11.1529
傅大士	-11.1529
南都本	-11.1529
諭	-11.153
布露	-11.1531
眾等志誠	-11.1531
龜	-11.1531
祖傳	-11.1532
臻	-11.1532
五分法身	-11.1532
安惠	-11.1533
鷹	-11.1533
鞭	-11.1534
協	-11.1534
橋	-11.1534
世出世間	-11.1534
所得功德	-11.1534
依心轉起	-11.1535
錫	-11.1535
發揮	-11.1535
質礙	-11.1535
惶	-11.1535
遞	-11.1535
繼續	-11.1536
遇善知識	-11.1536
罔	-11.1536
槍	-11.1537
表述	-11.1537
作業相	-11.1537
我今為報	-11.1537
查	-11.1538
買	-11.1538
列數	-11.1538
諂	-11.1538
縛脫	-11.1539
作是思維	-11.1539
棲	-11.1539
偽撰	-11.1539
溢	-11.154
適悅	-11.154
援	-11.154
邐	-11.154
13.	-11.154
幽冥	-11.154
災殃	-11.1541
故經言	-11.1541
拖	-11.1541
劍樹	-11.1541
毛端	-11.1541
讎	-11.1541
渠	-11.1542
輪回	-11.1542
通達空性之般若	-11.1544
跳	-11.1544
綺語	-11.1544
弭	-11.1545
捕	-11.1545
叔	-11.1545
吼	-11.1547
宣疏	-11.1547
經文可參見	-11.1548
三十二分	-11.1548
āś	-11.1549
兆	-11.155
坦	-11.155
募	-11.155
平安	-11.155
某種	-11.1551
比量	-11.1551
生老病死	-11.1551
相見	-11.1552
娑囉	-11.1552
而作佛事	-11.1552
的重要資料	-11.1553
萌	-11.1553
恒河	-11.1553
竅隙	-11.1553
進趣	-11.1554
芳	-11.1554
司命	-11.1555
場所	-11.1556
生存	-11.1557
如其次第	-11.1557
羅列	-11.1557
避免	-11.1558
屍林	-11.1558
請您	-11.1559
聲音	-11.1561
純淨	-11.1562
流注	-11.1562
無盡藏	-11.1562
遍法界中	-11.1564
興福	-11.1565
註解	-11.1565
琴	-11.1566
造經像	-11.1567
資具	-11.1569
嚕畔	-11.1569
隨機	-11.157
沒有任何	-11.1571
初文分三	-11.1572
安居	-11.1574
時中	-11.1574
發阿耨多羅三藐三菩提心者	-11.1574
接引	-11.1575
七竅	-11.1575
行菩提心	-11.1576
重擔	-11.1577
大正藏本	-11.1581
獨一	-11.1581
49、	-11.1582
自說	-11.1582
小兒	-11.1582
使他們	-11.1583
未免	-11.1584
願以	-11.1584
的行為	-11.1589
舌識	-11.159
普供養	-11.159
本子	-11.1592
隨緣	-11.1592
恒河沙	-11.1592
趣向	-11.1592
取蘊	-11.1593
以至	-11.1593
離開了	-11.1593
自生	-11.1595
婦人	-11.1595
論疏	-11.16
眾寶	-11.1602
香味	-11.1603
的特徵	-11.1606
三處	-11.1609
領解	-11.1609
陀耶	-11.1609
可得福	-11.1609
不收	-11.1611
大智慧	-11.1611
藥王	-11.1612
汝所許	-11.1617
三苦	-11.1617
78、	-11.1619
75	-11.1619
衣鉢	-11.162
取境	-11.1622
對首	-11.1622
蘊界	-11.1623
亦有二種	-11.1624
深心	-11.1625
八邪	-11.1625
不幸	-11.1625
地前	-11.1625
敵人	-11.1626
彼於他人注意觀察其	-11.163
正士	-11.1633
別名	-11.1634
等法	-11.1634
十行	-11.1636
對三寶	-11.1638
有序	-11.1638
尋常	-11.1639
一紙	-11.164
三釋	-11.1642
者少	-11.1645
香供養	-11.1653
八識	-11.1654
偈言	-11.1658
菩提行	-11.1661
菩提相	-11.1663
我說	-11.1665
在這裡	-11.1665
多出	-11.1665
一切如來	-11.1667
獄中	-11.1667
投地	-11.1667
無始以來	-11.1672
天啊	-11.1672
堪忍	-11.1674
來護法	-11.1679
修菩提心	-11.1682
本處	-11.1686
斷惑	-11.1687
弟子中	-11.169
89	-11.1692
歡喜地	-11.1694
鐵圍山	-11.1695
紫金	-11.1696
至道	-11.1698
vy	-11.17
實施	-11.1702
實有者	-11.1705
至此	-11.1708
應如何	-11.1709
罪行	-11.1712
使人	-11.1715
是為最	-11.1715
乘體	-11.1721
今乃	-11.1722
我故	-11.1725
福業	-11.1726
白毫	-11.1728
應化	-11.1732
何妨	-11.1734
在懷	-11.1734
以致	-11.1735
ak	-11.1737
本土	-11.1739
bandha	-11.1739
眾神	-11.174
弘道	-11.1746
第十五	-11.1749
下座	-11.175
是什麼	-11.175
能行	-11.1752
外求	-11.1753
自相續	-11.1754
相應法	-11.1756
91	-11.1756
12.	-11.1757
的出現	-11.1758
upa	-11.1759
了了	-11.1759
覺天	-11.1761
乘義	-11.1762
禪定解脫	-11.1762
相配	-11.1762
十萬	-11.1762
時定	-11.1763
ja	-11.1763
違緣	-11.1764
諦觀	-11.1767
所聞	-11.177
初禪	-11.1771
成人	-11.1781
有形	-11.1785
墮惡趣	-11.1787
得涅槃	-11.1789
說言	-11.179
」;「	-11.1791
明師	-11.1792
在當時	-11.1795
光輝	-11.1796
天聖	-11.1799
受佛	-11.1799
花開	-11.1801
的意思	-11.1802
並無	-11.1802
既非	-11.1807
之義也	-11.1811
自四	-11.1812
寶髻王	-11.1813
常持	-11.1815
滅除	-11.1826
云何住	-11.1828
61、	-11.1829
發意	-11.1831
四魔	-11.1832
二句	-11.1833
勸人	-11.1839
豈能	-11.184
後二	-11.1842
進而	-11.1847
彼處	-11.1848
文詞	-11.185
證涅槃	-11.1852
知一切法	-11.1865
二列名	-11.1866
73	-11.1869
在敦煌遺書中	-11.1876
是即	-11.1878
此釋	-11.1878
於空	-11.1881
收經	-11.1885
正使	-11.1885
如山	-11.1887
開悟	-11.1887
理智	-11.1888
何云	-11.1889
有智	-11.1889
無罪	-11.1889
三脫	-11.1895
明壞	-11.1901
自能	-11.1902
51、	-11.1906
眾生與	-11.1907
四問	-11.1911
先當	-11.1914
則無有	-11.1915
加以	-11.1923
六者	-11.1923
百歲	-11.1932
雖同	-11.1938
照明	-11.1942
明中有	-11.1947
願意	-11.1948
並在	-11.1949
相關的	-11.1953
烈火	-11.1954
像法	-11.1956
許彼	-11.1966
若非	-11.1967
依報	-11.1971
一品	-11.1972
設有	-11.1972
右手	-11.1976
能害	-11.1976
虛空界	-11.1977
無失	-11.1978
生門	-11.1978
而復	-11.1979
多分	-11.1984
聞道	-11.1985
自下	-11.1986
能成辦	-11.1988
三皈	-11.1991
□□□□□□□□□	-11.1994
化主	-11.1995
集中	-11.1999
離於	-11.2002
卷中	-11.2006
乃為	-11.2006
種異本	-11.2008
當死	-11.2009
死相	-11.2009
58、	-11.2012
物體	-11.2015
十二種	-11.2015
若未	-11.2015
離處	-11.2019
法海	-11.2021
何可	-11.2022
相傳	-11.2022
應許	-11.2024
雖多	-11.2025
▁a	-11.2027
的工作	-11.2028
而死	-11.2036
手中	-11.2039
差別故	-11.2044
即法身	-11.2046
無受	-11.2049
前面	-11.205
道人	-11.2051
此中無	-11.2053
則成	-11.2053
那時	-11.2057
體解	-11.2059
孩子	-11.2062
將會	-11.2062
著地	-11.2064
重問	-11.2066
四智	-11.2067
願佛	-11.2067
不能生	-11.2069
誓言	-11.2075
前來	-11.2076
化為	-11.208
學說	-11.2082
三大	-11.2084
齋戒	-11.2085
與彼	-11.2091
諸位	-11.2091
大意	-11.2093
欲見	-11.2094
義同	-11.2095
波若	-11.2095
之稱	-11.2103
迦耶	-11.2115
身垂	-11.2117
我有	-11.2118
興趣	-11.2119
無厭足	-11.2121
所能	-11.2125
怛他誐多	-11.2125
此六	-11.2129
經目錄	-11.2129
道教	-11.213
何其	-11.2132
1)	-11.2132
非求	-11.2133
造諸	-11.2133
心目	-11.2134
同歸	-11.2134
而立	-11.2134
悅意	-11.2134
言教	-11.2149
意思	-11.215
in	-11.215
名為佛	-11.215
生天上	-11.2156
立名	-11.2158
pra	-11.216
六時	-11.2163
印咒	-11.2173
香水	-11.2182
無常等	-11.2186
於先	-11.2191
大事	-11.2192
隨身	-11.2192
彼二	-11.2195
僧眾	-11.2201
朝時	-11.2203
相近	-11.2208
之屬	-11.2212
長大	-11.2216
應歡喜	-11.2216
聾	-11.2223
如常	-11.2224
此物	-11.2228
自在轉	-11.2229
的論述	-11.2232
隨從	-11.2235
有殊	-11.2235
十年	-11.2241
◇	-11.2245
55、	-11.2245
了她	-11.2247
之別	-11.2251
常依	-11.2254
聞思	-11.2255
自調	-11.2255
信仰性佛教	-11.2256
矢吹	-11.2261
白衣派刊本	-11.2262
恐怕	-11.2263
呵責	-11.2263
曷為	-11.2264
寶髻本緣	-11.2265
金剛經纂	-11.2267
據作者原註	-11.2267
意向性	-11.2267
正月	-11.2269
卵生	-11.2269
持用布施	-11.227
le	-11.2271
津梁	-11.2274
非法相	-11.2274
陞	-11.2274
值得注意的是	-11.2274
三階佛法	-11.2274
可任意	-11.2274
三藐三佛陀	-11.2275
植	-11.2275
聯係	-11.2275
慘	-11.2277
蓬	-11.2277
905/1	-11.2278
這一問題	-11.2278
毗捨佉	-11.2279
於涅槃	-11.2279
注心要法門	-11.228
綰	-11.228
貞	-11.228
廻向	-11.228
父母恩難報	-11.228
怎樣	-11.2282
物質性的	-11.2283
爾時摩耶夫人	-11.2283
鑄	-11.2283
佛即	-11.2284
藏經洞	-11.2284
苑	-11.2285
自從曠劫	-11.2285
有益	-11.2285
攻擊	-11.2285
允	-11.2285
第一波羅蜜	-11.2286
寬狹	-11.2286
瘟疫	-11.2287
衰退消失	-11.2287
坐在一旁	-11.2287
仿	-11.2287
湧	-11.2287
評	-11.2288
如來廣孝十種報恩道場儀	-11.2288
昏沉	-11.2288
如法應和	-11.2288
怨賊	-11.2289
偃	-11.2289
型	-11.2289
衍	-11.2289
挫	-11.2289
英俊	-11.2289
902	-11.229
森林裏	-11.229
輕蔑	-11.2291
孽	-11.2292
即興說	-11.2292
隊	-11.2293
膝	-11.2294
粟	-11.2294
文繁	-11.2295
不盡有為	-11.2296
王捨城	-11.2296
藥草	-11.2296
蕩滌	-11.2296
何待言	-11.2297
暖	-11.2297
人間天上	-11.2298
法句經	-11.2298
貨	-11.2298
尅	-11.2298
得悟	-11.2298
角度	-11.2299
殘存	-11.2299
伽藍	-11.2299
疆	-11.2299
珊	-11.2299
稀	-11.2299
預流	-11.2299
應諾	-11.2299
安排	-11.23
志心皈命禮	-11.23
紙張	-11.23
握	-11.23
苗	-11.2301
松	-11.2301
級	-11.2301
因明入正理論	-11.2301
單位	-11.2301
善本	-11.2302
貞觀	-11.2302
裸	-11.2302
摸	-11.2302
紛	-11.2302
地水火風	-11.2302
欽	-11.2304
羝	-11.2304
軸	-11.2304
諮	-11.2304
有大神通	-11.2304
和其他	-11.2305
孝養父母	-11.2305
岩	-11.2305
荷負	-11.2305
償	-11.2305
阿那律	-11.2305
奏樂	-11.2306
復次須菩提	-11.2306
喝	-11.2306
技	-11.2306
藥師寺本	-11.2306
猶豫	-11.2307
頰	-11.2307
一一光明	-11.2307
促	-11.2307
剖	-11.2307
詎	-11.2308
吸	-11.2308
徒勞	-11.2308
懷胎	-11.2309
糧	-11.2309
以是因緣	-11.2309
占	-11.231
確定	-11.231
沸	-11.231
材	-11.231
882	-11.231
噉	-11.231
瑜伽論	-11.2311
第一義諦	-11.2311
世尊所	-11.2311
宇	-11.2311
擾擾	-11.2312
發大心	-11.2312
狂妄	-11.2312
女兒	-11.2312
增加了	-11.2312
呬	-11.2313
悲傷	-11.2313
頓悟	-11.2313
考證	-11.2313
勃陀	-11.2314
弄	-11.2314
奴僕	-11.2314
怕	-11.2315
陋	-11.2315
見聞覺知	-11.2315
頑	-11.2315
憤	-11.2315
不住無為	-11.2315
所喜愛	-11.2316
筋	-11.2316
聊	-11.2316
加之	-11.2316
堅毅	-11.2316
儒則	-11.2317
眉間	-11.2317
pūrva	-11.2317
四十齒	-11.2317
認真	-11.2318
伴侶	-11.2319
廚	-11.2319
有因	-11.2319
報恩德真言	-11.2319
毗舍	-11.2319
含靈	-11.2319
嗣	-11.2319
所緣有對	-11.2319
鳩	-11.2319
布薩	-11.232
或因	-11.232
覆護	-11.232
中縫	-11.2321
障礙有對	-11.2321
熾	-11.2322
用典	-11.2322
彼亦	-11.2322
接著	-11.2323
三月	-11.2323
利益安樂	-11.2324
執為我	-11.2324
僕使	-11.2324
摧壞	-11.2324
浮圖	-11.2324
樊	-11.2324
判定	-11.2325
勃馱喃	-11.2325
界應如實知見	-11.2325
灌	-11.2326
諸仁者	-11.2326
自得	-11.2328
長老	-11.2328
的寶石	-11.2329
宿命	-11.2329
戌涅	-11.2329
增益	-11.2331
鑒別	-11.2332
一合	-11.2332
五代	-11.2334
納受	-11.2334
而白世尊	-11.2334
互為	-11.2337
示其	-11.2337
三婆嚩	-11.2337
所有的人都	-11.2338
分九	-11.2339
領眾	-11.234
星宿	-11.234
擾亂	-11.2343
困難	-11.2343
67、	-11.2344
所知障	-11.2346
在世	-11.2347
覆藏	-11.2347
大哭	-11.235
今日道場	-11.235
重宣	-11.2351
特別是	-11.2352
大唐	-11.2354
悲愍故	-11.2354
唯有一	-11.2355
含識	-11.2356
是何物	-11.2357
還沒有	-11.2358
大門第	-11.236
摩那	-11.236
影像	-11.2362
任意	-11.2368
況復	-11.2368
正法輪	-11.2368
地區的	-11.2369
商人	-11.2372
為佛事	-11.2372
一切時中	-11.2374
宣念	-11.2375
禪學	-11.2377
憫	-11.2377
阿羅漢果	-11.2384
誦念	-11.2387
火燒	-11.2389
未來世	-11.2391
能斫	-11.2393
成功	-11.2393
每一	-11.2397
除煩惱障	-11.2398
彼菩薩	-11.2402
經律論	-11.2403
失去	-11.2404
百五十	-11.2406
佛門	-11.2406
無涯	-11.2407
中流	-11.2407
該卷	-11.2408
上中下	-11.241
比丘說	-11.241
無諸	-11.2411
變得	-11.2412
物品	-11.2413
隨行	-11.2413
這篇	-11.2415
ch	-11.2418
識等	-11.2419
0、「	-11.242
端身	-11.2421
龍神	-11.2424
63、	-11.2424
入道	-11.2424
種族	-11.2425
正答	-11.2426
十八種	-11.2426
正定	-11.2427
縱令	-11.2433
所遮	-11.2438
衣食等	-11.2439
會中	-11.2443
法水	-11.2444
一切時	-11.2445
致使	-11.2447
眾生者	-11.2448
一片	-11.2448
勿令	-11.2449
上人	-11.245
深信	-11.245
不移	-11.2451
如是之人	-11.2452
何處不	-11.2452
這兩	-11.2452
使其	-11.2454
不妄	-11.2454
例如	-11.2457
死亡	-11.246
惡語	-11.2466
本書	-11.2474
有暇	-11.2474
修苦行	-11.2482
通於	-11.2482
聲聞地	-11.2482
愛著	-11.2482
此飯	-11.2483
為除	-11.2484
tra	-11.2484
三祗	-11.2484
施食	-11.2485
隨轉	-11.2489
等眼	-11.2492
證信	-11.2494
寶蓮華	-11.2494
令諸有情	-11.2494
雖知	-11.2495
此下四	-11.2495
密言	-11.2504
諦下有	-11.2504
廣答	-11.2507
悶絕	-11.2508
77、	-11.2509
從彼	-11.2511
七識	-11.2512
之位	-11.2512
自我	-11.2513
sam	-11.2514
漢譯	-11.2514
明別	-11.2515
惡行	-11.2523
普及	-11.2524
撰成	-11.2525
示行	-11.2527
親緣	-11.2529
昔在	-11.2531
復以	-11.2531
還復	-11.2532
所稱	-11.2535
又一解	-11.2539
指教	-11.2539
之支分	-11.254
二字	-11.2546
信樂	-11.2551
此齋	-11.2551
無乘	-11.2557
祇能	-11.2561
的要求	-11.2564
苦行者	-11.2566
是名為	-11.2567
二十行	-11.257
72、	-11.2575
布囉	-11.2579
色蘊	-11.2579
為子	-11.2579
世界上	-11.2586
左手	-11.2587
重大	-11.2589
回心	-11.2596
序中	-11.2599
眾相	-11.2601
色聲	-11.2602
無邊功德	-11.2604
以斯	-11.2604
.2	-11.2605
佛名	-11.2605
身量	-11.2606
如何得	-11.2608
偉大的人	-11.261
編纂者	-11.2612
真淨	-11.2612
俱空	-11.2613
雖在	-11.2613
斷結	-11.2616
如是一切	-11.2616
為王	-11.262
念處	-11.2621
答所以	-11.2623
處於	-11.2626
菩提果	-11.2626
依照	-11.2627
的依據	-11.2628
聽說	-11.2628
的理論	-11.2631
90、	-11.2631
盲人	-11.2639
外有	-11.2639
安得	-11.2647
聽聞	-11.2649
一毛	-11.2651
0)	-11.2659
觸處	-11.2662
指出的	-11.2662
為解脫	-11.2662
別答	-11.2662
天帝釋	-11.2668
唯於	-11.2669
令入	-11.2671
都沒有	-11.2671
五方	-11.2672
得罪	-11.2674
能摧	-11.2674
其間	-11.2678
中亦有	-11.2686
犯罪	-11.269
十王	-11.2691
昧於	-11.2692
本清淨	-11.2702
以表	-11.2709
高貴	-11.2714
da	-11.2714
辛苦	-11.2714
起行	-11.2714
具戒	-11.2722
害心	-11.2723
論其	-11.2726
之殊	-11.2728
為底本	-11.2732
體用	-11.2735
其言	-11.2737
二義	-11.2738
等虛空	-11.274
惡鬼	-11.274
是理	-11.2745
夢見	-11.2747
不可言	-11.275
明體	-11.2751
rī	-11.2753
的密教	-11.2761
他世	-11.2762
自度	-11.2766
。』」	-11.2769
外國	-11.2777
共有	-11.2778
為友	-11.2778
並有	-11.2779
知覺	-11.2781
mā	-11.2782
正真	-11.2783
應觀	-11.2783
之徒	-11.2785
故佛言	-11.2787
有分	-11.2788
自非	-11.2789
相違品	-11.2792
集會	-11.2796
65、	-11.2798
前文	-11.2798
26、	-11.2806
說道	-11.2806
無差	-11.281
其果	-11.2813
與尋	-11.2815
苦想	-11.2815
皆名	-11.2818
23、	-11.2818
佛教典籍	-11.282
在這裏	-11.2822
法花	-11.2831
應機	-11.2834
,......	-11.2836
不滿	-11.2844
□□□□□□□	-11.2845
為顯	-11.2848
74、	-11.2853
諦實成就之	-11.2858
前人	-11.286
當受	-11.2862
若起	-11.2864
得暇滿	-11.2868
今得	-11.2871
無識	-11.2875
錄校	-11.2877
而言之	-11.2877
情塵	-11.2879
為粗	-11.2882
曾為	-11.2883
所起	-11.2884
了一些	-11.2887
故須	-11.2888
今聞	-11.289
出自	-11.2894
辛二	-11.2896
依然	-11.2911
自苦	-11.2911
冤業罪消滅	-11.2914
21、	-11.2915
會要	-11.292
三禪	-11.2927
龍天	-11.2927
在中國	-11.2929
可度	-11.2933
請求	-11.2936
中國人	-11.2942
獨自	-11.2943
後說	-11.2943
設立	-11.2947
化城	-11.2947
的方式	-11.2948
實義	-11.2954
另一個	-11.2956
的壽量	-11.2962
意欲	-11.2964
92	-11.2969
報言	-11.2976
見已	-11.2976
欲解	-11.2977
段文字	-11.2981
諸漏	-11.2989
一遍	-11.2994
此因	-11.2999
8、「	-11.3003
空義	-11.3004
一味	-11.3005
但從	-11.3012
此書	-11.3014
之見	-11.3015
淨飯	-11.3019
77	-11.302
此次	-11.3028
偷	-11.3037
三德	-11.3038
六結	-11.3039
亦不可	-11.3045
兩人	-11.3049
五行	-11.305
最多	-11.3054
未至	-11.3059
無難	-11.3066
依憑	-11.3068
牧牛人	-11.3075
林間	-11.3075
界攝	-11.3078
曷	-11.3078
105	-11.3079
上一部	-11.3079
若聞	-11.308
殷	-11.308
肝	-11.3082
佛像	-11.3087
遮彼	-11.309
法律	-11.3091
望著	-11.3091
菩薩心	-11.3092
門下	-11.3093
敦	-11.3094
該經軌	-11.3095
為境	-11.3096
過程中	-11.3096
殿上	-11.31
為君	-11.3101
§4.2	-11.3101
脩	-11.3101
光亮身	-11.3102
願得	-11.3102
作何業	-11.3102
本節論述的是對	-11.3102
延昌	-11.3102
已在我國地	-11.3102
五宗錄	-11.3103
距	-11.3103
-'	-11.3105
範圍	-11.3106
亥	-11.3106
懂	-11.3106
快哉	-11.3107
過程	-11.3107
為基礎	-11.3107
山脈	-11.3108
59、	-11.3108
重複	-11.3109
馴	-11.3109
(1)	-11.311
首殘尾全	-11.311
乃至四句偈等	-11.311
北京圖書館藏	-11.3112
原註	-11.3112
禱	-11.3112
這批	-11.3112
剛強	-11.3112
諸家雜述	-11.3112
9、「	-11.3113
甄	-11.3114
行款	-11.3115
翻譯經典	-11.3115
其福勝彼	-11.3116
云何降伏其心	-11.3116
廟	-11.3118
開受供養	-11.3118
普禮聖眾真言	-11.3118
千輻輪相	-11.3119
這樣做	-11.3119
怡	-11.3119
唯成有漏	-11.3119
眼等五根	-11.312
粘葉裝	-11.312
應了了分明尚未生起之	-11.312
風格	-11.312
恐人生	-11.3121
螺	-11.3121
據此	-11.3121
論究	-11.3121
天請問經	-11.3122
達摩系	-11.3122
彙	-11.3122
金錫	-11.3122
1254	-11.3123
自作自成	-11.3123
嚼	-11.3123
贅	-11.3124
正遍知	-11.3124
隨彼	-11.3124
甘地瑪蒂	-11.3124
婦女	-11.3124
佑	-11.3124
踴	-11.3125
異相	-11.3125
絕望	-11.3125
大藏經史	-11.3125
成書於	-11.3125
會昌廢佛	-11.3125
鐘	-11.3125
龍興寺	-11.3125
今日已往去	-11.3126
永不復退轉	-11.3126
坐臥具	-11.3126
大抵	-11.3126
應如是布施	-11.3126
淩	-11.3127
殘損	-11.3127
西夏本	-11.3127
緊	-11.3127
憐愍	-11.3128
楊枝	-11.3128
槃陀	-11.3129
踴躍	-11.3129
因緣心論頌	-11.3129
阿難陀	-11.3129
明尋伺	-11.3129
裁	-11.3129
幸運	-11.3129
怠	-11.313
煥	-11.313
咽喉	-11.313
搜	-11.313
敬白清淨	-11.313
報恩寺	-11.313
賧	-11.313
泊	-11.3131
大法對受	-11.3132
最早	-11.3132
缺少	-11.3132
攀	-11.3132
課	-11.3132
乃可取食	-11.3132
挺	-11.3132
替	-11.3132
大精進	-11.3132
哲學	-11.3132
趺	-11.3133
被收入	-11.3133
天龍八部	-11.3133
曠野	-11.3133
阿闍梨	-11.3133
觸之受	-11.3133
不增不減	-11.3133
弘教大師	-11.3133
毗耶離	-11.3133
魏	-11.3134
轂	-11.3134
屏	-11.3134
接觸	-11.3134
瞻仰	-11.3134
的結論	-11.3134
戾	-11.3135
宴	-11.3135
貯	-11.3136
垂慈	-11.3136
社會	-11.3136
殆	-11.3137
假使有人	-11.3137
郁	-11.3138
未來不生	-11.3138
耗	-11.3138
智度論	-11.3138
統治	-11.3138
聲聞緣覺	-11.3138
煙雲	-11.3138
弘揚	-11.3138
雕	-11.3139
44、	-11.3141
突出	-11.3141
躁	-11.3141
獻供	-11.3141
性自空	-11.3142
71、	-11.3142
鑿	-11.3142
姊	-11.3143
裹	-11.3143
閃	-11.3143
魔軍	-11.3143
嫁	-11.3143
怛你也他	-11.3143
15.	-11.3143
甜	-11.3144
羹	-11.3144
悅耳	-11.3144
是則名為	-11.3144
已經亡佚	-11.3145
盡其所有	-11.3146
自無主宰	-11.3146
潞州	-11.3146
太山	-11.3146
立即	-11.3146
仰告	-11.3146
秀	-11.3147
撥	-11.3147
本性清淨	-11.3147
群迷	-11.3147
法席	-11.3147
城邑	-11.3148
圈	-11.3148
已還	-11.3148
神奇	-11.3148
忿怒	-11.3148
光臨法會	-11.3149
沐浴	-11.315
剜	-11.315
疲勞	-11.3151
步步	-11.3151
時維摩詰來	-11.3151
釘	-11.3152
無尋唯伺	-11.3152
火焚	-11.3153
蠲除	-11.3153
豬	-11.3153
虞	-11.3153
酬罔極	-11.3153
較量	-11.3153
下賤	-11.3153
入胎	-11.3154
藥叉	-11.3154
胞胎	-11.3155
四句偈	-11.3155
謹白	-11.3156
黠	-11.3156
完備	-11.3156
得見如來	-11.3156
措	-11.3157
踴出	-11.3157
周圓	-11.3158
所餘	-11.3158
薦取	-11.3159
華蓋	-11.3159
室羅筏	-11.3159
與法	-11.3159
頓教	-11.3161
芬馥	-11.3161
𠷑吒	-11.3162
存亡	-11.3162
象馬	-11.3162
其舌	-11.3164
奈何	-11.3164
朕	-11.3164
妙嚴	-11.3164
宏	-11.3165
端坐	-11.3165
加護	-11.3166
贊歎	-11.3166
見法	-11.3167
詳盡	-11.3167
陷入	-11.3167
含情	-11.3167
負命	-11.3168
阿須倫	-11.3169
尚存	-11.3169
覺察	-11.3172
73、	-11.3173
之患	-11.3173
同嘆	-11.3174
除去	-11.3174
註疏本	-11.3176
54、	-11.3176
的各種	-11.3177
三十萬	-11.3177
不名菩薩	-11.3177
憂悔	-11.3178
負力	-11.3179
史上	-11.3179
幻師	-11.3181
深淺	-11.3182
悲願	-11.3182
禍福	-11.3182
無等	-11.3183
面目	-11.3184
返照	-11.3184
奉養	-11.3185
邪魔	-11.3186
序文	-11.3186
六行	-11.3186
反映出	-11.3187
善德	-11.3189
印證	-11.3189
方圓	-11.3189
宗旨	-11.319
空中無	-11.3191
能造	-11.3191
善知	-11.3191
自稱	-11.3192
臨終	-11.3192
送給	-11.3192
如來說非	-11.3192
無量壽佛	-11.3194
毀禁	-11.3194
有何益	-11.3194
你自己	-11.3195
長久	-11.3195
持戒比丘	-11.3196
大法王	-11.3196
談論	-11.3199
燈光	-11.3201
積德	-11.3201
所明	-11.3203
得利	-11.3203
假設	-11.3203
(19	-11.3203
遍行	-11.3204
方面的	-11.3206
大理	-11.3207
廣無邊	-11.3208
故先說	-11.321
令一切	-11.321
愛敬	-11.3212
殷勤	-11.3212
虛實	-11.3213
詳見	-11.3213
不順	-11.3214
長者子	-11.3215
勸請	-11.3216
未曾有也	-11.3219
鼻根	-11.3223
無別體	-11.3225
出家者	-11.3225
未久	-11.3225
不可稱	-11.3226
anta	-11.3226
敬仰	-11.3228
終於	-11.323
或是	-11.323
受食	-11.3231
不但	-11.3233
速證	-11.3234
普願	-11.3236
原卷	-11.3236
接受	-11.3237
入藏的	-11.3239
自性清淨	-11.324
釋梵	-11.324
無量功德	-11.3244
禮別	-11.3245
異同	-11.3247
心口身	-11.3248
乞叉	-11.3249
勿使	-11.325
鬘	-11.3251
普令	-11.3253
百劫	-11.3253
信禮	-11.3255
新譯	-11.3257
第十四	-11.3259
七月	-11.326
歷史上	-11.3262
文書	-11.3264
帝那	-11.3264
之難	-11.3267
順緣	-11.3267
持此	-11.3268
依正	-11.3271
佛藏經	-11.3273
佛國土	-11.3273
欲生	-11.3274
海會	-11.3276
走向	-11.3279
共通	-11.328
將護	-11.3283
智障	-11.3284
發露	-11.3293
不屬	-11.3293
廣如	-11.3296
聖位	-11.3297
飛行	-11.33
從座	-11.3302
開發	-11.3304
地神	-11.3305
汝身	-11.3305
慧日	-11.3307
太虛	-11.3308
亦生	-11.3312
成菩提	-11.3314
空間	-11.3314
即見	-11.3314
輪王	-11.3315
妄起	-11.3316
聖主	-11.3318
之量	-11.332
dharma	-11.3322
入無餘	-11.3322
加上	-11.3322
難遭	-11.3324
解脫者	-11.3328
卷六	-11.3329
其內容	-11.3329
捨命	-11.333
多劫	-11.3331
時維摩詰	-11.3334
修我慢	-11.3335
無分別智	-11.3337
即滅	-11.3338
教僧	-11.3345
障也	-11.3346
有差別	-11.3346
故名如來	-11.3347
金子	-11.3347
離生死	-11.3348
);「	-11.3349
相容	-11.3349
侵欺	-11.3353
滅已	-11.3354
上天	-11.3354
淨戒	-11.3358
佛境界	-11.336
國師	-11.3363
悅意之	-11.3366
眾香	-11.3368
知恩	-11.337
行乞	-11.3373
部著作	-11.3373
因地	-11.3378
聲緣	-11.3382
次下	-11.3382
之方	-11.3382
是處	-11.3384
當他	-11.3387
故現	-11.3387
無相乃	-11.3389
662	-11.3389
傳入	-11.339
字體	-11.339
更無別	-11.3392
餘九	-11.3393
欲貪	-11.3394
種善根	-11.34
從上述	-11.34
長子	-11.3405
諸大菩薩	-11.3413
兜率	-11.3414
51	-11.3414
60、	-11.3414
寫於	-11.3419
自念	-11.3422
惡知識	-11.3424
曾有	-11.3424
好惡	-11.3425
代抄本	-11.3425
聲色	-11.3431
共許	-11.3433
勤行	-11.3436
大論	-11.3437
謗也	-11.3438
八大	-11.3445
無量眾生	-11.3447
項光	-11.345
空花	-11.3454
何必	-11.3454
守護心	-11.3456
深義	-11.346
莫能	-11.3463
七個	-11.3464
這兒的	-11.3465
來講	-11.3466
我的身體	-11.3467
為細	-11.3474
法全	-11.3477
有識	-11.3481
寫卷	-11.3484
0.	-11.3484
了悟	-11.3492
二根	-11.3493
性等	-11.3495
少欲	-11.3495
覺觀	-11.3499
有所緣	-11.3504
娑伽	-11.3504
而以	-11.3504
應該說	-11.3504
修善法	-11.3505
的力量	-11.3507
身不淨	-11.3508
持齋戒	-11.3508
三問	-11.3511
安寧	-11.3512
末法	-11.3512
之語	-11.3514
十四種	-11.3515
不可具	-11.3519
七卷	-11.352
於此身	-11.3521
無常義	-11.3524
大悲觀世音	-11.3527
難報	-11.3532
善得	-11.3537
不得名	-11.354
明初	-11.354
煩惱敵	-11.3544
有智慧	-11.3548
相比較	-11.3549
世界中	-11.3551
諸功德	-11.3553
阿難尊者	-11.3558
兩部	-11.3558
曾於	-11.3562
以偈	-11.3563
不應有	-11.3566
有限	-11.3571
略明	-11.3573
深恩	-11.3575
諸比丘眾	-11.3575
喻若	-11.358
所集	-11.3583
妙行	-11.3583
化現	-11.3588
自愛	-11.36
位於	-11.361
故令	-11.3613
妙吉祥	-11.3617
可取	-11.362
之士	-11.3622
神光	-11.3628
三解釋	-11.3629
五通	-11.3629
為害	-11.363
得福	-11.3633
文本	-11.3635
大果	-11.3637
如文	-11.3638
正報	-11.3639
婆嚩	-11.3645
之對治	-11.3645
是假	-11.3651
從其	-11.3652
痛苦的	-11.3663
是這樣	-11.3664
光中	-11.3664
下卷	-11.3666
是身如	-11.3669
業障	-11.3673
惑盡	-11.3677
所積	-11.3683
難事	-11.3687
謂從	-11.3688
聞慧	-11.3689
通三界	-11.369
能緣	-11.3692
誐哩	-11.3694
隨處	-11.3697
一切罪	-11.3701
所作的	-11.3705
亦不得	-11.3707
尚無	-11.3709
正如	-11.3711
五門	-11.3713
人們的	-11.3716
解義	-11.372
所願	-11.3728
憂苦	-11.3732
其親	-11.3735
之識	-11.3737
出處	-11.3737
高尚的	-11.3743
把他	-11.375
難遇	-11.3753
當知是	-11.376
別行	-11.3764
訶囉	-11.3765
常不動	-11.377
也就是	-11.3772
等持	-11.3772
不避	-11.3773
28、	-11.3774
或說	-11.3779
有偈	-11.3783
勤奮	-11.3785
何異	-11.3785
羅漢果	-11.3788
總目	-11.379
利生	-11.3791
自宗	-11.3791
入無為	-11.3794
諸業	-11.3798
暇	-11.38
了一個	-11.3801
正教	-11.3811
獲得正覺	-11.3816
編號	-11.3821
不能忍	-11.3821
初學	-11.3822
嚴持	-11.383
50、	-11.3832
阿那	-11.3836
彼補特伽羅	-11.3841
在外	-11.3842
70、	-11.3846
深經	-11.385
對我	-11.385
所列	-11.3853
個個	-11.3854
願彼	-11.3859
初心	-11.3862
由來	-11.3864
無所緣	-11.3868
集僧	-11.3869
隨時	-11.3871
的題記	-11.3872
異於	-11.3873
他把	-11.3879
苦空	-11.3879
告阿難	-11.3886
有愛	-11.3887
於大乘	-11.3888
個性	-11.3894
3、「	-11.3896
為利	-11.3898
堪任	-11.39
亦得名	-11.3904
部分內容	-11.3905
唯得	-11.3906
其中有	-11.3907
56、	-11.3909
的認識	-11.3913
眾集	-11.3916
識性	-11.3918
編成	-11.392
第十七	-11.3925
捨衛城	-11.3927
tat	-11.3928
有什麼	-11.393
明教	-11.3932
母親	-11.3935
所需	-11.3936
空衣派	-11.394
叢	-11.3943
頌文	-11.3943
即是佛	-11.3948
jñā	-11.3954
但道	-11.3958
天花	-11.3959
五重	-11.3964
坐下	-11.3982
100	-11.3983
顯正	-11.3983
無時	-11.3984
64、	-11.3988
秫帝	-11.3991
縫	-11.3993
竺	-11.3993
通道	-11.3995
來了	-11.3996
了所有的	-11.3998
筵	-11.4
大寶	-11.4001
尋伺	-11.4004
復云何	-11.4005
報復必更激	-11.4007
§9.1	-11.4007
§1.1	-11.4008
§8.1	-11.4009
聞經眾等罪消滅	-11.401
的最長壽命	-11.401
星光神	-11.401
但他	-11.401
eṣu	-11.401
śruta	-11.401
(§3.2	-11.4011
綿	-11.4011
此日齋者	-11.4011
珍珠	-11.4012
大周刊定眾經目錄	-11.4013
曲折	-11.4015
M	-11.4016
枯竭	-11.4016
三十五佛	-11.4016
鞠躬	-11.4016
成實論	-11.4016
性質相同	-11.4016
古今譯經圖紀	-11.4016
樣態	-11.4016
若干種	-11.4017
複雜	-11.4017
祕	-11.4018
圭峰禪師	-11.4019
嶽	-11.4019
灼	-11.402
N	-11.402
智惠	-11.402
頂禮佛足	-11.4021
紅瑪瑙	-11.4021
無生忍	-11.4023
優秀	-11.4023
巨大的	-11.4024
良醫	-11.4024
禰	-11.4024
收歸入藏	-11.4024
癩病患者善覺	-11.4024
如我解佛所說義	-11.4025
巨海	-11.4025
什	-11.4025
勸導	-11.4025
虔信	-11.4026
(§4.3	-11.4026
擯	-11.4027
世尊在捨衛城	-11.4027
受報	-11.4027
佛頂心陀羅尼經	-11.4027
大迦旃延	-11.4027
探討	-11.4028
應了了分明已生起之	-11.4028
形狀	-11.4029
大勢至菩薩	-11.4029
燈供養	-11.4029
婆伽婆	-11.4029
龍興寺經藏	-11.403
非常高興	-11.403
癹	-11.403
眼觀	-11.403
無著無縛無脫	-11.403
願我等所求如意	-11.403
注想	-11.4031
是無漏	-11.4031
囑累	-11.4031
中根	-11.4032
鑊	-11.4032
欣喜	-11.4033
頭腦	-11.4033
清淨法身毗盧遮那佛	-11.4033
美貌	-11.4033
體系	-11.4033
週	-11.4033
梵夾裝	-11.4034
信受奉行	-11.4034
波吒離村	-11.4034
螺文	-11.4034
阿僧祗劫	-11.4035
稽	-11.4035
巡	-11.4035
艱辛	-11.4035
閣	-11.4036
市	-11.4036
舊抄本	-11.4036
賣	-11.4036
我滅度後	-11.4036
羯摩	-11.4036
曠劫	-11.4036
繪	-11.4036
我於爾時	-11.4036
呂	-11.4036
猶若虛空	-11.4036
頓漸	-11.4037
罕	-11.4037
增福壽	-11.4037
豁	-11.4037
什物	-11.4037
玄奘法師	-11.4037
不可保信	-11.4037
東晉	-11.4038
曹宗壽	-11.4038
若了依他	-11.4038
概念	-11.4038
報佛恩	-11.4038
胎藏界	-11.4038
細滑	-11.4038
警	-11.4038
花巾	-11.4039
摧折	-11.4039
指導	-11.4039
羅睺羅	-11.404
壤	-11.404
廢棄	-11.404
大日經	-11.4041
雷音	-11.4042
毀辱	-11.4042
儲	-11.4042
早期	-11.4042
戒條	-11.4042
字樣	-11.4042
我們知道	-11.4042
照片	-11.4043
藏本	-11.4043
無私	-11.4043
具足色身	-11.4043
惠辯	-11.4043
四部弟子	-11.4043
謹當宣	-11.4044
壇前教誡	-11.4044
▁pañca	-11.4044
昏衢	-11.4045
金剛頂	-11.4045
豁然	-11.4045
眠	-11.4045
丈	-11.4045
南無地藏王菩薩	-11.4045
七心界	-11.4046
魄	-11.4046
火急	-11.4046
赫	-11.4046
礫	-11.4046
涕	-11.4047
綜合	-11.4047
遼代	-11.4047
傾向	-11.4047
饒益有情	-11.4047
廣引彈事	-11.4047
更何待言	-11.4047
赤真珠	-11.4048
藥師佛解	-11.4048
二相本來	-11.4048
法苑	-11.4048
感格	-11.4049
漚	-11.4049
吝	-11.4049
墳	-11.405
層燈	-11.405
揭諦	-11.405
牢獄	-11.405
慌	-11.405
而求	-11.405
顫	-11.4051
敷座	-11.4051
脂	-11.4051
時長	-11.4051
瞬	-11.4051
嬈	-11.4051
楞伽經	-11.4051
臃	-11.4051
遊戲	-11.4051
抗	-11.4052
誌	-11.4052
穴	-11.4052
謹畏	-11.4052
入菩薩行論	-11.4052
愿	-11.4053
柳	-11.4053
沖	-11.4053
柴	-11.4054
戰勝	-11.4054
庾	-11.4054
溥	-11.4054
瀝	-11.4054
南無僧伽	-11.4054
筍	-11.4054
玩	-11.4054
塵剎	-11.4054
英雄	-11.4055
道場清淨眾	-11.4055
掉舉	-11.4055
5.3	-11.4055
舍宅	-11.4055
平滿	-11.4055
各個	-11.4055
秤	-11.4055
流浪	-11.4055
悉皆消滅	-11.4056
碧	-11.4056
石室	-11.4056
恆沙	-11.4057
法筵	-11.4057
欺誑	-11.4057
療治	-11.4057
現狀	-11.4057
雀	-11.4057
舞	-11.4057
塵垢	-11.4058
如說修行	-11.4058
不懈	-11.4058
窺	-11.4058
偶然	-11.4059
兔	-11.4059
性體	-11.4059
花園	-11.4059
傾虔	-11.4059
貧富	-11.4059
百姓	-11.4059
美味	-11.4059
蘆	-11.4061
鉢頭	-11.4062
微塵數	-11.4062
施予	-11.4063
滾	-11.4063
捨身命	-11.4063
戟	-11.4064
儻	-11.4064
如此處言	-11.4064
11.	-11.4065
波羅密多	-11.4065
每月十齋日	-11.4066
藪	-11.4066
喫	-11.4066
提婆	-11.4066
澀	-11.4066
傳承	-11.4066
mi	-11.4067
矛	-11.4068
驢	-11.4069
故致斯	-11.4071
修禪定	-11.4071
一切種智	-11.4072
論文自	-11.4073
藥叉大將	-11.4073
骨肉	-11.4073
鷲	-11.4073
施無畏	-11.4073
開導	-11.4075
高座	-11.4075
鳥獸	-11.4076
愚迷	-11.4076
於他有情	-11.4076
波浪	-11.4077
分類	-11.4077
病患	-11.4078
懺主	-11.4081
定須	-11.4081
▁甲本	-11.4083
專門	-11.4084
他看著	-11.4084
引用了	-11.4085
頭頂	-11.4085
問云	-11.4088
論自釋云	-11.4088
慈愍故	-11.4088
地瑟吒	-11.4088
十色界	-11.4089
淨三業	-11.4089
立誓	-11.409
即今	-11.4091
賤人	-11.4091
侍從	-11.4092
漸次而	-11.4094
於世間	-11.4094
方廣	-11.4096
久近	-11.4096
竺法護譯經	-11.4097
遮那	-11.4098
感動	-11.4099
縛羅	-11.41
的物質	-11.41
二障	-11.4101
宿業	-11.4101
480	-11.4102
喜歡	-11.4102
妙供	-11.4102
動靜	-11.4103
何期	-11.4104
金剛禮	-11.4105
辯論	-11.4107
堅定	-11.4108
惟有	-11.4109
甚為	-11.411
對治力	-11.4111
白雲	-11.4112
等同於	-11.4112
道諦	-11.4113
僧祐的	-11.4113
心相	-11.4116
放光明	-11.4116
事已	-11.4117
普通	-11.4118
各各當	-11.412
肉體	-11.412
除遣	-11.4125
經籍	-11.4125
集中在	-11.4126
哆耶	-11.4126
直須	-11.4128
黎明	-11.413
舉動	-11.413
大疏	-11.413
承當	-11.4132
重新	-11.4132
的狀態	-11.4133
輪轉	-11.4133
現象	-11.4133
.)」「(	-11.4134
願承	-11.4134
誦持	-11.4136
後期	-11.4136
很大	-11.4137
求懺悔	-11.4137
稱述	-11.4137
做了	-11.414
報障	-11.414
全是	-11.414
愍念	-11.4142
之極也	-11.4142
智海	-11.4142
五百弟子	-11.4143
為比丘	-11.4149
承受	-11.415
夜分	-11.415
的意見	-11.4151
不向	-11.4153
集福	-11.4159
爾時須菩提	-11.4159
故應勵力	-11.4161
無作相	-11.4161
八月	-11.4162
句話	-11.4166
瞋怒	-11.4167
出來的	-11.4169
淨修林	-11.417
?」(	-11.417
在位	-11.4171
增上生	-11.4172
這兩個	-11.4174
深遠	-11.4175
成壞	-11.4175
罪失	-11.4175
尊敬的	-11.4177
須達	-11.4178
的整理	-11.4178
德位	-11.418
難得之	-11.4182
良因	-11.4187
光臨	-11.4187
成佛果	-11.4188
勤苦	-11.4188
的原子	-11.4191
邊地	-11.4191
如前說	-11.4197
的欲望	-11.4199
無所畏	-11.4201
所述的	-11.4201
別解	-11.4201
在天上	-11.4202
不得自在	-11.4204
掌中	-11.4206
吾我	-11.421
轉深	-11.4211
亦非我	-11.4211
釋則	-11.4212
的信仰	-11.4212
單獨	-11.4215
未達	-11.4215
地獄等	-11.4219
事情	-11.4221
。」3	-11.4223
為有情	-11.4224
62、	-11.4224
真金	-11.4232
滿空	-11.4237
變作	-11.4237
八個	-11.4242
如本無	-11.4242
五逆罪	-11.4248
十信	-11.4255
至孝	-11.4261
五輪	-11.4264
看者見佛在	-11.4266
七覺	-11.4269
。」4	-11.4271
相承	-11.4271
開通	-11.4274
便是	-11.4275
參校	-11.4275
所加	-11.428
常用	-11.4281
報父母	-11.4284
諸經論	-11.4284
字號	-11.4289
正宗	-11.4293
順從	-11.4293
後得	-11.4294
海中	-11.4296
兩段	-11.4301
故世親論	-11.4302
階段	-11.4303
口出	-11.4303
若遇	-11.4306
金色光	-11.4307
修淨土	-11.4308
親愛	-11.4309
師教	-11.431
如電	-11.431
特定的	-11.4311
數論	-11.4311
部典籍	-11.4312
有求	-11.4312
不應爾	-11.4315
雜經	-11.4319
世界空	-11.4319
損生	-11.4325
八戒	-11.4327
生怖畏	-11.433
av	-11.4331
雜相	-11.4332
其形	-11.4345
過去諸佛	-11.4346
母胎	-11.4363
我已經	-11.437
空觀	-11.4372
色陰	-11.4372
其德	-11.4376
墮於	-11.4381
須知	-11.4382
的作用	-11.4388
罪墮	-11.439
當來末	-11.439
不繫	-11.439
諸法空	-11.439
邪觀	-11.4391
性命	-11.4393
的人們	-11.4395
人趣	-11.44
切以	-11.4403
故論云	-11.4414
名為菩薩	-11.4415
的出處	-11.4416
88	-11.4417
極大的	-11.4418
勝前	-11.4418
的時代	-11.4418
只是	-11.4419
為臣	-11.4419
道場儀	-11.4421
我曹	-11.4421
法國	-11.4422
不能知	-11.4423
為不淨	-11.4423
所照	-11.4427
不容	-11.4427
66、	-11.4431
雖得	-11.4432
金剛般若經	-11.4433
的意義	-11.4434
於汝	-11.4435
八苦	-11.4437
實由	-11.444
此第四	-11.4442
何者為	-11.4443
雖說	-11.4443
說是法	-11.4445
四德	-11.4446
551	-11.4446
52、	-11.4447
聚義	-11.4449
種行願	-11.4451
中放	-11.4452
利樂	-11.4453
開解	-11.4455
觀如來	-11.4455
真如性	-11.4457
得衣食	-11.4463
法雲	-11.4464
能障	-11.4465
逃脫	-11.4465
亦滅	-11.4466
有多種	-11.4469
通解	-11.4469
何益	-11.4474
的引文	-11.4474
汝可	-11.4475
不宜	-11.4478
法座	-11.4486
亦如此	-11.4487
應寶	-11.4488
53、	-11.4493
為依據	-11.4496
先修	-11.4506
上乘	-11.4507
執實	-11.451
相攝	-11.4511
當年	-11.4511
令眾生	-11.4529
不顛倒	-11.4531
的年代	-11.4533
的經錄	-11.4535
無我相	-11.4537
大數	-11.4538
可滅	-11.454
是諸眾生	-11.454
一一色	-11.4545
歸依佛	-11.4548
有許多	-11.4548
其唯	-11.4548
異熟果	-11.4551
妄生	-11.4552
於有情	-11.4557
日持齋	-11.4563
皆應	-11.4567
大菩提	-11.4568
聖心	-11.4572
進行了	-11.4573
同真	-11.4576
業道	-11.4579
引述	-11.458
108	-11.4584
斷其	-11.4596
真人	-11.4598
作罪	-11.46
食等	-11.4602
四趣	-11.4603
解脫道	-11.4606
天真	-11.4609
諸魔	-11.461
此味	-11.461
的千字文帙號	-11.4611
釋難	-11.4612
(12	-11.4615
諸尊	-11.4616
福多	-11.4618
虛空藏菩薩	-11.4624
愚者	-11.4625
以往	-11.4626
慈悲心	-11.4627
身內	-11.4629
釋業	-11.4629
正由	-11.4631
地界	-11.4633
眾色	-11.4635
這時	-11.4636
於過去	-11.4637
約法身	-11.4638
ānām	-11.464
別體	-11.4644
供養諸佛	-11.4647
會理	-11.4651
anu	-11.4652
四力	-11.4653
空聲	-11.4653
祗是	-11.4654
先問	-11.4664
心花	-11.4664
□□□□□□□□□□	-11.4666
制心	-11.4676
無障	-11.4682
斷行	-11.4692
出三界	-11.4695
雖云	-11.4696
惡名	-11.4696
境上	-11.4698
93、	-11.47
滿中	-11.4702
眾僧	-11.4702
寂照	-11.471
態度	-11.4713
修因	-11.4729
心寂	-11.4729
又前	-11.4731
亦空	-11.4732
慧力	-11.4744
是為了	-11.4746
四住	-11.4748
花供養	-11.4751
世間所有	-11.4755
功德海	-11.4765
齋食	-11.4767
猶如天	-11.4767
眾誦	-11.477
佛慧	-11.4773
經首	-11.4784
於佛法	-11.4788
卷八	-11.4797
(2	-11.4798
位中	-11.4811
為種	-11.4811
即被	-11.4814
河沙	-11.4818
宴坐	-11.4821
後面	-11.4824
之藥	-11.4836
天界	-11.4839
自滅	-11.4847
書名	-11.4854
為誰	-11.4863
別簡	-11.487
行癡	-11.4875
求道	-11.4879
天魔	-11.4893
不歸	-11.4895
惡趣苦	-11.4904
保安	-11.4909
奉為	-11.4913
海水	-11.4916
告訴我	-11.4921
六百	-11.4926
微劣	-11.4928
造藏	-11.4929
於五欲	-11.494
幻事	-11.4941
te	-11.4946
為首	-11.4948
信佛	-11.4948
六年	-11.495
所持	-11.4955
而不知者	-11.4961
中沒有	-11.4961
無量壽	-11.4962
偉	-11.4965
比丘僧	-11.4965
亦皆	-11.4968
所觸	-11.4968
僧祇	-11.497
十餘卷	-11.497
復有一人	-11.4974
般若波羅密	-11.4978
興高采烈	-11.4978
能盡	-11.4979
得成就	-11.4979
是佛性	-11.4981
義理性佛教	-11.4987
卵	-11.4994
景德	-11.4995
總相	-11.4996
rtha	-11.4997
其性	-11.4999
慾望	-11.5001
通塞	-11.5004
§9.4	-11.5005
得聞是經	-11.5005
八十種好	-11.5006
以恒河沙等身布施	-11.5006
婆沙師	-11.5007
端肅	-11.5008
般若得道經	-11.5008
萬有	-11.5009
(513)	-11.501
明教興意	-11.501
brahm	-11.5011
七寺本	-11.5011
ū	-11.5012
.)】「	-11.5013
明受苦樂	-11.5014
nāma	-11.5014
或觀察諸法之	-11.5015
ādi	-11.5015
svā	-11.5015
整理本的底	-11.5016
鱗	-11.5016
紀錄	-11.5016
首殘尾存	-11.5017
污濁	-11.5017
考慮	-11.5018
明來處	-11.5018
品第三十	-11.5018
優波	-11.5019
是微塵眾	-11.5019
般若心經	-11.5019
銷釋金剛經科儀	-11.502
愉快	-11.502
天竺國菩提達摩禪師論	-11.502
擺脫	-11.5021
秉	-11.5021
淫慾	-11.5021
鹽官	-11.5021
妹	-11.5021
的姑娘	-11.5021
行事鈔	-11.5022
把握	-11.5022
ur	-11.5024
一心奉請藥師護教	-11.5025
員	-11.5025
臘	-11.5025
琳	-11.5026
佳	-11.5026
如千日	-11.5026
牧	-11.5026
耳遙聞	-11.5027
怙	-11.5027
中國僧人	-11.5027
加持發菩提心真言	-11.5027
新唐書	-11.5028
炬	-11.5028
藥師護教	-11.5028
拯	-11.5028
已沐雲臨	-11.5028
莎嚩	-11.5028
首尾均殘	-11.5028
圍遶	-11.5029
亦未為歷代大藏經所收	-11.5029
數過百卷	-11.5029
田中良昭	-11.5029
隋唐	-11.5029
懈	-11.5029
兔角	-11.5029
這部經典	-11.5029
剃	-11.5029
嗎	-11.503
四十二字母	-11.503
光緒	-11.503
香花一心奉請	-11.5031
受其大苦	-11.5031
晚唐	-11.5031
解乘義	-11.5031
影印	-11.5031
通局	-11.5032
鐸	-11.5033
倚臥	-11.5033
可分成	-11.5033
倉	-11.5033
江泌	-11.5033
有眾多	-11.5033
發無上菩提心	-11.5034
十二神王	-11.5034
鋪	-11.5034
今此道場	-11.5034
具諸功德	-11.5034
阿羅訶	-11.5034
禳	-11.5035
的標準	-11.5035
寐	-11.5035
一切經音義	-11.5035
翅	-11.5035
樂小法者	-11.5035
作緣也	-11.5035
藥師海會佛菩薩	-11.5035
婉轉相著	-11.5035
帖	-11.5035
消磨	-11.5036
光目女	-11.5036
蟠龍	-11.5036
相隨	-11.5036
入菩薩行論廣解卷	-11.5037
街	-11.5037
1002	-11.5037
安立為	-11.5037
皆向上靡	-11.5037
澆	-11.5037
撲	-11.5037
北魏	-11.5038
妃	-11.5038
四無量心	-11.5038
耐	-11.5038
傳世文獻	-11.5038
梁武帝	-11.5038
楷	-11.5038
兮	-11.5038
等三種	-11.5038
遭逢	-11.5039
唅	-11.5039
腰	-11.5039
恭謹	-11.5039
▁M	-11.5039
考慮到	-11.5039
朵	-11.5039
東域傳燈目錄	-11.5039
錯謬	-11.5039
匿	-11.5039
不與取	-11.5039
俊	-11.5039
關節	-11.504
儀範	-11.504
趙氏	-11.504
邑	-11.504
粒	-11.504
大智度論	-11.504
萇	-11.504
天監四年	-11.504
惟願聖慈	-11.5041
勅	-11.5041
饌	-11.5041
修訂	-11.5041
念阿彌陀佛	-11.5041
起信論	-11.5041
柔軟可愛	-11.5041
十二月禮佛	-11.5041
唾	-11.5041
憶念我昔	-11.5041
穆	-11.5041
那時候	-11.5041
腋	-11.5041
婉轉下垂	-11.5041
無退轉	-11.5041
簸	-11.5042
無暇	-11.5042
奧義	-11.5042
潮	-11.5042
螺髻	-11.5042
窺基	-11.5042
荷擔	-11.5043
佛祖統記	-11.5043
遁	-11.5043
乾城	-11.5043
流出二光	-11.5043
饑渴	-11.5043
西夏佛教	-11.5043
五戒十善	-11.5043
密切	-11.5043
撫	-11.5043
甘露灑	-11.5043
佛教全書	-11.5043
豪	-11.5044
可靠	-11.5044
首尾題	-11.5044
激情	-11.5044
戈	-11.5044
匱	-11.5044
名有執受	-11.5044
峻	-11.5045
莊嚴佛土	-11.5045
一切有為法	-11.5045
歟	-11.5045
祭則致其嚴	-11.5045
三觀澄明	-11.5045
道品等行	-11.5045
脫落	-11.5045
苗芽	-11.5045
來迎	-11.5046
大批	-11.5046
你為什麼	-11.5046
膿	-11.5046
掣	-11.5046
揣	-11.5046
拭	-11.5046
娛	-11.5047
綰疊	-11.5047
今為舉揚	-11.5047
王中之王	-11.5047
任運	-11.5048
九十八使	-11.5049
禮拜真言	-11.5049
莎婆	-11.5049
歡悅	-11.5049
鮑善恢題記	-11.5049
堯	-11.505
諸境	-11.505
散入諸髮	-11.5051
金剛臺	-11.5051
到彼岸	-11.5051
龍象	-11.5051
18.	-11.5051
議論	-11.5052
隻	-11.5052
南齊	-11.5052
如槁木	-11.5052
劫盜	-11.5053
鏘	-11.5053
寫成	-11.5053
稱彼岸	-11.5053
范	-11.5053
炭	-11.5053
引用的	-11.5053
二十三年	-11.5053
昊天	-11.5054
翼	-11.5054
雜經錄	-11.5054
微笑	-11.5054
莽	-11.5054
鼎	-11.5055
飽滿	-11.5055
遲疑	-11.5055
膚	-11.5055
肆	-11.5055
坐臥	-11.5056
世尊如是說	-11.5056
啞	-11.5056
衡	-11.5056
緒	-11.5056
堂堂	-11.5056
瞿	-11.5057
召集	-11.5057
庵	-11.5057
長一丈	-11.5057
14.	-11.5058
剝	-11.5058
凡庸	-11.5058
整個世界	-11.5058
左半葉	-11.5059
以果收因	-11.5059
思考	-11.5059
挂	-11.5059
遐	-11.506
跋囉	-11.506
俾令	-11.506
安能	-11.506
鬧	-11.5061
敷陳	-11.5061
說是語	-11.5061
閻王	-11.5061
96、	-11.5062
底瑟吒	-11.5062
每月	-11.5062
無來無去	-11.5062
清信士	-11.5063
濡	-11.5063
艷	-11.5063
仁慈	-11.5063
妙難思	-11.5063
辜	-11.5063
熱鐵輪	-11.5064
▁乙本	-11.5064
難陀尊者	-11.5064
塔廟	-11.5064
根本拔除	-11.5064
兇	-11.5065
聖顏	-11.5065
趙智鳳	-11.5065
編輯	-11.5066
三萬二千	-11.5066
浩	-11.5066
黃門	-11.5066
所感之土	-11.5066
狐狸	-11.5067
韻音	-11.5067
加持獻	-11.5068
沉溺	-11.5068
法處所攝	-11.5069
謾	-11.5069
簡略	-11.5069
妒	-11.5069
奇異	-11.5069
疲苦	-11.507
潭	-11.507
陪	-11.507
悉陀夜	-11.507
五百天女	-11.5071
誐帝	-11.5071
獨居	-11.5071
福壽	-11.5071
罹	-11.5072
無尋無伺	-11.5072
略為一聚	-11.5072
舍利卜怛囉	-11.5073
豫	-11.5073
續藏本	-11.5074
無量壽經	-11.5074
充滿了	-11.5074
目之為	-11.5075
四生六道	-11.5075
鳩摩羅什譯	-11.5075
娜	-11.5075
法界一分	-11.5075
致敬	-11.5076
唯識論	-11.5077
戍	-11.5077
月蓋	-11.5077
車輪	-11.5078
想要的	-11.5079
清潔	-11.508
手足	-11.508
三千界	-11.508
賢德	-11.5081
殘害	-11.5081
扶持	-11.5083
卷十四	-11.5083
若有比丘	-11.5084
歎未曾有	-11.5085
間隔	-11.5085
我希望	-11.5087
最近	-11.5088
牆	-11.5088
號哭	-11.5088
相鄰	-11.5089
請答	-11.509
無慾	-11.5091
謙下	-11.5091
田主	-11.5092
督	-11.5093
飲水	-11.5093
諷誦	-11.5093
背恩	-11.5094
未審	-11.5094
一切萬法	-11.5094
最終	-11.5095
善無畏	-11.5095
縱廣	-11.5096
憶持	-11.5097
妙喜	-11.5098
吠那	-11.5098
玄宗	-11.51
流轉生死	-11.51
福德聚	-11.51
共計	-11.5101
應勤	-11.5101
增上緣	-11.5103
他們都	-11.5103
眾生的利益	-11.5104
香氣	-11.5104
顯隱	-11.5107
豈容	-11.5109
七歲	-11.511
萬像	-11.5111
恣意	-11.5111
七毛	-11.5111
清淨慧菩薩	-11.5111
不能銜接	-11.5111
合蓋	-11.5111
理成	-11.5112
或怨家為	-11.5113
戍涅馱	-11.5113
百味	-11.5114
〕(?)	-11.5116
生冤債	-11.5117
謗佛	-11.512
佛教經典	-11.5122
靈光	-11.5124
諍論	-11.5124
癡愛	-11.5125
著名的	-11.5127
燈王	-11.5128
推斷	-11.513
我檀那	-11.513
停止	-11.5136
賢善	-11.5137
相連	-11.5138
文義相	-11.5138
三檀	-11.5139
鼻識	-11.5139
咒水	-11.514
725	-11.514
特色	-11.514
行出世	-11.5141
濕生	-11.5144
兩品	-11.5146
彼自性	-11.5147
無一物	-11.5149
領受	-11.5151
於苦海	-11.5151
禪那	-11.5153
到達	-11.5155
如火	-11.5156
若唯	-11.516
石窟	-11.5161
海藏	-11.5162
寂天	-11.5164
兩耳	-11.5166
諸化佛	-11.5166
淨國	-11.5167
何等人	-11.5167
爭得	-11.5171
與其他	-11.5172
如星	-11.5172
下接	-11.5173
甘心	-11.5175
來到了	-11.5175
一批	-11.5176
參與	-11.5181
極度	-11.5183
律師	-11.5187
法身真言	-11.5193
所緣緣	-11.5194
方始	-11.5194
入室	-11.5197
不妄語	-11.5198
他們會	-11.52
傳世	-11.52
大夫	-11.52
今後	-11.5201
具體的	-11.5201
開方便	-11.5202
分散	-11.5204
所載	-11.5207
nirjarā	-11.5208
大部分	-11.521
佛神力	-11.521
生活在	-11.5211
妄緣	-11.5212
云何修行	-11.5214
歷代大藏	-11.5215
但使	-11.5218
已竟	-11.5222
對彼	-11.5223
這個人	-11.5224
但沒有	-11.5226
願悉	-11.5226
所編	-11.5228
(50	-11.5228
善果	-11.5229
普皆	-11.523
兩本	-11.523
經教	-11.5231
法成	-11.5232
部分的	-11.5235
普同	-11.5236
苦趣	-11.5236
等四種	-11.5241
敦煌遺書中的	-11.5242
獨處	-11.5243
誰知	-11.5246
稱作	-11.5246
頭陀法	-11.5249
88、	-11.525
一心歸命禮	-11.525
願菩提心	-11.5252
受苦時	-11.5253
如幻化	-11.5255
立見	-11.5257
三儀軌中	-11.5263
具六	-11.5265
我心中	-11.5268
所繫	-11.5268
到底是	-11.5269
果滿	-11.5271
的寫本	-11.5274
本疏	-11.5274
無妨	-11.5274
帝王	-11.5277
為蘊	-11.528
所寫	-11.5281
十二入	-11.5282
是無記	-11.5292
行宮	-11.5293
終時	-11.5297
三千大千	-11.5299
初標	-11.5299
妨	-11.53
無損	-11.5303
法身非	-11.5304
大樂	-11.5305
汝已	-11.5308
19.	-11.5311
復請	-11.5312
個半葉	-11.5313
還入	-11.5315
的傳統	-11.5318
動作	-11.5319
於佛前	-11.5321
□□□□□□	-11.5323
與修道	-11.5324
生靈	-11.5324
新編	-11.5324
三乘之	-11.5328
敦煌地區	-11.5332
自食	-11.5332
不妨	-11.5334
教理	-11.5338
以法為	-11.5339
它們是	-11.5343
85、	-11.5345
律中	-11.5345
舊錄	-11.5346
廣長舌相	-11.535
nir	-11.5351
食用	-11.5353
尋其	-11.5353
道安的	-11.5355
入滅	-11.5363
萬億那由他	-11.5365
非凡	-11.5366
的態度	-11.5366
伽囉	-11.5367
的翻譯	-11.5368
而得解脫	-11.537
在其中	-11.5371
四周	-11.5372
法界眾生	-11.5376
sā	-11.5382
捨置	-11.5382
念請	-11.5383
現存的	-11.5385
莫大	-11.5387
nām	-11.5393
其體	-11.5393
紅蓮	-11.5401
無端	-11.5408
難聞	-11.5409
即攝	-11.5411
意識到	-11.5424
常存	-11.5424
受形	-11.5424
心迷	-11.5425
境想	-11.5428
覺心	-11.5428
虛空藏	-11.5429
寶瓶	-11.5432
九地	-11.5432
對待	-11.5433
丙本	-11.5436
能成就	-11.5442
傳譯	-11.5443
明受用	-11.5445
古佛	-11.5446
勝果	-11.5446
卷第三	-11.5447
都會	-11.5449
其數	-11.5451
傳統的	-11.5454
能遮	-11.5458
觀諸法	-11.5458
億萬	-11.5463
證成	-11.5463
之根本	-11.5468
的產生	-11.5468
美食	-11.5469
敦煌文獻中	-11.547
夫言	-11.5473
下方	-11.5473
▁第四	-11.5474
大足	-11.5475
攝益	-11.5478
應令	-11.5479
微言	-11.5479
金身	-11.5486
諸女	-11.5489
即是空	-11.5494
ara	-11.5497
合理	-11.5503
天眼遙	-11.5505
的國家	-11.5507
寶花	-11.551
▁7	-11.5515
置之	-11.5522
香山	-11.5533
見障	-11.5534
有五種	-11.5537
限於	-11.5537
婆婆	-11.5538
98、	-11.5546
火所燒	-11.5556
雜明	-11.5562
何緣	-11.5566
回光	-11.5567
或現	-11.5567
收有	-11.5573
89、	-11.5576
釋煩惱	-11.5581
根境	-11.5587
寂寂	-11.5588
這一部分	-11.5588
至德	-11.5588
隨欲	-11.5591
諸供養	-11.5594
無竟	-11.5601
淨水	-11.5603
325	-11.5611
於一切法	-11.5615
正常	-11.5623
上聖	-11.5626
正直	-11.5642
報恩者	-11.5643
正當	-11.565
持律	-11.5656
金容	-11.5659
施戒	-11.5662
無壽者	-11.5672
四月	-11.5672
成世界	-11.5681
二菩提心	-11.5681
92、	-11.5688
悉知	-11.5692
值佛	-11.5693
常將	-11.57
四藥	-11.5704
亦許	-11.5708
四靜慮	-11.5726
能了知	-11.573
依儀	-11.5733
妙果	-11.5738
五境	-11.5738
專心	-11.5742
成阿羅漢	-11.5744
以示	-11.5758
供養佛	-11.5766
不離於	-11.5773
佛藏	-11.5775
彼國	-11.5776
除滅	-11.5785
敷演	-11.5788
以神力	-11.5791
食時	-11.5792
不能遮	-11.5797
邊看者見佛在	-11.5805
說咒	-11.5805
敦煌地區的	-11.5821
十個	-11.5825
往詣	-11.5827
par	-11.5827
國人	-11.584
為眾生說	-11.5842
能度	-11.5843
可證	-11.5851
集學	-11.5859
僅唯	-11.5872
宗章疏	-11.5874
悉由	-11.5876
鐵圍	-11.5886
山川	-11.589
本國	-11.5895
伽羅	-11.5895
的故事	-11.5898
之境界	-11.59
擇滅	-11.5926
俱來	-11.5926
應屬	-11.5929
六十二	-11.5933
在敦煌文獻中	-11.5935
ram	-11.5936
歡喜園	-11.5946
彼怨敵	-11.5951
九百	-11.5953
批	-11.5955
不顧	-11.5956
krama	-11.5956
莫非	-11.5957
居處	-11.596
道次第	-11.5968
空閑	-11.5972
現知	-11.5976
82、	-11.5985
虎吽	-11.5987
燦爛	-11.5994
答難	-11.5996
帝釋天	-11.5998
一切功德	-11.6002
為宣揚	-11.6003
第一群	-11.6006
於三寶	-11.6014
功德聚	-11.6025
至第	-11.6026
不感	-11.6042
俱盧	-11.6048
刻石	-11.6057
秫	-11.6058
起大悲	-11.6061
的分類	-11.6067
欲使	-11.6078
竺法護譯	-11.6089
梵釋寺	-11.609
站在	-11.6091
手腳耳	-11.6091
諷	-11.6092
濟群	-11.6094
大字	-11.61
爾時佛母	-11.61
誕	-11.6102
可以看出	-11.611
獵人	-11.6111
我得阿羅漢道	-11.6113
構	-11.6115
相即是非相	-11.6115
bheda	-11.6117
不生滅	-11.6118
gati	-11.6119
indriya	-11.6119
§7.1	-11.6121
▁我受持不	-11.6121
▁二十九日	-11.6121
太山府君下	-11.6121
▁Hahn	-11.6121
▁二十三日	-11.6121
ṭ	-11.6121
▁二十八日	-11.6121
§2.3	-11.6122
正加法	-11.6122
寶髻故事	-11.6122
catur	-11.6122
§1.3	-11.6122
譜系	-11.6122
親眷	-11.6122
如來有所說法	-11.6123
罪根	-11.6123
sparśa	-11.6123
梵文原文	-11.6123
基本一致	-11.6123
民族	-11.6124
的蓮花	-11.6124
逼迫	-11.6125
身肉	-11.6125
夾註	-11.6125
值得注意	-11.6126
存文相當於	-11.6126
正統	-11.6126
▁十八日	-11.6126
所不能及	-11.6126
墓地觀	-11.6126
孫陀利	-11.6126
目犍連	-11.6126
除罪一千	-11.6127
華嚴瓔珞經	-11.6127
可怕的	-11.6128
文殊般若經	-11.6129
觀見腐屍	-11.6129
應了了分明彼心	-11.6129
贖	-11.6129
酌	-11.6129
從本以來	-11.6129
植物	-11.613
無塵	-11.613
局限	-11.6131
站起來	-11.6132
行了禮	-11.6132
俱舍論	-11.6133
誰言得	-11.6133
奶	-11.6133
邏輯	-11.6133
再生族	-11.6133
結跏趺	-11.6133
達摩禪師論	-11.6134
祇樹給孤獨園	-11.6134
匱乏	-11.6134
應作如是觀	-11.6135
不垢不淨	-11.6135
八十隨形好	-11.6135
意味著	-11.6135
譯場	-11.6136
富樓那	-11.6136
辱罵	-11.6136
筵開	-11.6136
顛狂	-11.6137
勾	-11.6137
奮發	-11.6137
東西南北	-11.6137
藥師求解結	-11.6137
千百億	-11.6137
拍	-11.6138
亞	-11.6138
骸骨	-11.6138
詢	-11.6138
娶	-11.6138
夜已過	-11.6138
堅定不移	-11.6138
最上之寶	-11.6138
興奮	-11.6138
軒	-11.6139
割註	-11.6139
被人輕賤	-11.6139
自他互換	-11.6139
金剛界大法對受	-11.614
完美的	-11.614
抵	-11.614
無緣慈	-11.614
無上佛菩提	-11.614
如紺琉璃	-11.614
未為我國歷代大藏經所收	-11.6141
瞞	-11.6141
官員	-11.6141
體寂	-11.6141
蚊	-11.6141
大毗盧遮那成道經	-11.6141
廣泛	-11.6141
沉默	-11.6141
危脆	-11.6142
計劃	-11.6142
厘米	-11.6142
阻止	-11.6142
姆	-11.6142
排斥	-11.6142
老病死	-11.6142
華嚴部	-11.6143
從定起	-11.6143
肘	-11.6143
那謨	-11.6143
乾闥婆	-11.6143
忉利天宮	-11.6143
高下執	-11.6144
月光童子	-11.6144
阿毗達磨	-11.6145
自己的生命	-11.6145
嘌	-11.6145
祀	-11.6145
剎土	-11.6145
坦然	-11.6145
折伏	-11.6145
考訂	-11.6145
▁十五日	-11.6145
孟列夫	-11.6146
入菩薩行論廣解佛子津梁釋	-11.6146
掉悔	-11.6146
遵奉	-11.6146
原件	-11.6146
針對	-11.6146
興福禪師	-11.6146
丘陵	-11.6146
隧道	-11.6146
尋找	-11.6147
緊那羅	-11.6147
一盲人摸觸象	-11.6148
漸次	-11.6148
慳吝	-11.6148
右兩個半葉	-11.6148
鸞宿	-11.6148
層次	-11.6149
千字文	-11.6149
有五百	-11.615
阿闍黎	-11.615
連綴	-11.615
芒	-11.615
婉轉	-11.615
入中論	-11.615
婚禮	-11.615
瘥	-11.615
不可思量	-11.615
迅	-11.6151
如來滅後	-11.6151
解冤結菩薩摩訶薩	-11.6151
普供養真言	-11.6151
不能見如來	-11.6151
修煉	-11.6151
轉輪王	-11.6151
推測	-11.6151
知曉	-11.6151
499	-11.6151
淮	-11.6152
裴	-11.6152
洋	-11.6152
削	-11.6152
霄	-11.6152
嶺	-11.6152
鶴	-11.6153
熙	-11.6153
調柔	-11.6153
識宿命	-11.6153
日至心進念	-11.6153
六類冤債	-11.6153
那些婆羅門	-11.6153
鼻孔	-11.6153
大目犍連	-11.6154
盧吉	-11.6154
因緣心論釋	-11.6154
圓超	-11.6154
爍	-11.6154
胸臆	-11.6154
爐炭	-11.6154
視之如	-11.6154
埵	-11.6155
催	-11.6155
滌	-11.6155
馥	-11.6156
勇猛精進	-11.6156
縒	-11.6156
的命令	-11.6156
息諍論	-11.6156
下部殘缺	-11.6156
浮囊	-11.6156
精誠	-11.6156
甯	-11.6156
捺	-11.6156
鋸	-11.6156
汗	-11.6156
嗅	-11.6157
緣起緣性	-11.6157
渡河	-11.6157
淋	-11.6157
醒悟	-11.6157
象狀如	-11.6157
銷	-11.6157
菩提妙心	-11.6157
室哩	-11.6158
拈提	-11.6158
纖毫亦無	-11.6158
痕	-11.6158
名號品	-11.6158
摩訶薩埵	-11.6158
第三時中	-11.6158
宵	-11.6159
短小	-11.6159
侯沖	-11.6159
毀譽	-11.616
補特伽羅及蘊	-11.616
滔滔	-11.616
親戚	-11.616
瀾	-11.616
訴	-11.616
於他人	-11.616
錯亂	-11.616
祛除	-11.616
即興而說偈	-11.616
詳情	-11.616
奮	-11.616
床座	-11.616
萬里	-11.616
開元舊錄部分	-11.6161
偽妄	-11.6161
艱	-11.6161
姪他	-11.6161
贈	-11.6161
洽	-11.6161
湛然常住	-11.6161
錢財	-11.6161
孝順設供拔苦報恩道場儀	-11.6162
情除	-11.6162
正式	-11.6162
關聯	-11.6162
律藏	-11.6162
慨	-11.6162
豈得	-11.6162
四分律	-11.6162
頂戴	-11.6162
莫測	-11.6163
讚譽	-11.6163
吽吽	-11.6163
威勢	-11.6163
夫婦	-11.6163
宿世	-11.6163
工巧	-11.6163
姿	-11.6164
難報志心皈命禮	-11.6164
藏文本	-11.6164
叭羅	-11.6164
長者維摩詰	-11.6164
好醜	-11.6165
法王家	-11.6165
須彌山王	-11.6165
Ф	-11.6165
颯	-11.6165
沼	-11.6166
風吹	-11.6166
369	-11.6166
依阿練若	-11.6166
冤家債主	-11.6166
▁tri	-11.6166
喪失	-11.6166
劉王	-11.6166
有五百色	-11.6166
大臣們	-11.6167
難議	-11.6167
六衰	-11.6167
雜亂	-11.6167
朋	-11.6168
劫奪	-11.6168
行至同欄第	-11.6168
云何於此經	-11.6168
給孤獨	-11.6168
謫	-11.6168
網羅	-11.6168
俗諦	-11.6168
一切賢聖	-11.6168
人法俱	-11.6168
無所從來	-11.6169
唯求自利	-11.6169
澄神	-11.6169
酬恩	-11.6169
發表在	-11.617
鉢頭摩	-11.617
操	-11.617
三藐三菩陀	-11.617
訥	-11.617
金剛已還	-11.6171
能作是念	-11.6171
衢	-11.6171
誐誐曩	-11.6171
16.	-11.6171
這兩種	-11.6171
清淨無染	-11.6172
脾	-11.6172
崇高	-11.6172
入城乞食	-11.6173
暇滿難得	-11.6173
慈童	-11.6173
馨香	-11.6173
皮肉	-11.6173
經軌	-11.6173
寶頂山	-11.6174
恤	-11.6174
無窮無盡	-11.6174
蓮臺	-11.6174
瞻禮	-11.6175
獅	-11.6175
榜	-11.6175
鄙	-11.6175
值遇	-11.6175
超昇	-11.6175
介	-11.6175
怛那	-11.6176
頂上旋	-11.6176
受想行識	-11.6176
蹇	-11.6176
鹿野	-11.6176
◇(	-11.6176
拒	-11.6176
如是已說	-11.6176
皆發阿耨多羅三藐三菩提心	-11.6176
非有非無	-11.6176
尋訪	-11.6176
頗囉	-11.6176
又乃或為	-11.6177
銳	-11.6177
斤	-11.6177
舌二根	-11.6177
初成正覺	-11.6177
獨特	-11.6177
寶頂	-11.6177
冒地	-11.6177
日下舊聞考	-11.6178
損壞	-11.6178
晦	-11.6178
答第三問	-11.6178
飢	-11.6178
防止	-11.6179
心猶未	-11.6179
蟾	-11.6179
昂	-11.618
雪嚕畔	-11.618
承許	-11.618
城裏	-11.618
起大邪見	-11.618
身中三毒	-11.618
君臣	-11.6181
三滿哆	-11.6182
逞	-11.6182
奇妙	-11.6182
百歲光陰	-11.6182
解脫知見	-11.6182
恩光	-11.6182
379	-11.6183
陀囉尼	-11.6183
名婆伽婆	-11.6183
入不二法門	-11.6183
就中有二	-11.6184
渺	-11.6184
真言歌讚	-11.6185
那波那	-11.6185
持戒律	-11.6185
紅色	-11.6185
彼無用故	-11.6185
當於何	-11.6186
南無日月光	-11.6187
阿闍梨眾賢	-11.6187
廣百論疏	-11.6187
勸君	-11.6188
抱持	-11.6188
固定	-11.6188
眸	-11.6188
修五戒十善	-11.6188
馳散	-11.6189
勇士	-11.6189
四念處	-11.6189
不覺不知	-11.619
尾虔娘	-11.6191
傲物	-11.6191
愚情	-11.6191
有萬億那由他	-11.6191
夫妻	-11.6192
風雨	-11.6193
勝劣	-11.6193
随	-11.6193
能仁自在	-11.6193
香飯	-11.6193
帶著	-11.6193
法幢	-11.6195
可怖	-11.6195
餘里	-11.6195
顏色	-11.6195
有異也	-11.6196
無我亦無	-11.6196
天人師	-11.6197
惡友	-11.6197
第十九	-11.6198
有過失	-11.6198
化作	-11.6199
第一義空	-11.62
器世間	-11.6201
縣令	-11.6201
卷十五	-11.6201
永劫	-11.6201
昇天	-11.6202
有疾菩薩	-11.6203
得四沙門果	-11.6203
半偈	-11.6204
牛頭	-11.6204
利濟	-11.6204
嚩嚕	-11.6205
傳燈	-11.6205
蹈	-11.6205
退失	-11.6206
容易	-11.6207
燒道根	-11.6207
校正	-11.6207
雙林	-11.6207
內宮	-11.6208
該疏	-11.6208
如上所	-11.6208
過咎	-11.6209
山河	-11.6209
持鉢	-11.6209
請問經	-11.6209
dāna	-11.621
所屬	-11.621
纏縛	-11.621
義準	-11.621
情期	-11.6211
根器	-11.6213
違情	-11.6213
拱	-11.6213
鑒照	-11.6214
長夜	-11.6215
即非菩薩	-11.6218
鉢囉底	-11.6218
每日	-11.6219
俱有因	-11.622
萬古	-11.622
纏繞	-11.622
諸學處	-11.622
難敵	-11.622
難逢	-11.6221
琉璃界	-11.6221
對象	-11.6222
六根清淨	-11.6223
當何所	-11.6223
母𩕳	-11.6224
冤親	-11.6227
歲月	-11.6227
個方面	-11.6229
鄰虛	-11.6229
信奉	-11.623
徒眾	-11.6231
火輪	-11.6231
釋氏	-11.6231
凌人	-11.6231
疏鈔	-11.6231
本願經	-11.6232
七齋	-11.6233
喜愛	-11.6235
新集	-11.6235
卷末	-11.6236
稱歎	-11.6236
簡要	-11.6238
修改	-11.6241
吽泮	-11.6242
殊方	-11.6243
月輪	-11.6244
超然	-11.6246
雜類	-11.6246
生死輪迴	-11.6247
難窮	-11.6247
大丈夫	-11.6248
求菩提	-11.6248
窮子	-11.6249
遂乃	-11.6249
三世冤	-11.625
損失	-11.6252
何關	-11.6253
長劫	-11.6256
第十六	-11.6256
與佛教的	-11.6257
一概	-11.6257
而不是	-11.6258
貪利	-11.6258
好看	-11.626
親疏	-11.6261
並如論	-11.6261
三界外惑	-11.6261
萬種	-11.6262
惠眼	-11.6263
經版	-11.6264
示真	-11.6265
超出	-11.6265
28)	-11.6268
遭受	-11.6268
遇緣	-11.6268
重恩	-11.6269
名叫	-11.6273
我等有情	-11.6274
尼師	-11.6276
猶勝	-11.6276
修禪	-11.6277
難尋	-11.6279
供具	-11.6279
先亡	-11.628
的卷數	-11.6281
學家	-11.6282
三暮	-11.6286
的發展	-11.6288
長遠	-11.6288
施捨了	-11.6289
無量法門	-11.629
墮地	-11.6292
法身無相	-11.6293
權智	-11.6295
施恩	-11.6297
已備	-11.6299
反對	-11.6301
舉喻	-11.6304
無我觀	-11.6305
求證	-11.6306
造惡	-11.6308
印文	-11.6308
詣佛	-11.6309
能救	-11.6309
次列	-11.6312
善男子善女人	-11.6313
般若觀	-11.6313
的誓言	-11.6314
這個孩子	-11.6316
為避	-11.6323
八中第	-11.6329
香火	-11.633
的生命	-11.6334
中國人所撰	-11.6337
的微點	-11.6338
▁10	-11.634
法性非	-11.634
......」	-11.6341
老子	-11.6343
品第十	-11.6343
諸紙	-11.6344
須信	-11.6351
廣分別	-11.6353
有四義	-11.6354
直下	-11.6357
感應	-11.636
無伺	-11.636
繫屬	-11.6363
修空性	-11.6365
諸天神	-11.6372
悲號	-11.6373
有闕	-11.6373
遮遣	-11.6374
利益眾生	-11.6375
尚應	-11.6378
亦非身	-11.6382
真乘	-11.6385
生死涅槃	-11.6386
多端	-11.6389
亦不成	-11.6389
山王	-11.6391
勝德	-11.6392
三才	-11.6394
無價寶	-11.6394
慧光	-11.6397
命根	-11.6398
自守	-11.64
不來不	-11.6404
中提到	-11.6406
問候	-11.6407
yoḥ	-11.6408
的形成	-11.641
見聞者	-11.6411
顯密	-11.6411
熱地獄	-11.6414
孝感	-11.6415
見到了	-11.6416
童子下	-11.6416
前世	-11.6416
或弟子	-11.6417
的地位	-11.6418
親友等	-11.642
198	-11.6421
十五卷	-11.6423
恭聞	-11.6427
如意樹	-11.643
隨煩惱	-11.6432
所食	-11.6432
思慧	-11.6434
起惑	-11.6434
上首	-11.6436
爾所	-11.6437
的發現	-11.6437
講經	-11.6453
無高下	-11.6457
主持	-11.6459
顯德	-11.646
動地	-11.646
適當的	-11.6464
善財	-11.6466
dā	-11.6471
邪道	-11.6473
粗大	-11.6476
不應作	-11.6477
虛度	-11.6479
550	-11.6482
非倒	-11.6483
將顯	-11.649
祇在	-11.6491
菩薩慈悲	-11.6493
心持誦	-11.6497
五乘	-11.6498
西方極樂	-11.65
實非	-11.65
流入	-11.6505
妙樂	-11.6505
個月	-11.6509
過度	-11.6509
成就眾生	-11.6509
在他的	-11.6513
我母	-11.6513
大門分	-11.6514
瑜伽者	-11.6515
無功	-11.6517
不停	-11.653
坐已	-11.6532
而不捨	-11.6533
蓋為	-11.6534
唯除	-11.6535
地獄苦	-11.6542
之一分	-11.6546
名為結	-11.6551
含義	-11.6554
rasa	-11.6555
凡所	-11.6558
定水	-11.6558
粗言	-11.6562
夜半	-11.6564
於自他	-11.6568
分為十	-11.6569
思議	-11.6575
眼觸	-11.6576
聖號	-11.6577
任何人	-11.658
心靈	-11.659
度一切	-11.6593
看見	-11.6594
隨其所	-11.6596
凡愚	-11.6597
常寂	-11.66
十齋	-11.6607
死已	-11.661
隨念	-11.6614
外現	-11.6615
即是菩提	-11.662
天下之	-11.663
無異也	-11.6641
無妄想	-11.6646
品第二十	-11.6652
漏識	-11.6657
覺道	-11.6661
而不作	-11.6662
出水	-11.6672
尾秫	-11.6675
悲哀	-11.6683
不能盡	-11.6689
起大悲心	-11.6697
示入	-11.67
150	-11.6701
理實	-11.6701
放心	-11.6708
十智	-11.6709
不知道	-11.6719
常實	-11.6738
流光	-11.6738
玉毫	-11.6749
兩俱	-11.6771
自性分別	-11.6771
戒體	-11.6773
著衣	-11.6773
出生死	-11.6781
無方分	-11.6796
正語	-11.6798
帶有	-11.6803
將它	-11.6804
富有	-11.6805
群品	-11.6815
必有所	-11.6816
出現在	-11.6817
佛色身	-11.6817
ayo	-11.6818
可以發現	-11.6825
離煩惱	-11.6842
雲集	-11.6846
應供養	-11.6848
右邊	-11.6853
青蓮	-11.6855
anā	-11.6861
通理	-11.6872
之過失	-11.6873
滿五	-11.6878
惟是	-11.6882
所獲	-11.6883
圓光	-11.6883
更無他	-11.6891
21.	-11.6899
念釋迦	-11.6916
一剎那	-11.696
及其他	-11.6972
長期	-11.6986
年十歲	-11.6994
該本	-11.6995
令我得	-11.6996
終不以	-11.7002
yaḥ	-11.701
密多	-11.7029
176	-11.7033
āya	-11.7034
名別	-11.7037
個階段	-11.704
恩重	-11.7042
多數	-11.7047
十五日	-11.7055
此三種	-11.7056
不可取	-11.7057
耳聽	-11.7059
世界性	-11.7079
微妙法	-11.711
怛他誐哆	-11.7111
一解言	-11.7123
佛法僧	-11.7125
不自知	-11.7146
畏懼	-11.7157
無價	-11.717
自侵	-11.7172
依舊	-11.7197
不勞	-11.7198
離二邊	-11.7206
受持讀誦此經	-11.7206
億那由他	-11.7211
賢劫	-11.7218
樹林	-11.7218
的歷史	-11.7219
看到這個	-11.7219
似海	-11.7234
待考	-11.7236
恆河	-11.7247
如來得阿耨多羅三藐三菩提	-11.7251
難堪	-11.7257
的注釋	-11.7263
有三十二	-11.7265
所制	-11.7266
rya	-11.7271
四智圓	-11.7277
僧法誦出	-11.7286
藥師海會	-11.729
應恭敬	-11.7295
寶劍	-11.7311
摩訶般若	-11.7335
皆懺悔	-11.7339
慧方便	-11.7344
恢	-11.7346
院本	-11.7346
不相干	-11.7349
遍三千	-11.7351
永元二年	-11.7353
肯	-11.7357
▁p	-11.7358
萬二千	-11.7359
或在林中	-11.7361
潤生	-11.7361
百千萬	-11.7363
法本無	-11.7363
大概是	-11.7367
巴利堯巴姆	-11.7367
經律異相	-11.7369
得聖人心	-11.7369
sthit	-11.737
呼吸	-11.737
的兩倍	-11.737
śubha	-11.737
評價	-11.7371
族姓	-11.7371
§8.2	-11.7371
天大將軍下	-11.7371
時向東方禮佛	-11.7371
karma	-11.7371
▁二十四日	-11.7371
▁十四日	-11.7371
moha	-11.7371
▁三十日	-11.7371
敷座而坐	-11.7371
ānāṃ	-11.7372
結尾部分	-11.7372
§2.4	-11.7372
deśa	-11.7372
可變身	-11.7372
prad	-11.7372
ste	-11.7372
唸	-11.7372
貞元新定釋教目錄	-11.7372
嚩囉那	-11.7373
黃昏	-11.7373
§7.16	-11.7374
kāla	-11.7374
天監元年出	-11.7374
sādh	-11.7374
矢吹慶輝	-11.7374
五誓	-11.7374
實如聖教	-11.7374
釋法尼	-11.7374
愛慾	-11.7375
nam	-11.7375
nava	-11.7375
北京圖書館	-11.7376
圓滿報身盧舍那佛	-11.7376
以具足相	-11.7376
離一切諸相	-11.7376
比較複雜	-11.7377
恒河沙數	-11.7377
淵源	-11.7377
確認	-11.7377
el	-11.7377
二十偈	-11.7378
嘆德宣疏	-11.7379
很清楚	-11.738
如芭蕉	-11.738
探究	-11.738
陀羅尼藏無邊	-11.738
這個數字	-11.738
排序	-11.7381
妖魔	-11.7381
不應住色生心	-11.7381
頁上第	-11.7381
大迦旃延尊者	-11.7382
施命為	-11.7382
版片號	-11.7382
應無所住	-11.7382
mahā	-11.7383
我和世界既	-11.7383
眾生如來度者	-11.7383
集禪源諸論關要	-11.7383
殄	-11.7383
䂮	-11.7384
叢書	-11.7384
有三問答	-11.7384
增一阿含經	-11.7384
儒釋兼濟	-11.7384
空衣派刊本把	-11.7384
跏趺坐	-11.7384
愉快地	-11.7384
皆大歡喜	-11.7384
善護念諸菩薩	-11.7385
色等五境	-11.7385
站立一旁	-11.7385
善財童子	-11.7386
尖刀	-11.7386
以何因緣	-11.7386
>	-11.7386
雙行小字	-11.7386
儉	-11.7387
一段話	-11.7387
如夢幻泡影	-11.7387
攜	-11.7387
無上瑜伽派	-11.7387
認識對象	-11.7387
秘密伽陀	-11.7387
三滿多	-11.7387
他人之苦	-11.7388
若以色見我	-11.7388
阿耨菩提	-11.7388
願此善力	-11.7388
去後留恩	-11.7388
目前尚無法	-11.7388
雪山不得為譬	-11.7388
繼承	-11.7388
價直	-11.7389
散花行道	-11.7389
誰有復誰無	-11.7389
拯救	-11.7389
複	-11.7389
隨文說明	-11.7389
翔	-11.7389
童瑋先生	-11.7389
英國	-11.7389
頗有眾生	-11.7389
框	-11.7389
首楞嚴	-11.739
先身有	-11.739
酸	-11.739
內涵	-11.739
日月星辰	-11.739
開壇門部陀羅尼	-11.739
災禍	-11.739
睒	-11.739
刺刀扎	-11.739
長房	-11.739
牟	-11.7391
之所由生	-11.7391
到這裏來	-11.7391
嗔	-11.7391
塵不染塵	-11.7392
是人行邪道	-11.7392
仰告諸佛諸菩薩	-11.7392
柔軟	-11.7392
墮惡道	-11.7392
狐	-11.7392
僻	-11.7392
漸頓	-11.7393
伏願不違本誓	-11.7393
偉大的聖者啊	-11.7393
右繞	-11.7393
參照	-11.7393
聞佛所說	-11.7394
檀波羅蜜	-11.7394
异熟	-11.7394
甘旨	-11.7395
描述	-11.7395
坦然平	-11.7395
迷情見有	-11.7395
鈐	-11.7395
培	-11.7395
猊	-11.7395
懇禱	-11.7396
對病應	-11.7396
欲達無生	-11.7396
這番	-11.7396
閻浮檀	-11.7396
智悲	-11.7396
褒	-11.7396
全貌	-11.7396
即興自說	-11.7396
思益經	-11.7396
麟	-11.7397
剎帝利	-11.7397
牛羊	-11.7397
顆	-11.7397
波斯匿	-11.7397
沮喪	-11.7397
般若波羅蜜多心經	-11.7397
胞	-11.7397
悲憐	-11.7398
延齡	-11.7398
波羅提木叉	-11.7398
證無生忍	-11.7398
這部著作	-11.7398
充足	-11.7398
棘	-11.7398
菩提樹下	-11.7398
撮	-11.74
楞嚴會上	-11.74
之孝也	-11.74
厥	-11.74
聖者馬立奇	-11.74
一百三十卷	-11.74
是一致的	-11.74
柔和	-11.74
濟濟皆	-11.74
蘭膏發	-11.74
號為底本	-11.74
得福多不	-11.7401
柰	-11.7401
哀愍	-11.7401
四天王下	-11.7401
啄	-11.7401
星君	-11.7401
膩	-11.7401
分裂	-11.7401
明教大師	-11.7401
雇	-11.7401
傳授	-11.7401
掠	-11.7401
籌	-11.7402
交參	-11.7402
壬寅年	-11.7402
昭昭	-11.7402
皆共成佛道	-11.7402
偏袒	-11.7402
方軌	-11.7402
而不乖	-11.7402
▁丙本	-11.7402
閉塞	-11.7403
几	-11.7403
烏鴉	-11.7403
心中充滿了	-11.7403
無閡	-11.7403
利鈍	-11.7404
阿囉訶	-11.7404
波旬	-11.7404
殺戮	-11.7404
贊寧	-11.7404
十八不共	-11.7404
薜	-11.7404
謗方等經	-11.7404
傳記錄	-11.7404
的責任	-11.7404
志心勤禮拜	-11.7404
狐疑	-11.7404
糞掃	-11.7404
呈現	-11.7404
遊歷	-11.7405
裳	-11.7405
世俗諦	-11.7405
多饒	-11.7405
贊揚	-11.7406
新資料	-11.7406
佛如來手十指	-11.7406
楊廣	-11.7406
娑婆世界	-11.7406
悖	-11.7406
糊	-11.7406
遏阿暗惡	-11.7406
士夫之身	-11.7406
憑此結成	-11.7406
開闡	-11.7406
商迦羯	-11.7406
嚩囉拏	-11.7406
爇	-11.7407
最遲	-11.7407
珊瑚	-11.7407
複印件	-11.7407
淪	-11.7407
千萬億	-11.7407
敲	-11.7408
緇流	-11.7408
覿	-11.7408
抓	-11.7408
盞	-11.7408
腔	-11.7408
規模	-11.7408
屎尿	-11.7408
篆	-11.7408
歎佛宣疏	-11.7408
壇場內外悉清淨	-11.7408
禪詮	-11.7409
律儀戒	-11.7409
曹溪水	-11.7409
雍	-11.7409
非色非	-11.7409
筌	-11.7409
醮	-11.7409
善哉善哉	-11.741
景祐	-11.741
吾今為汝	-11.741
眼淚	-11.741
天眼通	-11.741
鼠	-11.741
法之供養	-11.741
狩	-11.741
始終無變	-11.741
娑嚩婆嚩	-11.7411
時眾得益	-11.7411
肋	-11.7411
尖	-11.7411
皇宮	-11.7411
喪則致其哀	-11.7411
睛	-11.7411
貧困	-11.7411
卡	-11.7412
這稱為	-11.7412
樂音樹下	-11.7412
統領	-11.7412
佛告舍利弗	-11.7412
舅	-11.7412
函	-11.7412
金剛以還	-11.7412
227	-11.7412
念釋迦牟尼佛	-11.7413
死王使者	-11.7413
嬉	-11.7413
如來設教	-11.7413
良藥	-11.7413
崖	-11.7413
聞經佛子罪消滅	-11.7413
讚嘆	-11.7414
祇園	-11.7414
17.	-11.7414
疫	-11.7415
人非人	-11.7415
閑居	-11.7415
是法平等	-11.7415
得法眼淨	-11.7415
杯	-11.7415
陳明光	-11.7415
挽	-11.7416
志心勤	-11.7416
哀憐	-11.7417
膿血	-11.7417
第二單元	-11.7417
談談	-11.7417
血肉	-11.7417
閈	-11.7417
幾時休	-11.7417
自證分	-11.7417
需要的人	-11.7417
遵循著	-11.7417
大莊嚴寺	-11.7417
發無上正真道意	-11.7417
沒溺	-11.7418
末伽	-11.7418
晶	-11.7418
上報四	-11.7418
梯	-11.7418
所修諸善	-11.7418
憎愛	-11.7419
播抳	-11.7419
為一小殘片	-11.7419
誑惑	-11.7419
那微涅	-11.7419
六類冤家	-11.7419
异門	-11.742
放棄了	-11.742
綵	-11.742
澄清	-11.7421
深厚	-11.7421
悲痛	-11.7421
規定	-11.7421
阿鼻地獄	-11.7421
故論答云	-11.7421
上二界	-11.7421
在那兒	-11.7422
)+《	-11.7422
而彼處言	-11.7422
蠲	-11.7422
凡屬	-11.7422
企	-11.7422
鹿王	-11.7422
傳到敦煌	-11.7423
調伏其心	-11.7423
天仙	-11.7423
縷	-11.7423
如佛所說	-11.7423
垢穢	-11.7424
胥	-11.7424
慶喜	-11.7424
袋	-11.7424
清信女	-11.7424
佛在世時	-11.7424
謙和	-11.7425
汩	-11.7425
叉手	-11.7425
摩利支天	-11.7425
開啟	-11.7425
勤劬	-11.7425
幽玄	-11.7425
真俗混融	-11.7426
語默	-11.7426
暫停	-11.7426
芻	-11.7426
不存在	-11.7426
和合僧	-11.7426
脅	-11.7426
愍傷	-11.7426
厲	-11.7426
枝葉	-11.7426
織	-11.7426
參加	-11.7426
嘴	-11.7426
薰習	-11.7426
去世後	-11.7426
名增上慢	-11.7426
赫赫	-11.7426
琉璃光	-11.7427
盧舍那佛	-11.7427
瑟恥帝	-11.7427
故名一切法	-11.7427
伍	-11.7427
酷	-11.7428
湧出	-11.7428
紅塵	-11.7428
尊勝破地獄儀軌	-11.7428
憍慢	-11.7428
直饒	-11.7428
賧子	-11.7428
死屍	-11.7429
熏成	-11.7429
墀	-11.7429
剃髮	-11.7429
皆是佛法	-11.7429
進退	-11.7429
嘍	-11.743
昏迷	-11.743
是緣覺人	-11.743
法處攝	-11.743
慈悲喜捨	-11.743
余	-11.743
紺	-11.7431
煎	-11.7431
波濤	-11.7431
敏	-11.7431
薩怛嚩	-11.7431
藻	-11.7431
敦煌地區的大藏經	-11.7431
壹	-11.7432
自利利他	-11.7432
貧女	-11.7432
第三部分	-11.7432
虛誑	-11.7432
疲極	-11.7433
無盡意菩薩	-11.7434
蝦	-11.7434
尊崇	-11.7434
墮於地獄	-11.7434
犁	-11.7434
管理	-11.7434
悟本心	-11.7434
與盡名	-11.7434
飛鳥	-11.7434
真詮	-11.7434
無住涅槃	-11.7435
杳	-11.7435
得到解脫	-11.7435
香木	-11.7435
推乾就濕	-11.7436
酬答	-11.7436
賢愚	-11.7436
寒熱	-11.7437
喜慶	-11.7437
08、	-11.7437
接近	-11.7437
感情	-11.7437
如蓬	-11.7437
当	-11.7438
所有這些	-11.7438
弘深	-11.7438
景德本	-11.7438
盡讚揚	-11.7438
各自不同	-11.7439
大千沙界	-11.7439
大足石刻	-11.7439
覆蔽	-11.7439
具一切智	-11.7439
五項	-11.744
密嚴	-11.744
為中心	-11.744
尤其是	-11.744
膺	-11.7441
登彼岸	-11.7441
審諦	-11.7441
不可愛樂	-11.7441
四瀆	-11.7441
退失菩提心	-11.7441
號釋迦牟尼	-11.7442
亨	-11.7444
索取	-11.7444
偏執	-11.7444
適合	-11.7444
始末	-11.7445
增盛	-11.7445
恐畏長者	-11.7445
惹耶	-11.7446
數論師	-11.7446
還包括	-11.7446
為首的	-11.7446
假立名	-11.7447
年正月一日改為	-11.7447
作如是想	-11.7447
禮儀	-11.7448
於我何	-11.7448
超勝	-11.7448
百官	-11.7448
打開	-11.7448
輕慢	-11.7448
成就無邊	-11.7449
戍涅	-11.7449
毗婆	-11.7449
馬鳴	-11.7449
寶積經	-11.7449
乘般若	-11.745
乾慧	-11.745
二乘之人	-11.745
增進	-11.745
精粗	-11.745
去吧	-11.7451
彼我相忘	-11.7451
作此解	-11.7452
魯畔	-11.7452
因陀羅	-11.7452
煞害	-11.7452
努	-11.7453
自招	-11.7453
互不相	-11.7454
清淨三業	-11.7454
馱囉	-11.7455
差殊	-11.7455
萬端	-11.7455
是故佛說	-11.7455
本末	-11.7455
非所應	-11.7456
得為乘	-11.7456
煩惱怨敵	-11.7457
般若波羅蜜經	-11.7458
結束	-11.7458
咸令	-11.7458
鉢羅底	-11.7458
下限	-11.7459
甚麼	-11.7461
念觀世音菩薩	-11.7461
名譽	-11.7461
典治	-11.7461
濟群生	-11.7462
何勞	-11.7462
事本末	-11.7462
列舉	-11.7462
年輕	-11.7463
七返	-11.7463
重輕	-11.7463
兢兢誐	-11.7463
一切法平等	-11.7464
調善	-11.7464
明宗旨	-11.7464
孝養	-11.7465
未熟	-11.7465
調和	-11.7466
神祇	-11.7466
下經言	-11.7467
為淨土因	-11.7467
娑隸哩	-11.7467
焰慧	-11.7471
厭惡	-11.7471
及其它	-11.7472
安息	-11.7474
爾時太子	-11.7474
弘願	-11.7474
總計	-11.7475
身心清淨	-11.7475
哀號	-11.7475
地府	-11.7476
總歎	-11.7476
無礙解脫	-11.7477
地獄等苦	-11.7477
兩紙	-11.7478
恐難	-11.7478
名為實智	-11.7479
遍覆	-11.7479
具體情況	-11.7479
法中王	-11.748
獻水妖	-11.748
諸佛佛子	-11.748
光明藏	-11.748
那伽	-11.7481
僧俗	-11.7481
勝進	-11.7482
善良	-11.7483
特意	-11.7483
經中稱	-11.7484
治國	-11.7485
祖父母	-11.7486
大乘經典	-11.7487
聲聞乘	-11.7487
誤解	-11.7489
境亡	-11.7489
尾部	-11.7489
四維	-11.7491
佛如來眼	-11.7491
祇能是	-11.7492
風輪	-11.7492
一百二十	-11.7492
繫念	-11.7494
/□□□□□□□□	-11.7495
的妻子	-11.7495
ty	-11.7496
打破	-11.7497
繫著	-11.7498
太宗	-11.7499
周流	-11.7501
從本節	-11.7503
忍辱波羅蜜	-11.7503
明二智	-11.7504
在家菩薩	-11.7504
報告	-11.7504
貪味	-11.7506
通序	-11.7506
於朝時	-11.7508
信手	-11.7508
平復	-11.7509
閻羅王下	-11.7511
心遙	-11.7511
指決定	-11.7512
萬形	-11.7514
順流	-11.7515
行孝道	-11.7515
供養三寶	-11.7516
323	-11.7516
役使	-11.7517
光陰	-11.7518
妄情	-11.7518
難免	-11.7518
名為方便智	-11.7518
不住涅槃	-11.7519
妙旨	-11.7519
狀若	-11.7519
苦哉	-11.7521
走來	-11.7523
初期	-11.7523
牛王	-11.7525
那尾	-11.7526
只能	-11.7526
大人相	-11.7527
863	-11.7528
心生歡喜	-11.7528
一枝	-11.7528
真實性	-11.7529
蘊攝	-11.753
:(1)	-11.7532
明壽量	-11.7533
信忍	-11.7533
普賢菩薩	-11.7534
直緣	-11.7534
有較大的	-11.7535
無所住	-11.7535
說完這些	-11.7536
破戒者	-11.7537
有所得	-11.7537
堪受	-11.7537
某日	-11.7538
諸臣	-11.7538
福報	-11.7541
於此日	-11.7542
卿主	-11.7543
嚩汝	-11.7544
所作皆	-11.755
舊云	-11.7552
師父	-11.7552
還歸	-11.7552
當來生	-11.7552
護命	-11.7557
實無所	-11.7558
寧知	-11.7558
尋光	-11.756
仍復	-11.7561
慈親	-11.7562
稱量	-11.7563
走上	-11.7564
修齋	-11.7567
/(	-11.7567
前進	-11.7568
淨治	-11.7568
首先是	-11.757
明其故	-11.757
少年	-11.7571
唱言	-11.7574
略標	-11.7576
的事情	-11.7576
告諸大眾	-11.7578
施寶	-11.7585
神聖	-11.7586
恒河中所有沙	-11.7588
金山	-11.7595
座下	-11.7597
緣塵	-11.7599
諸阿羅漢	-11.7601
識蘊	-11.7601
究其	-11.7603
即得解脫	-11.7604
成益	-11.7607
真如理	-11.7607
明鏡	-11.761
兩件	-11.7618
普天	-11.762
得免	-11.762
95、	-11.7622
障閉	-11.7622
八風	-11.7626
可憐	-11.7628
即是法身	-11.7634
大富	-11.7634
新修	-11.764
名相之	-11.7641
王子時	-11.7644
出土	-11.7645
勸善	-11.7646
禪門	-11.7647
業海	-11.7647
戒品	-11.7648
列入	-11.7648
應感	-11.7651
劫盡	-11.7652
平等性	-11.7653
淺行	-11.7653
妙光	-11.7655
法身大士	-11.7656
未滿	-11.7657
不昧	-11.7658
增入	-11.7661
個性的	-11.7668
死去	-11.7673
心田	-11.7676
rati	-11.7677
兩句	-11.7677
簡擇	-11.7683
七遍	-11.7684
五蓋	-11.7685
轉勝	-11.7692
應勤精進	-11.7694
vya	-11.7694
隨物	-11.7698
未足	-11.7699
執取	-11.77
必先	-11.7702
刪除	-11.7702
事訖	-11.7708
一切眾生皆	-11.7718
含生	-11.7722
感興	-11.7725
金蓮	-11.7726
白文	-11.7727
天衣	-11.7729
習學	-11.7737
諸波羅蜜	-11.7738
修因果	-11.7744
受自性不成	-11.7746
一念起	-11.7755
ayaḥ	-11.7759
自此已	-11.7762
造惡業	-11.7769
其旨	-11.7771
爾時世尊見	-11.7775
正智觀	-11.7788
本節作	-11.7789
阿婆	-11.7791
攝持之	-11.7795
景審	-11.7801
最勝天	-11.7812
101	-11.7814
ant	-11.7822
新學	-11.7834
堅住	-11.7836
行人觀	-11.7848
是故名為	-11.7848
佛陀耶	-11.7852
之異名	-11.7854
畢竟無	-11.7856
名何等	-11.787
猶尚	-11.7874
如斯之	-11.7885
化納	-11.7896
句偈	-11.793
相擊	-11.794
等四法	-11.7948
的榮耀	-11.7952
不損	-11.7955
十六卷	-11.7958
福利	-11.7964
順理	-11.7975
是身無	-11.7989
無滯	-11.8001
頗有	-11.8002
在拙	-11.8002
廣顯	-11.8005
十九年	-11.8006
無他事	-11.8025
嚩那	-11.8029
梵天界	-11.8035
下註	-11.8036
03、	-11.8054
成就菩提	-11.8057
弘誓	-11.8065
是佛語	-11.8075
莫知	-11.8079
何假	-11.808
鄰國	-11.8083
把他們	-11.8086
無畏法	-11.8088
更有何	-11.8089
斛	-11.8091
諸經中	-11.8115
顯著	-11.8119
兜率天	-11.8121
法器	-11.8128
在世上	-11.813
vās	-11.8131
均作	-11.814
能作者	-11.8145
不離身	-11.8165
有四問	-11.8166
十二願	-11.8167
廣大願	-11.8168
飯食已	-11.8174
如大海	-11.8179
堪稱	-11.8185
後末世	-11.8196
的價值	-11.8213
夫求	-11.8213
還存在	-11.8217
一百四十	-11.822
vidh	-11.8223
識海	-11.8228
滿三千大千世界	-11.8229
外護	-11.823
pr	-11.8245
齊修	-11.8247
是有漏	-11.8271
說三十二相	-11.8275
8～	-11.8294
第一個	-11.8303
▁八日	-11.8305
隸屬	-11.8307
偈贊	-11.8313
那囉	-11.8343
修六度	-11.8345
如來悉知	-11.8369
無相貌	-11.8371
無彼此	-11.8375
第十八	-11.8383
增補的	-11.8391
無取捨	-11.8407
sad	-11.8407
秫陀	-11.8413
大約是	-11.8422
語業	-11.8424
的序言	-11.8427
這就是正	-11.843
諸趣	-11.8432
花壇	-11.8433
特定	-11.8441
幸得	-11.8474
敦煌遺書中發現	-11.8475
不動搖	-11.8476
指南	-11.8476
年左右	-11.8478
為我所	-11.8492
漸輕微	-11.8494
宛	-11.8499
01、	-11.8503
難行苦	-11.8505
花台	-11.8517
兩肩	-11.8518
中復有	-11.8547
那摩	-11.8556
後來的	-11.8567
娑羅	-11.8589
不取相	-11.8594
倒在地上	-11.8599
百二十	-11.8608
tan	-11.8612
白衣派	-11.8615
如海量	-11.8633
涯	-11.8638
花鬘	-11.8639
被傷	-11.8643
勉力	-11.8646
jīv	-11.865
諸佛所說	-11.8653
求正覺的	-11.8666
生人間	-11.8667
燃燒著	-11.8672
中覓	-11.8709
功勳	-11.8729
此中攝	-11.873
非恒有	-11.8731
方塔本	-11.8734
眾聖賢	-11.8735
驚怖	-11.8743
琉璃光佛	-11.8746
邀	-11.8752
鳩摩羅什	-11.876
見有人	-11.8766
亦滿三千大千世界	-11.877
亦必被割	-11.8784
頭陀乞食	-11.8784
六波羅密	-11.8786
克什曼德拉	-11.8787
扣	-11.8788
琅	-11.8789
諸相非相	-11.879
或在虛室	-11.8791
生起之束縛	-11.8791
盂	-11.8791
蘇那尊者	-11.8791
莊嚴佛士	-11.8794
vedanīy	-11.8796
q	-11.8796
§9.3	-11.8797
首部文字與	-11.8797
受持四句偈	-11.8797
果之因	-11.8797
吻合	-11.8797
這段話	-11.8797
也有類似的	-11.8797
妙喜世界	-11.8798
民俗佛教	-11.8798
疏記部	-11.8798
蚊虻	-11.8798
宮住神	-11.8799
sth	-11.8799
各運志誠	-11.8799
蘇波婆沙	-11.8799
放佚禁戒位	-11.8799
迦爾巴住神	-11.8799
仏	-11.8799
vṛtt	-11.88
弘明集	-11.88
viṃśati	-11.88
▁yathā	-11.88
yojana	-11.88
明攝法分齊	-11.88
浦濕卡羅洲	-11.88
sapta	-11.88
離散星	-11.88
察命下	-11.88
guṇa	-11.88
ādiṣu	-11.88
器官	-11.8801
綱要	-11.8801
āyu	-11.8801
virata	-11.8801
光讚般若	-11.8801
刷	-11.8801
器世成	-11.8801
▁丁本	-11.8802
佛頂心觀世音	-11.8802
opa	-11.8802
無有少法	-11.8802
臨法會	-11.8802
業的滅盡狀態	-11.8802
跋提耶	-11.8802
難產七日	-11.8802
▁華嚴經卷	-11.8802
侄	-11.8803
棉	-11.8803
mati	-11.8803
kṣetra	-11.8803
ich	-11.8803
心滿意足	-11.8803
婆羅多地區	-11.8804
產生的漏	-11.8804
甚深法藏	-11.8804
解我所說義	-11.8804
夾	-11.8804
頁下欄第	-11.8804
習慣義觀	-11.8805
sthiti	-11.8805
kāya	-11.8805
法上錄	-11.8805
位因陀羅	-11.8805
念藥師琉璃光佛	-11.8805
sat	-11.8806
乾燥	-11.8806
鐵匠之子純陀	-11.8806
大般涅槃經佛母品	-11.8806
豬肉	-11.8806
同前云云	-11.8807
長老須菩提	-11.8807
顛	-11.8807
8386	-11.8808
之生起與壞滅	-11.8808
畢陵迦婆蹉	-11.8808
聽了這些話	-11.8808
或兼察	-11.8808
終無趣寂	-11.8808
明業用	-11.8808
大目犍連尊者	-11.8809
正覺之路	-11.8809
現藏雲南省	-11.8809
5699	-11.8809
庇護	-11.8809
良賁	-11.8809
領域	-11.8809
伴佐	-11.8809
服務	-11.8809
利他兼	-11.8809
憶念不忘	-11.8809
世尊金口親宣示	-11.8809
是名大身	-11.881
翳燈幻	-11.881
度生權	-11.8811
迷頭認影	-11.8811
佛教目錄學	-11.8811
洛	-11.8811
唐高宗	-11.8812
加持字母陀羅尼	-11.8812
更鼓打	-11.8812
曾為舉揚	-11.8812
百分不及一	-11.8812
初日分	-11.8812
如來有肉眼	-11.8812
中國北京圖書館藏	-11.8812
拼	-11.8812
大方廣佛華嚴經	-11.8812
鐫刻	-11.8812
不如其一	-11.8812
鍾	-11.8813
略有不同	-11.8813
簇	-11.8813
八家秘錄	-11.8813
大圓鏡智	-11.8813
本文獻未為我國歷代經錄所	-11.8813
說得福德多	-11.8813
楞伽	-11.8813
如露亦如電	-11.8813
聽到這話	-11.8814
國王難敵	-11.8814
俱為妄所	-11.8814
酥油	-11.8814
哀受我請	-11.8814
裝幀	-11.8814
羽	-11.8815
從定中起	-11.8815
修此觀	-11.8815
執我乃	-11.8815
法師布露	-11.8815
弘法寺	-11.8815
伏願承佛神力	-11.8815
敦煌出土	-11.8816
丘	-11.8816
董	-11.8816
昆	-11.8816
七寶以用	-11.8817
金錢	-11.8817
茅	-11.8817
契真常	-11.8817
所具有的	-11.8817
帕摩達拉	-11.8817
百千萬分	-11.8817
云何應住	-11.8817
涼土異經	-11.8817
為我們研究	-11.8818
喊	-11.8818
所在之處	-11.8818
十三法師	-11.8818
慣	-11.8818
地藏菩薩本願經	-11.8818
毫無疑問	-11.8818
食肉之人	-11.8818
暴虐	-11.8819
的基礎	-11.8819
以音聲求我	-11.8819
何慮不	-11.8819
儼	-11.8819
來世當得作佛	-11.8819
無垢淨光佛	-11.8819
補充	-11.882
刊定眾經目錄	-11.882
無諍三昧	-11.882
禮別聖賢	-11.882
聖線	-11.8821
眾生度盡	-11.8821
龐	-11.8821
坎	-11.8821
(1026)	-11.8821
忌	-11.8821
十方三世一切諸佛	-11.8821
蓮池	-11.8821
迭	-11.8821
如汝所說	-11.8821
成等正覺	-11.8821
梵磨	-11.8821
蝶裝	-11.8821
層層	-11.8822
暫時停	-11.8822
虎狼	-11.8822
同圓種智	-11.8822
善思念之	-11.8823
如何棄捨	-11.8823
溝	-11.8823
忉利	-11.8823
衰老	-11.8823
證空便	-11.8823
藥王如來	-11.8824
昏昏	-11.8824
波羅密咒	-11.8824
無有出期	-11.8824
不太可能	-11.8824
完全一致	-11.8824
腑	-11.8824
大寶積經	-11.8824
她們	-11.8824
覺華定自在王	-11.8824
燸	-11.8824
玲	-11.8824
楞	-11.8825
猿猴	-11.8825
咄	-11.8825
慈覺禪師	-11.8825
明諸大乘	-11.8825
一心皈命禮常住三寶	-11.8825
的殘餘	-11.8825
著者不詳	-11.8825
毅	-11.8826
阿鍐覽唅欠	-11.8826
目真鄰陀	-11.8826
何必更	-11.8826
然後乃消	-11.8826
無實無虛	-11.8826
無邊量	-11.8826
籌量	-11.8826
摧殘	-11.8827
於當來世	-11.8827
高卑	-11.8827
人空法亦空	-11.8827
雪山童子大菩薩	-11.8827
斷除人我	-11.8827
玄鑒	-11.8827
以為有我	-11.8827
筭	-11.8827
使全世界	-11.8827
梁朝傅大士頌金剛經	-11.8827
結婚	-11.8827
悲廣大	-11.8828
寶曇花菩薩	-11.8828
無數倍	-11.8828
月亮	-11.8828
清涼池	-11.8828
順天府	-11.8828
330	-11.8828
枷鎖	-11.8829
席	-11.8829
嚴格	-11.8829
剋	-11.8829
牛王目	-11.8829
打罵	-11.8829
何啻	-11.8829
績	-11.8829
術語	-11.8829
禪宗僧人	-11.8829
連貫	-11.8829
工具	-11.883
島	-11.883
恕	-11.883
潰	-11.883
聽完	-11.883
有身非	-11.883
鮮花	-11.883
手足等	-11.883
賈	-11.883
盟修奉	-11.883
攢	-11.883
寂寞	-11.883
膊	-11.883
審視	-11.883
除蓋障	-11.883
朝廷	-11.8831
博物館	-11.8831
蓋纏	-11.8831
提謂波利	-11.8831
兩派	-11.8831
無法可說	-11.8831
達摩所傳	-11.8831
六十二見	-11.8832
寶滿三千	-11.8832
貢	-11.8832
沿襲	-11.8832
煎熬	-11.8832
三業六根悉清淨	-11.8832
雕印	-11.8832
此燈伏為	-11.8832
求不得苦	-11.8832
終不得	-11.8832
大明咒經	-11.8832
炙	-11.8832
炷香	-11.8832
中國佛教典籍	-11.8832
謨	-11.8832
給你	-11.8832
安世高	-11.8833
耐他怨害忍	-11.8833
屆	-11.8833
映奪	-11.8833
蠡文	-11.8833
六道四生	-11.8833
單白	-11.8833
疊疊	-11.8833
傲	-11.8833
474	-11.8833
笞	-11.8833
七級	-11.8833
每紙	-11.8833
祝福	-11.8833
無明住地	-11.8833
踞	-11.8833
冒	-11.8834
第四章	-11.8834
現法樂住	-11.8834
史記	-11.8834
刊施	-11.8835
登正覺	-11.8835
翫	-11.8835
應允	-11.8835
肌肉	-11.8835
釐	-11.8835
不取不捨	-11.8835
蔣唯心	-11.8835
谷響	-11.8835
菩薩總持法	-11.8835
提婆達多	-11.8835
的許可	-11.8836
禽獸	-11.8836
率土	-11.8836
覩	-11.8836
演變	-11.8836
完全依據	-11.8836
趨向	-11.8836
蠅	-11.8836
綵女	-11.8836
開雕	-11.8836
傳入雲南	-11.8836
大理國	-11.8837
阿僧祇	-11.8837
中觀師	-11.8837
忘心頓證	-11.8837
為母說法	-11.8837
稚	-11.8837
喜馬拉雅山	-11.8837
頭頂寶石	-11.8837
身口意業	-11.8838
社稷	-11.8838
馳騁	-11.8838
直說語言	-11.8838
靖	-11.8838
爽	-11.8838
沫	-11.8838
洗滌	-11.8838
肥	-11.8839
胡跪	-11.8839
皈救	-11.8839
荷澤	-11.8839
趙文煥	-11.8839
辟	-11.8839
大黑天神	-11.8839
捶	-11.8839
僕役	-11.8839
皮膚	-11.8839
粉	-11.8839
道場合用	-11.8839
雕造	-11.8839
踰	-11.8839
勇毅	-11.8839
灌注	-11.8839
凋	-11.884
廟堂	-11.884
奄	-11.884
所有的國王	-11.884
龍蛇	-11.884
芒果林	-11.884
痰	-11.8841
所節抄	-11.8841
無邊誓願	-11.8841
可綴接	-11.8841
踐	-11.8841
泣淚	-11.8842
生慰勞	-11.8842
您應該	-11.8842
瘖啞	-11.8842
守護正知	-11.8842
展開	-11.8842
真宰	-11.8842
被溺	-11.8842
南無大孝釋迦牟尼佛	-11.8842
寇	-11.8842
蠢	-11.8842
塗抹	-11.8842
常住三寶	-11.8842
體一如	-11.8842
一切冤家離	-11.8842
喝囉怛那	-11.8842
哭泣	-11.8842
彌凱耶尊者	-11.8842
毀壞	-11.8842
驕滿	-11.8842
鞭撻	-11.8843
瞋饞	-11.8843
錄校時	-11.8843
嘔	-11.8843
繁榮	-11.8843
頭面禮足	-11.8843
孤貧	-11.8843
軟語	-11.8843
八正道	-11.8843
盲龜	-11.8843
跋提	-11.8843
填	-11.8844
兜	-11.8844
柄	-11.8844
粥	-11.8844
空寂無生	-11.8844
奇特	-11.8844
灣	-11.8844
作津梁	-11.8845
押	-11.8845
清信士女	-11.8845
陰功	-11.8845
菀	-11.8845
走近	-11.8845
感佛義	-11.8845
毗婆沙	-11.8845
聰慧	-11.8845
這些典籍	-11.8845
獄卒	-11.8845
入正位	-11.8845
擔荷	-11.8845
無第二尋	-11.8845
瞻視	-11.8845
紀讚	-11.8846
忤	-11.8846
四念住	-11.8846
首部經文	-11.8846
明通塞	-11.8846
明確地	-11.8847
照抄	-11.8847
膏	-11.8847
芝	-11.8847
郊	-11.8847
聽到這個	-11.8847
映飾	-11.8847
所生之處	-11.8847
保留了	-11.8847
收錄了	-11.8847
六根六塵	-11.8848
聞此語	-11.8848
任何時中	-11.8848
貧賤	-11.8848
穿著	-11.8848
得福無量	-11.8848
手捉	-11.8848
膜	-11.8849
心滅境	-11.8849
悽	-11.8849
怛囉喃	-11.8849
根鈍	-11.8849
舍婆提	-11.8849
無言無說	-11.8849
大廳	-11.8849
善巧方便	-11.885
懇祈	-11.885
伎樂	-11.885
猜	-11.885
王子啊	-11.885
需求	-11.885
妙臂	-11.885
羅什	-11.885
攫	-11.8851
伺相應	-11.8851
掌平	-11.8851
彎	-11.8851
毗輸	-11.8851
忽爾	-11.8851
鉀	-11.8851
台門	-11.8851
赫然	-11.8851
夙業	-11.8851
明相攝	-11.8852
維那	-11.8852
徹底	-11.8852
磚	-11.8852
勸勉	-11.8852
香花燈塗	-11.8852
走狩	-11.8852
大施會	-11.8852
有空性相	-11.8852
眼等諸根	-11.8853
囉怛那	-11.8853
九橫	-11.8853
黑闇	-11.8853
依他起	-11.8853
證阿羅漢	-11.8853
阿吒力僧	-11.8853
餝	-11.8854
啼哭	-11.8854
梭	-11.8854
故有斯問	-11.8854
伽伽那	-11.8854
正念思惟	-11.8854
答第二問	-11.8854
此室常	-11.8854
卑下	-11.8854
威武	-11.8854
無上士	-11.8854
春秋	-11.8854
亦復然	-11.8855
純孝	-11.8855
潔滌	-11.8855
囉夜耶	-11.8855
啟導	-11.8856
纏綿	-11.8856
懂得	-11.8856
斷三界惑盡	-11.8856
互為配紙	-11.8856
他的兒子	-11.8856
宰官	-11.8856
帙皮	-11.8856
南北	-11.8856
怯	-11.8856
佳名	-11.8857
淹	-11.8857
叮嚀	-11.8857
如金翅鳥	-11.8857
儔	-11.8857
無有是處	-11.8857
受持菩提心	-11.8857
低微	-11.8857
潔淨	-11.8857
不可窮	-11.8858
香爐	-11.8858
滑	-11.8858
遜	-11.8858
唐末	-11.8858
繞塔	-11.8858
判官	-11.8858
荼	-11.8859
頭頂上	-11.8859
普勸大眾儀當演	-11.8859
有何差別	-11.8859
象馬車步	-11.8859
毫無所	-11.8859
的原則	-11.8859
名言安立	-11.886
泣血	-11.886
堅實法	-11.886
李有棠	-11.886
聖典	-11.8861
標文可	-11.8861
繫綴	-11.8861
搗	-11.8861
迦哩	-11.8861
証	-11.8861
派別	-11.8862
勤加	-11.8862
八萬劫	-11.8862
墮三惡道	-11.8862
商賈	-11.8863
佛母經	-11.8863
龍宮	-11.8863
妻妾	-11.8863
糠	-11.8863
兜羅棉	-11.8863
回答說	-11.8863
剎海	-11.8864
微弱	-11.8864
忉利天上	-11.8864
給我們	-11.8864
梳	-11.8864
餓死	-11.8865
便謝	-11.8865
沉思	-11.8865
莫不歡喜	-11.8865
鑽	-11.8865
我等今日	-11.8866
此為大海所具有之第	-11.8866
這樣一個	-11.8866
違越	-11.8866
右脅	-11.8866
安閒	-11.8866
憲	-11.8867
頭戴	-11.8867
楚毒	-11.8867
體起成緣	-11.8867
晃	-11.8868
牽引	-11.8868
輕毀	-11.8869
妥	-11.8869
獻蓋	-11.8869
靈樹	-11.8869
.3.	-11.887
是名世界	-11.8871
千江	-11.8871
來詣佛所	-11.8871
諸長者子	-11.8871
迄今	-11.8871
常願奉母往見一切	-11.8871
無與等	-11.8871
逢難	-11.8871
禁止	-11.8871
學菩薩行	-11.8872
龍女	-11.8872
解冤結真言	-11.8872
離言說	-11.8874
文彩	-11.8875
是名莊嚴	-11.8875
無瑕	-11.8875
(78	-11.8875
呵罵	-11.8875
酥	-11.8876
自纏	-11.8876
迦嚕	-11.8876
穢土	-11.8876
推尋	-11.8876
追念	-11.8876
植在	-11.8877
戍涅多	-11.8877
乞經狀	-11.8877
玉女	-11.8877
日照開	-11.8878
無想定	-11.8878
長辭	-11.8878
在欲而	-11.8878
色蘊攝	-11.8878
瑟恥	-11.8879
豈況	-11.8879
白牛	-11.8879
口氣	-11.8879
陽文	-11.8879
▁eka	-11.888
詞句	-11.888
五德弟子	-11.888
巧計	-11.888
青黃	-11.888
供奉	-11.888
刀斫	-11.8881
如來金口	-11.8881
尤其	-11.8882
清虛	-11.8882
神授	-11.8882
非色非心	-11.8883
所說應知	-11.8883
所不欲	-11.8883
即此意	-11.8883
太陽經	-11.8883
永伏	-11.8883
阿含	-11.8884
衛經	-11.8884
久安	-11.8884
前程	-11.8885
積極	-11.8885
悲泣	-11.8886
某某	-11.8886
惱亂	-11.8887
疑經錄	-11.8887
頗更有	-11.8887
怨家	-11.8888
參用	-11.8888
孃	-11.8889
萬象	-11.8889
否定	-11.8889
流通分	-11.889
隱顯	-11.889
西國	-11.889
輕賤	-11.8892
願當來	-11.8892
金史	-11.8893
作是觀	-11.8893
你應該	-11.8893
具壽	-11.8894
塔下	-11.8894
涅槃含	-11.8895
㗚	-11.8895
歸敬	-11.8895
個微點	-11.8897
拈出	-11.8897
短命	-11.8897
果重擔	-11.8897
誕生	-11.8898
猛利	-11.8899
去做	-11.8899
一一極微	-11.8899
未來世中	-11.89
藥品	-11.89
善女人發阿耨多羅三藐三菩提心	-11.8901
而為供養	-11.8902
配合	-11.8902
周圍	-11.8903
遺教	-11.8904
源流	-11.8904
共諍	-11.8904
觀自在菩薩	-11.8904
白骨	-11.8904
久長	-11.8905
千古	-11.8906
記載了	-11.8907
海印	-11.8908
念佛功德	-11.8908
的過程中	-11.8908
而有差別	-11.8909
慧燈	-11.8909
去來今	-11.891
唯得一	-11.891
覺華	-11.891
回國	-11.8912
正篇	-11.8912
是名說法	-11.8913
為是僧	-11.8914
五蔭	-11.8914
作佛因	-11.8914
哆哩	-11.8914
散壞	-11.8914
兩部分	-11.8915
不飲酒	-11.8915
順忍	-11.8916
獨坐	-11.8916
相對應	-11.8917
支持	-11.8917
君主	-11.892
是偽經	-11.892
尊高	-11.8921
小序	-11.8921
感通	-11.8922
良由	-11.8922
跟隨	-11.8922
動轉	-11.8923
不思議解脫	-11.8923
有漏因	-11.8923
倍常	-11.8923
立志	-11.8923
聖財	-11.8924
我輩	-11.8924
七事供養	-11.8924
號文獻	-11.8924
遇到	-11.8925
所冀	-11.8926
嘆德	-11.8928
尋思	-11.8929
自作自	-11.8929
諸異本	-11.8929
年之久	-11.893
遣除	-11.893
離所知	-11.8931
慈悲主	-11.8931
毀戒	-11.8931
德滿	-11.8932
含藏	-11.8932
飛天	-11.8932
輪迴生死	-11.8934
菩提離所	-11.8936
是我子	-11.8937
無定相	-11.8938
計度	-11.894
善了知	-11.8941
理即無	-11.8941
直向	-11.8942
以為莊嚴	-11.8943
證無生	-11.8945
獲益	-11.8945
舉手	-11.8945
看時不	-11.8946
香嚴	-11.8947
自己的身體	-11.8949
如是等人	-11.895
三十地獄	-11.8951
十地菩薩	-11.8951
善法天	-11.8956
千眼	-11.8957
狀如	-11.8957
曷為而	-11.8958
dravya	-11.8958
苦厄	-11.8958
聞思修	-11.8959
證無為	-11.8959
找到	-11.8962
大善知識	-11.8962
劫數	-11.8962
無為蘊	-11.8964
陰文	-11.8964
轉增	-11.8965
25.	-11.8966
失傳	-11.8966
初中文	-11.8968
直指	-11.8968
七日已	-11.8968
名修多羅	-11.8969
且第一	-11.897
上述資料	-11.897
此第三問	-11.897
歸依處	-11.8971
香風	-11.8971
數目	-11.8973
普度	-11.8974
致令	-11.8975
推求	-11.8975
夢幻	-11.8976
既亡	-11.8976
傳記	-11.8978
在目前	-11.8979
願兒	-11.8979
過去滅	-11.8981
結習	-11.8983
誦密言	-11.8984
例子	-11.8986
兩類	-11.8986
自性涅槃	-11.8987
恆河沙	-11.8988
耆那教經典	-11.8988
例同	-11.8989
財利	-11.8992
悟真空	-11.8992
普利	-11.8993
井中	-11.8993
即是佛性	-11.8996
一切怖畏	-11.8996
普聞	-11.8999
補處	-11.9
24.	-11.9
機緣	-11.9002
墮三塗	-11.9003
惱害	-11.9003
俱舍	-11.9009
偷僧	-11.901
煩惱賊	-11.901
無眾生相	-11.9011
海會眾聖賢	-11.9013
如下文	-11.9014
憂念	-11.9015
是名為心	-11.9016
勸修行	-11.9017
仁王般若	-11.9022
悉圓滿	-11.9024
生兜率天	-11.9025
老病	-11.9025
sarva	-11.903
不空譯	-11.903
澡浴	-11.9034
160	-11.9034
無間獄	-11.9038
何謂正	-11.904
如聾	-11.9043
舊譯	-11.9045
269	-11.9045
何曾不	-11.905
亦如前	-11.905
yāḥ	-11.9061
諸鬼神	-11.9066
可以三十二相	-11.9067
是故當知	-11.908
當時佛教	-11.908
別序	-11.9081
即其事	-11.9086
是故不應	-11.9095
孰能	-11.9102
生彼國	-11.9103
於閻浮提	-11.9114
毫端	-11.9116
注意到	-11.9119
地藏慈悲救苦薦福利生道場儀	-11.9126
研究價值	-11.9127
海岸	-11.9133
從佛聞	-11.9142
帶回	-11.9159
不言而	-11.916
成三皈	-11.9161
22.	-11.9162
抄出	-11.9165
各不相	-11.9173
骨一處	-11.9173
二后	-11.9179
編號為	-11.9183
為宴坐	-11.9186
集諦	-11.9191
所積集	-11.9192
登上	-11.9194
供獻	-11.9198
諸賢聖	-11.92
明正義	-11.9205
擇法	-11.921
相端嚴	-11.9215
śeṣā	-11.9217
苦所逼	-11.9219
的母親	-11.9225
亦同此	-11.9234
所纏	-11.9248
此下五	-11.9252
遣使	-11.9262
齒印	-11.9265
數百千	-11.9269
何由可	-11.9275
如經說	-11.928
暇滿所依	-11.9285
353	-11.9294
違害	-11.93
諸苦惱	-11.9313
違犯	-11.9321
人畜	-11.933
遭遇	-11.9343
寶山	-11.9363
,50	-11.937
188	-11.9409
齋食已	-11.9419
薩婆若	-11.9443
仍然是	-11.9447
143	-11.9452
尚不能	-11.9453
習種	-11.9473
尼迦	-11.9473
的請求	-11.9521
作諸惡	-11.9524
saṃgh	-11.9531
悲濟	-11.9536
畢竟空	-11.954
bhyaḥ	-11.9562
保存在	-11.9562
飯食	-11.9576
為人輕賤	-11.958
等三法	-11.9593
報應之	-11.9594
薩嚩怛他誐	-11.9595
非非法	-11.9612
何時我	-11.964
拔出	-11.9645
ddh	-11.9664
ghāt	-11.9666
vad	-11.9671
351	-11.9671
枳帝	-11.9678
出現了	-11.9679
日囉斛	-11.9685
諸罪垢	-11.9694
署名	-11.9699
持四句	-11.9706
208	-11.971
能離諸	-11.9714
悲愍	-11.9718
作何事	-11.972
藏書	-11.9724
垢染	-11.9739
無老死	-11.9755
半葉	-11.9762
三世十方	-11.9768
卷三十	-11.9779
十歲	-11.9784
第二十九	-11.9797
en	-11.9801
□□□□□□□□□□□□	-11.9846
無蹤	-11.9879
節經文	-11.9887
剎塵	-11.9888
說是經	-11.9917
不可以身	-11.993
法相宗	-11.9948
頓證	-11.9959
施捨給	-11.9966
何可得	-11.9989
śeṣ	-11.9993
迷悶	-12.0017
200	-12.0024
極樂世界	-12.0031
左邊	-12.0032
處所攝	-12.0074
漸增	-12.0076
來無得	-12.01
修多羅內	-12.0124
誓度	-12.0132
千萬億那由他	-12.0137
當為汝說	-12.0156
□□□□□□□□	-12.0199
切勿	-12.0199
超三界	-12.0253
澡	-12.0263
宗密撰	-12.0281
順天府志	-12.0285
oda	-12.0294
lok	-12.0355
然燈佛	-12.0388
照耀	-12.0389
人集錄	-12.0404
特殊的	-12.0409
如是降伏其心	-12.0412
此明二宗	-12.0429
'	-12.043
紹知伽	-12.0431
然燈佛所	-12.0432
瑕	-12.0432
回家	-12.0436
§4.3	-12.0436
受人尊	-12.0439
之技最高	-12.044
所疏相當於羅什譯本第	-12.0441
優鉢	-12.0442
悉見是	-12.0442
這篇文獻	-12.0445
上來禮請	-12.0446
須菩提是樂阿蘭那行	-12.0446
tvā	-12.0447
心中喜	-12.0447
則見如來	-12.0447
無終隨縛	-12.0449
600	-12.045
閻羅天子	-12.0451
瀆	-12.0452
相關的典籍	-12.0453
三階教文獻	-12.0455
中興元年	-12.0455
.3413	-12.0456
八十種隨形好	-12.0458
彙編	-12.0458
漢文譯本	-12.0458
廳	-12.0458
紫磨黃金	-12.0459
鈸	-12.0459
感得淨土	-12.0459
歌利王	-12.0459
婁	-12.046
說八萬四千諸妙相好	-12.046
禪源諸詮	-12.046
示同人事	-12.0461
若復有人於此經中	-12.0461
三種悉地	-12.0461
kriyā	-12.0461
請世尊入般涅槃	-12.0461
了了分明尚未生起之	-12.0461
代苦得樂	-12.0462
菩薩不受福德	-12.0462
三十五佛名禮懺文	-12.0462
一心頭面	-12.0463
承認	-12.0463
sūkṣma	-12.0464
寶炬	-12.0464
§5.29	-12.0464
此方撰述	-12.0464
儘	-12.0464
丸	-12.0464
粗穢濁位	-12.0464
王之姜	-12.0465
宮廷	-12.0465
汝若作是念	-12.0465
墮阿鼻地獄	-12.0465
釋迦譜	-12.0465
佛說金剛經纂	-12.0465
§5.4	-12.0465
f	-12.0465
pramatta	-12.0465
pare	-12.0465
釋迦氏略譜	-12.0466
款	-12.0466
āsrava	-12.0466
saṃkhyeya	-12.0466
経	-12.0466
bharata	-12.0466
bah	-12.0466
leśyā	-12.0466
tapas	-12.0466
三儀軌之一	-12.0466
漏得以產生	-12.0466
,55/68	-12.0466
空衣派刊本此節為	-12.0466
場大界	-12.0466
明造論因	-12.0467
維德哈地區	-12.0467
開皇三寶錄	-12.0467
中間住神	-12.0467
凝集生	-12.0467
guṇā	-12.0467
持齋除罪一千劫	-12.0467
大因陀羅天	-12.0467
補闕	-12.0467
常童子天	-12.0467
§6.1	-12.0467
大佛名經	-12.0467
蟻	-12.0467
samyaktva	-12.0467
蘊上假	-12.0467
kha	-12.0467
§9.38	-12.0467
莫作是說	-12.0468
▁pudgalā	-12.0468
丹誠	-12.0468
antara	-12.0468
uddhi	-12.0468
§8.10	-12.0468
palyopama	-12.0469
親眼見到	-12.0469
頁上欄第	-12.0469
一篇文章	-12.0469
▁戊本	-12.047
訂	-12.047
生難遭想	-12.047
除罪一千劫	-12.047
在佛教中	-12.047
śabda	-12.047
知心門	-12.0471
南北朝時期	-12.0471
諸佛願智真言	-12.0471
利刀	-12.0471
利生接物	-12.0472
念藥王藥上菩薩	-12.0472
如是沙等恒	-12.0472
人的壽命	-12.0472
尼泊爾	-12.0472
頁下第	-12.0472
受持讀誦為人	-12.0472
闡述	-12.0472
察心門	-12.0473
昔時稱善	-12.0473
識體體	-12.0473
則為非住	-12.0473
不墮寒冰地獄	-12.0473
施門通六	-12.0473
念賢劫千佛	-12.0473
各種各樣的	-12.0473
攪	-12.0473
韓	-12.0473
如來有天眼	-12.0473
以要言之	-12.0474
不墮鑊湯地獄	-12.0474
人空法亦	-12.0474
寫於日本	-12.0474
馭	-12.0474
行偈語	-12.0474
封疆	-12.0474
皇后	-12.0474
之束縛如何	-12.0474
殘爛	-12.0475
鞠	-12.0475
今正是時	-12.0475
志心稱念藥師	-12.0475
身諸毛孔	-12.0475
不如有人能斷酒	-12.0475
行於布施	-12.0476
謬誤	-12.0476
缽頭麼	-12.0476
加持獻花寶座真言	-12.0476
善付囑諸菩薩	-12.0476
官府	-12.0476
古提幹那居士	-12.0476
學術界	-12.0476
斯況並	-12.0476
不勞勵力	-12.0476
痛癢思想生死識	-12.0476
不異語者	-12.0477
混亂	-12.0477
盧舍那	-12.0477
犢	-12.0477
人身長大	-12.0477
如來有慧眼	-12.0477
如來有法眼	-12.0477
未為我國歷代經錄所	-12.0477
了了分明已棄	-12.0477
那羅延	-12.0478
窮困	-12.0478
猶如日輪	-12.0478
曇曜	-12.0478
背境向心	-12.0478
住心門	-12.0478
悟心門	-12.0478
六朝文	-12.0478
欲覓無生	-12.0478
審覆翻經大德	-12.0478
那伽薩瑪拉	-12.0478
具足諸相見	-12.0478
伺察	-12.0479
拋棄	-12.0479
圓珍在寫	-12.0479
挑	-12.0479
彼諸補特伽羅	-12.0479
互換	-12.0479
掃除心	-12.048
享解脫之樂	-12.048
伯希和	-12.048
竹林	-12.048
因之而	-12.048
皇家官藏	-12.048
求自利	-12.048
罪垢多除	-12.0481
值得研究	-12.0481
聖者巴伐菩提	-12.0481
鼓勵	-12.0481
圍繞眾髮	-12.0481
如來有佛眼	-12.0481
最後的解脫	-12.0481
禪門之法	-12.0481
背痛	-12.0481
舟航	-12.0481
披尋記	-12.0481
論衡	-12.0481
中國民間	-12.0481
開壇請佛	-12.0481
董氏	-12.0481
隨心所欲	-12.0481
進修名	-12.0481
這兒指	-12.0482
心王菩薩說頭陀經	-12.0482
則為有佛	-12.0482
要假離	-12.0482
波羅奈	-12.0482
吸收	-12.0482
串修	-12.0482
宣講正法	-12.0482
網縵	-12.0482
旦夕	-12.0482
禪河隨浪	-12.0482
遨	-12.0482
護國司南抄	-12.0482
囂	-12.0483
禪策問答	-12.0483
十惡五逆	-12.0483
叭	-12.0484
如來無所說	-12.0484
鉤鎖	-12.0484
互相爭吵	-12.0484
曩謨	-12.0484
念盧舍那佛	-12.0484
城祇樹給孤獨園	-12.0484
沽	-12.0484
復有五事	-12.0484
徵心門	-12.0484
非空亦非	-12.0484
頻經五百	-12.0484
恪	-12.0485
未為歷代大藏經所收	-12.0485
狹劣	-12.0485
楞嚴海會佛菩薩	-12.0485
轍	-12.0485
佛說是經已	-12.0485
頭上的寶石	-12.0485
過去心不可得	-12.0485
遍昭	-12.0485
辯正論	-12.0485
給孤獨園	-12.0485
月十日	-12.0485
聖者之王	-12.0485
分為六種	-12.0485
登寶座	-12.0485
早期禪宗	-12.0486
訟	-12.0486
簿	-12.0486
802	-12.0486
因緣心釋論開決記	-12.0486
率爾	-12.0486
現有資料	-12.0486
難盡讚揚	-12.0486
大中祥符	-12.0486
救脫菩薩	-12.0486
雙面抄寫	-12.0486
隅	-12.0486
枝節	-12.0486
夭亡	-12.0486
有密切關係	-12.0486
四色成山	-12.0486
見種種色	-12.0486
華方田	-12.0487
烤	-12.0487
查考	-12.0487
記憶	-12.0487
斷常俱不	-12.0487
以大願力	-12.0488
嬌	-12.0488
榖	-12.0488
廬	-12.0488
聞經深解	-12.0488
的主體	-12.0488
奢摩	-12.0488
七寶詎能過	-12.0488
界作微塵	-12.0488
墓	-12.0488
可以認識	-12.0488
荊棘林中業火生	-12.0489
語言翻修多羅	-12.0489
駒澤大學	-12.0489
庇	-12.0489
列舉了	-12.0489
撒	-12.0489
無明緣行	-12.0489
屢	-12.0489
則非凡夫	-12.0489
注意的是	-12.0489
寒冰	-12.0489
初住已上	-12.0489
世尊及僧眾	-12.0489
朋友們	-12.0489
祭司	-12.0489
編排	-12.0489
遺憾的是	-12.0489
二智心中	-12.0489
得聖定	-12.0489
心常安住	-12.0489
衲衣	-12.0489
隨眠	-12.049
本節解釋	-12.049
忍耐	-12.049
涎	-12.049
世間之孝	-12.049
大乘起世論	-12.049
照心門	-12.049
校訂	-12.049
訊	-12.049
匪	-12.049
負責	-12.0491
驚奇	-12.0491
即非一切法	-12.0491
航	-12.0491
堵	-12.0491
犯四重禁	-12.0491
釀	-12.0491
明來暗	-12.0491
有關資料	-12.0491
懷著喜悅	-12.0491
人與法相	-12.0491
繆荃孫	-12.0491
趕緊	-12.0492
借助	-12.0492
忖	-12.0492
創造	-12.0492
佛告淨度	-12.0492
伸供養	-12.0492
斯坦因	-12.0492
爾時世尊而說偈言	-12.0492
皆是虛妄	-12.0492
對阿吒力教	-12.0492
王后甘地瑪蒂	-12.0492
稻麻竹葦	-12.0492
輦	-12.0492
雜述錄	-12.0492
會集人天	-12.0492
􅶻	-12.0492
俯垂	-12.0493
黑繩	-12.0493
僧侶	-12.0493
扎	-12.0493
一歷耳根	-12.0493
諸宗禪言	-12.0493
雲南阿吒力僧	-12.0493
兩個方面	-12.0493
藥師教主	-12.0493
常用科儀	-12.0493
熾盛光王佛	-12.0493
堪嗟	-12.0494
養則致其樂	-12.0494
漠	-12.0494
仇讎	-12.0494
混雜	-12.0494
萬九千	-12.0494
未來心不可得	-12.0494
跨	-12.0494
海洋	-12.0494
為敷揚	-12.0494
無非亦無	-12.0494
班	-12.0494
李誦	-12.0494
穿透	-12.0494
如來所得法	-12.0494
若福德有實	-12.0494
枲	-12.0494
蓄	-12.0494
金鈴	-12.0495
舍衛國	-12.0495
詛	-12.0495
搶	-12.0495
掃蕩	-12.0495
懷孕	-12.0495
如摩尼珠	-12.0495
甘美	-12.0495
祁	-12.0495
自相矛盾	-12.0495
(1027)	-12.0495
覺心門	-12.0495
漢地佛教	-12.0495
主要依據	-12.0495
大孝釋迦	-12.0495
克服	-12.0495
抽	-12.0495
限制	-12.0495
謁	-12.0495
諦察法忍	-12.0496
最為第一	-12.0496
如自在天宮	-12.0496
掌壇法師	-12.0496
止此室	-12.0496
母作子	-12.0496
叫喚	-12.0496
如實知見	-12.0496
鹽	-12.0496
次第答前	-12.0496
答第一問	-12.0496
栴	-12.0496
注視著	-12.0496
燒香供養	-12.0496
897	-12.0496
生生世世	-12.0496
第一時陞座	-12.0496
一生補處	-12.0496
殍	-12.0496
加持淨三業真言	-12.0497
是名微塵	-12.0497
這兩件寶	-12.0497
嗚	-12.0497
禁忌	-12.0497
有數種	-12.0497
禪籍	-12.0497
法華部	-12.0497
睿宗	-12.0497
甚為希有	-12.0497
單框	-12.0497
露堂堂	-12.0497
佛在金棺	-12.0497
歿後	-12.0497
積集資糧	-12.0497
縈	-12.0497
驚惶	-12.0497
古印度	-12.0497
紗	-12.0497
舜	-12.0497
草書	-12.0497
瘡疣	-12.0497
不可稱量	-12.0498
八功德水	-12.0498
帕	-12.0498
套	-12.0498
此為佛教所具第	-12.0498
的意願	-12.0498
如來舉身	-12.0498
我今結界到	-12.0498
有餘師說	-12.0498
的光芒	-12.0498
紇	-12.0498
而取佛土	-12.0498
三藐	-12.0499
皤囉	-12.0499
喘	-12.0499
尊勝幢菩薩	-12.0499
婆羅多	-12.05
摩訶迦盧尼	-12.05
四十八願	-12.05
皰	-12.05
輝煌	-12.05
言語道斷	-12.05
夾紙	-12.05
腭	-12.05
得不還果	-12.05
標聖位	-12.05
猶如伊字	-12.05
多陀阿竭	-12.05
最短	-12.05
怛囉夜耶	-12.05
燥	-12.05
出世之孝	-12.05
手足柔軟	-12.05
卍	-12.0501
沒有一點	-12.0501
809	-12.0501
無量微塵數	-12.0501
霏	-12.0501
別解脫戒	-12.0501
疱	-12.0501
光明遍照	-12.0501
無生正觀	-12.0501
三千界內	-12.0501
俗姓	-12.0501
五嶽	-12.0502
乾達婆	-12.0502
賜紫衣	-12.0502
鉅	-12.0502
佛頂尊勝陀羅尼	-12.0502
戳	-12.0502
敦煌僧人	-12.0502
灌清淨醍醐甘露	-12.0502
珂	-12.0502
捫摸	-12.0502
膳	-12.0502
接受了	-12.0502
放金色光	-12.0502
溟	-12.0502
恭敬禮	-12.0502
強健	-12.0503
品上生者	-12.0503
翁	-12.0503
阿難應諾	-12.0503
同欄第	-12.0503
聖道流	-12.0503
寒冷	-12.0503
皆得成就	-12.0503
蒭	-12.0504
之冤債也	-12.0504
崛	-12.0504
別來幾度春光	-12.0504
紋	-12.0504
亙	-12.0504
橋樑	-12.0504
皆得道迹	-12.0504
縵	-12.0504
羝那	-12.0504
就是僧法誦出經	-12.0504
崇敬	-12.0504
居則致其敬	-12.0504
解結除冤	-12.0504
地水火風空	-12.0504
聯屬	-12.0504
遽	-12.0504
欽崇	-12.0504
人人具足	-12.0504
械	-12.0504
4443	-12.0505
133	-12.0505
菩	-12.0505
匠手	-12.0505
得有乘義	-12.0505
伏願諸佛菩薩	-12.0505
祈禱	-12.0505
輸睇	-12.0505
寧捨生命	-12.0505
濩湯	-12.0505
珠網	-12.0505
坐在那裏	-12.0505
應墮惡道	-12.0506
志心歸命禮	-12.0506
組成部分	-12.0506
戮	-12.0506
勸發菩提心	-12.0506
絹	-12.0506
入矢義高	-12.0506
明昌四年	-12.0506
凜	-12.0506
四大海水	-12.0506
頭皮	-12.0506
望聖慈悲	-12.0506
長宴	-12.0506
樞	-12.0507
通達無我	-12.0507
箕	-12.0507
至世尊所	-12.0507
緇	-12.0507
豁開	-12.0507
彈訶	-12.0507
剛剛	-12.0507
醫治	-12.0507
廣施無遮	-12.0507
揚州	-12.0507
僧伽藍	-12.0507
念地藏菩薩	-12.0507
梵唄	-12.0508
旬	-12.0508
殼	-12.0508
師子之座	-12.0508
性地以上	-12.0508
凝然湛寂	-12.0508
朗朗	-12.0508
不起法忍	-12.0508
端各有	-12.0508
摩枲	-12.0508
浮木	-12.0508
非有想非無想	-12.0508
侈	-12.0509
糾	-12.0509
怨憎會苦	-12.0509
棋	-12.0509
殺生害命	-12.0509
飢餓	-12.0509
八萬法蘊	-12.0509
栖	-12.0509
大昊天寺	-12.0509
并	-12.0509
爾時維摩詰語	-12.0509
非擇滅	-12.0509
。」「8、	-12.0509
旃陀羅	-12.0509
賤價之醫	-12.0509
於然燈佛所	-12.0509
燒熱	-12.051
昭彰	-12.051
鴿	-12.051
灰燼	-12.051
佛報恩經	-12.051
我是汝	-12.051
館	-12.051
不立知解	-12.051
答第四問	-12.051
若人皈依	-12.051
暴流	-12.051
證盟修奉	-12.051
庫藏	-12.051
無有高下	-12.051
絡	-12.051
洗浴	-12.0511
佇	-12.0511
豹	-12.0511
輿	-12.0511
完全不同	-12.0511
十楞	-12.0511
她看著	-12.0511
這樣一部	-12.0511
財產	-12.0511
厭倦	-12.0511
879	-12.0511
衷	-12.0511
牛耕	-12.0511
呼喚	-12.0511
輯佚	-12.0511
蓮華藏世界	-12.0511
淡	-12.0512
吻	-12.0512
腮	-12.0512
慰喻之	-12.0512
金剛三昧經	-12.0512
隨念分別	-12.0512
根三昧安詳而出	-12.0512
通達佛道	-12.0512
享受著	-12.0512
罵詈	-12.0512
裕	-12.0512
竊盜	-12.0512
奧旨	-12.0512
殞	-12.0512
被當作	-12.0512
百千日月	-12.0512
於面門	-12.0512
睫	-12.0512
精潔	-12.0512
因時有果	-12.0512
稽首歸依解冤結菩薩	-12.0512
誦百生冤結	-12.0512
鷲嶺	-12.0513
聚義是蘊	-12.0513
綿綿	-12.0513
奔馳	-12.0514
我從今日	-12.0514
硬	-12.0514
礦	-12.0514
形骸	-12.0514
念某佛	-12.0514
靄	-12.0514
不生滅色心	-12.0514
塗供養	-12.0514
兵刃	-12.0514
象徵	-12.0514
到岸	-12.0515
勳	-12.0515
腎	-12.0515
茫	-12.0515
苦逼	-12.0515
瘟	-12.0515
龍興寺供養	-12.0515
收拾	-12.0515
姊妹	-12.0515
期望	-12.0515
湛然不動	-12.0515
具足萬行	-12.0515
喜怒	-12.0515
廂	-12.0515
報父母恩德	-12.0515
禮慈尊	-12.0515
頤	-12.0515
方隅	-12.0515
維持	-12.0515
金剛杵	-12.0516
歡娛	-12.0516
辟支羅漢	-12.0516
陛下	-12.0516
牲	-12.0516
蕃	-12.0516
大我慢者	-12.0516
從三昧起	-12.0516
這般	-12.0516
艱辛道	-12.0516
琉璃光王佛	-12.0516
詵	-12.0517
咦	-12.0517
跋日囉	-12.0517
十方國土	-12.0517
捕魚	-12.0518
遑	-12.0518
栽	-12.0518
驃	-12.0518
伏大邪見	-12.0518
弘忍	-12.0518
福祿	-12.0518
罷	-12.0519
出現於世	-12.0519
有萬般	-12.0519
皺	-12.0519
苦空無常	-12.0519
於其毛端	-12.0519
一念之善	-12.0519
稱呼	-12.0519
享用	-12.0519
佛復告	-12.0519
三大阿僧祇	-12.0519
壇儀	-12.052
讓我們	-12.052
蒼	-12.052
慧炬	-12.052
慣習	-12.052
木石	-12.052
讚十種恩	-12.052
尾殘	-12.0521
除一切苦	-12.0521
阻攔	-12.0521
摩訶摩耶	-12.0521
膝下	-12.0521
赤蓮華	-12.0521
隨次配釋	-12.0521
他的身體	-12.0521
紅白	-12.0521
勃	-12.0521
非一異	-12.0522
五陰山	-12.0522
姪	-12.0522
募刻	-12.0522
五濁惡世	-12.0522
蠢動	-12.0522
壘	-12.0522
補救	-12.0522
永平	-12.0523
寶頂山石窟	-12.0523
664	-12.0523
寶貴	-12.0523
賊寇	-12.0523
題材	-12.0523
討論會	-12.0523
忙忙	-12.0523
群臣	-12.0523
怛他蘗多	-12.0523
惟希納受鑒丹	-12.0523
流浪生死	-12.0523
歌羅	-12.0523
唯此一	-12.0523
騰空	-12.0523
章安	-12.0524
行至第	-12.0524
友好	-12.0524
不墮某某地獄	-12.0524
寧馨	-12.0524
錯簡	-12.0524
佛事不同	-12.0524
浸	-12.0524
是名善法	-12.0524
地瑟恥多	-12.0525
人集錄於十二	-12.0525
得其便	-12.0525
捧足	-12.0525
艱難	-12.0525
蹄	-12.0525
1009	-12.0525
尊者啊	-12.0525
戌涅多	-12.0525
大千世界	-12.0525
此下第三	-12.0526
積塵	-12.0526
消失了	-12.0526
石女兒	-12.0526
心可印	-12.0526
無沒生	-12.0526
黃金色	-12.0526
取得身	-12.0526
家宅	-12.0526
應如是知	-12.0526
陸光祖	-12.0526
校量	-12.0527
鐵床	-12.0527
依教奉行	-12.0527
皈敬	-12.0527
修自他相換	-12.0527
客塵	-12.0527
邀請	-12.0528
南無達摩	-12.0528
宋元	-12.0528
謹按	-12.0528
驕傲	-12.0528
公案	-12.0528
迷津	-12.0528
八聖道	-12.0529
方寸	-12.0529
金仙	-12.0529
邪淫	-12.053
說八十種好	-12.053
至於今日	-12.053
雜華	-12.053
採取	-12.053
破彼轉計	-12.053
聞密語	-12.0531
密教教法	-12.0531
尾演	-12.0531
嗅香	-12.0531
天鼓	-12.0531
有五千	-12.0531
亦自性不成	-12.0531
夜嚩那	-12.0531
問訊	-12.0531
阿鞞比丘	-12.0531
因人相	-12.0531
有為無為	-12.0532
嚩室憐	-12.0532
諸具欲	-12.0532
自然消滅	-12.0532
宿習	-12.0532
毗羅	-12.0532
哀哉	-12.0532
竺法	-12.0532
歷位	-12.0532
妖怪	-12.0533
皆發無上正真道意	-12.0533
胃	-12.0533
銜	-12.0533
耆闍	-12.0534
庶幾	-12.0534
夜夢	-12.0534
散落	-12.0534
頸上	-12.0534
毗梨	-12.0534
承佛神力	-12.0534
為多不	-12.0534
三千世界	-12.0535
則凡聖一	-12.0535
恢恢	-12.0535
慶幸	-12.0535
四無所畏	-12.0535
疾疫	-12.0535
修持梵行	-12.0535
歌舞	-12.0535
揖	-12.0535
𤚥	-12.0535
但意義	-12.0535
車乘	-12.0535
修淨土行	-12.0535
旱	-12.0535
坡	-12.0536
教內文字真如	-12.0536
三明六通	-12.0536
堅忍	-12.0536
蝕	-12.0537
恩難報母	-12.0537
精專	-12.0537
精華	-12.0537
節節	-12.0537
聞妙法	-12.0537
遺失	-12.0537
能除生死	-12.0538
明常樂我淨行	-12.0538
祗好	-12.0539
假誑	-12.0539
無想天	-12.0539
頓超	-12.0539
利養恭敬	-12.0539
屍體	-12.0539
。」「5、	-12.0539
各派	-12.0539
等諸大菩薩	-12.0539
本世紀	-12.0539
東土	-12.0539
說是沙	-12.0539
歸依解冤結菩薩	-12.054
恩難報父	-12.054
郭	-12.054
遠承	-12.054
壇𡒌	-12.054
高慢	-12.0541
炎炎	-12.0541
不可具見	-12.0541
誥	-12.0541
契真如	-12.0542
如寶印	-12.0542
達麼耶	-12.0542
嚩羅賀	-12.0542
法界所攝	-12.0542
魔宮	-12.0542
開受我	-12.0542
支節	-12.0542
嚴土	-12.0543
具大悲心	-12.0543
月光神	-12.0543
新學菩薩	-12.0543
虔娘	-12.0543
齊全	-12.0543
初長行	-12.0543
釋迦方	-12.0544
思慮	-12.0544
弘道尼	-12.0544
卡文德	-12.0544
超絕	-12.0544
不永滅	-12.0544
所以得知	-12.0544
焰焰	-12.0544
表裏	-12.0544
他礙	-12.0545
讓他們	-12.0545
抄經錄	-12.0546
刀兵	-12.0546
者孝於	-12.0546
316	-12.0546
屍骸	-12.0547
盧迦	-12.0547
十八種物	-12.0547
親宣說	-12.0547
無所有處	-12.0547
西天有一	-12.0547
太陰	-12.0548
無上正覺	-12.0548
蹉過	-12.0548
威嚴	-12.0548
普濟	-12.0548
隨其所應	-12.0548
純金	-12.0548
內凡惑	-12.0549
伏願六通	-12.0549
冤憎	-12.055
豬羊	-12.055
波利秫	-12.055
精瑩	-12.055
是逆觀	-12.0551
奸	-12.0551
力行持	-12.0551
四十里	-12.0551
叨	-12.0551
疑悔	-12.0551
舌根上	-12.0551
滿虛空	-12.0552
煞父	-12.0552
肌	-12.0552
侍奉	-12.0552
弓	-12.0552
只要	-12.0552
如上所說	-12.0553
於虛空中	-12.0553
持九齋	-12.0553
謂有一類	-12.0554
作是語	-12.0554
兢	-12.0554
細細	-12.0554
顯揚	-12.0555
所問經	-12.0555
卷舒	-12.0555
裏紙	-12.0556
變壞	-12.0556
解粘	-12.0557
家產	-12.0557
文闍	-12.0557
誐多	-12.0557
消災延壽藥師佛南無	-12.0558
得為乘體	-12.0558
虛妄分別	-12.0559
復前行	-12.0559
》+《	-12.056
貫通	-12.056
昇沉	-12.056
漸證	-12.0561
。」「4、	-12.0561
軌則	-12.0562
雞足山	-12.0562
學佈施	-12.0563
悅樂	-12.0563
持法律	-12.0563
青山	-12.0563
萬民	-12.0563
佛所制	-12.0564
十二月禮佛文	-12.0564
風氣	-12.0564
香塗	-12.0565
報謝	-12.0565
淺識	-12.0565
幽顯	-12.0567
咸共	-12.0567
成敗	-12.0567
口舌	-12.0568
武王	-12.0568
病惱	-12.0568
勤修善法	-12.0569
今時比丘	-12.0569
闍耶	-12.0569
幻女	-12.0569
蕩盡	-12.0569
我諸弟子	-12.057
存活	-12.057
雖然可以	-12.057
設齋	-12.0571
水府	-12.0571
阿闍	-12.0573
蘊所攝	-12.0575
某甲	-12.0576
修崇	-12.0576
月三日改為	-12.0576
圓音	-12.0577
編集	-12.0577
二諦理	-12.0578
我若向	-12.0578
如來藏觀	-12.058
娑娑	-12.0581
矩	-12.0583
資料來源	-12.0583
金華	-12.0583
隸哩	-12.0584
高祖	-12.0585
十纏	-12.0585
困苦	-12.0586
伏惑	-12.0586
為漢代失譯	-12.059
如紅蓮	-12.0594
智慧光明	-12.0594
無著論名	-12.0596
食啖	-12.0597
陰司	-12.0597
此第四問	-12.0598
30.	-12.06
一百九十	-12.0604
濁世	-12.0606
修諸善	-12.061
回頭	-12.0613
淨土之行	-12.062
亦能壞	-12.0627
碑文	-12.0627
給侍	-12.0631
873	-12.0632
270	-12.0641
置記	-12.0641
全彰	-12.0653
遍滿虛空	-12.0654
大唐西域	-12.0654
往返	-12.0656
佈地	-12.066
日月光	-12.0673
渴望	-12.0675
377	-12.0679
自今以	-12.0686
疏抄	-12.069
燦燦	-12.0711
門戶	-12.0712
等無間緣	-12.0713
嚴謹	-12.072
大醫王	-12.0723
其他經典	-12.0727
外凡惑	-12.0732
mār	-12.0755
應勉力	-12.0768
萬行首楞嚴	-12.077
知眾生心	-12.0787
個文獻	-12.0788
存一紙	-12.0794
以下稱	-12.081
菩提之妙	-12.0822
僧祐自己	-12.0825
持淨戒	-12.0829
卑賤	-12.0831
能斷煩惱	-12.0857
所從來	-12.088
內世間出世間兩階人發菩提心同異法	-12.089
經文正文	-12.0892
輸檀	-12.0892
26.	-12.093
娑羅樹	-12.0934
宛如	-12.0943
否認	-12.0957
爾時世尊告	-12.0982
變成了	-12.0992
。102	-12.0994
正覺的誓言	-12.1005
得佛道	-12.1005
真是菩薩	-12.101
337	-12.1057
yaś	-12.1118
香焚	-12.1122
須行智	-12.1148
生滅滅	-12.1151
迎送	-12.1168
dhān	-12.121
詣佛所	-12.1218
失其所	-12.1285
602	-12.1299
ath	-12.1406
dhika	-12.1414
865	-12.1429
能作損害	-12.1451
ebhy	-12.1464
128	-12.15
種修習	-12.1511
捨離諸	-12.1535
幻夢	-12.1541
證無上菩提	-12.1558
拙著	-12.1618
雲影	-12.1647
無有法得阿耨多羅三藐三菩提	-12.165
經偈頌文	-12.1679
552	-12.17
白豪中	-12.1787
憂患	-12.1805
能見色	-12.1828
的福利而	-12.1831
弘景	-12.1854
dharm	-12.1923
南無佛陀	-12.1945
ṅ	-12.1983
yāya	-12.2016
彼於自身他身兼顧注意觀察	-12.2029
彼於自身注意觀察	-12.2035
應如是注意觀察	-12.2035
羅神王來護法	-12.2059
地藏慈悲救苦薦福利生道場	-12.208
中國僧人所撰	-12.2128
hāra	-12.2132
中國人所撰佛教	-12.2137
這件事	-12.2149
所有沙數	-12.2153
個問題	-12.2164
解義不同	-12.22
給別人	-12.2211
孔流	-12.2228
vat	-12.2232
悲憫	-12.2233
名阿耨多羅三藐三菩提	-12.2237
dravy	-12.2238
浴池	-12.2246
畢竟不生	-12.2249
豎宗立教	-12.2269
是諸恒河	-12.227
抄寫年代	-12.2293
sama	-12.2303
ākāśa	-12.233
西域記	-12.2333
娑嚩怛他誐	-12.2374
1010	-12.2388
與我授記	-12.2392
deva	-12.2433
代無常得常	-12.2433
楞嚴解冤釋結道場儀	-12.2434
其施無上	-12.2438
無穢濁的感受	-12.2445
舍衛	-12.2446
補贖	-12.2446
翟奉達	-12.2448
天曆元年	-12.2449
新集疑經錄第三	-12.245
哲	-12.2451
墮十方一切阿鼻地獄	-12.2451
天監十五年	-12.2452
胝	-12.2454
三時學會	-12.2455
啟請八大金剛	-12.2455
新集安公注經及雜經志錄第四	-12.2455
聰	-12.2456
日本學者	-12.2457
􅶧	-12.2458
積性成海	-12.2458
sthāpanā	-12.2458
金翅鳥	-12.2458
諸有所作	-12.2459
寫錄諸家所述	-12.2459
穎脫	-12.2459
奉請金剛語菩薩	-12.2459
catu	-12.246
吉祥上樂輪等虛空本續	-12.246
apāya	-12.246
不取於相	-12.246
八方人來	-12.246
各類尋求	-12.246
亦無所去	-12.2461
但凡夫之人	-12.2461
安好無恙	-12.2461
nāraka	-12.2461
單一尋求	-12.2461
加持首楞嚴心印咒解結	-12.2462
奉請黃隨求金剛	-12.2462
奉請大神金剛	-12.2462
奉請定除災金剛	-12.2462
奉請白淨水金剛	-12.2462
奉請紫賢金剛	-12.2462
奉請青除災金剛	-12.2462
奉請辟毒金剛	-12.2462
逍遙自在	-12.2463
看緣緣	-12.2463
僧法尼所誦出經入疑錄	-12.2463
永恆不變	-12.2463
鹿苑	-12.2463
滲透	-12.2463
健康	-12.2463
rūp	-12.2463
悼	-12.2463
發此感興	-12.2463
茫然無知	-12.2463
痛苦難熬	-12.2463
延昌三年	-12.2464
中日分	-12.2464
無病藥還	-12.2464
集為一藏	-12.2464
不放捨	-12.2464
§2.49	-12.2464
cāritr	-12.2465
如是眾生各各	-12.2465
得成於忍	-12.2465
應生無所住心	-12.2465
此法無實無虛	-12.2465
bhedāḥ	-12.2465
bhoga	-12.2465
在家信徒	-12.2465
阻擋	-12.2465
萬八千	-12.2465
saṃsthāna	-12.2465
upabhoga	-12.2465
āyika	-12.2466
gotra	-12.2466
延昌元年	-12.2466
rita	-12.2466
varṇa	-12.2466
一系列	-12.2466
投身憂	-12.2466
業的抑制狀態	-12.2466
業的本質	-12.2466
的十一種艱苦	-12.2466
厭世求法	-12.2466
粘著性	-12.2466
vinaya	-12.2466
(§10.	-12.2466
潑	-12.2466
śarīra	-12.2466
tyāga	-12.2466
悶	-12.2466
這批典籍	-12.2466
傳入敦煌	-12.2466
實實在在	-12.2466
模樣	-12.2466
jyotiṣk	-12.2466
īla	-12.2466
sahasr	-12.2466
明二識所緣	-12.2466
陀羅尼雜集	-12.2466
答產處	-12.2467
khyā	-12.2467
prakīrṇa	-12.2467
samyagdṛṣṭ	-12.2467
三個巴利堯巴姆	-12.2467
在空衣派刊本中	-12.2467
有人諦觀佛項光	-12.2467
狀況	-12.2467
兩種天神的壽命是七加	-12.2467
得須陀洹果	-12.2467
是生滅法	-12.2467
的壽命是七加	-12.2467
endr	-12.2467
ānu	-12.2467
金光明經	-12.2467
puṣkar	-12.2467
心識豈能量	-12.2467
早已亡佚	-12.2467
朗闥伽天	-12.2467
自在主天	-12.2467
<	-12.2468
ṅga	-12.2468
津渡	-12.2468
幅員	-12.2468
純粹	-12.2468
manaḥparyāya	-12.2468
抄錄如下	-12.2468
四個部分	-12.2468
的提法	-12.2468
距離	-12.2468
Rn	-12.2468
本節具體	-12.2468
大白天	-12.2468
判為偽經	-12.2469
漏洩	-12.2469
憍薩羅國波斯匿王	-12.2469
禮懺功德文	-12.2469
1933	-12.2469
細穢濁位	-12.2469
佛在舍衛	-12.2469
我初成道摩伽陀國	-12.2469
伊吹敦先生	-12.2469
大英圖書館藏	-12.2469
鼓打	-12.2469
槃	-12.2469
sām	-12.247
盂蘭	-12.247
§9.46	-12.247
開宗明義	-12.247
在流傳過程中	-12.247
如能信此	-12.247
有的研究者認為	-12.247
疾能證得	-12.247
小品般若	-12.2471
saṃkhyā	-12.2471
小聖詎能任	-12.2471
逆觀佛	-12.2471
金剛頂經文殊師利	-12.2471
會有離別	-12.2471
嚴佛調譯	-12.2471
從內容上	-12.2471
世紀上半葉	-12.2471
文殊普賢二大菩薩	-12.2471
銀蹄金角	-12.2471
rūpa	-12.2471
ccha	-12.2471
此尊法中所以略	-12.2471
有二異門	-12.2472
支配	-12.2472
均有著錄	-12.2472
其人臭穢皆悉不	-12.2472
又科為	-12.2472
誰後復誰	-12.2472
四門分別	-12.2472
四種感情	-12.2472
adhikaraṇa	-12.2472
貪著其事	-12.2472
敦煌藏經洞	-12.2473
多生父母	-12.2473
ḍ	-12.2473
Sn	-12.2473
法不孤起	-12.2473
行右繞之禮	-12.2473
被視為	-12.2473
傳世資料	-12.2473
府部眾	-12.2473
有五問答	-12.2473
轉女成男	-12.2473
若欲觀佛圓光	-12.2473
如來為發大乘者說	-12.2474
道可求	-12.2474
蕭然	-12.2474
尊敬的人們	-12.2474
謎	-12.2474
編集而成	-12.2474
號與斯	-12.2474
漢譯佛經	-12.2474
非孝也	-12.2475
圖示如下	-12.2475
衰退	-12.2475
實相般若經	-12.2475
百日不食	-12.2475
迷真逐妄	-12.2475
繞棺三匝	-12.2475
沈浸在	-12.2475
淨修梵行	-12.2475
付囑阿難	-12.2475
時刻注意觀察	-12.2475
勝天王經	-12.2475
我們現在無法	-12.2475
佛說水月光觀音菩薩經	-12.2476
佛如來足趺	-12.2476
不可分割的	-12.2476
裴休碑序	-12.2476
兩半葉	-12.2476
蔔	-12.2476
大致相同	-12.2476
應了了分明彼有	-12.2476
是人先世罪業	-12.2476
的作品	-12.2476
天公經	-12.2476
尊者於離佛不遠處	-12.2476
解義趣	-12.2476
壇前開科儀當演	-12.2476
是無常性	-12.2476
袖	-12.2476
亦名八萬四千	-12.2476
化風遠被	-12.2476
模糊	-12.2476
右膝著地	-12.2477
凡流信此	-12.2477
悟理詎勞	-12.2477
基本相同	-12.2477
;(3)	-12.2477
須臾之間	-12.2477
名言共許	-12.2477
於法不說斷滅相	-12.2477
如人入暗	-12.2477
若菩薩心住於法	-12.2477
亦無無明盡	-12.2477
嵌	-12.2477
為同卷	-12.2477
無以倫比的	-12.2477
佛法僧三寶	-12.2477
作者在原註中	-12.2477
應了了分明已棄除之	-12.2477
界限外	-12.2477
開元十八年	-12.2477
伏願來時降福	-12.2477
濡首	-12.2477
猶如淨國優鉢羅	-12.2478
應了了分明彼無	-12.2478
拒絕	-12.2478
穎脫出	-12.2478
苾蒭尼等	-12.2478
綱目	-12.2478
看著他說	-12.2478
卷軸裝	-12.2478
地藏分身	-12.2478
濡濕	-12.2478
實無眾生得滅度者	-12.2479
侍養	-12.2479
總攝其義	-12.2479
憍薩羅國王波斯匿	-12.2479
良久乃	-12.2479
凡此種種	-12.2479
善無畏所譯	-12.2479
悠	-12.2479
持火燒之	-12.2479
破三無三	-12.2479
應捨我愛執持	-12.2479
雲南阿吒力教	-12.248
如來足跟圓	-12.248
應物萬般	-12.248
薦嚴	-12.248
三聚戒	-12.248
麻油	-12.248
不墮劍樹地獄	-12.248
箱	-12.248
羞恥	-12.248
這幾個	-12.248
名一切眾生父母	-12.248
名迷衢	-12.248
妙智圓光	-12.248
欲知檀	-12.248
潮音	-12.248
大明咒	-12.2481
其骨色鮮白如頗	-12.2481
腨	-12.2481
輞	-12.2481
一段時間	-12.2481
本地分	-12.2481
擺	-12.2481
混沌	-12.2481
嚇	-12.2481
津藝	-12.2481
經由大地	-12.2482
金剛經注頌	-12.2482
心中十分	-12.2482
次一行	-12.2482
色蓮花遶世尊	-12.2482
寧夏	-12.2482
信禮海會佛菩薩	-12.2482
我國古代	-12.2482
破八戒齋	-12.2482
對禁止	-12.2482
若心有住	-12.2483
每半葉	-12.2483
黃氏	-12.2483
已經成熟	-12.2483
是此神王	-12.2483
骨髓	-12.2483
作一一對應	-12.2483
轉重復還輕	-12.2483
閉目誦出	-12.2483
噓	-12.2483
小區分	-12.2483
摩揭陀國大臣須尼陀和婆沙迦羅	-12.2483
眾生業垢	-12.2483
這條材料	-12.2483
上有紅光	-12.2483
汝今諦聽	-12.2483
虎𤙣	-12.2483
聞說是經	-12.2483
狐疑不信	-12.2483
報恩會上諸佛菩薩	-12.2483
惟願慈悲	-12.2484
刀山劍樹	-12.2484
迴向下壇	-12.2484
法報化身佛	-12.2484
當何名此經	-12.2484
皆為非心	-12.2484
了很久	-12.2484
如來能緣之心	-12.2484
出校記	-12.2484
怨憎	-12.2484
如來說諸心	-12.2484
印度河	-12.2485
烏瑟尼沙	-12.2485
匯	-12.2485
癘	-12.2485
廿	-12.2485
總包羅	-12.2485
踊躍	-12.2485
那落迦	-12.2485
西晉	-12.2485
漢傳佛教	-12.2485
金棺銀槨	-12.2485
騷	-12.2485
嚥苦吐甘	-12.2485
退屈	-12.2485
證涅槃山	-12.2486
不住於相	-12.2486
佛說藥師灌頂	-12.2486
煬	-12.2486
圓珍本人	-12.2486
熱忱	-12.2486
穰	-12.2486
此為破戒者第	-12.2486
裝幀形式	-12.2486
䠒	-12.2486
不顯姓名	-12.2486
了了分明已生起之	-12.2487
彥	-12.2487
輔助	-12.2487
聳	-12.2487
嚧	-12.2487
玷	-12.2487
如人有目	-12.2487
󵔯	-12.2487
信禮解冤結菩薩	-12.2487
各各別異	-12.2487
中國古代	-12.2487
今則無滅	-12.2487
判為疑偽經	-12.2487
無明等法	-12.2487
裝訂	-12.2487
不應住色布施	-12.2487
相好端嚴	-12.2487
同義詞	-12.2487
爾時屠兒	-12.2487
緣聚會	-12.2488
雌	-12.2488
冥司	-12.2488
有意思的	-12.2488
各生一	-12.2488
所求皆得	-12.2488
聖人畢故不造新	-12.2488
以無所得故	-12.2488
無再生	-12.2488
諸惡罪障皆悉	-12.2488
亦不為歷代大藏經所收	-12.2488
克備	-12.2488
安隱涅槃	-12.2488
現在心不可得	-12.2488
鏤	-12.2488
此為持戒者第	-12.2488
如我昔為歌利王	-12.2489
普伸供養	-12.2489
李際寧	-12.2489
球	-12.2489
潦	-12.2489
天聖四年	-12.2489
三類化身釋迦牟尼佛	-12.2489
第三階佛法	-12.2489
歐	-12.2489
心生重悔	-12.2489
璇	-12.2489
1358	-12.2489
普勸大眾	-12.2489
法顯傳	-12.249
應生嗔恨	-12.249
所做的	-12.249
動干戈	-12.249
置是事	-12.249
以此為實	-12.249
楯	-12.249
雇值	-12.249
二曜金剛合璧	-12.249
則成相違	-12.249
層閣	-12.249
作利他事	-12.249
懺根本	-12.249
伽囉耶	-12.249
明形色	-12.2491
考古	-12.2491
歡喜信受	-12.2491
盡可能地	-12.2491
翹勤	-12.2491
破煩惱賊	-12.2491
巷	-12.2491
墜入地獄	-12.2491
戰爭	-12.2491
由看心	-12.2491
通達勝義	-12.2491
仗密語伽陀	-12.2491
轉讓給	-12.2491
唯有一乘法	-12.2491
如願以償	-12.2491
盡獲清涼	-12.2491
這類傳帖	-12.2491
最上乘者說	-12.2492
鐵丸	-12.2492
網捕	-12.2492
搏	-12.2492
有十四色	-12.2492
三藏法師	-12.2492
信根生	-12.2492
執以為我	-12.2492
迴心向	-12.2492
卷十八的	-12.2492
腐	-12.2492
請你告訴我	-12.2492
住不可思議解脫菩薩	-12.2492
修行得登	-12.2492
枝條	-12.2492
續補部分	-12.2492
般若波羅密多	-12.2492
謹與修齋	-12.2492
窣頗囉	-12.2492
百川	-12.2493
旅	-12.2493
非如他	-12.2493
明結法	-12.2493
致斯	-12.2493
正當其時	-12.2493
人注目	-12.2493
初地已上	-12.2493
雪嶺	-12.2493
村莊	-12.2493
慈恩典籍	-12.2493
每個人都	-12.2493
第四輯	-12.2493
七祖法寶記	-12.2493
三乘人所念	-12.2493
得言稱機說	-12.2493
推燥居濕	-12.2493
首全尾殘	-12.2493
車軸	-12.2494
百千萬劫	-12.2494
四十九頌	-12.2494
如師子王	-12.2494
巢	-12.2494
一剎那間	-12.2494
加持奉送聖賢真言	-12.2494
於南北朝末	-12.2494
能觀之心	-12.2494
萬五千	-12.2494
振奮	-12.2494
出佛身血	-12.2494
汰	-12.2494
1255	-12.2494
我當滅度	-12.2494
餉	-12.2494
如鐵生垢	-12.2494
晃耀	-12.2494
纂集	-12.2494
究竟到彼岸	-12.2495
允許	-12.2495
不違本誓	-12.2495
鳳儀北湯天	-12.2495
教外別傳	-12.2495
加持五供養真言	-12.2495
久受勤苦	-12.2496
捷	-12.2496
黃梅	-12.2496
今當禮請	-12.2496
安息香真言	-12.2496
扉畫	-12.2496
遍虛空界悉包	-12.2496
意義上的	-12.2496
有限量	-12.2496
伸禮請	-12.2496
如意寶樹	-12.2496
如自觀身實相	-12.2496
最早著錄	-12.2496
鞠躬行禮	-12.2496
鮮血	-12.2496
庥	-12.2496
愁惱	-12.2496
無始無終	-12.2496
著名僧人	-12.2496
撮略	-12.2496
清泉	-12.2496
惻	-12.2497
夥	-12.2497
卅	-12.2497
變得更加	-12.2497
豔	-12.2497
墮於惡趣	-12.2497
請座真言	-12.2497
佛張口時如	-12.2497
是無等等咒	-12.2497
岳	-12.2497
笑倒雲	-12.2497
這塊寶石	-12.2497
婆蹉	-12.2497
縫繢裝書籍	-12.2497
短暫	-12.2497
大佛灣	-12.2497
無執乃	-12.2497
錄文如下	-12.2497
西方淨土	-12.2497
疲倦	-12.2498
能成大義	-12.2498
閩越金身太平寺沙門若愚述	-12.2498
闊	-12.2498
賷持	-12.2498
喧鬧	-12.2498
大規模的	-12.2498
就可以明白	-12.2498
於上下唇及齦	-12.2498
森羅萬像	-12.2498
兩案陞	-12.2498
得初果	-12.2498
腿	-12.2498
不求果報	-12.2498
以相收體	-12.2498
普霑	-12.2498
這是一個	-12.2498
疣	-12.2498
疎	-12.2499
鬥諍	-12.2499
委曲	-12.2499
離一切相	-12.2499
地位階差	-12.2499
縮微膠卷	-12.2499
這個時候	-12.2499
何況非法	-12.2499
貳	-12.2499
不相繫屬	-12.2499
如來在金棺囑累清淨莊嚴敬福經	-12.2499
盡未來際	-12.2499
窒	-12.2499
說偈嘆佛	-12.2499
哂	-12.2499
拱手	-12.2499
築島本	-12.2499
紅華金光	-12.2499
鷲峰	-12.2499
這些句子與段落	-12.2499
戚	-12.2499
釋迦文佛	-12.2499
標準的	-12.25
可以說是	-12.25
發大誓願	-12.25
這段文字	-12.25
鬱	-12.25
則佛土淨	-12.25
印度大乘佛教中觀學派	-12.25
其人近出以	-12.25
宋譯一部分	-12.25
非想非非想處	-12.25
鹹	-12.25
臍	-12.2501
重重無盡	-12.2501
仞	-12.2501
高七多羅樹	-12.2501
世界之王	-12.2501
具體情況隨文說明	-12.2501
口兩吻邊	-12.2501
嬉戲	-12.2501
所施物	-12.2501
畢竟空寂	-12.2501
盡輪迴際	-12.2501
憑神咒	-12.2501
謂三乘行人	-12.2501
曀	-12.2501
荊	-12.2501
仔細考察	-12.2501
楞嚴解冤釋結道場	-12.2501
虐	-12.2502
傑	-12.2502
希有之法	-12.2502
收因結果	-12.2502
1076	-12.2502
懸幡	-12.2502
師講解	-12.2502
紫紺	-12.2502
論文儀伏聞	-12.2502
光明普照	-12.2502
兩手兩足及	-12.2502
行於非道	-12.2502
阿惟越致	-12.2502
心數法	-12.2502
挫碓	-12.2502
薦亡	-12.2503
劈	-12.2503
王后美	-12.2503
疥	-12.2503
造斯論	-12.2503
混融	-12.2503
砍	-12.2503
觀經變	-12.2503
作經像師	-12.2503
以體收緣	-12.2503
近邊地獄	-12.2503
佛告心王菩薩	-12.2503
摶食	-12.2503
忉	-12.2503
華藏世界	-12.2504
坊	-12.2504
不驚不	-12.2504
。2、《	-12.2504
秘書丞兼翰林修撰趙渢	-12.2504
今將密語	-12.2504
放大光明	-12.2504
熱衷於	-12.2504
燈炬	-12.2504
蕪	-12.2504
宅舍	-12.2504
剎剎	-12.2505
勇健	-12.2505
威靈	-12.2505
展示	-12.2505
關注	-12.2505
鄭	-12.2505
八無暇	-12.2505
當勤勵力	-12.2505
為某紙之	-12.2505
諒	-12.2505
如融紫金光相	-12.2505
唯從於空法	-12.2505
良朋	-12.2505
調適	-12.2505
問訊起居	-12.2505
幡蓋	-12.2505
彙集	-12.2506
與大比丘眾	-12.2506
蘇悉地	-12.2506
尺五寸	-12.2506
是以不輕	-12.2506
六度萬行	-12.2506
喇	-12.2506
唐朝	-12.2506
臨產	-12.2506
怨恨	-12.2506
翰林侍講學士黨懷英	-12.2506
咨	-12.2506
方便智所緣	-12.2506
上靡入於髮際	-12.2506
我今皈命	-12.2506
纖圓	-12.2506
發無上心	-12.2507
不苦不樂	-12.2507
倏	-12.2507
豪強	-12.2507
核	-12.2507
北京大學圖書館	-12.2507
崇寧	-12.2507
行緣識	-12.2507
南無無垢淨光佛	-12.2507
喝散	-12.2507
大明神咒經	-12.2507
啟迪	-12.2507
嵒	-12.2507
故舌出五	-12.2507
相好光明	-12.2507
菴羅	-12.2507
善男信女	-12.2507
這一事實	-12.2507
髭	-12.2507
第二時中	-12.2508
洩	-12.2508
四心圓備	-12.2508
廻流	-12.2508
七寶池中	-12.2508
普告大眾	-12.2508
齎	-12.2508
後生一子	-12.2508
拔舌	-12.2509
桃花	-12.2509
螺髮外道	-12.2509
其舌根下及舌兩邊有二寶珠流注甘露	-12.2509
如此上味	-12.2509
瓊	-12.2509
罐	-12.2509
菩薩摩訶莎	-12.2509
光淨可愛	-12.2509
。」「7、	-12.2509
東土集傳	-12.2509
漶	-12.2509
等無有異	-12.251
飲酒食肉	-12.251
阿惟顏	-12.251
新編諸宗教藏總錄	-12.251
韈	-12.251
出五色光明	-12.251
如白頗	-12.251
惰	-12.251
求度世道	-12.251
為魔得便	-12.251
病則致其憂	-12.251
雋	-12.251
栂尾本	-12.251
磨瑩	-12.251
曼荼羅	-12.251
恃怙	-12.251
灰河	-12.251
愛憎	-12.251
住相布施	-12.2511
內著心中	-12.2511
狐狼野干	-12.2511
千葉蓮花	-12.2511
入海採寶	-12.2511
罩	-12.2511
妙湛	-12.2511
如來鼻高修直如鑄金	-12.2511
。」「10、	-12.2511
天人發無上正真道意	-12.2511
菩薩有十種清淨	-12.2511
齡	-12.2511
桃	-12.2511
竅	-12.2512
猿	-12.2512
碩	-12.2512
吐蕃統治時期	-12.2512
僚	-12.2512
爵	-12.2512
咸平五年	-12.2512
如來白毫相	-12.2512
於身不應貪著	-12.2512
檢束	-12.2512
深邃	-12.2512
胡音	-12.2512
晏坐	-12.2512
以聖攝凡	-12.2513
摩訶母捺	-12.2513
繒	-12.2513
鵝	-12.2513
無前無後	-12.2513
累劫報親恩	-12.2513
入諸髮	-12.2513
股	-12.2513
濁穢	-12.2513
下齦如優曇鉢	-12.2513
妨難	-12.2513
摩訶提中	-12.2513
的主流	-12.2513
餓虎	-12.2513
杲	-12.2513
鐫	-12.2514
大地六種震動	-12.2514
暮忌	-12.2514
棍	-12.2514
洛叉	-12.2514
臟	-12.2514
寒凍	-12.2514
三會度人	-12.2514
涸	-12.2514
孔雀色無	-12.2514
淨名經集解關中疏	-12.2514
靈驗	-12.2514
持禪定人	-12.2514
穹	-12.2514
見聞隨喜	-12.2514
嬰孩	-12.2514
男孩	-12.2514
鄰阿伽色	-12.2514
有力之樂	-12.2514
南無三滿哆	-12.2514
曹溪	-12.2515
弁	-12.2515
為若此也	-12.2515
錘	-12.2515
自爾以來	-12.2515
叵	-12.2515
挖	-12.2515
華嚴略疏	-12.2515
須闍提	-12.2515
顯慶四年	-12.2515
中華佛教撰著	-12.2515
晉譯華嚴	-12.2515
燈盞	-12.2515
直至菩提	-12.2515
良久	-12.2516
蠻	-12.2516
泄	-12.2516
一音演說	-12.2516
世流布	-12.2516
墮阿鼻獄	-12.2516
梟	-12.2516
此難不然	-12.2516
絕大部分	-12.2516
光光相照	-12.2516
的流傳情況	-12.2516
耍	-12.2516
遍計所執	-12.2516
剔	-12.2516
阿耨哆	-12.2517
前受五戒	-12.2517
向母胎中	-12.2517
附續新編	-12.2517
眶	-12.2517
青者勝青蓮	-12.2517
此十八界攝	-12.2517
西國語	-12.2517
鎧	-12.2517
上下齊平	-12.2517
揆	-12.2518
繡	-12.2518
力不共法	-12.2518
釋提桓因	-12.2518
冬夏	-12.2518
四蘊性故	-12.2518
得巧之名	-12.2518
假託	-12.2518
兀	-12.2518
燋爛	-12.2518
断	-12.2518
習種性中	-12.2518
頓漸偏圓	-12.2518
燋	-12.2519
饑虛	-12.2519
嬰	-12.2519
九十六種	-12.2519
入聖超凡	-12.2519
鄧殿臣	-12.2519
嚴潔	-12.2519
諛	-12.2519
緣覺聲聞	-12.2519
右兩半葉文字	-12.2519
談敘	-12.2519
拿去	-12.2519
第一單元	-12.2519
道成羅漢	-12.2519
devā	-12.2519
貝葉	-12.252
龍猛菩薩	-12.252
禾	-12.252
地藏威神	-12.252
愛別離苦	-12.252
遍一切處	-12.252
永離生死	-12.252
津濟	-12.252
獷	-12.252
萬行因花	-12.252
誼	-12.252
大段第	-12.252
因緣觀智	-12.252
挨	-12.252
是皆不能	-12.252
太平興國	-12.252
悰	-12.2521
茫茫	-12.2521
紛紜	-12.2521
感謝	-12.2521
的國度	-12.2521
二十一年	-12.2521
應為丈六	-12.2521
護持正法	-12.2521
大覺尊	-12.2522
迦羅婦	-12.2522
道場法則	-12.2522
陷阱	-12.2522
本略疏	-12.2522
行至同	-12.2522
旃	-12.2522
應當勵力	-12.2523
北斗	-12.2523
垂髮	-12.2523
敦煌寫本	-12.2523
緘	-12.2523
飼	-12.2523
太后	-12.2523
併命	-12.2523
合掌恭敬	-12.2523
侮	-12.2524
摩訶尾欲曼怛	-12.2524
知恩報恩	-12.2524
廉纖	-12.2524
千軸	-12.2524
淨居天	-12.2524
老不止婬	-12.2524
鑑	-12.2524
瑣	-12.2524
授藥	-12.2524
計度分別	-12.2524
人法雙	-12.2524
從他聞	-12.2524
雕刻	-12.2525
互融	-12.2525
皉	-12.2525
生如來家	-12.2525
萬劫千生	-12.2525
寵	-12.2525
悕	-12.2525
嚮	-12.2526
非想非非想天	-12.2526
頓入一乘	-12.2526
優遊	-12.2526
冥冥	-12.2526
淨度三昧	-12.2526
外道六師	-12.2527
瀑流	-12.2527
涉途程	-12.2527
叛	-12.2527
直截	-12.2527
冰霜	-12.2527
熠	-12.2527
諸大悲者	-12.2527
展演	-12.2527
誦諸部因緣	-12.2527
冥符	-12.2527
披誠	-12.2527
菩馱	-12.2527
捺囉	-12.2528
奮迅	-12.2528
頹	-12.2528
獎	-12.2528
皇太子	-12.2528
能作所作	-12.2528
紅白色	-12.2528
五百長者子	-12.2528
提唱	-12.2528
諸部因緣	-12.2528
守護勿失	-12.2529
隨煩惱自在而轉	-12.2529
5541	-12.2529
從生至生	-12.2529
跋涉	-12.2529
毒箭	-12.2529
裨	-12.2529
頓出生死	-12.2529
內凡惑盡	-12.2529
順後句	-12.2529
公佈	-12.253
諸菩薩摩訶薩應如是	-12.253
馮夢禎	-12.253
五百美女	-12.253
道之次第	-12.253
努瑟吒	-12.253
報劬勞	-12.2531
相涉入	-12.2531
蔡	-12.2531
身財等	-12.2531
釜	-12.2531
無主攝持之	-12.2531
無事不	-12.2531
襟	-12.2531
犬	-12.2532
柏	-12.2532
有眼於	-12.2532
此大士之	-12.2532
盲聾	-12.2532
三界外恆沙無明	-12.2532
依教修行	-12.2532
奉雙親	-12.2532
畢竟寂滅	-12.2532
遵循正法	-12.2532
齒間	-12.2532
個美麗的女孩	-12.2533
脛	-12.2533
解空第一	-12.2533
青蓮華	-12.2533
將帥	-12.2533
無得無證	-12.2533
可悲愍	-12.2533
暑	-12.2534
五供養真言	-12.2534
蓋瓦扎	-12.2534
簡短	-12.2534
終不能報得父母深重之恩	-12.2535
精研	-12.2535
釵	-12.2535
無我無人	-12.2536
釣	-12.2536
佛僧眾生	-12.2536
不生滅色身	-12.2536
悟無生忍	-12.2536
採花	-12.2536
騾	-12.2536
有利於	-12.2536
販	-12.2537
繆抄	-12.2537
緣覺乘	-12.2537
肚	-12.2537
願我速成	-12.2537
僻執	-12.2537
燈燭	-12.2537
官主禁	-12.2537
法輪慧	-12.2537
男根依處	-12.2537
(118	-12.2537
虔誠皈命禮	-12.2538
有慧方便解	-12.2538
不動不出	-12.2538
不由自主	-12.2538
又人解	-12.2538
捨戒還俗	-12.2538
鬻	-12.2538
忖量	-12.2539
愆瑕	-12.2539
譏毀	-12.2539
虛凝	-12.2539
直線	-12.254
發起序	-12.254
諸盲者	-12.254
娑哩嚩	-12.254
烹	-12.254
左焰左	-12.254
不受後有	-12.254
漁夫	-12.254
輪轉生死	-12.2541
邦國	-12.2541
衛護	-12.2541
禮是對	-12.2541
糅	-12.2542
不認盲	-12.2542
鞭笞	-12.2542
金烏	-12.2542
作如是冤	-12.2542
納嚕	-12.2542
素嚕	-12.2542
大乘四齋日	-12.2542
債主	-12.2543
臭穢	-12.2543
鉗	-12.2543
先哲	-12.2543
天中天	-12.2543
綠	-12.2543
返拜	-12.2544
預備	-12.2544
変	-12.2544
些微	-12.2544
東夏	-12.2545
皆出金	-12.2545
薄伽	-12.2545
諸緣聚會	-12.2545
俱非礙	-12.2545
唄	-12.2546
香水海	-12.2546
違逆	-12.2546
經部師	-12.2546
為無量境	-12.2546
六牖	-12.2547
閃麼	-12.2547
毫無利益	-12.2549
佛滅度後	-12.255
餘相應法	-12.255
或有一類	-12.255
891	-12.2551
理為經	-12.2551
消融	-12.2551
灼然	-12.2551
入一相門	-12.2552
此天授菩薩	-12.2552
點翳	-12.2553
天上天下	-12.2553
知心去	-12.2553
靈山會上	-12.2554
舌依處	-12.2554
發善心	-12.2555
布古薩	-12.2555
思維過患	-12.2556
戲笑	-12.2557
假土而居	-12.2557
金剛藏菩薩	-12.2559
徑路	-12.256
品類差別	-12.256
長幼	-12.2561
巫	-12.2565
妙極之	-12.2565
刀斧	-12.2566
義深也	-12.2566
我於世世	-12.2568
獄訟	-12.2573
侵損	-12.2575
楞嚴解冤釋結道場儀文	-12.2575
置鉢	-12.2577
眼耳鼻舌身	-12.2577
亦不住於	-12.2578
於善所緣	-12.2581
非段食性	-12.2581
之德為	-12.259
「□...□」	-12.2597
能至心	-12.2599
形貌	-12.2606
懷慚愧	-12.2615
所論述的	-12.2618
。』10	-12.2629
279	-12.2631
孝二親	-12.2631
負心冤家	-12.2633
梵天王下	-12.2643
250	-12.2644
身盡處	-12.2646
功勳莫可	-12.2657
方界主	-12.2661
中亦有眼	-12.2673
獅子座	-12.2679
沒有見到	-12.2694
光照耀	-12.2697
端莊	-12.2701
āvar	-12.2723
劍鋒	-12.2723
最重要的	-12.2727
vrata	-12.2729
心隨境	-12.2734
adhy	-12.2793
有法如來得阿耨多羅三藐三菩提	-12.2803
videh	-12.2806
1053	-12.2832
菩提之路	-12.2835
637	-12.2836
956	-12.2859
諸師解義	-12.2866
589	-12.291
627	-12.2913
地獄與天	-12.2919
迎接	-12.2923
鬼怪	-12.2985
十年代	-12.3002
歸命禮	-12.3008
充遍	-12.3008
自此以	-12.3015
肩擔	-12.302
prayog	-12.3045
佈施波羅蜜	-12.307
悉知是人	-12.3093
罪根願消	-12.3115
情慾	-12.3151
個人的	-12.3158
奮勉	-12.3185
持十戒	-12.3267
二俱不	-12.3299
從白豪	-12.33
個時期	-12.3326
世界之主	-12.3362
快拿	-12.3379
法名無	-12.3451
504	-12.3532
佛滅後	-12.3591
金棺囑累	-12.3601
毛皆上靡	-12.3623
karaṇa	-12.3642
盧枳	-12.3644
慈覺頌	-12.3681
額上諸毛	-12.3735
人輕賤故	-12.3736
/□□□□□□□	-12.3799
385	-12.3839
薩嚩怛他揭	-12.3962
不可思議解脫法門	-12.4002
848	-12.4059
bandh	-12.4092
ayog	-12.4233
ala	-12.4296
的禮物	-12.4341
世間出世間兩階人發菩提心同異法	-12.4362
不轉女身	-12.4376
薩婆怛他揭	-12.4381
大明度	-12.4427
ābhyām	-12.4449
彼於他人注意觀察	-12.454
▁sarv	-12.4553
明等無間	-12.4578
vrat	-12.4639
閻	-12.4659
□/□□□	-12.4695
重要的是	-12.4698
不見中外歷代佛書	-12.4774
如汝所	-12.4817
垂愍	-12.4833
的開頭	-12.4834
毘	-12.4845
經中稱最	-12.4876
重要資料	-12.4885
滿於三千大千世界	-12.4905
pary	-12.4911
兩大系統	-12.4917
念定光佛	-12.4917
法華經佛藏經大方廣十輪經	-12.4922
慇勤奉獻	-12.4926
有穢濁的感受	-12.4929
過半說	-12.4931
佛說觀佛三昧海	-12.4933
三教都破	-12.4933
除當已過去一切根機現在一切藥病時	-12.4934
怛多誐	-12.4934
ānta	-12.4936
偏重於	-12.4937
善星解行	-12.494
瘦	-12.4947
日本京都	-12.4947
價	-12.4948
爾時佛母聞是	-12.495
圭峰蘭若沙門宗密注	-12.4951
卡利瞿陀王子跋提耶	-12.4951
者夢見須彌山崩	-12.4952
此人亦除卻八十億劫生死之罪	-12.4952
四者夢見	-12.4952
順宗皇帝所問心要法門	-12.4953
知識份子	-12.4953
對傳統法規記憶不熟	-12.4953
木道賢獻	-12.4953
憍薩羅	-12.4953
昨夜子時	-12.4954
梵網經	-12.4954
狀似怯人	-12.4954
§7.2	-12.4954
敦煌遺書總目索引	-12.4955
同名釋迦牟尼佛	-12.4955
獨存位	-12.4956
傅	-12.4956
蔬	-12.4957
趐	-12.4957
.5841	-12.4957
用括弧	-12.4957
信心不逆	-12.4957
抑制細作	-12.4957
續群書類從本	-12.4957
法國國家圖書館藏伯	-12.4957
bhedā	-12.4957
作六種不祥之夢	-12.4957
停作不退	-12.4957
成書年代	-12.4957
於法有所得不	-12.4957
濛	-12.4958
娑羅雙樹間	-12.4958
串	-12.4959
我今得聞如是經典	-12.4959
無復我相	-12.4959
行的愚癡	-12.4959
阿鍐嚂唅缺	-12.4959
斷止之相違品	-12.4959
反省冥想	-12.496
賦予	-12.496
則非一合相	-12.496
後日分	-12.496
同生極樂國	-12.4961
坤維	-12.4961
殯斂已	-12.4961
朱士行	-12.4961
覚	-12.4961
kevali	-12.4961
生命現象	-12.4961
§2.6	-12.4961
自知正感覺	-12.4962
如來金口演	-12.4962
prati	-12.4962
朱筆	-12.4962
佛說相好經	-12.4962
從識至	-12.4962
其福甚多	-12.4962
初文又三	-12.4962
住現在世	-12.4962
敦煌地區大藏經	-12.4962
信解受持不足為難	-12.4962
則生實相	-12.4962
(514)	-12.4962
說諸法斷滅	-12.4962
六百四萬億	-12.4963
毘盧遮那	-12.4963
pṛth	-12.4963
但在耆那教中	-12.4963
saṃvara	-12.4963
講論錄	-12.4964
第二時陞座	-12.4964
大理鳳儀北湯天	-12.4964
(512)	-12.4964
1-8	-12.4964
大方廣華嚴十惡品經	-12.4964
奉請金剛眷菩薩	-12.4964
我於往昔	-12.4964
除罪三萬	-12.4964
liṅga	-12.4964
āraṇa	-12.4964
lābha	-12.4964
§5.2	-12.4964
運動的條件	-12.4964
mithyādarśana	-12.4964
himavan	-12.4965
hari	-12.4965
詮表禪門根源道理	-12.4965
飯食訖	-12.4965
圓覺道場禮	-12.4965
君臣父子	-12.4965
pāriṇāmika	-12.4965
saṃlekhanā	-12.4965
也是一種實體	-12.4965
節節支解	-12.4965
解如來所說義	-12.4965
十四德位的	-12.4965
vedanā	-12.4965
沈淪	-12.4965
saṃsār	-12.4965
的精神活動	-12.4965
strī	-12.4966
§9.10	-12.4966
毛皆上靡及身諸毛	-12.4966
這也說明	-12.4966
佛說孝順子修行成佛經	-12.4966
瞿曇沙門在金山中遊行	-12.4966
cakṣu	-12.4966
duḥkh	-12.4966
gandha	-12.4966
upapāta	-12.4966
mithy	-12.4966
dvīpa	-12.4966
viṣaya	-12.4966
方位童子	-12.4966
pariṇāma	-12.4966
底根恰池	-12.4966
garbha	-12.4966
bhūm	-12.4966
kro	-12.4966
airāvata	-12.4966
aupapātika	-12.4966
bhavan	-12.4966
粟特文本	-12.4966
聖賢降真言	-12.4966
eṣām	-12.4966
āyuṣka	-12.4966
bhāg	-12.4966
saṃparāya	-12.4966
蛆	-12.4966
貝葉琅	-12.4966
hiṃsā	-12.4966
醘	-12.4966
五道大神下	-12.4966
依自他施設	-12.4966
廣釋中大門第	-12.4966
有持戒修福者	-12.4966
為眾生的利益而努力	-12.4966
labdh	-12.4966
uttama	-12.4966
viṣkambh	-12.4966
§8.4	-12.4966
一乞聽	-12.4966
合明助伴及作業	-12.4966
平明時向東方禮佛	-12.4966
愈來愈	-12.4966
明制教重輕	-12.4966
知我說法如筏喻者	-12.4966
這個聰明的人	-12.4966
持齋除罪九十劫	-12.4966
sāgaropama	-12.4966
antarāya	-12.4966
例餘意種	-12.4966
ārjava	-12.4966
śukl	-12.4966
沿直線	-12.4966
簡人是非	-12.4966
▁adhika	-12.4967
新譯仁王經	-12.4967
Handurukende	-12.4967
mohanīya	-12.4967
saṃmūrchana	-12.4967
哈利地區	-12.4967
戴密微	-12.4967
於晨朝時	-12.4967
muhūrtā	-12.4967
有譯有本錄	-12.4967
aṇḍa	-12.4967
pāriṣad	-12.4967
九之頸飾天	-12.4967
謂略攝	-12.4967
dviguṇa	-12.4967
vijay	-12.4967
世終天	-12.4967
jambūdvīpa	-12.4967
viśuddhi	-12.4967
§3.6	-12.4967
能計量的	-12.4967
pradeśa	-12.4967
sur	-12.4967
不誑語者	-12.4967
manaḥ	-12.4967
saṃyama	-12.4967
一切義成天	-12.4967
史金波	-12.4967
時向西方禮佛	-12.4967
saudharm	-12.4967
viśeṣa	-12.4967
upayoga	-12.4967
§9.9	-12.4967
千輻條天	-12.4967
高山寺	-12.4967
被抑制	-12.4967
pramāṇ	-12.4967
「〔〕」	-12.4968
謂如來作是念	-12.4968
根據目前掌握的	-12.4968
粟特文殘本	-12.4968
絲毫不	-12.4968
涕淚悲泣	-12.4968
長講華嚴海印大師思覺集	-12.4968
兩膝骨圓著	-12.4968
生實信不	-12.4968
應常注意觀察	-12.4968
此次整理	-12.4968
洗足入	-12.4968
漏洩到命上	-12.4968
藥王藥上二大菩薩	-12.4968
觀音勢至二大菩薩	-12.4968
大自在天子	-12.4968
§4.11	-12.4968
達塔契乾陀洲	-12.4968
▁bhājy	-12.4968
法儀類例	-12.4968
此官人	-12.4968
of	-12.4968
āny	-12.4968
māna	-12.4969
▁pūrvā	-12.4969
manojñānām	-12.4969
§2.19	-12.4969
lakṣ	-12.4969
在虛空中	-12.4969
頻繁	-12.4969
不依佛慧	-12.4969
梵音初震	-12.4969
ātma	-12.4969
訣	-12.4969
乃至一念生	-12.4969
爾所國土中	-12.4969
2137	-12.4969
住於優樓頻螺地區尼連禪河畔	-12.4969
愛拉瓦塔地區	-12.4969
是聖人心	-12.4969
有命難	-12.4969
汪	-12.4969
習相善業	-12.4969
▁mokṣa	-12.4969
雪山地區	-12.497
捶胸	-12.497
基本原理	-12.497
我應滅度一切眾生	-12.497
者的意圖	-12.497
貶斥	-12.497
釋論正文	-12.497
媒介	-12.497
法集錄	-12.497
三小界	-12.497
het	-12.497
超迦爾巴住神	-12.497
間接智慧	-12.497
bhūta	-12.497
仗境方生	-12.497
acary	-12.497
īni	-12.497
為道場之本	-12.4971
會有摧折	-12.4971
先世罪業則為消滅	-12.4971
三種悉地法的典據	-12.4971
亦名安心門	-12.4971
嚴厲的	-12.4971
滿懷敬意	-12.4971
āṇām	-12.4971
華智佛	-12.4971
枷	-12.4971
驟	-12.4971
bhir	-12.4971
▁己本	-12.4971
目犍連尊者	-12.4971
caturdaśa	-12.4971
丹衷	-12.4972
諸行者等	-12.4972
圖六面	-12.4972
征服	-12.4972
ォ	-12.4972
摩揭陀國	-12.4972
智證大師	-12.4972
末利王妃	-12.4972
歲時誦出	-12.4972
滅度一切眾生已	-12.4972
距佛不遠處	-12.4972
ṛju	-12.4972
報親恩	-12.4972
取捨兼懷	-12.4973
不住色布施	-12.4973
;(4)	-12.4973
五大誓	-12.4973
佛剎微塵數	-12.4973
戛	-12.4973
不墮鐵床地獄	-12.4973
如來妙色身	-12.4973
即往佛所	-12.4973
四個範疇	-12.4973
下部殘爛	-12.4973
何智所緣	-12.4973
勸比丘酒者	-12.4973
拉貢扎卡跋提	-12.4973
既悟無	-12.4973
武則天	-12.4973
升上了	-12.4973
小聖詎	-12.4974
.2446	-12.4975
窈	-12.4975
何況繫念觀佛三昧	-12.4975
提倡	-12.4975
熾燃	-12.4975
酸楚	-12.4975
往見世尊	-12.4975
我當剃	-12.4975
禪師行狀	-12.4975
畝	-12.4975
歡愉	-12.4975
正了知若法若義	-12.4975
無量阿僧祇世界	-12.4975
現見之過患	-12.4975
具四緣	-12.4975
衣派刊本無此節	-12.4975
救世者	-12.4975
佛教經典註疏	-12.4975
感覺器官	-12.4975
同義詞差別觀	-12.4975
心不住法	-12.4975
應正等覺	-12.4975
隨一尊重有知同梵行者為說法要	-12.4975
矯	-12.4976
燒煩惱薪	-12.4976
痊愈	-12.4976
阿育王	-12.4976
不於一佛二佛	-12.4976
佛說微塵眾	-12.4976
可以身相見如來不	-12.4976
唐慈恩寺	-12.4976
無量千萬佛所種	-12.4976
父母恩重經變	-12.4976
那幾個婆羅門	-12.4976
配合纔能	-12.4976
普光明殿	-12.4976
守護國界主陀羅尼經	-12.4976
掌握的資料	-12.4977
過去無量阿僧祇劫	-12.4977
禮請上聖	-12.4977
多生五逆	-12.4977
即非具足色身	-12.4977
閡	-12.4977
本緣故事	-12.4977
於其爪端	-12.4977
聖彼得堡	-12.4977
漓	-12.4977
三品悉地	-12.4977
方袍圓頂	-12.4977
鄧	-12.4977
凡夫所學	-12.4977
從天而降	-12.4977
和耆羅神王	-12.4977
採訪	-12.4977
獅子奮迅	-12.4977
蒸嘗	-12.4977
薄伽筏帝	-12.4977
雲南省圖書館藏	-12.4977
(730)	-12.4977
新譯大方廣佛華嚴經	-12.4977
舉行法會	-12.4977
無生第一樂	-12.4978
不聽飲酒	-12.4978
我和世界均	-12.4978
禮拜能除我慢	-12.4979
描	-12.4979
烏瑪斯伐蒂	-12.4979
得聞如是之經	-12.4979
如來色無盡	-12.4979
清涼答順宗	-12.4979
十方三際	-12.4979
原樣照	-12.4979
蔑	-12.4979
稱揚諸佛功德經	-12.4979
到這兒來	-12.4979
東方虛空可思量不	-12.4979
法施之會	-12.4979
不聽食肉	-12.4979
勝於愛我自己者	-12.4979
那伽薩瑪拉尊者	-12.4979
高高興興地	-12.4979
作禮奉行	-12.498
者能住正	-12.498
諸尊菩薩摩訶薩	-12.498
道法御	-12.498
難信難	-12.498
如來讚歎品	-12.498
放諸生命	-12.498
罄	-12.498
如來智慧燈	-12.498
岫	-12.498
去做吧	-12.498
反照己	-12.498
如來不應以具足色身見	-12.498
是故如來說一切法	-12.498
猶如黑絲分	-12.498
自證成道	-12.498
定形物質	-12.4981
稽首三界尊	-12.4981
大乘無盡藏法	-12.4981
西夏方塔	-12.4981
趍	-12.4981
掬	-12.4981
9139	-12.4981
各種不同的	-12.4981
智與理	-12.4982
以身布施	-12.4982
傑出的	-12.4982
晴	-12.4982
與大比丘眾千二百五十人俱	-12.4982
北京圖書館善本部	-12.4982
所作的科分	-12.4982
毛皆兩	-12.4982
爨	-12.4982
當他看到	-12.4982
食肉者墮何	-12.4982
餚饌	-12.4982
殘暴的	-12.4982
以神通力	-12.4982
茗	-12.4983
續命神幡	-12.4983
本之底校本	-12.4983
過去心已滅	-12.4983
前三三與後三三	-12.4983
戍馱	-12.4983
不覺不知己之所	-12.4983
虔奏藥師	-12.4983
天和地	-12.4983
少欲最安樂	-12.4983
×20.	-12.4983
一一畫有十四	-12.4983
名色滅則六	-12.4983
擷	-12.4983
杜鞞	-12.4983
縱廣正等	-12.4983
闔	-12.4983
一大阿僧祇	-12.4983
即是真佛	-12.4983
損益展轉更相隨故	-12.4983
普皆饒益	-12.4983
這個偉人	-12.4983
阿僧祗	-12.4983
阿練若	-12.4983
的主體部分	-12.4983
還自受	-12.4984
概貌	-12.4984
阿羅漢能作是念	-12.4984
非法非非法	-12.4984
勝日身	-12.4984
荊州	-12.4984
拈來不離	-12.4984
憙	-12.4984
近年來	-12.4984
叉戟	-12.4984
鴉鵲同巢	-12.4984
濃厚	-12.4984
敦煌文獻中的這些禪	-12.4984
以種種方便法門	-12.4984
南無越三界菩薩	-12.4984
是聖是凡	-12.4984
未終止	-12.4984
眾經偽妄	-12.4984
頭頂骨其色正白如頗	-12.4984
墮鐵輪地獄	-12.4984
珀	-12.4985
sūtra	-12.4985
增其勝解	-12.4986
金毗羅神王	-12.4986
前後際斷	-12.4986
萬種千端	-12.4986
護法呵空	-12.4986
805	-12.4986
之殊勝方便	-12.4986
偉大人物	-12.4986
貼	-12.4986
鷺	-12.4986
仁王經疏	-12.4986
無二亦無三	-12.4986
官經生	-12.4986
日本天台學者	-12.4986
流入毗盧華藏	-12.4986
負債	-12.4986
到底是什麼	-12.4986
無空過	-12.4986
鑲	-12.4986
便分六十	-12.4987
控告	-12.4987
桑	-12.4987
惛	-12.4987
縛室憐	-12.4987
僧伽梨衣	-12.4987
的結構體例	-12.4987
首尾俱全	-12.4987
從何所來	-12.4987
北新八六七號	-12.4987
伶	-12.4987
是多麼	-12.4987
啟白敘意	-12.4987
的記述	-12.4987
穹蒼	-12.4987
八萬行別	-12.4987
召集神祗	-12.4987
敷衍	-12.4987
瓦古姆達河岸	-12.4987
除他苦	-12.4987
嗡	-12.4987
這批文獻	-12.4987
我皆令入無餘涅槃而滅度之	-12.4987
築	-12.4988
普賢法王菩薩	-12.4988
於其齊中有萬億寶	-12.4988
佛如來兩足踝不	-12.4988
佛如來足下平滿	-12.4988
的相關段落	-12.4988
故在此譯	-12.4988
盂蘭盆經	-12.4988
考察原件	-12.4988
不正思惟	-12.4988
無見頂相	-12.4988
可以推知	-12.4989
本生故事	-12.4989
尊卑昭穆	-12.4989
黑城出土	-12.4989
天地生人	-12.4989
經折裝	-12.4989
不能解我所說故	-12.4989
今此地藏菩薩	-12.4989
佛如來那羅延力合	-12.4989
志心普命	-12.4989
懺悔願消	-12.4989
離有離無	-12.4989
難以忍受的	-12.4989
伏願來時	-12.4989
德主方	-12.4989
沒陀喃	-12.4989
溫暖	-12.4989
真空性水	-12.4989
他化自在天	-12.4989
丟棄	-12.4989
哈	-12.4989
是無數的	-12.4989
蔓延	-12.499
安受眾苦忍	-12.499
新集疑經偽撰雜錄	-12.499
泥梨中	-12.499
簽	-12.499
鵠	-12.499
五個婆羅門	-12.499
之子女	-12.499
究竟憐憫恩	-12.499
佛如來兩䏶周圓	-12.499
異口同音告阿難	-12.499
即為謗佛	-12.499
那婆那	-12.499
一輪杲日照	-12.499
參考價值	-12.499
白姐聖妃	-12.499
舊時妻	-12.499
:82	-12.499
張時則	-12.499
pīt	-12.499
梅	-12.499
的統治者	-12.4991
靈圖寺	-12.4991
名諸相具足	-12.4991
其餘諸號	-12.4991
牖	-12.4991
我等云何奉持	-12.4991
在大眾中	-12.4991
持禪定者	-12.4991
多他阿伽度	-12.4991
南無金剛界菩薩	-12.4991
的理由是	-12.4991
佛如來腹小不	-12.4991
佛如來齊如毗	-12.4991
廬山遠公	-12.4991
綾	-12.4991
密垂加護	-12.4991
生信心不	-12.4991
在大藏經中	-12.4991
無根樹下親拈	-12.4991
購	-12.4991
迦樓羅	-12.4991
選擇	-12.4992
線索	-12.4992
蟠	-12.4993
勁	-12.4993
聞如來壽命長遠	-12.4993
特此說明	-12.4993
毫宛轉	-12.4993
為一個整體	-12.4993
宋林羅神王	-12.4993
驅馳	-12.4993
昧於取捨	-12.4993
不應取非法	-12.4993
的來歷	-12.4993
住前性地	-12.4993
名稱普聞	-12.4993
回乾就濕	-12.4993
攝為依處	-12.4993
眼中重光生	-12.4993
摩醯首羅天	-12.4993
柳田聖山	-12.4993
無有極微等法	-12.4993
一聲名號	-12.4993
僧法誦經事	-12.4993
株杌	-12.4993
飛蛾	-12.4993
月有十齋日	-12.4993
懃	-12.4993
止觀輔行	-12.4993
佛如來諸骨	-12.4993
芾煌居士	-12.4994
的產物	-12.4994
塵埃	-12.4994
痛癢	-12.4994
鼕	-12.4994
佛為心王菩薩說投陀經	-12.4994
提供了新的資料	-12.4994
熄	-12.4994
不請友	-12.4994
如山嶽	-12.4994
格式	-12.4994
牀	-12.4994
發菩提大心	-12.4994
詭	-12.4994
諸趣唯因果	-12.4994
大小乘經律論疏	-12.4994
法金剛院藏	-12.4994
移至他世	-12.4994
馬和象	-12.4994
人有十八識	-12.4994
念來約	-12.4994
朵朵	-12.4994
車有十八輻	-12.4994
淨口業真言	-12.4994
牧牛	-12.4995
何況有人盡能受持讀誦	-12.4995
先後次序	-12.4995
所有人都	-12.4995
庭戶	-12.4995
世尊與大比丘眾在	-12.4995
倚託	-12.4995
躭	-12.4995
不違本願	-12.4995
唧	-12.4995
韋提希	-12.4995
斷彼之理	-12.4995
其苦難忍	-12.4995
延曆寺	-12.4995
愛他攝受	-12.4995
撑	-12.4995
政府	-12.4995
頭面作禮	-12.4995
叱	-12.4995
嚙	-12.4995
四十二恆河沙	-12.4995
履行國王的職責	-12.4995
此間漢地	-12.4995
鑰	-12.4995
如意寶珠	-12.4996
祚	-12.4996
能了知之士夫	-12.4996
某某神下	-12.4996
菩薩以滿	-12.4996
未來心未	-12.4997
玉女承顏	-12.4997
炷香設禮	-12.4997
四相所遷	-12.4997
偽妄亂真	-12.4997
睦	-12.4997
二百五十戒	-12.4997
常求無念	-12.4997
淨名經關中疏	-12.4997
獅子寶座	-12.4997
由孝德	-12.4997
=	-12.4997
思維忍之功德	-12.4997
冉先生	-12.4997
增上心學	-12.4997
心不適悅	-12.4997
法華經文外義	-12.4997
笈	-12.4997
賢求愚弟	-12.4997
功用根圓滿	-12.4997
印經院	-12.4997
灌沐	-12.4997
緩	-12.4997
褥	-12.4998
寅年六月十日勘校報恩寺藏舊經帙數	-12.4998
曼殊室利	-12.4998
大法鼓	-12.4998
臼	-12.4998
翹	-12.4998
昨夜	-12.4998
愚夫異生	-12.4998
交給了	-12.4998
二時科	-12.4998
蜀	-12.4998
戰慄	-12.4998
熱鐵地基	-12.4998
阿賴耶識	-12.4998
五梵文字母	-12.4998
直字梵語心經陀羅尼	-12.4998
親眼目睹	-12.4998
諸法無行	-12.4998
撿	-12.4998
始生七日	-12.4998
種方法做成	-12.4998
還生於空法	-12.4998
長跪叉手	-12.4998
一切諸菩薩故	-12.4998
亦復悲泣	-12.4998
人從三惡處	-12.4998
傘蓋	-12.4998
江都村	-12.4998
破齋者墮	-12.4998
脊	-12.4999
繕	-12.4999
息寧靜有序	-12.4999
天及非天	-12.5
開皇九年	-12.5
繫念思惟	-12.5
非二乘所	-12.5
孜孜	-12.5
帝王大臣	-12.5
銖	-12.5
循環	-12.5
立下了	-12.5
浩浩難思	-12.5
据	-12.5
氈	-12.5
加持焚香真言	-12.5
旅途	-12.5
曹延祿	-12.5
逾城出家	-12.5
外有六塵	-12.5
憂惱所逼時	-12.5
我便命終	-12.5
於取捨處	-12.5
歎智德	-12.5
癙	-12.5
觀以除	-12.5
訓練自己所有	-12.5
幅	-12.5
如佛塔廟	-12.5
阿闍世王	-12.5
超凡入聖	-12.5
列入校勘	-12.5
延促	-12.5
何況其沙	-12.5001
生滅則老	-12.5001
了了見性	-12.5001
屈伸臂	-12.5001
瀉	-12.5001
遮囉遮囉	-12.5001
十力無畏	-12.5001
嘗試	-12.5001
貸	-12.5001
誓不再造	-12.5001
玄奘法師禮拜逐月有十齋日	-12.5001
的闡釋	-12.5001
重要地位	-12.5001
過現未來	-12.5001
銅灌	-12.5001
不以日月所照為	-12.5001
忘善所緣	-12.5001
扭	-12.5001
僧伽羅文巴利三藏	-12.5002
未為歷代經錄所著錄	-12.5002
耨	-12.5002
規矩	-12.5002
慟	-12.5002
匹配	-12.5002
立碑石	-12.5002
桂	-12.5002
正眼看來	-12.5002
爍皤囉	-12.5002
諮詢	-12.5002
鏗	-12.5002
斯里蘭卡國家佛教部監製出版	-12.5002
照見五蘊皆空	-12.5002
摩訶迦嚕尼	-12.5002
殘忍的	-12.5002
歧途	-12.5002
絙	-12.5002
於一一指節端有十二輪相	-12.5002
銅柱	-12.5003
此即先請	-12.5004
咀	-12.5004
閃爍	-12.5004
寒暑	-12.5004
羊狗	-12.5004
火輪墮地	-12.5004
聚沙成塔亙青天	-12.5004
.2849	-12.5004
十小劫	-12.5004
豐盈	-12.5004
冉雲華先生	-12.5004
喜不自勝	-12.5004
柴油	-12.5004
烏𤙣	-12.5004
的思想傾向	-12.5004
舊唐書	-12.5004
以旃檀等	-12.5004
幫	-12.5004
不空羂索	-12.5004
颺	-12.5005
瓢	-12.5005
印經一藏進於朝	-12.5005
技藝	-12.5005
轉更精	-12.5005
環繞	-12.5005
批准	-12.5005
漲	-12.5005
當做之事	-12.5005
陽炎	-12.5005
老古錐	-12.5005
攝大乘論	-12.5005
何以加焉	-12.5005
井鼈	-12.5005
彌綸	-12.5005
橛	-12.5005
入佛性海	-12.5005
十千天子	-12.5005
永樂十年	-12.5005
生正知之理	-12.5005
歿	-12.5006
犬馬	-12.5006
在五台	-12.5006
味甘甜	-12.5007
讀者研究	-12.5007
第三時陞座	-12.5007
[...]
