<unk>	0
<s>	0
</s>	0
之	-3.94638
也	-4.28178
而	-4.37462
以	-4.61777
者	-4.74103
/	-4.75756
則	-4.8524
(	-4.90603
為	-4.91739
其	-5.01824
有	-5.03213
)	-5.16276
不	-5.19857
曰	-5.26707
於	-5.28609
是	-5.4544
人	-5.45522
言	-5.58612
無	-5.60535
一	-5.66878
如	-5.67631
故	-5.71186
自	-5.73468
與	-5.74267
矣	-5.79443
此	-5.81313
)(	-5.84423
得	-5.92686
然	-6.0199
大	-6.03772
皆	-6.06634
亦	-6.07388
事	-6.08142
在	-6.0905
謂	-6.10008
至	-6.1051
所	-6.12551
上	-6.13075
中	-6.13992
見	-6.14377
行	-6.14865
非	-6.15198
乎	-6.1526
問	-6.1772
子	-6.17914
若	-6.20612
時	-6.20883
又	-6.24591
道	-6.26763
處	-6.26887
心	-6.27157
用	-6.32442
/)	-6.35383
知	-6.36353
必	-6.36563
正	-6.40889
説	-6.43687
下	-6.44828
當	-6.45518
所以	-6.46181
乃	-6.4628
于	-6.49221
生	-6.4968
使	-6.50558
▁	-6.50782
雖	-6.51337
可	-6.52013
臣	-6.52047
已	-6.53377
欲	-6.54172
明	-6.54454
焉	-6.56752
天	-6.57536
王	-6.58228
作	-6.58435
公	-6.59083
學	-6.59098
書	-6.5918
出	-6.59694
及	-6.59978
云	-6.60482
今	-6.60756
便	-6.60765
去	-6.61753
即	-6.63535
民	-6.63718
三	-6.64709
相	-6.65025
日	-6.65654
能	-6.66186
成	-6.68045
○	-6.68459
易	-6.69334
說	-6.69862
禮	-6.7042
多	-6.71599
或	-6.72448
君	-6.74855
所謂	-6.75862
文	-6.76749
本	-6.76816
後	-6.77185
夫	-6.7913
方	-6.7966
惟	-6.80229
義	-6.80271
耳	-6.80405
從	-6.80679
以為	-6.80777
未	-6.81939
立	-6.8223
字	-6.83279
先	-6.84421
同	-6.8444
理	-6.85008
爲	-6.85816
氣	-6.86043
不可	-6.86117
官	-6.8658
既	-6.86699
名	-6.87271
二	-6.88188
聖人	-6.88192
將	-6.88384
善	-6.88521
分	-6.88611
如此	-6.88994
合	-6.89439
法	-6.9213
論	-6.92206
命	-6.9245
哉	-6.92463
實	-6.92598
地	-6.93352
入	-6.93427
意	-6.93493
來	-6.94054
物	-6.94121
我	-6.94489
只是	-6.94828
盡	-6.95014
安	-6.96186
因	-6.96478
復	-6.97537
四	-6.97946
不能	-6.9848
猶	-6.98707
仁	-6.9893
天下	-6.99115
樂	-7.01968
何	-7.02842
而不	-7.03237
始	-7.03377
他	-7.03506
常	-7.03851
國	-7.04682
反	-7.05
且	-7.05298
長	-7.05304
徳	-7.05698
數	-7.061
居	-7.06278
但	-7.06765
重	-7.08421
士	-7.08699
主	-7.09831
死	-7.10324
吾	-7.10691
五	-7.10901
求	-7.12104
了	-7.12891
敬	-7.13254
好	-7.13666
取	-7.14311
外	-7.14316
治	-7.14319
小	-7.14569
定	-7.14895
過	-7.15204
水	-7.15472
陽	-7.15624
家	-7.15885
要	-7.16239
凡	-7.17517
動	-7.1756
令	-7.17562
通	-7.18114
只	-7.18339
世	-7.18762
不得	-7.20607
遂	-7.20873
周	-7.21029
便是	-7.2143
性	-7.23165
者也	-7.24029
身	-7.24104
師	-7.24513
經	-7.24742
兵	-7.25349
固	-7.25405
思	-7.25906
舉	-7.26739
極	-7.2818
不知	-7.28526
甚	-7.28859
君子	-7.29286
却	-7.29291
而已	-7.29458
語	-7.29577
親	-7.29748
觀	-7.30116
信	-7.30785
元	-7.30786
利	-7.31204
音	-7.31984
内	-7.32093
食	-7.33031
服	-7.33046
歸	-7.33244
難	-7.34522
聞	-7.34608
少	-7.35252
教	-7.35844
守	-7.35936
爾	-7.37037
發	-7.37046
誠	-7.37143
體	-7.37316
年	-7.37582
陳	-7.37727
孔子	-7.37746
止	-7.37811
進	-7.38041
平	-7.38354
深	-7.38488
諸	-7.38569
制	-7.38996
和	-7.39028
志	-7.39716
變	-7.39758
蓋	-7.40024
神	-7.40138
稱	-7.41275
之意	-7.41275
著	-7.41477
前	-7.41696
詩	-7.41782
六	-7.41784
初	-7.41812
盖	-7.42112
終	-7.42604
惡	-7.42621
直	-7.42659
節	-7.42719
先生	-7.43161
父	-7.43903
都	-7.44314
齊	-7.44328
聲	-7.44396
某	-7.46318
更	-7.46987
政	-7.47091
祭	-7.47544
力	-7.47641
兩	-7.48727
德	-7.49338
之道	-7.49719
宜	-7.49975
學者	-7.50078
看	-7.50165
氏	-7.50605
九	-7.50931
亂	-7.5102
逺	-7.51201
位	-7.51322
髙	-7.51383
隂	-7.51415
失	-7.51561
帝	-7.51632
起	-7.51714
傳	-7.51837
就	-7.52162
聖	-7.5231
山	-7.53184
衆	-7.53656
由	-7.53697
受	-7.53757
州	-7.53781
致	-7.53995
異	-7.54819
天地	-7.55516
可以	-7.55532
近	-7.55921
底	-7.56184
獨	-7.56858
古	-7.58232
賢	-7.58775
孟子	-7.58873
章	-7.58921
朝	-7.59175
如何	-7.59702
順	-7.60137
養	-7.60438
尚	-7.61447
各	-7.61847
切	-7.61899
又曰	-7.61916
解	-7.61941
田	-7.63325
月	-7.63531
己	-7.63605
辭	-7.6379
風	-7.64356
應	-7.64372
須	-7.65345
㑹	-7.65592
然後	-7.66645
葢	-7.67404
廣	-7.67931
等	-7.67964
謂之	-7.6821
功	-7.68323
漢	-7.68356
益	-7.68716
孝	-7.68918
請	-7.68921
才	-7.69143
諸侯	-7.6955
彼	-7.69713
任	-7.70083
似	-7.70088
興	-7.70133
至於	-7.70327
全	-7.70816
愛	-7.7096
門	-7.71007
而後	-7.71032
之事	-7.71073
馬	-7.71126
别	-7.71361
尊	-7.71471
視	-7.71662
象	-7.71843
殺	-7.71982
宋	-7.71992
人之	-7.7207
之心	-7.72521
秦	-7.72649
嘗	-7.72713
備	-7.72916
南	-7.73461
存	-7.73655
卒	-7.73788
張	-7.73884
間	-7.7441
到	-7.74964
恐	-7.751
疑	-7.75178
類	-7.75479
化	-7.75545
母	-7.75804
比	-7.76025
東	-7.76671
指	-7.76918
做	-7.7707
度	-7.7723
軍	-7.7764
對	-7.77797
讀	-7.77865
豈	-7.79664
足	-7.79705
情	-7.80292
開	-7.80746
推	-7.80909
流	-7.80949
武	-7.80984
女	-7.81543
八	-7.81822
西	-7.81895
修	-7.82483
清	-7.83647
刑	-7.84106
土	-7.84117
加	-7.84244
精	-7.84375
十	-7.84691
貴	-7.84863
伯	-7.85092
晉	-7.85423
私	-7.85588
莫	-7.8593
亡	-7.8622
勝	-7.86986
老	-7.87542
交	-7.8796
絶	-7.88614
其所	-7.88646
告	-7.88832
忠	-7.89069
屬	-7.89128
百	-7.89147
宗	-7.89368
記	-7.90054
七	-7.90122
坐	-7.90278
釋	-7.90724
金	-7.91288
之所	-7.91306
兼	-7.91589
具	-7.92101
自然	-7.92109
輕	-7.9225
次	-7.926
楚	-7.92633
謀	-7.92757
不敢	-7.9279
火	-7.9283
這	-7.93359
之間	-7.93451
夏	-7.9361
務	-7.93826
春秋	-7.93951
厚	-7.94191
石	-7.9437
容	-7.9475
卦	-7.94938
設	-7.95167
執	-7.95698
智	-7.95727
引	-7.95923
天子	-7.95948
病	-7.96788
廢	-7.97249
改	-7.97306
是以	-7.97435
盛	-7.97477
北	-7.97577
計	-7.97662
窮	-7.97805
光	-7.97806
按	-7.98009
太	-7.98096
置	-7.98112
李	-7.98187
載	-7.98221
之義	-7.98232
不同	-7.9837
議	-7.98377
夫子	-7.98412
木	-7.98456
首	-7.9856
唐	-7.98612
隂陽	-7.99297
之理	-7.99517
識	-7.99648
權	-7.99807
斯	-8.00055
剛	-8.00226
故曰	-8.00389
司	-8.00609
之説	-8.00621
魯	-8.00622
之言	-8.00632
史	-8.00706
篇	-8.00817
形	-8.00839
邪	-8.00946
真	-8.01442
罪	-8.02129
口	-8.02315
察	-8.02513
来	-8.02526
萬物	-8.03369
考	-8.03661
望	-8.03742
車	-8.0376
而無	-8.03898
萬	-8.04364
强	-8.04412
不是	-8.04537
白	-8.04696
有所	-8.05171
疾	-8.05327
嚴	-8.05759
城	-8.0586
将	-8.05867
祖	-8.0594
言之	-8.06204
古人	-8.06402
色	-8.06637
戰	-8.06757
宫	-8.07141
器	-8.07364
憂	-8.07519
積	-8.07996
散	-8.08016
不足	-8.08177
虚	-8.08256
克	-8.08617
序	-8.08676
省	-8.08921
大夫	-8.08994
新	-8.09066
之時	-8.09113
那	-8.09186
離	-8.09295
每	-8.09358
也故	-8.09542
廟	-8.09575
辨	-8.09646
美	-8.09786
習	-8.10021
小人	-8.1007
放	-8.10133
之法	-8.10634
孫	-8.10837
往	-8.10915
無所	-8.10952
保	-8.1146
封	-8.11892
鄭	-8.12354
子曰	-8.12393
幾	-8.12413
工夫	-8.12433
道理	-8.1322
達	-8.1345
施	-8.13474
右	-8.13732
適	-8.13946
目	-8.14307
後世	-8.14352
餘	-8.14365
吏	-8.14406
衣	-8.14514
錢	-8.14601
害	-8.14633
果	-8.15117
朱子	-8.1539
待	-8.15588
除	-8.15711
舊	-8.1597
天理	-8.16005
伐	-8.16178
奉	-8.16242
隨	-8.16248
專	-8.16281
共	-8.1638
父母	-8.16395
耶	-8.16409
喪	-8.16447
縣	-8.16484
乾	-8.16525
原	-8.16731
戒	-8.16848
春	-8.16957
嵗	-8.16975
斷	-8.17007
天下之	-8.17139
良	-8.17174
端	-8.17291
退	-8.17309
簡	-8.17616
息	-8.18249
降	-8.18413
承	-8.18462
謹	-8.18479
敗	-8.18769
尤	-8.19228
人心	-8.19231
感	-8.19372
職	-8.1956
侯	-8.19952
卷	-8.20153
並	-8.20423
讀書	-8.20455
遇	-8.20583
聽	-8.20806
詳	-8.20983
見得	-8.21052
之類	-8.21325
律	-8.21393
質	-8.21963
傷	-8.21994
還	-8.22244
訓	-8.22353
慮	-8.2238
徒	-8.22464
微	-8.22553
賜	-8.22928
最	-8.22968
當時	-8.22974
之後	-8.23174
朱子曰	-8.23306
舜	-8.23344
文王	-8.23497
於此	-8.23558
周公	-8.23792
依	-8.23886
之中	-8.23895
勿	-8.24091
向	-8.24168
須是	-8.24395
財	-8.24658
吉	-8.24728
敵	-8.24732
圖	-8.24797
詔	-8.24863
扵	-8.25199
遺	-8.25337
俗	-8.25389
建	-8.25468
足以	-8.25804
再	-8.26049
手	-8.26329
許	-8.26454
為之	-8.26596
太極	-8.26689
一日	-8.26738
鄉	-8.26832
静	-8.26893
愈	-8.27284
臨	-8.2737
聖賢	-8.27392
喜	-8.27762
路	-8.27827
雜	-8.27928
劉	-8.27937
靜	-8.28173
末	-8.28178
室	-8.28199
弗	-8.28437
叔	-8.28627
禁	-8.28689
據	-8.29065
否	-8.29245
率	-8.29331
勞	-8.29335
必有	-8.29428
業	-8.29592
高	-8.29702
危	-8.30057
是也	-8.30331
久	-8.30417
卿	-8.30561
申	-8.30645
顯	-8.30655
拜	-8.30956
特	-8.30959
伊川	-8.31036
患	-8.31054
衰	-8.31235
召	-8.31452
黄	-8.3151
河	-8.3178
集	-8.31911
滅	-8.32015
繼	-8.32262
被	-8.32442
㸔	-8.32452
婦	-8.32477
自是	-8.32647
府	-8.32769
未嘗	-8.32863
約	-8.33029
仲	-8.33135
朝廷	-8.33502
差	-8.33629
統	-8.3367
亦有	-8.33681
獻	-8.33931
頭	-8.34007
免	-8.34398
愚	-8.34618
商	-8.34707
上下	-8.35019
予	-8.35046
講	-8.35151
威	-8.35885
代	-8.3612
之人	-8.36473
素	-8.3657
后	-8.36625
藏	-8.36761
未有	-8.37083
顧	-8.37186
顔子	-8.3719
慎	-8.37446
何以	-8.37449
御	-8.37467
不及	-8.37569
柔	-8.3769
怨	-8.37715
聚	-8.38019
無不	-8.38113
畏	-8.38183
遷	-8.38328
富	-8.3833
賊	-8.38511
奏	-8.38542
或問	-8.38754
之學	-8.39222
舍	-8.39424
箇	-8.39483
衛	-8.39487
納	-8.39619
持	-8.39742
責	-8.39781
答	-8.39898
鬼神	-8.39971
友	-8.40044
列	-8.40096
寛	-8.40112
怒	-8.4014
逆	-8.40304
量	-8.40389
魏	-8.40438
闕	-8.40538
爭	-8.40602
勢	-8.40666
造	-8.40742
皆是	-8.40897
左	-8.40938
注	-8.41067
妄	-8.41116
夜	-8.41161
而言	-8.41175
薄	-8.41175
恭	-8.4119
趙	-8.41293
程子	-8.41481
於是	-8.41794
崇	-8.41949
急	-8.42001
不過	-8.42162
義理	-8.42194
升	-8.42228
禮樂	-8.42477
總	-8.42659
人君	-8.42896
華	-8.42961
否曰	-8.43127
覺	-8.43156
汝	-8.43693
賦	-8.43858
附	-8.43971
擇	-8.44
唯	-8.44147
布	-8.44147
澤	-8.44283
胡	-8.44446
漸	-8.44467
酒	-8.44563
之說	-8.44588
中庸	-8.44677
其心	-8.44838
祀	-8.4504
報	-8.45355
脩	-8.45514
細	-8.45572
儀	-8.4568
役	-8.4593
破	-8.45954
者皆	-8.46132
三年	-8.46857
移	-8.46933
羣	-8.47019
不為	-8.47067
陵	-8.47199
期	-8.47347
熟	-8.47363
濟	-8.4742
收	-8.47588
不以	-8.47635
秋	-8.47636
念	-8.47807
假	-8.4809
紀	-8.48162
之功	-8.48311
空	-8.48346
臣按	-8.48783
如何曰	-8.4879
俱	-8.48836
理㑹	-8.4921
此心	-8.49396
也夫	-8.49532
轉	-8.49647
救	-8.49689
偏	-8.50019
宣	-8.50043
半	-8.50425
諫	-8.50513
願	-8.50521
百姓	-8.50603
邑	-8.50952
昭	-8.51031
工	-8.51053
自家	-8.51257
江	-8.51281
哀	-8.51392
况	-8.51508
補	-8.51526
費	-8.51893
貞	-8.51894
則是	-8.51952
儒	-8.5196
茍	-8.52072
不可以	-8.52248
寧	-8.5228
博	-8.52627
弟	-8.52664
夷	-8.52881
大學	-8.53094
棄	-8.53187
畫	-8.53243
燕	-8.5346
之地	-8.53523
吳	-8.53975
誅	-8.54022
忽	-8.54026
知其	-8.54129
龍	-8.54131
冬	-8.54379
越	-8.54479
勸	-8.54575
先生曰	-8.55095
結	-8.5527
恩	-8.55279
塞	-8.55334
試	-8.55368
可謂	-8.55471
典	-8.5561
均	-8.55617
福	-8.5588
兄弟	-8.55986
參	-8.56007
星	-8.56307
以下	-8.56319
懼	-8.56361
違	-8.56524
卑	-8.56554
靈	-8.56559
千	-8.56595
隠	-8.56704
運	-8.56738
逐	-8.56773
敢	-8.56915
抑	-8.56992
幸	-8.5712
又問	-8.57271
純	-8.57273
凶	-8.57419
文字	-8.5743
之禮	-8.57452
出於	-8.57531
管	-8.57619
林	-8.57979
今日	-8.5805
可見	-8.58374
毋	-8.58627
玉	-8.5871
表	-8.58934
蔽	-8.59356
左右	-8.59584
咸	-8.59674
不必	-8.59941
一人	-8.60135
行之	-8.60381
曲	-8.60625
寒	-8.60794
坤	-8.6082
則有	-8.60853
以其	-8.60868
里	-8.60915
亦是	-8.61232
客	-8.61356
苦	-8.61691
眀	-8.61915
格	-8.61958
永	-8.62097
犯	-8.62262
恁地	-8.62315
句	-8.62396
伏	-8.62466
讓	-8.62541
忘	-8.62594
庶	-8.62605
暴	-8.62668
録	-8.62835
雨	-8.62962
禹	-8.62973
充	-8.62986
禍	-8.63114
掌	-8.63194
畢	-8.63575
略	-8.63602
海	-8.63663
魚	-8.6382
不如	-8.63866
農	-8.63918
爵	-8.63959
勤	-8.64086
弱	-8.64106
梁	-8.64545
號	-8.64616
辟	-8.64648
審	-8.64666
兄	-8.64789
乆	-8.64812
勇	-8.65048
條	-8.65095
射	-8.65119
敎	-8.65122
竊	-8.65225
輔	-8.65342
冠	-8.65383
資	-8.65455
妻	-8.65507
留	-8.66015
履	-8.66062
而為	-8.66095
不見	-8.66124
之謂	-8.66168
野	-8.66169
歌	-8.66186
攻	-8.66318
面	-8.66424
今人	-8.66499
葬	-8.66562
仁義	-8.66785
郡	-8.66809
使人	-8.67092
累	-8.67423
其言	-8.67459
之所以	-8.6747
亦不	-8.67561
以上	-8.67563
恕	-8.67718
昔	-8.67775
朱	-8.67934
也然	-8.68073
革	-8.68261
之際	-8.6864
賞	-8.68957
天之	-8.69092
雖有	-8.69109
惠	-8.6914
選	-8.69152
楊	-8.69178
游	-8.69387
罷	-8.69559
震	-8.69704
給	-8.6981
不然	-8.69817
太子	-8.69975
十二	-8.70056
意思	-8.70255
且如	-8.70472
以此	-8.70601
雲	-8.70951
竒	-8.71147
堅	-8.71204
虞	-8.71211
決	-8.71421
徐	-8.71633
困	-8.71671
險	-8.71707
堯舜	-8.71857
的	-8.71862
邊	-8.71946
子孫	-8.71951
孤	-8.72058
誤	-8.72205
稍	-8.72444
朕	-8.72519
損	-8.72535
草	-8.72577
民之	-8.73161
牛	-8.7317
大抵	-8.73241
配	-8.73316
䘮	-8.73339
縱	-8.73528
禄	-8.73553
君臣	-8.7363
自有	-8.73634
貫	-8.73994
陰	-8.74038
監	-8.74118
巳	-8.74215
遣	-8.74352
惑	-8.74382
閒	-8.74445
連	-8.74457
堂	-8.74583
歟	-8.74615
薦	-8.74787
周禮	-8.74927
一事	-8.75041
滿	-8.75074
會	-8.75096
陛下	-8.75316
昏	-8.75325
寡	-8.75378
享	-8.75588
孟	-8.75681
是非	-8.75744
悉	-8.75747
景	-8.75755
畧	-8.75915
皇	-8.75948
佛	-8.75996
知之	-8.76051
虛	-8.76055
種	-8.76101
乞	-8.76292
户	-8.76332
照	-8.76364
㣲	-8.76487
登	-8.76553
淵	-8.76592
皆有	-8.76797
不當	-8.76967
韓	-8.77013
征	-8.77103
用之	-8.77181
乗	-8.77222
姑	-8.77344
纔	-8.77448
臣若水通曰	-8.77477
賤	-8.77623
孰	-8.77978
者亦	-8.78072
族	-8.78318
殊	-8.78341
論語	-8.78364
休	-8.78518
避	-8.7853
厥	-8.78652
授	-8.78665
内外	-8.78763
材	-8.78846
獄	-8.79002
堯	-8.79075
使之	-8.79152
助	-8.79248
一箇	-8.79263
之士	-8.79316
泰	-8.79412
揚	-8.79427
此理	-8.79466
防	-8.79472
巧	-8.79529
術	-8.79763
懐	-8.79933
之數	-8.79992
接	-8.80166
偽	-8.80524
却是	-8.80544
示	-8.80604
程	-8.80626
曾	-8.80687
决	-8.80911
負	-8.80913
屈	-8.80932
孔	-8.81054
耕	-8.81177
此言	-8.81318
見其	-8.81763
飲	-8.81791
季	-8.81802
根	-8.81918
并	-8.82139
説得	-8.82295
刻	-8.82455
聖人之	-8.8254
明道	-8.82553
邦	-8.82557
驕	-8.83029
荅	-8.83272
奪	-8.83447
其後	-8.83471
嘉	-8.8362
而已矣	-8.83724
國家	-8.83751
然則	-8.8383
丘	-8.83894
甲	-8.83929
折	-8.8422
弊	-8.84273
莫不	-8.84358
不用	-8.84404
厲	-8.84507
疏	-8.8455
丁	-8.84712
欽定四庫全書	-8.8484
又云	-8.84864
無窮	-8.84924
黨	-8.84974
淳	-8.85178
郊	-8.85266
其事	-8.85343
旣	-8.85533
其實	-8.85545
若是	-8.85587
夫人	-8.8569
盈	-8.85879
䝉	-8.8598
仕	-8.86028
古之	-8.86034
也若	-8.86303
述	-8.86352
較	-8.8639
背	-8.86396
追	-8.86438
覆	-8.86458
市	-8.86541
湯	-8.86676
飾	-8.8687
吕	-8.86975
道也	-8.8709
徃	-8.87319
對曰	-8.87377
貪	-8.87434
殷	-8.87435
湏	-8.87549
井	-8.87683
有司	-8.87748
天地之	-8.87773
日月	-8.87791
調	-8.87834
各有	-8.88058
米	-8.88174
其身	-8.88384
趨	-8.88441
消	-8.88444
包	-8.88504
荒	-8.88552
者必	-8.88578
勉	-8.88893
厯	-8.88946
悔	-8.8903
許多	-8.89063
不足以	-8.89177
分明	-8.89269
肆	-8.89294
尋	-8.893
淫	-8.89419
苟	-8.8943
武王	-8.89441
獲	-8.89455
後來	-8.89535
大臣	-8.8966
曹	-8.89674
庸	-8.89889
貧	-8.89901
温	-8.89959
之氣	-8.90003
速	-8.90054
䖏	-8.90147
操	-8.90167
横	-8.90196
䇿	-8.90314
占	-8.90335
窮理	-8.9051
謙	-8.90565
謝	-8.90618
余	-8.90653
牧	-8.90692
教人	-8.90695
姦	-8.90737
循	-8.9074
誰	-8.90829
歴	-8.90866
氣象	-8.90979
歲	-8.91044
孔子曰	-8.91184
乘	-8.91289
専	-8.91386
落	-8.91736
之於	-8.91947
又有	-8.92068
送	-8.92263
得其	-8.9231
支	-8.9234
先王	-8.924
闗	-8.92403
豈不	-8.92554
機	-8.929
人主	-8.93611
曰此	-8.93646
哭	-8.93674
也今	-8.94021
宰	-8.94148
詞	-8.94446
不待	-8.9457
效	-8.94989
幽	-8.95003
篤	-8.95224
古者	-8.9534
豐	-8.95435
便有	-8.95447
賢者	-8.95521
仁者	-8.95537
這箇	-8.9563
科	-8.95674
毁	-8.95699
太宗	-8.9572
干	-8.95748
味	-8.95755
五行	-8.9607
亨	-8.96321
鬼	-8.96341
如此則	-8.96345
錯	-8.96382
借	-8.96434
子路	-8.965
擊	-8.96503
賔	-8.9668
營	-8.96715
索	-8.97204
𫝊	-8.97253
而不能	-8.97344
曽	-8.97397
垂	-8.97455
隆	-8.9749
妙	-8.97586
戎	-8.97616
遠	-8.98025
争	-8.98137
君之	-8.98205
喻	-8.9838
編	-8.98534
徵	-8.98581
横渠	-8.98649
不肯	-8.98734
之外	-8.98803
振	-8.98825
天道	-8.98832
旁	-8.99035
遊	-8.99062
角	-8.99181
豈有	-8.99199
諭	-8.99299
可也	-8.99303
不成	-8.99329
隱	-8.9973
仰	-8.99804
富貴	-8.99838
維	-8.99928
古今	-8.99988
以爲	-8.99997
緩	-9.00056
則其	-9.00093
以來	-9.0011
言語	-9.00275
无	-9.00282
之制	-9.0036
朋友	-9.00449
繫	-9.00654
迎	-9.00945
逹	-9.01062
四方	-9.01157
其中	-9.01284
淺	-9.0138
莊	-9.01442
浮	-9.01442
此意	-9.01457
學問	-9.01469
采	-9.01705
榮	-9.0171
豫	-9.01849
道之	-9.01876
怪	-9.01938
則為	-9.02349
屋	-9.02354
恒	-9.0255
殿	-9.02646
不復	-9.02751
四時	-9.02968
走	-9.03011
尺	-9.03065
慈	-9.03122
齋	-9.03281
一時	-9.03288
不善	-9.03377
爻	-9.03483
父子	-9.03507
流行	-9.03602
而有	-9.03721
有餘	-9.0383
臺	-9.0389
蔡	-9.03938
之書	-9.03987
然而	-9.04069
此是	-9.04114
例	-9.0415
誦	-9.04239
曾子	-9.04814
天命	-9.05064
昌	-9.05088
宻	-9.05109
之象	-9.05144
其間	-9.05171
領	-9.05208
忠信	-9.05211
笑	-9.05311
如是	-9.05477
於人	-9.05523
是故	-9.05556
不相	-9.05734
矣然	-9.05816
辱	-9.06148
談	-9.06164
早	-9.06201
委	-9.06211
悟	-9.06305
善惡	-9.06453
畜	-9.06572
姓	-9.0661
之本	-9.06846
侵	-9.06921
逸	-9.06941
人也	-9.07101
程子曰	-9.07329
慶	-9.07418
庭	-9.07431
強	-9.07699
把	-9.07772
關	-9.07817
生於	-9.07869
為善	-9.07919
仲尼	-9.08043
註	-9.08128
而不知	-9.08143
儉	-9.08144
侍	-9.08193
賈	-9.08245
虎	-9.08251
陸	-9.0835
聴	-9.08567
成王	-9.08588
偶	-9.08637
▁(	-9.08679
所以為	-9.08863
未能	-9.08864
卜	-9.08907
圍	-9.09123
討	-9.09466
狀	-9.09627
之實	-9.0967
國之	-9.0968
延	-9.09763
第	-9.09921
而能	-9.09947
二十	-9.10179
沒	-9.10204
相似	-9.10275
及其	-9.10343
帥	-9.10461
毎	-9.10488
飛	-9.10506
歳	-9.10551
席	-9.1059
恥	-9.10663
雅	-9.10687
而行	-9.10763
三十	-9.10795
川	-9.10925
欺	-9.1118
寢	-9.11232
羽	-9.1127
則不	-9.1139
亦無	-9.11467
不明	-9.11561
一物	-9.11704
不行	-9.12009
㡬	-9.12242
祥	-9.12321
密	-9.12378
衡	-9.12387
回	-9.12452
都是	-9.1246
之名	-9.12537
做得	-9.1258
人物	-9.12607
尸	-9.12677
候	-9.13046
部	-9.13248
有以	-9.13342
尚書	-9.13588
粗	-9.13675
為學	-9.13736
至于	-9.13791
巽	-9.13877
者非	-9.13958
五十	-9.13995
杜	-9.14031
變化	-9.14111
康	-9.14161
未必	-9.14441
帶	-9.14511
人欲	-9.1453
之徒	-9.14549
介	-9.14572
中國	-9.14621
訟	-9.14627
辯	-9.14689
人情	-9.15092
求之	-9.15104
慕	-9.15231
門人	-9.15256
呼	-9.15392
魄	-9.15408
之初	-9.15434
曰吾	-9.15539
藥	-9.15804
夢	-9.15821
殆	-9.15933
二字	-9.15946
出入	-9.15954
玩	-9.15972
之子	-9.15983
筆	-9.1601
青	-9.16024
書曰	-9.16155
它	-9.16188
周子	-9.16304
釋氏	-9.1634
肅	-9.16349
一般	-9.16408
倍	-9.16489
氣質	-9.16553
貢	-9.16554
寵	-9.16769
祝	-9.16899
罰	-9.16912
范	-9.17069
奔	-9.17123
襲	-9.17139
之道也	-9.17144
倫	-9.17149
痛	-9.17209
竟	-9.17264
貌	-9.17268
或曰	-9.17282
災	-9.17322
𤣥	-9.17405
得之	-9.17824
不可不	-9.17833
泉	-9.17909
祭祀	-9.17975
以至	-9.18117
之體	-9.18256
不合	-9.1827
不曾	-9.18422
靡	-9.18431
謹按	-9.18486
減	-9.18526
則無	-9.18757
太祖	-9.18868
利害	-9.18929
着	-9.1902
無非	-9.19046
即是	-9.19183
不言	-9.19288
鄙	-9.193
證	-9.19417
仍	-9.19417
其意	-9.19543
頗	-9.19568
想	-9.19596
不至	-9.19616
矣故	-9.19797
飲食	-9.19833
主人	-9.19897
側	-9.19919
預	-9.19937
驗	-9.19967
㫖	-9.20066
朔	-9.20068
言其	-9.20252
式	-9.20287
聞之	-9.203
輕重	-9.20352
舟	-9.20546
嗣	-9.20697
二年	-9.20763
議論	-9.20813
優	-9.21079
繁	-9.21203
故其	-9.21212
不正	-9.21232
忍	-9.21255
發明	-9.21404
短	-9.2144
其人	-9.21465
藝	-9.21683
鹽	-9.21769
鼓	-9.21779
毛	-9.21802
不在	-9.21865
私意	-9.21966
子弟	-9.21999
之用	-9.22007
子貢	-9.22015
而又	-9.22241
宿	-9.22523
貨	-9.22665
事君	-9.22828
樹	-9.22903
蘇	-9.22957
佐	-9.23038
詐	-9.2305
忌	-9.23164
所見	-9.23381
而成	-9.23437
今之	-9.23558
刺	-9.23757
税	-9.23759
辰	-9.23771
乾坤	-9.23818
曉	-9.23833
司馬	-9.23842
規	-9.23864
三代	-9.23878
不若	-9.23956
兮	-9.24063
縁	-9.2407
究	-9.2415
之文	-9.24221
文章	-9.24337
京	-9.24439
粟	-9.24525
衞	-9.24563
限	-9.24835
悦	-9.24839
徑	-9.24948
雷	-9.24992
叙	-9.25397
一句	-9.2562
擾	-9.25723
元年	-9.25795
寳	-9.25857
遽	-9.25919
何也	-9.26049
撫	-9.26121
露	-9.26223
說得	-9.26342
盜	-9.26387
其道	-9.26461
倚	-9.26482
弟子	-9.2651
其義	-9.26544
源	-9.26548
老子	-9.26587
者有	-9.26673
事親	-9.26696
育	-9.26727
陰陽	-9.26734
恤	-9.26994
與人	-9.27106
英	-9.27153
亦可	-9.27192
舎	-9.27199
則又	-9.27204
穆	-9.27212
壊	-9.27312
祠	-9.27386
妾	-9.27473
慢	-9.27488
徴	-9.27588
躬	-9.27783
之故	-9.27802
品	-9.27906
倉	-9.2815
嗚呼	-9.28196
某云	-9.28311
煩	-9.28322
晦	-9.28348
他人	-9.28368
幼	-9.28377
之徳	-9.28532
皆以	-9.28532
為人	-9.28772
烈	-9.28817
厭	-9.28994
見於	-9.28998
榖	-9.2901
係	-9.29057
没	-9.29098
矜	-9.29188
斗	-9.29307
譬如	-9.29455
葉	-9.2952
涵養	-9.29605
盟	-9.29707
齒	-9.29719
其志	-9.29775
故能	-9.2998
舞	-9.30149
於外	-9.30212
綱	-9.3026
咎	-9.30284
肉	-9.30413
分别	-9.30435
徹	-9.30667
不盡	-9.30688
聰明	-9.30766
社稷	-9.30782
扶	-9.30792
取之	-9.3084
其理	-9.30909
豈可	-9.30916
𢎞	-9.3097
其君	-9.31105
賀	-9.31191
憲	-9.31204
物之	-9.3129
警	-9.31394
彊	-9.31396
符	-9.31396
續	-9.3155
風俗	-9.31663
迹	-9.31908
赦	-9.32001
籍	-9.32029
云云	-9.32178
譽	-9.32204
禮義	-9.32217
動静	-9.32231
婦人	-9.32482
鳥	-9.32515
不容	-9.32551
艮	-9.32625
者則	-9.32699
坎	-9.32787
觀其	-9.32931
斂	-9.3307
與之	-9.33143
希	-9.33224
男	-9.33371
進退	-9.33387
僴	-9.33387
之屬	-9.33474
桓	-9.33499
格物	-9.33609
於天	-9.33662
掩	-9.33669
出來	-9.33757
増	-9.33972
安得	-9.33992
而下	-9.34003
之物	-9.34038
之論	-9.34169
輩	-9.34247
濁	-9.34284
思慮	-9.34307
也此	-9.3443
罔	-9.34462
有功	-9.34549
諌	-9.34553
宰相	-9.34863
郎	-9.34888
之要	-9.35052
伸	-9.35157
沈	-9.35158
暗	-9.35166
允	-9.35202
甘	-9.35304
終身	-9.3535
校	-9.35418
失其	-9.35455
若不	-9.35495
之性	-9.35602
人皆	-9.35605
託	-9.35724
敏	-9.35801
導	-9.35857
武帝	-9.35863
為一	-9.35959
顔	-9.35965
其餘	-9.3603
孝弟	-9.36099
在於	-9.36126
先儒	-9.36127
宅	-9.36157
之辭	-9.36283
有箇	-9.36315
其本	-9.36404
如今	-9.36434
之弊	-9.36476
羣臣	-9.36662
尹	-9.36707
二者	-9.36732
麗	-9.3676
傳曰	-9.3697
知得	-9.36994
精神	-9.37171
之君	-9.37184
傾	-9.37227
管仲	-9.37238
招	-9.37265
錄	-9.37359
三月	-9.3744
千里	-9.37444
公子	-9.37554
男女	-9.37707
衍	-9.37729
看得	-9.37837
赤	-9.38082
賀孫	-9.38093
夲	-9.38102
蜀	-9.38138
所當	-9.38157
不出	-9.38176
旋	-9.38202
之謂也	-9.38337
寄	-9.38362
無以	-9.38524
即位	-9.38539
贊	-9.38557
禮記	-9.38575
京師	-9.38595
壯	-9.38641
至此	-9.38774
竹	-9.3882
者以	-9.38873
蕩	-9.38875
塗	-9.389
其子	-9.38905
致知	-9.38941
不忍	-9.39045
十五	-9.39049
墓	-9.39107
州縣	-9.39146
禦	-9.39165
所言	-9.39212
夫婦	-9.3925
士大夫	-9.3934
觀之	-9.39389
也是	-9.39468
欲其	-9.39481
君子之	-9.39498
恃	-9.39507
至誠	-9.39545
取其	-9.39548
社	-9.39597
為主	-9.39666
禪	-9.39686
之情	-9.39692
張子	-9.3979
百官	-9.39889
供	-9.39957
此語	-9.3996
提	-9.39966
無所不	-9.40028
激	-9.40046
夀	-9.40193
乃是	-9.40265
其説	-9.40311
産	-9.40324
異端	-9.40324
投	-9.40384
羅	-9.40389
詩曰	-9.40454
斬	-9.40491
歎	-9.40665
中有	-9.40843
平日	-9.4086
傅	-9.40902
於天下	-9.41049
撰	-9.41053
何也曰	-9.41261
未發	-9.41412
人有	-9.41419
不好	-9.41471
懷	-9.41524
杖	-9.41533
不仁	-9.41564
而不可	-9.41612
十六	-9.41702
啓	-9.41757
房	-9.4186
不易	-9.41927
拘	-9.41962
鳴	-9.42006
矯	-9.42006
固是	-9.42093
逃	-9.42126
王者	-9.4219
僕	-9.42231
在人	-9.42287
烏	-9.42312
闢	-9.42385
詩云	-9.42408
子思	-9.42441
班	-9.42519
固有	-9.42525
孟子曰	-9.42563
者為	-9.42575
甫	-9.42733
在上	-9.42826
項	-9.42874
之分	-9.43006
旦	-9.43009
歩	-9.43106
祿	-9.43139
墨	-9.43196
驚	-9.43273
在此	-9.43287
谷	-9.43353
一段	-9.43361
方是	-9.43477
用力	-9.43627
必先	-9.43637
吉凶	-9.43665
誣	-9.43725
敦	-9.43736
故也	-9.43767
自古	-9.43928
羊	-9.44054
不欲	-9.44058
為政	-9.44067
誠意	-9.44114
以求	-9.4415
中正	-9.44155
愚按	-9.44182
不失	-9.44202
鮮	-9.44216
怠	-9.44238
則必	-9.44279
象曰	-9.44325
閉	-9.44369
壽	-9.44417
之患	-9.44419
鼎	-9.44423
買	-9.44441
蒙	-9.44485
後人	-9.44526
叛	-9.44703
仁義禮智	-9.44783
僅	-9.44838
幹	-9.44912
黙	-9.44924
只管	-9.44964
性情	-9.44966
萬世	-9.45065
有此	-9.45085
旅	-9.45092
耳目	-9.45113
戴	-9.45142
此章	-9.4523
匪	-9.45236
陶	-9.4526
政事	-9.45322
舒	-9.45346
隔	-9.45532
者不	-9.4566
三日	-9.45698
案	-9.45703
以明	-9.4584
赴	-9.45883
儒者	-9.45899
絲	-9.45958
氣之	-9.46041
潔	-9.46081
況	-9.46094
圓	-9.4612
穀	-9.46234
訪	-9.46311
疎	-9.46319
裁	-9.46324
知覺	-9.46347
裏	-9.4639
之臣	-9.4647
性命	-9.46622
奠	-9.46649
事之	-9.46698
境	-9.46766
嫁	-9.46788
兹	-9.46821
動靜	-9.46881
潛	-9.47143
教之	-9.47373
六經	-9.4746
悲	-9.47497
失之	-9.47697
者其	-9.477
呉	-9.4773
次第	-9.47765
眞	-9.47914
世之	-9.47943
之變	-9.47948
援	-9.47963
缺	-9.48031
奚	-9.48099
則知	-9.48111
遲	-9.48212
雍	-9.48236
治之	-9.48316
之志	-9.48336
者乎	-9.48349
髙祖	-9.48411
之妙	-9.48429
所為	-9.48432
見之	-9.48438
遜	-9.48467
六十	-9.4848
寺	-9.4852
糧	-9.48586
以後	-9.48603
有一	-9.48644
不識	-9.4866
誘	-9.4869
輒	-9.48887
推之	-9.4896
狂	-9.49006
步	-9.49016
然其	-9.49081
其徳	-9.49087
草木	-9.49295
段	-9.49364
基	-9.4963
惜	-9.49701
四十	-9.49764
洛	-9.49933
殺之	-9.49935
之位	-9.50011
未嘗不	-9.50071
攝	-9.50102
祖宗	-9.50148
其所以	-9.50206
觧	-9.50217
此事	-9.50286
好惡	-9.5031
之政	-9.50408
完	-9.50508
鎮	-9.50513
啟	-9.50622
策	-9.50627
契	-9.50632
性之	-9.50671
廬	-9.50706
融	-9.50765
弔	-9.50926
譏	-9.50947
不動	-9.50967
之罪	-9.51037
人事	-9.51041
也又曰	-9.51131
由是	-9.51268
不從	-9.51312
中間	-9.51334
紂	-9.51375
何如	-9.51428
豈非	-9.51466
可知	-9.51489
霸	-9.51534
之民	-9.51548
西銘	-9.51626
大事	-9.51657
淮	-9.51724
竭	-9.51756
藉	-9.51912
脚	-9.51973
第二	-9.51977
泥	-9.52016
祕曰	-9.52023
造化	-9.52064
神明	-9.52076
之職	-9.52087
一也	-9.52127
矢	-9.52197
郭	-9.52211
死生	-9.52254
饗	-9.52272
諱	-9.52289
之世	-9.52299
花	-9.52396
為本	-9.52409
秩	-9.52538
侈	-9.52542
去聲	-9.52558
桑	-9.52577
一切	-9.52605
因其	-9.5265
夕	-9.5271
之語	-9.52726
百里	-9.52731
輿	-9.52809
之術	-9.52829
未知	-9.52912
飯	-9.52919
皇帝	-9.53016
饑	-9.53047
何故	-9.53155
八卦	-9.53156
添	-9.53289
徙	-9.53325
亦然	-9.53333
判	-9.53356
之大	-9.53361
從之	-9.53384
伊尹	-9.53403
階	-9.53465
聘	-9.53513
兆	-9.53535
渠	-9.53632
不免	-9.53755
之極	-9.5377
該	-9.5378
殘	-9.53831
衆人	-9.53835
文武	-9.53872
閣	-9.53945
焚	-9.53962
壞	-9.53966
不息	-9.53969
一章	-9.53971
奸	-9.54075
學之	-9.54076
往往	-9.54152
不與	-9.54206
踰	-9.54238
之上	-9.5431
相與	-9.5437
池	-9.54371
阿	-9.54523
子之	-9.54538
晝夜	-9.54613
以待	-9.54757
豪	-9.54831
㸃	-9.55011
雄	-9.55011
晝	-9.55106
築	-9.55171
止於	-9.55309
付	-9.5534
宗廟	-9.55535
植	-9.55541
史記	-9.55607
随	-9.55628
稽	-9.5563
影	-9.55664
屢	-9.55666
明白	-9.55715
文帝	-9.55761
頌	-9.55833
十三	-9.55855
帝王	-9.55888
而非	-9.55938
俾	-9.55983
理㑹得	-9.56086
增	-9.56208
禽獸	-9.56238
亷	-9.56268
是如此	-9.56279
或有	-9.56323
以禮	-9.56333
虧	-9.56429
滋	-9.56581
不信	-9.56679
思之	-9.56682
文公	-9.56823
踐	-9.56952
活	-9.5699
斥	-9.57021
住	-9.57074
徧	-9.57191
始得	-9.57246
無事	-9.57348
辛	-9.57369
克己	-9.57392
盗	-9.57402
又如	-9.57409
為仁	-9.57668
互	-9.57743
秀	-9.57767
歛	-9.57859
磨	-9.57874
靣	-9.57967
錫	-9.58099
翼	-9.58137
含	-9.5817
凖	-9.58187
龜	-9.58193
艱	-9.58205
併	-9.58336
矣夫	-9.58368
冦	-9.58517
其他	-9.58549
快	-9.58606
悖	-9.58789
之始	-9.58861
曽子	-9.58909
誓	-9.59022
第一	-9.59192
欽	-9.59205
骨	-9.59219
肯	-9.59224
非是	-9.59258
桓公	-9.59274
茂	-9.59317
必以	-9.59338
枉	-9.59357
䟽	-9.59408
協	-9.59442
无咎	-9.59477
諸子	-9.59494
者又	-9.59505
其為	-9.59589
以道	-9.59592
先王之	-9.59639
以成	-9.59683
太后	-9.59731
天子之	-9.59807
戚	-9.59939
猶有	-9.59961
也言	-9.59967
不勝	-9.59968
一心	-9.59982
健	-9.60001
隋	-9.60017
小學	-9.60091
上帝	-9.60185
十年	-9.60201
驅	-9.60203
死者	-9.60255
寫	-9.60388
性也	-9.60439
遵	-9.6045
滯	-9.60544
銘	-9.60568
不已	-9.60589
孔氏	-9.60605
先後	-9.60612
削	-9.60675
體用	-9.6068
胥	-9.60696
幣	-9.60822
卓	-9.60893
吝	-9.60905
而生	-9.60943
丞相	-9.61
牽	-9.61021
者矣	-9.61054
諸公	-9.61204
於民	-9.61211
陋	-9.61212
萬事	-9.61217
院	-9.61242
用兵	-9.61418
人所	-9.61445
而今	-9.61457
之失	-9.61477
従	-9.61486
弓	-9.61508
頃	-9.6151
禘	-9.61538
亭	-9.6154
以正	-9.61612
之事也	-9.61668
之下	-9.61691
伊	-9.61853
本末	-9.61858
血	-9.61863
大人	-9.61865
奇	-9.61925
是謂	-9.62095
修身	-9.62199
諸儒	-9.62201
寜	-9.62219
之教	-9.6227
大小	-9.62276
廣大	-9.62372
庶幾	-9.6245
制度	-9.625
於上	-9.62528
凝	-9.62529
輸	-9.62618
謬	-9.62626
丈	-9.62641
抱	-9.62672
所得	-9.62728
二人	-9.62747
牲	-9.62756
只在	-9.62802
未至	-9.62813
亦非	-9.62883
其功	-9.62922
宏	-9.62955
者乃	-9.62964
題	-9.6302
彌	-9.63073
之禍	-9.63119
孚	-9.63129
忠恕	-9.633
貳	-9.63438
之詩	-9.63499
不曽	-9.63578
檢	-9.63594
算	-9.63631
鍾	-9.63643
屏	-9.63671
惟其	-9.63812
光曰	-9.63849
之前	-9.63863
些	-9.63879
奮	-9.6388
龜山	-9.63948
底意思	-9.63971
之序	-9.64163
襄	-9.64171
在下	-9.642
四海	-9.64258
昧	-9.64258
更無	-9.64354
康節	-9.64578
多少	-9.64589
寓	-9.64632
析	-9.64637
排	-9.64698
反覆	-9.64705
騎	-9.64705
於心	-9.64786
在外	-9.64835
敷	-9.64881
剛柔	-9.64886
事物	-9.649
之盛	-9.64916
遭	-9.64942
而反	-9.64944
歸於	-9.64961
一旦	-9.65009
裕	-9.65204
朋	-9.65224
溺	-9.65242
得失	-9.65271
此亦	-9.65359
佞	-9.65524
一書	-9.65585
宮	-9.65609
上蔡	-9.6566
力行	-9.6573
日用	-9.65735
鄭氏	-9.66099
思量	-9.66148
入於	-9.66228
一貫	-9.66279
魂	-9.6628
嫌	-9.66315
董	-9.66372
終日	-9.66447
也臣按	-9.66538
不通	-9.66582
兒	-9.66621
使其	-9.66639
之德	-9.66716
懲	-9.66814
之樂	-9.66842
皮	-9.66991
朱熹曰	-9.67017
脱	-9.67136
得以	-9.67185
乎曰	-9.67239
丹	-9.67254
無有	-9.67322
飬	-9.67387
貶	-9.6742
水火	-9.67446
法度	-9.67467
之至	-9.67506
之官	-9.67525
終始	-9.67529
俊	-9.6758
又何	-9.67685
觸	-9.67729
乏	-9.67732
㓜	-9.67776
而民	-9.67831
直是	-9.67888
一篇	-9.67901
之使	-9.68003
五年	-9.6801
萬民	-9.68027
山川	-9.68051
話	-9.68098
生物	-9.681
此則	-9.68118
方可	-9.68274
然亦	-9.68307
湖	-9.68373
在這裏	-9.68382
則民	-9.68583
陷	-9.68673
鑿	-9.68764
賣	-9.68777
輪	-9.688
羞	-9.6882
醫	-9.68902
萌	-9.68984
倒	-9.69061
前後	-9.69066
人之所	-9.69201
銖	-9.69332
其說	-9.69362
飢	-9.69383
貴賤	-9.69458
世子	-9.69476
近世	-9.69508
此書	-9.69509
以自	-9.69588
嘆	-9.69599
易之	-9.696
只有	-9.69748
莫非	-9.6986
徳之	-9.69877
戍	-9.69883
實理	-9.69908
蕭	-9.69946
盤	-9.69968
之日	-9.6999
三者	-9.70054
至矣	-9.70238
也蓋	-9.70244
諡	-9.70317
奈何	-9.70692
其氣	-9.70693
酌	-9.70741
四年	-9.70829
伍	-9.70902
恵	-9.70927
忿	-9.71066
矣此	-9.71096
未盡	-9.71105
其情	-9.71121
道者	-9.71174
有道	-9.71179
之内	-9.71283
秉	-9.71387
馳	-9.71392
練	-9.71421
屯	-9.71528
欠	-9.71625
受命	-9.71638
潤	-9.7165
裘	-9.7168
庶人	-9.71689
僧	-9.71794
欲以	-9.71795
不忘	-9.7182
戾	-9.71824
割	-9.71857
動而	-9.71873
韻	-9.71917
四者	-9.7216
賓	-9.72174
人倫	-9.72176
始終	-9.72267
之私	-9.72442
不受	-9.72501
沙	-9.7252
創	-9.72594
孝子	-9.72625
渾	-9.72632
只得	-9.72674
治天下	-9.72722
光明	-9.72777
言之則	-9.72784
邉	-9.72815
崩	-9.72832
乖	-9.72865
鄰	-9.72866
説話	-9.72921
不聞	-9.72928
天人	-9.73074
賴	-9.73116
故謂之	-9.73219
迷	-9.73241
未得	-9.73248
文集	-9.73358
無益	-9.73415
毒	-9.73566
講學	-9.73696
一字	-9.73708
捨	-9.7371
此等	-9.73727
無私	-9.73738
閑	-9.7377
以見	-9.73772
只要	-9.7382
是箇	-9.73827
所生	-9.73904
者謂	-9.73906
亮	-9.7391
戸	-9.74016
額	-9.74033
詣	-9.74045
事業	-9.74063
七十	-9.74071
鑒	-9.74079
曠	-9.7415
儲	-9.74165
亦自	-9.74186
寅	-9.74308
擬	-9.74308
為大	-9.74387
而知	-9.74556
畝	-9.74565
事事	-9.74676
從容	-9.74686
朝夕	-9.74765
尾	-9.74773
要之	-9.74816
致其	-9.74839
氏曰	-9.74862
單	-9.74887
蓄	-9.74982
一理	-9.75019
而立	-9.75049
王道	-9.75106
底道理	-9.75238
左傳	-9.75262
人才	-9.75309
尉	-9.75371
焉則	-9.75432
則亦	-9.75439
礙	-9.75473
所在	-9.75477
使民	-9.75512
何謂	-9.75566
惰	-9.75601
釐	-9.75689
乎此	-9.75709
雖是	-9.7571
發見	-9.75763
只為	-9.75764
彰	-9.75788
覽	-9.75816
哲	-9.75871
透	-9.75927
主於	-9.75943
教化	-9.76008
十一	-9.76081
之才	-9.76087
做工夫	-9.76126
其親	-9.76143
一二	-9.76166
亦未	-9.76258
恨	-9.7629
有二	-9.76334
其用	-9.76338
一身	-9.76349
確	-9.7647
在天	-9.76502
未見	-9.76556
冀	-9.7656
詩書	-9.76726
以告	-9.76845
之餘	-9.76849
禮之	-9.76852
曰然	-9.7691
上面	-9.76915
價	-9.76935
何為	-9.76966
謨	-9.77011
底人	-9.77081
濫	-9.77108
趣	-9.77128
仁也	-9.7714
蕃	-9.77164
監察御史	-9.77204
課	-9.77384
猛	-9.77403
属	-9.77407
呂	-9.77454
荆	-9.77468
妃	-9.77493
不去	-9.77526
一一	-9.77604
此説	-9.77623
長者	-9.77627
十八	-9.77677
無極	-9.77694
有常	-9.77701
又以	-9.77723
甚矣	-9.77774
一節	-9.77804
私欲	-9.77826
之勢	-9.77837
親切	-9.78045
為己	-9.78088
則雖	-9.78092
文義	-9.78152
寸	-9.78213
易曰	-9.78242
禀	-9.78248
之治	-9.7825
薛	-9.7827
其性	-9.78274
是他	-9.78281
所載	-9.78312
帛	-9.78343
徇	-9.78396
則不能	-9.78427
始於	-9.78457
在其中	-9.78499
之利	-9.78604
根本	-9.78643
子夏	-9.78668
整	-9.7869
混	-9.78715
沉	-9.78761
駕	-9.78762
渾然	-9.78903
之計	-9.78988
二子	-9.79052
左氏	-9.79062
矣而	-9.79137
午	-9.79158
於中	-9.79247
旱	-9.79249
壁	-9.79269
一家	-9.79279
而止	-9.7933
温公	-9.79387
刀	-9.79399
天地間	-9.79461
之難	-9.79548
俟	-9.79598
事也	-9.79696
非禮	-9.7971
束	-9.79742
環	-9.79743
本朝	-9.79835
受之	-9.79845
而復	-9.79852
獸	-9.79892
途	-9.79962
副	-9.80012
乙	-9.80069
不安	-9.80103
無可	-9.80122
頓	-9.80126
正是	-9.80194
須要	-9.80205
館	-9.80239
威儀	-9.80385
措	-9.80392
一年	-9.80446
馮	-9.8049
懸	-9.80524
是時	-9.80558
其民	-9.80572
様	-9.80632
司徒	-9.80658
洪	-9.80663
而死	-9.80681
下文	-9.80723
庻	-9.80727
溪	-9.80753
學校	-9.80826
不知其	-9.80913
謁	-9.80961
有罪	-9.81037
麻	-9.81083
雪	-9.81101
髙宗	-9.8119
不應	-9.81197
無形	-9.81211
者多	-9.81211
所欲	-9.81281
一體	-9.81312
之主	-9.8132
三公	-9.81526
廉	-9.81608
賛	-9.81634
宇	-9.81635
泣	-9.81652
苗	-9.81797
故君子	-9.81805
道夫	-9.8182
上文	-9.81888
姜	-9.81899
規模	-9.81979
義剛	-9.8204
在我	-9.82115
而不敢	-9.82119
踈	-9.82123
義也	-9.82156
安能	-9.82236
窺	-9.82303
墜	-9.82318
有三	-9.82366
己之	-9.82404
誥	-9.82421
以致	-9.82479
囚	-9.82639
愧	-9.8278
牢	-9.82796
黜	-9.82837
何必	-9.82846
冕	-9.82924
行事	-9.82926
不立	-9.8293
此皆	-9.82941
於君	-9.83104
眼	-9.83112
不食	-9.83128
遏	-9.83148
虐	-9.83167
弑	-9.83172
告子	-9.83212
荘	-9.83219
員	-9.83317
認	-9.83385
過於	-9.83405
如之何	-9.83489
之命	-9.83531
僭	-9.83547
輙	-9.8356
遍	-9.83603
集義	-9.83615
未可	-9.83681
以示	-9.83719
而天下	-9.83735
閔	-9.83748
弛	-9.83832
心之	-9.83933
非有	-9.83962
東坡	-9.83969
可為	-9.84012
匹	-9.8417
未有不	-9.84274
宗子	-9.84284
公曰	-9.84337
祗	-9.84356
自得	-9.84388
道徳	-9.8441
亦須	-9.84428
亟	-9.84445
督	-9.84469
南北	-9.84489
治亂	-9.84506
未及	-9.84572
括	-9.84614
狄	-9.84666
殺人	-9.84739
言也	-9.84751
懿	-9.8481
一言	-9.84843
禮也	-9.84855
故有	-9.84921
寶	-9.8495
理之	-9.84959
稅	-9.84959
童	-9.85033
匈奴	-9.85048
浸	-9.85107
天下之事	-9.85128
之至也	-9.85176
渉	-9.85252
極其	-9.85276
曉得	-9.85508
三百	-9.8551
者如	-9.85533
雖不	-9.85627
誨	-9.85678
則不可	-9.85696
迫	-9.85758
柄	-9.85787
下面	-9.85936
萬物之	-9.85953
臧	-9.85986
他日	-9.86036
謂其	-9.86083
則可	-9.86124
其家	-9.86128
聼	-9.86164
周之	-9.86172
逢	-9.86193
截	-9.86195
也如	-9.86227
寒暑	-9.86241
於下	-9.86342
競	-9.86346
十分	-9.86398
於内	-9.86447
視之	-9.86562
亦不可	-9.86586
料	-9.86748
圭	-9.86771
攸	-9.86772
若有	-9.86793
刑罰	-9.86794
打	-9.8689
形容	-9.86891
道心	-9.86982
洞	-9.87125
収	-9.87255
為君	-9.87309
守之	-9.8735
饒	-9.87398
盡其	-9.874
人臣	-9.87453
香	-9.87467
妨	-9.87573
準	-9.87591
四端	-9.87625
者是	-9.87695
宴	-9.87805
而欲	-9.87873
不止	-9.87905
往來	-9.8796
戲	-9.87998
七年	-9.88006
繩	-9.88148
韋	-9.88152
物事	-9.8817
皇后	-9.88181
之行	-9.88181
所能	-9.88187
脩身	-9.8832
歡	-9.88411
存養	-9.88499
不得已	-9.88501
珠	-9.88502
戰國	-9.88505
暑	-9.88549
知者	-9.88652
其體	-9.88779
在内	-9.88802
九二	-9.88839
甞	-9.8885
不須	-9.88869
盡心	-9.88884
峻	-9.88893
恣	-9.88922
賢人	-9.88968
正月	-9.88998
周官	-9.89028
卜筮	-9.89095
更不	-9.891
所行	-9.89109
奢	-9.89213
攷	-9.89232
頒	-9.89272
裏面	-9.89301
其勢	-9.89317
若此	-9.89416
不要	-9.89435
之家	-9.89457
太平	-9.89479
歸之	-9.8951
大槩	-9.89599
將去	-9.89658
恱	-9.8986
其位	-9.89896
到得	-9.8991
也故曰	-9.89915
自此	-9.89951
理也	-9.89986
無間	-9.89994
應之	-9.89996
緣	-9.90026
荀	-9.90031
其初	-9.90044
平生	-9.90064
廷	-9.90078
邇	-9.90128
伏羲	-9.90151
枝	-9.90167
都不	-9.9018
祈	-9.90219
地位	-9.90333
探	-9.90352
仇	-9.9038
而得	-9.90383
耗	-9.90443
衣服	-9.90472
而自	-9.90604
地之	-9.90619
而為之	-9.90672
為先	-9.90741
敝	-9.90814
墮	-9.90985
無他	-9.91046
租	-9.91068
則曰	-9.91109
百年	-9.91292
亦只是	-9.91295
損益	-9.91307
省察	-9.91323
侮	-9.91357
而出	-9.91371
之善	-9.91388
所論	-9.91396
在乎	-9.91613
則非	-9.91626
諸侯之	-9.91627
而實	-9.91694
誕	-9.91719
界	-9.91732
起於	-9.91772
物也	-9.91775
不求	-9.91791
諸生	-9.91794
已發	-9.91822
粹	-9.91868
隙	-9.91925
神宗	-9.91925
季氏	-9.91942
若夫	-9.91942
何所	-9.91995
是為	-9.92013
公卿	-9.9206
本無	-9.92155
陽氣	-9.92155
翁	-9.9222
好學	-9.92246
井田	-9.92306
)○	-9.92322
張預曰	-9.92331
程先生	-9.92375
御史	-9.9241
克己復禮	-9.92412
則能	-9.92462
衣食	-9.92596
戮	-9.92617
孝經	-9.92777
祔	-9.928
飽	-9.92811
僻	-9.92883
天性	-9.92905
亦當	-9.92908
際	-9.92965
以前	-9.92982
其罪	-9.93012
其次	-9.93141
九五	-9.93164
姬	-9.93196
範	-9.93214
一向	-9.93225
醉	-9.93236
第三	-9.9342
拒	-9.93426
停	-9.93427
暮	-9.93434
當以	-9.93448
挾	-9.93451
然也	-9.93461
不能無	-9.93495
此處	-9.93513
養之	-9.93567
必欲	-9.93608
然後能	-9.93649
夷狄	-9.9372
奥	-9.93797
逺矣	-9.93814
而致	-9.93921
有過	-9.93968
之方	-9.93968
善者	-9.93987
告之	-9.94006
天地萬物	-9.94028
之義也	-9.94051
也然則	-9.94125
局	-9.94183
貸	-9.94193
擅	-9.94227
求其	-9.94234
六月	-9.94243
三分	-9.94281
可乎	-9.94329
明日	-9.9448
聖人之道	-9.94492
於是乎	-9.94536
不許	-9.94564
若無	-9.94589
辦	-9.94601
九年	-9.94602
編修	-9.94629
以至於	-9.94638
血氣	-9.94793
與其	-9.94833
低	-9.94959
却不	-9.94965
旬	-9.94975
跡	-9.95001
是就	-9.95033
用功	-9.95036
而行之	-9.95061
禽	-9.95105
阻	-9.95176
壇	-9.95204
或以	-9.95219
其辭	-9.9522
女子	-9.95233
脫	-9.95238
去其	-9.95272
娶	-9.95342
不肖	-9.95363
其能	-9.95378
成就	-9.95405
不得不	-9.95414
讒	-9.9555
船	-9.95615
將軍	-9.95619
豈能	-9.95644
文王之	-9.95684
聰	-9.95736
不敬	-9.95786
毅	-9.95797
於道	-9.95803
於己	-9.95832
靖	-9.95856
洽	-9.95954
如此説	-9.95968
園	-9.95986
至今	-9.96033
分曉	-9.96095
場	-9.96125
此所謂	-9.96142
親親	-9.96148
洪範	-9.96182
大率	-9.96294
庚	-9.96336
一分	-9.96341
存心	-9.96352
為治	-9.96358
自記	-9.96367
詭	-9.96397
者所以	-9.96411
至善	-9.96494
莊子	-9.96502
臣良勝曰	-9.96555
有不	-9.96565
逮	-9.96572
者何	-9.96577
塵	-9.96618
恭敬	-9.9664
腹	-9.96699
人道	-9.96731
揖	-9.96731
棺	-9.9679
不幸	-9.96864
之門	-9.96888
之風	-9.96945
覺得	-9.96951
夭	-9.96976
人人	-9.96978
性善	-9.97036
儀禮	-9.97165
匡	-9.9722
之本也	-9.97267
彦	-9.97303
印	-9.97362
莒	-9.97386
黒	-9.97413
十四	-9.97415
人能	-9.97455
晏	-9.97457
之端	-9.9746
亥	-9.97504
若以	-9.97516
愛之	-9.97522
雖欲	-9.97557
覩	-9.97562
此又	-9.97585
䕶	-9.976
不可得而	-9.97677
皆可	-9.9771
騐	-9.97776
繹	-9.97784
勲	-9.97784
太學	-9.97793
莫能	-9.97887
之别	-9.97911
然後可以	-9.97919
可以為	-9.97919
君子以	-9.97922
以義	-9.98028
光武	-9.98071
得人	-9.98137
其父	-9.98156
藩	-9.98164
汙	-9.98177
□	-9.98205
緒	-9.98257
湏是	-9.98335
死而	-9.98375
佳	-9.98381
耻	-9.98388
熱	-9.98398
採	-9.9841
得他	-9.98419
之賢	-9.98478
十七	-9.98511
遺書	-9.98571
乎其	-9.98626
溝	-9.9877
之美	-9.98785
閏	-9.98802
蹇	-9.98828
王制	-9.98834
王氏	-9.98889
狹	-9.98921
用心	-9.98958
小大	-9.99018
禱	-9.99019
剥	-9.99024
諸家	-9.99026
而歸	-9.99058
便自	-9.99072
以上語	-9.99084
日新	-9.99144
羙	-9.99191
捕	-9.99202
箴	-9.99367
贈	-9.9938
勵	-9.99413
溢	-9.99422
曰我	-9.99422
凡事	-9.99431
孔孟	-9.99432
本於	-9.99455
鄧	-9.99466
蹈	-9.99548
暢	-9.99595
桀	-9.9962
王之	-9.99773
吾之	-9.99855
南軒	-9.99875
前日	-9.9988
頑	-10.0002
鼔	-10.0004
子細	-10.0005
貧賤	-10.0006
其國	-10.001
嗟	-10.0012
畢竟	-10.0021
繆	-10.0021
施之	-10.0024
亦以	-10.0025
風雨	-10.0032
其名	-10.0034
伯夷	-10.0035
之病	-10.0056
道義	-10.007
也哉	-10.0071
這裏	-10.0083
髪	-10.0084
愛人	-10.0095
考之	-10.0099
命也	-10.0099
閭	-10.0103
般	-10.0104
自謂	-10.0105
臯陶	-10.0119
之末	-10.0126
有事	-10.0133
大段	-10.014
你	-10.014
者以其	-10.0143
只是一箇	-10.0144
主宰	-10.0145
章句	-10.0146
不齊	-10.0148
澄	-10.015
弼	-10.0151
當然	-10.0154
妻子	-10.0158
裳	-10.0161
成功	-10.0163
潮	-10.0169
譬	-10.0186
故以	-10.0188
黑	-10.0189
方得	-10.0194
無一	-10.0197
這般	-10.0198
安排	-10.0198
傳之	-10.0198
喫	-10.0204
元亨利貞	-10.021
中和	-10.0213
也是故	-10.0213
仁宗	-10.0217
識得	-10.0226
漏	-10.0231
不如此	-10.0235
灌	-10.0236
無復	-10.0237
以養	-10.0243
也子曰	-10.0243
超	-10.0244
是如何	-10.0246
其文	-10.0255
合於	-10.0255
也又	-10.0258
晚	-10.0263
咨	-10.0271
禮者	-10.0271
六年	-10.0271
丞	-10.0274
其有	-10.0276
非謂	-10.0277
人者	-10.0281
方能	-10.0286
晏子	-10.0288
父母之	-10.0291
用人	-10.0296
知所	-10.03
命之	-10.0303
此其	-10.0304
父兄	-10.0313
瞻	-10.0315
只説	-10.0319
之所在	-10.0321
猶言	-10.0327
蒲	-10.0332
不入	-10.0338
鹿	-10.0341
邵	-10.0343
杞	-10.0345
行也	-10.0346
所作	-10.0349
區	-10.0357
皆然	-10.0365
逺近	-10.0366
而求	-10.0369
惻隠	-10.037
竇	-10.0379
莫是	-10.0382
之㫖	-10.0384
三代之	-10.0396
行而	-10.0399
冬至	-10.0401
盧	-10.0407
又言	-10.0408
與他	-10.0409
氷	-10.0419
得一	-10.042
潜	-10.0422
讎	-10.0423
冒	-10.0424
闇	-10.0425
此乃	-10.0425
太守	-10.0425
之節	-10.0428
可行	-10.0432
之爲	-10.0434
者蓋	-10.0443
之正	-10.0445
巫	-10.0448
麥	-10.0451
看來	-10.0465
東西	-10.0481
則當	-10.0484
此所以	-10.0485
存乎	-10.0487
嫡	-10.049
大綱	-10.0491
賞罰	-10.0491
於世	-10.0494
家人	-10.05
之過	-10.05
言者	-10.0503
徳行	-10.0504
岐	-10.0506
黃	-10.0508
又不	-10.0524
吕氏	-10.0524
書之	-10.0526
全體	-10.0528
西北	-10.0528
僣	-10.0529
暇	-10.053
拂	-10.053
清明	-10.054
太虚	-10.0545
與夫	-10.0545
宣王	-10.0549
顔淵	-10.0552
封建	-10.0556
泛	-10.056
藴	-10.0564
太公	-10.0567
書云	-10.0579
是知	-10.058
曷	-10.0585
子産	-10.0589
㳺	-10.0593
身心	-10.0595
數十	-10.0598
不可以不	-10.0604
性者	-10.0611
返	-10.062
東南	-10.0626
卿大夫	-10.0629
十月	-10.063
又謂	-10.063
惡之	-10.0631
此說	-10.0631
湯武	-10.0635
燭	-10.0636
茅	-10.064
如人	-10.0642
貫通	-10.0644
而未	-10.0645
可見矣	-10.0649
功夫	-10.0656
通書	-10.0661
貽	-10.0663
所用	-10.0664
有此理	-10.0665
飲酒	-10.0668
其始	-10.0677
其法	-10.0683
侍郎	-10.0686
鑑	-10.0693
祐	-10.0702
播	-10.0703
覇	-10.071
上有	-10.0711
之機	-10.0715
大體	-10.0721
胡氏	-10.0726
黍	-10.0727
圗	-10.0728
隅	-10.073
疆	-10.0731
状	-10.0731
周易	-10.0732
本原	-10.0733
可畏	-10.0735
睦	-10.0742
不暇	-10.0744
有人	-10.0747
這道理	-10.0749
畔	-10.0751
醇	-10.0751
精微	-10.0753
底事	-10.0756
狐	-10.0756
儘	-10.0757
聖門	-10.0758
未免	-10.0766
黄帝	-10.0767
氣禀	-10.077
憚	-10.0771
誼	-10.0774
不變	-10.078
一條	-10.0783
聖人之心	-10.0791
人自	-10.0798
文學	-10.0799
大本	-10.0808
不至於	-10.081
也君子	-10.081
實有	-10.0813
弦	-10.0815
可不	-10.0819
炎	-10.082
世俗	-10.0821
外面	-10.0825
或謂	-10.0826
也葢	-10.0826
祫	-10.0829
也凡	-10.0832
人以	-10.0833
冊	-10.0837
妖	-10.084
善而	-10.0843
宥	-10.0843
録云	-10.0844
不由	-10.0845
不惟	-10.0848
𨽻	-10.0857
媚	-10.0857
譬之	-10.0864
梅堯臣曰	-10.0869
也盖	-10.087
則可以	-10.0872
有定	-10.0878
也非	-10.0878
其弊	-10.0879
所云	-10.0879
乂	-10.0884
不違	-10.0884
涉	-10.0885
方始	-10.0886
夾	-10.0891
無過	-10.0904
牙	-10.0908
都無	-10.0911
無異	-10.0915
有言	-10.0918
二十四	-10.092
紛	-10.0924
本義	-10.093
事天	-10.0945
可得而	-10.0945
不能自	-10.0948
吴	-10.0949
旌	-10.095
大義	-10.0953
為義	-10.0954
坊	-10.0955
從而	-10.0963
子厚	-10.0969
學士	-10.0973
繫辭	-10.0974
唐太宗	-10.0981
傑	-10.0986
何處	-10.0989
硬	-10.0991
猶未	-10.0992
者即	-10.0994
是理	-10.0994
吾儒	-10.0996
之效	-10.1001
不義	-10.1008
𦵏	-10.1013
闊	-10.1015
庫	-10.102
佚	-10.1021
珍	-10.1022
自己	-10.1025
公孫	-10.1028
時便	-10.1028
人多	-10.105
隨時	-10.1053
○/	-10.1058
舜之	-10.1059
各自	-10.1061
慾	-10.1063
汚	-10.1063
一陽	-10.1064
之可	-10.1067
訴	-10.1067
崔	-10.1075
後来	-10.1078
尊卑	-10.1084
漸漸	-10.1094
二程	-10.1095
盡性	-10.1107
裂	-10.1115
知言	-10.1125
糴	-10.1126
頼	-10.1135
能知	-10.1137
詩人	-10.1143
而用之	-10.1147
弄	-10.1159
嬰	-10.1162
琴	-10.1162
徽	-10.117
能盡	-10.1178
板	-10.1182
嚮	-10.1185
之異	-10.1186
故云	-10.1188
膳	-10.1202
銅	-10.1203
汪	-10.1203
於前	-10.1204
寃	-10.1204
既有	-10.1205
溫	-10.1207
則心	-10.121
其上	-10.1215
其母	-10.1224
法也	-10.1226
到此	-10.1228
初無	-10.1228
氣也	-10.1233
倡	-10.1234
一曰	-10.1238
又却	-10.124
尚有	-10.1242
凡人	-10.1259
而弗	-10.1267
體之	-10.1275
巨	-10.1295
存亡	-10.1299
不使	-10.13
二百	-10.1306
愚謂	-10.1307
體認	-10.1313
伊川曰	-10.1313
稱其	-10.1314
傲	-10.1324
不自	-10.1328
有無	-10.1329
膏	-10.1344
髙明	-10.1348
者也故	-10.1348
於其	-10.1352
禍福	-10.1356
人生	-10.1358
正心	-10.1364
故為	-10.1365
蠶	-10.1371
鐘	-10.1374
者固	-10.1384
紫	-10.1391
拙	-10.1394
邾	-10.1397
不疑	-10.1405
可學	-10.1407
其書	-10.1409
是心	-10.141
祖考	-10.1413
韶	-10.1413
也是以	-10.1415
士卒	-10.1423
次序	-10.1425
宫室	-10.143
升降	-10.1431
鑄	-10.1435
朴	-10.1436
不死	-10.1439
聖王	-10.1441
退而	-10.1444
咸曰	-10.1446
不測	-10.145
已有	-10.145
說話	-10.1452
如是則	-10.1454
鈔	-10.1454
相應	-10.1458
於我	-10.146
吾心	-10.1462
繇	-10.1465
也惟	-10.1466
自欺	-10.1466
所知	-10.1476
之所為	-10.1486
旗	-10.1486
郡縣	-10.1489
尋常	-10.1495
程氏	-10.1498
莫若	-10.1505
攘	-10.1507
隂陽之	-10.151
士之	-10.151
孔門	-10.1511
噫	-10.1512
至是	-10.1513
躬行	-10.1514
察其	-10.1516
之害	-10.152
不亦	-10.1524
則謂之	-10.1524
善人	-10.1528
大意	-10.1529
正如	-10.1531
丑	-10.1533
遁	-10.1538
治道	-10.154
孟子言	-10.1551
少間	-10.1551
竊謂	-10.1551
穿	-10.1558
不學	-10.1562
蠱	-10.1563
不惑	-10.1567
舅姑	-10.1568
間斷	-10.1573
絃	-10.1579
乎天	-10.158
用其	-10.1582
大凡	-10.1583
何哉	-10.1585
為天下	-10.1585
仙	-10.159
章問	-10.1597
可知矣	-10.1604
者雖	-10.161
形體	-10.1621
佛氏	-10.1628
簿	-10.1628
展	-10.1631
九月	-10.1631
樓	-10.1633
撓	-10.1635
氣質之性	-10.1636
一件	-10.1638
長短	-10.1643
相反	-10.1643
用也	-10.1645
祭之	-10.1655
褒	-10.1655
依舊	-10.1655
臨事	-10.1662
四象	-10.1662
銀	-10.1665
不誠	-10.1671
犬	-10.1676
雉	-10.1678
殯	-10.168
冝	-10.168
躁	-10.1682
漢唐	-10.1686
集註	-10.1695
燾	-10.1698
噐	-10.17
蟲	-10.17
愼	-10.1704
帝曰	-10.1705
滛	-10.1706
之權	-10.1708
問曰	-10.1708
又是	-10.1709
水之	-10.1714
一邊	-10.1716
績	-10.1724
瀆	-10.1724
迭	-10.1729
知人	-10.1729
迂	-10.1729
匿	-10.1733
畆	-10.1742
八年	-10.1746
仁之	-10.1762
發於	-10.1765
多矣	-10.1766
不孝	-10.1772
天地之心	-10.1772
波	-10.1774
偃	-10.1778
明徳	-10.1781
邦國	-10.1788
不然則	-10.1788
是亦	-10.1796
則自	-10.1797
撥	-10.1806
人心之	-10.1807
堪	-10.1814
六二	-10.1822
稟	-10.1828
下同	-10.1832
受其	-10.1839
天下之大	-10.1839
毫	-10.1845
言性	-10.1847
寡人	-10.1848
淑	-10.1854
自以為	-10.1856
浩	-10.1861
淡	-10.1865
土地	-10.1868
河南	-10.1872
染	-10.1873
者哉	-10.1878
軌	-10.1879
一本	-10.188
九三	-10.1889
彭	-10.1895
換	-10.19
不察	-10.1902
黎	-10.1907
紀綱	-10.1907
方其	-10.1908
博士	-10.1914
漢儒	-10.1915
父之	-10.1919
亦可以	-10.1921
如何是	-10.1922
手足	-10.1923
件	-10.1925
像	-10.1925
樸	-10.1925
遯	-10.1926
亦曰	-10.1926
黄鍾	-10.1927
其行	-10.1931
久之	-10.1934
雖然	-10.1938
非聖人	-10.1943
所以能	-10.1943
技	-10.1955
處便	-10.1955
便不是	-10.1959
男子	-10.1966
之力	-10.1968
詢	-10.1971
旨	-10.1975
枯	-10.1977
戒之	-10.1979
其可	-10.1981
倦	-10.1983
虜	-10.1986
久矣	-10.1996
舅	-10.2
第十	-10.2
莽	-10.2004
臣下	-10.2006
主一	-10.2007
莫大於	-10.201
讀之	-10.2017
天徳	-10.2019
諸人	-10.202
憤	-10.2022
樂之	-10.2022
堯夫	-10.2023
循環	-10.2023
綏	-10.2023
獵	-10.2024
偷	-10.2026
普	-10.2027
為惡	-10.2028
上九	-10.2034
故聖人	-10.2039
故不	-10.2041
此詩	-10.2042
去之	-10.2043
生意	-10.2051
以生	-10.2058
荆公	-10.2061
所聞	-10.2071
丙	-10.208
后稷	-10.2083
鏡	-10.2085
時舉	-10.2089
讐	-10.209
揆	-10.2098
不改	-10.2099
聖學	-10.2099
祧	-10.2101
之宜	-10.2102
斛	-10.2104
州郡	-10.2122
其職	-10.2123
織	-10.2126
牆	-10.2127
皆在	-10.2133
洗	-10.2133
所宜	-10.2138
詠	-10.2143
有許多	-10.2149
䕫	-10.215
亦不能	-10.215
此之謂	-10.2151
抗	-10.2154
屈伸	-10.2156
䏻	-10.2157
筭	-10.216
蒼	-10.216
事而	-10.2168
理會	-10.2168
不獨	-10.2174
筮	-10.2176
瑞	-10.2176
多是	-10.2177
悅	-10.2179
無疑	-10.2182
水旱	-10.2192
不逺	-10.2196
常存	-10.22
此篇	-10.2201
者盖	-10.2211
為能	-10.2211
聞見	-10.2216
公羊	-10.223
躍	-10.2231
沮	-10.2232
敬則	-10.2234
者惟	-10.2235
以身	-10.2236
之精	-10.2249
無二	-10.225
齊侯	-10.226
而至於	-10.2263
掠	-10.2267
昔者	-10.2268
大功	-10.227
相對	-10.2273
不和	-10.2281
二曰	-10.2283
由此	-10.2284
於理	-10.2285
善則	-10.2287
不覺	-10.2288
八十	-10.2292
五月	-10.2294
相去	-10.2296
不能盡	-10.2296
栁	-10.231
賂	-10.2312
可與	-10.2319
荀子	-10.2323
八月	-10.2328
鼻	-10.233
征伐	-10.2331
只就	-10.2336
皇極	-10.2341
只是要	-10.2343
未聞	-10.2343
二十五	-10.2344
道路	-10.2347
了又	-10.2349
因言	-10.236
近於	-10.2361
謗	-10.2361
正則	-10.2362
五百	-10.2367
之具	-10.2368
言行	-10.2368
知道	-10.2368
以利	-10.237
明矣	-10.2373
軰	-10.2374
官司	-10.2378
格物致知	-10.2381
資質	-10.2382
此便是	-10.2383
其下	-10.2383
治國	-10.2385
巡	-10.2388
愆	-10.2389
而言之	-10.2393
當初	-10.2401
家之	-10.2403
髙下	-10.2405
吹	-10.2409
薪	-10.241
飭	-10.2413
睿	-10.2413
反復	-10.2414
肥	-10.2421
非其	-10.243
六五	-10.2434
跪	-10.2435
囘	-10.2437
槩	-10.2438
生而	-10.2439
爽	-10.2439
佩	-10.2439
任之	-10.2439
一作	-10.2443
朱熹	-10.2446
一等	-10.2457
心也	-10.2458
常人	-10.246
縮	-10.2464
輯	-10.2467
二句	-10.2467
十九	-10.2467
區區	-10.2468
賁	-10.2468
而動	-10.2469
㫁	-10.247
知此	-10.2474
以及	-10.2474
之長	-10.2475
寂	-10.2477
長安	-10.2478
三十二	-10.2479
僚	-10.2481
紙	-10.2482
也且	-10.2487
玩味	-10.2491
葛	-10.2493
必須	-10.2497
甚多	-10.2505
人亦	-10.2508
更有	-10.2513
孔子之	-10.2513
其德	-10.2514
酉	-10.2517
知也	-10.2518
一月	-10.2529
精粗	-10.2529
食之	-10.2534
之辨	-10.2535
人為	-10.2535
召公	-10.2535
亦必	-10.2539
馭	-10.2539
王曰	-10.254
表裏	-10.2541
杜牧曰	-10.2542
皆不	-10.2543
驟	-10.2547
三曰	-10.2549
鄉黨	-10.2549
博學	-10.2553
愛民	-10.2559
與天地	-10.2559
盜賊	-10.2561
若能	-10.2567
帖	-10.2568
皆當	-10.2576
此段謂	-10.2583
淺深	-10.2584
一念	-10.2586
怕	-10.2594
苖	-10.2594
袁	-10.2597
禾	-10.2601
醜	-10.2603
催	-10.2603
監司	-10.2605
便要	-10.2608
無道	-10.2608
㝢	-10.2617
忠臣	-10.2622
流於	-10.2622
而後有	-10.2627
於事	-10.2633
曰天	-10.2635
之資	-10.2639
民者	-10.2645
小人之	-10.2645
是仁	-10.2647
巖	-10.265
傍	-10.265
臭	-10.2652
吁	-10.2653
糾	-10.2654
贖	-10.2656
邪正	-10.2658
亦何	-10.2663
敬也	-10.2663
氏之	-10.2666
無心	-10.267
不備	-10.267
不妨	-10.2672
饋	-10.2672
者當	-10.2672
民間	-10.2675
訖	-10.2677
蒸	-10.2679
薨	-10.2683
興起	-10.2685
箕子	-10.2685
若只	-10.2686
天下無	-10.269
世間	-10.2692
喜怒哀樂	-10.2693
三人	-10.2693
天下之理	-10.2694
而無所	-10.2697
將來	-10.2701
萃	-10.2702
語録	-10.2702
之衆	-10.2705
持敬	-10.2705
西南	-10.2712
其地	-10.2712
物而	-10.2717
終不	-10.2718
兩句	-10.2718
今世	-10.2725
叚	-10.2726
相見	-10.2727
也聖人	-10.2728
之常	-10.2729
其學	-10.2732
之戒	-10.2746
晩	-10.2751
是説	-10.2752
生生	-10.2759
三軍	-10.2759
晦庵	-10.2763
僖	-10.2764
不可為	-10.2765
恐其	-10.2765
前代	-10.2766
本意	-10.2766
便見	-10.277
喜怒	-10.2773
後面	-10.2775
生者	-10.2781
矣又	-10.2786
三十六	-10.2788
賔客	-10.2789
徳者	-10.2797
此之謂也	-10.28
孟子所謂	-10.2801
别有	-10.2806
非獨	-10.281
姚	-10.2815
璧	-10.2817
劉氏	-10.2834
以立	-10.2835
耦	-10.2835
軒	-10.2837
委曲	-10.284
鄒	-10.2842
鴻	-10.2842
漁	-10.2845
親之	-10.2855
注云	-10.2856
及至	-10.2865
規矩	-10.2866
民心	-10.2866
替	-10.2868
人不	-10.2873
漢書	-10.288
去做	-10.2883
遂以	-10.2884
十一月	-10.2885
道而	-10.2886
乃能	-10.2888
不可勝	-10.2893
詰	-10.2893
俸	-10.2896
有些	-10.2905
及於	-10.2906
不顧	-10.2908
者謂之	-10.2912
一處	-10.2913
兩端	-10.292
察之	-10.2924
施於	-10.2928
立志	-10.2929
進士	-10.2934
襄公	-10.2935
於物	-10.2946
固已	-10.2947
瞽	-10.295
之大者	-10.2952
自為	-10.2953
楊氏	-10.2953
處事	-10.2954
邵子	-10.2966
身上	-10.2967
胸中	-10.2968
乾之	-10.2971
甚好	-10.2972
僖公	-10.2973
科舉	-10.2974
道體	-10.2976
外物	-10.2976
蠲	-10.2978
不宜	-10.2979
聖祖	-10.2983
在位	-10.2992
聖人之言	-10.2995
上説	-10.2997
必待	-10.3
曰子	-10.3001
君子小人	-10.3006
雞	-10.3006
人君之	-10.3008
而不得	-10.3009
夫子之	-10.3015
以行	-10.3018
天也	-10.3022
七月	-10.3028
李筌曰	-10.3033
漫	-10.3034
昭公	-10.3036
也至於	-10.3036
綴	-10.3037
本心	-10.3047
有大	-10.3049
紹	-10.3049
皆非	-10.305
不離	-10.3051
生民	-10.3052
不中	-10.3057
苛	-10.306
稷	-10.306
平易	-10.3061
仲弓	-10.3062
於朝	-10.3067
元祐	-10.3069
逼	-10.3069
顛	-10.3082
莫如	-10.3086
因問	-10.309
不服	-10.309
轍	-10.3091
閲	-10.3092
明年	-10.3094
而卒	-10.3094
此道	-10.3097
變易	-10.3109
智者	-10.3114
壻	-10.3114
之師	-10.3115
暫	-10.3119
天地之間	-10.312
行者	-10.3122
曰夫	-10.3126
以備	-10.3134
一生	-10.3135
菜	-10.3143
需	-10.3144
刃	-10.3148
奴	-10.3148
其時	-10.3149
之國	-10.3155
此類	-10.3164
正直	-10.3168
施行	-10.3169
處如	-10.3171
論之	-10.3171
艾	-10.3178
周公之	-10.3183
聖賢之	-10.3188
之源	-10.3189
其才	-10.3194
所由	-10.3197
文子	-10.3199
而不為	-10.3201
司空	-10.3203
便不	-10.3204
其一	-10.3208
太和	-10.3209
賢才	-10.3211
為陽	-10.3212
煞	-10.3213
出来	-10.3214
從此	-10.3216
高祖	-10.3217
涵	-10.3224
賑	-10.3227
熙	-10.3227
些子	-10.3229
諒	-10.3232
值	-10.3232
天下國家	-10.3234
魏公	-10.324
兩儀	-10.3243
經文	-10.3244
清濁	-10.3247
熊	-10.3253
為民	-10.3258
萬一	-10.3261
義者	-10.3262
不窮	-10.3262
烝	-10.3266
存焉	-10.327
心不	-10.328
變而	-10.3285
勅	-10.3288
鈞	-10.3289
慰	-10.329
至如	-10.329
穴	-10.3291
太極圖	-10.3292
惟恐	-10.3292
三王	-10.3293
之流	-10.3294
嘗言	-10.3294
中道	-10.3301
正而	-10.3311
甸	-10.3314
刋	-10.3315
酬	-10.3318
乎哉	-10.3319
貼	-10.3331
之不可	-10.3336
矣若	-10.3336
帝王之	-10.3341
俯	-10.3342
以治	-10.3344
漕	-10.3345
卧	-10.3345
蘭	-10.3345
紅	-10.3347
處之	-10.3348
敖	-10.335
乃可	-10.3352
阜	-10.3353
無常	-10.3356
求諸	-10.336
知至	-10.3363
考其	-10.3364
於身	-10.3365
不甚	-10.3366
潘	-10.3373
與我	-10.3374
人傑	-10.3375
而去	-10.3378
綱紀	-10.3381
所記	-10.3384
勉强	-10.3386
巾	-10.3398
中節	-10.3403
劒	-10.3408
皆為	-10.3409
信之	-10.3411
曰君	-10.3413
亦多	-10.3415
天下之人	-10.3415
亦猶	-10.3418
天下事	-10.3419
財用	-10.3423
主之	-10.3423
大道	-10.3424
橋	-10.3432
茶	-10.3434
抵	-10.3434
托	-10.3434
有徳	-10.3436
中也	-10.3442
九四	-10.3446
大矣	-10.3448
域	-10.3449
姤	-10.3457
屨	-10.3458
而發	-10.3462
榜	-10.3464
其利	-10.3466
一嵗	-10.3466
是要	-10.3474
化之	-10.3475
㢘	-10.3487
陣	-10.3489
减	-10.3491
祚	-10.3491
一氣	-10.3493
柱	-10.3493
其數	-10.3497
也但	-10.3503
何不	-10.3504
那裏	-10.3507
本是	-10.3509
孔明	-10.3512
消長	-10.3514
之憂	-10.3516
廹	-10.3517
陳氏	-10.3518
網	-10.3519
之微	-10.3521
義之	-10.3522
距	-10.3524
何事	-10.3525
專以	-10.3528
已是	-10.3528
人之性	-10.3528
其生	-10.353
昨	-10.3532
前輩	-10.3543
言仁	-10.3543
汎	-10.3549
竝	-10.3551
盛徳	-10.3552
巢	-10.3558
講論	-10.3559
衣冠	-10.3563
將以	-10.3563
我之	-10.357
於其間	-10.3572
不思	-10.3572
河圖	-10.3573
條理	-10.3575
月令	-10.3578
使者	-10.3584
而入	-10.3584
為國	-10.3586
異於	-10.3586
方有	-10.3588
不特	-10.3591
這便是	-10.3605
斧	-10.3607
恐懼	-10.3608
製	-10.3609
不可曉	-10.3614
臣若水通曰此	-10.3618
消息	-10.3621
可用	-10.3624
和平	-10.3633
得箇	-10.3634
五聲	-10.3637
比之	-10.3638
恪	-10.364
罵	-10.3641
山林	-10.3642
層	-10.3644
唱	-10.3647
著力	-10.3651
公私	-10.3652
凡有	-10.3655
養氣	-10.3658
無人	-10.3659
濓溪	-10.3661
浩然之氣	-10.3662
易傳	-10.3667
莊公	-10.3668
次之	-10.3668
渙	-10.3669
壤	-10.3669
日月星辰	-10.367
駭	-10.3671
子張	-10.3672
亢	-10.3672
賈誼	-10.3673
而言則	-10.3678
刺史	-10.3682
以俟	-10.3683
之迹	-10.3687
為上	-10.369
脉	-10.369
濶	-10.3692
明堂	-10.3693
巷	-10.3696
本文	-10.3697
恬	-10.3698
障	-10.3699
晨	-10.3701
者葢	-10.3702
㧞	-10.3702
老氏	-10.3706
但以	-10.3709
否曰然	-10.3715
這是	-10.372
曾㸃	-10.3726
矣今	-10.3726
斤	-10.3728
甚麽	-10.3731
兩字	-10.3735
必不	-10.3736
三千	-10.3743
可觀	-10.3746
厚薄	-10.3747
集注	-10.375
主敬	-10.375
一時之	-10.376
能使	-10.377
䧟	-10.3774
之任	-10.3778
非特	-10.3781
之神	-10.3786
滕	-10.3787
匠	-10.3787
官吏	-10.3796
測	-10.3796
個	-10.3801
為性	-10.3803
宦官	-10.3808
艱難	-10.3809
駁	-10.3811
何其	-10.3812
膠	-10.3817
程朱	-10.3818
冗	-10.3818
稼	-10.382
大雅	-10.3821
叅	-10.3823
國人	-10.3823
舉其	-10.3827
堯舜之	-10.383
曰君子	-10.3843
浪	-10.3844
蔵	-10.3845
不順	-10.3848
不問	-10.3849
閱	-10.3851
誠敬	-10.3855
以事	-10.3856
所及	-10.3856
為心	-10.3857
安於	-10.3858
數年	-10.3864
十二月	-10.3867
立法	-10.3869
以相	-10.3874
功名	-10.3874
之化	-10.3876
骨肉	-10.3877
齊王	-10.3878
擢	-10.3878
牒	-10.3879
長子	-10.3883
之原	-10.389
伯恭	-10.3891
先天	-10.3892
而後能	-10.3893
好處	-10.3898
其大	-10.3898
不可行	-10.3899
為難	-10.3899
蛇	-10.3905
版	-10.3905
事理	-10.3906
纂	-10.3906
誡	-10.3907
在其中矣	-10.3907
億	-10.3909
殤	-10.3911
晉侯	-10.3914
也朱子曰	-10.3918
不加	-10.3927
二條	-10.3939
萊	-10.3939
刼	-10.3941
三子	-10.3941
懈	-10.3942
吐	-10.3943
終是	-10.3945
募	-10.3945
未易	-10.3947
唐虞	-10.3952
是性	-10.3952
不失其	-10.3955
南軒曰	-10.3956
上曰	-10.3957
最為	-10.3965
初九	-10.3965
利貞	-10.3969
陽之	-10.3971
秋冬	-10.3979
却有	-10.3979
不利	-10.3981
足矣	-10.3983
處便是	-10.3988
木之	-10.3988
備矣	-10.3989
自立	-10.3992
下學	-10.3993
於義	-10.3994
凌	-10.3998
之類是也	-10.3999
墻	-10.4002
津	-10.4002
便可	-10.4002
緩急	-10.4006
有益	-10.4008
而終	-10.4015
佛老	-10.4017
之殊	-10.4021
桀紂	-10.4026
即所謂	-10.4028
之形	-10.4033
鬱	-10.4035
捐	-10.4036
心之所	-10.4038
哀公	-10.4042
釋之	-10.4043
何嘗	-10.4045
不可得	-10.4046
生死	-10.4047
之聲	-10.4049
熹	-10.4054
翻	-10.4055
兩箇	-10.4059
矩	-10.4061
千古	-10.4061
齊人	-10.4061
則天下	-10.4066
和而	-10.4071
天資	-10.4071
鄉里	-10.4074
之詞	-10.4077
居之	-10.408
此非	-10.4081
一世	-10.4082
二三	-10.4086
少陽	-10.4088
良心	-10.4093
只是箇	-10.4093
村	-10.4093
安危	-10.4095
中原	-10.41
計較	-10.4107
曲折	-10.4113
隐	-10.412
求仁	-10.4121
民力	-10.4124
有形	-10.4124
償	-10.4124
夙夜	-10.4126
彼此	-10.4126
之發	-10.4139
其失	-10.4142
一語	-10.4144
吾身	-10.4147
㸔得	-10.4149
利而	-10.415
婚	-10.4153
猷	-10.4153
一以貫之	-10.4153
未成	-10.4154
之業	-10.4155
下工夫	-10.4156
五帝	-10.4163
道德	-10.4166
被他	-10.4168
於後	-10.4169
蔡沈曰	-10.4172
掛	-10.4174
以敬	-10.4176
不聽	-10.4178
曰某	-10.4178
不得已而	-10.418
執事	-10.4182
鬻	-10.4185
而言也	-10.4188
不存	-10.4192
豕	-10.4193
時有	-10.4196
無欲	-10.4202
敵人	-10.4206
而退	-10.4211
堯之	-10.4212
㕔	-10.4215
仁則	-10.4217
綿	-10.4218
豆	-10.4218
隘	-10.4221
所説	-10.4223
用事	-10.4227
不厭	-10.4239
所存	-10.4242
皆得	-10.4249
膚	-10.4251
不可易	-10.4251
其力	-10.4253
五代	-10.4254
之所以為	-10.4257
不取	-10.4258
乃以	-10.4259
而可	-10.4259
萬里	-10.4261
耳若	-10.4261
雖未	-10.4262
有限	-10.4264
山之	-10.4271
百工	-10.4273
册	-10.4276
者正	-10.4277
之深	-10.4278
/○	-10.4279
有四	-10.4283
不到	-10.4283
通鑑	-10.4287
嗜	-10.4289
安得不	-10.4293
親戚	-10.4294
恐是	-10.4296
再拜	-10.4297
此時	-10.4298
成人	-10.4301
極好	-10.4302
生之	-10.4303
匹夫	-10.4305
能為	-10.4306
上書	-10.4308
憐	-10.431
董仲舒	-10.4311
拔	-10.4316
首尾	-10.4318
漆	-10.4318
有異	-10.4321
故事	-10.4326
論其	-10.4329
是之謂	-10.4338
聲色	-10.4339
疇	-10.4343
之費	-10.4357
合而	-10.4359
分為	-10.4362
仁人	-10.4362
成湯	-10.4365
泳	-10.4368
其聲	-10.4368
九十	-10.437
其善	-10.4372
訛	-10.4373
突	-10.4375
焉故	-10.4376
五刑	-10.4377
難矣	-10.4386
不消	-10.4389
教者	-10.4395
王晳曰	-10.4397
為害	-10.4402
未嘗有	-10.4403
不濟事	-10.4406
霜	-10.4407
置之	-10.4407
梅	-10.4408
非徒	-10.4409
枝葉	-10.4411
摩	-10.4411
某人	-10.4416
象山	-10.4419
常在	-10.4432
物欲	-10.4435
樞	-10.4436
江南	-10.4439
從事	-10.444
令人	-10.4442
未甞	-10.4442
曹操曰	-10.4443
慝	-10.4443
揚雄	-10.4444
乾道	-10.4463
人知	-10.4467
䜛	-10.4468
之謀	-10.447
逰	-10.4473
灰	-10.4474
勒	-10.448
如何得	-10.4481
云爾	-10.4482
如云	-10.4484
者何也	-10.4486
二氣	-10.4487
敬之	-10.4493
於彼	-10.4496
諷	-10.4498
庶子	-10.45
惕	-10.45
曰今	-10.4508
五事	-10.4514
為貴	-10.4515
四句	-10.4523
可得	-10.4526
可疑	-10.4528
無一毫	-10.4532
鳥獸	-10.4533
坦	-10.4536
札	-10.4536
正也	-10.454
教他	-10.454
海内	-10.4548
有天下	-10.4559
治民	-10.456
便見得	-10.4562
開元	-10.4562
專一	-10.4562
頤	-10.4563
所至	-10.4564
昬	-10.4567
座	-10.4567
常常	-10.4569
斯民	-10.457
天理人欲	-10.4571
不絶	-10.4574
之甚	-10.4581
二月	-10.4582
千載	-10.4588
或者	-10.4588
學而	-10.4589
救之	-10.4592
本體	-10.4594
模	-10.4596
後學	-10.4597
楊墨	-10.4601
臯	-10.4601
柴	-10.4602
成物	-10.4603
聲音	-10.4604
曰昔	-10.4607
曰若	-10.4607
片	-10.4626
亦如之	-10.4626
寂然不動	-10.4628
倣	-10.4632
髮	-10.4634
燒	-10.4637
不定	-10.4637
感應	-10.4642
知天	-10.4647
穆公	-10.4648
所居	-10.4648
不曉	-10.4656
兑	-10.4663
行道	-10.4664
人性	-10.4664
墳	-10.4664
詆	-10.4664
饌	-10.4665
以天下	-10.4667
制之	-10.4669
徃徃	-10.4673
宣公	-10.4676
有疑	-10.4683
殊不知	-10.4685
一叚	-10.4693
諾	-10.4701
卽	-10.4703
肇	-10.4705
六十四	-10.4705
無罪	-10.4709
道學	-10.4714
溺於	-10.4718
誠心	-10.4724
在前	-10.4731
錦	-10.4732
利用	-10.4733
踐履	-10.4733
徳性	-10.4733
許多道理	-10.4734
責之	-10.4738
至公	-10.474
教民	-10.4742
而作	-10.4744
蘇氏	-10.4745
羞惡	-10.4746
研	-10.4746
理則	-10.4748
伯淳	-10.4749
事上	-10.4753
得中	-10.4758
麟	-10.476
語孟	-10.4762
出處	-10.4764
戈	-10.4765
翕	-10.4765
盍	-10.4766
不作	-10.4768
底物事	-10.4771
屠	-10.4772
醴	-10.4772
个	-10.4782
敬字	-10.4785
然有	-10.4786
為隂	-10.4787
碑	-10.4791
東方	-10.4794
歉	-10.4794
无妄	-10.4797
鈍	-10.4798
两	-10.4801
郷	-10.4802
豈得	-10.4811
四夷	-10.4811
多有	-10.4812
文中子	-10.4812
方氏	-10.4816
則無以	-10.482
了便	-10.4822
麄	-10.4829
五經	-10.4831
其政	-10.4831
纎	-10.4832
見聞	-10.4832
先生云	-10.4832
胷中	-10.4835
難得	-10.4835
謝氏	-10.4836
十萬	-10.484
六十四卦	-10.4844
惟是	-10.4844
上達	-10.4849
粥	-10.4861
鞭	-10.4862
慘	-10.4863
埋	-10.4864
曰固是	-10.4869
黄鐘	-10.4872
怯	-10.4874
居敬	-10.4877
王安石	-10.488
之所謂	-10.4882
先聖	-10.4886
熟讀	-10.4888
為法	-10.4889
柩	-10.4895
潰	-10.4902
者豈	-10.4905
要做	-10.4907
愛敬	-10.4912
不似	-10.4915
伐之	-10.4915
百世	-10.4923
箕	-10.4924
延平	-10.4927
懋	-10.4927
持守	-10.4927
翰	-10.493
有命	-10.4931
也若夫	-10.4935
衝	-10.4938
裴	-10.4939
其害	-10.4939
袒	-10.494
不遺	-10.4945
何用	-10.4955
尊賢	-10.4958
廵	-10.496
有所不	-10.4961
此氣	-10.4961
盥	-10.4961
忽然	-10.4963
舌	-10.4964
鄉人	-10.4965
促	-10.4966
雕	-10.4966
不著	-10.4967
穢	-10.4968
銷	-10.4971
而必	-10.4971
又自	-10.4971
正當	-10.4972
行則	-10.4972
不差	-10.4972
時也	-10.4978
相近	-10.4979
七日	-10.4983
時節	-10.4985
韓子	-10.4988
乎夫	-10.4993
几	-10.4998
汲汲	-10.5
固不可	-10.5002
牀	-10.5002
未到	-10.5002
莫之	-10.5004
狎	-10.5005
誠能	-10.501
莫敢	-10.5017
熈	-10.5027
詔曰	-10.5028
皆無	-10.5029
守令	-10.5031
聞其	-10.5033
不貳	-10.5039
陽明	-10.5039
不治	-10.5047
如一	-10.5049
太甲	-10.505
泰山	-10.5052
五行之	-10.5054
東北	-10.506
壅	-10.5061
看他	-10.5061
一定	-10.5061
不倦	-10.5062
一卷	-10.5063
訓曰	-10.5065
棘	-10.5065
焦	-10.5067
處置	-10.5069
惇	-10.507
為正	-10.507
收斂	-10.5071
于此	-10.5072
而用	-10.5074
君子之道	-10.5076
有時而	-10.5076
絳	-10.5077
之交	-10.5077
順理	-10.508
只如	-10.508
豈無	-10.5092
諧	-10.5092
卯	-10.5097
有序	-10.5098
弁	-10.5102
皆由	-10.5104
綂	-10.5104
太廟	-10.5107
簒	-10.5108
漢之	-10.5108
有物	-10.5109
透徹	-10.511
終於	-10.5113
虚心	-10.5117
愛親	-10.5123
即此	-10.5126
揺	-10.5138
可使	-10.514
合下	-10.514
義理之	-10.5141
狗	-10.5143
未安	-10.5143
固非	-10.5144
為我	-10.5144
掃	-10.5148
如此說	-10.515
相傳	-10.5151
只說	-10.5151
也孔子曰	-10.5152
於禮	-10.5152
以此為	-10.5155
偶然	-10.5158
何足	-10.516
后妃	-10.516
㽦	-10.5166
嶽	-10.5169
誠之	-10.5172
之器	-10.5174
南方	-10.5175
樣	-10.5176
竈	-10.5176
刪	-10.5177
于天	-10.5179
異乎	-10.518
多寡	-10.5181
知止	-10.5182
問仁	-10.5183
做去	-10.5185
出而	-10.5188
同姓	-10.5194
中者	-10.52
鳯	-10.5205
緊	-10.5208
按此	-10.5208
已自	-10.5208
中興	-10.521
而上	-10.5211
當世	-10.5211
物物	-10.5212
伺	-10.5213
無用	-10.5221
彖	-10.5222
其私	-10.5224
揚子	-10.5227
絰	-10.5232
齊家	-10.5233
者或	-10.5236
標	-10.5239
六爻	-10.5241
以徳	-10.5243
糶	-10.5243
蓍	-10.5244
孟氏	-10.5246
嘗謂	-10.5247
無害	-10.5249
道則	-10.525
徳而	-10.525
及此	-10.5252
正理	-10.5255
為天子	-10.5259
合當	-10.5263
中心	-10.5266
存之	-10.5271
兊	-10.5272
止之	-10.5278
浚	-10.528
之仁	-10.5282
洪武	-10.5283
一百	-10.5284
復有	-10.5285
國語	-10.5285
與天	-10.5293
和氣	-10.5294
四書	-10.5294
士人	-10.5294
有可	-10.53
病痛	-10.53
壹	-10.5305
自知	-10.5305
無遺	-10.5308
劇	-10.5309
諛	-10.5311
殖	-10.5311
作文	-10.5312
李氏	-10.5321
不害	-10.5321
善也	-10.5323
五者	-10.5326
繼之	-10.5326
文言	-10.5329
人之心	-10.5329
棄之	-10.5333
天生	-10.5333
所學	-10.5342
從其	-10.5344
隕	-10.5348
可否	-10.5349
五日	-10.5355
者多矣	-10.5364
無餘	-10.5368
形氣	-10.537
古禮	-10.5373
今以	-10.5376
理義	-10.5377
作詩	-10.5378
而安	-10.5378
効	-10.5381
患難	-10.5385
亦皆	-10.5387
太王	-10.5388
氣化	-10.5389
得此	-10.539
其要	-10.5393
理而	-10.5393
用處	-10.5395
商量	-10.5396
然後可	-10.5398
以安	-10.5399
名曰	-10.5399
進而	-10.5401
義利	-10.5403
曰聖人	-10.5407
斟酌	-10.5411
雖曰	-10.5411
三十年	-10.5411
底是	-10.5411
禮則	-10.5412
隣	-10.5415
蠧	-10.5416
而食	-10.5416
小子	-10.5417
但當	-10.5419
泄	-10.5419
義則	-10.542
感動	-10.5421
鋒	-10.5424
功業	-10.5425
臣子	-10.5427
臣按此	-10.5428
起居	-10.5443
情也	-10.5444
導之	-10.5444
日月之	-10.5447
安石	-10.5448
呈	-10.5449
之意也	-10.5449
於地	-10.545
岸	-10.5451
狥	-10.5454
指揮	-10.5454
太過	-10.5454
中書	-10.5455
湛	-10.5457
𤼵	-10.5457
鳳	-10.5457
莫不有	-10.5458
門外	-10.5458
三章	-10.5458
宣帝	-10.546
四曰	-10.5462
之訓	-10.5462
陽也	-10.5463
不解	-10.5469
岳	-10.5473
所受	-10.5474
揲	-10.5475
拱	-10.548
車馬	-10.5482
大要	-10.5484
卻	-10.5489
桂	-10.5494
之所由	-10.5494
之月	-10.5499
之服	-10.5501
位而	-10.5509
惡者	-10.5509
待之	-10.5515
正叔	-10.5515
天時	-10.5515
顔色	-10.5517
當其	-10.5521
柳	-10.5521
為利	-10.5525
眉	-10.5525
汗	-10.5526
樂也	-10.5526
而進	-10.5527
真實	-10.5527
偉	-10.5529
猶可	-10.5533
為此	-10.5536
之役	-10.5536
此三者	-10.5537
之不同	-10.554
惜乎	-10.5541
以仁	-10.5544
所不能	-10.5544
之理也	-10.5549
某嘗	-10.5551
禍亂	-10.5555
忘其	-10.5558
民生	-10.5561
翔	-10.5562
鬬	-10.5562
君也	-10.5569
太常	-10.557
法令	-10.558
亦只	-10.5586
君子不	-10.5587
皆自	-10.5588
兌	-10.5592
惡而	-10.5593
官府	-10.5594
枕	-10.5594
近日	-10.5596
做事	-10.56
小民	-10.56
勁	-10.5601
禮以	-10.5602
答曰	-10.5603
中外	-10.5606
固不	-10.5607
此句	-10.561
為文	-10.561
否則	-10.5615
太史	-10.5616
立言	-10.5619
武侯	-10.5622
始祖	-10.5622
不可謂	-10.5625
藻	-10.5625
民無	-10.5625
純粹	-10.5628
郡國	-10.563
扇	-10.563
羮	-10.5631
雖無	-10.5631
真箇	-10.5632
始有	-10.5632
而后	-10.5635
易簡	-10.5636
遣使	-10.5639
接物	-10.5641
則已	-10.565
周旋	-10.5653
者衆	-10.5653
吟	-10.5658
内則	-10.5659
邢	-10.5663
德之	-10.5667
之中而	-10.5668
零	-10.5668
諂	-10.5668
之類皆	-10.5669
成徳	-10.5679
不可復	-10.568
明其	-10.5692
有五	-10.5693
此義	-10.5698
塲	-10.5698
心者	-10.57
憑	-10.5704
腐	-10.5704
嬖	-10.5705
正大	-10.5705
是氣	-10.5706
公主	-10.5707
最好	-10.5707
木訥曰	-10.5709
瓦	-10.571
態	-10.571
至大	-10.5714
間有	-10.5715
在中	-10.5717
鄭伯	-10.5718
自守	-10.5718
全無	-10.5719
所取	-10.5726
戒懼	-10.5728
苑	-10.5729
三才	-10.573
闔	-10.5735
冩	-10.5735
演	-10.5735
栗	-10.5738
絹	-10.5739
祇	-10.5741
公之	-10.5742
嶺	-10.5747
乃為	-10.5752
自私	-10.5752
天地之性	-10.5755
為臣	-10.5757
上六	-10.5757
其終	-10.5758
四徳	-10.576
子游	-10.5761
自見	-10.5761
涵泳	-10.5769
戊	-10.577
無禮	-10.5774
宗族	-10.5774
其惡	-10.5774
沿	-10.5774
磬	-10.5775
幻	-10.5777
者猶	-10.5778
而化	-10.578
不爲	-10.5782
後世之	-10.5783
不修	-10.5783
十有二	-10.5788
疲	-10.5789
綱領	-10.5791
以象	-10.5796
乎故	-10.5797
推其	-10.5803
便能	-10.5803
操存	-10.5805
自當	-10.5807
濯	-10.5807
事事物物	-10.581
叟	-10.5811
雙	-10.5812
行乎	-10.5812
布衣	-10.5813
擁	-10.5813
心術	-10.5813
體也	-10.5813
此二	-10.5819
非但	-10.5821
隊	-10.5823
稻	-10.5823
正其	-10.5824
不妄	-10.5827
以時	-10.5828
斯言	-10.583
雖多	-10.5831
此數	-10.5831
而外	-10.5832
國家之	-10.5833
一度	-10.5837
昭穆	-10.5837
因以	-10.5838
支離	-10.584
捉	-10.5844
改過	-10.5847
合一	-10.5847
窒	-10.5848
仲舒	-10.5857
二十八	-10.5861
辨之	-10.5862
經義	-10.5862
不可知	-10.5863
諸賢	-10.5865
世人	-10.5868
萬理	-10.587
𦂳	-10.5881
達於	-10.5883
節文	-10.5888
此其所以	-10.5892
私心	-10.5903
欲使	-10.5903
居中	-10.5925
第四	-10.5926
季孫	-10.5927
淮南	-10.593
不雜	-10.5931
自明	-10.5934
而起	-10.5938
百萬	-10.5939
無疆	-10.5945
一國	-10.5946
曰朕	-10.5949
人之道	-10.595
緯	-10.5955
衷	-10.5956
然非	-10.5957
大哉	-10.5958
陂	-10.5958
洛書	-10.5958
碎	-10.5959
誇	-10.5963
耆	-10.5964
緊要	-10.5967
十一年	-10.5968
語言	-10.5972
一爻	-10.598
軍旅	-10.5982
之喪	-10.5983
之㑹	-10.5984
江西	-10.5985
到那	-10.599
佗	-10.5994
赤子	-10.5995
固當	-10.5996
誌	-10.5997
天地之氣	-10.5997
四月	-10.5998
幕	-10.6
䘏	-10.6001
少隂	-10.6002
身之	-10.6003
矣其	-10.6006
人言	-10.6007
曲禮	-10.6009
之象也	-10.601
執政	-10.6011
不樂	-10.6014
相為	-10.6016
亦得	-10.6025
四方之	-10.6026
寇	-10.6026
有甚	-10.6028
得其正	-10.6036
稱之	-10.6036
而不知其	-10.6039
鐵	-10.604
君命	-10.6041
紹興	-10.6042
節目	-10.6043
示人	-10.6045
藏之	-10.6046
至徳	-10.6047
五常	-10.6049
事者	-10.605
職事	-10.6051
三百六十	-10.6051
見識	-10.6057
不生	-10.6059
庶民	-10.6059
髙帝	-10.6061
曰凡	-10.6063
秦漢	-10.6064
諸將	-10.6065
什	-10.6066
只是説	-10.6066
乃知	-10.6067
頥	-10.6072
勃	-10.6074
東萊	-10.6074
貞觀	-10.6079
不務	-10.608
踊	-10.6084
不忠	-10.6088
家語	-10.6089
在心	-10.609
執中	-10.6091
要在	-10.6097
明也	-10.6098
反之	-10.61
十餘	-10.6105
忠厚	-10.6105
非所以	-10.6106
戌	-10.6109
宗室	-10.6109
不知如何	-10.6109
一毫	-10.6114
䙝	-10.6116
冲	-10.6117
懦	-10.6119
若使	-10.612
簡易	-10.6122
古文	-10.6123
春夏	-10.6132
二千石	-10.6133
不一	-10.6133
而况	-10.6137
一部	-10.6138
有得	-10.6141
此段	-10.6145
之明	-10.6146
著書	-10.6147
師友	-10.6148
姓名	-10.615
古之人	-10.6151
云者	-10.6157
曰公	-10.6159
望之	-10.6164
權衡	-10.6164
然後有	-10.6167
不見其	-10.617
有孚	-10.6171
因舉	-10.6174
一則	-10.6175
愛之理	-10.6175
一夫	-10.6176
遇事	-10.6179
出門	-10.618
葉氏曰	-10.6183
遮	-10.6183
許之	-10.6185
曰不然	-10.6186
之運	-10.6187
此即	-10.6187
須有	-10.6187
殃	-10.6189
閩	-10.6191
無怨	-10.6192
瑕	-10.6192
功利	-10.6193
又非	-10.6194
兄弟之	-10.6208
為非	-10.621
仁是	-10.6211
積累	-10.6212
六四	-10.6216
冰	-10.6221
不平	-10.6222
也昔	-10.6223
敕	-10.6226
鋭	-10.6227
已成	-10.6228
如天	-10.6241
天德	-10.6244
河東	-10.6249
謹獨	-10.6252
伊川先生	-10.6261
僞	-10.6261
因而	-10.6264
東漢	-10.6268
隨事	-10.6268
晦翁	-10.6268
也或曰	-10.6269
丕	-10.6272
也愚按	-10.6273
先君	-10.6273
是乃	-10.6273
有意	-10.6276
北方	-10.6277
各有所	-10.628
上言	-10.6284
一念之	-10.6285
在後	-10.6287
景公	-10.6288
必自	-10.629
立於	-10.6291
賢而	-10.6295
意味	-10.6298
之言也	-10.63
麤	-10.63
狩	-10.63
有理	-10.6302
尊者	-10.6306
牖	-10.6307
形而上者	-10.6308
加以	-10.6315
己者	-10.6317
不欺	-10.6317
知有	-10.632
功臣	-10.6327
陷於	-10.6328
自今	-10.633
入于	-10.6332
大國	-10.6333
鳩	-10.6335
六卿	-10.6341
俞	-10.6343
必得	-10.6343
之可也	-10.6344
精義	-10.6345
臂	-10.6346
明皇	-10.6346
分數	-10.6347
荀卿	-10.6349
少而	-10.6349
唐之	-10.6349
是聖人	-10.6356
國君	-10.6357
事物之	-10.6358
當如此	-10.6363
之稱	-10.6363
全不	-10.6365
十餘年	-10.6367
萬人	-10.6367
語意	-10.6367
是一箇	-10.6369
太極之	-10.6372
貎	-10.6376
酷	-10.6377
正道	-10.6381
童子	-10.6381
逺而	-10.6382
其禮	-10.6382
不逮	-10.6383
有差	-10.6384
二公	-10.6384
隨之	-10.6385
喚做	-10.6385
為用	-10.6387
帷	-10.6389
長幼	-10.639
程子謂	-10.6393
險阻	-10.6394
弩	-10.6397
得志	-10.6399
人主之	-10.64
欲為	-10.6402
既已	-10.6406
天之道	-10.6408
運行	-10.641
蚤	-10.6415
行禮	-10.6415
以觀	-10.6415
之福	-10.6416
大過	-10.6417
劄	-10.6421
後生	-10.6421
作樂	-10.6423
疵	-10.6424
冢宰	-10.6424
紛紛	-10.6427
這箇道理	-10.6429
而亡	-10.6433
利也	-10.644
交於	-10.6444
動則	-10.6445
之誠	-10.6446
勉之	-10.6446
絜矩	-10.6449
便説	-10.6452
太史公	-10.6453
填	-10.6455
推而	-10.6459
不獲	-10.6461
以制	-10.6462
四字	-10.6463
去處	-10.6463
脅	-10.6464
之兵	-10.6464
三家	-10.6465
相生	-10.6466
不但	-10.6467
其流	-10.6467
禁止	-10.6467
祕	-10.6471
釋此	-10.6472
乃有	-10.6473
之首	-10.6475
曲直	-10.6476
盛衰	-10.6477
我朝	-10.648
利之	-10.6481
定公	-10.6482
記得	-10.6483
程子所謂	-10.6486
九族	-10.6488
何有	-10.6495
人材	-10.6495
爰	-10.65
凢	-10.6501
之閒	-10.6504
渭	-10.6507
代之	-10.6507
識其	-10.6509
易也	-10.6509
不謹	-10.651
也孔子	-10.6511
賢否	-10.6512
成周	-10.6514
先有	-10.6516
張子曰	-10.6517
初學	-10.6518
有志	-10.652
無不善	-10.6525
幅	-10.6531
儆	-10.6533
笞	-10.6534
松	-10.6541
行於	-10.6542
之偏	-10.6544
前面	-10.6545
視聽	-10.6546
睽	-10.6547
周人	-10.6549
然後知	-10.6552
諸州	-10.6568
相感	-10.6568
伊川云	-10.657
以知	-10.6571
所養	-10.6572
既無	-10.6574
有兩	-10.6575
寐	-10.6576
惟有	-10.6576
㒺	-10.6576
一齊	-10.6577
桃	-10.6579
胎	-10.658
廩	-10.6581
芳	-10.6582
知識	-10.6582
王季	-10.659
哉故	-10.6597
於一	-10.66
理氣	-10.6613
時中	-10.6614
勑	-10.6615
那箇	-10.6617
字是	-10.6617
本乎	-10.6618
劾	-10.6619
㪚	-10.662
樊	-10.6621
立而	-10.6622
性理	-10.6622
級	-10.6622
吞	-10.6622
因論	-10.6623
下手	-10.6625
得來	-10.6627
神也	-10.6639
禮部	-10.664
毫釐	-10.6642
有未	-10.6645
曰吾聞	-10.6646
汲	-10.6655
綽	-10.6658
騰	-10.6658
稼穡	-10.6659
溥	-10.6659
十二年	-10.6662
不以為	-10.6662
成性	-10.6662
濡	-10.6663
誠者	-10.6664
惟聖人	-10.6665
周流	-10.6669
明王	-10.6676
始也	-10.6678
或云	-10.6679
空言	-10.6679
也然而	-10.668
有何	-10.668
宋人	-10.6684
二十七	-10.6684
不堪	-10.6685
具於	-10.6686
本州	-10.6689
養民	-10.669
固無	-10.6691
叔孫	-10.6691
久而	-10.6691
於斯	-10.6691
擊之	-10.6691
穿鑿	-10.6692
徳也	-10.6695
後漢	-10.6696
鋪	-10.6697
抄	-10.6697
既得	-10.6698
優劣	-10.67
姪	-10.67
迨	-10.6702
隂氣	-10.6704
居喪	-10.671
發生	-10.6711
日夜	-10.6713
不可及	-10.6719
愛其	-10.6722
小事	-10.6722
害於	-10.6725
嘗見	-10.6726
必大	-10.673
曰古者	-10.6733
靠	-10.6734
所以致	-10.6735
明而	-10.6735
取諸	-10.6739
誅之	-10.6739
視其	-10.674
握	-10.6741
昆弟	-10.6741
邀	-10.6742
非惟	-10.6743
無過不及	-10.6744
曰汝	-10.6747
一路	-10.6754
有時	-10.6758
好仁	-10.6763
再三	-10.6764
大賢	-10.6765
不廢	-10.6769
成於	-10.677
郤	-10.6772
上去	-10.6772
可知也	-10.6773
人之所以	-10.6775
㝠	-10.6777
大業	-10.6778
沃	-10.678
不克	-10.6785
辨其	-10.6789
愚按此	-10.6792
而謂之	-10.6792
講明	-10.6794
此豈	-10.68
到這裏	-10.6801
六藝	-10.6803
和樂	-10.6804
為君子	-10.6807
本司	-10.6809
其極	-10.6812
深矣	-10.6814
動作	-10.6814
挈	-10.6815
無定	-10.6816
名也	-10.6816
擇其	-10.6818
驗之	-10.6818
若干	-10.6819
肩	-10.6819
其難	-10.6821
牟	-10.6822
賢良	-10.6822
並行	-10.6824
冷	-10.6825
浙	-10.6825
高宗	-10.6826
庶㡬	-10.6827
剛健	-10.6833
誠實	-10.6835
平時	-10.6837
甚大	-10.6837
制禮	-10.6839
者言之	-10.6841
王者之	-10.6841
亦難	-10.6841
教以	-10.6842
無妄	-10.6849
隂陽五行	-10.685
爲之	-10.6852
能以	-10.6852
和靖	-10.6853
何益	-10.6854
於國	-10.6856
究其	-10.6857
蔑	-10.6861
肺	-10.6862
又須	-10.6862
無功	-10.6869
無知	-10.6873
感通	-10.6874
太師	-10.688
歐陽	-10.6881
不可見	-10.6888
十日	-10.6892
記曰	-10.6892
萬殊	-10.6892
繼之者善	-10.6896
失於	-10.69
捷	-10.69
治人	-10.6901
鉅	-10.6902
鞅	-10.6903
疾病	-10.6903
以来	-10.6905
其過	-10.6906
股	-10.6906
君臣父子	-10.6908
芻	-10.6908
只見	-10.6912
來朝	-10.6915
王室	-10.692
綱目	-10.6922
大故	-10.6922
自然之理	-10.6927
之一字	-10.6927
為天	-10.6934
事則	-10.6936
由於	-10.6936
胄	-10.6936
誠則	-10.6939
祁	-10.6944
之祭	-10.6949
本領	-10.6949
復生	-10.6951
有力	-10.6953
孺	-10.6956
齊衰	-10.6959
第五	-10.6966
蠻	-10.6969
禮法	-10.697
天理之	-10.6971
不稱	-10.6972
先生謂	-10.6975
死於	-10.6975
當為	-10.6975
響	-10.6975
亦云	-10.6981
勘	-10.6982
分眀	-10.6986
烹	-10.6986
遼	-10.6987
逞	-10.6987
無所不至	-10.6987
二十年	-10.6988
焉而	-10.6988
慤	-10.6988
穫	-10.699
説到	-10.6991
不審	-10.6992
為二	-10.6996
誠也	-10.6999
徳業	-10.7003
介甫	-10.7007
號令	-10.7007
事皆	-10.7008
聚散	-10.7014
安國	-10.7015
幸而	-10.7016
不得而	-10.7017
這事	-10.7018
則自然	-10.7018
榦	-10.7021
臻	-10.7023
敬以直内	-10.7024
愿	-10.7024
須臾	-10.7027
尤為	-10.7027
便都	-10.7029
籠	-10.7029
天之所	-10.7034
經書	-10.7034
未足	-10.7035
憂患	-10.7038
順之	-10.7038
也臣若水通曰	-10.7038
六百	-10.7039
攻之	-10.7042
然猶	-10.7042
泰伯	-10.7049
一朝	-10.705
之先	-10.7051
聽之	-10.7052
閎	-10.7054
如今人	-10.7054
以濟	-10.7054
裔	-10.706
不外	-10.7061
未敢	-10.7063
歆	-10.7068
頃刻	-10.7068
將帥	-10.7069
物則	-10.7069
衢	-10.707
顔子之	-10.7071
衮	-10.7072
濕	-10.7075
得這	-10.7075
明道先生	-10.7077
所以然者	-10.708
無愧	-10.7081
韓愈	-10.7083
静而	-10.7085
指其	-10.7089
然自	-10.709
法制	-10.7091
他説	-10.7093
餓	-10.7095
恰好	-10.7095
何由	-10.7096
壬	-10.7097
至極	-10.7103
所傳	-10.7104
在裏面	-10.7108
易中	-10.7109
鄭康成	-10.7109
君臣之義	-10.7111
贍	-10.7112
昭王	-10.7114
牝	-10.7116
之路	-10.7118
故雖	-10.7123
▁問	-10.7127
免於	-10.7132
所有	-10.7134
元氣	-10.7137
羲	-10.7138
予之	-10.7138
取人	-10.714
季子	-10.7144
不祭	-10.7146
一息	-10.7146
㨗	-10.7148
信也	-10.7153
釁	-10.7157
章曰	-10.7161
難知	-10.7161
前軰	-10.7166
就其	-10.7167
孝宗	-10.7167
擔	-10.7168
罪人	-10.7169
錯了	-10.7174
二世	-10.7174
為不善	-10.7179
有云	-10.7181
故孔子	-10.7182
發之	-10.7182
急於	-10.7184
變也	-10.7186
虗	-10.719
必能	-10.719
河北	-10.719
補訓	-10.719
冶	-10.7191
核	-10.7192
二章	-10.7194
擯	-10.7194
文蔚	-10.7195
其形	-10.7199
王子	-10.7204
山東	-10.7205
非其人	-10.7205
一㸃	-10.7208
南面	-10.7209
之傳	-10.7216
之恩	-10.7225
生氣	-10.7228
禹之	-10.7228
耐	-10.7231
人之情	-10.7231
数	-10.7234
若論	-10.7235
婢	-10.7236
遐	-10.7236
致知格物	-10.7238
與民	-10.7239
餉	-10.7239
扈	-10.7239
致治	-10.7242
亦豈	-10.7245
塘	-10.7245
必至	-10.7249
周室	-10.7249
所以明	-10.725
物理	-10.7251
恭儉	-10.7252
之廟	-10.7253
渡	-10.7255
此正	-10.7256
不親	-10.7258
此一	-10.7258
紛擾	-10.7264
授之	-10.7266
而理	-10.7271
上之人	-10.7274
而已故	-10.7277
眩	-10.728
之亂	-10.7281
羸	-10.7281
之責	-10.7282
異同	-10.7289
問伊川	-10.7295
静坐	-10.7297
千萬	-10.7298
貧者	-10.7298
學也	-10.7299
不患	-10.7301
三四	-10.7304
道是	-10.7309
首章	-10.7309
千餘	-10.731
蔡氏	-10.7312
本然之	-10.7313
鬭	-10.7321
貞吉	-10.7321
目前	-10.7324
碩	-10.7324
看文字	-10.7325
不㑹	-10.7326
垢	-10.7328
各得其	-10.7329
爵禄	-10.7333
耳非	-10.7334
丈夫	-10.7334
好人	-10.7334
敎之	-10.7335
曰只是	-10.7336
恐未	-10.7338
黄道	-10.7339
於齊	-10.7341
以教	-10.7341
成形	-10.7345
果何	-10.7347
得許多	-10.7347
能如此	-10.7351
洛陽	-10.7355
同異	-10.7355
仁字	-10.7356
以應	-10.7356
睡	-10.7357
醒	-10.7358
懇	-10.7361
矣又曰	-10.7363
何物	-10.7364
服之	-10.7367
思無邪	-10.7367
暨	-10.7367
説道	-10.7369
而忘	-10.737
所以不	-10.737
之儀	-10.7371
四時之	-10.7373
銳	-10.7373
保其	-10.7374
台	-10.738
政令	-10.7381
而後可以	-10.7382
人必	-10.7383
之孝	-10.7384
志於	-10.7384
只看	-10.7385
元吉	-10.7387
之田	-10.7392
又為	-10.7396
卦之	-10.7399
六三	-10.7401
非不	-10.7401
之貌	-10.7402
豳	-10.7404
琢	-10.7405
耀	-10.7407
䖍	-10.7408
真知	-10.7408
夬	-10.741
譎	-10.7412
盗賊	-10.7415
奔走	-10.7417
直言	-10.7419
而易	-10.742
堯舜之道	-10.742
大節	-10.742
要得	-10.7427
陸氏	-10.743
之心而	-10.7432
著實	-10.7434
心性	-10.7441
亦嘗	-10.7443
訓詁	-10.7445
欲立	-10.7445
孰為	-10.7446
曰他	-10.7446
生焉	-10.7447
泯	-10.7448
輟	-10.7451
學於	-10.7452
後又	-10.7453
歎曰	-10.7456
為戒	-10.7457
相承	-10.746
天王	-10.7462
秘	-10.7464
上生	-10.7466
相通	-10.7466
卓然	-10.7471
治者	-10.7473
大有	-10.7475
只此	-10.7475
所引	-10.7479
易知	-10.7486
有疾	-10.7487
乍	-10.7489
日用之間	-10.749
乆矣	-10.749
天而	-10.7491
舉而	-10.7494
佑	-10.7494
摧	-10.7498
和也	-10.7498
相接	-10.7498
其妻	-10.7501
未見其	-10.7502
責其	-10.751
聖賢之言	-10.7513
已具	-10.7513
大宗	-10.7518
須先	-10.7521
今年	-10.7522
之全體	-10.7529
先儒謂	-10.7532
纓	-10.7533
不移	-10.7533
數也	-10.7534
乳	-10.7535
茍且	-10.754
師之	-10.7542
不下	-10.7544
鯀	-10.7546
有病	-10.7547
文辭	-10.755
數日	-10.7553
五曰	-10.7556
壘	-10.7558
其所謂	-10.7558
長進	-10.7563
論孟	-10.7564
今乃	-10.7564
小國	-10.7565
當作	-10.7566
相合	-10.7566
亞	-10.757
收拾	-10.7573
要人	-10.7575
尹氏	-10.7575
疑其	-10.7576
癸	-10.7577
敘	-10.7578
此物	-10.7579
安民	-10.7579
安在	-10.758
雩	-10.7581
竄	-10.7581
倖	-10.7582
怡	-10.7582
囿	-10.7582
魂魄	-10.7585
而應	-10.7585
不知所	-10.7591
其類	-10.7594
體而	-10.7599
有能	-10.7599
不實	-10.7602
比干	-10.7606
人家	-10.7607
去理㑹	-10.761
十五年	-10.7615
不起	-10.7616
不可無	-10.7618
賄	-10.7622
今日之	-10.7622
形而下者	-10.7622
溝洫	-10.7622
果能	-10.7624
緝	-10.7624
天地之道	-10.7626
盎	-10.7626
書經	-10.7626
頻	-10.7626
以孝	-10.7627
洩	-10.7629
流通	-10.7633
初六	-10.7634
小宗	-10.7635
君父	-10.7635
其分	-10.7639
善矣	-10.7642
心中	-10.7643
便了	-10.7644
利於	-10.7645
貧富	-10.7651
成敗	-10.7653
變則	-10.7654
尚可	-10.7654
難以	-10.7658
蘓	-10.7662
行下	-10.7663
尤甚	-10.7664
小雅	-10.7665
各以其	-10.7667
以奉	-10.7669
搜	-10.7673
無由	-10.7675
天子諸侯	-10.7677
仗	-10.7677
無方	-10.768
是用	-10.7681
而不自知	-10.7681
不愛	-10.7683
經界	-10.7685
之基	-10.7686
者只是	-10.7687
鄭氏曰	-10.7692
異也	-10.7693
今觀	-10.7695
将去	-10.7697
語類	-10.7704
不專	-10.7705
繋	-10.7705
不可不知	-10.7706
舜禹	-10.7707
勞而	-10.7709
講習	-10.771
無極而太極	-10.7712
相繼	-10.7712
補訓此	-10.7713
人身	-10.7713
郡守	-10.7714
下民	-10.7715
貯	-10.7717
國朝	-10.7718
妬	-10.772
自得之	-10.7722
淪	-10.7722
文明	-10.7723
因此	-10.7724
隂也	-10.7727
夫豈	-10.7732
可取	-10.7734
學術	-10.7734
經傳	-10.7741
新民	-10.7741
已而	-10.7743
生出	-10.7744
其制	-10.7746
𦂳要	-10.775
物我	-10.775
故必	-10.7751
愁	-10.7754
性與天道	-10.7756
出于	-10.7756
壮	-10.7758
邱	-10.7759
濬	-10.7759
多言	-10.776
國用	-10.7762
豹	-10.7766
是自家	-10.7767
理一	-10.7767
一様	-10.7769
矣臣按	-10.7774
二事	-10.7775
既成	-10.7778
而猶	-10.778
則不然	-10.7783
曰是	-10.7784
器用	-10.7786
亦可謂	-10.7787
便須	-10.7788
吏部	-10.779
可惜	-10.7793
之典	-10.78
國有	-10.7801
竊意	-10.7803
百物	-10.7803
弭	-10.7805
肝	-10.7805
使天下	-10.7805
股肱	-10.7806
圜	-10.7806
有才	-10.7807
日日	-10.7809
取士	-10.781
易見	-10.7812
至正	-10.7814
安有	-10.7816
自任	-10.7818
耳然	-10.7819
者三	-10.7819
曰善	-10.782
逺者	-10.7826
之言曰	-10.7835
柔順	-10.7835
善之	-10.7837
西山	-10.7841
萬世之	-10.7842
贄	-10.7845
大徳	-10.7846
實則	-10.7852
恁	-10.7853
為相	-10.7854
五峯	-10.7855
也或問	-10.7858
兆民	-10.7862
而明	-10.7864
事有	-10.7865
不祥	-10.7865
德行	-10.7867
西方	-10.7867
璽	-10.7869
今且	-10.7871
主張	-10.7872
天下後世	-10.7876
所發	-10.788
居處	-10.7884
觀之則	-10.7884
天心	-10.7886
養其	-10.7887
命者	-10.7888
隨其	-10.7889
悠悠	-10.789
荷	-10.789
瑩	-10.7891
脈	-10.7891
贏	-10.7895
幾何	-10.7897
用此	-10.7899
等語	-10.7902
安知	-10.7903
元帝	-10.7906
是說	-10.7909
國子	-10.791
深思	-10.7913
貴於	-10.7914
者是也	-10.7916
易以	-10.7919
舉之	-10.7919
胡氏曰	-10.792
農夫	-10.7921
而不及	-10.7925
形而	-10.7926
以從	-10.7926
是言	-10.7928
孝悌	-10.7936
礪	-10.7937
其所以為	-10.7943
壓	-10.7943
曾子曰	-10.7947
則凡	-10.7951
之盟	-10.7953
武公	-10.7954
而後可	-10.7954
幽明	-10.7957
此論	-10.7959
交相	-10.7959
君心	-10.7959
以實	-10.7961
形於	-10.7962
未定	-10.7964
三句	-10.7968
二女	-10.7969
二物	-10.7971
是指	-10.7974
利者	-10.7974
無足	-10.7977
前人	-10.7978
聖人所以	-10.7979
上說	-10.7981
叢	-10.7984
踵	-10.7984
燈	-10.7984
夙	-10.7987
之䇿	-10.7988
死則	-10.799
明則	-10.7999
動也	-10.7999
截然	-10.8
所好	-10.8002
萬邦	-10.8007
晉人	-10.8011
氣稟	-10.8012
起而	-10.8014
有志於	-10.8015
無一物	-10.8017
有一毫	-10.802
出乎	-10.802
班固	-10.8021
孺子	-10.8022
其端	-10.8024
五人	-10.8027
自無	-10.8029
披	-10.8029
寔	-10.8032
不假	-10.8033
迄	-10.8036
志也	-10.8044
為父	-10.8048
罕	-10.8048
屯田	-10.805
議者	-10.8055
去了	-10.8058
時人	-10.806
溫公	-10.8067
之累	-10.8068
漢文帝	-10.8069
物者	-10.807
爛	-10.8071
縫	-10.8075
闡	-10.8075
是何	-10.8075
君道	-10.8075
逾	-10.8076
經筵	-10.8077
由是而	-10.8079
語曰	-10.8079
體察	-10.8081
趾	-10.8082
齊之	-10.8083
相因	-10.8083
悍	-10.8085
曰仁	-10.8085
典禮	-10.8087
問先生	-10.8088
也後世	-10.809
觀書	-10.8093
各得其所	-10.8096
有感	-10.8097
縣令	-10.8101
者不能	-10.8104
歸于	-10.8106
始生	-10.8106
大者	-10.8107
志在	-10.8109
非所	-10.8115
紊	-10.8115
治也	-10.8116
批	-10.8117
之質	-10.812
鄭𤣥曰	-10.8122
雷霆	-10.8122
亡矣	-10.8123
淺近	-10.8123
地上	-10.8124
也豈	-10.8125
情性	-10.8125
恢	-10.8125
忠孝	-10.8128
售	-10.8128
法者	-10.8132
盡矣	-10.8134
嬪	-10.8146
七八	-10.8147
良知	-10.8147
長而	-10.8147
無所用	-10.8148
以文	-10.8148
不願	-10.8148
易者	-10.8151
得天下	-10.8151
田地	-10.8154
故夫子	-10.8156
養老	-10.8158
後之	-10.8158
二五	-10.8161
盛時	-10.8161
擴	-10.8162
而使之	-10.8163
以盡	-10.8164
也須	-10.8165
繞	-10.8165
民也	-10.8166
齡	-10.8166
圖之	-10.8168
主乎	-10.8169
宛	-10.8172
慙	-10.8175
不講	-10.8176
文武之	-10.8177
容貌	-10.8178
互相	-10.8181
不敢以	-10.8181
之目	-10.8183
進徳	-10.8191
以順	-10.8193
不徒	-10.8193
王命	-10.8196
奪之	-10.8201
豈是	-10.8202
卦爻	-10.8202
謂之性	-10.8202
王公	-10.8209
則失	-10.8212
精㣲	-10.8212
大禹	-10.8212
重於	-10.8213
以類	-10.8214
駟	-10.8215
平居	-10.8217
過了	-10.8218
慟	-10.8219
且夫	-10.8221
徼	-10.8221
諸王	-10.8221
皆出於	-10.8226
靈公	-10.8227
而獨	-10.8227
所守	-10.8228
于是	-10.8229
羌	-10.8231
萬古	-10.8231
意誠	-10.8232
若曰	-10.8232
不能以	-10.8234
孝友	-10.8234
且以	-10.8236
於家	-10.8239
相親	-10.8249
於學	-10.8249
地下	-10.825
而遂	-10.825
義而	-10.825
有心	-10.8252
何異	-10.8256
以次	-10.8259
頂	-10.826
檜	-10.8261
剪	-10.8263
平王	-10.8263
怎生	-10.8265
百家	-10.8273
自外	-10.8273
者此也	-10.8278
不書	-10.8278
真宗	-10.8285
也只是	-10.8287
祖廟	-10.829
向來	-10.8291
惡惡	-10.8292
最難	-10.8292
孟子説	-10.8294
是故君子	-10.8295
者不過	-10.8295
前此	-10.8295
公事	-10.8298
不殺	-10.8299
始皇	-10.83
不傳	-10.8301
也歟	-10.8301
憎	-10.8302
取於	-10.8303
譜	-10.8306
嘗有	-10.8308
又别	-10.8309
繡	-10.8309
亂世	-10.8311
多聞	-10.8313
有不善	-10.8315
憾	-10.8315
此四者	-10.8317
措置	-10.8321
念慮	-10.8322
盡得	-10.8324
不舉	-10.8324
經綸	-10.8324
金石	-10.8326
成而	-10.8326
灼	-10.8328
其臣	-10.8329
過而	-10.8332
商賈	-10.8334
篤實	-10.8337
先祖	-10.8337
止也	-10.8338
而難	-10.8339
天下者	-10.8343
惡人	-10.8344
别人	-10.8344
惻隠之心	-10.8346
度量	-10.8347
止是	-10.8349
既而	-10.835
天命之謂性	-10.8352
恐亦	-10.8352
鮑	-10.8356
穏	-10.8357
有是理	-10.8359
四分	-10.8361
得如此	-10.8362
禆	-10.8362
箭	-10.8363
數千	-10.8364
㓕	-10.8365
肖	-10.8367
楚人	-10.8369
行得	-10.837
近而	-10.837
中央	-10.8373
項羽	-10.8373
治平	-10.8374
正文	-10.8375
仁義之	-10.838
則止	-10.838
樂者	-10.8383
天下之至	-10.8384
和之	-10.8385
請問	-10.8386
日中	-10.8388
古史	-10.8389
也又問	-10.8393
也君	-10.8397
分殊	-10.84
揀	-10.8402
所疑	-10.8403
滌	-10.8403
則彼	-10.8404
貲	-10.8405
𤓰	-10.8406
入門	-10.8406
叩	-10.8407
函	-10.8407
邁	-10.8409
天文	-10.8409
求放心	-10.8413
極是	-10.8413
必至於	-10.8418
今之學者	-10.8422
自能	-10.8424
則所謂	-10.8425
通乎	-10.8426
焉此	-10.8431
以供	-10.844
無敢	-10.8442
小者	-10.8444
剛中	-10.8445
之心也	-10.8446
純一	-10.8446
貴乎	-10.8446
参	-10.8449
之母	-10.8449
卒哭	-10.845
派	-10.8451
節用	-10.8452
功用	-10.8453
因循	-10.8453
而取	-10.8453
鞠	-10.8454
無逸	-10.8455
也吾	-10.8455
翟	-10.8458
假借	-10.8459
豚	-10.846
生長	-10.8462
又説	-10.8463
敦厚	-10.8463
盡其心	-10.8465
不能行	-10.8465
十二律	-10.8471
也何	-10.8472
必然	-10.8473
惡不仁	-10.8474
肅宗	-10.8476
為物	-10.8479
正人	-10.848
蕭何	-10.8483
順天	-10.8484
過則	-10.8485
湛然	-10.8488
賜之	-10.8488
政教	-10.8488
無不在	-10.8488
特以	-10.8489
二分	-10.849
事勢	-10.8491
經史	-10.8492
也孟子曰	-10.8492
作用	-10.8492
必使	-10.8494
其弟	-10.8494
銜	-10.8497
押	-10.8497
一截	-10.8497
人雖	-10.8497
之遺	-10.8498
存者	-10.8498
嗇	-10.85
春秋書	-10.8501
為宫	-10.8501
梓	-10.8505
如水	-10.8506
涇	-10.8508
須用	-10.8509
子思曰	-10.8509
識之	-10.851
不亂	-10.8511
申明	-10.8512
不勝其	-10.8516
人無	-10.8518
是如何曰	-10.852
虚實	-10.8523
韓信	-10.8525
至其	-10.8528
不精	-10.8528
瑟	-10.8533
過之	-10.8533
彖曰	-10.8534
必求	-10.8535
如此然	-10.8535
未詳	-10.8536
楚子	-10.8539
也况	-10.8541
給事中	-10.8543
為重	-10.8544
劉向	-10.8545
署	-10.855
春夏秋冬	-10.8551
現	-10.8551
耿	-10.8553
浮屠	-10.8554
大明	-10.8554
忤	-10.8555
事父母	-10.8556
帳	-10.8556
三條	-10.8558
之次	-10.856
精一	-10.8562
少者	-10.8562
全是	-10.8563
各以	-10.8566
十三年	-10.8567
如何便	-10.8568
禹貢	-10.8569
猶是	-10.8569
須著	-10.857
常平	-10.8587
以理言	-10.8587
膺	-10.8589
漢武帝	-10.8589
酢	-10.8595
涕	-10.8595
遂為	-10.8596
煖	-10.86
流俗	-10.8601
巴	-10.8602
作為	-10.8602
珪	-10.8602
處皆	-10.8605
詩序	-10.8609
二日	-10.8609
斯道	-10.861
亦好	-10.8614
所以立	-10.8614
得其人	-10.8616
求賢	-10.8616
明理	-10.8618
自信	-10.8618
益之	-10.8623
敬者	-10.8624
論性	-10.8625
所惡	-10.8626
吾子	-10.8626
所致	-10.8626
有善	-10.8627
地而	-10.8627
為中	-10.8632
馴	-10.8633
則吾	-10.8635
尼	-10.8641
難曉	-10.8641
四十八	-10.8642
與天地同	-10.8645
熾	-10.8646
埶	-10.8646
汨	-10.8647
浹洽	-10.8648
不恤	-10.8651
者歟	-10.8651
仲子	-10.8657
一變	-10.8658
棟	-10.8659
三字	-10.8659
當是時	-10.8661
惡也	-10.8662
欲求	-10.8664
有禮	-10.8665
亂也	-10.8668
日益	-10.867
敎人	-10.867
姑息	-10.8671
為人臣	-10.8675
休息	-10.8676
其兄	-10.8681
固然	-10.8684
七十二	-10.8687
晋	-10.8688
實事	-10.8689
宗廟之	-10.869
景帝	-10.8691
吸	-10.8692
滚	-10.8692
日以	-10.8693
今欲	-10.8693
之差	-10.8695
歐公	-10.8696
庠	-10.8697
未然	-10.8702
做出	-10.8704
之本然	-10.8706
小過	-10.8709
聖人則	-10.871
渾淪	-10.871
世有	-10.8711
一人之	-10.8712
之妻	-10.8712
在彼	-10.8713
顏子	-10.8714
五祀	-10.8715
之域	-10.8716
非禮也	-10.8716
萬變	-10.8717
宦	-10.872
盛而	-10.8725
過失	-10.8726
欲速	-10.8728
責人	-10.873
最是	-10.8731
自治	-10.8735
之所同	-10.8736
應物	-10.8736
作春秋	-10.8739
冢	-10.874
扐	-10.8741
把捉	-10.8743
同而	-10.8744
謟	-10.8745
其常	-10.8745
志氣	-10.8745
戯	-10.8746
焉其	-10.8746
得那	-10.8747
架	-10.8748
囊	-10.8749
慊	-10.8751
循理	-10.8754
者必有	-10.8757
所稱	-10.876
知所以	-10.8761
同體	-10.8763
忒	-10.8763
師道	-10.8763
為小人	-10.8764
三品	-10.8765
是無	-10.8766
彈	-10.8768
易曉	-10.8768
既不	-10.877
天命之性	-10.8771
刑之	-10.8771
張氏	-10.8771
臣竊	-10.8774
付之	-10.8774
是道	-10.8779
走作	-10.8781
約而	-10.8782
辜	-10.8782
陟	-10.8783
經世	-10.8784
見人	-10.8785
為事	-10.8786
所不及	-10.8789
但見	-10.8792
聊	-10.8792
不畏	-10.8794
數語	-10.8795
亦不是	-10.8796
孟軻	-10.8796
婉	-10.8796
濮	-10.8799
不怨	-10.88
耳目之	-10.8801
而知之	-10.8806
其在	-10.8807
幽王	-10.8811
也嗚呼	-10.8814
運用	-10.8818
之賦	-10.8825
時時	-10.8829
宫中	-10.8831
費力	-10.8832
之水	-10.8834
司馬光	-10.8834
神化	-10.8834
意者	-10.8838
毫髪	-10.8841
涼	-10.8843
所以成	-10.8843
夜氣	-10.8844
蒐	-10.8844
伐鄭	-10.8844
蝕	-10.8844
文理	-10.8845
而廢	-10.8845
曹操	-10.8847
禰	-10.8849
詘	-10.8851
卵	-10.8851
去就	-10.8852
之根	-10.8852
以取	-10.8853
近者	-10.8856
讀者	-10.8858
皆從	-10.8859
何以為	-10.8861
句句	-10.8861
思索	-10.8866
揜	-10.8871
人力	-10.8871
之䘮	-10.8874
明帝	-10.8875
而後已	-10.8875
九分	-10.8876
我者	-10.8879
屬陽	-10.888
民有	-10.8882
來者	-10.8883
身體	-10.8885
否曰是	-10.8885
御定孝經衍義卷	-10.8887
守其	-10.8888
十里	-10.8889
平天下	-10.889
心下	-10.8891
經營	-10.8891
睹	-10.8892
以通	-10.8893
刑法	-10.8894
壺	-10.8894
不知有	-10.8896
之久	-10.8897
餌	-10.89
必有所	-10.89
輔相	-10.89
擴充	-10.8901
為體	-10.8909
佛家	-10.891
難行	-10.8912
也所謂	-10.8912
朽	-10.8914
心之徳	-10.8916
於此而	-10.8917
上天	-10.8917
作一	-10.8919
箇道理	-10.8921
卿士	-10.8924
大學衍義補卷	-10.8927
之興	-10.8927
之實也	-10.8929
不䏻	-10.893
又當	-10.8931
大成	-10.8932
但有	-10.8937
了方	-10.8938
教也	-10.8941
黜陟	-10.8941
疑之	-10.8944
是皆	-10.8946
乆之	-10.8946
餒	-10.8947
腰	-10.8947
奄	-10.8947
吾道	-10.8948
一隂	-10.8948
拯	-10.8952
放下	-10.8958
縱横	-10.896
恰	-10.8964
有子	-10.8965
非一	-10.8968
徃來	-10.8968
刑名	-10.8971
城郭	-10.8973
一偏	-10.8974
縣官	-10.8975
通貫	-10.8976
感而	-10.8977
蔚	-10.8978
難也	-10.898
此謂	-10.898
一意	-10.898
群	-10.8982
以和	-10.8982
所感	-10.8987
一隂一陽	-10.8989
此三	-10.899
錯綜	-10.8992
矧	-10.8992
膝	-10.8994
四體	-10.8994
放心	-10.8995
銓	-10.8996
夏商	-10.8997
厄	-10.8998
勝之	-10.8998
一種	-10.8999
沐	-10.9
專言	-10.9002
寝	-10.9002
乃所以	-10.9004
府庫	-10.9006
既是	-10.9011
成公	-10.9016
范氏	-10.9018
萬物皆	-10.9018
善言	-10.902
力量	-10.902
用工	-10.9021
法則	-10.9022
小兒	-10.9023
過也	-10.9025
嵗月	-10.9026
之過也	-10.9028
其門	-10.9031
訊	-10.9037
有這	-10.9037
原道	-10.904
有功於	-10.9042
中孚	-10.9043
湊	-10.9044
心體	-10.9044
亦甚	-10.9046
覈	-10.9046
雀	-10.9049
矣故曰	-10.9049
多而	-10.9051
也彼	-10.9051
賓客	-10.9053
擒	-10.9056
土之	-10.9057
夏至	-10.9058
神之	-10.9058
大全	-10.9062
平聲	-10.9063
習之	-10.9064
不習	-10.9065
憲宗	-10.9067
每日	-10.9068
未幾	-10.9071
自見得	-10.9073
也孟子	-10.9078
焉耳	-10.9078
少年	-10.9083
法而	-10.9085
之重	-10.9086
太陽	-10.9088
徳宗	-10.909
其禍	-10.909
其仁	-10.9092
自成	-10.9094
淹	-10.9094
勾	-10.9095
茹	-10.9098
㳟	-10.9098
凉	-10.9104
甚明	-10.9105
以聞	-10.9105
未是	-10.9108
其㫖	-10.9111
怒而	-10.9112
其末	-10.9112
則思	-10.9112
拾遺	-10.9112
凡物	-10.9113
小序	-10.9115
源頭	-10.9117
天神	-10.9118
利欲	-10.9119
太傅	-10.9121
順而	-10.9122
見處	-10.9123
趙公	-10.9123
生理	-10.9124
敬天	-10.9125
之所能	-10.9128
之篇	-10.9129
目之	-10.9131
制作	-10.9131
到底	-10.9132
不動心	-10.9133
不幸而	-10.9136
認得	-10.914
模様	-10.9141
其徒	-10.9142
諸書	-10.9144
見他	-10.9145
奕	-10.9145
不越	-10.9145
格物通卷	-10.9146
以死	-10.9147
配天	-10.9147
評	-10.9148
頽	-10.9148
籥	-10.915
唐人	-10.9151
冐	-10.9153
其大者	-10.9155
亦如此	-10.9156
無物	-10.9157
知禮	-10.916
先人	-10.916
而爲	-10.9161
之勇	-10.9166
金人	-10.9167
天下之物	-10.9168
之令	-10.9168
而逺	-10.9169
無聲	-10.9171
相類	-10.9172
附於	-10.9172
太宰	-10.9175
亡也	-10.9177
者可以	-10.9178
皆謂	-10.9183
經術	-10.9184
無體	-10.9189
因説	-10.919
望其	-10.9192
立教	-10.9194
而推	-10.9195
則易	-10.9196
為人君者	-10.9196
圏	-10.9196
舉業	-10.9196
坑	-10.9202
粒	-10.9203
嫉	-10.9203
跋	-10.9204
不少	-10.9206
喪服	-10.9206
樂天	-10.9207
則生	-10.9207
江河	-10.9207
而得之	-10.9208
日食	-10.921
之女	-10.9212
得罪於	-10.9218
以理	-10.9219
乾卦	-10.9223
全在	-10.9224
而樂	-10.9225
曰王	-10.9225
何人	-10.9226
於今	-10.9227
正䝉	-10.9229
以全	-10.923
一身之	-10.9231
近臣	-10.9237
災異	-10.924
朱子語類卷	-10.924
鬼神之	-10.9241
培	-10.9242
極於	-10.9243
濂溪	-10.9244
疊	-10.9245
可以見	-10.9246
以進	-10.9246
進於	-10.9247
令尹	-10.9248
李先生	-10.9249
過矣	-10.9251
所以教	-10.9251
贓	-10.9252
所向	-10.9253
上下相	-10.9258
無偏	-10.926
根於	-10.9264
終身不	-10.9267
取舍	-10.9275
趙氏	-10.9275
勝則	-10.9276
不避	-10.9283
知幾	-10.9288
主簿	-10.9289
如前	-10.9291
無益於	-10.9292
眀道	-10.9293
在官	-10.9293
不輕	-10.9294
惻隱	-10.9295
彛	-10.9296
度數	-10.9297
狼	-10.9298
轡	-10.9298
人民	-10.9299
一層	-10.9301
盡力	-10.9301
不憂	-10.9303
喪禮	-10.9304
霍	-10.9307
可勝	-10.9308
剖	-10.9308
者尚	-10.931
在地	-10.9311
收歛	-10.9311
也雖然	-10.9313
喜怒哀樂未發	-10.9313
容易	-10.9313
切要	-10.9319
以下皆	-10.9319
大約	-10.9322
孰能	-10.9325
此性	-10.9328
歴代	-10.9328
甚難	-10.9329
而輕	-10.9333
喚	-10.9333
禮文	-10.9334
為萬世	-10.9335
亦不過	-10.9336
吾聞	-10.9339
宋公	-10.9341
極至	-10.9342
北面	-10.9343
不滿	-10.9345
叔向	-10.9345
又不可	-10.9346
妙用	-10.9347
立為	-10.9349
澹	-10.9355
挽	-10.9356
一項	-10.9357
摯	-10.9358
隳	-10.9358
當先	-10.936
婁	-10.936
州刺史	-10.9361
而何	-10.9363
之吏	-10.9363
之議	-10.9364
乎子曰	-10.9364
同一	-10.9365
胸	-10.9368
天下之民	-10.9372
之比	-10.9379
何等	-10.9381
平常	-10.9389
本作	-10.9391
又按	-10.9399
加於	-10.9399
禪學	-10.9399
砥	-10.9404
拾	-10.9404
頴	-10.9404
十四年	-10.9407
後方	-10.9408
以成其	-10.9408
鴈	-10.9409
居上	-10.941
掘	-10.9412
也程子曰	-10.9412
無端	-10.9412
二先生	-10.9413
滋味	-10.9414
垣	-10.9414
優游	-10.9415
亦未嘗	-10.9415
武王之	-10.9416
弓矢	-10.9416
桐	-10.9417
理明	-10.9418
孫子	-10.9418
而不言	-10.9424
做不得	-10.9424
則亂	-10.9424
是以君子	-10.9425
慎獨	-10.9427
節儉	-10.9427
却似	-10.9428
不説	-10.943
合乎	-10.943
貴人	-10.9431
宜其	-10.9431
故孟子	-10.9433
慈愛	-10.9436
親見	-10.9443
只縁	-10.9451
必無	-10.9451
者宜	-10.9453
瘠	-10.9457
寤	-10.9461
之卦	-10.9462
炳	-10.9462
迪	-10.9465
乾元	-10.9465
只是這	-10.9468
好生	-10.9469
遥	-10.9469
之功也	-10.9473
所以爲	-10.9473
無失	-10.9473
人之有	-10.9474
道家	-10.9476
説得好	-10.9478
之君子	-10.9478
秦之	-10.9482
以定	-10.9482
又要	-10.9482
不便	-10.9483
萬化	-10.9486
别無	-10.9487
番	-10.9487
節制	-10.9488
還是	-10.9492
武子	-10.9493
底心	-10.9494
吏民	-10.9497
仁義禮智信	-10.9497
有偏	-10.9499
農桑	-10.9499
退之	-10.9501
高明	-10.9501
盟于	-10.9502
治世	-10.9511
平正	-10.9511
但知	-10.9512
斜	-10.9513
鉤	-10.9513
鶴	-10.9514
窟	-10.9515
慧	-10.9516
能守	-10.9517
廪	-10.9518
㦸	-10.952
挺	-10.9521
教之以	-10.9521
可考	-10.9521
三尺	-10.9526
照管	-10.9527
通判	-10.9527
程傳	-10.9528
未形	-10.9534
之習	-10.9536
通於	-10.9538
第二十	-10.9543
之宗	-10.9544
大司徒	-10.9544
而徒	-10.9545
漠	-10.9545
應事	-10.9546
載之	-10.9547
如孟子	-10.9549
使臣	-10.955
列國	-10.9553
終也	-10.9555
長也	-10.9556
管子	-10.9556
其樂	-10.956
幾於	-10.956
這處	-10.9561
檢討	-10.9562
䆒	-10.9564
萬石	-10.9567
申生	-10.9567
之為言	-10.9569
待其	-10.9569
顓	-10.9569
舛	-10.957
一卦	-10.957
物皆	-10.957
數之	-10.9571
朂	-10.9572
燠	-10.9572
庇	-10.9574
意也	-10.9575
愚者	-10.9575
顛倒	-10.9577
其效	-10.9578
當自	-10.9578
之誤	-10.9578
大亂	-10.9579
者常	-10.958
流涕	-10.958
弑君	-10.958
單于	-10.9581
便是仁	-10.9587
然後為	-10.959
咸淳	-10.9593
無此	-10.9597
為鬼	-10.9601
有竒	-10.9601
曰然則	-10.9603
之罪也	-10.9603
二十二	-10.9604
十人	-10.9605
十數	-10.9605
是從	-10.9606
八十一	-10.9607
書中	-10.9612
王莽	-10.9613
凡此	-10.9614
少有	-10.9615
有節	-10.9615
哉然	-10.962
性字	-10.962
與物	-10.962
灾	-10.9621
羡	-10.9621
直以	-10.9623
寘	-10.9623
一半	-10.9624
方好	-10.9624
終不能	-10.9626
譲	-10.9627
虢	-10.9629
其論	-10.963
取義	-10.9631
留意	-10.9631
曉然	-10.9639
所出	-10.964
推廣	-10.964
之念	-10.9642
危亡	-10.9642
人皆有	-10.9643
教授	-10.9644
秀才	-10.9647
甚至	-10.9651
性中	-10.9656
却只	-10.9661
炙	-10.9667
害之	-10.9668
他便	-10.9668
六七	-10.967
有德	-10.9671
宗之	-10.9671
姑洗	-10.9674
輅	-10.9674
若謂	-10.9676
欠闕	-10.9677
地利	-10.9677
酬酢	-10.9677
與此	-10.9677
駿	-10.9678
電	-10.968
有成	-10.968
眷	-10.9682
翦	-10.9683
好善	-10.9688
寡欲	-10.9689
故言	-10.969
不多	-10.9691
字子	-10.9692
四岳	-10.9692
必是	-10.9693
當如	-10.9694
亦不敢	-10.9694
季通	-10.9695
宋儒	-10.9696
文定	-10.97
不先	-10.97
而去之	-10.9701
大夫士	-10.9704
聚而	-10.9707
亦足以	-10.9711
用刑	-10.9713
想見	-10.9717
於仁	-10.9719
一端	-10.9721
既立	-10.9722
聞之曰	-10.9722
既知	-10.9724
皇祖	-10.9724
仔細	-10.9725
昆	-10.9726
説性	-10.9726
而益	-10.9728
於其中	-10.9728
器之	-10.9733
此條	-10.9734
偕	-10.9735
不難	-10.9735
於時	-10.9736
得力	-10.9736
甲子	-10.9737
同也	-10.9741
故人	-10.9742
則吉	-10.9742
順也	-10.9743
為太子	-10.9745
為三	-10.9746
問於	-10.9747
無能	-10.9752
以養其	-10.9752
小而	-10.9753
之漸	-10.9757
無主	-10.9757
此等處	-10.9762
不可用	-10.9766
屬隂	-10.9767
隴	-10.9769
感人	-10.9772
不同而	-10.9773
只以	-10.9774
而求之	-10.9776
復為	-10.9776
皇皇	-10.9777
峯	-10.9779
瓊	-10.9783
蔽於	-10.9783
孜孜	-10.9784
子貢曰	-10.9784
聨	-10.9785
掇	-10.9786
承天	-10.9786
畿	-10.9788
鸞	-10.9788
孽	-10.9788
其源	-10.979
率性	-10.979
向前	-10.9793
蘇軾	-10.9793
之尊	-10.9794
知行	-10.9796
此只是	-10.9796
自别	-10.9796
循其	-10.9799
變通	-10.9804
困於	-10.9809
史官	-10.981
著於	-10.9811
逺方	-10.9811
焉是	-10.9811
之動	-10.9812
立身	-10.982
化育	-10.982
公卿大夫	-10.9822
易言	-10.9823
老莊	-10.9825
中人	-10.9829
人鬼	-10.983
妹	-10.9832
脊	-10.9836
憫	-10.9838
揣	-10.9838
殽	-10.9839
天命之	-10.9839
渴	-10.984
戀	-10.984
鈎	-10.984
搏	-10.9841
撻	-10.9841
寖	-10.9841
轂	-10.9843
朞	-10.9843
恠	-10.9843
不恭	-10.9843
或以為	-10.9844
亦如	-10.9846
先帝	-10.9848
非若	-10.9848
亡國	-10.9853
樂記	-10.986
新法	-10.9862
只如此	-10.9865
成帝	-10.9865
各得	-10.987
己私	-10.9875
之極也	-10.9878
公田	-10.9879
好色	-10.9879
而不見	-10.988
欲得	-10.9884
形勢	-10.9885
造化之	-10.9886
而可以	-10.9886
在朝	-10.9888
六合	-10.9892
焉夫	-10.9893
近思録	-10.9894
須知	-10.9896
汴	-10.9897
明德	-10.9897
劍	-10.9897
俄	-10.9902
設官	-10.9904
樵	-10.9904
徒以	-10.9905
此一段	-10.9906
老陽	-10.9906
在己	-10.9908
情之	-10.9908
甚於	-10.9911
問學	-10.9911
仁愛	-10.9912
彖辭	-10.9914
切於	-10.9916
正統	-10.9917
蓋以	-10.9917
其序	-10.9918
曰此是	-10.9919
放過	-10.9919
為可	-10.992
極矣	-10.9921
今學者	-10.9925
皆所以	-10.9931
於魯	-10.9933
推行	-10.9933
世家	-10.9935
食肉	-10.9937
伊川謂	-10.9938
将軍	-10.9938
四面	-10.9941
升堂	-10.9942
不分	-10.9946
必當	-10.9946
庶乎	-10.9946
有一箇	-10.9948
之舊	-10.9949
圃	-10.9949
應事接物	-10.9949
笄	-10.9949
以防	-10.995
酒食	-10.9952
初間	-10.9954
不可謂之	-10.9954
安定	-10.9954
小小	-10.9956
他書	-10.9957
喬	-10.996
兼愛	-10.9961
則下	-10.9962
各具	-10.9962
同心	-10.9963
耶曰	-10.9965
為子	-10.9971
人户	-10.9974
吾心之	-10.9974
浩然	-10.9976
也既	-10.9979
𤣥宗	-10.998
帝舜	-10.998
勞苦	-10.9981
東宫	-10.9981
概	-10.9981
稽古	-10.9985
蘇子	-10.9987
于民	-10.9989
世祖	-10.9989
生子	-10.999
不知是	-10.9991
不離乎	-10.9993
正義	-10.9993
祖父	-10.9994
之倫	-10.9995
不進	-10.9997
家法	-10.9997
恁地説	-10.9998
等事	-11
性是	-11.0001
安之	-11.0003
蔓	-11.0004
地中	-11.0004
芒	-11.0005
下有	-11.0005
如孔子	-11.0006
蹙	-11.0008
所當為	-11.0009
醢	-11.0009
從事於	-11.0011
異者	-11.0014
事實	-11.0014
發出	-11.0015
斃	-11.0016
中行	-11.0018
晚年	-11.0019
錄云	-11.0021
在那裏	-11.0022
治水	-11.0023
先主	-11.0024
維持	-11.0024
黄老	-11.0028
婦女	-11.0029
願陛下	-11.0031
官人	-11.0039
不踰	-11.004
侍中	-11.0041
悼	-11.0045
出奔	-11.0049
而知其	-11.005
睢	-11.0057
璘	-11.0057
其外	-11.0062
朝服	-11.0062
之積	-11.0064
譴	-11.0065
虞書	-11.0068
轅	-11.0068
炭	-11.0068
贅	-11.0068
柯	-11.0068
明君	-11.0071
大傳	-11.0072
常有	-11.0075
而不失	-11.0077
正矣	-11.0082
三五	-11.0083
𫝊曰	-11.0085
太𤣥	-11.0086
遷善	-11.0086
極而	-11.0088
北極	-11.0088
以寛	-11.0088
便當	-11.0089
皇太子	-11.009
精氣	-11.009
亦謂	-11.009
有别	-11.0094
世俗之	-11.0097
得盡	-11.0098
呂氏	-11.01
條目	-11.01
又豈	-11.0104
我心	-11.0105
以復	-11.0105
則必有	-11.0106
於天子	-11.0109
哉夫	-11.011
不好底	-11.0112
者但	-11.0113
摘	-11.0113
又無	-11.0114
説出	-11.0114
他說	-11.0114
大公	-11.0114
心便	-11.0115
只恁地	-11.0117
要理㑹	-11.0118
曰惟	-11.0118
亦是如此	-11.0119
雅頌	-11.012
甚善	-11.012
躋	-11.012
谿	-11.0121
弗能	-11.0121
却不是	-11.0122
子之言	-11.0123
官職	-11.0123
之助	-11.0124
燔	-11.0126
人子	-11.0126
初生	-11.0127
燥	-11.0128
親愛	-11.013
靜坐	-11.0131
然必	-11.0132
思其	-11.0133
列於	-11.0135
害事	-11.0135
元豐	-11.0137
是甚	-11.0139
是恁地	-11.0141
雖非	-11.0141
誠以	-11.0146
以報	-11.0147
敢問	-11.0148
琴瑟	-11.0148
未至於	-11.0149
一代	-11.0152
精明	-11.0158
心存	-11.0158
六國	-11.0158
一面	-11.0161
大略	-11.0166
一千	-11.0167
先生問	-11.0169
内有	-11.0169
譚	-11.0172
後有	-11.0172
曰這	-11.0172
以達	-11.0173
盪	-11.0176
之應	-11.0177
老者	-11.0178
剝	-11.018
墾	-11.0181
廷尉	-11.0181
尊長	-11.0182
理財	-11.0184
人之生	-11.0185
小功	-11.0186
財賦	-11.0187
得乎	-11.0188
衣裳	-11.0189
户部	-11.0192
於已	-11.0192
如所謂	-11.0199
不能用	-11.0199
害也	-11.0202
以私	-11.0203
申韓	-11.0203
便無	-11.0205
尚何	-11.0218
未明	-11.0219
發處	-11.022
粉	-11.0226
内史	-11.0228
似乎	-11.0232
以己	-11.0233
紳	-11.0233
其長	-11.0233
膽	-11.0234
芝	-11.0235
軀	-11.0235
崖	-11.0239
也茍	-11.024
奬	-11.024
郢	-11.0241
姊	-11.0241
鬯	-11.0241
軍中	-11.0241
學者之	-11.0244
不遇	-11.0249
雖以	-11.0253
闗中	-11.0254
試之	-11.0254
四寸	-11.0255
重者	-11.0255
皆用	-11.0256
撫州	-11.0257
曰先生	-11.0261
上疏	-11.0261
政治	-11.0262
先立	-11.0264
治家	-11.0265
下生	-11.0265
學者當	-11.0268
上古	-11.0268
而隂	-11.0272
非無	-11.0272
深逺	-11.0277
告于	-11.0278
為孝	-11.0279
人説	-11.0285
人之善	-11.0286
司冦	-11.0287
笙	-11.0288
兩事	-11.0292
所舉	-11.0294
玩索	-11.0294
東向	-11.0294
遞	-11.0295
必由	-11.0298
告之以	-11.03
為賢	-11.03
安樂	-11.0304
慨然	-11.0308
也春秋	-11.0314
出一	-11.0315
百餘	-11.0321
適子	-11.0322
與聖人	-11.0324
門户	-11.0326
易所謂	-11.0327
孝子之	-11.0328
也古者	-11.033
無適	-11.0331
公侯	-11.0332
必不能	-11.0333
匱	-11.0337
器也	-11.0337
篤行	-11.034
非仁	-11.034
衆人之	-11.0341
壊了	-11.0342
不可使	-11.0344
南山	-11.0345
自我	-11.0345
程子云	-11.0345
者不可	-11.0346
是已	-11.0347
潦	-11.0348
魁	-11.0348
緑	-11.0348
可矣	-11.0349
居下	-11.035
殄	-11.0351
赫	-11.0351
豪傑	-11.0351
楹	-11.0353
遂至	-11.0354
泊	-11.0354
雖在	-11.0354
明主	-11.0354
欒	-11.0355
牛羊	-11.0356
律令	-11.036
曰臣	-11.036
之吉	-11.0364
難於	-11.0365
者能	-11.0365
乃得	-11.0366
夫子曰	-11.0366
之俗	-11.037
避之	-11.037
而受	-11.0371
當日	-11.0373
本自	-11.0373
此一節	-11.0377
甚衆	-11.0378
要去	-11.0381
勤勞	-11.0381
都鄙	-11.0383
養生	-11.0385
兵法	-11.0385
長㓜	-11.0386
易得	-11.0386
老成	-11.0392
齊桓公	-11.0392
之始也	-11.0394
曰敬	-11.0394
讀詩	-11.0397
教誨	-11.0398
補注	-11.0398
好事	-11.0401
襟	-11.0402
而治	-11.0402
鶻突	-11.0405
裹	-11.0407
風化	-11.0408
此五者	-11.0408
森	-11.0408
釣	-11.0408
獻公	-11.0409
下士	-11.0409
彚	-11.041
而遽	-11.041
欲人	-11.041
販	-11.0411
子謂	-11.0412
縛	-11.0412
了却	-11.0414
田獵	-11.0415
昔人	-11.0415
之藴	-11.0417
字上	-11.042
眼前	-11.0421
所以有	-11.0424
陽剛	-11.0425
茍非	-11.0425
如齊	-11.0428
不免於	-11.0432
而與之	-11.0435
皆能	-11.0435
又答	-11.0439
衛侯	-11.0443
者也然	-11.0444
以誠	-11.0449
空虚	-11.0452
天官	-11.0452
于外	-11.0453
其子孫	-11.0454
明明徳	-11.0456
畏天	-11.0457
而不用	-11.0457
衫	-11.0458
醮	-11.0461
所蔽	-11.0461
出則	-11.0462
筵	-11.0462
得到	-11.0463
八百	-11.0463
矣然則	-11.0463
寗	-11.0464
致之	-11.0465
縷	-11.0466
㤗	-11.0469
泗	-11.047
棲	-11.047
剛毅	-11.0471
洲	-11.0472
程門	-11.0472
不偏	-11.0472
為樂	-11.0473
得其所	-11.0473
無外	-11.0475
亦可見	-11.0478
今夫	-11.0478
寨	-11.0478
異日	-11.0479
功成	-11.048
動物	-11.048
九州	-11.048
茍能	-11.0481
孟子之言	-11.0481
太尉	-11.0482
不期	-11.0489
悼公	-11.0489
語錄	-11.049
英宗	-11.0491
占得	-11.0501
昭昭	-11.0502
養心	-11.0502
數百	-11.0504
其為人	-11.051
有義	-11.0515
之表	-11.0516
天地之化	-11.0516
篤信	-11.0519
成之者性	-11.052
百畝	-11.052
戕	-11.052
節度	-11.052
以是為	-11.0521
宵	-11.0522
處是	-11.0522
掖	-11.0525
無我	-11.0526
以歸	-11.0527
地方	-11.0532
塟	-11.0533
豈特	-11.0533
伋	-11.0534
篇名	-11.0534
而盡	-11.0535
之刑	-11.0537
衆理	-11.0539
程頥曰	-11.0539
有所得	-11.0539
魯之	-11.0541
繼之以	-11.0544
作易	-11.0544
坤之	-11.0546
諸臣	-11.055
先王之道	-11.0551
斯人	-11.0553
從來	-11.0562
時事	-11.0563
能行	-11.0563
同然	-11.0564
木為	-11.0564
自相	-11.0567
不外乎	-11.057
美惡	-11.0572
吉也	-11.0573
心力	-11.0574
神仙	-11.0574
生知	-11.0577
莊敬	-11.0578
盡善	-11.0579
蟄	-11.058
以輔	-11.0581
戒謹恐懼	-11.0581
詩之	-11.0582
百九十	-11.0583
庾	-11.0587
倫理	-11.0589
隂柔	-11.0591
外戚	-11.0593
獨立	-11.0593
日行	-11.0596
異姓	-11.0598
和順	-11.06
之威	-11.06
方見得	-11.06
侍講	-11.0601
聖人之意	-11.0601
奢侈	-11.0601
一家之	-11.0602
為神	-11.0602
無限	-11.0603
這様	-11.0618
秦王	-11.0618
却又	-11.062
父子君臣	-11.0622
豈不是	-11.0625
為急	-11.0626
則難	-11.0626
四五	-11.0626
至理	-11.0627
之忠	-11.0627
生則	-11.0629
無弊	-11.0631
上章	-11.0632
行義	-11.0633
月之	-11.0633
邪僻	-11.0637
之食	-11.0638
盖以	-11.064
閫	-11.064
䕫孫	-11.0641
豈惟	-11.0641
儻	-11.0642
象數	-11.0643
發揮	-11.0644
衙	-11.0644
許多事	-11.0644
而勿	-11.0645
絶之	-11.0646
通達	-11.0646
宇宙	-11.0646
亦不得	-11.0647
二十一	-11.0647
習俗	-11.0648
持之	-11.0649
甚事	-11.0651
重而	-11.0652
之得失	-11.0655
墨子	-11.0657
萬善	-11.0659
室家	-11.066
舜典	-11.0663
一箇物事	-11.0663
此固	-11.0665
無惡	-11.0665
曰陛下	-11.0665
由其	-11.0665
乃欲	-11.0666
穀梁	-11.0667
乆而	-11.0667
百人	-11.067
自安	-11.0671
以救	-11.0674
古注	-11.0677
不知何	-11.068
雖或	-11.068
士民	-11.0681
計其	-11.0684
告以	-11.0684
一畨	-11.0689
訂	-11.069
周書	-11.0691
亦能	-11.0691
非道	-11.0692
即以	-11.0692
誘之	-11.0692
致仕	-11.0693
者如此	-11.0693
此人	-11.0694
五六	-11.0696
大王	-11.0696
而通	-11.0697
洒	-11.0698
賢不肖	-11.0699
凛	-11.0702
僥倖	-11.0703
軟	-11.0703
下至	-11.0703
何氏曰	-11.0704
猜	-11.0704
者未之有也	-11.0704
藏於	-11.0704
鷹	-11.0705
訾	-11.0706
所主	-11.0706
繕	-11.0707
渝	-11.0707
苐	-11.0708
居官	-11.071
契丹	-11.0713
陽而	-11.0718
底意	-11.072
也於是	-11.0721
太隂	-11.0721
九疇	-11.0722
所說	-11.0723
堯典	-11.0725
曰禮	-11.0726
虚空	-11.0727
靜而	-11.0731
文侯	-11.0731
此一句	-11.0732
賔主	-11.0735
修徳	-11.0735
便與	-11.0735
終無	-11.0736
儘有	-11.0737
嗜欲	-11.074
爾雅	-11.0743
矣况	-11.0744
何可	-11.0745
五章	-11.0746
此法	-11.0748
其術	-11.0752
為宗	-11.0752
與否	-11.0753
他底	-11.0753
綜	-11.0757
梗	-11.0761
偹	-11.0761
向上	-11.0762
書院	-11.0762
祠堂	-11.0765
譖	-11.0765
鐸	-11.0765
死亡	-11.0767
籩豆	-11.0768
乃止	-11.0769
非義	-11.077
未可知	-11.0773
所安	-11.0773
所以養	-11.0774
於衆	-11.0775
列子	-11.0776
又從而	-11.0777
欣	-11.078
韓文公	-11.078
相離	-11.0781
于人	-11.0782
一方	-11.0783
哉此	-11.0783
思所以	-11.0783
申公	-11.0784
三爻	-11.0784
無别	-11.0784
知性	-11.0785
冉	-11.0785
辭氣	-11.0786
羔	-11.0787
為人所	-11.0789
歐	-11.0796
先知	-11.0799
若何	-11.0799
必曰	-11.0799
但言	-11.08
楊時	-11.0806
上看	-11.0806
天以	-11.0812
所係	-11.0814
掛扐	-11.0816
在裏	-11.0817
詖	-11.0821
之由	-11.0821
浄	-11.0822
元亨	-11.0823
俯仰	-11.0824
高下	-11.0825
撞	-11.0825
如是而	-11.0826
腸	-11.0827
異而	-11.0827
百一十	-11.0833
交而	-11.0837
粲然	-11.0839
過人	-11.084
動處	-11.0841
杜佑曰	-11.085
此身	-11.0853
常理	-11.0855
一而已	-11.0857
何如曰	-11.0858
安可	-11.0859
中立	-11.0861
五世	-11.0868
勝負	-11.0869
不如是	-11.087
深入	-11.0871
甚詳	-11.0875
橫渠	-11.0876
一周	-11.0877
秦人	-11.0878
惑於	-11.0878
勺	-11.0882
寕	-11.0885
薰	-11.0885
達道	-11.0885
孔頴達	-11.0885
亦惟	-11.0887
者既	-11.0889
明於	-11.089
直卿	-11.089
沾	-11.0891
是那	-11.0896
日進	-11.0897
者以為	-11.0898
荘子	-11.0899
魯人	-11.0901
無此理	-11.0905
不悦	-11.0906
初不	-11.0907
賢能	-11.0908
不顯	-11.0909
自在	-11.0912
以興	-11.0918
然皆	-11.0919
提舉	-11.0925
語黙	-11.0929
無實	-11.0935
徳明	-11.0936
萬國	-11.0938
恊	-11.0941
無射	-11.0943
形而上	-11.0944
尚未	-11.0946
比於	-11.0946
伎	-11.0949
信乎	-11.0949
三綱	-11.0949
祭於	-11.095
媿	-11.095
杜預	-11.0951
浦	-11.0954
太原	-11.0954
勇者	-11.0956
古今之	-11.0961
一件事	-11.0963
什一	-11.0963
不相似	-11.0964
助長	-11.0967
名實	-11.097
則天	-11.0971
字字	-11.0972
昨日	-11.0972
天下皆	-11.0973
所繫	-11.0973
一歲	-11.0973
自處	-11.0974
一番	-11.0974
四人	-11.0975
仁智	-11.0975
六曰	-11.0976
恐非	-11.0977
明辨	-11.0978
農事	-11.098
古制	-11.0985
之親	-11.0985
方寸	-11.0988
皆言	-11.0991
所施	-11.0993
乃謂	-11.0995
陪	-11.0996
舍之	-11.0997
精義入神	-11.1001
自反	-11.1003
好底	-11.1004
敬以	-11.1005
飄	-11.1006
陳澔曰	-11.1008
已定	-11.1012
心裏	-11.1013
食者	-11.1014
五等	-11.1014
在我者	-11.1015
三百篇	-11.1015
之弟	-11.1015
㤀	-11.1016
即今	-11.1016
畨	-11.1023
先務	-11.1023
朋友之	-11.1032
次曰	-11.1035
舊説	-11.1035
所指	-11.1036
其舊	-11.1037
西漢	-11.1037
不告	-11.1038
若非	-11.1041
月行	-11.1043
事如	-11.1044
近之	-11.1052
反是	-11.1055
誠信	-11.1059
得之矣	-11.1059
三事	-11.1059
何者	-11.106
聞而	-11.1061
極則	-11.1066
武后	-11.1067
充塞	-11.1067
菑	-11.1067
踏	-11.1068
聞道	-11.1068
阡陌	-11.1068
郵	-11.1069
欵	-11.107
窒礙	-11.1071
但其	-11.1071
輦	-11.1072
善政	-11.1073
籌	-11.1073
人不能	-11.1073
組	-11.1074
有淺深	-11.1074
殫	-11.1074
底便是	-11.1075
所愛	-11.1078
柰何	-11.1079
親者	-11.1082
理㑹不得	-11.1083
或言	-11.1086
處若	-11.1088
末流	-11.1088
肉刑	-11.1089
虚明	-11.1092
至尊	-11.1094
大儒	-11.1095
夫以	-11.1095
君徳	-11.1096
魏徵	-11.1096
念念	-11.1099
之法也	-11.11
其半	-11.1101
矣蓋	-11.1102
有先後	-11.1103
時文	-11.1105
審其	-11.1107
數萬	-11.1109
不出於	-11.111
皆以為	-11.111
為名	-11.1111
反為	-11.1113
伊川説	-11.1116
以九	-11.1117
臣聞	-11.1118
義禮智	-11.112
取象	-11.1121
臨之	-11.1121
以善	-11.1123
其業	-11.1124
而加	-11.1124
時已	-11.1128
為首	-11.1129
臆	-11.113
恐人	-11.1131
分司	-11.1131
他那	-11.1132
亾	-11.1132
窮神知化	-11.1134
䟦	-11.1134
怠惰	-11.1134
敵國	-11.1136
苴	-11.114
復禮	-11.1141
戒其	-11.1141
夏四月	-11.1143
善端	-11.1144
循循	-11.1145
春秋傳	-11.1147
自天子	-11.1148
一片	-11.1149
釋老	-11.115
敬義	-11.1151
嘆曰	-11.1154
之以禮	-11.1154
窮究	-11.1155
不聴	-11.1156
失道	-11.1158
㸔來	-11.1159
能致	-11.116
釋奠	-11.1162
改之	-11.1162
五穀	-11.1166
講求	-11.1171
動時	-11.1171
不脩	-11.1172
豈可以	-11.1179
朱氏	-11.1182
四代	-11.1184
流出	-11.1185
本也	-11.1185
一而已矣	-11.1185
罹	-11.1192
相從	-11.1193
畀	-11.1194
被人	-11.1194
之用也	-11.1195
隻	-11.1195
夸	-11.1195
涖	-11.1197
社倉	-11.1199
暌	-11.12
愠	-11.12
富者	-11.12
實心	-11.12
珠玉	-11.1201
盡其道	-11.1202
孔子之言	-11.1207
先師	-11.121
但是	-11.121
總論	-11.1211
元城	-11.1213
關雎	-11.1215
助之	-11.1215
自殺	-11.1215
無一事	-11.1216
說道	-11.1218
無不通	-11.122
知其所	-11.1221
教養	-11.1222
正心誠意	-11.1222
註云	-11.1225
勇於	-11.1225
也以其	-11.1225
諸心	-11.1229
水利	-11.1232
姦邪	-11.1232
畏之	-11.1232
其目	-11.1234
作事	-11.1238
以四	-11.1238
外無	-11.124
處却	-11.1243
如此若	-11.1246
南吕	-11.1248
之事而	-11.125
悌	-11.1253
脂	-11.1256
安頓	-11.1257
二南	-11.1258
闔闢	-11.1259
流而	-11.1259
一個	-11.1259
拳拳	-11.1261
非常	-11.1263
撃	-11.1265
只是說	-11.1266
布帛	-11.1267
過乎	-11.1269
者吾	-11.127
曰古之	-11.1271
中宗	-11.1272
名分	-11.1273
宦者	-11.1275
入道	-11.1276
神農	-11.1276
感發	-11.1282
則固	-11.1283
㑹稽	-11.1284
即有	-11.1285
過此	-11.1285
矣且	-11.1288
一畫	-11.1291
風雷	-11.1291
至扵	-11.1292
大夫之	-11.1292
辭以	-11.1293
其所當	-11.1294
之禮也	-11.1294
何患	-11.1296
屬之	-11.1297
堂上	-11.1299
而不已	-11.13
蠻夷	-11.1302
謂之仁	-11.1303
父子兄弟	-11.1306
是書	-11.1307
誠有	-11.1308
一致	-11.1309
中山	-11.1318
羿	-11.1319
耘	-11.1319
四肢	-11.1322
而還	-11.1322
諸司	-11.1322
齎	-11.1323
盞	-11.1323
立政	-11.1324
瞿	-11.1326
去看	-11.1328
皮弁	-11.1328
而未嘗	-11.1329
厲王	-11.133
能言	-11.133
使知	-11.1337
吉甫	-11.1339
自有箇	-11.134
祀之	-11.1341
郊祀	-11.1341
先覺	-11.1349
亡者	-11.135
如晉	-11.1351
一章曰	-11.1353
其詞	-11.1354
事長	-11.1354
純乎	-11.1355
只當	-11.1357
竭力	-11.1359
此心之	-11.1365
無少	-11.1366
夏時	-11.1366
要知	-11.1367
彖傳	-11.1368
滯於	-11.1368
待人	-11.1368
嵩	-11.1371
變為	-11.1373
報之	-11.1374
正色	-11.1375
未必能	-11.1376
永樂	-11.1379
也人君	-11.138
山下	-11.1381
不屑	-11.1382
提撕	-11.1383
拊	-11.1383
無聲無臭	-11.1384
斯文	-11.1384
韓退之	-11.1385
忙	-11.1385
韜	-11.1385
四章	-11.1385
黄氏日抄卷	-11.1385
謫	-11.1386
人欲之私	-11.1387
僉	-11.1388
逝	-11.1388
分上	-11.1388
將有	-11.1389
仞	-11.139
繒	-11.139
賢於	-11.1391
南康	-11.1393
本來	-11.1393
春王正月	-11.1393
後天	-11.1394
喟然	-11.1395
便成	-11.1397
學易	-11.1397
節次	-11.1398
魏徴	-11.1399
嘗以	-11.14
之色	-11.1406
性命之	-11.1412
是自	-11.1412
整齊	-11.1416
雨露	-11.1419
地道	-11.142
自棄	-11.1421
妻之	-11.1422
正位	-11.1424
於諸侯	-11.1424
㓂	-11.1424
况於	-11.1425
不可廢	-11.1426
不達	-11.1428
地形	-11.1428
黙識	-11.1429
伊川先生曰	-11.1431
金玉	-11.1434
此可見	-11.144
獄訟	-11.1442
天理也	-11.1444
上文集	-11.1444
止於至善	-11.1445
左旋	-11.1445
二十九	-11.1446
証	-11.1447
雖小	-11.1448
王政	-11.1448
撤	-11.1449
囬	-11.1451
之勞	-11.1453
俛	-11.1454
之狀	-11.1455
噬	-11.1456
不茍	-11.1457
祖宗之	-11.1458
者天之	-11.1458
自作	-11.1461
如此而	-11.1463
故無	-11.1466
管蔡	-11.1466
通透	-11.1468
乎人	-11.1468
纔有	-11.1469
如何曰此	-11.1469
民之所	-11.147
轉運	-11.147
於親	-11.1471
發出來	-11.1472
楚王	-11.1472
清植	-11.1475
明乎	-11.1476
便只是	-11.1479
郎中	-11.1481
無服	-11.1484
不任	-11.1484
之心則	-11.1485
事功	-11.1487
行矣	-11.1487
無時不	-11.1488
公劉	-11.1491
老而	-11.1493
十九年	-11.1494
天下而	-11.1495
足為	-11.1495
為邦	-11.1496
勿用	-11.1496
四百	-11.1499
在家	-11.15
禮儀	-11.1504
如彼	-11.1507
於人者	-11.1507
整頓	-11.151
閤	-11.151
定天下	-11.1511
者誠	-11.1511
嘗聞	-11.1513
示之	-11.1513
性與	-11.1514
昏禮	-11.1515
界限	-11.1515
潞	-11.1518
嫂	-11.1519
世道	-11.1519
婚姻	-11.1519
䑕	-11.152
字和	-11.152
裝	-11.1521
朱子謂	-11.1521
謹於	-11.1524
莫先於	-11.1525
得罪	-11.1528
何嘗不	-11.1531
不犯	-11.1532
何耶	-11.1536
不直	-11.1537
全書	-11.1537
蓋有	-11.1537
乎孔子曰	-11.1538
天理流行	-11.1539
馴致	-11.1541
外事	-11.1543
何時	-11.1543
生萬物	-11.1544
聽其	-11.1545
人不知	-11.1548
賢愚	-11.1549
帥師	-11.155
方見	-11.155
無邪	-11.156
諸君	-11.156
這些子	-11.1561
者由	-11.1567
却無	-11.1568
劄子	-11.1569
非正	-11.157
其神	-11.157
而來	-11.1571
而民不	-11.1572
劑	-11.1575
繳	-11.1576
必死	-11.1577
復古	-11.1579
猾	-11.158
理一分殊	-11.1583
鄉飲酒	-11.1584
亦未必	-11.1586
伐齊	-11.1587
豎	-11.1587
蔡京	-11.1587
而好	-11.1589
黍稷	-11.159
不拘	-11.1591
霍光	-11.1591
又嘗	-11.1591
觀於	-11.1593
襄王	-11.1595
方知	-11.1596
朋黨	-11.1598
臨時	-11.1603
是豈	-11.1603
以及人	-11.1605
不懼	-11.1606
有多少	-11.1608
之學也	-11.1608
仕者	-11.1609
集解	-11.1611
美之	-11.1612
劉子	-11.1614
法天	-11.1616
第六	-11.1616
而國	-11.162
黄氏	-11.162
曰寡人	-11.1621
仲尼曰	-11.1621
只是他	-11.1622
相須	-11.1623
存其	-11.1625
而後行	-11.1627
為四	-11.1627
之粟	-11.1634
天氣	-11.1636
各一	-11.164
以威	-11.164
公共	-11.1641
淨	-11.1642
何獨	-11.1642
謾	-11.1642
軸	-11.1643
必有事焉	-11.1644
慚	-11.1646
庖	-11.1646
腔子	-11.1646
簾	-11.1646
葦	-11.1646
學記	-11.1646
麓	-11.1646
芥	-11.1647
周家	-11.1647
澗	-11.1647
未知其	-11.1648
暖	-11.1648
不貴	-11.1649
干戈	-11.1649
鼓舞	-11.1649
蕩蕩	-11.1649
奏事	-11.1654
玄	-11.1654
又似	-11.1656
家貧	-11.1658
徽宗	-11.1659
謂性	-11.1659
𦙍	-11.1661
物來	-11.1661
嬴	-11.1661
之事則	-11.1663
引之	-11.1663
上聲	-11.1663
大畧	-11.1666
如漢	-11.1666
已見	-11.1666
言動	-11.1668
精宻	-11.1669
博文	-11.1675
者莫不	-11.1675
有味	-11.1676
盡己	-11.168
如顔子	-11.1681
親迎	-11.1681
文皇	-11.1682
所禀	-11.1682
惟一	-11.1684
而居	-11.1684
有意於	-11.1684
轉移	-11.1684
而趨	-11.1686
若欲	-11.1686
二書	-11.1687
五典	-11.1687
都督	-11.1689
這物事	-11.169
惡其	-11.1692
生民之	-11.1693
不興	-11.1695
雖若	-11.1698
矣至於	-11.1699
惟知	-11.17
其理則	-11.17
陽生	-11.1701
因時	-11.1701
生之謂性	-11.1703
不雨	-11.1705
豈獨	-11.1708
吾與	-11.1711
風之	-11.1712
齊國	-11.1713
戢	-11.1714
昻	-11.1714
仁之體	-11.1715
汾	-11.1716
博文約禮	-11.1717
秦檜	-11.1717
兢兢業業	-11.1717
雖至	-11.1718
俠	-11.1719
之萌	-11.172
自足	-11.1721
國子監	-11.1723
榮辱	-11.1724
見前	-11.1726
創業	-11.1728
了然	-11.1729
樂正	-11.1729
之益	-11.1733
無一不	-11.1737
乃其	-11.1739
千五百	-11.1739
大德	-11.174
山谷	-11.1741
始于	-11.1743
天地生物之心	-11.1743
王通	-11.1744
曹公	-11.1744
除之	-11.1748
自省	-11.1749
而往	-11.1751
以兵	-11.1752
耳今	-11.1752
冠禮	-11.1754
千人	-11.1755
但恐	-11.1759
不可不察	-11.176
今若	-11.1761
四海之	-11.1762
做底	-11.1763
天下之心	-11.1764
方子	-11.1764
處多	-11.1765
未曾	-11.1765
不給	-11.1767
笏	-11.1769
於義理	-11.177
盛德	-11.177
灑	-11.1772
樊遲	-11.1777
閎祖	-11.1777
之本體	-11.1777
功徳	-11.1778
在人則	-11.1779
慿	-11.178
視聽言動	-11.1782
寂然	-11.1782
魏晉	-11.1783
聖明	-11.1783
汰	-11.1786
三年之喪	-11.1786
淵源	-11.1788
便說	-11.1793
有得於	-11.1796
果有	-11.1799
大家	-11.1799
横渠云	-11.18
告於	-11.18
胡文定	-11.1801
彼之	-11.1803
不載	-11.1803
使學者	-11.1806
四條	-11.1809
者特	-11.1809
無事時	-11.1811
小臣	-11.1812
聖人作易	-11.1813
煞有	-11.1813
愚意	-11.1813
志於道	-11.1814
化而	-11.1817
莫知	-11.1819
其材	-11.182
而觀之	-11.1822
聚也	-11.1823
裡	-11.1827
合而言之	-11.1827
五色	-11.183
隨處	-11.1835
爲人	-11.1837
納之	-11.184
而愈	-11.184
豈容	-11.184
只一	-11.1843
宋太祖	-11.1843
律吕	-11.1843
觀物	-11.1844
無時	-11.1844
可謂知	-11.1845
張栻	-11.1845
軍士	-11.1845
所習	-11.1846
等級	-11.1846
翰林	-11.1847
子房	-11.1847
四凶	-11.1849
莘	-11.1849
穰	-11.185
存得	-11.185
從心	-11.185
變動	-11.1851
莫大焉	-11.1851
辭曰	-11.1853
髙逺	-11.1853
至於此	-11.1854
漬	-11.1854
於市	-11.1856
不可以為	-11.1857
是體	-11.1857
岷	-11.1858
冬十月	-11.186
乾乾	-11.1861
約之	-11.1864
舊說	-11.1865
九經	-11.1866
星辰	-11.1867
作亂	-11.1867
惻	-11.1868
當從	-11.1873
親也	-11.1876
魯君	-11.1878
有終	-11.1879
矣問	-11.1879
看来	-11.1879
夫是之謂	-11.1886
有所謂	-11.1889
大吕	-11.189
不論	-11.189
孝公	-11.1892
一歩	-11.1893
五伯	-11.1896
胷	-11.19
推明	-11.1901
興師	-11.1902
梏	-11.1905
自言	-11.1906
惻隐	-11.1906
篇曰	-11.1907
相闗	-11.1907
學者須是	-11.191
感而遂通	-11.191
遑	-11.191
邪説	-11.1911
揭	-11.1912
逋	-11.1913
㸃檢	-11.1913
同居	-11.1914
歇	-11.1914
鏤	-11.1915
鹿鳴	-11.1916
綦	-11.1917
蓬	-11.1917
之災	-11.192
盾	-11.1922
諺	-11.1923
為下	-11.1925
以為非	-11.1931
其屬	-11.1932
東海	-11.1932
周制	-11.1934
沛	-11.1935
然却	-11.1938
也臣良勝曰	-11.1939
之甚也	-11.1941
知天命	-11.1945
正與	-11.1951
却説	-11.1955
聖人教人	-11.1957
宰我	-11.1958
進學	-11.1959
入學	-11.196
時習	-11.1964
豈知	-11.1964
棣	-11.1968
陜	-11.1969
固守	-11.197
緫	-11.197
為美	-11.1971
宋之	-11.1971
正謂	-11.1972
只作	-11.1974
所貴	-11.1976
鄫	-11.1976
無思	-11.1977
劓	-11.1979
潭	-11.1982
廸	-11.1983
觴	-11.1984
敬以直内義以方外	-11.1984
摶	-11.1985
物格	-11.1995
深切	-11.1997
雖不同	-11.1999
亂而	-11.2
隂陽剛柔	-11.2001
諸路	-11.2006
放肆	-11.2008
充之	-11.2009
李斯	-11.2009
天下之士	-11.201
不肖者	-11.201
其機	-11.2012
微而	-11.2015
而推之	-11.2016
之辭也	-11.2017
自稱	-11.2018
一源	-11.2019
有數	-11.2019
曰天子	-11.2019
讀易	-11.202
不可與	-11.202
洞然	-11.202
茍不	-11.2023
擇善	-11.2023
能得	-11.2023
之時也	-11.2024
言聖人	-11.2026
千百	-11.2026
薦之	-11.2027
叔父	-11.2029
每事	-11.2032
計之	-11.2035
不喜	-11.2036
國無	-11.2038
明善	-11.2042
恤民	-11.2043
漢初	-11.2043
掉	-11.2047
形象	-11.2048
太簇	-11.2048
奉行	-11.2049
天下歸仁	-11.205
此四	-11.2051
見得道理	-11.2052
折衷	-11.2053
械	-11.2054
異時	-11.2056
剽	-11.2057
七分	-11.2057
乎上	-11.2058
二千	-11.2058
悔吝	-11.2058
糞	-11.2058
嘻	-11.2059
二十六	-11.2059
無間斷	-11.2061
卿等	-11.2061
之最	-11.2062
之於身	-11.2064
畢竟是	-11.2064
異矣	-11.2065
習於	-11.2065
國中	-11.2071
萬餘	-11.2073
孔顔	-11.2073
敬親	-11.2077
切己	-11.2077
誠明	-11.2078
超然	-11.2078
由之	-11.2086
記誦	-11.2087
張載	-11.2088
三國	-11.209
臣民	-11.2093
南豐	-11.2093
道之大	-11.2098
為最	-11.2098
陛	-11.21
長吏	-11.2101
可通	-11.2102
是否曰	-11.2103
又復	-11.2106
修其	-11.2106
便做	-11.211
只是如此	-11.2111
乎若	-11.2112
漢髙祖	-11.2112
有善惡	-11.2112
于王	-11.2115
國事	-11.2116
盆	-11.2117
逵	-11.2118
漢武	-11.2118
其象	-11.2118
禫	-11.2119
堯舜禹湯文武	-11.2119
凍	-11.2119
蟻	-11.2122
之詳	-11.2122
菴	-11.2123
一寸	-11.2124
兩人	-11.2129
復何	-11.2129
此二者	-11.213
胡亂	-11.2133
赤子之心	-11.2133
門下	-11.2137
初見	-11.2138
和則	-11.2138
至孝	-11.2141
困窮	-11.2143
致曲	-11.2145
文意	-11.2148
莊周	-11.2152
齊桓	-11.2152
學文	-11.2152
建國	-11.2156
害民	-11.2157
忠義	-11.216
强弱	-11.2161
傷人	-11.2162
以厚	-11.2165
之所存	-11.2171
説箇	-11.2174
而從之	-11.2174
謚	-11.2175
久則	-11.2175
師傅	-11.2176
從祀	-11.2176
盡之矣	-11.2177
揮	-11.2178
心志	-11.2178
曰夫子	-11.2178
知命	-11.218
父在	-11.2181
者心之	-11.2181
吕與叔	-11.2182
者莫如	-11.2184
水土	-11.2184
田里	-11.2184
煉	-11.2185
莭	-11.2185
程顥	-11.2186
以漸	-11.2187
司馬温公	-11.2189
物之性	-11.2189
濤	-11.2189
蜡	-11.219
黥	-11.2191
之間而	-11.2191
齊魯	-11.2192
離乎	-11.2193
軾	-11.2193
二卦	-11.2193
檀弓	-11.2195
要道	-11.2196
精思	-11.2196
呼吸	-11.2197
本諸	-11.2199
無所不通	-11.2199
範圍	-11.2202
知縣	-11.2203
度之	-11.2203
區處	-11.2205
面前	-11.2206
修之	-11.2209
而不窮	-11.2209
蓋其	-11.221
為之主	-11.2212
成矣	-11.2212
如此看	-11.2213
冉有	-11.2214
本根	-11.2215
過不及	-11.2215
焉爾	-11.2221
周徧	-11.2222
入朝	-11.2223
王肅	-11.2224
可以觀	-11.2224
有六	-11.2224
知仁	-11.2225
不能得	-11.2227
人各	-11.2233
漢文	-11.2233
但能	-11.2234
三嵗	-11.2235
讀為	-11.2237
亦不必	-11.2237
底物	-11.2238
未為	-11.2239
德性	-11.2241
與共	-11.2248
又能	-11.2249
鄉原	-11.2251
自昔	-11.2253
至論	-11.2253
衾	-11.2253
號為	-11.2256
甥	-11.2256
諸經	-11.2258
這心	-11.2261
潁	-11.2261
繪	-11.2261
中國之	-11.2263
爼	-11.2264
涯	-11.2265
五品	-11.2265
他事	-11.2267
所處	-11.2271
旺	-11.2271
金水	-11.2272
有間	-11.2272
浙東	-11.2274
司馬遷	-11.2274
古法	-11.2276
五榖	-11.2277
之期	-11.2277
不異	-11.2282
豁然	-11.2284
寛大	-11.2285
不中節	-11.2286
先生曰此	-11.2286
非禮勿	-11.2287
自取	-11.2289
有恒	-11.229
進也	-11.229
未生	-11.2291
立功	-11.2291
深衣	-11.2292
伯豐	-11.2293
子曰君子	-11.2293
舊制	-11.2293
讀史	-11.2295
學道	-11.2298
禁之	-11.2298
應接	-11.2299
十有五	-11.2301
三省	-11.2302
湯之	-11.2307
宗社	-11.2307
數十年	-11.2307
行狀	-11.2308
誰能	-11.2309
乎外	-11.2309
則須	-11.2311
當如何	-11.2313
一行	-11.2313
未達	-11.2315
少時	-11.2317
穆王	-11.2319
孟子謂	-11.2319
五百里	-11.232
便宜	-11.232
山澤	-11.232
骸	-11.2321
則可謂	-11.2322
而取之	-11.2322
冥	-11.2324
朗	-11.2325
誑	-11.2326
不善者	-11.2326
塾	-11.2328
下愚	-11.2328
大衍	-11.233
頸	-11.2331
諸葛亮	-11.2331
廼	-11.2333
佃	-11.2335
乃命	-11.2336
天下之道	-11.2336
幾微	-11.2338
無以異	-11.2338
罷之	-11.2339
之半	-11.2339
閨門	-11.2339
何以能	-11.234
所當然	-11.2342
細宻	-11.2343
良法	-11.2343
令其	-11.2345
黄門	-11.2345
正名	-11.2346
器械	-11.2346
秋七月	-11.2346
有益於	-11.2347
坎離	-11.2348
使得	-11.2348
詩言	-11.2348
西域	-11.2349
定位	-11.2349
性分	-11.2351
賈林曰	-11.2352
貨財	-11.2353
仁厚	-11.2354
在上者	-11.2357
之端也	-11.2359
昭明	-11.2359
一重	-11.2361
底便	-11.2365
曰敢問	-11.2366
立廟	-11.2368
古樂	-11.2369
奪其	-11.2371
不擇	-11.2373
聞者	-11.2373
奉養	-11.2376
民情	-11.2378
今既	-11.2383
講讀	-11.2383
五寸	-11.2388
方士	-11.2389
問孔子	-11.239
畫卦	-11.2396
藁	-11.2398
大叚	-11.2398
瀾	-11.2399
四者之	-11.2399
其質	-11.2399
倘	-11.24
一例	-11.2401
恰似	-11.2402
壙	-11.2404
博施濟衆	-11.2405
驛	-11.2406
之急	-11.2407
浴	-11.2407
斬衰	-11.2409
跖	-11.241
立心	-11.241
㸔他	-11.2411
亦自有	-11.2411
何敢	-11.2413
約束	-11.2415
二三子	-11.2415
之容	-11.2417
躐等	-11.242
其宜	-11.2422
能用	-11.2425
難處	-11.2426
父老	-11.2426
成書	-11.2427
上做工夫	-11.2429
齋戒	-11.2429
凡言	-11.2431
不可言	-11.2434
所共	-11.2435
何待	-11.2437
聖王之	-11.2437
於氣	-11.2437
有害	-11.2438
名之曰	-11.2438
月日	-11.244
未發之前	-11.244
某謂	-11.2442
史書	-11.2443
不亡	-11.2443
禀得	-11.2449
五禮	-11.2451
不足道	-11.2451
天地之中	-11.2452
掌邦	-11.2456
之頃	-11.2457
不虞	-11.2457
而歸之	-11.246
有不同	-11.246
如舜	-11.2461
秤	-11.2466
吾輩	-11.2468
於聖人	-11.2468
瞽瞍	-11.2469
邸	-11.2469
褒貶	-11.247
疫	-11.2471
不過如此	-11.2472
以致其	-11.2472
鐡	-11.2475
賑濟	-11.2475
煙	-11.2478
已然	-11.2478
十六年	-11.2481
不可測	-11.2481
絞	-11.2482
挑	-11.2483
昌黎	-11.2483
甚者	-11.2485
公平	-11.2486
名義	-11.2488
老隂	-11.2489
擇之	-11.249
三變	-11.2492
程頤	-11.2494
天體	-11.2501
不得其正	-11.2507
想是	-11.2508
由是觀之	-11.2509
其教	-11.251
不可得也	-11.251
充其	-11.2511
以德	-11.2513
此病	-11.2514
大君	-11.2514
相資	-11.2515
于下	-11.2518
百世之	-11.2519
直指	-11.252
當然之理	-11.2523
只用	-11.2524
全然	-11.2529
順應	-11.2529
至死	-11.253
判官	-11.2531
蔬	-11.2533
仁孝	-11.2536
窮得	-11.2537
以給	-11.2538
乎對曰	-11.2541
不仕	-11.2541
蔣	-11.2541
揲蓍	-11.2542
害人	-11.2542
五常之	-11.2542
驩	-11.2543
燎	-11.2543
得正	-11.2544
顓頊	-11.2545
原於	-11.2547
兢兢	-11.2547
姿	-11.2548
逓	-11.2551
臣妾	-11.2551
休戚	-11.2551
岷隱曰	-11.2552
犯法	-11.2553
相交	-11.2553
至德	-11.2554
題目	-11.2558
先是	-11.2558
得一箇	-11.2559
為主而	-11.2561
並進	-11.2562
已矣	-11.2562
無違	-11.2562
要當	-11.2562
唐宋	-11.2566
踐形	-11.2566
所樂	-11.2567
天子之孝	-11.2573
不足為	-11.2573
廓	-11.2577
天道之	-11.2579
閒居	-11.2581
五千	-11.2586
道統	-11.2587
此道理	-11.2588
史臣	-11.2597
事父	-11.26
可信	-11.26
亦已	-11.2601
仁矣	-11.2601
豈可不	-11.2602
諸國	-11.2604
所以治	-11.2606
建中	-11.2608
著意	-11.2608
悔亡	-11.2609
御纂朱子全書	-11.261
牌	-11.2612
說到	-11.2612
袂	-11.2615
康誥	-11.2615
了他	-11.2615
一太極	-11.2616
卦畫	-11.2616
帯	-11.2616
訐	-11.2617
其言曰	-11.2619
刑者	-11.262
亦與	-11.2621
庵	-11.2621
祭酒	-11.2622
儆戒	-11.2622
經緯	-11.2622
滑	-11.2622
哲宗	-11.2627
此爻	-11.2628
大倫	-11.2629
防其	-11.263
前有	-11.2634
不得其所	-11.2635
其迹	-11.2635
上理㑹	-11.2638
四國	-11.2639
賞之	-11.264
以仁義	-11.264
扶持	-11.2641
子胥	-11.2641
與孟子	-11.2642
推此	-11.2643
盡忠	-11.2645
不遷	-11.2645
些小	-11.265
名臣	-11.2652
心常	-11.2652
五服	-11.2653
致敬	-11.2655
有未盡	-11.2659
奈	-11.266
之祖	-11.2661
既曰	-11.2661
着力	-11.2661
國初	-11.2661
關中	-11.2662
所恃	-11.2667
楊子	-11.2667
爻辭	-11.2669
動其心	-11.2673
又恐	-11.2673
二君	-11.2677
為功	-11.2678
而後知	-11.268
孔安國	-11.2682
及物	-11.2682
用意	-11.2682
不愧	-11.2686
兀	-11.2687
禮樂刑政	-11.2687
張氏曰	-11.2687
鎬	-11.2688
沖	-11.2688
富人	-11.2689
人掌	-11.2689
廂	-11.269
公孫丑	-11.269
揖讓	-11.269
下梢	-11.269
性理大全書卷	-11.2691
鄂	-11.2693
咏	-11.2694
學者須	-11.2695
附㑹	-11.2695
彫	-11.2695
濵	-11.2695
宸	-11.2697
緇	-11.2698
餽	-11.2699
不留	-11.27
下詔	-11.2701
貝	-11.2702
奉天	-11.2706
感格	-11.2707
境界	-11.2707
四德	-11.2709
六律	-11.271
矣子曰	-11.271
其精	-11.271
者無不	-11.2711
為師	-11.2715
各隨	-11.2719
無不盡	-11.2721
之地而	-11.2721
七百	-11.2723
日用間	-11.2725
能敬	-11.2725
大概	-11.2725
本然之性	-11.2726
茫	-11.2728
不熟	-11.273
所掌	-11.2736
大同	-11.2738
祭禮	-11.2738
克治	-11.2739
從政	-11.2744
悠	-11.2744
神妙	-11.2745
偏於	-11.2747
授受	-11.2747
覲	-11.2749
鄉大夫	-11.2751
委之	-11.2752
濁者	-11.2756
萬象	-11.2756
仁心	-11.2758
一邉	-11.2758
別	-11.2758
縦	-11.2758
如此則是	-11.2759
五峰	-11.2759
明明	-11.276
其主	-11.2762
取法	-11.2763
之苦	-11.2763
只説得	-11.2765
地氣	-11.2766
抽	-11.2767
風氣	-11.2768
艮其背	-11.2769
接續	-11.2769
形質	-11.277
如此其	-11.277
體物	-11.2771
騫	-11.2771
矛	-11.2773
可久	-11.2774
性本	-11.2777
竊恐	-11.2779
而興	-11.2781
至當	-11.2783
十八年	-11.2784
赤道	-11.2785
今天下	-11.2786
斁	-11.2786
臨川	-11.2786
此特	-11.2787
主静	-11.2787
便謂	-11.279
開闢	-11.279
夫子之言	-11.2791
交易	-11.2794
所著	-11.2795
一鄉	-11.2795
户口	-11.2797
以示人	-11.2798
却要	-11.2799
徳義	-11.2799
上意	-11.2804
反身	-11.2806
期於	-11.2806
君子觀	-11.281
斯為	-11.2812
以求其	-11.2814
因事	-11.2816
茍有	-11.2818
人品	-11.2819
地理	-11.282
往者	-11.2821
峰	-11.2823
三徳	-11.2824
洒掃應對	-11.2827
猗	-11.2832
孝文	-11.2833
堂下	-11.2833
跛	-11.2835
渣滓	-11.2836
薫	-11.2836
應變	-11.2836
臣請	-11.2837
亶	-11.2838
之主也	-11.2839
二帝三王	-11.284
未有能	-11.284
為吏	-11.2841
周孔	-11.2841
凱	-11.2841
肅然	-11.2841
南軒張氏曰	-11.2841
冺	-11.2841
事母	-11.2841
無迹	-11.2843
詩經	-11.2846
饑寒	-11.2849
意在	-11.2853
五分	-11.2854
後便	-11.2854
類論	-11.2854
君臣上下	-11.2855
八分	-11.2855
於父母	-11.2856
五官	-11.2857
其節	-11.2857
攻其	-11.2858
節度使	-11.286
八政	-11.2861
成德	-11.2863
取天下	-11.2866
此二句	-11.2866
諫曰	-11.2867
時方	-11.2868
氣力	-11.287
有象	-11.2872
其首	-11.2874
存則	-11.2877
土木	-11.288
五性	-11.2884
都在	-11.2884
富而	-11.2888
矣是故	-11.2895
天之所以	-11.2897
已甚	-11.2901
不仁者	-11.2903
不煩	-11.2903
任賢	-11.2904
茲	-11.2905
南陽	-11.2906
即天	-11.2907
其任	-11.2907
存心養性	-11.2908
成康	-11.2909
定制	-11.2909
晁	-11.2909
得些	-11.2911
其官	-11.2911
不交	-11.2911
徂	-11.2911
之策	-11.2911
老少	-11.2912
尖	-11.2912
避嫌	-11.2913
漢人	-11.2913
衽	-11.2914
耽	-11.2914
夏后氏	-11.2914
䑓	-11.2914
仲淹	-11.2915
櫛	-11.2915
豈徒	-11.2915
愽	-11.2918
斷之	-11.2918
此最	-11.2918
有大小	-11.2921
敬夫	-11.2923
凝聚	-11.2929
善乎	-11.293
江漢	-11.2932
此兩句	-11.2933
數月	-11.2934
所立	-11.2935
品節	-11.2936
至若	-11.2939
陳平	-11.2939
了翁	-11.2941
無一人	-11.2945
其祖	-11.2946
一經	-11.2947
同上	-11.295
舍人	-11.2951
其視	-11.2958
伊川說	-11.2959
深厚	-11.296
晉文公	-11.2963
情狀	-11.2965
不與焉	-11.2968
地頭	-11.2969
為水	-11.2976
知其為	-11.2976
若果	-11.2976
有條理	-11.2979
愛物	-11.298
三等	-11.298
君子之學	-11.298
浹	-11.2982
咈	-11.2985
菽	-11.2989
洋洋	-11.299
切已	-11.299
主上	-11.2991
緦	-11.2991
只是這箇	-11.2992
問於孔子曰	-11.2992
禮運	-11.2994
地勢	-11.2995
於廟	-11.2995
仕宦	-11.2995
之數也	-11.2996
方且	-11.2997
寛裕	-11.2997
不同者	-11.2998
之言而	-11.2998
敞	-11.2998
古之君子	-11.3001
封禪	-11.3002
萬年	-11.3004
居業	-11.3004
蓋亦	-11.3005
曰臣聞	-11.3006
四子	-11.3009
既定	-11.301
一尺	-11.301
於此者	-11.3016
静中	-11.3016
可以知	-11.3018
如何㑹	-11.3019
聖主	-11.302
貧而	-11.302
致力	-11.3033
自去	-11.3033
古之學者	-11.3033
黎民	-11.3034
聖人因	-11.3034
百四十	-11.3035
棄其	-11.3037
君親	-11.3037
諸篇	-11.3038
六條	-11.3041
次日	-11.3041
唐虞三代	-11.3041
不能已	-11.3049
百八十	-11.3049
虚無	-11.3051
族人	-11.3052
天下之大本	-11.3056
稔	-11.306
取勝	-11.306
蘊	-11.3061
掲	-11.3062
未可以	-11.3062
而坐	-11.3063
貿	-11.3064
鵠	-11.3064
殁	-11.3065
弧	-11.3065
意見	-11.3066
姻	-11.3066
攜	-11.3067
繼母	-11.3068
迅	-11.3068
位乎	-11.3069
商鞅	-11.307
莫大乎	-11.307
未發時	-11.307
諄諄	-11.3071
陜西	-11.3071
子貢問	-11.3071
家事	-11.3072
如何先生曰	-11.3075
楊氏曰	-11.3076
辭讓	-11.3079
不勉	-11.3081
先公	-11.3082
成誦	-11.3083
九重	-11.3083
端緒	-11.3084
韓公	-11.309
至聖	-11.3091
四十九	-11.3092
上行	-11.3093
舉措	-11.3093
疑於	-11.3094
而教之	-11.3094
傅説	-11.3096
歐陽公	-11.3096
詹	-11.3096
從頭	-11.3098
禮節	-11.3101
古聖賢	-11.3101
講究	-11.3103
之盛也	-11.3107
源流	-11.3109
且要	-11.3109
未曉	-11.3112
文書	-11.3113
所遇	-11.3113
識者	-11.3115
却只是	-11.3116
可笑	-11.3116
同志	-11.3117
推本	-11.3118
而不息	-11.3119
有天下者	-11.3127
亦且	-11.3127
數人	-11.3131
譯	-11.3133
系	-11.3135
直截	-11.3135
不相干	-11.3136
雹	-11.3136
絮	-11.3137
純亦不已	-11.3138
牡	-11.3138
遲速	-11.3141
瑣	-11.3143
木訥	-11.3145
進賢	-11.3145
晳	-11.3146
似亦	-11.3147
下句	-11.3149
屍	-11.3151
或人	-11.3152
未濟	-11.3152
此章言	-11.3153
不啻	-11.3157
犬馬	-11.3158
生事	-11.316
否曰固是	-11.316
冉求	-11.3161
昊	-11.3161
語云	-11.3163
皆善	-11.3163
長久	-11.3164
執其	-11.3165
不理㑹	-11.3166
司寇	-11.3167
係於	-11.3167
也詩曰	-11.3169
極言	-11.3169
一見	-11.3172
仁政	-11.3174
善道	-11.3176
既濟	-11.3177
觀其所	-11.318
要如此	-11.3184
八寸	-11.3186
主祭	-11.3188
對曰臣	-11.3188
固可	-11.319
之生也	-11.3193
世變	-11.3195
耳如	-11.3195
皆可以	-11.3197
千金	-11.3197
留心	-11.3197
和親	-11.3201
持養	-11.3202
本分	-11.3202
就此	-11.3207
大將軍	-11.3207
兖	-11.3208
吳王	-11.3209
無忌憚	-11.3209
冡宰	-11.3211
魯國	-11.3211
狃	-11.3213
拆	-11.3214
那時	-11.3215
悶	-11.3216
沽	-11.3216
一動一靜	-11.3216
蓍龜	-11.3218
鷄	-11.3219
鄆	-11.322
外内	-11.322
道徳之	-11.3221
不悟	-11.3222
搆	-11.3223
以上論	-11.3223
者耶	-11.3225
尊徳性	-11.3225
子路曰	-11.3226
京兆	-11.3227
控	-11.3228
之歌	-11.3229
折獄	-11.323
人以為	-11.323
不屈	-11.323
厯家	-11.3231
未萌	-11.3232
百二十	-11.3234
便道	-11.3235
猶恐	-11.3237
韓魏公	-11.3237
真有	-11.324
只見得	-11.324
其根	-11.3245
讀爲	-11.3246
此禮	-11.3248
㸔文字	-11.3248
漢興	-11.3249
他却	-11.325
安得有	-11.3252
一説	-11.3253
笑曰	-11.3255
詩傳	-11.3257
慮其	-11.3258
天運	-11.3258
大路	-11.326
六官	-11.3262
生靈	-11.3263
鄉遂	-11.3263
國史	-11.3263
須當	-11.3264
大聖	-11.3264
志學	-11.3265
學校之	-11.3266
一箇道理	-11.3267
敢不	-11.3267
不可輕	-11.3268
東都	-11.3269
疾苦	-11.3273
所難	-11.3273
是甚麽	-11.3273
窮理盡性	-11.3276
無咎	-11.328
士君子	-11.3283
變故	-11.3283
可復	-11.3283
修己	-11.3283
萬物之理	-11.3283
萬幾	-11.3284
一隅	-11.3287
之黨	-11.3288
道問學	-11.3288
絀	-11.3289
做將去	-11.3289
不答	-11.3289
莫知其	-11.329
邈	-11.3292
國政	-11.3293
爾等	-11.3295
掾	-11.3295
裼	-11.3296
號曰	-11.3297
慄	-11.3297
直内	-11.3298
怙	-11.3298
隂陽之氣	-11.3299
亭户	-11.33
致用	-11.3302
竪	-11.3302
庠序	-11.3302
過揲	-11.3303
焉者也	-11.3305
不能勝	-11.3306
弑其君	-11.3308
羞惡之心	-11.3308
之本意	-11.331
大夫曰	-11.3318
勉勉	-11.3318
將何	-11.3319
敎化	-11.3319
非吾	-11.3323
年間	-11.3323
已上	-11.3324
不透	-11.3325
緡	-11.3332
子雲	-11.3333
時雨	-11.3338
賞賜	-11.3338
同時	-11.3342
自不同	-11.3345
春正月	-11.3345
不昧	-11.3355
心統性情	-11.3358
本源	-11.3361
兢	-11.3362
杯	-11.3365
說得好	-11.3365
璋	-11.3367
慎其	-11.3369
億兆	-11.3369
謔	-11.3369
漿	-11.337
秦漢以來	-11.337
朢	-11.3372
墓誌	-11.3372
若要	-11.3373
為太極	-11.3373
廖	-11.3373
懸空	-11.3375
竅	-11.3376
麾	-11.3377
固執	-11.3377
百七十	-11.338
仁體	-11.3381
愉	-11.3381
尚存	-11.3382
不悖	-11.3382
性之所	-11.3383
矣然而	-11.3383
字義	-11.3384
齊景公	-11.3385
翠	-11.3389
君子之所	-11.3391
和糴	-11.3394
大器	-11.3394
之所及	-11.3394
凡此皆	-11.3395
其父母	-11.3395
説了	-11.3396
人倫之	-11.3396
得於心	-11.3397
亞夫	-11.3397
二十三	-11.3399
天降	-11.34
治安	-11.3402
育萬物	-11.3403
皇天	-11.3406
守約	-11.3406
張良	-11.3409
崇徳	-11.3412
倉卒	-11.3413
之㣲	-11.3413
其欲	-11.3415
萬民之	-11.3416
無所容	-11.3417
備而	-11.3419
八音	-11.342
似有	-11.3421
而不復	-11.3424
王后	-11.3426
亦必有	-11.3426
魯公	-11.3427
解經	-11.3432
無補	-11.3433
問其故	-11.3435
僖祖	-11.3435
無節	-11.344
穆穆	-11.344
不同然	-11.3442
涪	-11.3443
而况於	-11.3443
於人也	-11.3443
篤志	-11.3445
中庸言	-11.3446
熈寧	-11.3446
𣙜	-11.3448
治國平天下	-11.3448
串	-11.3449
纒	-11.3449
之行也	-11.345
一兩	-11.3451
只一般	-11.3451
曼	-11.3451
㢤	-11.3453
劣	-11.3453
庻幾	-11.3456
媵	-11.3456
詩中	-11.3456
尺寸	-11.3457
兵部	-11.3459
主靜	-11.3459
古昔	-11.3459
毁譽	-11.346
晉文	-11.3462
效之	-11.3466
體驗	-11.3466
伯禽	-11.3467
非真	-11.3469
有本	-11.3471
推己	-11.3475
節節	-11.3483
嗟乎	-11.3483
温厚	-11.3488
草木之	-11.3489
而巳	-11.3489
將相	-11.3492
天行	-11.3492
其病	-11.3496
范氏曰	-11.3496
何害	-11.3497
祭器	-11.3497
闗雎	-11.3497
所從來	-11.3499
陽動	-11.3499
此一事	-11.35
山水	-11.3501
使我	-11.3505
精熟	-11.351
黄金	-11.3511
世宗	-11.3513
而已哉	-11.3515
黙然	-11.3517
世世	-11.3519
而有以	-11.3523
爐	-11.3524
愛君	-11.3525
撮	-11.3526
錮	-11.3527
先天圖	-11.3527
者鮮矣	-11.3528
譛	-11.3528
壑	-11.3528
其原	-11.3529
一動一静	-11.3529
𠂻	-11.3529
鑚	-11.3531
之時而	-11.3531
筋	-11.3531
狠	-11.3532
乖戾	-11.3532
不能及	-11.3532
輻	-11.3533
鼠	-11.3533
季札	-11.3533
紐	-11.3534
駒	-11.3534
雷風	-11.3534
攬	-11.3535
陸贄	-11.3537
藪	-11.3538
藩鎮	-11.3539
不足則	-11.3539
執之	-11.3539
洋	-11.3541
正義曰	-11.3543
近習	-11.3544
穉	-11.3544
以充	-11.3545
天地萬物之理	-11.3547
精力	-11.3548
而不亂	-11.3548
心法	-11.3549
參之	-11.355
不能知	-11.355
且就	-11.3556
文景	-11.3556
時便是	-11.3558
以勸	-11.3559
世界	-11.3562
未嘗無	-11.3563
馬氏	-11.3564
所以求	-11.3565
曉不得	-11.3566
授以	-11.3567
未發之中	-11.3569
哀哉	-11.357
以授	-11.3571
無有不	-11.3571
譏之	-11.3573
室中	-11.3575
之中又	-11.3576
差了	-11.3577
罔不	-11.3579
所以謂之	-11.3581
昊天	-11.3585
相連	-11.3585
屬於	-11.3586
氏補	-11.3587
受用	-11.3592
刑賞	-11.3598
圖書	-11.3601
傭	-11.3602
委任	-11.3603
眇	-11.3604
九卿	-11.3605
詎	-11.3606
舂	-11.3606
摸	-11.3608
立朝	-11.3609
澮	-11.3609
也其曰	-11.3609
眚	-11.361
憧憧	-11.361
為忠	-11.3611
箇甚麽	-11.3611
噬嗑	-11.3612
不能入	-11.3613
六尺	-11.3615
嘉祐	-11.3618
惻怛	-11.3618
無用之	-11.3619
濳	-11.3621
先須	-11.3621
間隔	-11.3622
猶在	-11.3623
有些子	-11.3627
中來	-11.3629
者亦有	-11.3629
這些	-11.3629
作聖	-11.363
刑獄	-11.3631
財物	-11.3631
以喻	-11.3632
繫於	-11.3634
對待	-11.3635
孔孟之	-11.3636
與衆	-11.3636
明道先生曰	-11.3644
治體	-11.3647
好名	-11.365
智力	-11.3651
祖母	-11.3654
得恁地	-11.3655
精密	-11.3656
虚靈	-11.3658
侍坐	-11.3658
於後世	-11.3658
田賦	-11.3658
又多	-11.3661
威福	-11.3662
又况	-11.3663
莫之能	-11.3664
以此知	-11.3665
徒知	-11.3665
程頥	-11.3667
感之	-11.3672
正身	-11.3673
方伯	-11.3676
顏	-11.3676
予曰	-11.3678
也易曰	-11.3678
交錯	-11.3678
承上	-11.3678
是猶	-11.3679
一隂一陽之謂道	-11.3679
端的	-11.368
而不失其	-11.3681
賚	-11.3685
苞	-11.3686
廊	-11.369
逐一	-11.3691
分明是	-11.3692
圉	-11.3693
种	-11.3693
母子	-11.3694
稀	-11.3694
則民不	-11.3695
揚子雲	-11.3695
岡	-11.3695
衆多	-11.3695
聳	-11.3695
整齊嚴肅	-11.3696
進德	-11.3696
合宜	-11.3696
湘	-11.3697
禁中	-11.3698
敬宗	-11.3699
愬	-11.3699
百王	-11.3702
昭然	-11.3703
先王以	-11.3704
六典	-11.3706
懼其	-11.3709
天意	-11.371
頓首	-11.3713
只知	-11.3713
其所以然	-11.3714
廣狹	-11.3718
失之矣	-11.3725
六日	-11.3725
救民	-11.3727
昭著	-11.3728
近年	-11.3729
天下之動	-11.3729
不干	-11.3731
孔子言	-11.3734
這意思	-11.3734
利禄	-11.3735
章帝	-11.3737
専一	-11.3738
慨	-11.3739
既久	-11.3742
失其所	-11.3742
荆州	-11.3742
切近	-11.3743
不恁地	-11.3744
尹氏曰	-11.3744
亦未嘗不	-11.3745
形影	-11.3747
故舊	-11.3748
實見得	-11.375
一官	-11.3753
韓非	-11.3753
朱子曰此	-11.3762
陋巷	-11.3764
無忌	-11.3765
匏	-11.3766
讀論語	-11.3766
慈母	-11.3767
文勢	-11.3767
二語	-11.3767
戱	-11.3767
故特	-11.3768
二陽	-11.3769
宣子	-11.3769
杜撰	-11.377
霧	-11.377
引詩	-11.3771
具在	-11.3772
初非	-11.3772
斵	-11.3772
便覺	-11.3772
包括	-11.3772
㐫	-11.3773
文詞	-11.3774
蓮	-11.3775
㕘	-11.3776
受業	-11.3776
有所見	-11.3777
沐浴	-11.3777
門弟子	-11.3779
本非	-11.3779
夷齊	-11.3779
光大	-11.378
三寸	-11.378
底工夫	-11.378
葺	-11.378
判然	-11.3781
答問	-11.3781
婦人之	-11.3781
冨	-11.3785
由此觀之	-11.3787
一言而	-11.3789
於此矣	-11.379
所自來	-11.3791
未必皆	-11.3791
孔子對曰	-11.3792
二篇	-11.3792
聖賢言語	-11.3795
好樂	-11.3797
御史大夫	-11.3799
約禮	-11.3799
九寸	-11.38
討論	-11.3801
惠王	-11.3801
不經	-11.3802
不令	-11.3806
見天地之心	-11.3807
人事之	-11.3812
失禮	-11.3813
下手處	-11.3817
又如何	-11.3818
顯然	-11.382
遇有	-11.3826
知來	-11.3828
長沙	-11.3831
以氣言	-11.3834
乎其中	-11.3837
類此	-11.384
田野	-11.3841
穿窬	-11.3846
夔	-11.3848
褐	-11.3849
相逺	-11.385
更須	-11.3852
呌	-11.3852
煥	-11.3853
仁之方	-11.3853
初年	-11.3853
昇	-11.3855
賢君	-11.3855
驥	-11.3855
詳見	-11.3855
家禮	-11.3856
肄	-11.3856
帙	-11.3856
時祭	-11.3856
街	-11.3856
鞏	-11.3857
腥	-11.3857
湖南	-11.3857
龎	-11.3859
閭閻	-11.3859
甲兵	-11.3862
檄	-11.3862
一徳	-11.3863
更相	-11.3866
某舊	-11.3867
也及其	-11.3867
大司馬	-11.3867
朔望	-11.3869
名節	-11.3869
二氏	-11.3873
往来	-11.3873
日星	-11.3879
十七年	-11.388
只恁	-11.3881
詔令	-11.3885
臨朝	-11.3886
記之	-11.3888
趨向	-11.3889
嵗時	-11.3892
盈虚	-11.3893
真偽	-11.3895
難言	-11.3895
十有二月	-11.3896
樂毅	-11.3898
我我	-11.3899
不住	-11.3899
夫子之道	-11.3901
林鐘	-11.3901
又不能	-11.3902
未暇	-11.3903
否曰此	-11.3904
聽命	-11.3905
左氏曰	-11.3907
惜其	-11.3907
以助	-11.3907
術數	-11.3908
兩漢	-11.3909
大學之道	-11.3911
門之外	-11.3912
承平	-11.3918
性即	-11.392
礼	-11.392
騷	-11.3927
箸	-11.3928
于天下	-11.3929
挨	-11.3929
晴	-11.3931
性即理也	-11.3932
汩	-11.3933
蕪	-11.3934
絡	-11.3936
用工夫	-11.3937
燧	-11.3938
王朝	-11.3938
却云	-11.3939
涕泣	-11.394
正應	-11.394
軫	-11.394
姒	-11.3941
寂滅	-11.3942
曽子曰	-11.3943
構	-11.3945
誦之	-11.3946
武臣	-11.3946
范公	-11.3948
哀毁	-11.3949
充實	-11.395
粱	-11.3952
明道曰	-11.3952
念之	-11.3954
秦始皇	-11.3955
九江	-11.3955
江淮	-11.3957
妣	-11.3957
凶荒	-11.3958
永嘉	-11.3958
用之則	-11.3959
司馬公	-11.3961
有之矣	-11.3965
國之君	-11.3967
就是	-11.397
盡禮	-11.3971
之柄	-11.3973
大舜	-11.398
侍讀	-11.398
尤當	-11.398
事情	-11.398
誠意正心	-11.3983
武功	-11.3983
克去	-11.3986
永按	-11.3989
不懈	-11.3991
箇物事	-11.3993
必勝	-11.3996
詳矣	-11.3997
事體	-11.4001
喪祭	-11.4002
止于	-11.4004
直道	-11.4005
祭義	-11.401
二爻	-11.401
璣	-11.4014
臘	-11.4015
官爵	-11.4016
横渠先生	-11.4017
卷五	-11.4017
陸子静	-11.4017
穎	-11.4018
二者皆	-11.4019
而殺之	-11.4019
公家	-11.402
帑	-11.402
故次	-11.402
快活	-11.4021
泮	-11.4021
琮	-11.4021
闘	-11.4023
鹵	-11.4024
兎	-11.4025
両	-11.4025
至微	-11.4026
顔氏	-11.4028
祭天	-11.4028
勉強	-11.4028
黼	-11.4029
歎息	-11.4034
歸妹	-11.4038
此叚	-11.4041
到處	-11.4041
充滿	-11.4045
帝堯	-11.4047
之名也	-11.4048
選舉	-11.405
虛心	-11.405
梁王	-11.405
正蒙	-11.405
五條	-11.4051
猶能	-11.4055
教訓	-11.4056
而改	-11.4058
窮極	-11.4058
病根	-11.4066
或失	-11.4066
就事上	-11.4067
自新	-11.4069
奮發	-11.407
傳云	-11.4077
致中和	-11.4077
集傳	-11.4081
萬五千	-11.4082
無憂	-11.4083
周召	-11.4083
任重	-11.4084
官屬	-11.4086
之遺意	-11.4088
但云	-11.409
用賢	-11.409
三萬	-11.4095
大㫖	-11.4099
栢	-11.41
聖徳	-11.41
江東	-11.4102
入海	-11.4103
以柔	-11.4104
鰥寡	-11.4104
鱗	-11.4104
凑	-11.4104
曩	-11.4107
殉	-11.4107
伐楚	-11.4107
嬰兒	-11.4107
之外别有	-11.4109
無可疑	-11.4109
旦夕	-11.4109
挫	-11.4114
自然如此	-11.4115
平公	-11.4116
者也夫	-11.412
仲吕	-11.4121
主婦	-11.4123
謹守	-11.4125
件事	-11.4126
舉世	-11.4126
伊洛	-11.413
者皆是	-11.4132
運轉	-11.4133
小心	-11.4133
霜露	-11.4134
此等事	-11.4141
顯道	-11.4143
骨子	-11.4143
性命之理	-11.4144
天道也	-11.4144
以此觀之	-11.4145
以其所	-11.4146
心思	-11.4154
四箇	-11.4155
非止	-11.4155
人臣之	-11.4156
行之者	-11.4156
侍從	-11.4157
君民	-11.4161
物欲之	-11.4165
欲盡	-11.417
堅固	-11.417
叶	-11.4171
保全	-11.4172
鄭云	-11.4173
城中	-11.4175
三陽	-11.4176
其味	-11.4177
漢世	-11.4178
傳載	-11.4178
嘘	-11.4179
推原	-11.4179
沼	-11.4182
爲仁	-11.4183
著見	-11.4184
枚	-11.4185
耳目口鼻	-11.4185
甄	-11.4186
府君	-11.4186
鑠	-11.4186
悚	-11.4186
人皆知	-11.4186
㓙	-11.4187
蹶	-11.4188
左氏傳	-11.4188
今却	-11.419
親疎	-11.4191
叱	-11.4191
治兵	-11.4192
程子言	-11.4193
嬉	-11.4193
髦	-11.4193
當此之時	-11.4197
注曰	-11.4198
求道	-11.4198
荼	-11.4199
國風	-11.4202
具焉	-11.4205
而未能	-11.4206
不知道	-11.4207
聖經	-11.4209
聚斂	-11.421
下來	-11.4213
興亡	-11.4214
裏靣	-11.4216
腹心	-11.422
面目	-11.4221
為己任	-11.4222
純熟	-11.4223
遂使	-11.4224
立春	-11.4224
刑部	-11.4227
不豫	-11.4229
天討	-11.423
承上文	-11.4233
有悔	-11.4234
七篇	-11.4237
右手	-11.4242
之正也	-11.4243
樂道	-11.4244
兩截	-11.4245
祭服	-11.4246
此所以為	-11.4246
其孰能	-11.4257
人之惡	-11.426
都要	-11.4263
株	-11.4263
威公	-11.4263
問如何是	-11.4264
不睹不聞	-11.4265
狡	-11.4268
桞	-11.427
之類皆是	-11.427
線	-11.4272
不振	-11.4272
洵	-11.4273
天之命	-11.4274
影響	-11.4274
稚	-11.4274
皥	-11.4275
蓼	-11.4276
想像	-11.4276
孝武	-11.4276
賾	-11.4277
巧言令色	-11.4277
瘁	-11.4278
邪說	-11.4278
把做	-11.4278
岀	-11.4279
寮	-11.4279
以資	-11.4279
為亂	-11.4285
山河	-11.4286
宇文	-11.4286
却好	-11.4288
盡物	-11.4288
須看	-11.4291
平心	-11.4296
㑹通	-11.4298
不可考	-11.4302
致死	-11.4303
貫徹	-11.4305
偏倚	-11.4306
以避	-11.4306
功效	-11.4307
于朝	-11.4308
伊尹之	-11.4309
殷周	-11.431
仁民	-11.4313
六寸	-11.4314
已前	-11.4314
沛公	-11.4319
二卷	-11.432
臣按先儒謂	-11.432
必將	-11.4322
忌日	-11.4323
正淳	-11.4323
以見其	-11.4324
科目	-11.4326
無情	-11.4326
致逺	-11.4328
漳	-11.4329
之為人	-11.433
安静	-11.4333
用智	-11.4335
之大者也	-11.4336
氣數	-11.4339
二百四十	-11.4342
遂成	-11.4343
命令	-11.4346
詞章	-11.4346
而天下治	-11.4347
不可移	-11.4347
執事者	-11.435
萌芽	-11.4351
諸軍	-11.4351
李注	-11.4353
庻人	-11.4355
袖	-11.4358
偪	-11.4358
喧	-11.4361
旒	-11.4362
蝗	-11.4362
卿大夫士	-11.4362
螽	-11.4362
懽	-11.4363
針	-11.4363
裨	-11.4366
拓	-11.4366
趙王	-11.4368
除去	-11.437
相表裏	-11.4371
大學衍義補卷一百	-11.4373
正朔	-11.4373
中自有	-11.4375
要𦂳	-11.4375
三月不違仁	-11.4375
民事	-11.4375
不能以自	-11.4376
尤不可	-11.4381
分而為	-11.4381
問答	-11.4383
之所得	-11.4383
亦有所	-11.4383
明哲	-11.4385
者理也	-11.4385
聖賢之書	-11.4385
王介甫	-11.4386
然亦有	-11.4389
何能	-11.439
吾君	-11.439
曰善哉	-11.4391
天下之公	-11.4391
五十六	-11.4396
豐年	-11.4399
鮮有	-11.4403
物之理	-11.4403
五星	-11.4404
這一箇	-11.4406
吏治	-11.4406
之分也	-11.4407
専以	-11.4407
成風	-11.4408
前聖	-11.4409
年二十	-11.4409
這箇物事	-11.4415
先王之法	-11.4415
操之	-11.4418
始學	-11.4418
成都	-11.442
明經	-11.4421
盡其性	-11.4421
戒慎	-11.4425
禹稷	-11.4426
儒生	-11.4427
文飾	-11.4428
做箇	-11.4429
收其	-11.443
德宗	-11.4431
用其力	-11.4433
得其宜	-11.4434
牛馬	-11.4436
宜乎	-11.4436
等皆	-11.4436
相濟	-11.4437
致思	-11.4441
不美	-11.4443
龔	-11.4444
窘	-11.4445
侔	-11.4446
胙	-11.4447
教子	-11.4448
同類	-11.4448
邵康節	-11.445
樞宻	-11.4451
豈必	-11.4451
不錯	-11.4452
凋	-11.4452
疚	-11.4452
椒	-11.4453
迺	-11.4454
萇	-11.4454
荀揚	-11.4456
千二百	-11.4456
利見大人	-11.4458
哀矜	-11.446
日光	-11.4462
百事	-11.4463
康叔	-11.4468
有識	-11.4473
正其心	-11.4474
王事	-11.4474
自覺	-11.4477
通用	-11.4481
心有所	-11.4481
未必不	-11.4482
辨别	-11.4486
致其知	-11.4495
王弼	-11.4496
未備	-11.4496
京城	-11.4497
伯叔	-11.4497
靖康	-11.4501
舉動	-11.4503
他不得	-11.4503
師保	-11.4511
之力也	-11.4511
武備	-11.4513
雜記	-11.4513
五十里	-11.4514
設教	-11.4515
孝敬	-11.4518
冠者	-11.4522
成數	-11.4524
神氣	-11.4526
變化氣質	-11.4528
數百年	-11.4528
來聘	-11.4529
竿	-11.4529
不足以為	-11.4531
旦晝	-11.4531
以佐	-11.4532
無適而非	-11.4533
繭	-11.4533
子曰吾	-11.4533
各正性命	-11.4534
另	-11.4535
裒	-11.4535
涸	-11.4535
彝	-11.4535
未始不	-11.4535
雝	-11.4536
澆	-11.4537
今從	-11.4537
兔	-11.4538
臼	-11.4539
發育	-11.4539
牽合	-11.4539
山川之	-11.454
楷	-11.4541
當世之	-11.4541
襄子	-11.4542
以天下為	-11.4543
拒之	-11.4544
禮教	-11.4544
愛惡	-11.4547
顔回	-11.4547
以求之	-11.455
明夷	-11.4551
董子	-11.4552
初未嘗	-11.4556
驅之	-11.4559
何嘗有	-11.456
於上而	-11.456
詩大雅	-11.4561
群臣	-11.4561
意義	-11.4562
飲水	-11.4563
徳盛	-11.4565
不接	-11.4566
萬章	-11.4567
不賢	-11.4568
果然	-11.4569
某官	-11.4574
齊威	-11.4575
魏王	-11.4575
惟恐其	-11.4578
傳授	-11.4582
衆庶	-11.4583
相國	-11.4583
祖道	-11.4585
簿書	-11.4588
數句	-11.4588
唐虞之	-11.4588
殺身	-11.4589
諫官	-11.459
皆本於	-11.459
難説	-11.4591
亦謂之	-11.4594
成法	-11.4595
方今	-11.4596
雖同	-11.4601
白本	-11.4604
孔子謂	-11.461
簫	-11.4613
三老	-11.4614
瑗	-11.4615
餼	-11.4616
牘	-11.4618
翫	-11.4619
鳶	-11.4619
大辟	-11.462
騶虞	-11.4621
鳶飛魚躍	-11.4621
躡	-11.4622
旡	-11.4623
綺	-11.4623
卷六	-11.4623
墟	-11.4623
周茂叔	-11.4623
尅	-11.4625
隄	-11.4625
賻	-11.4626
建立	-11.4626
威嚴	-11.4626
纎悉	-11.4628
仆	-11.4628
經歴	-11.463
人道之	-11.463
英雄	-11.463
幷	-11.4632
羈	-11.4632
酸	-11.4633
及第	-11.4635
並用	-11.4635
箋	-11.4635
成文	-11.4637
林甫	-11.4639
治獄	-11.4639
則一也	-11.4644
工部	-11.4645
程子之言	-11.4649
康王	-11.4649
身死	-11.4651
為句	-11.4652
親賢	-11.4652
張公	-11.4658
水流	-11.4661
八九	-11.4662
沛然	-11.4664
代宗	-11.4666
甚易	-11.467
參差	-11.467
只此便是	-11.4671
無虞	-11.4673
獨得	-11.4677
而不顧	-11.4679
且看	-11.468
豈敢	-11.4684
曾祖	-11.4686
先生嘗	-11.4686
戰勝	-11.4687
如何説	-11.4687
讀得	-11.4691
禪家	-11.4693
行師	-11.4694
天地之理	-11.4699
健順	-11.4702
恁地說	-11.4702
運動	-11.4703
三皇	-11.4704
聾	-11.4706
灑掃應對	-11.4707
立國	-11.4707
情偽	-11.4709
䛕	-11.4711
弋	-11.4713
狷	-11.4713
末年	-11.4713
奭	-11.4713
蓄積	-11.4714
不耕	-11.4714
辛苦	-11.4714
嘿	-11.4714
惶	-11.4717
應鐘	-11.4718
所執	-11.4719
陞	-11.4719
褊	-11.472
紛紜	-11.4722
子男	-11.4722
也朱熹曰	-11.4724
吾民	-11.4724
縣尉	-11.4725
隧	-11.4726
貧民	-11.4727
務本	-11.4728
非常之	-11.4728
韓文	-11.4729
其黨	-11.4729
兵車	-11.473
僕射	-11.4732
塊然	-11.4733
吕氏曰	-11.4735
其本體	-11.4737
無病	-11.4737
即太極	-11.474
府兵	-11.4741
第七	-11.4741
可稱	-11.4742
大病	-11.4745
十餘萬	-11.4748
兵革	-11.4748
五福	-11.4749
不可分	-11.475
論事	-11.475
看了	-11.475
篇首	-11.4752
郊廟	-11.4752
而其所以	-11.4753
字唱	-11.4753
權謀	-11.4755
國計	-11.4761
示以	-11.4764
做工夫處	-11.4765
至親	-11.4769
不在於	-11.4769
鮮不	-11.4774
其閒	-11.4775
知道者	-11.4776
不止於	-11.4776
典刑	-11.4777
諸縣	-11.4778
六軍	-11.4783
體仁	-11.4784
兩節	-11.4784
也故君子	-11.4793
適足以	-11.4793
志於仁	-11.4796
彩	-11.4797
輝	-11.4797
志意	-11.4799
斯須	-11.4799
齊家治國平天下	-11.4799
徹上徹下	-11.4799
昉	-11.4799
震動	-11.48
餕	-11.4801
義以方外	-11.4801
不誠無物	-11.4803
稱王	-11.4804
覿	-11.4806
訣	-11.4808
急迫	-11.481
東西南北	-11.481
娣	-11.481
曽㸃	-11.4811
讀法	-11.4812
昵	-11.4812
不憚	-11.4814
縊	-11.4815
稽首	-11.4818
受田	-11.4819
前世	-11.4819
建武	-11.482
荀息	-11.4821
文徳	-11.4821
西京	-11.4822
以上語類	-11.4823
大畜	-11.4824
隂隂	-11.4824
無厭	-11.4825
北辰	-11.4825
所殺	-11.4826
不匱	-11.4829
後之人	-11.4829
丁寧	-11.483
做到	-11.483
妄意	-11.4831
不可掩	-11.4832
宗伯	-11.4835
竭其	-11.4841
歸宿	-11.4842
不敬則	-11.4843
有如此者	-11.4846
禮官	-11.4846
形迹	-11.4848
深知	-11.4849
后土	-11.4851
曹伯	-11.4852
射者	-11.4858
惠公	-11.4858
力不足	-11.4866
齊戒	-11.4869
三十五	-11.4873
憂勤	-11.4874
不負	-11.4875
智伯	-11.4875
許氏	-11.4877
復卦	-11.4878
先生因	-11.4878
為角	-11.4878
别子	-11.4879
昏明	-11.488
拘於	-11.4883
漆雕開	-11.4883
河圖洛書	-11.4887
知己	-11.4888
庶物	-11.4891
允執厥中	-11.4892
為人子	-11.4892
厮	-11.4893
橫	-11.4894
仲孫	-11.4894
各一其性	-11.4894
臣等	-11.4895
千萬人	-11.4895
糓	-11.4895
篆	-11.4895
汜	-11.4896
季康子	-11.4896
跌	-11.4896
昃	-11.4897
亘	-11.4897
煬帝	-11.4899
梧	-11.4901
以盡其	-11.4901
所造	-11.4901
亷恥	-11.4901
孔子所謂	-11.4902
伶	-11.4902
筐	-11.4904
否先生曰	-11.4904
雷電	-11.4904
為盜	-11.4907
畿内	-11.4907
而言之則	-11.4908
本㫖	-11.4909
傾覆	-11.4911
儼然	-11.4916
若不是	-11.4919
亦莫	-11.492
只將	-11.4921
裁成	-11.4922
切切	-11.4922
丘陵	-11.4923
上靣	-11.4924
陳皥曰	-11.4925
何以異	-11.4925
光祖	-11.4932
開口	-11.4934
註本	-11.4942
鄰國	-11.4942
學詩	-11.4944
他只	-11.4946
任事	-11.4948
四海之内	-11.4951
疑惑	-11.4954
格言	-11.4957
百行	-11.4961
仕於	-11.4961
極精	-11.4965
才能	-11.4969
知其性	-11.497
未足以	-11.497
禮經	-11.4971
用度	-11.4971
之子也	-11.4971
無息	-11.4972
揉	-11.4973
菲	-11.4975
之大小	-11.4977
國學	-11.4978
脩徳	-11.4979
糟粕	-11.4981
欺人	-11.4983
劫	-11.4983
三百八十四爻	-11.4984
血脉	-11.4984
猝	-11.4985
不辱	-11.4986
静時	-11.4988
槐	-11.4988
尊敬	-11.4989
昆蟲	-11.499
何足以	-11.499
耨	-11.4991
愚按此節大意	-11.4994
大怒	-11.4994
官員	-11.4995
綰	-11.4995
旌旗	-11.4997
子細看	-11.4998
孰不	-11.4998
慶厯	-11.5002
相率	-11.5012
天下之治	-11.5015
一介	-11.5023
近來	-11.5023
堂堂	-11.5023
交感	-11.5024
各不同	-11.5027
以此見	-11.5031
父祖	-11.5032
莫要	-11.5036
理學	-11.5038
著述	-11.5042
有清濁	-11.5046
胡安國曰	-11.5046
本註	-11.5048
俟其	-11.5051
後世人主	-11.5052
孰與	-11.5054
民之心	-11.5055
聖人言語	-11.5062
亦未有	-11.5063
加焉	-11.5064
化民	-11.5064
守之以	-11.5066
惜哉	-11.5068
忿懥	-11.5069
妙處	-11.5072
卞	-11.5072
應舉	-11.5072
問之曰	-11.5073
維天之命於穆不已	-11.5074
堤	-11.5075
漢魏	-11.5075
乾道變化各正性命	-11.5075
其君者	-11.5075
彧	-11.5075
求之於	-11.5076
縻	-11.5077
北海	-11.5077
弃	-11.5077
終其身	-11.5078
紏	-11.5078
皇極經世	-11.5078
毗	-11.5078
貨殖	-11.5079
竦	-11.508
無縁	-11.508
濓	-11.5081
有諸己	-11.5081
亳	-11.5084
飢寒	-11.5084
溉	-11.5084
愍	-11.5085
戎狄	-11.5086
耆老	-11.5088
彤	-11.509
閭里	-11.509
上下交	-11.5091
必謹	-11.5093
示之以	-11.5093
那事	-11.5093
臨民	-11.5096
以孝聞	-11.5097
此心便	-11.5097
事畢	-11.5097
去年	-11.5098
愈多	-11.5099
既葬	-11.51
常情	-11.5103
與民同	-11.5105
謝安	-11.5107
草草	-11.5107
或疑	-11.5107
之所為也	-11.5107
鄭注	-11.5109
討賊	-11.5109
市井	-11.511
實體	-11.5111
建康	-11.5112
祀典	-11.5113
三世	-11.5115
禮義之	-11.5121
相助	-11.5121
不可揜	-11.5122
者為之	-11.5122
太虛	-11.5128
紛然	-11.5128
微子	-11.5129
合下便	-11.513
屈原	-11.5132
曽祖	-11.5133
誠其意	-11.5134
親其親	-11.5138
自修	-11.5141
華注	-11.5141
皇考	-11.5147
孫氏	-11.5148
周程	-11.5149
甘心	-11.515
來歸	-11.515
何况	-11.5152
理之當然	-11.5158
且須	-11.516
統體	-11.5162
等差	-11.5164
窄	-11.5166
做了	-11.5167
忱	-11.5167
下學上達	-11.5168
瓶	-11.5168
芮	-11.5169
蒯聵	-11.5169
覬	-11.5169
曜	-11.5169
渇	-11.5169
亂臣賊子	-11.517
訥	-11.5171
旄	-11.5171
畱	-11.5172
脯	-11.5172
縞	-11.5172
梯	-11.5173
㕓	-11.5173
滄	-11.5173
毋不敬	-11.5174
平地	-11.5174
富貴貧賤	-11.5175
窺測	-11.5175
彞	-11.5177
杲	-11.5178
犧	-11.5178
佯	-11.5181
瓜	-11.5182
差等	-11.5182
的當	-11.5183
禮記曰	-11.5184
陷溺	-11.5184
識見	-11.5184
塊	-11.5186
荒政	-11.5187
敬畏	-11.5189
資始	-11.5191
固辭	-11.5192
如水之	-11.5193
恃其	-11.5196
省事	-11.5198
空寂	-11.5199
車服	-11.5201
方圓	-11.5206
多端	-11.5208
分毫	-11.5209
十嵗	-11.521
神武	-11.5213
元首	-11.5218
不必如此	-11.5223
悲夫	-11.5224
坐視	-11.5229
原本	-11.5229
致太平	-11.523
矣雖然	-11.5232
一太極也	-11.5234
失了	-11.5234
公室	-11.5237
善心	-11.524
裁制	-11.5241
政刑	-11.5243
改作	-11.5244
可喜	-11.5247
之為物	-11.525
綬	-11.5255
開國	-11.5256
此等人	-11.5258
蠢	-11.526
鑽	-11.5262
而得其	-11.5262
學之士	-11.5262
烟	-11.5262
隱公	-11.5263
准	-11.5263
耄	-11.5264
椿	-11.5265
常行	-11.5266
暉	-11.5266
有是心	-11.5266
不自知其	-11.5266
媒	-11.5268
毫髮	-11.5269
宫闈	-11.5269
足下	-11.5272
餐	-11.5272
雒	-11.5272
太甚	-11.5275
紿	-11.5276
民財	-11.5277
不足以盡	-11.5279
學力	-11.5279
濟濟	-11.5281
冬夏	-11.5281
化生萬物	-11.5283
惕然	-11.5283
掃除	-11.5284
茍無	-11.5285
事物之理	-11.5286
守節	-11.5291
凶年	-11.5291
▁朱子曰	-11.5292
見得他	-11.5294
理與氣	-11.5297
那邊	-11.5298
境内	-11.5299
熟後	-11.5299
格致	-11.53
不能成	-11.5304
吾之所	-11.5307
辭遜	-11.531
斯二者	-11.531
近思	-11.5311
邊境	-11.5311
銘曰	-11.5311
二十餘	-11.5313
而不可以	-11.5315
要害	-11.5316
衆寡	-11.5319
五音	-11.5333
流弊	-11.5335
死地	-11.5335
未免有	-11.534
二隂	-11.5341
敬慎	-11.5341
不時	-11.5341
倪	-11.5342
極多	-11.5343
造次	-11.5344
下之人	-11.5346
安卿	-11.5348
抹	-11.5351
於心而	-11.5352
確然	-11.5356
刖	-11.5356
率性之謂道	-11.5357
徤	-11.5357
餙	-11.5357
諍	-11.5358
􁀙	-11.5361
孕	-11.5361
篋	-11.5361
同胞	-11.5362
赧	-11.5362
殛	-11.5363
猥	-11.5364
龠	-11.5364
攀	-11.5364
黷	-11.5365
俎	-11.5366
揖遜	-11.5367
展轉	-11.537
勉齋	-11.537
其動也	-11.5372
疋	-11.5372
越王	-11.5374
講義	-11.5379
文法	-11.5385
之中有	-11.5392
阼階	-11.5392
諸葛	-11.5393
南向	-11.5394
而莫之	-11.5396
茫然	-11.5397
不可離	-11.5397
為羽	-11.5398
卒章	-11.5399
萬七千	-11.54
勤於	-11.5402
䧟於	-11.5404
齊宣王	-11.5405
無事之時	-11.5407
无所	-11.5407
商君	-11.5416
聲聞	-11.5418
羣吏	-11.5418
者性之	-11.5428
諸先生	-11.5429
咸陽	-11.5436
相遇	-11.5437
黄鐘之	-11.5439
旃	-11.544
陳侯	-11.5442
蜚卿	-11.5444
一次	-11.5447
禅	-11.5448
七廟	-11.5449
髙山	-11.5452
意必固我	-11.5453
窠	-11.5453
王業	-11.5454
戒慎恐懼	-11.5455
禮儀三百威儀三千	-11.5456
謹嚴	-11.5457
詈	-11.5457
惻隱之心	-11.5458
存誠	-11.5459
娛	-11.5461
搖	-11.5461
職業	-11.5462
彘	-11.5463
侑	-11.5463
楊朱	-11.5463
酣	-11.5463
上疏曰	-11.5465
孝弟忠信	-11.5465
山澤之	-11.5467
錦繡	-11.5468
出納	-11.5468
警戒	-11.547
某云此	-11.5471
左右前後	-11.5471
下大夫	-11.5472
二端	-11.5476
今人只	-11.548
配享	-11.5481
繼世	-11.5482
專主	-11.5484
漢髙	-11.5488
恩義	-11.549
開封	-11.5492
以行之	-11.5495
耳順	-11.5497
去偽	-11.5497
包得	-11.5498
都尉	-11.5498
哀樂	-11.5498
未能盡	-11.5498
鐘鼓	-11.5501
當然之則	-11.5502
大敗	-11.5502
恐只是	-11.5503
必擇	-11.5505
廓然	-11.5507
者往往	-11.5511
五嵗	-11.5511
性之本	-11.5514
豁	-11.5517
於四方	-11.5519
三節	-11.5521
閑邪	-11.5521
不免有	-11.5524
厥後	-11.5526
述其	-11.5529
者可不	-11.553
㸔来	-11.5531
揚州	-11.5532
尊祖	-11.5533
除了	-11.5533
侈靡	-11.5539
某嘗謂	-11.5541
得之於	-11.5542
貢賦	-11.5544
樞紐	-11.5545
涂	-11.5546
兩間	-11.5546
長長	-11.5546
冡	-11.5548
鄙夫	-11.5548
者仁之	-11.555
川流	-11.5551
腦	-11.5552
纖	-11.5552
哺	-11.5554
五紀	-11.5555
槁	-11.5556
木金	-11.5556
莾	-11.5556
知人之	-11.5556
耜	-11.5557
虎賁	-11.5557
僑	-11.5557
瞑	-11.5557
不改其樂	-11.5558
顚	-11.5558
棗	-11.556
皷	-11.556
晷	-11.556
瘳	-11.556
能勝	-11.5562
廟堂	-11.5562
詩書禮樂	-11.5566
廡	-11.5566
豳風	-11.5573
王霸	-11.5574
只有箇	-11.5575
享國	-11.5576
下情	-11.5579
做底事	-11.5579
民之父母	-11.5585
古書	-11.5586
年號	-11.559
貴戚	-11.5592
古人所以	-11.5592
保民	-11.5594
得其道	-11.5598
未必盡	-11.5607
生育	-11.5608
樂章	-11.5615
不竭	-11.5615
博厚	-11.5626
點	-11.5629
奈何曰	-11.5631
只緣	-11.5632
程頤曰	-11.5632
天之氣	-11.5633
上供	-11.5633
向背	-11.5634
兩件	-11.5634
向見	-11.5635
三十里	-11.5636
詔書	-11.5638
精切	-11.5642
麟趾	-11.5645
懶	-11.5646
校官	-11.5646
鍼	-11.5646
有一人	-11.5647
禳	-11.5647
敬而無失	-11.5647
奏議	-11.5647
順從	-11.5648
稽顙	-11.5649
明湛若水撰	-11.5649
便休	-11.5651
夘	-11.5652
乃所以為	-11.5654
剔	-11.5654
東遷	-11.5654
也訓曰	-11.5655
張敬夫	-11.5655
囂	-11.5655
跳	-11.5655
其本心	-11.5658
漓	-11.5658
便是那	-11.5659
扞	-11.5659
深造	-11.5659
切實	-11.5659
不出乎	-11.5661
降衷	-11.5661
鄕	-11.5662
屋漏	-11.5663
此卦	-11.5664
皇太后	-11.5665
姦臣	-11.5668
不相離	-11.5672
短長	-11.5674
季秋	-11.5676
剛陽	-11.5679
一豪	-11.5679
一歳	-11.568
哀公問	-11.5683
與人同	-11.5684
仁之本	-11.5685
之一言	-11.5689
凡民	-11.5691
相望	-11.5692
坤卦	-11.5695
如日月	-11.5696
天地之大	-11.5699
妄動	-11.5703
之性也	-11.5704
好義	-11.5705
雜亂	-11.5706
這氣	-11.5707
吕祖謙曰	-11.571
刑人	-11.5715
前日之	-11.5719
淆	-11.5724
周頌	-11.5725
李公	-11.5728
非所以為	-11.573
守法	-11.573
樂正子	-11.5731
西階	-11.5731
相攻	-11.5732
曾孫	-11.5732
無許多	-11.5738
盛服	-11.5739
莅	-11.5741
未盡善	-11.5742
䕃	-11.5745
虧欠	-11.5746
形狀	-11.5747
璜	-11.5747
用力於	-11.5749
終日乾乾	-11.5749
麋	-11.575
咽	-11.5751
犀	-11.5751
受教	-11.5751
湧	-11.5752
𤨏	-11.5752
捄	-11.5752
彪	-11.5753
主一無適	-11.5753
豫章	-11.5753
閻	-11.5754
產	-11.5754
又何以	-11.5756
謂侍臣曰	-11.5756
屑	-11.5756
悠久	-11.5758
埽	-11.5758
桎梏	-11.5758
一室	-11.5758
汲黯	-11.5761
如何見得	-11.5762
宗廟社稷	-11.5762
無辜	-11.5762
服膺	-11.5763
公孫𢎞	-11.5763
倨	-11.5763
周世宗	-11.5764
得於天	-11.5765
勇猛	-11.5765
有一物	-11.5765
譏其	-11.5766
六章	-11.5766
文質	-11.5767
攻取	-11.5767
庸人	-11.5768
大惡	-11.5769
羲和	-11.5771
先君之	-11.5773
無為而	-11.5776
之一端	-11.5776
不敢輕	-11.5777
朝覲	-11.5777
車騎	-11.5778
論之則	-11.5779
知之矣	-11.578
不在此	-11.5781
亦莫不	-11.5785
誠身	-11.5788
杜氏	-11.5788
加之以	-11.5788
我聖祖	-11.5795
四十五	-11.5798
洪水	-11.5798
枉費	-11.5798
無時而不	-11.5805
第九	-11.5806
也惟其	-11.5807
富民	-11.5808
自幼	-11.5811
無所得	-11.5811
君之所	-11.5818
門庭	-11.5818
祭法	-11.5822
綸	-11.5822
齊梁	-11.5827
行其道	-11.5827
心與理	-11.5828
將何以	-11.5829
碧	-11.5829
心之本體	-11.5834
固未嘗	-11.5839
之義答	-11.5841
臨下	-11.5841
狼狽	-11.5842
利民	-11.5846
鴟	-11.5846
煎	-11.5848
當職	-11.5849
欽定四庫全書子部一	-11.5849
屛	-11.5849
久而不	-11.585
拖	-11.585
剰	-11.5851
摭	-11.5851
造化之迹	-11.5851
惟精惟一	-11.5852
諤	-11.5852
淳熈	-11.5855
阨	-11.5856
聯	-11.5856
馳騁	-11.5857
所固有	-11.5858
為人上者	-11.5858
捍	-11.5861
一定之	-11.5861
夏正	-11.5865
伯姬	-11.5865
天位	-11.5865
榖梁	-11.5868
曰昔者	-11.5868
自持	-11.5868
人心道心	-11.5868
説道理	-11.5871
無所施	-11.5871
百神	-11.5873
子夏曰	-11.5873
晩年	-11.5875
金帛	-11.5885
並立	-11.5889
趨於	-11.5889
太僕	-11.5892
務實	-11.5893
百餘年	-11.5894
去惡	-11.5894
親近	-11.5895
胡安國	-11.5896
以上皆	-11.5899
知其非	-11.5902
久逺	-11.5902
至健	-11.5906
每嵗	-11.5908
今按	-11.5908
己之私	-11.591
左手	-11.5913
分寸	-11.5914
起兵	-11.5919
大壯	-11.5924
王畿	-11.5926
孝慈	-11.5928
豈復	-11.5928
這箇是	-11.5928
史遷	-11.5929
神靈	-11.593
世儒	-11.593
商書	-11.5932
邪心	-11.5934
太保	-11.5936
有所未	-11.5938
勸農	-11.5938
却不知	-11.5938
無憾	-11.5938
凡百	-11.5941
其所行	-11.5942
其道則	-11.5943
唐書	-11.5943
䋲	-11.5948
丗	-11.595
禮制	-11.595
煦	-11.5951
貨賄	-11.5952
至誠無息	-11.5953
神主	-11.5953
糊	-11.5954
劉歆	-11.5955
校尉	-11.5956
漲	-11.5956
無患	-11.5956
惓惓	-11.5958
又引	-11.596
鹽鐵	-11.5961
號泣	-11.5963
不早	-11.5964
林鍾	-11.5965
覘	-11.5968
盡性至命	-11.5968
也愚謂	-11.5969
莫不皆然	-11.5972
九徳	-11.5972
對越	-11.5973
徙義	-11.5973
所藏	-11.5975
抑揚	-11.5978
勿使	-11.5979
不敢忘	-11.5979
謂之神	-11.598
通變	-11.5981
閉門	-11.5981
此亦是	-11.5982
怕人	-11.5983
爵位	-11.5983
詳味	-11.5988
之心為心	-11.5989
迫切	-11.5993
止息	-11.5994
道不行	-11.5996
諸吕	-11.5997
若此者	-11.5998
幸甚	-11.5998
數千里	-11.6002
幾㣲	-11.6004
虚名	-11.6005
仁人之	-11.6007
南宫	-11.601
句讀	-11.6013
中庸所謂	-11.6015
賢士	-11.6016
湯武之	-11.6024
其間有	-11.6033
之所宜	-11.6033
通曉	-11.6034
故先王	-11.6036
倣此	-11.6039
士庶人	-11.604
恁地做	-11.604
之仁也	-11.6042
無事則	-11.6042
如何却	-11.6042
聞過	-11.6044
今人多	-11.6045
殺了	-11.6046
羣居	-11.6046
圎	-11.6048
永貞	-11.6048
崑崙	-11.6051
三綱五常	-11.6051
禁令	-11.6052
論語孟子	-11.6054
龜山楊氏曰	-11.6054
終不可	-11.6055
淚	-11.6055
㝷	-11.6055
滂	-11.6056
陸費墀	-11.6057
昀	-11.6057
孫士毅	-11.6057
王道之	-11.6058
倉廩	-11.6058
驪姬	-11.6059
剡	-11.606
鋤	-11.606
表章	-11.6062
動直	-11.6063
誤矣	-11.6063
陸錫	-11.6067
己意	-11.607
尋討	-11.607
明道云	-11.6071
富國	-11.6072
示民	-11.6073
仁聖	-11.6076
渡江	-11.6079
黄河	-11.6082
忘了	-11.6084
發動	-11.6086
知其必	-11.6087
逐句	-11.6088
叔孫通	-11.6088
舟車	-11.6089
君位	-11.6093
纔説	-11.6093
愛其親	-11.6094
視聴	-11.6095
垂訓	-11.6096
甚切	-11.6096
節奏	-11.61
𤣥妙	-11.6102
能保其	-11.6102
斯世	-11.6109
保身	-11.6113
勞民	-11.6114
合為一	-11.6115
禮之本	-11.6117
秘書	-11.6123
孟子論	-11.6124
汝等	-11.6124
侍臣	-11.6124
千里之外	-11.6125
事鬼神	-11.6125
滅亡	-11.6127
而求其	-11.6129
十有六	-11.6131
江陵	-11.6131
推究	-11.6133
様子	-11.614
何者為	-11.614
可謂善	-11.6141
聖賢之學	-11.6146
著落	-11.6147
歷	-11.6148
漸次	-11.6149
不可欺	-11.6149
劔	-11.6151
漢王	-11.6152
汶	-11.6152
順帝	-11.6152
興廢	-11.6153
阼	-11.6154
和議	-11.6154
禴	-11.6154
蹊	-11.6154
賵	-11.6155
體段	-11.6156
老聃	-11.6157
翳	-11.6158
穩	-11.616
宗法	-11.616
嚚	-11.6161
參伍	-11.6162
侃	-11.6163
所由生	-11.6164
古註	-11.6164
淺陋	-11.6165
京房	-11.6167
束帛	-11.6168
而不忘	-11.6168
窮盡	-11.6168
無所不在	-11.617
誦詩	-11.6174
只㸔	-11.6174
後宫	-11.6175
近古	-11.6177
十有四	-11.6179
突厥	-11.6184
發憤	-11.6189
唐太宗貞觀	-11.6189
廢弛	-11.619
欲殺	-11.6191
上逹	-11.6195
誰與	-11.6195
卑下	-11.6198
應鍾	-11.6201
真能	-11.6201
此篇論	-11.6203
見於外	-11.6205
三王之	-11.6207
修德	-11.6212
世之人	-11.6213
責成	-11.6215
還他	-11.6216
其可不	-11.6216
宿衛	-11.6219
兩段	-11.6229
民俗	-11.6235
成萬物	-11.6238
而不求	-11.6242
伯玉	-11.6242
陳蔡	-11.6244
看史	-11.6246
見於事	-11.6246
君人者	-11.6247
天寳	-11.6248
祜	-11.6254
袋	-11.6255
不預	-11.6255
商周	-11.6256
捧	-11.6257
孩	-11.6257
郁	-11.6257
藐	-11.6257
治國平天下之要	-11.6258
一國之	-11.6258
緘	-11.6258
要領	-11.6259
等謹案	-11.626
纎毫	-11.626
從這裏	-11.6262
絜	-11.6263
郯	-11.6263
月朔	-11.6264
絺	-11.6264
無可奈何	-11.6266
尹和靖	-11.6267
駐	-11.6267
鄴	-11.6269
爵賞	-11.627
後嗣	-11.6273
韓魏	-11.6278
何也曰此	-11.6281
九齡	-11.6282
雷雨	-11.6292
堰	-11.6297
端䝉	-11.6301
婦道	-11.6302
看道理	-11.6303
周天	-11.6305
俾其	-11.6306
逐日	-11.6313
變而為	-11.6314
擔當	-11.6316
諸友	-11.6316
深宫	-11.6316
良能	-11.6319
經濟	-11.6323
惻然	-11.6324
養性	-11.6327
先賢	-11.6331
何暇	-11.6334
灼然	-11.6335
兩物	-11.6338
禀受	-11.6338
上户	-11.6343
鄭聲	-11.6346
儼	-11.6347
弗克	-11.6351
十二章	-11.6353
億萬	-11.6355
崔氏	-11.6356
軀殻	-11.6356
流離	-11.6361
瞬	-11.6361
愛惜	-11.6362
誚	-11.6364
儕	-11.6364
釀	-11.6364
茂叔	-11.6365
犢	-11.6365
劵	-11.6366
忠直	-11.6367
沂	-11.6367
妥	-11.6367
儒臣	-11.6367
彷彿	-11.6368
楮	-11.6368
月恭校上總	-11.6369
條貫	-11.6369
罟	-11.637
物格知至	-11.637
袵	-11.637
豈復有	-11.637
莫善於	-11.6371
孟春	-11.6371
拈	-11.6372
哭泣	-11.6375
苟且	-11.6377
千秋	-11.6378
可以爲	-11.6379
綱常	-11.638
内侍	-11.6383
刑戮	-11.6387
不自知	-11.6391
交際	-11.6392
毛氏曰	-11.6392
要緊	-11.6393
閏月	-11.6394
昭烈	-11.6395
柔弱	-11.6395
伐宋	-11.6396
習熟	-11.6396
治化	-11.6397
督責	-11.6403
此四字	-11.6405
是一般	-11.6407
縁他	-11.6407
燭理	-11.6409
性之善	-11.6409
提起	-11.6411
忠誠	-11.6414
師曠	-11.6415
漠然	-11.6415
散殊	-11.6417
所以勸	-11.6419
愚謂此	-11.642
曷為	-11.6421
厥徳	-11.6423
感悟	-11.6426
油然	-11.6437
下堂	-11.6438
不勞而	-11.6441
自慊	-11.6442
文宗	-11.6443
唯恐	-11.6444
以處之	-11.6448
粲	-11.6448
列侯	-11.6449
而進之	-11.6452
庶乎其	-11.6453
墨氏	-11.6454
臺諫	-11.6454
自此始	-11.6454
詛	-11.6462
萬物之情	-11.6467
虎狼	-11.6468
坡	-11.647
孔叢子	-11.6471
櫟	-11.6472
肻	-11.6473
縳	-11.6473
長史	-11.6474
理一而分殊	-11.6474
鉏	-11.6475
失職	-11.6475
光輝	-11.6475
晁錯	-11.6476
匣	-11.6477
戊申	-11.6477
亦湏	-11.6477
愕	-11.6478
深淺	-11.6479
畋	-11.6479
老蘇	-11.648
聰眀	-11.648
轄	-11.648
欹	-11.6481
椁	-11.6481
王佐	-11.6482
容止	-11.6482
魏文侯	-11.6482
應對	-11.6483
齊師	-11.6483
桉	-11.6485
竒耦	-11.6485
翊	-11.6485
海水	-11.6485
益明	-11.6486
聶	-11.6489
梁武帝	-11.649
臣僚	-11.649
甘露	-11.6492
變風	-11.6497
邇言	-11.6497
不容不	-11.6498
用力處	-11.6499
以仁為	-11.6501
為國者	-11.6504
者能之	-11.6507
理會得	-11.6508
卿相	-11.6511
怵惕	-11.6513
子午	-11.6516
於外者	-11.6518
便有許多	-11.652
書籍	-11.652
交通	-11.6523
通典	-11.6524
報怨	-11.6528
何如哉	-11.6532
後魏	-11.6537
各異	-11.6538
賢聖	-11.6545
鄭衛	-11.6546
發揚	-11.6546
舊章	-11.6547
所從出	-11.6551
只消	-11.6553
禮智	-11.6553
奏請	-11.6559
不朽	-11.6559
何以謂之	-11.6563
不失其正	-11.6563
久久	-11.6566
雇	-11.6567
天之生	-11.6568
聖人之學	-11.657
所不當	-11.657
彭蠡	-11.6574
据	-11.6575
覧	-11.6576
囑	-11.6577
剖析	-11.6577
良久	-11.6578
槃	-11.6578
日有食之	-11.6578
不思而得	-11.658
黔	-11.658
遷善改過	-11.658
虚文	-11.6581
纊	-11.6581
糜	-11.6582
東晉	-11.6582
賡	-11.6582
須㬰	-11.6583
倅	-11.6583
何自而	-11.6583
便有箇	-11.6584
礿	-11.6585
幄	-11.6585
至妙	-11.6585
邇英	-11.6585
范文正公	-11.6585
壅蔽	-11.6587
缶	-11.6587
吿	-11.6588
讀書之法	-11.6588
虞廷	-11.6589
之小者	-11.6589
無一息之	-11.6591
公族	-11.6592
懾	-11.6593
中正仁義	-11.6593
只有一箇	-11.6594
唐制	-11.6595
蒯	-11.6596
郊社	-11.6597
幽厲	-11.6597
蔬食	-11.6598
掛一	-11.6602
刑措	-11.6607
虚静	-11.661
佞人	-11.661
輔佐	-11.6612
之所自出	-11.6614
伐木	-11.6622
建極	-11.6622
敦化	-11.6622
道術	-11.6626
形色	-11.6628
做起	-11.6629
鄉曲	-11.663
這一句	-11.6636
尚書省	-11.6636
百畆	-11.6637
造作	-11.6639
伯温	-11.6643
亦不可不	-11.6643
動植	-11.6648
太祖皇帝	-11.6653
王荆公	-11.6655
古語	-11.6656
詳審	-11.6659
以是而	-11.6665
戒謹	-11.6666
性惡	-11.6667
奏聞	-11.667
延年	-11.667
降神	-11.6675
庶事	-11.6677
忠愛	-11.6679
晉國	-11.6681
丸	-11.6682
成周之	-11.6682
第八	-11.6683
萬事萬物	-11.6683
殞	-11.6683
巻	-11.6685
易有太極	-11.6685
孰若	-11.6686
迥	-11.6686
務農	-11.6687
天地生物	-11.6687
塔	-11.6687
燮	-11.6689
反身而誠	-11.6689
天下之達道	-11.6689
不俟	-11.669
檢㸃	-11.6691
槨	-11.6692
鉗	-11.6693
喉	-11.6693
坤道	-11.6693
蘧伯玉	-11.6694
丐	-11.6694
澁	-11.6696
貞正	-11.6696
驪	-11.6698
致堂	-11.6699
僮	-11.67
利有攸往	-11.67
敷奏	-11.67
諸郡	-11.6701
鮑叔	-11.6703
甚分明	-11.6703
趙盾	-11.6705
選士	-11.6707
子罕	-11.6707
不可窮	-11.6708
心迹	-11.6709
以下論	-11.6709
干禄	-11.6715
一人之身	-11.6715
惟聖明	-11.6716
龍門	-11.6716
之大法	-11.6717
天地鬼神	-11.6719
這邊	-11.6723
覺悟	-11.6724
同列	-11.6724
稽考	-11.6728
差役	-11.673
著工夫	-11.6735
渾全	-11.6739
髙皇帝	-11.674
入中國	-11.6744
治天下者	-11.6746
南京	-11.6747
師旅	-11.6748
吉象曰	-11.6749
資格	-11.6752
静静	-11.6753
有見於	-11.6754
鮮矣	-11.6756
隋唐	-11.6759
萬乗	-11.676
蘇秦	-11.6761
無所為而	-11.6764
乎此則	-11.6766
顧命	-11.6775
心之所發	-11.6776
事兄	-11.6777
丈人	-11.6777
不可奪	-11.6778
猶存	-11.6778
謝氏曰	-11.6782
為人子者	-11.6782
七政	-11.6786
考究	-11.6786
虞舜	-11.6792
萬方	-11.6793
伏生	-11.6793
枲	-11.6794
扁	-11.6795
𣲖	-11.6795
上天之載無聲無臭	-11.6795
燕居	-11.6795
彥	-11.6795
閹	-11.6797
熄	-11.6798
翰林學士	-11.6798
霄	-11.6799
正謂此也	-11.6799
羨	-11.68
路頭	-11.68
日月至焉	-11.6801
發眀	-11.6802
療	-11.6802
滎陽公	-11.6802
晦菴	-11.6802
臥	-11.6803
洙泗	-11.6804
亹亹	-11.6805
康公	-11.6805
椎	-11.6806
扁鵲	-11.6811
宛轉	-11.6814
接人	-11.6816
南渡	-11.6819
孫卿	-11.6819
佛氏之	-11.682
堯舜禹	-11.6821
恢復	-11.6824
有言曰	-11.6831
力役	-11.6834
建安	-11.6834
委積	-11.6835
古訓	-11.684
桓文	-11.6841
無物不	-11.6848
三畫	-11.6855
一團	-11.6855
欣然	-11.6859
予奪	-11.6862
祭天地	-11.6865
住不得	-11.6865
字訓	-11.6873
開發	-11.6874
事物上	-11.6876
形器	-11.6878
各因其	-11.6878
一人而已	-11.6883
更加	-11.6887
當其可	-11.6889
魂氣	-11.6892
子糾	-11.6893
輔導	-11.6894
隨他	-11.6894
死罪	-11.6895
阮	-11.6896
入井	-11.6897
則亦何	-11.6899
儉約	-11.6902
憂懼	-11.6903
複	-11.6904
蒼蒼	-11.6904
堕	-11.6904
戰戰兢兢	-11.6905
邵堯夫	-11.6905
琦	-11.6907
俚	-11.6908
湮	-11.6908
袍	-11.6908
焚香	-11.6909
未曽	-11.6909
樁	-11.691
㨿	-11.691
凟	-11.691
柏	-11.6911
夢寐	-11.6912
們	-11.6912
繩墨	-11.6915
累世	-11.6916
中霤	-11.6917
瑜	-11.6917
賈生	-11.6918
丹朱	-11.6919
諳	-11.6925
舊習	-11.6928
優柔	-11.6928
玉帛	-11.6929
敬仲	-11.6939
國亡	-11.694
浙西	-11.6947
一代之	-11.6948
康子	-11.6948
夫差	-11.6952
臨安	-11.6964
持其志	-11.6965
隠微	-11.6974
六府	-11.698
年五十	-11.6981
莫不各有	-11.6982
那箇是	-11.6984
獲罪	-11.6986
不得其人	-11.6995
太極圖説	-11.6995
别為一	-11.6998
邵子曰	-11.6999
只是一理	-11.7001
小畜	-11.7001
屢空	-11.7003
集注云	-11.7007
互相發	-11.7008
翺	-11.7014
感物而動	-11.7014
不忍人之心	-11.7016
傚	-11.7016
御覽經史講義卷	-11.7016
顥	-11.7017
囯	-11.7017
所寓	-11.7017
謝顯道	-11.7018
炊	-11.7018
雛	-11.7019
陽爻	-11.702
鳯凰	-11.702
蜂	-11.7021
煮	-11.7021
糟	-11.7023
檀	-11.7024
兩邊	-11.7025
可不戒哉	-11.7026
剗	-11.7026
杭	-11.7026
技藝	-11.7026
生生不窮	-11.7027
雌	-11.7027
煌	-11.7027
駢	-11.7028
樞機	-11.7028
峽	-11.7028
凡例	-11.7028
最多	-11.7028
三代以下	-11.7029
諷誦	-11.7029
玉藻	-11.7031
真徳秀	-11.7031
偏處	-11.7032
踞	-11.7032
不遑	-11.7032
積善	-11.7033
富家	-11.7033
矣若夫	-11.7033
張儀	-11.7034
夾雜	-11.7034
惰慢	-11.7037
侍御	-11.7039
竊疑	-11.704
逺慮	-11.7042
酷吏	-11.7043
深戒	-11.7046
煩擾	-11.7047
嚴父	-11.7047
胥吏	-11.7049
施諸	-11.7049
晦叔	-11.7051
以己意	-11.7053
輔翼	-11.7057
威武	-11.7059
車駕	-11.7059
李靖	-11.7062
油	-11.7065
循序	-11.7067
厯數	-11.7082
尚賢	-11.7085
遜志	-11.7086
曲盡	-11.7088
老佛	-11.7089
為人謀	-11.709
里克	-11.7093
詩小雅	-11.7094
發越	-11.7096
必本於	-11.7098
藹	-11.7099
明鏡	-11.7099
宋朝	-11.7099
細微	-11.7104
三十日	-11.7105
師儒	-11.7106
邾子	-11.7109
天地之所以	-11.7109
漢光武	-11.7115
嚴肅	-11.7117
馬政	-11.712
形化	-11.7124
甚微	-11.7124
中丞	-11.7126
二氣五行	-11.7127
聖人之所以	-11.7128
不粥於市	-11.7129
心廣體胖	-11.7131
貉	-11.7131
賦役	-11.7131
輓	-11.7131
責難	-11.7132
所惑	-11.7133
啼	-11.7133
感物	-11.7134
扣	-11.7134
鄭康成注曰	-11.7134
自强不息	-11.7134
甯	-11.7134
萬物皆備於我	-11.7135
顒	-11.7135
輪迴	-11.7136
㝡	-11.7137
爪	-11.7137
痛癢	-11.7137
查滓	-11.7138
事親從兄	-11.7139
嘯	-11.714
皎	-11.714
取友	-11.714
岱	-11.714
近思錄	-11.714
卦辭	-11.7141
譁	-11.7141
俘	-11.7142
閘	-11.7143
暴虐	-11.7143
覊	-11.7146
凝結	-11.7147
重複	-11.7149
羽翼	-11.715
吐蕃	-11.7154
初爻	-11.7157
官之長	-11.7158
黯	-11.7158
五十四	-11.7162
鎮江	-11.7162
有自然之	-11.7163
賦斂	-11.7168
竊以為	-11.7169
儒術	-11.7174
白馬	-11.7182
射御	-11.7182
淪於	-11.7184
者衆矣	-11.7185
夏侯	-11.7185
季路	-11.7187
可謂能	-11.7189
數十萬	-11.719
公穀	-11.7191
兩手	-11.7195
私恩	-11.72
前章	-11.7211
福禄	-11.7212
元后	-11.7212
共工	-11.7213
六鄉	-11.7215
底豫	-11.7215
勸勉	-11.7215
大矣哉	-11.7216
離散	-11.7218
可驗	-11.7218
亂亡	-11.7228
輕清	-11.7232
翕然	-11.7238
不辜	-11.724
大司樂	-11.724
布置	-11.724
嘏	-11.7244
助祭	-11.7247
醯	-11.7247
葵	-11.7249
映	-11.7251
恂	-11.7252
厨	-11.7253
涵飬	-11.7254
童䝉	-11.7255
鍊	-11.7256
鬚	-11.7257
祊	-11.7258
曵	-11.7259
虎豹	-11.7259
致知力行	-11.7259
太息	-11.726
祖述	-11.7262
黻	-11.7262
豈但	-11.7264
推類	-11.7264
希夷	-11.7265
甲乙	-11.7266
酈	-11.727
詩賦	-11.7272
尤難	-11.7272
白沙	-11.7274
勿忘	-11.7274
設施	-11.7277
這裡	-11.7279
受福	-11.728
渾厚	-11.7281
克艱	-11.7283
氣運	-11.7284
讀書須	-11.7286
之甚者	-11.7289
求福	-11.729
不容己	-11.7293
不相應	-11.7293
趙髙	-11.7295
曽孫	-11.7299
制國用	-11.7301
量力	-11.7304
終之以	-11.7312
於天地之間	-11.7314
不可不謹	-11.7315
戎馬	-11.7323
可與言	-11.7324
縱欲	-11.7324
只據	-11.7326
流入	-11.7335
自為一	-11.734
變詐	-11.734
三月不違	-11.7351
外靣	-11.7355
標凖	-11.7358
指示	-11.7359
瞞	-11.736
騂	-11.7361
鶉	-11.7361
倐	-11.7362
有虞氏	-11.7362
絪緼	-11.7363
紘	-11.7364
棊	-11.7365
堵	-11.7365
誄	-11.7366
徭	-11.7367
陟降	-11.737
緝熙	-11.737
易簀	-11.737
觶	-11.7371
盂	-11.7371
磋	-11.7372
窺見	-11.7372
隋文帝	-11.7373
呵	-11.7374
熙寧	-11.7375
涓	-11.7375
究竟	-11.7375
農民	-11.7376
傳聞	-11.7379
此其所以為	-11.7379
十二辰	-11.7381
騶	-11.7381
事迹	-11.7383
怠荒	-11.7384
各當其	-11.7388
卦象	-11.7389
昭帝	-11.739
吕伯恭	-11.7394
暴亂	-11.7396
靈臺	-11.7397
清廟	-11.7402
田宅	-11.7403
居室	-11.7404
亦是此意	-11.7404
大宗伯	-11.7405
朝廷之上	-11.7406
序卦	-11.7406
倒了	-11.7407
大學衍義卷	-11.741
君臣相	-11.7412
曲禮曰	-11.7415
稷契	-11.742
團	-11.7428
最重	-11.7429
軍國	-11.7433
才徳	-11.7445
文中子曰	-11.7446
使人知	-11.7455
西向	-11.7455
東征	-11.7455
方做得	-11.7459
所能及	-11.7459
諭之曰	-11.7466
怛	-11.7468
民莫不	-11.7469
球	-11.7471
灑落	-11.7474
明丘濬撰	-11.7479
廓然大公	-11.7479
發而中節	-11.748
祺	-11.7481
烏可	-11.7482
啖	-11.7484
拍	-11.7484
精誠	-11.7485
讙	-11.7486
盤庚	-11.7487
搔	-11.7487
游定夫	-11.7487
犆	-11.7488
仁民愛物	-11.7488
戚戚	-11.7489
中人以下	-11.749
遙	-11.749
徭役	-11.749
軋	-11.749
盲	-11.7491
藏諸用	-11.7493
旁通	-11.7493
於日用	-11.7494
庶幾乎	-11.7494
楊龜山	-11.7494
臆度	-11.7494
護	-11.7495
誹謗	-11.7496
唐鑑	-11.7497
簋	-11.7498
嚴毅	-11.7499
嘉靖	-11.75
百僚	-11.7502
常惺惺	-11.7502
變宫	-11.7503
鑄錢	-11.7503
暴慢	-11.7504
木火	-11.7505
失其正	-11.7507
傅說	-11.7508
因之以	-11.751
彭城	-11.751
貪多	-11.7513
命婦	-11.7514
轉運使	-11.7514
忠良	-11.7522
極盛	-11.7527
箇甚	-11.7527
根源	-11.7528
天理之公	-11.7529
兩頭	-11.7529
崇尚	-11.7535
母喪	-11.7539
近代	-11.7549
西伯	-11.7559
九州之	-11.756
宴安	-11.7562
合當如此	-11.7562
驕奢	-11.7568
咸曰言	-11.7568
蒼生	-11.7573
豈不可	-11.7575
七十里	-11.7578
㽔賔	-11.7582
觀此則	-11.7584
若之何	-11.7586
居䘮	-11.7587
大學中庸	-11.7588
惺惺	-11.7592
主於敬	-11.7592
反側	-11.7596
良知良能	-11.7597
孟子道性善	-11.7598
太蔟	-11.76
在是矣	-11.7601
儔	-11.7602
箠	-11.7602
有國者	-11.7603
悞	-11.7603
再閏	-11.7604
敬之問	-11.7604
不言而信	-11.7604
梏亡	-11.7606
畎	-11.7607
枯槁	-11.7607
福建	-11.7607
祥瑞	-11.7608
人物之生	-11.7608
髓	-11.7609
胡寅曰	-11.7609
唾	-11.7609
青苗	-11.761
粘	-11.7611
吉㓙	-11.7611
巨細	-11.7613
以義起	-11.7614
利病	-11.7614
包四者	-11.7615
動而生陽	-11.7616
權勢	-11.7617
中流出	-11.7617
分而言之	-11.7618
墠	-11.7619
考課	-11.762
形骸	-11.7621
乾健	-11.7625
無些子	-11.7625
酒肉	-11.7627
尹子	-11.763
黙契	-11.763
象傳	-11.7631
之節文	-11.7634
晉楚	-11.7635
饋食	-11.7637
此數句	-11.7637
殺戮	-11.7638
未㡬	-11.7639
所以示	-11.7639
奸邪	-11.7639
天下有道	-11.764
飽食	-11.7643
告之曰	-11.7644
無處不	-11.7644
為人師	-11.7644
放逸	-11.7646
禍患	-11.7646
民之力	-11.765
萬八千	-11.7652
文藝	-11.7652
朔方	-11.7656
一遍	-11.7659
田租	-11.7659
此三句	-11.7665
金銀	-11.7667
夫婦之道	-11.7669
罕言	-11.7669
山海	-11.767
聖人之徳	-11.767
只怕	-11.7677
祫祭	-11.7679
之極致	-11.7679
潛心	-11.7681
智愚	-11.7684
䘮服	-11.7685
先生之學	-11.7686
先之以	-11.7689
有取焉	-11.769
乗馬	-11.7695
有甚於	-11.7697
賢人君子	-11.7698
長乆	-11.7707
積習	-11.7708
講武	-11.771
混然	-11.771
革命	-11.7711
賈公彦	-11.7714
曺	-11.7718
讞	-11.7718
宓	-11.7718
暁	-11.772
不偏不倚	-11.7721
斟	-11.7721
加諸	-11.7722
五味	-11.7722
講筵	-11.7722
慶父	-11.7723
慷慨	-11.7724
一日之間	-11.7725
廉恥	-11.7725
斫	-11.7725
懌	-11.7726
伏惟聖明	-11.7726
二十八宿	-11.7726
默	-11.7727
芟	-11.7727
摹	-11.7728
從容中道	-11.7728
峙	-11.7728
飫	-11.7729
霑	-11.7729
歌詠	-11.7729
譬喻	-11.7729
駑	-11.773
斧斤	-11.773
莠	-11.773
顯諸仁	-11.773
霽	-11.7731
絢	-11.7731
緜	-11.7731
鹹	-11.7731
粮	-11.7732
殻	-11.7732
墳墓	-11.7732
叨	-11.7733
燦然	-11.7733
古者天子	-11.7735
紹興府	-11.7736
讀其書	-11.7736
匡衡	-11.7736
百餘人	-11.7737
青州	-11.7739
文采	-11.774
飛揚	-11.7742
禁軍	-11.7743
先生答	-11.7747
氏掌	-11.7747
紹聖	-11.7748
仕進	-11.7751
是則所謂	-11.7757
原憲	-11.7766
只是一箇道理	-11.7767
江海	-11.7771
吕后	-11.7772
薦舉	-11.7774
各盡其	-11.7778
大旱	-11.7779
差錯	-11.778
風雲	-11.7784
宴樂	-11.7785
史稱	-11.7785
豈止	-11.7787
觀感	-11.7787
遵守	-11.7789
放縱	-11.7793
五十年	-11.7802
東郭	-11.7802
僧道	-11.7803
鄉射	-11.7806
恰好處	-11.7807
年月	-11.7808
仁義之心	-11.781
兩般	-11.7821
䘮祭	-11.7822
為學之道	-11.7822
德業	-11.7825
終吉	-11.7833
數條	-11.7834
吳澂曰	-11.7838
喫飯	-11.784
有不可勝言者	-11.7841
邦家	-11.7844
詬	-11.7844
聖人之所	-11.7845
視聴言動	-11.7845
蕤	-11.7845
之成也	-11.7845
太極動而生陽	-11.7845
無以加	-11.7846
餅	-11.7847
蘋	-11.7847
學而時習之	-11.7848
嗜慾	-11.7848
溝壑	-11.7849
窶	-11.7849
穡	-11.7851
墉	-11.7851
榆	-11.7851
人與物	-11.7851
怵	-11.7852
父子之親	-11.7853
耒耜	-11.7854
闈	-11.7854
澶	-11.7855
欲罷不能	-11.7856
港	-11.7858
先王之制	-11.7858
末世	-11.7859
二寸	-11.786
酋	-11.786
躬耕	-11.7863
勣	-11.7865
是一理	-11.7866
者其惟	-11.7868
仁人心也	-11.787
嘉定	-11.7876
夾室	-11.7878
聖人之教	-11.7879
擬議	-11.7881
悔過	-11.7882
以言乎	-11.7882
哀帝	-11.7889
此篇言	-11.789
何縁	-11.789
祖禰	-11.7895
六畫	-11.7899
冕服	-11.7901
司馬氏	-11.7902
無有不善	-11.7903
説者謂	-11.7915
才智	-11.7915
仲由	-11.7915
貧窮	-11.792
張皇	-11.792
曹氏	-11.7921
貫通處	-11.7921
表記	-11.7924
河間	-11.793
三十四	-11.7933
大丈夫	-11.7935
有餘力	-11.7937
豈待	-11.7938
貢舉	-11.7941
豈肯	-11.7945
吾友	-11.7946
均平	-11.7947
子張問	-11.7949
明日又	-11.7949
淫亂	-11.795
齊整	-11.795
外馳	-11.7951
廢置	-11.7951
持志	-11.7953
陌	-11.7955
尊嚴	-11.796
犧牲	-11.7964
島	-11.7964
朱子語類卷一百	-11.7965
自漢以來	-11.7965
方慤曰	-11.7966
恍惚	-11.7967
非禮勿視聽言動	-11.7967
彗	-11.7967
叠	-11.7968
大禹謨	-11.7968
湍	-11.7969
寤寐	-11.797
衿	-11.7971
互為其根	-11.7973
到極處	-11.7973
罅	-11.7973
粢盛	-11.7973
胡安定	-11.7973
祼	-11.7974
紗	-11.7974
腴	-11.7975
欠缺	-11.7975
南升	-11.7975
沸	-11.7976
粤	-11.7978
渥	-11.7978
簟	-11.7979
子思孟子	-11.7979
孥	-11.7979
綵	-11.798
勢利	-11.7983
謝上蔡	-11.7986
太白	-11.7986
防閑	-11.7986
皇甫	-11.7989
夜半	-11.7989
游氏	-11.7991
宋仁宗	-11.7993
響應	-11.7994
懸絶	-11.7995
既没	-11.7996
左氏載	-11.7999
浮華	-11.8009
曹參	-11.8012
效驗	-11.8015
是月也	-11.8015
倍讀	-11.802
髙注	-11.8023
職掌	-11.8026
譬猶	-11.8028
高帝	-11.8029
非人力	-11.803
不忍之心	-11.8035
不知不覺	-11.8038
厯法	-11.8041
㡬何	-11.8047
無斁	-11.8048
愚不肖	-11.8051
其小者	-11.8056
理之自然	-11.8058
分之一	-11.8061
頓放	-11.8071
欽夫	-11.8077
無涯	-11.808
豺	-11.8084
事事皆	-11.8087
縝宻	-11.8088
獺	-11.8091
根柢	-11.8092
郊特牲	-11.8092
豈弟君子	-11.8094
離騷	-11.8094
郈	-11.8096
榛	-11.8097
愎	-11.8097
栁下惠	-11.8097
啞	-11.8097
渚	-11.8098
跨	-11.8099
㸑	-11.8101
宼	-11.8102
腎	-11.8102
㢲	-11.8103
臧文仲	-11.8103
查	-11.8104
閭巷	-11.8104
十二萬九千六百	-11.8106
駁雜	-11.8106
緇衣	-11.8106
篡	-11.8107
螟	-11.8108
挹	-11.8108
廐	-11.8109
到這	-11.8109
淄	-11.8112
不得其死	-11.8114
使天下之人	-11.8116
資禀	-11.8118
又自有	-11.8118
直卿云	-11.8119
嗜好	-11.8122
太牢	-11.8123
發出来	-11.8124
宮室	-11.8125
千乗	-11.8129
當如是	-11.813
未之見	-11.8132
者寡矣	-11.814
逸豫	-11.8141
刻薄	-11.8141
淫祀	-11.8143
孚信	-11.8146
十倍	-11.8147
畫八卦	-11.8149
而天下平	-11.8149
經籍	-11.815
臣竊以為	-11.8154
侯氏	-11.8156
知性知天	-11.8157
以定其	-11.8158
參天地	-11.816
保甲	-11.816
禍敗	-11.816
仍舊	-11.8163
古之聖賢	-11.8163
集釋	-11.8168
嫌疑	-11.8174
衡山	-11.8176
五霸	-11.8179
學者所當	-11.8182
弗敢	-11.82
烝民	-11.8207
幞頭	-11.8211
立人之道曰仁與義	-11.8212
企	-11.8214
虹	-11.8215
蟬	-11.8215
禮樂射御書數	-11.8215
聰明睿知	-11.8216
悪	-11.8216
坎艮	-11.8217
閃	-11.8218
移風易俗	-11.8218
匹夫匹婦	-11.822
聰明睿智	-11.8222
滔滔	-11.8222
婺	-11.8223
天地日月	-11.8223
性相近	-11.8223
訕	-11.8224
肌膚	-11.8224
無非教也	-11.8226
國祚	-11.8226
肱	-11.8227
讜	-11.8227
漂	-11.8228
臣愚以為	-11.8229
啜	-11.8229
樽	-11.8231
勸懲	-11.8232
明徳新民	-11.8234
母弟	-11.8234
愷	-11.8237
沱	-11.8238
司馬法	-11.8239
辟雍	-11.8244
建炎	-11.8244
浮雲	-11.8245
所措	-11.8255
叔京	-11.8255
細密	-11.8257
廵守	-11.8261
平淡	-11.8262
歲月	-11.8265
泛然	-11.8265
康侯	-11.8267
萬六千	-11.8267
能如是	-11.8279
賦税	-11.8281
仲春	-11.8282
條例	-11.829
目録	-11.8291
無是理	-11.8292
差異	-11.8294
不自覺	-11.8294
所以養其	-11.8295
范祖禹曰	-11.8302
夫子告	-11.8304
遂其生	-11.8307
天下之勢	-11.8308
耶抑	-11.8309
賦予	-11.8313
田疇	-11.8317
洗心	-11.8318
博愛	-11.832
奉承	-11.8321
擇地	-11.8331
冨貴	-11.8332
隨其所	-11.8339
皂	-11.8342
西河	-11.8343
帨	-11.8343
必有事焉而勿正	-11.8344
閨	-11.8344
芸	-11.8344
閙	-11.8345
歌舞	-11.8345
西山真氏曰	-11.8346
梟	-11.8346
張湯	-11.8347
羞惡辭讓是非	-11.8348
滔	-11.8348
封疆	-11.8349
伯夷叔齊	-11.835
標準	-11.835
隸	-11.835
鰥寡孤獨	-11.8351
自古及今	-11.8352
濂	-11.8352
采薇	-11.8353
上下之分	-11.8353
三萬里	-11.8353
凊	-11.8353
武王伐紂	-11.8354
罄	-11.8354
纍	-11.8354
喙	-11.8354
知至至之	-11.8355
鴆	-11.8356
赫赫	-11.8356
半年	-11.8356
幣帛	-11.8356
泰誓	-11.8356
鎰	-11.8357
開闔	-11.8358
分為二	-11.8358
趙簡子	-11.8358
厠	-11.8359
何謂也曰	-11.8359
擾擾	-11.836
禄山	-11.8361
匕	-11.8365
犂	-11.8366
不獲其身	-11.8366
斯可矣	-11.8366
輔弼	-11.8367
詐偽	-11.8367
夀皇	-11.8369
飛鳥	-11.8371
君臣父子夫婦	-11.8375
正獻公	-11.8375
父子之道	-11.8377
振旅	-11.8379
寛厚	-11.838
程夫子	-11.8382
雍容	-11.8383
紙上	-11.8386
周勃	-11.8388
雨雪	-11.8391
田單	-11.8395
疾痛	-11.8401
一个	-11.8402
典籍	-11.8402
人之一身	-11.8402
紛更	-11.8409
清談	-11.8413
讀書須是	-11.8414
萬四千	-11.8419
安卿問	-11.8419
截斷	-11.842
各為一	-11.8424
嗣位	-11.8432
四十年	-11.8435
記録	-11.8441
江州	-11.8444
郭氏	-11.8445
善惡混	-11.845
孫權	-11.8451
最切	-11.8469
動容周旋中禮	-11.847
不勉而中	-11.8472
活潑潑地	-11.8473
躬親	-11.8473
軻	-11.8473
爍	-11.8475
(􁆪/)	-11.8475
耒	-11.8477
第一義	-11.8478
絶滅	-11.8479
秉彛	-11.8479
體用一源	-11.8479
誠者物之終始	-11.8479
菁	-11.848
與天為一	-11.848
旂	-11.8481
茫茫	-11.8481
知覺運動	-11.8481
姦宄	-11.8482
玷	-11.8482
鄢	-11.8483
坫	-11.8483
釡	-11.8483
聖子神孫	-11.8484
大而化之	-11.8485
口腹	-11.8489
驢	-11.8489
端倪	-11.8489
清淨	-11.8491
無往而不	-11.8493
逐旋	-11.8496
渾天	-11.8496
東面	-11.8497
房杜	-11.8497
中書省	-11.8499
章或問	-11.8501
商頌	-11.8501
愚恐	-11.8502
萬鍾	-11.8506
肅肅	-11.8511
何如耳	-11.8513
把持	-11.8515
考妣	-11.8516
温恭	-11.853
交接	-11.853
建議	-11.8531
盡心知性	-11.8532
蔡沈	-11.8542
七十五	-11.8544
可與權	-11.8544
注疏	-11.8547
二尺	-11.8549
而力行之	-11.855
與之俱	-11.8564
知其所以然	-11.8564
不忒	-11.8566
胡文定公	-11.8569
無待於	-11.8571
伊周	-11.8573
不敢慢	-11.8573
險難	-11.8575
司馬光曰	-11.8576
然其所以	-11.858
却不曾	-11.8587
是非之心	-11.859
金陵	-11.8594
天災	-11.8596
向来	-11.8598
日月五星	-11.8601
帽	-11.8602
感化	-11.8602
稗	-11.8603
侃侃	-11.8603
彜	-11.8605
媯	-11.8607
蹟	-11.8607
騖	-11.8608
瘞	-11.8608
儒家類提要	-11.8609
萌動	-11.8609
潮汐	-11.8609
細碎	-11.861
禋	-11.8611
醬	-11.8612
騁	-11.8612
蔡邕	-11.8613
奴婢	-11.8614
吏部尚書	-11.8614
驂	-11.8616
脉絡	-11.8616
何所不至	-11.8618
克己復禮為仁	-11.8618
延夀	-11.8618
檻	-11.862
只做得	-11.862
與天地參	-11.8622
約之以禮	-11.8622
四皓	-11.8627
四牡	-11.8629
繚	-11.8629
樞密	-11.8634
培養	-11.8641
有一種	-11.8646
性至孝	-11.8656
隔絶	-11.866
天之生物	-11.8662
妻妾	-11.8667
生而知之	-11.8669
太康	-11.8672
畏懼	-11.8676
平旦	-11.8677
形於外	-11.8678
塞乎天地	-11.8684
莊老	-11.8684
不能無疑	-11.8684
調和	-11.8687
幾句	-11.8691
吕刑	-11.8694
朝聘	-11.87
郡邑	-11.8701
攻城	-11.8703
恐未必	-11.8708
有一定之	-11.8709
之為道	-11.8712
所以異於	-11.8716
心之體	-11.8718
界分	-11.8724
夾鐘	-11.8724
欽哉	-11.8724
歸咎	-11.8728
冀州	-11.8732
閽	-11.8737
如惡惡臭	-11.8737
零碎	-11.8737
姊妹	-11.8737
潄	-11.8739
贊化育	-11.874
徹頭徹尾	-11.8741
夀昌	-11.8742
憒	-11.8743
被其澤	-11.8743
逄	-11.8743
塋	-11.8744
蒞	-11.8744
八尺	-11.8744
天地位萬物育	-11.8745
䂓	-11.8747
帝嚳	-11.8747
黠	-11.8747
舘	-11.8747
忻	-11.8748
聖帝明王	-11.8748
臟	-11.875
包含	-11.8752
埀	-11.8752
顙	-11.8752
屈伸往來	-11.8752
秣	-11.8756
甕	-11.8756
閼	-11.8757
有間矣	-11.8759
鬪	-11.8759
彖象	-11.8762
昏亂	-11.8763
神祗	-11.8767
魯哀公	-11.8772
夏五月	-11.8773
尺二寸	-11.8775
亦猶是也	-11.8776
發於外	-11.8776
喚作	-11.8779
財貨	-11.8785
數百人	-11.8788
南郊	-11.8789
藹然	-11.8791
餓死	-11.8792
十有八	-11.8807
奚齊	-11.8808
今人都	-11.8808
累其心	-11.8809
不到處	-11.8813
侵伐	-11.8814
災害	-11.8825
乘馬	-11.8828
季夏	-11.8829
得分曉	-11.8829
元不曾	-11.8835
賓主	-11.8851
耶某云	-11.8853
亞夫問	-11.8858
相侵	-11.886
遠近	-11.8864
孔悝	-11.8873
者幾希	-11.8874
前言往行	-11.8875
秪	-11.8875
几筵	-11.8876
三代而下	-11.8876
与	-11.8876
違道不逺	-11.8876
糲	-11.8877
不亦宜乎	-11.8877
煑	-11.8877
跣	-11.8878
髀	-11.8878
婆	-11.8878
搬	-11.8878
名山大川	-11.8879
异	-11.8879
吉凶悔吝	-11.888
玊	-11.888
蒿	-11.8882
歿	-11.8882
郕	-11.8883
隗	-11.8883
愾	-11.8884
闋	-11.8885
人之為學	-11.8886
孔穎達	-11.8887
浩浩	-11.889
紞	-11.8891
桴	-11.8892
褒姒	-11.8892
甲胄	-11.8895
譙	-11.8898
毫末	-11.8898
富弼	-11.89
泛泛	-11.8901
挍	-11.8902
慶賞	-11.8903
莫知所	-11.8909
无咎象曰	-11.8913
自然而然	-11.8913
祭祀之禮	-11.8913
曰也是如此	-11.8913
漳州	-11.8915
哀痛	-11.8916
有諸已	-11.8917
衞侯	-11.8918
仁義中正	-11.8925
無忝	-11.8938
體貼	-11.8938
六爻皆	-11.8941
逃亡	-11.8954
一塊	-11.8956
與天合	-11.8961
茍簡	-11.8964
執持	-11.899
萬三千	-11.9002
斷獄	-11.9003
畤	-11.9005
櫝	-11.9008
學問思辨	-11.9011
床	-11.9011
服藥	-11.9011
父子有親	-11.9012
最妙	-11.9012
蹄	-11.9012
椅	-11.9012
旰	-11.9013
拗	-11.9013
扼	-11.9013
川澤	-11.9014
蹤	-11.9015
擠	-11.9016
茨	-11.9016
獲麟	-11.9017
頡	-11.9018
顔師古曰	-11.9018
巍巍	-11.9018
隼	-11.9018
菽粟	-11.9018
氓	-11.9019
受日光	-11.902
詡	-11.902
航	-11.902
䧟溺	-11.9021
妍	-11.9022
折衝	-11.9022
仲山甫	-11.9022
汭	-11.9022
攫	-11.9022
悛	-11.9022
灌溉	-11.9022
鈔本	-11.9025
叩頭	-11.9029
三年之䘮	-11.9032
二十三年	-11.9035
朱文公	-11.9038
鄰里	-11.9039
歐陽修	-11.9041
建寅	-11.9044
釋菜	-11.9045
震巽	-11.9048
互相發明	-11.9051
麻衣	-11.9051
遼東	-11.9055
後之人君	-11.9056
得其傳	-11.9058
踰月	-11.9061
提刑	-11.9065
程張	-11.9066
勤苦	-11.9067
說苑	-11.9074
刪去	-11.9074
有是氣	-11.9077
太上皇	-11.9078
七十餘	-11.9083
萬九千	-11.9085
牽制	-11.9087
徳秀	-11.9091
失其本心	-11.9093
兼并	-11.9094
覆載	-11.9101
推尋	-11.9103
恩澤	-11.9104
六部	-11.9107
非一端	-11.9115
惡亦不可不謂之性	-11.9138
卷四十	-11.9141
淸	-11.9143
皓	-11.9145
訃	-11.9147
饜	-11.9147
悝	-11.9147
不遷怒不貳過	-11.9148
不外乎此	-11.9149
冇	-11.9149
宋滕珙撰	-11.9152
深切著明	-11.9152
蠅	-11.9152
昂	-11.9152
紓	-11.9153
下學而上達	-11.9154
甲寅	-11.9154
昩	-11.9155
純粹至善	-11.9155
予小子	-11.9156
筆削	-11.9156
刄	-11.9157
獮	-11.9159
鷙	-11.916
兕	-11.9161
鯉	-11.9161
忮	-11.9161
考績	-11.9161
鉞	-11.9162
隄防	-11.9164
殘忍	-11.9165
廬墓	-11.9165
居尊位	-11.9167
千萬世	-11.9167
怠慢	-11.9167
直方大	-11.917
遲遲	-11.9174
自古帝王	-11.9174
甘泉	-11.9175
江湖	-11.9176
莫測	-11.9179
自記年	-11.9186
動容貌	-11.9195
向裏	-11.9199
詹事	-11.9221
空空	-11.9228
進歩	-11.9229
封爵	-11.9234
幾箇	-11.924
復讐	-11.9258
參考	-11.9259
與天同	-11.926
門閭	-11.9264
錯亂	-11.9277
悴	-11.9289
簽	-11.929
賙	-11.9291
開物成務	-11.9293
感而遂通天下之故	-11.9293
栽培	-11.9294
郅	-11.9294
年七十	-11.9296
濱	-11.9297
不遷怒	-11.9297
綠	-11.9297
昏姻	-11.9298
斯可謂	-11.9298
李林甫	-11.9299
狁	-11.9299
猪	-11.93
斾	-11.93
藩籬	-11.9301
怖	-11.9301
周匝	-11.9302
熒惑	-11.9302
晰	-11.9304
太姒	-11.9304
惕厲	-11.9307
所當止	-11.931
公都子	-11.9313
推測	-11.9316
立人極	-11.9318
慈湖	-11.9319
格物窮理	-11.932
真儒	-11.9324
照臨	-11.9325
莫甚於	-11.9326
五嶽	-11.9333
嗇夫	-11.9335
載籍	-11.934
救荒	-11.9349
應副	-11.9361
閒斷	-11.9372
増益	-11.938
工商	-11.9385
榖種	-11.9397
千四百	-11.94
躐	-11.9405
以自警	-11.9411
翰林院	-11.942
棠	-11.9422
七八九六	-11.9426
砂	-11.9429
循吏	-11.9429
真實無妄	-11.9429
誾誾	-11.9431
琰	-11.9432
彬	-11.9433
三十餘	-11.9434
忠信所以進徳	-11.9434
窮理盡性以至於命	-11.9435
僩	-11.9435
喚醒	-11.9436
一事一物	-11.9436
芻豢	-11.9436
狭	-11.9437
進徳修業	-11.9437
軼	-11.9437
悻	-11.9438
動容周旋	-11.9438
嫚	-11.9439
精氣為物	-11.9439
槖	-11.9439
仁義禮知	-11.944
蔡季通	-11.944
西山讀書記	-11.944
麒麟	-11.944
鳬	-11.9441
伴	-11.9443
覔	-11.9443
魚鼈	-11.9443
昊天上帝	-11.9444
逡	-11.9445
几杖	-11.9447
富室	-11.9448
聦明	-11.9448
孑	-11.9448
御製	-11.9449
絲毫	-11.9449
回互	-11.9449
這一事	-11.9451
播種	-11.9451
一日克己復禮	-11.9451
無所不包	-11.9454
怠忽	-11.9456
廏	-11.9456
黨錮	-11.9457
唐𤣥宗	-11.9459
只說得	-11.946
哀戚	-11.9461
賦歛	-11.9464
繋辭	-11.9465
消磨	-11.9469
荘敬	-11.9469
冠帶	-11.9471
征討	-11.9477
干渉	-11.948
所自出	-11.9484
文王之徳	-11.9489
推而行之	-11.9493
微妙	-11.9498
無一物之不	-11.9506
淮南子	-11.9513
奢靡	-11.9517
子羔	-11.9523
千八百	-11.9529
其有不	-11.9532
敬義夾持	-11.9572
芾	-11.9578
馳騖	-11.9579
負荷	-11.9579
𣣔	-11.9579
渺	-11.958
劈	-11.9581
北溪陳氏曰	-11.9581
謡	-11.9581
購	-11.9581
克去己私	-11.9582
跂	-11.9582
趕	-11.9582
扑	-11.9582
汁	-11.9582
舉而措之	-11.9583
撙節	-11.9583
仰觀俯察	-11.9583
癘	-11.9584
䞇	-11.9585
慣	-11.9585
債	-11.9585
祉	-11.9585
暱	-11.9586
㐮	-11.9586
十二篇	-11.9586
大扺	-11.9586
緼	-11.9588
哈	-11.9589
勿忘勿助長	-11.9589
戶	-11.959
携	-11.959
肘	-11.9591
氐	-11.9592
洙	-11.9593
澣	-11.9595
天下萬世	-11.9596
乳母	-11.9598
箱	-11.9603
聚歛	-11.9608
百揆	-11.9608
無恙	-11.9613
中庸大學	-11.9614
的意思	-11.9626
空虛	-11.9629
有所未盡	-11.9632
有補於	-11.9633
無所逃	-11.9634
夀考	-11.9644
這一件	-11.9646
温良	-11.9646
就上面	-11.9657
正顔色	-11.966
有國家者	-11.9665
髙麗	-11.9665
無後者	-11.9674
所貴乎	-11.9687
不相害	-11.9693
政之本	-11.9717
豊	-11.972
徊	-11.9724
塑	-11.9724
血脈	-11.9725
曾晳	-11.9725
混沌	-11.9726
篤恭而天下平	-11.9726
芻蕘	-11.9726
沴	-11.9726
天地以生物為心	-11.9727
閨門之内	-11.9727
仲虺	-11.9728
稜	-11.9728
撑	-11.9729
戡	-11.973
髠	-11.973
删	-11.973
迸	-11.9731
不踰矩	-11.9732
全體大用	-11.9732
戊辰	-11.9733
憊	-11.9733
人所共	-11.9733
錐	-11.9734
凜	-11.9734
栖	-11.9735
駸駸	-11.9736
膾	-11.9736
天左旋	-11.9738
晦朔	-11.9738
飲食衣服	-11.9739
優㳺	-11.9739
舟楫	-11.974
父子兄弟夫婦	-11.974
松栢	-11.974
猛獸	-11.9741
金木水火土	-11.9741
雞鳴	-11.9741
隂陽消長	-11.9742
漕運	-11.9743
謐	-11.9743
鬰	-11.9744
徴引易	-11.9744
誰敢	-11.9744
圓圖	-11.9749
尊德性	-11.9749
營營	-11.9749
孔子聞之曰	-11.9749
潤澤	-11.9751
叔姬	-11.9752
吕氏春秋	-11.9755
一毫私意	-11.9756
弑逆	-11.9756
輜重	-11.9758
省劄	-11.9758
闔閭	-11.976
肚裏	-11.9762
舞蹈	-11.9767
五行之秀	-11.9771
流血	-11.9771
天下幸甚	-11.9774
二十九日	-11.978
祭禰	-11.9784
樹木	-11.98
爭奪	-11.9813
物之始	-11.9818
左𫝊	-11.983
天資髙	-11.9844
百餘里	-11.9861
僅存	-11.9862
夾漈	-11.9872
貟	-11.9873
鞭扑	-11.9873
撲	-11.9873
髻	-11.9874
更有甚	-11.9874
荆棘	-11.9874
葵丘	-11.9874
灋	-11.9875
泌	-11.9875
弘	-11.9875
視民如傷	-11.9876
蟠	-11.9878
梁惠王	-11.9879
剩	-11.9879
韠	-11.9882
勾踐	-11.9883
拳	-11.9884
金縢	-11.9885
蹕	-11.9885
饑饉	-11.9886
戕賊	-11.9887
啇	-11.9887
䧏	-11.9887
丙午	-11.9887
刈	-11.9888
岑	-11.9889
姚江	-11.989
胷次	-11.989
九百四十	-11.989
存得此心	-11.9892
縶	-11.9895
愀然	-11.9897
該貫	-11.9899
季文子	-11.9901
洛邑	-11.9903
乗輿	-11.9909
佩玉	-11.9909
百倍	-11.9912
熊氏	-11.9922
供養	-11.9931
就心上	-11.9931
乖離	-11.9936
二十八年	-11.9937
單父	-11.9938
吏胥	-11.9941
俟命	-11.9956
之極功	-11.9959
二十五年	-11.997
忝	-11.9978
姜氏	-11.9978
台州	-11.9985
麽	-11.9986
註疏	-11.9993
之賊也	-11.9996
保傅	-12.0001
怎	-12.0017
婣	-12.0018
卬	-12.0023
椀	-12.0023
鄘	-12.0024
呂與叔	-12.0027
太極本無極	-12.0028
主人以下	-12.0028
巡狩	-12.003
鍵	-12.003
碌	-12.003
泛濫	-12.003
生知安行	-12.003
炮	-12.0031
天行健	-12.0033
隰	-12.0033
璞	-12.0033
埴	-12.0033
化而裁之	-12.0034
所過者化	-12.0034
年十二月	-12.0034
畎畝	-12.0034
風霆	-12.0035
利用安身	-12.0035
叔器問	-12.0035
不可須臾離	-12.0036
摠	-12.0036
翣	-12.0036
瑀	-12.0038
契勘	-12.004
廿	-12.004
圜丘	-12.0041
覃	-12.0042
痕	-12.0044
感於物	-12.0045
卑陋	-12.0045
曳	-12.0045
不違仁	-12.0046
孝子之心	-12.0048
件件	-12.0049
増損	-12.0055
話頭	-12.0056
恒星	-12.0057
仁之用	-12.0061
蹉	-12.0073
魯頌	-12.0078
危殆	-12.0079
儲蓄	-12.0083
掃地	-12.0086
治其國	-12.0122
肚	-12.0144
後之學者	-12.0152
胞	-12.0168
邠	-12.0171
三百六十五度四分度之一	-12.0174
盡人物之性	-12.0176
諮	-12.0178
筦	-12.018
癡	-12.018
霜雪	-12.0181
擴而充之	-12.0181
屑屑	-12.0182
韡	-12.0182
斆	-12.0182
山林川澤	-12.0182
簠簋	-12.0183
收放心	-12.0184
筠	-12.0184
二氣之良能	-12.0185
拏	-12.0185
捱	-12.0185
訂頑	-12.0185
思辨録輯要卷	-12.0185
罩	-12.0186
臯陶謨	-12.0186
比閭族黨	-12.0186
灑掃	-12.0188
豪傑之士	-12.0188
黙而識之	-12.0188
痺	-12.0188
斡	-12.0188
脾	-12.0189
挟	-12.019
勉齋黄氏曰	-12.019
是與不是	-12.0191
飛龍在天	-12.0192
敺	-12.0193
倉廪	-12.0194
泚	-12.0194
婢妾	-12.0195
瞭然	-12.0195
拱手	-12.0197
驍	-12.0197
隲	-12.0198
曾子問曰	-12.0198
胡亥	-12.0199
頭緒	-12.02
圯	-12.0201
纁	-12.0205
千百年	-12.0205
半截	-12.0208
堯舜禹湯	-12.0211
太極圗	-12.0211
嫡庶	-12.0212
不云乎	-12.022
先生笑曰	-12.0226
陪臣	-12.0227
種種	-12.0232
使之然也	-12.0241
做将去	-12.0246
禹湯	-12.0253
妙萬物	-12.0261
舉進士	-12.0265
水之流	-12.0317
履霜	-12.0327
夣	-12.0329
翩	-12.0333
遡	-12.0334
人生而靜	-12.0334
得之於心	-12.0334
如好好色	-12.0335
廻	-12.0335
御史中丞	-12.0336
漢明帝	-12.0336
糠	-12.0336
元者善之長	-12.0338
鎭	-12.0338
肴	-12.0338
擲	-12.0338
豢	-12.0338
皋	-12.0339
嫗	-12.034
炫	-12.0342
衒	-12.0343
菅	-12.0343
癸酉	-12.0343
格君心之非	-12.0343
甦	-12.0343
毆	-12.0344
止乎禮義	-12.0344
拭	-12.0344
匍匐	-12.0344
顆	-12.0344
一言以蔽之	-12.0345
不可偏廢	-12.0345
鏘	-12.0345
癸巳	-12.0346
秉彞	-12.0346
净	-12.0347
懲忿窒慾	-12.0347
閾	-12.0347
范仲淹	-12.0348
妖祥	-12.0348
孰大焉	-12.0348
腑	-12.035
參同契	-12.035
瓚	-12.0352
葭	-12.0352
縠	-12.0354
謳	-12.0354
仁義禮智之性	-12.0356
侍御史	-12.0357
彦博	-12.0358
无不利	-12.036
閒暇	-12.036
常棣	-12.0361
登第	-12.0361
農隙	-12.0362
要識得	-12.0366
臧否	-12.0369
虞衡	-12.0376
悖逆	-12.0378
𤣥酒	-12.0383
漢高祖	-12.0383
懇切	-12.0386
其實一也	-12.0386
昏濁	-12.0386
淫巧	-12.0387
刪詩	-12.0387
竒偶	-12.0388
和睦	-12.0391
未之思	-12.0391
右衍	-12.0393
仁者人也	-12.0394
天地山川	-12.0402
稽疑	-12.0408
研窮	-12.0425
此段專	-12.0462
中書令	-12.0465
譔	-12.0481
之所致也	-12.0485
羹	-12.049
臾	-12.049
白虎通	-12.0491
賈公彦釋曰	-12.0492
装	-12.0493
齧	-12.0495
狂狷	-12.0495
不愧屋漏	-12.0495
徳行道藝	-12.0495
切問近思	-12.0495
日用常行	-12.0495
恍	-12.0496
榻	-12.0496
天何言哉	-12.0497
轎	-12.0498
知終終之	-12.0498
邃	-12.0499
牝牡	-12.05
制禮作樂	-12.05
周程張朱	-12.05
緌	-12.05
洞庭	-12.0501
歠	-12.0501
宗子之家	-12.0501
詒	-12.0501
穽	-12.0502
畛	-12.0502
首出庶物	-12.0502
溷	-12.0502
憸	-12.0502
邕	-12.0503
行其所無事	-12.0503
大哉乾元萬物資始	-12.0503
臣之事君	-12.0503
舄	-12.0504
各具一太極	-12.0504
吕大臨	-12.0504
豺狼	-12.0504
靳	-12.0504
碍	-12.0505
掊	-12.0506
抉	-12.0507
驕吝	-12.0507
塩	-12.0507
燄	-12.0508
禘祫	-12.0508
羶	-12.0509
楫	-12.0509
劄記	-12.0509
聿	-12.0509
翼翼	-12.0511
天下何思何慮	-12.0512
鼔舞	-12.0512
庚辰	-12.0513
峭	-12.0514
雨暘	-12.0518
未之有也	-12.0519
雋	-12.0521
口舌	-12.0522
利涉大川	-12.0522
各得其宜	-12.0527
而勿失	-12.053
廬舍	-12.0531
轉輸	-12.0531
倒置	-12.0534
卷阿	-12.0544
天理之自然	-12.0574
兩浙	-12.0576
萬緡	-12.0583
間㫁	-12.0589
央	-12.0601
教國子	-12.0613
盡其才	-12.0641
千言萬語	-12.0643
僊	-12.0644
鍳	-12.0654
滎陽	-12.0655
旻	-12.0655
憶	-12.0655
平旦之氣	-12.0656
頷	-12.0656
九百四十分日之	-12.0657
何思何慮	-12.0658
上天之載	-12.0658
聮	-12.0658
拈出	-12.066
勦	-12.066
租庸調	-12.066
定性書	-12.066
液	-12.0661
籲	-12.0662
琛	-12.0662
禧	-12.0662
棐	-12.0663
熏	-12.0663
蹴	-12.0663
厦	-12.0664
彬彬	-12.0664
捶	-12.0664
與天地相似	-12.0665
信得及	-12.0665
時措之宜	-12.0666
興於詩	-12.0666
鳥獸草木	-12.0667
瘡	-12.0668
霤	-12.0669
無極之真	-12.0669
蘆	-12.067
妖孽	-12.0671
戸部	-12.0671
肥瘠	-12.0674
顔閔	-12.0678
不害其為	-12.068
勞攘	-12.068
租賦	-12.0681
巴蜀	-12.0681
飲食男女	-12.0681
典謨	-12.0686
闗市	-12.0696
先後之序	-12.0712
嵩山	-12.0713
性之本體	-12.0733
崇政殿	-12.081
莖	-12.0811
晟	-12.0813
欺罔	-12.0816
拄	-12.0816
聖敬日躋	-12.0817
侗	-12.0818
酤	-12.0819
孳孳	-12.082
尹焞	-12.082
張子韶	-12.0822
好善惡惡	-12.0824
闢楊墨	-12.0824
龕	-12.0824
隋煬帝	-12.0826
拘拘	-12.0826
禹湯文武	-12.0826
溝渠	-12.0826
彛倫	-12.0827
千變萬化	-12.0827
碣	-12.0829
斑	-12.0831
原隰	-12.0831
暘	-12.0831
周南召南	-12.0831
博學於文	-12.0831
塑像	-12.0832
愁怨	-12.0832
芬	-12.0833
隂陽二氣	-12.0833
伍子胥	-12.0833
中人以上	-12.0834
翬	-12.0835
脆	-12.0836
房𤣥齡	-12.0836
什伍	-12.0836
昏昧	-12.0838
龍蛇	-12.084
旌表	-12.084
鞫	-12.0841
規規	-12.0843
邦無道	-12.0843
秋八月	-12.0844
瞻仰	-12.0845
紇	-12.0846
凝滯	-12.0852
僚屬	-12.0853
草廬	-12.0854
各安其	-12.0861
毁瘠	-12.0863
百千萬	-12.0864
能通天下之志	-12.0872
以性為	-12.0889
天地之大義	-12.0889
天地自然之	-12.0908
十有九	-12.0938
二十七年	-12.0962
懇惻	-12.0965
怍	-12.0967
羞惡辭遜是非	-12.0978
琅	-12.0981
湎	-12.0982
誠意正心脩身	-12.0984
笥	-12.0986
勗	-12.0987
大戴禮	-12.0987
𨗳	-12.0988
含糊	-12.0988
利貞誠之復	-12.0988
奎	-12.0988
刮	-12.0989
稳	-12.0989
無父無君	-12.0989
捉摸	-12.099
跬	-12.0991
物來順應	-12.0991
畦	-12.0992
襍	-12.0992
合内外之道	-12.0992
悽愴	-12.0992
楚莊王	-12.0993
兇	-12.0993
千乗之國	-12.0993
挂	-12.0993
羊舌	-12.0993
狡童	-12.0993
嫁娶	-12.0994
閭胥	-12.0994
縉	-12.0994
吾道一以貫之	-12.0995
秬黍	-12.0996
衎	-12.0996
人生而静	-12.0997
狄仁傑	-12.0997
罍	-12.0998
巵	-12.0998
鵬	-12.0998
㝠㝠	-12.0999
循環不已	-12.0999
垂拱	-12.0999
旅酬	-12.1
堆	-12.1
闥	-12.1
洊	-12.1
醫藥	-12.1001
貺	-12.1001
各是一	-12.1001
辛丑	-12.1002
當是之時	-12.1004
盃	-12.1004
背馳	-12.1004
柝	-12.1007
有待於	-12.1007
晉平公	-12.1008
叡	-12.1014
未發已發	-12.1017
白刃	-12.1021
楣	-12.1022
上中下	-12.1027
飛走	-12.1029
古之聖王	-12.1031
為民父母	-12.1031
混淆	-12.1035
親炙	-12.1045
放倒	-12.107
第十二	-12.1112
於孔子孔子	-12.1146
趍	-12.1147
玉齋胡氏曰	-12.1147
冏	-12.1152
他們	-12.1152
鵲巢	-12.1155
楊氏復曰	-12.1156
訝	-12.1158
輳	-12.1158
矛盾	-12.1158
一草一木	-12.1158
各止其所	-12.1159
嚭	-12.1159
顛沛	-12.1161
訶	-12.1161
氣質之偏	-12.1162
諫諍	-12.1162
愜	-12.1162
大中至正之	-12.1163
趂	-12.1163
裁成輔相	-12.1163
兢業	-12.1163
浴沂	-12.1163
器皿	-12.1163
挿	-12.1164
諉	-12.1164
祈禱	-12.1164
静而生隂	-12.1165
慱	-12.1165
未知孰是	-12.1166
蔀	-12.1166
無所偏倚	-12.1167
惹	-12.1167
懵	-12.1167
博奕	-12.1168
六經語孟	-12.1168
平原君	-12.1168
諦	-12.1169
霖	-12.1169
彌縫	-12.1171
雁	-12.1171
中常侍	-12.1171
不相妨	-12.1172
洛誥	-12.1173
洞徹	-12.1175
克諧	-12.1175
遏人欲	-12.1175
鄉閭	-12.1176
一百六十	-12.1177
敇	-12.1179
順性命之理	-12.118
水火土石	-12.118
慈幼	-12.1183
燕饗	-12.1189
不亦可乎	-12.1189
悠逺	-12.119
一故神	-12.1194
敢不敬	-12.1204
忿怒	-12.1206
韋昭	-12.1208
天子七廟	-12.1217
漢宣帝	-12.122
衰絰	-12.1221
有深意	-12.124
司㓂	-12.1243
郡太守	-12.1244
惻隠羞惡	-12.1247
這個	-12.1256
富有四海	-12.1257
大學衍義	-12.1265
可以有為	-12.1282
自家身已	-12.1317
㓗	-12.1322
髣髴	-12.1326
幡	-12.1327
鬴	-12.1327
廖子晦	-12.1328
利者義之和	-12.1328
岩	-12.1328
䟎	-12.133
玩物䘮志	-12.1331
喜怒哀樂之未發	-12.1331
繼禰	-12.1331
物各付物	-12.1331
度量衡	-12.1331
抃	-12.1332
學問之道無他求其放心而已	-12.1332
上智下愚	-12.1332
迴	-12.1332
一闔一闢	-12.1332
保合太和	-12.1333
砭	-12.1334
矇	-12.1334
苻堅	-12.1335
嗚	-12.1335
鵲	-12.1336
鬼神之情狀	-12.1336
修辭立誠	-12.1336
寥	-12.1337
張思叔	-12.1338
齊桓晉文	-12.1338
袴	-12.1338
睟	-12.1339
精粗本末	-12.134
刳	-12.1341
嶠	-12.1341
淳熙	-12.1342
揣摩	-12.1343
聖賢千言萬語	-12.1343
奔競	-12.1343
卭	-12.1344
容貎	-12.1347
犒	-12.1349
兾	-12.1349
鎗	-12.135
萬二千	-12.135
舡	-12.1351
臏	-12.1352
那一邊	-12.1359
愛憎	-12.136
顔曾	-12.1369
饒録	-12.1382
帥師伐	-12.1387
父母舅姑	-12.1434
踐阼	-12.1439
池録	-12.1439
三百五十	-12.1478
玩物喪志	-12.1497
詖淫邪遁	-12.1497
藝文志	-12.1504
貂	-12.1505
黼黻	-12.1505
塹	-12.1505
襯	-12.1505
滴	-12.1507
搭	-12.1508
脗	-12.1508
筋骨	-12.1508
紱	-12.1509
颺	-12.1509
千條萬	-12.1509
瘼	-12.1509
圻	-12.1509
有善有惡	-12.151
籍溪	-12.1511
匱乏	-12.1511
擺	-12.1511
孫叔敖	-12.1511
祟	-12.1511
這般所在	-12.1512
毫釐之差	-12.1512
壅塞	-12.1512
貍	-12.1513
郭子儀	-12.1514
夾鍾	-12.1514
伉	-12.1514
壬午	-12.1515
城隍	-12.1515
潁川	-12.1517
奐	-12.1518
懲創	-12.1519
鴞	-12.1519
娥	-12.152
扞格	-12.1521
駮	-12.1524
蕭望之	-12.1524
所存者神	-12.1525
頭腦	-12.1525
乍見孺子	-12.1527
渙散	-12.153
怏	-12.1533
衛靈公	-12.1533
壬申	-12.1546
爛熟	-12.1547
渡河	-12.1561
祖妣	-12.1579
測度	-12.1644
三代以前	-12.1666
聦	-12.1674
匆	-12.1676
苫	-12.1679
瓠	-12.1681
體物而不可遺	-12.1682
使民以時	-12.1683
遶	-12.1683
鵝	-12.1684
旭	-12.1684
𤯝	-12.1686
洎	-12.1686
循物無違	-12.1687
蘄	-12.1688
搢	-12.1689
逈	-12.1689
纘	-12.1689
沓	-12.169
眡	-12.1691
衣衾	-12.1691
隤	-12.1692
諂諛	-12.1692
孟獻子	-12.1692
雞犬	-12.1693
五常百行	-12.1694
一陰一陽	-12.1694
誠者天之道	-12.1694
太皇太后	-12.1695
季桓子	-12.1695
斌	-12.1695
考訂	-12.1695
殺其大夫	-12.1695
與物接	-12.1695
倉庫	-12.1695
貫穿	-12.1695
桑麻	-12.1696
不旋踵	-12.1696
墨翟	-12.1696
渤海	-12.1696
瀛	-12.1697
犁	-12.1697
縉紳	-12.1697
敖惰	-12.1697
宋黄震撰讀	-12.1698
烽	-12.1698
詮	-12.1699
三代以後	-12.1701
陸宣公	-12.1702
庶績	-12.1702
董卓	-12.1702
晉獻公	-12.1702
劬勞	-12.1703
薌	-12.1703
閟	-12.1703
伊川易傳	-12.1705
菹	-12.1707
堡	-12.1707
娶妻	-12.1711
乘輿	-12.1713
庚申	-12.1714
信之篤	-12.1726
問云云曰	-12.1728
十有三年	-12.1733
隴西	-12.1783
孺子入井	-12.1837
圈	-12.1858
匝	-12.1861
呪	-12.1861
㷀	-12.1862
栽	-12.1862
小心翼翼	-12.1862
員外郎	-12.1864
黽勉	-12.1864
鰌	-12.1864
顔囘	-12.1865
於喜怒哀樂未發之前	-12.1865
孟子言性善	-12.1866
打疊	-12.1866
金木水火	-12.1867
濟得甚事	-12.1867
殍	-12.1867
百世不遷	-12.1868
洶	-12.1868
腓	-12.187
酹	-12.187
辟廱	-12.187
諸葛武侯	-12.1871
璟	-12.1871
鞍	-12.1872
萎	-12.1872
揔	-12.1872
鑰	-12.1873
迂濶	-12.1874
乱	-12.1874
詠歌	-12.1874
耼	-12.1874
簣	-12.1875
洮	-12.1875
整肅	-12.1876
潢	-12.1876
致知在格物	-12.1876
甿	-12.1876
二程遺書卷	-12.1876
妲	-12.1877
緦麻	-12.1878
宁	-12.1879
天所賦	-12.1879
毀	-12.1879
紡績	-12.1879
覯	-12.188
藜	-12.1881
晏嬰	-12.1881
畸	-12.1881
占筮	-12.1882
擘	-12.1884
張子房	-12.1886
岳飛	-12.1887
自今觀之	-12.1887
无咎傳曰	-12.1888
宋璟	-12.189
人之所以為人	-12.1893
𢎞毅	-12.1894
疆界	-12.1907
異於禽獸	-12.1969
腔	-12.2025
叶韻	-12.2029
晞	-12.2039
兩儀四象八卦	-12.2039
袷	-12.2041
変	-12.2044
痒	-12.2045
出門如見大賔使民如承大祭	-12.2045
焞	-12.2049
孩提	-12.205
琬	-12.2051
孛	-12.2051
千頭萬緒	-12.2053
叢脞	-12.2054
灘	-12.2054
似是而非	-12.2054
𤾉	-12.2055
藺	-12.2055
臺榭	-12.2056
事無大小	-12.2056
克伐怨欲不行	-12.2056
穹	-12.2057
硯	-12.2057
居處恭執事敬與人忠	-12.2057
顗	-12.2057
膂	-12.2058
驤	-12.2058
配義與道	-12.2059
粧	-12.2059
倩	-12.206
紆	-12.2061
簒弑	-12.2061
鏗	-12.2061
剏	-12.2061
含蓄	-12.2061
竺	-12.2062
鎔	-12.2062
㳂	-12.2063
袤	-12.2063
无疆	-12.2064
橈	-12.2064
何啻	-12.2065
陸象山	-12.2065
酳	-12.2066
刁	-12.2066
俯伏	-12.2067
依於仁	-12.207
兒童	-12.2072
磚	-12.2072
提舉司	-12.2072
沆	-12.2076
曲沃	-12.2077
弓弩	-12.2081
此君子所以	-12.2086
懈怠	-12.2095
百里奚	-12.2099
有一般人	-12.2101
做一件	-12.2102
渾渾	-12.2114
非禮勿視	-12.2167
洫	-12.2176
蹉過	-12.2181
心之靈	-12.2208
髽	-12.223
郛	-12.223
柟	-12.223
窻	-12.2233
浣	-12.2234
婺源	-12.2234
侍講學士	-12.2234
枷	-12.2235
吕公著	-12.2236
鴻臚	-12.2236
纒繞	-12.2237
無聲臭	-12.2237
估	-12.2238
縝	-12.2238
蚩尤	-12.2239
雌雄	-12.2239
逕	-12.224
仰不愧俯不怍	-12.224
元亨誠之通	-12.224
温故知新	-12.2241
能近取譬	-12.2241
至大至剛	-12.2241
輔廣曰	-12.2242
肌	-12.2242
若存若亡	-12.2242
鹵莽	-12.2243
廵狩	-12.2244
復其見天地之心	-12.2244
爕	-12.2245
造次顛沛	-12.2245
廛	-12.2245
十有一月	-12.2246
賈瓊	-12.2246
心不在焉	-12.2246
劉璋	-12.2246
恚	-12.2247
五行一隂陽	-12.2247
呈露	-12.2247
夀夭	-12.2248
意誠心正	-12.2248
推而上之	-12.2249
耳目鼻口	-12.2249
䜟	-12.2249
田畯	-12.2249
幬	-12.2249
損上益下	-12.2249
藍	-12.225
涇野子内篇卷	-12.2251
汀	-12.2251
輝光	-12.2252
長孫無忌	-12.2252
嗟嘆	-12.2253
研究	-12.2253
壬辰	-12.2253
吉㐫	-12.2253
斧鉞	-12.2254
刷	-12.2254
檢束	-12.2254
浙江	-12.2255
闔廬	-12.2255
括髪	-12.2255
淳于髠	-12.2257
衣服飲食	-12.2257
酺	-12.2259
禇	-12.2262
李泌	-12.2263
欺誑	-12.2272
范祖禹	-12.2313
莫大之	-12.232
怵惕惻隠	-12.2346
進士第	-12.2372
達之天下	-12.2382
梢	-12.2411
理合如此	-12.2417
噍	-12.242
鳳凰	-12.2422
茀	-12.2422
己所不欲勿施於人	-12.2424
修己以敬	-12.2425
劉質夫	-12.2426
矦	-12.2427
杏	-12.2429
就自家身上	-12.243
鶻	-12.243
邢昺	-12.2431
陳君舉	-12.2431
鉛	-12.2432
忠信篤敬	-12.2433
十有七	-12.2433
啄	-12.2433
攙	-12.2433
戊午	-12.2435
諜	-12.2435
鰥	-12.2435
鞶	-12.2436
悵	-12.2436
僇	-12.2437
近取諸身	-12.2437
琳	-12.2438
楞	-12.2439
游魂為變	-12.244
戒懼慎獨	-12.244
甘棠	-12.244
収斂	-12.2441
熬	-12.2441
柬	-12.2442
葱	-12.2442
痿	-12.2442
許魯齋	-12.2443
飼	-12.2444
瀕	-12.2444
爱	-12.2447
提刑司	-12.2449
陘	-12.2449
胸次	-12.2449
胃	-12.245
錯認	-12.245
館閣	-12.2451
粃	-12.2451
簷	-12.2457
趙充國	-12.2457
刲	-12.2459
為物欲所	-12.246
萬乘之	-12.2461
以馭其	-12.2462
箇敬字	-12.2477
吕祖謙	-12.2526
三皇五帝	-12.2543
桌	-12.2617
性者道之形體	-12.2618
范文正	-12.262
倀	-12.2621
藍田	-12.2623
吟咏	-12.2624
據於徳	-12.2625
和而不流	-12.2625
吕子約	-12.2625
皁	-12.2628
一言一動	-12.2629
蹌	-12.2629
克已復禮	-12.2629
瑶	-12.2629
大司農	-12.263
迤邐	-12.263
卯酉	-12.263
柳下惠	-12.2631
縈	-12.2632
淬	-12.2632
錡	-12.2632
剕	-12.2632
不亦難乎	-12.2632
耕耘	-12.2633
朶	-12.2633
山澤通氣	-12.2633
以某觀之	-12.2634
從心所欲不踰矩	-12.2634
椽	-12.2635
厭飫	-12.2635
潛室陳氏曰	-12.2636
彌綸	-12.2636
躔	-12.2636
謠	-12.2637
(□/□)	-12.2638
同日而語	-12.2638
躓	-12.2638
殂	-12.2638
撿	-12.2638
姑姊妹	-12.264
范蠡	-12.264
莫大于	-12.2641
磐	-12.2642
祲	-12.2642
耉	-12.2644
根株	-12.2645
團結	-12.2645
邯鄲	-12.2647
茶鹽	-12.265
黔首	-12.2653
仁與義	-12.2659
以敬為主	-12.266
林擇之	-12.2677
㽔	-12.2737
魏孝文	-12.2761
■	-12.2813
聪	-12.2819
淤	-12.2822
𣺌	-12.2824
一日一夜	-12.2825
循序漸進	-12.2825
中書門下	-12.2826
千有餘年	-12.2827
泝	-12.2827
嵬	-12.2827
砥礪	-12.2827
哥	-12.2828
親親而仁民仁民而愛物	-12.2828
末梢	-12.2829
壼	-12.2829
發政施仁	-12.283
濩	-12.283
生生不息	-12.2831
府史胥徒	-12.2831
萌蘖	-12.2831
鹽鐡	-12.2831
醤	-12.2832
出入起居	-12.2833
爆	-12.2833
遄	-12.2833
頺	-12.2834
蔡沉曰	-12.2834
蠡	-12.2834
牴牾	-12.2835
布政司	-12.2836
賡歌	-12.2836
脇	-12.2836
套	-12.2837
相為表裏	-12.2837
湜	-12.2837
饑餓	-12.2839
躅	-12.2839
抛	-12.2839
磊	-12.2839
俄頃	-12.2839
無思無為	-12.2839
滑稽	-12.284
戔	-12.2841
納約自牖	-12.2842
記憶	-12.2843
季孫行父	-12.2844
知所先後	-12.288
人而不仁	-12.2892
雖聖人亦	-12.2935
楛	-12.3021
師尚父	-12.3025
公而以人體之	-12.3028
家給人足	-12.3029
臬	-12.3029
經濟文衡後集卷	-12.303
錙銖	-12.3031
馬端臨曰	-12.3032
知仁勇	-12.3032
天文地理	-12.3033
囹圄	-12.3034
爪牙	-12.3034
襚	-12.3034
蘖	-12.3034
胡衡麓	-12.3034
五經四書	-12.3034
萬物化生	-12.3034
脈絡	-12.3034
觚	-12.3035
紬繹	-12.3035
褚	-12.3035
礫	-12.3035
讃	-12.3035
葛藟	-12.3036
經濟文衡前集卷	-12.3036
姆	-12.3036
吠	-12.3036
白鹿洞	-12.3036
昜	-12.3036
樂天知命	-12.3037
滕文公	-12.3037
齟齬	-12.3037
洒掃應對進退	-12.3037
可不慎乎	-12.3038
麛	-12.3038
裾	-12.3038
未之聞也	-12.3038
燼	-12.3038
湣	-12.3039
﨑嶇	-12.3039
賑糶	-12.304
一二三四	-12.304
栁下恵	-12.304
恐懼修省	-12.304
闒	-12.3041
尊光云	-12.3041
涿	-12.3041
瑄	-12.3041
籩	-12.3041
瞶	-12.3042
㬥	-12.3042
杼	-12.3042
攤	-12.3043
師敗績	-12.3043
襁褓	-12.3043
桷	-12.3043
諫議大夫	-12.3043
及其至也	-12.3045
賢良方正	-12.3045
夫人姜氏	-12.3047
綌	-12.3047
袪	-12.3047
餞	-12.3047
蹷	-12.3048
堙	-12.3048
皮膚	-12.3049
瑾	-12.3049
惲	-12.3051
褻	-12.3053
疽	-12.3053
塗炭	-12.3053
仇讎	-12.3054
祁奚	-12.3055
范太史	-12.3055
可識矣	-12.3068
妃嬪	-12.3126
所以然之故	-12.316
千七百	-12.3162
塡	-12.3228
肢	-12.3231
狎侮	-12.3232
阮逸	-12.3233
引而不發	-12.3234
鮒	-12.3235
儐	-12.3236
刀鋸	-12.3237
克伐怨欲	-12.3237
郭璞	-12.3238
大理寺	-12.3239
翫味	-12.3239
仄	-12.3239
踣	-12.3241
槀	-12.3242
䜟緯	-12.3242
自下而上	-12.3242
佛肸	-12.3242
反求諸己	-12.3243
去古未逺	-12.3244
碁	-12.3244
姨	-12.3244
東莱	-12.3245
坱	-12.3245
萬二千五百	-12.3246
頰	-12.3246
珥	-12.3246
衮冕	-12.3247
擇乎中庸	-12.3247
脛	-12.3247
鶴鳴	-12.3247
鄱	-12.3248
剖判	-12.3248
肫	-12.3248
酖	-12.3248
磽	-12.3249
燥濕	-12.3249
自暴自棄	-12.3249
懟	-12.3249
鼂錯	-12.3249
凍餒	-12.325
行其庭不見其人	-12.325
鯁	-12.325
迤	-12.3251
咫尺	-12.3251
廟堂之上	-12.3251
狙詐	-12.3251
柅	-12.3251
有憂色	-12.3251
殺身成仁	-12.3251
雲霧	-12.3252
應接事物	-12.3254
飱	-12.3254
則明明則	-12.3254
筴	-12.3256
八佾	-12.3256
文正公	-12.3258
葷	-12.3258
塵埃	-12.3262
甽	-12.3263
蚡	-12.3268
四海九州	-12.3272
則如之何曰	-12.3281
疆場	-12.3296
之所由生也	-12.3297
从	-12.3407
松柏	-12.3441
伸䝉子	-12.3442
三千三百	-12.3446
㺯	-12.3449
如惡惡臭如好好色	-12.3449
關睢	-12.345
甜	-12.345
烖	-12.3451
膰	-12.3451
攪	-12.3452
灝	-12.3452
癢	-12.3452
操而存	-12.3453
順受其正	-12.3453
鐫	-12.3453
崔杼	-12.3453
鞋	-12.3453
滲漏	-12.3454
臍	-12.3454
體仁足以長人	-12.3454
蹠	-12.3455
囂囂	-12.3456
至誠惻怛	-12.3456
劌	-12.3456
蠻貊	-12.3456
不與惡對	-12.3456
四方八面	-12.3456
彷	-12.3457
輪廻	-12.3457
鬲	-12.3457
煬	-12.3457
吃	-12.3457
憔悴	-12.3457
狹隘	-12.3459
設官分職	-12.3459
煨燼	-12.3459
階級	-12.346
提醒	-12.346
簞瓢陋巷	-12.3461
妓	-12.3461
悄	-12.3461
是是非非	-12.3462
動静語黙	-12.3462
行夏之時	-12.3462
唇	-12.3462
瘴	-12.3463
誹	-12.3464
伏羲畫卦	-12.3464
蒔	-12.3464
仇讐	-12.3464
其要只在	-12.3464
韓琦	-12.3465
過與不及	-12.3465
諴	-12.3466
莆	-12.3467
魯齋許氏曰	-12.3468
巫蠱	-12.3468
鞮	-12.3469
釋迦	-12.347
呻吟	-12.347
圭璧	-12.347
袁紹	-12.3471
莪	-12.3471
築長城	-12.3472
淖	-12.3473
騏	-12.3475
瓘	-12.3476
京畿	-12.3484
氣聚則	-12.3487
五帝三王	-12.3569
貞觀之治	-12.3605
尺五寸	-12.3609
𥘉	-12.3655
湏臾	-12.3656
鎛	-12.3662
范淳夫	-12.3663
曄	-12.3666
瞀	-12.3667
樛	-12.3668
韞	-12.3668
型	-12.3668
沈存中	-12.3668
韓持國	-12.3668
紼	-12.3668
出入無時莫知其鄉	-12.3669
咺	-12.3669
論性不論氣	-12.3669
滓	-12.367
霖雨	-12.3671
謝良佐	-12.3671
夙興夜寐	-12.3671
吾斯之未能信	-12.3671
瑱	-12.3672
予欲無言	-12.3672
稿	-12.3672
有善而無惡	-12.3672
僎	-12.3673
㩀	-12.3673
鎬京	-12.3673
上蔡謝氏曰	-12.3673
猴	-12.3673
基址	-12.3673
喜怒哀樂未發謂之中	-12.3674
稠	-12.3674
剋	-12.3674
好問好察	-12.3675
宋真徳秀撰	-12.3675
鷄鳴	-12.3675
費而隠	-12.3675
璿	-12.3675
橘	-12.3676
黙而成之	-12.3676
莩	-12.3676
芽	-12.3676
奨	-12.3676
諄	-12.3677
獒	-12.3677
恂恂	-12.3677
踴	-12.3677
堊	-12.3678
蛟龍	-12.3678
桑𢎞羊	-12.3678
曇	-12.3679
琪	-12.3679
祛	-12.3679
萍	-12.368
佻	-12.368
如有所立卓爾	-12.368
方伯連帥	-12.3681
馨香	-12.3681
攅	-12.3681
不思不勉	-12.3681
大徳敦化	-12.3681
與天地不相似	-12.3682
媪	-12.3682
訢	-12.3683
伽	-12.3683
匃奴	-12.3683
荆軻	-12.3683
栁子厚	-12.3683
嵇	-12.3684
絕	-12.3684
咳	-12.3684
牓	-12.3684
坂	-12.3684
麴	-12.3685
闌	-12.3685
㤙	-12.3686
三百八十四	-12.3688
諶	-12.3688
蕡	-12.3688
盱	-12.3689
潼	-12.369
陲	-12.3691
篚	-12.3691
善戰者	-12.3696
衝突	-12.3697
如斯而已	-12.3703
曰美哉	-12.3733
性理羣書句解卷	-12.3866
郄	-12.3882
邶	-12.3883
阡	-12.3883
起敬起孝	-12.3884
兩儀生四象	-12.3889
北宫黝	-12.389
欽明文思	-12.389
凛凛	-12.3891
簞	-12.3891
怎麽	-12.3891
惇頥	-12.3891
巍	-12.3893
黿	-12.3893
改過不吝	-12.3893
噲	-12.3893
紺	-12.3894
氣禀物欲	-12.3895
恆	-12.3895
恝	-12.3895
杌	-12.3895
不忍人之政	-12.3895
努	-12.3897
胝	-12.3897
窆	-12.3897
中書舍人	-12.3897
斐	-12.3897
孝弟為仁之本	-12.3898
欝	-12.3898
睨	-12.3898
羑里	-12.3898
摺	-12.3899
先難後獲	-12.3899
棖	-12.3899
俑	-12.3899
奉若天道	-12.3899
雲行雨施	-12.3899
水漿不入口	-12.39
劭	-12.3901
曹劌	-12.3901
敲	-12.3901
矯揉	-12.3901
子太叔	-12.3901
棫	-12.3901
掣肘	-12.3901
公侯伯子男	-12.3901
螻蟻	-12.3902
徯	-12.3902
彀	-12.3902
阪	-12.3902
禎祥	-12.3902
采蘩	-12.3903
動静無端隂陽無始	-12.3904
肓	-12.3904
仁與不仁	-12.3904
者不可勝數	-12.3905
𬒳	-12.3905
庳	-12.3905
爨	-12.3907
簞瓢	-12.391
歙	-12.391
秒	-12.3911
其可得乎	-12.3912
再拜稽首	-12.3912
何心哉	-12.3935
家國天下	-12.395
動而無動	-12.4066
蚊	-12.4103
內	-12.4103
聲氣之元	-12.4104
袞	-12.4109
知皆擴而充之	-12.4111
遒	-12.4112
匯	-12.4112
饔	-12.4113
霆	-12.4113
立天之道曰隂與陽立地之道曰柔與剛	-12.4114
赭	-12.4115
細膩	-12.4116
殀	-12.4116
四時行百物生	-12.4117
侏	-12.4118
苓	-12.4119
綢繆	-12.4119
誠者聖人之本	-12.4119
君子而時中	-12.4119
梨	-12.412
君子所貴乎道者三	-12.4121
毓	-12.4121
言忠信行篤敬	-12.4122
二百三十五	-12.4122
在帝左右	-12.4122
逍	-12.4122
耑	-12.4123
一副當	-12.4124
眠	-12.4124
聖而不可知	-12.4125
侍讀學士	-12.4125
不聊生	-12.4125
陽中之隂	-12.4125
寰	-12.4126
妤	-12.4126
博我以文約我以禮	-12.4126
食貨志	-12.4127
哭盡哀	-12.4127
煇	-12.4128
易之為書	-12.4128
祈天永命	-12.4129
縑	-12.4129
惱	-12.4129
庚戌	-12.4129
顯㣲無間	-12.413
巫覡	-12.413
皐	-12.4131
胾	-12.4132
杪	-12.4132
俶	-12.4133
瘦	-12.4134
闑	-12.4134
哩	-12.4134
痤	-12.4134
元㑹運世	-12.4135
簪	-12.4135
宂	-12.4136
楯	-12.4137
蓐	-12.4139
㐲	-12.4142
荔	-12.4145
銑	-12.415
彈琴	-12.4273
通天下之志	-12.4279
饘	-12.4342
禮之用和為貴	-12.4347
艶	-12.4348
推己及物	-12.435
仭	-12.435
熟讀精思	-12.435
藜藿	-12.435
掇拾	-12.4351
狸	-12.4351
福善禍淫	-12.4352
瑋	-12.4352
一晝一夜	-12.4352
薛文清	-12.4352
蹻	-12.4352
愷悌	-12.4353
諏	-12.4353
翹	-12.4353
拽	-12.4353
經濟文衡續集卷	-12.4354
仲虺之誥	-12.4354
券	-12.4354
權其輕重	-12.4354
毬	-12.4354
杵	-12.4355
莫甚焉	-12.4355
並行而不相悖	-12.4356
撒	-12.4356
鄉舉里選	-12.4356
糗	-12.4356
屈伸徃來	-12.4357
樂與好禮	-12.4357
子升問	-12.4357
夤	-12.4357
圭璋	-12.4357
作民父母	-12.4357
苑囿	-12.4358
萹	-12.4358
四時行焉百物生焉	-12.4358
乾隆四十六年	-12.4358
詁	-12.4359
隂符經	-12.4359
鄣	-12.4359
泆	-12.436
鄞	-12.436
嘲	-12.4361
猫	-12.4361
慍	-12.4361
愴	-12.4361
無往而非	-12.4362
百姓日用而不知	-12.4362
猖狂	-12.4362
羃	-12.4362
翌	-12.4362
甌	-12.4362
嫠	-12.4364
孟施舍	-12.4365
無乎不在	-12.4366
驩兠	-12.4367
可不慎哉	-12.4367
田子方	-12.4368
晏平仲	-12.4369
水火木金土	-12.437
攣	-12.4371
羆	-12.4373
淇	-12.4373
邰	-12.4374
天一生水	-12.4374
愧怍	-12.4383
曰寡君	-12.4528
癸丑	-12.4573
禜	-12.458
夹	-12.4581
修己治人	-12.4581
斈	-12.4582
先立乎其大者	-12.4584
儷	-12.4584
陳同父	-12.4585
祖考之精神	-12.4586
洋溢	-12.4588
卲	-12.4589
從容不迫	-12.459
緝熈	-12.4591
剌	-12.4591
愛無差等	-12.4591
無安頓處	-12.4591
動心忍性	-12.4592
爼豆	-12.4592
驃	-12.4592
冠昏喪祭	-12.4592
憤悱	-12.4592
沔	-12.4593
陳善閉邪	-12.4593
切磋琢磨	-12.4593
揠	-12.4594
諟	-12.4594
如何分别曰	-12.4595
䰟	-12.4595
僱	-12.4596
訒	-12.4596
邳	-12.4596
有不善未嘗不知知之未嘗復行	-12.4596
形而下之器	-12.4596
戒愼恐懼	-12.4596
與道為體	-12.4596
正其誼不謀其利明其道不計其功	-12.4596
莫此為甚	-12.4596
僨	-12.4597
王輔嗣	-12.4597
繼天立極	-12.4597
鋟	-12.4597
㛰	-12.4597
峴	-12.4598
毳	-12.4598
先聖先師	-12.4598
鏃	-12.4598
硜硜	-12.4598
蠆	-12.4598
掣	-12.4599
桓魋	-12.4599
娘	-12.4599
勿求於氣	-12.4599
枵	-12.46
惴惴	-12.46
刎	-12.4601
皮殻	-12.4601
考工記	-12.4601
嗛	-12.4603
焰	-12.4603
履霜堅氷	-12.4603
馨	-12.4603
昕	-12.4605
慥	-12.4606
飪	-12.4606
踖	-12.4608
娯	-12.4608
甑	-12.4609
一百五十二	-12.4611
逖	-12.4611
昶	-12.4612
孶	-12.4613
畬	-12.4613
孳	-12.4625
譌	-12.481
為聖為賢	-12.4827
列女傳	-12.4828
襃	-12.4828
以義制事以禮制心	-12.4829
脤	-12.483
可與適道	-12.483
資治通鑑	-12.4831
必有事焉而勿正心勿忘勿助長	-12.4832
聲色臭味	-12.4832
操則存舍則亡	-12.4832
只是這一箇道理	-12.4834
于時保之	-12.4834
娱	-12.4834
赤子入井	-12.4835
悱	-12.4835
千乘之國	-12.4835
泓	-12.4836
賭	-12.4837
鴨	-12.4837
閑邪存誠	-12.4837
俳優	-12.4838
腆	-12.4838
跟	-12.4838
締	-12.4839
六七八九	-12.4839
獨善其身	-12.484
僥	-12.484
無諂無驕	-12.4841
孀	-12.4841
瀝	-12.4841
嘔血	-12.4841
可欲之謂善	-12.4841
楨	-12.4841
成天下之務	-12.4842
寞	-12.4842
不一而足	-12.4842
燬	-12.4842
子桑伯子	-12.4842
垓	-12.4842
主父偃	-12.4843
嗤	-12.4843
什麽	-12.4843
博愛之謂仁	-12.4843
可謂孝矣	-12.4843
虺	-12.4844
荀子卷第	-12.4845
螫	-12.4845
無敵於天下	-12.4845
宋朱子編	-12.4846
簧	-12.4847
犇	-12.4847
瀦	-12.4847
祓	-12.4849
犯而不校	-12.4849
轉般倉	-12.4849
莫盛於	-12.485
畵	-12.4851
嗃	-12.4859
蕢	-12.4865
聞諸夫子	-12.4869
箇大底	-12.4955
緋	-12.5068
酇	-12.507
莧	-12.5071
放僻邪侈	-12.5072
脯醢	-12.5077
鄠	-12.5079
吻	-12.508
店	-12.508
義襲而取	-12.5081
屣	-12.5083
民吾同胞	-12.5083
疢	-12.5083
墨氏兼愛	-12.5084
卹	-12.5084
苞苴	-12.5084
利渉大川	-12.5084
教胄子	-12.5084
大經大法	-12.5084
君臣父子兄弟夫婦朋友	-12.5085
入頭處	-12.5085
禎	-12.5085
誠斯立焉	-12.5085
吊	-12.5086
亹	-12.5086
酧	-12.5086
見幾而作	-12.5087
羞惡恭敬是非	-12.5087
致命遂志	-12.5087
煽	-12.5087
化民成俗	-12.5087
綈	-12.5088
潑	-12.5088
乾父坤母	-12.5088
敬鬼神而逺之	-12.5088
東萊吕氏曰	-12.5089
陶淵明	-12.5089
筲	-12.5089
芑	-12.5089
茅茨	-12.5089
不遷不貳	-12.509
前言徃行	-12.509
父慈子孝	-12.509
儼若思	-12.509
俎豆	-12.5091
衘	-12.5091
令尹子文	-12.5091
爇	-12.5091
虞夏商周	-12.5091
天命之謂性率性之謂道	-12.5092
可得聞乎	-12.5092
穗	-12.5092
譊	-12.5093
延陵季子	-12.5093
心目之間	-12.5094
綫	-12.5094
捜	-12.5095
形而上者謂之道形而下者謂之器	-12.5095
諸葛孔明	-12.5095
韭	-12.5096
荷蕢	-12.5096
仁之至義之盡	-12.5096
蕞	-12.5096
養生送死	-12.5096
殮	-12.5096
徂徠	-12.5096
太平興國	-12.5097
婚媾	-12.5097
豶	-12.5097
精義入神以致用	-12.5097
以虚受人	-12.5098
陬	-12.5098
禕	-12.5099
譟	-12.51
壝	-12.51
薈	-12.5101
藎	-12.5101
樗	-12.5101
緹	-12.5101
擕	-12.5101
嗷	-12.5105
弇	-12.5106
雎鳩	-12.5118
欣欣	-12.5119
梅堯臣	-12.5322
鉉	-12.5325
帚	-12.5332
公冶長	-12.5333
絿	-12.5333
迓	-12.5334
五家為比	-12.5335
古先聖王	-12.5336
呉澂曰	-12.5336
郴	-12.5338
嶢	-12.5339
若合符節	-12.5339
藤	-12.5339
漚	-12.5339
狙	-12.534
葛覃	-12.534
閧	-12.5341
光風霽月	-12.5341
艷	-12.5341
澂	-12.5341
温故而知新	-12.5341
乾道成男坤道成女	-12.5342
羅仲素	-12.5342
芘	-12.5343
簇	-12.5343
釘	-12.5343
萬國咸寧	-12.5344
神道碑	-12.5344
指理而言	-12.5344
利建侯	-12.5344
修道之謂教	-12.5345
讀何書	-12.5345
縲	-12.5345
發號施令	-12.5345
繢	-12.5345
一百一十二	-12.5348
一竒一偶	-12.5348
饕	-12.5348
扉	-12.5348
眸	-12.5348
可與存義	-12.5349
磔	-12.5349
鈐	-12.5349
有主則實	-12.535
毉	-12.535
㗖	-12.535
小戴記	-12.535
思不出其位	-12.535
隂中之陽	-12.5351
竽	-12.5351
霄壤	-12.5351
屹	-12.5351
光禄大夫	-12.5351
惨	-12.5352
贊天地之化育	-12.5352
輈	-12.5354
鸇	-12.5354
闚	-12.5357
尺蠖	-12.5357
犴	-12.536
神道設教	-12.5362
駉	-12.5384
未知是否	-12.5554
縫罅	-12.5599
侯師聖	-12.5599
參天兩地	-12.5599
噴	-12.5599
璉	-12.56
彼善於此	-12.56
餗	-12.56
諸老先生	-12.5601
款	-12.5601
棼	-12.5601
窈	-12.5601
扆	-12.5602
崛	-12.5603
塜	-12.5604
各從其類	-12.5604
善惡皆天理	-12.5604
信道篤	-12.5605
熊氏剛大曰	-12.5605
酗	-12.5605
一而二二而一	-12.5605
綾	-12.5605
殤與無後	-12.5605
不睹恐懼乎其所不聞	-12.5606
鱉	-12.5606
鈴	-12.5607
得其門而入	-12.5607
旐	-12.5607
神而明之	-12.5607
天地之塞吾其體天地之帥吾其性	-12.5608
咸有一徳	-12.5608
籬	-12.5608
茸	-12.5608
縰	-12.5608
涅	-12.5609
賽	-12.5609
縵	-12.5609
熒	-12.5609
闗内侯	-12.561
揑	-12.561
僂	-12.5611
愔	-12.5611
摽	-12.5612
非禮勿視非禮勿聽非禮勿言非禮勿動	-12.5612
即事即物	-12.5613
尭	-12.5613
小徳川流	-12.5613
無伐善無施勞	-12.5614
不得於言勿求於心	-12.5615
左丘明	-12.5615
有主則虚	-12.5616
毖	-12.5616
罝	-12.5617
掎	-12.5617
抝	-12.5617
自始至終	-12.5618
沫	-12.5618
睫	-12.5618
扱	-12.5619
尊君親上	-12.5621
冥冥	-12.5625
櫓	-12.5638
柰	-12.5845
醋	-12.5862
博學審問	-12.5862
天尊地卑	-12.5865
十九分度之七	-12.5865
盼	-12.5866
桶	-12.5867
心者性之郛郭	-12.5867
尔	-12.5868
反身而誠樂莫大焉	-12.5868
縂	-12.5868
隷	-12.5868
後天而奉天時	-12.5869
獅	-12.5869
阱	-12.5869
口之於味	-12.587
縟	-12.587
不怨天不尤人	-12.5871
焄蒿	-12.5871
無可無不可	-12.5872
恫	-12.5872
欲動情勝	-12.5872
褰	-12.5873
各有攸當	-12.5873
儱侗	-12.5873
胡明仲	-12.5873
匙	-12.5873
富鄭公	-12.5873
㴠	-12.5874
筍	-12.5875
修辭立其誠	-12.5875
負土成墳	-12.5875
裙	-12.5876
皆由此出	-12.5876
叫	-12.5876
渤	-12.5876
觳	-12.5876
貧賤憂戚	-12.5877
何難之有	-12.5877
㦯	-12.5877
不王不禘	-12.5878
𦕈	-12.5878
知人則哲	-12.5878
尊徳性而道問學	-12.5878
濃	-12.5879
今從李本	-12.5879
養心莫善於寡欲	-12.5879
㬰	-12.5879
四肢百骸	-12.5879
知崇禮卑	-12.588
眹	-12.588
僵	-12.588
灣	-12.588
窮兵黷武	-12.5881
杓	-12.5882
壟	-12.5882
适	-12.5882
朝聞道夕死可矣	-12.5883
罸	-12.5883
所其無逸	-12.5883
漾	-12.5884
躭	-12.5884
得一善則拳拳服膺	-12.5884
喝	-12.5884
渫	-12.5884
喋	-12.5885
耰	-12.5885
棒	-12.5885
易書詩春秋	-12.5885
咬	-12.5886
鳲鳩	-12.5886
思過半矣	-12.5887
喑	-12.5888
栁宗元	-12.5888
毁廟之主	-12.5888
哂	-12.5888
申包胥	-12.5888
黝	-12.5889
斨	-12.5889
窈窕	-12.5889
儋	-12.589
氊	-12.589
駱	-12.589
薊	-12.5891
靜極復動	-12.5891
溱洧	-12.5891
諗	-12.5894
秧	-12.5896
㳙	-12.5899
鬛	-12.5909
鴉	-12.6135
荏	-12.6136
坯	-12.6138
搢笏	-12.614
筓	-12.614
𤦺	-12.6146
以意逆志	-12.6146
垠	-12.6146
擦	-12.6146
百辟卿士	-12.6147
楓	-12.6147
寛以居之	-12.6149
孩提之童	-12.615
榕壇問業卷	-12.615
杳	-12.615
石所失者	-12.615
媟	-12.6151
稊	-12.6151
勿忘勿助	-12.6152
賃	-12.6152
珮	-12.6152
戻	-12.6153
奧	-12.6154
同行異情	-12.6154
廓然而大公	-12.6154
絇	-12.6155
敷淺原	-12.6155
轝	-12.6155
自天子至於庶人	-12.6156
嚇	-12.6156
偲	-12.6156
一竒一耦	-12.6156
娑	-12.6156
冲漠無朕	-12.6156
聲色貨利	-12.6156
一出一入	-12.6157
大中祥符	-12.6157
覦	-12.6157
鑊	-12.6157
鏑	-12.6157
非一朝一夕	-12.6158
有是有非	-12.6158
辠	-12.6158
蚓	-12.6159
郜	-12.6159
掀	-12.6159
陳祥道曰	-12.6159
頋	-12.616
淇澳	-12.616
李文靖	-12.616
吕不韋	-12.616
扛	-12.616
捲	-12.616
棋	-12.616
兠	-12.6161
榭	-12.6161
謹身節用	-12.6161
㴱	-12.6161
木火土金水	-12.6161
天之所以與我者	-12.6162
徴引易上傳之	-12.6162
倂	-12.6163
筒	-12.6163
下觀而化	-12.6163
蟋	-12.6165
攔	-12.6165
知我者其天乎	-12.6166
坐作進退	-12.6166
蹢	-12.6168
嚶	-12.6169
倭	-12.617
鍛	-12.6171
歜	-12.6176
蛤	-12.6179
潛龍勿用	-12.6179
蚌	-12.6181
范蜀公	-12.6424
鼃	-12.6425
好古敏以求之	-12.6425
涵養須用敬進學則在致知	-12.6425
悮	-12.6426
乃若其情則可以為善	-12.6432
鏞	-12.6432
非才之罪	-12.6434
知稼穡之艱難	-12.6435
窓	-12.6435
四象生八卦	-12.6436
蒍	-12.6437
十室之邑	-12.6437
梳	-12.6437
奩	-12.6438
傴	-12.6438
瓢	-12.6438
菊	-12.6439
契為司徒	-12.6439
黏	-12.6439
惸	-12.6439
無極之真二五之精妙合而凝	-12.6439
夫子之言性與天道不可得而聞	-12.644
顧諟天之明命	-12.644
莫見乎隠莫顯乎微	-12.644
仿	-12.644
錘	-12.6441
如臨深淵如履薄氷	-12.6441
摳	-12.6441
胼	-12.6442
嘔	-12.6442
蒋	-12.6443
繼志述事	-12.6443
獻藎問	-12.6443
曖	-12.6444
太倉陸世儀撰	-12.6444
愚夫愚婦	-12.6444
蚩蚩	-12.6444
無善無惡	-12.6444
娠	-12.6445
散騎常侍	-12.6445
成性存存	-12.6445
猿	-12.6446
不疾而速不行而至	-12.6446
茵	-12.6446
凡厥庶民	-12.6446
魅	-12.6446
皦	-12.6446
妍媸	-12.6446
尫	-12.6446
邲	-12.6447
擗	-12.6447
軄	-12.6447
静極復動	-12.6447
慆	-12.6448
滁	-12.6449
澧	-12.6449
儇	-12.6449
悃	-12.645
朱公掞	-12.645
簮	-12.645
云者則以言夫	-12.645
少正卯	-12.6451
㡌	-12.6451
櫽	-12.6452
秬鬯	-12.6452
遴	-12.6453
腊	-12.6455
蓼莪	-12.6455
見龍在田	-12.6459
殳	-12.6459
獻藎曰	-12.646
褚遂良	-12.6461
郝	-12.6465
分八釐	-12.6465
抜	-12.6466
燦	-12.6701
禖	-12.6707
踽	-12.6719
皜	-12.672
葆	-12.672
皇建其有極	-12.6724
昊天有成命	-12.6724
翅	-12.6724
掌建邦	-12.6726
大本大原	-12.6726
周敦頥	-12.6726
鎖	-12.6727
二之則不是	-12.6727
繼善成性	-12.6727
杜子美	-12.6728
畮	-12.6728
自反而縮	-12.6728
瘝	-12.6729
公㑹晉侯	-12.673
詫	-12.673
三分益一	-12.6731
惡㫖酒	-12.6732
裸	-12.6732
理明義精	-12.6732
鎻	-12.6732
囷	-12.6733
飜	-12.6733
隂陽不測之謂神	-12.6733
日就月將	-12.6733
蜚	-12.6733
恡	-12.6734
雞初鳴	-12.6734
痼	-12.6734
殱	-12.6734
釵	-12.6734
眺	-12.6734
峩	-12.6734
武王克商	-12.6735
聞一知十	-12.6735
衣不解帶	-12.6735
捺	-12.6735
婿	-12.6735
主一之謂敬	-12.6736
民吾同胞物吾與也	-12.6736
天地設位而易行乎其中	-12.6736
徨	-12.6737
人皆可以為堯舜	-12.6737
籧	-12.6737
紵	-12.6737
栝	-12.6737
䨇	-12.6737
薇	-12.6737
薺	-12.6737
不念舊惡	-12.6737
輾	-12.6738
聫	-12.6738
緝熙敬止	-12.6738
中庸衍義卷	-12.6738
心之全徳	-12.6738
杵臼	-12.6738
羣廟之主	-12.6738
塌	-12.6738
者㡬希	-12.6739
商角徵羽	-12.6739
廨	-12.6739
持其志無暴其氣	-12.6739
飢食渴飲	-12.6739
剃	-12.6739
其孰能與於此	-12.6741
寥寥	-12.6741
褁	-12.6741
虵	-12.6742
虩	-12.6742
紕	-12.6742
東溪日談録	-12.6742
逗	-12.6742
炯	-12.6743
清明在躬	-12.6744
霞	-12.6744
阯	-12.6744
紃	-12.6746
緍	-12.6746
蜴	-12.6746
闐	-12.6747
垜	-12.6748
筯	-12.6748
墩	-12.675
礲	-12.675
癰	-12.6751
幟	-12.6752
宗初政	-12.6762
孜	-12.6763
捭	-12.6764
揄	-12.6771
瑊	-12.7
邯	-12.7019
簀	-12.702
揩	-12.7024
荐	-12.7025
趙忠簡	-12.7025
㮣	-12.7025
戞	-12.7027
贛	-12.7029
不邇聲色不殖貨利	-12.703
婼	-12.703
訏	-12.7031
哇	-12.7031
行周官之法度	-12.7031
以直養而無害	-12.7031
亘古亘今	-12.7031
惺	-12.7032
笛	-12.7032
内外交相養	-12.7033
澡	-12.7033
論性不論氣不備論氣不論性不明	-12.7033
伏羲神農黄帝	-12.7034
耳無聞目無見	-12.7034
醖	-12.7034
半塗而廢	-12.7035
釜	-12.7036
鳶飛戾天魚躍于淵	-12.7036
如指諸掌	-12.7036
未有致知而不在敬者	-12.7036
博學審問慎思明辨	-12.7036
饉	-12.7037
溟	-12.7037
疣	-12.7037
伾	-12.7037
肸	-12.7037
㡳	-12.7037
娩	-12.7037
稱物平施	-12.7037
事到面前	-12.7037
呆	-12.7037
嚴威儼恪	-12.7037
履虎尾	-12.7038
璵	-12.7038
岌	-12.7038
歐陽永叔	-12.7038
摰	-12.7038
攄	-12.7038
睚	-12.7039
春生夏長	-12.7039
一陰一陽之謂道	-12.7039
制民之産	-12.7039
與時偕行	-12.704
𥚹	-12.704
儗	-12.704
蔕	-12.704
主敬行恕	-12.704
莞	-12.704
於穆不已	-12.704
鈇鉞	-12.7042
孔頴逹	-12.7043
鬢	-12.7043
伊尹告太甲	-12.7043
乾以易知坤以簡能	-12.7043
夫婦長幼朋友	-12.7043
安不忘危	-12.7044
緻	-12.7044
燃	-12.7044
鍜	-12.7044
猖	-12.7044
巫馬期	-12.7044
幹父之蠱	-12.7045
陀	-12.7045
幙	-12.7045
量入為出	-12.7046
奈他何	-12.7047
段干木	-12.7048
朘	-12.7049
游氣紛擾	-12.7049
匄	-12.7049
筌	-12.7049
珙	-12.7049
舶	-12.705
咤	-12.705
格致誠正	-12.705
喘	-12.705
箧	-12.7051
瓉	-12.7054
哨	-12.7055
粢	-12.7055
吮	-12.7057
嚕	-12.7065
耤	-12.7067
擿	-12.7067
輴	-12.708
鳸	-12.7313
敬事而信	-12.7334
蟹	-12.7335
先天而天弗違	-12.7337
發而皆中節謂之和	-12.7338
㪯	-12.7338
佔	-12.7339
龍圖閣	-12.734
聆	-12.734
仁義禮智根於心	-12.734
蛟	-12.7341
無暴其氣	-12.7342
同寅協恭	-12.7342
紬	-12.7342
拶	-12.7343
出門如見大賓使民如承大祭	-12.7344
䡖	-12.7344
桮棬	-12.7344
鶩	-12.7344
嚼	-12.7344
擡	-12.7345
按察司	-12.7345
紈	-12.7346
神而明之存乎其人	-12.7346
校書郎	-12.7346
㬊	-12.7346
宋真德秀撰	-12.7346
枅	-12.7346
秦皇漢武	-12.7347
蘇季明	-12.7347
杕	-12.7347
恐懼脩省	-12.7347
戩	-12.7347
立賢無方	-12.7347
擇善而固執之	-12.7348
朱光庭	-12.7348
深造之以道	-12.7348
存其心養其性	-12.7348
泰族訓曰	-12.7349
鼗	-12.7349
修辭立其誠所以居業	-12.7349
纛	-12.7349
偈	-12.7349
無怠無荒	-12.7349
王昭禹曰	-12.7349
菩薩	-12.735
儌	-12.735
蟊	-12.7351
嶮	-12.7351
牕	-12.7351
兜	-12.7351
湑	-12.7351
推而放諸	-12.7352
嶷	-12.7352
清明在躬志氣如神	-12.7353
琇	-12.7353
雎	-12.7353
隨事精察	-12.7353
徴引禮	-12.7354
衺	-12.7354
議獄緩死	-12.7354
諝	-12.7354
胖	-12.7355
兩在故不測	-12.7355
厝	-12.7355
成已成物	-12.7355
瑛	-12.7356
三昭三穆	-12.7356
男正位乎外	-12.7356
拇	-12.7356
人不知而不愠	-12.7356
咀嚼	-12.7357
薑	-12.7357
因時制宜	-12.7357
齗	-12.7357
大學士李光地撰	-12.7357
女正位乎内	-12.7357
飴	-12.7358
絪縕	-12.7358
驁	-12.7358
撼	-12.7359
晢	-12.7359
媢	-12.7359
啗	-12.7359
格其非心	-12.736
賫	-12.736
牿	-12.7361
蜥	-12.7362
代天理物	-12.7362
傀	-12.7363
輶	-12.7363
損下益上	-12.7363
椘	-12.7364
用九用六	-12.7365
非其鬼而祭之	-12.7365
稹	-12.7366
炬	-12.7366
羣龍无首	-12.7367
摇	-12.7367
苕	-12.7369
繻	-12.737
四千三百二十	-12.7372
瑁	-12.7372
戇	-12.7373
牐	-12.7634
王假有廟	-12.7661
日新又新	-12.7662
燿	-12.7662
夜氣不足以存	-12.7663
臀	-12.7663
壌	-12.7663
醆	-12.7663
發憤忘食樂以忘憂	-12.7665
民受天地之中以生	-12.7665
氾	-12.7666
魑魅	-12.7666
塈	-12.7666
力役之征	-12.7666
柷	-12.7667
䦧	-12.7667
暄	-12.7667
徠	-12.7668
侣	-12.7668
矍	-12.7669
不睹恐懼不聞	-12.7669
顕	-12.767
人心惟危道心惟微惟精惟一允執厥中	-12.767
行有餘力則以學文	-12.767
御纂性理精義	-12.7671
無獨必有對	-12.7671
罷侯置守	-12.7671
居仁由義	-12.7671
隍	-12.7672
僦	-12.7672
青天白日	-12.7672
垤	-12.7672
嚬	-12.7672
靴	-12.7672
百世以俟聖人而不惑	-12.7673
天地之帥吾其性	-12.7673
屡	-12.7673
論道經邦	-12.7674
児	-12.7674
我欲仁斯仁至矣	-12.7674
鼈	-12.7674
手舞足蹈	-12.7675
掞	-12.7675
匀	-12.7675
制節謹度	-12.7675
謄	-12.7675
躑	-12.7675
嗔	-12.7676
壠	-12.7676
抒	-12.7676
愨	-12.7676
鷩	-12.7676
磁	-12.7676
咡	-12.7677
溼	-12.7677
俵	-12.7677
艮其止止其所也	-12.7678
繅	-12.7678
榕村語録卷	-12.7678
媛	-12.7679
國語周語	-12.7679
延和殿	-12.7679
都察院	-12.7679
剸	-12.768
農工商賈	-12.768
無入而不自得	-12.768
不知手之舞之足之蹈之	-12.768
李光弼	-12.768
動極而靜	-12.7681
䲭	-12.7681
杜元凱	-12.7682
天地變化草木蕃	-12.7682
癉	-12.7683
磷	-12.7683
玠	-12.7685
茁	-12.7685
淘	-12.7685
凂	-12.7686
比屋可封	-12.7686
公㑹齊侯	-12.7688
萋	-12.7689
檐	-12.7692
稂	-12.7695
崑	-12.7699
麑	-12.7699
繼之者善也成之者性也	-12.7966
炤	-12.7989
浞	-12.7991
斿	-12.7992
拚	-12.7992
覷	-12.7994
趙清獻	-12.7994
黎民於變時雍	-12.7996
升自西階	-12.7996
珦	-12.7997
君臣有義夫婦有别長幼有序朋友有信	-12.7998
义	-12.7998
人受天地之中以生	-12.7999
蕕	-12.8
無一理之不	-12.8
瑤	-12.8
范忠宣	-12.8001
扯	-12.8001
瞰	-12.8001
垂世立教	-12.8001
屐	-12.8001
遊魂為變	-12.8001
肜	-12.8002
論氣不論性	-12.8002
載營魄	-12.8002
烙	-12.8003
妙合而凝	-12.8003
禮者敬而已矣	-12.8003
天地之性人為貴	-12.8004
瑯	-12.8004
剛善剛惡	-12.8004
糅	-12.8004
絆	-12.8004
噪	-12.8004
圮	-12.8005
螢	-12.8005
蜮	-12.8005
不動而敬不言而信	-12.8005
韙	-12.8005
太極生兩儀	-12.8006
膜	-12.8006
遘	-12.8006
習與性成	-12.8006
襌	-12.8006
未之有改	-12.8007
陽變隂合	-12.8007
忠信所以進德	-12.8007
𠖇	-12.8007
鐃	-12.8007
融㑹貫通	-12.8007
劬	-12.8007
倆	-12.8007
忩	-12.8008
可與立未可與權	-12.8008
夐	-12.8008
陿	-12.8009
拜手稽首	-12.8009
婕	-12.8009
愓	-12.8009
瀚	-12.8009
可離非道	-12.801
鄊	-12.8011
水火金木土	-12.8011
各正其性命	-12.8012
先難而後獲	-12.8012
唐莊宗	-12.8012
洟	-12.8012
緇布冠	-12.8012
湯放桀	-12.8013
發憤忘食	-12.8013
約法三章	-12.8013
多學而識之	-12.8013
左右逢其原	-12.8014
埸	-12.8014
凄	-12.8014
過化存神	-12.8015
昞	-12.8016
嚴恭寅畏	-12.8016
簿書期㑹	-12.8016
汐	-12.8017
濠	-12.8018
瓏	-12.8019
欽若昊天	-12.802
酪	-12.8022
逭	-12.8022
伱	-12.8023
雨風露雷	-12.8025
擣	-12.8025
饁	-12.8026
馘	-12.8026
珽	-12.803
蠃	-12.8032
治厯明時	-12.8332
珣	-12.8335
豔	-12.8335
性即氣氣即性	-12.8338
柞	-12.834
霓	-12.8341
霎	-12.8341
獃	-12.8342
唤	-12.8342
清虚一大	-12.8342
姫	-12.8343
閡	-12.8343
幃	-12.8343
臯䕫稷契	-12.8343
銍	-12.8344
類族辨物	-12.8344
貓	-12.8344
曆	-12.8345
踪	-12.8345
偏言則一事專言則包四者	-12.8346
五性感動而善惡分	-12.8346
嘖	-12.8346
梲	-12.8347
視聼言動	-12.8347
宄	-12.8347
畫前之易	-12.8347
艮其背不獲其身行其庭不見其人	-12.8348
真積力久	-12.8348
受爾汝之實	-12.8348
天下無性外之物	-12.8349
撐	-12.8349
文獻通考	-12.835
饎	-12.835
坐如尸立如齊	-12.835
御定内則衍義卷	-12.835
久安長治	-12.835
尾大不掉	-12.8351
厪	-12.8351
襦	-12.8351
肹	-12.8351
溯	-12.8351
闞	-12.8351
撥亂反正	-12.8351
誠之者人之道	-12.8352
五殊二實	-12.8352
隨感而應	-12.8352
易簡而天下之理得	-12.8352
湼	-12.8352
𡨕	-12.8352
酏	-12.8352
餱	-12.8352
學顔子之所學	-12.8353
無餘藴矣	-12.8353
惴	-12.8353
鵒	-12.8353
𨼆	-12.8353
燁	-12.8354
非知道者孰能識之	-12.8354
淋	-12.8354
不識不知順帝之則	-12.8354
匈	-12.8355
氛	-12.8355
亊	-12.8355
洿	-12.8356
有若無實若虚	-12.8356
瀟	-12.8356
峨	-12.8356
明吕柟撰	-12.8356
覓	-12.8356
請事斯語	-12.8357
雖多亦奚以為	-12.8357
拉	-12.8357
鱄	-12.8357
邨	-12.8357
蹂	-12.8358
一奇一偶	-12.8358
榷	-12.8359
舁	-12.8359
瓌	-12.8359
靜而生陰	-12.836
俳	-12.836
榕村語錄卷	-12.836
張子全書卷	-12.8361
三老五更	-12.8365
聖祖仁皇帝	-12.8365
冽	-12.8366
庸言庸行	-12.8366
葅	-12.8366
邴	-12.8372
羯	-12.8373
蘀	-12.8381
廄	-12.84
豉	-12.8671
扃	-12.8672
勛	-12.8678
河間獻王	-12.8687
三百六十五日四分日之一	-12.8688
啐	-12.8691
杠	-12.8694
惟學遜志務時敏	-12.8696
蓰	-12.8697
雖不中不逺矣	-12.8698
曀	-12.8699
忖	-12.8699
先事後得	-12.8699
斉	-12.8699
伊傅周召	-12.8699
秃	-12.87
萬物統體一太極	-12.87
劉氏璋曰	-12.87
三分天下有其二	-12.87
泛應曲當	-12.8701
瀉	-12.8702
葩	-12.8703
為人君止於仁	-12.8704
功不在禹下	-12.8704
尹彦明	-12.8705
禭	-12.8705
日夜之所息	-12.8706
晶	-12.8706
居處恭執事敬	-12.8706
汔	-12.8706
袠	-12.8706
噩	-12.8707
老師宿儒	-12.8707
廣大悉備	-12.8707
協于克一	-12.8708
退藏於密	-12.8708
腋	-12.8709
涘	-12.8709
㨂	-12.8709
私淑艾	-12.8709
慇	-12.8709
嚢	-12.8709
升降飛揚未嘗止息	-12.871
翛	-12.871
齕	-12.871
踧	-12.8711
成性存存道義之門	-12.8711
蜃	-12.8711
世衰道微	-12.8712
蝦	-12.8713
半上落下	-12.8713
怫	-12.8713
牂	-12.8713
枉尺直尋	-12.8713
𣆀	-12.8713
嫓	-12.8714
敬授人時	-12.8714
冤	-12.8714
易有太極是生兩儀兩儀生四象四象生	-12.8714
螺	-12.8714
仰事俯育	-12.8714
巔	-12.8714
溥博淵泉	-12.8714
癃	-12.8715
十目所視十手所指	-12.8715
孝子慈孫	-12.8715
榱	-12.8715
鷦	-12.8715
侁	-12.8716
綻	-12.8716
動極而静	-12.872
蠭	-12.872
黶	-12.872
撅	-12.8721
麯	-12.8721
茇	-12.8721
灸	-12.8722
筞	-12.8722
諼	-12.8722
利牝馬之貞	-12.8722
騃	-12.8723
谷神不死	-12.8723
晡	-12.8724
綖	-12.8725
刓	-12.8725
甒	-12.873
君君臣臣父父子子	-12.9038
浃	-12.9054
佾	-12.9062
儺	-12.9063
畚	-12.9063
琊	-12.9068
醲	-12.9068
堦	-12.9068
綘	-12.907
沖漠無朕	-12.9071
珩	-12.9071
緬	-12.9071
不知命無以為君子	-12.9073
很	-12.9074
天地之常以其心普萬物而無心	-12.9074
三月不知肉味	-12.9074
致中和天地位焉萬物育焉	-12.9075
睪	-12.9075
檮	-12.9075
人心惟危道心惟㣲	-12.9076
親其親長其長	-12.9076
進德修業	-12.9076
鷺	-12.9077
咫	-12.9078
崧	-12.9078
斲	-12.9078
扄	-12.9078
生人物之萬殊	-12.9079
㽞	-12.9079
研諸慮	-12.9079
埃	-12.9079
埒	-12.908
姙	-12.908
窖	-12.908
原始要終	-12.908
河出圖洛出書	-12.908
欲望聖慈	-12.908
聒	-12.9081
螣	-12.9081
[...]
