<unk>	0
<s>	0
</s>	0
/	-3.76166
之	-3.99452
也	-4.03462
而	-4.31793
(	-4.40589
)	-4.45326
以	-4.48502
)(	-4.49889
者	-4.90816
為	-4.94295
其	-5.04408
則	-5.11415
曰	-5.20225
故	-5.23292
不	-5.25363
有	-5.27295
於	-5.38574
于	-5.58175
矣	-5.61952
子	-5.66905
公	-5.69579
與	-5.74061
是	-5.7569
無	-5.76992
人	-5.85878
言	-5.87537
書	-5.87745
晉	-5.8895
使	-5.91393
此	-5.94234
自	-5.94941
非	-5.98252
齊	-5.98935
在	-5.99107
大	-5.99509
皆	-5.99889
楚	-6.00977
乎	-6.01039
諸侯	-6.05079
魯	-6.10692
鄭	-6.11953
君	-6.13406
亦	-6.14234
反	-6.17456
一	-6.17641
及	-6.18134
至	-6.19709
又	-6.21156
國	-6.22679
王	-6.23085
▁	-6.24089
傳	-6.25206
見	-6.26257
謂	-6.2916
,	-6.31701
宋	-6.32764
焉	-6.33694
事	-6.33722
今	-6.35396
注	-6.36761
卒	-6.39806
如	-6.41783
春秋	-6.42565
大夫	-6.43907
乃	-6.45918
三	-6.46033
所	-6.4612
將	-6.46232
已	-6.49707
㑹	-6.49925
同	-6.51632
必	-6.51649
禮	-6.54109
氏	-6.54994
○	-6.55011
然	-6.55032
成	-6.56194
二	-6.56538
師	-6.56856
盟	-6.57135
云	-6.57236
立	-6.57673
得	-6.5798
何	-6.59208
若	-6.62327
經	-6.63878
雖	-6.64013
遂	-6.64282
爲	-6.65145
從	-6.65165
復	-6.65389
欲	-6.65723
名	-6.65859
文	-6.66865
出	-6.67504
正	-6.6807
殺	-6.6809
歸	-6.69237
行	-6.70406
陳	-6.71287
夏	-6.72961
城	-6.73001
時	-6.7323
入	-6.73337
以為	-6.7408
始	-6.75607
上	-6.75677
既	-6.76302
下	-6.7742
。	-6.78647
當	-6.79196
取	-6.79483
衛	-6.79667
伐	-6.8017
後	-6.82419
用	-6.83489
地	-6.85718
作	-6.85744
我	-6.86067
稱	-6.86148
臣	-6.86454
未	-6.87479
命	-6.87503
知	-6.87625
即	-6.88138
義	-6.89194
伯	-6.90826
四	-6.91316
夫	-6.91838
日	-6.92311
猶	-6.9247
相	-6.92569
可	-6.93386
明	-6.94557
小	-6.96134
五	-6.96595
周	-6.96655
不能	-6.96977
先	-6.97912
或	-6.98477
音	-6.99013
年	-6.99065
不書	-7.01622
冬	-7.01624
杜	-7.02269
耳	-7.02433
執	-7.0244
生	-7.02638
能	-7.02915
請	-7.03617
秋	-7.03977
且	-7.04476
所以	-7.04513
諸	-7.04753
亂	-7.0502
實	-7.05831
惡	-7.06025
朝	-7.0744
本	-7.08263
外	-7.08328
葬	-7.0865
哉	-7.08678
而不	-7.08881
秦	-7.09774
來	-7.10103
民	-7.10292
罪	-7.11447
因	-7.116
主	-7.12618
服	-7.13316
死	-7.13502
内	-7.13783
不可	-7.13874
邑	-7.14928
中	-7.15844
世	-7.16121
天	-7.16767
吳	-7.17614
縣	-7.17934
重	-7.18045
平	-7.18689
滅	-7.19305
公子	-7.19662
六	-7.1998
父	-7.20595
凡	-7.21472
謀	-7.2202
蔡	-7.22337
吾	-7.2276
天子	-7.23001
兵	-7.23294
敗	-7.2353
衞	-7.24918
辭	-7.26209
夫人	-7.26533
去	-7.27349
固	-7.28529
定	-7.2891
月	-7.2918
道	-7.307
失	-7.31167
居	-7.31789
多	-7.3204
桓	-7.32331
音義	-7.32579
疏	-7.33585
蓋	-7.33803
齊侯	-7.33971
戰	-7.34086
切	-7.34752
字	-7.35244
告	-7.36202
晉侯	-7.36377
致	-7.3704
曹	-7.37257
會	-7.37345
爾	-7.3746
紀	-7.37615
許	-7.38144
方	-7.38782
桓公	-7.38861
過	-7.3919
親	-7.39685
心	-7.39686
志	-7.40663
左氏	-7.41251
受	-7.41836
左傳	-7.41953
陽	-7.42135
逆	-7.42294
善	-7.42613
合	-7.42644
九	-7.43198
門	-7.45776
終	-7.45852
弑	-7.45988
春	-7.46625
州	-7.46662
而後	-7.47038
十	-7.47387
是也	-7.47492
七	-7.47953
意	-7.48064
奔	-7.4807
難	-7.48072
祭	-7.48394
/)	-7.49038
亡	-7.49536
不得	-7.49575
侯	-7.49965
討	-7.5004
鄭伯	-7.51716
者也	-7.51857
異	-7.52116
初	-7.53111
求	-7.53901
信	-7.54099
水	-7.54392
通	-7.54683
戎	-7.54726
前	-7.55229
易	-7.55533
納	-7.56134
楚子	-7.5622
衆	-7.56648
八	-7.56781
呉	-7.57112
長	-7.57384
東	-7.57577
樂	-7.57629
女	-7.57644
南	-7.57691
例	-7.59076
安	-7.59119
舉	-7.59466
邾	-7.59829
盖	-7.5988
盡	-7.60484
分	-7.60564
士	-7.60637
食	-7.60711
聖人	-7.61053
圍	-7.61606
田	-7.61915
不言	-7.62748
數	-7.62804
屬	-7.63776
)○	-7.638
喪	-7.63827
山	-7.64463
車	-7.64808
獨	-7.65266
力	-7.66397
救	-7.66676
公羊	-7.66694
卿	-7.66703
説	-7.66818
政	-7.66912
官	-7.6705
謂之	-7.67197
制	-7.67247
惟	-7.67267
莒	-7.67428
法	-7.67867
徳	-7.68151
狄	-7.68402
尊	-7.68471
豈	-7.69095
常	-7.69632
昭	-7.69903
次	-7.7022
宜	-7.70465
葢	-7.70675
甚	-7.71064
逺	-7.71622
令	-7.71645
中國	-7.7172
治	-7.7195
止	-7.72127
守	-7.72281
位	-7.72638
據	-7.72745
史	-7.72755
之事	-7.72777
▁(	-7.73231
朔	-7.73289
聘	-7.73847
古	-7.7404
之後	-7.74549
家	-7.74635
所謂	-7.75003
叔	-7.75165
文公	-7.75165
莊公	-7.75525
彼	-7.75778
比	-7.76223
兩	-7.76235
昭公	-7.76801
懼	-7.76974
軍	-7.76981
伐鄭	-7.77294
近	-7.77297
武	-7.77425
三年	-7.77771
夷	-7.77994
問	-7.78402
林	-7.78555
正義曰	-7.78592
說	-7.78782
獲	-7.78961
按	-7.79351
共	-7.7945
叛	-7.79736
封	-7.7974
疑	-7.79916
直	-7.80213
越	-7.80549
聞	-7.8073
齊人	-7.8096
是以	-7.82097
加	-7.82211
遷	-7.82263
起	-7.82934
處	-7.83196
而已	-7.8338
專	-7.83875
元	-7.84265
但	-7.85959
郊	-7.86384
西	-7.86499
物	-7.86726
譏	-7.86879
責	-7.869
即位	-7.86969
德	-7.86992
嘗	-7.86992
将	-7.87195
廢	-7.8769
天下	-7.87716
適	-7.87996
備	-7.88024
不敢	-7.88044
貶	-7.88365
再	-7.88746
著	-7.89141
存	-7.89324
僖公	-7.89448
由	-7.89756
何也	-7.89801
還	-7.8988
克	-7.90024
觀	-7.90052
誅	-7.90157
好	-7.90372
楚人	-7.90378
之罪	-7.90572
侵	-7.90694
孫	-7.90761
少	-7.91259
衛侯	-7.91668
身	-7.91982
不知	-7.92313
季	-7.92318
利	-7.92536
諱	-7.92957
案	-7.93033
召	-7.93541
三月	-7.93777
强	-7.9392
北	-7.94009
唯	-7.94028
興	-7.94356
弟	-7.94369
左	-7.94773
别	-7.94783
序	-7.95195
變	-7.95278
元年	-7.95295
怨	-7.95357
疾	-7.97003
災	-7.97434
不以	-7.98043
於是	-7.98221
改	-7.98494
可以	-7.98755
、	-7.99232
莊	-7.99522
晉人	-7.99717
之禮	-7.99832
世子	-8.00095
襄公	-8.00248
功	-8.00773
解	-8.00859
敵	-8.01019
五年	-8.01109
帥師	-8.01181
襄	-8.01231
弱	-8.01336
爵	-8.02035
弗	-8.02081
母	-8.02223
祀	-8.02481
申	-8.027
絶	-8.02747
馬	-8.02878
詩	-8.02921
往	-8.03074
扵	-8.03362
僖	-8.03596
己	-8.03618
間	-8.03705
出奔	-8.03757
益	-8.03775
首	-8.0379
正月	-8.04039
宗	-8.04115
齊桓	-8.04117
論	-8.04236
何以	-8.04367
虞	-8.04405
其君	-8.04977
遇	-8.05253
奉	-8.05273
漢	-8.05351
之義	-8.05628
勝	-8.05648
理	-8.05713
諸侯之	-8.05731
廟	-8.06142
盟于	-8.06194
十年	-8.06291
更	-8.06668
宫	-8.06824
棄	-8.07159
報	-8.0805
舍	-8.08683
交	-8.09028
孔子	-8.09403
宣	-8.09448
宣公	-8.09494
聲	-8.09494
火	-8.0975
季氏	-8.10019
𫝊	-8.10167
獻	-8.10324
之意	-8.10458
賢	-8.10485
降	-8.10814
深	-8.10977
哀	-8.11071
貴	-8.11178
仲	-8.11275
者何	-8.11885
舊	-8.11938
甲	-8.12014
𦵏	-8.12087
新	-8.12575
也故	-8.12803
故曰	-8.1322
公孫	-8.13596
釋	-8.13963
闕	-8.14047
二年	-8.14212
害	-8.14633
如此	-8.1474
餘	-8.14761
晋	-8.14923
殺之	-8.15029
怒	-8.15251
然則	-8.15684
進	-8.15737
特	-8.16428
列	-8.16464
語	-8.16736
之子	-8.16811
發	-8.16837
不與	-8.16878
四年	-8.16914
故也	-8.16997
八年	-8.17211
賦	-8.17439
杞	-8.17465
隠	-8.17952
私	-8.18155
然後	-8.18159
原	-8.19107
都	-8.19239
繼	-8.19639
刑	-8.1964
應	-8.19707
其事	-8.19738
姓	-8.20017
假	-8.20026
至於	-8.20037
之盟	-8.20155
之所	-8.20167
小國	-8.2027
君子	-8.2039
尚	-8.20662
人之	-8.20937
丘	-8.21517
賜	-8.21601
十二	-8.21601
輕	-8.21636
禍	-8.22011
九月	-8.22098
書曰	-8.22319
俱	-8.22398
爭	-8.22691
杜注	-8.22692
宋公	-8.22723
七年	-8.2282
稱人	-8.22927
乗	-8.22947
賊	-8.2299
畏	-8.23349
为	-8.23463
成公	-8.23774
䘮	-8.23873
周公	-8.23921
望	-8.24339
考	-8.24362
禮也	-8.24654
陵	-8.24672
土	-8.24799
向	-8.24804
隱	-8.24896
並	-8.24933
敢	-8.24953
他	-8.25041
各	-8.25048
卜	-8.25132
徒	-8.25658
視	-8.25901
卑	-8.26014
修	-8.26168
權	-8.26456
盛	-8.27396
故書	-8.27645
来	-8.27857
乘	-8.27893
詳	-8.28325
也注	-8.28408
帥	-8.28446
代	-8.28464
司馬	-8.28539
以其	-8.28706
〇	-8.28825
記	-8.28996
髙	-8.29197
逐	-8.29631
誤	-8.29892
弑君	-8.30005
彊	-8.30024
霸	-8.30131
族	-8.30273
度	-8.30326
梁	-8.30372
御	-8.30615
六年	-8.3062
危	-8.30793
要	-8.30843
和	-8.31245
之言	-8.3158
旣	-8.31767
未有	-8.31913
莫	-8.31958
惠	-8.32143
患	-8.3255
章	-8.32643
享	-8.32701
敬	-8.33065
結	-8.33129
河	-8.33253
威	-8.33404
免	-8.33435
黨	-8.3345
而書	-8.3386
徐	-8.33877
國人	-8.33915
微	-8.34078
臨	-8.3429
姑	-8.34393
承	-8.34628
祖	-8.34674
示	-8.34783
隨	-8.34784
五月	-8.34807
對曰	-8.34895
榖梁	-8.34938
傷	-8.35252
神	-8.35418
衰	-8.35836
卷	-8.35888
待	-8.35968
順	-8.36027
傳曰	-8.36243
計	-8.36288
風	-8.36352
氣	-8.36368
辟	-8.36517
石	-8.36621
隂	-8.36893
太子	-8.37418
任	-8.37581
禘	-8.37657
老	-8.37693
不足	-8.37753
濟	-8.37854
憂	-8.37924
張	-8.37988
同盟	-8.38424
吴	-8.38461
也今	-8.38825
榖	-8.39266
喜	-8.39268
:「	-8.3934
秋七月	-8.39435
期	-8.39578
忽	-8.39626
冬十月	-8.39819
節	-8.39833
略	-8.40009
鄭人	-8.40012
等	-8.40062
來聘	-8.40206
病	-8.40268
華	-8.4047
辱	-8.40481
恐	-8.40509
九年	-8.40534
胡氏	-8.40646
息	-8.40838
帝	-8.40953
非禮也	-8.40995
十一	-8.41321
役	-8.41627
君之	-8.4169
置	-8.41726
如晉	-8.41947
器	-8.42096
從之	-8.42188
其罪	-8.4236
雨	-8.42477
衞侯	-8.42604
不復	-8.42738
甚矣	-8.42811
夫子	-8.42948
星	-8.43147
天王	-8.43193
魯之	-8.43223
苟	-8.4324
大國	-8.43377
六月	-8.43453
之間	-8.4355
右	-8.43822
非也	-8.44176
戒	-8.44236
萬	-8.44348
商	-8.44678
室	-8.4498
退	-8.45075
無所	-8.4517
之役	-8.45296
足	-8.45376
之㑹	-8.45627
未嘗	-8.45951
鄫	-8.46066
引	-8.46135
穀	-8.46537
攻	-8.46556
推	-8.46601
助	-8.4669
之道	-8.46891
謹	-8.47156
不同	-8.47482
薨	-8.47531
唐	-8.47563
思	-8.47589
其國	-8.47629
似	-8.47693
美	-8.4772
施	-8.47894
季孫	-8.48047
載	-8.48096
嵗	-8.48342
至于	-8.48531
二月	-8.48557
之心	-8.4864
辨	-8.48716
屈	-8.49059
光	-8.49123
之辭	-8.49623
左氏曰	-8.49845
背	-8.50286
之説	-8.50328
黄	-8.50568
言之	-8.50673
伐之	-8.50828
十二月	-8.50849
防	-8.51364
愛	-8.5177
勞	-8.51905
杜氏曰	-8.52141
十一年	-8.5233
之時	-8.52375
附	-8.52467
厚	-8.52591
以見	-8.53184
違	-8.53224
府	-8.53228
教	-8.53301
介	-8.53381
類	-8.53534
江	-8.53739
孟	-8.53838
經書	-8.53998
牛	-8.54109
况	-8.54135
不當	-8.54391
動	-8.54509
號	-8.54867
路	-8.55001
耶	-8.55137
射	-8.55286
宋人	-8.55623
王命	-8.5596
魚	-8.55988
左氏傳	-8.56014
強	-8.5612
於此	-8.56123
寵	-8.56259
仁	-8.56307
具	-8.56354
於齊	-8.56405
穀梁	-8.56473
兄	-8.5714
里	-8.57153
皇	-8.57175
與之	-8.57275
簡	-8.57403
暴	-8.57575
久	-8.57617
當時	-8.57687
百	-8.57709
十二年	-8.5777
寧	-8.57843
尤	-8.57879
就	-8.58038
八月	-8.58086
斯	-8.58143
建	-8.58148
之師	-8.58181
先君	-8.58189
嘉	-8.58202
燕	-8.58205
太	-8.58572
來朝	-8.58653
速	-8.58691
徃	-8.58896
離	-8.5899
象	-8.59105
嗣	-8.59121
吉	-8.59153
設	-8.59457
必有	-8.59567
木	-8.59659
之故	-8.60046
趙	-8.6027
伐宋	-8.60517
後世	-8.60528
伐齊	-8.60538
氏曰	-8.60727
如齊	-8.60785
貳	-8.60789
忠	-8.60813
二十	-8.60939
専	-8.60956
仲尼	-8.6111
不然	-8.61171
流	-8.61364
賂	-8.61461
目	-8.61466
王室	-8.61506
宰	-8.61714
淫	-8.618
把	-8.62049
定公	-8.621
指	-8.62206
辰	-8.62436
至是	-8.62536
其後	-8.62625
閏	-8.62687
季子	-8.62774
澤	-8.62827
職	-8.62998
其所	-8.6301
二子	-8.63069
圖	-8.63166
者皆	-8.63391
勢	-8.63536
野	-8.63565
玉	-8.63646
赴	-8.63835
保	-8.63981
蔡侯	-8.64065
之名	-8.64335
厯	-8.64347
邪	-8.64594
巳	-8.65082
慶父	-8.65114
不可以	-8.65259
竟	-8.65476
諡	-8.65598
兼	-8.65662
遺	-8.65762
劉	-8.65803
宿	-8.6582
十六年	-8.66217
司	-8.66232
全	-8.66283
大子	-8.6656
邢	-8.66587
戍	-8.66742
除	-8.66772
以爲	-8.668
臣子	-8.67006
也夫	-8.67018
可也	-8.67186
國之	-8.67276
僭	-8.67307
率	-8.67363
十三年	-8.67396
娶	-8.67425
緩	-8.67468
靈公	-8.67501
取之	-8.67585
也其	-8.67826
也然	-8.68086
為之	-8.68088
其言	-8.68456
弑其君	-8.68713
廣	-8.68841
果	-8.68905
犯	-8.69118
須	-8.6915
竊	-8.69206
十四年	-8.69235
奪	-8.69352
庸	-8.69377
楚師	-8.69421
容	-8.69482
嫌	-8.69515
費	-8.69527
曹伯	-8.69561
典	-8.69645
天子之	-8.69781
明年	-8.69834
某	-8.6992
逃	-8.69952
春秋書	-8.70066
雩	-8.70152
歟	-8.70185
夏四月	-8.70199
也若	-8.70233
者以	-8.70334
鄉	-8.70367
魏	-8.70425
曲	-8.70554
惠公	-8.70592
抑	-8.70776
悼公	-8.70818
體	-8.70823
弔	-8.70889
薄	-8.71264
周禮	-8.71377
高	-8.71591
則是	-8.71669
伐楚	-8.71725
叔孫	-8.71776
君臣	-8.71807
賤	-8.71966
争	-8.71986
極	-8.72082
魯人	-8.72131
追	-8.72572
孔	-8.7259
趙盾	-8.72754
虢	-8.72776
十一月	-8.73209
姬	-8.73258
滕	-8.73346
良	-8.73367
余	-8.73461
十八年	-8.73482
后	-8.73693
胡	-8.73827
而立	-8.73893
繫	-8.73912
上下	-8.73929
鼓	-8.74071
晉之	-8.74097
書之	-8.74205
不及	-8.7426
於晉	-8.74428
自是	-8.74481
學	-8.74663
貪	-8.74922
崩	-8.75033
鄆	-8.75045
于齊	-8.75151
知其	-8.75221
兄弟	-8.75247
十五年	-8.7531
歴	-8.75322
境	-8.75362
尸	-8.75428
穆	-8.75672
有罪	-8.75907
郡	-8.76135
訓	-8.76309
靈	-8.7662
妄	-8.76685
齊師	-8.77167
恥	-8.77477
之類	-8.77491
急	-8.77615
連	-8.77748
脩	-8.78112
国	-8.78239
又曰	-8.78239
此年	-8.78256
恃	-8.7836
攝	-8.78839
於魯	-8.78847
其子	-8.7914
文王	-8.79192
楚之	-8.79376
并	-8.79498
許之	-8.79946
之文	-8.79957
授	-8.79962
天下之	-8.80025
公羊傳	-8.80348
誰	-8.80577
殷	-8.80685
春王正月	-8.80776
㑹于	-8.81118
孰	-8.81227
A	-8.8138
王者	-8.81436
築	-8.8159
故以	-8.81676
昏	-8.81898
不見	-8.81941
晉師	-8.82051
陳侯	-8.82315
誠	-8.82326
讓	-8.82327
列國	-8.82359
七月	-8.82581
子産	-8.82796
或曰	-8.83076
夷狄	-8.83086
接	-8.83296
尹	-8.83299
讎	-8.83402
掌	-8.83709
金	-8.84015
忘	-8.84029
不在	-8.84056
公㑹	-8.84135
盾	-8.84142
刺	-8.84188
佐	-8.84268
亭	-8.84446
荘	-8.84667
對	-8.84699
班	-8.85077
宗廟	-8.85107
韓	-8.85176
書名	-8.85253
姜	-8.85268
突	-8.85327
十七年	-8.85627
依	-8.85674
妾	-8.85686
斷	-8.85693
。」	-8.85898
婦	-8.85902
戚	-8.85928
恤	-8.85928
之說	-8.85956
十月	-8.86148
足以	-8.86326
則書	-8.86459
賈	-8.86552
舎	-8.86706
簒	-8.8694
冠	-8.86955
聚	-8.87014
无	-8.87039
狩	-8.87105
衣	-8.87176
曰吾	-8.87213
哀公	-8.87227
牲	-8.87354
婦人	-8.8755
衛人	-8.87562
其地	-8.87581
不至	-8.87595
其義	-8.877
寡君	-8.87878
崇	-8.87955
社	-8.88043
蒲	-8.88074
不如	-8.881
而無	-8.88154
務	-8.88212
養	-8.88479
三國	-8.88573
放	-8.88584
聽	-8.88943
情	-8.89013
礼	-8.89108
拜	-8.89407
畧	-8.89511
㣲	-8.8963
末	-8.89853
征	-8.90074
妻	-8.9013
之法	-8.90296
塟	-8.90365
孟子	-8.90403
B	-8.9043
龍	-8.90539
也春秋	-8.90597
疆	-8.90619
為君	-8.90625
矣故	-8.90669
顧	-8.90702
被	-8.90812
其實	-8.90957
口	-8.9122
虎	-8.91238
孝	-8.91327
也此	-8.91386
嫡	-8.91584
雍	-8.917
避	-8.91843
非禮	-8.91887
伯姬	-8.91988
録	-8.92148
也然則	-8.92164
荆	-8.92305
以來	-8.9234
約	-8.92362
傳云	-8.92418
周之	-8.92712
曷為	-8.92821
夜	-8.92857
媵	-8.93019
是時	-8.93058
与	-8.93281
不名	-8.93448
救鄭	-8.93476
杜氏	-8.93707
援	-8.93726
之功	-8.93735
可謂	-8.93775
之辭也	-8.93859
合諸侯	-8.93882
送	-8.9432
仇	-8.94321
仍	-8.94403
而還	-8.94466
丁	-8.94651
恩	-8.94678
儀	-8.94851
同姓	-8.94947
盈	-8.95039
傳言	-8.95123
公羊曰	-8.95399
注云	-8.95563
一人	-8.95625
公之	-8.95651
朱	-8.95752
賔	-8.95871
諫	-8.95876
讀	-8.95992
邦	-8.96194
虚	-8.96308
幸	-8.96479
舞	-8.96482
辛	-8.96497
有所	-8.96516
公曰	-8.96521
積	-8.96742
子曰	-8.96813
閔	-8.96858
尋	-8.96867
四月	-8.96991
幾	-8.97099
而言	-8.971
禦	-8.97136
而不能	-8.97369
以歸	-8.97398
十五	-8.97568
不正	-8.97844
古者	-8.97995
邾人	-8.98107
獻公	-8.98145
習	-8.98263
㑹盟	-8.98409
以示	-8.98416
稱子	-8.98422
嫁	-8.98425
議	-8.98461
偃	-8.98552
于晉	-8.98771
登	-8.99047
縱	-8.99277
厲	-8.99573
討賊	-8.99631
肆	-8.99648
厲公	-8.99696
句	-8.99802
於楚	-8.99805
張氏曰	-8.99859
不從	-8.99989
蒐	-9.00283
亦不	-9.00289
予	-9.00328
來奔	-9.00359
温	-9.00428
勤	-9.00451
不稱	-9.00519
正也	-9.00527
盜	-9.00541
烝	-9.00748
入于	-9.00889
懐	-9.009
明矣	-9.00934
宮	-9.00977
庶	-9.01022
畢	-9.01094
客	-9.01199
史記	-9.01441
穆公	-9.015
干	-9.01612
襲	-9.01703
赤	-9.01721
端	-9.01883
陳蔡	-9.01971
瑕	-9.01989
社稷	-9.02002
侵伐	-9.0211
見其	-9.02364
于楚	-9.02457
革	-9.02538
省	-9.02566
賞	-9.03024
巢	-9.03042
之地	-9.03221
皆以	-9.03258
京師	-9.03422
君命	-9.03506
咎	-9.03608
叔姬	-9.03791
詞	-9.03807
質	-9.0383
二國	-9.04057
辭也	-9.04066
亦有	-9.04143
髙氏曰	-9.04262
白	-9.04276
戮	-9.04326
隠公	-9.04432
歲	-9.04615
不為	-9.04707
遣	-9.04712
旱	-9.04816
景	-9.04836
文姜	-9.04878
四國	-9.04921
胡傳	-9.0495
千	-9.05332
詐	-9.05391
戰于	-9.05401
震	-9.05435
凶	-9.05585
秦伯	-9.05664
昔	-9.05688
羊	-9.05725
管仲	-9.05884
不忍	-9.05905
范	-9.05921
手	-9.05947
輒	-9.06017
日食	-9.06192
無道	-9.06318
可知	-9.06488
移	-9.06545
顯	-9.06569
誘	-9.06575
毁	-9.06623
鄧	-9.06708
為主	-9.0689
之惡	-9.06959
不過	-9.0703
公室	-9.07117
每	-9.07369
称	-9.07495
啓	-9.075
羣	-9.07676
何為	-9.07682
而歸	-9.07753
勿	-9.0783
胡氏曰	-9.07932
三家	-9.08134
公作	-9.08196
猶有	-9.08366
意如	-9.08479
慮	-9.08503
開	-9.08504
清	-9.08536
其意	-9.08698
而又	-9.08788
舒	-9.08879
證	-9.09005
最	-9.09024
姦	-9.09281
榖梁曰	-9.09298
便	-9.09414
閔公	-9.09466
垂	-9.09525
坐	-9.09628
從楚	-9.09839
十三	-9.09848
故云	-9.09976
脅	-9.09986
郭	-9.10017
負	-9.10034
忌	-9.10132
先王	-9.10403
輔	-9.10414
窮	-9.10447
安得	-9.10551
招	-9.11063
無罪	-9.1117
糾	-9.11256
界	-9.11256
而不書	-9.1126
之世	-9.11388
他國	-9.11389
伐衛	-9.11476
之禍	-9.11609
覆	-9.1171
隱公	-9.1179
角	-9.11853
禄	-9.11867
散	-9.12076
篇	-9.1208
形	-9.12305
遽	-9.12317
景公	-9.12351
差	-9.12374
禁	-9.12648
三十	-9.127
㑹諸侯	-9.12823
襄王	-9.12848
為政	-9.12868
可知矣	-9.12914
魯地	-9.13184
之亂	-9.1332
故不書	-9.1341
勇	-9.13432
滅之	-9.13469
昌	-9.13511
徴	-9.13623
成王	-9.13631
下同	-9.13636
嬖	-9.13672
傅	-9.1394
囚	-9.13966
僣	-9.13986
之中	-9.13987
悉	-9.14254
蕭	-9.14461
執之	-9.14596
國君	-9.14704
色	-9.14771
不義	-9.14975
仲子	-9.15062
留	-9.1508
此言	-9.15094
毛	-9.15108
則知	-9.15246
孤	-9.15281
而復	-9.15368
配	-9.15418
于是	-9.15528
委	-9.15581
子朝	-9.15643
而出	-9.15651
精	-9.15839
姜氏	-9.15861
邾子	-9.15866
晉文	-9.15968
於諸侯	-9.15974
而殺之	-9.1612
累	-9.16286
拒	-9.1647
達	-9.16482
之始	-9.16551
之君	-9.16553
才	-9.16582
以明	-9.16617
臺	-9.16727
至此	-9.16894
託	-9.16995
歌	-9.17046
沈	-9.17098
母弟	-9.17125
擇	-9.17171
誣	-9.17305
用之	-9.17495
則有	-9.17876
郕	-9.18012
以後	-9.18142
王子	-9.18175
陳氏	-9.18344
特書	-9.18667
戴	-9.18915
成風	-9.18949
小白	-9.18966
矣然	-9.19159
削	-9.19318
蔑	-9.19618
召陵	-9.19809
業	-9.19915
尹氏	-9.19961
滑	-9.19962
不日	-9.20029
僕	-9.2005
其身	-9.20094
京	-9.20105
十四	-9.20118
采	-9.2012
其名	-9.20406
單伯	-9.20417
晦	-9.20459
愚謂	-9.2049
郎	-9.20569
不足以	-9.2058
之例	-9.20646
次于	-9.20749
武子	-9.20767
之下	-9.20986
也言	-9.21042
造	-9.21112
慶	-9.21152
者非	-9.21165
愈	-9.21365
大義	-9.21444
令尹	-9.21491
聖	-9.21594
亦曰	-9.21712
困	-9.21776
豐	-9.2181
幣	-9.21834
虐	-9.2184
十九年	-9.21871
奈何	-9.21902
素	-9.21958
歳	-9.21987
平公	-9.22096
勸	-9.22189
擅	-9.22196
遠	-9.22209
潰	-9.2224
言其	-9.2228
萊	-9.22307
哀姜	-9.22421
亟	-9.22435
不成	-9.22442
春秋之	-9.22458
吕	-9.22477
也音義	-9.22501
藏	-9.22555
乞	-9.2264
受之	-9.22672
者謂	-9.22917
豹	-9.22934
懷	-9.23395
中國之	-9.23443
伐晉	-9.23448
不克	-9.23532
行人	-9.23692
行父	-9.23815
寢	-9.23825
夏五月	-9.23971
故言	-9.24002
淮	-9.24131
陽虎	-9.24151
將以	-9.24208
迎	-9.24261
以上	-9.24284
揚	-9.24341
庭	-9.24421
表	-9.24512
吳子	-9.24573
季友	-9.24616
愚按	-9.24718
以下	-9.2485
禹	-9.24911
不應	-9.25037
慎	-9.25108
稷	-9.25203
先儒	-9.25349
叔向	-9.25389
王之	-9.25427
莒人	-9.25469
險	-9.25469
偏	-9.25476
大事	-9.25524
俘	-9.25535
詩曰	-9.25541
故不	-9.2557
伐陳	-9.2564
鄙	-9.25694
飲	-9.25733
救之	-9.2577
皆有	-9.26072
十六	-9.26461
歸之	-9.26479
單	-9.2659
公如晉	-9.26651
左右	-9.26658
文子	-9.26658
日月	-9.26821
輿	-9.26989
貢	-9.27056
福	-9.27081
友	-9.27173
諸國	-9.27189
悼	-9.27208
欲以	-9.27275
誓	-9.27284
微者	-9.27287
螽	-9.27289
前年	-9.27308
預	-9.27356
冝	-9.27499
殊	-9.2759
伏	-9.27695
大臣	-9.27775
著其	-9.2786
紀侯	-9.27939
惡之	-9.27942
劉氏曰	-9.2801
在今	-9.28049
愚	-9.28059
之命	-9.28255
盟主	-9.28262
況	-9.28289
第	-9.2848
出於	-9.28501
之不	-9.28632
取其	-9.28888
之臣	-9.28904
未必	-9.28973
没	-9.29008
則其	-9.29106
升	-9.29151
榖梁傳	-9.29184
黜	-9.29264
武王	-9.29277
敖	-9.29299
音註	-9.29353
受命	-9.29492
伐秦	-9.29508
公榖	-9.29552
之喪	-9.29646
不告	-9.29825
兆	-9.2997
薛	-9.30045
否	-9.30084
挾	-9.30108
不行	-9.30112
夢	-9.30159
横	-9.30161
事也	-9.3025
集	-9.30304
折	-9.30313
註	-9.30515
伐我	-9.30555
羽	-9.30573
武公	-9.30713
程子曰	-9.30772
布	-9.30802
祭仲	-9.30903
林父	-9.31022
乆	-9.3105
饑	-9.31094
忿	-9.3142
齊之	-9.31444
復歸	-9.31613
感	-9.31668
侵鄭	-9.31759
華元	-9.31858
寡	-9.31873
總	-9.32024
解云	-9.32181
聞之	-9.3219
掩	-9.32225
啟	-9.32291
諸大夫	-9.32316
不必	-9.32328
而行	-9.32372
而不知	-9.32491
平王	-9.32601
久矣	-9.32793
慢	-9.3282
鳥	-9.32846
於是乎	-9.32886
參	-9.33218
編	-9.33272
持	-9.33377
之國	-9.33448
驕	-9.33466
舜	-9.33511
哭	-9.33517
徵	-9.3353
半	-9.33531
歸父	-9.33546
汪氏曰	-9.3359
如是	-9.3359
焚	-9.33592
忍	-9.33636
榮	-9.33754
堅	-9.33793
魯史	-9.33869
及其	-9.34007
是年	-9.34054
之志	-9.34161
十八	-9.34228
殯	-9.34235
飾	-9.34301
扶	-9.34332
國也	-9.34363
市	-9.34394
鼎	-9.34433
盗	-9.34671
邱	-9.34701
統	-9.34749
呼	-9.34798
釁	-9.34839
酒	-9.35047
王臣	-9.35106
商人	-9.35137
祝	-9.35176
廬	-9.35184
成周	-9.35279
敝邑	-9.35318
奚	-9.35324
其民	-9.35345
之謀	-9.35349
公子遂	-9.35391
不服	-9.35487
不待	-9.35582
與齊	-9.3561
注正義曰	-9.3561
偽	-9.35789
使人	-9.35905
之難	-9.35957
其惡	-9.35981
者有	-9.35989
里克	-9.35995
曲沃	-9.36042
漸	-9.36062
知之	-9.3607
均	-9.3608
以此	-9.36109
小人	-9.36366
謝	-9.36523
寡人	-9.36534
謝湜曰	-9.36548
》	-9.36566
伐邾	-9.36631
徙	-9.36638
讐	-9.36694
化	-9.36708
莒子	-9.37088
衞人	-9.37138
工	-9.37148
旅	-9.37192
不雨	-9.3726
据	-9.3729
悔	-9.3732
其位	-9.37367
王人	-9.37425
在位	-9.37438
君也	-9.37525
抗	-9.37725
曰君	-9.37729
亦無	-9.37858
甸	-9.37915
欒	-9.37923
䇿	-9.37937
直書	-9.37954
俗	-9.37992
以自	-9.38001
于此	-9.38024
午	-9.38095
如楚	-9.38098
納幣	-9.38176
故知	-9.38235
寒	-9.38386
收	-9.3839
又云	-9.38404
魯國	-9.38441
與楚	-9.38468
偪	-9.38482
王使	-9.38526
龜	-9.38527
其人	-9.38552
矢	-9.38782
謬	-9.38816
傳稱	-9.38968
宣子	-9.38989
夏六月	-9.3913
杜註	-9.39284
以告	-9.39297
何以書	-9.39299
?	-9.39323
户	-9.39335
殆	-9.39865
屢	-9.39951
也曷為	-9.39961
之會	-9.39969
者亦	-9.39972
踰	-9.39997
兹	-9.40123
雖有	-9.40274
之罪也	-9.40294
以正	-9.40294
蒯聵	-9.40336
三十年	-9.4035
而死	-9.40367
十七	-9.40436
却	-9.40525
苦	-9.40562
豈有	-9.40736
趙氏	-9.40847
有事	-9.40918
蔡人	-9.40929
曰子	-9.41061
鄰	-9.41077
經文	-9.41097
附庸	-9.41108
佗	-9.41157
曽	-9.41241
翬	-9.41451
齊魯	-9.41474
學者	-9.41485
因其	-9.41654
頓	-9.41681
之道也	-9.41877
璧	-9.41884
無君	-9.41985
尺	-9.42053
惑	-9.42174
側	-9.42241
師敗績	-9.42252
皮	-9.42352
鞅	-9.42405
幽	-9.42472
侵宋	-9.42535
走	-9.42696
何故	-9.42727
于魯	-9.4274
農	-9.4283
其曰	-9.43109
擊	-9.43146
僅	-9.43149
般	-9.43166
鄭之	-9.43247
乾	-9.43354
洛	-9.43472
子孫	-9.43509
皆書	-9.43577
海	-9.43657
失國	-9.43677
不出	-9.43746
陽生	-9.43774
其説	-9.43871
睦	-9.43898
二十年	-9.43903
元咺	-9.43906
罷	-9.43953
之所以	-9.44223
是故	-9.44238
圉	-9.4432
也凡	-9.44479
乎曰	-9.44582
如字	-9.44613
嚴	-9.44709
辠	-9.44722
沒	-9.44734
之上	-9.44925
魯君	-9.44935
敬王	-9.44977
事之	-9.45111
不相	-9.45121
侈	-9.45193
荀	-9.45203
晉楚	-9.45333
藉	-9.45352
猛	-9.45452
闗	-9.45459
集說	-9.45537
恵	-9.45659
吏	-9.45842
嬰齊	-9.45875
關	-9.45903
效	-9.45944
怠	-9.46163
逼	-9.46215
而使	-9.46232
不書葬	-9.4624
其父	-9.4627
人君	-9.46457
失禮	-9.46496
以求	-9.46593
堯	-9.46665
盟㑹	-9.46722
州吁	-9.46756
之人	-9.46803
范氏	-9.4681
在外	-9.46855
而卒	-9.46898
荒	-9.46919
願	-9.4694
塞	-9.4709
棄疾	-9.47177
其為	-9.47252
逆女	-9.47255
麟	-9.4727
延	-9.47347
桓子	-9.4743
欽定四庫全書	-9.47433
不免	-9.4744
財	-9.47477
公至自㑹	-9.47497
補	-9.47507
茍	-9.47587
有疾	-9.47612
諸侯之師	-9.47641
不受	-9.47685
討之	-9.47721
錫	-9.47723
來歸	-9.47886
諸侯之大夫	-9.47932
損	-9.48267
識	-9.48283
二君	-9.4832
撫	-9.48368
早	-9.48473
司徒	-9.48501
游	-9.4855
其母	-9.48577
草	-9.48635
奔齊	-9.48664
人心	-9.48683
寳	-9.48736
中軍	-9.48789
二十八年	-9.48869
國而	-9.48952
井	-9.48999
齊地	-9.49091
縁	-9.491
之日	-9.49438
征伐	-9.49507
郢	-9.49644
父母	-9.49674
也且	-9.49695
康	-9.49697
葉	-9.49727
為國	-9.49754
性	-9.49855
孝公	-9.49913
椘	-9.5
十有二月	-9.50059
荘公	-9.50109
王城	-9.50248
棘	-9.50296
三軍	-9.50334
主兵	-9.50335
大惡	-9.5052
僚	-9.50529
而反	-9.50595
秋八月	-9.50681
可乎	-9.50714
今按	-9.50818
叔孫豹	-9.50828
陳氏曰	-9.50845
舟	-9.50936
者三	-9.50936
借	-9.51011
赦	-9.5103
洩	-9.51115
展	-9.51116
命之	-9.5114
衡	-9.51187
撰	-9.51229
智	-9.51322
二人	-9.51418
興師	-9.51447
父子	-9.51484
十九	-9.51508
幼	-9.51513
靈王	-9.51513
晉侯使	-9.51644
川	-9.51686
其餘	-9.51767
鍾	-9.51817
薦	-9.5185
二十四年	-9.51909
正傳曰書	-9.51931
非正也	-9.52059
柔	-9.52062
之弟	-9.5218
作亂	-9.52193
扈	-9.52237
亥	-9.52246
皆不	-9.52297
祥	-9.52299
鉏	-9.52376
則非	-9.52459
恒	-9.52555
矣而	-9.52703
貫	-9.52754
戌	-9.52758
諸夏	-9.52776
富	-9.52799
不信	-9.52859
狐	-9.52921
陳人	-9.52926
來盟	-9.53081
故春秋	-9.53226
蒙	-9.53285
書人	-9.5334
公會	-9.53348
以待	-9.53378
之變	-9.53395
真	-9.53454
禽	-9.53476
牧	-9.53515
卿大夫	-9.53621
斥	-9.53662
嬴	-9.53665
驅	-9.53729
審	-9.53808
二十七年	-9.53946
絳	-9.53955
一年	-9.54018
仲孫	-9.5404
王法	-9.5406
剽	-9.54064
考之	-9.54098
書法	-9.54158
孔父	-9.54224
李	-9.54244
納之	-9.54283
隕	-9.54283
《	-9.54293
道也	-9.54306
墮	-9.54309
熊	-9.54344
未可	-9.54407
方伯	-9.54419
蔽	-9.54422
不勝	-9.54484
従	-9.54671
荀息	-9.54796
者則	-9.54807
公穀	-9.54855
周室	-9.54905
館	-9.54992
四時	-9.55186
己丑	-9.55195
公與	-9.55248
繁	-9.55282
之大	-9.5535
歸于	-9.55351
寅	-9.55417
馮	-9.55492
係	-9.55688
甘	-9.55735
賴	-9.55751
臯	-9.55905
弓	-9.56003
泉	-9.56025
憾	-9.56027
杜氏注	-9.56123
得之	-9.56138
悖	-9.56151
札	-9.56164
於鄭	-9.56211
察	-9.56234
臧	-9.56235
于宋	-9.56254
郈	-9.56327
駕	-9.56335
椒	-9.56355
猶未	-9.56402
振	-9.56423
觀之	-9.56503
鄭地	-9.56567
祫	-9.56606
之戰	-9.56629
則以	-9.56633
卦	-9.56639
輕重	-9.56654
見矣	-9.56693
俟	-9.56794
景王	-9.57094
宋襄	-9.57162
鄰國	-9.57163
曰我	-9.57202
析	-9.57227
不朝	-9.57244
二十五年	-9.57253
仕	-9.57291
此時	-9.57307
巫	-9.57329
大夫之	-9.57371
有功	-9.5749
罕	-9.57569
戊辰	-9.57643
孟氏	-9.57707
逸	-9.57789
講	-9.57804
逐之	-9.57805
貨	-9.57813
出入	-9.57886
旦	-9.57923
陸	-9.5806
壬申	-9.58072
不合	-9.58073
多矣	-9.58105
賄	-9.58246
而有	-9.5834
一日	-9.58369
而魯	-9.58603
見殺	-9.58607
親迎	-9.58649
眀	-9.58652
褒貶	-9.58692
之徒	-9.58728
祁	-9.58754
縣南	-9.58769
為文	-9.58806
繹	-9.5883
人臣	-9.58973
無知	-9.59039
其不	-9.59056
盧	-9.59064
主之	-9.59108
之際	-9.5915
譏其	-9.59153
此其	-9.59183
帶	-9.59199
無事	-9.59344
饗	-9.59353
煩	-9.5947
敗績	-9.59569
書日	-9.59623
賓	-9.59656
觧	-9.59711
秦人	-9.59715
不欲	-9.59715
可知也	-9.59847
亦以	-9.59945
逞	-9.59949
郤	-9.5995
春秋之義	-9.60024
婚	-9.6004
汝	-9.60055
櫟	-9.60114
叛晉	-9.60127
厥	-9.60143
劉子	-9.60147
踰年	-9.60203
褒	-9.60261
夀	-9.60284
之意也	-9.6038
隧	-9.60509
按左氏	-9.60535
冬至	-9.60784
茅	-9.60853
此書	-9.60865
欒盈	-9.60868
朝聘	-9.60874
麇	-9.60914
咸	-9.60917
之類是也	-9.6093
又何	-9.61001
百里	-9.61041
密	-9.61063
督	-9.61229
二十三年	-9.61304
蕩	-9.61313
趙孟	-9.61322
躬	-9.61587
無禮	-9.61603
則不	-9.61611
為重	-9.61634
不敬	-9.61655
襄仲	-9.61776
慶封	-9.61779
失其	-9.61807
子西	-9.61837
稱名	-9.61893
夷儀	-9.61959
豫	-9.61983
桑	-9.62067
也按	-9.62135
陳鄭	-9.62153
虛	-9.62236
昬	-9.62341
罪也	-9.62425
前此	-9.62475
其文	-9.62636
庚	-9.62712
而已矣	-9.62727
豈不	-9.62773
以禮	-9.62895
管	-9.62904
救陳	-9.62957
杜預	-9.62971
師于	-9.63015
者必	-9.63015
非常	-9.63062
衎	-9.63073
壽	-9.63092
呉子	-9.63123
念	-9.63155
天地	-9.63161
覇	-9.63196
伐莒	-9.63306
常事	-9.63322
魚石	-9.63424
攘	-9.63427
羣臣	-9.63456
艾	-9.63489
其臣	-9.63494
鮑	-9.63506
休	-9.63551
池	-9.63597
段	-9.6363
滅國	-9.63652
烏	-9.63716
淺	-9.63787
不肯	-9.63811
春秋之法	-9.63857
為魯	-9.64013
可見	-9.64022
面	-9.64139
杜云	-9.64188
又有	-9.64211
惡其	-9.64231
翼	-9.64466
焉爾	-9.64484
左傳曰	-9.64489
惠王	-9.64558
錯	-9.64583
大雩	-9.64633
子糾	-9.64801
乞師	-9.64809
崔杼	-9.64999
泰山	-9.65006
閏月	-9.65049
子家	-9.65064
陰	-9.65067
其志	-9.65072
律	-9.6508
吾子	-9.65194
地名	-9.65249
敝	-9.65282
張氏	-9.6532
二十六年	-9.65379
之田	-9.65514
祈	-9.65544
其弟	-9.65651
而書之	-9.65778
是非	-9.65795
名也	-9.65886
湯	-9.65894
泰	-9.6592
辛巳	-9.6593
來告	-9.6594
谷	-9.6602
河南	-9.66093
是為	-9.66139
有二	-9.66264
之失	-9.66285
屈完	-9.66432
堂	-9.66442
主人	-9.66572
壊	-9.66613
恭	-9.66615
彌	-9.66637
東北	-9.66638
錄	-9.66689
稱王	-9.66723
又以	-9.6673
左師	-9.66958
土地	-9.66972
子般	-9.67006
聖人之	-9.67177
昭子	-9.67209
而春秋	-9.67252
殺大夫	-9.67268
㑹而	-9.67281
重耳	-9.67292
之屬	-9.67518
彭城	-9.67601
以伐	-9.67649
止之	-9.67686
短	-9.67697
戾	-9.67709
以兵	-9.67749
東南	-9.67762
大夫也	-9.67802
諸儒	-9.67813
房	-9.67815
郜	-9.6784
者矣	-9.67898
以報	-9.67913
一也	-9.67915
告廟	-9.67927
三傳	-9.67958
不亦	-9.68021
種	-9.68191
人也	-9.68236
規	-9.68247
城之	-9.68308
踐土	-9.68319
讒	-9.68388
謙	-9.68461
捷	-9.68468
伯主	-9.68482
戸	-9.68522
注同	-9.68541
書者	-9.68658
肉	-9.68675
潁	-9.68733
訟	-9.68742
不月	-9.68763
六卿	-9.68769
則亦	-9.68826
上卿	-9.68851
伐魯	-9.68861
博	-9.68907
鬭	-9.69069
國家	-9.69083
肥	-9.69098
與盟	-9.69106
三日	-9.69157
去之	-9.69167
駟	-9.69172
侵齊	-9.69247
匡	-9.69424
甲戌	-9.69508
圭	-9.69519
營	-9.69609
西南	-9.6963
賜之	-9.69633
不致	-9.69639
則曰	-9.69664
履	-9.69865
殺其大夫	-9.69881
用兵	-9.69983
未至	-9.70051
於王	-9.70076
其間	-9.7012
亦非	-9.70144
經傳	-9.70177
子展	-9.70227
不用	-9.70244
逮	-9.70246
事君	-9.70262
䖍	-9.70284
許男	-9.70325
何休	-9.70382
先君之	-9.7039
若是	-9.7042
皆不書	-9.70476
當國	-9.70476
於宋	-9.70484
郑	-9.70513
聴	-9.70576
稱師	-9.70602
乾侯	-9.70625
奔晉	-9.70682
術	-9.70727
逆之	-9.70742
條	-9.70799
必書	-9.71083
侵蔡	-9.71097
懲	-9.71142
矣今	-9.71164
斉	-9.71169
大水	-9.71179
司城	-9.71209
不臣	-9.71227
此亦	-9.71257
尾	-9.71259
公及	-9.71316
處父	-9.71344
得臣	-9.71416
不明	-9.71439
策	-9.71485
齊晉	-9.71528
孫氏	-9.71532
趙鞅	-9.71542
喻	-9.71572
遏	-9.71652
義也	-9.71694
貞	-9.71722
為卿	-9.71754
賵	-9.71795
旗	-9.71905
釋例	-9.71941
孔子曰	-9.71953
公使	-9.71961
新城	-9.71969
行也	-9.7203
其心	-9.72042
増	-9.721
稍	-9.72102
故不言	-9.72125
量	-9.72128
是謂	-9.7214
事而	-9.72187
子叔姬	-9.72384
魯侯	-9.72401
以叛	-9.72487
剛	-9.72668
男	-9.72844
庚辰	-9.72849
而葬	-9.72884
怪	-9.72886
以著	-9.72903
見之	-9.72929
進之	-9.7297
書卒	-9.73034
之黨	-9.73041
靖	-9.73074
述	-9.73133
決	-9.73182
雜	-9.73183
占	-9.73223
也書	-9.7325
譖	-9.73305
校	-9.73319
古之	-9.73335
晉人執	-9.73351
與晉	-9.73459
顔	-9.73629
欺	-9.73637
莊王	-9.73648
之母	-9.73651
甫	-9.73672
水經注	-9.73733
未能	-9.73735
之理	-9.73806
公孫敖	-9.73814
壬午	-9.73882
之情	-9.73897
與其	-9.73907
仲遂	-9.7393
?」	-9.7395
公薨	-9.73963
蟲	-9.73989
鼔	-9.74
詳見	-9.74227
同盟于	-9.74245
各有	-9.74258
孫氏曰	-9.74322
無王	-9.74324
山川	-9.74389
毒	-9.74494
縣東	-9.7455
天道	-9.74677
己巳	-9.74688
拘	-9.74732
故特	-9.74736
稱君	-9.74786
宴	-9.748
于鄭	-9.74855
為一	-9.74868
季文子	-9.74885
受其	-9.74966
盟而	-9.75034
聽命	-9.75312
癸亥	-9.75349
之前	-9.75465
即此	-9.7548
毋	-9.75585
以致	-9.75682
乎此	-9.75859
寜	-9.75863
伐衞	-9.75884
趙氏曰	-9.75905
寛	-9.75914
斬	-9.76
與魯	-9.76009
宋地	-9.7601
稱公	-9.7605
其禮	-9.76065
愬	-9.76205
稱爵	-9.76266
溺	-9.76315
丈	-9.76347
以前	-9.76357
匹	-9.76377
小君	-9.76382
瀆	-9.7641
其辭	-9.76437
叔弓	-9.76614
桓王	-9.76634
國之君	-9.76635
於外	-9.76944
赤狄	-9.76987
大夫盟	-9.76988
二十一年	-9.77015
霸主	-9.7703
皆是	-9.77092
有司	-9.77144
縣西	-9.77164
四十	-9.77256
或以	-9.77262
笑	-9.77313
鄫子	-9.77349
城縣	-9.7737
公至自晉	-9.77507
之義也	-9.77517
穀梁傳	-9.77563
内外	-9.77579
帛	-9.776
貶之	-9.7764
祭祀	-9.77799
非有	-9.77849
之初	-9.7785
㫖	-9.77852
答	-9.78003
天之	-9.78031
之位	-9.78094
寗	-9.78247
斂	-9.78292
司空	-9.78303
晉悼	-9.78306
鬼神	-9.78424
之詞	-9.78456
成子	-9.78556
以國	-9.78564
憤	-9.78595
只	-9.78598
距	-9.78649
熟	-9.78656
殽	-9.78692
下文	-9.78791
盍	-9.78823
圍之	-9.78886
邑也	-9.78887
楚丘	-9.78911
人以	-9.78915
不能救	-9.79014
獄	-9.7906
驗	-9.79069
會于	-9.79142
縣北	-9.79181
冬十有二月	-9.79196
責之	-9.79222
輙	-9.79226
前後	-9.79338
盂	-9.79423
見於	-9.79441
癸	-9.79452
之外	-9.79453
戈	-9.79519
宛	-9.79554
竭	-9.79566
祔	-9.79624
惡也	-9.79801
粟	-9.79837
而入	-9.79949
環	-9.80044
之勢	-9.80114
朝王	-9.80116
罰	-9.80157
二十二年	-9.80196
縣東南	-9.80205
鐘	-9.80263
也又	-9.80273
齊桓公	-9.80362
縣西南	-9.80415
立之	-9.80473
衛地	-9.80509
而不敢	-9.80532
滿	-9.80548
曰不可	-9.80575
或謂	-9.80579
候	-9.80633
牟	-9.80642
何哉	-9.80659
何以不	-9.80741
虎牢	-9.80743
伐而	-9.80829
先書	-9.80886
桓公之	-9.80967
亳	-9.81065
倫	-9.81068
細	-9.81075
周公之	-9.81126
筆	-9.81126
淂	-9.81129
而得	-9.81157
又不	-9.81185
箕	-9.81204
滕子	-9.81209
選	-9.8121
不使	-9.81315
蜀	-9.81352
欲立	-9.81355
公族	-9.81361
妃	-9.814
甲午	-9.81456
奸	-9.81463
牽	-9.81484
盟者	-9.81527
與諸侯	-9.8155
内女	-9.8157
主盟	-9.81603
則無	-9.81666
甥	-9.81701
𤼵	-9.8176
僑如	-9.81809
婁	-9.81841
投	-9.81844
完	-9.81861
正傳曰	-9.81876
君父	-9.81878
但書	-9.81923
如京師	-9.81968
名氏	-9.82115
丗	-9.82266
破	-9.82284
程	-9.82358
鍼	-9.82361
求之	-9.82398
此説	-9.8242
不競	-9.82428
當在	-9.82466
者不	-9.82495
尊卑	-9.8253
曹人	-9.82574
可見矣	-9.82594
儒	-9.82623
卒子	-9.8263
壞	-9.82668
于周	-9.82737
牢	-9.82739
邾婁	-9.82769
猶可	-9.82869
在晉	-9.8287
反又	-9.82874
涉	-9.82897
癸酉	-9.82908
曷爲	-9.83051
奔楚	-9.83095
晉國	-9.83097
之月	-9.83154
故稱	-9.83166
不地	-9.83174
秦師	-9.83207
之内	-9.83264
庚午	-9.83297
楚莊	-9.83322
稱字	-9.83341
朱子	-9.83377
肯	-9.83381
吳人	-9.83429
藥	-9.83439
何也曰	-9.83551
之孫	-9.83555
㑹之	-9.83577
之制	-9.83619
王姬	-9.83657
轉	-9.83689
夏之	-9.83761
使大夫	-9.83776
伍	-9.83786
以成	-9.83801
州來	-9.83805
齊宋	-9.83806
其說	-9.83811
亦可	-9.83822
劉氏	-9.83915
晉地	-9.83971
為大夫	-9.83983
厭	-9.83989
與鄭	-9.84047
隐	-9.84152
稅	-9.84175
丹	-9.84256
不能討	-9.84282
行之	-9.84308
妾母	-9.84374
之邑	-9.84401
空	-9.8441
獻子	-9.8447
死而	-9.84507
此皆	-9.84567
以義	-9.84591
洮	-9.84692
名之	-9.84774
必以	-9.84816
宣王	-9.84841
所當	-9.84869
為善	-9.84917
家氏曰	-9.8499
逹	-9.85013
見執	-9.85022
篡	-9.85122
舊史	-9.85137
勲	-9.85281
讙	-9.8531
正義	-9.85389
戊申	-9.85442
不宜	-9.85471
純	-9.85537
崔氏	-9.85555
從晉	-9.85742
迫	-9.85765
三公	-9.85816
鞌	-9.85863
子玉	-9.85982
矣春秋	-9.86047
而致	-9.86067
一國	-9.8607
不郊	-9.86138
雖不	-9.8615
郤克	-9.86196
附録	-9.86318
不能自	-9.86336
属	-9.86339
霍	-9.86354
其大夫	-9.8639
為夫人	-9.86421
三卿	-9.86458
支	-9.86473
渉	-9.86501
𤣥	-9.8656
書葬	-9.86587
秦晉	-9.86612
在魯	-9.86671
其情	-9.86692
冀	-9.86779
穿	-9.86779
於廟	-9.86801
恕	-9.86808
公即位	-9.86816
索	-9.86878
不仁	-9.86959
趙子曰	-9.87023
縣有	-9.87031
而不言	-9.87073
羈	-9.87109
甲子	-9.87124
歩	-9.87171
圍許	-9.87219
矣此	-9.87242
自此	-9.87253
義見	-9.87282
失之	-9.87314
源	-9.87332
戲	-9.87477
不通	-9.87497
之廟	-9.87608
亦是	-9.87617
冰	-9.87652
冦	-9.87749
城濮	-9.87786
繫之	-9.87926
宻	-9.87976
出奔晉	-9.8799
之使	-9.88014
懿	-9.88042
左氏以為	-9.88055
申生	-9.88134
為正	-9.88157
雞澤	-9.8821
若此	-9.88227
齊鄭	-9.88246
之力	-9.88285
是其	-9.88324
者蓋	-9.88342
此則	-9.88373
其可	-9.88425
寘	-9.88447
之常	-9.88468
丁未	-9.88499
一時	-9.88533
齒	-9.88566
有常	-9.88613
陽縣	-9.88623
姒	-9.88628
諸侯而	-9.88676
祊	-9.88683
書及	-9.88741
周人	-9.8878
董	-9.88831
曷	-9.88831
殺其	-9.88839
夲	-9.88849
之甚	-9.88939
荆楚	-9.8896
不容	-9.88968
以罪	-9.88971
黃	-9.88979
樹	-9.88995
㡬	-9.89001
亢	-9.89017
書爵	-9.89129
尚書	-9.89132
創	-9.89136
辛亥	-9.89149
侮	-9.89153
麥	-9.8916
未踰年	-9.89187
弗許	-9.89214
鄄	-9.89216
得以	-9.89255
俾	-9.89307
而去	-9.8931
云爾	-9.89314
徧	-9.89353
禮之	-9.89371
君而	-9.89424
衍	-9.89427
宋衛	-9.89433
晋侯	-9.89458
諸侯不	-9.89482
無以	-9.89535
西北	-9.89572
而為之	-9.89608
濮	-9.89622
則當	-9.89639
取邑	-9.89641
稱國	-9.89645
材	-9.89659
佐之	-9.8966
資	-9.89688
一稱	-9.89708
為右	-9.89723
胥	-9.89745
鑿	-9.89749
軌	-9.89822
襃	-9.89828
相與	-9.89845
鬬	-9.89846
鹹	-9.89861
白狄	-9.8989
四方	-9.89895
季孫宿	-9.89906
齊桓之	-9.89948
未知	-9.90074
乙亥	-9.90096
也或曰	-9.90122
之弑	-9.90138
伐許	-9.9016
渠	-9.90216
許田	-9.90242
自取	-9.90242
庇	-9.90291
荼	-9.90294
襄陵許氏曰	-9.90302
公羊傳曰	-9.90316
使之	-9.9032
二十九年	-9.90397
異也	-9.90445
昧	-9.90465
有三	-9.90544
閒	-9.90564
迹	-9.90568
懼而	-9.90577
先王之	-9.90585
春秋時	-9.90589
士匄	-9.90609
之卒	-9.9064
于外	-9.9074
而下	-9.90791
不序	-9.90811
酅	-9.90834
苗	-9.90857
辭曰	-9.90911
血	-9.90955
墓	-9.90981
叔武	-9.90987
注言	-9.90998
民之	-9.91019
平陽	-9.91088
屋	-9.91101
然而	-9.91155
治兵	-9.91191
永	-9.9123
進退	-9.91274
公侯	-9.9129
澶淵	-9.91388
階	-9.91409
沙	-9.9141
不自	-9.91523
痛	-9.91527
隙	-9.91545
機	-9.91553
而自	-9.91605
冕	-9.91632
見弑	-9.91679
畜	-9.91734
非卿	-9.91787
斃	-9.91831
者一	-9.91892
小邾	-9.91986
父之	-9.91998
甯	-9.92003
無駭	-9.92018
為大	-9.92024
先後	-9.92042
國佐	-9.9207
来聘	-9.92112
耕	-9.92116
而稱	-9.92116
詹	-9.92124
而退	-9.92154
子駟	-9.92191
暨	-9.92303
責其	-9.92319
未得	-9.9234
夕	-9.92386
庻	-9.92417
丙	-9.92419
塗	-9.92539
警	-9.92563
禦之	-9.9257
若之何	-9.92574
狄人	-9.92593
彚纂	-9.92727
由是	-9.92766
二傳	-9.92785
缺	-9.92865
而弗	-9.92866
得志	-9.92977
云云	-9.93006
恵公	-9.93069
黎	-9.93133
以事	-9.93204
朔日有食之	-9.93204
也非也	-9.9325
嗚呼	-9.93261
不諱	-9.93307
雅	-9.93338
文也	-9.93366
詩云	-9.93396
運	-9.93402
郯	-9.9341
盟於	-9.93436
啖氏曰	-9.93518
圍宋	-9.93636
親親	-9.93659
子反	-9.93728
虽	-9.93748
弑之	-9.93758
壬	-9.93814
葛	-9.93824
宋之	-9.93836
鳴	-9.93838
得國	-9.93847
雲	-9.93899
何如	-9.93926
不若	-9.93952
㑹晉	-9.93966
薳	-9.94024
牙	-9.94038
子儀	-9.94065
鄖	-9.94165
也諸侯	-9.94238
非義	-9.94258
禮記	-9.94276
魯衛	-9.94282
當是時	-9.94323
得其	-9.94341
寇	-9.94361
晉大夫	-9.94435
秦穆	-9.94446
世家	-9.94465
當以	-9.94495
陳乞	-9.94508
殘	-9.94529
卒于	-9.94548
侍	-9.94569
豈非	-9.94577
乙	-9.94664
遂以	-9.94698
事晉	-9.94715
逐君	-9.94766
無傳	-9.94767
子皮	-9.94782
姬姓	-9.94794
蠻夷	-9.94824
也杜氏曰	-9.94829
頌	-9.94873
天理	-9.94893
者乎	-9.94897
諸侯皆	-9.94918
之權	-9.9502
穆叔	-9.95055
縣東北	-9.95115
武城	-9.95178
其有	-9.95179
楊	-9.95201
倚	-9.95207
復入	-9.95216
之私	-9.95237
未聞	-9.95249
鮮虞	-9.95274
為義	-9.95277
之餘	-9.95289
今又	-9.95318
刻	-9.95374
公㑹齊侯	-9.95377
魯大夫	-9.95389
臣之	-9.95391
左氏云	-9.95428
敎	-9.95458
百官	-9.95487
甞	-9.95579
晏子	-9.95634
溝	-9.95653
必不	-9.95705
齊景	-9.95771
曾	-9.95774
濫	-9.95785
死於	-9.95855
併	-9.95927
不忘	-9.95941
不討	-9.95992
與國	-9.95998
月者	-9.96022
靡	-9.96046
㐮	-9.96125
而遂	-9.96152
與之盟	-9.9619
夫人之	-9.962
日有食之	-9.96211
整	-9.96212
杞伯	-9.96313
此義	-9.96327
孔氏	-9.96402
為是	-9.96408
其族	-9.96464
三十一年	-9.96566
此事	-9.96582
賢者	-9.96596
其私	-9.96611
楚公子	-9.96656
之官	-9.9671
其功	-9.96766
不失	-9.96773
祭公	-9.96814
竝	-9.9682
綱	-9.96861
於周	-9.96911
凡書	-9.96926
自為	-9.96951
右師	-9.97004
出而	-9.97077
徇	-9.97104
春王三月	-9.97139
趨	-9.97148
東方	-9.97185
而立之	-9.97223
不得不	-9.97243
去年	-9.97308
而止	-9.97338
大小	-9.97412
氏之	-9.97418
棺	-9.97418
㨗	-9.97422
書王	-9.97451
不時	-9.97463
不繫	-9.97473
鄢陵	-9.97582
稱公子	-9.97593
筆削	-9.9762
歸生	-9.9765
公羊作	-9.9765
侯伯	-9.97687
單子	-9.97758
行事	-9.97764
君子曰	-9.97776
為亂	-9.97782
錫命	-9.97805
使卿	-9.97816
弑君之賊	-9.97856
棠	-9.98039
辯	-9.98044
今日	-9.98083
欽定四庫全書春秋	-9.9814
㑹葬	-9.98149
丑	-9.98169
謚	-9.98186
羅	-9.98196
戊寅	-9.98306
奚齊	-9.98475
有大	-9.98483
尊王	-9.98497
恣	-9.9852
師還	-9.98534
隋	-9.9857
意也	-9.98585
去其	-9.98681
以行	-9.98686
鹿	-9.98687
華氏	-9.98776
冬十有一月	-9.98792
魯公	-9.99004
自立	-9.9903
不得已	-9.99033
;	-9.99047
者二	-9.99072
羙	-9.99092
倍	-9.99111
郳	-9.99318
于王	-9.99432
不立	-9.99485
今年	-9.99525
貌	-9.99536
津	-9.99541
欒氏	-9.9964
救邢	-9.99644
蘇	-9.99658
綏	-9.99726
脱	-9.9973
惜	-9.99773
異於	-9.99778
頃	-9.99807
籍	-9.99844
叔孫氏	-9.99874
待之	-9.99913
竒	-10.0003
逢	-10.0005
畫	-10.0014
瑞	-10.0016
敬嬴	-10.0018
公如齊	-10.0021
傳文	-10.0022
非其	-10.0024
也魯	-10.0025
其官	-10.0029
改元	-10.0031
奏	-10.0032
潞	-10.0034
欒書	-10.0037
戕	-10.0038
公至自	-10.0039
而求	-10.0052
十有二年	-10.0059
也左氏曰	-10.006
愆	-10.0065
共公	-10.0078
變文	-10.0079
雄	-10.0081
賀	-10.0086
舍之	-10.0087
家臣	-10.0088
鄭莊	-10.0092
二卿	-10.0093
来朝	-10.0096
戎狄	-10.0098
季孫行父	-10.01
遜	-10.0101
㣲者	-10.011
旁	-10.0111
陘	-10.0111
諌	-10.0115
江黄	-10.0117
釋曰	-10.0121
集説	-10.0121
周官	-10.0126
與焉	-10.0128
絶之	-10.0129
祿	-10.0129
訴	-10.0133
推之	-10.0137
練	-10.0147
如何	-10.0147
而楚	-10.0151
桐	-10.016
氷	-10.017
寸	-10.0174
紂	-10.0175
矜	-10.018
千里	-10.0184
稱弟	-10.0188
屏	-10.0189
於朝	-10.0195
不㑹	-10.0195
不備	-10.0199
作春秋	-10.0203
旌	-10.0204
大國之	-10.0206
逃歸	-10.0206
墨	-10.0213
誤矣	-10.0219
猶曰	-10.022
十有一年	-10.0223
向戌	-10.0231
庚申	-10.0242
叙	-10.0243
葵丘	-10.0247
使若	-10.0249
矣又	-10.0249
不入	-10.0253
簡公	-10.0255
相見	-10.0259
衷	-10.0266
不正其	-10.0268
平子	-10.0268
邊	-10.0268
地也	-10.0273
程子	-10.0286
王曰	-10.0289
陪臣	-10.0296
孔氏曰	-10.0297
而來	-10.0304
筮	-10.0305
之象	-10.031
獸	-10.0313
何得	-10.0314
二十五	-10.0316
穆姜	-10.0318
其一	-10.032
露	-10.032
未葬	-10.0321
覺	-10.0324
故特書	-10.033
宋之盟	-10.0333
之賢	-10.0334
王師	-10.0334
書至	-10.0338
之立	-10.0338
决	-10.0341
自相	-10.0341
不順	-10.0341
或問	-10.0342
因之	-10.0342
黑	-10.0345
命也	-10.0347
韓厥	-10.0358
王制	-10.0363
沙隨	-10.0363
頃公	-10.0364
固有	-10.0367
不書即位	-10.0374
域	-10.0374
豈可	-10.0376
大叔	-10.0379
未及	-10.038
己未	-10.038
呂	-10.0381
本又作	-10.0385
丙午	-10.0386
國都	-10.0391
含	-10.04
其本	-10.0402
從者	-10.0405
不曰	-10.0406
反下同	-10.0407
王猛	-10.0409
魯以	-10.0421
其時	-10.0426
既而	-10.0429
伊	-10.043
卋	-10.0437
齊侯使	-10.0438
亂臣賊子	-10.044
東門	-10.044
宰周公	-10.0447
戰而	-10.0448
矯	-10.045
烈	-10.0452
鱄	-10.0457
著矣	-10.0469
凡諸侯	-10.0471
照	-10.0478
彭	-10.0483
髙子	-10.0489
莫之	-10.049
國名	-10.05
杜言	-10.0502
稱侯	-10.0503
於其	-10.0507
昭王	-10.0507
宋鄭	-10.0512
言於	-10.0514
供	-10.0517
無異	-10.0517
操	-10.0517
如宋	-10.0522
不知其	-10.0523
肅	-10.0528
回	-10.053
麋	-10.0533
之䘮	-10.0538
禮義	-10.0539
首惡	-10.0539
縣屬	-10.0542
也是故	-10.0543
朝歌	-10.0545
趙武	-10.0546
為名	-10.0547
出師	-10.0549
頗	-10.055
赴告	-10.0555
闞	-10.0569
非正	-10.0576
書字	-10.0595
入於	-10.0597
異姓	-10.0597
於春秋	-10.0612
所在	-10.0613
庚戌	-10.0625
匄	-10.0626
矣其	-10.0626
甯喜	-10.0626
歎	-10.0633
有禮	-10.0636
鄢	-10.064
柄	-10.0642
先生	-10.0642
于戚	-10.0643
陷	-10.065
何必	-10.0651
獲麟	-10.0653
君臣之義	-10.0654
而非	-10.066
則又	-10.0667
狄之	-10.0667
三桓	-10.0668
釋例曰	-10.0668
窺	-10.0669
譜	-10.0671
於天下	-10.0674
桃	-10.0676
其道	-10.0677
善惡	-10.0679
鄭𤣥云	-10.0681
飲酒	-10.0681
訾	-10.0681
諱之	-10.0687
攷	-10.0688
王道	-10.0691
貶也	-10.0693
允	-10.0696
覲	-10.0698
死者	-10.0699
㑹吳	-10.07
鮮	-10.0704
何氏	-10.0708
加之	-10.0709
一事	-10.0709
夾	-10.0711
楚子伐鄭	-10.0712
之實	-10.0714
國語	-10.0728
秉	-10.0731
不獲	-10.0743
入陳	-10.0744
三子	-10.0745
桓之	-10.0746
滅陳	-10.0749
其爵	-10.0752
伯有	-10.0752
其能	-10.0753
在齊	-10.0757
宋華元	-10.0759
猶在	-10.0768
敗之	-10.0784
括	-10.0784
首止	-10.0786
青	-10.0787
雒	-10.0788
之末	-10.0796
返	-10.0798
之可也	-10.0804
己亥	-10.0807
遣使	-10.081
雉	-10.0812
貶之也	-10.0813
善之	-10.0817
辛卯	-10.0822
召之	-10.0829
子常	-10.0833
不修	-10.0834
倉	-10.0835
皆非	-10.0836
作三軍	-10.0842
涖	-10.0842
獵	-10.0848
兵車	-10.0853
弗克	-10.0854
庚寅	-10.0857
渝	-10.0861
殿	-10.0863
明日	-10.0866
三十二年	-10.0867
勉	-10.0868
𣣔	-10.0868
歸而	-10.0868
執政	-10.0874
有寵	-10.0876
侵陳	-10.0876
丁巳	-10.0877
充	-10.0882
叚	-10.0885
中行	-10.0886
乎且	-10.0888
此類	-10.0888
伯禽	-10.0889
公羊以為	-10.0894
一月	-10.0895
子產	-10.0897
五十	-10.09
滋	-10.09
皆在	-10.0902
執事	-10.0902
出也	-10.0909
内大夫	-10.0924
昭穆	-10.0928
卻	-10.0931
王世子	-10.0936
其失	-10.0941
無功	-10.0946
鳩	-10.0946
恨	-10.095
歛	-10.0954
城在	-10.0956
闕文	-10.0957
二邑	-10.0975
淮夷	-10.0989
來者	-10.0993
伐吳	-10.1
縊	-10.1005
戊	-10.1008
敢不	-10.1008
圃	-10.1012
所以為	-10.1012
在此	-10.1016
丙戌	-10.1016
汭	-10.1021
夫差	-10.1022
者明	-10.1027
春正月	-10.1029
若曰	-10.103
一名	-10.1034
妖	-10.1035
圍鄭	-10.1042
则	-10.1043
一字	-10.1044
秩	-10.1053
競	-10.1059
詞也	-10.1062
聼	-10.1072
虢公	-10.1073
快	-10.1074
憚	-10.1074
禱	-10.1087
春秋所	-10.1092
不稱公子	-10.1094
辛酉	-10.1105
牆	-10.1107
焉故	-10.1117
乎故	-10.1118
盟也	-10.112
巴	-10.1123
禾	-10.1126
媚	-10.1128
狀	-10.1129
以從	-10.1143
寓	-10.1143
於天子	-10.1145
莘	-10.1145
受盟	-10.1153
以討	-10.1154
臣召南	-10.1156
三人	-10.1157
饋	-10.1158
國政	-10.1162
循	-10.1163
上帝	-10.1171
仲孫蔑	-10.1188
輸	-10.1188
落	-10.1191
子臧	-10.1196
書入	-10.1198
不恤	-10.1198
亡矣	-10.1207
杜以	-10.1208
繇	-10.1209
其上	-10.121
隂陽	-10.1212
隆	-10.1214
所得	-10.1221
名者	-10.1221
黒	-10.1222
誤也	-10.1226
莊子	-10.1227
晉平	-10.1229
傾	-10.1231
到	-10.1231
何氏曰	-10.1234
人倫	-10.1238
人者	-10.1245
古人	-10.1249
較	-10.125
弑逆	-10.1252
子弟	-10.1263
之兵	-10.1271
亦當	-10.1271
于諸侯	-10.1272
亦書	-10.1275
高氏曰	-10.1299
以王命	-10.13
也何	-10.13
嬰	-10.1303
其稱	-10.1303
之死	-10.1309
畝	-10.1314
子罕	-10.1316
秋九月	-10.1317
壹	-10.1322
其死	-10.1328
轅	-10.1333
當立	-10.1336
戰國	-10.1337
定姒	-10.1339
季姬	-10.1339
左氏謂	-10.1346
明其	-10.1349
步	-10.1353
于廟	-10.1355
夷吾	-10.1355
羣公子	-10.1365
娣	-10.1369
不善	-10.1371
以是為	-10.1377
閉	-10.1377
為此	-10.1379
如㑹	-10.138
卽	-10.1386
税	-10.139
區區	-10.1393
入者	-10.1403
去國	-10.1404
之族	-10.1405
文武	-10.1413
庶子	-10.1413
之行	-10.1413
王崩	-10.1414
文定	-10.1416
部	-10.1419
今此	-10.1422
者即	-10.1423
從而	-10.1425
於我	-10.1438
治之	-10.144
為諸侯	-10.1441
裔	-10.1444
正朔	-10.1444
監	-10.1446
嗣君	-10.1446
入春秋	-10.1448
孺子	-10.1449
王子虎	-10.1453
矣夫	-10.1456
基	-10.146
孟孫	-10.1461
亦非也	-10.147
亡國	-10.1471
辛丑	-10.1472
注解云	-10.1477
看	-10.1481
廬陵李氏曰	-10.1482
斗	-10.1494
卒而	-10.1498
始終	-10.1498
不葬	-10.1499
無貶	-10.1508
曰春秋	-10.1508
坤	-10.1508
有此	-10.1512
癸巳	-10.1512
鄣	-10.1516
當是	-10.1519
不救	-10.1519
去疾	-10.1521
大抵	-10.1521
逺矣	-10.1525
蠻	-10.1532
也胡氏曰	-10.1543
辞	-10.1544
雖欲	-10.1546
乃止	-10.1548
㑹伐	-10.1549
有年	-10.1551
壇	-10.1551
羞	-10.1554
季氏之	-10.1556
汲汲	-10.1557
慝	-10.157
晉文公	-10.1573
以救	-10.158
叔向曰	-10.1583
以見其	-10.1588
注据	-10.1593
季武子	-10.1601
之計	-10.1603
而欲	-10.1607
偪陽	-10.1611
之患	-10.1617
後人	-10.1626
若以	-10.1627
買	-10.1628
存亡	-10.1629
愧	-10.1632
書取	-10.1632
太史	-10.1644
出奔楚	-10.1646
犬	-10.1647
項	-10.1653
為王	-10.1666
偕	-10.1666
王正月	-10.1666
闔廬	-10.1666
二十四	-10.1669
之論	-10.167
則曷為	-10.1678
邇	-10.1681
崔	-10.1682
郤至	-10.1685
患之	-10.1687
見經	-10.1689
為人	-10.1699
㓜	-10.17
惡而	-10.1704
與宋	-10.1719
在上	-10.1721
弗聽	-10.1722
晉君	-10.1724
書時	-10.1728
孫林父	-10.1733
囿	-10.1735
於君	-10.1737
徹	-10.1739
旨	-10.1741
縣西北	-10.1742
後至	-10.1746
此傳	-10.1749
不親	-10.1751
楚地	-10.1753
滛	-10.1753
來媵	-10.1754
而獨	-10.177
不道	-10.177
九年春	-10.1771
菽	-10.1775
男女	-10.1784
周制	-10.1786
也又曰	-10.1797
子重	-10.1799
而盟	-10.1801
之主	-10.1802
二十八	-10.1807
慈	-10.1811
王所	-10.1816
成二年	-10.1823
孟子曰	-10.1824
也其曰	-10.1825
入郢	-10.1825
蒯	-10.183
何獨	-10.1834
復命	-10.1837
王事	-10.1837
邦國	-10.1843
未見	-10.1844
罪之	-10.1844
宥	-10.1851
圖之	-10.1856
百姓	-10.1865
竹	-10.1866
殖	-10.1869
不聽	-10.1871
之耳	-10.1872
杜氏預曰	-10.188
而朝	-10.1884
了	-10.1884
寄	-10.1889
伸	-10.189
螟	-10.1891
天王崩	-10.1891
之職	-10.1892
吳楚	-10.1893
不舉	-10.1893
丘明	-10.1893
子男	-10.1897
稱國以殺	-10.1897
也案	-10.1899
雷	-10.19
裘	-10.1901
春秋之所	-10.1907
陋	-10.191
咺	-10.1911
士㑹	-10.1918
皆同	-10.1919
閑	-10.1923
用牲	-10.1924
陸渾	-10.1927
正其	-10.193
何罪	-10.1933
天王使	-10.1933
商臣	-10.1935
雪	-10.1937
為晉	-10.1943
之詩	-10.1943
脫	-10.1943
而與之	-10.1946
欲使	-10.1947
不暇	-10.1949
童	-10.195
○(	-10.1952
伯業	-10.1954
二十三	-10.1956
淵	-10.1959
閽	-10.1961
根	-10.1961
而不得	-10.1964
而先	-10.1966
之妻	-10.1977
僖二十八年	-10.1982
助之	-10.1983
亦云	-10.1985
三命	-10.1988
舉其	-10.1992
帥師伐	-10.1993
水出	-10.2001
同心	-10.2002
又書	-10.2003
之分	-10.2005
夏時	-10.2011
鬼	-10.2016
詭	-10.2018
睢	-10.2018
平丘	-10.2019
消	-10.202
乏	-10.202
以利	-10.2024
癸丑	-10.2028
書歸	-10.2031
之正	-10.2031
志也	-10.2033
常事不書	-10.2038
績	-10.2039
遲	-10.205
亂也	-10.2051
霸業	-10.2053
趙穿	-10.2062
佚	-10.2063
於人	-10.2069
王朝	-10.2073
鞏	-10.2089
癸未	-10.2091
魯桓	-10.2092
耦	-10.2094
所云	-10.2096
子孔	-10.2098
曰寡君	-10.2101
于陳	-10.2102
夷狄之	-10.2106
之大夫	-10.2109
遭	-10.211
致之	-10.2111
南蒯	-10.2114
紀季	-10.2115
而晉	-10.2116
南陽	-10.2121
削之	-10.2127
韋	-10.2128
翟泉	-10.2137
不可不	-10.2137
也其言	-10.2138
而執	-10.2147
乃以	-10.2152
犂	-10.2154
弭	-10.2158
為令尹	-10.2164
亡也	-10.2165
司寇	-10.2165
天王之	-10.217
祗	-10.217
是知	-10.2171
栗	-10.2174
者四	-10.2179
豆	-10.2182
維	-10.219
壤	-10.2211
之女	-10.2213
而能	-10.2218
無名	-10.222
唁	-10.2221
協	-10.2223
之好	-10.2223
兮	-10.2248
包	-10.2251
國在	-10.2255
州府	-10.2259
汾	-10.226
寶	-10.2273
而未	-10.2277
曷為不言	-10.2281
可矣	-10.2284
故使	-10.2286
人情	-10.2286
弃	-10.2288
韓宣子	-10.229
於禮	-10.2291
师	-10.2292
不許	-10.2295
所為	-10.2296
上文	-10.23
縣東南有	-10.2304
所生	-10.2304
穀梁曰	-10.2305
所由	-10.2307
雞	-10.231
信也	-10.2317
伐國	-10.2321
人皆	-10.2321
中國諸侯	-10.2325
禽獸	-10.2331
朝夕	-10.2331
召伯	-10.2336
十里	-10.2337
將中軍	-10.2344
殤公	-10.2344
公宫	-10.2345
河東	-10.2354
前日	-10.2357
不廢	-10.236
士鞅	-10.2362
譏之	-10.2363
限	-10.2364
范宣子	-10.2365
麻	-10.2367
二者	-10.2369
阿	-10.2369
以取	-10.2371
孟獻子	-10.2371
己酉	-10.2377
匹夫	-10.2383
伐者	-10.2386
而殺	-10.2389
討其	-10.2391
不共	-10.2391
飛	-10.2402
陶	-10.2403
亦未	-10.2404
豈得	-10.2408
七十	-10.2411
浸	-10.2413
禮樂	-10.2413
本無	-10.2413
或者	-10.2414
臧孫	-10.2414
諸樊	-10.2415
不食	-10.2415
旋	-10.2418
桓文	-10.2422
奄	-10.2425
又謂	-10.2426
為災	-10.2429
已甚	-10.2432
二十一	-10.2437
守之	-10.2443
罪其	-10.2443
有餘	-10.2448
須句	-10.2452
展輿	-10.2452
歸者	-10.2459
而齊	-10.2461
頼	-10.2469
驪姬	-10.2469
為貶	-10.247
驟	-10.247
宋師	-10.2475
祠	-10.2481
今乃	-10.2485
而歸之	-10.2488
荀罃	-10.2492
而况	-10.2493
也蓋	-10.2494
于天子	-10.2495
罪在	-10.2497
非是	-10.2497
之次	-10.2502
丁丑	-10.2503
而諸侯	-10.2505
得禮	-10.2506
悪	-10.2507
不可謂	-10.2508
已見	-10.2511
復讎	-10.2513
夫婦	-10.2514
諸侯伐鄭	-10.2516
則不書	-10.2517
𫝊云	-10.2519
乆矣	-10.2519
隊	-10.2519
其卒	-10.2522
雖然	-10.2523
為之也	-10.2524
故聖人	-10.2524
定四年	-10.2525
出于	-10.2527
激	-10.2529
非所	-10.2531
邾莒	-10.2539
者所以	-10.2544
假道	-10.2545
子産曰	-10.2549
門之外	-10.2551
納公	-10.2553
之賊	-10.2554
始也	-10.2563
涖盟	-10.2564
叔仲	-10.2565
國史	-10.2566
荀躒	-10.2569
偶	-10.257
路寢	-10.2574
遷于	-10.2574
籥	-10.2582
許叔	-10.2582
伐徐	-10.2583
何足	-10.2587
味	-10.2589
以定	-10.26
射姑	-10.2601
用師	-10.2602
狄侵齊	-10.2602
天子諸侯	-10.2602
彰	-10.2611
救宋	-10.2614
晏	-10.2619
一朝	-10.2622
釋之	-10.2624
告於	-10.2629
徼	-10.2631
其次	-10.2633
諸侯無	-10.2634
也於是	-10.2638
者盖	-10.2638
不書者	-10.264
列國之	-10.2647
所言	-10.2647
無冰	-10.2654
父兄	-10.2656
毛伯	-10.2661
者是	-10.2661
朱子曰	-10.2667
陸氏曰	-10.2667
獨書	-10.2669
周正	-10.2672
公羊云	-10.2681
反覆	-10.2682
深矣	-10.2682
春王二月	-10.2686
冢宰	-10.269
藩	-10.2694
而後書	-10.2696
他人	-10.2697
于衛	-10.2703
互	-10.2709
不死	-10.2713
伉	-10.2714
卓	-10.2715
于朝	-10.2717
乙未	-10.2723
者以其	-10.2723
入國	-10.2726
符	-10.2732
甲寅	-10.2736
乎春秋	-10.2744
圍成	-10.2744
中夏	-10.2748
所欲	-10.2765
故城	-10.2766
經不書	-10.2766
馳	-10.2771
也古者	-10.2777
告之	-10.2778
求成	-10.2782
五日	-10.2783
公㑹晉侯	-10.2788
既葬	-10.2789
滕薛	-10.279
屯	-10.279
不加	-10.2791
荀偃	-10.2801
偃師	-10.2801
録之	-10.2801
難也	-10.2802
優	-10.2804
擊之	-10.2812
不務	-10.2814
之稱	-10.2818
寺人	-10.2821
而伐之	-10.2822
莫能	-10.2825
君將	-10.2831
遂滅	-10.2833
乖	-10.2834
所能	-10.2837
沂	-10.2839
故先	-10.2854
人之所	-10.2862
故書曰	-10.2873
也愚謂	-10.2874
君其	-10.2875
下云	-10.288
注無傳	-10.2882
攻之	-10.2883
無乃	-10.2891
数	-10.2894
蛇	-10.2898
跡	-10.2899
始於	-10.29
在焉	-10.29
婚姻	-10.2901
以著其	-10.2906
稱人者	-10.2909
卿士	-10.2912
見於經	-10.2914
必先	-10.2923
丙子	-10.2924
不祥	-10.2928
肸	-10.2929
問於	-10.2933
弁	-10.2934
邵	-10.2936
之子也	-10.2937
鎮	-10.2937
論之	-10.2938
大司馬	-10.2939
立君	-10.2943
道之	-10.2944
以为	-10.2946
爻	-10.2948
良霄	-10.2949
此春秋	-10.2954
毎	-10.2956
敦	-10.2959
譎	-10.2961
因以	-10.2966
書伐	-10.2967
懿公	-10.2971
不絶	-10.2972
君子之	-10.2974
匿	-10.2977
而往	-10.2977
齊襄	-10.2978
也盖	-10.2979
潛	-10.2984
君薨	-10.2989
之敗	-10.2989
王子朝	-10.2993
莫如	-10.2996
陽處父	-10.2997
為盟主	-10.3003
不改	-10.3013
天討	-10.3015
為楚	-10.3018
副	-10.302
再書	-10.302
但言	-10.302
霜	-10.3022
此盟	-10.3029
救徐	-10.3029
羔	-10.3033
遇于	-10.3035
酉	-10.3036
幕	-10.3043
王后	-10.3047
繆	-10.305
其始	-10.3054
天地之	-10.3062
泥	-10.3065
臧文仲	-10.3065
襚	-10.3066
無復	-10.3066
聲子	-10.3069
書月	-10.307
彭生	-10.3071
奪之	-10.3082
卞	-10.3083
世卿	-10.3085
托	-10.3085
得失	-10.3089
不聞	-10.309
孔達	-10.3092
季札	-10.3093
以出	-10.3096
以相	-10.3097
所載	-10.3113
乙酉	-10.3113
子木	-10.3138
故因	-10.3143
君不	-10.3144
湖	-10.3145
麗	-10.3146
莫不	-10.3147
晉襄	-10.3152
無大夫	-10.3152
奔喪	-10.3154
士縠	-10.3157
不顧	-10.3158
隣	-10.3159
不稱使	-10.3161
亂賊	-10.3163
襃貶	-10.3165
稱夫人	-10.3166
續	-10.3169
陳留	-10.317
文公之	-10.3179
故謂之	-10.3179
伐曹	-10.318
不志	-10.3183
公會齊侯	-10.3185
軒	-10.3189
諱也	-10.3189
底	-10.319
謀之	-10.3191
親之	-10.3192
公不	-10.3194
君若	-10.3195
其書	-10.3203
河陽	-10.3204
矣若	-10.321
會諸侯	-10.3212
夫人姜氏	-10.3213
或以為	-10.3215
乎對曰	-10.3217
於經	-10.3217
於國	-10.3218
胡氏傳	-10.3218
然也	-10.3223
免牲	-10.3223
奔莒	-10.3225
漢書	-10.3228
辭以	-10.3233
春秋之時	-10.3234
胄	-10.3235
不能正	-10.3237
沮	-10.3238
二十二	-10.3249
天下之大	-10.3256
至今	-10.3268
無益	-10.327
下軍	-10.3272
而奔	-10.3273
揖	-10.3277
覿	-10.3278
十有一月	-10.3278
一國之	-10.3282
之長	-10.3284
二事	-10.3285
於上	-10.3292
舅	-10.3292
以别	-10.3293
嗣子	-10.3295
之戒	-10.3297
束	-10.3297
儉	-10.3301
誅之	-10.3303
為質	-10.3313
南北	-10.3318
胡安國曰	-10.3325
相去	-10.3325
樊	-10.334
所書	-10.3342
譛	-10.3342
微弱	-10.3345
傳見	-10.3353
鄭國	-10.3354
之善	-10.3359
弑而	-10.3361
子大叔	-10.3365
鄭忽	-10.3369
㑹者	-10.3383
䟽	-10.3383
北杏	-10.3384
朝于	-10.3384
試	-10.3386
𢎞	-10.3387
用事	-10.3388
謂其	-10.3388
城楚丘	-10.3392
從其	-10.3394
之謂也	-10.3402
説者	-10.3404
康叔	-10.3404
給	-10.3406
刃	-10.3408
討也	-10.3412
當書	-10.3415
之衰	-10.3416
災異	-10.342
而去之	-10.342
𣏌	-10.3424
胙	-10.3429
丙辰	-10.3432
失政	-10.3438
領	-10.3443
宇	-10.3461
甲辰	-10.3463
則可	-10.3467
也聖人	-10.3469
與中國	-10.347
為齊	-10.3473
其衆	-10.3476
者正以	-10.3476
變也	-10.3477
吳師	-10.3479
裳	-10.3492
取鄆	-10.3494
致女	-10.3505
姻	-10.3509
其邑	-10.3514
頭	-10.3514
與人	-10.3516
史官	-10.3518
詔	-10.3519
諸侯有	-10.3524
范氏曰	-10.3527
此乃	-10.3527
無譏	-10.3529
寗喜	-10.3531
者葢	-10.3534
楚國	-10.3535
之由	-10.3537
契	-10.3538
東遷	-10.3539
辛夘	-10.3541
及齊	-10.3548
繼之	-10.355
論語	-10.3553
其家	-10.3554
芮	-10.3558
視之	-10.3559
林言	-10.356
下書	-10.3566
天子之禮	-10.3574
予之	-10.3575
天子之命	-10.3575
弑也	-10.3579
告于	-10.3579
二十六	-10.3581
之節	-10.3582
也榖梁傳	-10.3583
城成周	-10.3583
耻	-10.3586
將死	-10.3594
此二	-10.3595
三代	-10.3596
嶽	-10.3596
過也	-10.3599
所不	-10.3607
鑒	-10.3609
會盟	-10.3616
何所	-10.3617
蔡景	-10.362
歸寧	-10.3622
戊午	-10.3623
楚成	-10.3625
不書公	-10.3626
呉人	-10.3626
於前	-10.3628
壬戌	-10.3629
一音	-10.363
始封	-10.3631
隰	-10.3632
城虎牢	-10.3634
爲之	-10.3634
本末	-10.3634
復國	-10.3635
也何以	-10.3641
不書此何以書	-10.3644
畿内	-10.3648
洽	-10.3651
旬	-10.3652
挈	-10.3656
能無	-10.3658
以備	-10.3667
自外	-10.367
鐸	-10.3672
絶其	-10.3677
孛	-10.3677
猶不	-10.368
邲	-10.3681
變例	-10.369
辛未	-10.369
弦	-10.369
稽	-10.3694
女子	-10.3694
何謂	-10.3695
晉悼公	-10.3698
鄭師	-10.3708
此與	-10.3718
稽首	-10.3721
不得已而	-10.3721
衆也	-10.3721
后稷	-10.3723
式	-10.3738
悦	-10.3738
當為	-10.3739
榭	-10.3739
事齊	-10.3742
狂	-10.3743
專殺	-10.3744
君臣之	-10.3745
萌	-10.3745
六十	-10.3747
享之	-10.375
凡伯	-10.3752
楚人伐鄭	-10.3753
滎陽	-10.3757
二十七	-10.3758
乃還	-10.3764
蓼	-10.3765
皆曰	-10.3768
外大夫	-10.377
二三子	-10.3773
季孫意如	-10.3778
中牟	-10.3788
曉	-10.3811
乙丑	-10.3811
為異	-10.3812
尋盟	-10.3817
卯	-10.3826
妨	-10.383
瓦	-10.3831
孟明	-10.3833
䝉	-10.3833
自見矣	-10.3835
負芻	-10.3839
罪之也	-10.3839
存之	-10.3842
公自	-10.3847
緣	-10.385
楚滅	-10.3851
外之	-10.3853
臣子之	-10.3855
不言及	-10.3864
皆以為	-10.3867
自齊	-10.3867
有國	-10.3872
惰	-10.3878
不堪	-10.3882
齊侯宋公	-10.3885
子良	-10.3889
其師	-10.389
請於	-10.3893
自見	-10.3894
簒弑	-10.3894
此其言	-10.3898
荅	-10.3902
之盛	-10.3905
簡子	-10.3913
閲	-10.3914
柤	-10.392
送之	-10.392
普	-10.3922
謗	-10.3922
在楚	-10.3932
叔孫得臣	-10.3933
中國也	-10.3937
何有	-10.3938
重丘	-10.3942
鈞	-10.3942
姊	-10.3944
以諸侯	-10.395
載書	-10.3952
楚子使	-10.3954
春秋之初	-10.3955
共王	-10.3956
芳	-10.396
左𫝊	-10.3962
欒黶	-10.3973
三十里	-10.3974
溫	-10.3974
東夷	-10.3975
以私	-10.3976
知此	-10.3979
焉則	-10.398
見于	-10.3982
諫曰	-10.3991
焉耳	-10.3991
耳非	-10.3991
得罪於	-10.3992
贄	-10.3992
篤	-10.3996
也髙氏曰	-10.4005
也故曰	-10.4005
先言	-10.4005
斾	-10.4011
此非	-10.4012
大宰	-10.4013
戍之	-10.4017
曰此	-10.4018
稼	-10.4018
在下	-10.4018
子魚	-10.402
函	-10.4021
也疏	-10.4029
他日	-10.4032
於是始	-10.4033
羊舌	-10.4035
醜	-10.4037
萬世	-10.4039
罔	-10.4041
直言	-10.4041
於衛	-10.4042
髙厚	-10.4042
八年春	-10.405
殺世子	-10.405
縶	-10.4053
由此	-10.4054
五行	-10.4054
世本	-10.4055
十年春王正月	-10.4059
如之何	-10.4059
亦然	-10.4061
率諸侯	-10.4064
詰	-10.4065
于社	-10.4067
以存	-10.4067
則必	-10.407
袁僑	-10.4072
慕	-10.4073
昭公之	-10.4079
叔牙	-10.4081
翟	-10.4082
者惟	-10.4083
之事也	-10.4085
非一	-10.4085
之禮也	-10.4087
此說	-10.4088
長厯	-10.409
之士	-10.4092
先公	-10.4094
不已	-10.4094
巡	-10.4098
上軍	-10.4098
若何	-10.41
志在	-10.4102
伐戎	-10.4103
祭之	-10.4105
五人	-10.4106
悉書	-10.4107
贈	-10.4108
誰敢	-10.4119
而不名	-10.4122
壬寅	-10.4122
國無	-10.4123
敵也	-10.4123
畀	-10.4124
政事	-10.4124
壬辰	-10.4129
在喪	-10.4131
冒	-10.4133
茲	-10.4137
而知	-10.4138
廹	-10.4138
十有三年	-10.414
未足	-10.4142
也不言	-10.4144
㑹齊侯	-10.4145
今在	-10.4146
晉以	-10.4155
雖無	-10.4156
屨	-10.4156
失道	-10.4156
城父	-10.4157
而請	-10.4157
人所	-10.4161
内史	-10.417
非時	-10.4174
而莫之	-10.4174
韓起	-10.4174
之辱	-10.4176
之來	-10.4177
請命	-10.4178
王孫	-10.4181
又使	-10.4182
戰也	-10.4184
冬十一月	-10.4187
鍾離	-10.4195
夏正	-10.4197
把伯	-10.4198
佩	-10.4202
鑄	-10.4202
晚	-10.4203
侵楚	-10.4203
栁	-10.4203
徒以	-10.4204
入朔	-10.421
者見	-10.4214
申侯	-10.4219
從君	-10.4219
郤缺	-10.4221
子叔	-10.4222
公至自伐鄭	-10.4223
文王之	-10.4224
要之	-10.4225
而終	-10.4228
社稷之	-10.4232
救而	-10.4236
之政	-10.4239
晉陽	-10.424
輸平	-10.4242
大蒐	-10.4243
冬十二月	-10.4247
請盟	-10.4247
堪	-10.4251
於後	-10.4252
時而	-10.4252
儀父	-10.4257
上公	-10.4258
淳于	-10.4263
桓二年	-10.4268
踐	-10.4269
齊衛	-10.4269
其親	-10.4272
故杜	-10.4275
一旦	-10.4276
者此	-10.4277
举	-10.428
而用	-10.4289
豈能	-10.4291
非特	-10.4295
叔孫僑如	-10.4295
弑君而	-10.4296
焦	-10.4298
纔	-10.4299
訖	-10.43
格	-10.4301
已而	-10.4306
叔孫婼	-10.4312
公至自齊	-10.4312
不言公	-10.4315
皆無	-10.4318
丙寅	-10.4318
止書	-10.4319
啖子曰	-10.4322
未盡	-10.4323
公至自會	-10.4325
播	-10.4327
而不可	-10.4329
爾雅	-10.4332
送葬	-10.4341
子赤	-10.4345
免於	-10.4346
不易	-10.4349
沛	-10.435
宵	-10.435
之重	-10.4351
徳而	-10.4352
者多矣	-10.4359
亦如之	-10.4361
其中	-10.4362
無可	-10.4362
遥	-10.4367
遂伐	-10.4368
侵曹	-10.4373
柯	-10.4373
書公	-10.4383
畧之	-10.4386
娶于	-10.4387
故得	-10.4388
先軫	-10.4389
稱伯	-10.4391
蕃	-10.4392
吁	-10.4393
狼	-10.4396
叛臣	-10.4396
孝子	-10.4396
使其	-10.4397
朝而	-10.4398
繋	-10.4404
女也	-10.4405
食之	-10.4415
▁左氏傳	-10.4416
替	-10.442
大史	-10.4421
在於	-10.4424
春秋之世	-10.4427
代之	-10.443
莊公之	-10.443
案左氏	-10.4432
罪人	-10.4434
施於	-10.4435
弗與	-10.4438
國之大夫	-10.444
今屬	-10.4441
蠱	-10.4446
之怨	-10.4447
稱世子	-10.4448
服也	-10.4452
同上	-10.4453
大旱	-10.4454
為宋	-10.4457
浮	-10.4461
弗能	-10.4462
之迹	-10.4464
先祖	-10.4464
為公	-10.4467
之物	-10.4468
知有	-10.4468
一書	-10.4471
家語	-10.4474
我也	-10.4475
例也	-10.4476
坎	-10.4482
9.2	-10.4483
公孫歸父	-10.4486
之援	-10.4487
十有八年	-10.4487
弑君之罪	-10.4487
終始	-10.4487
定王	-10.4488
千乘	-10.449
甲兵	-10.4494
增	-10.4496
黔牟	-10.4496
服䖍云	-10.4497
殺人	-10.45
以賂	-10.45
春秋所書	-10.4503
檀弓	-10.4515
後漢	-10.4516
事實	-10.4516
伯爵	-10.4517
槩	-10.452
亦不書	-10.4525
五年春	-10.4525
襄十	-10.4526
洛陽	-10.4528
遷之	-10.4532
無咎	-10.4533
與公	-10.4536
顓頊	-10.4537
者言	-10.454
夔	-10.454
有事於	-10.454
出奔齊	-10.4541
裁	-10.4543
蕭魚	-10.455
不氏	-10.4553
服楚	-10.4557
又不能	-10.4561
凌	-10.4564
晉趙盾	-10.4565
所見	-10.4569
雹	-10.4571
賈逵	-10.4575
荆蠻	-10.4576
故傳	-10.4581
報怨	-10.4582
無虧	-10.4584
之恩	-10.4586
大敗	-10.4589
不吉	-10.459
書即位	-10.4593
魯邑	-10.4599
五十里	-10.4603
未成	-10.4605
蔡季	-10.4608
討罪	-10.4613
焉用	-10.4618
遁	-10.4618
略之	-10.4619
中國而	-10.4623
立而	-10.4631
衛之	-10.4632
諸家	-10.4635
又音	-10.4635
而從	-10.4636
變而	-10.4639
𨽻	-10.4639
相繼	-10.4642
不亦可乎	-10.4649
國有	-10.4651
施之	-10.4662
不得與	-10.4663
迭	-10.4663
劒	-10.4663
案他本	-10.4667
月令	-10.4669
北方	-10.467
之聘	-10.467
劉炫	-10.4671
之漸	-10.4671
者若	-10.4672
或作	-10.4672
諡法	-10.4673
未命	-10.4674
昭元年	-10.4676
曲直	-10.4676
所以見	-10.4677
人欲	-10.4677
曰諸侯	-10.4677
之應	-10.4681
之數	-10.4681
為惡	-10.4684
行成	-10.4687
言之則	-10.4687
區	-10.4688
天命	-10.4688
用幣	-10.4689
死之	-10.4695
泗	-10.4701
汜	-10.4703
失位	-10.4707
不終	-10.4707
胡子	-10.4711
克之	-10.4711
張本	-10.4714
受賂	-10.4715
書其	-10.4715
臧氏	-10.4717
所滅	-10.4717
世室	-10.472
司冦	-10.4721
正卿	-10.4728
師出	-10.4728
命大夫	-10.4729
無信	-10.4729
下有	-10.473
豎	-10.4734
前書	-10.4736
者罪	-10.4738
侵衛	-10.4741
日中	-10.4741
王氏曰	-10.4746
僑	-10.4757
幸而	-10.4758
也是以	-10.476
燮	-10.4761
太原	-10.4763
枝	-10.4765
導	-10.4765
於義	-10.4766
曹衛	-10.4768
不盟	-10.4772
外交	-10.4777
致其	-10.4779
不與其	-10.478
乃使	-10.4782
蒍	-10.4783
齊侯衛侯	-10.4789
武夷胡氏傳	-10.4789
之過	-10.4794
追之	-10.4796
不盡	-10.48
之舊	-10.4808
命而	-10.481
冶	-10.4813
皈	-10.4816
醉	-10.4817
卿也	-10.4817
春秋不書	-10.4818
初立	-10.4819
霸者	-10.482
脤	-10.4831
大辰	-10.4833
反下	-10.4834
叛人	-10.4837
公如晉至河乃復	-10.4838
見伐	-10.4841
聘禮	-10.4847
汪	-10.485
黄帝	-10.4852
□	-10.4859
鄭𤣥	-10.4861
聘問	-10.4861
方城	-10.4862
曰昔	-10.4864
武宫	-10.4864
救患	-10.4864
再見	-10.4878
特筆	-10.4879
於陳	-10.4885
兩國	-10.4885
義不	-10.4887
辨之	-10.4887
正之	-10.4888
故復	-10.4889
王官	-10.4889
滅亡	-10.489
子突	-10.489
陽穀	-10.4894
溴梁	-10.4897
之深	-10.4903
曰余	-10.4905
曺	-10.4905
或言	-10.4909
祧	-10.491
壘	-10.4911
十有五年	-10.4916
渭	-10.4918
賢也	-10.4926
君親	-10.4926
書滅	-10.4927
宋平	-10.493
公子友	-10.4932
大衍厯	-10.4934
棄之	-10.4938
之邑也	-10.494
滅同姓	-10.494
其兄	-10.494
不害	-10.4941
越境	-10.4944
胥童	-10.4951
不赴	-10.4952
宋襄公	-10.4952
羿	-10.4955
故雖	-10.4965
成之	-10.4968
两	-10.497
玉帛	-10.4974
犧	-10.4978
君者	-10.4982
二年春	-10.4987
不得為	-10.4988
不君	-10.4989
趙孟曰	-10.499
致討	-10.4991
悼子	-10.4992
共姬	-10.4997
冢	-10.4998
蟲牢	-10.4999
作丘甲	-10.5001
:『	-10.5005
軫	-10.5007
日之	-10.5008
人道	-10.5009
或有	-10.5016
疎	-10.5018
其來	-10.5024
偷	-10.5025
戊子	-10.5026
無疑	-10.5028
庶幾	-10.5033
特以	-10.5034
懼其	-10.5035
國子	-10.5036
江南	-10.5044
泣	-10.5046
公命	-10.5052
之語	-10.5055
之大者	-10.5061
弊	-10.5061
紇	-10.5066
三十六	-10.5068
所惡	-10.5069
本非	-10.5071
其職	-10.5073
繒	-10.5075
於下	-10.5076
不嫌	-10.5077
以死	-10.5084
未敢	-10.5087
觀其	-10.5088
盟于扈	-10.509
漆	-10.5098
玄	-10.5098
良夫	-10.5101
行而	-10.5102
諱之也	-10.5103
十有四年春	-10.5109
緡	-10.5112
驚	-10.5119
倒	-10.512
檉	-10.5124
6	-10.5125
拔	-10.5127
其日	-10.513
康王	-10.5131
昭十	-10.5132
邾子來朝	-10.5133
宋向戌	-10.5134
㑹呉	-10.5135
苟有	-10.5136
其喪	-10.5141
至自	-10.5147
刼	-10.515
莫敢	-10.5152
不去	-10.5157
閱	-10.5162
問之	-10.5166
之甚也	-10.517
善也	-10.5172
詩小雅	-10.5172
有事于	-10.5175
不可言	-10.5175
書次	-10.5177
在㑹	-10.5179
攜	-10.5179
之歸	-10.518
宋衞	-10.5181
次於	-10.5184
相朝	-10.5184
即是	-10.5186
一等	-10.5187
朝廷	-10.5189
亦何	-10.5195
緯	-10.52
岐	-10.52
往㑹	-10.5202
墜	-10.5203
夾谷	-10.5203
入而	-10.5204
志於	-10.5204
公子比	-10.5205
萬物	-10.5205
之比	-10.5208
不幸	-10.5208
皆為	-10.5209
餘祭	-10.521
弟也	-10.5215
之尊	-10.5218
此云	-10.5222
而後可	-10.5224
以安	-10.5224
迂	-10.5229
禍亂	-10.5231
二字	-10.5237
宣伯	-10.5239
爰	-10.5246
於民	-10.5249
以師	-10.5251
能以	-10.5254
曰無	-10.5257
如字又	-10.5259
則稱	-10.5259
宋災	-10.5262
8.1	-10.5264
以立	-10.5266
子爵	-10.527
於越	-10.5271
祖廟	-10.5273
繩	-10.5274
而可	-10.5276
可得	-10.5276
公羊謂	-10.5277
湏	-10.5281
邴	-10.5281
干戈	-10.5287
無有	-10.5291
入許	-10.5296
趙衰	-10.5298
何忌	-10.5305
兩君	-10.5309
出姜	-10.5309
▁臣謹按	-10.531
叔肸	-10.5318
元年春王正月	-10.532
圍蔡	-10.5325
其歸	-10.5325
小邾子	-10.5326
榖梁傳曰	-10.5327
諸侯㑹	-10.533
媯	-10.5331
春秋書之	-10.5333
鳯	-10.5333
壅	-10.5333
奮	-10.5334
而成	-10.5334
叛也	-10.5343
行乎	-10.5346
岳	-10.5351
遊	-10.5357
及齊平	-10.5357
南門	-10.5357
貴賤	-10.5358
魋	-10.5359
定哀	-10.536
鄭突	-10.5362
季氏私考	-10.5363
也張氏曰	-10.5366
授之	-10.5367
鄭伯突	-10.5371
未絶	-10.5373
榖梁云	-10.5379
其下	-10.538
詛	-10.5382
天災	-10.5385
庫	-10.5385
不虞	-10.539
曠	-10.539
我者	-10.5391
堯舜	-10.5394
祭也	-10.5396
也况	-10.5398
大矣	-10.5399
于太廟	-10.54
叔父	-10.5404
絰	-10.5406
夙	-10.5408
狎	-10.5411
丁亥	-10.5412
民力	-10.5414
七日	-10.5414
齊崔杼	-10.5415
以制	-10.5416
也彼	-10.5425
妹	-10.5426
以尊	-10.5431
以奉	-10.5432
當從	-10.5432
.6	-10.5434
不得入	-10.5435
亮	-10.5435
弗及	-10.5438
捨	-10.5438
車馬	-10.5439
婼	-10.5439
究	-10.5444
所聞	-10.5445
元年春王正月公即位	-10.5446
之先	-10.545
是亦	-10.5451
國亂	-10.5451
子頽	-10.5452
同日	-10.5452
其妻	-10.5452
䇿書	-10.5454
則何以	-10.5458
敗宋師	-10.5459
吴子	-10.5459
夫人也	-10.5461
子卒	-10.5462
餼	-10.5463
謁	-10.5463
減	-10.5465
臨川吳氏曰	-10.5466
糧	-10.5468
髙氏	-10.5468
虞公	-10.5469
不惟	-10.548
之始也	-10.5481
服䖍	-10.5485
不與盟	-10.5487
者正	-10.549
信之	-10.5491
髪	-10.5494
杼	-10.5496
圗	-10.5498
知伯	-10.5498
成十	-10.55
荀寅	-10.55
馬陵	-10.5502
大夫皆	-10.5506
前定	-10.5508
用田賦	-10.551
悲	-10.5513
其誰	-10.5515
地震	-10.5519
反注同	-10.5521
同而	-10.5522
縣東有	-10.5525
不見公	-10.5527
殺子	-10.5529
自有	-10.5532
召公	-10.5532
山東	-10.5533
之誤	-10.5534
以重	-10.554
不利	-10.5544
死于	-10.5547
外諸侯	-10.5548
中丘	-10.5549
何以不言	-10.5554
非謂	-10.5555
百四十	-10.5557
柏舉	-10.5558
法也	-10.5562
救許	-10.5563
三世	-10.5564
以弑	-10.5565
過矣	-10.5567
古今	-10.5567
非聖人	-10.5573
也葢	-10.5574
不登	-10.5575
伐郯	-10.5578
齊豹	-10.5587
公卿	-10.5592
其勢	-10.5599
石碏	-10.5599
蓋以	-10.5603
乙巳	-10.5605
其他	-10.5608
封之	-10.5608
丙申	-10.5614
也左氏	-10.5615
之威	-10.5617
異矣	-10.562
滅項	-10.5621
公伐邾	-10.5622
叛者	-10.5629
辜	-10.5629
春秋於	-10.5634
荀林父	-10.5634
加於	-10.5636
將卑師少	-10.5636
土功	-10.564
於時	-10.5642
四分	-10.5643
善其	-10.5649
退而	-10.5651
乎若	-10.5652
威儀	-10.5654
畏齊	-10.5654
今河南	-10.5655
至自齊	-10.5655
而實	-10.5658
植	-10.566
巧	-10.566
之篇	-10.567
伯者	-10.5671
書同盟	-10.5672
不孝	-10.5672
郛	-10.5674
成十六年	-10.5674
斷道	-10.5675
魯有	-10.5681
濟西	-10.5682
為後	-10.5684
鄀	-10.5685
封人	-10.5685
者乃	-10.5687
㓕	-10.5687
蓄	-10.5689
帷	-10.569
言及	-10.5692
外裔	-10.5692
穆子	-10.5693
賞罰	-10.5693
先縠	-10.5697
難而	-10.5699
之奔	-10.5702
之不可	-10.5704
同欲	-10.5705
陳佗	-10.5705
魏絳	-10.5715
又與	-10.5715
日者	-10.5716
上國	-10.5717
之服	-10.5719
所宜	-10.5721
為臣	-10.5721
必死	-10.5721
公親	-10.5723
圍陳	-10.5732
無常	-10.5735
若不	-10.5736
帑	-10.574
袁	-10.574
賢而	-10.574
所出	-10.574
廉	-10.5741
棣	-10.5742
卒葬	-10.5743
無子	-10.5744
則不可	-10.5752
六年春	-10.5756
為司馬	-10.576
虧	-10.576
子元	-10.5763
𥘉	-10.5768
怙	-10.5769
辰陵	-10.5771
從齊	-10.5771
齊僖	-10.5773
二百	-10.5774
未有言	-10.5774
令狐	-10.5783
叔老	-10.5783
産	-10.5791
寝	-10.5793
駒	-10.5797
凢	-10.5799
汶陽之田	-10.58
哉故	-10.58
公如	-10.5801
宣十	-10.5802
而云	-10.5804
本作	-10.5805
陸氏	-10.5817
之過也	-10.5824
齊桓晉文	-10.5826
弋	-10.5827
不問	-10.5828
權臣	-10.5834
敗狄	-10.5835
是矣	-10.5841
譚	-10.5843
豈其	-10.5844
即楚	-10.5844
殤	-10.5847
如陳	-10.5849
陽榖	-10.5851
入鄭	-10.5854
之體	-10.5861
不書至	-10.5861
正名	-10.587
而謂之	-10.5872
君子不	-10.5877
程氏	-10.5879
見逐	-10.588
王畿	-10.5882
桀	-10.5883
以謀	-10.5888
女叔	-10.5892
王室亂	-10.5892
蘇子	-10.5893
又案	-10.5895
纓	-10.5896
未有不	-10.5898
父母之	-10.5898
安在	-10.59
師敗	-10.5901
子干	-10.5903
河内	-10.5903
僞	-10.5903
從公	-10.5904
眚	-10.5904
壺	-10.5905
鲁	-10.5906
宫室	-10.591
于邾	-10.5912
倡	-10.5912
公行	-10.5914
諸侯盟	-10.5917
終也	-10.5928
宼	-10.5928
9.1	-10.5928
後書	-10.5931
漏	-10.5934
弑君者	-10.5938
仇牧	-10.5941
齊國	-10.5942
其黨	-10.5944
王卿士	-10.5946
義而	-10.5946
以君命	-10.5947
廷	-10.595
外内	-10.5951
東平	-10.5951
也程子曰	-10.5957
或稱	-10.5957
曼	-10.5959
記事	-10.5961
據傳	-10.5965
紹	-10.5965
曰歸	-10.5966
畔	-10.5967
其先	-10.5972
于是乎	-10.5973
不可得而	-10.5977
據左氏	-10.5977
卜郊	-10.5979
既不	-10.5987
矣乃	-10.5987
邦交	-10.5987
者或	-10.5988
未嘗有	-10.5988
附㑹	-10.5989
緜	-10.599
劫	-10.5991
釈	-10.5991
兩觀	-10.5991
儆	-10.5991
齊姜	-10.5992
宅	-10.5992
許氏曰	-10.5995
臆	-10.5996
范獻子	-10.5998
太宰	-10.5999
一軍	-10.6001
奔陳	-10.6001
一見	-10.6001
再命	-10.6005
說者	-10.6009
軍旅	-10.601
聲姜	-10.6011
作主	-10.6012
二三	-10.6017
翦	-10.602
公田	-10.602
陂	-10.6021
虜	-10.6023
幽王	-10.6023
本或作	-10.6023
聶北	-10.6024
左氏作	-10.6029
舒鳩	-10.6029
因事	-10.6031
異乎	-10.6032
聘而	-10.6035
與夷	-10.6036
丁酉	-10.6037
庶人	-10.604
之舉	-10.6041
聞其	-10.6041
公不與	-10.6044
潘	-10.6046
其力	-10.6048
席	-10.6049
而忘	-10.6051
阻	-10.6052
國中	-10.6053
莒子邾子	-10.6058
公羊榖梁	-10.6069
皆云	-10.6069
國内	-10.6072
使我	-10.6072
賁	-10.6074
又如字	-10.6075
之氣	-10.6079
出自	-10.6079
又作	-10.608
備書	-10.6082
告朔	-10.6085
𫝊曰	-10.6086
定之	-10.6086
于我	-10.6088
淳	-10.6088
有罪也	-10.6095
牡	-10.6096
之民	-10.6096
膳	-10.6096
樂祁	-10.6097
糴	-10.6099
郷	-10.61
有寵於	-10.6106
晉趙鞅	-10.6112
崔子	-10.6113
不書名	-10.6117
晋人	-10.6121
自此始	-10.6122
嗣位	-10.6124
足矣	-10.6124
晉伯	-10.6125
欲戰	-10.6131
垣	-10.6136
爽	-10.6136
汪氏克寛曰	-10.6139
轍	-10.6139
衆人	-10.6142
之美	-10.6144
吉凶	-10.6144
棄其	-10.6145
十有七年	-10.6148
以徳	-10.6148
臣下	-10.6149
先蔑	-10.6153
十有三年春	-10.6159
閭	-10.6161
文十	-10.6161
柩	-10.6162
敗也	-10.6165
自京師	-10.6166
弑君之	-10.6166
紀之	-10.6168
未詳	-10.6169
謀也	-10.6172
尊周	-10.6177
不察	-10.6178
二十九	-10.6179
盟之	-10.6179
庶其	-10.6182
書侵	-10.6188
上有	-10.6188
報之	-10.619
米	-10.6191
武氏	-10.6191
絞	-10.6192
郟	-10.6192
子哀	-10.6192
誰能	-10.6199
郤犫	-10.6199
數年	-10.6211
三十一	-10.6211
其禍	-10.6214
君子謂	-10.6215
二軍	-10.6215
惠伯	-10.6218
救齊	-10.6218
而告	-10.6218
曰請	-10.6219
擾	-10.622
不果	-10.6221
弛	-10.6222
之正也	-10.6226
小國之	-10.6226
相似	-10.6226
蘭	-10.6226
不稱夫人	-10.623
昭二十	-10.6234
五伯	-10.6241
子貢	-10.6246
皆從	-10.6249
入鄆	-10.6251
戦	-10.6252
秋冬	-10.6252
水旱	-10.6252
齊大夫	-10.6256
囊瓦	-10.6259
荀庚	-10.6259
而執之	-10.626
侯爵	-10.6261
見于經	-10.6261
三百	-10.6261
汶陽	-10.6262
!	-10.6262
魯自	-10.6267
此一	-10.627
切又	-10.6271
之異	-10.6272
魯衞	-10.6273
義同	-10.6273
數之	-10.6274
封疆	-10.6275
傲	-10.6279
自安	-10.6281
邯鄲	-10.6282
皋	-10.6282
盟會	-10.6286
己卯	-10.629
昭伯	-10.6295
急於	-10.6297
大變	-10.6298
鹽	-10.6301
以大夫	-10.6302
子晳	-10.6302
齊歸	-10.6302
免之	-10.6303
得鄭	-10.6309
是月	-10.631
者也故	-10.6312
山戎	-10.6316
宋公使	-10.6316
於中國	-10.6316
不討賊	-10.6319
門外	-10.632
志之	-10.6323
也穀梁傳	-10.6326
告糴	-10.6328
叔服	-10.633
而取之	-10.633
皆稱	-10.6331
二年春王正月	-10.6332
南里	-10.6334
悼公之	-10.6334
新宫	-10.6334
聘于	-10.6334
之本	-10.6335
止於	-10.6335
安能	-10.6335
婉	-10.6339
紛	-10.634
壯	-10.6342
不以禮	-10.6342
末年	-10.6342
不言戰	-10.6345
侵之	-10.6346
今山東	-10.6347
之母也	-10.6347
不安	-10.6349
必無	-10.635
伯討	-10.6355
為附庸	-10.6356
弟子	-10.6357
融	-10.6361
酌	-10.6364
百年	-10.6365
頡	-10.6366
有命	-10.6372
物也	-10.6378
越禮	-10.6379
其田	-10.6381
亦不得	-10.6386
也榖梁曰	-10.6389
聘魯	-10.6389
不取	-10.6391
至矣	-10.6392
現	-10.6397
易曰	-10.6401
見公	-10.6402
今復	-10.6404
于秦	-10.6405
春秋以	-10.6409
生子	-10.6409
一嵗	-10.6411
器用	-10.6412
旃	-10.6418
重於	-10.6423
事在	-10.6424
何其	-10.6424
伯也	-10.6426
以夫人	-10.6443
固請	-10.6443
置閏	-10.6445
言伐	-10.6446
請師	-10.6447
其所以	-10.6449
者猶	-10.6451
弗敢	-10.6454
醫	-10.6454
州公	-10.646
百人	-10.6462
!」	-10.6464
天時	-10.6465
居之	-10.6467
不能保	-10.6468
肆其	-10.6469
安知	-10.647
若敖	-10.6472
公在乾侯	-10.6472
柏	-10.6481
癸卯	-10.6491
壽夢	-10.6493
而經不書	-10.6496
6.1	-10.6498
唐叔	-10.6498
已有	-10.6502
未可以	-10.6503
會晉	-10.6507
5	-10.6508
再言	-10.6509
比事	-10.651
下陽	-10.6511
百乘	-10.6513
不淂	-10.6513
荀吳	-10.6513
犫	-10.6514
滅蔡	-10.6515
莒慶	-10.6515
不由	-10.6516
股肱	-10.6518
10.	-10.6519
省文	-10.6521
六國	-10.6523
服鄭	-10.6527
次之	-10.653
羽父	-10.6531
宗國	-10.6531
1	-10.6533
夫以	-10.6545
於邾	-10.655
之辨	-10.6552
本亦作	-10.6552
周易	-10.6555
臨之	-10.6563
射之	-10.6566
也惟	-10.6568
盟諸侯	-10.6569
也愚按	-10.6572
所封	-10.6575
故城在	-10.6576
狡	-10.6576
未畢	-10.6577
未定	-10.6577
納王	-10.6578
惠公之	-10.6579
􁊋	-10.658
州蒲	-10.6582
髙郵孫氏曰	-10.6582
其終	-10.6582
叛楚	-10.6583
之利	-10.6583
之宫	-10.6591
為㑹	-10.6595
二十里	-10.6596
詩大雅	-10.6601
奪其	-10.6602
頒	-10.6604
至魯	-10.6604
調	-10.6605
不可以不	-10.6608
為己	-10.661
戒也	-10.6611
不名者	-10.6611
以名	-10.6613
十有四年	-10.6617
解云即	-10.6619
注釋曰	-10.6623
失地	-10.6624
則魯	-10.6625
子羽	-10.6632
大有年	-10.6632
事畢	-10.6633
有加	-10.6637
顛	-10.6639
群	-10.6641
郤犨	-10.6643
三綱	-10.6644
將有	-10.6645
簒立	-10.6646
僖二	-10.6652
其常	-10.6652
知禮	-10.6654
也公羊曰	-10.6659
之别	-10.6662
城邢	-10.6664
歸于京師	-10.6664
閻	-10.6665
名分	-10.6668
出境	-10.6668
别有	-10.667
仇讎	-10.6676
踐土之盟	-10.668
日以	-10.6688
渾	-10.6693
不振	-10.6693
妻之	-10.6693
冬公如晉	-10.6693
死則	-10.6694
未之	-10.6694
邢丘	-10.6699
匱	-10.67
將殺	-10.6701
於秦	-10.6702
號令	-10.6702
奔衛	-10.6709
盟則	-10.6718
辭焉	-10.6718
昭二	-10.6719
比年	-10.6719
隔	-10.6724
何以名	-10.6724
頻	-10.6725
琴	-10.6727
曰凡	-10.6727
嗟	-10.6728
東國	-10.6728
也故書	-10.6729
愼	-10.673
未有書	-10.6733
為禮	-10.6735
不爲	-10.6736
欲去	-10.6736
聲伯	-10.6738
曰魯	-10.6739
舍中軍	-10.6739
千乗	-10.674
典禮	-10.6741
在内	-10.6746
遍	-10.6753
奔命	-10.6754
汲	-10.6754
天子之事	-10.6756
乃歸	-10.6758
吞	-10.6761
同惡	-10.6767
亦甚矣	-10.6768
入蔡	-10.6773
下士	-10.6776
封内	-10.6776
未甞	-10.6777
交兵	-10.6779
成君	-10.6788
救江	-10.6788
.7	-10.6789
其室	-10.679
天下諸侯	-10.6791
國事	-10.6794
僖公之	-10.6799
為鄭	-10.6799
彚纂今	-10.68
貶而	-10.6803
同於	-10.6804
暇	-10.6811
之交	-10.6814
殱	-10.6817
相接	-10.6817
傳称	-10.6819
審矣	-10.6821
葬之	-10.6821
探	-10.6822
.5	-10.6825
臣也	-10.6833
原註	-10.6835
人為	-10.6837
城下	-10.6838
錡	-10.6841
車服	-10.6841
相近	-10.6843
逾年	-10.6845
菑	-10.6849
以入	-10.685
十有六年	-10.6851
此所以	-10.6851
付	-10.6851
苖	-10.6851
及此	-10.6855
也但	-10.6863
聖人之意	-10.6864
二日	-10.6864
閔二年	-10.6865
此又	-10.6866
與此	-10.6869
災也	-10.6871
新作	-10.6874
楚靈	-10.6876
乎夫	-10.6876
敬仲	-10.6877
之衆	-10.6878
不解	-10.6878
服之	-10.688
胥命	-10.6881
奢	-10.6881
以逞	-10.6882
吕氏曰	-10.6884
5.2	-10.6884
己夘	-10.6886
豈以	-10.6892
皆謂	-10.6893
廩	-10.6895
来奔	-10.6898
何不	-10.6902
自然	-10.6903
哀十	-10.6906
宗婦	-10.6907
乎其	-10.6908
不書日	-10.6911
衝	-10.6912
北燕	-10.6916
逆婦	-10.6921
季孫行父如晉	-10.6922
鄭服	-10.6924
以譏之	-10.6931
所有	-10.6936
嫁女	-10.6942
納糾	-10.6942
朝廟	-10.6942
非獨	-10.6944
宜其	-10.6945
楚令尹	-10.6946
立於	-10.6946
公子翬	-10.6946
訛	-10.6946
應之	-10.6947
宋萬	-10.6951
五國	-10.6951
棐林	-10.6954
主㑹	-10.6957
平隂	-10.6959
其難	-10.696
宋殤	-10.6961
皆得	-10.6964
釋怨	-10.6965
啇	-10.6967
愛之	-10.6972
於天	-10.6974
乙卯	-10.6977
語云	-10.6982
髙氏閌曰	-10.6988
請以	-10.6988
可不	-10.699
不可得	-10.699
以俟	-10.6992
襄二	-10.6994
景伯	-10.6995
篡弑	-10.6995
歸於	-10.6996
弑父	-10.6997
人事	-10.6999
從王	-10.7
遂入	-10.7008
闇	-10.7008
丗子	-10.7008
直書其事	-10.7009
尉	-10.701
背盟	-10.7011
國滅	-10.7011
洩冶	-10.7015
新立	-10.7016
華孫	-10.7016
諸侯大夫	-10.7016
悟	-10.7016
喪而	-10.7017
比之	-10.7023
無不	-10.7026
大功	-10.7027
晉文之	-10.703
此何以書	-10.7031
之出	-10.7033
公在	-10.7036
亂臣	-10.7037
二百四十二年	-10.7037
伐鮮虞	-10.7038
朝覲	-10.7038
懦	-10.704
譽	-10.704
出㑹	-10.7041
其主	-10.7042
夫豈	-10.7047
卒哭	-10.705
固已	-10.7051
國乎	-10.7056
地理志	-10.7066
謂春秋	-10.7068
三邑	-10.7068
以来	-10.707
隗	-10.707
無他	-10.7072
䘚	-10.7073
一戰	-10.7075
弑者	-10.7083
北面	-10.7085
自晉	-10.7085
周書	-10.7087
何用	-10.7089
晉獻公	-10.7091
刀	-10.7092
所記	-10.7093
若夫	-10.7093
髙固	-10.7096
所以明	-10.7098
灾	-10.7101
殊㑹	-10.7103
失信	-10.7103
姚	-10.7103
民不	-10.7105
之本也	-10.7105
祭伯	-10.7108
三年春王正月	-10.7108
实	-10.7109
昭四年	-10.7113
公子瑕	-10.7115
縣東北有	-10.7116
執曹伯	-10.7121
善之也	-10.7123
雉門	-10.7123
逆祀	-10.7128
掠	-10.7129
不忠	-10.7129
來逆	-10.7133
輯	-10.7133
岀	-10.7133
匪	-10.7134
微國	-10.7134
通於	-10.7135
晉楚之	-10.7137
若有	-10.7139
逕	-10.7139
十日	-10.7142
也桓公	-10.7142
猶三望	-10.7142
子服	-10.7151
例書	-10.7151
所以著	-10.7154
南面	-10.7155
盛衰	-10.716
一百	-10.716
始有	-10.716
攸	-10.716
既立	-10.7162
猶以	-10.7162
復扶又反	-10.7163
戰者	-10.7164
徴舒	-10.7164
河曲	-10.7175
於公	-10.7178
服而	-10.7179
三十二	-10.7183
不貶	-10.7184
黄池	-10.7184
戰於	-10.7185
肩	-10.7192
之後也	-10.7193
臼	-10.7193
諸夏之	-10.7194
非所以	-10.7197
劍	-10.72
乃是	-10.72
于京師	-10.7201
賤者	-10.7202
而哭	-10.7208
以㑹	-10.7209
不卒	-10.7209
歸也	-10.7212
兩書	-10.7216
入楚	-10.7217
也豈	-10.7219
因而	-10.7219
敵國	-10.722
薪	-10.7221
逾	-10.7221
臣謹按	-10.7222
公及齊侯	-10.7227
二名	-10.7228
戍陳	-10.7228
二慶	-10.7231
何以不書	-10.7234
其社稷	-10.7235
根牟	-10.7236
私意	-10.7242
宋景	-10.7242
薨于	-10.7245
胡氏謂	-10.7256
實有	-10.7256
炎	-10.7258
孔疏	-10.726
十五里	-10.7264
何以為	-10.7268
義例	-10.7275
。』	-10.7276
曲禮	-10.7276
勞民	-10.7277
泓	-10.7281
而遽	-10.7282
經無	-10.7285
黶	-10.7285
如周	-10.7286
名曰	-10.7288
子野	-10.7288
不得以	-10.7288
十餘年	-10.7289
執其	-10.7289
乃復	-10.7291
同義	-10.7293
君弑	-10.7293
洧	-10.7294
測	-10.7294
割	-10.7296
大無麥禾	-10.7297
二家	-10.7303
大夫而	-10.7307
書大夫	-10.7308
寔	-10.7308
者如	-10.7309
娶於	-10.7311
四鄰	-10.7315
㑹於	-10.7316
劉夏	-10.7317
賂齊	-10.7318
遂行	-10.7319
僖元年	-10.732
三分	-10.7321
幹	-10.7322
育	-10.7323
酖	-10.7327
駭	-10.7327
庚子	-10.7327
伐呉	-10.7333
與謀	-10.7333
去聲	-10.7334
東西	-10.7336
忠信	-10.7337
義又見	-10.7342
可疑	-10.7349
來㑹	-10.735
者五	-10.7351
濟水	-10.7353
釐	-10.7361
迷	-10.7363
紊	-10.7364
例在	-10.7364
政令	-10.7365
築臺	-10.7366
兵權	-10.7368
薛氏曰	-10.7368
與君	-10.7371
者豈	-10.7372
終身	-10.7374
廵	-10.7376
伐人	-10.7377
慶氏	-10.7379
之業	-10.7381
舉重	-10.7385
教之	-10.7386
五等	-10.7387
而經	-10.739
迄	-10.7392
壬子	-10.7394
縣西有	-10.7395
杞桓	-10.7397
歃	-10.7397
何益	-10.7399
彭衙	-10.74
者多	-10.7404
程氏曰	-10.7407
5.1	-10.7408
畏楚	-10.741
圖伯	-10.7414
腹	-10.7415
地而	-10.7416
暫	-10.7419
月而	-10.742
强弱	-10.742
讓國	-10.7421
太廟	-10.7421
無人	-10.7422
止也	-10.7423
與戰	-10.7424
徐子	-10.7425
濤塗	-10.7427
出奔宋	-10.7431
同時	-10.7431
北門	-10.7432
卒於	-10.7432
之詞也	-10.7434
柯陵	-10.7437
曹共	-10.7438
也既	-10.7442
何以書譏何譏爾	-10.7442
受命於	-10.7443
出居	-10.7444
鄭氏	-10.7445
危之也	-10.7445
僖五年	-10.7447
者當	-10.745
立是為	-10.7456
孽	-10.7457
帥師救	-10.746
備矣	-10.7462
執其君	-10.7462
疑於	-10.7464
滅而	-10.7465
故君子	-10.7466
楚䖍	-10.7468
劉氏敞曰	-10.7468
昔者	-10.7469
御戎	-10.7471
也觀	-10.7473
之家	-10.7476
晉景	-10.7479
以王	-10.748
興兵	-10.7481
無足	-10.7481
一時之	-10.7484
有君	-10.7487
纂	-10.7487
而從之	-10.7488
文伯	-10.7488
彗	-10.7492
欵	-10.7494
不一	-10.7495
10.1	-10.7495
位而	-10.7497
濟北	-10.7497
昭十三年	-10.7498
敏	-10.7499
當日	-10.75
與我	-10.75
偽反	-10.7501
華亥	-10.7502
比於	-10.7509
古文	-10.751
曰若	-10.7511
也不書	-10.7511
僖十	-10.7512
吾君	-10.7513
鄭詹	-10.7514
豈無	-10.7515
來討	-10.7518
禭	-10.7519
侵衞	-10.752
師徒	-10.7522
堕	-10.7524
元帥	-10.7528
貴之	-10.7528
刪	-10.7529
仲尼曰	-10.7529
而輕	-10.7529
無私	-10.7531
在國	-10.7531
文元年	-10.7532
其不言	-10.7538
亦猶	-10.7539
正以	-10.7545
今案	-10.7546
也家氏曰	-10.7549
縣西南有	-10.755
在前	-10.7551
公會晉侯	-10.7556
垂隴	-10.7559
百乗	-10.7567
乾時	-10.757
而遷	-10.7572
春秋所以	-10.7575
晉靈	-10.7577
郊禘	-10.7577
大法	-10.758
魯國之	-10.7582
不識	-10.7583
諸公	-10.7584
繕	-10.7584
7.	-10.7585
亷	-10.7589
也正義曰	-10.7591
撓	-10.7591
諭	-10.7592
髙傒	-10.7594
止此	-10.7595
而逃	-10.7596
國今	-10.7597
㑹同	-10.7597
黒肱	-10.76
何言乎	-10.76
盟誓	-10.7601
紓	-10.7605
經意	-10.7606
戊戌	-10.7615
當有	-10.7615
古者諸侯	-10.7622
蜚	-10.7623
泯	-10.7624
田獵	-10.7624
而納	-10.7625
勝負	-10.7626
梁亡	-10.7627
無厭	-10.7631
山在	-10.7632
十二公	-10.7633
太叔	-10.7633
殺公子	-10.7634
其賢	-10.7636
與㑹	-10.7636
不與楚	-10.7639
曰某	-10.7648
自楚	-10.7652
加兵於	-10.7656
雍丘	-10.7658
羮	-10.7658
無乃不可乎	-10.766
有五	-10.7662
旧	-10.7662
亡人	-10.7665
亦不可	-10.7666
小事	-10.7669
不係	-10.7671
安有	-10.7671
成而	-10.7674
東周	-10.7678
驂	-10.7683
圍郕	-10.7683
廢之	-10.7686
疾之	-10.7686
之大者也	-10.7689
不書𦵏	-10.7691
蔡叔	-10.7692
公子結	-10.7695
之入	-10.7695
亳社	-10.7695
甲申	-10.7698
亦同	-10.7701
合禮	-10.7703
失正	-10.7705
十年春	-10.7707
也劉氏曰	-10.771
襄二十	-10.771
嘉之	-10.771
權衡	-10.7714
人君之	-10.7716
十有二	-10.7717
不以為	-10.7719
只是	-10.772
不弔	-10.7722
其事而	-10.7722
亦必	-10.7723
堵	-10.7723
之辠	-10.7724
日至	-10.7724
滅也	-10.7724
太祖	-10.7726
不當立	-10.7727
書薨	-10.7728
通于	-10.7729
七年春	-10.7735
▁胡氏傳	-10.7737
所取	-10.7737
公至	-10.7738
歸魯	-10.7738
男子	-10.7745
縣西北有	-10.7746
大閲	-10.7748
大都	-10.7749
彄	-10.7749
不言使	-10.7751
姪	-10.7753
祝融	-10.7753
搆	-10.7754
遵	-10.7755
聞之曰	-10.7756
聊	-10.7756
之㫖	-10.7757
何以知其	-10.7758
飲至	-10.7759
殁	-10.776
輅	-10.7763
數也	-10.7763
志其	-10.7765
言歸	-10.7766
滅紀	-10.7767
遂殺	-10.7767
滕子來朝	-10.7768
縣故城	-10.777
獻捷	-10.7772
背晉	-10.7773
榖作	-10.7773
内辭也	-10.7777
矣何以	-10.7779
不貳	-10.778
夭	-10.7786
郭公	-10.7787
談	-10.7787
蔡般	-10.779
也吾	-10.779
適子	-10.7792
周礼	-10.7794
越竟	-10.7795
救蔡	-10.7795
皆可	-10.7796
則諸侯	-10.7801
聖人所	-10.7806
獻舞	-10.781
貧	-10.781
羣公	-10.7812
各自	-10.7814
賈季	-10.7817
李氏	-10.7818
修好	-10.7819
伐鄭而	-10.7822
漷	-10.7823
能為	-10.7823
毫	-10.7824
無能為	-10.7825
大火	-10.7826
10.2	-10.7827
鄅	-10.7828
息民	-10.7829
危之	-10.7831
往來	-10.7832
參盟	-10.7832
郑玄云	-10.7833
侯犯	-10.7834
又見	-10.7835
姜姓	-10.7837
元年春	-10.7838
未賜族	-10.7838
而作	-10.7841
姜戎	-10.7846
知其為	-10.7849
之義故	-10.7849
祝柯	-10.785
秋大水	-10.7853
訪	-10.7853
里有	-10.7854
豕韋	-10.7854
長子	-10.7855
卑者	-10.7856
板	-10.7856
浩	-10.7856
一言	-10.7858
則無以	-10.7858
佞	-10.7859
者彼	-10.786
開封府	-10.786
伊川	-10.7861
竄	-10.7862
潁川	-10.7862
宋魯	-10.7863
師而	-10.7867
康侯胡氏曰	-10.7868
士魴	-10.7868
縣北有	-10.7869
振旅	-10.787
敗諸	-10.787
也春秋書	-10.7871
不疑	-10.7878
沈子	-10.7878
得立	-10.7881
勝之	-10.7881
齊靈	-10.7887
矣且	-10.7889
溢	-10.7891
百七十	-10.7892
慼	-10.7892
結好	-10.7892
必欲	-10.7892
什一	-10.7896
燬	-10.7898
袁婁	-10.7899
何以不名	-10.7899
宣榭	-10.79
之災	-10.79
以地	-10.7904
故名	-10.7904
公榖作	-10.7906
之言曰	-10.7908
此見	-10.7908
者凡	-10.7908
曰天	-10.7911
夏后	-10.7911
呉師	-10.7912
之端	-10.7913
事有	-10.7914
元公	-10.7915
上大夫	-10.7918
周大夫	-10.7919
之心而	-10.7919
難故	-10.7921
四夷	-10.7922
贊	-10.7925
亨	-10.7925
見前	-10.7926
鞭	-10.7931
不可為	-10.7931
燠	-10.7932
少姜	-10.7935
書其名	-10.7936
孔子之	-10.7937
以惡	-10.7938
矣然則	-10.7939
為首	-10.7943
内外之	-10.7944
為下	-10.7947
例時	-10.7947
此獨	-10.7953
仁義	-10.7957
又非	-10.7958
誤作	-10.7958
汪氏	-10.7958
以志	-10.796
仰	-10.796
淹	-10.7962
縮	-10.7963
穿鑿	-10.7968
蠻荆	-10.7969
佞夫	-10.797
不可復	-10.797
字也	-10.7971
此所謂	-10.7973
出奔陳	-10.7975
譏之也	-10.7979
先歸	-10.798
聖王	-10.7981
采地	-10.7982
此之謂	-10.7986
黍	-10.7992
髠	-10.7994
踈	-10.7996
穴	-10.7996
錦	-10.7997
傳例曰	-10.7998
知之矣	-10.7999
大夫專	-10.8001
合諸侯以	-10.8003
伯姬之	-10.8006
有四	-10.8009
是言	-10.8015
晉殺其大夫	-10.8017
榮叔	-10.8018
楚王	-10.802
所逐	-10.8022
四年春	-10.8027
詩人	-10.803
天下無	-10.803
乙夘	-10.8031
使魯	-10.8033
公怒	-10.8034
絀	-10.8034
廢立	-10.8034
桷	-10.8035
子囊	-10.8035
桓十	-10.8036
所以别	-10.8037
連兵	-10.804
則書之	-10.8041
不特	-10.8043
禍也	-10.8047
中山	-10.805
百六十	-10.8056
蟄	-10.8057
豫章	-10.8057
而猶	-10.8058
其謀	-10.806
勑	-10.806
也公羊傳	-10.8061
以往	-10.8062
不詳	-10.8062
暱	-10.8067
簡王	-10.8068
衛國	-10.8072
也陳氏曰	-10.8073
齊人宋人	-10.8078
之所為	-10.8079
命卿	-10.8079
之罪而	-10.8085
政刑	-10.8088
繼書	-10.8088
晉獻	-10.809
者衆	-10.8091
毗	-10.8097
随	-10.8098
臘	-10.8099
不和	-10.81
苑	-10.8101
違命	-10.8103
傳例	-10.8104
雨雪	-10.8105
黒壤	-10.8106
噫	-10.8106
及楚平	-10.8109
皆言	-10.811
如莒	-10.8111
無政	-10.8112
三十三年	-10.8115
嵗首	-10.8115
公子遂如齊	-10.8115
莫敖	-10.8115
蔡昭	-10.8116
入齊	-10.8118
六年春王正月	-10.8125
南鄙	-10.8126
藝	-10.813
而自立	-10.813
艮	-10.8131
揮	-10.8133
朝也	-10.8133
徵舒	-10.8134
鷁	-10.8138
戢	-10.814
為非禮	-10.814
繼世	-10.814
爲君	-10.814
微矣	-10.8143
毁之	-10.8144
衞地	-10.8145
使告	-10.8147
士燮	-10.8148
謝氏曰	-10.815
垂戒	-10.8155
廢置	-10.8155
諸侯相	-10.8155
不止	-10.8157
趙氏鵬飛曰	-10.8157
大廟	-10.8162
逆后	-10.8163
檢	-10.8164
先儒謂	-10.8164
伐鼓	-10.8165
搏	-10.8168
楹	-10.8169
之類皆	-10.817
異辭	-10.8173
哀侯	-10.8173
無二	-10.8173
彘	-10.8176
為利	-10.8177
本意	-10.8179
稱國以弑	-10.8186
狐偃	-10.8186
貢賦	-10.8189
為楚所	-10.8189
尹子	-10.819
為之請	-10.8192
不畏	-10.8195
問焉	-10.8196
宰咺	-10.8197
也周禮	-10.8198
皆稱人	-10.82
趙文子	-10.8201
然亦	-10.8202
覊	-10.8206
為人臣	-10.8209
畆	-10.8209
國之大事	-10.8209
或云	-10.8215
以國氏	-10.8217
舉國	-10.8222
同文	-10.8223
縣今	-10.8223
是無	-10.8223
宣子曰	-10.8226
且告	-10.823
宗廟之	-10.8233
大路	-10.8234
取之也	-10.8236
伯子男	-10.8236
求諸侯	-10.8236
姊妹	-10.8237
披	-10.8239
而再	-10.8239
朝晉	-10.8241
於内	-10.8241
范鞅	-10.8243
治也	-10.8243
亦不能	-10.8243
所立	-10.8245
鄭公子	-10.8245
無備	-10.8248
縣境	-10.8248
必敗	-10.825
繫於	-10.8251
逆者	-10.8252
湨梁	-10.8252
其所為	-10.8252
復見	-10.8254
但以	-10.8255
此何以	-10.8256
遂事	-10.8258
恐其	-10.8261
無一	-10.8267
三家之	-10.8268
不知所	-10.8269
匠	-10.8269
公子牙	-10.8271
以禦	-10.8273
文二年	-10.8275
觀社	-10.8277
使者	-10.8279
其女	-10.8279
之所在	-10.8279
昏姻	-10.828
億	-10.828
汶	-10.828
大倫	-10.8282
若其	-10.8283
夀夢	-10.8285
宋督	-10.8287
既不能	-10.8287
月日	-10.8289
僖二十	-10.8289
而名之	-10.8289
陳哀	-10.8291
范文子	-10.8295
始書	-10.8298
殺之也	-10.8304
冥	-10.831
超	-10.831
英	-10.831
宋以	-10.8314
禹貢	-10.8315
揜	-10.8315
所殺	-10.8318
未幾	-10.8318
8.	-10.8322
子南	-10.8327
無極	-10.8332
匡王	-10.8332
為此盟	-10.8333
東海	-10.8333
雞父	-10.8334
今君	-10.8334
鄭伯使	-10.8341
故經	-10.8344
曽孫	-10.8345
存焉	-10.8347
廏	-10.8348
墟	-10.835
確	-10.8353
翬帥師	-10.8355
深切著明	-10.8356
而外	-10.8356
絶之也	-10.8356
夏陽	-10.8358
樂大心	-10.836
焉注	-10.8362
婦姜	-10.8364
公不與盟	-10.8366
為于偽反	-10.8371
期而	-10.8374
宗社	-10.8376
敗而	-10.8379
誦	-10.8383
必亡	-10.8384
黷	-10.8385
始見	-10.8388
駁	-10.8389
伐喪	-10.8393
公羊穀梁	-10.8393
齊世子光	-10.8394
公子雍	-10.8395
原仲	-10.8396
鄭莊公	-10.8396
君死	-10.8404
者是也	-10.8405
赴以名	-10.8405
坐視	-10.8406
而出奔	-10.8408
之憂	-10.841
伯父	-10.8411
亡乎	-10.8415
為太子	-10.8415
不思	-10.8422
文侯	-10.8423
成禮	-10.8424
􁋎	-10.8424
怒而	-10.8425
大雨雪	-10.8425
迨	-10.8425
得志於	-10.8426
鞌之戰	-10.8427
而食	-10.843
欲立之	-10.843
知所	-10.8433
之文也	-10.8433
書㑹	-10.8435
清丘	-10.8436
子尾	-10.8436
隠元年	-10.8437
成十五年	-10.8441
意在	-10.8441
以濟	-10.8448
共仲	-10.845
自當	-10.8458
蘇氏曰	-10.8458
長勺	-10.8462
漳	-10.8463
貴者	-10.8471
祝史	-10.8472
惡乎	-10.8477
者哉	-10.848
命於天子	-10.8482
附楚	-10.8484
殺太子	-10.8484
以為君	-10.8487
▁榖梁傳	-10.8488
極矣	-10.8492
閔之	-10.8493
徑	-10.8494
書此	-10.8495
楚共	-10.8495
從赴	-10.8504
使臣	-10.8504
不待貶絶而	-10.8504
先入	-10.8505
之神	-10.8511
定矣	-10.8514
相類	-10.8515
公孟	-10.8518
之側	-10.8519
宋公陳侯	-10.8526
不書王	-10.8527
殄	-10.8527
之首	-10.8529
巨	-10.8529
賛	-10.8529
名為	-10.8531
書救	-10.8532
諼	-10.8536
石門	-10.8536
昆吾	-10.8536
姓氏	-10.8537
也天子	-10.8541
且曰	-10.8544
藏之	-10.8551
淮南	-10.8556
沂州	-10.8561
衣服	-10.8563
瑣	-10.8563
瑗	-10.8563
献	-10.8565
嫡子	-10.8568
稻	-10.857
判	-10.8571
蒯瞶	-10.8571
喪禮	-10.8572
7.1	-10.8572
制也	-10.8573
城中城	-10.8573
先至	-10.8575
鄭厲	-10.8576
晉厲	-10.8577
陳宣	-10.8577
常禮	-10.8579
魯卿	-10.858
公子棄疾	-10.8584
其理	-10.8588
鄭子	-10.8589
水名	-10.8592
楚大夫	-10.8597
魴	-10.8597
樓	-10.8597
楯	-10.8599
禮天子	-10.86
焉得	-10.86
四十里	-10.86
袒	-10.86
晉命	-10.8601
晉將	-10.8602
嘆	-10.8602
終於	-10.8603
隘	-10.8603
寳玉大弓	-10.8605
南宫	-10.8605
4	-10.8606
不殺	-10.8611
晉霸	-10.8611
及鄭平	-10.8611
而不服	-10.8615
12.	-10.8615
四日	-10.8617
無惡	-10.8618
所以正	-10.8618
説文	-10.8621
人之國	-10.8624
楚自	-10.8627
曹伯來朝	-10.8627
冡	-10.8631
誥	-10.8632
此是	-10.8633
賢君	-10.8634
杖	-10.8634
磬	-10.8638
歆	-10.8638
者欲	-10.8638
于扈	-10.8641
伐邢	-10.8641
楚雖	-10.8645
小大	-10.8645
憑陵	-10.865
欲與	-10.8651
稱婦	-10.8651
所用	-10.8652
徳之	-10.8652
康公	-10.8653
義理	-10.8653
穆王	-10.8654
以示譏	-10.8665
為之諱	-10.8666
制之	-10.8667
唁公	-10.8669
芒	-10.8671
奔走	-10.8672
得罪	-10.8674
蒼	-10.8676
泄	-10.8676
朝魯	-10.8677
3.2	-10.8678
熙	-10.8679
費無極	-10.8679
之朝	-10.8679
有罪矣	-10.8684
夫人姜氏如齊	-10.8687
故書之	-10.8687
泰山孫氏曰	-10.8687
長而	-10.8687
其稱人何	-10.869
近之	-10.8693
非其所	-10.8698
宣十二年	-10.8699
之學	-10.8701
昆	-10.8703
諱公	-10.8703
豕	-10.8704
將下軍	-10.8705
亂故	-10.8705
曰取	-10.8706
髙祖	-10.8706
澨	-10.8707
姪娣	-10.8707
二國之	-10.8711
悔過	-10.8716
知非	-10.8717
為盟	-10.8718
河上	-10.8718
其國家	-10.8721
政在	-10.873
叛而	-10.8732
之境	-10.8732
也是時	-10.8732
私邑	-10.8733
君臣之分	-10.8734
在春秋	-10.8735
陽州	-10.8737
廪	-10.8737
大亂	-10.8738
身為	-10.8743
而民	-10.8744
城郭	-10.8744
以字	-10.8745
膏	-10.8745
山林	-10.8746
宜矣	-10.8746
而後言	-10.875
送女	-10.8751
孫良夫	-10.8755
成季	-10.8758
衛孫林父	-10.8761
愚案	-10.8765
齊難	-10.8767
欲求	-10.8768
而取	-10.8768
取國	-10.8769
好也	-10.8771
止公	-10.8773
之賂	-10.878
劉單	-10.8782
某人	-10.8783
宣十年	-10.8786
亮反	-10.8788
縛	-10.8789
内臣	-10.8789
稔	-10.879
明徳	-10.8791
臧紇	-10.8792
亦可以	-10.8793
癸夘	-10.8793
盡矣	-10.8793
子蟜	-10.8793
害也	-10.8796
髠頑	-10.8797
城縁陵	-10.8799
游吉	-10.88
許嫁	-10.88
臣聞	-10.88
劉敞曰	-10.8801
乞盟	-10.8801
敗楚	-10.8804
欲殺	-10.8805
不能制	-10.8807
葉氏曰	-10.8808
㔻鄭	-10.8812
僖四年	-10.8814
亦作	-10.8815
兩事	-10.8816
晝	-10.8818
利害	-10.8818
而天下	-10.8819
呉楚	-10.8821
弭兵	-10.8822
歷	-10.8824
乱	-10.8826
後來	-10.8827
三時	-10.8829
狥	-10.883
子路	-10.8831
刘	-10.8831
之號	-10.8831
十有二年春	-10.8832
記曰	-10.8838
齊侯鄭伯	-10.8839
天變	-10.884
來伐	-10.8842
四人	-10.8843
無氷	-10.8843
而始	-10.8846
有辭	-10.8847
易也	-10.8852
之黨也	-10.8852
薛伯	-10.8854
乃與	-10.8854
以免	-10.886
救衛	-10.886
沃	-10.886
毁其	-10.8865
微子	-10.8867
丁夘	-10.8867
報反	-10.8867
執宋公	-10.8868
禮諸侯	-10.8872
之門	-10.8873
意恢	-10.8874
而即	-10.8875
不度	-10.8876
於吳	-10.8876
奔宋	-10.8885
11.	-10.8885
致者	-10.8886
踰時	-10.889
縠	-10.889
箴	-10.8892
譏也	-10.8893
邿	-10.8895
隣國	-10.8896
田賦	-10.8897
來赴	-10.8897
城門	-10.8897
録其	-10.8897
諸臣	-10.8898
其祖	-10.8904
抱	-10.8905
兄弟之	-10.8907
伯宗	-10.8908
八佾	-10.8909
當然	-10.8909
知是	-10.891
正義曰此	-10.891
僭王	-10.891
之名也	-10.8911
尚未	-10.8912
曰然則	-10.8913
胡沈	-10.8918
以請	-10.8924
譬	-10.8925
救也	-10.8927
不知何	-10.8927
安得不	-10.8929
夷末	-10.8934
曰伐	-10.8934
强大	-10.8934
曰諾	-10.894
㳺	-10.894
扈之盟	-10.8942
憫	-10.8946
不可知	-10.8948
齊慶封	-10.8952
汝南	-10.8953
次國	-10.8955
子旗	-10.8956
劉炫云	-10.8957
貶而稱人	-10.8964
郤氏	-10.8964
是已	-10.8965
以大義	-10.8966
文子曰	-10.8967
可得而	-10.8967
禰	-10.897
旂	-10.8972
欲得	-10.8972
印	-10.8973
扞	-10.8973
縣南有	-10.8974
桓五年	-10.8974
禚	-10.8976
甗	-10.8977
北宫	-10.8979
揆	-10.8979
頑	-10.898
則已	-10.8984
內	-10.8986
傳聞	-10.8988
小寢	-10.899
西宫	-10.8996
能救	-10.8998
解之	-10.9
上辛	-10.9
致伐	-10.9004
讞曰	-10.9006
衰矣	-10.9007
齊衞	-10.9008
名實	-10.9008
穀作	-10.9008
斥言	-10.901
守國	-10.9012
骨	-10.9014
已絶	-10.9016
趙子	-10.9019
鋒	-10.9019
誼	-10.902
之西	-10.9021
子胥	-10.9022
公圍成	-10.9023
南郡	-10.9023
明王	-10.9027
秦人伐晉	-10.9031
之母弟	-10.9034
當誅	-10.9035
宣元年	-10.9035
僂	-10.9046
厥貉	-10.9047
賣	-10.9048
發傳	-10.9049
湫	-10.9049
桓十五年	-10.9053
報復	-10.9053
賤之	-10.9054
法度	-10.9054
踊	-10.9055
城北	-10.9056
誇	-10.9059
對曰臣	-10.906
再娶	-10.906
柳	-10.906
百二十	-10.9063
此為	-10.9064
其詞	-10.9066
祝丘	-10.9066
頃王	-10.9067
台	-10.9068
深罪	-10.9069
愛其	-10.907
異者	-10.9071
六日	-10.9074
沈尹	-10.9075
而巳	-10.9076
宣八年	-10.9076
之常也	-10.9078
然後知	-10.9078
為天下	-10.9083
㑹于扈	-10.9084
凡例	-10.9085
自稱	-10.9085
陽氣	-10.9086
諸侯之事	-10.9087
帝丘	-10.9087
虞虢	-10.9088
上書	-10.909
逵	-10.9091
閨	-10.9091
公欲	-10.9092
梓慎	-10.9095
言之也	-10.9096
題	-10.9096
世變	-10.9097
正大	-10.9099
隕霜	-10.9099
臯鼬	-10.91
今改正	-10.91
得書	-10.9114
不言出	-10.9114
遂與	-10.9115
稱及	-10.9117
周旋	-10.9118
伐山戎	-10.912
易之	-10.9121
病矣	-10.9121
家氏鉉翁曰	-10.9125
岸	-10.913
兵力	-10.913
亞	-10.913
舛	-10.9132
阪	-10.9134
周地	-10.9135
宋災故	-10.9142
徐州	-10.9143
人主	-10.9145
孫氏復曰	-10.9146
長葛	-10.9148
微之	-10.915
一曰	-10.9151
郯子	-10.9153
魯亦	-10.9154
㑹𦵏	-10.9156
子犯	-10.9157
不勝其	-10.9159
帥諸侯	-10.916
建子	-10.9161
周衰	-10.9162
又東	-10.9165
會而	-10.9165
佾	-10.9168
外之也	-10.9169
矛	-10.917
而走	-10.9171
亾	-10.9173
異故	-10.9179
來戰	-10.918
終不	-10.918
月也	-10.9184
取鄫	-10.9184
時事	-10.9187
此聖人	-10.9188
恥也	-10.9188
族也	-10.9191
逆王后	-10.9191
而加	-10.9193
事楚	-10.9194
為可	-10.9194
杞子	-10.9195
天下後世	-10.9197
放之	-10.9199
公朝	-10.9204
2	-10.9207
寘諸	-10.9208
而稱人	-10.9211
畏其	-10.9212
溪	-10.9212
潜	-10.9213
南方	-10.9213
則可以	-10.9221
服虔云	-10.9222
姒氏	-10.9224
有所不	-10.9225
新軍	-10.9226
之術	-10.9226
而用之	-10.9227
周王	-10.9228
簒弑之	-10.923
卒于師	-10.923
巫臣	-10.9234
則名	-10.9237
分為	-10.9242
免牛	-10.9246
善道	-10.9247
杜氏云	-10.9247
想	-10.9247
樵	-10.9248
芻	-10.9248
抽	-10.925
者非也	-10.9251
来歸	-10.9253
姞	-10.9253
被弑	-10.9256
者春秋	-10.9258
凡三	-10.9258
司宼	-10.9259
猾夏	-10.926
魏舒	-10.926
星孛	-10.926
未嘗不	-10.926
載之	-10.9263
于洮	-10.9263
繼事	-10.9264
民無	-10.9264
於季氏	-10.9265
此意	-10.9267
後同	-10.9269
有罪而	-10.927
太公	-10.927
文九年	-10.9272
三望	-10.9273
王叔	-10.9275
彼注云	-10.9276
3.1	-10.9276
勤王	-10.9278
而動	-10.9281
東郡	-10.9282
自以為	-10.9283
成十八年	-10.9285
秦之	-10.9286
渡	-10.9287
言取	-10.9289
做	-10.929
求金	-10.9292
之處	-10.9293
䕫	-10.9293
时	-10.9295
一例	-10.9295
中有	-10.9296
三十三	-10.9296
処	-10.9296
先王之制	-10.9297
有異	-10.9297
子華	-10.9297
惟其	-10.9298
喪服	-10.9301
聴命	-10.9302
子鮮	-10.9302
文七年	-10.9305
如此則	-10.9306
曰寡人	-10.9308
三卜	-10.9313
藻	-10.9317
公㑹諸侯	-10.9317
簡書	-10.9318
得意	-10.9319
此春秋所以	-10.9321
按此	-10.9322
在後	-10.9322
微者也	-10.9322
遄	-10.9325
壻	-10.9325
▁汪氏克寛曰	-10.933
此文	-10.933
而況	-10.9333
所據	-10.9334
榖梁以為	-10.9338
升陘	-10.9339
疑其	-10.9343
不忌	-10.9343
也汪氏曰	-10.9346
2.1	-10.9347
及其大夫	-10.9348
南子	-10.9348
旅見	-10.935
子蕩	-10.935
强暴	-10.9352
晉郤缺	-10.9352
權在	-10.9356
閼	-10.9356
賜族	-10.9357
如齊逆女	-10.9357
戴公	-10.9357
鄟	-10.9357
成功	-10.9359
張氏洽曰	-10.936
衛靈	-10.936
略之也	-10.9361
又反	-10.9363
近楚	-10.9364
君子以	-10.9366
隱之	-10.9366
汰	-10.9367
而專	-10.9373
集解	-10.9373
圍齊	-10.9374
受命而	-10.9374
者雖	-10.9376
奕	-10.9376
之為言	-10.9377
盖以	-10.9378
朔日	-10.9382
但曰	-10.9383
待命	-10.9384
入滑	-10.9385
公㑹宋公	-10.9386
則此	-10.9387
其舊	-10.939
公如京師	-10.9394
在所	-10.9395
雖未	-10.9397
晉平公	-10.9397
為中國	-10.9398
狄滅	-10.9399
四海	-10.9399
以疾	-10.9399
信義	-10.9401
所以深	-10.9403
公孫嬰齊	-10.9403
則春秋	-10.9404
瓦屋	-10.9409
見討	-10.941
舎之	-10.9413
昆弟	-10.9413
以結	-10.9418
朝禮	-10.9419
于郎	-10.9421
其國都	-10.9423
今考	-10.9424
以爵	-10.9428
始祖	-10.9428
是嵗	-10.943
無忌	-10.943
納子糾	-10.9431
鄬	-10.9434
謂此	-10.9436
用人	-10.9438
牟婁	-10.9444
貺	-10.9445
㫁	-10.9445
翩	-10.9447
用民力	-10.9447
尊者	-10.9448
之妾	-10.9448
無罪也	-10.9449
納朔	-10.9449
憑	-10.9452
公孫蠆	-10.9452
蹈	-10.9452
懸	-10.9454
不設備	-10.9454
則否	-10.9457
内則	-10.9457
季孫宿如晉	-10.9464
修徳	-10.9466
西鄙	-10.9468
以觀	-10.9471
弗克納	-10.9472
左氏載	-10.9477
荀呉	-10.9478
納賂	-10.948
政在大夫	-10.9482
刖	-10.9483
8	-10.9484
弑立	-10.9486
廐	-10.9487
穎	-10.9488
壓	-10.9489
者唯	-10.949
此條	-10.9491
城杞	-10.9491
明堂位	-10.9491
始得	-10.9494
絕	-10.9494
同盟于幽	-10.9495
遷於	-10.95
不亡	-10.9508
猶言	-10.9512
未陳	-10.9512
叔帶	-10.9513
歸祊	-10.9517
6.	-10.9519
故貶	-10.9523
所自出	-10.9528
鶉火	-10.9528
鴻	-10.9528
弒	-10.9529
婦道	-10.953
華臣	-10.953
子期	-10.9531
寕	-10.9532
衮	-10.9532
之讎	-10.9536
在鄭	-10.9536
杜氏謂	-10.9537
死生	-10.9537
楚邑	-10.9542
齊侯伐我北鄙	-10.9543
不知有	-10.9549
時王	-10.9551
諸侯不得	-10.9551
以表	-10.9554
公穀作	-10.9554
而廢	-10.9559
反又音	-10.9559
三十五	-10.9559
適晉	-10.9562
文十二年	-10.9563
禀	-10.9566
貶稱人	-10.957
加兵	-10.957
踵	-10.9571
納諸	-10.9572
記其	-10.9572
受盟于	-10.9577
公㑹晉侯齊侯宋公	-10.9577
宜申	-10.9577
以説	-10.9578
元妃	-10.9579
春夏	-10.958
致死	-10.958
哉且	-10.9583
屬辭	-10.9587
天子大夫	-10.959
邾婁子	-10.9592
厲王	-10.9593
别種	-10.9597
長狄	-10.9599
王父	-10.9601
受命于	-10.9602
狄泉	-10.9605
華向	-10.9605
我先君	-10.9606
也雖然	-10.9606
以德	-10.9607
鄔	-10.9608
庀	-10.9608
以伐之	-10.9609
闢	-10.9609
宏	-10.961
向戍	-10.961
之序	-10.9613
未知其	-10.9614
尽	-10.9616
以伐鄭	-10.9618
則皆	-10.9618
曰夫子	-10.9619
所稱	-10.9625
荀首	-10.9626
史文	-10.9627
此㑹	-10.9633
爭國	-10.9635
巷	-10.9644
非王命	-10.9646
禳	-10.9651
鄸	-10.9653
公榖皆	-10.9653
錮	-10.9653
境内	-10.9655
文十四年	-10.9657
不日者	-10.9662
雖以	-10.967
百五十	-10.9676
對曰君	-10.968
解經	-10.9684
之急	-10.9685
能自	-10.9688
品	-10.9688
狗	-10.9689
鮒	-10.9689
五年春王正月	-10.9691
以别之	-10.9692
時有	-10.9692
義不可	-10.9693
可考	-10.9694
觧云	-10.9694
其君者	-10.9701
許男曹伯	-10.9704
晉定	-10.9704
待於	-10.9706
不得有	-10.9706
賻	-10.9708
字林	-10.9709
不毁	-10.9712
劉向	-10.9713
令諸侯	-10.9713
之極	-10.9715
不往	-10.9717
之所由	-10.9718
憖	-10.9719
修春秋	-10.972
之師也	-10.9722
蝝	-10.9723
以封	-10.9725
猶存	-10.9725
絲	-10.9731
納者	-10.9732
濼	-10.9732
譙	-10.9733
然春秋	-10.9733
恱	-10.9735
于某	-10.9735
不須	-10.9736
廧咎如	-10.9742
發明	-10.9743
不時也	-10.9745
㔻	-10.9748
其將	-10.975
讓之	-10.9753
賈逵云	-10.9754
公子宋	-10.9757
書卒者	-10.9757
美之	-10.9759
恃其	-10.9765
齊景公	-10.9765
二十有八年	-10.9766
旄	-10.9769
髮	-10.9771
觀魚	-10.9772
請之	-10.9775
五廟	-10.9776
臧武仲	-10.9777
子亹	-10.9784
之主也	-10.9786
重言	-10.9787
大師	-10.9789
而與之盟	-10.9789
自古	-10.9793
故不得	-10.9795
師衆	-10.9801
本國	-10.9802
文十五年	-10.9803
西戎	-10.9803
專封	-10.9807
曰侵	-10.9814
非我	-10.9815
棼	-10.9816
以守	-10.9817
許靈公	-10.9817
舊好	-10.9817
握	-10.9817
犨	-10.9818
北鄙	-10.982
家父	-10.982
大蒐于比蒲	-10.9821
公鉏	-10.9822
歸國	-10.9822
王室之	-10.9825
獻㨗	-10.9826
賊不討	-10.9826
以示貶	-10.983
懼楚	-10.983
尚有	-10.9834
非伯討	-10.9835
不可通	-10.9837
雖曰	-10.9839
安定	-10.984
有闕	-10.9843
公羊以	-10.9844
以殺	-10.9848
臣弑君	-10.9849
自謂	-10.9849
攷之	-10.985
强而	-10.9851
僻	-10.9857
各以	-10.9858
措	-10.986
也昭公	-10.9861
不以名	-10.9862
外災	-10.9865
潞氏	-10.9868
入于櫟	-10.987
攘夷狄	-10.9872
季孫曰	-10.9875
許人	-10.9876
五世	-10.9879
之祖	-10.9879
為天子	-10.9883
將上軍	-10.9883
魯郊	-10.9887
則雖	-10.9888
列于	-10.9888
刺之	-10.9893
鴆	-10.9893
如晋	-10.9894
蔿	-10.9895
必有所	-10.9896
北戎	-10.9899
于温	-10.9899
臨淄	-10.9899
埋	-10.99
昭五年	-10.99
銜	-10.9901
大室	-10.9903
吿	-10.9905
曁	-10.9907
十有一年春王正月	-10.991
反國	-10.9911
以起	-10.9914
畿	-10.9922
不責	-10.9924
諸侯莫	-10.9925
又以為	-10.9925
襄二十九年	-10.9927
故不稱	-10.993
書于䇿	-10.9931
强楚	-10.9932
秋大雩	-10.9934
歜	-10.9938
取向	-10.9938
奠	-10.9938
拯	-10.994
當作	-10.9941
粢盛	-10.9942
怯	-10.9942
洪	-10.9943
可勝	-10.9944
穆伯	-10.9947
拠	-10.9948
于天下	-10.9949
列於	-10.9954
長歴	-10.9955
待人	-10.9958
韓子	-10.9958
齊人歸	-10.9962
不赦	-10.9963
陳氏傳曰	-10.9966
記異也	-10.9967
從中國	-10.9968
陪	-10.9968
一句	-10.9969
而誅之	-10.9972
假令	-10.9974
予奪	-10.9974
以聽	-10.9975
也胡安國曰	-10.9975
以威	-10.9978
武父	-10.9978
鄶	-10.9979
告急	-10.9979
傳謂	-10.9982
僖十五年	-10.9984
孚	-10.9984
求婦	-10.9984
何以書記異也	-10.9986
朝正	-10.9988
城邑	-10.9989
未入	-10.9992
奔鄭	-10.9993
高子	-10.9995
晉自	-10.9996
氏族	-10.9996
父命	-10.9999
紀叔姬	-11.0001
其事則	-11.0002
妄也	-11.0004
吕氏	-11.0005
稱人以殺	-11.0007
以示義	-11.0007
陽城	-11.0008
弗從	-11.001
取濟西田	-11.0011
南有	-11.0011
為長	-11.0012
閔僖	-11.0013
不予	-11.0016
鯀	-11.0017
昔陽	-11.002
以著其罪	-11.0021
斟	-11.0023
而復之	-11.0026
諺	-11.0027
貸	-11.0028
憲	-11.0028
仍叔之子	-11.003
改為	-11.0043
國之大	-11.0047
與公盟	-11.0049
主夏盟	-11.005
高厚	-11.0055
觀從	-11.0055
齊國夏	-11.0058
鄭大夫	-11.0059
必待	-11.0062
莒魯	-11.0063
失諸侯	-11.0067
藪	-11.0068
祚	-11.0068
忘親	-11.0069
掃	-11.007
改卜牛	-11.0072
邀	-11.0072
陣	-11.0074
郤錡	-11.0074
痤	-11.0075
天所	-11.0075
盟于洮	-11.0079
水經	-11.0079
下大夫	-11.0082
卜之	-11.0083
使民	-11.0087
五百	-11.0095
見義	-11.0096
郊公	-11.0097
彘子	-11.0099
注謂	-11.01
道路	-11.0102
日月之	-11.0102
為罪	-11.0102
啖氏	-11.0103
故執不知問	-11.0106
徃㑹	-11.0107
與音預	-11.0108
吐	-11.0109
屬之	-11.011
紏	-11.011
八人	-11.0111
刋	-11.0111
入曹	-11.0112
此例	-11.0115
分别	-11.0118
十二日	-11.012
要盟	-11.0121
子瑕	-11.0122
嗣是為	-11.0127
見得	-11.0127
畏晉	-11.0131
楚伐鄭	-11.0131
食邑	-11.0133
于柤	-11.0134
主名	-11.0137
冊	-11.0138
自出	-11.0139
公徒	-11.0142
齊侯衞侯	-11.0144
兵革	-11.0145
鄒	-11.0146
責魯	-11.0146
銘	-11.0147
王政	-11.0148
耳目	-11.0148
屈建	-11.0154
菅	-11.0155
而亡	-11.0156
正始	-11.0156
冡宰	-11.0161
九月大雩	-11.0163
兩下相殺	-11.0163
什	-11.0163
反徐	-11.0165
蒐狩	-11.0167
保其	-11.0172
未可知也	-11.0174
正其罪	-11.0176
采邑	-11.0177
何能	-11.0179
之請	-11.0185
與聞	-11.0189
錫之	-11.019
喪娶	-11.019
瘠	-11.0193
十五日	-11.0195
拱	-11.0196
附錄	-11.0197
陳侯鄭伯	-11.0203
公若	-11.0203
蘇氏	-11.0204
魯宋	-11.0206
河北	-11.0206
行禮	-11.0211
公在楚	-11.0211
無罪而	-11.0212
逺也	-11.0212
之心也	-11.0214
滅人之國	-11.0214
滅黄	-11.0217
出竟	-11.0219
左氏以	-11.0223
其利	-11.0225
故春秋書	-11.0228
璋	-11.0229
殪	-11.0229
謹於	-11.023
跪	-11.023
孟春	-11.0231
澆	-11.0232
茷	-11.0234
帥師圍	-11.0235
茅戎	-11.0236
非其罪	-11.0238
新君	-11.0238
俞	-11.0239
觸	-11.024
桓三年	-11.024
世世	-11.024
熾	-11.0242
東陽	-11.0243
赫	-11.0243
沿	-11.0244
誌	-11.0244
輦	-11.0245
吳越	-11.0245
新築	-11.0246
居于鄆	-11.0247
不及此	-11.0251
九日	-11.026
燕人	-11.0266
往往	-11.0273
豳	-11.0275
士伯	-11.0277
春分	-11.0281
鄭伐宋	-11.0281
裂	-11.0282
酈	-11.0283
僭天子	-11.0285
天人	-11.0285
銳	-11.0285
趙簡子	-11.0286
可以見	-11.0287
于鍾離	-11.0288
之父	-11.029
闕文也	-11.0294
武叔	-11.0295
漢儒	-11.0298
桓宣	-11.0298
僖三十三年	-11.03
黄父	-11.03
而行之	-11.0301
有言曰	-11.0302
不敵	-11.0302
成三年	-11.0302
乃謂	-11.0303
而私	-11.0305
歟曰	-11.0306
曷為不	-11.0308
甘心	-11.0313
太伯	-11.0317
昭侯	-11.0322
祭天	-11.0326
綽	-11.0326
城南	-11.0327
侵地	-11.0327
如是則	-11.0329
紀侯大去其國	-11.0329
世族譜	-11.0329
殉	-11.0331
譴	-11.0333
桓文之	-11.0333
躋僖公	-11.0334
韋昭	-11.0336
傳注	-11.0339
固當	-11.0339
石買	-11.0342
内諱	-11.0345
始此	-11.0349
大饑	-11.0349
先都	-11.0349
釋文	-11.0351
五霸	-11.0351
寵愛	-11.0352
職貢	-11.0353
知其不可	-11.0354
又東經	-11.0354
其徒	-11.0356
效死	-11.0357
也然而	-11.0358
員	-11.0366
朝天子	-11.0367
書奔	-11.0368
義取	-11.0368
石惡	-11.0369
玩	-11.0371
十四年春	-11.0371
於是有	-11.0372
卓子	-11.0373
暗	-11.0373
百一十	-11.0374
不禮焉	-11.0376
不復見	-11.0379
嚴矣	-11.0379
服䖍曰	-11.0379
衛君	-11.038
滕侯	-11.0381
也解云	-11.0395
未成君	-11.0396
乃立	-11.0398
皆非也	-11.0398
高固	-11.0399
髙平	-11.0399
改過	-11.0403
遂以為	-11.0403
不作	-11.0404
於大國	-11.0404
者何疏	-11.0406
曰彼	-11.0412
圻	-11.0414
犀	-11.0416
秦伯卒	-11.0417
檇李	-11.0417
莱	-11.0418
橋	-11.0418
當時諸侯	-11.0419
是爲	-11.042
莊十年	-11.0427
何以知	-11.0428
復讐	-11.0431
史氏	-11.0432
以此見	-11.0433
按經	-11.0438
據經	-11.0439
邳	-11.0441
既書	-11.0442
然猶	-11.0449
婢	-11.045
九世	-11.0456
來㑹葬	-11.0459
筮之	-11.0459
奬	-11.0461
鋭	-11.0464
逺近	-11.0465
曲阜	-11.0465
杜預注	-11.0465
二公子	-11.0467
一二	-11.0467
成宋亂	-11.0468
不達	-11.0469
也無成是無孟氏也子	-11.047
而不見	-11.0471
傷之	-11.0473
乗其	-11.0473
侯國	-11.0478
以此知	-11.0482
量力	-11.0486
魯既	-11.0488
而經書	-11.0489
3	-11.0492
之爭	-11.0492
漢水	-11.0493
紀事	-11.0494
共音恭	-11.0496
於京師	-11.0496
至自晉	-11.0497
羯	-11.0498
㓂	-11.0503
涇	-11.0504
屬詞	-11.0504
擅興	-11.0509
竈	-11.0509
翰	-11.051
懿子	-11.051
說文云	-11.0513
制度	-11.0514
暴虐	-11.0517
合於	-11.0518
鄆潰	-11.052
百八十	-11.0525
所以尊	-11.0525
三年之喪	-11.0526
福也	-11.0528
貴之也	-11.0529
何爲	-11.0533
尤甚	-11.0538
本義	-11.0543
鸜鵒	-11.0545
暮	-11.0545
谿	-11.0545
子帶	-11.0546
菟	-11.0547
歂	-11.0547
以臨	-11.0547
郟敖	-11.0548
不來	-11.0551
常法	-11.0552
為賊	-11.0553
䧟	-11.0554
齊女	-11.0554
之屬是也	-11.0555
可信	-11.0556
叔孫昭子	-11.0556
士蒍	-11.056
哀元年	-11.0561
夷昧	-11.0564
左氏傳曰	-11.0564
失職	-11.0565
求成于	-11.0572
自殺	-11.0572
春秋之書	-11.0576
受封	-11.0577
書至者	-11.0579
舉之	-11.058
鑑	-11.0583
無别	-11.0583
伐虢	-11.0591
疑之	-11.0592
不亦難乎	-11.0595
百世	-11.0597
甯殖	-11.0601
卿不書	-11.0601
地闕	-11.0602
不可廢	-11.0606
楚鄭	-11.0607
著例	-11.0607
雖非	-11.0609
于首止	-11.0609
有國者	-11.0611
入其國	-11.0615
善人	-11.0617
十有五年春	-11.0623
榖梁子曰	-11.0623
來魯	-11.0626
非其罪也	-11.0626
耆	-11.0627
隂氣	-11.0627
其徳	-11.0628
知武子	-11.0628
主諸侯	-11.0628
在其中	-11.0629
實為	-11.0629
戰勝	-11.063
事見	-11.0631
善善	-11.0632
西方	-11.0633
愎	-11.0634
郇	-11.0634
此戰	-11.0635
瓜	-11.0635
希	-11.0635
伋	-11.0635
修之	-11.0637
幸其	-11.0638
有變	-11.0642
相命	-11.0643
又言	-11.0644
叢	-11.0646
衰絰	-11.0647
猶能	-11.0648
記云	-11.0649
異文	-11.0649
少師	-11.0651
之事則	-11.0654
耳若	-11.0657
反哭	-11.0657
隠桓	-11.0658
扶又	-11.0658
北燕伯	-11.0665
考其	-11.0667
爵命	-11.0668
昭十二年	-11.0669
召王	-11.067
先大夫	-11.0671
不言滅	-11.0671
身死	-11.0673
甲士	-11.0674
先晉	-11.0681
而使之	-11.0682
伺	-11.0683
晨	-11.0683
収	-11.0684
違禮	-11.0685
遲速	-11.0691
齊東野人之	-11.0694
大夫將	-11.0695
四卜	-11.07
可以為	-11.07
成人	-11.0701
大率	-11.0704
可畏	-11.0705
尊王室	-11.0706
風俗	-11.0707
吳之	-11.0707
居喪	-11.071
際	-11.0712
其國而	-11.0712
梁山	-11.0712
曰吾聞	-11.0716
.8	-11.0716
後言	-11.0719
此春秋之	-11.0719
策書	-11.0722
聃	-11.0722
于公	-11.0724
股	-11.0726
馭	-11.0727
卿佐	-11.0727
伯州犂	-11.0727
靳	-11.0728
魯女	-11.0731
儲	-11.0732
償	-11.0732
去其國	-11.0733
卬	-11.0734
内有	-11.0738
四十年	-11.0739
監本	-11.074
寗殖	-11.0741
起於	-11.0746
即今	-11.0747
所居	-11.0748
既已	-11.0751
不戰	-11.0755
定六年	-11.0756
為賢	-11.0758
不敏	-11.0761
于大廟	-11.0761
柴	-11.0767
矣是故	-11.0767
來乞師	-11.0767
二公	-11.0768
相親	-11.0768
丁卯	-11.077
深責	-11.0771
叛君	-11.0771
滯	-11.0772
之願也	-11.0772
齊威	-11.0773
潔	-11.0774
生而	-11.0775
昏禮	-11.0775
以說	-11.0776
秘	-11.0777
甚之也	-11.0778
豈敢	-11.0778
向魋	-11.0779
巻	-11.0779
不可使	-11.078
一邑	-11.078
所獲	-11.0782
疾病	-11.0787
觀兵	-11.0788
人人	-11.0791
榖梁謂	-11.0792
季平子	-11.0793
少康	-11.0794
視朔	-11.0797
而不與	-11.0798
家氏	-11.0799
幾亡	-11.08
来盟	-11.0804
其類	-11.0804
者不以	-11.0805
報聘	-11.0807
人民	-11.0807
仗	-11.0809
不與焉	-11.0809
也何以不言	-11.0813
笄	-11.0815
安民	-11.0815
隱元年	-11.0816
魄	-11.0818
梅	-11.0819
五大	-11.082
氾	-11.0822
9.	-11.0825
三郤	-11.0827
及齊師戰	-11.0829
有力	-11.0832
未服	-11.0832
蝝生	-11.0834
城内	-11.0835
以次	-11.0839
者不與	-11.0839
直云	-11.0839
曹南	-11.0844
楚既	-11.0845
罃	-11.085
季姜	-11.0851
楚方	-11.0853
辭之	-11.0855
丘縣	-11.0857
來求	-11.0858
肄	-11.0859
諜	-11.0861
賊殺	-11.0863
昭七年	-11.0864
榆	-11.0866
闈	-11.0867
衰世	-11.0867
晉士鞅	-11.0869
紛紛	-11.0869
疲	-11.0871
一事也	-11.0872
恤民	-11.0873
鄟陵	-11.0873
晉趙鞅謂邯鄲午曰歸我衞貢五百家	-11.0877
無主	-11.0878
累上	-11.0879
胡氏以為	-11.088
此經	-11.088
得專	-11.0882
召諸侯	-11.0884
叔還	-11.0887
孫蒯	-11.0887
名字	-11.0891
數十	-11.0896
侵魯	-11.0896
天子命	-11.0899
申叔	-11.0899
因此	-11.09
外域	-11.0904
案傳	-11.0904
灌	-11.0906
以待之	-11.0908
瞽	-11.0908
司馬法	-11.0909
敢告	-11.091
交相	-11.091
過時	-11.091
隸	-11.0913
鳳	-11.0917
鐵	-11.0918
途	-11.0918
.10	-11.092
内難	-11.0921
衞侯鄭伯曹伯	-11.0921
萬民	-11.0921
秋八月大雩	-11.0922
會吳	-11.0922
隐公	-11.0926
魯莊	-11.0927
爲政	-11.093
也何以書	-11.0931
吾聞	-11.0933
得之矣	-11.0934
三𫝊	-11.0935
黨惡	-11.0937
祀周公	-11.0942
也經書	-11.0943
求援	-11.0943
文十八年	-11.0944
中原	-11.0946
公子偃	-11.0947
澄曰	-11.0948
乃得	-11.0948
飬	-11.0952
十有六年春王正月	-11.0954
毀	-11.0956
荐	-11.0959
亊	-11.0959
耀	-11.096
平州	-11.096
騐	-11.096
甥舅	-11.0961
阜	-11.0961
蜃	-11.0961
相攻	-11.0962
驩	-11.0964
之法也	-11.0964
擬	-11.0966
置之	-11.0969
百九十	-11.0969
成齊人必至于北門且成孟氏之保障	-11.097
賢之也	-11.0972
至尊	-11.0972
自墮之	-11.0972
其初	-11.0972
陵弱	-11.0973
庚輿	-11.0974
稱人以執	-11.0976
雜記	-11.0978
以是知	-11.0978
附錄左傳	-11.0982
盜殺	-11.0983
小邾子來朝	-11.0985
近於	-11.0989
臣聞之	-11.099
越人	-11.099
為氏	-11.099
征之	-11.0992
氏之族	-11.0995
春秋之例	-11.0995
不具	-11.0997
齊國書	-11.0999
各一	-11.1
酬	-11.1004
以戈	-11.1005
毅	-11.1006
豎牛	-11.1006
混	-11.1007
大雨雹	-11.1011
縣界	-11.1011
不能用	-11.1011
訃	-11.1011
不共戴天	-11.1012
郜鼎	-11.1013
未踰年之君	-11.1016
非仲由	-11.1016
偽不知我將不墮冬十二月公圍成弗克	-11.1017
直𨽻	-11.1017
相遇	-11.1018
爭鄭	-11.1018
爲主	-11.1019
稱兵	-11.1019
足以見	-11.1019
國之政	-11.1025
梁山崩	-11.1026
不獨	-11.1028
别為	-11.1029
王季子	-11.1031
改月	-11.1031
以抗	-11.1033
非吾	-11.1034
叔齊	-11.1036
莒邑	-11.1036
而不復	-11.1037
入邾	-11.1039
9	-11.1043
既死	-11.1043
東鄙	-11.1044
同母	-11.1047
宋元	-11.1048
私行	-11.1051
汙	-11.1051
寒暑	-11.1052
武帝	-11.1053
料	-11.1054
有道	-11.1057
貽	-11.1058
築郿	-11.1058
蒐于紅	-11.1059
蕩意諸	-11.1059
孫州仇	-11.1059
享國	-11.106
子庚	-11.1061
科	-11.1061
鄭棄其師	-11.1063
父兄皆曰不可衞是以為邯鄲	-11.1063
仲幾	-11.1065
三年春	-11.1066
公子慶父	-11.1068
動而	-11.1068
怠於	-11.107
北斗	-11.1071
褒之	-11.1072
魯濟	-11.1074
死亡	-11.1076
其首	-11.1079
叔鞅	-11.108
而𦵏	-11.1083
敗楚師	-11.1084
難乃旦反	-11.1087
遷許	-11.1088
夏姬	-11.1088
解云正以	-11.109
熒	-11.1095
朔日食	-11.1099
之甚者	-11.11
後漢志	-11.11
為之主	-11.1101
知其非	-11.1101
於先君	-11.1101
非也若	-11.1102
晉襄公	-11.1103
衛成	-11.1105
與否	-11.1105
有天下	-11.1107
庶孽	-11.1107
公子地	-11.1107
歃血	-11.1108
死節	-11.1109
去其險爾	-11.111
襲魯之事	-11.1111
郈公山不狃	-11.1111
以懲	-11.1111
恥之	-11.1115
也故春秋	-11.1117
審矣按	-11.1117
制於	-11.1122
制故因	-11.1122
文宣	-11.1124
程子傳	-11.1125
彼此	-11.1126
惡之也	-11.1126
仗義	-11.1126
夷伯	-11.1126
好惡	-11.113
月朔	-11.1131
成事	-11.1133
何耶	-11.1134
不親迎	-11.1134
攘楚	-11.1136
神明	-11.1136
所以示	-11.1137
而討之	-11.1137
復封	-11.1141
而不顧	-11.1144
紅	-11.1144
大節	-11.1147
睽	-11.115
十四日	-11.1151
錄之	-11.1151
哲	-11.1151
蔇	-11.1153
三十四	-11.1155
牡丘	-11.1156
此役	-11.1156
周道	-11.1156
去族	-11.1156
吾舍諸晉陽午許諾歸告其父兄	-11.1158
諸侯之上	-11.1159
此正所謂	-11.1159
武氏子	-11.116
始通	-11.116
孔子言于	-11.116
成六年	-11.1161
此蓋	-11.1162
于鄄	-11.1162
伯主之	-11.1163
徐音	-11.1168
詳矣	-11.1169
何待	-11.1169
伯夷	-11.1171
君無道	-11.1172
欲因	-11.1175
子欲正	-11.1176
稱氏	-11.1189
不能守	-11.119
五鹿	-11.1194
從祀先公	-11.1195
不恭	-11.1196
洪範	-11.1196
郤宛	-11.1197
盤	-11.1198
頓子	-11.1199
乃云	-11.1199
惟此	-11.12
成敗	-11.1202
突之	-11.1204
藏甲大夫無百雉之城	-11.1206
定公曰臣無	-11.1206
仲由季氏	-11.1206
削而不書	-11.1212
杜氏以為	-11.122
諸侯之卿	-11.1221
㑹于戚	-11.1222
祖父	-11.1223
齊頃	-11.1226
言戰	-11.1226
髙克	-11.1229
浪	-11.1231
削其	-11.1232
而後伐	-11.1232
之婦	-11.1233
失民	-11.1234
春秋凡	-11.1235
繞	-11.1235
秋公至自㑹	-11.1237
械	-11.1237
懐公	-11.1239
初獻六羽	-11.124
変	-11.124
湛	-11.1241
彦	-11.1242
纍	-11.1246
韓獻子	-11.1247
擁	-11.1248
成九年	-11.1249
騑	-11.1251
􁇦	-11.1252
叛費家臣之彊反恃其邑而主不能	-11.1253
孔子行乎季孫三月不違者蓋侯犯叛	-11.1253
三家必有其道矣何至使仲由為之况墮	-11.1253
言欲歸美孔子而不知其義者使孔	-11.1253
使仲由為季氏宰墮三都此蓋	-11.1253
有也十有三年秋晉趙鞅入于晉陽以叛	-11.1253
幾危其君而成又卒以叛雖妄人不為也	-11.1253
宰爾何與魯事而併得毁三都經書叔	-11.1254
帥師墮郈季孫斯仲孫何忌帥師墮費則	-11.1254
以此為	-11.1254
用郊	-11.1254
不肖	-11.1258
胥甲	-11.1259
見獲	-11.1261
治亂	-11.1263
能用	-11.1265
歸之于	-11.127
滅弦	-11.1273
魯莊公	-11.1275
既以	-11.1276
禍福	-11.1278
鄭良霄	-11.1279
未可知	-11.1281
民事	-11.1281
肆行	-11.1287
子太叔	-11.1288
譲	-11.129
謀國	-11.129
鴈	-11.1291
勃	-11.1293
私怨	-11.1293
規模	-11.1294
惡曹	-11.1299
罪惡	-11.1303
同辭	-11.1304
正寢	-11.1304
杞伯來朝	-11.1304
華督	-11.1305
虢叔	-11.1306
非常也	-11.1307
定十五年	-11.1308
文襄之	-11.1309
漢志	-11.1314
也嗚呼	-11.1316
臣民	-11.1318
求賻	-11.1322
非君命	-11.1323
也若夫	-11.1324
喪事	-11.1324
不會	-11.1326
不繫之	-11.133
相殺	-11.1331
明堂	-11.1333
齋	-11.1338
徐邈	-11.1338
巽	-11.1339
㝷	-11.134
三千	-11.1341
証	-11.1342
九年春王正月	-11.1346
郚	-11.1347
天王狩于河陽	-11.1348
至是始	-11.1348
葬我君	-11.1351
陳氏傅良曰	-11.1352
甚多	-11.1353
宋人殺其大夫	-11.1354
衞孫林父	-11.1356
大閱	-11.1357
與弑	-11.1357
不專	-11.1359
昭二十五年	-11.1361
欲令	-11.1364
襄三十年	-11.1366
康子	-11.1366
不失其	-11.1366
也趙氏曰	-11.1369
公至自伐齊	-11.1369
為近	-11.1369
▁公羊傳	-11.1371
把桓	-11.1373
商任	-11.1381
蔵	-11.1381
大夫帥師	-11.1382
臯陶	-11.1383
蔡穆	-11.1385
鄂	-11.1387
趙子常曰	-11.1388
俯	-11.1388
臭	-11.1389
沙鹿	-11.139
陸淳	-11.1391
嚚	-11.1393
諂	-11.1393
古之制也	-11.1393
濵	-11.1394
大去	-11.1395
專政	-11.14
今兹	-11.14
踰月	-11.14
舒蓼	-11.1402
所執	-11.1403
春秋之㫖	-11.1407
昭二十三年	-11.1407
紀綱	-11.1409
子家子	-11.1418
繼室	-11.1422
檀	-11.1425
莫大焉	-11.1426
死焉	-11.1429
慶鄭	-11.1429
也故以	-11.1431
晉主夏盟	-11.1431
楚武王	-11.1433
申息	-11.1433
不念	-11.1437
國之卿	-11.1439
是以有	-11.1441
秦楚	-11.1442
曼姑	-11.1444
十三年春	-11.1444
縁陵	-11.1446
改葬	-11.1451
倣此	-11.1453
宣四年	-11.1453
韓魏	-11.1455
三傳皆	-11.1458
天之所	-11.1458
衛侯朔	-11.1458
公子馮	-11.1464
椒舉	-11.1469
以幣	-11.1471
成七年	-11.148
西狩獲麟	-11.1481
凖	-11.1482
棐	-11.1483
狹	-11.1483
何休云	-11.1485
裂繻	-11.1486
而可以	-11.1487
躋	-11.1487
憗	-11.1488
何以言	-11.1488
駢	-11.1492
釈例曰	-11.1493
取邾田	-11.1493
未之有也	-11.1497
既𦵏	-11.1502
書不時也	-11.1503
公子公孫	-11.1508
入于夷儀	-11.1516
何敢	-11.1516
不直	-11.1517
小雅	-11.1518
所引	-11.1522
之力也	-11.1522
曹羈	-11.1525
不悟	-11.1528
濡	-11.1532
王都	-11.1533
邾邑	-11.1537
聖人因	-11.1539
姫	-11.154
五百里	-11.1542
莒人伐我東鄙	-11.1547
圍邑	-11.155
盟不日	-11.155
惡惡	-11.1551
祭叔	-11.1552
晉荀林父	-11.1552
秋九月大雩	-11.1553
襄十一年	-11.1554
糓	-11.1555
不至於	-11.1555
宣十五年	-11.156
夏徴舒	-11.156
八國	-11.1562
厚薄	-11.1564
乎然則	-11.1566
他事	-11.1573
宗廟社稷	-11.1574
把子	-11.1575
與之戰	-11.1577
黻	-11.1579
莽	-11.1584
梗	-11.1585
赦之	-11.1586
不濟	-11.1588
失時	-11.1589
西周	-11.1592
拒之	-11.1596
以號舉	-11.1597
國之人	-11.1598
又從而	-11.1601
次于郎	-11.1603
王者之後	-11.1606
既衰	-11.1607
侵晉	-11.1611
自來	-11.1611
侵我	-11.1617
自知	-11.1618
恐非	-11.1618
不得言	-11.1619
丹陽	-11.162
謀楚	-11.162
討陳	-11.1624
託於	-11.1624
見滅	-11.1624
趣	-11.1625
箋	-11.1625
君父之	-11.1627
大音泰	-11.1627
言及者	-11.1629
襄十年	-11.1632
萇𢎞	-11.1636
伊尹	-11.1638
者譏	-11.1638
歡	-11.1639
先是	-11.164
吾聞之	-11.1641
吕反	-11.1641
案此	-11.1645
北宫喜	-11.1645
有徳	-11.165
君子以為	-11.1653
晉侯伐鄭	-11.1657
齊人來歸	-11.1661
為君也	-11.1661
兄弟之國	-11.1663
不可勝	-11.1666
孔丘	-11.1667
大心	-11.1669
當云	-11.1671
不称	-11.1671
何休曰	-11.1674
莊元年	-11.1676
所受	-11.1676
咨	-11.1678
絶矣	-11.1682
詐戰	-11.1682
7	-11.1682
萃	-11.1682
黨氏	-11.1683
貝	-11.1683
俠	-11.1685
鄩	-11.1685
蕪	-11.1686
臧宣叔	-11.1688
1.	-11.1689
正終	-11.1691
伯石	-11.1695
自强	-11.1695
亦因	-11.1698
放此	-11.1698
君臣同	-11.1707
聖賢	-11.1712
不言敗	-11.172
扵是	-11.1722
未逾年	-11.1722
無義	-11.1724
女嫁	-11.1725
過我	-11.1726
劉氏傳	-11.1727
鉞	-11.1729
結盟	-11.173
於是乎有	-11.1731
歸京師	-11.1731
夸	-11.1732
亦得	-11.1733
鼻	-11.1733
不脩	-11.1735
鄘	-11.1735
疆埸	-11.1737
史䇿	-11.1738
何賢乎	-11.1738
静	-11.1739
宋邑	-11.174
其子孫	-11.174
之恥也	-11.1743
衛獻	-11.1744
公子友如齊	-11.1745
被殺	-11.1745
賤之也	-11.1748
若實	-11.1748
専殺	-11.1749
于向	-11.175
如雨	-11.1759
不見於經	-11.1766
襄二十五年	-11.1768
僖二十四年	-11.1768
討亂	-11.1768
始於此	-11.1769
穀梁云	-11.1769
宣姜	-11.177
鬷	-11.1774
茂	-11.1779
宋莊	-11.178
驪	-11.1781
瞻	-11.1782
汶陽田	-11.1785
楚子囊	-11.1786
惡烏路反	-11.1787
洫	-11.179
何害	-11.1791
黑肱	-11.1791
万	-11.1792
春秋書法	-11.1792
時祭	-11.1796
墮費	-11.1798
弓矢	-11.18
往朝	-11.1801
曲為	-11.1806
矣况	-11.1812
城西	-11.1813
吉禘	-11.1816
烝嘗	-11.1818
此等	-11.182
官名	-11.1822
乗車	-11.1826
暑	-11.1827
所知也	-11.1827
之至也	-11.183
霸國	-11.1831
彪	-11.1833
蘓	-11.1835
殃	-11.1836
晩	-11.1839
也不曰	-11.184
下聘	-11.1842
吕祖謙曰	-11.1844
湖廣	-11.1844
訊	-11.1845
襄夫人	-11.1849
楚公子嬰齊	-11.1851
七十里	-11.1852
通㫖	-11.1858
取鄟	-11.1859
失之矣	-11.1862
子游	-11.1864
至河	-11.1865
已久	-11.1869
王宫	-11.1876
宋殺其大夫	-11.1877
梁國	-11.1878
韶	-11.1882
俱是	-11.1885
觀春秋	-11.1887
雙	-11.1887
襄七年	-11.1887
櫬	-11.1887
東都	-11.1888
其㫖	-11.189
所主	-11.189
𦙍	-11.189
廣平	-11.1895
夏四月丁巳	-11.1899
生事	-11.1899
並無	-11.19
與此同	-11.1901
劉文公	-11.1903
示威	-11.1904
弃疾	-11.1904
莫知	-11.1911
固非	-11.1914
晉為盟主	-11.1914
服從	-11.1916
在此月	-11.192
討賊之義	-11.192
軍政	-11.1921
音同	-11.1922
以見義	-11.1925
春秋之作	-11.1932
次于陘	-11.1934
撃	-11.1937
阨	-11.1939
頵	-11.1942
諒	-11.1942
頴	-11.1943
城西郛	-11.1943
往㑹之	-11.1944
入州來	-11.1946
五大夫	-11.1946
公懼	-11.195
無故而	-11.195
城濮之戰	-11.1951
未𦵏	-11.1951
上士	-11.1952
為明年	-11.1953
失其所	-11.1953
並書	-11.1953
反馬	-11.1957
宗魯	-11.1959
舒庸	-11.196
㑹吴	-11.1961
申之㑹	-11.1962
襄十四年	-11.1965
宋桓	-11.1966
下卿	-11.1967
得免	-11.1968
諸侯之禮	-11.1969
哀二年	-11.1971
五氏	-11.1972
萬世之	-11.1972
甚明	-11.1974
殺叔武	-11.1974
其數	-11.1976
深惡	-11.1976
圖霸	-11.1977
闔	-11.1978
詳書	-11.198
潦	-11.1982
惟恐	-11.1983
復扶	-11.1984
詁	-11.1986
園	-11.1987
掩其	-11.1987
書弑	-11.1987
氛	-11.1989
醴	-11.1989
闡	-11.1989
取貨	-11.1989
文仲	-11.1989
準	-11.1991
熊過氏曰	-11.1991
分明	-11.1991
偏師	-11.1992
儕	-11.1992
郉	-11.1993
常山劉氏曰	-11.1994
薳罷	-11.1995
夫人姜氏至自齊	-11.1996
自晉歸	-11.2001
稱名氏	-11.2001
陳無宇	-11.2006
定十年	-11.2008
失所	-11.2009
月食	-11.2011
桓莊	-11.2011
子仲	-11.2013
童子	-11.2017
水火	-11.2017
適齊	-11.2025
集傳	-11.2027
▁家氏鉉翁曰	-11.2029
隱桓	-11.2032
皥	-11.2033
丈反	-11.2033
往會	-11.2036
名之曰	-11.2037
㑹稽	-11.2038
儒者	-11.2038
覽	-11.2039
亦謂之	-11.2039
比蒲	-11.2041
鳥獸	-11.2041
兖州府	-11.2042
伐我北鄙	-11.2043
梧	-11.2043
荆州	-11.2044
汲郡	-11.2045
正義云	-11.2048
伊川先生解	-11.2048
晉伐鮮虞	-11.205
其手	-11.205
城把	-11.2051
何以得	-11.2054
同好	-11.2058
以自固	-11.2059
新城之盟	-11.2062
觀之則	-11.2064
凡言	-11.207
於楚而	-11.2072
定元年	-11.2075
楚人侵鄭	-11.2077
爾非	-11.2077
工尹	-11.2079
固可	-11.2079
諸卿	-11.2081
問諸	-11.2083
殘民	-11.2083
礿	-11.2084
也穀梁曰	-11.2086
將戰	-11.2088
竇	-11.209
鄭康成	-11.209
諸姬	-11.2091
不載	-11.2092
至扵	-11.2094
郵	-11.2095
杵臼	-11.2096
苐	-11.2097
城費	-11.2101
腹心	-11.2102
定八年	-11.2103
餘子	-11.2103
大棘	-11.2104
陳人蔡人	-11.2105
而後入	-11.2107
宋公衛侯	-11.211
乾谿	-11.2112
盗殺	-11.2119
㐮公	-11.2121
夏五	-11.2131
使告于	-11.2138
厠	-11.2138
孫子	-11.214
為之辭	-11.214
被執	-11.2142
笙	-11.2143
邁	-11.2143
蘧	-11.2144
如彼	-11.2145
骨肉	-11.2148
不告朔	-11.2148
侵我西鄙	-11.2149
程頥曰	-11.2149
焉用之	-11.215
春秋因	-11.2151
管子	-11.2151
傳記	-11.2153
仲孫何忌	-11.2154
不可信	-11.2155
渠丘	-11.2155
款	-11.2156
趙匡	-11.2157
之所得	-11.2157
公在外	-11.2157
私事	-11.2158
一舉而	-11.2159
成十七年	-11.216
季子來歸	-11.2161
鄭師伐宋	-11.2161
既歸	-11.2163
可通	-11.2164
徐人	-11.2164
大鹵	-11.2167
九族	-11.2167
凡四	-11.2169
反一音	-11.2169
豈復	-11.2169
取邿	-11.2169
不協	-11.2174
之國也	-11.2174
否則	-11.2187
女音汝	-11.2187
當絶	-11.219
武王封	-11.2193
討貳	-11.2193
秀	-11.2194
而不以	-11.2194
公之廟	-11.2194
平王東遷	-11.2195
沂水	-11.2196
之謂乎	-11.2196
憎	-11.2196
該	-11.2197
以正其	-11.2201
子家子曰	-11.2202
陳恒	-11.2204
門人	-11.2204
黑壤	-11.2204
事大國	-11.2204
㨗菑	-11.2206
善哉	-11.2206
澄	-11.2208
公朝于王所	-11.2208
趙旃	-11.2211
逆叔姬	-11.2214
求盟	-11.2215
八日	-11.2215
修其	-11.2217
衛州吁	-11.2218
尚何	-11.2223
十有七年春	-11.2225
僖公成風	-11.2234
之子孫	-11.2236
方睦	-11.2238
把伯姬	-11.2239
既成	-11.224
俎	-11.2243
先儒以為	-11.2245
陟	-11.2245
伐郳	-11.2252
宗周	-11.2252
十三日	-11.2253
討有罪	-11.2254
唯有	-11.2257
救衞	-11.2258
鄭邑	-11.2258
撥亂	-11.2258
挫	-11.2259
是之謂	-11.2259
滅虢	-11.2261
無辭	-11.2262
子同生	-11.2263
衆仲	-11.2268
按春秋	-11.227
聖經	-11.2275
也武夷胡氏傳	-11.2279
不能治	-11.2282
襄二十六年	-11.2285
同圍齊	-11.2286
之以禮	-11.2286
宋南里	-11.2287
十五年春	-11.2287
吴人	-11.2288
欲殺之	-11.2289
醢	-11.2289
所感	-11.2292
冉	-11.2293
且請	-11.2294
人之心	-11.2298
鬻	-11.2298
黼	-11.2299
之閒	-11.23
昊	-11.2301
廖	-11.2303
殛	-11.2303
濟西田	-11.2303
恊	-11.2303
桓叔	-11.2305
不繫國	-11.2306
何患	-11.2306
媒	-11.2306
皷	-11.2307
犒	-11.2307
諸侯不生名	-11.2309
朽	-11.2309
嗣立	-11.2315
大夫之三命者也	-11.2315
傳載	-11.2317
君之子	-11.2318
不狃	-11.2324
貶絶	-11.2336
叔孫豹如晉	-11.2342
軍帥	-11.2344
夘	-11.2346
無寵	-11.2347
七國	-11.235
而有之	-11.2354
濕	-11.2356
譟	-11.2356
飢	-11.2358
不及事	-11.2358
建國	-11.2358
妙	-11.2359
所以罪	-11.236
其亡乎	-11.2361
春秋不以	-11.2362
特書曰	-11.2362
墠	-11.2363
䜛	-11.2364
以貶之	-11.2364
通嗣君也	-11.2364
注解云即	-11.2365
眾	-11.2366
王子猛	-11.2367
會齊侯	-11.2375
生民	-11.2376
遇弑	-11.2377
一切	-11.2377
逃來	-11.2381
華定	-11.2382
取其地	-11.2383
封建	-11.2386
不佞	-11.2388
之制也	-11.2403
秦伐晉	-11.2403
幄	-11.241
中氣	-11.2412
諸大夫皆	-11.2413
成公卒	-11.2415
躍	-11.2417
隳	-11.2417
窒	-11.2418
荷	-11.2418
穀梁以為	-11.2427
赤棘	-11.2428
境上	-11.243
謀王室	-11.2431
便是	-11.2431
逋逃	-11.2433
仲嬰齊	-11.2433
本紀	-11.2434
宋仲幾	-11.2435
昌府	-11.2436
卜筮	-11.2439
不言來	-11.2439
太平	-11.244
此其所以	-11.244
泗水	-11.2446
惡自見	-11.2447
之弊	-11.2447
管蔡	-11.2447
其罪大矣	-11.245
北宮	-11.2451
漢置	-11.2453
一事而	-11.2454
3.	-11.2455
摯	-11.2463
揔	-11.2464
也其不言	-11.2464
蠆	-11.2466
牂	-11.2467
弧	-11.2467
於餘丘	-11.2468
繻	-11.2468
宦	-11.2469
亦明矣	-11.2478
竜	-11.2478
野井	-11.2478
戰敗	-11.2479
公㑹晉侯宋公衛侯鄭伯曹伯	-11.248
見止	-11.248
貳於楚	-11.2482
六軍	-11.2483
苕丘	-11.2487
人掌	-11.2492
襄三年	-11.2493
不為災	-11.2494
不書葬者	-11.2501
難乃	-11.2502
紀伯姬	-11.2503
安中國	-11.2505
武功	-11.2507
鹿上	-11.2509
無以異	-11.251
二十五人	-11.2511
一命	-11.2512
固不可	-11.2517
天子三公	-11.2517
髦	-11.2517
臂	-11.2519
冉有	-11.252
次年	-11.2521
左傳春	-11.2523
之謂矣	-11.2525
一體	-11.2526
暨齊平	-11.2526
括地志	-11.2527
鄑	-11.2528
異同	-11.253
案春秋	-11.2532
莊叔	-11.2534
鄰國之	-11.2534
叔孫州仇	-11.2534
所以致	-11.2535
不卒戍	-11.2536
初年	-11.2536
庶兄	-11.254
卜偃	-11.2542
多少	-11.2546
新意	-11.2546
僭號	-11.2548
列序	-11.2548
5.3	-11.2552
正義曰言	-11.256
莫大於	-11.2566
公子黄	-11.2569
王法所	-11.2572
四方之	-11.2573
㝠	-11.2573
障	-11.2573
屠	-11.2574
漁	-11.2574
犁	-11.2574
盟于召陵	-11.2575
應劭	-11.2578
淫亂	-11.2578
夫鍾	-11.2581
示後世	-11.2584
夫人孫于齊	-11.2585
曾孫	-11.2586
伯國	-11.2588
狄侵衛	-11.2592
講武	-11.2597
不殊	-11.2598
蠻氏	-11.26
顯然	-11.2602
莅	-11.2603
去氏	-11.2604
三軍之	-11.2608
從祀	-11.2608
當討	-11.261
聖筆	-11.2612
好呼報反	-11.2616
且拜	-11.2622
珠	-11.2625
穀梁傳曰	-11.2626
盟于宋	-11.2627
㧞	-11.263
不憚	-11.2632
不亦宜乎	-11.2632
巡狩	-11.2634
天王出居于鄭	-11.2636
王姬歸于齊	-11.2637
入于王城	-11.2637
戎蠻子	-11.2638
北杏之㑹	-11.2638
再㑹	-11.264
始霸	-11.264
仲佗石彄	-11.264
朝楚	-11.264
十一年春	-11.2646
穀梁謂	-11.2646
百三十	-11.2647
三日哭	-11.2647
暴横	-11.2654
何異	-11.2658
不幸而	-11.2662
以定其位	-11.2667
戍周	-11.267
北海	-11.2672
世孫	-11.2676
公㑹晉侯宋公	-11.2676
晦朔	-11.2678
嫡庶	-11.2678
退師	-11.268
𫝊言	-11.2681
未必然	-11.2682
潤	-11.2683
潛師	-11.2683
織	-11.2684
周語	-11.2684
䕶	-11.2687
鄾	-11.2687
請討	-11.2689
敘	-11.2689
晉國之	-11.269
李氏曰	-11.2692
王子帶	-11.2692
頽	-11.2693
將帥	-11.2694
責賂	-11.2696
成八年	-11.2698
事迹	-11.2698
言語	-11.2699
踰竟	-11.2699
列於諸侯	-11.27
桓僖	-11.2706
貳於	-11.2707
或問曰	-11.2709
强臣	-11.271
衛侯衎	-11.2713
風雨	-11.272
慶克	-11.2721
得入	-11.2723
豈特	-11.2723
除喪	-11.2724
廬江	-11.2724
稱天王	-11.2724
没公	-11.2727
士會	-11.2729
劉敞	-11.273
堇	-11.2733
遙	-11.2734
衢	-11.2734
爲于僞切	-11.2736
5.	-11.2736
國卿	-11.2737
庶長	-11.2738
少皥	-11.2738
塵	-11.274
排	-11.274
僖二年	-11.2741
構	-11.2741
控	-11.2743
之志也	-11.2744
行即位之禮	-11.2744
炭	-11.2746
蔡人殺陳佗	-11.2747
那	-11.2748
孔穎達	-11.2748
華耦	-11.2749
伊戾	-11.275
草木	-11.275
專行	-11.2751
數月	-11.2752
桓六年	-11.2752
春秋之始	-11.2753
申叔時	-11.276
僖三十一年	-11.2763
考證	-11.2763
史書之	-11.2771
肆夏	-11.2772
得政	-11.2772
必不然	-11.2779
深入	-11.2781
組	-11.2781
襄城	-11.2784
獲晉侯	-11.2784
自亡	-11.2793
鄭伯如晉	-11.2795
騁	-11.2798
褊	-11.28
六十里	-11.28
宣二年	-11.28
莒人滅鄫	-11.2803
瑣澤	-11.2809
陜西	-11.2809
公子燮	-11.281
出疆	-11.281
滅邢	-11.2814
蔡莊	-11.2815
陳靈公	-11.2817
莊二十	-11.2818
故不名	-11.2825
不言所	-11.2826
出奔鄭	-11.2827
昭八年	-11.2828
晉故也	-11.2828
未易	-11.2831
說文	-11.2834
襄二十七年	-11.2838
滅下陽	-11.2842
詢	-11.2843
逺國	-11.2845
旦反	-11.2845
孔安國	-11.2846
歸獄	-11.2848
䖏	-11.2849
互相	-11.285
不違	-11.285
賜姓	-11.2853
國逆	-11.2853
女樂	-11.2854
奚齊卓子	-11.2855
七里	-11.2856
董仲舒	-11.2857
艾陵	-11.2863
未終	-11.2865
尊天子	-11.2866
哀八年	-11.2868
孔奐	-11.2868
貞子	-11.287
别封	-11.2873
孟獻子曰	-11.2873
漷水	-11.2874
曹邾	-11.2875
唯君	-11.2876
而義自見	-11.288
以紓	-11.2886
强盛	-11.2886
告于諸侯	-11.2889
結怨	-11.2889
三駕	-11.289
主婚	-11.2894
不動	-11.2897
巾	-11.2904
佳	-11.2904
愷	-11.2905
鵲	-11.2906
立其子	-11.2907
趙同趙括	-11.2908
香	-11.2909
次于雍榆	-11.2911
偹	-11.2911
求車	-11.2912
不待貶而	-11.2912
猜	-11.2912
複	-11.2913
再拜稽首	-11.2915
據事直書	-11.2917
欒書中行偃	-11.2917
以見譏	-11.2918
北宫括	-11.292
定位	-11.2922
季孫行父如齊	-11.2924
釋經	-11.2926
求貨	-11.2927
蔡侯般	-11.2928
聽其	-11.2929
委曲	-11.2933
而不知其	-11.2937
辨疑	-11.2937
所忌	-11.2938
曹地	-11.2941
絶句	-11.2942
于城濮	-11.2944
彤弓	-11.2949
昭九年	-11.2951
修怨	-11.2953
忠臣	-11.2954
韻	-11.2954
能討	-11.2956
飲食	-11.2957
乎又曰	-11.2958
書法如此	-11.2964
輩	-11.2966
麥禾	-11.2967
宫之竒	-11.2967
鮑叔	-11.2968
孟懿子	-11.297
霣	-11.2972
公子買	-11.2974
㑹齊侯宋公陳侯	-11.2974
伐我西鄙	-11.2975
國家之	-11.2975
圍戚	-11.2976
譏世卿	-11.2981
得罪于	-11.2984
三十七	-11.2985
於社	-11.2988
丑父	-11.2991
逆王姬	-11.2992
舟師	-11.2995
君臣父子	-11.2998
書於經	-11.2999
自文公	-11.3003
鞶	-11.3003
五榖	-11.3005
不悛	-11.3007
修舊	-11.3009
師曠	-11.3012
恐懼	-11.3013
夏書曰	-11.3013
邢侯	-11.3013
濟南	-11.3014
在殯	-11.3015
郕伯	-11.3017
私相	-11.302
天王下	-11.302
諾	-11.302
㦸	-11.302
引此	-11.3021
中士	-11.3021
伯者之	-11.3022
秦穆公	-11.3025
翔	-11.3025
蔓	-11.3026
書葬者	-11.3026
駐	-11.3026
鼠	-11.3027
奐	-11.3028
君子是以知	-11.3028
京兆	-11.3032
陳侯逃歸	-11.3035
不月者	-11.3036
守備	-11.3037
為不義	-11.3041
宫廟	-11.3042
其君臣	-11.3042
齊髙固	-11.3043
閔元年	-11.3043
陳公子招	-11.3044
第一	-11.3045
擅殺	-11.3045
中間	-11.3046
勝楚	-11.3046
天子之大夫也	-11.3047
歸我	-11.3048
注觧云	-11.3049
謹之也	-11.305
治國	-11.3051
為此㑹	-11.3052
下邳	-11.3053
用夏正	-11.3054
懷公	-11.3055
而敗之	-11.3059
交譏之	-11.306
莊十六年	-11.3061
書之以見	-11.3063
得其所	-11.3066
襄昭	-11.3066
幅	-11.307
並同	-11.3071
襄二十三年	-11.3073
爼	-11.3079
淑	-11.3079
泠	-11.3081
為之服	-11.3082
沓	-11.3082
昭三年	-11.3082
亳城北	-11.3082
故云爾	-11.3083
墻	-11.3084
概	-11.3084
䝨	-11.3086
得衆	-11.3088
大行人	-11.3088
范寗	-11.3089
此理	-11.3094
高氏閌曰	-11.3095
秋螽	-11.3095
朱方	-11.3095
牟夷	-11.3096
稱行人	-11.3096
矣曷為	-11.3097
何以不稱	-11.3099
以名見	-11.31
世官	-11.3102
書於䇿	-11.3103
孟縶	-11.3104
文十六年	-11.3106
不書諱之也	-11.3107
奪正	-11.3109
史失之	-11.311
鄭子産	-11.3111
井田	-11.3112
將何以	-11.3112
之䇿	-11.3113
乗丘	-11.3115
僖二十五年	-11.3116
匹夫之	-11.3119
杞伯姬來	-11.312
仲氏	-11.3125
子馮	-11.3128
以成其	-11.313
彫	-11.313
豉	-11.313
聖人之心	-11.3131
聞命矣	-11.3131
苫	-11.3132
大原	-11.3133
冐	-11.3136
膰	-11.3138
壁	-11.3138
石尚	-11.314
入其郛	-11.3141
齊侯使其弟年來聘	-11.3141
含賵	-11.3141
巖	-11.3141
詳録	-11.3141
尹氏立王子朝	-11.3142
定十四年	-11.3143
𤨏	-11.3144
朝宿之邑	-11.3144
履霜	-11.3146
臧孫辰	-11.315
何以不稱使	-11.315
邾儀父	-11.3158
伐其國	-11.3158
魯不㑹	-11.316
甚惡	-11.3161
戴氏	-11.3162
縣治	-11.3169
强國	-11.3171
所以重	-11.3174
盛時	-11.318
太王	-11.3181
恪	-11.3183
齊小白	-11.3184
文六年	-11.3187
言易也	-11.3187
旌旗	-11.3189
守節	-11.3191
斧	-11.3191
採	-11.3193
朝桓	-11.3193
山崩	-11.3193
五里	-11.3193
頸	-11.3194
祖考	-11.3194
國之衆	-11.3196
值	-11.3197
嗜	-11.3197
桓無王	-11.3198
䑕	-11.3198
劉康公	-11.3199
靣	-11.3199
祓	-11.3201
三代之	-11.3203
「	-11.3203
公子圍	-11.3205
落姑	-11.3206
而返	-11.3206
大敗之	-11.3208
是也若	-11.3208
事神	-11.3214
矣故春秋	-11.3214
從告	-11.3215
所恃	-11.3219
申豐	-11.3221
其母弟	-11.3224
前事	-11.3224
稱公孫	-11.3225
補入	-11.3228
于夷儀	-11.3234
白公	-11.3237
騶	-11.3245
詣	-11.3247
杞桓公	-11.3248
往年	-11.3248
祏	-11.3248
康誥	-11.3248
邉	-11.3253
朞	-11.3254
先君之命	-11.3254
橐	-11.3254
失地之君	-11.3261
再舉	-11.3263
𦵏我小君	-11.3265
存耕趙氏曰	-11.3265
十七日	-11.3267
左司馬	-11.3268
不免於	-11.3269
江漢	-11.327
年表	-11.327
文三年	-11.3279
伐邾取須句	-11.3285
公孫剽	-11.3285
首止之盟	-11.3291
于平丘	-11.3292
書于策	-11.3292
2.	-11.3298
夫音扶	-11.3304
邶	-11.3311
祐	-11.3312
祇	-11.3313
拂	-11.3314
諸侯皆在	-11.3314
簡牘	-11.3316
明德	-11.3317
追命	-11.332
之柄	-11.3321
不去其官	-11.3324
仇讐	-11.3327
奔亡	-11.3329
不聴	-11.3332
季桓子	-11.3338
請戰	-11.3339
告喪	-11.3341
救災	-11.3342
系	-11.3344
而代之	-11.3344
欲速	-11.3345
拒父	-11.3349
改卜	-11.335
濟隂	-11.3355
大衍	-11.3355
濟河	-11.3359
孫于邾	-11.3366
𨼆	-11.3369
」	-11.3369
凡此皆	-11.3371
稱子者	-11.3372
扼	-11.3373
何氏云	-11.3374
緦	-11.3375
公山不狃	-11.3376
渡河	-11.3377
僖九年	-11.3378
鸜鵒來巢	-11.3379
宋元公	-11.3379
通好	-11.338
中外	-11.3382
昭二十二年	-11.3386
白羽	-11.3387
所欲也	-11.3388
十有九年	-11.3388
為不道	-11.3393
齊侯取鄆	-11.3396
寫	-11.3399
後期	-11.3399
十有五年春王正月	-11.3407
莊姬	-11.3417
夫婦之	-11.3418
住	-11.3422
畚	-11.3423
内邑	-11.3425
耏	-11.343
孰大焉	-11.3431
命于天子	-11.3433
効	-11.3434
其曰人何也	-11.3435
禪	-11.3436
茅堂胡氏曰	-11.3436
非其時	-11.3436
髙國	-11.3437
聲罪致討	-11.3438
舉兵	-11.3438
惜乎	-11.3439
所以責	-11.344
非禮矣	-11.344
乘車	-11.3444
貜且	-11.3445
襄元年	-11.3446
至於此	-11.3448
明白	-11.345
重發	-11.345
二十有三年	-11.3451
是盟也	-11.3452
不足信	-11.3454
常例	-11.3455
伍舉	-11.3456
為之歌	-11.3457
圍衛	-11.3458
罪大矣	-11.3459
有大功	-11.3462
無所逃	-11.3464
請王命	-11.3464
會葬	-11.3468
哀四年	-11.3472
不稱名	-11.3473
公子光	-11.3475
府治	-11.3477
南燕	-11.3482
襄十九年	-11.3487
不能修	-11.3487
六羽	-11.3487
荘王	-11.3488
偏戰	-11.3488
於戚	-11.349
乘馬	-11.3491
穢	-11.3491
囊	-11.3491
腆	-11.3491
疇	-11.3493
齊人滅遂	-11.3494
而加之	-11.3494
汚	-11.3495
堙	-11.3495
衡雍	-11.3495
僭禮	-11.3497
恵王	-11.3497
帖	-11.3498
隅	-11.3498
義見隱	-11.3498
寪氏	-11.3499
以者不以者也	-11.3499
出其君	-11.35
姑姊妹	-11.35
襲鄭	-11.3505
東宫	-11.351
四不視朔	-11.3511
魏子	-11.3511
莒邾	-11.3511
11.1	-11.3514
壬夫	-11.3516
伐戴	-11.3517
成十三年	-11.3517
美惡	-11.3518
叔術	-11.3518
失刑	-11.3521
夜中	-11.3523
不預	-11.3533
哀十三年	-11.3534
記異	-11.3536
繆公	-11.3538
益師	-11.3543
屢書	-11.3544
檮杌	-11.3549
輪	-11.3549
餒	-11.3552
禜	-11.3552
彌牟	-11.3552
藐	-11.3553
蠶	-11.3553
故謹而日之	-11.3556
浦	-11.3557
嘻	-11.3557
劉歆	-11.3558
江人黄人	-11.3559
覘	-11.3559
奉王命	-11.3559
有功於	-11.3561
不煩	-11.3561
邾人伐我南鄙	-11.3564
與之同	-11.3564
宗族	-11.3567
聖人之所	-11.3567
廵守	-11.3568
背楚	-11.3568
無宇	-11.3568
父字	-11.3571
屢盟	-11.3571
莒無大夫	-11.3572
弗聴	-11.3572
春秋之意	-11.3573
伐厲	-11.3573
火災	-11.3573
書首月	-11.3577
幼弱	-11.3579
此之謂也	-11.3579
將若之何	-11.3581
後嗣	-11.3583
聽於	-11.359
盟于向	-11.3593
糓梁	-11.3597
煬公	-11.3598
隕石	-11.3598
䜴	-11.3602
不請命	-11.3605
菜	-11.3606
武王克商	-11.3611
何注据	-11.3612
算	-11.3613
慘	-11.3614
滅鄫	-11.3614
弼	-11.3614
綂	-11.3614
朋	-11.3615
祁奚	-11.3616
州公如曹	-11.3618
倪	-11.3618
淪	-11.3621
屑	-11.3621
百工	-11.3623
見賢	-11.3623
莘老孫氏曰	-11.3623
宣三年	-11.3624
齊人侵我西鄙	-11.3625
取郠	-11.3627
卽位	-11.3628
王綱	-11.3631
孫文子	-11.3631
愚謂此	-11.3637
故不曰	-11.3639
亦未嘗	-11.3641
滕侯卒	-11.3642
法當	-11.3644
祭伯來	-11.3644
專權	-11.3644
案此條	-11.3644
察其	-11.3647
將焉用之	-11.3648
寔來	-11.3649
發例	-11.3651
兵威	-11.3656
可以免	-11.3656
取田	-11.3657
昭十一年	-11.3658
遣大夫	-11.3658
終事	-11.3659
亹	-11.366
私交	-11.3667
噐	-11.3671
枕	-11.3671
二説	-11.3672
濁	-11.3673
昵	-11.3673
不早	-11.3674
靜	-11.3674
緇	-11.3675
戯	-11.3675
犖	-11.3676
斵	-11.3677
盧蒲嫳	-11.3679
邾文公	-11.368
公子騑	-11.3681
曲棘	-11.3682
舊説	-11.3688
秦伯伐晉	-11.369
釋宋公	-11.3691
之罪著矣	-11.3695
晉頃	-11.3696
嬴姓	-11.3697
晉趙武	-11.3704
杜無傳	-11.3705
弑二君	-11.3705
師大敗	-11.3705
國風	-11.3708
晉侯許之	-11.3711
斉侯	-11.3714
滅巢	-11.3714
衛文公	-11.3719
史墨	-11.3722
宋魚石	-11.3723
見賢遍反	-11.3724
四卿	-11.3724
珪	-11.3729
下皆同	-11.3731
趙宣子	-11.3732
去樂卒事	-11.3735
提	-11.3737
履緰	-11.3737
鄋瞞	-11.3738
漫	-11.3739
洙	-11.374
㰱	-11.374
私欲	-11.374
今山西	-11.3742
还	-11.3743
改正	-11.3749
襄五年	-11.375
刘炫云	-11.3755
閉門	-11.3756
郊祀	-11.3757
夏殷	-11.376
以夫人之禮	-11.3761
因舊史	-11.3761
始禍	-11.3761
僖八年	-11.3766
陰陽	-11.377
討衛	-11.3772
歸于楚	-11.3773
尚存	-11.3775
晉景公	-11.3778
誘殺	-11.378
狃	-11.3788
飱	-11.3791
歸寜	-11.3791
躒	-11.3795
大夫不名	-11.3795
爕	-11.3796
黙	-11.3796
誨	-11.3798
臾駢	-11.38
郑伯	-11.3801
叔仲惠伯	-11.3802
告於諸侯	-11.3802
墮成	-11.3803
蕭叔朝公	-11.3803
箕鄭父	-11.3806
杜元凱	-11.3807
稱公者	-11.3807
登臺	-11.3809
十一日	-11.3813
桓十一年	-11.3814
不告月	-11.3818
及晉侯盟	-11.382
夫人薨	-11.3822
歸罪於	-11.3825
之卒章	-11.3825
譏何譏爾	-11.3829
夏商	-11.3834
叔段	-11.3835
動衆	-11.3837
遂奔齊	-11.3837
孟任	-11.3837
比事以觀	-11.3839
三國之師	-11.384
桓十四年	-11.3841
衛獻公	-11.3845
終身不	-11.3846
.9	-11.385
賊臣	-11.3852
鄭穆公	-11.3853
跛	-11.3855
非公命	-11.3857
宣九年	-11.3857
馘	-11.3858
曹劌	-11.3858
眷	-11.3859
霄	-11.3859
体	-11.3859
申公巫臣	-11.3861
聲其罪	-11.3862
鉅野	-11.3862
杜預謂	-11.3865
晳	-11.3866
宋人圍曹	-11.3868
孫于齊	-11.3869
邲之戰	-11.3869
所不容	-11.3876
不稱爵	-11.3876
空言	-11.3877
桓八年	-11.3884
雒戎	-11.3885
嫡妾	-11.3886
歸賵	-11.3886
武軍	-11.3889
愛民	-11.3894
衰微	-11.3896
仲冬	-11.39
穀梁氏曰	-11.39
周廟	-11.3901
築城	-11.3912
魯頌	-11.3913
拾	-11.3916
裏	-11.3917
吉祭	-11.3919
玦	-11.3919
眞	-11.392
彛	-11.392
司㓂	-11.3921
截	-11.3923
泮	-11.3925
貶曷為貶	-11.3926
襄十五年	-11.3926
狐突	-11.3927
岡	-11.3927
厥憖	-11.3928
戍鄭虎牢	-11.3928
惻	-11.3928
殞	-11.393
蜀杜氏曰	-11.3932
主王姬	-11.3932
邾庶其	-11.3938
襄二年	-11.3938
襄二十八年	-11.3941
加兵于	-11.3943
衞孫良夫	-11.3943
㑹晉師	-11.3949
公羊之説	-11.3949
火正	-11.3949
陳靈	-11.3957
虢仲	-11.3965
滅蕭	-11.3969
公會宋公	-11.3975
土田	-11.3976
抶	-11.3977
贅	-11.3979
耿	-11.398
聽政	-11.3981
誄	-11.3989
衣裳	-11.399
慾	-11.399
箇	-11.3992
連年	-11.3993
士文伯	-11.3995
鉉翁	-11.3995
𤣥孫	-11.3997
中國無伯	-11.3997
自大夫出	-11.4001
黄池之㑹	-11.4004
又何以	-11.4005
常祀	-11.4006
之辭言之	-11.4007
遂如晉	-11.4011
有異志	-11.4012
中興	-11.4018
名號	-11.4024
為伯討	-11.4028
在河南	-11.403
于淮	-11.4032
君母	-11.4035
行朝禮	-11.4036
兒	-11.4038
由是觀之	-11.4039
皁	-11.404
鬻拳	-11.4042
燎	-11.4046
趙企明	-11.405
䑓	-11.4051
閎	-11.4053
奇	-11.4055
夫人姜氏歸于齊	-11.4055
為人君	-11.4059
見賢徧反	-11.406
胡文定	-11.406
書不雨	-11.4061
之望也	-11.4062
鐘鼓	-11.4064
公孫段	-11.4067
衛侯鄭伯	-11.4068
知罃	-11.4072
遷都	-11.4075
問罪	-11.4075
仲雍	-11.4075
䘮服	-11.4076
畀我	-11.4084
畿内諸侯	-11.4087
入廟	-11.409
12.1	-11.4092
一閏	-11.4092
尚可	-11.4093
靖公	-11.4094
有時而	-11.41
啖	-11.4108
酆舒	-11.4109
禮之變	-11.4112
句踐	-11.4113
餘見	-11.4114
裕	-11.4116
陸渾之戎	-11.4116
独	-11.4118
雍榆	-11.4118
為後世戒	-11.4119
為中國患	-11.4121
附庸國	-11.4123
咸丘	-11.4127
伐沈	-11.4128
范中行氏	-11.4129
為齊所	-11.4132
惑於	-11.4134
孔子作春秋	-11.4135
高氏	-11.4136
隠二年	-11.4138
首月	-11.4139
賜命	-11.4141
盜賊	-11.4147
文十年	-11.4148
髙下	-11.4148
厥後	-11.4159
于召陵	-11.416
譜云	-11.4166
僖二十六年	-11.4167
梁丘	-11.4168
淄	-11.4169
子般卒	-11.4169
注疏卷	-11.4173
四年春王二月	-11.4173
頰	-11.4175
柱	-11.4176
十六日	-11.4177
袲	-11.418
先且居	-11.4181
恃强	-11.4181
邢遷于夷儀	-11.4182
立乎其位	-11.4182
先代之後	-11.4186
薨不地	-11.4187
又甚焉	-11.4188
五千	-11.4188
十八日	-11.4189
句繹	-11.419
所繫	-11.4191
閏十二月	-11.4191
單伯如齊	-11.4199
稷門	-11.4202
公羊氏曰	-11.4202
未免	-11.4204
杞侯	-11.4211
原情	-11.4215
▁張氏洽曰	-11.4221
趙陽	-11.4221
天倫	-11.4226
小國之君	-11.4229
杜洩	-11.423
國弱	-11.423
親往	-11.4232
垂法	-11.4232
惎	-11.4232
卧	-11.4233
从	-11.4234
境外	-11.4238
師旅	-11.4238
𤣥枵	-11.424
浚	-11.4242
杜元凱曰	-11.4244
公及諸侯	-11.4244
齊小白入于齊	-11.4245
鄆讙龜隂	-11.4246
冉求	-11.4247
獳	-11.4248
十有一	-11.4248
不視朔	-11.4249
春秋傳卷	-11.4252
築館	-11.4254
者衆矣	-11.4256
還自晉	-11.4256
二十有四年	-11.4257
宣七年	-11.4258
事勢	-11.4258
夜姑	-11.4258
叔弓如晉	-11.4261
猶繹	-11.4261
彤	-11.4263
祝宗	-11.4264
王不稱天	-11.4265
胥臣	-11.4267
屬辭比事	-11.4275
反又如字	-11.4277
南季	-11.4278
平陽府	-11.4282
嵗星	-11.4282
襄九年	-11.4285
㣲弱	-11.4287
昭十七年	-11.4288
于鄢	-11.4289
亡國之	-11.429
所以存	-11.4291
接我	-11.4293
顆	-11.4293
叔孫舍	-11.4296
尨	-11.4299
鶉	-11.43
八月螽	-11.4301
大雅	-11.4303
黎侯	-11.4305
肘	-11.4306
迁	-11.4308
逡	-11.4309
顧命	-11.431
曰美哉	-11.431
凝	-11.4311
誕	-11.4311
稟	-11.4312
㑹其葬	-11.4313
定其位	-11.4317
濮陽	-11.432
莊二十三年	-11.432
宰孔	-11.4325
宋皇瑗	-11.4325
垂訓	-11.4326
殺州吁	-11.4329
婁林	-11.4333
戚之㑹	-11.4335
微辭	-11.4352
舉動	-11.4355
喪未	-11.4356
二十九日	-11.4364
山西	-11.4367
悅	-11.4368
珍	-11.437
愍	-11.4371
䏻	-11.4372
宰渠伯糾	-11.4372
𤯝	-11.4373
話	-11.4374
欣	-11.4374
宋人遷宿	-11.4375
勤民	-11.4376
鶴	-11.4377
無麥苗	-11.4378
一段	-11.4379
以著其惡	-11.4379
帰	-11.438
不當書	-11.4384
晉侯伐秦	-11.4389
巡守	-11.4389
待放	-11.4393
不可考	-11.4394
納突	-11.4394
未得志	-11.4394
於太廟	-11.4394
延陵	-11.4395
象魏	-11.4395
書公及	-11.4396
取汶陽田	-11.4396
帥師伐莒	-11.44
都邑	-11.4401
葉氏	-11.4407
傳寫	-11.4411
汶水	-11.4426
江陵	-11.4427
沐	-11.4429
范中行	-11.4431
二十有九年	-11.4431
薛侯	-11.4432
脯	-11.4432
燒	-11.4435
邘	-11.4435
復扶又切	-11.4437
僖二十三年	-11.4437
齊人殺無知	-11.4437
沈尹戌	-11.4438
欽	-11.4439
立武宫	-11.4441
陸氏纂例	-11.4443
王氏經世	-11.4443
齮	-11.4443
魏獻子	-11.4445
未詳信否	-11.4445
東門氏	-11.4448
陜	-11.4453
甯氏	-11.4455
九州之	-11.4457
三恪	-11.4458
仲孫速	-11.4458
昭二十年	-11.4459
歸脤	-11.4464
先君之好	-11.4471
亦可謂	-11.4475
不吉則	-11.4481
大之也	-11.4481
成列	-11.4483
僖十九年	-11.4486
正其本	-11.4488
岱	-11.4494
弑閔公	-11.4496
膚	-11.4498
蕩氏	-11.4499
行夏之時	-11.4502
繡	-11.4503
尼	-11.4503
慙	-11.4504
膠	-11.4504
沙鹿崩	-11.4508
逭	-11.4509
南遺	-11.4509
王札子	-11.451
及宋人盟于宿	-11.4512
何氏休曰	-11.4516
莒展輿	-11.4523
燕伯	-11.4525
附庸之君	-11.4529
邾滕	-11.4534
後儒	-11.4534
衛孫良夫	-11.4542
既没	-11.4543
晉荀偃	-11.4552
徽	-11.4562
蕕	-11.4562
囘	-11.4563
請諡	-11.4563
唐虞	-11.4564
皆貶	-11.4567
五帝	-11.4569
永嘉吕氏曰	-11.4569
常情	-11.457
這	-11.4571
惡烏	-11.4572
鎮撫	-11.4572
勾踐	-11.4572
史闕文	-11.4572
三統	-11.4574
覩	-11.4574
乍	-11.4577
公如晉次于乾侯	-11.4578
此三者	-11.4579
甯子	-11.4585
翟泉之盟	-11.4587
晉厲公	-11.4588
狄救齊	-11.4588
絶筆	-11.4589
北郭	-11.4591
二十有七年春	-11.4596
五卜	-11.4597
魯隱公	-11.4602
介葛盧來	-11.4603
與諸侯盟	-11.461
亦可知矣	-11.4612
入河	-11.4619
蕭叔	-11.462
于乾谿	-11.4621
駘	-11.4626
祖母	-11.4626
曹宣公	-11.4626
刘炫	-11.4627
同括	-11.4629
蓐	-11.4629
貂	-11.4631
次第	-11.4631
不稱天	-11.4631
羸	-11.4631
雲夢	-11.4634
晉人許之	-11.4637
弘	-11.4638
屋壊	-11.4645
兇	-11.4645
欒武子	-11.4649
乗馬	-11.465
悛	-11.465
閭丘	-11.4651
官失之	-11.4651
古制	-11.4662
曹人邾人	-11.4669
昭十五年	-11.4677
無義例	-11.4678
僖三十年	-11.4684
死社稷	-11.4687
可否	-11.4688
莊四年	-11.4688
晉陽處父	-11.4689
火出	-11.4691
熱	-11.4693
問其故	-11.4693
奴	-11.4695
用鄫子	-11.4701
兩君相見	-11.4702
琅邪	-11.4702
王肅	-11.4705
田狩	-11.4706
以成宋亂	-11.4706
㛰	-11.4707
濱	-11.4707
爱	-11.4708
降服	-11.4708
屬鄫	-11.4708
号	-11.4709
綿	-11.4709
狐射姑	-11.471
其是之謂乎	-11.4712
『	-11.4712
禀命	-11.4713
次于匡	-11.4717
春秋二百四十二年	-11.4718
修德	-11.4719
彊弱	-11.4723
葵丘之盟	-11.4723
楚靈王	-11.4738
不書其人	-11.4738
閔雨	-11.4739
康侯	-11.4745
滅天理	-11.4746
後魏	-11.4747
無赦	-11.4749
史佚	-11.475
舊制	-11.4751
使召伯	-11.4754
長幼	-11.4759
二十六日	-11.4762
凡此類	-11.4764
擅命	-11.477
丕	-11.4774
建丑	-11.4774
冇	-11.4776
春秋天子之事	-11.4776
突歸于鄭	-11.4777
鄗	-11.4777
莒人入向	-11.4779
胥靡	-11.4779
孔逹	-11.478
朝于晉	-11.4781
閌	-11.4781
入于齊	-11.4783
義見隠	-11.4785
立煬宫	-11.479
納頓子	-11.4792
汝隂	-11.4792
以求諸侯	-11.4795
夫人姜氏㑹齊侯	-11.4804
洮之盟	-11.4804
入人之國	-11.4804
不稱子	-11.4804
聘于齊	-11.4808
財用	-11.4811
稱盜	-11.4816
莅盟	-11.4817
工正	-11.4818
介葛盧	-11.4826
何邪	-11.4827
恒稱	-11.4829
盡力	-11.483
附左傳	-11.4836
鬪	-11.4839
承筐	-11.4839
轡	-11.4839
滌	-11.484
噬	-11.4841
熄	-11.4841
倖	-11.4842
蠲	-11.4842
沐浴	-11.4842
貿	-11.4843
鱗	-11.4844
生而賜氏	-11.4845
劉氏意林	-11.4847
公子鮑	-11.4847
浴	-11.4848
二十有六年	-11.4853
十有三	-11.4854
富辰	-11.4859
邾婁人	-11.4859
改正朔	-11.486
祭法	-11.4863
次陘	-11.4866
不期而	-11.4869
不稱行人	-11.487
周卿士	-11.4872
擅權	-11.4873
不言即位	-11.4873
安危	-11.4873
母家	-11.4877
左氏之説	-11.4879
来告	-11.4879
服虔	-11.4901
倦	-11.4902
旣葬	-11.4904
商丘	-11.4906
非一日	-11.4909
正義曰周禮	-11.4912
傾覆	-11.4912
星隕如雨	-11.4915
國在今	-11.4915
私諡	-11.4916
荆人來聘	-11.4916
墮郈	-11.4917
宋人及楚人平	-11.4917
褚師	-11.4918
澄按	-11.492
陸氏淳曰	-11.492
鄭伐許	-11.492
經營	-11.4921
歸之于京師	-11.4922
畢萬	-11.4925
杜厯	-11.4926
自諸侯出	-11.4928
乙亥嘗	-11.4928
賈氏	-11.4928
恩禮	-11.4929
襄二十四年	-11.4929
羣舒	-11.4929
終春秋之世	-11.4935
相對	-11.4943
于濮	-11.4945
後之人	-11.4948
莊姜	-11.4951
千載	-11.4951
竊取	-11.4957
莊九年	-11.4962
外援	-11.4966
仍叔	-11.4967
俊	-11.4968
歸邾子	-11.4969
版	-11.4971
哀十四年	-11.4971
紼	-11.4973
歸于齊	-11.4975
尊賢	-11.4975
燭	-11.4976
膺	-11.4977
牀	-11.4979
凟	-11.498
來戰于郎	-11.4982
敗其師	-11.4982
叔孫得臣如京師	-11.4983
牼	-11.4984
枉	-11.4985
㝎	-11.4985
何也以其	-11.4985
艱	-11.4985
公孟彄	-11.4986
毁泉臺	-11.4986
執宋公以伐宋	-11.4988
用夷禮	-11.499
喜怒	-11.4992
神農	-11.4995
斬衰	-11.4995
失節	-11.4996
平丘之㑹	-11.4999
犬戎	-11.5003
杞叔姬	-11.5012
經世之	-11.5013
而戮之	-11.502
安靖	-11.5023
臧孫許	-11.5025
議論	-11.5025
一本作	-11.5027
僖十年	-11.5028
不厭	-11.5029
展氏	-11.5032
改易	-11.5036
3.3	-11.5038
浞	-11.5039
趾	-11.504
隨侯	-11.5042
詩序	-11.5043
電	-11.5047
武氏子來求賻	-11.5048
櫜	-11.5049
洞	-11.505
亂之道也	-11.5053
平宋亂	-11.5054
俄	-11.5054
鄭伯以璧假許田	-11.5054
勦	-11.5055
溱	-11.5056
枝江	-11.5057
邾子益	-11.5058
寶玉大弓	-11.5058
晉人執虞公	-11.5059
如晉拜	-11.5066
唐侯	-11.5071
有二義	-11.5072
人倫之本	-11.5076
為中國諱	-11.5078
晉欒書	-11.5079
尉止	-11.5079
六畜	-11.5082
惠后	-11.5083
註云	-11.5092
而不葬者	-11.5094
葵丘之㑹	-11.5094
四裔	-11.51
典刑	-11.5104
入櫟	-11.511
騎	-11.511
虺	-11.5111
義自見矣	-11.5113
玉藻	-11.5114
解云欲言	-11.5115
緫	-11.5115
敕	-11.5116
官司	-11.5116
几	-11.5117
松	-11.5118
誤耳	-11.5118
遑	-11.5119
何以書記災也	-11.512
無忌憚	-11.5121
豺狼	-11.5122
蚤	-11.5122
湯沐之邑	-11.5122
薨葬	-11.5123
君之惠也	-11.5125
孟僖子	-11.5127
隠四年	-11.5128
於越入吳	-11.5128
也葉子曰	-11.5131
楚公子圍	-11.5131
始末	-11.5132
城緣陵	-11.5136
遭喪	-11.5141
説文云	-11.5141
秦康	-11.5144
烏得	-11.5148
寺	-11.515
殺里克	-11.5151
失國出奔	-11.5155
公也在位	-11.5155
異其文	-11.5166
慕義	-11.5169
弦子	-11.5175
長丁丈反	-11.5177
饒	-11.5178
畤	-11.5182
西河	-11.5185
迫於	-11.5187
渚	-11.5187
庾	-11.5188
顓	-11.5189
膝	-11.5191
蠻子	-11.5192
寖	-11.5192
兕	-11.5193
正陽之月	-11.5193
逆婦姜于齊	-11.5195
乾隆	-11.5196
鰌	-11.5197
滔	-11.5197
淳聞於師曰	-11.5198
齊人降鄣	-11.5199
賔客	-11.5199
末減	-11.5199
栢舉	-11.52
廵狩	-11.52
諸侯相見	-11.52
諱國惡	-11.5201
六月雨	-11.5207
父子兄弟	-11.5211
蜀之盟	-11.5219
某氏	-11.5225
公子申	-11.5231
私屬	-11.5237
僖二十一年	-11.524
幾何	-11.524
未暇	-11.5241
公羊以謂	-11.5245
牖	-11.5254
是役也	-11.5254
豚	-11.5254
銅鞮	-11.5256
宋共姬	-11.5256
朐	-11.5259
切下同	-11.5259
不宜立	-11.526
栽	-11.5262
大宗伯	-11.5262
隴	-11.5263
芈	-11.5264
册	-11.5265
郱鄑郚	-11.5266
兾	-11.5266
摟	-11.5267
縣今屬	-11.5267
永樂大典	-11.5269
晏嬰	-11.5269
公如齊公至自齊	-11.527
于僞反	-11.5271
許諾	-11.5273
天之道也	-11.5275
宣十七年	-11.528
煬	-11.5285
幽之盟	-11.5289
經所書	-11.5289
始見經	-11.529
哀三年	-11.5291
不稱氏	-11.5292
謀納公	-11.5296
妄動	-11.5302
伯姬歸	-11.5305
滅其國	-11.5311
實録	-11.5313
詳畧	-11.5313
髙唐	-11.5316
郑玄	-11.5323
子雅	-11.5326
三百人	-11.5328
豬	-11.5329
蹶	-11.533
兮反	-11.533
分野	-11.5331
禘祭	-11.5333
葬我小君	-11.5333
需	-11.5334
垂葭	-11.5335
鬻熊	-11.5336
取成而還	-11.5337
啖助	-11.5337
三王之罪人	-11.5338
公子喜時	-11.5338
晉楚爭	-11.534
粗	-11.534
特相盟	-11.534
季康子	-11.5341
貟	-11.5341
跋	-11.5341
叔姬歸	-11.5347
無明文	-11.5352
念母	-11.5357
去三桓	-11.5359
公子遂如晉	-11.536
釋憾	-11.5363
側室	-11.5365
悲夫	-11.5368
五色	-11.537
復其位	-11.5378
之中又	-11.5391
古者天子	-11.5392
升降	-11.5395
栢	-11.5397
坊	-11.5398
舄	-11.5398
穡	-11.5402
熈	-11.5402
懈	-11.5403
嵩	-11.5403
朋友	-11.5404
諷	-11.5407
儀禮	-11.5407
顚	-11.5408
仲孫湫	-11.5409
𦵏我君	-11.5411
莊十四年	-11.5411
書名氏	-11.5411
服於楚	-11.5423
允姓	-11.5423
先王之禮	-11.5426
聼命	-11.5426
哀七年	-11.5446
順祀	-11.5459
交好	-11.546
向寧	-11.5461
▁劉氏敞曰	-11.5462
使所吏反	-11.5466
9.3	-11.5469
殺申生	-11.547
枚	-11.5471
星隕	-11.5471
麾	-11.5472
小斂	-11.5472
鬲	-11.5472
闕疑	-11.5473
威力	-11.5475
郊特牲	-11.5475
私情	-11.5475
君之命	-11.5475
藴	-11.5477
梏	-11.5478
獮	-11.5479
印段	-11.5479
慰	-11.548
正其名	-11.5482
子服景伯	-11.5482
嬪	-11.5484
椽	-11.5485
遂以夫人婦姜至自齊	-11.5486
緒	-11.5486
欒枝	-11.5486
於大廟	-11.5487
有之矣	-11.5488
祈榖	-11.5488
齊人來歸子叔姬	-11.5489
某侯	-11.5491
陳蔡鄭許	-11.5491
又東北經	-11.5493
長岸	-11.5494
髙宗	-11.5496
因魯史	-11.5497
鞏朔	-11.5499
桑林	-11.5499
微㫖	-11.5501
背殯	-11.5505
返國	-11.5506
楚與國	-11.5506
則曷為謂之	-11.5507
鄭伯伐許	-11.5512
有罪無罪	-11.5519
季孫斯	-11.5524
祖禰	-11.5527
成婦	-11.553
鮑國	-11.5531
歲首	-11.5536
桓十七年	-11.5542
郊勞	-11.5546
滅江	-11.5546
尫	-11.5548
涕	-11.5548
弑剽	-11.5549
暢	-11.555
粉	-11.555
灼	-11.5551
彖	-11.5552
晏平仲	-11.5554
趡	-11.5554
鷄	-11.5555
葵邱	-11.5556
二王後	-11.5557
奥	-11.5557
聰	-11.5557
漕	-11.5557
建寅	-11.556
李氏亷曰	-11.5562
高祖	-11.5563
息肩	-11.5563
歸于酅	-11.5565
百牢	-11.5567
狄伐邢	-11.5568
伯輿	-11.5571
于葵丘	-11.5572
貶而人之	-11.5577
東萊	-11.5579
張公室	-11.5584
将中軍	-11.5585
圍彭城	-11.5598
不足恃	-11.56
于鄬	-11.5601
于狄泉	-11.5603
僣王	-11.5608
璞	-11.5621
附録左傳	-11.5622
建寅之月	-11.5624
藍	-11.5625
翳	-11.5625
雋	-11.5625
狠	-11.5626
塹	-11.5626
失閏	-11.5627
溷	-11.5627
君弑賊不討	-11.5628
公子招	-11.563
揣	-11.563
衛人立晉	-11.5631
爛	-11.5632
遇于垂	-11.5633
青州府	-11.5634
苟免	-11.5635
:	-11.5636
仲孫貜	-11.5636
公孫翩	-11.5641
寳玉	-11.5642
凌弱	-11.5644
讓桓	-11.5644
4.1	-11.5651
廩丘	-11.5653
至此極	-11.5657
軍吏	-11.5659
各異	-11.5659
請於王	-11.5661
昭十年	-11.5671
韓原	-11.5672
盬	-11.5685
瓊	-11.5687
至此始	-11.5694
髽	-11.5695
宣十一年	-11.5695
禆	-11.5696
苛	-11.5697
孔穎逹	-11.5698
槖	-11.5698
考仲子之宫	-11.5699
製	-11.57
兊	-11.57
再拜	-11.5701
與聞乎弑	-11.5703
碎	-11.5703
九伐之法	-11.5704
聘于晉	-11.5705
浚洙	-11.5705
孔叔	-11.5708
公叔戍	-11.5708
程氏學曰	-11.5709
飲之酒	-11.5709
自正月不雨至于秋七月	-11.5709
彞	-11.571
有無君之心	-11.5711
僅能	-11.5714
許氏翰曰	-11.5715
濟南府	-11.5716
邲之役	-11.5716
河海	-11.5721
大衍厯正月	-11.5723
祔廟	-11.5727
仲子之賵	-11.5731
謚法	-11.5732
方是時	-11.5735
夏徵舒	-11.5735
莒去疾	-11.5735
王者之事	-11.574
盟扈	-11.5741
自是而後	-11.5741
襄十八年	-11.5752
襄二十一年	-11.5756
此一事	-11.5758
之别名	-11.5773
陴	-11.5776
別	-11.5776
樞	-11.5776
城諸及防	-11.5778
董狐	-11.5778
疆場	-11.5779
舘	-11.5779
顓臾	-11.578
毛伯來求金	-11.5781
刀反	-11.5781
宋公之弟辰	-11.5782
王使榮叔歸含且賵	-11.5782
詬	-11.5783
防閑	-11.5783
罪之在	-11.5784
然乎曰不然也	-11.5784
紀侯去國	-11.5784
莊閔僖	-11.5786
華合比	-11.5788
趙朔	-11.579
于禚	-11.5792
刑罰	-11.5792
陳鮑	-11.5795
于汜	-11.5799
杞伯姬	-11.5799
吳入郢	-11.5817
太甲	-11.5818
左氏所載	-11.582
厯法	-11.5821
親戚	-11.5822
臣之罪也	-11.5824
所以然者	-11.5824
二十餘年	-11.5826
禰廟	-11.5828
逐其君	-11.5835
李氏廉曰	-11.5846
轘	-11.5847
洗	-11.5849
莊二十二年	-11.585
同上年	-11.585
樂王鮒	-11.5851
旒	-11.5854
束帛	-11.5855
劉原父	-11.5855
橫	-11.5855
讒慝	-11.5857
城下之盟	-11.5858
祲祥	-11.5858
叔孫穆子	-11.5859
蹇叔	-11.5859
見諸行事	-11.5861
不以其罪	-11.5861
從王伐鄭	-11.5862
惇	-11.5863
優施	-11.5863
季氏本曰	-11.5867
黒背	-11.5867
舎中軍	-11.5868
不繫於	-11.5873
公子憖	-11.5875
非所當	-11.5876
春秋詳書	-11.5876
陽樊	-11.5878
惠叔	-11.5888
歸妹	-11.5889
博士	-11.5898
柯之盟	-11.59
每月	-11.5904
九鼎	-11.5905
鹵	-11.5907
不繋	-11.5909
扈之㑹	-11.5913
觀此則	-11.5913
諱而不書	-11.5915
天下莫	-11.5919
耄	-11.5925
薊	-11.5925
蹇	-11.5927
捐	-11.5929
何以獨	-11.593
畱	-11.593
含且賵	-11.593
它	-11.593
吹	-11.593
鎬	-11.593
嚮	-11.5931
訾婁	-11.5932
抄	-11.5932
郥	-11.5932
未誓	-11.5932
天王殺其弟佞夫	-11.5932
天王居于狄泉	-11.5933
取邾田自漷水	-11.5936
殺適立庶	-11.5937
蕞爾	-11.5937
崔慶	-11.5939
單伯至自齊	-11.5939
八月庚辰	-11.594
范氏甯曰	-11.5943
齊人歸讙及闡	-11.5943
大國之間	-11.5947
徙都	-11.595
私家	-11.5955
日南至	-11.5956
不稱姜氏	-11.5957
罪莫大焉	-11.596
譬如	-11.5963
在今河南	-11.5964
志不在	-11.5967
荆山	-11.597
開州	-11.5974
曹殺其大夫	-11.5974
秦景公	-11.5982
豭	-11.5989
箴尹	-11.5996
剪	-11.6003
郟鄏	-11.6004
密州	-11.6005
敗狄于箕	-11.6005
虞仲	-11.6005
莊二十七年	-11.6007
謫	-11.6008
盤庚	-11.6009
秋荆伐鄭	-11.6009
長樗	-11.6011
𫉬	-11.6012
相殘	-11.6012
兗州府	-11.6012
鄭及楚平	-11.6014
君前臣名	-11.6014
陶唐	-11.6014
翁	-11.6014
佐下軍	-11.6015
城濮之役	-11.6016
何暇	-11.6019
曺伯	-11.6029
未見諸侯	-11.603
欒施	-11.6031
于邲	-11.6048
貶詞	-11.6051
楊氏	-11.6063
豢	-11.6069
詒	-11.6073
鮑氏	-11.6076
無他義	-11.608
謟	-11.6081
蝗	-11.6081
挑	-11.6083
齊人執鄭詹	-11.6086
大名府	-11.6087
息媯	-11.6087
墮三都	-11.6087
劉卷	-11.6087
朾	-11.6088
俛	-11.609
長轂	-11.6091
密邇	-11.6091
不然則否	-11.6092
有疾乃復	-11.6092
以邾子益來	-11.6092
清丘之盟	-11.6093
降婁	-11.6096
澶淵之㑹	-11.61
駟赤	-11.6101
圍宋彭城	-11.6101
殽之役	-11.6103
攘夷	-11.6117
于黄池	-11.6123
入食限	-11.6137
嫡母	-11.6138
相息亮反	-11.6145
活	-11.6149
蒙上	-11.6154
苴	-11.6155
日講春秋解義卷	-11.6159
碩	-11.616
辦	-11.616
脾	-11.6161
𤓰	-11.6161
取須句	-11.6162
泄冶	-11.6163
蹙	-11.6163
詘	-11.6163
烹	-11.6166
冺	-11.6166
蔡潰	-11.6166
孫明復	-11.6167
踰年即位	-11.6167
郕伯來奔	-11.6172
正義曰周礼	-11.6172
韓穿	-11.6174
侵掠	-11.6176
入祊	-11.6177
取其田	-11.6178
晉人止公	-11.6178
然則曷為不	-11.6182
嬖寵	-11.6189
入海	-11.6189
宣十八年	-11.6197
劉氏曰非也	-11.6201
中行伯	-11.6206
天王之命	-11.6206
向背	-11.6225
攜貳	-11.6233
􁉸	-11.6234
劣	-11.6234
為公族大夫	-11.6235
周禮司	-11.6236
伏甲	-11.6236
澗	-11.6237
保其國	-11.6238
肆大眚	-11.6239
甯俞	-11.624
郿	-11.6241
昉	-11.6241
眉	-11.6241
闔閭	-11.6241
齊人遷陽	-11.6241
鄠	-11.6242
㰱血	-11.6242
𬒳	-11.6242
取其邑	-11.6244
懾	-11.6244
狐壤	-11.6244
典籍	-11.6246
劉子單子	-11.6247
御廪	-11.6247
蒲圃	-11.6248
熊繹	-11.6248
葬宋穆公	-11.6249
入于戚以叛	-11.625
仲孫羯如晉	-11.6251
二年春王二月	-11.6251
虚朾	-11.6255
1.1	-11.6258
謹嚴	-11.6266
杜注鄭地	-11.6268
既沒	-11.6272
▁李氏廉曰	-11.6273
獻俘	-11.628
交質	-11.6281
滅陳蔡	-11.6288
入郛	-11.6289
黄氏曰	-11.6291
周頌	-11.6293
崩薨	-11.63
父之讎	-11.6302
莊六年	-11.6303
孔悝	-11.6311
汋	-11.6313
轅濤塗	-11.6313
沼	-11.6314
勅	-11.6314
千五百	-11.6314
告人曰	-11.6314
雎	-11.6314
芉	-11.6316
癘	-11.6317
盟于蜀	-11.6317
塗山	-11.6321
入者内弗受也	-11.6322
御廩	-11.6322
汴	-11.6322
朕	-11.6323
新作南門	-11.6324
外相如	-11.6324
麤	-11.6326
把叔姬	-11.6327
滕子薛伯	-11.6327
前目後凡	-11.6328
縊而死	-11.6328
青州	-11.633
于衡雍	-11.6335
藉口	-11.6336
諸侯嫁女	-11.6336
鄫季姬	-11.6338
哀十一年	-11.6341
命之卿	-11.6342
。《	-11.6343
衞侯衎	-11.6345
損益	-11.6346
管叔	-11.6351
入于晉	-11.6359
國之兵	-11.6359
渝平	-11.6359
㑹于蕭魚	-11.6364
襄陵	-11.6365
屈辱	-11.6375
東阿縣	-11.6384
斤	-11.6388
髙張	-11.6389
稠	-11.6393
中央	-11.6394
襄十三年	-11.6394
竟音境	-11.6395
綴	-11.6396
飯	-11.6396
炎帝	-11.6397
周公之廟	-11.64
嵒	-11.6402
郲	-11.6403
書於策	-11.6403
汝州	-11.6403
時王所黜	-11.6403
悍	-11.6405
譏不在	-11.6405
郯伯姬來歸	-11.6406
十有四	-11.6411
純門	-11.6411
􁂧	-11.6412
不可以訓	-11.6438
楚子䖍	-11.6445
無所容	-11.6447
不容誅	-11.6449
配天	-11.646
背叛	-11.6469
後丗	-11.6469
齊人以歸	-11.647
阮	-11.6476
篡立	-11.6479
袂	-11.648
奨	-11.6481
魁	-11.6481
二十有五年	-11.6484
莊二十五年	-11.6484
緱氏	-11.6484
滎澤	-11.6484
啖子	-11.6484
農隙	-11.6488
軋	-11.6489
莫甚於	-11.6489
以費叛	-11.6489
荀盈	-11.6491
築囿	-11.6495
薨于夷	-11.6497
帝乙	-11.65
莊僖	-11.6501
楚子圍鄭	-11.6514
政教	-11.6518
用大師	-11.6519
公孫兹	-11.6519
穀梁子曰	-11.6521
皆譏也	-11.6529
論語云	-11.6535
寤	-11.655
有二心	-11.655
叟	-11.6551
贛	-11.6552
牛馬	-11.6553
舌	-11.6557
縷	-11.6557
春秋大事表卷	-11.6557
敞	-11.6558
吝	-11.6559
厨	-11.656
申包胥	-11.6561
鄭伯克段于鄢	-11.6562
武王克殷	-11.6562
邠	-11.6563
東莞	-11.6563
齊人取子糾殺之	-11.6564
伯姬歸于紀	-11.6565
禆竈	-11.6565
右一著例	-11.6565
伐英氏	-11.6565
宋人執鄭祭仲	-11.6566
䘏	-11.6566
或日或不日	-11.6567
赤歸于曹	-11.6568
長垣縣	-11.6568
寤生	-11.6568
分為二	-11.657
築郎囿	-11.6571
來盟于師	-11.6571
公至自齊居于鄆	-11.6572
不能以禮	-11.6583
共工	-11.6593
滅譚	-11.6604
天下國家	-11.6605
尊周室	-11.6613
莒潰	-11.6621
敗秦師	-11.6625
輈	-11.6628
遒	-11.6634
考工記	-11.6636
莭	-11.6637
徂	-11.6637
断	-11.6637
酆	-11.6638
鈹	-11.6638
孫炎曰	-11.6639
羇	-11.6642
方伯連帥	-11.6643
饑饉	-11.6643
孟津	-11.6648
継	-11.6649
惠公仲子	-11.6649
黜陟	-11.665
次于五氏	-11.6651
楚公子嬰齊帥師伐鄭	-11.6651
季友仲遂	-11.6652
可不謹	-11.6653
鄢陵之戰	-11.6653
趙氏匡曰	-11.6654
朝聘之數	-11.6657
無貶辭	-11.6665
趙鞅帥師	-11.6667
之大故也	-11.6667
夏季孫宿如晉	-11.6674
安甫	-11.6686
有奉焉	-11.6691
各以其	-11.6693
殊不知	-11.6697
求賂	-11.6699
襄十六年	-11.6709
不書爵	-11.6714
史策	-11.6716
貉	-11.6718
往弔	-11.672
虔	-11.672
餓	-11.6721
王樵氏曰	-11.6722
衽	-11.6722
歇	-11.6723
劉蚠	-11.6723
饜	-11.6725
繻葛	-11.6726
孟孝伯	-11.6726
草莽	-11.6728
㳂	-11.6728
禫	-11.6728
贖	-11.6728
伐楚以救江	-11.6728
顛倒	-11.6729
桓宫僖宫	-11.673
妘姓	-11.6731
虎賁	-11.6731
荀寅士吉射	-11.6733
載馳	-11.6734
秋叔孫僑如如齊	-11.6735
敗某師	-11.6735
督揚	-11.6737
僖二十二年	-11.6743
來會葬	-11.6745
犬丘	-11.6748
曲梁	-11.6777
安豐	-11.6784
隠十一年	-11.68
勾	-11.6801
蠡	-11.6802
啓蟄	-11.6802
斐	-11.6806
燔	-11.6806
踣	-11.6807
朴	-11.6807
趙伯循	-11.6807
遼	-11.6807
胡𫝊	-11.6807
燼	-11.6807
鬱	-11.6808
級	-11.6811
子服惠伯	-11.6812
殳	-11.6812
許叔入于許	-11.6813
齧	-11.6814
蔡桓侯	-11.6814
歉	-11.6814
宋人伐鄭圍長葛	-11.6815
表裏	-11.6815
僖二十七年	-11.6816
嗣立明年	-11.6818
孔氏穎達曰	-11.6821
從其恒稱	-11.6821
捷菑	-11.6824
兵車之㑹	-11.6825
以諸侯之師伐	-11.6825
退舍	-11.6827
傅瑕	-11.6827
少牢	-11.6834
次止也	-11.6836
蔡侯朱	-11.6838
乘丘	-11.684
世相朝	-11.684
啖趙	-11.684
汾水	-11.6851
曷為或言	-11.6856
勇力	-11.6869
旐	-11.6877
肱	-11.6878
騂	-11.6882
救台	-11.6882
蔣	-11.6888
與之俱	-11.689
震電	-11.6892
日月星辰	-11.6893
染	-11.6893
黻冕	-11.6894
纁	-11.6895
田孟諸	-11.6897
次于垂葭	-11.6898
虒祁	-11.6898
郪丘	-11.6898
蔡季自陳歸于蔡	-11.69
公會晉侯齊侯宋公	-11.69
合晉楚之成	-11.6901
怠慢	-11.6902
齊侯唁公于野井	-11.6902
昃	-11.6902
為賢者諱	-11.6903
鹿上之盟	-11.6904
郳黎來	-11.6905
覇主	-11.6918
如齊納幣	-11.6926
毛詩	-11.6953
章華	-11.6957
各有所	-11.6963
鄭玄云	-11.6968
芋	-11.6969
公羊傳其言	-11.6969
建子之月	-11.697
劔	-11.6971
彈	-11.6972
剥	-11.6973
母以子貴	-11.6977
諒闇	-11.6978
鼷鼠	-11.6978
畀宋人	-11.6978
貙	-11.6979
懟	-11.698
高傒	-11.6983
君其圖之	-11.6984
將卑師衆	-11.6984
築鹿囿	-11.6985
諸兒	-11.6988
執齊慶封殺之	-11.6989
陳侯之弟	-11.6995
鄒縣	-11.6996
百雉	-11.7002
司馬子反	-11.7006
弑子赤	-11.7008
與民同	-11.7009
南蠻	-11.7015
子朝之亂	-11.7016
向巢	-11.7032
个	-11.7054
嚳	-11.7055
驛	-11.7057
輝	-11.7062
縗	-11.7063
伍員	-11.7063
鸞	-11.7063
郫	-11.7065
彝	-11.7067
臧孫辰告糴于齊	-11.7068
蒍賈	-11.7068
仲虺	-11.7069
著丘公	-11.7071
殺其君之子	-11.7071
不可不察也	-11.7072
陳侯之弟招殺陳世子偃師	-11.7073
祭叔來聘	-11.7074
孫氏覺曰	-11.7075
不可掩矣	-11.7075
公子遂如齊逆女	-11.7075
曹伯歸自京師	-11.7075
潘黨	-11.7076
人之情	-11.7082
荀偃士匄	-11.7084
及楚人戰	-11.7084
无咎	-11.7085
恒星	-11.7089
于泓	-11.7091
丘輿	-11.7101
州東南	-11.7105
又何求	-11.7113
莊三十二年	-11.7116
六月公㑹	-11.7117
蒙上文	-11.7123
克段	-11.7123
汝水	-11.7128
族類	-11.7135
箭	-11.7136
得其正	-11.7142
欒髙	-11.7143
瘧	-11.7144
縳	-11.7147
紿	-11.7149
濰	-11.715
鹿鳴	-11.715
筭	-11.715
梓	-11.715
卜郊不從	-11.7152
公子目夷	-11.7152
宋公使華元來聘	-11.7154
絜	-11.7154
錮欒氏	-11.7154
捍	-11.7154
徐人取舒	-11.7156
不嘗藥	-11.7156
鄧曼	-11.7157
藪澤	-11.7159
靈臺	-11.7165
孔圉	-11.7166
2.2	-11.7176
列於㑹	-11.7186
侯于郕	-11.7187
校官	-11.719
舊典	-11.7193
滕成公	-11.7206
背音佩	-11.7227
中軍佐	-11.7228
異於他	-11.7228
京相璠曰	-11.7231
貍	-11.7232
𠂻	-11.7232
囂	-11.7235
鬯	-11.7236
趙嬰	-11.7238
莊二十八年	-11.7241
慧	-11.7241
飽	-11.7242
鄭公子歸生	-11.7242
沔	-11.7244
叔孫州仇仲孫何忌帥師圍郈	-11.7244
稱國以殺而不去其官	-11.7245
泉臺	-11.7245
齊人執子叔姬	-11.7245
賊未討	-11.7255
緩急	-11.7265
二十五里	-11.727
昭二十六年	-11.7272
鄭伯逃歸	-11.7279
執虞公	-11.7287
請遷于	-11.7299
紫	-11.7301
孤卿	-11.7311
蛇丘	-11.7315
獒	-11.7315
去起吕反	-11.7316
魯之臣子	-11.7316
笠	-11.7319
鯈	-11.7322
裹	-11.7324
蠢	-11.7326
挽	-11.7326
存天理	-11.7327
郔	-11.7327
恒星不見	-11.7327
趙汸曰	-11.7328
啻	-11.7329
衣裳之㑹	-11.7329
新延廐	-11.7329
方伯連帥之職	-11.733
中行穆子	-11.7331
舊史之文	-11.7331
莒挐	-11.7332
齊人執單伯	-11.7333
禮樂征伐	-11.7334
曲沃武公	-11.7334
桃丘	-11.7336
搆怨	-11.7337
及於難	-11.7341
四岳	-11.7355
私忿	-11.7357
尉氏	-11.7361
首尾	-11.7364
華登	-11.7364
之罪人也	-11.737
高張	-11.7374
僖三十	-11.7384
爻辭	-11.7398
葵	-11.7405
旆	-11.7408
炫	-11.7409
馹	-11.7409
方城之外	-11.741
峻	-11.7411
澠	-11.7412
黔	-11.7414
二千五百人	-11.7414
鉤	-11.7416
淇	-11.7416
以自遷為文	-11.7418
陸費墀	-11.7418
千乗之國	-11.7419
告于廟	-11.7419
鄭伯逃歸不盟	-11.7421
公追戎于濟西	-11.7421
冬仲孫何忌帥師伐邾	-11.7421
寰内諸侯	-11.7422
慊	-11.7422
禹湯	-11.7423
可謂深切著明矣	-11.7423
商頌	-11.7425
侵曹伐衛	-11.7427
太傅	-11.743
放其大夫	-11.7431
㑹盟侵伐	-11.7436
烏餘	-11.744
方嶽	-11.7442
忠孝	-11.7444
百畝	-11.745
陜州	-11.7457
白馬	-11.7459
十有六	-11.7496
籍談	-11.7497
瓘	-11.7497
軾	-11.7498
霤	-11.7501
檟	-11.7502
鞮	-11.7503
坂	-11.7504
大宰嚭	-11.7505
邰	-11.7505
丹桓宫楹	-11.7506
詎	-11.7506
鄵	-11.7507
孫士毅	-11.7507
陸錫熊	-11.7508
晉侯執曹伯	-11.7509
肹	-11.751
鄭伯使宛來歸祊	-11.751
孔父仇牧	-11.7512
述職	-11.7513
鄂侯	-11.7513
范甯	-11.7514
郯伯姬	-11.7515
從同同	-11.7516
頻食	-11.7518
羽翼	-11.7518
至自乾侯	-11.7519
韓不信	-11.7522
舜典	-11.7523
楚人救衛	-11.7524
五味	-11.7524
臨川	-11.7525
以諸侯伐	-11.7526
公子彄	-11.7532
為公諱	-11.7547
切又音	-11.7549
見賢遍切	-11.7588
聾	-11.759
既而悔之	-11.7591
盱	-11.7594
蠧	-11.7595
諸侯放恣	-11.7595
請於天子	-11.7596
以名赴	-11.7596
晉人圍郊	-11.7598
鈎	-11.7598
㤀	-11.7599
輕重之權衡	-11.7599
宋人弑其君杵臼	-11.76
始朝公也	-11.7601
莒牟夷	-11.7602
荆敗蔡師	-11.7604
祝佗	-11.7604
盧蒲	-11.7606
承匡	-11.7614
』,	-11.7615
叔彭生	-11.7617
魏郡	-11.7625
浮來	-11.7625
濮州	-11.763
易牙	-11.7631
兵柄	-11.7643
湯武	-11.7661
譆	-11.7678
餬	-11.7679
妣	-11.7683
鞍	-11.7683
韙	-11.7684
内弗受	-11.7686
㑹于澶淵	-11.7687
天王入于成周	-11.7687
月恭校上總纂官	-11.7688
大一統	-11.7689
公子遂叔孫得臣如齊	-11.7689
瓠	-11.7689
晝夜	-11.7689
士爕	-11.769
震夷伯之廟	-11.769
翼戴	-11.7691
邦衡胡氏曰	-11.7691
楚子鄭伯伐宋	-11.7691
㑹王世子于首止	-11.7692
誅亂臣討賊子	-11.7692
厄	-11.7692
包茅	-11.7693
齊人伐山戎	-11.7694
狄入衛	-11.7696
降鄣	-11.7702
寗母	-11.7708
甯母	-11.7712
奚仲	-11.7712
姑蔑	-11.7715
杜注魯地	-11.7726
桓魋	-11.7747
跗	-11.776
戎蠻	-11.7765
洲	-11.7766
雁	-11.7767
春秋左氏傳注疏卷	-11.777
遐	-11.7771
槐	-11.7772
濳	-11.7772
臧僖伯	-11.7773
黿	-11.7773
椑	-11.7774
波	-11.7774
閣	-11.7776
岌	-11.7776
公及宋公遇于清	-11.7776
鞫居	-11.7777
枵	-11.7778
取賂而還	-11.7778
伊雒之戎	-11.7779
寰宇記	-11.7779
木訥	-11.778
歐陽	-11.778
柰何	-11.7781
公子翬如齊逆女	-11.7781
叔弓如宋	-11.7781
許男新臣卒	-11.7781
興滅國繼絶世	-11.7783
華貙	-11.7783
藏冰	-11.7783
同盟于蟲牢	-11.7784
弄	-11.7784
次于滑	-11.779
天下有道	-11.779
已滅矣	-11.7793
八百乗	-11.7797
為宋討	-11.7798
次厥貉	-11.7801
襄三十一年	-11.7803
滎	-11.7807
滅夔	-11.7808
單襄公	-11.7821
至河乃復	-11.7823
1.2	-11.7824
杞靖	-11.7832
斿	-11.7844
饔	-11.785
丸	-11.786
聳	-11.7862
芟	-11.7865
蘩	-11.7865
瑜	-11.7865
頓丘	-11.7865
義又見隱	-11.7865
霖	-11.7866
孔晁	-11.7866
鄍	-11.7867
跳	-11.7869
鶂	-11.787
晉荀吳帥師	-11.787
惕	-11.787
誑	-11.787
丞	-11.7871
斁	-11.7871
徼福	-11.7871
仲孫羯	-11.7871
榦	-11.7872
雨不克葬	-11.7872
媿	-11.7872
袵	-11.7872
河曲之戰	-11.7873
潼	-11.7873
卒于曲棘	-11.7873
祭公來遂逆王后于紀	-11.7873
敗頓胡沈蔡陳許之師	-11.7873
公子遂如京師遂如晉	-11.7874
祲	-11.7874
鄭及晉平	-11.7877
弑逆之賊	-11.7878
綱領	-11.7879
同外楚	-11.788
臨羣臣	-11.788
暴骨	-11.7882
公子遂如楚乞師	-11.7882
八百乘	-11.7886
公至自伐	-11.7888
王叔桓公	-11.7888
陵遲	-11.7889
桃林	-11.789
嬖妾	-11.7893
八十里	-11.7903
胡安國曰按左氏	-11.7911
祊田	-11.7917
社稷宗廟	-11.7928
亀	-11.7949
呈	-11.7952
疫	-11.7953
殖綽	-11.7956
疥	-11.7957
眇	-11.7957
兖州	-11.7961
馮翊	-11.7961
翕	-11.7962
齊師宋師曹師城邢	-11.7963
鞠	-11.7963
公及齊大夫盟于蔇	-11.7963
蒞	-11.7963
齊人殱于遂	-11.7964
悌	-11.7964
啼	-11.7964
吞噬	-11.7964
亡國之社	-11.7964
頺	-11.7966
亞旅	-11.7966
同姓之國	-11.7967
恐懼修省	-11.7967
受其咎	-11.7968
百餘年	-11.7969
次于陽州	-11.7969
黃池	-11.7971
黷武	-11.7972
黍稷	-11.7975
孔氏穎逹曰	-11.7975
盟于牡丘	-11.7976
杞孝	-11.7987
胡安國	-11.7994
佐上軍	-11.7995
僖二十九年	-11.8003
召陵侵楚	-11.8004
四年春王正月公	-11.8021
弑逆之罪	-11.8027
魯史之舊	-11.8028
逋	-11.8032
饔餼	-11.8033
楽	-11.8038
義引釋例	-11.8039
杏	-11.8049
隷	-11.8049
疵	-11.8051
禴	-11.8051
夙沙衛	-11.8053
頹	-11.8053
掖	-11.8053
二王之後	-11.8053
墳	-11.8053
祼	-11.8054
紀季以酅入于齊	-11.8056
伉儷	-11.8057
陳侯鮑卒	-11.8057
寮	-11.8058
聖人之情見矣	-11.8058
嚭	-11.8059
以㑹致	-11.806
的	-11.806
穪	-11.806
馨	-11.8061
騷	-11.8062
㢘	-11.8063
讙闡	-11.8064
渠蒢	-11.8065
大夫無遂事	-11.8065
禇師	-11.8065
欒郤	-11.8066
慿陵	-11.8066
禘祫	-11.8067
忮	-11.8067
如楚乞師	-11.8069
卻克	-11.8075
退飛	-11.8079
四時之田	-11.8079
見矣左氏曰	-11.808
甲乙	-11.808
手足	-11.8081
10.3	-11.8084
劉卷卒	-11.8113
爲于僞反	-11.8127
王室之亂	-11.813
臺駘	-11.8135
饘	-11.8139
璠	-11.8139
諮	-11.8141
三年喪畢	-11.8142
皮弁	-11.8142
僨	-11.8143
鉅	-11.8145
庖	-11.8146
圍郈	-11.8147
惴	-11.8148
秬鬯	-11.815
坻	-11.815
居于皇	-11.8151
挐	-11.8151
稚	-11.8151
顙	-11.8152
圉人犖	-11.8152
闘	-11.8153
枯	-11.8153
郜大鼎	-11.8154
單伯㑹伐宋	-11.8154
王師敗績于茅戎	-11.8155
隰朋	-11.8156
公子益師卒	-11.8156
嶧	-11.8157
潘崇	-11.8157
膏肓	-11.8158
孟莊子	-11.8159
摧	-11.8159
新作雉門及兩觀	-11.816
棫林	-11.8162
政在季氏	-11.8163
弒其君	-11.8164
聵	-11.8166
叔詣	-11.8169
齊侯伐萊	-11.817
鄭伯乞盟	-11.817
扶風	-11.8176
盂之㑹	-11.8182
記災也	-11.8185
無聞焉	-11.8221
伍奢	-11.8237
饌	-11.8241
巾車	-11.8242
絻	-11.8243
捕	-11.8244
觴	-11.8246
姨	-11.8246
縫	-11.8246
蘇忿生	-11.8247
響	-11.8249
胷	-11.8249
幷	-11.825
以妾為妻	-11.8251
恬	-11.8252
王孫蘇	-11.8253
内大惡諱	-11.8254
近刑人	-11.8256
書其重者	-11.8257
有國家者	-11.8257
甲午治兵	-11.8258
公至自唐	-11.826
庶㡬	-11.8261
百濮	-11.8263
不可勝誅	-11.8264
駟帶	-11.8266
陳轅濤塗	-11.8267
抑揚	-11.8273
秉政	-11.8276
瑶	-11.8326
郡國志	-11.8338
椁	-11.8342
囲	-11.8342
附庸之國	-11.8342
1.3	-11.8343
儋翩	-11.8344
葺	-11.8345
涸	-11.8348
濬	-11.8348
晉人殺欒盈	-11.8349
丹楹刻桷	-11.835
申無宇	-11.835
宋司馬華孫來盟	-11.835
顕	-11.8352
薨于乾侯	-11.8355
晉侯使士匄來聘	-11.8359
以無忘	-11.8359
楚人伐徐	-11.837
屈蕩	-11.837
淺深	-11.8397
梁益耳	-11.8399
2.3	-11.8402
護	-11.8425
注及下同	-11.8428
貜	-11.8436
跨	-11.8437
讟	-11.8438
緣陵	-11.8438
駮	-11.844
迋	-11.844
茀	-11.8441
禘于太廟用致夫人	-11.8441
斛	-11.8442
演	-11.8444
諉	-11.8444
濟西之田	-11.8444
先蔑奔秦	-11.8444
擕	-11.8446
陈	-11.8448
慆	-11.8448
歴三時	-11.8449
取讙及闡	-11.8449
戎伐凡伯	-11.845
孰甚焉	-11.8451
葬陳哀公	-11.8453
齊師滅譚	-11.8453
天理滅矣	-11.8455
夾谷之㑹	-11.8459
通鑑	-11.8459
入于曲沃	-11.8464
泓之戰	-11.8468
河南府	-11.8481
一家之	-11.8488
父子君臣	-11.8495
焉於䖍反	-11.8522
棟	-11.8528
廿	-11.8529
綺	-11.8533
祉	-11.8535
汰侈	-11.8535
澮	-11.854
帝嚳	-11.854
慨	-11.8542
鬷戾	-11.8542
肇	-11.8542
閟宫	-11.8544
十有五	-11.8545
御廩災	-11.8545
及者内為志	-11.8546
六鷁退飛	-11.8547
𫝑	-11.8547
魯史舊文	-11.8547
口血未乾	-11.8548
傎	-11.8548
虗	-11.8548
彼善於此	-11.8548
寶玉	-11.855
郤獻子	-11.8551
王札子殺召伯毛伯	-11.8552
范匄	-11.8552
雉門兩觀	-11.8553
十有八	-11.8555
驂乘	-11.8556
戍虎牢	-11.8558
宗祧	-11.8558
纂例	-11.8559
左丘明	-11.8571
分其室	-11.8575
廪丘	-11.858
楚之與國	-11.8606
從才用反	-11.8627
叱	-11.8628
褰	-11.8629
郭璞曰	-11.863
䢵	-11.8636
傒	-11.8642
歸粟于蔡	-11.8643
鉅鹿	-11.8643
出居于鄭	-11.8644
檜	-11.8644
花	-11.8644
焚咸丘	-11.8645
怵	-11.8645
䋲	-11.8645
至黄乃復	-11.8646
為後戒也	-11.8647
古人有言曰	-11.8648
影	-11.8648
土地人民	-11.8649
弑逆之人	-11.8654
殺之不以其罪	-11.8654
令狐之役	-11.8654
無功而還	-11.8657
執國命	-11.8658
圍長葛	-11.8659
永嘉	-11.866
長厯推	-11.8681
君與大夫	-11.8698
烏路反	-11.8713
迫逐	-11.872
』	-11.8722
脇	-11.8735
曠年無君	-11.8736
菁	-11.8738
息浪	-11.8738
好呼報切	-11.8739
朔旦冬至	-11.874
訂	-11.874
動大衆	-11.8743
四時之祭	-11.8743
氐	-11.8743
稱國以殺罪累上也	-11.8744
㤙	-11.8745
瓚	-11.8745
戎伐凡伯于楚丘以歸	-11.8746
妬	-11.8746
夫槩王	-11.8746
儼然	-11.8747
男女之别	-11.8747
不志此其志何也	-11.8748
舟之僑	-11.8749
王政不行	-11.875
舅姑	-11.8752
納頓子于頓	-11.8752
納公孫寧儀行父于陳	-11.8753
褐	-11.8753
粢	-11.8754
降而稱子	-11.8759
許翰	-11.876
以其君歸	-11.876
為内諱也	-11.8763
儀行父	-11.8769
衛侯鄭伯曹伯	-11.8771
叔姬來歸	-11.8808
箾	-11.8821
囬	-11.8837
逰	-11.8837
狐駘	-11.8838
㸃	-11.8839
咮	-11.884
介音界	-11.8842
弇	-11.8842
訥	-11.8842
涼	-11.8843
大雨震電	-11.8844
诸侯	-11.8844
揺	-11.8844
繩證	-11.8844
汸	-11.8846
公孫黒	-11.8846
以日月為例	-11.8847
府庫	-11.8847
公子慶父出奔莒	-11.8847
以王父字為氏	-11.8847
戕鄫子于鄫	-11.8848
蚡泉	-11.8848
晉侯殺其世子申生	-11.8849
宋公陳侯蔡人衛人伐鄭	-11.8849
劉夏逆王后于齊	-11.8851
今河南府	-11.8851
言於齊侯曰	-11.8851
召伯毛伯	-11.8852
與聞乎故	-11.8852
用大衆	-11.8852
鼷䑕食郊牛	-11.8853
挟	-11.8853
其弟云者	-11.8854
雨木冰	-11.8859
蕩澤	-11.887
負瑕	-11.8875
盟于柯	-11.8885
4.2	-11.8897
水逕	-11.8914
賵仲子	-11.8939
勁	-11.894
浹	-11.8944
堞	-11.8944
扇	-11.8944
杜佑通典	-11.8945
敷	-11.8947
儋括	-11.8947
棟案	-11.8947
沴	-11.8948
嗇	-11.895
公及邾儀父盟于蔑	-11.8953
孑	-11.8953
宋子哀來奔	-11.8953
齊陽生入于齊	-11.8954
.	-11.8954
留吁	-11.8954
秦伯之弟鍼	-11.8955
宋衛陳鄭	-11.8955
展禽	-11.8957
初稅畝	-11.8958
將尊師少	-11.8958
生二子曰	-11.896
端委	-11.8962
曹南之盟	-11.8962
有自來矣	-11.8962
蕭魚之㑹	-11.8964
秦師伐晉	-11.8966
為桓公諱	-11.8969
世系	-11.8971
誓於天子	-11.8976
千六百	-11.9009
百餘里	-11.9037
趙汸補注曰	-11.9038
煬宫	-11.9039
馴	-11.904
翣	-11.9043
魂	-11.9043
苗裔	-11.9051
𢎞農	-11.9053
蜮	-11.9053
襄陽府	-11.9054
用者不宜用也	-11.9055
戰不言伐	-11.9055
公伐邾取訾婁	-11.9056
叩	-11.9056
陳君舉	-11.9057
猶朝于廟	-11.9057
鄎	-11.9057
夫人姜氏會齊侯于	-11.9058
郤芮	-11.9059
其文則史	-11.9059
平莒及郯	-11.9059
齊侯伐北燕	-11.9059
公子慶父如齊	-11.9059
匹夫匹婦	-11.906
春秋集義卷	-11.9062
壬申公朝于王所	-11.9063
奬王室	-11.9063
陳氏曰傳言	-11.9065
貨財	-11.9066
引釋例	-11.9074
黑背	-11.9076
行㑹禮	-11.908
史冊	-11.909
羹	-11.9143
諶	-11.9145
樂音洛	-11.9147
左傳杜林合注卷	-11.9147
蚡冒	-11.9148
瘳	-11.9153
萇	-11.9154
公歛處父	-11.9154
棗	-11.9156
求名而不得	-11.9156
芥	-11.9157
状	-11.9158
憐	-11.9159
参	-11.9159
立者不宜立也	-11.9159
讀舊書	-11.9162
無駭帥師入極	-11.9163
伐鄭圍新城	-11.9163
不亦甚乎	-11.9164
蒲餘侯	-11.9164
臧孫紇	-11.9165
冩	-11.9166
罪累上也	-11.9166
不没其實	-11.9166
柏舉之戰	-11.9166
為尊者諱	-11.9167
憊	-11.9167
卒于鄵	-11.9168
虞師晉師滅下陽	-11.9168
遂繼事也	-11.9169
把伯來朝	-11.9174
莫重於	-11.9176
非諸侯所	-11.9176
其言入何	-11.918
天子在是	-11.9198
讞	-11.9204
劉氏敞	-11.9209
今知不然者	-11.9251
圜	-11.9255
轂	-11.9255
豔	-11.9257
餞	-11.9258
夏時冠周月	-11.9259
陳氏曰傳見	-11.926
刳	-11.9262
公子友如陳葬原仲	-11.9262
彚	-11.9262
泝	-11.9262
踞	-11.9264
諛	-11.9264
寰	-11.9264
拏	-11.9264
汨	-11.9265
堊	-11.9265
元凱	-11.9265
邾子克卒	-11.9266
窺伺	-11.9267
晉楚之從交相見	-11.9267
鼓用牲于社	-11.9268
序齊上	-11.9268
甲士三人	-11.9269
亡無日矣	-11.9269
及蘇子盟于女栗	-11.9271
歸邾子益于邾	-11.9271
公弟叔肸	-11.9271
汴梁路	-11.9272
不郊猶三望	-11.9272
者鮮矣	-11.9272
再失閏	-11.9272
豊	-11.9272
蘇氏轍曰	-11.9276
南逕	-11.9293
魚臺縣	-11.9299
瑰	-11.9353
蘋	-11.9357
薰	-11.936
執牛耳	-11.9361
猥	-11.9362
拊	-11.9363
戀	-11.9364
停	-11.9365
沉	-11.9366
閟	-11.9366
竪	-11.9367
魂魄	-11.9368
秣	-11.9368
疚	-11.9368
莵	-11.9369
羣廟之主	-11.9371
弁冕	-11.9371
謳	-11.9372
奎	-11.9373
繼弑君不言即位	-11.9373
秦人入鄀	-11.9374
晉侯使士鞅來聘	-11.9376
陛	-11.9377
季姬歸于鄫	-11.9377
孫叔敖	-11.9377
春秋類提要	-11.9378
雍廩	-11.9378
羣蠻	-11.9379
貫道王氏曰	-11.938
勵	-11.938
梁丘據	-11.938
室屋壞	-11.9381
陳侯之弟招	-11.9381
許遷于葉	-11.9381
魏錡	-11.9382
諸侯遂圍許	-11.9387
8.2	-11.9405
分入食限	-11.9407
筐	-11.9466
姬姓侯爵	-11.9468
悝	-11.9469
添	-11.947
討賊之詞	-11.9471
髙渠彌	-11.9476
凉	-11.9479
公與夫人姜氏遂如齊	-11.948
斧鉞	-11.948
塊	-11.9481
于袲伐鄭	-11.9483
約束	-11.9486
楚子伐陸渾之戎	-11.9487
宋師圍曹	-11.9489
晉趙盾帥師救陳	-11.949
斲	-11.949
雨螽于宋	-11.9491
北宫結	-11.9491
啖氏助曰	-11.9491
莫重乎	-11.9492
謀伐鄭也	-11.9505
四卿並	-11.9505
8.3	-11.9521
為國人所	-11.9541
倣	-11.9552
离	-11.9576
譌	-11.9577
皇瑗	-11.9578
抉	-11.9579
稟命	-11.9581
翫	-11.9586
炊	-11.9586
婺	-11.9588
壞隤	-11.9589
新延廏	-11.9589
張趯	-11.9589
天王使宰咺來歸惠公仲子之賵	-11.959
㦲	-11.9591
衛人殺州吁	-11.9591
掎	-11.9591
沈氏云	-11.9592
不待貶絶而罪惡見	-11.9592
蒢	-11.9592
餱	-11.9592
齊國夏帥師伐我西鄙	-11.9593
劉氏曰公羊云	-11.9593
叅	-11.9594
佑	-11.9594
及晉處父盟	-11.9595
乃克葬	-11.9595
上無天子下無方伯	-11.9595
壊隤	-11.9596
逄	-11.9596
乙未楚子昭卒	-11.9597
縦	-11.9597
櫕	-11.9601
初税畝	-11.9601
頥	-11.9604
睔	-11.9604
倒置	-11.9605
馴致	-11.9607
伐莒取鄆	-11.9628
義又見隠	-11.9645
簞	-11.9687
婼至自晉	-11.9692
泆	-11.9692
閉蟄	-11.9693
匠慶	-11.9695
瞞	-11.9697
酸棗	-11.9698
春秋分記卷	-11.9699
疢	-11.9699
疆戚田	-11.97
鬛	-11.97
核	-11.9701
糴茷	-11.9701
以璧假	-11.9702
寐	-11.9702
堂阜	-11.9704
何以書記異也何異爾	-11.9704
凍	-11.9704
崤	-11.9705
西安府	-11.9705
王者無外	-11.9705
濟河焚舟	-11.9705
擒	-11.9705
歸徳府	-11.9705
鄭殺其大夫申侯	-11.9706
網	-11.9707
墉	-11.9708
以討賊之辭	-11.9708
晉殺其大夫里克	-11.9709
螽螟	-11.9709
拱手	-11.9709
險阻	-11.9711
程滑	-11.9713
千乘之國	-11.9714
韋龜	-11.9714
獲罪於	-11.9718
能左右之	-11.9728
自絶於	-11.9771
知音智	-11.9794
櫝	-11.9798
灵	-11.9799
乳	-11.9801
飴甥	-11.9802
簫	-11.9806
劇	-11.9807
汎	-11.9807
錢	-11.9809
帳	-11.9811
黝	-11.9812
傍	-11.9812
爇	-11.9812
㨿	-11.9813
减	-11.9813
外取邑不書此何以書	-11.9814
笏	-11.9814
兩楹之間	-11.9815
熸	-11.9816
嬀	-11.9816
以赴書也	-11.9817
村	-11.9817
曩	-11.9817
郕降于齊師	-11.9817
枝葉	-11.9818
蕘	-11.9818
犂彌	-11.9818
豈一朝一夕之故哉	-11.9819
熊摯	-11.9819
公孫兹如牟	-11.9819
三月公如楚	-11.982
自周無出	-11.9821
晉侯執曹伯歸于京師	-11.9822
公㑹晉侯宋公衞侯鄭伯曹伯	-11.9822
程氏端學曰	-11.9822
以地正國	-11.9825
之總名	-11.9832
月辛丑大	-11.9838
其言歸何	-11.9852
楚子重伐	-11.9887
牝	-11.9912
劌	-11.9915
綜	-11.992
釋詁文	-11.992
雌	-11.9921
閠	-11.9923
粲	-11.9923
閒暇	-11.9923
縞	-11.9923
骸	-11.9923
矦	-11.9924
父音甫	-11.9924
紐	-11.9926
礱	-11.9928
任音壬	-11.9928
不旋踵	-11.993
高郵孫氏曰	-11.993
尹氏召伯毛伯以王子朝奔楚	-11.9931
壬午猶繹萬入去籥	-11.9931
之通稱	-11.9931
税畝	-11.9931
耗	-11.9931
叔孫豹鄫世子巫如晉	-11.9932
齊師遷紀郱鄑郚	-11.9932
尊君抑臣	-11.9933
溥	-11.9933
公斂處父	-11.9933
鄭世子華	-11.9933
璽	-11.9933
鐡	-11.9935
將尊師衆	-11.9937
黍離	-11.9937
以閏數	-11.9938
義利之	-11.9968
孺	-11.9993
一分入	-12.0003
未遷也	-12.0005
第二十	-12.0025
别彼列反	-12.0029
仆	-12.0029
繅	-12.0034
輯睦	-12.0037
蕭同姪子	-12.0037
洛誥	-12.0037
言於晉侯曰	-12.0038
寗俞	-12.004
蝕	-12.0042
絶不為親	-12.0042
鎭	-12.0044
堵敖	-12.0045
厉	-12.0045
場	-12.0045
燭之武	-12.0046
陸粲曰	-12.0046
曹羈出奔陳	-12.0047
王子瑕奔晉	-12.0047
歸父還自晉	-12.0048
伐宋圍緡	-12.0048
齊人歸公孫敖之喪	-12.0048
髙抑崇曰	-12.0049
蘇轍	-12.0049
齊陳乞弑其君荼	-12.0049
遂城郚	-12.0051
公孫敖帥師及諸侯之大夫救徐	-12.0051
故曰春秋成而亂臣賊子懼	-12.0051
又東南經	-12.0055
自天子出	-12.0059
以邑叛	-12.0065
公監之	-12.0067
6.2	-12.0069
月壬寅大	-12.0072
有以致之	-12.0097
月戊寅大	-12.0106
兌	-12.014
淖	-12.0141
炙	-12.0143
局	-12.0146
啓蟄而郊	-12.0148
逆數至	-12.0148
掘	-12.0149
牒	-12.015
鸛	-12.0151
禋	-12.0152
蚡	-12.0152
摩	-12.0154
延州來季子	-12.0154
苗賁皇	-12.0156
貎	-12.0156
武王伐紂	-12.0156
欽定四庫全書春秋分記卷	-12.0157
釡	-12.0158
闚	-12.0158
姆	-12.016
藏氷	-12.016
郁	-12.0161
公及莒人盟于浮來	-12.0161
劉子單子以王猛居于皇	-12.0161
鼷	-12.0161
不為雨止	-12.0164
同惡相濟	-12.0165
鄭世子忽復歸于鄭	-12.0165
邯鄲午	-12.0167
詞繁而不殺	-12.0168
楚子鄭人侵陳遂侵宋	-12.0168
春秋闕疑卷	-12.017
学	-12.0173
6.3	-12.0188
月癸巳大	-12.0188
月庚午大	-12.0213
褚	-12.0251
1.4	-12.0262
凱	-12.0266
七輿大夫	-12.0267
垢	-12.0268
燧	-12.0269
㓙	-12.027
籩豆	-12.0271
龍見而雩	-12.0271
遞	-12.0272
難乃旦切	-12.0273
鰥寡	-12.0274
蕭同叔子	-12.0275
埀	-12.0277
桃丘弗遇	-12.0278
涑	-12.0279
公敗齊師于長勺	-12.0279
鄭滅許	-12.028
葭	-12.028
趙鵬飛	-12.028
鄭伯使其弟語來盟	-12.0281
侔	-12.0281
楚殺其大夫公子壬夫	-12.0282
嶺	-12.0283
單靖公	-12.0283
東萊吕氏曰	-12.0284
楚子䖍誘蔡侯般殺之于申	-12.0284
邾人牟人葛人來朝	-12.0284
弑父與君	-12.0285
晉魏曼多帥師侵衛	-12.0285
秦人白狄伐晉	-12.0286
楚公子棄疾殺公子比	-12.0286
仲孫何忌及邾子盟	-12.0288
有間矣	-12.0295
參譏之	-12.0334
衛孫林父曹人邾	-12.0345
舍音捨	-12.0377
謡	-12.0384
番	-12.0388
繄	-12.0389
他皆放此	-12.0389
鈇	-12.0393
夏五月丁丑烝	-12.0393
漢書地理志	-12.0395
天王使毛伯來錫公命	-12.0396
飭	-12.0396
熹	-12.0396
汝寧府	-12.0397
冬有星孛于大辰	-12.0397
救患分災	-12.0397
漆閭丘	-12.0398
憝	-12.0398
八月丁丑夫人姜氏入	-12.0398
㑹吳于柤	-12.04
慶虎慶寅	-12.04
用幣于社	-12.04
秋取根牟	-12.0401
盜殺蔡侯申	-12.0401
及陳袁僑盟	-12.0401
楚殺其大夫得臣	-12.0401
一事再見	-12.0401
子結媵陳人之婦于鄄遂及齊侯宋公盟	-12.0401
5.4	-12.0401
澂	-12.0401
胡子髠沈子	-12.0401
齊侯襲莒	-12.0402
公㑹吳伐齊	-12.0402
槖臯	-12.0403
撥亂反正	-12.0404
公子遂如齊納幣	-12.0404
邾人鄭人伐宋	-12.0405
曹伯莒子邾子滕子薛伯把伯小邾子	-12.0408
8.4	-12.0429
奈	-12.048
稱疾不	-12.0496
斟灌	-12.0502
少詩照反	-12.0504
掉	-12.0505
縢	-12.0506
紆	-12.0506
陳直覲	-12.0507
翠	-12.0509
尔	-12.0513
句瀆之丘	-12.0513
貍脤	-12.0514
鑄刑書	-12.0514
僥倖	-12.0514
吉禘于莊公	-12.0514
隕霜不殺草李梅實	-12.0515
殲	-12.0515
羌	-12.0516
毁廟之主	-12.0516
貴戚之卿	-12.0516
夫人姜氏如莒	-12.0517
儻	-12.0517
躡	-12.0518
公㑹諸侯晉大夫盟于扈	-12.0518
蔓成然	-12.0518
冬城向	-12.0518
楚人執鄭行人良霄	-12.0519
奭	-12.052
莒弑其君庶其	-12.0521
鄭忽出奔衛	-12.0521
邾庶其以漆閭丘來奔	-12.0521
歸諸京師	-12.0521
㸔	-12.0522
優劣	-12.0522
以楚師伐齊	-12.0522
欑	-12.0522
延廐	-12.0522
王人子突救衛	-12.0522
陳人圍頓	-12.0522
晉陽處父帥師伐楚以救江	-12.0523
𩔖	-12.0523
尹子單子	-12.0526
王氏樵曰	-12.0526
王氏葆曰	-12.0526
邲之敗	-12.0528
志不敬也	-12.0529
月癸丑大	-12.0583
月癸酉大	-12.06
月庚子大	-12.0616
嘖	-12.0617
月壬子大	-12.062
綘	-12.0626
隄	-12.0628
捘	-12.063
劓	-12.0632
聿	-12.0633
蕰	-12.0635
舂	-12.0636
泛	-12.0636
阼階	-12.0637
大衍歴正月	-12.0637
臨川呉氏曰	-12.0638
𣸪	-12.0639
錫桓公命	-12.0639
墊隘	-12.064
薛弑其君比	-12.064
罄	-12.0641
糞	-12.0641
猶愈於	-12.0641
僻陋	-12.0642
冬城防	-12.0642
筆削之㫖	-12.0642
討不庭	-12.0642
榖伯綏	-12.0643
雷電	-12.0644
公如齊公至自齊居于鄆	-12.0645
丁亥楚子入陳	-12.0646
侯犯以郈叛	-12.0646
杜氏諤曰	-12.0646
内為志	-12.0646
師于豫章	-12.065
曹伯襄復歸于曹	-12.0651
月戊申大	-12.0655
6.4	-12.0659
月丁卯大	-12.0668
月丙辰大	-12.0672
月己酉大	-12.0682
7.3	-12.0688
猗	-12.0699
月丙子大	-12.07
月甲戌大	-12.072
月丁酉大	-12.0744
胡氏傳案左氏	-12.0746
莒人邾人滕人薛人杞人小邾人	-12.0748
圓	-12.0749
跣	-12.0749
長丁丈切	-12.0755
周公忌父	-12.0755
諦	-12.0755
者孰謂謂	-12.0756
嫳	-12.0757
涌	-12.0759
罹	-12.076
莒慶來逆叔姬	-12.0761
以尊及卑	-12.0761
嫠	-12.0761
将卑師少	-12.0761
柝	-12.0762
冬紀侯來朝	-12.0762
昬姻	-12.0762
許世子止	-12.0763
鄧侯吾離來朝	-12.0763
辛未取郜辛巳取防	-12.0764
公㑹齊侯于濼	-12.0764
宻邇	-12.0764
不日此何以日	-12.0764
潁考叔	-12.0765
夏公如齊觀社	-12.0766
宋蕩伯姬來逆婦	-12.0767
衛公孟彄帥師伐曹	-12.0767
堤	-12.0768
楚子蔡侯次于厥貉	-12.0768
徯	-12.0769
蔡公孫歸生	-12.0769
齊殺其大夫國佐	-12.0772
陳殺其大夫洩冶	-12.0773
八月甲戌同盟于平丘	-12.0774
月辛未大	-12.0794
月丁丑大	-12.0828
月丙午大	-12.0828
関	-12.0856
豷	-12.087
琮	-12.0873
両	-12.0874
軼	-12.0877
莬	-12.088
臀	-12.088
扳	-12.088
蓍	-12.0881
脰	-12.0882
寃	-12.0883
昨	-12.0884
謨	-12.0884
厎	-12.0885
公及戎盟于唐	-12.0885
䘙	-12.0885
沾	-12.0885
公㑹晉師于瓦	-12.0885
東郭書	-12.0885
秋有蜚	-12.0886
仲山甫	-12.0887
餌	-12.0887
溠	-12.0888
擯	-12.0888
澶	-12.0888
蠭	-12.0888
紀叔姬歸于酅	-12.0889
晉侯夷吾卒	-12.0891
鰥	-12.0891
許遷于夷	-12.0892
迯	-12.0892
丁丑作僖公主	-12.0892
邾子來奔喪	-12.0892
齊師宋師次于郎	-12.0893
丙午及荀庚盟丁未及孫良夫盟	-12.0893
喬	-12.0894
晉趙鞅歸于晉	-12.0894
為後世鑒	-12.0894
秦人來歸僖公成風之襚	-12.0894
木訥趙氏曰	-12.0894
春秋無義戰	-12.0898
楚人敗徐于婁林	-12.0899
按本例云	-12.0899
月乙未大	-12.0901
月己亥大	-12.0942
月甲寅大	-12.0952
鄱	-12.099
萑	-12.0994
賑	-12.1002
齡	-12.1006
傑	-12.1006
建酉之月	-12.1008
瑟	-12.101
渴	-12.1011
苞	-12.1011
嬰兒	-12.1012
鱄設諸	-12.1012
租	-12.1013
未適人	-12.1014
佹	-12.1016
太宰嚭	-12.1016
月下辛卜	-12.1016
文之昭也	-12.1017
鏤	-12.1017
楚子誘戎蠻子殺之	-12.1018
月壬辰大	-12.1018
訓之義大矣	-12.102
伐國不言圍邑	-12.102
公㑹齊侯于平州	-12.102
比事而觀	-12.1021
矧	-12.1022
避其號	-12.1023
克寛曰	-12.1024
秋宋大水	-12.1025
楚人陳侯蔡侯鄭伯許男圍宋	-12.1026
敗莒師	-12.1026
侯宋公衛侯曹伯伐鄭	-12.1027
公子貞帥師	-12.103
月丙申大	-12.1035
5.5	-12.1058
月丁巳大	-12.107
莫大于	-12.1074
月庚寅大	-12.1091
蝥	-12.1126
扄	-12.1132
攅	-12.1134
玊	-12.1134
絏	-12.1134
几筵	-12.1136
邜	-12.1137
刈	-12.1137
蔡世子般	-12.1139
.4	-12.114
慿	-12.1141
譎而不正	-12.1141
棋	-12.1142
罸	-12.1143
黒臀	-12.1143
霆	-12.1144
天火曰災	-12.1144
徐吾氏	-12.1145
公及齊人狩于禚	-12.1145
作僖公主	-12.1146
九月辛丑用郊	-12.1146
郊牛之口傷改卜牛牛死乃不郊	-12.1147
衛侯燬滅邢	-12.1147
使孫良夫來盟	-12.1147
世衰道微	-12.1147
宋人衛人入鄭	-12.1148
敗狄于鹹	-12.1148
勢益張	-12.1148
銷	-12.1148
成肅公	-12.1148
唯君圖之	-12.1148
季孫行父帥師城諸及鄆	-12.1149
舉大衆	-12.115
蔡遷于州來	-12.115
以建子為	-12.1152
㪚	-12.1153
月乙巳大	-12.1193
新鄭縣	-12.121
月庚戌大	-12.1219
月甲午大	-12.1223
冨	-12.126
牛羊豕	-12.126
養由基	-12.1262
秬	-12.1265
僮	-12.1267
月丙戌大	-12.1267
东	-12.1269
叔振鐸	-12.1269
齊人陳人曹人伐宋	-12.1269
桀紂	-12.127
忒	-12.1271
翹	-12.1271
昩	-12.1272
倘	-12.1272
城小穀	-12.1272
陪臣執國命	-12.1272
㛰姻	-12.1273
師夜遁	-12.1273
衛師入郕	-12.1274
城莒父及霄	-12.1274
尓	-12.1276
楚公子貞帥師救鄭	-12.1277
豈禮也哉	-12.1277
聘且涖盟	-12.1278
瞫	-12.1278
荆敗蔡師于莘	-12.1278
介人侵蕭	-12.1279
楚殺其大夫公子申	-12.1279
人道之大倫	-12.1279
顏	-12.128
晉師白狄伐秦	-12.1283
銓	-12.1284
氣餘一千	-12.1289
月庚申大	-12.1294
院	-12.1303
月戊子大	-12.1309
7.2	-12.1324
月辛丑小	-12.1347
抵	-12.1377
公㑹晉侯齊侯宋公衛侯鄭伯曹伯	-12.1388
守手又反	-12.1389
窕	-12.139
拳	-12.1391
洹	-12.1391
綦	-12.1393
㒺	-12.1395
晉趙武楚屈建	-12.1395
蘧伯玉	-12.1398
儁	-12.1399
琅琊	-12.14
叔弓帥師疆鄆田	-12.1402
微而顯	-12.1403
轘轅	-12.1404
愾	-12.1405
以自奔為文	-12.1405
以亂易亂	-12.1406
請平于晉	-12.1406
凛	-12.1406
輜	-12.1407
侯宣多	-12.1407
公叔文子	-12.1407
犧牲玉帛	-12.1407
不下堂	-12.1408
於越入呉	-12.1408
獲陳夏齧	-12.1408
築臺于薛	-12.1408
未知孰是	-12.1408
不善之積	-12.1408
郹	-12.1409
公孫歸父㑹楚子于宋	-12.1409
酷	-12.141
以蔡侯獻舞歸	-12.141
齊侯伐我北鄙圍成	-12.141
季孫斯仲孫何忌	-12.141
宋人圍滕	-12.1411
聲罪致討曰伐	-12.1412
九分入	-12.1412
譚子奔莒	-12.1412
月甲申大	-12.1415
有王者作	-12.1416
楚人殺陳夏徴舒	-12.1416
不知自反	-12.1419
月癸酉小	-12.1431
月甲辰大	-12.1439
紘	-12.1514
畛	-12.1519
腥	-12.152
恢	-12.1521
監本訛作	-12.1526
縋	-12.1527
瞑	-12.1532
標	-12.1532
子産相鄭伯	-12.1532
何常之有	-12.1532
很	-12.1532
春秋辯義卷	-12.1532
誡	-12.1533
遯	-12.1534
韭	-12.1534
簿	-12.1535
公侯伯子男	-12.1536
李廵曰	-12.1537
九月僑如以夫人婦姜氏至自齊	-12.1537
城諸及鄆	-12.1538
冬宋人取長葛	-12.1538
冬城漆	-12.1538
蔡陳許	-12.1539
塞井夷竈	-12.154
片	-12.154
胡氏安國	-12.154
丹楹	-12.154
易樹子	-12.1541
叔弓帥師圍費	-12.1541
跖	-12.1541
夏五月公四不視朔	-12.1541
不鼓不成列	-12.1541
豪	-12.1541
鄆讙龜陰	-12.1542
畒	-12.1542
秦伯罃卒	-12.1542
四丘為甸	-12.1543
曹伯莒子邾子滕子薛伯杞伯小邾子	-12.1543
敗秦師于殽	-12.1543
公追齊師至酅弗及	-12.1544
以二事出	-12.1546
楚人執徐子	-12.1547
千八百	-12.1556
六分入	-12.1558
五分入	-12.1571
7.4	-12.1575
二分入	-12.1599
月乙亥大	-12.1627
侵蔡蔡潰遂伐楚	-12.1636
3.4	-12.1648
媾	-12.1653
下及注同	-12.1656
迓	-12.166
令力呈反	-12.166
掫	-12.166
労	-12.1661
翻	-12.1663
胸	-12.1666
韠	-12.1667
使所吏切	-12.1668
顔師古	-12.1669
蔡侯鄭伯㑹于鄧	-12.1669
冬徐伐莒	-12.167
不能防閑其母	-12.167
棘櫟麻	-12.1671
評	-12.1672
矢魚于棠	-12.1672
窋	-12.1672
月丙寅大	-12.1672
薳啟疆	-12.1674
廬陵李	-12.1674
璣	-12.1674
坫	-12.1674
陳侯之弟黄出奔楚	-12.1674
灑	-12.1676
夏四月三卜郊不從乃免牲	-12.1677
内無所承上不請命	-12.1677
士吉射	-12.1677
公狩于郎	-12.1678
忤	-12.1678
齊人歸我濟西田	-12.1679
秦伯使術來聘	-12.1679
叔還如鄭涖盟	-12.168
若贅旒	-12.168
為襄公諱	-12.168
戊寅叔孫豹及諸侯之大夫及陳袁僑盟	-12.1681
七分入	-12.1682
陳人殺其大夫公子過	-12.1682
晉人執季孫意如以歸	-12.1683
公以楚師伐齊取榖	-12.1684
月丁亥大	-12.1702
人者衆辭	-12.1704
月癸亥小	-12.1717
月甲子小	-12.1719
2.4	-12.173
月丁未大	-12.175
月癸亥大	-12.1756
月丁酉小	-12.1768
苕	-12.1789
韎	-12.1791
燥	-12.1795
月壬午大	-12.1795
刲	-12.1796
相息亮切	-12.1797
瞍	-12.18
鎛	-12.1801
旰	-12.1802
喚	-12.1802
大衍厯是年閏	-12.1803
技	-12.1805
孕	-12.1805
夏后氏之璜	-12.1806
壑	-12.1806
食采於	-12.1806
笱	-12.1807
鄤	-12.1807
裨	-12.1807
喉	-12.1808
夏四月四卜郊不從乃免牲	-12.1808
來錫公命	-12.1809
伏羲	-12.1809
蘄	-12.1809
講信修睦	-12.181
贏	-12.181
夏六月甲戌朔日有食之	-12.1811
經書月三書日	-12.1811
公叔戌	-12.1812
春秋集註卷	-12.1812
存而不削	-12.1813
胡子髠沈子逞滅獲陳夏齧	-12.1813
春秋正傳卷	-12.1813
以靖國人	-12.1814
及齊侯平莒及郯莒人不肯公伐莒取向	-12.1815
宋西門之外	-12.1815
三月甲戌取須句	-12.1815
自十有二月不雨至于秋七月	-12.1815
戰于城濮楚師敗績	-12.1816
夣	-12.1816
八分入	-12.1816
齊侯使國佐如師	-12.1819
丙申公及楚人秦人宋人陳人	-12.1825
氣餘二千	-12.1827
月丁亥小	-12.1834
月己未小	-12.1848
月庚申小	-12.1849
月丙子小	-12.188
叔孫豹及諸侯之大夫	-12.1884
月癸未小	-12.1891
仝	-12.1918
用天子禮樂	-12.1936
儋	-12.1936
茹	-12.1937
愠	-12.1937
爪	-12.1941
頷	-12.1942
匏	-12.1942
曾子問	-12.1943
惏	-12.1944
月乙酉大	-12.1944
杵	-12.1945
夏狄伐晉	-12.1945
詠	-12.1945
廢長立少	-12.1945
盥	-12.1946
其能久乎	-12.1946
不可不慎也	-12.1946
莒牟夷以牟婁及防兹來奔	-12.1947
菆	-12.1947
蕭叔大心	-12.1947
勒	-12.1947
夏四月甲辰朔日有食之	-12.1948
諸侯之尊弟兄不得以屬通	-12.1948
夷仲年	-12.1948
存三亡國	-12.1948
駿	-12.1949
茨	-12.1949
勘	-12.1951
僃	-12.1951
二月伯姬歸于宋	-12.1951
不近人情	-12.1954
晉人殺其大夫先都	-12.1955
宋公殺其世子痤	-12.1955
諸侯之義不得專	-12.1955
逆叔姬之喪以歸	-12.1955
齊侯弗及盟	-12.1956
秋宋公楚子陳侯蔡侯鄭伯許男曹伯	-12.1957
4.3	-12.1957
皐	-12.1958
曹伯負芻卒于師	-12.1958
見上杜註	-12.1959
月甲申小	-12.1979
月壬戌小	-12.1979
月丙寅小	-12.2005
月丙戌小	-12.2029
9.5	-12.2031
篳	-12.2074
旝	-12.2074
瘁	-12.2077
月乙巳小	-12.2078
樸	-12.2079
粥	-12.2082
塴	-12.2083
一年不二君	-12.2086
不沒其實	-12.2086
銅	-12.2087
天王使仍叔之子來聘	-12.2087
楚人秦人巴人滅庸	-12.2088
晉人執戎蠻子赤歸于楚	-12.2089
閏月不告月猶朝于廟	-12.2089
内無所承	-12.2089
燄	-12.2089
六月辛未朔日有食之鼓用牲于社	-12.209
湎	-12.2091
歸父還自晉至笙遂奔齊	-12.2091
一娶九女	-12.2092
仲由為季氏宰	-12.2092
甲氏留吁	-12.2092
瑯琊	-12.2093
潞子嬰兒	-12.2093
鄫子㑹盟于邾	-12.2093
陳殺其大夫慶虎及慶寅	-12.2093
鄭游速	-12.2093
平者成也	-12.2093
七年春公伐邾	-12.2095
冄	-12.2095
薳啓彊	-12.2096
夏五月乙未朔日有食之	-12.2097
非本義不録	-12.2097
仲孫羯帥師侵齊	-12.2097
慄	-12.2098
月戊戌大	-12.2099
月戊午大	-12.21
韡	-12.21
7《	-12.21
月乙丑大	-12.2105
月戊辰小	-12.211
執曹伯畀宋人	-12.2115
中國無霸	-12.212
月庚寅小	-12.2123
月辛亥小	-12.2134
楚武三十	-12.2177
月乙丑小	-12.2209
愁	-12.2214
櫓	-12.2215
髙辛氏	-12.2218
戱	-12.2222
耼	-12.2222
額	-12.2222
行下孟反	-12.2223
餮	-12.2223
饕	-12.2223
仞	-12.2224
袝	-12.2224
仙	-12.2224
乘繩證反	-12.2225
鬭伯比	-12.2225
剄	-12.2226
褚師圃	-12.2227
㤗	-12.2227
皆陳曰戰	-12.2227
來省難	-12.2228
蔡人衛人陳人從王伐鄭	-12.2228
雕	-12.2228
囯	-12.2228
庭實旅百	-12.2229
葱	-12.2229
拙	-12.2229
隤	-12.2229
8.5	-12.2231
公孫嬰齊如莒	-12.2231
魏曼多	-12.2231
覬覦	-12.2231
夏師及齊師圍郕郕降于齊師	-12.2232
倨	-12.2232
秋築王姬之館于外	-12.2232
陳傅良	-12.2232
瀦	-12.2233
茇	-12.2234
隈	-12.2234
麕	-12.2235
悞	-12.2235
戊寅大夫宗婦覿用幣	-12.2235
秋九月楚子圍宋	-12.2235
芘	-12.2236
楚屈完來盟于師盟于召陵	-12.2237
兗	-12.2237
沖	-12.2237
黄氏仲炎曰	-12.2238
叔弓㑹楚子于陳	-12.2239
軹	-12.2239
陳侯使袁僑如㑹	-12.2239
蔡殺其大夫公子駟	-12.224
其言取之何	-12.2241
㧾	-12.2242
䢴	-12.2246
秦景二十	-12.225
9.4	-12.2255
月丁巳小	-12.2268
月壬午小	-12.229
月壬寅小	-12.2297
射食亦反	-12.2361
蟹	-12.2362
鵒	-12.2366
閾	-12.2368
穰	-12.2368
鍇	-12.237
三月紀伯姬卒	-12.2371
腯	-12.2371
莒人伐杞取牟婁	-12.2371
祟	-12.2372
胥命于蒲	-12.2373
郝仲輿曰	-12.2373
娵	-12.2374
矔	-12.2374
儷	-12.2375
楚武四十	-12.2375
敢不承命	-12.2375
請復季友	-12.2376
魯秉周禮	-12.2376
陳留襄邑縣	-12.2376
邯	-12.2377
梓愼	-12.2378
吳滅州來	-12.2378
齊公子商人弑其君舍	-12.2378
何辱命焉	-12.2378
六月壬戌公敗宋師于菅	-12.2378
二十年春新作南門	-12.2379
籬	-12.2379
未詳是否	-12.2379
軘	-12.238
九月公至自楚	-12.2381
楚人滅舒蓼	-12.2381
秋大水鼓用牲于社于門	-12.2382
駸駸	-12.2382
公孫寧儀行父	-12.2382
楚人滅弦弦子奔黄	-12.2383
冬公如齊納幣	-12.2383
可不戒哉	-12.2385
秋七月辛巳豹及諸侯之大夫盟于宋	-12.2385
蓬	-12.2385
胡侍講曰	-12.2386
秋晉人敗狄于交剛	-12.2387
子蔡侯陳侯鄭伯許男徐子滕子頓子胡	-12.2387
睨	-12.2387
氏别祖	-12.2387
月戊申小	-12.2388
不得免焉	-12.2389
春秋集解卷	-12.2391
曹伯莒子邾子頓子胡子滕子薛伯	-12.2392
朔餘一千	-12.2395
月甲辰小	-12.2396
月辛酉大	-12.242
退而告人	-12.2429
月癸未大	-12.2429
月甲子大	-12.2431
月己亥小	-12.2477
月庚辰大	-12.2491
月庚午小	-12.2499
頂	-12.2508
近附近之近	-12.2511
郰	-12.2512
黯	-12.2514
弢	-12.2514
傅遜曰	-12.2514
覯	-12.2516
聨	-12.2517
蒸	-12.2517
衞人立晉	-12.2519
碏	-12.252
宗婦覿用幣	-12.252
薳啓疆	-12.2521
萬入去籥	-12.2521
綸	-12.2521
用盛樂	-12.2522
冬叔弓如楚	-12.2523
蒿	-12.2523
不腆先君之	-12.2524
冬公子友如陳	-12.2524
興滅繼絶	-12.2524
以累上之辭言之	-12.2525
夏鄭人侵許	-12.2525
臧哀伯	-12.2525
黒肱以濫來奔	-12.2525
孔頴達	-12.2526
庚寅我入祊	-12.2526
仲遂卒于垂	-12.2526
禮樂征伐自諸侯出	-12.2527
月壬申小	-12.2527
八月公至自伐楚	-12.2527
公孫敖如莒涖盟	-12.2528
以瘧疾赴	-12.2528
曹公孫㑹自鄸出奔宋	-12.2528
其所由來者漸矣	-12.2529
六月宋師伐滕	-12.2531
晉荀林父帥師伐陳	-12.2531
也其稱人何貶曷為貶	-12.2532
義形於色	-12.2532
晉人宋人齊人陳人蔡人秦人盟于翟泉	-12.2533
廼	-12.2534
槁	-12.2536
月己巳小	-12.2541
月戊午小	-12.2556
寡君聞君	-12.2561
斝	-12.2648
璵	-12.2655
璜	-12.2655
鼈	-12.2657
月乙酉小	-12.2658
説音悦	-12.2658
頫	-12.2659
喪息浪反	-12.2661
濯	-12.2661
醇	-12.2664
月甲戌小	-12.2664
月壬戌大	-12.2665
四年春正月公狩于郎	-12.2667
麑	-12.2667
躁	-12.2668
祸	-12.2669
拓	-12.267
掇	-12.2671
裨竈	-12.2672
渙	-12.2672
腐	-12.2672
卿共葬事	-12.2673
言日不言朔	-12.2673
嫉	-12.2673
禮樂征伐自天子出	-12.2675
隕石于宋五	-12.2675
豫凶事	-12.2676
日至而畢	-12.2676
二月公侵宋	-12.2676
宋人齊人楚人盟于鹿上	-12.2677
三分公室而各有其一	-12.2678
救台遂入鄆	-12.2678
晉侯使郤錡來乞師	-12.2678
許遷于白羽	-12.2678
懵	-12.2679
曹伯廬卒于師	-12.268
方岳之	-12.2681
夏五月甲午遂滅偪陽	-12.2682
寅吉射	-12.2682
滅徐徐子章羽奔楚	-12.2685
朔餘二千	-12.2689
為天下記異	-12.2696
馬一匹牛三頭	-12.2717
月己丑小	-12.2728
楚武二十	-12.2741
月己酉小	-12.2762
月戊子小	-12.2794
樽	-12.2802
食音嗣	-12.2803
釜	-12.2803
犆	-12.2809
蚠	-12.2809
廂	-12.281
恠	-12.2811
暌	-12.2814
勺	-12.2815
汗	-12.2815
鄐	-12.2815
治直吏	-12.2816
君漏言	-12.2818
絡	-12.2818
灋	-12.282
紀裂繻來逆女	-12.2821
耽	-12.2821
而規杜氏非也	-12.2821
秦后子	-12.2821
輓	-12.2821
冲	-12.2821
公與之宴	-12.2822
闊	-12.2822
晉人執我行人叔孫婼	-12.2824
平戎于王	-12.2824
冬十月王子猛卒	-12.2824
偉	-12.2825
遫	-12.2825
焞	-12.2825
儀父盟于趡	-12.2825
僕因國人	-12.2826
邂逅	-12.2826
不猶愈乎	-12.2826
以酅入齊	-12.2827
邈	-12.2828
齊侯侵我西鄙遂伐曹入其郛	-12.2829
八月庚辰宋公和卒	-12.2829
秦伯稻卒	-12.2829
而外求君	-12.2829
甯喜弑其君剽	-12.283
滅赤狄潞氏	-12.2831
皋鼬	-12.2831
季孫宿帥師救台遂入鄆	-12.2831
俑	-12.2831
月甲午小	-12.2832
不與諸侯專封也	-12.2832
夏師救齊	-12.2832
齊侯使國佐來聘	-12.2833
夏四月陳災	-12.2834
冬十月壬午楚師滅陳	-12.2835
晉人執莒子邾子以歸	-12.284
月庚辰小	-12.2879
月甲寅小	-12.2911
月庚子小	-12.2941
阡	-12.296
月丁丑小	-12.2964
㱕	-12.2964
未同盟而赴以名	-12.2969
傁	-12.297
洎	-12.297
蔀	-12.2971
公壻池	-12.2971
南宫敬叔	-12.2972
一統志	-12.2973
郾	-12.2973
正月己卯烝	-12.2973
軨	-12.2973
摘	-12.2974
苻	-12.2974
同軌畢至	-12.2974
餙	-12.2975
穽	-12.2975
祕	-12.2975
滕侯薛侯來朝	-12.2976
刻桓宫桷	-12.2977
夏四月丁未公及鄭伯盟于越	-12.2977
三月庚戌天王崩	-12.2977
此其言遂何	-12.2977
高渠彌	-12.2977
天誘其衷	-12.2977
灰	-12.2978
無麥苖	-12.2978
卒哭而祔	-12.2978
理或然也	-12.2978
夏宋華弱來奔	-12.2979
辛未季孫行父卒	-12.2979
秋七月壬午公及齊侯鄭伯入許	-12.2979
秋八月公及齊侯盟于落姑	-12.298
徒人費	-12.298
廄	-12.298
公孫敖㑹晉侯于戚	-12.298
或名或不名	-12.2981
楊士勛	-12.2981
訽	-12.2981
楚殺其大夫公子追舒	-12.2982
安社稷利國家	-12.2982
九年春紀季姜歸于京師	-12.2982
黽	-12.2982
八月戊辰同盟于馬陵	-12.2982
公孫敖如京師不至而復丙戌奔莒	-12.2983
夏五月王子虎卒	-12.2984
仲孫速帥師伐邾	-12.2985
使舉上客	-12.2986
月壬子小	-12.3023
王使榮叔來錫桓公命	-12.3031
秦武十	-12.3045
子邾子滕子薛伯杞伯小邾子伐鄭	-12.306
鄭文二十	-12.3097
乗繩證反	-12.3107
榛	-12.3116
碑	-12.3117
月丙辰小	-12.3117
肓	-12.312
鶻	-12.3122
曳	-12.3124
析朱鉏	-12.3127
屬音燭	-12.3128
山海經	-12.3128
夏五月乙酉吉禘于莊公	-12.3129
佯	-12.313
鷩	-12.3132
别嫌明微	-12.3132
許穆夫人	-12.3133
瞭	-12.3134
夏天王使宰渠伯糾來聘	-12.3134
五月葬桓王	-12.3135
無所忌憚	-12.3135
萩	-12.3136
夫人子氏薨	-12.3136
秋七月癸巳公子牙卒	-12.3136
冬齊人宋人陳人伐我西鄙	-12.3136
許遷于容城	-12.3137
縵	-12.3137
秋九月癸巳子野卒	-12.3137
携	-12.3137
秋築臺于秦	-12.3138
歿	-12.3138
磨	-12.3138
何以名絶曷為絶	-12.3138
茅夷鴻	-12.3138
晉人執衛侯歸之于京師	-12.3139
恚	-12.3139
平陸縣	-12.3139
秋七月壬申姒氏卒	-12.3139
夏四月丙辰日有食之	-12.3139
郱	-12.3139
秋八月丁巳日有食之	-12.314
邾子來㑹公	-12.314
王氏箋義	-12.3141
遇災而懼	-12.3141
歸易辭也	-12.3141
莒人弑其君密州	-12.3141
冬宋人伐曹	-12.3141
晉趙盾癸酉同盟于新城	-12.3142
故不月以見譏	-12.3143
武穆之族	-12.3143
無志乎民	-12.3143
酎	-12.3144
秋楚人圍陳納頓子于頓	-12.3145
侵陳遂侵宋	-12.3147
程頤曰	-12.3148
月戊戌小	-12.3168
月壬辰小	-12.3168
月辛巳小	-12.3222
月丁未小	-12.3228
賢徧反	-12.3244
月丙午小	-12.3245
摽	-12.3273
繭	-12.3274
不王不禘	-12.3276
篆	-12.3284
缾	-12.3285
湣	-12.3285
薫	-12.3286
康王之誥	-12.3288
崖	-12.3289
敵王所愾	-12.329
夏齊大災	-12.329
秋楚人滅江	-12.329
滄	-12.329
騅	-12.3291
二月癸亥日有食之	-12.3292
衆暴寡	-12.3293
冬十有一月壬辰公薨	-12.3293
朗	-12.3293
八月癸亥公薨于路寢	-12.3294
腋	-12.3294
金革之事	-12.3295
謹而志之	-12.3295
衂	-12.3296
等謹案春秋	-12.3296
及防兹	-12.3296
晉欒書帥師救鄭	-12.3296
三家專魯	-12.3296
釗	-12.3296
天王使石尚來歸脤	-12.3297
晉人宋人伐鄭	-12.3297
城成郛	-12.3297
冬十有一月諸侯盟于扈	-12.3297
諱與大夫盟	-12.3297
季孫宿叔孫豹帥師城成郛	-12.3297
端本清源	-12.3297
革車千乗	-12.3297
宋人執小邾子	-12.3297
從君於昏	-12.3298
三月壬申公子季友卒	-12.3298
冬公次于滑	-12.3298
取郜取防	-12.3298
叔孫婼如齊涖盟	-12.3298
蔡公子履出奔楚	-12.3299
賸	-12.3299
公㑹戎于潛	-12.3299
宋人殺其大夫司馬宋司城來奔	-12.3299
是月六鷁退飛過宋都	-12.33
鄴	-12.33
詆	-12.33
殺嫡立庶	-12.33
死且不朽	-12.3301
冬莒殺其公子意恢	-12.3301
蔡殺其大夫公子燮	-12.3301
晉人秦人圍鄭	-12.3301
公孫歸父帥師伐邾取繹	-12.3301
銀	-12.3301
售	-12.3302
世子成齊國佐邾人同盟于戚	-12.3302
晉人殺其大夫士縠及箕鄭父	-12.3303
人滕人薛人小邾人于戚遂城虎牢	-12.3303
鄭公子喜帥師侵宋	-12.3305
春秋正義卷第	-12.3306
淆	-12.3309
月癸丑小	-12.333
月乙亥小	-12.3382
4.4	-12.3391
月丙申小	-12.3425
飫	-12.3439
諧	-12.3439
闋	-12.3444
阼	-12.3446
鄧扈樂	-12.3447
濆	-12.3449
不畏彊禦	-12.3449
䟦	-12.3451
北燕伯欵出奔齊	-12.3452
惡烏路切	-12.3452
卿為君逆	-12.3453
苦成叔	-12.3454
九月公敗邾師于偃	-12.3454
夏仲孫蔑如京師	-12.3455
文武成康之	-12.3455
前目而後凡	-12.3455
自參以上	-12.3455
吳子使札來聘	-12.3455
事君如在國	-12.3455
郳犂來	-12.3455
藟	-12.3455
辛亥宿男卒	-12.3456
敗身傷	-12.3456
六月叔鞅如京師	-12.3457
私許復	-12.3457
取王官及郊	-12.3458
齊師宋師曹師次于聶北救邢	-12.3458
夏四月四卜郊不從乃不郊	-12.3458
大蒐于昌間	-12.3458
九月夫人姜氏孫于邾	-12.3458
齊人城郟	-12.3458
許悼公瘧	-12.3459
元程端學撰	-12.3459
晉荀林父帥師及楚子戰于邲晉師敗績	-12.346
冬公子友如齊涖盟	-12.346
冬多麋	-12.346
仲尼親筆	-12.3461
齊侯葬紀伯姬	-12.3461
六月齊人取濟西田	-12.3462
秋八月諸侯盟于首止	-12.3462
楚公子貞帥師圍陳	-12.3462
絺	-12.3462
西乞術	-12.3462
鵬	-12.3463
吳氏澂曰	-12.3463
三月乙巳及晉處父盟	-12.3463
二月庚子子叔姬卒	-12.3464
楚殺其大夫公子側	-12.3464
楚公子午帥師伐鄭	-12.3464
拳拳	-12.3464
済	-12.3465
三月乙巳仲嬰齊卒	-12.3465
月癸巳小	-12.3495
糗	-12.3587
虒	-12.3604
廻	-12.3607
麓	-12.3607
卵	-12.361
緝	-12.3611
嚻	-12.3611
棲	-12.3612
覬	-12.3613
吠	-12.3613
冬十月宋萬出奔陳	-12.3613
牴牾	-12.3614
擔	-12.3616
芊	-12.3617
晉人陳人鄭人伐許	-12.3618
封父之繁弱	-12.3618
朱熹曰	-12.3618
犂比公	-12.3618
刄	-12.3619
秋八月庚辰公及戎盟于唐	-12.3619
叔孫州仇帥師墮郈	-12.3619
九月戊辰諸侯盟于葵丘	-12.3619
止進藥而藥殺	-12.362
夏五月甲辰孟子卒	-12.362
隕霜不殺草	-12.362
庚申曹伯終生卒	-12.362
秋七月上辛大雩季辛又雩	-12.362
秋七月齊王姬卒	-12.362
楚公子棄疾帥師圍蔡	-12.3621
八月庚申及齊師戰于乾時我師敗績	-12.3621
公㑹杞伯姬于洮	-12.3621
夏季孫行父如陳	-12.3622
一匡天下	-12.3623
衛侯鄭歸于衛	-12.3623
楚子陳侯隨侯許男圍蔡	-12.3623
間無異事	-12.3624
陳人殺其公子御	-12.3624
陳岳氏曰	-12.3624
改過遷善	-12.3625
夏五月公至自楚	-12.3625
十有二月甲寅天王崩	-12.3625
楚公子結帥師伐陳	-12.3625
晉欒盈復入于晉入于曲沃	-12.3625
宋向巢帥師伐鄭	-12.3626
楚屈建帥師滅舒鳩	-12.3626
藝文志	-12.3626
冬十月甲午叔孫得臣敗狄于鹹	-12.3626
鄭公子喜帥師伐許	-12.3626
慭	-12.3626
矩	-12.3627
齊人來歸鄆讙龜隂田	-12.3627
㑹于盂執宋公以伐宋	-12.3627
宋公之弟辰暨仲佗石彄出奔陳	-12.3627
閽弑吳子餘祭	-12.3628
秋楚人圍江	-12.3628
八月癸巳朔日有食之	-12.3629
齊侯使國佐如師己酉及國佐盟于袁婁	-12.3629
晉緡十	-12.3662
鞞	-12.3756
酢	-12.3765
牷	-12.3768
爽鳩氏	-12.3769
旻	-12.3771
糜	-12.3774
質音致	-12.3774
緍	-12.3777
各本俱	-12.3777
晁	-12.3778
揭	-12.3778
擠	-12.378
匈奴	-12.378
宋程公說撰	-12.378
菴	-12.3781
埽	-12.3781
另	-12.3781
去起吕切	-12.3782
眣	-12.3782
𥙷	-12.3783
迴	-12.3783
䧏	-12.3783
纎	-12.3783
叔弓如滕	-12.3784
眛	-12.3784
筵	-12.3785
非聖人莫能修之	-12.3785
受一命之服	-12.3785
恤病討貳	-12.3785
齊人者齊侯也	-12.3786
天王使家父來聘	-12.3786
䕃	-12.3786
秋七月戊辰夫人姜氏薨于夷齊人以歸	-12.3786
秋八月辛未夫人姜氏薨	-12.3786
挺	-12.3787
秋夫人姜氏㑹齊侯于卞	-12.3787
冬公及齊侯遇于魯濟	-12.3787
㚟	-12.3787
二月辛巳立武宫	-12.3787
晉欒書帥師侵蔡	-12.3787
晉趙鞅帥師伐鮮虞	-12.3788
冬十月丙辰朔日有食之	-12.3788
使韓穿來言	-12.3788
葉子曰吾何以知	-12.3788
歸讙及闡	-12.3788
冬天王使凡伯來聘	-12.3788
秋七月有星孛入于北斗	-12.3788
鄭人殺良霄	-12.3788
仲尼之徒無道桓文之事者	-12.3789
仲梁懐	-12.3789
九月丁卯子同生	-12.3789
朴鄉吕氏曰	-12.3789
伯姬歸于杞	-12.3789
夏五月辛亥郊	-12.3789
蹊	-12.3789
畧而不序	-12.379
八月滕子卒	-12.379
夏四月蔡世子般弑其君固	-12.379
夏季孫斯仲孫何忌如晉	-12.379
非一朝一夕之故	-12.379
七年春齊人伐鄭	-12.3791
五月辛酉夫人姜氏薨	-12.3791
案晉書地理志	-12.3791
下曲陽	-12.3791
九月甲申公孫敖卒于齊	-12.3791
夏六月乙酉鄭公子歸生弑其君夷	-12.3792
滅譚滅遂	-12.3793
冬仲孫蔑㑹晉荀罃齊崔杼宋華元	-12.3793
衛侯鄭自楚復歸于衛	-12.3793
夏築蛇淵囿	-12.3793
宋皇瑗帥師取鄭師于雍丘	-12.3794
夏楚子陳侯鄭伯盟于辰陵	-12.3794
楚人滅舒庸	-12.3794
憯	-12.3795
陳閔十	-12.3888
浙	-12.3943
重直用反	-12.3943
凰	-12.3943
夏户雅反	-12.3945
驁	-12.3947
稱尺證反	-12.3948
提彌明	-12.3951
侅	-12.3951
射王中肩	-12.3952
湘	-12.3953
五父之衢	-12.3953
楚殺其大夫屈申	-12.3953
冬十有二月紀叔姬卒	-12.3954
臾	-12.3954
沁	-12.3954
退三舍	-12.3955
夏秦伯之弟鍼出奔晉	-12.3955
晉趙鞅帥師伐衛	-12.3956
夏四月乙丑天王崩	-12.3956
楚公子貞帥師伐陳	-12.3956
曹桓四十	-12.3956
貰	-12.3956
六月丁丑蔡侯封人卒	-12.3957
冬叔孫豹如邾	-12.3957
夏五月戊寅公敗宋師于鄑	-12.3957
右宰榖	-12.3958
癸丑叔鞅卒	-12.3958
夏四月五卜郊不從乃不郊	-12.3958
夏公孫敖如晉	-12.3958
瓉	-12.3958
乙酉宋公馮卒	-12.3958
宋葉夢得撰	-12.3959
齊人執陳轅濤塗	-12.3959
觕	-12.3959
楚囊瓦出奔鄭	-12.396
秋天王使王季子來聘	-12.396
三月乙未天王崩	-12.396
夏五月乙亥齊侯潘卒	-12.396
春薛伯定卒	-12.396
帥師戰于大棘宋師敗績獲宋華元	-12.3961
壬申公孫嬰齊卒于貍脤	-12.3961
夏五月戊辰許世子止弑其君買	-12.3961
薛伯夷卒	-12.3962
鄭人來渝平	-12.3962
公子買戍衛不卒戍刺之	-12.3962
春秋本義卷	-12.3963
春秋或問卷	-12.3963
宋公之弟辰自蕭來奔	-12.3963
玈	-12.3963
夏五月壬辰雉門及兩觀災	-12.3963
乙酉刺公子偃	-12.3964
鄭殺其大夫公子嘉	-12.3966
夏六月庚寅齊侯昭卒	-12.3966
楚公子比自晉歸于楚弑其君䖍于乾谿	-12.3967
鄭公子去疾帥師伐許	-12.3967
汪氏克寛	-12.4068
猾	-12.4101
兑	-12.4104
絹	-12.411
劑	-12.4113
鏚	-12.4114
鋪	-12.4114
伯仲叔季	-12.4116
罷音皮	-12.4116
甄	-12.4118
秋冬二時	-12.412
定之方中	-12.4123
春晉侯使韓穿來言汶陽之田歸之于齊	-12.4123
痁	-12.4123
晉籍談荀躒	-12.4124
冬公㑹齊侯于防	-12.4125
靷	-12.4125
乗繩證切	-12.4125
感麟而作	-12.4125
壙	-12.4125
乙巳公薨于小寢	-12.4126
以祊易許	-12.4126
冬十月乙亥天王崩	-12.4127
夏公至自伐戎	-12.4127
冬十月壬午齊人鄭人入郕	-12.4127
冬十有一月壬寅夫人風氏薨	-12.4127
秋七月乙酉伯姬卒	-12.4128
季孫斯仲孫何忌帥師墮費	-12.4128
冬楚人伐黄	-12.4128
座	-12.4128
郃	-12.4128
卣	-12.4129
七年春王正月暨齊平	-12.4129
丐	-12.413
當喪未君	-12.4131
宋公子地出奔陳	-12.4131
夏五月乙亥齊崔杼弑其君光	-12.4131
冬十有二月無駭卒	-12.4131
秋七月丙子齊侯無野卒	-12.4131
秋楚人滅六	-12.4131
秋齊人狄人盟于邢	-12.4132
唱	-12.4132
秋八月辛丑公薨	-12.4132
秋九月乙丑晉趙盾弑其君夷	-12.4132
齊侯使國歸父來聘	-12.4132
二月乙未朔日有食之	-12.4133
冬晉趙穿帥師侵崇	-12.4133
八月莒子去疾卒	-12.4133
商人驟施	-12.4133
夏齊侯許男伐北戎	-12.4134
王二月壬子宋華元帥師及鄭公子歸生	-12.4134
晉趙鞅帥師侵齊	-12.4135
莒子邾子滕子薛伯杞伯小邾子于夷儀	-12.4136
冬十月曹伯午卒	-12.4136
五月甲子地震	-12.4136
己丑公薨于路寢	-12.4137
宋公陳侯衞侯曹伯	-12.4137
夏四月辛丑陳侯溺卒	-12.4138
逆王后于紀	-12.4139
栾	-12.4139
冬楚人鄭人侵宋	-12.4141
鄭人齊人曹人邾人薛人鄫人盟于蜀	-12.4144
月辛未小	-12.417
庿	-12.4283
鎧	-12.4287
姣	-12.4292
肜	-12.4293
泱	-12.4294
耘	-12.4295
猝	-12.4296
宋公陳侯蔡人衞人伐鄭	-12.4297
贍	-12.4298
鳳陽府	-12.4298
膊	-12.4298
夏齊侯陳侯鄭伯遇于垂	-12.43
促	-12.4301
在官者殺無赦	-12.4303
為弑君者所立	-12.4303
卿不行非禮也	-12.4303
十有二月辛亥朔日有食之	-12.4304
扃	-12.4304
鴟	-12.4304
師及齊師圍郕	-12.4304
玁狁	-12.4305
秋七月齊師曹師伐厲	-12.4305
楚殺其大夫郤宛	-12.4306
䜟	-12.4306
脣	-12.4306
九合諸侯不以兵車	-12.4307
夏齊人取讙及闡	-12.4307
夏四月己巳晉侯齊師宋師秦師及楚人	-12.4307
秋七月己未同盟于亳城北	-12.4307
春秋左傳要義卷	-12.4307
叔孫州仇仲孫何忌帥師圍邾	-12.4307
冬十有二月癸亥朔日有食之	-12.4307
楚殺其大夫成熊	-12.4308
三月壬申鄭伯堅卒	-12.4308
宋督弑其君與夷	-12.4308
夏五月壬午陳侯朔卒	-12.4308
夏六月蔡侯東國卒于楚	-12.4309
釀	-12.4309
兢兢	-12.431
八月壬辰陳侯躍卒	-12.431
冬楚子使椒來聘	-12.431
泰安州	-12.431
楚公子申帥師伐陳	-12.431
冬楚公子貞帥師侵宋	-12.4311
僖負羈	-12.4312
九月辛酉天王崩	-12.4314
夏公㑹尹子單子晉侯齊侯宋公	-12.4315
秋楚公子壬夫帥師侵宋	-12.4316
六月癸酉季孫行父臧孫許	-12.4375
脂	-12.4452
鄇	-12.4459
汁	-12.4461
葦	-12.4462
數所主反	-12.4464
赭	-12.4468
醒	-12.447
盧蒲癸王何	-12.4471
浣	-12.4471
夏戸雅切	-12.4473
𥅆	-12.4473
蜡	-12.4475
蠜	-12.4476
剖	-12.4478
公何以不言即位	-12.4479
季姬及鄫子遇于防	-12.4479
緼	-12.4479
秋七月戊戌夫人姜氏薨	-12.4479
三月癸酉大雨震電庚辰大雨雪	-12.448
癸酉有事于武宫籥入叔弓卒去樂卒事	-12.448
婦人無外事	-12.448
夏五月癸未鄭伯寤生卒	-12.448
七年春王三月叔姬歸于紀	-12.4481
冬叔還如齊	-12.4481
包藏禍心	-12.4481
礙	-12.4481
君舉必書	-12.4481
在滌三月	-12.4482
綫	-12.4482
臝	-12.4482
十有二月癸酉朔日有食之	-12.4482
方伯連率	-12.4483
秋劉子單子以王猛入于王城	-12.4483
秋七月庚寅楚子軫卒	-12.4483
秋及江人黄人伐陳	-12.4483
漂	-12.4483
夏郜子來朝	-12.4484
夏四月甲寅臧孫許卒	-12.4484
五月甲申夫人歸氏薨	-12.4484
冬十有二月戊寅楚子滅蕭	-12.4484
冬十月甲申許男業卒	-12.4484
夏陳轅頗出奔鄭	-12.4484
曹伯班卒	-12.4485
冬蔡侯肸卒	-12.4485
晉郤缺帥師伐蔡戊申入蔡	-12.4485
冬蔡侯朱出奔楚	-12.4485
夏宋公齊侯遇于梁丘	-12.4486
夏四月庚辰蔡公孫	-12.4486
蔡公孫歸生鄭罕虎許人曹人于虢	-12.4486
杞伯姬來朝其子	-12.4486
戊子晉侯彪卒	-12.4487
子結陳公孫佗人帥師滅頓以頓子牂歸	-12.4487
祈農事	-12.4488
冬晉人宋人陳人鄭人伐秦	-12.4488
冬十月齊師滅譚譚子奔莒	-12.4488
秋楚人伐陳	-12.4488
出乎爾者反乎爾	-12.4488
宫括鄭公孫蠆曹	-12.4489
宋向巢帥師伐曹	-12.4489
煌	-12.4489
五月公及諸侯盟于臯鼬	-12.449
冬十月乙亥叔孫僑如出奔齊	-12.4491
宋樂大心出奔曹	-12.4491
夏四月辛未滕子卒	-12.4491
夏六月宋公固卒	-12.4492
己巳朔宋公及楚人戰于泓宋師敗績	-12.4492
秋叔孫僑如帥師圍棘	-12.4492
晉侯使士魴來乞師	-12.4493
夏晉韓厥帥師伐鄭	-12.4493
八月丙辰仲孫蔑卒	-12.4494
夏五月庚寅夫人姜氏薨	-12.4498
姤	-12.4635
陕	-12.465
窆	-12.4651
閔馬父	-12.4654
焉於䖍切	-12.4654
腵	-12.4655
襲慶府	-12.4655
罵	-12.4656
緑	-12.4656
耨	-12.4657
穫	-12.4658
沸	-12.4658
脉	-12.4659
右宰穀	-12.466
冬十有一月癸未齊無知弑其君諸兒	-12.466
兠	-12.466
紡	-12.4661
閏月葬齊景公	-12.4661
秋公子遂帥師伐邾	-12.4661
衛人及齊人戰	-12.4662
敢不唯命是聽	-12.4663
使鄫子來朝	-12.4663
衛輝府	-12.4663
築王姬之館	-12.4663
美惡不嫌同辭	-12.4663
夏齊侯衛侯胥命于蒲	-12.4663
漯	-12.4664
婉而成章	-12.4664
船	-12.4664
竹書紀年	-12.4664
車馬曰賵	-12.4664
汶陽之田歸之于齊	-12.4664
秋宋人齊人邾人伐郳	-12.4665
冬十有二月乙亥齊侯小白卒	-12.4665
八月乙亥晉侯驩卒	-12.4666
秋七月公至自伐秦	-12.4667
三月戊戌齊侯陽生卒	-12.4667
秋七月辛酉叔老卒	-12.4667
夏六月公子遂如齊至黄乃復	-12.4667
春王正月晉人滅赤狄甲氏及留吁	-12.4667
晉侯使荀躒唁公于乾侯	-12.4667
宋樂髠帥師伐曹	-12.4667
丘十六井	-12.4668
公㑹晉人鄭良霄宋人曹人于澶淵	-12.4668
冬十有一月曹伯射姑卒	-12.4669
楚殺其大夫宜申	-12.4669
濶	-12.467
冬邢人狄人伐衛	-12.467
姓帥師滅沈以沈子嘉歸殺之	-12.467
夏六月宋公曹人邾人盟于曹南	-12.467
秋七月戊子夫人姒氏薨	-12.467
甲午晦晉侯及楚子鄭伯戰于鄢陵楚子	-12.4671
及仲佗石彄公子地自陳入于蕭以叛	-12.4672
軻	-12.4672
夏四月薛伯卒	-12.4672
望溪先生曰	-12.4673
秋仲孫貜如齊	-12.4673
湛氏若水曰	-12.4673
秋八月丁未及邾人戰于升陘	-12.4673
夏四月宋公王臣卒	-12.4674
甲子新宫災三日哭	-12.4674
夏齊人伐我北鄙	-12.4677
六月庚辰鄭伯睔卒	-12.4681
㑹齊侯于防	-12.479
蒺	-12.4828
茢	-12.483
佛	-12.4833
鵞	-12.4834
圄	-12.4836
應應對之應	-12.4836
雀	-12.4837
灌甫曰	-12.4838
建巳之月	-12.4839
摶	-12.4841
怖	-12.4841
陲	-12.4841
元亨利貞	-12.4842
汏	-12.4843
鏡	-12.4844
螭魅	-12.4844
邥	-12.4845
尢	-12.4845
考證欽定四庫全書春秋左傳注疏卷	-12.4845
擐	-12.4845
唘	-12.4846
渇	-12.4847
貲	-12.4848
夏四月甲午地震	-12.4848
㪘	-12.4848
徒七十人	-12.4848
埸	-12.4848
不畏强禦	-12.4848
聯	-12.4848
鷹	-12.4848
夏父弗忌	-12.4849
衛侯㑹公于沓	-12.4849
瘈	-12.4849
址	-12.4849
删	-12.4849
晉政多門	-12.4849
冬十有二月丁未天王崩	-12.4849
汧	-12.485
十有一月己亥宋公佐卒于曲棘	-12.485
媮	-12.485
冬十月乙亥臧孫紇出奔邾	-12.4851
既伏其罪矣	-12.4851
王人子突救衞	-12.4851
齊侯來獻戎捷	-12.4851
嫂	-12.4851
冬楚人伐隨	-12.4851
時聘以結諸侯之好	-12.4852
㳟	-12.4852
此焉變矣	-12.4852
存而弗削	-12.4852
秋楚人圍許諸侯遂救許	-12.4852
冬十月葬蔡靈公	-12.4853
冬晉里克殺其君之子奚齊	-12.4853
二月辛丑楚子滅胡以胡子豹歸	-12.4853
秋七月丙子季孫斯卒	-12.4853
莫適為主	-12.4853
鄭忽出奔衞	-12.4853
丁酉楚師滅蔡執蔡世子有以歸用之	-12.4854
三分四軍	-12.4854
夏許男成卒	-12.4854
以力服人	-12.4855
冬十有二月齊侯鄭伯盟于石門	-12.4855
凡書救者未有不善之	-12.4855
齊侯使髙張來唁公	-12.4855
夏楚人圍巢	-12.4855
石曼姑帥師圍戚	-12.4856
冬㑹陳人蔡人楚人鄭人盟于齊	-12.4856
懼春秋所以作	-12.4856
絢	-12.4857
冬楚人伐宋圍緡	-12.4857
潛師掠境	-12.4857
冬楚公子貞帥師伐鄭	-12.4858
戊子夫人嬴氏薨	-12.4858
楊氏士勛曰	-12.4858
鄭伯髠頑如㑹未見諸侯丙戌卒于鄵	-12.4858
自經於溝瀆	-12.4858
聞齊侯卒乃還	-12.4858
巳叔孫州仇仲孫何忌及邾子盟于句繹	-12.4859
莒子邾子滕子薛伯把伯小邾子于夷儀	-12.486
月乙卯大	-12.4875
鈴	-12.5015
鍚	-12.5021
剝	-12.5022
纊	-12.5023
健	-12.5023
煖	-12.5026
沚	-12.5026
遮	-12.5027
先君不以其道終	-12.5029
腦	-12.503
窟	-12.5032
珽	-12.5032
遇者志相得也	-12.5032
摇	-12.5033
涿	-12.5034
抒	-12.5035
桔柣之門	-12.5035
厖	-12.5035
禄去公室	-12.5036
冬仲孫何忌㑹晉韓不信齊	-12.5036
黜周王魯	-12.5036
大崩曰敗績	-12.5037
齊侯來獻戎㨗	-12.5037
公徒三萬	-12.5038
嚢	-12.5038
獻戎捷	-12.5038
㬰	-12.5038
羞惡之心	-12.5038
蹄	-12.5039
丙午晉侯獳卒	-12.5039
㮣	-12.504
主大夫以與之	-12.504
小邾穆公來朝	-12.504
五月癸丑公㑹晉侯齊侯宋公蔡侯鄭伯	-12.504
辭繁而不殺	-12.504
著其臣子私諡之罪	-12.5041
荊	-12.5041
秦小子憖	-12.5041
夏臧孫許及晉侯盟于赤棘	-12.5041
夏四月丙申鄫季姬卒	-12.5041
取宋師于嵒	-12.5041
獲長狄僑如	-12.5041
臻	-12.5042
二月辛巳楚公	-12.5042
宋人蔡人衛人伐戴鄭伯伐取之	-12.5042
冬晉荀罃帥師伐許	-12.5042
救災恤患	-12.5042
甲子晉侯及秦師戰于彭衙秦師敗績	-12.5042
冬十有二月乙亥朔日有食之	-12.5043
十有二月甲子宋公成卒	-12.5043
寢苫枕	-12.5044
齊崔氏出奔衛	-12.5044
冬楚子蔡侯陳侯許男伐鄭	-12.5044
邾子蘧蒢卒	-12.5044
冬楚子蔡侯陳侯伐鄭	-12.5044
三月壬申鄭伯嘉卒	-12.5044
陳公子留出奔鄭	-12.5045
公孫固公孫鄭	-12.5045
秋九月庚辰楚子審卒	-12.5045
夏四月戊申鄭伯蠆卒	-12.5045
宋李明復撰	-12.5045
六月乙丑齊侯葬紀伯姬	-12.5045
冬十有二月戊午晉人秦人戰于河曲	-12.5046
諍	-12.5047
五月戊寅宋師及齊師戰于甗齊師敗績	-12.5047
六月丙申季孫意如卒	-12.5049
公孫歸父㑹齊人伐莒	-12.5049
齊殺其大夫髙厚	-12.5049
傳心之要典	-12.505
里克殺奚齊	-12.5052
衞孫林父曹人邾	-12.5107
產	-12.5157
縉	-12.5199
胎	-12.5216
鷸	-12.5217
䙝	-12.522
濮音卜	-12.522
聶	-12.5222
從才用切	-12.5223
宋吕祖謙撰	-12.5223
白虎通	-12.5223
得正而斃	-12.5225
鸜	-12.5226
莠尹然	-12.5226
榖伯鄧侯	-12.5226
犄	-12.5227
秋七月壬辰朔日有食之既	-12.5227
六月辛丑亳社災	-12.5227
二十年春王二月夫人姜氏如莒	-12.5228
廧	-12.5228
秋八月壬申御廩災	-12.5228
䁥	-12.5228
冬十月己未子般卒	-12.5229
孜	-12.523
夏六月己亥蔡侯考父卒	-12.523
其中必有大美惡	-12.523
秋九月癸酉齊侯杵臼卒	-12.5231
柔㑹宋公陳侯蔡叔盟于折	-12.5231
戊申宋督弑其君與夷及其大夫孔父	-12.5232
夏六月辛巳公薨于楚宫	-12.5232
于柏舉楚師敗績	-12.5232
冬十有一月己酉天王崩	-12.5232
五月甲午宋災宋伯姬卒	-12.5233
還者事未畢	-12.5233
秋齊侯宋公㑹于洮	-12.5233
名山大川	-12.5233
賊未討何以書葬	-12.5234
冬十月丙戌鄭伯蘭卒	-12.5234
冬葬許悼公	-12.5234
恝	-12.5234
反求諸已	-12.5235
勛	-12.5236
遂伐楚次于陘	-12.5237
觵	-12.5237
六月癸亥公之喪至自乾侯戊辰公即位	-12.5237
三月丙午晉侯入曹執曹伯畀宋人	-12.5237
秋九月齊侯宋公江人黄人盟于貫	-12.5237
鄭人侵蔡獲蔡公子燮	-12.5238
宋華元出奔晉宋華元自晉歸于宋	-12.5238
三年春王正月不雨夏四月不雨	-12.5238
使孫林父來聘壬戌及孫林父盟	-12.5238
公會晉侯宋公衞侯鄭伯曹伯	-12.5239
公㑹齊侯于艾	-12.5239
秋八月甲戌晉趙鞅帥師及鄭罕	-12.5239
秋晉趙鞅入于晉陽以叛	-12.5239
晉侯使荀罃來乞師	-12.524
晉緡二十	-12.5254
筥	-12.5402
脊	-12.5409
濩	-12.541
甬	-12.5411
鮀	-12.5411
缶	-12.5413
鬚	-12.5413
幡	-12.5414
易以䜴反	-12.5414
韜	-12.5414
明王道焜趙如源同編	-12.5415
律歴志	-12.5416
冑	-12.5416
謐	-12.5417
哆	-12.5418
啟蟄而郊	-12.5418
鋤	-12.5418
說音恱	-12.542
秋八月辛卯沙鹿崩	-12.542
婦人謂嫁曰歸	-12.542
洋	-12.5421
摰	-12.5421
油	-12.5422
龔	-12.5422
某月某日	-12.5423
夑	-12.5423
秋七月辛酉滕子虞母卒	-12.5424
五侯九伯	-12.5424
宋公使公孫壽來納幣	-12.5425
呂祖謙曰	-12.5425
窘	-12.5426
閫	-12.5426
冬十月壬戌公薨于路寢	-12.5426
刁	-12.5426
冬晉殺其大夫先縠	-12.5426
楚人殺陳夏徵舒	-12.5426
石之紛如	-12.5427
夏六月季姬及鄫子遇于防使鄫子來朝	-12.5427
屠岸賈	-12.5427
伾	-12.5427
納捷菑于邾	-12.5427
蹕	-12.5428
十有二月己未公薨于乾侯	-12.5429
夏五月戊戌齊人弑其君商人	-12.5429
三月晉人執宋仲幾于京師	-12.5429
冬十有一月癸亥晉侯周卒	-12.5429
諸侯失國諸侯納之正也	-12.543
八年春王正月宋公入曹以曹伯陽歸	-12.543
秋七月莒子庚輿來奔	-12.543
諸侯五年再相朝	-12.543
冬鄭公孫夏帥師伐陳	-12.5431
秋七月甲子日有食之既	-12.5431
夏宋公使華定來聘	-12.5432
安國家利社稷	-12.5432
夏公㑹齊侯伐萊	-12.5432
秋八月己亥晉侯夷卒	-12.5432
忠信誠慤	-12.5432
楚薳越帥師	-12.5433
冬齊慶封來奔	-12.5434
懐慶府	-12.5434
秋八月己巳諸侯同盟于重丘	-12.5437
公㑹尹子晉侯齊國佐邾人伐鄭	-12.5437
干徴師	-12.5438
千七百	-12.5599
禇	-12.56
兖	-12.5603
以其祖配之	-12.5608
眅	-12.5612
點	-12.5613
葉公諸梁	-12.5614
大禹謨	-12.5614
黠	-12.5616
敗必邁反	-12.5618
邵寳曰	-12.5619
磔	-12.5619
昴	-12.5619
菲	-12.562
㕘	-12.562
有文在其手	-12.5621
皓	-12.5621
還音旋	-12.5621
膽	-12.5621
穿封戍	-12.5623
冬十有二月丁丑陳侯杵臼卒	-12.5623
批	-12.5623
藁	-12.5623
鄭君釋之曰	-12.5623
亘	-12.5624
西陸朝覿	-12.5624
十有二月公至自救陳	-12.5624
大夫相殺稱人	-12.5624
峯	-12.5624
耋	-12.5625
除舊布新	-12.5625
五年春正月甲戌己丑陳侯鮑卒	-12.5625
含沙射人	-12.5625
餫	-12.5625
防微杜漸	-12.5626
曜	-12.5626
有日而無月	-12.5626
鍳	-12.5626
六月丁巳邾子華卒	-12.5627
火見而致用	-12.5627
公㑹鄭伯于時來	-12.5627
晏弱城東陽	-12.5627
連尹襄老	-12.5627
晉放其大夫胥甲父于衛	-12.5627
婦人既嫁不踰竟	-12.5627
商人弑舍	-12.5627
沍	-12.5627
城其賜邑	-12.5628
一有一亡曰有	-12.5628
駰	-12.5628
陽虎欲去三桓	-12.5628
卭	-12.5628
六月邾人入鄅	-12.5628
八年春王正月公㑹王人齊侯宋公	-12.5628
及宋人衛人伐邾	-12.5628
喟	-12.5629
三月公㑹鄭伯于垂	-12.5629
薇	-12.5629
秋公至自伐萊	-12.563
子以母貴	-12.563
衛北宫佗鄭罕虎	-12.563
六月戊辰公子遂及齊侯盟于郪丘	-12.563
公子慶父帥師伐於餘丘	-12.563
盜殺陳夏區夫	-12.563
覈	-12.563
孔頴逹	-12.5631
六月公㑹齊侯宋公陳侯鄭伯同盟于幽	-12.5631
修先君之怨	-12.5632
秋齊師伐我北鄙	-12.5632
九年春天王使南季來聘	-12.5632
攢	-12.5633
秋齊侯伐我北鄙圍桃	-12.5635
六十四井	-12.5635
唇	-12.5635
有憂中國之心	-12.5635
冬晉荀寅士吉射入于朝歌以叛	-12.5636
劉子晉侯宋公蔡侯衛侯陳子鄭伯許男	-12.5637
字位過密	-12.5798
皡	-12.5809
禘其祖之所自出	-12.5811
袪	-12.5811
蹷	-12.5814
帥所類反	-12.5817
藜	-12.5817
琥	-12.5818
秃	-12.5819
盲	-12.582
匐	-12.5821
渢	-12.5823
机	-12.5823
裒	-12.5823
晢	-12.5824
彜	-12.5824
續漢書郡國志	-12.5824
蟀	-12.5825
佃	-12.5825
左氏博議卷	-12.5825
韍	-12.5825
桞	-12.5826
刷	-12.5827
株	-12.5828
宄	-12.5828
去起呂反	-12.5828
莠	-12.5828
瑴	-12.5829
雝	-12.5829
無駭入極	-12.5829
齊侯衛侯盟于沙	-12.5829
疆于江汝	-12.583
夏四月庚子叔詣卒	-12.583
不得以屬通	-12.583
諸侯不相遺俘	-12.583
締	-12.583
元趙汸撰	-12.5831
六年春城邾瑕	-12.5831
乙酉公子遂㑹雒戎盟于暴	-12.5831
八月葬蔡宣公	-12.5832
鄭良霄出奔許自許入于鄭鄭人殺良霄	-12.5832
富父終甥	-12.5832
雉門及兩觀災	-12.5832
俶	-12.5832
冬十有一月癸未季孫宿卒	-12.5833
郪	-12.5833
以天自處	-12.5833
鏘	-12.5834
冬十月葬蔡景公	-12.5834
秋公伐邾八月己酉入邾以邾子益來	-12.5834
課	-12.5835
陳侯之弟黄自楚歸于陳	-12.5835
君而臣是助	-12.5835
陳鍼宜咎出奔楚	-12.5836
蛤	-12.5836
十有二月己丑公及晉侯盟	-12.5836
夏四月壬戌公及晉侯盟于長樗	-12.5836
溺㑹齊師伐衛	-12.5837
狄滅温温子奔衛	-12.5837
秋七月季孫意如叔弓仲孫貜帥師伐莒	-12.5838
使子玉去宋	-12.5841
酀	-12.5844
门	-12.5853
猗氏縣	-12.5936
兔	-12.6012
酸	-12.6013
轄	-12.6015
笥	-12.6017
絓	-12.6021
鳬	-12.6023
羲	-12.6025
以寡君之未禘祀	-12.6025
癉	-12.6026
肺	-12.6026
泜	-12.6027
零	-12.6028
槬	-12.6029
匍	-12.6029
公㑹紀侯鄭伯	-12.6029
魅	-12.6029
年獲麟之嵗也	-12.603
瑱	-12.603
士渥濁	-12.603
釋詁云	-12.6031
亶	-12.6031
寥	-12.6031
臨川吴氏曰	-12.6032
蟋	-12.6032
未易災之餘而嘗	-12.6032
貶絶以見罪惡	-12.6032
䓁	-12.6032
扉	-12.6033
篨	-12.6034
王應麟曰	-12.6034
七年春二月己亥焚咸丘	-12.6034
懇	-12.6035
九月庚午朔日有食之鼓用牲于社	-12.6035
公敗宋師于菅	-12.6035
罍	-12.6036
皞	-12.6036
敗秦于殽	-12.6036
杰	-12.6037
易也其易奈何	-12.6038
搖	-12.6038
菏	-12.6038
冬十有二月辛巳公子彄卒	-12.6038
五月乙巳西宫災	-12.6038
帙	-12.6038
宋人以齊人蔡人衛人陳人伐鄭	-12.6039
保首領	-12.6039
六月癸卯日有食之	-12.6039
城武縣	-12.6039
安陸府	-12.6039
六月辛丑朔日有食之鼓用牲于社	-12.604
冬十月丁未楚世子商臣弑其君頵	-12.604
季孫斯仲孫忌帥師圍鄆	-12.604
眡	-12.604
漈	-12.604
怛	-12.604
夏五月壬午宋衛陳鄭災	-12.6041
甲戌楚子旅卒	-12.6041
衵	-12.6041
假道於虞以伐虢	-12.6041
公㑹晉侯及吳子于黄池	-12.6041
臣弑其君子弑其父	-12.6041
七年春宋皇瑗帥師侵鄭	-12.6042
十有二月齊侯滅萊	-12.6042
公之喪至自乾侯	-12.6042
酈道元	-12.6042
冬鄭駟𢎞帥師救曹	-12.6042
倭	-12.6042
王使召伯來㑹葬	-12.6042
侵淺事也	-12.6043
冬葬曹昭公	-12.6043
衛子莒子盟于踐土	-12.6043
衛侯鄭伯許男曹伯于葵丘	-12.6043
必悔之弗	-12.6044
十有二月癸丑公㑹諸侯盟于薄釋宋公	-12.6044
八年春王正月師次于郎以俟陳人蔡人	-12.6044
悕	-12.6044
蔡侯鄭伯陳子莒子邾子秦人于温	-12.6044
瞿	-12.6044
有日無月	-12.6045
實與而文不與	-12.6046
卓氏爾康曰	-12.6046
鄭公孫舍之帥師侵宋	-12.6046
百里子與蹇叔子	-12.6046
秋七月仲孫蔑㑹晉荀罃宋華元	-12.6047
齊師宋師曹師	-12.6048
夏五月丙午及齊師戰于奚	-12.6048
欽定春秋傳說彚纂卷	-12.605
賵諸侯之妾	-12.605
二十有九年春王正月公在楚	-12.605
豹及諸侯之大夫盟	-12.6155
鏃	-12.6232
㲄	-12.6238
艷	-12.6238
瀍	-12.6239
墾	-12.6241
撻	-12.6243
嬙	-12.6244
甑	-12.6244
疋	-12.6244
將子匠反	-12.6244
劉子單子以王猛	-12.6245
喙	-12.6246
以蕃屏周	-12.6246
鷙	-12.6247
擣	-12.6247
鋌	-12.6247
廚	-12.6248
諄	-12.6248
鵝	-12.6249
蹟	-12.6249
蛇淵囿	-12.6249
三月公㑹齊侯陳侯鄭伯于稷以成宋亂	-12.6249
逃義曰逃	-12.6249
莒牟夷以牟婁	-12.625
二年春晉侯使韓起來聘	-12.6251
塲	-12.6251
奉少奪長	-12.6251
戊辰叔弓帥師敗莒師于蚡泉	-12.6251
濘	-12.6252
鉉	-12.6252
八月癸亥葬紀叔姬	-12.6252
逖	-12.6252
九月庚戌朔日有食之冬十月庚辰朔	-12.6253
頤	-12.6253
來賜公命	-12.6253
紀之遺邑	-12.6253
秋七月壬午朔日有食之	-12.6253
十有八年春王三月日有食之	-12.6254
八月壬午宋公鮑卒	-12.6254
水昏正而栽	-12.6254
己亥仲孫羯卒	-12.6255
公及齊侯宋公陳侯衛侯鄭伯許男曹伯	-12.6255
问	-12.6255
晉里克弑其君卓及其大夫荀息	-12.6255
踁	-12.6256
九月己亥公孫于齊次于陽州	-12.6256
十有八年春王正月晉殺其大夫胥童	-12.6256
夏齊侯伐我北鄙圍成公救成至遇	-12.6256
秋晉人執宋行人樂祁犂	-12.6256
十有二月甲寅公㑹齊侯盟于扈	-12.6256
及齊師戰于奚	-12.6256
夏叔孫豹㑹晉趙武楚屈建蔡公孫歸生	-12.6257
四年春王正月大雨雹	-12.6257
秋公㑹宋人齊人伐徐	-12.6257
宋公及楚人戰于泓	-12.6257
邾人伐我南鄙叔彭生帥師伐邾	-12.6257
槃	-12.6258
鄭罕達帥師伐宋	-12.6258
有一月壬戌晉侯及秦伯戰于韓獲晉侯	-12.6258
睥	-12.6258
取郜大鼎于宋	-12.6258
君行師從	-12.6259
十有一月公㑹楚公子嬰齊于蜀	-12.626
夏楚子鄭伯伐宋宋魚石復入于彭城	-12.6261
鄭伯許男曹伯侵蔡蔡潰遂伐楚次于陘	-12.6319
籩	-12.6445
諏	-12.6452
䠞	-12.6452
遇艮之八	-12.6453
過古禾反	-12.6456
冷	-12.6458
國子監司業顧棟髙撰	-12.6458
叶	-12.6458
粹	-12.6458
愔	-12.6459
模	-12.646
淸	-12.646
簋	-12.6461
江人黃人	-12.6461
輟	-12.6463
撼	-12.6464
軰	-12.6464
十有一年春滕侯薛侯來朝	-12.6464
次睢之社	-12.6464
君弱臣强	-12.6465
春秋胡傳附録纂疏	-12.6465
豸	-12.6465
穿封戌	-12.6465
鋸	-12.6465
正月辛亥朔日南至	-12.6466
加于牲上	-12.6466
裴	-12.6467
三年春王二月己巳日有食之	-12.6467
朔加時在晝交分	-12.6467
冬十月壬午公子遂㑹晉趙盾盟于衡雍	-12.6467
十有七年春王正月庚子許男錫我卒	-12.6468
囆	-12.6468
華亥向寧華定	-12.6468
孱	-12.6468
夫人氏之喪至自齊	-12.6468
冬十有二月己丑葬我君桓公	-12.6468
始用六佾	-12.6469
三十有一年春築臺于郎	-12.6469
三十有三年春王二月秦人入滑	-12.6469
一事而再見者卒名	-12.6469
三年春王正月丁未滕子原卒	-12.6469
穆襄之族	-12.6469
曹人邾人滕人薛人小邾人于黄父	-12.647
溴	-12.647
撮	-12.647
三月辛亥葬我小君成風	-12.6471
十有七年春齊人徐人伐英氏	-12.6471
楚人及吳戰于長岸	-12.6471
十有九年春王三月宋人執滕子嬰齊	-12.6471
晉殺其大夫陽處父晉狐射姑出奔狄	-12.6471
夏五月辛酉公㑹齊侯盟于艾	-12.6472
王者之迹熄而詩亡詩亡然後春秋作	-12.6472
冬十有二月公㑹齊侯宋公陳侯	-12.6472
癸丑葬我小君文姜	-12.6472
初税畆	-12.6472
齊人來歸衛俘	-12.6473
陀	-12.6473
公孫于齊次于陽州	-12.6473
撥亂世反之正	-12.6473
敗秦師于令狐	-12.6474
癸亥鄭游速帥師滅許以許男斯歸	-12.6474
秋九月荆敗蔡師于莘以蔡侯獻舞歸	-12.6475
叔孫豹㑹晉士匄于柯	-12.6475
孫何忌帥師伐邾取漷東田及沂西田	-12.6476
二年春王二月季孫斯叔孫州仇仲	-12.6476
三十有一年春王正月公在乾侯	-12.6476
冬十有二月夫人姜氏㑹齊侯于禚	-12.6476
扺	-12.6477
秋八月乙未葬齊孝公	-12.6477
練主用栗	-12.6477
匜	-12.6478
子沈子小邾子宋世子佐淮夷㑹于申	-12.6478
二吾猶不足	-12.6479
隋開皇	-12.648
宋魚石復入于彭城	-12.648
蟜	-12.6484
袴	-12.6663
季孫行父臧孫許叔孫僑如公孫嬰齊	-12.667
溜	-12.6671
謠	-12.6673
洿	-12.668
簀	-12.6681
郝	-12.6681
澹	-12.6683
規杜過非也	-12.6686
自郊勞至于贈賄	-12.6686
佗殺太子免	-12.6687
穀不升謂之	-12.6687
欿	-12.6687
戎子駒支	-12.6687
黄裳元吉	-12.6688
慶氏以陳叛	-12.6688
夏五月葬曹桓公	-12.669
筑	-12.669
二十有三年春王二月癸酉朔日有食之	-12.6691
晉侯宋公衞侯曹伯齊世子光	-12.6691
三十年春王正月楚子使薳罷來聘	-12.6691
孔寧儀行父	-12.6692
晉人及秦人戰于令狐	-12.6692
聘以志業	-12.6692
孔子行乎季孫三月不違	-12.6692
書之重詞之複	-12.6693
咫	-12.6693
秋七月庚午宋公齊侯衛侯盟于瓦屋	-12.6694
崇明祀保小寡	-12.6694
吕相絶秦	-12.6694
夏晉侯使士魴來聘	-12.6695
夏公㑹宰周公齊侯宋子	-12.6695
垂棘之璧	-12.6695
十有一年春齊國書帥師伐我	-12.6695
秋七月丁酉葬齊襄公	-12.6695
齊髙止出奔北燕	-12.6695
衛侯鄭伯許男邢侯曹伯于淮	-12.6695
雨者有志乎民者也	-12.6696
夏晉人宋人衛人陳人侵鄭	-12.6697
侫	-12.6698
北方可圖也	-12.6698
不賞私勞	-12.6698
疊	-12.6698
六月乙酉同盟于柯陵	-12.6699
衛公孟彄出奔鄭	-12.6699
十有六年春王正月戊申朔隕石于宋五	-12.6699
衛元咺自晉復歸于衛	-12.6699
城郭溝池	-12.6699
執陳公子招放之于越殺陳孔奐	-12.67
月癸卯晉師滅赤狄潞氏以潞子嬰兒歸	-12.67
義見桓二年公至自唐	-12.6701
衛侯之弟鱄出奔晉	-12.6701
丁未葬我君成公	-12.6703
勞力報反	-12.6899
疆居良反	-12.69
襦	-12.6902
粱	-12.6906
嫚	-12.691
令力呈切	-12.691
脈	-12.6912
邕	-12.6912
邴意兹	-12.6913
擢	-12.6913
公子友帥師敗莒師于	-12.6913
茫	-12.6913
眚災肆赦	-12.6914
厪	-12.6914
暘	-12.6914
邑無百雉之城	-12.6915
掬	-12.6915
冬十有二月葬鄭厲公	-12.6915
桓非受命之伯	-12.6915
恙	-12.6915
勍	-12.6916
夏蔡殺其大夫公孫姓公孫霍	-12.6916
渥	-12.6916
梁國睢陽縣	-12.6916
處心積慮	-12.6917
羡	-12.6918
合二姓之好	-12.6918
下陵上替	-12.6919
誚	-12.6919
析木之津	-12.6919
天之示人顯矣	-12.6919
壮	-12.692
邽	-12.692
六年五服一朝	-12.692
着	-12.692
丙戌公㑹鄭伯盟于武父	-12.692
衛世子蒯聵出奔宋	-12.6921
二十有二年春王正月肆大眚	-12.6921
十有八年春王二月丁丑公薨于臺下	-12.6921
二十有二年春齊侯伐莒	-12.6921
冬季孫宿㑹晉士匄宋華	-12.6921
逃者匹夫之事	-12.6922
衛公孟彄自齊歸于衛	-12.6922
鄲	-12.6922
飾城而請罪	-12.6922
儔	-12.6923
曲直之繩墨	-12.6923
十有四年春王正月莒子朱卒	-12.6924
楚子入居于申	-12.6924
邗	-12.6924
乂	-12.6924
仲孫貜㑹邾子盟于祲祥	-12.6924
十有五年春二月天王使家父來求車	-12.6924
棊	-12.6925
隻	-12.6925
曹伯使其世子射姑來朝	-12.6926
稱國以殺大夫者罪累上也	-12.6926
葉氏夢得曰	-12.6926
季孫行父如齊冬公孫歸父如齊	-12.6926
秭	-12.6927
槀	-12.6927
冬葬齊靈公	-12.6928
夏晉人執衛行人石買	-12.693
蘷	-12.693
夏四月丙子衛侯元卒	-12.6931
罋	-12.7108
屦	-12.7127
斮	-12.7131
僵	-12.7133
柞	-12.7133
瑤	-12.7137
頎	-12.7137
鮮息淺	-12.7138
自豫章與楚夾漢	-12.7139
邪似嗟	-12.7139
䴢	-12.714
町	-12.714
旄車之族	-12.714
峰	-12.7142
涯	-12.7143
摠	-12.7144
釣	-12.7144
單伯㑹齊侯宋公衛侯鄭伯于鄄	-12.7144
經書月四書日	-12.7145
故謹而月之	-12.7145
郠	-12.7145
菫	-12.7145
陬	-12.7146
胠	-12.7146
嗤	-12.7147
癸巳葬晉文公	-12.7147
多方以誤之	-12.7147
唾	-12.7148
軸	-12.7148
以狄師攻王	-12.7148
餉	-12.7149
吊	-12.715
夏五月癸丑衛侯朔卒	-12.715
賤者窮諸人	-12.715
氓	-12.715
禮卿不㑹公侯	-12.715
屣	-12.7151
衛侯曹伯邾子同盟于斷道	-12.7151
峴	-12.7151
湮	-12.7151
十有一年春楚子伐麇	-12.7151
沽	-12.7151
十有三年春齊師伐莒	-12.7152
滅許以許男斯歸	-12.7152
民逃其上曰潰	-12.7152
諮謀齊難	-12.7152
二十有三年春公至自齊	-12.7153
秋七月天子使召伯來賜公命	-12.7153
夏四月葬陳宣公	-12.7153
秋晉士鞅宋樂祁犂	-12.7153
冬十月宋華亥向寧華定出奔陳	-12.7153
撲	-12.7154
君子違不適	-12.7154
三十有一年春取濟西田	-12.7154
連稱管至父	-12.7155
宋華亥向寧華定自陳入于宋南里以叛	-12.7155
僤	-12.7155
瓶	-12.7155
任公輔曰	-12.7155
凡城之志皆譏	-12.7155
其義則丘竊取之	-12.7156
撤	-12.7156
宋人背北杏之	-12.7156
侯莒子盟于曲池	-12.7156
十年春王二月邾子益來奔	-12.7156
春秋無義戰彼善於此則有之	-12.7157
轘諸栗門	-12.7157
元鄭玉撰	-12.7157
乙亥葬宋文公	-12.7158
十有一年春宋公之弟辰	-12.7158
宋華亥向寧華定自宋南里出奔楚	-12.7158
釈詁文	-12.7159
十有八年春白狄來	-12.7159
儦	-12.7161
薛氏季宣曰	-12.7161
王氏錫爵曰	-12.7162
鷃	-12.736
鞬	-12.737
鄼	-12.7373
漢書五行志	-12.7374
夬	-12.7378
重直用切	-12.7381
範	-12.7381
聦	-12.7382
稗	-12.7383
把伯姬來朝其子	-12.7385
曹公子首及齊侯戰于鞌齊師敗績	-12.7385
件	-12.7387
髙忠憲曰	-12.7387
孛者何彗星也	-12.7387
炳	-12.7387
夏衛北宫結來奔	-12.7388
屛	-12.7388
十有二月乙卯夫人子氏薨	-12.7388
玷	-12.7388
六月丁巳朔日有食之	-12.7388
華亥向寜華定	-12.7388
四年春王二月夫人姜氏享齊侯于祝丘	-12.7388
褻	-12.7389
十有二月丁巳夫人氏之喪至自齊	-12.7389
六年春正月寔來	-12.7389
己卯晦震夷伯之廟	-12.7389
晉人執鄭伯晉欒書帥師伐鄭	-12.7389
者何邾婁之邑也曷	-12.7389
辛巳有事于太廟仲遂卒于垂	-12.739
冬十有二月公㑹宋公于闞	-12.739
籧	-12.739
失禮之中又失禮	-12.739
十有九年春宋公伐邾	-12.7391
卿行旅從	-12.7391
背城借一	-12.7391
婚禮不稱主人	-12.7391
同姓媵之異姓則否	-12.7391
齊侯宋公衛侯鄭伯曹伯邾人滕人伐秦	-12.7391
蔡人男女以辨	-12.7391
忝	-12.7391
八月公㑹齊侯宋公鄭伯曹伯邾人于檉	-12.7391
八年春宋公衛侯遇于垂	-12.7392
二月己亥及向戌盟于劉	-12.7392
晉士鞅帥師侵鄭遂侵衛	-12.7392
秋七月叔弓如宋葬宋共姬	-12.7392
菁菁者莪	-12.7392
姺	-12.7392
弔如同盟禮也	-12.7393
秋季孫意如㑹晉韓起齊國弱宋華亥	-12.7393
斜	-12.7393
晉人宋人衛人曹人伐鄭	-12.7393
雨不克葬庚寅日中而克葬	-12.7394
愚謂此實傳也	-12.7394
晉趙鞅帥師圍衛	-12.7394
公以楚師伐齊取穀	-12.7394
孫敖㑹宋公陳侯鄭伯晉士縠盟于垂隴	-12.7395
刧	-12.7395
七年春夫人姜氏㑹齊侯于防	-12.7395
夏邾畀我來奔	-12.7395
春王正月宋公曹伯衛人邾人伐齊	-12.7395
明其道不計其功	-12.7395
佻	-12.7396
君獲不言師敗績	-12.7396
沶	-12.7397
冬楚師鄭師侵衛	-12.7397
十有九年春王正月諸侯盟于祝柯	-12.7397
仲孫蔑㑹齊髙固于無婁	-12.7397
夏葬鄭僖公	-12.7398
冬公如晉十有二月己巳公及晉侯盟	-12.7398
蔡侯廬歸于蔡陳侯吳歸于陳	-12.7398
魚石向為人鱗朱向帶魚府	-12.7398
二十有七年春齊侯使慶封來聘	-12.7399
夏五月辛巳葬我小君哀姜	-12.7399
十有二月仲孫蔑㑹晉侯宋公	-12.7401
公㑹齊侯宋公陳侯衛侯鄭伯許男曹伯	-12.7551
鞛	-12.7594
飂	-12.7607
覜	-12.7613
躇	-12.7615
疽	-12.7617
侑	-12.7618
臥	-12.7618
袤	-12.762
撥	-12.7621
豺	-12.7621
曵	-12.7622
饉	-12.7623
戊申衛州吁弑其君完	-12.7623
火伏而後蟄者畢	-12.7624
不去慶父魯難未	-12.7625
窌	-12.7625
肝	-12.7626
斚	-12.7626
语	-12.7626
倐	-12.7627
春秋毛氏傳卷	-12.7627
二十有六年春公伐戎	-12.7628
逝	-12.7628
皂	-12.7628
諸侯官受方物	-12.7629
癸巳葬蔡桓侯	-12.7629
刎	-12.763
公及戎盟于唐冬公至自唐	-12.763
天王使家父來求車	-12.763
禬	-12.763
􁏉	-12.7631
六月癸酉葬我君文公	-12.7631
搚	-12.7631
冬葬滕悼公	-12.7632
春秋之傳終矣	-12.7632
甲寅齊人伐衛衛人及齊人戰衛人敗績	-12.7632
秋七月癸巳滕子寧卒	-12.7632
君雖不君臣不可以不臣	-12.7633
君君臣臣父父子子	-12.7633
屝	-12.7633
陽平元城縣東	-12.7633
逓	-12.7633
蹂	-12.7633
二十有九年春公至自乾侯居于鄆	-12.7633
十有一年春王三月公至自晉	-12.7634
六年春晉趙盾衛孫免侵陳	-12.7634
峙	-12.7634
慚	-12.7634
夏叔弓如滕五月葬滕成公	-12.7634
貯	-12.7634
冬衛侯鄭伯盟于曲濮	-12.7634
宙	-12.7635
知我者其惟春秋乎罪我者其惟春秋乎	-12.7635
齊人執衛行人北宫結以侵衛	-12.7635
二十有五年春陳侯使女叔來聘	-12.7635
冬十月癸卯秦伯卒	-12.7635
逢孫楊孫	-12.7636
邾婁諱亟也	-12.7636
冬齊髙子來盟	-12.7636
外大夫不卒此何以卒	-12.7637
冬十有一月公㑹宋公于龜	-12.7637
冬十月戊辰叔孫婼卒	-12.7637
野有蔓草	-12.7637
公子嬰齊帥師伐莒庚申莒潰楚人入鄆	-12.7637
滅也孰滅之	-12.7638
十有二月公圍成公至自圍成	-12.7638
秋八月丁亥葬齊桓公	-12.7639
二十有五年春齊崔杼帥師伐我北鄙	-12.7639
及國佐盟于袁婁	-12.7643
二十有九年春介葛盧來	-12.7643
晉趙鞅帥師納衛世子蒯聵于戚	-12.7643
夏五月庚寅宋公兹父卒	-12.7644
齊侯宋公陳侯衛侯鄭伯許男曹伯于鹹	-12.7646
趙氏鵬飛	-12.7825
紞	-12.785
輹	-12.7854
幘	-12.786
叄	-12.7861
壷	-12.7865
滸	-12.7865
綍	-12.787
赳	-12.787
觩	-12.7872
鳶	-12.7874
魯以周班後鄭	-12.7874
球	-12.7875
少詩照切	-12.7876
之郊禘非禮也周公其衰矣	-12.7876
九月衛人殺州吁于濮	-12.7876
婤	-12.7877
牘	-12.7877
鍵	-12.7877
葘	-12.7878
迺	-12.7878
十有一年春晉殺其大夫㔻鄭父	-12.7878
鼷鼠食郊牛角	-12.7878
療	-12.7879
六月葬鄭定公	-12.7879
芾	-12.7879
悉索敝賦	-12.7879
秋翬帥師㑹宋公陳侯蔡人衛人伐鄭	-12.7879
黈	-12.7879
腸	-12.788
堀	-12.788
王使召伯廖賜齊侯命	-12.788
嘉樂不野合	-12.7881
赧	-12.7881
天王使叔服來㑹葬	-12.7881
季孫斯仲孫何忌帥師侵衛	-12.7881
三傳辨疑卷	-12.7882
鬰	-12.7882
碌	-12.7883
樠	-12.7883
不雨者勤雨也	-12.7883
三綱軍政之本	-12.7884
二十有二年春公伐邾取須句	-12.7884
枕之股而哭之	-12.7884
十有六年春齊侯伐徐	-12.7884
救者善則伐者	-12.7885
吳子遏伐楚門于巢卒	-12.7886
頓置兩閏	-12.7886
陳靈公與孔寧儀行父	-12.7886
冬十有一月葬齊頃公	-12.7886
春正月丙辰公㑹齊侯紀侯盟于黄	-12.7886
鑪	-12.7886
黑肱以濫來奔	-12.7886
㑹晉侯宋公陳侯衛侯鄭伯曹伯莒子邾	-12.7887
𥚹	-12.7887
齹	-12.7887
夏宋公衛侯許男滕子伐鄭	-12.7887
秋七月丙申及齊髙傒盟于防	-12.7887
晉人納捷菑于邾弗克納	-12.7887
盡歸鄅俘	-12.7887
反求諸己	-12.7887
十有四年春王正月公至自晉	-12.7887
悠	-12.7888
楨	-12.7888
晉里克弑其君卓	-12.7888
衛孫良夫帥師侵宋	-12.7888
五月葬鄭簡公	-12.7888
惡其反覆而書同	-12.7888
轢	-12.7889
春秋左傳屬事卷	-12.7889
莒人入向以姜氏還	-12.7889
夏四月辛卯夜恒星不見夜中星隕如雨	-12.7889
衰道微暴行交作	-12.7889
冬十月癸亥公㑹齊侯盟于黄	-12.7889
宋人執滕子嬰齊	-12.789
秋八月癸未葬我小君穆姜	-12.789
齊髙無咎出奔莒	-12.7891
閴	-12.7891
十年春王二月公㑹齊侯鄭伯于中丘	-12.7891
六月壬子鄭公孫舍之帥師入陳	-12.7891
蚩	-12.7892
樸鄉吕氏曰	-12.7892
楚公子貞鄭公孫輒帥師伐宋	-12.7893
春秋集傳詳説卷	-12.7894
晉士匄帥師侵齊至榖聞齊侯卒乃還	-12.7895
杞伯小邾子齊國夏于召陵侵楚	-12.7895
秋公㑹劉子晉侯齊侯宋公衛侯鄭伯	-12.7899
裼	-12.8099
紳	-12.8112
傴	-12.8121
愒	-12.8124
命晉侯為侯伯	-12.8129
蘀	-12.8131
坦	-12.8132
鴡	-12.8132
陌	-12.8134
炮	-12.8134
明卓爾康撰	-12.8134
案隋書地理志	-12.8134
諸侯之喪士弔大夫	-12.8135
大夫生死皆曰獲	-12.8136
夏四月癸酉衛侯燬卒	-12.8137
徧刺天下之大夫	-12.8137
十有一月衛侯朔出奔齊	-12.8138
鸜鵒不踰濟	-12.8139
秋齊髙發帥師伐莒	-12.8139
攀	-12.8139
冬十有二月公孫兹帥師	-12.814
惓	-12.814
冬十有一月己酉楚子麇卒	-12.8141
濟涇而次	-12.8141
䳒	-12.8141
自求多福	-12.8141
丙戌衛侯晉卒	-12.8141
公還自晉鄭伯㑹公于棐	-12.8141
秋七月冬齊人伐戎	-12.8141
儳	-12.8142
蔡公孫辰出奔吳	-12.8142
六月葬陳惠公	-12.8142
逐不臣者七人	-12.8142
莒人侵我東鄙	-12.8143
四年春王三月己酉陳侯午卒	-12.8143
粤	-12.8143
秋葬薛獻公	-12.8143
以重賂求鄭	-12.8144
夏四月辛卯尹氏卒	-12.8144
秋季孫宿如衛	-12.8145
夏葬薛襄公	-12.8145
沱	-12.8145
蔡人放其大夫公孫獵于吳	-12.8145
入問王疾縊	-12.8146
莾	-12.8146
映	-12.8146
冬十月己丑葬我小君敬嬴	-12.8146
滅者亡國之善辭	-12.8146
冬十有二月癸亥公㑹衛子莒慶盟于洮	-12.8146
楚人使宜申來獻捷	-12.8147
義陽隨縣	-12.8147
背華即夷	-12.8147
験	-12.8147
公會晉侯宋公衛侯鄭伯曹伯	-12.8148
公自京師遂㑹晉侯	-12.8148
公子遂㑹晉人宋人衛人許人救鄭	-12.8148
六月公㑹宋公陳侯衛侯鄭伯許男曹伯	-12.8148
呂氏大圭曰	-12.8148
二十有三年春齊侯伐宋圍緡	-12.8149
檐	-12.815
宋殺其大夫山宋魚石出奔楚	-12.815
十有二月甲戌公㑹諸侯盟于宋	-12.815
秋八月庚辰葬宋共公	-12.8151
公子遂帥師入杞	-12.8152
叔孫豹㑹晉趙武楚	-12.8178
杭	-12.8375
桂	-12.8383
易以䜴切	-12.8385
袍	-12.8385
軥	-12.8386
漿	-12.8387
嘏	-12.8388
羭	-12.8389
暭	-12.8389
誹	-12.8389
處昌慮反	-12.839
衿	-12.8392
􁆦	-12.8393
諗	-12.8394
明胡廣等撰	-12.8394
夏宋公使公孫夀來納幣	-12.8395
椉	-12.8397
内不承國於先君	-12.8398
拉	-12.8398
睹	-12.8398
夏四月取郜大鼎于宋戊申納于大廟	-12.8398
春齊侯宋人陳人蔡人邾人㑹于北杏	-12.8399
夏四月丙戌鄭伯寧卒	-12.8399
儵	-12.8399
今東昌路	-12.8399
肌	-12.8399
夏六月辛酉葬我君莊公	-12.8399
成王以周公有大勲勞	-12.8399
欲弭諸侯之兵以為名	-12.8399
國春秋統紀第	-12.84
郄	-12.84
王子虎盟諸侯于王庭	-12.84
夫人氏之䘮至自齊	-12.84
文成襄昭哀	-12.84
塈	-12.8401
搜	-12.8401
九月庚申楚子居卒	-12.8402
東平無鹽縣	-12.8402
冬十有二月丁巳齊侯禄父卒	-12.8402
穆伯如周弔	-12.8403
衛侯鄭伯許男滑伯滕子同盟于幽	-12.8403
㑹于平州以定公位	-12.8403
秋八月戊辰衛侯惡卒	-12.8403
許世子止弑其君買	-12.8403
冬齊髙固及子叔姬來	-12.8404
猖	-12.8404
夏四月吳弑其君僚	-12.8404
九月考仲子之宫初獻六羽	-12.8404
明湛若水撰	-12.8404
准	-12.8404
大國三軍次國二軍小國一軍	-12.8405
挾天子以令諸侯	-12.8405
穉	-12.8405
負固不服則侵之	-12.8405
夏四月丁未邾子瑣卒	-12.8406
鄭伯㑹公于棐	-12.8406
可殺而不殺舉輕	-12.8406
義又見隱二年鄭伐衞	-12.8406
榛栗棗脩	-12.8407
晉侯及秦伯戰于韓	-12.8407
楚人使宜申來獻㨗	-12.8407
冬十月癸酉衛侯鄭卒	-12.8407
義見隱三年宋公卒	-12.8407
冬十有二月乙卯叔孫豹卒	-12.8408
䜿	-12.8408
三年春齊國夏衛石曼姑帥師圍戚	-12.8409
甲午衛侯衎復歸于衛	-12.8409
公㑹齊侯衛侯于牽	-12.8409
盜殺衛侯之兄縶	-12.8409
洒	-12.8409
靡角之谷	-12.8409
洊	-12.841
淩	-12.841
羨	-12.841
正月之朔慝未作	-12.841
蔡侯陳侯許男頓子胡子沈子淮夷伐吳	-12.841
以沈子嘉歸	-12.841
先人有奪人之心	-12.841
戡	-12.841
冬公㑹單子晉侯宋公衛侯曹伯齊人邾	-12.841
二十有四年春王二月丙戌仲孫貜卒	-12.8411
蠹	-12.8413
仲孫蔑㑹晉欒黶宋華元衛	-12.8417
侯獳貨筮史	-12.8417
十有二月己丑公㑹晉侯齊侯宋公	-12.845
餕	-12.8634
菹	-12.864
鑣	-12.8642
羆	-12.8648
袚	-12.8649
轑	-12.8656
瘍	-12.8657
张	-12.8658
迸	-12.8659
骼	-12.866
涘	-12.866
縂	-12.866
窀	-12.8661
劭	-12.8661
賾	-12.8662
闉	-12.8663
旜	-12.8664
篋	-12.8664
裯	-12.8664
矞	-12.8664
歧	-12.8665
腫	-12.8665
揲	-12.8665
瑾	-12.8666
儐	-12.8666
姶	-12.8666
眩	-12.8666
耜	-12.8666
鵠	-12.8667
瘞	-12.8667
王享醴命	-12.8667
挍	-12.8668
孫林父甯殖出其君	-12.8668
帯	-12.8668
愽	-12.8668
見易象與魯春秋曰周禮盡在魯矣	-12.8668
燿	-12.8669
東海昌慮縣	-12.8669
黄正憲氏曰按	-12.8669
荆舒是懲	-12.8669
殂	-12.867
齎	-12.867
冬十月公如齊十有二月公至自齊	-12.867
君子屢盟亂是用長	-12.867
土地猶大所命能具	-12.8671
以皮帛繼子男	-12.8671
夏四月丙子公薨于齊	-12.8672
凡師能左右之曰以	-12.8672
順祀先公而祈焉	-12.8672
寬	-12.8673
九月戊申朔日有食之冬晉人執虞公	-12.8673
㴱	-12.8673
九月紀履緰來逆女	-12.8673
二月公侵齊三月公至自侵齊	-12.8673
秋七月癸巳葬我君昭公	-12.8674
王奪鄭伯政鄭伯不朝	-12.8674
正其義不謀其利	-12.8675
杪	-12.8675
勳	-12.8675
衛石惡陳孔奐鄭良霄許人曹人于宋	-12.8675
秋齊侯鄭伯盟于鹹	-12.8676
九月己亥葬我小君齊歸	-12.8676
痍	-12.8676
其所由來漸矣	-12.8676
衰麻非所以接弁冕	-12.8677
子滕子薛伯齊世子光吳人鄫人于戚	-12.8677
夏四月公㑹宋公衛侯陳侯蔡侯伐鄭	-12.8678
春蒐夏苗秋獮冬狩	-12.8678
晉人宋人衛人曹人同盟于清丘	-12.8678
猷	-12.8678
百王不易之大法	-12.8678
秋七月甲子公孫兹卒	-12.8679
我之不共魯故之以	-12.8679
取漷東田及沂西田	-12.8679
九月晉人執季孫行父舍之于苕丘	-12.868
漷東沂西	-12.868
夏四月秋宋樂大心自曹入于蕭	-12.8681
楚人執陳行人干徴師殺之	-12.8681
九夫為井四井為邑四邑為	-12.8682
秋楚人滅夔以夔子歸	-12.8682
壬申公薨于髙寢	-12.8682
甲士三人步卒七十二人	-12.8682
殺馬毁玉	-12.8683
吕氏大圭曰	-12.8683
齊侯衛侯宋華元邾人于沙隨不見公	-12.8684
春秋本例卷	-12.8684
春二月公㑹紀侯鄭伯己巳及齊侯宋公	-12.8684
畨	-12.8685
莒子邾子滕子薛伯杞伯小邾子同圍齊	-12.8719
叔孫僑如公孫嬰齊帥師㑹	-12.8898
綖	-12.8926
痎	-12.8927
轏	-12.8929
巍	-12.8931
兎	-12.8935
適丁歷切	-12.8937
譯	-12.8937
閈	-12.894
封豕長蛇	-12.894
鬒	-12.8942
召伯盈逐王子朝	-12.8942
欽定四庫全書春秋大全卷	-12.8942
莒人伐把取牟婁	-12.8943
夏戸雅反	-12.8943
𢃄	-12.8944
胤	-12.8944
沬	-12.8944
守手又切	-12.8945
胃	-12.8945
摭	-12.8945
弔生不及哀	-12.8946
皤	-12.8946
河南陽翟縣	-12.8946
迅	-12.8947
夏蔡朝吳出奔鄭	-12.8948
北燕伯款出奔齊	-12.8948
晉侯宋公衛侯鄭伯曹伯齊世子光救陳	-12.8949
溝而合諸墓	-12.8949
岷	-12.895
楚世子商臣弑	-12.895
與有濟之祀	-12.8951
鼬	-12.8951
季孫斯叔孫州仇帥師城啓陽	-12.8952
晉人齊人宋人衛人鄭人曹人莒人邾	-12.8952
婿	-12.8952
㩀	-12.8952
秋齊侯伐衛遂伐晉	-12.8952
還者何善辭也何善爾	-12.8952
娛	-12.8952
研	-12.8952
蔡侯陳侯許男頓子沈子徐人越人伐吳	-12.8953
鐲	-12.8953
二十有四年春王三月刻桓宫桷	-12.8953
夏四月癸亥葬我小君聲姜	-12.8953
二月辛酉葬我君宣公	-12.8953
從近闗出	-12.8953
篳路藍縷	-12.8953
壬申鄭伯費卒	-12.8955
裸	-12.8955
㑹齊侯宋公陳侯衛侯曹伯伐鄭圍新城	-12.8956
弈	-12.8956
癸丑公㑹晉侯衛侯鄭伯曹伯宋	-12.8957
公㑹齊侯鄭伯于中丘	-12.8957
器與名不可以假人	-12.8957
夏四月丁巳薛伯榖卒	-12.8957
悱	-12.8958
衛侯鄭伯許男曹伯盟于牡丘遂次于匡	-12.8958
可謂不食其言矣	-12.8958
晉侯宋公陳侯衛侯曹伯莒子邾子于鄬	-12.8959
公孫歸父如齊葬齊惠公	-12.8959
攻其所必救	-12.896
冬十有一月叔孫僑如㑹晉士燮齊	-12.8961
癸巳陳夏徴舒弑其君平國	-12.8961
偃師而立公子留	-12.8961
秋七月辛卯齊侯環卒	-12.8961
𤾉	-12.8963
非宋地追書也	-12.8967
俳	-12.9209
匃	-12.9214
柎	-12.922
筩	-12.9221
沢	-12.9223
鶩	-12.9223
夹	-12.9223
捥	-12.9223
有窮后羿	-12.9224
瀐	-12.9225
繐	-12.9225
眕	-12.9225
圈	-12.9225
蹯	-12.9226
袖	-12.9228
煙	-12.9229
為賂故立華氏	-12.9229
諸侯卒其封内不地	-12.9229
疆居良切	-12.9229
酋	-12.923
餽	-12.923
焰	-12.9231
公子牙今將爾	-12.9232
嘔	-12.9232
衾	-12.9232
罟	-12.9232
諤	-12.9232
鲋	-12.9233
克邑不用師徒曰取	-12.9233
填	-12.9233
毳	-12.9234
扑	-12.9234
雨于付反	-12.9234
末大必折	-12.9235
凄	-12.9235
父老子代從政	-12.9235
迥	-12.9235
夏四月辛巳晉人及姜戎敗秦師于殽	-12.9236
十有八年春王三月曹伯須卒	-12.9236
齊侯曰執結以侵我	-12.9237
鄭伯會公于棐	-12.9237
鼷䑕食郊牛牛死改卜牛	-12.9237
諸侯曰薨大夫曰卒	-12.9238
敺	-12.9238
邑不言圍此其言圍何	-12.9238
帥所類切	-12.9238
壬午公子友帥師敗莒師于酈獲莒挐	-12.9239
禎	-12.9239
鼆	-12.9239
冬十月公子遂如晉葬晉襄公	-12.9239
螣	-12.924
苪	-12.924
隠之也何隠爾	-12.924
周之宗盟異姓為後	-12.924
十有二年春王三月莒人伐我東鄙圍台	-12.924
藺	-12.924
扆	-12.9241
二十有五年春叔孫婼如宋	-12.9241
蕩澤弱公室殺公子肥	-12.9241
帥師戰于鐵鄭師敗績	-12.9241
封殽尸而還	-12.9242
宋公孫固齊國歸父陳轅濤塗	-12.9242
昭公將去羣公子	-12.9242
蟊	-12.9242
二月丙午公㑹邾儀父盟于趡	-12.9242
同役而不同心	-12.9242
十有七年春王二月庚午邾子牼卒	-12.9243
宋崔子方撰	-12.9243
晉士鞅衛孔圉帥師伐鮮虞	-12.9243
齊世子光滕子薛伯杞伯小邾子伐鄭	-12.9244
丁巳葬我君定公雨不克葬戊午日下	-12.9244
請絶叔姬而無絶	-12.9245
畏晉而竊與楚盟	-12.9246
宋公陳侯衛侯曹伯㑹晉師于棐林伐鄭	-12.9246
使陽處父盟公以恥之	-12.9246
二月辛卯邾子穿卒	-12.9247
逐君側之惡人	-12.9249
庚輿虐而好	-12.9249
寿	-12.9262
簇	-12.9494
显	-12.9497
頿	-12.95
薀	-12.9508
蔭	-12.9512
玤	-12.9513
狸	-12.9514
低	-12.9514
蛾	-12.9515
猪	-12.9516
雃	-12.9516
徭	-12.9516
販	-12.9517
芬	-12.9517
年魯哀公十四年也	-12.9517
劬	-12.9518
蝑	-12.9518
碧	-12.9521
燾	-12.9521
巂	-12.9523
筍	-12.9523
火猶西流	-12.9524
淳于公如曹度其國危遂不復	-12.9524
先悉薦反	-12.9525
炳如日星	-12.9526
搢	-12.9526
渤	-12.9526
十有二月衛遷于帝丘	-12.9527
鄷	-12.9527
滅赤狄甲氏及留吁	-12.9527
仲慶父請伐齊師	-12.9528
衛貢五百家	-12.9528
派	-12.9529
内諱敗舉其可道者	-12.9529
錞	-12.9529
秆	-12.9529
陳厲公蔡出也	-12.9529
讀左日鈔	-12.9529
衙	-12.9529
秋八月甲寅滕子結卒	-12.9529
翼侯奔隨	-12.953
齊烏枝鳴	-12.953
過古禾切	-12.953
哀為蕭封人以為卿	-12.953
王使宰孔賜齊侯胙	-12.953
冬十有二月己卯晉侯重耳卒	-12.953
宋師伐陳衛人救陳	-12.9531
齊侯伐衞遂伐晉	-12.9531
吳戰于艾陵齊師敗績獲齊國書	-12.9532
十有二年春齊髙偃帥師納北燕伯于陽	-12.9532
死則以成人之喪治之	-12.9532
檇	-12.9532
當陳隧者井堙木刋	-12.9532
圯	-12.9532
嗛	-12.9532
齊世子光伐鄭十有二月己亥同盟于戲	-12.9533
眙	-12.9533
辛酉晉侯黒臀卒于扈	-12.9533
年春王正月夏四月秋八月戊申天王崩	-12.9533
宋魏了翁撰	-12.9533
叔孫僑如㑹晉士燮齊人邾人伐郯	-12.9533
格君心之非	-12.9533
鄅人藉稻	-12.9533
公㑹晉侯宋公衛侯曹伯莒子邾子	-12.9534
同者有同也同外楚也	-12.9534
孫林父以戚如晉	-12.9534
任城亢父	-12.9535
竿	-12.9535
堰	-12.9535
鼷鼠食郊牛改卜牛	-12.9536
秋衛殺其大夫元咺及公子瑕	-12.9536
屈建從陳侯圍陳	-12.9536
先言次而後言救	-12.9536
夏衛石買帥師伐曹	-12.9537
摟諸侯以伐諸侯	-12.9537
𣢾	-12.9537
戎狄是膺荆舒是懲	-12.9537
鷹鸇之逐鳥雀	-12.9538
五年春公如齊夏公至自齊	-12.9538
二月叔孫得臣如京師辛丑葬襄王	-12.9539
不重傷不禽二毛	-12.9539
八月壬午許男甯卒于楚	-12.9541
己丑葬我小君齊姜	-12.9541
吾以國人出君誰與處	-12.9542
春王二月癸巳陳侯吳卒	-12.9544
嶔	-12.9545
公㑹晉侯宋公衛侯曹伯齊世子光莒	-12.9738
肖	-12.9753
跦	-12.9805
桒	-12.9807
綆	-12.9811
金木水火土	-12.9812
儘	-12.9813
侏	-12.9815
幦	-12.9816
揚拒泉臯	-12.9817
遟	-12.9818
奊	-12.9818
麒	-12.9819
百官總已以聽	-12.9819
蛟	-12.9821
娠	-12.9823
聒	-12.9823
长	-12.9823
穸	-12.9824
銖	-12.9824
醮	-12.9826
崑	-12.9826
為人君父而不通	-12.9827
鍪	-12.9828
拭	-12.9828
楚子為舟師以伐	-12.9828
匕	-12.9828
跌	-12.9828
中秋教治兵	-12.9828
鄹	-12.9829
郏	-12.9829
庠	-12.9829
祝史請所用幣	-12.9829
琪	-12.9829
籠	-12.983
寂	-12.983
司徒老祁慮癸	-12.983
夫人何以不稱姜氏貶曷為貶	-12.983
尅	-12.983
袞	-12.983
䁀	-12.983
食郊牛角改卜牛鼷鼠又食其角乃免牛	-12.983
綣	-12.9831
陳侯使女叔來聘	-12.9831
蕆	-12.9832
庈	-12.9832
徨	-12.9832
倉西南池水	-12.9832
八月晉荀吳帥師滅陸渾之戎	-12.9832
三十有二年春王正月公在乾侯取闞	-12.9832
子糾親也請君討之	-12.9833
殫	-12.9833
頋	-12.9833
戻	-12.9833
六月癸未公及齊侯盟于榖	-12.9833
師次于郎以俟陳人蔡人	-12.9833
翺	-12.9834
鑕	-12.9834
非也説已見前	-12.9834
豈曰小補之哉	-12.9835
下妃生公子勝	-12.9835
八月辛亥葬我小君定姒	-12.9835
闥	-12.9835
厮	-12.9836
公孫敖如京師不至而復	-12.9836
習其讀而問其傳	-12.9836
夏公至自晉秋晉欒盈出奔楚	-12.9836
苑羊牧之	-12.9836
于新築衛師敗績	-12.9837
夏四月丙戌衛孫良夫帥師及齊師戰	-12.9837
下諸侯有相滅亡者	-12.9838
再見其再見何	-12.9838
衛侯鄭伯曹伯莒子邾子于商任	-12.9838
冬公孫歸父㑹齊侯于榖	-12.9839
其君之子云者國人不子也	-12.9839
取者得非其有之稱	-12.9839
有一年春王正月夏五月辛酉鄭伯突卒	-12.9839
瞷	-12.9839
秋公㑹衛侯宋皇瑗于鄖	-12.984
衞公孟彄帥師伐曹	-12.984
四夷雖大皆曰子	-12.984
濠	-12.984
紙	-12.9841
戊子晉人及秦人戰于令狐晉先蔑奔秦	-12.9841
春秋集傳釋義大成	-12.9841
四分公室季氏擇二二子各一皆盡征之	-12.9841
十有一年春王二月叔弓如宋葬宋平公	-12.9841
秋八月曹伯襄卒九月癸酉地震	-12.9841
丁酉杞伯郁釐卒	-12.9841
百二十國寳書	-12.9842
鶉之賁賁	-12.9843
雨不克葬喪不以制也	-12.9843
夏衛石惡出奔晉	-12.9843
夏公㑹吳于鄫	-12.9843
絇	-12.9843
曰實與之何上無天子下無方伯天下	-12.9844
晉殺其大夫郤錡郤犫郤至	-12.9844
二十有四年春王正月夏狄伐鄭	-12.9845
楚薳罷帥師伐吳	-12.9846
自今日既盟之後鄭國	-12.9852
冬十月乙亥陳侯林卒	-12.994
劵	-13.0114
莒子邾子滕子薛伯杞伯小邾子于平丘	-13.0116
妺	-13.0122
巾車脂轄	-13.0126
叫	-13.0127
喧	-13.0127
掀	-13.0127
㕑	-13.0128
析羽為旌	-13.0129
趯	-13.0131
蹲	-13.0132
簉	-13.0132
匝	-13.0132
咋	-13.0133
澗水東瀍水西	-13.0134
􁏄	-13.0134
綪	-13.0134
召桑田巫	-13.0135
饁	-13.0135
鯨	-13.0137
瀋	-13.0137
龎	-13.0138
言日不言朔食晦日也	-13.0139
瞢	-13.0139
入者内弗受也日入惡入者也	-13.014
戶	-13.014
不與夷狄之主中國	-13.014
為人後者為之子	-13.014
葆	-13.014
瘯	-13.0141
衘	-13.0141
鋟	-13.0141
恆	-13.0142
二十有八年春王三月葬曹悼公	-13.0142
秋七月冬公㑹齊侯盟于柯	-13.0142
公請受盟而後使歸	-13.0142
遷許于夷實城父	-13.0142
蔡人衞人陳人從王伐鄭	-13.0142
怡	-13.0142
慤	-13.0143
齊社蒐軍實使客觀之	-13.0143
先書虞賄故也	-13.0143
左公子洩右公子職	-13.0143
而屑屑焉習儀以	-13.0143
霞峯華氏曰	-13.0144
彷	-13.0144
陳人蔡人楚人鄭人盟	-13.0144
攬	-13.0144
夏宋人齊人衛人伐鄭	-13.0145
八月甲午宋萬弑其君捷及其大夫仇牧	-13.0145
贈死不及尸	-13.0145
摏	-13.0146
菀	-13.0146
十有二月丙午齊侯衛侯鄭伯來戰于郎	-13.0146
春王正月季孫宿叔老㑹晉士匄齊人	-13.0146
鼃	-13.0147
㑹齊人宋人衛人鄭人許人曹人侵陳	-13.0147
庳	-13.0147
訓上下之則制財用之節	-13.0147
楚子重侵陳以救鄭	-13.0148
冬十有一月庚午蔡侯以吳子及楚人戰	-13.0148
掲	-13.0149
十有四年春正月公㑹鄭伯于曹	-13.015
曰滕薛郳吾役也	-13.015
之死罪累上也故以國殺	-13.015
年春公如齊公至自齊齊人歸我濟西田	-13.015
二十有五年春王正月丙午衛侯燬滅邢	-13.015
使卜齮賊公于武闈	-13.015
春秋事義全考卷	-13.0151
虫	-13.0151
韣	-13.0151
宋吕本中撰	-13.0151
十有三年春鄭罕達帥師取宋師于嵒	-13.0151
齊人弑悼公赴于師	-13.0151
冬十月庚寅衛侯臧卒	-13.0152
邾人辭曰齊出貜且長	-13.0152
秋齊侯宋公江人黄人㑹于陽榖	-13.0152
取一人焉以歸謂之夏州	-13.0152
有六年春正月公㑹宋公蔡侯衛侯于曹	-13.0152
許叔居許東偏	-13.0152
湔	-13.0152
美惡不嫌同詞	-13.0153
宋家鉉翁撰	-13.0154
紝	-13.0154
十有二月丁巳朔日有食之邾子貜且卒	-13.0154
一朝而尸三卿	-13.0154
刑牲歃血要質鬼神	-13.0155
案此條從程端	-13.0156
改卜牛鼷䑕又食其角乃免牛	-13.0157
掌盟載之法	-13.0157
雨而木冰也	-13.0164
甯殖曹人莒人邾人滕人薛人圍宋彭城	-13.0165
伯莒子邾子齊世子光己未同盟于雞澤	-13.0327
秋七月壬子叔孫不敢卒	-13.0385
尪	-13.044
挶	-13.0445
圬	-13.0446
萴	-13.0446
纑	-13.0447
甍	-13.045
皿	-13.0451
耒	-13.0452
蓑	-13.0453
踖	-13.0454
軷	-13.0454
竅	-13.0455
頊	-13.0456
宝	-13.0457
子邾子滕子薛伯把伯小邾子伐鄭	-13.0457
楷	-13.0457
瑑	-13.0457
嬉	-13.0458
鈍	-13.0459
弩	-13.046
涂	-13.046
妥	-13.0461
爨	-13.0461
翅	-13.0461
五年春公觀魚于棠	-13.0462
錐	-13.0462
政而殺之又傷潞子之目	-13.0463
駹	-13.0463
怍	-13.0463
穮	-13.0463
使元咺奉叔武以受盟	-13.0463
侯之手及捥	-13.0463
像	-13.0464
晉杜氏注唐陸徳	-13.0464
盗殺衛侯之兄縶	-13.0464
秋七月戊辰陳侯柳卒	-13.0464
白狄及君同州	-13.0465
肻	-13.0466
櫟而寘子元焉	-13.0466
紀子伯莒子盟于密	-13.0466
泌	-13.0466
懿氏六十以與孫氏	-13.0466
繾	-13.0467
徊	-13.0467
春秋經筌卷	-13.0468
認	-13.0468
夏四月取郜大鼎于宋戊申納于太廟	-13.0468
自根牟至于商衛	-13.0469
年春王正月夏四月秋齊侯鄭伯盟于鹹	-13.0469
秦人來歸僖公成風之禭	-13.0469
公及齊侯宋公陳侯衞侯鄭伯許男曹伯	-13.0469
二十有六年春王正月葬宋元公	-13.0469
馬四匹牛十二頭	-13.0469
有一年春正月齊人衛人鄭人盟于惡曹	-13.0469
彌庸見姑蔑之旗	-13.0469
籥入叔弓卒去樂卒事	-13.047
躗	-13.047
與臧孫如墓謀	-13.0471
梟	-13.0471
引咎責躬	-13.0471
宋程公説撰	-13.0471
十有七年春晉人衛人陳人鄭人伐宋	-13.0471
妒	-13.0471
齊師宋師衞師燕師敗績	-13.0471
參曹人莒人薛人杞人小邾人城成周	-13.0472
捶	-13.0472
繢	-13.0472
履畝而税	-13.0473
雨云者喜雨也	-13.0473
孔子成春秋而亂臣賊子懼	-13.0473
鄭人恐乃行成	-13.0474
並行而不相悖	-13.0474
禮有受命無來錫命錫命非正也	-13.0474
世希不失矣自大夫出五世希不失	-13.0474
边	-13.0475
展喜犒師	-13.0476
二十有八年春晉侯侵曹晉侯伐衛	-13.0476
撻平王之墓	-13.0476
公命以字為展氏	-13.0476
滍	-13.0476
冬十有一月有星孛于東方	-13.0478
[...]
