<unk>	0
<s>	0
</s>	0
。	-2.12234
(	-3.69677
)	-3.69737
也	-4.70405
者	-4.88515
引	-5.06718
二合	-5.13159
之	-5.1425
以	-5.27732
為	-5.2923
故	-5.34116
一	-5.46709
即	-5.503
而	-5.52172
此	-5.56075
二	-5.58898
於	-5.609
是	-5.61173
有	-5.66832
心	-5.69759
中	-5.72064
若	-5.75399
如	-5.77538
三	-5.77865
無	-5.79108
不	-5.80356
則	-5.84877
其	-5.86715
等	-5.93156
見	-5.96159
法	-5.97028
相	-5.9741
上	-5.98322
生	-5.99243
名	-6.04072
大	-6.07927
非	-6.12044
。】「	-6.16575
佛	-6.18576
時	-6.18808
身	-6.19824
。」【	-6.20669
一切	-6.20875
明	-6.20956
四	-6.23341
得	-6.23355
言	-6.26756
人	-6.27262
謂	-6.29136
▁	-6.29738
自	-6.30193
成	-6.33038
諸	-6.33973
入	-6.3465
作	-6.35051
及	-6.36206
彼	-6.38293
多	-6.38724
所	-6.38782
空	-6.39884
因	-6.39902
皆	-6.40389
我	-6.40424
行	-6.40913
說	-6.4314
如來	-6.4396
阿難	-6.44661
下	-6.45126
云	-6.47792
又	-6.51187
亦	-6.51303
菩薩	-6.51921
觀	-6.52157
如是	-6.52323
與	-6.527
或	-6.52754
至	-6.53261
地	-6.5526
印	-6.55563
性	-6.5565
能	-6.55748
五	-6.56939
從	-6.57037
在	-6.60799
處	-6.60825
▁*	-6.6259
前	-6.62899
今	-6.65525
當	-6.66683
,	-6.66996
義	-6.67288
知	-6.687
曰	-6.71804
初	-6.71883
用	-6.72845
同	-6.73621
去	-6.74483
金剛	-6.7554
然	-6.75811
囉	-6.76613
出	-6.76996
眾生	-6.78235
應	-6.78242
合	-6.78526
後	-6.80831
天	-6.81348
耶	-6.81947
色	-6.83793
令	-6.84299
六	-6.84373
阿	-6.84504
由	-6.84592
本	-6.84935
欲	-6.85001
破	-6.85206
汝	-6.85604
常	-6.86009
已	-6.86109
識	-6.87299
經	-6.88497
事	-6.88708
現	-6.89187
、	-6.91442
矣	-6.91449
妄	-6.92278
智	-6.92446
滅	-6.92734
聞	-6.92848
水	-6.9353
正	-6.94679
起	-6.95333
巳	-6.95455
離	-6.95628
次	-6.96272
取	-6.96401
乃	-6.97447
分	-6.98037
賀	-6.98764
意	-6.98811
結	-6.98959
體	-6.98962
唵	-6.99709
真	-7.00058
迦	-7.00943
住	-7.00981
指	-7.02101
野	-7.02778
定	-7.02957
想	-7.03468
既	-7.0421
隨	-7.05284
先	-7.0561
復	-7.05927
問	-7.06165
解	-7.06755
道	-7.07053
受	-7.07128
耳	-7.07261
具	-7.07488
顯	-7.07809
修	-7.07821
根	-7.07924
妙	-7.08357
七	-7.08456
但	-7.08538
字	-7.08785
理	-7.09193
發	-7.09404
婆	-7.0951
方	-7.10046
十	-7.10508
喻	-7.10793
雖	-7.11142
淨	-7.11669
即是	-7.12527
成就	-7.12654
可	-7.12717
持	-7.13607
來	-7.13658
嚩	-7.14047
清淨	-7.14208
通	-7.14564
八	-7.14695
王	-7.15013
覺	-7.15593
世尊	-7.15662
盡	-7.16008
業	-7.16384
真言	-7.16665
摩	-7.16714
證	-7.17797
眼	-7.17931
日	-7.18039
門	-7.18303
難	-7.18455
供養	-7.18626
眾	-7.18731
依	-7.18733
那	-7.1877
他	-7.20012
俱	-7.20357
食	-7.2046
故云	-7.20913
別	-7.22103
內	-7.22137
何	-7.22276
羅	-7.22318
乃至	-7.22386
果	-7.22723
緣	-7.23638
教	-7.24789
圓	-7.24817
云何	-7.25774
。△	-7.259
乎	-7.26352
外	-7.27043
求	-7.28345
物	-7.30144
聲	-7.30259
境	-7.30942
善	-7.31321
塵	-7.31512
火	-7.32758
香	-7.34453
位	-7.34509
念	-7.3509
願	-7.35558
娑嚩	-7.36182
必	-7.3683
各	-7.37019
悟	-7.37394
頭	-7.37569
示	-7.37685
句	-7.37959
勝	-7.38212
迷	-7.38457
光	-7.38472
異	-7.38654
帝	-7.38839
呪	-7.39112
立	-7.40025
執	-7.40064
未	-7.40471
寶	-7.41395
種種	-7.41513
力	-7.41666
尾	-7.41815
故曰	-7.42026
反	-7.42705
實	-7.4281
計	-7.42924
界	-7.43021
斷	-7.43867
利	-7.44121
底	-7.44386
所謂	-7.4491
除	-7.46123
重	-7.46633
釋	-7.47748
形	-7.48663
開	-7.49508
三昧	-7.50228
子	-7.50243
動	-7.50305
文	-7.50925
〕	-7.51184
麼	-7.52231
】	-7.52827
分別	-7.5296
魔	-7.53849
惡	-7.54297
轉	-7.54406
名為	-7.54552
答	-7.55262
諸佛	-7.55508
」	-7.55894
安	-7.56015
觸	-7.56673
不能	-7.56676
誦	-7.57085
慧	-7.57342
悉	-7.57385
著	-7.58633
世	-7.58906
樂	-7.58998
九	-7.59755
度	-7.60763
苦	-7.60955
娑	-7.61486
華	-7.61977
疏	-7.62075
菩提	-7.62106
哩	-7.62121
更	-7.63314
餘	-7.63625
對	-7.63709
味	-7.63752
深	-7.6384
曩	-7.63984
左	-7.64035
方便	-7.64928
捨	-7.65088
滿	-7.6513
稱	-7.6524
神	-7.65453
請	-7.65644
語	-7.65648
風	-7.66146
月	-7.66721
便	-7.66973
戒	-7.67542
二合引	-7.67846
世間	-7.67877
流	-7.67976
使	-7.68255
夜	-7.68707
論	-7.69094
將	-7.69104
唯	-7.69494
目	-7.70201
吒	-7.70414
約	-7.70959
加持	-7.70988
還	-7.71714
手	-7.71894
師	-7.72046
疑	-7.72199
法界	-7.72801
生滅	-7.72946
攝	-7.73391
向	-7.73619
化	-7.73764
爾時	-7.74002
舉	-7.74132
無量	-7.74228
鬼	-7.74591
因緣	-7.75128
極	-7.75709
愛	-7.76076
虗空	-7.78017
且	-7.78018
真言曰	-7.78211
自然	-7.78324
兩	-7.78673
主	-7.78918
屬	-7.78969
置	-7.79027
類	-7.79211
涅槃	-7.7932
陀	-7.79549
拏	-7.79601
無明	-7.7998
白	-7.80918
吽	-7.81553
藏	-7.81802
不知	-7.82026
會	-7.82388
不可	-7.83544
南	-7.83652
十方	-7.83944
猶	-7.84977
過	-7.85318
遍	-7.8541
母	-7.8542
。○	-7.85641
斯	-7.85745
世界	-7.86211
山	-7.86227
訶	-7.86673
元	-7.87004
照	-7.87072
是故	-7.87251
蓋	-7.87373
足	-7.87432
怛	-7.87997
惑	-7.88071
施	-7.88953
箋云	-7.89157
總	-7.89456
失	-7.8957
輪	-7.89852
功德	-7.89872
尼	-7.89935
信	-7.90017
像	-7.9018
聖	-7.90722
須	-7.91209
十二	-7.91408
六根	-7.91908
廣	-7.92679
音	-7.92766
所有	-7.92804
波	-7.92821
散	-7.92845
護	-7.9285
報	-7.9351
病	-7.93664
和	-7.94305
坐	-7.94738
徧	-7.94799
伽	-7.95351
精	-7.95574
數	-7.9587
嚕	-7.96044
儞	-7.96138
小	-7.96186
土	-7.96391
了	-7.96589
無有	-7.96968
歸	-7.97084
障	-7.9716
國	-7.97317
種	-7.97922
藥	-7.9794
不得	-7.98124
尊	-7.98686
畫	-7.98703
邪	-7.99033
口	-7.99121
情	-7.99764
止	-7.99795
居	-7.99942
惟	-8.00325
一切如來	-8.0038
嚩日囉	-8.00847
所以	-8.01239
直	-8.01417
獲	-8.01492
鼻	-8.01713
長	-8.01716
一切眾生	-8.01943
思	-8.02128
劫	-8.02462
縛	-8.03081
解脫	-8.03159
普	-8.03224
若有	-8.03742
僧	-8.03939
密	-8.03993
壇	-8.04045
海	-8.04547
現前	-8.04771
德	-8.04845
自在	-8.04882
▁二	-8.04892
花	-8.05079
生死	-8.05119
光明	-8.05731
表	-8.06207
木	-8.06227
面	-8.06254
和合	-8.06826
全	-8.06923
金	-8.07099
煩惱	-8.07437
始	-8.07559
摩賀	-8.07775
變	-8.0836
次第	-8.08365
末	-8.08622
命	-8.0938
例	-8.09446
蓮華	-8.09603
頂	-8.10146
達	-8.10443
似	-8.10459
加	-8.10983
習	-8.113
毘	-8.11381
凡	-8.12559
設	-8.13087
誐	-8.13124
顛倒	-8.13237
辨	-8.13539
法門	-8.13757
沙	-8.13828
身心	-8.14014
以為	-8.14302
兼	-8.14495
故名	-8.14738
氣	-8.14809
要	-8.15387
家	-8.15616
圓通	-8.15676
曳	-8.15792
共	-8.15906
娜	-8.15955
舍	-8.15961
乘	-8.16037
行者	-8.1648
路	-8.16618
福	-8.16647
順	-8.16706
)。】「	-8.16892
惹	-8.16901
伏	-8.17008
真實	-8.1732
量	-8.175
半	-8.18095
經云	-8.18438
女	-8.18472
此云	-8.18576
莊嚴	-8.18647
亡	-8.18828
不動	-8.19103
以此	-8.19331
修行	-8.19385
死	-8.19385
右	-8.19584
一一	-8.19711
夫	-8.20318
陀羅尼	-8.20554
具足	-8.20578
諸法	-8.20646
布	-8.20825
貪	-8.21043
略	-8.21083
宗	-8.21087
罪	-8.21313
鉢	-8.21649
不見	-8.2176
細	-8.21776
終	-8.22288
哉	-8.22859
摩訶	-8.22993
雙	-8.23024
暗	-8.23095
交	-8.23111
然後	-8.237
見性	-8.23936
復次	-8.24025
獨	-8.24111
豈	-8.24157
祕密	-8.24184
并	-8.24336
弭	-8.24441
相應	-8.24663
馱	-8.24707
覩	-8.25496
燒	-8.25534
假	-8.25723
我今	-8.25853
○	-8.2592
就	-8.25923
皆是	-8.2612
薩	-8.26418
竟	-8.26481
平等	-8.26503
衣	-8.26528
百	-8.26651
微	-8.26681
少	-8.27102
部	-8.27228
息	-8.27345
造	-8.27499
▁一	-8.27611
歡喜	-8.27676
攞	-8.28127
往	-8.28185
並	-8.28926
。「	-8.28984
於此	-8.29027
虗	-8.29788
不同	-8.2982
第一	-8.30207
屈	-8.31028
蘇	-8.31152
器	-8.31684
圓滿	-8.31714
趣	-8.31973
宿	-8.32198
三摩地	-8.3256
當知	-8.32842
聽	-8.32967
首	-8.33133
虗妄	-8.33218
究竟	-8.33359
外道	-8.33772
此是	-8.34037
無礙	-8.34326
被	-8.34487
寂	-8.34607
陰	-8.34719
機	-8.34933
年	-8.3515
第二	-8.35381
遠	-8.35775
尚	-8.35812
遂	-8.35998
猶如	-8.36063
妄想	-8.36506
爾	-8.36839
發明	-8.37164
行人	-8.37405
墮	-8.37445
龍王	-8.37681
契	-8.38098
莫	-8.38153
標	-8.38694
親	-8.38724
法身	-8.38911
𩕳	-8.38929
十六	-8.39066
根本	-8.39273
彌	-8.39749
呬	-8.39751
不生	-8.3989
諦	-8.40099
進	-8.40104
之相	-8.40663
千	-8.4071
舌	-8.40889
之心	-8.41006
弟子	-8.41104
無所	-8.41344
跛	-8.41567
致	-8.41697
有情	-8.41722
于	-8.41848
龍	-8.42059
邊	-8.42434
此經	-8.42698
近	-8.43002
灌頂	-8.43088
染	-8.43178
虛空	-8.43482
品	-8.43642
都	-8.43741
鉢囉	-8.43973
許	-8.446
學	-8.44932
易	-8.4501
唎	-8.45034
益	-8.45051
四大	-8.4512
雜	-8.45307
壞	-8.4532
真如	-8.45333
燈	-8.45574
超	-8.45683
所說	-8.45772
十一	-8.45865
雲	-8.45957
之中	-8.46133
室	-8.46151
樹	-8.46203
含	-8.46243
怛囉	-8.46562
感	-8.46917
禮	-8.47419
切	-8.47517
佛言	-8.47781
一心	-8.47786
之法	-8.47876
等者	-8.47904
里	-8.48118
一切法	-8.48165
智慧	-8.48211
念誦	-8.4829
平	-8.48594
葢	-8.48672
漸	-8.48816
文殊	-8.48841
是人	-8.48891
集	-8.48979
影	-8.49161
好	-8.49203
殺	-8.49248
告	-8.49562
高	-8.5039
禪	-8.5043
間	-8.50511
提	-8.5067
第三	-8.5109
亦不	-8.51158
頓	-8.51399
比	-8.51404
脫	-8.51806
座	-8.51911
此中	-8.51926
之所	-8.52106
地獄	-8.52282
雨	-8.5237
比丘	-8.52474
所生	-8.52489
窮	-8.52947
自性	-8.52986
說法	-8.53021
覆	-8.53042
吠	-8.53184
互	-8.53374
傳	-8.53525
之時	-8.53566
喜	-8.5361
而不	-8.53721
眷屬	-8.53758
竪	-8.54043
泥	-8.54186
況	-8.54252
歷	-8.54302
常住	-8.54317
決定	-8.54554
銷	-8.54956
呼	-8.55705
慈	-8.55767
三昧耶	-8.56074
灑	-8.56454
本尊	-8.56556
。」【(	-8.56742
珠	-8.56768
復有	-8.56834
悉地	-8.56987
行陰	-8.56996
毒	-8.57699
。」【【	-8.57707
辯	-8.5771
存	-8.57944
五陰	-8.58084
幻	-8.58238
亦名	-8.58447
闍	-8.5865
之義	-8.59047
大乘	-8.59047
留	-8.5933
境界	-8.60138
靜	-8.60341
卷	-8.60465
害	-8.60898
悉皆	-8.61643
遮	-8.61767
般若	-8.61875
萬	-8.62046
是也	-8.62255
畢	-8.62534
號	-8.6272
久	-8.62807
無邊	-8.62915
誰	-8.62956
哆	-8.63053
鏡	-8.63397
如前	-8.63581
三界	-8.63902
何以故	-8.63928
星	-8.63939
遇	-8.6416
不成	-8.64513
一念	-8.64524
仙	-8.64626
如此	-8.64662
即得	-8.64783
大悲	-8.64788
宜	-8.64872
增	-8.65275
根塵	-8.65356
神通	-8.65448
最上	-8.65512
出生	-8.65744
諸天	-8.66106
恐	-8.66204
塗	-8.66621
十三	-8.67221
功	-8.6723
讚	-8.6757
無相	-8.67612
跢	-8.67721
播	-8.6773
寧	-8.68085
無盡	-8.68352
亦無	-8.68519
却	-8.6876
宮	-8.68775
狂	-8.68787
鬼神	-8.69234
絕	-8.6931
背	-8.69445
受持	-8.69627
溫陵曰	-8.69639
譬如	-8.69734
亦復如是	-8.69919
阿闍梨	-8.6993
詳	-8.70112
內外	-8.70163
速	-8.70178
無上	-8.70193
特	-8.70235
不應	-8.70744
十四	-8.70777
佉	-8.70872
汝等	-8.70889
縱	-8.71034
齊	-8.71063
支	-8.71159
旨	-8.71484
國土	-8.71589
最	-8.71717
節	-8.71989
甚	-8.72087
曩謨	-8.72266
而有	-8.72294
梵	-8.72456
薩嚩	-8.72525
吉	-8.72538
述	-8.726
觀音	-8.72625
推	-8.72793
聲聞	-8.72886
曼拏羅	-8.72992
治	-8.73035
退	-8.73096
成佛	-8.7314
十八	-8.73169
驗	-8.73184
堅固	-8.73278
而巳	-8.73396
蓮花	-8.73415
開示	-8.73539
梨	-8.73572
大眾	-8.73877
最勝	-8.74028
瑜伽	-8.74036
之處	-8.74209
倒	-8.74212
思惟	-8.74354
一時	-8.7455
塞	-8.74551
不思議	-8.74616
而為	-8.74743
本無	-8.75035
忍	-8.75123
奉	-8.7521
圓明	-8.75229
偏	-8.75267
融	-8.76361
書	-8.76363
周	-8.76384
昔	-8.76609
科	-8.76643
一句	-8.76798
掌	-8.77038
凡夫	-8.77044
之人	-8.77236
橫	-8.77449
無漏	-8.77525
菩提心	-8.77697
承	-8.77952
到	-8.78151
缽囉	-8.78275
聚	-8.7843
烏	-8.78468
皆悉	-8.78627
是名	-8.78699
及諸	-8.78735
陳	-8.78934
㗚	-8.78996
十五	-8.79004
道場	-8.79173
敘	-8.792
莎訶	-8.79215
只	-8.79274
降伏	-8.79544
點	-8.79981
吉祥	-8.79996
城	-8.80095
廣大	-8.80103
因果	-8.80147
由此	-8.80195
清	-8.80265
明王	-8.80309
勢	-8.80379
無生	-8.80482
訖	-8.8054
護摩	-8.80563
堅	-8.80576
〔	-8.80795
飛	-8.81019
列	-8.81114
。【	-8.81377
二種	-8.815
汝今	-8.81571
漫荼羅	-8.81575
恒	-8.81596
持誦	-8.81633
臂	-8.81744
拳	-8.81851
若不	-8.81884
悲	-8.82009
微細	-8.82121
焉	-8.82219
之性	-8.82306
差別	-8.82436
心中	-8.82454
亂	-8.82562
藥叉	-8.8275
無不	-8.82987
實相	-8.8301
諸眾生	-8.83054
勿	-8.8309
冥	-8.83235
所作	-8.836
隱	-8.83621
備	-8.83625
微塵	-8.83786
徵	-8.83813
飲食	-8.83863
固	-8.83957
殊	-8.83967
二十	-8.84103
授	-8.84152
步	-8.84157
種子	-8.84214
勞	-8.84294
童子	-8.8436
真性	-8.84442
嚴	-8.84648
牛	-8.84833
宣說	-8.85055
沒	-8.85065
落	-8.85217
質	-8.85226
獻	-8.85245
記	-8.85423
忘	-8.85473
合掌	-8.85614
「	-8.85648
佛頂	-8.85725
瑟	-8.85757
(〔	-8.85764
消	-8.8611
際	-8.86241
)。(△〔	-8.8635
中道	-8.86355
石	-8.86409
愚	-8.86519
自心	-8.86738
隷	-8.86772
修證	-8.86907
喃	-8.87008
繫	-8.87012
厭	-8.87024
素	-8.87201
亦是	-8.87496
枳	-8.87593
婬	-8.8761
麤	-8.87679
下文	-8.87864
祖	-8.87974
者謂	-8.88447
若欲	-8.8851
禰	-8.88514
一者	-8.88654
各各	-8.88703
爾時世尊	-8.88941
依法	-8.89087
日月	-8.89119
叉	-8.8919
象	-8.8978
捺	-8.90066
二者	-8.90347
放	-8.90404
)􂏥	-8.90595
注	-8.90625
其心	-8.90672
源	-8.90973
怖	-8.9118
仰	-8.9139
輕	-8.91689
由是	-8.91698
輪迴	-8.91718
據	-8.91728
此名	-8.91856
徹	-8.91976
盛	-8.9205
夢	-8.92139
菩薩摩訶薩	-8.92188
黑	-8.92368
而生	-8.92488
修習	-8.9249
容	-8.92753
矩	-8.9283
䭾	-8.93009
無畏	-8.93176
憶	-8.93259
中間	-8.93271
礙	-8.93271
救	-8.93283
敬	-8.93384
肉	-8.93467
等也	-8.93642
薩婆	-8.93664
發心	-8.93671
每	-8.93751
佛說	-8.93753
隨順	-8.93806
刀	-8.93872
遠離	-8.93927
二乘	-8.93975
二十五	-8.93978
觀想	-8.94044
揀	-8.94082
旋	-8.94114
圓融	-8.94194
真心	-8.94393
垂	-8.94401
知見	-8.94487
吾	-8.94574
賊	-8.94574
勸	-8.94609
故有	-8.94618
不空	-8.94637
利益	-8.94716
誦呪	-8.94836
帶	-8.94904
觀察	-8.95217
咸	-8.95277
.	-8.95367
百千	-8.95437
違	-8.95457
法華	-8.95525
權	-8.95603
瓶	-8.95611
蛇	-8.95626
之事	-8.95683
於是	-8.95699
第四	-8.95788
純	-8.95834
犯	-8.95867
按	-8.95874
索	-8.9589
善根	-8.96257
所見	-8.96285
簡	-8.96389
葉	-8.96398
無因	-8.96509
制	-8.96513
▁三	-8.9652
林	-8.96643
忽	-8.96747
譯	-8.96782
能生	-8.96782
能令	-8.96872
遊	-8.96877
三合	-8.97012
出家	-8.97018
塔	-8.97065
補	-8.97535
黃	-8.97607
佛告阿難	-8.97626
視	-8.97717
附	-8.9778
偈	-8.9778
靈	-8.97814
不離	-8.97834
微妙	-8.97888
小乘	-8.98119
本來	-8.98498
服	-8.98622
我等	-8.98682
責	-8.9879
伊	-8.98967
又云	-8.99269
盧	-8.9931
呵	-8.99344
決	-8.995
阿字	-8.99569
古	-8.9986
之體	-9.00262
西	-9.00468
識陰	-9.00571
玅	-9.00852
談	-9.00995
儀	-9.01051
於中	-9.01225
󲊛	-9.01411
謂之	-9.01516
痛	-9.01607
壽	-9.01695
自身	-9.01698
三世	-9.01707
審	-9.0181
遣	-9.01994
澄	-9.02058
左右	-9.02821
十七	-9.02888
過去	-9.03056
無常	-9.03136
仍	-9.03226
領	-9.03283
劍	-9.03392
赤	-9.04192
則無	-9.0423
棄	-9.04351
永	-9.04734
垢	-9.04975
湛	-9.05117
青	-9.05122
供	-9.0515
如是等	-9.05153
如法	-9.05341
神呪	-9.05449
令其	-9.05542
右手	-9.05667
新	-9.05668
蒙	-9.05716
現在	-9.0575
覺明	-9.05893
能見	-9.05928
)􂉓	-9.05942
擁護	-9.05997
怛嚩	-9.0613
金剛手	-9.0621
儀軌	-9.06455
半音	-9.06458
羯	-9.06622
生於	-9.06655
翻	-9.06712
精進	-9.06797
隔	-9.06978
【	-9.0709
是為	-9.07108
強	-9.07258
歸命	-9.07394
認	-9.07503
於彼	-9.07579
降	-9.0761
甲	-9.0801
誠	-9.0819
乞	-9.08213
十九	-9.08234
乳	-9.0832
了知	-9.08489
□	-9.08509
河	-9.08692
謬	-9.08725
南無	-9.089
抳	-9.09016
此法	-9.09064
皆得	-9.09177
露	-9.0923
助	-9.09442
焰	-9.0958
患	-9.09618
曩莫	-9.09664
熱	-9.09785
若無	-9.09803
相續	-9.09881
如來藏	-9.0994
舒	-9.10011
而成	-9.10131
六塵	-9.1025
至於	-9.10298
懸	-9.10357
單	-9.10409
䟽	-9.10523
努	-9.10561
可知	-9.10684
各有	-9.10704
父母	-9.10891
慢	-9.10925
之類	-9.10927
聞性	-9.11004
摩尼	-9.11026
演	-9.11044
斥	-9.11089
多聞	-9.11178
從此	-9.11513
此則	-9.11514
徒	-9.12123
待	-9.12219
灰	-9.12338
見精	-9.12357
亦有	-9.12416
三種	-9.1243
迦囉	-9.12432
嚧	-9.12446
應當	-9.12675
不可得	-9.12676
七日	-9.12794
四種	-9.12978
此等	-9.12995
妙覺	-9.13164
草	-9.13458
彰	-9.13468
沉	-9.1369
音聲	-9.13755
四方	-9.13826
左手	-9.13861
羯磨	-9.14146
色陰	-9.14164
如上	-9.14273
酥	-9.14336
次結	-9.14608
三十	-9.14625
義也	-9.14657
收	-9.14661
諸菩薩	-9.14707
端	-9.14801
大小	-9.14861
即成	-9.14955
此呪	-9.14993
今此	-9.15038
積	-9.15114
無始	-9.15243
妄見	-9.15285
二十一	-9.15317
濁	-9.15357
耳根	-9.15522
然此	-9.15609
資	-9.15655
瞋	-9.15722
誦真言	-9.15743
曾	-9.15803
何況	-9.15811
變化	-9.15841
神力	-9.16149
中有	-9.16288
昏	-9.16288
擇	-9.16572
誤	-9.16627
蜜	-9.16639
安住	-9.16699
牒	-9.16751
非真	-9.16788
曲	-9.16807
頭指	-9.1682
本覺	-9.1687
越	-9.16915
楞嚴	-9.17024
循	-9.17029
三寶	-9.17268
熏	-9.17357
不覺	-9.17596
能所	-9.17605
興	-9.17643
災	-9.17651
七遍	-9.1783
十方如來	-9.17931
畢竟	-9.18042
幢	-9.1824
律	-9.18262
安樂	-9.1828
此心	-9.18287
再	-9.18312
浮	-9.18317
參	-9.18323
天王	-9.1836
華嚴	-9.18449
二初	-9.18457
此陀羅尼	-9.18459
是則	-9.18554
翳	-9.18571
非是	-9.18814
拔	-9.18821
說此	-9.18938
判	-9.18987
胎	-9.19183
沙門	-9.19284
大明	-9.19799
一百	-9.20049
法性	-9.20087
醯	-9.20156
名字	-9.20162
怛他	-9.20196
申	-9.20325
祇	-9.20362
佛法	-9.20588
未來	-9.20811
隨意	-9.20812
召	-9.20926
欲界	-9.20987
宣	-9.20998
通達	-9.211
財	-9.2111
跋	-9.21196
故知	-9.21276
馬	-9.21331
望	-9.21466
七大	-9.21536
北	-9.21599
不相	-9.2164
初心	-9.21649
志	-9.21712
迴	-9.21758
毗	-9.21987
手執	-9.22019
茶	-9.22246
則有	-9.22322
虛	-9.22673
莎	-9.22894
第六	-9.22942
剎	-9.22967
遺	-9.23012
禁	-9.23072
更無	-9.23108
之理	-9.23118
言之	-9.23175
身中	-9.23312
輸	-9.23531
寂滅	-9.23907
則知	-9.24117
登	-9.242
若以	-9.24351
作法	-9.24398
無體	-9.24415
既無	-9.24434
佛告	-9.24484
俗	-9.24512
東	-9.24577
其中	-9.24585
角	-9.24681
善男子	-9.24688
十種	-9.24698
一切有情	-9.2486
脩	-9.24876
毀	-9.24923
亦如是	-9.25032
若人	-9.25093
名曰	-9.2513
之意	-9.25136
滿足	-9.2519
眚	-9.25398
呪曰	-9.25425
鳥	-9.25544
招	-9.25663
𤙖	-9.25883
無為	-9.25896
懷	-9.26235
賢	-9.26308
亦非	-9.26492
正法	-9.26652
差	-9.2666
迴向	-9.26662
前後	-9.26737
色空	-9.26853
尋	-9.27084
鐵	-9.27091
福德	-9.27105
返	-9.27118
畜	-9.27126
明暗	-9.27135
六識	-9.27273
乾	-9.2739
又復	-9.27442
太	-9.27607
公	-9.27723
意識	-9.2775
無異	-9.27794
經文	-9.27829
癡	-9.27842
三摩	-9.27866
序	-9.28112
阿難言	-9.28126
見聞	-9.28172
二十四	-9.28303
逐	-9.28348
二十八	-9.28543
此即	-9.28716
云云	-9.28904
師子	-9.29181
獄	-9.29233
髮	-9.29439
寂靜	-9.29598
運	-9.29803
法中	-9.30012
第五	-9.30018
殊勝	-9.30081
金剛杵	-9.30271
迹	-9.30279
老	-9.30293
增長	-9.30456
婆羅門	-9.30467
尊者	-9.30626
可見	-9.30634
頌	-9.30643
此明	-9.30682
而作	-9.30741
一體	-9.30751
堂	-9.30883
所成	-9.30978
;	-9.30998
結界	-9.3108
網	-9.31415
二句	-9.31459
穢	-9.3149
怨	-9.31496
摩那婆	-9.31531
三十二	-9.31572
逆	-9.31692
側	-9.31742
幽	-9.31771
同上	-9.31771
覺知	-9.31828
有所	-9.3197
池	-9.32011
出世	-9.32049
二十三	-9.32072
同於	-9.32231
邪見	-9.32249
止觀	-9.32287
甘露	-9.32307
軍	-9.32336
入嚩	-9.32389
守	-9.32442
瓔珞	-9.32464
曼	-9.32566
第十	-9.32591
所求	-9.32653
念佛	-9.32716
香水	-9.32894
剎那	-9.32911
得大	-9.32935
斷滅	-9.33023
普賢	-9.3312
倫	-9.33168
一百八遍	-9.33223
無非	-9.33249
謨	-9.33249
忿怒	-9.33432
蘊	-9.33451
即以	-9.3347
移	-9.33563
如何	-9.33705
歎	-9.33707
心不	-9.33742
原	-9.33761
觀世音	-9.33833
二十二	-9.33918
酬	-9.33939
妙明	-9.34008
劣	-9.34023
吳興曰	-9.34034
寫	-9.34072
諸如來	-9.34222
車	-9.3427
涉	-9.34286
洗	-9.34378
智者	-9.3439
玄	-9.34403
事業	-9.34552
四十	-9.34661
淺	-9.34708
應知	-9.34798
擊	-9.34926
彼等	-9.35002
曼荼羅	-9.35046
周徧	-9.35054
十地	-9.35155
慈悲	-9.35365
不為	-9.35383
今日	-9.3565
最初	-9.35789
或有	-9.3587
頗	-9.35943
安置	-9.35944
調伏	-9.35944
)「	-9.36001
骨	-9.36033
不出	-9.36083
大力	-9.36173
流轉	-9.36349
該	-9.364
頂禮	-9.36438
受陰	-9.36445
專	-9.36472
無二	-9.3655
法者	-9.3664
調	-9.36676
奪	-9.36703
濕	-9.36955
亦然	-9.37027
禪定	-9.3704
投	-9.3708
巧	-9.37101
天魔	-9.37107
金色	-9.37167
建立	-9.37248
其身	-9.37267
動靜	-9.37326
無垢	-9.37393
波羅蜜	-9.37451
纔	-9.3749
薩哩嚩	-9.37681
無知	-9.37851
暫	-9.37912
二手	-9.37965
銘	-9.37971
段	-9.38025
至此	-9.38042
漏	-9.38097
牙	-9.38189
恭敬	-9.38301
而得	-9.38486
之境	-9.38515
意謂	-9.38582
改	-9.38643
者也	-9.38662
皆由	-9.38785
帝釋	-9.38817
惱	-9.38967
彼人	-9.39093
麻	-9.39143
之身	-9.39152
有二	-9.39202
五種	-9.39238
守護	-9.39254
色相	-9.3926
第八	-9.39328
有一	-9.39391
若於	-9.39461
如是乃至	-9.39506
薩埵	-9.39544
擲	-9.39601
建	-9.39609
三業	-9.3975
論云	-9.39933
今經	-9.39999
熟	-9.40132
的	-9.40196
法師	-9.40289
客	-9.40307
意根	-9.40331
升	-9.4037
急	-9.40391
定慧	-9.4056
總持	-9.40637
餓鬼	-9.40649
正覺	-9.40803
不壞	-9.40978
二十七	-9.41094
一字	-9.41109
損	-9.41345
塗香	-9.4137
準	-9.41721
闕	-9.41766
戲論	-9.41807
禪那	-9.41813
萬法	-9.41912
大海	-9.42041
番	-9.42118
觧	-9.42138
不斷	-9.42284
三藏	-9.4233
疾	-9.42662
不淨	-9.42869
揭	-9.42908
雖有	-9.4292
甚深	-9.42966
鼓	-9.42983
竭	-9.43008
藏性	-9.43095
東方	-9.43154
𤚥	-9.43171
是時	-9.43173
字門	-9.43271
亦云	-9.43728
者即	-9.43762
父	-9.43779
金剛薩埵	-9.43789
閉	-9.43853
舍利弗	-9.43968
四句	-9.44144
其人	-9.44207
衣服	-9.44241
二字	-9.44279
係	-9.44322
以其	-9.44346
若能	-9.44382
以明	-9.44519
二十六	-9.44593
觀自在	-9.44626
豈非	-9.44648
故能	-9.44682
而言	-9.44691
亦爾	-9.44715
誓	-9.44862
連	-9.44936
傷	-9.44989
No	-9.44995
毛	-9.45004
所緣	-9.45072
隨緣	-9.45122
祕	-9.45168
蓮	-9.4532
分明	-9.45354
奢摩他	-9.45357
見者	-9.45463
陁羅尼	-9.45519
限	-9.45535
識心	-9.45649
邏	-9.45666
持戒	-9.45745
文殊師利	-9.45792
幾	-9.45826
流出	-9.45827
所依	-9.45848
若此	-9.4586
前文	-9.45899
1	-9.46046
皆有	-9.46066
又法	-9.46149
美	-9.46218
無間	-9.4631
七寶	-9.46356
大指	-9.46511
滯	-9.46559
則能	-9.46639
觀世音菩薩	-9.46727
放光	-9.46735
夜叉	-9.4674
有漏	-9.46776
消滅	-9.46796
淨土	-9.46801
章	-9.47047
本性	-9.47049
譬	-9.47112
當得	-9.47216
真妄	-9.47219
故以	-9.47239
謗	-9.47241
發生	-9.47267
頂上	-9.47303
西方	-9.47372
三摩提	-9.47505
歲	-9.47555
昧	-9.47597
所證	-9.47632
有為	-9.47798
可得	-9.47889
波羅	-9.47893
其所	-9.47894
俱胝	-9.48004
羅剎	-9.48029
磨	-9.48049
佛性	-9.48083
無上菩提	-9.48086
故名為	-9.48113
舊	-9.48199
看	-9.4827
捺囉	-9.48368
杵	-9.48474
故也	-9.48519
心生	-9.48531
所知	-9.48778
孤山曰	-9.48788
一人	-9.49053
展轉	-9.49136
休	-9.49304
如幻	-9.49378
尸	-9.49535
草木	-9.49549
血	-9.49753
飲	-9.49775
非見	-9.49876
不生滅	-9.50019
任	-9.50066
六十	-9.50069
即從座起	-9.5012
互相	-9.50122
別有	-9.50157
乃是	-9.50167
獲得	-9.50282
三者	-9.50333
之本	-9.50379
一切諸佛	-9.50389
相似	-9.50477
沈	-9.50577
畜生	-9.50673
而後	-9.50869
飯	-9.50892
漸次	-9.50915
及與	-9.50926
寄	-9.50951
接	-9.51012
履	-9.51129
中指	-9.51241
亦得	-9.51361
四禪	-9.51366
此人	-9.51385
潤	-9.5139
箇	-9.51407
念念	-9.51524
陵	-9.51533
執金剛	-9.51599
之後	-9.51606
途	-9.51651
貴	-9.5179
大地	-9.51811
眼根	-9.51908
淫	-9.5191
􂏥	-9.51998
梵天	-9.52103
自他	-9.52221
莎呵	-9.52326
唧	-9.52437
三十六	-9.52524
燒香	-9.52533
人天	-9.52556
一分	-9.52651
􂏩(	-9.52702
凝	-9.52705
法塵	-9.52747
體性	-9.52749
十界	-9.52776
般	-9.52799
二十九	-9.52951
不自	-9.53017
不住	-9.53078
此方	-9.53131
妄心	-9.53137
見聞覺知	-9.53265
生起	-9.53323
無性	-9.5334
開悟	-9.53392
纏	-9.53466
輪轉	-9.53527
一切佛	-9.53602
輩	-9.53616
讚歎	-9.53616
憶念	-9.53661
不定	-9.53714
薄	-9.53729
怖畏	-9.53736
相也	-9.53858
何故	-9.53881
是以	-9.53902
諦觀	-9.53983
亦如	-9.53984
不變	-9.54055
臺	-9.54082
究	-9.54138
g	-9.54162
孤山云	-9.54172
大明曰	-9.54269
打	-9.54283
拂	-9.54283
折	-9.54299
井	-9.54316
鬘	-9.54386
旦	-9.54446
當機	-9.54563
錯	-9.54586
怪	-9.5462
哩野	-9.54624
而白佛言	-9.54751
。○(	-9.54778
讀	-9.54823
逼	-9.54842
男	-9.54944
安隱	-9.54954
想陰	-9.55023
乾慧	-9.55117
拘	-9.55152
為因	-9.55163
復以	-9.55166
語言	-9.55203
五十	-9.55229
天台	-9.55362
能知	-9.55362
寺	-9.55407
了義	-9.55474
不了	-9.55505
負	-9.55506
是非	-9.55526
即同	-9.55538
何以	-9.55567
敷	-9.55701
受用	-9.55714
押	-9.55763
明了	-9.55777
五百	-9.55895
三諦	-9.55903
三觀	-9.55921
觀行	-9.55964
􂉗(	-9.55977
墜	-9.56007
而住	-9.56084
男女	-9.56087
荼	-9.56152
富	-9.56154
遭	-9.56194
名之為	-9.56214
第七	-9.56217
分二	-9.5625
圓覺	-9.56316
空中	-9.56363
三十七	-9.56375
冠	-9.56397
一切諸法	-9.56461
前塵	-9.56516
為一	-9.56542
嚩囉	-9.56671
堪	-9.56736
等覺	-9.56849
真常	-9.56893
如意	-9.57032
納	-9.57045
憂	-9.57191
諸惡	-9.5723
釋迦	-9.57504
無復	-9.57645
自有	-9.57732
依此	-9.57852
捻	-9.57856
:「	-9.57858
而起	-9.57875
代	-9.58018
毗藥	-9.58069
虎	-9.58103
執持	-9.58123
張	-9.58151
二大指	-9.58236
威德	-9.58241
即此	-9.58267
擾	-9.5836
於諸	-9.58428
歇	-9.58524
心性	-9.58784
八萬四千	-9.58801
會中	-9.59067
三遍	-9.59173
大智	-9.59265
住於	-9.59274
精明	-9.59284
群	-9.59285
惡業	-9.59325
之見	-9.59345
威	-9.5937
如是一類	-9.59388
臣	-9.59396
宮殿	-9.59407
若見	-9.59488
姓	-9.59554
倍	-9.59555
詣	-9.59613
圍繞	-9.59651
im	-9.59723
出入	-9.60009
勤	-9.60021
泯	-9.60114
因緣自然	-9.60212
▁初	-9.60262
經中	-9.60535
一切諸	-9.60537
同一	-9.60567
出現	-9.60594
:>	-9.60626
<	-9.60627
狀	-9.6067
亦可	-9.6092
諸相	-9.61077
諸佛菩薩	-9.61128
不起	-9.6114
關	-9.61176
非有	-9.61203
奴	-9.61292
無色	-9.61406
而無	-9.61506
從何	-9.61587
寸	-9.61624
􂉓	-9.61652
塵勞	-9.61669
吸	-9.61679
愛樂	-9.61692
防	-9.61722
適	-9.61728
無著	-9.6175
萬行	-9.61771
多羅	-9.61819
則不	-9.62004
擔	-9.62059
離諸	-9.62097
發起	-9.62141
所在	-9.62221
笑	-9.62223
揚	-9.62247
歸依	-9.62405
習氣	-9.62473
無學	-9.62548
㘑	-9.62618
於其	-9.62716
未能	-9.62917
無想	-9.62988
咄	-9.63146
未得	-9.63333
勅	-9.63383
是故當知	-9.63434
族	-9.63445
奔	-9.6349
苦惱	-9.63495
士	-9.63508
善惡	-9.63539
摧	-9.63572
可以	-9.63585
不失	-9.63808
。】「○(	-9.63833
不可思議	-9.63881
預	-9.63965
上音	-9.64038
現身	-9.64066
使者	-9.6407
詮	-9.64225
秪	-9.64285
之因	-9.64292
遷	-9.64328
亦能	-9.64343
良	-9.64454
一法	-9.6446
一千八遍	-9.64467
祕密主	-9.64497
前云	-9.64591
力故	-9.6464
無我	-9.64725
甞	-9.64742
誦持	-9.64753
八識	-9.64771
題	-9.64839
鉤	-9.64901
發菩提心	-9.64915
局	-9.64983
延	-9.65016
三十三	-9.65029
壽命	-9.65031
私	-9.65114
怒	-9.65136
脚	-9.65205
佗	-9.65301
】【	-9.65313
根境	-9.65329
愈	-9.65397
二頭指	-9.65521
無別	-9.65632
有無	-9.65706
諸有情	-9.66034
所現	-9.66132
迦羅	-9.6614
稍	-9.66215
琉璃	-9.66292
俱生	-9.66499
均	-9.66543
茲	-9.66699
樓	-9.66736
懺悔	-9.66823
託	-9.66937
長者	-9.66949
何處	-9.66978
圓成	-9.67043
白色	-9.67064
令彼	-9.67068
缺	-9.67089
官	-9.67098
又以	-9.67161
洲	-9.67189
正明	-9.67233
觀自在菩薩	-9.67247
避	-9.67269
護身	-9.67313
果報	-9.67382
院	-9.67459
但是	-9.67548
咎	-9.67586
畔	-9.67662
熾盛	-9.67719
元無	-9.6773
皮	-9.67739
阿修羅	-9.67756
盜	-9.67794
逢	-9.67811
終不	-9.67858
慕	-9.67955
唯識	-9.68096
三十一	-9.68183
研	-9.68228
泮吒	-9.68246
不從	-9.68347
曜	-9.68509
則汝	-9.68546
准	-9.68581
若是	-9.68672
見佛	-9.68675
一遍	-9.68702
所得	-9.6888
齋	-9.68911
而能	-9.68956
濕嚩	-9.69017
既不	-9.69028
魅	-9.69195
泮	-9.69216
是知	-9.69222
所明	-9.69339
魚	-9.69443
欲求	-9.69497
濟	-9.69504
魔事	-9.69571
不著	-9.69671
三十四	-9.69691
臨	-9.69759
丁	-9.69812
𥠖	-9.69835
配	-9.69968
一日	-9.70042
兜	-9.70104
遷流	-9.70204
耆	-9.70254
同時	-9.7034
陽	-9.70394
如彼	-9.70432
油	-9.70509
去聲	-9.70597
直竪	-9.70599
得成就	-9.70668
梵語	-9.70673
皆以	-9.70735
四十二	-9.70792
人間	-9.70893
借	-9.70981
註	-9.7105
統	-9.71069
奢	-9.71091
真空	-9.71093
四十九	-9.71392
天人	-9.71447
水火	-9.71605
擬	-9.71832
其義	-9.71904
超越	-9.72006
天子	-9.72082
園	-9.72167
恒沙	-9.72174
佛所	-9.72196
映	-9.72197
大菩薩	-9.72201
小指	-9.72326
富樓那	-9.72366
命終	-9.72502
藍	-9.72518
晝夜	-9.72519
得成	-9.72605
隨喜	-9.72653
阿羅漢	-9.72739
不復	-9.72741
白芥子	-9.72824
房	-9.72843
葛	-9.72868
皤	-9.73075
五根	-9.73077
疏云	-9.73095
二中指	-9.73148
杖	-9.73149
示現	-9.73163
如人	-9.73225
史	-9.73227
演說	-9.7324
識性	-9.73337
三乘	-9.7334
世人	-9.73423
聖人	-9.73449
三十五	-9.73457
或以	-9.73475
續	-9.73519
洞	-9.73564
瑠璃	-9.73619
欲令	-9.73621
辭	-9.73651
臍	-9.73657
大士	-9.73765
說是	-9.73791
缽	-9.73888
娑麼	-9.74046
奉獻	-9.74078
更有	-9.7415
手持	-9.74282
灌	-9.74308
莽	-9.74428
無分別	-9.74432
繞	-9.74465
檀	-9.74505
知其	-9.74565
羣	-9.74574
南方	-9.74603
析	-9.7464
期	-9.74873
峯	-9.75067
默	-9.75124
豈不	-9.75199
破壞	-9.75381
蘖	-9.75388
有大	-9.7544
戰	-9.75446
回	-9.75454
或見	-9.75466
囊	-9.7552
初禪	-9.75604
第	-9.75684
故言	-9.75767
不聞	-9.75827
風輪	-9.75857
故稱	-9.76021
長水	-9.76028
無有是處	-9.7603
令得	-9.76032
末世	-9.76037
月輪	-9.76038
▁「	-9.76105
俱非	-9.76171
無定	-9.76515
)。(○〔	-9.76565
肘	-9.76577
不捨	-9.76578
齅	-9.76589
以顯	-9.76706
驚	-9.76734
自知	-9.76809
文字	-9.7686
▁四	-9.76888
諦聽	-9.7711
本有	-9.77151
伸	-9.77201
戍	-9.77233
畏	-9.7733
六十二	-9.77348
然則	-9.77355
同分	-9.77394
良以	-9.77428
瑟吒	-9.77446
同異	-9.77492
見暗	-9.77523
文二	-9.77528
亦復	-9.77542
未盡	-9.77626
鞞	-9.77641
像前	-9.77806
滿慈	-9.77827
大慈	-9.77842
進力	-9.77963
而說	-9.77988
必有	-9.78005
導	-9.7803
不然	-9.78047
敬禮	-9.78068
持呪	-9.78114
若作	-9.78148
有見	-9.78163
希	-9.78264
四十四	-9.78333
鑁	-9.78349
乾闥婆	-9.78413
符	-9.78421
障礙	-9.78433
入於	-9.78628
恐怖	-9.78631
惠	-9.7867
當於	-9.78814
觀之	-9.78834
故此	-9.78932
得見	-9.79007
混	-9.79054
真見	-9.79124
二俱	-9.79134
空性	-9.79136
唐	-9.79138
二義	-9.79395
盤	-9.79428
最後	-9.79442
枝	-9.79486
大王	-9.7951
即前	-9.79567
線	-9.79573
跛囉	-9.79684
寒	-9.79702
心也	-9.79748
!	-9.7979
魯	-9.79886
復說	-9.79942
之間	-9.7996
一向	-9.80062
黎	-9.80143
某	-9.80198
婆羅	-9.80219
在內	-9.80223
此之	-9.80223
護持	-9.8025
禮拜	-9.80344
去音	-9.80424
結成	-9.80474
安立	-9.80541
四天王	-9.80615
依正	-9.80623
作是	-9.80688
攝受	-9.80689
此印	-9.80694
裏	-9.80719
能為	-9.80904
有人	-9.80906
溺	-9.80952
恨	-9.80996
敬愛	-9.81039
受生	-9.81126
一切世間	-9.81201
揭囉訶	-9.81227
銅	-9.81246
書寫	-9.81255
巾	-9.81291
辦	-9.81402
虛妄	-9.81451
正是	-9.81459
一處	-9.81466
減	-9.81571
淺深	-9.81684
相合	-9.81702
傍	-9.81715
北方	-9.8181
入三摩地	-9.81913
本心	-9.81926
宅	-9.8201
亦應	-9.82068
臥	-9.82079
此真言	-9.82159
錄	-9.823
陀羅	-9.82316
慶	-9.82389
上文	-9.82434
某甲	-9.8253
妙法	-9.82534
聖者	-9.82561
者是	-9.82591
無能	-9.82676
你	-9.82754
煙	-9.8284
誰為	-9.82878
尺	-9.82922
本自	-9.82936
汝心	-9.83023
邊際	-9.83048
弘	-9.8306
補遺云	-9.8309
▁【	-9.83127
寐	-9.83199
夢中	-9.83235
㘕	-9.8324
扇	-9.83255
十信	-9.83393
唯一	-9.83393
之物	-9.83428
不受	-9.83433
二相	-9.83509
即能	-9.83522
遏	-9.83545
為體	-9.8357
若謂	-9.83713
蟲	-9.83746
嘗	-9.83771
巳竟	-9.83838
以是	-9.83872
不異	-9.83903
影像	-9.83985
羅漢	-9.8402
國王	-9.84048
呪師	-9.84127
魔王	-9.84388
妙心	-9.84424
皆為	-9.84429
四十一	-9.84486
頂禮佛足	-9.84534
覺性	-9.84627
我於彼前	-9.84687
故得	-9.84692
諸聖	-9.84733
一切智	-9.84744
密言	-9.84759
白佛言	-9.848
於我	-9.84835
氷	-9.84858
乞食	-9.84864
圖	-9.84899
博	-9.84927
妄計	-9.84941
初住	-9.84947
不退	-9.85029
把	-9.85119
汝當	-9.85138
悔	-9.8514
室哩	-9.85153
善哉善哉	-9.85224
苦樂	-9.85232
三十八	-9.85247
商	-9.85257
佛身	-9.85328
不敢	-9.8533
伐	-9.8533
浴	-9.8539
生也	-9.85407
不是	-9.85458
總結	-9.85498
觀此	-9.85584
八十	-9.85625
冷	-9.85681
非和合	-9.85687
功用	-9.85708
斯為第一	-9.85741
養	-9.85741
下明	-9.85764
讀誦	-9.858
曉	-9.85803
一百八	-9.859
萬物	-9.86085
善知識	-9.86099
作護摩	-9.86115
種族	-9.86192
諸根	-9.86208
我心	-9.86236
吽吽	-9.86299
天女	-9.86337
皆從	-9.86343
希有	-9.86355
香花	-9.86389
所願	-9.86391
斗	-9.86467
發吒	-9.86544
當以	-9.86619
術	-9.86664
悟入	-9.86707
作大	-9.8674
以成	-9.86743
三十九	-9.86765
自體	-9.86826
妙圓	-9.8684
上聲	-9.8684
若從	-9.86919
殿	-9.86922
潛	-9.86931
髻	-9.86933
及以	-9.86981
猶未	-9.87
十八界	-9.87052
緣起	-9.87119
始終	-9.87151
攬	-9.87246
勝義	-9.87304
敵	-9.87354
甘	-9.87494
寂然	-9.87515
香華	-9.87535
辛	-9.87573
膩	-9.87719
於佛	-9.87722
緊	-9.87752
我於	-9.87835
今云	-9.87907
毘那夜迦	-9.87939
但以	-9.87957
有三	-9.88007
分三	-9.88027
詞	-9.88092
蕩	-9.88159
則是	-9.88226
准前	-9.88252
慮	-9.885
神變	-9.88545
心無	-9.88546
而入	-9.88591
否	-9.886
沫	-9.88643
清淨本然	-9.88666
大威德	-9.88722
廢	-9.88764
以上	-9.88792
威儀	-9.88793
形像	-9.88932
億	-9.88979
四面	-9.89176
增益	-9.89276
地水火風	-9.89357
滋	-9.89363
明矣	-9.89405
誦此呪	-9.89409
以右手	-9.89434
發願	-9.89478
丸	-9.89591
哀	-9.89706
證得	-9.89783
無生滅	-9.89835
跋折囉	-9.89862
佛子	-9.89865
乙	-9.89868
之曰	-9.89894
引一句	-9.89932
心地	-9.89954
誡	-9.89976
善哉	-9.89977
腹	-9.9001
貫	-9.90068
窮盡	-9.90102
詰	-9.90131
舞	-9.90135
無數	-9.9016
􂗩	-9.90201
救護	-9.90382
勃	-9.9045
短	-9.90462
至心	-9.90499
腰	-9.90548
是佛	-9.90552
變易	-9.90621
田	-9.9063
如來藏性	-9.90768
睡	-9.90815
是心	-9.90828
大空	-9.90867
四十八	-9.9089
之言	-9.90982
若因	-9.91088
豆	-9.91104
忽然	-9.91301
溫陵云	-9.91362
聖眾	-9.91371
試	-9.91381
齒	-9.91491
拶	-9.91526
婆嚩	-9.91561
淡	-9.91564
云何獲圓通	-9.91586
性空	-9.91615
摩羅	-9.91643
吐	-9.91675
謂此	-9.91719
豈有	-9.91758
免	-9.91776
衰	-9.91789
二十一遍	-9.91792
此約	-9.91812
四門	-9.91857
恩	-9.91924
牽	-9.91929
掌中	-9.91959
所言	-9.91979
相著	-9.92068
米	-9.92157
口中	-9.92161
四十五	-9.92264
諸魔	-9.92505
訥	-9.92513
兵	-9.92562
繩	-9.92642
業果	-9.92642
是真	-9.9268
察	-9.92782
上下	-9.9281
己	-9.92866
毘盧遮那	-9.92866
累	-9.9287
冤	-9.92962
即於	-9.92999
有相	-9.93038
晝	-9.93134
部多	-9.93148
除滅	-9.93289
成道	-9.93308
顯現	-9.93327
之用	-9.93352
陀羅尼經	-9.93363
天台曰	-9.93371
達磨	-9.93404
疑惑	-9.93449
言說	-9.9347
殘	-9.93482
大師	-9.93496
煖	-9.93643
疊	-9.9365
此見	-9.93656
枲	-9.93706
嗔	-9.93719
妻	-9.94007
而自	-9.94019
梵王	-9.94019
?	-9.94024
一切菩薩	-9.94056
薩怛嚩	-9.94098
栴檀	-9.94104
走	-9.94109
不及	-9.94113
其體	-9.94114
無可	-9.94145
知覺	-9.9415
以至	-9.9416
覺心	-9.94168
圓教	-9.94207
無聞	-9.94291
大佛頂	-9.94323
相好	-9.94337
丈夫	-9.94342
法也	-9.94384
此身	-9.94411
女人	-9.94482
是見	-9.94505
不二	-9.94533
饒益	-9.94539
色身	-9.94543
搖	-9.94592
仁	-9.94638
卑	-9.94681
何所	-9.94726
諸尊	-9.94753
為復	-9.94763
便是	-9.94942
謝	-9.94961
首楞嚴	-9.94996
威力	-9.95027
充	-9.95131
無見	-9.95156
環	-9.95157
因此	-9.95181
不息	-9.95201
柱	-9.95245
山河	-9.95331
廣說	-9.95331
宿命	-9.95442
壇中	-9.95472
儗	-9.95477
若在	-9.9549
所修	-9.95552
此文	-9.95552
諸有	-9.95558
今以	-9.95571
之果	-9.95733
修道	-9.95832
箭	-9.95859
譬如有人	-9.95869
第一義	-9.95994
持誦者	-9.96015
爐	-9.96019
稽首	-9.96024
屹囉	-9.96078
搖動	-9.96116
牟	-9.96158
囉拏	-9.96177
迦葉	-9.96193
又如	-9.96193
為我	-9.96248
流通	-9.96301
何等	-9.96312
令人	-9.96335
無作	-9.96341
不假	-9.9641
渴	-9.96429
當心	-9.96496
歌	-9.96512
苟	-9.96596
為人	-9.96633
不明	-9.96678
翼	-9.96684
侵	-9.96693
之力	-9.96714
鈍	-9.96744
住處	-9.9676
四十六	-9.96762
秋	-9.96843
成就法	-9.96928
沒馱	-9.96935
閼伽	-9.96957
如我	-9.97002
空華	-9.97022
何不	-9.97025
昇	-9.97077
為界	-9.97091
十方諸佛	-9.97137
因地	-9.97173
截	-9.97235
欠	-9.97283
幡	-9.97343
六結	-9.97403
雷	-9.97408
膝	-9.97454
諸大	-9.9752
而出	-9.97563
是一	-9.97636
敢	-9.97824
圍	-9.97825
四十三	-9.9783
授記	-9.97845
則成	-9.97956
實有	-9.97963
十方界	-9.97982
櫱	-9.97985
啟	-9.98018
即真	-9.98057
枯	-9.98071
五色	-9.9808
惡趣	-9.98165
海雲	-9.98197
速得	-9.98216
鉢羅	-9.98304
蔽	-9.98367
之智	-9.98388
善法	-9.98415
誑	-9.98421
攀緣	-9.9843
佛問圓通	-9.98471
銷滅	-9.98616
秘密	-9.98686
猛	-9.98696
默然	-9.98732
窟	-9.98844
金剛部	-9.98857
誨	-9.98918
抑	-9.98947
修羅	-9.98961
或云	-9.99077
周遍	-9.99099
麼攞	-9.9914
無住	-9.99159
作如是	-9.99164
輪王	-9.99191
九十	-9.992
顧	-9.99232
非無	-9.99246
跛哩	-9.99357
次說	-9.99378
誦此真言	-9.99431
泉	-9.99435
嚩底	-9.99484
天神	-9.99491
眼識	-9.99502
a	-9.99586
有四	-9.99605
隨其	-9.9966
水中	-9.99663
見其	-9.99687
夏	-9.99755
黃色	-9.99824
麗	-9.99849
不滅	-9.99853
他人	-9.99977
聞法	-10.0011
何者	-10.0015
兒	-10.0016
七趣	-10.0018
色界	-10.0023
作此	-10.0023
喇	-10.0025
法王	-10.0035
緣覺	-10.0037
嚲	-10.0037
朗	-10.0041
增進	-10.0043
無量無邊	-10.0046
自巳	-10.0049
不過	-10.0053
佛剎	-10.0059
無名指	-10.006
隨所	-10.0068
即指	-10.0072
為真	-10.0073
下同	-10.0073
金剛三昧	-10.008
瞻	-10.0086
全體	-10.0087
賢聖	-10.0092
𦦨	-10.0097
當來	-10.0102
無情	-10.0106
隣	-10.0115
之與	-10.012
之相也	-10.0126
有何	-10.0127
真覺	-10.0132
旁	-10.0136
所攝	-10.0137
覽	-10.0147
五十七	-10.0152
或復	-10.0154
義故	-10.0156
或於	-10.016
哀愍	-10.0166
豐	-10.0166
四十七	-10.0167
我以	-10.0168
所造	-10.0169
不達	-10.0176
根性	-10.0177
生者	-10.0194
之文	-10.0197
議曰	-10.0217
誓願	-10.022
同前	-10.022
性相	-10.0225
赤色	-10.0229
舍利	-10.023
能成	-10.0232
州	-10.0239
大自在天	-10.0239
禪智	-10.0244
五十二	-10.025
囕	-10.0253
悅	-10.0254
不善	-10.0258
在於	-10.0264
此識	-10.0271
隨心	-10.0272
四者	-10.0275
成正覺	-10.0281
壁	-10.0284
內心	-10.0295
逈	-10.0304
三摩耶	-10.0308
梵音	-10.031
禪師	-10.032
二小指	-10.0324
見思	-10.0331
貧	-10.0332
罔	-10.0333
圓影	-10.0337
恃	-10.034
有知	-10.0347
聲塵	-10.0351
成阿羅漢	-10.0356
不取	-10.0356
修學	-10.0357
第九	-10.0363
應作	-10.0374
五塵	-10.0379
彼諸	-10.0388
熏聞云	-10.0392
持明者	-10.0401
欲得	-10.0401
諸佛如來	-10.0407
此天	-10.0408
為大	-10.0409
紫	-10.0413
受持讀誦	-10.0415
手印	-10.0417
太子	-10.0418
割	-10.042
潔	-10.0429
綿	-10.0429
之名	-10.0429
尚無	-10.0431
五十五	-10.0431
孤	-10.0433
閻浮提	-10.0446
普遍	-10.0448
額	-10.0455
對治	-10.0472
貪欲	-10.0474
非空	-10.0478
湯	-10.0483
若離	-10.0483
羂索	-10.0489
。(〔	-10.0493
四諦	-10.0494
弱	-10.0499
場	-10.0499
唱	-10.0505
名號	-10.051
學者	-10.0512
貪求	-10.0513
迷悟	-10.0514
心呪	-10.0518
轉法輪	-10.0523
心者	-10.0528
胡	-10.0535
人民	-10.0538
彌勒	-10.0539
加被	-10.0553
君	-10.0556
五十一	-10.0558
娑婆	-10.056
加行	-10.0565
噉	-10.0566
憐愍	-10.0579
則非	-10.0581
澡浴	-10.0593
即有	-10.0596
善巧	-10.0597
跡	-10.0599
藉	-10.0607
五十三	-10.061
三句	-10.0611
即為	-10.0615
置於	-10.0622
唯心	-10.0629
不與	-10.063
真諦	-10.0631
之行	-10.0643
是法	-10.0645
諸漏	-10.0652
民	-10.0661
吽字	-10.0661
尊重	-10.0667
蘭	-10.0672
菩	-10.0674
粗	-10.068
能破	-10.0687
其形	-10.0687
於空	-10.0688
十方世界	-10.0688
所感	-10.0689
緣心	-10.0697
汝身	-10.0698
得聞	-10.0705
羯囉	-10.0709
光焰	-10.0718
穀	-10.072
五十四	-10.0727
條	-10.0727
涅	-10.0727
文三	-10.0741
三德	-10.0745
故今	-10.0749
地位	-10.0756
七十	-10.0757
停	-10.0759
周徧法界	-10.0771
珍寶	-10.0771
由旬	-10.0772
定中	-10.0773
六十四	-10.0775
孤山	-10.0777
之異	-10.078
四角	-10.0788
法音	-10.0791
無餘	-10.0793
染淨	-10.0794
離塵	-10.0797
嚩日	-10.0801
故須	-10.081
九十九	-10.0815
者即是	-10.0817
頑	-10.082
雞	-10.0828
和尚	-10.0832
豎	-10.0833
喚	-10.0834
薩囉	-10.0838
捧	-10.0852
不生不滅	-10.0853
曇	-10.0854
濫	-10.0863
麼麼	-10.0866
以二手	-10.0866
飾	-10.0869
往昔	-10.0871
一根	-10.0878
有異	-10.0879
日日	-10.0883
如佛	-10.0886
本不生	-10.0898
選	-10.0909
乞义	-10.091
曷	-10.0916
而復	-10.0919
而非	-10.0926
一身	-10.0929
玉	-10.0941
即說	-10.0941
騰	-10.0943
結印	-10.0944
眼見	-10.0947
之者	-10.0949
長水云	-10.0952
客塵	-10.0953
惡人	-10.0966
令我	-10.0967
湛然	-10.0967
必須	-10.0968
方得	-10.097
是諸	-10.0973
宛然	-10.0982
毗盧遮那	-10.0983
中之	-10.0986
二百	-10.0988
清涼	-10.0995
之地	-10.0998
六道	-10.0999
振	-10.1001
修行者	-10.1003
真言者	-10.1007
動搖	-10.1008
唯願	-10.1014
劒	-10.1019
斯則	-10.102
以手	-10.1034
囉抳	-10.1035
則為	-10.1036
緊那羅	-10.1041
胸	-10.1051
莫不	-10.1056
欽	-10.1061
少分	-10.1061
我身	-10.1068
於心	-10.1071
重重	-10.1072
本然	-10.1072
之道	-10.1077
不合	-10.1083
於一切	-10.1089
布施	-10.109
我說	-10.1092
問曰	-10.1093
造作	-10.1094
正破	-10.1099
良由	-10.11
是我	-10.1106
生處	-10.1107
宋	-10.1114
法王子	-10.1116
巳上	-10.1124
是中	-10.1125
驚怖	-10.1139
之外	-10.1142
相對	-10.1143
在外	-10.1144
之旨	-10.1145
一真	-10.115
不因	-10.115
亦同	-10.115
現行	-10.1151
傾	-10.1152
如水	-10.1155
頻	-10.1158
開敷	-10.1159
持明	-10.1164
開合	-10.1164
此下	-10.1168
初地	-10.1169
無自性	-10.1173
二空	-10.1182
幻化	-10.1184
侍	-10.1199
金剛手菩薩	-10.12
信解	-10.1207
因心	-10.1209
業障	-10.1211
承上	-10.1218
托	-10.122
亂想	-10.1222
以下	-10.1225
羊	-10.1229
八萬劫	-10.1233
此二	-10.1233
五十六	-10.1241
圓頓	-10.1243
若言	-10.1243
酒	-10.1247
諸比丘	-10.1252
聖位	-10.1254
務	-10.1257
眠	-10.1258
測	-10.1259
流逸	-10.1262
ā	-10.1263
若復	-10.1263
暮	-10.1265
造業	-10.1267
非汝	-10.1274
底哩	-10.1281
典	-10.1282
偷	-10.1285
辟支佛	-10.1291
更不	-10.1299
能除	-10.1302
章句	-10.1302
洗浴	-10.1304
早	-10.1305
循業發現	-10.1305
洛	-10.1316
臭	-10.1317
陀那	-10.1323
響	-10.1328
陀囉	-10.1329
於一	-10.1329
二邊	-10.1329
珍	-10.1331
貌	-10.1331
我當	-10.1331
所執	-10.1341
答曰	-10.1348
通曰	-10.1353
詐	-10.1356
必無	-10.1356
為欲	-10.1366
之由	-10.1367
既有	-10.1367
妨	-10.1368
所住	-10.137
得解脫	-10.1387
去引	-10.1387
一切事	-10.1391
親近	-10.1393
與彼	-10.1393
不信	-10.1394
三千	-10.1396
囑	-10.14
恒河沙	-10.1402
正定	-10.1405
律儀	-10.1414
后	-10.1417
一門	-10.1417
息災	-10.1419
偽	-10.1419
三滿多	-10.1429
解結	-10.1432
私謂	-10.1434
不在	-10.1436
佛之	-10.1436
較	-10.1444
婁	-10.1449
妙用	-10.1451
常住真心	-10.1461
載	-10.1462
輔	-10.1468
文云	-10.147
天眼	-10.1472
即空	-10.1484
說偈	-10.1485
馱囉	-10.1497
低	-10.1504
為正	-10.1511
此乃	-10.1515
奇	-10.1516
緣生	-10.1521
若得	-10.1522
三千大千世界	-10.1529
無障礙	-10.1531
不盡	-10.1534
即當	-10.1537
見道	-10.1552
閻	-10.1554
偈云	-10.1555
i	-10.1559
處也	-10.1559
祈	-10.1561
心真言	-10.1563
弟	-10.157
校	-10.1571
嗢	-10.1575
明妃	-10.158
心所	-10.158
行道	-10.1588
佛果	-10.159
上來	-10.1592
寤	-10.1593
阿難下	-10.1597
不識	-10.1598
所問	-10.1603
元是	-10.1616
身根	-10.1622
五十八	-10.1624
一切皆	-10.1625
此正	-10.1626
尒	-10.1628
喇怛曩	-10.163
得入	-10.1633
化生	-10.1634
二羽	-10.1635
三日	-10.1636
時彼	-10.1639
自覺	-10.1645
滅盡	-10.165
此菩薩	-10.1655
溫陵	-10.1662
盲	-10.1662
所觀	-10.1675
與諸	-10.1675
真體	-10.1677
五蘊	-10.1677
伽羅	-10.1692
瞿	-10.1699
斫	-10.17
活	-10.1701
通塞	-10.1704
佛菩薩	-10.1724
未曾	-10.1724
當作	-10.1729
八葉	-10.173
能作	-10.1735
即便	-10.1737
金剛拳	-10.1743
童	-10.1747
如實	-10.1753
吼	-10.1755
則得	-10.1759
漢	-10.1763
之說	-10.1764
深入	-10.1768
支分	-10.1769
最為	-10.1778
欣	-10.178
併	-10.1786
身相	-10.1787
漫	-10.1795
弩	-10.181
重罪	-10.181
見有	-10.1812
略說	-10.182
三密	-10.1821
之門	-10.1824
留礙	-10.1826
若有眾生	-10.1836
今既	-10.1837
火天	-10.1842
顯示	-10.1851
此亦	-10.1856
紇哩	-10.1864
見明	-10.1871
無動	-10.1873
孽	-10.1875
遍照	-10.1876
那謨	-10.188
非心	-10.188
而坐	-10.1885
盖	-10.1885
干	-10.1887
任運	-10.189
非同	-10.1891
數珠	-10.1897
別業	-10.19
十二類生	-10.1901
普門	-10.1902
自證	-10.1909
訖哩	-10.1909
無心	-10.1917
憾	-10.1923
消除	-10.1931
戶	-10.1939
即見	-10.194
為非	-10.1941
最初方便	-10.1945
如如	-10.1946
憑	-10.1951
勇猛	-10.1952
此皆	-10.1953
空有	-10.1959
故不	-10.196
舌根	-10.1964
向下	-10.1966
心境	-10.1968
無實	-10.1969
八十一	-10.1971
訶囉	-10.1975
又二	-10.1987
佛眼	-10.1991
二約	-10.1995
了別	-10.1996
彼此	-10.1998
甚麼	-10.2
二明	-10.2003
五十九	-10.2005
威神	-10.2008
下二句	-10.2008
其相	-10.2021
但有	-10.2022
筆	-10.2023
之業	-10.2028
作是念	-10.204
十住	-10.2041
不須	-10.2042
障難	-10.2053
左邊	-10.2054
變成	-10.2055
大仙	-10.2071
人之	-10.2072
七十七	-10.2072
為本	-10.2074
摩頂	-10.2076
紅	-10.2081
增上	-10.2085
軌	-10.2086
如是故有	-10.209
二禪	-10.2093
觀心	-10.2094
佛母	-10.2095
從佛	-10.2097
大涅槃	-10.2099
紛	-10.21
譯云	-10.2106
為說	-10.2108
曼茶羅	-10.2109
誦此	-10.2109
須彌	-10.211
汝見	-10.2112
魂	-10.2113
須彌山	-10.2113
銀	-10.2114
妄生	-10.2116
野娑嚩	-10.212
諸事	-10.2122
復次阿難	-10.2124
自生	-10.2135
尚不	-10.214
次以	-10.2142
懼	-10.2143
今文	-10.2144
一切處	-10.2145
火中	-10.2155
去來	-10.2155
佛心	-10.216
三禪	-10.2165
余	-10.2173
)。(􂨳	-10.2177
明曰	-10.218
所起	-10.218
諍	-10.219
獸	-10.22
付	-10.2201
勇	-10.2206
情想	-10.221
准提	-10.2213
青色	-10.2218
竝	-10.2221
水性	-10.2223
危	-10.2225
羅剎女	-10.2225
一經	-10.2226
所持	-10.2228
諸大菩薩	-10.2231
二破	-10.2233
喝	-10.2235
愍	-10.2236
妙音	-10.2236
七十二	-10.224
不可說	-10.2248
皆同	-10.2249
以是因緣	-10.2258
水輪	-10.2258
辰	-10.2269
得名	-10.2276
居士	-10.2276
辯才	-10.2281
䟦	-10.2281
信心	-10.2287
長壽	-10.2287
屍	-10.229
吳興云	-10.2297
唵嚩日囉	-10.2306
發遣	-10.2309
毫	-10.2321
而立	-10.2322
櫱多	-10.2334
若有人	-10.234
碎	-10.2344
杜	-10.2347
集會	-10.2354
三麼	-10.2356
琰	-10.2357
塵垢	-10.2358
六十一	-10.236
體用	-10.2365
若諸眾生	-10.2366
文中	-10.2368
賤	-10.2372
初中	-10.2373
不立	-10.2377
繼	-10.2379
言其	-10.2381
見分	-10.2382
殺盜婬	-10.2387
此三	-10.2387
或作	-10.239
應以	-10.2396
定力	-10.2399
頭上	-10.2402
觀照	-10.2403
精真	-10.2407
諸行	-10.2409
速疾	-10.2413
入道	-10.2414
覺觀	-10.2414
瘡	-10.2415
山河大地	-10.2416
皆依	-10.2416
即時	-10.2417
悉能	-10.242
入此	-10.2423
發於	-10.2424
委	-10.2425
嚴飾	-10.2434
授與	-10.2442
=	-10.2443
人中	-10.2448
不必	-10.2456
愚癡	-10.2458
健	-10.247
向上	-10.2477
頂輪王	-10.2478
金銀	-10.2481
若復有人	-10.2482
蹉	-10.2482
訖㗚	-10.2488
之妄	-10.249
心愛	-10.2501
諾	-10.2501
不和合	-10.2505
撥	-10.2514
密語	-10.2521
性也	-10.2522
䭾囉	-10.2523
今言	-10.2524
六十五	-10.2529
訖囉	-10.2532
用此	-10.2532
烟	-10.2532
有此	-10.2533
呪者	-10.2535
不言	-10.2538
以前	-10.254
九界	-10.254
摩登伽	-10.2543
正顯	-10.2545
故說	-10.2551
告言	-10.2552
六十三	-10.2553
有二種	-10.2557
雜亂	-10.2558
為彼	-10.256
又於	-10.2562
此呪心	-10.2563
名稱	-10.2565
朝	-10.2572
何為	-10.2577
空寂	-10.258
人身	-10.2582
財寶	-10.2592
加護	-10.2597
既非	-10.2602
經卷	-10.2603
六十六	-10.2603
警	-10.2612
何有	-10.2613
六十八	-10.2615
麼抳	-10.2616
耀	-10.2624
顯真	-10.2624
遙	-10.2629
處所	-10.2632
春	-10.2635
第一義諦	-10.2635
大定	-10.2635
交光	-10.2636
不可得故	-10.2637
若非	-10.2637
羯南	-10.2639
冀	-10.2644
薄伽梵	-10.2648
多囉	-10.265
二無名指	-10.2651
不礙	-10.2656
一月	-10.2657
陁羅𡰱	-10.266
真言加持	-10.266
偶	-10.2663
為汝	-10.267
於前	-10.267
除一切	-10.2672
識界	-10.2674
八十八	-10.2676
頌曰	-10.2679
得無	-10.2686
躡前	-10.2689
承事	-10.2691
丈	-10.2696
汝之	-10.2705
乞灑	-10.2707
初果	-10.2708
始覺	-10.271
覺悟	-10.271
縒	-10.2711
尅	-10.2712
今則	-10.2714
刻	-10.2717
本如來藏	-10.2725
暴	-10.2729
而發	-10.2733
實際	-10.2734
△	-10.2739
離於	-10.274
矯亂	-10.2744
頭相拄	-10.2749
尊勝	-10.2751
護法	-10.2752
師子座	-10.2754
豈可	-10.2754
浮塵	-10.2754
狐	-10.2754
空生	-10.2773
死後	-10.2774
沒囉	-10.2775
乖	-10.2775
三時	-10.2781
糞	-10.2784
十善	-10.2784
賴	-10.2785
本因	-10.2787
須知	-10.2788
前文云	-10.2789
戲	-10.279
帛	-10.2792
六度	-10.2794
三結	-10.2795
婆囉	-10.2797
破之	-10.2799
思惑	-10.2802
法輪	-10.2803
不久	-10.2803
證真	-10.2804
出世間	-10.2814
四重	-10.2818
用之	-10.2819
優	-10.2838
八部	-10.2842
正報	-10.2842
須臾	-10.2842
若依	-10.2842
講	-10.2844
寶藏	-10.2851
送	-10.2858
震	-10.287
無能勝	-10.2871
鈴	-10.2873
菩提涅槃	-10.2877
彈指	-10.2882
三角	-10.2885
不實	-10.2889
社	-10.2894
鹽	-10.2898
成就者	-10.29
披	-10.2901
前之	-10.2907
稱讚	-10.2907
遺失	-10.2915
非一	-10.2916
金剛三摩地	-10.2918
債	-10.292
唯有	-10.292
戴	-10.292
醫	-10.2923
白衣	-10.2926
體也	-10.2927
上首	-10.2927
大母指	-10.2929
心體	-10.293
伽陀	-10.2932
登伽	-10.2933
不忘	-10.2936
性具	-10.2938
等事	-10.2939
分段	-10.2942
值	-10.2944
知此	-10.2945
直至	-10.295
吹	-10.2952
行相	-10.2954
不食	-10.2955
禮佛	-10.2955
三百	-10.2956
作禮	-10.296
跋折羅	-10.2961
乞叉	-10.2964
惟願	-10.2964
觀見	-10.2966
火燒	-10.2973
相分	-10.2973
妙性	-10.2975
此科	-10.2977
奢摩	-10.2981
孔雀	-10.2982
終無	-10.2982
真淨	-10.2982
麁	-10.2984
不依	-10.2987
先以	-10.2987
指示	-10.2987
即入	-10.2992
我見	-10.2997
其類充塞	-10.2998
此大	-10.3002
勒	-10.3003
從是	-10.3004
當體	-10.3007
故佛	-10.3014
身口意	-10.3019
見空	-10.3023
當用	-10.3029
端嚴	-10.303
刺	-10.3034
諸經	-10.3035
不還	-10.3038
心目	-10.3043
六十七	-10.3048
斛	-10.3051
無疑	-10.3052
正念	-10.3052
喫	-10.3059
何得	-10.306
所發	-10.3064
得未曾有	-10.3075
誐多	-10.3075
楞伽	-10.3075
所聞	-10.3079
為緣	-10.308
金剛藏	-10.308
沒䭾	-10.308
云何名為	-10.3082
毒藥	-10.3088
法眼	-10.309
踰	-10.309
縷	-10.3091
梅	-10.3095
每日	-10.3102
了無	-10.3103
岐	-10.311
以左手	-10.3111
以印	-10.312
穿	-10.3122
狹	-10.3126
天竺	-10.3127
意也	-10.3132
諸位	-10.3133
囉野	-10.3145
方等	-10.3148
此義	-10.3149
所行	-10.3152
所為	-10.3161
真言唵	-10.3163
己身	-10.3165
四指	-10.3169
七十一	-10.3171
不容	-10.3173
所覺	-10.3174
六十九	-10.3174
以來	-10.3177
所有一切	-10.3184
非自然	-10.3188
法爾	-10.3189
蓮華部	-10.319
色心	-10.3194
故為	-10.3194
佛世尊	-10.3195
俱嚕	-10.3202
聖性	-10.3206
階	-10.3206
明覺	-10.3209
正示	-10.321
不墮	-10.321
毘盧遮那佛	-10.3211
又曰	-10.3215
前來	-10.3219
作諸	-10.322
妙吉祥	-10.3223
浪	-10.3226
我所	-10.3231
覓	-10.3231
達摩	-10.3234
嚩路枳帝濕嚩	-10.3242
𠼝	-10.3244
􂏖	-10.3248
橛	-10.3251
第八識	-10.3252
之根	-10.3253
丹	-10.3254
勿令	-10.3259
毘舍	-10.327
五處	-10.327
寶冠	-10.3272
心印	-10.3283
矩嚕	-10.3284
嚕抳迦	-10.3288
槃	-10.3289
所以者何	-10.3296
大慈悲	-10.3298
火光	-10.3306
衛	-10.3308
壓	-10.331
無形	-10.3317
裂	-10.3318
手把	-10.3318
吳興	-10.3328
本空	-10.333
報盡	-10.3333
九十二	-10.3334
七十五	-10.3335
聲聞緣覺	-10.3337
捉	-10.3341
可謂	-10.3342
凡有	-10.3342
大法	-10.3345
能入	-10.3347
稟	-10.3348
金剛界	-10.3369
竹	-10.3371
證入	-10.3374
都無	-10.3374
彼佛	-10.3377
戀	-10.338
則同	-10.3389
令其成就	-10.3392
得此	-10.3394
離合	-10.3395
墮無間獄	-10.3395
忍願	-10.3396
吞	-10.3396
無所有	-10.3399
童女	-10.3401
則此	-10.3401
壇場	-10.3401
妙明心	-10.3404
憐	-10.3406
岸	-10.3407
往來	-10.341
右邊	-10.3412
散亂	-10.3416
有邊	-10.3422
性覺	-10.3425
電	-10.3427
相生	-10.3428
眾中	-10.343
惹野	-10.343
作拳	-10.3435
牟尼	-10.3436
安慰	-10.3439
於意云何	-10.345
似有	-10.3453
逸	-10.3454
不唯	-10.3457
心開	-10.3459
發光	-10.3466
前三	-10.3471
方所	-10.3477
妄語	-10.3483
梵行	-10.3484
病者	-10.3486
別教	-10.3493
七十三	-10.3494
無諸	-10.3499
圓光	-10.35
及餘	-10.35
若作聖解	-10.3511
陀羅尼真言	-10.3514
炎	-10.3514
圍遶	-10.3515
所變	-10.3515
了然	-10.3516
穴	-10.3516
柔	-10.3517
真修	-10.3518
即無	-10.352
莖	-10.352
依前	-10.3523
償	-10.3534
汁	-10.3536
室中	-10.3543
金剛縛	-10.3543
冰	-10.3545
結示	-10.3555
下文云	-10.3559
請召	-10.3561
赴	-10.357
所不能	-10.3571
𧹞	-10.3571
匿王	-10.3571
位中	-10.3572
護念	-10.3582
同體	-10.3594
孕	-10.3594
乃能	-10.3594
省	-10.3595
夾	-10.3598
旋轉	-10.3599
㰤	-10.3601
見之	-10.3608
依報	-10.3616
同是	-10.3618
瑞	-10.3619
心住	-10.362
之語	-10.3629
喻如	-10.3632
弗	-10.3633
樓閣	-10.364
唯是	-10.3647
我慢	-10.3648
柴	-10.3652
惡道	-10.3652
無比	-10.3658
全是	-10.3659
妬	-10.3662
奧	-10.3663
有學	-10.3671
靜慮	-10.3671
不但	-10.3675
選擇	-10.3678
因也	-10.3679
床	-10.368
大印	-10.3681
枉	-10.3682
即知	-10.3682
俱舍	-10.3687
與汝	-10.3688
普賢菩薩	-10.3692
空也	-10.3692
有五	-10.3697
孔	-10.3707
得自在	-10.3708
螺	-10.3715
業識	-10.3716
賜	-10.372
婆夜	-10.3724
毘藥	-10.3729
大悲心	-10.3736
七十四	-10.3737
酪	-10.3738
說也	-10.3739
妖	-10.3739
密印	-10.3746
砂	-10.3747
不可以	-10.3749
無窮	-10.3753
柳	-10.3753
精氣	-10.3754
當處	-10.3754
快樂	-10.3756
阿難及諸大眾	-10.3765
為性	-10.377
鑒	-10.3778
有生	-10.3782
本具	-10.3782
無緣	-10.3783
九十一	-10.3783
五濁	-10.3783
佛語	-10.3784
持金剛	-10.3784
瞻仰	-10.3786
陛	-10.3795
闇	-10.38
周匝	-10.3804
次當	-10.3807
鮮	-10.3808
佛道	-10.3808
瑩	-10.3812
釋迦牟尼佛	-10.3814
而為說法	-10.3819
奈	-10.3821
七十八	-10.3822
尚未	-10.3828
俗諦	-10.3831
既是	-10.3831
諸趣	-10.3831
9	-10.3836
方圓	-10.3837
一味	-10.3837
小兒	-10.3837
無生忍	-10.3839
進修	-10.384
開發	-10.384
離欲	-10.3842
即心	-10.3843
印相	-10.3844
七十六	-10.3845
六種	-10.3849
密因	-10.385
無色界	-10.3851
能以	-10.3858
秫	-10.3862
意在	-10.3864
功能	-10.3864
化為	-10.3867
如鏡	-10.3868
所歸	-10.3871
。」【△	-10.3876
此處	-10.3879
諸物	-10.3879
不令	-10.3882
緣塵	-10.3886
拈	-10.3893
寬	-10.3895
懺	-10.3896
淨水	-10.3896
衝	-10.3896
不空羂索	-10.3912
若約	-10.3912
迷悶	-10.3913
法執	-10.3918
降三世	-10.3923
難陀	-10.3926
相叉	-10.3928
般若波羅蜜	-10.3929
火輪	-10.393
將何	-10.3931
鉢頭	-10.3935
企	-10.3942
違順	-10.3946
疎	-10.3958
能現	-10.3959
櫱跢	-10.3966
怛儞也	-10.397
大千	-10.3971
等法	-10.3974
八十四	-10.3975
依於	-10.3977
非人	-10.3977
右旋	-10.3977
底曳	-10.3986
上有	-10.3986
此四	-10.3987
說之	-10.3988
有色	-10.3989
妙理	-10.399
誘	-10.399
受報	-10.3993
束	-10.3994
之功	-10.3996
麌	-10.4002
俱無	-10.4003
弊	-10.4005
主人	-10.4009
問答	-10.4017
不悟	-10.4018
而不知	-10.4019
為所	-10.402
白言	-10.4021
稱名	-10.4021
七十九	-10.4022
佛地	-10.4022
淪	-10.4023
羽	-10.4025
辟除	-10.4033
病人	-10.4034
餘習	-10.4035
蒲	-10.4037
質多	-10.4043
心念	-10.4047
妄執	-10.4049
其意	-10.4051
寶珠	-10.4051
端正	-10.4052
禁戒	-10.4053
畫像	-10.4056
當知此	-10.4057
雪	-10.4062
拄	-10.4065
法則	-10.4074
卒	-10.4083
執著	-10.4085
皆令	-10.4087
等皆	-10.4088
阿難白佛言世尊	-10.409
後文	-10.4091
感應	-10.4093
四生	-10.4093
不隨	-10.4095
拽	-10.4095
不作	-10.4096
古人	-10.4098
之妙	-10.4102
聖賢	-10.4103
巘	-10.4104
慎	-10.4107
化佛	-10.411
薰	-10.4111
印呪	-10.4118
稱為	-10.412
上品	-10.4123
鳴	-10.4133
喪	-10.4137
頃	-10.414
覺了	-10.414
妃	-10.4141
佐	-10.4142
眾寶	-10.4145
十方佛	-10.415
五穀	-10.4151
自相	-10.4155
見此	-10.4159
紙	-10.4167
尤	-10.4169
贊	-10.4179
故無	-10.418
思量	-10.418
又此	-10.4181
相涉	-10.4182
數量	-10.4184
而見	-10.4184
誐囉	-10.4184
果也	-10.4187
所詮	-10.4189
無所得	-10.419
常為	-10.4195
即說呪曰	-10.4199
氏	-10.42
十萬遍	-10.4203
滅除	-10.4205
捨心	-10.4206
行也	-10.4207
發揮	-10.4215
之內	-10.4218
矚	-10.422
而此	-10.4222
頸	-10.4224
是經	-10.4224
師曰	-10.4225
速證	-10.4225
至誠	-10.4226
所因	-10.4226
便成	-10.4234
陀羅尼曰	-10.4236
漚	-10.4238
莎嚩訶	-10.4239
頂戴	-10.4241
皆得成就	-10.4243
唵字	-10.4243
輕安	-10.4245
以喻	-10.4246
苕溪云	-10.4249
八十二	-10.4249
又有	-10.4258
陀羅尼門	-10.426
顛	-10.4261
計度	-10.4263
繁	-10.4265
亦皆	-10.4266
與前	-10.4269
有體	-10.427
得生	-10.4271
梵本	-10.4274
寂照	-10.4276
互用	-10.4276
自在天	-10.4277
天上	-10.428
能覺	-10.4281
閑	-10.4283
正徧知	-10.4286
常在	-10.429
▁五	-10.4291
此翻	-10.4293
根元	-10.4297
是則名為	-10.43
次應	-10.4301
六入	-10.4301
祭	-10.4302
不入	-10.4306
二習	-10.4308
目前	-10.4311
不名	-10.4315
如汝	-10.4315
非實	-10.4317
黑色	-10.4317
曩莫阿	-10.4319
憎	-10.4319
抱	-10.432
四天	-10.4321
伴	-10.4324
從彼	-10.4324
南謨	-10.433
他方	-10.4332
忽生	-10.4334
作此印	-10.4335
晦	-10.4336
指頭	-10.434
黨	-10.4342
火焰	-10.4346
以反	-10.4348
位也	-10.4351
三毒	-10.4356
其實	-10.4358
得其	-10.4361
合成	-10.4364
身上	-10.4366
夷	-10.4368
此言	-10.4368
庾	-10.4374
向外	-10.4375
展	-10.4376
阿難白佛言	-10.4388
人所	-10.439
執心	-10.439
器界	-10.4391
身分	-10.4392
也又	-10.4395
令汝	-10.4398
」「	-10.44
吃	-10.4402
入流	-10.4404
於如來	-10.4405
身命	-10.4412
悉得	-10.4412
次於	-10.4413
呪力	-10.4414
敗	-10.4415
虗明	-10.4427
故成	-10.4428
不行	-10.4432
生佛	-10.4432
因緣故	-10.4439
化身	-10.4447
一乘	-10.445
兩手	-10.445
初發心	-10.4456
)。(􂨱	-10.4462
而來	-10.4466
雲海	-10.4467
顯其	-10.447
思念	-10.4471
欺	-10.4472
業報	-10.4475
午	-10.4478
正受	-10.4479
庶	-10.4483
基	-10.4483
梵志	-10.4485
阿鼻	-10.4486
哥	-10.4486
包	-10.4489
言此	-10.4491
保	-10.4493
狗	-10.4494
捨離	-10.4494
恣	-10.4495
輕重	-10.4496
將此	-10.4499
仙人	-10.4501
蒙佛	-10.4503
什	-10.4505
籠	-10.451
握	-10.4515
陷	-10.4515
佛所說	-10.4516
行法	-10.4528
何者是	-10.4534
印契	-10.4538
反聞	-10.4539
大妄語	-10.4541
轉計	-10.4542
。」【〔	-10.4544
一往	-10.4544
如云	-10.4545
界外	-10.4546
嬈	-10.4546
從心	-10.4548
污	-10.4557
我為	-10.4558
怛羅	-10.456
受苦	-10.4568
如是我聞	-10.4571
教體	-10.4572
煩	-10.4573
金剛寶	-10.4575
真理	-10.4576
追	-10.4576
結前	-10.4577
梵云	-10.458
性故	-10.458
諸世間	-10.4585
冠註此	-10.4585
虎𤙖	-10.4586
此意	-10.4587
次明	-10.4589
佛國	-10.4593
而實	-10.4594
凡聖	-10.4598
麼底	-10.4599
如來藏中	-10.4604
馳	-10.4605
然而	-10.4606
佛教	-10.4606
未破	-10.4607
成就教理	-10.4608
曬	-10.4611
諸餘	-10.4611
毘盧遮那如來	-10.4611
得道	-10.4613
鉤召	-10.4623
生死根本	-10.4623
敕	-10.4623
日輪	-10.4624
皆能	-10.4629
巳得	-10.4631
一一皆	-10.4632
承佛	-10.4633
雖未	-10.4637
險	-10.4642
塵沙	-10.4644
種類	-10.4652
須陀洹	-10.4652
為心	-10.4654
如來說	-10.4663
脂	-10.4663
曼殊室利	-10.4665
諸龍	-10.4667
自見	-10.4669
八十三	-10.467
甜	-10.4671
粉	-10.4672
不用	-10.4672
排	-10.4673
罪障	-10.4674
白佛言世尊	-10.4676
韈㗚	-10.4681
不待	-10.4684
必定	-10.4684
三指	-10.4686
外境	-10.469
滅後	-10.4692
空如來藏	-10.4692
想念	-10.4695
此為	-10.4697
虫	-10.47
瓦	-10.47
自謂	-10.47
霜	-10.4701
譬喻	-10.471
正見	-10.471
趨	-10.4713
與如來	-10.4716
作此法	-10.4717
若諸	-10.4718
孰	-10.472
相和	-10.4729
作意	-10.4729
九十六	-10.4732
軌則	-10.4734
𠸪	-10.4735
跓	-10.4738
隅	-10.4739
非想	-10.474
成辦	-10.4741
麥	-10.4742
頓悟	-10.4746
無所不	-10.475
召請	-10.4757
彼真言曰	-10.4758
鄔	-10.4761
觀智	-10.4767
忙	-10.4767
凌	-10.4768
鑑	-10.4769
漏盡	-10.4769
一類	-10.477
九十五	-10.4771
翅	-10.4771
鷄	-10.4771
本非因緣	-10.4772
焚	-10.4783
中現	-10.4786
八十七	-10.4789
萬象	-10.4791
所居	-10.4791
而行	-10.4792
曩莫三滿多沒馱喃	-10.4795
巳成	-10.4798
腕	-10.48
故非	-10.4802
間斷	-10.4804
撮	-10.4809
密言曰	-10.4812
上中下	-10.4816
三法	-10.482
本非因緣非自然性	-10.4824
作是言	-10.4824
議	-10.4825
答言	-10.4825
呪之	-10.4828
具有	-10.4842
括	-10.4844
作一	-10.4844
而證	-10.4847
能緣	-10.4852
教中	-10.4854
今初	-10.4854
先須	-10.4854
非自然性	-10.4855
蠱	-10.4857
薩縛	-10.4858
故感	-10.4858
修多羅	-10.486
三部	-10.486
或為	-10.486
本非	-10.486
娑囉	-10.4862
遍滿	-10.4862
佛事	-10.4863
安於	-10.4865
即誦	-10.4866
喉	-10.4866
王如來	-10.4868
同彼	-10.487
金輪	-10.4875
底瑟姹	-10.4876
天地	-10.4876
名相	-10.4877
天龍八部	-10.4879
聞此	-10.4885
百億	-10.4887
不妨	-10.4888
枳孃	-10.4888
佩	-10.4889
佛土	-10.4897
炭	-10.4899
多少	-10.4902
此一	-10.4906
祗	-10.4906
跛野	-10.4912
如上所說	-10.4913
儜	-10.4914
得清淨	-10.4915
於後	-10.4931
五逆	-10.494
婬欲	-10.494
理也	-10.4941
命終之後	-10.4941
之義也	-10.4946
器中	-10.4947
其餘	-10.4948
之機	-10.4951
運心	-10.4953
產	-10.4955
見相	-10.4956
伏藏	-10.4958
驅	-10.4959
一生	-10.4966
大慧	-10.497
快	-10.4971
佛部	-10.4973
八十六	-10.4973
摩尼寶	-10.4977
一切惡	-10.4978
慈心	-10.498
以金剛	-10.4986
僧伽	-10.4988
萬遍	-10.4989
天帝釋	-10.4989
應云	-10.4993
天下	-10.4993
嫌	-10.4998
本明	-10.4999
回向	-10.501
三漸次	-10.5011
證知	-10.5012
於法	-10.5013
八十五	-10.5018
二處	-10.5019
又非	-10.5038
何謂	-10.5038
劫濁	-10.5044
妄塵	-10.5048
藝	-10.5049
由前	-10.5049
之色	-10.5059
九十八	-10.5062
爛	-10.5062
耽	-10.5063
射	-10.5064
常說	-10.5067
海中	-10.5069
是謂	-10.507
克	-10.5071
厚	-10.5071
諸鬼神	-10.5083
白佛	-10.5088
綵	-10.5097
惱亂	-10.51
取著	-10.5104
綱	-10.5107
成菩提	-10.5108
身語心	-10.5108
躡	-10.5111
證果	-10.5116
十五日	-10.5117
中說	-10.5123
直指	-10.5123
金剛王	-10.5124
為他	-10.5127
隨力	-10.5127
八十九	-10.5131
案	-10.5131
3	-10.5132
透	-10.5132
𪘨	-10.5133
倚	-10.5138
諸世界	-10.514
袈裟	-10.5143
二法	-10.5144
字輪	-10.5148
黏	-10.515
類也	-10.5151
亦以	-10.5153
牒前	-10.5153
此以	-10.5156
非為聖證	-10.5164
一切世界	-10.5165
妙覺明	-10.5166
定心	-10.5171
若求	-10.5173
婦	-10.5175
軫	-10.5175
如說	-10.5176
阿耨多羅三藐三菩提	-10.5179
四陰	-10.5179
獲大	-10.518
誹謗	-10.518
而現	-10.5184
亦不能	-10.5192
耳根圓通	-10.5193
依教	-10.5193
言教	-10.5193
身體	-10.5193
三處	-10.5196
冒	-10.5196
澤	-10.5197
多曳	-10.5198
可畏	-10.5198
資中曰	-10.5199
遶	-10.5199
即非	-10.5199
一種	-10.5201
豈能	-10.5206
縮	-10.5206
九十三	-10.5207
入掌	-10.5209
明之	-10.5211
遲	-10.5212
相見	-10.5213
薩嚩怛他	-10.5224
況復	-10.5225
此諸	-10.5231
憍	-10.5236
覺體	-10.5238
獨覺	-10.5239
我亦	-10.5242
澁	-10.5254
實無	-10.5254
照明	-10.5261
相交	-10.5262
作之	-10.5263
n	-10.5266
總名	-10.5273
三止	-10.5274
宿習	-10.5276
破戒	-10.5276
亦當	-10.5277
崇	-10.5282
蘖多	-10.529
既云	-10.5291
方是	-10.5292
五辛	-10.5301
物象	-10.5303
攝心	-10.5306
於人	-10.5309
冩	-10.531
而為說法令其成就	-10.5314
法相	-10.532
如大	-10.5321
出入息	-10.5322
佛陀	-10.5325
世出世間	-10.533
須菩提	-10.5331
迎	-10.5333
以諸	-10.5334
方可	-10.5338
得其便	-10.5338
相違	-10.5338
不由	-10.5342
卵	-10.5354
阿難大眾	-10.5357
故於	-10.5359
形色	-10.536
雖復	-10.5363
以彼	-10.5365
現量	-10.5367
一肘	-10.5376
假名	-10.5377
輸藍	-10.5377
釋成	-10.5381
生天	-10.5385
熾	-10.5385
是呪	-10.5386
心想	-10.5386
暗中	-10.5386
取其	-10.539
三義	-10.5391
智也	-10.5392
拜	-10.5395
立名	-10.5396
面向	-10.5396
芥子	-10.5402
悉底	-10.5403
不現	-10.5404
若彼	-10.5405
給	-10.5409
住持	-10.5412
灾	-10.5413
復於	-10.5425
等者謂	-10.5427
威光	-10.5427
聞佛	-10.5427
寶光	-10.5429
經典	-10.5431
娑羅	-10.5434
藥叉羅剎	-10.5436
缽納麼	-10.5437
是妄	-10.544
高山	-10.544
教法	-10.5441
煎	-10.5442
膠	-10.5448
疾病	-10.5449
共生	-10.5451
以自	-10.5452
波羅蜜多	-10.5457
請問	-10.5459
已上	-10.5466
彌陀	-10.5466
出離	-10.5467
一切鬼神	-10.5474
儒	-10.5475
誦大明	-10.5476
瞋恚	-10.5479
鹿	-10.548
弊泮	-10.5485
遵	-10.5485
永斷	-10.5488
復用	-10.549
坻	-10.5491
胃	-10.5497
別釋	-10.5497
無生法忍	-10.5498
蜜㗚	-10.5506
貪愛	-10.5507
地中	-10.5509
剛	-10.5509
項	-10.5509
枚	-10.551
觀門	-10.5511
極果	-10.5513
法故	-10.5519
唵阿	-10.5522
大菩提	-10.5523
二人	-10.5526
元明	-10.5528
出於	-10.5528
當知是	-10.5531
形如	-10.5534
五指	-10.5535
生住異滅	-10.5536
皆屬	-10.5542
其性	-10.5543
阿字門	-10.5548
咩	-10.5549
九十四	-10.5549
汝觀	-10.5551
諸師	-10.5552
本部	-10.5554
邪正	-10.5554
不求	-10.5555
應用	-10.5556
此說	-10.5556
率	-10.5558
以種種	-10.5562
終不能	-10.5568
假使	-10.5575
大佛頂如來密因修證了義	-10.5575
迷惑	-10.5577
穆	-10.5577
施無畏	-10.5577
徧計	-10.5581
西門	-10.5587
無還	-10.559
勸請	-10.5594
南麼三曼多勃馱喃	-10.5601
於佛前	-10.5601
未有	-10.5602
是物	-10.5603
既巳	-10.5604
嚕拏	-10.5609
所用	-10.5611
宛	-10.5612
屋	-10.5614
嚩怛他	-10.5615
汝應	-10.5617
剖	-10.5619
予	-10.5621
挽	-10.5621
金剛印	-10.5622
故先	-10.5625
金剛鉤	-10.5626
聽法	-10.5628
而今	-10.5632
一千	-10.5632
淨心	-10.5634
入定	-10.5635
除愈	-10.5635
分為	-10.5664
訓	-10.5666
與佛	-10.5676
惟一	-10.5679
聞聲	-10.568
維	-10.5681
囉惹	-10.5681
嘆	-10.5681
不能自	-10.5682
囉怛曩	-10.5682
九十七	-10.569
迦哩	-10.569
香爐	-10.5694
雞囉夜彌	-10.5694
熱惱	-10.5695
為能	-10.5696
本體	-10.5697
今欲	-10.5698
長水曰	-10.57
奮怒王	-10.5704
諸人	-10.5704
罰	-10.571
吒野	-10.5711
淨除	-10.5713
長行	-10.5714
不能知	-10.5714
飛行	-10.5716
▁○	-10.5727
為主	-10.5728
鑿	-10.5731
秘	-10.5731
下破	-10.5735
成熟	-10.5738
名也	-10.5739
對待	-10.5739
合掌恭敬	-10.5742
呪法	-10.5744
離垢	-10.5748
若實	-10.5749
下云	-10.5757
府	-10.5757
明見	-10.5762
為上	-10.5762
恚	-10.5763
富貴	-10.5763
逮	-10.5768
二分	-10.5772
則見	-10.5773
信受	-10.5775
休息	-10.5779
虛空藏	-10.578
前境	-10.5782
變為	-10.5782
天龍	-10.5791
寶幢	-10.5795
相者	-10.5795
哩也	-10.5795
嚩日哩	-10.5798
有如是	-10.5801
是有	-10.5801
為宗	-10.5801
而彼	-10.5805
楞	-10.5806
充滿	-10.5807
誦此陀羅尼	-10.5807
下劣	-10.5808
慶喜	-10.5808
但能	-10.581
貧窮	-10.581
分位	-10.5813
阿含	-10.5816
嚩哩	-10.5816
啟請	-10.5818
而言之	-10.5831
并諸	-10.5831
兄弟	-10.5832
發現	-10.5832
諸菩薩萬行首楞嚴經	-10.5832
利他	-10.5836
持地	-10.5838
佛前	-10.584
既盡	-10.5843
無上覺	-10.5845
智印	-10.5851
無處	-10.5855
憶持	-10.5859
離一切	-10.5861
阿那	-10.5862
意生	-10.5862
四百	-10.5864
即應	-10.5867
字是	-10.5868
有三種	-10.5869
耳識	-10.587
總是	-10.5871
仗	-10.5872
牆	-10.5875
未悟	-10.5877
時分	-10.5878
一卷	-10.5879
那伽	-10.5882
下結	-10.5885
無上道	-10.5888
而修	-10.5888
初句	-10.5893
丙	-10.5894
七處	-10.5896
唅	-10.5898
地大	-10.5899
徧十方界	-10.59
三匝	-10.59
0	-10.5901
我從	-10.5901
之上	-10.5902
於大	-10.5903
賓	-10.5903
皇	-10.5905
圓照	-10.5905
迷真	-10.5905
四字	-10.5905
生識	-10.5905
能滅	-10.5906
乏	-10.5908
器仗	-10.5912
釋之	-10.5913
性中	-10.5914
作佛	-10.5914
2	-10.592
參合	-10.5922
如一	-10.5923
標指	-10.5923
阿闍棃	-10.5926
無際	-10.5926
漸漸	-10.5927
非相	-10.5929
香氣	-10.5929
取一	-10.5929
斷惑	-10.593
用也	-10.593
即差	-10.5933
境也	-10.5937
法藏	-10.5943
不生滅性	-10.5945
片	-10.5946
祇陀林	-10.5961
之一	-10.5964
清水	-10.5965
末那	-10.5969
其地	-10.597
復生	-10.597
破其	-10.5971
半月	-10.5972
武	-10.5974
8	-10.5975
如意寶	-10.5975
姹	-10.598
嘉	-10.5982
徑	-10.5985
鳩	-10.5989
激	-10.5992
不具	-10.5995
罪業	-10.5995
彈	-10.6005
起滅	-10.6006
大將	-10.6007
之位	-10.6007
釘	-10.6008
四隅	-10.6009
顏	-10.6013
魘	-10.6013
汝識	-10.6014
人心	-10.6015
雹	-10.6015
眾多	-10.6017
範	-10.6019
善住	-10.6023
而未	-10.6029
復告	-10.6032
中陰	-10.6035
當觀	-10.6036
初明	-10.6037
鈔	-10.6039
利樂	-10.6045
月光	-10.6045
本經	-10.6049
一六	-10.6051
不有	-10.6054
論曰	-10.6056
幸	-10.6059
五欲	-10.606
魄	-10.6062
菓	-10.6063
一切真言	-10.6063
如是如是	-10.6066
念處	-10.6074
解說	-10.6075
南無婆伽婆帝	-10.6079
流轉國土	-10.6083
如來藏心	-10.6093
一劫	-10.6096
眾會	-10.6102
三字	-10.6107
王子	-10.6109
壇法	-10.6112
朱	-10.6113
離一切相	-10.612
左手執	-10.6121
奉請	-10.6124
會通	-10.6124
弓	-10.6129
非色	-10.6132
無智	-10.6134
非但	-10.6139
䛧	-10.614
瞪	-10.6144
江	-10.6152
何異	-10.6154
識精	-10.6157
花鬘	-10.6157
訛	-10.6158
坑	-10.6161
與我	-10.6162
災難	-10.6162
僕	-10.6164
無量光	-10.6164
尋常	-10.6167
竊	-10.6167
荷	-10.6172
燈明	-10.6173
職	-10.6174
薪	-10.6178
佛意	-10.6183
本無所有	-10.6184
日夜	-10.6189
非異	-10.6189
結答	-10.6189
資中	-10.619
知者	-10.6192
一名	-10.6195
同名	-10.6197
人法	-10.6199
一面	-10.6201
棒	-10.6204
心精	-10.6206
寶覺	-10.6209
曼拏羅中	-10.6212
猶是	-10.6212
結解	-10.6212
作如是言	-10.6217
遊戲	-10.6223
正脈云	-10.6224
苦行	-10.6224
眾生界	-10.6226
持此	-10.6227
雖不	-10.6227
分證	-10.6228
亢	-10.623
三塗	-10.6231
恒常	-10.6233
迴心	-10.6236
錢	-10.6238
如虗空	-10.624
奚	-10.6242
是其	-10.6249
性明	-10.6251
三十二應	-10.6258
波囉	-10.6258
法要	-10.6259
權實	-10.6259
矯	-10.6263
度生	-10.6265
作種種	-10.6266
故下	-10.6268
既成	-10.6269
斷絕	-10.6271
利根	-10.6272
世諦	-10.6274
歷劫	-10.6275
惜	-10.6278
勝妙	-10.6279
晨朝	-10.628
地也	-10.6281
掘	-10.6282
心見	-10.6286
經論	-10.6286
圓淨	-10.6291
天眾	-10.6293
遊行	-10.6293
𢈔	-10.6297
夕	-10.6298
娑婆訶	-10.63
導師	-10.6301
又汝	-10.6303
先明	-10.6308
中節	-10.6309
三世諸佛	-10.631
事也	-10.6314
有二義	-10.6315
下品	-10.6316
絡	-10.6318
八百	-10.6318
淚	-10.6324
言我	-10.6325
右押左	-10.6326
天衣	-10.633
優婆塞	-10.6331
是大	-10.6332
說者	-10.6335
狂走	-10.6335
今何	-10.6336
繫縛	-10.6343
哩抳	-10.6343
巳滅	-10.6347
藏識	-10.6351
不惟	-10.6355
妄念	-10.6356
刃	-10.6356
常得	-10.6356
阿難陀	-10.6362
路迦	-10.6363
明其	-10.6363
明悟	-10.6367
五大	-10.6367
地瑟恥	-10.6367
檢	-10.6368
淨妙	-10.6368
憍尸迦	-10.6372
若為	-10.6373
用心	-10.6377
綰	-10.638
法合	-10.6387
僧問	-10.639
羯吒	-10.6392
在家	-10.6393
是事	-10.6398
圓常	-10.6403
怨家	-10.6407
以示	-10.6411
方能	-10.6413
等相	-10.6414
極樂	-10.6414
虞	-10.6417
經歷	-10.6418
染著	-10.6418
是同	-10.6421
究竟堅固	-10.6426
身觸	-10.6426
考	-10.6429
胡麻	-10.6429
阿彌陀佛	-10.643
應念	-10.6432
皆成	-10.6433
觀者	-10.6434
蒸	-10.6436
勢力	-10.6443
前人	-10.6445
由因世界	-10.6449
巴	-10.6449
覺觸	-10.6454
決擇	-10.6455
熾然	-10.6457
荅	-10.6457
洛叉	-10.6458
相成	-10.6458
丁以反	-10.646
亦令	-10.646
織	-10.6462
不分	-10.6463
逆流	-10.6467
栗	-10.6467
能斷	-10.6469
變現	-10.647
優劣	-10.647
更問	-10.647
爪	-10.6473
四果	-10.6475
吒吒	-10.6478
心為	-10.6482
由彼	-10.6483
喜樂	-10.6485
㫊暮伽	-10.6492
聚落	-10.6493
歸於	-10.6495
金剛智	-10.6496
非因緣	-10.6497
師云	-10.6497
五者	-10.6502
流注	-10.6505
冥諦	-10.6505
孫	-10.6506
妙樂	-10.6506
人也	-10.6511
九品	-10.6512
本是	-10.6513
妙淨	-10.6514
世尊我	-10.6515
未證	-10.6517
川	-10.6517
精舍	-10.6525
不能見	-10.6525
妙行	-10.6527
或用	-10.6528
震動	-10.6528
而觀	-10.6529
比丘尼	-10.6531
啞	-10.6537
為食	-10.6542
耨	-10.6543
而論	-10.6548
馬頭	-10.6549
夭	-10.6552
團	-10.6554
得無生忍	-10.6555
不止	-10.6564
戒律	-10.6571
謎	-10.6573
惑業	-10.6574
或可	-10.6576
云何為	-10.6577
達囉	-10.6577
發真	-10.6579
如何是	-10.6579
滿月	-10.6582
捨身	-10.6586
末法	-10.6587
眉	-10.6588
未甞	-10.6591
肥	-10.6595
云何知	-10.6596
捏	-10.6596
色塵	-10.6599
度脫	-10.6606
匝	-10.6606
毗舍	-10.6613
路枳	-10.6616
畢竟無體	-10.6623
出三界	-10.6626
來者	-10.6627
句義	-10.6629
繒	-10.6631
此三昧	-10.6633
想心	-10.6634
遍一切處	-10.6636
隨彼	-10.6639
聞者	-10.6646
入佛知見	-10.6652
天中	-10.6653
薩怛	-10.6654
阿毘	-10.6654
觀其	-10.6656
有無量	-10.6657
根本無明	-10.6658
掩	-10.6666
鍾	-10.6669
政	-10.6669
塢	-10.6674
圓妙	-10.6675
結跏趺坐	-10.6676
虧	-10.6676
紹	-10.6677
確	-10.6677
鹹	-10.6681
三十三天	-10.6689
永無	-10.6693
形相	-10.6697
迷妄	-10.6706
菴	-10.6707
而去	-10.6716
昭	-10.6717
持此呪	-10.6719
三七日	-10.6721
)󲊛	-10.6722
作佛事	-10.6723
不共	-10.6723
囉字	-10.6725
五體投地	-10.6726
鎖	-10.6731
見見	-10.6731
屬於	-10.6737
病苦	-10.6738
知是	-10.6746
於外	-10.6747
法生	-10.6747
菩薩戒	-10.6751
廣明	-10.6753
天帝	-10.6753
當在	-10.6754
火大	-10.6754
斷除	-10.6755
入空	-10.6757
真精	-10.6757
雖得	-10.676
皆可	-10.6762
色目	-10.6767
剎土	-10.6767
氐	-10.6767
胝	-10.6774
各別	-10.6778
大明王	-10.6778
面目	-10.6781
身內	-10.6781
佛界	-10.6781
曾無	-10.6782
起信	-10.6782
突	-10.6783
佛問	-10.6784
其名	-10.6788
亭	-10.679
於壇	-10.679
天宮	-10.6792
令諸	-10.6792
五字	-10.6793
因聲	-10.6795
心上	-10.6796
準前	-10.6797
實性	-10.6799
於世間	-10.6804
訟	-10.6817
次云	-10.6825
不死	-10.6826
騐	-10.6827
第六識	-10.6829
滑	-10.683
周法界	-10.6831
之真	-10.6832
陰陽	-10.6836
佛知見	-10.6838
相現	-10.684
從空	-10.6843
誐誐曩	-10.6847
耳門	-10.6848
猛火	-10.685
坐道場	-10.6853
五戒	-10.6856
之前	-10.6859
遷變	-10.686
出生死	-10.6862
佛像	-10.6864
不來	-10.6865
沐浴	-10.6865
不動尊	-10.6866
離此	-10.6866
教化	-10.6873
鍊	-10.6873
十二處	-10.6875
微塵數	-10.6878
界內	-10.6882
三分	-10.6884
今汝	-10.6888
嬭	-10.6894
大日	-10.6897
爭	-10.69
惟心	-10.6901
本願	-10.6908
松	-10.691
是空	-10.6913
檀慧	-10.6913
逾	-10.6914
空界	-10.6917
諸妄	-10.6921
警覺	-10.6928
門中	-10.6929
雪山	-10.6929
後二	-10.693
四眾	-10.6936
三股	-10.6937
根本印	-10.6937
能成就	-10.6938
瞢	-10.694
其本	-10.6942
乾慧地	-10.6944
伺	-10.6947
聖果	-10.6949
三曼多	-10.6951
此計	-10.6954
所欲	-10.6955
便有	-10.6955
事理	-10.6956
酢	-10.6958
此定	-10.6959
無妄	-10.696
摧伏	-10.6962
刀兵	-10.6963
舉喻	-10.6965
離苦	-10.6969
同佛	-10.6973
設咄嚕	-10.6974
壇上	-10.6976
闊	-10.6981
禍	-10.6982
八種	-10.6984
亦為	-10.6984
菩薩見	-10.6985
十四日	-10.6986
掃	-10.6987
換	-10.6989
直心	-10.699
而又	-10.6992
男子	-10.6993
不通	-10.6995
之要	-10.6999
肇	-10.6999
說呪	-10.7004
如意珠	-10.7004
頌云	-10.7005
為其	-10.701
淨戒	-10.7011
推破	-10.7013
十方三世	-10.7015
正說	-10.7016
無記	-10.702
二塵	-10.7021
性本	-10.7021
自無	-10.7022
聖道	-10.7023
粳米	-10.7026
墨	-10.7026
遂成	-10.7027
大寶	-10.7031
著新淨衣	-10.7031
不被	-10.7033
御	-10.7034
霧	-10.7035
阿難當知	-10.7036
鼻根	-10.7036
得果	-10.7038
中心	-10.704
式	-10.7042
依他	-10.7045
聞是	-10.7047
分齊	-10.7053
尚有	-10.7053
隨處	-10.7055
理智	-10.7057
心王	-10.706
下句	-10.7061
餅	-10.7062
五通	-10.7063
往生	-10.7066
十力	-10.7067
知之	-10.7068
扶	-10.7069
法空	-10.7071
得證	-10.7072
將來	-10.7073
迦樓羅	-10.7074
其光	-10.7076
旃檀	-10.7077
酸	-10.7079
故令	-10.708
一切諸佛菩薩	-10.708
知味	-10.7082
之有	-10.7082
咸皆	-10.7086
惡心	-10.7088
顯發	-10.7089
其處	-10.7089
無聲	-10.709
是汝	-10.709
大願	-10.7091
云何名	-10.7091
之元	-10.7091
無量劫	-10.7095
加持故	-10.7097
生於世間	-10.7097
役	-10.7097
艾	-10.7099
同居	-10.7101
鐘	-10.7101
教以	-10.7103
顯密	-10.7104
了達	-10.711
種種供養	-10.7113
必不	-10.7116
腑	-10.712
顯見	-10.712
無端	-10.7122
縱有	-10.7123
熏習	-10.7127
微笑	-10.7129
虜	-10.7131
三身	-10.7133
之德	-10.7141
e	-10.7141
處處	-10.7143
飽	-10.7146
凶	-10.7151
神我	-10.7152
現相	-10.7157
既得	-10.7159
身口	-10.7162
意云	-10.7163
所須	-10.7163
大覺	-10.7169
巳盡	-10.7169
之際	-10.7169
墮於	-10.717
能詮	-10.7171
從初	-10.7178
頞	-10.7182
淨菩提心	-10.7183
圓鏡	-10.7186
榮	-10.7191
妄習	-10.7191
富那	-10.7195
無差別	-10.7196
二體	-10.7201
無過	-10.7205
複	-10.7206
中央	-10.7208
便得	-10.7209
總標	-10.721
之緣	-10.7211
入道場	-10.7213
非謂	-10.7213
虛空界	-10.7214
善能	-10.7216
相故	-10.7224
不退轉	-10.7226
所計	-10.7228
三重	-10.7231
安悉香	-10.7232
精研	-10.7235
十行	-10.7236
財物	-10.7237
谷	-10.7237
囉怛那	-10.7241
不絕	-10.7244
若誦	-10.7247
毛孔	-10.7249
㧊	-10.725
東南	-10.725
鉢底	-10.7252
十方虗空	-10.7253
與此	-10.7255
光照	-10.7256
齋戒	-10.7256
道者	-10.7258
鉢訥摩	-10.7263
如虛空	-10.7263
若汝	-10.7266
一切煩惱	-10.7267
羝	-10.727
髑髏	-10.7274
菩提薩埵	-10.7275
採	-10.7275
雄	-10.7278
文義	-10.728
龜	-10.7281
廟	-10.7281
道理	-10.7283
分為二	-10.7284
意生身	-10.7285
卍	-10.7285
閻浮	-10.7286
尾戍	-10.7288
不解	-10.7291
為義	-10.7292
廓	-10.7292
囉嚩	-10.7295
三事	-10.7295
位次	-10.7295
一切智智	-10.7296
來去	-10.7297
無染	-10.7297
種性	-10.7298
即彼	-10.7301
如斯	-10.7302
根中	-10.7303
之惑	-10.7303
住此	-10.7306
及彼	-10.7306
妄本	-10.7307
能發	-10.7313
陸	-10.7313
是等	-10.7314
其間	-10.7316
何物	-10.7317
無憂	-10.7326
皆應	-10.7327
徧滿	-10.7327
皆具	-10.7331
無滅	-10.7332
寤寐	-10.7334
入流亡所	-10.7335
黑暗	-10.7336
聰	-10.7337
一切如來心	-10.7339
汝今諦聽	-10.7342
針	-10.7346
迦攞	-10.7347
魔境	-10.7347
t	-10.7349
修禪	-10.7351
皆因	-10.7355
相捻	-10.7357
溪	-10.7357
孝	-10.7358
羯羅	-10.7359
甲冑	-10.7362
所顯	-10.7363
牢	-10.7363
漂	-10.7364
缾	-10.7365
那莫	-10.7365
華鬘	-10.7374
或時	-10.7375
生時	-10.7378
不停	-10.7385
恒河	-10.7386
摩醯首羅	-10.7387
樹下	-10.7388
寂滅現前	-10.7394
安布	-10.7395
皆名	-10.74
一如	-10.7401
妙湛	-10.7403
所立	-10.7404
請佛	-10.7406
鏡中	-10.7407
如今	-10.7409
見色	-10.741
能觀	-10.7411
渾	-10.7415
一物	-10.7416
亦須	-10.7419
性體	-10.742
若有善男子善女人	-10.7421
三細	-10.7421
圓湛	-10.7424
指前	-10.7426
不可見	-10.7427
台	-10.743
名大	-10.7431
塵相	-10.7433
厭離	-10.7433
帝那	-10.7444
得阿羅漢	-10.7451
經說	-10.7452
凡所	-10.7456
又法若	-10.7456
身有	-10.7458
安得	-10.746
二示	-10.746
明性	-10.7464
依止	-10.7471
法喻	-10.7476
地上	-10.7481
剌	-10.7481
嚴身	-10.7482
謂以	-10.7482
五行	-10.7483
之知	-10.7483
無量功德	-10.7483
療	-10.7486
為眾生	-10.7489
炬	-10.749
祥	-10.7492
勘	-10.7492
諸大眾	-10.7493
猶有	-10.7494
速得成就	-10.7502
皆如來藏	-10.7503
從來	-10.7506
麼囉	-10.7506
二正	-10.7513
之極	-10.7513
能持	-10.7516
相拄	-10.7516
旋復	-10.7526
有十	-10.7528
鎮	-10.7529
修三摩地	-10.7532
非物	-10.7534
初標	-10.7535
妄明	-10.7536
汦	-10.7539
聖凡	-10.7546
遠行	-10.7547
芻	-10.755
之謂	-10.755
如我所證	-10.7553
五重	-10.7559
首楞嚴王	-10.7565
清明	-10.7565
根身	-10.7565
隨其所	-10.7568
飢	-10.757
奏	-10.757
剋	-10.7571
受想	-10.7574
之過	-10.7574
燃	-10.7575
三十二相	-10.7579
陰魔	-10.758
有八	-10.7585
結顯	-10.7585
或得	-10.7586
一切人	-10.7587
食之	-10.7588
非非想	-10.759
觀自在菩薩摩訶薩	-10.759
又何	-10.7591
八大	-10.7593
前二	-10.7597
餘皆	-10.7598
此字	-10.7599
合離	-10.76
無覺	-10.7604
如其	-10.7608
涉入	-10.7612
死生	-10.7613
胎藏	-10.7613
營	-10.7616
如理	-10.7617
冤家	-10.7617
相即	-10.7618
鑛	-10.7621
隨類	-10.7623
囉迦	-10.7628
證菩提	-10.7631
諸緣	-10.7635
娑訶	-10.7635
心法	-10.7637
復入	-10.7639
眾人	-10.7643
纏縛	-10.7644
月輪中	-10.7646
佛菩提	-10.7649
遠近	-10.7649
諸善男子	-10.7651
業相	-10.7654
天像	-10.7655
駄	-10.7658
復為	-10.7658
之初	-10.766
絲	-10.7661
苦海	-10.7664
斡	-10.7664
能得	-10.7667
育	-10.7667
未來世	-10.7668
□□	-10.767
今說	-10.7672
是故阿難	-10.7673
岐路	-10.7676
既爾	-10.7682
是人罪畢	-10.769
印法	-10.7699
以一	-10.7703
惡鬼	-10.7705
作壇	-10.7706
菩薩眾	-10.7711
而不休息	-10.7713
斷見	-10.7715
微屈	-10.7715
娜麼	-10.7716
隳	-10.7717
藏心	-10.772
臨終	-10.7721
眾生心	-10.7721
即是如來	-10.7721
釤	-10.7722
浮根四塵	-10.7722
之辭	-10.7722
為一體	-10.7724
教授	-10.7724
真言行	-10.7725
真際	-10.773
r	-10.7738
大自在	-10.7739
識體	-10.7741
四肘	-10.7744
寶王	-10.7745
度眾生	-10.7747
十萬	-10.7747
令諸眾生	-10.775
叵	-10.775
祠	-10.7751
競	-10.7751
之報	-10.7755
隙	-10.7757
誐拏	-10.7764
轉輪	-10.7767
金剛手菩薩摩訶薩	-10.7768
五輪	-10.777
愛敬	-10.7771
姥	-10.7771
目連	-10.7774
㳷	-10.7776
鬼魅	-10.7778
諸障	-10.7779
是善男子	-10.7779
謨伽	-10.7781
猪	-10.7786
佛為	-10.7787
陀羅尼呪	-10.7794
聖智	-10.7795
殃	-10.7799
)􂢈	-10.78
釋曰	-10.7801
而知	-10.7801
明淨	-10.7804
菩薩等	-10.7806
不成就	-10.781
汝雖	-10.7811
友	-10.7812
聰明	-10.7817
4	-10.7824
俱空	-10.7827
即如來藏	-10.7827
這	-10.7831
即名	-10.7831
變滅	-10.7833
有聲	-10.7834
宇	-10.7836
〕〔	-10.784
表示	-10.7845
伹	-10.7846
總明	-10.7853
勝解	-10.7853
研究	-10.7857
有餘	-10.7859
相背	-10.786
為異	-10.7864
高下	-10.7864
因明立所	-10.7865
已後	-10.7866
耳聞	-10.7866
空處	-10.7872
脣	-10.7876
皆然	-10.788
大光明	-10.788
神鬼	-10.7885
區	-10.7885
其色	-10.7887
轉輪王	-10.7887
焦	-10.7887
呈	-10.7889
解釋	-10.789
分四	-10.7892
識也	-10.7892
奎	-10.7892
現世	-10.7896
明相	-10.7896
可解	-10.7897
三初	-10.7898
之狀	-10.79
入一切如來	-10.7902
不染	-10.7903
成其伴侶	-10.7905
執為	-10.791
本如來藏妙真如性	-10.7913
巖	-10.7913
無量壽	-10.7913
永離	-10.7914
曩野	-10.7917
𠸪乞义	-10.7917
所云	-10.7917
正當	-10.7918
世界眾生	-10.7919
白檀	-10.7923
練	-10.7927
將欲	-10.7929
不修	-10.7932
誦之	-10.7932
皆空	-10.7937
專注	-10.7937
定性	-10.7939
自利	-10.7939
各以	-10.7941
入聲	-10.7942
應時	-10.7944
入壇	-10.7944
不空王	-10.7946
婆伽梵	-10.7946
三摩地中	-10.7947
歸真	-10.795
而不能	-10.7951
無所依	-10.7953
畫作	-10.7956
八萬	-10.7956
妄識	-10.7958
席	-10.7961
十法界	-10.7961
持之	-10.7962
邑	-10.7963
酤	-10.7965
其文	-10.7966
幖幟	-10.7972
雅	-10.7976
莎嚩	-10.7977
薩哩斡	-10.7983
之主	-10.7986
之疑	-10.7993
所觸	-10.7994
恨拏	-10.8001
我執	-10.8001
妙蓮華	-10.8001
失其	-10.8001
疫	-10.8004
殺害	-10.8006
天主	-10.8006
有四種	-10.8007
整	-10.8007
如來所說	-10.801
城中	-10.8011
他物	-10.8017
即時如來	-10.8018
價	-10.8019
具云	-10.802
不祥	-10.8021
破和合	-10.8022
供具	-10.8023
放大光明	-10.8024
眉間	-10.8024
區宇	-10.803
偈曰	-10.8034
巳來	-10.8034
不肯	-10.8037
祖曰	-10.804
不徧	-10.804
有眾生	-10.8044
不爾	-10.8046
奉行	-10.8046
杓	-10.8051
大拇指	-10.8055
饑	-10.8057
并諸眷屬	-10.8058
以心	-10.8058
由心	-10.806
不屬	-10.8061
樂欲	-10.8062
尾曩	-10.8063
三科	-10.8065
舌識	-10.8066
我有	-10.8069
專心	-10.807
牛黃	-10.807
為之	-10.807
土木	-10.8071
何也	-10.8072
奇特	-10.8073
悉皆消滅	-10.8074
狂華	-10.8075
乳酪	-10.8076
涅哩	-10.8077
取捨	-10.8079
因何	-10.8081
永不	-10.8084
莊	-10.8087
桑	-10.8089
逝	-10.809
手足	-10.8094
船	-10.8096
旱	-10.8098
魍魎	-10.8102
此佛所說	-10.8105
執身	-10.8106
而反	-10.8107
挃	-10.8108
八方	-10.8109
此與	-10.8109
先當	-10.8109
內院	-10.8111
中夜	-10.8111
今謂	-10.8115
洎	-10.8117
又善男子	-10.8118
今於	-10.8121
得大自在	-10.8122
而求	-10.8123
但云	-10.8125
變異	-10.8128
恥	-10.8128
十二因緣	-10.8131
宗鏡	-10.8131
不曾	-10.8147
無限	-10.8147
童真	-10.8148
脉	-10.815
瑜	-10.8151
不兼	-10.8154
帝釋天	-10.8155
放逸	-10.8156
)。(􂨲	-10.8158
祐	-10.8161
醍醐	-10.8161
▁2	-10.8161
淨居	-10.8163
結加趺坐	-10.8165
而為上首	-10.8166
人非人等	-10.8168
觸塵	-10.8169
印可	-10.817
無所畏	-10.8175
二釋	-10.8176
其事	-10.8178
即從座起頂禮佛足而白佛言	-10.8178
妄覺	-10.8182
䭾野	-10.8183
儀則	-10.8184
大梵天王	-10.8185
此見精	-10.8191
踏	-10.8191
噁	-10.82
恭敬供養	-10.8204
乍	-10.8206
勉	-10.8206
然彼	-10.8208
倣	-10.821
𡆆	-10.821
志心	-10.8212
上句	-10.8214
無戲論	-10.8215
嚩日羅	-10.8219
世間一切	-10.8221
黑月	-10.8221
反下同	-10.8223
同聲	-10.8224
目佉	-10.8225
善男子善女人	-10.8226
第二月	-10.8228
c	-10.8229
斯義	-10.8232
方位	-10.8237
見妄	-10.8239
潛根	-10.8239
大勢至	-10.8239
亦即	-10.8242
下正	-10.8243
敷座說法	-10.8245
脾	-10.8246
知識	-10.8248
皆言	-10.8249
但言	-10.825
游	-10.8251
無有異	-10.8253
正因	-10.8267
融通	-10.8267
此由	-10.8271
又彼定中諸善男子	-10.8272
大日如來	-10.8275
四義	-10.8276
能觸	-10.8278
爍	-10.8281
圓根	-10.8281
荒	-10.8287
爾時世尊告	-10.8289
及一切	-10.8291
一切諸天	-10.8293
擎	-10.8293
悲愍	-10.8293
動念	-10.8294
上妙	-10.8295
諮	-10.8296
瞋怒	-10.8296
則與	-10.8297
有想	-10.8298
隨方	-10.83
山王	-10.83
懈怠	-10.8301
然燈	-10.8302
常隨	-10.8304
通指	-10.8304
粘	-10.8308
呪心	-10.8308
當為	-10.8317
如金剛	-10.832
前問	-10.8321
梟	-10.8323
一約	-10.8324
之一字	-10.8325
刑	-10.8326
大陀羅尼	-10.8328
之形	-10.8332
搵	-10.8337
般若波羅蜜多	-10.8339
大輪	-10.834
應身	-10.8341
以何為	-10.8342
此地	-10.8345
一行	-10.8349
身識	-10.835
僧祇	-10.8352
山曰	-10.8354
那由他	-10.836
熏修	-10.8366
所出	-10.8369
流布	-10.837
身印	-10.8371
七識	-10.8377
虎狼	-10.8378
舟	-10.8378
此事	-10.8379
隨業	-10.838
主宰	-10.838
循環	-10.8387
徧法界	-10.839
)。(􂨰	-10.8395
四天下	-10.8399
所覆	-10.841
成形	-10.8412
諸有為相	-10.8413
釋迦牟尼	-10.8416
八千遍	-10.8418
如下	-10.8431
貯	-10.8434
若謂此	-10.8437
通別	-10.8439
推之	-10.844
涯	-10.844
頑空	-10.8442
酒肉	-10.8445
無遮	-10.8448
㫊	-10.8449
密語曰	-10.8453
非無想	-10.8455
善現	-10.8457
福智	-10.8458
通名	-10.8465
常當	-10.8466
一千八	-10.8467
怛哩	-10.8468
有種種	-10.8469
無遺	-10.847
苑	-10.8471
慈力	-10.8471
相類	-10.8473
若知	-10.8475
所入	-10.848
種種莊嚴	-10.8482
能除一切	-10.8482
籌	-10.8484
雜染	-10.8485
所解	-10.8487
諸苦	-10.8488
無所見	-10.8491
受此	-10.85
聽聞	-10.8507
山中	-10.8509
以有	-10.8513
迦嚕	-10.8514
然亦	-10.8514
仁王	-10.8516
則應	-10.8517
厄	-10.8519
貞	-10.8521
其像	-10.8521
謹	-10.8526
巳知	-10.8527
紀	-10.8529
向前	-10.8529
宣示	-10.8531
手掌	-10.8533
樞	-10.8536
拔濟	-10.8537
墮地獄	-10.8537
涅槃云	-10.8538
智力	-10.8539
除去	-10.8542
遍身	-10.8543
座上	-10.8544
歇即菩提	-10.8547
陰入處界	-10.8549
學人	-10.8553
從無始來	-10.8554
先後	-10.8554
墮落	-10.8559
真際曰	-10.856
有分別	-10.8563
阿羅	-10.8563
三果	-10.8565
明白	-10.8566
食肉	-10.8569
冬	-10.8569
我是	-10.8573
外院	-10.8574
填	-10.8575
酥蜜	-10.8579
這一節經	-10.8581
閱	-10.8583
大劫	-10.8584
紇	-10.8585
煩惱障	-10.8589
如來應正等覺	-10.8589
婦人	-10.8592
本妙	-10.8592
六解一亡	-10.8595
解除	-10.8597
舉一	-10.8598
水陸	-10.8598
起首	-10.86
梁	-10.8604
怛姪他	-10.8606
以此為	-10.8606
我今說	-10.8609
故生	-10.8609
臘	-10.8609
祿	-10.8609
俱是	-10.861
周圓	-10.8612
執此	-10.8615
瘧	-10.8615
所斷	-10.8619
精勤	-10.8619
十年	-10.8622
二月	-10.8624
捷	-10.8624
從根	-10.8625
歸元	-10.8631
善業	-10.8631
泛	-10.8631
別名	-10.8635
雜色	-10.8636
身而為說法	-10.8637
恭	-10.8639
願力	-10.8641
外物	-10.8642
由此計度	-10.8647
ra	-10.8652
香臭	-10.8654
退散	-10.8667
二如來	-10.8667
西域	-10.8668
彌勒菩薩	-10.867
但見	-10.8671
苾芻	-10.8675
住在	-10.8675
萬德	-10.8677
侍者	-10.868
理趣	-10.868
此土	-10.8681
瞿曇	-10.8681
奉教	-10.8685
鄰虗	-10.8687
得菩提	-10.8691
之苦	-10.8696
摩摩	-10.8699
五句	-10.8702
明心	-10.8704
即一切法	-10.8704
大梵天	-10.8705
逃	-10.8709
天趣	-10.8709
徧知	-10.8709
鑪	-10.8712
真俗	-10.8713
因中	-10.8714
燭	-10.8716
本位	-10.8716
只是	-10.872
屹	-10.8722
波旬	-10.8722
分析	-10.8723
本無生滅	-10.8724
醜	-10.8726
復想	-10.8727
資糧	-10.873
▁六	-10.873
總攝	-10.8734
自行	-10.8736
𡁠	-10.874
渾濁	-10.874
為倒	-10.8741
未出	-10.8743
右手執	-10.8745
s	-10.8748
d	-10.8748
修此	-10.8749
何因	-10.875
三七	-10.8752
盡其	-10.8753
翻為	-10.8753
是故應知	-10.8755
緣影	-10.876
還復	-10.876
令眾生	-10.8765
正以	-10.8766
未嘗	-10.877
忉利天	-10.8771
牛糞	-10.8772
往詣	-10.8779
李	-10.878
慧命	-10.8784
無依	-10.8787
大阿羅漢	-10.8788
香嚴	-10.8788
相貌	-10.8792
誦三遍	-10.8793
豈知	-10.8794
正觀	-10.8797
餉	-10.88
摩囉	-10.88
境智	-10.8801
六者	-10.8801
數數	-10.8803
初總	-10.8803
畢竟無	-10.8803
等同	-10.8804
峰	-10.8805
窣覩	-10.8805
不以	-10.8806
娑婆世界	-10.881
仁者	-10.8816
純真	-10.8816
天等	-10.8816
疲	-10.8816
一偈	-10.8818
今為	-10.8819
二指	-10.8822
大聖	-10.8823
捐	-10.8827
)􂏖(	-10.8828
行願	-10.8829
一精明	-10.8834
金剛輪	-10.8834
謂從	-10.8837
狀如	-10.8839
那羅延天	-10.884
自作	-10.884
四科	-10.8842
家之	-10.8842
鬼王	-10.8843
自恣	-10.8843
此位	-10.8843
辣	-10.8844
名言	-10.8851
饒	-10.8853
六道眾生	-10.8853
釋云	-10.8853
晴	-10.8856
椀	-10.8857
秦	-10.886
葛哩	-10.8861
呪水	-10.8861
瓢	-10.8863
是諸佛	-10.8867
前五	-10.8867
兼二	-10.8868
能聞	-10.8869
拭	-10.8869
一相	-10.8871
心外	-10.8871
真言行者	-10.8871
軍荼利	-10.8877
奉持	-10.888
於一切法	-10.888
殺盜	-10.8883
妄為明覺	-10.8889
結此印	-10.8889
半加趺坐	-10.8889
是人墜入	-10.889
k	-10.8893
四臂	-10.8894
相待	-10.8894
鉢多	-10.8895
之教	-10.8895
陳那	-10.8895
報身	-10.8897
折囉	-10.8898
證明	-10.8899
忘失	-10.8901
三有	-10.8902
又言	-10.8903
釋迦牟尼如來	-10.8905
火性	-10.8905
地前	-10.8911
方廣	-10.8911
婢	-10.8912
慳	-10.8917
見惑	-10.8918
應供	-10.8923
光聚	-10.8923
諸外道	-10.8927
二風	-10.8929
無差	-10.8929
所受	-10.893
得少為足	-10.893
阿脩羅	-10.8934
離塵無體	-10.8935
瑟抳	-10.8935
生歡喜	-10.8938
之分	-10.8938
甲上	-10.894
若論	-10.8948
諸部	-10.8951
殊不知	-10.8954
雖曰	-10.8959
流入	-10.896
閇	-10.896
司	-10.8961
不昧	-10.8961
弄	-10.8966
真言門	-10.8967
煩惱根本	-10.8969
諸佛所	-10.8969
復作	-10.8973
訥瑟吒	-10.8973
及諸菩薩	-10.8976
相去	-10.8976
安心	-10.8976
淨穢	-10.8978
此理	-10.8978
答云	-10.8978
智度	-10.8979
六種震動	-10.8979
出其	-10.8979
􂢈	-10.898
四王	-10.8981
愛染	-10.8982
於頂上	-10.8986
大臣	-10.8988
極微	-10.8989
莫能	-10.899
根身器界	-10.8992
金石	-10.8993
賒	-10.9001
圓滿菩提	-10.9004
今觀	-10.9011
攝一切	-10.9013
諸佛世尊	-10.9018
乘此	-10.9019
略舉	-10.9019
金剛合掌	-10.902
室囉	-10.9021
怨敵	-10.9021
五住	-10.9021
曼陀羅	-10.9022
大金剛	-10.9023
三目	-10.9025
唯見	-10.9025
闡提	-10.9027
滿怛囉	-10.9029
想相	-10.9033
三昧耶印	-10.9033
復得	-10.9034
既以	-10.9036
江河	-10.9038
末二句	-10.9038
則曰	-10.9039
為是	-10.9042
不許	-10.9044
種智	-10.9047
嚩南	-10.9051
煉	-10.9052
見內	-10.9052
本覺妙明	-10.9053
妙真如性	-10.9053
一標	-10.9053
徵起	-10.9059
此因	-10.9062
皆須	-10.9063
千里	-10.9064
睡眠	-10.9064
及諸大眾	-10.9067
戟	-10.9067
初生	-10.9068
諱	-10.907
俾	-10.9071
溼	-10.9079
於大眾中	-10.9082
達哩	-10.9082
復能	-10.9082
破妄	-10.9088
積集	-10.9088
妙覺明心	-10.9091
▁三結	-10.9094
櫱帝	-10.9095
為最	-10.9097
悉令	-10.9101
▁一正	-10.9102
不空如來藏	-10.9104
本元	-10.9106
」【	-10.9107
菩薩真言曰	-10.9107
由汝	-10.9109
)。(○	-10.9112
過患	-10.9113
依之	-10.9113
提婆	-10.9114
全無	-10.9118
正修	-10.9118
之謂也	-10.9121
不免	-10.9122
嚩婆	-10.9123
誦七遍	-10.9125
性德	-10.9127
雙非	-10.9128
至等覺	-10.913
摶	-10.913
不說	-10.9133
不循	-10.9135
水天	-10.9139
蘇悉地	-10.9139
鈍根	-10.9141
下方	-10.9145
與之	-10.9147
妄情	-10.9147
戌	-10.9147
十指	-10.9148
異類	-10.9151
離見	-10.9152
右手持	-10.9154
惡星	-10.9156
通教	-10.9156
得便	-10.9159
一國	-10.9163
深心	-10.9164
因依	-10.9164
忿	-10.9165
迷本	-10.9168
為喻	-10.9168
結名	-10.9168
娜囉	-10.9175
不足	-10.9176
長跪	-10.9177
身語意	-10.9177
與眾生	-10.918
誦念	-10.9183
如前說	-10.9183
先見	-10.9184
當依	-10.9185
罪人	-10.9189
古德	-10.919
暗室	-10.9192
思議	-10.9195
外無	-10.9196
又三	-10.9197
易知	-10.9199
蓮華座	-10.9201
不能為害	-10.9201
種種色	-10.9203
在此	-10.9203
廣果	-10.9205
之塵	-10.9205
漿	-10.9206
用前	-10.9211
紇㗚	-10.9216
真智	-10.9216
輻	-10.9218
劑	-10.9221
次復	-10.9222
白月	-10.9224
詢	-10.9225
此界	-10.9225
吾今	-10.9227
未必	-10.9229
八字	-10.923
對境	-10.9231
徧圓	-10.9231
如空華	-10.9233
正行	-10.9234
十二類	-10.9234
正道	-10.9237
並竪	-10.9241
斯經	-10.9244
方名	-10.9246
永滅	-10.9246
三陰	-10.9246
清潔	-10.9247
二門	-10.9251
剎利	-10.9253
巨	-10.9253
初二句	-10.9254
絹	-10.9258
管	-10.9264
照了	-10.9264
四攝	-10.9281
所招	-10.9281
妙色	-10.9284
善心	-10.9287
生勝解者	-10.9287
左手持	-10.9289
呪七遍	-10.9291
離念	-10.9295
5	-10.9296
有形	-10.9297
大會	-10.9303
舉事	-10.9305
既銷	-10.9306
今復	-10.9307
盞	-10.9308
所疑	-10.9309
謂其	-10.9311
迦吒	-10.9326
額上	-10.9326
辟支	-10.9326
等無差別	-10.9327
右膝著地	-10.9327
千二百	-10.9327
捫	-10.9328
享	-10.9332
尾灑	-10.9334
事相	-10.9335
但為	-10.9338
名義	-10.9341
昴	-10.9342
滿馱	-10.9342
無量百千	-10.9348
違越	-10.935
日光	-10.935
乃可	-10.9354
个	-10.9356
所破	-10.9359
普賢行	-10.9359
見濁	-10.9363
呪一百八遍	-10.9364
蝕	-10.9368
胎生	-10.9372
不迷	-10.9375
恬	-10.9376
蹋	-10.9379
訶字	-10.9379
字義	-10.938
如世間	-10.9382
成立	-10.9385
以是義故	-10.9387
妙寶	-10.9388
可還	-10.9389
雖然	-10.9393
大梵	-10.9395
蘗	-10.9398
因迷	-10.9398
之明	-10.94
癹吒	-10.9401
世間出世間	-10.9402
必得	-10.9403
之法也	-10.9404
座下	-10.9407
亦不得	-10.9413
破無明	-10.9417
未知	-10.942
擣	-10.9422
東門	-10.9423
思之	-10.9429
如汝所言	-10.9431
真珠	-10.9431
性淨	-10.9434
娑曩	-10.9436
無想天	-10.9437
囉闍	-10.9442
諦理	-10.9444
設有	-10.9446
領納	-10.9447
旃	-10.9448
其數	-10.9449
為首	-10.9449
山林	-10.945
u	-10.945
堅執	-10.9453
勤修	-10.9454
癘	-10.9463
則不能	-10.9468
所對	-10.947
卵生	-10.9471
教令	-10.9473
下至	-10.9475
効	-10.9475
輝	-10.9476
智論云	-10.9477
其上	-10.9477
以表	-10.9478
惟是	-10.9482
末劫	-10.9483
成無上道	-10.9484
百字	-10.9484
而顯	-10.949
不能害	-10.949
宣揚	-10.9493
焚燒	-10.9494
先說	-10.9495
入三昧	-10.9495
步多	-10.9496
計我	-10.9499
未見	-10.9499
真言印	-10.95
其名曰	-10.9501
寧有方所	-10.9502
寅	-10.9504
謀	-10.9515
獻閼伽	-10.952
天仙	-10.9524
既知	-10.953
功力	-10.953
誐嚩帝	-10.9531
付囑	-10.9531
洞然	-10.9533
所有眾生	-10.9533
大教	-10.9534
諸弟子	-10.9539
佛法僧	-10.954
虛空藏菩薩	-10.9541
在大眾中	-10.9544
阿僧祇	-10.9545
猛利	-10.9552
言語	-10.9553
法用	-10.9554
等物	-10.9555
同業	-10.9556
盡無餘	-10.9561
隣虗	-10.9562
能令眾生	-10.9563
不安	-10.9565
此問	-10.9566
祕密法	-10.9566
肩	-10.9567
降魔	-10.9567
護世	-10.9567
四加行	-10.9571
非法	-10.9572
部主	-10.9573
市	-10.9573
行門	-10.9574
品中	-10.9576
作金剛拳	-10.9578
掣	-10.9581
諸罪	-10.9581
匠	-10.9581
又問	-10.9585
後世	-10.9588
共成	-10.9589
勤勇	-10.959
賀曩賀曩	-10.9591
增減	-10.9592
二十五聖	-10.9595
柯	-10.9595
七種	-10.96
時節	-10.9601
發化	-10.9603
修定	-10.9604
旃陀羅	-10.9606
此三種	-10.9608
苾	-10.9609
般涅槃	-10.961
然有	-10.9611
無優劣	-10.9623
炙	-10.9626
罵	-10.9629
商佉	-10.9632
壇內	-10.9636
由斯	-10.9636
生死涅槃	-10.9637
鳩槃茶	-10.9639
星宿	-10.9641
銷殞	-10.9643
阿耨	-10.965
諸佛所說	-10.9652
權小	-10.9653
斡資囉	-10.9656
無邊際	-10.9658
卜	-10.9663
五十五位	-10.9665
煩惱濁	-10.9666
普照	-10.9667
所著	-10.9668
八地	-10.967
驢	-10.9672
鬪	-10.9677
枝葉	-10.9677
是故十方一切如來	-10.9678
經行	-10.9686
揑	-10.9687
大精進	-10.9687
不亂	-10.9687
裹	-10.9691
世界中	-10.9691
燈光	-10.9694
亦不可得	-10.9694
有所得	-10.9699
能與	-10.9704
空觀	-10.9705
色受想	-10.9708
無同異	-10.971
斷常	-10.9711
萬億	-10.9712
喻之	-10.9714
次句	-10.9715
觀法	-10.9716
賀囉	-10.9716
自此	-10.9717
實智	-10.9723
五智	-10.9726
骨嚕	-10.9727
不相應	-10.9729
入圓通	-10.973
之聲	-10.973
鈎	-10.9731
醒	-10.9733
王言	-10.9737
候	-10.974
馳走	-10.9741
之覺	-10.9741
羯哩	-10.9745
問言	-10.9746
我聞	-10.9748
功夫	-10.975
矩嚕矩嚕	-10.9751
自是	-10.9751
千遍	-10.9752
一百二十	-10.9764
於道場	-10.9764
肯	-10.9767
卷中	-10.9768
拇指	-10.977
為涅槃	-10.9771
長老	-10.9771
化他	-10.9773
地神	-10.9773
皆當	-10.9778
馱野	-10.9779
佛智	-10.978
誅	-10.9787
皷	-10.979
𠯆	-10.9792
仇	-10.9795
緒	-10.9795
即離	-10.9795
䭾𩕳	-10.9805
無二無別	-10.9811
無上正等菩提	-10.9811
俱時	-10.9812
非和非合	-10.9817
積聚	-10.9818
底野	-10.9819
此非	-10.9825
颯	-10.9827
詳明	-10.9827
始得	-10.9835
姪	-10.9838
亦言自得無上涅槃	-10.9838
庭	-10.9841
總相	-10.9842
兆	-10.9846
一日一夜	-10.9846
悅意	-10.985
筋	-10.9851
相鉤	-10.9852
為第一	-10.9855
加以	-10.986
多人	-10.9861
見與見緣	-10.9866
手中	-10.9868
維摩	-10.9871
而如來藏	-10.9872
先破	-10.9873
華嚴云	-10.9874
求佛	-10.9875
相容	-10.9877
唯願世尊	-10.9882
嚴淨	-10.9883
尸羅	-10.9886
首楞嚴經	-10.9888
尾囉	-10.9895
諂	-10.9896
淨行	-10.9896
巳下	-10.9897
湛明	-10.9897
為妄	-10.9904
業力	-10.9908
淨名	-10.9908
執受	-10.9911
已來	-10.9912
求成就	-10.9913
大圓鏡智	-10.9914
見面	-10.9918
千歲	-10.9918
識精元明	-10.9918
內相叉	-10.9923
如文	-10.9924
以為其本	-10.9924
十方一切諸佛	-10.9926
本真	-10.993
化成	-10.9933
妙德	-10.9935
入涅槃	-10.9935
盈	-10.9935
中品	-10.9938
過於	-10.9939
由其	-10.9942
諸毒	-10.9943
義理	-10.9943
因緣和合	-10.9946
讚言	-10.9946
浮根	-10.9951
常行	-10.9952
在前	-10.9952
應是	-10.9954
精神	-10.9954
上畫	-10.9956
海印云	-10.9962
白傘蓋	-10.9963
惱害	-10.9966
五無間	-10.9966
則無所	-10.9967
乞史	-10.9969
四教	-10.9971
色法	-10.9974
淨居天	-10.9977
日中	-10.9982
少許	-10.9983
▁|□	-10.9984
無所著	-10.9984
唧多	-10.9985
6	-10.9985
憾麼	-10.9991
器世間	-10.9992
既曰	-10.9993
為翼從	-10.9996
非有想	-11.0006
具德	-11.001
諸煩惱	-11.0012
毒蛇	-11.0015
因有	-11.0018
大忿怒	-11.002
又二一	-11.0022
別明	-11.0023
刳	-11.0025
汝言	-11.0025
能摧	-11.0025
上座	-11.0033
這一節經世尊	-11.0035
紅色	-11.0035
儼	-11.0036
幢幡	-11.0038
六句	-11.0043
飛精附人	-11.0046
從前	-11.005
百寶	-11.0061
想陰盡	-11.0061
色等	-11.0062
拍	-11.0062
二障	-11.0062
餘根	-11.0063
咽	-11.0063
鐘聲	-11.0065
鬪諍	-11.0068
一塵	-11.0069
福慧	-11.0069
未到	-11.0069
略示	-11.0074
歟	-11.0075
超過	-11.0076
六字	-11.0078
萬劫	-11.008
神王	-11.0087
方知	-11.0091
親見	-11.0092
非我	-11.0092
娑普	-11.0093
觀世音菩薩摩訶薩	-11.0097
不無	-11.0097
資中云	-11.0101
囉曷	-11.0101
徧十方	-11.0105
壯	-11.0105
證此	-11.0107
四性	-11.011
起信云	-11.0111
之始	-11.0112
衛護	-11.0113
妄認	-11.0114
工	-11.0114
六趣	-11.0116
彼處	-11.0122
今之	-11.0124
宿債	-11.0126
麼努	-11.0126
之深	-11.0127
工夫	-11.0128
優婆夷	-11.0129
正在	-11.0132
富樓那言	-11.0133
措	-11.0136
毘沙門	-11.0137
大曼拏羅	-11.014
達麼	-11.014
端坐	-11.0146
遠離諸	-11.0147
如上說	-11.015
服之	-11.0151
無量眾生	-11.0151
雖云	-11.0152
娜野	-11.0152
異相	-11.0153
絕待	-11.0155
勝劣	-11.0156
法事	-11.0156
不也世尊	-11.0157
各隨	-11.0162
身子	-11.0164
邪思	-11.0166
醉	-11.0167
令知	-11.0167
塗地	-11.0174
深信	-11.0174
閒	-11.0174
茅	-11.0175
香湯	-11.0175
正遍知	-11.0182
悉馱	-11.0182
要知	-11.0189
所結	-11.0197
之空	-11.0197
即性	-11.0198
聞說	-11.0201
靡不	-11.0201
世間人	-11.0202
覺緣	-11.0208
三惑	-11.0213
摩訶薩埵	-11.0217
皆來	-11.0219
上節	-11.022
櫱底	-11.022
村	-11.022
慰	-11.0224
諭	-11.0227
若了	-11.0228
五月	-11.0229
剩	-11.0232
驅使	-11.0234
音樂	-11.0235
如火	-11.0236
何能	-11.024
嗅	-11.0245
)􂉄(	-11.0246
而說偈言	-11.0247
唯除	-11.0247
見相二分	-11.0247
善神	-11.025
四大天王	-11.025
所指	-11.0251
各各有	-11.0252
堅牢	-11.0256
前說	-11.0261
五佛	-11.0262
蓮華上	-11.0263
但取	-11.0263
眾生顛倒	-11.0264
菩提樹	-11.0267
窒	-11.027
今當	-11.027
一切大眾	-11.0272
眾生濁	-11.0273
三摩曳	-11.0284
納受	-11.0286
誦一遍	-11.0287
躬	-11.0289
招引惡果	-11.0289
那野	-11.0291
京	-11.0292
〕-【	-11.0294
娑摩	-11.0295
為根本	-11.0295
忍辱	-11.0296
隸	-11.0299
所獲	-11.0302
轉成	-11.0303
淪溺	-11.0303
因陀羅	-11.0307
不違	-11.031
婬心	-11.0317
以二大指	-11.0317
鼻識	-11.0319
虛空中	-11.0324
燒之	-11.0325
外分	-11.0326
嚩字	-11.0328
初又二一	-11.0329
徙	-11.033
那羅延	-11.0331
流水	-11.0333
渠	-11.0334
斬	-11.0335
髀	-11.0338
非合	-11.0338
涌	-11.0338
月八日	-11.034
絞	-11.034
層	-11.0341
捺哩	-11.0341
若欲成就	-11.0345
亦成	-11.0345
本末	-11.0349
海會	-11.035
風大	-11.0353
若爾	-11.0353
炤	-11.0356
曩麼	-11.0357
隨有	-11.0358
青黃赤白	-11.0359
豈得	-11.036
且約	-11.0361
應須	-11.0364
擾亂	-11.0365
賴耶	-11.037
離相	-11.037
此法門	-11.0377
魔軍	-11.0377
習漏	-11.0383
更說	-11.0384
主空	-11.0386
悶	-11.0389
替	-11.039
龍女	-11.0392
華果	-11.0393
如鉤	-11.0393
燒安悉香	-11.0395
無始來	-11.0399
策	-11.04
行婬	-11.0401
當知是人	-11.0404
瞬	-11.0405
倪也	-11.0405
暉	-11.0406
受教	-11.0408
此類	-11.0409
適悅	-11.0416
富單那	-11.042
唯以	-11.0421
義利	-11.0424
未聞	-11.0425
淨信	-11.044
形體	-11.0441
十因	-11.0441
𡀔	-11.0443
棄捨	-11.0443
滅度	-11.0444
話	-11.0447
筏	-11.0448
上方	-11.0449
次破	-11.0452
何法	-11.0454
誦前	-11.0454
楚	-11.0459
搏	-11.046
寢	-11.0464
秉	-11.0467
曠野	-11.0468
▁△	-11.0471
解孤山曰	-11.0473
這一節經承前	-11.0474
實語	-11.0475
娑囉娑囉	-11.0481
性真圓融	-11.0488
果海	-11.0489
7	-11.0489
垂手	-11.0492
轉依	-11.0493
現證	-11.0493
無對	-11.0497
果地	-11.05
花香	-11.05
智光	-11.0501
誦真言曰	-11.0512
內分	-11.0514
著地	-11.0517
常寂	-11.0517
㝹	-11.0518
是故如來	-11.0519
鬱	-11.0519
籍	-11.052
若悟	-11.0521
使其	-11.0523
惡魔	-11.0524
綺	-11.0524
臟	-11.0524
眾苦	-11.0527
生善	-11.0528
魑魅	-11.0528
芽	-11.0531
轉大法輪	-11.0534
多體	-11.055
攞野	-11.0551
縱廣	-11.0552
之氣	-11.0552
高聲	-11.0557
念珠	-11.0567
曹	-11.0569
洒	-11.0569
桃	-11.0572
隨念	-11.0572
聲呼	-11.0576
已說	-11.0578
旗	-11.0579
贍部洲	-11.0583
部母	-11.0583
僊	-11.0583
左曩	-11.0586
)。(􂨯	-11.0586
拔苦	-11.0588
雄黃	-11.0588
能變	-11.0589
妄因	-11.059
如針	-11.0591
無殊	-11.0595
演若達多	-11.0596
晦昧	-11.0598
落叉	-11.0598
得安樂	-11.06
本不生故	-11.06
癹	-11.0602
白檀香	-11.0604
夢想	-11.0605
曼拏羅印三昧耶	-11.0605
當須	-11.0606
身外	-11.0607
修持	-11.0607
合掌頂禮	-11.061
到此	-11.0612
幽暗	-11.0612
各具	-11.0614
所知障	-11.0615
廣破	-11.0619
舜	-11.0623
奢摩他中	-11.0623
忌	-11.0624
二別示	-11.0624
力用	-11.0625
那律	-11.0625
又能	-11.0626
罐	-11.0627
沸	-11.0627
東北	-11.063
稻穀	-11.0632
陀羅尼法	-11.0633
埋	-11.0633
滴	-11.0635
隆	-11.0635
聞根	-11.0639
喻明	-11.064
止息	-11.0641
心光	-11.0645
品云	-11.0646
倫次	-11.0647
暗相	-11.065
背涅槃城	-11.065
十字	-11.0653
肉身	-11.0653
緣塵分別	-11.0655
妄有	-11.0656
又以此心	-11.0656
畢已	-11.0658
次作	-11.0659
自應	-11.066
補註曰	-11.0661
文句	-11.0667
攝伏	-11.0668
面門	-11.0669
柘	-11.0671
三處都無	-11.0673
佛言如是	-11.0674
互融	-11.0674
治地	-11.0674
宰	-11.0675
遞	-11.0677
反觀	-11.0677
􂏩	-11.068
吽發吒	-11.0683
限量	-11.0689
迦字	-11.0696
鑽	-11.0696
迫	-11.0696
飲酒	-11.0697
常樂	-11.0699
先作	-11.0703
頻那夜迦	-11.0703
必先	-11.0704
百歲	-11.0706
㡧	-11.0709
之子	-11.071
學道	-11.071
師子吼	-11.071
審觀	-11.0711
奉詔譯	-11.0714
持真言者	-11.0714
於生死	-11.0715
不翻	-11.0715
圓覺云	-11.0718
長養	-11.0718
不雜	-11.0722
圓證	-11.0724
欲說	-11.0725
悟則無咎	-11.0726
異熟	-11.0726
便能	-11.073
鬼趣	-11.0736
佛種	-11.0736
根識	-11.0746
插	-11.0746
偃	-11.075
輒	-11.0753
植	-11.0753
崖	-11.0755
油麻	-11.0757
妙香	-11.0758
瞿摩夷	-11.0759
為一切眾生	-11.0759
從緣生	-11.076
呪詛	-11.0761
果位	-11.0761
難得	-11.0761
瑟拏	-11.0764
播捨	-11.077
𠆙	-11.077
更加	-11.077
百遍	-11.077
圓通本根	-11.0776
唐言	-11.0776
照耀	-11.0777
殊妙	-11.0778
命濁	-11.0778
妄緣	-11.0778
面向東	-11.0781
何者為	-11.0782
亦不可	-11.0786
一洛叉	-11.0788
一真法界	-11.0788
外塵	-11.0788
大意	-11.0791
故稱為	-11.0791
天龍藥叉	-11.0792
東西	-11.0794
訖唎擔	-11.0797
兮	-11.0798
聞香	-11.08
隨機	-11.0803
庸	-11.0804
毗陀夜闍瞋陀夜彌	-11.0811
作業	-11.0814
座主	-11.0818
散華	-11.082
意顯	-11.0823
摩那	-11.0824
秪是	-11.0825
一境	-11.0825
講堂	-11.0829
若干	-11.0829
定性聲聞	-11.083
奢摩他路	-11.084
h	-11.0841
三摩地智	-11.0852
一切種智	-11.0855
如是之人	-11.0861
茂	-11.0861
抵	-11.0861
十惡	-11.0862
不見有	-11.0864
肝	-11.0869
以此印	-11.087
光中	-11.0872
三昧印	-11.0873
輙	-11.0874
滿多沒馱	-11.0874
誕	-11.0876
愛念	-11.0877
長生	-11.0877
暖	-11.0877
檀越	-11.0881
次想	-11.0881
二諦	-11.0883
六凡	-11.0884
彼岸	-11.0885
願我	-11.0887
族姓	-11.0888
妙莊嚴	-11.0892
了了	-11.0893
亦兼	-11.0894
兩頭	-11.0895
親證	-11.0904
無病	-11.0906
滅罪	-11.0907
灑淨	-11.0909
能轉	-11.091
宛轉	-11.091
彩	-11.0917
非和	-11.0917
全身	-11.0919
寂光	-11.092
復云何	-11.0921
三月	-11.0921
上科	-11.0921
法忍	-11.0924
個	-11.0925
古今	-11.0925
闡	-11.0931
洪	-11.0936
眾緣	-11.0938
風吹	-11.0938
不落	-11.0943
一尺	-11.0944
不散	-11.0946
毗婆舍那	-11.095
五股	-11.095
雖在	-11.0956
唯心所現	-11.0958
不變隨緣	-11.0964
焰摩	-11.0965
二肘	-11.0965
氣分	-11.0966
囇	-11.097
極惡	-11.0973
牛乳	-11.0973
摩登	-11.0982
是陀羅尼	-11.0984
跢姪他	-11.099
諸菩薩等	-11.099
暴流	-11.0992
津	-11.0995
一切事業	-11.0995
言音	-11.0996
痴	-11.0996
三種相續	-11.0997
祖師	-11.0998
實義	-11.0999
勑	-11.1003
群生	-11.1005
目犍連	-11.1006
正等覺	-11.1008
唯改	-11.1012
甜苦	-11.1013
別破	-11.1013
又善男子窮諸行空	-11.1014
翻譯	-11.1022
輕舉	-11.1033
五眼	-11.1034
一切佛法	-11.1036
別示	-11.1038
珂	-11.1038
相狀	-11.1047
普通	-11.1047
賣	-11.1047
慈氏	-11.1048
領悟	-11.1051
研窮	-11.1053
印呪曰	-11.1056
有為法	-11.1058
摸	-11.1059
結集	-11.106
肉眼	-11.1061
畢竟空	-11.1061
玅明	-11.1062
一切罪障	-11.1066
諸鬼	-11.1067
鎔	-11.1069
明鏡	-11.107
俱無處所	-11.1075
洗滌	-11.1075
一門深入	-11.1076
寶莊嚴	-11.1076
明呪	-11.1078
精見	-11.1079
辟	-11.1079
過去世	-11.1082
進退	-11.1083
縛囉	-11.1085
雖是	-11.1086
意欲	-11.1088
久住	-11.1091
清涼云	-11.1098
十方眾生	-11.1101
尾捨	-11.1102
如來密因	-11.1106
自性清淨	-11.1108
如實知	-11.1112
慚愧	-11.1113
澡	-11.1113
貪著	-11.1114
妄境	-11.1117
俱現	-11.1117
熱病	-11.1117
全性	-11.1119
所示	-11.1119
影事	-11.1122
神仙	-11.1123
股	-11.1123
六波羅蜜	-11.1124
爽	-11.1124
壅	-11.1127
從本	-11.113
𠻴	-11.1133
於像前	-11.1134
其類	-11.1134
儞哩	-11.1135
娑頗	-11.1139
進趣	-11.1139
于時	-11.114
戒定慧	-11.1145
大地獄	-11.1148
我所說	-11.1152
粥	-11.1154
鄧	-11.1154
殺生	-11.1156
埵	-11.1157
三摩野	-11.1158
隋	-11.1159
月在	-11.1165
西南	-11.1167
無實體	-11.1169
吽泮吒	-11.1171
靂	-11.1171
總徵	-11.1172
微密	-11.1173
費	-11.1175
歡	-11.1176
又法取	-11.1178
寔	-11.1178
槩	-11.1179
迦葉波	-11.118
勢至	-11.1181
刀杖	-11.1181
勃陀	-11.1182
其手印相	-11.1182
淵	-11.1184
如世	-11.1185
那羅	-11.1185
福田	-11.1187
如教	-11.1187
􂉗	-11.1188
呪術	-11.1189
誐嚩底	-11.119
色陰盡	-11.119
善友	-11.1192
之體也	-11.1198
六天	-11.1199
附人	-11.1199
覩嚕覩嚕	-11.1206
佛境界	-11.1212
文殊師利菩薩	-11.1212
即名為	-11.1213
能見之	-11.1215
下釋	-11.1217
菩提之心	-11.1219
牒上	-11.1222
為拳	-11.1222
大智慧	-11.1224
大蓮華	-11.1224
首楞	-11.1229
釧	-11.1231
應畫	-11.1232
鉢娜麼	-11.1233
何須	-11.1237
跋陀	-11.1237
苗稼	-11.124
俟	-11.124
如第二月	-11.1241
藏教	-11.1241
三結示	-11.1242
遍法界	-11.1243
當住	-11.1247
愍念	-11.1248
熙怡	-11.1254
納婆	-11.1255
功行	-11.1255
六根互用	-11.1259
誐挽	-11.1262
質礙	-11.1262
誠心	-11.1265
尾儞	-11.1265
而為供養	-11.1267
隨緣不變	-11.1267
亦隨	-11.1269
未曾有	-11.1271
照曜	-11.1272
俱舍云	-11.1276
傳法	-11.1276
龍神	-11.1277
又取	-11.1288
色聲	-11.1295
怕	-11.1296
屠	-11.1297
鄉	-11.1299
鋒	-11.13
閣	-11.13
郭	-11.13
傘蓋	-11.1301
殞	-11.1301
龍樹	-11.1302
我某甲	-11.1303
瓦礫	-11.1308
嚩囉拏	-11.1309
分真	-11.131
銷除	-11.1316
妄謂	-11.1316
那含	-11.1318
命根	-11.1319
嘮	-11.1323
穆佉	-11.1331
真明	-11.1334
圓修	-11.1335
下正明	-11.1338
羅睺	-11.1338
仡哩	-11.1338
變起	-11.1341
現形	-11.1342
風性	-11.1346
開顯	-11.1346
瑟致	-11.1348
妻子	-11.135
施與	-11.1352
眾德	-11.1353
闥	-11.1354
不堪	-11.1355
超出	-11.1357
含藏	-11.1358
現境	-11.136
崩	-11.136
三途	-11.1362
規	-11.1362
柏	-11.1364
月一日	-11.1365
飄	-11.1366
宴	-11.1367
操	-11.1369
藥叉大將	-11.137
瘴	-11.137
融室云	-11.1375
舜若多	-11.1377
亦復然	-11.138
五品	-11.1385
紫金	-11.1387
善逝	-11.1388
囒	-11.1392
初學	-11.1393
鬼等	-11.1395
救度	-11.1395
若患	-11.1395
先世	-11.1403
心陁羅尼	-11.1405
𠺁	-11.1415
算	-11.1419
捨麼	-11.142
叱	-11.1421
兄	-11.1421
結歸	-11.1422
於三界	-11.1422
布惹	-11.1426
膚	-11.1431
修禪定	-11.1437
圓理	-11.1438
但由	-11.1438
三面	-11.1439
色究竟天	-11.1441
聞思修	-11.1444
娑多	-11.1446
巳破	-11.1448
法華云	-11.1455
無是見	-11.1455
劫數	-11.1456
同分妄見	-11.1459
囉他	-11.146
大雲	-11.146
作麼生	-11.1471
汝問	-11.1472
剃	-11.1475
不移	-11.1475
入無間獄	-11.1477
腫	-11.1478
唐云	-11.1478
啞吽	-11.1479
福聚	-11.148
封	-11.1482
縱令	-11.1483
返觀	-11.1489
夜叉羅剎	-11.1493
責其	-11.1496
得成菩提	-11.1497
足下	-11.1499
有佛出世	-11.1504
善知	-11.1506
挍	-11.1507
切身	-11.1513
準提	-11.1515
當取	-11.1515
何關汝入	-11.1518
百八	-11.1519
本誓	-11.152
va	-11.1521
未明	-11.1524
黃金	-11.1529
詩	-11.1537
最上乘	-11.1539
又法欲	-11.1539
四卷	-11.154
若據	-11.1541
指出	-11.1541
果德	-11.1542
聞佛所說	-11.1542
是文殊	-11.1543
結責	-11.1546
循聲	-11.1547
􂏔	-11.1548
目契	-11.1549
玅覺	-11.1549
利生	-11.155
困	-11.1553
築	-11.1555
效	-11.1555
菜	-11.1557
磔	-11.1559
棘	-11.1559
囉怛	-11.1559
零	-11.1565
豁然	-11.1572
忿怒王	-11.1573
故下文云	-11.1576
故以為名	-11.1576
阿那含	-11.1577
得度	-11.1578
婦女	-11.1579
婬女	-11.1581
得除滅	-11.1582
遍一切	-11.1583
難勝	-11.1588
名大佛頂	-11.1588
十四無畏	-11.159
毘羅	-11.159
別業妄見	-11.1591
毛端	-11.1592
六麤	-11.16
承前	-11.1602
嗣	-11.1614
無失	-11.1616
兩邊	-11.1618
景	-11.1618
囉娑	-11.1619
蠱毒	-11.162
根塵識三	-11.1622
躭	-11.1625
奮	-11.1625
終日	-11.1628
濘	-11.1628
眾生世界	-11.1632
不殺	-11.1634
聖教	-11.164
間錯	-11.164
八臂	-11.1645
山頂	-11.1645
惑菩提性	-11.1646
變壞	-11.1649
緫	-11.1649
耻	-11.1651
反下同音	-11.1654
舍那	-11.1655
精靈	-11.1657
勤苦	-11.1662
二阿難下	-11.1663
了不可得	-11.1666
娜謨	-11.1672
利益眾生	-11.1673
禮敬	-11.1673
通用	-11.1676
跏	-11.1679
肢	-11.1679
睛	-11.1679
暇	-11.1681
毒害	-11.1685
妄起	-11.1688
出過	-11.1691
除蓋障	-11.1692
南門	-11.1693
在身內	-11.1693
金剛密迹	-11.1695
百千萬億	-11.1698
稱性	-11.1698
內對	-11.17
解脫門	-11.17
》	-11.1701
多羅菩薩	-11.1701
增上慢	-11.1703
香鑪	-11.1704
在其中	-11.1705
仰掌	-11.1705
相織妄成	-11.1706
安立道場	-11.1708
於其中間	-11.1708
大德	-11.171
又汝所明	-11.171
跋捺囉	-11.1713
如蓮華	-11.1713
晴空	-11.1714
意樂	-11.1718
八難	-11.1718
一段	-11.1719
施食	-11.172
除障	-11.1723
大神通	-11.1723
莎賀	-11.1723
返聞	-11.1725
阿閦	-11.1728
必有所	-11.1728
日用	-11.1737
母捺囉	-11.1738
斤	-11.1738
一切菩薩摩訶薩	-11.1739
結護	-11.1742
狼	-11.1742
傍生	-11.1742
撰	-11.1746
踐	-11.1747
文四	-11.1748
直下	-11.1748
實報	-11.1748
欝	-11.1749
惑亂	-11.1749
金翅鳥	-11.1751
鄰	-11.1753
促	-11.1754
荊	-11.1754
百千俱胝	-11.1755
有頂	-11.1757
佇	-11.1759
貪瞋癡	-11.1762
奮迅	-11.1766
十類	-11.1766
性真	-11.1767
徃	-11.1769
值佛	-11.1771
毒氣	-11.1774
大海水	-11.1776
二手合掌	-11.1777
佛乘	-11.1787
何必	-11.1796
圓悟	-11.1799
塵剎	-11.1801
因鑿	-11.1803
蛔	-11.1805
一切功德	-11.1806
燄	-11.1808
供養已	-11.1809
穌	-11.181
細惑	-11.1813
太虗	-11.1814
窺	-11.1816
難可	-11.1819
退失	-11.1821
貝	-11.1822
韈	-11.1826
象馬	-11.1826
復有無量	-11.1826
三如來藏	-11.1828
百千萬	-11.1828
深密	-11.1832
􂢄	-11.1832
死後有相	-11.1833
奉送	-11.1833
惟識	-11.1833
跏趺	-11.1845
一千遍	-11.1846
子曰	-11.1846
皆大歡喜	-11.1846
不犯	-11.1848
世尊大毘盧遮那如來	-11.1852
當念	-11.1861
呼召	-11.1861
口說經法	-11.1863
盡皆	-11.1869
真月	-11.187
樹木	-11.1879
波斯匿王	-11.1884
脈	-11.1884
降臨	-11.1885
寶華	-11.189
倐	-11.1891
依舊	-11.1893
妙智	-11.1898
六根清淨	-11.1907
交蘆	-11.1908
彼善男子	-11.1908
清淨本然周徧法界	-11.1908
自餘	-11.1909
作是語巳	-11.191
周遍法界	-11.1911
楞嚴大定	-11.1911
正智	-11.1914
未發	-11.1915
滿盛	-11.1915
施主	-11.1918
難陀龍王	-11.1918
雖殊	-11.1921
持呪者	-11.1922
淨治	-11.1929
身境	-11.1932
林木	-11.1934
總示	-11.1934
篇	-11.1937
燥	-11.1938
准上	-11.1942
婀	-11.1946
亦無所	-11.1948
種種變化	-11.1948
歌詠	-11.1949
勤求	-11.1951
域	-11.1952
所悟	-11.1955
修治	-11.1957
梵字	-11.1958
勝義根	-11.1961
利養	-11.1969
獲益	-11.1969
令一切眾生	-11.1974
阿鉢囉	-11.1974
當從淪墜	-11.1981
整衣	-11.1985
諸功德	-11.1991
希求	-11.1991
首陀	-11.1994
三輪	-11.1995
薄伽	-11.2001
王難	-11.2003
理體	-11.2004
一手執	-11.2005
與暗	-11.2009
軟	-11.2011
械	-11.2013
頂上散	-11.2013
受陰盡	-11.2016
但約	-11.202
顯然	-11.2021
緩	-11.2022
抽	-11.2022
簸	-11.2023
臨命終時	-11.2024
麤重	-11.2025
詶	-11.2026
何等為	-11.2027
助道	-11.2034
更非他物	-11.2035
潔淨	-11.2039
婬習	-11.2043
)􂛶	-11.2044
底迦	-11.2045
青蓮華	-11.2046
遞相	-11.2053
會解	-11.2055
麤細	-11.2056
認為	-11.2056
二種根本	-11.2058
陰界	-11.206
本根	-11.2063
頭痛	-11.2066
五部	-11.2069
必當	-11.207
寶山	-11.2072
各自	-11.2075
猶存	-11.2076
白蓮華	-11.2076
盲人	-11.2078
真金	-11.208
枷鎖	-11.208
塊	-11.208
嚼	-11.208
能造	-11.2083
姑	-11.2083
每日三時	-11.2083
次誦	-11.2087
暢	-11.2088
厥	-11.2088
函	-11.209
威猛	-11.2091
撥無因果	-11.2097
長短	-11.2097
苦集	-11.2101
於自心	-11.2102
愚鈍	-11.2102
摧碎	-11.2103
巳滅生滅	-11.2106
當為汝說	-11.2111
迷惑不知墮無間獄	-11.2113
播囉	-11.2116
令他	-11.2123
明暗等	-11.2126
想自身	-11.2127
道路	-11.2127
濕吠	-11.2128
從空生	-11.2132
燈見	-11.2135
㡧像	-11.2136
殷	-11.2139
破妄心	-11.2141
鶴	-11.2145
臭穢	-11.2147
陣	-11.215
尚不能	-11.215
藥王	-11.2153
難思	-11.2153
劒播	-11.2155
十卷	-11.2155
掌內	-11.2156
湛圓	-11.2163
嚩迦	-11.2165
妙門	-11.2169
入其心腑	-11.2169
開解	-11.2173
惡夢	-11.2175
沒地	-11.2179
復誦	-11.2183
皆是識心分別計度	-11.2186
制止	-11.2186
􂗶	-11.2186
非有色	-11.219
不遭邪慮	-11.2195
取證	-11.22
二百五十	-11.22
阿波	-11.2201
滅盡定	-11.2203
正釋	-11.2205
無所有處	-11.2205
鉗	-11.2206
次二句	-11.2206
忿怒明王	-11.221
腎	-11.221
根塵識	-11.221
屹哩	-11.2211
溫	-11.2212
塗身	-11.2214
廣大供養	-11.2216
徵心	-11.2217
不宜	-11.2219
鐸	-11.222
玩	-11.2222
頂王	-11.2222
智照	-11.2222
日月燈	-11.2224
蓮花部	-11.2225
以二頭指	-11.2226
嫉妬	-11.2227
本源	-11.2231
能推	-11.2232
分為三	-11.2234
受戒	-11.2241
詰其	-11.2241
終而復始	-11.2241
推窮	-11.2246
三藐三	-11.2246
出現於世	-11.2248
具足萬行	-11.2249
呪王	-11.2253
口中好言	-11.2265
審詳	-11.2268
會眾	-11.2272
猶在	-11.2275
一期	-11.2276
例知	-11.2278
摩醯首羅天	-11.2278
何藉	-11.2278
要須	-11.2278
鞭	-11.2282
殑	-11.2283
未詳	-11.2284
眾聖	-11.2287
之源	-11.2292
夢見	-11.2292
亡者神識	-11.2292
不勞	-11.2293
薦	-11.2293
之所以	-11.2293
添	-11.2295
亦復不	-11.2298
經所說	-11.2299
發明二相	-11.2301
毒蟲	-11.2303
清淨明誨	-11.2303
速成	-11.2306
火聚	-11.2306
想盡	-11.2309
圓元	-11.231
佛告下	-11.2311
愛見	-11.2312
正指	-11.2314
賛捺	-11.2318
失於正受	-11.2321
]	-11.2322
祕密藏	-11.2323
見眚	-11.2323
喚作	-11.2327
無數劫	-11.233
反顯	-11.233
遂有	-11.2331
如是循環	-11.2336
佛出世	-11.2336
次畫	-11.2342
犁	-11.2344
陀隣尼	-11.2348
徐	-11.2349
生信	-11.2349
北門	-11.2354
旛	-11.2355
扇底迦	-11.2357
創	-11.2358
真我	-11.236
婆伽	-11.2363
西北方	-11.2366
救世	-11.2367
廣行	-11.2372
憎愛	-11.2372
降雨	-11.2375
大悲胎藏	-11.2375
三品	-11.2377
揀擇	-11.2378
在虗空	-11.2378
違背	-11.2378
魔羅	-11.2379
黃土	-11.238
於掌中	-11.2382
復何	-11.2383
華屋	-11.2384
魔不得便	-11.2384
窮生類本	-11.2385
奇哉	-11.239
魔業	-11.2395
十度	-11.2398
大麥	-11.2401
三摩地門	-11.2401
捨野	-11.2402
瀑流	-11.2405
正宗	-11.2405
浮塵根	-11.2409
勿生	-11.241
得福	-11.2411
指陳	-11.2414
法相應	-11.242
持犯	-11.242
坎	-11.2423
渡	-11.2424
鄙	-11.2426
攻	-11.2431
爐中	-11.2433
慇懃	-11.2434
六臂	-11.2436
老死	-11.2437
ma	-11.2438
無煩	-11.244
安然	-11.2441
心眼	-11.2442
沇	-11.2443
龜毛兔角	-11.2444
嚩曩	-11.2445
散花	-11.2446
末句	-11.2447
法華經	-11.2447
失於正受當從淪墜	-11.2448
用心交互	-11.2448
保持	-11.2449
曩莫塞訖	-11.2452
目睛	-11.2452
白拂	-11.2452
面東	-11.2454
阿僧祇劫	-11.2455
尊貴	-11.2458
念念生滅	-11.2466
梁言	-11.2467
恁麼	-11.2484
夜弭	-11.2486
憶忘	-11.2488
盧舍那	-11.2493
𤙖𤙖	-11.2494
▁二正	-11.2494
遽	-11.2496
忿怒相	-11.2496
蟻	-11.2498
鑄	-11.2499
輕呼	-11.2499
諸聖眾	-11.25
鬚	-11.25
逗	-11.2505
顯見性	-11.2507
生死相續	-11.2509
霽	-11.251
性海	-11.2513
東西南北	-11.2513
湛不搖	-11.2515
大毘盧遮那	-11.2515
持明仙	-11.2516
楞嚴經	-11.2516
利益安樂	-11.2522
願垂	-11.2523
同是菩提瞪發勞相	-11.2524
散動	-11.2525
p	-11.2528
七信	-11.253
能壞	-11.2534
中流出	-11.2541
木佉跛哩嚩	-11.2542
藥叉女	-11.2542
八百遍	-11.2545
夫人	-11.2548
淨衣	-11.2548
窣	-11.255
撲	-11.2551
皎	-11.2552
終始	-11.2559
於一一	-11.256
丑	-11.256
竿	-11.2566
銷亡	-11.2566
羞	-11.2567
脇	-11.2572
譽	-11.2572
薩羅	-11.2574
認賊為子	-11.2574
界道	-11.2574
拏嚩日囉	-11.2576
夜叉女	-11.258
柰	-11.2581
面前	-11.2582
底瑟吒	-11.2583
世第一	-11.2584
携李	-11.2586
於一切時	-11.2591
窮未來際	-11.2591
谷響云	-11.2592
生計度者	-11.2598
至于	-11.26
八千	-11.2605
有二意	-11.2608
為復因	-11.2608
種種方便	-11.2612
同共	-11.2614
生長	-11.2616
嗚呼	-11.2618
十方國土	-11.2626
王宮	-11.2628
疫病	-11.2628
不到	-11.2628
人趣	-11.2633
庚	-11.2636
五色線	-11.264
我昔	-11.2641
怛那	-11.2644
千萬	-11.2649
三際	-11.265
結勸	-11.2651
魅鬼	-11.2652
佛法中	-11.2653
歷然	-11.2667
見見非見	-11.2669
▁svāhā	-11.2671
滿願	-11.2672
如前所說	-11.2678
慧眼	-11.2681
火中燒	-11.2682
伽藍	-11.2683
青蓮	-11.2691
岳	-11.2691
久遠	-11.2693
月十五日	-11.2693
攝持	-11.2693
不動道場	-11.2694
性比丘尼	-11.2696
行陰盡	-11.2699
風雨	-11.2701
謁	-11.2702
搩	-11.2705
酉	-11.2705
迦嚕抳迦	-11.2706
縣	-11.2706
契印	-11.2709
顆	-11.271
勞相	-11.2711
大菩提心	-11.2712
伎	-11.2713
種子字	-11.2713
紺	-11.2714
革	-11.2715
麼帝	-11.2716
極重	-11.2718
阿鼻地獄	-11.2724
毀謗	-11.2724
▁二破	-11.2728
岳師	-11.2732
六亂妄想	-11.2735
同類	-11.2735
攝取	-11.2736
未了	-11.2738
曼殊	-11.274
壇印三昧耶	-11.2741
祕藏	-11.2742
究其	-11.2743
譯人	-11.2744
上堂	-11.2745
龍腦香	-11.2745
速成就	-11.2745
自在王	-11.2749
明王真言	-11.2753
朅	-11.2761
結破	-11.2762
初又二	-11.2764
麼賀	-11.2772
亥	-11.278
禽獸	-11.2783
寶瓶	-11.2783
一呪一燒	-11.2784
恠	-11.2785
吉凶	-11.2787
侶	-11.2789
世界顛倒	-11.279
阿素洛	-11.2795
薺	-11.2796
石蜜	-11.2797
何關	-11.2797
成等正覺	-11.2797
釋迦如來	-11.2798
記云	-11.2799
微密觀照	-11.2804
我今為汝	-11.2807
又三摩中諸善男子	-11.2809
利鈍	-11.2812
蘖帝	-11.2812
惹曳	-11.2822
汝當先覺不入輪迴	-11.2825
得除差	-11.2825
葉上	-11.2826
忽於	-11.2826
跢囉	-11.2827
助因	-11.2833
第二重	-11.2835
小果	-11.2836
爾時如來	-11.2837
係係	-11.2837
丘	-11.2849
多劫	-11.285
惺	-11.2852
首楞嚴三昧	-11.2854
毗盧	-11.2862
揣	-11.2863
今約	-11.2864
勇健	-11.2864
一字頂輪王	-11.2866
渴仰	-11.2869
金剛座	-11.2869
帳	-11.2869
普供養	-11.287
血肉	-11.287
見精明元	-11.2872
柔軟	-11.2874
真如性	-11.2878
中指無名指	-11.2879
瓔珞莊嚴	-11.288
餓	-11.2881
純情	-11.2881
水精	-11.2883
文殊師利法王子	-11.2885
河沙	-11.2887
悟道	-11.2888
未離	-11.2892
無益	-11.2893
薄福	-11.2897
香水海	-11.29
敷演	-11.2901
諸法實相	-11.2902
准此	-11.2904
光耀	-11.2907
大慈大悲	-11.2907
施設	-11.291
播抳	-11.2911
花果	-11.2913
晚	-11.2914
鼠	-11.2915
才	-11.2917
幻師	-11.2918
世出世	-11.2925
詐習	-11.2925
冠註此明	-11.2926
素囉	-11.2927
鑠	-11.2928
如意輪	-11.2928
衡	-11.293
脩證	-11.2934
蘇摩	-11.2936
母馱	-11.2936
泡	-11.2937
從座而起	-11.294
悞	-11.2941
作是思惟	-11.2944
容貌	-11.2946
於妙圓中	-11.2949
普皆	-11.2952
次結金剛	-11.2963
未免	-11.2964
躡上	-11.2968
他化自在天	-11.2973
摩呵	-11.2973
始從	-11.2975
願求	-11.2976
以兩手	-11.2976
虐	-11.2977
蓮華臺	-11.2988
□□□	-11.299
從頂	-11.2993
轉舌	-11.2993
世間無知	-11.2998
何待	-11.2999
遍數	-11.3
教勅	-11.3005
交遘	-11.3007
摩利支	-11.301
各安	-11.3011
艱	-11.3012
摩訶薩	-11.3012
恒河沙數	-11.3012
數息	-11.3015
根元目為清淨四大	-11.3018
乾陀	-11.3019
火不能燒	-11.3021
六月	-11.3021
不作聖心	-11.3021
充足	-11.3022
本無自性	-11.3026
擊鐘	-11.3036
涌出	-11.3037
汝等當知	-11.3038
宿曜	-11.3043
空性圓明	-11.3043
猶云	-11.3046
脩行	-11.3046
未斷	-11.3054
所出生	-11.3056
嘴	-11.3059
頭面	-11.3062
解私謂	-11.3062
讒	-11.3072
欲境	-11.3073
癩	-11.3073
遍滿虛空	-11.3074
苗	-11.3075
雲集	-11.3077
鬼病	-11.3078
同歸	-11.3082
拔折羅	-11.3083
車輅	-11.3084
爇	-11.3086
悋	-11.3089
觀本尊	-11.3089
倦	-11.3091
加持七遍	-11.3094
違拒	-11.3095
過去未來現在	-11.3096
一切佛剎	-11.3096
經家敘	-11.3097
菩提路	-11.3097
紆	-11.3099
最極	-11.3101
為因地心	-11.3103
為同為異	-11.3103
金剛鎖	-11.3104
澄清	-11.3107
藥師	-11.3107
香塗	-11.3109
無自體	-11.3111
破佛律儀	-11.3111
非無色	-11.3114
尚在	-11.3114
餘經	-11.3121
冐	-11.3125
詵	-11.3127
於一切處	-11.3129
長夜	-11.3131
念佛三昧	-11.3133
莎縛訶	-11.3139
娑擔	-11.3141
是法印呪	-11.3142
卯	-11.3143
探	-11.3145
晨	-11.3147
聾	-11.3147
告阿難言	-11.315
▁一標	-11.315
蔓	-11.3156
紐	-11.3157
叫	-11.3157
空輪	-11.3158
占	-11.316
行住坐臥	-11.3161
婆伽婆	-11.3163
魔怨	-11.3164
無名指小指	-11.3165
我滅度後	-11.3166
嬉戲	-11.3167
自受用	-11.3169
《	-11.317
摩睺羅伽	-11.3173
彩色	-11.3174
神通力	-11.3176
第二院	-11.3176
識陰盡	-11.3177
增勝	-11.3184
我於爾時	-11.3184
􂛲	-11.319
迷佛菩提	-11.319
宗鏡云	-11.3194
末後	-11.3195
比量	-11.3199
汝執	-11.3202
積劫	-11.3203
此神呪	-11.3205
濕生	-11.3207
重請	-11.3207
不遷	-11.3211
所住處	-11.3216
樣	-11.3216
銜	-11.3216
呪二十一遍	-11.3219
不能動	-11.322
阿蘇羅	-11.3227
金寶	-11.323
大唐	-11.3231
吳	-11.3231
園林	-11.3232
常途	-11.3233
謙	-11.3234
總別	-11.3236
成佛道	-11.3236
臆	-11.3237
合為一	-11.3239
未達	-11.324
用諸妄想	-11.3241
東北角	-11.3241
白淨	-11.3241
羅睺羅	-11.3244
真際云	-11.3245
十地菩薩	-11.3246
及阿羅漢	-11.3246
懸崖	-11.3247
西天譯經三藏朝散大夫試	-11.3248
黏湛發	-11.3248
琴	-11.3252
木石	-11.3252
摩呼羅伽	-11.3254
亡失知見	-11.3254
云何忽生山河大地	-11.3257
大龍王	-11.3258
諸惡鬼神	-11.3258
遮那	-11.3259
ya	-11.3261
總指	-11.3263
按定	-11.3268
藐	-11.3271
無間獄	-11.3277
瑟尼	-11.328
又法若欲	-11.3286
向內	-11.3287
於如來前	-11.3295
除疑	-11.3295
牒計	-11.3295
飢渴	-11.3303
說神呪	-11.3304
綠色	-11.3309
祀	-11.331
耶輸	-11.331
裝	-11.3317
過失	-11.3318
未忘	-11.3319
比丘比丘尼優婆塞優婆夷	-11.3322
􂛶	-11.3323
沈水香	-11.3326
賢首	-11.3326
億劫	-11.3328
波浪	-11.3329
遮羅	-11.333
所以然者	-11.3331
獲圓通	-11.3333
寶部	-11.3335
與明合	-11.3338
三七遍	-11.3342
度嚕度嚕	-11.3344
宰官	-11.3349
倪	-11.335
東面	-11.3355
寂滅樂	-11.3355
飲之	-11.3359
世俗	-11.3366
𠶹哩	-11.3366
跋折	-11.3368
結使	-11.3372
華藏	-11.3373
靡	-11.3375
數滿	-11.3376
匿	-11.3378
軀	-11.3378
生人道中	-11.3379
持明人	-11.3386
踊	-11.3386
成就之法	-11.3388
白栴檀香	-11.3391
呾	-11.3391
鬪戰	-11.3392
不虛	-11.3393
從目出	-11.3394
邪道	-11.3399
地藏菩薩	-11.3401
三科七大	-11.3403
加持白芥子	-11.3403
晦昧為空	-11.3403
得阿耨多羅三藐三菩提	-11.3404
幽隱	-11.3404
吾今問汝	-11.3408
娑婆賀	-11.3408
旎	-11.3409
餘三指	-11.3409
性覺妙明	-11.3409
賀囉賀囉	-11.3413
年老成魔	-11.3415
貪婬	-11.3415
墮落外道	-11.3416
悲仰	-11.3418
𢙣	-11.342
慈氏菩薩	-11.3424
沈香	-11.3425
下四句	-11.3429
右轉	-11.344
令其解脫	-11.3447
糝	-11.3451
髓	-11.3451
若善男子善女人	-11.3452
遇佛	-11.3453
軍茶利	-11.3453
與佛同	-11.3458
蹈	-11.3459
兔	-11.3459
鉞斧	-11.3462
天龍夜叉	-11.3464
嶽	-11.3465
第二第三	-11.3465
諸菩薩摩訶薩	-11.3465
大吉祥	-11.3465
板	-11.3467
常恒	-11.3467
一千八十遍	-11.3468
蛻	-11.347
圓成實	-11.3472
怛麼	-11.3472
補特伽羅	-11.3475
比舍	-11.3476
中指背	-11.3482
聞所聞盡	-11.3482
毘舍遮	-11.3486
唯識云	-11.3486
海潮	-11.3488
可知矣	-11.3488
廣示	-11.3489
都無實義	-11.3489
風火	-11.3492
毗尼	-11.3493
呵呵	-11.3502
言辭	-11.3502
百由旬	-11.3502
普現	-11.3506
砌	-11.3509
母嚕母嚕	-11.3513
聞熏	-11.3518
既亡	-11.3525
能於十方	-11.3526
城邑	-11.353
鳳	-11.3532
廁	-11.3534
即得成就	-11.3538
慤	-11.3543
嚕嚕	-11.3544
第十一	-11.3546
各捻	-11.3546
國界	-11.355
出纏	-11.3555
擊鼓	-11.3555
毗舍遮	-11.3555
力士	-11.3558
於空中	-11.3563
推求	-11.3563
波羅密	-11.3566
計以為常	-11.3566
保護	-11.3567
同伴	-11.3569
ṁ	-11.357
謗法	-11.3576
娜莫	-11.3578
利益一切眾生	-11.3586
一切聖眾	-11.3588
救世者	-11.3591
受灌頂	-11.3594
業種	-11.3596
波利	-11.3596
窮空	-11.3599
如恒河沙	-11.3601
寒熱	-11.3602
凍	-11.3607
論師	-11.3609
攝授	-11.361
色邊際	-11.3613
藏通	-11.3615
篋	-11.3618
騰空	-11.362
遷謝	-11.3622
認妄	-11.3624
空假	-11.3625
髮髻	-11.3625
辱	-11.3628
巡	-11.3628
災厄	-11.3632
感果	-11.3632
披露	-11.3634
一時佛在	-11.3634
汩	-11.3636
據此則	-11.3637
虗妄本非因緣非自然性	-11.3638
焚香	-11.364
阿賴耶識	-11.3643
但有言說都無實義	-11.3646
此偈	-11.3649
屈二頭指	-11.365
湛寂	-11.3659
與諸大眾	-11.366
形狀	-11.3661
目呿波利簸梨	-11.3664
地瑟姹	-11.3666
審諦	-11.3681
尖	-11.3684
央	-11.3685
昌	-11.3689
犬	-11.369
布單那	-11.369
刪	-11.3691
搜	-11.3697
恰	-11.3697
懈	-11.3707
十二部經	-11.3708
長命	-11.371
破妄顯真	-11.3711
色香味觸	-11.3712
着	-11.3713
波羅夷	-11.3714
洞徹	-11.3725
甘露味	-11.3726
藥草	-11.3726
折伏	-11.3728
◎	-11.3729
一為無量	-11.3729
憂惱	-11.373
何曾	-11.3737
方隅	-11.3741
持誦人	-11.3754
環師	-11.3758
突瑟吒	-11.376
諫	-11.3762
猴	-11.3763
以空為	-11.3764
惟願如來	-11.3765
騎	-11.3766
瘦	-11.3769
皆得解脫	-11.3771
愁	-11.3774
幻妄	-11.3776
娜夜	-11.3785
煖觸	-11.3785
迎請	-11.379
事事無礙	-11.379
解了	-11.379
自利利他	-11.3791
十一面	-11.3792
悲願	-11.3794
邪魔	-11.3794
於虛空中	-11.3796
暴惡	-11.3801
二十八宿	-11.3802
哩曳	-11.3805
寶蓮	-11.3805
決定義	-11.381
復次祕密主	-11.3813
見吾	-11.3813
消息	-11.3815
染污	-11.382
室左	-11.3826
摧壞	-11.383
豈唯	-11.3833
唾	-11.3836
華臺	-11.3836
一呪一	-11.3837
妙覺明性	-11.3843
結壇	-11.3845
厲	-11.3846
歡喜踊躍	-11.3847
攞入嚩	-11.3848
忤	-11.385
寡	-11.3853
聖尊	-11.3853
夜叉住	-11.3856
則臨終時	-11.3859
忻	-11.3859
朽	-11.386
疑網	-11.386
浩	-11.386
躍	-11.3862
戾	-11.3864
溥	-11.3866
义	-11.3866
勗	-11.3867
聖諦	-11.3868
銳	-11.3868
娛	-11.387
欝金香	-11.3874
苾芻苾芻尼	-11.3876
憍陳那	-11.3877
吸此塵象	-11.388
吽吽吽	-11.3882
詳示	-11.389
龍宮	-11.3892
見非是見	-11.3898
復白佛言	-11.3902
一切諸魔	-11.3902
眾罪	-11.3903
諸天眾	-11.3919
覲	-11.3921
而得自在	-11.3922
豁	-11.3926
孰為	-11.3928
爾時佛告	-11.3928
跪	-11.3933
虔	-11.3937
增加	-11.3939
開演	-11.3939
曆	-11.3939
役使	-11.394
掉	-11.394
傳授	-11.3947
最尊	-11.3949
熏聞	-11.395
偏袒右肩	-11.3951
尾濕嚩	-11.3953
舒縮	-11.3954
勸修	-11.3955
罔象	-11.3956
六用不行	-11.3957
沒第	-11.3957
揑目	-11.3958
妙吉祥童子	-11.3959
安穩	-11.396
毘摩	-11.3961
乳粥	-11.3962
毗喻	-11.3967
缽納	-11.397
說此陀羅尼	-11.3976
賢劫	-11.3978
是故下結	-11.3979
繫念	-11.3981
弟子與師	-11.3984
諸惡趣	-11.3987
真言七遍	-11.3989
底賀多	-11.399
護嚕護嚕	-11.3994
堅固妄想	-11.3997
郝	-11.4008
論議	-11.4008
咤	-11.4009
雜修	-11.4013
念慮	-11.4016
水火風	-11.4019
當胸	-11.4021
標幟	-11.4022
乏少	-11.4023
歌舞	-11.4024
矜	-11.4025
毘沙門天王	-11.4026
獨股	-11.4026
安坐	-11.4027
韋	-11.4028
一切賢聖	-11.4029
寓	-11.4029
得脫	-11.4029
唏	-11.4033
轉變	-11.4037
修進	-11.4041
業果相續	-11.4049
v	-11.4051
堪任	-11.4052
皎然	-11.4054
至十五日	-11.4063
第三院	-11.4063
嚩訥瑟吒	-11.4066
究盡	-11.408
壹	-11.4081
庵	-11.409
琉璃光	-11.4091
密移	-11.4092
欝金	-11.4096
出胎	-11.4097
秀	-11.4099
弭跢	-11.41
竅	-11.41
泰	-11.4102
骸	-11.4104
怯	-11.4105
腋	-11.4106
恡	-11.411
殄	-11.411
韻	-11.4111
皺	-11.4119
大勇猛	-11.4119
菴摩羅	-11.412
性覺真空	-11.4126
m	-11.413
實證	-11.4132
神足	-11.4132
種種飲食	-11.4133
誤認	-11.4137
初卷	-11.4142
此二句	-11.415
成無上菩提	-11.4152
虗融	-11.4154
口舌	-11.4165
畝	-11.4165
如法供養	-11.4166
善財	-11.4167
悲智	-11.4168
毫相	-11.4169
重疊	-11.417
牛頭	-11.4187
勵	-11.4188
愆	-11.4188
飛騰	-11.4193
纖	-11.4193
曠劫	-11.4197
跋囉	-11.4199
迥	-11.4199
損害	-11.4201
是義不然	-11.4205
罣礙	-11.4206
最為第一	-11.4211
明徹	-11.4211
觀其所由	-11.4212
頂禮佛足而白佛言	-11.4213
ṇ	-11.4218
齲	-11.4226
𠷑吒	-11.4232
三麼耶	-11.4232
彥達嚩	-11.4241
嚩沒䭾	-11.4241
娑跢	-11.4243
未亡	-11.4244
左攞	-11.4249
仡囉	-11.4249
摩細	-11.4252
酧	-11.4255
大忿怒明王	-11.4255
浸	-11.4259
粟	-11.4264
汙	-11.4269
抄	-11.4271
格	-11.4272
螫	-11.4274
毘盧	-11.4276
二別明	-11.4277
作是語已	-11.4277
屏	-11.4278
麟	-11.4278
鎧	-11.4278
六字大明	-11.4285
逃逝	-11.4289
西北	-11.4292
狂性自歇	-11.4297
受想行識	-11.4298
違遠圓通背涅槃城	-11.4299
但有言說	-11.4305
國師	-11.4306
􂨠	-11.4309
樹葉	-11.4316
祖嚕祖嚕	-11.4323
一切諸惡	-11.4329
聞此陀羅尼	-11.4331
襪	-11.4335
壇中心	-11.4339
百年	-11.434
波哩	-11.435
咒	-11.435
弓箭	-11.435
還元	-11.4352
在身外	-11.4354
逼迫	-11.4356
綖	-11.4356
瀉	-11.4363
帥	-11.4366
康	-11.4367
憍慢	-11.4369
呪三七遍	-11.4369
無功用道	-11.4374
末法之中	-11.4377
窮諸行空	-11.4377
摩訶迦葉	-11.438
覺所覺空	-11.4381
金剛掌	-11.4387
建立道場	-11.4389
猶如虗空	-11.4393
孕反	-11.4398
㖿	-11.44
阿彌陀	-11.44
悉檀	-11.44
罪垢	-11.44
權教	-11.4406
尾舍	-11.4407
䭾曩	-11.4409
寂音	-11.4428
第四卷	-11.443
鼎	-11.443
吻	-11.4433
蜂	-11.4435
承事供養	-11.4441
撞	-11.4443
紫檀	-11.4444
口業	-11.4445
衍	-11.4446
供給	-11.4447
十習因	-11.4449
梨耶	-11.4449
幡蓋	-11.4449
綴	-11.4449
慴	-11.445
第三重	-11.445
赤白	-11.4451
釋種	-11.4451
迭	-11.4451
委曲	-11.4452
纂	-11.4452
萌	-11.4454
所求皆得	-11.4458
墯	-11.446
虹	-11.446
賢瓶	-11.4461
粖	-11.4461
純熟	-11.4461
沙門婆羅門	-11.4464
又分二	-11.4468
廣博	-11.4471
枯木	-11.4475
即時阿難	-11.4477
生滅去來	-11.448
大威力	-11.4481
次第遷流	-11.4486
樹枝	-11.4488
入胎	-11.4498
師資	-11.4503
金剛幢	-11.4505
牧	-11.4516
西天	-11.4518
豪	-11.4522
▁一總	-11.4523
萬里	-11.4523
嬰	-11.4525
件	-11.4527
誑習	-11.4529
完	-11.4531
)。(􂨬	-11.4536
旅	-11.4538
經百千劫	-11.4542
如意寶珠	-11.4543
交互	-11.4544
違遠圓通	-11.4545
精研妙明	-11.4546
六交報	-11.4547
跢他伽多耶	-11.4554
二十四聖	-11.4555
第七識	-11.4556
戰拏	-11.4559
非有非無	-11.4561
嚩囉娜	-11.4564
魔民	-11.4576
玄義	-11.458
娑賀娑囉	-11.458
二決定義	-11.4588
右手把	-11.4589
拏曳	-11.4589
世界相續	-11.4593
魔障	-11.4595
合腕	-11.4595
檗	-11.46
姦	-11.4601
潤生	-11.4601
滿馱滿馱	-11.4604
膊	-11.4605
茫	-11.4606
滿七日	-11.4607
腦	-11.4609
泣	-11.4611
酬足復形	-11.4611
阿修羅王	-11.4613
沈水	-11.4613
嫉	-11.4619
阿蜜哩	-11.462
釋要云	-11.4621
坐禪	-11.4622
報佛恩	-11.4622
陶	-11.4623
都嚧雍	-11.4623
無量無數	-11.4623
袒	-11.4624
誐哆	-11.4627
彗	-11.4629
加持一百八遍	-11.463
爾時金剛手菩薩摩訶薩	-11.4633
安立聖位	-11.4634
極樂世界	-11.4634
皤囉	-11.4642
阿羅訶	-11.4644
正脉	-11.4646
滿拏攞	-11.466
無量壽佛	-11.4675
難調	-11.468
補瑟	-11.4683
睺	-11.4686
薩婆怛他	-11.4691
嗟	-11.4692
句召	-11.4693
修三摩提	-11.4695
肆	-11.4696
啖	-11.4698
壤	-11.4701
大迦葉	-11.4701
囉叉	-11.4702
討	-11.4702
懇	-11.4707
顛倒行事	-11.4714
胎卵	-11.4717
能降伏	-11.472
肯綮	-11.4721
堪忍	-11.4722
初於聞中	-11.4724
厄難	-11.4724
性覺必明	-11.4725
摩尼珠	-11.4731
莊子	-11.4735
七徵	-11.4737
散灑	-11.4738
跛娜	-11.4739
有三義	-11.4747
一日三時	-11.475
跛哩布	-11.476
首句	-11.4763
河王	-11.4767
□□□□□	-11.4769
誦此密語	-11.4772
強記	-11.4775
鉢頭摩	-11.4779
壬	-11.4781
烈	-11.4781
忉利	-11.4781
若能如是	-11.4784
昔日	-11.4787
睇	-11.4787
欺誑	-11.4789
削	-11.479
眾生相續	-11.4791
屈入掌中	-11.4791
忠	-11.4791
縱使	-11.4793
衢	-11.4796
唬吽	-11.4799
審定	-11.48
轉輪聖王	-11.4803
隨逐	-11.4804
遺失真性	-11.4805
常樂我淨	-11.4807
信住行向	-11.4814
裔	-11.4816
詳審	-11.4821
首二句	-11.4823
誦真言三遍	-11.4824
有為無為	-11.4827
年歲	-11.4828
優波	-11.4843
河岸	-11.4848
同一體	-11.4849
凝結	-11.485
不相離	-11.486
廂	-11.4868
不拒	-11.4871
庫	-11.4878
煮	-11.4878
邦	-11.4878
茅草	-11.488
懃	-11.488
誣	-11.4882
牀	-11.4882
盻	-11.4883
寶樓閣	-11.4886
喜悅	-11.4889
烏芻瑟摩	-11.489
記憶	-11.4892
死後斷滅	-11.4893
匪	-11.4895
首戴	-11.4896
徒眾	-11.4901
廻	-11.4902
唵跋日囉	-11.4902
若有女人	-11.4903
坐寶蓮華	-11.4905
冒地	-11.4907
阿賴耶	-11.4907
爾時觀世音菩薩摩訶薩	-11.4907
不從人得	-11.4909
兜率	-11.4912
慈誨	-11.4913
阿閦如來	-11.4923
鈔云	-11.4927
魔入其心腑	-11.493
本來不生	-11.4931
頓漸	-11.4931
惡鬼神	-11.4932
寶塔	-11.4932
迷惑不知	-11.4935
朋	-11.4942
無減	-11.4943
慈愍	-11.4946
侯	-11.4967
於心上	-11.4971
譏	-11.4971
佉佉	-11.4971
蘂	-11.4972
薩哩	-11.4975
轍	-11.4976
魃鬼	-11.4977
顧視	-11.4977
雜華	-11.4978
飽滿	-11.498
名善境界	-11.4987
肉髻	-11.4987
誥	-11.499
新淨	-11.4992
波晝	-11.4996
揀選	-11.4997
輕清	-11.5003
父子	-11.5004
閉目	-11.5004
懵	-11.5016
聿	-11.5016
左囉左囉	-11.5017
垢障	-11.5019
精微	-11.5023
月影	-11.5025
所求願	-11.5038
首楞嚴定	-11.5039
𡀩	-11.5042
沒㗚	-11.5045
相續不斷	-11.5047
唵薩嚩怛他	-11.505
唯願如來	-11.5052
駕	-11.5053
一總標	-11.5054
二大拇指	-11.5055
穰	-11.5055
膏	-11.5056
蒼	-11.5056
:	-11.5062
敏	-11.5065
讓	-11.5065
介	-11.5067
眚病	-11.5067
右羽	-11.5067
嗔怒	-11.5069
庫藏	-11.5072
􂔗	-11.5078
縛訶	-11.5079
右遶	-11.508
右肩	-11.5081
婆呵	-11.5082
大事因緣	-11.5083
空所空滅	-11.5083
瘧病	-11.5084
雙照	-11.5086
覆護	-11.5086
隨眾生心應所知量	-11.5088
億數	-11.5089
眼色為緣	-11.5091
被甲	-11.5092
災障	-11.5098
無餘涅槃	-11.5102
是般若母	-11.5103
􂉄	-11.5103
行菩薩道	-11.5105
復次善男子	-11.5107
無量壽如來	-11.5107
偈頌	-11.5115
地獄苦	-11.5117
聲聞眾	-11.512
疑悔	-11.5121
蹬	-11.5124
阿難答言	-11.513
罽	-11.5136
閻摩	-11.5138
揮	-11.5141
金剛鈴	-11.5143
咎徵	-11.5144
外相叉	-11.5147
坦	-11.5149
坤	-11.5151
汗	-11.5151
孩	-11.5152
串	-11.5157
舂	-11.5157
湧	-11.5158
無是非是	-11.5158
月蝕	-11.5158
獅子	-11.516
威怒	-11.5162
尋伺	-11.5163
馳散	-11.5164
冷熱	-11.5165
怨賊	-11.5167
如來應供正遍覺	-11.517
巨海	-11.5171
秖	-11.5171
最上成就	-11.5173
凡小	-11.5174
阿囉訶帝	-11.5176
梵書	-11.5178
本覺明心	-11.5178
茫然	-11.518
母胎	-11.5195
千臂	-11.5199
􂤇	-11.5199
興福	-11.5203
穆訖	-11.5204
隨眾生心	-11.5208
形貌	-11.521
神通自在	-11.5212
曀	-11.5218
觀自身	-11.522
補澁	-11.5222
旬	-11.5225
麼𥠖	-11.5233
猶如虛空	-11.5234
惡毒	-11.5237
三藐三佛陀	-11.5248
盜賊	-11.5248
抧	-11.5249
豫	-11.5251
晉言	-11.5251
課	-11.5251
蠢	-11.5252
孟	-11.5254
孛	-11.5265
能生諸緣	-11.527
慢習	-11.5273
徧周法界	-11.5276
舊說	-11.5282
緣覺聲聞	-11.5284
頭冠	-11.5291
冥感	-11.5298
千劫	-11.5308
說此真言	-11.5312
焰鬘	-11.5324
薩里嚩	-11.533
㰠	-11.5331
婆誐嚩底	-11.5334
印捺囉	-11.5336
不復更	-11.5336
樺皮	-11.5339
桓	-11.5342
唇	-11.5343
畫像法	-11.5344
諸佛子等	-11.5344
撿	-11.5345
二別顯	-11.5347
千二百五十人	-11.5348
儀式	-11.5353
菩提涅槃元清淨體	-11.5356
未審	-11.5356
侵害	-11.5357
大佛頂首楞嚴經	-11.5358
肘量	-11.5358
鹿苑	-11.536
陀羅尼一首	-11.5363
頭指中指	-11.5367
爍迦羅	-11.5371
湛然常住	-11.5373
ga	-11.5373
等無有異	-11.5395
世出世法	-11.5395
綠	-11.5403
兜率天	-11.5409
劫壞	-11.5416
奸	-11.542
尾惹野	-11.542
竺	-11.5421
買	-11.5428
交報	-11.5433
顏貌	-11.544
惶	-11.544
威勢	-11.5443
背覺合塵	-11.5453
殷勤	-11.5454
返妄歸真	-11.5456
見猶離見	-11.5457
毘俱胝	-11.5457
墮落外道惑菩提性	-11.5458
讀誦受持	-11.5462
純想	-11.5463
一時俱	-11.5466
耳鼻舌身意	-11.5479
百二十	-11.5479
分段生死	-11.5488
得往生	-11.5503
廣果天	-11.5504
報恩	-11.5508
阿闍黎	-11.5514
訪	-11.5518
齡	-11.5526
任持	-11.5526
万	-11.5528
諸世間人	-11.5528
模	-11.5531
掖	-11.5532
足踏	-11.5533
派	-11.5534
如來名號	-11.5536
欲愛乾枯	-11.5537
殆	-11.5537
䇿	-11.5541
舊註	-11.5541
白月八日	-11.5542
認物為巳	-11.5543
五不還天	-11.5544
輕慢	-11.5544
流溢	-11.5546
不藉	-11.5547
執金剛祕密主	-11.555
知見立知	-11.555
下三句	-11.5552
三藐三菩陀耶	-11.5553
棃	-11.5555
豈惟	-11.5555
寶座	-11.556
金剛乾慧	-11.5562
食噉	-11.5565
矩攞	-11.557
七返	-11.557
有大威力	-11.5588
楞伽云	-11.5597
甕	-11.5598
現其身	-11.5599
上文云	-11.5605
悉第	-11.5605
咃	-11.5608
掬	-11.5609
圭	-11.5612
諂曲	-11.5616
薩怛鑁	-11.5617
稽	-11.5617
販	-11.5619
一百一十	-11.5623
肺	-11.5625
延壽	-11.563
酥蜜酪	-11.5631
淳	-11.5631
弘誓	-11.5633
起立白佛	-11.5636
繇	-11.5636
舍利塔前	-11.5637
灌其頂	-11.5638
罔象虗無	-11.5642
供養恭敬	-11.5647
六十聖位	-11.5648
染汙	-11.5655
枝末	-11.5655
仙趣	-11.5664
生天上	-11.5672
化城	-11.5678
嗚	-11.568
菩提樹下	-11.5684
枳哩枳哩	-11.5685
阿難是善男子	-11.5686
􂃅	-11.5693
為有邊	-11.5694
溈	-11.5711
拾	-11.5714
疑慮	-11.5716
禽	-11.5717
隻	-11.5717
愧	-11.5719
蔭	-11.5719
?」	-11.5721
蟒	-11.5723
肅	-11.5724
七日七夜	-11.5725
𠰢	-11.5727
右脚	-11.5728
俯	-11.5729
慾	-11.5729
倘	-11.5729
泥洹	-11.5732
僅	-11.5733
種姓	-11.5737
擕李	-11.5737
法雲地	-11.574
垂範	-11.5743
勤精進	-11.5743
幻妄稱相	-11.5746
毘舍佉	-11.5747
堅凝正心	-11.5748
善哉善哉善男子	-11.5749
融通妄想	-11.575
不作聖心名善境界	-11.5752
遷改	-11.5754
皆得圓滿	-11.5761
童男	-11.5766
布列	-11.5767
真妄和合	-11.5769
賛拏	-11.5769
皈依	-11.5775
泮泮泮	-11.5793
法式	-11.5797
幹	-11.5803
侘	-11.5804
塚	-11.5805
訟習	-11.5815
部多女	-11.5815
洗手	-11.5815
休徵	-11.5816
棗	-11.5816
閃	-11.5817
三漫多	-11.582
什麼	-11.582
歛	-11.5821
受八戒	-11.5821
曩莫三曼多沒馱喃	-11.5822
日三時	-11.5823
古反	-11.5825
剎帝利	-11.5826
灼	-11.5827
稚	-11.5828
仲	-11.5828
宵	-11.583
息災增益	-11.5832
消殞	-11.5835
聞熏聞修	-11.5838
得無罣礙	-11.5845
誤墮	-11.5846
復次成就法	-11.5848
相織	-11.585
j	-11.5851
警悟	-11.5853
經無量劫	-11.5854
一心三觀	-11.5859
􂨡	-11.5859
教化眾生	-11.5867
冷煖	-11.5878
脩羅	-11.5888
諷	-11.589
入阿字門	-11.5902
嗚𤙖	-11.5907
梵天王	-11.5908
圖畫	-11.5908
嘛	-11.5909
裁	-11.5916
頰	-11.5919
璫	-11.592
手鑑云	-11.5921
石榴	-11.5921
涎	-11.5924
喧	-11.5924
汎	-11.5925
貼	-11.5926
炳	-11.5932
緣慮	-11.5932
除差	-11.5933
夙	-11.5933
阿那律陀	-11.5936
四無量心	-11.5936
非汝而誰	-11.5936
傷害	-11.5936
洲潬	-11.5937
地獄餓鬼畜生	-11.594
媒	-11.594
常住真心性淨明體	-11.5941
摩訶迦羅	-11.5942
迷佛菩提亡失知見	-11.5943
得無疑惑	-11.5945
重頌	-11.5956
盈滿	-11.5965
穆契	-11.5972
初又三	-11.5972
孤起	-11.5972
過去未來	-11.5973
滿十萬遍	-11.5973
閼伽水	-11.5978
諸賢聖	-11.5982
邊畔	-11.5988
循業	-11.6004
初總標	-11.6006
啼	-11.6008
伯	-11.6011
倉	-11.6015
鈷	-11.6017
瑕	-11.6018
鬬	-11.602
薑	-11.602
羸	-11.6021
阿蘇囉	-11.6021
逐妄	-11.6025
絃	-11.6027
聲香味觸	-11.6028
三結答圓通	-11.6029
若能轉物	-11.6032
刀劍	-11.6032
暫得如是	-11.6035
若作聖解即受羣邪	-11.6037
君子	-11.6038
昏鈍	-11.6039
疇	-11.6039
軍吒利	-11.604
少選	-11.6041
金剛手祕密主	-11.6042
梵網	-11.6045
明暗色空	-11.605
析色	-11.6051
-	-11.6053
得不退轉	-11.6054
千年	-11.6056
都無所	-11.6056
深淺	-11.6056
狂亂	-11.6056
瑟吒囉	-11.6059
二手內相叉	-11.6063
十迴向	-11.6063
菩薩萬行	-11.6065
𤙖泮吒	-11.6073
統攝	-11.6075
何等為四	-11.6076
壽量	-11.6083
毒龍	-11.6089
曩迦囉	-11.6105
櫱多木佉跛哩嚩	-11.6106
癸	-11.6107
現瑞	-11.6112
贊拏	-11.6113
滌	-11.6116
阿蘭若	-11.6116
勃馱南	-11.6118
陵滅	-11.6118
祁	-11.6119
粒	-11.6119
甄	-11.612
勾	-11.612
箕	-11.6121
慳貪	-11.6122
酥酪	-11.6123
火爐	-11.6123
胡跪	-11.6124
虔誠	-11.6124
杳	-11.6126
四聖諦	-11.6128
陋	-11.6128
莊飾	-11.6129
眼耳鼻舌	-11.613
燒沈水香	-11.6138
室羅城	-11.6141
光焰圍繞	-11.6145
彼暗與通	-11.6145
吾復問汝	-11.6145
寶生如來	-11.6147
成法解脫	-11.6155
圓定發明	-11.6161
幻術	-11.6164
善巧方便	-11.6164
厭足心生去彼人體	-11.6165
芥子油	-11.617
惱亂是人	-11.6171
龍腦	-11.6174
翳係曳	-11.6175
稱歎	-11.6176
頭指側	-11.618
消散	-11.6182
無始無明	-11.6183
遏㗚	-11.6183
頂髻	-11.6185
百八遍	-11.6197
橋	-11.621
杻	-11.6212
薩婆怛他揭多	-11.6215
祝	-11.6216
』	-11.6216
根境識三	-11.6217
憚	-11.6217
撫	-11.6222
沾	-11.6225
卷第二	-11.6227
拙	-11.6227
虎吽	-11.6228
裳	-11.6228
悶絕	-11.6229
料	-11.6229
怛囕	-11.6231
國王大臣	-11.6232
蘆	-11.6234
虛心合掌	-11.6235
蓮花座上作	-11.6239
勃馱	-11.6239
一路涅槃門	-11.624
性色真空	-11.6242
見見之時	-11.6244
十億	-11.6244
根塵同源	-11.6244
恩愛	-11.6244
生滅既滅	-11.6246
六受用根	-11.6246
熾焰	-11.6247
頻伽	-11.6249
我我所	-11.6254
為二一	-11.626
第四禪	-11.6271
聖觀自在菩薩	-11.6275
𦴭	-11.6283
雙遮	-11.6292
秫第	-11.6302
逆順	-11.6309
底孕	-11.6311
潮	-11.6311
差殊	-11.6322
洩	-11.6322
蠟	-11.6326
金錢	-11.6327
喏	-11.6329
攪	-11.633
誌	-11.6333
作障難	-11.6333
將軍	-11.6338
阿練若	-11.6341
粘湛發	-11.6341
優波尼沙陀	-11.6341
金剛橛	-11.6342
大興善寺三藏沙門不空奉詔譯	-11.6344
來無所從	-11.6344
而供養之	-11.6347
羅剎娑	-11.6349
不於空生	-11.6351
邪婬	-11.6355
應所知量	-11.6355
陜	-11.6365
去彼人體	-11.6371
身口意業	-11.6372
如幻三昧	-11.638
穢惡	-11.6381
金剛藏王	-11.6381
䭾囉䭾囉	-11.6386
有情無情	-11.6396
猫	-11.641
嵐	-11.6417
災害	-11.6419
一百三十	-11.642
哈	-11.6423
禱	-11.6424
錫	-11.6426
鴦	-11.643
顰眉	-11.6432
揆	-11.6435
垣	-11.6435
迄	-11.6437
俄	-11.6437
誦此明	-11.6439
稅	-11.6439
王舍城	-11.6439
排擯	-11.644
寂常心性	-11.6443
普現色身	-11.6444
酬足復形生人道中	-11.6446
虗偽	-11.6446
內瑩發光	-11.6448
應不見暗	-11.6451
而於寂滅精妙未圓	-11.6451
藥王藥上	-11.6455
支節	-11.6458
隨心所	-11.6462
第二手持	-11.6463
前五識	-11.6464
毫髮	-11.6472
淨名云	-11.6478
右邊畫	-11.6478
寧吉反	-11.6494
西面	-11.6502
依法持誦	-11.6502
檀那	-11.6504
北面	-11.6504
搗	-11.6517
斜	-11.6522
拋	-11.6522
宿直日	-11.6526
㜸	-11.6526
薰陸香	-11.6529
乳糜	-11.6533
漱口	-11.6533
副	-11.6535
農	-11.6536
不久當	-11.6536
貿	-11.6537
垢穢	-11.654
咨	-11.654
塗香末香	-11.6542
開眼見明	-11.6542
白㲲	-11.6544
中中流入	-11.6546
合掌向佛	-11.6551
三千大千	-11.6551
未得謂得	-11.6553
身心快然	-11.6556
於一毛端	-11.6557
異口同音	-11.6562
由結此印	-11.6569
白毫	-11.6574
阿閦佛	-11.6575
年老成魔惱亂是人	-11.658
獘泮	-11.6587
發大願	-11.6598
雙徵	-11.6601
從空出	-11.6607
如來藏妙真如性	-11.6616
造惡業	-11.6626
悉𠆙	-11.663
眼識界	-11.6631
燕	-11.6632
埿	-11.6634
斧	-11.6636
膽	-11.6638
疼痛	-11.6639
泊	-11.664
肉團	-11.664
迦旃延	-11.6641
災禍	-11.6642
頡	-11.6647
膳	-11.6647
牛呞	-11.6648
瓜	-11.6649
痕	-11.6652
迅	-11.6654
提獎	-11.6655
縈	-11.6658
山川	-11.6659
佛之知見	-11.6662
優波離	-11.6664
𥁞	-11.6668
sa	-11.6673
爾時金剛手菩薩	-11.6675
三世四方	-11.6678
猶如空華	-11.6679
不空羂索心王陀羅尼真言	-11.6683
卷第一	-11.6694
爾時天魔候得其便	-11.6695
交接	-11.6695
奈何	-11.6708
荅麼	-11.6714
旨趣	-11.6716
魃	-11.6719
傘	-11.6724
蝎	-11.6728
憙	-11.6731
戊	-11.6732
瑳	-11.6736
晉	-11.6737
曠	-11.6738
慚	-11.6742
朋友	-11.6746
寒林	-11.6747
吏	-11.6748
傲	-11.6748
曼拏攞	-11.675
叢林	-11.675
進火中	-11.6751
津液	-11.6751
右手作拳	-11.6753
兩楹	-11.6761
左肩	-11.6763
覺明空昧	-11.6771
ri	-11.6773
里支	-11.6774
這一節經承上	-11.6778
ś	-11.6779
觀彼幽清常擾動元	-11.6784
金剛甲冑	-11.6785
􂔹	-11.6786
不斷婬	-11.6787
持禁戒	-11.6793
帝三𦴭三沒䭾	-11.6807
這裏	-11.6837
洗浴著新淨衣	-11.6843
霞	-11.685
稻	-11.6854
卿	-11.6854
郎	-11.6855
由結此印誦真言	-11.6855
耗	-11.6858
銖	-11.6858
蹙	-11.6858
几	-11.6862
桐洲	-11.6863
纖毫	-11.6864
伎樂	-11.6869
富樓	-11.6869
菓子	-11.6871
臻	-11.6872
緣所遺者	-11.6877
吉祥草	-11.6878
非因非緣	-11.6879
一生補處	-11.6881
單複十二	-11.6882
十方微塵國土	-11.6883
能成辦	-11.6883
互相涉入	-11.6883
灌頂章句	-11.6888
瞋習	-11.6893
屈如鉤	-11.6896
一念不覺	-11.6899
不隨分別	-11.6909
寧逸反	-11.6921
惡獸	-11.6926
䭾寧	-11.6927
曩莫三滿多沒䭾	-11.6927
尾惹曳	-11.6946
遜	-11.6955
善住天子	-11.6955
尿	-11.6958
梯	-11.6958
縵	-11.6962
此大神呪	-11.6965
訊	-11.6967
赦	-11.6968
墻	-11.6969
季	-11.6971
救濟	-11.6971
了了分明	-11.6971
偷盜	-11.6974
勒叉	-11.6974
選根	-11.6975
荊公云	-11.6977
能招報	-11.6978
殑伽沙	-11.6979
起信論	-11.698
那庾多	-11.6984
從真起妄	-11.6985
進退合明	-11.6987
普佛世界	-11.6988
則汝今者	-11.6994
􂨢	-11.6994
性圓周徧	-11.6996
圓照法界	-11.6997
ṣ	-11.6998
俱空不生	-11.7006
電光	-11.7009
禁縛	-11.7011
爾時釋迦牟尼如來	-11.7016
淪墜	-11.702
獄卒	-11.7029
淨潔	-11.7039
仡	-11.7052
沉淪	-11.7054
盎	-11.706
壑	-11.706
婆誐鑁	-11.7061
湖	-11.7067
咽喉	-11.707
捕	-11.707
薩嚩薩怛嚩	-11.7074
卓	-11.7074
薜	-11.7077
赫奕	-11.708
眷	-11.7081
伴侶	-11.7084
湛入合湛	-11.7086
森羅	-11.7091
珮	-11.7092
讎	-11.7093
迅疾	-11.7094
為本修因	-11.7094
迷巳為物	-11.7096
吾今為汝	-11.7097
怨害	-11.7097
甄別	-11.7099
以要言之	-11.71
靈驗	-11.7102
見不能及	-11.7103
常住不滅	-11.7103
無同無異	-11.7103
猶如琉璃	-11.7106
樹林	-11.7107
右大指	-11.7108
到彼岸	-11.7109
陽燧	-11.7109
比丘比丘尼	-11.7117
􂪙	-11.7134
未敢	-11.715
剎海	-11.7155
曩莫室戰	-11.7156
答塔葛達	-11.7161
霓	-11.7164
起慈心	-11.717
錦	-11.7176
膿血	-11.7181
駝	-11.7181
楊	-11.7184
沐	-11.7189
】*	-11.719
裸	-11.7191
藥乞叉	-11.7193
屢	-11.7196
閙	-11.7196
啟白	-11.7197
諳	-11.7197
調御	-11.7198
僻	-11.7199
香花飲食	-11.7201
白傘	-11.7202
娑毗迦羅	-11.7202
般剌	-11.7203
决	-11.7204
著淨衣服	-11.7204
聞佛示誨	-11.7208
合中知	-11.7209
死屍	-11.721
落謝	-11.721
為物所轉	-11.7211
離即離非	-11.7212
災祥	-11.7213
阿那律	-11.7214
結暗為色	-11.7215
覺非所明	-11.7215
大佛頂如來密因修證了義諸	-11.7216
阿若多	-11.7218
校量	-11.7223
蘇蜜	-11.7224
縱橫	-11.7226
婬室	-11.7232
讚嘆	-11.7241
丈六	-11.7245
資財	-11.7247
吉祥天女	-11.725
尾麼𥠖	-11.7257
櫱蹉	-11.7261
又阿字者一切法無	-11.7268
指來去呪曰	-11.7287
罷	-11.7293
剝	-11.7297
坼	-11.7299
幼	-11.7299
揩	-11.7303
尸陀林	-11.7303
焰魔	-11.7304
製	-11.7305
叩	-11.7305
煥	-11.7307
三補吒	-11.7308
阻	-11.7308
手自開合	-11.7313
詎	-11.7314
理事無礙	-11.7315
唄	-11.7315
䑛	-11.7316
富樓那彌多羅尼子	-11.7316
都攝六根	-11.7319
妙淨明心	-11.7321
變易生死	-11.7322
燈燭	-11.7324
光普照	-11.7325
由塵發知	-11.7327
小中現大	-11.7331
樂脫其倫	-11.7331
本妙圓心	-11.7331
侍衛	-11.7332
乾枯	-11.7354
誦真言七遍	-11.7357
東北方	-11.7362
趺坐	-11.7385
播拏曳	-11.7386
叔	-11.7404
呿	-11.7409
糖	-11.7414
欄	-11.7419
聊	-11.7419
犢	-11.7421
鼻孔	-11.7422
屎尿	-11.7423
二習相交	-11.7425
掛	-11.7426
纓	-11.7427
熠熠	-11.7429
瓔	-11.7429
酸澀	-11.7432
閻浮檀金	-11.7433
以動為身	-11.7436
綰巾	-11.7441
起計度者	-11.7443
擴	-11.7443
於我滅後	-11.7444
泐潭曰	-11.7448
ī	-11.7449
即中云	-11.7451
嚩囉嚩囉	-11.7452
受陰虗妙	-11.7457
果地覺	-11.747
乃是過去	-11.7477
䋾	-11.7497
縊	-11.7517
觜	-11.752
􂘢	-11.7521
英	-11.7522
捺㗚	-11.7524
哭	-11.7525
劇	-11.753
正宗分	-11.7533
婚	-11.7534
搆	-11.7536
溈山	-11.7536
詔	-11.7537
焰鬘得迦	-11.7538
童男童女	-11.7538
膺	-11.754
詠	-11.7541
粹	-11.7541
踰繕那	-11.7543
如寶形	-11.7543
沙糖	-11.7543
礫	-11.7544
摩訶衍	-11.7546
瞥	-11.7547
戶牖	-11.7549
窣堵波	-11.7554
唯佛與佛	-11.7555
劬勞	-11.7556
一念妄動	-11.7557
合成一界	-11.7557
有何差別	-11.7561
諍論	-11.7561
僧伽梨	-11.7561
▁sarva	-11.7566
寶覺真心	-11.7568
受陰明白	-11.7575
測度	-11.7581
汝當先覺	-11.7581
從因緣生	-11.7584
執金剛祕密主菩薩摩訶薩	-11.7585
怛他揭多	-11.7593
正脈	-11.7594
文可解	-11.7598
尾補攞	-11.7604
爹	-11.7607
菩地薩埵	-11.7616
尾秫第	-11.7618
柁	-11.7626
翁	-11.7626
嫁	-11.7641
字變成	-11.7642
腸	-11.7646
耄	-11.7647
賈	-11.7649
靺	-11.7649
栖	-11.765
調柔	-11.7654
此三勝流	-11.7655
朔	-11.7655
攘	-11.7655
毖	-11.7656
冶	-11.7656
擯	-11.7657
芬	-11.7657
洋	-11.7657
燃燈	-11.7658
藪	-11.7659
俊	-11.766
黑闇	-11.7661
觀河之見	-11.7663
圓滿一千二百功德	-11.7666
子孫	-11.7667
錯亂修習	-11.7668
諸變化相	-11.7669
白月十五日	-11.7671
盡未來際	-11.7672
自覺覺他	-11.7673
影響	-11.7674
大中現小	-11.7676
相待成搖	-11.7676
慈恩	-11.768
性色真空性空真色	-11.7682
雷音	-11.7685
如我思惟	-11.7687
損益	-11.7691
弟子與師俱陷王難	-11.7697
􂤔	-11.7701
持明藏	-11.7712
能成就一切	-11.7718
詑	-11.7736
尾覲曩	-11.7737
儉	-11.7739
撚	-11.7752
夾註	-11.7753
酤嚕	-11.7756
誣罔	-11.7758
拯	-11.7761
珊	-11.7764
盆	-11.7765
潭	-11.7766
繫項	-11.7768
谷響	-11.7769
跛娜麼	-11.777
計為常	-11.7771
室戰	-11.7772
泄	-11.7773
釋提桓因	-11.7774
焯	-11.7775
程	-11.7778
坊	-11.7778
燼	-11.778
胷	-11.778
妙明真心	-11.7781
悲泣	-11.7781
情與無情	-11.7781
攸	-11.7781
生生世世	-11.7781
殺盜淫	-11.7783
伊舍那	-11.7786
般刺	-11.7788
無始以來	-11.779
一百四十	-11.7795
縛脫無二	-11.7796
希望	-11.7796
從定出已	-11.7799
死後俱非	-11.7801
識之界	-11.7801
虗明妄想	-11.7802
非因所因	-11.7804
惡友	-11.7806
旋湛	-11.7815
妖魅	-11.7817
厭足心生	-11.7818
誦持此呪	-11.7819
交織	-11.783
秫弟	-11.7862
甯	-11.7865
戮	-11.7883
陟	-11.7888
遜婆	-11.789
驕	-11.789
安息香	-11.7891
允	-11.7891
醋	-11.7892
踞	-11.7896
豐饒	-11.7898
綱紐	-11.7898
眇	-11.7899
妙淨明體	-11.7899
璿	-11.7899
佛又問言	-11.79
掬水	-11.7903
同生基	-11.7903
絣	-11.7904
良久	-11.7905
與大比丘眾	-11.7905
淮	-11.7908
大教王經	-11.7908
此非汝心	-11.7908
開敷蓮華	-11.7912
用中相背	-11.7912
優樓頻螺	-11.7912
稱彼名	-11.7915
本不動搖	-11.792
辯才無礙	-11.792
歸無所得	-11.7921
含十方界	-11.7924
非因緣非自然	-11.7925
短命	-11.7927
色聲香味觸	-11.7929
妙性圓明	-11.793
􂪦	-11.7932
主伴	-11.7937
府儀同三司特進試鴻臚卿肅國公食邑	-11.7946
𦙘	-11.7955
日日三時	-11.7975
遲速	-11.7982
砧	-11.7994
虺	-11.7995
煞	-11.8002
詈	-11.8002
幟	-11.8002
耕	-11.8003
腰側	-11.8003
茗	-11.8003
疱	-11.8009
鷲	-11.8009
裙	-11.801
叫喚	-11.8011
咀	-11.8012
殂	-11.8017
渧	-11.8019
忖	-11.802
晏	-11.802
工巧	-11.8021
我等今者	-11.8022
土梟	-11.8027
隨所合處	-11.8029
有人來問	-11.8031
無上寶印	-11.8032
云何得知是我真性	-11.8032
統領	-11.8032
攸往	-11.8034
隨所發行	-11.8034
性中相知	-11.8035
無作妙力	-11.8035
動靜二相	-11.8036
應念化成無上知覺	-11.8036
漸次深入	-11.8037
所觀之境	-11.8038
元清淨體	-11.8039
妙覺湛然	-11.8039
為障者	-11.804
熾然成異	-11.804
不守自性	-11.8042
潛行貪欲	-11.8062
算數	-11.8063
耶捺麻	-11.8071
花菓	-11.8096
趙州	-11.8122
級	-11.8132
隨願往生	-11.8133
鋪	-11.8137
郡	-11.8137
挾	-11.8138
夫婦	-11.8139
威神力故	-11.8139
槁	-11.8139
斯陀含	-11.8143
匹	-11.8144
憂愁	-11.8144
口中水出	-11.8144
千由旬	-11.8146
黯	-11.8146
生老病死	-11.8147
馬鳴	-11.815
違其現業	-11.8153
牛酥	-11.8153
閑靜	-11.8153
入菩薩乘	-11.8154
值遇	-11.8155
是名如來先佛世尊	-11.8155
西南角	-11.8156
三緣斷故	-11.8157
幽隱妄想	-11.8161
諸根互用	-11.8163
摩訶菩提薩埵	-11.8177
拒	-11.8193
修真言行	-11.8196
讖	-11.8205
櫱陛	-11.8213
蓮臺	-11.824
秫提	-11.8241
綻	-11.8245
鼻詵	-11.8246
萬歲	-11.825
姊妹	-11.8252
班	-11.8253
縫	-11.8257
旋遶	-11.8258
室羅筏	-11.826
沒溺	-11.8262
邀	-11.8263
馥	-11.8263
咬	-11.8264
㲲	-11.8265
服餌	-11.8273
瞻視	-11.8274
精研七趣	-11.8274
內外明徹	-11.8274
此想不真	-11.8275
起惑造業	-11.8276
意知根	-11.8277
遏蒲曇	-11.8278
性空真色	-11.8281
又善男子受陰虗妙	-11.8282
㸦	-11.8286
故現斯事	-11.8286
悉怛多般怛囉	-11.8287
元明心妙	-11.8289
暫得如是非為聖證	-11.829
非於根出	-11.8292
釋教最上乘秘密藏陁羅尼集卷第	-11.8293
天竺三藏	-11.8293
元是菩提妙淨明體	-11.8293
面向西	-11.8301
萬二千	-11.8309
旋舞	-11.8326
頭指來去	-11.8334
尊那菩薩	-11.8335
癰	-11.8356
歧	-11.8369
隍	-11.837
涕	-11.8376
袋	-11.8377
鑊	-11.8379
菽	-11.8381
兩肩	-11.8383
遮文茶	-11.8387
帀	-11.8391
薩婆薩埵	-11.8392
睹	-11.8393
柄	-11.8393
伽伽那	-11.8394
雀	-11.8395
糠	-11.8396
是心非眼	-11.8397
澀	-11.84
另	-11.8401
不應說言	-11.8404
䟦陀婆羅	-11.8405
𦗟	-11.8407
前後圍遶	-11.8408
遠諸魔事	-11.8408
識生其中	-11.8408
根無所偶	-11.8409
暈	-11.8409
疲倦	-11.8411
所生之識	-11.8416
如來印我	-11.8416
離即離非是即非即	-11.8418
因何所出	-11.8419
知見無見	-11.8419
▁vi	-11.8423
突然而出	-11.8427
不相留礙	-11.8429
虗空藏菩薩	-11.8434
櫱妬	-11.8451
曩謨窣覩	-11.8474
細曩缽	-11.8476
昵	-11.8501
睒	-11.8502
嘍	-11.8505
栴	-11.8505
㭊	-11.8512
情少想多	-11.8512
舍利塔	-11.8518
地行羅剎	-11.852
貪嗔癡	-11.8521
藤	-11.8523
帚	-11.8524
提頭賴吒	-11.8524
情多想少	-11.8525
波瀾	-11.853
歡悅	-11.8531
哦	-11.8531
不如此說即波旬說	-11.8532
慈悲喜捨	-11.8533
襲	-11.8533
一人發真歸元	-11.8534
欣厭	-11.8535
一遍一擲火中	-11.8535
頭面禮足	-11.8535
如汝所說	-11.8542
􂨣	-11.8543
迷真起妄	-11.8543
自心取自心	-11.8544
精覺妙明	-11.8545
哿	-11.8546
檀波羅蜜	-11.8549
見色陰銷受陰明白	-11.8552
稱之為	-11.8554
若於所歸	-11.8556
雲如來南無	-11.856
十方一切剎土	-11.856
誦此密言	-11.8562
諷誦	-11.8569
賀染母	-11.8572
懶	-11.8625
誐嚕拏	-11.863
囚	-11.8632
嗜	-11.8633
沃	-11.8637
堦	-11.8638
昨	-11.8641
碧	-11.8641
訶訶訶	-11.8642
瓮	-11.8643
孺	-11.8646
揖	-11.8647
瞪發勞相	-11.8652
不歷僧祇獲法身	-11.8653
訥瑟	-11.8654
軍陣	-11.8654
此方真教體	-11.8655
膜	-11.8657
醎	-11.8658
昏昧	-11.8663
餐	-11.8665
饌	-11.8665
作禮而去	-11.8665
與眼對	-11.8667
西北角	-11.8667
不死矯亂	-11.8667
皆現其中	-11.8671
空覺極圓	-11.8673
所既妄立生汝妄能	-11.8679
左第一手	-11.8685
跛左跛左	-11.8735
一切諸佛菩薩摩訶薩	-11.8737
週	-11.8757
漏無漏	-11.876
拼	-11.8767
巢	-11.877
脛	-11.8771
楊枝	-11.8772
哲	-11.8774
溢	-11.8774
大孔雀呪王	-11.8775
壽命百年	-11.8779
優鉢羅華	-11.878
助伴	-11.8781
朕	-11.8784
綏	-11.8784
軸	-11.8784
筵	-11.8784
輭	-11.8785
法華文句	-11.8787
緝	-11.8787
清淨在音聞	-11.8789
縛日羅	-11.8789
定果色	-11.879
馺	-11.879
根境不偶	-11.879
糅	-11.8792
阿難所請	-11.8792
復是何物	-11.8792
水不能溺	-11.8793
辨才	-11.8794
尚在遙遠	-11.8794
天人阿修羅	-11.8795
不相干	-11.8795
因定發慧	-11.8796
天如補註曰	-11.8798
月光童子	-11.88
三無漏學	-11.8801
是即非即	-11.8801
空生大覺中	-11.8802
此了知心	-11.8804
覺非眚中	-11.8804
生汝妄能	-11.8804
依空立世界	-11.8806
從自心出	-11.8807
勝淨明心	-11.881
妙莊嚴海	-11.881
皎潔	-11.8812
(○○	-11.8813
無所從來	-11.8815
不入輪迴	-11.8831
惑為因緣	-11.8867
􂏍	-11.887
嚲詑誐跢	-11.8884
攀	-11.8886
錢財	-11.8887
嚩曰囉	-11.889
酬其宿債	-11.8894
戈	-11.8902
癲	-11.8906
粳米飯	-11.8907
扣	-11.8909
枕	-11.8911
菖蒲	-11.8913
鈴鐸	-11.8913
蒭	-11.8914
鎣	-11.8914
槊	-11.8915
貢	-11.8915
鶖	-11.8915
蠲	-11.8918
滿一切願	-11.8919
縠	-11.8919
刊	-11.892
呤	-11.8923
童耄	-11.8923
毗奈耶	-11.8924
烏芻	-11.8924
一作禮陳白	-11.8926
佛滅度後	-11.8926
真言及手印	-11.8926
純覺遺身	-11.8929
一門超出	-11.893
塵既不緣	-11.893
箜篌	-11.8932
如惡叉聚	-11.8932
如鳥出籠	-11.8933
所既妄立	-11.8936
三德祕藏	-11.8937
性覺妙明本覺明妙	-11.894
七俱胝佛母	-11.894
字為種子	-11.8943
b	-11.8943
恆	-11.8945
無明住地	-11.8948
護摩爐	-11.8994
𠰒	-11.9013
𡫸	-11.9024
悌	-11.9027
摘	-11.9032
違害鬼	-11.9036
礰	-11.9037
遐	-11.9044
貨	-11.9044
赫	-11.9045
䠒	-11.9045
斂	-11.9045
枳里枳里	-11.9046
九情一想	-11.9047
潤澤	-11.9048
雌黃	-11.9048
慳悋	-11.905
株	-11.9051
飜	-11.9051
期剋	-11.9052
展舒	-11.9052
莾	-11.9053
葱	-11.9054
惶悚	-11.9056
􂗰	-11.9058
怠	-11.9059
蚊蚋	-11.906
傾奪	-11.906
啼泣	-11.9061
最後垂範	-11.9061
返流全一	-11.9062
攝心為戒	-11.9062
各各自謂成無上道	-11.9062
我曠劫來	-11.9065
鼻舌身	-11.9065
此見及緣元是菩提妙淨明體	-11.9067
不增不減	-11.9068
旅泊	-11.9069
真言明仙	-11.9071
凖	-11.9072
摩阿難頂	-11.9075
於是阿難及諸大眾	-11.9078
寂而常照	-11.9079
o	-11.9079
盡聞不住	-11.9079
離諸名相	-11.9079
妙修行路	-11.908
見諸佛心	-11.908
各依本	-11.9084
說此頌曰	-11.9089
瞋恨	-11.909
疾疫	-11.9092
踊躍	-11.9095
諸菩薩萬行首楞嚴	-11.9119
諾賀諾賀	-11.9146
薩嚩怛他蘖多	-11.9153
囉剎娑	-11.9155
富饒	-11.9158
檻	-11.9167
啄	-11.9169
眩	-11.9178
緯	-11.9182
麝	-11.9182
入阿鼻獄	-11.9183
卦	-11.9184
得宿命智	-11.9186
訣	-11.9187
摩里支菩薩	-11.9188
熟銅	-11.9188
匱	-11.9189
暎	-11.9189
亘	-11.919
飡	-11.9191
葷	-11.9192
佉陀羅木	-11.9192
鵠	-11.9193
雲棲	-11.9193
恍	-11.9193
氣分交接	-11.9193
天龍鬼神	-11.9196
貴賤	-11.9197
沮	-11.9197
則不隨其生死相續	-11.9198
復用前像	-11.92
訂	-11.9201
言語道斷	-11.9201
東南角	-11.9202
如淨琉璃	-11.9202
即受羣邪	-11.9202
褫	-11.9204
事非頓除	-11.9204
佛問圓通如我所證	-11.9205
如是十種禪那現境	-11.9207
聚緣內搖	-11.9208
因根有相	-11.9209
傳示末法	-11.921
滅塵合覺	-11.9212
窮生類本觀彼幽清常擾動元	-11.9212
y	-11.9215
f	-11.9215
多陷王難	-11.9222
拶咄	-11.9269
唧哩唧哩	-11.9281
惑為菩薩	-11.9296
鴻	-11.9306
跋日囉	-11.9306
雉	-11.9309
臨濟	-11.9316
曩莫三曼多沒馱	-11.9316
技	-11.9319
二羽金剛縛	-11.932
滓	-11.932
袪	-11.9321
五色粉	-11.9321
裡	-11.9323
滅一切罪	-11.9323
蝦	-11.9324
宏	-11.9327
聯	-11.9328
編	-11.9329
從法化生	-11.9332
遑	-11.9332
從口入	-11.9334
九次第定	-11.9334
十惡五逆	-11.9334
兜率陀天	-11.9335
無業果色	-11.9336
全體大用	-11.9336
無見頂相	-11.9337
分成六和合	-11.934
印兔那麼麼寫	-11.9341
因動有聲	-11.9342
汝將誰見	-11.9343
流逸奔色	-11.9344
父母所生之身	-11.9344
本覺明妙	-11.9344
殑伽沙俱胝那庾多百千	-11.9345
信受奉行	-11.9346
發業潤生	-11.9348
發覺初心	-11.9349
認悟中迷	-11.9349
先非水火	-11.935
因所因執	-11.935
十二區分	-11.9352
明不循根	-11.9353
哹	-11.9431
衫	-11.9433
賀賀賀	-11.9434
咓	-11.944
疥	-11.9452
系	-11.9453
逕	-11.9453
柳枝	-11.9456
妹	-11.9461
擬議	-11.9465
密跡主	-11.9465
舍衛國	-11.9468
剎那頃	-11.947
振裂	-11.9472
盈縮	-11.9476
噬臍	-11.9477
以觀觀者	-11.9478
憍梵鉢提	-11.9479
亦有徒眾	-11.9479
發本明耀	-11.948
閉眼見暗	-11.9481
覈	-11.9482
若作聖解即受群邪	-11.9482
十方洞開	-11.9482
脗	-11.9483
料揀	-11.9484
蔽尸	-11.9485
淨念相繼	-11.9485
如海一漚發	-11.9485
汝猶未明	-11.9486
入一無妄	-11.9487
海印發光	-11.9487
迷妄有虗空	-11.9488
十緣生句	-11.9491
又三摩中諸善男子堅凝正心魔不得便	-11.9494
悟則無咎非為聖證	-11.9495
中指上節	-11.9551
􂏨	-11.9593
廿	-11.9595
讐	-11.96
燋	-11.9606
定林云	-11.9607
斫羯囉	-11.9612
凉	-11.9612
矍	-11.9613
今復問汝	-11.9618
怙	-11.962
因戒生定	-11.9621
開圓解	-11.9621
想相為塵	-11.9622
以動為境	-11.9623
鐘鼓	-11.9624
踊躍歡喜	-11.9624
樂變化天	-11.9625
浮漚	-11.9629
是種種地	-11.9629
諦聽善思念之	-11.963
不能為礙	-11.963
是義云何	-11.9632
白世尊言	-11.9633
一六義生	-11.9637
因緣生法	-11.9638
hā	-11.9639
有想無想	-11.9643
五現涅槃	-11.9647
無法可	-11.9682
䞘	-11.9723
肚	-11.9734
億那由他	-11.9735
這箇	-11.9739
纈	-11.9745
槌	-11.9746
睺睺	-11.9749
妓	-11.9755
硬	-11.9755
痔	-11.9757
肖	-11.9758
我今當說	-11.9759
帖	-11.9759
末伽黎	-11.9762
捨念清淨	-11.9763
芥	-11.9764
稠	-11.9765
彈指超無學	-11.9765
惟垂大慈	-11.9766
千手千眼	-11.9768
梓	-11.9768
矢	-11.9768
庶幾	-11.9768
塵不可出	-11.9768
身心相知	-11.9769
漆	-11.977
從互用中	-11.9771
圓滿菩提歸無所得	-11.9771
非色非空	-11.9771
見見之時見非是見	-11.9772
猒	-11.9776
盡虛空遍法界	-11.9777
疑誤眾生	-11.9778
明暗空塞	-11.9779
金剛頂經	-11.978
知無知執	-11.978
本發心路	-11.9782
二食指	-11.9782
能非能執	-11.9785
若諸有學	-11.9786
爾時天魔候得其便飛精附人口說經法	-11.9796
歎未曾有	-11.9848
𦽆	-11.9862
􂟶	-11.9864
素嚕素嚕	-11.9865
釰	-11.9885
􂟾	-11.9888
嚙	-11.9889
髆	-11.9891
嗔陀夜彌	-11.9893
徐徐	-11.9894
拘絺羅	-11.9895
貶	-11.9898
邇	-11.9898
濤	-11.9898
闢	-11.9899
池沼	-11.99
寒暑	-11.99
悚	-11.9901
憫	-11.9902
晃	-11.9904
豹	-11.9905
頭自搖動	-11.9907
霄	-11.9907
妙明元心	-11.9909
威神之力	-11.9911
滔	-11.9911
刳其正性	-11.9912
貪非貪執	-11.9912
幽溪曰	-11.9913
識情為垢	-11.9913
本出塵勞	-11.9915
金剛頂瑜伽	-11.9919
此見及緣	-11.992
歸無歸執	-11.9921
建大法幢	-11.9921
羼提	-11.9924
保持覆護	-11.9926
一分常論	-11.9927
知覺乃眾生	-11.9929
地如佛地	-11.9931
起為世界	-11.9931
無同異中熾然成異	-11.9932
􂨟	-11.9939
香泥塗	-11.9975
赤黃	-12.001
呬哩呬哩	-12.001
孃	-12.001
𠻱	-12.0027
些	-12.0028
祛	-12.003
媚	-12.0033
)。(△	-12.0035
蝮	-12.0036
厭禱	-12.0038
霑	-12.0039
磬	-12.0042
贅	-12.0043
善星比丘	-12.0045
采	-12.0047
瞞	-12.005
情想均等	-12.0051
毗羅胝	-12.0052
錫杖	-12.0052
准前根本印	-12.0056
殖	-12.0057
栢	-12.0057
三昧大教王經卷第	-12.0058
覧	-12.0058
迦毗羅	-12.0059
蹲	-12.0059
鳩槃荼	-12.0061
斷性亦無	-12.0064
身能出礙	-12.0065
晝夜六時	-12.0065
日劫相倍	-12.0067
所妄既立	-12.007
其性真為妙覺明體	-12.007
眾生頑迷不自忖量	-12.0071
一根既返	-12.0071
趣外奔逸	-12.0073
一迷為心	-12.0074
安國寺	-12.0075
善見天	-12.0078
若於空出	-12.0079
常非常執	-12.0083
惑為因緣及自然性	-12.0085
怛他蘖多	-12.013
祭祀	-12.0178
五法具足	-12.0181
緋	-12.0188
漉	-12.0193
麵	-12.02
嬌	-12.0206
出無佛世	-12.0209
從佛口生	-12.0209
啻	-12.0209
畢陵伽婆蹉	-12.0209
迂	-12.0211
遠塵離垢	-12.0212
殻	-12.0213
承受聖旨	-12.0215
大廣智	-12.0216
荷負	-12.0216
覺明為咎	-12.0217
叅	-12.0218
墮阿鼻獄	-12.0218
二無因論	-12.0218
重復悲淚	-12.022
平等性智	-12.0223
含吐十虗	-12.0223
塵勞先起	-12.0225
無令天魔得其方便	-12.0225
分劑頭數	-12.0228
觀性元真	-12.0228
三緣斷故三因不生	-12.0229
自劫家寶	-12.0229
先得人空	-12.0231
怛闥阿竭	-12.0231
明了知性	-12.0233
皈	-12.0283
鏟	-12.031
攃	-12.0313
嚟	-12.033
摽	-12.0335
糜	-12.0336
罕	-12.0339
賞	-12.0344
魁	-12.0344
阿毘遮嚕迦	-12.0349
獵	-12.0352
鴿	-12.0353
矧	-12.0357
雪浪	-12.0358
雖非正修真三摩地	-12.0359
皆來集會	-12.036
大小便利	-12.0363
常光現前	-12.0367
環釧	-12.0369
念念不停	-12.0371
性淨明體	-12.0371
休咎精明	-12.0372
死此生彼	-12.0373
寄根明發	-12.0374
無可指陳	-12.0374
生滅既滅寂滅現前	-12.0375
勞見發塵	-12.0375
當於結心	-12.0377
皆大歡喜信受奉行	-12.0379
房融筆受	-12.0379
色雜妄想	-12.0381
真言及印	-12.0381
六為賊媒	-12.0382
三分之二	-12.0382
聖性無不通	-12.0383
如澄濁水	-12.0384
以此呪呪	-12.0387
不避譏嫌	-12.0397
罵詈徒眾	-12.0397
莎波呵	-12.04
一百五十	-12.041
麼努娑	-12.0458
𡩋	-12.0459
𡰱	-12.0461
嚩路枳多	-12.0473
屎	-12.0491
:『	-12.0498
佛頂尊勝陀羅尼	-12.0499
傅	-12.0503
液	-12.0505
髯	-12.0506
擅	-12.0506
箋	-12.0507
萎	-12.0508
發露懺悔	-12.0511
毅	-12.0514
筌	-12.0517
毋	-12.0519
絲毫	-12.0519
屈指飛光	-12.0519
身心泰然	-12.0521
除其助因	-12.0523
􂨱	-12.0524
世世生生	-12.0524
了不相觸	-12.0526
而告之言	-12.0527
縱有多智禪定現前	-12.0527
理則頓悟	-12.0528
陰處界	-12.0528
四部眾	-12.0528
乘悟併銷	-12.053
生死結根	-12.053
所入既寂	-12.053
意法為緣	-12.0531
凝明正心	-12.0532
及諸羣塞	-12.0532
遞相為種	-12.0533
...	-12.0534
承佛威神	-12.0535
汝言覺了能知之心	-12.0536
不曾散失	-12.0538
觀相元妄	-12.0538
伏還元覺	-12.0539
山河大地諸有為相	-12.0543
羯㗚灑	-12.0616
𠽾	-12.0621
沬	-12.0625
苫	-12.0636
師印呪可知	-12.0646
挂	-12.0655
蓬	-12.0656
援	-12.0658
趺	-12.0662
態	-12.0664
七情三想	-12.0664
痰	-12.0665
魏	-12.0666
呌	-12.0666
妻妾	-12.0667
擘	-12.0667
跟	-12.067
綜	-12.067
受大苦惱	-12.0673
城邑聚落	-12.0674
涕唾	-12.0675
煑	-12.0676
諄	-12.0677
善得中道	-12.0677
湫	-12.0677
胎卵濕化	-12.0678
偏袒右肩右膝著地	-12.0679
六時行道	-12.068
弦	-12.0681
心悟實相	-12.0681
階級	-12.0684
甘蔗	-12.0685
永無諸委曲相	-12.0686
養育	-12.0687
造種種業	-12.0688
從是漸修	-12.0689
決定惑為色身之內	-12.0691
昏擾擾相	-12.0692
有無二無	-12.0694
重增迷悶	-12.0694
况	-12.0694
上都大	-12.0699
雙計有無	-12.07
非一非六	-12.0704
候得其便	-12.0704
妙音密圓	-12.0706
淨光天	-12.0708
白肉色	-12.0709
野吽泮	-12.0739
穩	-12.0807
雪竇	-12.0809
䫂	-12.081
脯	-12.081
矟	-12.0812
棲	-12.0815
畵	-12.0817
郁	-12.0819
西北隅	-12.0821
抂	-12.0822
躁	-12.0823
蹤跡	-12.0824
仕	-12.0828
翹	-12.0829
吝	-12.0834
熙	-12.0835
無卜居	-12.0837
七處徵心	-12.0837
蝡	-12.0838
舉一即三	-12.084
當爾之時	-12.0841
精妙未圓	-12.0842
慇	-12.0843
幽溪云	-12.0844
四維上下	-12.0844
入無所入	-12.0845
請入華屋	-12.0845
汝當奉持	-12.0846
元我覺明	-12.0848
救護親因	-12.0848
惟垂大悲	-12.0849
妙奢摩他三摩禪那	-12.085
唯然世尊	-12.085
墻宇	-12.0851
汝教世人修三摩地	-12.0851
不相踰越	-12.0852
鐶釧	-12.0853
不自忖量	-12.0854
性水真空	-12.0854
前正議大夫同中書門下平章事	-12.0856
影見俱眚	-12.0858
覺齊佛覺	-12.0858
想澄成國土	-12.086
傳密教超悟大師賜紫三藏沙門行琳	-12.086
作將來眼	-12.0861
三因不生	-12.0862
ta	-12.0863
名不動地	-12.0871
䓛	-12.0939
衲	-12.0964
滿䭾滿䭾	-12.0966
飢饉	-12.0985
右壓左	-12.0992
悴	-12.0993
憨	-12.0994
裘	-12.0996
剪	-12.0996
芒	-12.0997
諠	-12.0999
放種種光	-12.1
首尾相換	-12.1001
見無所動	-12.1004
相去一寸	-12.1005
汝今聞不	-12.1005
胞	-12.1006
三叉戟	-12.1006
隨心應量	-12.1008
梵輔天	-12.1009
羯邏藍	-12.1009
憶識誦習	-12.1009
圓明精心	-12.1013
隨為色空	-12.1014
說是語巳	-12.1014
動靜二相了然不生	-12.1018
半生半滅	-12.1019
燧	-12.1019
見色陰消受陰明白	-12.102
去泥純水	-12.102
ū	-12.1025
dha	-12.1025
首楞嚴經義海卷第	-12.1026
此根初解	-12.1029
破佛律儀潛行貪欲	-12.104
町	-12.1104
賛	-12.1116
三滿跢	-12.1131
豺	-12.1137
彥	-12.1145
揵	-12.1146
漠	-12.1152
街	-12.1153
諧	-12.1153
搯	-12.1155
屍陀林	-12.116
枷	-12.116
煬	-12.1165
枷鎻	-12.1166
盂	-12.1166
少光天	-12.1167
怡	-12.1171
不空羂索神變真言經卷第	-12.1172
六根門頭	-12.1172
聲來耳邊	-12.1175
佛說一切如來真實攝大乘現證	-12.1176
慜	-12.1176
覺了能知之心	-12.1177
依正二報	-12.1177
迷中倍人	-12.1178
儔	-12.1178
去無所至	-12.1179
無而忽有	-12.118
過現未來	-12.1182
属	-12.1182
見眚非病	-12.1183
覺見即眚	-12.1185
即空假中	-12.1186
空見不分	-12.1189
三耶三菩	-12.1192
慢過慢	-12.1195
巳滅生滅而於寂滅精妙未圓	-12.1197
佛母大孔雀明王	-12.131
稜	-12.131
抨	-12.1319
賖	-12.1319
鄭	-12.132
癎	-12.132
絺	-12.1321
娶	-12.1326
朵	-12.1327
監	-12.1327
蟯	-12.1327
詭	-12.1328
辜	-12.1328
禦	-12.133
棓	-12.1331
覔	-12.1332
陪	-12.1334
蔑	-12.1335
眾私同分	-12.1335
蔔	-12.1335
潬	-12.1336
漫茶羅	-12.1337
里弭里	-12.1337
屣	-12.1339
今正是時	-12.1341
將罷法座	-12.1341
存想固形	-12.1342
內含寶月	-12.1342
陳列灌頂	-12.1347
無熱天	-12.1348
汝何所見	-12.1348
見所緣眚	-12.1348
彼善男子修三摩提	-12.1352
塲	-12.1353
等覺後心	-12.1353
勝解現圓	-12.1353
猶未亡一	-12.1353
慧覺圓通	-12.1355
解結因次第	-12.1355
成七寶色	-12.1355
鼻香為緣	-12.1357
勝妙現圓	-12.1357
何因有妄	-12.1359
爾時世尊欲重宣此義	-12.1359
bha	-12.1361
ha	-12.1362
他化自在	-12.1434
路枳諦濕	-12.1462
地哩地哩	-12.1464
蘇嚕蘇嚕	-12.1473
臡	-12.1483
癬	-12.1486
𠼐	-12.1489
釐	-12.1493
姤	-12.1495
毳	-12.1497
薩嚩怛他誐哆	-12.1498
航	-12.1499
罄	-12.1499
絰	-12.1501
踴	-12.1506
疆	-12.1507
)。(􂨮	-12.151
若不爾者	-12.1513
獲本妙心	-12.1514
常自思惟	-12.1517
却住一面	-12.1518
受佛氣分	-12.1521
如是十種禪那	-12.1522
戶牖開豁	-12.1524
及諸群塞	-12.1527
安樂妙常	-12.153
異性入同	-12.153
滅妄名真	-12.153
不真何待	-12.1531
右手揚掌	-12.1536
壞其可壞	-12.1538
􂨞	-12.1548
三千戶賜紫贈司空諡大鑒正號大廣智	-12.1572
跋馹囉	-12.1638
嘻	-12.1657
𠿒	-12.1662
迸	-12.1664
㨖	-12.167
撓	-12.1672
)。(▽	-12.1674
帝網無盡	-12.1675
婇	-12.1676
亮	-12.1676
遁	-12.1676
鬢	-12.1676
跋闍囉	-12.1678
蒱	-12.1682
爾今聲不	-12.1685
金剛密跡主菩薩	-12.1687
犍	-12.1688
二無所目	-12.1689
未與如來法流水接	-12.1689
我讚禮	-12.1689
胎因情有	-12.169
數取趣	-12.169
人法二執	-12.1693
五十五位真菩提路	-12.1693
孫陀羅難陀	-12.1693
三摩鉢提	-12.1694
有所非覺	-12.1694
捨身受身	-12.1697
乂	-12.1697
元依一精明	-12.1698
不於根出	-12.1698
十方如來一門超出妙莊嚴路	-12.1699
似現前境	-12.1699
耳聲為緣	-12.1701
六解一亦亡	-12.1702
心光發宣	-12.1702
故不名見	-12.1703
汝暫舉心	-12.1707
不相妨礙	-12.1708
本來無有世界眾生	-12.1708
字形現	-12.173
是非是義	-12.1758
左攞左攞	-12.1803
吠灑䭾	-12.1815
悉哩悉哩	-12.1815
犖	-12.1827
昝	-12.1832
墓	-12.1845
勳	-12.1847
蘇婆呼童子	-12.1849
駐	-12.185
頭破作七分	-12.1851
麼多木佉跛哩嚩	-12.1851
芸	-12.1851
聳	-12.1851
啼哭	-12.1852
西南隅	-12.1853
崙	-12.1854
囄	-12.1856
隘	-12.1856
谿	-12.1858
皰	-12.1858
鑌	-12.186
晃耀	-12.186
稱彼人名	-12.1861
四衢道	-12.1861
受命元由	-12.1866
歡喜畢具	-12.1866
淤	-12.1868
炷	-12.187
縱經塵劫	-12.187
非生非滅	-12.187
見無舒卷	-12.1871
四威儀中	-12.1871
蚊	-12.1872
雲如來南無婆伽婆帝	-12.1873
頭本自然	-12.1873
流變三疊	-12.1874
應不俱聞	-12.1875
瞪以發勞	-12.1876
真性有為空	-12.1877
全性起修	-12.1878
光祿卿明教大師臣法賢奉詔譯	-12.1881
婆沙論	-12.1882
結色成根	-12.1882
覺所覺眚	-12.1882
因異立同	-12.1882
曩謨三滿多沒馱南	-12.1883
舌味為緣	-12.1884
知見立知即無明本	-12.1884
心猶未開	-12.1887
世間無知惑為因緣及自然性	-12.1888
見病為影	-12.1888
玦	-12.1889
圓定發明三摩地中	-12.1903
無盡意菩薩	-12.1905
詫	-12.1995
賽	-12.2001
狸	-12.2018
娜莫縒曼嚲	-12.2019
曩謨婆誐嚩帝	-12.2019
堆	-12.2025
狠	-12.2027
膿	-12.2029
韶	-12.2036
椎	-12.2037
迴佛慈光	-12.2042
椒	-12.2044
珊瑚	-12.2044
歸來佛所	-12.2045
感應道交	-12.2045
號性顛倒	-12.2046
見明色發	-12.2047
不明自發	-12.2047
旋見循元	-12.2047
悉地王真言	-12.2048
以定慧手	-12.2048
光極知見	-12.2049
觀彼幽清	-12.205
將呪往護	-12.2051
摩伽陀國	-12.2051
収	-12.2054
必落魔道	-12.2054
如旋火輪	-12.2054
經恒沙劫	-12.2055
何預於汝	-12.2055
一人專忘	-12.2056
十方如來清淨海眼	-12.2056
生因識有	-12.2058
我今問汝	-12.2059
藏師子座海雲	-12.2059
精神化為土木金石	-12.206
寶明妙性	-12.2061
化樂天	-12.2062
陀那微細識	-12.2063
異彼所異	-12.2064
非幻成幻法	-12.2064
此實見見	-12.2066
照而常寂	-12.2067
迷頭認影	-12.2067
一入六淨	-12.2068
同性亦滅	-12.2069
即般若事業	-12.2072
因明發性	-12.2073
俱陷王難	-12.2085
􂦡	-12.2171
彈舌呼	-12.2178
鵝	-12.2198
饑饉	-12.2211
埽	-12.2217
猿	-12.2222
膾	-12.2224
窹	-12.2228
婬怒癡	-12.2231
同上呼一	-12.2231
不從空來	-12.2232
二障所纏	-12.2234
遶佛三匝	-12.2234
將毀戒體	-12.2235
我教比丘	-12.2236
得法眼淨	-12.2236
來詣佛所	-12.2237
薩怛他伽都瑟尼釤	-12.2239
字門解一切法	-12.2239
我法二執	-12.224
生滅與不生滅	-12.2241
保持覆護成無上道	-12.2241
入於如來妙莊嚴海	-12.2242
是人即獲無生法忍	-12.2242
云何不成無上知覺	-12.2243
表以成人	-12.2243
因緣所生法	-12.2244
重發真妙	-12.2244
明相精純	-12.2245
言妄顯諸真	-12.2246
眾生頑迷	-12.2247
字為真言體	-12.2249
堅明立礙	-12.225
法界量滅	-12.2251
真勝義性	-12.2251
誰當其根	-12.2252
此根初解先得人空	-12.2252
云何立界	-12.2254
麄	-12.2255
從妄見生	-12.2255
覺不生迷	-12.2257
當業輪轉	-12.2261
𡃝	-12.2365
囉濕弭	-12.2379
騫	-12.2392
嚨	-12.2393
滲	-12.2404
矛	-12.2406
跨	-12.2408
塑	-12.241
大遍照金剛如來	-12.241
劉	-12.241
狗牙上出	-12.241
驀	-12.2411
八功德水	-12.2412
溟	-12.2412
蠶	-12.2414
蚊虻	-12.2415
大威怒王	-12.2416
鍵	-12.2416
徤	-12.2417
捶	-12.2417
各從其類	-12.2418
二分文各破	-12.242
同業相纏	-12.2422
寂滅場地	-12.2422
氛	-12.2422
殫	-12.2423
心佛二同	-12.2426
正修行處	-12.2426
渤	-12.2427
妙觸宣明	-12.2428
譚	-12.2429
妙觀察智	-12.243
手作施願	-12.243
去住自由	-12.2431
發阿耨多羅三藐三菩提心	-12.2431
因緣別離	-12.2431
六根成解脫	-12.2432
名發心住	-12.2433
無為無起滅	-12.2434
六湛圓明	-12.2435
滅從色除	-12.2436
妄真同二妄	-12.2437
筭	-12.2438
我憶往昔	-12.2438
咸是妙明真心中物	-12.2439
五疊渾濁	-12.2439
淨極光通達	-12.244
白骨微塵	-12.2441
因此復立無同無異	-12.2445
因色顯發	-12.2449
見色陰銷	-12.2451
度曩度曩	-12.2559
摩護囉誐	-12.2577
羶	-12.2577
匣	-12.2578
緇	-12.2588
澇	-12.2592
忒	-12.2592
敦	-12.2593
濯	-12.2593
泐潭	-12.2593
說此自部	-12.2595
撒	-12.2595
瓷	-12.2597
法喻不齊	-12.2597
涼	-12.2601
跳	-12.2601
大佛頂首楞嚴經疏解蒙鈔卷第	-12.2601
蘿蔔	-12.2603
叢	-12.2605
一超直入	-12.2608
乾有其慧	-12.2609
在在處處	-12.261
芭蕉	-12.261
滅受想定	-12.261
成智慧火	-12.261
噫	-12.261
翫	-12.2612
妙精明心	-12.2614
動少靜多	-12.2614
浣	-12.2616
流急不見	-12.2616
聚見於眼	-12.2617
優鉢羅花	-12.2617
無問自說	-12.2617
盡真如際	-12.2618
由我不自觀音	-12.2619
赩	-12.2619
汝負我命	-12.262
杌	-12.2622
諸類不召	-12.2622
如觀掌果	-12.2622
若從根出	-12.2623
心外無法	-12.2625
去佛不遠	-12.2625
聽不出聲	-12.2626
獲二殊勝	-12.2626
隨拔一根	-12.2626
旋元自歸	-12.2627
屈五輪指	-12.2628
烏萇國沙門彌伽釋迦譯語	-12.2629
伊首羅天	-12.2629
族姓男族姓女	-12.263
同業相感	-12.2632
因了發相	-12.2634
虗妄病緣	-12.2636
靜成虗空	-12.2636
覺海性澄圓	-12.2637
現塵現界	-12.2642
竭多目呿波利簸梨	-12.2654
嚩路枳帝	-12.2754
𡃤	-12.2765
虎嚕虎嚕	-12.2765
薩㗚嚩	-12.2769
釣	-12.2775
擒	-12.2787
氈	-12.279
厨	-12.2791
贍	-12.2793
鴉	-12.2795
敲	-12.2796
陂	-12.2798
峻	-12.28
昆	-12.2801
糓	-12.2805
謾	-12.2805
螟	-12.2807
如幽室見	-12.2807
㲉	-12.2808
閡	-12.281
化以離應	-12.281
由結此印及誦真言	-12.281
明妄非他	-12.2812
嗢陀南	-12.2813
裨	-12.2814
蛤	-12.2815
聆	-12.2816
耳往聲處	-12.2816
各命由緒	-12.2817
風金相摩	-12.2817
例此可知	-12.2817
聲有亦非生	-12.2818
覺湛明性	-12.2818
發兵討除	-12.2819
忽然超越世出世間	-12.282
如水成氷	-12.282
念念受熏	-12.2821
無去無來	-12.2822
無狀異生	-12.2823
謐	-12.2824
見不超色	-12.2824
因空生搖	-12.2824
性空真水	-12.2827
願我等及諸有情	-12.2828
因妄有生	-12.2828
彼太虗空	-12.2829
知見無見斯即涅槃	-12.2829
妙色密圓	-12.2831
􂤂	-12.2963
特進試鴻臚卿	-12.2978
捲	-12.2983
征	-12.2984
褥	-12.2985
蠅	-12.2986
躓	-12.2986
擁	-12.2988
剚	-12.2989
龕	-12.299
竈	-12.2992
業火燒乾	-12.2992
皓	-12.2993
埃	-12.2993
燒眾名香	-12.2994
愕	-12.2995
孚	-12.2997
僉	-12.2998
罏	-12.2999
善超諸有	-12.3
洹	-12.3003
禳	-12.3003
壽命長遠	-12.3005
抗	-12.3006
鐵圍山	-12.3008
迦陵頻伽	-12.3009
音響雙絕	-12.3009
言三即一	-12.301
能入菩薩金剛乾慧	-12.3012
形雖出動	-12.3012
明極即如來	-12.3013
利彌利	-12.3013
即受群邪	-12.3013
神光內凝	-12.3013
求長命者	-12.3014
自語相違	-12.3014
媛	-12.3014
明理不踰	-12.3015
阿毗達磨	-12.3015
退藏密機	-12.3016
化為澄水	-12.3016
自然非彼不見之相	-12.3017
從始洎終	-12.3018
滅生俱盡	-12.3018
淩	-12.3018
二陳白之言	-12.3019
前塵自暗	-12.3019
從麤至細	-12.3019
未全道力	-12.3019
物非體知	-12.302
應不見塞	-12.302
那落迦	-12.302
內脫身心	-12.3021
起滅無從	-12.3021
三分闕一	-12.3021
塞其兩孔	-12.3021
舒結倫次	-12.3022
尚紆疑悔	-12.3023
不和諸色	-12.3024
刼	-12.3024
漚滅空本無	-12.3025
非真求復	-12.3029
除器觀空	-12.3029
然後圓成果地修證	-12.3031
勞久發塵	-12.3033
相待生勞	-12.3033
毀經像	-12.3033
二轉依號	-12.3035
如上是為諸部	-12.3036
則土出時	-12.3036
何當復生	-12.3038
五體同放寶光	-12.3039
顒	-12.3145
􂪔	-12.3152
󰹺	-12.3171
腭	-12.3176
磋	-12.3177
天童頌云	-12.3187
携	-12.3199
嚀	-12.32
精行仙	-12.32
崑	-12.3201
机	-12.3202
佳	-12.3203
庇	-12.3203
賦	-12.3204
儻	-12.3207
煽	-12.3209
不苦不樂	-12.3209
曼茶囉	-12.321
一倍瞻視	-12.3213
觀鼻端白	-12.3214
咲	-12.3214
羊死為人	-12.3214
定慧均等	-12.3216
暗成無見	-12.3216
想愛同結	-12.3216
西天譯經三藏朝奉大夫試光祿卿	-12.3216
為是眾生妄習生起	-12.3217
抖擻	-12.3218
窮空不歸	-12.3218
守於真常	-12.3219
性入元澄	-12.322
惰	-12.322
面各三目	-12.3221
於汝意云何	-12.3221
應拔圓脫	-12.3221
心行處滅	-12.3221
以世涉方	-12.3221
盲人矚暗	-12.3221
從體起用	-12.3222
吾不見時	-12.3222
阿難大眾俱白佛言	-12.3224
伏歸元真	-12.3226
外遺世界	-12.3226
知見妄發	-12.3227
脫黏內伏	-12.3228
謂言登聖	-12.3229
識從聲生	-12.3229
蜺	-12.323
交妄發生	-12.3231
況復諸三有	-12.3233
俱滅俱生	-12.3233
無狀忽生	-12.3234
ḍ	-12.3236
順逆皆方便	-12.3236
一切世界微塵等如來身	-12.3236
色實在燈	-12.3237
訖唎檐	-12.3238
訐露人事	-12.3245
又善男子受陰虗妙不遭邪慮圓定發明	-12.3256
晡	-12.3377
吾當為汝	-12.3387
齧	-12.3394
呰	-12.3398
攢	-12.3398
熒	-12.3398
淹	-12.34
雕	-12.3401
􂡠	-12.3404
漬	-12.3404
稼	-12.3404
白膠香	-12.3404
剔	-12.3404
痢	-12.3406
餒	-12.3407
剉	-12.3407
咥	-12.3409
鞘	-12.3409
青木香	-12.3409
楷	-12.3412
周而復始	-12.3413
𡄦	-12.3414
內守幽閑	-12.3416
足不離地	-12.3418
繖	-12.3418
造諸惡業	-12.3419
踈	-12.3419
從是三摩地出已	-12.342
輟	-12.342
叮	-12.3422
流愛為種	-12.3425
天大將軍	-12.3425
以人食羊	-12.3426
如來應供正遍知	-12.3426
溥遍心印真言	-12.3427
性火真空	-12.3428
陶鑄無礙	-12.3428
還味旋知	-12.3429
廼	-12.343
碍	-12.343
全見前黑	-12.3431
潛伏根裏	-12.3432
四徧常論	-12.3432
轉蛻飛行	-12.3432
兼目與勞	-12.3433
詣何為界	-12.3433
逢此現前	-12.3434
􂨤	-12.3434
績	-12.3435
而求佛乘不生不滅	-12.3435
并所想相	-12.3438
心肝脾胃	-12.3438
汝元不知如來藏中	-12.3439
名為永斷根本無明	-12.344
名為初伏客塵煩惱	-12.3442
聞復翳根除	-12.3444
將欲復真	-12.3444
依真起妄	-12.3445
誰作誰受	-12.3446
𠕀	-12.3569
浦	-12.3594
釁	-12.3602
慠	-12.3607
馨	-12.3607
㧙	-12.361
莎呵誦呪三遍	-12.361
􂌞	-12.3612
脹	-12.3616
底瑟咤	-12.3622
心額喉頂	-12.3623
巷	-12.3623
酌	-12.3624
評	-12.3624
餌	-12.3625
實以聞中入	-12.3626
三日三夜	-12.3626
啝	-12.3628
拆	-12.3628
胤	-12.3629
噬	-12.3629
𥧌	-12.3629
崛	-12.363
成猛火聚	-12.363
碾	-12.3631
從假入空	-12.3632
阿庾多	-12.3634
蹤	-12.3635
吒枳迦羅	-12.3636
瞑	-12.3637
望如恬靜	-12.3637
耐	-12.3639
霾	-12.3639
不汝還者	-12.3639
死從變流	-12.3639
合離成化	-12.3639
下有微礙	-12.364
從迷積迷	-12.3642
消磨六門	-12.3642
我還汝債	-12.3644
四大不織	-12.3645
聲名句文	-12.3645
獨行無交	-12.3646
巳獲其同	-12.3647
冀佛冥授	-12.3647
佛頂如來密因脩證了義諸菩薩萬行首	-12.3649
無狀狂走	-12.365
性非眚者	-12.365
不與暗合	-12.3651
牘	-12.3651
廣大明王央俱捨真言	-12.3653
薀	-12.3653
如母憶子	-12.3654
宛成非相	-12.3656
遲速不同倫	-12.366
滅除度相	-12.3662
唥	-12.3811
嘚	-12.3818
蜀	-12.3824
蚖	-12.3825
㮈	-12.3829
瀝	-12.3831
唬	-12.3833
疙	-12.3834
神龍元年	-12.3834
戒禁取	-12.3836
藕	-12.3838
新新不住	-12.3838
踰膳那	-12.3841
架	-12.3842
覿	-12.3843
鞠	-12.3845
姿	-12.3845
璞	-12.3846
鎚	-12.3847
爰	-12.3847
嚮	-12.3848
徵心辨見	-12.3851
盼	-12.3852
感應懸絕	-12.3852
桂	-12.3855
寱	-12.3855
經微塵劫	-12.3856
緣見因明	-12.3856
躄	-12.3856
魔醯首羅	-12.3857
獎	-12.3858
開權顯實	-12.3858
物亦見汝	-12.3859
旋令覺知	-12.3859
除一切蓋障	-12.3859
成敵兩立	-12.3859
妙見圓澄	-12.386
皆住本國	-12.3861
二隨計牒破	-12.3864
十種深喻	-12.3865
以滅窮研	-12.3865
我以不滅不生合如來藏	-12.3865
方便有多門	-12.3865
緜	-12.3866
水勢劣火	-12.3867
靜深不動	-12.3868
以湛旋其虗妄滅生	-12.3869
勸弘宣	-12.3869
見聞如幻翳	-12.387
雖憶何為	-12.387
妙德瑩然	-12.387
發聞居中	-12.3871
明了其家所歸道路	-12.3872
見精映色	-12.3872
無可憑據	-12.3872
流不及地	-12.3873
四有邊論	-12.3878
成就祕密教理	-12.3878
大興善寺	-12.393
囉的捺	-12.4019
牝	-12.403
蕭	-12.4038
梢	-12.404
馹	-12.4048
戚	-12.4051
佷	-12.4059
竄	-12.406
無有遺餘	-12.4061
拱	-12.4062
翠	-12.4062
釆	-12.4063
莂	-12.4064
槍	-12.4065
踵	-12.4065
持國天王	-12.4065
受氣猛火	-12.4065
吁	-12.4066
涸	-12.4067
皂	-12.4069
是一印呪名如來	-12.407
所去隨願	-12.407
俱來集會百千	-12.4071
發成精行	-12.4071
除去毒蜜	-12.4072
彷彿	-12.4072
濕以合感	-12.4073
二萬一千	-12.4073
觀聽旋復	-12.4074
作頻那夜迦天像	-12.4074
覺觀出思惟	-12.4077
誇	-12.4078
性空真火	-12.4078
能取所取	-12.408
炮	-12.408
互來相噉	-12.4081
訐	-12.4081
反妄歸真	-12.4082
怖頭狂走	-12.4082
邪師說法	-12.4083
如急流水	-12.4083
顯於離知	-12.4083
日照則明	-12.4085
失彼精了	-12.4085
滅身歸無	-12.4085
如是皆以三增進故	-12.4086
阿迦尼吒天	-12.4086
昬	-12.4086
何不自聞聞	-12.4087
身知有觸	-12.4087
緣生故如幻	-12.4087
昔本無迷	-12.4088
識動見澄	-12.409
炊	-12.409
承佛聖旨	-12.4091
俱胝那庾多百千	-12.4091
物不觸知	-12.4092
十方薄伽梵一路涅槃門	-12.4095
ebhyaḥ	-12.4096
綰疊華巾	-12.4097
從何立界	-12.4104
弭理弭理	-12.4247
𠹀	-12.4255
輿	-12.4262
斡資哩	-12.4265
啊	-12.4271
摩訶迦嚧尼迦	-12.4279
蛆	-12.4279
篩	-12.428
惛	-12.428
其病即差	-12.4281
熊	-12.4286
遇風成形	-12.4287
蒜	-12.4289
袖	-12.4291
吟	-12.4292
巍巍	-12.4292
艮	-12.4292
檐	-12.4294
賺	-12.4294
茹	-12.4296
尠	-12.4296
蜾	-12.4301
諒	-12.4301
閭	-12.4301
渚	-12.4304
銷落諸念	-12.4305
末伽梨	-12.4305
甲長髮生	-12.4305
返窮流根	-12.4305
舍衛國祇樹給孤獨園	-12.4306
真言歸命如前	-12.4306
闠	-12.4306
窮色性性	-12.4307
覺際入交	-12.4307
若逢不逢	-12.4308
我雖識此見性無還	-12.4308
謹潔無犯	-12.4308
有竅則明	-12.4308
大可畏明王央俱捨真言	-12.4309
在堂不見如來	-12.431
褁	-12.4311
反流全一	-12.4311
不如一日修無漏業	-12.4312
枉入諸趣	-12.4312
云何於中有是非是	-12.4314
妙湛總持不動尊	-12.4314
心地涉知	-12.4314
有三摩提名大佛頂首楞嚴王具足萬行	-12.4315
畜聞成過	-12.4316
乃至別成聲聞緣覺	-12.4316
或帶身上	-12.4316
寶明生潤	-12.4316
允所瞻仰	-12.4318
婆吒霰尼	-12.4319
均名七大	-12.4321
淨福性生	-12.4322
妙香密圓	-12.4323
鹹淡甘辛	-12.4323
ṭ	-12.4324
𡨋	-12.4331
由是引起塵勞煩惱	-12.4332
硯	-12.4457
呂	-12.4507
蹄	-12.4511
嗽	-12.4515
悖	-12.4519
日初出時	-12.4519
顙	-12.452
拓	-12.4521
輞	-12.4522
鎗	-12.4524
噓	-12.4525
痾	-12.4525
頹	-12.4526
鉾	-12.4529
磁	-12.453
做	-12.453
慣	-12.4531
我頭自動	-12.4532
承斯善利	-12.4533
淆	-12.4535
欲習初乾	-12.4536
苕	-12.4536
蛉	-12.4536
無痛痛覺	-12.4536
因各各私	-12.454
以方涉世	-12.454
體非羣相	-12.4541
見何虧損	-12.4541
忽悟水因	-12.4542
各各自知心徧十方	-12.4542
籤	-12.4543
汝既見物	-12.4543
未盡形累	-12.4543
拾出蟯蛔	-12.4544
轉識成智	-12.4545
魚鳥龜蛇	-12.4546
如是見性是心非眼	-12.4546
前無新證	-12.4546
覽塵斯憶	-12.4546
周利槃特迦	-12.4546
相傾相奪	-12.4547
眾塵隔越	-12.4547
息機歸寂	-12.4547
毗陀耶闍瞋陀夜彌	-12.4548
如存不存	-12.4548
乃至證得無上菩提	-12.455
真非真恐迷	-12.455
心目為咎	-12.4551
未敢認為本元心地	-12.4551
從始至終	-12.4551
心精遺聞	-12.4552
所立照性亡	-12.4554
薩怛多般怛囉	-12.4554
悟諸色性	-12.4555
uru	-12.4556
雜糅精瑩	-12.4557
心重世名	-12.4558
􂡿	-12.4702
􂟮	-12.4707
半拏囉嚩	-12.4734
鉢納麼	-12.4747
紋	-12.4752
嶺	-12.4752
妍	-12.4755
若男若女	-12.4755
圈	-12.4756
綸	-12.4758
食馬麥	-12.476
壽命延長	-12.4761
緘	-12.4765
汲	-12.4766
蓄	-12.4769
奘	-12.477
久離病緣	-12.4772
其心不偷	-12.4773
行盡識現	-12.4774
鐶	-12.4774
以蝦為目	-12.4774
擊久聲銷	-12.4775
猶為法塵分別影事	-12.4775
磣	-12.4775
澹	-12.4776
生從順習	-12.4777
互為賓主	-12.4777
攬七寶几	-12.4778
空散銷沉	-12.4779
無復馳逸	-12.4779
納想為胎	-12.4779
後方全暗	-12.4779
勞倦則眠	-12.478
心佛眾生三無差別	-12.478
內懸明月	-12.478
遭枝岐	-12.478
紜	-12.4781
用餉他國	-12.4783
荊溪云	-12.4783
歸元性無二	-12.4783
失憶為忘	-12.4784
一處成休復	-12.4784
皆獲一乘寂滅場地	-12.4784
寂照含虗空	-12.4784
無明又非覺湛明性	-12.4785
若盡非盡	-12.4785
不縱不橫	-12.4785
歸失故居	-12.4786
以無所得為方便	-12.4787
元明照生所	-12.4788
如鏡現像	-12.4789
土失留礙	-12.479
宣勝義中真勝義性	-12.479
云何是中更容他物	-12.4791
真得所如	-12.4791
告執金剛祕密主言	-12.4791
熏以成業	-12.4792
認一浮漚	-12.4792
斯則如來真三摩地	-12.4798
識自為味	-12.48
目有赤眚	-12.4801
織妄相成	-12.4803
􂏦	-12.4964
伴惹伴惹	-12.4978
謫	-12.4987
錐	-12.4993
繡	-12.4994
軒	-12.4995
弼	-12.4995
館	-12.4995
補瑟徵迦	-12.4999
尹	-12.5
雌	-12.5001
兼境兼根	-12.5002
姻	-12.5005
稀	-12.5006
廬	-12.5006
瘂	-12.5006
車夜揭囉訶	-12.5007
心光密迴	-12.5008
腰鼓顙	-12.5009
惑聲為聞	-12.5011
風雨順時	-12.5013
苦練木	-12.5014
熏陸香	-12.5015
惚	-12.5016
幅	-12.5017
誰明空質	-12.5019
研交無地	-12.5019
人相不缺	-12.5021
叟	-12.5022
琶	-12.5022
去佛漸遠	-12.5023
滅音圓聞	-12.5023
以香為知	-12.5024
成圓明淨妙	-12.5026
渺	-12.5028
旋法歸無	-12.5028
不死矯亂徧計虗論	-12.5028
不由前塵所起知見	-12.5029
鏡交光處	-12.5029
中間自無是月非月	-12.503
氷還成水	-12.5031
非所非盡	-12.5033
娑嚩二合引訶引	-12.5033
彗孛飛流	-12.5033
外洎山河	-12.5034
有漏微塵國	-12.5035
聖凡無二路	-12.5038
好遊族姓	-12.5039
皆了元由	-12.5039
貪求靜謐	-12.5046
波野吽吽𠷑吒	-12.5193
訶贍部	-12.5195
􂤄	-12.52
弭哩弭哩	-12.5219
沒𠆙沒𠆙	-12.522
主嚕主嚕	-12.5224
牝娜牝娜	-12.5227
廸	-12.5233
甫	-12.5234
窣嚩訶	-12.5237
裴	-12.5241
昂	-12.5245
芳	-12.5246
那拏酤鉢囉	-12.5246
窓	-12.5246
壽千萬歲	-12.5247
輦	-12.5249
廳	-12.5251
艶	-12.5252
悠	-12.5253
鴛	-12.5254
吽鑁斛	-12.5255
遇物成形	-12.5257
汝我同氣	-12.5258
雖則自招	-12.5258
去無思憶	-12.5259
方廣菩薩藏文殊師利根本儀軌經卷第	-12.5259
我見如來三十二相	-12.5261
愗	-12.5261
失汝元常	-12.5261
流入橫生	-12.5262
甥	-12.5263
後貯甘露	-12.5263
漱	-12.5264
十處一時聞	-12.5264
艸	-12.5265
有何艱險	-12.5266
迪	-12.5266
浮幢王剎	-12.5266
𡋯	-12.5266
七八二識	-12.5267
南麼三曼多伐折囉	-12.5267
緤	-12.5268
訶利帝母	-12.5268
異舌知味	-12.527
觀大觀小	-12.527
從何方便入三摩地	-12.5271
三結成外論	-12.5273
融形復聞	-12.5274
合然俱離	-12.5276
還同本悟	-12.5278
誰能留汝形	-12.5279
皆合涅槃清淨妙德	-12.528
爪生髮長	-12.5281
猥	-12.5281
幻法云何立	-12.5282
二用心邪正	-12.5282
覺迷迷滅	-12.5283
熟寐寱言	-12.5285
致大饒富	-12.5286
一病目人	-12.5286
因生有滅	-12.5287
摩怛唎伽拏	-12.5288
是人愚迷惑為菩薩	-12.5302
枳理枳理	-12.5462
􂪖	-12.5471
步嚕步嚕	-12.5474
􂠹	-12.5478
岩	-12.5479
聹	-12.548
叭	-12.548
森	-12.5489
虱	-12.5491
黶	-12.5496
經律異相	-12.5497
青赤白蓮	-12.5499
搥	-12.55
光光相然	-12.5504
􂚲	-12.5504
遇畜成形	-12.5505
瞖	-12.5506
舅	-12.5509
繽	-12.551
庖	-12.551
擿	-12.5512
鬧	-12.5512
兜樓婆香	-12.5513
芝	-12.5515
臼	-12.5516
挺	-12.5516
◑	-12.5517
毘樓博叉	-12.552
𣐍	-12.5522
憤	-12.5522
猜	-12.5522
人死為羊	-12.5523
呢	-12.5523
闤	-12.5523
彌戾車	-12.5524
烏瑟膩沙	-12.5525
不為不思無	-12.5526
阿唎耶多囉	-12.5526
決定自知成佛不謬	-12.5526
離一合雙	-12.5526
帙	-12.5527
教理行果	-12.5528
前方全明	-12.5528
軀命不同	-12.5528
獲十四種無畏功德	-12.5529
此句方名無戲論法	-12.553
心慮灰凝	-12.553
生滅二圓離	-12.553
舐	-12.553
從細至麤	-12.5531
三賢十聖	-12.5532
右繞三匝	-12.5532
流息無恒	-12.5533
癃	-12.5533
南無悉羯唎多耶	-12.5533
不知身心顛倒所在	-12.5533
故發真如妙覺明性	-12.5533
慧力過定	-12.5534
業流灣環	-12.5534
世間和合麤相	-12.5536
圓擾動元	-12.5536
汝心昏迷	-12.5536
何不見吾不見之處	-12.5539
離則兩合	-12.554
不相乖異	-12.5541
汝等必須將如來語	-12.5541
何方便門得易成就	-12.5542
受領無失	-12.5544
我今欲令阿難開悟	-12.5546
身中貿遷	-12.555
􂨝	-12.555
我亦保護是修行人	-12.555
現我知中	-12.5558
清淨蓮華明王央俱捨真言	-12.5558
迦拏迦拏	-12.5727
護虜護虜	-12.5727
尾哩尾哩	-12.573
寗	-12.5737
娘	-12.5746
鉢左鉢左	-12.5755
惕	-12.576
玻	-12.576
矩畔拏	-12.5763
竇	-12.5765
寂湛生光	-12.5765
鱗	-12.5766
脊	-12.5767
波斯匿	-12.5767
島	-12.5768
潰	-12.5768
娜麼三曼多勃馱	-12.5768
藻	-12.5769
悕	-12.5771
㤄	-12.5772
窠	-12.5772
如避火坑	-12.5772
憒	-12.5773
給孤獨園	-12.5773
堵	-12.5773
鵬	-12.5774
螢	-12.5776
齩	-12.5778
研磨不休	-12.5778
碩	-12.5781
洽	-12.5782
勝妙殊絕	-12.5782
無聲號無聞	-12.5783
愛河乾枯	-12.5784
婬躬撫摩	-12.5784
阿蜜哩多軍荼利	-12.5785
隨所合處心則隨有	-12.5785
下洞火輪	-12.5786
紊	-12.5786
味如嚼蠟	-12.5786
愛心永脫	-12.5786
彼彼發業各各私受	-12.5786
篤	-12.5788
旋流獲無妄	-12.5789
取我求實	-12.5789
不惜身命	-12.5789
不起于座	-12.5791
暝	-12.5791
如來說為可憐愍者	-12.5793
舒金色臂	-12.5793
與諸眾生同一悲仰	-12.5793
交發立堅	-12.5794
願今得果成寶王	-12.5794
以此大孔雀王呪	-12.5794
不得漏盡成阿羅漢	-12.5794
壅令留礙	-12.5795
毗盧遮那成佛神變加持經義釋	-12.5795
貪求永歲	-12.5798
銷我億劫顛倒想	-12.5798
若目明朗	-12.5798
慈陰妙雲	-12.5799
如蒲萄朵	-12.58
我憐汝色	-12.58
銷磨六門	-12.5801
上求下化	-12.5801
純潔精真	-12.5802
我常不開演	-12.5802
祗陀林	-12.5802
眚即見勞	-12.5803
善能成就五十五位真菩提路	-12.5804
大法炬陀羅尼經卷第	-12.5805
願樂一成	-12.5807
云何名為乾慧之地	-12.5811
大興善寺三藏沙門大廣智不空奉詔譯	-12.5812
故敬禮無所觀	-12.5812
圓澄覺元妙	-12.5815
還來收一	-12.5846
不取無非幻	-12.5936
非幻尚不生	-12.5936
婆嚩喃劍波	-12.5984
𠲎	-12.5987
枳抳枳抳	-12.5996
韓	-12.6014
訶那訶那	-12.6023
曩謨三滿哆沒馱	-12.6027
啐	-12.6029
潑	-12.6031
蠍	-12.6035
鸚	-12.6035
鞋	-12.6037
寵	-12.6037
閼	-12.604
捨生趣生	-12.6041
闌	-12.6041
繆	-12.6042
亞	-12.6044
掇	-12.6044
然令猛熾	-12.6046
爾時世尊大遍照如來	-12.6047
陞	-12.6047
談說酢梅	-12.6048
𨽻	-12.6048
∴	-12.6051
歿	-12.6052
迺	-12.6053
恕	-12.6054
是覺始獲金剛心中初乾慧地	-12.6056
不皺非變	-12.6056
靴	-12.6056
心迹尚交	-12.6057
哨	-12.6057
皺者為變	-12.6057
死逆生順	-12.6057
誦母陀羅尼真言祕密心真言	-12.6057
卉	-12.6058
機括獨行	-12.6058
有名鬼倫	-12.6059
幽清擾動	-12.606
觀聽返入	-12.6061
蚌	-12.6062
驕梵鉢提	-12.6062
整理衣服	-12.6063
親奉覺胤	-12.6063
如失乳兒忽遇慈母	-12.6063
此道為復本來自有	-12.6063
得成菩提妙奢摩他三摩禪那最初方便	-12.6064
同異失準	-12.6064
見必我真	-12.6064
火騰水降	-12.6065
堅覺寶成	-12.6065
琵	-12.6066
智力衰微	-12.6067
遐邇俱可聞	-12.6068
若不見吾不見之地	-12.6068
四維虧一半	-12.6068
中途成狂	-12.6069
汝妄自造	-12.6069
皆領深恩	-12.6069
發見居中	-12.607
明前不明後	-12.607
是非鋒起	-12.6071
故能令汝出指非指	-12.6072
皆是妙明真精妙心中所現物	-12.6073
將聞持佛佛	-12.6073
均名六大	-12.6073
一切世間諸所有物	-12.6073
迷晦即無明	-12.6074
我巳宿齋	-12.6075
諸幢王剎	-12.6075
若取肉形	-12.6077
若頭與手	-12.6079
伽釋迦譯語菩薩戒弟子	-12.608
呵閻浮提卑	-12.6274
麼他麼他	-12.6276
暑	-12.6289
𡆗	-12.6295
鴆	-12.6297
淋	-12.6298
繪	-12.6298
姊	-12.6301
巫	-12.6301
嚂	-12.6304
𡅏	-12.6305
繩木絞校	-12.6306
酷	-12.631
萸	-12.6311
瘥	-12.6311
銓	-12.6313
遘	-12.6314
饍	-12.6319
烹	-12.6323
腠	-12.6324
辮	-12.6324
僮	-12.6325
逢欲暫交	-12.6327
為利兵刃	-12.6327
為承為忍	-12.6328
將求密義	-12.633
鍮	-12.633
𦘕	-12.6331
叛	-12.6331
如寶蓮香比丘尼	-12.6331
楯	-12.6331
虗受照應	-12.6333
錍	-12.6334
聖境冥現	-12.6334
澍	-12.6335
聲無既無滅	-12.6335
異見成憎	-12.6335
而不拒彼諸相發揮	-12.6337
縱汝形銷	-12.6337
要因門入	-12.6338
粮	-12.6339
三十二相八十種好	-12.634
名生貴住	-12.634
音性圓銷	-12.634
不亦宜乎	-12.6341
欲習既除	-12.6341
初發心時便成正覺	-12.6342
希更審除微細惑	-12.6344
纖塵不立	-12.6344
三結酬所問	-12.6344
無復幽黯	-12.6345
補丹那揭囉訶	-12.6346
徧能含受十方國土	-12.6347
珥	-12.6348
生機全破	-12.6348
那謨囉怛那怛囉	-12.6349
隔垣聽音響	-12.6349
緣斷勝性	-12.6349
明極覺滿	-12.635
為香為臭	-12.6351
成就眾生出世間智	-12.6351
目為全潮	-12.6352
名善慧地	-12.6353
急畜其鼻	-12.6353
結解同所因	-12.6356
吾當為汝分別開示	-12.6358
次補佛處	-12.6359
汝觀世間解結之人	-12.6361
禮大慈大悲本尊教主	-12.6381
啉	-12.6569
鵲	-12.6573
矴	-12.6576
戎	-12.6579
唼	-12.6593
瑯	-12.6596
巵	-12.6602
情均天倫	-12.6605
鈿	-12.6606
朴	-12.6607
六情四想	-12.6607
鉢羅奢佉	-12.6607
駛	-12.6608
弘範三界	-12.6609
心熱發火	-12.661
狩	-12.6611
澆	-12.6611
腐	-12.6612
淘	-12.6613
羖	-12.6613
宛轉零落	-12.6614
概	-12.6614
嫡	-12.6614
柅	-12.6614
鏁	-12.6615
牖	-12.6616
麋	-12.6617
棟	-12.6617
洗心非正	-12.6619
後行菩薩清淨律儀	-12.6619
奏諸音樂	-12.662
裨販如來	-12.662
銷礙入空	-12.662
待華更生	-12.662
縱得妙悟	-12.662
運運密移	-12.6621
栽	-12.6622
終不於此取泥洹	-12.6624
明圓滅漏	-12.6624
萄	-12.6624
涉勢若成	-12.6624
則諸暗相永不能昏	-12.6625
向外馳求	-12.6626
如一眾生未成佛	-12.6627
應立量云	-12.6629
十方國土皎然清淨	-12.663
悉怛多般怛羅	-12.663
我憶往昔恒河沙劫	-12.6631
眼根八百功德	-12.6631
而如來藏唯妙覺明圓照法界	-12.6631
業繫苦相	-12.6631
遡	-12.6633
何藉劬勞肯綮修證	-12.6635
吸撮內塵	-12.6635
感激過分	-12.6636
土勢劣水	-12.6637
皆即菩提妙明元心	-12.6637
盲聾瘖瘂	-12.6638
沙土自沉	-12.6639
遠諸留患	-12.6639
精心陰速	-12.6641
綮	-12.6641
我以妙明不滅不生合如來藏	-12.6641
由明暗等二種相形	-12.6642
勝性現圓	-12.6642
但如鏡中無別分析	-12.6643
至何漸次得修行目	-12.6645
謂先通說一切如來	-12.6648
其目周視	-12.6651
滿鄧迦嚧	-12.6842
喯	-12.6857
謟	-12.6866
母𩕳母𩕳	-12.6869
秤	-12.6881
戶嚕戶嚕	-12.6884
驛	-12.6889
鷹	-12.689
匙	-12.6893
稗	-12.6893
駮	-12.6894
方行等慈	-12.6895
遇衰成形	-12.6896
駭	-12.6897
𦜮	-12.69
愽	-12.6901
胯	-12.6902
同悟宿因	-12.6903
蝶	-12.6904
俞	-12.6904
償足自停	-12.6905
單犯一業	-12.6905
榆	-12.6905
救世悉安寧	-12.6905
跌	-12.6906
盤陀盤陀	-12.6906
優曇鉢	-12.6907
『	-12.6908
緻	-12.691
將此深心奉塵剎	-12.6911
陁	-12.6912
而我見性尚無有止	-12.6913
生纏空種	-12.6913
口兼獨言	-12.6913
屯	-12.6914
霖	-12.6914
無不包容	-12.6915
果招紆曲	-12.6916
必落神道	-12.6916
覰	-12.6917
啗	-12.6917
燈能顯色	-12.6917
汝今欲逆生死欲流	-12.6918
卵唯想生	-12.6918
以塗場地	-12.6918
用攀緣心為自性者	-12.6919
陰信冥通	-12.6919
現前雖成九次第定	-12.6919
五根所不齊	-12.6922
餘塵尚諸學	-12.6922
鵠白烏玄	-12.6923
細羅為粉	-12.6923
滿中擎空	-12.6923
拔我疑根	-12.6923
當欲誰還	-12.6925
不如實知真如法一	-12.6925
各各功德有千二百	-12.6926
在給孤園	-12.6926
內抑過分	-12.6927
我說佛法從因緣生	-12.6928
非體非影	-12.6929
一滴之雨	-12.6929
恒令此人所作如願	-12.6929
要以一機抽	-12.6929
性見覺明覺精明見	-12.693
皆是無始見病所成	-12.6931
根中積生無始虗習	-12.6931
由法生故種種心生	-12.6931
無得疲怠妙菩提路	-12.6931
頓入如來寶明空海	-12.6934
汝體先因父母想生	-12.6934
而猶未明如是覺元	-12.6937
生倒圓種	-12.6942
處從誰立	-12.6943
雍	-12.6944
一切世界極微塵量等	-12.695
開府儀同三司	-12.7152
娜賀娜賀	-12.716
撦	-12.7172
丞	-12.7181
疽	-12.7186
襄	-12.7191
令離憂苦	-12.7192
曩莫糝曼多沒馱喃	-12.7193
侈	-12.7194
刈	-12.7197
幕	-12.7199
嶮	-12.72
蓽	-12.7202
匡	-12.7202
囂	-12.7203
刮	-12.7205
內守幽閒	-12.7205
貳	-12.7206
瞎	-12.7206
肅恭齋法	-12.7206
礦	-12.7206
沽	-12.7206
迨	-12.7206
赧	-12.7207
嚴整威儀	-12.7207
欲氣麤濁	-12.7207
􂙒	-12.7209
贈	-12.7209
咸受幽氣	-12.7209
喘	-12.721
未能違戾	-12.7212
竦	-12.7212
佉禰囉木	-12.7213
如阿梨樹枝	-12.7214
􂣪	-12.7214
尚留觀聽	-12.7214
癊	-12.7214
心慮虗凝	-12.7216
詃	-12.7217
圓窮捨道	-12.7217
汝面雖皺	-12.722
我亦從中證	-12.7221
六入十二處十八界	-12.7222
縱滅一切見聞覺知	-12.7223
倡	-12.7223
還度如是恒沙眾	-12.7224
正陳悟旨	-12.7225
搖明風出	-12.7227
二牒證結答	-12.7227
一專為憶	-12.7228
目揵連	-12.7229
悲欣交集	-12.7229
令誰受滅	-12.7229
殷勤啟請十方如來	-12.723
故於是中觀大觀小	-12.7232
愛極發狂	-12.7232
各說最初成道方便	-12.7233
日明雲暗	-12.7233
云何復名覺聞知見	-12.7233
於中實無是非二相	-12.7234
窮十二變為一旋復	-12.7234
忽蒙天王賜與華屋	-12.7234
集知居中	-12.7235
原始要終	-12.7236
俱是無始見妄所生	-12.7237
徧令眾生開悟斯義	-12.7237
了明非暗	-12.7238
生倒知種	-12.7238
從始入終	-12.7239
顛倒淪替	-12.7239
欲真巳非真真如性	-12.724
十信十住十行十	-12.7242
成一圓融清淨寶覺	-12.7243
精了不能徹	-12.7246
用目循歷	-12.7252
至非意識界	-12.7259
𧜟	-12.7463
褐	-12.7479
曝	-12.7485
趁	-12.7486
銕	-12.7497
拕	-12.7502
焬	-12.7503
􂞅	-12.7508
葬	-12.7509
􂦍	-12.7509
翰	-12.751
擡	-12.7512
想明斯聰	-12.7514
名絕行仙	-12.7514
衷	-12.7515
不遑僧次	-12.7515
齎	-12.7516
芙	-12.7516
笛	-12.7517
斯癹囉納三麻耶	-12.7518
釵	-12.7518
被陰所迷	-12.7519
臂腕骨髓	-12.7519
溝	-12.752
倒懸其頭	-12.7521
能為鑊湯洋銅	-12.7521
濃	-12.7523
􂨭	-12.7523
〇	-12.7523
一日二日三日四日	-12.7524
咨決心疑	-12.7524
地鉢哆曳	-12.7525
盡其涯際	-12.7525
廉	-12.7526
誰動誰靜	-12.7526
慄	-12.7527
發於誣謗	-12.7527
眾同分中兼有元地	-12.7527
身毛皆竪	-12.7527
星火迸灑	-12.7527
廡	-12.7527
溉	-12.7528
都言此身死後全滅	-12.7529
生妄延種	-12.753
㵎	-12.753
怱	-12.7531
悍	-12.7531
榜	-12.7531
齋畢旋歸	-12.7531
背塵合覺	-12.7532
斯是如來無見頂相	-12.7533
傳法大師賜紫沙門臣施護等奉詔譯	-12.7533
如雙垂爪	-12.7533
了罔陳習	-12.7533
寧有雙覺	-12.7533
豈憶靜搖	-12.7534
附塊為兒	-12.7534
因果今殊感	-12.7535
吸習中歸	-12.7538
識見雜三和	-12.7538
松直棘曲	-12.7539
亡失恒審	-12.7539
惟妙覺明圓照法界	-12.754
解脫法巳俱空不生	-12.754
心聞洞十方	-12.754
久必壞生	-12.754
見與見緣并所想相如虗空華本無所有	-12.7541
長不傾逝	-12.7541
性無移改	-12.7541
補陀洛山	-12.7542
坐微塵裏轉大法輪	-12.7542
鬚髮自落	-12.7543
汝今欲知奢摩他路	-12.7543
誠如法王所說	-12.7545
因慧獲諸輕清	-12.7546
日鏡相遠	-12.7546
如聲度垣	-12.7547
方盡妙覺成無上道	-12.7547
則復滅除諸生死因	-12.7548
汝觀交中性	-12.7549
猶如片雲點太清裏	-12.7549
生顛化種	-12.7549
新證未獲	-12.755
窮盡瀛渤	-12.7551
又誰非月	-12.7552
識性流出無量如來	-12.7554
云何復問不相容者	-12.7555
扸	-12.7565
拿	-12.7726
三𦴭三沒䭾	-12.7785
以金剛步而漸進	-12.7804
噎	-12.7808
脅	-12.7821
黠	-12.7822
麤漏巳伏	-12.7823
兇	-12.7823
痒	-12.7825
聶	-12.7827
騰逸奔波	-12.7827
嚥	-12.7828
鉛	-12.7832
椽	-12.7833
庠	-12.7833
腥	-12.7833
粆	-12.7834
雁	-12.7834
涵	-12.7836
趙	-12.7836
磑	-12.7837
盾	-12.7838
批	-12.7838
撾	-12.7839
湊	-12.784
相食相誅	-12.7841
鏤	-12.7841
禾	-12.7842
黍	-12.7843
聞聽屬水	-12.7844
鑄氣為金	-12.7844
鹵	-12.7845
嬾	-12.7845
燒令煙盡	-12.7846
寥	-12.7847
使其形影重重相涉	-12.7847
於灌頂部錄出別行	-12.7848
𠃔	-12.7848
畢殫其類	-12.7848
崔	-12.7849
昭昭靈靈	-12.785
蛟	-12.7851
􂢬	-12.7851
不緩不急	-12.7851
靉	-12.7853
施佛七錢	-12.7853
沼	-12.7853
一澄元習	-12.7853
為餒為爽	-12.7854
璧	-12.7854
大唐天竺三藏菩提流志譯	-12.7855
烝	-12.7856
乾闥婆阿修羅迦樓羅緊那羅摩睺羅伽	-12.7856
生越化地	-12.7856
擎山持杵	-12.7858
其誰修證無生法忍	-12.7859
則汝亦可見吾之見	-12.786
寰	-12.7861
卷聲成根	-12.7861
由是六根互相為用	-12.7861
撻	-12.7863
逆彼無始織妄業流	-12.7864
現前殘質不復續生	-12.7864
皆是妄緣風力所轉	-12.7864
或慈或威	-12.7865
若復欲令入無方圓	-12.7866
欲漏不先除	-12.7868
若能於此悟圓通根	-12.7868
依不生滅圓湛性成	-12.7868
阿難承佛悲救深誨	-12.7868
令汝速證安樂解脫	-12.7868
是兵要當知賊所在	-12.7868
因絞成水	-12.7868
念緣非離物	-12.7868
鑿自出土	-12.7868
皆即狂勞顛倒華相	-12.7869
我今猶如旅泊之人	-12.7869
冰還成水	-12.787
雖見諸根動	-12.7871
皆是我心變化所現	-12.7872
遠契如來常樂我淨	-12.7873
非和合生及不和合	-12.7873
虗實失措	-12.7873
後及庭際	-12.7873
貯於靜器	-12.7873
vati	-12.7874
自生艱險	-12.7877
佇佛慈音	-12.7877
金剛薩埵三摩地極堅牢故	-12.788
能令六根一時清淨	-12.7881
色想結成塵	-12.7884
虗空云何隨汝執捉	-12.7884
而高聲唱是言	-12.7903
彎	-12.814
􂙱	-12.8155
巽	-12.8169
羮	-12.8169
蓏	-12.817
󰽯	-12.8171
劬	-12.8171
狄	-12.8172
嘌	-12.8172
戱	-12.8172
濡	-12.8173
蓉	-12.8173
琊	-12.8174
霍	-12.8177
蚯	-12.8179
陰有遺付	-12.8179
估	-12.8179
譌	-12.8179
不飛不墜	-12.818
無容窮詰	-12.818
欵	-12.8181
掐	-12.8181
餚	-12.8181
百骸調適	-12.8181
觀命互通	-12.8182
本即是非因緣非自然之	-12.8182
蠃	-12.8183
阿難大眾俱言有聲	-12.8183
鴻臚少卿明教大師臣天息災奉詔譯	-12.8183
氎	-12.8185
耆闍崛山	-12.8185
法喜禪悅	-12.8186
舘	-12.8186
酬業深脉	-12.8186
姬	-12.8187
動若邇遙	-12.8188
妥	-12.8189
離一切物別有自性	-12.8189
既遊道胎	-12.8189
人畜龍仙	-12.8189
悉怛多鉢怛囉	-12.819
分別眾生所有知見	-12.8192
一標由示墜	-12.8192
噤	-12.8193
詃惑無識	-12.8194
𠾆	-12.8194
自不能生一切枝葉	-12.8194
二牒執推破	-12.8194
誹	-12.8195
舉臂屈指	-12.8195
表體既混	-12.8196
如第二月非是月影	-12.8196
脫粘內伏	-12.8197
色猶可析	-12.8197
內現精金	-12.8197
我今觀此覺性自然	-12.8197
二判屬邪徒	-12.8197
菩提心生生滅心滅	-12.8198
欲獲如來七常住果	-12.8198
麤垢先落	-12.8199
而今更聞見見非見	-12.8199
復有一切狂亂非相	-12.8199
兼耳與勞	-12.8199
啾啾亂鳴	-12.82
如世巧幻師	-12.82
求大涅槃得大涅槃	-12.82
殊不能知生滅去來	-12.8201
暈適珮玦	-12.8202
殞碎其首	-12.8203
劂	-12.8203
清淨本心本覺常住	-12.8203
香應非臭	-12.8204
娜莫三曼多勃馱南	-12.8204
如寶絲網	-12.8204
風動空澄	-12.8205
▁135	-12.8205
求於去來迷悟生死	-12.8206
嚩去日囉二合	-12.8206
▁毗俱𦙘	-12.8207
▁109	-12.8208
廣大解脫蓮華曼拏羅印三昧耶	-12.8208
從畢竟無成究竟有	-12.8209
於其自住三摩地中	-12.8209
歷覽二際	-12.8209
名法界無量迴向	-12.8209
十用涉入圓成一心	-12.821
負耳虹蜺	-12.8211
未鑿土前	-12.8211
奉佛慈旨	-12.8214
同是覺明無漏妙心	-12.8215
受陰虛妙不遭邪慮圓定發明	-12.8216
林木池沼皆演法音	-12.822
自諸妄想展轉相因	-12.8221
樂處陰寂	-12.8223
恾	-12.8476
琳	-12.8492
劄	-12.8495
凸	-12.8504
犂	-12.8507
幖	-12.8507
𦾨	-12.8509
駈	-12.851
斑	-12.851
嘠	-12.8511
寇	-12.8512
咳	-12.8512
亶	-12.8513
瀆	-12.8514
簷	-12.8514
釜	-12.8515
訴	-12.8515
㘓	-12.8515
𠷑	-12.8516
禹	-12.8517
仞	-12.852
稷	-12.852
驃	-12.8521
踪	-12.8522
水灌漏巵	-12.8523
汰	-12.8523
情幽斯鈍	-12.8523
羈	-12.8526
煅	-12.8526
灸	-12.8527
僚	-12.8527
身入風火二交過地	-12.8528
佇佛悲誨	-12.8528
溺於婬舍	-12.8529
譡	-12.853
云何惡報從六根出	-12.853
先持聲聞四棄八棄	-12.8531
蠕	-12.8532
筒	-12.8532
晹	-12.8533
分寸不畜	-12.8533
喬	-12.8533
則知汝心本妙明淨	-12.8534
降澍大雨	-12.8534
旋汝倒聞機	-12.8535
光中出生千葉寶蓮	-12.8535
若不識知心目所在	-12.8535
寂妙常凝	-12.8536
􂨯	-12.8536
不能免離摩登伽難	-12.8536
投寄旅亭	-12.8537
業運每常遷於國土	-12.8538
分條詳釋	-12.8539
開孔倒瓶	-12.8539
踞天光臺	-12.854
穿去地皮	-12.854
又則汝今見物之時	-12.8541
蕊	-12.8542
於外六塵不多流逸	-12.8542
此見雖非妙精明心	-12.8542
頂放百寶無畏光明	-12.8544
息二邊分別止	-12.8544
與不圓根日劫相倍	-12.8544
預佛天倫	-12.8544
亦說此呪名如來頂	-12.8544
終彼見者目眚所成	-12.8544
此則因聲而有分別	-12.8545
如是清淨持禁戒人	-12.8545
空散銷沈	-12.8545
募	-12.8546
以救諸末劫	-12.8546
汝復欲知無上菩提	-12.8547
此是過去先佛世尊	-12.8547
百倍千倍	-12.8547
名為堅固第一妄想	-12.8547
若無所明則無明覺	-12.8547
逢佛未幾	-12.8548
名至一切處迴向	-12.8548
陀夜闍瞋陀夜彌	-12.8549
心尚不緣色香味觸	-12.855
不悟四大元如來藏	-12.855
鑿從人手	-12.855
譬如琴瑟箜篌琵琶	-12.8551
䩭	-12.8552
佇佛慈旨	-12.8554
爨	-12.8557
具足無量如來妙德	-12.8557
汝但不隨分別世間業果眾生三種相續	-12.856
普盡無餘諸有情界	-12.856
瀑	-12.8712
葩	-12.8803
一類孤魂等眾	-12.8803
唧理唧理	-12.882
􂤈	-12.8828
鬲	-12.8847
褺	-12.8849
俁	-12.8849
虬	-12.8851
梳	-12.8853
羆	-12.8858
慙	-12.886
榻	-12.8861
𠳐	-12.8862
犀	-12.8866
馴	-12.8869
剖斷邦邑	-12.8872
迢	-12.8872
廷	-12.8873
繕	-12.8874
我今次第當演說	-12.8875
䗍	-12.8876
尉	-12.8876
叶	-12.8877
襟	-12.8878
親娜夜弭枳攞	-12.8878
傴	-12.8879
醇	-12.8879
扶律談常	-12.8879
●	-12.8879
殊為眇劣	-12.8881
如雞後鳴	-12.8881
它	-12.8881
挫	-12.8881
冊	-12.8882
則能為雷為吼	-12.8882
翦	-12.8883
橿	-12.8886
桐	-12.8887
灣	-12.8889
蒂	-12.8889
不久皆得悟無生忍	-12.8889
名為幽隱第四妄想	-12.8889
沓	-12.8889
再來凭倚	-12.889
乘六牙象	-12.889
披音露妙	-12.889
云何覺明不成圓妙	-12.889
阿儗儞二合吽	-12.8892
從旦至暮	-12.8893
立熾塵果	-12.8894
其光晃昱	-12.8895
汝應將此妄想根元	-12.8895
穿為小竇	-12.8895
竅穴居外	-12.8895
非我見性有開有合	-12.8896
大雄大力大慈悲	-12.8898
大毘盧遮那成佛神變加持經	-12.8898
認漚為海	-12.8899
逢此因緣迷不自識謂言登聖	-12.8899
由汝無始心性狂亂	-12.89
各以所愛先習迷心	-12.89
自然心生生滅心滅	-12.89
𣗳	-12.8902
我常聞佛宣說斯義	-12.8902
本如來藏常住妙明不動周圓妙真如性	-12.8903
與佛如來同一慈力	-12.8903
雲屯則暗	-12.8904
皆言修習真實圓通	-12.8904
塵氣倐滅	-12.8905
算數譬喻所不能及	-12.8905
皆以金剛觀察如幻十種深喻	-12.8906
觀佛菩提及大涅槃	-12.8907
云何復說因緣自然及和合相	-12.8907
和合妄生和合妄死	-12.8908
方悟神珠非從外得	-12.8908
眾生洞視不過分寸	-12.8908
以是俱非世出世故	-12.8908
更有文殊是文殊者	-12.8908
▁馬首明王	-12.8909
如是三種顛倒相續	-12.8911
然我今日非無文殊	-12.8911
▁101	-12.8915
汝今徧觀此會聖眾	-12.8928
頂上大寶冠身相	-12.8933
􂪚	-12.916
蠻	-12.9181
㪷	-12.9202
姟	-12.9206
嫰	-12.9209
藹	-12.9211
弃	-12.9212
魑	-12.9215
礼	-12.9216
坡	-12.9216
嗘	-12.9223
羹	-12.9224
墀	-12.9225
碌	-12.9226
彼亦以此佛母大孔雀明王	-12.923
灘	-12.9231
逍	-12.9231
瓣	-12.9232
樁	-12.9233
𠷈	-12.9234
員	-12.9235
鵮	-12.9236
吒吒波波羅羅	-12.9238
唻	-12.9239
杲	-12.9239
疼	-12.9239
肋	-12.924
杏	-12.9241
驟	-12.9242
催	-12.9242
侔	-12.9243
堯	-12.9243
迫於衰耄	-12.9244
遠遊未還	-12.9244
海印弟子蒙叟錢謙益鈔	-12.9245
銛	-12.9246
鎻	-12.9246
盃	-12.9246
滄	-12.9246
仔	-12.9247
不擇微賤	-12.9248
腥臊交遘	-12.9249
頓捨世間深重恩愛	-12.925
髮白面皺	-12.9251
此相非是欲愛所生	-12.9251
慞	-12.9251
而我見性尚無有靜	-12.9251
裸形被髮	-12.9251
䏶	-12.9252
亦無之中不是亦有	-12.9252
乳為煎餅	-12.9252
糧	-12.9253
􂨰	-12.9253
般若菩薩金剛天等	-12.9254
上士調御丈夫天人師佛世尊	-12.9254
兢	-12.9255
為浮根塵究竟樞穴	-12.9255
梅合自談	-12.9256
明行足善逝世間解無	-12.9258
豈彼聞性為汝有無	-12.9258
具足如斯虗妄亂想	-12.9259
症	-12.9259
外分即是眾生分外	-12.926
此則名為識陰區宇	-12.9261
縱其身心聖果未成	-12.9261
阿難雖復得聞是言	-12.9261
必使身心二俱捐捨	-12.9263
是故如來名可憐	-12.9263
鵄	-12.9264
蝗	-12.9265
斯可希冀	-12.9266
聲論得宣明	-12.9266
汝先答我見光明拳	-12.9266
斯則前塵分別影事	-12.9268
不知身心本不相代	-12.9268
是義云何合因緣性	-12.9268
撤	-12.9268
暨	-12.9269
生覺圓明不化圓種	-12.9269
合身即為身自體性	-12.927
棄海認漚	-12.927
睡熟便寤	-12.927
若他觀者名為邪觀	-12.9271
汝常二時眾中持鉢	-12.9271
二窮元發見	-12.9271
獲妙微密性淨明心	-12.9272
旋聞與聲脫	-12.9272
若得妙發三摩提者	-12.9272
而我悟佛現說法音	-12.9273
䟦闍囉俱摩唎	-12.9273
天竺沙門般剌密帝譯	-12.9273
舜若多性可銷亡	-12.9273
霽澄則清	-12.9275
東看則西	-12.9275
身含十方無盡虗空	-12.9275
俶	-12.9276
頂放十道百寶光明	-12.9276
叚	-12.9277
塵銷覺圓淨	-12.9278
梵唄詠歌自然敷奏	-12.9278
如明鏡中顯現其像	-12.9279
○○○○	-12.9279
云何一人能令眾飽	-12.928
汝今巳得須陀洹果	-12.928
汝識於中次第標指	-12.9281
金剛摩尼寶峯樓閣	-12.9281
今日身心云何是結	-12.9282
變化眾生成十二類	-12.9282
名無縛解脫迴向	-12.9282
合佛世尊清淨軌則	-12.9282
能所非徧涉	-12.9282
故有風輪執持世界	-12.9285
如何世間三有眾生	-12.9286
此劫波羅巾	-12.9286
不假方便自得心開	-12.9288
如來今得妙空明覺	-12.9289
終不應言是燈是見	-12.9289
龍王於閻浮提降注大雨	-12.9289
􂕴	-12.9588
訕	-12.9605
洟	-12.9609
噻	-12.9613
景風曰中國天文	-12.962
沿	-12.9621
菁	-12.9626
構	-12.9626
矒	-12.9628
挑	-12.9629
搭	-12.9629
蟬	-12.963
能於國土成就威儀	-12.963
疵	-12.9631
蚓	-12.9631
是名地獄十因六果	-12.9631
鋸	-12.9632
顰	-12.9632
葵	-12.9633
腿	-12.9633
坏	-12.9634
􂟭	-12.9635
降注乘流	-12.9635
墠	-12.9638
我是如來最小之弟	-12.9638
輕為羽族	-12.9639
翔	-12.9639
皆由客塵煩惱所誤	-12.964
􂨲	-12.964
我佛寵弟	-12.964
鰕	-12.964
婬愛微薄	-12.9642
傾渴翹佇	-12.9643
作大覺王清淨標指	-12.9644
此輩名為可憐愍者	-12.9644
頺	-12.9644
此性云何為汝銷滅	-12.9645
是名眾生十二種類	-12.9645
如明目人處大幽暗	-12.9646
山林人不及處	-12.9647
今當示汝無所還地	-12.9647
遠離世間憎愛二苦	-12.9647
則汝法眼應時清明	-12.9648
由目觀見如來勝相	-12.9648
􂛈	-12.9648
睿	-12.9649
如來知彼婬術所加	-12.965
何當更出山河大地	-12.965
兩性並驅	-12.965
若此發明不是心者	-12.965
汝心若在根塵之中	-12.9651
令諸闡提隳彌戾車	-12.9651
目非觀障外	-12.9651
頼	-12.9652
熈	-12.9652
二初敘悟緣起	-12.9653
汝常晨朝以手摩頭	-12.9653
亦令眾生證得空性	-12.9653
不應見精無從自出	-12.9653
并其動搖地水火風	-12.9654
俶裝前途	-12.9654
雖蒙如來佛頂神呪	-12.9654
阿難雖聞如是法音	-12.9655
宣說修行三決定義	-12.9656
稿	-12.9656
名為融通第三妄想	-12.9656
心清淨故尚未淪溺	-12.9657
決通疑滯	-12.9657
桎	-12.9657
汝等若欲捐捨聲聞	-12.9658
名無盡功德藏迴向	-12.9658
即彼目睛瞪發勞者	-12.9658
前矚塵象	-12.9659
畢竟同中生畢竟異	-12.966
於大菩提善得通達	-12.9661
見明之時見非是明	-12.9661
與其同倫五十二菩薩	-12.9662
如湯銷氷	-12.9662
一切因果世界微塵因心成體	-12.9662
若於因地以生滅心為本修因	-12.9662
汝以色空相傾相奪於如來藏	-12.9663
A	-12.9663
妄為色空及與聞見	-12.9664
母子歷生不相違遠	-12.9664
吾今復以前塵問汝	-12.9664
ṛ	-12.9664
▁107	-12.9666
然見眚者終無見咎	-12.9669
彼無同異真有為法	-12.9669
身能善入微塵國土	-12.967
汝今欲修真三摩地	-12.9671
是結本以次第綰生	-12.9671
鑿井求水	-12.9672
媟	-12.9674
南謨引窣覩二合帝嚩日囉二合	-12.9675
伏羅蛇菩提薩埵蛇摩訶薩埵蛇多擲哆	-12.9946
波唎婆囇莎訶	-12.9955
􂈻	-12.998
萊	-12.9997
𠵴	-13.0001
􂉔	-13.0002
隊	-13.0004
是等皆以業火乾枯	-13.0004
咻	-13.0009
欬	-13.001
姝	-13.0011
桶	-13.0011
睦	-13.0012
八者見習交明	-13.0014
逋	-13.0014
腩	-13.0015
胥	-13.0019
喉中擡聲引呼	-13.002
劈	-13.002
邁	-13.0021
𠸪叉𠸪叉	-13.0023
丐	-13.0023
眸	-13.0023
潦	-13.0023
兌	-13.0025
一切憂懸所不能逼	-13.0026
爝	-13.0027
裟	-13.0028
撼	-13.0028
惓	-13.0028
以我功德力如來加持力及以法界力	-13.0029
心肝屠裂	-13.0029
二者貪習交計	-13.0029
輯	-13.003
蠡	-13.0031
拊	-13.0031
騁	-13.0032
躐	-13.0032
伇	-13.0033
躋	-13.0033
璃	-13.0033
愜	-13.0033
擐	-13.0035
應身無量度脫眾生	-13.0035
桉	-13.0035
埀	-13.0035
擗	-13.0036
而我不知誰正誰倒	-13.0038
輅	-13.0038
鍋	-13.0038
罥	-13.0039
獘	-13.0039
坌	-13.0042
狥	-13.0043
瘀	-13.0043
奄	-13.0044
仝	-13.0045
舛	-13.0045
慨	-13.0048
霅	-13.0048
𪾼	-13.0049
襍	-13.0053
需	-13.0055
𢢔	-13.0062
禇	-13.0364
􂠊	-13.0394
𠯈	-13.04
崗	-13.0403
嘔	-13.0407
鶻	-13.0409
窗	-13.0413
謇	-13.0415
祚	-13.042
鉄	-13.0421
蘘	-13.0421
睫	-13.0422
帽	-13.0425
眤	-13.0433
儲	-13.0434
瞙	-13.0435
溷	-13.0437
旺	-13.0438
帆	-13.0438
磕	-13.0438
沌	-13.0439
肌	-13.044
俛	-13.0441
閨	-13.0442
眄	-13.0444
塼	-13.0445
搓	-13.0446
颺	-13.0446
瘻	-13.0447
濶	-13.0448
芟	-13.045
瀛	-13.045
𠯗	-13.045
邃	-13.0451
掠	-13.0453
颰	-13.0453
盥	-13.0453
柢	-13.0454
闔	-13.0455
欻	-13.0457
忝	-13.0458
𤘽	-13.0463
椉	-13.0466
饉	-13.0468
攷	-13.0472
佑	-13.048
ḥ	-13.0481
B	-13.0482
醭	-13.0847
𠴊	-13.0849
哷	-13.0851
憩	-13.0851
擺	-13.0854
騾	-13.0857
􂙑	-13.0857
蚩	-13.0859
茘	-13.0863
阜	-13.0863
閩	-13.0863
腨	-13.0865
蚣	-13.0866
頦	-13.0868
嬪	-13.0869
杯	-13.087
癭	-13.0871
兀	-13.0871
舶	-13.0872
􂠒	-13.0872
劃	-13.0873
宦	-13.0874
瘖	-13.0874
鼈	-13.0875
嵩	-13.0876
簿	-13.0877
挨	-13.0877
凹	-13.0879
蛛	-13.088
褒	-13.0882
怜	-13.0882
冲	-13.0882
燦	-13.0883
岑	-13.0883
材	-13.0885
窘	-13.0886
齶	-13.0887
勦	-13.0888
蒔	-13.0888
岌	-13.0889
繳	-13.089
煗	-13.0891
擕	-13.0892
甖	-13.0894
􂠧	-13.0896
赭	-13.0896
甦	-13.0897
萇	-13.0901
漩	-13.0907
狎	-13.0908
剞	-13.0909
昉	-13.091
噐	-13.0918
􂛀	-13.1297
查	-13.1301
揔	-13.1307
鵶	-13.1309
􂟘	-13.1312
頤	-13.1312
嘶	-13.1313
𦎌	-13.1314
踝	-13.1326
翊	-13.1326
彊	-13.1326
屑	-13.1327
碓	-13.1327
蚤	-13.1327
癢	-13.1331
瘟	-13.1332
繢	-13.1332
隄	-13.1332
釳	-13.1332
窄	-13.1333
壘	-13.1334
琅	-13.1334
爆	-13.1334
抹	-13.1334
瑠	-13.1335
塹	-13.1336
寮	-13.1337
磧	-13.1337
卅	-13.134
猷	-13.134
瀾	-13.1342
灯	-13.1343
幔	-13.1343
釀	-13.1344
肎	-13.1344
耎	-13.1345
麾	-13.1346
窈	-13.1348
楓	-13.1349
嗤	-13.1349
旹	-13.1352
䧟	-13.1361
挈	-13.1362
窪	-13.1364
廝	-13.1365
畧	-13.1366
錠	-13.1367
啅	-13.1759
鞏	-13.1769
羼	-13.1776
撅	-13.1781
􂍾	-13.1782
篦	-13.1784
酇	-13.1785
宙	-13.179
搦	-13.1792
猱	-13.1792
鸞	-13.1795
綽	-13.1795
覊	-13.1799
蔬	-13.18
疋	-13.1801
頷	-13.1801
􂤁	-13.1802
褻	-13.1802
轄	-13.1804
鞫	-13.1805
紗	-13.1805
旌	-13.1805
邈	-13.1806
虵	-13.1806
梡	-13.1806
懲	-13.1807
偕	-13.1808
敝	-13.1808
玷	-13.1808
槵	-13.1809
臚	-13.1809
瑦	-13.1811
楔	-13.1811
䶩	-13.1812
弶	-13.1812
藩	-13.1815
亨	-13.1815
羨	-13.1815
躶	-13.1815
侗	-13.1816
萃	-13.1816
嚬	-13.1819
鏃	-13.1819
濾	-13.182
遼	-13.1821
瑙	-13.1822
罣	-13.1823
亟	-13.1825
剗	-13.1826
鷺	-13.1827
姉	-13.1827
詛	-13.1829
嵗	-13.1831
詬	-13.1833
膀	-13.1833
嚝	-13.1835
蝱	-13.1837
歒	-13.184
𧫦	-13.1845
軄	-13.1847
峙	-13.1857
􂤉	-13.2262
俓	-13.2264
𪘜	-13.2271
彭	-13.2282
龐	-13.2284
拖	-13.2284
佚	-13.229
蹇	-13.2292
蟄	-13.2292
慘	-13.2294
堤	-13.2295
瞽	-13.2297
穬	-13.23
躃	-13.2303
搔	-13.2303
慌	-13.2305
梧	-13.2305
鴈	-13.2305
鞍	-13.2306
趾	-13.2306
歆	-13.2307
猗	-13.2307
脆	-13.2307
餔	-13.2307
撩	-13.2308
岡	-13.2308
袂	-13.2308
箱	-13.2308
蟠	-13.2309
凋	-13.2311
薤	-13.2311
盪	-13.2311
爵	-13.2311
ィ	-13.2312
茇	-13.2313
迯	-13.2313
姧	-13.2315
沜	-13.2315
賑	-13.2315
珞	-13.2315
彫	-13.2318
浙	-13.2319
􂒖	-13.232
撕	-13.232
螻	-13.232
献	-13.2322
苽	-13.2322
孳	-13.2322
盋	-13.2323
轂	-13.2324
𠰘	-13.2325
鍠	-13.2325
嬉	-13.2329
䐇	-13.2329
笈	-13.2329
儱	-13.233
霰	-13.2332
醞	-13.2335
臾	-13.2344
􂪛	-13.275
𥟦	-13.2764
哂	-13.2777
姐	-13.279
𠴞	-13.2799
錽	-13.2806
犲	-13.2806
譜	-13.2809
漁	-13.281
𪏭	-13.2811
鐝	-13.282
婉	-13.282
鵂	-13.2821
𦙶	-13.2821
描	-13.2821
扈	-13.2822
洄	-13.2822
禎	-13.2823
駱	-13.2824
癖	-13.2825
謦	-13.2826
閦	-13.2826
閫	-13.2828
墾	-13.2829
拉	-13.2831
劓	-13.2832
貙	-13.2832
眴	-13.2833
臛	-13.2833
澓	-13.2834
偉	-13.2834
梗	-13.2835
叨	-13.2835
訾	-13.2836
刎	-13.2838
臊	-13.284
蛾	-13.2842
駁	-13.2842
佞	-13.2843
凭	-13.2845
憧	-13.2845
佶	-13.2847
冝	-13.2849
菟	-13.285
囿	-13.285
􂨘	-13.285
扠	-13.2851
鉞	-13.2852
􂨬	-13.2853
窻	-13.2853
鐺	-13.2853
胱	-13.2856
誚	-13.2857
鍼	-13.2857
厶	-13.2858
版	-13.2858
獷	-13.2858
謄	-13.2858
蹔	-13.2862
蚋	-13.2863
苻	-13.2866
𠹌	-13.2874
靣	-13.288
窋	-13.3364
􂗭	-13.3365
膓	-13.3371
笞	-13.3372
牡	-13.3373
檛	-13.3374
店	-13.3378
抉	-13.3379
𩘌	-13.3381
捍	-13.3382
䎡	-13.3385
蜘	-13.3386
啒	-13.3387
㐫	-13.3387
轅	-13.3388
恤	-13.3389
綟	-13.3389
遨	-13.339
䘖	-13.3391
黿	-13.3391
櫓	-13.3392
聒	-13.3392
􂚺	-13.3393
勻	-13.3393
鐱	-13.3394
􂟯	-13.3394
糟	-13.3395
𣗥	-13.3395
恢	-13.3396
饗	-13.3396
𠻬	-13.3396
􂏕	-13.3397
瀨	-13.3397
奕	-13.3398
慼	-13.3399
陌	-13.34
繭	-13.3402
闚	-13.3404
彚	-13.3404
稔	-13.3406
黛	-13.3406
駒	-13.3407
囓	-13.3407
俻	-13.3408
磐	-13.3408
㓨	-13.341
蕞	-13.341
箄	-13.3411
盟	-13.3411
賔	-13.3412
纜	-13.3414
暘	-13.3417
蜋	-13.3417
旭	-13.3418
叡	-13.3418
笴	-13.3422
憲	-13.3426
踦	-13.3427
F	-13.343
恊	-13.3432
璽	-13.3926
玼	-13.3929
㘈	-13.3931
􂤏	-13.3937
迤	-13.3942
璨	-13.3942
鬻	-13.3953
刷	-13.3954
苞	-13.3956
靠	-13.3958
妒	-13.3959
耘	-13.3961
鍐	-13.3965
暹	-13.3967
棺	-13.3969
薛	-13.397
椿	-13.397
繹	-13.3971
傚	-13.3973
圜	-13.3974
蘿	-13.3974
鑰	-13.3974
賾	-13.3975
瞳	-13.3975
攣	-13.3976
钁	-13.3977
傑	-13.3978
橖	-13.3978
瑣	-13.3978
揉	-13.3978
㪍	-13.3979
郢	-13.3979
痊	-13.398
梱	-13.3981
昱	-13.3981
幀	-13.3982
饋	-13.3982
哺	-13.3984
癈	-13.3984
協	-13.3984
轢	-13.3985
沖	-13.3985
簾	-13.3986
眵	-13.3986
爼	-13.3986
筯	-13.3987
貽	-13.3988
葡	-13.3989
闐	-13.399
仆	-13.3991
糺	-13.3991
荳	-13.3991
祟	-13.3993
垛	-13.3995
蠐	-13.3996
牗	-13.3997
貲	-13.4003
啇	-13.4004
很	-13.4005
浚	-13.4006
榭	-13.4007
鋟	-13.4011
刧	-13.4011
ñ	-13.4016
冑	-13.4533
蠆	-13.4541
諵	-13.4548
𡀎	-13.4577
𤤗	-13.4579
𦰧	-13.4579
悼	-13.4583
爓	-13.4584
篆	-13.4589
𤜲	-13.4589
瓫	-13.459
菊	-13.459
綾	-13.459
酖	-13.4592
鈸	-13.4592
矬	-13.4592
嘞	-13.4595
擦	-13.4596
湮	-13.4598
猨	-13.4598
諺	-13.46
擠	-13.46
豬	-13.4602
媲	-13.4602
堀	-13.4606
㟏	-13.4607
墳	-13.4607
毱	-13.4608
莢	-13.4608
徇	-13.4608
扭	-13.4609
儭	-13.4609
蓰	-13.461
摭	-13.4613
噦	-13.4615
涓	-13.4615
啾	-13.4615
嚚	-13.4616
噶	-13.4616
𠯋	-13.4616
鐫	-13.4617
螬	-13.4617
聦	-13.4617
彷	-13.4618
𢌞	-13.4618
晣	-13.4618
嘿	-13.4618
嘷	-13.462
繙	-13.462
汪	-13.4621
屆	-13.4622
曙	-13.4622
顫	-13.4622
湏	-13.4624
瘳	-13.4624
塘	-13.4624
啫	-13.4624
斟	-13.4625
𢍉	-13.4626
䩚	-13.4626
趍	-13.4626
篅	-13.4629
遄	-13.463
藿	-13.4632
磲	-13.4632
擥	-13.4636
瓨	-13.4636
䬸	-13.4637
址	-13.4639
彪	-13.464
𤼵	-13.4649
舎	-13.518
𠡠	-13.5213
粃	-13.5221
舸	-13.5228
𧃯	-13.5228
嶠	-13.5232
䜝	-13.5234
囹	-13.5236
漲	-13.5241
縻	-13.5242
駢	-13.5243
棹	-13.5246
馮	-13.5247
娉	-13.5248
扁	-13.5249
􂠔	-13.525
葺	-13.5256
牕	-13.5259
杉	-13.5259
逞	-13.5261
蟾	-13.5262
壜	-13.5263
伶	-13.5263
憔	-13.5264
蟹	-13.5264
詺	-13.5264
疔	-13.5265
悱	-13.5266
𡄣	-13.5267
牸	-13.5267
隴	-13.5267
汞	-13.5268
痟	-13.5268
毬	-13.5268
榅	-13.5269
頒	-13.5269
􂣞	-13.5271
樊	-13.5272
皿	-13.5273
賷	-13.5273
娠	-13.5273
縳	-13.5274
粳	-13.5277
𡛥	-13.5278
愉	-13.5278
倳	-13.5279
鋤	-13.5279
蕪	-13.5279
鴟	-13.528
凑	-13.528
𥌋	-13.5281
髭	-13.5281
筐	-13.5281
僣	-13.5282
鞮	-13.5283
澈	-13.5284
軰	-13.5285
簫	-13.5285
杭	-13.5285
閔	-13.5287
胛	-13.5287
槐	-13.5287
衒	-13.5289
泠	-13.5289
懾	-13.5291
蜣	-13.5298
􂤽	-13.5298
秊	-13.5303
宥	-13.5304
檮	-13.5317
𠴏	-13.5909
秼	-13.5924
牯	-13.5932
妾	-13.5934
髺	-13.594
騃	-13.5945
圄	-13.5947
魍	-13.5961
鵰	-13.5963
愓	-13.5966
訢	-13.5967
帷	-13.5967
炒	-13.597
䖍	-13.5971
摹	-13.5974
籬	-13.5974
袍	-13.5976
牌	-13.5976
嘲	-13.5977
壍	-13.5977
紏	-13.5977
􂚒	-13.5978
鳧	-13.5979
柝	-13.598
挐	-13.598
簪	-13.5981
薝	-13.5981
􂣦	-13.5981
培	-13.5983
韹	-13.5983
号	-13.5984
堙	-13.5984
羂	-13.5984
絆	-13.5985
蹊	-13.5985
ヵ	-13.5986
呞	-13.5987
蕤	-13.5987
珙	-13.5989
歐	-13.5989
篾	-13.599
塐	-13.599
噞	-13.5992
顗	-13.5993
拗	-13.5994
𣲖	-13.5996
榓	-13.5998
隟	-13.6
樅	-13.6001
弑	-13.6002
筴	-13.6002
冗	-13.6003
琉	-13.6006
覃	-13.6008
媾	-13.6012
闘	-13.6014
鐙	-13.6015
夘	-13.6015
豉	-13.6017
挮	-13.6019
讁	-13.6019
茖	-13.6022
噏	-13.6023
皃	-13.6027
韙	-13.6041
􂨎	-13.6053
撇	-13.668
伱	-13.6686
𢻵	-13.6691
廩	-13.6694
􂘤	-13.6702
搊	-13.6707
揄	-13.6709
坭	-13.671
瓏	-13.672
哳	-13.672
雛	-13.6721
蟣	-13.6724
勁	-13.6727
噪	-13.6727
絮	-13.6728
核	-13.6728
簣	-13.6729
姣	-13.6732
陬	-13.6735
售	-13.6739
䩕	-13.6739
𢹂	-13.6739
䓗	-13.674
幞	-13.6741
腮	-13.6744
俐	-13.6745
胭	-13.6745
仳	-13.6745
瓈	-13.6745
枿	-13.6746
秣	-13.6746
鱉	-13.6746
宬	-13.6746
裕	-13.6746
歉	-13.6747
徂	-13.6747
喆	-13.6749
𠻳	-13.6752
顢	-13.6752
邲	-13.6753
蔕	-13.6753
埤	-13.6753
陿	-13.6753
竛	-13.6755
竮	-13.6755
蛙	-13.6755
恙	-13.6757
証	-13.6757
綃	-13.6757
湘	-13.6758
氳	-13.6758
絛	-13.6758
𨢘	-13.6759
捃	-13.6759
倨	-13.6759
沴	-13.676
糊	-13.676
㗭	-13.676
霔	-13.6761
剡	-13.6761
躑	-13.6761
瘢	-13.6762
炯	-13.6762
舵	-13.6762
砰	-13.6763
沛	-13.6764
絢	-13.6764
弈	-13.6766
渙	-13.6767
熠	-13.6769
舡	-13.677
窾	-13.677
𤳖	-13.6771
鼙	-13.6772
㵶	-13.6772
喁	-13.6773
毓	-13.6774
暏	-13.6776
竣	-13.6779
鍛	-13.678
燎	-13.678
懿	-13.6781
㨿	-13.679
吔	-13.6804
膲	-13.6809
租	-13.7508
傒	-13.7512
𠲸	-13.7527
𠟃	-13.753
攥	-13.7533
丕	-13.7544
􂠓	-13.7549
苨	-13.755
崕	-13.756
疣	-13.7561
槽	-13.7562
董	-13.7564
貓	-13.7564
辢	-13.7569
爺	-13.7571
韭	-13.7571
伍	-13.7572
縚	-13.7573
蔡	-13.7575
戇	-13.7578
琯	-13.758
匕	-13.758
碑	-13.7581
茸	-13.7581
咧	-13.7582
蠓	-13.7582
廋	-13.7583
荔	-13.7583
蠛	-13.7583
𡖺	-13.7585
矃	-13.7585
捩	-13.7586
𤦲	-13.7586
距	-13.7586
磵	-13.7587
豔	-13.7587
𥨊	-13.7587
澣	-13.7588
壺	-13.7588
箸	-13.7588
碗	-13.7589
呶	-13.7589
秏	-13.7589
隖	-13.7589
𡁔	-13.7589
劾	-13.759
躅	-13.7591
樺	-13.7591
窶	-13.7591
頇	-13.7592
擢	-13.7592
譟	-13.7593
􂤼	-13.7594
駃	-13.7595
䓻	-13.7597
罅	-13.7597
佃	-13.7597
倩	-13.7598
挹	-13.7598
跂	-13.7598
泚	-13.7598
騷	-13.7599
呴	-13.7599
潞	-13.7599
詆	-13.7599
泗	-13.7599
圊	-13.7599
攙	-13.76
諛	-13.7601
控	-13.7601
裓	-13.7601
廊	-13.7601
鍬	-13.7602
㘄	-13.7604
㸑	-13.7605
倏	-13.7605
黜	-13.7606
嚇	-13.7606
㒵	-13.7607
韜	-13.7608
軔	-13.7608
縕	-13.7611
憊	-13.7612
瞭	-13.7612
翮	-13.7612
蕳	-13.7615
蜎	-13.7615
礬	-13.7617
迊	-13.7618
諡	-13.7618
蕖	-13.762
􂨜	-13.7628
卡	-13.7629
孜	-13.7629
􂐘	-13.763
苐	-13.7631
𦘺	-13.7638
仵	-13.8432
􂪡	-13.8435
􂙸	-13.8437
䬃	-13.8437
笮	-13.846
豕	-13.8466
􂥂	-13.8466
𠺘	-13.8468
樸	-13.8471
輾	-13.8472
撈	-13.8473
摯	-13.8474
疰	-13.8475
肱	-13.8478
屨	-13.8479
呻	-13.8479
剏	-13.848
邂	-13.8481
逅	-13.8481
𡁬	-13.8483
鼉	-13.8483
鴨	-13.8484
鸖	-13.8485
贓	-13.8485
蛩	-13.8485
斵	-13.8487
葦	-13.8487
韮	-13.8488
貭	-13.8488
𦁐	-13.8488
范	-13.8489
爻	-13.849
蚕	-13.849
鵞	-13.849
錮	-13.8491
瓊	-13.8491
寘	-13.8491
傭	-13.8491
麞	-13.8491
猊	-13.8492
郊	-13.8492
㕨	-13.8492
嫩	-13.8495
蜓	-13.8496
濮	-13.8497
棏	-13.8497
哞	-13.8497
旒	-13.8498
誵	-13.85
𡅧	-13.85
瑘	-13.85
呧	-13.8501
霆	-13.8501
鬯	-13.8502
椰	-13.8502
鶯	-13.8502
疹	-13.8502
盍	-13.8503
窩	-13.8503
秔	-13.8504
徽	-13.8505
䆳	-13.8506
芰	-13.8507
􂖇	-13.8507
忱	-13.8507
詁	-13.8508
妣	-13.8508
䨱	-13.8508
卸	-13.8509
淬	-13.8509
晳	-13.851
挪	-13.8511
覬	-13.8511
飼	-13.8511
泳	-13.8512
閏	-13.8512
奼	-13.8512
殼	-13.8512
噴	-13.8513
蔞	-13.8514
㗶	-13.8514
顓	-13.8515
􂦮	-13.8515
𢷤	-13.8516
𨽾	-13.8516
廐	-13.8519
鴞	-13.8519
毉	-13.852
淴	-13.8521
鶹	-13.8521
譔	-13.8522
■	-13.8522
罹	-13.8526
梏	-13.8526
迮	-13.8528
獍	-13.8531
凢	-13.8534
簨	-13.8539
剜	-13.8548
𦊱	-13.855
扑	-13.9447
晁	-13.9447
鈇	-13.945
矮	-13.9451
甌	-13.9454
戞	-13.9457
炁	-13.9461
𦟛	-13.9469
璅	-13.9469
哄	-13.947
妊	-13.947
猩	-13.947
籟	-13.947
─	-13.9471
濱	-13.9471
偁	-13.9471
鯉	-13.9473
姨	-13.9474
𠍴	-13.9474
楨	-13.9474
懊	-13.9476
汾	-13.9476
札	-13.9476
黷	-13.9477
捭	-13.9478
𡅖	-13.9479
噌	-13.9479
瘨	-13.948
蚰	-13.948
姚	-13.948
刖	-13.9481
渭	-13.9482
甸	-13.9482
訝	-13.9483
􂣯	-13.9484
頴	-13.9484
侄	-13.9485
粧	-13.9487
嚯	-13.9487
埜	-13.9488
濠	-13.9488
茯	-13.9488
軱	-13.949
惻	-13.949
豚	-13.9491
蠖	-13.9491
颲	-13.9493
麩	-13.9493
捔	-13.9494
渝	-13.9494
隼	-13.9495
剕	-13.9496
箏	-13.9496
蹴	-13.9497
趂	-13.9497
觔	-13.9497
鯨	-13.9498
荽	-13.9499
褰	-13.9499
聘	-13.9499
碪	-13.9499
𨤲	-13.95
凜	-13.95
苓	-13.95
鉀	-13.95
哽	-13.9501
攜	-13.9501
儛	-13.9501
站	-13.9502
挌	-13.9503
痃	-13.9504
靘	-13.9504
犇	-13.9506
泪	-13.9506
挼	-13.9506
縞	-13.9506
䆿	-13.9506
畿	-13.9506
唳	-13.9507
恁	-13.9507
閟	-13.9508
宕	-13.9508
渟	-13.9509
僭	-13.9509
礪	-13.951
咂	-13.951
胖	-13.951
粵	-13.951
笥	-13.9511
熬	-13.9513
譴	-13.9515
賁	-13.9516
炫	-13.9517
柿	-13.9518
瓠	-13.952
菀	-13.9522
翕	-13.9522
祉	-13.9522
𦕈	-13.9522
粲	-13.9524
僇	-13.9525
罸	-13.9527
熖	-13.9527
夥	-13.9527
悛	-13.9536
廔	-14.051
􂡤	-14.0518
𠾐	-14.0521
喙	-14.0564
臈	-14.0564
橐	-14.0567
閬	-14.0569
甎	-14.0569
咖	-14.0572
愴	-14.0573
淑	-14.0573
惋	-14.0575
㗖	-14.0583
􂠽	-14.0583
哢	-14.0584
䌎	-14.0586
薇	-14.0586
鬀	-14.0587
狡	-14.0587
觴	-14.0588
欒	-14.0589
㳂	-14.059
斃	-14.059
劭	-14.059
姞	-14.0591
䏺	-14.0593
喑	-14.0594
槎	-14.0594
署	-14.0595
耿	-14.0596
甑	-14.0596
憘	-14.0597
噠	-14.0597
噵	-14.0597
顱	-14.0598
搬	-14.0598
糵	-14.0599
貍	-14.0601
噀	-14.0601
岫	-14.0602
圃	-14.0602
眺	-14.0602
脘	-14.0602
楗	-14.0604
貸	-14.0604
讇	-14.0604
賸	-14.0605
凰	-14.0605
詀	-14.0605
楪	-14.0605
鎩	-14.0606
𠽮	-14.0606
馝	-14.0606
蒺	-14.0606
飫	-14.0607
慟	-14.0607
羲	-14.0607
穽	-14.0608
埠	-14.0608
腔	-14.0608
臀	-14.0609
嘖	-14.0609
葫	-14.0609
絳	-14.0609
峨	-14.0609
􂟵	-14.061
賚	-14.061
髠	-14.061
墊	-14.0611
雺	-14.0611
懆	-14.0612
𧷤	-14.0612
懽	-14.0613
裛	-14.0613
壟	-14.0614
㨗	-14.0614
􂚨	-14.0614
馭	-14.0614
蚶	-14.0614
浹	-14.0615
磚	-14.0616
􂟻	-14.0616
扃	-14.0617
穗	-14.0617
鑞	-14.0618
𨷂	-14.0618
縲	-14.0618
戕	-14.0619
蹟	-14.0619
曦	-14.062
樟	-14.0621
涇	-14.0622
奠	-14.0622
轡	-14.0624
萍	-14.0625
瞼	-14.0625
漓	-14.0625
􂨥	-14.0626
麒	-14.0626
笙	-14.0627
輳	-14.0627
球	-14.0628
誼	-14.0628
𠎝	-14.0629
揲	-14.0629
􂎴	-14.0629
墟	-14.0631
􂝩	-14.0633
簱	-14.0633
髴	-14.0635
咏	-14.0637
洮	-14.0637
痼	-14.0638
𩔗	-14.0638
髣	-14.0639
􂐔	-14.064
蠚	-14.0642
恱	-14.0643
楮	-14.0645
蝀	-14.0645
橘	-14.0651
淼	-14.0652
鶉	-14.0656
匐	-14.0672
𡧓	-14.0678
漾	-14.1782
𠻐	-14.179
幃	-14.1799
笠	-14.1806
􂤖	-14.1807
鑼	-14.1809
淰	-14.181
譫	-14.1812
旡	-14.1815
譋	-14.1816
厩	-14.1816
紉	-14.182
瓚	-14.1823
罤	-14.1824
欯	-14.1825
弔	-14.1825
鹻	-14.1826
抬	-14.1827
逭	-14.1829
醮	-14.183
薙	-14.1832
拇	-14.1832
宼	-14.1834
䁥	-14.1836
彤	-14.1836
璘	-14.1836
癤	-14.1836
鄂	-14.1837
糸	-14.1837
㨶	-14.1838
摻	-14.1839
􂞄	-14.184
擷	-14.1841
扮	-14.1842
舁	-14.1843
贖	-14.1845
騙	-14.1845
琦	-14.1845
屩	-14.1846
跬	-14.1846
襴	-14.1847
幣	-14.1847
珪	-14.1848
鉼	-14.1849
愿	-14.185
􂘪	-14.185
􂣁	-14.185
䖝	-14.1851
饈	-14.1851
忡	-14.1851
蜃	-14.1852
餂	-14.1852
謔	-14.1852
醰	-14.1855
痤	-14.1855
刦	-14.1855
嵠	-14.1855
佯	-14.1855
㘅	-14.1856
梭	-14.1856
撝	-14.1857
絜	-14.1857
丱	-14.1857
飃	-14.1858
㗌	-14.1858
荏	-14.1858
醬	-14.1859
㕹	-14.1859
乩	-14.1859
棍	-14.1859
癀	-14.1859
聃	-14.186
迃	-14.186
拪	-14.186
勣	-14.1861
䥫	-14.1862
𥢶	-14.1862
麫	-14.1862
贄	-14.1862
呆	-14.1863
臑	-14.1863
円	-14.1863
羗	-14.1863
霿	-14.1864
俵	-14.1864
鉅	-14.1865
笋	-14.1865
蘄	-14.1865
耑	-14.1865
瞤	-14.1866
糯	-14.1866
僂	-14.1866
濬	-14.1867
舋	-14.1867
晤	-14.1867
󱄕	-14.1867
袁	-14.1867
礱	-14.1867
繚	-14.1868
肪	-14.1868
靖	-14.1869
扉	-14.1869
卐	-14.1871
沗	-14.1873
𠺶	-14.1873
啤	-14.1874
踡	-14.1874
豊	-14.1874
咾	-14.1875
蜯	-14.1875
湍	-14.1875
蘃	-14.1875
歘	-14.1876
溜	-14.1876
忩	-14.1877
羙	-14.1877
寞	-14.1878
揜	-14.1878
螄	-14.1879
螮	-14.188
汨	-14.1881
侮	-14.1881
衙	-14.1885
㗛	-14.1886
尓	-14.1887
􂩠	-14.1887
熄	-14.189
荀	-14.189
􂧄	-14.189
閴	-14.189
𣣋	-14.1891
翱	-14.1891
􂩘	-14.1894
徼	-14.1895
听	-14.1896
腴	-14.1896
穹	-14.19
墼	-14.1903
郗	-14.1903
舃	-14.1904
𡃇	-14.1915
䌇	-14.1918
匍	-14.1927
􂧀	-14.3185
姜	-14.3198
葂	-14.3204
琛	-14.3207
籃	-14.3213
𢋑	-14.3214
艦	-14.3218
儋	-14.3222
癧	-14.3228
􂠴	-14.3231
飭	-14.3232
潺	-14.3233
𧦦	-14.3233
囔	-14.3235
􂎅	-14.3239
袜	-14.324
樵	-14.3245
筠	-14.3246
􂧟	-14.3249
貂	-14.3249
􂌸	-14.325
􂘦	-14.3252
隈	-14.3255
穉	-14.3255
痆	-14.3255
騖	-14.3257
􂤆	-14.3257
鷂	-14.3259
楫	-14.326
庄	-14.3261
㖀	-14.3262
賭	-14.3263
嗦	-14.3263
俠	-14.3264
鍱	-14.3264
獅	-14.3264
廛	-14.3264
胮	-14.3266
璋	-14.3266
𧯞	-14.3266
􂢂	-14.3268
齬	-14.3268
鎌	-14.3268
魎	-14.3269
􂣢	-14.3269
鈞	-14.327
􂣍	-14.327
㗁	-14.327
璀	-14.3271
鏘	-14.3272
紂	-14.3272
􂢉	-14.3273
蜆	-14.3273
裒	-14.3276
嚫	-14.3276
醘	-14.3276
倀	-14.3276
𩜶	-14.3277
驥	-14.3277
嘙	-14.328
蜍	-14.3281
蜱	-14.3281
睨	-14.3282
痿	-14.3282
姙	-14.3282
躲	-14.3282
嗏	-14.3283
蔚	-14.3283
鰲	-14.3283
𠸎	-14.3284
溲	-14.3284
陡	-14.3285
􂠜	-14.3285
儐	-14.3286
渒	-14.3286
桀	-14.3286
汀	-14.3287
襵	-14.3287
懌	-14.3288
煦	-14.3289
怤	-14.3289
筈	-14.3289
欹	-14.3291
檜	-14.3291
鄣	-14.3291
儘	-14.3293
咮	-14.3293
掀	-14.3293
聻	-14.3294
贉	-14.3296
弛	-14.3296
􂠩	-14.3296
裩	-14.3297
篌	-14.3298
顇	-14.3298
㕲	-14.3298
噳	-14.3299
*	-14.33
􂡟	-14.33
淅	-14.3301
媿	-14.3301
矦	-14.3301
坂	-14.3301
猝	-14.3302
熅	-14.3302
捴	-14.3303
俚	-14.3303
麴	-14.3303
𢯇	-14.3304
栓	-14.3304
廕	-14.3305
􂎫	-14.3305
茟	-14.3306
巔	-14.3307
喭	-14.3307
𩬊	-14.3308
㝵	-14.3308
砆	-14.3309
髼	-14.3309
剻	-14.3309
組	-14.331
臝	-14.3311
宷	-14.3312
絓	-14.3312
晰	-14.3312
瀰	-14.3313
矇	-14.3313
厓	-14.3317
齗	-14.3318
翡	-14.3318
浡	-14.3319
嚤	-14.3321
紡	-14.3322
耦	-14.3323
𨗿	-14.3325
􂦲	-14.3327
𠶒	-14.333
􂣑	-14.333
簁	-14.3355
􂤃	-14.4864
咱	-14.4871
􂤒	-14.4875
丼	-14.4879
橈	-14.4879
黧	-14.4879
𢾊	-14.4889
𦋺	-14.4895
禿	-14.4897
圻	-14.4898
𧬘	-14.4899
逶	-14.49
􂎶	-14.4902
􂪘	-14.4903
愎	-14.4904
㖸	-14.4904
鑾	-14.4906
楹	-14.4907
畋	-14.4912
獰	-14.4913
鈐	-14.4916
𡂺	-14.4916
鵒	-14.4917
黔	-14.4917
肓	-14.4917
担	-14.4917
抃	-14.4919
謚	-14.4921
褚	-14.4921
籥	-14.4921
癥	-14.4922
嗼	-14.4923
穫	-14.4923
􂎹	-14.4923
􂤍	-14.4923
硎	-14.4924
怚	-14.4924
紬	-14.4925
茄	-14.4926
芿	-14.4927
髦	-14.4928
綬	-14.4929
柤	-14.4929
翎	-14.493
悽	-14.4931
榨	-14.4931
𧵊	-14.4931
蘧	-14.4933
𠻲	-14.4933
螃	-14.4934
囈	-14.4934
朦	-14.4935
𥌊	-14.4935
臗	-14.4935
屐	-14.4937
晟	-14.4937
摺	-14.4938
娥	-14.4938
𨳝	-14.4938
𣧑	-14.4939
𤨏	-14.4939
啜	-14.4939
殯	-14.494
砥	-14.494
觝	-14.494
玡	-14.4941
嘯	-14.4941
臧	-14.4941
鄽	-14.4941
䗫	-14.4941
禘	-14.4941
郤	-14.4941
胑	-14.4942
􂡣	-14.4942
遯	-14.4943
筍	-14.4943
芮	-14.4943
潘	-14.4945
饕	-14.4945
􂔒	-14.4946
酣	-14.4946
鵽	-14.4946
篡	-14.4947
桌	-14.4947
雒	-14.4947
菱	-14.4948
莧	-14.4948
鷃	-14.4949
腆	-14.4949
湎	-14.495
菔	-14.4951
鷰	-14.4951
􂚷	-14.4952
蟦	-14.4953
霈	-14.4953
瘁	-14.4954
𦁛	-14.4954
帔	-14.4954
盌	-14.4954
𡽉	-14.4955
縶	-14.4955
眨	-14.4955
忉	-14.4956
飈	-14.4956
𠺕	-14.4956
罩	-14.4957
睽	-14.4957
睜	-14.4957
躔	-14.4958
􂏡	-14.4959
柞	-14.4959
蟨	-14.4959
𡱁	-14.496
棙	-14.496
褌	-14.496
糾	-14.496
埏	-14.496
籓	-14.4961
韞	-14.4961
瑤	-14.4962
鷇	-14.4962
袴	-14.4962
怵	-14.4963
逵	-14.4965
紲	-14.4965
鶚	-14.4965
蘸	-14.4965
臰	-14.4965
攔	-14.4965
僥	-14.4966
馞	-14.4966
􂋧	-14.4966
鋼	-14.4967
衿	-14.4967
套	-14.4969
疴	-14.4969
廚	-14.497
𦡲	-14.4971
涘	-14.4971
款	-14.4971
軻	-14.4971
踣	-14.4972
鐍	-14.4973
摳	-14.4974
𨲙	-14.4974
蹶	-14.4974
萠	-14.4974
冢	-14.4974
袾	-14.4975
欀	-14.4975
𥕺	-14.4975
畹	-14.4976
􂜉	-14.4976
摟	-14.4977
憬	-14.4977
鸎	-14.4977
啑	-14.4978
俎	-14.4978
枋	-14.4978
𢱍	-14.4979
嗌	-14.4979
􂔲	-14.4979
倖	-14.4979
洶	-14.498
𨥌	-14.498
璣	-14.498
杪	-14.498
桴	-14.498
鏺	-14.4981
狙	-14.4982
􂢖	-14.4982
琹	-14.4982
颷	-14.4984
灆	-14.4984
􂩢	-14.4985
棖	-14.4986
枵	-14.4986
裊	-14.4986
顋	-14.4987
嚊	-14.4988
傀	-14.4988
儡	-14.4988
裾	-14.4988
䰅	-14.4988
涔	-14.4989
𩯭	-14.4989
舩	-14.4989
蒵	-14.499
鑵	-14.4991
𤓰	-14.4991
蔗	-14.4992
襜	-14.4993
胚	-14.4994
劵	-14.4996
𨷖	-14.4996
减	-14.5008
愶	-14.5028
㘉	-14.6846
䑨	-14.6878
䳌	-14.6893
䓾	-14.6911
㧌	-14.6917
䌤	-14.6929
㶿	-14.6931
㡭	-14.6933
芭	-14.6934
䞋	-14.6945
▽	-14.6946
㗳	-14.6952
㘁	-14.6953
㒧	-14.6956
㥽	-14.6956
㝱	-14.6963
㿈	-14.6964
㴾	-14.6978
亹	-14.6983
ㄟ	-14.6985
体	-14.6996
䫌	-14.7005
袈	-14.701
巍	-14.9396
􂨮	-14.9398
榴	-14.9434
虻	-14.9443
抖	-14.9456
髏	-14.9457
泐	-14.9491
蕉	-15.275
擻	-15.2781
髑	-15.2802
醍	-15.2804
醐	-15.2812
N	-15.2823
菖	-15.7691
瑚	-15.7748
𠶹	-15.7759
箜	-15.7776
圅	-15.7827
昰	-15.7871
𡲼	-16.7738
殪	-16.7739
皚	-16.774
􂣀	-16.7741
讟	-16.7743
蟋	-16.7743
蟀	-16.7745
翛	-16.7745
珈	-16.7746
狻	-16.7747
婥	-16.7748
喟	-16.775
驍	-16.775
鏌	-16.7752
鎁	-16.7752
蝸	-16.7753
蚥	-16.7754
碼	-16.7755
碯	-16.7757
櫁	-16.7757
鼯	-16.7759
鬟	-16.7759
譎	-16.776
瞌	-16.7761
蠮	-16.7762
螉	-16.7764
窕	-16.7764
瑪	-16.7766
玲	-16.7766
漕	-16.7767
栂	-16.7768
􂙜	-16.7769
馲	-16.7771
蕎	-16.7771
崘	-16.7773
􂜃	-16.7773
琥	-16.7774
蟆	-16.7775
蓿	-16.7776
苜	-16.7778
硨	-16.7778
獯	-16.778
􂢕	-16.778
晶	-16.7781
𠷌	-16.7782
穡	-16.7783
扼	-16.7785
蕅	-16.7785
茴	-16.7787
㬥	-16.7787
蜈	-16.7788
倆	-16.7789
々	-16.779
珀	-16.7792
哮	-16.7792
􂣃	-16.7794
ṅ	-16.7794
O	-16.7795
蟇	-16.7796
靆	-16.7797
㵕	-16.7799
鵡	-16.7799
𦎨	-16.7801
菉	-16.7801
􂣂	-16.7802
冽	-16.7803
豽	-16.7804
獼	-16.7806
檇	-16.7806
—	-16.7808
[	-16.7808
l	-16.7809
霹	-16.781
+	-16.7811
􂨳	-16.7812
>	-16.7813
|	-16.7815
▲	-16.7815
彿	-16.7815
