<unk>	0
<s>	0
</s>	0
也	-3.77008
之	-3.89891
而	-4.10619
以	-4.43662
/	-4.44622
者	-4.48826
為	-4.58639
則	-4.60471
有	-4.94493
其	-4.94865
)(	-5.03918
(	-5.04249
故	-5.06635
)	-5.1058
不	-5.21037
曰	-5.33323
言	-5.35801
是	-5.44439
於	-5.47621
矣	-5.48989
上	-5.61419
一	-5.65066
此	-5.70474
與	-5.79105
于	-5.79885
自	-5.7993
易	-5.80992
皆	-5.83171
三	-5.87405
二	-5.8849
下	-5.88786
非	-5.88832
人	-5.92242
得	-5.93987
如	-5.95062
亦	-5.95066
无	-5.95924
乎	-5.96196
在	-5.96291
謂	-5.96312
象	-5.98346
然	-5.9998
四	-6.02923
五	-6.04758
當	-6.08744
至	-6.10907
陽	-6.1255
明	-6.13853
中	-6.14464
大	-6.15941
卦	-6.22226
正	-6.23582
處	-6.24596
又	-6.24761
用	-6.25353
所	-6.25547
乾	-6.27173
必	-6.29807
能	-6.30149
雖	-6.3029
乃	-6.30583
行	-6.30826
初	-6.31024
○	-6.31586
隂	-6.32133
之象	-6.36842
見	-6.37864
坤	-6.39245
所以	-6.40027
故曰	-6.40046
者也	-6.41175
▁	-6.41964
已	-6.42478
事	-6.42852
居	-6.43522
即	-6.44088
成	-6.44426
道	-6.46381
復	-6.46632
若	-6.47264
剛	-6.47361
天	-6.47988
變	-6.48125
義	-6.4917
時	-6.49266
無	-6.49586
知	-6.50419
生	-6.51273
動	-6.51431
君子	-6.52518
本	-6.52872
説	-6.53154
同	-6.53282
物	-6.53386
合	-6.5481
作	-6.55683
可	-6.57737
未	-6.60552
柔	-6.60935
離	-6.61472
從	-6.61686
心	-6.62992
字	-6.64959
象曰	-6.65332
云	-6.65888
說	-6.66216
聖人	-6.66399
震	-6.69794
之道	-6.70489
夫	-6.71268
體	-6.71649
反	-6.73338
既	-6.73584
止	-6.73761
之義	-6.75648
焉	-6.75988
終	-6.7641
位	-6.7802
方	-6.78511
主	-6.79878
相	-6.80004
來	-6.80274
不可	-6.80402
巽	-6.81043
出	-6.81115
爲	-6.81386
坎	-6.81715
何	-6.82902
吉	-6.83671
六	-6.83798
不能	-6.85539
子	-6.85747
所謂	-6.85869
通	-6.86475
始	-6.8668
惟	-6.86831
取	-6.87657
而不	-6.8791
應	-6.88574
外	-6.89309
小人	-6.89594
分	-6.89735
順	-6.90474
猶	-6.90541
欲	-6.91475
進	-6.91566
水	-6.92079
爻	-6.92445
觀	-6.92563
或	-6.92767
益	-6.93395
徳	-6.95148
日	-6.9568
艮	-6.97016
九	-6.97442
耳	-6.9771
地	-6.98607
數	-6.98919
安	-7.00796
小	-7.02396
天下	-7.03988
文	-7.04309
君	-7.04926
極	-7.05288
内	-7.05539
之時	-7.05879
民	-7.06136
傳	-7.0618
利	-7.06426
先	-7.06757
亨	-7.06854
後	-7.07817
節	-7.08735
解	-7.08768
善	-7.08882
天地	-7.09025
過	-7.09383
而已	-7.09668
去	-7.10074
王	-7.10095
/)	-7.10174
固	-7.10871
實	-7.11249
難	-7.11264
比	-7.13699
兩	-7.13729
求	-7.1486
多	-7.14936
哉	-7.15826
九五	-7.16748
盡	-7.17354
今	-7.17371
凶	-7.1739
意	-7.1742
隨	-7.17643
志	-7.18692
理	-7.19728
无咎	-7.20026
因	-7.20858
常	-7.23527
九二	-7.24034
凡	-7.24093
以為	-7.24135
如此	-7.24198
宜	-7.24664
使	-7.24859
且	-7.24885
往	-7.25177
氣	-7.27257
重	-7.29311
上九	-7.30141
乾坤	-7.30215
損	-7.30631
入	-7.31877
立	-7.32475
將	-7.33036
遇	-7.3383
及	-7.34502
否	-7.34591
由	-7.34617
六五	-7.34734
險	-7.34888
治	-7.3526
也故	-7.35637
信	-7.35649
隂陽	-7.35798
八	-7.35871
貞	-7.36093
我	-7.36152
身	-7.36219
升	-7.36361
失	-7.36762
德	-7.37107
蓋	-7.37333
而後	-7.37367
長	-7.37421
可以	-7.37617
九三	-7.37697
履	-7.38037
指	-7.38171
臣	-7.38332
交	-7.38776
陰	-7.39693
獨	-7.39827
井	-7.41432
上下	-7.42014
元	-7.4237
衆	-7.42561
前	-7.42752
神	-7.43322
疑	-7.43583
九四	-7.44307
木	-7.45125
六二	-7.45317
命	-7.45414
火	-7.45456
萬物	-7.45911
上六	-7.46005
尚	-7.46079
禮	-7.46201
但	-7.46952
辭	-7.47047
稱	-7.47466
泰	-7.48227
困	-7.48343
革	-7.48387
和	-7.50031
臨	-7.50217
師	-7.50312
是以	-7.5055
逺	-7.50704
名	-7.51256
謙	-7.51501
初九	-7.51718
濟	-7.52515
定	-7.52535
便	-7.52548
葢	-7.53461
法	-7.53607
世	-7.53968
盖	-7.54573
直	-7.54649
釋	-7.54818
六三	-7.55677
訟	-7.58691
致	-7.58719
各	-7.58902
占	-7.59067
之意	-7.59901
歸	-7.60021
山	-7.60227
盛	-7.60821
近	-7.60998
亂	-7.61195
豈	-7.61244
謂之	-7.61247
論	-7.61291
恒	-7.61455
豫	-7.61806
澤	-7.61834
深	-7.62415
虚	-7.62595
國	-7.62598
經	-7.6267
性	-7.62682
風	-7.6273
在上	-7.63837
畜	-7.64223
公	-7.64288
惡	-7.64564
兊	-7.6464
之象也	-7.64673
異	-7.65052
人之	-7.65343
七	-7.66008
危	-7.66191
養	-7.66411
足	-7.66482
之理	-7.66501
孚	-7.66824
本義	-7.669
就	-7.67145
書	-7.67217
六四	-7.6732
化	-7.67438
感	-7.67463
發	-7.67803
問	-7.67971
仁	-7.68663
注	-7.68819
遯	-7.68823
平	-7.69439
畫	-7.69938
家	-7.70252
之事	-7.70289
漸	-7.7146
是也	-7.71689
誠	-7.7212
彖	-7.72465
窮	-7.72639
在下	-7.7271
著	-7.72801
鼎	-7.73235
起	-7.73361
唯	-7.73503
全	-7.73883
形	-7.73946
蒙	-7.74228
初六	-7.74309
不得	-7.74361
存	-7.75298
周	-7.75445
女	-7.75635
兌	-7.758
不知	-7.75948
之中	-7.7606
髙	-7.76159
首	-7.76641
斯	-7.7667
故為	-7.76676
文王	-7.76712
舉	-7.76886
屯	-7.77055
言之	-7.77085
句	-7.77168
受	-7.77521
守	-7.77541
己	-7.7767
馬	-7.78129
八卦	-7.78248
咸	-7.78536
睽	-7.78767
制	-7.78869
之所	-7.78954
六爻	-7.79153
備	-7.79414
圖	-7.79785
又曰	-7.8005
樂	-7.80135
承	-7.80656
思	-7.80799
情	-7.81598
力	-7.819
遂	-7.83611
甚	-7.83821
貴	-7.8406
要	-7.85047
諸	-7.85258
親	-7.85544
類	-7.85856
天下之	-7.87109
悔	-7.87277
萃	-7.87661
聚	-7.87793
施	-7.87878
功	-7.87987
至於	-7.88036
次	-7.88043
其所	-7.88388
積	-7.89082
害	-7.89714
只	-7.89802
土	-7.89858
俱	-7.90142
蠱	-7.90923
而為	-7.90984
剥	-7.91065
更	-7.91122
少	-7.91188
晉	-7.91271
徃	-7.91355
賢	-7.91552
然後	-7.91833
壯	-7.91833
兼	-7.91948
旅	-7.91961
剛柔	-7.92238
渙	-7.92408
一陽	-7.92423
退	-7.92424
似	-7.92538
光	-7.93214
食	-7.94119
彼	-7.9448
勝	-7.94741
中正	-7.94933
需	-7.94967
決	-7.95214
學	-7.9549
吉凶	-7.95535
金	-7.95788
加	-7.96639
憂	-7.96767
兑	-7.9677
有孚	-7.97016
語	-7.97678
戒	-7.97761
敬	-7.97788
氏	-7.97822
不同	-7.98075
月	-7.98285
只是	-7.98683
傷	-7.99113
吾	-7.9957
推	-7.99721
尊	-7.99731
動而	-7.99849
豐	-8.00218
據	-8.0075
原	-8.01465
對	-8.01525
也然	-8.01724
賁	-8.01822
十	-8.01866
好	-8.02538
之極	-8.02734
則為	-8.02896
章	-8.03015
吝	-8.0351
无妄	-8.0425
孔子	-8.04466
餘	-8.0506
健	-8.05085
藏	-8.05263
之道也	-8.05451
乾之	-8.05479
之心	-8.05835
任	-8.06296
厲	-8.06551
邪	-8.06807
莫	-8.06857
利貞	-8.07113
夬	-8.07518
聖	-8.08188
引	-8.08273
流	-8.08463
息	-8.08624
須	-8.08688
具	-8.08707
變化	-8.09295
㢲	-8.09992
蹇	-8.10194
互	-8.10508
音	-8.10552
屬	-8.10876
右	-8.11017
便是	-8.11059
之間	-8.11304
大人	-8.11316
度	-8.11549
故有	-8.11673
大過	-8.1201
散	-8.12039
而无	-8.12191
厚	-8.12302
易之	-8.12439
聲	-8.12465
雷	-8.1263
有所	-8.12693
興	-8.13157
而成	-8.13286
别	-8.13496
太	-8.13547
貞吉	-8.13578
顯	-8.13877
矣故	-8.14172
服	-8.14312
而言	-8.14547
包	-8.14672
盈	-8.14775
足以	-8.15177
必有	-8.15217
之徳	-8.15461
切	-8.15731
附	-8.1587
辨	-8.16236
視	-8.16411
伏	-8.16992
爾	-8.17008
適	-8.17215
死	-8.17355
威	-8.17405
精	-8.17485
他	-8.1752
卑	-8.18077
配	-8.18097
乗	-8.18999
古	-8.1907
也夫	-8.1909
二陽	-8.19155
私	-8.19235
亡	-8.19728
克	-8.19928
待	-8.20018
之辭	-8.20021
久	-8.20433
姤	-8.20467
開	-8.20789
乘	-8.21541
龍	-8.21583
父	-8.21747
▁(	-8.21794
疾	-8.21922
勢	-8.22099
刑	-8.22188
逆	-8.22189
了	-8.2286
容	-8.23013
斷	-8.23301
則有	-8.23725
何以	-8.23852
爻辭	-8.24131
静	-8.24201
頤	-8.24887
口	-8.25488
微	-8.25493
之主	-8.25674
消	-8.25957
不足	-8.261
宗	-8.26364
未濟	-8.26433
之卦	-8.26487
而能	-8.26754
二五	-8.2682
年	-8.27356
不正	-8.27459
此爻	-8.27605
无所	-8.27739
之位	-8.27768
教	-8.27983
至于	-8.28024
慎	-8.28025
間	-8.28059
大有	-8.28229
美	-8.28752
以其	-8.28837
改	-8.28908
不言	-8.29098
不可以	-8.29327
幾	-8.29472
君子之	-8.29553
載	-8.29559
向	-8.29671
其道	-8.298
之初	-8.29906
修	-8.30264
之數	-8.30274
妄	-8.30324
剝	-8.30748
彖曰	-8.31036
太極	-8.31272
小過	-8.31319
齊	-8.3183
進退	-8.31875
輔	-8.31953
令	-8.32132
同人	-8.32223
萬	-8.32417
而有	-8.32741
故云	-8.33078
其義	-8.33277
道也	-8.3333
最	-8.34094
漢	-8.34141
夫子	-8.34327
所以為	-8.34674
之義也	-8.34683
帝	-8.34858
錯	-8.34893
廣	-8.35505
靜	-8.35874
也故曰	-8.36027
質	-8.362
執	-8.36366
既濟	-8.36529
係	-8.36767
牛	-8.36834
之上	-8.36899
苟	-8.36902
咎	-8.36906
尤	-8.36993
周易	-8.37072
隂柔	-8.37218
一隂	-8.3722
二隂	-8.37354
才	-8.37587
来	-8.377
東	-8.3809
器	-8.38788
統	-8.38922
敗	-8.38957
依	-8.39086
政	-8.39272
陽剛	-8.39321
專	-8.3935
大壯	-8.39485
元吉	-8.39759
偶	-8.39903
中孚	-8.4001
並	-8.40086
竒	-8.40089
患	-8.40123
之後	-8.40243
士	-8.404
君子以	-8.40413
羣	-8.4053
自然	-8.40572
南	-8.4062
㑹	-8.40713
果	-8.40714
序	-8.40725
小畜	-8.41204
强	-8.41265
違	-8.41351
絶	-8.41896
程子曰	-8.42052
白	-8.42182
災	-8.42495
程傳	-8.42546
晦	-8.42585
降	-8.42616
特	-8.42784
左	-8.42875
設	-8.42953
門	-8.42954
如是	-8.43284
繫	-8.43318
望	-8.43682
懼	-8.43687
正應	-8.43696
婦	-8.43747
飛	-8.43916
告	-8.43925
按	-8.43933
也此	-8.43984
百	-8.44014
喜	-8.4403
之用	-8.44586
總	-8.4466
案	-8.44992
雨	-8.45094
可見	-8.45527
申	-8.45781
車	-8.45901
田	-8.45907
為主	-8.46232
虞	-8.46387
舍	-8.4682
高	-8.4684
之地	-8.46895
𤼵	-8.46965
卷	-8.47073
噬嗑	-8.47206
得中	-8.47317
目	-8.47335
恐	-8.47451
相應	-8.47526
聖人之	-8.47595
坤之	-8.47742
考	-8.47801
張	-8.47974
西	-8.48064
男	-8.48068
者皆	-8.48177
却	-8.48215
征	-8.48433
一爻	-8.486
除	-8.48605
慮	-8.48764
六十四卦	-8.48992
習	-8.49047
歸妹	-8.49302
謹	-8.49405
聞	-8.49703
看	-8.50209
坎為	-8.5026
亢	-8.50338
也若	-8.50589
愈	-8.50647
故能	-8.5106
得其	-8.5126
卦之	-8.5134
訓	-8.51404
而得	-8.51703
底	-8.51894
謀	-8.52015
之功	-8.52545
不過	-8.52608
之始	-8.5277
陸	-8.52983
决	-8.53213
未有	-8.53223
夏	-8.53564
這	-8.53779
明夷	-8.53818
之人	-8.53869
於此	-8.54277
𫝊	-8.54343
察	-8.54411
黄	-8.54451
矣然	-8.54638
喪	-8.54751
智	-8.54858
資	-8.54895
三陽	-8.55071
禍	-8.55197
甲	-8.55336
人心	-8.55344
其心	-8.55398
筮	-8.55523
天道	-8.55848
朝	-8.55892
助	-8.55893
運	-8.55949
權	-8.56154
剛中	-8.56409
雜	-8.56412
偏	-8.56774
繼	-8.57103
詳	-8.57163
敵	-8.57197
之所以	-8.57212
達	-8.57253
末	-8.57319
朱子	-8.57328
一卦	-8.57491
之謂	-8.57511
也象曰	-8.57524
真	-8.57559
共	-8.57686
陳	-8.5769
嚴	-8.57713
其徳	-8.5801
其志	-8.58222
天地之	-8.58278
蓍	-8.58373
徒	-8.58399
不必	-8.58675
繫辭	-8.58822
獲	-8.58842
之説	-8.5885
如何	-8.58966
色	-8.59018
家人	-8.59232
不及	-8.59247
彖辭	-8.59258
幽	-8.59341
舊	-8.59541
亦有	-8.59616
福	-8.59783
兵	-8.5993
大畜	-8.60019
照	-8.60021
等	-8.60149
畏	-8.6039
覆	-8.60658
不敢	-8.60809
母	-8.60814
再	-8.60871
誤	-8.61175
氏曰	-8.61205
麗	-8.61659
勞	-8.61874
老	-8.61875
商	-8.62024
陵	-8.62089
到	-8.62159
日月	-8.62435
其事	-8.62508
於上	-8.62549
坎離	-8.63198
皆以	-8.63297
石	-8.63451
之下	-8.63562
讀	-8.63659
悔亡	-8.63728
雲	-8.63757
水火	-8.63853
根	-8.64096
進而	-8.64203
天之	-8.64325
列	-8.64588
之德	-8.6475
富	-8.64778
陰陽	-8.64802
純	-8.64887
轉	-8.65165
何也	-8.65175
以此	-8.65205
耶	-8.65246
者以	-8.65266
滅	-8.6537
例	-8.65568
知其	-8.65578
得位	-8.65654
於下	-8.65776
則不	-8.65856
簡	-8.66144
无不	-8.66255
連	-8.66329
坤為	-8.6633
北	-8.66452
持	-8.66617
遷	-8.66801
朱子曰	-8.66868
夷	-8.67001
殺	-8.67055
巳	-8.67132
伏羲	-8.67217
識	-8.67366
速	-8.67483
享	-8.6759
三四	-8.6767
以柔	-8.67676
新	-8.67905
保	-8.67934
其位	-8.67944
以剛	-8.68013
不以	-8.68165
十二	-8.68559
祭	-8.68828
衰	-8.6896
血	-8.69287
愛	-8.69576
陷	-8.696
堅	-8.69642
故以	-8.69856
武	-8.69862
背	-8.70005
鬼神	-8.7006
周公	-8.70235
揲	-8.70247
介	-8.7033
接	-8.70346
伐	-8.70454
建	-8.70477
之才	-8.70524
不當	-8.7059
塞	-8.70628
蔽	-8.70702
用之	-8.71165
四時	-8.71245
不為	-8.71355
内外	-8.71377
卦辭	-8.71472
端	-8.71539
元亨	-8.71673
以明	-8.71813
得正	-8.71972
邑	-8.72045
物之	-8.72296
業	-8.7238
春	-8.72576
鄭	-8.72597
而又	-8.72934
輕	-8.72979
而上	-8.73028
之類	-8.73088
而行	-8.73126
卦變	-8.73173
含	-8.73302
之際	-8.73373
泥	-8.73385
君臣	-8.73909
虎	-8.74035
弱	-8.74042
况	-8.74059
撰	-8.7414
朋	-8.74166
剛而	-8.74172
此卦	-8.74225
彖傳	-8.74259
卦爻	-8.74524
愚	-8.7454
子曰	-8.74641
都	-8.74667
諸侯	-8.74736
文明	-8.74772
防	-8.75068
觀之	-8.75077
約	-8.7529
手	-8.75361
半	-8.75413
納	-8.75542
皆有	-8.75796
往來	-8.7581
无應	-8.7608
罪	-8.76094
參	-8.7612
二之	-8.76189
頥	-8.76277
潛	-8.76769
示	-8.7718
人君	-8.77201
屈	-8.77294
在外	-8.77383
以正	-8.77428
之志	-8.77729
虛	-8.77763
噬	-8.77939
李	-8.78311
而動	-8.78323
侯	-8.78394
魚	-8.78524
雖有	-8.78718
剛健	-8.7872
見其	-8.78735
柔順	-8.78856
以下	-8.7893
救	-8.79166
乆	-8.79266
之吉	-8.79352
未嘗	-8.79623
宋	-8.79687
飾	-8.79923
専	-8.80328
避	-8.80393
茍	-8.80402
暗	-8.80618
置	-8.80655
男女	-8.81
不利	-8.8104
恭	-8.81152
取其	-8.81257
,	-8.8144
㣲	-8.81505
官	-8.81675
戰	-8.81703
䝉	-8.81786
其身	-8.81826
眀	-8.81847
而不能	-8.81854
躁	-8.8186
言其	-8.82281
居中	-8.82367
結	-8.8248
干	-8.82568
在内	-8.82599
中爻	-8.82706
上之	-8.82787
不然	-8.82828
學者	-8.82858
詩	-8.8291
弗	-8.82911
代	-8.83093
折	-8.83491
然則	-8.83756
宫	-8.83776
薄	-8.83971
序卦	-8.83992
不相	-8.84033
其中	-8.84159
牽	-8.84271
歟	-8.84416
病	-8.84445
勿	-8.846
人事	-8.84659
録	-8.84876
滿	-8.85009
可謂	-8.85108
嘗	-8.85137
號	-8.85195
淵	-8.85262
聽	-8.85399
不見	-8.85418
於人	-8.85439
計	-8.8555
輿	-8.85702
唐	-8.85911
隠	-8.85942
亨也	-8.86037
造	-8.8629
象也	-8.86371
為義	-8.86779
假	-8.86901
審	-8.86922
三爻	-8.86945
泉	-8.87311
又有	-8.87364
隱	-8.87414
寧	-8.87461
儀	-8.87519
先天	-8.8765
羊	-8.87792
辰	-8.87812
做	-8.87862
而無	-8.87959
量	-8.88047
之謂也	-8.88209
取象	-8.88508
則是	-8.88522
龜	-8.88755
吉也	-8.89017
嘉	-8.89113
正也	-8.89343
爭	-8.89345
二字	-8.89376
而下	-8.89556
註	-8.897
限	-8.89711
初之	-8.89737
寡	-8.90028
疏	-8.90222
可知	-8.90291
忠	-8.90522
寒	-8.90577
則无	-8.90645
朱	-8.90704
奉	-8.90729
出於	-8.90824
惕	-8.91128
清	-8.91136
差	-8.91275
庚	-8.91318
居上	-8.91429
之終	-8.91511
是故	-8.91696
室	-8.9171
耦	-8.91775
良	-8.91807
震動	-8.92069
鳥	-8.92264
秋	-8.92449
西南	-8.92649
陽氣	-8.92726
變為	-8.92743
悦	-8.92748
之物	-8.93013
機	-8.93032
則吉	-8.93046
律	-8.93057
棄	-8.93064
趾	-8.9317
四象	-8.93182
于上	-8.93186
二爻	-8.93243
小人之	-8.93387
不足以	-8.93556
之體	-8.93558
止於	-8.9364
廢	-8.93742
祖	-8.93805
不失	-8.93864
夫婦	-8.93915
五陽	-8.93971
有悔	-8.93986
利有攸往	-8.94172
千	-8.94194
免	-8.94375
伯	-8.9445
者言	-8.94565
遺	-8.94587
忘	-8.94635
未能	-8.95007
亦不	-8.95018
譽	-8.95027
無所	-8.95105
率	-8.95158
玩	-8.95235
占者	-8.95336
五之	-8.9556
素	-8.95621
又為	-8.95625
之情	-8.95757
相與	-8.95821
夜	-8.95831
何也曰	-8.95891
暴	-8.95899
嵗	-8.95953
旣	-8.95969
賤	-8.96055
卒	-8.96238
不善	-8.96246
而未	-8.96267
陽爻	-8.96323
者也故	-8.9634
之世	-8.96414
元亨利貞	-8.96628
各有	-8.96667
負	-8.96982
期	-8.97048
行也	-8.97095
遠	-8.97551
天子	-8.97824
胡	-8.97885
䇿	-8.97902
震為	-8.97914
篇	-8.98084
抑	-8.98269
四隂	-8.98594
有功	-8.98604
究	-8.98719
乾為	-8.98758
伊川曰	-8.98955
在中	-8.98994
均	-8.99225
将	-8.99555
文言	-8.9971
之大	-8.99986
后	-9.00025
之外	-9.00057
之君	-9.00189
艱	-9.003
者亦	-9.00301
空	-9.00382
之正	-9.00669
二體	-9.00951
仲	-9.00959
當位	-9.01019
況	-9.01059
面	-9.0107
務	-9.01188
之說	-9.01199
河圖	-9.01221
巽為	-9.01556
上行	-9.01616
之法	-9.01742
以成	-9.01789
失其	-9.01902
虞翻曰	-9.02133
之氣	-9.02215
居下	-9.02238
則必	-9.02283
歴	-9.0232
道理	-9.02374
失位	-9.02441
一作	-9.0263
益之	-9.0264
應之	-9.02781
先儒	-9.02781
无悔	-9.02831
效	-9.02854
莫不	-9.03101
移	-9.03144
拯	-9.03317
矣故曰	-9.03427
流行	-9.03596
纂註	-9.03702
角	-9.03723
仍	-9.03736
五行	-9.04003
六子	-9.04099
至誠	-9.04171
冬	-9.04185
四之	-9.04234
布	-9.04376
言之則	-9.04408
是為	-9.04417
議	-9.04427
五為	-9.04565
者必	-9.04694
林	-9.04757
衍	-9.04941
无不利	-9.05182
那	-9.05241
或曰	-9.053
此言	-9.05314
則其	-9.05407
綜	-9.05616
卜	-9.05648
之妙	-9.05785
妙	-9.05892
之性	-9.05908
卜筮	-9.05971
天理	-9.06461
孰	-9.06568
每	-9.06677
三隂	-9.0687
緩	-9.07051
伊川	-9.07081
阻	-9.07111
道之	-9.07173
集解	-9.07215
顧	-9.07233
華	-9.07279
尾	-9.07346
至此	-9.07374
於外	-9.07552
隔	-9.07667
従	-9.07733
以求	-9.07771
育	-9.07783
飲食	-9.079
許	-9.07925
鳴	-9.08017
艮止	-9.08085
後世	-9.08106
者非	-9.08195
下卦	-9.08255
其時	-9.08315
之至	-9.08469
俗	-9.08606
不息	-9.08622
終始	-9.08628
劉	-9.08643
永	-9.08981
獄	-9.0901
悔吝	-9.09031
而不知	-9.09167
星	-9.09267
不明	-9.09315
自守	-9.09426
動則	-9.09461
被	-9.09484
幹	-9.09573
不用	-9.09699
造化	-9.09915
卦體	-9.09935
傳曰	-9.09964
五十	-9.10031
急	-9.10048
集	-9.1005
草	-9.10061
東北	-9.1029
隂陽之	-9.10382
象傳	-9.10691
白雲郭氏曰	-9.10816
休	-9.10949
殊	-9.11017
柔而	-9.11108
故謂之	-9.1117
趨	-9.11223
邦	-9.11264
一日	-9.11347
崇	-9.11407
凝	-9.11573
故受之以	-9.11644
野	-9.11659
成卦	-9.11718
則知	-9.11808
禽	-9.11899
也今	-9.11945
舎	-9.12097
也二	-9.12332
三之	-9.12529
春秋	-9.12532
程子	-9.12533
贊	-9.12726
之變	-9.12739
其德	-9.12764
故言	-9.12982
拘	-9.12997
不如	-9.13026
昏	-9.13115
則可以	-9.13157
維	-9.13161
犯	-9.13333
二卦	-9.13379
于下	-9.13588
矣此	-9.13949
振	-9.13963
也君子	-9.1406
三十	-9.14068
黨	-9.14103
於是	-9.14273
楊	-9.14514
涉	-9.14615
使之	-9.14673
然而	-9.14675
相遇	-9.1474
自有	-9.14909
卦名	-9.14911
而生	-9.15051
往而	-9.15117
事之	-9.1514
神明	-9.15392
箇	-9.15592
忽	-9.15926
腹	-9.15945
伊川先生曰	-9.16047
貫	-9.16069
厯	-9.16186
充	-9.16271
極而	-9.16275
損益	-9.16287
行之	-9.16356
不動	-9.1639
曲	-9.16648
也聖人	-9.16812
變而	-9.16819
與之	-9.16843
其辭	-9.17012
而不可	-9.17092
四陽	-9.17141
冝	-9.17197
薦	-9.17355
遽	-9.17428
左右	-9.17518
于此	-9.17693
孝	-9.17711
并	-9.17798
天命	-9.17803
潤	-9.17887
賛	-9.1809
予	-9.18186
洛書	-9.18192
利見大人	-9.18213
不已	-9.1835
終吉	-9.18397
會	-9.18422
禄	-9.18607
隨之	-9.1887
)○	-9.1901
亦可	-9.19017
之時也	-9.19082
苦	-9.19163
後天	-9.19271
易簡	-9.19313
一人	-9.19384
征凶	-9.19413
寛	-9.19449
兩儀	-9.19452
二十	-9.19596
光明	-9.19626
變通	-9.19691
三畫	-9.19708
之勢	-9.1975
怨	-9.19786
庶	-9.19832
𩔖	-9.19849
也三	-9.19925
而已矣	-9.19935
勉	-9.19962
六畫	-9.20039
還	-9.20039
細	-9.20182
離為	-9.20288
不在	-9.20323
傾	-9.2038
衣	-9.20493
迷	-9.20515
陽之	-9.20576
射	-9.20652
互體	-9.20674
艮為	-9.20857
生於	-9.20939
甘	-9.21127
潔	-9.21167
妻	-9.21198
其理	-9.21211
舜	-9.21446
玉	-9.2145
地之	-9.21459
悖	-9.21487
補	-9.21499
㡬	-9.215
不變	-9.21681
詞	-9.21813
十六	-9.21814
強	-9.21821
紀	-9.21919
徐	-9.22074
股	-9.22153
戒之	-9.22261
昧	-9.22341
格	-9.22409
職	-9.22518
父母	-9.2252
其用	-9.22555
豈能	-9.22638
史	-9.22692
二四	-9.22725
其象	-9.22798
坎水	-9.22828
倚	-9.2291
誰	-9.23092
財	-9.2332
大抵	-9.23322
裕	-9.2344
取諸	-9.23455
極則	-9.23503
人道	-9.23515
先生	-9.23567
願	-9.23665
而居	-9.23734
從之	-9.23784
靈	-9.23786
九六	-9.23811
以見	-9.23912
見於	-9.23936
孟子	-9.23969
惑	-9.24085
扵	-9.24206
懐	-9.24219
凶也	-9.24273
河	-9.24399
故稱	-9.24604
省	-9.24638
。	-9.24711
記	-9.24841
䘮	-9.25007
而止	-9.25016
惠	-9.25016
路	-9.2509
笑	-9.25094
作易	-9.25185
坤上	-9.25205
策	-9.25235
躬	-9.25324
利用	-9.25375
穴	-9.25595
脩	-9.25596
之至也	-9.25772
責	-9.25776
先王	-9.25863
逐	-9.25904
旋	-9.25946
之戒	-9.26062
焚	-9.26086
不安	-9.26127
不待	-9.26157
者謂	-9.26283
敢	-9.26463
不行	-9.26579
徳之	-9.26603
又以	-9.26642
收	-9.26697
索	-9.26702
而復	-9.26761
初爻	-9.26827
際	-9.26869
以自	-9.26892
累	-9.26905
密	-9.2695
遲	-9.26972
比之	-9.27224
有終	-9.27295
也又	-9.27353
擇	-9.27441
利涉大川	-9.27464
越	-9.27502
昭	-9.276
過於	-9.27602
闕	-9.27621
午	-9.27703
禹	-9.27854
膚	-9.27906
諸卦	-9.27957
圓	-9.28243
翼	-9.28275
寵	-9.28338
攻	-9.28459
三變	-9.28712
戎	-9.28809
之學	-9.28889
王者	-9.28896
於天	-9.28929
者有	-9.29108
秦	-9.29236
丁	-9.29257
味	-9.29298
仰	-9.29348
少女	-9.29438
鮮	-9.29466
不通	-9.29563
淺	-9.29568
圗	-9.29618
乾上	-9.29694
之名	-9.29742
无咎也	-9.29833
者以其	-9.29839
附録	-9.29941
進也	-9.29978
有為	-9.30152
則凶	-9.30233
誅	-9.30354
六爻皆	-9.30425
革之	-9.30526
不中	-9.30551
見得	-9.30573
相感	-9.30591
隨時	-9.30692
拂	-9.30943
三才	-9.31088
覺	-9.31176
在天	-9.3118
丘	-9.31192
勿用	-9.31219
大象	-9.31258
易中	-9.31405
萌	-9.31448
下體	-9.3146
大臣	-9.31489
表	-9.31751
内卦	-9.31831
郊	-9.31948
垂	-9.31995
汲	-9.32317
離下	-9.32437
中行	-9.32479
守正	-9.32489
川	-9.32576
此以	-9.32603
肆	-9.32653
之於	-9.32657
早	-9.32728
巽順	-9.32794
也凡	-9.32837
上經	-9.32874
之事也	-9.32897
居尊位	-9.3304
乾下	-9.33047
及其	-9.33085
孔	-9.3312
念	-9.3315
錫	-9.33294
正位	-9.33298
之交	-9.33328
下經	-9.33343
喻	-9.33414
舟	-9.33455
晝	-9.33523
消息	-9.33539
御	-9.33539
狐	-9.3356
娣	-9.33566
艮上	-9.33569
𧰼	-9.33581
故其	-9.33631
得之	-9.3366
豕	-9.33774
而進	-9.33793
五隂	-9.33825
者乎	-9.3392
以象	-9.33938
乖	-9.33967
居尊	-9.34144
援	-9.34145
落	-9.34153
順而	-9.34238
用九	-9.343
寅	-9.34387
不窮	-9.34597
辯	-9.34667
豈不	-9.347
程	-9.34712
不能自	-9.34881
義理	-9.34883
賔	-9.34987
賢人	-9.35159
固有	-9.35207
偽	-9.35362
亦曰	-9.35365
宻	-9.3551
離上	-9.35581
明之	-9.35606
矢	-9.35625
坤下	-9.35709
試	-9.35726
正義	-9.35741
用事	-9.35741
幸	-9.35759
於五	-9.35762
畢	-9.35828
無不	-9.3585
君之	-9.35905
所當	-9.36217
在人	-9.3622
上卦	-9.36287
而反	-9.36306
以陽	-9.36313
闢	-9.36337
悉	-9.36376
隂爻	-9.3645
掛	-9.36502
觀其	-9.36587
𤣥	-9.36638
初為	-9.36804
匪	-9.36881
而自	-9.36954
瀆	-9.37241
勇	-9.373
險難	-9.3733
厥	-9.37388
妹	-9.3764
也五	-9.37742
外卦	-9.37806
王弼	-9.38008
則能	-9.38095
卿	-9.38144
本卦	-9.38231
述	-9.38311
不食	-9.38554
取義	-9.38576
四方	-9.38698
坎險	-9.38781
於初	-9.38793
之文	-9.38817
顛	-9.38894
隂之	-9.391
不與	-9.39101
天地之道	-9.39223
震下	-9.39235
它	-9.39355
坎下	-9.39386
棟	-9.39544
儉	-9.39692
與上	-9.39699
藉	-9.3975
頭	-9.39925
其占	-9.40032
皆是	-9.40043
中虚	-9.40045
志在	-9.40073
反對	-9.4014
可也	-9.40235
安得	-9.40343
授	-9.40358
則不能	-9.40395
草木	-9.4043
羣隂	-9.40453
不容	-9.40459
不復	-9.40463
之分	-9.40567
四五	-9.406
術	-9.40619
叔	-9.40644
使人	-9.40911
乾坤之	-9.40961
則可	-9.41044
三十六	-9.41059
恃	-9.41093
而終	-9.4117
坎上	-9.41263
勸	-9.41321
放	-9.41341
民之	-9.41389
不勝	-9.41413
不當位	-9.41623
繋	-9.41623
易曰	-9.41776
不應	-9.4178
濡	-9.41871
懲	-9.41875
以上	-9.41948
扐	-9.42165
離之	-9.42327
卦象	-9.42425
坎之	-9.42441
鬼	-9.42557
司	-9.42714
露	-9.42728
人所	-9.42779
此章	-9.42803
伸	-9.42812
義也	-9.42835
初上	-9.42865
也蓋	-9.43
可知矣	-9.43021
未必	-9.43228
之臣	-9.4333
生物	-9.43338
也四	-9.43375
六位	-9.43422
於内	-9.43437
而曰	-9.43441
不出	-9.43632
安能	-9.43642
中之	-9.43768
也如	-9.43824
敎	-9.43855
莫之	-9.43919
下文	-9.4392
以順	-9.43999
四徳	-9.44032
僅	-9.44138
循	-9.44158
行師	-9.44424
掩	-9.44439
正義曰	-9.44574
恐懼	-9.44629
推之	-9.44686
物也	-9.44693
友	-9.44718
上體	-9.44741
存乎	-9.44755
陽也	-9.44778
其實	-9.44874
横	-9.44884
曉	-9.44906
无窮	-9.44958
乾元	-9.44979
艮下	-9.4503
一箇	-9.45059
易道	-9.45164
相反	-9.45172
争	-9.45172
並易	-9.45194
人之所	-9.45317
揚	-9.45425
得其正	-9.45458
觸	-9.45549
以至	-9.45638
宣	-9.45669
四為	-9.45685
吕	-9.45702
楚	-9.45725
所歸	-9.45725
君子之道	-9.4573
鼓	-9.45833
第	-9.45852
惟其	-9.45874
説卦	-9.45897
紂	-9.45913
躍	-9.46096
滯	-9.46118
出入	-9.46139
離明	-9.46219
牀	-9.46243
上為	-9.46243
相似	-9.4636
西北	-9.46378
數之	-9.46437
是謂	-9.46567
忌	-9.4662
成功	-9.4668
隆	-9.46881
上有	-9.4697
始於	-9.46972
損之	-9.46979
義曰	-9.47031
季	-9.47035
皇	-9.47142
往則	-9.47203
一句	-9.47278
其上	-9.47296
弊	-9.47353
箕子	-9.47379
七日	-9.47427
随	-9.47523
地道	-9.47541
嗟	-9.47581
故聖人	-9.477
客	-9.47712
上爻	-9.47717
以隂	-9.47754
闇	-9.47821
也又曰	-9.47898
孤	-9.47979
於中	-9.48172
寓	-9.48203
震之	-9.48217
憂患	-9.48234
刻	-9.48247
晝夜	-9.48266
源	-9.48295
長子	-9.48362
不合	-9.48381
位不當也	-9.48383
不是	-9.48388
溺	-9.48464
二為	-9.48522
大吉	-9.48602
為善	-9.48734
略	-9.48821
閑	-9.48833
變易	-9.48836
求之	-9.48847
逼	-9.48921
中有	-9.48983
行而	-9.49019
大者	-9.49019
殷	-9.49117
其勢	-9.49163
而知	-9.4923
祭祀	-9.49233
又何	-9.49244
也初	-9.49265
康	-9.49291
因其	-9.49315
辱	-9.49337
亦以	-9.49339
軍	-9.49358
腓	-9.49376
故无咎	-9.49378
也本義	-9.49441
有應	-9.49452
人情	-9.49455
韓	-9.49577
榮	-9.49592
亥	-9.49593
怒	-9.49862
愚謂	-9.49872
渉	-9.49907
三五	-9.49912
上文	-9.49987
始終	-9.4999
畫卦	-9.49994
大事	-9.50032
恩	-9.50057
閉	-9.5009
不可不	-9.50127
州	-9.50177
歸之	-9.50244
敦	-9.50343
婦人	-9.50404
肉	-9.50479
禦	-9.50731
震上	-9.50751
黙	-9.50751
有餘	-9.50776
為用	-9.50826
魏	-9.50862
六十四	-9.50886
祥	-9.50973
博	-9.51006
他卦	-9.51038
海	-9.51155
中也	-9.51189
世之	-9.5125
户	-9.51263
慶	-9.51311
奪	-9.51424
泰之	-9.51468
丑	-9.51572
諸爻	-9.51621
四爻	-9.51645
于外	-9.51656
其情	-9.51664
仁義	-9.51668
得失	-9.51823
之本	-9.51975
為一	-9.52005
庸	-9.52035
侵	-9.5206
竊	-9.52157
暌	-9.52178
本作	-9.52211
其間	-9.52229
該	-9.52294
靡	-9.52295
召	-9.5237
吉者	-9.52464
驕	-9.52468
孟	-9.52469
无攸利	-9.52497
條	-9.52528
以濟	-9.52629
谷	-9.52724
正而	-9.5273
變也	-9.52885
齋	-9.53024
下之	-9.53066
其類	-9.53067
城	-9.53115
先生曰	-9.53219
借	-9.53303
横渠先生曰	-9.53377
之序	-9.53427
信之	-9.53458
巽下	-9.53521
有事	-9.53549
相比	-9.53611
極其	-9.53626
未有不	-9.53636
賞	-9.5367
未可	-9.53681
倒	-9.53823
在我	-9.53844
逹	-9.53848
不至	-9.53853
為大	-9.53854
嫁	-9.53911
中庸	-9.53923
柔中	-9.54002
君位	-9.54011
止而	-9.54057
出險	-9.54057
温	-9.54126
生生	-9.54373
䧟	-9.54401
孫	-9.54435
見之	-9.545
上進	-9.54561
鴻	-9.54573
坐	-9.54596
之善	-9.54741
暢	-9.54747
姑	-9.5478
古人	-9.54802
禁	-9.54851
毁	-9.54887
十五	-9.5496
日中	-9.55036
證	-9.55045
變則	-9.55139
欲其	-9.55225
縱	-9.55315
先後	-9.55315
某	-9.55398
聴	-9.55405
擊	-9.5541
出于	-9.55424
聖人作易	-9.55597
君道	-9.5565
揜	-9.55666
奮	-9.5567
爻言	-9.55691
拇	-9.55796
盜	-9.55868
其行	-9.55954
其始	-9.56024
此則	-9.56144
堯	-9.56155
脱	-9.56236
其君	-9.56248
為陽	-9.56301
獻	-9.56465
入於	-9.56523
无所不	-9.56525
飬	-9.56563
大君	-9.56601
辛	-9.56642
之凶	-9.56845
艮之	-9.56905
豈有	-9.57136
迹	-9.57211
相交	-9.57263
事也	-9.57508
尊位	-9.57564
麗乎	-9.57647
在於	-9.57728
初二	-9.57793
永貞	-9.57838
辟	-9.5786
窒	-9.57959
如是則	-9.57965
出而	-9.57998
□	-9.58012
震巽	-9.58022
妾	-9.5821
順也	-9.5834
如此則	-9.58405
本爻	-9.58406
衆隂	-9.58437
畧	-9.58573
三為	-9.58576
利渉大川	-9.58619
少陽	-9.5864
貪	-9.58644
不成	-9.58728
發明	-9.58743
其功	-9.58888
其體	-9.58956
則曰	-9.59028
之爻	-9.59076
確	-9.59088
利見	-9.59118
固守	-9.59139
熟	-9.59167
之利	-9.59228
虧	-9.59248
乙	-9.59281
其數	-9.59436
不易	-9.59448
動静	-9.59493
於天下	-9.59574
无疆	-9.59602
文王之	-9.59613
不中正	-9.59639
而往	-9.59715
詩曰	-9.59746
自是	-9.59828
貞固	-9.5983
也然則	-9.59926
乾體	-9.59959
以中正	-9.59966
廟	-9.60061
也盖	-9.60075
忠信	-9.6008
操	-9.60158
而外	-9.60187
理之	-9.60262
坤順	-9.60332
奇	-9.60516
失道	-9.60524
利有攸徃	-9.60539
庭	-9.60544
蔡	-9.60609
所以能	-9.60611
互坎	-9.60621
聖賢	-9.60654
之難	-9.6068
相得	-9.60688
大明	-9.60776
驗	-9.60928
梁	-9.6111
亨通	-9.61125
也葢	-9.6116
自處	-9.6122
豈非	-9.61244
全體	-9.61301
輪	-9.61303
爻象	-9.6137
不宜	-9.61479
之過	-9.61507
魯	-9.61525
其可	-9.61755
罔	-9.61757
酒	-9.61888
于人	-9.61898
愚案	-9.62032
順從	-9.62164
二三	-9.62184
用也	-9.62256
此理	-9.62287
未得	-9.62431
東南	-9.62583
竭	-9.62587
二十四	-9.62686
而出	-9.62708
卦以	-9.62742
故雖	-9.62803
故不	-9.62923
羽	-9.62994
而來	-9.63007
閏	-9.63016
亨者	-9.63049
昔	-9.63055
小者	-9.63058
止之	-9.63069
貞厲	-9.63071
過中	-9.63118
廣大	-9.6312
之實	-9.63167
在其中	-9.632
中而	-9.63207
允	-9.63241
象傳曰	-9.63279
彰	-9.63396
候	-9.63411
矣夫	-9.63417
萬物之	-9.63422
于五	-9.63549
終於	-9.63637
一時	-9.63656
兆	-9.63689
十年	-9.63712
赤	-9.6377
人臣	-9.63805
水之	-9.63838
爻之	-9.63901
所處	-9.6393
下應	-9.63947
則非	-9.63976
雜卦	-9.64034
以待	-9.64035
用其	-9.64126
小子	-9.64327
其能	-9.64384
心之	-9.64454
毛	-9.6448
取之	-9.64503
巽上	-9.64532
壊	-9.6455
括	-9.64596
旁	-9.64706
兩爻	-9.64773
易之道	-9.64777
不曰	-9.64792
𫉬	-9.64821
天下之事	-9.64835
有常	-9.64893
滋	-9.64935
則又	-9.64968
婚媾	-9.6504
位而	-9.65216
於地	-9.65247
感應	-9.65463
失之	-9.6551
之剛	-9.65657
卦中	-9.65672
豈可	-9.6568
君子小人	-9.65727
行則	-9.65729
第二	-9.65818
敝	-9.65862
鼻	-9.65963
汝	-9.66074
與天地	-9.66094
天徳	-9.66167
爻義	-9.66183
非有	-9.66201
時也	-9.66207
毒	-9.66276
卦徳	-9.66297
逸	-9.663
材	-9.66301
符	-9.66301
為君	-9.664
亦是	-9.66404
易者	-9.6651
輹	-9.6656
委	-9.66566
九五之	-9.66569
與五	-9.66779
牧	-9.6678
所畜	-9.66792
有喜	-9.66816
止也	-9.66818
也或曰	-9.66821
役	-9.66914
時而	-9.66984
支	-9.67023
去其	-9.67059
之賢	-9.671
不中不正	-9.67122
即是	-9.67122
或以	-9.67193
卦畫	-9.67206
擬	-9.67385
荒	-9.67419
大矣	-9.67445
校	-9.67448
言語	-9.67486
其為	-9.67487
邵子	-9.67532
而致	-9.67565
其性	-9.67591
雷風	-9.6767
鼎之	-9.6772
以動	-9.67758
怠	-9.67785
大亨	-9.67815
部	-9.67842
古者	-9.67846
屋	-9.67957
中實	-9.68007
藴	-9.68061
酉	-9.68078
何如	-9.68177
乎此	-9.68238
或問	-9.68381
驚	-9.68385
趙	-9.68427
則雖	-9.68528
之㫖	-9.68549
墉	-9.68565
三十二	-9.686
而求	-9.68704
循環	-9.68711
位不當	-9.68714
剛明	-9.68737
而用	-9.68757
留	-9.68772
八月	-9.68824
講	-9.68867
其才	-9.69033
變而為	-9.69073
也惟	-9.69197
徳行	-9.69372
燕	-9.69385
有慶	-9.6939
不自	-9.69396
三年	-9.69427
正則	-9.6943
其明	-9.69832
不失其	-9.69913
上應	-9.69951
一物	-9.70082
陽而	-9.70108
長男	-9.70172
觀象	-9.70232
乎故	-9.70248
謂五	-9.70323
一卦之	-9.70377
忿	-9.70482
耕	-9.70586
知之	-9.70588
徃來	-9.70685
乗剛	-9.70738
鄰	-9.70738
貴賤	-9.70743
不若	-9.70782
云云何也曰	-9.708
集說	-9.7084
祐	-9.70861
一陰	-9.70918
相易	-9.70952
而非	-9.71074
合而	-9.71091
柔得中	-9.71132
乾卦	-9.71176
鉉	-9.7118
董	-9.7141
之使	-9.71518
險阻	-9.7152
童	-9.71527
其意	-9.71555
險而	-9.71567
而亨	-9.71579
善惡	-9.7163
㫖	-9.71638
可見矣	-9.71734
戊	-9.7179
於四	-9.71867
悟	-9.71875
處之	-9.71877
》	-9.71917
大夫	-9.71921
亦然	-9.71953
之機	-9.7211
老陽	-9.72169
陽為	-9.72212
竟	-9.72218
日新	-9.7222
在下而	-9.72316
斗	-9.72368
甚矣	-9.72372
莊	-9.72529
又云	-9.72531
漢上朱氏曰	-9.72548
之應	-9.72561
以致	-9.72621
中心	-9.7263
不免	-9.72775
稽	-9.72787
破	-9.72876
自養	-9.72936
也九三	-9.73068
亦非	-9.73085
飛鳥	-9.73109
之内	-9.73246
虞翻	-9.73262
封	-9.73295
之禮	-9.73397
以養	-9.73438
養人	-9.73474
與四	-9.73515
咸恒	-9.73578
卦有	-9.73584
消長	-9.736
兩卦	-9.7363
危厲	-9.73653
父子	-9.73723
茅	-9.73739
賊	-9.73791
未嘗不	-9.73799
則無	-9.738
貌	-9.73863
登	-9.73872
以陽剛	-9.73892
稍	-9.73896
與初	-9.73931
勿恤	-9.74001
此所以	-9.74079
湯	-9.74175
孚信	-9.74209
恤	-9.74247
小亨	-9.74362
于天	-9.74368
冬至	-9.74411
者蓋	-9.74456
則當	-9.74475
以行	-9.74512
爵	-9.74535
京	-9.74541
貳	-9.74596
一身	-9.74616
貞也	-9.74617
也九二	-9.74645
不違	-9.7466
所能	-9.74664
而應	-9.74731
謹按	-9.74735
而吉	-9.74863
不盡	-9.7492
六十	-9.74999
所由	-9.75127
而後有	-9.75163
缶	-9.75171
祀	-9.75181
二者	-9.75185
小象	-9.75213
孔子曰	-9.75215
扶	-9.75452
之美	-9.75592
為正	-9.75594
大衍	-9.75608
易以	-9.75617
正中	-9.75645
諸儒	-9.75787
易傳	-9.75922
故必	-9.75933
不順	-9.76019
迫	-9.76022
缺	-9.76062
古之	-9.76096
无咎者	-9.76124
動也	-9.76157
長女	-9.76198
舒	-9.76281
相對	-9.76291
卦義	-9.7634
乾道	-9.76361
所為	-9.76398
一隂一陽	-9.76429
於陽	-9.76496
逮	-9.76519
其説	-9.76541
注云	-9.76566
古文	-9.76592
繇	-9.76627
受其	-9.76682
不測	-9.76689
一事	-9.76784
用刑	-9.76785
一无	-9.7683
種	-9.76863
之大者	-9.76871
説文	-9.76909
之貞	-9.76964
下有	-9.77001
嗚呼	-9.7709
段	-9.77138
五爻	-9.77145
協	-9.77173
之運	-9.772
艱難	-9.77267
奔	-9.77296
癸	-9.77338
増	-9.77358
變動	-9.77385
賓	-9.77461
乾乾	-9.77483
其所以	-9.77518
沈	-9.77555
何所	-9.77557
不交	-9.77583
賦	-9.77646
懷	-9.7766
契	-9.77705
象言	-9.77731
繩	-9.77753
女子	-9.77865
柔弱	-9.77917
而天下	-9.78011
分明	-9.78108
觧	-9.78119
為吉	-9.78164
乾健	-9.78187
志行	-9.78225
尊卑	-9.78236
治之	-9.78248
貨	-9.7826
在上而	-9.78356
動靜	-9.78377
也乾	-9.78476
烏	-9.78498
冥	-9.78572
也是以	-9.78574
骨	-9.78614
得志	-9.78648
故其象占如此	-9.78805
旦	-9.78828
由是	-9.78863
出乎	-9.78933
謂其	-9.78982
也六五	-9.79021
市	-9.79073
慢	-9.79086
反復	-9.79089
之䇿	-9.7911
所行	-9.79125
賢者	-9.79186
匹	-9.79199
報	-9.79233
利於	-9.79337
象數	-9.79372
誠意	-9.79375
費	-9.79424
典	-9.79477
妄動	-9.79499
託	-9.79699
止于	-9.79709
其下	-9.79724
七八	-9.79727
蕃	-9.79776
電	-9.79801
殆	-9.79804
矣象曰	-9.79847
脫	-9.79897
若能	-9.79906
判	-9.79928
應乎	-9.79967
漏	-9.80042
而不已	-9.80082
的	-9.80098
猶有	-9.80102
其本	-9.80135
百姓	-9.80145
有不	-9.8017
賾	-9.80263
入于	-9.80342
翕	-9.80351
上下皆	-9.80429
老隂	-9.80431
相合	-9.80436
貞者	-9.80581
旡	-9.80617
寄	-9.80644
在前	-9.80656
回	-9.80656
也九五	-9.80704
過剛	-9.80757
㝠	-9.80791
於物	-9.80836
少隂	-9.80862
儒	-9.80877
壮	-9.80899
壬	-9.80932
吉而	-9.80942
逺近	-9.80992
篤	-9.81161
聖人以	-9.81175
牙	-9.81321
恱	-9.81371
祗	-9.81375
同體	-9.81397
當然	-9.81479
離火	-9.81606
之甚	-9.81609
性命	-9.81642
二氣	-9.81701
說卦	-9.81763
至矣	-9.81801
否泰	-9.81873
天行	-9.8192
兹	-9.81977
混	-9.82006
衡	-9.82094
若是	-9.821
戌	-9.82106
闗	-9.82115
矯	-9.82225
亦无	-9.82233
事業	-9.82247
武王	-9.82268
哀	-9.82356
天下之至	-9.82404
之宜	-9.82418
故吉	-9.82422
山澤	-9.82425
此又	-9.82475
正道	-9.82522
必以	-9.82594
宿	-9.82622
閒	-9.82659
招	-9.82702
像	-9.82714
塗	-9.82759
性情	-9.82773
浸長	-9.82802
也是故	-9.82834
賴	-9.82852
江	-9.82883
集疏	-9.82904
不取	-9.82946
第一	-9.83022
乎上	-9.83094
坤體	-9.83125
截	-9.8319
過而	-9.8322
萬民	-9.83236
皆言	-9.83402
十八	-9.83505
之盛	-9.83665
乎曰	-9.83698
來者	-9.83826
木之	-9.83873
猶未	-9.83884
與二	-9.83889
亦為	-9.83925
大也	-9.84036
大矣哉	-9.84038
非其	-9.84043
彌	-9.84073
猛	-9.84075
有凶	-9.84134
酌	-9.84231
宗廟	-9.84246
桓	-9.84248
習坎	-9.84264
嫌	-9.84281
天地之間	-9.84402
天位	-9.84448
數也	-9.84462
龜山楊氏曰	-9.84463
采	-9.84473
恁地	-9.84486
能止	-9.84575
无過	-9.84575
可久	-9.84632
虚中	-9.8473
仕	-9.84851
光大	-9.84879
蔀	-9.84899
没	-9.84962
臣道	-9.85007
衆人	-9.85051
有咎	-9.85077
不得不	-9.85123
國家	-9.85147
二剛	-9.85186
則失	-9.85247
之失	-9.85276
猶言	-9.8531
繁	-9.85573
其餘	-9.85733
者如	-9.8578
羸	-9.85797
明矣	-9.85799
倍	-9.85846
失正	-9.85861
第三	-9.85883
重卦	-9.85895
二與五	-9.85962
減	-9.86049
吉凶悔吝	-9.86085
乘剛	-9.86148
為貞	-9.86174
上則	-9.86209
在其中矣	-9.86213
之象故	-9.86414
旬	-9.86491
叶	-9.86593
為隂	-9.86607
之首	-9.86647
㡳	-9.86685
肅	-9.86707
二十八	-9.86708
於二	-9.86857
順以	-9.86891
為小人	-9.86894
之主也	-9.86947
師之	-9.8697
中則	-9.87022
其氣	-9.87057
生成	-9.8709
此義	-9.87138
㐫	-9.87182
以卦體	-9.87186
天人	-9.87204
荀	-9.87255
是非	-9.87289
泰否	-9.87294
歲	-9.87297
當作	-9.87388
處下	-9.87395
周禮	-9.87413
巽之	-9.87421
勤	-9.87443
否之	-9.87556
曷	-9.87643
愚按	-9.87663
後人	-9.87679
五以	-9.87689
也六二	-9.877
若不	-9.87705
措	-9.87777
于内	-9.8778
者所以	-9.87849
四十九	-9.87853
貞正	-9.87864
兑為	-9.87908
見于	-9.87972
天地間	-9.88002
時之	-9.88004
較	-9.8805
對待	-9.88107
王肅	-9.88167
浸	-9.88169
无常	-9.8817
而不敢	-9.88173
書曰	-9.88176
倫	-9.8819
蔡氏曰	-9.88245
畜之	-9.88263
甫	-9.88286
保其	-9.88419
裳	-9.88468
之患	-9.88524
朔	-9.88527
知幾	-9.88554
析	-9.88562
以從	-9.88713
致其	-9.88861
思慮	-9.89022
壞	-9.89033
其大	-9.8919
廬	-9.89192
盡其	-9.89243
大小	-9.89334
音義	-9.89339
寇	-9.89411
萊按	-9.89423
節之	-9.89482
景	-9.89485
渝	-9.89496
之所以為	-9.89512
自古	-9.8952
撓	-9.89584
族	-9.89594
天文	-9.89701
也六三	-9.89708
從上	-9.89709
億	-9.89804
􁁆	-9.89867
六二之	-9.89868
純陽	-9.89951
擾	-9.89967
其常	-9.90006
伊川程子曰	-9.90042
此意	-9.90084
礙	-9.90088
者乃	-9.901
寳	-9.90121
六五之	-9.90157
羲	-9.90159
而處	-9.9017
國之	-9.90319
郭	-9.90339
三嵗	-9.90349
煩	-9.9037
孔子之	-9.90412
始生	-9.90513
之日	-9.90552
也上九	-9.90562
者葢	-9.90569
暑	-9.90601
來復	-9.90619
惻	-9.90657
歸於	-9.90693
本於	-9.90745
居五	-9.90759
守其	-9.91021
衛	-9.91029
伊尹	-9.91081
竒偶	-9.9117
欽定四庫全書	-9.9121
四卦	-9.91258
有此	-9.9126
新安朱氏曰	-9.91337
利也	-9.91353
與三	-9.91409
尺	-9.91526
杜	-9.91592
而不得	-9.91738
韻	-9.91742
營	-9.91745
也既	-9.91792
也上六	-9.91841
伊	-9.91883
者也然	-9.9189
應五	-9.91961
堯舜	-9.91998
井之	-9.92065
𧰼曰	-9.92119
此所謂	-9.92216
盗	-9.92257
工	-9.9227
无有	-9.92389
進則	-9.92431
初四	-9.92509
富貴	-9.9254
德之	-9.92568
不進	-9.92642
寜	-9.92672
也坤	-9.92676
得其所	-9.92708
圖書	-9.92756
之前	-9.92767
以陽居	-9.92768
丈夫	-9.92769
陽卦	-9.92778
所有	-9.92779
不止	-9.92786
既有	-9.928
橈	-9.92889
乾陽	-9.92912
人皆	-9.92923
已成	-9.92947
何咎之有	-9.92967
朋來	-9.93067
不克	-9.9311
便有	-9.93182
于是	-9.93218
黃	-9.93222
返	-9.93243
冦	-9.933
告之	-9.93326
生焉	-9.93335
遏	-9.93342
正是	-9.9337
女歸	-9.93417
占也	-9.93441
彖言	-9.93529
也六四	-9.93554
之始也	-9.93608
臨之	-9.93742
咎也	-9.93745
㓙	-9.93761
遜	-9.93769
曽	-9.93864
一畫	-9.93902
而可	-9.9395
寒暑	-9.94029
以益	-9.94045
日之	-9.94072
潜	-9.94221
得无咎	-9.94248
巽木	-9.94258
从	-9.94264
隂也	-9.9431
未至	-9.94325
預	-9.94326
雖不	-9.94416
焉則	-9.94452
乃能	-9.94467
牝馬	-9.94501
同徳	-9.94621
弟	-9.9467
號令	-9.94671
羞	-9.94675
在初	-9.94745
困而	-9.94781
過乎	-9.94859
逢	-9.94886
讀易	-9.94944
也九四	-9.9497
以盡	-9.95047
衆陽	-9.95076
掌	-9.95167
陸氏曰	-9.95206
終必	-9.95222
基	-9.95228
猶可	-9.9523
之陽	-9.95276
出門	-9.95291
遭	-9.9541
震艮	-9.95467
之𧰼	-9.95493
丈人	-9.95502
威如	-9.95562
鄭氏	-9.95593
之私	-9.95596
二句	-9.95638
兊為	-9.95697
三百六十	-9.95706
霜	-9.95782
之禍	-9.95797
關	-9.95862
吳	-9.95881
繋辭	-9.95927
坎中	-9.95942
備矣	-9.96009
未盡	-9.96015
變者	-9.9609
應初	-9.96168
藥	-9.96189
所以次	-9.96196
柄	-9.96243
未免	-9.96259
無窮	-9.96346
此其所以	-9.96386
顔子	-9.96437
溢	-9.9653
教人	-9.96533
信也	-9.96544
既濟之	-9.96547
故象	-9.96576
也初九	-9.96652
而四	-9.96676
余	-9.96722
農	-9.96746
隂為	-9.9676
者盖	-9.9683
少男	-9.96854
兌為	-9.96886
无首	-9.96888
同也	-9.96923
子之	-9.97062
不服	-9.97118
毫	-9.97132
四德	-9.97138
乃為	-9.97155
􁁇	-9.97169
掛一	-9.97185
以陽居隂	-9.97218
跛	-9.97221
亦猶	-9.97254
陰柔	-9.9735
游	-9.97364
穫	-9.97377
而見	-9.97383
矣又	-9.97398
艮其背	-9.97462
至五	-9.97467
豚魚	-9.97516
邇	-9.97558
徹	-9.97569
一體	-9.97578
雞	-9.97694
徧	-9.9771
互艮	-9.97751
為君子	-9.97766
跡	-9.97818
武人	-9.9787
以道	-9.97905
去之	-9.97915
不得其	-9.97949
絲	-9.97963
釋卦辭	-9.9797
其變	-9.97986
蘇	-9.9803
无位	-9.98048
酒食	-9.98104
非謂	-9.98143
論之	-9.98182
居柔	-9.98216
自内	-9.98354
否曰	-9.98371
而欲	-9.98435
云云	-9.98473
合於	-9.98486
蓍龜	-9.98488
則亦	-9.98495
陽在下	-9.98541
茂	-9.98542
貴乎	-9.98544
佐	-9.9857
易知	-9.98627
大業	-9.98634
主於	-9.98642
分之	-9.98676
其後	-9.9874
誠信	-9.98871
逃	-9.98973
述曰	-9.99035
必至	-9.99193
制之	-9.99257
雖然	-9.9926
學易	-9.99261
側	-9.99286
一變	-9.99327
者何	-9.99339
自下	-9.99378
盛而	-9.9943
以隂柔	-9.99443
而順	-9.99465
凖	-9.99551
愼	-9.99673
歌	-9.99713
反身	-9.99717
所云	-9.99755
俟	-9.99798
掛扐	-9.99841
用六	-9.99855
受命	-9.99859
擬議	-9.99878
聰明	-9.99888
近君	-9.99965
其終	-9.99982
剛正	-9.99984
湏	-9.99993
上下之	-10.0005
是之謂	-10.001
之行	-10.001
棟橈	-10.0012
鄙	-10.0016
自取	-10.002
本義云	-10.0025
三日	-10.0026
先儒曰	-10.0027
溪	-10.0028
君子觀	-10.0035
枯	-10.004
何哉	-10.0041
尚賢	-10.0043
須是	-10.0044
求其	-10.0045
讓	-10.0045
含章	-10.005
以示	-10.0054
吉无不利	-10.0054
則无咎	-10.0066
請	-10.0076
迭	-10.0085
之深	-10.0086
退而	-10.0089
醜	-10.0089
安於	-10.009
在此	-10.009
雉	-10.0091
警	-10.0095
不至於	-10.0103
眚	-10.0105
之用也	-10.0111
彭	-10.0118
之辭也	-10.0123
人欲	-10.0123
居四	-10.0129
厭	-10.0137
三則	-10.014
不一	-10.0146
屯之	-10.0148
討	-10.0152
之策	-10.0157
沛	-10.0158
近於	-10.0161
二以	-10.0164
之占	-10.0169
氣之	-10.0169
窮極	-10.0171
着	-10.018
守之	-10.0183
无非	-10.0184
所得	-10.0184
于中	-10.019
體用	-10.0199
邑人	-10.0203
繫之	-10.0207
則不可	-10.021
巽體	-10.0214
爻位	-10.0214
寸	-10.0215
獸	-10.0218
為應	-10.022
五剛	-10.022
緯	-10.022
荅	-10.0223
然後能	-10.0223
為象	-10.0228
故取	-10.0233
京房	-10.0236
鄭𤣥	-10.0237
天地萬物	-10.0243
許多	-10.0243
有形	-10.0249
諸家	-10.0249
起於	-10.0255
皆非	-10.0258
不信	-10.026
自此	-10.0264
于初	-10.0266
而實	-10.0271
仇	-10.0282
兄	-10.0283
則吉也	-10.03
乎其	-10.0302
其應	-10.0304
演	-10.031
遯之	-10.0311
非聖人	-10.0318
纔	-10.0327
坤道	-10.033
為利	-10.0334
魄	-10.0336
必有所	-10.0337
此聖人	-10.034
女之	-10.0342
莫非	-10.0345
上居	-10.0351
爻皆	-10.0353
者此	-10.0355
可用	-10.0357
蒙謂	-10.0358
得吉	-10.0362
可與	-10.0362
以剛中	-10.0362
无妄之	-10.0369
善也	-10.0375
把	-10.0376
二陰	-10.0378
之象然	-10.0384
上九之	-10.0388
利建侯	-10.0399
建侯	-10.0399
益下	-10.0403
所用	-10.0411
沒	-10.0416
能以	-10.0416
必先	-10.0417
四海	-10.0419
家之	-10.042
十月	-10.0421
互震	-10.0425
乃得	-10.0431
五上	-10.0433
浮	-10.0434
理也	-10.0435
无咎象曰	-10.0441
旅之	-10.0448
升降	-10.0452
輻	-10.0462
丙	-10.0467
激	-10.0468
莫能	-10.0471
而安	-10.0472
於君	-10.0472
剥之	-10.0474
測	-10.0487
无可	-10.0495
完	-10.0497
童蒙	-10.05
時行	-10.0501
㫁	-10.0511
朱子語	-10.0513
行事	-10.0521
失其所	-10.0522
以剛居柔	-10.0524
中道	-10.053
為乾	-10.0531
之極也	-10.0532
續	-10.0535
在五	-10.0537
為天	-10.0539
嗑	-10.0557
君也	-10.0558
于地	-10.0559
在地	-10.0559
健而	-10.0561
小事	-10.0569
濡其尾	-10.0571
束	-10.0572
卦之中	-10.0574
全卦	-10.0576
盥	-10.0576
其一	-10.0577
罰	-10.0579
戸	-10.0585
之質	-10.0594
值	-10.0598
管	-10.0598
與天	-10.06
諂	-10.06
孔子釋	-10.0603
尋	-10.0604
合乎	-10.0612
离	-10.0614
同心	-10.0618
烈	-10.062
三上	-10.0626
淫	-10.0633
者矣	-10.0638
傅	-10.0641
吉象曰	-10.0641
命之	-10.0645
之動	-10.0646
夕	-10.0659
創	-10.0666
訟之	-10.0668
凶矣	-10.0672
洛	-10.0674
剛則	-10.0675
隂氣	-10.0676
悅	-10.0677
无咎矣	-10.0678
應上	-10.0683
鄉	-10.0684
東方	-10.0685
一義	-10.069
同類	-10.0694
履虎尾	-10.0695
若夫	-10.0695
為人	-10.0696
之先	-10.0702
九四之	-10.0702
和順	-10.0703
爻變	-10.0708
互離	-10.0713
也且	-10.0713
處困	-10.0714
而從	-10.0722
故君子	-10.0722
太陽	-10.0723
物而	-10.0723
之意也	-10.0724
之可	-10.0725
與人	-10.0727
毁折	-10.0728
一氣	-10.0732
藩	-10.074
不可見	-10.0741
不從	-10.0741
无私	-10.0742
宅	-10.0744
其進	-10.0746
蟲	-10.0757
泛	-10.0759
未光	-10.0766
萬事	-10.0767
子夏	-10.0767
燥	-10.0773
邊	-10.0774
明其	-10.0775
覩	-10.0776
正曰	-10.0776
編	-10.078
意思	-10.0787
六居	-10.0789
成數	-10.0801
圓圖	-10.0803
揲蓍	-10.0805
矜	-10.0808
其言	-10.0811
辭也	-10.0814
生于	-10.0821
青	-10.0824
莫如	-10.0825
此亦	-10.0835
天運	-10.0836
渾	-10.086
以時	-10.0861
謂二	-10.0864
常也	-10.0871
界	-10.0874
天下之動	-10.0876
貞則	-10.0876
堂	-10.0876
之精	-10.0881
用壯	-10.0883
普	-10.0884
臭	-10.0891
二變	-10.09
可貞	-10.09
錯綜	-10.0904
為臣	-10.0905
象辭	-10.0905
歸藏	-10.0905
鑿	-10.092
天德	-10.0922
葉	-10.0924
吕音訓	-10.0924
所從	-10.0929
可不	-10.0939
剛中而應	-10.0943
大有之	-10.0945
則謂之	-10.0946
踰	-10.096
。《	-10.0964
乃可	-10.0965
優	-10.0968
弓	-10.0968
于四	-10.097
答	-10.097
卦言	-10.0973
利在	-10.0979
不忘	-10.0983
竹	-10.0987
抱	-10.1001
綱	-10.1002
剛長	-10.1003
之常	-10.1014
之書	-10.1021
事物	-10.1028
明而	-10.1028
獲吉	-10.1029
見易曰	-10.1029
裁	-10.1035
吉无咎	-10.1041
亦必	-10.1042
無所不	-10.1054
炎	-10.1055
所見	-10.1055
若以	-10.1061
至上	-10.1062
宜其	-10.1063
承上	-10.1063
而至於	-10.1063
工夫	-10.1065
穆	-10.108
為艮	-10.1091
能自	-10.1095
未及	-10.11
相求	-10.1103
然後可以	-10.111
之形	-10.111
交而	-10.1111
然亦	-10.1111
解之	-10.1113
帝乙	-10.1115
運行	-10.1116
不求	-10.1125
樹	-10.1128
不疑	-10.1131
戚	-10.1131
成物	-10.1137
而明	-10.1138
亦如	-10.114
捨	-10.1144
矣若	-10.1146
追	-10.1147
之卦也	-10.115
本无	-10.1156
其文	-10.1159
一一	-10.116
之徒	-10.1161
叛	-10.1164
自家	-10.1165
沙	-10.1171
孟子曰	-10.1172
人身	-10.1173
希	-10.1176
卯	-10.1177
之資	-10.1179
耳目	-10.1179
康節	-10.118
其家	-10.1182
為震	-10.1185
无事	-10.1185
必得	-10.1187
去聲	-10.1188
困窮	-10.1196
以隂居陽	-10.1201
之端	-10.1207
項	-10.1213
至善	-10.1213
童僕	-10.1213
旁通	-10.1213
範	-10.1215
豫之	-10.1219
以爲	-10.1223
純隂	-10.1227
歎	-10.123
逺而	-10.1233
啟	-10.1233
天下之理	-10.1233
坎體	-10.1236
而至	-10.1236
司馬	-10.1237
萬世	-10.124
交於	-10.1243
錢	-10.1248
至大	-10.125
平易	-10.1251
用剛	-10.1252
于天下	-10.1257
蔵	-10.1259
合之	-10.126
茹	-10.1261
生萬物	-10.1269
隂陽相	-10.1273
之象焉	-10.128
而无咎	-10.1285
事君	-10.1286
坤土	-10.1289
未成	-10.1293
歳	-10.1294
紛	-10.1295
毋	-10.1295
之中而	-10.1298
非其位	-10.1299
過則	-10.1301
古今	-10.1302
未變	-10.1302
定位	-10.1303
亦無	-10.1306
卷十	-10.1311
曾	-10.1312
地中	-10.1314
迎	-10.1314
而隂	-10.1315
此是	-10.1317
所以成	-10.1318
有厲	-10.1319
應而	-10.1322
反覆	-10.1327
謂初	-10.1333
大哉	-10.134
所宜	-10.1344
蹈	-10.1344
顔	-10.1345
窺	-10.1347
恥	-10.1347
災也	-10.1357
終日	-10.1358
人以	-10.136
次第	-10.1361
雄	-10.1362
攸	-10.1362
損下益上	-10.1366
盛大	-10.1367
天地之心	-10.137
之明	-10.1371
神也	-10.1371
无心	-10.1374
順乎	-10.1375
單	-10.1382
之時而	-10.1387
西方	-10.139
之不可	-10.1392
仲尼	-10.1397
以隂居	-10.14
乾剛	-10.1402
生數	-10.1407
所應	-10.1407
自然之	-10.1411
王氏	-10.1415
使民	-10.1418
漸進	-10.142
如字	-10.1424
地上	-10.1429
以應	-10.1432
言易	-10.1436
釋之	-10.144
摧	-10.1445
致用	-10.1447
異矣	-10.1448
驅	-10.1451
經綸	-10.1451
第十	-10.1453
一定	-10.1454
可為	-10.1456
者多	-10.1463
禮樂	-10.1466
順理	-10.1473
這箇	-10.1476
知所	-10.148
王公	-10.148
家道	-10.1486
眇	-10.1493
不終	-10.1494
此時	-10.1495
蒼	-10.1495
有一	-10.1504
合也	-10.1506
項氏曰	-10.1512
亦未	-10.1514
也為卦	-10.152
示人	-10.152
不欲	-10.1521
山之	-10.1522
為貴	-10.1522
譬	-10.1526
利西南	-10.1527
不濟	-10.1533
之隂	-10.1534
卦氣	-10.1536
自我	-10.1539
无以	-10.154
既成	-10.1557
或謂	-10.156
由此	-10.1561
巧	-10.1567
承之	-10.1568
焉故	-10.1576
禍福	-10.1577
居之	-10.1579
三居	-10.1583
利害	-10.1583
魂	-10.1585
之元	-10.1586
為正應	-10.1587
物物	-10.1589
嚮	-10.16
而後可	-10.1602
重險	-10.1613
也按	-10.1615
之為道	-10.1618
凡言	-10.1628
研	-10.163
倡	-10.1634
前後	-10.1634
莽	-10.1636
而遇	-10.164
非正	-10.1643
皆為	-10.1645
而歸	-10.1645
伍	-10.1655
在乎	-10.1663
位也	-10.1664
歸于	-10.1667
人君之	-10.1668
貞凶	-10.1671
鹿	-10.1672
之本也	-10.1673
也初六	-10.1674
何為	-10.1676
動者	-10.1679
己之	-10.1679
故知	-10.168
文字	-10.1684
巫	-10.1685
所安	-10.1691
剛健中正	-10.1693
而後能	-10.1695
呼	-10.1695
止則	-10.1699
戒懼	-10.1701
九二之	-10.171
元永貞	-10.1714
剛得中	-10.1714
競	-10.1715
下三爻	-10.1717
患難	-10.1719
揆	-10.1721
艮體	-10.1722
諸爻皆	-10.1727
十三	-10.1733
横渠	-10.1739
洪範	-10.174
彖象	-10.174
不可得而	-10.1743
化之	-10.1746
復之	-10.1747
之稱	-10.1751
是其	-10.1756
亦不能	-10.1757
圍	-10.1758
養之	-10.1762
戴	-10.1762
為巽	-10.1762
卦之上	-10.1767
時當	-10.1768
見大人	-10.1768
未定	-10.1768
以柔順	-10.1769
言行	-10.177
故得	-10.1772
之任	-10.1777
曰此	-10.1778
不亦	-10.1784
媚	-10.1787
圜	-10.1788
得中道	-10.1788
科	-10.1788
恐其	-10.179
途	-10.1793
篤實	-10.1796
尊而	-10.1801
斂	-10.1803
而况	-10.1806
六爻之	-10.1815
自得	-10.182
切近	-10.1824
不獨	-10.1831
類也	-10.1832
階	-10.1835
已日	-10.1848
各得其	-10.1848
貝	-10.1859
法也	-10.1862
濡尾	-10.1864
為雨	-10.1869
小而	-10.1871
枝	-10.1876
昌	-10.188
有可	-10.1886
其在	-10.1887
日用	-10.1889
大而	-10.1893
變革	-10.1895
彊	-10.1909
知來	-10.1916
始于	-10.1918
四四	-10.192
然其	-10.1924
一柔	-10.1927
而言則	-10.1929
鄭康成	-10.193
屈伸	-10.1932
復生	-10.1942
其人	-10.1958
當其	-10.1958
帥	-10.1959
通曰	-10.196
九三之	-10.1966
蓄	-10.1966
承天	-10.1969
三百八十四爻	-10.197
誡	-10.1981
不富	-10.1983
圭	-10.1984
𢎞	-10.1986
何謂	-10.1997
成形	-10.1997
瞻	-10.2
姓	-10.2001
養賢	-10.2003
有時而	-10.2006
有過	-10.2014
艱貞	-10.2019
者也故曰	-10.202
之治	-10.2025
行者	-10.2036
步	-10.204
桎梏	-10.2041
帛	-10.2043
不知其	-10.2044
此説	-10.2046
分為	-10.2046
凡事	-10.2048
有疾	-10.205
㸔	-10.2058
之方	-10.2059
德行	-10.2062
乎天	-10.2067
象占	-10.2069
頻	-10.2071
而言也	-10.2076
三與上	-10.2078
自復	-10.2085
易有	-10.2087
北方	-10.2087
臀	-10.2091
盛徳	-10.2093
不肯	-10.2095
走	-10.2105
卽	-10.2106
以立	-10.2108
瓶	-10.2109
死生	-10.2115
於義	-10.2115
有序	-10.2117
卦德	-10.212
所以致	-10.2122
未知	-10.2126
茀	-10.2133
通也	-10.2135
静而	-10.2137
終日乾乾	-10.2144
巢	-10.2144
蟄	-10.2145
以一陽	-10.2147
卦之下	-10.215
於乾	-10.2152
所履	-10.2155
者惟	-10.2155
此皆	-10.2156
之屬	-10.2157
渫	-10.2163
之月	-10.2163
口舌	-10.2163
膏	-10.217
夬之	-10.2175
相通	-10.2176
二柔	-10.218
大同	-10.2183
或有	-10.2184
今日	-10.2185
體之	-10.2192
止而不	-10.2196
一心	-10.2196
之所由	-10.2197
成王	-10.2197
未發	-10.2199
𥘉	-10.2201
人者	-10.2203
胥	-10.2204
剛而不中	-10.2207
在二	-10.2209
无方	-10.2213
未濟之	-10.2213
有時	-10.2213
鍾	-10.2214
四十	-10.2216
巽而	-10.2219
幼	-10.222
陋	-10.2221
而已故	-10.2223
從陽	-10.2224
陽剛中正	-10.2225
離體	-10.2231
柔進而上行	-10.2234
之助	-10.2235
縁	-10.2238
仁者	-10.2243
處險	-10.225
:	-10.2253
拒	-10.2256
虗	-10.2256
徴	-10.2257
咸臨	-10.2263
自外來	-10.2264
則陽	-10.2265
靜而	-10.2271
鳴謙	-10.2274
委曲	-10.2277
所居	-10.2289
與時偕行	-10.229
飭	-10.2292
隂而	-10.2296
肥	-10.2303
憧憧	-10.2306
艮止也	-10.2307
一節	-10.2311
汚	-10.2312
之例	-10.2316
之末	-10.2319
戒也	-10.232
飲	-10.2323
能盡	-10.2331
風雷	-10.2332
而巳	-10.2334
朋友	-10.2337
未見	-10.2337
隂卦	-10.2338
修身	-10.234
卦爻之	-10.2344
貢	-10.2344
未光也	-10.2347
人心之	-10.2351
冒	-10.2351
者正	-10.2354
必待	-10.2354
之餘	-10.2356
反為	-10.2361
亟	-10.2367
洞	-10.237
庶幾	-10.2373
二五皆	-10.2374
澤上	-10.2382
而獨	-10.2384
道者	-10.2388
此心	-10.239
啓	-10.2391
以生	-10.2391
而變	-10.2392
窮也	-10.2404
㤗	-10.2404
天下之大	-10.2409
氣化	-10.2415
聚而	-10.2416
淳	-10.2421
冠	-10.2423
皆然	-10.2424
併	-10.2425
奸	-10.2426
以中	-10.2432
相從	-10.2433
泣	-10.2438
炳	-10.244
過于	-10.2441
虞氏	-10.2446
為泰	-10.2448
冇	-10.2452
痛	-10.2458
得乎	-10.246
調	-10.246
欺	-10.2462
位乎	-10.2464
有定	-10.2465
終則	-10.2467
明徳	-10.2473
河圗	-10.2473
為衆	-10.2477
狹	-10.2477
道則	-10.2477
易書	-10.2481
獨行	-10.2481
以至於	-10.2484
不可過	-10.2487
九卦	-10.2487
宮	-10.2487
自治	-10.2487
復有	-10.2487
何咎	-10.2491
隣	-10.2494
行乎	-10.2494
戾	-10.2496
中正之徳	-10.25
申命	-10.2503
疑也	-10.2504
正理	-10.2506
正則吉	-10.251
臣之	-10.2515
疎	-10.2517
延	-10.2519
幽人	-10.2522
自下而上	-10.2525
濁	-10.2528
一章	-10.2531
不好	-10.2531
居下之上	-10.2532
在上者	-10.2542
皆由	-10.2544
也坎	-10.2552
次序	-10.2553
號咷	-10.2555
已有	-10.2558
而失	-10.2573
其初	-10.2574
而退	-10.2575
動之	-10.2576
皆在	-10.2587
凡物	-10.2587
屢	-10.2588
利于	-10.2589
境	-10.259
毎	-10.259
聘	-10.2593
之士	-10.2594
極言	-10.2595
快	-10.2596
貞而	-10.2597
用柔	-10.26
者何也	-10.2601
大傳	-10.2604
徐氏曰	-10.2606
風雨	-10.2613
四者	-10.2613
南方	-10.2617
亦可以	-10.2621
此之謂	-10.2627
艮山	-10.2629
大川	-10.2631
準	-10.2633
神物	-10.2635
十一月	-10.264
又如	-10.2644
夾	-10.2647
荀爽曰	-10.2655
竒耦	-10.2656
都是	-10.2658
宼	-10.2659
有道	-10.2661
而得中	-10.2662
凶咎	-10.2662
憊	-10.2669
佞	-10.267
有命	-10.2674
中女	-10.2674
二篇	-10.2676
革而	-10.2677
見天地之心	-10.268
趣	-10.2683
亨利貞	-10.269
紫陽朱子曰	-10.2691
生意	-10.2697
者即	-10.2697
設卦	-10.2705
得其中	-10.2705
日月之	-10.2706
胡氏	-10.2707
所養	-10.2708
上升	-10.2712
害也	-10.2712
而入	-10.2714
隂盛	-10.2721
渙散	-10.2722
曳	-10.2724
房	-10.2727
之為言	-10.273
同而	-10.2735
而升	-10.2736
之類是也	-10.2736
至四	-10.2739
往往	-10.2742
下交	-10.2745
坤隂	-10.2748
人位	-10.2751
之福	-10.2751
上帝	-10.2752
戒其	-10.2753
終身	-10.2754
戒以	-10.2755
是已	-10.2755
益上	-10.2756
在下者	-10.2756
與陽	-10.2756
中故	-10.2758
情偽	-10.2764
天地之數	-10.2764
徃而	-10.2764
危懼	-10.2769
履之	-10.2772
之𩔖	-10.2774
中順	-10.2775
教之	-10.2776
吉而无咎	-10.2776
道徳	-10.2784
秉	-10.2786
凶事	-10.2788
不期	-10.2791
為首	-10.2793
其說	-10.2794
於心	-10.2801
健順	-10.2803
惜	-10.2805
以四	-10.2805
征吉	-10.2805
雖未	-10.2806
困於	-10.2806
終于	-10.2806
无功	-10.2809
不特	-10.2811
分而	-10.2812
個	-10.2813
乎外	-10.2822
在四	-10.2822
出來	-10.2833
舞	-10.2838
濕	-10.2838
喪其	-10.2838
祇	-10.2844
四以	-10.2844
説得	-10.2845
相因	-10.2852
人能	-10.2854
同義	-10.2856
窮理	-10.2859
唱	-10.2861
懸	-10.2862
夫人	-10.2867
之命	-10.2867
簋	-10.2871
為坎	-10.2871
相濟	-10.2873
剛陽	-10.2877
坎象	-10.2878
夫易	-10.2884
異也	-10.2888
求養	-10.2889
无形	-10.2891
尸	-10.2894
李鼎祚	-10.2895
臣妾	-10.29
時義	-10.2901
髪	-10.2903
聖人所以	-10.2905
之地也	-10.2905
不貞	-10.2907
然非	-10.2909
融	-10.2916
可行	-10.2924
以柔居	-10.2925
時位	-10.2927
為本	-10.2929
皆取	-10.2933
於理	-10.2933
則得	-10.2933
本末	-10.2936
治亂	-10.2937
一説	-10.2937
形容	-10.2938
熊	-10.2939
奚	-10.294
牝	-10.294
劓	-10.2941
主爻	-10.2942
皆隂	-10.2947
必須	-10.2948
當時	-10.295
恵	-10.2958
未為	-10.2959
有言	-10.2962
身之	-10.2964
中和	-10.2966
乃所以	-10.2967
俯	-10.2971
囚	-10.2978
分别	-10.2979
軌	-10.298
非能	-10.2982
而利	-10.2982
十四	-10.2982
麗於	-10.2983
三百	-10.2985
合志	-10.2988
雅	-10.2991
不妄	-10.2991
提	-10.2995
巽入	-10.2996
彖傳曰	-10.3001
陽動	-10.3006
凶者	-10.3008
故其占	-10.301
幹蠱	-10.3015
事理	-10.3018
頗	-10.3021
于二	-10.3027
之自然	-10.3028
孕	-10.304
之微	-10.3041
精神	-10.3046
有攸往	-10.3046
坤卦	-10.3046
居三	-10.3048
潛龍勿用	-10.305
小人之道	-10.3054
此釋	-10.3075
不改	-10.3079
之正也	-10.308
牲	-10.3081
用易	-10.3084
柔順中正	-10.3088
可以无咎	-10.3089
命令	-10.3089
以人事	-10.3089
浚	-10.3091
者自	-10.3092
方其	-10.3093
我之	-10.3096
能使	-10.3097
震體	-10.31
釋卦名義	-10.3101
舉其	-10.3101
經文	-10.3105
斧	-10.3113
皮	-10.3115
明夷之	-10.3117
相錯	-10.3119
常理	-10.3123
如何曰	-10.3125
皆自	-10.3129
免於	-10.3131
吉矣	-10.3131
不相得	-10.3137
今人	-10.3139
此一節	-10.3144
而凶	-10.3146
之咎	-10.3146
若此	-10.3149
故凶	-10.3156
洪	-10.3156
旨	-10.3156
中正而	-10.3158
拆	-10.3159
成象	-10.3163
匪人	-10.3183
為小	-10.3185
之來	-10.3185
謙之	-10.3186
氷	-10.3194
汗	-10.3194
緼	-10.3195
木為	-10.3197
愧	-10.32
荀爽	-10.3202
近而	-10.3202
受福	-10.3207
十二月	-10.3207
恆	-10.3211
稊	-10.3213
夬夬	-10.3214
闔	-10.3216
侈	-10.3219
十一	-10.322
以通	-10.3222
辨之	-10.3223
七十	-10.3223
卦位	-10.3226
體而	-10.3227
安得不	-10.3233
之力	-10.3233
本體	-10.324
在卦	-10.3251
人物	-10.3251
存焉	-10.3252
肯	-10.3253
然必	-10.3257
姤之	-10.326
䷊	-10.326
之所在	-10.3262
剛也	-10.3262
能知	-10.3263
過之	-10.3264
又言	-10.3266
甃	-10.3268
不可以不	-10.3269
雖欲	-10.3269
蒙之	-10.3276
之象以	-10.3277
不亂	-10.3279
」、	-10.3279
謬	-10.328
成性	-10.3283
存亡	-10.3292
潰	-10.3296
比於	-10.33
貞吝	-10.331
四居	-10.331
雲峰胡氏曰	-10.3313
而言之	-10.3318
折獄	-10.3324
利艱貞	-10.3324
器也	-10.3331
以隂居隂	-10.3333
以五	-10.3335
雷電	-10.3336
而用之	-10.3339
命也	-10.3339
但言	-10.3342
䷋	-10.3343
逺矣	-10.335
此象	-10.3351
法度	-10.3356
盪	-10.3357
所言	-10.3359
謂四	-10.3359
謝	-10.3359
弧	-10.336
怪	-10.3361
而去之	-10.3369
太過	-10.3373
又當	-10.3374
造化之	-10.3375
括囊	-10.3376
有大	-10.3376
之權	-10.3379
相承	-10.338
饋	-10.3382
哉故	-10.3383
附麗	-10.3386
左傳	-10.3386
之誠	-10.3388
為離	-10.339
坎坎	-10.3391
聰	-10.3397
驟	-10.3402
所止	-10.3404
短	-10.3404
所利	-10.3406
臧	-10.3413
四字	-10.3419
交錯	-10.3421
損上益下	-10.3422
探	-10.3422
周子	-10.3425
剛柔之	-10.3429
大行	-10.343
防之	-10.3435
其序	-10.344
主之	-10.3443
行險	-10.3445
濟險	-10.3445
䷠	-10.3447
以剛居剛	-10.3453
此虞義也	-10.3453
故名	-10.3456
戒占者	-10.3459
牖	-10.3465
濡首	-10.3468
聚也	-10.3469
不獲其身	-10.3473
植	-10.3474
之道而	-10.3477
之功也	-10.3482
不正則	-10.3485
至健	-10.3491
焉此	-10.3498
兊上	-10.3498
改過	-10.3499
待時	-10.3501
為坤	-10.3507
交易	-10.3509
萬物皆	-10.3509
一念	-10.3513
相推	-10.3518
觀之則	-10.3518
不盈	-10.3518
暫	-10.3522
翰	-10.3542
謂三	-10.3545
陽生	-10.3559
左手	-10.356
在後	-10.3564
且如	-10.3568
王者之	-10.3571
資始	-10.3575
是知	-10.3577
里	-10.3579
正者	-10.358
冰	-10.3582
𫝑	-10.3585
萬國	-10.3585
一家	-10.359
殘	-10.359
亦通	-10.3591
也但	-10.3592
故戒以	-10.3592
所欲	-10.3592
䷒	-10.3592
之所為	-10.3596
人主	-10.3596
治蠱	-10.36
其分	-10.3605
髙位	-10.3612
應在	-10.3614
文公	-10.3614
之理也	-10.3614
五月	-10.3621
過也	-10.3622
卑下	-10.3624
髙宗	-10.3624
第四	-10.3625
發之	-10.3625
宇	-10.3626
發揮	-10.3627
帶	-10.3628
夙	-10.3631
姦	-10.3631
下卦之	-10.3638
卦皆	-10.3642
胡氏曰	-10.3644
郭京	-10.3644
說得	-10.3645
漢書	-10.3647
之神	-10.3648
於易	-10.3654
隙	-10.3655
受之	-10.3655
任重	-10.3658
蔑	-10.3658
有他	-10.3666
貞吉悔亡	-10.3669
諫	-10.367
朝廷	-10.3675
小事吉	-10.3676
以一隂	-10.3683
易位	-10.3684
盤	-10.3687
狗	-10.3689
不假	-10.369
凡卦	-10.3691
巷	-10.3695
範圍	-10.3709
隂長	-10.3711
大中	-10.3711
騰	-10.3713
豐大	-10.3721
通論	-10.3723
无與	-10.373
互巽	-10.3732
八卦之	-10.3733
矣何	-10.3738
以禮	-10.374
之畫	-10.374
時中	-10.3747
者三	-10.3749
故其象如此	-10.3751
誠敬	-10.3751
寂然不動	-10.3752
於是乎	-10.3752
䷀	-10.3755
應四	-10.3756
之徳也	-10.3759
始交	-10.3764
六三之	-10.3765
大難	-10.3765
於事	-10.3767
爻有	-10.3768
為體	-10.377
相生	-10.3774
而民	-10.3776
闡	-10.3776
文王周公	-10.3782
雷動	-10.3789
一毫	-10.3796
決之	-10.3796
賜	-10.3797
八十	-10.3797
震坎艮	-10.3798
性之	-10.3805
之器	-10.3807
天數	-10.381
之所謂	-10.3811
之業	-10.3812
岐	-10.3815
洽	-10.3819
亦當	-10.3823
學易者	-10.3828
疇	-10.3829
有箇	-10.3831
寂	-10.3835
但以	-10.3835
以來	-10.384
凡人	-10.384
故又	-10.3841
可濟	-10.3844
卦下	-10.3845
蠱之	-10.3847
謂乾	-10.3859
故亨	-10.3861
悲	-10.3863
停	-10.3863
活	-10.3867
焦	-10.3868
得中而	-10.387
故戒	-10.3872
兌上	-10.3872
皆得	-10.3873
亦何	-10.3877
黒	-10.3885
十翼	-10.3886
以乾	-10.3886
不憂	-10.3891
圎	-10.3893
乎五	-10.3895
無非	-10.3896
及於	-10.3896
爻以	-10.3897
不害	-10.3897
其剛	-10.3899
槩	-10.39
遂其	-10.39
層	-10.3907
「	-10.3907
過剛不中	-10.3908
感之	-10.3916
相孚	-10.3926
者不能	-10.3933
以及	-10.3933
宜矣	-10.3935
以俟	-10.3937
隨人	-10.3939
之大人	-10.3939
屯蒙	-10.3939
亦不可	-10.394
以剛居	-10.3946
極矣	-10.3947
成其	-10.3949
集説	-10.3952
同志	-10.3953
為害	-10.3965
乎内	-10.3967
動於	-10.3967
坎為水	-10.3968
慈	-10.3968
亦自	-10.3975
雖非	-10.3984
蹇難	-10.3986
𤯝	-10.3989
聼	-10.3992
天下之人	-10.4001
自初	-10.4003
弼	-10.401
志在外	-10.4012
脢	-10.4015
上承	-10.4016
其利	-10.4018
所取	-10.4018
雷雨	-10.4022
拂經	-10.4024
彼此	-10.4024
言之也	-10.4026
需之	-10.403
於坤	-10.4031
祿	-10.4035
故爲	-10.4036
范	-10.4039
生之	-10.4041
府	-10.4041
始也	-10.4042
易傳曰	-10.4042
而且	-10.4051
故不言	-10.4052
交孚	-10.4052
及物	-10.4054
二簋	-10.4055
寶	-10.4056
鼠	-10.4056
桑	-10.4057
是就	-10.4057
居隂	-10.4058
昃	-10.4063
六四之	-10.4064
乎下	-10.4067
剛柔相	-10.4068
其凶	-10.4073
之吉也	-10.4074
又自	-10.4075
一元	-10.4075
也彖曰	-10.4077
感通	-10.408
有得	-10.4082
其過	-10.4088
矣是	-10.4092
凶之道也	-10.4099
昬	-10.4106
言乎	-10.4108
其民	-10.4108
亨矣	-10.4108
君臣之	-10.4124
以後	-10.4124
娶	-10.4125
墜	-10.4125
是如此	-10.4129
天之道	-10.413
孔氏	-10.4138
无一	-10.4138
五位	-10.414
成之	-10.4141
正故	-10.4142
為戒	-10.4143
上六之	-10.4145
相親	-10.4153
卦自	-10.4155
六卦	-10.4156
之君子	-10.4158
地而	-10.4162
誥	-10.4167
小有言	-10.4167
不去	-10.4169
亡也	-10.4169
於民	-10.4174
也巽	-10.4179
雷之	-10.4183
私意	-10.4185
一百	-10.4188
六龍	-10.419
增	-10.4193
天氣	-10.4195
為恒	-10.4195
故无	-10.4198
却是	-10.4201
宰	-10.4202
涵	-10.4205
之為物	-10.4208
之節	-10.4211
賈	-10.4218
一嵗	-10.4219
久而	-10.4219
坎艮	-10.422
馮	-10.4223
不顧	-10.4227
者又	-10.4233
上三爻	-10.4233
涉川	-10.4233
乾為天	-10.4234
不克訟	-10.4238
之甚也	-10.424
居内	-10.4245
不然則	-10.4245
不正而	-10.4248
也所謂	-10.4252
狀	-10.4253
以義	-10.4259
汔	-10.4259
也朱子曰	-10.4259
九二剛中	-10.4259
嗃嗃	-10.426
詩云	-10.4262
理㑹	-10.4267
既已	-10.4268
所主	-10.4271
亢龍有悔	-10.4274
附於	-10.4274
欽定四庫全書周易	-10.4274
祉	-10.4276
澄	-10.4277
二二	-10.4277
環	-10.4279
隕	-10.4281
則止	-10.4281
未形	-10.4282
徵	-10.4284
重剛	-10.4285
未詳	-10.4285
因之	-10.4286
乾鑿度	-10.4299
杞	-10.4299
其名	-10.43
兊下	-10.4302
鬱	-10.4305
互相	-10.4305
蕩	-10.4305
兄弟	-10.4306
穢	-10.4307
下篇	-10.4308
品	-10.4308
䷥	-10.431
可得而	-10.431
危而	-10.4313
為心	-10.4314
碩	-10.432
巽為木	-10.4323
粗	-10.4327
長也	-10.4329
莫若	-10.433
十七	-10.4331
䷓	-10.4332
上古	-10.4332
弟子	-10.4336
連山	-10.4337
正當	-10.4338
炎上	-10.4339
玄	-10.4345
不偏	-10.4346
想	-10.4346
則自	-10.4347
䷫	-10.4349
䷗	-10.435
枉	-10.4357
皆從	-10.4357
其誠	-10.4358
得衆	-10.436
何也葉子曰	-10.436
以前	-10.4361
將以	-10.4362
小利貞	-10.4362
尚有	-10.4364
西山	-10.4365
失得	-10.4365
見矣	-10.4371
馬融	-10.4375
遷善	-10.4376
三爻皆	-10.4377
視之	-10.4378
感而	-10.4378
即此	-10.4378
變乾	-10.438
看來	-10.438
潛龍	-10.4384
遯而	-10.4385
旣濟	-10.439
縮	-10.439
小大	-10.4394
上下經	-10.4394
沉	-10.4395
詔	-10.4395
剛徳	-10.4397
恒久	-10.4399
行其志	-10.44
一字	-10.4401
相連	-10.4402
相接	-10.4404
肖	-10.4409
抗	-10.4416
康侯	-10.4418
䷪	-10.442
從而	-10.4422
盡矣	-10.4425
主宰	-10.4425
孔子之傳	-10.4425
艮為山	-10.4427
孚于	-10.4428
中節	-10.4434
牿	-10.4434
大徳	-10.4435
不能濟	-10.444
之生	-10.4443
文章	-10.4453
來而	-10.4461
十九	-10.4462
局	-10.4462
寛裕	-10.4463
整	-10.4464
卓	-10.4464
天一	-10.4466
可知也	-10.4468
無應	-10.447
三歲	-10.4473
不失其正	-10.4485
馳	-10.4485
遄	-10.4486
陂	-10.4487
䷁	-10.4488
之道故	-10.4488
繼之	-10.4489
方是	-10.449
䷖	-10.4492
陷於	-10.4502
交感	-10.4505
陽實	-10.4506
噐	-10.4506
學問	-10.4507
㓂	-10.4508
皆曰	-10.4515
不能无	-10.4515
發生	-10.4519
可通	-10.4519
以徳	-10.4521
先言	-10.4521
過揲	-10.4525
陸績	-10.4526
中正之道	-10.4526
无疑	-10.4537
相為	-10.4538
以陽居陽	-10.4539
䷝	-10.454
而不窮	-10.4541
變體	-10.4543
四變	-10.4548
陽長	-10.455
得所	-10.4552
不惟	-10.4552
班	-10.4553
曹	-10.4555
同人之	-10.4555
勞而	-10.4558
以貞	-10.456
十二卦	-10.4562
一理	-10.457
踐	-10.457
而猶	-10.457
功業	-10.4576
隼	-10.4579
能致	-10.458
相雜	-10.458
多凶	-10.458
比五	-10.4581
門庭	-10.4583
之位也	-10.4585
正應而	-10.4586
去小人	-10.459
者衆	-10.4591
認	-10.46
晁	-10.4605
一二	-10.461
在于	-10.461
而不言	-10.4612
物事	-10.4615
君子體而用之	-10.4616
損下	-10.4616
兩體	-10.4617
制器	-10.4618
方位	-10.4621
告公	-10.4625
添	-10.4627
䷚	-10.4628
應二	-10.463
功成	-10.4633
爻為	-10.4639
甲子	-10.4639
於隂	-10.4642
凶而	-10.4652
三者	-10.4653
位之	-10.4654
履霜	-10.4655
之義故	-10.4658
民心	-10.4659
之數也	-10.4662
觀我生	-10.4669
岐山	-10.4672
享帝	-10.4673
不和	-10.4674
天地交	-10.4679
知者	-10.468
皆可	-10.4686
或作	-10.4689
養正	-10.4691
屯難	-10.4692
法象	-10.4692
之變化	-10.4693
廹	-10.4695
敷	-10.4695
不可大事	-10.4697
不可易	-10.47
弦	-10.4702
體之上	-10.4705
則天下	-10.4707
說文	-10.471
語録	-10.4713
雍	-10.4715
䷩	-10.4719
正固	-10.472
河圖洛書	-10.4722
有二	-10.4723
何由	-10.4723
䷨	-10.4725
无所往	-10.4725
須知	-10.473
始有	-10.4733
脊	-10.4734
釋卦名	-10.4736
夏至	-10.4738
相違	-10.4738
極於	-10.474
輿尸	-10.474
而不失其	-10.4742
兑上	-10.4748
夤	-10.4749
得民	-10.475
言聖人	-10.4751
剛來	-10.4751
而不為	-10.4756
當以	-10.4756
當損	-10.4756
勞謙	-10.4758
以隂柔居	-10.4759
一竒	-10.4759
能順	-10.4761
濳	-10.4762
乎陽	-10.4763
大成	-10.4764
磐	-10.4765
赦	-10.4766
中間	-10.4766
之異	-10.4767
為天下	-10.4769
非正應	-10.4771
自然之理	-10.4774
有慶也	-10.4776
煦	-10.478
陽明	-10.4784
俾	-10.4785
所係	-10.4788
楊氏曰	-10.4789
二物	-10.4791
䷐	-10.4793
仁也	-10.4793
䷂	-10.4793
不可得	-10.4793
而弗	-10.4794
世道	-10.4795
者莫如	-10.4796
者在	-10.48
位則	-10.4802
貴於	-10.4803
乎人	-10.4807
枯楊	-10.4809
之成	-10.4811
離日	-10.4813
䷴	-10.4814
削	-10.4815
此節	-10.4821
盛衰	-10.4821
居中得正	-10.4826
君徳	-10.483
菑	-10.4831
卦之終	-10.4834
有待	-10.4835
戮	-10.4836
資斧	-10.4836
䷰	-10.4838
成坎	-10.4838
䷜	-10.4841
能濟	-10.4841
通變	-10.4844
苦節	-10.4845
太𤣥	-10.4845
有所往	-10.4845
方來	-10.4845
明白	-10.4845
李氏	-10.4851
利貞者	-10.4851
人有	-10.4855
張子曰	-10.4858
包荒	-10.4862
五君位	-10.4863
陽居	-10.4864
為順	-10.4864
皆指	-10.4867
有濟	-10.4868
為徳	-10.4868
犯難	-10.487
圖之	-10.4877
夲	-10.4877
繫以	-10.4877
雖不當位	-10.4881
險中	-10.4881
拔	-10.4882
一月	-10.4883
于陽	-10.4883
叢	-10.4884
䷶	-10.4884
故有此象	-10.4885
䷎	-10.4887
所生	-10.4888
洊	-10.4889
居正	-10.4893
不見其	-10.4897
吉凶之	-10.4897
則民	-10.4897
順動	-10.4897
有功也	-10.4897
與下	-10.4898
无所容	-10.4899
皆陽	-10.4904
鶴	-10.4904
溝	-10.4904
文言曰	-10.4908
遵	-10.4908
以巽	-10.4913
也故為	-10.4914
已過	-10.4914
同德	-10.4918
周公之	-10.4919
不得已而	-10.4922
銖	-10.4924
三以	-10.4926
承五	-10.4928
王假有廟	-10.4929
恃其	-10.4931
又問	-10.4933
而去	-10.4933
之别	-10.4934
上説	-10.4934
艮為手	-10.4939
觀我	-10.4943
所遇	-10.4943
不齊	-10.4945
不生	-10.4951
墨	-10.4954
雪	-10.4955
監	-10.4957
䷟	-10.4957
罷	-10.4957
澤之	-10.4958
䷇	-10.4959
帝乙歸妹	-10.4959
深矣	-10.4959
之㑹	-10.4962
能用	-10.4964
如是而	-10.4966
敵應	-10.4967
大義	-10.4974
常道	-10.4976
裂	-10.4977
庻	-10.4978
妣	-10.498
欲以	-10.4981
有它	-10.4981
所麗	-10.4982
自以為	-10.4983
用以	-10.4985
上篇	-10.4985
躁動	-10.4988
治天下	-10.4993
二雖	-10.4993
未至於	-10.4994
乾以	-10.4998
莫大乎	-10.5
奢	-10.5001
忍	-10.5002
渙之	-10.5006
䷭	-10.5006
而起	-10.5006
:「	-10.5007
為水	-10.5009
丹	-10.5009
一則	-10.5012
初與四	-10.5014
而无所	-10.5017
因時	-10.5021
豹	-10.5021
其力	-10.5024
之貌	-10.5024
遍	-10.5026
奥	-10.5027
而取	-10.5029
䷞	-10.503
舜之	-10.5036
萬邦	-10.5037
故特	-10.5042
黄帝	-10.5044
黑	-10.5046
題	-10.505
四則	-10.5051
匡	-10.5051
同功	-10.5052
䷺	-10.5052
能亨	-10.5052
騐	-10.5053
䷆	-10.5054
英	-10.5055
䷄	-10.5056
害之	-10.5056
即所謂	-10.5059
此即	-10.5059
明者	-10.5067
綸	-10.5068
其動也	-10.5068
遇之	-10.5068
人事之	-10.5069
為功	-10.507
之漸	-10.5072
不得已	-10.5073
誨	-10.5073
老少	-10.5075
梗	-10.5075
既濟未濟	-10.5076
襲	-10.5077
主乎	-10.5077
何其	-10.508
無咎	-10.5081
是亦	-10.5082
然後可	-10.5082
人人	-10.5083
秋冬	-10.5084
卦之名	-10.5087
至順	-10.5087
則人	-10.5088
初三	-10.5089
三句	-10.5089
險在前	-10.5089
有家	-10.5092
不利有攸往	-10.5097
周之	-10.5097
為能	-10.5099
䷯	-10.5102
䷲	-10.5105
无間	-10.5106
發蒙	-10.5112
乾坤坎離	-10.5114
不逺	-10.5119
付	-10.5122
突	-10.5125
最下	-10.5126
䷮	-10.5126
獨言	-10.5128
從人	-10.5129
事事	-10.513
以制	-10.513
窮而	-10.513
合徳	-10.5131
而謂之	-10.5132
為地	-10.5133
柔得位	-10.5134
而不見	-10.5135
之所能	-10.5135
為民	-10.5137
傷也	-10.5138
為主而	-10.5141
兌下	-10.5144
也唯	-10.5145
凌	-10.5147
未當	-10.5147
非一	-10.5147
天下之道	-10.5149
域	-10.5151
盈虚	-10.5151
治家	-10.5158
用獄	-10.5158
盡性	-10.516
坤地	-10.5162
風行	-10.5166
交相	-10.5167
嫡	-10.517
生矣	-10.5172
挾	-10.5172
不幸	-10.5173
䷑	-10.5177
䷬	-10.5179
䷢	-10.518
應乎乾	-10.5181
要之	-10.5181
失時	-10.5182
机	-10.519
所載	-10.5193
之本體	-10.5193
之最	-10.5197
敬慎	-10.52
兮	-10.5201
氣也	-10.5202
白賁	-10.5204
聖人之道	-10.5211
二五之	-10.5214
精義	-10.5215
富有	-10.522
汙	-10.5221
小畜之	-10.5222
爻則	-10.5224
者然	-10.5224
䷕	-10.5225
中孚之	-10.5225
䷅	-10.5227
用師	-10.5228
三三	-10.5229
求益	-10.5231
我者	-10.5232
成雨	-10.5236
本義謂	-10.5236
正與	-10.5241
純粹	-10.5244
蜀	-10.5247
瓜	-10.5247
頓	-10.5249
䷏	-10.525
本無	-10.525
濟難	-10.5261
作樂	-10.5261
爻曰	-10.5262
下比	-10.5263
初九之	-10.5265
賁之	-10.5269
考之	-10.527
誣	-10.527
者莫	-10.5274
不恒	-10.5276
鬯	-10.5276
出地	-10.5277
應剛	-10.5289
鹵	-10.5289
天地人	-10.5291
壅	-10.5293
終不	-10.5297
弑	-10.5298
䷸	-10.5303
自為	-10.5306
錄	-10.5308
論語	-10.5309
也雖然	-10.5312
信而	-10.5313
贊曰	-10.5314
有此象	-10.5319
䷳	-10.5324
不至于	-10.5325
䷉	-10.5325
䷃	-10.5327
衆所	-10.5327
第六	-10.5328
而合	-10.5328
咥	-10.5329
所感	-10.5332
陰陽之	-10.5333
為卦	-10.5333
居貞	-10.5335
為剛	-10.5339
為益	-10.5341
嗣	-10.5341
輕重	-10.5341
靈龜	-10.5344
文明之	-10.5344
加一	-10.5346
䷦	-10.5354
必欲	-10.5357
居二	-10.5358
鼔	-10.5368
與乾	-10.5368
晚	-10.5369
占辭	-10.537
而立	-10.5371
頼	-10.5372
規	-10.5375
以漸	-10.5381
柔順而	-10.5385
難知	-10.5388
定吉凶	-10.5394
慕	-10.5395
龍徳	-10.5395
二畫	-10.5397
以定	-10.5397
鳥獸	-10.5398
各得	-10.5402
可觀	-10.5403
七十二	-10.5403
䷧	-10.5403
用力	-10.5405
崇徳	-10.5411
徑	-10.5412
也天地	-10.5413
聖人於	-10.5413
因而重之	-10.5415
疆	-10.5415
陸徳明	-10.5416
者是也	-10.5416
地位	-10.5419
影	-10.542
大衍之數	-10.5422
攝	-10.5422
歩	-10.5423
所作	-10.5424
大率	-10.5425
四與初	-10.5426
裏	-10.5431
二百	-10.5434
道義	-10.5436
免咎	-10.544
愁	-10.5444
晏	-10.5449
䷻	-10.5453
陽故	-10.5457
老婦	-10.5459
雖无	-10.5465
陽在	-10.5466
四正	-10.5467
乃是	-10.5471
蒙引	-10.5471
有行	-10.5473
天子之	-10.5475
處中	-10.5476
變坤	-10.5476
受益	-10.5478
天地定位	-10.5487
繼明	-10.5488
靖	-10.5498
而後可以	-10.55
惟有	-10.5506
涉大川	-10.5513
然後有	-10.5515
居君位	-10.5516
顯比	-10.5518
於三	-10.5523
可乆	-10.5526
剛上	-10.5527
四時之	-10.5529
相須	-10.5538
離為日	-10.554
卑而	-10.5543
而吉也	-10.5544
以九	-10.5545
𨼆	-10.5546
疑其	-10.5547
慾	-10.5548
様	-10.5549
灌	-10.5551
從此	-10.5554
弗過	-10.5554
物理	-10.5556
蹇之	-10.5557
盡善	-10.556
王輔嗣	-10.5565
而論	-10.5566
畬	-10.5569
秀	-10.557
坦	-10.557
先天圖	-10.5571
嘆	-10.5574
自知	-10.5577
莫大於	-10.5578
聖人因	-10.5587
西南得朋	-10.5589
而不用	-10.5589
至精	-10.5595
宥	-10.5603
濟蹇	-10.5604
周公繫	-10.5607
征伐	-10.5607
改命	-10.561
臣位	-10.5611
之詞	-10.5611
不同也	-10.5613
得位而	-10.5617
穉	-10.5621
隂隂	-10.5621
一有	-10.5624
聖賢之	-10.5628
噬膚	-10.563
䷹	-10.5631
不吉	-10.5633
火之	-10.5634
也至於	-10.5635
者聖人	-10.5644
是能	-10.5645
羙	-10.5646
終則有始	-10.5649
愆	-10.5649
穀	-10.565
也若夫	-10.565
月幾望	-10.5651
不免於	-10.5652
䷷	-10.5653
得其道	-10.5653
有三	-10.5654
訟者	-10.5659
不雨	-10.566
天道之	-10.566
之悔	-10.5662
柔則	-10.5663
之術	-10.5668
近之	-10.5669
變離	-10.5669
失其正	-10.5671
而為之	-10.5671
有物	-10.5671
萃聚	-10.5672
禽獸	-10.5676
擅	-10.5677
涸	-10.5679
隂中	-10.568
䷱	-10.5681
太隂	-10.5681
郎	-10.5682
其孚	-10.5688
於道	-10.5688
是以君子	-10.5703
是說	-10.5705
懦	-10.5705
《	-10.5711
言君子	-10.5714
立象	-10.5715
僭	-10.5727
中畫	-10.5729
𫝊曰	-10.573
於身	-10.573
資生	-10.5735
未足	-10.5741
馴	-10.5744
居其所	-10.5745
爻也	-10.5747
風之	-10.5748
如乾	-10.5749
樞	-10.5753
縣	-10.5754
耳故	-10.5754
濫	-10.5754
卦之主	-10.5757
而得其	-10.5759
變坎	-10.5778
非禮	-10.578
」	-10.5784
談	-10.5786
萃之	-10.5798
湯武	-10.5799
如之何	-10.5799
昔者	-10.58
偕	-10.5801
燭	-10.5807
行矣	-10.5808
文之	-10.581
過矣	-10.581
繼之以	-10.581
離為目	-10.5817
多懼	-10.5819
不立	-10.5819
與其	-10.5821
從容	-10.5821
常久	-10.5822
卻	-10.583
三月	-10.5831
周公之象	-10.5831
先迷	-10.5833
升而	-10.5833
乗之	-10.5834
彚	-10.5837
得一	-10.5838
以觀	-10.584
云者	-10.5842
不可用	-10.5844
同歸	-10.5852
竝	-10.5855
其行次且	-10.5855
二象	-10.5856
必然	-10.5859
曠	-10.586
與物	-10.5865
是説	-10.5868
神農	-10.5868
在位	-10.5874
困之	-10.5875
非可	-10.5876
不使	-10.5877
其吉凶	-10.5877
月之	-10.588
脉	-10.5881
不但	-10.5883
稼	-10.5883
利天下	-10.5883
者此也	-10.5884
豆	-10.5885
三代	-10.5885
戀	-10.5887
自失	-10.5887
之為卦	-10.5896
乎夫	-10.59
其咎	-10.59
㢲為	-10.5902
▁朱子曰	-10.5905
戈兵	-10.5906
謂陽	-10.5906
隂居	-10.5908
禮義	-10.5909
一索	-10.591
離坎	-10.591
証	-10.5913
需訟	-10.5914
故可	-10.5916
算	-10.5919
奪之	-10.5925
辨正	-10.5926
勿用取女	-10.5932
而使之	-10.5933
以誠	-10.5934
使其	-10.5941
六陽	-10.5947
此說	-10.5949
得其位	-10.5949
也以其	-10.595
握	-10.5952
於己	-10.5955
顯諸仁	-10.5957
下順	-10.5959
逺害	-10.596
纎	-10.5961
者由	-10.5965
參伍	-10.5966
闚	-10.5966
指五	-10.597
无禽	-10.5971
相薄	-10.5972
不流	-10.5984
子夏傳	-10.5986
吾之	-10.5987
已具	-10.5988
領	-10.5988
再三	-10.5991
薛	-10.5991
叚	-10.5991
乏	-10.5992
恕	-10.5999
十日	-10.6006
也觀	-10.6007
之狀	-10.601
弋	-10.6012
屬陽	-10.6015
使天下	-10.6017
本意	-10.6019
三陰	-10.6019
應天	-10.602
寫	-10.602
莧陸	-10.6023
長而	-10.6026
横圖	-10.6029
剛中正	-10.6029
徳業	-10.6029
之嫌	-10.6031
安于	-10.6031
陽位	-10.6036
釋文	-10.6038
睽之時	-10.604
羑里	-10.6043
刺	-10.6043
撫	-10.6043
在隂	-10.6044
先儒謂	-10.6045
兼山郭氏曰	-10.6046
中四爻	-10.6046
陷于	-10.6053
得正故	-10.6054
條理	-10.6063
陽剛之才	-10.6068
所以然者	-10.6068
六隂	-10.6069
響	-10.6069
剛過	-10.6076
而可以	-10.6078
一卷	-10.6079
畫八卦	-10.608
微而	-10.6091
入而	-10.6095
龔	-10.6096
顚	-10.6098
七日來復	-10.6098
繼以	-10.6101
漢儒	-10.6105
出否	-10.6107
否則	-10.6108
禴	-10.6108
上交	-10.6109
為難	-10.6115
中直	-10.6115
多寡	-10.6117
狩	-10.6119
天時	-10.6121
憂之	-10.6129
坤為衆	-10.6133
用此	-10.6134
之終也	-10.614
雜而	-10.6145
巽風	-10.6146
生物之	-10.6148
能久	-10.615
勿逐	-10.615
寺	-10.6151
所施	-10.6151
不獲	-10.6153
叙	-10.6154
卑巽	-10.6158
此道	-10.6159
上下相	-10.6159
自信	-10.6162
相繼	-10.6162
輔嗣	-10.6162
南北	-10.6163
之辨	-10.6163
道之大	-10.6163
相見	-10.6167
蓋取諸	-10.617
化育	-10.617
各有所	-10.6171
蓍卦	-10.6171
知懼	-10.6172
坤坤	-10.6177
其象為	-10.6178
又在	-10.6179
非人	-10.6179
蕭	-10.6181
陽消	-10.619
以位言	-10.6191
感人	-10.6191
遷國	-10.6192
占得	-10.6193
專以	-10.6196
獨立	-10.6198
其形	-10.6201
畜止	-10.6202
呂	-10.6206
春秋傳	-10.6208
居業	-10.6209
而萬物	-10.6215
利者	-10.6215
不由	-10.6216
乎故曰	-10.6217
得朋	-10.6218
山川	-10.622
春夏	-10.6221
保合	-10.6221
匪正	-10.6229
得時	-10.6232
成卦之主	-10.6234
帝王	-10.6235
遊	-10.6235
有心	-10.6244
以謙	-10.6245
可乎	-10.6249
順天	-10.6249
變而成	-10.625
明道	-10.6254
中者	-10.6256
蘇蘇	-10.6258
闔闢	-10.626
其質	-10.6263
鎮	-10.6263
周流	-10.6265
筮得	-10.6267
而不自	-10.6268
退也	-10.627
雙湖先生曰	-10.6276
两	-10.6283
而行之	-10.6283
逋	-10.6283
水流	-10.6284
磐桓	-10.6293
不興	-10.6293
為人所	-10.6297
大通	-10.6298
謙謙	-10.6298
導	-10.6298
各自	-10.6301
于心	-10.6302
者天之	-10.6303
初六之	-10.6304
逺之	-10.6311
腊	-10.6314
實有	-10.6318
元氣	-10.6319
而不失	-10.6322
初與二	-10.6324
和樂	-10.6331
聖人之意	-10.6334
此句	-10.6334
有位	-10.6337
在人則	-10.6343
有險	-10.6345
陸氏	-10.6347
大蹇	-10.6347
欲進	-10.6349
安貞	-10.6351
一例	-10.6351
也哉	-10.6354
此正	-10.6358
各以	-10.636
易之為書	-10.6366
士夫	-10.6366
不居	-10.6367
七八九六	-10.6368
崔	-10.6369
憂虞	-10.637
本義曰	-10.6371
日進	-10.6371
个	-10.6372
三字	-10.6376
易説	-10.6379
今以	-10.6381
而忘	-10.6381
太和	-10.6381
順承	-10.6383
其動	-10.6383
其罪	-10.6384
有求	-10.6387
人亦	-10.6387
有獲	-10.6387
卦才	-10.6388
収	-10.6393
冐	-10.6397
復卦	-10.6401
本文	-10.6401
弗損益之	-10.6402
行止	-10.6404
而爲	-10.6406
子思	-10.6406
為六	-10.641
遇雨	-10.641
丈	-10.6414
誘	-10.6424
住	-10.6425
詐	-10.6426
朕	-10.6427
侍	-10.6428
髙而	-10.6431
似乎	-10.6432
文飾	-10.6435
終之	-10.6446
止其所	-10.6449
舟楫	-10.6452
詁	-10.6452
李子思曰	-10.6453
為否	-10.6457
往也	-10.6458
又居	-10.6458
下降	-10.646
笑言啞啞	-10.6461
呉	-10.6461
利往	-10.6468
而從之	-10.6468
張子	-10.6469
沬	-10.6474
坤為地	-10.6475
乎地	-10.6475
項平甫曰	-10.6477
蒸	-10.6479
危也	-10.6481
如天	-10.6483
有徳	-10.6485
晦其明	-10.6485
可吝	-10.6498
姚	-10.6499
其私	-10.6502
以治	-10.6506
統天	-10.6507
烹	-10.6509
翼傳曰	-10.6509
不事王侯	-10.651
位在	-10.651
所以有	-10.6514
上章	-10.6514
之積	-10.6514
名之曰	-10.6517
能勝	-10.6517
老子	-10.6518
上合志	-10.6519
右手	-10.6521
皆當	-10.6528
其鄰	-10.6529
時有	-10.6529
方能	-10.653
韓康伯	-10.6531
二三四五	-10.6532
二曰	-10.6537
弗克	-10.6538
齒	-10.6538
大亨以正	-10.6543
唯其	-10.6544
之色	-10.6544
名卦	-10.6551
吾心	-10.6551
袂	-10.6552
納甲	-10.6554
不果	-10.6554
初在下	-10.656
朱氏附録	-10.6561
往者	-10.6561
之疾	-10.6563
往有功	-10.6564
彖所謂	-10.6565
自任	-10.6566
一端	-10.6569
離麗也	-10.657
文義	-10.6573
君子之所	-10.6575
地數	-10.6578
所在	-10.6578
乾坤二卦	-10.6579
求諸	-10.6579
不云	-10.658
來居	-10.6581
一剛	-10.6581
无眚	-10.6583
大過之時	-10.6584
畜乾	-10.6584
徃則	-10.6587
天下後世	-10.6589
網罟	-10.659
戕	-10.659
襄	-10.6591
萬物之情	-10.6598
取女	-10.6609
異乎	-10.661
忘其	-10.6616
粹	-10.6617
志剛	-10.6617
觀民	-10.6619
而難	-10.662
致一	-10.662
何嘗	-10.662
熱	-10.6621
助之	-10.6621
黄裳	-10.6623
繘	-10.6623
迅	-10.6623
知險	-10.6624
第五	-10.6635
於其間	-10.6636
以相	-10.6638
筐	-10.6638
四十八	-10.6641
能謙	-10.6642
同於	-10.6642
禀	-10.6648
之罪	-10.6649
无喪	-10.6652
山下	-10.6652
式	-10.6654
相資	-10.6654
百八十	-10.6656
而不變	-10.6659
何必	-10.6661
剛上而柔下	-10.6662
有實	-10.6662
動物	-10.6664
性也	-10.6671
居下而	-10.6673
羅	-10.6676
欠	-10.6681
妃	-10.6683
震為足	-10.6684
宫室	-10.6686
至三	-10.6687
矣是以	-10.6693
二居	-10.6696
歸妹之	-10.67
明出地上	-10.6703
兩箇	-10.6705
吐	-10.6705
暮	-10.6708
挽	-10.671
隅	-10.671
者多矣	-10.6711
洗心	-10.6713
所隨	-10.6715
傳云	-10.6717
則已	-10.6719
矣惟	-10.6719
休息	-10.6719
慮其	-10.672
重在	-10.6723
為卦主	-10.6727
養其	-10.6728
不可為	-10.6729
藏諸用	-10.673
一般	-10.6731
亨而	-10.6733
無可	-10.6733
不犯	-10.6733
成列	-10.6735
疑於	-10.6737
十朋之龜	-10.6738
在田	-10.6738
變故	-10.6739
之變也	-10.6745
包承	-10.6745
係於	-10.6745
革也	-10.6747
敦復	-10.6756
至是	-10.6756
不勝其	-10.6757
示人以	-10.6761
雲峯胡氏曰	-10.6761
各正	-10.6761
襍	-10.6762
遁	-10.6764
非徒	-10.6765
王道	-10.6772
晁氏曰	-10.6773
天地之氣	-10.6773
不厭	-10.678
可疑	-10.6782
五十五	-10.6782
其子	-10.6784
三男	-10.6787
乎然	-10.679
正大	-10.6791
明入地中	-10.6791
鋭	-10.6791
又謂	-10.6798
方長	-10.6801
相類	-10.6803
三女	-10.6806
於後	-10.681
君心	-10.6811
之徳而	-10.6814
居初	-10.6818
通乎	-10.6819
正月	-10.6819
暇	-10.682
道窮	-10.682
欲人	-10.682
鬼方	-10.6822
屈信	-10.6822
棘	-10.6824
播	-10.6826
在已	-10.6828
筆	-10.683
矣今	-10.683
繫辭曰	-10.6835
直方	-10.6838
槁	-10.6845
二女	-10.6846
稱龍	-10.6846
歛	-10.6849
心亨	-10.6851
衷	-10.6852
透	-10.6854
是聖人	-10.6854
峻	-10.6857
左次	-10.6857
至正	-10.6862
非是	-10.6863
牝牛	-10.6865
邵	-10.6868
堪	-10.687
一世	-10.6871
甚大	-10.6871
以説	-10.6871
一分	-10.6875
僻	-10.6879
偃	-10.6879
欽	-10.6883
之害	-10.6885
賁飾	-10.6885
爻之辭	-10.6889
以柔居柔	-10.6891
上面	-10.6893
葢取諸	-10.6898
易言	-10.6898
頻復	-10.6905
利涉	-10.6906
翩翩	-10.6908
山澤通氣	-10.6909
吴	-10.6909
憑	-10.6913
卦主	-10.6924
一段	-10.6926
盛也	-10.6931
剥陽	-10.6932
駁	-10.6937
林黄中曰	-10.694
无大咎	-10.694
九家	-10.694
于物	-10.6942
占法	-10.6944
生民	-10.6947
焉是	-10.6955
再扐	-10.6964
崩	-10.6965
駕	-10.697
歡	-10.6972
包羞	-10.6973
比于	-10.6975
飲酒	-10.6975
與此	-10.6975
象㫖	-10.6976
童觀	-10.6977
程朱	-10.6981
得尊位	-10.6981
崔憬曰	-10.6982
五變	-10.6982
而受	-10.6985
此其	-10.6987
利用獄	-10.6988
不遇	-10.6991
而至于	-10.6995
厄	-10.6995
之材	-10.6997
應於上	-10.7004
者豈	-10.7004
夫婦之道	-10.7005
重巽	-10.7006
咸之	-10.7008
休否	-10.7016
自外	-10.7017
宴	-10.7018
渙其躬	-10.7018
先王以	-10.7019
劓刖	-10.7021
金鉉	-10.7024
愆期	-10.7024
二爻皆	-10.7029
合于	-10.7029
二與四	-10.7029
全在	-10.703
相近	-10.703
虩虩	-10.7032
近于	-10.7035
係之	-10.7038
男女之	-10.704
進徳	-10.7041
妙用	-10.7041
鼎耳	-10.7042
百里	-10.7042
薰	-10.7046
其知	-10.7047
何可長	-10.7052
則必有	-10.7054
懿	-10.7054
衞	-10.7055
潤下	-10.7055
藍田吕氏曰	-10.7058
囊	-10.7058
是理	-10.7058
也而爻辭云爾者	-10.7063
黄中	-10.7063
于野	-10.7064
知有	-10.7064
既未濟	-10.7068
純乾	-10.7076
无陽	-10.708
衝	-10.7081
密雲不雨	-10.7081
成離	-10.7082
初剛	-10.7088
花	-10.7089
齋曰	-10.7089
人自	-10.709
也傳曰	-10.7091
爾雅	-10.7091
顒	-10.7093
天下无	-10.7106
極必	-10.7106
而吉凶	-10.711
酬酢	-10.711
郭氏	-10.711
雲行雨施	-10.7111
戈	-10.7113
行道	-10.7114
丘園	-10.7114
禪	-10.7114
得五	-10.7114
羲皇	-10.7116
太平	-10.7116
緒	-10.7118
四體	-10.7119
宏	-10.7119
為金	-10.7122
三與四	-10.7122
是箇	-10.7124
上言	-10.7126
天之道也	-10.713
以進	-10.7131
聞之	-10.7131
五行之	-10.7134
所比	-10.7134
地勢	-10.7136
豐之	-10.7139
未安	-10.7139
逵	-10.7141
四陰	-10.7142
為龍	-10.7143
直方大	-10.7143
之迹	-10.7146
小者過	-10.7147
投	-10.7148
女壯	-10.7149
初畫	-10.7149
氏云	-10.7157
間之	-10.7157
㑹通	-10.716
大學	-10.7166
不逺復	-10.7167
以止	-10.7169
柔在下	-10.717
恒也	-10.7171
十六卦	-10.7173
淺深	-10.7173
拔茅	-10.7174
換	-10.7176
夢	-10.7177
自下而	-10.7179
无實	-10.718
他人	-10.7181
得君	-10.7181
顛趾	-10.7187
者哉	-10.7187
曰吾	-10.7191
所守	-10.7196
既曰	-10.7201
利永貞	-10.7201
幹父之蠱	-10.7205
髙尚	-10.7206
天下事	-10.7206
模	-10.7207
愠	-10.7208
以此為	-10.7209
一家之	-10.721
王母	-10.7212
安其	-10.722
蓍之	-10.722
摩	-10.7229
而獲	-10.723
終不可	-10.7232
或者	-10.7232
異於	-10.7237
六七八九	-10.7238
敦厚	-10.7243
居外	-10.7246
險而止	-10.725
以剛處	-10.7259
于民	-10.726
有兩	-10.7261
天五	-10.7261
蹄	-10.7264
濡其首	-10.7266
剛强	-10.7266
鮒	-10.7267
蘭	-10.7267
釐	-10.7267
八八	-10.7272
而遂	-10.7282
平聲	-10.7285
致福	-10.7288
五雖	-10.7288
剛柔分	-10.7289
絡	-10.7294
繻	-10.7296
臺	-10.7299
上下交	-10.7305
於前	-10.7307
尚往	-10.731
變卦	-10.731
時用	-10.7311
本有	-10.7311
補過	-10.7317
立廟	-10.7317
以成其	-10.7319
王輔嗣曰	-10.7325
東萊吕氏曰	-10.7326
凟	-10.7326
姬	-10.7327
可大	-10.7331
見傷	-10.7331
暱	-10.7332
利牝馬之貞	-10.7334
或疑	-10.7335
有象	-10.7336
書契	-10.7341
乎中	-10.7342
可進	-10.7343
不察	-10.7343
有節	-10.7343
二十五	-10.7343
尚未	-10.7344
不往	-10.7345
初變	-10.7347
形體	-10.735
又能	-10.735
變震	-10.7351
翻	-10.7353
不輕	-10.7355
成就	-10.7356
發其	-10.7359
齧	-10.736
頑	-10.7363
五十有五	-10.7364
所繫	-10.7372
文周	-10.7373
譬之	-10.7374
寔	-10.7386
飽	-10.7387
赴	-10.7388
反下	-10.7391
退藏	-10.7394
諸陽	-10.7397
散而	-10.7404
上窮	-10.7406
恐人	-10.7406
知此	-10.7406
少陰	-10.7407
鄭云	-10.7411
君子所	-10.7411
致冦	-10.7412
以卦象	-10.7413
而後動	-10.7413
交際	-10.7414
翔	-10.7414
所以吉也	-10.7415
教化	-10.7419
涕	-10.7422
者也夫	-10.7422
不相與	-10.7425
素履	-10.743
相摩	-10.7433
鴻漸	-10.7434
未明	-10.7442
刑罰	-10.7443
女子之	-10.7448
饒	-10.7448
上卦之	-10.7449
同而異	-10.7449
狂	-10.7451
其卦為	-10.7452
天下治	-10.7453
安有	-10.7454
棲	-10.7455
治獄	-10.7457
其次	-10.746
者凡	-10.7465
通天下之志	-10.7466
善處	-10.7466
者以此	-10.7467
占者如是則	-10.7469
見幾	-10.7469
生育	-10.7472
張氏	-10.7474
隐	-10.7477
庇	-10.7481
困于	-10.7483
阿	-10.7484
輩	-10.7484
相同	-10.7486
顛倒	-10.7486
天下之民	-10.7487
正邦	-10.749
而與之	-10.7491
福慶	-10.7501
重明	-10.7501
就下	-10.7502
亡矣	-10.7504
帝出乎震	-10.7507
之人也	-10.7508
也君子觀	-10.7508
男下女	-10.7509
桷	-10.7512
穿	-10.7513
禦冦	-10.7513
居位	-10.7514
應乎天	-10.7514
而發	-10.7515
底意思	-10.7519
大輿	-10.752
上下應之	-10.7521
不外	-10.7535
能行	-10.7536
莧	-10.754
觀此	-10.7545
自損	-10.7549
剛明之才	-10.7551
附于	-10.7553
兑下	-10.7553
是以吉也	-10.7555
不識	-10.7562
奈何	-10.7564
位正當也	-10.7565
蔑貞	-10.7567
雷雨作	-10.7567
四句	-10.7568
无體	-10.757
視其	-10.757
自我西郊	-10.757
為賁	-10.757
臀无膚	-10.7571
爽	-10.7573
醫	-10.7573
慝	-10.7573
傷害	-10.7573
噫	-10.7573
超	-10.7574
有漸	-10.7576
冀	-10.7578
功用	-10.758
不能盡	-10.7581
李氏曰	-10.7588
之水	-10.7592
天地之化	-10.7592
致亨	-10.7594
盈滿	-10.7596
竄	-10.76
後儒	-10.76
庖	-10.7602
日月星辰	-10.7603
訛	-10.7603
損其疾	-10.7604
易學	-10.7606
憧憧往來	-10.7606
動乎險中	-10.7607
彖爻	-10.761
所以明	-10.7612
敦艮	-10.7613
未甞	-10.7622
大凡	-10.7622
四分	-10.7623
四月	-10.7625
鳴豫	-10.763
黄帝堯舜	-10.7632
遐	-10.7635
為火	-10.7636
紹	-10.7637
忤	-10.7637
叅	-10.7638
拜	-10.7638
弛	-10.7639
以陰居	-10.7641
其所以然	-10.7644
髙明	-10.7646
五與二	-10.7646
之體也	-10.7647
得坤	-10.765
祖考	-10.765
所求	-10.7651
至神	-10.7652
惟恐	-10.7654
乎其中	-10.7654
雷震	-10.7655
與人同	-10.7663
往来	-10.7664
包犧	-10.7665
云爾	-10.7666
成徳	-10.7666
白雲曰	-10.7666
貧賤	-10.7666
表裏	-10.767
不忍	-10.767
不定	-10.7671
辨物	-10.7671
其失	-10.7672
乃以	-10.7673
朱氏	-10.7673
剛而得中	-10.7674
下賢	-10.7677
无為	-10.7682
陽盛	-10.7683
重變	-10.7683
之責	-10.7689
不可復	-10.769
可喜	-10.7691
閽	-10.7692
亹亹	-10.7695
所觀	-10.7695
陽徳	-10.7696
不入	-10.7697
脚	-10.7699
震雷	-10.77
其㫖	-10.7704
迷復	-10.7713
可得	-10.7717
既平	-10.7718
攸往	-10.7721
斯為	-10.7723
不以正	-10.7726
楊氏	-10.7729
何可	-10.7729
荷	-10.7732
袁	-10.7734
于君	-10.7736
觀變	-10.7738
為句	-10.774
絶之	-10.7745
大畜之	-10.7746
或云	-10.7752
紊	-10.7761
供	-10.7762
知止	-10.7764
暉	-10.7765
動體	-10.7766
必反	-10.7772
無私	-10.7776
天地萬物之情	-10.7778
矣哉	-10.7782
設教	-10.7787
徤	-10.7792
遘	-10.7792
光輝	-10.7796
舊説	-10.7799
斥	-10.78
所隔	-10.7805
安靜	-10.7806
易卦	-10.7807
禍患	-10.7815
炁	-10.782
百四十	-10.782
邱	-10.7823
獲其	-10.7824
多矣	-10.7824
姜	-10.7827
雲雷	-10.7832
三才之道	-10.7835
以避	-10.7837
居剛	-10.784
觀乎	-10.7846
不耕	-10.7846
者雖	-10.7847
十有二	-10.7848
不雜	-10.7855
以類	-10.7856
索索	-10.7857
離散	-10.7857
遇毒	-10.7857
婚	-10.7857
磨	-10.7862
不論	-10.7864
變化之道	-10.7865
此之謂也	-10.7868
无害	-10.787
只管	-10.787
神道	-10.7872
无他	-10.7876
成文	-10.7877
九十	-10.788
苞	-10.7887
㸃	-10.7888
有悔也	-10.7889
割	-10.7889
正家	-10.789
自立	-10.7893
惡人	-10.7898
居中而	-10.7903
變陽	-10.791
致寇	-10.7912
于木	-10.7912
者或	-10.7915
載物	-10.7915
以斷	-10.7915
極深	-10.7917
柔進	-10.792
頄	-10.7922
爛	-10.7923
純乎	-10.7923
利女貞	-10.7924
可以知	-10.7927
憚	-10.7928
一二三四	-10.7931
自安	-10.7933
六五之君	-10.7938
只有	-10.794
天下皆	-10.7941
可羞	-10.7943
震震	-10.7944
上巽	-10.7944
贊之	-10.7949
有理	-10.7949
已上	-10.7949
无尤	-10.795
非特	-10.7954
動動	-10.7954
晁氏	-10.7957
髮	-10.7957
葛	-10.7958
七月	-10.796
體之下	-10.7962
五居	-10.7967
地氣	-10.7967
髙下	-10.7967
必至於	-10.797
斷之	-10.7976
重隂	-10.7976
排	-10.7977
施於	-10.7979
修徳	-10.7986
隂位	-10.7986
兢	-10.7987
大師	-10.7989
網	-10.799
者如此	-10.799
貼	-10.799
盧	-10.7991
以示人	-10.7993
抵	-10.7995
上出	-10.8002
方圖	-10.8007
做得	-10.8008
則隂	-10.8013
舌	-10.8013
以往	-10.8015
哲	-10.8016
卦惟	-10.8017
凡有	-10.8017
赤紱	-10.8017
於已	-10.8019
毅	-10.802
濟天下之	-10.8022
托	-10.8022
未失	-10.8025
狠	-10.8025
攣	-10.8025
濟屯	-10.8026
從程氏	-10.8028
既濟之時	-10.8028
此所以為	-10.8029
隂陽和	-10.8029
四九	-10.803
羣龍	-10.8031
大塗	-10.8033
安静	-10.8035
之幾	-10.8036
不移	-10.8037
主人	-10.8037
其善	-10.804
彖𫝊	-10.804
千里	-10.8045
居陽位	-10.8046
專言	-10.8047
四雖	-10.8049
殃	-10.8052
夫妻反目	-10.8053
不常	-10.8054
之論	-10.8055
剛柔相推	-10.8057
君臣相	-10.8057
歸竒	-10.8067
或益之	-10.8069
不思	-10.8073
亦云	-10.8074
為之戒	-10.8076
君子所以	-10.8077
咥人	-10.8077
無形	-10.808
龍之	-10.8084
枕	-10.8084
僕	-10.8085
无成	-10.8086
送	-10.8086
蜀才	-10.8087
嘉遯	-10.8092
其惡	-10.8097
小吝	-10.81
不同而	-10.8102
逆數	-10.8106
明堂	-10.8106
乘之	-10.8106
貞則吉	-10.8109
為重	-10.8113
之序也	-10.8114
隍	-10.8114
不可為典要	-10.8116
衣裳	-10.8116
筮者	-10.8116
陽為大	-10.8117
不覺	-10.8118
結繩	-10.8118
奏	-10.812
苗	-10.812
烹飪	-10.8121
下面	-10.8121
大槩	-10.8122
九月	-10.8123
好爵	-10.8128
而无咎也	-10.8132
四營	-10.8135
失律	-10.8144
初陽	-10.8145
此數	-10.8148
終无尤也	-10.8149
有孚攣如	-10.815
陰爻	-10.815
天地不交	-10.8151
尹	-10.8151
成震	-10.8153
初隂	-10.8154
配合	-10.8156
居大臣之位	-10.8158
自用	-10.8161
􁁇(	-10.8162
化成	-10.8163
古之人	-10.8164
所存	-10.8168
可言	-10.8168
二義	-10.8172
專一	-10.8173
澤中	-10.8175
親比	-10.8176
朱氏曰	-10.8176
羝羊	-10.8176
開物成務	-10.8179
收斂	-10.8183
荆	-10.8184
之效	-10.8185
而卒	-10.8187
玩辭	-10.8187
兩句	-10.8187
𤣥黄	-10.8188
方得	-10.8194
伐鬼方	-10.8194
居險	-10.8196
能畜	-10.8198
所願	-10.82
坎陷	-10.82
臨下	-10.8202
定天下	-10.8205
感物	-10.8206
上畫	-10.8209
些	-10.821
字與	-10.821
不正之	-10.8214
屬隂	-10.8214
守貞	-10.8218
莊子	-10.822
屑	-10.822
六日	-10.8221
隋	-10.8223
物生	-10.8223
已甚	-10.8224
閉塞	-10.8224
不可測	-10.8225
實理	-10.8226
四隅	-10.824
立卦	-10.824
人倫	-10.8243
左氏	-10.8244
非應	-10.8245
大亨而	-10.8246
二三四	-10.8246
稷	-10.8248
馬匹亡	-10.825
徇	-10.8251
通其變	-10.8257
不終日	-10.826
亨字	-10.8263
革面	-10.8264
本于	-10.8265
變艮	-10.8267
極盛	-10.8269
制度	-10.827
有廟	-10.827
納婦	-10.8272
本非	-10.8277
也然而	-10.8278
靣	-10.828
上說	-10.8284
曵	-10.8285
不可謂	-10.8286
人文	-10.8287
株木	-10.8288
夫子之	-10.829
矩	-10.829
註云	-10.8291
遇險	-10.8292
夬姤	-10.8292
自乾坤	-10.8293
无所不利	-10.8293
在下位	-10.8295
、	-10.8298
𤼵明	-10.83
牽復	-10.8301
以剛陽	-10.8307
兊澤	-10.8309
而不通	-10.8315
漢上	-10.8316
又必	-10.8317
朱子發曰	-10.8318
繫辭焉	-10.8321
属	-10.8323
十四卦	-10.8323
處上	-10.8325
牢	-10.8325
將至	-10.8326
百二十	-10.8333
則成	-10.834
各正性命	-10.8343
則无咎也	-10.8343
隂陽之氣	-10.8346
作易者	-10.8349
原本	-10.8349
卵	-10.835
致逺	-10.8351
貧	-10.8352
之物也	-10.8353
孰能	-10.8353
曳其輪	-10.8353
淑	-10.8353
侮	-10.8355
剛陽之	-10.8355
之半	-10.8357
别有	-10.8359
遯者	-10.8364
離象	-10.8367
不孤	-10.8367
始雖	-10.8368
之憂	-10.8369
有限	-10.8371
吳氏	-10.8371
休復	-10.8375
君子當	-10.8376
利於貞	-10.8376
光大也	-10.8377
百物	-10.8377
法則	-10.8379
禴祭	-10.8382
愬愬	-10.8382
程正叔曰	-10.8385
矣蓋	-10.8385
處震	-10.8387
用九用六	-10.8388
不相應	-10.8388
為无咎	-10.8388
於上而	-10.8389
一年	-10.8389
尚可	-10.839
聖人之心	-10.839
於世	-10.8391
既得	-10.8391
兩象	-10.8394
不誠	-10.84
何能	-10.8401
多譽	-10.8403
不廢	-10.8412
胡仲虎曰	-10.8415
此三者	-10.8417
蹢躅	-10.8419
墮	-10.8422
徙	-10.8423
漫	-10.8424
不言吉	-10.8424
從五	-10.8424
如人	-10.8432
不寧	-10.8435
孚誠	-10.844
一身之	-10.8445
狄	-10.8445
之類皆	-10.845
之弊	-10.845
自上而下	-10.8453
也易曰	-10.8453
此一爻	-10.8454
㳺	-10.8454
另	-10.8456
標	-10.8456
忒	-10.8457
自反	-10.8457
其難	-10.8459
良馬	-10.8465
其來	-10.8469
大壮	-10.8469
人臣之	-10.8472
衆允	-10.8472
典禮	-10.8477
勉之	-10.8479
天之命	-10.848
程𫝊	-10.8482
蛇	-10.8482
成巽	-10.8484
龜山	-10.8487
摇	-10.8489
盈則	-10.849
無事	-10.8491
兑説	-10.8492
當其位	-10.8494
否之時	-10.8496
用享	-10.85
流通	-10.85
危矣	-10.8501
當從	-10.8502
災眚	-10.8502
无復	-10.8506
洗	-10.851
東西	-10.8511
溺於	-10.8512
艮手	-10.8512
離離	-10.8513
撝	-10.8513
舍之	-10.8515
之中有	-10.852
震動也	-10.8521
瓦	-10.8522
智者	-10.8525
有失	-10.8526
喪朋	-10.8529
見乎	-10.8532
確然	-10.854
欽定四庫全書易	-10.8542
不越	-10.8544
盛德	-10.8546
天下之心	-10.8548
時義大矣哉	-10.8552
近取諸身	-10.8552
鼫鼠	-10.8557
將有	-10.8557
巽在牀下	-10.8557
之盛也	-10.8558
木上有水	-10.8558
吏	-10.8561
寂然	-10.8561
位當	-10.8564
詳見	-10.8564
位雖	-10.8567
人之心	-10.8569
之所生	-10.8569
子孫	-10.8573
引之	-10.8579
常人	-10.8585
柔道	-10.8586
為六十四	-10.8586
下民	-10.8587
亘	-10.8587
兌澤	-10.8588
聚則	-10.8589
易象	-10.859
不稱	-10.8591
以事	-10.8593
巽巽	-10.8594
岸	-10.8595
推易	-10.8595
攷	-10.8596
擊之	-10.8597
兩端	-10.8599
玉鉉	-10.86
氣質	-10.8601
變巽	-10.8602
處旅	-10.8604
序卦曰	-10.8605
又誰咎	-10.8605
各以其	-10.8605
才弱	-10.8606
成艮	-10.861
井井	-10.861
一息	-10.8611
輔之	-10.8617
小人勿用	-10.8618
人生	-10.8618
中溪張氏曰	-10.8619
五日	-10.8623
南狩	-10.8624
純坤	-10.8628
為少陽	-10.8628
由中	-10.8628
志行也	-10.8628
不可勝	-10.8637
剥牀	-10.864
震來	-10.8644
隱伏	-10.8644
一曰	-10.8646
􁁆(	-10.8647
之象又	-10.8647
輝光	-10.8653
又非	-10.8654
皆因	-10.8655
簪	-10.8656
懼其	-10.8658
存疑	-10.8659
堅固	-10.8659
三公	-10.8661
十三卦	-10.8665
只在	-10.8667
陽主	-10.8669
充實	-10.867
行有尚	-10.867
隂柔而	-10.8673
矣葢	-10.8674
猶云	-10.8676
譬如	-10.8683
緫	-10.8691
化生	-10.8691
元者	-10.8693
鼓舞	-10.8695
昵	-10.8695
侵伐	-10.8698
為主故	-10.8699
香	-10.8702
不可貞	-10.8708
天心	-10.8708
吉占	-10.871
天衢	-10.8719
化而	-10.872
五居尊位	-10.8721
吉亨	-10.8722
能守	-10.8725
前進	-10.8725
效法	-10.8726
不可亂	-10.8726
頂	-10.8726
風俗	-10.8726
此語	-10.8731
不受	-10.8732
不喪匕鬯	-10.8733
可免	-10.8734
西郊	-10.8735
渉大川	-10.8736
劉牧	-10.8738
離為火	-10.8746
居上而	-10.8753
之象故曰	-10.8754
而加	-10.8757
陽畫	-10.876
不聞	-10.876
建侯行師	-10.8761
五曰	-10.8762
三歳	-10.8762
躋	-10.8765
无初有終	-10.8768
乎哉	-10.8778
莫不有	-10.8779
擬之	-10.8779
得九	-10.8781
為六十四卦	-10.8783
妨	-10.8784
血氣	-10.8784
以柔居剛	-10.8784
神之所為	-10.8786
月令	-10.8787
雜卦曰	-10.8788
中虛	-10.8789
約象	-10.879
盱	-10.8791
必能	-10.8793
二月	-10.8796
非道	-10.8797
十卷	-10.8798
逞	-10.8799
概	-10.8803
今乃	-10.8804
利用刑人	-10.8805
堯舜之	-10.8808
也况	-10.8809
志未得也	-10.8816
險陷	-10.8817
逸豫	-10.8817
利居貞	-10.8817
體仁	-10.882
爻詞	-10.8822
中正之德	-10.8824
大善	-10.8825
五爻皆	-10.8828
比初	-10.883
故可以	-10.8834
神而明之	-10.8834
隂生	-10.8835
入地	-10.8836
能安	-10.8836
有間	-10.8838
粟	-10.8838
終不能	-10.8838
泰卦	-10.8838
其根	-10.8841
齋戒	-10.8847
離目	-10.8848
相盪	-10.8848
顛頤	-10.8848
精微	-10.8851
孔疏	-10.8852
訂	-10.8855
用兵	-10.8861
初曰	-10.8864
耳非	-10.8865
威嚴	-10.8866
乃吉	-10.8867
而得之	-10.8867
禦寇	-10.8868
霸	-10.8871
凢	-10.8871
薪	-10.8872
釁	-10.8873
以察	-10.8873
也此卦	-10.8873
在彼	-10.8873
其他	-10.8873
頃	-10.8874
蘇氏曰	-10.8876
邦國	-10.8877
生於下	-10.8878
有終也	-10.8882
以卦體言	-10.8882
龍戰	-10.8883
之主而	-10.8884
也通曰	-10.8888
龍德	-10.8888
之基	-10.8891
動極	-10.8892
正秋	-10.8897
跛能履	-10.8898
灼	-10.8902
其占為	-10.8905
稚	-10.8906
耒耜	-10.8906
天地之中	-10.8906
育萬物	-10.8906
紫	-10.8907
肇	-10.8907
中男	-10.8908
精氣	-10.8909
安處	-10.8911
何有	-10.8911
猜	-10.8916
成務	-10.8917
此一爻是言	-10.8917
又按	-10.8918
門闕	-10.8919
乾元亨利貞	-10.8919
兊說	-10.8921
君子處	-10.8921
行其道	-10.8923
故其辭	-10.8923
是以謂之	-10.8924
羣陽	-10.893
之過也	-10.8931
用禴	-10.8933
逺於	-10.8942
改邑不改井	-10.8943
共濟	-10.8943
陶	-10.8944
榖	-10.8944
老夫	-10.8945
囘	-10.8945
之藴	-10.8954
程氏曰	-10.8954
六月	-10.8955
三爻變	-10.8965
承陽	-10.8966
非其人	-10.8969
朋類	-10.8969
百五十	-10.8973
无所疑	-10.8975
盍	-10.8975
疚	-10.8976
挂	-10.8977
品物	-10.8981
不可長	-10.8982
堅氷	-10.8982
經曰	-10.8983
止言	-10.8984
為八	-10.8984
誠實	-10.8985
文王所	-10.8985
不仁	-10.8986
女妻	-10.8987
而不進	-10.8989
伯夷	-10.8991
未可以	-10.8992
萬物之所	-10.8996
一隂一陽之謂道	-10.8997
不專	-10.8997
大公	-10.8998
當位而	-10.8999
集䟽	-10.9001
乾始	-10.9002
觸藩	-10.9006
馬云	-10.9006
牀下	-10.9008
朶頤	-10.9011
三曰	-10.9016
穿鑿	-10.9018
坤元	-10.9027
又取	-10.9027
生氣	-10.9028
各得其所	-10.9033
憂懼	-10.9033
反目	-10.9037
十有五	-10.9038
天地之大義	-10.9039
以剛居中	-10.9039
無過	-10.904
隂柔不中正	-10.9042
耿	-10.9045
蒺藜	-10.9046
此書	-10.9047
朋從爾思	-10.9048
波	-10.9051
未順命	-10.9051
叢棘	-10.9052
居下卦之上	-10.9056
於其中	-10.9057
可以見	-10.9059
定體	-10.9059
今按	-10.9061
兊口	-10.9064
終亂	-10.9064
之中也	-10.9064
中孚小過	-10.9074
竒數	-10.9076
大作	-10.9076
噬之	-10.908
潘	-10.9084
几	-10.9085
淪	-10.9086
械	-10.9088
損剛益柔	-10.9091
師比	-10.9091
一偶	-10.9091
陽變隂	-10.9092
下應九二	-10.9096
復反	-10.9103
三品	-10.9108
方可	-10.9109
二應五	-10.9112
九家易曰	-10.9112
臨觀	-10.9112
行其庭不見其人	-10.9115
由豫	-10.912
給	-10.9123
巖	-10.9124
彌綸	-10.9124
嘻嘻	-10.9126
推原	-10.9129
无失	-10.9132
柔暗	-10.9132
得宜	-10.9135
膏澤	-10.9136
其書	-10.914
上下不交	-10.9143
焉故曰	-10.9145
為悔	-10.9145
當革	-10.9146
渾然	-10.915
在淵	-10.915
故夫子	-10.9151
距	-10.9154
君德	-10.9159
與時	-10.9161
翟	-10.9162
履霜堅冰	-10.9162
社稷	-10.9163
牡	-10.9167
以是而	-10.9171
其道窮也	-10.9172
猶曰	-10.9175
物不可以終	-10.9177
非常之	-10.9179
為美	-10.918
相保	-10.918
十卦	-10.9181
隂虚	-10.9181
失中	-10.9183
睽孤	-10.9186
也故以	-10.9187
濟渙	-10.9189
古易	-10.919
不徒	-10.9191
所尚	-10.9194
害君子	-10.9195
南征	-10.9195
曲直	-10.9196
公曰	-10.9199
夘	-10.9199
小疵	-10.9199
熙	-10.92
豈得	-10.9201
莖	-10.9201
三索	-10.9202
上來	-10.9202
䟽	-10.9202
蔡氏	-10.9206
總論	-10.921
初與三	-10.9212
春分	-10.9219
下句	-10.922
隂陽剛柔	-10.922
之㣲	-10.9226
志窮	-10.9227
黄耳	-10.923
媵	-10.9231
者歟	-10.9233
讒	-10.9235
只為	-10.9236
猶之	-10.9239
易有太極	-10.924
在險中	-10.9247
小狐	-10.9249
於時為	-10.9255
邵子曰	-10.9256
以喻	-10.9259
而不復	-10.926
光亨	-10.9264
窮神知化	-10.9267
吾身	-10.9267
渉川	-10.9267
褫	-10.9268
應爻	-10.9269
繼之者善	-10.9269
虞仲翔	-10.9269
胎	-10.9272
屏	-10.9273
卷四	-10.9274
終凶	-10.9275
吉㐫	-10.9279
三與五	-10.9284
此等	-10.9289
隠伏	-10.929
偶然	-10.9292
有攸徃	-10.93
養萬物	-10.9302
之會	-10.9302
豚	-10.9303
愚曰	-10.9303
丘氏曰	-10.9305
動必	-10.9306
諭	-10.9307
畢竟	-10.9313
經緯	-10.9318
兌說	-10.9319
於時	-10.9324
免乎	-10.933
至明	-10.9331
鴻之	-10.9333
固結	-10.9334
其害	-10.9337
而不及	-10.9339
三驅	-10.9339
剛上柔下	-10.934
不慎	-10.9342
焉耳	-10.9344
无定	-10.9346
眼	-10.9347
詭	-10.9349
寒泉	-10.9351
制其	-10.9364
不能成	-10.9364
御天	-10.9373
犧	-10.9376
者若	-10.9377
悠	-10.9379
多言	-10.9381
亦取	-10.9382
秘	-10.9383
匿	-10.9383
郡	-10.9386
體之中	-10.9387
觀其所	-10.939
六二柔順中正	-10.9398
嘉美	-10.9402
一切	-10.9406
兩剛	-10.9408
坤象	-10.9409
不可行	-10.9412
函	-10.9417
周官	-10.9419
戒辭	-10.9419
金柅	-10.9423
話	-10.9423
胏	-10.9427
裒	-10.9427
當止	-10.9431
為姤	-10.9432
不可曉	-10.9433
莫益之	-10.9435
下流	-10.9435
中央	-10.9436
起于	-10.9436
指九五	-10.9437
其法	-10.9438
之閒	-10.9444
泉峰龔氏曰	-10.9445
頻巽	-10.9445
得中故	-10.9446
與時行	-10.9447
物之功	-10.9448
動作	-10.9449
皆主	-10.945
南軒	-10.9457
宜有悔	-10.9458
覲	-10.9458
自成	-10.9461
聲音	-10.9463
貞正也	-10.9465
法天	-10.9466
為孚	-10.9473
上比	-10.9477
之性情	-10.948
心之所	-10.948
周旋	-10.948
一周	-10.948
六五以柔	-10.9482
從貴	-10.9484
日出	-10.9487
弗損	-10.9488
俞琰	-10.9489
按此	-10.9489
雜亂	-10.949
𤓰	-10.949
窮理盡性	-10.9491
建安丘氏曰	-10.9491
誠心	-10.9492
膠	-10.9492
其聲	-10.9493
失前禽	-10.9495
五爻變	-10.9496
諧	-10.9496
懈	-10.9496
長久	-10.9498
性善	-10.9499
傲	-10.9499
養民	-10.9499
自姤	-10.9501
左旋	-10.9507
之常也	-10.9509
剛柔相濟	-10.9513
吉之道也	-10.9514
天之所	-10.9515
以言乎	-10.9518
王註	-10.952
為虎	-10.9521
所以養	-10.9523
這裏	-10.9523
未敢	-10.9523
公子	-10.9524
志應	-10.9525
匪孚	-10.9525
至尊	-10.9527
惠棟	-10.9527
危亡	-10.9528
銳	-10.9529
最為	-10.9532
貽	-10.9533
當此之時	-10.9536
浩	-10.9536
故其象為	-10.9538
治人	-10.954
信乎	-10.954
不肖	-10.9544
不利東北	-10.9548
之反也	-10.9552
能履	-10.9552
臣子	-10.9554
非獨	-10.9562
後之	-10.9568
咸其輔頰舌	-10.9568
隂道	-10.9569
廷	-10.957
六日七分	-10.9571
初筮	-10.9571
甚明	-10.9572
將何	-10.9573
震驚百里	-10.9575
巽而止	-10.9576
无所利	-10.9579
自外而	-10.9583
剛反	-10.9586
无所用	-10.9589
徃蹇	-10.9589
原筮	-10.9596
自求口實	-10.9598
能視	-10.9603
生死	-10.9605
朋友講習	-10.9606
纂	-10.9606
呈	-10.9606
甕	-10.9607
世俗	-10.9607
闚觀	-10.9608
遯世无悶	-10.9608
譏	-10.9609
童牛	-10.961
本末弱	-10.961
染	-10.9611
出處	-10.9611
犬	-10.9612
未見其	-10.9612
守其正	-10.9613
為老陽	-10.9615
出師	-10.9616
居下體	-10.9618
雉膏	-10.9619
成湯	-10.9622
牽連	-10.9625
麗于	-10.9636
一致	-10.9638
萬變	-10.9641
覽	-10.9644
浹	-10.9644
得中道也	-10.9645
艮為止	-10.9645
朱震	-10.9646
祚	-10.9646
隂陽交	-10.9646
為我	-10.9647
不遺	-10.9648
坎窞	-10.9649
恣	-10.9649
繆	-10.9652
解之時	-10.9654
柔巽	-10.9657
幽明	-10.9659
以陽剛居	-10.9663
上六居	-10.9664
舉正	-10.9673
用罔	-10.9677
夲義	-10.9677
泣血漣如	-10.968
艮兊	-10.968
參天	-10.968
之一字	-10.9681
彦	-10.9683
貎	-10.9686
廓	-10.9686
行權	-10.9686
柱	-10.9689
無有	-10.9694
席	-10.9694
邪正	-10.9694
尚書	-10.9697
貫魚	-10.9697
地十	-10.9698
決去	-10.9699
甘節	-10.9701
遂成	-10.9703
解散	-10.9705
蹇之時	-10.9705
勾	-10.9705
夕惕	-10.9706
九五剛中	-10.9707
馬壯	-10.9712
程氏	-10.9713
畜陽	-10.9715
方始	-10.9715
也愚曰	-10.9717
剛直	-10.9717
朋亡	-10.9719
鑒	-10.9721
饗	-10.9722
光武	-10.9724
觀國之光	-10.9729
天下之難	-10.973
手足	-10.973
縱横	-10.9731
照天下	-10.9732
委任	-10.9738
放此	-10.9738
䘮其	-10.9752
也如是則	-10.9757
繹	-10.9759
者天地之	-10.9759
其𩔖	-10.976
甲胄	-10.9761
隂消	-10.9762
謨	-10.9767
雷霆	-10.9768
乃无咎	-10.9772
必不能	-10.9773
三四皆	-10.9773
至柔	-10.9778
隨蠱	-10.9782
可畏	-10.9786
特以	-10.9787
過極	-10.9787
才徳	-10.9792
二五相應	-10.9796
之候	-10.9796
生長	-10.9797
而失其	-10.98
副	-10.9803
其施	-10.9804
秩	-10.9804
田獵	-10.9804
承上文	-10.9805
順時	-10.9809
蓍數	-10.981
推廣	-10.981
奉上	-10.9811
撝謙	-10.9811
五陰	-10.9813
損己	-10.9818
孟子所謂	-10.9821
不見其人	-10.9822
嫌於	-10.9834
黄裳元吉	-10.9838
化而裁之	-10.9838
旱	-10.9838
占筮	-10.9839
天一地二	-10.9839
有隕自天	-10.984
失其道	-10.984
艮為門闕	-10.9841
遇主于巷	-10.9841
大衍之數五十	-10.9842
不伐	-10.9843
踈	-10.9844
歆	-10.9845
无虞	-10.9849
當否	-10.9856
在險	-10.9862
不習	-10.9866
火傳曰	-10.9871
所論	-10.9873
无思	-10.9875
仰觀俯察	-10.9875
臲卼	-10.9876
佑	-10.9877
吝嗇	-10.9878
已極	-10.9879
消息盈虚	-10.988
而不中	-10.9881
罹	-10.9881
臆	-10.9882
久矣	-10.9883
卦之體	-10.9885
過乎中	-10.9887
大正	-10.9888
希夷	-10.9888
貞疾	-10.9889
近比	-10.989
過盛	-10.9897
君子有終	-10.9897
三四五	-10.9898
𧰼傳	-10.9907
所以爲	-10.9907
尚何	-10.9907
陽來	-10.9908
畏懼	-10.9908
乃亨	-10.9909
需于泥	-10.9914
衣袽	-10.9917
能通	-10.9917
廉	-10.9919
並受其福	-10.9921
憲	-10.9921
婚姻	-10.9921
池	-10.9923
離羣	-10.9924
遣	-10.9924
截然	-10.993
執一	-10.993
哉故曰	-10.993
無心	-10.9934
為寇	-10.9935
睽乖	-10.9937
大有為	-10.9938
旅人	-10.9943
則失其	-10.9948
吉而悔亡	-10.995
不告	-10.995
裁制	-10.9951
乃所以為	-10.9951
為之主	-10.9952
俞氏	-10.9953
黍	-10.9957
佚	-10.996
憤	-10.996
无位之地	-10.9963
堅冰	-10.9963
熹	-10.9966
今觀	-10.9966
踐履	-10.9969
稱名	-10.9971
情狀	-10.9973
八卦之象	-10.9973
之極而	-10.9974
利渉	-10.9974
百官	-10.9975
上下之交	-10.9982
從王事	-10.9985
而不知變	-10.999
公侯	-10.9992
主利	-10.9993
絪緼	-10.9998
遇剛	-10.9998
塵	-10.9998
勿用有攸往	-10.9999
蔓	-11.0001
不變者	-11.0003
終焉	-11.0003
翰音	-11.0004
至變	-11.001
以盡其	-11.0017
大得志也	-11.0017
次且	-11.0022
离為	-11.0024
六二中正	-11.0026
兊為口	-11.0031
不能違	-11.0035
稟	-11.0035
亦惟	-11.0036
康成	-11.0037
躡	-11.0037
眞	-11.004
繫於	-11.0041
大觀在上	-11.0042
盥而不薦	-11.0043
虛中	-11.0045
制作	-11.0051
正所謂	-11.0052
數十	-11.0052
配天	-11.0052
上達	-11.0053
之累	-11.0057
九疇	-11.0061
一陽在上	-11.0064
宜下	-11.0067
掇	-11.0071
胡雲峯曰	-11.0072
上下兩	-11.0073
不亦宜乎	-11.0078
苞桑	-11.0078
吁	-11.008
在旅	-11.0086
大臣之位	-11.0088
下濟	-11.009
盛極	-11.0099
以待之	-11.01
志未變	-11.0102
傷於	-11.0106
形而下者	-11.0115
夀	-11.0118
利於正	-11.012
孽	-11.0121
履霜堅氷	-11.0121
裏面	-11.0121
之能事	-11.0122
易理	-11.0129
馴致	-11.0132
才不足	-11.0134
未濟之時	-11.0137
之上而	-11.0141
極數	-11.0143
如人之	-11.0147
豶	-11.015
飛龍在天	-11.0154
無間	-11.0154
漁	-11.0155
耀	-11.0157
恬	-11.0157
菴	-11.016
老陰	-11.016
畔	-11.0161
有眚	-11.0162
无交害	-11.0172
及于	-11.0173
巽伏	-11.0181
熏	-11.0185
可小事	-11.0186
誤作	-11.0187
卦之初	-11.019
處憂患	-11.019
柅	-11.0191
鞶帶	-11.0194
勿問	-11.0196
竊謂	-11.0198
自泰來	-11.0199
箕子之	-11.0199
韋	-11.02
縻	-11.02
丁寧	-11.0203
震主	-11.0203
盟	-11.0203
二少	-11.0203
人之情	-11.0204
震為雷	-11.0204
九宫	-11.0207
古本	-11.0208
包蒙	-11.0212
至徳	-11.0214
已盡	-11.0214
而得吉	-11.0215
一陽生	-11.0215
三揲	-11.0216
之謂乎	-11.0216
相克	-11.0222
此四者	-11.0224
天下之物	-11.0233
僞	-11.0237
纒	-11.0238
語録曰	-11.0238
名義	-11.0238
為雲	-11.0239
腊肉	-11.0239
浪	-11.0239
謂之神	-11.0241
不能行	-11.0243
虞義也	-11.0244
門人	-11.0245
至命	-11.0247
兼山	-11.0252
六年	-11.0257
䇿數	-11.0259
以陰柔	-11.026
之大也	-11.0261
䷛(	-11.0264
簡易	-11.0266
相背	-11.027
陽性	-11.027
道德	-11.0272
傾否	-11.0276
穆姜	-11.0277
儆	-11.0277
壯于頄	-11.0278
束帛	-11.0279
互坤	-11.0279
鈎	-11.028
䑕	-11.0281
遄往	-11.0283
曳輪	-11.0285
合德	-11.0286
合而為	-11.0286
君命	-11.0288
取新	-11.0291
三隂三陽	-11.0294
純一	-11.0296
化為	-11.0298
順乎剛	-11.0299
震懼	-11.0301
更无	-11.0304
西鄰	-11.0311
皆是也	-11.0313
七百	-11.0314
不孕	-11.0314
繫辭傳	-11.0315
也紫陽朱子曰	-11.0316
或躍在淵	-11.0316
乂	-11.0316
九二之剛	-11.0319
之易也	-11.0319
揉	-11.032
恨	-11.0322
推而行之	-11.0322
脈	-11.0323
後來	-11.0323
棟隆	-11.0323
守中	-11.0325
終之以	-11.0328
勿憂	-11.0329
趨避	-11.033
則不至於	-11.0337
有二義	-11.034
䷘(	-11.0341
䷡(	-11.0345
有妄	-11.035
朱漢上曰	-11.0358
倉	-11.0359
展	-11.0362
不習无不利	-11.0362
雙	-11.0363
朱紱	-11.0363
後夫	-11.0365
兌口	-11.0372
得中正	-11.0375
一陰一陽	-11.0379
以象言之	-11.0381
相為用	-11.0385
孰為	-11.0393
敦臨	-11.0396
紛若	-11.0398
見龍在田	-11.0398
平菴項氏曰	-11.0401
生生之謂易	-11.0402
敬以直内義以方外	-11.0404
惰	-11.0406
聖人之所	-11.0407
九居二	-11.0407
嗜	-11.0407
滕	-11.0408
萬物資始	-11.0409
零	-11.041
洩	-11.0411
賢才	-11.0412
係于	-11.0416
從道	-11.0417
善補過	-11.0425
二七	-11.0435
勿藥	-11.0438
以漸而	-11.0441
兩地	-11.0442
蘓	-11.0443
七九	-11.0444
髙大	-11.0446
貶	-11.0447
低	-11.0449
貞悔	-11.0451
隂過	-11.0452
伏羲畫卦	-11.0452
遯之時	-11.0453
二卦皆	-11.0454
六爻之義	-11.0456
無不利	-11.046
安排	-11.0462
二十七	-11.0467
防其	-11.0476
進德	-11.0478
之小者	-11.0479
爻為主	-11.0484
社	-11.0487
急於	-11.0488
四十有九	-11.0488
正位凝命	-11.0492
刀	-11.0492
只是一箇	-11.0494
以益下	-11.0496
柔履剛	-11.0499
䷙(	-11.05
鳴鶴	-11.0502
不能安	-11.0503
無常	-11.0503
消陽	-11.0504
乃得无咎	-11.0508
不敗	-11.0516
不能勝	-11.0523
可以有為	-11.0523
亾	-11.0524
天尊地卑	-11.0525
一貫	-11.0527
以中道	-11.0527
氣象	-11.0528
屢遷	-11.0529
富以其鄰	-11.0531
輒	-11.0531
渥	-11.0532
經傳	-11.0533
不待言	-11.0534
未嘗有	-11.0537
制禮	-11.0539
陽數	-11.0541
相配	-11.0541
不患	-11.0547
居上位	-11.0549
䷌(	-11.0549
信任	-11.0551
不勞	-11.0554
好惡	-11.0554
不速	-11.0556
无由	-11.0561
學蒙	-11.0562
有亨道	-11.0564
處之則	-11.0565
不留	-11.0567
富家	-11.0571
並行	-11.0573
此圖	-11.0574
聨	-11.0574
矣是故	-11.0578
不出户庭	-11.0578
之正道	-11.0584
二爻變	-11.0584
所安也	-11.0585
自上而	-11.0586
刑獄	-11.059
殺牛	-11.0594
隨時之義	-11.0594
並語	-11.0599
介于石	-11.0607
已日乃孚	-11.0611
隂極	-11.0614
復自道	-11.0616
餗	-11.0616
挺	-11.0617
疏云	-11.0617
齡	-11.0618
巽為繩	-11.0623
不離乎	-11.0623
柔外	-11.0626
只得	-11.0627
斯民	-11.0635
震足	-11.0638
者陽之	-11.0639
彖辭曰	-11.0641
典常	-11.0647
之路	-11.0648
利字	-11.0648
物之所	-11.0649
旉	-11.065
昭然	-11.065
各具	-11.0651
故其占為	-11.0653
渡	-11.0657
黎	-11.0659
無疑	-11.0659
隂陽各	-11.0659
親切	-11.0659
亮	-11.0662
出震	-11.0662
參兩	-11.0663
之象占者	-11.0666
事物之	-11.0675
剛決	-11.0676
䷼(	-11.0677
故其象	-11.0681
此章言	-11.0682
千萬	-11.0683
剛爻	-11.0683
至靜	-11.0689
不自失	-11.0689
其終也	-11.069
類聚	-11.0691
足以盡	-11.0691
陳氏	-11.0694
出入无疾	-11.0695
三分	-11.0695
瘠	-11.0696
生木	-11.0697
恊	-11.0697
虐	-11.0697
立不易方	-11.0699
負且乗	-11.0699
又何咎	-11.07
止健	-11.07
記曰	-11.0703
不覿	-11.0704
庶乎	-11.0705
之主爻	-11.0705
无交	-11.0706
究其	-11.0711
八十一	-11.0714
䷈(	-11.0716
往蹇	-11.0725
往吝	-11.0731
剛德	-11.0731
是以凶也	-11.0732
以正道	-11.0735
之慶	-11.0736
麟	-11.0739
革之時	-11.0739
互兌	-11.0742
啟蒙	-11.0742
兼言	-11.0742
卷五	-11.0744
求小得	-11.0747
隂陽老少	-11.0751
可推	-11.0758
下繫	-11.0765
湯武之	-11.0768
只就	-11.0771
順以巽	-11.0775
君父	-11.0775
胡氏炳文曰	-11.0775
飲食宴樂	-11.0776
婦道	-11.0776
德業	-11.0779
贏	-11.078
巽為風	-11.0784
屨校滅趾	-11.0785
贅	-11.0786
孰不	-11.0787
)□	-11.0788
登天	-11.0788
阜	-11.0789
剛中之徳	-11.0789
漸漸	-11.0792
不敢自	-11.0794
享祀	-11.0796
後夫凶	-11.0797
剛實	-11.0798
不屈	-11.0804
動止	-11.0807
而求之	-11.081
敬仲	-11.0811
順徳	-11.0814
下坎上	-11.0815
深入	-11.0815
崇髙	-11.0817
健行	-11.0818
貞字	-11.0818
振恒	-11.0819
退聽	-11.082
與天地相似	-11.0822
瑣瑣	-11.0823
大意	-11.0823
殊不知	-11.0825
渙其血	-11.0825
邉	-11.0827
潤澤	-11.0827
震木	-11.0834
萬民服	-11.0842
神化	-11.0843
掣	-11.0852
十數	-11.0855
安身	-11.0856
首尾	-11.0856
文武	-11.0858
峙	-11.0864
乾元用九	-11.0864
屯其膏	-11.0866
湛	-11.0869
牝馬之貞	-11.087
悔可亡	-11.087
龍蛇	-11.0871
績	-11.0871
成終	-11.0871
所致	-11.0872
清明	-11.0874
巽為股	-11.0878
不言所利	-11.0879
乾為首	-11.0879
好遯	-11.0881
勝其任	-11.0893
應於五	-11.0902
正而吉	-11.0903
外比	-11.0906
軒	-11.0908
乘馬班如	-11.0908
化成天下	-11.091
火在天上	-11.091
所以凶也	-11.0911
金木	-11.0913
榦	-11.0913
徑路	-11.0914
詰	-11.0914
緣	-11.0915
可醜	-11.0918
徐氏	-11.0921
兒	-11.0922
中正之位	-11.0924
欲速	-11.0926
故其占如此	-11.0929
於卦為	-11.0934
受之以	-11.0945
不倦	-11.0947
性命之理	-11.0948
倣此	-11.0954
誓	-11.0955
困于酒食	-11.0955
太甲	-11.0956
程可久曰	-11.0959
可以濟	-11.096
剥復	-11.0962
同人于宗	-11.0963
幾微	-11.0966
秋分	-11.0966
志在君	-11.0968
取象於	-11.0969
一語	-11.0971
百九十二	-11.0972
為冦	-11.0982
輔相	-11.0983
自天祐之吉无不利	-11.0984
體柔	-11.0985
二者皆	-11.0992
見惡人	-11.0994
渙其羣	-11.1
泄	-11.1001
所值	-11.1002
有咎也	-11.1002
研幾	-11.1002
生蓍	-11.1002
翁	-11.1005
矣而又	-11.1005
涯	-11.1006
每卦	-11.1007
不暇	-11.1008
參同契	-11.101
求賢	-11.1012
十有六	-11.1013
見斗	-11.1015
最逺	-11.1019
䷍(	-11.1021
以卦變言	-11.1021
史記	-11.1027
項氏	-11.1027
何天之衢	-11.1032
水性	-11.1033
雍曰	-11.1037
本諸	-11.1037
乾為馬	-11.1043
以前民用	-11.1044
煥	-11.1044
居近君之位	-11.1044
三十日	-11.1046
黄中色	-11.1049
觀象玩辭	-11.105
照臨	-11.1052
致知	-11.1052
无悶	-11.1056
故悔亡	-11.1059
樂天	-11.1061
女歸吉	-11.1068
䷔(	-11.107
知㡬	-11.1073
看得	-11.1075
䷽(	-11.1077
艮其限	-11.1078
足以當之	-11.108
大者過	-11.1081
障	-11.1084
果蓏	-11.1085
或以為	-11.1087
㓜	-11.1089
迨	-11.1089
鑄	-11.109
僣	-11.1092
卷六	-11.1092
反復其道	-11.1096
明哲	-11.1099
危地	-11.1105
䷵(	-11.1109
君子體之	-11.1114
有自然之	-11.1118
亦不過	-11.1119
順以動	-11.1123
刲羊	-11.1126
分剛上而文柔	-11.1129
艮艮	-11.1131
先甲後甲	-11.1131
兩畫	-11.1133
萬有一千五百二十	-11.1133
枝葉	-11.1134
朴	-11.1134
喙	-11.1135
茫	-11.1135
豈惟	-11.1135
腎	-11.1136
寢	-11.1136
明兩作	-11.1136
遯世	-11.1137
滛	-11.1137
多少	-11.114
各得其正	-11.1141
非其所	-11.115
所貴	-11.1156
能保其	-11.1158
順天命	-11.1161
旅之時	-11.1164
順承天	-11.1166
馮氏椅曰	-11.1167
无妄之災	-11.1169
不外乎	-11.1169
趨時	-11.117
六經	-11.1171
之源	-11.1171
不懼	-11.1173
也若以	-11.1175
君臣上下	-11.1176
拱	-11.1178
輯	-11.1179
求濟	-11.118
嚴君	-11.1182
津	-11.1183
射雉	-11.1185
沾	-11.1185
近君之位	-11.1189
致養	-11.1194
不快	-11.1198
䷾(	-11.1201
隂陽消長	-11.1206
以氣言	-11.121
非正也	-11.1211
太公	-11.1213
堅多心	-11.1216
利幽人之貞	-11.1218
大功	-11.1218
元者善之長	-11.122
潘氏曰	-11.122
不可為首	-11.1221
現	-11.1224
籍	-11.1225
無位	-11.1226
咨	-11.1227
聲色	-11.1228
以柔居尊	-11.1229
節制	-11.1237
十有八	-11.1244
亦未嘗	-11.1245
何所不	-11.1245
之故也	-11.1249
坤為牛	-11.1253
得名	-11.1254
敬義	-11.1255
小利有攸往	-11.1255
矍矍	-11.1259
上天下澤	-11.1266
砥	-11.1267
火炎上	-11.1268
欣	-11.1268
存乎其人	-11.1269
為成卦之主	-11.1269
筮之遇	-11.127
柔變剛	-11.1271
再索	-11.1273
所揜	-11.1273
分曉	-11.1276
在下卦之上	-11.128
著見	-11.1282
立法	-11.1283
蹇蹇	-11.1284
幸其	-11.1287
大亨貞	-11.1288
有渝	-11.1288
之功用	-11.1288
宫人	-11.1289
萬里	-11.129
聽訟	-11.1292
汲汲	-11.1294
得其宜	-11.1295
鼎實	-11.1295
二年	-11.1297
衆心	-11.1298
兌為口	-11.1298
此二句	-11.1301
用大牲	-11.1301
養聖賢	-11.1304
貞勝	-11.1305
百六十	-11.1307
進徳修業	-11.1308
尺蠖	-11.131
或躍	-11.1313
利用侵伐	-11.1313
謟	-11.1313
俊	-11.1314
㧞	-11.1315
到那	-11.1317
神妙	-11.1318
摶	-11.1321
中庸曰	-11.1324
解難	-11.1325
志得行	-11.1328
申言	-11.1329
順行	-11.1336
不利君子貞	-11.134
衢	-11.1347
千五百	-11.1348
畜君	-11.1351
故利有攸往	-11.1352
莫知其	-11.1352
和平	-11.1357
獵	-11.1357
咸其脢	-11.1357
夭	-11.136
艮兌	-11.1361
姚信	-11.1363
孚于嘉	-11.1364
上下之分	-11.1367
寘	-11.1368
閑有家	-11.1376
鄭作	-11.1376
互兑	-11.1381
之大用	-11.1385
隂柔不能	-11.1387
守常	-11.1388
四爻變	-11.1401
澤水	-11.1402
勲	-11.1402
豈知	-11.1402
仰觀	-11.1403
中行獨復	-11.1403
用缶	-11.1404
包容	-11.1406
田獲三品	-11.1406
誕	-11.1407
般	-11.1407
千六百	-11.1409
柔邪	-11.1412
卦爻之辭	-11.1415
為之也	-11.1415
欲進而	-11.1416
卦之才	-11.1417
形器	-11.1419
曲成	-11.142
以理言	-11.1421
涵養	-11.1422
千三百	-11.1425
元年	-11.1427
理財	-11.143
一定之	-11.1432
本㫖	-11.1433
䷣(	-11.1433
幹父	-11.1434
間斷	-11.1437
耜	-11.1442
蒙昧	-11.1443
裘	-11.1444
雙湖胡氏曰	-11.1444
朱子云	-11.1445
奴	-11.1448
輕進	-11.1449
溥	-11.145
幾望	-11.1451
冽	-11.1451
自否來	-11.1452
徽	-11.1453
夬決	-11.1453
誠齋曰	-11.1455
皇極	-11.1457
即次	-11.1463
臣民	-11.1466
要終	-11.1466
協力	-11.1469
配天地	-11.1471
孔明	-11.1471
二十九	-11.1474
剛中之才	-11.1477
苟能	-11.148
乾徳	-11.1482
育徳	-11.1483
禍亂	-11.149
城復于隍	-11.149
異同	-11.1493
儒者	-11.1499
得喪	-11.1502
六十四卦三百八十四爻	-11.1502
金夫	-11.1503
八卦相錯	-11.1511
文徳	-11.1521
麗澤	-11.1522
各當其	-11.1532
入于坎窞	-11.1542
咸其拇	-11.1544
右明爻義	-11.1546
輸	-11.1547
他爻	-11.1548
其宜也	-11.1548
昏暗	-11.1548
為隂所	-11.1554
言乎其	-11.1555
征則凶	-11.1557
再閏	-11.1558
合訂	-11.1561
利君子貞	-11.1562
所不及	-11.157
導之	-11.1573
先迷後得	-11.1574
天祐	-11.1578
需于血	-11.1582
黄鍾	-11.1583
吉之先見	-11.1583
㛰媾	-11.1585
天地設位	-11.1586
首出庶物	-11.1586
遑	-11.1591
藏往	-11.1593
卿大夫	-11.1594
乗馬班如	-11.1594
時勢	-11.1601
廣矣	-11.1603
易者象也	-11.1604
亢龍	-11.1615
觀彖	-11.1616
釋之曰	-11.1618
䷤(	-11.162
非其正	-11.1622
无疾	-11.1623
善道	-11.1623
來碩	-11.1624
攣如	-11.1625
萬物之生	-11.1625
南面	-11.163
逖	-11.1635
師出以律	-11.1635
倖	-11.1636
區	-11.1637
萬古	-11.1639
件	-11.1639
能如是	-11.1642
如水之	-11.1652
成器	-11.1656
惕厲	-11.1658
不家食	-11.1658
䷿(	-11.166
功名	-11.1665
相攻	-11.1666
艱險	-11.1674
漸歸妹	-11.1674
感而遂通	-11.1674
百年	-11.1676
其凶可知	-11.1677
成之者性	-11.1679
狥	-11.1684
所以无咎	-11.1686
巨	-11.1686
九五之君	-11.1687
或擊之	-11.1687
技	-11.1688
滅鼻	-11.1688
不足以盡	-11.1693
為鬼	-11.1694
將去	-11.1698
夏商	-11.1701
為少隂	-11.1702
來氏	-11.1709
吕氏	-11.1711
志未得	-11.1717
産	-11.1718
主器	-11.1718
所向	-11.1724
耽	-11.1725
六五柔中	-11.1726
偹	-11.1727
顛頥	-11.1729
匪其彭	-11.173
壁	-11.1735
孟喜	-11.1737
莫先	-11.1738
得正位	-11.1738
檢	-11.1738
以剛居上	-11.174
一旦	-11.1741
大㫖	-11.1741
見龍	-11.1743
㬊淵録	-11.1743
最難	-11.1749
三狐	-11.1753
終不可用	-11.1763
威武	-11.1764
君民	-11.1766
所由生	-11.1767
峯	-11.1772
吉凶與民同患	-11.1772
見於外	-11.1772
劣	-11.1774
班如	-11.1774
故占者	-11.1776
仁義禮智	-11.1777
崇德	-11.1778
効	-11.1778
敬以直内	-11.1778
戒備	-11.1778
晳	-11.178
震來虩虩	-11.1783
史巫	-11.1784
恒亨无咎利貞	-11.1794
治道	-11.1794
之所及	-11.1796
爻之變	-11.1798
始凝	-11.1801
故吉也	-11.1803
復姤	-11.1815
京氏	-11.1818
同人于郊	-11.1818
孚號	-11.182
免于	-11.1824
吉也象曰	-11.1826
羸豕	-11.1826
失實	-11.1827
楷	-11.1829
亨飪	-11.183
恒乆	-11.1832
勿疑	-11.1842
䷽	-11.185
齊家	-11.1852
能乆	-11.1861
僅能	-11.1861
揚于王庭	-11.1862
省方	-11.1863
漸長	-11.1866
躁進	-11.1868
趙汝楳	-11.1869
重坎	-11.187
易之門	-11.187
大哉乾元	-11.1871
利用安身	-11.1871
滅頂	-11.1872
窮之災	-11.1873
幣	-11.1875
沮	-11.1875
邅	-11.1876
往來井井	-11.1876
不得其正	-11.1877
无偏	-11.1879
甘臨	-11.1879
良馬逐	-11.188
出乎險	-11.1881
震㢲	-11.1887
勉强	-11.1888
首章	-11.1888
善之長	-11.189
地理	-11.1891
所餘	-11.1892
蘇子瞻曰	-11.1895
以中正之道	-11.1897
䷾	-11.19
不達	-11.1901
雷聲	-11.1908
一個	-11.1913
需有孚光亨貞吉	-11.1914
不貳	-11.1915
柝	-11.1916
以卦才言	-11.1917
湖	-11.1918
負且乘	-11.192
春夏秋冬	-11.1923
卦之所以為	-11.1924
東坡	-11.1925
弗克違	-11.1926
詩書	-11.1929
逐爻	-11.193
將盡	-11.193
假廟	-11.1931
取象于	-11.1943
兑口	-11.1947
又從而	-11.195
貞而吉	-11.1955
別	-11.1957
祝	-11.1966
冨	-11.1967
綂	-11.1967
分而為二	-11.1971
冶	-11.1971
不息之貞	-11.1972
尅	-11.1973
天下國家	-11.1978
不相悖	-11.1981
大車	-11.1981
享上帝	-11.1981
天地之大	-11.1993
不足以濟	-11.2001
雲雨	-11.2005
保合太和	-11.2006
革命	-11.2007
剛陽中正	-11.2007
朞	-11.2013
芒	-11.2014
裕父之蠱	-11.2016
葛藟	-11.2016
弧矢	-11.2019
行健	-11.2019
咸感也	-11.202
大人虎變	-11.202
饑	-11.2022
之全體	-11.2022
隂陽相應	-11.2022
片	-11.2022
鑑	-11.2023
天地自然之	-11.2025
未有能	-11.2025
否臧	-11.2033
常存	-11.2034
朋黨	-11.2035
下震上	-11.2039
某卦	-11.2048
飛龍	-11.2051
隂類	-11.2054
艮其輔	-11.2059
四千九十六	-11.206
入于幽谷	-11.2061
折其右肱	-11.2061
居天位	-11.2062
聞言不信	-11.2064
離為戈兵	-11.2066
碩果不食	-11.2067
知至至之	-11.207
澤中有火	-11.2071
四與五	-11.2072
有所疑	-11.2078
王肅本	-11.2079
四十五	-11.2079
六三隂柔	-11.2081
餘論	-11.2082
轉移	-11.2083
劉氏	-11.2086
擊蒙	-11.2087
裁成	-11.2088
當是時	-11.2091
皤如	-11.2092
以下皆	-11.2093
圍三	-11.2094
䷡	-11.2095
君子之光	-11.2099
小過之時	-11.2099
得其吉	-11.2104
何校滅耳	-11.2105
甚微	-11.2107
乾剛坤柔	-11.2111
無他	-11.2113
孚乃利用禴	-11.2114
禾	-11.2116
自强不息	-11.2116
睿	-11.2116
鈞	-11.2117
毛伯玉曰	-11.2117
包犧氏	-11.2117
受畜	-11.2117
揭	-11.2118
退避	-11.2118
蚤	-11.2118
則无以	-11.2122
先生云	-11.2126
振民	-11.2134
不咥人	-11.2137
在地上	-11.2143
浸而長	-11.2146
䷛	-11.2147
徐徐	-11.2153
金車	-11.2154
杵	-11.2157
選	-11.2159
柔以時升	-11.2161
桀	-11.2161
揚雄	-11.2161
與之同	-11.2164
大明終始	-11.2166
二女同居	-11.2166
攘	-11.2167
明吉凶	-11.2168
胷	-11.2168
碩果	-11.2169
紛紛	-11.217
善鳴	-11.2176
石經	-11.218
山林	-11.2183
不曽	-11.2184
濟時	-11.2187
終訟	-11.2187
興師	-11.2191
天下之志	-11.2192
坎為耳	-11.2194
其大者	-11.2194
朶頥	-11.2208
孔仲達曰	-11.2209
自天祐之	-11.2209
耒	-11.2209
臼	-11.221
僖	-11.2211
精義入神	-11.2211
无喪无得	-11.2213
巽以行權	-11.2214
郭璞	-11.2216
宗廟社稷	-11.2217
伺	-11.2217
鐘	-11.2217
䧟於	-11.2217
揖	-11.2217
匕鬯	-11.2221
開物	-11.2226
既極	-11.2236
天下平	-11.2237
修德	-11.2237
不免于	-11.2239
私心	-11.2247
啓蒙	-11.2249
立心勿恒	-11.2251
專指	-11.2254
無疆	-11.2256
順逆	-11.2256
天下雷行	-11.2257
進齋徐氏曰	-11.2258
易之用	-11.2261
灾	-11.2261
藉用白茅	-11.2262
渾淪	-11.2262
庖犧	-11.2263
噬膚滅鼻	-11.2264
維心亨	-11.2264
滅耳	-11.2267
後庚三日	-11.2269
可信	-11.2277
能如是則	-11.2282
深戒	-11.2288
蘇氏	-11.2289
理勢	-11.2293
千古	-11.23
孔頴達	-11.2306
逺取諸物	-11.2309
入于左腹	-11.2309
武帝	-11.2309
柔來文剛	-11.2311
培	-11.2312
其心不快	-11.2312
吉孰大焉	-11.2314
雖旬无咎	-11.2315
以正邦也	-11.2316
遷善改過	-11.2317
微顯	-11.2323
凡此皆	-11.2326
修省	-11.2332
為君子謀	-11.2333
籌	-11.2333
其象如此	-11.2337
相綜	-11.2338
上與三	-11.2342
不妨	-11.2342
其道上行	-11.2346
馮河	-11.2347
日昃	-11.2352
不可犯	-11.2357
戰乎乾	-11.2359
吳澄	-11.2359
君子道長	-11.2364
鄧	-11.2367
状	-11.2367
藝	-11.237
第七	-11.237
支離	-11.2377
底道理	-11.2379
不失中	-11.2382
不堪	-11.2383
二十一	-11.2386
故皆曰	-11.2394
善端	-11.2399
一篇	-11.2403
太王	-11.2407
原始	-11.2408
章美	-11.2409
揲蓍求卦	-11.2411
妖	-11.2412
山下有澤	-11.2416
區區	-11.2417
八卦成列	-11.2418
童䝉	-11.2419
疊	-11.242
雷在地中	-11.242
莫大于	-11.2422
餘數	-11.2426
正而固	-11.2433
沙隨	-11.2433
升階	-11.2434
可羞吝	-11.2439
前章	-11.244
吉㓙	-11.2444
大傳曰	-11.2444
羲文	-11.2445
易之書	-11.2453
植物	-11.2453
六十卦	-11.2453
洊雷	-11.2454
者能之	-11.2454
觀其生	-11.2456
離為雉	-11.2461
王假之	-11.2462
知通塞	-11.2463
小人道長	-11.2465
再變	-11.2465
折足	-11.2465
參天兩地	-11.2467
赫	-11.2468
熾	-11.2468
剝復	-11.2473
无血	-11.2482
兩間	-11.2487
甞	-11.249
箕	-11.2501
任事	-11.2504
不有其	-11.2508
宻雲不雨	-11.2514
窞	-11.2515
形而上者	-11.2515
闡幽	-11.2518
冲	-11.2518
伏戎于莽	-11.2519
獨立不懼	-11.252
失得勿恤	-11.252
各止其所	-11.2521
天與火	-11.2525
止而止	-11.2527
豈特	-11.2528
兑澤	-11.2529
乗馬	-11.2533
罔孚	-11.2536
推行	-11.254
安危	-11.2542
可保	-11.2542
改革	-11.2543
震驚	-11.2544
足以致	-11.2544
䷣	-11.255
成既濟	-11.2551
質素	-11.2554
太子	-11.2558
居隂位	-11.2559
馮氏曰	-11.2559
聚散	-11.256
三十二卦	-11.256
剛長乃終	-11.256
所執	-11.2562
淮	-11.2565
幕	-11.2566
淆	-11.2568
孔穎達	-11.2568
衍文	-11.257
君臣父子	-11.2574
大善而吉	-11.2575
巽為命	-11.2576
唐虞	-11.2576
事之幹	-11.258
興起	-11.2581
劉氏曰	-11.2584
荀氏	-11.2585
若濡	-11.2591
包含	-11.2592
養而不窮	-11.2592
庶人	-11.2592
積累	-11.2598
固執	-11.2603
十八變	-11.2616
竊意	-11.2616
軸	-11.2617
于是乎	-11.2617
包有魚	-11.2618
嫉	-11.2619
其亡其亡	-11.2619
戔戔	-11.262
類族辨物	-11.262
猷	-11.2621
亷	-11.2623
仁傑	-11.2625
口實	-11.2626
根本	-11.2628
天行健	-11.2629
震為行	-11.2634
位正當	-11.2639
用譽	-11.2642
中正之君	-11.2649
一隂生	-11.2651
立誠	-11.2668
鬼神之情狀	-11.2668
无咎无譽	-11.2669
闔户	-11.267
不可久	-11.2671
觀變玩占	-11.2672
態	-11.2674
盱豫	-11.2675
不恒其徳	-11.2675
巡	-11.2675
佳	-11.2675
不失正	-11.2687
大吉无咎	-11.2691
禮記	-11.2693
剛中之德	-11.2693
肱	-11.2693
能通天下之志	-11.2704
王庭	-11.2711
第八章	-11.2716
㦲	-11.272
吹	-11.2721
廣漢張氏曰	-11.2722
仲氏易	-11.2723
用晦而明	-11.2723
井谷射鮒	-11.2724
誦	-11.2724
歉	-11.2725
淮南	-11.2727
諛	-11.2727
黜	-11.2728
大得志	-11.2729
震來厲	-11.273
剛而能柔	-11.273
諒	-11.2731
一㸃	-11.2735
如日之	-11.2735
浚恒	-11.2736
有飛鳥之象	-11.2736
要其終	-11.274
共成	-11.2744
志在内	-11.2756
蹇解	-11.2757
䷵	-11.276
憂恤	-11.276
七爻	-11.2761
教民	-11.2762
䷔	-11.2763
澗	-11.2764
上臨下	-11.2768
朱紱方來	-11.2773
閣	-11.2774
開國承家	-11.2774
賀孫	-11.2775
自昭	-11.2775
陽大隂小	-11.2776
梅	-11.2777
珍	-11.2779
肩	-11.2782
頤養	-11.2788
理之常也	-11.2789
相助	-11.2794
蓍䇿	-11.2802
一三五	-11.2804
指間	-11.2809
同人大有	-11.281
䷿	-11.2813
剛柔相推而生變化	-11.2818
鞏	-11.2819
告自邑不利即戎	-11.282
隂從陽	-11.2821
趙氏曰	-11.2822
革言三就	-11.2825
雌	-11.2829
築	-11.283
庵	-11.2832
天地之情	-11.2832
八月有凶	-11.2833
以貴下賤	-11.2833
循理	-11.2837
同人于野亨	-11.284
有咎矣	-11.2844
任賢	-11.2848
克己	-11.2853
易緯	-11.2858
全身	-11.2866
无往不	-11.2869
同徳相	-11.2871
侯果曰	-11.2873
柴	-11.2876
倚數	-11.2877
乾道成男坤道成女	-11.2877
子克家	-11.2882
東北喪朋	-11.2884
縫	-11.2885
右明象占	-11.2885
二隂之間	-11.289
失之矣	-11.2891
二陽之下	-11.2897
邑國	-11.29
二隂之中	-11.2905
君子觀象	-11.2914
艮兑	-11.2917
䷤	-11.2918
三四五互	-11.2922
傑	-11.2925
男子	-11.2926
天下之賢	-11.2928
夷主	-11.2929
食舊徳	-11.293
洌	-11.2932
分隂分陽	-11.2933
過甚	-11.2933
利用祭祀	-11.2937
再扐而後掛	-11.2937
須臾	-11.2937
晋	-11.2937
進德修業	-11.2938
日昃之離	-11.2938
張氏曰	-11.2943
孚于剥	-11.2943
兩儀生四象	-11.2951
奇偶	-11.2955
䷼	-11.2974
近世	-11.2976
荀子	-11.2978
剡	-11.298
動以天	-11.2982
渠	-11.2985
震為動	-11.2985
刪	-11.2987
邑人不誡	-11.2987
瑞	-11.2987
折獄致刑	-11.2988
蝕	-11.2988
各異	-11.2989
自上祐	-11.2989
閉闗	-11.299
匕	-11.299
竅	-11.2991
敏	-11.2991
窒塞	-11.2994
錫命	-11.2994
東萊	-11.2995
以柔居中	-11.2995
剛柔始交	-11.2997
有小大	-11.2998
順而止之	-11.3006
否塞	-11.301
萬殊	-11.301
詳審	-11.301
四象生八卦	-11.3015
才力	-11.3017
上坎下	-11.3018
所蔽	-11.3025
徑一	-11.3026
䷌	-11.3027
王昭素	-11.3039
艮之止	-11.3039
厥孚交如	-11.304
隆山李氏曰	-11.3041
替	-11.3042
无所不至	-11.3043
晨	-11.3043
風行地上	-11.3044
李季辨曰	-11.3045
俞	-11.3046
萬物化生	-11.3051
陷於險	-11.3057
虎尾	-11.3058
出征	-11.3073
質柔	-11.3073
垂象	-11.3073
安其身	-11.3074
聖學	-11.3084
柔遇剛	-11.3087
莭	-11.3088
易有聖人之道四焉	-11.309
喪羊于易	-11.3092
參天兩地而倚數	-11.3094
大車以載	-11.3095
山下有火	-11.3097
頤大過	-11.3097
二以剛中	-11.3097
多懼之地	-11.31
錮	-11.31
雲峯	-11.3101
屬乎	-11.3102
赦過宥罪	-11.3102
无妄之疾	-11.3103
子午	-11.311
獨不言	-11.3111
雜卦傳	-11.3119
初九之剛	-11.3122
聖人則之	-11.3124
間隔	-11.3133
悶	-11.3136
薫	-11.3137
事之始	-11.3138
僴	-11.3141
在這裏	-11.3141
釡	-11.3148
勿逐七日得	-11.3152
草廬	-11.3154
頽	-11.3154
苐	-11.3157
愛惡	-11.3157
一奇	-11.3158
中古	-11.316
大禹	-11.316
夬履	-11.3165
師保	-11.317
其孰能	-11.3174
一握	-11.3178
通達	-11.3186
形質	-11.3191
雙湖	-11.3198
涣	-11.3198
眇能視	-11.3199
故乾乾因其時而惕雖危无咎矣	-11.32
一竒一偶	-11.3201
以隂柔處	-11.3201
明動相資	-11.3202
劑	-11.3204
知終終之	-11.3205
掘	-11.3205
不出門庭	-11.3206
郭子和曰	-11.3207
揲蓍之法	-11.321
左股	-11.3214
知阻	-11.3214
豈徒	-11.3218
以其彚	-11.3219
典要	-11.3221
傾覆	-11.3221
這般	-11.3224
宣王	-11.3224
義曰夫	-11.3231
河洛	-11.3231
在地中	-11.3242
或從王事	-11.3249
牽引	-11.3252
豐其蔀	-11.3255
它卦	-11.3255
行地无疆	-11.3257
聖人之情見乎辭	-11.3257
雀	-11.3259
雷風相薄	-11.3259
飢	-11.326
蹙	-11.326
竇	-11.326
變動不居	-11.3261
一百九十二	-11.3262
下觀而化	-11.3264
東鄰	-11.3265
曷之用二簋可用享	-11.3267
卑以自牧	-11.3268
互兊	-11.3271
讀書	-11.3273
帥師	-11.3276
滅趾	-11.3279
一隅	-11.3285
虎變	-11.3287
臨川	-11.3297
各安其	-11.3297
坎為月	-11.3297
羣小	-11.3302
天在山中	-11.3303
這便是	-11.3307
善俗	-11.3307
複	-11.3309
何待	-11.3312
出自穴	-11.3312
初筮告	-11.3313
近而不相得	-11.3314
脩身	-11.3316
宴樂	-11.3316
披	-11.3316
灰	-11.3317
木上有火	-11.3317
盤桓	-11.3321
十有八變	-11.3323
乾之健	-11.3328
推移	-11.3334
蔚	-11.3337
幽贊	-11.3337
二與初	-11.3341
剛陽之才	-11.3344
合為一	-11.3346
不失其時	-11.3352
動植	-11.3359
歸而逋	-11.3364
震遂泥	-11.3365
夬履貞厲	-11.3366
何以知	-11.3366
所自來	-11.3369
二隂之下	-11.337
不遐遺	-11.3371
毫釐	-11.3372
安溪李氏	-11.3373
徽纆	-11.3374
聖人之情	-11.3374
公孫	-11.3376
屨	-11.3376
因循	-11.3377
隘	-11.3377
子貢	-11.3387
所恃	-11.3395
需待	-11.3403
不可移	-11.3407
滿盈	-11.3408
陽為隂	-11.3412
盡其道	-11.3414
養天下	-11.3418
同人于野	-11.3421
据	-11.3426
羸其瓶	-11.3427
汎	-11.3427
系	-11.3432
須待	-11.3433
士君子	-11.3437
絶句	-11.3444
譽命	-11.3449
文蔚	-11.3457
幹事	-11.3463
䷘	-11.3468
碩大	-11.3468
䷍	-11.3469
腰	-11.3472
介如石	-11.3473
剛暴	-11.3479
晝日三接	-11.3479
徂	-11.348
聦	-11.3481
王假有家	-11.3481
扶陽抑隂	-11.3483
倘	-11.3485
所當止	-11.3486
坡	-11.3488
乾道變化	-11.3489
隂暗	-11.3491
夷狄	-11.3491
防閑	-11.3492
包括	-11.3495
用馮河	-11.3508
孔孟	-11.351
惕號	-11.3515
政教	-11.3521
二陽之上	-11.3529
多識前言往行	-11.353
枉道	-11.3531
游魂	-11.3531
拾	-11.3534
誠齋楊氏曰	-11.3535
瑗	-11.3535
妥	-11.3536
羡	-11.3537
膺	-11.3537
珠	-11.354
飛鳥以凶	-11.3541
廣平游氏曰	-11.3541
比之匪人	-11.3542
天施地生	-11.3542
雲峰	-11.3543
㧞茅	-11.3545
上下二體	-11.355
美在其中	-11.3554
趨吉	-11.3556
有剛中之徳	-11.3558
徳之盛	-11.3561
庶物	-11.3565
容保	-11.3574
戒慎	-11.3583
胸中	-11.3583
篆	-11.3585
小往大來	-11.3586
株	-11.3589
亞	-11.359
紱	-11.3591
履虎尾不咥人亨	-11.3592
得黄金	-11.3594
風自火出	-11.3595
恐懼修省	-11.3595
稼穡	-11.3596
諱	-11.3596
剖	-11.3596
上火下澤	-11.3597
聰不明	-11.3597
承筐	-11.3597
霍	-11.3598
鷄	-11.3598
狎	-11.36
為四所	-11.3604
牽羊	-11.3609
二三四互	-11.3611
伏戎	-11.3623
窮則變	-11.3625
比干	-11.3637
受刑	-11.3642
兊為澤	-11.3644
量力	-11.3644
冒天下之道	-11.3646
困于石	-11.3649
曵其輪	-11.3649
凛	-11.365
久於其道	-11.3653
奠	-11.3653
宇宙	-11.3653
只是這	-11.3655
田有禽	-11.3656
飲食衎衎	-11.3657
蠧	-11.3659
聖人用易	-11.3659
取女吉	-11.3661
撥亂	-11.3661
錯雜	-11.3663
為一卦之主	-11.3665
旡咎	-11.3672
聽命	-11.3674
語錄	-11.3682
安其位	-11.3686
河圖之數	-11.3698
疵	-11.3701
旁行	-11.3701
餙	-11.3704
沈守約曰	-11.3706
張紫巖曰	-11.3707
其欲逐逐	-11.3707
節齋蔡氏曰	-11.3707
征邑國	-11.3708
核	-11.371
㓕	-11.371
天地設位而易行乎其中	-11.3711
禘	-11.3711
莫大焉	-11.3711
施未行	-11.3712
瞿	-11.3713
多白眼	-11.3713
宋衷	-11.3714
在坎中	-11.3714
上應九五	-11.3716
萬化	-11.3717
交相愛	-11.3719
歐陽	-11.3721
永終	-11.3724
柔得尊位	-11.3731
伐邑	-11.3732
季氏	-11.3741
威儀	-11.3746
得金矢	-11.3748
蔡虚齋曰	-11.3757
峰	-11.3763
頌	-11.3763
恰	-11.3764
羔	-11.3764
柔來而文剛	-11.3764
臯陶	-11.3766
閭	-11.3768
勞民勸相	-11.3769
知大始	-11.377
感人心	-11.377
啞啞	-11.3771
閑邪	-11.3772
龔氏曰	-11.3772
勵	-11.3773
耋	-11.3775
突如	-11.3775
斬	-11.3776
坎不盈	-11.3779
先天八卦	-11.378
肥遯	-11.3789
經營	-11.3791
文明之主	-11.3805
䷙	-11.3813
䷈	-11.3813
髙而无民	-11.3816
六五之吉有慶也	-11.3817
弗過遇之	-11.3819
九家易	-11.3821
髙祖	-11.3821
項安世	-11.3824
撃	-11.3824
以六居五	-11.3826
窟	-11.3826
舍車而徒	-11.3827
荀作	-11.3828
羣陰	-11.3829
陛	-11.3829
過旬災	-11.3829
龍馬	-11.383
弓矢	-11.3831
爐	-11.3831
勅	-11.3832
苖	-11.3833
順天應人	-11.3834
衆之所	-11.3838
匪躬	-11.3841
本乎天	-11.3852
亦猶是也	-11.386
歸奇	-11.3862
尊嚴	-11.3871
羞吝	-11.3878
園	-11.388
孤立	-11.3881
止而不進	-11.3881
泯	-11.3882
嘉之㑹	-11.3883
公用射隼	-11.3885
岳	-11.3887
蠻	-11.3888
虎豹	-11.3889
佛	-11.389
樸	-11.3891
恰好	-11.3891
紀綱	-11.3894
其勢必	-11.3908
馮氏	-11.3914
不可以有為	-11.3917
警戒	-11.3924
乾胏	-11.3931
第九章	-11.3937
不俟終日	-11.394
齎咨涕洟	-11.3941
錫馬蕃庶	-11.3942
艮其趾	-11.3942
怙	-11.3943
睦	-11.3946
睹	-11.3946
上應六五	-11.3947
羣疑	-11.3947
醉	-11.3948
有孚在道	-11.3949
喪貝	-11.395
上承九五	-11.396
安其居	-11.396
子産	-11.3966
後笑	-11.3973
圍四	-11.398
學士	-11.3993
不永所事	-11.3993
百一十	-11.3994
剛柔正而位當	-11.3994
毛竒齡	-11.3994
不宜上宜下	-11.3996
樂天知命	-11.3996
未光大也	-11.3997
天地之數五十有五	-11.3998
郭白雲曰	-11.3999
養賢以及萬民	-11.3999
先甲三日	-11.4
熈	-11.4001
乾天也	-11.4001
順而麗乎大明	-11.4001
匪冦婚媾	-11.4003
幹母之蠱	-11.4004
以九居四	-11.4004
焚其次	-11.4005
其吉可知	-11.4009
有所徃	-11.401
織	-11.4011
吉且无咎	-11.4012
羣賢	-11.4019
何也蓋	-11.4024
歸魂	-11.4028
不可咎	-11.4039
筮法	-11.4053
雲行雨施品物流形	-11.4055
媾	-11.4057
本又作	-11.4059
頰	-11.4059
障蔽	-11.4061
拘係之	-11.4061
遊魂	-11.4061
黔	-11.4062
緝	-11.4062
儲	-11.4063
謗	-11.4065
變而通之	-11.4065
韜	-11.4068
樽酒簋貳	-11.4068
諌	-11.407
江河	-11.4072
觸類	-11.4088
竊按	-11.409
雷風相與	-11.4105
原始要終	-11.4115
得遂其	-11.4117
嗛	-11.4117
龍戰于野	-11.4118
宻雲不雨自我西郊	-11.4119
二陽在上	-11.4119
後甲三日	-11.4119
昩	-11.4119
貞吉升階	-11.4121
栁	-11.4121
斁	-11.4121
㪚	-11.4123
大有元亨	-11.4124
駭	-11.4125
日月寒暑	-11.4125
邪媚	-11.4138
九五剛健中正	-11.4139
太極圖	-11.4161
宜日中	-11.4164
一件	-11.4173
課	-11.4174
既濟亨小	-11.4175
郤	-11.418
克己復禮	-11.418
罟	-11.4182
衰世之意	-11.4182
馭	-11.4183
為大赤	-11.4183
十干	-11.4183
禦宼	-11.4185
頤中有物	-11.4185
夫征不復	-11.4186
爰	-11.4187
卧	-11.4189
毛氏	-11.4196
嘉㑹	-11.4199
些子	-11.42
井甃	-11.4209
昭公	-11.4221
甲乙	-11.4224
覿	-11.4224
中正相應	-11.4224
成言乎艮	-11.4232
見乎外	-11.4234
尋常	-11.4235
旺	-11.4236
朝夕	-11.4236
道濟天下	-11.4237
即鹿	-11.4239
脆	-11.4241
梏	-11.4243
幽明之故	-11.4244
昆	-11.4244
覆公餗	-11.4246
剭	-11.4247
牆	-11.425
以陽居剛	-11.425
不家食吉	-11.425
左腹	-11.4256
剛浸而長	-11.4265
與五同	-11.4265
致宼	-11.4269
九五陽剛中正	-11.4272
道已成	-11.4282
欲上進	-11.4284
三百八十四	-11.4284
來居二	-11.4286
逼近	-11.4289
朱子語類云	-11.4295
十年勿用	-11.4301
噬乾肉	-11.4301
屨校	-11.4302
以隂變陽為	-11.4302
勿幕	-11.4304
賁其趾	-11.4304
不惡而嚴	-11.4305
綆	-11.4306
舜禹	-11.4306
黄離元吉	-11.4306
晦菴	-11.4307
有言不信	-11.4308
千里之外	-11.4308
烝	-11.4308
神道設教	-11.4309
婦孕不育	-11.4309
自然而然	-11.4317
假借	-11.4318
悔咎	-11.4325
皤	-11.4327
粒	-11.436
矯輮	-11.4361
萌芽	-11.4362
君子夬夬	-11.4363
萑葦	-11.4364
雷在天上	-11.4365
䕶	-11.4366
覬	-11.4369
大君之宜	-11.4371
白茅	-11.4373
中以為實	-11.4374
萃有位	-11.4377
震為長子	-11.4378
多眚	-11.4391
醇	-11.4398
錯簡	-11.4399
藴畜	-11.4409
重剛不中	-11.442
孰能與於此	-11.4421
逐逐	-11.4423
未之或知	-11.4426
斟酌	-11.4426
慰	-11.4426
賁其須	-11.4427
或承之羞	-11.4429
姪	-11.4429
既雨既處	-11.4431
淡	-11.4432
憧憧徃來	-11.4432
㕘	-11.4432
莫不皆然	-11.4434
掃	-11.4437
筭	-11.4444
號呼	-11.4446
相續	-11.4451
莫敢	-11.447
童牛之牿	-11.4479
二十四氣	-11.448
據于蒺藜	-11.4481
從或戕之	-11.4482
自二至五	-11.4482
研諸慮	-11.4486
束帛戔戔	-11.4486
滔	-11.4488
搏	-11.4488
履帝位	-11.4488
袽	-11.4489
轍	-11.449
儼	-11.449
王童溪曰	-11.449
坤為土	-11.449
𦂳	-11.449
附㑹	-11.449
液	-11.449
合而言之	-11.4491
隤然	-11.4492
碎	-11.4494
三日不食	-11.4494
朱子語問	-11.4496
禦㓂	-11.4496
天下何思何慮	-11.45
宴息	-11.45
徃有功	-11.4507
剛柔交錯	-11.4507
氣機	-11.4513
勞乎坎	-11.4543
弗遇過之	-11.4544
超然	-11.4548
一三五七九	-11.4549
干寳曰	-11.4549
終莫之陵	-11.4551
涕洟	-11.4552
綿	-11.4553
遡	-11.4553
否之匪人	-11.4553
億兆	-11.4554
坼	-11.4554
乖戾	-11.4555
同人于門	-11.4556
暴客	-11.4556
沿	-11.4557
鷙	-11.4557
殊塗	-11.4558
樽	-11.4559
噬嗑賁	-11.4561
道路	-11.4562
撰下經	-11.4562
陷溺	-11.4569
重濁	-11.4574
與二同	-11.4575
策數	-11.4588
庶民	-11.4588
項氏安世曰	-11.4605
日中見斗	-11.4609
行人得牛	-11.461
坦坦	-11.461
文王與紂之事	-11.4611
震為大塗	-11.4612
蟹	-11.4613
鵠	-11.4614
長子帥師	-11.4614
璧	-11.4622
校官	-11.4629
十朋	-11.4629
右肱	-11.4631
躁妄	-11.4634
萬事萬物	-11.4637
所居之位	-11.4647
訂詁曰	-11.4669
晁説之	-11.4669
八卦而小成	-11.467
公弋取彼在穴	-11.467
狼	-11.4676
義以方外	-11.4677
輔頰	-11.4677
慘	-11.4677
利有所往	-11.4678
河出圖洛出書聖人則之	-11.4679
兢兢	-11.4679
剛過而中	-11.4679
厥宗噬膚	-11.468
鼫䑕	-11.4683
許多道理	-11.4683
朱氏附録問	-11.4685
盤庚	-11.4685
肅殺	-11.4686
柔而得中	-11.4688
先天後天	-11.4692
曲折	-11.4696
剛健之才	-11.4704
汲引	-11.4709
終无尤	-11.4712
初與四應	-11.4712
天下和平	-11.4717
滅息	-11.4725
戒深矣	-11.4729
道之成	-11.4729
二百一十有六	-11.4735
天地生物之心	-11.4736
綱領	-11.4738
亡其悔	-11.4738
傍	-11.4739
埸	-11.4739
儘	-11.474
吸	-11.474
栗	-11.474
嬰	-11.4741
臯	-11.4742
芳	-11.4742
有孚顒若	-11.4745
陸費墀	-11.4746
孫士毅	-11.4746
綴	-11.4746
懲忿窒欲	-11.4748
乾為金	-11.4751
等謹案	-11.4753
宋儒	-11.4753
欽定四庫全書經部一	-11.4754
為大腹	-11.4757
來徐徐	-11.4758
為二所	-11.4763
物之始生	-11.4772
各得其宜	-11.4781
无過咎	-11.4789
􁀅	-11.4792
畜牝牛吉	-11.4792
始作八卦	-11.4799
升虚邑	-11.48
剛柔相易	-11.4801
竆	-11.4801
彩	-11.4804
兼三才而兩之	-11.4804
垂其翼	-11.4807
衡水孔氏曰	-11.4807
俟時	-11.4808
知進退存亡	-11.4808
哭	-11.481
乾隆四十	-11.4812
倣	-11.4813
板	-11.4815
上巽下	-11.4823
初應四	-11.4824
小篆	-11.4825
為上所	-11.483
奮發	-11.4847
謂之器	-11.4852
剛為柔	-11.4855
王三錫命	-11.4866
允升大吉	-11.4868
遞	-11.487
君子得輿	-11.487
三年克之	-11.4871
豐其蔀日中見斗	-11.4871
燦	-11.4872
一以貫之	-11.4873
級	-11.4874
昀	-11.4875
倦	-11.4876
参	-11.4878
不言而信	-11.4878
誰咎	-11.4882
往有尚	-11.4882
密雲	-11.4882
撰上經	-11.4883
象故明	-11.4896
順乎天	-11.4909
能止健	-11.4916
得其友	-11.492
高宗	-11.4922
行其庭	-11.4922
用此道	-11.4929
鼈	-11.4929
女正位乎内	-11.4931
風行水上	-11.4932
鉤	-11.4932
蘊	-11.4933
甕敝漏	-11.4934
後得主而有常	-11.4935
濯	-11.4935
應援	-11.4935
貞夫一	-11.4937
序卦傳曰	-11.4937
苛	-11.494
輙	-11.494
刋	-11.4941
厚下安宅	-11.4942
為心病	-11.4942
奇耦	-11.4948
終日戒	-11.497
十二年	-11.497
㝠升	-11.4971
呉氏	-11.4983
晉侯	-11.4993
椅	-11.4995
頥大過	-11.4996
合訂刪補大易集義粹言	-11.4996
蠃	-11.4997
二四六八十	-11.4997
剛上文柔	-11.4997
綽	-11.4999
羈	-11.5
壓	-11.5002
家人利女貞	-11.5002
詣	-11.5004
苴	-11.5007
凶可知矣	-11.5055
輝	-11.5058
故次之以	-11.5059
百四十有四	-11.506
輿說輹	-11.5061
立天之道曰隂與陽	-11.5061
剛自外來而為主於内	-11.5061
魁	-11.5062
黷	-11.5062
得臣无家	-11.5063
澤无水	-11.5064
輔頰舌	-11.5064
裹	-11.5065
坤至柔而動也剛	-11.5065
困于葛藟	-11.5065
咎不長	-11.5066
喜怒哀樂	-11.5066
杌	-11.5066
含萬物而化光	-11.5067
怯	-11.5069
以宫人寵	-11.507
跋	-11.507
覆餗	-11.5071
修辭立誠	-11.5071
至于八月有凶	-11.5073
月恭校上總纂	-11.5073
載鬼一車	-11.5075
得正而吉	-11.5085
繇辭	-11.5097
畜牝牛	-11.5102
所賴	-11.5111
朶	-11.5119
賢人在下位而无輔是以動而有悔也	-11.5123
黄牛之革	-11.5126
𤼵揮	-11.5129
堅多節	-11.5129
不戒以孚	-11.513
品物咸章	-11.5131
來之坎坎	-11.5131
舎車而徒	-11.5133
柔麗乎中正	-11.5133
參伍以變	-11.5134
生生不窮	-11.5134
朽	-11.5134
邪僻	-11.5138
巽離兊	-11.5138
畨	-11.514
迭運	-11.514
宛	-11.5141
至尊之位	-11.5141
幽谷	-11.5146
老氏	-11.515
剛決柔	-11.5155
不可踰	-11.5155
提要	-11.5157
坎為豕	-11.5161
陽並進	-11.5165
以卦徳言	-11.5169
箇物事	-11.5172
孚號有厲	-11.519
持盈	-11.5191
易簡而天下之理得	-11.5191
其於木也	-11.5192
月㡬望	-11.5192
初吉終亂	-11.5195
有孚發若	-11.5195
楊誠齋曰	-11.5196
莅	-11.5197
綏	-11.5199
山下出泉	-11.52
臻	-11.5201
絜	-11.5203
裒多益寡	-11.5203
為木果	-11.5204
僥倖	-11.5204
勃	-11.5204
偷	-11.5205
粲然	-11.5207
相親比	-11.5208
賔客	-11.521
三極之道	-11.5212
莫測	-11.5216
為主於内	-11.5217
邵氏	-11.5221
義之和	-11.5222
慮患	-11.523
煦按	-11.525
蓏	-11.5259
需于酒食	-11.526
欲及時	-11.5261
男正位乎外	-11.5262
圗書	-11.5262
吉凶悔吝生乎動	-11.5262
圈	-11.5265
箕子之明夷	-11.5265
眩	-11.5269
當萃之時	-11.527
縶	-11.5271
十五日	-11.5276
三四兩爻	-11.5277
以隂居柔	-11.528
庶㡬	-11.5282
維持	-11.5287
鳥飛	-11.5292
五與十	-11.53
彼此相	-11.5304
之意深矣	-11.531
示之以	-11.5316
剛柔皆應	-11.5325
斾	-11.5326
不拯其隨	-11.5328
蚌	-11.5328
乍	-11.5329
不可疾貞	-11.533
雷出地奮	-11.5331
壽	-11.5333
王用享于帝吉	-11.5333
何謂也曰	-11.5335
樽酒	-11.5337
馮當可曰	-11.5337
納約自牖	-11.5337
瑣	-11.5338
溫	-11.5338
柯	-11.5338
即鹿无虞	-11.5338
居下卦之中	-11.5345
形迹	-11.5347
斯時也	-11.5382
以大終	-11.5394
金矢	-11.5395
揮	-11.5397
隂陽不測之謂神	-11.5397
刖	-11.5398
戢	-11.5399
以象變言之	-11.5399
風行天上	-11.54
沖	-11.54
耑	-11.5401
詎	-11.5402
大人否亨	-11.5402
匱	-11.5404
巽坎艮坤	-11.5404
錯綜其數	-11.5406
罅	-11.5406
語黙	-11.5416
鼎有實	-11.5417
之所以亨也	-11.5424
夜半	-11.5424
發此義	-11.5453
可用汲	-11.5459
得位得中	-11.5462
感而遂通天下之故	-11.5465
辜	-11.5466
皿	-11.5467
信及豚魚	-11.5468
祈	-11.5468
柔皆順乎剛	-11.547
先庚後庚	-11.547
汨	-11.5471
陸希聲	-11.5471
縛	-11.5472
耿睎道曰	-11.5473
懲忿窒慾	-11.5473
賀	-11.5473
閔	-11.5475
未可遽	-11.5478
彚征	-11.5498
鄒	-11.5531
壤	-11.5532
説諸心	-11.5534
互換	-11.5534
夷于左股	-11.5535
告自邑	-11.5535
元亨而天下治	-11.5536
所自出	-11.5537
數往者順	-11.5538
地中生木	-11.5538
水火不相射	-11.5538
艾	-11.5538
以木巽火	-11.5539
涖	-11.5539
膝	-11.554
銷	-11.5541
悍	-11.5541
優游	-11.5542
騁	-11.5542
倐	-11.5545
初上二爻	-11.5552
用大牲吉	-11.5569
頻失	-11.5571
三嵗不覿	-11.5597
豶豕	-11.5601
刳	-11.5602
立象以盡意	-11.5602
五多功	-11.5603
成天下之務	-11.5603
之後受之以	-11.5608
咸其股	-11.561
何不利之有	-11.561
亭	-11.561
戒不虞	-11.5611
硬	-11.5612
樞機	-11.5613
滌	-11.5614
在山上	-11.5619
底物事	-11.5619
輕清	-11.5631
月之卦也	-11.5633
在下卦之中	-11.564
蓍策	-11.5646
下乾上	-11.5649
鄭注	-11.5655
兌為澤	-11.5659
何思何慮	-11.5669
恒不死	-11.5674
易逆數也	-11.5674
柔上而剛下	-11.5674
大衍之數五十其用四十有九	-11.5675
盡之矣	-11.5675
天三地四天五地六天七地八天九地十	-11.5676
德之盛	-11.5678
乾南坤北	-11.5678
得中而應乎剛	-11.568
巽乎水而上水	-11.5681
墳	-11.5684
䏻	-11.5685
豪傑	-11.5691
過揲之數	-11.5693
費氏	-11.5705
逸樂	-11.5707
生成萬物	-11.573
輿説輹	-11.574
聖人以此洗心	-11.5741
山下有險	-11.5745
坎為加憂	-11.5745
十年乃字	-11.5747
无思无為	-11.5747
是以自天祐之吉无不利	-11.5748
聖人有以見天下之賾	-11.5748
阨	-11.5748
羣龍无首	-11.5749
拾遺	-11.5749
楊廷秀曰	-11.5749
喪其資斧	-11.5752
誼	-11.5753
那裏	-11.5754
贄	-11.5755
酬	-11.5755
嶽	-11.5756
鏡	-11.5757
中心願	-11.5757
裴	-11.5761
未失道也	-11.5763
惕懼	-11.5771
神明其徳	-11.5771
下巽上	-11.5772
自此以下	-11.5785
順性命之理	-11.5787
九四以陽居隂	-11.5793
天道人事	-11.5798
南征吉	-11.5799
君臣之分	-11.5809
楫	-11.5813
緘	-11.5816
厎	-11.5817
引而伸之	-11.5817
賁于丘園	-11.5817
地中有水	-11.5821
麻	-11.5821
可與存義	-11.5821
不見其妻	-11.5821
不耕穫不菑畬	-11.5821
變化云為	-11.5823
朗	-11.5825
繪	-11.5825
儻	-11.5825
洋	-11.5826
規模	-11.5826
觀其所養	-11.5826
班固	-11.5846
翰林院	-11.5848
六十有四	-11.5849
傷財	-11.5854
兩儀四象八卦	-11.5871
泰小往大來吉亨	-11.588
不出户庭无咎	-11.5883
勿憂宜日中	-11.5885
壯于趾	-11.5886
趙氏	-11.5886
吳幼清	-11.5889
棺槨	-11.5889
正位居體	-11.5889
獨行遇雨	-11.589
杵臼	-11.589
雷以動之	-11.589
王用出征	-11.5891
藻	-11.5891
籠	-11.5891
慊	-11.5892
過其祖	-11.5892
羨	-11.5893
碍	-11.5893
彬	-11.5893
淹	-11.5894
理於義	-11.5894
遇元夫	-11.5895
神農氏	-11.5903
无往而不	-11.5906
幽暗	-11.5915
博厚	-11.5919
憂勤	-11.594
見幾而作	-11.5958
初登于天	-11.5958
來矣鮮曰	-11.596
陟	-11.5961
小狐汔濟	-11.5961
收歛	-11.5961
肢	-11.5962
鋒	-11.5963
免於咎	-11.5965
骸	-11.5967
弗克攻	-11.5975
郭雍	-11.5982
一隂始生	-11.5984
女之歸	-11.6005
牛掣	-11.6011
含𢎞	-11.6019
摩盪	-11.6023
煇	-11.6028
含𢎞光大	-11.6031
詘	-11.6031
狃	-11.6032
易有太極是生兩儀兩儀生四象四象生	-11.6032
遏惡揚善	-11.6033
聰明睿知	-11.6035
象其物宜	-11.6036
一剛一柔	-11.6037
羝羊觸藩羸其角	-11.6038
貞大人吉	-11.604
桎	-11.604
弔	-11.6042
占得此爻	-11.6046
强梗	-11.6052
隔絶	-11.6077
其義一也	-11.6083
膂	-11.6099
頥中有物	-11.6105
血去惕出	-11.6107
舅	-11.6108
嗇	-11.6108
六位時成	-11.6108
澤上有地	-11.6109
鱗	-11.6109
啻	-11.6112
鼓缶而歌	-11.6113
无敢折獄	-11.6114
未離乎	-11.6114
凍	-11.6115
查	-11.6117
垂翼	-11.6118
羞惡	-11.6123
利于貞	-11.6152
精氣為物	-11.6172
千八百	-11.6173
有以見天下之動而觀其㑹通以行其	-11.6176
震无咎者存乎悔	-11.6178
各從其類	-11.6179
姤遇也柔遇剛也	-11.6179
孰能與于此	-11.6179
位乎天位	-11.6179
乾以易知坤以簡能	-11.618
童溪王氏曰	-11.6182
孺	-11.6183
致命遂志	-11.6183
腐	-11.6184
近利市三倍	-11.6184
君子法之	-11.6187
戚嗟	-11.6188
户庭	-11.6191
履錯然	-11.6192
採	-11.6192
封建	-11.6192
連山歸藏	-11.6193
扐以象閏	-11.6199
不出戸庭	-11.6247
吕祖謙	-11.625
其唯聖人乎	-11.6252
戲	-11.6252
二女同居其志不同行	-11.6254
黄中通理	-11.6254
䋲	-11.6255
非禮弗履	-11.6255
其子和之	-11.6255
終止則亂	-11.6257
嘘	-11.6258
驩	-11.6258
繞	-11.626
厚徳載物	-11.626
行而未成	-11.6261
什	-11.6261
用大牲吉利有攸往	-11.6261
整齊	-11.6262
鐵	-11.6263
憾	-11.6265
豐其屋	-11.6321
變而通之以盡利	-11.6322
不利即戎	-11.6324
後入于地	-11.6326
藩決不羸	-11.6327
以隂柔之質	-11.6329
在師中吉	-11.6329
知來者逆	-11.6329
申命行事	-11.6333
揚子雲	-11.6334
主人有言	-11.6335
到這裏	-11.6336
官有渝	-11.6341
舛	-11.6342
俯仰	-11.6346
以辟咎	-11.6349
化裁	-11.6362
贊化育	-11.6368
郭氏雍曰	-11.6395
李氏舜臣曰	-11.6396
憂悔吝者存乎介	-11.6399
愚竊謂	-11.6399
趙復齋曰	-11.6401
徼	-11.6402
與天地準	-11.6403
耻	-11.6404
囿	-11.6405
凡益之道與時偕行	-11.6405
婦子嘻嘻	-11.6407
天一生水	-11.6407
敘	-11.6408
桀紂	-11.641
千九百	-11.6413
文明以止	-11.6413
本亦作	-11.6415
待時而動	-11.6417
卜筮之書	-11.642
化醇	-11.6436
朱先生	-11.6455
莫知所	-11.6465
大往小來	-11.6474
喚	-11.6476
兔	-11.6476
的顙	-11.6479
鳴鶴在隂其子和之我有好爵吾與爾靡	-11.6479
荑	-11.648
繫于苞桑	-11.6481
葬	-11.6481
旗	-11.6481
易而无備	-11.6482
父子兄弟夫婦	-11.6483
都聖與曰	-11.6484
彛	-11.6484
濶	-11.6484
大耋之嗟	-11.6487
蒲	-11.6491
者鮮矣	-11.6498
化育之功	-11.6542
千四百	-11.6545
豶豕之牙	-11.6548
艮其腓	-11.6551
剛來而得中	-11.6553
沱	-11.6554
有不善未嘗不知知之未嘗復行	-11.6554
神明而生蓍	-11.6556
需于郊	-11.6556
葦	-11.6556
初六藉用白茅无咎	-11.6556
逝	-11.6557
輿説輻	-11.6558
當期之日	-11.6558
大過顛也	-11.6558
数	-11.6558
大過之時大矣哉	-11.6559
其形渥	-11.656
耗	-11.656
閎	-11.6561
告公用圭	-11.6561
羸角	-11.6562
瀦	-11.6564
稱物平施	-11.6566
管仲	-11.6566
在上卦之下	-11.6566
罕	-11.6569
昭昭	-11.6598
无成有終	-11.6608
不易乎世	-11.6627
熇	-11.6627
繫之以辭	-11.6629
以九居五	-11.6631
行過乎恭	-11.6634
巽離兌	-11.6635
思過半矣	-11.6635
筴	-11.6635
坤道其順乎承天而時行	-11.6635
觀盥而不薦有孚顒若	-11.6636
往得疑疾	-11.6636
李去非曰	-11.6637
綱紀	-11.6637
之通例	-11.6639
蘭惠卿曰	-11.6639
大中至正	-11.6639
姤遇也	-11.664
進退不果	-11.6641
打	-11.6643
艮為少男	-11.6644
屯難之世	-11.6646
方以知	-11.6656
閑輿衛	-11.6702
復即命渝安貞	-11.6705
森	-11.6705
南軒張氏曰	-11.6705
物與无妄	-11.6706
大者壯也	-11.6707
立地之道曰柔與剛立人之道曰仁與義	-11.6708
歸妹以娣	-11.6708
成性存存道義之門	-11.6709
天下之動貞夫一者也	-11.671
濬	-11.671
殖	-11.671
得尚于中行	-11.6711
殻	-11.6712
惟變所適	-11.6712
刃	-11.6713
踵	-11.6714
修辭立其誠	-11.6714
東西南北	-11.6715
糾	-11.6715
焚巢	-11.6716
壺	-11.6716
女子貞不字十年乃字	-11.6717
地中有山	-11.6717
其用四十有九	-11.6717
員	-11.6718
彖象文言	-11.6718
肺	-11.6719
見險而能止	-11.6719
重複	-11.6725
草昧	-11.6729
為之防	-11.6756
豫利建侯行師	-11.678
乾道變化各正性命	-11.6782
俞石澗曰	-11.6785
範圍天地之化而不過	-11.6785
丕	-11.6786
水洊至	-11.6788
群	-11.6789
上无其應	-11.679
荘	-11.6792
隨元亨利貞无咎	-11.6793
明道先生曰	-11.6793
无物不	-11.6802
雨露	-11.6817
中正以觀天下	-11.6817
奈	-11.6827
罔罟	-11.6859
童溪曰	-11.6863
雲上於天	-11.6866
文明以止人文也	-11.6866
日中則昃	-11.6866
巽五坎六艮七坤八	-11.6866
過以相與	-11.6867
品物咸亨	-11.6867
无祗悔	-11.6868
勁	-11.6868
困于赤紱	-11.6868
水火相息	-11.6869
議獄緩死	-11.6869
言致一也	-11.687
填	-11.687
過此以往	-11.687
𨽻	-11.6871
不續終	-11.6872
其來復吉	-11.6873
䖏	-11.6874
不寧方來	-11.6875
軀	-11.6876
眷	-11.6876
究竟	-11.688
有是徳	-11.6881
荀九家有為	-11.6939
斷天下之疑	-11.6939
時止則止時行則行	-11.6939
悻	-11.694
品物流形	-11.6942
足以長人	-11.6943
愚又按	-11.6943
嘻	-11.6944
動而以順行	-11.6946
同人先號咷而後笑	-11.6946
乗木有功	-11.6948
諄諄	-11.6948
其悔乃亡	-11.6949
廖	-11.695
股肱	-11.695
喪過乎哀用過乎儉	-11.695
宦	-11.695
得黄矢	-11.6951
无平不陂无往不復	-11.6951
孜	-11.6951
版	-11.6952
艮其止	-11.6953
質卿曰	-11.6953
躐	-11.6955
明夷利艱貞	-11.6956
射隼	-11.6956
讎	-11.6957
程先生	-11.6957
反身修徳	-11.6959
荀九家	-11.6985
退藏於密	-11.7021
蘇軾	-11.7023
同聲相應	-11.7025
與時偕極	-11.7025
得其大首	-11.7026
十有八變而成卦	-11.7026
被其澤	-11.7027
飄	-11.7027
上无應援	-11.7027
廣大悉備	-11.7029
終以譽命	-11.7029
絮	-11.703
郭子儀	-11.703
當位以節中正以通	-11.703
不留獄	-11.703
館	-11.7031
寕	-11.7031
木道乃行	-11.7031
冊	-11.7032
雖正亦凶	-11.7032
見輿曳	-11.7033
鼎折足	-11.7038
不害其為	-11.704
漆	-11.704
可與幾	-11.7045
䰟	-11.7098
訖	-11.7104
施命誥四方	-11.7106
日往則月	-11.7106
入于穴	-11.7108
噬乾胏	-11.7108
嵩	-11.7108
閡	-11.7109
利者義之和	-11.7109
水在火上	-11.711
両	-11.711
搆	-11.7111
弟子輿尸	-11.7111
床	-11.7111
巍	-11.7111
居相應之地	-11.7113
☷	-11.7113
牝牡	-11.7116
揲之餘	-11.7116
七八九六之數	-11.7118
紛紜	-11.7118
鳳	-11.7118
列其夤	-11.718
吉凶以情遷	-11.7181
俞氏琰曰	-11.7183
敕	-11.7183
南蒯	-11.7184
豁	-11.7186
觀其所感而天地萬物之情可見矣	-11.7188
喪牛于易	-11.7188
殿	-11.719
讐	-11.7191
爪	-11.7192
匪寇婚媾	-11.7192
彭山曰	-11.7196
以六居三	-11.7198
祕	-11.7199
磐石	-11.7203
櫝	-11.7206
伏羲之易	-11.7232
其義不困窮矣	-11.7264
剛中而應行險而順	-11.7265
倪	-11.7265
觸類而長之	-11.7266
何氏楷曰	-11.7267
曲成萬物而不遺	-11.7267
旅小亨旅貞吉	-11.7268
陣	-11.7269
辨上下定民志	-11.7272
困而不失其所亨	-11.7272
偪	-11.7272
鴻漸于陸	-11.7272
餁	-11.7273
壹	-11.7274
咈	-11.7274
屯如邅如	-11.7274
知進而不知退	-11.7274
喬	-11.7276
一矢亡	-11.7276
媒	-11.7278
骨肉	-11.7279
艸	-11.7279
飛鳥遺之音不宜上宜下大吉	-11.7283
非為邪	-11.7283
无時不	-11.7284
□□	-11.7313
唯變所適	-11.7346
貴而无位	-11.7347
王申子	-11.7347
天地之大徳曰生	-11.7347
迥	-11.7348
頷	-11.7348
九五飛龍在天利見大人	-11.735
山下有雷	-11.735
二與四同功	-11.735
自邑告命	-11.735
茲	-11.7352
信以發志	-11.7352
中以行願	-11.7352
師貞丈人吉无咎	-11.7353
閫	-11.7353
穎	-11.7355
剛柔始交而難生	-11.7355
團	-11.7356
无平不陂	-11.7356
自上下下其道大光	-11.7357
屠	-11.7357
迂	-11.7357
莘	-11.736
寐	-11.736
出門交有功	-11.7361
虩	-11.7361
射鮒	-11.7362
勿用有攸徃	-11.7367
致逺以利天下	-11.743
遇其夷主	-11.7432
匪正有眚	-11.7432
乳	-11.7435
札	-11.7435
勑	-11.7436
自外来	-11.7436
三人行則損一人	-11.7438
昨	-11.7438
矛	-11.7439
羇旅	-11.7439
澤上有水	-11.7439
改邑不改井乃以剛中也	-11.7439
墻	-11.7439
鹽	-11.7439
恢	-11.744
君子攸行	-11.744
捕	-11.7441
勿用永貞	-11.7442
悞	-11.7442
擴	-11.7442
斜	-11.7444
震來虩虩恐致福也笑言啞啞後有則也	-11.7447
丞	-11.7448
執其隨	-11.7452
剛中之賢	-11.7498
鶴鳴	-11.7498
沫	-11.7511
用拯馬壯吉	-11.7514
順乎天而應乎人	-11.7521
噬嗑亨利用獄	-11.7522
内柔而外剛	-11.7522
趙汴水曰	-11.7522
慙	-11.7523
牽羊悔亡	-11.7524
飛鳥遺之音	-11.7524
蔡墨	-11.7524
孩	-11.7525
四時不忒	-11.7525
往蹇來譽	-11.7526
端倪	-11.7526
壑	-11.7526
恪	-11.7528
鬭	-11.7529
銘	-11.7532
訪	-11.7533
中且正	-11.7559
乾元用九天下治也	-11.7599
武人為于大君	-11.7601
後得主	-11.7601
彖者材也	-11.7603
山下有風	-11.7604
漸女歸吉利貞	-11.7605
潮	-11.7605
畀	-11.7605
八純卦	-11.7606
雷雨之動滿盈	-11.7607
顓	-11.7607
匝	-11.7607
敬慎不敗	-11.7607
井渫不食	-11.7607
妺	-11.7609
肌	-11.7611
奔走	-11.7611
用九見羣龍无首吉	-11.7612
蠶	-11.7612
醴	-11.7613
挈	-11.7614
臂	-11.7615
麽	-11.7618
假至也	-11.7618
踰越	-11.7628
太極生兩儀	-11.763
中未大	-11.7631
娣媵	-11.7686
柔上剛下	-11.7689
减	-11.7691
含章可貞	-11.7691
漿	-11.7691
王用亨于岐山	-11.7691
咸亨利貞取女吉	-11.7692
豐多故	-11.7693
邈	-11.7693
東北喪朋乃終有慶	-11.7693
蹶	-11.7694
巽而耳目聰明	-11.7694
閲	-11.7694
猥	-11.7694
唐太宗	-11.7694
我仇有疾	-11.7694
遇其妣	-11.7694
火性炎上	-11.7694
苦節不可貞	-11.7695
初二兩爻	-11.7695
躋于九陵	-11.7695
謙尊而光	-11.7696
芽	-11.7696
曵輪	-11.7696
以隂畜陽	-11.7696
往蹇來連	-11.7699
火珠林	-11.7701
自上下下	-11.7703
丙丁	-11.7703
首出庶物萬國咸寧	-11.777
大哉乾元萬物資始乃統天	-11.777
非所困而困	-11.7772
三百有六十	-11.7774
終而復始	-11.7775
汔至亦未繘井羸其瓶凶	-11.7775
寛以居之	-11.7776
轂	-11.7778
小過亨利貞可小事不可大事	-11.7779
離利貞亨畜牝牛吉	-11.7779
鼔舞	-11.7781
垣	-11.7782
有攸往夙吉	-11.7783
乞	-11.7783
攀	-11.7784
比之无首	-11.7785
蹟	-11.7785
麓	-11.7787
褒	-11.7787
蘇子瞻	-11.7807
以隂居尊	-11.7835
圓而神	-11.7839
晅	-11.7856
初辭擬之卒成之終	-11.7857
自下訟上	-11.7858
扺	-11.7861
䜴	-11.7861
王居无咎正位也	-11.7862
習坎有孚維心亨行有尚	-11.7863
比樂師憂	-11.7863
復亨剛反	-11.7864
宦官	-11.7865
齎咨	-11.7865
平庵項氏曰	-11.7866
脅	-11.7867
弭	-11.7867
冕	-11.7868
醒	-11.7868
觀其所聚而天地萬物之情可見矣	-11.7869
駟	-11.7869
石守道曰	-11.7869
馵足	-11.787
孰甚焉	-11.7871
王用亨	-11.7871
濵	-11.7872
墓	-11.7872
駸	-11.7873
樣	-11.7874
近而相得	-11.7874
五嵗再閏	-11.7878
掛之一	-11.7901
剛下柔	-11.7921
其血𤣥黄	-11.7949
胡雙湖曰	-11.795
剛中正履帝位而不疚光明也	-11.795
六二之吉順以則也	-11.7951
輟	-11.7951
何吉如之	-11.7951
叩	-11.7952
趨吉避凶	-11.7952
親寡旅也	-11.7952
乃亂乃萃	-11.7953
飯	-11.7953
乾知大始坤作成物	-11.7953
否終則傾	-11.7954
僧	-11.7954
安貞之吉應地无疆	-11.7955
節亨苦節不可貞	-11.7955
稿	-11.7956
諺	-11.7956
雷風山澤	-11.7956
剝牀以足	-11.7957
治厯明時	-11.7957
囂	-11.7958
天地定位山澤通氣	-11.7959
簮	-11.7959
水火木金	-11.7961
剛來而下柔	-11.7961
以六居二	-11.7961
棟撓	-11.7963
煩擾	-11.7963
崔憬	-11.7992
烜	-11.8034
小懲而大誡	-11.8034
剛上而尚賢	-11.8035
謙亨君子有終	-11.8036
利貞者性情也	-11.8037
怕	-11.8038
黙而成之不言而信	-11.8038
巽離兑	-11.8038
詮	-11.8038
迪	-11.8039
吉事有祥	-11.8039
蘖	-11.804
邁	-11.8041
橫	-11.8041
旌	-11.8042
筌	-11.8043
柔得中而上行	-11.8043
突如其來如	-11.8044
利用享祀	-11.8044
廵	-11.8046
㨗	-11.8046
枚	-11.8047
得妾以其子	-11.805
麻衣	-11.8052
逰	-11.8052
少隂少陽	-11.8052
胸	-11.8059
藩籬	-11.8061
𦕈	-11.8121
易有四象所以示也	-11.8123
坤以藏之	-11.8125
典禮繫辭焉以斷其吉凶是故謂之爻	-11.8126
水流而不盈行險而不失其信	-11.8128
姤女壯勿用取女	-11.8129
熯	-11.8129
壯于大輿之輹	-11.8129
谿	-11.813
王假有廟王乃在中也	-11.813
米	-11.813
耨	-11.8131
何利之有	-11.8131
天造草昧	-11.8131
剛柔之際義无咎也	-11.8132
咸其腓	-11.8133
亦可醜也	-11.8134
重巽以申命	-11.8134
惻怛	-11.8135
往蹇來反	-11.8135
閨門	-11.8135
習教事	-11.8135
𤨏𤨏	-11.8136
額	-11.8137
沃	-11.8137
摘	-11.8137
盾	-11.8137
松	-11.8137
雕	-11.8138
受制於	-11.8139
見豕負塗	-11.814
剥牀以足	-11.8144
神以知來	-11.8146
萬國咸寧	-11.8212
何謂也子曰	-11.8216
芾	-11.8217
疇離祉	-11.8218
三百户	-11.8219
為進退為不果	-11.8219
睢	-11.822
不節之嗟	-11.822
反復其道七日來復天行也	-11.8221
觀天之神道而四時不忒	-11.8223
君子好遯小人否也	-11.8223
六二直方大不習无不利	-11.8223
邀	-11.8224
熄	-11.8224
喚做	-11.8224
怵	-11.8225
廣顙	-11.8225
山上有水	-11.8226
蹇之時用大矣哉	-11.823
鞏用黄牛	-11.8233
晷	-11.8298
歸妹征凶无攸利	-11.8304
懼以終始	-11.8304
臨川吳氏曰	-11.8307
仲翔	-11.8308
履帝位而不疚	-11.8309
構	-11.831
晰	-11.831
君子豹變	-11.831
離東坎西	-11.831
莫甚焉	-11.8311
感而萬物化生聖人感人心而天下和平	-11.8311
王用亨于西山	-11.8311
否之匪人不利君子貞大往小來	-11.8311
動而以順行是以出入无疾朋來无咎	-11.8312
閑邪存誠	-11.8313
或得其桷	-11.8315
垢	-11.8315
未占有孚	-11.8315
嬴	-11.8315
衎衎	-11.8316
先庚三日	-11.8318
閉關	-11.832
陽剛中正以居尊位	-11.8321
同德相	-11.8353
柔中之君	-11.8354
剛柔雜居	-11.8394
鼓萬物而不與聖人同憂	-11.8396
富以其隣	-11.8399
其危乃光	-11.84
南狩之志乃大得也	-11.84
困于金車	-11.84
天數五地數五五位相得而各有合	-11.8401
蒼筤竹	-11.8402
牽復在中亦不自失也	-11.8402
中孚以利貞乃應乎天也	-11.8402
臨觀之義或與或求	-11.8403
千變萬化	-11.8404
休復之吉以下仁也	-11.8404
隄防	-11.8405
意承考	-11.8405
塊	-11.8406
漠	-11.8406
子克家剛柔接也	-11.8406
炭	-11.8408
定天下之吉凶成天下之亹亹者	-11.8408
寘于叢棘	-11.8409
志未平	-11.841
頒	-11.841
居中履正	-11.841
山附於地	-11.841
或從王事无成	-11.8434
變動以利言	-11.8489
禠	-11.8489
為美脊	-11.8489
蔡氏清曰	-11.849
訟元吉以中正也	-11.8491
君子以遏惡揚善順天休命	-11.8492
輔相天地之宜以左右民	-11.8492
梯	-11.8492
厚齋馮氏曰	-11.8493
一人行則得其友	-11.8493
黔喙之屬	-11.8493
履信思順	-11.8494
扈	-11.8494
公用亨于天子	-11.8494
以祉元吉	-11.8494
繫于金柅	-11.8495
雷電皆至	-11.8496
豪	-11.8496
很	-11.8496
冷	-11.8497
矧	-11.8497
瑕	-11.8498
賁如皤如白馬翰如	-11.8498
夔	-11.8499
長子帥師弟子輿尸貞凶	-11.8499
慨	-11.8499
自遯來	-11.85
裁成輔相	-11.8501
二篇之䇿	-11.8501
串	-11.8501
泮	-11.8501
陽實隂虚	-11.8501
菜	-11.8501
右明占	-11.8502
燒	-11.8503
管蔡	-11.8507
不遽進	-11.8509
霆	-11.8575
與民同患	-11.8577
姊	-11.8584
恁	-11.8585
元吉在上大有慶也	-11.8585
大君之宜行中之謂也	-11.8588
顯比之吉位正中也	-11.8589
有孚惕出上合志也	-11.8589
噬而嗑	-11.859
地上有水	-11.859
蹇利西南不利東北利見大人貞吉	-11.8591
二至四互	-11.8592
姻	-11.8594
或鼓或罷	-11.8595
程氏附録	-11.8595
致孝享	-11.8596
小人用壯君子罔也	-11.8596
无攸遂	-11.8597
仙	-11.8598
百果草木	-11.8599
難既解	-11.8647
六爻之義易以貢	-11.8675
六爻之動三極之道也	-11.8676
不成乎名	-11.8678
二百一十六	-11.8679
豐其沛	-11.8679
无所歸咎	-11.8679
頰舌	-11.8681
九四或躍在淵无咎	-11.8681
九二見龍在田利見大人	-11.8681
言天下之至賾而	-11.8682
忌憚	-11.8682
維用伐邑	-11.8683
昊	-11.8684
喪其童僕	-11.8684
促	-11.8685
老夫女妻	-11.8685
重明以麗乎正乃化成天下	-11.8686
當萬物之數	-11.8686
凱	-11.8687
行險而順	-11.8687
䜛	-11.8689
餐	-11.8689
冺	-11.8689
揣	-11.8689
者未之有也	-11.8689
哀矜	-11.869
皓	-11.869
渺	-11.8691
澤上於地	-11.8691
搜	-11.8693
未失常也	-11.8724
艮其背不獲其身行其庭不見其人无咎	-11.8771
人之所助者信也履信思乎順又	-11.8771
飛龍在天大人造也	-11.8771
或躍在淵乾道乃革	-11.8772
丘行可曰	-11.8773
蒺	-11.8774
天地以順動故日月不過而四時不忒	-11.8774
觀其所恒而天地萬物之情可見矣	-11.8778
隂陽之義配日月	-11.8778
成變化而行鬼神	-11.8778
係小子失丈夫	-11.8778
升虛邑	-11.8779
佃	-11.8779
水流而不盈	-11.8779
山上有木	-11.8779
翳	-11.8779
與時消息	-11.878
省方觀民	-11.878
剛來而不窮	-11.878
齊乎巽	-11.878
呼吸	-11.8781
泊	-11.8781
剛當位而應	-11.8782
風以散之	-11.8783
腸	-11.8786
潑	-11.8787
肝	-11.8787
无妄之藥不可試也	-11.8865
以佃以漁	-11.8866
施禄及下	-11.8867
匪夷所思	-11.8868
潛龍勿用陽在下也	-11.8868
形而上者謂之道形而下者謂之器	-11.8869
幾者動之微	-11.887
敦艮之吉以厚終也	-11.8871
天數二十有五地數三十凡天	-11.8872
愆期之志有待而行也	-11.8872
初與四為正應	-11.8873
藝文志	-11.8873
无祇悔	-11.8873
窮則變變則通	-11.8874
先甲三日後甲三日終則有始天行也	-11.8874
一竒一耦	-11.8874
叠	-11.8875
道義之門	-11.8875
尉	-11.8875
至哉坤元萬物資生乃順承天	-11.8875
當渙之時	-11.8875
衆允之志上行也	-11.8875
闊	-11.8876
髴	-11.8876
鴈	-11.8876
貞固守此	-11.8876
嘉遯貞吉以正志也	-11.8877
明罰勅法	-11.8878
利用為大作	-11.8878
頤中有物曰噬嗑	-11.8878
周流六虚	-11.8879
侔	-11.8879
匪宼婚媾	-11.8879
番	-11.888
旅于處	-11.888
行險而不失其信	-11.888
彷彿	-11.888
料	-11.8881
山陽王氏曰	-11.8882
卷一欽定四庫全書	-11.8924
禁民為非	-11.8961
荄	-11.8964
為子母牛	-11.8964
極天下之賾者存乎卦	-11.8965
與人同者物必歸焉故受之以大有	-11.8965
可貞无咎固有之也	-11.8966
易曰三人行則損一人一人行則得其友	-11.8967
耐	-11.8967
吳草廬曰	-11.8967
升在上消不富也	-11.8967
言不勝其任也	-11.8967
夬決也剛決柔也	-11.8967
天地革而四時成湯武革命	-11.8968
物畜然後有禮故受之以履	-11.8969
迭用柔剛	-11.8969
仁者見之謂之仁知者見之謂之知	-11.8969
澤无水困君子以致命遂志	-11.897
未濟亨小狐汔濟濡其尾无攸利	-11.897
弟夫夫婦婦而家道正正家而天下定矣	-11.8971
剛巽乎中正而志行	-11.8971
其子和之中心願也	-11.8971
暨	-11.8971
文明以健中正而應君子正也	-11.8972
六五帝乙歸妹以祉元吉	-11.8972
劉絢	-11.8972
牛順物	-11.8972
赤子之心	-11.8973
譌	-11.8975
揲之以四	-11.8975
潁	-11.8975
䙝	-11.8975
苦節不可貞其道窮也	-11.8976
齎	-11.8977
斵	-11.8977
王臣蹇蹇	-11.8977
柔得中而上行雖不當位利用獄也	-11.8977
上无應與	-11.8977
摹	-11.8978
畋	-11.8979
溉	-11.898
禹稷	-11.8981
莫善於	-11.8982
卷二欽定四庫全書	-11.9008
自三至五	-11.9025
》、	-11.9052
右第一章	-11.9061
桃	-11.9061
垂衣裳而天下治	-11.9062
有天地然後有萬物有萬物然後有男女	-11.9064
聖人作而萬物覩	-11.9065
㨿	-11.9065
以合禮利物足以和義貞固足以幹事	-11.9066
縕	-11.9066
物不可窮也故受之以未濟終焉	-11.9066
需于沙	-11.9067
不及其君臣不可過也	-11.9067
原筮元永貞无咎以剛中也	-11.9069
柔麗乎中正故亨是以畜牝牛吉也	-11.9069
有言不信尚口乃窮也	-11.907
腥	-11.907
昇	-11.907
何悔之有	-11.907
咸其脢志末也	-11.9071
李仲永曰	-11.9071
有孚惠心	-11.9071
涓	-11.9072
風雷益君子以見善則遷有過則改	-11.9072
當大有之時	-11.9072
遮	-11.9073
胡一桂	-11.9073
雲雷屯君子以經綸	-11.9073
婉	-11.9073
六五厥孚交如威如吉	-11.9074
王景孟曰	-11.9074
消不久	-11.9074
雷電合而章	-11.9074
先甲三日後甲三日	-11.9074
元吉无咎可貞	-11.908
先張之弧	-11.908
萬一千	-11.9095
其君之袂不如其娣之袂良	-11.9097
鼎元吉亨	-11.9116
成天下之亹亹	-11.9158
天命之謂性	-11.916
作事謀始	-11.9161
知者觀其彖辭則思過半矣	-11.9162
兼三才而兩之故易六畫而成卦	-11.9162
大哉乾乎剛健中正純粹精也	-11.9163
愛惡相攻	-11.9163
豫剛應而志行順以動豫	-11.9164
豐亨王假之勿憂宜日中	-11.9164
亊	-11.9165
蒙亨匪我求童蒙童蒙求我	-11.9165
歸妹以須	-11.9166
利艱貞晦其明也内難而能正其志箕子	-11.9166
不見是而无悶	-11.9167
飲酒濡首亦不知節也	-11.9167
慿	-11.9168
右第二章	-11.9168
冩	-11.9169
轅	-11.9169
凉	-11.9169
作聖之功	-11.917
君子于行義不食也	-11.917
邵康節	-11.9171
得童僕貞	-11.9171
制數度	-11.9171
遇雨之吉羣疑亡也	-11.9172
解險以動動而免乎險解	-11.9172
抄	-11.9173
初九閑有家悔亡	-11.9173
潜龍勿用	-11.9173
九五之吉位正中也	-11.9173
汪	-11.9174
坊	-11.9174
往遇雨則吉	-11.9174
蕩蕩	-11.9174
憎	-11.9174
懋	-11.9175
說以行險	-11.9175
何往不	-11.9231
以訟受服亦不足敬也	-11.9261
上棟下宇	-11.9261
天地交而萬物通也上下交而其志同也	-11.9262
不速之客	-11.9263
有男女然後有夫婦有夫婦然後	-11.9263
與四時合其序與鬼神合其吉凶	-11.9263
終日乾乾反復道也	-11.9263
夬揚于王庭孚號有厲	-11.9264
乎天文以察時變觀乎人文以化成天下	-11.9266
雲上于天	-11.9266
同氣相求	-11.9266
鬬	-11.9267
跳	-11.9267
聖人亨以享上帝而大亨以養聖賢	-11.9267
制器尚象	-11.9267
孔氏穎達曰	-11.9267
髙宗伐鬼方	-11.9267
九三幹父之蠱小有悔无大咎	-11.9269
寒泉之食中正也	-11.9269
辦	-11.9269
初九无交害匪咎艱則无咎	-11.9269
居貞之吉順以從上也	-11.927
益用凶事固有之也	-11.927
浚恒之凶始求深也	-11.9271
仁以行之	-11.9271
或益之自外來也	-11.9272
顙	-11.9272
上九有孚威如終吉	-11.9272
四與初為正應	-11.9272
九五王假有家勿恤吉	-11.9272
慧	-11.9273
六四外比之貞吉	-11.9274
自二至上	-11.9274
維有解	-11.9275
殄	-11.9275
初九履錯然敬之无咎	-11.9277
俎	-11.9279
髠	-11.928
卷三欽定四庫全書	-11.9299
●	-11.9312
行有嘉	-11.9358
闃其无人	-11.9361
不養則不可動故受之以大過	-11.9361
初六不永所事小有言終吉	-11.9362
麥	-11.9362
右第五章	-11.9362
見龍在田天下文明	-11.9363
辱非所據而據焉身必危	-11.9363
或躍在淵進无咎也	-11.9363
六五豶豕之牙吉	-11.9364
嘖	-11.9364
九二履道坦坦幽人貞吉	-11.9365
憫	-11.9365
右第三章	-11.9365
敬義立而徳不孤	-11.9366
何𤣥子曰	-11.9366
辭變象占	-11.9366
健而巽剛中而志行乃亨	-11.9367
在天成象在地成形變化見矣	-11.9367
不能正室	-11.9368
九二貞吉中以行正也	-11.9368
臀困于株木	-11.9369
天道虧盈而益謙地道變盈而流謙	-11.9369
右第七章	-11.9369
佩	-11.9369
成象之謂乾效法之謂坤	-11.9369
値	-11.9369
剛中而柔外	-11.9369
柔進而上行得中而應乎剛是以元亨	-11.937
咸臨貞吉志行正也	-11.937
顗	-11.937
順天休命	-11.937
聯	-11.937
瑩	-11.9371
未濟男之窮也	-11.9371
險且枕	-11.9371
容民畜衆	-11.9371
上經首乾坤	-11.9371
能以衆正	-11.9372
六二或益之十朋之龜弗克違永貞吉	-11.9372
琴	-11.9373
六四井甃无咎	-11.9373
艱貞无咎勿恤其孚于食有福	-11.9373
凑	-11.9374
戹	-11.9374
受上之益	-11.9374
捐	-11.9375
繡	-11.9376
觀盥而不薦有孚顒若下觀而化也	-11.9376
出可以守宗廟社稷以為祭主也	-11.9377
駢	-11.9377
飱	-11.9377
柢	-11.9377
六二王臣蹇蹇匪躬之故	-11.9377
濓	-11.9377
鳴謙貞吉中心得也	-11.9378
萬二千	-11.9379
自臨來	-11.9385
為祭主	-11.9393
大易粹言	-11.9456
擬諸其形容象其物宜是故謂之象聖人	-11.9458
有大者不可以盈故受之以謙	-11.9463
剛上而尚賢能止健大正也	-11.9464
成位乎其中	-11.9464
革已日乃孚元亨利貞悔亡	-11.9465
右第四章	-11.9466
壯于前趾	-11.9466
困亨貞大人吉无咎有言不信	-11.9467
奔其机	-11.9467
物不可以終離故受之以節	-11.9468
富有之謂大業	-11.9468
是故居上位而不驕在下位而不憂	-11.9468
直其正也方其義也	-11.9468
則是天地不交而萬物不通也	-11.9468
雜物撰徳	-11.9468
上下交而其志同	-11.9469
不與聖人同憂	-11.9469
上六濡其首厲	-11.947
九四歸妹愆期遲歸有時	-11.9471
陸德明	-11.9471
一動一静	-11.9471
地中有水師君子以容民畜衆	-11.9472
脛	-11.9472
六五幹父之蠱用譽	-11.9472
六四安節亨	-11.9472
擔	-11.9472
濡其尾亦不知極也	-11.9472
升元亨用見大人勿恤南征吉	-11.9473
䆒	-11.9473
懇	-11.9473
乃徐有説	-11.9474
稻	-11.9474
絳	-11.9474
地節而四時成節以制度不傷財不害民	-11.9474
井居其所而遷	-11.9475
張舜元曰	-11.9475
餒	-11.9475
剛失位而不中是以不可大事也	-11.9476
六五或益之十朋之龜弗克違元吉	-11.9476
上六大君有命開國承家小人勿用	-11.9476
僚	-11.9477
祖考之精神	-11.9478
夫征不復離羣醜也	-11.9478
利用賓于王	-11.9478
箋	-11.9478
之本體異焉	-11.9479
有文明之徳	-11.9479
孔安國	-11.9481
到極處	-11.9481
爼	-11.9481
忠信所以進德	-11.9554
旤	-11.9567
物不可以終否故受之以同人	-11.9569
師衆也貞正也能以衆正可以王矣	-11.957
九五无妄之疾勿藥有喜	-11.957
鳴謙志未得也可用行師征邑國也	-11.957
六五貞疾恒不死	-11.9571
王秋山曰	-11.9571
眇能視不足以有	-11.9571
羸其角	-11.9572
懿文徳	-11.9572
脗	-11.9572
大有柔得尊位大中而上下應之曰大有	-11.9572
邑人三百户	-11.9572
上古結繩而治後世聖人易之以書契	-11.9572
爻也者效天下之動者也	-11.9573
已日乃孚革而信之	-11.9573
安節之亨承上道也	-11.9574
彖者言乎	-11.9574
柔進而上行得中而應乎剛是以小事吉	-11.9574
擬諸其形容	-11.9575
麤	-11.9575
九二幹母之蠱不可貞	-11.9575
九二不出門庭凶	-11.9576
湯武革命	-11.9576
六二之吉順以巽也	-11.9576
初六進退利武人之貞	-11.9577
捷	-11.9577
皥	-11.9577
乗木舟虚	-11.9577
有其信者必行之故受之以小過	-11.9577
潦	-11.9578
山上有澤	-11.9578
六二无攸遂在中饋貞吉	-11.9578
乃終有慶	-11.9578
損有孚元吉无咎可貞利有攸往	-11.9578
逓	-11.9578
宄	-11.9579
酷	-11.9579
愬	-11.9579
沌	-11.9579
萃亨王假有廟利見大人亨利貞	-11.9579
壘	-11.958
以六居四	-11.958
九五貞吉悔亡无不利无初有終先庚三	-11.958
九四好遯君子吉小人否	-11.958
掲	-11.9581
君子尚消息盈虚天行也	-11.9581
慄	-11.9582
斃	-11.9582
九三勞謙君子有終吉	-11.9582
東北陽方	-11.9582
雷風相薄水火不相射八卦相錯	-11.9583
朢	-11.9583
財成輔相	-11.962
九四豐其蔀日中見斗遇其夷主吉	-11.967
闚其戸	-11.9672
吉凶者貞勝者也	-11.9672
貴賤之等	-11.9674
位乎天位以正中	-11.9674
窮大者必失其居故受之以旅	-11.9674
濳龍勿用	-11.9675
以此毒天下而民從之吉又何咎矣	-11.9675
震一索而得男故謂之長男	-11.9675
直方大不習无不利則不疑其所行也	-11.9675
廙	-11.9675
從一而終也夫子制義從婦凶也	-11.9676
大有上吉自天祐也	-11.9676
初登于天照四國也後入于地失則也	-11.9676
至臨无咎位當也	-11.9676
塗一致而百慮天下何思何慮	-11.9677
况於人乎	-11.9677
其至矣乎	-11.9677
通乎晝夜之道而知	-11.9678
不疾而速不行而至	-11.9678
九五大人虎變未占有孚	-11.9679
杪	-11.9679
羝羊觸藩不能退不能遂无攸利艱則吉	-11.9679
六二包承小人吉大人否亨	-11.968
𠖇	-11.968
六二過其祖遇其妣不及其君遇其臣	-11.9681
六三噬腊肉遇毒小吝无咎	-11.9681
天險不可升也地險山川丘陵也	-11.9681
遥	-11.9681
習坎入坎失道凶也	-11.9682
臨元亨利貞至于八月有凶	-11.9682
燄	-11.9682
六三三人行則損一人一人行則得其友	-11.9682
初六井泥不食舊井无禽	-11.9682
九三賁如濡如永貞吉	-11.9682
𠂻	-11.9683
方以類聚物以羣分	-11.9683
糧	-11.9684
知險知阻	-11.9684
享于帝	-11.9684
紐	-11.9684
初九官有渝貞吉出門交有功	-11.9684
初六童觀小人无咎君子吝	-11.9686
􁀉􁀉	-11.9697
何往而不	-11.9746
天與水違行訟君子以作事謀始	-11.9774
楊氏時曰	-11.9775
兼山艮君子以思不出其位	-11.9776
有大而能謙必豫故受之以豫	-11.9777
其初難知其上易知本末也	-11.9777
畜極而通	-11.9778
上剛下險	-11.9778
内君子而外小人君子道長小人道消也	-11.9778
爍	-11.9778
九五曰飛龍在天利見大人	-11.9779
其究為健	-11.9779
聚而上者謂之升故受之以升	-11.978
當困之時	-11.9781
剛失位而不中	-11.9782
革水火相息二女同居其志不相得曰革	-11.9782
渙有丘	-11.9782
謙尊而光卑而不可踰君子之終也	-11.9783
窮上反下	-11.9783
在本爻以隂變陽為	-11.9783
用行師終有大敗以其國君凶	-11.9783
九四包无魚起凶	-11.9784
九二在師中吉无咎王三錫命	-11.9784
鉞	-11.9784
縦	-11.9785
初九鞏用黄牛之革	-11.9785
艮以止之	-11.9785
動悔有悔	-11.9786
☵	-11.9786
騎	-11.9786
笄	-11.9786
☰	-11.9786
九二咸臨吉无不利	-11.9788
田獲三狐	-11.9788
已生之卦	-11.9788
地上有水比先王以建萬國親諸侯	-11.9788
不宜上宜下大吉上逆而下順也	-11.9789
六二引吉无咎孚乃利用禴	-11.9789
愎	-11.979
右明象	-11.9792
鶉	-11.9794
飛龍在天上治也	-11.9881
神也者妙萬物而為言者也	-11.9882
妙萬物而為言	-11.9882
六爻發揮旁通情也	-11.9883
有父子有父子然後有君臣有君臣	-11.9884
其匪正有眚不利有攸往	-11.9886
上九視履考祥其旋元吉	-11.9886
雷電皆至豐君子以折獄致刑	-11.9886
上六震索索視矍矍征	-11.9887
六二介于石不終日貞吉	-11.9887
辨是與非	-11.9887
右第十章	-11.9887
其稱名也雜而不越	-11.9888
澤上有風中孚君子以議獄緩死	-11.9888
初六幹父之蠱有子考无咎厲終吉	-11.9888
火在水上	-11.9889
内文明而外柔順以蒙大難文王以之	-11.9889
九五屯其膏小貞吉大貞凶	-11.9889
祁	-11.989
一闔一闢	-11.989
初六師出以律否臧凶	-11.989
利有攸往終則有始也	-11.989
鬼神害盈而福謙人道惡盈而好謙	-11.989
六五出涕沱若戚嗟若吉	-11.989
包荒得尚于中行以光大也	-11.989
非一朝一夕之故其所由來者漸矣	-11.9891
終莫之勝吉得所願也	-11.9891
不𫉬其身	-11.9891
山上有火	-11.9891
自強不息	-11.9891
日月麗乎天	-11.9892
晉康侯用錫馬蕃庶晝日三接	-11.9892
相見乎離	-11.9893
下无其應	-11.9893
六五射雉一矢亡終以譽命	-11.9893
六四損其疾使遄有喜无咎	-11.9894
卑而不可踰	-11.9894
賈誼	-11.9894
俄	-11.9894
徳合无疆	-11.9894
行其典禮	-11.9895
去逖出	-11.9896
鷹	-11.9897
自昭明徳	-11.9897
耄	-11.9897
不素飽	-11.9898
乗其墉	-11.9905
二千一百	-11.9982
祐者助也天之所助者順也	-11.9989
既濟亨小利貞初吉終亂	-11.999
訟有孚窒惕中吉終凶利見大人不利	-11.9991
上六鳴謙利用行師征邑國	-11.9991
履道坦坦	-11.9992
易之為書也廣大悉備	-11.9992
然後有上下有上下然後禮義有所錯	-11.9992
濕火就燥雲從龍風從虎	-11.9992
善不積不足以成名惡不積不足以滅身	-11.9993
非其中爻不備	-11.9993
賁亨小利有攸往	-11.9994
棺椁	-11.9994
利用出入民咸用之謂之神	-11.9995
九三臀无膚其行次且厲无大咎	-11.9995
燔	-11.9996
以言者尚其辭以動者尚其變	-11.9996
二之動直以方也不習无不利地道光也	-11.9996
棺	-11.9996
小人而乗君子之器	-11.9996
九二需于沙小有言終吉	-11.9996
孚于嘉吉位正中也	-11.9996
蚩	-11.9996
曰隼者禽也弓矢者器也射之者人也	-11.9997
翰音登于天	-11.9997
昔者聖人之作易也	-11.9997
㒺	-11.9997
易簡之善配至徳	-11.9997
九三家人嗃嗃悔厲吉婦子嘻嘻終吝	-11.9998
九四不克訟復即命渝安貞吉	-11.9998
六三不節若則嗟若无咎	-11.9998
藩决不羸	-11.9998
六三含章可貞或從王事无成有終	-11.9998
利貞大者正也正大而天地之情可見矣	-11.9999
乘木有功	-11.9999
汔至亦未繘井未有功也羸其瓶是以	-11.9999
白馬翰如	-11.9999
九五莧陸夬夬中行无咎	-11.9999
六四鴻漸于木或得其桷无咎	-12
九三君子終日乾乾夕惕若厲无咎	-12
滕口説	-12
六五田有禽利執言无咎	-12.0001
仲虎曰	-12.0002
大君有命以正功也小人勿用必亂邦也	-12.0002
六四有孚血去惕出无咎	-12.0002
輿說輻	-12.0003
勒	-12.0003
督	-12.0004
寃	-12.0004
九五同人先號咷而後笑大師克相遇	-12.0008
三居下體之上	-12.0009
帖	-12.0011
雖危无咎	-12.0016
黄裳元吉文在中也	-12.01
右第十一章	-12.01
籥	-12.0101
鸛	-12.0101
為弓輪	-12.0102
胡炳文	-12.0102
損而不已必益故受之以益	-12.0102
明不可息	-12.0103
衆必有所比故受之以比	-12.0103
發揮於剛柔而生爻	-12.0104
六五貞吉无悔君子之光有孚吉	-12.0105
十二辟卦	-12.0105
泳	-12.0105
九三重剛而不中上不在天下不在田	-12.0105
辨物居方	-12.0106
王氏弼曰	-12.0106
求而往明也	-12.0107
霧	-12.0107
譲	-12.0108
九四噬乾胏得金矢利艱貞吉	-12.0108
九五枯楊生華老婦得其士夫无咎无譽	-12.0108
同人之先以中直也大師相遇言相克也	-12.0108
軫	-12.0108
初九明夷于飛垂其翼	-12.0108
誇	-12.0109
禱	-12.011
中不在人	-12.0111
六五君子維有解吉有孚于小人	-12.0111
售	-12.0111
妬	-12.0111
進退志疑也利武人之貞志治也	-12.0111
失得之報	-12.0112
鉅	-12.0112
簞	-12.0114
媿	-12.0114
蹇難也險在前也見險而能止知矣哉	-12.0114
九二鼎有實我仇有疾不我能即吉	-12.0115
饔	-12.0116
出處語黙	-12.0116
速之客來敬之終吉雖不當位未大失也	-12.0207
定天下之業以斷天下之疑	-12.0211
澤上有雷歸妹君子以永終知敝	-12.0213
六五知臨大君之宜吉	-12.0213
各指其所之	-12.0213
謙輕而豫怠也	-12.0214
六五箕子之明夷利貞	-12.0214
虎視眈眈	-12.0215
斤	-12.0216
是以康侯用錫馬蕃庶晝日三接也	-12.0216
逈	-12.0217
管輅	-12.0217
謙亨天道下濟而光明地道卑而上行	-12.0217
用史巫紛若	-12.0217
占事知來	-12.0218
九三征凶貞厲革言三就有孚	-12.0218
知崇禮卑	-12.0218
歸妹女之終也	-12.0218
初九利用為大作元吉无咎	-12.0219
王公設險以守其國險之時用大矣哉	-12.0219
九五顯比王用三驅失前禽邑人不誡吉	-12.0219
帥師以中行也弟子輿尸使不當也	-12.0219
弃	-12.0219
漸女歸待男行也	-12.022
山上有雷小過君子以行過乎恭	-12.022
以上出為功	-12.0221
桐	-12.0221
覊	-12.0222
入于林中	-12.0223
九二利貞征凶弗損益之	-12.0223
玉鉉在上剛柔節也	-12.0223
怡	-12.0224
渭	-12.0224
二人同心	-12.0229
不四則八	-12.0232
離也者明也萬物皆相見南方之卦也	-12.0312
復則不妄矣故受之以无妄	-12.0319
六五艮其輔言有序悔亡	-12.0321
豐其沛不可大事也折其右肱終不可用	-12.0322
暢於四支	-12.0322
一索而得女故謂之長女坎再索而得男	-12.0322
剛健篤實輝光日新	-12.0322
初六鳴豫志窮凶也	-12.0323
上止下動	-12.0323
九四重剛而不中上不在天下不在田中	-12.0323
不在人故或之或之者疑之也故无咎	-12.0323
閴其无人	-12.0323
初九歸妹以娣跛能履征吉	-12.0325
井通而困相遇也	-12.0325
僮	-12.0325
互藏其宅	-12.0326
動而健剛中而應大亨以正天之命也	-12.0326
其凶必矣	-12.0326
不能退不能遂不詳也艱則吉咎不長也	-12.0326
殷之末世	-12.0326
發於事業	-12.0326
上九有孚于飲酒无咎濡其首有孚失是	-12.0327
上六不明晦初登于天後入于地	-12.0327
六四困蒙吝	-12.0327
瑟	-12.0327
捉	-12.0327
離上而坎下也	-12.0328
復亨出入无疾朋來无咎反復其道七日	-12.0328
☳	-12.0328
鑠	-12.0329
繫辭下傳	-12.0329
三益之用凶事无咎有孚中行告公用圭	-12.0329
炫	-12.0329
剝牀以膚	-12.033
周而復始	-12.033
為我心惻	-12.033
杖	-12.033
遼	-12.0331
初六鴻漸于干小子厲有言无咎	-12.0331
王安石	-12.0331
六三勿用取女見金夫不有躬无攸利	-12.0331
大觀在上順而巽中正以觀天下	-12.0332
閻	-12.0332
初六浚恒貞凶无攸利	-12.0332
隳	-12.0333
闗子明	-12.0333
婁	-12.0333
鞶	-12.0335
地中有山謙君子以裒多益寡稱物平施	-12.0335
鞭	-12.0335
執用黄牛固志也	-12.0337
迄	-12.0338
見羣龍无首吉	-12.0419
成終而所成始也故曰成言乎艮	-12.0428
故象占如此	-12.0431
升而不已必困故受之以困	-12.0433
鼓天下之動者存乎辭	-12.0433
遯亨小利貞	-12.0433
乾天也故稱乎父坤地也故稱乎母	-12.0433
屯元亨利貞勿用有攸往利建侯	-12.0433
乾道乃革	-12.0436
數五十有五此所以成變化而行鬼神也	-12.0436
初六艮其趾无咎利永貞	-12.0436
神武不殺	-12.0437
終日乾乾夕惕若	-12.0437
九三小人用壯君子用罔貞厲	-12.0437
順乎天而應乎人革之時大矣哉	-12.0438
困乎上者必反下故受之以井	-12.0438
後天而奉天時	-12.0438
九二惕號莫夜有戎勿恤	-12.0438
萃聚而升不來也	-12.0439
率性之謂道	-12.0439
君子于行三日不食有攸往主人有言	-12.0439
人謀鬼謀	-12.0439
九五萃有位无咎匪孚元永貞悔亡	-12.044
初筮告再三瀆瀆則不告利貞	-12.044
悛	-12.0441
初六習坎入于坎窞凶	-12.0441
六二已日乃革之征吉无咎	-12.0441
九三明夷于南狩得其大首不可疾貞	-12.0442
六五童蒙吉	-12.0442
小狐汔濟未出中也濡其尾无	-12.0442
澤滅木大過君子以獨立不懼遯世无悶	-12.0442
剛柔分而剛得中	-12.0442
獨善其身	-12.0443
上九晉其角維用伐邑厲吉无咎貞吝	-12.0443
祼	-12.0443
六五賁于丘園束帛戔戔吝終吉	-12.0443
伏羲所畫	-12.0443
升其髙陵	-12.0443
洵	-12.0444
迴	-12.0444
係用徽纆	-12.0445
岀	-12.0446
字疑衍	-12.0447
上九鼎玉鉉大吉无不利	-12.0448
九四鼎折足覆公餗其形渥凶	-12.0448
上九睽孤見豕負塗載鬼一車	-12.0449
仆	-12.0449
執之用黄牛之革	-12.0449
冓	-12.045
過與不及	-12.0451
譜	-12.0457
養焉故曰致役乎坤	-12.0538
坎者水也正北方之卦也勞卦也萬物之	-12.0539
大過棟橈利有攸往亨	-12.0544
上九曰亢龍有悔何謂也子曰貴而无位	-12.0544
乾始能以美利利天下不言所利大矣哉	-12.0546
晉如愁如	-12.0546
李氏過曰	-12.0546
王氏宗傳曰	-12.0546
易窮則變變則通通則久	-12.0547
上古穴居而野處後世聖人易之以	-12.0547
何謂也子曰同聲相應同氣相求水流	-12.0548
故謂之中男離再索而得女故謂之	-12.0548
九二曰見龍在田利見大人何謂也	-12.0548
獲匪其醜	-12.0548
中女艮三索而得男故謂之少	-12.0548
何以守位曰仁	-12.0548
廣大配天地變通配四時	-12.0549
革物者莫若鼎故受之以鼎	-12.0549
緩必有所失故受之以損	-12.055
節而信之故受之以中孚	-12.055
將叛者其辭	-12.055
九五渙汗其大號渙王居无咎	-12.055
上六引兌	-12.055
上六城復于隍勿用師自邑告命貞吝	-12.0551
渙亨剛來而不窮柔得位乎外而上同	-12.0552
居其室出其言不善則千里之外違之	-12.0552
輮	-12.0552
知至至之可與幾也知終終之可與存義	-12.0553
有凶君子夬夬獨行遇雨若濡有愠无咎	-12.0553
觀變於隂陽而立卦	-12.0553
上六女承筐无實士刲羊无血无攸利	-12.0553
九四旅于處得其資斧我心不快	-12.0554
佃漁	-12.0554
天地變化草木蕃	-12.0554
六三歸妹以須反歸以娣	-12.0555
風自火出家人君子以言有物而行有恒	-12.0555
九三公用亨于天子小人弗克	-12.0555
雖貞亦凶	-12.0555
蠡	-12.0555
六五貫魚以宫人寵无不利	-12.0556
井渫不食行惻也求王明受福也	-12.0556
剛柔相摩八卦相盪	-12.0556
天下有山遯君子以逺小人不惡而嚴	-12.0557
山上有雷	-12.0559
止而麗乎明	-12.056
匈奴	-12.056
原筮元永貞无咎	-12.056
紀聞曰	-12.056
賂	-12.0561
畎	-12.0562
簒	-12.0562
册	-12.0562
詆	-12.0562
洫	-12.0563
積善之家必有餘慶	-12.0564
為君為父	-12.0568
道有變動	-12.0596
萬五千	-12.0608
有无妄然後可畜故受之以大畜	-12.0657
是以不獲其身行其庭不見其人无咎也	-12.0658
吳㓜清	-12.066
與孔子異矣	-12.066
六入于穴有不速之客三人來敬之終吉	-12.0661
有飛鳥之象焉飛鳥遺之音	-12.0661
乾道變化各正性命保合太和乃利貞	-12.0662
先天而天弗違後天而奉天時天且弗違	-12.0662
馵	-12.0663
埤	-12.0664
變化者進退之象	-12.0664
見金夫不有躬	-12.0665
胄	-12.0665
通其變使民不倦神而化之使民宜之	-12.0666
舉而措之	-12.0666
鍊	-12.0667
甘臨位不當也既憂之咎不長也	-12.0668
厦	-12.0668
弇	-12.0668
需于沙衍在中也雖小有言以吉終也	-12.067
湧	-12.067
羸豕孚蹢躅	-12.067
上六困于葛藟于臲卼曰動悔有悔征吉	-12.067
弄	-12.0671
庫	-12.0671
棟隆之吉不橈乎下也	-12.0671
九四棟隆吉有它吝	-12.0671
筋	-12.0672
有攸往夙吉往有功也	-12.0673
從一而終	-12.0673
九四突如其來如焚如死如棄如	-12.0673
五日四分日之一	-12.0673
澤中有雷隨君子以嚮晦入宴息	-12.0673
初六有孚不終乃亂乃萃若號一握為笑	-12.0674
馨	-12.0674
汔至亦未繘井	-12.0674
澤中有雷	-12.0675
曷之用二簋可用享二簋應有時	-12.0675
洙	-12.0676
幅	-12.0678
菲	-12.068
三至五互	-12.0721
定天下之吉凶	-12.0774
帝出乎震齊乎巽相見乎離致役乎坤	-12.0775
以尚賢也是以自天祐之吉无不利也	-12.0775
化而裁之謂之變推而行之謂之通	-12.0777
朋盍簪	-12.0778
致役乎坤	-12.0781
天尊地卑乾坤定矣	-12.0781
樂則行之憂則違之	-12.0782
百姓與能	-12.0782
利用為依遷國	-12.0782
終有大敗	-12.0782
明也跛能履不足以與行也咥人之	-12.0782
酢	-12.0783
一陰一陽之謂道	-12.0783
志不舍命	-12.0783
乆於其道	-12.0783
六二征凶行失類也	-12.0784
剛中而志行	-12.0784
晉如摧如獨行正也裕无咎未受命也	-12.0785
柔得位乎外而上同	-12.0785
易之為書也不可逺	-12.0785
六四中行告公從利用為依遷國	-12.0785
无妄之災或繫之牛行人之得邑人之災	-12.0785
柔在内而剛得中	-12.0785
用見大人勿恤有慶也南征吉志行也	-12.0786
一致而百慮	-12.0786
慚	-12.0786
雷在天上大壯君子以非禮弗履	-12.0786
邕	-12.0786
建侯而不寧	-12.0787
四營而成易	-12.0787
未感害	-12.0787
至哉坤元	-12.0787
小人道長君子道消	-12.0788
天地睽而其事同也男女睽而其志通也	-12.0788
淨	-12.0788
扇	-12.0789
祠	-12.0789
履和而至	-12.0789
剛遇中正	-12.079
恐懼脩省	-12.0791
恒其徳貞	-12.0791
買	-12.0791
殫	-12.0792
玊	-12.0792
遇其配主	-12.0792
官有渝從正吉也出門交有功不失也	-12.0793
六五鼎黄耳金鉉利貞	-12.0793
燎	-12.0793
餓	-12.0794
蠅	-12.0795
涼	-12.0799
?	-12.0874
往厲必戒終不可長也	-12.0891
中興書目	-12.0892
艮其止止其所也上下敵應不相與也	-12.0894
履而泰然後安故受之以泰	-12.0895
豐蔀見斗	-12.0896
夫乾確然示人易矣夫坤隤然示人簡矣	-12.0897
子曰天下何思何慮天下同歸而殊	-12.0897
井道不可不革故受之以革	-12.0897
永終知敝	-12.0898
遂知來物	-12.0898
後得主利西南得朋東北喪朋安貞吉	-12.0898
以象兩掛一以象三揲之以四以象四時	-12.0899
拙	-12.0899
在本爻以陽變隂為	-12.09
所樂而玩者爻之辭也	-12.09
栖	-12.09
重門擊柝	-12.09
上六龍戰于野其血𤣥黄	-12.09
動容周旋	-12.09
存而不知亡知得而不知喪	-12.0901
幽明死生鬼神	-12.0901
无魚之凶逺民也	-12.0902
眈眈	-12.0902
詢	-12.0902
蠢	-12.0902
渙汗其大號	-12.0902
九二包荒用馮河不遐遺朋亡得尚于中	-12.0902
先庚三日後庚三日	-12.0902
☶	-12.0903
六三甘臨无攸利既憂之无咎	-12.0905
濤	-12.0905
印	-12.0905
我心不快	-12.0906
阮	-12.0906
梓	-12.0906
樊	-12.0907
吕與叔	-12.0908
緊	-12.0908
蘭恵卿曰	-12.0909
吟	-12.0909
先否後喜	-12.0909
妹不如其娣之袂良也其位在中以貴行	-12.091
上九无妄行有眚无攸利	-12.101
利物足以和義	-12.1011
反歸以娣	-12.1013
天際翔	-12.1013
无交而求則民不與也莫之與則傷之	-12.1014
豫必有隨故受之以隨	-12.1016
无思也无為也寂然不動感而遂通	-12.1016
豐其屋蔀其家	-12.1017
澤上有風	-12.1017
尺蠖之屈以求信也龍蛇之蟄以存身也	-12.1017
所尚乃窮	-12.1018
六四渙其羣元吉渙有丘匪夷所思	-12.1018
用見大人勿恤	-12.1018
道大悖	-12.1018
易曰見龍在田利見大人君德也	-12.1018
來徐徐志在下也雖不當位有與也	-12.1018
順動則刑罰清而民服豫之時義大矣哉	-12.1018
九四曰或躍在淵无咎何謂也子曰上下	-12.1019
以制器者尚其象以卜筮者尚其占	-12.1019
九四來徐徐困于金車吝有終	-12.1019
鳯	-12.102
九三弗過防之從或戕之凶	-12.1021
釜	-12.1021
紆	-12.1022
上九翰音登于天貞凶	-12.1022
六四樽酒簋貳用缶納約自牖終无咎	-12.1022
豎	-12.1022
唯君子為能通天下之志	-12.1023
晉其角	-12.1024
賣	-12.1024
鄭少梅曰	-12.1024
頻巽之吝志窮也	-12.1025
聖人以神道設教而天下服矣	-12.1025
六二鴻漸于磐飲食衎衎吉	-12.1025
非一朝一夕	-12.1026
閩	-12.1026
邢	-12.1026
瘁	-12.1027
是以小亨利有攸往利見大人	-12.1028
鞅	-12.1031
中以行正	-12.1033
一百四十四	-12.1075
丨	-12.1114
秒	-12.1132
食舊德	-12.1133
易之情近而不相得則凶或害之悔且吝	-12.1134
能研諸侯之慮	-12.1135
變化者進退之象也剛柔者晝夜之象也	-12.1137
引而伸之觸類而長之天下之能事畢矣	-12.1137
而况於人乎况於鬼神乎	-12.1138
上九莫益之或擊之立心勿恒凶	-12.1138
天且弗違	-12.114
莫夜有戎	-12.114
六三係丈夫失小子隨有求得利居貞	-12.114
也妻道也臣道也地道无成而代有終也	-12.114
籲	-12.1141
翩翩不富皆失實也不戒以孚中心願也	-12.1141
佯狂	-12.1142
賚	-12.1142
久非其位安得禽也	-12.1142
困于葛藟未當也動悔有悔吉行也	-12.1142
内健而外順	-12.1143
革去故也鼎取新也	-12.1143
僨	-12.1144
桂	-12.1144
渴	-12.1144
正家而天下定	-12.1144
顴	-12.1144
絀	-12.1145
幡	-12.1145
戒占者當如是也	-12.1146
疲	-12.1146
小人剥廬	-12.1147
頡	-12.1147
九四睽孤遇元夫交孚厲无咎	-12.1147
擯	-12.1147
節以制度	-12.1148
損而有孚元吉无咎可貞利有攸往	-12.1148
釀	-12.1149
荀慈明	-12.1149
銜	-12.1149
幻	-12.115
閱	-12.1151
剛來下柔	-12.1153
萬物出乎震震東方也齊乎	-12.125
終始其要无咎此之謂易之道也	-12.1254
子曰君子安其身而後動易其心而後	-12.1254
昔者聖人之作易也將以順性命之理	-12.1255
是故君子居則觀其象而玩其辭	-12.1255
過涉滅頂	-12.1256
楊氏萬里曰	-12.1256
子曰易有聖人之道四焉者此之謂也	-12.1258
八卦以象告	-12.1258
无常非為邪也進退无恒非離	-12.1259
有過物者必濟故受之以既濟	-12.1259
六二艮其腓不拯其隨其心不快	-12.1259
天地之道貞觀者也日月之道貞明者也	-12.126
之文極其數遂定天下之象	-12.126
兢兢業業	-12.1261
吉凶悔吝者生乎動者也	-12.1261
烖	-12.1262
十有四凡三百有六十當期之日	-12.1262
繫于金柅柔道牽也	-12.1262
初九需于郊利用恒无咎	-12.1262
之而後言議之而後動擬議以成其變化	-12.1262
二人同心其利斷金同心之言其臭如蘭	-12.1263
馮厚齋曰	-12.1263
噬嗑食也賁无色也	-12.1263
胡庭芳曰	-12.1263
皷	-12.1263
下雷行物與无妄先王以茂對時育萬物	-12.1263
其出入以度外内使知懼	-12.1264
蔾	-12.1264
九二枯楊生稊老夫得其女妻无不利	-12.1265
火在水上未濟君子以慎辨物居方	-12.1265
時止則止	-12.1265
九二悔亡能久中也	-12.1265
躭	-12.1265
捍	-12.1265
敖	-12.1266
上六君子豹變小人革面征凶居貞吉	-12.1266
滿而不溢	-12.1266
豳	-12.1266
芻	-12.1267
黯	-12.1267
六三萃如嗟如无攸利往无咎小吝	-12.1268
悌	-12.1268
係遯之厲有疾憊也畜臣妾吉不可大事	-12.1269
斡	-12.1269
嬖	-12.1269
湊	-12.127
以陽變陰為	-12.127
以陰變陽為	-12.1271
搖	-12.1272
赧	-12.1272
彝	-12.1272
九三係遯有疾厲畜臣妾吉	-12.1272
聖人設卦觀象繫辭焉而明吉凶	-12.1379
毗	-12.1379
日中見斗幽不明也遇其夷主吉行也	-12.138
是故聖人以通天下之志以	-12.138
内陽而外隂内健而外順	-12.1382
日中則昃月盈則食天地盈虚與時消息	-12.1383
中不自亂	-12.1383
解緩也蹇難也	-12.1385
雜物撰德	-12.1385
凶位不當也武人為于大君志剛也	-12.1385
九二眇能視利幽人之貞	-12.1385
纍	-12.1386
燧	-12.1387
喉	-12.1387
墟	-12.1387
對時育物	-12.1387
大有衆也同人親也	-12.1388
崖	-12.1388
初六晉如摧如貞吉罔孚裕无咎	-12.1388
惓	-12.1388
上六拘係之乃從維之王用亨于西山	-12.1388
先天而天弗違	-12.1389
寖	-12.139
不我能即	-12.139
一動一靜	-12.139
張子厚曰	-12.139
豹變其文蔚也小人革面順以從君也	-12.139
漬	-12.139
可不戒哉	-12.1391
竈	-12.1391
益以興利	-12.1392
柔得中乎外而順乎剛	-12.1393
訣	-12.1393
鶴鳴子和	-12.1394
犢	-12.1394
遯尾之厲不往何災也	-12.1395
嶠	-12.1395
䖍	-12.1396
應事接物	-12.1397
躔	-12.1399
董銖録	-12.1405
丌	-12.141
鈔	-12.1415
乾坤毁則无以見易	-12.1428
■	-12.1443
軾	-12.1502
漸者進也進必有所歸故受之以歸妹	-12.1504
孚號有厲其危乃光也告自邑不利即	-12.1505
形而上者謂之道	-12.1505
爻也者效此者也象也者像此者也	-12.1505
乾元者始而亨者也利貞者性情也	-12.1505
幡幔	-12.1506
六四王用亨于岐山吉无咎	-12.1507
吉凶者言乎其失得也	-12.1507
日中為市致天下之民聚天下之貨	-12.1508
匪我求童蒙童蒙求我	-12.1508
一闔一闢謂之變	-12.1508
百姓日用而不知故君子之道鮮矣	-12.1509
鮑	-12.1509
幹母蠱	-12.151
小徃大來	-12.151
彖曰履柔履剛也	-12.151
坤元亨利牝馬之貞君子有攸往先迷	-12.151
婢	-12.151
崇效天	-12.151
乾坤其易之門	-12.1511
次且位不當也聞言不信聰不明也	-12.1511
贖	-12.1512
剛自外來而為主于内	-12.1512
擁	-12.1512
小過過也中孚信也	-12.1512
山下有火賁君子以明庶政无敢折獄	-12.1512
教思无窮	-12.1512
而不括是以出而有獲語成器而動者也	-12.1512
蒙山下有險險而止蒙	-12.1512
練	-12.1513
未繘井	-12.1513
入于其宫不見其妻	-12.1513
天一至地十	-12.1513
以其國君凶	-12.1513
介疾有喜	-12.1514
神武而不殺	-12.1514
水在火上既濟君子以思患而豫防之	-12.1514
石澗俞氏曰	-12.1514
婦人吉夫子凶	-12.1515
下不厚事	-12.1515
君子道長小人道憂	-12.1515
物極則反	-12.1515
比吉原筮元永貞无咎不寧方來後夫凶	-12.1516
璞	-12.1517
噬嗑而亨剛柔分動而明雷電合而章	-12.1517
乾兑離震	-12.1518
㛰	-12.1518
盎	-12.1518
瞽	-12.152
䜟	-12.1523
閑邪存其誠	-12.1547
也故曰勞乎坎艮東北之卦也萬物之所	-12.1626
九三豐其沛日中見沬折其右肱无咎	-12.1632
可不慎乎	-12.1633
窮理盡性以至於命	-12.1634
風行水上渙先王以享于帝立廟	-12.1636
六五噬乾肉得黄金貞厲无咎	-12.1636
六三眇能視跛能履履虎尾咥人凶武人	-12.1636
昴	-12.1636
棼	-12.1637
上六井收勿幕有孚元吉	-12.1638
以通神明之徳以類萬物之情	-12.1638
渙離也節止也	-12.1638
之上各加	-12.1639
書不盡言言不盡意	-12.1639
不出門庭凶失時極也	-12.164
終莫之聞	-12.164
隨風巽君子以申命行事	-12.164
澤滅木	-12.1641
百榖草木	-12.1641
繳	-12.1642
井冽寒泉食	-12.1642
五位相得而各有合	-12.1642
孳	-12.1642
踞	-12.1643
日月得天而能久照四時變化而能久成	-12.1643
嬪	-12.1645
昻	-12.1645
彞	-12.1645
周易辨畫卷	-12.1645
漓	-12.1646
九二包蒙吉納婦吉子克家	-12.1646
忠信所以進徳	-12.1646
沸	-12.1647
无䘮无得	-12.1649
鬚	-12.1657
原始反終	-12.1758
訟必有衆起故受之以師師者衆也	-12.1758
羝	-12.1759
豉	-12.176
危以動則民不與也懼以語則民不應也	-12.1761
繫辭焉而命之動在其中矣	-12.1761
是故君子所居而安者易之序也	-12.1761
聖人作而萬物覩本乎天者親上	-12.1761
何咎之有慎之至也夫茅之為物薄而	-12.1762
居徳則忌	-12.1762
是故吉凶生而悔吝著也	-12.1762
𡨕	-12.1763
是故四營而成易十有八變而成卦	-12.1765
拳拳	-12.1766
利用亨祀	-12.1766
耊	-12.1767
山川丘陵	-12.1767
九三井渫不食為我心惻可用汲王明	-12.1767
三陳九卦	-12.1767
信以𤼵志	-12.1768
六二不耕穫不菑畬則利有攸往	-12.1768
需不進也訟不親也	-12.1769
可以類推	-12.1769
九二巽在牀下用史巫紛若吉无咎	-12.1769
宵	-12.177
瞬	-12.177
滲	-12.177
果行育徳	-12.177
九五有孚攣如富以其鄰	-12.177
无往不復天地際也	-12.177
解利西南无所往其來復吉有攸往夙吉	-12.1771
濂	-12.1772
巾	-12.1772
圉	-12.1773
天地解而雷雨作雷雨作而百	-12.1773
比之初六有他吉也	-12.1774
不䘮匕鬯	-12.1778
煞	-12.1782
堆	-12.1782
場	-12.1783
飪	-12.1825
終朝三褫	-12.1889
物不可以終難故受之以解解者緩也	-12.1889
萬一千五百二十	-12.189
上九鴻漸于陸其羽可用為儀吉	-12.1892
不相悖山澤通氣然後能變化既成萬物	-12.1892
鋤	-12.1894
内小人而外君子小人道長君子道消也	-12.1895
益動而巽日進无疆天施地生其益无方	-12.1895
厲危行也其事在中大无喪也	-12.1896
豢	-12.1896
言行君子之所以動天地也可不慎乎	-12.1896
上九或錫之鞶帶終朝三褫之	-12.1897
象曰不節之嗟又誰咎也	-12.1897
蒙亨以亨行時中也匪我求童蒙童	-12.1898
容保民无疆	-12.1898
夬決也剛決柔也君子道長小人道憂也	-12.1898
弁	-12.1898
知柔知剛	-12.1898
剛應而志行	-12.1898
下經首咸恒	-12.1899
暖	-12.1899
象曰革言三就又何之矣	-12.1899
象事知器	-12.1899
象曰雷在地中復	-12.1899
䘮羊于易	-12.19
曜	-12.19
飫	-12.19
暘	-12.19
台	-12.1901
皇極經世	-12.1901
穏	-12.1901
九二田獲三狐得黄矢貞吉	-12.1902
二簋可用享	-12.1902
楊中立曰	-12.1903
初六遯尾厲勿用有攸往	-12.1903
臟	-12.1904
初九震來虩虩後笑言啞啞吉	-12.1906
積不善之家必有餘殃臣弑其君子弑其	-12.1908
當過而過	-12.1913
奕	-12.1913
輔相天地之宜	-12.1982
艮其止止其所也	-12.2014
乾坤成列而易立乎其中矣乾坤毁則	-12.2014
見龍在田時舍也	-12.2017
是故夫象聖人有以見天下之賾	-12.2019
有天道焉有人道焉有地道焉兼三	-12.202
是故愛惡相攻而吉凶生	-12.202
子曰書不盡言言不盡意然則	-12.202
易曰自天祐之吉无不利子曰	-12.202
上六无實承虚筐也	-12.2021
噫亦要存亡吉凶則居可知矣	-12.2021
可與祐神	-12.2021
象曰天在山中大畜	-12.2022
道有變動故曰爻爻有等故曰物	-12.2023
乾為馬坤為牛震為龍	-12.2023
至精至變至神	-12.2023
者至矣易曰莫益之或擊之立心勿恒凶	-12.2023
隊	-12.2023
參伍以變錯綜其數通其變遂成天地	-12.2024
困蒙之吝獨逺實也	-12.2025
夫𤣥黄者天地之雜也天𤣥而地黄	-12.2025
非天下之至變其孰能與於此	-12.2025
劉長民曰	-12.2025
殺身成仁	-12.2026
象曰貞厲无咎得當也	-12.2026
六三來之坎坎險且枕入于坎窞勿用	-12.2026
六四入于左腹獲明夷之心于出門庭	-12.2026
象曰十年勿用道大悖也	-12.2026
再三瀆瀆則不告	-12.2027
天數五地數五	-12.2027
成生育之功	-12.2027
彖曰家人女正位乎内	-12.2027
九四由豫大有得勿疑朋盍簪	-12.2027
知進退存亡而不失其正者其唯聖人乎	-12.2027
有戎勿恤	-12.2027
顯道神徳行	-12.2028
剛遇中正天下大行	-12.2028
六二婦喪其茀勿逐七日得	-12.2028
思患豫防	-12.2028
盂	-12.2029
象曰君子夬夬終无咎也	-12.2029
小畜寡也履不處也	-12.2029
晉晝也明夷誅也	-12.2029
童蒙之吉順以巽也	-12.203
芮	-12.203
風行地上觀先王以省方觀民設教	-12.203
騖	-12.2031
象曰中行无咎中未光也	-12.2031
囬	-12.2033
仗	-12.2033
覈	-12.2033
兎	-12.2034
屯者物之始生也	-12.2034
喫	-12.2034
象曰六五之吉有喜也	-12.2034
分而為二以象兩	-12.2035
内喜之也	-12.2037
翩	-12.2038
謙而又謙	-12.2038
貞屯悔豫	-12.2039
纁	-12.2039
擒	-12.2041
佀	-12.2041
胃	-12.2042
畝	-12.2043
艮者止也物不可以終止故受之以漸	-12.205
沈僴録	-12.2052
六爻相雜唯其時物也	-12.2152
王假之尚大也勿憂宜日中宜照天下也	-12.2153
泰者通也物不可以終通故受之以否	-12.2154
聖人之大寳曰位	-12.2154
莫益之偏辭也或擊之自外來也	-12.2154
小人以小善為无益而弗為也	-12.2155
可用為儀	-12.2156
初吉柔得中也終止則亂其道窮也	-12.2157
頴	-12.2157
矣天下之理得而成位乎其中矣	-12.2157
乖必有難故受之以蹇蹇者難也	-12.2158
致恭以存其位	-12.2158
王氏申子曰	-12.2158
蘇氏軾曰	-12.2159
象曰利艱貞吉未光也	-12.2159
宋方聞一編	-12.2159
煖	-12.216
於天俯則觀法於地觀鳥獸之文與地	-12.216
槃	-12.2161
由頤厲吉大有慶也	-12.2161
象曰有戎勿恤得中道也	-12.2161
象曰火在天上大有	-12.2162
劇	-12.2162
象曰萃有位志未光也	-12.2162
子曰君子之道或出或處或黙或語	-12.2163
袖	-12.2163
象曰大車以載積中不敗也	-12.2163
象曰大人否亨不亂羣也	-12.2163
象曰元吉无咎下不厚事也	-12.2164
週	-12.2164
攸利不續終也雖不當位剛柔應也	-12.2164
象曰老夫女妻過以相與也	-12.2164
九三咸其股執其隨往吝	-12.2164
六三即鹿无虞惟入于林中	-12.2164
象曰遇毒位不當也	-12.2165
六四翩翩不富以其鄰不戒以孚	-12.2165
震用伐鬼方	-12.2165
羮	-12.2167
六二明夷夷于左股用拯馬壯吉	-12.2167
偉	-12.2167
象曰坎不盈中未大也	-12.2168
象曰不事王侯志可則也	-12.2168
象曰九二貞吉得中道也	-12.2169
攬	-12.2169
象曰九二利貞中以為志也	-12.217
眉	-12.2172
抽	-12.2172
燼	-12.2174
帙	-12.2179
縣象著明莫大乎日月	-12.2288
物不可以終壯故受之以晉晉者進也	-12.2288
彖者言乎象者也爻者言乎變者也	-12.229
六五不富以其鄰利用侵伐无不利	-12.229
失得之象也悔吝者憂虞之象也	-12.2291
象曰利用侵伐征不服也	-12.2291
唯神也故不疾而速不行而至	-12.2292
神以知來知以藏往	-12.2292
初六之吉順也	-12.2292
應乎天而時行	-12.2293
易則易知簡則易從易知則有親	-12.2294
矦	-12.2294
六二晉如愁如貞吉受兹介福于其王母	-12.2295
虎視耽耽	-12.2296
憧	-12.2296
三分天下有其二	-12.2296
彪	-12.2296
極數知來之謂占通變之謂事	-12.2296
東谷鄭氏曰	-12.2297
圯	-12.2297
鳥焚其巢旅人先笑後號咷喪牛于易凶	-12.2297
乾健也坤順也震動也巽入也坎	-12.2298
其稱名也小其取類也大	-12.2298
思不出其位	-12.2298
彘	-12.2298
上九王用出征有嘉折首獲匪其醜无咎	-12.2299
象曰交孚无咎志行也	-12.2299
戡	-12.2299
叡	-12.2299
勘	-12.2299
隨有獲其義凶也有孚在道明功也	-12.2299
百姓日用而不知	-12.23
邠	-12.23
芥	-12.23
挨	-12.23
進得位往有功也進以正可以正邦也	-12.23
過以利貞與時行也柔得中是以小事吉	-12.2301
象曰九四之喜有慶也	-12.2301
六五悔亡失得勿恤往吉无不利	-12.2301
出涕沱若	-12.2301
蝦	-12.2301
璣	-12.2302
震亨震來虩虩笑言啞啞震驚百里不喪	-12.2302
鼎有實慎所之也我仇有疾終无尤也	-12.2304
洊雷震君子以恐懼修省	-12.2304
凜	-12.2305
事遄往尚合志也	-12.2305
釣	-12.2308
銀	-12.231
萬六千	-12.2356
􁄅	-12.2394
有孚窒惕中吉	-12.2424
乾為首坤為腹震為足	-12.2425
有孚光亨貞吉	-12.2426
卦有小大辭有險易辭也者各指其所之	-12.2426
剛柔者晝夜之象	-12.2426
崇髙莫大乎富貴	-12.2427
各正其性命	-12.2427
物不可以終盡剥窮上反下故受之以復	-12.2428
得其所歸者必大故受之以豐豐者大也	-12.2428
浩然之氣	-12.2429
象曰幽人貞吉中不自亂也	-12.243
撥	-12.243
蟻	-12.2431
萊	-12.2431
閹	-12.2431
尚口乃窮	-12.2431
象曰雷出地奮豫	-12.2432
晉如摧如	-12.2433
☲	-12.2433
九三旅焚其次喪其童僕貞厲	-12.2433
象曰大人之吉位正當也	-12.2433
尼	-12.2433
象曰君子之光其暉吉也	-12.2433
象曰以祉元吉中以行願也	-12.2434
為道也屢遷變動不居周流六	-12.2434
故太𤣥準之以	-12.2435
冉	-12.2435
不利有攸往小人長也順而止之觀象也	-12.2435
山上有火旅君子以明慎用刑而不留獄	-12.2435
九三髙宗伐鬼方三年克之小人勿用	-12.2435
陽陷隂中	-12.2435
剪	-12.2435
孚乃化邦	-12.2435
象曰幹母之蠱得中道也	-12.2436
上九巽在牀下喪其資斧貞凶	-12.2436
蒞	-12.2437
鼓之以雷霆	-12.2437
詠	-12.2437
髣	-12.2438
視聽言動	-12.2439
象曰王假有家交相愛也	-12.2439
同人于野亨利涉大川利君子貞	-12.2439
褚	-12.244
利見大人往有功也當位貞吉以正邦也	-12.2441
况其邇者乎	-12.2441
橋	-12.2441
褊	-12.2441
應地无疆	-12.2442
象曰公用射隼以解悖也	-12.2443
白雲郭氏曰先人曰	-12.2444
仞	-12.2444
欽定四庫全書大易粹言卷	-12.2446
惇	-12.2447
寥	-12.2449
丅	-12.2549
其羽可用為儀吉	-12.2563
貞固足以幹事	-12.2563
使平易者使傾其道甚大百物不廢懼以	-12.2565
以小惡為无傷而弗去也故惡積而不可	-12.2566
杙	-12.2567
勞謙君子有終吉子曰勞而不伐	-12.2568
精義入神以致用也利用安身以崇徳也	-12.2568
初率其辭而揆其方既有典常	-12.2569
无妄之往何之矣天命不祐行矣哉	-12.2569
大畜時也无妄災也	-12.257
☴	-12.257
不可惡也言天下之至動而不可亂也	-12.257
潛見飛躍	-12.257
内文明而外柔順	-12.257
象曰泣血漣如何可長也	-12.2571
椽	-12.2571
日中為市	-12.2571
彖曰小畜柔得位而上下應之曰小畜	-12.2571
象曰幹父之蠱意承考也	-12.2572
朋至斯孚	-12.2572
六四裕父之蠱往見吝	-12.2572
徠	-12.2573
賁如濡如	-12.2573
象曰勿用取女行不順也	-12.2573
君子道長小人道消	-12.2573
殉	-12.2573
象曰由豫大有得志大行也	-12.2573
象曰城復于隍其命亂也	-12.2573
苑	-12.2574
㐲	-12.2574
因貳以濟民行以明失得之報	-12.2574
象曰七日得以中道也	-12.2574
剛當位而應與時行也	-12.2575
萃如嗟如	-12.2575
六千九百一十二	-12.2575
井甃无咎修井也	-12.2575
大易擇言卷	-12.2575
象曰三年克之憊也	-12.2575
于食有福	-12.2576
象曰終以譽命上逮也	-12.2576
立卦生爻	-12.2576
枯楊生華何可久也老婦士夫亦可醜也	-12.2576
逾	-12.2577
象曰履錯之敬以辟咎也	-12.2577
四千六百八	-12.2577
觀我生觀民也	-12.2578
象曰維用伐邑道未光也	-12.2578
之興也其於中古乎作易者其有憂患乎	-12.2578
象曰幹父之蠱終无咎也	-12.2578
飛鳥遺音	-12.2578
隗	-12.2578
坤厚載物	-12.2578
肚	-12.2578
舊井无禽	-12.2578
繒	-12.2578
彖曰節亨剛柔分而剛得中	-12.2578
六五悔亡厥宗噬膚往何咎	-12.2578
象曰有孚攣如不獨富也	-12.2579
離南坎北	-12.2579
彖曰損損下益上其道上行	-12.2579
紓	-12.2581
初六鼎顛趾利出否得妾以其子无咎	-12.2581
掛一以象三	-12.2582
檀	-12.2583
煉	-12.2584
滓	-12.2585
澹	-12.2588
象曰无妄之行窮之災也	-12.2703
是故法象莫大乎天地變通莫大乎四時	-12.2704
八卦以象告爻彖以情言剛柔雜居	-12.2705
象曰豐其蔀位不當也	-12.2706
鹹	-12.2707
進必有所傷故受之以明夷夷者傷也	-12.2707
象曰艮其輔以中正也	-12.2707
是故天生神物聖人則之天地	-12.2707
鼫	-12.2708
古之葬者厚衣之以薪	-12.2708
象曰其行次且行未牽也	-12.2709
需須也險在前也剛健而不陷	-12.2709
咽	-12.271
坤以簡能	-12.271
氐	-12.271
象曰箕子之貞明不可息也	-12.271
臲	-12.2711
平甫項氏曰	-12.2711
地道卑而上行	-12.2712
裔	-12.2712
筤	-12.2712
上六迷復凶有災眚	-12.2712
有孚于飲酒	-12.2713
象曰拘係之上窮也	-12.2713
天道下濟而光明	-12.2713
風行天上小畜君子以懿文徳	-12.2714
抍	-12.2714
思患而豫防	-12.2714
僉	-12.2715
鵲	-12.2715
廸	-12.2716
上不在天下不在田	-12.2716
象曰夫妻反目不能正室也	-12.2717
彖曰同人柔得位得中而應乎乾曰同人	-12.2717
九四隨有獲貞凶有孚在道以明何咎	-12.2717
火動而上澤動而下	-12.2717
旒	-12.2719
謁	-12.2719
程可乆曰	-12.2719
不可榮以禄	-12.272
初九磐桓利居貞利建侯	-12.2721
蹇利西南往得中也不利東北其道窮也	-12.2721
撮	-12.2721
象曰覆公餗信如何也	-12.2722
駮	-12.2722
朱子小註	-12.2723
郁	-12.2724
柳	-12.2724
歐	-12.2839
彖曰艮止也時止則止時行則行	-12.2845
易之為書也原始要終以為質也	-12.2846
聖人之意其不可見乎子曰聖人立	-12.2847
九四无咎弗過遇之往厲必戒勿用永貞	-12.2849
悔吝者言乎其小疵也无咎者善補過也	-12.2849
爻象動乎内吉凶見乎外功業見乎變	-12.2849
變化聖人效之天垂象見吉凶聖人象之	-12.285
遯者退也物不可以終遯故受之以大壯	-12.285
君子見幾而作不俟終日易曰介于石	-12.2851
唯深也故能通天下之志	-12.2851
立象盡意	-12.2852
六四需于血出自穴	-12.2852
象曰天下有風姤后以施命誥四方	-12.2853
廣雅云	-12.2853
臨者大也物大然後可觀故受之以觀	-12.2853
古者包犧氏之王天下也仰則觀象	-12.2854
稺	-12.2854
嬉	-12.2854
兩澤相麗	-12.2855
不逺之復以修身也	-12.2855
鳩	-12.2856
燠	-12.2856
含章可貞以時發也或從王事知光大也	-12.2856
不橈乎下	-12.2856
男女搆精	-12.2856
象曰或得其桷順以巽也	-12.2857
象曰公用亨于天子小人害也	-12.2857
旅焚其次亦以傷矣以旅與下其義喪也	-12.2857
九五休否大人吉其亡其亡繫于苞桑	-12.2857
象曰樽酒簋貳剛柔際也	-12.2857
彈	-12.2857
初九遇其配主雖旬无咎往有尚	-12.2857
象曰屯其膏施未光也	-12.2858
木在水上	-12.2858
蔣	-12.2858
九二大車以載有攸往无咎	-12.2859
贍	-12.2859
霄	-12.2859
鎔	-12.2859
王假有廟致孝享也利見大人亨	-12.286
扞	-12.286
上有地臨君子以教思无窮容保民无疆	-12.2861
埋	-12.2861
不及其君遇其臣	-12.2861
甸	-12.2861
象曰飲食衎衎不素飽也	-12.2863
縟	-12.2865
劈	-12.2865
鞠	-12.2865
銅	-12.2867
有嚴君焉父母之謂也父父子子兄兄弟	-12.287
進德脩業	-12.2875
繼之者善也成之者性也	-12.295
萬七千	-12.2977
不如其娣之袂良	-12.2982
象曰弗過遇之位不當也	-12.2991
曰不克訟歸逋竄也自下訟上患至掇也	-12.2992
隂二君而一民小人之道也	-12.2994
文言曰元者善之長也亨者嘉之	-12.2994
睇	-12.2994
亢龍有悔盈不可久也	-12.2995
刳木為舟剡木為楫舟楫之利以濟不通	-12.2995
滂	-12.2995
非天下之至精其孰能與於此	-12.2996
諡	-12.2996
物始萬物者莫盛乎艮故水火相逮雷風	-12.2996
上六弗遇過之飛鳥離之凶是謂災眚	-12.2996
上下无常剛柔相易	-12.2997
象曰艮其趾未失正也	-12.2997
覇	-12.2997
六四括囊无咎无譽	-12.2997
學以聚之問以辨之寛以居之仁以行之	-12.2998
動萬物者莫疾乎雷撓萬物者莫疾乎風	-12.2998
百穀草木	-12.2999
象曰咸其股亦不處也志在隨人所執下	-12.2999
慎言語節飲食	-12.3001
先笑後號咷	-12.3001
象曰歸妹以須未當也	-12.3001
蘋	-12.3001
拔茅征吉志在外也	-12.3001
象曰困于酒食中有慶也	-12.3002
貞吉悔亡未感害也憧憧往來未光大也	-12.3002
睽外也家人内也	-12.3002
積中不敗	-12.3003
杭	-12.3003
巴	-12.3003
初九悔亡喪馬勿逐自復見惡人无咎	-12.3003
呉㓜清	-12.3004
王用三驅失前禽	-12.3004
乘木舟虚	-12.3004
履以和行謙以制禮復以自知恒以一	-12.3004
有不善未嘗不知	-12.3004
喪馬勿逐	-12.3005
韌	-12.3005
蟠	-12.3007
孑	-12.3008
昂	-12.3008
恍	-12.3008
㢘	-12.3008
韋編三絶	-12.3009
熒	-12.301
胞	-12.3011
象曰王臣蹇蹇終无尤也	-12.3012
盲	-12.3012
㝢	-12.3012
燈	-12.3015
戰乎乾乾西北之卦也言隂陽相薄也	-12.3133
定其交而後求	-12.3137
物致用立成器以為天下利莫大乎聖人	-12.3137
闃	-12.3139
彖曰豐大也明以動故豐	-12.314
戎所尚乃窮也利有攸往剛長乃終也	-12.314
崔氏憬曰	-12.3141
三與五同功而異位	-12.3141
設卦以盡情偽	-12.3142
象曰其羽可用為儀吉不可亂也	-12.3142
天地設位聖人成能人謀鬼謀百姓與能	-12.3142
陷必有所麗故受之以離離者麗也	-12.3142
盛徳大業至矣哉	-12.3143
蕤	-12.3143
象曰利有攸往上合志也	-12.3143
䕃	-12.3144
惺	-12.3144
􁀈	-12.3144
小利貞浸而長也遯之時義大矣哉	-12.3144
易曰屨校滅趾无咎此之謂也	-12.3144
子曰易其至矣乎夫易聖人所以崇	-12.3145
豫順以動故天地如之而况建侯行師乎	-12.3145
亢之為言也知進而不知退知	-12.3146
神无方而易无體	-12.3146
萬夫之望	-12.3147
㓗	-12.3147
乃謂之象形乃謂之器制而用之謂之法	-12.3147
老夫得其女妻	-12.3147
旅在上其義焚也喪牛于易終莫之聞也	-12.3147
象曰王用出征以正邦也	-12.3147
初九虞吉志未變也	-12.3148
濡其首厲何可久也	-12.3148
汴水趙氏曰	-12.3148
稅	-12.3149
麾	-12.3149
巽在牀下上窮也喪其資斧正乎凶也	-12.3149
巽小亨利有攸往利見大人	-12.3149
象曰翰音登于天何可長也	-12.315
諉	-12.315
彖曰漸之進也女歸吉也	-12.3151
不耕而穫不菑而畬	-12.3151
亳	-12.3151
象曰以宫人寵終无尤也	-12.3152
一往一來	-12.3153
后不省方	-12.3153
覦	-12.3153
樓	-12.3153
徊	-12.3154
巧言令色	-12.3154
衎	-12.3155
嚮晦入宴息	-12.3155
伎	-12.3155
地二生火	-12.3155
損剛益柔有時損益盈虚與時偕行	-12.3156
猾	-12.3156
大師克相遇	-12.3157
㗐	-12.3159
凋	-12.3159
貯	-12.316
兀	-12.3161
派	-12.3161
雁	-12.3163
魏伯陽	-12.3164
點	-12.3166
戍	-12.3167
物相遇而後聚故受之以萃萃者聚也	-12.3193
乎澤潤萬物者莫潤乎水終萬	-12.327
絢	-12.3289
化而裁之存乎變推而行之存乎通神而	-12.329
天地之大義也天地不交而萬物不	-12.329
探賾索隱	-12.329
比者比也比必有所畜故受之以小畜	-12.3292
分隂分陽迭用柔剛故易六位而成章	-12.3292
子曰知變化之道者其知神之所為乎	-12.3292
菽	-12.3293
象曰不終日貞吉以中正也	-12.3293
東鄰殺牛不如西鄰之禴祭實受其福	-12.3294
食舊徳從上吉也	-12.3294
象曰未濟征凶位不當也	-12.3294
程河南曰	-12.3295
弘	-12.3295
陽也故稱龍焉猶未離其類也故稱血焉	-12.3295
旁行而不流	-12.3296
初九拔茅茹以其彚征吉	-12.3296
嘯	-12.3296
鱉	-12.3296
甘節之吉居位中也	-12.3297
匏	-12.3297
象曰入于幽谷幽不明也	-12.3297
雜而不厭損先難而後易益長裕而不設	-12.3297
嵗不覿凶	-12.3298
考工記	-12.3298
悮	-12.3298
建萬國親諸侯	-12.3298
圃	-12.3299
井泥不食下也舊井无禽時舍也	-12.3299
剥剥也柔變剛也	-12.3299
九四匪其彭无咎	-12.3299
無聲無臭	-12.33
旅瑣瑣志窮災也	-12.33
有嘉折首	-12.33
匠	-12.3301
閼	-12.3301
榱	-12.3301
戒占者宜如是也	-12.3301
胡翼之曰	-12.3301
初九復自道何其咎吉	-12.3302
象曰得童僕貞終无尤也	-12.3302
或泣或歌	-12.3302
磐桓志行正也以貴下賤大得民也	-12.3303
日可見之行	-12.3303
奄	-12.3304
憬	-12.3304
楊敬仲曰	-12.3304
舍逆取順	-12.3305
邾	-12.3306
畿	-12.3307
瞭	-12.3309
貿	-12.331
蓬	-12.3312
象曰家人嗃嗃未失也婦子嘻嘻失家節	-12.3327
􁄆	-12.341
凶成天下之亹亹者莫大乎蓍龜	-12.3419
歸竒於扐	-12.3427
巽巽東南也齊也者言萬物之潔齊也	-12.3434
動静不失其時其道光明	-12.3435
之子曰君子居其室	-12.3437
頤貞吉觀頤自求口實	-12.3439
大畜利貞不家食吉利涉大川	-12.3439
前言往行	-12.344
是故列貴賤者存乎位齊小大者存乎卦	-12.3441
終日貞吉介如石焉寧用終日斷可識	-12.3442
觀頤觀其所養也自求口實觀其自養也	-12.3442
鎬	-12.3443
物相雜故曰文文不當故吉凶生焉	-12.3444
上下不交而天下无邦也内隂而外陽	-12.3445
何天之衢道大行也	-12.3446
盜之招也	-12.3446
言行君子之樞機樞機之發榮辱之主也	-12.3446
鮮不及矣易曰鼎折足覆公餗其形渥凶	-12.3446
剛遇中正天下大行也姤之時義大矣哉	-12.3447
用六永貞以大終也	-12.3448
得輿民所載也小人剥廬終不可用也	-12.3448
象曰渙其羣元吉光大也	-12.3448
杳	-12.3449
濱	-12.3449
祓	-12.3449
分剛上而文柔故小利有攸往天文也	-12.345
天地閉賢人隠	-12.345
維心亨乃以剛中也行有尚往有功也	-12.345
初六旅瑣瑣斯其所取災	-12.3451
聚以正也用大牲吉利有攸往順天命也	-12.3451
羌	-12.3451
瓛	-12.3451
雖凶居吉順不害也	-12.3451
象曰見惡人以辟咎也	-12.3451
以服事殷	-12.3451
象曰突如其來如无所容也	-12.3452
无成而代有終	-12.3452
發號施令	-12.3452
先王以作樂崇徳殷薦之上帝以配祖考	-12.3453
儔	-12.3453
初九曳其輪濡其尾无咎	-12.3454
悴	-12.3454
六四月幾望馬匹亡无咎	-12.3454
啄	-12.3454
戶	-12.3456
腴	-12.3457
禆	-12.3457
上六往蹇來碩吉利見大人	-12.3458
寤	-12.3458
軰	-12.3459
逄	-12.346
覘	-12.3461
姒	-12.3463
語定其交而後求君子修此三者故全也	-12.3594
隷	-12.3595
子曰小人不恥不仁不畏不義不見利不	-12.3595
懿文德	-12.3597
徳博而化	-12.3597
精義入神以致用	-12.3597
剛柔者立本者也變通者趣時者也	-12.3597
默	-12.3597
象曰天地交泰后以財成天地之道	-12.3597
健而說決而和	-12.3598
夫易廣矣大矣以言乎逺則不禦	-12.3598
辨吉凶者存乎辭	-12.3598
論功行賞	-12.36
井改邑不改井无喪无得往來井井	-12.36
☱	-12.36
以言者尚其辭	-12.36
天地以生物為心	-12.3601
剋	-12.3601
木為風為長女為繩直為工為白為長為	-12.3601
樵	-12.3601
初六拔茅茹以其彚貞吉亨	-12.3601
九四貞吉悔亡憧憧往來朋從爾思	-12.3603
象曰受兹介福以中正也	-12.3603
男正位乎外男女正天地之大義也家人	-12.3603
象曰歸妹以娣以恒也跛能履吉相承也	-12.3603
耕穫菑畬	-12.3603
象曰來之坎坎終无功也	-12.3604
受兹介福	-12.3604
撼	-12.3604
雨以潤之	-12.3604
頸	-12.3604
比之匪人不亦傷乎	-12.3605
庸言庸行	-12.3605
冬至子之半	-12.3605
幹父用譽承以徳也	-12.3606
鬰	-12.3606
自始至終	-12.3607
貪而畏人	-12.3607
其位剛得中也止而巽動不窮也	-12.3607
簿	-12.3608
經卦皆八	-12.361
二震來厲億喪貝躋于九陵勿逐七日得	-12.361
揲之以四以象四時	-12.361
悼	-12.3613
動則觀其變而玩其占是以自天祐之吉	-12.3616
楊道夫録	-12.3618
膽	-12.3619
善世而不伐	-12.364
畏鄰戒	-12.3744
楅	-12.3744
以喜隨人者必有事故受之以蠱	-12.3749
逺近相取而悔吝生情偽相感而利害生	-12.375
君子體仁足以長人嘉㑹足	-12.375
子曰顔氏之子其殆庶幾乎	-12.3751
嚮明而治	-12.3751
艮為山為徑路為小石為門闕為果蓏	-12.3752
當文王與紂之事邪是故其辭危危	-12.3752
唯幾也故能成天下之務	-12.3752
子曰夫易何為者也夫易開物成務	-12.3752
仰以觀於天文俯以察於地理	-12.3753
家道窮必乖故受之以睽睽者乖也	-12.3754
健而説決而和	-12.3754
九五需于酒食貞吉	-12.3754
乾坤其易之緼邪	-12.3756
凶震不于其躬于其鄰无咎婚媾有言	-12.3756
曰咸感也柔上而剛下二氣感應以相與	-12.3757
晢	-12.3757
九二包有魚无咎不利賔	-12.3757
曠逺之地	-12.3757
象曰龍戰于野其道窮也	-12.3758
上九碩果不食君子得輿小人剥廬	-12.3758
徐進齋曰	-12.3759
嘿	-12.3759
雎	-12.3759
飛鳥離之凶	-12.376
彖曰睽火動而上澤動而下	-12.376
白賁无咎上得志也	-12.3761
牝馬地類行地无疆柔順利貞君子攸行	-12.3761
湎	-12.3761
翫	-12.3762
欝	-12.3763
瓢	-12.3765
懽	-12.3766
院	-12.3767
仡	-12.3912
虺	-12.3918
軋	-12.3919
沼	-12.3919
線	-12.392
湮	-12.3921
聳	-12.3922
鑚	-12.3923
泌	-12.3924
氤	-12.3925
剰	-12.3927
冢	-12.3931
怎	-12.3932
种	-12.3932
叟	-12.4071
羿	-12.4075
訾	-12.4079
洟	-12.4083
礪	-12.4085
攜	-12.4085
腑	-12.4085
氲	-12.4086
鬻	-12.4087
紙	-12.4089
壇	-12.409
炙	-12.409
浴	-12.4091
畆	-12.4091
刲	-12.4237
厓	-12.424
縉	-12.4244
嚙	-12.4246
浄	-12.4247
㦸	-12.4247
緜	-12.4248
鋸	-12.4248
靠	-12.4249
禔	-12.4249
狡	-12.4249
襃	-12.4251
胚	-12.4251
郝	-12.4252
桶	-12.4255
滴	-12.4256
縷	-12.4256
娓	-12.4394
拖	-12.4401
曼	-12.4404
憐	-12.4405
㦯	-12.4407
怍	-12.4409
阱	-12.4413
囓	-12.4413
藪	-12.4413
芝	-12.4413
迸	-12.4415
輅	-12.4415
裨	-12.4416
販	-12.4417
纆	-12.4418
逅	-12.4418
簇	-12.4419
製	-12.442
蕪	-12.4423
髀	-12.4424
轝	-12.4569
顏	-12.4572
纖	-12.4574
逡	-12.4576
旂	-12.4576
踏	-12.4577
豊	-12.4581
蒐	-12.4584
殽	-12.4586
愽	-12.4587
諦	-12.4588
雒	-12.4741
􁁊	-12.4743
籓	-12.4747
訴	-12.4747
縳	-12.4749
斲	-12.475
莱	-12.4751
殞	-12.4751
價	-12.4752
霞	-12.4752
槖	-12.4752
靳	-12.4752
褻	-12.4752
碑	-12.4754
纓	-12.4755
紅	-12.4755
聫	-12.4759
袛	-12.4763
羃	-12.4769
湘	-12.4916
劭	-12.4918
訊	-12.4919
忙	-12.4921
緇	-12.4923
譔	-12.4925
曖	-12.4926
牴	-12.4926
黻	-12.4928
詹	-12.4929
弩	-12.4929
蟇	-12.4932
轟	-12.4933
摸	-12.4934
䕫	-12.4934
洲	-12.4935
粉	-12.4939
趄	-12.4942
耆	-12.4944
媧	-12.5092
虵	-12.51
扣	-12.5101
㳟	-12.5103
掖	-12.5104
蒯	-12.5104
戔	-12.5106
僃	-12.5107
躓	-12.511
蹊	-12.511
秬	-12.511
鴆	-12.511
針	-12.5111
泗	-12.5113
貊	-12.5115
瞑	-12.5115
油	-12.5117
颺	-12.5118
艻	-12.5159
犂	-12.5279
慍	-12.5282
篚	-12.5283
沴	-12.5284
躑	-12.5286
罍	-12.5286
邲	-12.5286
溼	-12.529
諍	-12.529
綢	-12.529
禎	-12.5291
映	-12.5292
腔	-12.5293
惶	-12.5293
掉	-12.5294
駿	-12.5294
桔	-12.5294
歇	-12.5295
霑	-12.5295
衮	-12.5297
坑	-12.5298
錦	-12.5298
蛟	-12.5298
轆	-12.5302
寋	-12.5465
卬	-12.5465
拕	-12.5467
麋	-12.5467
棠	-12.5468
劍	-12.5468
泝	-12.547
睡	-12.5471
甑	-12.5472
荼	-12.5472
銓	-12.5474
聮	-12.5475
旄	-12.5475
譚	-12.5477
挹	-12.5477
税	-12.5479
腦	-12.5481
鐸	-12.5483
澮	-12.5485
轤	-12.5486
斑	-12.5657
護	-12.5661
挑	-12.5661
奎	-12.5662
炊	-12.5664
謫	-12.5665
慤	-12.5666
懾	-12.5666
轡	-12.5672
掊	-12.5673
贛	-12.5674
欒	-12.5674
型	-12.5674
崑	-12.5685
隤	-12.5811
垓	-12.5834
銑	-12.5848
竪	-12.585
磬	-12.5851
沚	-12.5851
莒	-12.5852
脯	-12.5852
𤾉	-12.5854
皎	-12.5854
厨	-12.5854
騷	-12.5857
忝	-12.5858
鑽	-12.5858
鍼	-12.5858
琢	-12.5859
刄	-12.586
撲	-12.5861
覯	-12.5862
澆	-12.5862
莞	-12.5864
踦	-12.5878
絃	-12.588
藹	-12.6045
螻	-12.6047
絪	-12.605
屹	-12.6052
琰	-12.6052
矰	-12.6053
𦵏	-12.6055
諾	-12.6055
烟	-12.6055
灑	-12.6056
帷	-12.6056
籩	-12.6057
歷	-12.6058
葵	-12.6058
哺	-12.6058
訐	-12.6058
肓	-12.6058
禇	-12.606
虜	-12.6062
准	-12.6062
諤	-12.6065
􁄈	-12.6072
􁄇	-12.6086
􁄊	-12.6217
霖	-12.6244
諄	-12.6245
臥	-12.6247
欿	-12.6247
鍵	-12.6248
隰	-12.6251
丄	-12.6252
漣	-12.6252
蒿	-12.6253
鯀	-12.6253
溷	-12.6254
縂	-12.6254
榆	-12.6255
汶	-12.6256
鰥	-12.6256
酣	-12.6256
瀾	-12.6257
鑊	-12.6259
拈	-12.6259
恂	-12.6261
稗	-12.6261
聊	-12.6263
弍	-12.6263
誚	-12.6265
旴	-12.6445
褐	-12.6445
齬	-12.6452
楳	-12.6454
丸	-12.6454
鈍	-12.6454
攙	-12.6456
刈	-12.6457
駹	-12.6457
聾	-12.6458
撤	-12.6461
吞	-12.6463
缾	-12.6463
㝷	-12.6464
髓	-12.6464
錡	-12.6464
搃	-12.6465
譖	-12.6467
稀	-12.6468
埴	-12.6658
駒	-12.6658
嗚	-12.6659
娛	-12.6661
啼	-12.6664
怖	-12.6664
牾	-12.6666
貸	-12.6667
渚	-12.6667
俛	-12.6668
耘	-12.667
靁	-12.667
霽	-12.667
軟	-12.667
贈	-12.6671
薨	-12.6674
暵	-12.6675
扄	-12.6675
糓	-12.6676
頊	-12.6863
沍	-12.6869
朂	-12.6869
仔	-12.6874
涑	-12.6875
湄	-12.6877
仄	-12.6878
汾	-12.6879
跬	-12.688
覃	-12.6883
企	-12.6884
欵	-12.6884
韶	-12.6885
蘆	-12.6886
䁥	-12.6886
畱	-12.6886
玷	-12.6889
亶	-12.6892
蜚	-12.7084
舂	-12.7084
翮	-12.7088
鶻	-12.709
掞	-12.7091
躅	-12.7091
尢	-12.7092
侃	-12.7095
汜	-12.7096
凰	-12.7097
𦙍	-12.7098
剏	-12.7099
鄱	-12.7099
翦	-12.71
償	-12.7101
杯	-12.7102
刁	-12.7103
箴	-12.7105
阪	-12.7108
你	-12.7108
嚼	-12.7306
椿	-12.7308
祛	-12.7308
濮	-12.731
猝	-12.7311
雝	-12.7312
煬	-12.7313
僑	-12.7315
忮	-12.7316
畸	-12.7316
忱	-12.7317
裝	-12.7318
黼	-12.7319
饌	-12.7319
粘	-12.7321
芸	-12.7322
蛙	-12.7324
扼	-12.7325
諷	-12.7327
隻	-12.7327
笰	-12.7327
藁	-12.7328
塘	-12.7329
藜	-12.7341
疽	-12.753
挫	-12.7536
棣	-12.7536
甄	-12.7537
鋪	-12.7538
閴	-12.7538
滑	-12.7541
孥	-12.7543
𤨏	-12.7543
熖	-12.7544
卞	-12.7544
燮	-12.7544
穽	-12.7547
瘳	-12.7548
脾	-12.7548
沽	-12.7549
誌	-12.7549
瑜	-12.755
煌	-12.755
跌	-12.7551
譎	-12.7552
謐	-12.7553
謾	-12.7554
沐	-12.7554
驥	-12.7558
掠	-12.7561
〈	-12.7696
〉	-12.7697
㽔	-12.7758
賄	-12.7767
栽	-12.7771
疢	-12.7771
咷	-12.7771
控	-12.7772
寗	-12.7772
縠	-12.7772
犖	-12.7773
汁	-12.7773
棗	-12.7775
球	-12.7776
儗	-12.7776
焰	-12.7777
秪	-12.7778
厠	-12.7778
跟	-12.7778
䟦	-12.7779
橰	-12.778
軻	-12.778
筵	-12.7781
廻	-12.7784
驂	-12.7786
箭	-12.7786
阼	-12.7786
岌	-12.7791
䠞	-12.7794
柬	-12.7795
瞰	-12.8008
翺	-12.8009
翬	-12.8009
殁	-12.8012
单	-12.8012
僂	-12.8012
瀕	-12.8013
嗃	-12.8014
迺	-12.8014
庾	-12.8015
𬒮	-12.8015
暄	-12.8015
蘩	-12.8017
睛	-12.8017
抜	-12.8018
擠	-12.8018
㴱	-12.8018
摭	-12.802
兾	-12.8021
徘	-12.8022
劒	-12.8023
剔	-12.8024
稔	-12.8027
膳	-12.8027
鉛	-12.8028
巟	-12.8029
秭	-12.8229
显	-12.8236
胯	-12.8239
蔟	-12.8248
閠	-12.8248
豺	-12.825
愓	-12.825
矍	-12.8251
隮	-12.8252
涎	-12.8252
渇	-12.8254
勺	-12.8255
姣	-12.8256
摠	-12.8257
􁀙	-12.8258
侁	-12.8259
杓	-12.8259
餌	-12.826
盆	-12.8261
簀	-12.8261
楨	-12.8261
驪	-12.8262
糊	-12.8262
閨	-12.8264
閃	-12.8265
辵	-12.8269
虹	-12.8494
啜	-12.8496
蘧	-12.85
徨	-12.85
㐳	-12.85
冡	-12.8503
鵬	-12.8504
瘦	-12.8507
圮	-12.8508
傚	-12.8508
洒	-12.8508
毖	-12.8508
芟	-12.8509
㢤	-12.8509
劄	-12.8509
嶇	-12.851
燃	-12.8511
擲	-12.8511
逭	-12.8512
崎	-12.8513
藎	-12.8514
狭	-12.8514
届	-12.8514
蹤	-12.8514
餽	-12.8514
欹	-12.8515
凂	-12.8516
宓	-12.8518
嗷	-12.8518
玦	-12.875
聿	-12.8758
揀	-12.8759
抉	-12.8764
宂	-12.8765
璠	-12.8765
穩	-12.8765
縲	-12.8766
躇	-12.8767
倀	-12.8768
躊	-12.8768
蒂	-12.8769
畛	-12.8769
灮	-12.8769
砌	-12.877
衒	-12.877
杲	-12.8771
紳	-12.8773
兕	-12.8774
彳	-12.8775
晟	-12.8778
鼏	-12.8783
硏	-12.9016
鉗	-12.9018
酸	-12.902
荏	-12.9023
貺	-12.9023
劵	-12.9025
蛤	-12.9027
珪	-12.9027
頺	-12.9027
潭	-12.9027
鏃	-12.9027
廪	-12.9029
涇	-12.903
賑	-12.903
軼	-12.9031
惴	-12.9031
粥	-12.9032
揠	-12.9032
徯	-12.9033
緑	-12.9033
擢	-12.9036
璐	-12.9041
蠲	-12.9042
亹	-12.9287
懌	-12.9289
饜	-12.9292
鬲	-12.9294
爨	-12.9295
邃	-12.9295
嘵	-12.9296
萑	-12.9298
臾	-12.9298
雛	-12.9299
岡	-12.9299
啞	-12.93
船	-12.93
韞	-12.9301
杼	-12.9301
巇	-12.9302
襟	-12.9302
彤	-12.9302
苻	-12.9304
懟	-12.9305
顥	-12.9305
鑈	-12.9306
喟	-12.9307
燾	-12.9308
犀	-12.9308
評	-12.9309
臍	-12.931
巔	-12.931
侣	-12.9312
;	-12.9488
跾	-12.956
痕	-12.9567
蠖	-12.9568
涌	-12.9569
漂	-12.9571
刼	-12.9571
栢	-12.9572
煮	-12.9573
瘥	-12.9573
嚬	-12.9573
遙	-12.9573
袍	-12.9575
拳	-12.9576
豬	-12.9577
屮	-12.9577
晴	-12.9577
璟	-12.9579
𥙷	-12.9581
汰	-12.9581
押	-12.9581
撞	-12.9582
儕	-12.9583
架	-12.9585
纊	-12.9586
溯	-12.9586
陪	-12.9587
弌	-12.9592
廿	-12.9601
尫	-12.9852
磋	-12.9854
䘏	-12.9857
訝	-12.9857
涪	-12.9857
紬	-12.9859
轑	-12.9859
潢	-12.9859
隄	-12.986
榜	-12.9862
悃	-12.9862
竑	-12.9863
叮	-12.9863
煙	-12.9864
橘	-12.9864
甓	-12.9864
繕	-12.9865
簣	-12.9865
肘	-12.9866
覧	-12.9866
痼	-12.9866
髦	-12.9866
粢	-12.9867
譛	-12.9867
兇	-12.9868
拭	-12.9868
鴞	-12.9869
穹	-12.9871
逕	-12.9872
龎	-12.9872
唇	-12.9872
芬	-12.9874
袵	-12.9877
巛	-12.9878
浟	-13.0138
厘	-13.0143
杏	-13.0144
嫚	-13.0144
㸦	-13.0147
昳	-13.0148
檝	-13.0148
㒋	-13.0149
藟	-13.015
戠	-13.015
毨	-13.0151
氓	-13.0152
网	-13.0152
㒳	-13.0153
奭	-13.0154
拽	-13.0155
郷	-13.0155
廩	-13.0155
圄	-13.0157
嚀	-13.0157
昉	-13.0158
謳	-13.0158
聪	-13.0158
詖	-13.0159
甥	-13.0159
鍳	-13.016
檜	-13.0161
鴟	-13.0162
琅	-13.0163
觴	-13.0164
㳂	-13.0166
頁	-13.0167
彫	-13.0171
漲	-13.0172
禰	-13.0172
組	-13.0174
柰	-13.0178
筞	-13.0437
㬜	-13.0445
竿	-13.045
蔕	-13.0452
輳	-13.0456
轄	-13.0457
鄴	-13.0457
飜	-13.0457
脂	-13.0457
鄢	-13.0458
禳	-13.0459
罩	-13.046
愉	-13.046
餱	-13.046
㮣	-13.046
鑰	-13.046
怛	-13.046
糜	-13.0461
煎	-13.0461
囹	-13.0461
隴	-13.0461
鯉	-13.0462
咏	-13.0462
孿	-13.0463
爕	-13.0463
􁂌	-13.0464
跖	-13.0464
兠	-13.0464
芘	-13.0465
剕	-13.0465
换	-13.0465
擭	-13.0465
楹	-13.0469
穡	-13.0469
竦	-13.047
愷	-13.0471
㬊	-13.0472
寝	-13.0472
撙	-13.0473
沓	-13.0475
崙	-13.0488
吭	-13.0489
觝	-13.0755
恠	-13.076
瀘	-13.0762
郵	-13.0763
窈	-13.0764
虢	-13.0765
陜	-13.0768
腨	-13.0768
塹	-13.0769
壼	-13.077
剽	-13.077
刵	-13.0771
伶	-13.0771
卲	-13.0771
螺	-13.0772
醖	-13.0772
狁	-13.0773
罄	-13.0773
趍	-13.0774
吻	-13.0774
琨	-13.0775
篡	-13.0775
衹	-13.0775
删	-13.0776
淚	-13.0776
戛	-13.0777
殳	-13.0777
縢	-13.0777
座	-13.0778
攖	-13.0778
枵	-13.0779
閟	-13.078
署	-13.078
僩	-13.078
糞	-13.0781
壻	-13.0781
綰	-13.0785
撻	-13.0787
弎	-13.0789
內	-13.1065
讚	-13.108
栻	-13.1087
廊	-13.1087
􁂞	-13.1088
宐	-13.1089
璇	-13.1089
戯	-13.1091
鈐	-13.1092
罋	-13.1092
璋	-13.1092
蛄	-13.1093
倆	-13.1093
瀉	-13.1094
騶	-13.1094
莆	-13.1094
藐	-13.1094
昱	-13.1094
悚	-13.1094
粱	-13.1095
綺	-13.1095
闥	-13.1095
淄	-13.1096
妍	-13.1097
襦	-13.1097
惱	-13.1097
傴	-13.1097
胾	-13.1097
舄	-13.1097
狷	-13.1097
啇	-13.1098
卭	-13.1098
療	-13.1098
醲	-13.1099
仭	-13.1099
庠	-13.11
洶	-13.11
愕	-13.1103
蕢	-13.1103
捄	-13.1104
携	-13.1106
敺	-13.1107
恙	-13.1108
裡	-13.1109
簟	-13.1109
􁂮	-13.1113
捊	-13.1117
腫	-13.141
虙	-13.1418
筠	-13.1419
鍇	-13.142
眈	-13.142
頣	-13.142
籀	-13.1421
顰	-13.1423
汩	-13.1424
臘	-13.1424
葭	-13.1425
侖	-13.1425
膜	-13.1426
勻	-13.1426
聧	-13.1426
葆	-13.1427
汐	-13.1428
厮	-13.1428
袒	-13.1428
陌	-13.1428
虆	-13.1429
刊	-13.1429
柏	-13.143
膊	-13.1431
嚚	-13.1432
䧏	-13.1432
薇	-13.1432
倨	-13.1433
莠	-13.1433
檷	-13.1434
疋	-13.1435
駐	-13.1435
婺	-13.1437
隸	-13.1439
磊	-13.1439
蕕	-13.1439
碌	-13.1442
蝸	-13.1445
拊	-13.1445
鸞	-13.1447
讜	-13.1449
批	-13.176
旃	-13.1762
迤	-13.1762
蓼	-13.1763
毓	-13.1764
聒	-13.1764
喧	-13.1765
猖	-13.177
藍	-13.177
懵	-13.1771
鳬	-13.1772
蕘	-13.1772
誑	-13.1772
蕡	-13.1772
甯	-13.1773
奐	-13.1773
綠	-13.1773
􁀕	-13.1773
愴	-13.1774
糟	-13.1774
睟	-13.1774
塲	-13.1775
閾	-13.1775
殱	-13.1775
趺	-13.1776
頬	-13.1777
汴	-13.1778
殛	-13.1778
覡	-13.1779
莾	-13.1779
醢	-13.1779
揔	-13.1779
抝	-13.178
宀	-13.1781
昰	-13.1782
㳙	-13.1784
簠	-13.1786
衺	-13.1787
簭	-13.1792
趑	-13.1793
汞	-13.1804
粲	-13.2102
咺	-13.2113
蟬	-13.2114
坻	-13.2118
穗	-13.2123
錙	-13.2124
枷	-13.2124
幬	-13.2125
剠	-13.2125
紇	-13.2126
懫	-13.2126
胖	-13.2127
丗	-13.2127
蹔	-13.2128
爆	-13.2128
愍	-13.2129
曝	-13.2129
劃	-13.213
攴	-13.213
卼	-13.2131
跪	-13.2131
抒	-13.2132
翅	-13.2132
黽	-13.2133
羶	-13.2134
罸	-13.2135
纏	-13.2135
悽	-13.2135
薳	-13.2135
仿	-13.2135
詛	-13.2136
締	-13.2136
凹	-13.2138
冗	-13.2138
賡	-13.2138
揺	-13.2138
黏	-13.2139
愿	-13.2141
村	-13.2142
謚	-13.2142
扁	-13.2142
肫	-13.2146
梐	-13.2152
薺	-13.2474
尟	-13.2482
窳	-13.2485
䔧	-13.2485
􁀷	-13.2486
燿	-13.2487
㸑	-13.2489
蚓	-13.2492
媮	-13.2492
喋	-13.2492
溽	-13.2494
韙	-13.2494
􁀆	-13.2495
踊	-13.2495
塟	-13.2495
竢	-13.2496
鳶	-13.2496
讞	-13.2496
敇	-13.2498
滙	-13.2498
劘	-13.2498
寞	-13.2499
梟	-13.2499
辠	-13.2499
鈇	-13.25
愀	-13.25
訢	-13.2501
𡵨	-13.2502
螢	-13.2502
侗	-13.2503
挟	-13.2503
蜃	-13.2503
喘	-13.2504
淩	-13.2504
唾	-13.2504
譙	-13.2505
酈	-13.2507
箱	-13.2507
秖	-13.2507
觚	-13.2507
皋	-13.2509
胙	-13.2511
鏘	-13.2513
租	-13.2513
猗	-13.2515
箸	-13.2516
夸	-13.2521
塾	-13.253
!	-13.2838
焞	-13.2858
豭	-13.2868
隧	-13.2875
㸷	-13.2876
忼	-13.2876
蜂	-13.2878
枮	-13.2879
撍	-13.2879
酩	-13.288
窘	-13.288
縈	-13.2881
擕	-13.2882
產	-13.2883
嘏	-13.2883
濩	-13.2883
㝡	-13.2883
狙	-13.2883
晞	-13.2884
霓	-13.2884
堕	-13.2885
􁀱	-13.2886
菁	-13.2888
嬗	-13.2888
奬	-13.2888
悱	-13.2889
瓊	-13.2889
祧	-13.289
饕	-13.289
鏑	-13.289
惚	-13.2891
魅	-13.2891
滄	-13.2893
姿	-13.2893
娱	-13.2893
滚	-13.2895
昜	-13.2896
訑	-13.2899
僵	-13.2901
絫	-13.2905
雊	-13.2918
癰	-13.3268
呌	-13.3271
韍	-13.3273
麄	-13.3274
义	-13.3274
蠏	-13.3275
暝	-13.3276
媢	-13.3276
眤	-13.3276
纛	-13.3277
穜	-13.3279
址	-13.3279
沆	-13.328
餔	-13.328
踶	-13.3282
冪	-13.3282
麒	-13.3282
牟	-13.3282
茨	-13.3283
磁	-13.3284
劫	-13.3284
餉	-13.3285
粕	-13.3285
笙	-13.3285
揫	-13.3286
恝	-13.3286
扑	-13.3286
臠	-13.3286
摯	-13.3287
桞	-13.3287
帀	-13.3287
闈	-13.3287
祟	-13.3288
捧	-13.3289
晡	-13.3289
榛	-13.3289
傋	-13.329
丰	-13.3292
蹴	-13.3292
糅	-13.3293
坂	-13.3294
覔	-13.3295
碧	-13.3296
尖	-13.3296
鄆	-13.3298
兖	-13.33
蔬	-13.3302
珓	-13.3305
㐅	-13.3318
籬	-13.3615
雩	-13.3679
摽	-13.3684
楮	-13.3685
岱	-13.3692
獺	-13.3694
筥	-13.3694
玅	-13.3694
冂	-13.3694
詬	-13.3695
旻	-13.3695
瞞	-13.3696
挍	-13.3698
䜿	-13.3698
嶺	-13.3698
澈	-13.3699
酊	-13.3699
菩	-13.3699
瓠	-13.3699
藤	-13.37
稹	-13.37
巋	-13.3701
驢	-13.3701
婆	-13.3701
峩	-13.3702
幷	-13.3703
漾	-13.3703
咫	-13.3704
諮	-13.3704
紏	-13.3704
葸	-13.3705
猿	-13.3705
凴	-13.3705
暈	-13.3706
鬢	-13.3706
翊	-13.3706
憸	-13.3706
䛕	-13.3706
鎭	-13.3707
瀹	-13.3707
㳿	-13.3707
窪	-13.3708
堤	-13.3708
畦	-13.3709
翹	-13.371
黿	-13.371
鯽	-13.3714
餼	-13.3714
穰	-13.3715
叫	-13.3716
廼	-13.3721
墀	-13.373
痺	-13.4095
槀	-13.4122
惙	-13.4122
淘	-13.4124
枸	-13.4125
砭	-13.4126
霎	-13.4127
牋	-13.4127
酖	-13.4127
侂	-13.4128
剗	-13.4129
彥	-13.4129
憶	-13.413
繭	-13.413
斐	-13.413
藂	-13.413
捫	-13.413
漳	-13.4131
澶	-13.4132
泚	-13.4133
檩	-13.4133
梧	-13.4133
吠	-13.4134
䴡	-13.4135
刷	-13.4135
笞	-13.4135
諏	-13.4136
黈	-13.4137
禋	-13.4137
伾	-13.4138
黥	-13.4138
桴	-13.4138
黠	-13.4138
貉	-13.4138
跨	-13.414
譴	-13.4141
鉏	-13.4141
粤	-13.4141
曩	-13.4144
肻	-13.4144
汭	-13.4144
勦	-13.4145
趦	-13.4145
彧	-13.4147
炯	-13.4147
郢	-13.415
斛	-13.415
驙	-13.4153
萹	-13.4153
罵	-13.4155
仂	-13.4166
蜥	-13.4573
倝	-13.4574
侑	-13.4574
嚳	-13.4577
馘	-13.4581
脣	-13.4583
闌	-13.4584
蹢	-13.4585
耴	-13.4585
竞	-13.4585
糸	-13.4585
霹	-13.4586
絺	-13.4587
綬	-13.4587
覓	-13.4587
煆	-13.4588
餋	-13.459
貣	-13.459
寉	-13.4591
咀	-13.4591
檻	-13.4592
輾	-13.4593
窄	-13.4593
稜	-13.4594
霾	-13.4594
澀	-13.4594
跂	-13.4594
稳	-13.4594
龠	-13.4595
枘	-13.4595
街	-13.4595
卉	-13.4596
椒	-13.4597
醬	-13.4598
褰	-13.4598
綫	-13.4599
艶	-13.46
猪	-13.4601
筍	-13.4602
躄	-13.4603
俘	-13.4604
梨	-13.4606
糴	-13.4606
紋	-13.4606
妊	-13.4607
騫	-13.4607
眹	-13.4609
笫	-13.4614
曀	-13.5049
㳄	-13.5051
鞴	-13.5053
疫	-13.5053
􁀃	-13.5055
篗	-13.5056
陥	-13.5057
徉	-13.5057
戻	-13.5057
斟	-13.5059
扉	-13.5059
膴	-13.5062
閤	-13.5062
衙	-13.5065
檁	-13.5065
撑	-13.5066
溟	-13.5066
庳	-13.5066
𨗳	-13.5067
癡	-13.5067
棒	-13.5067
霈	-13.5067
閙	-13.5067
槨	-13.5067
訃	-13.5067
疴	-13.5067
𡊮	-13.5068
窠	-13.5068
睫	-13.5069
囗	-13.5069
芑	-13.5069
鹤	-13.507
郈	-13.507
寮	-13.507
鸇	-13.507
遟	-13.5071
柟	-13.5071
埃	-13.5072
澁	-13.5072
呵	-13.5073
溓	-13.5073
觢	-13.5073
腠	-13.5073
煽	-13.5074
瘡	-13.5074
􁂟	-13.5074
鐡	-13.5075
軏	-13.5075
齶	-13.5076
娠	-13.5076
驛	-13.5076
催	-13.5076
遒	-13.5078
驤	-13.5078
獮	-13.5078
縊	-13.5081
洎	-13.5082
簾	-13.5083
浙	-13.5084
榰	-13.5087
淖	-13.5093
炷	-13.5097
央	-13.5419
丿	-13.5463
净	-13.5554
樛	-13.5554
么	-13.5556
犕	-13.5556
俠	-13.5558
儷	-13.5558
砎	-13.5559
􁀜	-13.5561
塨	-13.5561
簧	-13.5561
迕	-13.5562
癢	-13.5562
邜	-13.5562
絞	-13.5563
驀	-13.5564
趋	-13.5564
揅	-13.5566
椎	-13.5567
倏	-13.5567
㬥	-13.5567
燬	-13.5567
欄	-13.5567
絆	-13.5567
僇	-13.5568
忻	-13.5568
轇	-13.5568
脇	-13.5569
污	-13.5569
劬	-13.5569
墾	-13.5569
垤	-13.5569
虫	-13.557
鞍	-13.557
讖	-13.5571
惹	-13.5571
濛	-13.5571
磷	-13.5571
㵼	-13.5572
慆	-13.5573
遴	-13.5573
睨	-13.5573
幔	-13.5573
拓	-13.5574
慟	-13.5574
貲	-13.5577
饉	-13.5578
邯	-13.5578
贑	-13.5578
募	-13.5578
脀	-13.5579
貟	-13.558
拶	-13.558
袠	-13.558
赭	-13.558
湫	-13.558
徭	-13.5581
淅	-13.5581
禧	-13.5582
㐬	-13.5587
砂	-13.5589
畮	-13.5595
軵	-13.6021
羇	-13.6078
喩	-13.608
淇	-13.6083
㬰	-13.6083
尃	-13.6085
团	-13.6086
祸	-13.6088
靂	-13.6088
戱	-13.6088
逍	-13.6088
皦	-13.6088
抖	-13.6088
嫓	-13.6089
㤀	-13.6089
螫	-13.6089
伴	-13.609
鼂	-13.6091
􁀑	-13.6091
􁀛	-13.6091
插	-13.6092
刓	-13.6092
礎	-13.6092
褁	-13.6092
毘	-13.6093
僿	-13.6093
璀	-13.6094
歿	-13.6094
俚	-13.6095
抹	-13.6095
㫺	-13.6096
湍	-13.6097
轢	-13.6098
蝀	-13.6098
豨	-13.6098
佗	-13.6098
殯	-13.6099
䞇	-13.6099
蓧	-13.6099
拄	-13.61
葘	-13.61
稂	-13.6101
罣	-13.6101
慷	-13.6102
昶	-13.6102
祲	-13.6103
嫂	-13.6104
幄	-13.6104
踴	-13.6104
彡	-13.6104
綮	-13.6105
巻	-13.6107
淤	-13.611
皂	-13.611
俸	-13.6112
岩	-13.6112
硯	-13.6112
咮	-13.6113
櫟	-13.6117
茶	-13.612
犠	-13.6625
瘵	-13.6633
爝	-13.6635
冑	-13.6636
腆	-13.6636
侀	-13.6637
斫	-13.6639
愜	-13.664
膈	-13.6641
桉	-13.6641
㽦	-13.6641
珮	-13.6641
症	-13.6643
胂	-13.6643
凈	-13.6643
闖	-13.6643
鞫	-13.6644
菟	-13.6644
肈	-13.6644
荻	-13.6645
窕	-13.6645
捩	-13.6646
愾	-13.6646
堭	-13.6646
扳	-13.6646
槐	-13.6647
椁	-13.6648
譆	-13.6648
闘	-13.6648
譯	-13.6648
戦	-13.6648
尒	-13.6648
髭	-13.6648
貮	-13.6648
晬	-13.6649
郛	-13.6649
勣	-13.6649
轕	-13.6649
祜	-13.6649
扆	-13.665
濺	-13.665
荔	-13.6651
涘	-13.6651
濃	-13.6651
萎	-13.6651
臬	-13.6652
鍛	-13.6652
髯	-13.6652
飼	-13.6652
箝	-13.6652
叵	-13.6653
詡	-13.6653
肴	-13.6653
玁	-13.6654
厪	-13.6654
笱	-13.6654
澂	-13.6654
􁁒	-13.6655
枲	-13.6655
蜮	-13.6655
瞍	-13.6656
諶	-13.6656
盼	-13.6656
陘	-13.6656
扛	-13.6657
戞	-13.6657
賻	-13.6658
渟	-13.6658
妒	-13.6658
糝	-13.6658
窣	-13.6658
泠	-13.666
怏	-13.6661
茁	-13.6661
豖	-13.6662
䭈	-13.6663
呴	-13.6665
魋	-13.6666
堵	-13.6669
棐	-13.6671
玠	-13.6671
翠	-13.6673
筓	-13.6675
璜	-13.6682
眂	-13.7212
􁁔	-13.7217
峨	-13.722
霤	-13.722
歾	-13.7221
笏	-13.7223
糗	-13.7224
嵬	-13.7225
雹	-13.7226
𥙿	-13.7226
雈	-13.7226
璽	-13.7227
詈	-13.7227
泆	-13.7227
枋	-13.7228
佼	-13.7228
眱	-13.7228
恧	-13.7229
兜	-13.723
筯	-13.723
臚	-13.723
冫	-13.723
諜	-13.723
琛	-13.7231
蓐	-13.7231
蜴	-13.7231
礴	-13.7233
湥	-13.7233
鍰	-13.7233
橐	-13.7233
湼	-13.7233
鄣	-13.7233
擻	-13.7234
裸	-13.7234
彀	-13.7234
嗤	-13.7234
摺	-13.7235
牘	-13.7235
珂	-13.7235
堙	-13.7236
鄂	-13.7236
訥	-13.7237
馥	-13.7237
狽	-13.7238
﨑	-13.7238
醮	-13.7238
婤	-13.7239
媯	-13.7239
尠	-13.7239
綦	-13.7239
懶	-13.724
娯	-13.724
矻	-13.7241
敲	-13.7241
蠆	-13.7241
垠	-13.7241
頋	-13.7241
肸	-13.7242
洚	-13.7243
栝	-13.7243
輦	-13.7244
麴	-13.7244
埽	-13.7245
瓘	-13.7246
璿	-13.7246
筦	-13.7247
酋	-13.7247
檄	-13.7247
囱	-13.7247
鄲	-13.7248
皁	-13.7248
阡	-13.7249
氛	-13.725
厂	-13.725
犴	-13.725
脞	-13.725
㤙	-13.7251
妲	-13.7251
誾	-13.7252
䆳	-13.7252
浦	-13.7258
罏	-13.726
罡	-13.7833
櫛	-13.7843
𣺌	-13.7844
萇	-13.7844
蔭	-13.7845
􁂳	-13.7845
埶	-13.7846
装	-13.7847
􁀥	-13.7847
劾	-13.7848
眸	-13.7848
丼	-13.7849
懣	-13.785
痿	-13.785
炤	-13.785
鍜	-13.7851
幺	-13.7852
衽	-13.7853
虔	-13.7854
黚	-13.7854
㠯	-13.7855
􁀖	-13.7855
嬬	-13.7855
朵	-13.7856
􁁉	-13.7856
攄	-13.7857
顨	-13.7857
䢷	-13.7857
寬	-13.7858
厝	-13.7858
冄	-13.7858
潼	-13.7859
迓	-13.7859
矇	-13.7859
噲	-13.7859
讋	-13.7859
􁁄	-13.7859
吃	-13.7859
磅	-13.7859
霣	-13.7859
絰	-13.7861
犁	-13.7862
卸	-13.7862
頯	-13.7862
堲	-13.7862
觜	-13.7862
眎	-13.7862
衾	-13.7862
讙	-13.7863
鷺	-13.7863
塌	-13.7863
瓉	-13.7863
凭	-13.7863
􁀚	-13.7863
孛	-13.7864
嫗	-13.7865
絏	-13.7865
炮	-13.7865
娩	-13.7866
姶	-13.7866
敞	-13.7866
鷂	-13.7866
籖	-13.7866
膘	-13.7866
啐	-13.7867
􁁌	-13.7867
愒	-13.7867
覉	-13.7867
莩	-13.7868
錐	-13.7868
􁀂	-13.7868
邴	-13.7869
篝	-13.7869
蜉	-13.7869
礿	-13.787
拗	-13.787
彎	-13.7872
輓	-13.7872
齪	-13.7872
慣	-13.7873
鬛	-13.7874
縝	-13.7875
淋	-13.7875
醯	-13.7875
蹠	-13.788
剃	-13.7884
旭	-13.7887
晃	-13.7891
棊	-13.7895
憒	-13.8506
鵙	-13.8511
䕻	-13.8511
殂	-13.8515
邐	-13.8516
懃	-13.8516
擺	-13.8516
挎	-13.8516
曌	-13.8516
璘	-13.8519
瘝	-13.8519
帑	-13.852
嚢	-13.8521
絓	-13.8521
甜	-13.8522
綃	-13.8522
术	-13.8522
攫	-13.8522
夹	-13.8522
簫	-13.8523
幃	-13.8523
䨇	-13.8524
祻	-13.8524
㩼	-13.8525
扎	-13.8525
橛	-13.8526
賙	-13.8527
糠	-13.8527
侏	-13.8527
搭	-13.8528
蚊	-13.8528
漕	-13.8529
鑪	-13.8529
跗	-13.8529
拉	-13.8529
麀	-13.8529
萋	-13.853
􁀉	-13.853
焕	-13.8531
掀	-13.8531
惨	-13.8532
儿	-13.8532
逑	-13.8532
􁁖	-13.8533
蚋	-13.8533
膞	-13.8533
貍	-13.8534
癥	-13.8535
剩	-13.8535
諳	-13.8537
靦	-13.8538
袪	-13.8538
葅	-13.8538
蟾	-13.8539
􁀄	-13.8539
瀝	-13.8539
卩	-13.8541
踪	-13.8541
浣	-13.8542
蘄	-13.8542
莢	-13.8543
体	-13.8544
筒	-13.8544
踖	-13.8544
熬	-13.8546
鄏	-13.8546
夥	-13.8551
駰	-13.8553
鋟	-13.8556
掾	-13.856
孶	-13.922
緱	-13.9224
瞳	-13.9226
賃	-13.9226
凄	-13.9228
旰	-13.9229
稈	-13.923
淊	-13.9231
慇	-13.9232
猩	-13.9232
儱	-13.9233
籟	-13.9233
馰	-13.9234
莪	-13.9234
徬	-13.9234
婭	-13.9234
涊	-13.9234
陬	-13.9234
扃	-13.9234
糺	-13.9235
鏵	-13.9236
喇	-13.9236
尩	-13.9236
訿	-13.9236
苓	-13.9236
蟋	-13.9237
蟀	-13.9237
鄫	-13.9238
􁃟	-13.9238
攔	-13.9238
疉	-13.9238
獫	-13.9239
梱	-13.9239
癉	-13.9239
殲	-13.924
姉	-13.924
柎	-13.924
惲	-13.9241
屣	-13.9241
眠	-13.9241
􁀝	-13.9241
眡	-13.9242
曦	-13.9242
瑾	-13.9242
讃	-13.9243
詀	-13.9243
廚	-13.9243
犗	-13.9243
痌	-13.9243
撕	-13.9244
峽	-13.9245
荂	-13.9245
秊	-13.9245
譁	-13.9245
諴	-13.9247
朏	-13.9247
􁀟	-13.9248
葺	-13.9248
臓	-13.9248
魑	-13.9249
廐	-13.9249
蝨	-13.9249
緡	-13.9249
蝃	-13.925
購	-13.925
琥	-13.925
櫽	-13.9251
錬	-13.9251
蹂	-13.9251
夐	-13.9251
鼉	-13.9252
跼	-13.9252
伉	-13.9253
梢	-13.9253
夣	-13.9253
町	-13.9253
蹐	-13.9254
儵	-13.9254
漶	-13.9254
詿	-13.9254
觳	-13.9255
韵	-13.9255
絅	-13.9255
畣	-13.9255
皡	-13.9255
澣	-13.9256
屡	-13.9256
鴨	-13.9256
鍔	-13.9256
腳	-13.9257
鯁	-13.9258
奨	-13.9258
款	-13.9258
鏤	-13.9259
撒	-13.9262
芃	-13.9263
郟	-13.9264
瑶	-13.9266
陡	-13.9267
眾	-13.9968
蜺	-13.9985
豔	-13.9987
鱄	-13.9988
􁅪	-13.9995
匣	-13.9995
斆	-13.9995
蝟	-13.9997
憝	-13.9997
麛	-13.9997
傒	-13.9997
蜩	-13.9999
券	-14
幂	-14
􁀗	-14.0002
晶	-14.0002
䂓	-14.0002
踝	-14.0002
祔	-14.0002
珥	-14.0002
眺	-14.0002
羆	-14.0003
𠫭	-14.0003
踣	-14.0004
蛾	-14.0004
薈	-14.0005
鄠	-14.0005
狸	-14.0006
拚	-14.0006
襞	-14.0006
糵	-14.0007
虬	-14.0007
翌	-14.0007
崧	-14.0007
窽	-14.0007
窻	-14.0008
跣	-14.0008
澳	-14.0008
脃	-14.0008
航	-14.0008
楝	-14.0009
渗	-14.001
湟	-14.0011
㓷	-14.0011
舘	-14.0011
孱	-14.0012
誹	-14.0012
犨	-14.0013
䏶	-14.0013
腋	-14.0013
䩉	-14.0014
衂	-14.0014
勹	-14.0014
渢	-14.0014
滸	-14.0014
巵	-14.0014
軔	-14.0015
澍	-14.0016
豿	-14.0016
尨	-14.0016
岠	-14.0017
趕	-14.0017
磕	-14.0017
邸	-14.0017
帚	-14.0017
昕	-14.0017
蓊	-14.0017
佾	-14.0017
闞	-14.0018
彿	-14.0018
鷇	-14.0018
盇	-14.0018
蟆	-14.0018
烱	-14.0018
窆	-14.0019
杻	-14.0019
盻	-14.0019
餮	-14.002
靱	-14.002
嘑	-14.002
鶩	-14.002
醎	-14.002
渤	-14.002
瞶	-14.002
蠕	-14.0021
蝣	-14.0021
踧	-14.0021
邶	-14.0021
􁅰	-14.0022
㕓	-14.0022
呶	-14.0022
憔	-14.0022
蒍	-14.0023
篋	-14.0023
囷	-14.0024
菖	-14.0024
謔	-14.0025
啗	-14.0026
甒	-14.0026
耔	-14.0028
藺	-14.003
䖝	-14.003
𢃄	-14.0031
贗	-14.0032
狴	-14.0035
撿	-14.0037
輗	-14.0038
洄	-14.0039
牂	-14.0039
菓	-14.004
偲	-14.004
雋	-14.0042
韥	-14.0067
』	-14.0752
『	-14.0753
庀	-14.0807
軆	-14.0807
躳	-14.082
耓	-14.0828
漑	-14.0829
痞	-14.0829
犝	-14.083
􁀎	-14.0831
媟	-14.0833
𣲖	-14.0835
榘	-14.0836
慼	-14.0836
弣	-14.0836
儌	-14.0836
羖	-14.0837
䖟	-14.0837
揷	-14.0837
岑	-14.0837
𧖟	-14.0837
圑	-14.0838
棿	-14.0838
頫	-14.0838
煢	-14.0839
坫	-14.0839
嘲	-14.0839
螣	-14.0839
淟	-14.084
輊	-14.084
棫	-14.084
韠	-14.084
鄘	-14.084
慥	-14.084
套	-14.0841
姝	-14.0841
偵	-14.0841
螟	-14.0842
唘	-14.0842
醋	-14.0842
㦁	-14.0842
􁃧	-14.0842
幪	-14.0843
􁂖	-14.0843
潞	-14.0843
碭	-14.0843
𥚹	-14.0844
槎	-14.0844
洼	-14.0844
宸	-14.0844
瀰	-14.0844
疣	-14.0845
萍	-14.0845
僥	-14.0845
隉	-14.0845
惘	-14.0845
榻	-14.0845
劊	-14.0846
膩	-14.0846
剙	-14.0846
勛	-14.0846
羹	-14.0847
浼	-14.0847
掬	-14.0847
麕	-14.0847
臝	-14.0847
䲭	-14.0847
遹	-14.0847
顱	-14.0847
袤	-14.0848
匙	-14.0848
涅	-14.0848
菅	-14.0848
牒	-14.0849
殤	-14.0849
焄	-14.0849
諗	-14.0849
㽞	-14.085
屍	-14.085
藿	-14.0851
隈	-14.0851
􁀫	-14.0851
烙	-14.0851
珀	-14.0851
萈	-14.0852
复	-14.0852
蜍	-14.0852
譊	-14.0852
傕	-14.0853
簸	-14.0853
冤	-14.0853
籕	-14.0853
熿	-14.0854
斿	-14.0854
冣	-14.0854
澌	-14.0854
礫	-14.0854
閶	-14.0855
扭	-14.0855
彜	-14.0856
蓮	-14.0856
窗	-14.0856
哂	-14.0856
缻	-14.0858
鞟	-14.0859
湜	-14.086
泓	-14.086
瞾	-14.0862
㐮	-14.0863
拍	-14.0863
䂊	-14.0864
喈	-14.0865
鎻	-14.0866
緬	-14.0866
穯	-14.0868
窩	-14.0872
磚	-14.0874
􁀤	-14.0874
韇	-14.0903
叐	-14.1712
斖	-14.1721
叨	-14.1726
㚃	-14.1736
旛	-14.1739
荐	-14.1739
諝	-14.1739
簷	-14.174
凾	-14.174
叄	-14.174
聆	-14.1741
嗅	-14.1742
瑄	-14.1742
莨	-14.1743
檟	-14.1744
丐	-14.1745
觕	-14.1745
齕	-14.1745
怱	-14.1745
蛻	-14.1746
樁	-14.1746
癘	-14.1746
鯤	-14.1746
遰	-14.1746
鰌	-14.1747
䌕	-14.1747
癭	-14.1747
欛	-14.1748
梵	-14.1748
跲	-14.1748
菀	-14.1748
嘁	-14.1749
覷	-14.1749
頦	-14.175
卣	-14.175
琯	-14.175
緻	-14.1751
窿	-14.1751
賸	-14.1751
袚	-14.1751
楺	-14.1752
彗	-14.1753
碁	-14.1753
彷	-14.1753
牣	-14.1753
𣏌	-14.1753
䦙	-14.1753
譸	-14.1753
浃	-14.1754
痒	-14.1754
劌	-14.1754
漚	-14.1754
揑	-14.1754
愞	-14.1755
涿	-14.1755
寰	-14.1755
聶	-14.1755
喆	-14.1755
趂	-14.1755
涗	-14.1755
墊	-14.1755
峭	-14.1755
淂	-14.1755
􁂢	-14.1756
襁	-14.1756
𠡠	-14.1756
遶	-14.1756
掦	-14.1757
魴	-14.1757
訏	-14.1757
廋	-14.1757
褓	-14.1757
甦	-14.1757
歜	-14.1758
拏	-14.1759
浥	-14.1759
齦	-14.1759
俶	-14.176
蹷	-14.176
謄	-14.176
賵	-14.176
淝	-14.176
雚	-14.1761
塡	-14.1761
幘	-14.1761
秤	-14.1761
帳	-14.1761
禨	-14.1761
簴	-14.1762
鶵	-14.1762
恎	-14.1762
魔	-14.1763
胼	-14.1763
胝	-14.1763
灋	-14.1764
煨	-14.1764
棜	-14.1764
罝	-14.1764
曇	-14.1764
欎	-14.1764
蜕	-14.1764
叱	-14.1765
胆	-14.1765
攪	-14.1766
紉	-14.1766
嵎	-14.1767
琦	-14.1767
齷	-14.1768
淬	-14.1768
𤦺	-14.1768
亁	-14.1769
犇	-14.177
篾	-14.177
㟁	-14.177
枿	-14.1771
謇	-14.1772
蓺	-14.1773
嘔	-14.1774
粧	-14.1776
眢	-14.1777
煑	-14.1778
絿	-14.1778
爚	-14.1778
嫠	-14.1778
拮	-14.1779
悵	-14.1781
礲	-14.1782
藨	-14.1784
䋽	-14.1786
鵞	-14.1786
朒	-14.1789
阞	-14.1794
泐	-14.1795
亖	-14.1823
狊	-14.2707
佯	-14.2724
嗌	-14.2725
闓	-14.2726
鯨	-14.2731
噎	-14.2733
埳	-14.2736
杉	-14.2738
􁀋	-14.2738
巘	-14.2739
㲄	-14.274
鷗	-14.274
諠	-14.274
㫃	-14.2741
稾	-14.2741
柞	-14.2741
讟	-14.2741
凊	-14.2742
带	-14.2744
倩	-14.2745
踟	-14.2745
搔	-14.2746
顺	-14.2746
匐	-14.2746
慱	-14.2747
儋	-14.2747
氾	-14.2747
謖	-14.2747
滎	-14.2747
訒	-14.2748
嶷	-14.2748
櫓	-14.2749
麯	-14.2749
礥	-14.275
騏	-14.2751
殪	-14.2751
娑	-14.2751
弜	-14.2751
燐	-14.2751
滃	-14.2751
鉶	-14.2752
岵	-14.2752
駑	-14.2752
媸	-14.2752
螂	-14.2753
皐	-14.2753
骹	-14.2753
嗔	-14.2753
聵	-14.2754
勠	-14.2754
䮾	-14.2754
沂	-14.2754
蝗	-14.2755
禺	-14.2755
埀	-14.2755
帡	-14.2755
酧	-14.2755
壙	-14.2756
陗	-14.2756
媺	-14.2756
楯	-14.2756
芼	-14.2756
仌	-14.2757
綳	-14.2757
爱	-14.2757
諼	-14.2758
廆	-14.2758
􁀵	-14.2758
𤱔	-14.2759
䠶	-14.2759
贓	-14.2759
飴	-14.2759
攏	-14.2759
炬	-14.276
㕛	-14.276
窬	-14.276
嵓	-14.276
㩀	-14.276
䇓	-14.276
俔	-14.276
濘	-14.2761
瞀	-14.2761
煅	-14.2761
虣	-14.2761
汽	-14.2762
匀	-14.2762
墦	-14.2762
帤	-14.2762
􁃭	-14.2763
圻	-14.2763
諐	-14.2763
錘	-14.2763
絕	-14.2764
駘	-14.2764
艷	-14.2765
緦	-14.2765
駱	-14.2766
篐	-14.2766
擘	-14.2767
牕	-14.2767
齗	-14.2767
杰	-14.2768
磻	-14.2769
紿	-14.2769
刮	-14.2769
裾	-14.277
駝	-14.2771
詫	-14.2771
鼗	-14.2771
郯	-14.2772
翾	-14.2772
剟	-14.2773
偈	-14.2773
蹻	-14.2774
骼	-14.2776
笈	-14.2776
蘂	-14.2779
耏	-14.2779
憩	-14.278
竣	-14.2782
歘	-14.2782
騑	-14.2787
踽	-14.2789
㡯	-14.3759
竽	-14.3772
裼	-14.3822
紜	-14.3826
罃	-14.3836
寷	-14.384
蟜	-14.384
昞	-14.3842
歧	-14.3849
蜯	-14.3849
唤	-14.385
汀	-14.385
脹	-14.385
䦨	-14.385
杘	-14.3851
櫂	-14.3851
薙	-14.3853
㳫	-14.3855
匍	-14.3855
咲	-14.3856
肄	-14.3857
汸	-14.3857
怫	-14.3857
皞	-14.3857
籜	-14.3858
珙	-14.3858
仝	-14.3859
淸	-14.3859
楓	-14.386
廏	-14.386
亙	-14.386
溶	-14.3861
姙	-14.3861
禅	-14.3861
廾	-14.3861
煴	-14.3862
綵	-14.3862
坷	-14.3862
喑	-14.3863
歬	-14.3863
侫	-14.3863
溜	-14.3864
洧	-14.3865
獯	-14.3865
弰	-14.3866
嘷	-14.3866
渣	-14.3866
葱	-14.3867
杠	-14.3867
岷	-14.3867
羑	-14.3868
粃	-14.3868
弸	-14.3868
磈	-14.3868
苕	-14.3868
啖	-14.3869
塼	-14.3869
翛	-14.3869
凸	-14.3869
癯	-14.3869
絹	-14.3869
瞢	-14.387
衲	-14.387
朿	-14.3871
撐	-14.3871
紕	-14.3871
坰	-14.3871
膾	-14.3871
崛	-14.3871
嚶	-14.3871
溈	-14.3872
愔	-14.3872
紘	-14.3872
伋	-14.3872
畺	-14.3872
瓣	-14.3872
倞	-14.3873
叀	-14.3873
眯	-14.3873
搬	-14.3873
柘	-14.3873
涬	-14.3873
壎	-14.3874
晤	-14.3874
䑓	-14.3875
槧	-14.3876
妆	-14.3877
抔	-14.3877
䧺	-14.3877
敉	-14.3878
窶	-14.3879
幟	-14.3879
啣	-14.388
描	-14.388
獪	-14.3881
楞	-14.3881
哥	-14.3882
弢	-14.3882
攧	-14.3882
掔	-14.3882
焱	-14.3883
腢	-14.3883
戅	-14.3883
璹	-14.3884
訕	-14.3886
嫩	-14.3886
㕔	-14.3886
搴	-14.389
亍	-14.389
媍	-14.3891
媪	-14.3894
衖	-14.3898
瑛	-14.3898
㽟	-14.3906
琪	-14.3907
甡	-14.3907
宙	-14.5106
淙	-14.513
馯	-14.658
蕰	-14.8232
匈	-15.0185
睎	-15.2692
輶	-16.1024
騵	-16.1025
妁	-16.1026
齟	-16.1027
硜	-16.1028
邂	-16.1029
