<unk>	0
<s>	0
</s>	0
之	-3.75461
也	-4.67004
而	-4.68246
以	-4.78711
爲	-4.88762
不	-5.03291
者	-5.03375
有	-5.0569
其	-5.06435
一	-5.31521
)	-5.31874
(	-5.32729
人	-5.34102
無	-5.3666
於	-5.40904
曰	-5.44925
則	-5.49776
大	-5.60475
天	-5.69863
上	-5.80462
自	-5.82418
生	-5.83172
/	-5.84419
道	-5.84968
與	-5.8738
行	-5.91023
中	-5.93227
子	-5.95123
言	-5.97385
三	-6.00744
如	-6.02045
神	-6.02794
故	-6.03507
矣	-6.04031
得	-6.04407
此	-6.05568
心	-6.06104
至	-6.06267
乎	-6.06933
在	-6.08558
是	-6.12703
時	-6.13462
非	-6.15402
見	-6.15587
事	-6.16216
所	-6.18782
日	-6.19937
若	-6.19973
王	-6.22638
然	-6.24987
水	-6.25473
下	-6.27287
五	-6.28018
于	-6.28639
知	-6.28829
皆	-6.29009
二	-6.29533
相	-6.31121
四	-6.32177
明	-6.32504
我	-6.34444
山	-6.34613
乃	-6.34996
可	-6.43398
成	-6.43701
亦	-6.44494
⬤	-6.45217
身	-6.46479
作	-6.47239
同	-6.4797
出	-6.48068
正	-6.48102
名	-6.48704
公	-6.50653
命	-6.53096
君	-6.53531
能	-6.54028
又	-6.5436
文	-6.54804
使	-6.55877
來	-6.56046
當	-6.5775
德	-6.59202
金	-6.59736
主	-6.60547
用	-6.61087
氣	-6.6298
入	-6.63054
復	-6.64106
何	-6.64221
後	-6.64953
或	-6.6579
及	-6.6605
今	-6.66462
安	-6.68007
▁	-6.68218
九	-6.68469
未	-6.68883
將	-6.70268
帝	-6.70305
世	-6.70463
地	-6.70722
多	-6.70872
焉	-6.71266
吾	-6.71364
居	-6.72203
物	-6.72658
欲	-6.72776
眞	-6.7304
靈	-6.7344
國	-6.74131
方	-6.74406
已	-6.74537
法	-6.74788
化	-6.75221
夫	-6.75275
民	-6.75347
即	-6.75454
光	-6.75762
哉	-6.75786
經	-6.75844
長	-6.76585
扵	-6.7678
書	-6.77505
從	-6.78363
六	-6.79183
常	-6.81265
必	-6.81798
善	-6.81839
家	-6.82288
諸	-6.83074
官	-6.83553
立	-6.84022
)(	-6.84624
風	-6.85163
去	-6.85775
雖	-6.85892
聖	-6.86204
前	-6.86205
玄	-6.86546
高	-6.87219
聞	-6.87377
不可	-6.87406
陽	-6.89616
分	-6.89699
初	-6.90404
宫	-6.90741
禮	-6.9085
重	-6.90857
門	-6.91298
觀	-6.9178
龍	-6.92024
火	-6.92044
天下	-6.9205
石	-6.9297
過	-6.9387
難	-6.9406
雲	-6.94236
處	-6.9446
臣	-6.94539
死	-6.94562
應	-6.94883
年	-6.95443
師	-6.9546
東	-6.95838
通	-6.96105
信	-6.96248
八	-6.96303
星	-6.97468
元	-6.97675
謂	-6.97897
盡	-6.98241
樂	-6.98903
云	-6.99304
因	-6.99726
福	-7.00832
遂	-7.01307
玉	-7.01777
衆	-7.01902
傳	-7.02819
歸	-7.03141
耳	-7.03253
始	-7.04391
失	-7.04474
利	-7.05178
度	-7.0521
平	-7.05428
本	-7.06056
惟	-7.06211
合	-7.06522
先	-7.06607
不能	-7.07605
形	-7.07794
外	-7.07991
起	-7.08274
小	-7.09488
七	-7.09644
意	-7.10167
定	-7.10173
女	-7.11202
令	-7.11341
仙	-7.11567
内	-7.13161
而不	-7.13949
數	-7.14023
且	-7.14219
土	-7.14378
求	-7.15144
清	-7.15534
既	-7.16132
異	-7.16495
易	-7.16703
周	-7.17065
實	-7.17315
白	-7.17607
月	-7.18261
受	-7.18998
宜	-7.19625
和	-7.19664
字	-7.19995
以爲	-7.20159
木	-7.204
親	-7.20981
西	-7.2116
守	-7.21455
朝	-7.21642
十	-7.22372
會	-7.22707
獨	-7.22775
南	-7.22823
終	-7.229
貴	-7.23454
萬	-7.23628
惡	-7.23931
空	-7.24492
性	-7.25094
深	-7.25356
流	-7.25402
位	-7.25529
士	-7.25754
義	-7.26161
莫	-7.26265
稱	-7.26946
少	-7.27149
問	-7.27259
為	-7.27276
說	-7.28069
反	-7.29224
遇	-7.2931
變	-7.29716
治	-7.30367
食	-7.30499
止	-7.31198
精	-7.32068
開	-7.3215
徃	-7.32402
所以	-7.32524
功	-7.32574
爾	-7.32658
喜	-7.32756
學	-7.33091
志	-7.33239
教	-7.33433
理	-7.33666
順	-7.33901
彼	-7.3393
飛	-7.33955
取	-7.34321
張	-7.34534
猶	-7.34536
封	-7.34605
父	-7.34693
望	-7.34801
兩	-7.35092
真	-7.35147
聲	-7.35181
舉	-7.35477
老	-7.35547
節	-7.36009
馬	-7.36045
仁	-7.36611
色	-7.36657
好	-7.37178
母	-7.37839
論	-7.37927
思	-7.38059
益	-7.38147
發	-7.38207
凡	-7.38212
亂	-7.38218
等	-7.3928
動	-7.39298
直	-7.39598
間	-7.40146
華	-7.40219
加	-7.40878
齊	-7.40919
章	-7.41324
吉	-7.41448
服	-7.42298
致	-7.42697
極	-7.42843
氏	-7.42864
力	-7.43019
足	-7.43046
百	-7.43381
黄	-7.43646
憂	-7.43958
蓋	-7.44437
坐	-7.44573
各	-7.44606
尚	-7.44913
北	-7.4499
體	-7.45362
之所	-7.45527
己	-7.46425
語	-7.47447
願	-7.47701
宗	-7.48057
漢	-7.48152
古	-7.48293
妙	-7.48567
興	-7.48593
衣	-7.48755
奉	-7.48796
請	-7.49233
斯	-7.49749
天地	-7.50201
絶	-7.50319
君子	-7.50344
還	-7.50707
降	-7.50751
離	-7.51145
甚	-7.51214
州	-7.51305
臨	-7.51524
不知	-7.51636
邪	-7.51776
亡	-7.51883
尊	-7.52147
兵	-7.52174
全	-7.52297
口	-7.52954
存	-7.53054
賢	-7.53184
進	-7.5345
目	-7.53466
任	-7.53725
制	-7.54886
隂	-7.54998
象	-7.55938
兮	-7.55997
陳	-7.5602
海	-7.56118
可以	-7.56609
交	-7.57088
祖	-7.57443
視	-7.57632
所謂	-7.57939
俱	-7.58057
更	-7.58207
固	-7.58467
登	-7.58606
號	-7.59477
告	-7.59606
敬	-7.59894
隨	-7.6003
傷	-7.60247
豈	-7.60955
遊	-7.61477
念	-7.61657
誠	-7.61836
修	-7.62774
建	-7.63086
千	-7.63278
伯	-7.63949
解	-7.64173
春	-7.64361
青	-7.64749
虛	-7.64942
宋	-7.65334
運	-7.65676
聖人	-7.65783
嘗	-7.65792
香	-7.66154
自然	-7.66232
廣	-7.66475
洞	-7.66543
永	-7.66683
予	-7.66772
載	-7.66796
愛	-7.67482
汝	-7.68031
要	-7.68345
由	-7.69099
首	-7.69845
室	-7.69875
執	-7.7012
顯	-7.70212
府	-7.70569
照	-7.70579
害	-7.70701
太	-7.70823
丹	-7.7136
遠	-7.71444
乘	-7.71753
寳	-7.71928
辭	-7.72053
保	-7.72337
雨	-7.72812
廟	-7.72917
殺	-7.72952
不得	-7.73846
病	-7.73993
向	-7.7444
次	-7.7474
政	-7.75054
陰	-7.75213
養	-7.75477
夜	-7.75658
鬼	-7.75841
濟	-7.76287
財	-7.76691
城	-7.77286
禍	-7.7736
伏	-7.77573
恩	-7.77578
景	-7.77661
代	-7.77686
武	-7.78289
近	-7.78325
果	-7.78341
歲	-7.78347
河	-7.78562
符	-7.78612
侯	-7.79336
除	-7.79928
田	-7.80015
頭	-7.80266
音	-7.80408
疾	-7.80504
凶	-7.80507
罪	-7.80709
並	-7.80731
左	-7.80787
詩	-7.81054
車	-7.81209
藏	-7.81307
也夫	-7.81318
勝	-7.81926
比	-7.82043
散	-7.82281
皇	-7.82312
情	-7.82589
賜	-7.82775
美	-7.82791
記	-7.82804
録曰	-7.82987
秦	-7.83232
拜	-7.83309
感	-7.83976
壽	-7.84876
業	-7.85122
司	-7.85397
李	-7.85688
持	-7.8579
苦	-7.86042
指	-7.86147
施	-7.86341
刑	-7.86465
特	-7.86553
紫	-7.86827
夏	-7.86881
申	-7.86891
遺	-7.8695
者也	-7.87457
召	-7.88524
卒	-7.88777
右	-7.89077
虎	-7.89114
息	-7.89194
計	-7.89264
著	-7.8943
靜	-7.8986
手	-7.89883
圖	-7.89956
孝	-7.90667
就	-7.90802
便	-7.91192
徒	-7.91194
危	-7.91239
報	-7.9144
澤	-7.91473
智	-7.91507
但	-7.91718
耶	-7.91817
巳	-7.91917
花	-7.91919
无	-7.92076
舊	-7.9221
忘	-7.92594
共	-7.92599
殿	-7.92779
咸	-7.92897
疑	-7.93353
患	-7.93512
都	-7.93678
貞	-7.93734
酒	-7.93853
御	-7.93882
唐	-7.93971
達	-7.94311
路	-7.94451
屬	-7.94542
適	-7.94858
久	-7.95068
□	-7.95512
奏	-7.95648
堂	-7.95966
容	-7.96535
○	-7.96719
戒	-7.9679
窮	-7.96997
后	-7.97107
良	-7.972
脩	-7.97243
須	-7.97305
羅	-7.97311
結	-7.97558
對	-7.97911
崇	-7.98002
寒	-7.98095
授	-7.9821
秋	-7.9828
輔	-7.98317
泰山	-7.98583
强	-7.99121
盛	-7.99451
十二	-7.99583
昭	-7.99589
破	-7.99692
表	-8.00123
辰	-8.00265
寧	-8.00563
留	-8.00933
孫	-8.01029
虚	-8.01066
其所	-8.01066
林	-8.01275
乾	-8.01402
幾	-8.01476
魚	-8.01661
而後	-8.01742
宣	-8.02164
唯	-8.0222
每	-8.02321
休	-8.02392
滅	-8.02414
誰	-8.02487
識	-8.02739
卷	-8.02779
里	-8.02934
客	-8.02947
新	-8.03075
承	-8.03474
别	-8.03702
臺	-8.03729
具	-8.04133
落	-8.04394
期	-8.04543
人之	-8.04634
剛	-8.05024
驚	-8.05111
獻	-8.05145
泉	-8.052
先生	-8.05303
萬物	-8.05551
故曰	-8.05554
斷	-8.05584
許	-8.05585
紀	-8.05655
集	-8.05676
備	-8.05872
藥	-8.05949
謂之	-8.06296
轉	-8.06465
勞	-8.06661
詔	-8.06669
根	-8.067
隱	-8.06716
到	-8.06812
夢	-8.06949
祠	-8.07233
素	-8.07368
而已	-8.0742
謀	-8.0744
無所	-8.0745
惠	-8.07454
顧	-8.07559
權	-8.08003
謝	-8.08114
列	-8.08143
喪	-8.08151
推	-8.08202
灾	-8.08242
造	-8.08259
關	-8.08475
輕	-8.08887
富	-8.09353
履	-8.09434
禄	-8.09451
群	-8.09469
累	-8.09505
微	-8.09657
宿	-8.09762
井	-8.09784
俗	-8.09914
似	-8.10014
蒙	-8.10454
類	-8.10505
議	-8.1067
仰	-8.10797
慶	-8.10814
孤	-8.10827
積	-8.10987
魯	-8.11077
弗	-8.11151
懷	-8.11363
損	-8.11517
厚	-8.1159
祀	-8.11842
職	-8.12107
逆	-8.12178
機	-8.12357
日月	-8.12472
昔	-8.12502
端	-8.12616
真人	-8.12618
史	-8.12816
幽	-8.12911
面	-8.13195
回	-8.13469
歌	-8.13481
余	-8.13834
泰	-8.14054
牛	-8.14191
愚	-8.14349
徳	-8.14492
衛	-8.14505
軍	-8.14515
滿	-8.14566
餘	-8.14568
卦	-8.14595
忠	-8.14757
威	-8.14789
佛	-8.14929
江	-8.15252
畢	-8.15605
聽	-8.1574
嚴	-8.15758
依	-8.15774
慈	-8.15777
儀	-8.1582
壇	-8.16112
待	-8.16163
忽	-8.16368
斗	-8.1657
舍	-8.16624
雷	-8.1674
設	-8.17037
一日	-8.17432
一切	-8.17484
切	-8.17519
爭	-8.17937
盖	-8.17947
榮	-8.17983
齋	-8.18114
之道	-8.18163
不見	-8.18374
再	-8.18596
考	-8.19401
午	-8.19474
鳥	-8.19659
玉帝	-8.197
務	-8.19721
嘉	-8.199
草	-8.19968
不敢	-8.20015
引	-8.20296
畫	-8.20423
升	-8.20581
按	-8.21257
奇	-8.21369
恐	-8.21523
專	-8.21534
陵	-8.21647
庭	-8.21662
垂	-8.21763
胡	-8.21786
震	-8.21913
赤	-8.21917
逢	-8.21936
丘	-8.22043
悟	-8.22128
梁	-8.22316
免	-8.22378
品	-8.22826
楚	-8.22974
看	-8.23127
克	-8.23189
愈	-8.23241
曾	-8.2371
獲	-8.23939
才	-8.24006
晋	-8.2414
妄	-8.24412
卿	-8.24547
是以	-8.24572
歷	-8.24697
浮	-8.24703
賊	-8.25033
覺	-8.25074
典	-8.25158
冠	-8.25165
迎	-8.25581
勿	-8.25866
也故	-8.26023
寅	-8.26127
半	-8.26347
吴	-8.26437
啓	-8.26537
恭	-8.26684
夷	-8.26841
曲	-8.26934
不足	-8.27527
坤	-8.2767
眞人	-8.27963
置	-8.27973
刻	-8.27993
尤	-8.28188
退	-8.28387
揚	-8.28416
塵	-8.28433
友	-8.28506
孔子	-8.28816
假	-8.28898
何以	-8.2896
谷	-8.29018
遷	-8.29083
逐	-8.29519
兹	-8.29573
叔	-8.29685
録	-8.30485
朕	-8.30634
改	-8.30725
敗	-8.30957
越	-8.31104
幸	-8.31105
嶽	-8.31112
折	-8.31118
季	-8.31652
縁	-8.31765
他	-8.31814
如此	-8.31844
劉	-8.32008
率	-8.32433
被	-8.32449
棄	-8.32766
哀	-8.33003
謹	-8.33012
之事	-8.33016
私	-8.33242
柔	-8.33246
悉	-8.33266
婦	-8.33345
序	-8.33394
負	-8.33825
布	-8.34
苟	-8.34072
聚	-8.34443
簡	-8.34682
吏	-8.34863
野	-8.34866
彖曰	-8.34955
災	-8.35057
决	-8.35072
印	-8.35073
敢	-8.35113
遣	-8.35215
嗣	-8.35467
妻	-8.35616
仲	-8.36069
連	-8.36144
原	-8.36265
峰	-8.36449
質	-8.36853
吕	-8.36968
工	-8.37315
廢	-8.37625
鳴	-8.37809
資	-8.37832
察	-8.38172
怒	-8.38178
儒	-8.38221
厥	-8.3851
脫	-8.38518
趙	-8.38894
秘	-8.38969
繼	-8.3902
戰	-8.39143
救	-8.39513
鼎	-8.39622
堅	-8.39637
冬	-8.39682
父母	-8.3988
魂	-8.39927
碑	-8.40179
之時	-8.40233
有所	-8.40378
象曰	-8.405
部	-8.40605
朱	-8.40624
侍	-8.40883
消	-8.40983
迷	-8.41068
卯	-8.41198
險	-8.41391
不爲	-8.41438
姓	-8.41461
尋	-8.41738
炁	-8.41914
否	-8.42212
祭	-8.4276
左右	-8.4284
勤	-8.42898
之間	-8.42998
又曰	-8.43008
衰	-8.43129
逺	-8.43256
功德	-8.43379
户	-8.43519
薄	-8.43634
康	-8.43934
責	-8.43962
魏	-8.43972
延	-8.44238
護	-8.44253
收	-8.44376
昌	-8.44528
釋	-8.44631
露	-8.44679
殊	-8.44789
亨	-8.44883
畏	-8.45101
放	-8.45124
困	-8.45196
最	-8.45571
背	-8.46173
維	-8.46184
燕	-8.46217
避	-8.46224
器	-8.46235
然後	-8.46285
境	-8.4645
縣	-8.46486
覆	-8.46844
接	-8.47337
移	-8.47369
懼	-8.47372
鳳	-8.47376
秀	-8.4742
於是	-8.47453
寵	-8.47778
夫人	-8.47896
老子	-8.47987
曰吾	-8.48029
弟	-8.48111
普	-8.48129
禹	-8.48156
池	-8.48422
嵗	-8.48484
童	-8.48489
郡	-8.48533
上下	-8.48549
甲	-8.48659
毋	-8.48855
只	-8.49053
子孫	-8.49209
駕	-8.49269
掌	-8.49681
頂	-8.49706
筆	-8.49728
辯	-8.49756
之心	-8.49782
弱	-8.49975
漸	-8.50089
祥	-8.50096
邑	-8.50492
招	-8.50499
英	-8.50516
篇	-8.50851
伐	-8.50915
紅	-8.50968
役	-8.51239
不及	-8.51446
九天	-8.5178
示	-8.51782
天尊	-8.52026
呼	-8.52075
庶	-8.52183
穴	-8.52403
參	-8.52454
末	-8.52528
却	-8.52576
悔	-8.5277
堯	-8.52983
助	-8.53024
源	-8.53266
帶	-8.53421
坎	-8.53543
之言	-8.53686
效	-8.5376
走	-8.53869
鄉	-8.53944
十五	-8.54038
勢	-8.54207
界	-8.54357
酉	-8.54522
步	-8.54524
笑	-8.55009
亥	-8.55127
天門	-8.55157
松	-8.55192
悲	-8.55328
鄭	-8.55368
兼	-8.55374
况	-8.55476
商	-8.55551
翼	-8.55737
格	-8.55741
宇	-8.55754
上帝	-8.55953
太上	-8.5644
巽	-8.56517
虞	-8.56523
默	-8.56557
亭	-8.56575
薦	-8.56576
雪	-8.5663
豐	-8.56652
房	-8.56746
道士	-8.56769
春秋	-8.56935
淵	-8.56957
輪	-8.56969
天下之	-8.57005
注	-8.57043
統	-8.57202
天子	-8.57288
舟	-8.57539
珠	-8.57839
禁	-8.5787
送	-8.57936
忌	-8.57965
丑	-8.57996
魔	-8.58168
韓	-8.58224
怨	-8.58271
羊	-8.58709
十三	-8.5888
後世	-8.58967
㫖	-8.59027
惑	-8.59224
未嘗	-8.59356
祈	-8.59494
諸侯	-8.59575
崖	-8.59639
骨	-8.5967
歟	-8.5976
慮	-8.59981
楊	-8.60026
恒	-8.60078
違	-8.60141
大夫	-8.60235
盈	-8.60268
大道	-8.6028
冥	-8.60295
增	-8.60626
扶	-8.60887
知其	-8.60893
約	-8.60956
縱	-8.60961
名曰	-8.60979
至於	-8.61126
壁	-8.61295
羽	-8.61655
某	-8.61672
種	-8.61842
詞	-8.62018
革	-8.62181
角	-8.62202
没	-8.62299
鍾	-8.62329
如是	-8.62416
旅	-8.62642
現	-8.62771
碧	-8.62973
是非	-8.63068
肅	-8.63075
獄	-8.634
而無	-8.63487
攝	-8.63634
錫	-8.63693
不同	-8.63932
貪	-8.6404
投	-8.6413
曹	-8.64201
哭	-8.64217
小人	-8.64651
孰	-8.64695
然則	-8.64743
三年	-8.64825
祝	-8.64837
弘	-8.64891
髙	-8.64931
遍	-8.64988
超	-8.65149
㣲	-8.6529
盤	-8.65326
奚	-8.65388
省	-8.65427
犯	-8.6543
是也	-8.65433
迹	-8.65608
大天王	-8.65786
咎	-8.65833
毒	-8.65866
錢	-8.6589
了	-8.65945
誦	-8.66177
之中	-8.66273
然而	-8.66535
衆生	-8.66693
之後	-8.66744
是故	-8.66775
光明	-8.66816
賛	-8.66872
旦	-8.67186
干	-8.67218
市	-8.67295
徐	-8.67647
讓	-8.6773
純	-8.68102
飲	-8.68112
必有	-8.68142
眼	-8.68258
壯	-8.68301
黑	-8.68341
暗	-8.68413
杖	-8.68462
曜	-8.68493
京	-8.68609
誅	-8.68732
十六	-8.68993
量	-8.69044
謙	-8.69072
皇帝	-8.6925
貧	-8.69473
題	-8.69476
兊	-8.69628
竟	-8.69655
雙	-8.69698
領	-8.69713
調	-8.7016
黄帝	-8.70334
兄弟	-8.70351
管	-8.70435
術	-8.70466
富貴	-8.70556
勑	-8.70558
岳	-8.70581
急	-8.70615
傾	-8.7063
乾坤	-8.70759
罔	-8.70795
科	-8.70813
闕	-8.70853
早	-8.71024
族	-8.71076
雄	-8.7113
樹	-8.7113
豫	-8.71329
舜	-8.71373
厲	-8.71513
鶴	-8.71997
變化	-8.72041
追	-8.72083
可謂	-8.72088
夫子	-8.72225
無窮	-8.72361
策	-8.72529
輿	-8.72541
習	-8.72574
像	-8.72576
三十	-8.72635
尅	-8.72772
禱	-8.72988
懸	-8.73026
彌	-8.7307
瑞	-8.7349
密	-8.73573
訟	-8.73603
弟子	-8.73616
邦	-8.73981
十一	-8.74069
貫	-8.74073
而爲	-8.74275
之意	-8.74338
隂陽	-8.74469
兒	-8.74512
鼓	-8.74539
孔	-8.74901
艮	-8.74949
元始	-8.7496
含	-8.75064
陸	-8.75088
沉	-8.75088
曉	-8.75092
勸	-8.75112
之上	-8.75195
二十	-8.75252
十四	-8.75497
玉女	-8.75528
游	-8.75597
試	-8.75629
限	-8.75856
想	-8.75996
隆	-8.76055
偏	-8.76056
例	-8.76061
殷	-8.76074
影	-8.76106
希	-8.76565
悅	-8.76757
血	-8.76956
讀	-8.7703
不然	-8.77294
毛	-8.77608
奪	-8.77612
欺	-8.77633
塞	-8.77657
刼	-8.77693
十方	-8.77748
峯	-8.78043
録曰愚觀	-8.78175
男	-8.78354
仁義	-8.784
寡	-8.78603
細	-8.78627
證	-8.78631
無爲	-8.78682
跡	-8.78687
繫	-8.78695
抱	-8.78708
俾	-8.78738
誥	-8.78738
甘	-8.78907
第	-8.7895
附	-8.79144
昏	-8.79162
廼	-8.79206
怪	-8.79228
材	-8.79249
蛇	-8.79632
諸天	-8.79735
句	-8.79757
鬼神	-8.80037
貌	-8.80163
式	-8.80253
巧	-8.80265
速	-8.80288
鎮	-8.80305
寶	-8.80506
不以	-8.80516
配	-8.80523
冲	-8.80528
淫	-8.80739
屋	-8.80792
階	-8.80816
徹	-8.80818
無有	-8.80828
兄	-8.81226
醮	-8.81321
充	-8.81331
太子	-8.81431
長生	-8.81825
旣	-8.81856
雜	-8.81901
謁	-8.81936
愼	-8.82286
蕩	-8.82368
納	-8.82394
觧	-8.82409
擊	-8.82414
尾	-8.82416
享	-8.82421
賴	-8.82437
不如	-8.82598
者皆	-8.82816
十七	-8.8284
蘇	-8.82946
欽	-8.83063
顔	-8.83122
僧	-8.83267
擇	-8.83513
之則	-8.83525
凢	-8.83549
天地之	-8.83553
莫不	-8.83612
湯	-8.84022
而有	-8.84447
辱	-8.84532
振	-8.84582
舞	-8.84601
靡	-8.84626
暴	-8.84626
遭	-8.84636
来	-8.84682
畜	-8.84866
十八	-8.8492
横	-8.85104
歡	-8.85143
防	-8.85173
差	-8.85183
諭	-8.85196
辟	-8.85198
烏	-8.85203
龜	-8.85504
奔	-8.8556
神明	-8.85627
籍	-8.85633
荒	-8.85725
索	-8.85744
翠	-8.85773
三月	-8.86055
育	-8.86125
沙	-8.86193
丁	-8.86612
䟽	-8.86698
瞻	-8.8682
篤	-8.86852
温	-8.86863
瓊	-8.86892
蒼	-8.86982
人也	-8.87135
爲人	-8.87239
俯	-8.87355
撫	-8.87373
晨	-8.87379
述	-8.87441
溪	-8.87488
祗	-8.87491
融	-8.87491
住	-8.87898
竊	-8.88003
鑒	-8.88017
慕	-8.88048
葉	-8.88054
圍	-8.88064
文王	-8.8808
孚	-8.88556
訓	-8.88571
監	-8.88586
詣	-8.88588
采	-8.88623
仍	-8.88626
之士	-8.89089
旺	-8.89179
驗	-8.89202
潜	-8.89246
巖	-8.89715
湏	-8.89765
條	-8.89802
孟	-8.89961
此經	-8.90069
寄	-8.90347
驅	-8.90356
煉	-8.90373
戌	-8.90391
總	-8.90451
不可以	-8.90596
未有	-8.90602
眞君	-8.90733
殘	-8.90974
烈	-8.91016
朝廷	-8.91044
有餘	-8.91095
邊	-8.91128
封禪	-8.91171
川	-8.91367
四方	-8.91377
葬	-8.91488
均	-8.91522
足以	-8.91527
賤	-8.91702
毁	-8.9176
子曰	-8.91792
而不知	-8.91794
樓	-8.92049
遲	-8.9211
閣	-8.9212
爵	-8.92128
敵	-8.92158
講	-8.92168
營	-8.92397
辨	-8.92757
綱	-8.92766
以其	-8.92789
途	-8.9279
晦	-8.92806
郷	-8.92852
得其	-8.92983
三界	-8.93064
際	-8.93098
給	-8.93326
罷	-8.93623
賦	-8.93676
妖	-8.93842
將軍	-8.93857
側	-8.93938
㓕	-8.93951
桑	-8.93972
巨	-8.94007
贈	-8.94064
之人	-8.94189
亦有	-8.94342
狀	-8.94418
賈	-8.94482
父子	-8.94487
神仙	-8.94552
并	-8.94553
蔽	-8.94608
上清	-8.94737
太平	-8.94898
諫	-8.95171
魄	-8.95206
枝	-8.95229
燈	-8.95304
旋	-8.95662
鹿	-8.95729
翁	-8.95838
倚	-8.95846
混	-8.96219
侵	-8.96251
焚	-8.9637
廬	-8.96434
躬	-8.96486
雖有	-8.96556
偶	-8.96805
一人	-8.97003
用之	-8.97047
閑	-8.97076
昇	-8.97518
尺	-8.97766
者非	-8.97856
無不	-8.97896
頌	-8.97949
禪	-8.98058
宅	-8.98127
倫	-8.98219
自得	-8.98271
味	-8.98351
壞	-8.98357
今日	-8.98822
祐	-8.98834
麗	-8.98852
委	-8.98946
殃	-8.98977
補	-8.99012
憲	-8.99025
國家	-8.99097
卜	-8.99538
律	-8.99553
提	-8.99614
徴	-8.99637
局	-8.99658
亦不	-8.99725
周公	-8.99906
乆	-9.00144
學者	-9.00186
環	-9.00246
席	-9.00275
抑	-9.00288
勇	-9.00312
天之	-9.0033
基	-9.00333
不成	-9.00347
醉	-9.0036
人間	-9.00487
以來	-9.00574
射	-9.00941
夾	-9.00944
者不	-9.01047
詳	-9.01428
郭註	-9.01472
拱	-9.01472
介	-9.01547
千里	-9.01557
略	-9.01605
腹	-9.01656
圓	-9.01697
真君	-9.01822
暮	-9.01899
無註	-9.01902
衡	-9.02151
卑	-9.0219
賞	-9.0222
宰	-9.02427
洞賔	-9.02429
死生	-9.02694
幼	-9.02796
操	-9.02809
趨	-9.02917
裏	-9.02928
萬里	-9.03015
陛下	-9.03178
班	-9.03285
齒	-9.0355
嶺	-9.03592
也今	-9.0374
嘆	-9.03822
恃	-9.04214
允	-9.04251
座	-9.04316
人心	-9.04355
是時	-9.0439
儉	-9.04575
陰陽	-9.04664
當作	-9.04688
其心	-9.04763
爻	-9.04873
馳	-9.04958
譽	-9.04959
枯	-9.04964
朔	-9.04967
二年	-9.04997
對曰	-9.05278
古之	-9.05507
竹	-9.05592
无咎	-9.05601
昧	-9.05609
茂	-9.05665
返	-9.05678
肆	-9.05698
遯	-9.06239
曰此	-9.06276
溺	-9.06313
郭	-9.0632
嗚呼	-9.06426
囚	-9.06512
拘	-9.06529
耗	-9.06557
而能	-9.06589
烟	-9.06916
凌	-9.06956
談	-9.0702
覽	-9.0702
無以	-9.07096
赴	-9.07673
導	-9.07703
僞	-9.07705
盜	-9.07728
完	-9.07765
之功	-9.07984
霞	-9.08313
衍	-9.08359
吟	-9.0837
憑	-9.08385
愆	-9.08401
戴	-9.08406
雅	-9.0848
夕	-9.08521
男女	-9.08564
以此	-9.08619
屈	-9.08772
域	-9.08952
選	-9.0912
誓	-9.09135
旁	-9.09158
髮	-9.09159
二十四	-9.09324
見其	-9.09365
供	-9.09759
卧	-9.09847
寬	-9.0986
包	-9.09868
乞	-9.09884
佑	-9.09901
循	-9.10438
蠱	-9.10515
妾	-9.10524
攻	-9.10538
晝	-9.10545
契	-9.10561
稍	-9.10567
湖	-9.10595
白雲	-9.10609
征	-9.10616
籖	-9.10637
於此	-9.10846
程	-9.11211
蹇	-9.11259
波	-9.11269
屢	-9.11301
徧	-9.11311
爽	-9.11356
係	-9.1142
洪	-9.11751
兆	-9.11844
殆	-9.1186
劫	-9.11957
候	-9.12003
遵	-9.1202
柱	-9.12022
伸	-9.1203
婚姻	-9.12042
耀	-9.12052
之情	-9.1207
之法	-9.12098
墨	-9.12115
也其	-9.12243
不信	-9.12499
中有	-9.12599
短	-9.1263
閉	-9.1265
宴	-9.12739
杜	-9.12782
燭	-9.12807
勉	-9.12834
剥	-9.12903
六十	-9.13002
天師	-9.1312
尸	-9.13188
蓬	-9.13197
社	-9.1335
五行	-9.13443
輙	-9.13457
騎	-9.13489
鄰	-9.1349
詩曰	-9.13504
趣	-9.13546
墓	-9.13616
三日	-9.13858
農	-9.14011
判	-9.14094
厄	-9.141
知之	-9.14132
柳	-9.14174
寺	-9.14212
胎	-9.14242
據	-9.1426
聞之	-9.14447
之義	-9.14531
凝	-9.14539
輝	-9.14676
演	-9.14791
支	-9.14808
付	-9.14892
彰	-9.14986
叅	-9.14994
蜀	-9.14996
佩	-9.15001
四時	-9.15018
鸞	-9.15028
劒	-9.15042
醫	-9.1506
也若	-9.15698
䖏	-9.15732
竒	-9.15747
着	-9.15813
樞	-9.15866
未詳	-9.15881
元年	-9.16013
匪	-9.16468
穢	-9.16491
姜	-9.1659
橋	-9.16675
註	-9.16695
岱宗	-9.16714
使人	-9.16917
也而	-9.17062
岱	-9.17074
愽	-9.17218
屯	-9.1724
桃	-9.1725
訣	-9.17302
覩	-9.17326
太陽	-9.17626
刃	-9.17725
無極	-9.17875
古今	-9.17906
校	-9.18001
涉	-9.18065
徑	-9.1807
佐	-9.18074
費	-9.18081
捨	-9.18126
當時	-9.18318
與之	-9.18572
九五	-9.18586
痛	-9.18741
觸	-9.18822
逸	-9.18865
底	-9.18896
稽首	-9.19019
刀	-9.19506
仕	-9.19556
㑹	-9.19608
阿	-9.19613
預	-9.1962
乗	-9.1964
熟	-9.19647
敦	-9.19655
未能	-9.19749
八卦	-9.19934
帛	-9.20049
則有	-9.20176
東方	-9.20245
而不能	-9.2032
萃	-9.20327
盟	-9.20342
朋	-9.20373
穿	-9.20433
垣	-9.20445
值	-9.20447
遥	-9.20471
惜	-9.20858
正月	-9.20906
之徒	-9.2097
之所以	-9.20994
銀	-9.21121
雖然	-9.21191
逃	-9.21267
墮	-9.21268
芝	-9.21844
夀	-9.21936
諱	-9.21975
耕	-9.22013
造化	-9.22014
盗	-9.22018
狂	-9.22023
靖	-9.22044
逰	-9.22062
金闕	-9.22346
之地	-9.22435
辛	-9.22531
籙	-9.22707
占	-9.22709
甫	-9.22718
尚書	-9.22741
五色	-9.22804
隔	-9.22842
相與	-9.23063
第一	-9.23064
自是	-9.23332
天上	-9.23355
文章	-9.23378
行人	-9.23503
騰	-9.23618
泣	-9.23622
恨	-9.2366
鴻	-9.23669
矣故	-9.23695
斬	-9.23703
襲	-9.23712
之日	-9.23756
無量	-9.2376
莊	-9.23813
霄	-9.23911
世間	-9.24029
又何	-9.24256
姑	-9.24389
瀆	-9.24389
拔	-9.24489
芳	-9.2451
世界	-9.24852
不利	-9.24919
五嶽	-9.24947
不過	-9.24964
羣	-9.24965
五十	-9.24974
君臣	-9.25014
萬世	-9.25026
玉皇	-9.2506
帥	-9.25154
聖人之	-9.25241
牧	-9.25271
冀	-9.25301
慢	-9.2531
遽	-9.2531
單	-9.25361
廉	-9.25387
爲主	-9.25629
竭	-9.25867
其事	-9.25868
肉	-9.25993
堪	-9.26028
陶	-9.26086
錯	-9.2611
厭	-9.26122
缺	-9.26139
托	-9.26154
吐	-9.26167
愁	-9.26197
褒	-9.26202
視之	-9.26226
四十	-9.26228
訪	-9.26253
是謂	-9.2639
物之	-9.26439
文昌	-9.26783
戎	-9.26908
院	-9.26941
之說	-9.26953
霜	-9.26971
畧	-9.26991
歳	-9.27041
館	-9.27044
帝君	-9.27082
勅	-9.271
不明	-9.27268
桓	-9.27459
郊	-9.27829
怠	-9.27847
徵	-9.27859
百姓	-9.28012
何如	-9.28044
道之	-9.28049
戍	-9.28059
賔	-9.28614
逹	-9.28709
審	-9.28716
擾	-9.28717
究	-9.28817
磨	-9.2882
四海	-9.29043
寸	-9.29057
水火	-9.29109
出入	-9.29206
妃	-9.29459
不足以	-9.29557
赦	-9.29578
津	-9.29582
頓	-9.29596
雞	-9.29604
黃	-9.29604
借	-9.29609
障	-9.29633
萬物之	-9.29767
其人	-9.3015
所在	-9.30229
之氣	-9.3025
人皆	-9.30374
則無	-9.30404
身命	-9.30435
敷	-9.30482
黨	-9.30484
言其	-9.30499
生於	-9.30499
賀	-9.30502
映	-9.30532
史記	-9.30576
其德	-9.30699
忍	-9.30886
不相	-9.31229
需	-9.31303
踰	-9.31327
潔	-9.31348
削	-9.31382
豈非	-9.31449
愧	-9.3151
一作	-9.3158
天王	-9.31724
答	-9.31897
是爲	-9.31921
天道	-9.32167
濁	-9.32181
蕭	-9.32254
屏	-9.32267
鐵	-9.32294
則爲	-9.3232
大人	-9.32509
道人	-9.32839
庸	-9.32937
傅	-9.33054
饗	-9.33057
獸	-9.3308
鑿	-9.33112
言之	-9.33119
矧	-9.33125
戲	-9.33135
續	-9.33166
歩	-9.33169
滯	-9.33174
摩	-9.33249
而下	-9.334
至于	-9.33436
道德	-9.33532
耳目	-9.33716
神之	-9.33738
穀	-9.3385
十年	-9.33884
道者	-9.33912
泥	-9.33935
廷	-9.33963
凈	-9.33991
甲子	-9.34014
寢	-9.34019
二人	-9.34161
之下	-9.34188
之禮	-9.34535
庚	-9.34577
無心	-9.34653
飢	-9.34839
爲天下	-9.34849
擁	-9.34933
倒	-9.34987
倍	-9.35016
活	-9.35024
溢	-9.3503
闡	-9.35078
各有	-9.35221
産	-9.35251
㐫	-9.35368
穆	-9.35465
出於	-9.35485
星辰	-9.35524
風雨	-9.35589
至扵	-9.3573
自有	-9.35752
飾	-9.35859
蔡	-9.35869
氷	-9.3591
潤	-9.35923
膺	-9.35935
博	-9.35971
渾	-9.35977
矢	-9.35989
奈何	-9.36017
之謂	-9.36145
而去	-9.36613
其身	-9.36619
荆	-9.36785
不免	-9.36787
巢	-9.36816
顛	-9.36832
於人	-9.36869
佳	-9.36882
虜	-9.36898
有司	-9.37003
清凈	-9.37035
錦	-9.37251
之際	-9.37275
不宜	-9.37455
寂	-9.37542
大龍王	-9.37559
一時	-9.37606
御史	-9.37637
而自	-9.37648
禽	-9.37737
貨	-9.37758
誤	-9.3776
悖	-9.37774
不用	-9.37774
傍	-9.37788
秉	-9.37792
鬱	-9.37795
讃	-9.37804
福禄	-9.37809
披	-9.37829
煙	-9.37846
生死	-9.37996
者爲	-9.38104
太宗	-9.38201
地獄	-9.38223
几	-9.38661
採	-9.38697
雍	-9.38699
漏	-9.38701
羙	-9.38707
響	-9.38713
無形	-9.38725
崩	-9.38732
嬰	-9.38739
逍遥	-9.38743
盧	-9.38754
探	-9.38756
絲	-9.38778
茅	-9.38781
筭	-9.38784
不聞	-9.38895
乎其	-9.38948
則不	-9.38953
若是	-9.39045
閩	-9.39216
也此	-9.39361
之德	-9.39448
旱	-9.39455
若有	-9.39507
徃來	-9.39528
範	-9.39568
軒	-9.39619
聼	-9.39626
彭	-9.39633
狐	-9.39695
蔵	-9.39719
初九	-9.39719
編	-9.39751
社稷	-9.39755
頃	-9.39784
爐	-9.39808
世之	-9.39918
失其	-9.40115
點	-9.40117
矣夫	-9.40181
乙	-9.40216
何也	-9.40365
艱	-9.40494
七十	-9.40594
淺	-9.40607
姬	-9.40667
䧟	-9.4071
之内	-9.4074
僕	-9.40742
六五	-9.40784
三元	-9.40869
有功	-9.40895
無所不	-9.40989
三五	-9.41
不知所	-9.41154
而非	-9.41233
姚	-9.41256
庇	-9.41373
孟子	-9.41558
亢	-9.41571
歛	-9.41586
矜	-9.41621
墜	-9.41653
荷	-9.41654
眀	-9.41688
賁	-9.41717
植	-9.41725
觀之	-9.422
稽	-9.424
其言	-9.42463
鮮	-9.42575
倉	-9.42584
道也	-9.42611
眉	-9.42651
使者	-9.42736
如何	-9.42754
不言	-9.42968
世人	-9.43146
塗	-9.43363
莫能	-9.43487
峻	-9.43525
賓	-9.43544
牽	-9.43598
侈	-9.4361
戚	-9.43621
罰	-9.43638
鼻	-9.43638
憐	-9.43645
停	-9.43648
篆	-9.43712
家人	-9.43884
星君	-9.44018
丈人	-9.44043
民之	-9.44081
箕	-9.44146
舌	-9.44568
竅	-9.44595
册	-9.44618
天人	-9.44652
牙	-9.44655
踈	-9.44659
恊	-9.44686
也録曰	-9.44931
見之	-9.45243
神通	-9.45251
紹	-9.45604
案	-9.4563
整	-9.45637
繩	-9.45665
大臣	-9.45666
詠	-9.45692
奸	-9.45702
之名	-9.45952
太極	-9.45981
其中	-9.45995
也然	-9.46098
嗟	-9.46135
西南	-9.46161
録曰此	-9.46222
者以	-9.46226
鏡	-9.4635
三千	-9.46604
麟	-9.4663
豈不	-9.46644
嫁	-9.46656
洗	-9.46676
犬	-9.4672
者亦	-9.4673
岩	-9.46745
劍	-9.46775
十五日	-9.46811
孛	-9.46951
不復	-9.47011
禮樂	-9.47054
善惡	-9.47287
吹	-9.47568
以成	-9.47613
規	-9.47633
伊	-9.47652
也故曰	-9.47666
慾	-9.47669
狗	-9.47681
聴	-9.47719
舒	-9.47729
眷	-9.47738
陟	-9.47746
鍊	-9.47764
寓	-9.47819
不在	-9.47827
元君	-9.47913
弊	-9.47939
東西	-9.48456
中國	-9.48492
尹	-9.48682
仗	-9.48737
夭	-9.48744
粟	-9.4877
措	-9.48818
緑	-9.48822
則雖	-9.48834
把	-9.48834
併	-9.48847
討	-9.4885
卓	-9.48851
擬	-9.48872
相傳	-9.48884
進退	-9.48986
不自	-9.49034
其子	-9.4909
而成	-9.49121
大吉	-9.49359
庫	-9.49501
脉	-9.49728
由是	-9.49839
墻	-9.49857
瑶	-9.49859
上有	-9.49885
澗	-9.4989
晴	-9.49913
六月	-9.49979
司馬	-9.49992
一云	-9.5049
戊	-9.50567
抵	-9.50587
弼	-9.50739
禍福	-9.50748
睽	-9.50852
頼	-9.50872
古人	-9.50878
范	-9.50898
攸	-9.50971
員	-9.50975
禦	-9.50984
芒	-9.51011
不安	-9.516
者乎	-9.5161
之象	-9.518
受命	-9.51873
霧	-9.51874
偃	-9.51969
蟲	-9.51989
飯	-9.51995
醜	-9.51995
往	-9.52025
耻	-9.52027
𣗳	-9.52039
奮	-9.52064
與物	-9.52075
彩	-9.52109
慧	-9.52115
武王	-9.52139
而况	-9.52214
草木	-9.52391
山川	-9.52471
七月	-9.52515
拂	-9.5306
詐	-9.5309
璧	-9.53096
暫	-9.53098
𥘉	-9.53103
珍	-9.53116
十九	-9.53136
網	-9.53161
子之	-9.53189
洛	-9.5322
内外	-9.53226
不肯	-9.53229
官事	-9.53266
七日	-9.53273
終日	-9.53426
不出	-9.53478
無事	-9.53603
吉凶	-9.53607
學道	-9.53667
不食	-9.53796
東海	-9.54036
仇	-9.54112
煩	-9.54161
沖	-9.5425
產	-9.54253
得道	-9.54296
頗	-9.54319
王者	-9.54368
西北	-9.54435
不可得	-9.54491
之精	-9.54501
矣此	-9.54541
浩	-9.55003
初六	-9.55216
副	-9.55261
紛	-9.55336
蘭	-9.55356
寇	-9.55371
築	-9.55374
廻	-9.55401
三十六	-9.55477
下䧏	-9.55574
何爲	-9.55581
東南	-9.5575
梵	-9.55811
至今	-9.55931
不許	-9.56125
文武	-9.56263
天命	-9.56347
百年	-9.56357
戮	-9.56419
束	-9.56432
浪	-9.56451
藝	-9.56463
隅	-9.56489
爰	-9.56491
園	-9.56502
婚	-9.56517
無上	-9.5663
及其	-9.5678
胥	-9.56838
不忍	-9.56998
不死	-9.57003
帝王	-9.57061
其後	-9.5747
䘮	-9.57525
减	-9.57564
驕	-9.57603
緫	-9.57649
淳	-9.57656
埋	-9.5766
者有	-9.57665
炎	-9.57694
俄	-9.57714
即位	-9.57718
九二	-9.57742
太后	-9.57765
有一	-9.57817
以下	-9.57918
毫	-9.58039
堯舜	-9.58057
罗	-9.58082
孔子曰	-9.5819
與人	-9.58201
六四	-9.58302
鑑	-9.58614
敏	-9.58681
唱	-9.58755
晝夜	-9.5879
携	-9.58792
囊	-9.58803
繁	-9.58817
沈	-9.58831
𡚖	-9.58834
澄	-9.58858
國之	-9.58891
蔭	-9.59034
百里	-9.59117
不至	-9.59325
大有	-9.59343
疆	-9.59425
故能	-9.59746
喻	-9.59907
閭	-9.59912
檢	-9.59913
巔	-9.59919
緒	-9.59932
播	-9.59936
姦	-9.59938
鎭	-9.59957
窺	-9.59975
掩	-9.59988
恣	-9.60014
幹	-9.60057
旛	-9.60065
之外	-9.6008
四月	-9.60177
以是	-9.60435
裳	-9.60531
大聖	-9.60735
玉堂	-9.60772
者必	-9.60829
五月	-9.60855
其名	-9.60878
飽	-9.61068
聘	-9.61137
激	-9.61141
揖	-9.61163
攀	-9.61191
老君	-9.61215
晩	-9.61264
性命	-9.61283
羅义女	-9.61483
登泰山	-9.61496
人之所	-9.61497
祖宗	-9.6163
仙人	-9.61641
至此	-9.61643
太守	-9.61659
而行	-9.61841
使我	-9.61849
卦之	-9.61962
貢	-9.61999
六二	-9.62002
三代	-9.62009
天宫	-9.62062
人所	-9.6218
徤	-9.62288
九年	-9.62299
鴈	-9.623
優	-9.62329
腰	-9.62335
皷	-9.62346
曰子	-9.62353
棲	-9.62355
馮	-9.62365
逝	-9.62384
霸	-9.62403
綿	-9.62407
吞	-9.62423
僅	-9.62449
庶幾	-9.62486
又有	-9.62515
群臣	-9.62864
之神	-9.63088
不若	-9.6321
丙	-9.63262
襄	-9.63326
之子	-9.6342
快	-9.63477
虧	-9.63515
明堂	-9.63531
米	-9.63533
突	-9.63544
枉	-9.63562
懽	-9.63567
摇	-9.63571
祚	-9.63588
阻	-9.63611
聯	-9.63612
銅	-9.63636
旌	-9.63636
朗	-9.63645
嫌	-9.63654
十月	-9.6366
陷	-9.63677
七十二	-9.63755
祭祀	-9.638
砂	-9.6383
億	-9.63864
之本	-9.63912
其道	-9.63971
婦人	-9.64081
不知其	-9.64219
皈依	-9.64292
武帝	-9.64309
至道	-9.6431
未必	-9.64521
至矣	-9.64559
夬	-9.64663
正一	-9.64664
詩云	-9.64684
曆	-9.64719
冝	-9.64744
而生	-9.64763
晉	-9.64793
閱	-9.64806
那	-9.64824
割	-9.64831
輩	-9.64832
焦	-9.64837
輸	-9.64838
太乙	-9.64859
德之	-9.64883
餌	-9.64906
儲	-9.64921
至是	-9.64977
號曰	-9.64999
東嶽	-9.65143
曰汝	-9.65237
不勝	-9.65277
之理	-9.65319
仁宗	-9.65354
不但	-9.65605
片	-9.65611
不善	-9.65892
魁	-9.65921
南方	-9.65932
趾	-9.66008
雀	-9.66037
琴	-9.66075
秩	-9.66085
壺	-9.66132
翊	-9.66136
柄	-9.66151
不失	-9.66191
大小	-9.66195
日觀	-9.66229
之故	-9.66295
至人	-9.66297
在上	-9.6646
之類	-9.66573
而已矣	-9.66875
安得	-9.66909
他日	-9.66966
不忘	-9.67082
頤	-9.67122
也非	-9.67147
難靈應藥王扁鵲君能救	-9.67235
壑	-9.6727
懿	-9.67306
託	-9.67312
淑	-9.67321
娶	-9.67328
噫	-9.67331
哲	-9.67346
銘	-9.67353
夙	-9.67353
懇	-9.67354
明日	-9.67358
績	-9.67371
觀其	-9.67371
翻	-9.67373
岀	-9.67374
終身	-9.6747
而反	-9.67515
歎	-9.67552
聦明	-9.67592
元帥	-9.67599
皇后	-9.6772
誕	-9.68249
夫婦	-9.68328
不亦	-9.68335
肯	-9.68454
五年	-9.68513
敝	-9.68534
皆有	-9.68544
刺	-9.6855
矯	-9.68571
皮	-9.68581
崔	-9.68596
虔	-9.68598
曷	-9.68615
桂	-9.68622
排	-9.6863
曠	-9.68637
鵲	-9.68646
俊	-9.68672
丞相	-9.68754
絶頂	-9.68781
再拜	-9.6881
帝之	-9.68909
之至也	-9.69115
慈悲	-9.69503
治天下	-9.69607
亦可	-9.69614
莊子	-9.69728
千古	-9.69811
矣而	-9.69849
曰我	-9.69854
麻	-9.69855
淮	-9.69857
稷	-9.69868
援	-9.69886
標	-9.69897
名山	-9.69911
爛	-9.69919
圭	-9.69922
幻	-9.69925
麥	-9.69928
乳	-9.69929
迴	-9.6994
熱	-9.69998
二月	-9.7
咨	-9.70008
猶有	-9.70088
皆以	-9.70169
生民	-9.70263
主有	-9.70386
不欲	-9.70413
不動	-9.70429
爲我	-9.70473
聖賢	-9.70549
失物	-9.70575
染	-9.70602
八十	-9.70645
男子	-9.70702
文公	-9.70741
丈	-9.70742
眞經	-9.7084
額	-9.70842
而天下	-9.70861
鐘	-9.71026
大帝	-9.71156
藩	-9.7123
禳	-9.71259
創	-9.71271
伏羲	-9.71278
枕	-9.71326
貞吉	-9.714
神人	-9.71472
九月	-9.71605
之妙	-9.71626
測	-9.71725
東北	-9.71743
大明	-9.72308
奎	-9.72431
奢	-9.72439
峽	-9.72474
者何	-9.72494
灰	-9.7252
恕	-9.72523
乏	-9.72523
瓦	-9.72557
羞	-9.72569
誣	-9.72605
禾	-9.72605
裘	-9.72617
慰	-9.72628
其性	-9.72856
伏願	-9.73025
精神	-9.73033
而言	-9.73054
無憂	-9.73062
以上	-9.731
一年	-9.73392
八月	-9.73436
君子之	-9.73583
靈寳	-9.7368
也是故	-9.73699
乎夫	-9.7386
崑崙	-9.73863
饑	-9.73872
的	-9.73889
牒	-9.73911
戾	-9.73911
岸	-9.73926
之變	-9.73957
嘉靖	-9.73964
㧞	-9.73995
掛	-9.74005
不行	-9.7401
不必	-9.74023
於道	-9.74111
京師	-9.74207
加封	-9.74354
禪師	-9.74361
受福	-9.745
與天	-9.74537
太和	-9.74783
此日	-9.74913
山之	-9.75045
而復	-9.75143
䑓	-9.75184
闢	-9.75185
在岳	-9.75206
穹	-9.7521
胃	-9.75218
前後	-9.75233
聖母	-9.75239
迫	-9.75247
暢	-9.75326
䏻	-9.75367
污	-9.75377
妙法	-9.7562
五帝	-9.75632
太祖	-9.7567
自在	-9.75719
在於	-9.75764
一身	-9.75818
三清	-9.75836
惟神	-9.75854
科名	-9.7608
女子	-9.7612
童子	-9.76483
随	-9.76562
暉	-9.76569
南山	-9.76589
董	-9.76591
九色	-9.766
狼	-9.76601
勃	-9.76602
郤	-9.7661
緩	-9.76643
滋	-9.76644
晏	-9.7666
鄙	-9.76663
踐	-9.76664
競	-9.76668
巾	-9.76691
掃	-9.76706
匿	-9.76708
蓬萊	-9.76713
化爲	-9.76724
濕	-9.76744
紙	-9.76745
裂	-9.76765
荅	-9.76801
不得已	-9.76809
所以爲	-9.76844
之世	-9.76925
⬤⬤	-9.77083
元吉	-9.77098
終始	-9.77234
分明	-9.77403
香火	-9.77539
自古	-9.77598
也然則	-9.77831
軫	-9.77915
癸	-9.77965
九四	-9.77975
飄	-9.7801
邇	-9.78065
絡	-9.78078
遜	-9.78082
叛	-9.78085
數十	-9.7811
詭	-9.78122
以待	-9.78127
漫	-9.78128
庵	-9.7814
燒	-9.78159
買	-9.7816
捷	-9.78178
鉛	-9.78211
以正	-9.78298
不受	-9.78312
有大	-9.78558
下有	-9.78711
扵是	-9.78719
龍虎	-9.78874
此皆	-9.78971
貴人	-9.78973
明夷	-9.78999
得以	-9.79023
三十二	-9.79063
呪	-9.79171
不與	-9.79182
則是	-9.79233
亦無	-9.79323
古本作	-9.79423
截	-9.7945
謬	-9.79457
佞	-9.79481
巫	-9.795
電	-9.79503
較	-9.79506
釣	-9.79507
离	-9.79517
苗	-9.79517
勳	-9.79527
袍	-9.79528
伍	-9.79547
捧	-9.79547
偉	-9.79558
啇	-9.79574
握	-9.79574
渠	-9.7959
毅	-9.79591
纔	-9.79598
山東	-9.79637
乎此	-9.79737
咒	-9.79758
而得	-9.79803
喜神	-9.79852
至誠	-9.80183
之命	-9.80215
而不可	-9.80275
若此	-9.80369
白日	-9.80508
感應	-9.8072
玉清	-9.80731
叩	-9.80847
亮	-9.80853
乖	-9.80891
也又	-9.80904
牢	-9.80914
㓂	-9.80933
之謂也	-9.80937
闔	-9.8097
撰	-9.80982
膏	-9.80983
孽	-9.8099
祕	-9.81009
供養	-9.81012
猛	-9.81039
籠	-9.81076
飲食	-9.81134
北極	-9.81369
齊魯	-9.81386
不通	-9.81463
何謂	-9.81491
不離	-9.81572
出門	-9.81574
上天	-9.81582
天帝	-9.81641
至聖	-9.8182
山林	-9.81871
可以爲	-9.81971
之道也	-9.8207
時有	-9.82133
不生	-9.82154
廵	-9.82178
從之	-9.82181
福德	-9.82182
古本	-9.82183
文帝	-9.82195
液	-9.82265
低	-9.82317
玉京	-9.82372
齡	-9.82377
関	-9.82389
蹈	-9.82393
亟	-9.82408
珪	-9.82408
喬	-9.82414
聖誕	-9.82418
蘇註	-9.82422
繞	-9.82423
紂	-9.82463
拒	-9.82465
濡	-9.82472
高宗	-9.82497
馭	-9.82505
樸	-9.82507
嬰兒	-9.82511
靈濟	-9.82524
肇	-9.82529
歸妹	-9.82531
偕	-9.82536
賣	-9.82545
之主	-9.82655
鉢	-9.8272
有道	-9.82936
本無	-9.82946
不待	-9.82964
未知	-9.83102
人者	-9.83173
長安	-9.83617
葛	-9.83797
公子	-9.83827
輦	-9.83839
旡	-9.83856
嘯	-9.8386
五星	-9.83874
宻	-9.839
臻	-9.839
恠	-9.83915
淡	-9.83919
朽	-9.83954
郞	-9.83968
人物	-9.83979
其實	-9.83997
物也	-9.84112
吉星	-9.84177
紫微	-9.84198
之難	-9.84199
所居	-9.84324
玄都	-9.84352
人以	-9.8449
二子	-9.84495
壬	-9.84511
其志	-9.8489
然也	-9.84894
不識	-9.84918
成功	-9.85037
死者	-9.85101
二三	-9.85101
言也	-9.85109
上九	-9.85328
幣	-9.85342
萌	-9.85369
吝	-9.85375
蕃	-9.85401
吁	-9.85422
旗	-9.85433
鷄	-9.85438
隋	-9.85439
公孫	-9.85451
鄧	-9.85453
泯	-9.85483
求之	-9.85491
遐	-9.8551
一二	-9.85537
梯	-9.8555
箇	-9.85559
孕	-9.85559
道教	-9.85561
萬年	-9.85657
飛昇	-9.85686
不祥	-9.8572
仲尼	-9.85791
何所	-9.85868
一念	-9.85875
疾病	-9.85886
莫之	-9.85984
公曰	-9.86122
姓名	-9.86237
之君	-9.8625
永樂	-9.86292
平生	-9.86308
豈有	-9.86308
般	-9.86422
禄元	-9.86433
非有	-9.86463
動而	-9.86586
榜	-9.86702
其母	-9.86805
無私	-9.86831
零	-9.86835
淨	-9.86841
製	-9.86867
項	-9.86871
冨	-9.86968
飮	-9.86979
臂	-9.86998
閻	-9.86999
距	-9.87006
其有	-9.87016
薪	-9.87033
牲	-9.87053
西方	-9.87061
學士	-9.87081
認	-9.87101
靈濟宫	-9.87129
太陰	-9.8715
以致	-9.87179
家宅	-9.87273
高祖	-9.87274
道場	-9.87339
後人	-9.87481
登岱	-9.8758
則知	-9.87849
是經	-9.8791
可不	-9.88
也蓋	-9.88018
貴賤	-9.88029
無名	-9.88281
不止	-9.883
饒	-9.88345
旬	-9.88353
黎	-9.88387
恤	-9.88413
未濟	-9.88441
暑	-9.88444
肩	-9.88463
陋	-9.8849
驪	-9.88508
憫	-9.88524
奠	-9.88536
虐	-9.88547
之文	-9.88547
橫	-9.88555
寫	-9.88562
徙	-9.88565
晚	-9.88573
湧	-9.88597
敕	-9.88613
赫	-9.88613
逄	-9.88633
翰	-9.88649
罡	-9.88739
王母	-9.88745
眞宗	-9.88842
䧏	-9.88847
四五	-9.88983
皈	-9.88989
可得	-9.89127
渡	-9.89178
其爲	-9.89348
虛無	-9.89394
大過	-9.89505
以自	-9.89579
遣使	-9.8958
妻子	-9.89635
未嘗不	-9.89644
曰君	-9.89662
千年	-9.89693
相逢	-9.89797
乎哉	-9.89799
婁	-9.89906
邵	-9.90059
君之	-9.90066
淪	-9.90086
勒	-9.90091
挾	-9.90091
栢	-9.901
玩	-9.90125
藉	-9.90145
層	-9.90147
哉故	-9.90151
溥	-9.90159
頻	-9.90174
甚矣	-9.90216
思之	-9.90248
一曰	-9.90273
臧	-9.9028
帝曰	-9.90379
而又	-9.90386
之志	-9.90466
北斗	-9.9054
登岳	-9.90587
一言	-9.90599
宰相	-9.90615
八煞	-9.90641
自然之	-9.90655
九十	-9.90878
麓	-9.90911
孟子曰	-9.90948
得失	-9.90991
威靈	-9.91029
中孚	-9.91059
不見其	-9.91284
不絶	-9.91338
同人	-9.91397
明年	-9.91473
訖	-9.91477
蓮	-9.91517
丞	-9.91586
譬	-9.91592
絳	-9.91598
筵	-9.91611
之學	-9.91642
船	-9.91696
弄	-9.91698
灌	-9.91703
展	-9.91713
未聞	-9.91723
添	-9.91728
雉	-9.91734
括	-9.91739
睹	-9.91747
謗	-9.91756
泊	-9.91758
朴	-9.91774
其神	-9.91794
糧	-9.91798
渉	-9.9181
腐	-9.91831
一旦	-9.9185
坊	-9.91996
解脫	-9.92039
可見	-9.92043
古者	-9.92145
宫主	-9.92268
者無	-9.92299
十二月	-9.92302
文魁	-9.92328
爲大	-9.92336
可也	-9.92337
食之	-9.92371
此言	-9.92417
十餘	-9.92548
至眞	-9.92634
衆人	-9.92736
北方	-9.92749
之門	-9.92771
之位	-9.928
二十八	-9.92829
利益	-9.92944
七殺	-9.92998
之吉	-9.93047
之禍	-9.93142
先帝	-9.93296
棟	-9.93323
膚	-9.93328
查	-9.93332
藴	-9.93337
効	-9.93343
虫	-9.93345
岐	-9.93356
態	-9.93369
踵	-9.93373
捕	-9.93377
禀	-9.93381
薛	-9.93391
擢	-9.93391
遁	-9.93395
揮	-9.93401
吉象曰	-9.93406
梅	-9.93407
峙	-9.93429
輒	-9.93441
逼	-9.93448
不容	-9.93466
於天	-9.93613
天符	-9.93638
召見	-9.93703
一也	-9.93712
神靈	-9.93756
物而	-9.93802
萬民	-9.93844
公卿	-9.93976
何其	-9.9431
持經	-9.94544
生而	-9.94552
之患	-9.94567
道家	-9.94581
利貞	-9.9466
五方	-9.94699
五日	-9.94738
百官	-9.94753
如今	-9.94762
筮	-9.94804
宫中	-9.94936
八年	-9.9494
傲	-9.94974
人生	-9.94988
偈	-9.94995
毀	-9.95001
裁	-9.95012
該	-9.95014
熙	-9.95017
鼠	-9.95022
潮	-9.95024
謚	-9.95028
隙	-9.95028
侮	-9.95033
濯	-9.95041
獵	-9.95057
練	-9.95057
而求	-9.95062
鞭	-9.95067
祉	-9.95068
諧	-9.95071
扶桑	-9.95077
恬	-9.95107
言而	-9.95119
躍	-9.95149
摧	-9.95151
行者	-9.9523
鰲峰	-9.95231
貴元	-9.95249
四年	-9.95297
神化	-9.95341
此是	-9.95358
禄神	-9.95373
相應	-9.9541
其所以	-9.95414
非其	-9.95457
子貢	-9.95484
黄金	-9.95527
催官	-9.95554
天厨	-9.95657
氏之	-9.95847
至尊	-9.96015
安能	-9.96112
其形	-9.96165
曰朕	-9.96187
第三	-9.9628
嘆曰	-9.96285
都御史	-9.96388
各自	-9.96443
以告	-9.9663
宸	-9.96633
噐	-9.96669
豕	-9.96671
坦	-9.96676
斧	-9.9668
渙	-9.96696
不求	-9.96696
争	-9.967
焕	-9.96728
八百	-9.96787
苔	-9.96789
漁	-9.96792
靄	-9.96806
膽	-9.96834
杯	-9.96862
裔	-9.96866
三教	-9.96936
何必	-9.96992
六親	-9.96992
涣	-9.97024
以養	-9.97045
在天	-9.97053
南北	-9.9708
故云	-9.97128
求財	-9.97389
豈可	-9.97453
之論	-9.97455
忠孝	-9.97468
太清	-9.97486
天理	-9.97508
一方	-9.97526
之數	-9.97531
人口	-9.97576
生者	-9.97707
而知	-9.97756
無知	-9.97791
未可	-9.97832
也吾	-9.97857
君子以	-9.97865
自以爲	-9.97897
修行	-9.98012
之始	-9.98143
三天	-9.98208
莫若	-9.98275
矣然	-9.98279
於外	-9.98315
馬元	-9.98322
於天下	-9.98326
貽	-9.98348
吿	-9.98368
陞	-9.9837
遏	-9.98381
狄	-9.98402
壤	-9.98432
廟在	-9.98435
茶	-9.98461
弓	-9.98462
蠻	-9.98476
准	-9.98486
沐	-9.98495
或曰	-9.98511
縮	-9.98516
或有	-9.98518
辜	-9.98552
曾子	-9.98559
匠	-9.98573
袖	-9.98609
先王	-9.98675
消息	-9.98844
小畜	-9.98883
因縁	-9.98949
殺之	-9.9906
萬神	-9.9912
登臨	-9.99134
所欲	-9.99167
命宫	-9.99172
不已	-9.99266
薦元	-9.99318
從容	-9.99325
未免	-9.99343
無間	-9.99344
有孚	-9.99388
功成	-9.99402
之靈	-9.99403
不顧	-9.99405
父老	-9.99474
逮	-9.99511
其間	-9.99529
伏以	-9.99654
人事	-9.99655
無情	-10.0002
而死	-10.0009
桀	-10.0012
魔耶女	-10.0013
恢	-10.0013
徼	-10.0014
軸	-10.002
潭	-10.0021
羲	-10.0021
潰	-10.0022
仁元	-10.0022
兎	-10.0023
僚	-10.0023
拾	-10.0023
旨	-10.0023
頑	-10.0024
附録	-10.0024
床	-10.0024
倪	-10.0024
垢	-10.0026
久矣	-10.0026
两	-10.0026
屠	-10.0027
邁	-10.0028
丸	-10.0028
太玄	-10.0047
惡星	-10.0048
之盛	-10.0055
飲酒	-10.0058
終不	-10.0063
七政	-10.0092
正直	-10.0103
既濟	-10.0105
元氣	-10.0106
十里	-10.0109
以明	-10.0113
此之謂	-10.0122
録之	-10.0125
天福	-10.0127
光武	-10.0129
洞天	-10.0136
一生	-10.0146
治之	-10.0162
者其	-10.0166
第二	-10.0171
聦	-10.0173
自此	-10.0176
匹	-10.019
擅	-10.0193
溝	-10.0193
駭	-10.0195
警	-10.0196
謫	-10.0197
笑曰	-10.0199
烹	-10.0201
翔	-10.0201
督	-10.0202
戀	-10.0202
誌	-10.0202
恍	-10.0203
躡	-10.0204
小過	-10.0204
属	-10.0204
槩	-10.0205
貳	-10.0206
確	-10.0207
種種	-10.021
汞	-10.0211
函	-10.0212
占病	-10.0212
貧賤	-10.0213
正一嗣教	-10.0217
二十六	-10.022
河圖	-10.0225
喜怒	-10.0234
一宫	-10.0243
二十一	-10.0257
存亡	-10.0265
二十五	-10.0266
莊子曰	-10.0267
人有	-10.0274
而實	-10.0284
故無	-10.0295
化生	-10.0304
官印	-10.0304
不當	-10.0324
度人	-10.0335
王公	-10.0337
若夫	-10.0353
今之	-10.0356
曰臣	-10.0366
卄	-10.037
尉	-10.0374
顏	-10.0374
苑	-10.0374
織	-10.0375
墟	-10.0375
有情	-10.0377
叙	-10.0377
殁	-10.0377
軌	-10.038
闇	-10.038
技	-10.0381
豪	-10.0381
臭	-10.0382
匡	-10.0382
霽	-10.0383
恍惚	-10.0383
裕	-10.0384
禽獸	-10.0385
斤	-10.0386
又云	-10.0388
盆	-10.0388
汲	-10.0388
鑄	-10.0388
捐	-10.0389
薰	-10.0389
紛紛	-10.039
煥	-10.039
誇	-10.0391
肝	-10.0391
酌	-10.0392
徃徃	-10.0411
漢書	-10.0413
其意	-10.0421
高上	-10.0424
所言	-10.0443
無常	-10.0447
若人	-10.0447
無聲	-10.0452
忠信	-10.0453
而出	-10.0459
君臣之	-10.0463
亦非	-10.0477
奥	-10.0491
空中	-10.0493
方便	-10.0498
主人	-10.0501
他人	-10.0502
以示	-10.0503
能知	-10.0514
書曰	-10.0529
郎	-10.0536
少年	-10.0539
中元	-10.0545
時人	-10.055
修道	-10.0554
徽	-10.0556
偷	-10.0556
巿	-10.0559
汙	-10.056
阜	-10.056
虗	-10.0561
誨	-10.0563
皓	-10.0565
泄	-10.0565
肥	-10.0565
盍	-10.0565
欣	-10.0565
漠	-10.0567
也郭註	-10.0568
韻	-10.0568
豹	-10.057
冥冥	-10.0571
祇	-10.0571
銳	-10.0572
衣冠	-10.0575
七年	-10.0575
碎	-10.0576
區	-10.0576
墳	-10.0582
之樂	-10.0582
三合	-10.0586
和氣	-10.0588
登封	-10.0592
仁者	-10.0593
三四	-10.0604
寡人	-10.0605
反覆	-10.0607
初二	-10.0608
羊刄	-10.0617
謀望	-10.0617
賢者	-10.0618
得而	-10.062
其上	-10.0628
惜乎	-10.0628
不覺	-10.063
三百	-10.0643
猶未	-10.0648
⬤(	-10.066
十一月	-10.0678
紫氣	-10.0696
百世	-10.0705
其餘	-10.0716
沛	-10.0743
飬	-10.0744
舎	-10.0753
弑	-10.0753
系	-10.0753
殉	-10.0754
惶	-10.0754
駒	-10.0757
汎	-10.0757
闊	-10.0759
洩	-10.0759
憎	-10.076
盲	-10.076
汶	-10.076
聳	-10.0762
澹	-10.0762
梓	-10.0766
夷狄	-10.0767
大畜	-10.0768
聖意	-10.077
脚	-10.077
威儀	-10.0772
吊	-10.0772
剛柔	-10.0773
故也	-10.0774
六合	-10.0791
有言	-10.0792
禮義	-10.0798
手足	-10.08
所爲	-10.0811
爲君	-10.0815
而來	-10.0819
故以	-10.082
其下	-10.0826
我心	-10.0832
不思	-10.0833
夫子之	-10.0849
乎天	-10.0852
左傳	-10.0859
右第	-10.0878
非常	-10.0879
爾時	-10.0882
漢之	-10.0894
鄕	-10.0901
而忘	-10.0912
碧霞	-10.0913
作福	-10.0919
九天金闕	-10.0924
跪	-10.0931
闘	-10.0935
正法	-10.0936
之宫	-10.0937
攷	-10.0939
強	-10.094
經云	-10.094
準	-10.0942
青天	-10.0942
僣	-10.0944
滑	-10.0945
宦	-10.0946
萊	-10.0946
緯	-10.0946
陣	-10.0946
所見	-10.0946
洽	-10.0947
憚	-10.0948
榖	-10.0948
黜	-10.0948
雌	-10.0949
昨	-10.0949
抗	-10.095
彈	-10.095
瑩	-10.0951
綏	-10.0952
泛	-10.0953
膠	-10.0954
邉	-10.0954
戒之	-10.0959
當以	-10.0962
清淨	-10.0964
弦	-10.0964
皈命	-10.0965
眠	-10.0966
山中	-10.0968
六年	-10.0978
成王	-10.0983
固有	-10.0986
出于	-10.0989
莊公	-10.0997
其義	-10.1
則以	-10.1008
之先	-10.101
桓公	-10.1012
孰能	-10.1014
己之	-10.1017
所有	-10.1025
也是以	-10.1031
九天玉闕	-10.1043
妙道	-10.1049
衣食	-10.105
儒者	-10.1051
數百	-10.1052
俟	-10.1061
人民	-10.1062
之機	-10.1064
故有	-10.1072
以天下	-10.1079
大壯	-10.1081
不惟	-10.1083
日出	-10.1084
而上	-10.1094
天文	-10.1099
上元	-10.1102
諸神	-10.1103
互	-10.1107
場	-10.1109
巍巍	-10.114
伺	-10.114
揭	-10.1141
莽	-10.1142
錬	-10.1143
罹	-10.1143
沐浴	-10.1143
頽	-10.1143
纏	-10.1144
洲	-10.1144
姤	-10.1145
驛	-10.1145
妬	-10.1146
元始天尊	-10.1146
航	-10.1146
斜	-10.1147
熊	-10.1149
狥	-10.115
翳	-10.115
衝	-10.115
躋	-10.1151
呈	-10.1151
宇宙	-10.1152
吉祥檀熾鈞	-10.1153
畆	-10.1154
異之	-10.1157
元神	-10.1158
虔誠	-10.1159
寍	-10.1159
十餘年	-10.116
七八	-10.1165
无妄	-10.1168
所不能	-10.1181
之勢	-10.1204
人情	-10.1228
之㫖	-10.1229
無患	-10.1231
二十二	-10.124
流行	-10.1241
先天	-10.1247
即是	-10.1247
未得	-10.1251
者雖	-10.126
教之	-10.1268
皆得	-10.1286
有爲	-10.1312
以至	-10.1326
之風	-10.1331
隸	-10.1334
棺	-10.1338
欝	-10.134
勾	-10.1341
正道	-10.1341
昩	-10.1342
替	-10.1344
弃	-10.1344
倦	-10.1344
黍	-10.1344
頥	-10.1345
丕	-10.1346
惕	-10.1346
剪	-10.1347
不變	-10.1347
嗔	-10.1348
滄海	-10.1348
自謂	-10.1348
跨	-10.135
混沌	-10.1352
憶	-10.1353
菩薩	-10.1353
奕	-10.1355
汗	-10.1355
濤	-10.1356
罕	-10.1356
百餘	-10.1357
病者	-10.1359
一名	-10.1364
有天下	-10.1377
之初	-10.1388
讀書	-10.1391
將以	-10.1391
以安	-10.1392
教化	-10.1397
延年	-10.1402
自生	-10.141
不盡	-10.1416
群生	-10.1433
不可得而	-10.1436
非人	-10.1449
之美	-10.1449
杳	-10.1453
無方	-10.1458
之術	-10.1471
礙	-10.1489
任之	-10.149
當其	-10.149
天性	-10.1491
以禮	-10.1497
萬事	-10.1498
而可	-10.1517
上昇	-10.1521
其本	-10.1522
太公	-10.1528
蓍	-10.1535
東華	-10.154
何處	-10.1541
鈞	-10.1542
九三	-10.1542
讒	-10.1543
噬嗑	-10.1544
膝	-10.1547
雷霆	-10.1548
粗	-10.1548
彊	-10.1549
歴	-10.1549
竇	-10.155
茍	-10.1552
頒	-10.1552
瓜	-10.1552
巡	-10.1554
人人	-10.1556
媚	-10.1556
逈	-10.1557
雖欲	-10.1558
一切衆生	-10.1558
快樂	-10.1571
不息	-10.1577
豈知	-10.1578
風吹	-10.1584
功名	-10.1586
令人	-10.1588
其家	-10.1592
財帛	-10.1592
取其	-10.1595
六三	-10.1596
祀之	-10.1602
故不	-10.1607
其行	-10.1608
而不得	-10.1618
不得不	-10.162
欲以	-10.1623
觀者	-10.1665
所得	-10.1666
可與	-10.1674
老人	-10.1679
遊於	-10.1683
昊	-10.1696
則天下	-10.171
其君	-10.1714
哉夫	-10.1716
老聃	-10.1721
得中	-10.1744
峪	-10.1746
貸	-10.1747
閔	-10.1749
狹	-10.1751
鈴	-10.1752
躁	-10.1752
衢	-10.1755
音吉祥檀熾鈞	-10.1755
虹	-10.1756
弘道録	-10.1759
跂	-10.176
懲	-10.1761
駢	-10.1762
冤	-10.1763
若無	-10.1764
姻	-10.1764
齎	-10.1765
蒸	-10.1766
鳩	-10.1767
中正	-10.1768
洒	-10.1769
之宗	-10.177
孔雀明王	-10.1773
而歸	-10.1775
不易	-10.1779
焚香	-10.1779
諸將	-10.1782
其可	-10.1792
太素	-10.1805
人倫	-10.181
之餘	-10.1814
以求	-10.1819
百萬	-10.182
后土	-10.1833
其功	-10.1836
大抵	-10.1839
清靜	-10.184
之迹	-10.1841
無咎	-10.1844
司命	-10.1846
三寳	-10.1862
而卒	-10.1872
幾何	-10.1881
壽命	-10.1893
則又	-10.1907
廟旺	-10.1922
可得而	-10.1935
之罪	-10.1936
忽然	-10.1939
心不	-10.1939
不敬	-10.1951
無妄	-10.1955
青帝	-10.1959
毎	-10.1959
鈎	-10.1959
涕	-10.1961
板	-10.1964
大光明	-10.1965
粹	-10.1966
斥	-10.1966
可乎	-10.1966
漿	-10.1967
遮	-10.1969
鳯	-10.197
綺	-10.197
聊	-10.197
疊	-10.1971
樊	-10.1971
與其	-10.1971
帳	-10.1974
叟	-10.1974
湘	-10.1974
轍	-10.1975
縈	-10.1975
嚮	-10.1976
級	-10.1976
村	-10.1979
物物	-10.1979
兔	-10.198
最上	-10.1981
諾	-10.1981
僊	-10.1981
金石	-10.1984
口舌	-10.1986
因其	-10.1986
之書	-10.1987
註云	-10.1995
立廟	-10.1997
山下	-10.2006
歸于	-10.201
千萬	-10.2012
所用	-10.2019
孰爲	-10.2022
未始有	-10.2041
乃以	-10.2057
積善	-10.2062
者矣	-10.2069
異也	-10.207
氣象	-10.2071
玉闕	-10.208
南極	-10.2087
此道	-10.2094
大將軍	-10.2108
三公	-10.2121
至德	-10.2131
中央	-10.2148
躔	-10.2162
廓	-10.2164
之力	-10.2166
受其	-10.2168
羸	-10.2178
扇	-10.218
荀	-10.2182
疇	-10.2182
蟠	-10.2183
遼	-10.2184
故其	-10.2186
拙	-10.2187
咲	-10.2188
泠	-10.2189
韋	-10.2191
宏	-10.2192
拯	-10.2195
須臾	-10.2196
軀	-10.2197
腸	-10.2198
伏㠯	-10.22
奬	-10.2202
諸仙	-10.2203
萬曆	-10.2204
志心	-10.2204
浚	-10.2205
非但	-10.221
之狀	-10.2211
不失其	-10.2217
暇	-10.222
曰夫	-10.222
歷代	-10.2221
神功	-10.2223
所當	-10.2224
易曰	-10.2248
神呪	-10.2249
而止	-10.2254
自爲	-10.226
有疾	-10.2268
入於	-10.2273
始終	-10.2278
開元	-10.228
金陵	-10.2287
不由	-10.2289
於前	-10.2293
十二年	-10.2294
遠矣	-10.2299
於心	-10.23
久之	-10.2308
爲本	-10.2309
有此	-10.2313
上六	-10.2313
太常	-10.2319
明道	-10.2324
如在	-10.2331
之寳	-10.2334
泰山之	-10.234
便是	-10.2342
仲尼曰	-10.2342
若不	-10.2343
從而	-10.2347
玄宗	-10.2347
江南	-10.235
台	-10.235
無邊	-10.2365
老氏	-10.2369
從事	-10.2369
入廟	-10.2374
天機	-10.2376
者則	-10.2378
奴	-10.238
之恩	-10.2381
日新	-10.2385
者謂	-10.2387
爲善	-10.2388
牝	-10.239
未始	-10.2396
傑	-10.2396
則其	-10.2401
柴	-10.2403
撓	-10.2404
剖	-10.2405
揺	-10.2406
怡	-10.2407
之録曰	-10.2409
詢	-10.2409
洞玄	-10.2409
諌	-10.2411
鋒	-10.2414
岑	-10.2416
夙夜	-10.2416
宥	-10.2416
浙	-10.2416
二五	-10.2417
渴	-10.2417
蟄	-10.2418
神通品	-10.2418
太史	-10.2425
代天師諱	-10.2427
第四	-10.2448
天嗣	-10.2453
人身	-10.2456
白鶴	-10.2456
擎㳺	-10.2459
不堪	-10.2461
水中	-10.2469
以道	-10.2469
神霄	-10.2469
恭惟	-10.247
豈無	-10.2488
涯	-10.2496
是以聖人	-10.2499
八十一	-10.2513
綸	-10.2521
有形	-10.2523
有二	-10.2532
大衆	-10.2533
祖師	-10.2547
道路	-10.2551
生于	-10.2552
從此	-10.2587
宛	-10.2593
也雖	-10.26
甞	-10.2621
也彼	-10.2624
昴	-10.2626
蟻	-10.263
氛	-10.2632
瘡	-10.2633
何有	-10.2634
黒	-10.2635
咫尺	-10.2637
蹤	-10.2637
踪	-10.2638
艾	-10.2638
誘	-10.264
駐	-10.2641
忙	-10.2642
無他	-10.2642
窟	-10.2644
冒	-10.2644
料	-10.2644
十日	-10.2645
在下	-10.2645
蹟	-10.2645
租	-10.2646
肺	-10.2647
畔	-10.2648
驟	-10.2648
文明	-10.2649
相得	-10.265
問曰	-10.265
浴	-10.2652
▲	-10.2653
𡨋	-10.2653
德也	-10.2653
酬	-10.2655
符籙	-10.2655
自己	-10.2656
人主	-10.2665
之極	-10.2683
混合	-10.2686
救苦	-10.2699
公之	-10.27
乎曰	-10.2712
誦經	-10.2719
四象	-10.2722
爲國	-10.2726
其親	-10.273
豈能	-10.2742
無功	-10.2743
靈應	-10.2755
不作	-10.2779
復有	-10.2792
則必	-10.2796
與天地	-10.28
平安	-10.2812
分别	-10.2813
二日	-10.2819
週	-10.2819
于此	-10.2821
第五	-10.2823
河南	-10.2827
得地	-10.2831
之可	-10.2837
居中	-10.284
奉行	-10.2848
所由	-10.2849
安寧	-10.285
官禄	-10.2853
睦	-10.2855
嗜	-10.2855
滛	-10.2855
鬻	-10.2857
以生	-10.2858
涼	-10.286
塊	-10.2861
扁	-10.2862
森	-10.2865
邀	-10.2865
圃	-10.2866
吸	-10.2867
巒	-10.2867
衷	-10.2867
竿	-10.2871
浸	-10.2871
壅	-10.2872
擲	-10.2872
憤	-10.2873
價	-10.2873
倘	-10.2874
銷	-10.2875
頸	-10.2876
抽	-10.2877
咽	-10.2877
炭	-10.2877
霑	-10.2877
乹	-10.2877
於物	-10.2878
諒	-10.2879
惹	-10.2879
祁	-10.2879
懋	-10.288
壘	-10.2882
俞	-10.2882
珮	-10.2882
其父	-10.2882
汪	-10.2883
之聲	-10.2894
帝王之	-10.2895
岱嶽	-10.2904
歡喜	-10.2912
復生	-10.2917
乎故	-10.2922
篇云	-10.2923
言者	-10.2939
生生	-10.294
禮部	-10.2941
用事	-10.2945
不去	-10.2948
耳非	-10.2949
法界	-10.2954
未至	-10.2959
而化	-10.2969
妙化	-10.2971
之用	-10.2992
出乎	-10.2995
金剛	-10.3006
一毫	-10.3029
福地	-10.3059
與我	-10.3068
山河	-10.3081
世俗	-10.3086
曰今	-10.3088
三子	-10.3088
而立	-10.3091
非我	-10.3092
署	-10.3098
渭	-10.3098
貺	-10.3098
選擇	-10.3099
稼	-10.3103
吉祥	-10.3104
跳	-10.3105
侣	-10.3105
称	-10.3105
猷	-10.3106
終也	-10.3106
滌	-10.3106
兢	-10.3106
羡	-10.3106
隣	-10.3106
跌	-10.3107
繪	-10.3108
鷹	-10.3108
況	-10.3108
雕	-10.3108
漂	-10.3109
粉	-10.3109
區區	-10.3109
減	-10.3109
蠢	-10.311
慚	-10.311
瘟	-10.311
嫡	-10.3111
札	-10.3111
数	-10.3112
段	-10.3112
赫赫	-10.3113
址	-10.3113
失之	-10.3126
洪武	-10.313
二字	-10.3136
副使	-10.315
子弟	-10.3161
自知	-10.3162
酒食	-10.3165
用其	-10.3173
普度	-10.3175
不改	-10.3175
千餘	-10.3175
其能	-10.3177
門户	-10.3185
不肖	-10.319
浮雲	-10.319
此所以	-10.32
在外	-10.3208
之實	-10.3212
下降	-10.3212
矣故曰	-10.3213
州人	-10.3215
者乃	-10.3215
女人	-10.3216
三皇	-10.3217
無疆	-10.3228
是已	-10.3228
曰昔	-10.3229
第十	-10.324
徃而	-10.3263
之才	-10.3268
不入	-10.3276
之教	-10.3282
之要	-10.3284
入室	-10.3287
而動	-10.3287
使其	-10.329
仙妃	-10.3291
風雲	-10.3301
十一年	-10.3314
籟	-10.3317
不傷	-10.3323
磬	-10.3324
億萬	-10.3325
而至	-10.3327
之尊	-10.3331
無人	-10.3332
而民	-10.3339
悠悠	-10.3342
忿	-10.3344
詎	-10.3346
㓛	-10.3346
沿	-10.3347
歆	-10.3347
幢	-10.3347
戈	-10.335
寰	-10.3351
无咎象曰	-10.3351
𡻕	-10.3352
鳳凰	-10.3352
姿	-10.3352
恪	-10.3353
株	-10.3353
腎	-10.3353
竈	-10.3354
虚空	-10.3354
也亦	-10.3354
嵐	-10.3358
謨	-10.3358
之誠	-10.3359
促	-10.3361
狩	-10.3363
喧	-10.3363
俯仰	-10.3365
庚申	-10.3365
九州	-10.337
稀	-10.3374
壹	-10.3376
靈文	-10.3383
又以	-10.3387
堅固	-10.3397
于天	-10.3407
遠近	-10.3411
之家	-10.3414
三官	-10.3423
敢有	-10.3431
亦以	-10.3432
萬古	-10.3435
宗廟	-10.3439
太山	-10.3455
禄動	-10.3456
之分	-10.3467
度主	-10.3467
愛之	-10.3469
利害	-10.3477
誰能	-10.3484
入于	-10.3494
宫室	-10.3495
而應	-10.3497
在人	-10.3498
門人	-10.3499
鄉人	-10.35
門外	-10.3506
無道	-10.3508
或以	-10.3512
玄元	-10.3514
子産	-10.3525
大事	-10.3531
而起	-10.3538
之謀	-10.3544
工夫	-10.3546
者哉	-10.3549
未盡	-10.356
小子	-10.3566
二女	-10.357
之方	-10.3573
昆	-10.3576
信之	-10.3577
囂	-10.3588
妙行	-10.359
矣又	-10.3591
稅	-10.3592
蓄	-10.3593
繇	-10.3593
鴟	-10.3596
骸	-10.3596
叢	-10.3597
言曰	-10.3597
蟾	-10.3598
稻	-10.3601
解曰占家宅	-10.3601
巷	-10.3602
扵此	-10.3602
屍	-10.3602
扣	-10.3603
翟	-10.3603
如意	-10.3603
爪	-10.3604
斯文	-10.3604
團	-10.3606
慎	-10.3606
聾	-10.3607
鱗	-10.3608
徘徊	-10.3608
劔	-10.3609
沾	-10.3609
侍郎	-10.361
瓶	-10.3611
跋	-10.3613
碣	-10.3614
爲天子	-10.3621
紅鸞	-10.3627
五千	-10.3628
長子	-10.3639
順行	-10.3642
而猶	-10.365
中書	-10.3663
三光	-10.3677
榮華	-10.3679
聲名	-10.3694
日觀峰	-10.3694
相見	-10.3694
自爾	-10.37
五岳	-10.3708
白虎	-10.3711
忘其	-10.3717
之乾	-10.3722
存焉	-10.3726
云云	-10.3743
得一	-10.3744
二十九	-10.3749
在焉	-10.3757
四季	-10.3766
乾之	-10.3778
所能	-10.3781
之憂	-10.3793
大德	-10.3801
光大	-10.3809
何不	-10.3821
盛德	-10.3824
廿	-10.3824
也苟	-10.3831
注生	-10.3838
之臣	-10.3838
舅	-10.3843
足矣	-10.3845
豊	-10.3847
寃	-10.3849
剛中	-10.3849
袁	-10.3851
物皆	-10.3851
臘	-10.3852
不須	-10.3853
㸃	-10.3854
跛	-10.3854
頴	-10.3857
故聖人	-10.3858
洋	-10.3858
太尉	-10.3858
釐	-10.3859
於朝	-10.3859
餙	-10.3859
難以	-10.3859
者即	-10.386
獨立	-10.3861
也聖人	-10.3861
者豈	-10.3861
韶	-10.3862
孩	-10.3862
憩	-10.3862
豁	-10.3862
迯	-10.3863
言語	-10.3863
誼	-10.3863
一陽	-10.3863
唇	-10.3864
黙	-10.3864
御帳	-10.3864
臣之	-10.3866
之私	-10.3869
惇	-10.387
贅	-10.387
忤	-10.3872
不啻	-10.3872
煩惱	-10.3873
多矣	-10.3876
十三年	-10.3877
無異	-10.3881
無註師	-10.3889
與道	-10.389
不違	-10.3891
毛頭	-10.3895
孝子	-10.3908
王室	-10.3909
丹田	-10.3914
道君	-10.3916
身心	-10.3935
譬如	-10.3944
不寧	-10.3956
之前	-10.3957
不仁	-10.3965
於内	-10.3972
箕子	-10.3974
周天	-10.3993
星斗	-10.3995
下民	-10.3998
高明	-10.4015
八日	-10.4023
不順	-10.4027
化形	-10.4029
而欲	-10.403
好事	-10.4043
明月	-10.4054
東封	-10.4068
諸子	-10.407
五老	-10.4079
父兄	-10.4095
千載	-10.4096
奪其	-10.4103
則民	-10.4109
净	-10.4112
苞	-10.4113
裴	-10.4114
醴	-10.4115
十七年	-10.4116
榻	-10.4116
大慈	-10.4117
怕	-10.4117
牖	-10.4117
詰	-10.4117
弔	-10.4117
廊	-10.4118
無註未濟	-10.4118
媒	-10.4119
栗	-10.4119
譚	-10.4121
殄	-10.4123
睡	-10.4124
絹	-10.4125
之制	-10.4125
股	-10.4125
盜賊	-10.4126
陪	-10.4126
瀉	-10.4126
豆	-10.4126
儔	-10.4127
田宅	-10.4127
恱喜	-10.4127
蘿	-10.4128
有感	-10.4128
其始	-10.4129
此其	-10.4129
尚饗	-10.4129
未見	-10.413
蔑	-10.413
綵	-10.4131
閒	-10.4132
不遠	-10.4135
寒暑	-10.4135
唐虞	-10.4137
覓	-10.4138
燥	-10.4141
頓首	-10.4142
先君	-10.4147
無能	-10.4149
襄公	-10.4153
朋友	-10.4157
始也	-10.4158
知人	-10.4162
在世	-10.4163
歲合	-10.4163
悔亡	-10.4165
政事	-10.4166
何事	-10.417
在位	-10.4175
昊天	-10.4181
授以	-10.4184
知道	-10.4184
尚未	-10.4186
服之	-10.4193
矣録曰	-10.4198
雲房	-10.42
所遇	-10.4201
靈寶	-10.4209
既而	-10.4212
厥後	-10.4215
海上	-10.4217
守其	-10.4222
忠臣	-10.4223
說經	-10.4223
三山	-10.4223
不疑	-10.4225
上皇	-10.4232
之所爲	-10.4234
論語	-10.4239
相從	-10.4243
而作	-10.4244
天仙	-10.425
六畜	-10.4252
天君	-10.4255
有名	-10.4256
雖曰	-10.4258
殺人	-10.426
不我	-10.4264
無爲而	-10.4269
曰陛下	-10.4274
不起	-10.4282
不遇	-10.4285
大義	-10.4287
肖	-10.4297
所生	-10.4299
常以	-10.43
止於	-10.4305
文字	-10.4307
何由	-10.4308
其大	-10.431
不可爲	-10.4315
聖衆	-10.4321
義也	-10.4325
苐	-10.4325
立祠	-10.4325
三者	-10.4334
長存	-10.4342
勉之	-10.4347
其國	-10.4364
生也	-10.4365
嵩	-10.4369
周易	-10.4371
殖	-10.4379
戯	-10.4382
僻	-10.4384
綬	-10.4384
呵	-10.4386
琅	-10.4386
銜	-10.4388
熾	-10.4388
太上老君	-10.4389
薨	-10.4389
寥	-10.439
轡	-10.439
涵	-10.439
臯	-10.439
勵	-10.4391
冰	-10.4391
培	-10.4391
痊	-10.4391
饋	-10.4393
譏	-10.4394
匱	-10.4395
北海	-10.4396
餐	-10.4396
鹽	-10.4396
退而	-10.4396
御製	-10.4396
焰	-10.4397
五代	-10.4398
天心	-10.4399
髪	-10.4399
穩	-10.44
疲	-10.44
不義	-10.4401
番	-10.4402
静	-10.4402
涓	-10.4403
諸山	-10.4405
洛陽	-10.4405
蝦	-10.4413
知此	-10.4415
水府	-10.4418
漢天師	-10.4418
在後	-10.4425
黄河	-10.4426
惡乎	-10.4429
恭敬	-10.443
至理	-10.4436
大國	-10.4439
江海	-10.4442
冠衣	-10.4443
純陽	-10.4446
日中	-10.4451
見於	-10.4452
可以見	-10.446
任其自	-10.4467
則不能	-10.4469
中庸	-10.4472
江西	-10.4472
化身	-10.4481
吾聞	-10.4489
不應	-10.449
也六五	-10.449
岱岳	-10.4491
侯王	-10.4502
者蓋	-10.4509
萬象	-10.451
心而	-10.4515
之國	-10.4523
而不爲	-10.4524
之民	-10.4529
有異	-10.4532
此則	-10.4534
異於	-10.4534
得此	-10.4539
即得	-10.4539
一心	-10.4543
生靈	-10.4545
悉皆	-10.4546
無益	-10.4549
一體	-10.4551
紫雲	-10.4554
者言	-10.4556
也既	-10.4556
教主	-10.4558
聲色	-10.4561
二十三	-10.4563
初五	-10.4565
矣其	-10.4573
之母	-10.4574
信乎	-10.4575
行道	-10.4582
所知	-10.4586
無復	-10.4587
修眞	-10.4593
上曰	-10.4606
安樂	-10.4607
萬世之	-10.4609
事也	-10.4612
也上六	-10.4625
中原	-10.463
凶星	-10.4632
湛	-10.4639
哀公	-10.4641
雲氣	-10.4641
王子	-10.465
照臨	-10.465
冕	-10.4652
地府	-10.4652
噬	-10.4654
氣之	-10.4654
敖	-10.4656
伊尹	-10.466
芬	-10.4661
南宫	-10.4662
棄之	-10.4662
方時化曰	-10.4662
漆	-10.4663
曩	-10.4663
和今將聖德虔誠讃	-10.4663
鶉	-10.4664
炳	-10.4665
償	-10.4666
泗	-10.4666
不能自	-10.4666
筐	-10.4667
幡	-10.4667
菜	-10.4669
鬚	-10.4669
牀	-10.4669
無註大壯	-10.467
乍	-10.467
猿	-10.467
爲二	-10.4671
岡	-10.4671
打	-10.4672
蒲	-10.4672
謾	-10.4672
暨	-10.4673
樵	-10.4673
無註豐	-10.4673
圡	-10.4674
無註謙	-10.4674
啼	-10.4675
指揮	-10.4675
孔雀	-10.4675
蘆	-10.4675
話	-10.4675
迪	-10.4676
魅	-10.4676
自化	-10.4676
擒	-10.4678
陀	-10.4678
愍	-10.4679
鉅	-10.468
智慧	-10.4681
了悟	-10.4681
縛	-10.4681
璞	-10.4684
管仲	-10.4684
畒	-10.4684
奔走	-10.4686
蛟	-10.4689
蓮花	-10.4692
媪	-10.4692
灣	-10.4695
愚按	-10.4703
付之	-10.4704
其氣	-10.4706
暈	-10.4712
夜半	-10.4713
太虚	-10.4715
也豈	-10.4717
常在	-10.4719
可用	-10.4719
死不	-10.4726
濟度	-10.4729
紫府	-10.473
九日	-10.4735
九霄	-10.4736
執政	-10.4738
名利	-10.4739
與夫	-10.4744
也如	-10.4752
辭曰	-10.4755
用兵	-10.4756
神王	-10.4761
秦漢	-10.4769
好惡	-10.4771
則曰	-10.4771
歲殿	-10.4771
在前	-10.4775
成就	-10.4778
諷	-10.4779
者多	-10.478
齊侯	-10.478
濟南	-10.4786
太白	-10.4787
乃知	-10.4788
所好	-10.4788
之境	-10.4799
非吾	-10.481
報應	-10.4814
或作	-10.482
而弗	-10.482
其死	-10.4821
不吉	-10.4826
也六三	-10.4827
爲福	-10.4832
爲民	-10.4835
有得	-10.4841
知者	-10.4851
天禄	-10.4853
六經	-10.4855
道經	-10.4858
而何	-10.486
理之	-10.4861
聽之	-10.4868
也上九	-10.4871
其次	-10.4872
問之	-10.4879
皆爲	-10.4895
大法	-10.4899
必先	-10.4903
必以	-10.4905
之所由	-10.4908
明神	-10.4908
一度	-10.4922
簫	-10.4939
大悲大願大聖大慈	-10.4943
藍	-10.4943
嗚	-10.4943
醇	-10.4943
慙	-10.4944
簿	-10.4945
㳺	-10.4945
悠	-10.4945
婆	-10.4946
叩齒	-10.4947
已而	-10.4947
壓	-10.4949
諛	-10.4949
眩	-10.4949
苛	-10.495
婢	-10.495
耆	-10.4952
隕	-10.4954
灼	-10.4954
謡	-10.4954
脯	-10.4955
蝗	-10.4956
貝	-10.4956
斛	-10.4956
挺	-10.4956
壊	-10.4957
無註蹇	-10.4958
倡	-10.4958
無註兊	-10.4959
衮	-10.4959
筋	-10.4959
鎖	-10.496
獅子	-10.4961
𡨚	-10.4961
派	-10.4962
骨肉	-10.4962
也是	-10.4963
彦	-10.4963
歇	-10.4964
萬法	-10.4973
萬壑	-10.4976
高功	-10.4986
天行	-10.4991
人君	-10.4991
將何	-10.4993
成化	-10.4994
國朝	-10.4997
豈惟	-10.5001
萬國	-10.5001
弘治	-10.5001
非是	-10.5005
勞苦	-10.5005
祈福	-10.5021
之職	-10.5023
可知	-10.5024
而退	-10.5038
本命	-10.5041
殺生	-10.5045
神氣	-10.5046
子息	-10.5049
聞道	-10.5051
二公	-10.5059
分野	-10.5081
相侵	-10.5083
海内	-10.5084
未曾	-10.5088
進士	-10.5091
其過	-10.5095
南陽	-10.5105
二曰	-10.5108
虚無	-10.5114
何須	-10.5116
求其	-10.5124
之扵	-10.5125
三陽	-10.5127
正氣	-10.5134
道德之	-10.5134
之計	-10.5139
太虛	-10.514
造化之	-10.5143
其罪	-10.5143
著書	-10.5147
刻石	-10.5153
乃至	-10.5155
其地	-10.5155
宫觀	-10.5157
中宫	-10.5157
其知	-10.5158
夫妻	-10.5161
所宜	-10.5162
日夜	-10.5163
人能	-10.5163
貞觀	-10.5171
大喜	-10.5175
護國	-10.5186
理也	-10.5186
必欲	-10.5187
取之	-10.5195
彖	-10.5198
爲害	-10.5199
三才	-10.5207
厨	-10.5215
未嘗有	-10.5218
儼	-10.5218
也六二	-10.522
出而	-10.5223
耳夫	-10.5225
恱	-10.5233
僉	-10.5233
恐其	-10.5234
膳	-10.5234
尼	-10.5235
里許	-10.5237
悃	-10.5238
城隍	-10.524
搆	-10.524
檀	-10.524
宵	-10.5242
寔	-10.5245
檄	-10.5245
無註大有	-10.5246
涸	-10.5246
茫茫	-10.5247
黍稷	-10.5247
綴	-10.5248
曳	-10.5248
讎	-10.5248
眇	-10.5248
大賢	-10.5249
蹶	-10.5249
𨼆	-10.5249
盻	-10.5249
貯	-10.525
茹	-10.525
昂	-10.525
賞罰	-10.525
縹緲	-10.525
襟	-10.5251
娱	-10.5251
寐	-10.5251
桐	-10.5251
無註中孚	-10.5251
疏	-10.5252
竄	-10.5252
無註巽	-10.5254
浩刼	-10.5254
淚	-10.5255
軒轅	-10.5255
利有攸徃	-10.5255
無註泰	-10.5256
文王之	-10.5258
無註震	-10.5261
療	-10.5261
无不利	-10.5262
莫測	-10.5263
萬靈	-10.5263
無註井	-10.5264
変	-10.5265
之性	-10.5266
山水	-10.5272
朝夕	-10.5279
居下	-10.5281
不知其所	-10.5281
長跪	-10.5281
刑刃	-10.5282
消除	-10.5284
子午	-10.5286
聖德	-10.5288
鷟曰	-10.529
列子	-10.529
世世	-10.5291
三十年	-10.5292
三曰	-10.5304
雖不	-10.5307
也凡	-10.5308
石室	-10.5311
不可以不	-10.5313
先儒	-10.5319
南面	-10.5322
不爭	-10.5323
亦然	-10.5323
不窮	-10.5324
爲相	-10.5327
秦封	-10.5337
化形爲	-10.5343
善人	-10.5356
根本	-10.5358
爲禍	-10.5358
同心	-10.5363
莫知其	-10.5364
此星	-10.537
龍穴	-10.5374
不從	-10.5376
啓請	-10.5385
其情	-10.5385
下方	-10.5397
一朝	-10.54
上仙	-10.5404
聖賢之	-10.5408
大㐫	-10.541
敢問	-10.5415
勿用	-10.5418
爲己	-10.5422
法師	-10.5425
始皇	-10.5426
以死	-10.5433
則吉	-10.5436
此其所以	-10.5439
冬至	-10.544
斯言	-10.5442
士大夫	-10.5443
堯舜之	-10.5443
者如	-10.5449
變而	-10.5452
問於	-10.5452
臣等	-10.5453
之苦	-10.5474
於其間	-10.5488
十九年	-10.5489
宣王	-10.5494
待之	-10.5496
無用	-10.5504
封爲	-10.5505
爲物	-10.5509
人道	-10.5512
去其	-10.5514
詩書	-10.5515
皇上	-10.5516
上聖	-10.552
下界	-10.5522
胡爲	-10.5523
覲	-10.5523
懐	-10.553
燔	-10.5531
故事	-10.5534
譴	-10.5534
莫知	-10.5536
未及	-10.5536
訛	-10.554
析	-10.5541
天神	-10.5543
其時	-10.5544
聰	-10.5546
忻	-10.5548
懴	-10.5548
駟	-10.5548
浦	-10.5548
無註小過	-10.5549
異日	-10.5549
捍	-10.5549
二十七	-10.5551
無註大畜	-10.5552
掠	-10.5552
矣今	-10.5553
讚	-10.5553
縷	-10.5554
攘	-10.5555
鞏	-10.5555
䰟	-10.5556
嫗	-10.5556
無註艮	-10.5556
之氣諱	-10.5556
茫	-10.5556
籤	-10.5557
無註否	-10.5557
楹	-10.5557
棗	-10.5557
叨	-10.5557
插	-10.5558
無註旅	-10.5558
而未	-10.5559
擔	-10.5559
迂	-10.5559
渺	-10.5561
行而	-10.5561
旄	-10.5563
嶂	-10.5564
針	-10.5566
透	-10.5567
不得其	-10.5568
雷電	-10.5568
開闢	-10.5569
分也	-10.5571
丙午	-10.5573
旣濟	-10.5573
匹夫	-10.5574
江湖	-10.5578
淮南	-10.5579
地支	-10.5582
筆乘	-10.5591
不合	-10.5592
十八盤	-10.5606
萬丈	-10.5606
劉氏	-10.5608
水旱	-10.5609
良久	-10.561
羽士	-10.5616
事君	-10.5617
神咒	-10.5627
謂曰	-10.5628
而致	-10.563
經典	-10.5631
所願	-10.5634
昔者	-10.5635
必得	-10.5636
入山	-10.5638
穆公	-10.5638
入朝	-10.5642
上宫	-10.5644
亦可以	-10.5644
何人	-10.5646
焉故	-10.5648
及諸	-10.5648
尋常	-10.5653
此乃	-10.5654
舜之	-10.5655
有三	-10.5656
中心	-10.5659
神宗	-10.566
輕重	-10.5666
者又	-10.5668
十九日	-10.5673
九重	-10.5677
亦不能	-10.5679
玄妙	-10.5681
高下	-10.5688
遂以	-10.5689
欲求	-10.569
風俗	-10.5693
不幸	-10.5697
之屬	-10.5702
不畏	-10.5706
傳曰	-10.5707
有是	-10.5707
上古	-10.5712
汝等	-10.5718
九宫	-10.5723
之表	-10.5724
萬物皆	-10.5728
生人	-10.573
五六	-10.5738
玄天上帝感應靈籤第	-10.5738
使民	-10.5741
造物	-10.5742
癸亥	-10.5744
民無	-10.5745
智者	-10.5746
有限	-10.5747
東山	-10.5751
僧道	-10.5752
有德	-10.5757
光照	-10.5757
也惟	-10.5758
誦此經	-10.5771
名爲	-10.5772
伐之	-10.5773
其妻	-10.5787
畜生	-10.5787
始於	-10.579
之圖	-10.5792
得志	-10.5792
中外	-10.5798
十三日	-10.58
和合	-10.5815
之號	-10.5823
世家	-10.5828
望之	-10.5828
凡人	-10.5839
繡	-10.5847
陛	-10.5848
即今	-10.5849
形容	-10.585
惰	-10.5851
帖	-10.5853
也九三	-10.5855
冐	-10.5855
郁	-10.5856
紏	-10.5857
涇	-10.5857
觴	-10.5858
椿	-10.5859
妹	-10.586
無註同人	-10.586
眺	-10.5862
無註睽	-10.5862
庠	-10.5862
䜛	-10.5863
菽	-10.5863
彙	-10.5864
蛻	-10.5864
飭	-10.5864
無註大過	-10.5864
檜	-10.5864
刖	-10.5865
大學	-10.5865
葺	-10.5865
沸	-10.5865
無註噬嗑	-10.5865
帷	-10.5866
鬥	-10.5867
之氣更受鍊	-10.5867
無註頥	-10.5869
棘	-10.587
顛倒	-10.587
幅	-10.587
纖	-10.5874
個	-10.5874
𠔃	-10.5875
構	-10.5875
無註坎	-10.5875
卞	-10.5875
終無	-10.5876
鎻	-10.5877
𢙣	-10.5878
許之	-10.588
本日	-10.5881
無註臨	-10.5883
以德	-10.5883
萬方	-10.5885
急急如律令	-10.5887
瞻仰	-10.5888
三人	-10.589
一月	-10.5891
善者	-10.5892
無二	-10.5894
艱難	-10.5894
雲霧	-10.5898
說法	-10.5899
之報	-10.5902
祀典	-10.5906
得見	-10.5908
長短	-10.5909
奉天	-10.5911
巳亥	-10.5912
泰嶽	-10.5916
神名	-10.5916
三尺	-10.5918
土地	-10.5923
一粒	-10.5925
其文	-10.5935
不可不	-10.5937
紫虛	-10.5947
天地之間	-10.5952
六甲	-10.5954
救度	-10.5958
明帝	-10.5959
之賢	-10.5964
有知	-10.5969
今觀	-10.597
安得不	-10.5971
祖業	-10.5975
金丹	-10.5976
常住	-10.598
在我	-10.5983
吏民	-10.5986
一章	-10.5989
十四年	-10.5998
在此	-10.6002
正統	-10.6004
於上	-10.6009
五松	-10.6013
之典	-10.6016
先王之	-10.6016
七寳	-10.6017
可爲	-10.6022
太過	-10.6026
高山	-10.6028
顔子	-10.6029
利用	-10.6034
名號	-10.6043
本來	-10.6048
相生	-10.6051
好生	-10.6052
老子曰	-10.6055
虛空	-10.6055
讀之	-10.6063
先是	-10.6064
如故	-10.6068
故謂之	-10.6069
靈公	-10.6077
當年	-10.6085
幽王	-10.6096
无所	-10.6103
所至	-10.6107
三品	-10.6108
入聖	-10.6116
無愧	-10.612
也九二	-10.6122
復見	-10.6125
王孫	-10.6125
之權	-10.6133
觀於	-10.6136
一物	-10.6136
死於	-10.6156
止于	-10.6158
出家	-10.616
水帝大龍王	-10.6165
哉此	-10.6165
有無	-10.6168
直上	-10.6169
祝曰	-10.617
尔	-10.6171
冶	-10.6172
更相	-10.6172
遘	-10.6175
者不能	-10.6176
邈	-10.6176
鯉	-10.618
什	-10.618
淹	-10.618
賫	-10.618
撥	-10.6181
梟	-10.6181
酷	-10.6181
溟	-10.6182
繹	-10.6182
于今	-10.6183
笙	-10.6183
當世	-10.6183
㤗	-10.6184
麾	-10.6184
餓	-10.6184
無註夬	-10.6184
鳬	-10.6185
此時	-10.6185
体	-10.6185
與子	-10.6186
惻	-10.6186
慘	-10.6186
屹	-10.6186
江河	-10.6186
無註家人	-10.6187
無註歸妹	-10.6187
槐	-10.6187
松栢	-10.6188
做	-10.6188
塔	-10.6189
隘	-10.6189
懈	-10.6189
玄天	-10.6189
慝	-10.6189
檻	-10.619
増	-10.619
翕	-10.6192
夫唯	-10.6192
滕	-10.6192
無註坤	-10.6194
無註萃	-10.6194
無註鼎	-10.6194
屑	-10.6195
兀	-10.6195
臯陶	-10.6196
拳	-10.6198
谿	-10.6199
於神	-10.6199
於齊	-10.62
無註升	-10.62
庶人	-10.6201
無註比	-10.6202
餓鬼	-10.6202
永無	-10.6205
何足	-10.6206
遷移	-10.621
漢武帝	-10.6212
常存	-10.6212
萬仞	-10.6215
明王	-10.6216
紫㣲	-10.6216
有慶	-10.6218
方且	-10.6218
如來	-10.6225
甲辰	-10.6226
不平	-10.6229
華山	-10.6231
丹臺	-10.624
金華	-10.6241
不愛	-10.6244
叔向	-10.6245
萬人	-10.6246
之福	-10.6254
不立	-10.6255
兩儀	-10.6256
左手	-10.626
周之	-10.626
苟非	-10.6261
存心	-10.6261
者也故	-10.6262
還山	-10.6266
大王	-10.6269
靈官	-10.627
憂患	-10.6273
戊子	-10.6277
自任	-10.6279
齊王	-10.6283
諸儒	-10.6289
持經人	-10.6301
至元	-10.6308
安居	-10.631
鰲峯	-10.631
其用	-10.6316
至大	-10.6316
所及	-10.6317
廟食	-10.632
秋毫	-10.6323
中道	-10.6328
明矣	-10.6334
配天	-10.6337
非不	-10.6354
其迹	-10.6359
開張	-10.6366
上䟽	-10.6372
好學	-10.6376
即此	-10.6381
四夷	-10.6383
罪人	-10.6384
所求	-10.6384
所聞	-10.6385
號令	-10.6385
之業	-10.639
於是乎	-10.6395
自立	-10.6396
無由	-10.641
巽上	-10.6411
八極	-10.6414
難言	-10.6415
一百	-10.6421
河伯	-10.6428
困於	-10.6429
無非	-10.6437
承天	-10.6441
赤子	-10.6446
本朝	-10.6454
者以爲	-10.6456
獻公	-10.6462
尊經	-10.6468
再三	-10.6468
粒	-10.647
何憂	-10.6475
彼我	-10.6481
莫如	-10.6483
也嗚呼	-10.6483
三章	-10.6484
山靈	-10.6492
金光	-10.6494
耳故	-10.6497
萬歲	-10.65
簾	-10.6503
祠下	-10.6504
盥	-10.6507
梗	-10.6509
羿	-10.651
燎	-10.6511
俠	-10.6511
南國	-10.6511
肌	-10.6511
騫	-10.6513
此卦	-10.6513
莒	-10.6514
啞	-10.6515
蠶	-10.6515
無註旣濟	-10.6515
踴躍	-10.6516
隠	-10.6517
約束	-10.6517
徂徠	-10.6517
鵠	-10.6518
者是	-10.6519
梧	-10.6519
嚥	-10.6519
釁	-10.6519
煞	-10.6519
挈	-10.6521
卵	-10.6521
填	-10.6521
邸	-10.6521
瘦	-10.6521
無註需	-10.6521
蠲	-10.6521
皆非	-10.6523
沆	-10.6523
塵埃	-10.6524
輯	-10.6524
迨	-10.6524
迭	-10.6525
叠	-10.6525
無註明夷	-10.6525
纓	-10.6525
曙	-10.6525
無註賁	-10.6525
乙酉	-10.6526
甕	-10.6526
濃	-10.6526
睢	-10.6527
壼	-10.6529
髓	-10.653
之象也	-10.6532
簷	-10.6532
璽	-10.6532
控	-10.6532
姒	-10.6533
祈禱	-10.6534
歷刼	-10.654
數里	-10.654
六龍	-10.6541
洞賓	-10.6543
聰明	-10.6545
由此	-10.6547
敞	-10.655
桃花	-10.6551
叔孫	-10.6553
至則	-10.6553
尊卑	-10.6554
以至於	-10.6555
不論	-10.6557
孔氏	-10.6559
昇天	-10.6563
自天	-10.6563
按春秋	-10.6575
隱隱	-10.6579
英宗	-10.658
天台	-10.6582
民安	-10.6587
散花	-10.6593
各有所	-10.6594
子路	-10.6594
人臣	-10.6597
諸星	-10.6598
吾子	-10.6601
西山	-10.6601
内有	-10.6602
衆等	-10.6604
不殆	-10.6604
何哉	-10.6605
飛鳥	-10.661
未足	-10.661
誕生	-10.6615
金人	-10.6623
酆都	-10.6625
不獲	-10.6627
而爲之	-10.6627
動靜	-10.6628
未有不	-10.6636
物之所	-10.6637
隨時	-10.6642
九炁	-10.6642
李氏	-10.6643
也及	-10.6646
衣服	-10.6657
無言	-10.6659
如法	-10.6667
開明	-10.6679
矣吾	-10.6685
治亂	-10.669
白石	-10.6691
不暇	-10.6691
唐書	-10.6697
天庫	-10.6698
用心	-10.6698
金玉	-10.6699
數也	-10.6704
神神	-10.6706
不正	-10.6706
坤下	-10.6707
黄老	-10.6709
商人	-10.6715
玄功	-10.6718
若非	-10.6719
於世	-10.672
先後	-10.6724
以後	-10.6726
終身不	-10.6729
宣帝	-10.6729
道本	-10.673
室家	-10.6734
飛龍	-10.6734
能勝	-10.6738
白玉	-10.6741
一切諸	-10.6748
自今	-10.6761
也又曰	-10.6764
僖公	-10.6774
此詩	-10.6775
而終	-10.6779
賢聖	-10.6786
開化	-10.6786
受之	-10.6789
養生	-10.6794
大業	-10.6794
則非	-10.6794
爲汝	-10.6798
天之所	-10.6805
有意	-10.6805
者也夫	-10.681
乾下	-10.6822
至真	-10.6824
元皇	-10.6824
見而	-10.6826
之智	-10.6826
堯之	-10.6827
請問	-10.6828
乎若	-10.6832
渝	-10.6835
天寳	-10.684
捲	-10.6851
隗	-10.6851
輻	-10.6852
不任	-10.6853
霓	-10.6854
其說	-10.6855
姪	-10.6855
罵	-10.6856
稔	-10.6856
磴	-10.6858
凋	-10.6858
碩	-10.6858
噴	-10.6859
訾	-10.686
無註小畜	-10.686
蜩	-10.6861
剋	-10.6861
謟	-10.6862
妙有	-10.6862
無註屯	-10.6863
綿綿	-10.6863
簪	-10.6863
無註渙	-10.6864
黯	-10.6865
踞	-10.6865
渚	-10.6866
祟	-10.6867
喉	-10.6867
蕪	-10.6867
戟	-10.6867
稼穡	-10.6867
侍郞	-10.6868
掖	-10.6868
沃	-10.6868
榆	-10.6868
無註訟	-10.6869
蝕	-10.6869
迓	-10.687
無註剥	-10.687
刊	-10.687
叱	-10.6871
蕩蕩	-10.6871
裝	-10.6871
挹	-10.6871
椒	-10.6871
蚤	-10.6871
僵	-10.6873
鋪	-10.6873
鷄鳴	-10.6874
麒麟	-10.6874
癡	-10.6874
斃	-10.6874
趍	-10.6875
無註漸	-10.6875
菊	-10.6876
伴	-10.6876
諸人	-10.6877
壬午	-10.6879
無註履	-10.6879
嬴	-10.688
不厭	-10.688
换	-10.6882
無註咸	-10.6883
湛然	-10.6884
由來	-10.6884
庚午	-10.6885
色之光	-10.6889
侍衛	-10.6892
飛騰	-10.6893
脾	-10.6894
嵩山	-10.6904
祭酒	-10.6907
修煉	-10.6907
爲宗	-10.691
堂堂	-10.6912
皆是	-10.6913
最爲	-10.6914
致祭	-10.6916
而獨	-10.6921
奉獻	-10.6921
世所	-10.6923
兆民	-10.6925
河東	-10.6926
治國	-10.6931
坎離	-10.6931
四日	-10.6933
混元	-10.6933
登山	-10.6934
太一	-10.6935
梁父	-10.6938
也九五	-10.6941
回首	-10.6942
中國之	-10.6942
嗣教	-10.6944
陽明	-10.6949
結成	-10.6954
是何	-10.6957
成子	-10.6976
平地	-10.6976
之域	-10.6979
司徒	-10.6979
不孝	-10.698
自成	-10.6981
太華	-10.6981
弗能	-10.6983
識之	-10.6986
皆可	-10.6987
志在	-10.6991
本心	-10.6995
太學	-10.6998
亦曰	-10.7004
日月之	-10.7005
但能	-10.7011
惡曜	-10.7011
太空	-10.7013
神妙	-10.7023
是知	-10.7024
各以	-10.7029
八景	-10.704
不測	-10.7043
而行之	-10.7051
而徃	-10.7053
吉利	-10.7072
以報	-10.7075
不以爲	-10.7077
不取	-10.708
萬劫	-10.7088
而入	-10.7095
方諸	-10.7097
保其	-10.7103
宗師	-10.7106
三寸	-10.7108
雲中	-10.7108
彼此	-10.7108
脩身	-10.7111
天堂	-10.7112
患難	-10.7122
親親	-10.7123
逢時	-10.7126
不負	-10.7132
上變	-10.7134
相承	-10.7134
者衆	-10.7137
▁(	-10.7137
得生	-10.7152
凡有	-10.7152
仞	-10.7158
成都	-10.7165
惟有	-10.7167
而後能	-10.7167
自來	-10.7179
昭王	-10.7179
方其	-10.7191
之女	-10.7194
之詩	-10.7194
一卷	-10.7195
島	-10.7195
以濟	-10.7197
鰲	-10.72
惱	-10.7202
換	-10.7203
璋	-10.7211
也筆乘	-10.7212
五曰	-10.7212
芥	-10.7214
佚	-10.7215
坡	-10.7215
衘	-10.7219
凍	-10.7219
夸	-10.722
豪傑	-10.722
蜂	-10.722
緊	-10.7221
猜	-10.7222
燦	-10.7222
濫	-10.7223
雷雨	-10.7223
胸	-10.7224
鞠	-10.7226
這	-10.7226
募	-10.7226
丙戌	-10.7226
辦	-10.7227
匈奴	-10.7227
命也	-10.7228
陜	-10.7228
虬	-10.7229
彬	-10.7229
稿	-10.7229
二十八宿	-10.7229
挫	-10.7229
翰林	-10.723
瘞	-10.723
樽	-10.723
腦	-10.7231
懺	-10.7232
勉强	-10.7232
規模	-10.7233
濮	-10.7233
窒	-10.7233
戊午	-10.7233
悚	-10.7234
三歲	-10.7234
椽	-10.7235
明皇	-10.7237
丁卯	-10.7239
皇太后	-10.7239
煎	-10.7241
爵禄	-10.7242
乙卯	-10.7244
甘露	-10.7247
丁酉	-10.7247
宫龍女	-10.7248
秦松	-10.7248
中興	-10.7249
元至正十三年贈	-10.7251
希夷	-10.7251
無註節	-10.7254
誰知	-10.7256
大夫松	-10.7258
昆弟	-10.7259
儼然	-10.7263
四十九	-10.7266
數年	-10.7267
曰卿	-10.7272
無註觀	-10.7275
執事	-10.7282
功曹	-10.7283
方外	-10.7284
布衣	-10.7288
真仙	-10.7291
損益	-10.7297
數千	-10.7305
果有	-10.7312
家貧	-10.7314
祝文	-10.7318
乙丑	-10.7324
之期	-10.7328
孰謂	-10.733
是其	-10.7331
我獨	-10.7331
可使之	-10.7333
聞而	-10.7342
敢不	-10.735
仰止	-10.735
二百	-10.7351
道德經	-10.7353
之稱	-10.7358
之所以爲	-10.7361
亡者	-10.7371
不是	-10.7372
萬乘	-10.7377
化育	-10.738
見一	-10.7381
遠而	-10.7381
比之	-10.7384
齋戒	-10.7387
必然	-10.7405
千二百	-10.7414
萬物而	-10.7416
以義	-10.743
生物	-10.7432
守之	-10.7432
碑本	-10.7432
將安	-10.7434
何故	-10.7437
而今	-10.7437
重耳	-10.7439
宣子	-10.744
以文	-10.7442
錦衣	-10.7442
生我	-10.7446
有時	-10.7453
此意	-10.7457
興起	-10.746
皇經	-10.746
蒼生	-10.7462
字道	-10.7466
西王母	-10.7468
問道	-10.7471
六十四	-10.7475
情欲	-10.7476
非所以	-10.7478
不廢	-10.7479
於地	-10.7481
復命	-10.7486
頌曰	-10.7486
諸生	-10.7488
全其	-10.7493
其聲	-10.75
天杖	-10.7504
建立	-10.751
若能	-10.7512
禄山	-10.7515
三卷	-10.7528
經法	-10.7534
吾不知	-10.7535
保命	-10.7536
玄帝	-10.7536
世子	-10.7539
以此爲	-10.754
尚有	-10.754
夫人之	-10.7543
處士	-10.755
三十五	-10.7554
也六四	-10.7557
朕惟	-10.7559
人則	-10.7559
豈其	-10.7566
嘗謂	-10.7571
霍	-10.7577
逾	-10.7577
法度	-10.7579
攬	-10.7579
啖	-10.7579
五行之	-10.7581
二十年	-10.7581
十六年	-10.7582
冷	-10.7582
遊乎	-10.7583
搏	-10.7583
稚	-10.7583
彝	-10.7583
悮	-10.7584
虵	-10.7584
杏	-10.7585
龍王	-10.7585
四十八	-10.7585
愬	-10.7586
無爲也	-10.7586
鉤	-10.7586
學問	-10.7587
凟	-10.7587
轂	-10.7588
芻	-10.7588
叫	-10.7588
㝠	-10.759
催	-10.759
禋	-10.759
悵	-10.759
椎	-10.759
嶼	-10.7591
槨	-10.7591
芽	-10.7592
磚	-10.7592
濬	-10.7592
元亨利貞	-10.7592
齧	-10.7593
馨	-10.7593
忱	-10.7594
呼吸	-10.7594
狡	-10.7594
迅	-10.7594
笠	-10.7594
然後知	-10.7596
易林卷第	-10.7596
笏	-10.7597
喘	-10.7597
烝	-10.7597
渥	-10.7598
醒	-10.7598
瞰	-10.7598
肘	-10.7598
干戈	-10.7598
峭	-10.7599
研	-10.7599
欠	-10.7602
粧	-10.7602
盗賊	-10.7603
圜	-10.7603
奄	-10.7605
娣	-10.7606
蒿里	-10.7606
蚕	-10.7606
沼	-10.7609
雌雄	-10.7609
六十四卦	-10.7609
賢人	-10.7609
三方	-10.761
丁亥	-10.761
藹	-10.761
鶴鳴	-10.7611
應物	-10.7616
至仁	-10.7619
紹興	-10.7619
入覲	-10.7621
支離	-10.7621
戊申	-10.7621
無遺	-10.7628
祠宇	-10.7628
判官	-10.763
玉檢	-10.7631
振衣	-10.7632
癸未	-10.7633
布政	-10.7646
成道	-10.7647
金籙	-10.7649
無始	-10.765
龍虎山	-10.7651
門庭	-10.7651
世祖	-10.7652
王弼	-10.7655
而使	-10.7655
始知	-10.7657
演說	-10.766
占身	-10.766
許由	-10.7662
目録	-10.7663
難也	-10.7671
不問	-10.7672
石壁	-10.7673
各得其	-10.7678
不樂	-10.7681
)○	-10.7682
吉曜	-10.7683
之義也	-10.7683
丙子	-10.7684
仁徳	-10.7684
牛馬	-10.7685
得之以	-10.769
申酉	-10.769
一代	-10.7692
丁未	-10.7699
此所謂	-10.77
亨通	-10.7701
其位	-10.7708
哀樂	-10.7708
艮下	-10.7709
天地萬物	-10.771
無餘	-10.7713
受持	-10.7713
是之謂	-10.7714
也雖然	-10.7714
車馬	-10.7719
庚子	-10.7723
必有所	-10.7725
存者	-10.7727
力行	-10.7733
於中	-10.7738
自稱	-10.7739
惡業	-10.774
兊下	-10.7743
夜光	-10.7743
之議	-10.7749
相去	-10.7755
本末	-10.7758
兖州	-10.7769
或云	-10.7769
甘心	-10.777
己而	-10.7775
下元	-10.7776
相繼	-10.7779
難窮	-10.7781
風雷	-10.7784
或者	-10.7787
也唯	-10.7789
有事	-10.7795
後有	-10.7799
惡人	-10.7802
違者	-10.7802
春風	-10.781
事親	-10.7814
可免	-10.7817
止也	-10.7817
不拘	-10.7817
白馬	-10.783
而未嘗	-10.7831
百日	-10.7834
十萬	-10.7839
四字	-10.7845
咸使	-10.7846
二者	-10.7856
無主	-10.7863
事業	-10.7864
始生	-10.7864
流水	-10.7871
死矣	-10.7872
仙官	-10.7872
安知	-10.7876
久而	-10.7881
東行	-10.7882
天哭	-10.7892
不可不知	-10.7898
朝元	-10.7899
中天	-10.79
流傳	-10.7903
度世	-10.7906
歲德	-10.7916
巍	-10.7921
有終	-10.7921
而嘆	-10.7923
天樂	-10.7924
丈夫	-10.7932
周公之	-10.7933
一氣	-10.7937
而後有	-10.7942
奴僕	-10.7952
者天	-10.7958
惡之	-10.7958
鯀	-10.796
無疑	-10.796
軽	-10.796
狎	-10.7965
滂	-10.7966
嗇	-10.7967
朋友之	-10.7967
柯	-10.7968
賂	-10.7968
僥倖	-10.7969
呉	-10.7971
婉	-10.7971
竪	-10.7973
軿	-10.7973
也九四	-10.7973
慄	-10.7973
胄	-10.7974
蟬	-10.7974
捫	-10.7975
伊川	-10.7976
周禮	-10.7976
蔓	-10.7976
乂	-10.7976
屨	-10.7976
健	-10.7977
栖	-10.7977
汜	-10.7979
亦主	-10.7979
繆	-10.798
架	-10.798
躅	-10.7981
汾	-10.7981
囿	-10.7983
捉	-10.7984
蹄	-10.7984
秦王	-10.7984
匣	-10.7984
𣑽	-10.7985
無註离	-10.7985
顔淵	-10.7986
枝葉	-10.7986
癸巳	-10.7987
無註困	-10.7987
無註革	-10.7988
戊寅	-10.7988
貶	-10.799
無註損	-10.799
辛卯	-10.7991
熒	-10.7994
香稅	-10.7994
黄籙	-10.7995
都督	-10.7995
身中	-10.7995
彭祖	-10.7997
莊嚴	-10.7997
胷中	-10.7998
煌	-10.8
親睦	-10.8005
矣乃	-10.8006
碧落	-10.8007
宋眞宗	-10.801
辛酉	-10.801
誓願	-10.8011
之始也	-10.8012
卯酉	-10.8014
叅政	-10.8014
洛書	-10.8015
矣然則	-10.8017
甲寅	-10.802
天官	-10.8022
河源	-10.8023
顔色	-10.8024
六爻	-10.8026
壽考	-10.8026
非惟	-10.8029
一白	-10.8034
休息	-10.8039
丑寅	-10.804
高帝	-10.8041
精氣	-10.8043
爾時元始天尊	-10.8045
第二十	-10.8046
斯民	-10.8048
無所得	-10.8049
升降	-10.8052
問其故	-10.8056
示人	-10.8057
其禍	-10.8057
十一日	-10.806
老聃曰	-10.806
天虛	-10.8061
未易	-10.8062
皆然	-10.8064
用也	-10.8068
朱子	-10.8072
使天下	-10.8077
石上	-10.808
是亦	-10.808
忠義	-10.8082
哉若	-10.8084
大吉利	-10.8091
之辰	-10.8093
不遑	-10.8097
遣官	-10.8098
無礙	-10.8099
有光	-10.8105
三代之	-10.8106
皇圖	-10.8107
神農	-10.8108
經功	-10.8108
形體	-10.8108
太隂	-10.8108
於魯	-10.811
凶象曰	-10.8113
文學	-10.8114
在内	-10.8116
無一	-10.8118
洪恩眞君	-10.8122
羣生	-10.8127
金仙	-10.8128
徒以	-10.8129
巽下	-10.813
百事	-10.8131
相如	-10.8131
答曰	-10.8141
千歲	-10.8143
坎下	-10.8147
八方	-10.8148
何咎	-10.8152
不屈	-10.8156
宿天	-10.8163
可見矣	-10.8164
無害	-10.8164
吕公	-10.8169
天眞	-10.8171
可畏	-10.8174
南海	-10.8174
不可勝	-10.819
造命	-10.8191
無欲	-10.8193
山谷	-10.8197
録曰夫	-10.8201
紫陽	-10.8203
今世	-10.8203
秦皇	-10.8209
罔不	-10.8213
惟願	-10.8224
幽明	-10.8232
一時之	-10.8233
天皇	-10.8238
無迹	-10.8245
王氏	-10.8245
四面	-10.8246
大觀	-10.8249
未成	-10.8251
語曰	-10.8252
兹山	-10.8262
告成	-10.8266
賜號	-10.8266
上書	-10.8268
識者	-10.827
安危	-10.8274
曰先生	-10.8281
土木	-10.8285
若乃	-10.8286
相對	-10.8299
之弊	-10.8301
大神	-10.8302
運限	-10.8308
常人	-10.831
年二月	-10.8311
油	-10.8316
千金	-10.8317
睿	-10.8318
鞅	-10.8318
其教	-10.832
安民	-10.8321
或問	-10.8325
成人	-10.8329
怒曰	-10.8329
迄	-10.833
帝光	-10.8341
抱一	-10.8347
誰敢	-10.8349
何能	-10.8349
孰知	-10.8351
冠服	-10.8354
無端	-10.8355
玉虛	-10.836
過去	-10.8363
籥	-10.8363
方可	-10.8364
尭	-10.8365
羔	-10.8365
妻妾	-10.8366
氐	-10.8367
利涉大川	-10.8367
粮	-10.8367
王畿曰	-10.8368
衆妙	-10.837
葵	-10.8371
濱	-10.8371
罄	-10.8371
哺	-10.8372
柩	-10.8372
大矣哉	-10.8372
琳	-10.8372
歸於	-10.8372
之界	-10.8373
贊	-10.8373
姊	-10.8373
綽	-10.8373
庖	-10.8373
欲其	-10.8374
糞	-10.8374
仆	-10.8375
暖	-10.8375
狙	-10.8375
倏	-10.8375
贖	-10.8375
鵬	-10.8376
無註姤	-10.8376
霖	-10.8376
賑	-10.8377
縊	-10.8377
雛	-10.8377
盪	-10.8378
泰安州	-10.8378
陂	-10.8378
癘	-10.8379
無註豫	-10.8379
宫観	-10.8379
訴	-10.8379
崔嵬	-10.8379
憾	-10.838
熏	-10.838
瞑	-10.838
断	-10.838
啄	-10.838
斑	-10.838
掘	-10.8381
刧	-10.8381
幕	-10.8381
劇	-10.8382
藻	-10.8383
及長	-10.8383
穎	-10.8385
堵	-10.8386
坑	-10.8386
腥	-10.8386
籌	-10.8387
孔孟	-10.8387
踏	-10.8387
秦始皇	-10.8388
讐	-10.8389
怯	-10.839
堆	-10.839
挂	-10.839
炙	-10.839
裹	-10.8391
亘	-10.8392
參差	-10.8392
十五年	-10.8394
百餘年	-10.8394
辛丑	-10.8394
無敢	-10.8394
斯人	-10.8395
陳蔡	-10.8395
熙寧	-10.8396
丙申	-10.8397
亭亭	-10.8397
湮	-10.8398
壬申	-10.8401
英雄	-10.8401
無註隨	-10.8403
徽號	-10.8405
后妃	-10.8407
勲	-10.8408
而難	-10.8409
清明	-10.8413
留連	-10.8413
無註益	-10.8414
祈雨	-10.8417
青山	-10.8419
苦惱	-10.8421
到頭	-10.8423
䕃	-10.8427
空洞	-10.8428
甲兵	-10.8428
延壽	-10.8429
成形	-10.843
(□)	-10.843
周旋	-10.8435
登壇	-10.8436
肅宗	-10.8437
出世	-10.8439
明明	-10.8441
身體	-10.8446
在岳頂	-10.8447
動則	-10.8448
互相	-10.8449
東岳	-10.845
而問	-10.8451
洞庭	-10.8451
眞仙	-10.8452
道法	-10.8455
六道	-10.8457
亡魂	-10.8461
元陽	-10.8462
微妙	-10.8463
法身	-10.8463
靈芝	-10.8466
乃命	-10.8468
未來	-10.847
元祐	-10.8478
月會於	-10.8479
震動	-10.8482
此眞經	-10.8497
宣仁	-10.8501
謹告	-10.8501
大地	-10.8511
來朝	-10.8516
夫何	-10.8516
乃可	-10.8518
凶惡	-10.8525
奏告	-10.8534
天曹	-10.8539
大同	-10.8539
星名	-10.8541
秋月	-10.8542
金書	-10.8544
尚存	-10.8545
大慈悲	-10.8546
而進	-10.8553
神光	-10.8553
歲月	-10.8555
周室	-10.856
物各	-10.8564
慈惠	-10.8564
嵗德	-10.8565
其他	-10.8574
偶然	-10.8574
冠帶	-10.8578
而不知其	-10.858
太師	-10.8595
一世	-10.8601
以金	-10.8603
眞文	-10.8609
乎郭註	-10.8618
苟有	-10.8624
其詞	-10.8628
其源	-10.8632
廣大	-10.8633
奉高	-10.8635
重修	-10.8647
爲患	-10.8651
何况	-10.8654
幸而	-10.8654
江水	-10.8658
太歲	-10.8662
兊上	-10.8669
小者	-10.8669
也歟	-10.8669
譬之	-10.8676
百家	-10.8684
否則	-10.8693
而己	-10.8698
萬刼	-10.8713
萬有	-10.8717
庶民	-10.8721
善星	-10.8722
以進	-10.8729
未幾	-10.873
只是	-10.873
之野	-10.8731
異乎	-10.8731
之妻	-10.8732
符命	-10.8733
未足以	-10.8739
告曰	-10.8747
百靈	-10.8749
記曰	-10.875
令星	-10.8754
凖	-10.876
人之心	-10.8768
吾身	-10.8768
白龍	-10.8769
者謂之	-10.8772
不得已而	-10.8775
坤上	-10.8776
下同	-10.8776
畋	-10.8777
兕	-10.8778
滄	-10.878
遶	-10.878
數日	-10.878
僖	-10.8782
湫	-10.8782
侔	-10.8783
惚	-10.8785
薇	-10.8785
無爲之	-10.8785
纂	-10.8785
曼	-10.8787
盾	-10.8787
暘	-10.8787
五里	-10.8787
珊	-10.8789
鉉	-10.8789
囬	-10.8789
失利	-10.879
巴	-10.879
燧	-10.879
昬	-10.879
蹉	-10.8791
毗	-10.8791
唾	-10.8792
峩	-10.8792
弁	-10.8792
圯	-10.8793
悶	-10.8793
神鬼	-10.8795
脇	-10.8795
鰌	-10.8795
杭	-10.8796
厠	-10.8796
甌	-10.8796
洪範	-10.8796
蚊	-10.8797
棠	-10.8797
揆	-10.8798
搜	-10.8798
咏	-10.8799
無註蠱	-10.8799
毓	-10.8799
耄	-10.8799
壙	-10.88
懺悔	-10.88
詆	-10.8801
盂	-10.8801
洋洋	-10.8802
悼	-10.8803
惓惓	-10.8804
霖雨	-10.8805
燒香	-10.8805
眷屬	-10.8807
翩翩	-10.8809
壬寅	-10.881
巖巖	-10.881
泥丸	-10.881
唐太宗	-10.8813
頃刻	-10.8813
儒墨	-10.8816
星直日	-10.8817
已成	-10.8817
二卷	-10.8819
梳	-10.8819
凡事	-10.8819
多少	-10.882
三候到	-10.8823
歌曰	-10.8823
洪恩	-10.8823
千仞	-10.8826
湯武	-10.8827
之詞	-10.883
皇太子	-10.8831
未見其	-10.8831
聖人之道	-10.8831
閉目	-10.8835
唎	-10.8838
康寧	-10.8838
小大	-10.8842
春三月	-10.8844
三十七	-10.8846
對越	-10.8847
相隨	-10.8848
老莊	-10.885
雨露	-10.8852
果然	-10.8853
伯仲	-10.8853
方寸	-10.8854
太微	-10.8859
有子	-10.8871
金銀	-10.8872
窈冥	-10.888
第六	-10.888
福星	-10.8881
子思	-10.8886
尊重	-10.889
而不敢	-10.8891
百千萬	-10.8892
紫皇	-10.8892
星主	-10.8895
端坐	-10.8898
四章	-10.8898
罪業	-10.8899
之所能	-10.89
一炁	-10.8903
玄冥	-10.8903
但見	-10.8905
靈光	-10.8909
無涯	-10.8911
不治	-10.8917
神主	-10.8918
皇極	-10.8921
而走	-10.8923
祀事	-10.8926
五陽	-10.8931
我家	-10.8932
還丹	-10.8934
玄靈	-10.8939
或謂	-10.8942
獲福	-10.8947
仙公	-10.8949
我今	-10.8953
九章	-10.8955
聖帝	-10.8971
尚賢	-10.8973
乾元	-10.8975
幽冥	-10.8976
不逮	-10.8984
獨有	-10.8984
妙用	-10.8992
天地間	-10.8992
相望	-10.8993
普照	-10.8996
隱居	-10.9001
罪福	-10.9003
天刃	-10.9005
塵世	-10.9009
高强	-10.9011
日暮	-10.9013
兖	-10.9013
自用	-10.9019
尚可	-10.9021
七祖	-10.9022
魔王	-10.9023
皇明	-10.9027
如此則	-10.9047
不盈	-10.9054
也於是	-10.907
十二宫	-10.9077
年嵗	-10.9084
三炁	-10.9087
不毁	-10.9091
之可也	-10.9099
經籙	-10.9101
有道者	-10.9102
亡其	-10.9104
誠意	-10.9109
功行	-10.9112
告以	-10.9134
百歲	-10.9135
十四十	-10.9147
道學	-10.9157
流年	-10.9168
生萬物	-10.917
必主	-10.9172
仙道	-10.918
世傳	-10.9186
奈	-10.9191
也蘇註	-10.9192
仁人	-10.9194
盜跖	-10.92
安石	-10.9202
伏念某	-10.9205
玄教	-10.9205
朝禮	-10.9211
規矩	-10.9212
郢	-10.9216
胷	-10.9217
項羽	-10.9217
顚	-10.9217
㓗	-10.9217
撻	-10.9218
枚	-10.9218
状	-10.9218
慨	-10.9219
晟	-10.9219
畿	-10.9222
虺	-10.9222
弩	-10.9223
巡撫	-10.9224
碍	-10.9224
聖眞	-10.9224
輅	-10.9225
沴	-10.9225
褐	-10.9226
疫	-10.9227
泮	-10.9227
欄	-10.9227
六甲生男	-10.9227
矩	-10.9228
沮	-10.9228
擎	-10.9228
逕	-10.9228
軾	-10.9229
后稷	-10.9229
疾厄	-10.9229
逞	-10.9229
阪	-10.9229
篡	-10.923
倣此	-10.923
婿	-10.923
虎豹	-10.9231
鴻濛	-10.9231
殫	-10.9233
裙	-10.9233
琦	-10.9233
猪	-10.9233
盃	-10.9233
無字碑	-10.9234
裒	-10.9235
䑕	-10.9235
竦	-10.9235
庥	-10.9235
琉璃	-10.9235
隻	-10.9236
酣	-10.9237
蒿	-10.9238
弓矢	-10.9238
蔚	-10.9239
怙	-10.9239
清微天	-10.9239
殞	-10.924
鐫	-10.924
耿	-10.9241
稽首皈依	-10.9241
讖	-10.9242
版	-10.9242
貲	-10.9243
雞鳴	-10.9244
契丹	-10.9246
藜	-10.9246
纒	-10.9247
無註蒙	-10.9247
此則反	-10.9247
盤古	-10.9248
靈貺	-10.9248
賓客	-10.9248
禎祥	-10.9249
失其所	-10.925
聶	-10.925
丙辰	-10.9251
大怒	-10.9251
富弼	-10.9252
牟	-10.9252
法筵	-10.9261
諭祭	-10.9262
太㣲	-10.9267
不可測	-10.9269
長嘯	-10.9269
爲人所	-10.9273
吏部	-10.9274
週天	-10.9284
晋侯	-10.9284
氏女	-10.9285
本宫	-10.9289
諸司	-10.9289
登覽	-10.9289
昭昭	-10.9289
莊周	-10.929
寂然	-10.929
重建	-10.9293
知足	-10.9295
兹特	-10.93
對照	-10.9305
方知	-10.9306
未敢	-10.9306
六氣	-10.9309
面目	-10.9312
嵗殿	-10.9319
金帛	-10.932
吕氏	-10.9322
言訖	-10.9323
震上	-10.9323
不可見	-10.9324
元亨	-10.933
道徳	-10.9341
碧霞宫	-10.9341
孝宗	-10.9342
仰視	-10.9343
齊國	-10.9343
崇奉	-10.9349
曰不然	-10.935
辛未	-10.9354
四十四	-10.9354
青城	-10.9354
泰岱	-10.9356
重重	-10.9357
主宰	-10.9361
受苦	-10.9366
命醮	-10.9371
立身	-10.9371
疾苦	-10.9384
不克	-10.9388
天下皆	-10.939
可比	-10.9394
青衣	-10.9395
子丑	-10.9411
政和	-10.9412
星宿	-10.9418
遣人	-10.9419
氣運	-10.9422
西伯	-10.9423
泰安	-10.9431
乾道	-10.9433
可知矣	-10.9433
達者	-10.9444
不自知	-10.9446
九轉	-10.9451
奇觀	-10.9452
加臨	-10.9452
經營	-10.9455
州刺史	-10.946
正色	-10.9473
一家之	-10.9479
立春	-10.9497
制度	-10.9497
復起	-10.95
吴王	-10.9501
之人也	-10.9501
青龍	-10.9506
長夜	-10.9506
靈符	-10.9511
傍人	-10.9513
外物	-10.9514
聖朝	-10.9519
知止	-10.9523
持誦	-10.9524
長久	-10.9524
天刑	-10.9525
誠心	-10.9534
所載	-10.9541
江王	-10.9543
遑	-10.9545
侍御	-10.9548
坎上	-10.9555
依然	-10.9555
武子	-10.9558
凡所	-10.9567
自取	-10.9576
所感	-10.9589
未定	-10.9594
也况	-10.9603
七百	-10.9612
飛仙	-10.9613
有待	-10.9614
曰吾聞	-10.9614
妙經	-10.962
義理	-10.962
諸衆生	-10.9625
法會	-10.9631
先聖	-10.9638
也若夫	-10.9643
攺	-10.9648
猶存	-10.9649
魔鬼	-10.9651
者莫不	-10.9659
憒	-10.9666
東土	-10.9668
叶	-10.967
眞氣	-10.9671
譛	-10.9672
㬋	-10.9673
嫁娶	-10.9675
刹	-10.9676
紳	-10.9676
顙	-10.9677
龐	-10.9677
怖	-10.9677
羈	-10.9677
屐	-10.9677
僕射	-10.9678
舄	-10.9678
蒞	-10.9678
侑	-10.9678
閽	-10.968
妓	-10.968
塟	-10.9681
匏	-10.9681
岱史第	-10.9681
蔣	-10.9681
廪	-10.9681
雹	-10.9681
螫	-10.9682
諸佛	-10.9682
鴉	-10.9682
志心皈命禮德配乾坤九天金闕	-10.9682
岧嶢	-10.9683
徂	-10.9683
抛	-10.9683
沂	-10.9683
犢	-10.9685
箭	-10.9685
廡	-10.9686
枯槁	-10.9686
𩲸	-10.9687
劾	-10.9687
聿	-10.9687
繕	-10.9688
曽	-10.9688
寘	-10.9688
髯	-10.9689
塑	-10.9689
瘳	-10.9689
迥	-10.969
芸	-10.969
琢	-10.969
鄒	-10.969
鉞	-10.9691
訝	-10.9691
彘	-10.9691
吒	-10.9692
滴	-10.9692
所以能	-10.9692
弧	-10.9693
今日之	-10.9693
菑	-10.9693
迤	-10.9694
孺子	-10.9694
俛	-10.9695
薩	-10.9695
從來	-10.9695
股肱	-10.9696
石磴	-10.9696
箱	-10.9699
紐	-10.9699
聞見	-10.97
刑罰	-10.97
璘	-10.97
闌	-10.9701
你	-10.9701
玄玄	-10.9701
牢獄	-10.9701
扉	-10.9701
危殆	-10.9704
孫子	-10.9706
延生	-10.9706
烟霞	-10.9706
壬辰	-10.9709
圓滿	-10.971
母子	-10.9711
廓然	-10.9712
戊辰	-10.9715
魂魄	-10.9717
相似	-10.9719
未發	-10.9719
三島	-10.9721
太傅	-10.9721
嘆息	-10.9724
子房	-10.9726
如日月	-10.9729
吉㐫	-10.9732
萬化	-10.9734
司馬光	-10.9739
交錯	-10.9745
方位	-10.9747
律令	-10.9748
三台	-10.9751
超度	-10.9755
印壽	-10.9755
南京	-10.9755
終焉	-10.976
四十里	-10.9762
宋史	-10.9764
血食	-10.9768
南昌	-10.977
圓光	-10.9773
□□	-10.9775
珠玉	-10.9777
無註復	-10.9781
罪衆	-10.9783
盛衰	-10.9799
議論	-10.9811
群仙	-10.9812
長房	-10.9815
紫極	-10.9818
更生	-10.9818
二章	-10.9819
源流	-10.9822
主管	-10.9822
皆由	-10.9829
勑命	-10.9832
性分	-10.9837
有事於	-10.984
每月	-10.9844
品第	-10.9858
金星	-10.987
修真	-10.9874
斷其	-10.9874
封泰山	-10.9877
奉祀	-10.9877
漢王	-10.9882
經史	-10.9899
福壽	-10.99
九幽	-10.9903
刺史	-10.9905
東向	-10.9911
四維	-10.9913
春月	-10.9924
威德	-10.9927
尊號	-10.9928
成敗	-10.9929
不惑	-10.9931
何待	-10.9932
行限	-10.9934
衣裳	-10.9948
元洞	-10.9951
一點	-10.996
慈光	-10.9972
丹書	-10.9982
敢忘	-10.9987
經書	-10.9999
平等	-11.0002
百神	-11.0004
五十一	-11.0009
禮記	-11.0017
七星	-11.0023
焉録曰	-11.0026
侍中	-11.0028
昭明	-11.0037
最大	-11.0049
宣化扶教上仙昭靈博濟高明弘靜冲湛	-11.0057
水泉	-11.0058
征凶	-11.006
惠王	-11.0061
衆念	-11.0064
相保	-11.0065
九祖	-11.0071
隂柔	-11.0079
欽哉	-11.0083
柰	-11.0087
玄化	-11.0093
直星	-11.0096
靈異	-11.0097
少陽	-11.0109
府君	-11.011
天尊言	-11.0128
風流	-11.0129
願得	-11.0135
宮	-11.0138
巓	-11.0139
六章	-11.0141
闚	-11.0143
菴	-11.0143
妄言	-11.0144
皇王	-11.0145
疵	-11.0146
十有五	-11.0147
嬉	-11.0149
鈆	-11.015
彤	-11.015
搔	-11.0151
裊	-11.0151
菲	-11.0152
嬖	-11.0152
騐	-11.0153
陳公	-11.0153
粤	-11.0154
魍魎	-11.0155
迢	-11.0155
摘	-11.0156
祜	-11.0156
嫉	-11.0156
腋	-11.0156
一行法官	-11.0157
北斗出逰	-11.0157
埃	-11.0157
蔬	-11.0157
娘	-11.0158
杼	-11.0158
桎梏	-11.0158
贄	-11.0159
遞	-11.0159
志心皈命禮威震雷霆九天玉闕	-11.016
汴	-11.016
僂	-11.016
至心皈命禮	-11.016
售	-11.016
行人未至	-11.0161
俸	-11.0161
蟒	-11.0161
鋤	-11.0161
隊	-11.0161
評	-11.0161
弋	-11.0161
葱	-11.0161
螟	-11.0162
曄	-11.0162
饌	-11.0162
鉏	-11.0163
挑	-11.0163
丗	-11.0163
悟道	-11.0164
款	-11.0164
賚	-11.0164
聆	-11.0165
三千大千	-11.0165
陰隲	-11.0165
觧見前	-11.0165
拭	-11.0165
晨昏	-11.0166
邪魔	-11.0166
劄	-11.0167
仲淹	-11.0168
委蛇	-11.0168
瓢	-11.0168
緝	-11.0168
翌日	-11.0169
媾	-11.017
瑜	-11.0171
祥雲	-11.0171
臆	-11.0171
虎狼	-11.0172
勁	-11.0174
廣成子	-11.0175
贍	-11.0176
百丈	-11.0178
丹砂	-11.018
表裏	-11.0181
馴	-11.0181
蛟龍	-11.0182
琰	-11.0183
日諸神在天	-11.0184
玉宸	-11.0184
夫豈	-11.0184
鳥獸	-11.0185
保安寍	-11.0187
遺蹟	-11.0187
徽宗	-11.0189
簇	-11.0191
唵	-11.0191
葆	-11.0191
庚辰	-11.0191
丙寅	-11.0192
錬度	-11.0198
年月日時	-11.02
消災	-11.0201
禱雨	-11.0206
斗牛	-11.0212
夏至	-11.0216
仙姑	-11.0218
沛公	-11.022
便獲	-11.0221
昇仙	-11.0226
禾刀	-11.023
白鹿	-11.0239
蒙恩	-11.0242
愛人	-11.0243
巳午	-11.0244
風波	-11.0244
柔順	-11.0249
思慮	-11.0256
渡江	-11.0257
天下之至	-11.0266
今年	-11.027
乾上	-11.0272
五穀	-11.0273
漢唐	-11.0281
臣某	-11.0283
建武	-11.0285
年九月	-11.0286
玉帶	-11.0286
吉慶	-11.029
天下之大	-11.0294
其勢	-11.0299
冬月	-11.0301
妖星	-11.0304
出奔	-11.0308
不竭	-11.0309
莫敢	-11.031
讀者	-11.032
寳蓋	-11.0326
到此	-11.0329
治民	-11.0331
但知	-11.0343
龜山	-11.0343
神異	-11.0354
七章	-11.0356
黄白	-11.0357
夜月	-11.0357
此理	-11.0361
仰觀	-11.0362
一片	-11.0369
歸根	-11.0373
帝號	-11.0381
天蓬	-11.0382
萬萬	-11.0388
子儀	-11.0393
遣吾	-11.0397
耶夫	-11.0401
清虛	-11.0403
安坐	-11.0416
雲雨	-11.0418
福建	-11.0428
艮上	-11.045
王季	-11.045
當位	-11.0453
玄武	-11.0457
青雲	-11.0466
太初	-11.0467
野人	-11.0485
祖廟	-11.0502
景帝	-11.0504
也然而	-11.0515
宣公	-11.0516
列聖	-11.0521
定位	-11.0528
生尅	-11.0532
右手	-11.0534
並作	-11.0538
八章	-11.0541
飛雲	-11.0559
去就	-11.0561
和平	-11.0573
愛民	-11.0577
孝友	-11.0589
年八十	-11.0589
勞心	-11.0619
元始天尊說	-11.0636
紘	-11.0637
紆	-11.0637
何益	-11.0639
熊過曰	-11.064
䇿	-11.064
禎	-11.0641
內	-11.0641
逋	-11.0642
慟	-11.0642
玄牝	-11.0642
駿	-11.0647
褻	-11.0647
脊	-11.0647
耽	-11.0647
橐	-11.0648
隴	-11.0648
張氏	-11.0649
闈	-11.0649
餅	-11.065
甘棠	-11.0651
廵狩	-11.0651
荘	-11.0651
犧	-11.0651
鳧	-11.0655
藤	-11.0655
大慈大悲	-11.0655
瀝	-11.0655
優游	-11.0655
娥	-11.0656
姝	-11.0656
皂	-11.0657
瞽	-11.0657
藁	-11.0657
絃	-11.0657
渺渺	-11.0657
漱	-11.0658
姧	-11.0658
笞	-11.0658
㓙	-11.0659
圉	-11.0659
亶	-11.0659
挽	-11.0659
譯	-11.0659
寛	-11.0659
濂	-11.0659
緣	-11.066
沌	-11.066
嬪	-11.0661
甸	-11.0661
衫	-11.0661
蘋	-11.0661
餉	-11.0661
漕	-11.0662
墉	-11.0662
餒	-11.0662
慷慨	-11.0662
綜	-11.0663
彪	-11.0663
禆	-11.0663
拓	-11.0664
扈	-11.0664
栽	-11.0664
拊	-11.0664
汨	-11.0665
紺	-11.0665
珎	-11.0665
羹	-11.0665
佈	-11.0666
迍	-11.0666
飱	-11.0666
灑	-11.0666
課	-11.0666
胞	-11.0667
五臟	-11.0667
侃	-11.0667
南斗下䧏	-11.0667
殽	-11.0667
營營	-11.0667
濛	-11.0671
潦	-11.0671
崎嶇	-11.0671
不可思議	-11.0672
琴瑟	-11.0672
算	-11.0672
昊天上帝	-11.0673
棣	-11.0673
秪	-11.0675
癸酉	-11.0676
醴泉	-11.0677
乱	-11.0678
若人求福	-11.0679
恐懼	-11.0683
宿大天王	-11.0686
癸丑	-11.0691
龍峪	-11.0692
玉女池	-11.0692
紫霄	-11.0692
欽承	-11.0694
民間	-11.0695
愽士	-11.0702
通鑑	-11.0702
二十七日	-11.0705
无悔	-11.0707
兵革	-11.0708
寂寂	-11.0709
清濁	-11.0713
消滅	-11.0717
資財	-11.0721
太原	-11.0728
次第	-11.073
伯夷	-11.0731
㐫星	-11.0744
古本下	-11.0746
七十一	-11.0748
州縣	-11.0755
諸玉女	-11.0756
願聞	-11.0757
千秋	-11.0763
大丈夫	-11.0767
壬子	-11.0777
元和	-11.0778
長沙	-11.0782
世俗之	-11.0784
喜慶	-11.0785
釋氏	-11.0789
顯靈	-11.079
三塗	-11.0791
兮何	-11.0798
洪水	-11.0802
故榜	-11.0806
乎對曰	-11.0809
舉手	-11.0809
卿士	-11.0812
時刻	-11.0813
念念	-11.0821
兩頭	-11.0825
列仙	-11.084
司空	-11.0842
出走	-11.0854
玄壇	-11.0855
天姚	-11.0867
福慶	-11.0869
教授	-11.0871
夏月	-11.0876
超然	-11.0882
絶學	-11.0884
普濟	-11.0887
破家	-11.0892
以俟	-11.0893
儉者	-11.0898
精誠	-11.0902
固辭	-11.0912
陽剛	-11.0917
矣録之	-11.0917
嗟乎	-11.0921
閩人	-11.0924
尊貴	-11.0934
求福	-11.0939
五炁	-11.0942
相迎	-11.0958
善果	-11.0967
金鰲	-11.0971
有道人	-11.099
咒曰	-11.101
一夕	-11.1013
十八年	-11.1014
周流	-11.102
其始也	-11.1026
係於	-11.1029
寅卯	-11.1029
大悅	-11.1039
道術	-11.1047
矣是故	-11.1047
功業	-11.105
斡	-11.109
大盜	-11.109
亡國	-11.1099
惟恐	-11.1121
夫子曰	-11.1137
観	-11.1143
郷人	-11.1148
朵	-11.1162
倖	-11.1165
槁	-11.1169
青黄	-11.1171
訥	-11.1173
伯夷叔齊	-11.1174
夔	-11.1176
寨	-11.1179
縫	-11.1179
迦	-11.118
顓頊	-11.118
峨	-11.118
無厭	-11.1181
妣	-11.1182
删	-11.1183
販	-11.1183
躓	-11.1183
扃	-11.1183
炊	-11.1184
憊	-11.1184
咀	-11.1184
會稽	-11.1184
吠	-11.1184
𩔗	-11.1185
豚	-11.1185
騷	-11.1185
詮	-11.1185
楷	-11.1186
炷	-11.1186
閬	-11.1186
無註之乾	-11.1187
東西南北	-11.1187
涕泣	-11.1187
雎	-11.1187
沉淪	-11.1187
粲	-11.1187
塘	-11.1188
悌	-11.1188
猾	-11.1188
媵	-11.1188
銓	-11.1189
袴	-11.1189
悍	-11.1189
窗	-11.1189
葦	-11.1189
瑶池	-11.1189
拍	-11.119
怏	-11.1191
閎	-11.1191
熒惑	-11.1192
黔	-11.1192
翅	-11.1192
王輔嗣	-11.1192
凛	-11.1193
濠	-11.1193
徇	-11.1194
叉	-11.1194
諦	-11.1194
斷障之	-11.1195
喫	-11.1195
瞿	-11.1195
舡	-11.1195
太上中道妙法蓮華經卷之	-11.1195
荆州	-11.1195
模	-11.1196
兇	-11.1197
弘道録卷之二十	-11.1197
延禧	-11.1197
何妨	-11.1198
顆	-11.1198
紋	-11.1199
禹貢	-11.12
店	-11.1202
三百六十	-11.1202
邃	-11.1202
纍	-11.1203
鳴呼	-11.1204
裡	-11.1205
庚戌	-11.1206
泓	-11.1207
癸卯	-11.1208
庫貫	-11.1209
日觀峯	-11.1209
庚寅	-11.1212
殿宇	-11.1214
顔回	-11.1214
丁丑	-11.1215
捌	-11.1215
榮辱	-11.1217
狀元	-11.122
諸葛	-11.1222
經一部	-11.1222
無徃而不	-11.1223
根源	-11.1223
飄風	-11.1224
不恤	-11.1226
僉事	-11.1227
廟貌	-11.1232
無忝	-11.1238
賜宴	-11.1238
社首	-11.1238
消災延壽	-11.1239
者以其	-11.1239
困苦	-11.124
權衡	-11.1242
甲午	-11.1244
秋分	-11.1246
懿夫人	-11.1249
迄今	-11.125
比干	-11.125
致仕	-11.1251
煞貢	-11.1253
甲申	-11.1256
羽衣	-11.1257
忠厚	-11.1262
魯侯	-11.1265
七十二君	-11.1265
萬邦	-11.1266
玉晨	-11.1267
理宗	-11.127
回向	-11.1271
長乆	-11.1272
之精思之還反真形修行	-11.1275
金泥	-11.1276
清㣲	-11.1277
孔門	-11.1284
無所用	-11.1299
設齋	-11.1306
瑞應	-11.1308
黄庭	-11.1309
初九日	-11.1312
韓信	-11.1313
上清宫	-11.1313
建功	-11.1313
卜木	-11.1315
列位	-11.1326
限主	-11.1328
異端	-11.1345
何也蓋	-11.1346
南斗	-11.1346
仁孝	-11.1347
鄕人	-11.1351
州城	-11.1352
師友	-11.1357
蓮華	-11.1362
感動	-11.1364
將吏	-11.1366
額曰	-11.137
金碧	-11.1372
柔弱	-11.1373
三尸	-11.1376
興亡	-11.1387
謝過	-11.1396
戰國	-11.1408
道傍	-11.1411
雲臺	-11.1415
公私	-11.1428
之奥	-11.1434
官禄宫	-11.1452
不染	-11.1467
景福	-11.1467
矣郭註	-11.1469
良善	-11.1472
今吾	-11.1477
用智	-11.1489
受業	-11.1495
梵天	-11.1502
學道者	-11.1537
吾夫子	-11.1558
子胥	-11.156
本原	-11.1561
大神通	-11.1588
酆	-11.1592
宫殿	-11.1614
也若乃	-11.1628
召公	-11.1635
歎曰	-11.1645
護持	-11.1655
可知也	-11.1656
不可窮	-11.1665
扦	-11.1688
忝	-11.1694
世忠	-11.1706
與帝同	-11.1712
庻	-11.1717
褥	-11.172
揣	-11.1722
紗	-11.1724
刼衣食自然其中亦有男女身長二十	-11.1726
里受持五戒十善得生其中其第	-11.1726
志心皈命禮德配乾坤	-11.1726
覬	-11.1727
刁	-11.1727
𣲖	-11.1727
何疑	-11.1728
艷	-11.1728
其職也	-11.1729
汚	-11.1729
廟祀	-11.1729
閟	-11.173
蓬瀛	-11.1731
大中祥符	-11.1734
貼	-11.1734
衿	-11.1734
攖	-11.1734
廖	-11.1735
潘	-11.1735
歉	-11.1736
鱉	-11.1736
欵	-11.1736
蹲	-11.1738
瞳	-11.1738
沫	-11.1738
簧	-11.1739
帑	-11.1739
弭	-11.174
劵	-11.174
拇	-11.174
君隨四時形影在上清	-11.174
箒	-11.1741
葷	-11.1741
隴西李叔義	-11.1741
蹕	-11.1741
驢	-11.1741
熹	-11.1742
翛	-11.1742
鑰	-11.1742
黛	-11.1742
誡	-11.1742
荼	-11.1742
鬢	-11.1743
窘	-11.1743
粥	-11.1743
弘道録卷之三十	-11.1743
眸	-11.1744
不旋踵	-11.1744
魴	-11.1744
恂	-11.1744
𣇄	-11.1744
瑀	-11.1744
㡌	-11.1745
翹	-11.1745
千五百	-11.1745
杓	-11.1745
莫大於	-11.1746
怵	-11.1746
閤	-11.1746
些	-11.1747
鐡	-11.1747
刮	-11.1747
睨	-11.1748
盎	-11.1748
踪跡	-11.1748
衹	-11.1749
楫	-11.1749
蘂	-11.175
橘	-11.175
忠武	-11.175
猛獸	-11.175
閉塞	-11.175
覔	-11.1751
冑	-11.1751
迸	-11.1751
證穴	-11.1751
津梁	-11.1752
袋	-11.1752
霆	-11.1752
魘	-11.1753
拆	-11.1753
鉗	-11.1753
閃	-11.1754
灘	-11.1754
燁	-11.1754
邯鄲	-11.1754
禧	-11.1755
水簾洞	-11.1755
𦔳	-11.1755
田疇	-11.1755
堤	-11.1756
無註遯	-11.1756
輕泄	-11.1756
轟	-11.1757
卜筮	-11.1758
天樞院	-11.1759
脂	-11.176
二十日	-11.176
設醮	-11.176
獲麟	-11.1761
笛	-11.1761
畦	-11.1761
疾疫	-11.1761
記畧	-11.1762
乙亥	-11.1763
人之生也	-11.1763
除邪	-11.1763
形骸	-11.1765
輕慢	-11.1766
延夀	-11.1766
牌	-11.1766
童蒙	-11.1766
陶朱	-11.1767
飮酒	-11.1767
其象爲	-11.1768
刀兵	-11.1768
淺深	-11.1769
煙霞	-11.1769
宫闕	-11.1771
迷惑	-11.1772
輪轉	-11.1772
依科	-11.1773
林甫	-11.1773
充滿	-11.1777
無上尊	-11.1777
麽	-11.1778
太宰	-11.1781
牛羊	-11.1784
容貌	-11.1785
伯温	-11.1788
宗祖	-11.1792
等閑	-11.1794
妖邪	-11.1797
襄陽	-11.1797
甘雨	-11.1799
繼之以	-11.1799
默然	-11.1802
邪淫	-11.1804
凌空	-11.1805
南向	-11.1809
興隆	-11.181
二十八年	-11.1811
曾孫	-11.1819
度厄	-11.182
金幣	-11.182
二十三年	-11.1824
法籙	-11.1825
離坎	-11.1827
帝后	-11.1827
仙籍	-11.1828
無鞅	-11.1828
七寶	-11.1828
莫量	-11.183
乙未	-11.1837
財禄	-11.1844
形勝	-11.1844
若然者	-11.1844
果報	-11.1846
次序	-11.1847
蒼龍	-11.1848
便殿	-11.1853
篤信	-11.1856
縣令	-11.1859
穆王	-11.1864
玄科	-11.1866
華盖	-11.1866
者莫如	-11.1875
簡易	-11.188
季氏	-11.1884
坐忘	-11.1889
而不窮	-11.1891
獨宿	-11.1899
丹青	-11.19
漢武	-11.1906
血氣	-11.1908
傷害	-11.191
一般	-11.1918
固請	-11.1948
孔明	-11.1949
衛國	-11.1951
金童	-11.1959
幾年	-11.1966
代張	-11.1975
山之陽	-11.1979
莫知所	-11.199
禮畢	-11.2005
光輝	-11.2007
無益於	-11.2012
國安民	-11.2039
濟世	-11.207
役使	-11.2085
尺許	-11.2107
受其福	-11.2119
凝神	-11.2119
豈徒	-11.2131
十有四	-11.2134
對曰臣	-11.2136
無乎不	-11.2144
太上皇	-11.2151
于野	-11.2165
按詩	-11.2172
祥光	-11.2206
太古	-11.2209
豈敢	-11.2214
温公	-11.2254
輟	-11.2257
子臧	-11.227
央	-11.2298
秋冬	-11.23
須彌山	-11.231
戸	-11.231
茨	-11.2312
抄	-11.2313
鬭	-11.2314
蒂	-11.2314
詞伏以	-11.2315
紇	-11.2315
凾	-11.2316
㨿	-11.2317
恵	-11.2317
志心皈命禮威震雷霆	-11.2317
位不當也	-11.2318
耦	-11.2318
眚	-11.2318
錐	-11.2319
杳杳	-11.232
舅姑	-11.2321
頡	-11.2321
寤	-11.2321
袂	-11.2321
武王伐紂	-11.2322
粢盛	-11.2323
五老帝君	-11.2323
礪	-11.2323
冩	-11.2324
譙	-11.2324
㢤	-11.2324
兜	-11.2324
墠	-11.2324
嘔	-11.2325
痴	-11.2325
遄	-11.2325
脅	-11.2325
孳孳	-11.2326
巘	-11.2326
衲	-11.2326
汹	-11.2326
白湖郭廙	-11.2326
絆	-11.2326
緘	-11.2327
慳	-11.2327
駁	-11.2328
咽液	-11.2328
瀑	-11.2328
鮑	-11.2328
腫	-11.2329
焱	-11.2329
肩輿	-11.2329
芮	-11.2329
莘	-11.2329
𡖥	-11.2329
瑕	-11.233
詩小雅	-11.233
尼父	-11.233
玅	-11.2331
司馬遷	-11.2331
貿	-11.2332
籤下下	-11.2332
儻	-11.2332
塵垢	-11.2332
押	-11.2332
北斗下䧏	-11.2333
茗	-11.2333
駐蹕	-11.2333
誑	-11.2333
夣	-11.2333
無註晉	-11.2333
街	-11.2334
筴	-11.2334
滄溟	-11.2334
腓	-11.2334
譜	-11.2334
苴	-11.2334
雝	-11.2334
驅邪院	-11.2335
燄	-11.2335
鉄	-11.2335
遨遊	-11.2335
攣	-11.2335
釜	-11.2335
䕶	-11.2336
旦夕	-11.2336
篋	-11.2336
圮	-11.2336
攫	-11.2336
驥	-11.2337
持是經人	-11.2337
梨	-11.2337
影響	-11.2337
債	-11.2338
阮	-11.2338
利見大人	-11.2338
斁	-11.2338
劭	-11.2338
蠹	-11.2339
不云乎	-11.2339
䧏現	-11.2339
朱雀	-11.2341
沓	-11.2341
誹謗	-11.2341
塵寰	-11.2341
仁傑	-11.2342
佯	-11.2342
恭儉	-11.2342
爍	-11.2342
隄防	-11.2342
征伐	-11.2342
歐陽	-11.2343
按史記	-11.2343
顓	-11.2344
拱照	-11.2344
鄷都	-11.2345
窩	-11.2345
洪恩靈濟宫	-11.2345
羨	-11.2346
辛亥	-11.2346
笈	-11.2346
靈濟眞人	-11.2348
狼虎	-11.2349
監察御史	-11.235
蘧	-11.235
痼	-11.2351
靠	-11.2352
辟穀	-11.2353
訶	-11.2353
搬	-11.2354
蒼蒼	-11.2355
失物不見	-11.2355
王安石	-11.2356
循環	-11.2356
頭戴	-11.2356
紵	-11.2357
龔	-11.2357
霜降	-11.2359
拈	-11.2359
子丑寅	-11.2359
甲戌	-11.236
豁落	-11.236
囑	-11.2363
各安其	-11.2369
淑女	-11.237
加姚	-11.2371
稽古	-11.2371
無註解	-11.2373
轉輪	-11.2373
魯國	-11.2374
境界	-11.2375
紅塵	-11.2378
遺跡	-11.2382
年十月	-11.2384
吴越	-11.2384
圖像	-11.2385
伏魔	-11.2386
權勢	-11.239
玄範	-11.239
羣臣	-11.2395
無妨	-11.2397
饒王	-11.2399
興旺	-11.2401
太監	-11.2403
狀如	-11.2404
覆載	-11.2408
莫之能	-11.2411
己亥	-11.2412
壯麗	-11.2414
剛强	-11.2415
惜哉	-11.2417
龍吟	-11.2419
不輟	-11.2421
賈守	-11.2421
一百二十	-11.2424
黄冠	-11.2425
武昌	-11.243
龍蛇	-11.243
崇寧	-11.2434
伐木	-11.2436
刼數	-11.2438
朝天宫	-11.2441
徐氏	-11.2441
田財	-11.2444
小兒	-11.2448
艮止	-11.2449
角巳	-11.2452
視聽	-11.2459
趙氏	-11.2463
殺害	-11.2466
不妨	-11.247
新羅	-11.2475
苟能	-11.2475
乎其間	-11.2492
功滿	-11.2501
危亡	-11.2503
虛虛	-11.2514
主旺	-11.2541
立早	-11.2542
明鏡	-11.2555
是以君子	-11.2563
修齋	-11.2565
此可見	-11.2566
又奚	-11.2576
聲音	-11.2592
維持	-11.2633
南麓	-11.2644
齋醮	-11.2652
一定之	-11.2659
題詩	-11.2674
丈許	-11.27
方圓	-11.2702
若之何	-11.2703
孰敢	-11.2732
金蓮	-11.2844
時老子降于	-11.2915
士庶	-11.2916
案判官主管	-11.2921
麻姑	-11.2928
燃	-11.2936
蛾	-11.2937
隳	-11.2938
杲	-11.2939
〇	-11.294
嚚	-11.2941
旡咎象曰	-11.2942
秃翁曰	-11.2945
蓐	-11.2945
臍	-11.2946
翰林學士	-11.2946
鳶	-11.2947
偽	-11.2947
絰	-11.2947
訊	-11.2948
阯	-11.2948
揲	-11.2948
禦寇	-11.2948
酢	-11.2948
詹	-11.2948
澆	-11.2949
謳	-11.2949
藿	-11.2949
𡍼	-11.295
不亦宜乎	-11.2951
佗	-11.2951
猴	-11.2951
窆	-11.2951
廽	-11.2951
晶	-11.2952
明道達德大仙顯靈溥濟清微洞玄冲虛	-11.2952
咒詛	-11.2953
槎	-11.2953
衙	-11.2953
北隂下䧏	-11.2954
桀紂	-11.2954
劣	-11.2954
砌	-11.2954
快活三	-11.2955
觜	-11.2955
轅	-11.2955
祛	-11.2955
閶闔	-11.2955
徐仙翰藻卷之	-11.2956
吝象曰	-11.2956
籤大吉	-11.2956
愴	-11.2956
叩頭	-11.2956
餘慶堂	-11.2956
媿	-11.2957
弛	-11.2957
覃	-11.2957
旃	-11.2957
撲	-11.2958
醢	-11.2958
瑰	-11.2959
䖝	-11.2959
暌	-11.2959
卹	-11.2959
壬戌	-11.2959
都尉	-11.2959
痕	-11.2959
丐	-11.2959
仝	-11.296
瘁	-11.296
妖孽	-11.296
岳飛	-11.296
蠧	-11.2961
鄂	-11.2961
十五里	-11.2962
吐納	-11.2962
嗣續	-11.2962
嘘	-11.2962
嫉妬	-11.2963
輪迴	-11.2963
痾	-11.2963
倉卒	-11.2963
旡咎	-11.2963
撑	-11.2963
磨崖碑	-11.2964
青蠅	-11.2965
孑	-11.2966
愕	-11.2966
刀圭	-11.2966
衞	-11.2966
億刼	-11.2967
左旋	-11.2967
萍	-11.2967
韓琦	-11.2968
録曰夫所謂	-11.2969
淵源	-11.297
杵	-11.297
菩提	-11.297
豈但	-11.2971
郡縣	-11.2971
瑞旦	-11.2971
酸	-11.2972
剔	-11.2973
四牡	-11.2973
蝶	-11.2974
道塲	-11.2976
忍辱	-11.2977
釋迦	-11.2977
羽翼	-11.2978
思邈	-11.2981
天文志	-11.2981
渤	-11.2982
凉	-11.2983
鮑叔	-11.2983
水簾	-11.2983
縱横	-11.2984
懸崖	-11.2984
住持	-11.2985
浩浩	-11.2987
桃李	-11.2988
急急	-11.2989
泰岳	-11.299
康叔	-11.2991
未甞	-11.2992
浮沉	-11.2995
辛苦	-11.2995
親睦堂	-11.2995
森嚴	-11.2997
公署	-11.2997
更冀	-11.2997
欽崇	-11.2998
樓臺	-11.2999
貧窮	-11.3
黎民	-11.3003
乙巳	-11.3006
都統	-11.3006
循理	-11.3007
建醮	-11.3008
扶持	-11.3008
丁巳	-11.3009
孝弟	-11.3009
維新	-11.3012
石閭	-11.3014
旗龍	-11.3015
刑獄	-11.3016
太甲	-11.3019
祥符	-11.302
一線	-11.3023
統御	-11.3026
旬日	-11.3029
車駕	-11.303
布施	-11.3036
步虛	-11.3041
浩然	-11.3042
眞持經	-11.3042
爲士者	-11.3044
羅計	-11.3045
典刑	-11.3047
雲烟	-11.3049
雲霞	-11.3049
豫章	-11.3052
太嵗	-11.3057
長幼	-11.3061
前程	-11.3062
郎中	-11.3063
玉液	-11.3083
萬姓	-11.3089
疑惑	-11.3092
如之何	-11.3153
王母池	-11.3197
十有九	-11.3216
杳冥	-11.3239
揚州	-11.3257
五色雲	-11.3277
問之曰	-11.334
妨	-11.3387
丹皇	-11.3433
峰頭	-11.3466
十有三	-11.3479
曰臣聞	-11.3537
線	-11.3547
酉戌	-11.3573
瑋	-11.3587
年月日	-11.3593
枋	-11.36
䖍	-11.36
顥	-11.3602
坡公解曰	-11.3602
噪	-11.3602
牡	-11.3603
緬	-11.3604
琮	-11.3606
傅奕	-11.3608
諤	-11.3609
藪	-11.3609
卯辰巳午未申	-11.361
掇	-11.361
玷	-11.361
毫釐	-11.361
覈	-11.361
揲蓍	-11.3611
蠆	-11.3612
澡	-11.3612
呴	-11.3612
㩀	-11.3612
狂妄	-11.3613
勿恤	-11.3614
碌碌	-11.3614
无攸利	-11.3614
氓	-11.3614
券	-11.3614
塋	-11.3615
節度使	-11.3615
穉	-11.3615
勘	-11.3615
鳯凰	-11.3615
厦	-11.3615
蹙	-11.3615
蠅	-11.3615
疽	-11.3616
閨門	-11.3616
穹蒼	-11.3617
簋	-11.3617
嚼	-11.3617
傭	-11.3618
鷖	-11.3618
桴	-11.3619
戢	-11.3619
鴛	-11.3619
糠	-11.3619
掃除	-11.362
衒	-11.362
讙	-11.362
求財未遂	-11.362
它	-11.362
馥	-11.3621
甥	-11.3621
姥	-11.3621
綘	-11.3621
隨四時形影在	-11.3621
閏	-11.3621
畤	-11.3621
性命之情	-11.3621
件	-11.3622
鬯	-11.3622
潢溪	-11.3622
嬀	-11.3623
逡巡	-11.3623
恰	-11.3623
揖讓	-11.3623
矛	-11.3623
駘	-11.3623
盞	-11.3623
躭	-11.3624
胤	-11.3624
冢	-11.3624
禁約	-11.3624
殛	-11.3624
璨	-11.3625
巡狩	-11.3625
萼	-11.3625
峴	-11.3625
羊腸	-11.3625
忒	-11.3625
寂寥	-11.3625
億兆	-11.3626
犀	-11.3626
漾	-11.3626
馳騁	-11.3627
啜	-11.3627
展轉	-11.3628
煖	-11.3628
潺	-11.3628
黎庶	-11.3628
賄	-11.3628
譎	-11.3629
冽	-11.3629
枯骨	-11.3629
寂寞	-11.3629
仲山甫	-11.3629
曠然無	-11.363
磊	-11.363
右玉皇誥命以錫	-11.363
瘴	-11.363
波濤	-11.3631
忮	-11.3631
甲乙	-11.3631
鄒魯	-11.3631
泱	-11.3631
慶曆	-11.3632
煦	-11.3632
山海經	-11.3632
瑤	-11.3632
蜿蜒	-11.3633
飄飄	-11.3633
漲	-11.3633
銖	-11.3633
閫	-11.3634
妥	-11.3634
鰥寡	-11.3634
恙	-11.3635
江淮	-11.3635
瀛	-11.3635
詛	-11.3635
鵝	-11.3635
凛凛	-11.3635
掉	-11.3636
正一嗣教凝誠志道闡玄弘教大	-11.3636
季札	-11.3636
感慨	-11.3636
降婁	-11.3636
核	-11.3636
磨崖	-11.3636
牧羊	-11.3637
流涕	-11.3638
廵撫	-11.3638
爾時天尊	-11.3639
塚	-11.3639
颺	-11.364
祝釐	-11.364
超昇	-11.364
玉皇上帝	-11.3641
杵臼	-11.3641
弘道録卷之四十	-11.3642
詵	-11.3642
祈禳	-11.3644
奕奕	-11.3645
脢	-11.3645
貨財	-11.3648
築室	-11.3648
血肉	-11.3649
絳節	-11.3649
採藥	-11.3649
朝覲	-11.365
月十八日	-11.3651
梁甫	-11.3652
一切世界	-11.3653
哲宗	-11.3654
畛	-11.3656
夭折	-11.3656
水晶	-11.3657
尅害	-11.366
人有言	-11.366
拱手	-11.3661
清規	-11.3663
實沈	-11.3667
勒石	-11.3669
青霄	-11.367
气	-11.367
又何疑	-11.3672
吉甫	-11.3674
接引	-11.3674
願陛下	-11.368
鬼帥	-11.3687
爲之歌	-11.3688
歷歷	-11.369
秀才	-11.3691
太史公	-11.3692
威權	-11.3694
油然	-11.3698
世傑	-11.3699
曾史	-11.3699
感格	-11.3705
孝慈	-11.3705
秦碑	-11.3709
宗社	-11.3713
設施	-11.3714
巍然	-11.3717
忠良	-11.3718
俯伏	-11.3726
加之以	-11.3734
名之曰	-11.3745
九天玉闕宣化扶教上仙昭靈博濟	-11.3755
宛然	-11.3771
何暇	-11.3871
天涯	-11.3914
經綸	-11.3938
録曰帝之	-11.3955
方丈	-11.3971
在岳頂西	-11.4196
告嶽文	-11.4306
潞公	-11.431
咥	-11.431
孺	-11.4311
千丈	-11.4315
牘	-11.4318
大慈尊	-11.4318
噉	-11.4318
螻蟻	-11.4318
縲	-11.4319
鎡	-11.4321
石經峪	-11.4322
俻	-11.4322
擘	-11.4322
鑚	-11.4323
糟	-11.4323
倏忽	-11.4324
里中迴真下映入兆	-11.4324
絢	-11.4324
吳	-11.4324
䙱	-11.4325
拳拳	-11.4325
求官未達	-11.4326
伏念臣	-11.4326
杞	-11.4326
申状	-11.4326
錮	-11.4327
哀公十四年	-11.4327
江水帝大龍王	-11.4327
鎔	-11.4328
閼	-11.4328
紊	-11.4328
髻	-11.4328
思之還反真形春三月	-11.4328
晃	-11.4329
麋	-11.4329
瑾	-11.4329
曰美哉	-11.433
欻	-11.433
癰	-11.4331
曛	-11.4331
肱	-11.4331
伽	-11.4331
朂	-11.4331
犖	-11.4331
攘臂	-11.4332
墊	-11.4332
勺	-11.4332
彜	-11.4332
桀跖	-11.4333
彷彿	-11.4333
愷	-11.4333
絜	-11.4333
狠	-11.4333
葩	-11.4333
舘	-11.4333
舛	-11.4334
饕	-11.4334
俎豆	-11.4334
暝	-11.4334
伎	-11.4334
詫	-11.4335
穫	-11.4335
駡	-11.4336
犬戎	-11.4336
蹴	-11.4336
爨	-11.4337
賽	-11.4337
啣	-11.4338
戕	-11.4338
幄	-11.4338
斟酌	-11.4338
浹	-11.4338
郵	-11.4338
拖	-11.4339
㡬	-11.4339
信受奉行	-11.4339
寮	-11.4339
紱	-11.4339
莫大焉	-11.434
每一時	-11.434
廷尉	-11.434
昃	-11.434
蒼茫	-11.434
君之道常以	-11.434
嚙	-11.434
鴞	-11.4341
寑	-11.4341
叚	-11.4341
臬	-11.4341
韜	-11.4341
滋味	-11.4342
思之還反真形冬三月	-11.4342
螳	-11.4342
馨香	-11.4342
鏘	-11.4342
𢦙	-11.4342
瘠	-11.4342
卻	-11.4343
踊躍	-11.4343
硃	-11.4343
跣足	-11.4343
娠	-11.4344
疥	-11.4344
棟梁	-11.4344
瀑布	-11.4345
犬吠	-11.4345
諶	-11.4346
四肢	-11.4347
倉庫	-11.4347
亹	-11.4347
児	-11.4348
燕喜堂	-11.4348
潛	-11.4348
撫育	-11.4349
喚	-11.4349
蜜	-11.4349
覿	-11.4349
汲汲	-11.4349
未可知也	-11.4349
娑	-11.4349
彫	-11.435
霹	-11.435
悠久	-11.4351
嬌	-11.4351
知磬舉	-11.4351
掌握	-11.4352
𣈆	-11.4352
京兆	-11.4352
唤	-11.4352
諄諄	-11.4352
劎	-11.4353
湏臾	-11.4353
奔馳	-11.4353
瓘	-11.4353
秘訣	-11.4354
丙丁	-11.4354
初八日	-11.4354
知諤	-11.4354
齊桓公	-11.4355
碑銘	-11.4356
撼	-11.4356
舂	-11.4356
誰肯	-11.4357
霍光	-11.4357
侍宸	-11.4357
匝	-11.4359
舉進士	-11.436
叁	-11.436
郭子儀	-11.4363
貞厲	-11.4364
辛巳	-11.4366
低頭	-11.4367
尅洩	-11.4368
堪輿	-11.4368
慨然	-11.4369
覆護	-11.4371
壽夭	-11.4372
/□)	-11.4372
醮壇	-11.4373
日出行者	-11.4374
尹喜	-11.4374
神呪品	-11.4377
會吉星	-11.4378
徐徐	-11.4379
惠子曰	-11.4382
香帛	-11.4384
清涼	-11.4386
峻極	-11.4386
紫霞	-11.4388
祖天師	-11.4394
主簿	-11.4397
洞裏	-11.441
十餘萬	-11.4411
可不愼	-11.4496
妄想	-11.4552
渡河	-11.4662
丈餘	-11.4734
賦詩	-11.4749
河洛	-11.4819
諷誦	-11.4829
寸許	-11.4863
今受元君勑	-11.5025
𡖖	-11.5067
伋	-11.5075
饑饉	-11.508
橈	-11.508
緇	-11.5082
崆峒	-11.5085
莫大乎	-11.5087
娄	-11.5087
璟	-11.509
赤松子	-11.5091
愉	-11.5091
枳	-11.5092
徭	-11.5092
欣欣	-11.5092
蔀	-11.5093
鶯	-11.5093
掣	-11.5094
歧	-11.5094
萋	-11.5094
湊	-11.5095
繳	-11.5095
荐	-11.5095
赫奕	-11.5096
㦸	-11.5096
誚	-11.5096
蘄	-11.5097
郝	-11.5097
鏤	-11.5097
冉	-11.5097
燮	-11.5098
詩篇名	-11.5098
狸	-11.5098
窅	-11.5098
楓	-11.5099
滔	-11.51
旭	-11.51
清明天主	-11.51
褁	-11.51
思之還反真形夏三月	-11.51
逭	-11.5101
鍼	-11.5101
朧	-11.5101
晋開運	-11.5102
何啻	-11.5102
巉巖	-11.5102
愠	-11.5102
釀	-11.5102
無註無妄	-11.5102
鯨	-11.5102
黽勉	-11.5103
筦	-11.5104
二千石	-11.5104
跖	-11.5104
廳	-11.5104
高老橋	-11.5105
榷	-11.5105
者異矣	-11.5105
恬淡	-11.5106
企	-11.5107
純粹	-11.5107
㳒	-11.5107
訂	-11.5107
歐	-11.5107
竝	-11.5107
燿	-11.5107
屛	-11.5108
莊子翼卷之	-11.5108
嗷	-11.5108
仁義禮樂	-11.5108
張道陵	-11.5109
冉冉	-11.5109
喈	-11.5109
蚩	-11.5109
璣	-11.5109
旂	-11.511
諦聽	-11.511
霈	-11.511
嵓	-11.511
藐	-11.511
踦	-11.511
樣	-11.511
崧	-11.5111
𦵏	-11.5111
綾	-11.5111
冠冕	-11.5111
摶	-11.5111
袒	-11.5111
徐仙眞録	-11.5111
范仲淹	-11.5111
商賈	-11.5112
凑	-11.5112
賈誼	-11.5112
供飬	-11.5112
愿	-11.5112
不可不察	-11.5112
於予予	-11.5113
拄	-11.5113
碧霞元君	-11.5113
慊	-11.5113
湎	-11.5114
燼	-11.5114
亞	-11.5114
旡妄	-11.5114
嶙	-11.5114
與道合眞	-11.5115
及其至也	-11.5115
笱	-11.5115
喋	-11.5115
穿鑿	-11.5115
㳟	-11.5116
縉紳	-11.5116
巵	-11.5117
妍	-11.5117
給事中	-11.5117
爭奈	-11.5118
驚駭	-11.5118
俘	-11.5118
買賣	-11.5118
玉皇本行集經	-11.5119
宫辰星君	-11.5119
驩	-11.5119
巉	-11.512
皎	-11.512
月日在	-11.512
奉天承運皇帝制曰	-11.512
秘籙一階此籙	-11.512
煑	-11.5121
錡	-11.5121
侍軄焚	-11.5121
义	-11.5121
旱魃	-11.5122
無是無非	-11.5123
枷	-11.5124
喝	-11.5125
三惡道	-11.5125
潤澤	-11.5125
靈妃玉女	-11.5125
卷之三	-11.5125
欒	-11.5125
豚魚	-11.5125
羖	-11.5126
翫	-11.5128
筮龜	-11.5128
假借	-11.5128
失其寵	-11.5128
籬	-11.5129
刳	-11.5129
鮒	-11.513
酒肉	-11.513
皇明恩命世録卷之	-11.5132
夢寐	-11.5135
淵默	-11.5139
兀术	-11.514
厘	-11.514
鶴駕	-11.5142
漢栢	-11.5144
敷奏	-11.5146
夏五月	-11.5146
是時天尊	-11.5147
玉嵓	-11.5148
勑諭	-11.5149
關尹	-11.5156
擎游	-11.5159
不爲而自	-11.5209
柰何	-11.5219
斡運	-11.5245
壬癸	-11.5443
毫末	-11.5606
救苦天尊	-11.5806
思之還反真形秋三月	-11.5872
邳	-11.5895
輹	-11.5899
倣	-11.5899
之次其辰在	-11.59
澶	-11.5904
初三刻起至正二刻止方是	-11.5907
正三刻起至	-11.5907
初二刻止此屬	-11.5908
旻	-11.5909
組	-11.5909
渇	-11.591
翌	-11.5911
𩛙	-11.5912
猥	-11.5916
廵撫都御史	-11.5916
劉用相曰	-11.5918
晁	-11.5918
泠泠	-11.5918
囘	-11.5918
𥁞	-11.5919
撝	-11.5919
渾沌	-11.5919
三年之喪	-11.5921
庾	-11.5922
筌	-11.5922
護國廣	-11.5922
参	-11.5922
簽	-11.5922
駱	-11.5922
矦	-11.5923
雩	-11.5923
潯	-11.5924
秒	-11.5924
䄂	-11.5924
梓潼	-11.5924
娯	-11.5925
䖍誠	-11.5925
瑟	-11.5926
斲	-11.5926
儆	-11.5926
其别八	-11.5927
烜赫	-11.5927
漳	-11.5927
劓	-11.5928
淂	-11.5928
趺	-11.5928
坂	-11.5929
騁	-11.5929
翩	-11.5929
隤	-11.593
祻	-11.593
釡	-11.593
髣髴	-11.593
猗	-11.593
琪	-11.593
籙一部	-11.593
鼔	-11.593
宫度在天屬	-11.5931
鷙	-11.5931
身命居之者以	-11.5932
志心皈命禮	-11.5932
螺	-11.5932
名臣録	-11.5932
蝎	-11.5933
漬	-11.5933
竺	-11.5933
戎狄	-11.5933
蘇軾	-11.5933
勣	-11.5934
籩	-11.5934
届	-11.5935
菌	-11.5936
包荒	-11.5936
鎬	-11.5936
紿	-11.5936
謐	-11.5937
苓	-11.5937
騮	-11.5937
頰	-11.5937
争訟	-11.5938
塗炭	-11.5938
齚	-11.5938
飛行上清	-11.5938
耐	-11.5938
妙感慈惠護國庇民崇福洪恩眞君	-11.5938
嘻	-11.5938
泥塗	-11.5938
圄	-11.5939
麑	-11.5939
嶠	-11.5939
睫	-11.5939
歘	-11.5939
緼	-11.5939
屣	-11.5939
崑	-11.594
阨	-11.594
顒	-11.594
帽	-11.594
嶧	-11.594
飈	-11.5941
層巒	-11.5941
搖	-11.5941
孟軻	-11.5941
旌旗	-11.5941
寥廓	-11.5941
掊	-11.5941
寖	-11.5941
揀	-11.5942
隧	-11.5942
求官必達	-11.5942
抹	-11.5942
官事有理	-11.5942
蓼	-11.5942
哭泣	-11.5943
御帳坪	-11.5943
酧	-11.5943
六甲生女	-11.5943
瑚	-11.5943
奈之何	-11.5944
蛙	-11.5944
圈	-11.5944
曲阜	-11.5944
匹練	-11.5944
躋攀	-11.5944
鍳	-11.5945
璚	-11.5945
護持品	-11.5945
舍身崖	-11.5947
鈍	-11.5947
剡剡	-11.5947
八分書	-11.5948
輪廻	-11.5948
修之于	-11.5948
公羊傳	-11.5949
嘻嘻	-11.5949
皇經集註卷之	-11.5949
者未之有也	-11.5949
按察使	-11.5949
瀾	-11.5949
秦檜	-11.5949
贏	-11.595
棋	-11.595
磐石	-11.595
召赴闕	-11.595
鼓琴	-11.595
冗	-11.5951
吐蕃	-11.5952
中氣後太陽躔	-11.5952
憧憧	-11.5952
儋	-11.5952
脛	-11.5952
草莽	-11.5952
荼毒	-11.5952
頴川	-11.5952
丹竈	-11.5953
壇場	-11.5953
冢宰	-11.5953
俄頃	-11.5953
吹笙	-11.5953
無註无妄	-11.5953
襌	-11.5953
佈亡魂	-11.5954
垓	-11.5954
溶	-11.5954
峭壁	-11.5956
高功黙念	-11.5956
艶	-11.5956
膂	-11.5956
机	-11.5956
復歸其	-11.5957
旋遶	-11.5958
伏念某等	-11.5958
錫之誥命	-11.5958
險阻	-11.5958
真人掌天下道教事	-11.5958
淹留	-11.5958
芝蘭	-11.5959
層霄	-11.5959
撮	-11.5959
荔	-11.5959
法此法䏻	-11.5959
項負	-11.596
錄	-11.5961
嵒	-11.5962
彦愽	-11.5962
黄芽	-11.5964
洎	-11.5964
憇	-11.5964
登眺	-11.5967
身命二宫	-11.5967
酋	-11.5968
趕	-11.5972
踐履	-11.5972
唐玄宗	-11.5976
羊刃	-11.5978
吽	-11.5982
吁嗟	-11.5987
安其居	-11.6
曰善哉	-11.6001
爕	-11.6011
與喜相	-11.603
十有八	-11.606
睿宗	-11.6072
百八十	-11.6344
億劫	-11.6365
按春秋魯	-11.6562
窈	-11.6649
鷟	-11.6705
春秋左傳	-11.6764
綦	-11.6805
之分野屬	-11.6807
有攸徃	-11.6808
(○/	-11.6813
齧缺	-11.6818
腊	-11.6819
躚	-11.6821
懌	-11.6824
軒冕	-11.6824
有虞氏	-11.6825
無盡量	-11.6826
杉	-11.6826
灝	-11.6827
錦繡	-11.6827
櫝	-11.6829
悶悶	-11.683
湍	-11.683
慿	-11.6831
苐五十	-11.6831
隼	-11.6831
漠漠	-11.6832
扞	-11.6832
批	-11.6833
窈窕	-11.6833
涘	-11.6833
閨	-11.6834
撤	-11.6834
牂	-11.6834
鈺	-11.6835
鶻	-11.6835
迕	-11.6836
磐	-11.6836
巴蜀	-11.6836
陬	-11.6836
疊嶂	-11.6836
錢塘	-11.6837
𨑰	-11.6837
長太息	-11.6838
頋	-11.6838
盱	-11.6838
囂囂	-11.6838
暴虐	-11.6838
寤寐	-11.6839
閃閃	-11.6839
瓠	-11.6839
疋	-11.6839
泣涕	-11.6839
偪	-11.6839
霾	-11.6839
搜神記	-11.6839
揉	-11.684
巖巖亭	-11.6841
隹	-11.6841
詒	-11.6841
甦	-11.6841
汩	-11.6841
炎炎	-11.6842
鰥	-11.6842
楮	-11.6842
噂	-11.6842
騶	-11.6843
諉	-11.6843
聰明正直	-11.6844
鯤	-11.6844
沬	-11.6844
褒姒	-11.6844
之次在地則分野屬	-11.6844
𥝠	-11.6845
鞍	-11.6845
嚶	-11.6845
輜	-11.6845
潢	-11.6845
庚辛	-11.6845
微茫	-11.6845
纆	-11.6845
五日天蓬下䧏	-11.6846
無徃不	-11.6846
遐齡	-11.6846
嗄	-11.6846
玄之又玄	-11.6846
吼	-11.6846
欎	-11.6846
泡	-11.6847
吏部尚書	-11.6847
沽	-11.6847
蟹	-11.6847
蕢	-11.6847
女人見之	-11.6847
罩	-11.6847
疣	-11.6847
暘谷	-11.6848
疚	-11.6848
淘	-11.6848
翰苑	-11.6848
㛰	-11.6848
徘	-11.6849
鑠	-11.6849
圎	-11.6849
彗	-11.6849
奭	-11.685
鼈	-11.685
凹	-11.685
劬勞	-11.685
嶒	-11.685
煌煌	-11.685
蜃	-11.685
垂簾	-11.685
暦	-11.685
臭腐	-11.685
捻	-11.6851
跟	-11.6851
東斗下䧏	-11.6851
燃燈	-11.6851
墀	-11.6852
猬	-11.6852
箴	-11.6852
戊戌	-11.6852
錦袍	-11.6852
小人由是知	-11.6852
解見前	-11.6852
天曹掠剰下䧏	-11.6852
奉符縣	-11.6852
怛	-11.6853
螽	-11.6853
吕祖志	-11.6853
緡	-11.6853
碌	-11.6854
受其殃	-11.6854
耋	-11.6854
騂	-11.6854
獐	-11.6854
彷	-11.6855
豺	-11.6855
玉清聖境	-11.6855
熬	-11.6855
褰衣	-11.6855
㑹稽	-11.6855
砥	-11.6855
珏	-11.6856
将	-11.6856
詘	-11.6856
啾	-11.6856
裾	-11.6856
仰天而	-11.6856
浄	-11.6857
桷	-11.6857
罣	-11.6857
禴	-11.6857
諸天仙衆	-11.6857
腑	-11.6858
陌	-11.6858
葛藟	-11.6858
沱	-11.6858
好生之德	-11.6859
廛	-11.6859
五嶽四瀆	-11.6859
觀者詳之	-11.6859
江右之	-11.686
瑗	-11.686
隰	-11.686
汔	-11.686
歐陽脩	-11.6861
伶	-11.6862
悛	-11.6862
襍	-11.6862
怍	-11.6862
朱熹	-11.6862
甘霖	-11.6862
雍熙	-11.6862
與化俱	-11.6863
莖	-11.6863
蒼梧	-11.6863
搭	-11.6864
玖	-11.6864
檀越	-11.6864
雨暘	-11.6864
鞋	-11.6864
賜廟額曰	-11.6865
下情無任	-11.6865
團圓	-11.6865
羆	-11.6865
呈祥	-11.6866
罰二十拜若	-11.6866
贛	-11.6867
杪	-11.6868
擺	-11.6868
糜	-11.6868
尖	-11.6869
媲	-11.6869
炁混元將軍	-11.6869
凱	-11.6869
滔滔	-11.687
𥂁	-11.6872
欽哉制誥	-11.6872
潄	-11.6873
柒	-11.6873
雁	-11.6873
南榮趎	-11.6874
鉛汞	-11.6874
軟	-11.6875
星拱限	-11.6876
號田壹坵土名	-11.6883
靈濟眞君	-11.6889
眥	-11.6893
磾	-11.6896
巳辰卯寅	-11.6899
星君北斗	-11.6941
千萬億	-11.7213
糴	-11.7783
和大光明王尊孔雀明王經消災保安寧	-11.7799
而吉氣正躔	-11.7802
瞽瞍	-11.7803
稽首大光明王尊	-11.781
𥙷	-11.7813
濵	-11.7815
脆	-11.7818
苐七十	-11.7819
璇璣	-11.7821
苐六十	-11.7821
帯	-11.7822
巳酉丑	-11.7823
蜚	-11.7823
疫癘	-11.7824
髑髏	-11.7825
徐無鬼	-11.7825
匍匐	-11.7825
軻	-11.7826
鴆	-11.7827
坼	-11.7827
胎卵濕化	-11.7828
熙熙	-11.7828
程正叔曰	-11.7828
九天金闕明道達德大仙顯靈溥濟清微	-11.7829
迩	-11.7829
亥卯未	-11.7829
一法官道士	-11.783
訣師曰	-11.783
文成侯	-11.783
録曰史稱	-11.7832
醯	-11.7832
榭	-11.7832
燋	-11.7833
論格局	-11.7833
摯	-11.7833
慵	-11.7833
泌	-11.7833
蘩	-11.7833
械	-11.7834
茵	-11.7834
掬	-11.7834
僮	-11.7835
受大福	-11.7836
羶	-11.7836
狐狸	-11.7836
煬	-11.7836
京兆尹	-11.7836
由此觀之	-11.7836
燠	-11.7836
汲黯	-11.7837
剩	-11.7837
闥	-11.7837
圗	-11.7837
濡其尾	-11.7837
俶	-11.7838
懾	-11.7838
運限流年	-11.7838
襦	-11.7838
逓	-11.7838
匕	-11.7839
既見君子	-11.7839
驂	-11.7839
踒	-11.7839
洙	-11.7839
不退轉	-11.7839
膚寸	-11.7839
齋戒沐浴	-11.7839
高山流水	-11.784
回馬嶺	-11.784
之愆免	-11.784
在上清之上	-11.7841
商紂無道	-11.7841
閻王聖誕	-11.7841
長生乆視	-11.7841
皇經集註	-11.7842
絺	-11.7842
摭	-11.7842
河上公	-11.7843
晡	-11.7843
矚	-11.7843
奴婢	-11.7844
嵌	-11.7844
利無所得無註	-11.7844
漚	-11.7844
雨暘時若	-11.7844
鸇	-11.7844
羝	-11.7844
里中廽真下映入兆	-11.7845
衽	-11.7845
韞	-11.7845
㝷	-11.7845
無爲而無不爲	-11.7845
貉	-11.7845
真武下䧏	-11.7845
嗜慾	-11.7846
泳	-11.7846
劈	-11.7846
缶	-11.7846
吹簫	-11.7846
應驗品續二十	-11.7846
璇	-11.7846
笥	-11.7846
酉戌亥	-11.7846
年春正月	-11.7846
瘵	-11.7846
訐	-11.7847
倅	-11.7847
壮	-11.7847
摹	-11.7847
岏	-11.7847
鬧	-11.7847
障礙	-11.7847
鼓瑟	-11.7848
咳	-11.7848
如經故難遇設使	-11.7848
辝	-11.7848
襁	-11.7848
翺翔	-11.7848
秤	-11.7848
臚	-11.7848
覇	-11.7849
駰	-11.7849
惔	-11.785
邕	-11.785
殯	-11.785
栩	-11.785
者幾希	-11.785
痰	-11.7851
蓊	-11.7851
太子太保	-11.7851
者鮮矣	-11.7851
茀	-11.7852
延陵季子	-11.7852
耿耿	-11.7852
優劣	-11.7852
浣	-11.7852
瞞	-11.7853
怎	-11.7853
蝟	-11.7853
涅槃	-11.7853
傴	-11.7853
螭	-11.7853
纘	-11.7854
瓣	-11.7854
寅午戌	-11.7854
襖	-11.7854
菓	-11.7855
叙曰曷	-11.7855
逵	-11.7855
歲男子土星女人火星	-11.7855
慟哭	-11.7856
禺	-11.7856
褚	-11.7856
餽	-11.7856
埏	-11.7856
揜	-11.7856
仔細	-11.7857
封泰山禪	-11.7857
層層	-11.7857
掌天下道教事張國祥奉㫖校梓	-11.7857
櫛	-11.7857
軄	-11.7858
駑	-11.7858
牽纏	-11.7858
棊	-11.7858
笻	-11.7858
鵉	-11.7858
鶴氅	-11.7859
利建侯	-11.7859
寥寥	-11.7859
罐	-11.7859
𥿄	-11.7859
辰戌丑未	-11.7859
部八萬卷	-11.786
崗	-11.786
悽	-11.786
觀音保	-11.786
瀛洲	-11.7861
塢	-11.7861
這箇	-11.7861
男子太陽星女人土星	-11.7861
柏	-11.7861
蓆	-11.7861
喑	-11.7862
膾	-11.7862
宗廟社稷	-11.7862
迺	-11.7862
翦	-11.7862
蜎	-11.7862
麄	-11.7863
癃	-11.7863
𣣔	-11.7863
崢	-11.7864
兌	-11.7864
倕	-11.7865
湛寂	-11.7865
詈	-11.7865
扆	-11.7865
嵯峨	-11.7866
衆和一聲	-11.7867
悴	-11.7868
繚繞	-11.7868
营	-11.787
灌溉	-11.7871
瘟疫	-11.7871
蝸	-11.7871
犠	-11.7872
上白天尊曰	-11.7872
天慶觀	-11.7872
厓	-11.7874
汁	-11.7875
刋	-11.7876
蠡	-11.7876
濓	-11.7878
簮	-11.7883
者甚衆	-11.7883
四十二代天師	-11.7886
年歲次	-11.7887
日午時	-11.789
峕	-11.7896
苐三十	-11.79
苐二十	-11.7984
天尊衆和一聲志心皈命禮請	-11.7989
玄天上帝感應靈籤第三十	-11.8289
一法官職列	-11.8685
妙應仁惠輔國佑民隆福洪恩眞君	-11.8727
啻	-11.8835
鐃	-11.89
媛	-11.8922
幹父之蠱	-11.8926
觔	-11.893
堯舜禹湯	-11.8931
正一盟威	-11.8932
昱	-11.8934
跣	-11.8934
娵	-11.8935
兵馬無鞅	-11.8936
惴	-11.8936
絮	-11.8936
夫音符	-11.8937
瞬	-11.8938
臟	-11.8938
匹夫匹婦	-11.8938
斧鉞	-11.8938
壷	-11.8939
蕡	-11.8939
遨	-11.8939
籲	-11.894
鬰	-11.894
汪本鈳曰	-11.894
漸也貞觀初	-11.894
罟	-11.8942
爲宫主喜忌見前	-11.8942
三百六十五度零四分度之一	-11.8942
犧牲	-11.8942
剌	-11.8942
牆	-11.8942
攔	-11.8943
濟生度死	-11.8943
眄	-11.8943
燾	-11.8943
𨽻	-11.8943
煢煢	-11.8943
晞	-11.8943
歙	-11.8944
輳	-11.8944
夏后氏	-11.8945
貟	-11.8945
瑣瑣	-11.8946
鬛	-11.8946
泚	-11.8946
者徒二年	-11.8946
炤	-11.8946
又五里至	-11.8946
蹷	-11.8946
駝	-11.8946
𧇊	-11.8946
履虎尾	-11.8947
賒	-11.8947
即皇帝位	-11.8947
樗	-11.8947
靴	-11.8948
僑	-11.8948
衮冕	-11.8948
譁	-11.8949
釵	-11.8949
肚	-11.8949
囁	-11.895
修之九年	-11.895
幘	-11.895
痍	-11.895
踴	-11.895
氊	-11.895
楊廷秀曰	-11.895
玻	-11.895
𦎟	-11.895
玄君誥奉天承運皇帝制曰	-11.895
鯁	-11.8951
三聖堯舜禹也	-11.8951
封泰山禪云云	-11.8951
日喜神東北貴神	-11.8951
妙法蓮華經	-11.8951
葛仙翁	-11.8951
岌	-11.8951
婺	-11.8951
湣	-11.8951
灑掃	-11.8951
穰	-11.8952
撞	-11.8952
𢡖	-11.8952
縞	-11.8952
雷霆都司	-11.8952
𦕈	-11.8952
泝	-11.8953
福善禍淫	-11.8953
洸	-11.8953
懟	-11.8953
喙	-11.8954
犇	-11.8954
夷夏之	-11.8954
斟	-11.8954
覷	-11.8954
參知政事	-11.8954
矗	-11.8954
無鞅數衆	-11.8954
磯	-11.8955
聞是說已	-11.8955
吉凶悔吝	-11.8955
糗	-11.8955
臝	-11.8955
礫	-11.8955
騖	-11.8955
罅	-11.8956
飡	-11.8956
凍餒	-11.8956
鶵	-11.8956
黿	-11.8956
愜	-11.8956
釋之者曰	-11.8957
無可無不可	-11.8957
稠	-11.8957
𤼵	-11.8957
濺	-11.8957
終其天年	-11.8957
嘿嘿	-11.8958
套	-11.8958
涌	-11.8958
兵部尚書	-11.8958
耨	-11.8958
舉孝廉	-11.8958
不得入仙	-11.8958
䆒	-11.8959
老子翼卷之	-11.8959
飛天神王	-11.8959
甑	-11.8959
金汝白曰	-11.8959
武當山	-11.896
终	-11.896
厮	-11.896
噲	-11.896
莆	-11.896
爲卦主故稱我	-11.896
呌	-11.8961
憔悴	-11.8961
帙	-11.8961
同日語哉	-11.8961
稟	-11.8961
塩	-11.8961
淩	-11.8962
太祖高皇帝	-11.8962
春秋魯昭公	-11.8962
縶	-11.8962
中㣲祝曰	-11.8963
烹煎	-11.8963
隈	-11.8963
莩	-11.8963
與時偕行	-11.8963
岵	-11.8963
楝	-11.8964
嘏	-11.8964
抃	-11.8964
稜	-11.8965
淸	-11.8965
竽	-11.8965
厢	-11.8965
様	-11.8965
謄	-11.8965
彬彬	-11.8966
纉	-11.8966
缾	-11.8966
塡	-11.8966
髦	-11.8966
淄	-11.8966
甄	-11.8966
俎	-11.8967
金木水火土	-11.8967
范蠡	-11.8967
陔	-11.8967
掾	-11.8967
鵰	-11.8967
卬	-11.8968
孥	-11.8968
魑魅	-11.8968
曰善哉善哉	-11.8968
髠	-11.8968
曰妾聞	-11.8969
穗	-11.8969
秃	-11.8969
鈔	-11.8969
立生祠	-11.8969
㣧	-11.8969
洞照上清	-11.8969
懶	-11.897
瑄	-11.897
荃	-11.897
淋	-11.897
呻	-11.8971
瞀	-11.8971
蚓	-11.8971
完孝録	-11.8972
不可以不察也	-11.8973
歲男子太隂星女人金星	-11.8973
誳	-11.8973
鷦	-11.8974
筏	-11.8974
慱	-11.8974
曦	-11.8974
娟	-11.8974
嗃	-11.8975
簒	-11.8975
應驗品續十	-11.8976
玲瓏	-11.8977
爼	-11.8977
貂	-11.8978
坵	-11.8979
最上一乘	-11.8979
彥	-11.898
㓜	-11.898
啓請地府	-11.898
户部尚書	-11.8981
桃花峪	-11.8981
餞	-11.8981
竑	-11.8984
會眞宫	-11.8984
太嵗一星	-11.8986
日下界用燈	-11.8989
陰翊皇度	-11.899
𦖟	-11.899
曇	-11.899
蔡畫士	-11.8998
毘	-11.8998
猖狂	-11.9036
限逢之	-11.914
洞玄冲虛妙感慈惠護國庇民洪恩眞君	-11.9764
之次者官禄多在	-12.0156
繒	-12.0159
縵	-12.0161
从	-12.0164
塲	-12.0167
量天尺	-12.0173
初十四十四十六	-12.0175
管見云人	-12.0177
渿	-12.0178
數衆悉令下降覆護受持是此經者勑命	-12.0179
邾	-12.0179
專氣致柔	-12.018
瞢	-12.0181
瓌	-12.0182
天真皇人	-12.0182
宋真宗	-12.0183
天齊仁聖帝	-12.0184
子綦曰	-12.0185
搥	-12.0186
丰	-12.0186
同平章事	-12.0187
謔	-12.0187
列女傳	-12.0189
隮	-12.019
神道設教	-12.0191
閶	-12.0191
都功籙	-12.0192
登道岸	-12.0192
収	-12.0193
耘	-12.0193
以求大道玄或有諸仙子	-12.0193
楯	-12.0194
怳	-12.0194
踊	-12.0194
宄	-12.0195
倨	-12.0195
燬	-12.0195
獘	-12.0195
二帝三王	-12.0196
馘	-12.0196
衾	-12.0197
咤	-12.0197
蛤	-12.0197
嚳	-12.0197
樞密院	-12.0197
凄	-12.0197
穰穰	-12.0197
耒	-12.0197
撒	-12.0198
殳	-12.0198
嫂	-12.0199
薊	-12.0199
廕	-12.0199
之象恭聞	-12.0199
沔	-12.0199
決	-12.0199
苧	-12.02
卉	-12.02
諜	-12.02
箋	-12.02
殻	-12.0201
臓	-12.0201
房玄齡	-12.0201
紓	-12.0201
矰	-12.0201
疼	-12.0202
諍	-12.0202
韙	-12.0203
垠	-12.0203
槃瓠	-12.0203
雷霆都司事從	-12.0203
潞	-12.0203
崛	-12.0203
黼黻	-12.0203
臼	-12.0204
在大羅天上	-12.0204
焯	-12.0204
犂	-12.0204
埒	-12.0204
筥	-12.0204
陶弘景	-12.0204
痒	-12.0205
孤寡不穀	-12.0205
玆	-12.0205
畢仰嚥九氣止	-12.0205
出將入相	-12.0205
縟	-12.0206
無名天地之始	-12.0206
剜	-12.0206
九天金闕明道達德大仙顯靈溥濟	-12.0206
殪	-12.0206
翊亮眞君	-12.0206
諺	-12.0206
寕	-12.0207
萬章問曰	-12.0207
難得之貨	-12.0207
譲	-12.0207
天帝逰東井	-12.0207
按察司	-12.0208
嶸	-12.0208
之時老君下爲師號曰	-12.0208
皎皎	-12.0209
餼	-12.0209
沒	-12.0209
蟆	-12.0209
掲	-12.021
貪嗔癡	-12.021
袤	-12.021
擣	-12.021
趯	-12.021
玉匣記	-12.021
獰	-12.021
鎗	-12.021
鼫	-12.021
糊	-12.0211
嵗會天符	-12.0211
寳月光皇后	-12.0211
餔	-12.0211
翥	-12.0211
東嶽泰山之神	-12.0212
蚌	-12.0212
峥嶸	-12.0212
劉海蟾	-12.0212
毖	-12.0212
咄	-12.0212
熊南沙曰	-12.0212
璉	-12.0212
腥臊	-12.0212
蠟	-12.0212
銑	-12.0212
之爲卦也	-12.0213
惧	-12.0213
扎	-12.0213
蘚	-12.0213
中巽震坤坎離艮兊	-12.0213
埴	-12.0213
禮義廉耻	-12.0213
鼃	-12.0213
凸	-12.0213
奉聖㫖	-12.0214
懦	-12.0214
柳下季	-12.0214
侗	-12.0214
門擊柝	-12.0214
蛛	-12.0214
褰	-12.0214
芴	-12.0214
窀穸	-12.0214
遡	-12.0214
纊	-12.0214
羗	-12.0214
貔	-12.0214
刷	-12.0214
鄷	-12.0214
嘿	-12.0215
颯	-12.0215
炬	-12.0215
焞	-12.0215
書舜典	-12.0215
曝	-12.0215
芷	-12.0216
榴	-12.0216
陲	-12.0216
仁義禮智	-12.0216
胚	-12.0216
隲	-12.0216
五品以上	-12.0216
田蠶大熟	-12.0216
驅邪院事正	-12.0216
縉	-12.0217
阡陌	-12.0217
籓	-12.0217
擴	-12.0217
諏	-12.0218
弢	-12.0218
哮	-12.0218
一切威靈符命所臨如誥奉行	-12.0218
嶷	-12.0218
陡	-12.0218
徐世隆	-12.0218
鏗	-12.0219
騏	-12.0219
解曰占家宅人口平安	-12.0219
魯桓公夫人	-12.0219
羅洪先	-12.0219
螗	-12.0219
諫議大夫	-12.022
汯	-12.022
告請天之	-12.022
攄	-12.022
淙	-12.022
吻	-12.022
部八千卷	-12.022
凭	-12.0221
婆娑	-12.0221
磁	-12.0221
穡	-12.0221
春夏秋冬	-12.0221
昉	-12.0221
牗	-12.0221
查志隆	-12.0222
磅礴	-12.0223
榱	-12.0223
𠕂	-12.0224
棹	-12.0224
溟渤	-12.0224
醖	-12.0225
禹治水	-12.0225
不知何許人	-12.0225
鋾	-12.0225
畢嚥氣	-12.0225
歲男子火星女人羅睺星	-12.0225
潑	-12.0226
踟	-12.0226
劑	-12.0227
雒	-12.0227
筠	-12.0227
興雲致雨	-12.0227
大忿怒明王	-12.0227
麝	-12.0228
醮於朝天宫	-12.0229
拷	-12.0229
髀	-12.0229
計都星	-12.0229
搜神記卷之	-12.0232
塜	-12.0232
不忠不孝	-12.0232
八萬四千	-12.0236
若誦此經即得	-12.0236
偵	-12.0238
嗽	-12.0238
澥	-12.0238
天樞院事正	-12.0238
天無二日	-12.0238
天樞院事從	-12.024
星行年值	-12.0244
嚴君平	-12.0245
煇	-12.0247
惺惺	-12.0248
恁	-12.0253
徐仙翰藻	-12.0254
鹵莽	-12.0255
星君紫極天	-12.0266
囉	-12.0283
衆和一聲志心皈命禮請	-12.1379
脉定穴	-12.1534
胍	-12.1554
勿用取女	-12.1586
西斗下䧏	-12.1593
矣諸玉女徃刼妙行亦同此清凈	-12.1595
八胃初四	-12.1597
玉帝夙修常清凈	-12.1597
衎	-12.16
瞪	-12.16
在下爲主于内加八卦于上以發明	-12.1601
尾室觜	-12.1604
狃	-12.1604
熇	-12.1605
噦	-12.1606
惘	-12.1606
儷	-12.1607
柅	-12.1607
咈	-12.1609
八六壁一三斗二十四四	-12.1609
鴻漸于	-12.1609
失物可尋	-12.1609
縢	-12.161
獻聖前弟子	-12.161
冦	-12.161
夥	-12.1611
知而故犯者	-12.1611
八十九八十六五十	-12.1611
之位也凡居於其上者	-12.1612
吃	-12.1613
晨君姓	-12.1613
奂	-12.1614
除罪簿	-12.1614
知足不辱知止不殆	-12.1614
磽	-12.1615
張彦頨	-12.1616
溜	-12.1616
蒨	-12.1618
柘	-12.1618
殂	-12.1619
錙	-12.1619
諄	-12.1619
厪	-12.1619
虢	-12.1619
荻	-12.1619
蠁	-12.162
何謂也子曰	-12.162
睇	-12.1621
洿	-12.1621
懵	-12.1621
糓	-12.1621
痔	-12.1621
田蠶大熟六畜興旺	-12.1622
炮	-12.1622
諂	-12.1622
劌	-12.1622
淖	-12.1622
醬	-12.1622
亢牛婁鬼	-12.1622
濶	-12.1622
乘雲駕	-12.1622
厖	-12.1622
剡	-12.1623
持是經人不但名	-12.1623
吾何以知天下之然哉	-12.1623
爇	-12.1623
和願此燈光回向眞君	-12.1623
長孫無忌	-12.1624
于齊次于陽州	-12.1624
阼	-12.1624
崕	-12.1625
鋸	-12.1625
汀	-12.1625
玃	-12.1625
鱠	-12.1625
五千餘言	-12.1625
佾	-12.1625
玦	-12.1625
終則有始	-12.1625
翊聖真君下䧏	-12.1625
聃	-12.1626
隂人小口	-12.1626
廐	-12.1626
簟	-12.1626
善助慈懿仙妃	-12.1626
琥	-12.1626
恥	-12.1626
孫叔敖	-12.1627
萇	-12.1627
筲	-12.1627
詬	-12.1627
四海九江	-12.1628
上清眞境	-12.1628
瓉	-12.1628
炰	-12.1628
𩥵	-12.1628
渦	-12.1628
功德品續二十	-12.1628
襴	-12.1628
億曾萬祖	-12.1629
万	-12.1629
嘒	-12.1629
讞	-12.1629
堕	-12.1629
持念此經	-12.1629
日喜神西北貴神	-12.1629
邠	-12.163
豈弟君子	-12.163
鎧	-12.1631
無毁淪	-12.1631
嶻	-12.1631
嵬	-12.1631
翮	-12.1631
郭林宗	-12.1631
蕨	-12.1631
潼	-12.1632
膀	-12.1632
泆	-12.1632
瘢	-12.1632
不事王侯	-12.1633
鹹	-12.1633
焼	-12.1633
洞映上清	-12.1633
鷰	-12.1633
去彼取此	-12.1633
褓	-12.1633
觥	-12.1633
挨	-12.1633
酆都鐵圍	-12.1634
蹊	-12.1634
玄同彼我	-12.1634
礱	-12.1634
自得之場	-12.1634
太清仙境	-12.1634
抱朴子	-12.1634
蜡	-12.1634
慼	-12.1635
偹	-12.1635
光明流焕	-12.1635
䥫	-12.1635
牽不得來無註	-12.1635
竹君之二子	-12.1635
暎	-12.1635
附録楊簡曰	-12.1636
楼	-12.1636
寜	-12.1636
袵	-12.1637
怱	-12.1637
賭	-12.1637
某官某	-12.1637
肴	-12.1637
笄	-12.1638
箸	-12.1638
甜	-12.1638
熄	-12.1638
烱	-12.1638
莱	-12.1638
宻雲不雨	-12.1639
躐	-12.1639
釣臺李溥	-12.1639
瞶	-12.1639
青門邵墉	-12.1639
亢龍有悔	-12.1639
春秋成公十	-12.1639
鞶	-12.1639
九玄七祖	-12.164
㫁	-12.164
崿	-12.164
千乘萬騎	-12.164
玉虚上帝	-12.164
繄	-12.1641
墩	-12.1641
田蠶半熟六畜	-12.1641
槽	-12.1641
輈	-12.1641
忉	-12.1641
齕	-12.1642
岫	-12.1642
殤	-12.1642
靳	-12.1642
估	-12.1642
蜋	-12.1642
樾	-12.1642
蕊	-12.1642
如法持念眞經	-12.1643
呱	-12.1643
鰥寡孤獨	-12.1643
覘	-12.1643
鑾	-12.1643
長樂陳棠	-12.1643
搶	-12.1643
旱既大甚	-12.1643
矅	-12.1643
証	-12.1643
駮	-12.1643
藟	-12.1643
坎離艮兊乾	-12.1644
榼	-12.1644
舁	-12.1644
良有以也	-12.1644
絪	-12.1644
訕	-12.1644
巽震坤	-12.1645
皦	-12.1645
官事失理求官未達	-12.1645
所以覺天下之	-12.1645
三人俱行	-12.1645
漓	-12.1645
倶	-12.1646
匀	-12.1646
旒	-12.1646
矉	-12.1646
崚𡾓	-12.1646
庚桑子	-12.1646
頷	-12.1646
月𥘉一日	-12.1646
孝子順孫	-12.1647
霊	-12.1647
鷇	-12.1647
拏	-12.1647
崒嵂	-12.1647
斕	-12.1647
覯	-12.1647
槌	-12.1648
煒	-12.1648
蕉	-12.1648
膩	-12.1648
蹬	-12.1648
嘴	-12.1648
幃	-12.1648
日之寳本年	-12.1648
瘥	-12.1649
鶚	-12.1649
歲男子羅睺星女人計都星	-12.1649
羌	-12.1649
攅	-12.1649
冊	-12.165
摠	-12.165
噀	-12.165
涎	-12.165
天仙玉女碧霞元君	-12.165
瘧	-12.165
堦	-12.1651
肢	-12.1651
名山大川	-12.1651
懊	-12.1651
弹	-12.1651
砦	-12.1651
经	-12.1651
蘖	-12.1652
奧	-12.1652
文在中也	-12.1652
年夏四月	-12.1652
敘	-12.1652
成始成終	-12.1653
榔	-12.1653
玉皇君兆若	-12.1653
甍	-12.1653
真君孔雀明王明王經消災延壽保安寍	-12.1653
侏	-12.1654
駈	-12.1654
汰	-12.1654
繽	-12.1654
揄	-12.1654
歲男子金星女人太隂星	-12.1655
繚	-12.1655
宙	-12.1655
漉	-12.1655
蒯	-12.1655
部十萬卷	-12.1655
祺	-12.1656
賾	-12.1656
拉	-12.1656
磔	-12.1657
軋	-12.1657
酥	-12.1657
捨身崖	-12.1657
礎	-12.1657
藺	-12.1657
幟	-12.1658
仃	-12.1658
娼	-12.1658
佇	-12.1658
成宗皇帝制曰	-12.1658
硬	-12.1658
趎	-12.1658
憮	-12.1658
礴	-12.1659
則受制凢	-12.1659
腆	-12.166
集賢院	-12.166
羊舌氏	-12.166
邢	-12.166
訃	-12.166
大真人張彦頨	-12.166
芹	-12.166
罰十拜若	-12.1661
章拜表	-12.1661
遒	-12.1661
瓴	-12.1663
浥	-12.1663
癖	-12.1663
月二十三日	-12.1664
闋	-12.1664
鑣	-12.1664
沭	-12.1666
菟	-12.1667
蜿	-12.1667
踣	-12.1668
牋	-12.1668
术	-12.1668
徊	-12.1669
巋	-12.1669
韄	-12.1671
獼	-12.1672
夏稅鈔	-12.1672
遥叅亭	-12.1672
司天在泉	-12.1673
員外郞	-12.1674
紅異毛	-12.1675
抉	-12.1676
騾	-12.1679
字號第	-12.1693
正位乎外	-12.1694
屠羊說	-12.1702
𠁗	-12.1717
高虚清明天主	-12.1816
九十一十九	-12.2562
高明弘靜冲湛妙應仁惠輔國佑民洪恩	-12.2643
鈸	-12.3217
攝太尉充	-12.3229
初㬋符頭	-12.3241
口是心非	-12.3248
捶	-12.325
縯	-12.3251
强凌弱	-12.3257
鷟曰此經卦之	-12.3261
十五十五四十十五	-12.3264
曲則全枉則直窪則盈敝則新	-12.3264
躶	-12.3264
蔡介夫曰	-12.3264
餧	-12.3267
恚	-12.3267
潁	-12.3268
者减夀半紀知而故犯者加一等一法官	-12.3269
𨂷	-12.3269
五三十五盧九二十一	-12.327
剉	-12.3271
𠏉	-12.3271
五四二十四八二十箕初	-12.3272
鬷	-12.3272
宜矣其别卦而皆謂之作	-12.3272
心初二軫一六	-12.3272
禍福甚緊	-12.3272
瑠	-12.3274
三三四角十二十八四二十八	-12.3275
帔	-12.3277
功德品續三十	-12.3278
劉濬伯曰	-12.3278
擠	-12.3278
璃	-12.3279
七三六四九	-12.3279
善男子善女人	-12.3279
箎	-12.3279
不得一未遽	-12.3279
仄	-12.3279
轝	-12.328
𩔖	-12.328
蹻	-12.328
殲	-12.328
氐女胃柳	-12.328
還北向叩齒九通思	-12.3281
竚	-12.3281
酖	-12.3282
今從韓非本蘇註	-12.3282
上得九六則之	-12.3283
嵋	-12.3284
緦	-12.3284
箕壁參軫	-12.3284
㗸	-12.3284
灸	-12.3285
鷂	-12.3285
昭公二十五年九月	-12.3285
贋	-12.3285
十六十四十一九五	-12.3285
癩	-12.3286
豶	-12.3286
熖	-12.3286
心廣體胖	-12.3287
治曆明時	-12.3287
啍	-12.3287
求官得位	-12.3288
价	-12.3288
儘	-12.3288
嗑	-12.3289
不崇朝而雨	-12.3289
靦	-12.3289
縂	-12.3289
或有能聞是此香者	-12.3289
文王曰咨咨女殷商	-12.3289
蔕	-12.3289
礼	-12.3291
鷁	-12.3291
葭	-12.3292
枘	-12.3292
堞	-12.3292
栝	-12.3292
介然有知	-12.3292
揔	-12.3292
蜲	-12.3292
臾	-12.3292
穠	-12.3293
驎	-12.3293
眞清眞凈	-12.3293
臣誠恐誠惶頓首頓首	-12.3293
祲	-12.3293
蹠	-12.3294
按春秋昭公二	-12.3294
瑯	-12.3294
倫攸叙	-12.3294
堙	-12.3294
献	-12.3294
雷霆玄省	-12.3294
晷	-12.3294
捄	-12.3294
顰	-12.3294
脣	-12.3295
日喜神東南貴神	-12.3295
禫	-12.3295
莭	-12.3295
赭	-12.3295
禰	-12.3295
胼	-12.3295
琛	-12.3295
又若有持是經人	-12.3295
曏	-12.3295
剽	-12.3296
向三拜朝	-12.3296
滓	-12.3296
黷	-12.3296
紀泰山銘	-12.3296
別	-12.3297
凡事大吉玄天上帝感應靈籤第	-12.3297
緱	-12.3297
縳	-12.3297
球	-12.3298
爲灌壇令	-12.3298
伊尹耕於有莘之野	-12.3298
日中有三足烏	-12.3298
羿古之善射者	-12.3298
𢹂	-12.3298
胱	-12.3299
濩	-12.3299
風伯雨師	-12.3299
星躔度定局	-12.3299
鈠	-12.3299
𩬊	-12.3299
傀	-12.33
佑聖真君	-12.33
太極生兩儀	-12.3301
大明萬曆三十五年歲次丁未上元吉	-12.3301
都察院	-12.3301
饜	-12.3301
塞而閉之	-12.3301
果何益哉	-12.3301
盬	-12.3301
栁	-12.3302
蜺	-12.3302
徹上徹下	-12.3302
綫	-12.3302
堊	-12.3302
耳目口鼻	-12.3302
小徃大來	-12.3303
彼何人斯	-12.3303
黄潜善汪伯彦	-12.3303
更相纏繞在	-12.3303
甖	-12.3303
歲男子水星女人水星	-12.3303
坪	-12.3303
𣏌	-12.3303
皺	-12.3303
両	-12.3303
螢	-12.3303
黄峴嶺	-12.3303
靈寶赤書玉篇眞文合一百	-12.3303
洵	-12.3303
西斗下䧏十六日	-12.3303
一炁七遍	-12.3303
鵷	-12.3303
錠	-12.3304
覧	-12.3304
讌	-12.3304
鶂	-12.3304
湯囚夏臺文王拘羑里	-12.3304
麟孔子作春秋	-12.3304
慴	-12.3304
榦	-12.3304
淆	-12.3304
痢	-12.3305
坳	-12.3305
庄	-12.3305
缸	-12.3305
褫	-12.3305
離苦難消灾觧厄天尊下䧏十	-12.3305
五方雷神下䧏	-12.3305
澇	-12.3306
二十一日天猷下䧏二十	-12.3306
春秋魯莊公元年	-12.3306
緜	-12.3306
仸	-12.3307
年退盡一週天	-12.3307
驄	-12.3308
賡	-12.3308
飜	-12.3308
天朗氣清	-12.3308
木木名在崑崙西極其華光照下地	-12.3308
哩	-12.3308
帝八威策文	-12.3308
太乙救苦天尊下䧏	-12.3308
嘶	-12.3308
萎	-12.3308
鐸	-12.3309
帡	-12.3309
怩	-12.3309
歃	-12.3309
汭	-12.3309
昵	-12.3309
進太上延禧籙	-12.3309
木以拂日	-12.3309
楚詞折	-12.3309
膈	-12.3309
江河淮海	-12.3309
章持是經人名	-12.3309
克己復禮	-12.3309
廵按御史	-12.3309
洄	-12.331
㾮	-12.331
圻	-12.331
崚	-12.331
臣周玄貞	-12.331
千變萬化	-12.331
豢	-12.331
驊	-12.331
秣	-12.331
后土皇地祇	-12.3311
畚	-12.3311
龕	-12.3311
謢	-12.3311
嚅	-12.3312
伉	-12.3312
絞	-12.3312
耈	-12.3312
廩	-12.3313
素凝神廣道	-12.3313
太明上皇君	-12.3313
凂	-12.3314
䑛	-12.3314
鶩	-12.3314
顱	-12.3314
荳	-12.3314
另	-12.3314
襪	-12.3314
締	-12.3314
臲	-12.3314
飧	-12.3314
隄	-12.3314
應驗品續三十	-12.3315
䂓	-12.3315
複	-12.3315
髫	-12.3315
枲	-12.3315
檐	-12.3315
疹	-12.3315
長生保命天尊	-12.3316
癯	-12.3316
雲行雨施	-12.3316
憯	-12.3317
宓	-12.3317
瀟	-12.3317
眯	-12.3317
滎	-12.3317
金石絲竹	-12.3317
魁門焉龍人囚之齊侯親皷三日取龍	-12.3318
粱	-12.3318
積功累仁	-12.3318
尓	-12.3318
春秋魯成公二年	-12.3318
馬棚崖	-12.3318
文中天炁	-12.3318
春齊侯伐我北鄙圍龍頃公之嬖人盧蒲	-12.3318
帕	-12.3318
枸	-12.3318
韐	-12.3318
倐	-12.3319
炫	-12.3319
鎸	-12.3319
翬	-12.3319
釃	-12.3319
太素三元君朝真	-12.332
瀨	-12.332
旆	-12.332
杠	-12.3321
攢	-12.3321
唳	-12.3321
瘖	-12.3322
南極上元君曰	-12.3322
𨇠	-12.3322
猨	-12.3323
拜手稽首	-12.3323
趐	-12.3323
𩐎	-12.3324
賞賚有差	-12.3324
籛	-12.3324
轄	-12.3324
亷	-12.3325
彚	-12.3325
臰	-12.3325
冏	-12.3325
嚬	-12.3325
癭	-12.3326
鋟	-12.3326
歲男子計都星女人太陽星	-12.3326
損上益下	-12.3326
九天雷祖大	-12.3326
歲男子木星女人水星	-12.3326
禦災捍患	-12.3327
瀚	-12.3327
小人剥廬	-12.3327
碁	-12.3328
歲男子水星女人木星	-12.3328
蝮	-12.3328
豈偶然哉	-12.3329
諗	-12.3329
氈	-12.3329
卭	-12.333
巇	-12.3331
鷗	-12.3331
艮離坎坤震巽中	-12.3331
邪精鬼賊	-12.3332
敺	-12.3333
甃	-12.3333
莎	-12.3333
淤	-12.3333
登泰山而小天下	-12.3333
港	-12.3333
淬	-12.3334
么	-12.3335
纛	-12.3335
呂	-12.3335
何思何慮	-12.3336
崇德報功	-12.3336
鄲	-12.3337
逖	-12.3337
明入地中	-12.3337
相得而合爲	-12.3337
大明萬曆三十五年	-12.3338
㖿	-12.334
攪	-12.334
咬	-12.334
琬	-12.3341
卦畫之易	-12.3341
廚	-12.3343
㝎	-12.3346
高上玉皇尊	-12.3347
祕文書于	-12.3348
文秋粮米正耗	-12.3351
姆	-12.3354
異毛刃	-12.3367
嫩	-12.3368
檢齋還願者	-12.3375
嘙	-12.338
星君南斗天	-12.3418
春秋魯僖公	-12.3855
高明弘靜冲湛妙應仁惠輔國佑民	-12.4408
中神仙諸靈官謹燃璣衡七政神燈上布	-12.484
猖	-12.5204
婪	-12.5218
之年皆不及之	-12.524
上官赴任	-12.5241
媮	-12.5245
至于八月有凶	-12.5249
之體態者皆屬於	-12.525
年月日時爲有氣生旺吉墓絶㐫	-12.5253
之别而已故搃名之曰作	-12.5254
刓	-12.5257
鏞	-12.526
糵	-12.526
十一二四柳初十	-12.526
絙	-12.5261
四六五四十二翌一	-12.5262
梱	-12.5263
大龍王開念啓請	-12.5263
驀	-12.5264
牿	-12.5264
听	-12.5265
旰	-12.5267
十三六角初九十一	-12.5267
幛	-12.5267
扛	-12.5268
莧	-12.5269
縝	-12.5269
躔其度則爲仇	-12.5269
躔其度則爲恩	-12.5269
翌十九五二十九參九	-12.527
之謂也故君於	-12.527
蚿	-12.527
隍	-12.5271
闐	-12.5271
䕫	-12.5271
八七五室十七二	-12.5272
十五十四五十一三	-12.5272
跼	-12.5273
徒九年一法官道士	-12.5273
七二四三八一二畢	-12.5273
積功累行	-12.5274
胏	-12.5274
甲辰甲戌己丑己未	-12.5274
大白若辱	-12.5274
今受斯報或	-12.5275
角斗奎井	-12.5275
饈	-12.5276
二十十六二二十六六五三	-12.5276
夘	-12.5276
格物致知	-12.5277
奉獻奉獻上帝前	-12.5277
轠	-12.5277
天地之數五十有五	-12.5278
綉	-12.5278
玉𣑽尊天嘍囉王妙𣑽尊天	-12.5278
十二翌一七十一九六四	-12.5278
之年皆太過之	-12.5278
譖	-12.5279
鷟曰此以上八卦言伏羲始作	-12.5279
五七三八三五四	-12.5279
大音希聲	-12.5279
謹以牲醴	-12.5279
菰	-12.528
鏜	-12.528
遲留伏逆	-12.528
三七五二壁九	-12.528
十五十四十三四十二二十參初	-12.528
朶	-12.5281
回心向道	-12.5281
却走馬以糞	-12.5281
與與我稷翼翼	-12.5281
羅尊者第	-12.5281
至聖炳靈王	-12.5282
敢昭告于	-12.5282
盧一十三十二十一二八	-12.5282
二十四字書于	-12.5282
伯氏客宿詩	-12.5283
墾	-12.5283
諮	-12.5283
帆	-12.5283
叡	-12.5283
姙	-12.5283
法官道士加一等一生民	-12.5283
皆化氣不及	-12.5283
惓	-12.5284
誶	-12.5284
弰	-12.5284
制星祕文三十二字書	-12.5284
星也降扵人間為	-12.5284
誹	-12.5285
戛	-12.5285
演道靈應冲和	-12.5285
請法衆等謹依太上所說	-12.5285
雜氣天符年日皆宜	-12.5285
之中便㣲祝曰	-12.5286
戌伐季氏叔孫氏孟氏救之三家反攻公	-12.5286
膚寸而合不崇朝而雨	-12.5286
忬	-12.5286
乙庚年月日時	-12.5287
形長二寸	-12.5287
麤	-12.5287
轊	-12.5287
溱	-12.5287
靉	-12.5287
祔	-12.5288
剏	-12.5288
甘露醴泉太平機	-12.5289
蠒	-12.5289
之年正月建	-12.5289
巽在牀下	-12.5289
桎	-12.529
鏟	-12.529
鮪	-12.529
搨	-12.529
明皇后聖朝加封大	-12.529
朏	-12.529
賞善罰惡	-12.529
三狐狐者邪媚之獸三狐指卦之三隂	-12.529
嬀之後將育于姜	-12.529
睠	-12.529
帝天君侍眞靈官無鞅數衆浮空而至	-12.529
榕	-12.5291
畸	-12.5291
山爲儲副東方朔神異經	-12.5291
從刼至刼	-12.5291
春秋僖公十六年正月	-12.5291
𠒋	-12.5291
東弗于逮	-12.5291
獫	-12.5291
髭	-12.5292
軰	-12.5292
飴	-12.5292
鑱	-12.5292
俱飛欲歸稻池	-12.5292
二字餘封如故	-12.5292
大悲大願大	-12.5292
人之生動之死地	-12.5292
星約束定是	-12.5292
觳	-12.5293
范文正公	-12.5293
慤	-12.5293
厚地徳庶物蕃息平康正直以綏大福易	-12.5293
妺	-12.5293
伯昏瞀人	-12.5293
數至辰月又見	-12.5293
妝	-12.5294
装	-12.5294
譌	-12.5294
儵	-12.5294
縻	-12.5294
伯夷叔齊貞廉之師以徳防患憂禍不存	-12.5294
肄	-12.5294
赧	-12.5294
僭	-12.5294
暐曄在上清	-12.5294
鏌	-12.5294
駵	-12.5294
洧	-12.5294
王事靡盬	-12.5294
景星慶雲	-12.5295
䋲	-12.5295
爚	-12.5295
珦	-12.5295
簣	-12.5295
懃	-12.5295
筍	-12.5295
棨	-12.5295
王事靡盬不遑將父	-12.5295
𣾰	-12.5295
君畢還北向平坐叩齒三通思	-12.5295
城復于隍	-12.5295
立五色獅子之上	-12.5295
咫	-12.5296
黽	-12.5296
剿	-12.5296
胝	-12.5296
義勇武安王	-12.5296
元帥七土地一科名司二	-12.5296
西瞿耶尼	-12.5296
願降經壇證盟功德志心皈命禮請	-12.5296
瞋	-12.5296
摳	-12.5297
蹋	-12.5297
哂	-12.5297
叭	-12.5297
爰采唐矣沬之郷矣	-12.5297
趨吉避凶	-12.5297
捍患禦灾	-12.5297
百足俱行相輔爲強三聖翼事	-12.5297
囷	-12.5298
難以木氣爲仇以土計爲恩以水孛爲用	-12.5298
三分天下有其二	-12.5298
義不勝情以欲自	-12.5298
拐	-12.5298
書帝曰咨禹汝平水	-12.5298
緹	-12.5298
躰	-12.5298
難以金爲仇以木氣爲恩以土計爲用	-12.5298
桓公十八年公與夫人姜氏如齊	-12.5298
藳	-12.5298
陽城太室神明所	-12.5298
鴟鴞破斧	-12.5298
以土計爲難以火羅爲仇以金爲恩以木	-12.5299
楔	-12.5299
祧	-12.5299
蘇秦主從張儀主衡秦事燕儀事秦	-12.5299
視有所畏避	-12.5299
家給人足	-12.5299
鱸	-12.5299
閡	-12.5299
笋	-12.53
㮣	-12.53
田蠶六畜	-12.53
蹐	-12.53
饔	-12.53
不及天行一度	-12.53
我里東流爲海	-12.53
渟	-12.53
謌	-12.53
酗	-12.53
之後莫之與京姜齊姓營丘齊所封之地	-12.53
仲即陳公子完魯莊公二十二年奔齊使	-12.53
厥聲濯濯厥靈	-12.53
懿氏卜妻敬仲曰有	-12.53
雝雝在宫肅肅在廟	-12.53
息終無禍患無註	-12.53
金馬碧雞	-12.53
危坐至暮請求不得膏澤不降政戾民	-12.53
絛	-12.5301
俚	-12.5301
禕	-12.5301
古易考原卷之	-12.5302
八世大昌按春秋傳陳	-12.5302
大光明圓滿大神	-12.5302
空洞自然之書一名	-12.5302
踝	-12.5302
扼	-12.5302
痛哭流涕	-12.5302
讟	-12.5302
崦	-12.5303
競競業業	-12.5303
利牝馬之貞	-12.5303
噓	-12.5303
其施爲氣象	-12.5303
痺	-12.5303
罌	-12.5303
上㬋符頭	-12.5303
始勤終怠	-12.5303
簸	-12.5303
革言三就	-12.5303
桞	-12.5303
闓	-12.5304
斌	-12.5304
筴傳郭璞註云蝟能制虎	-12.5304
詡	-12.5304
閙	-12.5304
兵者不祥之器	-12.5304
鯢	-12.5304
悞	-12.5304
慣	-12.5304
斫	-12.5304
桔	-12.5304
能以美利利天下	-12.5304
搗	-12.5304
繋	-12.5304
驃	-12.5305
蓏	-12.5305
謂之八愷髙辛氏有才子八人謂之八元	-12.5305
闞	-12.5305
沐浴清齋入室	-12.5305
執麟春秋作元隂聖將終尼父悲心左	-12.5305
搯	-12.5305
比目四翼	-12.5305
與天地相爲悠久	-12.5305
兹蓋伏遇	-12.5305
斐	-12.5305
兠	-12.5306
唆	-12.5306
舜於是舉八愷使主后土舉八元使布五	-12.5306
繟	-12.5306
羮	-12.5306
諳	-12.5306
亰	-12.5306
嗣漢五十代天師大眞人張國祥	-12.5306
飼	-12.5306
慆	-12.5306
砭	-12.5306
継	-12.5306
辠	-12.5306
噠	-12.5306
天下之民聚天下之貨交易而退	-12.5307
嘈	-12.5307
犁	-12.5307
聒	-12.5307
𠫵	-12.5307
䑕遮遏前後	-12.5307
不得脫走無註	-12.5307
傚	-12.5307
晤	-12.5308
桶	-12.5308
緋	-12.5308
勛	-12.5308
拜表上章	-12.5308
繭	-12.5308
蒐	-12.5308
雲不雨自我西郊	-12.5308
圓明道母天尊	-12.5308
薜	-12.5308
之本宫非直指	-12.5308
或躍在淵	-12.5308
猳	-12.5308
适	-12.5308
鏑	-12.5309
佃	-12.5309
䦧	-12.5309
法持念是此眞經	-12.5309
筯	-12.5309
佷	-12.5309
偁	-12.5309
箬	-12.531
年夏四月韓須如齊逆女齊陳無宇送女	-12.531
乾稱父坤稱母	-12.531
窓	-12.531
双	-12.531
声	-12.531
幔	-12.531
𩣭	-12.531
刦	-12.531
瘼	-12.5311
谺	-12.5311
憸	-12.5311
皋	-12.5311
鸑	-12.5311
俑	-12.5311
慇	-12.5311
涿	-12.5311
睛	-12.5311
用黄牛之革	-12.5311
扳	-12.5312
蛭	-12.5312
变	-12.5312
直言極諫	-12.5312
粃	-12.5312
莠	-12.5312
餮	-12.5312
仿	-12.5312
聵	-12.5312
蔴	-12.5312
谽	-12.5313
冺	-12.5313
向九拜朝	-12.5313
跰	-12.5313
洌	-12.5313
咆	-12.5313
自身防口舌	-12.5313
豜	-12.5313
鎚	-12.5313
嶮	-12.5314
愚夫愚婦	-12.5314
九天採訪使	-12.5314
莛	-12.5314
未見君子憂心	-12.5314
滉	-12.5314
齬	-12.5314
上為列星	-12.5315
皇經註解卷	-12.5315
煽	-12.5315
煜	-12.5316
鑊	-12.5316
光嚴妙樂國	-12.5316
命分獻風雲雷雨壇	-12.5316
桃之夭夭灼灼其華之子于歸冝其室家	-12.5316
瑛	-12.5316
薈	-12.5316
狶	-12.5316
爺	-12.5316
山澤通氣	-12.5317
踧	-12.5317
畨	-12.5317
絶聖棄知	-12.5317
鐺	-12.5317
頳	-12.5317
渫	-12.5317
難以水孛爲仇以火羅爲恩以金爲用	-12.5318
晻	-12.5318
熠	-12.5318
緍	-12.5318
而化瘞劍	-12.5319
瀹	-12.5319
天王統領本方	-12.5319
塾	-12.5319
拿	-12.5319
渰	-12.5319
租穀貳石	-12.532
勦	-12.532
埜	-12.532
蕘	-12.532
非一朝一夕之故	-12.532
郕	-12.532
樟	-12.5321
愔	-12.5321
及諸河源五嶽四	-12.5321
悸	-12.5321
拗	-12.5321
軺	-12.5321
畢還北向叩齒	-12.5321
玉晨大道君登玉霄琳房四盻天下	-12.5322
専	-12.5322
蕞	-12.5322
醪	-12.5322
此何等氣象也	-12.5322
沁	-12.5322
瀼	-12.5322
順飛一白到	-12.5322
冲靜承先弘化大真人掌天下道教事	-12.5323
賛靈集卷之	-12.5323
叄	-12.5323
涪	-12.5323
先破後成	-12.5323
即說偈曰	-12.5324
粘	-12.5324
篷	-12.5324
𢖍	-12.5324
脂巢於小枝	-12.5324
香馥郁	-12.5324
漶	-12.5325
禘	-12.5325
踖	-12.5325
茁	-12.5325
戡	-12.5325
濙	-12.5325
嗛	-12.5326
邐	-12.5326
抜	-12.5326
豸	-12.5326
祝當今皇帝	-12.5326
目録終儒門崇理折衷堪輿完孝録卷之	-12.5327
倩	-12.5327
麵	-12.5327
也羅什曰	-12.5327
薤	-12.5329
峒	-12.5329
儐	-12.5329
蓁	-12.5329
黼	-12.5329
暵	-12.5329
傘	-12.5329
鰕	-12.533
暄	-12.533
棧	-12.533
䜟	-12.533
捴	-12.533
刄	-12.533
墅	-12.5331
症	-12.5331
瞥	-12.5331
若有善男信女	-12.5331
掌天下道教事	-12.5331
靨	-12.5333
䌓	-12.5333
茸	-12.5333
陛辭而還	-12.5335
漭	-12.5335
糾	-12.5335
綻	-12.5336
嵎	-12.5336
古之道術有在於是者	-12.5336
媱	-12.5336
履霜堅冰	-12.5336
祭于東嶽泰山之神曰	-12.5336
盞正西祭之大吉	-12.5336
敲	-12.5337
蜒	-12.5337
卼	-12.5337
瀣	-12.5338
萑	-12.5338
薑	-12.5341
真人張宇初	-12.5343
孫明復石守道	-12.5343
杖庫姚紫文	-12.5344
硯	-12.5345
異毛虛貫刑刃哭	-12.5348
泒	-12.535
窠	-12.5352
𧕏	-12.5358
哆	-12.536
未嘗過而問焉	-12.5407
房初八十四	-12.5419
依信禮九天	-12.6232
民到于今稱之	-12.6766
降赴經筵特為某請恩保	-12.6947
七十九尾十八房初八十四星六	-12.7593
二奎十六十二六十八十七	-12.7654
𦍤	-12.7722
攝宗正卿副之	-12.7725
非汝將吏孰爲	-12.7725
違者准前律一法官職列	-12.7731
垍	-12.7733
長短廣狹彼此	-12.7736
娘娘聖誕二十	-12.7738
頄	-12.7739
有嵗會以補之六	-12.7739
牛初三一六九井初二十八五	-12.7754
一四二七十一二十九六	-12.7756
鍠	-12.7757
𪃘	-12.7758
頊	-12.776
如作此星者名曰	-12.776
紼	-12.776
代大匠斲	-12.776
矮	-12.776
籀	-12.7763
豈虛言哉誠全而歸之	-12.7763
碓	-12.7764
軫初一心初	-12.7764
𥮅	-12.7764
晨香夕燈	-12.7764
杙	-12.7765
之餘禍福次於	-12.7765
人可得也必若	-12.7765
十井初九七二四牛初	-12.7766
鼍	-12.7767
絁	-12.7767
喁	-12.7767
旴	-12.7767
有孚維心亨行有尚	-12.7767
忖	-12.7767
禦灾捍患	-12.7768
廵按山東監察御史	-12.7768
十二十一十角一七柳十三	-12.7769
六二十四四三婁一十三七十九尾十八	-12.7769
佺	-12.7771
鬬	-12.7771
礦	-12.7771
一二十二二三十一十七三二十七七	-12.7771
洮	-12.7772
屇	-12.7772
惛	-12.7772
澣	-12.7772
歅	-12.7772
据	-12.7772
七五二壁九十一女初二一	-12.7773
彼君子兮不素餐兮	-12.7774
質眞若渝	-12.7774
闍	-12.7774
養師長奉祀三尊無有違犯者得生其中	-12.7774
十六十五十四五十一三二十一一昴初	-12.7774
有無量七寳宫殿	-12.7774
塤	-12.7775
雊	-12.7775
功懋懋官	-12.7775
庚午辛未壬申癸酉甲戌	-12.7775
順助仁惠仙妃	-12.7775
一二十二二三十一	-12.7776
㠯	-12.7776
鍚	-12.7776
𥨸	-12.7776
出入所在無怖畏	-12.7776
尊道而貴德	-12.7776
觫	-12.7778
煴	-12.7778
我無爲而民自化我好靜而民自正	-12.7778
描	-12.7778
曵	-12.7778
星初十八畢十六十三十一七	-12.7778
持三皈五戒	-12.7778
騙	-12.7779
煢	-12.7779
櫻	-12.7779
軛	-12.7779
匙	-12.7779
抱布貿絲	-12.7779
志曰太公爲灌壇令武王夢婦人當道夜	-12.778
揶	-12.778
方龍得之大可扦立	-12.7781
菹	-12.7781
鐻	-12.7781
嘵	-12.7781
欲立其子奚齊賂外嬖梁五東	-12.7781
郜	-12.7781
十一九六四危十五	-12.7781
一尾初八七十二二六四胃一	-12.7781
七九五斗初心五七	-12.7781
芋	-12.7782
九罭篇云鴻飛遵陸公歸不復於汝信宿	-12.7782
其一未知其二	-12.7782
楚人戰于泓宋師敗績	-12.7782
交靈素綬	-12.7782
二十二二一十五十一五十七十六十	-12.7782
二十四四三婁一十三	-12.7782
戊癸年月日時甲己年月日時	-12.7782
十二八二十四十三十二	-12.7783
畀	-12.7783
宼	-12.7783
豈非老氏之徒乎	-12.7783
怫	-12.7783
蝨	-12.7783
雨師娶婦黄巖季	-12.7783
𦕎	-12.7783
自天子至於庶人	-12.7785
窪	-12.7785
南山昊天刺政	-12.7785
周師伐紂	-12.7785
貰	-12.7785
湑	-12.7786
嘍王大𣑽天宫直符林使者	-12.7786
一法官傳受弟子	-12.7786
鷁退飛過宋都二十二年十一月宋公及	-12.7786
哽	-12.7786
山没丘浮陸	-12.7786
按禮部韻毛居正曰以六攻一	-12.7786
酌水獻花	-12.7786
丙辛年月日時丁壬年月日時	-12.7787
份	-12.7787
惵	-12.7787
産遺季紵衣	-12.7787
問之曰吾是東海神女嫁於西海神童今	-12.7787
之不得其術以至於	-12.7788
然則君之所讀者古人之糟粕已夫	-12.7788
陳靈公與孔寧儀行父	-12.7788
一十一六七尾初	-12.7789
不出户知天下不窺牖見天道	-12.7789
寂然不動感而遂通天下之故	-12.7789
不爭故天下莫能與之爭	-12.7789
十朋之龜弗克違	-12.7789
𧷢	-12.7789
泬	-12.7789
鹿得羙草鳴呼其友九族和	-12.7789
摽	-12.7789
怒壞梁折柱稽難行旅留連愁苦無註	-12.7789
四十六代大真人	-12.7789
洫	-12.779
泰小徃大來吉亨	-12.779
睎	-12.779
貆	-12.779
糧言聖人道全徳備雖遇患而不危殆也	-12.779
二五十二六十五十六	-12.779
硨	-12.779
附録蘇子瞻曰	-12.779
伸昭謝之私	-12.779
昊天不平此詩家父所作刺周王用尹氏	-12.779
腕	-12.779
珞	-12.779
西河薩守堅	-12.779
召蛟龍及水神事	-12.779
殮	-12.779
浞	-12.779
种	-12.779
繻	-12.779
八句廼制東方諸	-12.779
盒	-12.779
者自无所用彼	-12.779
三界侍衛五帝司迎	-12.7792
璫	-12.7792
刈	-12.7792
三百六十五度四分度之一	-12.7792
滸	-12.7792
爲得勢值順軌者吉伏逆者凶右第五十	-12.7792
𠃔	-12.7792
孔子過匡匡人以爲陽虎而拘之在陳蔡	-12.7792
故勅廣運嘉靖	-12.7792
蹵	-12.7792
功弃力飢無所食無註	-12.7792
强梁者不得其死	-12.7792
空虚無子無註	-12.7792
倬	-12.7792
沷	-12.7792
滃	-12.7792
西方七寶金門皓靈皇老白帝	-12.7792
日喜神正南貴神正南	-12.7792
罍	-12.7792
十日長生保命天尊下䧏十一日	-12.7792
左輔右弼	-12.7793
薺	-12.7793
䖟	-12.7793
一四十一五十四十五十六	-12.7793
蛩	-12.7793
勗	-12.7793
我僕痡矣云何吁矣	-12.7793
虖	-12.7793
确	-12.7793
士刲羊無血	-12.7793
壬寅壬申丁卯丁巳丁亥	-12.7793
與神流通長無憂凶無註	-12.7794
康侯用錫馬蕃庶	-12.7794
鏐	-12.7794
塞其兊閉其門	-12.7794
宿者以太陰爲度主喜	-12.7794
眼耳鼻舌身	-12.7794
胭	-12.7794
僵東家治䘮	-12.7794
菡	-12.7794
嶪	-12.7794
殺牛不如西	-12.7794
傫	-12.7794
冬至後陽遁	-12.7794
孔子在陳蔡之間楚使人聘之孔子將	-12.7794
日喜神正南貴神東	-12.7794
沕	-12.7794
弣	-12.7794
交梨火棗	-12.7796
名耳字伯陽	-12.7796
擿	-12.7796
羯	-12.7796
羊腸九縈相推稍前止須王孫乃能上天	-12.7796
蒭	-12.7796
周程張朱	-12.7796
疢	-12.7796
䓁	-12.7796
後天而奉天時	-12.7796
鈇	-12.7796
兾	-12.7796
坎艮三女巽離兊	-12.7796
老尼父逝去論語齊景公	-12.7796
嬙	-12.7796
安寶華林青靈始老蒼帝	-12.7796
戶	-12.7796
犨	-12.7796
翕翕䡘䡘稍	-12.7796
虀	-12.7796
鵶	-12.7796
惺	-12.7797
淦	-12.7797
哀哀父母生我劬勞	-12.7797
三河俱合水怒	-12.7797
劃	-12.7797
昶	-12.7797
貴易交富易妻	-12.7797
釘	-12.7797
雖不取天下而天下歸之矣	-12.7797
易乾坤生六子乾父坤	-12.7797
中金城千里天府之國也	-12.7797
名成徳就項領不試	-12.7797
日行北方黒道曰北陸	-12.7797
秘籙一階	-12.7797
聞說此經皆大歡喜	-12.7797
金闕志心皈依信禮九天玉闕咒捻	-12.7797
饘	-12.7797
滈	-12.7797
牧羊稻園聞虎喧	-12.7797
策四面朝眞謁簡十八面紫白交帶一付	-12.7797
復坐吾語汝	-12.7798
蓼彼蕭斯零露	-12.7799
溲	-12.7799
泂	-12.7799
季女至于蕩道齊子旦夕	-12.7799
脱	-12.7799
詩云魯道有蕩齊子庸止	-12.7799
曰陟彼崔嵬我馬虺隤又云	-12.7799
陟彼髙岡我馬玄黄又	-12.7799
隷	-12.7799
夏至後陰遁	-12.7799
嬖欲盡去群大夫而立其左右遂殺三郤	-12.7799
德星君神咒稽首皈依虔誠讃詠志心皈	-12.7799
獨無兵革三塗山名在河南伊闕縣	-12.7799
善躓跌踒右足	-12.7799
甲丙戊庚壬	-12.7799
誠意伯劉基	-12.78
刑囚暗耗	-12.78
壖	-12.78
賅	-12.78
獮	-12.78
惟時懋哉石夷未詳	-12.78
庸詎知吾所謂	-12.78
苹	-12.78
霰	-12.78
伯夷叔齊餓于首陽之下民到于今	-12.78
陽城山谷名在嵩山下太室山名	-12.78
露仁澤也聖徳上及太清下及萬靈則降	-12.78
子貢至楚楚昭王興師迎孔子然後得免	-12.78
悝	-12.78
葳	-12.78
賊春秋閔公	-12.78
飲食卜爾百福	-12.78
𨓜	-12.78
不受盟威籙或止受	-12.78
同𣑽炁始	-12.78
套匣壹箇紅絹軟	-12.78
殿兩旁當塑	-12.78
當變爲之卦之	-12.78
素紅絹夾袱	-12.78
蝢	-12.78
郇	-12.78
宿者以木爲度主以金爲難以土	-12.7801
祓	-12.7801
蠓	-12.7801
屦	-12.7801
槍	-12.7801
埠	-12.7801
知者不言言者不知	-12.7801
以身觀身以家觀家以鄉觀鄉以	-12.7801
協	-12.7801
天猷副元帥	-12.7801
阬	-12.7801
其聲殷殷云野	-12.7801
州司權上應	-12.7801
搉	-12.7801
晢	-12.7801
蹍	-12.7801
牛上山力劣行難烈風雨雪遮遏我前	-12.7801
略羙好求我長女賤薄不與反得醜	-12.7801
芘	-12.7801
躄	-12.7801
髙陽氏才子八人厖降庭堅其二子也	-12.7801
欹	-12.7803
𦤀	-12.7803
嗌	-12.7803
秬	-12.7803
雨從太公邑外過	-12.7803
易小畜卦輿脫輹夫妻反目	-12.7803
鄆	-12.7803
先天而天弗違	-12.7803
攙	-12.7803
樽酒簋貳	-12.7803
歐陽文忠公	-12.7803
涇國夫人順助仁惠	-12.7803
耜	-12.7803
麩	-12.7803
嬛	-12.7803
文王四乳仁愛篤厚子畜十男	-12.7803
雖憂無咎無註	-12.7803
饉	-12.7804
嵯	-12.7804
遴	-12.7804
召太公問之果有疾風	-12.7804
手舞足蹈	-12.7804
跱	-12.7804
鼷	-12.7804
水深漬罷頼幸舟子濟脫無他無註	-12.7804
飊	-12.7804
堇	-12.7804
嶤	-12.7804
天皇至道太清玉冊	-12.7804
按韻府群玉	-12.7804
早霜晚雪傷害禾麥	-12.7804
雋	-12.7804
江漢朝宗于海	-12.7804
溥濟博濟之	-12.7804
澄心定性以凝道功	-12.7804
詣前跪搢圭獻	-12.7804
豈偶然之故哉	-12.7805
黻	-12.7805
巃	-12.7805
僦	-12.7805
謇	-12.7805
嗤	-12.7805
天王常加護佑今辰壇下伏爲某皈	-12.7805
大真人張永緒	-12.7805
澍	-12.7805
敬仲兆興齊姜	-12.7806
沲	-12.7806
道大天大地大王	-12.7806
伊尹相湯吕望興周	-12.7806
窞	-12.7806
裘於昭王昭王服之以享蔡侯	-12.7806
先王以至日閉	-12.7806
北辰紫宫衣冠立中含和建徳常受	-12.7806
綃	-12.7806
𥠖	-12.7806
蛄	-12.7806
閲	-12.7806
蹔	-12.7807
畢還北向平坐	-12.7807
櫃	-12.7807
崒	-12.7807
童妾獨宿長女未室利無所得無註	-12.7807
祼	-12.7807
九天道母無上帝后元君	-12.7807
椄	-12.7807
離艮兊乾中巽震坤坎	-12.7807
震坤坎離艮兊乾中巽	-12.7807
𡨚家債主	-12.7807
寝	-12.7807
韡	-12.7807
品道録司左右	-12.7807
嗎	-12.7807
字公宋加四字公本朝加封四字王號	-12.7807
弇	-12.7807
畜牝牛吉	-12.7807
薇出車魚麗	-12.7807
飪	-12.7807
舉經以該别	-12.7808
橛	-12.7808
嶽鎮海瀆	-12.7808
釗	-12.7808
枌	-12.7808
艮兊乾中巽震坤坎離	-12.7808
蕋	-12.7808
千萬丈秋三月頭建	-12.7808
楘	-12.7808
秋隼冬翔	-12.7808
簀	-12.7808
兖州部泰山郡	-12.7808
罘	-12.7808
市南宜僚	-12.7809
剠	-12.781
莾	-12.781
瑣	-12.781
抱陽沖氣以爲和	-12.781
面折廷爭	-12.781
縧	-12.781
諸地日月星宿	-12.781
颶	-12.781
兊乾中巽震坤坎離艮	-12.781
去妄以求復性	-12.781
斂	-12.781
望幸不到文章未	-12.781
縑	-12.781
弊笱在梁	-12.781
穽	-12.781
跏	-12.781
叩齒三通閉眼思	-12.781
還北向平坐叩齒九通	-12.781
笳	-12.7811
懷玄抱真養素守默葆光履和致	-12.7811
邯	-12.7811
兄友弟恭	-12.7811
尒	-12.7811
掄	-12.7811
是天尊而說偈曰	-12.7811
鳩在河之洲窈窕淑女君子好逑	-12.7811
得一以清地得一以寧	-12.7811
千萬丈春三月頭建	-12.7811
心見于外而物	-12.7811
吾斯之未能信	-12.7811
磷	-12.7811
蕙	-12.7811
踶	-12.7811
鈐	-12.7811
鍤	-12.7811
鬟	-12.7811
以下皆言禹治水之㓛	-12.7811
其子徴舒病之出自廐射而中之	-12.7811
沍	-12.7811
風文翰大舉就温昧過我邑羿無所得詩	-12.7812
籃	-12.7812
瘰	-12.7812
𥬇	-12.7812
鋼	-12.7812
玄養素寂靜真人	-12.7812
珥	-12.7812
長城鉅防	-12.7812
胹	-12.7812
舋	-12.7812
捽	-12.7814
文彩焕爛	-12.7814
取天下常以無事	-12.7814
閹	-12.7814
髩	-12.7814
嚎	-12.7814
有事不足以取天	-12.7814
雱	-12.7814
㬌	-12.7814
竢	-12.7814
掀	-12.7814
田蠶半收六畜損失	-12.7814
精思之還反眞形修行	-12.7815
箕子紂諸父	-12.7815
有物混成先天地生	-12.7815
北方洞陰朔單鬱絶	-12.7815
婬	-12.7815
守門日破我盆	-12.7815
靣	-12.7815
䆫	-12.7815
塈	-12.7815
𧺫	-12.7815
北隂下䧏初十日長生保命天尊下䧏	-12.7815
東山水遏我前深不可渉失利後便無註	-12.7815
蟊	-12.7815
蠋	-12.7815
儃	-12.7816
褊	-12.7817
上聖高尊眞仙聖衆	-12.7817
九侯鄂侯	-12.7817
兵師爲營衛後得六相而天地治神明至	-12.7817
硤	-12.7817
上乆而不召師散而歸髙克奔陳鄭人爲	-12.7817
異路心不相慕	-12.7817
至各衘明珠以報參焉	-12.7817
翣	-12.7817
寞	-12.7817
溉	-12.7817
櫟	-12.7818
諟	-12.7818
法苑珠林	-12.7818
猝	-12.7818
艤	-12.7818
閥	-12.7818
嗅	-12.7818
薫	-12.7818
惵惵爲天下渾其心	-12.7818
曀	-12.7818
李諤瑶池記	-12.7818
癢	-12.7818
髙子髙克也詩	-12.7818
玅應仁惠輔國佑民隆福洪恩眞君	-12.7819
眞仙八詠圖	-12.7819
豨	-12.7819
轔	-12.7819
鍜	-12.7819
嶄	-12.7819
睆	-12.7819
酅	-12.7819
域中有四大而王居其一	-12.7819
暍	-12.7819
給部牒五百度羽士	-12.7819
甲午乙未丙申丁酉戊戌	-12.7821
頫	-12.7821
娶於姜吕駕迎新婦少齊在門夫子	-12.7821
道大真人主領三山符籙掌江南道教事	-12.7821
謝東村公啓	-12.7821
呀	-12.7821
捚	-12.7821
棠姜齊棠公之妻東郭偃之姊也	-12.7821
卺	-12.7821
吮	-12.7821
按史髙辛氏之子有曰伯虎仲熊	-12.7821
晒	-12.7821
猫	-12.7821
辣	-12.7821
礚	-12.7821
黑齒落更生	-12.7822
裨	-12.7822
脂桑扈也	-12.7822
嵨	-12.7822
皤	-12.7822
鴝	-12.7822
輾	-12.7823
淇	-12.7823
虱	-12.7823
一如紫皇玄天上帝	-12.7824
癆	-12.7824
珂	-12.7824
柞	-12.7824
禬	-12.7824
迴眞下映入兆	-12.7824
尻	-12.7824
瘤	-12.7824
箠	-12.7824
煆	-12.7825
騏驎騄耳	-12.7825
夤	-12.7825
訢	-12.7825
䆮	-12.7825
匪寇婚媾	-12.7825
𩀱	-12.7825
坯	-12.7826
婚姻可成六甲生男田蠶大熟六畜興旺	-12.7826
鷺	-12.7828
自古皆有死民無信不立	-12.7828
秧	-12.7829
礀	-12.7829
唫	-12.7829
曰紀異也此禄去公室政在公子遂之應	-12.7829
佛心普照大師	-12.7829
噍	-12.7829
垤	-12.7829
柸	-12.7829
季二套每年	-12.7829
杇	-12.7829
稗	-12.783
蓴	-12.783
父子有親君臣有義夫婦有别長	-12.783
載馳載驅周爰咨	-12.783
以印劍付	-12.7832
度人録仙制星制魔制水	-12.7832
挲	-12.7832
聞其風而悅之	-12.7832
騘	-12.7832
方行來之龍皆	-12.7832
又經八百刼	-12.7833
守素紹祖崇法安恬樂靜玄同大	-12.7833
敕勅正一嗣教真人張宇清	-12.7833
有所自而自有所然而然	-12.7833
孳	-12.7834
嶢	-12.7834
驍	-12.7835
映普告萬靈天神地	-12.7835
今日大吉皆得光明五帝	-12.7835
每一年而一變者	-12.7835
及諸名山洞玄洞虚洞空洞仙	-12.7835
正一嗣教致仕大真人張玄慶	-12.7835
詔隨父入朝	-12.7835
趄	-12.7836
甯	-12.7836
鎰	-12.7836
公子季札甞聘	-12.7836
左傳鄭大夫子産	-12.7836
鴿	-12.7836
緲	-12.7837
三天扶教輔元大法師	-12.7837
涣汗其大號	-12.7839
印壽杖庫姚紫紅異毛虛貫刑刃哭貴	-12.7842
揵	-12.7842
焄蒿悽愴	-12.7843
欷	-12.7844
齗	-12.7846
忭	-12.7848
潨	-12.7848
尋訪張三丰	-12.7848
蜷	-12.7848
骼	-12.7848
壻	-12.7848
魃	-12.7849
恧	-12.7851
呐	-12.7851
莅	-12.7853
故勅廣運永樂	-12.7854
壽命百年安樂延祥消災延壽降大吉祥	-12.7859
偏眼邪視	-12.786
末刻先尅	-12.7864
鮐	-12.7865
蹌	-12.7872
時上四刻無尅破	-12.7875
琇	-12.7878
哪	-12.788
棐	-12.788
㖡	-12.7882
更生永命天尊	-12.7886
日建玉樞㑹以保一月之安初七日西斗	-12.7903
𡟬	-12.7908
者徒三年一法官	-12.8281
十三五二十三三二奎十六十二	-12.8397
九五九十一十	-12.9015
消灾觧厄天尊下䧏	-12.9849
晨之精思之還反真形修	-13.0556
五十七十六十五六十二四二十二二	-13.0639
曰見善而不能舉惡惡而不能去所以亡	-13.078
上起太陽順數至所用之時即是命宫	-13.1009
壽筭爲我守護看經功德	-13.1013
又一年救度二十人以上遷	-13.1032
巡按御史查提	-13.1044
匪我求童蒙童蒙求我	-13.1055
𩇯	-13.1065
而不爲之尚也則將取其無所	-13.1065
蒙以養正聖功也	-13.1067
誄	-13.1067
變易地支之陰陽五行	-13.1071
眈	-13.1077
眎	-13.1077
餚	-13.1078
十一二八星初十八畢十六十三十一	-13.1078
嚇	-13.108
七五十一三一九三四	-13.108
二十二一十七四七八二十七	-13.108
申子辰人坐命穴皆在	-13.108
𧨨	-13.1082
氏十六七十三五二十三三	-13.1083
嗒	-13.1084
闃	-13.1084
不寧方來上下應也	-13.1084
藕	-13.1086
綿綿若存用之不勤	-13.1086
葑	-13.1086
厝	-13.1086
宅如值此星者	-13.1086
造作嫁娶葬埋	-13.1086
㠋	-13.1088
圾	-13.1088
槲	-13.1088
摩訶迦葉	-13.1088
怨豈在明不見是圖	-13.1088
七二七九十二十	-13.109
幙	-13.109
窖	-13.109
錚	-13.1092
下至魚龍變化飛走潜動生化之期並俟	-13.1092
之籍星宿照臨國土分野之薄中至人品	-13.1092
昕	-13.1092
㧾	-13.1092
莪	-13.1092
絯	-13.1094
官集聖之日録奏分别隨	-13.1094
嘐	-13.1094
改形隨福受報隨劫轉輪隨業生	-13.1094
十五十六十六五十一十六二三	-13.1094
州今北直隸	-13.1094
倀	-13.1096
豔	-13.1096
扄	-13.1096
九三十五十四十三四十二	-13.1096
澮	-13.1098
天子五載一廵狩	-13.1098
仙秘籙一部髙上神霄玉清真王	-13.1098
纇	-13.1098
内無怨女外無曠	-13.11
㭿	-13.11
櫨	-13.11
四十二二十參初胃十五十三九三十五	-13.11
兵征大宛北出玉門與胡	-13.11
缻	-13.11
菁菁者莪在彼中	-13.11
十七六十二十六十四十一九五九十一	-13.1101
六十一一五三婁	-13.1101
七十二二六四胃一八十牛六一	-13.1101
䇺	-13.1101
优	-13.1102
四六六五十五四六	-13.1102
遝	-13.1102
𤔵	-13.1102
有匹配之賢而	-13.1102
牓	-13.1102
無鞅數衆悉令下降覆護受持是此經	-13.1102
亦既見止亦既覯止我心則	-13.1102
市八佾列陳飲御嘉友八佾舞列也	-13.1102
椁	-13.1103
恊時月正日同律度量衡	-13.1103
帟	-13.1104
酹	-13.1104
生而不有爲而不恃長而不宰是謂玄德	-13.1104
喜忌與宫主同坐	-13.1104
木生火火生土土生金金生水水	-13.1104
身命官福田財妻嗣	-13.1104
東嶽大生天齊仁元聖帝	-13.1104
身疾悲無辜背憎	-13.1104
歸馬于華山之陽放牛于桃林之野	-13.1104
長二十五里壽命八萬七千歲衣食自然	-13.1105
舜升大禹石夷之野徴	-13.1105
訩	-13.1105
宂	-13.1105
暾	-13.1105
特興某解災迍皈命孔雀明王尊	-13.1105
玉皇大天尊玄穹高上帝	-13.1105
參差荇菜左右	-13.1105
易剥卦上九君子得輿小人剥廬	-13.1107
篿	-13.1107
䥴	-13.1107
多技巧竒物滋起	-13.1107
紙錢結界異香襲人夜現天燈之瑞	-13.1107
飲酒醉酗跳	-13.1107
七三七九八七十五四十十四	-13.1107
夏舜禹有天下之號	-13.1107
非汝有是天地之委	-13.1107
靡不有初鮮克有終	-13.1107
十二十一二八星初十八畢十六	-13.1108
地支亥卯未全地支寅午戌全地支	-13.1108
臉	-13.1109
簦	-13.1109
腮	-13.1109
若亡下士聞道大笑之不笑不足以爲道	-13.1109
應聘齊秦百里奚事秦寗越事齊	-13.1109
拮	-13.1109
潸	-13.1109
十九五二十九參九八六壁一	-13.1109
或寅卯辰全或巳午未全丑未全	-13.1109
秭	-13.1109
隂變爲陽女化爲男治道	-13.1109
軫九張十四栁四井八畢六胃三奎一	-13.111
十三十二三九一十九觜初十四十二八	-13.111
姁	-13.1111
含德之厚比於赤子	-13.1111
常善救人故無棄人常善救物故無棄物	-13.1111
李簡謝雨文	-13.1111
是故甚愛必大費	-13.1111
二十二七八一一女初十	-13.1111
司命司録司功司殺	-13.1111
我無事而民自富我無欲而民自樸	-13.1111
故知足之足常足矣	-13.1111
皈依道同此結良因共生極樂國龍華	-13.1111
臠	-13.1111
三代之所以直道而行	-13.1111
喓	-13.1111
四二十八八七五室十七二二十三三四	-13.1111
平王之孫齊侯之子	-13.1111
庚子庚午庚申乙卯乙酉	-13.1111
拔茅茹以其彙	-13.1111
温山松栢常茂不落	-13.1111
桒	-13.1111
順行一宫强記三十度有奇視天行不及	-13.1111
徠	-13.1113
俐	-13.1113
瑁	-13.1113
𦁕	-13.1113
一十二十三一七十二十三觜初十八一	-13.1113
亘萬古而不易者也	-13.1113
人人得長壽箇箇樂昇	-13.1113
畏懼啄口無註	-13.1113
贄見王百里寗	-13.1113
乙星名成王封周公之子伯禽於魯	-13.1113
侵魯戰于長勺車馳卒奔齊師敗績事見	-13.1113
惋	-13.1113
甲子甲寅甲午甲申	-13.1113
異國殊俗情不相得金木	-13.1113
角亢氐房心尾箕	-13.1113
邲	-13.1113
即得亡者鬼籍盡除神生凈土	-13.1113
浡	-13.1113
獯	-13.1113
而又過一度弱視天行不及	-13.1113
長樂行觴千秋起舞拜受大福無註	-13.1113
鼂	-13.1113
牛初五心初二軫一六井三十井初九七	-13.1114
嫚	-13.1115
味視之不足見聽之不足聞用之不可既	-13.1115
足息肩有所忌難金城	-13.1115
璜	-13.1115
軼	-13.1115
聮	-13.1115
孔徳如玉出於幽谷	-13.1115
鹿鳴食野之苹我有嘉賔鼓瑟吹笙	-13.1115
二色之雲坐則九色獅子光明	-13.1115
奔走俱入茂草驚於長	-13.1115
忡	-13.1115
惑女謁横行正道壅塞	-13.1115
玉虛師相玄天上帝	-13.1115
王者徳至於天和氣感則甘露降于松栢	-13.1115
碧霞元君護國庇民普濟保生妙經	-13.1115
郗	-13.1115
霂	-13.1115
青牛白咽呼我俱田歴山之下可以多耕	-13.1115
旱水涸枯槁無澤	-13.1115
澁	-13.1115
𪔂	-13.1115
菩	-13.1116
部八景神童名字	-13.1117
琚	-13.1117
鄖	-13.1117
慹	-13.1117
郛	-13.1117
徉	-13.1117
廠	-13.1117
羝羊觸藩	-13.1117
覕	-13.1117
佒	-13.1117
南方梵寶昌陽丹靈眞老赤帝	-13.1117
卯辰已午未申酉	-13.1117
后妃以君子不在而思念之	-13.1117
天下神器不可爲也爲者敗之執者失之	-13.1117
延頸望酒不入我口	-13.1117
賊仁傷徳天怒不福斬刈宗社失其	-13.1117
隟	-13.1117
春木夏火秋金冬水	-13.1117
罽	-13.1117
蔽芾甘棠勿剪勿	-13.1117
張十四柳四井八畢六	-13.1118
戇	-13.1119
䘒	-13.1119
扺	-13.1119
蠖	-13.1119
𤑔	-13.1119
芫	-13.1119
既醉以酒既飽以德	-13.1119
衆鳥所翔中有大	-13.1119
儛	-13.1119
去嵩髙五萬里地之中其髙萬一千里出	-13.1119
挐	-13.1119
琹	-13.1119
赩	-13.1119
颸	-13.1119
乙亥丙子丁丑戊寅己卯庚辰辛巳	-13.1119
同人于野亨利涉大川	-13.1119
大道元景君則変形爲	-13.1119
天曹掠剰下䧏初三日北極北斗下䧏初	-13.1119
家因之始足以推	-13.1119
有以異乎曰無以異也夫	-13.1119
望尚阿衡太宰周公藩屏	-13.1119
瀺	-13.1119
玉真九天丈人則化形爲	-13.1119
甲子乙丑丙寅丁卯戊辰己巳	-13.1119
百足俱行相輔為	-13.1119
註馬不相見故鳴班别也	-13.1119
踐履危難脫厄去患入福喜門見	-13.1119
道者道亦樂得之	-13.1119
釋迦牟尼佛	-13.1119
鹿逐牧飽歸其居	-13.1119
七九八七十五四	-13.112
畢六胃三奎一危十二女一斗三	-13.112
顫	-13.1121
楠	-13.1121
渉雚澤爲矢所射傷我胷臆無註	-13.1121
霖潦暴溢	-13.1121
敢素餐而具位	-13.1121
劖	-13.1121
漢田千秋一日九遷其官	-13.1121
人之所教我亦教之	-13.1121
公傷股二十三年五月公卒傷於泓故也	-13.1121
天地配享六位光明隂陽順	-13.1121
清人髙子乆屯外野逍遥不歸思我	-13.1121
裀	-13.1121
式克至今日休	-13.1121
猿墮髙木不踒手足	-13.1121
登崑崙入天門過糟丘宿玉泉	-13.1121
鉦	-13.1121
驤	-13.1121
丙戌丁亥戊子己丑庚寅辛卯壬辰癸巳	-13.1121
亦未爲難諸仙化後	-13.1121
元甲子年中宫起	-13.1121
危十二女一斗三尾二氐一	-13.1121
己亥庚子辛丑壬寅癸卯甲辰乙巳	-13.1121
棫	-13.1121
華不得實讒佞亂政使	-13.1121
辛亥壬子癸丑甲寅乙卯丙辰丁巳戊午	-13.1121
惡人使徳不通炎	-13.1121
劬	-13.1121
窕	-13.1123
界於地支之兩間	-13.1123
乆留連處季女齊子齊襄公	-13.1123
利用爲依遷國	-13.1123
皇考皇妣之	-13.1123
篝	-13.1123
儕	-13.1123
有肥牡以速諸舅	-13.1123
飄風不終朝驟雨不終日	-13.1123
史記楚項梁西擊秦破章邯引兵至定陶	-13.1123
嫫母黄帝次妃貌醜而賢	-13.1123
汒	-13.1123
不菑畲則利有攸徃	-13.1123
主陽和之氣理於東方亦號	-13.1123
二人輦車徙去其家井沸釡鳴不可	-13.1123
公尸燕飮福禄來	-13.1123
南極冲虚妙道真君	-13.1123
右弼金玉滿堂常盈不亡冨如敖倉無註	-13.1123
地支又臨金局地支又臨水局	-13.1123
授正一嗣教護國闡祖通誠崇道弘德大	-13.1123
東鄰殺牛不如西鄰之禴	-13.1123
無面從退有後言	-13.1123
猩	-13.1123
獠	-13.1123
魔王魔民魔女	-13.1123
太清大道君則変形爲	-13.1123
孰主張是孰綱維是	-13.1123
書曰甲子昧爽王朝至于商郊牧野伐紂	-13.1123
玭	-13.1123
窶	-13.1123
形化九千萬丈	-13.1124
於夜而宜於晝	-13.1124
詩伐檀篇云胡瞻爾庭有縣貆	-13.1125
㳙	-13.1125
㡳	-13.1125
善助慈懿恭靜仙妃	-13.1125
志心皈命禮靈濟殿内燕喜堂中	-13.1125
可以出入造化遊戲死生	-13.1125
囱	-13.1125
綆	-13.1125
覦	-13.1125
上德不德是以有德	-13.1125
武王勝殷包藏弓矢戢弭干戈以示弗用	-13.1125
痞	-13.1125
芾	-13.1125
龍頭頸文章未成甘言羙語	-13.1125
榛	-13.1125
氷發氷以節陽氣之盛是以無灾霜雹也	-13.1125
秦兵於雍斬李由梁益輕秦有驕色宋義	-13.1125
令持誦解災迍孔雀明王經孔雀明王尊	-13.1125
區脫與甌脫同土室也胡人	-13.1125
妄之藥不可試也	-13.1125
家堯舜唐虞二帝也	-13.1125
尹氏伯竒父子	-13.1125
恩拜徳東歸吾國	-13.1125
於碧海之上蒼靈之墟	-13.1125
獨特處莫依爲輔心勞志苦無註	-13.1125
禮者忠信之薄而亂之首也	-13.1125
籧	-13.1125
臣誠惶誠恐	-13.1125
蛆	-13.1125
馗	-13.1125
齎貝贖狸不聴我辭繫	-13.1125
噐奔周其後武王伐紂遂	-13.1125
堯舜之民皆以堯舜之心爲心	-13.1125
極子孫千億栢柱載青堅固不傾無註	-13.1125
洴	-13.1125
畲	-13.1125
藪非人所處鳥獸無禮使我心苦無註	-13.1125
袱	-13.1125
窾	-13.1126
擯	-13.1127
王孫季子相與爲友明	-13.1127
㸑	-13.1127
春秋冬夏四時行	-13.1127
狟	-13.1127
家給人足頌聲並作四夷賔	-13.1127
忌火羅木星喜金水相涵不宜	-13.1127
戣	-13.1127
爲徳行不失理民頼恩福五	-13.1127
爲者敗之執者失之	-13.1127
篲	-13.1127
邑于岐山之下	-13.1127
敗祥陳師合戰	-13.1127
不見可欲使心不亂	-13.1127
斿	-13.1127
椅	-13.1127
涊	-13.1127
父娶後妻而譛伯竒	-13.1127
瘍	-13.1127
鬲	-13.1127
不便不能出言精	-13.1127
五鬼正南死門東北	-13.1127
六日建玉樞㑹以保一月之安𥘉七日	-13.1127
天孫帝子與日月處光榮於世福禄	-13.1127
武王伐紂遂歸周封於朝鮮	-13.1127
海州朐山人也	-13.1127
澼	-13.1127
華首陽皆山名	-13.1127
衵	-13.1127
追亡逐北呼還㓜叔至	-13.1127
一作嗌不嗄黄茂材	-13.1129
黠	-13.1129
吾是以知無爲之有益	-13.1129
山名四瀆江河淮濟	-13.1129
鵲食榖張口受哺	-13.1129
守君不失國無註	-13.1129
嵿	-13.1129
祅	-13.1129
咐	-13.1129
爲壇除地爲禪古者帝王之興	-13.1129
上德無爲而無以爲下德爲之而有以爲	-13.1129
且温伊吕股肱國	-13.1129
人氷人也按詩傳蘇	-13.1129
冨王以振貸捕魚河海	-13.1129
孫氏奔齊及庚宗遇婦人宿焉生子曰牛	-13.1129
彛	-13.1129
歸告魏相魏齊	-13.1129
蕚	-13.1129
五鬼西北死門正北	-13.1129
俗人昭昭我獨若昏俗人察察我獨悶悶	-13.1129
剗	-13.1129
危復立鴟鴞破斧皆	-13.1129
天之奥隅堯舜所居	-13.1129
如能變化除去之如田之	-13.1129
拽	-13.1129
日喜神西南貴神西北五鬼	-13.1129
晳	-13.1129
有孚惠心勿問元吉有孚惠我德	-13.1129
欲上不得復歸其宅無註	-13.1129
獺	-13.1129
珓	-13.1129
禹召諸侯㑹稽南山執玉萬國天下康	-13.1129
篦	-13.1129
絖	-13.1129
蜆	-13.1129
銛	-13.1129
鴶	-13.1129
宿者以太陽爲度主	-13.113
逡	-13.113
五十七八十十九四九十	-13.113
爗	-13.113
日月運行一寒一暑	-13.113
乾道成男坤道成女	-13.1131
儀生四象四象生八卦	-13.1131
单	-13.1131
黏	-13.1131
尚也阿衡伊尹也太宰官名周公爲太宰	-13.1131
禔	-13.1131
匈奴傳康居國名湛露天子燕諸侯之詩	-13.1131
摟	-13.1131
瞠	-13.1131
石鑿鑿素衣朱襮從子于沃旣見君子云	-13.1131
綖	-13.1131
趂	-13.1131
乃得全完頼其生福無註	-13.1131
二官考校罪福	-13.1131
五鬼正南死門正東	-13.1131
加封高氏太玄君誥	-13.1131
南極遐齡老人臞仙	-13.1131
大洞眞經一部八卷法詞一卷合同環	-13.1131
宗封禪玉牒文	-13.1131
從心所欲不踰矩	-13.1131
懿公淺愚不深受謀無援失國	-13.1131
授正一教主嗣漢	-13.1131
文昌司録上宰	-13.1131
武王伐紂甲子昧爽王朝至于商郊	-13.1131
流精紫闕金華瓊堂	-13.1131
然逺咎避患害早田	-13.1131
畢仰嚥七氣止此	-13.1131
絀	-13.1131
聪	-13.1131
芩	-13.1131
蝱	-13.1131
襯	-13.1131
采用鴈事見春秋魯昭公元年殷叔未詳	-13.1131
𩝫	-13.1131
萸	-13.1132
屎	-13.1132
窄	-13.1132
銳解其紛和其光同其塵	-13.1132
癬	-13.1132
腴	-13.1132
長大成就柔順利貞君臣合好無註	-13.1132
碭	-13.1132
上清之上思之還長三寸二分	-13.1132
晨風篇云鴥彼晨風	-13.1132
爹	-13.1132
道風伯逐殃廵狩封禪以告成	-13.1132
顔魯公題名	-13.1132
𠜇	-13.1132
㦲	-13.1132
三年狄人伐衛懿公好鶴鶴有乗軒者將	-13.1132
不如其娣之袂良	-13.1132
乾道變化各正性命	-13.1132
人危殆頼其忠徳轉禍爲福	-13.1132
旺則宜尅宜洩	-13.1132
毉	-13.1132
洊	-13.1132
淝	-13.1132
膚敏之徳發憤	-13.1132
膠車駕東與雨相逢	-13.1132
萱	-13.1132
六春秋時二小國見春秋魯文公十八年	-13.1132
印壹顆描金檀香匣一箇紅絨錦襯裏	-13.1132
唯虛故能受天下之	-13.1132
方諸天地日月星宿山洞	-13.1132
日衰條多枯枝爵級不進	-13.1132
期徼於嘉國拜爲逢時無註	-13.1132
牝雞雄晨主作亂	-13.1132
祍	-13.1132
禍憂赤松王喬皆古仙人	-13.1132
紅絹銷金羅夾袱壹條	-13.1132
詩羔羊之皮素絲五紽羔羊之革	-13.1132
逐之言無罪而見逐皆後母長舌所爲也	-13.1132
采唐沬郷要期桑中失信不㑹憂思約帶	-13.1132
靚	-13.1132
𡱝	-13.1132
其爲賊敵乃可服	-13.1134
同聲相應同氣相求	-13.1134
三十四十三十四十五三十	-13.1134
似不肖若肖久矣其細	-13.1134
執斧破薪使媒求婦和合二姓親	-13.1134
崐	-13.1134
捏	-13.1134
艘	-13.1134
鏁	-13.1134
月公至自齊居于鄆三十二年薨于乾侯	-13.1134
獗	-13.1134
瞎	-13.1134
兵益章邯擊楚軍大破之定陶項梁死焉	-13.1134
大中祥符四年五月日追尊帝號	-13.1134
春鴻飛東以馬	-13.1134
誘掖奬勸之	-13.1134
二十字皆太上無上大光明圓滿大神呪	-13.1134
劘	-13.1134
君子以寧履徳不愆福禄	-13.1134
張翅來從其母無註	-13.1134
所予福禄常在不憂危殆無註	-13.1134
日中留北邑復反其室無註	-13.1134
書弱水旣西柳宗元曰西海之山	-13.1134
朱草百草之精也王者徳無所不通則生	-13.1134
永安留守查元帥	-13.1134
湯聘之進於桀桀不能用復歸于湯	-13.1134
金鞭駕火輪	-13.1134
隽	-13.1134
馬服長股冝行善	-13.1134
鼇	-13.1134
䪡	-13.1134
壽如松喬與日月俱常安康樂不	-13.1134
天之奥府衆利所聚可以饒有樂我君子	-13.1134
娶棠姜筮之其繇曰入其宫不見其妻凶	-13.1134
玉府五雷使院	-13.1134
璆	-13.1134
鑿井求玉非卞	-13.1134
雷行相逐無有休息戰	-13.1136
乾元用九乃見天則	-13.1136
感慈惠護國庇民崇福洪恩眞君	-13.1136
剸	-13.1136
惝	-13.1136
臈	-13.1136
淟	-13.1136
㬰	-13.1136
摺	-13.1136
鳬鴈啞啞以水爲	-13.1136
在手足不得安息無註	-13.1136
拜禮陳蔡大夫謀曰楚	-13.1136
翾	-13.1136
闉	-13.1136
鵠思其雄欲隨鳯東順理羽翼出次	-13.1136
鹿求其子虎廬之里唐伯季耳貪不我許	-13.1136
𤓰	-13.1136
三羖五牂相	-13.1136
上皇玉虛君則變形	-13.1136
之次其應甲丙庚壬	-13.1136
唃	-13.1136
按韻註鍾口	-13.1136
桓公九年春紀季姜歸于京師爲桓王后	-13.1136
武安留守邊元帥	-13.1136
爵出圭俯伏興	-13.1136
琞	-13.1136
畢還北向叩齒十二通閉眼	-13.1136
神得一以靈谷得一以盈	-13.1136
綰	-13.1136
跪搢圭獻爵出圭俯伏興平身	-13.1136
郾	-13.1136
三十九代天師太玄	-13.1137
烜	-13.1138
憍	-13.1138
志心皈命禮靈濟宫中燕喜堂内	-13.1138
垊	-13.1138
獨立而不改周行而不殆可以	-13.1138
唶	-13.1138
楣	-13.1138
皆太上無上大光明圓滿	-13.1138
禩	-13.1138
張弓祝雞雄父飛去	-13.1138
蠢動蜎息一切𡨋靈	-13.1138
爲物也欲復歸根不亦難乎其易也其	-13.1138
俺	-13.1138
妻東郭棠姜武氏	-13.1138
得中原文獻之傳	-13.1138
手之舞之足之蹈之	-13.1138
日出阜東山蔽其明章	-13.1138
禮義不行兼吞其國齊	-13.1138
覌	-13.1138
三皇時下降爲太	-13.1138
公尸燕飲福禄來	-13.1138
匿而不可不爲者事也	-13.1138
太公辟紂居東海之	-13.1138
指喻指之非指也	-13.1138
歛時五福用敷錫厥庶民	-13.1138
淮南子云文王有四乳	-13.1138
節度使左監門魏元帥	-13.1138
翕音吸䡘音田	-13.1138
聚相與議語南國虐亂百姓愁苦興師征	-13.1138
荣	-13.1138
辤	-13.1138
鞠躬拜興拜興拜興拜興平身	-13.1138
逑	-13.114
閾	-13.114
鱔	-13.114
杌	-13.114
滲	-13.114
韭	-13.114
女其姝俟我於城隅愛而不見搔首踟蹰	-13.114
河出圖洛出書聖人則之	-13.114
溷	-13.114
而死其子葷粥妻桀之衆妾避居北野	-13.114
豵	-13.114
以其互内層之	-13.114
堯唐帝名舜虞帝名	-13.114
褲	-13.114
𤑔向爐中遥空供養	-13.114
一指食肉口無所得	-13.114
安息康居異國	-13.114
帝章畢再禮朝玉真	-13.114
懂	-13.114
明百流歸徳無有叛逆常饒優足書禹貢	-13.114
機内外事從一九天	-13.114
櫳	-13.114
照南贍部洲	-13.114
禹鑿龍門通利水	-13.114
膜	-13.114
若石云于陳倉北坂城祠之其神	-13.114
莫知其所以然而然者矣	-13.114
號曰陳寳又臣瓉云陳倉縣有寳夫人祠	-13.114
註曰漢書郊祀志云文公	-13.114
誰謂女無家何以速我	-13.114
雞失羊亡其金囊利	-13.114
齁	-13.114
𢗲	-13.114
𨶒	-13.114
壇每壇羊一豕一籩	-13.114
悟法淵默靜虛闡道弘化妙應大真人	-13.114
旛竿上現五色瑞光十	-13.114
松喬彭祖西過王母道里夷易無敢難者	-13.114
豈其取妻必齊之姜豈其取妻必宋之子	-13.114
二十七日北極北斗下䧏二十八日	-13.1141
謭	-13.1142
以正治國以竒用兵	-13.1142
党	-13.1142
制水祕文四十八字	-13.1142
我守護看經功德消災延壽降大吉祥	-13.1142
年命分獻星辰壇	-13.1142
槢	-13.1142
燐	-13.1142
玫	-13.1142
知秦興起卒兼其國一統爲主	-13.1142
䦕	-13.1142
獹	-13.1142
誠惶誠懼頓首頓首	-13.1142
長五千萬丈冬三月	-13.1142
䔩	-13.1142
三人俱行北求大牂長孟病足	-13.1142
之道造端乎夫婦	-13.1142
兕無所投其角	-13.1142
和其光同其塵	-13.1142
嗣天師張嗣成	-13.1142
嫉妬亂我業事東壁星名	-13.1142
尢	-13.1142
平國不君夏氏作亂烏號	-13.1142
悋	-13.1142
揪	-13.1142
日中爲市各抱所有交易	-13.1142
昔賈大夫惡娶妻而	-13.1142
根不固華葉落去	-13.1142
無與勝母盗泉君	-13.1142
牽尾不前逆理失臣	-13.1142
芍	-13.1142
㝡	-13.1142
䏂	-13.1142
上香香至靈濟宫遍靈濟宫	-13.1142
嘗又與來明日又與之見壺子	-13.1142
子公怒染指於鼎甞之而出	-13.1142
尠	-13.1142
曰將君我而與我齒讓何也曰	-13.1142
舌饞於腹左傳鄭公解黿召子公而弗與	-13.1142
都鄙有章上下有服田有封洫廬井有伍	-13.1142
𢡟	-13.1142
魑	-13.1144
杗	-13.1144
史記秦始皇造作驪山	-13.1144
犒	-13.1144
三元道炁二象攝生	-13.1144
度者度未成者成已死即生已枯	-13.1144
泪	-13.1144
爲學日益爲道日損	-13.1144
瓮	-13.1144
魔祕文三十二字書	-13.1144
韓世忠戰大儀鎮吴玠戰和尚原	-13.1144
典䇿法書藏	-13.1144
宝	-13.1144
稂	-13.1144
萬化祖根衆生慈母	-13.1144
𤇆	-13.1144
出生入死生之徒十有三死之徒十有三	-13.1144
北向平坐叩齒十二通思	-13.1144
啟	-13.1144
喭	-13.1144
失德而後仁失仁而後義失義而後禮	-13.1144
狄人伐衛衛立戴公	-13.1144
王母神仙以東華至真之氣化生	-13.1144
纚	-13.1144
罇	-13.1144
身旺宜財身弱	-13.1144
遂意行人立至官事有理求官必達	-13.1144
醊	-13.1144
雚	-13.1144
不可不高者德也一而不可不易者道也	-13.1144
兩足四翼飛入家國寧我伯	-13.1144
日宫太陽帝君月府太隂皇君	-13.1144
榮陽羿后羿善射烏號弓名天狼獸名	-13.1144
瀬	-13.1144
筝	-13.1144
紫精三素元君則変形	-13.1144
蕤	-13.1144
貴爲天子富有四海	-13.1144
我守護念經功德消災延壽降大吉祥	-13.1145
之日清齋入室西	-13.1145
瞭	-13.1146
彿	-13.1146
噤	-13.1146
遹	-13.1146
瀁	-13.1146
物固相累二類相召也	-13.1146
髣	-13.1146
大帝勾陳星宫天皇大帝	-13.1146
噎	-13.1146
道闡玄弘教大真人	-13.1146
龍漢蕩蕩無形無名渺渺億	-13.1146
和衆等一心供養散花	-13.1146
獝	-13.1146
見不出視聞不出聽	-13.1146
曖	-13.1146
仭	-13.1146
延陵適魯觀樂太史車	-13.1146
曽參殺人者曽母不信及三人言之曽母	-13.1146
蔡侯亦服其一子常欲之弗與三年止之	-13.1146
齟	-13.1146
外國與母分離無註	-13.1146
失旅後時利走不	-13.1146
正一嗣教大真人掌天下道教事張彦頨	-13.1146
畢仰嚥十二氣止	-13.1146
聖父齊王忠武翊亮眞君	-13.1146
腪	-13.1146
遣内官監太監	-13.1146
猨墮髙木不踒手足	-13.1146
町	-13.1146
羿張烏號彀射天狼	-13.1146
臣終於背渉竟死於莊賈之難出陳渉傳	-13.1146
嶇	-13.1148
巗	-13.1148
照明上清思之還	-13.1148
次丁未上元吉日正一嗣教凝誠	-13.1148
繙	-13.1148
𠎝	-13.1148
槖	-13.1148
縹	-13.1148
饁	-13.1148
兹蓋伏遇昊天玉皇上帝玉	-13.1148
南有嘉魚駕黄取	-13.1148
温靜柔順玄君	-13.1148
夏桀無道湯放	-13.1148
曽母投杼一簧者即詩所謂巧言如簧	-13.1148
糖	-13.1148
臏	-13.1148
重爲輕根靜爲躁君	-13.1148
魯定公三年冬蔡昭侯適楚獻	-13.1148
鸇鳩徙巢西至平州遭逢雷	-13.1148
勩	-13.1148
吷	-13.1148
無烈風淫雨海	-13.1148
脹	-13.1148
譟	-13.1148
鴨	-13.1148
上啓虚無妙道十極高真	-13.1148
天子廵行諸侯所守之地	-13.1148
羭	-13.1148
梏	-13.115
异	-13.115
糅	-13.115
至柔而動也剛至靜而德方	-13.115
軍民諸色人等	-13.115
作牙孽生逹義通	-13.115
免入朝勅皇帝勅諭正一嗣教大	-13.115
晰	-13.115
紫陽雲錦之囊	-13.115
䕷	-13.115
嘷	-13.115
以予爲多學而識之者	-13.115
剛徤中正純粹精	-13.115
淮海天之都市商人受福國家冨有無註	-13.115
王良古之善御者伯樂古之善相馬者	-13.115
能制虎見鵲仰地淮南畢萬曰鵲令	-13.115
辱於鵲郭璞曰	-13.115
䑓名婦人謂嫁曰歸一娶九女而俻三姓	-13.115
啓户幽人利貞鼓翼起舞	-13.115
我葦廬室家飢寒思吾故	-13.115
靈寳天尊說洪恩靈濟眞君妙經	-13.115
頨	-13.115
高上虛皇君則化形	-13.115
鶡	-13.115
瞤	-13.115
說其報應惡趣之苦	-13.115
道與之貌天與之形	-13.115
褅	-13.1152
管領江南諸路道教事	-13.1152
蠐	-13.1152
砍	-13.1152
躩	-13.1152
儡	-13.1152
雛常與母俱抱雞	-13.1152
太歲之日清齋入室	-13.1152
販繒屠狗	-13.1152
交趾南有越裳氏重	-13.1152
属雍州在今馮翊夏陽縣	-13.1152
惡賊悉自退散	-13.1152
邴	-13.1152
鉛刀攻玉堅不可得	-13.1152
吾誰欺欺天乎	-13.1152
和恱相樂無註	-13.1152
天皇至道太清玉册	-13.1152
屺	-13.1152
曾謂泰山不如林放	-13.1152
魯僖公二十二年宋襄公及楚人戰于泓	-13.1152
濔	-13.1152
矣豈弟君子俾爾彌爾性	-13.1152
鴂	-13.1152
形長九千萬丈	-13.1153
稽首皈依無極大道爲上良因志心稱念	-13.1153
槃	-13.1154
詩干旄篇云孑孑干旄在浚之郊	-13.1154
湟	-13.1154
艸	-13.1154
桀夏桀跖盗跖	-13.1154
三之日于耜四之日舉趾	-13.1154
之次其應癸乙丁辛	-13.1154
損之又損之以至	-13.1154
莫見乎隱莫顯乎	-13.1154
暱	-13.1154
生天生地生人生萬物	-13.1154
鄊	-13.1154
陁	-13.1154
云有鶴爲弋人所射窮而歸噲參參收	-13.1154
胔	-13.1154
青瓊之板金書玉字	-13.1154
修后稷公劉之業積徳行義國人皆戴之	-13.1154
浸假而化予之	-13.1154
清境所出號洞	-13.1154
蘸	-13.1154
慷	-13.1155
鈃	-13.1156
禊	-13.1156
觚	-13.1156
非方四面廣狹	-13.1156
命分獻東鎮壇	-13.1156
其寢不夢其覺	-13.1156
尪	-13.1156
敇	-13.1156
濂洛關閩之學	-13.1156
贓	-13.1156
遙	-13.1156
四張鳥無所翔征伐困極飢窮不食無註	-13.1156
貫魚以宫人寵	-13.1156
云髙宻禹所封之國	-13.1156
四亂不安東西爲患退	-13.1156
秦穆公違蹇叔之	-13.1156
陏	-13.1156
顕	-13.1156
傷䴸音孚䵃古猛切	-13.1156
喔	-13.1156
昺	-13.1156
濆	-13.1156
甎	-13.1156
福徳之士懽恱日喜夷吾相	-13.1156
稲	-13.1156
蜴	-13.1156
詔携嗣子入	-13.1156
貪嗔癡暗縱三心	-13.1156
𢃄	-13.1156
尨	-13.1156
翺	-13.1157
袐	-13.1157
戌丑未爲中元	-13.1157
艧	-13.1157
乙丁己辛癸	-13.1158
璿	-13.1158
移風易俗使天下回心	-13.1158
黄帝出遊駕龍乗馬東上	-13.1158
之户便㣲祝曰	-13.1158
君詩周南桃夭篇	-13.1158
㓜有序朋友有信	-13.1158
撫山東地方都察院右副都御史沈應龍	-13.1158
母仁壽淑善仙妃	-13.1158
爲伯益之佐伯虎疑即仲虎也五教	-13.1158
絲線縧白	-13.1158
蒜	-13.1158
質諸鬼神而無疑	-13.1158
醺	-13.1158
志心皈命禮靈濟宫中親睦堂内	-13.1158
楗	-13.1158
篩	-13.1158
繩愆糾繆	-13.1158
騅	-13.1158
踔	-13.1159
黥	-13.1159
兂	-13.1159
耰	-13.1159
天師太玄輔化體仁	-13.1159
砢	-13.1159
圩	-13.1159
查邊魏趙刁五	-13.1159
長夜短日隂爲陽賊萬物空枯	-13.1159
國咸喜黄帝邑於涿鹿之阿遷徙	-13.1159
朝覲訟獄謳歌	-13.1159
蕈	-13.1159
日行四陸春東陸夏南陸秋西陸冬北陸	-13.1159
有蹈東海而死爾	-13.1159
犍	-13.1159
生也天行其死也物化	-13.1159
里迴真下映入兆	-13.1159
呦呦鹿鳴食野之	-13.1159
拌	-13.1159
白熟御羅寳相花手帕青	-13.1159
至聖至靈至柔至靜	-13.1159
舶	-13.1159
詧	-13.1159
騤	-13.1159
莢	-13.1161
太上洞玄靈寳金籙度命冥府十宫東	-13.1161
糶	-13.1161
春多膏澤夏潤優渥稼穡	-13.1161
涅	-13.1161
撈	-13.1161
翊聖保徳真君	-13.1161
聖父之慈悲父至尊之最上尊	-13.1161
之所自然生金液丹碧芝英百靈衆	-13.1161
㤕	-13.1161
㹠	-13.1161
又如上元甲子年	-13.1161
清凈持戒專一信受尊重敬慕	-13.1161
薌	-13.1161
鵓	-13.1161
常日十千萬功徳	-13.1163
不信不信民弗從	-13.1163
𨚫	-13.1163
婭	-13.1163
澌	-13.1163
篾	-13.1163
鯈	-13.1163
鳴于亳社如曰譆譆甲午宋大	-13.1163
眡	-13.1163
肹	-13.1163
棚	-13.1163
道中君則変形爲	-13.1163
鄴	-13.1163
涂	-13.1165
虛靜恬淡寂寞無爲	-13.1165
鬨	-13.1165
嬋	-13.1165
常善救人故無棄人	-13.1165
鋩	-13.1165
籯	-13.1165
𤱶	-13.1165
不言之辯不道之道	-13.1165
按書禹貢龍門属雍州在今馮翊夏陽縣	-13.1165
栅	-13.1165
隋侯見虵傷取藥封之後虵㗸珠	-13.1165
之子于歸宜其家	-13.1165
悈	-13.1165
物或惡之故有道者不處	-13.1165
香皂縐紗巾一頂深青織金火焰霞雲	-13.1165
王子逐兎犬踦不得無註	-13.1167
彂	-13.1167
按史記鄒陽書里名勝母曽子不入盗泉	-13.1167
晦其明也内難而能正其志箕子以之	-13.1167
耎	-13.1167
錫慶天尊十方靈寳天尊不可思議功德	-13.1167
假如上元甲子年	-13.1167
嘹	-13.1167
嚧	-13.1167
爾酒既㫖爾殽既	-13.1167
豈伊異人兄弟	-13.1167
緎	-13.1169
位皆節儉正直故詩人羙其衣服有常也	-13.1169
篨	-13.1169
湄	-13.1169
入于其宫不見其妻	-13.1169
瘉	-13.1169
千態萬狀愈出愈奇	-13.1169
一卦可變爲六十四	-13.1171
碾	-13.1171
極大聖至真尊神無窮無極普鍳度生地	-13.1171
帝上聖高尊眞仙聖衆下赴經壇守護	-13.1171
戺	-13.1171
菱	-13.1171
霔	-13.1171
烙	-13.1171
蜓	-13.1171
之時老君下爲師口吐	-13.1171
呼三顛摇動東西危	-13.1171
炁結而化生妙	-13.1171
道運而無所積故	-13.1171
銕	-13.1171
鑽	-13.1171
踆	-13.1173
胎含孕咸得長生亡者命過魂歸三	-13.1173
旹	-13.1173
岷	-13.1173
邀請真仙張三丰	-13.1173
閴	-13.1173
時道君答皇后言願特	-13.1173
教主嗣漢三十八代天師太素凝神廣道	-13.1173
袠	-13.1175
䄀	-13.1175
譔	-13.1175
焂	-13.1175
虔誠設拜上香酒陳	-13.1175
月初一日更每套	-13.1175
螘	-13.1175
故曰彼出於是是亦因彼	-13.1175
梲	-13.1175
誠惶誠恐稽首頓首	-13.1177
努	-13.1177
利西南徃得衆也	-13.1177
牷	-13.1177
鑪	-13.1177
梅李冬實國多	-13.1177
臀	-13.1177
之與形吾不知其異也而	-13.1177
紉	-13.1179
毬	-13.1179
與人子言依於孝與人	-13.1179
哦	-13.1179
並作王不能制春秋魯僖	-13.1179
寳殿十奇峰	-13.1179
禄印壽杖庫姚貴	-13.1179
墨翟禽滑	-13.1179
玠	-13.1179
懔	-13.1181
曶	-13.1181
簑	-13.1181
佀	-13.1181
蛉	-13.1181
老君下爲師教示	-13.1181
鶺	-13.1181
弥	-13.1183
巵言日出和以天倪	-13.1183
倜	-13.1183
照舊例起撥	-13.1183
翎	-13.1184
嘖	-13.1184
推恩申錫嘉號	-13.1184
損下益上其道上行	-13.1184
人以官使賢者在位則見	-13.1185
上起正月順數至本人生月	-13.1185
盼	-13.1185
飫	-13.1185
三皇五帝之禮義法度	-13.1186
質諸鬼神而無疑百世以俟聖人而不惑	-13.1186
壠	-13.1188
皇初紫元君則変形爲	-13.1188
𥥆	-13.1188
屯如邅如乘馬	-13.1188
慢神謗法之人	-13.1188
氣臨之時此四十五日其氣正到	-13.1188
迈	-13.119
𡚁	-13.119
誸	-13.1192
朔命分獻星辰壇	-13.1192
用拯馬壯吉	-13.1192
時中四刻無尅破	-13.1192
能令短命衆生而得長壽	-13.1192
魊	-13.1194
放之後鶴夜到門外參執燭視之鶴雌雄	-13.1194
禄印壽杖庫姚紫	-13.1194
𣶬	-13.1194
苕	-13.1196
瀕	-13.1196
癱	-13.1196
父父子子兄兄弟弟夫夫婦婦	-13.1196
纁	-13.1198
十二八二十四十三十二三九一十九	-13.1199
斗母紫光金尊聖徳天后圓明道母天尊	-13.1202
閗	-13.1202
吱	-13.1204
南有樛木葛藟	-13.1206
啗	-13.1208
㵿	-13.121
酪	-13.121
曚	-13.121
𤣱	-13.1212
鑼	-13.1213
鬮	-13.1213
矻	-13.1214
肋	-13.1215
以水㓂攻水㓂	-13.1215
垾	-13.1215
匯	-13.1221
咜	-13.1231
聖人可能或人亦可能也	-13.1235
嚤	-13.1239
爻變則占本卦	-13.1258
三月高上元皇道君則變形	-13.149
十一五十七十六十五六十二四二十二	-13.1578
廵察惡道救護衆生特與某長福消災	-13.1878
謹燃璣衡七政神燈上布	-13.1988
隆福洪恩眞君宫中神仙諸靈官	-13.1988
或臨土局或臨金局	-13.2116
十一日消灾觧厄天尊下	-13.2655
伯夷叔齊餓於首陽之下民到于今	-13.2804
譛毀群公子及世子申生恭子即申生也	-13.2921
喜入户見妻春秋齊師夜遁有班馬之聲	-13.3105
班馬還師以息勞	-13.311
齊師夜遁有班馬之聲	-13.353
師以息勞罷役夫嘉喜入户見妻	-13.3546
曰伯夷叔齊餓於首陽之下	-13.3847
或臨金局或臨水局	-13.466
玉寶元靈元老黄帝	-13.4793
察惡道救護衆生特與某長福消災增	-13.5076
之時高虚清明天	-13.5405
二十四十三十二三九一十九觜	-13.5937
初六日建玉樞㑹以保一月之安初	-13.5942
椑	-13.6011
阿諛曲從䧟君不義	-13.6026
京朝賀先朝屢有明㫖著沿途有司應付	-13.603
五位也故相得而各有合衍爲	-13.603
也咸其自取怒者其誰	-13.6033
此則當補到頭之脉以爲大勢	-13.6036
世界俱同瑠璃玻瓈	-13.6036
機也舉凢所見所遇帶有	-13.6039
皜	-13.6039
而刀刃若新發於硎	-13.6039
湜	-13.6042
笑語連手歌謳	-13.6045
以杙繫豕謂之牙	-13.6046
存形窮生立德明道	-13.6046
櫖	-13.6046
蒙亨以亨行時中也	-13.6046
梭	-13.6052
窮理以致其知反躬以踐其實	-13.6052
購	-13.6052
𥧌	-13.6055
宎	-13.6055
要嚴加戒飭軍衛有司一體應付不許遲	-13.6055
邰	-13.6055
品官職違者准前律	-13.6055
坐誦詠是經於是時也	-13.6055
者許奏仙卿違者准依前律	-13.6055
咂	-13.6058
悮事該衙門知道	-13.6058
擕	-13.6058
之所慰諭彼人罪障永得除滅	-13.6058
㢘	-13.6061
曰夫子固拙於用大矣	-13.6061
碕	-13.6061
謞	-13.6061
𥨊	-13.6061
妾耶卜氏耶律氏	-13.6061
不善業悉得消滅更不墮諸惡趣神昇九	-13.6061
光之所攝受或與同語或聞其聲如奉	-13.6061
命終時若有道心正信善男善女於亡者	-13.6061
徃刼乃至今身輪轉人天漂沉世域積千	-13.6061
昻	-13.6061
此以上八卦言伏義始作坤卦也經卦之	-13.6061
而不爲善者乎如以其善爲有所	-13.6061
身若遇是持經之人形影暫映其身如爲	-13.6061
岱巓脩建孔廟議	-13.6064
斾	-13.6064
子通通子無妄無妄子里仁里仁子	-13.6064
後其身而身先外其身而身存	-13.6064
擊之使隻輪不返	-13.6064
臀无膚其行次且	-13.6064
一箕初十九八十四一四	-13.6064
斷時起大悲心于其頭邊念玉帝尊號	-13.6064
爲凭檻登之者其聲	-13.6064
聀	-13.6064
與丞相列侯吏二千石愽士議	-13.6064
天齊王禮秩加三公一等	-13.6068
載營魄抱一能無離	-13.6068
疾一晝夜行十四度有餘	-13.6068
邊七度半在亥即以陰水論	-13.6068
表章韓范歐陽諸名賢遺蹟	-13.607
上二聖尊號曰光堯壽聖憲天體道	-13.6071
江東漕臣即山中度地遷建	-13.6071
厫	-13.6071
酎	-13.6071
呺	-13.6071
洼	-13.6071
始乎適而未嘗不適者忘適	-13.6071
常無欲以觀其妙常有欲以觀其徼	-13.6071
旅于處得其資斧我心不快	-13.6074
硉	-13.6074
十二虗初六十一十二十五十七星初	-13.6074
椳	-13.6074
龍王願降經壇特為某皈命孔雀明王經	-13.6074
以素羞致祭神其鑑之尚饗	-13.6074
坐女宿者以土爲度主喜忌與宫主同	-13.6074
孔雀明王尊特興某保安寍	-13.6074
授宗人同拜王答拜太保	-13.6074
曰夫人少避火伯姬曰婦人之禮	-13.6074
順或一日行一度一月一宫一年一周天	-13.6074
仔	-13.6075
窳	-13.6077
柔乘五剛也孚號有厲其危乃光也	-13.6077
上帝板板下民卒癉	-13.6077
曰山下出泉蒙君子以果行育德	-13.6077
五十四十六十六五十一十六	-13.6077
二十一尾初十六三六七二十六	-13.6077
八井初卄八五十九亢初五四牛初	-13.6077
利寅午戌人坐命穴皆在	-13.6077
四九畢初二鬼初八二三二七	-13.6077
夫以鳥養養鳥者宜	-13.6077
忘其肝膽遺其耳目	-13.6077
月十七日遣某官致祭曰惟神	-13.6077
芒然彷徨乎塵垢之外逍遥乎無	-13.6077
觀盥而不薦有孚顒若	-13.6077
鬖	-13.6077
鼖	-13.608
自在身天宫妙境神能遊故	-13.608
不爭處衆人之所惡故幾	-13.608
九八三八九十二十四十三十六	-13.608
諸神聖誕日玉匣記等集	-13.608
九三高宗伐鬼方三年克之	-13.608
十八四七八卄七四十八十二四	-13.608
鞠躬拜興拜興平身	-13.608
二人不得妄借異人并犯厭穢軽慢神服	-13.608
喜怒哀樂不入於胷次	-13.608
四十十五一二二十一四十一	-13.608
安沈痼之疾盡脫而復舊	-13.608
年化氣與在泉者合故曰同	-13.608
九十四十五一十九二九三十二	-13.608
二五三八畢初二鬼初	-13.608
卒棄甲呼舞不戰而收	-13.608
孟子曰孝子之至莫大乎尊親	-13.608
巾余始製也以玄色	-13.608
心矣諸玉女妙行亦同此大	-13.608
本卦爲貞之卦爲悔	-13.608
纈	-13.608
翏	-13.608
麟仁獸鳯靈鳥能知安危故世治則出	-13.608
𡙇	-13.608
澠	-13.6083
五十五四六九十一七翼初十二三	-13.6083
凶象曰習坎入坎失道凶也	-13.6083
成而上比者與古爲徒	-13.6083
經皆用之是皆出於吾道家之書黄帝老	-13.6083
興國八年癸未春不雨	-13.6083
三十二十四十四三九十四昴初一	-13.6083
漻	-13.6083
𦆵	-13.6083
十一張十六六十八五三十四三五四	-13.6083
者徒六年知而故犯者加一等	-13.6083
六八七六十四三九十三十一八六	-13.6083
群聚從天請雨雲雷	-13.6083
十三二二十一危初十六三六七二	-13.6083
征就寬軍給以饒林蠻洞蜒守條死要	-13.6083
楀	-13.6083
耋嬉遊連手歌謳上無所怨下無	-13.6083
驕將次爲亂王師今	-13.6083
㱊	-13.6083
下方來和天君名山大洞	-13.6083
其爲恍惚窈冥也一矣是所以知衆有即	-13.6083
吴君别封其弟虞仲於周之北故夏墟	-13.6083
噭	-13.6083
擗	-13.6083
涿鹿之野流血百里堯	-13.6083
莫之知唯子房徃拜焉	-13.6083
青裙上天門揖金母拜木公時人	-13.6083
十三二八十二十七五室一五七六	-13.6085
蔞	-13.6086
饞	-13.6086
七六室初五七十一十二八一	-13.6086
嘲	-13.6086
記在名俱在子忘神不忘	-13.6086
既來這裏當作麽生	-13.6086
治成德備監照下土天下	-13.6086
五帝乙歸妹以祉元吉	-13.6086
十四七房初十七十八七十三	-13.6086
戌末十八度皆屬陽土	-13.6086
眞中監五嶽飛仙下領後學眞	-13.6086
主禄位上總天宿下領萬靈及學仙之人	-13.6086
十歲而孤事母孝謹	-13.6086
唪	-13.6086
左旋惟計羅二星乃是	-13.6086
矣諸玉女徃劫妙行亦同此清凈	-13.6086
等衙門即便照例	-13.6086
置附郭嘗稔之田千畆	-13.6086
裩	-13.6086
過倍齊棠公之妻東郭偃之姊也	-13.6086
外示朴野中藏巧詐驕蹇慢上陰賊害物	-13.6086
是故身色神通智慧隱顯變化	-13.6086
遯于荒野入宅于河	-13.6086
顔眞卿作何狀乃能如	-13.6086
洞玄冲虛妙感慈惠䕶國庇民	-13.6087
剛應而志行順以動	-13.6089
秦佚吊之三號而岀	-13.609
中心悅而誠服也如七十子之服孔子也	-13.609
紈	-13.609
二十十五五九七四二十三二四	-13.609
我躬不閱遑恤我後	-13.609
秖	-13.609
應仁惠輔國佑民隆福洪恩眞君呪捻	-13.609
用硃竿寳盖珠	-13.609
聖人之不病也以其病病是以不病	-13.609
二十二二壁初五八九二十七四十九	-13.609
悉令下降覆護受持是此經者勑命	-13.609
殚	-13.609
灶	-13.609
師還父老攀慕顧戀不忍釋去	-13.609
徳配唐虞天命爲子保祐	-13.609
擎羊楊使者陀羅耿使者斗中通事舎人	-13.609
木尅土土尅水水尅火火尅金金尅木	-13.609
橡	-13.609
與衆盟曰予明年當棄世而寄於此	-13.609
比目四翼來安吾國福喜上堂與我同	-13.609
坐氐宿者以土爲度主	-13.6091
㝢	-13.6093
𠇮	-13.6093
十六五十一十五十三十八四八十九	-13.6093
兵部郞中王世英	-13.6093
北城門踰小橋二里	-13.6093
憂終不離咎管子治國侯伯	-13.6093
枓	-13.6093
翀	-13.6093
室一五七六五十三二八十二十七	-13.6093
怜	-13.6093
未末十八度皆屬陰土	-13.6093
罡神飛㨗報應使者張	-13.6093
八度起至酉中畢一度止皆屬陽金自酉	-13.6093
撫輯流亡控扼	-13.6093
旗隱隱即帖然無虞	-13.6093
梅折枝與母别離絶不相知	-13.6093
盲五音令人耳聾五味令人口爽	-13.6093
起至戌中婁四度止皆屬陰金	-13.6093
郯	-13.6093
㸦	-13.6093
初十六三六七二十五二十六十	-13.6093
十二十一十角七栁十三十七	-13.6093
季呉公子季札聘於鄭子産獻以紵衣	-13.6093
安於其命所謂上好仁而下必好義者也	-13.6093
恐致福也笑言啞啞後有則也	-13.6093
房初十八七十三婁初	-13.6093
斗府玄曹列職官衆	-13.6093
東行西歩失其次舎乾侯野井昭君䘮居	-13.6093
橾	-13.6093
武王伐紂伯夷叔齊叩馬而諫	-13.6093
歷事五帝出入三省五十餘年	-13.6093
烽	-13.6093
禍兮福所倚福兮禍所伏	-13.6093
竟忍聞扵鄰國乎	-13.6093
臨難之月如法持念是此眞經即得母子	-13.6093
躔其度則爲難夏秋休囚禍福	-13.6093
麃	-13.6093
三九一十九觜初十	-13.6094
七五室一五七六五十三二八十二	-13.6094
二氏一軫九張十四柳四井八	-13.6094
五十柳初四二十一六八四箕九四	-13.6094
五四九鬼二三一十五七三八	-13.6094
八二十箕初一九十五張一二十五	-13.6094
四三八一二畢初九四六二七	-13.6094
粢	-13.6096
跽	-13.6096
古帝命武湯正域彼四方	-13.6096
七九十二十四十三十五六八九	-13.6096
輔國家道妙德玄功崇行著	-13.6096
關商旅不行后不省方	-13.6096
娉	-13.6096
身折腰不媚與伯相背無註	-13.6096
㾛	-13.6096
三足俱行傾危善僵六指不	-13.6096
助國救人自幽及顯過此已後再歷八百	-13.6096
十三之十十五之十十七之十十九之十	-13.6096
啚	-13.6096
忽有木爐捧出水心	-13.6096
愛物忠君孝親崇信三寳	-13.6096
田氏仁壽淑善仙妃	-13.6096
不爲民害已而俱失所在乃知神兵也	-13.6096
圖曰虎爲百獸尊誰敢觸其怒惟有父子	-13.6096
嬖五譛毀群公子及世子申生	-13.6096
方狼顧失色忽見有役夫千群競操畚鍤	-13.6096
曰刑于寡妻至于兄弟以御于家邦	-13.6096
曰納于大麓烈風雷雨弗迷註麓山足也	-13.6096
要荒賔服堯唐帝	-13.6096
豗	-13.6096
震用伐鬼方三年有賞于大國	-13.6096
二十三參初十八一八二十一	-13.6096
其銀亦儲在布政司以供	-13.6096
於牧野甲子平旦天下恱喜	-13.6096
會辰戌地支巳酉丑全地支申子辰全	-13.6096
法無法無法法亦法今付無法時法法何	-13.6096
爲無爲事無事味無味	-13.6096
生伯夏伯夏生叔梁紇	-13.6096
疔	-13.6096
眹	-13.6096
罪業皆得除滅身心清凈	-13.6096
而後成蠱也則知其始之治必以	-13.6096
至前後又從太陽到處數	-13.6096
迨天之未陰雨徹彼桑土綢繆牖户今	-13.6096
高眞中監五嶽靈仙下領學道之人	-13.6096
不全大宛國名玉門	-13.6096
戰平城道西七日絶糧身	-13.6096
金山大王萬迴虢國公	-13.6096
麞	-13.6096
九十一女初二一亢九八十三三七	-13.6097
六二六八七六十四三九十三十一	-13.6097
八三五四九鬼二三一十五七	-13.6097
謵	-13.6099
十一十五十十一十四十六十二	-13.6099
初九舍爾靈龜觀我朵頤	-13.6099
何用叨叨着意猜	-13.6099
八十十三十五十一四十六七九十	-13.6099
利危寵折角摧頸無註	-13.6099
十二八一十四五七七六	-13.6099
有物先天地無形本寂寥	-13.6099
祢	-13.6099
絻	-13.6099
鄫	-13.6099
十三十四三九十四昴初一三	-13.6099
是以聖人終不爲大故能成其大	-13.6099
九天應元雷聲普化天尊	-13.6099
婁十二七九五斗初心五七六十一一五	-13.6099
愒	-13.6099
政制事典正法罪辟刑獄董逋迯由質要	-13.6099
相與北向蹈舞拜手稽首	-13.6099
胃一八十牛六一尾初八七十二二六	-13.6099
鳥飛無翼兎走折足雖欲㑹同未得	-13.6099
上總九天鬼神中領北帝三官下監萬兆	-13.6099
丙丁日干戊己日干	-13.6099
中之事悉以諮之必能	-13.6099
二畢初九四六二七二四三八	-13.6099
以太陽所到之宫度加	-13.6099
何况受持是此經者當知是	-13.6099
偆	-13.6099
出門逢患與禍爲怨更相擊刺傷我	-13.6099
埸	-13.6099
大城數百里立數十萬户之邑尊	-13.6099
悒	-13.6099
惡獸但能存想一念眞經	-13.6099
成禮旣㛰相呼南去膏潤下土年歳大有	-13.6099
未嘗見舟而便操之也	-13.6099
未孚而遽欲變革	-13.6099
柔遠能邇安勸小大庶邦	-13.6099
櫜	-13.6099
箕九四六五十栁初四二十一六八	-13.6099
羽翼欲飛不能爲羿所得羿古之善射者	-13.6099
觖	-13.6099
譊	-13.6099
躔其度則爲難秋冬休囚禍福	-13.6099
迎之不見其首隨之不見其後	-13.6099
道多怪非君本志生我恨悔無註蠱	-13.6099
𥚹	-13.6099
十四三五四三十一張十六六十八五	-13.6101
二十三二四三二十十五五九七	-13.6101
全或申酉戌全或亥子丑全或寅卯辰全	-13.6101
六一三二七鬼初一昴十八三五	-13.6101
庚辛日干壬癸日干甲乙日干	-13.6101
或臨木局或臨火局或臨土局	-13.6101
斗初心五七六十一一五三婁十二七九	-13.6101
惄	-13.6102
六十十一七翼初十三四六六五	-13.6102
咨嗟落花有意隨流水流水無情戀落花	-13.6102
亢初五四二十三二壁初五八九	-13.6102
又二里至紅門跨道爲飛雲閣	-13.6102
廣行方便啓諸道藏演說靈章恢	-13.6102
難渡濡我衣袴五子善櫂脫無他故	-13.6102
音義云古本作輸廣雅曰輸愚也或作揄	-13.6102
九天素靈宫北軒之上主召仙炁舉仙道	-13.6102
位天王常加守護今辰	-13.6102
新田冝粟上農得榖君子	-13.6102
溍	-13.6102
狷	-13.6102
八日行一度十八月一宫十八年一周天	-13.6102
冒之雄敢行篡逆唯聖人無迹故無弊也	-13.6102
冠衣青羽飛裳執斗	-13.6102
四八二十初房一九十五張一二十五五	-13.6102
奬帥三軍北定中原	-13.6102
妙應仁惠輔國佑民洪恩眞君曰兹者	-13.6102
家霜降旣同惠我以仁無註	-13.6102
宿有善縁此經尊妙普度天人但精心	-13.6102
或申酉戌全或亥子丑全	-13.6102
氣之宫坐本氣之度者謂之	-13.6102
汋	-13.6102
灌河涇流之大兩	-13.6102
灜	-13.6102
穿匏挹水篝鐡	-13.6102
箕一二十十六二二十六六	-13.6102
者必能詔其子爲人兄者必能教其弟若	-13.6102
者迫窮禍患害相	-13.6102
腿	-13.6102
莫之爲而爲者天也莫之致而至者命也	-13.6102
詩伐檀篇云胡瞻爾庭有懸貆	-13.6102
讃詠志心皈命信禮九天金闕	-13.6102
逐禍除患道徳神仙遏惡萬里	-13.6102
長夜未說千般浩浩	-13.6102
長夫妻男女當爲亡人持念是經或安置	-13.6102
伏望明彰報應指示愚迷所祈所願大賜	-13.6102
斷生死决定無疑玄天上帝聖降日正月	-13.6102
於秦使醫和視之曰疾不可爲也公遂卒	-13.6102
生沐浴冠帶臨官帝旺衰病死墓絶胎養	-13.6102
身有之故言之親切而有味	-13.6102
金水忌土計不宜無光之夜而	-13.6104
壬癸日干甲乙日干丙丁日干	-13.6104
戊己日干庚辛日干	-13.6104
量七寶宫殿去地百萬里中有天王名曰	-13.6104
十一十五十三十八四八十九八	-13.6104
天子用威虐政以召禍亂民所憎惡甚於	-13.6104
顋	-13.6105
軆	-13.6105
僇	-13.6105
達德大仙顯靈溥濟眞人	-13.6105
懸狟素飱食非其任失輿剥廬休坐	-13.6105
杆	-13.6105
洞耀玉清之中思之還反真形	-13.6105
裸	-13.6105
同本異葉樂仁上徳東鄰慕義	-13.6105
共汝發誓願誓願救衆生	-13.6105
切以聖不可知之謂神感而則應民到	-13.6105
怔	-13.6105
鄰不我顧而望玉女身	-13.6105
㨂	-13.6105
善惡隨縁無復差别	-13.6105
寡婦獨宿悲苦目張耳	-13.6105
恠九身無頭魂驚魄去不可以居	-13.6105
篙	-13.6105
繰	-13.6105
領詞虔切勉力奉行切慮	-13.6105
凶不可居轉徙獲福留止危憂無註	-13.6105
利器權謀也明君在上常使民無知無欲	-13.6105
心不則徳義之經爲頑口不道忠信之言	-13.6105
扔	-13.6105
日召見繼召衍聖公同宴便殿	-13.6105
易曰窮理盡性以至于命	-13.6105
赫赫不可得保顛隕墜墮更爲士伍無註	-13.6105
𦖦	-13.6105
七六五十三二八十二十七五室一	-13.6105
三榖不熟民苦困急	-13.6105
之仁故能察夫幾諌千古之下斯可以觀	-13.6105
五四三十一張十六六十八五三十四	-13.6105
人苟唯同之知若是必睽人苟知	-13.6105
今我畧說未盡其妙	-13.6105
俯輸丹悃仰瀆蒼穹伏念	-13.6105
出入節時南北無憂行者	-13.6105
制誥成化十三年十二月二十一日之寳	-13.6105
又臨火局地支又臨土局地支又臨金局	-13.6105
吡	-13.6105
地支又臨水局地支又臨木局	-13.6105
垔	-13.6105
太公問之果有疾風暴雨從太公邑外過	-13.6105
太宰康叔爲司㓂聃季	-13.6105
如命限在箕而尾度上有星謂之隔度	-13.6105
屢呈五色之祥白鶴青鸞	-13.6105
恐懼多所畏惡行道留難不可以歩無註	-13.6105
息我以死故善吾生者乃所以善吾死也	-13.6105
愼終如始則無敗事	-13.6105
昊天曰明及爾出王昊天曰旦及爾㳺衍	-13.6105
桀桀不能用復歸于湯	-13.6105
此清都至眞上聖所寶	-13.6105
氣之宫坐生氣之度者謂之	-13.6105
浤	-13.6105
瀥	-13.6105
痀	-13.6105
相望光明盛昌三聖茂㓛仁徳大隆三聖	-13.6105
礧	-13.6105
秋定公四年傳云武王之母弟八人周公	-13.6105
穀城山下黄石即我	-13.6105
自然閻浮提内一切衆生有能受持三皈	-13.6105
色之雲坐則九色之煙光明	-13.6105
菑人者人必反菑之	-13.6105
葛之覃兮施于中谷維葉	-13.6105
財成天地之道輔相天地之宜以左右民	-13.6105
銘心刻骨曷其敢忘兹以	-13.6105
難行終日至暮不離其郷無註	-13.6105
頁	-13.6105
龍乗風上見神公彭祖受	-13.6105
十十四十二九七三七九八七十五	-13.6107
南山烈烈飄風發發	-13.6108
曨	-13.6108
歳暮花落陽入隂室萬物伏匿	-13.6108
之吉凶成天下之亹亹者莫大乎蓍龜	-13.6108
有王者起必來取法是爲王者師也	-13.6108
西方皓靈皇老白騎	-13.6108
饕餮檮杌之	-13.6108
𧃳	-13.6108
䏶	-13.6108
九卄九六軫初一心初五一	-13.6108
以資將軍將軍豈有意乎	-13.6108
卞和得玉璞獻楚	-13.6108
徑一度半自東而西一日一周	-13.6108
怨更相擊刺傷我手端無註	-13.6108
方而不割廉而不劌直而不肆光而不	-13.6108
曰魯人與曽參同姓名者殺人人告其母	-13.6108
林川谷丘陵能出	-13.6108
殟	-13.6108
牂相隨俱行迷入空澤	-13.6108
而常存乎然則曷謂閱衆甫也甫始也人	-13.6108
言出于自然則簡而中非其自然而强言	-13.6108
魴鯉王孫利得以饗仲友無註	-13.6108
一部緫二十二階此籙	-13.6109
三年自秦逃歸嗣立明年文公立遂出之	-13.6109
公卿不下士久矣今丞相不以先生貧賤	-13.6109
切於情而難遏漢祖狃於謀臣之見莫能	-13.6109
則民莫敢不服上好信則民莫敢不用情	-13.6109
力倍道趨敵師徒敗覆	-13.6109
夾身命夾官福夾田財夾妻子又如	-13.6109
如計羅截諸星於東	-13.6109
己卯己巳己酉己亥	-13.6109
度零四十三分七十五秒	-13.6109
批逆鱗犯忌諱	-13.6109
挒	-13.6109
未也它日復見曰回益矣曰何謂也曰回	-13.6109
榬	-13.6109
洪恩眞君敷達上玄少伸誠	-13.6109
淮南子云舜目重瞳文王四乳	-13.6109
獨不逢災漢官儀御史䑓内掌蘭	-13.6109
目下領學眞兆民命籍諸天諸地莫不總	-13.6109
禍重乎地莫之知避	-13.6109
荆山多産異材班公輸子魯班也	-13.6109
詇	-13.6109
貴遇人君如法持念是此眞經即得職	-13.6109
迹迹得而强名聖則聖者乃無迹之名也	-13.6109
雛從食飢鳶卒擊	-13.6109
鞠躬盡力死而後已	-13.6109
𥟵	-13.6109
伊尹智士去桀耕野執順以	-13.6109
八一十四五七七六一六	-13.6109
如南山之壽不騫不崩	-13.6109
弈	-13.6109
管蔡成霍毛也周定鼎郟鄏卜年七百卜	-13.6109
詩小雅四牡篇云四牡騑騑周道倭	-13.6109
麏	-13.6109
昴十八三五一六一三二七鬼初	-13.611
九七四二十三二四三二十十五	-13.611
八十二十七五室一五七六五十三	-13.611
異香經月不散感而有	-13.6111
髐	-13.6112
崙	-13.6112
一節分三㬋一㬋五日	-13.6112
暁	-13.6112
曰周魯二荘親昭夜景之鑑	-13.6112
漢晋兩明並勒丹青之	-13.6112
𢧐	-13.6112
不是呼吾號决不赴	-13.6112
犧氏黄帝軒轅氏黄帝造五兵以征不享	-13.6112
出征憂危爲咎無註	-13.6112
十方無極世界勑命東方東華帝君青騎	-13.6112
又得聖女姒氏以爲之配	-13.6112
妙用難窺靈機罔測	-13.6112
鵞	-13.6112
容乃公公乃王王乃天天	-13.6112
晋侯使太子申生伐東山臯	-13.6112
端而已其六十四卦之序今皆不可考矣	-13.6112
荷蕢疾貧遁世隠居竟不逢時石門	-13.6112
葉當作桑詩桑之落矣其黄而隕	-13.6112
視天門如從穴中望天䆫糟丘玉泉未詳	-13.6112
載喜抱子與利爲友	-13.6112
鎁	-13.6112
隨時逐便不失利門多	-13.6112
兩目失明日奪無光脛足跛	-13.6112
公後謁金母受事既	-13.6112
卄四張初十四八房	-13.6112
哿	-13.6112
唐帝名禹姒姓喬王喬仙人彭祖	-13.6112
晉侯謂之少齊姜齊姓	-13.6112
洞洞屬屬然如弗勝如	-13.6112
七炁天君令統御西方諸天	-13.6112
三圖之館主攝西海水帝及	-13.6112
不雨白日皎皎冝出驅馳通利大道無註	-13.6112
中央黄老君則変形爲	-13.6112
也久與賢人處則無過	-13.6112
十八五三十四三五四三十一張十六	-13.6112
叔虞戯削桐葉爲珪	-13.6112
堯之欽若昊天敬授人時舜之在	-13.6112
壎	-13.6112
子忽又娶宋雍氏生公子突	-13.6112
巳張十四過午柳四	-13.6112
後當齎金寶從師告盟受之	-13.6112
得饒有陳力就列騶虞	-13.6112
斗三尾二氐一軫九張十四	-13.6112
无初有終先庚三日後庚三日	-13.6112
暫離起疾神功難報稱再生感惠此心知	-13.6112
書弱水旣西栁宗元曰西海	-13.6112
望天不見星辰頋小失大福逃	-13.6112
棄千金之璧負赤子而趨	-13.6112
檡	-13.6112
欲南少叔不得中路分爭道闘相賊無註	-13.6112
水中萬怪惡毒之精召雲龍以防水旱之	-13.6112
獸名白虎黒文不食生物者	-13.6112
田䑕野雞意常欲逃拘制籠檻不得動	-13.6112
相去百萬億由旬日月	-13.6112
福三雀飛來與禄相得無註	-13.6112
立身行道揚名扵後世以顯父母	-13.6112
紫霄真人譚景昇譔	-13.6112
羙泉也水之精太平則出出則其政和平	-13.6112
股夷傷遂以薨崩霸	-13.6112
至於岱宗柴望秩於山川	-13.6112
闕主攝南河水帝大	-13.6112
鞞	-13.6112
㬹	-13.6112
㯱	-13.6112
主攝白帝星官正明天數	-13.6112
之所言而然所行而善則世俗謂之不肖	-13.6112
僛	-13.6112
呢	-13.6112
怭	-13.6112
或有能聞是此自然香者即能脫離	-13.6112
抱布自媒弃禮急情卒離	-13.6112
摑	-13.6112
有西王母生不知老與天相保	-13.6112
有願在心宜早賽	-13.6112
浪頓止安穩達岸	-13.6112
疳	-13.6112
祤	-13.6112
訟有孚窒惕中吉	-13.6112
獅	-13.6112
二十一六八四箕九四六五十柳初	-13.6113
默運化機大闡靈貺	-13.6114
闚其户闃其无人	-13.6114
長九尺二寸龐眉廣顙朱頂緑睛隆準方	-13.6115
隂升陽伏舜失其室	-13.6115
㯶	-13.6115
世之學老子者則絀儒學儒學亦絀老子	-13.6115
癉	-13.6115
二表劄賀眞君褒封表	-13.6115
抗兵相加哀者勝矣	-13.6115
收用巴蜀還定三秦天下可圖	-13.6115
歆享身受大慶唐虞堯舜有天下之號也	-13.6115
無聽之以心而聽之以氣	-13.6115
剛遇中正天下大行也姤之時義	-13.6115
壅遏隄防水不得行火盛陽光隂蜺伏	-13.6115
揃	-13.6115
梁武帝與昭明太子所編文選	-13.6115
橰	-13.6115
冝行賈市所求必倍	-13.6115
利酒酸魚敗衆莫貪	-13.6115
增福相公福禄財門	-13.6115
將落隕其黄葉失勢傾側如無所	-13.6115
破亡之國天所不福難以止息無註	-13.6115
韁	-13.6115
侍女董雙成吹雲和之笛王子登彈	-13.6115
四馬共轅東上太山騂	-13.6115
居崑崙之圃閬風之苑玉	-13.6115
琅之璈許飛瓊鼓靈	-13.6115
畜辰次降婁王駕廵時廣祐施	-13.6115
異路東趨西歩千里之外不相知處無註	-13.6115
續食糟糠不飽無註	-13.6115
陛下亦宜自謀以咨諏善道察納雅言	-13.6115
上總九天上眞中統五嶽飛仙下領學者	-13.6115
九官十二牧濟濟相讓	-13.6115
儀不可量計其化身周遍塵沙世界	-13.6115
兩從者扶掖前人相牽後人見	-13.6115
六度起至丑中斗二十二度止皆屬陽水	-13.6115
冂	-13.6115
十五三九十四昴初一二十三十	-13.6115
受之父母不敢毁傷孝之始也	-13.6115
同人日走月歩趨不同舎夫妻反目	-13.6115
從喬彭祖西過王母道路夷易無敢難者	-13.6115
拘制於吏幽人有喜無註	-13.6115
持刄操肉對酒不食夫亡從軍	-13.6115
棓	-13.6115
歷代儒臣封禪論漢司馬虎	-13.6115
用藥百計罔底于効	-13.6115
瘏	-13.6115
登仙得道者悉所掌焉	-13.6115
登臨嘯咏之蹟見於仙經地志殘碑	-13.6115
祖古之有夀者王喬古仙人巫咸商臣名	-13.6115
臣罔以寵利居成功	-13.6115
衆生故請問於我汝當復坐吾爲宣說	-13.6115
見素抱樸少私寡欲	-13.6115
越人三世弑其君王子搜患之逃	-13.6115
趫	-13.6115
雄聖伏名人匿麟逺走鳯飛北	-13.6115
一爻備言六五所以大有之	-13.6115
一負載在上之三十二畫	-13.6115
之維鵲有巢維鳩	-13.6115
之道常以立春之日沐浴入室	-13.6115
分獻東鎮壇二月皇太后聖壽	-13.6115
十五五九七四二十三二四三二	-13.6115
及諸天聖衆稽首禮謝天尊玉帝仰奉	-13.6115
各然其所然各可其所可	-13.6115
天上帝校神仙圖籙皆仙梵祕言不敢細	-13.6115
天尊㳒衆等志心皈命靈濟宫九天金闕	-13.6115
天關星天之上帝主天地機運	-13.6115
宫中部四十二曹偕九千	-13.6115
御運布氣融精開化天地所	-13.6115
曰彼專爲德我專爲暴	-13.6115
曰此之謂夏聲夫能夏則大	-13.6115
有上彷徨孰嘘吸是孰居無事而披拂是	-13.6115
歆格俯鑒微忱尚享又維永樂十七年	-13.6115
狐所逐走不得食惶懼	-13.6115
砲	-13.6115
西山利入我門隂陽和調國無	-13.6115
軏	-13.6115
鎛	-13.6115
雖桑梓必敬止維蘋蘩可薦之	-13.6115
飛不逺去卑斯内侍禄	-13.6115
𡩖	-13.6115
七六十四三九十三十一八六二六	-13.6116
十一初二一亢九八十三	-13.6116
三九十三十一八六二六八七六	-13.6116
九八十六五十一十五十三十八四八	-13.6116
五一六一三二七鬼初一昴十八	-13.6116
又臨木局地支又臨火局地支又臨土局	-13.6116
或臨水局或臨木局或臨火局	-13.6116
星貪狼巨門禄存文曲	-13.6117
𩔰	-13.6118
成康之際天下太平刑措四十餘年不用	-13.6118
功成事遂百姓皆謂我自	-13.6118
王少未有識奸神命者乃旦也王病有瘳	-13.6118
相錯敗亂緒業民不得作無註	-13.6118
金玉滿堂莫之能守富貴而驕自	-13.6118
拯提趣類絶智愚高下之分	-13.6118
遅後旅失利亡雌無註	-13.6118
不同而與道同也可得而親則亦可得而	-13.6118
亦可得而賤體道者均覆萬物而孰爲親	-13.6118
勞而不伐有功而不德厚之至也	-13.6118
化也垂億萬之法無不濟度	-13.6118
嵸	-13.6118
東行破車歩入危家衡門	-13.6118
火雖熾在吾後㓂雖	-13.6118
癥	-13.6118
蘭青娥瑶姬玉巵周穆王	-13.6118
裼	-13.6118
豎	-13.6118
象曰洊雷震君子以恐懼修省	-13.6118
不異服非先王之法服不敢服	-13.6118
其名不去也昧者乃謂恍惚窈冥之中	-13.6118
咼	-13.6118
所居不敢顯名故託言之此詩刺滛泆也	-13.6118
東嶽内宫曩時現玉女之身根本即帝	-13.6118
爲水魚燕雀無巢民無室廬無註	-13.6118
牛放馬甲兵解散夫婦相保	-13.6118
疆書洪範六三徳曰平康正直	-13.6118
衆神二共十二壇每壇賛禮同上但	-13.6118
不矜天下莫與汝爭能汝	-13.6118
修奉敷通誠意開啓道場燃祝	-13.6118
則勤行之至而實無所勤行也斯所謂天	-13.6118
化萬物先以東華至真之氣化而生木公	-13.6118
南方吉秋作西方吉冬作北方吉	-13.6118
南雲通天寶經一名九天	-13.6118
危七度止皆屬陰水自子宫	-13.6118
又四里至馬棚崖稍前爲	-13.6118
周人都河南三河在天下之中史貨殖傳	-13.6118
大怒使舎人笞擊雎折脅摺齒	-13.6118
得脫變姓名後歸秦秦以爲客卿封應侯	-13.6118
日月之塗所行必到無有患	-13.6118
火則俱死即玉石俱焚之義	-13.6118
玉帝仰奉道旨按法以傳	-13.6118
癕	-13.6118
罭	-13.6118
自亥宫奎一度起至子	-13.6118
至高老橋有漢壽亭侯祠	-13.6118
虛之氣更受鍊九天之精思之還反真形	-13.6118
跪進酒漿流潦滂滂河伯水神也	-13.6118
路絶道斷微妙難思	-13.6118
迁	-13.6118
三度起至卯中心三度止皆屬陽木自卯	-13.6118
上總九天下領九地五嶽四瀆神仙之官	-13.6118
丙子丙辰丙申丙戌辛丑辛卯辛未辛亥	-13.6118
仲春孟夏和氣所舎生我	-13.6118
儗	-13.6118
寗	-13.6118
鸛	-13.6118
倔	-13.6121
獧	-13.6121
硝	-13.6121
唁	-13.6121
貎	-13.6121
泫	-13.6121
碨	-13.6121
禜	-13.6121
𨺚	-13.6121
䍧	-13.6121
傞	-13.6121
歔	-13.6121
磪	-13.6121
窱	-13.6121
箾	-13.6121
綠	-13.6121
苖	-13.6121
荇	-13.6121
誾	-13.6121
遟	-13.6121
鷔	-13.6121
𣵀	-13.6121
鱖	-13.6124
甿	-13.6124
㪷	-13.6124
紬	-13.6124
銼	-13.6124
䁀	-13.6124
醻	-13.6124
埓	-13.6124
憝	-13.6124
戳	-13.6124
猒	-13.6124
璦	-13.6124
䃘	-13.6124
壚	-13.6124
娩	-13.6124
泲	-13.6124
矌	-13.6124
繢	-13.6124
髽	-13.6124
嶔	-13.6127
闑	-13.6127
敉	-13.6127
眭	-13.6127
胲	-13.6127
膍	-13.6127
歿	-13.6127
絫	-13.6127
釿	-13.6127
霅	-13.6127
豳	-13.6127
鮫	-13.6127
㟁	-13.6127
勮	-13.6127
寀	-13.6127
岓	-13.6127
庀	-13.6127
抖	-13.6127
椹	-13.6127
賻	-13.6127
輓	-13.6127
驁	-13.6127
鬴	-13.6127
𨹧	-13.6127
咋	-13.613
狢	-13.613
鬍	-13.613
瀤	-13.6131
穪	-13.6131
紾	-13.6131
舫	-13.6131
贐	-13.6131
嘽	-13.6131
婣	-13.6131
帚	-13.6131
揩	-13.6131
灧	-13.6131
烘	-13.6131
罸	-13.6131
蛮	-13.6131
誔	-13.6131
誴	-13.6131
醨	-13.6131
餱	-13.6131
鮓	-13.6131
齲	-13.6131
𢷤	-13.6131
瓏	-13.6134
㨗	-13.6134
坌	-13.6134
濘	-13.6134
蔾	-13.6134
蹂	-13.6134
冡	-13.6134
墁	-13.6134
恡	-13.6134
摻	-13.6134
毶	-13.6134
碏	-13.6134
缹	-13.6134
藇	-13.6134
覤	-13.6134
訽	-13.6134
躧	-13.6134
抒	-13.6137
犴	-13.6137
𢆻	-13.6137
嫓	-13.6137
酳	-13.6137
眢	-13.6137
顇	-13.6137
顦	-13.6137
噏	-13.6137
竉	-13.6137
㫺	-13.6137
䄠	-13.6137
佌	-13.6137
叐	-13.6137
忪	-13.6137
敎	-13.6137
梔	-13.6137
渌	-13.6137
猭	-13.6137
皃	-13.6137
稯	-13.6137
竣	-13.6137
緄	-13.6137
諓	-13.6137
跈	-13.6137
鼐	-13.6137
𢢽	-13.6137
擥	-13.614
剙	-13.614
𨔼	-13.614
㴻	-13.614
䔧	-13.614
撾	-13.614
柙	-13.614
欿	-13.614
凳	-13.614
淯	-13.614
滚	-13.614
疸	-13.614
皿	-13.614
筞	-13.614
蜮	-13.614
諔	-13.614
郅	-13.614
鄯	-13.614
飰	-13.614
𥚑	-13.614
𧟋	-13.614
𩑺	-13.614
梠	-13.6143
㮏	-13.6143
轤	-13.6143
熛	-13.6143
皁	-13.6143
纜	-13.6143
儂	-13.6143
喃	-13.6143
栱	-13.6143
畱	-13.6143
躪	-13.6143
鷸	-13.6143
俋	-13.6143
妮	-13.6143
宕	-13.6143
崌	-13.6143
慒	-13.6143
扐	-13.6143
椆	-13.6143
碗	-13.6143
翂	-13.6143
翐	-13.6143
螬	-13.6143
觝	-13.6143
颷	-13.6143
颼	-13.6143
𧄸	-13.6143
𨒫	-13.6143
艦	-13.6146
䙝	-13.6146
菁	-13.6146
鍔	-13.6146
閇	-13.6146
鼪	-13.6146
搃	-13.6146
䇲	-13.6146
漙	-13.6146
畎	-13.6146
袊	-13.6146
𣧎	-13.6146
曣	-13.6146
菅	-13.6146
鏃	-13.6146
伹	-13.6146
嗢	-13.6146
幍	-13.6146
樐	-13.6146
檠	-13.6146
睟	-13.6149
磈	-13.6149
媟	-13.6149
蓂	-13.6149
鏹	-13.6149
蓽	-13.6149
麪	-13.6149
痿	-13.6149
皞	-13.6149
輊	-13.6149
䆳	-13.6149
乕	-13.6149
噳	-13.6149
憰	-13.6149
拸	-13.6149
撃	-13.6149
汏	-13.6149
淠	-13.6149
票	-13.6149
繶	-13.6149
胠	-13.6149
騕	-13.6149
鶬	-13.6149
𡨜	-13.6149
𣉇	-13.6149
僨	-13.6153
洐	-13.6153
琉	-13.6153
咯	-13.6153
醹	-13.6153
䧺	-13.6153
薔	-13.6153
黬	-13.6153
俍	-13.6153
倭	-13.6153
呆	-13.6153
廧	-13.6153
楬	-13.6153
渢	-13.6153
炯	-13.6153
秕	-13.6153
緌	-13.6153
胙	-13.6153
虆	-13.6153
蚯	-13.6153
貍	-13.6153
輶	-13.6153
帨	-13.6156
攎	-13.6156
嶭	-13.6156
畊	-13.6156
縭	-13.6156
嵱	-13.6156
螣	-13.6156
僝	-13.6156
嚱	-13.6156
擐	-13.6156
鵂	-13.6156
伇	-13.6156
愎	-13.6156
俏	-13.6156
繅	-13.6156
妸	-13.6156
屧	-13.6156
抅	-13.6156
泅	-13.6156
狪	-13.6156
璲	-13.6156
磝	-13.6156
邏	-13.6159
跲	-13.6159
箔	-13.6159
荑	-13.6159
扑	-13.6159
摸	-13.6159
澈	-13.6159
逗	-13.6159
鼯	-13.6159
堡	-13.6159
撿	-13.6159
殢	-13.6159
硜	-13.6159
秫	-13.6159
訏	-13.6159
郄	-13.6159
陃	-13.6159
馹	-13.6159
𣁎	-13.6159
屡	-13.6162
鎌	-13.6162
饎	-13.6162
戹	-13.6162
橑	-13.6162
玲	-13.6162
隩	-13.6162
鬐	-13.6162
奩	-13.6162
䃽	-13.6162
坻	-13.6162
戆	-13.6162
挃	-13.6162
凰	-13.6163
𡟋	-13.6165
穏	-13.6165
筒	-13.6165
匾	-13.6165
𥗬	-13.6165
崷	-13.6165
懣	-13.6165
珙	-13.6165
飇	-13.6165
旼	-13.6165
皚	-13.6165
蕕	-13.6165
𨗉	-13.6165
醑	-13.6168
潗	-13.6168
笀	-13.6168
囅	-13.6168
渀	-13.6168
趁	-13.6168
姨	-13.6168
棕	-13.6168
韃	-13.6168
駪	-13.6168
騃	-13.6171
园	-13.6171
擡	-13.6171
畹	-13.6171
罃	-13.6171
会	-13.6172
僁	-13.6172
徔	-13.6172
瘨	-13.6172
艇	-13.6174
𡺿	-13.6175
茲	-13.6175
診	-13.6175
屩	-13.6175
芑	-13.6175
觱	-13.6175
幬	-13.6175
孠	-13.6175
擦	-13.6175
胖	-13.6175
莞	-13.6175
蒔	-13.6175
閘	-13.6175
騋	-13.6175
悄	-13.6178
媢	-13.6178
鏖	-13.6178
阱	-13.6178
馱	-13.6178
蓧	-13.6178
豉	-13.6178
𣗥	-13.6178
怲	-13.6178
鑷	-13.6178
鹵	-13.6181
秔	-13.6181
䡾	-13.6181
咍	-13.6181
泏	-13.6181
阡	-13.6184
曒	-13.6184
难	-13.6184
馺	-13.6184
樛	-13.6184
稌	-13.6184
媯	-13.6184
銚	-13.6187
鎒	-13.6187
焙	-13.6187
髧	-13.6187
惲	-13.6187
炒	-13.6187
䓹	-13.6187
嘕	-13.6187
咦	-13.619
黧	-13.619
㐲	-13.619
䋅	-13.619
攦	-13.619
𤯝	-13.619
鈕	-13.6193
珵	-13.6193
窢	-13.6194
魭	-13.6194
猋	-13.6194
呬	-13.6194
汐	-13.6194
譐	-13.6194
櫪	-13.6197
矞	-13.6197
概	-13.62
歠	-13.62
駊	-13.62
蚪	-13.62
邅	-13.62
阴	-13.62
翡	-13.6203
𩀌	-13.6203
酤	-13.6203
賖	-13.6203
茆	-13.6203
㴠	-13.6206
𥳠	-13.6206
臥	-13.6206
庋	-13.6206
魍	-13.6206
𢥞	-13.6206
経	-13.6209
淒	-13.6209
䟦	-13.6209
鄠	-13.6209
僔	-13.6212
恟	-13.6212
潙	-13.6212
扢	-13.6216
耉	-13.6219
熈	-13.6225
杻	-13.6228
謩	-13.6231
硎	-13.6254
尃	-13.6257
敔	-14.593
帗	-14.5946
惷	-14.5962
湶	-14.5962
爆	-14.597
礞	-14.597
犛	-14.5978
㐴	-14.5986
䓪	-14.5994
佘	-14.5994
娃	-14.5994
橵	-14.5994
珢	-14.5994
嵂	-14.6002
嶬	-14.6002
枅	-14.6002
㜐	-14.601
䨇	-14.601
慉	-14.601
桬	-14.601
樘	-14.601
卅	-14.6018
嫭	-14.6018
㳂	-14.6026
䔷	-14.6026
亵	-14.6026
嘅	-14.6026
圏	-14.6026
撏	-14.6026
撽	-14.6026
柑	-14.6026
樺	-14.6026
髏	-14.6026
髑	-14.6026
塹	-14.6034
彠	-14.6034
朾	-14.6034
桮	-14.6034
楨	-14.6034
樅	-14.6034
砊	-14.6034
匍	-14.6042
㞐	-14.6042
䓞	-14.6042
佟	-14.6042
俵	-14.6042
傖	-14.6042
岉	-14.6042
崟	-14.6042
昞	-14.6042
柂	-14.6042
桄	-14.6042
楒	-14.6042
檽	-14.6042
櫸	-14.6042
欏	-14.6042
洑	-14.6042
涞	-14.6042
䊮	-14.605
䵝	-14.605
则	-14.605
囦	-14.605
妲	-14.605
婷	-14.605
孶	-14.605
枢	-14.605
柠	-14.605
磵	-14.605
䩻	-14.6058
䫉	-14.6058
䰐	-14.6058
丢	-14.6058
僶	-14.6058
喆	-14.6058
嗾	-14.6058
嘬	-14.6058
嚌	-14.6058
徛	-14.6058
捃	-14.6058
朿	-14.6058
楸	-14.6058
榘	-14.6058
檼	-14.6058
湕	-14.6058
㮚	-14.6066
䀪	-14.6066
䄋	-14.6066
䚹	-14.6066
䜵	-14.6066
吭	-14.6066
块	-14.6066
徢	-14.6066
徯	-14.6066
殭	-14.6066
燫	-14.6066
砬	-14.6066
㭈	-14.6074
䦨	-14.6074
冋	-14.6074
嘱	-14.6074
姈	-14.6074
尽	-14.6074
尿	-14.6074
怊	-14.6074
柜	-14.6074
殙	-14.6074
毯	-14.6074
汳	-14.6074
洁	-14.6074
牸	-14.6074
玼	-14.6074
疝	-14.6074
㢮	-14.6082
㫤	-14.6082
䕌	-14.6082
䱔	-14.6082
儿	-14.6082
刾	-14.6082
哄	-14.6082
啷	-14.6082
嚢	-14.6082
垺	-14.6082
奘	-14.6082
巣	-14.6082
很	-14.6082
戝	-14.6082
柈	-14.6082
棍	-14.6082
楳	-14.6082
檦	-14.6082
洚	-14.6082
瀘	-14.6082
琠	-14.6082
琯	-14.6082
疤	-14.6082
瘕	-14.6082
瘺	-14.6082
磢	-14.6082
礒	-14.6082
㕣	-14.609
㤙	-14.609
㫋	-14.609
㫙	-14.609
乜	-14.609
僯	-14.609
圕	-14.609
垪	-14.609
濾	-14.609
灭	-14.609
獖	-14.609
玊	-14.609
璝	-14.609
痤	-14.609
瘸	-14.609
癇	-14.609
眗	-14.609
崆	-14.6098
㢠	-14.6098
㩜	-14.6098
䔍	-14.6098
东	-14.6098
侅	-14.6098
傋	-14.6098
傔	-14.6098
喇	-14.6098
嚆	-14.6098
圳	-14.6098
峗	-14.6098
峬	-14.6098
嵁	-14.6098
懠	-14.6098
挕	-14.6098
掔	-14.6098
搤	-14.6098
撇	-14.6098
柀	-14.6098
栥	-14.6098
棒	-14.6098
棬	-14.6098
検	-14.6098
沗	-14.6098
浬	-14.6098
湓	-14.6098
潎	-14.6098
烕	-14.6098
烖	-14.6098
玘	-14.6098
珽	-14.6098
矹	-14.6098
矼	-14.6098
穸	-14.6098
窀	-14.6098
遅	-14.6098
㚥	-14.6106
㯀	-14.6106
㴎	-14.6106
㸔	-14.6106
䀄	-14.6106
䏢	-14.6106
䤾	-14.6106
丼	-14.6106
佅	-14.6106
俳	-14.6106
僤	-14.6106
呶	-14.6106
圔	-14.6106
坩	-14.6106
埽	-14.6106
堮	-14.6106
塉	-14.6106
媕	-14.6106
嫟	-14.6106
宁	-14.6106
崴	-14.6106
忂	-14.6106
忧	-14.6106
悕	-14.6106
撕	-14.6106
攜	-14.6106
晜	-14.6106
杰	-14.6106
槷	-14.6106
洹	-14.6106
燺	-14.6106
牐	-14.6106
瑊	-14.6106
矑	-14.6106
砮	-14.6106
硖	-14.6106
磑	-14.6106
磅	-14.6114
㒆	-14.6114
㵾	-14.6114
㷆	-14.6114
㷍	-14.6114
㺵	-14.6114
䈎	-14.6114
䉛	-14.6114
䗲	-14.6114
䨱	-14.6114
僓	-14.6114
喎	-14.6114
嘊	-14.6114
坝	-14.6114
墄	-14.6114
妪	-14.6114
媍	-14.6114
嬿	-14.6114
岊	-14.6114
岭	-14.6114
幌	-14.6114
庙	-14.6114
惮	-14.6114
惾	-14.6114
懥	-14.6114
扚	-14.6114
晘	-14.6114
杷	-14.6114
榥	-14.6114
槧	-14.6114
欸	-14.6114
毱	-14.6114
浿	-14.6114
溈	-14.6114
潠	-14.6114
潾	-14.6114
澦	-14.6114
瀵	-14.6114
狴	-14.6114
珉	-14.6114
璡	-14.6114
甗	-14.6114
痂	-14.6114
痗	-14.6114
皴	-14.6114
眕	-14.6114
礡	-14.6114
臊	-14.6122
𡾓	-14.6122
㕍	-14.6123
㦤	-14.6123
㼜	-14.6123
䘖	-14.6123
䠱	-14.6123
䦎	-14.6123
䧬	-14.6123
䨥	-14.6123
侻	-14.6123
叻	-14.6123
嘩	-14.6123
嚓	-14.6123
嚵	-14.6123
囓	-14.6123
嬃	-14.6123
寠	-14.6123
岺	-14.6123
悗	-14.6123
愳	-14.6123
慁	-14.6123
懤	-14.6123
抰	-14.6123
搂	-14.6123
搴	-14.6123
撙	-14.6123
擉	-14.6123
敂	-14.6123
旐	-14.6123
昜	-14.6123
暊	-14.6123
枤	-14.6123
棖	-14.6123
槿	-14.6123
権	-14.6123
樿	-14.6123
櫌	-14.6123
汍	-14.6123
滇	-14.6123
漴	-14.6123
澧	-14.6123
瀦	-14.6123
爀	-14.6123
瑳	-14.6123
痩	-14.6123
眶	-14.6123
砠	-14.6123
螻	-14.613
㕖	-14.6131
㟋	-14.6131
㟧	-14.6131
㠙	-14.6131
㨇	-14.6131
㭝	-14.6131
䀨	-14.6131
䃢	-14.6131
䨑	-14.6131
佋	-14.6131
侐	-14.6131
侹	-14.6131
儌	-14.6131
咺	-14.6131
喏	-14.6131
嚩	-14.6131
囤	-14.6131
圴	-14.6131
坸	-14.6131
夐	-14.6131
帀	-14.6131
帠	-14.6131
惨	-14.6131
扷	-14.6131
捋	-14.6131
捸	-14.6131
掦	-14.6131
揕	-14.6131
揰	-14.6131
摝	-14.6131
敫	-14.6131
斸	-14.6131
旿	-14.6131
枍	-14.6131
柭	-14.6131
栵	-14.6131
椋	-14.6131
椓	-14.6131
檳	-14.6131
櫓	-14.6131
泀	-14.6131
泙	-14.6131
湁	-14.6131
濇	-14.6131
濜	-14.6131
熉	-14.6131
牱	-14.6131
犿	-14.6131
狆	-14.6131
獍	-14.6131
玗	-14.6131
睖	-14.6131
砉	-14.6131
碒	-14.6131
㕼	-14.6139
㫼	-14.6139
㺽	-14.6139
䂊	-14.6139
䴡	-14.6139
亏	-14.6139
倞	-14.6139
傛	-14.6139
僾	-14.6139
唄	-14.6139
唏	-14.6139
嚜	-14.6139
墤	-14.6139
壌	-14.6139
壟	-14.6139
嬈	-14.6139
岘	-14.6139
岠	-14.6139
崤	-14.6139
嶆	-14.6139
幞	-14.6139
廌	-14.6139
懞	-14.6139
搊	-14.6139
敭	-14.6139
斒	-14.6139
晣	-14.6139
杕	-14.6139
柟	-14.6139
査	-14.6139
楢	-14.6139
檣	-14.6139
檷	-14.6139
櫕	-14.6139
歜	-14.6139
歪	-14.6139
殱	-14.6139
淈	-14.6139
湀	-14.6139
瀏	-14.6139
炕	-14.6139
爓	-14.6139
玿	-14.6139
珫	-14.6139
畬	-14.6139
痏	-14.6139
瘐	-14.6139
睪	-14.6139
矝	-14.6139
峥	-14.6147
㐮	-14.6147
㕥	-14.6147
㙴	-14.6147
䁕	-14.6147
䌚	-14.6147
䑢	-14.6147
侶	-14.6147
傎	-14.6147
儞	-14.6147
劙	-14.6147
卋	-14.6147
厩	-14.6147
呿	-14.6147
垛	-14.6147
孼	-14.6147
彾	-14.6147
忔	-14.6147
悱	-14.6147
惏	-14.6147
憀	-14.6147
憹	-14.6147
报	-14.6147
掏	-14.6147
搐	-14.6147
斚	-14.6147
旎	-14.6147
旖	-14.6147
昳	-14.6147
曬	-14.6147
朅	-14.6147
朒	-14.6147
枹	-14.6147
椀	-14.6147
楥	-14.6147
涽	-14.6147
淅	-14.6147
湼	-14.6147
滁	-14.6147
滾	-14.6147
濰	-14.6147
瀲	-14.6147
燀	-14.6147
牣	-14.6147
璠	-14.6147
瓚	-14.6147
砰	-14.6147
硫	-14.6147
磗	-14.6147
■	-14.6155
㑂	-14.6155
㳅	-14.6155
㸐	-14.6155
㹖	-14.6155
䋈	-14.6155
䏿	-14.6155
䜅	-14.6155
䮐	-14.6155
䮰	-14.6155
亐	-14.6155
侰	-14.6155
剮	-14.6155
吚	-14.6155
哥	-14.6155
囀	-14.6155
囏	-14.6155
墯	-14.6155
奐	-14.6155
奨	-14.6155
宷	-14.6155
岞	-14.6155
廂	-14.6155
忐	-14.6155
忑	-14.6155
愾	-14.6155
慠	-14.6155
抺	-14.6155
揫	-14.6155
搫	-14.6155
攓	-14.6155
攵	-14.6155
朘	-14.6155
楽	-14.6155
槮	-14.6155
檩	-14.6155
湆	-14.6155
溼	-14.6155
滍	-14.6155
濳	-14.6155
狖	-14.6155
瓅	-14.6155
瓔	-14.6155
甀	-14.6155
甾	-14.6155
痟	-14.6155
盇	-14.6155
眛	-14.6155
睚	-14.6155
磕	-14.6155
㗁	-14.6163
㵸	-14.6163
㷀	-14.6163
䅪	-14.6163
䊶	-14.6163
䓗	-14.6163
䛕	-14.6163
佶	-14.6163
俈	-14.6163
倿	-14.6163
偊	-14.6163
刜	-14.6163
卣	-14.6163
咶	-14.6163
咻	-14.6163
唼	-14.6163
啁	-14.6163
喊	-14.6163
嗥	-14.6163
噯	-14.6163
嚕	-14.6163
嚗	-14.6163
坧	-14.6163
型	-14.6163
埤	-14.6163
奓	-14.6163
嫐	-14.6163
岈	-14.6163
幨	-14.6163
憼	-14.6163
撗	-14.6163
斄	-14.6163
昷	-14.6163
枣	-14.6163
柷	-14.6163
棰	-14.6163
檾	-14.6163
毆	-14.6163
渍	-14.6163
灵	-14.6163
爝	-14.6163
猰	-14.6163
猵	-14.6163
玓	-14.6163
疪	-14.6163
痨	-14.6163
憧	-14.6171
㴞	-14.6171
㾱	-14.6171
䝟	-14.6171
䨴	-14.6171
俣	-14.6171
匄	-14.6171
嗊	-14.6171
圊	-14.6171
壃	-14.6171
嫣	-14.6171
恌	-14.6171
愮	-14.6171
憨	-14.6171
枻	-14.6171
枼	-14.6171
梃	-14.6171
椸	-14.6171
楃	-14.6171
楎	-14.6171
涔	-14.6171
漈	-14.6171
煗	-14.6171
璸	-14.6171
畍	-14.6171
瘓	-14.6171
碙	-14.6171
㞦	-14.6179
㮶	-14.6179
㼁	-14.6179
䠶	-14.6179
䳓	-14.6179
亀	-14.6179
匭	-14.6179
厤	-14.6179
唉	-14.6179
坋	-14.6179
埧	-14.6179
墐	-14.6179
壩	-14.6179
娺	-14.6179
婠	-14.6179
尫	-14.6179
崳	-14.6179
廸	-14.6179
徸	-14.6179
挩	-14.6179
掐	-14.6179
揗	-14.6179
攛	-14.6179
斠	-14.6179
桍	-14.6179
檟	-14.6179
泐	-14.6179
泿	-14.6179
洰	-14.6179
湢	-14.6179
澳	-14.6179
牎	-14.6179
眘	-14.6179
眴	-14.6179
㗳	-14.6187
㢃	-14.6187
㬍	-14.6187
䘏	-14.6187
个	-14.6187
劊	-14.6187
卝	-14.6187
埀	-14.6187
娭	-14.6187
嫋	-14.6187
弝	-14.6187
扯	-14.6187
担	-14.6187
搦	-14.6187
斈	-14.6187
晹	-14.6187
柎	-14.6187
槪	-14.6187
欖	-14.6187
殍	-14.6187
溧	-14.6187
瀀	-14.6187
疴	-14.6187
瞍	-14.6195
㮔	-14.6195
㰰	-14.6195
㴾	-14.6195
㷱	-14.6195
䀽	-14.6195
亊	-14.6195
厺	-14.6195
圬	-14.6195
堲	-14.6195
峦	-14.6195
崓	-14.6195
戃	-14.6195
扭	-14.6195
挻	-14.6195
捥	-14.6195
搓	-14.6195
栲	-14.6195
椊	-14.6195
橙	-14.6195
檛	-14.6195
檮	-14.6195
櫚	-14.6195
沄	-14.6195
溫	-14.6195
澿	-14.6195
煮	-14.6195
獈	-14.6195
玳	-14.6195
瓷	-14.6195
甆	-14.6195
皡	-14.6195
矇	-14.6195
崎	-14.6203
勔	-14.6203
喨	-14.6203
姐	-14.6203
崪	-14.6203
嵷	-14.6203
庒	-14.6203
忩	-14.6203
抶	-14.6203
挿	-14.6203
掞	-14.6203
撚	-14.6203
撣	-14.6203
攑	-14.6203
浯	-14.6203
渻	-14.6203
滀	-14.6203
潴	-14.6203
牏	-14.6203
瑇	-14.6203
痪	-14.6203
憔	-14.6211
〔	-14.6211
㝃	-14.6211
剷	-14.6211
劳	-14.6211
哨	-14.6211
忼	-14.6211
惣	-14.6211
抨	-14.6211
掺	-14.6211
攏	-14.6211
斝	-14.6211
朐	-14.6211
槥	-14.6211
洶	-14.6211
熌	-14.6211
猱	-14.6211
獪	-14.6211
瘝	-14.6211
癙	-14.6211
氅	-14.6217
僥	-14.6219
䟲	-14.6219
丄	-14.6219
咢	-14.6219
妊	-14.6219
妒	-14.6219
姱	-14.6219
憟	-14.6219
搕	-14.6219
漪	-14.6219
珩	-14.6219
璖	-14.6219
璺	-14.6219
盩	-14.6219
㒜	-14.6227
㗀	-14.6227
㫪	-14.6227
仵	-14.6227
噆	-14.6227
屭	-14.6227
嶝	-14.6227
广	-14.6227
摐	-14.6227
摛	-14.6227
擋	-14.6227
斨	-14.6227
枇	-14.6227
淛	-14.6227
狫	-14.6227
猺	-14.6227
㟎	-14.6235
㠑	-14.6235
㮛	-14.6235
䏏	-14.6235
噱	-14.6235
捺	-14.6235
樠	-14.6235
溘	-14.6235
澟	-14.6235
燹	-14.6235
㽔	-14.6243
䘵	-14.6243
呮	-14.6243
寎	-14.6243
弅	-14.6243
录	-14.6243
扮	-14.6243
拴	-14.6243
枮	-14.6243
柝	-14.6243
殣	-14.6243
毚	-14.6243
氁	-14.6243
玹	-14.6243
珝	-14.6243
珣	-14.6243
皐	-14.6243
髴	-14.6251
㩁	-14.6251
嵲	-14.6251
彎	-14.6251
愰	-14.6251
涙	-14.6251
矬	-14.6251
䨜	-14.6259
丫	-14.6259
师	-14.6259
燉	-14.6259
甪	-14.6259
匐	-14.6267
张	-14.6267
愫	-14.6267
楪	-14.6267
煅	-14.6267
襮	-14.6267
刅	-14.6275
煤	-14.6275
痱	-14.6275
啊	-14.6283
峍	-14.6283
怐	-14.6283
愗	-14.6283
櫂	-14.6283
爬	-14.6283
柛	-14.6292
悪	-14.63
氶	-14.63
𩵄	-14.6304
𩳐	-14.6305
𩲃	-14.6306
𩃱	-14.6307
䝿	-14.6308
呾	-14.6308
嗼	-14.6308
捩	-14.6308
杴	-14.6308
𨥯	-14.6308
𨓦	-14.6309
𦨚	-14.631
𦢌	-14.6311
𤴯	-14.6312
𤏘	-14.6313
𢌞	-14.6314
𢂽	-14.6315
䲭	-14.6316
𡩬	-14.6316
𡊨	-14.6317
𠫭	-14.6318
𠌯	-14.6319
𠈁	-14.632
齯	-14.6321
齮	-14.6322
黝	-14.6323
黕	-14.6324
鸋	-14.6325
鶘	-14.6326
鵻	-14.6327
鵴	-14.6328
鵜	-14.6329
鴒	-14.633
鱄	-14.6331
狮	-14.6332
鰋	-14.6332
鮀	-14.6333
魓	-14.6334
魒	-14.6335
鬽	-14.6336
鬘	-14.6337
髁	-14.6338
駙	-14.6339
飂	-14.634
頠	-14.6341
靆	-14.6342
霤	-14.6343
霡	-14.6344
霎	-14.6345
闤	-14.6346
闠	-14.6347
鏸	-14.6348
鍪	-14.6349
醷	-14.635
鄞	-14.6351
迼	-14.6352
轢	-14.6353
蹭	-14.6354
踑	-14.6355
跫	-14.6356
豀	-14.6357
诚	-14.6358
譮	-14.6359
謑	-14.636
謋	-14.6361
詼	-14.6362
觭	-14.6363
覊	-14.6364
蟺	-14.6365
蟈	-14.6366
蝤	-14.6367
蜊	-14.6368
蚹	-14.6369
藘	-14.637
藋	-14.6371
蔻	-14.6372
茱	-14.6373
芧	-14.6374
膿	-14.6375
胈	-14.6376
肳	-14.6377
聡	-14.6378
耇	-14.6379
翱	-14.638
羜	-14.6381
罳	-14.6382
綯	-14.6383
綮	-14.6384
糯	-14.6385
糒	-14.6386
篌	-14.6387
箜	-14.6388
筤	-14.6389
筑	-14.639
竁	-14.6391
礲	-14.6392
磥	-14.6393
瞚	-14.6394
睞	-14.6395
眊	-14.6396
盏	-14.6397
盌	-14.6398
癊	-14.6399
瘣	-14.64
瘋	-14.6401
痠	-14.6402
甬	-14.6403
瓐	-14.6404
瑨	-14.6405
琱	-14.6406
玞	-14.6407
猻	-14.6408
猢	-14.6409
狽	-14.641
狌	-14.6411
犗	-14.6412
牴	-14.6413
燌	-14.6414
烋	-14.6415
瀍	-14.6416
瀋	-14.6417
溽	-14.6418
湔	-14.6419
渑	-14.642
泞	-14.6421
沚	-14.6422
氂	-14.6423
欬	-14.6424
欂	-14.6425
椶	-14.6426
椰	-14.6427
棅	-14.6428
柿	-14.6429
柤	-14.643
枽	-14.6431
朞	-14.6432
暋	-14.6433
晥	-14.6434
晛	-14.6435
晊	-14.6436
晅	-14.6437
斵	-14.6438
斔	-14.6439
摉	-14.644
掜	-14.6441
扜	-14.6442
慓	-14.6443
悆	-14.6444
恓	-14.6445
忞	-14.6446
徜	-14.6447
廋	-14.6448
廆	-14.6449
巑	-14.645
嶰	-14.6451
崺	-14.6452
峛	-14.6453
屼	-14.6454
孱	-14.6455
孀	-14.6456
嫵	-14.6457
嫠	-14.6458
媳	-14.6459
婤	-14.646
娌	-14.6461
姣	-14.6462
妯	-14.6463
妁	-14.6464
壝	-14.6465
塏	-14.6466
堠	-14.6467
坏	-14.6468
图	-14.6469
嚭	-14.647
嗋	-14.6471
喂	-14.6472
哈	-14.6473
哇	-14.6474
吔	-14.6475
剴	-14.6476
剄	-14.6477
冱	-14.6478
冓	-14.6479
偬	-14.648
倥	-14.6481
俔	-14.6482
侲	-14.6483
侉	-14.6484
串	-14.6485
䰢	-14.6486
䘃	-14.6487
䍚	-14.6488
䅮	-14.6489
㺄	-14.649
㘽	-14.6491
㘭	-14.6492
㕙	-14.6493
㔶	-14.6494
麯	-14.6495
鷽	-14.6496
鱮	-14.6497
駴	-14.6498
頲	-14.6499
頏	-14.65
頍	-14.6501
鐍	-14.6502
鍭	-14.6503
酩	-14.6504
酊	-14.6505
輐	-14.6506
趦	-14.6507
讜	-14.6508
譒	-14.6509
蠮	-14.651
蟪	-14.6511
螮	-14.6512
螉	-14.6513
蝝	-14.6514
蜱	-14.6515
蜍	-14.6516
虻	-14.6517
蘅	-14.6518
薏	-14.6519
萏	-14.652
苡	-14.6521
脰	-14.6522
縠	-14.6523
紽	-14.6524
紡	-14.6525
糢	-14.6526
簠	-14.6527
竆	-14.6528
磲	-14.6529
磧	-14.653
盅	-14.6531
癧	-14.6532
痘	-14.6533
瑪	-14.6534
瑙	-14.6535
琶	-14.6536
琵	-14.6537
珈	-14.6538
煨	-14.6539
滹	-14.654
涒	-14.6541
檝	-14.6542
檎	-14.6543
橦	-14.6544
楩	-14.6545
椡	-14.6546
曌	-14.6547
捜	-14.6548
戬	-14.6549
惒	-14.655
徬	-14.6551
幎	-14.6552
姮	-14.6553
妤	-14.6554
奰	-14.6555
坷	-14.6556
嚀	-14.6557
叮	-14.6558
𧕍	-14.6559
𤢜	-14.656
𠺶	-14.6561
鼾	-14.6562
鼉	-14.6563
黈	-14.6564
鳲	-14.6565
鱷	-14.6566
鱣	-14.6567
陕	-14.6568
鍵	-14.6569
醎	-14.657
酈	-14.6571
跬	-14.6572
跑	-14.6573
謦	-14.6574
誙	-14.6575
詁	-14.6576
覡	-14.6577
蠕	-14.6578
蜘	-14.6579
虰	-14.658
薿	-14.6581
蔦	-14.6582
葂	-14.6583
菶	-14.6584
莓	-14.6585
芚	-14.6586
芃	-14.6587
翽	-14.6588
綈	-14.6589
篚	-14.659
盭	-14.6591
痡	-14.6592
獬	-14.6593
犲	-14.6594
焄	-14.6595
瀐	-14.6596
澎	-14.6597
漦	-14.6598
滙	-14.6599
湃	-14.66
洟	-14.6601
楞	-14.6602
桁	-14.6603
栻	-14.6604
搰	-14.6605
愸	-14.6606
愊	-14.6607
恑	-14.6608
忸	-14.6609
忷	-14.661
弨	-14.6611
开	-14.6612
庳	-14.6613
嵫	-14.6614
嫦	-14.6615
嫄	-14.6616
噰	-14.6617
喤	-14.6618
叵	-14.6619
偓	-14.662
伫	-14.6621
鴳	-14.6622
騄	-14.6623
霶	-14.6624
袽	-14.6625
蚍	-14.6626
蘝	-14.6627
腔	-14.6628
肓	-14.6629
縐	-14.663
粕	-14.6631
窿	-14.6632
睥	-14.6633
畯	-14.6634
瓞	-14.6635
璀	-14.6636
牾	-14.6637
熳	-14.6638
沅	-14.6639
愢	-14.664
幪	-14.6641
嶾	-14.6642
嵳	-14.6643
嵉	-14.6644
娛	-14.6645
埳	-14.6646
嚏	-14.6647
刎	-14.6648
䗫	-14.6649
䄇	-14.665
颻	-14.6651
醐	-14.6652
醍	-14.6653
蹁	-14.6654
螂	-14.6655
蝣	-14.6656
蝠	-14.6657
蝙	-14.6658
腯	-14.6659
脗	-14.666
肸	-14.6661
肫	-14.6662
细	-14.6663
繘	-14.6664
綌	-14.6665
磋	-14.6666
碼	-14.6667
碯	-14.6668
砧	-14.6669
皥	-14.667
瓿	-14.6671
珀	-14.6672
湲	-14.6673
戔	-14.6674
惸	-14.6675
恝	-14.6676
媧	-14.6677
姞	-14.6678
嚾	-14.6679
呦	-14.668
匆	-14.6681
䴸	-14.6682
鴥	-14.6683
鄏	-14.6684
郟	-14.6685
輗	-14.6686
貅	-14.6687
詿	-14.6688
裟	-14.6689
袈	-14.669
蝃	-14.6691
膻	-14.6692
窬	-14.6693
瑘	-14.6694
玁	-14.6695
焜	-14.6696
嵇	-14.6697
噩	-14.6698
䵃	-14.6699
㠝	-14.67
𥼶	-14.6701
鷯	-14.6702
餗	-14.6703
邙	-14.6704
邂	-14.6705
逅	-14.6706
貊	-14.6707
襤	-14.6708
褸	-14.6709
絨	-14.671
甓	-14.6711
峋	-14.6712
咷	-14.6713
㶁	-14.6714
齷	-14.6715
鴦	-14.6716
靂	-14.6717
閈	-14.6718
躇	-14.6719
苢	-14.672
芣	-14.6721
臞	-14.6722
翶	-14.6723
簞	-14.6724
琊	-14.6725
瀰	-14.6726
柬	-14.6727
柚	-14.6728
枵	-14.6729
愀	-14.673
塿	-14.6731
騑	-14.6732
鈳	-14.6733
蹢	-14.6734
蝀	-14.6735
虩	-14.6736
綢	-14.6737
絏	-14.6738
瓈	-14.6739
柢	-14.674
懨	-14.6741
彀	-14.6742
婕	-14.6743
嘍	-14.6744
嗈	-14.6745
唧	-14.6746
刲	-14.6747
蒺	-14.6748
璈	-14.6749
狁	-14.675
惆	-14.6751
囹	-14.6752
喟	-14.6753
駸	-14.6754
逶	-14.6755
譆	-14.6756
朦	-14.6757
惙	-14.6758
鄱	-14.6759
躑	-14.676
躊	-14.6761
跎	-14.6762
稊	-14.6763
矍	-14.6764
漣	-14.6765
涬	-14.6766
亳	-14.6767
𠻸	-14.6768
蹰	-14.6769
蜉	-14.677
徨	-14.6771
嫫	-14.6772
葫	-14.6773
姹	-14.6774
剰	-14.6775
霏	-14.6776
紜	-14.6777
蟇	-14.6778
廙	-14.6779
搢	-14.678
齪	-14.6781
魎	-14.6782
睺	-14.6783
暐	-14.6784
䡘	-14.6785
孜	-14.6786
氤	-14.6787
羑	-14.6788
氲	-14.6789
岧	-14.679
麒	-14.6791
匈	-14.6792
蓉	-14.6793
芙	-14.6794
逍	-14.6795
