<unk>	0
<s>	0
</s>	0
之	-3.85675
而	-4.54425
也	-4.59496
爲	-4.85221
以	-4.88559
者	-4.92557
有	-5.07838
(	-5.10578
)	-5.10607
不	-5.10626
一	-5.20783
其	-5.22046
於	-5.22969
人	-5.34337
無	-5.3466
則	-5.35057
天	-5.56998
心	-5.57906
大	-5.64527
自	-5.72612
中	-5.72697
生	-5.73657
道	-5.75218
此	-5.76124
曰	-5.81311
得	-5.83738
神	-5.86598
如	-5.90794
是	-5.91045
上	-5.92606
▁	-5.95039
行	-5.97171
矣	-5.99061
天尊大悲	-6.02245
在	-6.04403
乎	-6.09052
故	-6.10422
言	-6.10456
非	-6.10968
卽	-6.11795
眞	-6.13197
與	-6.13883
至	-6.16103
子	-6.18714
見	-6.20876
下	-6.23004
三	-6.23961
成	-6.27152
可	-6.27327
時	-6.27516
明	-6.2769
氣	-6.28392
若	-6.2952
我	-6.29666
山	-6.31418
法	-6.32589
水	-6.32846
出	-6.34669
所	-6.3504
然	-6.35368
知	-6.358
身	-6.35802
能	-6.37741
相	-6.38024
日	-6.38093
亦	-6.4009
乃	-6.41409
事	-6.4362
皆	-6.44778
已	-6.44921
正	-6.46379
入	-6.49009
來	-6.49687
火	-6.51277
當	-6.51685
化	-6.52111
同	-6.5429
靈	-6.54455
又	-6.56298
地	-6.5795
用	-6.59168
名	-6.60245
金	-6.60354
性	-6.61785
精	-6.64988
仙	-6.65453
陽	-6.65512
善	-6.66107
分	-6.66127
經	-6.67372
或	-6.6758
合	-6.68197
從	-6.68341
欲	-6.6912
二	-6.6927
五	-6.69947
四	-6.70721
命	-6.71028
德	-6.71844
必	-6.72046
元	-6.72764
處	-6.73814
後	-6.73989
風	-6.74402
作	-6.74559
盡	-6.74778
吾	-6.75757
光	-6.75917
將	-6.76339
本	-6.79468
未	-6.79532
何	-6.79718
雲	-6.80234
復	-6.80836
修	-6.80929
陰	-6.8101
前	-6.81103
常	-6.81124
方	-6.81614
難	-6.81799
過	-6.81961
物	-6.82214
功	-6.82333
玄	-6.8323
通	-6.83663
月	-6.83722
多	-6.83768
空	-6.84388
内	-6.85511
因	-6.86538
外	-6.86577
文	-6.88407
去	-6.88869
先	-6.89489
居	-6.90537
諸	-6.9088
長	-6.91127
觀	-6.9118
安	-6.91289
開	-6.9132
聖	-6.92002
體	-6.93915
歸	-6.94254
意	-6.94338
定	-6.94416
王	-6.94663
惟	-6.94969
云	-6.94999
夫	-6.95079
世	-6.95738
形	-6.95999
萬	-6.96172
高	-6.96859
實	-6.96883
君	-6.97146
今	-6.97561
雖	-6.97989
玉	-6.98334
九	-6.98528
求	-6.98689
石	-6.99016
死	-6.99476
傳	-6.99604
臣	-6.99691
焉	-6.99946
易	-7.00386
旣	-7.0044
聞	-7.00495
師	-7.01127
天地	-7.01717
不可	-7.02113
門	-7.02469
始	-7.02731
淸	-7.0276
度	-7.03084
理	-7.03129
應	-7.03369
動	-7.04259
靜	-7.04398
虛	-7.04799
炁	-7.04887
龍	-7.05217
數	-7.0567
家	-7.05697
小	-7.07138
立	-7.07194
于	-7.07711
書	-7.07805
丹	-7.08332
使	-7.09266
不能	-7.0944
教	-7.09491
公	-7.10601
耳	-7.11635
妙	-7.11796
流	-7.12066
謂	-7.12324
凡	-7.12437
全	-7.13352
起	-7.13887
要	-7.14727
守	-7.14814
主	-7.14983
飛	-7.15396
重	-7.15503
初	-7.15751
六	-7.16238
兩	-7.16531
說	-7.16699
念	-7.16851
發	-7.16954
深	-7.1705
帝	-7.17698
和	-7.18219
樂	-7.18966
運	-7.19596
哉	-7.19997
白	-7.20142
受	-7.20623
思	-7.21102
而不	-7.217
天尊	-7.21976
及	-7.2214
字	-7.22213
年	-7.22818
音	-7.22962
取	-7.2373
信	-7.24033
所以	-7.24996
惡	-7.25418
自然	-7.25547
會	-7.26407
莫	-7.26469
○	-7.26637
離	-7.27139
寶	-7.27531
民	-7.28071
由	-7.29041
不知	-7.29282
力	-7.29697
極	-7.30609
養	-7.30821
八	-7.31495
隨	-7.32803
願	-7.335
結	-7.336
利	-7.34025
志	-7.34145
福	-7.34424
還	-7.34634
花	-7.34843
遂	-7.3509
解	-7.35118
且	-7.35278
南	-7.35719
符	-7.36833
宜	-7.37213
終	-7.37321
眾	-7.37537
西	-7.38003
根	-7.38116
情	-7.38177
等	-7.38192
降	-7.38234
好	-7.38343
語	-7.38644
土	-7.39009
關	-7.39044
老	-7.39819
失	-7.402
足	-7.40531
存	-7.40581
聲	-7.40617
木	-7.40821
固	-7.41125
遠	-7.41238
口	-7.41882
更	-7.43109
廣	-7.43182
平	-7.43782
東	-7.44583
誠	-7.45204
章	-7.45259
色	-7.4554
七	-7.45924
學	-7.46043
所謂	-7.46085
治	-7.46158
止	-7.46288
可以	-7.46315
轉	-7.46588
猶	-7.46769
洞	-7.46876
百	-7.47097
陰陽	-7.47177
照	-7.47219
異	-7.47285
天下	-7.47582
十	-7.47589
藥	-7.4793
黃	-7.48218
問	-7.48606
千	-7.48719
某	-7.48992
甚	-7.49141
息	-7.49371
望	-7.49421
令	-7.51125
覺	-7.5139
彼	-7.51949
俱	-7.52036
位	-7.52184
便	-7.52304
女	-7.52384
遇	-7.52695
乾	-7.5298
國	-7.53167
義	-7.53299
藏	-7.53327
致	-7.53455
蓋	-7.5352
節	-7.53793
星	-7.53846
戒	-7.53858
少	-7.54782
微	-7.54877
親	-7.54892
各	-7.54976
華	-7.55144
目	-7.55717
海	-7.56148
直	-7.5621
保	-7.56221
遊	-7.56405
以爲	-7.56494
到	-7.56563
須	-7.56579
識	-7.56597
象	-7.56813
香	-7.56826
佛	-7.56961
故曰	-7.56976
交	-7.57863
機	-7.58147
往	-7.58154
祖	-7.5816
著	-7.58643
人之	-7.58936
但	-7.59457
證	-7.59705
宫	-7.60021
指	-7.60586
悟	-7.6062
稱	-7.60696
母	-7.61054
眞人	-7.61113
永	-7.61292
順	-7.6137
大道	-7.61468
反	-7.61705
隱	-7.61802
煉	-7.61934
宗	-7.6257
獨	-7.62873
敬	-7.63098
坐	-7.63254
謂之	-7.64175
苦	-7.64586
邪	-7.64606
斯	-7.64656
食	-7.65135
張	-7.65593
屬	-7.65703
視	-7.65734
司	-7.65772
首	-7.65931
滿	-7.66315
一切	-7.66328
果	-7.66396
古	-7.66468
忘	-7.6655
間	-7.66901
春	-7.67047
仁	-7.67504
向	-7.67563
周	-7.67615
雨	-7.67726
塵	-7.6792
了	-7.67947
緣	-7.68107
愛	-7.68124
進	-7.68365
宮	-7.68547
總	-7.68559
恩	-7.68628
變	-7.68766
朝	-7.68999
禮	-7.69165
登	-7.69291
頭	-7.69503
舉	-7.69676
境	-7.70096
施	-7.70255
太	-7.70568
北	-7.70841
江	-7.7087
豈	-7.70931
具	-7.71498
不得	-7.7154
圖	-7.71598
都	-7.71638
貴	-7.71659
爾	-7.72094
先天	-7.7222
除	-7.72431
似	-7.72652
靑	-7.72699
持	-7.72741
右	-7.73472
妄	-7.73889
滅	-7.74049
幾	-7.74191
士	-7.74536
之所	-7.74623
病	-7.74684
壇	-7.7493
原	-7.75359
達	-7.75802
伏	-7.75848
勝	-7.76125
顯	-7.76444
府	-7.765
報	-7.76676
久	-7.77013
路	-7.7706
奉	-7.77208
幽	-7.77745
真	-7.78005
馬	-7.78201
輕	-7.79188
坤	-7.79249
夜	-7.79269
尊	-7.79644
論	-7.79827
尙	-7.80336
予	-7.81201
官	-7.81357
乘	-7.81393
只	-7.82027
陳	-7.82729
罪	-7.83312
日月	-7.83446
。	-7.83573
就	-7.83603
景	-7.83917
窮	-7.84531
業	-7.8457
圓	-7.84622
記	-7.84775
請	-7.85224
依	-7.85457
勿	-7.85594
益	-7.85982
奇	-7.86045
散	-7.86051
兮	-7.86177
之中	-7.86275
夀	-7.86442
尋	-7.86749
制	-7.86819
亂	-7.87006
落	-7.87029
執	-7.8744
臨	-7.87478
集	-7.8765
破	-7.87666
萬物	-7.87739
聖人	-7.88335
詩	-7.88335
之道	-7.88939
共	-7.88953
興	-7.89049
虎	-7.89215
魔	-7.89234
聽	-7.89524
鬼	-7.89839
殺	-7.90197
加	-7.90291
仰	-7.90489
孝	-7.90765
鍊	-7.90813
漢	-7.91126
消	-7.91171
任	-7.91289
列	-7.91453
胎	-7.91972
參	-7.91991
者也	-7.9243
特	-7.92646
寒	-7.92701
亡	-7.92991
濟	-7.93068
斷	-7.93171
雷	-7.93433
己	-7.93518
手	-7.93692
謹	-7.93802
兵	-7.93999
城	-7.94021
鼎	-7.9429
積	-7.94482
乾坤	-7.94604
金丹	-7.9464
室	-7.94792
號	-7.94876
備	-7.95061
容	-7.95177
次	-7.95698
感	-7.96225
林	-7.96879
如是	-7.9732
害	-7.97438
泉	-7.97453
太極	-7.98123
再	-7.98167
引	-7.98202
對	-7.98289
耶	-7.99169
表	-7.9929
傷	-7.99418
示	-7.99658
絕	-7.99729
半	-7.99964
類	-8.00004
美	-8.00208
新	-8.00243
齊	-8.00461
升	-8.00492
衣	-8.01197
普	-8.01499
智	-8.01504
太上	-8.01856
魂	-8.01914
喜	-8.01926
疑	-8.02007
左	-8.02012
慈	-8.02042
他	-8.02156
皇	-8.02171
迷	-8.02438
返	-8.02567
造	-8.02865
羣	-8.02901
咸	-8.03251
留	-8.03403
誰	-8.03523
漸	-8.03646
超	-8.03664
剛	-8.03705
賢	-8.03733
並	-8.03793
斗	-8.04158
住	-8.04158
珠	-8.04343
浮	-8.04558
現	-8.04628
看	-8.04638
𡻕	-8.04724
逆	-8.05033
近	-8.05675
秋	-8.05822
建	-8.05871
强	-8.05992
愚	-8.06226
載	-8.06282
如此	-8.06436
貪	-8.06658
⬤	-8.06806
懷	-8.07235
汝	-8.07384
愈	-8.07648
承	-8.07692
源	-8.07698
種	-8.07698
酒	-8.07713
鉛	-8.07952
臺	-8.08161
父	-8.08198
垂	-8.08292
慧	-8.08496
州	-8.08586
無爲	-8.08634
服	-8.08834
歌	-8.08864
恐	-8.08995
堂	-8.09195
忽	-8.09283
每	-8.09937
面	-8.10151
田	-8.1019
最	-8.10462
曲	-8.10483
威	-8.10783
端	-8.1103
先生	-8.11174
淨	-8.1145
昔	-8.11848
徒	-8.1191
清	-8.12856
釋	-8.12977
放	-8.12984
俗	-8.13094
李	-8.13138
長生	-8.1348
舍	-8.13524
品	-8.13651
待	-8.13836
巳	-8.14011
聚	-8.14038
卦	-8.14137
宣	-8.14417
眞君	-8.14627
甯	-8.14936
收	-8.14966
谷	-8.1581
夢	-8.15908
含	-8.15926
赤	-8.15947
步	-8.16116
統	-8.1635
申	-8.16426
星君	-8.16476
休	-8.16518
接	-8.1667
回	-8.16736
裏	-8.16774
吉	-8.16799
武	-8.16967
露	-8.1774
儒	-8.17947
啟	-8.18094
素	-8.18136
退	-8.18234
客	-8.18453
假	-8.18459
比	-8.18671
設	-8.18767
凝	-8.18804
呼	-8.1897
無所	-8.19126
之心	-8.19802
護	-8.20007
序	-8.20008
救	-8.20086
切	-8.20352
樹	-8.20664
遺	-8.20878
之時	-8.20881
弟子	-8.20922
坎	-8.21133
氏	-8.21293
淫	-8.21374
笑	-8.21608
註	-8.21804
適	-8.22466
部	-8.22528
推	-8.22563
調	-8.22638
候	-8.2277
悉	-8.23017
輔	-8.23064
注	-8.23066
採	-8.23163
羅	-8.23175
草	-8.23271
良	-8.23338
期	-8.2344
貞	-8.23519
震	-8.23551
謝	-8.23636
巖	-8.2381
劫	-8.2412
計	-8.24541
告	-8.24581
慶	-8.2481
忠	-8.25086
許	-8.25394
嘗	-8.25438
余	-8.25521
柔	-8.25891
松	-8.26169
一日	-8.26303
想	-8.26411
齋	-8.26428
勞	-8.26483
世人	-8.26518
而後	-8.26561
棄	-8.26668
拜	-8.26695
狀	-8.26705
補	-8.26777
竅	-8.26823
喻	-8.26862
是以	-8.2687
爭	-8.26875
堅	-8.26939
葢	-8.27093
疾	-8.27105
造化	-8.27195
專	-8.27225
累	-8.27242
篇	-8.27801
奏	-8.27816
車	-8.27881
脫	-8.27892
災	-8.28115
功德	-8.28139
眾生	-8.28221
至於	-8.28273
禍	-8.28458
眼	-8.28874
延	-8.28928
池	-8.2896
絶	-8.29398
火候	-8.29533
幸	-8.29547
盛	-8.30045
殿	-8.30135
水火	-8.30227
布	-8.3074
何以	-8.31342
嚴	-8.31503
是也	-8.31796
旨	-8.3191
移	-8.31912
卻	-8.32052
魚	-8.32227
游	-8.3236
辭	-8.32365
峰	-8.32471
光明	-8.32567
神仙	-8.32709
刻	-8.3294
驚	-8.33054
上帝	-8.332
僧	-8.33246
澤	-8.33278
私	-8.33308
於此	-8.33434
餘	-8.33563
紫	-8.33564
影	-8.33771
召	-8.33788
黑	-8.34103
牛	-8.34108
畫	-8.34116
軍	-8.34208
蜀	-8.34513
詞	-8.34513
亮	-8.34609
細	-8.34743
損	-8.34881
紅	-8.34929
器	-8.35708
走	-8.35853
中有	-8.3594
的	-8.36035
厯	-8.36346
危	-8.36511
劉	-8.36619
宿	-8.36835
典	-8.37059
才	-8.37261
之功	-8.37626
吳	-8.37696
克	-8.37707
財	-8.37818
務	-8.38523
被	-8.38537
獲	-8.38692
君子	-8.38704
汞	-8.3889
變化	-8.38896
授	-8.39169
庭	-8.39227
句	-8.39413
顧	-8.39665
急	-8.39714
亭	-8.39893
竹	-8.39914
之間	-8.40131
辰	-8.40333
而爲	-8.4038
輪	-8.40501
錄	-8.40593
喪	-8.40684
血	-8.40918
密	-8.41365
遍	-8.41366
別	-8.41417
徹	-8.41683
五行	-8.41686
况	-8.417
雪	-8.41994
禪	-8.42539
而已	-8.42649
戰	-8.42689
末	-8.42771
慮	-8.4298
投	-8.4302
舊	-8.43175
遷	-8.43188
質	-8.43219
攝	-8.43287
濁	-8.43336
後天	-8.43394
工夫	-8.43481
訓	-8.43573
九天	-8.43617
按	-8.43657
生死	-8.43681
河	-8.43755
曾	-8.43781
侯	-8.43814
其所	-8.43833
代	-8.44078
提	-8.44134
弗	-8.4427
習	-8.44305
純	-8.44449
諸天	-8.44573
厚	-8.44735
,	-8.45101
不見	-8.45157
揚	-8.45241
點	-8.45579
溪	-8.45628
昭	-8.45684
盈	-8.45717
敗	-8.45919
偏	-8.45945
爐	-8.46131
抱	-8.46296
惠	-8.46404
障	-8.46462
䝉	-8.46663
朱	-8.46694
劍	-8.46732
波	-8.46914
崇	-8.46971
術	-8.4698
默	-8.4708
工	-8.47181
勢	-8.47222
味	-8.474
逐	-8.47403
縣	-8.47521
御	-8.47623
性命	-8.47712
舟	-8.47775
父母	-8.47848
十二	-8.47854
鳥	-8.48052
辨	-8.48055
冥	-8.48173
演	-8.48191
誦	-8.48354
界	-8.48375
於是	-8.48425
卷	-8.48445
寺	-8.48459
勤	-8.48509
而無	-8.48582
封	-8.48887
無極	-8.49047
孤	-8.49048
資	-8.49139
負	-8.49452
童	-8.49489
政	-8.49697
卽是	-8.50211
之理	-8.50355
凶	-8.50377
謀	-8.50426
仍	-8.50561
把	-8.50768
無不	-8.50789
尤	-8.51262
速	-8.51377
碧	-8.51586
殊	-8.51792
掌	-8.51798
骨	-8.52248
兆	-8.52362
量	-8.52849
吟	-8.52948
考	-8.53025
省	-8.53194
患	-8.5332
泰	-8.53638
紀	-8.53742
怒	-8.54095
覆	-8.54138
祈	-8.5416
鳴	-8.5422
樓	-8.54376
繼	-8.54448
畢	-8.54577
兼	-8.54644
鶴	-8.54724
混	-8.54803
勸	-8.54926
為	-8.55184
唐	-8.55212
庶	-8.55262
察	-8.55278
井	-8.55498
十方	-8.5564
逢	-8.55803
讀	-8.55919
上下	-8.56041
孫	-8.56067
領	-8.5612
敢	-8.56123
頂	-8.56145
幻	-8.56499
希	-8.56535
縱	-8.56692
權	-8.56696
薄	-8.56741
免	-8.56803
帝君	-8.56817
育	-8.56818
無窮	-8.56911
廟	-8.57049
越	-8.5748
迎	-8.57516
筆	-8.57542
鎭	-8.5755
詳	-8.57629
洪	-8.57672
也故	-8.57842
談	-8.57852
連	-8.58307
鼓	-8.58381
寂	-8.58426
淵	-8.58495
拔	-8.5851
盜	-8.58631
不足	-8.58632
題	-8.5873
閒	-8.58922
畏	-8.59012
均	-8.59132
元始	-8.59156
悲	-8.59192
羽	-8.59244
透	-8.59249
助	-8.59324
薦	-8.5934
無上	-8.59342
恭	-8.59473
野	-8.59598
駕	-8.59615
有所	-8.5964
跡	-8.59675
霞	-8.59745
之法	-8.59807
簡	-8.59987
壁	-8.60226
之後	-8.60393
淸淨	-8.6047
憂	-8.60524
榮	-8.60761
置	-8.60868
刑	-8.60927
而成	-8.60988
那	-8.61052
疏	-8.61298
履	-8.61413
早	-8.61626
苟	-8.62125
暗	-8.62182
徑	-8.62233
道德	-8.62481
不敢	-8.62627
橋	-8.62633
其心	-8.63202
祥	-8.63269
英	-8.63336
貫	-8.63935
無量	-8.63943
人間	-8.64133
充	-8.64144
維	-8.64186
鑒	-8.6449
燈	-8.64737
伯	-8.64797
折	-8.64914
基	-8.64942
富	-8.65017
竟	-8.6512
然後	-8.65318
曹	-8.6548
試	-8.6549
昏	-8.65536
職	-8.65539
川	-8.65598
融	-8.65643
雙	-8.65741
鬼神	-8.65756
惑	-8.65779
閉	-8.65871
怨	-8.65884
鳳	-8.65903
天地之	-8.65972
律	-8.66092
鸞	-8.66527
增	-8.66714
玉帝	-8.66749
魄	-8.6685
一念	-8.66851
秀	-8.66902
儀	-8.67006
靈寶	-8.67061
籍	-8.67116
活	-8.67117
巧	-8.67132
夏	-8.67265
否	-8.67272
毋	-8.67354
險	-8.67359
完	-8.6741
青	-8.67461
醉	-8.67559
雜	-8.67561
午	-8.67651
一點	-8.67656
泥丸	-8.67688
奪	-8.67925
三界	-8.68106
翁	-8.68224
友	-8.68283
橫	-8.68356
之氣	-8.68406
傾	-8.68464
囘	-8.68491
之妙	-8.68856
呼吸	-8.6888
葉	-8.68972
烟	-8.6914
腎	-8.6923
戸	-8.69312
衞	-8.69326
印	-8.69677
犯	-8.69791
道人	-8.69882
虛無	-8.70018
背	-8.70021
房	-8.70141
男	-8.70145
寄	-8.70202
瓊	-8.70333
漏	-8.70717
嗣	-8.70736
枯	-8.70832
即	-8.70846
得道	-8.70928
慈悲	-8.7096
違	-8.71075
不過	-8.71372
效	-8.71437
而生	-8.715
伏願	-8.71559
包	-8.71773
旋	-8.71874
賴	-8.71944
卒	-8.72113
梁	-8.72244
訣	-8.7228
又曰	-8.72406
際	-8.72439
秘	-8.72619
不同	-8.72834
之事	-8.72976
侍	-8.73174
道之	-8.7319
產	-8.73354
管	-8.7337
陵	-8.73372
之士	-8.73474
兌	-8.73724
甲	-8.73786
條	-8.7389
銀	-8.73956
納	-8.73984
之人	-8.74092
第一	-8.74236
之意	-8.74238
里	-8.74265
茲	-8.74435
醮	-8.74487
叩	-8.74715
約	-8.74716
穴	-8.748
毒	-8.74841
墮	-8.74876
據	-8.74884
不爲	-8.74931
讚	-8.74984
甘	-8.7506
人心	-8.75082
元神	-8.75178
庸	-8.75184
純陽	-8.75219
太虛	-8.75427
人也	-8.75691
懸	-8.75767
沉	-8.76084
着	-8.76104
扶	-8.76183
宋	-8.76298
便是	-8.76379
昌	-8.76431
無形	-8.76594
規	-8.76951
坎離	-8.76999
賜	-8.77015
做	-8.77064
途	-8.77262
曉	-8.77549
魏	-8.77658
貧	-8.77734
俾	-8.77774
梵	-8.77855
悔	-8.78359
附	-8.78468
大聖	-8.78697
哀	-8.78755
昧	-8.78864
枝	-8.78884
追	-8.79126
賊	-8.79168
冠	-8.79193
金闕	-8.79207
憑	-8.79285
偶	-8.79324
朗	-8.79663
不可以	-8.79763
格	-8.80157
塞	-8.80183
沈	-8.80266
盤	-8.8047
罔	-8.80936
闕	-8.81047
差	-8.81114
爰	-8.81145
竊	-8.81152
案	-8.81164
科	-8.81369
潛	-8.81373
其中	-8.81388
借	-8.81572
驗	-8.81625
地獄	-8.81739
係	-8.81884
院	-8.82122
天下之	-8.82164
徧	-8.82567
像	-8.82621
贊	-8.8283
往來	-8.83196
丁	-8.83264
防	-8.83424
沙	-8.8345
斬	-8.83511
送	-8.83518
宇	-8.83543
究	-8.83806
尺	-8.83903
纔	-8.83968
天仙	-8.84046
翠	-8.84132
烈	-8.84185
祠	-8.84273
錢	-8.84496
詔	-8.84537
蒼	-8.84834
湖	-8.84991
左右	-8.85058
昇	-8.85062
渾	-8.85073
是爲	-8.85075
吏	-8.85084
腹	-8.85121
錫	-8.85138
映	-8.85149
楊	-8.85246
冀	-8.85446
煙	-8.85469
今日	-8.85511
蕩	-8.85577
淺	-8.8561
禁	-8.85659
招	-8.85676
祖師	-8.85713
趨	-8.85724
勇	-8.85867
誤	-8.86202
虛空	-8.86303
宏	-8.86339
率	-8.86428
大帝	-8.86517
壯	-8.86654
富貴	-8.87034
陣	-8.87126
胡	-8.87166
愼	-8.87252
從此	-8.87348
鏡	-8.87549
欺	-8.8758
言之	-8.87675
種種	-8.87728
潔	-8.87868
厥	-8.87873
中之	-8.8801
僞	-8.88154
浪	-8.88159
冷	-8.88395
帶	-8.8841
閣	-8.88414
液	-8.8855
廢	-8.88681
避	-8.88694
精神	-8.88812
宅	-8.889
龍虎	-8.89124
學者	-8.89141
訪	-8.89349
役	-8.89536
唯	-8.89685
配	-8.89715
刼	-8.89748
知其	-8.89782
這	-8.89944
寡	-8.89976
遣	-8.9
咎	-8.90098
座	-8.90151
咒	-8.90165
史	-8.90333
衰	-8.90356
温	-8.90429
抑	-8.90663
滯	-8.90839
營	-8.90848
之義	-8.90868
供	-8.90881
伐	-8.90894
得其	-8.90971
邊	-8.90995
遵	-8.91094
一時	-8.91166
蛇	-8.9118
菴	-8.91257
改	-8.91261
獻	-8.91269
身心	-8.91354
驅	-8.91392
契	-8.91467
仁義	-8.91468
生於	-8.91575
肅	-8.91701
吿	-8.91992
烏	-8.92073
瞻	-8.92168
環	-8.92472
本來	-8.92497
亦不	-8.92599
怪	-8.92671
自有	-8.92704
别	-8.92863
説	-8.92998
循	-8.93132
飲	-8.93216
兹	-8.93269
崖	-8.93327
孔	-8.93386
操	-8.93437
熟	-8.93505
惜	-8.93628
享	-8.93785
秉	-8.93828
渡	-8.94098
峯	-8.94106
底	-8.94141
動靜	-8.94149
不動	-8.94197
必有	-8.94201
穢	-8.94296
市	-8.94372
第	-8.94466
鍾	-8.94503
之則	-8.94513
鐵	-8.94569
功夫	-8.94626
赦	-8.94828
牒	-8.94842
鄕	-8.95105
堪	-8.9519
黃庭	-8.95469
聖賢	-8.95474
出入	-8.95548
干	-8.95567
天道	-8.95601
澄	-8.95609
墨	-8.95679
大藥	-8.95985
四時	-8.96132
迹	-8.96176
如何	-8.96182
徵	-8.96187
俯	-8.96497
學道	-8.96516
之炁	-8.96625
之精	-8.96692
振	-8.96746
暮	-8.9675
婦	-8.96809
巽	-8.96865
彰	-8.96957
神明	-8.97429
内外	-8.9745
寸	-8.97453
錯	-8.97524
述	-8.97537
未嘗	-8.97554
仙佛	-8.97556
暴	-8.97793
答	-8.978
悅	-8.97842
旁	-8.9801
蓮	-8.98032
潤	-8.98047
祀	-8.98075
馳	-8.98211
則有	-8.98237
懼	-8.98468
夷	-8.98549
嶽	-8.98593
無有	-8.98652
弱	-8.98658
晉	-8.98668
染	-8.98738
吐	-8.98864
綠	-8.98948
一心	-8.98971
侵	-8.99172
妖	-8.99175
費	-8.99233
世間	-8.99354
稍	-8.99481
淡	-8.99524
頓	-8.99628
也夫	-8.99679
殘	-8.99771
楚	-8.99811
爻	-8.99845
丹田	-9.00078
忍	-9.00262
徐	-9.00317
无	-9.00478
三教	-9.00501
之機	-9.00535
祿	-9.00773
逸	-9.00832
派	-9.00841
姓	-9.00897
擊	-9.00914
郡	-9.00957
認	-9.01132
蔽	-9.01204
道者	-9.01333
修行	-9.01345
鄉	-9.01366
講	-9.01472
觸	-9.01474
輝	-9.01547
此心	-9.01768
付	-9.01799
諸子	-9.01894
晦	-9.02033
雄	-9.02036
大天尊	-9.02127
賦	-9.02206
二字	-9.02206
艮	-9.02298
爽	-9.02443
三元	-9.02497
鼻	-9.02549
豐	-9.0257
屋	-9.02614
尅	-9.02792
索	-9.02903
狂	-9.02917
之謂	-9.0297
也然	-9.03029
隆	-9.03106
岸	-9.03405
愆	-9.03407
酬	-9.03424
荒	-9.0346
闡	-9.03512
赴	-9.03557
冬	-9.03621
玉淸	-9.03621
隔	-9.03647
宰	-9.0371
是謂	-9.03755
龜	-9.03813
也此	-9.03894
仲	-9.03968
敷	-9.03977
迴	-9.04027
并	-9.0404
佐	-9.04097
人身	-9.04175
道也	-9.04228
孰	-9.04366
以此	-9.04393
答曰	-9.044
是非	-9.04491
肝	-9.04606
十月	-9.04842
然而	-9.05021
不及	-9.05056
霄	-9.05107
舌	-9.05116
賓	-9.05156
亨	-9.05165
寓	-9.05231
燭	-9.05239
毛	-9.05551
妻	-9.05615
醫	-9.05618
不必	-9.05642
此言	-9.05649
人能	-9.05708
津	-9.05767
一身	-9.0585
邱	-9.05917
吸	-9.06037
卑	-9.06094
兒	-9.06263
三十	-9.06341
瑞	-9.06417
監	-9.06433
者有	-9.06446
之體	-9.0651
之神	-9.06609
北斗	-9.06738
溺	-9.06914
略	-9.06971
曜	-9.07043
不離	-9.0706
不生	-9.07161
亦有	-9.07246
沐浴	-9.07274
孔明	-9.0728
輩	-9.07451
還丹	-9.07476
恒	-9.07568
戲	-9.07581
勉	-9.07599
輿	-9.07613
痛	-9.07616
彩	-9.07625
範	-9.07854
柳	-9.07888
角	-9.07934
之象	-9.07978
綱	-9.08013
天之	-9.08431
也若	-9.085
舒	-9.08504
嶺	-9.08529
慾	-9.08558
巨	-9.08699
奚	-9.08781
焚	-9.08786
敵	-9.088
㪚	-9.08844
麗	-9.08854
庚	-9.08939
響	-9.09109
陶	-9.09157
鬱	-9.09172
仗	-9.09336
滋	-9.0938
神通	-9.09424
披	-9.09443
度人	-9.09467
嘉	-9.09492
將軍	-9.09844
名曰	-9.09879
子曰	-9.09922
三寶	-9.10108
小人	-9.10237
程	-9.10245
子孫	-9.10334
霜	-9.10382
壞	-9.10485
牽	-9.10605
舞	-9.10631
佑	-9.10684
倚	-9.10694
倫	-9.10774
勅	-9.10819
三稱	-9.10895
謙	-9.10959
愁	-9.10977
稽首	-9.11015
上淸	-9.11116
凡夫	-9.11189
之上	-9.11238
顚倒	-9.11316
錦	-9.11329
停	-9.115
刀	-9.11534
嬰兒	-9.11585
燕	-9.11619
秦	-9.11681
自在	-9.11691
者皆	-9.11707
元帥	-9.11745
是故	-9.11779
眞炁	-9.11837
禱	-9.11951
慕	-9.11969
而不知	-9.12092
於人	-9.12151
玅	-9.12202
不在	-9.12222
旡	-9.12232
藉	-9.12246
允	-9.12342
無心	-9.12376
身中	-9.12508
覩	-9.12521
啓	-9.12661
之際	-9.12692
貌	-9.12867
園	-9.12911
冲	-9.13233
混沌	-9.13509
由是	-9.13559
箇	-9.13684
摩	-9.13843
有爲	-9.13959
趣	-9.14082
天上	-9.14252
毁	-9.14433
擾	-9.14439
道士	-9.1447
髮	-9.14471
窺	-9.14514
殆	-9.14533
之說	-9.14585
知之	-9.14829
博	-9.14848
翼	-9.15127
攻	-9.15163
遲	-9.15173
者亦	-9.15211
責	-9.15216
羊	-9.15243
短	-9.15371
者必	-9.15448
象曰	-9.15512
二十	-9.15595
辱	-9.15777
匪	-9.15823
式	-9.1583
姑	-9.16015
困	-9.16056
尾	-9.16094
僅	-9.16099
續	-9.16255
一事	-9.16343
謁	-9.16442
鮮	-9.16465
先主	-9.16481
其身	-9.16528
化爲	-9.16581
淸靜	-9.16588
i	-9.16682
蟲	-9.16748
個	-9.16805
衍	-9.16808
顏	-9.16819
則爲	-9.17026
不用	-9.17093
阿	-9.17133
之用	-9.17265
議	-9.17269
洩	-9.17342
騰	-9.17347
導	-9.1744
泥	-9.17446
太和	-9.17543
厄	-9.17555
拘	-9.17612
陸	-9.17634
植	-9.1768
圓滿	-9.1798
懴	-9.18017
古今	-9.18139
不如	-9.18207
三十六	-9.18329
虞	-9.1847
解脫	-9.18781
竭	-9.18927
採取	-9.19007
經云	-9.19011
炎	-9.19133
閑	-9.19138
磨	-9.19146
至道	-9.19296
八卦	-9.19296
之地	-9.19653
人人	-9.19683
康	-9.19709
者不	-9.19767
乞	-9.19774
之内	-9.19804
擇	-9.19838
一人	-9.20041
算	-9.20076
樸	-9.20121
判	-9.20216
可見	-9.20274
男女	-9.20292
玉皇大天尊玄穹高上帝	-9.20378
彌	-9.20394
周天	-9.20553
毫	-9.2069
爲人	-9.20708
玉皇	-9.2078
決	-9.20813
醒	-9.20849
蘭	-9.20855
奔	-9.20871
賤	-9.20872
有餘	-9.20927
孔子	-9.20937
鴻	-9.21217
屏	-9.21262
分明	-9.21295
階	-9.21366
元炁	-9.21386
等至心皈命禮願	-9.21408
訟	-9.21533
屈	-9.21544
時時	-9.2163
網	-9.21918
陽神	-9.21928
亦無	-9.21978
紛	-9.22029
弟	-9.2215
掃	-9.22185
衡	-9.22217
詣	-9.22312
獄	-9.22353
云云	-9.2259
潭	-9.22594
三千	-9.226
棲	-9.22643
未有	-9.22722
白雲	-9.22796
晨	-9.22841
騎	-9.22971
元君	-9.22996
智慧	-9.23114
䖍	-9.23211
脈	-9.23252
夫人	-9.23261
修眞	-9.23313
太陽	-9.23542
)(	-9.23563
出於	-9.23565
捨	-9.23626
呂	-9.23632
芳	-9.23652
者非	-9.23823
猛	-9.23895
萌	-9.23989
不以	-9.24134
十五	-9.24309
射	-9.24372
涉	-9.24433
培	-9.24691
世之	-9.24732
米	-9.24756
珍	-9.2495
之初	-9.25024
戀	-9.2513
之言	-9.2517
曰吾	-9.25214
弘	-9.25507
何處	-9.25561
耗	-9.25811
缺	-9.25831
不出	-9.25895
天人	-9.25896
廬	-9.25994
至尊	-9.26002
三年	-9.2612
繫	-9.26169
儉	-9.26177
吞	-9.26185
方能	-9.26397
二十四	-9.26434
遭	-9.26557
天機	-9.2667
酉	-9.26844
肺	-9.26876
泛	-9.26896
肆	-9.26924
耀	-9.27066
而不能	-9.27158
沾	-9.27223
穿	-9.27258
雞	-9.2728
策	-9.27324
桃	-9.27857
洗	-9.27924
藴	-9.28007
琴	-9.28016
趙	-9.28096
北方	-9.28112
足以	-9.28231
歡	-9.28262
至此	-9.28268
祝	-9.28378
恃	-9.28386
肯	-9.28419
黃帝	-9.28648
此經	-9.28691
遙	-9.28726
探	-9.28753
搖	-9.28784
𡨚	-9.29011
可謂	-9.2904
雖有	-9.29054
無非	-9.29062
幼	-9.29171
吹	-9.29232
綿	-9.29335
太乙	-9.29418
憐	-9.29442
卿	-9.29448
叨	-9.29453
審	-9.29472
古人	-9.2949
曷	-9.29606
而有	-9.29672
武侯	-9.29706
烹	-9.2974
誅	-9.29863
莫不	-9.29876
層	-9.29887
恨	-9.299
芝	-9.29915
商	-9.30166
打	-9.30226
元氣	-9.30246
桂	-9.3025
逍遙	-9.30259
倒	-9.30264
飛昇	-9.30401
天心	-9.30454
互	-9.30527
不然	-9.30534
夕	-9.30603
之德	-9.30625
呈	-9.30636
晚	-9.30649
豈不	-9.30723
闢	-9.30921
支	-9.30953
忌	-9.31009
煩	-9.31038
祕	-9.31357
篆	-9.31479
草木	-9.31541
寅	-9.31716
削	-9.3184
晝夜	-9.31855
本無	-9.31956
㝠	-9.31964
玉女	-9.3197
有一	-9.32
顚	-9.32181
魯	-9.32222
韻	-9.32223
不善	-9.3231
翻	-9.32596
單	-9.32599
砂	-9.32746
編	-9.32927
茂	-9.3295
而得	-9.33041
碑	-9.33051
卯	-9.33256
菩薩	-9.33358
校	-9.3338
至人	-9.33402
者卽	-9.33409
進退	-9.33483
不明	-9.33496
鐘	-9.33643
藥物	-9.3365
孽	-9.33668
弄	-9.33697
寛	-9.33725
嗟	-9.33749
佳	-9.3376
韓	-9.33766
於天	-9.3378
孚	-9.33795
一炁	-9.33892
司命	-9.34003
快	-9.34042
伸	-9.34064
班	-9.34095
妙道	-9.34117
各有	-9.34349
爲一	-9.34486
無邊	-9.34527
澗	-9.34543
子等	-9.34595
矜	-9.34698
此一	-9.34746
又有	-9.34852
救苦	-9.34881
靖	-9.34923
躬	-9.34933
委	-9.34942
人生	-9.3495
丈	-9.34985
給	-9.35389
贈	-9.3551
道君	-9.35514
又何	-9.35519
得之	-9.35566
皆是	-9.35638
元精	-9.35643
殃	-9.35679
燒	-9.35698
者曰	-9.35706
拂	-9.35723
西方	-9.35746
神氣	-9.35796
大洞	-9.35891
四象	-9.35954
動而	-9.36033
覓	-9.36132
奸	-9.36137
十六	-9.36252
一氣	-9.36279
盟	-9.36512
靡	-9.36532
厲	-9.36537
不死	-9.36714
此時	-9.36752
而能	-9.36773
虧	-9.36917
托	-9.36932
疎	-9.36937
畧	-9.36996
圍	-9.37001
紫微	-9.37068
一陽	-9.37254
域	-9.37256
則不	-9.3726
誕	-9.37334
蘇	-9.37732
以其	-9.38066
歎	-9.38081
卜	-9.38139
梅	-9.38147
者爲	-9.38165
何如	-9.38202
又云	-9.38343
憫	-9.3854
蒙	-9.38551
癸	-9.38554
枉	-9.38577
5	-9.38875
軀	-9.38951
乳	-9.39
杜	-9.39062
鑿	-9.39366
晝	-9.39372
阻	-9.39376
繩	-9.39389
刧	-9.39412
添	-9.39417
脩	-9.39448
賞	-9.3945
茅	-9.3948
善惡	-9.39532
三才	-9.39539
吾身	-9.39569
倘	-9.3961
若有	-9.39643
之外	-9.39657
雷霆	-9.39808
輪迴	-9.39836
粗	-9.39845
不是	-9.39874
而自	-9.39952
皆有	-9.40003
霧	-9.40084
歟	-9.40176
漫	-9.4022
厭	-9.40411
畜	-9.40518
亥	-9.40565
祭	-9.4065
辯	-9.4066
軒	-9.40669
杖	-9.40723
之旨	-9.40818
老子	-9.41026
西南	-9.4107
中央	-9.41126
下手	-9.41162
樞	-9.41182
萬神	-9.41475
緩	-9.41495
繁	-9.41497
不相	-9.41498
莫能	-9.41504
介	-9.4151
晴	-9.41551
以成	-9.41576
物之	-9.41721
涵	-9.4186
暫	-9.41883
湯	-9.41896
羣生	-9.41908
唱	-9.41914
掩	-9.41943
其神	-9.4197
而言	-9.42008
不言	-9.42091
故能	-9.42215
岳	-9.42275
入道	-9.42428
人所	-9.42455
必須	-9.42573
消息	-9.42583
暢	-9.4273
南方	-9.42734
篤	-9.42799
席	-9.42819
屯	-9.42876
偈	-9.42885
眞經	-9.42917
凝神	-9.43056
無事	-9.43076
壺	-9.43104
逃	-9.43113
辛	-9.4312
世界	-9.43181
太陰	-9.43261
之所以	-9.43334
以來	-9.4334
豈非	-9.43382
眞鉛	-9.43474
夙	-9.43561
於心	-9.43583
朔	-9.43598
譽	-9.43598
慢	-9.43648
未能	-9.43664
而下	-9.43672
眞陽	-9.43688
詠	-9.4369
旁門	-9.43795
亦可	-9.43962
減	-9.44046
旺	-9.44056
戴	-9.44075
族	-9.44098
耕	-9.44099
只是	-9.44117
則無	-9.44178
歸於	-9.4425
化天尊大悲	-9.44295
穀	-9.44434
剝	-9.44485
只在	-9.44649
見其	-9.44698
男子	-9.44741
肉	-9.44808
不信	-9.44865
臻	-9.4492
叔	-9.44959
鑄	-9.4497
捐	-9.44979
行之	-9.45002
眉	-9.45016
女子	-9.45115
有形	-9.45337
礙	-9.45502
之道也	-9.45537
玉清	-9.45542
鉛汞	-9.45679
葛	-9.4575
讓	-9.45785
禹	-9.45798
頃	-9.45799
飯	-9.45864
十八	-9.45986
無所不	-9.46076
是經	-9.46186
京	-9.46225
后	-9.46241
修道	-9.46453
恬	-9.46625
何謂	-9.4669
𤣥	-9.46732
較	-9.46744
測	-9.46778
之門	-9.47097
征	-9.47156
冰	-9.47164
瑤	-9.47167
併	-9.47187
垣	-9.47187
雅	-9.472
没	-9.47211
因緣	-9.47377
電	-9.47417
方可	-9.47447
謬	-9.47584
罷	-9.47602
凌	-9.47659
衆	-9.47792
人物	-9.47795
爲主	-9.47885
升降	-9.47927
後世	-9.4797
躍	-9.48047
怠	-9.4808
飾	-9.48083
飄	-9.48128
屢	-9.4813
不自	-9.48367
之下	-9.48435
之數	-9.48488
欽	-9.4849
忠孝	-9.48574
撫	-9.48588
此章	-9.48661
得此	-9.48707
鑑	-9.48967
函	-9.48993
煥	-9.48994
奈何	-9.49008
不成	-9.49013
東南	-9.49025
人皆	-9.49144
日直	-9.49261
主宰	-9.49303
齒	-9.49395
偕	-9.49399
牢	-9.49408
嘆	-9.49435
萬里	-9.49479
玉京	-9.49483
東方	-9.49673
不聞	-9.49856
彭	-9.49906
黃芽	-9.49949
一年	-9.50039
億	-9.50151
割	-9.50362
崑崙	-9.5039
孟	-9.50628
百日	-9.5068
戶	-9.50767
郭	-9.50839
沒	-9.50871
牧	-9.50964
旦	-9.51147
流行	-9.51229
與人	-9.51295
髓	-9.5131
村	-9.5136
之謂也	-9.51395
運用	-9.51412
修煉	-9.51608
五臟	-9.51708
抽	-9.51799
遽	-9.51802
邑	-9.51816
無名	-9.51831
之名	-9.51968
死生	-9.52143
荷	-9.52294
此道	-9.52397
戊	-9.52443
託	-9.52706
甫	-9.52788
皈	-9.53074
第二	-9.53123
壑	-9.53182
矢	-9.53204
不識	-9.53221
蓬萊	-9.53222
展	-9.53224
倍	-9.5323
也蓋	-9.53242
玄關	-9.53252
塗	-9.53467
用之	-9.5357
垢	-9.53602
繞	-9.53691
漁	-9.53731
或有	-9.53871
在人	-9.53928
天尊大悲大	-9.54055
奧	-9.54113
宇宙	-9.54125
洲	-9.54176
呂帝	-9.54218
天眞	-9.54271
籙	-9.54303
之類	-9.54334
卧	-9.54441
限	-9.54446
夫子	-9.54486
功成	-9.54496
嬰	-9.54548
者乎	-9.54911
誓	-9.5501
胎息	-9.55017
玩	-9.55094
俟	-9.55125
激	-9.55146
蕭	-9.55159
廉	-9.55177
何爲	-9.55367
神咒	-9.55404
柱	-9.555
寵	-9.55504
雖然	-9.55563
汝等	-9.55651
萬象	-9.55783
三天	-9.55798
季	-9.56061
矣然	-9.56116
而行	-9.56156
大丹	-9.562
曹官	-9.56276
諱	-9.56482
奥	-9.56575
千里	-9.56588
庇	-9.56591
奉道	-9.56606
閱	-9.56611
玄玄	-9.56652
妙用	-9.56665
之物	-9.56725
人有	-9.56771
風雨	-9.56885
一曰	-9.56889
K	-9.56989
三淸	-9.57099
决	-9.57109
誥	-9.57248
之始	-9.57271
耳目	-9.57271
成就	-9.57424
入於	-9.57453
拱	-9.57552
泄	-9.57573
先天之	-9.5777
與之	-9.57924
之罪	-9.57966
R	-9.57979
大小	-9.5798
而不可	-9.58016
萬物之	-9.58035
段	-9.58154
預	-9.58175
不息	-9.58256
譬如	-9.58287
眞空	-9.58345
聖人之	-9.58434
稽	-9.58435
萬劫	-9.58542
禽	-9.58548
占	-9.58549
隊	-9.58567
說法	-9.58589
衝	-9.58594
躁	-9.58611
揭	-9.58623
皈依	-9.58632
古之	-9.58665
之眞	-9.5867
也故曰	-9.58725
此是	-9.5883
沐	-9.59081
警	-9.59088
伊	-9.59146
大法	-9.59147
噫	-9.59163
馭	-9.5917
由此	-9.59213
築	-9.59223
戒者不得	-9.59307
自得	-9.59477
必先	-9.59614
換	-9.59625
濳	-9.59633
不覺	-9.59684
大真君	-9.59739
到此	-9.59824
得一	-9.59851
握	-9.60069
若能	-9.601
墜	-9.60121
可知	-9.60131
癡	-9.60133
束	-9.60156
竈	-9.60182
曰此	-9.60311
蓬	-9.60487
而已矣	-9.60504
神室	-9.60523
之要	-9.6057
恍惚	-9.60608
在天	-9.6075
道法	-9.60811
此身	-9.61007
春秋	-9.61069
成眞	-9.61127
使人	-9.61172
詐	-9.61188
其實	-9.61281
四方	-9.61489
也今	-9.61535
符命	-9.61578
終日	-9.61584
温養	-9.61617
能知	-9.6164
凡人	-9.61693
之情	-9.61756
無礙	-9.61914
眞意	-9.61976
往往	-9.62
生成	-9.62054
仙道	-9.62119
腸	-9.62157
敦	-9.62159
朋	-9.62164
飽	-9.62183
曠	-9.62207
囊	-9.62241
堯	-9.6226
神光	-9.62285
無常	-9.62348
上聖	-9.62349
不知其	-9.62417
壬	-9.62463
人之所	-9.62597
北極	-9.62663
督	-9.62766
不求	-9.62771
不易	-9.63089
者以	-9.63147
下降	-9.63148
覽	-9.63205
氷	-9.63227
懇	-9.63231
生生	-9.63341
之極	-9.63375
一名	-9.63408
一粒	-9.63499
如來	-9.635
坎中	-9.6364
協	-9.63746
你	-9.63762
競	-9.63768
頻	-9.63799
紙	-9.63808
若不	-9.63812
諭	-9.63814
鬬	-9.6386
仙翁	-9.6416
桑	-9.64228
䕶	-9.64275
第三	-9.64311
天子	-9.64326
僕	-9.64337
泣	-9.64344
帥	-9.64698
觀之	-9.64701
上元	-9.64754
孕	-9.64864
傍	-9.64878
十四	-9.64896
庫	-9.64913
萬古	-9.65032
夫婦	-9.65094
金液	-9.65156
東北	-9.65159
山中	-9.65252
不失	-9.65259
尸	-9.65333
籠	-9.65334
於外	-9.65349
側	-9.6536
郤	-9.65375
丹經	-9.65462
以致	-9.65525
有此	-9.65543
十年	-9.6567
禍福	-9.65782
胥	-9.65897
灌	-9.65898
鄭	-9.6592
聯	-9.65929
輒	-9.65948
爲用	-9.65975
郎	-9.65987
三品	-9.65988
船	-9.66002
十七	-9.66074
後人	-9.66149
精氣	-9.66252
不足以	-9.66304
長存	-9.66417
陀	-9.66419
蹈	-9.66438
邀	-9.66457
寫	-9.66465
九轉	-9.66522
方便	-9.66632
失其	-9.6679
爾時	-9.66872
法象	-9.66928
人事	-9.66933
謗	-9.66937
擬	-9.66951
猿	-9.66976
頒	-9.67015
萬世	-9.67064
合一	-9.67228
者是	-9.67324
眞精	-9.67324
擁	-9.67363
卽此	-9.67408
饑	-9.67478
革	-9.67506
睡	-9.67512
貨	-9.6752
酆都	-9.67524
逼	-9.67536
何所	-9.67565
性情	-9.67584
辟	-9.67595
我之	-9.67598
吕	-9.6769
圓明	-9.67705
而去	-9.67806
神炁	-9.67807
則知	-9.67893
也吾	-9.67929
團	-9.67979
殷	-9.68079
皮	-9.68106
誘	-9.6813
憶	-9.68131
怕	-9.68183
者乃	-9.68209
上天	-9.68247
聰明	-9.68282
西北	-9.68411
獸	-9.68567
兄	-9.68651
梯	-9.68664
作用	-9.687
佩	-9.687
綿綿	-9.68709
德天尊大悲	-9.68712
銅	-9.6872
口訣	-9.68774
三五	-9.68956
片	-9.68962
之本	-9.69075
丑	-9.69148
溢	-9.69178
無可	-9.6922
話	-9.69225
盧	-9.69278
不外	-9.69284
諸葛	-9.69471
之候	-9.69495
方得	-9.69565
誦經	-9.69623
童子	-9.69654
大悲大願大聖大慈	-9.69696
十里	-9.69708
禳	-9.69736
無知	-9.69774
標	-9.698
罰	-9.69834
五帝	-9.699
不復	-9.69928
三日	-9.69971
百年	-9.70048
爲天下	-9.70104
其形	-9.70123
與道	-9.70143
其德	-9.7017
農	-9.70177
場	-9.70214
仙家	-9.70233
恆	-9.70304
踰	-9.70369
岡	-9.70402
奉行	-9.70493
金剛	-9.70495
體天尊大悲	-9.70519
抵	-9.7054
丈人	-9.70702
眞符	-9.70742
者其	-9.70866
歛	-9.70903
天門	-9.70908
爵	-9.70913
山川	-9.70922
以上	-9.70944
愿	-9.70948
循環	-9.70967
大羅	-9.71026
祗	-9.71045
愧	-9.71301
其道	-9.71358
處處	-9.71374
不已	-9.71422
檢	-9.71436
瘟	-9.71436
安能	-9.7146
宵	-9.71517
飮	-9.7152
然則	-9.71644
安得	-9.71702
靈光	-9.7182
之根	-9.71832
在上	-9.71891
選	-9.71938
赤子	-9.7194
金水	-9.71951
兄弟	-9.72023
肩	-9.72031
絲	-9.72045
眞火	-9.72048
丸	-9.72077
視之	-9.72102
魂魄	-9.72159
元始天尊	-9.72295
矣故	-9.72339
普度	-9.72362
利益	-9.72472
捧	-9.72658
卓	-9.72696
求之	-9.72719
般	-9.72781
心不	-9.7284
爾等	-9.72851
本命	-9.72968
灰	-9.7309
a	-9.731
緒	-9.73165
剖	-9.73171
陰陽之	-9.73176
健	-9.73188
成功	-9.73193
忿	-9.73304
廣大	-9.73513
明月	-9.73574
水中	-9.73597
主者	-9.73677
結成	-9.73695
化生	-9.73701
不肯	-9.73711
稟	-9.73758
𤍠	-9.73793
鹿	-9.73798
爲善	-9.73829
庶幾	-9.73915
茶	-9.73917
終身	-9.73933
同前	-9.74058
天帝	-9.74064
於中	-9.74097
不勝	-9.74127
以至	-9.742
一言	-9.74231
有三	-9.74289
枕	-9.7432
悖	-9.7438
伍	-9.74396
攸	-9.74407
整	-9.74453
剛柔	-9.74527
丹成	-9.74557
何也	-9.74716
方是	-9.7487
無盡	-9.74881
寒暑	-9.74921
隙	-9.74924
污	-9.74938
驕	-9.74952
嗚呼	-9.74998
所云	-9.75209
帝子	-9.75243
切念	-9.75284
混合	-9.75327
乙	-9.75431
上有	-9.75581
旛	-9.75588
淮	-9.75611
也非	-9.75612
眞仙	-9.7562
民之	-9.7569
上眞	-9.75724
兩儀	-9.7575
六根	-9.75772
之至	-9.75859
無私	-9.75946
教人	-9.7602
心印	-9.76041
暑	-9.76132
五十	-9.76133
人者	-9.76143
材	-9.76154
擒	-9.76167
山之	-9.76174
芒	-9.76234
而實	-9.76294
問曰	-9.7631
天理	-9.76316
金華	-9.76364
無人	-9.76405
修持	-9.76412
常存	-9.76475
歸根	-9.76512
欣	-9.76533
之術	-9.76597
觀其	-9.76615
脉	-9.767
奢	-9.76748
潮	-9.7678
無以	-9.76891
筵	-9.77014
第四	-9.77127
大定	-9.77167
週	-9.77274
神霄	-9.77286
值	-9.77348
乖	-9.77368
准	-9.77421
之處	-9.77428
頗	-9.77436
一月	-9.77468
弦	-9.77578
五老	-9.77684
頌	-9.77703
偈曰	-9.77743
上升	-9.77928
抽添	-9.77934
魁	-9.77953
蓄	-9.77973
亦非	-9.77975
中宫	-9.78021
莫測	-9.78075
○○○	-9.78079
圓通	-9.78106
六合	-9.78116
昭烈	-9.78168
功行	-9.78198
至眞	-9.7826
牝	-9.78423
天命	-9.78431
眞氣	-9.78434
姤	-9.78526
天君	-9.78527
脾	-9.78537
煞	-9.78571
眞性	-9.78582
大真人	-9.78593
非有	-9.78655
斜	-9.78656
旅	-9.78685
紫府	-9.78742
修身	-9.78784
不盡	-9.78796
莊	-9.78843
洞天	-9.78927
三關	-9.78958
守之	-9.78967
見之	-9.7901
豫	-9.79056
悃	-9.79135
所言	-9.79177
其間	-9.7924
世尊	-9.79255
副	-9.79279
高眞	-9.7936
千古	-9.79365
洞玄	-9.79414
一物	-9.79524
靑城	-9.79561
第十	-9.79603
而非	-9.79637
頑	-9.79653
罡	-9.79697
g	-9.79729
金木	-9.79732
嵗	-9.79823
混元	-9.7983
臍	-9.7984
眠	-9.79857
饒	-9.79858
一毫	-9.79862
一片	-9.7988
踏	-9.79884
夾	-9.79901
七日	-9.79934
五方	-9.8002
及其	-9.8023
始終	-9.80319
至誠	-9.8032
若無	-9.80329
我今	-9.80374
心心	-9.80394
苗	-9.80458
尚	-9.80459
君臣	-9.80472
既	-9.80482
酌	-9.80483
究竟	-9.80516
離中	-9.80551
巢	-9.80553
成都	-9.80671
豈知	-9.80711
東西	-9.80772
不壞	-9.80853
讀書	-9.80937
太平	-9.80951
玄妙	-9.8099
宴	-9.81046
以生	-9.81072
窗	-9.81094
五色	-9.81109
銖	-9.81124
四海	-9.81247
與天	-9.8126
以下	-9.81324
妙法	-9.81381
人自	-9.8144
聰	-9.81511
無物	-9.8155
淪	-9.81575
總是	-9.8162
鋒	-9.81623
使者	-9.81627
而上	-9.81662
捉	-9.81732
哭	-9.81771
太𡻕	-9.81892
不可不	-9.81943
黃金	-9.81954
之學	-9.81976
沖	-9.82042
湛	-9.82067
神化	-9.82078
人知	-9.82091
法門	-9.8215
有無	-9.82175
成仙	-9.82262
葆	-9.82289
無聲	-9.8232
萬化	-9.82331
慘	-9.8237
館	-9.82382
黨	-9.82398
消災	-9.82411
恥	-9.82435
仕	-9.8247
不入	-9.8248
四大	-9.82674
太淸	-9.82679
服食	-9.82717
自己	-9.82803
也其	-9.82864
一生	-9.82963
前後	-9.82966
踐	-9.82973
奮	-9.83017
杯	-9.8302
成丹	-9.83027
此理	-9.83061
不忍	-9.83085
買	-9.83087
朕	-9.83093
蠻	-9.83132
相與	-9.83138
吉凶	-9.8315
在我	-9.83155
一旦	-9.83207
功名	-9.83402
於物	-9.83434
芽	-9.83587
靜而	-9.83602
壤	-9.83642
焦	-9.83647
宛	-9.8365
黎	-9.83674
雁	-9.83684
之象也	-9.83751
四十	-9.83864
以求	-9.83902
嘯	-9.83905
人以	-9.83972
矣夫	-9.84096
眞靈	-9.84137
不受	-9.84215
燦	-9.84279
雍	-9.84281
銷	-9.84342
正道	-9.84562
接引	-9.84573
聞之	-9.84578
數十	-9.84597
吾道	-9.84747
修鍊	-9.84797
玉虛	-9.84807
空空	-9.84815
排	-9.84854
成道	-9.84875
盲	-9.84904
漠	-9.84908
揮	-9.84918
終始	-9.84942
於道	-9.84969
至矣	-9.84991
裂	-9.85004
中黃	-9.85254
令人	-9.85349
三百	-9.85364
在於	-9.8538
白虎	-9.85395
一聲	-9.85425
之先	-9.85433
祇	-9.85556
湧	-9.85588
膏	-9.856
舜	-9.85636
灑	-9.85646
顔	-9.85706
甘露	-9.85716
本體	-9.85742
之境	-9.85794
其氣	-9.85888
之性	-9.8591
矣此	-9.8607
絡	-9.86075
局	-9.86102
不欲	-9.86147
而復	-9.86168
臂	-9.86205
東華	-9.86206
丙	-9.86212
濕	-9.86235
誣	-9.86252
優	-9.86258
瀆	-9.86311
討	-9.86324
金精	-9.86349
宻	-9.86367
未必	-9.86454
採藥	-9.86583
千萬	-9.86669
化身	-9.86809
生人	-9.86844
宥	-9.86881
戌	-9.86882
區	-9.86923
禀	-9.86957
播	-9.86966
膺	-9.86972
不容	-9.87022
嫌	-9.87043
使之	-9.87071
當其	-9.87075
胸	-9.8711
配合	-9.8734
【	-9.87498
逝	-9.87578
鄙	-9.87594
彈	-9.87595
塊	-9.87619
犬	-9.87622
翳	-9.87629
南北	-9.87832
一個	-9.87935
諦	-9.87941
金石	-9.88047
榜	-9.88094
需	-9.88175
後學	-9.88255
蔭	-9.88281
奠	-9.88284
僻	-9.88292
腳	-9.88329
老君	-9.88485
其性	-9.88494
德之	-9.88537
延生	-9.88691
十一	-9.88924
勳	-9.88931
煩惱	-9.88943
名利	-9.88956
玄元	-9.88959
該	-9.88973
冒	-9.88973
坦	-9.88974
忙	-9.88976
蹟	-9.88984
蒸	-9.88997
誑	-9.88997
等伏聞	-9.88998
巾	-9.89003
几	-9.89018
無方	-9.8909
飲食	-9.8915
眞一	-9.89192
司馬	-9.89383
其功	-9.89448
相傳	-9.89542
好生	-9.89545
疫	-9.89568
分別	-9.89612
玉光	-9.89631
恤	-9.89637
兔	-9.89651
賣	-9.89705
弊	-9.89718
墓	-9.89725
周流	-9.89846
眞息	-9.89849
至今	-9.90012
若是	-9.9006
六十	-9.90235
夭	-9.90331
啼	-9.90332
不起	-9.90333
遁	-9.90337
怡	-9.90339
粉	-9.90343
真人	-9.90348
眞土	-9.90407
尊經	-9.90445
言也	-9.90608
一箇	-9.90661
微妙	-9.90666
文字	-9.90686
行持	-9.90748
中間	-9.90771
祖炁	-9.90773
其人	-9.90859
物也	-9.90897
寢	-9.91037
倉	-9.91072
掛	-9.91093
而出	-9.91204
大眾	-9.91241
乎其	-9.9135
三官	-9.91491
丹道	-9.91632
神功	-9.91723
先後	-9.91727
咽	-9.91731
苦海	-9.91749
尹	-9.91751
城隍	-9.91769
淸虛	-9.91783
襲	-9.91795
主人	-9.91851
九皇	-9.91852
此乃	-9.91911
莊子	-9.9197
不免	-9.91973
上昇	-9.92013
二物	-9.92136
陰符	-9.92181
低	-9.92396
中元	-9.92415
須知	-9.92423
跨	-9.92451
恕	-9.92458
壘	-9.92466
糧	-9.92525
一分	-9.92527
一息	-9.92533
葬	-9.92543
之主	-9.92593
言語	-9.92734
卽有	-9.92968
而至	-9.92984
於世	-9.92988
之苦	-9.92997
旱	-9.93027
巍巍	-9.93098
十三	-9.93117
見性	-9.93129
膽	-9.93132
些	-9.93132
肇	-9.93164
級	-9.93174
三丰	-9.93181
名爲	-9.93186
開化	-9.93194
玄牝	-9.93302
果能	-9.93321
九幽	-9.9337
以道	-9.9344
矣故曰	-9.93629
度世	-9.9377
更有	-9.93826
知者	-9.93834
明明	-9.93841
荆	-9.93841
築基	-9.9389
庥	-9.93902
桓	-9.93953
聖胎	-9.93964
禮樂	-9.9406
詮	-9.941
此之謂	-9.94111
則神	-9.94216
之誠	-9.94236
有道	-9.94299
眞心	-9.94405
者何	-9.94437
雀	-9.94532
哲	-9.94534
援	-9.94554
眷	-9.94559
西山	-9.94569
遯	-9.94572
屠	-9.94576
戾	-9.94577
吝	-9.94589
鱗	-9.94614
矯	-9.94615
以養	-9.94637
平日	-9.9465
丞相	-9.94737
法界	-9.94792
華池	-9.94977
詩曰	-9.95076
名山	-9.95177
養氣	-9.95231
踪	-9.95241
滴	-9.9529
例	-9.95293
翔	-9.95298
粟	-9.95344
崩	-9.9535
拒	-9.95402
侮	-9.95413
養性	-9.95501
於内	-9.95534
此章言	-9.95602
是時	-9.95719
從事	-9.95724
不待	-9.95727
存心	-9.95826
天師	-9.95868
無二	-9.95902
下元	-9.95969
湻	-9.96003
者則	-9.96025
峻	-9.96031
第五	-9.96049
鈞	-9.96055
此皆	-9.96074
感應	-9.96075
明日	-9.96088
大地	-9.96108
文王	-9.9615
子午	-9.96163
不悟	-9.96301
七祖	-9.96323
太玄	-9.96323
萬法	-9.96476
東嶽	-9.96526
五炁	-9.96535
文章	-9.96642
囉	-9.9668
一字	-9.96702
萃	-9.96707
臥	-9.96711
準	-9.96723
丕	-9.96746
叅	-9.96756
魅	-9.9676
大悲	-9.96767
鄰	-9.96788
𨚫	-9.96802
菩提	-9.96856
歸一	-9.9691
浩	-9.96936
而歸	-9.96976
熾	-9.97055
也又	-9.97097
方寸	-9.97104
煉丹	-9.9721
至寶	-9.97251
文昌	-9.97272
二炁	-9.97279
一元	-9.97297
尼	-9.97346
拯	-9.97444
金仙	-9.97481
邦	-9.97491
滌	-9.97508
蠱	-9.97524
浸	-9.97527
簾	-9.97544
旗	-9.97559
吾今	-9.9756
埋	-9.97564
幹	-9.97591
知此	-9.97608
故有	-9.97608
徙	-9.97621
所在	-9.97621
金光	-9.97623
心中	-9.97665
無間	-9.97798
他人	-9.97812
念念	-9.97904
次第	-9.97922
空中	-9.98126
社	-9.98172
中天	-9.98194
氣之	-9.98195
二氣	-9.98212
九年	-9.98223
零	-9.98252
范	-9.98266
十分	-9.98275
遐	-9.98291
出世	-9.98381
只要	-9.98414
三光	-9.98433
反覆	-9.9845
山水	-9.9872
生天	-9.98749
興行妙道天尊	-9.98814
乾元	-9.98861
齡	-9.98924
之恩	-9.98935
蒲	-9.9895
拙	-9.98961
撥	-9.98996
箕	-9.99002
針	-9.99008
旬	-9.99026
傅	-9.99031
一陰	-9.99036
誇	-9.99057
曰我	-9.99125
不可得	-9.99129
不二	-9.99138
山林	-9.99263
方知	-9.99311
本性	-9.99427
學人	-9.9944
蓮花	-9.99515
之火	-9.99584
者多	-9.99621
胞	-9.99709
仇	-9.99737
迨	-9.99752
淚	-9.99761
峙	-9.99766
熙	-9.9977
其事	-9.9978
此等	-9.99781
戚	-9.99802
以後	-9.99832
斤	-9.99842
眾人	-9.99862
瞋	-9.99867
後天之	-9.99922
神靈	-10.0003
奈	-10.0017
萬靈	-10.0023
是以聖人	-10.0033
運行	-10.0033
慨	-10.0034
南極	-10.0039
涼	-10.0043
天根	-10.0044
鑪	-10.0048
守其	-10.005
凉	-10.0054
戮	-10.0054
偉	-10.0056
駐	-10.0059
敝	-10.0062
而求	-10.0064
學道者	-10.0071
内有	-10.0073
我身	-10.0083
如意	-10.0087
吾心	-10.009
門下	-10.0095
造化之	-10.0127
括	-10.0127
𣺌	-10.0127
逞	-10.013
撰	-10.013
叢	-10.0131
其名	-10.0131
下土	-10.0132
苑	-10.0136
罵	-10.0137
皆由	-10.0138
爐鼎	-10.0138
可也	-10.0147
自是	-10.0147
太一	-10.015
精微	-10.0151
三月	-10.0159
聖眞	-10.016
有心	-10.0161
譬	-10.0166
之基	-10.0172
千年	-10.0181
在心	-10.0183
精氣神	-10.0185
言其	-10.0186
詩云	-10.0187
曹仙官	-10.0195
瑩	-10.0201
蟻	-10.0202
確	-10.0205
麟	-10.0205
濯	-10.0205
態	-10.0206
巫	-10.0207
刀圭	-10.0209
無象	-10.0213
腰	-10.0213
高明	-10.0216
懿	-10.0218
鼎器	-10.0219
人道	-10.0222
中正	-10.0224
湛然	-10.0233
豈有	-10.0241
有大	-10.0247
之念	-10.026
國之	-10.0265
人情	-10.0267
全眞	-10.027
豈能	-10.0274
三百六十	-10.028
銘	-10.0282
邇	-10.0284
逕	-10.0287
與物	-10.0288
欲求	-10.0288
㤗	-10.0288
傲	-10.0291
攀	-10.0293
盗	-10.0294
八百	-10.03
平安	-10.0303
世上	-10.0303
同類	-10.0306
眞元	-10.0308
道場	-10.0308
號曰	-10.0317
二年	-10.0319
殺人	-10.0328
之憂	-10.0335
衷	-10.0357
牙	-10.036
發明	-10.0361
恢	-10.0365
台	-10.0366
餌	-10.0367
不行	-10.0381
妄想	-10.0391
存想	-10.0396
眞實	-10.0401
未來	-10.0404
而入	-10.0409
全在	-10.0411
第二十	-10.0412
此爲	-10.0414
在乎	-10.0416
三者	-10.0416
未得	-10.0417
而民	-10.0421
妙行	-10.043
】	-10.0433
森	-10.0438
惟有	-10.0443
伴	-10.0446
故也	-10.0448
員	-10.045
能生	-10.0451
一理	-10.0454
下民	-10.0454
之日	-10.0468
入定	-10.0483
玉液	-10.0488
何必	-10.0491
爲我	-10.0494
可不	-10.0496
神君	-10.0506
不得不	-10.051
有象	-10.0511
艱	-10.0515
大慈	-10.0516
冶	-10.0516
突	-10.0522
億萬	-10.0523
父子	-10.0523
姿	-10.0524
聾	-10.0525
采	-10.0525
不昧	-10.0525
子之	-10.0528
挽	-10.0528
研	-10.0533
易曰	-10.0544
靜坐	-10.0549
所居	-10.0553
紛紛	-10.0565
不忘	-10.0565
蟾	-10.057
紫陽	-10.0579
告下	-10.0585
當知	-10.0585
可得	-10.059
禦	-10.0596
刃	-10.0598
飢	-10.0601
岱	-10.0602
日用	-10.0603
而來	-10.0604
歧	-10.0604
卯酉	-10.0605
尙有	-10.0606
薰	-10.0606
乍	-10.0608
其志	-10.0609
一體	-10.0613
天宫	-10.0625
無益	-10.0628
此卽	-10.063
五嶽	-10.0641
則必	-10.0643
化炁	-10.0644
而又	-10.0646
之患	-10.0647
正陽	-10.066
其用	-10.0671
承誥奉行	-10.0675
參同契	-10.0678
大神	-10.0679
性命之	-10.0681
之身	-10.0684
尾閭	-10.0685
黃婆	-10.0686
璧	-10.0686
一竅	-10.0688
聖眾	-10.069
巴	-10.0692
英雄	-10.0694
鞭	-10.0701
不著	-10.0703
疾病	-10.0704
此則	-10.0712
要知	-10.0721
此中	-10.0721
當時	-10.0732
報應	-10.0745
皓	-10.0751
嗜	-10.0752
正一	-10.0753
土地	-10.0757
濤	-10.076
穆	-10.0761
堯舜	-10.0763
須臾	-10.0763
天王	-10.0764
疇	-10.0764
遜	-10.0765
仙官	-10.0767
恣	-10.0767
呵	-10.0768
妾	-10.077
戎	-10.0771
畔	-10.0772
而神	-10.0795
上仙	-10.0801
者如	-10.0802
故云	-10.0811
會合	-10.0812
無始	-10.0816
宸	-10.0829
一般	-10.0832
三分	-10.0839
姹女	-10.084
神王	-10.0843
之徒	-10.0843
薪	-10.0844
知有	-10.0846
斂	-10.0847
眞道	-10.085
峽	-10.0852
裳	-10.0853
交媾	-10.0854
陋	-10.0856
亦是	-10.0856
也卽	-10.0861
河車	-10.0863
皈命	-10.0866
若夫	-10.0869
有何	-10.0869
超昇	-10.0874
不思	-10.0877
聲色	-10.0886
是名	-10.0888
重陽	-10.0893
延年	-10.0897
猶有	-10.0914
大乘	-10.0915
虛皇	-10.0917
善人	-10.0921
之可	-10.0921
修仙	-10.0931
多少	-10.0933
踵	-10.0933
柏	-10.0935
攜	-10.0935
化神	-10.0936
濫	-10.0937
惕	-10.0938
鄧	-10.0938
斧	-10.094
於上	-10.0942
柄	-10.0953
聖天尊大悲	-10.0962
正氣	-10.097
調和	-10.097
不與	-10.0971
眞水	-10.0971
正覺	-10.0974
死者	-10.0999
闔	-10.1007
靈官	-10.1008
須要	-10.1009
心爲	-10.1012
産	-10.1017
䧟	-10.1017
七寶	-10.102
求道	-10.1029
若此	-10.103
尊神	-10.1032
而死	-10.104
靈臺	-10.1053
時有	-10.1057
思慮	-10.1059
之路	-10.1061
恍	-10.1071
事事	-10.1085
焉能	-10.1086
窟	-10.1088
爲大	-10.1094
未嘗不	-10.1095
大德	-10.1097
兎	-10.1099
仙人	-10.1101
希夷	-10.1103
侣	-10.1103
臭	-10.1103
沛	-10.1105
其理	-10.1105
翰	-10.1108
縮	-10.1108
裔	-10.1109
勘	-10.1109
百姓	-10.1117
孤魂	-10.1117
天寶	-10.1125
我心	-10.1125
淸明	-10.1126
非眞	-10.1136
無欲	-10.1139
自此	-10.1147
首領	-10.1158
佈	-10.1175
九州	-10.1181
何有	-10.1185
銳	-10.1185
覔	-10.1185
遮	-10.1189
摧	-10.1189
餐	-10.119
笛	-10.1192
持誦	-10.1195
生神	-10.1198
惶	-10.1199
干冒	-10.1199
未見	-10.1204
日月之	-10.1211
昭昭	-10.1213
第八	-10.122
和合	-10.122
堅固	-10.1229
爲道	-10.1232
無他	-10.1243
道心	-10.1248
忽然	-10.1254
心無	-10.1255
貴賤	-10.1256
一一	-10.1257
渾然	-10.1264
久之	-10.1265
羞	-10.1267
撓	-10.127
在此	-10.127
漿	-10.1271
忱	-10.1273
同於	-10.1273
縛	-10.1275
翕	-10.1275
赫	-10.1276
貽	-10.1282
欵	-10.1286
以自	-10.1287
不止	-10.1291
時而	-10.1294
一身之	-10.1295
必要	-10.1313
不爭	-10.1314
入聖	-10.1328
元陽	-10.1332
杳冥	-10.1333
者當	-10.1334
一朝	-10.134
何人	-10.1342
與我	-10.1345
而反	-10.1347
跋	-10.1348
何不	-10.135
暇	-10.1353
溥	-10.1354
祟	-10.1355
𦂳	-10.1357
敘	-10.1358
鎻	-10.1359
敲	-10.1359
涕	-10.136
濡	-10.1361
蠢	-10.1361
碎	-10.1362
豪	-10.1363
貲	-10.1364
眞文	-10.1365
發生	-10.1367
始於	-10.1378
四字	-10.138
妻子	-10.1387
八陣	-10.1387
境界	-10.1392
五行之	-10.1393
有二	-10.14
尙書	-10.141
相通	-10.1412
抱一	-10.1417
其下	-10.1418
虛靈	-10.1441
樣	-10.1443
聞道	-10.1445
樵	-10.1447
取其	-10.1447
憎	-10.1449
虚	-10.1451
裕	-10.1452
陷	-10.1453
谿	-10.1454
太守	-10.1454
昊天	-10.1457
憲	-10.1461
乎天	-10.1474
法身	-10.1484
威靈	-10.1493
證果	-10.1496
無定	-10.1505
形容	-10.1506
氣也	-10.1509
大夫	-10.1517
動則	-10.1518
至心皈命禮	-10.152
相生	-10.1526
內	-10.1528
赫赫	-10.1531
有情	-10.1532
溟	-10.1532
〓	-10.1535
殫	-10.1536
道經	-10.1536
爛	-10.1538
濟度	-10.1538
更生永命天尊	-10.1538
躋	-10.1538
㝛	-10.1539
暖	-10.1539
渠	-10.1539
効	-10.154
其精	-10.1542
遞	-10.1542
技	-10.1542
自然之	-10.1543
輙	-10.1544
圭	-10.1546
不可得而	-10.155
純陽妙道天尊	-10.1554
性也	-10.1555
曰子	-10.1558
人當	-10.1559
而止	-10.1563
再拜	-10.1563
之前	-10.1567
不染	-10.157
有功	-10.1571
靈明	-10.1573
一刻	-10.1575
自古	-10.1587
仙眞	-10.1587
鍊丹	-10.159
靜中	-10.1595
或曰	-10.1598
何故	-10.1598
寂滅	-10.1604
元皇	-10.161
一家	-10.1611
南陽	-10.1611
玄珠	-10.1617
仙師	-10.1621
偃	-10.1621
所生	-10.1622
洽	-10.1624
靄	-10.1624
乎此	-10.1625
塡	-10.1626
復圭子曰	-10.1628
等眾	-10.1629
瑶	-10.1629
件	-10.1632
物物	-10.1642
精炁	-10.1656
遠矣	-10.1657
爲眞	-10.1689
聖母	-10.1694
攺	-10.1717
卵	-10.1717
誡	-10.1718
膝	-10.1718
挾	-10.1719
勒	-10.1719
釣	-10.1719
十餘	-10.172
鼠	-10.1721
矣而	-10.1721
株	-10.1723
快樂	-10.1731
宗師	-10.1735
日日	-10.1737
冥冥	-10.1745
無端	-10.1751
帝王	-10.1752
道祖	-10.1775
雌	-10.1788
風雲	-10.1788
怎	-10.1801
示人	-10.1802
一句	-10.1803
縁	-10.1803
燥	-10.1804
肥	-10.1805
而化	-10.1805
道在	-10.1806
寥	-10.1808
有時	-10.1809
醜	-10.1809
浴	-10.1809
裁	-10.181
豈可	-10.181
蕩蕩	-10.181
衢	-10.1811
訖	-10.1811
大事	-10.1812
逮	-10.1812
荆州	-10.1813
眞傳	-10.1815
諸葛亮	-10.1821
呂祖	-10.1824
五千	-10.1837
歡喜	-10.1838
所見	-10.1842
空洞	-10.1843
治天下	-10.1846
浩浩	-10.1847
白雪	-10.185
莫非	-10.1853
衣食	-10.1868
功曹	-10.1872
心以	-10.1878
合道	-10.1882
又問	-10.1882
超度	-10.1887
此竅	-10.1888
黍米	-10.1893
倡	-10.1897
未有不	-10.1898
頃刻	-10.1899
匡	-10.1899
抛	-10.19
皆得	-10.1901
曰汝	-10.1902
崔	-10.1902
章第二十	-10.1903
屍	-10.1903
塔	-10.1904
應化	-10.1905
暉	-10.1905
扇	-10.1906
陽生	-10.1909
從何	-10.1911
之靈	-10.1912
二首	-10.1922
焚香	-10.1923
受持	-10.1924
未生	-10.1937
乃是	-10.1938
有人	-10.1945
紅塵	-10.1945
七十二	-10.195
靜則	-10.1963
朽	-10.1964
隅	-10.1972
貢	-10.1975
在下	-10.1977
金丹之	-10.1978
見人	-10.198
心法	-10.1982
縷	-10.199
敏	-10.199
纒	-10.1992
至德	-10.1993
遏	-10.1994
之志	-10.1994
失之	-10.1995
寍	-10.1996
藍	-10.2
萬年	-10.2003
者能	-10.2007
供養	-10.2018
之位	-10.2022
殊不知	-10.2029
也惟	-10.2034
得失	-10.205
皇帝	-10.2053
百里	-10.2065
一二	-10.2079
不畏	-10.2079
迫	-10.2082
金鼎	-10.2083
霽	-10.209
陟	-10.2091
辦	-10.2092
叛	-10.2098
於身	-10.2103
默默	-10.2111
十功	-10.2111
將來	-10.212
念頭	-10.212
者言	-10.2125
眞常	-10.2131
靈通	-10.2134
不亦	-10.2135
何物	-10.2138
食之	-10.2138
其機	-10.2138
人欲	-10.214
天醫	-10.2145
大哉	-10.2145
金玉	-10.2149
所有	-10.2155
宗旨	-10.2155
第六	-10.2158
自見	-10.2159
絳	-10.2165
徘徊	-10.2176
罕	-10.2176
槖籥	-10.2176
蟄	-10.2176
麻	-10.2177
侶	-10.218
姦	-10.2182
濃	-10.2184
杳	-10.2184
巓	-10.2185
摇	-10.2186
道言	-10.2187
無情	-10.2188
董	-10.2189
至聖	-10.219
先天一炁	-10.2191
恭敬	-10.2199
無爲之	-10.2199
註曰	-10.2209
人民	-10.2209
自生	-10.221
羣眞	-10.2212
成形	-10.2218
其體	-10.2235
清淨	-10.224
交感	-10.2243
太微	-10.2248
八景	-10.2248
吉祥	-10.2256
靑城山	-10.2256
三陽	-10.2257
知道	-10.2257
二者	-10.2258
以及	-10.226
者又	-10.2265
皆可	-10.2268
郊	-10.227
之文	-10.2272
亦不能	-10.2272
袖	-10.2277
灾	-10.2277
不可思議	-10.2278
惟願	-10.228
詭	-10.2281
眞人曰	-10.2284
截	-10.2285
威儀	-10.229
點化	-10.2292
根本	-10.2293
丹砂	-10.2298
久矣	-10.2302
安樂	-10.2303
太素	-10.2305
洞庭	-10.231
其言	-10.232
上章	-10.2322
眞言	-10.2326
彼此	-10.2326
生機	-10.2331
陽氣	-10.234
天曹	-10.2349
十九	-10.2349
文武	-10.235
忘其	-10.2354
之秘	-10.2354
可與	-10.2356
蟠	-10.2359
熖	-10.2369
咏	-10.237
欄	-10.237
冺	-10.237
遥	-10.237
復還	-10.2381
偷	-10.2381
無異	-10.2382
街	-10.2383
鍾離	-10.2396
七竅	-10.2404
妙如	-10.2405
受生	-10.2407
上乘	-10.2408
吾之	-10.242
通靈	-10.2421
有志	-10.2425
於下	-10.2425
自已	-10.2427
玄機	-10.2428
行道	-10.245
結胎	-10.2452
不合	-10.2454
以今	-10.2456
m	-10.2458
孩	-10.2459
則不能	-10.2459
頼	-10.246
其後	-10.2461
五月	-10.2461
媒	-10.2461
澹	-10.2464
燄	-10.2465
天堂	-10.2465
促	-10.2465
筋	-10.2466
勵	-10.2468
以明	-10.2471
巡	-10.2471
山下	-10.2471
自知	-10.2472
以應	-10.2473
弓	-10.2476
武夷	-10.2482
保命	-10.2493
讚曰	-10.2496
星辰	-10.2507
因其	-10.2509
還虛	-10.2515
何况	-10.2517
有不	-10.2518
淸濁	-10.2521
不窮	-10.2523
生萬物	-10.2533
而未	-10.2533
未知	-10.2537
之義也	-10.254
眞人云	-10.2542
島	-10.2548
不從	-10.2549
龍門	-10.2554
伏羲	-10.2561
貧賤	-10.2564
未免	-10.2565
聊	-10.2566
喚	-10.2567
高上	-10.2568
畝	-10.2568
虫	-10.2568
湘	-10.2571
牖	-10.2572
之分	-10.2574
蔡	-10.2575
鴻濛	-10.2577
瓦	-10.2578
終不	-10.2579
百餘	-10.2583
天地間	-10.2586
靈根	-10.2587
謹牒	-10.2588
刻刻	-10.2589
玄中	-10.2593
得聞	-10.2593
長春	-10.2595
鼎爐	-10.2597
甲子	-10.2603
大道之	-10.261
心地	-10.2615
天尊大悲正	-10.2621
不肖	-10.2631
善果	-10.2633
豁	-10.2636
與天地	-10.2638
廓	-10.264
冬至	-10.2641
緯	-10.2641
圓成	-10.2644
三昧	-10.2645
七元	-10.2646
e	-10.2654
故知	-10.2658
譚	-10.266
狗	-10.2663
轍	-10.2663
襟	-10.2664
嗔	-10.2665
難以	-10.2666
譴	-10.2666
猜	-10.2668
呌	-10.2668
聳	-10.2668
騐	-10.2669
穩	-10.267
無生	-10.2677
諫	-10.2678
解厄	-10.2681
交會	-10.2684
非道	-10.2685
相應	-10.2692
無用	-10.2698
二月	-10.27
第九	-10.2709
以待	-10.2721
也聖人	-10.2723
景象	-10.2724
護持	-10.2727
於我	-10.2729
止於	-10.2735
世俗	-10.2742
s	-10.2754
/	-10.2754
喉	-10.2759
任其	-10.2762
倦	-10.2765
驟	-10.2766
乏	-10.2767
板	-10.2768
叶	-10.2769
蟬	-10.2769
捷	-10.277
笙	-10.2771
牆	-10.2771
貸	-10.2771
之源	-10.2774
創	-10.2778
之樂	-10.278
藏於	-10.2783
可爲	-10.2787
當年	-10.2788
建醮	-10.2789
謹疏	-10.2791
玄功	-10.2793
是日	-10.2794
眞機	-10.2798
命門	-10.2801
久久	-10.2801
之力	-10.2807
玄門	-10.2808
無疆	-10.281
從來	-10.2812
煉精	-10.2812
出神	-10.2814
之報	-10.2814
大成	-10.2822
不通	-10.2834
一味	-10.2845
第七	-10.2847
爲本	-10.285
而况	-10.2855
之形	-10.2857
皎	-10.286
萬事	-10.286
而天下	-10.2862
証	-10.2864
左傳	-10.2864
守中	-10.2866
及至	-10.2867
摘	-10.2869
諸葛武侯	-10.2872
婬	-10.2873
同歸	-10.2875
皷	-10.2875
何由	-10.2879
養之	-10.2883
不難	-10.2884
箋	-10.2885
水銀	-10.289
九霄	-10.289
尋常	-10.2891
帝一	-10.2894
門戸	-10.2894
不定	-10.2897
南華	-10.2907
施行	-10.2911
道成	-10.2915
元年	-10.2923
在外	-10.295
相合	-10.2953
黍	-10.2958
不至	-10.2958
朝元	-10.2959
訛	-10.2963
溝	-10.2965
其所以	-10.2965
栽	-10.2967
搜	-10.2967
蝶	-10.2968
渴	-10.297
𡻕月	-10.297
叟	-10.297
亢	-10.2971
頤	-10.2971
生者	-10.2972
隸	-10.2973
性光	-10.2975
藩	-10.2977
丈夫	-10.2986
凡有	-10.2991
不顧	-10.2996
不得已	-10.2997
生而	-10.3001
和平	-10.301
治國	-10.3013
也凡	-10.3014
修奉	-10.3019
教主	-10.3023
不仁	-10.3033
不當	-10.3038
白日	-10.304
生身	-10.304
胸中	-10.3048
未可	-10.3051
刋	-10.3059
怖	-10.3066
誨	-10.3066
凈	-10.3069
故以	-10.3071
所當	-10.3071
滑	-10.3072
淑	-10.3072
慰	-10.3073
値	-10.3074
喬	-10.3075
難言	-10.3075
竿	-10.3078
思之	-10.3087
則是	-10.3094
不若	-10.3096
下有	-10.3097
無限	-10.3098
不測	-10.3102
而行之	-10.3104
今人	-10.3105
第二百	-10.3106
和氣	-10.3107
神神	-10.3117
根源	-10.3117
道無	-10.3117
千秋	-10.3126
俄	-10.3126
方士	-10.313
人之心	-10.3131
千載	-10.3132
無言	-10.3132
吿下	-10.3144
必不	-10.315
三聖	-10.316
軸	-10.316
也且	-10.3161
唵	-10.3164
媾	-10.3164
用心	-10.3167
許多	-10.3169
誌	-10.3174
欠	-10.3174
悞	-10.3175
攘	-10.3175
劵	-10.3177
腐	-10.3177
太元	-10.3177
茫茫	-10.3178
虗	-10.318
迓	-10.3184
元始天王曰	-10.3186
而起	-10.3194
人不知	-10.3196
人亦	-10.3204
相交	-10.321
而動	-10.3215
高下	-10.3218
養生	-10.3226
之光	-10.3226
妄念	-10.3238
陽之	-10.3242
若非	-10.3243
却	-10.3246
直指	-10.3252
在内	-10.3258
久而	-10.3258
有物	-10.3269
也言	-10.3271
諸侯	-10.3274
神也	-10.3275
泰山	-10.3277
寬	-10.328
柯	-10.328
縈	-10.3281
鎖	-10.3283
賞罰	-10.3283
慈航	-10.3283
眾眞總監天尊	-10.3284
縱橫	-10.3289
償	-10.3289
觀音	-10.3292
明堂	-10.3293
何能	-10.3294
伏以	-10.3296
之宗	-10.3304
神水	-10.3306
長生不死	-10.3308
脫胎	-10.3315
消滅	-10.3326
日中	-10.3328
也三	-10.3328
見聞	-10.333
求其	-10.3331
造物	-10.3332
至大	-10.334
守一	-10.3341
入門	-10.3343
妙理	-10.3349
阜	-10.3349
也是以	-10.3352
故謂之	-10.3354
第一百	-10.3356
涯	-10.3357
言曰	-10.3359
外物	-10.3364
存焉	-10.3364
姓名	-10.337
八月	-10.3371
此亦	-10.3371
外道	-10.3378
或以	-10.3379
泊	-10.338
難得	-10.3382
勾	-10.3382
罄	-10.3385
催	-10.3386
詎	-10.3386
壽	-10.3386
雕	-10.339
帛	-10.3391
道本	-10.3391
峭	-10.3391
虹	-10.3392
流水	-10.3393
煮	-10.3397
靑龍	-10.3398
凝結	-10.34
靈文	-10.3401
所以爲	-10.3404
柴	-10.3407
烹煉	-10.3411
第三十	-10.3417
形骸	-10.3419
恭惟	-10.3444
人世	-10.3444
之勢	-10.3451
懺	-10.3455
今之	-10.3456
其意	-10.3465
水府	-10.3471
氣氣	-10.3474
灼	-10.3484
拈	-10.3491
虐	-10.3492
太無	-10.3494
媚	-10.3495
毓	-10.3495
濶	-10.3495
價	-10.3495
趾	-10.3496
賀	-10.3498
煎	-10.3498
桐	-10.35
募	-10.3502
心性	-10.3507
各各	-10.3507
復有	-10.3508
一道	-10.351
人天	-10.3512
千百	-10.3515
洞明	-10.3519
養神	-10.352
斗姥	-10.352
齋戒	-10.3523
仁慈	-10.3541
眞陰	-10.3548
所得	-10.3558
也哉	-10.3561
洛	-10.3563
蛟	-10.3566
姥	-10.357
其光	-10.3571
蒂	-10.3574
淨明	-10.3578
義也	-10.3579
婦人	-10.358
而退	-10.3581
有緣	-10.3583
用事	-10.3583
誰能	-10.3588
吽	-10.3591
濟世	-10.3594
道以	-10.3597
苔	-10.3602
罹	-10.3602
九炁	-10.3602
月華	-10.3602
袁	-10.3602
立命	-10.3603
匝	-10.3603
蹇	-10.3604
保安	-10.3605
倪	-10.3605
蝗	-10.3607
壓	-10.3611
尉	-10.3611
忍辱	-10.3612
棟	-10.3615
署	-10.3616
無我	-10.3618
血湖	-10.3618
而言之	-10.3626
上古	-10.3632
於地	-10.3641
天中	-10.3641
力行	-10.3653
也如	-10.3656
羣仙	-10.3662
靈符	-10.3663
孔子曰	-10.3664
仙子	-10.3676
眞詮	-10.368
存亡	-10.3682
刦	-10.3702
日光	-10.3704
誠心	-10.3704
是眞	-10.3704
隨之	-10.3707
膚	-10.3707
殺機	-10.3709
狐	-10.371
譏	-10.3712
堆	-10.3713
邃	-10.3714
憾	-10.3714
梓	-10.3716
囑	-10.3716
隣	-10.3716
瑤池	-10.3718
囚	-10.3719
禾	-10.372
無過	-10.372
擕	-10.3721
精進	-10.3726
慈尊	-10.3737
宣揚	-10.3738
祈恩	-10.3745
其根	-10.375
諸仙	-10.3753
三尸	-10.3759
三塗	-10.3761
煉已	-10.3772
後之	-10.3775
天尊大悲聖	-10.3779
用功	-10.3781
化度	-10.3782
之工	-10.3783
流通	-10.3785
返還	-10.379
卽爲	-10.3796
大化	-10.3798
無妄	-10.3802
身尊玉虛玄上帝	-10.3805
孰能	-10.3805
風吹	-10.381
橘	-10.3811
塵世	-10.3814
一步	-10.3815
阨	-10.3815
眞武	-10.3818
.	-10.3819
仞	-10.3821
戕	-10.3821
拾	-10.3822
觴	-10.3824
搆	-10.3825
駭	-10.3825
懲	-10.3826
四肢	-10.3826
汪	-10.3827
奕	-10.3827
道天尊大悲	-10.383
不能自	-10.383
調息	-10.3832
之方	-10.3837
猶未	-10.3839
也是	-10.384
黃冠	-10.3844
未盡	-10.3845
桃花	-10.3848
正法	-10.3854
則曰	-10.386
諸眞	-10.3861
自以爲	-10.3863
用兵	-10.3869
消除	-10.3874
眞宰	-10.3876
拔度	-10.3881
至妙	-10.3883
君子之	-10.3887
不亂	-10.3889
等因	-10.389
南斗	-10.3895
不應	-10.3909
有感	-10.3911
簿	-10.3911
有言	-10.3915
永無	-10.3916
三途	-10.3918
玄都	-10.3919
而可	-10.3922
所能	-10.3925
妙有	-10.3926
胃	-10.3927
竝	-10.393
竇	-10.3932
後來	-10.3933
天皇	-10.3934
戍	-10.3936
腦	-10.3938
麥	-10.3938
善功	-10.3939
邁	-10.3939
也但	-10.3943
始得	-10.3945
籌	-10.3948
旡咎	-10.3948
變爲	-10.3959
非我	-10.396
有異	-10.3961
二三	-10.3962
正是	-10.3965
白帝	-10.3971
不遠	-10.3982
頌曰	-10.3986
不孝	-10.3991
一百	-10.4
至靈	-10.4001
命之	-10.4003
能使	-10.4005
常住	-10.4007
大抵	-10.4007
體用	-10.4011
生焉	-10.4012
之至也	-10.4012
一段	-10.4015
欲以	-10.4016
何事	-10.4017
福天尊大悲	-10.4026
晶	-10.4029
德行	-10.4038
虛心	-10.4042
勃	-10.4047
氤氲	-10.4047
𨚑	-10.4049
敎	-10.4049
復命	-10.4052
陽火	-10.4052
天罡	-10.4053
措	-10.4054
莊嚴	-10.4054
七十	-10.4054
拳	-10.4055
另	-10.4055
▁重刋道藏輯要	-10.4055
從而	-10.4055
樞機	-10.4061
扁	-10.4062
而知	-10.4067
之福	-10.4073
全體	-10.4079
普濟	-10.4079
無爲而	-10.409
種子	-10.4091
其子	-10.4092
谷神	-10.4094
之正	-10.4095
如斯	-10.4095
因以	-10.4099
山在	-10.41
益州	-10.4102
伏乞	-10.4106
易之	-10.4107
者是也	-10.4109
其生	-10.4117
不虛	-10.412
始知	-10.4124
天然	-10.4125
光照	-10.4129
已成	-10.413
是一	-10.413
學士	-10.4139
卽所謂	-10.4139
狼	-10.4152
薰蒸	-10.4155
琅	-10.4156
庵	-10.4157
坑	-10.4159
間斷	-10.416
汗	-10.4163
煖	-10.4164
圃	-10.4165
汨	-10.4166
挺	-10.4169
榻	-10.4169
醴	-10.4169
朶	-10.4172
臘	-10.4172
所爲	-10.4173
不變	-10.4176
不見其	-10.418
大人	-10.4182
以心	-10.4189
充滿	-10.419
也是故	-10.4194
家人	-10.4202
旣得	-10.4213
▁大悲	-10.4213
不知所	-10.4213
不一	-10.4213
面目	-10.4215
旣已	-10.4219
夜光	-10.4222
爲體	-10.4223
於天下	-10.4231
甚矣	-10.4234
祚	-10.4234
身外	-10.4235
漸漸	-10.4237
道家	-10.4238
書曰	-10.4242
漢中	-10.4243
六十四	-10.4243
者蓋	-10.4248
眞金	-10.425
投誠	-10.4254
自家	-10.4256
志心皈命禮	-10.4261
不祥	-10.4263
同一	-10.4264
勉之	-10.4273
訶	-10.4275
馮	-10.4278
閭	-10.4279
粹	-10.4279
挂	-10.4279
須至	-10.4281
黄	-10.4281
盼	-10.4282
此二	-10.4282
輯	-10.4283
匿	-10.4284
叠	-10.4284
唾	-10.4286
祐	-10.4286
剪	-10.4287
沿	-10.4288
二人	-10.4288
眷屬	-10.4289
巍	-10.4289
證盟	-10.4297
功過	-10.4297
一寸	-10.4305
妙經	-10.4308
投詞	-10.4309
太子	-10.4313
古云	-10.4314
修德	-10.4318
不落	-10.4341
孝子	-10.4343
者謂	-10.4345
金丹大道	-10.4346
玄宗	-10.4348
自來	-10.4352
大將軍	-10.4353
向上	-10.4357
色相	-10.436
指示	-10.4367
儼	-10.4367
所說	-10.437
之餘	-10.4372
欲其	-10.4374
自能	-10.4375
血氣	-10.4382
襄	-10.4383
照臨	-10.4385
張三丰	-10.4386
昨	-10.4391
窒	-10.4391
此書	-10.4392
跪	-10.4394
惟恐	-10.4394
釋迦	-10.4395
佞	-10.4396
惻	-10.4396
晦朔	-10.4399
詰	-10.4401
賈	-10.4402
邈	-10.4402
雖曰	-10.4402
豆	-10.4402
磬	-10.4404
七情	-10.4405
鉢	-10.4405
炳	-10.4406
具足	-10.4406
嫁	-10.4407
爐火	-10.4408
太極之	-10.4413
無由	-10.4416
之祖	-10.4418
不分	-10.4419
可以爲	-10.4421
梅花	-10.4428
解釋	-10.443
萬緣	-10.443
名之曰	-10.4432
化成	-10.4434
法筵	-10.4435
乃爲	-10.4436
數百	-10.4442
老人	-10.4442
淸風	-10.4445
乎哉	-10.4446
夫妻	-10.4451
眞種	-10.4458
神天尊大悲	-10.4461
婆	-10.4467
愚人	-10.4469
國家	-10.447
陽精	-10.4471
地仙	-10.4476
而欲	-10.448
發現	-10.4484
固有	-10.4487
利害	-10.4489
在其中	-10.4502
不滅	-10.4503
從心	-10.4504
危險	-10.4509
南宫	-10.4509
歇	-10.4512
亦猶	-10.4513
一如誥命風火驛傳	-10.4514
盪	-10.4514
綺	-10.4514
熊	-10.4515
金花	-10.4517
療	-10.4517
昆	-10.4517
笈	-10.4519
鋪	-10.4519
艷	-10.4521
薩	-10.4522
薛	-10.4522
琢	-10.4522
一陰一陽	-10.4523
之災	-10.4524
剌	-10.4524
尙未	-10.4524
躡	-10.4524
他日	-10.4524
骨肉	-10.4525
儲	-10.4527
孟子	-10.4529
君子以	-10.4534
面壁	-10.4535
之說也	-10.4537
江湖	-10.4537
不朽	-10.4538
劫運	-10.454
息息	-10.4546
塵寰	-10.4548
運轉	-10.455
不得其	-10.455
傳道	-10.4554
肖	-10.4555
亡魂	-10.4558
大士	-10.4564
衣冠	-10.4567
還元	-10.4568
悟道	-10.4573
則氣	-10.4576
大千	-10.4583
分别	-10.4591
進火	-10.4593
自無	-10.4596
二子	-10.4597
鍳察大使	-10.4598
中藏	-10.4607
玄微	-10.461
三田	-10.4616
茫	-10.4617
何異	-10.4619
風雷	-10.4619
必以	-10.4621
一動	-10.4627
陳淸醮	-10.463
超凡入聖	-10.463
修齋	-10.4631
墻	-10.4637
諸神	-10.4637
爪	-10.4638
簇	-10.464
衲	-10.4641
覃	-10.4641
闇	-10.4641
睹	-10.4642
績	-10.4642
龎	-10.4643
叱	-10.4643
蘆	-10.4643
有五	-10.4644
九九	-10.4645
匠	-10.4646
簫	-10.4646
牀	-10.4646
莫大	-10.4647
擲	-10.4647
乳哺	-10.4647
不食	-10.465
不須	-10.466
長夜	-10.4663
天光	-10.4665
洗心	-10.4669
以身	-10.467
終無	-10.4672
五雷	-10.4672
則能	-10.4683
成佛	-10.4684
於前	-10.469
者不可	-10.4691
正位	-10.4692
天神	-10.4701
粒	-10.4702
平等	-10.4704
之書	-10.4705
證道	-10.4705
眞師	-10.4707
生滅	-10.4708
上文	-10.4708
不厭	-10.4721
靈妙	-10.4733
自謂	-10.4734
眞汞	-10.4735
子弟	-10.4736
去其	-10.474
何時	-10.474
之聲	-10.4742
戒者當念	-10.4744
作爲	-10.4745
乃知	-10.475
羲	-10.4753
渙	-10.4757
乩	-10.4757
膠	-10.4761
兀	-10.4763
揖	-10.4763
頽	-10.4763
濱	-10.4763
油	-10.4765
笠	-10.4766
獵	-10.4766
傑	-10.4766
練	-10.4766
製	-10.4767
棺	-10.4768
奴	-10.477
遼	-10.4774
睿	-10.4774
山河	-10.4781
河圖	-10.4785
其上	-10.479
江河	-10.479
一次	-10.4791
莫若	-10.4799
而進	-10.4802
正天尊大悲	-10.4803
今古	-10.4804
出離	-10.4807
清靜	-10.4807
和天尊大悲	-10.4811
護法	-10.4812
誰知	-10.4815
中和	-10.483
不惟	-10.4831
無涯	-10.4832
白玉	-10.4837
下方	-10.4846
感通	-10.4847
猶如	-10.4851
者自	-10.4862
化太淸道德大天尊	-10.4865
眞宗	-10.487
神丹	-10.4871
其中有	-10.4875
飛仙	-10.4875
之妙用	-10.4877
噓	-10.4878
綴	-10.4881
毀	-10.4881
苦惱	-10.4884
這個	-10.4884
皆以	-10.4884
亡人	-10.4885
合天	-10.4885
織	-10.4885
㳟	-10.4885
藝	-10.4887
豕	-10.4889
僚	-10.489
驛	-10.489
晏	-10.489
址	-10.4891
醕	-10.4892
之尊	-10.4893
本是	-10.4894
隨時	-10.4894
朱雀	-10.4896
太白	-10.4897
駢	-10.4897
惡業	-10.4898
而巳	-10.49
度厄	-10.4909
太空	-10.4916
至理	-10.4918
復生	-10.4918
凡情	-10.4926
大天君	-10.4931
真官	-10.4937
今生	-10.4938
如是則	-10.4939
通天	-10.4943
爲一過	-10.4943
妙合	-10.4946
旣有	-10.4947
三炁	-10.4947
眞王	-10.4949
有生	-10.4949
眞知	-10.4953
玄德	-10.4954
下界	-10.4967
降伏	-10.4967
靜極	-10.4969
以神	-10.4971
六月	-10.4971
等魂	-10.4972
上士	-10.4973
行者	-10.4974
二曰	-10.4975
不負	-10.4982
然也	-10.4985
眼前	-10.4985
日夜	-10.4993
無憂	-10.4998
不失其	-10.4999
總之	-10.5001
澈	-10.5006
不利	-10.5006
霖	-10.5007
訂	-10.5007
燃	-10.5008
取之	-10.5008
絃	-10.5009
恰	-10.501
峩	-10.5011
善事	-10.5011
之時也	-10.5013
懴悔	-10.5013
度天尊大悲	-10.5013
析	-10.5014
合於	-10.5015
黜	-10.5015
料	-10.5015
核	-10.5016
者不知	-10.5017
幕	-10.5018
鈎	-10.502
得遇	-10.5022
一部	-10.5023
其時	-10.5027
盡矣	-10.503
長嘯	-10.503
不解	-10.5035
可惜	-10.5036
皆爲	-10.5037
知止	-10.5038
之勝	-10.5039
由於	-10.5039
互相	-10.504
三台	-10.5043
者或	-10.5051
三代	-10.5051
恭望	-10.5052
五百	-10.5056
容易	-10.5058
有聲	-10.5059
一卷	-10.5062
明珠	-10.5063
積德	-10.5065
陰氣	-10.5069
何足	-10.5072
而不得	-10.5077
不爽	-10.5079
問之	-10.5081
廬山	-10.5089
不堪	-10.5095
矣吾	-10.5098
放下	-10.5099
豈無	-10.5101
子時	-10.5107
常道	-10.5112
盡性	-10.5117
而忘	-10.5125
煉成	-10.5126
課	-10.5131
胞胎	-10.5132
之交	-10.5132
㨗	-10.5133
歸根復命	-10.5133
若以	-10.5134
修心	-10.5134
倖	-10.5134
涓	-10.5134
蹤	-10.5135
百骸	-10.5136
形象	-10.5137
芬	-10.514
殻	-10.5141
彙	-10.5143
此節言	-10.5148
輦	-10.5148
應之	-10.5151
又名	-10.5154
白鶴	-10.5154
不着	-10.5165
莫如	-10.5165
爲惡	-10.5166
碧落	-10.5167
之使	-10.5173
只因	-10.5179
孰爲	-10.5184
死而	-10.5188
何嘗	-10.519
卽如	-10.5192
多言	-10.5193
乃能	-10.5194
之才	-10.5196
大周天	-10.5197
嗟乎	-10.5199
參同	-10.5207
積功	-10.5213
王者	-10.5219
之意也	-10.5219
忠信	-10.5219
骸	-10.5223
圓通自在天尊	-10.5225
釋氏	-10.5228
此處	-10.523
之期	-10.523
靜定	-10.5234
眞修	-10.5238
之流	-10.5241
浮雲	-10.5244
春風	-10.5247
見於	-10.525
氏之	-10.525
者右	-10.5256
原是	-10.5256
嫩	-10.5258
鎔	-10.5259
轄	-10.5259
頂上	-10.5259
狹	-10.526
存乎	-10.5262
發於	-10.5264
弭	-10.5264
呪	-10.5265
黃道	-10.5266
學道之士	-10.5266
紹	-10.5267
綵	-10.5267
不宜	-10.5267
疲	-10.5268
四句	-10.5268
年月	-10.527
猷	-10.527
禽獸	-10.527
麓	-10.5271
道德經	-10.5271
淩	-10.5271
讐	-10.5273
恪	-10.5273
兩弦	-10.5275
涵養	-10.5283
便有	-10.5288
不安	-10.529
諸大	-10.5294
有定	-10.5299
厯劫	-10.5302
太古	-10.531
者此也	-10.531
陽炁	-10.531
識得	-10.5312
太初	-10.5317
在世	-10.5324
保護	-10.5327
受其	-10.5331
語言	-10.5332
五靈	-10.5335
平生	-10.5335
先須	-10.5337
二句	-10.5339
初生	-10.534
則又	-10.5342
藥生	-10.5346
救度	-10.5346
誦之	-10.535
主之	-10.5357
最上	-10.536
教之	-10.5364
跳	-10.5366
默運	-10.5366
不使	-10.5366
煉神	-10.5367
成聖	-10.5384
天符	-10.539
開度	-10.5392
籬	-10.5392
凖	-10.5393
轟	-10.5395
曩	-10.5396
佛法	-10.5396
萬聖	-10.5397
秩	-10.5397
檀	-10.5398
痴	-10.5399
塘	-10.54
宦	-10.54
使其	-10.5401
譬之	-10.5403
二百	-10.5405
堤	-10.5407
禮拜	-10.5408
覆載	-10.5419
亦然	-10.5426
萬物皆	-10.5427
指點	-10.5431
不知有	-10.5432
以前	-10.5432
之儀	-10.5433
不正	-10.5441
覺天尊大悲	-10.5446
寂然	-10.545
經曰	-10.5456
覺悟	-10.5464
普照	-10.5465
明道	-10.5466
番	-10.5466
三洞	-10.5469
其能	-10.5471
結丹	-10.5471
善者	-10.5472
進士	-10.5478
事也	-10.5479
超脫	-10.5481
梵炁	-10.5481
古聖	-10.5486
一世	-10.5488
鈴	-10.5493
穹	-10.5503
亦曰	-10.5504
直上	-10.5507
債	-10.5513
以靜	-10.5517
旌	-10.5518
裡	-10.5519
有石	-10.552
伏念	-10.552
隱顯	-10.5522
擅	-10.5524
脱	-10.5524
捲	-10.5525
陰神	-10.5525
廷	-10.5526
纎	-10.5528
諒	-10.5528
亷	-10.5529
衛	-10.5529
未至	-10.553
貯	-10.553
斥	-10.5531
額	-10.5531
戊己	-10.5532
艾	-10.5533
恬淡	-10.5533
六通	-10.5533
亟	-10.5533
形神	-10.5538
寂寂	-10.5548
飛騰	-10.5556
也二	-10.5561
便可	-10.5561
而不爲	-10.5562
亦云	-10.5567
婦女	-10.5567
四月	-10.5567
悉皆	-10.5568
少陽	-10.5574
者謂之	-10.5577
外藥	-10.5578
爐中	-10.558
北海	-10.5581
無功	-10.5588
天尊大悲神	-10.5591
知識	-10.5593
功天尊大悲	-10.5594
五官	-10.5595
小子	-10.5596
江南	-10.56
皆從	-10.5602
流傳	-10.5603
救人	-10.5603
則心	-10.5604
視聽	-10.5605
無一	-10.5607
謂其	-10.5608
之難	-10.5608
吁	-10.561
兩字	-10.5614
地府	-10.5618
靈應	-10.5619
伏魔	-10.5623
紫雲	-10.5626
實爲	-10.5628
德也	-10.5632
到處	-10.5636
之狀	-10.5636
萬炁	-10.5638
綸	-10.5641
惟其	-10.5643
是道	-10.5644
存神	-10.5644
岐	-10.5647
闔闢	-10.5653
唎	-10.5655
項	-10.5655
優游	-10.5656
二八	-10.5656
慚	-10.5659
不可測	-10.566
炬	-10.5663
喧	-10.5665
鬚	-10.5666
常在	-10.567
鹽	-10.5671
聖德	-10.5671
化育	-10.5672
俯仰	-10.5676
東極	-10.5676
朝夕	-10.5679
授以	-10.5681
於斯	-10.5682
本乎	-10.5684
必至	-10.5685
香火	-10.5686
蕃	-10.5687
不傳	-10.5689
内藥	-10.5697
居士	-10.5701
爲陰	-10.5708
明矣	-10.571
星斗	-10.5725
福地	-10.5725
莫知其	-10.5729
七返	-10.5731
仲尼	-10.5731
嶽府	-10.5734
一番	-10.5736
三十二	-10.5738
大覺	-10.5739
儒者	-10.5747
之吉	-10.5748
而終	-10.5749
亘	-10.5752
八十	-10.5757
金蓮	-10.5757
起於	-10.5761
究其	-10.5762
天闕	-10.5773
寐	-10.5783
遊於	-10.5783
上相	-10.5783
𣺌𣺌	-10.5786
挈	-10.5789
曽	-10.5789
炫	-10.579
脊	-10.579
圈	-10.5792
卽得	-10.5792
爍	-10.5792
擔	-10.5794
刹	-10.5794
於今	-10.5794
歆	-10.5794
酣	-10.5795
扉	-10.5796
倐	-10.5797
揣	-10.5798
生平	-10.5798
也我	-10.5799
刺	-10.58
韋	-10.5802
刀兵	-10.5804
而弗	-10.5805
非人	-10.5806
終南	-10.5806
愆尤	-10.5807
曳	-10.5807
一團	-10.581
勉强	-10.5811
也四	-10.5812
復其	-10.5814
本原	-10.5816
聽之	-10.5817
皇君	-10.5817
龍蛇	-10.5819
洞眞	-10.5822
不住	-10.5824
之教	-10.5825
宫中	-10.5827
安知	-10.5838
安於	-10.5838
上生	-10.584
元帥地	-10.5852
矣若	-10.5853
知覺	-10.5854
今世	-10.5855
對曰	-10.5857
不存	-10.5865
智者	-10.5869
戒者	-10.5876
當以	-10.5877
事業	-10.5877
中庸	-10.5877
盈虛	-10.5877
歸去	-10.5877
天地萬物	-10.5881
觀心	-10.5894
處也	-10.5897
有孚	-10.5898
二分	-10.5899
慈心	-10.59
於後	-10.5901
不作	-10.5901
虛而	-10.5902
不散	-10.5906
大功大行	-10.5913
證道果以	-10.5913
是知	-10.5919
天庭	-10.5921
關鍵	-10.5923
芥	-10.5925
道中	-10.5925
戈	-10.5925
霹𩆝	-10.5926
貴乎	-10.5926
溯	-10.5927
攢	-10.593
距	-10.593
漓	-10.593
涸	-10.5931
以示	-10.5932
悟眞	-10.5934
悠悠	-10.5934
殞	-10.5934
諸佛	-10.5934
潰	-10.5935
章第三十	-10.5936
箭	-10.5937
咨	-10.5937
不竭	-10.5937
洒	-10.5938
湼槃	-10.5939
障礙	-10.5944
可憐	-10.5944
白玉蟾	-10.5946
洞中	-10.5946
洞神	-10.5948
歸來	-10.5961
斯人	-10.5965
心治	-10.5965
皆言	-10.5966
行則	-10.5973
朝禮	-10.5974
天樞	-10.5978
若人	-10.5981
長久	-10.5989
論之	-10.599
別有	-10.5991
世有	-10.5993
紛紜	-10.5999
天宮	-10.6002
上達	-10.6004
方爲	-10.6008
必然	-10.6012
入室	-10.6019
修丹	-10.602
生物	-10.602
可勝	-10.6021
同此	-10.6022
而應	-10.6024
火火	-10.6026
最難	-10.6035
萬天	-10.6036
手足	-10.6041
闕慶普塵寰朝儀居次四之班鸞嘉祉遍	-10.6048
大千之法界慈度尋聲而救苦益開利	-10.6048
體道	-10.6051
其餘	-10.6052
三界無量諸天始盤固於虛皇乃化生於	-10.6052
升騰至聖至神現身名而救度是誠天	-10.6052
聖師	-10.6056
窔	-10.6057
一定	-10.6058
韜	-10.606
鵲橋	-10.6062
翊	-10.6065
寇	-10.6066
矩	-10.6068
藻	-10.6068
婚	-10.607
瓶	-10.6071
銜	-10.6071
浦	-10.6071
控	-10.6074
之所謂	-10.6074
神人	-10.6074
濟人	-10.6075
莖	-10.6076
鵲	-10.6076
惰	-10.6076
憤	-10.6076
挫	-10.6077
褒	-10.608
脚	-10.6081
天德	-10.6083
運動	-10.609
孫權	-10.6091
則亦	-10.6093
仙經	-10.6094
認得	-10.6094
學問	-10.6095
雨露	-10.6099
十二時	-10.61
表裏	-10.6103
吾言	-10.6103
豁然	-10.6104
律令	-10.6105
全無	-10.6107
九重	-10.6109
道藏	-10.611
未發	-10.6119
受命	-10.612
玉皇上帝	-10.612
周身	-10.6122
來往	-10.6127
不齊	-10.6133
非常	-10.6138
今則	-10.6138
不由	-10.6139
異名	-10.6144
尸解	-10.6154
根基	-10.6163
五里	-10.6167
亦當	-10.6167
九竅	-10.6171
達天尊大悲	-10.6175
以至於	-10.6176
中宮	-10.6177
安有	-10.6179
然如	-10.6185
恩人人佩澤大悲大願大聖大慈玉經啟	-10.6186
丹書	-10.6186
每日	-10.6187
者何也	-10.6192
邊豈名言之可述大悲大願大聖大	-10.6192
能以	-10.6193
利物	-10.6194
殺之	-10.6199
此又	-10.62
利天尊大悲	-10.6201
栢	-10.6204
嘻	-10.6205
迭	-10.6206
通玄	-10.6209
蘋	-10.6209
鈍	-10.621
甕	-10.621
毅	-10.6212
陽也	-10.6213
沉淪	-10.6213
𡚱	-10.6213
稀	-10.6213
長年	-10.6215
侈	-10.6216
辜	-10.6217
迺	-10.6217
虛中	-10.6219
生民	-10.6221
𢆯	-10.6222
炊	-10.6222
彖曰	-10.6223
苖	-10.6223
無數	-10.6223
信之	-10.6227
乃至	-10.6237
孚佑帝君曰	-10.6237
寶懴	-10.6238
斯時	-10.6239
喪其	-10.6244
則民	-10.6251
超出	-10.6253
不少	-10.6255
明心	-10.6256
輕重	-10.6257
六年	-10.6259
從容	-10.6262
往而	-10.6263
行也	-10.6264
公曰	-10.6268
不遇	-10.6268
得藥	-10.6271
甚多	-10.6273
其家	-10.6273
光陰	-10.628
口中	-10.6286
丹元	-10.6286
寶月	-10.6288
八方	-10.6292
爲十過	-10.6294
後主	-10.6295
出家	-10.6306
風月	-10.6308
吉象曰	-10.6317
直論	-10.632
者雖	-10.6321
眾聖	-10.6321
歸元	-10.6324
更生	-10.6324
幽魂	-10.6324
歸于	-10.6331
授亦本靈根設普濟之無	-10.6333
中來	-10.6334
又如	-10.6336
也彼	-10.6337
地下	-10.634
爲陽	-10.6342
嚥	-10.6345
爲一功	-10.6346
其義	-10.6347
道道	-10.6347
汚	-10.6347
上言	-10.6348
菊	-10.6348
入山	-10.6349
流珠	-10.635
弼	-10.6352
夾脊	-10.6352
繪	-10.6352
繡	-10.6352
搏	-10.6352
弔	-10.6354
疊	-10.6354
囂	-10.6355
袍	-10.6355
腥	-10.6355
莽	-10.6356
暌	-10.6356
酷	-10.6356
裝	-10.6356
諧	-10.6357
扶桑	-10.6357
蔓	-10.6358
軌	-10.6358
窩	-10.6362
師曰	-10.6364
立功	-10.6367
黃籙	-10.6368
本根	-10.637
蘿	-10.6371
莫可	-10.6372
前生	-10.6375
世世	-10.6376
祥光	-10.6377
本壇	-10.6377
過此	-10.638
之變	-10.638
者不能	-10.6382
照耀	-10.6383
朗朗	-10.6385
莊子曰	-10.6392
氣化	-10.6393
天柱	-10.6394
六陰	-10.6397
之權	-10.6398
不修	-10.6398
幽冥	-10.64
所不能	-10.6404
無餘	-10.6405
五龍	-10.6408
戒殺	-10.6417
神全	-10.6418
人倫	-10.642
依然	-10.6423
陽光	-10.6425
利貞	-10.6427
眞官	-10.6431
或問	-10.6435
二十八	-10.6438
人多	-10.644
不但	-10.644
由我	-10.6441
也乃	-10.6446
三清	-10.645
而作	-10.6451
機關	-10.6451
則生	-10.6452
案主者嶽府管	-10.6457
江海	-10.6457
皆非	-10.6459
不絕	-10.6459
有能	-10.6462
火龍	-10.6463
字字	-10.6463
一點眞	-10.6465
之所由	-10.6468
至于	-10.6471
亦何	-10.6471
保其	-10.6473
時人	-10.6475
愼之	-10.6477
光華	-10.6479
卧龍	-10.6479
都是	-10.6483
奉行科事	-10.6487
煉形	-10.6488
而莫	-10.6489
𨶒	-10.6491
寶誥志心皈命禮	-10.6492
乎故	-10.6497
潘	-10.6497
幢	-10.6497
爲五過	-10.6498
岩	-10.6499
簷	-10.6499
臟腑	-10.65
自然而然	-10.65
緘	-10.6503
鷄	-10.6506
䇿	-10.6506
曡	-10.6508
巷	-10.6509
成象	-10.651
朝廷	-10.6514
臧	-10.6516
鍊心	-10.6518
何其	-10.6523
生殺	-10.6525
持經	-10.6528
是何	-10.6532
玉樞	-10.6532
物天尊大悲	-10.6535
形體	-10.6536
無遺	-10.6538
金火	-10.654
亦能	-10.6541
一輪	-10.6542
戊已	-10.6546
明年	-10.6546
學仙	-10.6546
皆因	-10.6547
六賊	-10.6548
相見	-10.6551
精炁神	-10.6552
玉闕	-10.6557
帝光	-10.6557
十日	-10.6561
之宫	-10.6568
原無	-10.657
母也	-10.6576
頂門	-10.6578
去來	-10.6582
内觀	-10.6582
至極	-10.6583
有意	-10.6585
聖帝	-10.6588
天運年月日告下奉行便宜科事	-10.6601
赤炁	-10.6604
吾師	-10.6604
火府	-10.6606
故無	-10.6607
六道	-10.6615
不異	-10.6615
只有	-10.6619
而易	-10.6631
七月	-10.6631
塵緣	-10.6632
瑟	-10.6637
一種	-10.6639
懽	-10.6641
洞陽	-10.6641
其數	-10.6642
股	-10.6642
糾	-10.6642
古仙	-10.6642
蛻	-10.6644
故名	-10.6645
軒轅	-10.6647
柔弱	-10.6648
一陽初動	-10.6648
四者	-10.665
風流	-10.665
千餘	-10.6655
通達	-10.6657
藏之	-10.6658
此正	-10.6658
玉宸	-10.6659
交姤	-10.6662
周公	-10.6664
秘密	-10.6666
掃除	-10.6667
光大	-10.6675
蛟龍	-10.6677
俱是	-10.6678
以定	-10.6684
身體	-10.6687
下士	-10.6689
主張	-10.669
心如	-10.6694
精華	-10.6694
不輕	-10.6694
心傳	-10.6695
應物	-10.6696
色界	-10.6698
寶光	-10.6701
功用	-10.6702
者先	-10.6708
不愼	-10.6711
昭明	-10.6713
孰知	-10.6713
返照	-10.6727
亦不可	-10.6729
上品	-10.6732
三曰	-10.6737
授之	-10.6755
惟此	-10.6757
大願	-10.6761
自稱	-10.6762
也至於	-10.6766
赤文	-10.6769
慈仁	-10.6773
如一	-10.6774
其始	-10.6777
十過	-10.6777
後有	-10.6778
而立	-10.678
運化	-10.6781
天運年月日	-10.6785
屑	-10.6787
數年	-10.6789
寂然不動	-10.6791
悌	-10.6791
我獨	-10.6792
𥳑	-10.6792
洵	-10.6793
遶	-10.6796
弛	-10.6797
隘	-10.6797
法事	-10.6798
鋤	-10.6798
琳	-10.6799
渭	-10.68
俞	-10.6802
逾	-10.6802
羡	-10.6804
盜賊	-10.6809
月窟	-10.6809
塵垢	-10.6809
曹操	-10.681
曰夫	-10.6813
正月	-10.6816
否則	-10.6818
天尊言	-10.6819
而陰	-10.6823
不斷	-10.683
精血	-10.6835
于是	-10.6836
不傷	-10.6837
而猶	-10.6838
之喻	-10.6839
邵	-10.6839
天尊大悲洪	-10.684
必得	-10.6842
仍乞	-10.6846
輪轉	-10.6849
忘形	-10.685
不到	-10.6851
幽明	-10.6854
通神	-10.6856
三拜	-10.6856
之果	-10.6856
同人	-10.6857
將欲	-10.6861
使民	-10.6862
不假	-10.6863
臣某	-10.6867
深處	-10.6868
步步	-10.6869
純一	-10.6875
之所以爲	-10.6877
强名	-10.6877
道化	-10.688
而後能	-10.6886
也所以	-10.6895
能見	-10.6897
使我	-10.6898
不敬	-10.6902
三尺	-10.6905
大義	-10.6908
何須	-10.6911
修之	-10.6913
猶是	-10.6916
淸氣	-10.6919
修證	-10.6921
忘言	-10.6922
之心濟生拔朽以施仁更廣悲思之德	-10.6923
孚佑帝君	-10.6924
修道者	-10.6925
禪師	-10.6927
惠子	-10.6928
本自	-10.6931
氛	-10.6934
百神	-10.6934
匹	-10.6935
旣濟	-10.694
三家	-10.6941
實有	-10.6943
光天尊大悲	-10.6944
蠅	-10.6945
捕	-10.6945
竒	-10.6945
牲	-10.6946
掠	-10.6948
一貫	-10.6948
灘	-10.6948
韶	-10.6949
俊	-10.695
床	-10.6951
三山	-10.6951
而致	-10.6953
明師	-10.6953
嵐	-10.6955
酧	-10.6956
未聞	-10.6956
歴	-10.6957
則失	-10.6962
何在	-10.6963
打破	-10.6963
小周天	-10.6964
弩	-10.6965
通明	-10.6966
寶珠	-10.6966
八陣圖	-10.6967
之奇	-10.6967
飲酒	-10.697
草廬	-10.6971
勸人	-10.6972
言乎	-10.6972
此意	-10.6974
妨	-10.6977
純陰	-10.6981
星君天	-10.6982
武當	-10.6987
八極	-10.6989
里許	-10.699
稱揚	-10.6992
屬陰	-10.6998
五年	-10.6999
之語	-10.7
赤龍	-10.7002
兩物	-10.7005
而安	-10.7007
初九	-10.7008
自化	-10.7014
行滿	-10.7015
靈寶天尊	-10.7016
九還	-10.7022
無息	-10.7025
此地	-10.7027
利濟	-10.7028
上清	-10.7032
又以	-10.7034
乎道	-10.7037
何用	-10.7038
而無所	-10.7041
本師	-10.7041
伏食	-10.7048
水陸	-10.7051
現在	-10.7056
其位	-10.7058
出現	-10.7063
聽其	-10.7067
未始有	-10.7069
幾何	-10.7071
注曰	-10.7077
天尊大悲功	-10.7079
一處	-10.7083
而後可	-10.7086
眞符右符告下	-10.7088
嗇	-10.709
纏	-10.7091
叙	-10.7095
輸	-10.7095
殄	-10.7098
汲	-10.7098
吃	-10.7098
婁	-10.7099
炭	-10.7099
凍	-10.7099
孼	-10.71
一動一靜	-10.71
漂	-10.7101
貶	-10.7102
漲	-10.7102
岑	-10.7103
閩	-10.7103
鴉	-10.7104
瀑	-10.7104
磴	-10.7105
不順	-10.7106
朱陵	-10.7106
津梁	-10.7106
璋	-10.7107
鶯	-10.7108
册	-10.7108
九宸	-10.7111
以濟	-10.712
絳宫	-10.7121
記云	-10.7126
其次	-10.7127
憚	-10.7128
而外	-10.7133
六陽	-10.7136
之理也	-10.7139
不可見	-10.714
相去	-10.714
不去	-10.7144
猶可	-10.7146
損益	-10.7146
三業	-10.7148
又爲	-10.7151
相逢	-10.7151
世法	-10.7151
諸山	-10.7152
頑空	-10.7154
諷	-10.7155
道妙	-10.7157
回頭	-10.7158
漢書	-10.7159
以正	-10.716
有數	-10.7161
九十	-10.7161
良久	-10.7161
洞章	-10.7162
頂禮	-10.7162
爲先	-10.7163
百過	-10.7166
一意	-10.7169
相對	-10.7171
炁穴	-10.7176
取諸	-10.7177
大國	-10.7179
虎嘯	-10.718
迄	-10.7198
夫惟	-10.7198
其初	-10.7201
出定	-10.7203
天之道	-10.7205
官將	-10.7215
十二月	-10.7218
唆	-10.7227
正直	-10.7229
不問	-10.7232
了性	-10.7233
於天地	-10.7236
諸生	-10.7244
形神俱妙	-10.7247
閨	-10.7249
沸	-10.725
喜怒	-10.725
詢	-10.7254
心體	-10.7255
馥	-10.7256
月魄	-10.7257
𥥆	-10.7257
血肉	-10.7258
架	-10.7258
僭	-10.7259
千金	-10.7259
眺	-10.7259
丞	-10.726
蔣	-10.726
望之	-10.726
果天尊大悲	-10.7261
少陰	-10.7261
熒	-10.7261
苞	-10.7262
金液還丹	-10.7262
隴	-10.7262
氣機	-10.7263
魔王	-10.7263
劒	-10.7264
豪傑	-10.7264
一功	-10.7268
立極	-10.7269
我亦	-10.7271
這箇	-10.7274
此法	-10.7276
慈光	-10.7279
法會	-10.7282
無論	-10.7288
採之	-10.7288
濟天尊大悲	-10.7299
䖍誠	-10.7302
垂慈	-10.7303
愛河	-10.7304
其說	-10.7306
知足	-10.7307
未分	-10.7309
一切眾生	-10.7311
得意	-10.7318
以為	-10.7318
神凝	-10.732
祖眞君	-10.732
以氣	-10.7331
見一	-10.7336
而且	-10.7343
小兆	-10.7343
經中	-10.7346
登仙	-10.7349
雲水	-10.7359
故受之以	-10.7359
恩光	-10.7367
降生	-10.7368
是之謂	-10.7369
斗柄	-10.7371
天谷	-10.7371
要在	-10.7384
眾眞	-10.7394
我以	-10.7396
五日	-10.7396
黃老	-10.7399
國土	-10.74
必欲	-10.7401
劔	-10.7405
放生	-10.7406
盂	-10.7408
立志	-10.7408
道炁	-10.741
儔	-10.7411
從前	-10.7412
緊	-10.7413
蕊	-10.7413
踞	-10.7413
丘	-10.7414
囿	-10.7414
虛虛	-10.7414
活潑	-10.7414
贅	-10.7415
倣	-10.7417
瞰	-10.7418
在手	-10.7419
規矩	-10.742
疵	-10.742
間有	-10.7421
查	-10.7423
彌羅	-10.7424
殉	-10.7424
婢	-10.7427
果有	-10.7427
飮食	-10.7432
惟是	-10.7435
少年	-10.7437
出乎	-10.7437
也予	-10.744
勿以	-10.7444
口鼻	-10.7446
物外	-10.7447
所以然	-10.7447
數里	-10.7448
本師言	-10.7451
歎曰	-10.7452
情欲	-10.746
百千	-10.7461
無念	-10.7461
五穀	-10.7462
不妄	-10.7469
超凡	-10.7473
諸聖	-10.7477
至精	-10.7486
愛之	-10.7487
碍	-10.7496
公子	-10.75
經營	-10.75
九宫	-10.7503
天尊大悲風	-10.7506
之微	-10.7509
玄靈	-10.751
遠近	-10.7512
疆	-10.7513
降魔	-10.7515
著於	-10.7521
金書	-10.7527
紫金	-10.7536
伏望	-10.7537
其情	-10.7538
登眞	-10.7539
教金闕萬福護身眞人流衍萬眞	-10.7551
人我	-10.7551
眞官名醫傳世	-10.7554
其地	-10.7558
相接	-10.7561
j	-10.7566
p	-10.7568
吒	-10.7568
馴	-10.757
閃	-10.7571
痊	-10.7572
劣	-10.7573
斃	-10.7574
嚮	-10.7574
脂	-10.7575
逍遥	-10.7575
抗	-10.7576
啣	-10.7576
妍	-10.7577
廊	-10.7577
妹	-10.7577
蝸	-10.7577
帆	-10.7578
蝕	-10.758
墟	-10.7581
崑	-10.7584
成敗	-10.7586
闌	-10.7587
霸	-10.7588
消長	-10.7589
元天尊大悲	-10.759
果報	-10.7592
大有	-10.7595
行火	-10.7595
之功也	-10.7603
之盛	-10.7604
戒之	-10.7605
一方	-10.7605
指揮	-10.7606
動也	-10.7611
從今	-10.7612
者猶	-10.7612
五師	-10.7618
金籙	-10.7618
分身	-10.7619
不啻	-10.7621
過去	-10.7621
聞見	-10.7622
如如	-10.7622
自明	-10.7623
卽以	-10.7624
元命	-10.7624
心神	-10.7624
昭然	-10.7625
布施	-10.7625
不漏	-10.7629
合德	-10.7632
虛明	-10.7634
玄壇	-10.7639
四聖	-10.7649
道光	-10.7654
之訣	-10.7658
以立	-10.7659
常有	-10.7662
不言而	-10.7666
地位	-10.767
之妙也	-10.7675
萬民	-10.7676
壇中	-10.7676
東海	-10.7677
故聖人	-10.7677
神合	-10.7679
治世	-10.768
禪定	-10.7685
祖宗	-10.7688
所作	-10.7689
了悟	-10.7689
九拜	-10.769
實實	-10.7692
以全	-10.7695
淸甯	-10.7696
相感	-10.7699
氣象	-10.77
害人	-10.7707
而不敢	-10.7707
不立	-10.7708
元始天王	-10.7713
空虛	-10.7714
五星	-10.7715
陰陽相	-10.7715
力士	-10.7717
勿用	-10.7724
有名	-10.7725
昬	-10.7725
幽深	-10.7729
斡	-10.7731
如水	-10.7732
鳩	-10.7736
煅煉	-10.7736
泓	-10.7737
唇	-10.7737
瑕	-10.7738
系	-10.7738
啖	-10.7739
故次之以	-10.7739
惺惺	-10.7739
揆	-10.7742
推之	-10.7743
貞吉	-10.7744
娥	-10.7745
本來面目	-10.7745
至仁	-10.7745
也所謂	-10.7746
元始之	-10.7746
葷	-10.7747
紫霄	-10.7748
概	-10.7748
現前	-10.7748
枝葉	-10.7749
瓢	-10.7749
盆	-10.7749
菜	-10.7749
霑	-10.775
塵埃	-10.7752
戊土	-10.7755
嬌	-10.7757
鼎中	-10.7758
不暇	-10.7761
經綸	-10.7762
威神	-10.7763
之首	-10.7764
浩然	-10.7768
經文	-10.777
夢中	-10.777
渾淪	-10.7771
年月日時	-10.7778
直至	-10.7778
黃房	-10.7789
錫福	-10.7791
大丈夫	-10.78
天地之間	-10.7807
云何	-10.7811
五常	-10.7813
解悟	-10.7817
太真	-10.782
明鏡	-10.7822
聖凡	-10.7829
合成	-10.783
天下有	-10.7836
行藏	-10.7837
張紫陽	-10.7839
一兩	-10.7844
衆生	-10.785
外丹	-10.785
只此	-10.7851
神祗	-10.7856
故爲	-10.7858
者矣	-10.786
雷公	-10.7865
復性	-10.7868
卽便	-10.7871
大笑	-10.7871
萬類	-10.7871
乃可	-10.7873
乃得	-10.7875
南宮	-10.7876
而返	-10.7886
神奇	-10.7888
所由	-10.7896
欲界	-10.7898
筏	-10.7899
啞	-10.79
模	-10.7902
璞	-10.7902
社稷	-10.7902
竣	-10.7904
吼	-10.7904
茹	-10.7905
巒	-10.7907
貺	-10.7909
謨	-10.791
釁	-10.791
會於	-10.7911
父兄	-10.7913
撼	-10.7916
聘	-10.7917
大靈官内壇廵䕶	-10.7918
賁	-10.7918
髻	-10.7918
髯	-10.7918
一枝	-10.7919
社令	-10.7919
未曾	-10.792
功滿	-10.7923
權衡	-10.7924
畢竟	-10.7924
不遺	-10.7925
黃鶴	-10.7926
不許	-10.7931
淵源	-10.7932
矣今	-10.7935
不雜	-10.7935
可得而	-10.7938
而不知其	-10.7942
性體	-10.7947
而萬物	-10.7955
用意	-10.7956
賜福	-10.7959
二陰	-10.7965
斯爲	-10.7968
苟能	-10.7968
止火	-10.7981
返本	-10.7981
終於	-10.7981
未易	-10.7987
順逆	-10.7988
救劫	-10.7989
亦必	-10.7989
先王	-10.7991
原來	-10.7992
道體	-10.7997
隱居	-10.7997
生氣	-10.8004
變而	-10.8005
幽顯	-10.801
靈丹	-10.8011
三十九	-10.8012
願力	-10.8013
其勢	-10.8014
將此	-10.8015
得丹	-10.8017
皆空	-10.8021
天台	-10.8021
一如誥命	-10.8027
紫氣	-10.8028
九地	-10.8028
五苦	-10.8029
天官	-10.8029
人不能	-10.803
必用	-10.8031
不聽	-10.8033
方有	-10.8035
毫無	-10.8039
之末	-10.8041
天尊大悲廣	-10.8044
與其	-10.8047
重重	-10.8049
有道者	-10.805
三三	-10.805
不得而	-10.8051
得長生	-10.8051
及諸	-10.8051
靈壇	-10.8053
離火	-10.8055
二十五	-10.8063
治之	-10.8065
妙訣	-10.8068
雌雄	-10.807
哆	-10.8071
眩	-10.8072
坡	-10.8073
瘦	-10.8073
躔	-10.8073
滚	-10.8075
敕	-10.8075
盍	-10.8075
軟	-10.8075
廻	-10.8076
翹	-10.8076
壅	-10.8077
大靈官外壇廵䕶	-10.8077
瞞	-10.8078
誦持	-10.8081
汙	-10.8081
純熟	-10.8083
蜂	-10.8083
轅	-10.8083
鵬	-10.8083
朴	-10.8083
嶂	-10.8084
明白	-10.8084
慧光	-10.8086
庚申	-10.8087
古來	-10.8087
木火	-10.8088
中原	-10.809
掘	-10.8091
而用之	-10.8093
浮沉	-10.8094
不改	-10.8096
列聖	-10.8101
而後有	-10.8102
五六	-10.8103
到底	-10.8104
無漏	-10.8109
眾等	-10.8116
久則	-10.8121
丹臺	-10.8121
魔障	-10.8123
目錄	-10.8127
安靜	-10.8129
花開	-10.8131
神名	-10.8131
三顧	-10.814
演說	-10.8145
淨土	-10.8148
之鄉	-10.8153
於是乎	-10.8157
邪魔	-10.8166
發願	-10.8173
形形	-10.8174
本司	-10.8183
日魂	-10.8183
鍊成	-10.8189
惡人	-10.8193
同志	-10.8194
問道	-10.8194
四川	-10.8194
也昔	-10.82
得以	-10.8202
身天尊大悲	-10.8204
究之	-10.8206
居中	-10.8212
修建	-10.8214
人力	-10.8216
可用	-10.8217
不留	-10.8217
嵩	-10.822
有成	-10.8226
怯	-10.8234
忒	-10.8241
釀	-10.8241
有德	-10.8241
寶誥一遍	-10.8242
籟	-10.8243
傳心	-10.8243
道果	-10.8243
喫	-10.8244
麽	-10.8245
玄武	-10.8247
撮	-10.8247
迂	-10.8247
騫	-10.8248
樽	-10.8248
伽	-10.825
白鬂老人曰	-10.8251
狥	-10.8252
陞	-10.8253
斛	-10.8254
淆	-10.8255
墳	-10.8256
迦	-10.8256
龜蛇	-10.8259
旣而	-10.826
邪說	-10.8262
岷	-10.8263
及於	-10.8266
中田	-10.8267
上界	-10.8267
奪其	-10.8268
感格	-10.827
者道之	-10.827
無色	-10.8282
后土	-10.8282
之私	-10.8285
大靈官内外廵䕶	-10.8285
或爲	-10.8286
平地	-10.8286
白金	-10.829
天魔	-10.8291
不絶	-10.8292
保身	-10.8296
天關	-10.8297
禪宗	-10.8298
修天尊大悲	-10.8299
變成	-10.83
山上	-10.83
作禮	-10.8301
眞如	-10.8304
赦罪	-10.8304
妄動	-10.8307
印證	-10.8307
坎水	-10.8308
不克	-10.8312
之會	-10.8316
聖號	-10.8321
好善	-10.8324
不和	-10.8328
死後	-10.833
鍊形	-10.8335
法度	-10.8336
識神	-10.8342
信受	-10.8343
開通	-10.8344
不平	-10.8346
窮理	-10.8346
離坎	-10.8348
不得已而	-10.835
雲霞	-10.8353
何患	-10.8355
運天尊大悲	-10.8356
生于	-10.8356
帝尊	-10.8358
線	-10.8363
陰陰	-10.8369
積善	-10.837
七星	-10.8373
之師	-10.8374
水水	-10.8375
者哉	-10.8378
相似	-10.839
位而	-10.8396
言言	-10.8397
第十二	-10.8398
皆能	-10.84
不老	-10.8411
轂	-10.8414
匱	-10.8414
受度	-10.8417
與夫	-10.8417
喝	-10.8419
一斤	-10.8419
評	-10.842
餓	-10.8421
航	-10.8422
凋	-10.8422
渚	-10.8423
奎	-10.8423
惱	-10.8424
下弦	-10.8425
惹	-10.8425
娛	-10.8425
滄	-10.8425
寓言	-10.8427
性命雙修	-10.8428
眞玄	-10.8428
天地之心	-10.8428
漆	-10.8429
嫉	-10.8429
槪	-10.843
日月星辰	-10.843
藤	-10.843
喜怒哀樂	-10.8431
殁	-10.8431
闊	-10.8432
娶	-10.8432
佚	-10.8432
寶經	-10.8433
讒	-10.8435
金丹大藥	-10.8442
達摩	-10.8443
頓悟	-10.8448
打坐	-10.8449
邪正	-10.8452
敢忘	-10.8455
大羅天	-10.8455
秘訣	-10.8455
不差	-10.8458
所欲	-10.8459
其聲	-10.8461
霄漢	-10.8464
亦可以	-10.8465
周旋	-10.8467
數日	-10.8469
道理	-10.8472
無意	-10.8477
以德	-10.8479
○○	-10.848
北宗	-10.8481
不全	-10.8483
炁天君	-10.8487
化而爲	-10.8491
第十一	-10.8491
夕陽	-10.8497
五十功	-10.8498
祥雲	-10.8501
帝座	-10.8506
義理	-10.8507
海底	-10.8508
普天	-10.8508
王母	-10.8509
道路	-10.8509
承上	-10.8513
陽明	-10.8515
如玉	-10.8518
奉命	-10.852
之良	-10.8521
外馳	-10.8524
無害	-10.8529
城南	-10.853
以陰	-10.8535
流於	-10.8539
何難	-10.8542
眞眞	-10.8547
顆	-10.8548
相忘	-10.8549
一語	-10.8553
不加	-10.8555
其罪	-10.8555
令其	-10.8559
延夀	-10.856
何可	-10.8566
重刋道藏輯要	-10.8571
丹訣	-10.8576
天一	-10.8576
内照	-10.8576
丹法	-10.8577
時刻	-10.8577
貫通	-10.8577
十惡	-10.8587
性本	-10.8588
無厭	-10.859
自安	-10.859
同心	-10.8594
玄帝	-10.8595
飡	-10.8595
至真	-10.8596
洋洋	-10.8599
悼	-10.86
湛寂	-10.8601
疴	-10.8602
隻	-10.8602
簪	-10.8602
㦸	-10.8603
鑽	-10.8603
各自	-10.8604
腔	-10.8605
糞	-10.8606
鴈	-10.8608
伺	-10.8609
虬	-10.861
五雲	-10.861
莫大於	-10.861
孜	-10.861
蠲	-10.8611
定位	-10.8612
痕	-10.8614
其旨	-10.8615
擢	-10.8616
狠	-10.8616
猶言	-10.8619
未明	-10.8622
章第五	-10.8625
沖和	-10.8627
地軸	-10.8629
源流	-10.8638
跳出	-10.8639
默朝	-10.864
始生	-10.8641
天元	-10.8645
當用	-10.8647
進而	-10.8647
一如	-10.8648
畜生	-10.8648
凡物	-10.865
五功	-10.8651
壺中	-10.8654
大王	-10.8655
下田	-10.8655
有司	-10.8672
仙姑	-10.8672
帝主	-10.8673
間隔	-10.8675
一線	-10.8677
懈	-10.8679
雖欲	-10.868
上弦	-10.868
腹中	-10.8682
如彼	-10.8685
仲尼曰	-10.8691
血海	-10.8692
太華	-10.8697
光輝	-10.8699
不義	-10.8702
便知	-10.8703
若欲	-10.8708
南海	-10.8715
難名	-10.8717
夫道	-10.8718
外來	-10.872
傳經	-10.872
察其	-10.873
黃白	-10.8732
立地	-10.8734
九曲	-10.8735
金母	-10.8736
大約	-10.8737
三世	-10.8752
門外	-10.8753
並無	-10.8756
丰	-10.876
宗祖	-10.8761
九月	-10.8763
教化	-10.8769
之府	-10.8769
聖人之道	-10.8773
馨	-10.8773
熱	-10.8775
先要	-10.8777
汎	-10.8777
擴	-10.8777
替	-10.8778
六十四卦	-10.8779
淹	-10.878
洎	-10.8781
瘡	-10.8781
炙	-10.8781
砌	-10.8782
耐	-10.8782
絪緼	-10.8783
彷彿	-10.8784
悵	-10.8784
頸	-10.8784
夀命	-10.8785
凜	-10.8785
鉅	-10.8785
𡨴	-10.8786
泠	-10.8786
懺悔	-10.8787
謾	-10.8787
長生久視	-10.8787
陂	-10.8787
榆	-10.8788
裘	-10.879
輝煌	-10.879
斯道	-10.879
遨遊	-10.879
仔細	-10.8791
九陽	-10.8793
粧	-10.8793
謫	-10.8796
烹鍊	-10.8799
先聖	-10.8807
九光	-10.8808
首尾	-10.881
眞光	-10.8814
進修	-10.8815
覆護	-10.8816
服之	-10.8816
參差	-10.8818
長安	-10.8818
性中	-10.882
鍊度	-10.8821
洞天仙官	-10.8824
誓願	-10.8826
洪武	-10.883
開闢	-10.8831
億劫	-10.8831
眞訣	-10.8832
墮落	-10.8834
華陽	-10.8835
十二年	-10.8836
闡教	-10.8838
經典	-10.8841
思議	-10.8841
所以能	-10.8842
丹天尊大悲	-10.8842
一曲	-10.8842
不拘	-10.8843
飛鸞	-10.8847
方成	-10.8848
殺生	-10.8852
登高	-10.8852
只爲	-10.8856
無疑	-10.8857
不獨	-10.8861
妙諦	-10.8863
赤帝	-10.8865
時節	-10.8866
内景	-10.8868
流光	-10.8868
歸眞	-10.8869
靜靜	-10.8877
汞鉛	-10.8877
了了	-10.8892
此所以	-10.8894
江山	-10.8899
玉符	-10.89
入手	-10.8904
方圓	-10.8905
風波	-10.891
笑曰	-10.891
孝弟	-10.891
精誠	-10.8915
忠臣	-10.8917
金容	-10.8919
無際	-10.8921
不違	-10.8923
治天尊大悲	-10.8923
天尊大悲普	-10.8923
諸峰	-10.8926
不特	-10.893
諸弟子	-10.8935
何益	-10.8935
不期	-10.8936
足矣	-10.8939
年月日	-10.8946
而不見	-10.8954
是皆	-10.8956
縱有	-10.8957
郁	-10.8958
授受	-10.896
𥚃	-10.8961
樊	-10.8961
嘿	-10.8963
杏	-10.8964
遑	-10.8965
攢簇	-10.8965
萍	-10.8965
梧	-10.8967
籥	-10.8968
娑	-10.8968
綘	-10.8968
叮	-10.8969
泯	-10.897
灣	-10.897
酸	-10.897
隋	-10.8972
瀾	-10.8972
孚佑	-10.8973
寂靜	-10.8973
徼	-10.8974
躭	-10.8974
沽	-10.8974
稚	-10.8974
檻	-10.8975
向來	-10.8976
閻	-10.8978
未始	-10.8979
亞	-10.8979
瞽	-10.8979
憩	-10.8982
一𡻕	-10.8982
大慈大悲	-10.8982
坪	-10.8982
收拾	-10.8982
庖	-10.8983
皇天	-10.8984
一派	-10.8985
旌陽	-10.8985
存存	-10.8985
譜	-10.8987
震動	-10.8988
插	-10.8989
無爲也	-10.8993
烟霞	-10.8994
快活	-10.8997
而爲之	-10.8998
迷惑	-10.8999
文昌帝君曰	-10.9004
明德	-10.9004
子貢	-10.9005
敢不	-10.9005
自號	-10.9005
有限	-10.9018
南昌	-10.9018
有益	-10.9019
士大夫	-10.902
八十一	-10.9021
羅浮	-10.9021
固守	-10.9027
作商	-10.9031
昇天	-10.9034
五岳	-10.9037
語錄	-10.9039
復歸於	-10.904
隱隱	-10.9041
大光明	-10.9043
至虛	-10.9048
六時	-10.905
華蓋	-10.9054
法籙	-10.9054
正宗	-10.9067
所行	-10.9087
是書	-10.9089
周圓	-10.9094
平平	-10.9095
微塵	-10.9102
合體	-10.9109
虛靜	-10.911
與世	-10.9115
悠	-10.9115
水流	-10.9116
遂成	-10.9117
執著	-10.9117
之句	-10.9122
何以故	-10.9125
金陵	-10.9125
九鼎	-10.9127
侯之	-10.9133
其色	-10.9134
玉華	-10.9139
二土	-10.914
不自知	-10.914
福祉	-10.9147
全書	-10.9147
藜	-10.9147
兇	-10.9149
於其中	-10.915
驪	-10.9153
忝	-10.9155
迅	-10.9155
絮	-10.9158
尊師	-10.9159
自然之道	-10.916
勁	-10.916
頴	-10.916
二十八宿	-10.916
忤	-10.9162
貼	-10.9163
攖	-10.9163
遊行	-10.9164
噴	-10.9164
茗	-10.9164
不倦	-10.9165
牟尼	-10.9167
瓜	-10.9167
隂	-10.9168
劄	-10.9168
水官	-10.9169
惟道	-10.9171
諦聽	-10.9171
制伏	-10.9171
忘我	-10.9172
十戒	-10.9173
迎祥	-10.9175
長跪	-10.9176
愚昧	-10.9178
得手	-10.9184
正教	-10.9189
何曾	-10.9189
俱在	-10.919
月光	-10.9191
成胎	-10.9192
也葢	-10.9193
積累	-10.9199
無主	-10.9199
昇仙	-10.9201
交合	-10.9207
骨節	-10.9213
神聖	-10.9225
此所謂	-10.9227
回向	-10.9227
所傳	-10.9229
百八十	-10.9236
須用	-10.9245
端坐	-10.9247
重濁	-10.9248
死矣	-10.9249
而今	-10.9254
宣化	-10.9257
養心	-10.9257
賢者	-10.9257
極樂	-10.9258
鍊精	-10.9264
兆民	-10.9266
百體	-10.9269
連二	-10.9271
妙在	-10.9274
諸經	-10.9274
兩相	-10.9275
佛仙	-10.9279
天府	-10.93
爲害	-10.93
作丹	-10.93
開明	-10.931
般若	-10.9314
金童	-10.9314
不避	-10.9318
大智	-10.9325
浩劫	-10.9328
濟生	-10.9329
宗親	-10.9336
眸	-10.9338
天師張眞人曰	-10.9344
玄關一竅	-10.9345
趺	-10.9346
棠	-10.9348
睦	-10.9348
洋	-10.9348
稼	-10.9349
斗母天尊頌曰	-10.9349
苛	-10.9349
呵呵	-10.935
一百二十	-10.9351
璇璣	-10.9351
悟眞篇	-10.9352
玄之又玄	-10.9352
三寸	-10.9353
縹緲	-10.9353
兩間	-10.9353
・	-10.9353
三千六百	-10.9354
不殺	-10.9354
慳	-10.9355
晰	-10.9356
瑜	-10.9357
騙	-10.9357
屆	-10.9357
郞	-10.9357
大矣哉	-10.9357
毫髮	-10.9358
幅	-10.9359
憇	-10.9359
祈禳	-10.9362
丐	-10.9363
委曲	-10.9364
惟在	-10.9364
甦	-10.9368
深山	-10.9369
住世	-10.9375
瀘	-10.9376
迷途	-10.9381
暗室	-10.9385
良因	-10.9386
闡發	-10.9386
玉篆	-10.9389
但見	-10.9389
冲和	-10.9391
句句	-10.9392
如何是	-10.9393
立基	-10.9393
不滯	-10.9396
三景	-10.9397
旋轉	-10.94
无妄	-10.9405
先天之炁	-10.9411
蒼生	-10.9414
兩腎	-10.9415
旣久	-10.9415
齋修	-10.9415
氣血	-10.9416
齋壇	-10.9421
諸司	-10.9425
威光	-10.9425
受用	-10.9426
祈雨	-10.9426
自然之理	-10.9428
雷雨	-10.9437
萬善	-10.9441
正心	-10.9448
帝心	-10.9449
砂汞	-10.9455
俄而	-10.9455
金烏	-10.946
終不能	-10.946
處士	-10.9463
此一段	-10.9465
石上	-10.9466
三皇	-10.9476
主持	-10.9481
心之所	-10.9487
朗天尊大悲	-10.949
六塵	-10.9491
惡乎	-10.9492
直到	-10.9502
天地之道	-10.9502
二陽	-10.9502
六爻	-10.9503
寡欲	-10.9505
見前	-10.9509
五分	-10.9512
眞神	-10.9513
雙修	-10.9515
吕祖	-10.9516
何等	-10.952
之始也	-10.9523
解結	-10.9524
後聖	-10.9526
苦行	-10.9526
亦不知	-10.9526
0001_	-10.9536
靈章	-10.9536
海水	-10.9537
芹	-10.9537
饌	-10.954
千二百	-10.9542
迪	-10.9542
妙哉	-10.9542
蠧	-10.9543
蹄	-10.9543
孚佑上帝	-10.9543
貎	-10.9543
善緣	-10.9544
捫	-10.9545
軫	-10.9546
霓	-10.9547
觔	-10.9548
證聖	-10.9548
章第六	-10.9549
椿	-10.955
文明	-10.9551
朋友	-10.9551
範圍	-10.9555
廿	-10.9556
層層	-10.9557
用九	-10.9559
滋味	-10.9563
王公	-10.9564
淸涼	-10.9566
河沙	-10.957
溺於	-10.9571
依科	-10.9574
厯厯	-10.958
箇箇	-10.9585
太上曰	-10.9586
樓臺	-10.9587
大還丹	-10.9589
總領	-10.9592
疑惑	-10.9595
不欺	-10.9598
乘雲	-10.9601
堂堂	-10.9608
巽風	-10.9608
庶使	-10.9609
天恩	-10.9611
了道	-10.9613
爲五十過	-10.9614
在何處	-10.9616
聽命	-10.9618
坤元	-10.9626
復何	-10.9628
下文	-10.9628
是先天	-10.9629
達士	-10.9632
方丈	-10.9632
建興	-10.9632
萬遍	-10.9635
旣成	-10.9638
青龍	-10.964
温温	-10.9643
大慧	-10.9643
胎仙	-10.9644
用力	-10.965
愚者	-10.965
存養	-10.9651
二十年	-10.9652
不虧	-10.9652
始成	-10.9658
一條	-10.9658
伏聞	-10.9659
世事	-10.9663
利用	-10.9664
星星君	-10.9666
圓覺	-10.9667
情性	-10.9678
不可名	-10.9679
靑天	-10.9684
各具	-10.9685
赤書	-10.9685
如今	-10.9687
了命	-10.9688
神威	-10.9688
止止	-10.9694
上篇	-10.9711
目前	-10.9712
夜半	-10.9719
所及	-10.9731
聖慈	-10.9735
夬	-10.9735
0001-02_	-10.9736
狄	-10.9737
寃	-10.9739
𢌿	-10.9742
曁	-10.9743
悶	-10.9746
楹	-10.9746
甚麽	-10.9746
聆	-10.9746
蹊	-10.9747
羸	-10.9747
梨	-10.9747
緬維	-10.9747
俗人	-10.9747
慎	-10.9747
尖	-10.9747
子母	-10.9748
潄	-10.9748
貳	-10.9749
稔	-10.9749
搬運	-10.975
不干	-10.975
孺	-10.975
一次爲一功	-10.975
娘	-10.9751
槐	-10.9752
誠能	-10.9753
火符	-10.9753
厨	-10.9754
昻	-10.9754
槎	-10.9755
晃	-10.9756
百萬	-10.9757
死亡	-10.9761
塑	-10.9762
枚	-10.9762
兩忘	-10.9763
内丹	-10.9764
硯	-10.9768
丹陽	-10.9771
虛實	-10.9771
何哉	-10.9775
統御	-10.9782
仙宗	-10.9794
亘古	-10.9805
莫知	-10.9806
衣服	-10.9811
淺深	-10.9813
九載	-10.9819
雲路	-10.9823
仲達	-10.983
忠義	-10.9834
者以其	-10.9839
未幾	-10.9839
覺世	-10.9841
列仙	-10.9856
昔人	-10.9865
以此爲	-10.9868
建立	-10.9868
化形	-10.9869
安鎭	-10.9871
改過	-10.9872
含眞	-10.9876
致虛	-10.9879
卽使	-10.9881
具位	-10.9887
二五	-10.9888
紅光	-10.9889
不墮	-10.989
分野	-10.989
誠意	-10.9899
帝君曰	-10.9899
未及	-10.9901
關頭	-10.9902
初六	-10.9902
開悟	-10.9903
煉藥	-10.9906
作善	-10.9907
演教	-10.9908
舉世	-10.9909
屬陽	-10.9909
應時	-10.991
國王	-10.9911
老聃	-10.9912
一端	-10.9915
應感	-10.9915
君有曰	-10.9917
天真	-10.9921
此節	-10.9924
金門	-10.993
百步	-10.9931
我我	-10.994
縳	-10.9942
勅命	-10.9942
_	-10.9943
摶	-10.9945
與道合眞	-10.9945
雉	-10.9946
滙	-10.9947
糾察	-10.9947
諾	-10.9948
三乘	-10.9948
槁	-10.9948
逈	-10.9949
椽	-10.995
朿	-10.995
椎	-10.9951
貪狼	-10.9952
㩦	-10.9952
劈	-10.9952
梗	-10.9952
鷗	-10.9953
渝	-10.9954
綦	-10.9955
臆	-10.9955
浙	-10.9955
纖	-10.9955
藹	-10.9956
虎狼	-10.9956
淘	-10.9957
稻	-10.9958
掃蕩	-10.9958
十餘里	-10.9959
章第七	-10.9959
嘉靖	-10.996
化作	-10.9961
康熙	-10.9961
湧泉	-10.9962
事理	-10.9963
氣足	-10.9969
個個	-10.9969
之資	-10.9976
襄陽	-10.9978
萬二千	-10.998
祖父	-10.9981
深入	-10.9982
化現	-10.9988
超然	-10.9998
依舊	-11
周易	-11.0007
何敢	-11.0008
無愧	-11.0011
好惡	-11.0016
全憑	-11.0021
雲霄	-11.0022
妙相	-11.003
賢人	-11.0031
曰昔	-11.0032
書云	-11.0033
八難	-11.0035
大慈尊	-11.0035
五賊	-11.0044
必不能	-11.0048
元吉	-11.0049
妄言	-11.0051
登山	-11.0057
指出	-11.0063
子輩	-11.0067
斯言	-11.0074
口誦	-11.0074
所存	-11.0076
許由	-11.0077
雲篆	-11.0078
慈父	-11.0083
常定	-11.0088
一夕	-11.0089
臣等	-11.0093
洞府	-11.0098
忘情	-11.0098
萬福	-11.01
本然	-11.0107
妙處	-11.0108
華山	-11.0115
超生	-11.0116
著天尊大悲	-11.0126
心猿	-11.0136
陽極	-11.0138
母元君	-11.0138
大神通	-11.0139
相依	-11.014
淸微	-11.0144
乾體	-11.015
贖	-11.0151
輻	-11.0152
回光	-11.0153
歉	-11.0154
在其中矣	-11.0154
驂	-11.0154
寂寞	-11.0154
擎	-11.0155
功高	-11.0156
什	-11.0156
梟	-11.0156
滓	-11.0157
璣	-11.0157
渣滓	-11.0158
又五日	-11.016
豹	-11.0161
峒	-11.0162
挹	-11.0162
矧	-11.0163
纓	-11.0164
芙蓉	-11.0164
燎	-11.0165
掣	-11.0165
急急如律令	-11.0166
黑鉛	-11.0166
廵	-11.0166
箱	-11.0166
隕	-11.0166
掉	-11.0166
繇	-11.0167
蓼	-11.0167
區區	-11.0167
荀	-11.0168
擬議	-11.0169
構	-11.0169
姚	-11.0169
欲使	-11.0171
端倪	-11.0173
沔	-11.0173
福夀	-11.0174
旣知	-11.0174
無量度人	-11.0175
䑓	-11.0176
袪	-11.0176
豫章	-11.0177
永安	-11.0177
空寂	-11.0177
十極	-11.018
放光	-11.0183
陛下	-11.0184
金銀	-11.0185
御史	-11.0185
艱難	-11.0187
寶誥	-11.0189
五祖	-11.0192
褘	-11.0195
丹家	-11.0198
方外	-11.02
猶在	-11.0202
⬤⬤	-11.021
色身	-11.021
北辰	-11.0213
吾家	-11.0213
誠敬	-11.0215
下流	-11.0221
逸士	-11.0221
重樓	-11.0222
黃河	-11.0225
澄淸	-11.0228
淸醮	-11.0239
有形之	-11.024
之爲物	-11.0243
落落	-11.0248
上朝	-11.0248
天地之氣	-11.0249
丹頭	-11.0249
便當	-11.0252
此段	-11.0255
水源	-11.0261
意馬	-11.0265
小國	-11.0265
南宗	-11.0267
此篇	-11.0273
事物	-11.0275
紫炁	-11.028
之事也	-11.0281
周行	-11.0287
玉爐	-11.0291
萬丈	-11.0296
安甯	-11.0298
道術	-11.0312
獲福	-11.0313
所願	-11.0316
秋月	-11.0321
承天	-11.033
起手	-11.0335
周子	-11.0335
稍有	-11.0337
洪恩	-11.0339
生尅	-11.034
難遇	-11.0344
不退	-11.0352
善哉	-11.0354
志心朝禮	-11.0357
心腎	-11.036
皇穹	-11.0362
碩	-11.0363
進道	-11.0363
嬉	-11.0363
扣	-11.0366
怛	-11.0366
仁義禮智	-11.0368
玉淸聖境	-11.0369
琉璃	-11.0369
黍珠	-11.0369
老子曰	-11.0369
不生不滅	-11.037
嗜慾	-11.0371
藐	-11.0372
聖境	-11.0372
滄海	-11.0372
謟	-11.0373
虎豹	-11.0373
寔	-11.0373
繹	-11.0373
𥸤	-11.0374
訴	-11.0374
規模	-11.0374
磯	-11.0375
隷	-11.0375
鞏	-11.0377
跨鶴	-11.0377
掀	-11.0377
■	-11.0377
圜	-11.0378
繳	-11.0379
錮	-11.0379
瀉	-11.038
蠶	-11.0381
耆	-11.0381
持是經人	-11.0383
鍊神	-11.0383
神馭	-11.0385
御政	-11.0385
杉	-11.0386
煙霞	-11.0389
永樂	-11.0391
迷津	-11.0392
不驕	-11.0396
不離乎	-11.0397
現出	-11.04
氣和	-11.0401
夙夜	-11.0402
頓首	-11.0405
寶籙	-11.0406
臥龍	-11.0406
濛	-11.0407
採戰	-11.0412
塵沙	-11.0417
陰德	-11.0419
陽春	-11.0425
本源	-11.0425
又將	-11.0425
丹基	-11.0427
長短	-11.0428
珍重	-11.0433
靈魂	-11.044
總在	-11.0441
原本	-11.0441
靈機	-11.0442
無虧	-11.0452
碧玉	-11.0453
造作	-11.0454
與人同	-11.0463
無所用	-11.0468
紫極	-11.0471
禮斗	-11.0472
雲霧	-11.0473
七八	-11.0474
微微	-11.0475
應聲	-11.0482
長史	-11.0483
同聲	-11.0483
龍吟	-11.0488
雷電	-11.0489
舍利	-11.0495
音余	-11.0497
大悲大願	-11.0499
名號	-11.0503
源頭	-11.0503
處世	-11.0509
陰魄	-11.051
先天炁	-11.0511
命根	-11.0512
之一字	-11.0519
鶴林	-11.0519
帝德	-11.0523
三素	-11.0523
之用也	-11.0531
塲	-11.0531
竺	-11.0533
聖智	-11.0533
昏迷	-11.0538
也上六	-11.0539
天尊大悲恩	-11.054
慧劍	-11.0542
西湖	-11.0543
寰	-11.0551
了然	-11.0554
道之人	-11.0556
知音	-11.0571
上詣	-11.0572
令我	-11.0575
塜	-11.0578
紊	-11.0579
愍	-11.0583
紐	-11.0583
翩翩	-11.0584
狎	-11.0584
香花	-11.0584
槩	-11.0584
縫	-11.0584
覊	-11.0589
隄防	-11.0589
褐	-11.0589
物命	-11.0589
蔬	-11.059
葵	-11.0591
鏘	-11.0591
水火旣濟	-11.0591
售	-11.0591
可畏	-11.0592
純粹	-11.0592
華嚴經	-11.0594
悚	-11.0594
栽培	-11.0594
妖氛	-11.0595
陶鑄	-11.0595
可使之	-11.0597
懶	-11.0599
充塞	-11.0599
赦宥	-11.0599
綏	-11.06
鵠	-11.0602
鎮	-11.0603
貪嗔	-11.0604
最靈	-11.0607
萬國	-11.0608
斗中	-11.0617
包羅	-11.0618
乾坤坎離	-11.0619
百脈	-11.0619
細細	-11.0623
亭亭	-11.0624
猶存	-11.0625
入口	-11.0628
特賜	-11.0632
世之人	-11.0643
飄然	-11.0644
仙仗	-11.065
三魂	-11.0654
修真	-11.0658
文尼	-11.0661
少女	-11.0662
太清	-11.0667
邪淫	-11.067
流轉	-11.0673
節度	-11.0685
請命	-11.0689
勤行	-11.0691
任他	-11.0693
因果	-11.0697
顯化	-11.0698
起居	-11.0701
滿足	-11.0707
又恐	-11.0716
氣穴	-11.0727
氣質	-11.0729
數語	-11.0732
不懼	-11.0739
諷誦	-11.074
天涯	-11.0745
本願	-11.0746
正理	-11.075
作惡	-11.0755
不察	-11.0761
陰陽五行	-11.0768
萬方	-11.0769
寶鼎	-11.0774
謹奏	-11.0775
立壇	-11.0777
魏公	-11.0785
來臨	-11.0787
陰符經	-11.0788
海内	-11.0789
報德	-11.0789
百世	-11.0795
拔出	-11.0796
滛	-11.0798
一呼一吸	-11.0802
恁	-11.0803
匣	-11.0803
摸	-11.0804
恍恍惚惚	-11.0804
飈	-11.0807
澆	-11.0807
蛙	-11.0809
〓〓	-11.0809
踴躍	-11.0809
混然子曰	-11.0809
咫尺	-11.0811
盜跖	-11.0811
撇	-11.0811
勻	-11.0812
初學	-11.0812
傳授	-11.0812
岫	-11.0812
宣王	-11.0813
兢	-11.0813
徐徐	-11.0813
誼	-11.0813
菓	-11.0813
遂致	-11.0814
煌煌	-11.0814
撲	-11.0815
杭	-11.0815
蒲團	-11.0815
浣	-11.0815
冐	-11.0817
碌碌	-11.0817
妬	-11.0817
帳	-11.0817
禧	-11.0817
森羅	-11.0818
燼	-11.0819
誠惶誠恐稽首頓首	-11.0819
歩	-11.0821
咸令照應	-11.0823
石門	-11.0823
栗	-11.0824
皇后	-11.0825
獅子	-11.083
淫慾	-11.0834
城郭	-11.0838
主司	-11.084
左手	-11.0842
救苦天尊	-11.0844
海蟾	-11.0846
密密	-11.0852
玉文	-11.0863
一如誥命天運年月日告下	-11.0868
勅令	-11.0869
三華	-11.0873
洞房	-11.0874
善根	-11.0875
隆中	-11.0877
冥心	-11.0886
咒曰	-11.0892
羣魔	-11.0892
普化	-11.0926
煉己	-11.0929
度人無量	-11.0929
生育	-11.093
石壁	-11.0934
則不然	-11.0949
威德	-11.095
紫虛	-11.0955
度數	-11.0958
君親	-11.0963
罪過	-11.0966
儒家	-11.0974
夜月	-11.0986
未判	-11.0993
九華	-11.0994
本末	-11.0995
春色	-11.0996
有箇	-11.0997
至心朝禮	-11.1003
光景	-11.1006
之本也	-11.1006
聲聞	-11.1008
妙寶神功顯號應化天尊偈曰	-11.1009
女丹	-11.101
可知矣	-11.1011
誥志心皈命禮	-11.1013
欺人	-11.1015
詩書	-11.1022
又問曰	-11.1022
龍漢	-11.1024
形質	-11.1025
哩	-11.1026
道本無	-11.1029
天下之至	-11.1029
閫	-11.1035
抒	-11.1038
紳	-11.1039
泗	-11.1041
閬苑	-11.1041
老翁	-11.1042
虛極靜篤	-11.1042
右洎	-11.1042
喘	-11.1043
鐺	-11.1044
哺	-11.1044
鞅	-11.1044
屈伸	-11.1044
斵	-11.1045
摹	-11.1046
汁	-11.1046
複	-11.1046
旡咎象曰	-11.1046
徳	-11.1047
擾擾	-11.1048
峨	-11.1049
耽	-11.1051
夏至	-11.1052
蒼蒼	-11.1053
三界十方	-11.1058
相連	-11.1059
侍衞	-11.1059
包含	-11.1061
祈禱	-11.1061
百拜	-11.1063
八節	-11.1063
紫霞	-11.1064
煉氣	-11.1067
統領	-11.1068
四十九	-11.1068
瞻仰	-11.1071
玉蟾	-11.1071
須彌	-11.1073
受福	-11.1073
經絡	-11.1074
遵行	-11.1075
與天地同	-11.1079
嘆曰	-11.1083
囘頭	-11.1085
瓊臺	-11.1085
羅列	-11.1103
充足	-11.1104
降臨	-11.1104
今朝	-11.1105
五千言	-11.1108
七魄	-11.111
小兒	-11.1111
迄今	-11.1112
始靑	-11.1114
勤修	-11.1129
在身中	-11.1133
元帥飛天	-11.1135
三軍	-11.114
淸微天	-11.114
俗子	-11.1144
誦此經	-11.1146
談道	-11.1152
天尊大悲弘	-11.1155
倘有	-11.1156
切不可	-11.1156
也若夫	-11.1173
儉者	-11.1175
臨爐	-11.1176
也然則	-11.1177
在目前	-11.1178
資始	-11.1181
萬厯	-11.1185
子房	-11.1189
刑德	-11.1191
紫淸	-11.1192
實切	-11.1206
七年	-11.1214
禮義	-11.1228
二十三	-11.1229
規中	-11.1233
臨壇	-11.1246
修士	-11.1251
爲二十過	-11.1257
玉字	-11.126
棘	-11.126
無根樹花正	-11.1262
-	-11.1262
咄	-11.1264
嵓	-11.1265
彊	-11.1265
兑	-11.1267
用之則	-11.1267
饈	-11.1268
釐	-11.1268
筋骨	-11.1269
翦	-11.127
元始符命	-11.127
沼	-11.127
鏗	-11.1273
爲二過	-11.1274
款	-11.1274
有道之士	-11.1275
毫釐	-11.1275
𥪡	-11.1275
肢體	-11.1276
絢	-11.1276
炷	-11.1276
劇	-11.1276
幡	-11.1276
洞洞	-11.1277
妥	-11.1278
猴	-11.128
栖	-11.1281
換骨	-11.1281
蕪	-11.1281
帖	-11.1283
爵祿	-11.1284
十方三界	-11.1288
保全	-11.1288
雛	-11.1288
引証	-11.1289
滇	-11.1291
祈福	-11.1292
厯代	-11.1294
桃源	-11.1298
書院	-11.13
祁山	-11.1303
試看	-11.1309
洞徹	-11.1311
念佛	-11.1314
洪慈	-11.1314
防危	-11.1319
武侯祠	-11.132
哉夫	-11.1321
未濟	-11.1324
也上九	-11.1324
終身不	-11.1325
玉晨	-11.1326
維持	-11.1326
羽士	-11.1329
選仙	-11.133
著書	-11.133
不停	-11.1332
開壇	-11.1332
䝉恩	-11.1333
獨立	-11.1334
私欲	-11.1337
翠微	-11.1339
羣迷	-11.134
七政	-11.1344
飄飄	-11.1347
法旨	-11.1351
祀典	-11.1362
豈容	-11.1371
漢室	-11.1372
救世	-11.1382
漸長	-11.1396
深藏	-11.1396
自矜	-11.1402
之有也	-11.1402
第十五	-11.1405
氣聚	-11.1407
十五里	-11.1421
科事	-11.1426
日新	-11.1447
請問	-11.1463
財物	-11.1469
汝當	-11.1474
十華	-11.1483
遷善	-11.1483
肅淸	-11.1486
嘲	-11.1492
長生觀	-11.1493
將吏	-11.1493
輅	-11.1497
說到	-11.1497
太上虛皇三寶十方三界萬靈保	-11.1499
餒	-11.1501
楮	-11.1503
4	-11.1504
嚼	-11.1504
疫癘	-11.1505
剔	-11.1505
巻	-11.1508
從治得道神君	-11.1508
霏	-11.1509
埀	-11.1509
堵	-11.1509
葫蘆	-11.1509
五十過	-11.151
棗	-11.151
迥	-11.151
楓	-11.1511
邉	-11.1511
繫辭	-11.1512
離宫	-11.1512
毘	-11.1512
洗滌	-11.1512
妙果	-11.1513
賑	-11.1514
鑠	-11.1514
驢	-11.1514
六腑	-11.1514
拍	-11.1514
忽見	-11.1515
餅	-11.1515
瑣	-11.1515
穹蒼	-11.1515
孔孟	-11.1516
紋	-11.1516
樞紐	-11.1516
須至牒者	-11.1517
盤旋	-11.1517
巵	-11.1518
熏	-11.1519
朱砂	-11.1521
於其間	-11.1522
太上老君	-11.1522
總要	-11.1523
瀑布	-11.1524
綱維	-11.1525
百福	-11.1525
混融	-11.1528
丞相亮	-11.1531
十餘年	-11.1533
司馬懿	-11.1533
保舉	-11.1533
之所能	-11.1537
情識	-11.1537
太始	-11.1543
偶然	-11.1544
總歸	-11.155
寺僧	-11.1556
窮通	-11.1557
第十六	-11.1557
妙境	-11.156
神祇	-11.1562
所致	-11.1565
江陵	-11.1565
必待	-11.1566
閉目	-11.1567
啟請	-11.1569
聖慈允	-11.1576
直符	-11.1577
尙存	-11.1578
凝聚	-11.158
洞淵	-11.1582
冥司	-11.1587
欣然	-11.159
片時	-11.1591
在人身	-11.1595
轉移	-11.1605
乾乾	-11.1612
吏兵	-11.1612
無奈	-11.1613
昏昏	-11.1616
山澤	-11.1618
嗣教	-11.1618
大梵	-11.1627
黑白	-11.1633
渾合	-11.1642
七曲	-11.1653
號令	-11.1653
發露	-11.1656
手執	-11.1657
雷聲	-11.1658
福果	-11.1664
寶座	-11.1665
家庭	-11.1672
妄作	-11.1678
萬變	-11.1679
箇中	-11.1687
治病	-11.1687
切莫	-11.1688
不可不知	-11.1694
亦不得	-11.1705
今年	-11.1706
三十里	-11.171
出陽神	-11.1716
愚夫	-11.1718
相濟	-11.1731
膀胱	-11.1735
章第四十	-11.1743
b	-11.1745
鐸	-11.1745
酆	-11.1746
旻	-11.1747
棒	-11.1748
瘟疫	-11.1748
嶠	-11.1748
渾沌	-11.1749
潺	-11.1749
釡	-11.1749
鳳凰	-11.1749
鉤	-11.1749
浩蕩	-11.175
伎	-11.1751
明心見性	-11.1752
𡽪	-11.1752
龕	-11.1752
煉神還虛	-11.1753
漾	-11.1753
埃	-11.1754
況	-11.1755
一點靈光	-11.1755
迸	-11.1755
生生之	-11.1755
馨香	-11.1756
笥	-11.1756
聿	-11.1757
凄	-11.1757
粘	-11.1758
悔吝	-11.1758
儘	-11.1759
勾陳	-11.176
溶	-11.176
變而爲	-11.176
寶筏	-11.1761
个	-11.1762
旌旗	-11.1763
黔	-11.1763
勇猛	-11.1764
湫	-11.1764
禮謝	-11.1764
牌	-11.1765
麾	-11.1765
慄	-11.1766
洛書	-11.1767
祭祀	-11.1768
紫房	-11.177
津液	-11.1771
闗	-11.1771
急急如	-11.1777
都督	-11.1779
先覺	-11.1784
恐懼	-11.1789
靑帝	-11.1791
死灰	-11.1796
太祖	-11.18
維新	-11.1805
梵天	-11.1806
洞賓	-11.1808
合爲一	-11.1809
獲罪	-11.181
惜乎	-11.181
參禪	-11.1812
盈滿	-11.1822
詳言	-11.1835
動植	-11.1837
各得其	-11.1844
柔順	-11.1855
師友	-11.1862
秋風	-11.1862
豈惟	-11.1867
三災	-11.1869
有志者	-11.1895
安得不	-11.1913
玉池	-11.1927
聲音	-11.193
無一物	-11.1931
修崇	-11.1936
預修	-11.1941
養胎	-11.1953
卦爻	-11.1963
杳杳	-11.1966
惡報	-11.1969
慶雲	-11.1972
下丹田	-11.1974
罪福	-11.198
真君	-11.198
腑	-11.1986
緬	-11.1992
太上靈寶	-11.1993
寵辱	-11.1993
色色	-11.1994
1	-11.1995
螺	-11.1997
梢	-11.1997
珮	-11.1998
陌	-11.1999
䙝	-11.1999
駒	-11.2
螻蟻	-11.2001
裨	-11.2001
蔚	-11.2002
杳杳冥冥	-11.2002
冊	-11.2002
王天君曰	-11.2002
緖	-11.2002
凑	-11.2003
玷	-11.2003
活子時	-11.2004
瞬	-11.2004
鐵圍	-11.2005
睛	-11.2005
壬癸	-11.2006
無聲無臭	-11.2006
蹶	-11.2007
元亨利貞	-11.2007
不免於	-11.2008
侍郎	-11.2008
之業願解	-11.2008
凟	-11.2009
稿	-11.201
跂	-11.201
斡旋	-11.2011
掌握	-11.2011
冑	-11.2011
寳	-11.2011
哀憫	-11.2011
抉	-11.2012
桀	-11.2013
妒	-11.2014
禋	-11.2015
諸眾生	-11.2016
棹	-11.2016
右牒上	-11.2017
鬻	-11.2017
殊途	-11.2018
諸葛孔明	-11.2019
鳥獸	-11.2019
鼓舞	-11.202
坊	-11.202
三里	-11.202
守雌	-11.2021
四面	-11.2023
昏沉	-11.2024
抱樸	-11.2027
脫離	-11.2034
興隆	-11.2037
龍沙	-11.204
揚州	-11.2042
武昌	-11.2047
獨存	-11.205
良辰	-11.2052
第十四	-11.2053
端的	-11.2053
煉炁	-11.2054
南嶽	-11.2054
食肉	-11.206
羣陰	-11.2063
鼎内	-11.2074
大魔王	-11.2078
儼然	-11.2081
三丰先生	-11.2083
一顆	-11.2089
虛無自然	-11.2092
婆心	-11.2099
不輟	-11.21
再加	-11.21
五倫	-11.2102
訪道	-11.2107
雷府	-11.2109
經籙	-11.2109
因循	-11.2111
沖虛子	-11.2111
曹公	-11.2112
冲虛	-11.2122
四十八	-11.2125
何以知	-11.213
休息	-11.2131
萬殊	-11.2138
有一毫	-11.2139
思量	-11.214
半月	-11.2147
一定之	-11.2148
寶劍	-11.2156
乞恩	-11.2169
弱水	-11.217
王侯	-11.2175
陳情	-11.2188
林泉	-11.2192
未敢	-11.2205
陛	-11.2222
受戒	-11.2234
湥	-11.2239
鷹	-11.2247
稷	-11.2248
▁微念咒曰	-11.2249
2	-11.225
裴	-11.2253
感而遂通	-11.2254
肘	-11.2254
釜	-11.2254
帙	-11.2255
祉	-11.2256
肌	-11.2257
好生之德	-11.2257
抱朴子	-11.2257
汶	-11.2258
夢寐	-11.2259
賭	-11.2259
綿綿若存	-11.226
稽首皈依	-11.226
萬億	-11.226
燧	-11.226
皂	-11.226
霍	-11.226
蘂	-11.2261
窘	-11.2261
蜜	-11.2261
秤	-11.2261
㕓	-11.2262
齎	-11.2262
妻妾	-11.2262
訕	-11.2262
虔	-11.2263
鐵笛	-11.2263
掖	-11.2264
渺	-11.2264
下情無任	-11.2265
雹	-11.2265
餓鬼	-11.2265
據大淸國	-11.2266
閏	-11.2267
洞達	-11.2267
鳶	-11.2268
奄	-11.2269
爲二功	-11.2269
造意者切以	-11.227
梓潼	-11.227
東坡	-11.2272
爇	-11.2272
准提	-11.2273
批	-11.2273
臼	-11.2273
蓬壺	-11.2274
商賈	-11.2274
吐納	-11.2274
塵凡	-11.2274
司額	-11.2275
綱紀	-11.2276
恚	-11.2276
粥	-11.2277
磧	-11.2279
調停	-11.2281
鄕貫	-11.2283
益算	-11.2284
品物	-11.2287
蟠桃	-11.2289
三峯	-11.2292
厚德	-11.2296
莊老	-11.2297
盛衰	-11.2299
太史	-11.2306
憂患	-11.2307
冲舉	-11.2308
曲折	-11.2309
彼岸	-11.2323
皇皇	-11.2342
懷胎	-11.2346
經筵	-11.2349
造就	-11.2358
壬子	-11.2366
完全	-11.2373
賦詩	-11.2373
落花	-11.2378
謹奏爲	-11.238
修行人	-11.238
玄科	-11.2382
夢覺	-11.2387
這些	-11.239
古佛	-11.2392
應干	-11.2407
持戒	-11.2428
相續	-11.2431
若干	-11.2442
所以然者	-11.2443
金碧	-11.2477
二十里	-11.2504
臟	-11.2507
兢兢	-11.2511
7	-11.2511
駟	-11.2511
孑	-11.2512
琪	-11.2514
豚	-11.2514
6	-11.2515
劑	-11.2515
禎	-11.2516
打成一片	-11.2517
寂照	-11.2517
耿	-11.2517
嘛	-11.2517
枷	-11.2518
天一生水	-11.2519
眞陰眞陽	-11.2519
鷺	-11.2522
敞	-11.2522
霆	-11.2522
俠	-11.2523
閙	-11.2523
弻	-11.2523
隳	-11.2525
慈憫	-11.2525
粉碎	-11.2526
鯨	-11.2527
畦	-11.2527
鑰	-11.2527
帷	-11.2527
盞	-11.2529
稅	-11.2529
旦夕	-11.2531
榮辱	-11.2531
撑	-11.2532
搗	-11.2532
爨	-11.2532
熒惑	-11.2532
皆從此	-11.2533
筮	-11.2533
繚繞	-11.2533
叩齒	-11.2533
鼓琴	-11.2533
訾	-11.2535
猛省	-11.2537
晨昏	-11.2537
筍	-11.2539
檄	-11.2542
笋	-11.2544
銀河	-11.2546
麻姑	-11.2546
榜文	-11.2547
蜩	-11.2547
噬	-11.2547
光耀	-11.255
藥材	-11.2554
寨	-11.2555
四隅	-11.2557
靑衣	-11.2567
浮沈	-11.2568
統攝	-11.2568
太乙救苦天尊	-11.2571
河漢	-11.2584
俯伏	-11.2585
集福	-11.2591
與之俱	-11.2598
數十年	-11.2599
倫常	-11.2599
奏請	-11.2601
此三者	-11.2615
顯露	-11.2615
情慾	-11.262
强制	-11.2622
六甲	-11.2623
利器	-11.2626
覺照	-11.2632
綱常	-11.2633
上中下	-11.2636
而後可以	-11.2651
劫數	-11.2662
觀察	-11.2676
談玄	-11.2678
愈遠	-11.2684
斯民	-11.2686
隱士	-11.2687
忽忽	-11.2692
朗然	-11.2699
持齋	-11.2701
玄冥	-11.2713
結就	-11.2722
二十七	-11.2738
地祗	-11.2752
散亂	-11.2754
誥至心皈命禮	-11.2758
曹總案	-11.2759
症	-11.278
常鎭我	-11.2782
▁服符畢叩齒三通微聲朗念謹請	-11.2783
寰中	-11.2786
霎	-11.2787
榛	-11.2788
鞠	-11.2788
迍	-11.2789
無中生有	-11.2789
甄	-11.279
瞑	-11.279
娑婆	-11.279
灼灼	-11.279
牕	-11.2791
槖	-11.2792
殼	-11.2792
杵	-11.2793
舟楫	-11.2793
凛	-11.2793
轡	-11.2793
俺	-11.2794
瓊漿	-11.2795
昆蟲	-11.2795
鰲	-11.2797
韜光	-11.2797
鍳	-11.2799
訥	-11.2799
彥	-11.2799
滅盡定	-11.2799
不得謂之	-11.28
裙	-11.2801
挑	-11.2802
闓	-11.2802
弁	-11.2803
葺	-11.2804
利有攸往	-11.2806
衙	-11.2806
仙姬	-11.2807
殷勤	-11.2807
百𡻕	-11.2811
土府	-11.2811
湯武	-11.2814
退陰符	-11.2815
㳟望	-11.2815
方隅	-11.2833
這般	-11.2834
九壘	-11.2836
操持	-11.2836
燒香	-11.2837
大修行人	-11.2837
甲兵	-11.2843
垂訓	-11.2843
波羅	-11.2848
口舌	-11.2849
春夏	-11.2852
三島	-11.2854
罪咎	-11.2858
苦趣	-11.2863
榮華	-11.2874
然後可以	-11.2877
巨石	-11.2882
怪石	-11.2883
不知其所	-11.2884
六十卦	-11.2891
欲速	-11.2898
雜念	-11.291
罪業	-11.2921
無碍	-11.2923
哀哉	-11.2929
飛揚	-11.2931
神農	-11.2935
水中金	-11.2935
眞誥	-11.2941
相尅	-11.2948
囘光	-11.2949
聚會	-11.295
兒女	-11.2952
各有所	-11.2955
坤母	-11.2957
難免	-11.2963
河源	-11.2967
不妨	-11.2971
是以君子	-11.2972
覺路	-11.2984
顏子	-11.3007
十九年	-11.3013
劫劫	-11.3016
一陽生	-11.3023
題詩	-11.3027
二儀	-11.3034
周天火候	-11.3035
偃月	-11.3038
乾父	-11.3039
皇極	-11.304
靜默	-11.305
瘵案主者都府管	-11.3057
弟子某等	-11.3057
寥廓	-11.3058
瘳	-11.3058
0052-04_	-11.3059
0052	-11.3059
等至心皈命禮願稽首讚揚	-11.306
翟	-11.3061
3	-11.3062
遡	-11.3063
入藥鏡	-11.3063
札	-11.3063
鳬	-11.3065
筠	-11.3065
肌膚	-11.3065
姻	-11.3066
解所犯	-11.3066
𦊱	-11.3066
預禳	-11.3067
儆	-11.3067
淋	-11.3067
煉精化炁	-11.3069
幃	-11.3069
綜	-11.307
六道四生	-11.307
活潑潑	-11.3071
戢	-11.3072
辛亥	-11.3073
倩	-11.3073
禮誦	-11.3073
屹	-11.3074
歿	-11.3074
腋	-11.3074
葦	-11.3075
東西南北	-11.3075
纂	-11.3076
烝	-11.3076
妓	-11.3077
嶽瀆	-11.3078
蘚	-11.3078
今應投誠一心敬禮一心敬禮	-11.3078
楞嚴經	-11.3078
押	-11.3079
㓂	-11.3079
一心回向九天心印會上	-11.3079
潦	-11.308
嶼	-11.308
曹檢校丹書	-11.3081
玄穹	-11.3082
廣成子	-11.3083
半斤	-11.3083
豫州	-11.3083
譎	-11.3084
煦	-11.3084
謖	-11.3086
里社	-11.3086
拭	-11.3087
滯魄	-11.3087
跛	-11.3087
京師	-11.3089
昭格	-11.3092
劉璋	-11.3096
宣說	-11.3097
口授	-11.3098
丹爐	-11.3102
勅旨	-11.3102
省察	-11.3102
敷陳	-11.3106
樓閣	-11.3106
塵勞	-11.3112
嗜欲	-11.3114
浮邱	-11.3119
累劫	-11.3123
玉籙	-11.3124
災厄	-11.3127
也九三	-11.3128
公卿	-11.3133
堅强	-11.3138
朗念	-11.3157
庚方	-11.3162
此二句	-11.3168
封固	-11.3173
全賴	-11.318
前程	-11.3183
仙階	-11.3186
孟子曰	-11.3195
必有所	-11.3203
武帝	-11.3216
住持	-11.3217
玉簡	-11.3218
念慮	-11.3233
契合	-11.3242
紫陽眞人	-11.3244
鶴駕	-11.3266
啻	-11.3273
不憚	-11.328
華葢	-11.3305
天雷聲普化天尊高上	-11.3325
罪愆	-11.3339
慈諸天眞宰度災濟	-11.3339
致心皈命禮	-11.3345
右符告下	-11.335
正陽帝君曰	-11.335
褻	-11.335
鴛	-11.3351
喃	-11.3353
榭	-11.3353
矛	-11.3353
丙丁	-11.3355
☷	-11.3355
緜	-11.3356
蚊	-11.3356
玲瓏	-11.3356
猪	-11.3356
至眞妙道	-11.3357
娟	-11.3357
松柏	-11.3357
曇	-11.3357
返本還元	-11.3358
軿	-11.3358
碁	-11.3358
洶	-11.3358
廡	-11.3358
趁	-11.3359
干戈	-11.3359
糊	-11.336
萊	-11.336
五臟六腑	-11.3362
湮	-11.3362
蹙	-11.3362
行住坐卧	-11.3362
信禮已周仰對慈尊㳟申懴	-11.3362
河洛	-11.3363
諄諄	-11.3363
罅	-11.3364
店	-11.3364
奬	-11.3365
曹檢校黒簿	-11.3365
槁木	-11.3365
慵	-11.3365
曹檢校青編	-11.3366
醍	-11.3367
幪	-11.3367
懴禱已陳㳟申諷詠稽首皈依	-11.3369
撞	-11.3371
閉塞	-11.3372
里域	-11.3374
康甯	-11.3377
也六五	-11.3385
透徹	-11.3385
寅具	-11.3394
後跋	-11.3396
困苦	-11.3398
萬般	-11.34
參透	-11.3407
平康	-11.3412
安排	-11.3421
六慾	-11.3422
操存	-11.3425
水旱	-11.3428
諸葛公	-11.3428
難逃	-11.343
四季	-11.3436
秘旨	-11.3437
參軍	-11.344
賢愚	-11.3441
玉局	-11.3442
十二時中	-11.3444
宏教	-11.3448
交泰	-11.345
關羽	-11.3457
聚散	-11.3468
翠虛	-11.3472
帝勅	-11.3474
叩拜至心朝禮	-11.3479
異端	-11.3492
縱使	-11.3501
等閒	-11.3513
不懈	-11.3529
火熾	-11.3532
輟	-11.3534
孝友	-11.3588
戒律	-11.362
交接	-11.3626
弘萬福乃弘帝福護羣身如護已身處處	-11.3627
一如玄科律令	-11.3637
玄天上帝	-11.3642
烱	-11.3643
螢	-11.3644
形神俱妙與道合眞	-11.3645
頡	-11.3645
裊	-11.3646
上淸眞境	-11.3646
紗	-11.3646
睨	-11.3647
漠漠	-11.3648
擺	-11.3648
鄒	-11.3649
三萬六千	-11.3649
卉	-11.365
琅函	-11.365
鑊	-11.365
飢寒	-11.365
駁	-11.3651
厓	-11.3651
磚	-11.3651
棋	-11.3652
烜	-11.3652
憊	-11.3652
勿忘勿助	-11.3652
撒手	-11.3653
心息相依	-11.3654
垠	-11.3655
也九五	-11.3656
愉	-11.3656
錦繡	-11.3656
溷	-11.3656
蠟	-11.3657
懋	-11.3657
唵字	-11.3658
瘵	-11.3658
甸	-11.3658
磊	-11.3659
曹檢校玉冊	-11.3659
燮	-11.366
冩	-11.366
屨	-11.3661
閽	-11.3662
否答曰	-11.3662
軰	-11.3662
夔	-11.3663
也九二	-11.3663
饕	-11.3665
冒干	-11.3666
飭	-11.3666
脾胃	-11.3668
聯句	-11.3669
請詳前事	-11.3669
鴟	-11.367
堰	-11.3671
曩謨	-11.3671
是日叩干	-11.3674
俯賜	-11.3674
丹悃	-11.3676
蕋	-11.3676
闡揚	-11.368
影響	-11.368
導引	-11.3681
二仙菴	-11.3683
强梁	-11.3687
老聃曰	-11.3689
玉枕	-11.369
悔亡	-11.3692
左將軍	-11.3697
一點眞陽	-11.3699
謹據	-11.3699
遺跡	-11.3703
水晶	-11.3705
設醮	-11.3705
洪造	-11.3711
遇眞師	-11.3716
吉慶	-11.3719
囘首	-11.3721
鶴鳴	-11.3727
天竺	-11.3728
人之一身	-11.3737
雷部	-11.3737
道塲	-11.3737
火鈴	-11.3743
昭著	-11.3751
疾苦	-11.3752
百千萬	-11.3754
御女	-11.376
祖竅	-11.376
思維	-11.3764
遵奉	-11.3765
登第	-11.3767
濟濟	-11.3774
役使	-11.38
天下後世	-11.3808
對待	-11.3819
秋冬	-11.3858
河伯	-11.3872
在此矣	-11.3901
沖虛	-11.391
方是眞	-11.3912
𥈠	-11.3926
䜟	-11.3941
視之不見聽之不聞包羅天地養育羣生	-11.3943
生天生地	-11.3943
役使雷霆鬼妖喪膽精怪亡形	-11.3944
無上混元宗壇恭准道旨請頒	-11.3944
衞五帝司迎萬神朝禮	-11.3944
耦	-11.3945
竦	-11.3945
淨心神咒太上台星應變無停驅邪	-11.3945
淨口神咒丹朱口神吐穢除氛	-11.3946
衮	-11.3947
彚	-11.3947
剋	-11.3948
搯	-11.395
貝	-11.395
扃	-11.395
覲	-11.395
陶鎔	-11.395
錯綜	-11.395
呑	-11.3951
汀	-11.3952
土釜	-11.3953
惺	-11.3953
瘁	-11.3954
讚嘆	-11.3954
瞬息	-11.3954
蠡	-11.3954
黯	-11.3954
蚤	-11.3954
覯	-11.3956
千變萬化	-11.3957
暄	-11.3957
許旌陽	-11.3957
姊	-11.3958
大千世界	-11.3958
法信凡儀	-11.3958
羲皇	-11.3958
穆穆	-11.3959
領袖	-11.3959
抄	-11.396
狙	-11.396
叚	-11.396
沈淪	-11.3961
犢	-11.3961
訝	-11.3962
眚	-11.3963
薦亡人	-11.3963
絳宮	-11.3964
陪	-11.3965
棧	-11.3966
粱	-11.3968
合屬去處	-11.3969
羹	-11.397
錯認	-11.3972
急急	-11.3975
也六三	-11.3978
進陽火	-11.3982
武當山	-11.3982
歌舞	-11.3984
鑒察	-11.3989
呼吸之氣	-11.3991
莊周	-11.3992
酒肉	-11.3993
何妨	-11.3998
俯垂	-11.3998
仰叩	-11.3999
慾海	-11.4
支離	-11.4003
西域	-11.4005
愛惜	-11.4007
俯首	-11.4008
偃月爐	-11.4015
對越	-11.4021
廓然	-11.4026
主簿	-11.4027
草堂	-11.403
經緯	-11.4036
勤苦	-11.4042
了生死	-11.4043
福祿	-11.4045
朝謁	-11.4045
國祚	-11.4052
等倫	-11.4069
眞種子	-11.4106
邱祖	-11.4108
些兒	-11.4109
十一月	-11.4196
綿延	-11.4229
回春子曰	-11.424
黃籙大齋	-11.425
刧萬眞無量福護天尊萬福寶誥	-11.425
羨	-11.4254
太淸仙境	-11.4255
挐	-11.4256
魂永久魄無喪傾	-11.4256
昴	-11.4256
嬰孩	-11.4257
窈	-11.4258
楷	-11.4258
玄虛晃朗太	-11.4258
八萬四千	-11.4259
侔	-11.426
迤	-11.426
眞鉛眞汞	-11.4261
☵	-11.4261
搬	-11.4261
肫	-11.4261
詆	-11.4261
谷神不死	-11.4262
牡	-11.4262
鵝	-11.4264
靠	-11.4264
竄	-11.4264
閤	-11.4264
版	-11.4264
烏兔	-11.4265
狡	-11.4265
窪	-11.4265
懵	-11.4265
鐫	-11.4266
梧桐	-11.4266
慝	-11.4266
☰	-11.4267
兕	-11.4268
睢	-11.4268
綬	-11.4269
剩	-11.4269
袂	-11.427
金木水火土	-11.427
炎炎	-11.4271
蹉	-11.4272
拔度亡過	-11.4272
牟	-11.4272
眞一之炁	-11.4273
倏	-11.4274
乂	-11.4274
勛	-11.4274
大洞仙經	-11.4274
朔旦	-11.4275
蛾	-11.4276
糟	-11.4276
粤	-11.4276
沃	-11.4277
篋	-11.428
庚辛	-11.4281
蝦	-11.4281
曼	-11.4281
片片	-11.4282
豔	-11.4283
絲毫	-11.4283
請詳事理	-11.4284
災殃	-11.4284
塵氛	-11.4284
潤澤	-11.4285
楊柳	-11.4286
激切	-11.4288
拔宅	-11.4288
千仞	-11.4288
兒孫	-11.4289
譙	-11.4289
丹衷	-11.4294
習染	-11.4294
呈進	-11.4307
消愆	-11.4307
沾恩	-11.4309
潛消	-11.4312
貧富	-11.4313
斬斷	-11.4314
假借	-11.4316
顯神通	-11.4316
茫然	-11.4321
昭垂	-11.4323
不識不知	-11.4323
顏色	-11.4331
參究	-11.4334
禁止	-11.434
威武	-11.4341
徒勞	-11.4342
斷障	-11.4344
慨然	-11.4345
列宿	-11.4348
變幻	-11.4352
奉行便宜科事	-11.4354
恍然	-11.4373
擁護	-11.4379
普救	-11.4454
鸞鶴	-11.4461
邵子	-11.45
絕頂	-11.4528
螭	-11.4571
千五百	-11.4571
天尊大悲神霄運度	-11.4576
携	-11.4576
惚	-11.4577
瞳	-11.4577
煉炁化神	-11.4577
上昇頂上再微聲咒曰	-11.4578
噪	-11.4579
筌蹄	-11.4579
煅	-11.458
大洞玉經	-11.458
詛	-11.4581
爕	-11.4581
瀛洲	-11.4582
元八方威神使我自然靈寶符命普	-11.4583
荆棘	-11.4584
捍	-11.4584
諍	-11.4584
墉	-11.4585
蘊	-11.4585
菲	-11.4586
悍	-11.4586
煆	-11.4586
一陽來復	-11.4586
旃	-11.4586
咦	-11.4587
砥	-11.4587
三百八十四	-11.4587
企	-11.4587
徇	-11.4588
徂	-11.4589
賫	-11.4589
騁	-11.459
姪	-11.459
裹	-11.459
揉	-11.459
懦	-11.4591
涎	-11.4592
掬	-11.4593
刑罰	-11.4593
掇	-11.4593
袋	-11.4594
信受奉行	-11.4594
諺	-11.4594
日良吉	-11.4595
諛	-11.4595
猛獸	-11.4595
須至具疏申聞者右疏具申	-11.4596
俸	-11.4596
徽	-11.4596
驥	-11.4597
瑶池	-11.4597
瞿	-11.4597
騰騰	-11.4598
慙	-11.4598
侍宸	-11.4598
煆煉	-11.4599
倐忽	-11.4599
鬢	-11.46
雞犬	-11.4601
淳	-11.4601
桑田	-11.4602
端拱	-11.4602
剎	-11.4602
盈虧	-11.4603
躬耕	-11.4604
攴天	-11.4605
解𡨚	-11.4605
也六二	-11.4607
奔走	-11.4608
霜雪	-11.4609
凶象曰	-11.4609
虜	-11.461
玉匱	-11.461
最上乘	-11.4611
匹夫	-11.4617
祕訣	-11.4617
第十七	-11.4619
辛苦	-11.4621
昨夜	-11.4622
傾危	-11.4622
左旋	-11.4623
震巽	-11.4623
下重樓	-11.4624
百千萬億	-11.4624
蓬頭	-11.4628
無恙	-11.463
官吏	-11.4638
會稽	-11.4642
執着	-11.4644
愼勿	-11.4652
南征	-11.4659
空不空	-11.4664
輕洩	-11.4672
竭力	-11.4737
可不戒	-11.4753
一太極也	-11.4772
無量無邊	-11.4779
元帥晚朝	-11.4839
元帥早朝	-11.4863
文昌帝君	-11.4875
渾渾	-11.4879
星君北斗	-11.4886
病後酬天	-11.4893
奉祀	-11.4897
三元貴司沖惠神應天尊	-11.4906
𤃉	-11.4907
出有入無	-11.4909
髏	-11.491
好生無量天尊	-11.491
度人萬千中山神咒元始玉文持誦一遍	-11.491
神通三界内外惟道獨尊體有金光覆映	-11.491
東岳上卿妙道眞應天尊	-11.4913
承誥奉行祖師	-11.4914
東宫慈父太乙尋聲救苦天尊證盟	-11.4915
篡	-11.4916
禎祥	-11.4916
戯	-11.4917
不忠不孝	-11.4917
一塵不染	-11.4917
沂	-11.4917
攬	-11.4918
上天下地	-11.4918
脅	-11.4918
無極而太極	-11.4919
騷	-11.4919
芟	-11.4919
揜	-11.4919
緇	-11.4919
耳目口鼻	-11.4919
熙熙	-11.4919
馳騁	-11.492
拊	-11.492
澡	-11.492
汲汲	-11.4921
寥寥	-11.4921
盡性至命	-11.4921
行住坐臥	-11.4922
0	-11.4922
句曲上眞沖靜妙應天尊	-11.4922
專氣致柔	-11.4922
匡廓	-11.4924
大師尊	-11.4924
稜	-11.4924
覈	-11.4924
赫奕	-11.4924
灌漑	-11.4925
錙	-11.4925
犧	-11.4925
衾	-11.4925
冕	-11.4925
圯	-11.4926
逍遙自在	-11.4926
蒼穹	-11.4927
蜃	-11.4927
陰隲	-11.4927
禕	-11.4927
攫	-11.4928
邱長春	-11.4929
懇禱	-11.493
寤	-11.493
丙午	-11.493
老嫩	-11.4932
恭望眞慈	-11.4932
㖿	-11.4933
咀	-11.4934
讎	-11.4934
榴	-11.4934
連環	-11.4935
也六四	-11.4937
妙濟無量天尊	-11.4939
合屬眞司	-11.4942
妄註曰	-11.4942
剛健	-11.4944
校尉	-11.4944
收歛	-11.4945
凭	-11.4947
租	-11.4947
淵淵	-11.4948
祝融	-11.4955
波濤	-11.4956
蕩魔	-11.4961
俯鑒	-11.4961
皓月	-11.4963
議論	-11.4968
悠然	-11.4969
嵩山	-11.4972
竅竅	-11.4976
夢幻	-11.4977
示之以	-11.498
鐘聲	-11.498
無時不	-11.499
五百過	-11.5005
根蒂	-11.5007
飛天神王	-11.5035
洛陽	-11.5037
物阜	-11.5049
莫知所	-11.5114
齋醮	-11.5144
坐卧	-11.5156
心印經	-11.5177
院左宫	-11.5186
院右宫	-11.5187
夰	-11.5218
元帥中朝	-11.5222
孀	-11.5247
獅	-11.5248
閎	-11.5253
誦持萬遍身有光明三界侍	-11.5254
穢消散道德成全金光神咒	-11.5254
恢恢	-11.5254
瀰	-11.5255
治大宗師	-11.5255
蕉	-11.5256
混混沌沌	-11.5256
廣化弟子惠覺校訂	-11.5257
一者智慧	-11.5257
崆峒	-11.5258
牘	-11.5259
淡泊	-11.526
翫	-11.526
杏林	-11.5261
賡	-11.5261
瞶	-11.5262
斗姆	-11.5262
罪消滅願	-11.5263
瞎	-11.5263
膏肓	-11.5263
溫	-11.5263
誹謗	-11.5264
滔滔	-11.5265
齧	-11.5265
坦坦	-11.5265
百丈	-11.5266
枯槁	-11.5266
水火木金	-11.5266
件件	-11.5268
藪	-11.5268
譬喻	-11.5268
翺翔	-11.5268
磐	-11.5269
萬事畢	-11.5269
刮	-11.5269
祛	-11.5269
牝牡	-11.5269
醺	-11.5269
詈	-11.527
人人具足	-11.527
眇	-11.527
身外有身	-11.527
蘖	-11.527
九天開化	-11.5272
冦	-11.5272
窻	-11.5272
二六時中	-11.5272
雨暘	-11.5272
肅肅	-11.5273
儕	-11.5273
紆	-11.5273
休歇	-11.5273
妣	-11.5274
罩	-11.5274
瘞	-11.5274
泡影	-11.5275
滲	-11.5275
瑾	-11.5275
放大光明	-11.5276
喚醒	-11.5276
方無極世界	-11.5277
歲	-11.5277
斑	-11.5278
勷	-11.5278
五丈原	-11.5279
饑寒	-11.5279
降生天尊	-11.5279
拯救	-11.5279
無根樹	-11.5279
甃	-11.528
甲寅	-11.5281
增減	-11.5281
撻	-11.5281
拘拘	-11.5281
鍚	-11.5282
|	-11.5283
五老上帝	-11.5283
禁忌	-11.5283
庾	-11.5286
鐘鼓	-11.5286
敗壞	-11.5287
貨財	-11.5288
旦暮	-11.5289
充盈	-11.5292
計較	-11.5297
朱子曰	-11.5303
昭彰	-11.5303
欽承	-11.5308
厚薄	-11.5313
孰敢	-11.5356
生治世福顯利幽弭災集慶法	-11.5504
如之何	-11.5504
浩刼	-11.5585
十丈	-11.5599
罪消滅玉皇大天尊玄穹高上帝	-11.5606
㐫	-11.5608
天地玄宗萬炁本根廣修億劫證吾	-11.5611
羶	-11.5612
諶	-11.5614
組	-11.5615
玄牝之門	-11.5616
護法神王保衞誦經皈依大道元亨利貞	-11.5616
☱	-11.5617
軒冕	-11.5617
痒	-11.5617
遐邇	-11.5618
堦	-11.5618
生人生物	-11.5618
簣	-11.5618
湏	-11.5618
之災願消	-11.5618
蕙	-11.5618
劉海蟾	-11.5619
儻	-11.5619
沴	-11.5619
一得永得	-11.562
纎毫	-11.562
揑	-11.562
酥	-11.562
徃	-11.562
鄞鄂	-11.562
如如不動	-11.5621
關聖帝君	-11.5621
舛	-11.5621
脆	-11.5622
森森	-11.5622
柢	-11.5622
梯航	-11.5623
忻	-11.5623
彬	-11.5624
到此地位	-11.5624
滄溟	-11.5624
先天地生	-11.5625
瘟㾮	-11.5625
咒詛	-11.5625
湍	-11.5625
蜉蝣	-11.5626
葩	-11.5626
歘	-11.5627
日月合璧	-11.5627
婉	-11.5628
肚	-11.5628
癸酉	-11.5629
兜率	-11.5629
沮	-11.5629
琮	-11.5629
飱	-11.563
包括	-11.563
穉	-11.563
簧	-11.563
盎	-11.563
曠劫	-11.563
謄	-11.5631
黛	-11.5631
僉	-11.5632
懈怠	-11.5632
頫	-11.5632
攷	-11.5633
扼	-11.5633
碣	-11.5634
眞符玉清	-11.5634
繽紛	-11.5634
充溢	-11.5637
骨髓	-11.5637
羅酆	-11.5637
延齡	-11.5638
禳災	-11.5638
屐	-11.564
效驗	-11.5642
山福地仙官聖眾	-11.5643
玉陛下	-11.5645
治都士宗師	-11.5646
冬夏	-11.5646
治都神宗師	-11.5647
蓑	-11.5648
朗耀	-11.5648
治都仙宗師	-11.5648
治都真宗師	-11.5649
默契	-11.5649
萬籟	-11.5653
涪	-11.5654
羕	-11.5659
廟貌	-11.566
原宥	-11.566
機鋒	-11.5661
祖誥至心皈命禮	-11.5665
都䕶	-11.5671
代諱	-11.5672
治聖母	-11.5674
人之生也	-11.5723
衆真	-11.5736
吉祥音檀熾鈞	-11.5967
不可稱量二者慈悲	-11.5975
不可稱量是爲十種	-11.5975
不可稱量十者普心	-11.5975
不可稱量九者遣情	-11.5976
不可稱量六者善業	-11.5976
不可稱量四者行功	-11.5976
不可稱量八者飾身	-11.5976
不可稱量五者修心	-11.5976
尋聲赴感	-11.5979
霓裳	-11.5979
内有霹𩆝雷神隱名	-11.598
鶉	-11.5982
啄	-11.5982
覃恩不可思議功德收讚	-11.5984
紂	-11.5985
椒	-11.5986
憨	-11.5986
防危慮險	-11.5987
淨天地神咒天地自然穢氣分散洞中	-11.5988
寧	-11.5989
厦	-11.5989
鍛鍊	-11.5989
楫	-11.599
婚姻	-11.5991
塢	-11.5991
喟	-11.5991
滕	-11.5991
癘	-11.5992
滂	-11.5992
杪	-11.5993
天尊大悲神霄化	-11.5993
肱	-11.5993
砥柱	-11.5993
水中之金	-11.5995
桎梏	-11.5995
阮	-11.5995
燾	-11.5995
拴	-11.5995
饗	-11.5996
苴	-11.5997
丈餘	-11.5999
沭	-11.5999
霾	-11.6
辟穀	-11.6
丁亥	-11.6
悶悶	-11.6001
盥	-11.6001
口口相傳	-11.6001
淒	-11.6002
錐	-11.6002
癰	-11.6002
爼	-11.6002
漢祚	-11.6002
懾	-11.6003
蕩滌	-11.6003
警化孚佑	-11.6003
檢點	-11.6003
土釡	-11.6004
靖真宰	-11.6004
扄	-11.6005
豺	-11.6005
彌綸	-11.6006
巾幗	-11.6007
昊天上帝	-11.6007
蒼梧	-11.6007
悠久	-11.6007
泮	-11.6007
蓮臺	-11.6008
减	-11.601
檜	-11.6011
逋	-11.6012
賄	-11.6012
峩眉	-11.6013
睡魔	-11.6013
牡丹	-11.6014
辛勤	-11.6015
禹餘	-11.6016
涿	-11.6019
無能勝	-11.6021
齋筵	-11.6023
懸崖	-11.6029
合而爲一	-11.6157
杳㝠	-11.6164
彖	-11.6339
太上曰復有十種	-11.6357
不可稱量何等爲十種	-11.6357
不可稱量三者含忍	-11.636
不可稱量七者精進	-11.636
損之又損	-11.6362
暈	-11.6363
洞慧交徹五炁騰騰金光速現覆護眞人	-11.6364
瞀	-11.6366
救生濟死	-11.6368
閬	-11.6369
猖狂	-11.6369
窅	-11.6369
淙	-11.6369
☴	-11.6371
丑寅	-11.6371
泡	-11.6371
取坎塡離	-11.6371
諉	-11.6372
積功累行	-11.6372
涇	-11.6373
冠冕	-11.6374
頰	-11.6374
詹	-11.6374
熬	-11.6375
闋	-11.6376
胡濙	-11.6376
翅	-11.6377
漏盡通	-11.6377
殖	-11.6377
耘	-11.6377
父母未生前	-11.6377
陰中之陽	-11.6377
登道岸	-11.6377
一以貫之	-11.6378
蔕	-11.6378
玉皇本行集經	-11.6379
利涉大川	-11.6379
篁	-11.638
琦	-11.638
鏤	-11.638
澂	-11.6381
返老還童	-11.6381
賽	-11.6381
陸西星曰	-11.6381
犁	-11.6381
墅	-11.6382
矗	-11.6382
恊	-11.6382
型	-11.6382
朵	-11.6383
浹	-11.6383
春夏秋冬	-11.6384
鄂	-11.6384
機械	-11.6384
等伏思	-11.6384
慟	-11.6385
軾	-11.6385
甌	-11.6385
嵌	-11.6385
籲	-11.6385
螟	-11.6385
鉞	-11.6385
片餉	-11.6386
墀	-11.6386
姝	-11.6386
閔	-11.6387
嫗	-11.6387
衫	-11.6387
佯	-11.6387
偪	-11.6388
猥	-11.6388
睫	-11.6388
乙亥	-11.6388
弈	-11.6389
郝	-11.6389
眞一之氣	-11.6392
怙	-11.6392
翛然	-11.6395
營營	-11.6397
梳	-11.6398
無形無象	-11.6398
旂	-11.6398
蕭蕭	-11.6399
嬴	-11.6399
修道之士	-11.64
寰宇	-11.6407
雞鳴	-11.6408
禺	-11.6413
無處不	-11.6682
拷	-11.6701
昊	-11.6707
一次爲一過	-11.6752
眞人良醫普救	-11.6753
上善若水	-11.6762
祝香神咒道由心洽心假香傳香	-11.6765
顛倒	-11.6765
昂	-11.6766
爇玉爐心存帝前眞靈下盼仙斾臨軒令	-11.6766
絡繹	-11.6767
爲上良因再申稱念	-11.6768
舄	-11.6768
蹲	-11.6769
晃朗	-11.6769
膜	-11.677
自古及今	-11.677
嗅	-11.6771
嬰兒姹女	-11.6771
敖	-11.6771
暘	-11.6772
械	-11.6773
刁	-11.6773
馘	-11.6773
鍼	-11.6773
臭腐	-11.6774
☳	-11.6775
生生不息	-11.6775
胚胎	-11.6775
鷲	-11.6777
啾	-11.6777
霓旌	-11.6777
甜	-11.6777
訐	-11.6778
閼	-11.6778
鮑	-11.6779
昊天金闕	-11.6779
歐陽	-11.6779
犀	-11.6779
冉冉	-11.6779
暝	-11.678
優劣	-11.678
驀	-11.678
隍	-11.678
勾引	-11.6781
寰區	-11.6781
靈寶文檢卷	-11.6781
駡	-11.6782
贍	-11.6782
鉄	-11.6782
蒿	-11.6783
調爕	-11.6783
鼈	-11.6783
昃	-11.6783
郢	-11.6784
迅速	-11.6784
棊	-11.6784
琴瑟	-11.6785
裸	-11.6786
兵戈	-11.6787
洞天福地	-11.6787
瀟瀟	-11.6787
亹	-11.6788
帽	-11.6789
證盟修奉	-11.679
鞍	-11.679
吠	-11.679
傭	-11.679
斗杓	-11.679
匹配	-11.6791
瑩徹	-11.6791
諡	-11.6791
惓	-11.6792
筌	-11.6793
成仙成佛	-11.6794
硤石	-11.6795
邸	-11.6796
翼翼	-11.6796
州剌史	-11.6797
蓍	-11.6797
張郃	-11.6802
討賊	-11.6803
𣷹	-11.6804
彌陀	-11.6804
紹興	-11.6814
北斗九皇	-11.6867
也九四	-11.7145
央	-11.7146
元帥掌天下	-11.7154
靖右府宗師	-11.7172
靖左府宗師	-11.7172
姬	-11.7172
常規平安	-11.7175
一次爲五過	-11.7176
弋	-11.7179
病延年按行五	-11.718
漢丞相諸葛忠武侯集卷之	-11.7181
八海知聞魔王束首眞聖衞軒	-11.7181
申朝禮至心朝禮	-11.7181
亶	-11.7183
謔	-11.7183
蓬瀛	-11.7184
拔度亡魂	-11.7185
斟酌	-11.7185
如經故難遇	-11.7185
糠	-11.7186
腴	-11.7186
1-	-11.7187
濺	-11.7188
醯	-11.7188
瘟案主者都府管	-11.7188
葭	-11.7188
茨	-11.7189
泳	-11.7189
拄杖	-11.7189
俄頃	-11.7189
七返九還	-11.719
語言文字	-11.7191
洗心滌慮	-11.7191
鎗	-11.7191
獨修一物	-11.7191
乖戾	-11.7191
縹	-11.7192
蘧	-11.7192
陲	-11.7193
凛凛	-11.7194
天皇大帝	-11.7195
毗	-11.7195
幣	-11.7195
坂	-11.7196
沅	-11.7196
巉	-11.7196
廹	-11.7196
刪	-11.7196
☶	-11.7196
斾	-11.7196
褰	-11.7196
☉	-11.7197
霛	-11.7197
湛湛	-11.7197
樊籠	-11.7197
夸	-11.7197
櫛	-11.7198
箋釋正陽帝君曰	-11.7198
覿面	-11.7198
黃芽白雪	-11.7198
登彼岸	-11.72
屣	-11.72
隔礙	-11.7201
顙	-11.7201
婆娑	-11.7201
棍	-11.7202
彝	-11.7202
馥郁	-11.7202
饑渴	-11.7202
釘	-11.7202
翩	-11.7202
欹	-11.7202
箴	-11.7202
蹻	-11.7203
辛酉	-11.7203
謐	-11.7203
觀天之道執天之行	-11.7204
卭	-11.7204
拇	-11.7205
牿	-11.7205
仆	-11.7205
灝	-11.7206
蘄	-11.7206
瑯	-11.7206
柩	-11.7206
詐僞	-11.7208
甲乙	-11.7208
誚	-11.7208
釵	-11.7208
妃	-11.7208
窄	-11.7209
鶴唳	-11.7209
子午卯酉	-11.7209
桴	-11.721
伊尹	-11.7211
茆	-11.7211
彫	-11.7211
軼	-11.7212
黑簿	-11.7212
吹噓	-11.7213
蚌	-11.7214
疽	-11.7214
啜	-11.7215
觧	-11.7215
㧞	-11.7217
嗔怒	-11.722
琬	-11.7231
源之在	-11.7256
十三年	-11.7287
可測識	-11.734
九天應元雷聲普化天尊	-11.7359
舌神正倫通命養神羅千齒神	-11.7458
􂆞􂆟	-11.7586
弘萬福乃弘帝福護羣身如護己身處處	-11.7604
女得道仙姬	-11.761
哈	-11.7613
脫胎神化	-11.7615
雝	-11.7615
無爲而無不爲	-11.7618
千言萬語	-11.7619
憔悴	-11.7619
祁	-11.762
徹始徹終	-11.7621
嬾	-11.7622
𦕈	-11.7622
悉仗眞香普同供養	-11.7622
滔	-11.7622
大天將炁序	-11.7623
陽中之陰	-11.7623
逰	-11.7623
蝎	-11.7623
熈	-11.7623
☲	-11.7624
拄	-11.7624
徤	-11.7624
姜	-11.7624
硃砂	-11.7624
眄	-11.7625
安爐立鼎	-11.7626
䑛	-11.7626
一陰一陽之謂道	-11.7627
廕	-11.7628
删	-11.7628
綽	-11.7628
倂	-11.7629
若復有人	-11.763
嫡	-11.763
璇	-11.763
嶷	-11.763
贏	-11.763
溜	-11.763
濟生度死	-11.7631
鸚	-11.7631
豎	-11.7631
縧	-11.7632
怍	-11.7632
鋸	-11.7632
戞	-11.7632
簞	-11.7633
瀟湘	-11.7633
駿	-11.7633
宓	-11.7633
觀世音	-11.7634
潑	-11.7634
舖	-11.7634
燦爛	-11.7634
旭	-11.7634
藕	-11.7635
太陽眞火	-11.7635
蠱案主者都府管	-11.7635
臯	-11.7635
弟兄	-11.7636
賚	-11.7636
鑾	-11.7636
豢	-11.7636
窠	-11.7637
噬嗑	-11.7637
姆	-11.7637
僖	-11.7638
莢	-11.7638
揀	-11.7638
瑤京	-11.7638
拍手	-11.7638
烹煎	-11.7639
傘	-11.7639
翮	-11.7639
跌	-11.764
㫖	-11.764
饑饉	-11.7641
吻	-11.7641
幷	-11.7642
晤	-11.7642
偹	-11.7644
鴆	-11.7645
庻	-11.7645
衒	-11.7645
持經之人	-11.7646
諸葛忠武侯	-11.7648
干冒眞威	-11.7651
月十五日	-11.7651
琰	-11.7655
若而人也	-11.7657
夔州	-11.7659
山得道一切神仙	-11.766
摩訶	-11.7661
百餘里	-11.7769
吁嗟	-11.779
高上玉皇	-11.7921
濛濛	-11.8018
缽	-11.805
痘	-11.8058
東宫慈父太乙尋聲救苦天尊證盟玉清	-11.8067
饋	-11.8068
九天雷祖	-11.8069
藿	-11.8069
妙寶神功顯號應化天尊	-11.807
誠惶誠恐	-11.807
纒綿	-11.8071
之災玉皇大天尊玄穹高上帝	-11.8071
諳	-11.8072
澍	-11.8073
年月法職師號	-11.8073
咒三遍畢叩齒咽津如前玄契曰	-11.8074
洋溢	-11.8074
三家相見	-11.8075
娼	-11.8075
兩弦之炁	-11.8076
令我通眞思神鍊液道炁常存	-11.8076
恭對道前	-11.8076
晷	-11.8077
叭	-11.8077
氓	-11.8077
輾轉	-11.8077
一升一降	-11.8079
寂然不動感而遂通	-11.8079
紏	-11.8079
紺	-11.808
剗	-11.808
蓬島	-11.8081
暎	-11.8081
山河大地	-11.8082
俛	-11.8082
睇	-11.8082
列仙班	-11.8083
哪	-11.8083
翌	-11.8083
迴風混合	-11.8083
芸芸	-11.8083
呆	-11.8083
丙寅	-11.8084
斟	-11.8084
洪濛	-11.8084
腕	-11.8084
逡巡	-11.8085
亦復如是	-11.8085
乙丑	-11.8085
耨	-11.8085
渣	-11.8086
飼	-11.8086
回光返照	-11.8086
勺	-11.8086
瓣	-11.8086
紫虛魏祖元君疏	-11.8086
况於人乎	-11.8086
爲而不恃	-11.8086
劃	-11.8086
硫	-11.8086
王重陽眞人	-11.8086
孛	-11.8087
盻	-11.8087
葱	-11.8087
最上一乘	-11.8087
片晌	-11.8088
賔	-11.8088
遐齡	-11.8088
甓	-11.8089
羆	-11.8089
胄	-11.8089
姜維	-11.809
刳	-11.809
䖏	-11.809
賂	-11.809
譁	-11.809
冡	-11.809
拖	-11.809
慣	-11.8091
滴滴	-11.8092
■■	-11.8092
空空洞洞	-11.8092
仄	-11.8092
飫	-11.8092
壹	-11.8093
鬆	-11.8093
糜	-11.8093
羿	-11.8094
笏	-11.8094
鱉	-11.8094
裒	-11.8094
㟁	-11.8095
眾鬼魂	-11.8095
舘	-11.8096
□	-11.8096
灑灑	-11.8096
躅	-11.8096
玉宸道君	-11.8097
鞋	-11.8097
通天徹地	-11.8097
皤	-11.8097
努	-11.8097
繕	-11.8097
琳琅	-11.8097
嶲	-11.8099
餽	-11.81
昏昏默默	-11.8102
謳	-11.8103
臬	-11.8104
何言哉	-11.8106
拏	-11.8106
蔣琬	-11.8113
度亡過	-11.8119
天尊大悲神霄赦除	-11.8484
三淸三境	-11.854
百日功靈	-11.8547
祖師先天主將赤心護道王天君證盟	-11.8547
鐙	-11.8547
天運年月日告下奉行	-11.8548
裾	-11.8549
沬	-11.855
覬	-11.855
聶	-11.8551
躱	-11.8551
宏濟眞君	-11.8552
謠	-11.8552
搬弄	-11.8554
干冒天威	-11.8554
撒	-11.8554
奕奕	-11.8554
若亡若存	-11.8555
陡	-11.8555
摭	-11.8555
踈	-11.8556
蜿蜒	-11.8556
敻	-11.8557
嶮	-11.8558
善哉善哉	-11.8558
薇	-11.8559
麋	-11.8559
渟	-11.856
榖	-11.856
哄	-11.856
粲	-11.8561
滾	-11.8561
四生六道	-11.8562
垓	-11.8562
鯤	-11.8562
猨	-11.8562
鍊神還虛	-11.8563
廖	-11.8563
巿	-11.8563
渾渾淪淪	-11.8563
芻	-11.8564
拐	-11.8564
跣	-11.8564
汾	-11.8565
翱	-11.8565
廩	-11.8565
硬	-11.8565
槨	-11.8565
皋	-11.8566
腥羶	-11.8566
刖	-11.8566
寖	-11.8567
觀音大士	-11.8567
驤	-11.8567
徨	-11.8568
芻狗	-11.857
羈	-11.857
脯	-11.857
餞	-11.8571
縻	-11.8571
利見大人	-11.8572
奴婢	-11.8573
貝葉	-11.8573
跟	-11.8573
宼	-11.8573
礪	-11.8573
𣺌茫	-11.8575
媪	-11.8575
簟	-11.8575
泝	-11.8575
十一大曜	-11.8576
證鑒修崇	-11.8578
串	-11.8579
曦	-11.8581
僂	-11.8583
凱	-11.8593
𡨚債	-11.8622
邪衞眞喉神虎賁氣神引津心神丹元	-11.8863
大天尊掌道掌法	-11.9026
諦聽吾言	-11.9039
菽	-11.9041
罐	-11.9043
丶	-11.9043
漑	-11.9043
而說偈曰	-11.9046
重陽註曰	-11.9047
錘	-11.9047
永度三途五苦八難超凌仙界逍遙上	-11.9047
姹	-11.9048
稳	-11.9048
悄	-11.9048
瓦礫	-11.9048
呀	-11.9049
道不遠人	-11.9049
若存若亡	-11.9049
正心誠意	-11.9049
矚	-11.905
杲	-11.905
縊	-11.905
澹泊	-11.905
凝神入氣穴	-11.9051
不偏不倚	-11.9052
元契曰	-11.9053
咬	-11.9053
辣	-11.9053
瀟灑	-11.9055
顓	-11.9055
天尊萬福寶誥	-11.9056
矍	-11.9056
炯	-11.9056
蕆	-11.9056
澇	-11.9057
加一等	-11.9057
絆	-11.9057
玉皇尊帝	-11.9057
訢	-11.9058
璽	-11.9058
鴨	-11.9058
襍	-11.9059
輳	-11.9059
稼穡	-11.9059
眞一之水	-11.9059
潢	-11.9059
淨身神咒	-11.9059
舅姑	-11.9059
芸	-11.906
情歸性	-11.906
疣	-11.9061
痿	-11.9061
蒼胡頡寶	-11.9061
韞	-11.9061
訊	-11.9061
至玄至妙	-11.9062
五金八石	-11.9062
岳陽樓	-11.9062
赭	-11.9063
艇	-11.9063
徠	-11.9063
綫	-11.9065
沱	-11.9065
綻	-11.9065
耜	-11.9066
畛	-11.9066
扳	-11.9066
熄	-11.9066
稠	-11.9066
僊	-11.9066
彤	-11.9067
拽	-11.9067
壻	-11.9067
君子體此	-11.9068
闚	-11.9068
胆	-11.9069
和光同塵	-11.9069
焰	-11.907
來受甘露味	-11.9071
嘔	-11.9071
㕑	-11.9071
瘴	-11.9071
退藏於密	-11.9072
惘	-11.9073
舊志云	-11.9074
跖	-11.9074
顖	-11.9075
貪嗔癡	-11.9075
净	-11.9077
樟	-11.9078
蛭	-11.9078
兜	-11.9081
蒞	-11.9081
跎	-11.9083
彘	-11.9084
㗖	-11.9086
幔亭	-11.9088
囦	-11.9531
用之不勤	-11.9566
慈諸天眞宰度災濟刦萬眞無量福護	-11.9566
涌	-11.9568
皓靈皇老	-11.957
逭	-11.957
飛行救劫天尊	-11.957
閶	-11.9571
璘	-11.9571
至簡至易	-11.9572
黼	-11.9572
脇	-11.9575
玉几下	-11.9576
蓬蒿	-11.9576
狀九分	-11.9576
宣秘咒	-11.9576
麼	-11.9576
綰	-11.9577
誥奉行祖師三天教主正一眞君張證盟	-11.9577
渺渺	-11.9577
邅	-11.9577
耄	-11.9578
天尊大悲斗司	-11.9578
汪洋	-11.9578
燿	-11.9579
噩	-11.9579
緡	-11.9579
逗	-11.9579
湼	-11.958
徊	-11.958
父母未生以前	-11.958
凄凉	-11.958
巘	-11.9581
鉉	-11.9581
沌	-11.9582
眼耳鼻舌	-11.9582
鯉	-11.9583
西華金母	-11.9583
鬣	-11.9584
掾	-11.9585
頷	-11.9585
冤	-11.9585
瑰	-11.9585
白祖仙師曰	-11.9586
届	-11.9587
耑	-11.9587
九天演政	-11.9587
群	-11.9587
爲二百功	-11.9587
以神馭氣	-11.9588
埽	-11.9588
脛	-11.9588
從無入有	-11.9589
甑	-11.9589
皥	-11.9589
漚	-11.959
濬	-11.959
崢	-11.959
繭	-11.959
緝	-11.9591
煉氣化神	-11.9591
慤	-11.9592
㓜	-11.9592
喙	-11.9592
寕	-11.9593
狸	-11.9593
隹	-11.9593
逵	-11.9593
麻祖元君曰	-11.9593
魏伯陽	-11.9594
眾妙之門	-11.9594
嚇	-11.9595
浚	-11.9595
銛	-11.9595
鬟	-11.9596
攪	-11.9596
炒	-11.9596
揺	-11.9597
悽	-11.9598
蜮	-11.9598
冗	-11.9598
酢	-11.9598
蔑	-11.9599
譔	-11.96
仁慈俯賜昭允	-11.9601
東園語錄	-11.9602
擘	-11.9604
芒鞋	-11.9605
嗷	-11.9606
輿地紀勝云	-11.9609
黒	-11.961
佃	-11.9611
月出庚	-11.962
甡	-12.0071
雺	-12.0073
眞無量福護天尊萬福寶誥	-12.0113
慈諸天眞宰度災濟刼萬	-12.0119
蜍	-12.0121
一次爲二過	-12.0122
乎陰之說也	-12.0122
流光耀采天尊	-12.0124
鵑	-12.0124
弒	-12.0124
神仙兵馬無鞅數眾悉	-12.0124
愠	-12.0126
十方靈寶救苦尊救苦天尊唵啞吽吽啞	-12.0126
生老病死	-12.0128
唏	-12.013
駘	-12.0131
超登蓮化天尊	-12.0131
無上混元宗壇	-12.0131
虛室生白	-12.0131
鹵	-12.0131
咒完吸頂雲	-12.0132
􂂁	-12.0132
生身受度刼刼長存隨刼輪轉與天齊年	-12.0133
埴	-12.0133
圓通早覺天尊	-12.0134
四大假合	-12.0134
魑	-12.0134
砧	-12.0135
注視良久	-12.0135
悛	-12.0135
韁	-12.0135
通玄應變天尊	-12.0136
凹	-12.0136
靈寶天尊安慰身形法子魂魄五臟玄	-12.0136
庄	-12.0137
鼉	-12.0137
徉	-12.0137
横	-12.0137
金來歸性	-12.0139
抹	-12.0139
曲垂矜允	-12.0139
師號同前	-12.0139
竪	-12.014
靳	-12.014
眞君張證盟	-12.014
團圞	-12.0141
蚩蚩	-12.0141
瑛	-12.0141
孏	-12.0141
哂	-12.0141
泒	-12.0142
頺	-12.0142
圉	-12.0142
愷	-12.0142
媳	-12.0142
珪	-12.0143
煢	-12.0143
砭	-12.0143
墖	-12.0143
乎陽之說也	-12.0144
塹	-12.0144
㜑	-12.0144
描	-12.0144
撤	-12.0144
貿	-12.0144
絪	-12.0144
抽鉛添汞	-12.0145
冽	-12.0145
窮理盡性以至於命	-12.0145
燠	-12.0145
弃	-12.0145
攄	-12.0145
歙	-12.0145
漢嘉長乙山人李西月重編張道淵子深	-12.0146
拓	-12.0146
摯	-12.0147
收視返聽	-12.0147
噉	-12.0147
殽	-12.0147
阿羅漢	-12.0148
蹕	-12.0148
歳	-12.0148
迢迢	-12.0149
七情六慾	-12.0149
耻	-12.015
硃	-12.015
當面錯過	-12.015
廸	-12.015
剏	-12.015
旁門小術	-12.015
桀紂	-12.0151
三百六十五度	-12.0152
虺	-12.0152
斧鉞	-12.0152
䘏	-12.0153
醇	-12.0154
廛	-12.0154
尿	-12.0154
綃	-12.0154
灌溉	-12.0154
怏	-12.0155
牂	-12.0155
念茲在茲	-12.0156
磁	-12.0156
詡	-12.0157
𦀦	-12.0157
槃	-12.0159
天君雷府護法	-12.0159
幟	-12.0159
與天爲徒	-12.0159
漕	-12.0161
愴	-12.0161
昱	-12.0162
九龍符命	-12.0162
濠	-12.0163
纍纍	-12.0165
皇夫人北斗	-12.0168
夥	-12.0168
宏慈妙法元君	-12.0174
案主者宫府管	-12.0235
羅天十	-12.0267
位不當也	-12.0306
真君祖師	-12.0427
焱	-12.0665
楊去奢曰	-12.07
轉神入定	-12.0708
脗	-12.0709
玉虛師相	-12.071
天尊大悲統部嶽府	-12.0712
安身立命	-12.0712
諶姆	-12.0712
皺	-12.0717
渤	-12.0717
繚	-12.0718
晡	-12.0719
傚	-12.0719
厠	-12.0719
媿	-12.072
唧	-12.072
9	-12.0721
噀	-12.0722
荇	-12.0723
分陰分陽	-12.0723
無去無來	-12.0723
渥	-12.0723
碗	-12.0724
簽	-12.0724
醖釀	-12.0725
樗	-12.0725
薈	-12.0725
覿	-12.0726
嶧	-12.0726
頭頭是道	-12.0726
崎嶇	-12.0726
簑	-12.0726
呻	-12.0727
萱	-12.0727
慊	-12.0727
黿	-12.0727
陀羅尼	-12.0727
𨓜	-12.0727
遘	-12.0727
爲聖爲賢	-12.0728
鄂渚	-12.0729
茸	-12.0729
弧	-12.0729
與時偕行	-12.0729
跏	-12.0729
爛熳	-12.073
周而復始	-12.073
是日叩干元造意者切以	-12.073
龍從火裏出	-12.073
詫	-12.073
翀	-12.073
癢	-12.0732
熹	-12.0732
獰	-12.0732
爲第一等弟子	-12.0732
蒨	-12.0732
常應常靜	-12.0733
迴光返照	-12.0733
荏	-12.0733
愫	-12.0733
羌	-12.0734
大金神曰	-12.0734
傀	-12.0734
襯	-12.0734
仰對元皇曷勝欽仰敬禮	-12.0735
匕	-12.0735
大放光明倘能叨沐是光照耀厥身前後	-12.0735
拆	-12.0735
塋	-12.0735
福善禍淫	-12.0736
玄要篇	-12.0736
它	-12.0736
忮	-12.0737
珊瑚	-12.0738
眞人註曰此章	-12.0738
重刋道藏輯要張三丰先生全集	-12.0738
銅符鐵劵	-12.0738
轆	-12.0738
穎	-12.0739
㙮	-12.0739
墊	-12.074
浄	-12.074
在昔彌羅聖主大放是光無與等者元皇	-12.074
地二生火	-12.074
嘵	-12.074
楠	-12.0741
者右疏具申	-12.0741
髫	-12.0741
轝	-12.0741
鹵莽	-12.0741
颺	-12.0741
蚩	-12.0742
菑	-12.0742
㘕	-12.0742
菁	-12.0742
漬	-12.0743
橙	-12.0743
金章靈符	-12.0743
盃	-12.0744
南榮趎	-12.0744
菱	-12.0744
斌	-12.0745
宣行祖師三天教主正一眞君張證盟	-12.0745
䭾	-12.0746
彷	-12.0746
缶	-12.0747
袵	-12.0747
尺二寸	-12.0748
篙	-12.0748
太極便宜司	-12.0749
魘	-12.0749
笞	-12.0752
瘋	-12.0753
四天君曰	-12.0756
梭	-12.0756
萬八千	-12.0757
撿	-12.0758
犍	-12.0759
須至疏者右疏具申	-12.0761
竽	-12.0763
颯	-12.0767
符右符奉爲四川成都府地分奉道信人	-12.078
飍	-12.128
纒綿無已之情	-12.1298
攴	-12.1306
撘	-12.1328
承天效法后土皇	-12.1335
紫虛魏祖元君曰	-12.1337
一點落黃庭	-12.134
颼	-12.1341
-10	-12.1342
知白守黑	-12.1342
楊升菴曰	-12.1343
煌	-12.1344
虩	-12.1344
現身說法	-12.1344
絜	-12.1344
黻	-12.1345
纍	-12.1347
▁無極子曰	-12.1347
橐	-12.1348
炤	-12.1348
善爲士者	-12.1348
疚	-12.1348
赤書玉篇眞文	-12.1348
重刊道藏輯要	-12.1348
閴	-12.135
疼	-12.135
愕	-12.135
稊	-12.135
峴	-12.135
楯	-12.1351
褓	-12.1351
陰極陽生	-12.1351
落空亡	-12.1352
中郞將	-12.1352
穹窿	-12.1352
整肅威儀	-12.1352
涘	-12.1353
腮	-12.1353
等因本司得此	-12.1353
邳	-12.1353
水簾洞	-12.1354
氾	-12.1354
此章申言	-12.1354
諄	-12.1354
幄	-12.1355
橛	-12.1355
墠	-12.1355
餉	-12.1355
持誦玉皇經	-12.1356
臉	-12.1356
綢繆	-12.1356
媸	-12.1356
金能生水	-12.1357
毬	-12.1357
高虛淸明天主	-12.1357
闈	-12.1357
穰穰	-12.1357
套	-12.1357
等忝列男身幸生中土	-12.1358
曹還陽	-12.1358
嘶	-12.1359
誹	-12.1359
蟹	-12.1359
𢪩	-12.1359
捩	-12.136
繆	-12.136
抱元守一	-12.136
痼	-12.136
髩	-12.136
十洲三島	-12.136
曙	-12.136
陝	-12.1361
姙	-12.1361
獘	-12.1361
樑	-12.1361
嶽府受生院第	-12.1362
攣	-12.1362
栩	-12.1362
笻	-12.1362
殀	-12.1363
燬	-12.1363
躐	-12.1363
購	-12.1363
塞其兌	-12.1364
票	-12.1364
秃	-12.1364
領詞䖍切依教奉行	-12.1364
璚	-12.1364
剥	-12.1365
晜	-12.1365
人爲萬物之靈	-12.1365
伎倆	-12.1365
縉	-12.1366
似有似無	-12.1366
寮	-12.1367
靈寶无量度人	-12.1367
衎	-12.1368
銓	-12.1368
於家修設	-12.1368
粮	-12.1368
耒	-12.1369
絹	-12.1369
廼	-12.1369
功圓行滿	-12.1369
朦朧	-12.1369
摩利攴天	-12.1371
氐	-12.1371
聲色貨利	-12.1372
佗	-12.1373
逅	-12.1374
顒	-12.1376
年𡻕次	-12.1376
貂	-12.1377
塟	-12.1377
尻	-12.1377
穗	-12.1382
韄	-12.1427
壇庭太上有命搜捕邪精	-12.1476
各安方位備守壇庭太上有命搜捕邪精	-12.1883
恙	-12.1949
願我衆生得九天心印者	-12.1982
鶴臞子	-12.1987
厄皈命至德靈華君願解	-12.1995
胚	-12.1996
冉	-12.1997
三寶萬靈法懴下元道士王守上閱	-12.1999
返本還源	-12.2002
黽	-12.2006
狀十四分	-12.2007
荄	-12.2008
五龍捧聖	-12.2008
孤寡不穀	-12.2008
膾	-12.2008
貞明大聖	-12.2009
蹠	-12.2009
無上聖廓落發光明寂寂浩無	-12.2009
瘥	-12.201
阱	-12.201
芭	-12.2011
下布心宮	-12.2012
敢問此劫可以救否至尊曰可哉吾當勅	-12.2012
隨詣天寶几前俯伏奏曰奉勅往觀所見	-12.2012
章至尊咒畢旋喚夜光玉女曰汝	-12.2012
識此一劫尙其乘吾光登臺而	-12.2012
埏	-12.2012
縳魅保命護身智慧明淨心神安甯三	-12.2012
莘	-12.2012
8	-12.2012
精神魂魄意	-12.2012
覘	-12.2012
慇懃	-12.2012
劓	-12.2012
開玄闡秘宏教眞君柳守元	-12.2013
瑋	-12.2014
嘴	-12.2014
孳孳	-12.2015
彀	-12.2015
捻	-12.2015
通玄先生曰傳曰	-12.2015
餚	-12.2015
三十六部尊經	-12.2015
南辰北斗	-12.2015
無思無慮	-12.2015
雲笈七籖	-12.2015
孚佑上帝純陽吕祖天師	-12.2016
黷	-12.2017
嚙	-12.2017
九天乾羅怛那洞罡太玄斬妖縳邪	-12.2017
兗	-12.2018
洊	-12.2018
八洞仙祖	-12.2018
嫓	-12.2018
三花聚頂	-12.2018
三元三品三官大帝	-12.2018
㑹	-12.2019
响	-12.2019
騶	-12.2019
膳	-12.2019
䟽	-12.202
百尺竿頭	-12.202
峪	-12.202
燔	-12.202
菌	-12.202
筐	-12.2021
十月胎圓	-12.2021
愓	-12.2022
盾	-12.2022
磅	-12.2022
瀼	-12.2022
妝	-12.2023
鏌	-12.2023
劎	-12.2023
眞符右符吿下	-12.2023
鍵	-12.2023
庠	-12.2023
虎向水中生	-12.2024
搔	-12.2024
𡧾	-12.2024
黃中通理	-12.2024
拿	-12.2024
昉	-12.2024
􂂀	-12.2024
腫	-12.2025
纜	-12.2025
撐	-12.2025
扎	-12.2026
返本還原	-12.2026
㴠	-12.2026
讀是經者	-12.2026
頹	-12.2026
撚	-12.2027
瓠	-12.2027
遴	-12.2027
天牢地獄	-12.2028
更生永命天尊拜請大元皇	-12.2028
嵯	-12.2028
伶	-12.2029
功成名遂	-12.2029
喤	-12.203
䘮	-12.203
闤	-12.203
躑	-12.203
踴躍歡欣五體投地至心敬禮	-12.2031
嚕	-12.2031
泰玄都省	-12.2031
蟇	-12.2031
鬧	-12.2031
娠	-12.2032
嬋	-12.2032
毆	-12.2032
弟子右洎合	-12.2032
珊	-12.2033
騾	-12.2033
嶸	-12.2034
瞥	-12.2034
恠	-12.2034
天真皇人云右	-12.2034
鶩	-12.2035
戰國策	-12.2036
朱大真人曰	-12.2036
俯拜恭惟	-12.2036
郵	-12.2037
筒	-12.2037
騏	-12.2037
崛	-12.2037
桶	-12.2037
諮	-12.2038
瀟	-12.2039
闥	-12.2039
須至具牒移	-12.2039
舅	-12.2041
如雞抱卵	-12.2042
匍匐	-12.2042
酹	-12.2042
烽	-12.2047
薨	-12.2048
神仙雲騎將士吏兵	-12.2048
迢	-12.205
上仙言眞人	-12.2052
氤	-12.2052
至心朝禮太上無極	-12.2446
􂆠	-12.2656
屵	-12.2658
􂆥	-12.2659
唳	-12.2697
彪	-12.2699
欬	-12.2703
爲道日損	-12.2708
榜文右伏以	-12.2708
丹靈眞老赤帝	-12.271
阨天尊大悲部禳	-12.2711
法筵淸眾	-12.2711
詬	-12.2717
鸝	-12.2718
衞我眞安土地神咒	-12.2719
芮	-12.2722
􂈮	-12.2722
餙	-12.2723
雲篆上吿	-12.2723
宗玄範總十方湛寂眞常道恢漠大神通	-12.2724
各從其類	-12.2725
琯	-12.2725
氊	-12.2725
更照之夜光承諭又復登臺照見	-12.2726
荔	-12.2726
菩	-12.2726
賞善罰惡	-12.2726
璿	-12.2726
萬乘之主	-12.2727
鹹	-12.2727
濩	-12.2727
厮	-12.2727
太上感應篇	-12.2727
我孚佑帝師	-12.2728
強	-12.2728
襁	-12.2728
徜	-12.2729
袤	-12.2729
㽔	-12.2729
鼕	-12.2729
仝	-12.273
故能成其大	-12.273
潜	-12.273
舂	-12.273
靑龍白虎隊仗紛紜朱雀玄武侍衞我	-12.2731
萇	-12.2731
碾	-12.2732
心香妙語	-12.2732
磕	-12.2733
􂃄	-12.2734
攙	-12.2734
畱	-12.2734
洙	-12.2734
雷師皓翁	-12.2734
賒	-12.2734
匀	-12.2735
鈐	-12.2735
鄴	-12.2735
㘞	-12.2735
欒	-12.2736
畸	-12.2736
杆	-12.2736
重刋道藏輯要上淸靈寶文檢卷	-12.2736
牒本司得此	-12.2736
何思何慮	-12.2737
拉	-12.2737
通微顯化	-12.2737
劖	-12.2737
褊	-12.2738
芰	-12.2738
烘	-12.2738
晞	-12.2738
隈	-12.2739
晒	-12.2739
籛	-12.2739
萎	-12.2739
渉	-12.2739
九玄七祖	-12.2739
扞	-12.2739
叵	-12.2739
祲	-12.274
懲忿窒慾	-12.274
筴	-12.274
邯	-12.274
太玄道父	-12.274
忭	-12.274
天雷上相	-12.2741
婺	-12.2741
緋	-12.2741
沁	-12.2741
善男信女	-12.2741
躊躇	-12.2741
無欲以觀其妙	-12.2741
靈寶文檢	-12.2741
癩	-12.2742
礴	-12.2742
九萬九千九百九十	-12.2743
怵	-12.2743
瓮	-12.2743
剡	-12.2744
鄲	-12.2744
穰	-12.2744
月二十八日	-12.2744
灧	-12.2744
愜	-12.2744
逐一開具	-12.2744
搐	-12.2745
西南得朋	-12.2745
癖	-12.2745
卸	-12.2745
帑	-12.2745
旒	-12.2745
甥	-12.2746
胎卵濕化	-12.2747
拌	-12.2747
本司得此除已依科	-12.2748
跼	-12.2748
醖	-12.2749
煽	-12.2749
閟	-12.2749
𦙍	-12.2749
癭	-12.2749
枘	-12.275
属	-12.2751
璃	-12.2751
不求聞達	-12.2752
允執厥中	-12.2752
𩲉	-12.2752
挨	-12.2752
曛	-12.2752
桷	-12.2754
麵	-12.2754
璀	-12.2755
郃	-12.2755
訉	-12.2755
出師二表	-12.2756
領詞䖍切	-12.2756
阪	-12.2756
湃	-12.2757
斫	-12.276
領益州牧	-12.276
皿	-12.2761
蓊	-12.2761
櫃	-12.2762
大靈官中宫鎮治	-12.2763
氳	-12.2765
沁園春	-12.2768
蚕	-12.2769
艘	-12.277
杠	-12.2775
今世猶帶	-12.2807
代答曰弟子	-12.2815
紜	-12.3097
􂆤	-12.3419
𡿧	-12.3421
爲學日益	-12.346
儉愛欲法	-12.3472
不淫想法	-12.3473
放翫習法	-12.3477
無昬惑法	-12.3478
不追懷法	-12.348
平好醜法	-12.348
洗垢穢法	-12.3481
軋	-12.3481
不邪還法	-12.3481
天長地久	-12.3483
祜	-12.3483
㨿	-12.3485
金剛不壞之身	-12.3486
忍不可忍法	-12.3486
無猶豫法	-12.3487
嫖	-12.3487
胷	-12.3488
揲	-12.3488
不悠想法	-12.3488
炷眞香	-12.3489
絕心想法	-12.3489
金木交併	-12.3489
被褐懷玉	-12.349
僨	-12.349
彦	-12.349
鍊炁化神	-12.3491
将	-12.3491
仙佛合宗語錄	-12.3491
俞玉吾曰	-12.3491
善防言法	-12.3491
螫	-12.3492
習悉意法	-12.3492
萬福乃弘帝福護羣身如護巳身處處䝉	-12.3493
酈	-12.3493
叫	-12.3494
關告徑達九天	-12.3494
屠羊說	-12.3494
礎	-12.3495
坯	-12.3495
此何故也至尊曰劫也曰何劫至尊曰此	-12.3495
觚	-12.3495
薜	-12.3495
丨	-12.3495
嚴固守之令我	-12.3496
色聲香味	-12.3496
蔀	-12.3496
呴	-12.3496
中元赦罪天尊	-12.3496
2-9】	-12.3496
疥	-12.3496
▁沂陽子曰	-12.3496
從微至著	-12.3496
深根固蒂	-12.3496
上元賜福天尊	-12.3496
凝神入炁穴	-12.3497
含德之厚	-12.3497
蹴	-12.3497
爇眞香	-12.3497
沕	-12.3498
一闔一闢	-12.3498
褚	-12.3499
邐	-12.3499
嗚	-12.3499
羔	-12.3499
還精補腦	-12.3499
愼終如始	-12.3499
𢎞	-12.3499
麤	-12.35
凡兹下民	-12.35
除惡想法	-12.35
出玄入牝	-12.3501
膩	-12.3501
眾信人等	-12.3501
殤	-12.3501
生人口誦志心朝禮北斗	-12.3501
旄	-12.3501
籃	-12.3502
飴	-12.3502
絞	-12.3502
姐	-12.3502
不疾不徐	-12.3502
杓	-12.3502
旙	-12.3503
無等無倫	-12.3503
睥	-12.3503
離口過法	-12.3503
弢	-12.3503
諂	-12.3503
鉗	-12.3504
獎	-12.3504
欝	-12.3504
丟	-12.3504
嚩	-12.3504
眞人之息以踵	-12.3504
髭	-12.3505
猗	-12.3505
悦	-12.3506
動極而靜	-12.3506
瀚	-12.3506
眤	-12.3506
毦	-12.3506
眞安土地神咒元始安鎭普告萬神嶽	-12.3506
鑛	-12.3506
閡	-12.3506
繙	-12.3506
疋	-12.3506
暦	-12.3507
黠	-12.3507
下元解厄天尊	-12.3507
苕	-12.3507
褁	-12.3507
脣	-12.3508
馬丹陽眞人	-12.3508
闠	-12.3508
幙	-12.3508
咳	-12.3508
賺	-12.3508
鯢	-12.3509
煜	-12.3509
除已具奏	-12.351
炮	-12.351
宕	-12.351
扈	-12.351
腭	-12.351
膂	-12.351
愬	-12.3511
冏	-12.3511
饜	-12.3511
欽承玉帝慈悲簡設	-12.3511
崗	-12.3511
以攝眾生妙如常現	-12.3512
褸	-12.3512
巇	-12.3512
僑	-12.3512
縞	-12.3512
咤	-12.3512
婪	-12.3512
隼	-12.3512
軻	-12.3512
义	-12.3512
荊	-12.3513
僮	-12.3514
詘	-12.3514
𥩟	-12.3515
愀	-12.3515
濮	-12.3515
起死回生	-12.3515
毫髮差殊	-12.3515
崒	-12.3516
紫虛魏祖元君疏曰此章分二段解	-12.3516
憒	-12.3517
翎	-12.3517
同出而異名	-12.3518
岌	-12.3518
璨	-12.3518
鷙	-12.3518
箸	-12.3518
哨	-12.3518
斁	-12.3518
緻	-12.3519
禄	-12.3519
秪	-12.3519
刄	-12.3519
站	-12.3519
瘠	-12.3519
篠	-12.3519
寘	-12.352
酋	-12.352
扑	-12.352
緱	-12.352
陁	-12.352
悰	-12.3521
匏	-12.3521
堊	-12.3522
寶符右符告下	-12.3522
漣	-12.3522
臣松之以爲	-12.3522
屎	-12.3522
簋	-12.3522
茁	-12.3522
尊帝二星	-12.3523
衅	-12.3523
剽	-12.3523
無何有之鄉	-12.3523
么	-12.3524
羯	-12.3524
擒孟獲	-12.3525
剜	-12.3526
曝	-12.3527
以喪禮處之	-12.3528
鴞	-12.3529
木牛流馬	-12.353
龔	-12.353
鼾	-12.3531
沠	-12.3533
開方便之門	-12.3534
華陽國志	-12.3537
籤	-12.3543
塌	-12.3547
太陰皇君天宫聖月	-12.3552
珏	-12.3554
喉神虎賁氣神引津心神丹元	-12.3805
氏敬書閬中朱道生晚成子敬	-12.4207
鋋	-12.4244
􂆣	-12.4253
手三界總管	-12.4261
肢	-12.4262
元帥日遊守	-12.4292
令下降覆護受持是此經者我勅	-12.4296
中元七炁赦罪	-12.4311
襖	-12.4315
:	-12.4315
也以時明之則	-12.4319
也以卦象之則	-12.4319
之卦也以年喻之則斗柄指	-12.4319
月也以律言之則	-12.432
也以候應之則	-12.432
是也以節比之則	-12.4321
稗	-12.4321
淬	-12.4322
乾上坤下	-12.4322
紱	-12.4323
詁	-12.4324
跑	-12.4324
神依形生	-12.4325
頁	-12.4325
鬱羅蕭臺	-12.4326
仭	-12.4326
讟	-12.4326
摺	-12.4326
㴱	-12.4327
荻	-12.4327
天花亂墜	-12.4327
黥	-12.4328
莾	-12.4328
刎	-12.4328
媧	-12.4328
覡	-12.4329
穽	-12.4329
心廣體胖	-12.4329
原始要終	-12.4329
哮	-12.4329
爆	-12.4329
淨身神咒靈寶天尊安慰身形法子	-12.4329
唫	-12.433
佛南無花開葉兒落	-12.433
五嶽四瀆	-12.433
殛	-12.4331
媵	-12.4331
狩	-12.4331
斬妖縛邪	-12.4331
莠	-12.4331
蹐	-12.4332
痰	-12.4332
三界伏魔靈佑協天大帝	-12.4332
嬪	-12.4332
晦朔弦望	-12.4333
𢹂	-12.4333
頥	-12.4333
勑	-12.4333
夙興夜寐	-12.4333
入水不溺入火不焚	-12.4333
緼	-12.4334
錬	-12.4334
拔逮根法	-12.4334
漉	-12.4334
袈	-12.4335
莅	-12.4335
或有能聞是此香者	-12.4335
𢷬	-12.4335
駛	-12.4335
浥	-12.4335
神威遠鎭天尊	-12.4336
彌牟鎭	-12.4336
柘	-12.4336
毎	-12.4336
聒	-12.4337
趎	-12.4337
篷	-12.4337
橡	-12.4337
漢晉春秋曰	-12.4338
廳	-12.4338
悸	-12.4338
玉皇心印妙經	-12.4338
呢	-12.4338
腿	-12.4338
九眞妙戒	-12.4338
借假修眞	-12.4339
闐	-12.4339
天魂地魄	-12.4339
百姓日用而不知	-12.434
甍	-12.434
禴	-12.434
瀛	-12.434
櫻	-12.4341
酒色財氣	-12.4341
雷聲普化天尊	-12.4341
蓴	-12.4341
自午至亥	-12.4341
與天地合其德	-12.4341
賾	-12.4342
㵼	-12.4342
嚧	-12.4342
碓	-12.4343
澟	-12.4343
臍下一寸三分	-12.4343
姨	-12.4344
静	-12.4344
獮	-12.4344
琥	-12.4344
猖	-12.4345
自始至終	-12.4345
九府百二十曹	-12.4345
儂	-12.4345
擠	-12.4345
壼	-12.4345
僵	-12.4345
倬	-12.4345
駝	-12.4346
罟	-12.4346
驩	-12.4347
朝屯暮䝉	-12.4347
嫂	-12.4347
磋	-12.4347
嵋	-12.4347
罇	-12.4347
翬	-12.4347
䕫	-12.4347
沓	-12.4348
弇	-12.4348
胝	-12.4348
𤱶	-12.4348
蟒	-12.4349
囓	-12.4349
兖	-12.435
恂	-12.435
磵	-12.435
朦	-12.435
吊	-12.435
鐔	-12.435
澎	-12.4351
榔	-12.4351
克己復禮	-12.4351
骷	-12.4351
黏	-12.4351
籖	-12.4352
檐	-12.4352
刊	-12.4352
唄	-12.4352
穫	-12.4354
范文正公	-12.4354
瀦	-12.4354
阿彌陀佛	-12.4355
傴	-12.4355
𪖙	-12.4355
聖曰九陽帝君天宫	-12.4355
劂	-12.4355
劾	-12.4356
俚	-12.4358
球	-12.4358
匙	-12.4358
喊	-12.4359
夤	-12.4359
秧	-12.4359
趕	-12.4359
伉	-12.436
邕	-12.436
如龍養珠	-12.4361
禬	-12.4361
竚	-12.4361
崙	-12.4362
㸃	-12.4363
諫議大夫	-12.4364
擦	-12.4364
溪得道龍宫官屬	-12.4365
喩	-12.4365
漪	-12.4365
跬	-12.4365
漳	-12.4369
鼐	-12.4369
糶	-12.4369
玉虛呂慈尊妙證	-12.4369
丏	-12.437
玉虛呂慈尊化	-12.4372
叡	-12.4375
鮒	-12.438
玉虛呂慈尊常存	-12.439
玉虛呂慈尊佑彼	-12.4397
者此字當惜下筆	-12.5199
婦人懷孕	-12.5211
蛤	-12.5212
苦皈命慈悲救苦尊願救	-12.5213
眞人仙醫普救	-12.5217
道地分居住奉道投誠善信	-12.5217
右乞爲大漢天下四川省	-12.5217
蓁	-12.5222
瘍	-12.5222
天地未判之先	-12.5222
胭	-12.5224
捶	-12.5225
好生度命天尊	-12.5227
大慈大悲救苦眞人大慈大悲	-12.5229
桔	-12.5232
咥	-12.5233
騖	-12.5234
戱	-12.5234
萋	-12.5234
霐	-12.5234
􂈜	-12.5234
瀹	-12.5235
櫺	-12.5235
元會運世	-12.5235
微乎微乎	-12.5235
􂈝	-12.5235
蛛	-12.5236
鰌	-12.5236
敬撰起讚	-12.5237
摠	-12.5237
普鍊帝君注曰	-12.5237
金丹花兒快樂念念上一聲佛南無	-12.5237
咒三遍畢叩齒咽津如前玄契曰修士久	-12.5238
咒完吸頂雲三咽結一神	-12.5238
一壑居士曰	-12.5238
七七四十九遍	-12.5238
瀬	-12.5239
犂	-12.524
鎚	-12.524
皁	-12.524
唸	-12.524
隄	-12.5241
此卦艮爲體而	-12.5241
灕	-12.5241
1-10】	-12.5241
繒	-12.5241
湄	-12.5241
金丹花兒勾	-12.5241
聖日聖月	-12.5241
刷	-12.5241
皞	-12.5242
颷	-12.5242
千經萬典	-12.5242
茵	-12.5242
嵾	-12.5242
蘸	-12.5243
薺	-12.5243
愚夫愚婦	-12.5243
歷	-12.5243
醍醐灌頂	-12.5243
厰	-12.5243
姫	-12.5243
饅	-12.5244
璜	-12.5244
攔	-12.5244
卞	-12.5244
北上金葢	-12.5244
騭	-12.5245
沐鈞陶	-12.5245
疢	-12.5245
觜	-12.5245
顥	-12.5246
猫	-12.5246
東宫慈父太乙尋聲救苦天尊主盟超度	-12.5246
棣	-12.5247
慼	-12.5247
擯	-12.5247
茀	-12.5247
淤	-12.5247
秕	-12.5247
靚	-12.5247
圄	-12.5248
縶	-12.5248
蕚	-12.5248
天下莫能與之爭	-12.5248
汩	-12.5248
譯	-12.5249
囹	-12.5249
洄	-12.5249
大洞帝一尊君	-12.5249
◎	-12.5249
蟊	-12.5249
凡得淨明法者	-12.525
豈虛言哉	-12.5251
璈	-12.5251
槽	-12.5251
𤢆	-12.5252
猾	-12.5252
遨	-12.5252
喇	-12.5252
東三南二	-12.5252
佇	-12.5252
咱	-12.5252
缸	-12.5253
萬正紫極眞人垂慈接教伏邪警世帝君	-12.5253
方大仙大聖救苦難	-12.5253
濂	-12.5253
㫋	-12.5254
齕	-12.5254
澁	-12.5254
眯	-12.5254
鞠躬盡瘁	-12.5254
鸛	-12.5255
思神鍊液	-12.5255
丿	-12.5255
券	-12.5255
愎	-12.5255
銕	-12.5255
汐	-12.5256
櫟	-12.5256
賙	-12.5257
汰	-12.5257
袒	-12.5258
壟	-12.5258
噏	-12.5258
蠆	-12.5259
箋釋玄天上帝曰	-12.5259
塚	-12.5259
御政養性伏食	-12.5259
楠木園	-12.5259
鶻	-12.526
廪	-12.5261
如影隨形	-12.5261
牋	-12.5261
砒	-12.5261
盱	-12.5261
沆	-12.5262
千和萬合	-12.5262
掊	-12.5262
殂	-12.5262
顛	-12.5262
抝	-12.5263
綆	-12.5263
膓	-12.5263
帔	-12.5264
賛	-12.5264
沫	-12.5264
須至移文者	-12.5264
懊	-12.5265
搦	-12.5265
蒐	-12.5266
潼	-12.5267
刈	-12.5267
爰偕道眾	-12.5268
謎	-12.5269
苓	-12.5269
淖	-12.5269
莎	-12.5269
踊	-12.5269
抺	-12.5272
罏	-12.5272
螣	-12.5273
櫬	-12.5273
舫	-12.5273
匾	-12.5275
㕔	-12.5275
衿	-12.5275
纛	-12.5277
彗	-12.5278
泌	-12.528
貫詞意中謝	-12.5281
彎	-12.5281
方輿勝覽	-12.5283
靣	-12.5287
心皈命禮太上彌羅無上天妙有玄眞境	-12.5339
心朝禮九天應元雷聲普化天尊	-12.5504
治世福顯利幽弭災集慶法懺	-12.553
靈左社右稷不得妄驚回向正道内外澄	-12.5957
􂆢	-12.6149
元帥罡班第	-12.6177
之雷書曰一乃	-12.618
元帥夜遊罰惡	-12.6193
夀其得夀以	-12.6198
見患禳星	-12.6215
眞形符命右符宣告	-12.6217
禿	-12.6218
等解禳災厄增益延齡謹奏天運年月日	-12.6219
舁	-12.622
唎吽吽吽東極宫中破開酆都第	-12.6221
眞人大慈大悲拔罪眞人大慈大悲	-12.6222
光垣帝君注曰	-12.6224
汛	-12.6226
弟子皈命願得長生右謹上奏天	-12.6226
祺	-12.6227
霹	-12.6227
箎	-12.6228
苐	-12.6229
瓈	-12.6229
呬	-12.6229
陰盡陽純	-12.6229
坼	-12.623
蓐	-12.623
眞人大慈大悲大惠眞人大慈大悲	-12.623
砍	-12.623
捺	-12.6231
耋	-12.6232
皈神皈身皈命	-12.6232
蝨	-12.6233
覷	-12.6233
一粒粟中藏世界	-12.6234
悋	-12.6234
謹炷眞香䖍誠上啟	-12.6234
扭	-12.6235
涖	-12.6235
是失氣之門	-12.6235
圮	-12.6236
箆	-12.6236
日麗億天	-12.6236
瑤華帝君注曰	-12.6236
􂅶	-12.6236
蔑以加矣	-12.6236
渾渾沌沌	-12.6236
李息齋曰	-12.6236
囘向正道内外澄淸各安方位備守	-12.6237
一生二二生三三生萬物	-12.6237
星君乞爲奉道	-12.6237
桎	-12.6237
任督二脈	-12.6237
捫心多愧	-12.6238
魂魄五臟玄冥青龍白虎隊仗紛紜朱雀	-12.6238
字皆太上無上大光明圓滿大神	-12.6239
所受神咒誥命	-12.6239
搶	-12.624
鏁	-12.624
盲修瞎煉	-12.624
蘅	-12.624
重刻道藏輯要	-12.624
含生均叨	-12.6241
櫝	-12.6241
誠惶誠恐稽首頓首俯伏百拜上	-12.6241
跽	-12.6241
眞仙聖眾一切威靈符命所臨如誥奉行	-12.6241
偽	-12.6242
右玉皇誥命以錫	-12.6242
縛魅保命護身智慧明淨心神安甯三	-12.6242
躚	-12.6242
伏羲文王周公孔子	-12.6243
母隱子胎	-12.6243
玉淸内相金闕選仙	-12.6243
灸	-12.6243
靉	-12.6243
窬	-12.6243
化身爲三教之師掌法判五雷之令	-12.6244
娃	-12.6244
霶	-12.6244
舸	-12.6244
天仙正理直論	-12.6245
日積月累	-12.6245
怱	-12.6245
何祖元君曰	-12.6245
鬥	-12.6245
种	-12.6246
綾	-12.6246
解釋重泉幽暗徧告	-12.6246
簮	-12.6246
記袁宏道	-12.6246
譊	-12.6247
庀	-12.6247
嶔	-12.6247
畨	-12.6247
轉告冥京	-12.6247
治院曹靖	-12.6247
專心致志	-12.6247
儷	-12.6248
妙法元君注曰	-12.6248
蕖	-12.6248
痢	-12.6248
或稽延一如誥命風火驛傳天運年月日	-12.6248
扯	-12.6248
領詞䖍切勉爲宣行	-12.6249
不凋不殘	-12.6249
亢龍有悔	-12.6249
𡨚仇和釋罪報停閑永度三途五苦之源	-12.6249
豊	-12.625
案執法典吏拔度當齋亡過	-12.625
雎	-12.625
争	-12.625
櫓	-12.625
籓	-12.625
伏乞仁慈洞囘昭格	-12.6251
鋩	-12.6251
㳂	-12.6251
襤	-12.6251
珞	-12.6251
囷	-12.6251
粵	-12.6251
坎戊月精	-12.6252
挕	-12.6252
蚿	-12.6252
又一掃光照見	-12.6252
瀆眞官土地祗靈左社右稷不得妄驚	-12.6252
璫	-12.6252
肴	-12.6253
雋	-12.6253
玉樞右宰宏教眞君玉宸少宰宏濟眞君	-12.6253
哽	-12.6254
溼	-12.6254
侃	-12.6254
浮邱仙祖曰	-12.6254
獨往獨來	-12.6254
筯	-12.6255
心肝脾肺腎	-12.6255
湊	-12.6255
咸令知悉	-12.6255
此戒要弟子發	-12.6256
崚	-12.6256
代大匠斵	-12.6256
嗤	-12.6256
玉華帝君注曰	-12.6256
俎	-12.6257
顫	-12.6257
趂	-12.6257
煒	-12.6258
惡悔心誓永戒玉皇大天尊赦消一切罪	-12.6258
勦	-12.6259
浮邱眞君王郭二仙	-12.6259
厝	-12.626
醅	-12.626
𣗥	-12.626
絙	-12.626
柰	-12.626
殱	-12.6261
蛩	-12.6262
髙	-12.6262
煨	-12.6262
擷	-12.6262
鵷	-12.6262
忖	-12.6262
伫	-12.6262
笳	-12.6262
櫂	-12.6262
柟	-12.6262
持否眾白盡形夀命常持此心依教奉行	-12.6263
鎰	-12.6263
絶聖棄知	-12.6263
褫	-12.6263
竢	-12.6264
瀣	-12.6264
湔	-12.6264
翥	-12.6264
須要自今以始迄無量劫世界有盡我此	-12.6264
隰	-12.6264
皦	-12.6265
蔥	-12.6265
眥	-12.6266
上帝云受戒者	-12.6266
是教爾等發	-12.6266
滉	-12.6266
弑	-12.6266
扛	-12.6267
獬	-12.6267
神鄉三宫九府一百二十曹主管罪錄	-12.6268
㳫	-12.6269
洲仙府得道一切上眞	-12.627
肄	-12.627
奐	-12.627
巋	-12.6271
从	-12.6271
締	-12.6272
筭	-12.6272
且緩打我	-12.6275
福地仙官聖眾	-12.6275
汴	-12.6275
怵惕惻隱	-12.6275
柬	-12.6276
官司執職香火笤籖一切真靈仙官聖衆	-12.6276
倨	-12.6278
唘	-12.6278
曬	-12.6278
郿	-12.6279
大真君同參勘案六	-12.6279
大真君同知勘案六	-12.6279
皙	-12.628
西華帝君注曰	-12.6282
郫	-12.6284
喑	-12.6285
眞人其詞畧曰以爾	-12.6287
首尾同吳君	-12.6291
䀮	-12.6295
聴	-12.6304
制魔保舉度品南宫死魂受鍊仙化成人	-12.7233
􂆡	-12.7246
天尊大悲統部南府	-12.73
皈命慈航救苦尊救此	-12.7316
元帥夜遊賞善	-12.7318
柔弱勝剛强	-12.732
泆	-12.7329
江水帝龍王	-12.7329
瓞	-12.733
天大利順聖	-12.7333
厄大聖北斗七元君能解	-12.7333
鬪	-12.7333
唻	-12.7334
𡄦	-12.7334
大真君左副都監	-12.7335
􂃧	-12.7336
狃	-12.7336
玉皇大天尊玄穹高上帝䖍誦玉誥一遍	-12.7338
釋德淸曰此	-12.7338
醬	-12.7339
瀨	-12.7339
厄大聖北斗九皇君能解	-12.7339
震艮巽兌	-12.7339
暨	-12.734
眞符謹當告下	-12.734
火記六百篇	-12.734
爰居爰處	-12.734
恭望天慈俯降瑤壇監臨鍊度亡過	-12.734
眞人協佐都府天醫	-12.734
紀𡻕年月日時甲子㑹逢是	-12.734
痁	-12.7341
爰偕法眾敬	-12.7341
港	-12.7341
𣺌𣺌紫金闕太微玉淸宫無極	-12.7342
煇	-12.7342
重積愆敢不懴陳以乞原赦爰偕道眾敬	-12.7342
三天扶教正一靜應顯佑眞君張證盟	-12.7342
囫囫圇圇	-12.7342
扆	-12.7342
我好靜而民自正	-12.7343
渾渾噩噩	-12.7344
府主死太陰水官	-12.7345
胖	-12.7345
獃	-12.7345
哼	-12.7346
䜿	-12.7346
負陰而抱陽	-12.7346
唔	-12.7347
𤓰	-12.7347
紫虛魏祖元君疏曰此章分三段解	-12.7348
鬂	-12.7348
坌	-12.7348
府主生太陽火官	-12.7349
宏教弟子柳守元熏沐題詞	-12.7349
箋釋九天應元雷祖天尊曰	-12.7349
朂	-12.7349
視之不見聽之不聞	-12.7349
天尊掌管土政	-12.7349
父精母血	-12.735
咒空洞自然之書一名	-12.735
菡	-12.735
玉書曰敬稽	-12.7351
地獄冥官主者息破剖判	-12.7351
山記王思任	-12.7351
陽上簡右符告下	-12.7351
虀	-12.7351
爲之保護若在	-12.7351
礮	-12.7352
壠	-12.7352
蘗	-12.7352
眞將來託生人中獲	-12.7352
暍	-12.7352
湖湖伯得道尊神	-12.7352
霪	-12.7353
珂	-12.7353
鐻	-12.7353
以道佐人主	-12.7353
疹	-12.7353
皈依信禮至心朝禮	-12.7354
狶	-12.7354
𠐒	-12.7354
仔	-12.7354
胤	-12.7355
彜	-12.7355
遹	-12.7355
嘟	-12.7355
六十甲子運轉星君	-12.7355
當境城隍顯佑尊神	-12.7355
人能常淸靜天地悉皆歸	-12.7355
鍊形育質度上南宫一如誥命風火驛傳	-12.7355
槍	-12.7356
三寶萬靈法懺下元道士王守上閱	-12.7356
而成是欲知生	-12.7356
捴	-12.7356
㘭	-12.7356
螽	-12.7357
禰	-12.7357
酌水獻花	-12.7357
崦	-12.7357
東厨司命竈君尊神	-12.7357
痔	-12.7357
靜一工夫貴細研	-12.7357
拜請慈航道姥尊觀世音	-12.7357
洸	-12.7357
坵	-12.7357
呾	-12.7357
絡俾令亡	-12.7357
作玄嗣之梯航大聖大慈大仁大孝開山	-12.7358
􂋧	-12.7358
很	-12.7358
同臨靑華會拜請	-12.7358
浯	-12.7358
夢覺忘世上之功名寶劍光	-12.7358
曖	-12.7359
騰掃人間之妖怪四生六道有感	-12.7359
賅	-12.7359
蜓	-12.7359
琶	-12.7359
愛人者一次爲	-12.7359
謂之戒行圓成戒行圓成者得	-12.7359
𣑱	-12.7359
宇宙在乎手萬化生乎身	-12.736
華葢掌道孚佑上帝	-12.736
碌	-12.736
梏	-12.736
鏹	-12.736
楨	-12.736
隗	-12.736
琤	-12.736
麄	-12.736
勲	-12.7361
歃	-12.7361
𡸅	-12.7361
敢忘伊始稽首皈依五體投地至心朝禮	-12.7361
鈕	-12.7361
及附薦沉幽等魂承	-12.7361
魂神澄正朝謁天闕上帝有勅開	-12.7361
垤	-12.7361
凡曰有生均	-12.7361
慇	-12.7361
婿	-12.7361
擄	-12.7361
豳	-12.7361
嗈	-12.7361
惇	-12.7362
澦	-12.7362
沈蛟門曰	-12.7362
醪	-12.7362
霈	-12.7363
􂂈	-12.7363
猫捕鼠	-12.7363
滸	-12.7364
町	-12.7364
癉	-12.7364
埜	-12.7364
鴒	-12.7365
咐	-12.7365
痾	-12.7365
侑	-12.7366
鍔	-12.7366
糴	-12.7367
淇	-12.7367
度亡魂玉簡右符告下	-12.7367
迕	-12.7367
􂋔	-12.7367
癤	-12.7368
朮	-12.7368
嵬	-12.7368
鱠	-12.7368
遄	-12.7368
七縱七擒	-12.7368
悴	-12.7368
幔	-12.7368
式憑睿號皈命高眞切慮無始以來或犯	-12.7369
鋼	-12.7369
吮	-12.737
梵監須延天	-12.737
東嶽天齊仁元聖	-12.7371
贄	-12.7371
厶	-12.7371
嶓	-12.7372
綉	-12.7372
𤊔	-12.7372
禆	-12.7372
兵者不祥之器	-12.7372
估	-12.7372
邏	-12.7373
鷓	-12.7373
楙	-12.7373
鞫	-12.7373
販	-12.7373
坎男離女	-12.7373
孳	-12.7374
鋏	-12.7374
盖	-12.7376
磷	-12.7377
鴣	-12.7377
晁	-12.7378
伏請照詳謹牒	-12.7378
箔	-12.7378
磔	-12.7379
蹢	-12.7379
僣	-12.7379
淸紫微中天北斗九皇七元救生濟死	-12.7379
心千戒萬戒無非圓滿這個	-12.738
珥	-12.738
侗	-12.738
沗	-12.7381
阼	-12.7381
律之罪勅令第	-12.7381
薑	-12.7381
嫠	-12.7381
瞪	-12.7381
上上禪善無量夀	-12.7385
矣此諸玉女亦同此淸淨	-12.7386
宙	-12.7388
懂	-12.7389
大真君參訂勘案六	-12.7391
讃	-12.7392
得道尊靈海府神	-12.7392
潞	-12.7393
􂆨	-12.7394
洞經示讀	-12.7396
窖	-12.7399
玉清贊化九天演政分化	-12.7399
孱	-12.7404
譌	-12.7408
申請特遷仙仗	-12.7587
回向正道内外澄淸各安方位備守	-12.7592
九天應元雷聲普化	-12.7767
天尊大悲神霄化運天星失	-12.8551
元帥地煞裨將	-12.8553
厄人禮洞玄懺能解	-12.8553
元帥嶽府太保	-12.8563
以百姓之心爲心	-12.8564
善信人等是日叩干	-12.8573
槔	-12.8576
外其身而身存	-12.8576
偎	-12.8576
不敢爲主而爲客	-12.8577
玉樞右宰宏教眞君	-12.8579
凢	-12.858
嗄	-12.858
教金闕萬福護身眞人流演萬眞	-12.8582
嗃	-12.8582
南嶽司天大化昭聖	-12.8583
太陽流珠常欲去人	-12.8586
大聖大慈大悲大願昔未曽有	-12.8587
凊	-12.8588
柑	-12.8589
妙行眞人黃籙㑹中諸大眞人	-12.8589
玉淸應化現金身大開甘露門	-12.8589
坷	-12.859
靈魂及祖先亡神職下元幽界孤	-12.859
鍊度返生玉符右符告下	-12.859
玘	-12.8591
蚓	-12.8591
咫	-12.8592
笄	-12.8592
箠	-12.8592
投誠善信右洎合人等消災度厄增福延	-12.8592
星君大聖北斗九皇第	-12.8592
薤	-12.8593
不極頌揚疇知	-12.8593
𦤀	-12.8593
貴大患若身	-12.8594
猊	-12.8594
臚	-12.8594
縲	-12.8594
與天地合其德與日月合其明	-12.8594
儵	-12.8594
鴝	-12.8595
寞	-12.8595
祼	-12.8596
訣曰前聖金一斤	-12.8596
皐	-12.8596
臠	-12.8596
闞	-12.8596
靑龍白虎隊仗紛紜朱雀玄武侍	-12.8596
鱸	-12.8596
憬	-12.8597
鬯	-12.8597
恭望道慈允	-12.8597
孃	-12.8597
腓	-12.8597
歐	-12.8598
粃	-12.8598
蛆	-12.8598
猝	-12.8598
鴿	-12.8598
汔	-12.8599
􂁣	-12.8599
填	-12.86
壎	-12.86
蹵	-12.8601
土眞君爕理土政	-12.8601
天上人間信受奉行第	-12.8601
蜎	-12.8601
幬	-12.8601
唎吽吽吽東極宫中破開酆都十	-12.8601
能持此戒是曰	-12.8601
魂精秘旨内諱玉佩	-12.8601
堙	-12.8602
瓔	-12.8603
縕	-12.8603
魈	-12.8603
鵶	-12.8603
眞戒汝等仙子可能持否	-12.8603
謊	-12.8603
上藥三品神與氣精	-12.8603
動而生陽靜而生陰	-12.8603
穠	-12.8603
洞曉陰陽深達造化	-12.8603
内觀其心心無其心外觀其形形無其形	-12.8603
金來歸性初乃得稱還丹	-12.8603
矇	-12.8604
膈	-12.8604
迯	-12.8605
岸畧陳本末用代敷宣淨潔齋壇恭同法	-12.8605
溲	-12.8605
寶符右符上告	-12.8605
噠	-12.8605
鉦	-12.8606
舵	-12.8606
挿	-12.8606
􂃒	-12.8606
妁	-12.8606
蝝	-12.8606
秉誠跪拜	-12.8607
韈	-12.8607
葑	-12.8608
鰥寡孤獨	-12.8608
君玉宸少宰	-12.8608
郴	-12.8608
執法眞士金體原編輯古零步雲房重修	-12.8608
駑	-12.8608
饘	-12.8608
紓	-12.8608
諠	-12.8608
縠	-12.8609
承誥奉行祖師龍門正宗天仙狀元	-12.8609
旴	-12.8609
邶	-12.8609
邽	-12.8609
薊	-12.8609
鼷	-12.8609
君子居其室出其言善則千里之外應之	-12.8609
泚	-12.8609
曺	-12.8609
柚	-12.8609
嶙	-12.861
叩干元造意者	-12.861
踣	-12.861
道生一一生二二生三三	-12.861
襪	-12.861
瞭	-12.861
芷	-12.861
谺	-12.861
聃	-12.861
鎬	-12.861
賖	-12.861
鋟	-12.861
祧	-12.8611
蹰	-12.8611
眞人潛深淵浮游守規中	-12.8611
眎	-12.8611
駱	-12.8612
吚	-12.8612
飜	-12.8612
簒	-12.8612
雩	-12.8612
􂊑	-12.8612
戎馬生於郊	-12.8613
胙	-12.8613
倮	-12.8613
徭	-12.8613
虱	-12.8614
樾	-12.8614
潢汙之薦	-12.8614
罍	-12.8614
江司理得道尊神	-12.8614
棃	-12.8614
蕨	-12.8614
牒本司得此除已依科修奉外	-12.8614
盭	-12.8614
娣	-12.8614
鄉坊里域社令尊神	-12.8614
䟦	-12.8615
莞	-12.8615
玦	-12.8615
萼	-12.8615
嫣	-12.8615
扺	-12.8615
瓴	-12.8615
篩	-12.8616
芋	-12.8616
栻	-12.8616
崿	-12.8616
漙	-12.8616
靈魂出離長夜暏見光明	-12.8616
磁石吸鐵	-12.8617
䌓	-12.8617
恍兮惚兮	-12.8617
遠觀其物物無其物	-12.8617
膿	-12.8617
昵	-12.8617
歹	-12.8618
蝡	-12.8618
令下降覆護受持是此經者勅命	-12.8618
靈寶天尊東極慈父太乙救苦天尊證盟	-12.8618
窑	-12.8618
掞	-12.8618
佔	-12.8618
頎	-12.8619
皜	-12.8619
㮣	-12.8619
謇	-12.8619
咈	-12.8619
茭	-12.862
桁	-12.862
髳	-12.862
如法持念是此眞經	-12.862
鉏	-12.862
箑	-12.862
懘	-12.8621
隧	-12.8621
崎	-12.8621
犖	-12.8621
輓	-12.8622
龐	-12.8622
係薦亡魂幽爽	-12.8622
籩	-12.8622
癱	-12.8623
杼	-12.8623
伏乞仁慈俯賜昭格	-12.8623
禔	-12.8623
橈	-12.8623
榦	-12.8624
捄	-12.8624
罣	-12.8624
鵞	-12.8625
腊	-12.8625
諟	-12.8625
枰	-12.8625
猱	-12.8627
鄢	-12.8627
請照詳事理	-12.8627
又天邊月月影	-12.8627
闉	-12.8628
顱	-12.8628
艤	-12.8628
蓂	-12.863
摛	-12.863
餧	-12.8631
沍	-12.8631
撝	-12.8631
喔	-12.8632
𣣱	-12.8632
條命北斗第	-12.8633
嚶	-12.8633
霞仙姬巫山	-12.8633
潙	-12.8634
礦	-12.8635
鍋	-12.8635
矮	-12.8636
璉	-12.8637
漢賊不兩立王業不偏安	-12.8638
戛	-12.8639
饞	-12.864
贔	-12.8641
纆	-12.8643
肋	-12.8647
􂆪	-12.8651
梱	-12.8651
𦕟	-12.8657
殅	-12.8658
煑	-12.8664
善信人等是日叩干元造意者	-12.8667
逓	-12.8669
舌神正倫通命養神羅千齒神却邪衞	-12.9116
道形神昇度謁帝天闕福智自在參侍龍	-12.9744
聖慈允今申請特	-12.9798
於孝有虧我孝父母	-12.9953
誃	-12.9998
天曹太皇萬福眞君	-13.0006
虛化神神化氣氣化	-13.0006
歪	-13.0007
鬨	-13.0007
濙	-13.0008
元始安鎭普告萬神嶽瀆眞官土地	-13.0009
嵎	-13.001
●	-13.0011
持念是七元寶號	-13.0011
邠	-13.0011
蒭	-13.0012
抃	-13.0014
㢲	-13.0015
東嶽齊天大生仁聖	-13.0016
閧	-13.0016
陳焦面之齋	-13.0016
杰	-13.0017
坻	-13.0017
芍	-13.0018
广	-13.0018
澣	-13.0019
讚靑玄帝主太一慈尊	-13.002
恡	-13.002
至心稽首禮謝無上虛皇正眞三寶伏念	-13.002
地分生長人氏享年	-13.002
踽	-13.0021
魋	-13.0022
𠻳	-13.0022
腠	-13.0023
俑	-13.0023
隲	-13.0023
接引羣倫早出愛河津	-13.0024
譖	-13.0025
吿九天乾羅怛那洞罡太玄斬妖	-13.0025
坏	-13.0025
念自劫數相沿生人多	-13.0025
矅	-13.0025
蹷	-13.0025
漱	-13.0026
蝤	-13.0026
霳	-13.0026
癃	-13.0027
癯	-13.0027
懸象著明莫大乎日月	-13.0027
嬗	-13.0028
陬	-13.0028
秘文三十二字書於	-13.0028
纈	-13.0028
鄉坊里域社令尊神雲空過往糾察尊神	-13.0029
哥	-13.0029
劌	-13.0029
嗌	-13.0029
糓	-13.0029
掙	-13.0029
撈	-13.0029
嗎	-13.0029
綍	-13.003
飪	-13.003
咿	-13.003
得金華轉而相因	-13.003
蚯	-13.0031
首自亡正天分度保	-13.0031
鬱儀陽曦帝君月華天女太素結璘皇君	-13.0031
檣	-13.0032
伹	-13.0032
䓤	-13.0032
冥慧洞清大量玄玄一如誥命風火驛傳	-13.0032
笮	-13.0032
槌	-13.0032
輾	-13.0032
汭	-13.0032
喞	-13.0032
乗	-13.0033
天道無親常與善人	-13.0033
其大無外其小無内	-13.0033
玉清鎭滅火運眞符右符吿下	-13.0033
奭	-13.0034
沇	-13.0034
襘	-13.0035
熠	-13.0035
壩	-13.0035
洳	-13.0035
孚佑帝君曰此篇爲玄宗第	-13.0035
恝	-13.0035
洞衍法門之香火	-13.0035
蜿	-13.0036
荗	-13.0036
易有太極是生兩儀	-13.0036
圻	-13.0036
刲	-13.0036
楸	-13.0037
鷇	-13.0037
飣	-13.0037
藁	-13.0038
詳前事理卽便	-13.0038
櫪	-13.0038
𣾀	-13.0038
嘹	-13.0038
告九天乾羅怛那洞罡太	-13.0038
盼仙斾臨軒令	-13.0039
廂	-13.0039
崶	-13.0039
撾	-13.0039
玃	-13.0039
當齋應薦亡	-13.0039
碔	-13.004
芊	-13.004
阡	-13.004
飬	-13.004
籜	-13.004
無上内秘眞藏經	-13.004
壚	-13.004
塍	-13.0041
火府扶桑丹陵大帝	-13.0041
男女媾精萬物化	-13.0041
泐	-13.0042
嶄	-13.0042
峋	-13.0042
掣電轟雷	-13.0042
菅	-13.0042
囫	-13.0042
砆	-13.0042
霤	-13.0042
酪	-13.0043
圇	-13.0043
獺	-13.0043
㬪	-13.0043
哦	-13.0043
毖	-13.0044
窆	-13.0044
澮	-13.0044
魁𩲃𩵄䰢魓𩳐魒	-13.0044
冢	-13.0044
揩	-13.0044
槿	-13.0045
偁	-13.0045
踴	-13.0045
赧	-13.0045
紡	-13.0045
杞	-13.0046
娩	-13.0046
諸惡莫作眾善奉行	-13.0046
懃	-13.0046
礬	-13.0046
以無制有器用者空	-13.0046
枳	-13.0047
嗒	-13.0047
崕	-13.0047
麝	-13.0047
枲	-13.0047
鱔	-13.0048
之難所以爲大不易者	-13.0048
襃	-13.0049
漭	-13.005
􂊫	-13.005
脰	-13.005
睂	-13.005
刋姪瑛春城朱瓚素園仝校字男璜磻溪	-13.005
驍	-13.0051
棕	-13.0051
畿	-13.0051
酩	-13.0051
縑	-13.0051
儌	-13.0052
鄆	-13.0052
殮	-13.0052
担	-13.0053
荅	-13.0053
􂆯	-13.0053
𧲣	-13.0053
鐃	-13.0053
無任激切屏營之至謹	-13.0053
蹌	-13.0054
盒	-13.0054
録	-13.0054
瑗	-13.0054
啝	-13.0054
圠	-13.0055
浡	-13.0055
溉	-13.0055
搥	-13.0056
菰	-13.0056
遒	-13.0056
褥	-13.0056
窶	-13.0057
礱	-13.0058
紿	-13.0059
詒	-13.0059
承誥奉行東極慈父太乙救苦天尊證盟	-13.0059
誶	-13.006
茯	-13.0061
日延仗羽人	-13.0061
徯	-13.0062
莪	-13.0062
掜	-13.0062
讁	-13.0063
琛	-13.0064
矜孤恤寡	-13.0064
靑黃赤白黑	-13.0065
殯	-13.0065
嘏	-13.0065
燹	-13.0066
鏃	-13.0067
篲	-13.0067
蓏	-13.0067
蚋	-13.0068
貉	-13.0068
萬物統體一太極	-13.0069
畎	-13.007
玉帝夙修常淸淨	-13.0071
癲	-13.0072
右洎合會善信人等	-13.0072
鈔	-13.0077
鎧	-13.0077
埵	-13.008
帕	-13.0083
脹	-13.0085
虛靜恬淡寂寞無爲	-13.0103
祗靈左社右稷不得妄驚	-13.0321
演正警化孚佑帝君興行妙道天尊	-13.0746
純陽演正警化孚佑帝君	-13.0924
袛	-13.153
而戲笑者一次爲二過見人	-13.1634
大悲西斗紀名天尊大悲中	-13.1659
天尊大悲周天眾星合算應福天尊大悲	-13.166
東方木德翠林天尊大悲南方火德赤	-13.166
靑靈始老蒼帝	-13.1661
大悲炎光太陽日德耀輪天尊大悲素靈	-13.1662
黑帝天尊大悲上靈元老黃帝天尊大悲	-13.1662
大淸國四川奉道投詞	-13.1663
瀆得道之神龍宫官屬	-13.1663
承天效法后土大帝	-13.1664
道統宗天尊大悲老祖純陽演正孚佑眞	-13.1665
南斗六司延夀天尊大悲東斗主算天尊	-13.1666
大悲中嶽中天大甯崇聖天尊大悲	-13.1666
悲先天盤古周御國王天尊大悲中天斗	-13.1667
天尊大悲北嶽安天大貞元聖天尊	-13.1669
𥛬	-13.167
嘩	-13.1672
信人等是日叩干神造意者切以	-13.1672
頊	-13.1673
䖟	-13.1673
佑聖眞武仁威上帝金闕天尊大悲	-13.1673
至孝驅魔寶光大道鸞化天尊大悲	-13.1677
逄	-13.1677
簸	-13.1677
一曰慈二曰儉三曰不敢爲天下先	-13.1678
欲作伏食仙宜以同類者	-13.1678
緗	-13.1678
願衆生世世生生皈	-13.1679
大悲上元九炁賜福天尊	-13.1679
解阨天尊大悲乾元三炁延夀天尊大悲	-13.1679
靈符稽首南宸第	-13.1679
顰	-13.168
嚷	-13.168
?	-13.168
抓	-13.168
膴	-13.168
推情合性轉而相與	-13.1681
塤	-13.1682
棖	-13.1684
上道君在玉淸聖境演說至眞妙道尊經	-13.1684
屧	-13.1684
戽	-13.1684
上元九炁賜福天官曜靈元陽大帝	-13.1684
癆	-13.1685
倘有不順按律施行	-13.1685
臾	-13.1685
胯	-13.1686
莩	-13.1686
仁更廣悲思之德	-13.1686
水者道樞其數名一	-13.1686
魒	-13.1686
坴	-13.1687
羗	-13.1687
憮	-13.1687
呿	-13.1688
自皈依經當願眾生	-13.1688
諜	-13.1688
子南午北互爲綱紀	-13.1688
治大國若烹小鮮	-13.1688
貙	-13.1688
㗳	-13.1688
產在坤種在乾	-13.1688
蛸	-13.1689
斝	-13.1689
洎合家孝眷人等	-13.1689
玄功廣博大悲大願大聖大慈無量度人	-13.1689
幘	-13.169
燐	-13.169
致心朝禮上淸眞境靈寶天尊	-13.169
渠縣王妙生雲朋重刋	-13.169
三寶十方三界萬靈保生治世福顯利幽	-13.169
諤	-13.169
餂	-13.1691
酲	-13.1691
痺	-13.1691
唪	-13.1691
▁續刻道藏輯要	-13.1691
東方安寶華林靑靈始老蒼帝	-13.1691
西天竺國大智光中眞空妙	-13.1692
六五坤承結括終始	-13.1692
斸	-13.1692
悲大願大聖大慈聖德巨光天后摩利攴	-13.1692
一赦宥會内人等所犯	-13.1692
鸎	-13.1693
古之所謂曲則全者	-13.1693
自然之所爲兮非有邪僞道	-13.1693
帝圓明道姥天尊	-13.1693
輝寶杵旋時鬼神失色顯靈	-13.1693
元始安鎭普吿萬神嶽瀆眞官土地	-13.1693
愒	-13.1694
囀	-13.1694
傷亡符命謹當吿下	-13.1694
趍	-13.1694
􂀿	-13.1694
祻	-13.1694
天尊大悲掌嗣院錫	-13.1695
壈	-13.1695
驁	-13.1695
當境城隍祀典尊神	-13.1696
貞明上聖雷祖大帝	-13.1696
綮	-13.1696
趦	-13.1696
橦	-13.1696
舶	-13.1696
以智治國國之賊	-13.1696
無名天地之始有名萬物之母	-13.1697
欷	-13.1697
鏆	-13.1697
0044_	-13.1697
鷃	-13.1697
羙	-13.1697
玉府闡教妙達眞人孟珙敬撰起讚	-13.1697
睠	-13.1698
磈	-13.1698
忘形以養氣忘氣以養神忘神以養虛	-13.1698
物理窺開後人情照破時	-13.1698
趄	-13.1698
眞君爕理都府天醫	-13.1698
肓	-13.1698
詵	-13.1699
嵂	-13.1699
酖	-13.1699
洌	-13.1699
身紫金瑞相隨機赴感誓願無邊大	-13.1699
蚖	-13.17
斗母尊願我速	-13.17
砢	-13.17
㖠	-13.1701
凸	-13.1701
學仙須是學天仙惟有金丹最的端	-13.1701
圓陀陀光爍爍	-13.1701
混元六天傳法教主	-13.1701
天應星地應潮	-13.1701
棚	-13.1701
尊神准今玉文滅伏火殃	-13.1701
偓	-13.1701
㾮	-13.1701
膻	-13.1701
渰	-13.1701
扮	-13.1702
黙	-13.1702
瘖	-13.1702
可韓司丈人眞君九天採訪使妙化眞君	-13.1702
澌	-13.1702
等忝列玄門仰	-13.1702
醫王主瘟都天大帝	-13.1702
􂋉	-13.1702
潯	-13.1702
斗母尊願我早	-13.1702
棐	-13.1702
靴	-13.1702
朅	-13.1703
瘧	-13.1703
谼	-13.1703
眦	-13.1703
纊	-13.1703
乾道成男坤道成女	-13.1703
蒯	-13.1703
賸	-13.1703
䲭	-13.1703
元始符命金籙白簡長生靈符	-13.1703
魂之與魄互爲室宅	-13.1704
晬	-13.1704
紈	-13.1704
􂉷	-13.1705
瓊琯眞人集宋海南白玉蟾著	-13.1705
必孚三界十方無求不應黃鶴樓中留	-13.1705
剿	-13.1705
匈	-13.1705
槳	-13.1705
丢	-13.1705
虛殿内煉丹砂存芝像於山崖顯仙	-13.1706
二用無爻位周流	-13.1706
蠏	-13.1706
蜚	-13.1706
厪	-13.1707
人心惟危道心惟微	-13.1707
嶒	-13.1707
賬	-13.1707
咲	-13.1707
堡	-13.1707
璩	-13.1708
苻	-13.1708
獠	-13.1708
致虛極守靜篤	-13.1708
奩	-13.1708
(●●●●●●●●)	-13.1708
壖	-13.1708
缾	-13.1708
耳目口三寶閉塞勿發通	-13.1708
迫而後動不得已而後起	-13.1708
緑	-13.1708
喆	-13.1708
筦	-13.1709
臰	-13.1709
雯	-13.1709
委志歸虛無無念以爲常	-13.1709
戡	-13.171
瑠	-13.171
髀	-13.171
幌	-13.1711
内有霹𩆝雷神隱名洞慧交徹五	-13.1711
瞠	-13.1711
九竅之邪在乎三要	-13.1711
訦	-13.1711
百善轉輪得大	-13.1711
鼃	-13.1711
牴	-13.1711
柵	-13.1711
莫不尊道而貴德	-13.1711
𨗳	-13.1712
矌	-13.1712
蹬	-13.1712
勿犯戒服第二十	-13.1713
礫	-13.1713
祖師三天教主正一眞君張證盟玉清	-13.1713
虎皮座張眞人	-13.1714
鑼	-13.1714
無想無結無愛天	-13.1714
霰	-13.1714
儋	-13.1714
泬	-13.1714
此卦以坤爲體以	-13.1714
紵	-13.1714
犇	-13.1715
眈	-13.1715
鼇	-13.1715
𤁋	-13.1715
取將坎位中心實	-13.1715
縋	-13.1715
箐	-13.1715
雒	-13.1716
鏞	-13.1716
饔	-13.1716
紫微金格高上玉皇本行集經闡微卷	-13.1716
謹錄來詞昧罪伏地	-13.1717
庲	-13.1717
楣	-13.1717
虯	-13.1717
銚	-13.1717
薔	-13.1718
輹	-13.1718
灃	-13.1718
罘	-13.1718
郅	-13.1718
淍	-13.1718
抖	-13.1719
苧	-13.1719
战	-13.1719
惋	-13.1719
讖	-13.172
諏	-13.172
劻	-13.1721
增刻道藏輯要	-13.1721
絀	-13.1721
堞	-13.1721
淼	-13.1722
黝	-13.1722
凾	-13.1722
蜺	-13.1722
喁	-13.1722
聖功生焉神明出焉	-13.1722
謡	-13.1723
𤽡	-13.1723
􂆬	-13.1723
叧	-13.1724
髠	-13.1724
瀕	-13.1724
䰞	-13.1724
嬝	-13.1724
並與疾除罪簿落滅惡根	-13.1725
矼	-13.1725
爺	-13.1725
錠	-13.1725
筞	-13.1726
爹	-13.1727
鑱	-13.1727
𠏉	-13.1727
鞦	-13.1727
嗛	-13.1727
淄	-13.1728
謹爲伏地拜進	-13.1728
砲	-13.1728
拚	-13.1728
玉帝天恩道君慈度	-13.1731
等皈身皈神皈命慈尊投誠上聖	-13.1731
鏟	-13.1731
閘	-13.1732
摽	-13.1732
衹	-13.1734
攤	-13.1734
螉	-13.1734
椅	-13.1734
蹍	-13.1735
廨	-13.1735
豗	-13.1736
暾	-13.1736
舐	-13.1737
据	-13.1737
貓	-13.1738
蔔	-13.1739
之至謹疏以聞天運年月日	-13.1739
帝鄕大江之西尙存故宅	-13.1739
麪	-13.174
找	-13.174
噐	-13.174
縵	-13.1741
糲	-13.1742
蔵	-13.1743
響月文通古佛	-13.1743
杀	-13.1743
贜	-13.1744
宿星君離明分野	-13.1748
埒	-13.1749
嚚	-13.1752
賍	-13.1758
嶁	-13.3627
䘒	-13.3635
噎	-13.3648
洞幽天尊大悲中央土德永鎭天尊大悲	-13.3648
􂈫	-13.365
絺	-13.3652
鄶	-13.3655
饉	-13.3659
據大漢天下四川省	-13.3662
晋	-13.3666
莧	-13.3668
湖伯得道之神龍宫官屬	-13.3668
終日號而嗌不嗄	-13.3674
黟	-13.3674
府主生死罪錄官	-13.3674
婣	-13.3675
阬	-13.3675
􂂃	-13.3675
卒得金華轉而相因化爲白液凝而至堅	-13.3676
西南方太靈虛皇天尊	-13.3676
乞爲奉道投誠善信右洎合人等	-13.3677
玉虛師相玄天上帝淨樂國王聖	-13.3677
徴	-13.3677
𥻊	-13.3677
先天主將赤心護道王天君證盟南斗第	-13.3678
磽	-13.3678
眞人協贊都府仙醫	-13.3678
尫	-13.368
領詞難抑依教奉行	-13.368
陽數已訖訖則復起	-13.368
惽	-13.3681
一得永得自然身輕太和充溢骨散寒	-13.3681
靂	-13.3681
簌	-13.3682
𧇖	-13.3682
貍	-13.3683
檟	-13.3683
七竅相通竅竅光明聖日聖月照耀金庭	-13.3683
𨗁	-13.3683
尊玉虛玄上帝蕩魔大身尊玉虛玄上帝	-13.3684
度人無量天尊無上道祖仙師賜籙	-13.3684
𤀹	-13.3684
貴以賤爲本高以下爲基	-13.3684
自居生數五三家相見結嬰兒	-13.3684
沉水入火自取滅亡	-13.3685
噭	-13.3685
三十六世孫羲基編輯	-13.3685
蓆	-13.3685
熺	-13.3686
姣	-13.3686
嗸	-13.3686
地人才之柄上司三十六天星辰雲漢下	-13.3687
愾	-13.3687
戥	-13.3687
兾	-13.3687
讚至玄門戶萬派統宗包羅眞宰判鴻	-13.3687
闖	-13.3687
庋	-13.3687
餔	-13.3687
傖	-13.3688
太上神威英文雄武精忠大義高	-13.3688
男子修成不漏精女子修成不漏經	-13.3688
􂆭	-13.3688
獐	-13.3688
生世世得聞正法自皈依師當願眾生學	-13.3688
勖	-13.3689
杻	-13.3689
眾夫蹈以出蝡動莫不由	-13.3689
鼯	-13.3689
􂆰	-13.3689
􂆱	-13.3689
宫中部四十二曹偕九千萬眾主管	-13.3689
糝	-13.3689
三品一理妙不可聽其聚則有其散則零	-13.369
凂	-13.369
安天鎭地眞文謹當告下	-13.369
數往者順知來者逆	-13.369
皚	-13.369
化之行藏顯億千萬種之神異飛鸞	-13.369
檉	-13.369
金響止單擺開鑼響放銃弓弩槍牌	-13.369
窮取生身受氣初	-13.3691
麯	-13.3691
莉	-13.3691
㞢	-13.3691
撩	-13.3691
治世福神玉虛師相玄天上帝金闕化身	-13.3691
黃老用究較而可御	-13.3691
職貢舉眞君七曲靈應保德	-13.3691
醲	-13.3691
藂	-13.3692
喗	-13.3692
記新安吳秋士西邨選汪立名西亭校訂	-13.3692
罽	-13.3692
􂆮	-13.3692
亙	-13.3692
啐	-13.3692
大帝談經演教消劫行化更生永命天尊	-13.3692
大聖大慈九天輔元開化主宰司	-13.3692
搢	-13.3693
譟	-13.3693
天性人也人心機也立天之道以定人也	-13.3693
縝	-13.3693
咒完吸頂雲三咽結三神	-13.3693
踔	-13.3694
洫	-13.3694
􂁰	-13.3694
吧	-13.3695
鋾	-13.3695
䷁	-13.3695
𡃤	-13.3695
躓	-13.3695
硎	-13.3696
耍	-13.3696
鍜	-13.3696
矰	-13.3696
曀	-13.3697
鈇	-13.3697
勩	-13.3697
䷗	-13.3697
麈	-13.3697
豸	-13.3698
餬	-13.3698
咭	-13.3698
宀	-13.3698
湎	-13.3698
袞	-13.3698
𥦗	-13.3698
倅	-13.3699
陿	-13.3699
唶	-13.3699
瀧	-13.3699
篪	-13.37
匵	-13.37
嬙	-13.37
釃	-13.37
裀	-13.37
䨥	-13.3701
鑣	-13.3702
旹	-13.3702
蟆	-13.3702
糖	-13.3702
嚅	-13.3702
隤	-13.3703
蝠	-13.3703
噲	-13.3703
憯	-13.3703
襦	-13.3703
讙	-13.3704
僝	-13.3704
𥜥	-13.3704
𠒋	-13.3704
蝮	-13.3705
鬐	-13.3705
貊	-13.3705
􂃇	-13.3705
滁	-13.3705
讌	-13.3705
􂄠	-13.3706
𢙀	-13.3706
呷	-13.3706
樁	-13.3707
惝	-13.3707
檝	-13.3707
窞	-13.3707
葡	-13.3707
矞	-13.3707
杇	-13.3708
爝	-13.3708
恫	-13.3708
勗	-13.3708
仿	-13.3708
捽	-13.3709
瘼	-13.3709
烖	-13.3709
坱	-13.3709
邴	-13.3709
觥	-13.3709
䳱	-13.371
啁	-13.371
餗	-13.371
翾	-13.371
昕	-13.371
􂀴	-13.371
罨	-13.3711
頋	-13.3711
趐	-13.3711
梦	-13.3711
睜	-13.3711
嚤	-13.3711
抳	-13.3711
矉	-13.3711
沚	-13.3711
蘢	-13.3712
燋	-13.3712
蒹	-13.3712
懌	-13.3712
嘈	-13.3712
滀	-13.3712
錡	-13.3713
嬈	-13.3713
蝌	-13.3713
豨	-13.3713
荐	-13.3714
楔	-13.3714
倔	-13.3714
醋	-13.3714
槧	-13.3714
鞴	-13.3714
朒	-13.3714
剉	-13.3714
斲	-13.3715
碭	-13.3715
鈆	-13.3715
廋	-13.3715
𦍑	-13.3716
惛	-13.3716
柎	-13.3716
檠	-13.3716
壳	-13.3716
踧	-13.3716
亯	-13.3717
佻	-13.3717
俐	-13.3717
熯	-13.3717
袽	-13.3717
庒	-13.3717
閲	-13.3719
犒	-13.3719
裦	-13.3719
蜦	-13.3719
兠	-13.3719
𠂆	-13.3719
胼	-13.372
彧	-13.3721
濚	-13.3721
牯	-13.3721
烺	-13.3721
宂	-13.3721
韙	-13.3722
蜾	-13.3722
濆	-13.3722
硤	-13.3722
蕝	-13.3722
穡	-13.3723
榼	-13.3723
吭	-13.3723
鞞	-13.3723
纘	-13.3723
畹	-13.3725
嚳	-13.3726
郗	-13.3726
芴	-13.3727
縢	-13.3728
氲	-13.3728
鸇	-13.3728
闍	-13.3728
翺	-13.3729
鯈	-13.3729
煬	-13.3729
髪	-13.373
逡	-13.3731
硝	-13.3731
斄	-13.3731
睆	-13.3731
礶	-13.3731
𧼈	-13.3732
剴	-13.3734
穪	-13.3736
漻	-13.3736
献	-13.3737
袐	-13.3737
琄	-13.3737
璟	-13.3738
榱	-13.3738
𤠔	-13.3739
曵	-13.3741
祓	-13.3743
幫	-13.3743
剃	-13.3744
蠃	-13.3748
鶬	-13.3749
梔	-13.3749
畊	-13.375
墩	-13.375
鏬	-13.3751
窽	-13.3751
畋	-13.3754
洑	-13.3755
瘤	-13.3756
桅	-13.3757
繂	-13.3759
䂀	-13.3764
􂁃	-13.3765
橄	-13.3766
筓	-13.3769
狺	-13.378
瞤	-13.378
駴	-13.3783
釂	-13.6135
㡭	-13.6138
岠	-13.6139
跫	-13.6145
蠙	-13.6149
脢	-13.615
捱	-13.6154
揷	-13.6156
􂂋	-13.6159
臀	-13.6161
趲	-13.6167
喼	-13.6168
邨	-13.617
愊	-13.6172
疝	-13.6175
墄	-13.6177
診	-13.6178
痍	-13.6178
刅	-13.6178
髢	-13.6179
葅	-13.6179
􂂍	-13.6179
踝	-13.618
琉	-13.6181
嗶	-13.6181
􂄐	-13.6182
欃	-13.6182
㠉	-13.6183
笱	-13.6183
噱	-13.6184
侁	-13.6184
荳	-13.6185
􂁨	-13.6185
曶	-13.6186
愽	-13.6186
琱	-13.6186
愳	-13.6187
窾	-13.6187
厘	-13.6187
盌	-13.6188
頇	-13.6188
菹	-13.6188
䷊	-13.6188
瓏	-13.6188
砰	-13.6188
嗗	-13.6188
諔	-13.6188
熳	-13.6189
𣕤	-13.6189
樛	-13.6189
㗶	-13.6189
踢	-13.619
陔	-13.619
陜	-13.619
苎	-13.6191
鷁	-13.6191
喥	-13.6191
噒	-13.6191
􂂂	-13.6191
䙱	-13.6191
鏜	-13.6191
藺	-13.6192
鰥	-13.6192
煤	-13.6192
斚	-13.6192
棨	-13.6192
蜒	-13.6192
䝟	-13.6192
鏑	-13.6192
擭	-13.6192
燌	-13.6192
㝡	-13.6192
嵁	-13.6193
衂	-13.6193
僦	-13.6193
𥇮	-13.6193
搴	-13.6193
貔	-13.6194
塠	-13.6194
圊	-13.6195
􂁭	-13.6195
朞	-13.6195
觳	-13.6195
澧	-13.6195
臏	-13.6195
獯	-13.6195
䷀	-13.6195
玳	-13.6195
𥈤	-13.6196
扐	-13.6196
柅	-13.6196
栱	-13.6196
蝍	-13.6196
蠍	-13.6196
鐄	-13.6196
㗭	-13.6197
嘒	-13.6197
飂	-13.6197
翛	-13.6197
蠖	-13.6197
慫	-13.6197
鷟	-13.6197
𠴏	-13.6197
渫	-13.6198
𡾹	-13.6199
繘	-13.6199
霔	-13.6199
湢	-13.6199
声	-13.6199
謷	-13.6199
􂈉	-13.6199
嶰	-13.62
葫	-13.62
俵	-13.62
媛	-13.62
盔	-13.62
跰	-13.62
銃	-13.62
齦	-13.62
臝	-13.6201
滎	-13.6201
瑚	-13.6202
佾	-13.6202
㵎	-13.6202
掐	-13.6202
㳄	-13.6202
鏊	-13.6202
頯	-13.6202
鍤	-13.6202
𩆝	-13.6203
蓉	-13.6203
蜣	-13.6203
蠕	-13.6203
衽	-13.6203
荼	-13.6203
􂊒	-13.6204
霅	-13.6204
溽	-13.6204
筑	-13.6204
謅	-13.6204
睱	-13.6204
淅	-13.6205
渦	-13.6205
陘	-13.6206
𤥎	-13.6206
􂉗	-13.6206
桮	-13.6206
媮	-13.6206
牾	-13.6206
蚪	-13.6206
搭	-13.6206
徘	-13.6207
涽	-13.6207
涅	-13.6207
巃	-13.6207
嬖	-13.6207
鞲	-13.6207
畇	-13.6207
晌	-13.6207
籐	-13.6208
寉	-13.6208
詼	-13.6208
俶	-13.6208
蜴	-13.6208
刓	-13.6208
縯	-13.6208
腆	-13.6208
鈿	-13.6208
吱	-13.6209
潁	-13.6209
酎	-13.6209
坍	-13.621
蚉	-13.621
椀	-13.621
們	-13.621
瓿	-13.621
誾	-13.621
𤉨	-13.621
楪	-13.6211
逑	-13.6211
㬥	-13.6211
􂉹	-13.6211
𨶔	-13.6211
瓌	-13.6211
繟	-13.6211
閈	-13.6211
舩	-13.6211
詧	-13.6211
鴳	-13.6211
􂄦	-13.6212
餼	-13.6212
禩	-13.6212
殲	-13.6212
懟	-13.6213
晻	-13.6213
蠈	-13.6213
攞	-13.6213
埈	-13.6213
壙	-13.6213
袠	-13.6213
檗	-13.6214
剸	-13.6214
窣	-13.6214
蔴	-13.6214
絖	-13.6214
、	-13.6214
皴	-13.6215
洼	-13.6215
蕞	-13.6215
䖝	-13.6215
褪	-13.6215
鷖	-13.6217
堠	-13.6217
棼	-13.6217
倶	-13.6217
髽	-13.6217
确	-13.6218
𩗗	-13.6218
捆	-13.6218
儁	-13.6218
賠	-13.6218
匃	-13.6219
䏶	-13.622
譆	-13.622
畚	-13.622
賃	-13.622
釧	-13.622
栲	-13.6221
増	-13.6221
芡	-13.6221
墾	-13.6221
􂁥	-13.6221
灶	-13.6221
阽	-13.6221
蠒	-13.6222
瞢	-13.6222
曈	-13.6222
琨	-13.6224
忡	-13.6224
柿	-13.6224
飦	-13.6224
鍧	-13.6224
秣	-13.6225
攛	-13.6225
斐	-13.6225
醨	-13.6225
擡	-13.6226
檯	-13.6226
捎	-13.6226
曕	-13.6227
厷	-13.6227
炓	-13.6227
娜	-13.6228
飶	-13.6228
𦙌	-13.6229
縟	-13.6229
△	-13.623
𦊅	-13.6231
賕	-13.6231
胠	-13.6232
覧	-13.6232
椰	-13.6232
崐	-13.6232
􂊷	-13.6232
箝	-13.6233
涴	-13.6233
㶑	-13.6233
恌	-13.6233
鈸	-13.6233
鑷	-13.6233
攅	-13.6234
聻	-13.6235
儛	-13.6235
紲	-13.6236
屛	-13.6236
蚨	-13.6236
侄	-13.6236
遝	-13.6238
狷	-13.6238
甬	-13.6238
袴	-13.6239
禊	-13.6239
蚹	-13.6239
蠣	-13.6242
栅	-13.6242
甿	-13.6242
胏	-13.6243
殢	-13.6243
軺	-13.6243
㞐	-13.6244
萑	-13.6245
岈	-13.6245
閹	-13.6246
䔩	-13.6247
来	-13.6249
懍	-13.6249
蝟	-13.6249
縰	-13.625
􂅾	-13.625
=	-13.6251
珣	-13.6253
曄	-13.6253
漰	-13.6253
㣲	-13.6256
鞵	-13.626
鐍	-13.626
𡹄	-13.626
緲	-13.6261
廐	-13.6264
挪	-13.6271
􂃙	-13.6275
咍	-13.6276
黬	-13.6276
􂁔	-13.6283
􂉲	-13.6285
玹	-13.6289
盘	-13.9424
栁	-13.9457
鼪	-13.9468
毳	-13.9482
𩐎	-13.9489
柮	-13.9491
𠾱	-13.9491
乚	-13.9495
撅	-13.9495
淥	-13.9497
頍	-13.9497
摟	-13.9498
䫫	-13.9501
㷊	-13.9503
慹	-13.9503
螤	-13.9503
訒	-13.9504
癬	-13.9505
恓	-13.9509
涔	-13.9509
涂	-13.9509
頄	-13.9509
爚	-13.9511
曆	-13.9511
䷫	-13.9511
屡	-13.9511
昰	-13.9511
𡒄	-13.9511
廠	-13.9513
圾	-13.9513
睟	-13.9513
蟯	-13.9513
􂋿	-13.9513
宁	-13.9514
焮	-13.9514
釅	-13.9514
穯	-13.9514
虒	-13.9514
汹	-13.9514
䷓	-13.9514
劚	-13.9514
嫻	-13.9514
葯	-13.9515
衘	-13.9516
冪	-13.9516
櫨	-13.9516
𠻗	-13.9516
牅	-13.9517
綢	-13.9518
瀌	-13.9518
埠	-13.9518
亳	-13.9518
𨞬	-13.9518
䷋	-13.9518
䷪	-13.9518
􂉔	-13.9519
㯶	-13.952
􂅻	-13.952
䷡	-13.952
玲	-13.952
􂄺	-13.952
凰	-13.952
啹	-13.9521
𠺕	-13.9521
𠾬	-13.9521
􂉓	-13.9521
􂉕	-13.9521
􂉖	-13.9521
灉	-13.9521
倀	-13.9521
噂	-13.9521
􂉒	-13.9521
𠷈	-13.9522
𨽾	-13.9522
韭	-13.9522
鬛	-13.9522
䷠	-13.9522
貚	-13.9522
䷖	-13.9522
𣏆	-13.9522
􂉑	-13.9522
嘙	-13.9523
擿	-13.9523
竆	-13.9524
帚	-13.9524
嗽	-13.9524
躠	-13.9524
慱	-13.9524
莛	-13.9524
鄔	-13.9524
􂄽	-13.9524
澶	-13.9525
礡	-13.9526
㐬	-13.9526
夣	-13.9526
暜	-13.9526
𡝐	-13.9526
嚎	-13.9526
茝	-13.9527
􂃓	-13.9527
􂃔	-13.9527
暏	-13.9527
鰻	-13.9527
鋣	-13.9528
𩱛	-13.9528
脘	-13.9528
郄	-13.9528
􂉐	-13.9528
􂋲	-13.9528
紉	-13.9529
屾	-13.9529
猩	-13.9529
]	-13.953
蹩	-13.953
馽	-13.953
喎	-13.953
醢	-13.953
卹	-13.953
轔	-13.953
㗊	-13.953
机	-13.953
漯	-13.953
簥	-13.953
逖	-13.953
𦬇	-13.953
随	-13.9531
嗑	-13.9531
岨	-13.9532
琚	-13.9532
吴	-13.9532
鶡	-13.9532
嘇	-13.9532
蝀	-13.9532
簀	-13.9532
􂂌	-13.9532
􂃢	-13.9532
馹	-13.9532
鸑	-13.9532
㐀	-13.9532
虢	-13.9533
顗	-13.9533
俘	-13.9533
燁	-13.9533
諢	-13.9534
謌	-13.9534
絯	-13.9534
伙	-13.9534
戟	-13.9534
獷	-13.9534
􂇹	-13.9534
薙	-13.9534
𦈢	-13.9534
帘	-13.9534
淶	-13.9534
瘸	-13.9534
衺	-13.9534
伾	-13.9534
吲	-13.9534
啲	-13.9534
囄	-13.9534
孿	-13.9534
圅	-13.9535
輥	-13.9535
􂋓	-13.9535
𤥨	-13.9535
靛	-13.9535
惲	-13.9535
揠	-13.9535
圩	-13.9536
㫬	-13.9536
蜨	-13.9536
鵓	-13.9536
廾	-13.9536
搰	-13.9536
砉	-13.9536
秫	-13.9536
牓	-13.9536
糕	-13.9537
􂉁	-13.9537
佟	-13.9537
劘	-13.9538
輛	-13.9538
俍	-13.9538
跈	-13.9538
踡	-13.9538
卲	-13.9538
咧	-13.9538
􂋺	-13.9538
𩯡	-13.9538
磠	-13.9539
􂀵	-13.9539
􂋾	-13.9539
𧶂	-13.954
啒	-13.954
郛	-13.954
俏	-13.954
帬	-13.954
嬀	-13.954
捌	-13.954
痞	-13.954
􂈞	-13.954
嶇	-13.954
泱	-13.9541
僱	-13.9541
轎	-13.9541
拋	-13.9541
狽	-13.9541
樨	-13.9541
窳	-13.9541
絰	-13.9541
臙	-13.9541
甎	-13.9541
襴	-13.9541
趼	-13.9541
𠷣	-13.9541
頦	-13.9542
瞱	-13.9542
蝣	-13.9542
珙	-13.9542
􂆫	-13.9543
贋	-13.9543
闘	-13.9543
柁	-13.9543
蛋	-13.9543
瀜	-13.9544
篝	-13.9544
閗	-13.9545
覻	-13.9545
瑽	-13.9545
麩	-13.9545
蔗	-13.9545
蜉	-13.9545
𧩊	-13.9545
囁	-13.9545
艨	-13.9545
逹	-13.9545
饍	-13.9545
鍠	-13.9545
􂆩	-13.9547
郟	-13.9547
􂆦	-13.9547
鶚	-13.9547
釭	-13.9547
㹠	-13.9547
淜	-13.9547
佘	-13.9547
奫	-13.9547
耰	-13.9547
䠱	-13.9547
簉	-13.9547
舡	-13.9548
𨽻	-13.9549
蹋	-13.9549
餁	-13.9549
苹	-13.9549
籧	-13.9549
睍	-13.9549
挖	-13.9549
漶	-13.9549
瘢	-13.9549
蹡	-13.9549
荃	-13.9549
蕤	-13.9549
隐	-13.9549
踄	-13.9549
􂃅	-13.9549
􂉵	-13.9551
茄	-13.9551
麴	-13.9551
䟱	-13.9551
•	-13.9551
􂃚	-13.9551
瞍	-13.9551
纚	-13.9551
閾	-13.9551
􂊦	-13.9551
灞	-13.9553
槲	-13.9553
謭	-13.9553
溤	-13.9553
旐	-13.9553
鉶	-13.9553
冝	-13.9554
焯	-13.9554
鍛	-13.9555
斻	-13.9555
膀	-13.9555
懞	-13.9555
㝗	-13.9555
吅	-13.9555
漩	-13.9555
纑	-13.9555
鮭	-13.9555
摻	-13.9555
𤑔	-13.9555
􂅛	-13.9555
㜸	-13.9555
双	-13.9555
巚	-13.9555
泂	-13.9556
􂂣	-13.9557
蛀	-13.9557
鍥	-13.9557
枹	-13.9557
􂈓	-13.9557
𢭔	-13.9557
􂊮	-13.9557
戩	-13.9557
糈	-13.9557
飆	-13.9557
棰	-13.9557
􂇟	-13.9557
繽	-13.9558
鶂	-13.9559
剰	-13.9559
嵇	-13.9559
粳	-13.956
擱	-13.9561
坆	-13.9561
𧎉	-13.9561
酕	-13.9561
畒	-13.9561
脬	-13.9561
仵	-13.9561
濵	-13.9561
掄	-13.9562
癎	-13.9562
芾	-13.9563
跗	-13.9563
汒	-13.9563
􂅽	-13.9563
㐲	-13.9565
釿	-13.9565
韲	-13.9565
􂃞	-13.9565
艭	-13.9565
逩	-13.9565
獪	-13.9565
誸	-13.9566
棓	-13.9566
暱	-13.9566
灊	-13.9567
鄞	-13.9568
萸	-13.9568
屼	-13.9568
齶	-13.9568
媰	-13.9569
烙	-13.9569
侖	-13.957
戁	-13.957
稂	-13.9571
酤	-13.9572
斠	-13.9572
澐	-13.9572
甞	-13.9572
𢑥	-13.9572
酗	-13.9573
㸔	-13.9574
樠	-13.9574
謩	-13.9574
髦	-13.9576
离	-13.9576
叉	-13.9576
慴	-13.9576
騃	-13.9576
誆	-13.9576
跢	-13.9576
潏	-13.9578
紇	-13.9578
凳	-13.9578
緍	-13.9578
挍	-13.9578
芚	-13.9578
匚	-13.9578
齗	-13.9578
􂋌	-13.958
臊	-13.9582
梲	-13.9582
胈	-13.9582
黮	-13.9582
旰	-13.9584
圞	-13.9584
漵	-13.9585
㾗	-13.9586
醷	-13.9586
頵	-13.9588
箏	-13.9588
諗	-13.9588
騤	-13.9588
痀	-13.9588
崧	-13.959
汸	-13.959
众	-13.959
輈	-13.959
磑	-13.959
抬	-13.9592
踦	-13.9592
鷦	-13.9594
熨	-13.9594
孌	-13.9594
胲	-13.9594
脤	-13.9595
鷯	-13.9595
焙	-13.9597
宎	-13.9599
惼	-13.9599
璝	-13.9599
鉸	-13.9601
𤏡	-13.9603
𦒘	-13.9603
睒	-13.9603
妊	-13.9607
臑	-13.9611
覕	-13.9615
􂂨	-13.9615
悝	-13.9628
􂆹	-13.9638
􂆶	-13.9648
􂈵	-14.4402
鼬	-14.4415
􂆟	-14.4422
崈	-14.4427
粼	-14.4452
糸	-14.4452
嵃	-14.4459
􂄃	-14.4462
踉	-14.4462
晄	-14.4471
籕	-14.4471
􂂖	-14.4471
􂉦	-14.4471
褌	-14.4475
玫	-14.4477
迮	-14.4478
烮	-14.4478
曯	-14.4478
穏	-14.4478
蠋	-14.4481
萹	-14.4481
慓	-14.4484
鰕	-14.4484
麐	-14.4484
䦧	-14.4487
醁	-14.4487
黧	-14.4487
窃	-14.449
攩	-14.449
厂	-14.449
耔	-14.449
𢬵	-14.449
儍	-14.449
𤱂	-14.449
賨	-14.4493
􂄓	-14.4493
𤯝	-14.4495
傎	-14.4496
媽	-14.4496
隃	-14.4497
𩹷	-14.4497
箒	-14.45
万	-14.45
麀	-14.45
盋	-14.45
囬	-14.45
畼	-14.45
餖	-14.45
甆	-14.4503
顋	-14.4503
䱔	-14.4503
猘	-14.4503
渢	-14.4503
􂆂	-14.4503
􂁫	-14.4504
籋	-14.4506
噢	-14.4506
轢	-14.4506
𢋨	-14.4506
唤	-14.4506
蟣	-14.4508
匄	-14.4509
凙	-14.4509
驄	-14.4509
异	-14.4509
蝘	-14.4509
􂃕	-14.4509
玼	-14.4509
鬖	-14.4509
鱍	-14.4509
齁	-14.4509
𨻶	-14.4509
巗	-14.4511
嘬	-14.4512
戺	-14.4512
暐	-14.4512
𦨴	-14.4512
𨗠	-14.4512
疰	-14.4512
肧	-14.4512
𥥛	-14.4512
􂈘	-14.4512
鐶	-14.4514
憔	-14.4515
噡	-14.4515
悱	-14.4515
嚬	-14.4515
蓀	-14.4515
燻	-14.4515
䷒	-14.4515
嘐	-14.4515
搪	-14.4515
晈	-14.4515
潀	-14.4515
軆	-14.4515
𦷧	-14.4515
􂇯	-14.4515
氵	-14.4517
尠	-14.4517
丱	-14.4517
㿾	-14.4518
坳	-14.4518
輗	-14.4518
偵	-14.4519
楂	-14.4519
蜷	-14.4519
㜈	-14.4519
倭	-14.4519
僛	-14.4519
寜	-14.4519
恑	-14.4519
衊	-14.4519
誙	-14.4519
趯	-14.4519
靷	-14.4519
狉	-14.452
茷	-14.452
眊	-14.4522
誒	-14.4522
峝	-14.4522
郪	-14.4522
鬵	-14.4522
䨛	-14.4522
岣	-14.4522
槀	-14.4522
滷	-14.4522
癶	-14.4522
穟	-14.4522
觱	-14.4522
訿	-14.4522
駓	-14.4522
𢆶	-14.4522
𢊲	-14.4522
𧥄	-14.4522
􂁼	-14.4522
􂄼	-14.4522
􂇲	-14.4522
嘧	-14.4523
枏	-14.4523
澀	-14.4523
炕	-14.4523
萟	-14.4523
豉	-14.4523
𠻃	-14.4523
刴	-14.4524
筥	-14.4525
蓻	-14.4525
蘓	-14.4525
鄖	-14.4525
䝞	-14.4525
侅	-14.4525
嘅	-14.4525
堇	-14.4525
搨	-14.4525
湝	-14.4525
瀠	-14.4525
瓘	-14.4525
襌	-14.4525
隒	-14.4525
騑	-14.4525
𠃌	-14.4525
𩗙	-14.4525
􂇭	-14.4525
􂉏	-14.4526
綯	-14.4526
蔉	-14.4526
衠	-14.4526
􂃨	-14.4526
㦄	-14.4527
艑	-14.4528
芧	-14.4528
幛	-14.4528
篾	-14.4528
𠿷	-14.4528
􂂯	-14.4528
㕭	-14.4528
傔	-14.4528
晩	-14.4528
郷	-14.4528
蛔	-14.4528
龗	-14.4528
𧳶	-14.4528
􂁩	-14.4528
o	-14.4528
㦧	-14.4528
㷆	-14.4528
䘲	-14.4528
僰	-14.4528
怭	-14.4528
扢	-14.4528
硿	-14.4528
禇	-14.4528
艸	-14.4528
菘	-14.4528
蘃	-14.4528
訇	-14.4528
躊	-14.4528
躩	-14.4528
韵	-14.4528
飀	-14.4528
𠰢	-14.4528
𡄣	-14.4528
􂂻	-14.4528
􂅂	-14.4528
􂉣	-14.4528
􂋟	-14.4528
􂌛	-14.4528
􂁓	-14.4528
􂁠	-14.4529
􂄧	-14.4529
枿	-14.4529
頣	-14.453
㶌	-14.453
嶕	-14.453
忩	-14.453
杷	-14.453
椁	-14.453
濞	-14.453
訏	-14.453
𢋫	-14.453
饀	-14.4531
岵	-14.4531
㗘	-14.4531
佽	-14.4531
劭	-14.4531
嘓	-14.4531
媢	-14.4531
絅	-14.4531
吶	-14.4531
峕	-14.4531
籀	-14.4531
糗	-14.4531
蛑	-14.4531
𡾔	-14.4531
􂌁	-14.4531
􂋗	-14.4532
杙	-14.4533
鄗	-14.4534
哇	-14.4534
妲	-14.4534
禖	-14.4534
勌	-14.4534
樺	-14.4534
犴	-14.4534
癥	-14.4534
鬍	-14.4534
璠	-14.4534
瞷	-14.4534
焬	-14.4534
罌	-14.4534
酡	-14.4534
䅋	-14.4534
冖	-14.4534
攟	-14.4534
濾	-14.4534
硏	-14.4534
磥	-14.4534
纇	-14.4534
缷	-14.4534
罙	-14.4534
羃	-14.4534
蜆	-14.4534
譶	-14.4534
邰	-14.4534
鄩	-14.4534
鷂	-14.4534
𠮵	-14.4534
𠰂	-14.4534
𠺗	-14.4534
𤉖	-14.4534
􂁵	-14.4534
􂄱	-14.4534
􂄲	-14.4534
􂈖	-14.4534
􂉪	-14.4534
􂋥	-14.4534
􂌇	-14.4534
􂄤	-14.4535
淝	-14.4536
皖	-14.4536
荿	-14.4536
𩗺	-14.4537
譛	-14.4537
豭	-14.4537
胍	-14.4537
滳	-14.4537
袢	-14.4537
鬽	-14.4537
􂌚	-14.4537
泪	-14.4537
瘇	-14.4537
瘨	-14.4537
堕	-14.4537
曏	-14.4537
蠹	-14.4537
譪	-14.4537
𡄳	-14.4537
􂂅	-14.4537
夲	-14.454
碪	-14.4541
踨	-14.4541
鮓	-14.4541
鱷	-14.4541
㗀	-14.4541
㰕	-14.4541
䠓	-14.4541
儗	-14.4541
匯	-14.4541
埇	-14.4541
熇	-14.4541
芩	-14.4541
蠪	-14.4541
贓	-14.4541
𠯻	-14.4541
𡟎	-14.4541
𧄔	-14.4541
􂁳	-14.4541
􂁴	-14.4541
􂅍	-14.4541
􂈭	-14.4541
咜	-14.4542
隟	-14.4542
􂋕	-14.4542
崟	-14.4542
餟	-14.4543
㪟	-14.4543
咶	-14.4544
螘	-14.4544
鷸	-14.4544
蓰	-14.4544
譍	-14.4544
􂇬	-14.4544
䙫	-14.4544
嵸	-14.4544
聀	-14.4544
鄮	-14.4544
鷴	-14.4544
𥆐	-14.4544
􂊃	-14.4544
厫	-14.4544
訽	-14.4544
軨	-14.4544
茍	-14.4545
虵	-14.4545
僾	-14.4545
頳	-14.4545
窿	-14.4547
眹	-14.4547
埡	-14.4547
苾	-14.4547
懬	-14.4547
艫	-14.4547
嚂	-14.4547
姒	-14.4547
摝	-14.4547
旆	-14.4547
琹	-14.4547
籹	-14.4547
蹔	-14.4547
鋭	-14.4547
鰍	-14.4547
􂄿	-14.4547
􂅳	-14.4547
􂈪	-14.4547
􂋮	-14.4547
y	-14.4547
屺	-14.4547
擉	-14.4547
昦	-14.4547
朘	-14.4547
槊	-14.4547
汋	-14.4547
􂋚	-14.4547
磪	-14.4548
迆	-14.4548
剷	-14.455
􂈱	-14.455
􂉟	-14.455
􂉠	-14.455
昶	-14.455
􂂛	-14.455
粽	-14.455
棉	-14.455
莬	-14.455
辠	-14.455
􂂶	-14.455
榧	-14.455
臈	-14.455
贛	-14.455
旟	-14.455
澨	-14.455
矟	-14.455
絛	-14.455
𤜶	-14.455
􂁟	-14.455
􂆳	-14.455
噯	-14.4552
􂃋	-14.4552
妳	-14.4552
㱪	-14.4553
欞	-14.4553
舠	-14.4553
袄	-14.4553
厩	-14.4553
婟	-14.4553
嫺	-14.4553
淦	-14.4553
缼	-14.4553
咋	-14.4553
濇	-14.4553
㰱	-14.4553
眴	-14.4553
􂅜	-14.4553
侫	-14.4553
咚	-14.4553
炵	-14.4553
狁	-14.4553
痯	-14.4553
蹂	-14.4553
輞	-14.4553
醎	-14.4553
􂂩	-14.4553
􂇀	-14.4553
圬	-14.4554
鸂	-14.4556
繰	-14.4556
儇	-14.4556
𨮂	-14.4556
摜	-14.4556
珩	-14.4556
蜡	-14.4556
鍇	-14.4556
𣸸	-14.4556
惥	-14.4556
豓	-14.4556
輶	-14.4556
𤙖	-14.4556
㹀	-14.4556
挼	-14.4556
綝	-14.4556
袷	-14.4556
雘	-14.4556
􂃥	-14.4556
撙	-14.4556
栝	-14.4556
溧	-14.4556
躪	-14.4556
鍪	-14.4556
㪷	-14.4559
毌	-14.4559
綈	-14.4559
褙	-14.4559
嫰	-14.4559
挻	-14.4559
亾	-14.4559
厤	-14.4559
嗁	-14.4559
囮	-14.4559
灮	-14.4559
虖	-14.4559
䀜	-14.4559
哹	-14.4559
湜	-14.4559
蚔	-14.4559
隖	-14.4559
鮞	-14.4559
􂇿	-14.4559
􂈈	-14.4559
䬃	-14.4559
慥	-14.4559
懮	-14.4559
扦	-14.4559
溱	-14.4559
瀏	-14.4559
狚	-14.4559
猵	-14.4559
甗	-14.4559
肔	-14.4559
􂈩	-14.4559
枅	-14.456
舲	-14.4561
逍	-14.4561
𡣕	-14.4563
䨱	-14.4563
𡣳	-14.4563
𩳓	-14.4563
􂉙	-14.4563
􂉚	-14.4563
􂉛	-14.4563
俳	-14.4563
龥	-14.4563
嵒	-14.4563
窱	-14.4563
丂	-14.4563
蜢	-14.4563
謵	-14.4563
俋	-14.4563
悒	-14.4563
疉	-14.4563
窢	-14.4563
雱	-14.4563
鰓	-14.4563
夘	-14.4566
雇	-14.4566
􂉜	-14.4566
􂁜	-14.4566
芘	-14.4566
㟢	-14.4566
坭	-14.4566
忺	-14.4566
愔	-14.4566
糅	-14.4566
豬	-14.4566
𤃫	-14.4566
𤥐	-14.4566
𪔱	-14.4566
紬	-14.4568
僽	-14.4569
Z	-14.4569
参	-14.4569
􂄀	-14.4569
􂉝	-14.4569
􂉞	-14.4569
繅	-14.4569
躄	-14.4569
􂃛	-14.4569
􂈛	-14.4569
痤	-14.4569
薾	-14.4569
蟜	-14.4569
讏	-14.4569
􂃆	-14.4569
㳺	-14.457
蹏	-14.457
埳	-14.4572
瘀	-14.4572
唁	-14.4572
侏	-14.4572
褲	-14.4572
婀	-14.4572
柤	-14.4572
衖	-14.4572
觭	-14.4572
輐	-14.4572
魴	-14.4572
𨑙	-14.4572
𩘝	-14.4572
􂆅	-14.4572
貰	-14.4574
芉	-14.4575
蒔	-14.4575
坫	-14.4575
夯	-14.4575
鯀	-14.4575
辧	-14.4575
袱	-14.4575
鏇	-14.4575
礨	-14.4577
讞	-14.4577
馵	-14.4578
胔	-14.4578
輇	-14.4578
」	-14.4578
惏	-14.4578
謑	-14.4578
錞	-14.4578
鞟	-14.4578
𤍞	-14.4578
𧲖	-14.4578
􂋷	-14.4578
􂂴	-14.4581
璡	-14.4581
佶	-14.4581
昐	-14.4582
篘	-14.4582
鋹	-14.4582
「	-14.4582
拸	-14.4582
焭	-14.4582
硇	-14.4582
髁	-14.4582
簏	-14.4583
敇	-14.4585
韮	-14.4585
嫫	-14.4585
覇	-14.4585
爬	-14.4585
𣊟	-14.4585
冾	-14.4585
㤀	-14.4585
卌	-14.4585
䂓	-14.4585
劙	-14.4585
斕	-14.4585
焞	-14.4585
翣	-14.4585
翯	-14.4585
􂈇	-14.4585
􂈊	-14.4585
齌	-14.4588
桫	-14.4588
擥	-14.4588
蔞	-14.4588
湣	-14.4588
釤	-14.4588
𨍭	-14.4588
璆	-14.4591
嫵	-14.4591
虷	-14.4591
跱	-14.4591
骼	-14.4591
狻	-14.4591
縐	-14.4591
儃	-14.4591
硼	-14.4591
讋	-14.4591
朏	-14.4592
􂆧	-14.4593
枋	-14.4594
鱣	-14.4594
眵	-14.4594
邢	-14.4594
囅	-14.4594
厢	-14.4597
唼	-14.4597
鼊	-14.4597
𧔞	-14.4597
􂁦	-14.4597
姘	-14.4597
畬	-14.4597
𠀉	-14.4597
擂	-14.46
踼	-14.46
麕	-14.46
􂃰	-14.46
􂃽	-14.46
甝	-14.46
鏝	-14.46
咩	-14.46
杗	-14.46
淛	-14.46
帨	-14.4604
濈	-14.4604
秖	-14.4604
􂂇	-14.4604
􂁧	-14.4607
諌	-14.461
𡖖	-14.461
靝	-14.461
歊	-14.4613
𩀱	-14.4613
𧸛	-14.4613
瞧	-14.4616
躧	-14.4616
譱	-14.4616
釬	-14.4616
揄	-14.4619
瑄	-14.4619
蕢	-14.4622
􂂥	-14.4623
潻	-14.4626
囤	-14.4626
圳	-14.4626
蚘	-14.4626
􂂤	-14.4629
􂃸	-14.4629
坥	-14.4632
彛	-14.4638
䏕	-14.4648
篸	-14.4651
綑	-14.4654
􂆸	-14.4654
􂋒	-14.4654
齾	-14.466
􂋻	-14.466
􂉰	-14.4673
妸	-14.4686
􂆘	-15.422
􂁹	-15.4221
􂁢	-15.4222
􂁡	-15.4223
􂁞	-15.4224
􂁛	-15.4225
􂁚	-15.4226
􂁙	-15.4227
􂁘	-15.4228
􂁗	-15.4229
􂁖	-15.423
𩻣	-15.4231
𩲕	-15.4232
𩲓	-15.4233
𩪸	-15.4234
𩨘	-15.4235
𩊀	-15.4236
𩅑	-15.4237
𨓦	-15.4238
𨁝	-15.4239
𧳓	-15.424
𧟋	-15.4241
𧙪	-15.4242
𧔥	-15.4243
𧋍	-15.4244
𥫽	-15.4245
𥀷	-15.4246
𤴯	-15.4247
𤦛	-15.4248
𤚥	-15.4249
𤈎	-15.425
𣿄	-15.4251
𣷠	-15.4252
𣰉	-15.4253
𢀿	-15.4254
𡾓	-15.4255
𡟬	-15.4256
𡁮	-15.4257
𠺅	-15.4258
𠸋	-15.4259
𠯽	-15.426
𠖏	-15.4261
𠂻	-15.4262
齯	-15.4263
麖	-15.4264
鷾	-15.4265
鷥	-15.4266
鴯	-15.4267
鳧	-15.4268
鱁	-15.4269
鮧	-15.427
驊	-15.4271
驃	-15.4272
􂆞	-15.4272
㤙	-15.4272
騮	-15.4273
馞	-15.4274
馝	-15.4275
餱	-15.4276
靮	-15.4277
霡	-15.4278
隩	-15.4279
闃	-15.428
鐡	-15.4281
鎝	-15.4282
酙	-15.4283
邛	-15.4284
遫	-15.4285
辶	-15.4286
轗	-15.4287
軱	-15.4288
軦	-15.4289
軔	-15.429
蹺	-15.4291
蹭	-15.4292
賻	-15.4293
豀	-15.4294
訞	-15.4295
襶	-15.4296
褶	-15.4297
褵	-15.4298
褦	-15.4299
裵	-15.43
袚	-15.4301
衵	-15.4302
蠸	-15.4303
蠨	-15.4304
蟮	-15.4305
螵	-15.4306
螮	-15.4307
螬	-15.4308
蜑	-15.4309
蜊	-15.431
蛺	-15.4311
蚷	-15.4312
藋	-15.4313
薯	-15.4314
薝	-15.4315
蕰	-15.4316
蒟	-15.4317
葸	-15.4318
萠	-15.4319
菏	-15.432
芫	-15.4321
芨	-15.4322
舎	-15.4323
臲	-15.4324
臌	-15.4325
膕	-15.4326
腞	-15.4327
羂	-15.4328
繯	-15.4329
縀	-15.433
糦	-15.4331
簹	-15.4332
篨	-15.4333
篔	-15.4334
箰	-15.4335
稉	-15.4336
秇	-15.4337
祒	-15.4338
礲	-15.4339
矬	-15.434
矓	-15.4341
睺	-15.4342
睚	-15.4343
眢	-15.4344
癀	-15.4345
瘂	-15.4346
痧	-15.4347
痣	-15.4348
疤	-15.4349
猲	-15.435
猍	-15.4351
犿	-15.4352
犗	-15.4353
爞	-15.4354
焄	-15.4355
烎	-15.4356
澒	-15.4357
渻	-15.4358
涶	-15.4359
涒	-15.436
泘	-15.4361
櫽	-15.4362
櫱	-15.4363
檎	-15.4364
榾	-15.4365
榕	-15.4366
棙	-15.4367
曨	-15.4368
斨	-15.4369
攦	-15.437
摃	-15.4371
搧	-15.4372
掎	-15.4373
捃	-15.4374
拶	-15.4375
拮	-15.4376
慜	-15.4377
恿	-15.4378
忼	-15.4379
忳	-15.438
弚	-15.4381
弆	-15.4382
帠	-15.4383
崍	-15.4384
嬛	-15.4385
嫏	-15.4386
婭	-15.4387
夐	-15.4388
壝	-15.4389
壕	-15.439
墙	-15.4391
倆	-15.4392
堈	-15.4392
埿	-15.4393
垜	-15.4394
圑	-15.4395
嚓	-15.4396
嚆	-15.4397
嘍	-15.4398
嗨	-15.4399
嗥	-15.44
㾃	-15.44
啵	-15.4401
啇	-15.4402
卼	-15.4403
匁	-15.4404
勍	-15.4405
僇	-15.4406
倥	-15.4407
佒	-15.4408
䀨	-15.4409
㿈	-15.441
㢰	-15.4411
㓾	-15.4412
*	-15.4413
􂉘	-15.4414
􂈣	-15.4415
𦯰	-15.4416
𦆯	-15.4417
𤉹	-15.4418
𢿋	-15.4419
𡛥	-15.442
𡅵	-15.4421
𠾐	-15.4422
齷	-15.4423
齪	-15.4424
鶵	-15.4425
顢	-15.4426
鞶	-15.4427
雈	-15.4428
閥	-15.4429
鎡	-15.443
邲	-15.4431
轘	-15.4432
輊	-15.4433
蹣	-15.4434
踆	-15.4435
跚	-15.4436
豶	-15.4437
譸	-15.4438
詿	-15.4439
觫	-15.444
㨾	-15.444
蕘	-15.4441
莨	-15.4442
莓	-15.4443
臹	-15.4444
纁	-15.4445
繮	-15.4446
緹	-15.4447
綌	-15.4448
篐	-15.4449
秭	-15.445
礄	-15.4451
磺	-15.4452
碏	-15.4453
瞌	-15.4454
瑪	-15.4455
瑙	-15.4456
☯	-15.4456
䊀	-15.4456
偑	-15.4456
瑑	-15.4457
獍	-15.4458
焜	-15.4459
澼	-15.446
滹	-15.4461
洴	-15.4462
洚	-15.4463
泫	-15.4464
㔶	-15.4464
㫳	-15.4464
伭	-15.4464
檮	-15.4465
槹	-15.4466
榑	-15.4467
枒	-15.4468
旖	-15.4469
旎	-15.447
恧	-15.4471
嵛	-15.4472
臞	-15.4472
奘	-15.4473
塪	-15.4474
埌	-15.4475
垕	-15.4476
噌	-15.4477
嘮	-15.4478
呮	-15.4479
幗	-15.4479
吰	-15.448
㖅	-15.448
䘌	-15.448
剮	-15.448
偌	-15.4481
偊	-15.4482
􂆴	-15.4483
􂆲	-15.4484
𥻘	-15.4485
𡺾	-15.4486
𡷾	-15.4487
𠟡	-15.4488
㗆	-15.4488
侓	-15.4488
劳	-15.4488
鼫	-15.4489
鮫	-15.449
鏖	-15.4491
鈃	-15.4492
䞡	-15.4492
躶	-15.4493
踖	-15.4494
趵	-15.4495
赳	-15.4496
崆	-15.4496
⊙	-15.4496
㖇	-15.4496
䆃	-15.4496
䈸	-15.4496
䌩	-15.4496
䘚	-15.4496
佴	-15.4496
偱	-15.4496
儥	-15.4496
刵	-15.4496
褉	-15.4497
蠁	-15.4498
螗	-15.4499
蝙	-15.45
冫	-15.45
蜈	-15.4501
蛉	-15.4502
蚣	-15.4503
虻	-15.4504
㘅	-15.4504
㤅	-15.4504
㬇	-15.4504
㭮	-15.4504
乒	-15.4504
乓	-15.4504
刜	-15.4504
萄	-15.4505
茉	-15.4506
艧	-15.4507
肸	-15.4508
亍	-15.4508
翐	-15.4509
翏	-15.451
翂	-15.4511
羑	-15.4512
ㄅ	-15.4512
䈥	-15.4512
劊	-15.4512
卍	-15.4512
卬	-15.4512
紘	-15.4513
笫	-15.4514
稯	-15.4515
祫	-15.4516
㝔	-15.4516
㠐	-15.4516
䵬	-15.4516
磗	-15.4517
矱	-15.4518
䆗	-15.4518
玞	-15.4519
獼	-15.452
朧	-15.452
㫤	-15.452
䃾	-15.452
䍧	-15.452
兪	-15.452
昺	-15.452
狌	-15.4521
犄	-15.4522
瀋	-15.4523
湓	-15.4524
㹸	-15.4524
㽞	-15.4524
䤌	-15.4524
䰟	-15.4524
佪	-15.4524
歜	-15.4525
歔	-15.4526
欖	-15.4527
は	-15.4527
螻	-15.4528
椓	-15.4528
#	-15.4528
;	-15.4528
P	-15.4528
Y	-15.4528
d	-15.4528
╳	-15.4528
し	-15.4528
㒺	-15.4528
㕹	-15.4528
㖀	-15.4528
㘘	-15.4528
㚒	-15.4528
㩋	-15.4528
㫒	-15.4528
䈴	-15.4528
䓂	-15.4528
䷽	-15.4528
乱	-15.4528
侻	-15.4528
傒	-15.4528
儈	-15.4528
凘	-15.4528
匍	-15.4528
珈	-15.4528
r	-15.4528
䧅	-15.4528
枻	-15.4529
朓	-15.453
㲉	-15.453
暵	-15.4531
晹	-15.4532
㟏	-15.4532
佀	-15.4532
匐	-15.4532
懣	-15.4533
悻	-15.4534
䳵	-15.4534
怓	-15.4535
忉	-15.4536
㗞	-15.4536
㞤	-15.4536
㠌	-15.4536
㹶	-15.4536
䋈	-15.4536
䒱	-15.4536
䷼	-15.4536
仚	-15.4536
偭	-15.4536
剄	-15.4536
劀	-15.4536
卅	-15.4536
歗	-15.4536
麞	-15.4536
幈	-15.4537
岔	-15.4538
孶	-15.4539
塏	-15.454
㱆	-15.454
䏃	-15.454
喨	-15.4541
哱	-15.4542
咂	-15.4543
儿	-15.4544
㖮	-15.4544
㨂	-15.4544
㭁	-15.4544
㺯	-15.4544
䷂	-15.4544
䷄	-15.4544
伻	-15.4544
倜	-15.4544
儐	-15.4544
卮	-15.4544
躇	-15.4544
仃	-15.4545
𠨑	-15.4546
齠	-15.4547
齔	-15.4548
韆	-15.4549
靦	-15.455
霢	-15.4551
雽	-15.4552
㗁	-15.4552
㠛	-15.4552
㠟	-15.4552
㴎	-15.4552
㵟	-15.4552
㵳	-15.4552
䀠	-15.4552
䃭	-15.4552
䣛	-15.4552
佉	-15.4552
谽	-15.4553
覼	-15.4554
蠮	-15.4555
蟋	-15.4556
蟀	-15.4557
蜻	-15.4558
蜘	-15.4559
藟	-15.456
㠋	-15.456
㱔	-15.456
䇄	-15.456
䗬	-15.456
䠞	-15.456
䠥	-15.456
䣃	-15.456
䪘	-15.456
偰	-15.456
劦	-15.456
皡	-15.4561
瘓	-15.4562
獗	-15.4563
狴	-15.4564
彿	-15.4564
澘	-15.4565
潧	-15.4566
杌	-15.4567
擻	-15.4568
㣼	-15.4568
㱯	-15.4568
㶚	-15.4568
䀻	-15.4568
䝤	-15.4568
䟫	-15.4568
剠	-15.4568
霙	-15.4568
巑	-15.4569
岏	-15.457
婷	-15.4571
塿	-15.4572
㫄	-15.4572
塾	-15.4573
齬	-15.4574
齟	-15.4575
鷽	-15.4576
㜣	-15.4576
㨀	-15.4576
㨅	-15.4576
㳙	-15.4576
䋡	-15.4576
䡛	-15.4576
䦘	-15.4576
伋	-15.4576
佼	-15.4576
傞	-15.4576
党	-15.4576
凁	-15.4576
嘷	-15.4576
鶘	-15.4577
鵜	-15.4578
鯁	-15.4579
駙	-15.458
鎁	-15.4581
酊	-15.4582
轤	-15.4583
襆	-15.4584
㔙	-15.4584
䲧	-15.4584
乹	-15.4584
仳	-15.4584
份	-15.4584
卝	-15.4584
蠓	-15.4585
藎	-15.4586
蒺	-15.4587
葂	-15.4588
萏	-15.4589
莆	-15.459
舋	-15.4591
痳	-15.4592
㑗	-15.4592
㘠	-15.4592
㜅	-15.4592
㥑	-15.4592
㧅	-15.4592
㮙	-15.4592
䁔	-15.4592
䦱	-15.4592
䧑	-15.4592
䮚	-15.4592
䰅	-15.4592
仉	-15.4592
俻	-15.4592
傶	-15.4592
儱	-15.4592
划	-15.4592
甶	-15.4593
甤	-15.4594
琵	-15.4595
琭	-15.4596
煴	-15.4597
洟	-15.4598
沄	-15.4599
殍	-15.46
㕧	-15.46
㝢	-15.46
倯	-15.46
枸	-15.4601
摔	-15.4602
惔	-15.4603
嶪	-15.4604
崏	-15.4605
宄	-15.4606
哵	-15.4607
吷	-15.4608
㙰	-15.4608
㡌	-15.4608
㬘	-15.4608
㼜	-15.4608
䞇	-15.4608
凓	-15.4608
倕	-15.4609
㶁	-15.461
㤐	-15.4611
𨦐	-15.4612
𧴀	-15.4613
龢	-15.4614
頏	-15.4615
霂	-15.4616
㦬	-15.4616
㴻	-15.4616
䄄	-15.4616
䌟	-15.4616
䖵	-15.4616
䨴	-15.4616
雸	-15.4617
鑵	-15.4618
錚	-15.4619
蠐	-15.462
蟪	-15.4621
蛄	-15.4622
腪	-15.4623
絏	-15.4624
䡍	-15.4625
傕	-15.4625
淯	-15.4625
枌	-15.4626
揵	-15.4627
彾	-15.4628
嶤	-15.4629
岧	-15.463
嫋	-15.4631
靊	-15.4632
>	-15.4633
C	-15.4633
㘄	-15.4633
䪺	-15.4633
䰇	-15.4633
蹁	-15.4633
踶	-15.4634
覦	-15.4635
菖	-15.4636
羝	-15.4637
笊	-15.4638
滃	-15.4639
洹	-15.464
毿	-15.4641
䗶	-15.4641
佊	-15.4641
佋	-15.4641
撢	-15.4642
嵫	-15.4643
娓	-15.4644
嚨	-15.4645
喋	-15.4646
咷	-15.4647
吩	-15.4648
㷀	-15.4649
㘑	-15.4649
㡗	-15.4649
𧕍	-15.465
𧏙	-15.4651
靆	-15.4652
輜	-15.4653
裟	-15.4654
虰	-15.4655
瓓	-15.4656
猙	-15.4657
㫻	-15.4657
濓	-15.4658
枵	-15.4659
徬	-15.466
𩵄	-15.4661
𩳐	-15.4662
魓	-15.4663
邙	-15.4664
踟	-15.4665
䤋	-15.4665
貅	-15.4666
矻	-15.4667
歅	-15.4668
櫳	-15.4669
懨	-15.467
懔	-15.4671
慌	-15.4672
怦	-15.4673
姮	-15.4674
啍	-15.4675
䰢	-15.4676
𩲃	-15.4677
謦	-15.4678
糢	-15.4679
玻	-15.468
獓	-15.4681
㕣	-15.4681
僓	-15.4681
湲	-15.4682
氅	-15.4683
娉	-15.4684
駸	-15.4685
逶	-15.4686
蜋	-15.4687
繄	-15.4688
粕	-15.4689
㑀	-15.4689
㴉	-15.4689
㸑	-15.4689
㹖	-15.4689
笤	-15.469
硌	-15.4691
琊	-15.4692
珀	-15.4693
洱	-15.4694
挲	-15.4695
戔	-15.4696
怫	-15.4697
娌	-15.4698
妯	-15.4699
呱	-15.47
剞	-15.4701
餮	-15.4702
颻	-15.4703
嫦	-15.4704
佺	-15.4705
䒦	-15.4705
翡	-15.4706
硜	-15.4707
牁	-15.4708
憍	-15.4709
蓽	-15.471
惆	-15.4711
廚	-15.4712
嘖	-15.4713
儡	-15.4714
㬋	-15.4715
麒	-15.4716
鴦	-15.4717
孥	-15.4718
鵡	-15.4719
邂	-15.472
螳	-15.4721
䯱	-15.4721
螂	-15.4722
苒	-15.4723
窕	-15.4724
髑	-15.4725
鄱	-15.4726
匆	-15.4727
蘩	-15.4728
惵	-15.4729
惴	-15.473
魃	-15.4731
磻	-15.4732
瓚	-15.4733
髴	-15.4734
髣	-15.4735
劬	-15.4736
遢	-15.4737
撕	-15.4738
魎	-15.4739
邋	-15.474
魍	-15.4741
玕	-15.4742
慷	-15.4743
僥	-15.4744
帡	-15.4745
嚀	-15.4746
涬	-15.4747
蝴	-15.4748
憧	-15.4749
胱	-15.475
█	-15.4751
醐	-15.4752
芙	-15.4753
卋	-15.4754
楞	-15.4754
