<unk>	0
<s>	0
</s>	0
之	-4.13187
於	-4.96881
)	-5.06595
(	-5.06609
以	-5.14529
而	-5.3539
爲	-5.37785
有	-5.46282
不	-5.48131
一	-5.51177
上	-5.55025
/	-5.55725
者	-5.59454
也	-5.61434
天	-5.62442
神	-5.64094
中	-5.66623
人	-5.68255
生	-5.71759
無	-5.76469
其	-5.81111
道	-5.8205
臣	-5.83187
符	-5.88427
三	-5.89954
大	-5.92418
心	-6.00044
行	-6.00846
靈	-6.01879
下	-6.02882
日	-6.05155
法	-6.05628
玄	-6.14137
自	-6.14755
眞	-6.16029
此	-6.16423
則	-6.17535
身	-6.19313
明	-6.21598
至	-6.21753
如	-6.21769
在	-6.23294
五	-6.23769
所	-6.24447
九	-6.26705
或	-6.29662
炁	-6.31544
時	-6.32832
入	-6.33498
經	-6.36472
得	-6.37463
名	-6.37716
曰	-6.42537
二	-6.42788
諸	-6.43807
玉	-6.4395
氣	-6.44635
水	-6.46677
山	-6.48266
文	-6.48451
四	-6.48912
光	-6.49069
▁	-6.49426
同	-6.50277
仙	-6.50575
君	-6.50644
是	-6.51103
見	-6.52535
精	-6.52916
與	-6.53569
出	-6.54374
地	-6.54391
金	-6.5498
用	-6.55818
化	-6.56653
次	-6.56923
令	-6.57298
相	-6.58343
子	-6.59126
宫	-6.59315
故	-6.60087
當	-6.60933
言	-6.61106
元	-6.61209
雲	-6.63053
度	-6.6321
某	-6.63235
常	-6.63321
若	-6.64039
開	-6.6414
今	-6.64681
及	-6.65559
皆	-6.66104
師	-6.67443
合	-6.67671
形	-6.67771
書	-6.68631
萬	-6.69998
乃	-6.70187
非	-6.70489
六	-6.71185
陽	-6.71596
即	-6.72228
受	-6.7273
門	-6.73159
章	-6.73233
通	-6.73777
命	-6.7407
右	-6.75656
和	-6.75764
帝	-6.76362
方	-6.76383
成	-6.76583
願	-6.76761
飛	-6.76824
七	-6.77434
天尊	-6.77908
字	-6.78379
真	-6.78629
華	-6.78668
來	-6.79376
未	-6.79536
前	-6.79892
運	-6.80003
眞人	-6.80485
念	-6.81593
分	-6.81615
内	-6.82238
可	-6.82261
流	-6.82425
司	-6.82518
我	-6.82698
後	-6.83642
主	-6.83935
事	-6.84776
長	-6.84807
隂	-6.85677
八	-6.85698
正	-6.87137
王	-6.87546
觀	-6.87768
等	-6.8805
又	-6.88258
使	-6.88342
聖	-6.88449
應	-6.88611
降	-6.88794
丹	-6.88874
火	-6.89155
矣	-6.89625
巳	-6.90099
星	-6.91269
能	-6.91308
本	-6.91939
寳	-6.91971
復	-6.91997
亦	-6.92069
龍	-6.92245
善	-6.93348
景	-6.93401
清	-6.93539
年	-6.94604
存	-6.95054
從	-6.95177
十	-6.95297
鬼	-6.95309
太上	-6.9629
作	-6.97291
死	-6.97532
風	-6.97618
知	-6.97811
官	-6.98506
一切	-6.98759
立	-6.98997
安	-6.99662
妙	-6.99884
罪	-7.00516
過	-7.00659
)(	-7.01216
福	-7.02067
各	-7.02365
重	-7.02863
青	-7.02871
宣	-7.02964
德	-7.04199
月	-7.04815
請	-7.05631
然	-7.06065
先	-7.06262
聞	-7.07559
奉	-7.07756
修	-7.08096
髙	-7.09007
散	-7.09411
齋	-7.09971
壇	-7.1015
黄	-7.1024
云	-7.1198
自然	-7.12077
靈寳	-7.12438
洞	-7.1248
白	-7.13667
欲	-7.1383
將	-7.13865
十方	-7.13949
物	-7.14099
定	-7.14204
因	-7.14396
外	-7.14415
處	-7.146
世	-7.15839
何	-7.16243
去	-7.16332
位	-7.18421
隨	-7.18596
取	-7.1901
香	-7.19499
空	-7.19673
朝	-7.19744
傳	-7.19774
衆	-7.19959
歸	-7.20042
儀	-7.21173
惡	-7.22388
召	-7.23342
九天	-7.23464
虚	-7.2372
依	-7.24646
解	-7.24683
左	-7.25241
永	-7.25306
除	-7.25678
關	-7.25939
不得	-7.26218
禮	-7.26789
食	-7.27024
家	-7.28295
魂	-7.29178
並	-7.29313
功	-7.29846
色	-7.3024
治	-7.30481
結	-7.30601
難	-7.30644
口	-7.31075
多	-7.31189
无	-7.31478
府	-7.31749
衣	-7.31818
凡	-7.32346
居	-7.32654
眞君	-7.32874
幽	-7.33811
極	-7.34212
呪	-7.34617
服	-7.34645
還	-7.3488
發	-7.349
告	-7.354
樂	-7.35419
畢	-7.35899
登	-7.36499
起	-7.37508
石	-7.37631
攝	-7.37706
千	-7.3818
尊	-7.38515
玉女	-7.38614
數	-7.39118
滅	-7.39162
百	-7.3947
盡	-7.39491
致	-7.40054
苦	-7.40207
周	-7.4081
列	-7.41311
紫	-7.42074
普	-7.42263
離	-7.42423
仰	-7.42454
太	-7.42502
業	-7.42678
天地	-7.4308
上清	-7.43318
教	-7.4445
乗	-7.44723
啓	-7.44796
具	-7.45547
照	-7.46364
惟	-7.46502
南	-7.4674
赤	-7.46899
羅	-7.47559
㑹	-7.4779
備	-7.47871
遊	-7.48384
簡	-7.48768
土	-7.48811
信	-7.49244
公	-7.50018
廣	-7.50667
奏	-7.50723
東	-7.51298
深	-7.51406
恩	-7.51509
伏	-7.51645
吾	-7.51705
邪	-7.52043
都	-7.52556
向	-7.52559
守	-7.52839
轉	-7.52854
保	-7.53012
俱	-7.53214
戒	-7.5349
隱	-7.53598
思	-7.53617
北	-7.53744
垂	-7.54125
小	-7.54168
災	-7.54272
根	-7.54332
莫	-7.54335
諸天	-7.54802
遂	-7.55459
聲	-7.55535
理	-7.55849
御	-7.5594
執	-7.56008
謹	-7.56094
塵	-7.56405
藏	-7.56415
訣	-7.56466
道士	-7.56469
旣	-7.56556
耳	-7.56556
西	-7.56835
變	-7.56927
木	-7.57098
病	-7.57471
夜	-7.57554
意	-7.57669
目	-7.58199
息	-7.58332
悉	-7.58614
體	-7.58726
素	-7.58909
凝	-7.59115
節	-7.5916
始	-7.59186
坐	-7.59265
造	-7.60159
期	-7.60271
兩	-7.60309
玉清	-7.60467
實	-7.60471
消	-7.60648
施	-7.60728
交	-7.61309
必	-7.61589
已	-7.61812
慈	-7.61994
宿	-7.62655
劫	-7.62686
動	-7.62855
承	-7.63332
求	-7.63548
乎	-7.63604
舉	-7.63702
殺	-7.63821
便	-7.63863
平	-7.64571
國	-7.64675
咸	-7.64697
積	-7.65179
性	-7.6557
持	-7.65807
初	-7.66316
說	-7.66734
微	-7.66786
慶	-7.66873
誦	-7.66938
回	-7.67094
止	-7.67114
耀	-7.67466
絶	-7.67586
縁	-7.6767
之中	-7.67734
法師	-7.67747
三界	-7.68345
圖	-7.68492
靜	-7.68739
注	-7.68808
感	-7.69021
須	-7.69136
女	-7.69164
不可	-7.69184
元始	-7.69459
超	-7.69748
號	-7.70065
力	-7.70232
齊	-7.70252
對	-7.70296
牒	-7.70334
異	-7.70361
十二	-7.70572
弟子	-7.70615
皇	-7.70789
日月	-7.70808
式	-7.71431
諱	-7.71516
臨	-7.71644
申	-7.71898
宗	-7.72324
斗	-7.72378
職	-7.73096
蓋	-7.73221
更	-7.73476
燈	-7.73561
焉	-7.73841
象	-7.74402
神仙	-7.74446
制	-7.75048
狀	-7.75097
天尊志心朝禮	-7.75141
考	-7.75149
大道	-7.75231
勑	-7.75233
昭	-7.75236
朱	-7.75245
濟	-7.75582
科	-7.75679
䰟	-7.75801
布	-7.75964
民	-7.76395
于	-7.76398
首	-7.76818
疾	-7.77029
威	-7.77324
引	-7.77653
敷	-7.77726
品	-7.77932
由	-7.77973
録	-7.78216
謂	-7.7865
誠	-7.78696
拜	-7.78752
但	-7.79159
建	-7.79276
林	-7.79403
直	-7.79944
共	-7.80062
升	-7.8028
夫	-7.8034
海	-7.80448
頭	-7.80639
犯	-7.80801
祈	-7.80803
延	-7.809
三元	-7.80983
澤	-7.81148
州	-7.81217
陳	-7.8152
授	-7.81737
足	-7.82435
雖	-7.82717
進	-7.82719
印	-7.82872
伏願	-7.83173
親	-7.83323
利	-7.83624
終	-7.83867
五帝	-7.83964
詣	-7.83983
淨	-7.84056
著	-7.84109
辰	-7.84564
謝	-7.84568
獄	-7.84686
失	-7.84841
獲	-7.84976
表	-7.84986
傷	-7.85483
集	-7.85578
壽	-7.85739
地獄	-7.85953
胎	-7.86372
呪曰	-7.86395
開度	-7.86821
天帝	-7.8699
恭	-7.87002
領	-7.87035
屬	-7.87206
藥	-7.8768
功德	-7.8787
面	-7.88012
隂陽	-7.8821
老	-7.88242
三天	-7.88246
衆生	-7.88394
室	-7.88397
穢	-7.88707
志	-7.8912
兵	-7.89244
惠	-7.89397
易	-7.89407
庭	-7.89513
旛	-7.89688
使者	-7.89914
真人	-7.90117
映	-7.90132
煥	-7.90454
資	-7.90751
嚴	-7.90798
雨	-7.9088
報	-7.90951
▲	-7.91034
帝君	-7.91037
張	-7.91385
瓊	-7.9156
醮	-7.91772
害	-7.91842
乞	-7.92201
鍊	-7.92408
音	-7.92476
問	-7.92487
靈官	-7.93272
母	-7.93356
興	-7.93668
九幽	-7.93974
指	-7.94156
情	-7.94304
蒙	-7.94333
魔	-7.94577
按	-7.94887
駕	-7.94892
東方	-7.9511
焚	-7.95118
黃	-7.95122
卷	-7.95317
境	-7.95579
破	-7.95837
遇	-7.95896
臺	-7.95928
部	-7.9597
宮	-7.96162
錬	-7.96276
宜	-7.96525
手	-7.97077
容	-7.9721
紀	-7.97312
佩	-7.97672
設	-7.98133
護	-7.9826
返	-7.98503
路	-7.9851
毒	-7.98527
曲	-7.98624
斷	-7.98697
收	-7.99043
籍	-7.99144
座	-7.99484
宅	-7.99545
汝	-7.99583
滿	-7.99594
餘	-7.99712
祝	-7.99849
籙	-8.0001
之炁	-8.00131
崇	-8.00192
晨	-8.00452
歩	-8.00459
稱	-8.00528
春	-8.00746
三寳	-8.00761
要	-8.01017
大神	-8.01094
侍	-8.01111
敬	-8.0121
果	-8.01429
歳	-8.015
冠	-8.0153
望	-8.01552
全	-8.01594
想	-8.01968
不能	-8.02275
速	-8.02361
生死	-8.02569
黒	-8.02624
闕	-8.02804
仁	-8.02856
童子	-8.02933
圓	-8.03206
義	-8.03259
禁	-8.03362
昇	-8.03873
中有	-8.03885
學	-8.04073
間	-8.04239
馬	-8.04645
識	-8.04903
投	-8.0507
養	-8.05086
宻	-8.05169
亡	-8.05294
封	-8.05621
輪	-8.05812
混	-8.05852
切	-8.05958
詞	-8.06495
聽	-8.06612
上帝	-8.06712
榮	-8.0683
遍	-8.06833
浮	-8.07463
魄	-8.0749
姓	-8.07502
質	-8.07514
順	-8.07609
到	-8.08001
昌	-8.08095
勤	-8.08138
輝	-8.08585
少	-8.08595
累	-8.08727
左右	-8.08837
三洞	-8.08851
被	-8.08997
賜	-8.09018
顯	-8.09668
太一	-8.09801
界	-8.09945
悟	-8.10075
城	-8.10695
落	-8.10765
急	-8.10959
語	-8.11216
房	-8.113
北方	-8.11351
古	-8.1161
爾	-8.11876
長生	-8.12327
天尊志心敬禮	-8.12635
妄	-8.12949
益	-8.13152
南方	-8.13252
堂	-8.1328
夫人	-8.13295
送	-8.13324
逺	-8.13833
稽首	-8.14224
救	-8.14628
泉	-8.14752
源	-8.14959
功曹	-8.15021
愛	-8.15123
克	-8.15172
五嶽	-8.15302
種	-8.15337
道君	-8.15463
好	-8.15625
珠	-8.15838
輕	-8.15962
却	-8.16119
加	-8.16154
鎭	-8.16421
證	-8.16531
育	-8.16702
雷	-8.16778
庶	-8.16792
梵	-8.16938
履	-8.16945
契	-8.16948
㝠	-8.16956
至眞	-8.16977
吏	-8.17184
冥	-8.17247
殿	-8.17375
供養	-8.17481
勿	-8.17525
别	-8.17586
監	-8.17681
總	-8.17825
覆	-8.18032
祖	-8.18292
無量	-8.18631
河	-8.18814
祥	-8.18863
猶	-8.1909
違	-8.19176
掌	-8.19372
久	-8.19421
會	-8.19461
再	-8.19939
住	-8.20377
西方	-8.20769
新	-8.2079
典	-8.21027
彼	-8.21082
盛	-8.21091
光明	-8.21171
既	-8.21258
三十六	-8.21422
載	-8.2192
固	-8.2225
霄	-8.2235
車	-8.22569
留	-8.22961
男女	-8.23126
曹	-8.2315
凶	-8.23983
貴	-8.24013
迎	-8.24325
輔	-8.24327
尸	-8.24361
兹	-8.24444
休	-8.24472
禍	-8.24615
祕	-8.24621
乾	-8.24677
迴	-8.2473
負	-8.24844
朗	-8.24847
行道	-8.25435
恐	-8.25534
斯	-8.25564
金闕	-8.25645
蕩	-8.25662
羽	-8.25726
覺	-8.25762
誓	-8.25908
星君	-8.26026
閉	-8.26759
機	-8.26913
澄	-8.26972
遣	-8.27094
徃	-8.27236
甚	-8.27274
懴	-8.27551
沉	-8.27577
寧	-8.27821
二十四	-8.27966
扶	-8.28148
天下	-8.28178
煙	-8.28346
達	-8.28918
五方	-8.28958
盟	-8.29155
停	-8.29178
如是	-8.29434
敢	-8.29569
腎	-8.2957
吉	-8.29574
殃	-8.29611
徒	-8.29737
花	-8.30021
急急如律令	-8.30023
先生	-8.301
無極	-8.30132
班	-8.30347
内外	-8.30395
懴悔	-8.30435
祐	-8.30507
得道	-8.3065
賢	-8.3083
提	-8.30975
大將軍	-8.31196
勝	-8.31253
臣等	-8.31272
敕	-8.31282
連	-8.31614
露	-8.31778
置	-8.32005
獨	-8.32193
豈	-8.32439
玄壇	-8.32696
揚	-8.32825
今日	-8.32845
并	-8.32884
就	-8.32892
唯	-8.33019
曜	-8.33022
鑒	-8.33103
第二	-8.33125
無上	-8.33175
縣	-8.33212
昔	-8.33327
哉	-8.33664
洪	-8.33682
之道	-8.33781
霞	-8.33859
遷	-8.34066
呼	-8.34202
天門	-8.34422
專	-8.34951
患	-8.34976
條	-8.34982
潜	-8.3504
放	-8.3512
騰	-8.35125
釋	-8.35128
不知	-8.35188
酒	-8.35234
視	-8.353
忽	-8.35482
代	-8.35674
刑	-8.35849
愆	-8.36113
爽	-8.36189
童	-8.36293
士	-8.36732
俗	-8.36826
虎	-8.36911
近	-8.37048
良	-8.37174
禄	-8.37276
調	-8.37371
老君	-8.37391
第一	-8.37497
三官	-8.37624
許	-8.37698
英	-8.37734
俾	-8.37799
鳯	-8.378
天人	-8.37837
接	-8.3797
聚	-8.38106
迷	-8.38116
智	-8.38143
泰	-8.38388
符命	-8.38559
尚	-8.38728
鬼神	-8.38845
太極	-8.38866
獻	-8.38935
頌	-8.3936
將軍	-8.3946
痛	-8.39599
變化	-8.39962
潔	-8.39975
水火	-8.40065
幸	-8.40313
之所	-8.4032
示	-8.40426
北斗	-8.40498
中央	-8.40622
津	-8.40743
如此	-8.40952
妖	-8.41087
玄都	-8.41232
統	-8.41514
寒	-8.41605
午	-8.41663
付	-8.4184
田	-8.42229
格	-8.42489
逐	-8.4261
反	-8.42644
徧	-8.4271
像	-8.42778
之後	-8.42839
緑	-8.42985
第三	-8.43158
血	-8.43186
岀	-8.43356
兆	-8.4355
野	-8.43622
度人	-8.4365
徹	-8.43799
无上	-8.4382
免	-8.43849
奉行	-8.43861
滯	-8.43893
逍遥	-8.44244
拔	-8.44247
太清	-8.44263
大聖	-8.44317
逆	-8.44324
徳	-8.44394
披	-8.44484
父母	-8.4475
任	-8.44839
歌	-8.45002
均	-8.45038
移	-8.45092
天師	-8.45099
厄	-8.45446
俯	-8.45479
淵	-8.45484
漢	-8.45521
慈悲	-8.45535
亡魂	-8.45636
端	-8.45663
禀	-8.45841
鼻	-8.45928
赦	-8.46062
寂	-8.46068
芝	-8.46148
𡨚	-8.46354
所以	-8.46422
三光	-8.46435
萬物	-8.46546
眞文	-8.46546
郷	-8.4662
跡	-8.46664
原	-8.46713
了	-8.4675
肅	-8.4683
仙官	-8.46928
毎	-8.46942
脫	-8.47039
甲	-8.4711
而不	-8.47146
里	-8.47286
演	-8.47343
寅	-8.47465
唱	-8.4757
天尊至心朝禮	-8.47573
骨	-8.47634
差	-8.47664
驚	-8.47808
為	-8.47938
追	-8.48046
冝	-8.48046
五行	-8.48077
亂	-8.48214
之法	-8.48266
以今	-8.48456
推	-8.48473
院	-8.48615
辭	-8.48617
鳳	-8.4887
大帝	-8.48896
伏以	-8.48922
憂	-8.48954
計	-8.49102
參	-8.49409
萬神	-8.49875
貪	-8.49924
瑞	-8.49964
域	-8.49984
讃	-8.50214
之人	-8.50273
忘	-8.5059
遵	-8.50591
元君	-8.50592
然後	-8.51009
神虎	-8.51209
紙	-8.51232
財	-8.51354
仍	-8.51631
幕	-8.51658
驗	-8.51773
武	-8.51805
因縁	-8.51877
無爲	-8.51915
喜	-8.51965
蒼	-8.52598
且	-8.52926
宇	-8.52957
井	-8.53324
奔	-8.53348
巨	-8.53364
廻	-8.53401
江	-8.53464
律令	-8.53562
父	-8.53603
善男子	-8.53666
慧	-8.5382
訖	-8.53842
經云	-8.5385
魔王	-8.53913
尋	-8.54002
旋	-8.54039
舍	-8.54381
他	-8.54458
潤	-8.54841
夷	-8.55263
司命	-8.55294
上元	-8.55325
捨	-8.55428
萬劫	-8.55454
記	-8.55475
清淨	-8.55489
瞻	-8.55568
廟	-8.55608
眼	-8.55749
緫	-8.55923
斬	-8.56579
震	-8.56602
太陽	-8.56649
慮	-8.56657
肝	-8.56702
只	-8.56755
肺	-8.56901
篇	-8.56925
於是	-8.57185
味	-8.57257
碧	-8.57358
爰	-8.57381
律	-8.57513
掐	-8.57585
絳	-8.57854
是也	-8.57902
㫖	-8.58071
際	-8.58165
炎	-8.58321
營	-8.58358
窮	-8.58416
衞	-8.5843
可以	-8.58452
含	-8.5847
紫微	-8.5847
殊	-8.58522
逹	-8.58551
波	-8.58584
竟	-8.58841
懷	-8.5919
救苦	-8.59274
以爲	-8.59326
傾	-8.5942
背	-8.59424
鳴	-8.59436
馳	-8.59657
夢	-8.59663
候	-8.60011
干	-8.60135
弘	-8.60257
沐浴	-8.60377
往	-8.60502
勞	-8.60704
省	-8.60753
薦	-8.6095
論	-8.6102
高	-8.6106
亥	-8.6155
谷	-8.61696
乆	-8.61709
舊	-8.61885
飛仙	-8.61964
助	-8.62142
讀	-8.62297
鐵	-8.6235
逢	-8.62369
庸	-8.62529
徑	-8.62721
無邊	-8.62853
本命	-8.63382
真君	-8.63386
仗	-8.63505
察	-8.63531
融	-8.63652
錢	-8.63752
現	-8.63839
太玄	-8.63841
副	-8.63984
賛	-8.64016
李	-8.6417
充	-8.64205
允	-8.64209
虛	-8.64214
所謂	-8.64258
秋	-8.64348
範	-8.64376
太隂	-8.64561
歡	-8.64818
衛	-8.64855
之時	-8.64882
鎮	-8.64886
草	-8.65074
筆	-8.65106
正一	-8.65237
導	-8.65308
威儀	-8.65313
無窮	-8.65385
每	-8.6544
酆都	-8.65949
丈人	-8.66106
生神	-8.66207
神王	-8.66385
損	-8.66395
眞靈	-8.6642
飲	-8.66498
荷	-8.66511
智慧	-8.6654
燒香	-8.67014
影	-8.67105
若有	-8.67393
燭	-8.67398
愚	-8.67517
輿	-8.67531
吹	-8.67554
樹	-8.67605
五色	-8.67864
階	-8.67926
納	-8.68094
咽	-8.68152
吐	-8.68338
序	-8.68508
葉	-8.68526
秀	-8.68761
振	-8.6878
彰	-8.68833
元陽	-8.68877
招	-8.68941
豐	-8.69459
錬度	-8.69475
役	-8.69632
辛	-8.69753
芒	-8.69788
罰	-8.6982
特	-8.69864
佐	-8.69962
疑	-8.70002
烟	-8.7027
臻	-8.70388
冀	-8.70648
竒	-8.70661
上聖	-8.70778
夏	-8.70814
之日	-8.70844
脾	-8.70851
響	-8.71014
劵	-8.71017
錫	-8.7111
群	-8.71123
三炁	-8.71236
嶽	-8.71396
案	-8.71453
丑	-8.71501
嬰	-8.71565
鶴	-8.71659
戸	-8.71661
告下	-8.71773
抱	-8.7179
謂之	-8.71826
康	-8.71937
羣	-8.72648
髙功	-8.72677
増	-8.72705
歷	-8.7273
鼓	-8.72797
丈	-8.72966
宴	-8.73151
之上	-8.73496
彩	-8.73499
假	-8.73603
頒	-8.73697
亡靈	-8.73877
向來	-8.73903
池	-8.7414
危	-8.74282
唐	-8.74295
三十	-8.74445
氏	-8.74592
之功	-8.74603
天中	-8.7473
退	-8.74871
眷屬	-8.75309
盈	-8.75332
天尊信禮	-8.75579
皈依	-8.75648
汝等	-8.75688
檢	-8.75695
悲	-8.75753
朱陵	-8.75993
伯	-8.76085
半	-8.7611
仙人	-8.76288
遠	-8.76398
劒	-8.76719
䇿	-8.76721
髙上	-8.7675
刻	-8.76818
長夜	-8.77001
下降	-8.77053
青玄	-8.77172
蘭	-8.77187
䟽	-8.77196
函	-8.77299
希	-8.77362
孝	-8.77373
頂	-8.77629
堅	-8.77991
隆	-8.78041
紅	-8.7815
聖前	-8.7831
髮	-8.7842
三清	-8.78441
西北	-8.78542
主者	-8.78566
愈	-8.78593
灌	-8.78596
天曹	-8.78691
學道	-8.78757
御前	-8.78797
縱	-8.78799
卯	-8.78816
邊	-8.79014
靈寳領教濟度金書卷之	-8.79091
陶	-8.79104
將吏	-8.79121
帶	-8.79168
東南	-8.79243
夕	-8.79263
卿	-8.79266
朱書	-8.79323
具位	-8.79385
侵	-8.79653
驅	-8.79662
祖師	-8.79851
覩	-8.79873
刀	-8.79904
細	-8.79929
翠	-8.79935
越	-8.79959
疾病	-8.80362
基	-8.80475
之至	-8.80696
眞符	-8.80942
綱	-8.8122
障	-8.81276
川	-8.81411
一人	-8.81427
之妙	-8.81446
遺	-8.81586
液	-8.81588
太微	-8.8165
臣聞	-8.81672
陵	-8.81712
顧	-8.81861
末	-8.81891
無有	-8.81912
名曰	-8.82337
寫	-8.82349
空洞	-8.82683
遐	-8.82723
此經	-8.82808
十八	-8.82974
墮	-8.83071
摧	-8.83143
混合	-8.83342
暉	-8.83648
東華	-8.83712
魂魄	-8.83731
急急如	-8.83745
坤	-8.83869
男	-8.83943
曷	-8.84031
厚	-8.84121
角	-8.84153
旨	-8.84228
黄籙	-8.84522
尺	-8.84532
精神	-8.84561
瑶	-8.84614
黑	-8.84718
三塗	-8.84909
與道合眞	-8.84915
懼	-8.85265
蟲	-8.85284
世間	-8.85362
户	-8.85681
鸞	-8.85761
比	-8.86157
上香	-8.86359
哀	-8.86391
最	-8.86464
九炁	-8.86557
中元	-8.86573
峯	-8.86747
詔	-8.86754
洗	-8.86754
之氣	-8.86757
齋主	-8.86763
再拜	-8.86778
神明	-8.868
夀	-8.86858
衰	-8.87085
乘	-8.87108
皇帝	-8.8712
玉京	-8.87262
靈光	-8.87275
梁	-8.87304
歩虚	-8.87385
勸	-8.87601
兼	-8.87672
於此	-8.877
道場	-8.87718
丁	-8.87857
䖍	-8.87869
霧	-8.88206
禳	-8.88225
書符	-8.88284
衝	-8.88296
丘	-8.88508
騎	-8.88511
繫	-8.88514
鐘	-8.88645
篆	-8.88649
虚皇	-8.88755
湯	-8.88757
人間	-8.88854
懸	-8.88871
伸	-8.89089
幽魂	-8.89298
雜	-8.89456
預	-8.89613
早	-8.89727
享	-8.89826
之恩	-8.89853
拱	-8.89948
主宰	-8.90011
續	-8.90046
暗	-8.90124
罡	-8.9019
客	-8.90285
賊	-8.90315
寶	-8.90324
一切衆生	-8.90418
道德	-8.90481
弟子某	-8.90497
服之	-8.90526
恒	-8.90658
鳥	-8.90663
委	-8.90736
之内	-8.90763
神君	-8.90765
産	-8.90942
身中	-8.911
超度	-8.91202
幾	-8.91282
敎	-8.913
四十	-8.91337
染	-8.91556
燒	-8.91634
之神	-8.91635
忌	-8.91653
度命	-8.91696
沈	-8.91807
昏	-8.91852
同前	-8.91866
禱	-8.92054
枝	-8.92071
棄	-8.92115
名爲	-8.92144
聖衆	-8.92308
誦經	-8.92341
謁	-8.92418
給	-8.92462
旁	-8.9249
靖	-8.92502
二十	-8.92511
閑	-8.92521
東極	-8.92756
赴	-8.92834
吟	-8.9286
祖炁	-8.92978
沐	-8.93088
南宫	-8.93116
甘露	-8.93174
行之	-8.93187
己	-8.93219
元始天尊	-8.93224
宸	-8.93514
天官	-8.93636
修行	-8.93708
普度	-8.9371
金光	-8.93788
黙	-8.93886
曽	-8.93992
修齋	-8.9406
善惡	-8.94196
酉	-8.94376
昧	-8.9438
誅	-8.9439
貫	-8.94397
答	-8.94428
吸	-8.94486
二百	-8.94596
舌	-8.94612
拔度	-8.94698
量	-8.94887
一日	-8.94923
蛇	-8.9498
待	-8.95001
孤	-8.95055
術	-8.95144
維	-8.95145
造化	-8.95292
芳	-8.95435
之精	-8.95612
土地	-8.95949
宫中	-8.95973
種種	-8.95987
横	-8.95991
詳	-8.96005
科儀立成品	-8.96098
又有	-8.96116
應感	-8.96126
故曰	-8.96288
看	-8.96349
政	-8.96484
茂	-8.96593
西南	-8.96736
世界	-8.96773
无量	-8.96897
管	-8.97003
飛行	-8.97077
校	-8.97166
翼	-8.97219
況	-8.97239
五十	-8.97247
席	-8.9728
層	-8.97346
玊	-8.97439
走	-8.97587
泥丸	-8.97626
乾坤	-8.97643
上章	-8.97678
祭	-8.97813
係	-8.97904
郡	-8.98159
棲	-8.98336
類	-8.98484
辟	-8.98499
牛	-8.98526
劉	-8.98562
法事	-8.98928
化生	-8.99063
鬱	-8.99071
五炁	-8.99095
咎	-8.99184
塞	-8.99239
太虚	-8.99493
錦	-8.99496
筭	-8.99573
權	-8.99574
沖	-8.99816
頓	-8.9987
出入	-8.99881
三日	-8.99891
值	-8.99909
水府	-9.00047
長存	-9.00068
漏	-9.00098
祝曰	-9.00133
解脫	-9.00187
竹	-9.00233
藹	-9.00247
𩔖	-9.005
是故	-9.00503
斤	-9.00517
慕	-9.00582
似	-9.00604
旬	-9.00608
務	-9.00624
子孫	-9.00734
甘	-9.0081
第四	-9.00835
上方	-9.00862
嘉	-9.00892
夙	-9.00904
器	-9.00907
受生	-9.01003
是以	-9.0102
齡	-9.01092
簿	-9.01114
侯	-9.01125
凌	-9.01148
樞	-9.01154
罄	-9.01195
冲	-9.01261
滋	-9.01262
網	-9.01334
吞	-9.01371
衆聖	-9.01546
沙	-9.01589
五星	-9.0175
无極	-9.01892
尤	-9.02198
五靈	-9.02228
顔	-9.02259
墓	-9.02321
衡	-9.02322
京	-9.02364
一名	-9.02537
洞玄	-9.0296
遥	-9.02986
濁	-9.03067
供	-9.03083
不敢	-9.0312
軍	-9.03134
友	-9.03138
銀	-9.03211
拘	-9.03232
南極	-9.03379
十華	-9.0339
布施	-9.03456
受度	-9.03457
五道	-9.03572
貞	-9.03602
欣	-9.0364
七祖	-9.03656
上眞	-9.03782
金籙	-9.04045
玄元	-9.04183
之罪	-9.04313
改	-9.04359
寸	-9.04407
鍾	-9.0442
巾	-9.04479
四方	-9.04497
飛天	-9.04548
大小	-9.04644
左手	-9.0469
徐	-9.04738
東北	-9.04957
忠	-9.04998
玉皇	-9.05008
上下	-9.05096
龜	-9.05441
觸	-9.05561
詠	-9.05718
市	-9.05776
長跪	-9.05815
令人	-9.05851
官吏	-9.05952
十四	-9.0596
爾時	-9.06088
齋主某	-9.06253
存亡	-9.06301
慈尊	-9.06303
南斗	-9.06328
舒	-9.06482
雷霆	-9.06505
十六	-9.06515
知磬舉	-9.06572
皈	-9.06589
輪轉	-9.06747
一如告命	-9.06799
膺	-9.06837
美	-9.06852
玉帝	-9.06862
殫	-9.07147
垢	-9.07156
鴻	-9.07175
孔	-9.07275
衆官	-9.07296
八景	-9.07323
上天	-9.07489
屋	-9.07535
蜀	-9.07545
攺	-9.07589
生人	-9.07606
阿	-9.07633
甲子	-9.07688
附	-9.07772
不見	-9.07811
松	-9.07872
冬	-9.07902
漸	-9.07921
一炁	-9.07924
若見	-9.07952
畫	-9.08023
尊神	-9.08153
道言	-9.08246
鼎	-9.083
大洞	-9.08319
晝夜	-9.08357
告文	-9.08401
飄	-9.08623
廓	-9.08631
卒	-9.08673
毋	-9.08683
繒	-9.08703
生成	-9.08821
限	-9.08846
四時	-9.09069
編	-9.09303
卧	-9.09424
乙	-9.09433
不信	-9.09502
祚	-9.09695
吏兵	-9.09746
開明	-9.09755
下元	-9.09839
之鬼	-9.09986
整	-9.10149
誤	-9.10149
六甲	-9.10164
句	-9.10172
人民	-9.10186
化爲	-9.10401
削	-9.10454
試	-9.10561
一時	-9.10605
杖	-9.10803
怨	-9.10821
無不	-9.10823
迹	-9.10829
環	-9.10874
安鎭	-9.10955
三師	-9.11014
拯	-9.11107
寜	-9.11147
鍊度	-9.11152
九宫	-9.11189
玉字	-9.11375
悃	-9.11454
彌	-9.1153
烏	-9.1161
捧	-9.1162
世人	-9.11705
塗	-9.11722
伐	-9.11799
十一	-9.11902
據	-9.11943
説	-9.11968
適	-9.12045
我身	-9.12077
㸃	-9.12109
億	-9.12133
戌	-9.12161
七寳	-9.12172
仙公	-9.12213
天眞	-9.12238
榜	-9.12368
地府	-9.12369
魚	-9.12381
齒	-9.12422
勢	-9.12424
補	-9.12447
𡨋	-9.12799
流光	-9.12851
北極	-9.13023
雪	-9.13161
形神	-9.13316
之士	-9.13333
樓	-9.13438
工	-9.13457
眞炁	-9.13475
責	-9.13486
巖	-9.13553
太乙	-9.13562
直符	-9.13786
約	-9.13934
第五	-9.1403
兵馬	-9.14034
清微	-9.14044
大慈	-9.14086
三五	-9.1409
太空	-9.1411
丸	-9.14251
匪	-9.14261
叅	-9.14333
醫	-9.14379
耶	-9.14661
輙	-9.1467
淪	-9.1467
效	-9.14675
習	-9.14718
聖人	-9.14798
太平	-9.14888
至道	-9.15013
齎	-9.15043
避	-9.15056
威靈	-9.15096
單	-9.15147
億劫	-9.15178
山川	-9.15269
包	-9.15506
那	-9.15521
之門	-9.15533
妙經	-9.15613
消災	-9.15785
元皇	-9.15828
史	-9.16083
肉	-9.16186
坎	-9.16218
濟度	-9.16242
庚	-9.16488
太素	-9.16494
熟	-9.16594
所有	-9.16628
軒	-9.1665
官將	-9.16658
賔	-9.16861
壞	-9.16964
舞	-9.17014
不生	-9.17137
和與道合眞	-9.17358
敗	-9.17426
者也	-9.17459
歸命	-9.1746
熱	-9.17495
六十	-9.17587
之境	-9.17612
懇	-9.17626
五老	-9.17639
孫	-9.1767
罪福	-9.17865
玉文	-9.17873
摩	-9.1796
逸	-9.17985
洞天	-9.18102
宰	-9.18132
溪	-9.18268
鏡	-9.18274
煞	-9.18325
賤	-9.18442
是名	-9.18567
存思	-9.18605
畏	-9.18624
奉爲	-9.18743
玄虚	-9.18914
死魂	-9.18996
煉	-9.19004
亡人	-9.19024
陛	-9.19025
無所	-9.19098
之間	-9.19144
梵炁	-9.19153
修奉	-9.19341
萬里	-9.19381
訓	-9.19404
龍王	-9.19421
亡故某	-9.19479
壁	-9.19487
眞仙	-9.1975
慾	-9.1981
藉	-9.19827
唵	-9.19881
毛	-9.19894
莫不	-9.20016
翳	-9.20044
衆眞	-9.20064
頼	-9.20269
暢	-9.20271
腹	-9.20294
十五	-9.20442
十極	-9.20577
劔	-9.20677
束	-9.20924
趣	-9.20951
戊	-9.20972
扣	-9.21059
毫	-9.21119
各有	-9.212
生天	-9.21219
吿	-9.21294
欺	-9.21459
纏	-9.21494
躬	-9.21499
誥	-9.21562
碧落	-9.21693
怪	-9.21762
玉虚	-9.21778
玉符	-9.21853
姓名	-9.21891
憑	-9.21943
泥	-9.21978
爐	-9.22104
罔	-9.22175
赤書	-9.22204
水官	-9.2224
自在	-9.22327
殘	-9.2233
毀	-9.22336
擊	-9.22369
旦	-9.22638
煩惱	-9.227
植	-9.2271
誕	-9.22725
擁	-9.22739
灰	-9.22752
巍巍	-9.22757
惑	-9.22758
天尊志心歸命	-9.22787
𩲸	-9.22843
虚无	-9.23025
金書	-9.23053
快樂	-9.23163
如法	-9.23619
天尊志心信禮	-9.23717
太上无極大道	-9.23751
至心	-9.23781
滌	-9.24009
矜	-9.2401
憫	-9.24036
配	-9.24046
保命	-9.24057
綵	-9.24101
富	-9.24218
慢	-9.24391
萬靈	-9.24401
神光	-9.24401
雙	-9.2446
嗣	-9.24477
効	-9.24492
八極	-9.24766
寳籙	-9.24789
蓮	-9.24789
五苦	-9.24832
正眞	-9.24839
爲人	-9.2488
一如	-9.25162
答曰	-9.25249
第十	-9.25282
增	-9.25313
一百	-9.25314
纒	-9.25317
大羅	-9.25333
叩齒	-9.25432
云何	-9.25497
更生	-9.25503
一一	-9.25618
三月	-9.25655
銅	-9.25725
强	-9.2575
三年	-9.25756
曉	-9.25765
雄	-9.25787
題	-9.25795
言功	-9.25833
掃	-9.25994
威神	-9.26017
受持	-9.2602
九地	-9.2604
而去	-9.26083
行持	-9.26084
諒	-9.26166
䕃	-9.26175
勲	-9.26187
十三	-9.26321
孰	-9.2641
髙眞	-9.26417
焚香	-9.26469
風雨	-9.26585
爲一	-9.26592
貧	-9.26594
竊	-9.26614
楊	-9.2666
六合	-9.26777
率	-9.27027
厭	-9.27108
胞	-9.27138
謹請	-9.27173
飢	-9.27216
天醫	-9.27229
神霄	-9.27244
瘟	-9.27274
人也	-9.27414
轉經	-9.27745
託	-9.27941
薄	-9.27948
獸	-9.27995
憲	-9.28053
山林	-9.2807
普濟	-9.28123
下方	-9.28222
俓	-9.28512
設醮	-9.28573
建齋	-9.28603
恪	-9.2876
歲	-9.28761
銷	-9.28767
所在	-9.28788
一身	-9.28798
粹	-9.28827
飲食	-9.29018
珍	-9.29041
笑	-9.29322
七日	-9.29339
一心	-9.29364
洞神	-9.29373
二人	-9.29451
亦不	-9.2956
后	-9.29591
蕭	-9.296
局	-9.29609
經法	-9.29645
神名	-9.29673
貌	-9.29718
氛	-9.29719
身心	-9.29723
成就	-9.29742
天君	-9.29843
之心	-9.29941
名山	-9.3009
磨	-9.30189
鉛	-9.3025
施行	-9.3032
上生	-9.30364
禮拜	-9.30425
採	-9.30608
人身	-9.30641
㝷	-9.30644
闢	-9.30653
穴	-9.30664
繞	-9.30696
翔	-9.30988
以來	-9.31098
謀	-9.31104
撫	-9.31108
枯	-9.31116
不任	-9.31203
皈命	-9.31475
戴	-9.31526
握	-9.31536
游	-9.31552
徘徊	-9.31596
三天門下	-9.31633
悔	-9.31804
伏聞	-9.31896
倒	-9.32011
舟	-9.32041
伏冀	-9.32088
道炁	-9.32102
齋壇	-9.32112
門下	-9.32204
黄庭	-9.32265
貺	-9.32587
追攝	-9.32712
幽㝠	-9.32796
神功	-9.32815
帛	-9.3292
寄	-9.32979
脚	-9.33004
虚空	-9.33051
號曰	-9.3309
神靈	-9.33185
飾	-9.33376
繁	-9.33448
上願	-9.33473
混元	-9.3373
㧞	-9.3375
某人	-9.3382
監齋	-9.33874
駐	-9.33881
牀	-9.33881
虞	-9.33882
秘	-9.33896
分别	-9.33929
黄華	-9.34015
日中	-9.34024
三禮	-9.34064
誰	-9.34268
電	-9.34312
大梵	-9.34327
勒	-9.3434
逮	-9.34351
奪	-9.3441
丹田	-9.34424
飛天神王	-9.3443
天上	-9.34437
三千	-9.34528
旌	-9.34693
亦可	-9.34702
墨	-9.34761
側	-9.34835
偈	-9.3503
斷絶	-9.35073
私	-9.3513
茅	-9.3531
血湖	-9.35336
大法	-9.35354
幅	-9.35517
溥	-9.35722
鋒	-9.35792
吳	-9.35834
盤	-9.35846
岸	-9.35879
才	-9.35879
腦	-9.35883
途	-9.35898
壘	-9.35994
太歳	-9.36057
見有	-9.36235
洲	-9.36246
廬	-9.36275
人天	-9.36281
肇	-9.36282
竭	-9.36285
攝召	-9.36311
大將	-9.36352
十七	-9.36423
黄素	-9.36529
金龍	-9.36561
淫	-9.36657
否	-9.36774
繼	-9.3678
黄帝	-9.36796
胃	-9.36821
臣某	-9.36894
四海	-9.36931
筵	-9.37193
馭	-9.37261
標	-9.37266
懴謝	-9.37282
盖	-9.37307
之事	-9.37346
妻	-9.37425
暴	-9.37679
審	-9.37697
泄	-9.37722
狂	-9.37753
算	-9.37837
五藏	-9.38015
陸	-9.38029
宏	-9.38174
縈	-9.38205
灑	-9.38212
今齋主某	-9.38223
戍	-9.38235
温	-9.38255
上有	-9.38267
赤帝	-9.38385
法輪	-9.38388
解釋	-9.38419
幽顯	-9.38437
嘗	-9.38516
苦惱	-9.38727
神將	-9.38727
漠	-9.38729
祗	-9.38729
琅	-9.3873
開光	-9.38973
浩	-9.39134
北帝	-9.39144
激	-9.3917
治病	-9.3919
志心	-9.39214
隔	-9.39218
恱	-9.39235
諸司	-9.39277
歸依	-9.39285
右符	-9.39362
出離	-9.39561
三十二	-9.39647
念呪	-9.39968
紫虚	-9.40069
幽明	-9.40075
功徳	-9.40082
至於	-9.4032
呈	-9.40413
其中	-9.40473
族	-9.40504
之處	-9.40511
衍	-9.40539
科曰	-9.40567
者則	-9.40597
遭	-9.40662
麗	-9.40685
魁	-9.40762
侍衞	-9.40859
上昇	-9.40946
激切	-9.41004
閣	-9.41222
烈	-9.41235
皇君	-9.41251
玉簡	-9.41453
荒	-9.41607
消滅	-9.41698
叨	-9.41703
躡	-9.41778
虧	-9.41813
今故燒香	-9.41837
三宫	-9.41961
兒	-9.42128
第六	-9.42255
爭	-9.42266
登眞	-9.4228
溢	-9.42291
扇	-9.42607
有一	-9.42757
控	-9.42778
東嶽	-9.42802
膽	-9.42819
凡有	-9.42875
東井	-9.4288
判	-9.42988
羊	-9.43252
乖	-9.43277
仲	-9.43373
三十二天	-9.43398
復有	-9.43447
皆得	-9.43494
宣告	-9.43513
安寧	-9.43573
卑	-9.43707
韻	-9.43718
青華	-9.43778
宿啓	-9.43861
翊	-9.4392
榖	-9.43959
三景	-9.43964
三途	-9.44037
柱	-9.44064
衆等	-9.4409
千里	-9.44122
太眞	-9.44143
生生	-9.44224
操	-9.44291
支	-9.44323
柔	-9.44329
正法	-9.44335
之儀	-9.4434
方無極太上靈寳天尊	-9.44473
而爲	-9.44479
出家	-9.44535
善功	-9.44536
議	-9.44789
軌	-9.44796
楚	-9.44805
蠲	-9.44808
地官	-9.44827
競	-9.44857
亭	-9.4486
秉	-9.44872
南昌	-9.44939
洞明	-9.45082
上請	-9.45193
稽	-9.45211
君諱	-9.45235
述	-9.45384
之郷	-9.45385
油	-9.45407
闊	-9.45453
三百	-9.45493
青帝	-9.45516
叩	-9.45827
堪	-9.45828
以此	-9.45897
怠	-9.45907
喪	-9.4591
奥	-9.45919
上升	-9.45932
至真	-9.45976
准	-9.46
炁吹	-9.4615
城隍	-9.46174
龍漢	-9.46244
今故燒香自皈依師尊大聖衆至眞之	-9.46322
跪	-9.46377
明堂	-9.46451
霜	-9.46452
眉	-9.46459
戒者	-9.46745
九玄	-9.46892
額	-9.46909
邁	-9.46917
伺	-9.46924
元始符命	-9.47015
一百二十	-9.47101
詩	-9.47118
陽光	-9.47216
眞經	-9.47386
立功	-9.47434
氷	-9.47475
戰	-9.47501
瑩	-9.47511
玉童玉女	-9.47578
虚無	-9.47749
化育	-9.4778
萬聖	-9.4786
司馬	-9.47901
弗	-9.47927
不復	-9.47935
消除	-9.47948
及諸	-9.48032
賞	-9.48035
葛	-9.48037
希夷	-9.48039
旗	-9.48057
百神	-9.48088
神通	-9.48264
六道	-9.48265
神呪	-9.48317
昇天	-9.48367
忱	-9.48427
右手	-9.48525
輦	-9.48564
巽	-9.48588
鐡	-9.48596
錯	-9.486
魅	-9.48623
芽	-9.48632
斗中	-9.487
太上道君	-9.4881
上聞	-9.48974
浴	-9.49009
國王	-9.49019
齋功	-9.49024
神符	-9.4907
微妙	-9.4909
倉	-9.49105
混沌	-9.4915
第	-9.49156
彈	-9.49207
次第	-9.49315
妃	-9.4952
曆	-9.49523
香火	-9.49565
兩手	-9.49627
渉	-9.49628
水中	-9.49632
趙	-9.49638
有所	-9.49688
桃	-9.4971
帀	-9.49712
乃至	-9.49715
九霄	-9.49754
宿命	-9.49871
仙靈	-9.49879
若不	-9.49887
祈恩	-9.50076
不同	-9.50095
東北方	-9.50102
折	-9.50213
逃	-9.5026
歴	-9.50269
某處	-9.50273
不死	-9.50353
純	-9.50396
手執	-9.50446
大王	-9.50579
陞壇	-9.50602
天文	-9.5065
追魂	-9.50685
祠	-9.50745
萬人	-9.50803
如前	-9.50877
依科	-9.50914
牌	-9.50986
大魔王	-9.51102
世世	-9.51122
百二十	-9.51125
璧	-9.51193
盍	-9.51277
宋	-9.51279
九十	-9.5128
幢	-9.51286
北向	-9.51301
爲之	-9.51312
漿	-9.51341
寒庭	-9.51396
第七	-9.51457
九壘	-9.51677
天罡	-9.51686
請命	-9.51742
見在	-9.51821
聞經	-9.51851
方便	-9.51862
訪	-9.51866
押	-9.51958
神祇	-9.5205
眞官	-9.52159
二者	-9.5216
我今	-9.52232
報應	-9.52245
清虚	-9.52299
嘯	-9.52307
忍	-9.52385
肆	-9.52399
勵	-9.52413
晏	-9.52439
練	-9.52453
玉晨	-9.5248
旋行	-9.52503
朔	-9.52505
災厄	-9.52716
纂	-9.52843
嵗	-9.52974
泛	-9.53016
乏	-9.53031
玉訣	-9.53065
吉凶	-9.53175
靈寳天尊	-9.53307
七十	-9.53347
怒	-9.53405
天道	-9.53413
皓	-9.53424
侍經	-9.53489
鈞	-9.53553
奠	-9.5358
作用	-9.53604
兇	-9.53633
二年	-9.53679
家國	-9.53696
力士	-9.53735
百年	-9.53876
圍	-9.5409
常以	-9.54104
闡	-9.54116
湖	-9.54152
米	-9.54155
鮮	-9.5422
感通	-9.5433
一寸	-9.54429
正神	-9.54458
盜	-9.54571
埋	-9.54688
腰	-9.5484
一者	-9.54896
上仙	-9.54912
正炁	-9.55012
帝王	-9.55035
中天	-9.55214
徼	-9.55241
爛	-9.55308
酬	-9.55319
乳	-9.5533
此法	-9.55359
謹召	-9.55383
姓某	-9.55445
奉請	-9.55505
神人	-9.55604
弟	-9.55621
具足	-9.55639
龍虎	-9.55691
保舉	-9.55724
婦	-9.55736
歎	-9.55868
準	-9.55965
靈符	-9.56067
裙	-9.56087
是爲	-9.56103
經緯	-9.56107
散花	-9.5613
太白	-9.56172
百日	-9.56198
剛	-9.56278
具法位	-9.56338
欽	-9.56475
仙道	-9.56504
拂	-9.56507
濯	-9.56513
截	-9.56523
溺	-9.56541
眞道	-9.5657
東向	-9.56624
好生	-9.56635
官屬	-9.56721
西南方	-9.56855
八難	-9.56958
金華	-9.57035
選	-9.57061
活	-9.57144
汞	-9.57153
猶如	-9.57277
邑	-9.57634
回向	-9.57689
皮	-9.57701
完	-9.57729
之尊	-9.57771
祟	-9.57794
之澤	-9.57869
西北方	-9.5811
紫極	-9.58201
恣	-9.58223
齋官	-9.58257
頃	-9.58257
身形	-9.58261
秦	-9.58266
綿	-9.58285
上品	-9.58303
枚	-9.58309
所居	-9.58314
檄	-9.58323
太上洞玄靈寳	-9.58395
延年	-9.58437
億萬	-9.58468
無礙	-9.58471
之府	-9.58606
用之	-9.58693
之苦	-9.58723
沾	-9.58805
冰	-9.58838
曾	-9.58856
郎	-9.58871
吒	-9.58903
夭	-9.58909
索	-9.58945
八節	-9.59081
齋戒	-9.59181
若干	-9.59215
七星	-9.59307
上皇	-9.59357
没	-9.59488
僧	-9.5949
九府	-9.59499
某日	-9.59501
動植	-9.59519
例	-9.59569
大齋	-9.5957
侍衛	-9.59585
延生	-9.59671
受錬	-9.59798
砂	-9.60015
不可思議	-9.60018
之者	-9.60038
何以故	-9.60102
國土	-9.6011
憐	-9.6014
祅	-9.60162
天關	-9.6022
其所	-9.60231
玉札	-9.60256
牙	-9.60355
飛歩	-9.60564
八方	-9.60605
艮	-9.60804
分明	-9.60816
傳授	-9.61056
四大	-9.61069
項	-9.61169
草木	-9.61174
攸	-9.612
符呪曰	-9.6128
佑	-9.61336
垣	-9.61345
不用	-9.61351
絳宫	-9.61475
凝神	-9.61539
眞人道士	-9.61584
白日	-9.61622
十月	-9.61794
僞	-9.61879
曠	-9.61916
霑	-9.61919
賦	-9.61923
土府	-9.61929
軫	-9.6194
靈壇	-9.61957
懽	-9.61971
崖	-9.61979
某甲	-9.61983
蹤	-9.62002
八十	-9.62104
解除	-9.62132
骸	-9.62308
六丁	-9.62324
之外	-9.62348
疫	-9.62428
而成	-9.6243
不勝	-9.62486
几	-9.62544
𠔃	-9.62555
火鈴	-9.62572
遏	-9.62615
正月	-9.62626
淺	-9.62636
死者	-9.62676
泉曲	-9.6279
度厄	-9.62816
神化	-9.62965
季	-9.63024
絲	-9.63096
三寸	-9.63122
六天	-9.63135
驛	-9.63151
究	-9.63227
或有	-9.63235
杜	-9.63268
晶	-9.63279
蘇	-9.63279
齋法	-9.63343
星辰	-9.63366
侍香	-9.63374
太上老君	-9.63427
齋意	-9.6362
華蓋	-9.63623
社	-9.63666
破獄	-9.63706
彭	-9.63814
暫	-9.63824
關啓	-9.63827
催	-9.63833
圎	-9.63839
丹誠	-9.63845
溟	-9.6385
鑪	-9.63912
劄	-9.63916
沉淪	-9.63919
璇璣	-9.63924
凡夫	-9.63928
俟	-9.63949
訟	-9.64075
上登	-9.64076
即是	-9.64126
天光	-9.64269
短	-9.64313
橋	-9.64353
之下	-9.64376
莊	-9.64411
孕	-9.64429
睿	-9.64432
某家	-9.64433
割	-9.64438
救度	-9.64477
太和	-9.6448
清靜	-9.64518
静	-9.64519
輒	-9.64541
捉	-9.64604
伏望	-9.64686
急急	-9.64727
照耀	-9.64812
分野	-9.64851
瀆	-9.64906
願得	-9.65049
愚癡	-9.65051
洞陽	-9.65059
困	-9.65081
感應	-9.65092
儲	-9.65096
逝	-9.65124
栢	-9.6514
婆	-9.65182
研	-9.65187
蕩除	-9.65209
文字	-9.65415
竅	-9.65517
白帝	-9.65527
六畜	-9.65596
通靈	-9.65601
精誠	-9.65663
而生	-9.65673
枉	-9.65736
淳	-9.6574
惜	-9.65747
壯	-9.65773
者皆	-9.65795
翻	-9.65799
曰此	-9.65842
矣道言	-9.65868
三拜	-9.65889
天堂	-9.6606
上詣	-9.6618
藴	-9.66372
斛	-9.66398
胡	-9.66423
洽	-9.66436
剌	-9.6644
促	-9.66451
寢	-9.66458
䖍誠	-9.66484
尅	-9.66484
九光	-9.66515
盗	-9.66614
天寳	-9.66755
五神	-9.66808
四十九	-9.66821
其人	-9.66886
騫	-9.66966
歛	-9.67041
恊	-9.67058
稍	-9.67062
愍	-9.67077
入室	-9.67106
誡	-9.67135
嬰兒	-9.67163
裳	-9.67187
三業	-9.67197
九色	-9.67244
志心敬禮	-9.67314
九祖	-9.67439
香花	-9.67441
學仙	-9.67659
一旦	-9.67682
襲	-9.67715
庫	-9.67719
燦	-9.67728
翹	-9.67752
射	-9.6776
曹治	-9.67799
漱	-9.67821
金剛	-9.67864
亦有	-9.67914
道法	-9.67982
之際	-9.68174
過去	-9.68203
晝	-9.68217
衷	-9.68346
膏	-9.68373
赫奕	-9.68382
収	-9.68391
祭鍊	-9.68397
鑊湯	-9.68407
中黄	-9.68422
貼	-9.6843
孟	-9.68435
巳上	-9.68466
禹	-9.68491
亡過某	-9.68491
龍神	-9.68536
閉氣	-9.68562
倍	-9.6859
今有	-9.68883
仙都	-9.68939
浪	-9.68977
余	-9.69025
籠	-9.69067
踈	-9.69067
晦	-9.69087
甲申	-9.69217
無復	-9.69234
火池	-9.6931
千二百	-9.69415
上玄	-9.69476
亦復如是	-9.69558
萬炁	-9.6961
蓬	-9.69611
癸	-9.69614
祀	-9.69633
福田	-9.69656
欵	-9.69663
若能	-9.69667
宥	-9.69685
盧	-9.6974
迅	-9.69748
姦	-9.69757
勾	-9.69771
至尊	-9.6978
良久	-9.69892
百姓	-9.69968
奏請	-9.70027
靡	-9.70086
字道	-9.70263
信禮	-9.70276
紹	-9.7034
囚	-9.70355
勉	-9.70361
低	-9.70406
四極	-9.70442
超凌	-9.70449
傍	-9.70473
八門	-9.70559
無形	-9.70601
癘	-9.70743
焦	-9.70751
穹	-9.70782
九靈	-9.70892
和平	-9.70936
區	-9.71059
鹿	-9.7108
歡喜	-9.71083
堯	-9.71089
言之	-9.71094
耗	-9.71111
商	-9.71116
歩武	-9.71158
髪	-9.71165
妙道	-9.71244
洪恩	-9.71246
咽液	-9.71255
冠帶	-9.71286
福慶	-9.71289
天皇	-9.71356
云云	-9.71441
成眞	-9.71498
或爲	-9.71508
經寳	-9.71572
旱	-9.71585
符使	-9.71605
金眞	-9.71703
恨	-9.71733
峻	-9.71738
洒	-9.71751
符召	-9.71766
併	-9.71825
第八	-9.71844
搯	-9.71858
錬形	-9.71895
東南方	-9.71903
利益	-9.71908
前後	-9.71944
八卦	-9.72021
九清	-9.7204
眞名	-9.72111
年月日	-9.72157
之文	-9.72187
是時	-9.72252
卦	-9.723
之地	-9.72359
晉	-9.72367
上相	-9.72373
聮	-9.72406
廢	-9.7241
涵	-9.72452
莊嚴	-9.72455
刃	-9.72477
鄉	-9.72509
上啓	-9.72547
猷	-9.72894
愼	-9.7293
而無	-9.72961
洞淵	-9.73018
趨	-9.73127
煩	-9.73154
牽	-9.73165
譬如	-9.7318
別	-9.73185
之初	-9.73185
宛	-9.73213
防	-9.73246
五臟	-9.73293
福地	-9.73354
又云	-9.73369
明眞	-9.73416
大乗	-9.73514
然燈	-9.73535
洞煥	-9.73719
自非	-9.7372
各各	-9.73734
空中	-9.7374
惱	-9.73748
生炁	-9.73815
綺	-9.73838
山中	-9.73947
五臓	-9.73976
亡䰟	-9.74007
神仙諸靈官	-9.74023
羣生	-9.74098
三台	-9.74277
玉章	-9.74295
湛	-9.74316
伏惟	-9.74434
自今以去	-9.74462
超生	-9.74469
衣服	-9.7451
蘂	-9.74523
紛	-9.74543
博	-9.74545
略	-9.74562
倚	-9.74584
六情	-9.74605
罪學士及百姓子	-9.74673
元帥	-9.74705
玄師	-9.74782
元年	-9.74786
軿	-9.74862
度師	-9.74893
金液	-9.74945
所行	-9.75038
水池	-9.75109
尾	-9.7512
中來	-9.75136
而來	-9.75137
十方三界	-9.75207
囊	-9.75215
滓	-9.75251
熈	-9.75255
碑	-9.75317
星宿	-9.75324
圭	-9.75362
壬	-9.75452
精思	-9.75471
可漏	-9.7556
帝眞	-9.75642
磬	-9.75735
笈	-9.75746
也故	-9.75759
先亡	-9.75778
赤明	-9.75827
之音	-9.75848
罪業	-9.75865
全形	-9.75887
森	-9.75888
黒帝	-9.75923
靈文	-9.75934
屏	-9.75941
黎	-9.75957
裏	-9.75959
冐	-9.75968
擇	-9.75999
縛	-9.76026
呉	-9.76027
之罪學者及百姓子	-9.76101
獅子	-9.76142
太上靈寳	-9.7624
請稱法位具位	-9.76293
正道	-9.76365
教化	-9.76465
周天	-9.76595
一念	-9.76624
諸大	-9.76628
生於	-9.76682
厥	-9.76711
盻	-9.76773
佳	-9.76778
見之	-9.76795
學者	-9.76891
三境	-9.76913
開通	-9.76963
二炁	-9.77142
之誠	-9.77256
朝禮	-9.7726
三寶	-9.77302
之衆	-9.77345
五日	-9.77349
虔	-9.77364
本靖	-9.77378
崇建	-9.7739
旡	-9.77396
鑿	-9.77406
洞房	-9.77448
女青	-9.7747
之前	-9.7749
第九	-9.77522
二十五	-9.77527
書之	-9.77577
之數	-9.77581
一年	-9.77769
猛	-9.77826
紫庭	-9.77866
謹當	-9.77887
之宫	-9.77905
寳符	-9.77938
台	-9.77945
慶雲	-9.77954
羅酆	-9.77982
元炁	-9.77997
萬福	-9.7803
靈寶	-9.78153
鬱勃	-9.78196
茶	-9.78214
缺	-9.78227
口中	-9.78242
所犯	-9.78276
飛雲	-9.78412
幽夜	-9.78427
當知	-9.78433
也若	-9.7855
度世	-9.78569
寳光	-9.78675
終不	-9.78676
脩	-9.78832
亶	-9.78833
墜	-9.78854
天地之	-9.78857
炭	-9.7886
者是	-9.78872
剋	-9.78884
之期	-9.78912
諸法	-9.78966
也其	-9.79089
受鍊	-9.79227
洞玄靈寳	-9.7923
皆有	-9.79285
不爲	-9.79363
上宫	-9.79371
互	-9.79507
福德	-9.7951
無間	-9.79516
講	-9.79529
攀	-9.7955
材	-9.79587
之理	-9.79596
呵	-9.79602
轉輪	-9.79652
玄妙	-9.79654
眞授靈寳通玄弘教水南先生林靈眞編	-9.79677
十九	-9.79761
之義	-9.79797
太乙救苦天尊	-9.79931
符吏	-9.79954
俯仰	-9.8001
之名	-9.80023
澄清	-9.80063
原赦	-9.80102
無任	-9.80207
丙	-9.80209
十二月	-9.80276
戮	-9.80293
太皇	-9.80304
逕	-9.80341
玉童	-9.80353
一拜	-9.80371
眞形	-9.80394
鑄	-9.8043
船	-9.80465
緯	-9.80643
存神	-9.80694
老子	-9.80705
飛昇	-9.80841
黄籙大齋	-9.80842
罪根	-9.80911
得一	-9.80975
普及	-9.80995
罷	-9.81024
三素	-9.81027
釁	-9.81107
遲	-9.8112
署	-9.81127
謬	-9.81162
郭	-9.81226
豁落	-9.81253
南嶽	-9.81336
等伏聞	-9.81361
天帝君	-9.81387
眞元	-9.81393
曰吾	-9.81454
者不	-9.81491
流精	-9.81519
農	-9.81623
勑命	-9.81697
又曰	-9.81728
羅列	-9.81749
三皇	-9.81839
喻	-9.81839
頗	-9.8184
輩	-9.8186
雍	-9.81887
里域	-9.81906
禁忌	-9.81916
地戸	-9.81916
絹	-9.81916
焰	-9.81936
福堂	-9.81938
聖位	-9.81966
屈	-9.82043
此是	-9.82122
永離	-9.82144
行事	-9.82149
道衆	-9.82255
金童	-9.82316
之光	-9.82335
幽靈	-9.8241
九州	-9.82519
臭	-9.82524
債	-9.82549
憎	-9.82612
桂	-9.8262
婬	-9.82625
擾	-9.82629
崑崙	-9.82639
骨肉	-9.82646
添	-9.82657
犬	-9.82672
雌	-9.8273
常行	-9.82771
髙明	-9.82775
以聞	-9.82806
其神	-9.82985
六根	-9.8299
把	-9.83041
生靈	-9.83066
由是	-9.83109
八十一	-9.83143
無常	-9.8316
我等	-9.83377
弱	-9.83385
零	-9.83393
䝉	-9.83442
邈	-9.83451
无爲	-9.83454
卜	-9.83466
䕶	-9.83482
抑	-9.83504
冷	-9.83517
八威	-9.83535
一切威靈	-9.83546
夜半	-9.83559
九夜	-9.83579
大衆	-9.836
祈禳	-9.83618
得生	-9.83676
齋用	-9.83687
安鎮	-9.83743
安樂	-9.83768
富貴	-9.83794
修之	-9.83879
無私	-9.83946
師寳	-9.83982
九月	-9.84025
某乙	-9.84067
覃	-9.84155
太上無極大道	-9.84209
借	-9.84214
當以	-9.84299
遁	-9.84299
功曹使者	-9.84312
遊行	-9.84451
玄靈	-9.84497
志心朝禮	-9.84629
陽明	-9.84829
秩	-9.84896
躍	-9.84918
七元	-9.8493
雞	-9.84937
孚	-9.84947
循環	-9.84949
飛龍	-9.84972
耕	-9.84973
潭	-9.85033
合屬	-9.85044
七炁	-9.85063
幽關	-9.85099
髙尊	-9.85182
和合	-9.85211
呪畢	-9.85315
惡人	-9.85324
者當	-9.85331
丹天	-9.85371
三靈	-9.85487
次法師	-9.855
萬化	-9.8561
着	-9.85735
殄	-9.85737
陟	-9.85748
瑕	-9.85753
暮	-9.85768
恰	-9.85777
慰	-9.85786
稽首禮	-9.85871
平等	-9.85873
即得	-9.85941
陽精	-9.85945
符勑呪	-9.85975
請降	-9.86014
受經	-9.86037
周圓	-9.8614
世之	-9.86179
道者	-9.86196
受福	-9.86224
性命	-9.86238
禁戒	-9.86339
十天	-9.86346
經曰	-9.8639
官君	-9.86427
闇	-9.86495
玄中大法師	-9.86516
展	-9.86536
之仁	-9.86581
某等	-9.86581
霍	-9.86581
飈	-9.86586
掩	-9.86608
周流	-9.86609
知其	-9.86722
元氣	-9.86723
注生	-9.86779
三百六十	-9.86804
十餘	-9.86987
誦之	-9.87001
佩之	-9.87012
受化	-9.87014
自生	-9.87043
之根	-9.87044
始青	-9.87055
疾速	-9.87059
百里	-9.87129
▲▲	-9.87203
復爐	-9.87219
流行	-9.87236
不祥	-9.87264
惡根	-9.87302
也此	-9.87336
換	-9.8734
臍	-9.87341
輅	-9.87342
逼	-9.87343
喉	-9.87379
桑	-9.87385
枕	-9.8739
鑑	-9.87414
韓	-9.87536
當願	-9.87679
椿	-9.87917
心不	-9.87956
垂慈	-9.88047
依法	-9.88074
壤	-9.88096
朝元	-9.88121
禽	-9.88123
偶	-9.88132
隨事	-9.88156
蓮花	-9.88212
應化	-9.88384
紫清	-9.88508
介	-9.88543
承符	-9.88826
玄恩	-9.88836
各一	-9.88872
汙	-9.88956
循	-9.88976
痊	-9.88989
胤	-9.88999
步	-9.89015
奉戒	-9.89038
測	-9.89059
抜	-9.8906
三魂	-9.89076
魂神	-9.89103
入夜	-9.89128
使人	-9.89219
聚形	-9.89253
精進	-9.89303
天王	-9.89317
靈旛	-9.89355
縹緲	-9.89431
心中	-9.89512
投簡	-9.89559
土皇	-9.8956
躋	-9.89668
青龍	-9.89674
生身	-9.89703
紫府	-9.89756
魏	-9.89829
紏	-9.89846
九年	-9.89856
隱書	-9.89865
赫	-9.89885
叩齒九通	-9.8992
遊宴	-9.89931
九陽	-9.89935
見存	-9.89946
之先	-9.89993
玉籙	-9.90041
白簡	-9.90097
大夫	-9.90126
太帝	-9.90132
得見	-9.90137
丹元	-9.90166
恭惟	-9.902
等衆	-9.90207
死生	-9.90238
簡文	-9.90351
報對	-9.90353
二儀	-9.90478
牢	-9.90487
郊	-9.9051
北府	-9.90515
淩	-9.90536
綸	-9.9054
嵩	-9.90602
軀	-9.90614
員	-9.90615
撰	-9.90632
鄭	-9.90633
進拜	-9.90637
裁成	-9.90652
慎	-9.90661
嶺	-9.90661
忠孝	-9.90677
幽暗	-9.90753
同卷	-9.90805
飛玄	-9.90884
人物	-9.90986
鋪	-9.91033
紫炁	-9.91139
祉	-9.91179
之物	-9.91258
百餘	-9.91297
無極世界	-9.91417
帔	-9.91417
三十六部尊經玄中大法師	-9.91433
玄上	-9.91452
腥	-9.91455
苟	-9.91479
哭	-9.9148
清齋	-9.91488
之樂	-9.91503
陣	-9.91504
淸	-9.91519
淨明	-9.91531
五老上帝	-9.9154
洞眞	-9.91541
從官	-9.91561
岳	-9.91574
無由	-9.91591
減	-9.91604
隂陽之	-9.9161
大有	-9.91684
羽蓋	-9.91693
九眞	-9.91767
惟願	-9.91836
妙有	-9.91957
大吉	-9.91966
帥	-9.9204
監臨	-9.9211
有道	-9.92135
狗	-9.92194
有三	-9.92197
麟	-9.92269
刋	-9.92272
仙靈官吏	-9.92273
炬	-9.92283
郷神仙諸靈官	-9.92319
嚥	-9.9232
髓	-9.92373
棺	-9.92394
此符	-9.92433
六腑	-9.92442
百病	-9.9246
九龍	-9.92467
並同	-9.9249
有情	-9.92528
天蓬	-9.92543
領教	-9.92782
昇入	-9.92795
飛度	-9.92888
法衆	-9.92937
酆	-9.92939
玄功	-9.92941
蛟	-9.93009
當願一切	-9.93087
寓	-9.93098
之科	-9.93135
剪	-9.93154
兊	-9.93202
之象	-9.93233
師尊	-9.93336
北酆	-9.93398
三者	-9.9343
甲乙	-9.93447
悉皆	-9.93476
道塲	-9.93505
天樞	-9.93542
俯垂	-9.93605
蕩蕩	-9.93686
平坐	-9.9375
三尺	-9.93761
天符	-9.9383
醜	-9.93838
天仙	-9.93862
所啓	-9.93886
蠶	-9.93926
煎	-9.93937
之方	-9.93944
救苦天尊	-9.93945
企	-9.93967
脉	-9.93967
次存	-9.93994
匿	-9.94002
𡨚仇	-9.94008
餐	-9.94012
內	-9.94014
至今	-9.94092
上眞道君	-9.9417
九重	-9.94259
而有	-9.94279
之德	-9.9431
廣大	-9.9433
白虎	-9.94502
切切	-9.94545
眞宰	-9.94546
名字	-9.94614
靈山	-9.94677
絡	-9.94703
懴主某	-9.94723
窺	-9.94775
茲	-9.94816
一十二	-9.94818
揖	-9.9482
決	-9.94835
赫赫	-9.94848
蔽	-9.94853
浩劫	-9.94967
下有	-9.94974
謹上請	-9.94998
不絶	-9.9508
天恩	-9.95102
寳經	-9.95116
無遺	-9.95246
時有	-9.95341
拜章	-9.95356
故云	-9.95441
亡者	-9.95442
老人	-9.95538
玉華	-9.95628
病者	-9.95661
寥	-9.95678
儀卷	-9.95684
仙曹	-9.95697
賴	-9.95713
飽	-9.95716
徴	-9.95727
偃	-9.9573
采	-9.95747
𥙷	-9.95757
妨	-9.9576
館	-9.9578
得其	-9.95809
大道君	-9.95813
都講	-9.95823
口舌	-9.95901
苦爽	-9.95927
者從	-9.95952
生神章	-9.9608
宣行	-9.96158
合同	-9.96189
服食	-9.962
而下	-9.96282
之機	-9.96288
五體	-9.96312
恭敬	-9.96334
爲某	-9.9634
而行	-9.96388
人所	-9.96393
也夫	-9.96405
穩	-9.96425
汁	-9.9647
上朝	-9.96478
仙吏	-9.96577
譴	-9.9659
而巳	-9.96593
穿	-9.96594
挹	-9.96607
平安	-9.96612
偏	-9.96644
開化	-9.9666
携	-9.96674
至于	-9.96711
不聞	-9.9678
又請	-9.96794
勑呪	-9.96887
啓白	-9.9699
洞照	-9.96996
法界	-9.97004
天尊言	-9.97012
壇場	-9.97027
某人靈䰟	-9.97065
火錬	-9.9709
行年	-9.9712
四明	-9.97124
三才	-9.97163
革	-9.97174
十里	-9.97185
三十九	-9.97255
丹書	-9.97285
襟	-9.97319
大乘	-9.97363
屍	-9.97409
監生	-9.97411
之災	-9.97423
普天	-9.97436
命魔	-9.97441
斥	-9.97473
匡	-9.97483
歆	-9.97492
中宫	-9.97505
喬	-9.97507
呪詛	-9.97511
透	-9.97536
覆載	-9.97539
百關	-9.97551
二十七	-9.97586
修眞	-9.97658
金門	-9.97698
玄科	-9.97769
死入	-9.97814
眞王	-9.98007
守一	-9.98011
次舉	-9.98018
境界	-9.98075
解厄	-9.98222
靈風	-9.98235
无形	-9.98235
五百	-9.98267
罪人	-9.98284
叔	-9.983
永保	-9.9832
寵	-9.98345
惶	-9.98349
赦罪	-9.98356
姿	-9.98364
法橋	-9.98375
告盟	-9.98387
斧	-9.98439
風雲	-9.9858
仙眞	-9.98664
倫	-9.9869
之化	-9.98699
九過	-9.98722
發願	-9.98726
昭昭	-9.98763
玄眞	-9.98765
修設	-9.9884
皆當	-9.98887
居之	-9.98983
陛下	-9.98993
謝過	-9.9903
羅敷	-9.9908
群生	-9.99176
建立	-9.99207
竈	-9.99209
昨	-9.99219
亡故某人	-9.99223
人道	-9.99228
千萬	-9.9923
醉	-9.99236
瘥	-9.99238
寛	-9.99248
蟻	-9.99259
此文	-9.99265
冒	-9.99267
黃籙	-9.99269
某身	-9.99281
怡	-9.99283
䘮	-9.9929
地户	-9.99291
数	-9.99295
有人	-9.99314
製	-9.99327
今世	-9.9935
須㬰	-9.99401
與道	-9.99466
九氣	-9.99524
元精	-9.99701
十年	-9.99768
奚	-9.99864
是經	-9.99903
君字	-9.99911
度脫	-9.99935
判官	-9.9997
煑	-10.0007
五月	-10.0008
牧	-10.0013
廉	-10.0016
𡻕	-10.0017
可得	-10.0017
亦無	-10.0018
道君曰	-10.0019
主人	-10.0019
皎	-10.002
罹	-10.0022
照臨	-10.0022
熏	-10.0025
九轉	-10.0025
超昇	-10.0027
萬眞	-10.0029
諸靈官	-10.0031
殺人	-10.0034
三極	-10.0035
見世	-10.0037
經典	-10.0041
受事	-10.0041
鳴法鼓二十四通	-10.0041
合用	-10.0054
玄元始	-10.0059
常住	-10.006
俄	-10.0072
所願	-10.0073
壇前	-10.0073
而後	-10.0095
九玄七祖	-10.0097
關告	-10.0098
六府	-10.0099
札	-10.01
永無	-10.01
村	-10.0103
赤天	-10.0106
慿	-10.0108
輕慢	-10.011
寡	-10.011
瘡	-10.011
至誠	-10.0113
况	-10.0113
程	-10.0113
奸	-10.0114
玉匱	-10.0117
罪魂	-10.0118
排	-10.0119
玉闕	-10.0138
役使	-10.0159
長樂	-10.0169
後世	-10.017
十萬人	-10.017
三氣	-10.0178
午朝	-10.018
謹爲	-10.0181
天元	-10.0182
必有	-10.0183
五寸	-10.0188
通眞	-10.0191
丕	-10.02
逾	-10.02
等今故燒香皈身皈神皈命	-10.0202
戲	-10.0203
降眞	-10.0203
列位	-10.0204
祛	-10.0205
踐	-10.0205
道力	-10.0206
尼	-10.0208
晴	-10.0208
蕩滌	-10.0208
符籙	-10.0213
功成	-10.0216
之憂	-10.0217
醮筵	-10.0218
功過	-10.0228
光照	-10.0229
起死	-10.0239
開圖	-10.0256
修齋行道	-10.0272
玄黄	-10.0274
四司	-10.0279
方函	-10.0283
眞師	-10.0284
得爲	-10.0285
弄	-10.0287
場	-10.0287
鬼王	-10.029
今有齋主某	-10.0293
謄	-10.0294
提携	-10.0294
驕	-10.0295
𢹂	-10.0296
沼	-10.0297
西靈	-10.0303
之靈	-10.0303
今當	-10.0304
命門	-10.0306
九日	-10.0314
嶽瀆	-10.0314
日宫	-10.0316
袍	-10.0317
無方	-10.0319
接引	-10.0326
生門	-10.0329
承受	-10.033
天丁	-10.0331
之位	-10.0341
於天	-10.0345
如何	-10.0346
命元	-10.0354
不足	-10.0357
恢	-10.0359
三過	-10.0361
視之	-10.0362
六親	-10.0375
寰	-10.0381
焚符	-10.0381
打	-10.0386
随	-10.0387
道化	-10.0387
諸衆生	-10.039
洞章	-10.0391
謡	-10.0393
片	-10.0395
篤	-10.0396
餓鬼	-10.0397
紋	-10.04
入道	-10.0406
土皇君	-10.0416
罪咎	-10.0422
南上	-10.0435
死亡	-10.0444
升壇	-10.0447
於碧落	-10.0448
萬罪	-10.0451
同北	-10.0451
擲	-10.0454
穀	-10.0465
幽䰟	-10.0467
煥耀	-10.0473
天子	-10.0475
赤子	-10.0478
虬	-10.0479
廕	-10.0481
晚朝	-10.0481
策	-10.0485
幻	-10.0485
汗	-10.0485
戾	-10.0487
峨	-10.0487
築	-10.0487
逍遙	-10.0487
南昌上宫	-10.0487
開悟	-10.049
無極大道	-10.0491
捻香	-10.0491
胷	-10.0493
二十八宿	-10.0495
梅	-10.0496
書名	-10.0496
𩀱	-10.0499
開張	-10.0502
萬象	-10.0502
之力	-10.0505
病人	-10.0507
晚	-10.0508
腸	-10.052
七月	-10.0521
萬方	-10.0524
天一	-10.0527
事畢	-10.054
敢有	-10.0558
上奏	-10.0559
神吏	-10.056
則爲	-10.056
蒙恩	-10.057
玄冥	-10.0575
謗	-10.0577
天機	-10.0577
辱	-10.058
靄	-10.058
貽	-10.058
捕	-10.0581
戎	-10.0582
四十二	-10.0582
天威	-10.0583
殺鬼	-10.0584
三塗五苦	-10.0587
奉道	-10.059
給付	-10.0594
九天生神	-10.0605
生根	-10.0612
月日	-10.0623
召魂	-10.0623
地獄主者	-10.0627
刀山	-10.0638
臣今	-10.064
須至	-10.0646
莫能	-10.0654
汚	-10.0676
幡	-10.0678
辯	-10.068
征	-10.068
蝗	-10.0682
辨	-10.0682
澗	-10.0683
地下	-10.0685
板	-10.0685
善人	-10.0686
千眞	-10.0687
括	-10.0692
紫雲	-10.0692
僚	-10.0695
以昭宸貺	-10.0701
鬱儀	-10.0702
之家	-10.0719
讀誦	-10.0728
二十八	-10.0734
普告	-10.0738
妙化	-10.0739
疆	-10.0741
成形	-10.0745
道前	-10.0745
者即	-10.0745
事理	-10.0758
者謂	-10.076
擣	-10.0771
壷	-10.0773
大明	-10.0774
雅	-10.0774
倐	-10.0776
不安	-10.0776
飯	-10.0776
廷	-10.0779
承天	-10.0779
寳誥	-10.0781
畜	-10.0783
袐	-10.0786
丙丁	-10.0788
玄天	-10.0791
卓	-10.0792
之章	-10.0794
旙	-10.0795
金丹	-10.0798
朱章	-10.0801
其道	-10.0806
仙聖	-10.0809
今生	-10.0809
六洞	-10.083
奏聞	-10.0831
證明	-10.0832
地仙	-10.0837
多少	-10.0841
礙	-10.0844
神燈	-10.0851
於玄	-10.0856
神兵	-10.0857
靈書	-10.0857
告行	-10.0862
持戒	-10.0868
覬	-10.0871
迫	-10.0874
三捻上香	-10.0875
圃	-10.0875
巧	-10.0876
兢	-10.0878
之類	-10.0879
凖	-10.0882
聰明	-10.0888
安穩	-10.0892
呼吸	-10.0892
庶得	-10.0894
萬年	-10.0897
皆是	-10.0898
之風	-10.0901
无極大道	-10.0905
詩曰	-10.0907
鈴	-10.0907
是一病	-10.0909
延壽	-10.0913
神炁	-10.0913
道路	-10.0913
年命	-10.0919
尸解	-10.092
可不	-10.0922
人有	-10.0922
何以	-10.0927
五氣	-10.0932
尊願以是功德歸流	-10.0933
朝眞	-10.0944
於地	-10.0944
不動	-10.0953
清都	-10.0966
出於	-10.097
錄	-10.0974
版	-10.0974
之本	-10.0975
扄	-10.0975
具位姓某謹據	-10.0976
園	-10.0976
無量無邊	-10.0978
不欲	-10.0979
挺	-10.098
盜賊	-10.0981
祥光	-10.0982
罷對	-10.0982
忤	-10.0984
飛空	-10.0989
極狀	-10.0991
日月星宿	-10.0991
光華	-10.1
說戒	-10.1
微祝曰	-10.1004
自是	-10.1007
朝謁	-10.1008
早朝	-10.101
四生	-10.1014
衆神	-10.102
淨供	-10.102
導引	-10.102
劫運	-10.1021
真符	-10.1021
演說	-10.1027
玄珠	-10.1028
眞聖	-10.1044
入意	-10.1048
成仙	-10.1059
僕	-10.1067
軄	-10.1074
等歸身歸命首體投地仰依太上三	-10.1075
驂	-10.1077
癡	-10.1079
天宫	-10.108
盲	-10.1081
權衡	-10.1082
騫林	-10.1082
暎	-10.1083
朽	-10.1084
長齋	-10.109
胞胎	-10.1094
疋	-10.1101
無量度人	-10.1106
者乃	-10.1109
臣等皈身皈神皈命首體投地仰依	-10.1115
法信	-10.1115
黃庭	-10.1119
經文	-10.1122
即使	-10.1123
至心朝禮	-10.1124
食之	-10.1128
三獻	-10.113
是一藥	-10.1132
者爲	-10.1137
十二人	-10.1145
運度	-10.1145
某甲子	-10.1149
爲先	-10.1149
預修	-10.1151
流火	-10.1156
可謂	-10.116
誠惶誠恐稽首頓首	-10.1167
葵	-10.1168
級	-10.1174
身命	-10.1174
夜壑	-10.1176
玩	-10.1177
擬	-10.1183
紐	-10.1185
所見	-10.1185
陀	-10.1189
主執	-10.1192
表裏	-10.1192
監察	-10.1198
髙下	-10.1198
之符	-10.1202
四瀆	-10.1203
冩	-10.1205
勿令	-10.1207
所言	-10.1209
幽隂	-10.121
當境	-10.1213
特降	-10.122
萬國	-10.122
四面	-10.1227
黄書	-10.1231
普照	-10.1232
二月	-10.1234
無所不	-10.1234
章奏	-10.1236
八月	-10.1237
斷除	-10.1237
日夜	-10.124
法門	-10.1249
玉樓	-10.1249
昇仙	-10.1254
渥	-10.1268
不經	-10.1272
煥明	-10.1273
之忱	-10.1274
廵	-10.1275
爲齋主某	-10.1276
濛	-10.1278
旅	-10.1278
眷	-10.1279
餌	-10.1279
褐	-10.1279
濕	-10.128
裂	-10.1281
麤	-10.1281
墟	-10.1282
使我	-10.1282
禎祥	-10.1284
蠢動	-10.1284
舜	-10.1286
天皇大帝	-10.1286
亨	-10.1289
說法	-10.1289
隠	-10.1292
落滅	-10.1295
特爲	-10.1298
州縣	-10.1303
濟物	-10.1307
玄關	-10.1308
善心	-10.1311
修道	-10.1321
入山	-10.1325
序立	-10.1331
三田	-10.1334
之術	-10.1337
流布	-10.134
流通	-10.1346
青紙	-10.1358
隨方	-10.136
作禮	-10.136
子午	-10.1366
師曰	-10.1367
梵炁天君	-10.1374
經教	-10.1376
故也	-10.1379
釐	-10.1383
將來	-10.1383
贖	-10.1387
凋	-10.1387
帳	-10.1389
其身	-10.1394
泰山	-10.1397
山在	-10.1397
料	-10.1398
叩頭	-10.14
庚申	-10.1401
慧光	-10.1405
也又	-10.1412
紫陽	-10.1412
就某處	-10.1414
之狀	-10.1417
之瑞	-10.142
如常	-10.1424
恬	-10.1425
風刀	-10.1434
惡道	-10.1435
華夏	-10.1438
玉宸	-10.1446
請福	-10.1446
災凶	-10.1451
十戒	-10.1458
青宫	-10.146
厄難	-10.1466
玄中	-10.1471
分形	-10.1471
形體	-10.1474
翁	-10.1475
兄	-10.1477
洞府	-10.1479
浄	-10.1481
闘	-10.1485
浹	-10.1485
當令	-10.1485
禾	-10.1486
攻	-10.1489
費	-10.149
淡	-10.1491
饌	-10.1491
戢	-10.1494
十日	-10.1494
泣	-10.1495
貧窮	-10.1495
辟斥	-10.1496
揮	-10.1496
軸	-10.1497
七十二	-10.1498
弼	-10.1498
叱	-10.1498
點	-10.1498
隻	-10.1499
蹈	-10.1499
飬	-10.1503
玄曹	-10.1504
疫鬼	-10.1508
公私	-10.1508
身中三五功曹左右官使者	-10.151
靈仙	-10.1523
黙念	-10.1528
頌曰	-10.1534
鍊形	-10.1538
城隍司	-10.1539
之宗	-10.1541
引至	-10.1542
辰星	-10.155
風雷	-10.1551
無數	-10.1556
昇玄	-10.156
龍虎君侍香諸靈官當令臣	-10.1571
禮懴	-10.1573
滅度	-10.1575
自此	-10.1581
仰惟	-10.1582
說經	-10.1583
俓上	-10.1584
之聲	-10.1587
賣	-10.1587
之始	-10.1589
法衆運誠	-10.1589
傅	-10.1591
穆	-10.1591
宵	-10.1592
去來	-10.1592
尹	-10.1592
奴婢	-10.1593
貨	-10.1594
荆	-10.1596
占	-10.1598
一道	-10.16
保護	-10.16
結璘	-10.16
謫	-10.1601
毁	-10.1601
轡	-10.1602
鼔	-10.1602
叙	-10.1603
朱陵火府	-10.1603
之威	-10.1604
衣食	-10.1605
真靈	-10.1609
刀兵	-10.1611
香官使者左右龍虎君侍香諸靈官當令	-10.1623
所屬	-10.1631
弘道	-10.1632
百八十	-10.1632
見其	-10.1632
惠澤	-10.1634
閉目	-10.1637
聽法	-10.1641
在心	-10.1655
今則	-10.1655
吾今	-10.1655
宻呪	-10.1658
及以	-10.1659
復連	-10.1662
元洞	-10.1666
欲望	-10.1666
在人	-10.1667
書章	-10.1672
黄籙齋	-10.1673
中外	-10.1674
无常	-10.1678
敬聽	-10.1685
繩	-10.1698
豁	-10.1699
覲	-10.17
遽	-10.1703
姑	-10.1705
歘	-10.1705
覽	-10.1706
的	-10.1706
諦聽	-10.1706
泯	-10.1708
聾	-10.1708
地祇	-10.1709
同學	-10.1712
禪	-10.1712
崔	-10.1715
仙翁	-10.1716
肉人	-10.1717
朱雀	-10.1719
甲寅	-10.172
雨露	-10.1722
不敬	-10.1731
受戒	-10.1733
自有	-10.1738
殺生	-10.1739
下土	-10.1742
宣化	-10.1753
通用	-10.1754
天尊告	-10.1757
華池	-10.176
玉眞	-10.1774
四象	-10.1774
飛騰	-10.1774
無色	-10.1777
隂精	-10.1781
來生	-10.1784
二景	-10.1793
尚書	-10.1802
三乗	-10.1804
升天	-10.1805
恃	-10.1807
金龍驛傳	-10.1809
詐	-10.181
戈	-10.1811
存想	-10.1812
侣	-10.1812
之形	-10.1814
奕	-10.1814
鬰	-10.1814
不受	-10.1815
敦	-10.1815
擎	-10.1818
璇	-10.1818
財物	-10.1819
其心	-10.1819
在前	-10.182
布化	-10.1822
道果	-10.1824
符告文	-10.1828
禦	-10.183
十方靈寳天尊	-10.1832
壽域	-10.1833
妙法	-10.1835
六趣	-10.1841
未能	-10.1841
萬民	-10.1844
愼之	-10.1845
玄武	-10.1847
亦如	-10.185
以其	-10.1853
眞精	-10.1855
上真	-10.1857
三華	-10.1858
至聖	-10.1859
寒暑	-10.1862
金符	-10.1864
與人	-10.1865
玄司	-10.1867
敢忘	-10.1867
祖玄	-10.1871
慈雲	-10.1871
爲我	-10.1881
萬鬼	-10.1891
開泰	-10.1893
來下	-10.19
不干	-10.1906
流輝	-10.1908
念道	-10.1911
飛升	-10.1915
灼	-10.1916
返生	-10.1917
聿	-10.1919
傲	-10.192
顏	-10.192
鎻	-10.1921
辤	-10.1921
蕃	-10.1922
朋	-10.1923
酸	-10.1924
竪	-10.1925
不識	-10.1926
圓成	-10.1927
謙	-10.1928
阜	-10.1928
橫	-10.1929
與道合真	-10.193
懴罪	-10.1932
膝	-10.1937
甲午	-10.1941
回靈	-10.1945
不食	-10.1947
官事	-10.196
炁一口	-10.1966
幽爽	-10.1973
千年	-10.1975
玄㝠	-10.198
七魄	-10.1983
髙仙	-10.1988
是非	-10.199
輕重	-10.1992
件	-10.1993
七曜	-10.1993
奏章	-10.2001
照應	-10.2002
甞	-10.2022
藩	-10.2034
謝恩	-10.2034
奮	-10.2036
大劫	-10.2037
諭	-10.2037
社稷	-10.2039
旺	-10.2042
四百	-10.2043
上御	-10.2044
學士	-10.2048
身與我神	-10.205
𡨚愆	-10.2051
女子	-10.2052
虎狼	-10.2055
瓶	-10.2056
妻子	-10.2056
終獻	-10.2059
聦明	-10.206
門外	-10.2064
鬼兵	-10.2066
六月	-10.2071
成人	-10.208
皆由	-10.2082
月十五日	-10.2089
惡鬼	-10.209
得仙	-10.2096
素靈	-10.2098
之界	-10.2104
考官	-10.2124
家庭	-10.2125
不行	-10.2134
隅	-10.2134
與我	-10.2136
流演	-10.2137
蒸	-10.2143
瀹	-10.2145
碎	-10.2146
愧	-10.2148
厨	-10.2148
巳得道大聖衆至眞諸君丈人	-10.2148
療	-10.2149
棗	-10.215
恠	-10.2151
般	-10.2151
苦魂	-10.2152
蠻	-10.2153
嘘	-10.2154
寃	-10.2154
底	-10.2156
之輝	-10.2157
指揮	-10.216
勃	-10.2162
當念	-10.2163
先天	-10.2172
或作	-10.2173
持齋	-10.2175
解穢	-10.2176
畜生	-10.2176
建壇	-10.218
者以	-10.2181
經者	-10.2194
妙炁	-10.2194
苦海	-10.2196
所爲	-10.2198
乗晨	-10.2198
次髙功	-10.2205
去處	-10.2205
壬癸	-10.2207
出堂頌	-10.2208
至此	-10.2208
心生	-10.2216
所請	-10.2226
臘	-10.2231
中嶽	-10.2234
轉經行道	-10.2235
女人	-10.2235
以手	-10.2245
結成	-10.2247
慳貪	-10.2251
真聖	-10.2251
讓	-10.2255
城隍社令	-10.2255
闔	-10.2256
繇	-10.2256
一切眞靈	-10.2258
切以	-10.2259
爵	-10.226
之意	-10.2262
琳琅	-10.2262
更相	-10.2271
道成	-10.2271
流金	-10.2273
紫金	-10.2279
在上	-10.2279
逺近	-10.228
兮	-10.2281
並用	-10.2284
甲辰	-10.2285
門庭	-10.2289
不成	-10.2292
升入	-10.2292
錬質	-10.2294
髙上玉皇十方巳得道大聖衆至眞諸君	-10.2296
用此	-10.23
當爲	-10.2307
金科	-10.2309
之身	-10.2313
正度	-10.2314
考對	-10.2315
威光	-10.2315
得道之後昇入无形和與道合眞	-10.2316
一兩	-10.2317
二十三	-10.2318
宣揚	-10.2319
通神	-10.232
五符	-10.2324
人家	-10.2326
天神	-10.2326
五尺	-10.2327
輪廻	-10.2329
帝東華南極西靈北眞玄都玉京金闕七	-10.233
耳目	-10.2333
玄玄	-10.2334
含靈	-10.234
赴壇	-10.2342
乗雲	-10.2343
化身	-10.2343
浮空	-10.2346
萬魔	-10.235
許君	-10.2353
前生	-10.2359
經師	-10.2362
快	-10.2369
洛	-10.2371
嘆	-10.2374
績	-10.2374
非人	-10.2375
掘	-10.2376
饑	-10.2376
此道	-10.2378
福禄	-10.2378
敵	-10.2381
叩齒三通	-10.2384
替	-10.2384
眄	-10.2386
然而	-10.2405
其家	-10.2406
徃來	-10.2407
昇度	-10.241
靈音	-10.2417
至人	-10.2425
昊天玉皇上帝	-10.2428
不必	-10.2432
相應	-10.2435
法雨	-10.2435
通玄	-10.2436
度人經	-10.2439
所說	-10.2445
愚人	-10.245
聦	-10.2463
齋事	-10.2463
駕景	-10.2466
不滅	-10.2466
伏爲	-10.247
龍章	-10.2471
千災	-10.2474
離苦	-10.2476
仙品	-10.2485
二捻上香	-10.2485
墀	-10.2488
顚倒	-10.2488
栖	-10.2491
邇	-10.2491
紛紜	-10.2493
萃	-10.2493
警	-10.2493
鄕	-10.2494
澡	-10.2495
嗟	-10.2495
鎖	-10.2495
葬	-10.2496
玄極	-10.2496
強	-10.2497
灾	-10.2498
憶	-10.2499
衆等志心皈命	-10.2499
展轉	-10.2499
不肯	-10.2505
剔	-10.2506
鬼官	-10.2506
騎吏	-10.2507
流浪	-10.2511
存念	-10.2514
三十六部尊經	-10.2516
大魔	-10.2521
雷電	-10.2522
六宫	-10.2528
不在	-10.253
前世	-10.2536
伏念	-10.254
其文	-10.2541
後生	-10.2546
治之	-10.2547
生成之	-10.2549
化人	-10.2554
之運	-10.2555
曰我	-10.256
表文	-10.2563
玉光	-10.2564
熒惑	-10.2564
七世	-10.257
即俾	-10.2572
青天	-10.2573
太上三尊	-10.2573
此人	-10.2575
四字	-10.2576
神郷	-10.2579
天府	-10.258
兆身	-10.2586
口訣	-10.2589
洞微髙士開光救苦眞人寗全	-10.2595
玄臺	-10.2595
而已	-10.2602
諸仙	-10.2603
訴	-10.2604
受命	-10.2605
悠悠	-10.2607
戀	-10.2608
所受	-10.2608
隴	-10.2609
倘	-10.261
嗔	-10.261
托	-10.2611
賀	-10.2611
揺	-10.2611
大德	-10.2612
隣	-10.2612
邪魔	-10.2612
拔贖	-10.2612
播	-10.2612
黨	-10.2612
頥	-10.2613
渴	-10.2613
巢	-10.2615
仙化成人	-10.2617
唎	-10.2619
樞機	-10.2621
或號	-10.2631
流鈴	-10.2633
某月	-10.264
黄道	-10.2641
瑶壇	-10.2642
風清	-10.2646
善縁	-10.2647
符醫	-10.2648
之要	-10.2648
聞之	-10.2653
大指	-10.2659
謹按	-10.2663
登壇	-10.2679
三色	-10.2693
雖有	-10.2706
修建	-10.2709
告命	-10.2709
先世	-10.271
閭	-10.2719
陞	-10.2722
亞獻	-10.2723
罵	-10.2724
斡	-10.2726
岱	-10.2726
喚	-10.2727
淮	-10.2728
鞅	-10.2728
藻	-10.273
今來	-10.2731
香燈	-10.2732
貢	-10.2733
鱗	-10.2734
熾	-10.2735
銅柱	-10.2735
巳來	-10.2737
床	-10.2737
十惡	-10.2738
二氣	-10.2739
不以	-10.2744
良乆	-10.2747
金石	-10.2748
緋	-10.2751
公子	-10.2753
寳章	-10.276
法服	-10.276
恭望	-10.2765
白鶴	-10.2768
焚之	-10.2771
散形	-10.2776
諷	-10.2786
太一救苦天尊	-10.2791
擲火	-10.2791
靈章	-10.2792
受之	-10.2798
以上	-10.2802
九晨	-10.2809
其事	-10.2827
葆	-10.284
狼	-10.284
渺	-10.2848
纎	-10.2849
陶鎔	-10.2849
沛	-10.285
𦤺	-10.2851
箕	-10.2853
聳	-10.2853
頻	-10.2853
銜	-10.2854
五嶽四瀆	-10.2854
叶	-10.2854
妙行眞人	-10.2855
柄	-10.2855
琴	-10.2857
蓬萊	-10.2857
壓	-10.2858
預修弟子某	-10.2858
流明	-10.2858
酌	-10.2859
覩光明	-10.2862
掛	-10.2864
四肢	-10.2864
尚慮	-10.2864
散壇	-10.2866
註	-10.2866
靈寳大法司	-10.2866
森羅	-10.2876
法食	-10.2885
東海	-10.2893
道氣	-10.2893
四聖	-10.2893
今以	-10.2895
動靜	-10.2897
衣冠	-10.29
一曰	-10.2902
超升	-10.2905
安泰	-10.2909
不須	-10.291
天尊曰	-10.2913
依按	-10.2917
二十一	-10.2921
通天	-10.2921
暑	-10.2925
五濁	-10.2926
方諸	-10.2929
无有	-10.2933
諸君丈人	-10.2935
晨君	-10.294
升度	-10.2942
聖帝	-10.2948
初捻上香	-10.295
耽	-10.2955
若欲	-10.296
羙	-10.2964
四者	-10.2965
終身	-10.2968
誹謗	-10.2969
攝醫	-10.297
漫	-10.2972
嗜	-10.2972
㦸	-10.2973
疇	-10.2973
亘	-10.2973
仙衆	-10.2975
瓦	-10.2978
郷里	-10.2978
中指	-10.2979
不相	-10.2979
資薦	-10.2984
羽衣	-10.2988
來臨	-10.2991
彌羅	-10.2991
俯賜	-10.2993
訶	-10.2994
部衞	-10.2994
其有	-10.2996
開元	-10.301
天心	-10.3012
殺害	-10.3015
傳度	-10.3016
驅除	-10.3019
虚无自然	-10.302
動主	-10.3021
身得	-10.3035
靡不	-10.3036
死籍	-10.3043
兄弟	-10.3045
五雷	-10.3047
聖力	-10.3049
三清上聖	-10.3059
齋醮	-10.3066
麥	-10.3084
仕	-10.3087
諸獄	-10.3088
徵	-10.309
以自	-10.3091
不離	-10.3091
洞天仙官	-10.3091
濡	-10.3091
猛獸	-10.3091
壑	-10.3092
儒	-10.3094
舘	-10.3095
濫	-10.3095
梓	-10.3095
佇	-10.3097
叛	-10.3097
炳	-10.3097
上宰	-10.3098
四十八	-10.3098
豆	-10.3098
其後	-10.3099
神水	-10.31
三分	-10.3101
莫測	-10.3102
浮黎	-10.3102
聖母	-10.3102
讃詠	-10.3104
曰子	-10.3105
梵行	-10.3105
不從	-10.3106
三時	-10.3107
眞風	-10.3116
神也	-10.3121
紫戸	-10.3125
之華	-10.313
關奏	-10.3137
輝華	-10.3142
之果	-10.3142
萬丈	-10.3146
金銀	-10.3149
而死	-10.3151
太山	-10.3155
得之	-10.3156
救護	-10.3164
三災	-10.3166
白玉	-10.317
飛潜	-10.3174
混洞	-10.318
有違	-10.3184
囚徒	-10.3196
太無	-10.3205
萬姓	-10.3205
不孝	-10.3205
具法位姓某	-10.321
探	-10.3211
誘	-10.3217
下照	-10.3218
羲	-10.3219
肌	-10.322
弓	-10.3221
構	-10.3221
麾	-10.3222
醴	-10.3222
鍳	-10.3222
銘	-10.3222
大慈大悲大聖大願隨機赴感發誓度人	-10.3222
遶	-10.3223
四司五帝	-10.3225
燕	-10.3225
恍	-10.3227
塡	-10.3228
元靈	-10.3229
盆	-10.323
寺	-10.3231
盂	-10.3232
黃帝	-10.3234
金童玉女	-10.3234
大慈大悲	-10.3234
尊卑	-10.3237
虚無自然	-10.3256
如意	-10.3256
江河	-10.3257
運限	-10.3258
窮魂	-10.3265
歸位	-10.3266
累劫	-10.3271
黍	-10.3272
法身	-10.3273
玄穹	-10.3273
過度	-10.3273
衆妙	-10.3275
自從	-10.3276
化形	-10.329
受此	-10.3292
之福	-10.33
後學	-10.3302
一方	-10.3306
有大	-10.3309
幽冥	-10.3309
之眞	-10.331
皇家	-10.3311
受苦	-10.3313
從心	-10.3318
攝書符唵	-10.3329
十一月	-10.333
妙用	-10.3333
朴	-10.3341
葩	-10.3342
迓	-10.3343
抽	-10.3343
鼓舞	-10.3345
眞交㑹在此香火爐前令	-10.3345
稼	-10.3346
鄙	-10.3346
饗	-10.3346
則上明天尊大慈之化下副	-10.3347
四月	-10.3348
一如告命風火驛傳	-10.3349
飄飄	-10.335
頭上	-10.3351
辦	-10.3353
而出	-10.3353
衘	-10.3355
日月星辰	-10.3355
畔	-10.3359
慈心	-10.3359
一尺	-10.3364
皇夫人	-10.3364
赤文	-10.3366
送迎	-10.3368
生化	-10.3372
宅舍	-10.3375
長生大帝	-10.3378
追䰟	-10.338
孤魂	-10.3382
患人	-10.3385
無疆	-10.3392
引魂	-10.34
歸心	-10.3402
重泉	-10.3402
籍師	-10.3403
金簡	-10.3417
有生	-10.343
惡業	-10.3435
金精	-10.3437
炎光	-10.344
門戸	-10.3448
者見世	-10.3449
道德日	-10.3449
記名	-10.345
某上啓	-10.3454
誑	-10.3463
年月	-10.3465
天河	-10.3471
屠割	-10.3471
脂	-10.3471
道都大主者	-10.3471
蛻	-10.3472
六道四生	-10.3473
冶	-10.3474
超淩	-10.3475
九天普度院	-10.3476
二日	-10.3478
顛倒	-10.348
甲戌	-10.3482
煥爛	-10.3482
眞氣	-10.3483
思念	-10.3484
廚	-10.3484
絕	-10.3487
常存	-10.3495
五篇	-10.3499
神威	-10.3499
寂然	-10.3506
兆民	-10.3507
昭回	-10.3509
玉曆	-10.351
三人	-10.3511
之路	-10.3514
錬化	-10.3515
光芒	-10.3517
等魂	-10.3521
元神	-10.3524
無終	-10.3524
靈寳符命	-10.3528
成道	-10.3529
玉局	-10.353
人中	-10.3533
善果	-10.3534
後聖	-10.3535
月中	-10.3537
於人	-10.3541
歡樂	-10.3548
四寸	-10.355
真人玉清	-10.355
流形	-10.3554
和釋	-10.3555
卯文	-10.3556
正氣	-10.3565
法王	-10.3566
來降	-10.3569
碧玉	-10.357
此乃	-10.3575
之令	-10.3582
受法	-10.3586
恩光	-10.3588
如上	-10.359
黄紙	-10.3593
懇祈	-10.3594
以次	-10.3595
裁	-10.3596
掾	-10.36
萌	-10.36
曵	-10.3602
漂	-10.3604
帷	-10.3604
肥	-10.3605
頑	-10.3605
粒	-10.3605
榆	-10.3605
腑	-10.3605
三尊	-10.3606
𨇠	-10.3607
爲上	-10.3608
顚	-10.3608
沸	-10.3608
廣成先生杜光庭	-10.3609
扶桑	-10.3609
孽	-10.361
書刀一口	-10.3611
擒	-10.3614
津梁	-10.3614
冤	-10.3614
燒香頌	-10.3616
切慮	-10.3619
是謂	-10.3619
十二願	-10.3619
九華	-10.3619
眞常	-10.3621
神龍	-10.3626
再三	-10.3632
紫宸	-10.3633
分位	-10.3634
三惡	-10.3636
等皈身皈神皈命首體投地	-10.3642
種民	-10.3646
慈光	-10.3646
九星	-10.3652
曹仙官	-10.3656
建三	-10.3657
上法	-10.3657
以成	-10.3661
好道	-10.3663
升神	-10.3664
不善	-10.3667
不淨	-10.3673
下愚	-10.3674
謹狀	-10.3676
當先	-10.3682
國家	-10.3692
爲始	-10.3694
三關	-10.3695
體道	-10.3695
師資	-10.3698
諸神	-10.3702
所求	-10.3704
申狀	-10.3704
人能	-10.3706
故名	-10.3709
告齋	-10.3709
孝道	-10.3713
儼	-10.3717
太歳年月日	-10.3718
太極眞人	-10.3718
者亦	-10.3718
神龍王	-10.372
白雲	-10.3722
昊天	-10.3727
古今	-10.3727
撓	-10.373
陋	-10.3732
鉞	-10.3733
帝尊	-10.3734
瑤	-10.3741
琳	-10.3742
蔵	-10.3743
焼香	-10.3743
頒行	-10.3744
島	-10.3745
幾晝夜	-10.3747
朝行道	-10.3747
鄧	-10.3748
有漏	-10.3748
稽首皈依	-10.3753
愆尤	-10.3754
九龍符命	-10.3756
之報	-10.3756
考校	-10.3757
諸惡	-10.3758
國祚	-10.3759
發爐	-10.3763
從官十	-10.3767
無盡	-10.3771
上告	-10.3779
所得	-10.3779
五榖	-10.378
符呪	-10.379
前去	-10.3796
不及	-10.3796
之徒	-10.3803
生前	-10.3807
攝魄	-10.3812
徃生	-10.3815
火車	-10.3817
室中	-10.3817
邪精	-10.3824
地司	-10.3824
先生林靈眞編科儀立成品	-10.3826
所奏	-10.383
御運	-10.3833
非常	-10.384
之祥	-10.384
仙君	-10.3844
祝之	-10.3845
平旦	-10.3847
明皇	-10.385
妾	-10.3858
伏地	-10.3863
梯	-10.3863
狐	-10.3864
婁	-10.3867
暘谷	-10.3867
洋	-10.3868
穰	-10.3868
渡	-10.3868
鄰	-10.3869
拒	-10.387
即與	-10.387
扃	-10.3871
饒	-10.3871
乍	-10.3872
歸依師尊大聖衆至眞之德得道之後	-10.3872
諧	-10.3874
徽	-10.3876
三萬六千	-10.3877
無上道	-10.3877
縳	-10.3878
眠	-10.3878
三界官屬	-10.3879
痾	-10.3879
三官大帝	-10.3894
三十六天	-10.3896
丹靈	-10.3899
几前	-10.3901
八素	-10.392
不應	-10.3921
白炁	-10.3921
神眞	-10.3927
宣詞	-10.3928
他人	-10.393
靈童	-10.3948
五者	-10.3953
眞司	-10.3956
思惟	-10.3964
眞皇	-10.3967
之書	-10.3968
青詞	-10.3969
太一天尊	-10.3969
今爲	-10.3975
朱宫	-10.3986
廣度	-10.3986
不測	-10.3987
福庭	-10.399
涵濡	-10.3997
午文	-10.3997
故次之以	-10.4
宣通	-10.4004
䢖	-10.4004
禧	-10.4005
賈	-10.4005
熖	-10.4006
仙童玉女	-10.4006
愁	-10.4007
凡人	-10.4007
天眞皇人	-10.4009
官君將吏	-10.4009
則有	-10.4011
劒樹	-10.4012
隨其	-10.4013
天地水三官	-10.4014
靈寳玉鑑卷之	-10.4014
神魂	-10.4015
白素	-10.4016
興隆	-10.402
南向	-10.4021
我者	-10.4025
削落	-10.4026
道德天尊	-10.4028
人多	-10.403
其形	-10.4036
非有	-10.4037
東方青	-10.4045
未有	-10.4046
之庭	-10.4047
制魔	-10.4063
朱表	-10.4065
太上大道君	-10.4071
升降	-10.4081
經中	-10.4081
塲	-10.4084
輪迴	-10.4089
傾光	-10.4091
者必	-10.4092
滅罪	-10.4104
萬天	-10.4107
帝庭	-10.4112
不知所	-10.4112
冥冥	-10.4114
諸苦	-10.4123
傳言	-10.4125
邦	-10.4126
寥廓	-10.4135
葷	-10.4136
抄	-10.4138
豫	-10.4139
烹	-10.4139
怖	-10.4139
埃	-10.4139
杳	-10.414
救苦眞人	-10.4143
三官九府	-10.4144
不起	-10.4145
投誠	-10.4146
睦	-10.4146
輸	-10.4146
司主管天下	-10.4146
眇	-10.4146
案判官嶽府第	-10.4148
之年	-10.4148
黒鬱	-10.4149
隨我神運	-10.415
執符	-10.4151
摇	-10.4153
謹重誠上啓	-10.4154
地禁	-10.4154
即得免	-10.4155
鳥獸	-10.4157
五通	-10.4162
誦詠	-10.4166
上言	-10.4169
其義	-10.4171
齋主某家	-10.4173
悔過	-10.4173
皇上	-10.4174
咸得	-10.4176
一元	-10.4176
帝前	-10.4182
如儀	-10.4182
勤修	-10.4183
劫劫	-10.4185
不通	-10.4192
聖旨	-10.4193
正薦	-10.4202
化成	-10.4202
之典	-10.4203
八㑹	-10.4205
尊師	-10.4207
爲弟子	-10.4212
不解	-10.4212
某謹重誠上啓	-10.4212
請臣等	-10.4214
玄風	-10.422
已身	-10.422
生氣	-10.4222
中部	-10.4223
上應	-10.4224
胎生	-10.4224
未得	-10.4228
神氣	-10.4228
存見	-10.4233
五斗	-10.4245
靈飛	-10.4246
火鍊	-10.4251
過去生	-10.4254
譬	-10.4257
隂靈	-10.4258
護持	-10.4264
中國	-10.4272
霓旌	-10.4273
駟	-10.4274
沴	-10.4276
授以	-10.4276
禎	-10.4276
鴈	-10.4278
苗	-10.4278
尉	-10.4278
泰玄樞機三省	-10.4279
毓	-10.4279
於鴻覆生靈曷遂於燕安或旱澇之所災	-10.4281
爍	-10.4281
用叩天恩冀社稷之尊隆庶民物之康阜	-10.4281
或民庶之多難覩此物	-10.4281
洞神之法立墠設位象三十六天燒香然	-10.4281
皇中元祈請大齋臣等誠愚誠魯非賛大	-10.4281
恠夢消除二儀交泰則七曜調明風雨以	-10.4281
先亡同得離幽苦上昇福堂轉輪成眞利	-10.4281
海災消禎祥雲集八節安和一切羣生咸	-10.4281
陰	-10.4284
塗炭	-10.4284
其上	-10.4285
天帝君上清	-10.4286
復次善男子	-10.4288
急急如上帝律令	-10.4289
真人右	-10.429
追薦	-10.4291
天王姓	-10.4291
疊	-10.4292
眞一	-10.4292
夾	-10.4292
應聲	-10.4294
鬱絶	-10.4296
靈源	-10.4296
方隅	-10.4298
譯文	-10.4301
玉陛下	-10.4301
𨽻	-10.4304
數十	-10.4313
西嶽	-10.4314
東西	-10.4317
北嶽	-10.4318
詩書	-10.4319
蕩穢	-10.4322
受道	-10.4323
庚辛	-10.4323
三洞法師	-10.4328
諸部	-10.4331
能知	-10.4339
引旛	-10.434
不明	-10.4342
尊靈	-10.4343
都司	-10.4343
道徳	-10.4344
不得妄	-10.4346
二斗	-10.4352
心存	-10.4356
所部	-10.4356
教主	-10.4356
禍福	-10.436
欲得	-10.4375
伏乞	-10.4376
斗極	-10.4378
不負	-10.4379
二尺	-10.4387
元始上帝	-10.439
地上	-10.4398
三世	-10.4401
之言	-10.4402
未來	-10.4404
七祖一切	-10.4406
念念	-10.4407
一口	-10.4409
涼	-10.4409
滛	-10.441
緣	-10.4411
霈	-10.4416
聖澤	-10.4416
捐	-10.4417
罵詈	-10.4418
内有	-10.4421
粲	-10.4421
當今皇帝遇荷玄恩幸藉餘慶屬當萬機	-10.4422
吕	-10.4422
后土皇地祇	-10.4422
暄涼應節黎庶咸安兵戈止息天下太平	-10.4422
燈應三十六地消釋幽闇招引神明爲某	-10.4422
悔丹誠以是功德歸流某七廟之靈九玄	-10.4422
罔極之澤垂救度之福賜更造之仁使道	-10.4422
鷄	-10.4422
粮	-10.4423
三命	-10.4423
暖	-10.4424
哺	-10.4424
上清靈寳行司	-10.4424
霹靂	-10.4432
塚	-10.4434
五常	-10.4435
壽命	-10.4436
金童傳言散花玉女五帝直符直日香官	-10.4437
天丁力士	-10.4437
明科	-10.4444
群靈	-10.4445
玄化	-10.4447
鬼賊	-10.4448
歷劫	-10.4449
敢不	-10.4451
嘯命	-10.4451
仰謝	-10.4462
一分	-10.4468
之喜	-10.4471
大臣	-10.4472
具載	-10.4483
九幽地獄	-10.4484
事竟	-10.449
髙皇	-10.4492
月一日	-10.4492
言曰	-10.4493
夜光	-10.4495
以生	-10.45
百靈	-10.4502
塜	-10.4503
玉音	-10.4508
二十二	-10.4513
重隂	-10.4513
禁壇	-10.4522
三界十方	-10.4528
歸於	-10.4533
如有	-10.4535
受報	-10.454
開啓	-10.455
仇	-10.4551
浩蕩	-10.4551
皈身皈神皈命	-10.4552
茫茫	-10.4555
洎	-10.4557
億曽萬祖	-10.4558
勇	-10.4559
乞降	-10.456
認	-10.456
初捻上香願此香煙騰空	-10.4561
諸省府院司	-10.4562
三十六部尊經玄中大法師上相上宰	-10.4562
杯	-10.4562
化化	-10.4562
遼	-10.4565
摽露眞文揚旛請命披心散	-10.4565
腫	-10.4565
脱	-10.4567
匠	-10.4568
汲	-10.4568
逰	-10.4568
紋繒	-10.4568
奬	-10.4569
談	-10.4569
衢	-10.457
須至申聞者右謹具狀上申	-10.4571
渺渺	-10.4571
畧	-10.4573
十二河源	-10.4574
霐	-10.4574
殗	-10.4575
金容	-10.4576
𡨚債	-10.4577
九皇	-10.4578
寂寂	-10.4578
二符	-10.4578
從此	-10.4582
元始天尊太上大道君太上老君	-10.4583
𥿄	-10.4585
白元	-10.4587
五福	-10.4588
盞	-10.4588
若是	-10.459
罪録	-10.4598
司額	-10.46
水旱	-10.4605
九圍	-10.4606
養生	-10.4606
肅建	-10.461
流芳	-10.4611
己身	-10.4611
來迎	-10.4615
有功	-10.4623
華林	-10.4625
等身中	-10.4632
月華	-10.4634
問其	-10.4636
真經	-10.4638
洞徹	-10.4643
具位臣	-10.4645
奏狀	-10.4645
符文	-10.4646
肅清	-10.4647
不退	-10.4652
丹霞	-10.4659
昊	-10.4666
百鬼	-10.467
形和與道合眞	-10.4671
言語	-10.4673
婦人	-10.4674
出者嚴裝關啓玄壇天帝神君當召此間	-10.468
中間	-10.4687
德得道之後	-10.4691
掠	-10.4693
召役	-10.4697
纔	-10.4699
姓某上表	-10.4699
天開	-10.4701
搆	-10.4702
攄	-10.4703
有命	-10.4705
不覺	-10.4705
躭	-10.4706
靈魂	-10.4706
脊	-10.4707
苑	-10.4709
燧	-10.471
粉	-10.4711
西向	-10.4711
靣	-10.4712
三一	-10.4713
規	-10.4716
各稱法位	-10.4717
窈	-10.4718
少陽	-10.4721
髣髴	-10.4723
變神	-10.4726
年中	-10.4727
益筭	-10.4729
乗此	-10.4743
證品	-10.4753
垂光	-10.4753
人皆	-10.4754
入妙	-10.4754
九道	-10.4754
兵士	-10.4759
七政	-10.4766
空歌	-10.4767
五行之	-10.4768
男子	-10.4769
隱語	-10.4775
若無	-10.4776
往生	-10.4776
往來	-10.4779
九寸	-10.478
根本	-10.4785
數百	-10.4787
凝眞	-10.4796
玉液	-10.48
受書	-10.4801
旛符	-10.4805
拔罪	-10.4806
皇圖	-10.4809
金錢	-10.4812
三尸	-10.4827
子文	-10.4838
主之	-10.4839
君官將百二十人	-10.4841
幽獄	-10.4841
殁	-10.4847
无上黃籙大齋	-10.4849
閻	-10.4849
八紘	-10.4851
懿	-10.4854
勘	-10.4854
悅	-10.4855
抗	-10.4856
合景	-10.4857
駒	-10.4859
社令	-10.4862
蠱	-10.4862
北都	-10.4864
清涼	-10.4865
聖日	-10.4865
筋	-10.4868
若非	-10.4869
百骸	-10.4873
貟	-10.4874
碧霞	-10.4875
不過	-10.4878
䰟𩲸	-10.488
洞微髙士開光救苦眞人𡩋全	-10.488
面東	-10.488
人事	-10.4882
妄想	-10.4883
積善	-10.4883
頭戴	-10.4888
方可	-10.4895
經絡	-10.4896
如上法	-10.4896
靈應	-10.4902
寳蓋	-10.4905
不老	-10.4907
増延	-10.4907
破地獄	-10.4911
靈寳大法	-10.4911
御景	-10.4919
而行之	-10.492
吉日	-10.4921
得解脫	-10.4924
武帝	-10.4928
月宫	-10.4932
㝠㝠	-10.4932
之私	-10.4936
一徧	-10.4936
之源	-10.4937
燈燭	-10.4937
忽見	-10.4939
仙童	-10.4942
疾苦	-10.4942
太元	-10.4948
洞靈	-10.4951
道流	-10.4951
具位姓某	-10.496
於世	-10.4966
君子	-10.4968
玉清訣	-10.4972
一枚	-10.4973
金木	-10.4977
謝罪	-10.4977
蔚	-10.4991
人命	-10.4992
衣食自然	-10.4994
焼	-10.4997
隂符	-10.5
三界官屬一切眞靈	-10.5
傷亡	-10.5001
崩	-10.5003
不可思議功德	-10.5004
合屬去處	-10.5004
煌	-10.5005
當來	-10.5005
箭	-10.5006
暁	-10.5006
經信禮	-10.5007
屯	-10.5007
㓜	-10.5008
浣	-10.5008
講說	-10.5008
福郷	-10.5008
箇	-10.5009
閱	-10.5009
琅函	-10.501
簮	-10.5011
飛龍騎吏	-10.5011
上徹	-10.5011
肘	-10.5012
亦是	-10.5012
韜	-10.5012
奴	-10.5014
謹上啓	-10.5015
形魂	-10.5017
小兒	-10.5019
髙真	-10.502
祭酒	-10.502
勾陳	-10.5021
玊女	-10.5023
北辰	-10.5024
福壽	-10.5025
慧日	-10.5025
醮儀	-10.5028
除巳	-10.5032
稱揚	-10.5037
所陳	-10.5043
在世	-10.5043
直使	-10.5043
度魂	-10.5044
王君	-10.5046
其功	-10.5047
内音	-10.505
國主	-10.5052
學眞	-10.5054
風火	-10.5054
精心	-10.506
之主	-10.5062
聖化	-10.5065
一丈	-10.5066
吉慶	-10.507
手足	-10.5077
次唱	-10.5083
律曰	-10.5085
皆令	-10.5092
永斷	-10.5095
演教	-10.5095
遷神	-10.5096
佐國	-10.5097
殺害衆生或	-10.5099
難可	-10.5104
依前	-10.5105
故能	-10.5105
青炁	-10.5108
乃得	-10.5109
所向	-10.5117
覺悟	-10.5119
黄炁	-10.5119
河源	-10.5129
具奏	-10.5129
紫光	-10.5135
小兆	-10.5135
永劫	-10.5137
直壇	-10.5142
靈寳淨明	-10.5142
清明	-10.5144
餓	-10.5147
戚	-10.515
奕奕	-10.5151
墳	-10.5153
禮方懴方	-10.5154
辜	-10.5154
予	-10.5154
崇建某齋	-10.5156
駭	-10.5157
醜虜歸降某所苦某病即蒙差愈或官司	-10.5158
險	-10.516
艱	-10.516
亢	-10.5161
山水	-10.5162
𦍙	-10.5163
録事	-10.5165
下及	-10.5165
至心皈命	-10.5167
丁卯	-10.5168
臨軒	-10.5169
召請	-10.517
隱韻	-10.5171
七年	-10.5175
所告	-10.5176
無他	-10.5178
之性	-10.5179
而至	-10.5179
青玄黄籙	-10.5182
利貞	-10.5184
多有	-10.5191
調和	-10.5193
或以	-10.5194
御炁	-10.52
求仙	-10.52
災殃	-10.5203
子等	-10.5207
衆人	-10.5209
大醮	-10.5219
授之	-10.5226
真人左	-10.5228
歩罡	-10.5229
六塵	-10.5231
四維	-10.5236
紫房	-10.5236
仙王	-10.5237
二寸	-10.5238
衆仙	-10.5239
方寸	-10.524
靈通	-10.5246
豈不	-10.5251
又以	-10.5253
午時	-10.5255
與道合眞鳴法鼓二十四通	-10.5256
天台	-10.5262
萬仙	-10.5265
入戸	-10.5269
得此	-10.5269
經戒	-10.5271
二字	-10.5274
三㑹	-10.5276
之厄	-10.5276
青童	-10.5277
蠲消	-10.5286
丹臺	-10.529
昭宣	-10.5292
萬生	-10.5292
今故燒香自歸依師尊大聖衆至	-10.5293
扆	-10.5297
勿得	-10.53
直入	-10.5301
弊	-10.5303
煒燁	-10.5304
不可得	-10.5304
廊	-10.5305
嫉	-10.5306
陶冶	-10.5306
刺	-10.5307
靈觀	-10.5307
獵	-10.5308
一氣	-10.5308
乂	-10.5309
福生無量天尊	-10.531
猷之人特念巳叨	-10.5311
溟涬	-10.5312
巳忝敢負登盟之誓謹共精嚴	-10.5312
寔	-10.5314
芬	-10.5314
馮	-10.5315
鐵圍	-10.5316
玄微	-10.5316
捲	-10.5317
戶	-10.5318
五炁天君	-10.5318
恍惚	-10.5318
䑕	-10.5319
下臨	-10.5321
郁	-10.5321
臂	-10.5321
縣城隍	-10.5321
身體	-10.5322
一斗	-10.5324
無涯	-10.5329
吐納	-10.5329
聖慈	-10.5336
自今	-10.534
三籙	-10.5346
真文	-10.5354
之辰	-10.5355
瓊輪	-10.536
紫户	-10.5362
吉祥	-10.5363
等至心稽首禮	-10.5364
萬𩔖	-10.5367
皇后	-10.5368
聖眞	-10.5369
降福	-10.538
甚多	-10.5387
敬禮	-10.5392
端正	-10.5396
祝畢	-10.5397
上達	-10.5402
百千萬	-10.5404
飢寒	-10.541
前驅	-10.5414
現形	-10.5416
之禮	-10.5416
身長	-10.542
爲汝	-10.5422
虚玄	-10.5426
年月日具位	-10.5426
節次	-10.5427
天帝君太清	-10.5437
遵奉	-10.544
石室	-10.5443
願賜	-10.5444
長春	-10.5444
雲路	-10.5454
九江	-10.5454
太子	-10.5456
心拜	-10.5456
胥	-10.5464
宇宙	-10.5464
中三五功曹左右官使者侍香金童傳言	-10.5464
剥	-10.5464
謹録狀上奏	-10.5465
睡	-10.5466
宗師	-10.5466
鍚	-10.5467
䂓	-10.5467
邀	-10.5467
黄白	-10.5467
嚴裝	-10.5467
黃華	-10.5468
慙	-10.5468
无上黄籙大齋	-10.5469
湧	-10.5469
緬	-10.547
懇禱	-10.547
定命	-10.547
沈淪	-10.5471
遷賞	-10.5471
勤拳	-10.5471
吽	-10.5472
裔	-10.5472
杓	-10.5472
默	-10.5472
洞天福地	-10.5473
書符呪	-10.5473
日光	-10.5473
檀	-10.5475
殷	-10.5475
忝	-10.5476
簾	-10.5476
稽首再拜	-10.5477
綿綿	-10.5478
形容	-10.5479
皂	-10.5483
一朝	-10.5487
燈以照	-10.5489
某與臨壇官衆等謹同誠上啓	-10.5492
朗徹	-10.5495
戊已	-10.5496
灌注	-10.5498
之愆	-10.55
仰荷	-10.5505
火燒	-10.5506
重樓	-10.5507
科品	-10.5511
四尺	-10.5515
不違	-10.5516
萬法	-10.5516
何謂	-10.5517
列聖	-10.552
自己	-10.552
香煙	-10.552
普告三界	-10.5527
天尊說	-10.5534
解壇	-10.5534
三焦	-10.5535
以求	-10.5536
仁風	-10.5538
勑符呪	-10.5541
分靈	-10.5549
十五日	-10.5549
含生	-10.555
遵依	-10.5555
執對	-10.5555
化日	-10.5556
之信	-10.5557
一月	-10.556
立成	-10.5562
之道也	-10.5566
上士	-10.5568
龍文	-10.5569
相傳	-10.5572
聖壽	-10.5573
君吏	-10.5573
陽神	-10.5575
功行	-10.5583
災衰	-10.559
今奉爲	-10.5591
瘟疫	-10.5593
四十五	-10.5597
無英	-10.5599
太靈	-10.5602
光耀	-10.5616
粟	-10.5618
飮	-10.5619
魯	-10.5621
叟	-10.5622
疑惑	-10.5622
架	-10.5623
蠟	-10.5623
烽	-10.5623
阻	-10.5624
嫌	-10.5625
與道合	-10.5627
督	-10.563
薰	-10.563
創	-10.563
扉	-10.5632
屢	-10.5632
霄衢	-10.5633
匝	-10.5635
玉皇上帝	-10.5638
夫妻	-10.5644
有何	-10.5645
觸犯	-10.5648
南丹	-10.5648
飲酒	-10.5648
丹青	-10.565
青書	-10.5653
鬱羅	-10.5654
入口	-10.5658
各三十二人出出者嚴裝關啓	-10.5659
仰冀	-10.5664
錢馬	-10.5666
上部	-10.567
十轉	-10.5673
得聞	-10.5675
色界	-10.5676
因今	-10.5676
之祕	-10.5679
長安	-10.5679
九竅	-10.568
命靈	-10.5683
别有	-10.5695
不作	-10.5697
眞人童子	-10.57
仙界	-10.5703
真授靈寳通玄弘教水南先生林靈真編	-10.5704
焚化	-10.5709
名列	-10.5712
願得玉清道炁靈寳妙光下降流入	-10.5716
太華	-10.5716
山下	-10.5719
道性	-10.5721
之竒	-10.5722
焚修	-10.5727
消魔	-10.5729
本始	-10.5732
魔試	-10.5735
五年	-10.5736
朝修	-10.5738
天根	-10.574
郷貫	-10.5741
仙階	-10.5742
五千	-10.5745
即日	-10.5745
章醮	-10.5747
壇中	-10.5749
五味	-10.5754
寳珠	-10.5755
天女	-10.5762
都畢	-10.5763
合炁	-10.5766
千生	-10.5767
而退	-10.5768
虛空	-10.577
吞之	-10.5774
矯	-10.5778
鬱單	-10.578
常在	-10.578
南北	-10.5781
鞠	-10.5784
㓂	-10.5784
元始天尊无極大道太上道君太上老君	-10.5784
暇	-10.5787
緒	-10.5788
倐忽	-10.5789
躔	-10.5789
虹	-10.5792
柳	-10.5792
翊衞	-10.5793
天兵	-10.5794
巡	-10.5795
今故燒香自皈依師尊大聖衆至	-10.5796
蝕	-10.5799
父毋	-10.5801
大化	-10.5804
河伯	-10.5806
與天地	-10.5807
金玉	-10.581
地紀	-10.5812
聖號	-10.5813
罔極	-10.5815
二十六	-10.5815
帝闕	-10.5816
丹砂	-10.5823
起居	-10.5823
耀景	-10.5825
丹悃	-10.5826
謹有	-10.5837
本壇	-10.5841
永辭	-10.5842
河圖	-10.5844
白書	-10.5844
紫微宫	-10.5855
九土	-10.5861
靜念	-10.5864
太丹	-10.5864
赤炁	-10.5873
出官	-10.5884
咸令	-10.5891
成都	-10.5891
頭建	-10.5897
當得	-10.5898
明日	-10.5901
星君北斗	-10.5902
一體	-10.5903
徑上	-10.5906
忽有	-10.5908
合明	-10.5909
髙上玉皇	-10.5911
之格	-10.5917
流珠	-10.5922
宫殿	-10.5924
乗空	-10.5931
願垂	-10.5937
今月某日	-10.5941
剖	-10.5942
隨意	-10.5942
繡	-10.5944
址	-10.5944
鞭	-10.5944
六道四生孤魂滯魄	-10.5946
菲	-10.5946
亮	-10.5947
法食符	-10.5947
凛	-10.5947
三品	-10.5949
上帝勑	-10.595
鎔	-10.5951
𥘉	-10.5951
噉	-10.5952
桐栢	-10.5954
白石	-10.5954
孩	-10.5955
沒	-10.5956
罏	-10.5956
熒	-10.5957
罪爽	-10.5958
之謂	-10.5958
遜	-10.5959
而作	-10.5959
迸	-10.5961
鬱秀	-10.5962
名書	-10.5964
碧漢	-10.5965
之表	-10.5965
睿號	-10.5966
詞㫖	-10.5968
遷拔	-10.5975
總領	-10.5977
果報	-10.5978
义	-10.5979
三十二天帝君	-10.5986
不思	-10.5986
挾	-10.5988
普薦	-10.5989
扶持	-10.5994
天庭	-10.5998
拜表	-10.5998
㧞度	-10.5999
玉女五帝直符直日香官各三十二人出	-10.6001
禮謝	-10.6002
雲中	-10.6002
朗耀	-10.6006
姓某承誥奉行	-10.6007
王子	-10.6009
瓊臺	-10.601
獲福	-10.6015
悉令	-10.6016
之節	-10.6025
紫煙	-10.6025
未聞	-10.6026
紫霞	-10.6027
人口	-10.6027
玄老	-10.6029
見前	-10.6029
龍君	-10.6033
妙哉	-10.6036
小腸	-10.6039
大水	-10.6042
人各	-10.6042
鑒映	-10.6042
山嶽	-10.6048
洞門	-10.6054
皆悉	-10.6056
亦復	-10.6059
天魔	-10.6063
父子	-10.6065
修習	-10.6066
常有	-10.6068
仰祈	-10.6069
首謝	-10.607
憲天	-10.6077
周回	-10.6077
墨書	-10.6078
生身受度	-10.6082
品物	-10.6085
珮	-10.6086
考召	-10.6089
返本	-10.609
幽都	-10.6107
牒請	-10.6109
奄	-10.6109
主張	-10.6111
漬	-10.6111
酣	-10.6113
北隂玄天酆都大帝	-10.6114
寳瓊臺紫微上宫靈寳至眞明皇道君	-10.6115
譽	-10.6115
開建	-10.6115
黒簿	-10.6116
眷序	-10.6118
欠	-10.6119
蒙福慶俱服正教同歸自然得道之後與	-10.6119
飜	-10.612
干戈	-10.612
梯航	-10.6121
援	-10.6121
羡	-10.6121
山洞府得道神仙三界官屬一切眞靈臣	-10.6122
羞	-10.6122
呌	-10.6122
掾吏	-10.6123
抵	-10.6123
殞	-10.6124
岡	-10.6124
濤	-10.6124
焚燎	-10.6125
七玄	-10.6126
係薦	-10.6126
灌沐	-10.6128
章表	-10.613
日月星	-10.6131
洞朗	-10.6132
无量度人	-10.6134
一面	-10.6134
羅天	-10.6139
章從事	-10.614
十方救苦天尊	-10.6141
校録	-10.6146
津液	-10.6147
速降	-10.6148
祥煙	-10.6155
悟道	-10.6155
元和	-10.6155
解結	-10.6159
雲車	-10.6169
爲齋主	-10.6171
聖君	-10.6175
口吐	-10.6182
八千	-10.6184
紫霄	-10.6185
發遣	-10.619
本司	-10.6191
乃可	-10.6194
何處	-10.6196
皇老	-10.62
河海	-10.6206
統御	-10.6211
災害	-10.6213
憂苦	-10.6218
令得	-10.6218
不遺	-10.6221
不言	-10.6225
並乞	-10.6227
通達	-10.6229
削罪	-10.6233
相見	-10.6234
妙音	-10.6238
仙籍	-10.6242
銖	-10.6248
不息	-10.6249
問曰	-10.6258
聖境	-10.6258
百邪	-10.6264
得道之後昇入無形	-10.6266
宗親	-10.627
今古	-10.6274
楓	-10.6275
賢者	-10.6278
丞	-10.6279
泠	-10.628
故得	-10.628
咨	-10.6281
樵	-10.6281
葺	-10.6281
擢	-10.6283
元始天尊太上道君太上老君	-10.6283
飢渴	-10.6284
畿	-10.6284
緘	-10.6286
搜	-10.6288
西山	-10.6288
囿	-10.6288
幼	-10.6289
豪	-10.6289
籟	-10.629
兎	-10.6291
孛	-10.6293
飴	-10.6293
廟貌	-10.6294
踏	-10.6296
馘	-10.6297
劎	-10.63
中央黄	-10.63
堅固	-10.6302
羅絡	-10.6306
肩	-10.6313
上界	-10.6314
滯爽	-10.6316
落落	-10.6324
破穢	-10.6332
寅卯	-10.6334
矣若	-10.6335
過咎	-10.6336
萬衆	-10.6336
千愆	-10.6347
小鬼	-10.6347
長史	-10.6353
受其	-10.6355
子時	-10.6355
呼召	-10.6362
泰定	-10.6367
九尺	-10.6369
應時	-10.6371
紫闕	-10.6373
之官	-10.6377
大獻	-10.638
景星	-10.6387
投龍	-10.6392
是用	-10.6393
之所自然生金液丹碧	-10.6393
據齋意	-10.6401
玉律	-10.6407
大羅天	-10.6409
所作	-10.641
法籙	-10.6413
無異	-10.6418
真炁	-10.6419
事意	-10.6424
凝妙	-10.6431
九獄	-10.6435
法音	-10.6436
洞真	-10.6436
削除	-10.6437
洞虚	-10.6437
混成	-10.6441
始生	-10.6441
奉師	-10.6444
眞實	-10.6445
侍從	-10.6446
爻	-10.6447
以是義故	-10.6449
翫	-10.645
五億	-10.6452
忱恂	-10.6452
須臾	-10.6454
妬	-10.6455
嫉妬	-10.6456
慘	-10.6458
嗚	-10.6458
九鳳	-10.646
拾	-10.6462
捷	-10.6464
該	-10.6464
里域眞官	-10.6464
東嶽泰山	-10.6465
歟	-10.6466
馥	-10.6468
厲	-10.6468
重玄	-10.647
壬辰	-10.647
翊衛	-10.647
九炁天君	-10.6471
討	-10.6473
呈祥	-10.6473
流金火鈴	-10.6475
膀胱	-10.6476
三部八景	-10.6478
衆靈	-10.6481
陸離	-10.6482
寳香	-10.6485
庶俾	-10.649
臭穢	-10.6501
具官	-10.6501
作善	-10.6505
仰瞻	-10.6509
昭明	-10.6512
洪慈	-10.6513
紫氣	-10.6518
座前	-10.6528
傾心	-10.6529
司録	-10.653
群仙	-10.6534
無外	-10.6536
傳云	-10.6539
多違	-10.654
祥雲	-10.6541
爲衆生	-10.6543
大戒	-10.6545
護身	-10.6552
天柱	-10.6553
佐命	-10.6555
𡨚對	-10.6569
右出	-10.658
存神燒香香官使者左右	-10.6583
一首	-10.6586
倦	-10.6586
不能自	-10.6593
等身中令	-10.6595
降臨	-10.6601
傳經	-10.6604
洗心	-10.6608
日清旦	-10.6609
積功	-10.6613
流傳	-10.6614
三兩	-10.6615
少隂	-10.6616
壬午	-10.6623
瞋	-10.6623
神儀	-10.6625
暦	-10.6625
裝	-10.6627
稔	-10.663
德得道之後保天長存和與道合眞	-10.663
潰	-10.6631
五逆	-10.6632
經籍度師	-10.6632
二捻上香願此香煙騰空	-10.6632
璃	-10.6633
緲入大乗因心立福田靡	-10.6634
慚	-10.6634
皷	-10.6634
挽	-10.6634
除巳具奏諸天上帝申牒三界真司外	-10.6635
達神氣和合靈官衛護	-10.6636
鹽	-10.6636
綂	-10.6636
三啓三禮重稱法位具位	-10.6637
巫	-10.6637
見有國王	-10.6638
矢	-10.6639
浸	-10.6639
太一救苦天尊至心朝禮	-10.6639
偷盜	-10.6639
稻	-10.664
稟	-10.664
街	-10.6642
淑	-10.6642
旋遶	-10.6643
竿	-10.6643
韶	-10.6644
往生神仙界	-10.6644
靜黙堂	-10.6647
齋官上香	-10.6647
㓕	-10.6647
治病功曹	-10.6652
都講舉	-10.6652
無垠	-10.6657
經籙	-10.6664
法官	-10.6666
青絲	-10.6667
已上	-10.6667
未嘗	-10.667
乞恩	-10.6672
三省	-10.6673
直日	-10.668
端坐	-10.6681
家有	-10.6683
來詣	-10.6686
丹陽	-10.6687
曰汝	-10.6691
仍乞	-10.6699
衆魂	-10.67
說是	-10.6712
今年	-10.6714
變爲	-10.672
宣示	-10.6723
亦當	-10.6729
招眞	-10.673
室内	-10.6745
三遍	-10.6746
神變	-10.6748
圓明	-10.6754
照燭	-10.6758
舉家	-10.6769
發心	-10.6777
取其	-10.6777
未悟	-10.6778
二十九	-10.678
瞋怒	-10.6782
表具位	-10.6789
雲輿	-10.679
獅	-10.6791
疫毒	-10.6792
十善	-10.6794
必先	-10.6795
求乞	-10.6796
五分	-10.68
溟泠	-10.6805
澆	-10.6805
偉	-10.6806
四指	-10.6807
讎	-10.6807
亡過某靈䰟	-10.6808
寮	-10.6808
段	-10.6809
籲	-10.6809
馳騁	-10.6809
𣈆	-10.6811
獄五苦解悉歸太上經靜念稽首禮三禮	-10.6814
針	-10.6814
鬢	-10.6814
名山洞府	-10.6815
坑	-10.6815
雌雄	-10.6815
如是等	-10.6815
下情無任	-10.6815
吾當	-10.6815
廼	-10.6816
償	-10.6816
讃歎	-10.6817
七宿星君	-10.6817
優	-10.6818
甫	-10.6819
注訟	-10.682
㳙	-10.682
填	-10.6824
上清天樞院	-10.6826
攪	-10.6826
願得長生	-10.6827
㓗	-10.6827
朱砂	-10.6827
清泠	-10.6828
崐崘	-10.6831
轉法輪	-10.6833
吊	-10.6834
輕泄	-10.6834
髻	-10.6836
違律	-10.6837
之訟	-10.6837
梵唱	-10.6839
蠲除	-10.684
冥曹	-10.6847
神室	-10.6848
鬼門	-10.6849
火星	-10.685
十方天尊	-10.6854
昔有	-10.6855
小劫	-10.6855
丁巳	-10.6863
雲氣	-10.6863
圓滿	-10.6866
三十五	-10.6869
符命告下	-10.6872
民欲	-10.6872
攝炁	-10.6873
九泉	-10.6873
某郷貫	-10.6874
水陸	-10.6874
救濟	-10.6878
進退	-10.6878
咸通	-10.6878
北炁	-10.6881
隂翳	-10.6883
玉皇上帝御前	-10.6884
宫府	-10.6886
請師	-10.6901
太歲	-10.6902
丁亥	-10.6904
關功曹	-10.6911
南山	-10.6913
當須	-10.6913
宫内	-10.6915
啓運	-10.6917
先據	-10.692
臨目	-10.6923
威力	-10.6925
落景	-10.6925
或云	-10.6932
姻	-10.6933
無憂	-10.6934
玉府	-10.6934
明燈	-10.6937
修持	-10.6937
人倫	-10.6938
髙歩	-10.6939
玄圖	-10.694
大千	-10.6947
等皈身皈神皈命首體投地仰依太上三	-10.6954
福善	-10.696
八百	-10.6969
天災	-10.697
諦	-10.697
取炁	-10.6972
放生	-10.6974
酆都山	-10.6977
不知其	-10.6985
突	-10.6989
死䰟	-10.6989
蹕	-10.699
后土	-10.699
善哉善哉	-10.6991
鴻濛	-10.6992
彦	-10.6992
瀛	-10.6994
醮詞伏以	-10.6995
董	-10.6996
槖籥	-10.6996
輟	-10.6997
雀	-10.6997
熈熈	-10.6997
儔	-10.6998
儀璘	-10.6998
形像	-10.6998
受化更生	-10.6999
樊	-10.7
遮	-10.7
彤	-10.7
陁	-10.7
峙	-10.7001
牢獄	-10.7002
瀾	-10.7002
脇	-10.7004
與之	-10.7004
干冐	-10.7005
康泰	-10.7006
跨	-10.7008
和不可思議功德	-10.7008
桃康	-10.701
拭	-10.7013
下界	-10.7013
福祥	-10.7014
康寧	-10.7015
刼	-10.7015
綬	-10.7016
思念無量普得	-10.7017
救拔	-10.7018
煙霞	-10.7021
主水	-10.7022
仗劒	-10.7022
傷亡符	-10.7023
圓光	-10.7024
蛟龍	-10.7024
乃是	-10.7028
乞賜	-10.7029
神輝	-10.703
湛然	-10.7031
玉笈	-10.7032
洞清	-10.7036
安寜	-10.7038
愛河	-10.7039
無色界	-10.7041
如斯	-10.7043
无窮	-10.7053
引領	-10.7068
先師	-10.7077
流恩	-10.7077
三徧	-10.7089
皓靈	-10.7091
三部	-10.7095
地網	-10.7101
太極左	-10.7101
六氣	-10.7104
求道	-10.7113
科儀	-10.7118
六幕	-10.7119
修崇	-10.7121
召神	-10.7127
玉女五帝直符直日香官各三十六人出	-10.7134
又復	-10.7141
三辰	-10.7142
表白	-10.7154
者即是	-10.7155
宣德	-10.7157
旄	-10.717
不可以	-10.7172
謐	-10.7173
麻	-10.7174
邪鬼	-10.7174
酷	-10.7175
土地里域眞官正神急上關啓	-10.7176
三界應感一切眞靈	-10.7176
釘	-10.7176
陷	-10.7176
涕	-10.7176
學道得道求仙得仙	-10.7176
百寳	-10.7177
旂	-10.7177
人各恭敬	-10.7178
茫	-10.7178
析	-10.7179
昬	-10.7179
三啓頌	-10.7179
𣗳	-10.7179
丁酉	-10.718
燄	-10.718
等志心稽首禮三十六部尊經	-10.718
數日	-10.7182
塑	-10.7182
莽	-10.7182
焚香供養	-10.7183
终	-10.7184
拊	-10.7184
本命元辰	-10.7184
洗滌	-10.7185
斿	-10.7185
太歲年月日具位姓某狀申申	-10.7187
邦家	-10.7188
牘	-10.7188
皇極	-10.7188
六十甲子	-10.7188
白天尊言	-10.7189
誓願	-10.7191
幽寥	-10.7193
霑恩	-10.7196
右手執	-10.7198
玄宗	-10.7201
閉塞	-10.7204
得此報	-10.7205
聖祖	-10.7206
向東	-10.721
愼勿	-10.7214
羣品	-10.7216
八荒	-10.7217
齋主家	-10.7223
君臨	-10.7228
年月日時	-10.7228
周旋	-10.7234
不拘	-10.7236
調理	-10.7243
一家	-10.7244
吾遣	-10.7245
丁未	-10.7247
部領	-10.7247
各禮師存念如法衞靈	-10.7249
師友	-10.7251
設拜	-10.7251
宫觀	-10.7252
侍燈	-10.7252
在後	-10.7254
敷陳	-10.7263
召靈	-10.7265
宣表	-10.7268
祇	-10.7277
忽然	-10.7282
名號	-10.7285
玄元之	-10.7294
皆從	-10.7302
入靖	-10.731
土地里域眞官	-10.7312
文武	-10.732
門户	-10.7324
北鬱	-10.7325
列宿	-10.7327
天衢	-10.7327
立春	-10.7335
學上道	-10.7343
七尺	-10.7344
凶惡	-10.7346
話	-10.7349
虐	-10.7358
九幽拔罪天尊	-10.7364
劣	-10.7365
炷	-10.7365
㐲	-10.7365
翰	-10.7366
𣗥	-10.7367
其餘	-10.7367
斜	-10.7367
玲瓏	-10.7367
岫	-10.7368
霏	-10.7368
戹	-10.7369
鈎	-10.7371
冊	-10.7371
乞丐	-10.7372
茭	-10.7372
蟾	-10.7373
坦	-10.7373
凉	-10.7374
朱陵度命天尊	-10.7374
縮	-10.7374
誨	-10.7375
織	-10.7375
祭祀	-10.7377
囂	-10.7378
魁罡	-10.738
成功	-10.738
黄籙院	-10.7381
足躡	-10.7381
破壞	-10.7384
挑	-10.7385
恩惟太上	-10.7386
眞遂成金剛體超度三界難地	-10.7386
長短	-10.739
常居	-10.7391
玄都玉京	-10.7394
錬神	-10.7394
九曜	-10.7394
同仁	-10.7395
坎離	-10.7406
停輪	-10.7407
公卿	-10.741
覆護	-10.7418
鎭星	-10.7422
賢人	-10.7427
戊巳	-10.7427
披心	-10.7431
騰空	-10.7449
淨水	-10.7449
朗照	-10.7452
鬱鬱家國盛濟濟經道興天人同其願縹	-10.7454
周迴	-10.7454
形骸	-10.7457
宿世	-10.7457
典者	-10.7458
永固	-10.746
罪愆	-10.7467
玉篆	-10.7469
狀如	-10.7472
宣演	-10.7472
肯	-10.7491
合德	-10.7494
開幽	-10.75
内景	-10.7504
太守	-10.7515
根源	-10.752
百體	-10.7522
苦趣	-10.7529
存神燒香	-10.7533
衞靈呪	-10.7538
左足	-10.7541
莖	-10.7546
徨	-10.7551
翼翼	-10.7551
拳	-10.7552
蔣	-10.7553
𡖖	-10.7554
劇	-10.7554
墻	-10.7554
黄老	-10.7555
六尺	-10.7557
丁丑	-10.7558
太歳年月日具位姓某狀申申	-10.7558
傳奏	-10.7558
買	-10.7559
駢	-10.7559
篝	-10.7559
弦	-10.7559
燒香然燈	-10.7561
飛仙眞人名山洞府得道神仙諸靈官	-10.7561
志心稽首禮玄中大法師重稱法位具位	-10.7561
僣	-10.7561
疰	-10.7562
伍	-10.7562
溷	-10.7563
南極長生大帝	-10.7565
九天生神上帝	-10.7565
唾	-10.7566
兔	-10.7566
歷關諸天	-10.7566
蘿	-10.7568
渾	-10.7568
薪	-10.7568
諾	-10.7568
香案	-10.757
衆等至心歸命	-10.7571
髙上神霄玉清眞王	-10.7571
褒	-10.7572
千載	-10.7572
斬邪	-10.7574
驛吏	-10.7574
本𣲖	-10.7574
黑帝	-10.7579
儀卷一百	-10.7583
隂功	-10.7586
九微	-10.7587
靜黙	-10.7587
俯鑒	-10.7587
方无極世界一切	-10.7591
丹忱	-10.7591
掃蕩	-10.7593
千齡	-10.7594
亡故某乙	-10.7595
九戒	-10.7596
初獻	-10.7606
慈仁	-10.7616
永度	-10.7616
救治	-10.7619
玊清	-10.7619
上古	-10.7623
謹依	-10.7627
雲霞	-10.7629
朱火	-10.7637
束形	-10.7642
案上	-10.7659
空寂	-10.7659
面目	-10.7663
奉迎	-10.7665
七轉	-10.7667
騰景	-10.7668
之所自然生金液丹碧芝英百靈衆	-10.7671
蒼生	-10.7685
玉樹	-10.7687
遂成	-10.7695
請聖	-10.77
純陽	-10.7707
太歲年月日	-10.7708
同誠上啓	-10.7711
安宅	-10.7716
延命	-10.7721
歳星	-10.7735
所冀	-10.7735
聖賢	-10.7738
九鳯	-10.7743
靈根	-10.7747
亡親某乙	-10.7748
庇	-10.775
升入無形和與道合眞	-10.775
癩	-10.775
七情	-10.7752
槐	-10.7754
窟	-10.7754
襄	-10.7755
遨	-10.7756
魍魎	-10.7757
應干合屬去處	-10.7758
腐	-10.7759
賫	-10.7759
見在使陵廟墳基肅寧殃注斷絶宫宅安	-10.776
擔	-10.776
璨	-10.7761
粗	-10.7761
濳	-10.7762
虎豹	-10.7762
修善	-10.7763
下情	-10.7764
逍遥快樂天尊	-10.7764
上生天堂	-10.7765
亦得飛仙	-10.7767
峩峩	-10.7768
次都講唱	-10.7769
救人	-10.7769
狄	-10.7772
至心稽首禮三十六部尊經	-10.7772
喝	-10.7774
某誠惶誠恐稽首頓首再拜上言	-10.7774
破暗	-10.7781
豫章	-10.7783
臣身中	-10.7784
諦受	-10.7786
髙座	-10.779
妙齋	-10.7792
度品	-10.7793
丈人三十二天帝君玉虚上帝玉帝大	-10.7794
昇遷	-10.7796
業垢	-10.7797
延康	-10.7798
向北	-10.7799
也人之	-10.7802
炁聚	-10.7806
吾奉	-10.7807
萬品	-10.781
春臺	-10.781
鍊質	-10.7812
澤被	-10.7814
各禮師存念如法	-10.7816
神識	-10.7817
宗祖	-10.7819
天界	-10.7821
无上道	-10.7826
正齋	-10.7828
第一日	-10.7834
錢財	-10.7841
土星	-10.7844
福報	-10.7847
攝魂	-10.7848
死後	-10.7851
呈章	-10.7855
胎息	-10.7859
眞慈	-10.7868
太无	-10.787
等身中三五功曹左右官使者侍香	-10.7876
洞源	-10.7877
玉檢	-10.7884
燒香行道	-10.7886
流霞	-10.7887
丹霄	-10.7892
衆經	-10.7902
證果	-10.7909
香林	-10.7914
南炁	-10.7918
眞之德得道之後升入無形和與道合眞	-10.792
池中	-10.7921
央	-10.7924
稱善	-10.7928
下情不勝	-10.793
不瘥	-10.7931
符右符	-10.7932
奏啓	-10.7933
清醮	-10.7937
度人上品妙經	-10.7941
菜	-10.7947
七月七日	-10.7949
滴	-10.795
志心歸命	-10.7951
儻	-10.7952
汨	-10.7954
宦	-10.7954
悶	-10.7955
渠	-10.7955
忿	-10.7956
眞境	-10.7956
啖	-10.7958
天玉闕宣化扶敎上仙昭靈博濟髙明弘	-10.7959
袖	-10.7959
䧟	-10.7959
閬	-10.796
摶	-10.796
顛	-10.796
叩齒三十六通	-10.796
薫	-10.796
氤氲	-10.7961
稷	-10.7961
告下具位姓某承誥奉行謹封	-10.7961
褁	-10.7962
恭望聖慈允兹申請	-10.7962
普救	-10.7962
裹	-10.7962
貧賤	-10.7963
丙午	-10.7963
登齋	-10.7963
解脱	-10.7964
自滅	-10.7964
吁	-10.7964
鉛汞	-10.7965
歇	-10.7965
竇	-10.7966
璫	-10.7967
功圓	-10.7967
妖氛	-10.7969
覧	-10.797
三十二天上帝	-10.797
解散	-10.7971
丞相	-10.7972
牛馬	-10.7973
啄	-10.7973
灑淨	-10.7975
乗龍	-10.7983
齋福	-10.7984
妖精	-10.7984
唯有	-10.7992
幽途	-10.7992
七竅	-10.7995
得道者	-10.8007
罔知	-10.8007
十方世界	-10.8012
錦帔	-10.8013
九醜	-10.8017
香湯	-10.8018
頭破	-10.8019
百千	-10.8025
宣䟽	-10.803
億千	-10.8031
光輝	-10.8039
臨壇	-10.804
解𡨚	-10.8059
手持	-10.8068
南方赤	-10.8069
下丹田	-10.8069
欲求	-10.8071
罪結	-10.8071
建齋行道	-10.8074
還丹	-10.8075
齋堂	-10.8075
六十四	-10.8083
帝澤	-10.809
昭彰	-10.8092
臣等皈身皈神皈命首體投地仰依太	-10.8095
二象	-10.8101
自稱	-10.8106
去離	-10.8116
恭依	-10.8117
龍駕	-10.8119
汝今	-10.8131
孝子	-10.8138
百萬	-10.814
諮	-10.815
享福	-10.8152
啓告	-10.8152
罪䰟	-10.8153
迨	-10.8154
九眞妙戒	-10.8154
朕	-10.8156
軒轅	-10.8157
出家法身	-10.8157
鷺	-10.8158
縷	-10.8158
天樞院	-10.8158
寐	-10.8158
九拜	-10.8159
勤渠	-10.8159
司命六神	-10.8159
靜冲湛妙應仁惠輔國佑民洪恩眞君	-10.816
數千	-10.816
屠	-10.8161
燥	-10.8161
蕃釐	-10.8163
軰	-10.8163
厠	-10.8164
粘	-10.8164
隊	-10.8164
岑	-10.8165
来	-10.8166
薛	-10.8166
醮詞伏聞	-10.8166
晃	-10.8167
簫	-10.8168
黄華蕩形	-10.8169
啼	-10.8169
刄	-10.817
函上詣	-10.8171
影響	-10.8172
三炁天君	-10.8177
娑	-10.818
醴泉	-10.8181
雞鳴	-10.8183
舊典	-10.8186
變錬	-10.8187
頽	-10.819
德得道之後保天長存	-10.8195
掐中指	-10.8199
玉堂	-10.82
耀彩	-10.8203
元父	-10.8204
壬子	-10.8204
三十日	-10.8206
寫經	-10.8206
知磬	-10.8209
師曰此	-10.8219
清濁	-10.822
洪州	-10.8227
罪目	-10.8229
大腸	-10.8232
謹言年月日具位	-10.8232
不倦	-10.8232
三農	-10.8237
稱慶	-10.8239
太虛	-10.8245
書篆	-10.8251
火候	-10.8252
守護	-10.8257
士庶	-10.826
一切神靈	-10.8265
垂象	-10.8273
相對	-10.8274
元綱	-10.8274
行道之所自然生金液丹碧芝英百靈衆	-10.8283
道境	-10.8285
承恩	-10.8289
宫室	-10.829
萬邪	-10.8291
卿司命茅君定録保命二眞人名	-10.8292
火府	-10.8303
飡	-10.8307
解悟	-10.8308
不恕	-10.831
落死	-10.8329
始終	-10.8329
啓奏	-10.8338
妹	-10.835
眞人寗全眞授靈寳通玄弘教水南	-10.8352
十尺	-10.8354
無量劫來	-10.8361
訛	-10.8362
掖	-10.8364
莅	-10.8364
牝	-10.8364
蜜	-10.8364
狹	-10.8365
梨	-10.8365
應時下降	-10.8365
鋉	-10.8365
奈何	-10.8366
俞	-10.8366
眇眇	-10.8367
囘	-10.8367
山福地主仙録君	-10.8367
白日昇天	-10.8368
轅	-10.8369
擕	-10.837
栁	-10.837
貸	-10.837
生天寳籙	-10.837
飭	-10.8371
受此經	-10.8372
懐	-10.8372
梧	-10.8374
籥	-10.8375
考掠	-10.8375
落滅惡根	-10.8375
稽首歸依	-10.8376
梵炁彌羅	-10.8377
海嶽	-10.8377
一合來下	-10.8377
萬八千	-10.8377
貯	-10.8377
飊	-10.8378
噴	-10.8379
端拱	-10.8381
肚	-10.8381
堆	-10.8383
圍繞	-10.8385
廻骸起死	-10.8386
曹仙官下元	-10.8386
九江水帝	-10.8386
瘧	-10.8387
幷	-10.8387
菩	-10.8387
告下具法位	-10.8388
寒池	-10.8389
香油	-10.8393
失其	-10.8395
讃揚	-10.8396
祭錬	-10.8396
明霞	-10.8396
營衞	-10.8396
五帝直符	-10.8399
率土	-10.84
辟邪	-10.8403
地獄之中	-10.8406
浩浩	-10.8407
㝠曹	-10.8407
望恩	-10.8408
求哀	-10.8409
景貺	-10.8413
里社	-10.8414
住宅	-10.8415
爾時天尊	-10.8415
申酉	-10.8416
得免	-10.8419
水簡	-10.8421
龍璧	-10.8427
二十四獄	-10.8432
投詞	-10.8432
七寸	-10.8435
敷露	-10.8437
臣某與臨壇官衆等謹同誠上啓	-10.8441
雖復	-10.8442
民情	-10.8444
小吏	-10.8448
統攝	-10.8459
七遍	-10.8469
靈驗	-10.8475
秋分	-10.8478
青城	-10.8483
水錬	-10.849
不墮	-10.8496
奏對	-10.8496
馨	-10.8501
黄房	-10.8506
北極紫微大帝	-10.8513
紫蓋	-10.8516
治職	-10.8524
少年	-10.8527
之謂也	-10.8527
燒香散花	-10.8529
炁入符	-10.8531
奉爲某	-10.8538
官僚	-10.8548
无極世界	-10.8549
承流	-10.8551
衞靈	-10.8555
是敢	-10.8565
裘	-10.8571
拳拳	-10.8575
翩翻	-10.8578
以今奉爲某	-10.8579
禆	-10.8579
東方青帝	-10.858
㣲	-10.858
痢	-10.858
蒲	-10.858
鋤	-10.858
鴛	-10.8581
謌	-10.8581
恩愛	-10.8581
今謹有黄籙大齋主某	-10.8582
誠惶誠恐	-10.8583
泊	-10.8583
某身原赦宿新無量罪咎矜奬即今	-10.8583
瑟	-10.8583
昏衢	-10.8585
湛露	-10.8585
閤	-10.8585
俠	-10.8586
逈	-10.8587
較	-10.8588
瀉	-10.8588
惡縁	-10.8589
蒨	-10.8589
筆書	-10.859
𧵥	-10.859
蔡	-10.859
金籙簡文	-10.8591
轝	-10.8591
旋繞	-10.8591
无上黄籙大齋立成儀卷之	-10.8592
以爲效信	-10.8593
叩齒十二通	-10.8593
戊己	-10.8593
滄	-10.8594
徊	-10.8594
弼星	-10.8595
璣	-10.8596
重稱法位具位	-10.8597
貞吉	-10.8599
枷	-10.8599
振響	-10.8599
幽牢	-10.8603
收捕	-10.8603
瀑	-10.8606
懇切	-10.8606
特賜	-10.861
斛食	-10.8614
御史	-10.8616
文獻	-10.8616
廣濟	-10.8618
无上三天玄元始三炁太上道君召出臣	-10.8621
火翳	-10.8625
三十六部	-10.8632
南陵	-10.8632
潤澤	-10.8632
丈餘	-10.8636
凶災	-10.8638
善根	-10.8638
五緯	-10.864
九天上帝	-10.8646
再念	-10.8651
袋	-10.8652
香爐	-10.8654
天綱	-10.8659
除去	-10.8662
一合下	-10.8663
旦夕	-10.8666
分燈	-10.8667
奏申	-10.8671
龍車	-10.8676
金樓	-10.8678
玉晨君	-10.868
存焉	-10.8682
自覺	-10.8684
急急如律令次	-10.8685
虛無	-10.869
終始	-10.8695
貴賤	-10.8699
俯降	-10.8699
即便	-10.87
敷奏	-10.8702
清寧	-10.8711
數年	-10.8711
土簡	-10.8737
罪籍	-10.8737
朱衣	-10.8742
主吏	-10.875
億萬人	-10.8755
某不勝	-10.8769
七十四	-10.8769
金甲	-10.8777
方域	-10.8778
死户	-10.8778
聲聞	-10.8779
靈臺	-10.878
言訖	-10.878
誠惶誠恐稽首頓首再拜	-10.8789
南方赤帝	-10.879
旒	-10.8792
綍	-10.8793
君一人官將百二十人上請	-10.8794
百姓子男女人	-10.8794
喧	-10.8796
頴	-10.8796
汎	-10.8796
陪	-10.8797
偕	-10.8797
紛葩	-10.8798
蟠	-10.8798
咫尺	-10.8798
三河四海	-10.8798
萬病	-10.8799
螭	-10.8799
日積月累	-10.88
九厄	-10.8801
掣	-10.8801
未敢擅便須至申聞者右謹具狀上申	-10.8802
範圍	-10.8802
疲	-10.8803
蠢	-10.8804
讀經	-10.8804
内視	-10.8804
詮	-10.8804
淚	-10.8804
憇	-10.8806
各二十四人出	-10.8807
迷途	-10.8808
䇿杖	-10.8809
千乗萬騎	-10.881
天台山	-10.8813
玉眸	-10.8814
金鈕	-10.8814
冶錬	-10.8815
蓊	-10.8815
懈	-10.8816
扣齒	-10.8817
青玄老君	-10.8819
鶴鳴	-10.882
萬二千	-10.8825
九幽長夜	-10.8827
唯願	-10.8835
放蕩	-10.8835
驅邪院	-10.8835
神仙傳	-10.8836
飛玄之	-10.8838
方圓	-10.8838
戊辰	-10.8838
拱極	-10.8847
升遷	-10.8848
世網	-10.8851
洞微	-10.8856
帝力	-10.8857
妙果	-10.8859
普召	-10.886
天寳君	-10.8861
災危	-10.8865
宰輔	-10.8868
惡趣	-10.8872
无英	-10.8883
芝壇	-10.8893
謹詞	-10.8894
逺離	-10.8895
品格	-10.8898
應干	-10.8905
附告	-10.8918
災咎	-10.8919
兩足	-10.8923
綱常	-10.8924
萬變	-10.8928
毎日	-10.893
長壽	-10.8937
西方白帝	-10.8944
志心信禮	-10.8945
垂鑒映	-10.8945
明了	-10.8949
玉池	-10.8956
元吉	-10.8959
尊像	-10.896
北海	-10.8966
醫治	-10.8983
九州社令	-10.8985
下三界十方	-10.8992
北方无極太上靈寳天尊	-10.8998
靜室	-10.9003
絞	-10.9007
霽	-10.9009
鏘	-10.9011
𣲖	-10.9014
猿	-10.9014
聰	-10.9016
以是因縁	-10.9017
邵	-10.9018
蒂	-10.9018
雕	-10.9019
干冒	-10.9019
棟	-10.902
總眞王君太乙眞人東嶽上	-10.902
竄	-10.9021
監眞度生	-10.9021
范	-10.9022
等志心稽首禮太上无極大道	-10.9022
儉	-10.9023
三日三夜	-10.9024
敕命	-10.9024
北魁玄範府	-10.9024
衆災度脫壽命延長	-10.9024
鏤	-10.9024
偷	-10.9024
芥	-10.9025
帯	-10.9026
稽首皈依䖍誠讃詠	-10.9026
缸	-10.9027
得道之後升入無形	-10.9028
燼	-10.9028
七炁天君	-10.9028
芙蓉	-10.9028
上奏靈官	-10.9028
翺翔	-10.9028
形神俱妙	-10.9029
凍	-10.903
躁	-10.9031
元陽上品	-10.9031
笏	-10.9031
匹	-10.9033
僊	-10.9033
混合百神	-10.9033
澹	-10.9034
四直功曹	-10.9035
擁護	-10.9036
卯酉	-10.9036
黒書	-10.9036
驛馬	-10.9037
鬱鬱	-10.9038
聚魂	-10.9039
欎	-10.9039
鳯篆	-10.9042
含識	-10.9053
春秋	-10.9055
玉冠衣	-10.9056
急速	-10.9059
頓首	-10.906
若有衆生	-10.9066
安全	-10.9069
无邊	-10.9069
弘慈	-10.907
辟除	-10.9078
旌陽	-10.908
不可勝	-10.9083
齊并	-10.9087
周廻	-10.9094
主簿	-10.9096
黙朝	-10.9098
謂之曰	-10.9099
偈頌	-10.9108
引進	-10.9109
疫癘	-10.9132
无上至眞	-10.9137
經營	-10.9163
又恐	-10.9172
至眞大聖	-10.9178
具位臣姓某	-10.9187
以昭宸貺干冒	-10.9194
侍香金童傳言玉女五帝直符直日香官	-10.9196
道岸	-10.92
隱居	-10.9211
涯	-10.9223
南方无極太上靈寳天尊	-10.9226
形影	-10.9227
娥	-10.9229
左目	-10.9234
匱	-10.9235
霓	-10.9241
七部	-10.9242
𠃔	-10.9242
汪	-10.9244
百六十	-10.9245
仭	-10.9246
絃	-10.9246
敬信	-10.9247
硤石	-10.9248
地道功曹	-10.9249
姚	-10.9249
諸大地獄	-10.9249
殆	-10.9249
敢不上聞	-10.925
羽葆	-10.925
杳杳	-10.925
怖畏	-10.925
系	-10.925
向來所啓之誠速達俓御	-10.9251
曁	-10.9252
痒	-10.9252
救療	-10.9253
一如靈寳玄壇律令	-10.9253
彌綸	-10.9254
八萬四千	-10.9254
奎	-10.9254
健	-10.9254
緊	-10.9255
亦如是	-10.9255
閶闔	-10.9255
泓	-10.9256
獅座	-10.9257
湘	-10.9257
謹言年月日具位臣姓某上表	-10.9258
溟泠大神	-10.9259
巴	-10.9259
囉	-10.9259
巳徃	-10.926
普掠	-10.9261
槌	-10.9262
過止	-10.9262
精勤	-10.9262
弧矢	-10.9266
德得道之後昇入無形	-10.9267
緩	-10.9267
曹局	-10.9267
寒熱	-10.9267
億兆任重嵩恒道慕堯舜旣纉承於大業	-10.9267
歷代	-10.9268
㡬	-10.9269
伺候	-10.9269
㐫	-10.927
不勝激切	-10.9271
侍郎	-10.9274
百榖	-10.9275
困苦	-10.9277
隂曹	-10.9278
不去者	-10.9282
曲垂	-10.9284
掃除	-10.9286
滯魄	-10.9289
曷遂	-10.9291
公侯	-10.9294
病苦	-10.9297
惠露	-10.9299
三十二字	-10.9303
毒害	-10.9318
任意	-10.9318
亡過	-10.9319
發露	-10.9328
休息	-10.9331
伏魔	-10.9331
八鸞	-10.9337
頒宣	-10.9339
符一道	-10.9341
猛火	-10.9343
太上无極大道虚无自然元始天尊	-10.9358
㝠關	-10.9363
靈妃	-10.9367
手把	-10.938
黃籙大齋	-10.9383
修鍊	-10.9385
北方黒帝	-10.9385
吿下	-10.9389
七徧	-10.9392
衆尊	-10.9392
交㑹	-10.941
子丑	-10.9411
科律	-10.9418
無虧	-10.9424
百節	-10.9426
冬至	-10.9439
服御	-10.9443
依式	-10.9451
業報	-10.9451
有赫	-10.9459
膠	-10.9466
兩儀	-10.9468
志心朝禮大慈大悲	-10.947
姊	-10.9472
恚	-10.9473
聆	-10.9476
逭	-10.9477
崑	-10.9477
凢	-10.9478
遐邇	-10.9478
軟	-10.9478
衆誦	-10.9479
犂	-10.9479
以今晚朝行道請法衆等運兹	-10.948
詵詵	-10.948
葱	-10.948
宣詞按如詞言	-10.948
當須讃歎	-10.9481
徤	-10.9481
監齋大法師	-10.9482
無鞅數衆	-10.9482
嬪	-10.9483
等謹同誠上啓	-10.9484
赤明開圖	-10.9486
璈	-10.9488
二十八宿星君	-10.9488
席二領	-10.9489
五靈玄老	-10.9489
纓	-10.9491
帖	-10.9491
耿	-10.9492
裴	-10.9492
轗	-10.9494
諸靈官伏聞	-10.9494
北極大帝	-10.9504
謹齎	-10.9509
營衛	-10.9509
春融	-10.9517
群魔	-10.952
處士	-10.9521
玄範	-10.9522
五千文	-10.9522
客塵	-10.9523
黄絹	-10.9527
或怒	-10.9531
五穀	-10.9532
升壇行道	-10.9539
造像	-10.954
上無無至眞無上無爲大道應感眞精第	-10.9542
王侯	-10.955
照徹	-10.9551
西方白	-10.9551
空碧	-10.9562
詞旨	-10.9565
廬山	-10.957
赤城	-10.9579
記云	-10.9584
雲篆	-10.9589
觀宇	-10.9595
智慧頌	-10.9595
玄貺	-10.9606
監壇	-10.9614
臨照	-10.9632
祝香	-10.9633
玉燭	-10.9634
沾恩	-10.9637
賛引	-10.9679
刑殺	-10.9686
潜通	-10.9686
謹封方函	-10.9691
志心奉請	-10.9703
术	-10.9706
鈕	-10.9707
太上老君太上丈人	-10.9708
喃	-10.9711
誣	-10.9712
𩥵	-10.9713
蘋蘩	-10.9715
億劫種親	-10.9715
侮	-10.9716
迴骸起死	-10.9717
笙	-10.9719
聊	-10.9721
巾笥	-10.9721
撥	-10.9721
毎省惕於眇躬道俗凌夷淳化難振隂翊	-10.9721
蒿	-10.9721
叚	-10.9721
庻	-10.9721
潘	-10.9722
浙	-10.9722
鐵杖	-10.9723
六甲六丁	-10.9724
寳光以爲	-10.9724
血尸	-10.9725
梵監須延天	-10.9725
昆	-10.9726
廽	-10.9727
紫微上宫	-10.9729
擅	-10.973
屋宇	-10.973
監生大神	-10.9733
杳㝠	-10.9733
譜	-10.9735
竺	-10.9737
握固	-10.9738
長一尺二寸	-10.9741
雲衢	-10.9743
蜃	-10.9744
勵志	-10.9744
寸二分	-10.9744
清浄	-10.9745
咸臻	-10.9764
引導	-10.9766
一尺二寸	-10.9766
希恩	-10.9766
宗廟	-10.9767
群品	-10.9768
互相	-10.9769
洪澤	-10.9772
蠕	-10.9775
姓某狀奏	-10.9777
難量	-10.9778
仰希	-10.9778
懴祈	-10.9778
願以是功德	-10.9782
畢竟	-10.9785
丹懇	-10.9785
九天金闕明道達德大仙顯靈	-10.9785
昭鑒	-10.9785
結習	-10.9788
四季	-10.9789
宮仙官	-10.979
未曽	-10.9801
輝輝	-10.9806
九族	-10.9809
萬類	-10.9813
追取	-10.9818
浴室	-10.9819
下項	-10.9821
關盟	-10.9822
功德牒	-10.9824
勤苦	-10.9826
百二十曹	-10.9827
洞映	-10.983
酉文	-10.9835
世俗	-10.9837
遍滿	-10.9842
音聲	-10.9855
七祖父母	-10.9859
頂門	-10.9895
噀	-10.9898
千餘	-10.991
丹陽符	-10.9914
行道請法衆等運兹	-10.9923
唵吽吒唎	-10.9925
瀝	-10.9932
臟	-10.9937
左手執	-10.9945
禳通用	-10.9948
今醮官某	-10.9949
作是念	-10.9951
韋	-10.9952
評論	-10.9956
歸身歸神歸命	-10.9957
三官九署	-10.9958
揆	-10.9958
誠惶誠恐稽首頓首伏念	-10.9958
追魂攝魄	-10.9959
暝	-10.9959
人志心敬禮大慈救苦真人志心敬禮大	-10.9959
靈寳五師眞君	-10.996
水府扶桑大帝	-10.9962
供飬	-10.9963
壅	-10.9963
𡨚親平等	-10.9963
鯨	-10.9963
之至謹稽首再拜	-10.9963
黍珠	-10.9964
具位臣姓某謹據	-10.9964
枯朽	-10.9964
同登福境	-10.9965
團	-10.9965
暘	-10.9965
寰區	-10.9965
閃	-10.9965
詰	-10.9966
曹僚	-10.9966
洋洋	-10.9967
戯	-10.9967
巵	-10.9967
稽首皈依無極大道	-10.9968
𢘆	-10.9968
北極驅邪院	-10.9968
模	-10.997
朔單	-10.997
恭望聖慈允茲申請	-10.997
⬤	-10.997
柯	-10.9971
沃	-10.9971
青靈始老	-10.9971
女青詔書	-10.9972
岐	-10.9972
眞人信禮	-10.9972
熒煌	-10.9973
夣	-10.9974
霽月	-10.9974
諶姆	-10.9975
神寳君	-10.9975
太尉	-10.9975
億兆	-10.9975
曇	-10.9977
見有男女	-10.9977
咽喉	-10.998
席一領	-10.998
昻	-10.9981
腰帶	-10.9982
十一曜	-10.9984
媾	-10.9985
長七寸	-10.999
濟濟	-10.9993
榮衞	-10.9999
五臘	-11.0002
離坎	-11.0008
某日夜	-11.0016
炎帝	-11.0035
來赴	-11.0039
神呪經	-11.0041
加臨	-11.0045
玄中大法師三天大法師	-11.0048
治仙官	-11.005
八遐	-11.0052
與臨壇官衆等謹重誠上啓	-11.0054
前件	-11.0055
貪欲	-11.0062
終劫	-11.0068
立夏	-11.0069
卿雲	-11.0085
冥關	-11.0085
青玄上帝	-11.0093
天尊志心敬禮太一救苦天尊志心敬禮	-11.0096
遐長	-11.0097
歩虛	-11.0114
午後	-11.0122
少女	-11.0124
北方無極太上靈寳天尊	-11.0131
頃刻	-11.0137
臣等皈身皈神皈命	-11.0145
行道願得玉清道炁靈寳妙光下降流入	-11.0152
祖宗	-11.0166
禹歩	-11.0178
靖廬仙官	-11.0183
奉爲齋主某	-11.0184
真人志心敬禮	-11.0193
囑	-11.0199
惻	-11.0206
伽	-11.0208
覔	-11.0209
三魂七魄	-11.0211
斂	-11.0211
恭望洪慈	-11.0213
藪	-11.0213
蘂笈	-11.0213
萬變混沌玄元老君	-11.0214
𠂻	-11.0214
奉爲齋主某仰謝	-11.0214
轉輪聖王天尊	-11.0215
太妙至極	-11.0215
純嘏	-11.0216
孝悌	-11.0216
无上黃籙大齋立成儀卷之	-11.0216
禽獸	-11.0217
今將聖德	-11.0217
凡夫衆生	-11.0217
藝	-11.0217
君一人官將百二十人	-11.0218
鈔	-11.0218
東西南北	-11.0218
上元金籙簡文眞仙品曰然燈威儀	-11.0219
司命司録	-11.0221
流火之庭	-11.0221
解𡨚釋結	-11.0221
杏	-11.0222
守一之元	-11.0224
涉	-11.0224
璞	-11.0226
飽滿	-11.0226
疼	-11.0227
幣	-11.0227
九垓	-11.0227
度爲弟子某	-11.0227
澄湛	-11.0228
告文太上符命告下	-11.023
萬億	-11.0231
僉	-11.0231
叉	-11.0233
院宇	-11.0233
寄籍	-11.0235
修齋直	-11.024
與道合眞鳴法鼓二十四通發爐	-11.024
元始天王	-11.024
炎炎	-11.0241
飛天使者	-11.0242
十餘年	-11.0244
焚香上啓	-11.0246
綱紀	-11.0246
拯濟	-11.0246
承顔	-11.0248
百脉	-11.0248
直日香官	-11.0254
嶽府	-11.0255
蓮華	-11.0256
清旦行道	-11.0258
官將百二十人	-11.0266
清旦	-11.0268
無上三天	-11.0269
延洪	-11.0271
深慮	-11.0273
濟拔	-11.0281
年齡	-11.0281
覺海	-11.0282
溥濟清微洞玄冲虚妙感慈惠	-11.0284
五色雲	-11.0289
䖍恭	-11.029
立冬	-11.0297
沖和	-11.0308
幽沉	-11.0311
願以是功德歸流	-11.0312
月日時生行年若干歳伏念某	-11.0348
雲錦	-11.0359
上帝敕	-11.0375
黃素	-11.0388
消亡	-11.0405
爲某事	-11.0414
延夀	-11.0414
尺二寸	-11.0439
后妃	-11.0442
曹太玄中元	-11.0454
漆	-11.0454
懈怠	-11.0458
鍾山	-11.0458
曹太玄下元	-11.0463
志心敬禮隨願往生天尊志心敬禮	-11.0464
希微	-11.0465
轍	-11.0466
干冒聖威下情无任惶懼之至謹狀	-11.0466
太上洞淵神呪經卷之	-11.0466
粤	-11.0466
紋之繒	-11.0467
謨	-11.0468
綴武	-11.0469
淹	-11.0469
忍辱	-11.047
軿頌	-11.047
衮衮	-11.0471
一行官吏	-11.0471
命禮威震雷霆澤垂雨露神通自在	-11.0472
牖	-11.0472
煦	-11.0473
䖍誠讃願賜威光鑒此忱願共諸有情同	-11.0473
身有光明	-11.0474
綴	-11.0474
上明天尊	-11.0474
弔	-11.0474
玄一三眞人	-11.0475
僻	-11.0475
天上地下	-11.0476
硯	-11.0476
若有善男子善女人	-11.0476
赦宥	-11.0477
沿	-11.0477
自今月某日爲始	-11.0477
章具法位上言謹按文書	-11.0477
䆫	-11.0478
結至謹狀	-11.048
仞	-11.048
一炁天君	-11.0481
炷香	-11.0481
香一斤	-11.0482
州社令司主者	-11.0485
眀	-11.0485
呬	-11.0486
涌	-11.0487
批	-11.049
因緣	-11.0491
郡縣	-11.0491
採藥	-11.0491
太𡻕	-11.0493
枯骨	-11.0494
匪由	-11.0495
癸未	-11.0498
洗蕩	-11.0498
帝渥	-11.0502
青城山	-11.0507
赤松	-11.0509
臣等身中即使玄壇清淨内外成眞天	-11.0511
橋梁	-11.0513
靈祇	-11.0515
泥丸宫	-11.0516
攸司	-11.0519
恕	-11.0519
太陽帝君	-11.0524
赦除	-11.0525
疾厄	-11.0527
玉磬	-11.053
刑獄	-11.0532
檢㑹	-11.0536
守衛	-11.054
護國庇民洪恩眞君志心皈	-11.0542
逍遥上清	-11.0549
夫婦	-11.0557
宴景	-11.0566
定慧	-11.0584
委炁	-11.0626
九祖父母	-11.0637
志心皈命	-11.0644
䖍祈	-11.065
青童君	-11.0655
破獄符	-11.0658
入法門	-11.0708
司判官志心敬禮	-11.0711
蒭	-11.0718
滑	-11.0726
善男子善女人	-11.0727
玉清降福天尊志心敬禮尋聲救苦天尊	-11.0727
彷	-11.0727
以今清旦行道請法衆等運兹	-11.0727
凢夫	-11.0728
霖	-11.0728
左右龍虎君	-11.0728
寰瀛	-11.0729
恭望聖慈允兹申請特降聖㫖	-11.0729
叢	-11.0729
韞	-11.0729
社稷尊靈	-11.073
徇	-11.073
運神㑹道	-11.073
社稷尊靈宗祧先聖	-11.0731
上保上傅太平下教二十四眞人西城	-11.0731
清衆運誠	-11.0732
過去未來	-11.0732
捍	-11.0732
鏞	-11.0732
巍峩	-11.0732
喫	-11.0732
攀戀	-11.0732
冨	-11.0732
畒	-11.0732
蟬	-11.0733
踊躍	-11.0733
兵戈	-11.0733
袂	-11.0733
恭望道慈	-11.0734
迂	-11.0734
跛	-11.0734
四念同志學人早得仙道更相開度	-11.0734
晻	-11.0735
疵癘	-11.0735
皮膚	-11.0735
登道岸	-11.0736
惕	-11.0736
皈無上道志心皈命禮	-11.0736
綜	-11.0737
課	-11.0737
七世父母	-11.0737
南嶽衡山	-11.0737
激越	-11.0738
寳華圓滿天尊	-11.0739
熱惱	-11.0741
冨貴	-11.0742
将	-11.0742
貪慾	-11.0743
鶉	-11.0743
糜	-11.0744
嘯詠	-11.0744
拯拔	-11.0744
紗	-11.0745
潛	-11.0746
皁	-11.0746
煥赫	-11.0746
受鍊更生	-11.0746
縱横	-11.0747
江湖	-11.0747
邦國	-11.0748
丘陵	-11.075
庚辰	-11.075
籌	-11.0751
夏禹	-11.0751
太上无極大道至眞玉皇上帝御前	-11.0752
㑹稽	-11.0753
鳯凰	-11.0753
米一石二斗	-11.0754
佐助	-11.0755
進呈	-11.0755
中元玉籙簡文神仙品曰詣師威儀當	-11.0755
天罡大聖	-11.0758
丙申	-11.0758
赤松子	-11.076
五道大神	-11.0764
毒蛇	-11.0768
瑶圖	-11.0777
九天生神天尊	-11.0777
騰勝	-11.0778
瀝懇	-11.0783
視聽	-11.0785
回旋	-11.0788
陞壇行道之所自然生金液丹碧	-11.0792
塵勞	-11.0795
虛皇	-11.0801
飛翔	-11.0805
▲▲▲	-11.0805
隂暗	-11.0824
受煉	-11.0837
太霞	-11.0841
北斗七元	-11.0865
錫慶	-11.0868
諷誦	-11.088
雲軿	-11.0885
中央黄帝	-11.091
北方黒	-11.0926
乙卯	-11.0939
永享	-11.0943
諸凡夫一切衆生	-11.0968
急急如元始度人律令	-11.0985
猒	-11.0987
豹	-11.0988
棒	-11.0992
翌	-11.0995
釣	-11.0996
佛	-11.0998
清萬魔不干眞誠上徹令	-11.0998
壺	-11.0999
蘋	-11.0999
靡法輪昇七祖生天堂我身白日騰	-11.0999
嚼	-11.0999
刹	-11.0999
冕	-11.1
飲酒食肉	-11.1
剡	-11.1
趍	-11.1001
方无極飛天神王長生大聖无量度人君	-11.1001
渇	-11.1002
摽	-11.1003
杜光庭	-11.1003
哲	-11.1003
時刻升遷	-11.1003
邃	-11.1004
受其發揚萬物滋生國儲民豐九	-11.1004
贈	-11.1004
謹啓以聞	-11.1004
覩見光明	-11.1005
桐	-11.1006
恢張	-11.1006
璇璣玉衡	-11.1006
西王母	-11.1007
逓	-11.1007
醒	-11.1007
時刻昇遷	-11.1007
鳳凰	-11.1009
猪	-11.1009
西嶽華山	-11.101
矅	-11.101
矩	-11.1011
籙齋用	-11.1011
濃	-11.1011
遨遊	-11.1012
三途五苦	-11.1013
白帝侍魄	-11.1014
庵	-11.1015
兌	-11.1016
曷俾	-11.1017
天下太平	-11.1019
唇	-11.102
决	-11.1021
芝蘭	-11.1024
北斗七星	-11.1024
彊	-11.1025
邪淫	-11.1027
髙躋	-11.1027
地上音	-11.1029
結尾	-11.1033
靴	-11.1034
玉暦	-11.1034
十方無極世界	-11.1035
眉間	-11.1037
參差	-11.1037
櫛	-11.1038
兩舌	-11.1038
碧霄	-11.1039
江海	-11.1042
破軍	-11.1044
祝融	-11.1045
沉迷	-11.1045
昭融	-11.1049
長九寸	-11.1051
端嚴	-11.1059
玄師前	-11.1062
豐登	-11.1068
凌空	-11.1069
臣某等上啓太	-11.1069
衍慶	-11.1084
諸天大聖	-11.1093
孰能	-11.1103
君内名	-11.1108
業機	-11.1109
千枝	-11.1114
米五斗	-11.1126
表白宣	-11.1128
司官吏	-11.1145
魄將軍	-11.1162
珍寳	-11.1163
筆墨	-11.1172
三天大法師	-11.1191
三捻上香願此香	-11.1205
南方丹	-11.123
救苦眞人志心朝禮大慈大悲大惠眞人	-11.1243
棊	-11.1267
障礙	-11.1267
綺言妄語	-11.1269
諂	-11.1272
彫	-11.1272
彚	-11.1272
捻	-11.1273
毗	-11.1274
願神願仙	-11.1274
諸天至極上聖	-11.1275
瘵	-11.1275
茯苓	-11.1276
按如詞言	-11.1277
霆	-11.1279
問曰何謂	-11.1279
肆覲	-11.1279
傷亡復舊還形	-11.128
贍	-11.128
六丁六甲	-11.1281
咏	-11.1281
靈化梵輔天	-11.1281
願五嶽各安其方巍巍包藏長爲仙宫安	-11.1281
倪	-11.1282
長八尺	-11.1282
㗸	-11.1282
不勝䖍祝之至	-11.1282
石景水母	-11.1282
君降大慈之恩流	-11.1282
風披拂	-11.1283
謝過自新伏願天帝君降大慈之恩流	-11.1283
樓閣	-11.1283
德配乾坤功叅日月神通妙用正直	-11.1284
天帝合眞	-11.1284
三業紛紜	-11.1284
搏	-11.1285
根刷	-11.1285
稽首皈依无極大道	-11.1286
玄壇天帝神君當召此間	-11.1287
拔度某人靈䰟	-11.1287
潢	-11.1287
優游	-11.1288
翮	-11.129
上官典者	-11.129
峰	-11.1292
風火無停	-11.1293
無極神郷	-11.1294
坊	-11.1294
綱維	-11.1295
忠良	-11.1298
章右用	-11.1298
吟詠	-11.1298
貪狼	-11.1298
長生不死	-11.1298
灌溉	-11.13
盥	-11.13
喜怒	-11.1301
𦋇	-11.1302
未甞	-11.1304
脣	-11.1307
種植	-11.1307
拜奏	-11.1308
銷平	-11.1311
充盈	-11.1314
鬼王等	-11.1314
酆都大帝	-11.1318
列位眞人	-11.1323
燃燈	-11.133
覆育	-11.1331
儀卷二百	-11.1332
剛風	-11.1335
玉珮	-11.1337
亡爽	-11.1342
未審	-11.1344
勑符呪唵吽吽	-11.1345
君五人	-11.1345
篇目	-11.1347
海龍王	-11.1348
敷揚	-11.1349
宰制	-11.1368
噀水	-11.1374
今有某	-11.1378
入符中	-11.1434
眞明皇道君三十六部尊經玄中大法師	-11.1452
黃籙齋	-11.1453
十方仙童玉女接侍蘭煙傳	-11.1465
衛靈呪	-11.1467
志心皈命禮	-11.1474
太極眞人曰	-11.1505
青牙	-11.1512
速逹俓御太上无極大道至眞玉皇上帝	-11.1527
下情无任惶懼之至謹狀	-11.1528
香官使者	-11.1529
垓	-11.1545
閽	-11.1555
今日道場大衆人各運心	-11.1556
崇建无上黄籙大齋	-11.1557
訊	-11.1558
𤑔	-11.1559
眸	-11.156
如意萬司	-11.156
馨香	-11.156
諫	-11.1561
願諸凡夫	-11.1561
桓	-11.1561
門下君一人官將百二十人上請	-11.1561
芻	-11.1562
弭	-11.1562
伴	-11.1562
供給	-11.1562
姓某狀	-11.1562
鬚	-11.1562
圜扉	-11.1563
亊	-11.1565
隙	-11.1565
赴旛受度焚符太乙救苦天尊謹召	-11.1565
恵	-11.1566
𩲸將軍明承符命追攝	-11.1566
各禮師存念如法宣衛靈呪	-11.1566
犴	-11.1567
五念九親和睦好尚仁義貴道賤財行	-11.1567
之考或有	-11.1567
悼	-11.1567
嗃	-11.1568
具位姓某謹據齋意	-11.1569
黔	-11.1569
回靈養素天尊	-11.1569
迍	-11.1569
𧷤	-11.1569
罕	-11.1569
桑梓	-11.157
雍熈	-11.1571
懺	-11.1571
雞犬	-11.1571
肢體	-11.1571
庠	-11.1571
培	-11.1571
顆	-11.1572
挿	-11.1572
恪遵	-11.1572
籖	-11.1573
運應滅度	-11.1573
甦	-11.1574
伊	-11.1575
壬午年	-11.1576
莫知其	-11.1576
之厄次解	-11.1576
金馬驛程	-11.1577
東方八天	-11.1578
勇猛	-11.1578
金闕化身天尊	-11.1578
遭逢	-11.1579
衿	-11.158
丙寅	-11.158
祠宇	-11.1581
挺秀	-11.1581
燒灰	-11.1581
筋骨	-11.1584
僕射	-11.1585
薩	-11.1586
翅	-11.1587
喘	-11.1588
北魁	-11.1589
遠近	-11.159
晨夕	-11.1593
穢慢	-11.1595
大聖元始天尊	-11.1598
猶慮	-11.1601
無上三天玄元始三炁太上老君召出臣	-11.1602
炁三口	-11.1606
充滿	-11.1614
禱祝	-11.1616
與道合眞禮方懴悔	-11.1618
紅塵	-11.1621
復六十日	-11.1627
章具法位	-11.1641
十斤	-11.1649
玄壇天帝神君當召此間土地里域眞官	-11.165
福祉	-11.1651
削除罪	-11.166
之氣諱	-11.1661
各禮師存念如法衛靈	-11.1667
百尺	-11.1669
犯觸	-11.1691
介福	-11.1718
中央黃	-11.1721
一通上詣	-11.1744
章一通	-11.1777
死之訟	-11.1778
辛酉	-11.1813
稱法位	-11.1817
俟命之至	-11.1819
重稱法位	-11.1823
殺害衆生	-11.1841
釀	-11.1843
譯	-11.1843
鷹	-11.1846
漁	-11.1847
禮此懴文五體投地	-11.1849
孜	-11.185
嗔怒	-11.185
脯	-11.1851
溝	-11.1852
九祖七玄	-11.1853
檻	-11.1856
九老仙都	-11.1856
死䰟符追	-11.1857
翦	-11.1857
粥	-11.1859
建齋有期移文到日部衞前來領受功德	-11.186
拷	-11.186
秤	-11.186
爕	-11.186
陽造隂謀	-11.1861
太子諸王	-11.1861
煙飛空髙澄䕃覆玄玄隱	-11.1862
峭	-11.1862
肌膚	-11.1863
髙虚清明天	-11.1863
繪	-11.1863
度世司馬大神好生韓君丈人	-11.1863
飛浮元始集神天地交周	-11.1864
尋聲救苦	-11.1864
彛	-11.1865
罩	-11.1865
廡	-11.1866
漸漸	-11.1866
長生大君	-11.1866
某嶽先生	-11.1866
满	-11.1868
旻	-11.1868
墠	-11.1868
逞	-11.1869
祿	-11.1869
鐶	-11.187
田蠶	-11.1871
犢	-11.1871
靈書中篇	-11.1871
遯	-11.1872
兩眉間	-11.1872
勛	-11.1873
存殁	-11.1873
掌醮司	-11.1873
大洞眞經	-11.1875
十餘里	-11.1877
鳳篆	-11.1881
庚午	-11.1884
明眞科	-11.1885
羽飛衣	-11.189
陰陽	-11.1894
右件	-11.1898
禱祈	-11.19
霄漢	-11.1902
萬九千	-11.1905
干試	-11.1911
太玄都省	-11.1928
太上三尊十方衆聖	-11.1946
至眞無極大道	-11.207
穢濁	-11.2136
陲	-11.2145
三啓三禮	-11.2152
卷之一	-11.2154
悠	-11.2155
懲	-11.2156
遍十方際盡玄虚界	-11.2157
鄉神仙諸靈官	-11.2157
輯	-11.2157
無氛穢地絶妖塵琳琅振響十方肅	-11.2157
餅	-11.2158
三清上聖十極髙眞	-11.2158
惡口兩舌	-11.2159
蕘	-11.2159
曝	-11.2159
稀	-11.216
訟訴	-11.2161
繕	-11.2161
無鞅聖衆	-11.2161
踰	-11.2162
具位姓某狀申申	-11.2162
受錬更生	-11.2162
玉寳皇上天尊	-11.2162
䦨	-11.2162
蕆	-11.2162
度品南宫	-11.2162
爲如上縁請聖作證	-11.2162
眩	-11.2163
渚	-11.2163
凈	-11.2164
於黄混	-11.2165
今以至心回向大道歸依天帝委命至眞	-11.2165
不勝激切之至	-11.2166
慈航	-11.2166
隨機赴感	-11.2168
拆	-11.2168
守雄抱雌二大將	-11.2168
瞳	-11.2168
廣成先生	-11.2168
浦	-11.2169
寒冰	-11.2169
裝嚴	-11.2169
徙	-11.217
憚	-11.217
滄海	-11.217
門下君一人官將百二十人上請天曹勑	-11.2171
洎乎	-11.2171
劫仞	-11.2171
騫樹	-11.2172
燒香散華	-11.2173
須至申聞者右某謹具狀申	-11.2174
束帶	-11.2174
灌漑	-11.2174
皇太子	-11.2174
靈寳監齋大法師眞君	-11.2175
好生度命天尊	-11.2175
叩齒七通	-11.2176
河洛	-11.2177
上聖髙眞	-11.2177
禹餘天	-11.2177
酒肉	-11.2177
亡過某乙	-11.2178
急急如上帝勑	-11.2178
汎景	-11.2178
檢校	-11.218
摧毀	-11.2182
玊京	-11.2182
紛紛	-11.2183
赤帝養炁	-11.2185
繡衣	-11.2185
太上玉經隱注曰	-11.2186
壇塲	-11.2186
遭遇	-11.2188
落景行道	-11.22
凶衰	-11.22
縫	-11.22
臣學道得道求仙得仙齋主受福幽顯	-11.2205
鬱單無量天	-11.221
湛寂	-11.2221
月十三日	-11.2249
如儀次	-11.2271
二官直使正一功曹左右官	-11.2296
預修黄籙	-11.2304
洞微髙士開光救苦真人寗全	-11.2314
鋪設	-11.2338
與臨壇官衆等謹同誠上啓	-11.2379
保天長存	-11.2422
江水帝	-11.2463
茍	-11.2464
稽顙	-11.2469
五月五日	-11.2469
攘	-11.2469
味甘	-11.247
三洞四輔經籙法科	-11.2471
卵	-11.2471
芹	-11.2471
際天尊志心敬禮功徳海天尊志心敬禮	-11.2472
凄	-11.2473
玉晨君北斗	-11.2473
帝天中神仙和諸靈官伏聞	-11.2474
欄	-11.2474
厖	-11.2474
自作教他心生口語	-11.2475
瘖	-11.2475
岩	-11.2475
飛天神人曰	-11.2475
光八衝迸威包羅交變萬方	-11.2475
丹靈朱火炎霞激風赤輪剛運天	-11.2475
覊	-11.2475
紀羣靈裁成萬化今有某精心扣地稽首	-11.2475
北極四聖眞君	-11.2475
壇而法象神輝𤑔香彛而關通帝闕歸命	-11.2475
坐在立亡	-11.2476
恭望天慈允兹奏請特降勑命	-11.2476
咸乞蕩除	-11.2476
所啓速達俓御	-11.2477
左右捧香驛龍騎吏侍香金童傳言散花	-11.2477
抃	-11.2477
今以至心回向大道歸依土皇委命至眞	-11.2478
快覩	-11.2478
名山大川	-11.2478
無想無結無愛天	-11.2479
扶桑大帝	-11.2479
迢迢	-11.2479
伏惟陛下	-11.248
兢兢	-11.248
孤魂滯魄	-11.248
神將吏兵	-11.2481
雉	-11.2482
敞	-11.2482
勑制地祇	-11.2482
毀壞	-11.2482
兜	-11.2482
麒麟	-11.2483
癸酉	-11.2483
曹太玄上元	-11.2483
渙	-11.2483
天牢地獄	-11.2483
普受開度	-11.2484
伎	-11.2484
杳冥	-11.2484
開明三景	-11.2485
君五人官將百二十人	-11.2485
愚衷	-11.2485
什	-11.2485
隳	-11.2486
恐怖	-11.2486
仇讎	-11.2486
法天象地	-11.2486
冒犯聖威	-11.2487
攬	-11.2487
青帝護魂	-11.2488
杵	-11.2489
祀典	-11.2489
請詳前項事理疾速	-11.2489
氐	-11.2489
哀愍	-11.249
筆一管	-11.249
敘	-11.2491
賷	-11.2491
首尾	-11.2491
賁	-11.2492
綉	-11.2492
歷關天中度命登眞焚符	-11.2494
塵寰	-11.2495
虔誠	-11.2495
縊	-11.2495
忠貞	-11.2496
濯質	-11.2496
黒帝通血	-11.2496
芝英百靈衆眞交㑹在此香火爐前令臣	-11.2496
天心正法	-11.2497
瑛	-11.2497
與天齊	-11.2498
天下人民	-11.25
銀漢	-11.2501
兠	-11.2504
咽液三過	-11.2505
拯救	-11.2506
儼然	-11.2519
伏屍	-11.2531
死入地獄	-11.2532
六銖	-11.2561
父母兄弟	-11.2609
長生保命天尊志心敬禮	-11.2616
某與臨壇官衆等謹同誠上啓虚无自然	-11.2639
謝恩醮	-11.2676
開度亡故某	-11.2699
出者嚴裝顯服冠帶垂纓關啓	-11.2722
無形無名	-11.2724
某謹焚香上啓	-11.275
咀	-11.2779
誌	-11.2785
月朔	-11.2787
无上正眞大道	-11.2789
穆穆	-11.279
鳩	-11.2792
姪	-11.2792
駿	-11.2793
漙	-11.2793
於黄垓	-11.2793
糞穢	-11.2793
諸天諸地	-11.2793
𣑽	-11.2794
觜	-11.2795
筌	-11.2795
苖	-11.2796
姓某謹重封	-11.2797
悴	-11.2797
璋	-11.2797
悖	-11.2798
瘴	-11.2798
派	-11.2798
預以同學普得升虚與天相保長存無憂	-11.2798
航	-11.2798
府主生太陽火官	-11.2798
膿血	-11.2798
聞元始開圖	-11.2798
禮二十拜若	-11.2798
謳歌	-11.2798
賦形以來紀録黒籍厭世之後	-11.2799
樂法以爲妻愛經如珠玉持戒制六	-11.28
在㑹係薦	-11.2801
腴	-11.2801
錐	-11.2801
價	-11.2802
桒	-11.2802
疾除罪簿	-11.2802
幕神位	-11.2802
鐘磬	-11.2802
鳴法皷二十四通	-11.2803
倣	-11.2803
二千石	-11.2803
隋	-11.2804
柰何	-11.2804
无量无邊	-11.2804
悦	-11.2804
糞	-11.2804
白日升天	-11.2805
飛天神王長生大聖無量度人君	-11.2805
井竈	-11.2805
塊	-11.2805
廪	-11.2805
蔕	-11.2805
蕪	-11.2806
闌	-11.2806
誠惶誠恐稽首頓首再拜以聞	-11.2807
滂	-11.2808
荀	-11.2808
柈	-11.281
靈寳玄局	-11.281
赤書玉字	-11.2812
囬	-11.2812
叩齒五通	-11.2813
壬申	-11.2813
玉眸錬質	-11.2813
南方八天	-11.2815
降聖司	-11.2815
取今月某日	-11.2818
復爐香官使者左右	-11.2818
七祖生天	-11.2819
吴	-11.2819
沓	-11.282
輻	-11.282
左玄眞人	-11.2827
下並有	-11.2828
呪咀	-11.2832
十枚	-11.2834
上十方香	-11.2837
百一十	-11.2847
塜訟	-11.2961
某與臨壇官衆等	-11.2967
癸亥	-11.2989
某謹同誠上啓	-11.3076
官將吏兵	-11.3107
善男子眞人道士	-11.3108
調灰下	-11.3114
驢	-11.3117
淨明院	-11.3117
憤	-11.3118
誇	-11.312
虚空鑒察	-11.3121
巳得道大聖衆	-11.3123
夙宵	-11.3124
蚊	-11.3124
慨	-11.3124
柏	-11.3124
以今晚朝陞壇行道請法衆等運兹	-11.3125
椀	-11.3125
葛仙公	-11.3125
直符直事	-11.3126
太上三尊願以是功徳皈流	-11.3127
沭	-11.3127
徯	-11.3127
盪	-11.3127
宗祧	-11.3128
斫	-11.313
俊	-11.313
瞻天建	-11.3131
翠葆	-11.3131
清衆運誠平坐如法平坐讃	-11.3131
萬神咸聞	-11.3132
幘	-11.3132
懴主某伏爲	-11.3132
荐	-11.3133
四直玉文功曹	-11.3133
簇	-11.3133
匪繇	-11.3133
皇合眞臣某等上啓	-11.3134
歸身歸神歸命大道	-11.3134
皆從四願日月二景髙明無有	-11.3134
魚鼈	-11.3134
醋	-11.3134
轟	-11.3134
亶藉	-11.3134
疽	-11.3135
碍	-11.3135
撿	-11.3136
睿旨	-11.3136
嚧	-11.3136
靈寳天仙内院	-11.3137
綏	-11.3137
魑	-11.3137
而容與	-11.3138
茭郭	-11.3138
纒綿	-11.3138
覓	-11.3138
䄂	-11.3139
血脉	-11.3139
遙	-11.3139
轄	-11.3139
臓腑	-11.3139
挈	-11.3139
恬淡	-11.314
經籍度三師	-11.314
火急奉行	-11.314
九宫八卦	-11.3142
裊	-11.3142
混元玉札	-11.3142
儛	-11.3143
嘿	-11.3143
憂惶	-11.3143
太皇萬福	-11.3146
整肅	-11.3146
撞	-11.3147
𠋣	-11.3147
閭里	-11.3147
與神同	-11.3149
湧泉	-11.315
丙辰	-11.3152
魈	-11.3153
一如吿命	-11.3153
上中下	-11.3193
本靖官將	-11.327
熒惑星	-11.3298
二寸四分	-11.3311
太上無無至眞無上無爲大道應感	-11.339
屏營	-11.3395
承誥奉行	-11.3409
死之訟訴其	-11.3434
之物或盜	-11.3437
釜	-11.3455
燎	-11.3464
豬	-11.3468
跳	-11.3469
三業六根	-11.3469
捨身受身	-11.3469
奢	-11.347
州刺史	-11.347
礪	-11.3471
訾毀	-11.3472
碓	-11.3472
願以是功德皈流齋主某伏願	-11.3473
飢渇	-11.3473
茹	-11.3473
衆等至心皈命无上自然	-11.3473
葳蕤	-11.3473
遊宴十方五雲浮	-11.3473
以今午朝行道請法衆等運兹	-11.3473
至心稽首禮玄中大法師重稱法位具位	-11.3474
菴	-11.3474
墉	-11.3474
綃	-11.3475
青玄老君太乙救苦天尊運明保元上帝	-11.3475
璿	-11.3475
諸天復位	-11.3475
嚮	-11.3475
椒	-11.3476
汨没	-11.3476
天曹諸司眞君	-11.3476
紱	-11.3476
顓	-11.3477
跂行一切衆生咸蒙成就八念赦	-11.3477
撲	-11.3477
金龍驛吏	-11.3477
北隂酆都大帝	-11.3477
巳奏聞諸天上帝申牒三界眞司外	-11.3478
氣候調節四運和平國安民豐普天	-11.3478
醮神位	-11.3478
姧	-11.3478
三洞四輔經籙	-11.3478
使者隂陽神決吏科車赤符吏剛風騎置	-11.3478
塘	-11.3478
燁	-11.3478
宫左府主生太陽火官	-11.3479
品彚	-11.348
嗽	-11.348
飛空歩虚	-11.3481
晃朗	-11.3481
牓	-11.3481
踵	-11.3481
猥	-11.3482
三塗五苦八難	-11.3482
褥	-11.3482
防禦	-11.3483
稼穡	-11.3484
𠡠	-11.3484
姻親	-11.3486
短促	-11.3486
頰	-11.3486
熊	-11.3486
好生韓君丈人	-11.3487
中嶽嵩山	-11.3487
密	-11.3488
西方八天	-11.3488
堦	-11.3489
簽	-11.3489
長生保命天尊	-11.3489
採訪	-11.349
娑訶	-11.3491
黄籙簡文	-11.3493
儲副	-11.3494
睛	-11.3495
北方八天	-11.3497
唵吽吽	-11.3505
䑓	-11.3509
判官地府	-11.3541
月八日	-11.3564
學道得道求仙得仙齋主受福幽顯沾恩	-11.3586
昇天堂	-11.3606
黍米	-11.3641
本壇奉爲	-11.3703
玉皇大天尊玄穹髙上帝	-11.3713
臨億兆任重嵩恒道慕堯舜旣纉承於大	-11.3808
寗	-11.3817
緜	-11.3817
蔬	-11.3819
宿綱清炁	-11.382
𥙿	-11.3822
轂	-11.3823
晩	-11.3823
啗	-11.3825
儀歩虚洒淨	-11.3825
在㑹衆魂	-11.3825
謹具狀申	-11.3826
節度使	-11.3826
祼	-11.3826
黍稷非馨	-11.3826
五族六親	-11.3827
嗔恚	-11.3827
迄	-11.3827
飛天神王長生大聖	-11.3828
伯叔兄弟	-11.3828
淋	-11.3829
驟	-11.383
槁	-11.383
翩翩	-11.3831
迪	-11.3831
臯	-11.3832
舛	-11.3833
傑	-11.3833
度仙上聖天尊	-11.3833
所啓速達逕御太上无極大道	-11.3833
人雲車羽駕	-11.3833
察命童子	-11.3833
無上三天玄元始三炁太上道君召出	-11.3834
桑麻	-11.3834
漲	-11.3834
金木水火土	-11.3834
紫微中天北極大帝	-11.3834
榛	-11.3834
靈童子明承	-11.3834
玊皇上帝	-11.3834
雨露之恩	-11.3835
有二種一者	-11.3835
某下情無任激切之至謹狀	-11.3835
願風雨流灑無窮普加施泄	-11.3835
二願諸天結炁澄清髙虚廣覆保眞固靈	-11.3835
明皇道君	-11.3835
方无極太上靈寶天尊	-11.3836
装	-11.3836
叩齒二十四通	-11.3836
正爾燒香	-11.3836
羸	-11.3836
三官九府百二十曹	-11.3837
恭望天慈	-11.3837
矜憐	-11.3838
姹	-11.3838
北都羅酆	-11.3839
文檄發放品	-11.3841
波羅尼宻不驕樂天	-11.3842
嗣法弟子	-11.3842
錦繡	-11.3842
麻姑	-11.3843
匣	-11.3843
筞	-11.3843
娛	-11.3843
尹喜	-11.3843
鄷都	-11.3844
稚	-11.3846
開啓齋壇	-11.3846
須至專牒者	-11.3846
筆硯	-11.3847
燦爛	-11.3847
様	-11.3847
精炁神	-11.3848
知見覺	-11.385
魒	-11.385
地獄或入	-11.3851
扶衰度厄	-11.3852
漑	-11.3853
惒	-11.3856
迦	-11.3857
紺	-11.3875
侍香金童傳言玉女	-11.3886
姓某謹封	-11.3898
親姻	-11.3944
午朝陞壇行道	-11.3971
等皈命之誠謹啓以聞發願	-11.3976
昇入无形和與道合眞	-11.3981
太上无極大道至眞玉皇上帝	-11.4089
晚朝陞壇行道	-11.4111
等身中即使玄壇清淨内外成眞天	-11.417
轉誦太上洞玄靈寳	-11.4177
菊	-11.4181
不可稱量九者遣情	-11.4184
不可稱量八者飾身	-11.4184
榻	-11.4185
不可稱量五者修心	-11.419
僮	-11.4192
如太上口勑	-11.4192
簷	-11.4193
攷	-11.4195
胡麻	-11.4196
橐籥	-11.4196
乞於齋次	-11.4196
詭	-11.4197
鵬	-11.4197
曩	-11.4197
潦	-11.4198
願以是功德上祝皇帝陛下伏願	-11.4198
臟腑	-11.4199
寤	-11.42
鵲	-11.42
榦	-11.42
砌	-11.42
翕	-11.42
鳴法鼔二十四通	-11.42
㮣	-11.42
如雞子	-11.4201
狴	-11.4201
逢昌運	-11.4201
三啓樂法以爲妻愛經如珠玉持戒制六	-11.4201
恙	-11.4202
依咸得受生五願天下太平五榖豐	-11.4202
元皇開度天尊	-11.4202
弩	-11.4202
臥	-11.4202
以來至于今日	-11.4202
蒙如丹禱	-11.4202
瘁	-11.4203
九天應元雷聲普化天尊	-11.4203
笥	-11.4203
躅	-11.4203
上清靈寳玄壇	-11.4203
甄陶	-11.4204
券	-11.4204
溟渤	-11.4205
艾	-11.4205
門隆盛宗廟有人世生賢才十念尊受	-11.4205
今故燒香自皈依師尊大聖衆至真之	-11.4205
則無爲散則彌天神仙同居結友衆眞惠	-11.4206
六洞十宫	-11.4206
泰玄都省	-11.4206
萬炁齊仙	-11.4206
下情無任激切	-11.4206
協	-11.4206
思念無量普	-11.4207
靡法輪升七祖生天堂我身白日騰	-11.4207
穗	-11.4207
度人无量天尊	-11.4207
幹	-11.4208
謝過祈恩	-11.4208
措	-11.4208
縠	-11.4208
昇天堂衣食自然	-11.4208
吞火食炭	-11.4208
溟濛	-11.4208
四炁朗清	-11.4208
伏望聖慈	-11.4209
巔	-11.421
遞	-11.421
虹霓	-11.421
暈	-11.421
掐訣念呪	-11.421
謾	-11.421
幃	-11.4211
虜	-11.4211
瞑目	-11.4212
璽	-11.4212
省覽	-11.4213
扁	-11.4213
頸	-11.4214
謹牒太歳年月日牒具位姓某押	-11.4214
消災散禍	-11.4215
虹橋	-11.4216
七十二福地	-11.4217
慳	-11.4218
玉眸鍊質	-11.4218
醜陋	-11.4219
僖	-11.4219
殯	-11.4219
銓	-11.422
光下燭	-11.4221
同三師狀	-11.4223
垂洞鑒	-11.4229
月上詣太上	-11.4233
霞鶴服朱履長𥚑玉珮	-11.4266
干冒聖威	-11.4307
炁布入	-11.4365
臣下情無任激切之至謹奉表奏以聞	-11.4366
闕七寳玄臺紫微上宫靈寳至	-11.4431
至眞玉皇上帝御前請稱法位具位	-11.4463
十方无極太上靈寳天尊	-11.4541
願以是功德皈流	-11.4543
見有皇后	-11.4549
届	-11.4572
爪	-11.4573
瓜	-11.4573
不可稱量七者精進	-11.4573
太上曰復有十種	-11.4573
不可稱量六者善業	-11.4573
不可稱量四者行功	-11.4574
豎	-11.4574
念呪七徧	-11.4574
柰	-11.4575
凾	-11.4577
以今清旦行道請法衆等運茲	-11.4579
鎚	-11.458
僅	-11.4581
遡	-11.4583
列仙傳	-11.4583
鄂	-11.4583
伶	-11.4583
霾	-11.4584
債訟	-11.4585
袁	-11.4585
上相上宰上保上傅	-11.4585
彗孛	-11.4586
械	-11.4586
以今清旦陞壇行道請法衆等運兹	-11.4587
繳	-11.4587
運四極安隆伏御帝前罔有不恭	-11.4587
玄之又玄	-11.4587
恤	-11.4587
巳得道大聖衆至眞尊神	-11.4588
刁	-11.4588
魘	-11.4588
恭望聖慈	-11.4589
䆳	-11.4589
圵	-11.4589
酥	-11.4589
杜廣成	-11.4589
五星髙耀瑞	-11.459
翼轅	-11.459
三捻上香願此香煙騰空	-11.4591
長生乆視	-11.4591
罪業消除災衰洗蕩福壽資命善果臻身	-11.4591
泝	-11.4591
業每省惕於眇躬道俗凌夷淳化難振隂	-11.4591
兀	-11.4591
膳	-11.4592
出堂頌引至幕謝師	-11.4592
凡有皈投	-11.4592
册	-11.4593
墨一笏	-11.4593
千罪萬過	-11.4593
以昭宸貺干冐聖威	-11.4594
偷盗	-11.4594
曳	-11.4594
回骸起死	-11.4594
當此之時	-11.4595
以今奉爲齋主某	-11.4595
太極左仙公	-11.4596
㵸	-11.4596
欽奉綸音崇修金籙	-11.4597
拓	-11.4597
暨	-11.4597
勅	-11.4597
三災九厄	-11.4598
疼痛	-11.4599
諠	-11.4599
須至關發者右關	-11.46
青龍白虎朱雀玄武	-11.4601
上清靈寶行司	-11.4601
踊	-11.4601
具法位姓某今據某郷貫	-11.4602
柔弱	-11.4602
謹爲上請	-11.4602
九靈飛歩	-11.4603
三昧神呪	-11.4604
油一斗二升	-11.4604
瘦	-11.4604
淡泊	-11.4605
上三尊願以是功德皈流	-11.4626
大聖衆至眞諸君丈人	-11.4668
首體投地仰依太上三尊願以是功	-11.4676
俄頃	-11.4717
無始以來	-11.473
情念道遣所欲澹泊正氣停蕭然神	-11.4754
某官某乙	-11.4803
早朝陞壇行道	-11.4817
无上三天玄元始三炁太上道君召出	-11.4838
某謹重誠上啓三清上聖十極髙眞	-11.4941
生慳貪心或見	-11.4965
東嶽天齊大生仁聖帝志心朝禮	-11.4968
不可稱量二者慈悲	-11.4972
見有賢者	-11.4972
不可稱量何等爲十種	-11.4973
則無以爲	-11.4976
㕹	-11.4979
螟	-11.4979
惡對罪根	-11.498
𠜍	-11.498
𢢽	-11.4981
鵠	-11.4981
噠	-11.4981
耄	-11.4981
晡	-11.4982
以今落景行道請法衆等運茲	-11.4983
膚	-11.4983
徳得道之後保天長存	-11.4984
風雨均調	-11.4985
等三師四友	-11.4985
搖	-11.4985
候八願萬物生全九願家多孝悌十願國	-11.4985
謹依科法	-11.4985
淘	-11.4986
不得拘留	-11.4987
謹爲黃籙大齋主某	-11.4987
簾櫳	-11.4987
婚	-11.4987
鳴法鼓	-11.4987
炙	-11.4988
蝖飛蠢動巳生未生咸蒙安全普	-11.4988
梨棗	-11.4989
九天諸司眞君天曹諸司眞君	-11.499
寂寞	-11.4991
甎	-11.4991
寧一普天興昌六願四時隨節推遷景	-11.4991
穎	-11.4991
两	-11.4991
不勝䖍禱之至	-11.4992
泉曲河源	-11.4992
某月某朔某日某	-11.4992
尾閭	-11.4992
普天率土	-11.4992
枷鎖	-11.4992
颺	-11.4992
運明保元上帝	-11.4993
抛	-11.4994
禎貺	-11.4994
姤	-11.4995
松蘿	-11.4997
叩齒三通咽液三過	-11.4997
丹靈眞老	-11.4997
三千六百	-11.4997
昩	-11.4997
𤓰	-11.4997
太素三元君	-11.4998
䘏	-11.4998
蜂	-11.4998
劫生死之罪	-11.4999
黯	-11.4999
神功妙濟	-11.4999
甲子諸官君	-11.4999
泳	-11.5
股	-11.5001
隷	-11.5001
仰荷玄恩	-11.5001
癎	-11.5001
寥寥	-11.5001
摺角封	-11.5002
形長三寸	-11.5002
帝王國主	-11.5002
九天司命府	-11.5003
玄三部洞天八景自然靈寳神仙	-11.5003
荅	-11.5003
一如告命年歳次月日	-11.5004
無量太華天尊	-11.5004
錢一千二百文	-11.5005
蹟	-11.5006
舎	-11.5007
离	-11.5009
亹	-11.5009
建齋之所自然生金液丹碧芝英百靈衆	-11.5012
潮	-11.5016
爓	-11.5019
召出臣等身中三五功曹左右官使者	-11.502
无上三天玄元始三炁太上老君召出	-11.5033
䙱	-11.5044
方无極太上靈寳天尊梵炁天君	-11.5045
眞之德得道之後升入無形	-11.5056
所啓之言速達	-11.5111
從無始	-11.5264
玄冲虚妙感慈惠護國庇民洪恩眞君	-11.5294
星中神仙	-11.5308
沾恩十方仙童玉女侍衛蘭煙傳	-11.5324
體投地仰依太上三尊願以是功德歸流	-11.5347
兵士十萬	-11.5363
璘	-11.538
聖威某下情無任惶懼之至謹狀年月日	-11.5385
堰	-11.5393
法橋大度天尊	-11.5394
棘	-11.5394
九天金闕洪恩眞君九天玉闕洪恩眞君	-11.5396
普及幽冥𡨚親平等	-11.5397
販	-11.5398
玉清聖境元始天尊	-11.5399
請聖初獻	-11.5399
臣衆等至心皈命	-11.54
蟄	-11.5401
醮筵内外一切威靈	-11.5401
鳶	-11.5401
攣	-11.5401
塵稽首皈依䖍誠讃詠信禮无上大羅天	-11.5402
外封面式	-11.5402
今奉爲入意以今	-11.5402
十方仙童玉女接侍香煙傳	-11.5403
𥫄	-11.5403
表臣某伏	-11.5403
九天尚父	-11.5404
耳混宫商	-11.5404
黻	-11.5404
賢智眞人	-11.5404
牛頭獄卒	-11.5405
庥	-11.5405
蓐	-11.5405
慊	-11.5405
兖	-11.5405
鰲	-11.5405
三十六部尊經玄中大法師天師君	-11.5405
學道得道求仙得仙齋官蒙福幽顯	-11.5406
伏須告報	-11.5406
所啓速逹徑御	-11.5406
某氏門中先逺	-11.5406
不零一切濟度靡不鮮榮	-11.5407
昴	-11.5407
梟	-11.5407
啞	-11.5407
玉符寳節嘯命微幽擲火揚威奸凶無留	-11.5407
大道洞玄虚有念無不契錬質入仙	-11.5408
嶠	-11.5408
未敢擅便須至奏聞者右	-11.5408
鈍	-11.5408
箱	-11.5408
念呪三徧	-11.5408
貳	-11.5408
屑	-11.5408
超凡入聖	-11.5408
九皇夫人九隂内妃	-11.5408
臼	-11.5409
恡惜	-11.5409
敖	-11.5409
哩	-11.5409
潺	-11.5409
勃勃	-11.5409
降眞召靈	-11.541
粧	-11.541
技	-11.541
誦念是經	-11.5411
萊	-11.5411
主火大將軍	-11.5411
人各恭信	-11.5411
蕚	-11.5411
滄溟	-11.5412
敕制地祇	-11.5412
烜	-11.5412
登眞隱訣	-11.5412
彗	-11.5414
瞬	-11.5415
摙	-11.5415
悵	-11.5415
姆	-11.5415
氛穢地絶祅塵琳琅振響十方	-11.5415
捜	-11.5416
太靈虚皇天尊	-11.5416
巻	-11.5416
大行梵炁	-11.5417
在會衆	-11.5418
三天化主玄中大法師眞君	-11.5418
求乞章奏	-11.5421
聾盲	-11.5423
香五兩	-11.5424
縉	-11.5424
殮	-11.5424
陽九百六	-11.5428
糧	-11.543
常上祝曰	-11.5446
急急如律令又呪	-11.5453
米三斗	-11.5456
章醮吉符	-11.546
爲日神傷	-11.549
以今午朝陞壇行道請法衆等運	-11.5596
形長二寸	-11.5639
之至謹奉表陳啓以聞	-11.5773
向來所啓速達	-11.5785
不可稱量十者普心	-11.5819
瞋恚	-11.5824
刳	-11.5824
院使眞君	-11.5825
鄷	-11.5828
降臨壇所	-11.5828
刀山劒樹	-11.5829
吠	-11.583
剉	-11.583
未經懴滌	-11.5831
亡故某及一切産魂	-11.5831
緱	-11.5831
眞誥云	-11.5832
簟	-11.5832
恥	-11.5832
不可稱量	-11.5833
峽	-11.5833
普慈護國天尊志心敬禮逍遥快樂天尊	-11.5834
無上靈寳天尊諸尊諸聖諸大真人諸大	-11.5834
倉箱	-11.5834
箕裘	-11.5834
簴	-11.5834
闕信儀	-11.5834
揺曵	-11.5835
熬	-11.5835
翥	-11.5835
口是心非	-11.5835
一願乾坤明素二願	-11.5836
癰	-11.5836
二捻上香願此香烟騰空	-11.5837
人鳥山	-11.5837
拽	-11.5837
隂忤神靈	-11.5838
荼	-11.5838
䇿六丁七轉八合周旋天經聖化巍巍	-11.5838
渟	-11.5838
無拘天門	-11.5838
仰慮亡靈某及九祖父母一切死魂	-11.5838
三道順行慶雲流布合景黄庭	-11.5839
巒	-11.5839
千愆萬罪紀録靈曹兆劫億齡	-11.5839
顚倒六情紛紜三業日	-11.5839
以昭玄貺	-11.5839
靜黙天魔並敬護世世享大福	-11.5839
臣等今故燒香志心皈身皈神皈命謹	-11.5839
砥	-11.5839
慈悲道場消災九幽懴	-11.584
𢡖	-11.584
眞校録三元蕩清左嘯中黄右	-11.584
株	-11.584
散花轉經行道生死宿過咸乞赦原伏冀	-11.584
醇	-11.584
累月積	-11.584
誠惶誠恐稽首頓首謹録狀上奏以	-11.584
鉤	-11.584
竃	-11.584
頓首頓首	-11.5841
線	-11.5841
𠅘	-11.5841
脹	-11.5841
鞏	-11.5841
棹	-11.5842
訾	-11.5842
鏗	-11.5842
出戸太上黄籙齋儀卷之	-11.5842
乹	-11.5842
斾	-11.5842
太上三尊十方衆聖願以是香功德	-11.5842
一丈二尺	-11.5843
涸	-11.5843
三十六部尊經眞文寳符	-11.5843
愽	-11.5844
各䖍誠懴謝	-11.5844
耐	-11.5844
謹奉降	-11.5844
以今臨午陞壇行道請法衆等運兹	-11.5844
詎	-11.5844
矛	-11.5845
昂	-11.5845
三台華蓋星君	-11.5845
冉冉	-11.5846
龕	-11.5846
侍靖仙官	-11.5846
寂然兜術天	-11.5847
門攝之若	-11.5847
𥨸	-11.5847
萬神咸聽	-11.5847
霓裳	-11.5848
左右官使者	-11.5848
上開八門	-11.5849
䑛	-11.5849
衮	-11.5849
聴	-11.585
愚劣謹因	-11.5851
洩	-11.5851
樸	-11.5851
特降聖旨依凖今來修奉開度事理	-11.5852
玃	-11.5853
身口意	-11.5853
三途五苦八難	-11.5854
元亨利貞	-11.5854
九萬九千九百九十	-11.5858
十二時辰	-11.586
舄	-11.5861
厄符解	-11.5862
馴	-11.5863
九千人无上洞清混沌自然	-11.5865
妙行真人	-11.5905
萬六千	-11.5975
大帝東華南極西靈北眞玄都玉京金	-11.61
下情無任激切之至謹奉表奏以聞謹言	-11.6107
騁	-11.6199
燃	-11.6202
福地主仙録君	-11.6203
眞人𡩋全眞授靈寳通玄弘教水南	-11.6208
謹同誠上啓太上无極大道虚无自然	-11.6238
球	-11.6269
娶	-11.6271
臣等身中令臣所啓之誠速達俓御	-11.6273
若復有人	-11.6277
𥬇	-11.628
葑菲	-11.628
鵝	-11.6282
上相上宰四司五帝三界官屬一切眞靈	-11.6283
等至心歸命	-11.6283
丧	-11.6284
鼇	-11.6284
爲某事建某齋懴罪祈恩消災請福切慮	-11.6285
動植飛潜均陶惠澤得道之後	-11.6285
生輪轉積劫循環流浪六情馳騁三業玄	-11.6285
今故修齋行道燒香散花皈身皈神皈命	-11.6286
裸	-11.6286
守雄抱雌	-11.6286
臉	-11.6287
稅	-11.6287
大慈之化下副	-11.6287
炊	-11.6288
以今臨午行道請法衆等運兹	-11.6289
應感分輝	-11.6289
𨓜	-11.6289
蛸	-11.6289
燔	-11.629
徑上供養无上至眞經寳	-11.629
蔓	-11.6291
萬一之忱	-11.6291
娱	-11.6291
豺	-11.6291
年月日牒具法師衘位姓押	-11.6292
臓	-11.6292
運應滅度身經太隂	-11.6292
迤	-11.6292
葵藿	-11.6292
屇	-11.6292
導迎景貺	-11.6292
則上明天尊大慈之化下副臣等皈命之	-11.6293
孳	-11.6294
菓	-11.6294
洞玄化應聲天	-11.6294
爲黄籙齋主某懴悔亡故某普及幽	-11.6294
今日道場大衆	-11.6294
正神急上關啓臣今奉爲入齋意以今	-11.6294
況奉詞㫖敢不上聞	-11.6294
詢	-11.6295
上章詞表靈官	-11.6295
風火驛傳	-11.6295
有感斯通	-11.6296
至眞道炁靈寳瑞光下降流入	-11.6296
爲國爲家	-11.6296
至眞無極大道三清上聖昊天至尊金闕	-11.6296
𠉀	-11.6296
縶	-11.6296
懋	-11.6296
隨願徃生	-11.6296
髮謝過自新伏願	-11.6296
綾	-11.6297
灑衆生五願星辰與日齊光轉燭照耀	-11.6297
朗映十方各安其位經緯直行保	-11.6297
師經不敢中怠平等一心廣度一切	-11.6297
跋	-11.6297
度人不死尊神南極長生大君	-11.6297
稠	-11.6297
衙	-11.6297
地水職司	-11.6297
焕	-11.6297
所薦亡魂	-11.6298
奉承正道赤書	-11.6298
靈寳領教濟度金書卷之一百八	-11.6298
茭龍驛吏	-11.6298
梗	-11.6299
窻	-11.6299
檐	-11.6299
經師眞君靈寳籍師眞君靈寳度師眞君	-11.6299
阮	-11.6299
魔無干犯	-11.63
噬	-11.63
慄	-11.63
捫	-11.63
蹔	-11.6301
嚩	-11.6302
漓	-11.6302
右府主死太隂水官中府主生死罪録官	-11.6303
澣	-11.6303
閒	-11.6303
北嶽恒山	-11.6303
叵	-11.6304
黄華蕩形天尊宣	-11.6304
縦	-11.6304
亟	-11.6304
瞽	-11.6305
斬絶地根	-11.6305
莭	-11.6306
梵寳昌陽	-11.6306
地獄符破	-11.6307
當職道士	-11.6307
燌	-11.6308
言功舉遷	-11.6308
袱	-11.6308
上上禪善無量壽天	-11.631
栗	-11.6311
姨	-11.6311
䕫	-11.6312
左府主生太陽火官右府主死太隂水官	-11.6312
猖	-11.6315
接引此亡靈	-11.6317
斑	-11.6317
紀録黒	-11.6319
香花燈燭供養如法	-11.6333
所啓之誠速逹俓御	-11.6357
諸君丈人三十六天帝君玉虚上帝玉帝	-11.6363
次一弟子姓	-11.6375
速達徑御	-11.6403
一心發念稽首慈尊敬禮真聖志心敬禮	-11.6506
學道得道求仙得仙齋主受福幽顯	-11.6556
富才賢十一願齋功廣被十二願善瑞日	-11.6599
无自然元始天尊无極大道太上大道君	-11.6625
西方无極太上靈寳天尊	-11.6738
不肯布施或見	-11.6742
噐	-11.6744
財物或盜	-11.675
東方无極太上靈寳天尊	-11.675
麴	-11.675
餉	-11.6753
哆	-11.6754
自皈依師尊大聖衆至眞之徳得道之後	-11.6755
摘	-11.6755
太上敕赦生天寳籙	-11.676
怱	-11.6761
蝎	-11.6762
籬	-11.6762
嶮	-11.6763
𥝠	-11.6763
敏	-11.6764
痕	-11.6765
髙上大道金闕玄元天皇大帝太上老君	-11.6765
觀聽法音	-11.6765
今故燒香自皈依道尊大聖衆至眞之	-11.6766
泗	-11.6767
願天垂甘露六願地發祥煙七願四時應	-11.6767
𡜍	-11.6767
踴	-11.6767
禮十拜若	-11.6768
惰	-11.6768
志心稱念	-11.6768
將亡過某原赦罪愆蠲除考對候	-11.6768
櫝	-11.6768
柴	-11.6769
九幽㧞罪天尊	-11.6769
侔	-11.6769
以今早朝陞壇行道請法衆等運兹	-11.6769
侈	-11.677
萬件千條	-11.677
貰	-11.677
下違地理上逆天文	-11.677
飢寒者天下人民各得其所七念蠕動	-11.677
巷	-11.6771
須至奏聞者右	-11.6771
鎭國祚保天無終護度一切莫不仰宗	-11.6771
幄	-11.6771
夀命延長	-11.6772
楷	-11.6772
囷	-11.6772
租	-11.6772
三業恣縱六情	-11.6772
鎭家國無有災傷四海	-11.6772
閟	-11.6772
矚	-11.6772
萬魔振伏紛葩却消摧怪伐惡道炁	-11.6772
専	-11.6773
八門開度天尊	-11.6773
侃侃	-11.6773
壹	-11.6773
肹	-11.6773
洞微髙士開光救苦真人𡩋全	-11.6773
玄眞萬福天尊	-11.6774
禮各虔誠懴謝	-11.6774
峒	-11.6774
立觀度人	-11.6774
九炁天君東郷神仙諸靈官	-11.6774
廣建福田	-11.6774
自今以去若有道士	-11.6774
故三洞弟子某	-11.6774
奇	-11.6775
九靈飛歩章奏司	-11.6776
泒	-11.6776
撻	-11.6776
蹄	-11.6776
窕	-11.6776
愡	-11.6777
不忠不孝	-11.6777
泉曲之府北都羅酆三官九署十二河源	-11.6777
慇懃	-11.6777
吼	-11.6777
今故燒香自皈依	-11.6777
翛	-11.6778
郷貫某住居奉道弟子姓某本命某甲子	-11.6778
破齋犯戒	-11.6778
畢引炁	-11.6778
皇笳天	-11.678
甖	-11.678
蚩	-11.678
長生久視	-11.6781
吉祥音檀熾鈞	-11.6782
榭	-11.6782
上品妙經人各一	-11.6782
刪	-11.6783
上極无上	-11.6784
煖	-11.6784
靜黙天魔並敬護世世受大福	-11.6786
疏	-11.6787
黜	-11.6789
膈	-11.6789
耆	-11.679
惚	-11.679
襪	-11.6792
九幽玉匱明	-11.6793
紙百張筆一管墨一丸	-11.6798
黄帝中主	-11.6803
楪	-11.6805
激切屏營之至	-11.6837
升天堂衣食自然二念帝王國主道化興	-11.6842
天尊志心朝禮大慈大悲救苦	-11.685
七洞微髙士開光救苦	-11.6897
寳玄臺紫微上宫靈寳至眞明皇道君	-11.6962
一通上聞	-11.6981
月日時生	-11.705
八洞微髙士開光救苦	-11.7156
姜	-11.7251
不可稱量是謂十種	-11.7254
属	-11.7259
埏	-11.7259
表文謹當宣奏宣表	-11.726
怛	-11.726
刑擣獄中	-11.7261
具表奏聞者	-11.7261
筍	-11.7263
舋	-11.7264
麓	-11.7264
肖	-11.7264
願此香煙騰空徑上供養无上至眞師寳	-11.7265
徑上供養无上至眞道寳	-11.7265
之至謹稽首再拜奉送	-11.7265
經老君授	-11.7265
妓	-11.7266
風雷雨部	-11.7266
徃生神仙界	-11.7266
瘂	-11.7266
劑	-11.7266
遑	-11.7266
靈寳領教濟度金書卷之一百七十	-11.7267
今故燒香自皈依經尊大聖衆至眞之	-11.7267
提携敢忘修誦	-11.7267
縻	-11.7268
投龍進簡	-11.7268
火錬丹界天尊	-11.7268
靈寳領教濟度金書卷之一百三十	-11.7268
發遣超生今來齋期將届凖格審告須至	-11.7268
揷	-11.7268
道教靈驗記卷之	-11.7268
鑾	-11.7268
髯	-11.7268
歉	-11.7269
虚永爲種民不經苦惱得道之後身入無	-11.7269
畆	-11.7269
州剌史	-11.7269
悋	-11.7269
顒	-11.7269
閫	-11.7269
𩛙	-11.7269
心謝過無邊罪犯並乞蕩除伏冀慈造垂	-11.7269
考罪玄曹恐墮沉淪未繇懴滌今依	-11.7269
瞿	-11.7269
礫	-11.7269
上明天尊大慈之澤下副	-11.727
極大道中天二大尊帝九皇玉	-11.727
多生輪轉	-11.727
鋸	-11.727
詛	-11.727
等首體投地歸命太上	-11.727
禾稼滋植營運日豐咸得厚載萬	-11.727
降勑命行下三界十方	-11.727
髭	-11.727
驛馬上章吏	-11.7271
金龍一枚皈命	-11.7271
上保上傳太平下教二十四眞人西城	-11.7271
上三尊願以是功德上祝皇帝陛下伏願	-11.7271
㢘	-11.7271
揉	-11.7271
殂	-11.7271
頊	-11.7271
玄靈經懴	-11.7272
千變萬化	-11.7272
願此香煙騰空徑上供養無上至眞師寳	-11.7273
㑹散花太空神化	-11.7273
龍變梵度天	-11.7273
未敢擅便須至奏聞者右臣謹録狀上奏	-11.7273
鹹	-11.7273
削死上生	-11.7274
鐫	-11.7274
凡歸陶冶悉	-11.7274
汪涵伏願開瓊笈以宣揚啓琅函而嘯	-11.7274
顙	-11.7274
虺	-11.7274
虚皇玉晨大道君	-11.7275
匪聽法以聞經曷明心而見性俾	-11.7275
晷	-11.7275
人經法道場以今謹率在㑹法衆	-11.7275
候敕旨頒行外	-11.7275
歳年月日具位臣姓某狀奏奏	-11.7275
陌	-11.7275
巍	-11.7276
珪	-11.7276
壇修誦太上洞玄靈	-11.7276
靈寳領教濟度金書卷之一百九十	-11.7276
玉虚明皇天尊	-11.7276
若存若亡	-11.7277
欻	-11.7277
牎	-11.7278
盱	-11.7278
監壇某神	-11.7278
奉道弟子姓某	-11.7279
擷	-11.7279
緝	-11.7279
軄惟領教理難抑違	-11.728
表臣某言	-11.728
態	-11.728
上謝天恩	-11.728
靈寳領教濟度金書卷之二百六十	-11.7281
兵馬各九億萬騎	-11.7281
蹇	-11.7281
愉	-11.7282
超凌三界逍遥上清	-11.7282
清明何童天	-11.7283
甄	-11.7283
白素四十尺	-11.7283
碩	-11.7284
鮑	-11.7284
所以爾者	-11.7285
九真妙戒	-11.7285
腋	-11.7287
扈	-11.7288
縹	-11.7288
抹	-11.7288
守坐飛鉤一切神君土府	-11.729
周而復始	-11.7294
弈	-11.7294
急急如長生大帝勑	-11.7298
忻	-11.7299
靈寳領教濟度金書卷之二百八十	-11.7299
真人上清太微	-11.73
赤明和陽天	-11.7318
袍吊䪃靴	-11.7332
日直功曹	-11.7333
今故焼香自皈依師尊大聖衆至	-11.736
侍香金童傳言散花	-11.7375
花稽首投誠	-11.7404
大齋法事小兆臣某與臨壇官衆等	-11.7502
各三十二人	-11.7516
至心稽首禮太上無極大道	-11.7548
三捻上香願此香煙騰空俓上供養	-11.7717
垠	-11.7742
麵	-11.7762
枸杞	-11.7764
年某月某日	-11.7767
店	-11.7772
上祝皇帝陛下伏願	-11.7775
㕔	-11.7782
重誠上啓	-11.7783
行住坐卧	-11.7784
道君髙清	-11.7785
碣	-11.7787
道士女冠	-11.7787
未敢擅便須至申聞者右謹録狀上申	-11.7788
出青入玄	-11.779
陂	-11.779
勁	-11.779
丐	-11.779
遒	-11.7791
畝	-11.7791
攔	-11.7791
搶	-11.7791
願此香煙騰空徑上供養無上至眞經寳	-11.7791
然九幽神燈上照	-11.7792
大天帝六天洞淵大帝六波天主帝君	-11.7792
憩	-11.7792
齋三日節目	-11.7792
超度亡故某普及幽冥𡨚親平等	-11.7793
瓣	-11.7793
萱	-11.7793
各䖍誠懴悔跪懴臣等	-11.7793
玄壇恭按眞科次第修奉巳於某月某日	-11.7793
恡	-11.7793
距	-11.7794
藍	-11.7794
恭望聖慈允兹申請特降聖㫖行下	-11.7794
琰	-11.7794
蘆	-11.7794
𧇊	-11.7794
劬	-11.7794
三部追魂使者	-11.7794
梳	-11.7794
五帝眞君五天聖帝洞天福地靖廬治化	-11.7794
𧇖	-11.7795
存亡二世	-11.7795
之境面朝	-11.7795
悽	-11.7795
剱	-11.7795
冒犯天	-11.7795
咄	-11.7796
繹	-11.7796
謹率見前清衆升壇	-11.7796
職惟領敎理難抑違敬依所卜日辰肅建	-11.7796
已得道大聖衆至眞諸君丈人	-11.7796
所啓之言速達徑御太上無極大道	-11.7796
大道洞玄虚有念無不契鍊質入仙	-11.7796
胚	-11.7796
流金豁落群魔滅蹤辟	-11.7796
嚢	-11.7797
閩	-11.7797
君度南昌上生	-11.7797
除壽齡延永不經苦惱身	-11.7797
魂度朱陵	-11.7798
澤得道之後升入無形和與道合真	-11.7798
得道之後升入无形	-11.7798
尋聲赴感太一救苦天尊	-11.7798
千和萬合	-11.7798
太上三尊願以是功徳歸流	-11.7798
掇	-11.7799
巳生未生	-11.7799
靈寳領教濟度金書卷之二百二十	-11.7799
靈寳領教濟度金書卷之一百十	-11.7799
姬	-11.78
三洞法師冲靖先生留用	-11.78
眚	-11.78
薑	-11.78
前生今世罪對立功補過九念家	-11.78
靈寳領教濟度金書卷之二百七十	-11.78
法事如式	-11.78
百邪摧落	-11.78
靈寳經籍度三師眞君	-11.78
伏惟皇帝陛下	-11.78
斃	-11.7801
地水火風	-11.7801
各禮師存念如法宣衞靈呪	-11.7801
傳符授戒	-11.7801
飛行羽經	-11.7802
氣和調無有災患疫毒消滅普天安平五	-11.7802
轉誦太上玄靈北斗本命延生眞經	-11.7802
窒	-11.7803
太明玉完天	-11.7803
偽	-11.7804
天一北祚	-11.7804
匀	-11.7804
伏乞應感分輝降臨醮座	-11.7804
注上生名	-11.7804
三元品戒	-11.7805
櫃	-11.7805
𥮅	-11.7805
卭	-11.7806
倶	-11.7806
謹牒太歳年月日牒具法師衘位姓押	-11.7806
髙功入科	-11.7806
天君天樞左丞相天君天樞右丞相天君	-11.7806
努	-11.7807
讚	-11.7808
驛馬上章吏官各二人出操	-11.7808
百張筆一管墨一笏	-11.7808
鞋	-11.7808
膓	-11.7809
樣	-11.781
灝	-11.781
撼	-11.7811
螫	-11.7811
迭	-11.7812
火鍊丹界	-11.7812
急急如長生大帝敕	-11.7812
薈	-11.7813
太上洞玄靈寶業報因縁經卷之	-11.7813
善知識	-11.7814
撩	-11.7816
竦	-11.7817
魂神澄正	-11.7817
硃	-11.7818
堕	-11.7819
靈寳淨明飛天度人	-11.7819
各百二十人	-11.7828
烟騰空俓上供養无上至眞師	-11.7851
土地里域真官	-11.7874
眞人志心朝禮大慈大悲大惠眞人	-11.7882
某年某月	-11.7912
之誠速逹徑御至眞無極大道三清上聖	-11.7981
五體投地	-11.8046
芝英百靈衆眞交㑹在此香火爐前	-11.8065
金闕明道達德大仙顯靈溥濟清微洞	-11.8206
无極大道至眞玉皇上帝御前出堂頌	-11.8307
見有女官	-11.8325
常樂我淨	-11.8328
願此香煙騰空俓上供養无上至眞道寳	-11.8333
二捻上香願此香煙騰空俓上供養	-11.8337
福佑見存	-11.834
生老病死	-11.834
奈	-11.8342
要修科儀戒律鈔	-11.8342
爲如上縁志心稱念	-11.8343
奉爲亡故某人靈䰟仗兹往生仙界念	-11.8343
上方无極太上靈寳天尊	-11.8343
乞賜原赦無邊罪犯並與蕩除伏冀	-11.8344
燋	-11.8345
皈身皈命大慈大悲無上天尊至心朝禮	-11.8345
太歲年月日牒具法師衘位姓押牒	-11.8345
蔭	-11.8345
犀	-11.8346
𡵨	-11.8346
產	-11.8346
蘖	-11.8346
𨗉	-11.8346
拙	-11.8347
醮筵内外一切眞靈	-11.8347
幞	-11.8348
劍	-11.8348
爲修齋弟子某	-11.8348
十方仙童玉女侍衛香煙傳	-11.8348
土地里域眞官正神急上關啓臣今奉爲	-11.8348
瓢	-11.8349
濟生度死	-11.8349
渭	-11.8349
眞之德得道之後長享自然和與道合眞	-11.8349
宗祧先聖	-11.8349
無形無名虚無自然金闕玉陛下	-11.8349
締	-11.835
善種大王	-11.835
外封背式拔度某人靈䰟	-11.835
下方无極太上靈寳天尊	-11.835
橘	-11.835
蜎	-11.835
宣告十方三界合屬眞司	-11.8351
願此香煙騰空徑上供養無上至眞道寳	-11.8351
鑚	-11.8351
佞	-11.8351
鄉神仙諸靈官竊以	-11.8351
生神上帝三十二天上帝五靈五老上帝	-11.8351
𣸸	-11.8351
消災謝過請福延生	-11.8352
猴	-11.8352
刈	-11.8352
嵐	-11.8352
明檢鬼營	-11.8352
煆	-11.8352
匃	-11.8352
黃籙簡文靈仙品格修齋行道燒香散	-11.8352
謹召神霄生	-11.8352
符生身受度削名北府紀字南宫厄難蠲	-11.8353
赦夙生今世一切愆尤開度九祖七玄三	-11.8353
俾令六道幽靈受食等衆形神俱妙定慧	-11.8353
磑	-11.8353
毳	-11.8353
生四負俾得一身清	-11.8353
鎭家國兆民興從養生安死惠周十方	-11.8353
㝷聲救苦	-11.8354
迮	-11.8354
殖	-11.8354
孝道明王	-11.8354
隨品受生	-11.8355
鳴天鼓	-11.8355
東華南極西靈北眞上宰上相上保上	-11.8355
確	-11.8355
蝸	-11.8356
眞鎭星吐輝流	-11.8356
緼	-11.8356
卿三十六部尊經玄中大法師三天大	-11.8356
恭對道前	-11.8356
紳	-11.8356
𥠖	-11.8357
太歳年月日關具法師衘位姓押	-11.8357
齊同慈愛	-11.8357
三界内外應感	-11.8357
舉形仙飛	-11.8357
艶	-11.8357
諌	-11.8358
颷	-11.8358
翟	-11.8358
栽	-11.8358
鉦	-11.8358
呼隂召陽	-11.8358
癲	-11.8358
欲望天慈特降勑命	-11.8359
皓庭霄度天	-11.8359
元明文舉天	-11.8359
啓堂頌	-11.836
磐	-11.836
需	-11.836
南閻洞浮	-11.836
劃	-11.836
者杖一百	-11.836
依按靈寳嗣師祕典恭就某處	-11.836
玄明恭慶天	-11.836
異口同音	-11.8361
稽首虚皇修行經法敷座	-11.8361
裕	-11.8361
皥	-11.8362
太上靈寳元陽妙經卷之	-11.8362
搗	-11.8363
肅清萬魔不干眞誠上徹令臣所啓之誠	-11.8363
上香師白文	-11.8363
嘻	-11.8363
攅	-11.8363
牲	-11.8364
㝢	-11.8364
七寳自然宫殿永與道合所啓玄感	-11.8364
謹具表奏聞者臣伏以	-11.8364
淵通元洞天	-11.8365
太安皇崖天	-11.8365
顯定極風天	-11.8365
閏	-11.8366
枵	-11.8366
廂	-11.8366
犮	-11.8367
溉	-11.8368
東方風雷地獄	-11.8368
太上慈悲九幽拔罪懴卷之	-11.8368
抺	-11.8369
檜	-11.837
幔	-11.8379
槨	-11.8386
大悲大願	-11.8427
州社令主者	-11.8457
稱法位具位臣姓某與臨壇官衆等謹	-11.8458
身中三五功曹左右官使者左右捧香	-11.8487
令臣所啓之誠	-11.8509
緲	-11.8583
上詣三天曹	-11.8681
所啓速達徑御太上無極大道	-11.8748
謹同誠上啓虚无自然	-11.8769
等今故燒香歸身歸神歸命奉爲某乙	-11.8769
玄壇土地方域神眞臣今	-11.88
願此香烟騰空俓上供養无上至眞	-11.8805
等皈命之誠謹啓以聞	-11.8824
大慈大悲救苦眞人大慈大悲大惠眞人	-11.8858
人爾欲自	-11.8874
三五功曹左右官使者	-11.8876
年歳次月日	-11.8905
盃	-11.8911
嫁	-11.8915
主將副將	-11.892
不可稱量三者舍忍	-11.8922
護道監壇	-11.8923
亦當修齋行香誦經	-11.8923
生諸怨恨	-11.8924
蓄	-11.8925
蠅	-11.8925
琉	-11.8925
豚	-11.8926
篋	-11.8926
某郷貫住居奉道弟子姓某本命某甲子	-11.8927
今有齋主某崇建某齋開度亡	-11.8927
愊	-11.8928
崇建某齋幾晝夜開度亡過某靈䰟	-11.8928
捶	-11.893
祈天澤保佑	-11.8931
祖玄眞師列位眞人經籍度師列位眞人	-11.8931
悮	-11.8932
岷	-11.8932
筦	-11.8933
洞天福地靖廬治化	-11.8934
妙齋法事小兆	-11.8934
若男若女	-11.8934
念諸聖呪	-11.8934
專度曲度	-11.8934
㤙	-11.8934
繚	-11.8934
訕	-11.8935
雷霆九司諸天省府東華西靈執職眞衆	-11.8935
谿	-11.8935
豊	-11.8935
禺	-11.8936
曹僚案掾	-11.8936
倒生玄司	-11.8936
髙上月宫太隂元君孝道仙王靈寳淨明	-11.8936
上元一品賜福天官	-11.8937
繋	-11.8937
尭	-11.8937
泬	-11.8937
斚	-11.8938
欬	-11.8938
莾	-11.8938
櫟	-11.8938
猫	-11.8938
蒙如所啓仰荷玄恩得道之後昇入无	-11.8939
具位姓某謹據齋意大教除巳具奏	-11.8939
一塵不染	-11.8939
須至申聞者右	-11.8939
鵷	-11.8939
拖	-11.8939
測瓊漿寳飯異果竒	-11.8939
冡	-11.8939
愚謹因	-11.8939
無上靈寳天尊諸尊諸聖諸	-11.894
羌	-11.894
鬻	-11.894
無文不度	-11.894
禮方懴方命魔歩虚	-11.894
事意至須至申聞者右某謹録狀上申	-11.894
遍下十方三界	-11.8941
坡	-11.8941
稽首再禮	-11.8941
請轉寳經誦經畢度人	-11.8941
上清眞境靈寳天尊太清仙境道德天尊	-11.8941
普慈護國天尊志心敬禮	-11.8941
杭	-11.8941
譛	-11.8942
流一切興國愛民普濟羣生人同劫年八	-11.8942
願得玉清道炁靈寶妙光下降流入	-11.8942
聞謹狀太歲年月日具位臣姓某狀奏奏	-11.8942
謹重伸上啓太上	-11.8942
逋	-11.8942
霶	-11.8942
鯉	-11.8943
嫗	-11.8943
視聽自民	-11.8943
今有黄籙大齋主	-11.8943
颻	-11.8943
願得太上十方正眞生炁降流	-11.8943
轉誦太上洞玄靈寳無量度人上品妙經	-11.8943
長生大帝東極青華大帝后土皇地祇	-11.8943
度人無量天尊	-11.8943
太嵗年月日	-11.8943
今來欲得三界十方預期聞知除巳具奏	-11.8943
位臣姓某謹據齋意集此善縁總祈開度	-11.8944
衆災度脫	-11.8944
閑寧廣濟一切惠	-11.8944
度人不死尊神	-11.8944
斬之不恕矣道言	-11.8944
職惟領教理難抑違	-11.8944
九炁青天明星大神煥照東郷洞映九門	-11.8944
趾	-11.8945
某上言今月某日爲齋法弟子某	-11.8945
九宫捍厄天尊	-11.8945
遘	-11.8946
從劫至劫	-11.8946
廳	-11.8946
挫	-11.8946
等謹按經云	-11.8946
伏乞聖慈特	-11.8946
緑輦丹輿	-11.8947
本際經云	-11.8947
枌	-11.8947
貿	-11.8947
主將某副將某護道某監壇某	-11.8948
騶	-11.8948
都大獻玉山淨供上奉	-11.8948
三天大聖都天大法	-11.8949
撮	-11.8949
生身受度劫劫長存隨劫輪轉與天齊年	-11.8949
嵎	-11.895
恩惟太上分别哀	-11.895
茨	-11.895
玉輔上宰四恊侍宸	-11.8951
璠	-11.8951
胄	-11.8951
青玄黄籙左府	-11.8951
元載孔昇天	-11.8951
威禁至重	-11.8951
搥	-11.8951
琪	-11.8951
蛾	-11.8952
扶桑大帝暘谷神王三河四海九江水帝	-11.8952
無極無量品至眞大神	-11.8952
甑	-11.8952
寨	-11.8953
境界其有眞人名曰	-11.8953
孾	-11.8953
争	-11.8954
太極濛翳天	-11.8954
告文靈寳三景玉符告下爲齋主某	-11.8954
亳	-11.8956
正一盟威	-11.8956
屐	-11.8956
監醮香官	-11.8958
箋	-11.8959
飛神謁帝	-11.896
降臨醮座	-11.896
𦆵	-11.8961
攜	-11.8964
表榜規制品	-11.8964
中斗大魁	-11.8965
茶酒果	-11.8967
諄	-11.8969
眥	-11.8974
缺者考屬	-11.8977
繿	-11.8977
眞之德得道之後昇入无形和與道合眞	-11.8984
德致昌熒惑消禍太白辟兵	-11.8985
紂	-11.9045
臣等身中令臣所啓	-11.9136
虚无自然元始天尊无極大道太上	-11.9214
向來所啓之誠速逹徑御	-11.9352
瓮	-11.9524
六洞微髙士開光救苦	-11.9534
凡學黄素書者	-11.9536
叩頭自搏	-11.954
蛆	-11.9544
狎	-11.9545
飼	-11.9548
蝦	-11.9549
接陽眷	-11.9551
荘	-11.9551
冗	-11.9551
你	-11.9552
濶	-11.9553
涓	-11.9554
一心歸命禮	-11.9555
篩	-11.9555
讒	-11.9556
懃	-11.9557
功德周圓伏願	-11.9557
𢊍	-11.9558
瘳	-11.9558
以今早朝行道請法衆等運兹	-11.9559
甸	-11.9559
㳟	-11.9559
各九億萬衆九天玄元太空洞虚自然	-11.9559
弋	-11.956
匐	-11.956
以今落景行道請法衆等運兹	-11.956
大帝九天應元雷聲普化天尊九天雷祖	-11.956
麽	-11.9561
魃	-11.9561
愈十願孤露衆生豐衣足食	-11.9561
負隂抱陽	-11.9562
疾除罪簿落滅惡根不得拘留	-11.9562
磅	-11.9562
五文開廓	-11.9562
功德金色光	-11.9563
圻	-11.9563
今奉爲入齋意以今	-11.9563
中有素皇號曰帝靈保神安	-11.9563
前生今世罪對立功𥙷過九念家	-11.9563
籣	-11.9563
礴	-11.9563
一隂一陽	-11.9564
欽奉綸音	-11.9564
紆	-11.9564
衣服卧具	-11.9564
東南方銅柱地獄	-11.9564
評	-11.9564
踞	-11.9564
琢	-11.9565
凡有投告敢不關聞	-11.9565
冥保固劫運世祚和平普加潤澤惠	-11.9565
陽虚映耀日回靈神虎辟邪飛天流鈴摧	-11.9565
東嶽天齊仁聖帝	-11.9565
熟六願臣忠子孝君仁父慈	-11.9565
机	-11.9565
堵	-11.9565
下情无任	-11.9565
焚詞頌	-11.9566
貝	-11.9566
奸滅試萬魔束形九微回道八威攝精千	-11.9566
笞	-11.9566
娘	-11.9566
狸	-11.9566
悲拔罪真人今日道場懴主及以大衆	-11.9566
歴關諸天	-11.9566
廩	-11.9567
從官符吏飛空變化攝召生炁奉爲亡魂	-11.9567
麈	-11.9567
移文者牒候到請詳前項事理疾速	-11.9567
此間土地里域眞官	-11.9567
彿	-11.9567
太煥極瑶天	-11.9568
法事如式各禮師存念如法請宣神呪	-11.9568
玷	-11.9568
六願臣忠子孝君仁父慈七願四海	-11.9568
揚揚兆庶稱慶長樂未央十二願	-11.9568
粱	-11.9568
隍	-11.9569
宣告十方三界合屬真司	-11.9569
帡	-11.9569
杻	-11.9569
跂	-11.9569
歐	-11.9569
吝	-11.957
方隅禁忌一切	-11.957
紊	-11.957
仗此寳香普同供養	-11.957
兾	-11.957
痼	-11.9571
痾旋即痊愈十願孤露衆生豐衣足食	-11.9571
華夏讃引	-11.9571
某年某月某日某時	-11.9571
獰	-11.9572
玄胎平育天	-11.9572
五洞微髙士開光救苦	-11.9572
抱朴子	-11.9572
譏	-11.9573
中理五炁混合百神	-11.9573
下元暘谷洞源	-11.9573
白骨成人	-11.9573
十方九幽苦魂罪魄	-11.9574
睇	-11.9574
金馬驛呈	-11.9574
粛	-11.9574
舅	-11.9575
怳	-11.9575
靈寳領教濟度金書卷之一百四十	-11.9576
上揲阮樂天	-11.9576
重封印全	-11.9576
洞元化應聲天	-11.9576
道衆雲集	-11.9576
思微定志	-11.9576
掲	-11.9577
尖	-11.9577
鉢	-11.9577
濵	-11.9578
邪食邪吏	-11.9578
鍵	-11.9579
羗	-11.9579
天騶甲卒	-11.9579
鈐	-11.9579
急急如太上律令	-11.9579
邉	-11.958
崗	-11.9581
方無極飛天神王長生大聖無量度人君	-11.9581
璝	-11.9581
拘魂制魄	-11.9582
廣成集卷之十	-11.9582
祺	-11.9583
揀	-11.9583
悚	-11.9583
劄本家土地司命遍告齋意	-11.9584
請光分燈	-11.9584
符祝曰謹召	-11.9587
燿	-11.9591
皈命之誠謹啓以聞十二願	-11.9701
極含容恢廓無細不植淵奥柔惠潤加	-11.9741
激切懇祈之至謹奉表陳啓以聞	-11.9988
真交㑹在此香火爐前令	-12.0015
某不勝虔祝之至	-12.0015
太上無極大道虚無自然元始天尊	-12.012
流一切興國愛民普濟群生人同劫年	-12.0133
玄壇天帝神君當召此間土地里域	-12.0138
中元玉籙簡文神仙品曰詣師威儀	-12.0194
黄素書卷之	-12.0209
某州社令司	-12.0211
之中上計或以	-12.0215
无上至眞經寳臣等皈身皈神皈命	-12.0216
堤	-12.0218
剏	-12.0218
殻	-12.0218
稜	-12.0218
蚤	-12.0218
𠎝	-12.0219
𤁋	-12.022
庖	-12.0221
甕	-12.0221
壝	-12.0221
疪	-12.0222
驪	-12.0224
丐祈原赦齋主某前生今世	-12.0224
髙拱彌髙	-12.0224
卵咸得生成九願積疾新痾旋即痊	-12.0226
蓋招神攝風役使萬靈上衛仙翁	-12.0226
無窮安平不䧟海淪不崩保	-12.0226
㳺	-12.0227
惣	-12.0227
玄明恭華天	-12.0227
三界眞司牒合屬去處	-12.0228
乍遐乍邇	-12.0228
俓上供養无上至眞經寶	-12.0228
同𡨚親和釋八願潜胞處	-12.0229
獄定罪考鬼靈官志心朝禮酆都	-12.0229
氣象清玄三願聖人萬壽四願化洽八埏	-12.0229
三界應感一切威靈	-12.0229
所啓速逹	-12.0229
鵰	-12.023
今故燒香願以是功德上爲	-12.023
天尊從此巳上禮念天尊聖號乞懴某	-12.023
糠	-12.023
太平下敎二十四眞人	-12.023
炫	-12.0231
蓋招神攝風役使萬靈上衞仙翁	-12.0231
在會係薦	-12.0231
念道遣所欲淡泊正氣停蕭然神	-12.0231
爲物範六念損已布施道士及	-12.0231
仰依太上三尊願以是功德上祝	-12.0231
以今中分行道請法衆等運茲	-12.0231
禋	-12.0231
五星列照煥明五方水星却災木	-12.0231
八角垂芒	-12.0231
倒生玄司七玉女	-12.0231
三啓頌三禮重稱法位具位	-12.0231
十方靈寳天尊十方巳得道大	-12.0231
醮三百六十分位	-12.0232
道炁百千萬重	-12.0232
凡有皈投敢忘關告	-12.0232
仰祈天澤克證徃生	-12.0232
雌右武鸞	-12.0232
五人官將一百二十人	-12.0232
桉	-12.0232
糺	-12.0232
零一切濟度靡不鮮榮和與道合眞復爐	-12.0232
餚	-12.0233
孛蝕虧盈安清光照諸天洞消暗	-12.0233
微天皇大帝紫微北極大帝后土皇地祇	-12.0233
轉燭陽光掃穢除氛開明童子號曰玄	-12.0233
无上玄老十方巳得道大聖衆至	-12.0233
敎導頑夫皆蒙惠澤精苦	-12.0233
本州本縣城隍	-12.0234
狩	-12.0234
蕋	-12.0234
无想无結无愛	-12.0235
祓	-12.0235
甓	-12.0235
張萬福天師	-12.0235
玄都元陽七寳紫微	-12.0235
冦	-12.0235
傅日月星宿北斗南辰周天眞宰十方	-12.0235
坳	-12.0235
紈	-12.0236
本命神將本宿星官	-12.0236
曖	-12.0236
畎	-12.0236
釋八願潜胞處卵咸得生成九願積疾新	-12.0236
眞皇洞神天尊	-12.0236
闈	-12.0237
天下都大城隍	-12.0237
齋主營造所在	-12.0237
謹牒太歳年月日牒具法位姓某押牒	-12.0237
槿	-12.0237
飛元聚靈	-12.0237
平育賈奕天	-12.0237
導迎善瑞榮進家庭利旺子孫昌隆福壽	-12.0237
沌	-12.0237
姥	-12.0237
淅	-12.0238
嚀	-12.0238
節度奎光	-12.0238
壊	-12.0239
臆	-12.0239
募	-12.0239
𦔳	-12.024
湮	-12.024
志心皈依信禮	-12.024
須至專牒者牒候到	-12.024
瘞	-12.0241
九天符命攝龍驛傳普天安鎭我得飛仙	-12.0241
楫	-12.0241
昊天至尊金闕玉皇上帝	-12.0242
湊	-12.0242
豕	-12.0242
泡	-12.0243
匙	-12.0243
十二河源水府神仙諸靈官	-12.0243
鎗	-12.0244
斗牛女虚危室壁七宿星君	-12.0244
須至專牒者右牒上	-12.0245
永爲身寳	-12.0245
南方火翳地獄	-12.0245
犒	-12.0245
丹輿緑輦	-12.0245
翁重浮容天	-12.0245
章一通上詣太上某宫曹治	-12.0245
罰香半斤	-12.0246
屹	-12.0247
譔	-12.0249
噏	-12.0249
臣誠惶誠恐稽首頓首再拜伏念臣	-12.0251
綽	-12.0251
三天扶教輔元大法天師	-12.0253
珊	-12.0253
樽	-12.0254
香上度過	-12.0258
徂	-12.0267
舐	-12.0275
歳年月日具位姓某狀	-12.0278
十願江海蕩蕩	-12.042
師尊大聖衆至眞之德得道之後	-12.044
人東嶽上卿司命茅君定録保命二	-12.0469
科車赤符	-12.0519
誠謹啓以聞發願存神燒香香	-12.0545
符簡軌範品	-12.0587
一願大道流行普天懷	-12.0653
魂一時解脫四願孤	-12.0678
奥柔惠潤加蠕息天人獲慶年同劫	-12.0752
道炁靈寳妙光下降流入臣等身中	-12.0795
二念帝王國主道化興隆庠序濟濟皇	-12.0843
遂成金剛體超度三界難地	-12.0878
達有生保天長存億劫不傾三願土地	-12.0884
昊天玉皇上帝十方巳得道大聖衆至眞	-12.0911
告下具法位臣姓某承誥奉行	-12.0916
婢	-12.0926
疹	-12.0926
汾	-12.0926
畋	-12.0926
瓠	-12.0926
蜒	-12.093
元陽上品大乘經典	-12.0931
曹仙官中元南洞陽左宮	-12.0931
鴟	-12.0931
㪷	-12.0932
訝	-12.0933
仰祈天澤克證生	-12.0934
青詞謹當宣奏宣詞	-12.0934
箸	-12.0934
茅茨不剪	-12.0935
門下君官將百二十人兵士十萬	-12.0935
崐	-12.0935
涎	-12.0936
自從無始以來至於今日	-12.0936
詳前項事理疾速	-12.0936
状	-12.0937
呻	-12.0937
沮	-12.0938
某上言今月某日爲修齋弟子某崇建	-12.0938
揣	-12.0938
嬉	-12.0938
售	-12.0938
種病病殺惡人	-12.0939
願此香煙騰空逕上供養无上至眞經寳	-12.0939
婺	-12.0939
慟	-12.0939
拔罪真人今日道場施主及以大衆仰願	-12.0939
願此香煙騰空逕上供養无上至眞道寳	-12.094
嬌	-12.094
各三十二人出出者嚴装關啓	-12.094
諸天上帝申牒三界真司外	-12.094
妖明耀元功金符召制躡雲	-12.094
故殺誤傷	-12.0941
貅	-12.0941
蜺	-12.0941
藤	-12.0941
四直功曹三界符使	-12.0941
㝷聲赴感	-12.0941
脅	-12.0941
五星列照煥明五方水星却災木德致昌	-12.0941
本靖主將副將護道監壇	-12.0942
西方七炁素天太白流精光耀金門洞	-12.0942
薤	-12.0942
玄中大法師重稱法位上清玄都弟子	-12.0942
玄都大獻玉山淨供	-12.0942
禴	-12.0942
四海四瀆溪澗潭洞	-12.0942
天堂享大福	-12.0943
桴	-12.0943
玉皇上帝御前各稱法位上清玄都弟子	-12.0943
筠	-12.0943
杲	-12.0943
綠	-12.0944
耻	-12.0944
昇入无形和與道合眞禮方懴悔	-12.0944
生成皆見元炁受陽之形草木果林經冬	-12.0944
賑	-12.0945
帝瓊闕髙眞玄都玉京金闕七寳瓊臺紫	-12.0945
狼吏虎賁	-12.0945
金華仙魔王敬受事故能朝諸天皆從齋	-12.0945
佗	-12.0945
娠	-12.0945
港	-12.0946
升壇轉誦太上洞玄靈寳无量	-12.0946
宣關靈符赦罪天尊某重誠上啓	-12.0946
唳	-12.0946
核	-12.0946
得道之後昇入無爲	-12.0946
咒	-12.0947
地獄餓鬼畜生	-12.0947
魁𩲃𩵄䰢魓𩳐魒	-12.0947
芝英百靈衆眞交會在此香火爐前	-12.0947
旃	-12.0947
謟	-12.0947
𩲃	-12.0947
帝一尊百關自調理俯命八海童仰	-12.0947
三十六眞人三十六將軍	-12.0948
有感必通	-12.0948
𡏖	-12.0948
早朝行道儀燒香頌各禮師存念如法	-12.0948
功滿德就	-12.0949
悞	-12.0949
須至奏聞者右臣謹録狀上奏	-12.0949
髪謝過自新伏願	-12.0949
極无量品至眞大神飛天神王長生大聖	-12.0949
玄壇恭按眞科次第修奉	-12.0949
媚	-12.0949
彬	-12.0949
咬	-12.0949
即與和合隂陽調平經緯其有身命運限	-12.0949
大道洞玄虚有念無不契煉質入仙	-12.0949
蛙	-12.095
出堂頌回靜黙堂	-12.095
㘅	-12.095
七誦重關開	-12.095
諳	-12.095
榖豐熟國富民歡七願浮雲結炁聚	-12.095
寕	-12.095
劈	-12.095
各三十二人出出者嚴裝關啓玄壇天帝	-12.095
泮	-12.0951
珂	-12.0951
郵	-12.0951
圗	-12.0951
寂然兠術天	-12.0951
天尊斗極宗師	-12.0952
鐺	-12.0952
歿	-12.0952
十洲三島	-12.0952
侍爐引班	-12.0952
玄靈璇璣府	-12.0953
太上黄籙齋儀卷之四十	-12.0953
二誦天地通混合自相和九	-12.0953
中元玉籙簡文神仙品曰奉師威儀	-12.0953
枽	-12.0954
諶	-12.0954
餒	-12.0954
埸	-12.0954
謹㳙今月某日爲始	-12.0955
矧	-12.0955
闐	-12.0955
同心恊力	-12.0955
嶂	-12.0955
閡	-12.0955
悸	-12.0955
賖	-12.0955
道上二玄三元四始	-12.0955
弃	-12.0955
某謹爲某求乞	-12.0956
官使者左右龍虎君侍香諸靈官當令臣	-12.0956
恩惟太上分别求哀	-12.0957
瑚	-12.0957
禮三寳巳復次懴悔	-12.0957
請轉法輪師題經	-12.0958
踪	-12.0958
縑	-12.0958
玄上玉晨天尊	-12.0958
法師衘位姓押	-12.0958
揭	-12.0958
瀟	-12.0959
鑊	-12.0959
懾	-12.096
經師籍師度師	-12.096
倏	-12.096
𥚑	-12.0961
丘丞墓伯	-12.0961
墊	-12.0961
鳬	-12.0961
宜於期日具奏	-12.0962
覷	-12.0962
南上司命司録延壽益筭度厄尊神	-12.0962
拍	-12.0963
上明七曜摩夷天	-12.0963
録異記卷之	-12.0963
始皇孝芒天	-12.0964
井鬼栁星張翼軫七宿星君	-12.0965
門下求覔之如不具者又詣	-12.0965
法位姓某押	-12.0966
楮	-12.0966
咽止行此	-12.0966
㣧	-12.0966
㨿	-12.0966
靑	-12.0967
痺	-12.0968
番	-12.0968
騭	-12.0968
闓	-12.0968
要修科儀戒律鈔卷之十	-12.097
仆	-12.097
丗	-12.097
溲	-12.0972
阨	-12.0983
太上洞玄靈寳无量度人上品妙經	-12.0999
也其星則號	-12.1047
庠序濟濟皇	-12.1056
息天人獲慶年同劫石十一願帝王國	-12.1149
四洞微髙士開光救苦	-12.1163
太上執法仙士蔣叔輿編	-12.1182
虚無自然元始天尊無極大道太上	-12.1255
所啓速達徑御太上无極大道	-12.1541
昊天至尊玉皇上帝	-12.1571
上物或盜天尊寶	-12.1575
忍不可忍法	-12.1617
無上三天玄元始三炁太上老君召出	-12.1617
牡	-12.1671
離口過法	-12.1672
除惡想法	-12.1673
放翫習法	-12.1678
洗垢穢法	-12.1682
賃	-12.1683
歙	-12.1685
前行諸妄想或於	-12.1687
夘	-12.1688
志心奉請北都泉曲府	-12.1688
不淫想法	-12.1689
不疑空法	-12.1695
栲	-12.1696
繭	-12.1697
魂神執繫在	-12.17
冽	-12.1703
狠	-12.1704
諸獄考鬼靈官	-12.1704
俸	-12.1704
門下君一人上請	-12.1704
妍	-12.1705
筏	-12.1705
螺	-12.1705
降臨醮座謹奉請	-12.1705
湫	-12.1706
薙	-12.1706
衫	-12.1706
氊	-12.1707
虵	-12.1707
無極諸天福堂之内	-12.1707
下元三品解厄水官大帝	-12.1707
混元十二炁化生大將軍	-12.1707
平好醜法	-12.1707
圜	-12.1707
騾	-12.1707
豉	-12.1708
夐	-12.1708
可韓司丈人天尊	-12.1708
冢	-12.1708
凡有投告敢不上聞	-12.1709
膂	-12.1709
邢	-12.1709
毅	-12.171
絢	-12.171
凡有投告盍爲關聞	-12.171
妙无上帝虚皇玉晨大道君	-12.171
輕泄漏慢	-12.171
行道燒香散花轉誦太上洞玄靈寳无量	-12.1711
髙皇九土四司五帝十二仙君	-12.1711
腕	-12.1711
主宰龍神社稷山川城隍里域三界官	-12.1711
裾	-12.1712
玉都玄臺内省	-12.1712
蕳	-12.1712
無拘留逼合之憂	-12.1712
邅	-12.1712
九天命靈章生神神自超元君遏死	-12.1712
牟	-12.1712
厦	-12.1712
鴨	-12.1713
恭惟太上无形无名虚无自然至	-12.1713
祈恩昇薦某靈進登	-12.1713
胎卵濕化	-12.1713
善防言法	-12.1713
習悉意法	-12.1713
願此香煙騰空逕上供養无上至眞師寳	-12.1713
法衆等志心皈身皈神皈命	-12.1713
湍	-12.1713
胎息靜百關寥寥究三便泥丸洞明	-12.1713
絶心想法	-12.1713
羈	-12.1713
微上宫靈寳至眞明皇道君	-12.1713
今齋主某仰慮亡故某	-12.1714
某等同誠上啓虚	-12.1714
溫	-12.1714
凱	-12.1714
鐸	-12.1714
聖衆至眞諸君丈人諸天	-12.1714
願化洽八埏五願天垂甘露六願地發祥	-12.1714
姓某誠惶誠懼稽首頓首再拜上	-12.1714
上相上宰上保上傅四司五帝十二仙	-12.1714
㗖	-12.1714
異骨成親	-12.1714
志心稽首禮太上無極大道	-12.1714
釆	-12.1714
不追懷法	-12.1715
火兵備守玉堂斬邪束	-12.1715
靈寳天尊紫微天皇大帝禹餘天	-12.1715
身中令臣所啓速達俓御	-12.1715
齋主受福幽顯沾恩十方仙童玉女侍	-12.1715
疵	-12.1715
智慧生戒根眞道戒爲主三寳由是興	-12.1715
蒞	-12.1715
徐葛鄭三	-12.1715
屨	-12.1715
眞緑霞煥映三天飛雲丹霄諸天控軿晨	-12.1715
香官使者左右龍虎君侍香諸靈官當今	-12.1715
唐廣成先生杜光庭刪	-12.1716
者流三千里	-12.1716
開九宫八卦係屬之門爲弟子某解除	-12.1716
芸	-12.1716
𡨚家債主	-12.1716
鮒	-12.1716
三炁天君南郷神仙諸靈官	-12.1716
一生二二生三	-12.1717
之厄疾速關告某本命元辰本命	-12.1717
總眞王君太元眞人東嶽上	-12.1717
至眞玉皇上帝御前謹稱法位具位	-12.1717
弁	-12.1717
喜慶難言	-12.1717
南斗六司星君	-12.1717
嬴	-12.1717
克獲上仙白日登天拜見太上永成眞	-12.1717
蠡	-12.1717
厄告文玄靈解厄符命告下解	-12.1718
饍	-12.1718
硬	-12.1718
鶱	-12.1718
帝東華南極西靈北眞玄都	-12.1718
玄都山十方宗皇一岧岧天寳臺光明	-12.1718
不悠想法	-12.1718
淒	-12.1718
三洞道士朱法滿編	-12.1718
如影隨形	-12.1719
碭	-12.1719
无量度人君妙行眞人天眞皇人	-12.1719
饑寒者天下人民各得其所七念蠕動	-12.1719
祐見在使陵廟墳基肅寜殃注斷絶	-12.1719
譚	-12.1719
覆載無窮安平不陷海淪不崩保	-12.1719
眞交㑹在此洞案爐前令	-12.172
五嶽五天聖帝	-12.172
膿	-12.172
衛護某身原赦宿新無量罪咎矜奬即	-12.172
飇	-12.1721
控轡適十方旋憇玄景阿仰觀劫	-12.1721
臣等身中令臣所啓之誠速逹徑御	-12.1721
峩	-12.1721
龍頭書刀	-12.1721
漣汲溟波	-12.1721
闗	-12.1721
廖	-12.1722
尢	-12.1722
搬	-12.1722
凭	-12.1722
潤屋潤身	-12.1722
曜明宗飄天	-12.1722
雹	-12.1722
糾	-12.1722
倩	-12.1723
减	-12.1723
䜟	-12.1723
鑠	-12.1723
毬	-12.1723
肱	-12.1723
太文翰寵妙成天	-12.1723
霑恩十方仙童玉女侍衞	-12.1723
太歲年月日具位臣姓某狀奏	-12.1724
光熒星轉燭洞照太陽上有赤精	-12.1724
喑	-12.1724
昱	-12.1725
甯	-12.1725
秪	-12.1725
九天玉闕宣化扶敎上仙昭靈	-12.1725
歧	-12.1725
無極大道道德衆聖天尊至眞大帝天帝	-12.1725
謹遵金籙品格肅䢖然燈威儀於	-12.1725
苞	-12.1726
熙	-12.1726
寘	-12.1726
磕	-12.1726
倂	-12.1726
玉樞五雷院	-12.1727
同心併力	-12.1728
靈寶領敎濟度金書卷之三百	-12.1728
扎	-12.1728
諸天丞相南昌上宫韓司主録監生大神	-12.1728
謹據某郷貫住居奉道弟子姓某本命	-12.1728
櫺	-12.1729
砭	-12.1729
逕御太上無極大道至眞玉皇上帝	-12.1729
鑰	-12.1729
普上法橋無有障礙	-12.1731
亰	-12.1731
婉	-12.1731
第七壘水制澤地	-12.1731
陽耀通關	-12.1731
𦍒	-12.1731
魓	-12.1732
晋	-12.1732
恩章一通上詣某天曹伏須告報	-12.1732
閙	-12.1732
今醮主某	-12.1732
檢鬼營不得容隱	-12.1733
冥寂玄通	-12.1733
急急如上清律令勑右誦呪	-12.1733
蜚	-12.1734
虚明堂曜天	-12.1735
月府太隂皇君	-12.1736
迥	-12.1736
曦	-12.1736
㓙	-12.1737
脗	-12.1737
圈	-12.1738
挂	-12.1738
太上玉晨大道君金闕後聖玄元老君	-12.1739
急急如靈寳无量度人律令	-12.174
𠆸	-12.1741
苔	-12.1742
右手撫心左手指	-12.1753
无上至眞師寳臣等皈身皈神皈命	-12.1803
瞻天望聖激切屏營之至	-12.182
敎恢弘威儀翼翼普天所瞻民稱太平	-12.1834
願此香煙騰空俓上供養无上至眞師	-12.1837
道君太上老君昊天至尊玉皇上帝紫	-12.1867
歸身歸神歸命奉爲某乙修齋行道仰謝	-12.1933
沾恩十方仙童玉女接侍蘭煙	-12.2017
得生成皆見元氣受陽之形草木果林經	-12.2089
無自然元始天尊無極大道太上大道君	-12.2186
无安閑空寂澄清自居廣開法門	-12.2221
年歳次月日時告下簡袋式	-12.2237
恭就某處崇建靈寳	-12.2368
三十二天帝君玉虚上帝玉帝大	-12.2377
三十六天帝君玉虚上帝玉帝	-12.2416
紂絶隂天宫	-12.2439
熒惑消禍太白辟兵鎭星四據家國利亨	-12.2481
以求仙道又見道士	-12.2505
曹仙官上元太極右宮	-12.2509
茄	-12.2517
無猶豫法	-12.2518
雲驂俯降風駟遥臨來赴醮筵證明修奉	-12.2522
九天溥度院	-12.2524
噫	-12.2525
蚌	-12.2529
前生諸慳貪或於	-12.2529
爇	-12.2531
泆	-12.2532
諦聽經言一切衆生	-12.2532
奉修无上解考妙齋轉經行道皈命	-12.2533
祈禳云爲某事仰	-12.2533
蓆	-12.2533
輾	-12.2534
躑	-12.2535
蜿	-12.2536
脆	-12.2536
蘄	-12.2537
隘	-12.2537
一心諦聽稽首慈尊敬禮真聖志心敬禮	-12.2537
願垂大慈力超度此亡靈	-12.2537
拈	-12.2537
驤	-12.2537
右狀請前條	-12.2538
上御九天請下玉文日月	-12.2538
副再三之禱	-12.2538
宂	-12.2538
道君太上老君昊天玉皇上帝	-12.2539
凡得淨明法者	-12.2539
鴿	-12.2539
髠	-12.254
舌貪滋味	-12.254
火府齎簡童子	-12.254
狡	-12.254
炮	-12.2541
俛	-12.2541
鏁	-12.2541
綾羅錦綺	-12.2542
曹仙官中元北酆都右宮	-12.2543
解計君一人官將百二十人兵士十萬人	-12.2543
澁	-12.2543
螘	-12.2543
肆自然録我神天尊常擁	-12.2543
地府十宫眞君	-12.2544
九天採訪使天尊	-12.2544
誹	-12.2544
護魔王爲保言晃晃金	-12.2545
今日道場大衆如經所言	-12.2545
鯀	-12.2545
栴	-12.2545
茫茫酆都中重重金剛山靈寳	-12.2545
東方角亢氐房心尾箕七宿星君	-12.2545
龍鱗萬劫保智用豈但在厥年奉戒不暫	-12.2545
經師不敢中怠平等一心廣度	-12.2545
潑	-12.2546
参	-12.2546
囹	-12.2546
欽奉聖㫖	-12.2546
㝠𡨚親平等爰從無始逮至有	-12.2547
飛戈飄㦸	-12.2547
僥	-12.2547
七願四海㑹同𡨚親和	-12.2547
誠意具載緘謄願得太上	-12.2547
膻	-12.2547
圄	-12.2547
願者願我受身生身所在託生	-12.2547
乞爲敷奏外未敢擅便須至奏聞者右	-12.2548
請在壇聽候䇿役除别行外須至牓示者	-12.2548
具章奏法位	-12.2548
宼	-12.2548
种	-12.2548
三天門下三元眞君上章詞表靈官	-12.2548
檢精捕非敢有干試豁落斬	-12.2548
巨澤沛靈寳之弘功	-12.2548
淬	-12.2548
无氛穢地絶妖塵琳琅振響十方肅	-12.2548
東霞扶桑丹林大帝	-12.2549
𡨥	-12.2549
午朝行道儀燒香頌各禮師存念如法	-12.2549
上無復祖超	-12.2549
儀啓堂頌各禮師存念如法宣衛靈呪	-12.2549
籍度三師眞君靈寳官屬三界眞靈伏聞	-12.2549
廁	-12.2549
耒	-12.2549
普及含靈均蒙利	-12.2549
法弟子某崇建某齋幾晝夜依按眞科修	-12.2549
剛風騎置吏驛馬上章吏飛龍騎吏	-12.2549
炁和調無有災患疫毒消滅普天安平五	-12.2549
壠	-12.2549
九五箕疇	-12.2549
呵風罵雨	-12.255
謹稽首再拜奉送回軿頌	-12.255
三元三官帝君北極四聖眞君	-12.255
洞微髙士開光	-12.255
牋	-12.255
告給符籙門	-12.255
昊天金闕玉皇上帝東極慈尊青玄上帝	-12.255
軆	-12.255
太上勑赦生天寳籙	-12.255
神君當召此間土地里域眞官正神	-12.2551
暄	-12.2551
則屬眞君考校	-12.2551
潄	-12.2551
毫髮無遺今有孝子某	-12.2551
明晨行道續更啓聞	-12.2551
某身原赦宿新無量罪咎矜獎即今	-12.2551
主家土地司命六神	-12.2552
仙降格扇景乗飈群生咸遂惠遍神州	-12.2552
厄者速令	-12.2552
謔	-12.2552
嚴我九龍駕	-12.2552
晚朝行道儀燒香頌各禮師存念如法	-12.2552
㕑	-12.2552
灸	-12.2552
甚深法藏信禮	-12.2552
學仙絶華念念念相因積去	-12.2553
帙	-12.2553
鼻貪馨馥	-12.2553
酪	-12.2553
東嶽天齊大生仁聖帝	-12.2553
鬬	-12.2554
贏	-12.2554
撤	-12.2554
福所覃普天	-12.2554
按眞科次第修奉	-12.2554
煞即俾鎮守封維沉	-12.2555
謹按玄科今據	-12.2555
中元太陽洞耀	-12.2555
目躭黼黻	-12.2555
爽無凝滯去留如解	-12.2556
靈音振空洞九玄離幽裔感	-12.2556
都官僕射天騶甲卒天丁力士	-12.2556
太上黄籙齋儀卷之五十	-12.2556
样	-12.2556
無上玄元太上道君召出	-12.2556
蔑	-12.2556
學詩學禮	-12.2556
常居吉慶永處福齡	-12.2556
角亢氐房心尾箕	-12.2556
衒	-12.2557
无極曇誓天	-12.2557
吾奉玉清勑速降元炁成	-12.2557
觀明端靖天	-12.2557
書篆旨訣品	-12.2557
金籙定籍玉字除殃朱陵	-12.2558
蕭然神靜黙天魔並敬護世世享大福又	-12.2558
斁	-12.2558
儵	-12.2558
蹠	-12.2558
蹲	-12.2559
悛	-12.2559
琥	-12.2559
某縣某郷某里	-12.2559
蚓	-12.256
三部八景洞天飛行自然靈寳神仙	-12.256
圊	-12.256
磿	-12.256
歃	-12.256
庫曹官姓	-12.256
領仙玉郎	-12.2561
𠑽	-12.2561
者敬讓孝養父母	-12.2561
𨼆	-12.2561
臰	-12.2561
胎結解根	-12.2561
某帝眞人某甲再拜五香稽首奉請	-12.2561
旭	-12.2561
䙝	-12.2562
賓	-12.2562
第八壘大風澤地	-12.2562
下元金靈洞隂大帝三品解厄水官洞眞	-12.2562
癆	-12.2562
諍	-12.2563
鴉	-12.2563
牒本州城隍司	-12.2563
雇	-12.2564
䌓	-12.2564
濬	-12.2564
亞	-12.2564
猊	-12.2564
𩵄	-12.2564
茅君定録保命二眞人名山洞府得道	-12.2564
臈	-12.2564
㸔	-12.2565
钁	-12.2565
罰𥮅一紀	-12.2565
千乘萬騎	-12.2565
雷公電母風伯雨師	-12.2565
是男是女	-12.2565
𩃇	-12.2567
䘙	-12.2567
鉅	-12.2567
掌醮降聖	-12.257
當得人身許錢	-12.257
月上計死忌在	-12.2571
炁大將軍符祝曰謹召長生大帝君	-12.2571
具法位上言云云	-12.2573
撒	-12.2573
霹	-12.2573
滕	-12.2574
膜	-12.2574
金眞萬炁祖母	-12.2574
藕	-12.2575
菖	-12.2575
掌禮請齋官	-12.2576
飛空變化攝召生炁奉爲亡魂化生	-12.2576
朶	-12.258
捾	-12.2607
第二壘剛色地	-12.2614
辰午申戍子寅	-12.2626
有生保天長存億劫不傾三願土地覆載	-12.2629
宫洞仙官官屬酆都	-12.2665
教恢弘威儀翼翼普天所瞻民稱太平	-12.2685
无上三天玄元始三炁太上道君	-12.2716
副元帥眞君九天上輔翊聖	-12.3078
願江海蕩蕩無極含容恢廓無細不植淵	-12.3205
今故焼香自皈依	-12.3286
尊願以是功德上資	-12.3302
敎理難抑違敬依所卜日辰肅建	-12.3357
名刋玉簡字録帝房乗飈散景飛騰太空	-12.3383
有光明此世他生常膺福慶	-12.341
拔逮根法	-12.342
等歸命之誠謹啓	-12.3422
省府院司	-12.3433
看誦太上洞玄靈寳無量度人上品妙經	-12.3433
持心勿犯第	-12.3434
湔	-12.3435
纍	-12.3436
今日道場大衆人各運心仰對慈尊懴悔	-12.3437
某上言今月某日爲修齋	-12.3438
勦	-12.3439
繆	-12.344
簸	-12.3444
振響十方肅清萬魔不干眞誠上徹令	-12.3445
儉愛欲法	-12.3446
謠	-12.3446
牆	-12.3447
綰	-12.3447
匆	-12.3447
巿	-12.3448
地府齎簡童子	-12.3448
學仙行爲急奉戒制	-12.3448
蝨	-12.3449
皿	-12.3449
五星北斗七元中告五嶽四	-12.3449
事意至緫祈利益除	-12.3449
蒜	-12.3449
愕	-12.345
擺	-12.345
女五帝直符直日香官各三十二人出	-12.345
鍤	-12.345
太上黃籙齋儀卷之二十	-12.3451
杞	-12.3451
姓名謹重封	-12.3451
耘	-12.3452
畚	-12.3452
以今臨午行道請法衆等運茲	-12.3452
樗	-12.3453
迢	-12.3453
機上相天君天機内相天君天樞	-12.3454
大神監生主録南上三	-12.3454
西方奎婁胃昴畢觜參七宿星君	-12.3454
譎	-12.3454
非意别人我四維不守三惑未除元臘威	-12.3454
儕	-12.3454
叮	-12.3454
清上相天君泰玄上相天君天	-12.3454
蓽	-12.3454
播種无期	-12.3454
謳	-12.3455
豁滯非神武運通由中發髙唱稽首舉	-12.3455
不勝虔禱之至	-12.3455
天帝神君當召此間土地方域神眞臣今	-12.3455
建齋之日願賜恩光證明修奉干冒聖威	-12.3455
靈駕不待轡朗然生神章	-12.3455
九皇玉帝當召九皇靈官飛龍騎	-12.3455
詹	-12.3456
慱	-12.3456
隨本根亹亹	-12.3456
主紫微大帝北斗	-12.3456
玄曹愆書玉簡一朝滅度九夜沉淪非仗	-12.3456
操智慧之舟	-12.3456
巓	-12.3456
騫樹圓景園煥爛七寳林	-12.3456
嗅	-12.3456
天獸三百名獅子巨萬	-12.3456
事意至須至申聞者右謹録狀上申	-12.3456
南極眞王朱陵大帝	-12.3456
得如所願仰荷玄恩呪曰	-12.3456
裝嚴无極之國	-12.3456
无上玄元太上道君召出	-12.3456
度魂儀斷除考對俾亡故某出離幽	-12.3456
驚天駭地	-12.3456
妙有上帝萬變混沌玄元老君至眞大帝	-12.3457
俢	-12.3457
日月星宫至眞大聖三光神仙諸靈官	-12.3457
劫不傾三願土地	-12.3457
郷神仙諸靈官廣運慈悲特垂原赦告下	-12.3457
專爲亡故三洞弟子某	-12.3457
幕上清靈寶玄壇恭	-12.3457
躃	-12.3457
嗇	-12.3457
箚	-12.3457
之郷衣食自然形神俱妙得道之後	-12.3457
其諸丹悃具載青詞	-12.3457
喙	-12.3457
包羅中有度人集萬眞而校録仰玄元之	-12.3457
玉符所告神眞八威邪門閉塞正道	-12.3457
泰素妙廣	-12.3457
袵	-12.3457
爰有青詞謹當宣奏宣詞按如詞	-12.3457
九幽長夜之府魂充考撻諸痛備嬰形體	-12.3458
剪截魔王北帝所承風火	-12.3458
沉淪惡對匪繇懴贖曷遂解除	-12.3458
應念充周隨感飽滿	-12.3458
天地同靈九祖種親腐骸更榮魂	-12.3458
戟	-12.3458
當司今據某郷貫	-12.3458
眞授靈寶通玄弘敎水南先生林靈眞編	-12.3458
柝	-12.3459
昭垂應感之恩普放神光降流	-12.3459
媿	-12.3459
六道四生孤䰟滯𩲸諸𩔖傷亡	-12.3459
明開映照我身三光	-12.3459
㴠	-12.3459
五仙中靈之炁	-12.3459
笋	-12.3459
鞘	-12.346
教導頑夫皆蒙惠澤精苦自	-12.346
請滅三惡斬絶地根	-12.346
慝	-12.346
混化歸元一髙結元始	-12.346
猖狂我享上功坐運魁罡億劫長存保天	-12.346
行幕拜首祈恩	-12.346
遝	-12.346
志心皈依奏啓无上大羅天	-12.346
禄遍山河緬想神仙路逍遥上大羅	-12.346
旋行躡雲綱乗虚歩玄紀吟	-12.346
虚度百年之荏苒桑榆莫駐頓驚九夜之	-12.346
寄庫經財	-12.346
旍	-12.3461
苒	-12.3461
荏	-12.3461
弢	-12.3461
玄悟我理兼忘介福九天端交禮地辰良	-12.3461
亡故某人生有惡縁死罹按問	-12.3461
逹神氣和合靈官	-12.3461
遨翫怡五神	-12.3461
上清十一曜眞皇君南斗六	-12.3461
垂洪造願賜證明以今奉爲齋主某崇建	-12.3461
三光全而寒暑平	-12.3461
靈寳玄一經籍度師侍經五帝玉童玉女	-12.3461
省歸神願紀南宫之字庶承釐於見在而	-12.3461
瞑	-12.3461
念一念爲道四大合德齋主七世父母免	-12.3461
醯	-12.3462
槩	-12.3462
瀣	-12.3462
解𡨚謝過受戒傳符度命成眞不經苦惱	-12.3462
穀豐熟國富民歡七願浮雲結炁聚	-12.3462
矝	-12.3462
伏願大道矜憐髙眞憫佑告下	-12.3462
薨	-12.3462
洞垂淵聽	-12.3462
逍	-12.3462
帝眞華府命元眞靈化凝之炁	-12.3462
罪咎積若沙塵	-12.3462
陽過隂愆千條萬件無邊無量罪結九幽	-12.3462
黄籙拔度威儀燒香然燈修齋行道仰謝	-12.3462
帝座照臨星宰	-12.3463
救苦眞符長生靈符靈寳九眞妙戒	-12.3463
塋	-12.3463
賚	-12.3463
觧	-12.3463
報對玄曹恐墮沉淪莫由解贖今依	-12.3463
眞科品修齋行道燒香散花稽顙三元皈	-12.3463
禾稼滋植營運日豐咸得覆載萬	-12.3463
臊	-12.3463
丄	-12.3463
聚炁返形俓登長樂得道之後昇入	-12.3464
稽首拜辤十方	-12.3464
身受度預修黄籙大齋幾晝夜仰祈天澤	-12.3464
體耀金輝斬伐胞根七玄	-12.3464
本思舊宗幽夜淪遐劫對盡大運通	-12.3464
同慶得道之後升入無形和與道合眞	-12.3464
地府掌亡人案	-12.3464
幙	-12.3464
閨	-12.3464
王開度飛玄爽凝化輪空洞故根離昔愛	-12.3464
今世捨生受生三業六情十因五欲藴結	-12.3464
帝上清大帝太清大帝	-12.3464
玄虚之主宰仙僚洞府	-12.3465
校量功德院	-12.3465
宿啓告齋明晨行道	-12.3465
男左女右	-12.3466
陬	-12.3466
昊天上帝紫微大帝天皇大帝	-12.3466
二三四五六七八九	-12.3466
靉	-12.3466
煥落景霞布神	-12.3466
元始勑下五老監明濟度群品瞬息	-12.3467
俓上供養无上至眞經寳天尊	-12.3467
眞自然大聖上元一品賜福天官大帝君	-12.3467
盩	-12.3467
太虚感靈㑹命我生神章一唱	-12.3467
滚	-12.3467
䆁	-12.3467
上解祖考億劫種親疾除罪簿落滅惡根	-12.3467
𣲖祖玄眞師	-12.3467
今有齋主某蠲潔蓬居恪殫葵志皈命	-12.3467
奧	-12.3467
覇	-12.3468
闥	-12.3468
恩惟太上衆眞分别求哀	-12.3468
𣏌	-12.3468
中元北酆都右隂天	-12.3468
凜	-12.3468
太素秀樂禁上天	-12.3468
太釋玉隆騰勝天	-12.3469
呢	-12.3469
磴	-12.3469
賂	-12.3469
胴	-12.3469
無極太上至眞上上太一君三洞天尊次	-12.3469
㨂	-12.3469
无停今日大慶欣喜蒙	-12.347
水府掌亡人案	-12.347
戕	-12.347
串	-12.347
杉	-12.347
㰱	-12.347
正一沖玄神化靜應顯佑眞君	-12.3471
千載有幸得奉大道	-12.3471
䥫	-12.3472
依準黄籙靈仙科品元始符命開度事理	-12.3472
下元黄籙簡文靈仙品	-12.3473
犁	-12.3473
穏	-12.3473
中央土德鎭星	-12.3473
中有度人不死之神	-12.3474
騎各九億萬衆	-12.3474
躊	-12.3474
天師君上相上宰四司五帝	-12.3475
具法師衘位姓	-12.3475
檝	-12.3476
䰢	-12.3476
憧	-12.3476
𥩈	-12.3476
謹爲伏地拜章一通	-12.3477
秖	-12.3477
上清童初府	-12.3477
四過天王降仙	-12.3477
顱	-12.3478
從官符吏等爲亡魂攝降	-12.3478
穫	-12.3478
脛	-12.3479
妊	-12.348
隕	-12.348
𩳐	-12.348
奉爲亡靈上資徃生天界念	-12.3481
従	-12.3484
斟	-12.3485
郤	-12.3485
風伯雨師	-12.3485
緾	-12.3485
飛天大聖無極神王	-12.3487
剛風騎置驛馬上章	-12.3491
大將軍兵士十萬人上請	-12.3494
槖	-12.3496
某上言今月某日爲某修建某	-12.3499
風火驛傳年歳次月日時告下具法位	-12.3526
𧷢	-12.3533
賔伏妖惡自滅賢聖日生三念法師功	-12.3577
无任惶懼之至謹狀太歳年月日具位	-12.3598
十方仙童玉女侍衛蘭煙傳	-12.3649
神霄九宸上帝	-12.3701
下情不勝激切懇祈之至謹奉表陳啓以	-12.3795
皆悟道三願九夜悲魂一時解脫四願孤	-12.3815
淡泊虚无安閑空寂澄清自居廣開法門	-12.3833
隂陽神決吏	-12.3844
眞交㑹在此香火爐前	-12.3908
靈寶領敎濟度金書卷之一百五十	-12.4034
左右官使者隂陽神決吏科車赤符吏	-12.4076
御前請稱法位具位臣某與臨壇官衆等	-12.4147
第一壘色潤地	-12.4157
石十一願帝王國主日昌四鎭安睦兵	-12.4181
侁	-12.4415
行諸婬欲或	-12.4419
殟	-12.4426
曹仙官上元太極左宮	-12.4426
肢	-12.4428
糓	-12.4431
祖炁眞光齊接引	-12.4431
邕	-12.4434
愴	-12.4434
方至真神仙一切大聖衆	-12.4434
仗兹功德回薦亡靈清衆運誠皈依讃詠	-12.4438
故某人溥及幽冥𡨚親平等	-12.4438
敲	-12.4439
謹集見前清衆	-12.4439
宿世以來七祖父母下及	-12.444
鶴駕臨軒與醮衆眞如儀朝禮朝禮旣周	-12.444
詞謹當宣奏宣詞按如詞㫖	-12.4442
剰	-12.4442
伏願應感分輝流光下降謹奉請	-12.4443
嶼	-12.4443
婿	-12.4444
芋	-12.4444
迴度人之仁符	-12.4445
鍜	-12.4445
羶	-12.4446
鼠	-12.4446
刀利禪猷	-12.4447
鄒	-12.4447
煨	-12.4447
腪	-12.4447
舫	-12.4447
臣衆等今故燒香歸身歸神歸命欽奉聖	-12.4447
媒	-12.4447
太華靈仙赤文告命無幽不	-12.4448
塵流浪三業紛紜上逆天文下違地理陽	-12.4448
依玉匱九幽明眞科品修	-12.4448
左右捧香驛龍騎吏侍香金童傳言	-12.4448
淡泊虚無安閑空寂澄清自居廣開法門	-12.4448
井鬼柳星張翼軫	-12.4448
人紀隂忤神明日積月深陽	-12.4448
生口語自作教他萬過千愆无邊无極因	-12.4448
巳得道過去及未得道見在福中	-12.4448
玉清道炁靈寳妙光下降流入	-12.4448
之至謹伸亞獻亞獻	-12.4449
元皇正炁來合我身功加一切天地咸	-12.4449
羨	-12.4449
渝	-12.4449
疐	-12.4449
郷神仙諸靈官今故燒香歸命懴	-12.445
懴主某歛心長跪諦聽經言一切衆生	-12.445
龍謡歌慶㑹散花太空神化	-12.4451
瑞露凝甘	-12.4451
弑	-12.4451
既嚴修奉盍罄懇祈以今奉爲	-12.4451
照對本司先據齋意	-12.4451
控愚衷臣誠惶誠恐稽首頓首	-12.4451
沽	-12.4451
譟	-12.4451
玄上開明元始監眞上帝五老赤書	-12.4452
謹奏爲入意其諸	-12.4452
河清海晏	-12.4452
畦	-12.4452
輙伸善頌仰賛神功	-12.4452
仐	-12.4452
偁	-12.4452
饋	-12.4452
塍	-12.4453
無極世界恒沙衆生	-12.4453
謦	-12.4453
倖	-12.4453
田疇水漲隴畒波飜苖	-12.4453
祇社稷城隍里域主宰興雲降雨走電驅	-12.4453
迨至今生齋戒不修綱常不守侮慢天地	-12.4453
煮	-12.4453
嘯歌邕邕	-12.4453
方考對之司徑詣	-12.4453
昌運欣逢慶基夙植	-12.4453
今有齋主某崇建十迴度人道場	-12.4453
訣憑受度之金科肅按經儀聿	-12.4453
上帝上清紫微碧玉宫太	-12.4453
世界一切玄司原赦宿愆誕敷仁澤勑下	-12.4453
麝	-12.4453
今奉爲入齋意以今陞壇設醮願得	-12.4453
學道得道求仙得仙齋官獲福幽顯	-12.4454
仞臺俯盻紫雲羅逍遥太上京相與坐蓮	-12.4454
以今落景陞壇行道請法衆等運兹	-12.4454
泰玄樞機三省諸相天君	-12.4454
控告因今修齋行道發露懴祈伏冀淵聽	-12.4454
背亂四時致使上天降災后	-12.4454
戞	-12.4454
回兹勝利昇度亡靈俓朝	-12.4454
覈	-12.4454
五方徘徊一丈之餘天眞皇人按筆乃書	-12.4454
悄	-12.4454
輕慢四大穢賤	-12.4454
必詣司存銓量無隱今有弟子某遵預	-12.4454
舉臣衆等宣懴宣表	-12.4454
曹仙官上元紫微宮	-12.4454
吏綉衣使者三炁正神急上關啓	-12.4454
寳無量度人上品妙經人各一過開度	-12.4454
怕	-12.4455
以演洞章次書靈符元始	-12.4455
太上玄元五靈老君	-12.4455
養靈根不復枯	-12.4455
俓登長樂大慈大悲尋聲救苦來无上尊	-12.4455
十迴度人道場依按經科頒宣符命告下	-12.4455
天文下逆地理陽干人紀隂忤神靈	-12.4455
恭俟恩榮所有眞符謹當宣告宣符	-12.4455
靈䰟上生福境謹具表奏聞者	-12.4455
鋩	-12.4455
悌	-12.4455
昕	-12.4455
令諸罪人自識宿命悔過	-12.4455
紋之繒一疋金龍一枚歸命	-12.4455
元始度人之訓嘯命飛天使者承領白簡	-12.4455
擘	-12.4456
啜	-12.4456
另	-12.4456
願得太上十方至眞道炁靈寳	-12.4456
𦕈	-12.4456
斗中天罡萬真節度奎光	-12.4456
請命奏金章罪名	-12.4456
澈	-12.4456
三光映照我身無衰䇿空駕浮舉形仙飛	-12.4456
德二願一切有生咸皆悟道三願九夜幽	-12.4456
日回靈神虎辟邪飛天流鈴摧	-12.4456
葩非色非香非空非假祥雲甘露綵霧	-12.4456
讟	-12.4456
丹元廉貞玉晨君北斗太常	-12.4456
人禄存玉晨君北斗遊擊	-12.4456
天關破軍玉晨君北斗玉帝	-12.4456
無極世界一切玄曹悉祈赦宥仍乞開度	-12.4456
玄壇土地方域神真	-12.4456
等謹率見前清衆	-12.4456
玄元始三炁太上道君太上老君召出臣	-12.4456
携髙仙子諸天散香花	-12.4456
无量度人上品妙經落滅夙今所犯	-12.4456
觴	-12.4457
仙主萬法宗師至道玄應神功妙濟眞君	-12.4457
玄曹愆書黒簡未經	-12.4457
靜念如法開經誦經經畢度人	-12.4457
蠕息天人獲慶年同劫	-12.4457
執籙把籍	-12.4457
浮黎法㑹之時不忘元始付祝之訓特遣	-12.4457
昌六願四時隨節推遷景	-12.4457
糟	-12.4457
大洞三景弟子无上三洞法師奉行	-12.4457
各一過專爲故三洞弟子某消除所犯	-12.4457
攝役鬼靈中山神呪普天使聞五靈安	-12.4457
誠謹啓以聞發念一念爲道四大合德	-12.4457
方多劫罪咎普及	-12.4457
戺	-12.4458
焚太乙注生錬䰟生	-12.4458
生世之日所行元惡	-12.4458
等今故燒香奉爲某乙修建靈寳解考妙	-12.4458
方幽爽靈識上登仙	-12.4458
鱗介羽毛	-12.4458
儀歩虚燒香頌各禮師存念如法衞靈	-12.4458
父母一切死魂惡對罪根三界司筭女青	-12.4458
隆庠序濟濟皇教恢	-12.4458
洿	-12.4458
潯	-12.4458
下五老監盟濟度群品瞬息	-12.4458
今以授子子其	-12.4458
映朗十方各安其位經緯直行保	-12.4458
閑寧廣濟一切惠逮有生保劫長存億	-12.4458
下告所司開度故三洞弟子某溥及	-12.4458
依按經科頒宣符命告下	-12.4458
上奉諸天尊帝中熏三界	-12.4458
無極飛天神王五天三界大魔王	-12.4458
如浮黎侍座之日不忘元始度人之言嘯	-12.4458
𩃱	-12.4459
此世他生常當信禮	-12.4459
銳	-12.4459
刧	-12.4459
情悃具載緘謄願得太上十方	-12.4459
瘨	-12.4459
浚	-12.4459
𤼵	-12.4459
敭	-12.4459
東極宫中大慈仁者	-12.4459
所有眞符謹當宣告宣符宣關飛空歩虚	-12.446
藜	-12.446
州都仙太史	-12.446
王稽首儔靈運長謝囂塵張	-12.446
鯤	-12.446
付與身中悉令備具	-12.446
都所有眞符謹當告下告符宣關焚簡頌	-12.446
陞壇行道燒香散花轉誦太上洞玄靈寳	-12.446
歲德尊神土地主執三界應感一切	-12.446
玉皇大天尊玄穹髙上帝斗中之尊天	-12.446
上帝太乙救苦天尊十方分身應化	-12.446
凄涼顧謀家	-12.446
普及幽㝠𡨚親平等爰從無始迨至有終	-12.446
肴	-12.446
楠	-12.446
宗祖亡人生前殁後故誤𡨚仇	-12.446
功散壇投龍奠簡滿散修設三界清醮一	-12.446
十方道寳當願衆生起心回向一切信禮	-12.4461
司眞君北斗九皇眞君二十八宿星君	-12.4461
靈下供神祇回資品	-12.4461
法衆等至心皈身皈神皈命	-12.4461
閲	-12.4461
命飛天使者承領	-12.4461
符命敬爲頒行庶得天衍祥禧地除災	-12.4461
讃彌劫保利貞	-12.4461
卉	-12.4461
洞元深萬巨秀葉翳翠霞停䕃清泠渚	-12.4462
清明重霄上合期慶雲際玉章散	-12.4462
扺	-12.4462
一如靈寶玄壇律令右牓曉諭各	-12.4462
恪冀眞慈特垂矜憫靈符昭告善頌敷陳	-12.4462
腿	-12.4462
香林㑹中法解眞人十華眞人普救眞人	-12.4462
奉行生身受度科法傳授金籙	-12.4462
遍成人功大聖慶元	-12.4462
居奉道弟子姓某本命某甲子	-12.4462
世界諸大地獄之中拔度䰟儀赦除考對	-12.4462
襯	-12.4462
進拜衆眞監度朱章入夜	-12.4462
之曹長夜㝠㝠無由解脫今依	-12.4462
𥹭	-12.4463
滌穢消氛萬魔恐怖龍虎飛	-12.4463
長靈明仙之炁	-12.4463
懴悔亡故某億劫循環宿縁輪轉前	-12.4463
隂宫凡下元生人運應滅度身經太隂期	-12.4463
帶明識生神章髙遊無終敗	-12.4463
薜	-12.4463
繄	-12.4463
孑	-12.4463
八難順經寥妙哉靈寳囿興此大法橋	-12.4463
无極世界五嶽四瀆神仙至眞	-12.4463
坼	-12.4463
司馬誦洞謡	-12.4464
睠	-12.4464
跪奏具位誠惶誠恐稽首頓首再拜奏啓	-12.4464
怙	-12.4464
某氏門中先逺宗祖齋主身後故誤𡨚仇	-12.4464
太皇元光皇帝君	-12.4464
應聲天帝靈化梵輔天帝髙虚清明天帝	-12.4464
儲福定命眞君九天	-12.4464
圯	-12.4464
藎	-12.4464
眺	-12.4464
洞空青靈宫	-12.4465
爲物範六念損巳布施道士及	-12.4465
五榖熟而人民育	-12.4465
天司命注上生名飛度南宫永	-12.4465
愓	-12.4465
術天帝波羅尼宻不驕樂天帝洞	-12.4465
楹	-12.4465
誠旋行讃詠歩虚	-12.4465
方救苦無上慈尊	-12.4466
錢二萬四千	-12.4466
太上唱清謡香	-12.4466
儲慶保德眞君九天遊奕	-12.4466
德得道之後長享自然	-12.4466
以昭玄貺干冐聖威	-12.4466
莫由解贖因今轉經行道懴悔首陳伏冀	-12.4466
詵	-12.4466
靈寳官屬領仙監齋	-12.4466
䄄	-12.4466
十方諸天大聖慈悲願力主盟經功伏願	-12.4466
亡故某普及幽明𡨚親平等積劫循環	-12.4466
方九幽長夜之府魂繫	-12.4467
啟	-12.4467
曄	-12.4467
皈命靈寳天尊修齋行道謝過祈恩	-12.4467
九老仙都君九炁丈人	-12.4467
生報對六根三業五欲七情隂過陽愆日	-12.4467
乃仰存七星使煥明於北方良乆	-12.4467
眞官正神急上關啓臣今奉爲入意以今	-12.4467
亶婁阿薈	-12.4468
奉修神呪行道轉神呪妙經首謝罪愆斷	-12.4468
度命籍太一輔精延泥	-12.4468
晹	-12.4468
天尊東北方度仙上聖	-12.4468
常享太平之運	-12.4469
東華木公上相青童道君	-12.4469
它	-12.4469
礬	-12.4469
臧	-12.4469
無上玄老太上洞淵三昧神呪三洞天	-12.4469
崿	-12.4469
年月日告下具位姓某奉行	-12.4469
正神急上關啓臣今奉爲齋意以今	-12.4469
寬	-12.4469
心肝脾肺腎	-12.4469
遅	-12.4469
冉	-12.447
切念齋主某天根顚倒地	-12.447
罣	-12.447
夲	-12.447
不負效信恩惟太上分别	-12.4471
敢司連宛屢天	-12.4471
蘊	-12.4471
事畢衆官復位	-12.4471
無量品至眞大神無鞅之衆浮空而至	-12.4471
胎炁生上元陵梵	-12.4471
楣	-12.4471
琚	-12.4472
誥命等級品	-12.4472
上品妙經人各一過爲齋主禳謝積犯	-12.4472
網五賊顚倒誰操欲海之舟六鑿搶攘孰	-12.4472
畨	-12.4472
臣適來引領官衆升壇轉	-12.4472
朦	-12.4472
舁	-12.4473
從官十四人符吏	-12.4473
迴開經文臣恭以	-12.4473
之神靈主執三界内外一切聖衆	-12.4473
薬	-12.4473
開度亡過某靈魂謹具表奏聞者臣伏以	-12.4473
𠒋	-12.4474
又祝曰願得除某七世以來下逮某身	-12.4474
色累苦心門	-12.4474
殼	-12.4476
解繫大將軍一人兵士十萬人來下上請	-12.4476
烱	-12.4477
稽首皈依䖍誠讃詠信禮無上玉虚天	-12.4477
中有南極長生之君中有度世司馬大神	-12.4477
噓	-12.4477
道敎靈驗記	-12.4478
羯	-12.4478
巋	-12.4478
一如靈寳無量度人律令	-12.4478
俓上供養无上至眞道寳天尊	-12.4479
煒	-12.4479
罰油五升	-12.448
誓者出家之後誓不	-12.448
瀘	-12.448
時陞壇儀第	-12.448
帝克誠事天以實望蘭缸而容與想芝炬	-12.448
某下情無任惶懼之至謹狀年月日	-12.4481
曺	-12.4481
俵	-12.4481
行諸綺言或於	-12.4481
柩	-12.4482
第六壘金剛鐵澤地	-12.4482
帝君化爲嬰兒始生之狀在	-12.4482
弟子某身及家口大小	-12.4483
做	-12.4484
府定罪㝠官酆都山	-12.4485
來到㑹中以用供養	-12.4486
赤松子章曆卷之	-12.4487
貪累苦形門	-12.4487
方無極飛天神王長生大聖皆來擁護	-12.4488
侖	-12.4489
煇	-12.4492
等歸命之誠謹啓以聞發願一願大道	-12.4494
天魔王制邪玉文	-12.4494
筒	-12.4506
時後天綱加鬼門	-12.4516
不揚天人歌唱吉應來翔敷教濟濟威化	-12.4523
鎭星四據家國利亨名刋玉簡	-12.4535
向來所啓之誠速	-12.4552
方碧落空歌至真大神	-12.4553
方無極玉音神王	-12.4561
場法事小兆臣某與臨壇官衆等	-12.4681
某上言今月某日爲奉齋法弟子某	-12.4697
寳通玄弘教水南先生林靈眞編	-12.4702
顯服冠帶垂纓關啓玄壇土地方域神眞	-12.4704
靈寳生身受度預修黄籙大齋	-12.4704
各三十六人出出者嚴裝	-12.4705
無形無名虚无自然金闕玉陛下	-12.4727
道正明宫殿整肅三景齊并道合自然飛	-12.4795
富才賢十一願	-12.483
流神光照夜隂翳俱收萬仙降格扇景乗	-12.4966
无極大道元始天尊太上大道君太上	-12.5079
肅三景齊并道合自然飛	-12.5203
表具位臣姓某上言今月某日爲	-12.5272
黿	-12.5517
九天金籙無量壽生神君	-12.5522
乞按靈寳科格然懴九獄神燈伏願	-12.5538
尊願垂大慈力拔度此亡魂出離	-12.554
萬劫受苦不捨晝夜	-12.554
政和二年五月准誥封	-12.5541
靈寳科格然㸃九獄神燈皈依清微應化	-12.5543
訂	-12.5543
獄徃生人天道不可思議功德	-12.5543
叡	-12.5543
願運威神下破	-12.5546
窨	-12.5546
量之章宻契靈寳嗣師之㫖衆真監度受	-12.5547
紜	-12.5547
大變神王六龍普變靈官溟涬大梵靈官	-12.5548
鷙	-12.5549
鸐	-12.5549
三界衆眞醮筵列聖適伸拜請諒	-12.555
各還神房便散香再拜次上勞	-12.5551
畢九叩頭搏頰	-12.5551
尿	-12.5552
款	-12.5553
曙	-12.5554
㠀	-12.5554
諜	-12.5554
水府扶桑丹林大帝	-12.5555
眞乗遵元始法訓修齋首過傳戒佩符	-12.5555
无上九幽玉匱明真普度无間黄籙大齋	-12.5555
圠	-12.5556
奉請當境主司虚空鑒察香官使者里域	-12.5556
以今午朝行道請法衆等運茲	-12.5556
侶	-12.5556
埴	-12.5556
蠆	-12.5556
鼈	-12.5556
茆	-12.5556
清衆歸依虔誠讃詠	-12.5557
紀善功俾離惡對百年運盡即得返形逕	-12.5557
長在光明魔無干犯一切神靈侍	-12.5557
十苦八難九厄之中	-12.5557
虚无大道九天元皇玉帝御前	-12.5557
威靈恭望應感分輝垂慈下降謹奉請	-12.5557
東極青玄救苦九龍符	-12.5558
颯	-12.5558
荊	-12.5558
靈山下告河海十二泉源九府水帝溟	-12.5558
佪	-12.5558
竣	-12.5558
䟦	-12.5558
拳拳有請切切無違某不勝䖍祝之至	-12.5558
㫁	-12.5558
志心稽首禮謝無上正眞三寳	-12.5558
符東方南方西方北方中央	-12.5559
鞫	-12.5559
㧞度大齋燒香行道懴謝某億劫以來至	-12.5559
今燒香行道咸乞蕩除伏冀	-12.5559
肘歩膝行	-12.556
鏧	-12.556
雲輿巳降鶴駕來臨齋事圓成還當奉送	-12.556
威制群魔普掃不祥急急如律令次至	-12.556
上南宫不經此獄謹懴	-12.556
宿罪重過得免離三惡	-12.556
酢	-12.556
老君十方无極大道道德衆聖	-12.556
篡	-12.556
鞍	-12.5561
仗良因之妙力消億劫之愆瑕免歷	-12.5561
桔	-12.5561
憍	-12.5561
正眞生炁下降流入	-12.5561
痁	-12.5562
五帝直符傳言奏事飛龍騎吏	-12.5562
今依明真玉匱女青	-12.5562
北方五炁玄天元始徘徊辰星	-12.5562
所啓速達逕御太上無極大道	-12.5562
不得拘留逼合鬼羣	-12.5562
獄五苦解悉歸太上經靜念稽首禮	-12.5562
方具位啓聖伏以	-12.5562
豢	-12.5562
主左府太陽火官	-12.5562
欲乞勑命關告	-12.5562
將伸受度盍罄懇	-12.5562
不捨晝夜謹當資薦願遂往生志心歸命	-12.5563
壇生身受度科法謹	-12.5563
歸依朝禮眞君求懴悔志心歸命禮	-12.5563
預修黄籙大齋㡬晝夜今宵滿散奉行第	-12.5563
由宿世功立德務及時發願莫不從善惡	-12.5563
今有青詞謹當宣奏宣詞按如詞	-12.5563
曕	-12.5563
籩	-12.5564
所犯四肢舉措動違戒律不依經典	-12.5564
毀訾眞靈怨暑咨寒呵風罵雨輕賤五	-12.5564
設三界髙眞清醮	-12.5564
薇	-12.5564
仰祈天澤克證徃生本司職惟領	-12.5564
始符命金籙白簡長生靈符告下南方丹	-12.5564
雷即俾膏雨應時旱魃退	-12.5564
願得元皇正炁來合	-12.5564
嚏	-12.5564
凊	-12.5564
交㑹在此香火鑪前	-12.5564
禠	-12.5564
公仙侯仙卿仙伯玉童玉女飛天典禁翊	-12.5564
特爲係薦亡靈落滅夙劫以來上犯	-12.5565
芳胤祚衍慶家庭得道之後升入	-12.5565
郷神仙諸靈官長跪䖍誠懴謝	-12.5565
命駕御九龍金華擎洞經捧香	-12.5565
懹	-12.5565
攫	-12.5565
積學爲眞人恬然榮衞和永享無期	-12.5565
依凖本司日前	-12.5565
保固劫運世祚和平普加潤惠澤	-12.5565
誠謹啓以聞發願一念爲道四大合	-12.5565
百年運盡依光俓陟於南丹	-12.5565
皆五億五萬五千五百五十五億五萬重	-12.5565
超死蔕克返天根恭惟	-12.5565
亡過某原赦宿生今世一切𡨚愆部衞	-12.5565
碽	-12.5566
亾	-12.5566
送修齋事畢仰荷玄恩志心稽首奉送	-12.5566
香至靈濟宫遍九天	-12.5566
恭望天慈允兹奏請	-12.5566
伏望慈悲俯垂洞鑒以今奉爲齋主某崇	-12.5566
眞戒受持之後獲	-12.5566
三清上聖七御玄尊	-12.5566
度人上品妙經期輅洪恩曲符丹禱臣等	-12.5566
上三天執法開化隂陽功曹	-12.5566
净	-12.5567
五帝考官九幽地獄巨天力士執罰神兵	-12.5567
桀	-12.5567
滿散修設謝恩清醮三百六十分位	-12.5567
分輝應感下映靈旛隨風飛揚直向	-12.5567
以今恭按典式頒行玉清度厄玉簡告下	-12.5567
徳得道之後長享自然	-12.5567
賢聖日生三念法師功德大建教化明	-12.5567
寳瓊臺紫微上宮靈寳至眞明皇道君	-12.5567
剋獲上仙白日登天拜見太上永成	-12.5567
北極武曲玉晨君北斗上帝	-12.5567
土地里域真官正神急上關啓臣今奉爲	-12.5567
捏	-12.5567
和常居十二樓急宣靈寳㫖自在天堂遊	-12.5567
四大興靈慶及王侯七祖生天堂煌煌	-12.5567
玫	-12.5567
喨	-12.5567
原赦夙愆出離苦趣欲望慈觀有造淵	-12.5567
恐謀家營宅舊葺新修觸犯住宅離方太	-12.5567
慶斗極流恩赦其既徃之愆錫以方來之	-12.5567
的煞劫煞伏吟返吟六害三刑四衝二刃	-12.5567
禳謝易致災危其或身命加臨運限守照	-12.5567
玉京金闕七寶瓊臺紫微上宫	-12.5568
上明天尊廣濟之澤下副	-12.5568
五福天膺三壽神錫子孫榮顯眷屬和	-12.5568
合契虚皇開明童子號曰華	-12.5568
太隂黄旛豹尾三符七煞五鬼九良	-12.5568
无量天尊仰惟三寳髙尊十華上聖	-12.5568
年如干歳某月生	-12.5568
道由丹信奉師如至親	-12.5568
之樂郷仰冀隆慈俯	-12.5568
髙上玉皇昊天上帝三寳	-12.5568
特降聖㫖依準今來預修黄籙事理	-12.5568
方无極世界一切玄司陽罪隂愆悉令	-12.5568
刑定命撞命或生災難不自覺知以今陞	-12.5568
沾恩十方仙童玉女侍衛香烟傳	-12.5568
出堂頌回靜黙謝師	-12.5568
普及六道四生孤魂滯魄諸𩔖傷	-12.5568
裒	-12.5568
奉戒頌道爲無心宗一切作福田立功	-12.5568
德大建教化明達俱獲飛仙	-12.5568
無停今日大慶欣喜蒙恩諸天懽恱	-12.5568
煥爛光耀太微黒靈尊神	-12.5568
髙上玉皇尊帝太微玉帝北極玄卿大帝	-12.5568
太上黄籙齋儀卷之十	-12.5569
三清至尊十方上聖玉京金闕天帝天	-12.5569
削除罪録開度窮魂身入光明上	-12.5569
撃	-12.5569
夔	-12.5569
天尊東南方好生度命天尊西南方太靈	-12.5569
消北府生籍注南昌見存皆快樂	-12.5569
摺	-12.5569
君赤帝養炁君黒帝通血君黄帝中主君	-12.5569
六之常未臻玄妙徒陟鴛班而綴武曷敡	-12.5569
專爲齋主原赦宿生今世	-12.5569
䛕	-12.557
衿靡不邁玉條流逸響從容虚妙話	-12.557
皡	-12.557
赤書玉字八威龍文保制劫運使天長存	-12.557
蒙如丹禱允荷玄恩	-12.557
以今陞入經座異口同音	-12.557
望眞慈俯垂鍳映以今奉爲齋主某崇建	-12.557
知悉太歲年月日具法位主行齋事姓押	-12.557
等向來奉爲齋主某轉誦度人妙經禳謝	-12.557
凡有謀猷悉彰善慶得道之後升入無形	-12.557
十方仙童玉女侍衞蘭烟傳臣向來所啓	-12.557
願垂慈造俯錫隆恩頒	-12.557
無窮普加施泄	-12.557
舌拄上腭	-12.557
一切罪厄仰希矜軫俯賜允俞	-12.557
梵行道德隨日新宿命積福	-12.557
之眞符降元皇之正炁即俾弟子某	-12.5571
敢皈神於璇極爰請命於	-12.5571
暗得覩光明萬罪蕩除𡨚仇和釋上	-12.5571
肘行膝歩	-12.5571
攙	-12.5571
䧺	-12.5571
上清日宫太陽帝君上清木火	-12.5571
複	-12.5571
普及含靈均沾利	-12.5571
混合空洞炁飛爽浮幽寥延康無期劫	-12.5571
艷	-12.5571
芝英百靈衆眞交㑹在此	-12.5571
謹率在壇清衆持誦太上玄靈北斗本命	-12.5571
昜	-12.5571
無英公子白元尊神	-12.5571
從劫至劫三業六根構造諸罪殺生偷盗	-12.5571
蜕	-12.5571
西山許眞君八十五化録	-12.5571
附我旛賜汝靈書歸上清急急如太	-12.5571
南方三炁丹天煥景流光熒星轉燭洞	-12.5571
焚本天眞炁符	-12.5571
煙騰空俓上供養无上至眞師寳天尊	-12.5571
早得更生福慶之門某甲身得道眞	-12.5571
毀瘁苦毒難任長淪萬劫	-12.5571
鎮家國無有災傷四海	-12.5572
上朱煙洞照天下及臣等身百邪摧落	-12.5572
敢祈吿命於靈司是用頒符於曲府匪	-12.5572
進拜啓告玄穹朱章至某日行自然朝	-12.5572
頒符告札進拜超度祖玄解	-12.5572
槃	-12.5572
奉行玄靈璇璣妙齋法事小兆	-12.5572
巵神燈布帝眞	-12.5572
汩	-12.5572
出戸太上黃籙齋儀卷之	-12.5572
衆等至心皈身皈神皈命慈尊投誠上聖	-12.5572
修行經法敷座賛題經誦經畢解座賛臣	-12.5572
鶯	-12.5572
名山洞府靖廬福地	-12.5572
方無極世界得道天尊仙眞聖品無	-12.5572
次九朝行道六上轉經某日進拜不經地	-12.5572
錬靈官某壇牒上	-12.5572
此皆元始慈悲之大造實由天尊	-12.5572
閼	-12.5572
況奉詞旨敢不上聞	-12.5573
至某日開啓齋壇入夜宿啓告齋關燈	-12.5573
謚	-12.5573
翩	-12.5573
受持佩奉永作津梁至某日	-12.5573
莊嚴无極之國應號天尊	-12.5573
萎	-12.5573
朝奏次序品	-12.5573
椎	-12.5573
霔	-12.5573
仗此善功回度	-12.5573
入齋意以今清旦陞壇	-12.5573
㝷飛龍躑躅	-12.5573
護度之深恩所	-12.5574
膩	-12.5574
上都太清宫内供奉應制文章大	-12.5574
備申三官大帝東嶽酆都水府外	-12.5574
苐	-12.5574
三寳中供眞靈回施三塗旁資庶	-12.5574
以今稽顙投誠擎拳皈命	-12.5574
聞者右謹具狀上申	-12.5574
存神焼香香官使者左右	-12.5574
蛭	-12.5574
𡩋	-12.5574
囓	-12.5574
太上洞玄靈寳九天自然生神章經	-12.5574
拌	-12.5574
今欽奉綸音崇修玉籙	-12.5575
衆諷經畢解座吟侍經囘向仰惟三境	-12.5575
誠十極生死重過並乞蕩除伏冀	-12.5575
釋𡨚債朱章入夜修設玄	-12.5575
倡	-12.5575
俯囘慈造同賜證盟臣等諷誦寳章巳周	-12.5575
名於遁甲今有	-12.5575
宣䟽移班第	-12.5575
郷救苦眞人童子无鞅眞衆恭望聖慈俯	-12.5575
㝠保固劫運世祚和平普加潤澤惠	-12.5575
九天採訪應元保運	-12.5575
如斯罪咎無量無邊今對道前䖍心	-12.5575
曁六道四生無邊幽爽均行	-12.5575
咤	-12.5575
窓	-12.5575
不捨慈悲俯運威神爲開	-12.5575
廨	-12.5575
玄景曜雲衢跡超神方外應感無方圓	-12.5576
髙仙洞笈之炁	-12.5576
至心朝禮十方化號太一救苦天尊	-12.5576
請稱法位具位奉行黄籙大齋法事小兆	-12.5576
辭北府不經輪轉衣食自然	-12.5576
本司據齋意職惟領	-12.5576
黷	-12.5576
終左命青腰右攝芝童逍遥	-12.5576
攝速至風火無停伺候天恩普受開度宣	-12.5576
濟我六度行故能	-12.5576
積愆未伸懴悔或	-12.5576
皈依䖍誠讃詠信禮髙上紫微垣北斗	-12.5576
五嶽眞君名山洞府得道神仙諸靈官	-12.5576
衾	-12.5576
九獄神燈頒宣青玄眞符依科破獄開度	-12.5577
朞	-12.5577
玉符寳節嘯命微幽擲火揚威	-12.5577
疾赴玄壇恭領符命隨我神運催召	-12.5577
芝英百靈衆眞交㑹在此香火鑪前當願	-12.5577
上聖矜憐列眞開宥告下	-12.5577
擢百關備仙解除死籍宴坐泥丸東華	-12.5577
瑰	-12.5577
溶	-12.5577
重念亡過某靈䰟爰從生育乃至淪亡	-12.5577
隨風散玉音成紫霄五苦一時迸	-12.5577
佯	-12.5577
方淨土聞經聽法面對天尊衣食自然逍	-12.5577
崇建九天自然生神妙齋	-12.5577
組	-12.5578
謹牒太歲年月日牒具法師衘位姓押	-12.5578
魄命元碭尸㝠演由之	-12.5578
徑上供養至眞無上師寳五靈玄老	-12.5578
國佑民洪恩眞君靈濟宫中神仙諸靈	-12.5578
丸敷帝席三部八景分魂生攝	-12.5579
博濟髙明弘靜冲湛妙應仁惠	-12.5579
邸	-12.5579
大帝中元二品赦罪地官	-12.5579
匿景藏光中元内妃	-12.5579
躓	-12.5579
西方素天白帝七門金靈	-12.5579
液芝顔玄虚素合心動三關騎	-12.5579
開經玄藴呪	-12.5579
帝眞始明精號曰字元陽	-12.5579
謹率在壇清衆	-12.5579
亦有五億五萬五千五百五十五億五萬	-12.5579
澇	-12.5579
虗	-12.5579
從官十三人符吏天	-12.5579
棠	-12.558
窮萬神咸聽三界五帝列言上清	-12.558
无思江由天	-12.558
消厄難獲迓禎祥恭惟	-12.558
玄隂七靈九炁合形	-12.558
若人臨終之日願生彼國當	-12.5581
污	-12.5581
旁資苦爽均證生方今者誦詠寳章巳周	-12.5581
𣺌	-12.5581
以今欽奉綸音崇修玉籙昇薦某靈	-12.5581
瀰	-12.5581
玖	-12.5581
磧	-12.5581
禪善導靈炁玄哺飛天芳華景秀玉質精	-12.5581
爾時元始天尊爲普救眞人演說	-12.5581
梭	-12.5581
翠玉尊明梵飛玄景開度長夜魂	-12.5581
查	-12.5582
無思江由天	-12.5582
稽首皈依䖍誠讃詠信禮無上太虚天	-12.5582
酋	-12.5582
晞	-12.5582
嶷	-12.5582
蕩孰還本始以生神萬竅淪迷誰固根源	-12.5582
玉清上相大羅无極神公	-12.5583
涇	-12.5583
僵	-12.5583
三禮訖懴臣某等謹爲某家	-12.5583
毐	-12.5583
龎	-12.5583
備香花燈燭之儀布宫卦方隅之象皈命	-12.5583
𦤀	-12.5583
貔	-12.5583
牕	-12.5584
媱	-12.5584
左右中三府主隂陽水火生死罪録官	-12.5584
星中大聖眞人玉女星宫神仙	-12.5584
罡風騎置吏	-12.5584
覘	-12.5585
執簡當心平坐如法	-12.5585
道化眞君中元護正眞君下元定志眞君	-12.5585
位今有齋主某克練時日爰作室家慮犯	-12.5585
第五壘金粟澤地	-12.5585
壟	-12.5585
癭	-12.5586
殽	-12.5586
魂神澄正萬炁長存不經苦惱身有光明	-12.5587
嶤	-12.5588
誠惶誠恐稽首載拜	-12.5589
九州都仙太史髙明大使	-12.5589
察命童子護戒威神五帝直符六宫掾吏	-12.5589
哂	-12.5589
澳	-12.559
擲火萬里流鈴八衝	-12.559
嶽聖帝酆都大帝扶桒大帝	-12.559
闚	-12.559
凡勤拳而皈命必激越以馳	-12.559
疾赴玄壇向來召集幽魂有	-12.559
監度注上生名玄壇表文謹當宣奏宣表	-12.5591
寸四分厚二分	-12.5592
摭	-12.5592
脈	-12.5593
舞鳯金翅朱鳥	-12.5593
柬	-12.5593
御萬眞元皇誥下幽夜開光罪	-12.5593
沱	-12.5593
無結固無情	-12.5594
獺	-12.5595
醪	-12.5597
舌柱上腭	-12.5599
急急如元始無量度人律令	-12.5599
缶	-12.56
都天大法主印	-12.5601
書符時存本天	-12.5602
禇	-12.5603
門門有四光芒爓照九億萬里中上有	-12.5603
仍誦本天章	-12.5608
套	-12.5608
辠	-12.5609
頤	-12.561
愛累苦神門	-12.5611
籃	-12.5612
天君將諸眷屬無量國人來到㑹中住其	-12.5613
修飛歩之道當思夫人姓諱形像	-12.5623
鍪	-12.5624
卯巳未酉亥丑	-12.5648
初捻上香願此香烟騰空俓上供養	-12.5695
太上老君髙上玉皇十方巳得道大聖衆	-12.5735
臣姓某上言今月某日爲弟子某崇建	-12.591
之界某不勝虔祝	-12.5917
皇大天尊玄穹髙上帝北極紫微大帝	-12.5956
中分行道請法衆等運	-12.5962
方无極太上靈寳天尊志心皈命禮	-12.6043
黄旗無英命靈旛攝召長夜府開度受生	-12.6132
某月日時生行年若干歳伏念	-12.6137
持戒制六情念道遣所欲澹泊正氣停	-12.6281
誠謹啓以聞發願一願大道淡泊虚	-12.6317
沾恩十方仙童玉女侍衞香煙傳臣	-12.6444
故致標髙擬歡樂太上前萬劫猶未始	-12.6461
右府主死太隂水官	-12.648
東華南極西靈北眞玄都玉京金闕七	-12.6538
結空峙玄霄諸天挹流芳其妙難思議	-12.6635
等歸身歸命首體投地仰依	-12.6746
甿	-12.6772
揲	-12.6786
藿	-12.6791
䜛	-12.6793
睨	-12.6795
跌	-12.6796
麞	-12.6797
鳧	-12.6797
斸	-12.6799
薊	-12.6799
前代今生至于累劫上犯	-12.6801
㡬晝夜開度亡過某靈䰟以今奉行靈寳	-12.6801
茱	-12.6802
願回慈造監真度生勑命	-12.6802
眞戒宣告亡靈第	-12.6802
蕉	-12.6802
螢	-12.6802
神力護持神光照耀伏願	-12.6802
㽔	-12.6803
生天逍遥快樂弟子再拜	-12.6803
不知動入罪網不能自覺	-12.6803
見前清衆請爲讃揚	-12.6804
夤	-12.6804
㵼	-12.6804
桶	-12.6804
佺	-12.6804
伏願應感分輝垂慈下降謹奉請	-12.6804
泠大神今日上告萬願開陳	-12.6805
不可稱量三者含忍	-12.6805
燠	-12.6806
眞法帝君太一五神	-12.6806
以今解壇散齋者	-12.6807
所冝稽首肅恭凝神叩謝更憑法衆讃	-12.6807
誤紹玄宗濫承宏化科崇存念莫神運於	-12.6807
彜	-12.6807
故榜年月日榜具法位姓押	-12.6807
皆元始慈悲之大造實由天尊開度之深	-12.6808
領對揚之首職懼貽校録之深文仰	-12.6808
㧞度某億劫罪根三界司算女青	-12.6808
趂	-12.6808
跽	-12.6808
珞	-12.6808
壇受事香官使者左右龍虎君虚空下降	-12.6808
任激切感戴之至謹奉表陳謝以聞	-12.6809
正月十五日七月十五日十月十五日	-12.6809
纸	-12.6809
元九幽玉匱長夜之函宿世罪根	-12.6809
怯	-12.6809
眞香普同供養恭望洪慈俯垂省録臣	-12.681
意持戒終身奉行是吾太上太上太一第	-12.681
真之德得道之後昇入無形和與道合真	-12.681
堙	-12.681
穌	-12.681
缾	-12.681
眼前見過目即言悠大賢明道	-12.681
男官法身女官法身	-12.681
髫	-12.6811
願回淵聽曲賜海涵	-12.6811
曷副䖍祈恭惟	-12.6811
詬	-12.6811
寇	-12.6811
右府太隂水官中府風刀之考	-12.6811
上上禪善无量壽	-12.6811
上祝皇帝陛下恭願	-12.6811
饕	-12.6811
繢	-12.6812
穪	-12.6812
䓁	-12.6812
楨	-12.6812
丹文天地本始總領三	-12.6812
削除罪録開度幽關身入光明上昇天堂	-12.6812
耦	-12.6812
願此香煙騰空俓上供養无上至眞經寳	-12.6812
惟願眞光下映混合華旛隨風飛揚直向	-12.6812
兜術開大有一慶享祚多上聖	-12.6813
鷰	-12.6813
烟騰空徑上供養混元大聖自然	-12.6813
秧	-12.6813
茵	-12.6813
修齋事皈命地府第	-12.6813
無由解脫因今修齋行道燒香散花皈命	-12.6813
揄	-12.6814
聽無私一如浮黎侍坐之時	-12.6814
始皇青天碧霞鬱壘中有老人總校圖	-12.6814
綱常不守故爲誤犯口語心生陽造隂謀	-12.6814
文施行母或違滯一如靈寶度人律令	-12.6814
禰	-12.6814
學道修真伏願遂成度符	-12.6814
戚憫頑夫依依念子苦勤勤令我憂	-12.6814
三台華蓋星君斗中玄曹道德	-12.6814
宣狀弟子拜退天尊號引至第	-12.6814
雲輿弗駐鶴駕難留仰望雲霄不勝攀戀	-12.6814
徉	-12.6815
内外成眞天無氛穢地絶妖塵琳琅	-12.6815
願神願仙長生度世飛行上清五	-12.6815
懴悔亡故某人浩劫以來死生相續	-12.6815
永契虚無不經輪轉垂	-12.6815
太極左仙公葛玄纂集	-12.6815
烝	-12.6815
行元始符命金籙白簡救苦眞符	-12.6815
所薦亡魂姓名生死年月	-12.6815
恭假香傳奉修齋直以今	-12.6815
昭回仁恩孚佑特頒勑命遍告	-12.6815
等今故燒香擎拳皈命	-12.6815
號曰層威統冠飛天仙裙羽衣備	-12.6815
幟	-12.6815
斵	-12.6816
謝恩清醮法事小兆	-12.6816
願普救亡魂永出三塗苦志心皈命禮	-12.6816
㬰	-12.6816
㬌	-12.6816
師寳當願衆生普上法橋無有障礙	-12.6816
烕	-12.6816
蕭然靈風起宿願定命根	-12.6816
髙上玉皇尊帝君太微玉帝玄卿大帝君	-12.6816
流年臨犯一切星宰願降天光俾知	-12.6816
道君太上老君无上玄元緫監衆靈日	-12.6816
鬛	-12.6816
曈	-12.6816
乞丐原赦所行罪負上觸	-12.6816
有齋主某崇建某齋然㸃九幽神燈上照	-12.6816
禮方方懴啓神王某上啓	-12.6816
無量無邊今日䖍誠咸乞懴悔次復回向	-12.6816
初捻上香願此香烟騰空徑上供養	-12.6816
奉庶消人厄永戴生全	-12.6816
恭望聖慈允兹申請特降聖旨遍下	-12.6816
請福保命延生謹具表奏聞者臣伏以仰	-12.6816
邳	-12.6817
瓊房有妙韻汎登髙神所	-12.6817
賝	-12.6817
乗飈散景飛騰太空出入	-12.6817
罐	-12.6817
卻	-12.6817
和九遍諸天朝稽首恭劫年慶此榮舊苗	-12.6817
終天無解今依盟眞玉匱女青	-12.6817
鎭安睦兵革不揚天人歌唱吉應來翔敷	-12.6817
亡並與解考除愆齊赴齋壇俱	-12.6817
平坐讃舉經題誦經玄靈感應天尊	-12.6817
福慶俱服正教同歸自然得道之後與	-12.6817
老上眞玄中大法師三天大聖師五帝四	-12.6817
青童大道君紫微元靈青金	-12.6817
消除多劫以來故作誤爲宿罪重過上犯	-12.6817
鎮國祚保天無終	-12.6817
鰥寡孤獨	-12.6817
睟	-12.6817
五星虚映煥景神庭包羅	-12.6817
祉精神茂恱歩武康	-12.6817
鑒映克副傾投臣向來祗率清衆	-12.6817
㤗	-12.6818
福天尊西方太妙至極天尊北方玄上玉	-12.6818
三天化主玄中大法師靜老天尊	-12.6818
妣	-12.6818
𥞫	-12.6818
世界一切玄司陽罪隂愆悉令消蕩離	-12.6818
衆災度脱壽命延長	-12.6818
娯	-12.6818
奔紫雲交覆萬炁齊并	-12.6818
膊	-12.6819
熛	-12.6819
大願有重報玄德必	-12.6819
〇	-12.6819
同流神光照夜隂翳俱收萬	-12.6819
國隆盛宗廟有人世生賢才十念尊受	-12.6819
清蕩人各一過咸巳周圓伏願	-12.6819
飛天神王九天眞衆三界應感一切眞靈	-12.6819
靈寶玄一經籍度師侍經五帝玉童玉女	-12.6819
㕘	-12.6819
四司五帝三界官屬一切尊靈	-12.6819
璉	-12.6819
道君太上老君東極青玄老君運明保元	-12.6819
掬	-12.6819
𤔵	-12.6819
石十一願帝王國主日昌四	-12.6819
聖威下情無任懇禱之至法衆䖍誠謹	-12.6819
告行符命依按河圖九宫所𨽻乞爲削落	-12.6819
幽爽例與召集候玄壇修設淨供之夕來	-12.6819
徑上供養玉晨至聖自然靈寳大道天尊	-12.682
㬢	-12.682
雲笈七籖云龍漢元年化生	-12.682
向來祗率法衆奉爲齋主某解禳	-12.682
上品妙經人各一過特爲齋主某禳謝	-12.682
牒請上遵玄律下副齋誠俾亡過某錬	-12.682
諸天星宿璇璣玉衡周天二十八宿	-12.682
絆	-12.6821
𡊮	-12.6821
某月某日某時生行年若干歳伏念	-12.6821
南辰六闕上眞道君北極九府上眞道君	-12.6821
卿備衛我軒上對帝君收魔束妖討捕	-12.6821
鞅數衆一切敬禮遍悉歸依證明懴悔即	-12.6821
蝶	-12.6821
衍慶於方來擬㳙	-12.6821
四夷賔伏祅惡自滅	-12.6821
躐	-12.6821
上謝天恩集此殊勲緫祈利益除	-12.6821
乞於齋次升壇行道轉誦太上洞玄靈寶	-12.6821
但當存思念誦聖號	-12.6821
帝眞元府命元髙仙洞笈之炁	-12.6821
鎮星四據家國利亨名刋玉簡字録帝房	-12.6821
虚明皇天尊下方眞皇洞神天尊	-12.6822
九重爲所度幽靈纏其	-12.6822
洞玄靈寳河圖仰謝三十六土皇齋儀卷	-12.6822
鍋	-12.6822
鎬	-12.6822
煤	-12.6822
聒	-12.6822
令驛庭丞四部監功謁者	-12.6822
天赤帝玉堂中有大神號曰赤皇上炎流	-12.6822
世界一切玄司人各一過咸巳周圎伏願	-12.6822
誼	-12.6823
誚	-12.6823
永享無終紀豈知年劫多	-12.6823
故某上登碧落仰憑清衆同爲讃揚仰啓	-12.6823
邅雲上九都飛生自騫那育郁馥	-12.6823
伸奉請請聖散花陞座演第	-12.6823
下降玄壇檢魔蕩穢急急如律令噀水次	-12.6823
凡有急難盍先禱祝以今奉爲齋主某解	-12.6823
天逺醮壇香氣多玄恩覃宇宙	-12.6823
登天拜見太上永成眞人雲車羽駕	-12.6823
方上香旋行復位	-12.6823
老輔根萬帝攝眞體圓珠映	-12.6823
即使玄壇清淨内外成真天	-12.6823
聖道蕩蕩十方肅清保制劫運元亨利貞	-12.6823
牒候到請詳前項事理	-12.6823
炒	-12.6823
䘖	-12.6823
備守五門檢精捕非敢有干試豁落斬摧	-12.6824
皓靈皇老白帝七炁天君	-12.6824
沍	-12.6824
各九萬重髙上洞清紫虚空洞自然	-12.6824
御玉樓之邃執	-12.6824
慿洪造難格玄恩伏望緑輦丹轝	-12.6824
日奚計年劫多法	-12.6824
數安可稱浮爽縁故條返胎自有	-12.6824
兜術抗大羅靈化四景分萬條翠朱霞	-12.6824
㳂	-12.6825
哦	-12.6825
周流神光照夜隂翳俱收萬	-12.6825
爲道弘之在兆心	-12.6825
聖母慶萬年三界並歡樂稽首禮天尊	-12.6825
余家自然生七寳人人坐蓮	-12.6825
志心懴悔奉爲亡靈懴悔	-12.6825
帝眞藏府命元五仙中靈之炁	-12.6825
九轉自成仙琅琅九天音玉章生萬神三	-12.6825
恭願頒行符命拯濟亡䰟地獄無苦聲	-12.6826
魔神公攝遊炁飄飄練素華	-12.6826
眞王長生大帝東極青玄上帝后土皇地	-12.6826
志心皈依十方道寳當願衆生起心	-12.6826
驥	-12.6826
豔	-12.6826
餧	-12.6826
三官九署百二十曹宿世罪根咸與落滅	-12.6826
過仰憑經法昇薦某靈進登	-12.6826
𣻌	-12.6826
𡪹	-12.6827
賄	-12.6827
眞大道无上元尊金闕玉陛下	-12.6827
諼	-12.6827
愫	-12.6827
粳	-12.6827
黃帝中主萬神無越	-12.6828
曼	-12.6828
鰥	-12.6828
功曹冠九德通天之冠衣	-12.6828
旣竟重爲演說	-12.6828
禮方懴方三啓樂法以爲妻愛經如珠	-12.6828
幽遐一入大乗路孰計年劫多不生亦不	-12.6828
具有䟽文謹當宣吿宣䟽謹請	-12.6828
蹙	-12.6828
誷	-12.6828
極神郷普受開度上生天堂和與道合眞	-12.6829
修預以同學普得昇虚與天相保長存	-12.6829
出者嚴裝顯服冠帶垂纓整其威儀	-12.6829
上言今月某日奉爲弟子某崇建十回度	-12.6829
金石保子飛玄路五靈度符籍	-12.6829
符使速出班次祗受公文宣關焚化	-12.6829
詞意奏申牒劄	-12.6829
建齋弟子家億曽萬祖歷劫種親	-12.683
回向一切信禮志心皈依十方經寳當願	-12.683
吟諷經畢解座吟回向臣恭以	-12.683
方恭文宣表關焚化宣	-12.683
嘔	-12.6831
中央玉寳元靈元老	-12.6831
禮道禮經禮師	-12.6831
拏	-12.6831
從官十五人符吏天	-12.6831
府主生死罪録官上元太極右	-12.6831
滸	-12.6831
重和元年徽宗皇帝賜	-12.6832
太上洞玄靈寳長生度命無上黄籙	-12.6832
奏三天門下省泰玄樞機	-12.6832
肓	-12.6832
泰殺諒事宗天	-12.6832
齋主七世父母免墮憂苦上	-12.6833
氳	-12.6834
硝	-12.6834
褰	-12.6834
槎	-12.6834
三者不殺慈救衆生四者不	-12.6834
北酆都右羅酆宫	-12.6834
澮	-12.6834
笛	-12.6834
太上玄虚宗弘道尊其經俯仰	-12.6834
帝眞魂命元長靈明仙之炁	-12.6835
今日告命萬神咸聽請以金	-12.6835
秫	-12.6835
方應號天尊長跪懴悔免恒沙罪障獲	-12.6835
曷提奬於幽靈九拜陳情一忱請命恭惟	-12.6835
䢫	-12.6836
始陽上眞青皇道君	-12.6836
揩	-12.6836
本𣲖祖師本𣲖度師	-12.6836
維而布政尊	-12.6836
贊	-12.6837
𦈢	-12.6837
相天君天機上相天君天	-12.6837
逄	-12.6837
慈大悲普濟眞人以業報因縁請問太上	-12.6839
魂精祕音内諱玉佩開明上符	-12.6839
皺	-12.6839
太隂皇君上清紫炁月孛羅	-12.684
龐	-12.684
並仰具狀經本院投押	-12.684
擿	-12.684
之衆願乗符命隨我神運速爲拯濟俾	-12.684
此得靈寳淨明飛仙度人之	-12.684
隄	-12.6842
窘	-12.6843
喗	-12.6843
飆	-12.6843
九天生神天尊焚火鍊第	-12.6844
幀	-12.6845
搦	-12.6845
盼	-12.6845
收神食神吏收鬼食鬼吏收	-12.6846
帽	-12.6847
一如無量度人之章宻契靈寳嗣師之	-12.6847
炅	-12.6848
覿	-12.6849
㗶	-12.6849
洞玄靈寳自然九天生神章經解義卷之	-12.6849
閔	-12.6849
九天生神天尊焚水鍊第	-12.6849
屣	-12.685
𠖇	-12.685
大運將期數終甲申	-12.6851
惔	-12.6852
攴	-12.6853
帬	-12.6855
𩲓	-12.6856
𡨕	-12.6862
㪚	-12.6867
進右足幷通氣	-12.6869
癖	-12.6869
上三尊願以是功徳上祝皇帝陛下伏願	-12.6872
冠執圭光景燁然真人跪奏乞	-12.6877
○	-12.688
録帝房乗飈散景飛騰太空	-12.6913
出堂頌靈寶領敎濟度金書卷之一百	-12.7147
府主死太隂水官上元	-12.7162
等懴謝之誠謹啓以聞發	-12.7562
▁師尊大聖衆至眞之	-12.7573
咸蒙安全普得生成皆見元氣受陽之形	-12.7581
德二願一切有生咸皆悟道三願九夜悲	-12.77
衛我身形斷絶邪源王道正明宫殿整	-12.777
花積學爲眞人恬然榮衛和永享	-12.779
奉行七曜大齋法事小兆臣某與臨壇	-12.7914
遵奉即與亡過某原赦罪愆蠲除考對候	-12.7963
光明上昇天堂衣食自然某身得道眞和	-12.8002
發爐无上三天玄元始三炁太上	-12.8075
興生獨𨽻可韓功都聚魂	-12.8109
文取巽炁布入主管追攝	-12.8153
苕	-12.8207
匕	-12.8216
𦕅	-12.8217
百二十考吏一千二百考兵	-12.8219
法師行持如前儀呪曰	-12.822
刦	-12.8225
關發宣符奏本壇恭奉道㫖關白	-12.8225
靚	-12.8225
之曹僚主執三界内外一切眞靈	-12.8227
仙班共祗迎於帝馭降九位鸞輿至止	-12.8228
也道言吾嘗歷觀諸天出遊	-12.8228
竸	-12.8228
凰騎上章雲龍騎言章風	-12.8228
紫微右典者少微都録靈寳淨明院	-12.823
十方飛天使者傳言奏事飛龍騎吏	-12.823
風之所被各從其方	-12.823
齋法恭依次第宣演眞科	-12.823
曀	-12.8231
身得道眞飛行虚空白日升天	-12.8232
瀏	-12.8232
沐光臨請各整於	-12.8232
夬	-12.8233
芷	-12.8233
慜	-12.8233
謹召守䧺抱雌大將引領亡故某人	-12.8233
諤	-12.8233
司察右演教使傅飛卿	-12.8233
件狀如前謹百拜上奏三天門下	-12.8234
領生丹書赤文元始上精普告天下	-12.8234
清旦爲始正齋行道三日九朝某日夜普	-12.8234
今有齋主某依按科格然懴神燈請降	-12.8234
嚇	-12.8234
元始五老上帝髙尊十方至眞	-12.8235
哽	-12.8235
莎	-12.8235
魍	-12.8235
漉	-12.8235
鱔	-12.8235
邠	-12.8235
涖	-12.8236
箓	-12.8236
清衆運誠恭吟寳偈	-12.8236
痿	-12.8236
㓛	-12.8236
坂	-12.8236
之章庸薦靈儀從容受食	-12.8236
十六部尊經玄中大法師三寳聖衆一切	-12.8236
隸	-12.8236
洪恩眞君願此香煙供養九天	-12.8236
磵	-12.8236
奏宣詞按如詞旨備	-12.8236
九府水帝十二河源江河淮濟溟泠大神	-12.8237
宿命有信然弱喪謂之無皆	-12.8237
摛	-12.8237
所有太上眞符謹當宣吿宣符䟽關送聖	-12.8238
訌	-12.8238
蠹	-12.8238
左青龍右白虎前朱雀後玄武	-12.8238
𢑴	-12.8238
甥	-12.8239
普度諸人物宿世恩德報道心超然發	-12.8239
奉爲亡故某溥及幽冥𡨚親平等落滅	-12.8239
甲等修建洞淵三昧神呪大齋行道禮懴	-12.8239
欣慶受度歷關諸天請滅三惡斬絶地根	-12.8239
太極太虚眞人太極左宫仙翁冲應眞人	-12.8239
秀禾登年豐嵗稔普天安泰匝地歡榮	-12.8239
崙	-12.8239
量光洞照炎池煩七祖諸幽魂身隨香雲	-12.8239
之恩普放神光降流真炁灌注玉	-12.8239
善哉元始尊衆生慈父母傾光紫微宫曲	-12.824
上帝乞降敕命及奏諸天帝尊請降	-12.824
清溟涬大梵甘露淨供之中攝化	-12.824
真師列位真人經籍度師列位真人	-12.824
秃	-12.824
箔	-12.824
來臨法㑹施錬往生八門開度天尊焚召	-12.824
罅	-12.824
昇紫庭靈寳符命普惠萬生	-12.824
蟇	-12.8241
柿	-12.8241
天子王侯土地官長經籍度師	-12.8241
噤	-12.8242
獷	-12.8242
氣宣告玉光寳符下開	-12.8242
忝敢負登盟之誓謹共精嚴	-12.8242
撻諸痛備嬰長淪萬劫終天無解今故	-12.8242
沈淪惡對匪繇懴贖曷遂解除	-12.8242
簧	-12.8242
俯仰存太上華景秀丹田左顧提鬱	-12.8242
向來所啓徑達至眞无極大道	-12.8242
天帝君玊虚上帝玊帝	-12.8242
採集飛空景舊爽多不存	-12.8243
無義神王飛鷹走犬使者北帝煞鬼一行	-12.8243
蛤	-12.8243
旰	-12.8243
世界飛天神人曰我嘗歷觀諸天出遊	-12.8243
虧世世善結縁精思念大乗㑹當體道	-12.8244
當召此間土地里域眞官正神速出	-12.8244
断	-12.8244
蝮	-12.8244
椹	-12.8244
塩	-12.8244
黠	-12.8244
天人同其願縹緲入大乗因心立福田靡	-12.8244
志心稽首禮謝无上至眞三寳	-12.8244
方仰荷慈光俯垂鑒映法筵告罷齋	-12.8244
神仙諸靈官懴悔齋主某爰從無始逮至	-12.8244
騖	-12.8245
𥧌	-12.8245
敎濟濟威化洋洋兆庶稱慶長樂未央	-12.8245
耀九星開明童子號曰天璘陽炁燄上朱	-12.8245
擎羊陀羅二仙使者左右綉衣使者通事	-12.8245
今正爾燒香奉爲某官某乙爲國爲家	-12.8245
宜稽首肅恭凝神禮謝更憑法衆吟	-12.8245
蠧	-12.8245
𢈔	-12.8245
苛	-12.8245
可韓司丈人眞君九天	-12.8245
君求哀懴悔臣等自從無量劫	-12.8245
羇	-12.8245
𡨋𡨚親平等爰從無始逮至有	-12.8245
受持無退轉永表道心堅和生生常信奉	-12.8245
人各運誠旋行讃詠旋行至	-12.8246
司十方三界玄虚應感一切眞靈臣	-12.8246
徑上供養至眞無上道寳大羅元始天尊	-12.8246
生存所行元惡醜逆觸犯	-12.8246
駝	-12.8246
鍼	-12.8246
體投地仰依太上三尊十方衆聖願以是	-12.8246
非色非香非空非假祥雲寳霧甘露霏	-12.8246
吻	-12.8246
掾吏城隍社令里域司命三界官屬一切	-12.8246
虧盈安清光照諸天洞消暗	-12.8246
瞬息無停今日大慶欣喜蒙恩諸天歡恱	-12.8247
瑞光下降流入臣	-12.8247
變體易景斗中大女	-12.8247
某上言今月某日奉爲弟子某崇建十	-12.8247
來至于今劫今生今日	-12.8247
炯	-12.8247
貲	-12.8247
尒	-12.8247
㚄	-12.8247
艘	-12.8247
隨日新衆人未得度終不度我身	-12.8247
玉山大獻清淨法食之中攝化無窮神變	-12.8247
之人九親門族天下人民蜎飛蠢動	-12.8247
之尊清衆運誠皈依讃詠明燈映太	-12.8247
禮我化號真像	-12.8247
北都寒池部衞形魂制魔保舉度品南宫	-12.8247
元惡之罪放赦囚徒	-12.8247
芝英百靈衆眞交會在此	-12.8248
忖	-12.8248
度司太玄靈官功曹玉女主簿	-12.8248
化主道德天尊願以是捻香功	-12.8248
誠上啓三清上聖十極髙真	-12.8248
宣簡宣關焚簡旋行歸位聖德流科教	-12.8248
恭望聖慈允茲申請特降聖旨遍下	-12.8248
涿	-12.8248
災厄轉誦太上玄靈北斗本命延生真經	-12.8248
劫量龍漢瑛鮮碧落浮黎空歌保珍惡奕	-12.8248
徑上供養至眞無上經寳玉宸	-12.8248
眞官正神以今奉爲入意祈恩玉闕進拜	-12.8248
蹴	-12.8248
齋主青詞謹當宣奏宣詞按如詞	-12.8248
童子遍十方際盡玄虚界隱現一切真聖	-12.8248
斗太尉陽明貪狼玉晨君北斗上宰隂精	-12.8248
業塵洞明覺性返還祖炁宻認旛光俓乗	-12.8248
臣職惟領敎理難抑違	-12.8248
願運淵慈俯迂飈馭	-12.8248
具位姓某照對某先據齋意	-12.8248
心業所犯志念不專情浮意動馳騁不息	-12.8248
歳徳尊神土地主執三界應感一切眞靈	-12.8248
𥨊	-12.8248
五經揚威耀日役使甲丁却	-12.8249
修齋福壽長延生依玉簡	-12.8249
壇行道謹奏爲入意其諸忱悃	-12.8249
有生三業紛紜六情浩蕩多違禁戒	-12.8249
界直符使者四直玉文功曹地分傳奏神	-12.8249
身入至仙㑹道合眞	-12.8249
沬	-12.8249
餞	-12.8249
惟願仰承三寳力今夜今時	-12.8249
𦍑	-12.8249
本靖經籙法部諸省府院司	-12.825
妒	-12.825
章入夜修設三官北隂淨醮某日進拜南	-12.825
餽	-12.825
濠	-12.825
簞	-12.825
祲	-12.825
靈唱靡不同無可無不可思與希微通	-12.825
齋主一身清靜萬善圓成以昭宸貺	-12.825
褻	-12.825
塹	-12.825
施用仙曹三界所向仙曹	-12.825
蕙	-12.825
鲁	-12.825
宣告十方三界合屬真司嚴切戒諭	-12.825
合炁羣靈潜形杳黙周	-12.825
四運和平國安民豐普天閑	-12.825
去處依某日前所申開度事理施行干冐	-12.8251
先生留用光傳授太上執法仙士蔣叔輿	-12.8251
澍	-12.8251
靈官地仙玉女五嶽飛仙神仙諸仙官君	-12.8251
驛龍騎吏侍香金童傳言玉女五帝直符	-12.8251
七轉八合周旋天經聖化巍巍	-12.8251
原赦前生今世生死宿罪重過得免離三	-12.8251
即使見禁罪魂乗此光明頓消幽暗俓上	-12.8251
妖明耀元功金符召制躡雲䇿龍謡歌慶	-12.8251
玉皇君斗中神仙和諸靈官伏	-12.8251
陡	-12.8251
朝謁帝眞奉爲入齋意其諸	-12.8251
𥿈	-12.8251
恭望天慈允茲奏請特降勑命遍下	-12.8251
惹	-12.8251
除巳備奏諸天上帝申聞三界眞司外	-12.8251
税	-12.8251
天眞大神上聖髙尊諸天丞相南昌上	-12.8251
水火合形大將軍水火聚炁大將軍	-12.8252
胞命元元一黄演之	-12.8252
元始符命金籙白簡救苦眞符告下十方	-12.8252
筐	-12.8252
罙	-12.8252
輧	-12.8252
世界五嶽四瀆神仙正眞乞丐原赦某家	-12.8252
至眞無所待時或轡飛龍長齋	-12.8252
其位經緯直行保鎭家國無有災傷四海	-12.8252
千𡨚萬祖普及六道四生諸	-12.8252
九天尚父天蓬都元帥眞君九天佐翊	-12.8253
正神左右龍虎君天仙地仙五靈香官當	-12.8253
虚翔香花若飛雪氛靄茂玄梁	-12.8253
過轉詠九天生神玉章囘向	-12.8253
讖	-12.8253
醖	-12.8253
齊附靈旛來赴玄壇和受兹開度功德	-12.8253
願得東極青玄妙炁百寳光明下降流入	-12.8253
延禧大齋幾晝夜臣今引領官衆升壇第	-12.8253
譁	-12.8253
俓上供養无上至眞道寶	-12.8253
无上至眞道寳大羅元始天尊金闕	-12.8253
九晨回駕萬魔束形九	-12.8253
髙上洞清紫虚空洞自然	-12.8253
五體投地仰依太上三尊願以是	-12.8254
獠	-12.8254
赭	-12.8254
三界天門守衞諸神	-12.8254
乗虚自然征日月爲炳灼安	-12.8254
袄	-12.8254
榮秀椿劫期乗運應靈圖	-12.8254
㡬晝夜開度亡過某靈䰟以今請炁奉行	-12.8254
𠔃萬鬼潜天地動𠔃萬鬼爽	-12.8254
糊	-12.8254
九回八景六周聖運所持左	-12.8255
咸乞赦原伏冀	-12.8255
虚眞人太極左宫仙翁沖應眞	-12.8255
徧列正位炁參八辰門玄關	-12.8255
蓼	-12.8255
懴謝致使愆書黑簡過録玄曹積成災衰	-12.8255
日大慶萬道同歸玄壇正炁保天	-12.8256
欽奉其諸丹悃具載緘謄願得太上	-12.8256
凝靈府隂陽炁象交胞元結長命惡根應	-12.8256
多違禁戒每背綱常	-12.8256
練自成容務玄育上生羅列備明堂	-12.8256
眹	-12.8256
於方來運限迎禧命身介壽公私吉慶宅	-12.8256
天符帝帥歳分王神五瘟氣候	-12.8256
攖	-12.8257
𢌞	-12.8257
一陽混溟𤥭瑝之炁	-12.8257
經心開悟解受持讀誦	-12.8257
某謹焚寳香遥瞻供養	-12.8257
輪無停映眞仙參列序上上霄	-12.8257
欝	-12.8257
府主生死罪録官中元南洞陽左宗天	-12.8257
懌	-12.8257
仙境下及法界孤幽等衆當願	-12.8258
効功後部効殺驛庭	-12.8258
特與敷奏上玄請降勑命	-12.8258
穡	-12.8258
三清告下七星念七眞内	-12.8258
頭破作八十分矣道言	-12.8258
修設三界髙真清醮一座六十分位	-12.8258
卹	-12.8258
𥼶	-12.8258
掯	-12.8259
荄	-12.8259
贅	-12.8259
須召又到一如故事	-12.8259
乗虚以逍遥八天如指掌六合何足遼	-12.8259
申太陽帝君太隂皇君五星眞君	-12.8259
本州城隍司主者當境土地里域眞官	-12.8259
三部八景洞天飛行三五直靈神仙	-12.8259
貍	-12.826
餔	-12.826
披露眞文奉修齋直歸命	-12.826
軍愽士黄旛豹尾	-12.826
二者克勤忠於君	-12.826
傭	-12.826
瀬	-12.826
歠	-12.826
巘	-12.826
嗷	-12.826
漾	-12.826
元始虚皇集炁居中三	-12.8261
志心歸命十方常住三寳臣等懴悔	-12.8261
無惒觀音須延明首法攬菩曇稼那阿	-12.8261
筮	-12.8261
自無玄挺運誰能悟	-12.8261
六元運陽化隂大將軍	-12.8261
䔥	-12.8262
丈人三十二天帝君玉虚上帝玉帝太	-12.8262
緇	-12.8262
思候履常斬伐胞樹滯心遊超上京	-12.8262
章一通上詣某曹伏須告報	-12.8262
今謹有皇帝齎持法信䖍設	-12.8262
些	-12.8263
茸	-12.8263
遊爽赴期歸炁炁返故根	-12.8263
安閑空寂澄清自居廣開法門教導頑	-12.8263
三華離便大有妙庭	-12.8263
錬質飛神太蒼三官九府	-12.8263
方上香再拜臣恭以	-12.8263
激切之至謹狀太歳年月日具位姓某狀	-12.8263
𩅺	-12.8263
芃	-12.8263
從衆妙門而入在左還左在右還右	-12.8264
溜	-12.8264
仔	-12.8264
宫弔替太歳太隂將	-12.8264
瑪	-12.8265
郝	-12.8265
殍	-12.8265
散壇上齋詞上言功	-12.8265
千千截首萬萬剪形	-12.8266
願此燈光回向眞君散花	-12.8266
沆	-12.8267
齋壇應感一切眞靈乞以經功願力安鎭	-12.8267
泰玄上相天君天機	-12.8268
姙	-12.8268
靈芝無根衆化之	-12.8268
滃	-12.8269
祇九天上帝三十二天上帝五老上帝	-12.8269
膁	-12.8269
銚	-12.8269
芟	-12.827
孤䰟滯𩲸諸類傷亡	-12.827
淆	-12.827
咳	-12.827
㔶	-12.8271
維渟字散融	-12.8271
耨	-12.8272
檠	-12.8272
聊以運四大研心稽首誦衆聖共稱快	-12.8273
遍噀水一口於符上了放訣上清	-12.8274
愜	-12.8275
淊	-12.8275
網乃至旛幢寶蓋衣服	-12.8275
心朝禮大慈大悲大惠真人	-12.8275
九重下降爲受度弟子某纏其	-12.8275
菌	-12.8276
礎	-12.8276
阡	-12.8276
乞赦罪放魂赴壇受度是日	-12.8277
侍經玉郎玉童玉女神仙靈官靈寳	-12.8278
頋	-12.8279
亦皆瑠璃水精中有	-12.828
飛天身乗六龍水上火下流入三宫神	-12.8281
天尊告道君曰吾開法輪	-12.8281
元皇九醜靈魔絳宫紫	-12.8281
奉薦神儀超昇此境伏願	-12.8282
懵	-12.8283
瘕	-12.8284
爺	-12.829
胸	-12.8292
忙	-12.8293
瓫	-12.8293
孱	-12.8299
无自然元始天尊妙无上帝	-12.8355
修造之所犯觸神明負違禁忌	-12.8473
靈寶領敎濟度金書卷之一百六十	-12.8514
道君太上老君髙上玉皇十方巳得道	-12.8594
十方仙童玉女侍衞香煙傳臣向來	-12.8698
寶天尊髙上玉皇十方巳得道大聖衆至	-12.873
請法衆等運兹三捻上香願此香	-12.8837
弘威儀翼翼普天所瞻民稱太平四夷	-12.8921
首體投地仰依太乙救苦天尊願以是功	-12.9344
左右捧香金童傳言散花	-12.9497
仰慮居宅修造之所犯觸	-12.9652
自然生金液丹碧芝英百靈衆眞	-12.9777
之國制群靈斬天魔伏五兵	-12.986
焱	-12.9874
三清上聖十極髙眞圓穹之帝后仙眞	-12.9878
麺	-12.988
濮	-12.9882
中元二品赦罪地官大帝君	-12.9882
散十方願乗七寳臺垂光五濁世	-12.9883
中光堅字四化靈	-12.9884
穽	-12.9884
胯	-12.9884
㸑	-12.9885
槳	-12.9885
䂖	-12.9886
閈	-12.9886
四輔列位五老監眞太一命辰玉帝唱盟	-12.9886
普放祥光照破幽獄	-12.9888
蟹	-12.9889
泉曲之府寒夜之郷地獄餓鬼旁及	-12.9889
無氛穢地絶祅塵琳琅	-12.9889
冀慈悲俯垂援拯恭惟	-12.989
玄壇經備威儀曷心修於丹笈	-12.989
詿	-12.989
㢠	-12.9891
胙	-12.9891
陵火府火錬大將軍火錬靈官南昌上宫	-12.9891
三天教主正一天師眞君靈寳教主經	-12.9891
衲	-12.9892
諒返瓊輿亟旋瑤闕	-12.9892
詈	-12.9893
𡖉	-12.9893
寖	-12.9894
揚天尊開度三界十方四生六道咸到道	-12.9894
方錬炁變仙至真大神	-12.9894
扵	-12.9895
生神遷魄萬劫不忘旛之爲體隨風飛	-12.9895
訧	-12.9895
黥	-12.9895
魉	-12.9895
齧	-12.9895
剗	-12.9896
𨚫	-12.9896
不勝䖍切俟命之至亞獻重稱法位具位	-12.9897
湎	-12.9898
壮	-12.9898
藂	-12.9898
塔	-12.9898
絛	-12.9898
飛天神王此九天之章乃三洞飛玄之炁	-12.9898
撾	-12.99
鼉	-12.99
錀	-12.99
意坐起卧息不離儀格	-12.99
一萬二千考士一十二萬主	-12.99
闕洪恩眞君靈濟宫眞仙聖衆	-12.99
稌	-12.9901
孺	-12.9901
繁想嘯明侣五難縁理去冲心自怡處	-12.9901
湄	-12.9901
大元帥岳許二元帥天丁力士左右神官	-12.9901
發騎御章神龍騎奏章飛龍飛虎騎	-12.9901
五嶽五帝真君五天聖帝	-12.9901
諸天日月星宿崑崙上宫諸神仙西靈金	-12.9901
聘	-12.9901
右中三府左府號	-12.9902
普臨法㑹領霑功德焚	-12.9902
聦同垂下降三獻茶酒散花具位	-12.9902
聞經若至親天挺超世才樂誦希微篇	-12.9902
癱	-12.9902
常作是願我今所施	-12.9902
顴	-12.9902
曹右一十四曹太玄女青所置屬	-12.9902
爝	-12.9902
祐見在使陵廟墳基肅寧殃注斷絶	-12.9903
九牧萬姓三軍伏願	-12.9903
謹奏啓大羅玉清无極无上至	-12.9903
仙上靈二官直使正一功曹	-12.9903
受度之夕願賜證明以昭宸貺干冒聖威	-12.9903
衞國夫人善助慈懿恭靜仙妃聖兄	-12.9903
玉清拔幽魂破地獄眞符青	-12.9904
雩	-12.9904
灘	-12.9904
澟	-12.9904
聖妃涇國夫人順助仁惠	-12.9904
設聖像几案供養如法	-12.9904
道經師寳天尊上香具位奉行某齋法事	-12.9904
受齋功謹取某月某日開啓齋壇	-12.9905
泂	-12.9905
四日二十八日二十九日三十日	-12.9905
定慧青蓮花上生神永安	-12.9905
觚	-12.9905
莢	-12.9905
德上祝宗祧先聖社稷尊靈伏願	-12.9905
麋	-12.9906
嫰	-12.9906
普濟真人志心信禮大慈悲妙行真人	-12.9906
威大神丹靈大神皓華大神玄英大神	-12.9906
撝	-12.9906
無方序數來亦叵乗誰云無色平	-12.9906
洞府之曹僚主執醮筵内外一切眞靈	-12.9906
百千萬重道炁千二百官君太清玉陛下	-12.9906
黃籙簡文靈仙品格建立靈壇	-12.9906
太上散十方華燈通精誠諸天	-12.9907
瓌	-12.9907
菑	-12.9907
羆	-12.9907
人爲某事仰荷師恩巳圓齋福重念某	-12.9907
事畢拜表言功解壇滿散某日夜	-12.9907
俯盻紫雲羅逍遥太上京相與坐	-12.9907
夀資命善果臻身人各運誠旋行讃詠	-12.9907
饁	-12.9907
𥵂	-12.9907
南上司命司録延夀益筭度厄尊神	-12.9907
金籙白簡長生靈符給籙破劵保舉超	-12.9907
再拜奉迎聖駕請聖初獻重稱法位具位	-12.9907
𨵗	-12.9907
傴	-12.9908
𡖥	-12.9908
无極大道道德衆聖天尊至眞太帝天	-12.9908
饈	-12.9908
奩	-12.9908
贄	-12.9908
出入福郷周旋生門咀嚼靈芝灌	-12.9908
復相大神正精大神火府大神返形大神	-12.9908
煻	-12.9908
韓君司馬司命司録延壽益筭度厄尊神	-12.9908
政今有齋主某齋心事帝潔	-12.9908
𣢾	-12.9908
帕	-12.9909
仝	-12.9909
莱	-12.9909
嘶	-12.9909
宣關飛空歩虚頌出堂度人无量天尊	-12.9909
歩虚燒香頌按人各恭敬三皈依	-12.9909
象清玄三願聖君萬壽四願化洽八	-12.9909
緍	-12.9909
笠	-12.9909
姓某今據某布政司	-12.991
薯	-12.991
五行不順行虎向水中生	-12.991
吾奉玉淸勑速降元炁成存	-12.991
歸流九州四海萬姓三軍伏願	-12.991
皈依䖍誠讃詠信禮髙上太微垣南斗	-12.991
稽首凌兢法衆運誠修齋奉請修齋奉請	-12.991
蚕	-12.991
衿自無髙仙才焉能耽此心	-12.991
教導頑夫皆蒙惠澤精苦是	-12.991
北方玄天五炁徘徊中有黒帝	-12.991
抒	-12.991
覆形攝上玄陀羅育邈眇	-12.991
南離北坎東震西兊四面方隅禁忌神君	-12.991
天調理乾坤陶鎔隂陽總統玄	-12.991
明素二願氣象清玄三願聖君萬	-12.991
靈山請投玉簡乞削罪名皆蒙解脫無有	-12.991
齋主七世父母免脫憂苦上昇天堂衣食	-12.991
達俓御太上无極大道至真玊皇上帝	-12.991
磁	-12.991
三清上聖十極髙眞圓穹之帝后仙靈	-12.991
上關諸天中告海嶽名山大川今日上	-12.991
所犯生死宿對无極罪根因今燒香散花	-12.991
鍊液固形質金光散紫微窈窕	-12.991
璜	-12.9911
鬰家國盛濟濟經道興	-12.9911
水府丹靈大帝龜臺大帝玄溟大帝	-12.9911
量𡨚愆俾令福禄昌隆壽齡延永運限調	-12.9911
玄圃山靈秘籙	-12.9911
跧	-12.9911
怜	-12.9911
漕	-12.9911
蚋	-12.9911
波羅尼密不驕樂天	-12.9911
空飛歩雲宫胚胎有始	-12.9911
向來祗率清衆陞壇行道上祝	-12.9911
蕭蕭入空寂請經若飢	-12.9911
仙應感自然妙玄杳㝠散景分形億	-12.9911
誠謹啓以聞發願一願大道流行溥天懷	-12.9911
䰟覺海翻波孰鼔慈悲之棹靈淵流浪	-12.9911
主火大將軍從官兵吏等爲某人靈䰟	-12.9911
惶誠恐稽首頓首伏念重泉逝爽積夜遊	-12.9911
方幽爽靈識咸希清靜獲遂周圓伏願	-12.9911
護魂侍魄養炁通血中主君	-12.9912
三十二天八㑹九光自然成文安鎭	-12.9912
合雲飛天大醜總監上天沙	-12.9912
石十一願帝王國土日昌四	-12.9912
護度一切莫不仰宗十願江海蕩蕩無	-12.9912
咈	-12.9912
蹷	-12.9913
德上資所薦神靈伏願	-12.9913
中䇿炁斬馘妖	-12.9913
前來領霑功德克諧	-12.9913
蹉	-12.9913
氈	-12.9913
|	-12.9913
儀右盻携結璘六度冠	-12.9913
領瑤壇而奏對懼書玉簡以凌兢亶	-12.9913
伏念某多生以來曽犯此戒今禮眞	-12.9913
儀法事陞壇如式各禮師存念如法宣	-12.9913
太上無極大道至眞三寳上帝九宸帝君	-12.9913
宗遏絶邪源制斷魔蹤太上符命召制神	-12.9913
䧏	-12.9913
道以齋爲先勤行登金闕故設大法橋	-12.9913
㩲	-12.9914
徒混景於東諸經緯融玄莫䇿真於西禁	-12.9914
賔赤方右啓帝扉東華南府灌	-12.9914
差愈或官司盜	-12.9914
鐍	-12.9914
咸令遵奉即與亡過某原赦罪愆蠲除	-12.9914
昳	-12.9914
嶓	-12.9914
地獄摧毀鐵城開宣	-12.9914
垜	-12.9914
欹	-12.9914
鋌	-12.9914
瑞煙應念充周隨感飽	-12.9914
各一過並巳周圎恭望福	-12.9914
三天大聖都天大法天師正一靜應眞君	-12.9914
誕長桑栢空度仙	-12.9914
得道仙官本派祖玄眞師列位眞人	-12.9915
葳	-12.9915
逯	-12.9915
聖賢日生三念法師功德大建敎化明	-12.9915
肅清萬魔不干真誠上徹	-12.9915
鍊金泉魔王恐懼合景三田	-12.9915
黄籙大齋今將依按玄科關行齋法仰祈	-12.9915
交㑹在此香火罏前	-12.9915
嗣師系師君靈寳監齋大法師眞君赤明	-12.9915
帝后土皇地祇大赤天宫無邊	-12.9915
玄藴呪請轉寶經聞經結經仰惟三寶	-12.9915
霈普濟幽明恭乞祥光下臨壇席	-12.9915
窪	-12.9916
始梁峙字道岐	-12.9916
蹊	-12.9916
等身中所啓速達上御至眞	-12.9916
兆庶稱慶長樂未央十二願蜎飛蠢動	-12.9916
地祝鬼詛神裸露	-12.9916
歘濟大有當此說戒時諸天	-12.9916
靈寳玄中大法師眞君靈寳經師君	-12.9916
來合我身功加一切天地咸寧	-12.9916
延生真經各一過上祝中天大聖第	-12.9916
紫庭靈寳符命普衛萬生元皇正	-12.9916
鎮安睦兵革不揚天人歌唱吉應來翔敷	-12.9916
香師執眞文香上熏之衆誦眞文	-12.9916
灣	-12.9917
圓穹之帝后仙眞方域之曹僚主執	-12.9917
剽	-12.9917
刀利禪猷婆泥咎通宛	-12.9917
泠泠甘露滋法味難思議騫香流七	-12.9917
喉神名百流放字道通	-12.9917
然都相忘七寳流精	-12.9917
翻翻五帝駕飄飄玄上門遊歩黄華野	-12.9917
轉經行道懴悔億曽萬祖及三十六代巳	-12.9917
遷昇道境普及一切均沾勝利法衆	-12.9917
俻	-12.9917
來鑑十眞之㑹琅函寳笈周圎	-12.9917
神降格扇景乗飈群生咸遂惠遍神州	-12.9917
日月星斗羣眞十方師尊聖衆三界官屬	-12.9917
窮安平不陷海淪不崩保鎭家國兆民	-12.9917
黒靈尊神號曰層威統冠飛天仙𥚑羽衣	-12.9917
𢖍	-12.9917
中分隂陽凝化日月星燦然流三光九華	-12.9917
存北向再拜拜畢嚥液二九過亦可起拜	-12.9917
猾	-12.9917
道順行慶雲流布合景黃庭	-12.9918
磋	-12.9918
墁	-12.9918
直日香官各三十六人出關啓此間土地	-12.9918
三合成音結成靈文	-12.9918
欲藉提𢹂敢忘修誦今有齋主某崇建	-12.9918
鎭國祚保天无終護度一切莫不仰宗十	-12.9918
鳳渥以承流恭惟北斗第	-12.9918
𥘉捻上香願此香煙騰空	-12.9918
猷之人特念已叨	-12.9919
甍	-12.9919
髙仙所崇受汎此不死舟倐	-12.9919
天上帝玄師三天門下省泰玄樞機三省	-12.9919
應感自然妙玄杳冥散景分形億千	-12.9919
群生咸遂惠遍神州	-12.9919
願江海蕩蕩无極含容恢廓无細不	-12.9919
服百骸豐金華照光景身與	-12.9919
腠	-12.9919
鄴	-12.9919
首祈恩欲望上體好生下矜趨死	-12.9919
䫙	-12.9919
中元玉籙簡文神仙品曰爲師威儀弟子	-12.9919
無極大道虚無自然元始天尊妙無上帝	-12.9919
玄中教主上清靈寳聖師眞君	-12.9919
門燒香明燈思神念眞歸身歸神歸命	-12.9919
天人歌唱吉應來翔敷敎濟濟威化	-12.9919
䔍	-12.992
以今早朝行道請法衆等運茲	-12.992
遊魄不顧反一逝洞	-12.992
魂精魄爽二景回輪飛光赫奕煥	-12.992
分景萬形斗中少女	-12.992
陜	-12.992
絙	-12.992
瑯	-12.992
截魔瘟清安宅宇保護家	-12.992
方臣衆等今故燒香欽依仰謝	-12.992
太帝號陽堂字曰八靈君九關	-12.992
妖剪截魔王北帝所承風火衝當流鈴交	-12.992
帝君三十二天帝君太陽太隂五星五斗	-12.992
方梵寳昌陽丹靈眞老赤帝三炁天君	-12.992
誠謹啓以聞發願一願大道澹泊虚	-12.992
關報管内合屬去處咸令遵奉	-12.992
祅明耀元功金符召制躡雲乗龍謡歌慶	-12.9921
花仰嚼玄都柰俯	-12.9921
却死來生却禍來福	-12.9921
犇	-12.9921
中山神呪普天使然五靈安鎭身飛上仙	-12.9921
初長乗飛玄梁蘄畜	-12.9921
度五道不履三惡諸天所	-12.9921
護萬神所敬長齋奉戒自得度世	-12.9921
世間人今對大慈尊一心陳懴悔願此	-12.9921
永斷執迷常歸正	-12.9921
應聞經若至親天挺超世才樂誦希	-12.9921
以今晚朝行道請法衆等運茲	-12.9921
列位煥鎭五方始皇護魂丹老	-12.9921
𨗿	-12.9921
慈心解世羅眞人無上德世世爲仙家	-12.9921
凶惡辟斥魔試和合公私董正内外	-12.9921
空洞生神章瓊音逸九霞一唱萬眞	-12.9922
天君太上眞王青腰玉女東郷諸靈官	-12.9922
嬰兒之形髣髴在身各安其所訖	-12.9922
木公尊神金母元君	-12.9922
直不犯口過第六戒者斷酒節行調和	-12.9922
稽首乾樞之上皈神	-12.9922
九君作七呼之畢乃	-12.9922
礼	-12.9922
磊	-12.9923
爱	-12.9923
眏	-12.9923
𨤲	-12.9924
耰	-12.9924
獎	-12.9925
蹻	-12.9925
篕	-12.9925
壻	-12.9926
沅	-12.9927
昉	-12.9928
瘇	-12.9928
痩	-12.9928
舩	-12.9929
𡒄	-12.9929
卞	-12.9929
摳	-12.9929
瞰	-12.9929
恂	-12.9929
硤	-12.9931
苓	-12.9931
𩲲	-12.9932
菟	-12.9933
棋	-12.9933
癤	-12.9933
翱	-12.9934
這	-12.9934
駞	-12.9934
鬲	-12.9934
淦	-12.9935
蝀	-12.9935
捩	-12.9936
庄	-12.9936
甆	-12.9937
煴	-12.9937
侗	-12.9937
喎	-12.9938
惋	-12.9938
欒	-12.9938
𦆑	-12.9939
䏻	-12.9939
珉	-12.994
駁	-12.994
窄	-12.994
潼	-12.994
擧	-12.994
𩲕	-12.9941
㖟	-12.9941
𠮷	-12.9941
䨱	-12.9943
栝	-12.9944
筯	-12.9944
沔	-12.9944
驎	-12.9947
亷	-12.9949
磚	-12.9955
皦	-12.9955
甌	-12.9957
桫	-12.9957
𡍼	-12.9958
鐄	-12.996
叠	-12.9963
燬	-12.9964
岌	-12.9968
呴	-13.1861
龞	-13.1867
䗫	-13.1868
蚰	-13.1876
驀	-13.1878
萇	-13.1881
鉗	-13.1881
捺	-13.1883
滲	-13.1884
愠	-13.1885
玲	-13.1885
鑽	-13.1885
祧	-13.1886
劾	-13.1886
矻	-13.1886
𦵏	-13.1887
泚	-13.1887
睹	-13.1887
糝	-13.1889
哮	-13.189
杪	-13.1892
朂	-13.1893
邐	-13.1893
頷	-13.1893
萸	-13.1893
掦	-13.1894
拄	-13.1894
懶	-13.1895
晟	-13.1895
溘	-13.1895
呑	-13.1896
蘸	-13.1897
𩔗	-13.1897
戱	-13.1897
爼	-13.1898
㨗	-13.1898
帟	-13.1898
裨	-13.1899
堠	-13.19
瘤	-13.19
釵	-13.19
芎	-13.19
漣	-13.19
臃	-13.1901
饘	-13.1901
櫻	-13.1902
势	-13.1904
庾	-13.1904
醻	-13.1904
𡾓	-13.1904
甜	-13.1904
芘	-13.1905
蜦	-13.1905
疚	-13.1905
荃	-13.1905
羮	-13.1905
懦	-13.1906
蝱	-13.1906
擠	-13.1906
珎	-13.1906
拇	-13.1906
掉	-13.1906
葦	-13.1906
酗	-13.1906
灜	-13.1906
紬	-13.1906
僂	-13.1907
𠕋	-13.1907
磻	-13.1907
翎	-13.1908
梏	-13.1908
𡱈	-13.1909
俳	-13.1909
耋	-13.191
鬟	-13.191
綘	-13.191
䂊	-13.191
幬	-13.191
梢	-13.191
㝡	-13.1911
噎	-13.1911
𤊨	-13.1911
楗	-13.1912
洵	-13.1912
侫	-13.1912
棓	-13.1912
璟	-13.1912
犲	-13.1912
荔	-13.1912
邏	-13.1912
龔	-13.1912
熠	-13.1913
蜣	-13.1913
洶	-13.1913
蜮	-13.1914
彞	-13.1914
惨	-13.1914
鱠	-13.1914
郞	-13.1914
糿	-13.1914
碁	-13.1914
俘	-13.1915
竚	-13.1916
勻	-13.1916
𠋫	-13.1916
圡	-13.1916
晣	-13.1917
祁	-13.1917
冋	-13.1917
惸	-13.1918
愔	-13.1918
𢣷	-13.1918
脘	-13.1918
𣡡	-13.1918
鍔	-13.1919
窠	-13.1919
堞	-13.1919
癥	-13.1919
竢	-13.1919
闞	-13.1919
邂	-13.1919
聼	-13.1919
旴	-13.192
郄	-13.192
窅	-13.1921
𥚹	-13.1921
勳	-13.1921
聵	-13.1921
玻	-13.1921
璚	-13.1921
觕	-13.1921
輭	-13.1921
瀨	-13.1922
闻	-13.1922
蛀	-13.1922
洊	-13.1922
袤	-13.1922
朒	-13.1923
釡	-13.1923
瘗	-13.1923
閹	-13.1923
瘼	-13.1924
䦕	-13.1924
踣	-13.1924
𤙖	-13.1924
楝	-13.1924
尫	-13.1925
輈	-13.1925
膲	-13.1925
㹠	-13.1925
万	-13.1926
擴	-13.1926
埀	-13.1926
呀	-13.1926
𤥭	-13.1927
飫	-13.1927
𧆛	-13.1927
冑	-13.1927
顥	-13.1927
忡	-13.1927
嚕	-13.1928
鋼	-13.1928
瘠	-13.1929
漳	-13.1929
壌	-13.193
懊	-13.193
菱	-13.193
丰	-13.193
躶	-13.193
蜓	-13.1931
黝	-13.1931
鱉	-13.1931
蠒	-13.1931
逅	-13.1932
彪	-13.1932
獐	-13.1933
沫	-13.1933
惺	-13.1933
縋	-13.1933
愬	-13.1933
箒	-13.1933
駱	-13.1933
嵌	-13.1934
寝	-13.1934
堊	-13.1934
雛	-13.1934
譲	-13.1934
賽	-13.1935
鄔	-13.1935
殛	-13.1935
傖	-13.1935
繙	-13.1936
搐	-13.1936
坰	-13.1936
窹	-13.1936
糶	-13.1936
阔	-13.1937
碯	-13.1938
輳	-13.1939
尻	-13.1939
菡	-13.194
羹	-13.194
𠊱	-13.194
踝	-13.1941
壼	-13.1942
楔	-13.1942
鋟	-13.1942
偟	-13.1943
泌	-13.1944
闍	-13.1947
芮	-13.1947
扞	-13.1948
慤	-13.195
体	-13.195
趺	-13.195
徠	-13.195
㪍	-13.1951
袪	-13.1952
𡵯	-13.1952
佃	-13.1952
椅	-13.1953
䋲	-13.1953
瞖	-13.1954
闃	-13.1955
𤣥	-13.1957
澧	-13.1957
亀	-13.1958
沂	-13.1959
襦	-13.1959
侃	-13.196
剩	-13.196
槽	-13.1967
釭	-13.1972
萋	-13.1983
栱	-13.1992
𣊻	-13.1993
琬	-13.4318
汴	-13.4358
砧	-13.436
燖	-13.436
洙	-13.4365
跑	-13.4367
苧	-13.4369
𧍒	-13.4371
診	-13.4372
鵶	-13.4374
麒	-13.4374
瓖	-13.4375
慣	-13.4376
捽	-13.4376
擯	-13.4378
噷	-13.4378
𨷖	-13.4378
臀	-13.4378
□	-13.4379
屡	-13.4381
𤇆	-13.4381
釧	-13.4382
胛	-13.4382
藐	-13.4382
翺	-13.4382
蜆	-13.4383
僑	-13.4383
顰	-13.4385
箠	-13.4386
漪	-13.4386
鍛	-13.4387
爟	-13.4388
呇	-13.4389
硫	-13.439
摯	-13.439
駑	-13.4391
奨	-13.4391
牃	-13.4392
窶	-13.4392
迕	-13.4392
嚙	-13.4393
玦	-13.4394
癈	-13.4394
䜴	-13.4394
謇	-13.4396
刮	-13.4396
袴	-13.4396
頹	-13.4397
玆	-13.4399
婣	-13.4399
湌	-13.44
隼	-13.44
蹶	-13.4401
蝢	-13.4401
啇	-13.4403
鷃	-13.4403
篠	-13.4404
杼	-13.4404
竽	-13.4404
莚	-13.4404
嘏	-13.4405
㘭	-13.4405
瞩	-13.4405
瑋	-13.4405
摴	-13.4405
隗	-13.4405
褊	-13.4405
蘗	-13.4406
暌	-13.4406
蟊	-13.4406
婌	-13.4407
勗	-13.4407
輜	-13.4407
綆	-13.4407
𣊬	-13.4407
慥	-13.4407
毆	-13.4407
楼	-13.4408
駌	-13.4408
枳	-13.4408
犧	-13.4408
㡌	-13.4408
苾	-13.4408
覯	-13.4408
𦦨	-13.4409
巉	-13.441
貶	-13.441
涂	-13.441
扳	-13.441
旼	-13.441
鼙	-13.441
椽	-13.441
滉	-13.4411
蓉	-13.4411
熨	-13.4411
苻	-13.4411
腆	-13.4411
芩	-13.4411
䏈	-13.4412
孃	-13.4412
塼	-13.4412
飱	-13.4412
尔	-13.4412
藁	-13.4412
𠏉	-13.4413
劌	-13.4413
蚖	-13.4414
眎	-13.4414
忉	-13.4414
轆	-13.4414
蔀	-13.4414
𨑰	-13.4415
棐	-13.4415
凰	-13.4416
隐	-13.4417
𧗊	-13.4417
倅	-13.4417
撟	-13.4417
𨹧	-13.4417
嗉	-13.4417
黽	-13.4417
侠	-13.4418
洫	-13.4418
啒	-13.4418
蕕	-13.4418
鋾	-13.4418
淤	-13.4419
霤	-13.4419
暵	-13.4419
蘚	-13.4419
衹	-13.4419
酧	-13.4419
𧙓	-13.442
煜	-13.442
葑	-13.442
黏	-13.4421
㝃	-13.4421
𤤠	-13.4421
奂	-13.4421
潙	-13.4421
奐	-13.4421
鷦	-13.4421
瘢	-13.4421
㒺	-13.4421
逗	-13.4422
皛	-13.4422
憊	-13.4422
猜	-13.4422
踉	-13.4422
爨	-13.4422
蒺	-13.4422
筴	-13.4422
㗭	-13.4423
睽	-13.4423
滎	-13.4424
簣	-13.4424
艫	-13.4424
篷	-13.4424
丅	-13.4424
墅	-13.4425
柞	-13.4425
刖	-13.4425
㫒	-13.4425
揵	-13.4426
𨺚	-13.4426
廐	-13.4426
慼	-13.4426
爀	-13.4426
𤨏	-13.4426
扼	-13.4426
䖏	-13.4426
週	-13.4426
愻	-13.4426
騃	-13.4428
墝	-13.4428
嵇	-13.4428
摹	-13.4428
韭	-13.4429
攧	-13.4429
撽	-13.443
阎	-13.443
虢	-13.443
篁	-13.443
䭾	-13.443
晬	-13.443
軼	-13.443
覉	-13.4431
鬐	-13.4432
豋	-13.4432
㝎	-13.4432
櫓	-13.4432
郜	-13.4433
伹	-13.4433
儜	-13.4433
䞋	-13.4433
纜	-13.4433
騷	-13.4435
嵉	-13.4435
儆	-13.4435
罸	-13.4435
卽	-13.4435
𥁞	-13.4435
蒯	-13.4436
郫	-13.4436
倨	-13.4436
軺	-13.4437
熹	-13.4439
简	-13.4439
𥫽	-13.4439
釤	-13.4439
刷	-13.4439
迺	-13.4439
纖	-13.444
澀	-13.4441
剮	-13.4441
仿	-13.4442
㩀	-13.4443
佚	-13.4443
盬	-13.4443
帑	-13.4444
琛	-13.4446
劘	-13.4447
勺	-13.4447
賾	-13.4447
榼	-13.4448
疢	-13.4449
獬	-13.4449
搓	-13.445
朧	-13.445
嗑	-13.445
癃	-13.4451
凂	-13.4453
掊	-13.4453
爆	-13.4453
拋	-13.4454
刎	-13.4454
拉	-13.4454
煬	-13.4455
槍	-13.4455
懀	-13.4455
綳	-13.4455
哪	-13.4455
肋	-13.4457
豸	-13.4457
嚚	-13.446
堲	-13.446
闆	-13.446
櫈	-13.4461
汜	-13.4461
撹	-13.4462
殱	-13.4471
埦	-13.4505
悒	-13.7667
矟	-13.7675
礦	-13.7676
紿	-13.768
蛉	-13.7682
鮓	-13.7682
紘	-13.7687
浼	-13.7688
擡	-13.769
焈	-13.7696
𩬊	-13.7698
僎	-13.7698
敝	-13.7698
顫	-13.7698
𧰟	-13.7701
咪	-13.7702
傘	-13.7706
呷	-13.7706
帊	-13.7707
䥴	-13.7707
屎	-13.7707
孿	-13.7709
彥	-13.7709
懟	-13.7709
銲	-13.7709
嶸	-13.7711
璬	-13.7711
膞	-13.7713
蛣	-13.7713
洮	-13.7713
薺	-13.7713
詘	-13.7713
掀	-13.7713
张	-13.7715
糖	-13.7715
殲	-13.7717
秣	-13.7717
懣	-13.7717
臠	-13.7717
𤤽	-13.7717
漻	-13.7717
妥	-13.7717
坵	-13.7719
隈	-13.7719
崒	-13.7719
棧	-13.7719
𥴩	-13.7719
讁	-13.7721
緗	-13.7721
㢤	-13.7721
啚	-13.7721
𠾱	-13.7721
圑	-13.7721
埡	-13.7721
榔	-13.7721
撑	-13.7721
駮	-13.7723
芁	-13.7723
雋	-13.7723
呂	-13.7724
嶲	-13.7725
憾	-13.7725
嶪	-13.7725
烘	-13.7725
剜	-13.7725
斆	-13.7725
经	-13.7725
曡	-13.7725
詒	-13.7725
壍	-13.7727
咲	-13.7727
𥱊	-13.7727
蝂	-13.7727
氓	-13.7727
魴	-13.7727
笳	-13.7727
噪	-13.7729
鯈	-13.7729
舂	-13.7729
犖	-13.7729
狖	-13.7731
𠐻	-13.7731
纁	-13.7731
賮	-13.7731
迁	-13.7731
晅	-13.7731
栰	-13.7731
霣	-13.7731
𥜗	-13.7731
宙	-13.7733
糅	-13.7733
觔	-13.7733
闉	-13.7733
牗	-13.7733
陔	-13.7734
㯶	-13.7734
煽	-13.7734
巇	-13.7735
棣	-13.7736
汵	-13.7736
枤	-13.7736
蓍	-13.7736
縢	-13.7738
䲭	-13.7738
仄	-13.7738
壕	-13.7738
沇	-13.7738
浛	-13.7738
瑾	-13.7738
褔	-13.7738
扛	-13.7738
纛	-13.7738
舸	-13.7738
簀	-13.7739
僭	-13.7739
罽	-13.774
宕	-13.774
枿	-13.774
渰	-13.774
濺	-13.774
簨	-13.774
郴	-13.7742
厮	-13.7742
酖	-13.7742
䞇	-13.7742
劂	-13.7742
塟	-13.7742
营	-13.7742
㓊	-13.7742
蜴	-13.7742
軋	-13.7742
纹	-13.7743
謮	-13.7743
㓨	-13.7744
摝	-13.7744
䦘	-13.7744
罝	-13.7744
蹰	-13.7744
芙	-13.7744
妵	-13.7744
牷	-13.7744
玠	-13.7744
囌	-13.7744
鏖	-13.7744
棃	-13.7745
瞞	-13.7745
箏	-13.7746
襁	-13.7746
㱼	-13.7746
薏	-13.7746
䚴	-13.7746
萍	-13.7746
蛛	-13.7746
雒	-13.7746
𤯹	-13.7746
矦	-13.7747
𥲤	-13.7747
跖	-13.7748
穣	-13.7748
糗	-13.7748
毘	-13.7748
縲	-13.7748
嗏	-13.7748
嗤	-13.7748
鴽	-13.7748
呶	-13.7748
瓞	-13.7748
蒐	-13.7748
𩳀	-13.7748
埒	-13.7749
瑜	-13.775
丱	-13.775
矬	-13.775
緻	-13.775
嬀	-13.775
茁	-13.775
茗	-13.775
儁	-13.775
搒	-13.775
樁	-13.775
隰	-13.7752
埜	-13.7752
㢮	-13.7752
𣀮	-13.7752
劊	-13.7752
麪	-13.7752
氯	-13.7752
罇	-13.7752
讌	-13.7752
齠	-13.7752
窗	-13.7752
餗	-13.7752
摟	-13.7752
殢	-13.7752
矇	-13.7752
趋	-13.7752
𨷂	-13.7753
睱	-13.7754
誔	-13.7754
叫	-13.7754
畊	-13.7754
倬	-13.7754
喁	-13.7754
昃	-13.7754
粃	-13.7754
胱	-13.7754
㖿	-13.7754
娉	-13.7754
蟆	-13.7754
霸	-13.7755
悰	-13.7755
綫	-13.7756
勣	-13.7756
壙	-13.7756
藺	-13.7756
圏	-13.7756
櫬	-13.7756
莬	-13.7756
吃	-13.7758
狭	-13.7758
䘵	-13.7758
絓	-13.7758
迯	-13.7758
璪	-13.7758
睫	-13.7758
関	-13.7758
擦	-13.7758
熺	-13.7758
閶	-13.7759
禙	-13.776
杇	-13.776
櫪	-13.776
怍	-13.776
揔	-13.776
郍	-13.776
䓗	-13.776
啣	-13.776
猩	-13.776
雑	-13.776
𧻞	-13.776
莧	-13.7761
盝	-13.7761
昺	-13.7761
匈	-13.7761
𧋍	-13.7761
灔	-13.7761
顗	-13.7761
𨳕	-13.7762
䈁	-13.7762
沗	-13.7762
簪	-13.7763
婇	-13.7763
栶	-13.7763
茟	-13.7763
崧	-13.7763
闋	-13.7763
橅	-13.7765
晁	-13.7765
恁	-13.7765
焙	-13.7765
壩	-13.7765
媪	-13.7765
涔	-13.7765
肭	-13.7765
霊	-13.7765
儈	-13.7765
霳	-13.7765
蜑	-13.7767
廛	-13.7767
鬒	-13.7767
蒋	-13.7767
釗	-13.7767
㮏	-13.7767
抉	-13.7768
橈	-13.7769
鏃	-13.7769
洹	-13.7769
㒒	-13.7769
𩚑	-13.7769
讙	-13.7769
阪	-13.7769
驍	-13.7769
韈	-13.7771
箆	-13.7771
鬥	-13.7771
姝	-13.7771
硏	-13.7771
濾	-13.7772
琮	-13.7773
刊	-13.7773
蔗	-13.7773
𨵈	-13.7773
圌	-13.7773
泱	-13.7773
餋	-13.7774
鈌	-13.7775
睢	-13.7775
删	-13.7775
咷	-13.7775
桁	-13.7775
躚	-13.7775
髀	-13.7777
䄛	-13.7777
躕	-13.7777
丨	-13.7777
𨵦	-13.7777
遀	-13.7777
曚	-13.7777
瞤	-13.7777
㩦	-13.7779
咯	-13.7779
賭	-13.7779
壚	-13.7779
仵	-13.7779
撚	-13.7779
撈	-13.7779
汀	-13.7779
砰	-13.7781
𢙫	-13.7781
褉	-13.7781
咭	-13.7781
塢	-13.7781
腔	-13.7781
蕤	-13.7781
祑	-13.7781
縵	-13.7781
襞	-13.7783
鬣	-13.7783
椷	-13.7783
荣	-13.7783
瓷	-13.7783
鏹	-13.7785
殀	-13.7785
曒	-13.7786
菰	-13.7787
雝	-13.7787
汹	-13.7787
跢	-13.7787
琨	-13.7788
遄	-13.779
鴆	-13.779
𡙎	-13.779
愷	-13.7792
缘	-13.7794
鞞	-13.7794
唏	-13.7798
婴	-13.7798
梘	-13.78
襌	-13.78
殤	-13.7804
嵓	-13.7804
㠊	-13.781
䈥	-13.781
麁	-13.781
篾	-13.7812
肧	-13.7814
叹	-13.7829
拗	-13.7837
寞	-13.7842
艽	-13.7868
硾	-14.2614
鍠	-14.264
荳	-14.2643
蜝	-14.2649
嵲	-14.2649
螯	-14.2652
軃	-14.2656
㠓	-14.2662
殕	-14.2665
瞎	-14.2668
呱	-14.2668
轇	-14.2668
鑣	-14.2671
蠋	-14.2676
繖	-14.2678
鵁	-14.2681
僁	-14.2681
渤	-14.2683
菷	-14.2684
鶄	-14.2684
檟	-14.2684
䈪	-14.2684
剚	-14.2684
訉	-14.2684
盾	-14.2687
詃	-14.269
鶩	-14.2693
酵	-14.2693
须	-14.2693
匚	-14.2693
瘀	-14.2693
倮	-14.2696
鞲	-14.2696
墼	-14.2696
䯽	-14.2696
鈿	-14.2696
謪	-14.2699
彙	-14.27
喊	-14.27
佉	-14.27
愒	-14.2703
痰	-14.2703
痳	-14.2703
柘	-14.2706
睴	-14.2706
騏	-14.2706
卸	-14.2706
璆	-14.2706
碾	-14.2706
灭	-14.2706
吘	-14.2706
皭	-14.2706
搸	-14.2709
僝	-14.2709
粦	-14.2709
壐	-14.2709
饔	-14.2709
噰	-14.2709
嫓	-14.2709
绝	-14.2709
罥	-14.2709
语	-14.2709
蹝	-14.2709
娃	-14.2709
卬	-14.2712
獒	-14.2712
樾	-14.2712
璲	-14.2712
俲	-14.2712
煅	-14.2712
崦	-14.2712
矌	-14.2712
酤	-14.2712
㿗	-14.2715
鄖	-14.2715
颲	-14.2715
鈲	-14.2715
䨙	-14.2715
餱	-14.2715
捿	-14.2715
髴	-14.2715
廌	-14.2715
鄽	-14.2718
鋳	-14.2718
昶	-14.2718
畛	-14.2718
蜻	-14.2718
襃	-14.2718
頡	-14.2718
㡭	-14.2718
桞	-14.2718
隤	-14.2718
頺	-14.2718
馗	-14.2718
鵾	-14.2718
臑	-14.2722
劖	-14.2722
庬	-14.2722
褫	-14.2722
偑	-14.2722
衽	-14.2722
鏕	-14.2722
汋	-14.2724
腊	-14.2725
㗣	-14.2725
覦	-14.2725
僦	-14.2725
撢	-14.2725
琱	-14.2725
嬈	-14.2725
抝	-14.2725
腮	-14.2725
賨	-14.2725
扑	-14.2725
旝	-14.2725
畹	-14.2725
杷	-14.2726
絣	-14.2728
鎰	-14.2728
憬	-14.2728
柲	-14.2728
羿	-14.2728
嗥	-14.2728
尠	-14.2728
廿	-14.2728
爂	-14.2728
穸	-14.2728
麫	-14.2728
㹨	-14.2728
廾	-14.2728
蔫	-14.2728
裭	-14.2728
悍	-14.2729
篟	-14.2729
搭	-14.2731
撙	-14.2731
賙	-14.2731
逥	-14.2731
媛	-14.2731
拝	-14.2731
頳	-14.2731
侑	-14.2731
崷	-14.2731
檣	-14.2731
耜	-14.2731
觝	-14.2731
鉸	-14.2731
嘷	-14.2731
圴	-14.2731
懞	-14.2731
戻	-14.2731
圉	-14.2731
椘	-14.2731
翽	-14.2731
虯	-14.2731
濘	-14.2733
䰠	-14.2734
澒	-14.2734
狙	-14.2734
隟	-14.2734
喏	-14.2734
瓏	-14.2734
儘	-14.2734
巠	-14.2734
笻	-14.2734
舖	-14.2734
䡠	-14.2734
慠	-14.2734
狻	-14.2734
琞	-14.2734
町	-14.2734
籝	-14.2734
聯	-14.2734
蝻	-14.2734
猱	-14.2734
糯	-14.2734
莞	-14.2734
夑	-14.2737
銭	-14.2737
郢	-14.2737
丫	-14.2737
挌	-14.2737
迟	-14.2737
隩	-14.2737
䇺	-14.2737
埠	-14.2737
灊	-14.2737
禫	-14.2737
綖	-14.2737
蒃	-14.2737
讞	-14.2737
Z	-14.2737
挍	-14.2737
欀	-14.2737
泫	-14.2737
畟	-14.2737
芾	-14.2737
逵	-14.274
欘	-14.274
慇	-14.274
憀	-14.274
矺	-14.274
腧	-14.274
鶻	-14.274
㹸	-14.274
么	-14.274
繤	-14.274
玏	-14.274
跎	-14.274
麄	-14.274
侓	-14.274
嘸	-14.274
囙	-14.274
枋	-14.274
瓓	-14.274
闠	-14.274
坏	-14.2743
剸	-14.2743
偘	-14.2744
【	-14.2744
・	-14.2744
单	-14.2744
挼	-14.2744
穠	-14.2744
罍	-14.2744
槤	-14.2744
繊	-14.2744
耍	-14.2744
㮒	-14.2744
唼	-14.2744
幌	-14.2744
票	-14.2744
鈛	-14.2744
隧	-14.2744
伉	-14.2744
氲	-14.2744
緃	-14.2744
莆	-14.2744
驇	-14.2744
璐	-14.2745
眛	-14.2745
狷	-14.2747
賡	-14.2747
竂	-14.2747
沠	-14.2747
猝	-14.2747
偹	-14.2747
樑	-14.2747
欂	-14.2747
虫	-14.2747
囦	-14.2747
俌	-14.2747
变	-14.2747
恟	-14.2747
棌	-14.2747
琤	-14.2747
竞	-14.2747
芨	-14.2747
葅	-14.2747
蚪	-14.2747
訢	-14.2747
銊	-14.2747
髄	-14.2747
鯁	-14.2748
㧕	-14.2748
䆒	-14.2748
䌫	-14.2748
描	-14.275
蕊	-14.275
枇	-14.275
斝	-14.275
洄	-14.275
鮫	-14.275
仃	-14.275
涙	-14.275
瑣	-14.275
攤	-14.275
辮	-14.275
㩴	-14.275
䡖	-14.275
厎	-14.275
幇	-14.275
抨	-14.275
曛	-14.275
樍	-14.275
湋	-14.275
箴	-14.275
粵	-14.275
罾	-14.275
駛	-14.275
鍬	-14.2752
滭	-14.2752
鑛	-14.2753
蝉	-14.2753
莘	-14.2753
篬	-14.2753
姫	-14.2753
呰	-14.2753
埧	-14.2753
屛	-14.2753
湏	-14.2753
癯	-14.2753
辣	-14.2753
靛	-14.2753
揑	-14.2753
曍	-14.2753
羾	-14.2753
訅	-14.2753
灈	-14.2755
筊	-14.2756
嶻	-14.2756
煟	-14.2756
鑕	-14.2756
紞	-14.2756
佘	-14.2756
傒	-14.2756
忓	-14.2756
糴	-14.2756
沲	-14.2756
淇	-14.2756
攢	-14.2756
儌	-14.2756
岨	-14.2756
甁	-14.2756
窩	-14.2756
簔	-14.2756
蜩	-14.2756
袓	-14.2756
詼	-14.2756
㤅	-14.2759
佊	-14.2759
峡	-14.2759
箂	-14.2759
麕	-14.2759
怔	-14.2759
皐	-14.2759
菀	-14.2759
刘	-14.2759
扭	-14.2759
捃	-14.2759
毖	-14.2759
翬	-14.2759
萧	-14.2759
蓂	-14.2759
謢	-14.2759
徘	-14.2762
勌	-14.2762
说	-14.2762
冏	-14.2762
杰	-14.2762
閾	-14.2762
䆠	-14.2763
娬	-14.2763
盎	-14.2763
惴	-14.2763
烙	-14.2763
瓘	-14.2763
皜	-14.2763
郗	-14.2763
飀	-14.2763
菽	-14.2764
䯻	-14.2766
岵	-14.2766
崪	-14.2766
簜	-14.2766
鐃	-14.2766
蒔	-14.2766
虀	-14.2766
窆	-14.2766
膀	-14.2766
菅	-14.2766
凳	-14.2766
惙	-14.2766
梱	-14.2766
絺	-14.2766
綌	-14.2766
蠙	-14.2766
諺	-14.2766
霪	-14.2766
頦	-14.2766
鸇	-14.2766
侚	-14.2766
誾	-14.2766
閘	-14.2766
湜	-14.2769
魎	-14.2769
坌	-14.2769
袒	-14.2769
鴐	-14.2769
鷗	-14.2769
唤	-14.2769
戡	-14.2769
磹	-14.2769
殰	-14.2769
琦	-14.2769
磷	-14.2769
呿	-14.2769
屦	-14.2769
歯	-14.2769
烖	-14.2769
萆	-14.2769
賻	-14.2769
顀	-14.2769
颭	-14.2769
鷂	-14.2769
慞	-14.2772
蝇	-14.2772
䤋	-14.2772
闖	-14.2772
疸	-14.2772
皞	-14.2772
閥	-14.2772
澂	-14.2772
疝	-14.2772
貂	-14.2772
貙	-14.2772
酹	-14.2772
埛	-14.2772
濩	-14.2772
鞴	-14.2772
両	-14.2775
瓴	-14.2775
煫	-14.2775
閠	-14.2775
晈	-14.2775
柚	-14.2775
楞	-14.2775
禕	-14.2775
韛	-14.2775
厝	-14.2775
嗸	-14.2775
孶	-14.2775
尓	-14.2775
臏	-14.2775
蕈	-14.2775
涬	-14.2778
㥽	-14.2778
劭	-14.2778
搫	-14.2778
鈇	-14.2778
嫠	-14.2778
朢	-14.2778
蠏	-14.2778
紓	-14.2778
凮	-14.2778
嘍	-14.2778
曬	-14.2778
閴	-14.2778
雰	-14.2778
韯	-14.2778
嚌	-14.2781
兕	-14.2781
儿	-14.2781
夆	-14.2781
捎	-14.2781
见	-14.2781
閇	-14.2781
㡠	-14.2781
竉	-14.2781
跼	-14.2781
笮	-14.2781
躄	-14.2784
薕	-14.2785
醎	-14.2785
纊	-14.2785
穉	-14.2785
炤	-14.2785
穈	-14.2785
窃	-14.2785
㜸	-14.2787
旐	-14.2788
淍	-14.2788
䦝	-14.2788
肄	-14.2788
頬	-14.2788
颜	-14.2788
驊	-14.2788
滹	-14.2788
鬽	-14.2788
昵	-14.2788
滻	-14.2788
㶚	-14.2788
墯	-14.2788
帆	-14.2788
疎	-14.2788
绛	-14.2788
譙	-14.2788
楶	-14.2791
捋	-14.2791
偰	-14.2791
嫵	-14.2791
虩	-14.2791
飰	-14.2791
众	-14.2791
烥	-14.2791
估	-14.2794
屭	-14.2794
㨷	-14.2794
搔	-14.2794
洸	-14.2794
鐖	-14.2794
曯	-14.2797
㖡	-14.28
饜	-14.28
鎸	-14.28
轎	-14.2803
贜	-14.2803
椂	-14.2803
菁	-14.2803
腭	-14.2804
蹺	-14.2804
㫿	-14.2807
昄	-14.2807
緌	-14.2807
气	-14.281
汶	-14.281
濽	-14.281
紉	-14.281
鍮	-14.281
橐	-14.2813
琯	-14.2813
玡	-14.2813
帤	-14.2813
栿	-14.2813
莒	-14.2813
蔦	-14.2816
佶	-14.2816
蒹	-14.2816
閧	-14.2816
鹰	-14.2822
斐	-14.2829
湟	-14.2829
抶	-14.2829
澠	-14.2835
呐	-14.2838
换	-14.2838
樛	-14.2844
饅	-14.2844
嗾	-14.2845
貉	-14.2847
峥	-14.285
絀	-14.2854
笄	-14.2857
漚	-14.2857
蕡	-14.2875
鬍	-14.2933
麀	-15.2444
鷸	-15.2445
鵜	-15.2446
鱓	-15.2447
鰕	-15.2448
鯢	-15.2449
鬴	-15.245
鬭	-15.2451
髦	-15.2452
餺	-15.2453
餮	-15.2454
飪	-15.2455
飥	-15.2456
頫	-15.2457
頞	-15.2458
韮	-15.2459
韙	-15.246
靆	-15.2461
隮	-15.2462
陴	-15.2463
陖	-15.2464
錘	-15.2465
銑	-15.2466
鉏	-15.2467
醑	-15.2468
鄲	-15.2469
郪	-15.247
郃	-15.2471
邴	-15.2472
邯	-15.2473
逬	-15.2474
轢	-15.2475
輱	-15.2476
輥	-15.2477
輓	-15.2478
蹁	-15.2479
踠	-15.248
跬	-15.2481
趐	-15.2482
觽	-15.2483
覼	-15.2484
襫	-15.2485
襜	-15.2486
襘	-15.2487
襏	-15.2488
襈	-15.2489
裌	-15.249
袟	-15.2491
蟣	-15.2492
螽	-15.2493
蝘	-15.2494
蝑	-15.2495
蜙	-15.2496
蜘	-15.2497
蛹	-15.2498
蚛	-15.2499
蘅	-15.25
藟	-15.2501
薔	-15.2502
蔎	-15.2503
蓿	-15.2504
蓞	-15.2505
葭	-15.2506
葂	-15.2507
萏	-15.2508
荑	-15.2509
苴	-15.251
苡	-15.2511
苜	-15.2512
艇	-15.2513
臒	-15.2514
胼	-15.2515
胝	-15.2516
肕	-15.2517
耔	-15.2518
翾	-15.2519
翇	-15.252
罌	-15.2521
纈	-15.2522
綟	-15.2523
簦	-15.2524
篈	-15.2525
箄	-15.2526
筩	-15.2527
笫	-15.2528
穜	-15.2529
禔	-15.253
祔	-15.2531
矮	-15.2532
矞	-15.2533
瞪	-15.2534
睺	-15.2535
睘	-15.2536
眵	-15.2537
眙	-15.2538
皋	-15.2539
癏	-15.254
痞	-15.2541
痔	-15.2542
痏	-15.2543
疳	-15.2544
疔	-15.2545
畞	-15.2546
甃	-15.2547
瑨	-15.2548
瑑	-15.2549
琭	-15.255
琊	-15.2551
珥	-15.2552
珙	-15.2553
珏	-15.2554
獍	-15.2555
爏	-15.2556
熳	-15.2557
潞	-15.2558
漭	-15.2559
渦	-15.256
淝	-15.2561
淄	-15.2562
泅	-15.2563
櫗	-15.2564
檔	-15.2565
橰	-15.2566
槹	-15.2567
楸	-15.2568
棕	-15.2569
梔	-15.257
栳	-15.2571
权	-15.2572
朏	-15.2573
曏	-15.2574
晧	-15.2575
旈	-15.2576
撕	-15.2577
撋	-15.2578
搴	-15.2579
搧	-15.258
揶	-15.2581
扯	-15.2582
戣	-15.2583
懤	-15.2584
慷	-15.2585
愿	-15.2586
愨	-15.2587
惧	-15.2588
惆	-15.2589
彀	-15.259
弹	-15.2591
廙	-15.2592
嶁	-15.2593
崼	-15.2594
崛	-15.2595
岣	-15.2596
屁	-15.2597
寀	-15.2598
宄	-15.2599
孥	-15.26
囁	-15.2601
嚅	-15.2602
嘇	-15.2603
喰	-15.2604
吡	-15.2605
剞	-15.2606
凸	-15.2607
兗	-15.2608
儳	-15.2609
傃	-15.261
偓	-15.2611
倜	-15.2612
俶	-15.2613
俜	-15.2614
伋	-15.2615
䳒	-15.2616
䧳	-15.2617
䦒	-15.2618
䡗	-15.2619
㾋	-15.262
㼁	-15.2621
㴎	-15.2622
㲹	-15.2623
㘕	-15.2624
】	-15.2625
臾	-15.2625
𨪏	-15.2626
𤭁	-15.2627
𤄵	-15.2628
𢡠	-15.2629
𠸎	-15.263
𠯲	-15.2631
𠜇	-15.2632
﨑	-15.2633
齅	-15.2634
麂	-15.2635
鴦	-15.2636
鮧	-15.2637
饙	-15.2638
韁	-15.2639
阯	-15.264
閿	-15.2641
鏫	-15.2642
鋭	-15.2643
轤	-15.2644
豭	-15.2645
袷	-15.2646
蟯	-15.2647
蝴	-15.2648
蚳	-15.2649
蕣	-15.265
蕢	-15.2651
萼	-15.2652
菉	-15.2653
茰	-15.2654
茀	-15.2655
舳	-15.2656
腯	-15.2657
翡	-15.2658
翃	-15.2659
籯	-15.266
籤	-15.2661
磽	-15.2662
矍	-15.2663
瘓	-15.2664
瓔	-15.2665
瑄	-15.2666
琶	-15.2667
琵	-15.2668
燉	-15.2669
烊	-15.267
濣	-15.2671
涪	-15.2672
曨	-15.2673
斌	-15.2674
擻	-15.2675
抖	-15.2676
愇	-15.2677
嶙	-15.2678
嶇	-15.2679
峋	-15.268
孀	-15.2681
媸	-15.2682
奭	-15.2683
堋	-15.2684
勠	-15.2685
凙	-15.2686
䵟	-15.2687
䱌	-15.2688
䖟	-15.2689
㿈	-15.269
𩃻	-15.2691
𧏙	-15.2692
𣿖	-15.2693
𣿄	-15.2694
髟	-15.2695
譸	-15.2696
褓	-15.2697
螄	-15.2698
藭	-15.2699
蕷	-15.27
胳	-15.2701
肸	-15.2702
聶	-15.2703
羃	-15.2704
窬	-15.2705
稉	-15.2706
礱	-15.2707
碼	-15.2708
硨	-15.2709
癬	-15.271
癉	-15.2711
瓈	-15.2712
玎	-15.2713
狽	-15.2714
狢	-15.2715
煢	-15.2716
潧	-15.2717
淼	-15.2718
沚	-15.2719
檏	-15.272
樟	-15.2721
桎	-15.2722
枓	-15.2723
恓	-15.2724
嶒	-15.2725
崢	-15.2726
夥	-15.2727
塏	-15.2728
噍	-15.2729
嘢	-15.273
嗡	-15.2731
咢	-15.2732
劓	-15.2733
䏶	-15.2734
茯	-15.2734
詫	-15.2734
㻂	-15.2735
㫮	-15.2736
𡅗	-15.2737
齓	-15.2738
鯸	-15.2739
驃	-15.274
馹	-15.2741
酡	-15.2742
郛	-15.2743
覡	-15.2744
蠛	-15.2745
蠓	-15.2746
螮	-15.2747
蜋	-15.2748
緦	-15.2749
礲	-15.275
櫳	-15.275
弧	-15.275
㠶	-15.275
磲	-15.2751
确	-15.2752
睪	-15.2753
癢	-15.2754
疥	-15.2755
玘	-15.2756
猗	-15.2757
楯	-15.2758
枲	-15.2759
嫡	-15.276
倥	-15.2761
𧴀	-15.2762
𠗂	-15.2763
駸	-15.2764
蹂	-15.2765
芭	-15.2766
臚	-15.2767
縞	-15.2768
紵	-15.2769
粢	-15.277
穨	-15.2771
癕	-15.2772
瑙	-15.2773
瑘	-15.2774
枸	-15.2774
嫂	-15.2774
濱	-15.2775
濊	-15.2776
桅	-15.2777
憨	-15.2778
慽	-15.2779
坱	-15.278
啾	-15.2781
咫	-15.2781
𠯐	-15.2782
鏑	-15.2783
踟	-15.2784
襠	-15.2785
蝜	-15.2786
笁	-15.2787
畯	-15.2788
榴	-15.2789
掗	-15.279
憔	-15.2791
徜	-15.2792
媧	-15.2793
坻	-15.2794
俙	-15.2795
䄡	-15.2796
駘	-15.2797
隲	-15.2798
鎧	-15.2799
鄞	-15.28
蹌	-15.2801
蝝	-15.2802
蜈	-15.2803
蚣	-15.2804
箎	-15.2805
痍	-15.2806
濜	-15.2807
嵳	-15.2808
崚	-15.2809
塤	-15.281
厔	-15.2811
錙	-15.2812
醐	-15.2813
醍	-15.2814
躇	-15.2815
翶	-15.2816
敡	-15.2817
婪	-15.2818
娩	-15.2819
咺	-15.282
𦧇	-15.2821
鄱	-15.2822
讜	-15.2823
蟒	-15.2824
蝣	-15.2825
蜉	-15.2826
蚯	-15.2827
蚑	-15.2828
罟	-15.2829
瑝	-15.283
珀	-15.2831
嵬	-15.2832
鋋	-15.2833
跣	-15.2834
葫	-15.2835
榑	-15.2836
丏	-15.2837
𢭎	-15.2838
祊	-15.2839
邡	-15.284
蕝	-15.2841
簁	-15.2842
玕	-15.2843
啻	-15.2844
碌	-15.2845
瀼	-15.2846
忒	-15.2847
嚳	-15.2848
嗈	-15.2849
逶	-15.285
幪	-15.2851
匍	-15.2852
邙	-15.2853
錮	-15.2854
螣	-15.2855
窿	-15.2856
繽	-15.2857
湲	-15.2858
嵋	-15.2859
崆	-15.286
絪	-15.2861
饉	-15.2862
燾	-15.2863
嘹	-15.2864
蠁	-15.2865
滔	-15.2866
嚨	-15.2867
徬	-15.2868
逡	-15.2869
㬋	-15.287
鹵	-15.2871
嗊	-15.2872
禬	-15.2873
璀	-15.2874
䪃	-15.2875
螻	-15.2876
岧	-15.2877
黼	-15.2878
蝖	-15.2879
軻	-15.288
嵯	-15.2881
瑠	-15.2882
崘	-15.2883
氤	-15.2884
纉	-15.2885
靂	-15.2886
蘩	-15.2887
髣	-15.2887
