<unk>	0
<s>	0
</s>	0
。	-1.80788
故	-4.21874
者	-4.43117
名	-5.13582
有	-5.20292
謂	-5.21147
等	-5.24688
也	-5.28032
是	-5.28458
此	-5.31293
二	-5.35255
即	-5.40434
為	-5.40474
中	-5.40559
若	-5.4638
以	-5.5032
無	-5.57256
一	-5.58262
非	-5.58721
於	-5.60884
說	-5.65052
如	-5.65121
三	-5.66873
至	-5.69018
(	-5.69446
)	-5.69871
及	-5.70248
心	-5.72315
義	-5.7298
法	-5.73588
不	-5.75217
生	-5.76262
相	-5.83459
言	-5.86818
之	-5.8884
彼	-5.89228
得	-5.89883
由	-5.9156
依	-5.93871
論	-5.94755
.	-6.01035
四	-6.02086
。】「	-6.04085
▁	-6.04439
。」【	-6.08506
因	-6.10723
時	-6.12028
行	-6.12573
下	-6.12868
起	-6.1294
與	-6.18895
緣	-6.20606
又	-6.20876
而	-6.2151
亦	-6.2187
或	-6.23704
見	-6.32041
後	-6.32309
問	-6.32511
唯	-6.32962
性	-6.34327
識	-6.34426
答	-6.36229
五	-6.36571
攝	-6.3689
定	-6.40277
明	-6.40366
云	-6.4386
一切	-6.44007
果	-6.48092
分別	-6.48889
其	-6.49237
智	-6.49588
菩薩	-6.50023
如是	-6.50057
初	-6.52474
受	-6.52811
所	-6.55242
體	-6.5566
名為	-6.56076
通	-6.58399
修	-6.58884
色	-6.59485
業	-6.59739
皆	-6.59867
斷	-6.60203
自	-6.60516
事	-6.61144
身	-6.62367
能	-6.62727
然	-6.6288
別	-6.63042
境	-6.63058
諸	-6.63147
釋	-6.6471
觀	-6.65059
前	-6.66423
餘	-6.66523
疏	-6.6701
人	-6.68406
處	-6.68567
雖	-6.70612
成	-6.70688
應	-6.71625
種	-6.71826
種子	-6.72119
善	-6.7402
解	-6.74515
住	-6.75032
意	-6.75794
即是	-6.76069
煩惱	-6.77594
乃至	-6.78458
俱	-6.7856
上	-6.7941
差別	-6.79969
苦	-6.80332
六	-6.80713
隨	-6.82279
我	-6.82946
滅	-6.83387
同	-6.83614
立	-6.847
離	-6.85522
作	-6.87687
相應	-6.88543
已	-6.89005
云何	-6.89047
顯	-6.92064
佛	-6.92634
取	-6.92686
分	-6.94008
知	-6.94077
位	-6.95629
捨	-6.95648
則	-6.9675
今	-6.96889
道	-6.97221
現	-6.97631
多	-6.97724
在	-6.98396
令	-6.98725
從	-6.99568
大	-6.99839
正	-7.00157
八	-7.01483
地	-7.01895
七	-7.02834
用	-7.04116
入	-7.0447
根	-7.04549
】	-7.04721
障	-7.04952
欲	-7.05101
勝	-7.06332
證	-7.06729
難	-7.06902
轉	-7.06995
樂	-7.07217
執	-7.08919
既	-7.09207
門	-7.09744
文	-7.10537
無漏	-7.12154
耶	-7.12228
故名	-7.12977
述曰	-7.13259
十	-7.13911
清淨	-7.13929
空	-7.14582
具	-7.15345
次	-7.15409
但	-7.15528
。【	-7.1557
實	-7.15828
異	-7.17554
理	-7.18001
自性	-7.18109
淨	-7.18264
他	-7.18452
第二	-7.20669
常	-7.20761
*	-7.21691
先	-7.2187
想	-7.22605
慧	-7.22888
方便	-7.22951
除	-7.23994
戒	-7.24536
此中	-7.25172
解脫	-7.26651
約	-7.27324
現行	-7.28056
思	-7.28479
巳	-7.29818
外	-7.3078
涅槃	-7.31456
破	-7.32623
不同	-7.32876
,	-7.33059
第三	-7.33078
等者	-7.33789
眾生	-7.33821
引	-7.34805
有情	-7.35315
由此	-7.35476
可	-7.3605
總	-7.36732
教	-7.36846
力	-7.37552
未	-7.37611
所依	-7.37842
合	-7.38186
真如	-7.38612
第八	-7.38862
何	-7.39366
經	-7.40185
本	-7.41643
復	-7.41755
大乘	-7.4199
有漏	-7.42112
因緣	-7.42193
觸	-7.4228
所緣	-7.42441
分二	-7.4271
愛	-7.43047
過	-7.43577
界	-7.44773
無明	-7.44948
念	-7.45674
施	-7.45724
聲	-7.45958
數	-7.46367
如來	-7.47659
五識	-7.47683
世間	-7.48349
當	-7.48406
出	-7.48411
作意	-7.49584
染	-7.50818
諸法	-7.51306
所有	-7.51862
內	-7.5189
意識	-7.53198
求	-7.5341
九	-7.54495
真	-7.54906
論曰	-7.55361
決定	-7.55364
喻	-7.55762
方	-7.56281
異熟	-7.57052
類	-7.57067
辨	-7.57692
似	-7.57696
是故	-7.58442
第七	-7.58862
對	-7.58963
不能	-7.59132
假	-7.59136
第四	-7.59413
何故	-7.60451
所攝	-7.60501
是名	-7.60814
信	-7.62753
計	-7.62799
釋曰	-7.63194
品	-7.63956
唯識	-7.64164
次第	-7.6461
功德	-7.64944
惡	-7.66231
成就	-7.66507
心所	-7.67776
結	-7.68372
第六	-7.68663
無有	-7.68939
語	-7.70095
盡	-7.70545
應知	-7.70782
一者	-7.70788
惑	-7.70845
共	-7.70927
種種	-7.71055
加行	-7.719
欲界	-7.71925
無量	-7.71974
德	-7.72496
便	-7.72834
發	-7.73028
無為	-7.73093
建立	-7.73506
覺	-7.73927
二種	-7.74032
相分	-7.74146
許	-7.74303
亦有	-7.74709
相續	-7.75151
二者	-7.75592
順	-7.75721
貪	-7.76049
重	-7.76519
持	-7.76537
因果	-7.77001
行相	-7.77027
如何	-7.77347
宗	-7.77454
聞	-7.78057
變	-7.79687
頌	-7.81103
第一	-7.81857
不定	-7.82114
生死	-7.82497
不得	-7.833
天	-7.83633
能生	-7.84171
望	-7.84337
當知	-7.84377
對治	-7.85097
」	-7.86021
簡	-7.86849
亦名	-7.86919
所以	-7.87036
各	-7.87105
就	-7.87301
物	-7.87353
遍	-7.87404
究竟	-7.87465
師	-7.87838
三種	-7.88695
二乘	-7.88772
廣	-7.89552
據	-7.89992
現在	-7.90298
極微	-7.90357
自在	-7.90857
圓滿	-7.91202
忍	-7.91535
字	-7.91593
化	-7.91908
更	-7.91967
極	-7.91993
依止	-7.92071
真實	-7.92492
無記	-7.92565
遠離	-7.92616
疑	-7.92689
舉	-7.92777
必	-7.92902
故云	-7.93043
失	-7.93306
亦爾	-7.93625
眾	-7.93699
二明	-7.93964
境界	-7.94279
一分	-7.94879
瑜伽	-7.95714
報	-7.95958
增	-7.95985
無常	-7.96198
不可	-7.96203
有二	-7.96206
為因	-7.97196
復次	-7.98189
集	-7.98458
趣	-7.9852
修習	-7.99366
增上	-7.99466
世	-7.99527
學	-7.99657
六識	-7.99926
所作	-8.00049
蘊	-8.00644
句	-8.01021
見分	-8.01205
故知	-8.01492
食	-8.01735
。△	-8.02034
精進	-8.03112
量	-8.03529
。「	-8.03848
無間	-8.04057
眼	-8.04111
不說	-8.04455
略	-8.04627
根本	-8.04827
少	-8.04868
和合	-8.05378
屬	-8.05472
章	-8.05933
一明	-8.06518
支	-8.06947
依他	-8.0707
聲聞	-8.07295
為體	-8.07446
平等	-8.07568
要	-8.07925
汝	-8.08397
解云	-8.08915
分三	-8.09847
皆是	-8.10019
四種	-8.10072
違	-8.10636
菩提	-8.10717
見道	-8.10768
願	-8.11686
不生	-8.1178
思惟	-8.11829
恒	-8.1216
所生	-8.12411
論云	-8.12932
問曰	-8.13635
以為	-8.13748
小	-8.13963
造	-8.14143
乃	-8.14693
十一	-8.14979
第五	-8.15145
二釋	-8.15321
喜	-8.15366
小乘	-8.15456
於彼	-8.15496
並	-8.15504
疏云	-8.15548
觀察	-8.15734
自體	-8.15768
亦是	-8.16133
伏	-8.16155
道理	-8.16213
三性	-8.16234
於此	-8.16954
色等	-8.17065
謂於	-8.17541
唯有	-8.17628
王	-8.18002
未來	-8.18048
所說	-8.18216
之中	-8.18397
相違	-8.18436
俱生	-8.1849
第八識	-8.18671
三者	-8.18835
法身	-8.19066
受用	-8.19344
三界	-8.19643
不善	-8.19649
何以故	-8.19869
死	-8.2149
隨順	-8.2157
諦	-8.21737
諸行	-8.21786
且	-8.21827
水	-8.22118
五根	-8.224
勝解	-8.23594
來	-8.23735
有義	-8.23886
生起	-8.24223
如前	-8.24229
將	-8.24251
勝義	-8.2435
前後	-8.24405
慢	-8.24503
亦不	-8.24564
細	-8.24602
相似	-8.2471
壞	-8.24777
過去	-8.24916
有三	-8.25057
雜染	-8.25233
此二	-8.2552
一標	-8.25799
自相	-8.25884
曰	-8.25999
迷	-8.26454
可知	-8.2651
隨眠	-8.26564
具足	-8.26565
尋伺	-8.27119
中有	-8.2723
無相	-8.27277
功能	-8.27539
度	-8.27746
不應	-8.27796
邪見	-8.28158
熏	-8.28614
縛	-8.2871
此識	-8.2881
外道	-8.29095
遮	-8.29459
我見	-8.29614
會	-8.2985
火	-8.29985
聖	-8.30003
非是	-8.30007
邪	-8.30354
親	-8.30751
本識	-8.30912
色界	-8.30929
無我	-8.31071
設	-8.31301
為性	-8.3177
藏	-8.31853
辯	-8.31889
遠	-8.31935
現前	-8.3288
麁	-8.33051
還	-8.33057
滿	-8.33209
不爾	-8.33353
聚	-8.33573
之義	-8.34068
不成	-8.34157
善根	-8.34175
熏習	-8.34259
故名為	-8.34404
無色	-8.34537
了	-8.34624
所謂	-8.35831
深	-8.35943
習	-8.35969
利	-8.36595
家	-8.36785
安立	-8.3681
所得	-8.3681
實有	-8.36908
同時	-8.37689
故言	-8.37749
向	-8.38019
緣起	-8.39657
退	-8.39821
准	-8.40463
三明	-8.40515
若有	-8.40531
出離	-8.40841
稱	-8.40897
故說	-8.40911
無別	-8.41075
亦無	-8.41092
若言	-8.41418
十二	-8.41507
并	-8.41815
說為	-8.42287
兩	-8.42332
妄	-8.42754
妙	-8.42792
寂靜	-8.42926
攝受	-8.43102
劣	-8.43154
一切法	-8.43564
不起	-8.43727
瞋	-8.43884
諸佛	-8.44266
而不	-8.44815
、	-8.44855
無性	-8.45223
竟	-8.45248
皆有	-8.45259
癡	-8.45491
增長	-8.45593
犯	-8.45783
全	-8.45904
或有	-8.45985
能緣	-8.46223
無學	-8.46373
尋思	-8.46544
依處	-8.46713
法界	-8.46961
所知	-8.47006
若爾	-8.47091
八識	-8.4732
雜	-8.47423
是其	-8.47628
例	-8.47668
靜慮	-8.47807
眼識	-8.4809
各別	-8.481
所引	-8.48379
善法	-8.48424
過失	-8.48756
尋	-8.48931
證得	-8.49097
流	-8.49337
所起	-8.4942
耳	-8.49473
愚	-8.49479
亦非	-8.4952
名之為	-8.49552
亦得	-8.49809
非有	-8.49832
而生	-8.49964
表	-8.50123
近	-8.51108
一問	-8.51597
安住	-8.51656
習氣	-8.51818
乘	-8.52
最勝	-8.52438
即此	-8.52782
作用	-8.52888
感	-8.53587
宣說	-8.53696
假立	-8.53858
亦應	-8.53901
心心所	-8.53938
轉依	-8.54481
言說	-8.54623
開	-8.54929
邊	-8.55001
義故	-8.55302
若無	-8.55307
雖有	-8.55336
成熟	-8.55515
有四	-8.5558
者謂	-8.55677
等流	-8.56138
須	-8.56199
異生	-8.56323
福	-8.56365
止	-8.56549
者即	-8.57186
生故	-8.57383
凡夫	-8.57416
法執	-8.57536
補特伽羅	-8.57623
說名	-8.57681
顯示	-8.57684
動	-8.57867
豈	-8.58102
猶如	-8.58246
猶	-8.58299
一向	-8.58549
助	-8.58726
所知障	-8.5874
了知	-8.59079
悔	-8.59457
五種	-8.5956
染淨	-8.59621
無分別智	-8.59837
於中	-8.59847
記	-8.5994
此即	-8.6003
一云	-8.60031
意樂	-8.60035
害	-8.60374
所執	-8.60526
阿賴耶識	-8.60651
不言	-8.60678
三乘	-8.60868
共相	-8.61049
四者	-8.61081
世尊	-8.61738
修行	-8.61979
治	-8.62235
顛倒	-8.62235
之所	-8.62492
三摩地	-8.627
變異	-8.6274
三世	-8.6306
少分	-8.63063
修道	-8.63213
出世	-8.63463
子	-8.63583
塵	-8.63664
形	-8.63739
使	-8.63787
十地	-8.64529
獨	-8.64565
微	-8.64679
命	-8.65191
不共	-8.65215
此初也	-8.65225
不淨	-8.66195
唯是	-8.66273
二依	-8.66569
指	-8.66636
厭	-8.66728
為緣	-8.66758
善巧	-8.66884
光	-8.67005
罪	-8.67006
供養	-8.6724
能引	-8.6725
施設	-8.67523
麁重	-8.67851
我法	-8.68276
五蘊	-8.68322
性故	-8.68414
第六識	-8.68417
僧	-8.68484
悉	-8.68682
未得	-8.68811
世俗	-8.68916
纏	-8.69027
三結	-8.6924
有為	-8.69298
殊勝	-8.69444
長	-8.69685
十種	-8.6979
所變	-8.69918
離欲	-8.70436
我執	-8.70477
六種	-8.70568
正法	-8.70655
一依	-8.70656
而有	-8.70833
此論	-8.71115
有二種	-8.71225
初禪	-8.71962
現量	-8.72024
無分別	-8.72136
漏	-8.72153
種姓	-8.72288
互	-8.72764
第七識	-8.7297
之法	-8.73225
現觀	-8.73479
安	-8.73594
可得	-8.73636
風	-8.73689
染污	-8.73799
通達	-8.73877
無上	-8.74063
若依	-8.7407
能取	-8.74382
示	-8.74724
有無	-8.74934
影	-8.75238
標	-8.75729
斯	-8.75742
本質	-8.75869
體性	-8.7588
主	-8.76123
不離	-8.76293
廣大	-8.76776
土	-8.76834
劫	-8.7688
聖道	-8.77107
出家	-8.77183
流轉	-8.77303
律儀	-8.77467
善惡	-8.77473
不然	-8.77532
影像	-8.77768
照	-8.7779
雙	-8.77824
味	-8.77897
自他	-8.78004
發起	-8.78112
發心	-8.78174
遂	-8.78233
詮	-8.78236
著	-8.78261
潤	-8.78287
基云	-8.78465
微細	-8.78656
比量	-8.78754
初地	-8.78853
部	-8.78866
俗	-8.78995
譬如	-8.79124
剎那	-8.79314
一一	-8.79558
凡	-8.79562
貪等	-8.79603
大悲	-8.79766
展轉	-8.79829
皆名	-8.79836
而起	-8.79841
種性	-8.80082
所行	-8.80713
漸	-8.80836
此義	-8.80891
由彼	-8.80895
智慧	-8.80969
不見	-8.81232
四諦	-8.81274
此三	-8.81451
種類	-8.8153
息	-8.81929
心王	-8.81989
所取	-8.82015
爾	-8.82042
不與	-8.82043
徧	-8.82188
相故	-8.82302
於諸	-8.82344
前三	-8.82415
情	-8.82462
任運	-8.82525
復有	-8.82548
轉識	-8.82579
法性	-8.82703
易	-8.82879
而得	-8.82907
麤	-8.83118
所餘	-8.83204
如此	-8.83234
今此	-8.83258
兼	-8.83266
分位	-8.83267
翻	-8.83455
益	-8.83479
質	-8.83707
不緣	-8.83905
覆	-8.83995
所成	-8.84038
假說	-8.84174
末	-8.84216
矣	-8.84237
遣	-8.84242
憂	-8.84814
謂由	-8.84826
無礙	-8.85127
香	-8.85213
命根	-8.85315
阿羅漢	-8.8545
利益	-8.85485
此文	-8.8573
上品	-8.85903
法故	-8.86008
能令	-8.86025
正智	-8.86213
不名	-8.86313
變化	-8.8646
不相應	-8.86495
地中	-8.86519
禪	-8.86766
以此	-8.87208
生滅	-8.87472
足	-8.87486
病	-8.87507
往	-8.87655
對法	-8.87827
末那	-8.88068
彰	-8.88096
位中	-8.88425
說法	-8.88446
異熟果	-8.88449
名色	-8.88527
受生	-8.88847
聖教	-8.89053
又云	-8.89076
諸菩薩	-8.89279
遍計	-8.89514
偏	-8.89889
滅定	-8.90073
悲	-8.90104
不斷	-8.90297
資	-8.9034
加	-8.90436
若不	-8.90625
此是	-8.90741
損	-8.9087
之時	-8.9124
十六	-8.91311
不動	-8.91452
意云	-8.91757
相者	-8.91939
正行	-8.91972
佛性	-8.92274
無色界	-8.92361
所以者何	-8.92397
依此	-8.92527
為依	-8.92603
甚深	-8.9297
為業	-8.9322
收	-8.93232
諸識	-8.93247
惠	-8.93344
始	-8.93432
器	-8.9367
十四	-8.93804
轉變	-8.94212
但是	-8.94267
財	-8.94316
不知	-8.94396
一立因	-8.94515
被	-8.94539
去	-8.9459
成立	-8.94781
隨煩惱	-8.94841
不許	-8.94947
十五	-8.94999
內外	-8.95087
上地	-8.95287
喜樂	-8.95555
耶答	-8.9557
超	-8.95625
了別	-8.9584
者意云	-8.9636
悟	-8.96567
後得智	-8.96628
諸根	-8.96688
自證分	-8.96773
般若	-8.96899
最	-8.97122
分四	-8.97217
神通	-8.97439
二分	-8.97704
歸	-8.97768
繫	-8.97815
資糧	-8.97881
百	-8.98012
既無	-8.9805
決擇	-8.98199
一種	-8.98217
放逸	-8.98281
第九	-8.98322
地獄	-8.98584
不取	-8.98606
永斷	-8.98936
二障	-8.98949
熟	-8.98996
論說	-8.99022
能障	-8.99247
四大	-8.9928
第十	-8.995
上界	-8.99567
頓	-8.9962
畢竟	-8.99673
四句	-8.998
十八	-8.99924
釋云	-9.00046
一切種	-9.00303
演曰二	-9.00479
量云	-9.00492
不應道理	-9.00508
段	-9.00537
不依	-9.00553
千	-9.00708
護	-9.00744
各有	-9.00965
散	-9.01004
如實	-9.01109
幾	-9.01431
列	-9.01699
所言	-9.01806
故曰	-9.01827
顯現	-9.02061
齊	-9.02079
有異	-9.02197
論文	-9.02213
解釋	-9.02251
已得	-9.0226
惱	-9.02541
別有	-9.0268
散亂	-9.02728
行者	-9.02753
執受	-9.03027
不為	-9.0309
終	-9.03092
日	-9.03216
闕	-9.03409
但有	-9.03447
應非	-9.0349
判	-9.03543
能詮	-9.03668
倒	-9.03744
答曰	-9.03894
曾	-9.03898
因中	-9.04014
遍計所執	-9.04036
二顯果	-9.04081
遍知	-9.04177
為一	-9.04249
音義	-9.04283
非無	-9.04323
輕	-9.04369
釋言	-9.04535
亦然	-9.04714
沒	-9.04955
得生	-9.05066
有三種	-9.0518
無邊	-9.05256
好	-9.05322
後二	-9.0554
無倒	-9.05544
牒	-9.0555
攝論	-9.05648
俱時	-9.0568
一切眾生	-9.05737
經說	-9.06102
此說	-9.06189
能熏	-9.06206
問答	-9.06278
有五	-9.0633
居	-9.06566
頌曰	-9.06581
相攝	-9.06632
勢力	-9.06727
又解	-9.06836
中間	-9.06898
不退	-9.06942
本有	-9.06968
苦諦	-9.06976
二十	-9.07049
墮	-9.07138
之心	-9.07151
燈	-9.07205
又復	-9.07331
山	-9.07337
何等	-9.07344
法中	-9.07473
誰	-9.0748
謂此	-9.07521
四明	-9.07542
同分	-9.07573
二法	-9.07821
諸煩惱	-9.0787
爾時	-9.07872
俱起	-9.07924
此云	-9.07954
亦能	-9.08015
但說	-9.08107
即名	-9.08459
雖無	-9.08651
徵	-9.08663
正見	-9.08986
皆得	-9.0917
大種	-9.09222
必有	-9.09498
有別	-9.0956
目	-9.09653
初明	-9.09758
增上緣	-9.09799
善心	-9.10017
進	-9.10027
或復	-9.10131
俱有	-9.10212
六處	-9.10222
思量	-9.10306
殺	-9.10475
圓	-9.10494
惡趣	-9.10535
人天	-9.10896
隱	-9.10898
光明	-9.10964
三業	-9.10981
非實	-9.11004
寶	-9.1105
前二	-9.11075
後得	-9.11169
諸有情	-9.11208
難云	-9.11409
能持	-9.11505
二答	-9.11612
自然	-9.11853
次明	-9.11902
別故	-9.11983
強	-9.12002
反	-9.12087
然此	-9.12115
卷	-9.12139
待	-9.12315
二取	-9.12393
謗	-9.12409
調伏	-9.12421
煩惱障	-9.12434
勤	-9.12439
能斷	-9.12451
當來	-9.12557
總結	-9.12585
無表	-9.12609
救	-9.12706
自身	-9.12729
略說	-9.12776
假名	-9.12871
不作	-9.12915
現起	-9.12939
苦樂	-9.13026
作業	-9.13036
令心	-9.13125
所緣緣	-9.13566
己	-9.13572
過患	-9.13601
方得	-9.13717
名言	-9.13759
後三	-9.13961
攝故	-9.13981
容	-9.13983
不信	-9.14113
三昧	-9.14193
所證	-9.14215
多分	-9.14312
能起	-9.14448
生時	-9.14721
自證	-9.14732
不捨	-9.14736
亦通	-9.14818
但言	-9.1483
經中	-9.14833
無所	-9.14917
意說	-9.15014
應無	-9.15188
論主	-9.15192
恐	-9.15325
引生	-9.15455
三藏	-9.15585
新	-9.15603
五者	-9.15712
蓋	-9.15772
直	-9.15823
有法	-9.15837
後明	-9.15944
達	-9.16007
修慧	-9.16055
何者	-9.1611
之相	-9.16137
眼等	-9.1648
下地	-9.16499
羅	-9.16503
此等	-9.16559
景云	-9.1672
初二	-9.16812
彼論	-9.16847
陰	-9.16921
即有	-9.16997
有學	-9.17238
又此	-9.17327
為境	-9.17334
及與	-9.1756
如是等	-9.17589
如彼	-9.17684
捨受	-9.1783
護法	-9.17933
白	-9.18053
訖	-9.1823
利他	-9.18485
舊	-9.18587
與彼	-9.18609
其心	-9.18664
得名	-9.18699
尚	-9.18791
嗔	-9.19022
總名	-9.19135
通三性	-9.19185
因故	-9.19406
互相	-9.19471
敬	-9.19596
無餘	-9.19604
為欲	-9.19802
緣生	-9.1983
正義	-9.19941
同類	-9.19964
睡眠	-9.2001
外境	-9.20044
一類	-9.20303
起故	-9.20343
生者	-9.20498
示現	-9.2054
間	-9.2056
不異	-9.20706
常住	-9.20989
勝利	-9.20992
唯說	-9.21527
無心	-9.21704
自類	-9.21731
義者	-9.21771
波羅蜜多	-9.21843
三依	-9.21882
遍行	-9.21933
比	-9.22027
虛空	-9.22037
敘	-9.22603
說有	-9.22608
處所	-9.22616
身中	-9.22727
▁初	-9.2276
一切煩惱	-9.22764
樂受	-9.22921
十三	-9.22928
所治	-9.23242
色心	-9.23473
壽	-9.23785
垢	-9.23805
莊嚴	-9.2382
引發	-9.23849
威儀	-9.23907
懈怠	-9.23956
無間道	-9.23999
且如	-9.24002
能變	-9.24075
此四	-9.24121
解脫道	-9.24154
無想	-9.24186
金	-9.24282
地前	-9.24335
高	-9.24426
心法	-9.24516
一切有情	-9.24547
礙	-9.24599
以彼	-9.24731
體相	-9.24743
者意說	-9.24789
上來	-9.24799
尋求	-9.24872
能得	-9.25055
亦可	-9.25072
世界	-9.25082
最後	-9.25161
佛法	-9.25259
純	-9.25326
下品	-9.25418
波羅蜜	-9.25557
所熏	-9.25602
七識	-9.25639
論云何	-9.25752
殊	-9.25787
尸羅	-9.25799
別相	-9.25887
能為	-9.2593
准此	-9.25945
異熟識	-9.26027
不行	-9.26261
招	-9.26749
力故	-9.26832
前五	-9.26942
衣	-9.27156
能治	-9.27176
不可說	-9.27351
八種	-9.27545
果報	-9.27607
生因	-9.27809
執我	-9.27901
所詮	-9.27902
況	-9.28034
於他	-9.28449
能作	-9.28454
獨覺	-9.28481
執著	-9.28667
七種	-9.28675
唯取	-9.2879
為我	-9.28972
而非	-9.29012
輕安	-9.29019
安樂	-9.29043
長時	-9.29255
中說	-9.29419
苦受	-9.29497
別釋	-9.29786
心等	-9.29804
意根	-9.29813
三釋	-9.29884
果故	-9.29962
而為	-9.30002
命終	-9.30062
獲得	-9.30121
月	-9.30231
後時	-9.3027
此定	-9.30276
一念	-9.30304
上下	-9.30336
聖人	-9.30387
增益	-9.30442
唯一	-9.30552
若於	-9.30555
老	-9.3062
惡作	-9.30686
不放逸	-9.30713
而無	-9.309
四相	-9.3091
皆悉	-9.30912
仍	-9.30953
有四種	-9.30988
又如	-9.31262
依他起	-9.3132
故非	-9.3136
眠	-9.31429
為勝	-9.31505
今言	-9.31698
經部	-9.31716
不可得	-9.31886
長養	-9.31913
乎	-9.32023
國	-9.32181
勝進	-9.32234
輪	-9.32255
六度	-9.32299
變易	-9.32392
久	-9.32553
佛果	-9.32589
惡行	-9.32935
聖者	-9.3309
戲論	-9.331
永	-9.3321
此言	-9.33251
述	-9.33301
此意	-9.33303
饒益	-9.33327
廣說	-9.33335
所緣境	-9.33366
等無間緣	-9.33496
託	-9.33642
者是	-9.33674
亂	-9.339
無異	-9.33919
夢	-9.3403
決	-9.34065
身心	-9.34234
由斯	-9.34265
偈曰	-9.34372
俱行	-9.34585
薩婆多	-9.34692
無差別	-9.34711
二云	-9.34715
如次	-9.34786
藏識	-9.34918
三品	-9.34937
羅漢	-9.35069
化身	-9.35145
品類	-9.35319
於一切	-9.35486
後有	-9.35611
不違	-9.35646
造作	-9.358
八地	-9.35814
二義	-9.35958
所受	-9.36164
得果	-9.36203
五塵	-9.36243
能發	-9.36255
愚癡	-9.36369
最初	-9.36398
一法	-9.3663
一時	-9.36634
方能	-9.36742
非一	-9.36811
斷惑	-9.36824
總別	-9.37236
伹	-9.3725
偈	-9.37483
寬	-9.37496
法者	-9.37496
即前	-9.37615
樹	-9.37721
▁次	-9.37882
趣入	-9.38014
色法	-9.38019
即以	-9.38157
有餘	-9.3816
次釋	-9.38202
于	-9.38254
四法	-9.38255
依他性	-9.38285
怖畏	-9.38511
定心	-9.38551
》	-9.38571
領受	-9.38806
一心	-9.38836
普	-9.38851
下文	-9.38863
闇	-9.38957
脫	-9.38998
返	-9.39052
我慢	-9.39232
所顯	-9.39267
頌中	-9.3929
已生	-9.39293
請	-9.39412
論中	-9.39427
擇滅	-9.39604
一總標	-9.39637
老死	-9.3972
者即是	-9.39823
印	-9.39919
不是	-9.39986
無知	-9.4003
掉舉	-9.40093
靜	-9.40219
皆無	-9.4035
有人	-9.40432
色蘊	-9.40635
明知	-9.40644
之人	-9.40725
極成	-9.4078
狹	-9.40781
賴耶	-9.40821
本性	-9.40878
顯揚	-9.40895
即彼	-9.4093
斷煩惱	-9.40968
差別者	-9.41126
即無	-9.4116
而說	-9.41241
此釋	-9.41456
大小	-9.41568
二性	-9.4163
怨	-9.41742
正理	-9.41795
法空	-9.41804
集諦	-9.41807
思擇	-9.41864
業用	-9.41987
經云	-9.42037
道諦	-9.42202
謂諸	-9.4223
行支	-9.42278
此解	-9.42284
魔	-9.42297
業道	-9.42368
自利	-9.42387
伺	-9.42391
文中	-9.42658
廣釋	-9.42684
此名	-9.42696
依於	-9.42725
半	-9.4274
智者	-9.42749
非如	-9.42849
審	-9.4289
無體	-9.42988
問何故	-9.43109
謂諸菩薩	-9.4312
業果	-9.43141
却	-9.43157
布施	-9.43334
我所	-9.43341
音	-9.43359
慳	-9.43424
有支	-9.43602
其義	-9.43739
此之	-9.43742
定有	-9.43778
青	-9.43795
所見	-9.43833
有相	-9.439
積集	-9.44031
何得	-9.44037
起時	-9.44091
縱	-9.44159
現見	-9.44214
隨其所應	-9.44248
寂滅	-9.44316
此約	-9.4436
像	-9.4451
成佛	-9.44519
唯在	-9.44539
能感	-9.44558
脩	-9.44572
障礙	-9.44644
慈	-9.45019
怖	-9.45155
父母	-9.45181
滅故	-9.45251
令其	-9.45312
性者	-9.45334
之因	-9.45394
讚	-9.45462
真諦	-9.45514
是有法	-9.45541
有體	-9.45559
所斷	-9.45717
法體	-9.45737
妄想	-9.45738
契經	-9.45766
諸眾生	-9.45816
而轉	-9.45842
教授	-9.45842
有色	-9.45916
別境	-9.45924
欣	-9.45994
如是名為	-9.46068
四禪	-9.46152
門中	-9.46222
實性	-9.46231
而言	-9.46296
九地	-9.46399
麤重	-9.46461
令彼	-9.46466
圓成	-9.46467
諍	-9.465
善業	-9.46593
所立	-9.46598
阿	-9.46617
金剛	-9.46703
坐	-9.4671
未生	-9.46816
是假	-9.47089
眷屬	-9.47094
自心	-9.47119
數數	-9.47212
虛妄	-9.47482
多少	-9.47529
任持	-9.47556
年	-9.47662
制	-9.47672
前念	-9.4773
隨轉	-9.4774
相望	-9.47753
聞思	-9.47956
彼說	-9.48003
唯依	-9.48033
此亦	-9.48089
棄捨	-9.48179
已下	-9.48194
無始	-9.48209
眾苦	-9.48231
初句	-9.48248
能證	-9.48266
沙門	-9.48308
寂	-9.48373
二智	-9.48488
都無	-9.48548
身語	-9.48554
信等	-9.48583
若約	-9.48733
暫	-9.48761
此智	-9.49016
一總問	-9.49026
和	-9.49361
善等	-9.49432
五明	-9.49582
定中	-9.49729
無盡	-9.49864
同前	-9.4989
終不	-9.49896
餘三	-9.49901
所造	-9.49902
妄執	-9.49938
謬	-9.50039
耳識	-9.50043
二因	-9.50071
眼根	-9.50111
三寶	-9.50114
與前	-9.50199
簡擇	-9.50305
律	-9.50348
圓成實	-9.50777
傳	-9.50799
夫	-9.50871
弟子	-9.50908
出世間	-9.51006
惡業	-9.51157
既有	-9.513
歡喜	-9.51336
有其	-9.51347
故得	-9.51406
有六	-9.51481
如理	-9.51485
見取	-9.51518
乃至廣說	-9.51544
有一	-9.51559
明了	-9.5169
如實知	-9.51736
譬	-9.51761
減	-9.51762
海	-9.5184
故不	-9.51861
下劣	-9.51882
不由	-9.51981
名等	-9.51989
四依	-9.52007
藥	-9.52037
中品	-9.52131
功用	-9.52214
十七	-9.52313
無所有	-9.52329
差別故	-9.52369
測云	-9.52438
滅諦	-9.52596
為先	-9.52602
是有	-9.52608
於境	-9.52682
三法	-9.52706
之境	-9.52922
之言	-9.52985
一處	-9.53015
為正	-9.53066
如說	-9.5313
四緣	-9.53144
調	-9.53191
五法	-9.5323
如來藏	-9.53306
是實	-9.53421
說言	-9.53424
華	-9.53589
別解	-9.53715
身見	-9.53753
九品	-9.53884
無想定	-9.53947
現法	-9.53993
禪定	-9.54045
念住	-9.54048
諸色	-9.54072
三受	-9.54074
迴向	-9.54145
雖復	-9.54161
自地	-9.54165
增上果	-9.54169
前七	-9.54205
有多	-9.54297
一剎那	-9.54341
為果	-9.54353
無因	-9.5444
能依	-9.54468
謂有	-9.54472
昔	-9.54486
堅	-9.54786
依彼	-9.54804
不立	-9.54898
後念	-9.54912
其相	-9.55011
轉故	-9.55069
從此	-9.55071
說名為	-9.55109
名曰	-9.55185
推	-9.55285
那	-9.55334
既是	-9.55375
體用	-9.55414
三相	-9.55653
斷故	-9.55747
受者	-9.55815
潤生	-9.55875
談	-9.5594
熱	-9.55994
成實	-9.56006
二相	-9.56102
下明	-9.56132
不攝	-9.56167
□	-9.56179
何名	-9.56264
若以	-9.56333
無染	-9.56409
速	-9.56453
前六	-9.56686
恭敬	-9.56702
演曰後	-9.5673
即於	-9.56848
無二	-9.57121
有性	-9.57232
俱轉	-9.57254
後釋	-9.574
漸次	-9.57434
所修	-9.57463
謂依	-9.57576
異類	-9.57657
勝故	-9.57729
若謂	-9.57791
堅固	-9.57985
有說	-9.58055
前說	-9.58162
演曰三	-9.58179
此五	-9.58276
此初	-9.58345
立名	-9.58351
悟入	-9.58425
無畏	-9.58446
迦	-9.58579
有此	-9.58584
得成	-9.58661
十九	-9.58735
體是	-9.58755
邪行	-9.58761
漏盡	-9.58788
得有	-9.58828
詞	-9.58838
初靜慮	-9.58841
斷滅	-9.58949
緣境	-9.59019
防	-9.59027
隔	-9.5904
業種	-9.59193
菩薩摩訶薩	-9.59249
興	-9.59364
色根	-9.59384
中有二	-9.594
不了	-9.59436
如文	-9.59447
一切皆	-9.59486
亦如	-9.59577
信解	-9.59619
頭	-9.59797
相對	-9.59891
憍	-9.59949
若離	-9.59976
毀	-9.59994
慚	-9.60003
令他	-9.6003
於其	-9.60046
摩	-9.60163
又於	-9.60197
見諦	-9.60235
我今	-9.60253
是則	-9.6027
上二界	-9.60589
又說	-9.60618
女	-9.6064
佛說	-9.60683
若是	-9.60699
法爾	-9.6083
機	-9.6085
非實有	-9.60876
染汙	-9.60916
路	-9.60996
施等	-9.61026
般涅槃	-9.61252
異故	-9.61265
緣彼	-9.61304
生等	-9.61322
梵	-9.61423
演曰二釋	-9.6152
等事	-9.61541
佛地	-9.61544
二空	-9.61593
譬喻	-9.6161
二諦	-9.61649
波	-9.61779
頂	-9.61786
又若	-9.61794
能成	-9.6183
正釋	-9.61846
分五	-9.61901
等持	-9.61906
帶	-9.62094
。」【△	-9.62162
前四	-9.62311
到	-9.62313
口	-9.62473
是彼	-9.62506
長行	-9.62507
問云	-9.62531
同一	-9.62551
相見	-9.62829
而住	-9.62843
顯了	-9.62887
故無	-9.62895
勸	-9.62918
緣故	-9.6305
未能	-9.63116
善不善	-9.6328
勢	-9.63355
法師	-9.63358
存	-9.63399
非餘	-9.63428
神	-9.63492
一句	-9.63515
有漏無漏	-9.63562
無漏心	-9.63654
云何為	-9.63655
心故	-9.63774
天眼	-9.63835
於前	-9.63954
行苦	-9.64014
六根	-9.64164
如是一切	-9.64187
第一義	-9.64202
種生	-9.64233
不通	-9.64316
餘識	-9.6432
因者	-9.64415
根境	-9.64529
計我	-9.64555
貪欲	-9.64635
此依	-9.647
論又	-9.64764
應說	-9.64779
眾多	-9.64826
餘處	-9.64842
勿	-9.64844
間斷	-9.64891
事業	-9.64916
實無	-9.64988
婆羅門	-9.65199
號	-9.65252
名字	-9.65315
疎	-9.65442
古	-9.6547
後一	-9.65492
境故	-9.65548
無故	-9.65614
邊際	-9.65633
初釋	-9.65669
隨逐	-9.65719
不壞	-9.65744
受持	-9.65744
安慧	-9.6584
憶念	-9.65857
領	-9.66081
為令	-9.66225
彼宗	-9.66494
虗空	-9.66543
如下	-9.66572
變壞	-9.66619
云何菩薩	-9.66627
止觀	-9.66754
識等	-9.66817
有五種	-9.66871
相應故	-9.66944
已上	-9.66946
皆能	-9.67073
則無	-9.67142
非彼	-9.67188
念念	-9.67243
及以	-9.67314
處中	-9.67328
為相	-9.67407
三身	-9.67504
何不	-9.67542
不害	-9.67573
淨土	-9.67579
亦如是	-9.67637
三句	-9.67642
正念	-9.67657
一乘	-9.67663
▁二	-9.67666
無所有處	-9.67712
分段	-9.67735
二緣	-9.67913
忿	-9.67928
非想	-9.67932
有十	-9.67996
理實	-9.68061
演曰二明	-9.68123
無功用	-9.68219
皆通	-9.68253
異門	-9.6828
損害	-9.68291
持戒	-9.68349
為名	-9.68381
畏	-9.68438
應有	-9.68473
手	-9.68657
配	-9.68669
此明	-9.68691
謂即	-9.68761
能所	-9.68783
初解	-9.68852
泰云	-9.68854
九種	-9.68899
廣分別	-9.68939
亦名為	-9.69028
名義	-9.69039
苦集	-9.6916
三學	-9.69203
諸蘊	-9.69409
是常	-9.69419
無漏種	-9.69438
為彼	-9.6946
憶	-9.69584
未斷	-9.69608
亦復如是	-9.69627
如上	-9.69642
穢	-9.69657
無作	-9.69669
心不	-9.69794
陳	-9.69856
生長	-9.69869
之識	-9.69879
助伴	-9.69893
之體	-9.70018
生得	-9.70033
等法	-9.70069
如前說	-9.70173
總相	-9.70214
愛味	-9.70224
置	-9.70311
飲食	-9.70331
甚	-9.70352
六者	-9.70447
萬	-9.7046
虛	-9.7052
成滿	-9.70559
阿賴耶	-9.70744
離繫	-9.70768
於法	-9.70886
今者	-9.70974
牛	-9.71043
猛利	-9.71043
相見道	-9.71144
荅	-9.71149
俱非	-9.71152
比丘	-9.71168
同異	-9.71217
續	-9.71247
損減	-9.71259
七地	-9.71338
不以	-9.71382
能入	-9.71496
及彼	-9.71525
應不	-9.71558
不住	-9.71605
由有	-9.71723
愛樂	-9.71759
出體	-9.71835
執持	-9.71848
受等	-9.71892
即說	-9.72161
無罪	-9.7233
申	-9.72349
二地	-9.72355
此人	-9.72431
二答分二	-9.72462
希望	-9.726
隨應	-9.7268
四蘊	-9.72785
無生	-9.7283
而能	-9.7293
善趣	-9.72931
瑜伽論	-9.72936
淨心	-9.72943
別立	-9.72944
或時	-9.73245
當生	-9.73336
首	-9.73345
為二	-9.73383
非唯	-9.7362
伴	-9.73626
利根	-9.73752
已說	-9.73761
更無	-9.73833
不變	-9.73834
四義	-9.73837
應言	-9.73976
有所	-9.74072
遇	-9.7416
據實	-9.74178
藉	-9.74183
許有	-9.74216
法處	-9.74226
等至	-9.7443
謂彼	-9.74447
諸天	-9.7445
意業	-9.74456
真見道	-9.74472
奢摩他	-9.74479
大師	-9.74485
聽	-9.74532
徧計	-9.74583
所發	-9.74588
五地	-9.74694
他心智	-9.74699
散動	-9.74728
各各	-9.74756
引證	-9.74812
獲	-9.74946
異相	-9.7495
不還	-9.75072
或說	-9.75176
雖不	-9.75227
善友	-9.75259
事故	-9.7531
體即	-9.75431
又彼	-9.75436
不染	-9.75448
一切諸法	-9.75494
絕	-9.75562
生得善	-9.75626
以無	-9.75699
他心	-9.75712
入見道	-9.75738
揔	-9.75741
《	-9.75913
貪愛	-9.76005
二果	-9.76009
不受	-9.76068
有為無為	-9.76237
能知	-9.76246
寧	-9.7637
含	-9.7653
傍	-9.76546
觸等	-9.76567
諸論	-9.76573
有對	-9.76574
受苦	-9.76589
業者	-9.76658
責	-9.76697
此位	-9.76713
滅盡定	-9.76792
前師	-9.76909
五陰	-9.76939
宜	-9.76982
諸地	-9.76987
四智	-9.77043
唯除	-9.77096
染心	-9.77165
有覆	-9.77197
聞慧	-9.77309
學處	-9.77389
答云	-9.77425
思慧	-9.77428
有為法	-9.77479
五趣	-9.77618
斥	-9.77794
當言	-9.77916
備	-9.77929
意趣	-9.78096
身業	-9.78204
初標	-9.7843
假實	-9.78445
三慧	-9.78451
更不	-9.78501
故今	-9.78539
染法	-9.78582
教法	-9.78621
母	-9.78657
是名菩薩	-9.78774
窮	-9.7879
諸欲	-9.78842
攝者	-9.78892
串習	-9.78905
慚愧	-9.78917
養	-9.79
別說	-9.79014
於自	-9.79123
面	-9.79167
亦緣	-9.79261
既不	-9.79277
懷	-9.79328
雜集	-9.79441
自下	-9.79588
或由	-9.79591
愛語	-9.79657
濁	-9.79761
餘二	-9.79821
之果	-9.79907
此據	-9.79941
隨一	-9.79974
有差別	-9.80034
亦說	-9.80043
也言	-9.80046
先明	-9.80114
三事	-9.802
相分二	-9.80205
心心所法	-9.80307
三地	-9.80385
梵行	-9.80414
幻	-9.80486
此顯	-9.8056
三心	-9.80639
苾芻	-9.80756
段食	-9.80794
方名	-9.80845
苦根	-9.80864
喻如	-9.80873
相狀	-9.80926
虗	-9.80998
因云	-9.81075
修多羅	-9.81207
失念	-9.81229
異熟生	-9.81232
發生	-9.81434
俱舍	-9.81443
生處	-9.81494
?	-9.81546
▁【	-9.81566
不相應行	-9.81629
本來	-9.81666
若許	-9.81681
密	-9.81735
二解	-9.81844
為顯	-9.81864
法相	-9.8188
大菩提	-9.819
是實有	-9.81905
按	-9.8192
即約	-9.81954
士用	-9.82047
全無	-9.82057
一切智	-9.82067
心中	-9.8212
下界	-9.82215
除遣	-9.82275
瞋恚	-9.82447
豈不	-9.82457
如實了知	-9.82472
同體	-9.82609
雨	-9.82615
隨所	-9.82649
又有	-9.82734
諸業	-9.8289
百法	-9.82903
南	-9.82904
五位	-9.82996
論復次	-9.83011
一切行	-9.83048
體非	-9.83069
二禪	-9.83076
生老死	-9.8314
不失	-9.83161
記別	-9.83161
根塵	-9.83315
無癡	-9.83512
見所斷	-9.83515
誑	-9.83581
分別者	-9.83629
嫉	-9.83643
善男子	-9.83685
有心	-9.83739
或於	-9.83741
說之為	-9.83857
不思議	-9.84113
義分二	-9.84123
所現	-9.84315
憂苦	-9.84323
執有	-9.84427
於一	-9.84433
摽	-9.84452
經言	-9.84482
十二支	-9.84549
壞苦	-9.84587
周	-9.84708
工巧	-9.84712
十六心	-9.84748
此地	-9.84815
姓	-9.84823
心外	-9.84857
下釋	-9.84896
清	-9.84902
云何名為	-9.84937
釋中	-9.84939
唯緣	-9.85036
二執	-9.85078
果者	-9.85185
即得	-9.85195
後際	-9.8521
燒	-9.85215
法門	-9.85255
致	-9.85399
菩薩地	-9.85421
聲聞乘	-9.85444
世親	-9.85485
不俱	-9.85538
等無間	-9.85543
前解	-9.85546
第六意識	-9.85557
密意	-9.85585
率爾	-9.8559
十因	-9.85623
准知	-9.85626
餘法	-9.85677
後後	-9.85712
四分	-9.85721
亦同	-9.85777
後起	-9.85792
謂如有一	-9.85819
論言	-9.85833
地等	-9.85961
詳曰	-9.86006
一切時	-9.86013
性相	-9.86017
語言	-9.86038
授	-9.86189
義也	-9.86224
無想天	-9.86266
異生性	-9.86273
樂欲	-9.86342
行故	-9.86413
身根	-9.86426
所觀	-9.86495
鬼	-9.86551
煖	-9.86561
一味	-9.86596
他人	-9.86598
心生	-9.86661
不可思議	-9.86702
修學	-9.86704
滅道	-9.86723
能造	-9.86732
了義	-9.86811
無法	-9.86886
皆不	-9.86985
發業	-9.8702
迴心	-9.87034
無著	-9.87079
何別	-9.87094
只	-9.8724
十力	-9.87277
既言	-9.873
故說為	-9.87363
若說	-9.87384
頌云	-9.87554
揀	-9.87566
親近	-9.87704
越	-9.87744
增上力故	-9.87749
變化身	-9.87857
皆同	-9.87863
引起	-9.87867
於現法中	-9.8789
正思惟	-9.87903
應名	-9.87942
真俗	-9.87966
賢	-9.8801
留	-9.88032
餘四	-9.8804
前際	-9.8813
不正知	-9.88157
堪能	-9.88294
偈言	-9.88406
雖是	-9.88466
滅盡	-9.88483
薩迦耶見	-9.88613
五色根	-9.88639
行蘊	-9.88656
實我	-9.88703
退失	-9.88717
無貪	-9.8878
單	-9.88786
根本智	-9.88792
憂根	-9.88811
生空	-9.88837
如法	-9.88853
秘	-9.88856
中初	-9.88907
在於	-9.88987
之處	-9.8916
芽	-9.89339
諸相	-9.89356
勝義諦	-9.89373
乖	-9.89382
作者	-9.89403
共許	-9.89421
此法	-9.89438
計度	-9.89489
若在	-9.89512
大地	-9.89514
別名	-9.89538
後解	-9.89633
希求	-9.89725
為三	-9.89765
分齊	-9.89791
毘曇	-9.89824
睡	-9.89826
若菩薩	-9.8985
於餘	-9.89913
變似	-9.89915
當知亦爾	-9.89928
引經	-9.89944
石	-9.90001
前中	-9.90074
何故不	-9.90169
色身	-9.90271
恚	-9.90284
有頂	-9.90308
巳上	-9.90311
勘	-9.90337
更有	-9.90359
夜	-9.90374
非常	-9.90449
離識	-9.90461
諸惡	-9.90498
淨信	-9.9051
十八界	-9.90516
勝劣	-9.90662
謂若	-9.90754
別報	-9.90822
法無我	-9.90864
三義	-9.90869
猒	-9.9108
菩提分法	-9.91134
林	-9.91148
得起	-9.91214
體故	-9.91294
二句	-9.91302
諸佛菩薩	-9.91352
以有	-9.9145
五果	-9.91481
毒	-9.9157
斷除	-9.91591
是何	-9.91593
尊	-9.91623
實法	-9.91643
掉	-9.91664
不相違	-9.91725
勤修	-9.91781
專	-9.91993
用故	-9.91997
田	-9.92005
苦苦	-9.92057
是無漏	-9.9217
當知此中	-9.92292
論師	-9.92403
不盡	-9.92497
外人	-9.92612
若諸菩薩	-9.92698
但名	-9.92764
其實	-9.92802
無願	-9.92827
世諦	-9.92899
非色	-9.92914
何須	-9.92969
□□	-9.92987
愛取	-9.93002
准前	-9.9305
第四靜慮	-9.93075
又由	-9.93127
逆	-9.93288
如餘	-9.93482
導	-9.93513
由是	-9.93608
第四禪	-9.93624
非理	-9.93682
從彼	-9.93773
旨	-9.93782
任	-9.93797
二略答	-9.93878
歸依	-9.93942
演曰四	-9.93995
無顛倒	-9.94116
其體	-9.94145
一切處	-9.9422
推求	-9.94229
諸見	-9.94264
三位	-9.94339
▁三	-9.944
盡故	-9.94452
為主	-9.94491
守	-9.94579
黑	-9.94589
離諸	-9.94617
何義	-9.94648
亦不相違	-9.94774
故不說	-9.94786
彼彼	-9.94843
在家	-9.9487
何以	-9.94905
非量	-9.94925
受熏	-9.94944
現在前	-9.94949
如其次第	-9.9502
不遍	-9.95091
以明	-9.95148
妨	-9.95158
修集	-9.95211
滿足	-9.95215
非謂	-9.95317
慮	-9.95326
一釋	-9.95335
有二義	-9.95386
決擇分	-9.95409
如人	-9.95439
勝處	-9.95586
愧	-9.95706
分別性	-9.95775
無上菩提	-9.95814
能除	-9.95846
患	-9.95869
難行	-9.95928
差	-9.95952
中有三	-9.95996
為所緣	-9.96026
三門	-9.96055
不滅	-9.96094
當知此	-9.96112
即能	-9.9612
見斷	-9.96153
殺生	-9.96163
由前	-9.96171
所依止	-9.96189
則是	-9.96264
背	-9.96282
二別	-9.963
此則	-9.9632
皆依	-9.9636
此十	-9.96367
能伏	-9.96443
及餘	-9.96469
瓶	-9.96481
俗諦	-9.96513
本無	-9.96551
定慧	-9.96569
功	-9.96572
相貌	-9.96592
諸有	-9.96608
所明	-9.96643
然後	-9.96706
梵王	-9.96755
人中	-9.96761
因相	-9.96825
既爾	-9.96839
之上	-9.96882
文義	-9.96914
防護	-9.96926
界地	-9.96956
第二解	-9.96971
平等性智	-9.97059
今初	-9.97155
於中有二	-9.97266
一境	-9.97317
總說	-9.97324
能了	-9.97341
正知	-9.97359
所應	-9.97374
法智	-9.97377
修斷	-9.97437
是善	-9.97442
意地	-9.97499
無覆無記	-9.97514
方起	-9.97604
最上	-9.97632
義別	-9.97804
問若	-9.97812
解了	-9.97907
大論	-9.97969
得定	-9.98028
以辨	-9.98085
不成就	-9.98115
一由	-9.98117
勇猛	-9.98167
陀	-9.98207
新熏	-9.98263
應如	-9.98327
十地菩薩	-9.98329
受想	-9.98383
說彼	-9.98393
愚夫	-9.98495
智障	-9.98524
廣明	-9.98578
可愛	-9.98699
大眾	-9.98703
一立	-9.98728
非擇滅	-9.98796
但以	-9.98812
非真	-9.98939
隨念	-9.98955
如是等類	-9.98963
以是	-9.98966
為所依	-9.99104
內身	-9.99169
後結	-9.99325
識支	-9.99352
頓斷	-9.99399
無瞋	-9.99531
善染	-9.99589
亡	-9.99597
又諸菩薩	-9.99621
住處	-9.99647
盛	-9.9977
不具	-9.99806
三禪	-9.99894
倍	-9.99905
奪	-9.99905
以上	-9.99907
二門	-9.99922
修所斷	-9.99971
欲貪	-10.0003
初起	-10.0015
之智	-10.0028
恩	-10.0028
即便	-10.0029
堪	-10.0029
鼻	-10.004
最極	-10.0045
不約	-10.0046
有何	-10.0047
欲令	-10.0052
此下	-10.0059
相縛	-10.0062
根本定	-10.0085
方生	-10.0091
無用	-10.0091
財物	-10.0097
毀犯	-10.0098
亦復	-10.0103
瑜伽云	-10.0107
別義	-10.0113
現識	-10.012
不相離	-10.0127
受戒	-10.013
之理	-10.014
基	-10.0145
三分	-10.0154
偏說	-10.0157
能正	-10.0162
持種	-10.0163
或可	-10.0163
無記性	-10.0171
無垢	-10.0171
是一	-10.0173
遍滿	-10.0177
是無	-10.018
二位	-10.0185
恨	-10.0185
如是如是	-10.0186
悔眠	-10.0197
出定	-10.0206
雲	-10.0208
父	-10.0222
麁細	-10.0223
音聲	-10.0224
一識	-10.0228
復說	-10.0234
無實	-10.0236
等三	-10.0237
必不	-10.0241
利行	-10.0245
際	-10.0246
加行道	-10.025
悅	-10.0251
四地	-10.0255
忿等	-10.0265
次辨	-10.0267
疾	-10.0277
捨離	-10.0285
錯	-10.0285
等是	-10.0301
譯	-10.0315
不正	-10.0316
有執	-10.0316
故立	-10.032
準	-10.0335
得自在	-10.0336
擇	-10.0345
若據	-10.0349
等四	-10.035
不如	-10.0352
戒取	-10.0354
言無	-10.0356
為證	-10.0358
止息	-10.036
男	-10.0361
菩薩藏	-10.0372
慈悲	-10.0387
識體	-10.0389
立為	-10.0391
苦行	-10.0399
局	-10.04
中道	-10.0401
猛	-10.0403
抄	-10.0409
然彼	-10.041
所由	-10.0411
過未	-10.0413
有七	-10.042
邊見	-10.0422
釋成	-10.0426
具有	-10.0431
城	-10.0441
唯識性	-10.0442
後生	-10.0447
十二處	-10.0448
五相	-10.0448
變為	-10.045
四十	-10.046
或依	-10.046
淺	-10.0469
哉	-10.047
超越	-10.047
即顯	-10.0477
可見	-10.048
前五識	-10.0484
與果	-10.0485
諸外道	-10.0487
六波羅蜜	-10.0488
謂從	-10.0489
無失	-10.0498
所計	-10.0499
內心	-10.05
所化	-10.05
金剛心	-10.0505
離染	-10.0508
眼等識	-10.0511
以其	-10.0517
衰	-10.0523
不可得故	-10.0527
識變	-10.0529
俱是	-10.053
四釋	-10.0533
鈍	-10.0534
是有漏	-10.0551
智力	-10.0562
平	-10.0564
今說	-10.057
阿梨耶識	-10.0575
有八	-10.0575
結前	-10.0584
有云	-10.0587
濫	-10.0597
無為法	-10.06
未有	-10.0609
故須	-10.0609
說此	-10.061
七八	-10.061
聽聞	-10.0613
尼	-10.0618
經論	-10.0621
有漏心	-10.0629
莫	-10.063
滅相	-10.063
不障	-10.0634
第四句	-10.0642
禮	-10.0652
入定	-10.0657
聚集	-10.0661
菩薩於	-10.0674
多聞	-10.0676
精	-10.068
於所	-10.0698
眾同分	-10.0698
非不	-10.0699
何法	-10.0699
為他	-10.0699
今解	-10.0708
等流果	-10.0709
凡聖	-10.071
後之	-10.0718
緣覺	-10.0721
之名	-10.0729
廣解	-10.0731
受用身	-10.0731
境相	-10.0736
由此因緣	-10.0737
舍	-10.074
通名	-10.0751
如實智	-10.0764
破壞	-10.0766
增減	-10.0767
事中	-10.0767
世第一法	-10.0769
第二明	-10.077
無漏種子	-10.0771
五事	-10.0771
得入	-10.0775
之業	-10.0779
二釋分二	-10.0783
之事	-10.0796
其餘	-10.08
為因緣	-10.0803
」【	-10.0805
眾緣	-10.0809
同事	-10.0812
障故	-10.0821
不復	-10.0823
造色	-10.0823
分二如論	-10.0825
故成	-10.0826
得清淨	-10.0831
散心	-10.0837
二定	-10.0839
二字	-10.0847
猶未	-10.0852
妄語	-10.0854
或為	-10.0865
天親	-10.0872
一體	-10.088
等相	-10.0887
羯磨	-10.089
前六識	-10.0895
名身	-10.0904
以前	-10.0905
已斷	-10.0905
實義	-10.0914
即應	-10.0914
外緣	-10.0915
婆	-10.092
西方	-10.0924
皆具	-10.0926
肉	-10.0928
疏中	-10.0929
初果	-10.0935
開示	-10.0935
唯有漏	-10.0937
生彼	-10.0938
呪	-10.0942
為難	-10.0943
煩	-10.0943
不善業	-10.0945
共有	-10.0948
言論	-10.0951
徧行	-10.0953
出生	-10.0957
我我所	-10.0961
意言	-10.0964
棄	-10.0966
提	-10.0966
趣向	-10.0969
等取	-10.0976
毘奈耶	-10.0978
此事	-10.0983
他身	-10.0983
異名	-10.0991
取境	-10.0994
既非	-10.0994
即如	-10.0996
不須	-10.0998
果相	-10.1004
二見	-10.1004
玄	-10.1006
立量云	-10.1008
一切種子	-10.1009
巳後	-10.1012
無違	-10.1014
骨	-10.1014
識種	-10.1015
識中	-10.102
唯無記	-10.1023
識所變	-10.1024
依何	-10.1025
破云	-10.1031
未必	-10.1034
契	-10.1035
補遺	-10.1037
等說	-10.1039
楞伽	-10.1041
十方	-10.1042
蘊等	-10.1044
不待	-10.1047
近分	-10.105
為斷	-10.105
焰	-10.1062
大等	-10.1062
希	-10.1064
無漏法	-10.1064
趣生	-10.1068
有分別	-10.1068
中無	-10.1077
何所	-10.1077
依他起性	-10.1083
事者	-10.1091
惟	-10.1092
隨彼	-10.1094
善性	-10.1097
覺支	-10.1098
士夫	-10.11
毘鉢舍那	-10.1101
妄計	-10.1101
欲樂	-10.1103
法華	-10.1106
染著	-10.1108
非法	-10.1109
方成	-10.1112
演曰十	-10.1114
若彼	-10.1124
鏡	-10.1131
是我	-10.1136
初三	-10.1136
詳	-10.1137
集論	-10.1139
領納	-10.1141
自性身	-10.1142
後方	-10.1144
法也	-10.1146
隨其	-10.1147
善知	-10.1149
亦云	-10.1158
斷障	-10.1161
那落迦	-10.1164
但由	-10.1175
四行	-10.1177
若緣	-10.1178
男女	-10.118
何緣	-10.1182
結成	-10.1183
於諸有情	-10.1186
不還果	-10.1189
假法	-10.1194
開導	-10.1196
種現	-10.1201
未盡	-10.1209
都	-10.121
貪瞋癡	-10.1223
分明	-10.1228
執為	-10.123
定力	-10.124
因位	-10.1244
常見	-10.1245
死生	-10.1247
百千	-10.1249
五見	-10.1253
定無	-10.1255
科	-10.1256
漏無漏	-10.1257
六明	-10.1257
以下	-10.1258
第三明	-10.1261
生已	-10.1261
義中	-10.1264
實等	-10.1271
象	-10.1272
若人	-10.129
依持	-10.1301
不別	-10.1304
三根	-10.1306
而行	-10.1308
;	-10.1313
體者	-10.1315
為四	-10.1322
前文	-10.1325
即為	-10.1334
鈍根	-10.1334
正明	-10.1337
薄	-10.1339
黃	-10.1341
正勤	-10.1345
巧	-10.1358
於內	-10.1361
是菩薩	-10.1365
能見	-10.1365
欲等	-10.1367
色無色界	-10.1369
因也	-10.1371
初一	-10.138
器世間	-10.1387
非定	-10.1391
何處	-10.1393
一期	-10.1395
論解	-10.1395
相好	-10.1396
歷	-10.1405
空性	-10.1406
勇	-10.1408
又問	-10.141
見等	-10.1415
無常等	-10.1419
有實	-10.1425
第二句	-10.1426
列名	-10.1426
繫縛	-10.1428
方便善巧	-10.1431
六行	-10.1432
修惑	-10.1433
持業釋	-10.1439
一義	-10.1441
唯言	-10.1444
應成	-10.1451
可說	-10.1464
中所有	-10.1465
誠	-10.1469
不假	-10.1476
為說	-10.1478
彼云	-10.1481
受樂	-10.1482
合為	-10.1487
成唯識	-10.1491
次說	-10.1492
入滅定	-10.1495
因緣故	-10.1496
何況	-10.1502
一相	-10.1508
成辦	-10.151
心者	-10.1512
惡見	-10.1519
業力	-10.1521
五取蘊	-10.1525
生起因	-10.153
七者	-10.1532
世俗智	-10.1534
起者	-10.1535
有漏法	-10.1544
心所法	-10.1545
乳	-10.1548
如理作意	-10.1549
次就	-10.155
見者	-10.1554
雖非	-10.1557
及諸	-10.1566
河	-10.1575
犯戒	-10.1576
智故	-10.1584
超過	-10.1586
夢中	-10.1588
六地	-10.1591
緣真如	-10.1591
所繫	-10.1597
彼地	-10.1609
令不	-10.1611
聞熏習	-10.1612
親生	-10.1613
緣者	-10.1613
三緣	-10.1614
未起	-10.1617
正解	-10.1622
增上慢	-10.1623
餘皆	-10.1627
舌	-10.1629
菩薩戒	-10.1631
餘人	-10.1635
令得	-10.1636
若不爾者	-10.1637
五支	-10.1647
葉	-10.1648
可解	-10.1649
積聚	-10.1658
若唯	-10.1661
平等智	-10.1665
所依為業	-10.1665
二識	-10.1667
二俱	-10.1668
六塵	-10.1674
識蘊	-10.1677
演曰	-10.1681
攝論云	-10.1682
色處	-10.1688
巳下	-10.1694
世俗有	-10.1697
五門	-10.1697
唯心	-10.1699
預流	-10.17
一身	-10.1707
第三句	-10.1711
以顯	-10.1713
那含	-10.1714
明其	-10.1716
既許	-10.1726
別明	-10.1728
積	-10.174
種故	-10.1742
無漏智	-10.1744
皆由	-10.1744
守護	-10.1748
婆沙	-10.1751
果位	-10.1752
觀待	-10.1752
隨惑	-10.1754
真實性	-10.1756
七日	-10.1765
無自性	-10.1766
第	-10.177
即通	-10.1771
等起	-10.1772
無記法	-10.1772
宮	-10.1779
永滅	-10.1779
造論	-10.1788
由如	-10.1795
中亦有	-10.1808
種子生	-10.1819
應是	-10.1822
不可言	-10.1833
此師	-10.1841
形色	-10.1851
五境	-10.1861
利養	-10.1862
即依	-10.1864
即於此	-10.1866
諸惑	-10.1867
伽	-10.1871
沙	-10.1874
正受	-10.1874
作法	-10.1881
能對治	-10.1892
彼經	-10.1894
彼果	-10.1895
五識中	-10.1908
生果	-10.1909
一人	-10.1911
遍處	-10.1913
正斷	-10.1915
聖諦	-10.1916
真實義	-10.1917
善惡業	-10.1918
或是	-10.192
一生	-10.1922
無別體	-10.1923
容有	-10.1924
善品	-10.1924
未至	-10.1926
書	-10.1927
既云	-10.1931
速疾	-10.1934
曲	-10.1934
惣	-10.194
各異	-10.1945
乞	-10.1952
迴	-10.1958
為本	-10.1958
客	-10.1961
由是因緣	-10.1961
世出世	-10.1962
隨義	-10.1981
正因	-10.1982
不解	-10.1991
諂	-10.1999
繫屬	-10.2004
非情	-10.2013
何妨	-10.2016
住持	-10.2024
為論	-10.2024
龍	-10.2029
五依	-10.2031
自分	-10.2033
所為	-10.2034
當知是名	-10.2038
猶豫	-10.2038
涅槃經	-10.204
世間道	-10.2041
身識	-10.2048
為增上緣	-10.2051
雜亂	-10.2052
不實	-10.2052
諸受	-10.2058
而作	-10.2082
草	-10.2091
有覆無記	-10.2096
類智	-10.2098
法義	-10.2099
勝行	-10.2103
初總	-10.2111
了達	-10.2113
義說	-10.2113
身等	-10.2117
合說	-10.2127
有因	-10.2127
微妙	-10.213
十信	-10.2154
淨戒	-10.2158
果也	-10.2162
中云	-10.2165
短	-10.2165
為其	-10.217
勝進道	-10.2172
觀心	-10.2172
謂能	-10.2172
即取	-10.2178
因明	-10.2179
能受	-10.2181
三苦	-10.2181
料簡	-10.2183
此難	-10.2186
經部師	-10.2194
化生	-10.2198
略有二種	-10.22
論如是	-10.22
四果	-10.2207
聲等	-10.221
觀行	-10.2218
去來	-10.2219
威力	-10.2221
悉皆	-10.2222
次句	-10.2223
拔	-10.2227
同處	-10.2229
已後	-10.2231
名無	-10.2232
般	-10.2232
欲界繫	-10.2234
如前所說	-10.2238
餘如前說	-10.2239
於欲界	-10.2241
是無常	-10.2242
於佛	-10.2245
如幻	-10.2246
演曰後明	-10.2248
巳得	-10.225
我愛	-10.2252
加行位	-10.2253
八者	-10.2253
俱有依	-10.2259
青等	-10.2263
不隨	-10.2274
六識中	-10.228
色相	-10.2281
不共無明	-10.2281
造業	-10.2281
還滅	-10.2283
三時	-10.2292
二十四	-10.2295
欲界中	-10.2304
經中說	-10.2306
心無	-10.2309
彼計	-10.231
此上	-10.2317
厭離	-10.2318
順決擇分	-10.2323
別破	-10.2323
第二師	-10.2323
虛妄分別	-10.2325
豈非	-10.2327
第十一	-10.2331
如疏	-10.2331
資具	-10.2331
多種	-10.2337
之性	-10.2338
難知	-10.234
乃是	-10.2348
身土	-10.2349
相應者	-10.2349
二別釋	-10.2349
番	-10.2352
圓成實性	-10.2354
二由	-10.2362
難陀	-10.2362
何失	-10.2367
前之	-10.2367
心起	-10.2371
定地	-10.2375
相中	-10.2376
言教	-10.2384
生相	-10.239
猶有	-10.2399
義利	-10.2404
合響	-10.2413
福德	-10.2413
如文可知	-10.2417
更互	-10.2422
自下第二	-10.2426
端	-10.2428
陀羅尼	-10.2429
地上	-10.2429
為有	-10.2432
下結	-10.2434
佛身	-10.2437
大乘中	-10.2438
修定	-10.2438
五欲	-10.2439
有三義	-10.2441
有用	-10.2442
一異	-10.2443
不樂	-10.2451
有六種	-10.2451
不著	-10.2456
作證	-10.246
理故	-10.2461
花	-10.2463
演曰後釋	-10.2468
但依	-10.2474
亦為	-10.2474
不自	-10.2479
引因	-10.2484
若生	-10.249
利樂	-10.2492
聖智	-10.2492
疑惑	-10.25
總是	-10.2508
見修	-10.2512
身者	-10.2518
語業	-10.2521
空理	-10.2521
通三界	-10.2533
等覺	-10.2534
出世道	-10.2535
濕	-10.2544
十法	-10.2547
美	-10.255
蛇	-10.2552
云何名	-10.2556
之身	-10.2557
二十二	-10.256
貪著	-10.2566
供	-10.2569
徧計所執	-10.2569
亦依	-10.257
與識	-10.2573
無覆	-10.2574
無過	-10.2587
不現	-10.2597
攝持	-10.2606
而立	-10.2613
後四	-10.2614
生於	-10.2628
有時	-10.2629
權	-10.2631
飲	-10.2631
所求	-10.2632
麤細	-10.2641
心住	-10.2647
行施	-10.265
不得名	-10.2651
生上	-10.2652
相應法	-10.2652
則應	-10.2653
五因	-10.2657
梵云	-10.266
有差別故	-10.2664
滅時	-10.2671
有我	-10.2676
可言	-10.2676
暗	-10.2682
不律儀	-10.2684
合為一	-10.2685
不轉	-10.2687
方有	-10.2688
未知	-10.2703
逼	-10.2706
同緣	-10.2707
是無記	-10.2711
與此相違	-10.2712
增勝	-10.2716
作此	-10.2722
熏成	-10.2724
如意	-10.273
為喻	-10.2733
不從	-10.274
受果	-10.2741
毘	-10.2743
持業	-10.2743
成唯識論	-10.2743
誦	-10.2746
也問	-10.2747
牽引	-10.2755
唯有識	-10.2761
遊	-10.2762
初問	-10.2763
義曰	-10.2765
虗妄	-10.2767
缺	-10.2773
後別	-10.2776
一个	-10.2778
聲聞獨覺	-10.2781
未來世	-10.2787
由於	-10.2795
於後	-10.2795
三和	-10.2799
無窮	-10.2806
王所	-10.2808
一頌	-10.2809
逼迫	-10.282
繁	-10.2822
相違故	-10.2823
色心等	-10.2825
成所作智	-10.2831
壽量	-10.2835
似彼	-10.2837
無義	-10.2838
學無學	-10.2847
違理	-10.2849
念處	-10.2857
▁「	-10.286
師云	-10.286
三十	-10.2862
應當	-10.2869
毛	-10.2871
釋論	-10.2875
如如	-10.2876
遍計所執自性	-10.288
沈	-10.2881
則有	-10.2884
所學	-10.289
性淨	-10.2892
頌言	-10.2901
士	-10.2917
以理	-10.2923
皆應	-10.2926
問此	-10.2929
二邊	-10.2931
訶	-10.2938
儀	-10.2939
牒前	-10.2949
業感	-10.2952
發菩提心	-10.2953
眼耳	-10.2955
至名	-10.2957
改	-10.2958
離言	-10.2967
但為	-10.2968
自有	-10.2971
惛沉	-10.2973
二乘人	-10.2978
木	-10.2979
為義	-10.2982
佛世尊	-10.2985
內法	-10.299
時分	-10.3013
斷見	-10.3014
有力	-10.3022
得涅槃	-10.3023
證真如	-10.3023
身命	-10.3026
於一切法	-10.3029
名有	-10.3029
有苦	-10.3033
苦果	-10.3037
第六識中	-10.3042
生苦	-10.3044
軟	-10.305
得解脫	-10.3052
久住	-10.3052
次約	-10.3065
菩薩行	-10.3065
諸善	-10.3066
通二	-10.3085
無漏道	-10.3086
異者	-10.3089
別者	-10.3097
開合	-10.3104
七支	-10.3105
能與	-10.3105
必依	-10.3107
必無	-10.3108
定異	-10.3112
如其所應	-10.3113
聞思修	-10.3113
內識	-10.3117
初中	-10.3123
寄	-10.314
謂前	-10.3141
迹	-10.3142
後說	-10.3153
六句	-10.3155
無慚	-10.3155
已去	-10.3158
斷彼	-10.3158
若云	-10.3158
非所斷	-10.3175
等諸	-10.3179
杖	-10.318
惠施	-10.3183
通無漏	-10.3184
聲聞緣覺	-10.3191
阿含	-10.3195
外色	-10.3207
一切世間	-10.3211
演曰三明	-10.3212
避	-10.3222
如所	-10.3224
數習	-10.3226
疎所緣緣	-10.3229
應云	-10.323
忘念	-10.323
謝	-10.3237
威德	-10.3239
救云	-10.3241
此二種	-10.3243
初師	-10.3251
定性	-10.3258
自種	-10.3259
演曰三釋	-10.326
恒行	-10.326
如論	-10.3261
迷理	-10.3264
此心	-10.3265
太	-10.327
總聚	-10.3278
識之	-10.3281
別緣	-10.3283
品中	-10.3288
有部	-10.3292
中攝	-10.3295
忘	-10.3296
此為	-10.3297
連	-10.33
現有	-10.3303
二十五	-10.3303
理趣	-10.3305
餓鬼	-10.3305
惡法	-10.3308
覺觀	-10.3318
但取	-10.3322
運	-10.3324
大乘法中	-10.3331
有九	-10.3333
唯無漏	-10.334
無始時來	-10.3342
彌勒	-10.3345
律儀戒	-10.3348
復言	-10.3349
根本煩惱	-10.3354
勝定	-10.3358
難曰	-10.3361
但約	-10.3362
異地	-10.3367
同故	-10.3368
今時	-10.3374
能現	-10.3376
此處	-10.3377
數滅	-10.3385
自利利他	-10.3386
是苦	-10.3392
不及	-10.3396
別也	-10.3407
地獄中	-10.341
無心位	-10.3411
珠	-10.3412
我當	-10.3412
廢	-10.3418
白法	-10.3422
現法樂住	-10.3426
憐愍	-10.3426
不論	-10.3427
處處	-10.3432
簡別	-10.3435
切	-10.3445
能引發	-10.3446
華嚴	-10.3447
修善	-10.3455
無明支	-10.3456
狀	-10.346
徒	-10.3467
四塵	-10.3467
便違	-10.3468
竝	-10.3469
瑜伽師地論	-10.3475
寬狹	-10.3479
於苦	-10.3485
未曾	-10.3488
之用	-10.3493
俱無	-10.3497
不離識	-10.3498
若取	-10.3505
殘	-10.3508
空處	-10.3524
即不	-10.3527
昧	-10.3529
於身	-10.353
第十地	-10.3535
節	-10.3537
熏種	-10.3545
唯約	-10.3551
廢立	-10.3553
二支	-10.3559
分位差別	-10.3563
俱有因	-10.3567
本識中	-10.3568
能招	-10.3573
相雜	-10.3574
能顯	-10.3574
異性	-10.3577
不出	-10.358
淨法	-10.3589
稍	-10.359
作是說	-10.3598
勞	-10.3602
利益安樂	-10.3607
識者	-10.3621
六釋	-10.363
錄	-10.3631
車	-10.3632
廣說乃至	-10.3633
我等	-10.3639
云何應知	-10.3649
若由	-10.3652
初正釋	-10.3653
思之	-10.366
立量	-10.3661
深生	-10.3668
大願	-10.3671
如言	-10.3675
不求	-10.3677
非我	-10.3679
壽命	-10.3683
色無色	-10.3689
從他	-10.3695
自性故	-10.3698
五識身	-10.3699
並是	-10.3704
清涼	-10.3713
哀愍	-10.3718
纔	-10.3719
作意思惟	-10.3723
悶	-10.3724
限	-10.3731
三處	-10.3731
往來	-10.3732
是也	-10.3733
奉	-10.3735
名不	-10.3736
不相	-10.3736
非正	-10.3737
方始	-10.3737
士用果	-10.3743
餘乘	-10.3751
生後	-10.3752
心一境性	-10.3758
離心	-10.3763
不遮	-10.3767
即與	-10.3775
氣	-10.3775
彼文	-10.3776
之意	-10.3779
亦由	-10.378
設有	-10.3781
惡道	-10.3782
執取	-10.3783
如對法	-10.3785
為對治	-10.3788
安隱	-10.3795
一品	-10.3797
於我	-10.38
有邊	-10.3801
北	-10.3804
而成	-10.3805
後果	-10.3807
集起	-10.3809
教誡	-10.3812
不過	-10.3813
六七	-10.3814
解行	-10.3814
非得	-10.3823
便能	-10.3824
總標	-10.3835
此身	-10.3838
相生	-10.3845
薪	-10.3846
為除	-10.3852
四事	-10.3853
憍慢	-10.3854
二辯	-10.3855
無記心	-10.3862
無此	-10.3864
分為	-10.3874
已滅	-10.3875
因此	-10.388
俱故	-10.3882
煩𢙉	-10.3883
斷者	-10.3886
所作事	-10.3887
不自在	-10.3887
未證	-10.3888
不順	-10.3889
彼執	-10.389
假有	-10.3891
友	-10.3893
願力	-10.3912
與此	-10.3912
覺了	-10.3922
顯此	-10.3923
其性	-10.3932
見惑	-10.3935
入涅槃	-10.394
三總結	-10.3944
四無量	-10.3949
今以	-10.395
彼天	-10.3951
是因緣	-10.3952
深密	-10.3956
能觀	-10.3959
轉者	-10.3962
馬	-10.3967
自性差別	-10.3968
臥	-10.3969
見相	-10.3972
令生	-10.3973
覩	-10.3976
不可知	-10.3977
若諸	-10.3979
攝一切	-10.3982
能攝	-10.3985
有想	-10.3989
便無	-10.399
通緣	-10.4002
二約	-10.4006
辭	-10.4007
自知	-10.4008
邪執	-10.4014
相現	-10.4017
便有	-10.4034
根等	-10.4037
相分三	-10.4048
見有	-10.405
圓滿故	-10.4051
親所緣緣	-10.4051
妙智	-10.4059
餘之	-10.4062
大眾部	-10.4065
皮	-10.4065
體也	-10.4067
三類	-10.4069
定障	-10.4069
悶絕	-10.4072
性境	-10.4072
以之為	-10.4073
義同	-10.4074
時有	-10.4076
○	-10.4081
撥	-10.4083
:「	-10.4086
皆以	-10.4092
但緣	-10.4096
撥無	-10.4096
色聲	-10.4101
初生	-10.4103
迦葉	-10.4107
無動	-10.411
策	-10.4111
依主釋	-10.4116
外法	-10.4119
取支	-10.4131
是總	-10.4143
今依	-10.4147
欣樂	-10.4147
前所說	-10.415
緣義	-10.4151
放	-10.416
分中	-10.4167
加行智	-10.4169
有能	-10.417
此乃	-10.4172
相從	-10.4177
相依	-10.4179
修治	-10.4181
能執受	-10.4185
軌	-10.4186
五十一	-10.4187
初後	-10.4194
此因	-10.4194
暴流	-10.4199
分為二	-10.42
賢聖	-10.4202
俱名	-10.4203
不空	-10.4203
住者	-10.4208
真理	-10.4215
種子故	-10.4218
法為	-10.4223
空無我	-10.4224
可爾	-10.4231
不平等	-10.4232
顯色	-10.4234
其相云何	-10.4239
世俗諦	-10.424
三智	-10.424
□□□	-10.4243
覺知	-10.4245
眾具	-10.4247
後智	-10.4249
故不相違	-10.4252
應身	-10.4257
自宗	-10.4258
方便道	-10.4258
俱者	-10.4259
之行	-10.426
有見	-10.4261
人執	-10.4264
先說	-10.4267
依義	-10.4268
且說	-10.4271
聞法	-10.4272
分六	-10.4272
相屬	-10.4275
牽	-10.4276
何等名為	-10.4277
不能緣	-10.4288
嚴	-10.429
總緣	-10.4294
仗	-10.4294
言之	-10.4295
不決定	-10.4299
論謂	-10.43
滅壞	-10.4304
若起	-10.4304
未離	-10.4307
有生滅	-10.4309
三德	-10.4318
一切菩薩	-10.4319
所收	-10.4319
所持	-10.4327
洲	-10.433
薩	-10.4336
施與	-10.4338
底	-10.4342
義分三	-10.4345
順解脫分	-10.4346
二品	-10.4356
胎	-10.4356
地地	-10.4357
依主	-10.4362
無礙解	-10.4372
佛菩薩	-10.4373
佛地論	-10.4374
實相	-10.4375
到彼岸	-10.4378
一因	-10.4381
熾然	-10.4383
不應理	-10.4383
處非處	-10.4388
相顯	-10.4392
他受用	-10.4401
不苦不樂	-10.4401
宗中	-10.4409
心意識	-10.4413
三無性	-10.4413
行中	-10.4414
臣	-10.4414
有餘依	-10.4414
為食	-10.4415
等智	-10.4421
自說	-10.4421
繩	-10.4427
其名	-10.4429
能生因	-10.443
逼惱	-10.4434
難可	-10.4439
以何義故	-10.4442
現種	-10.4445
覺悟	-10.445
於心	-10.4458
為此	-10.4459
正定	-10.446
冷	-10.4465
當果	-10.4465
專注	-10.4466
固	-10.447
尊重	-10.4476
恒相續	-10.448
此頌	-10.4481
弱	-10.4482
無諍	-10.4493
通漏無漏	-10.4496
便成	-10.4497
皆非	-10.4497
又能	-10.4499
堅住	-10.4502
苦等	-10.4503
隨緣	-10.4505
巳去	-10.4507
解脫分	-10.4507
大造	-10.451
問何	-10.451
教理	-10.4512
如水	-10.4514
受變易	-10.4516
期	-10.4518
源	-10.4525
住中	-10.4527
因生	-10.4527
身口	-10.4531
斷常	-10.4538
如何得	-10.4539
若能	-10.454
預流果	-10.4542
識住	-10.4542
過故	-10.4543
心行	-10.4544
不相似	-10.4549
有漏善	-10.455
三境	-10.4551
鄣	-10.4555
何等為	-10.4556
僧祇	-10.4557
非安立	-10.4558
座	-10.4559
聞聲	-10.4562
序	-10.4565
未離欲	-10.4567
受俱	-10.4568
諸功德	-10.4579
佛土	-10.4579
略有三種	-10.4585
前言	-10.4585
染故	-10.459
二乘無學	-10.4593
初定	-10.4594
異熟心	-10.4598
計所執	-10.4604
名句文	-10.4606
此一門竟	-10.4616
今取	-10.462
身受	-10.4621
禁戒	-10.4623
宿	-10.4623
在定	-10.4635
瑜伽說	-10.4636
如唯識	-10.464
是名為	-10.4644
一切相	-10.4644
不在	-10.465
我故	-10.4654
名不共	-10.4657
薰	-10.466
無餘涅槃	-10.4663
釋名	-10.4663
所分別	-10.4666
無上正等菩提	-10.4667
起於	-10.4673
立宗	-10.4673
若依成實	-10.4673
法輪	-10.4674
所依故	-10.4676
對法云	-10.4684
諸如來	-10.4685
因性	-10.4688
廣辨	-10.4688
為自	-10.4688
二頌	-10.469
斷盡	-10.4692
有二解	-10.4694
諸聲聞	-10.4695
三因	-10.4695
測	-10.4698
練	-10.4701
六位	-10.4707
第二卷	-10.471
地持	-10.4711
他所	-10.4718
生識	-10.472
之道	-10.4721
無不	-10.4722
由此道理	-10.4725
此破	-10.4727
是識	-10.473
最為	-10.4731
所緣故	-10.4733
體無	-10.4736
之與	-10.4737
幾是	-10.4744
四惑	-10.4746
定故	-10.4748
浪	-10.4748
三識	-10.4756
實非	-10.4761
赤	-10.4762
學者	-10.4765
其身	-10.4766
離繫果	-10.4769
由他	-10.477
四聖諦	-10.477
引攝	-10.4778
比知	-10.4778
諸餘	-10.478
徵釋	-10.478
離於	-10.4781
經文	-10.4781
師子	-10.4781
沉	-10.4782
麤相	-10.4785
相違因	-10.4786
个	-10.4786
各自	-10.4786
宣	-10.4787
等言	-10.4788
身故	-10.4789
名意	-10.479
室	-10.4798
四念住	-10.4799
數論	-10.4802
想者	-10.4803
二十一	-10.4807
生無色界	-10.4807
文分為二初	-10.481
第三解	-10.4811
不稱	-10.4814
轉計	-10.4814
諸有情類	-10.4821
意顯	-10.4821
重釋	-10.4822
彼法	-10.4825
知足	-10.4828
現身	-10.4831
明無犯	-10.4836
一名	-10.484
何為	-10.484
消	-10.4843
可名	-10.4844
妄情	-10.4845
是果	-10.4856
菩提心	-10.4856
生死涅槃	-10.4858
生天	-10.4859
此性	-10.4859
國土	-10.4862
自識	-10.4862
暫時	-10.4864
釋迦	-10.4865
廣如	-10.4866
能破	-10.4867
冥	-10.4874
佛所說	-10.4875
修者	-10.4875
撿	-10.488
善清淨	-10.4884
隨說因	-10.4885
聽法	-10.4892
善修	-10.4893
呼	-10.4898
覺分	-10.4901
之色	-10.4905
若見	-10.4905
鏡智	-10.4909
不合	-10.4913
第四明	-10.4913
不能生	-10.4915
二道	-10.4921
處者	-10.4926
如前應知	-10.4927
苦惱	-10.493
有大	-10.4941
無所得	-10.4942
能善	-10.4958
初約	-10.496
究竟位	-10.496
始從	-10.4969
別離	-10.4972
厭患	-10.4973
獨行	-10.4976
非異	-10.4983
無嗔	-10.4985
非安立諦	-10.4988
便生	-10.4991
二界	-10.4992
變易生死	-10.4994
輪王	-10.4995
先所	-10.4999
法施	-10.5004
餘者	-10.5013
方廣	-10.5018
檀	-10.502
為首	-10.5033
緣此	-10.5037
謂一切	-10.5038
追悔	-10.504
舍利弗	-10.5041
神變	-10.5045
三輪	-10.5057
諸句	-10.5058
次解	-10.506
微塵	-10.5062
若得	-10.5069
論釋	-10.5071
無餘依	-10.5072
漸漸	-10.5073
心心法	-10.5074
何用	-10.5078
良以	-10.5079
汎	-10.5085
兔角	-10.5088
演曰二辯	-10.5089
見相二分	-10.509
眼識等	-10.5093
勝論	-10.5094
異時	-10.5096
)。△	-10.5103
善行	-10.5105
總攝	-10.5105
曾習	-10.5107
香味	-10.5108
界繫	-10.5112
諸種子	-10.5112
等也	-10.5116
攝取	-10.5116
不得生	-10.5118
四善根	-10.5119
真智	-10.5122
次下	-10.5122
若執	-10.5123
行等	-10.5124
不死	-10.5127
唯善	-10.513
諦理	-10.5133
於理	-10.5134
不徧	-10.5136
第四定	-10.5147
以能	-10.5148
通上	-10.5153
滅者	-10.5154
世法	-10.5155
於上	-10.5156
隨心	-10.516
總報	-10.516
▁次釋	-10.5161
六因	-10.5166
是前	-10.5176
說云	-10.5178
如是菩薩	-10.5182
不寂靜	-10.5183
復生	-10.5184
有德	-10.5186
誹謗	-10.5188
上有	-10.5193
分別故	-10.5197
三支	-10.5198
諸佛如來	-10.5201
髮	-10.5203
過去未來	-10.5207
三由	-10.5209
損惱	-10.5209
現世	-10.521
無色定	-10.5215
初文	-10.5215
則不	-10.5218
境者	-10.5218
應得	-10.522
取蘊	-10.5225
為後	-10.5227
非福	-10.523
今大乘	-10.5231
但云	-10.5236
別體	-10.5237
俱舍論	-10.5238
打	-10.524
苦故	-10.5242
若非	-10.5248
有勝	-10.5249
十住	-10.5252
名緣	-10.5253
一切地	-10.5255
二結	-10.5257
答由	-10.5264
謂我	-10.5267
識上	-10.5273
𢙣	-10.5273
論問	-10.5273
能於	-10.5274
心境	-10.5279
四門	-10.5284
毗	-10.5286
常無常	-10.5286
初發心	-10.5286
是慧	-10.5287
亦以	-10.5289
說一乘	-10.529
卷云	-10.5293
軌則	-10.5294
為宗	-10.5296
不有	-10.5299
何謂	-10.5304
堪任	-10.5308
迷事	-10.5309
即名為	-10.5309
通相	-10.5316
有十種	-10.5316
一一皆	-10.5317
實事	-10.5318
與餘	-10.5318
體即是	-10.5321
蔽	-10.5323
聲聞等	-10.5328
又諸	-10.5329
定非	-10.533
佗	-10.5331
除滅	-10.5334
別有體	-10.5334
後辯	-10.5334
不淨觀	-10.5338
行捨	-10.5344
為俱有依	-10.5345
合有	-10.5345
八十	-10.5349
二說	-10.5352
無心定	-10.5353
勝者	-10.5356
文字	-10.5361
羞	-10.5376
名分別	-10.5376
隨意	-10.5376
總有	-10.5376
隨喜	-10.5377
告	-10.5379
通於	-10.538
得與	-10.538
他宗	-10.538
加行善	-10.5383
染污心	-10.5388
依如毘曇	-10.5388
已入	-10.5391
恒常	-10.5394
畢竟無	-10.5397
唯屬	-10.5398
巳前	-10.5404
餘九	-10.5405
二處	-10.5408
是真	-10.541
福智	-10.5411
具四	-10.5412
借	-10.5413
:	-10.5414
為求	-10.5417
善十一	-10.5419
隣近	-10.5419
能緣心	-10.5425
唯此	-10.5426
一字	-10.5428
丈夫	-10.5429
是心	-10.5431
為所緣緣	-10.5432
三量	-10.5432
長等	-10.5433
二列名	-10.5436
見道中	-10.5436
若望	-10.544
初門	-10.5443
表色	-10.5446
高舉	-10.5448
有宗	-10.5451
別起	-10.5453
依身	-10.5458
信等五根	-10.5458
無生忍	-10.5458
色識	-10.5459
一門	-10.5462
真見	-10.5462
惡友	-10.5468
癡分	-10.5468
演曰五	-10.5471
痴	-10.5471
不必	-10.5472
報身	-10.5472
餘七	-10.5472
又依	-10.5475
炷	-10.5479
二十八	-10.5482
雖說	-10.5483
疏主	-10.5485
穀	-10.5487
落	-10.5487
然非	-10.5492
九者	-10.55
此亦如是	-10.5506
所知境	-10.5508
執故	-10.5509
合成	-10.5509
一是	-10.551
無愧	-10.5512
正說	-10.5513
別別	-10.5518
巳斷	-10.5519
通果	-10.5521
能立	-10.5523
次破	-10.5525
釋前	-10.5528
差別相	-10.5532
若欲	-10.5533
為得	-10.5534
賊	-10.5535
鐵	-10.5538
。《	-10.5541
破之	-10.5541
酬	-10.5541
之過	-10.5543
是無分別智	-10.5544
應爾	-10.5544
執藏	-10.555
他世	-10.5553
福田	-10.5553
憎	-10.5557
擊	-10.5563
苦者	-10.5565
緣縛	-10.5566
理事	-10.5566
生支	-10.5569
作事	-10.5579
是為	-10.558
分三如論	-10.5583
般若波羅蜜	-10.5584
攝善法戒	-10.5587
四食	-10.5588
至非	-10.5588
妙觀察智	-10.5592
無明住地	-10.5595
通說	-10.56
為因故	-10.5601
者意云此	-10.5607
問也	-10.5608
伏斷	-10.5612
所隨	-10.5612
假者	-10.5612
神力	-10.562
六依	-10.5623
上立	-10.5632
不染污	-10.5634
五受	-10.5637
我相	-10.5639
彼處	-10.5644
三藏云	-10.5645
此亦不然	-10.5648
十地中	-10.5648
必由	-10.5651
不忘	-10.5655
有方分	-10.5656
一切佛法	-10.5663
等皆	-10.5665
此中意	-10.567
處故	-10.5672
不如實知	-10.5673
更生	-10.5682
所樂	-10.5684
無事	-10.5688
元	-10.5692
停	-10.5696
故不名	-10.5698
眼等根	-10.5704
第八地	-10.5706
是所緣	-10.5706
行時	-10.5707
業煩惱	-10.5713
西	-10.5714
勝妙	-10.5714
同異性	-10.5715
生現行	-10.5717
彼二	-10.5717
屈	-10.5723
後五	-10.5723
五十五	-10.5725
布	-10.5729
種種相	-10.5729
皆說	-10.5729
隨觀	-10.573
六法	-10.5731
阿毘達磨	-10.5738
說也	-10.5744
得大	-10.5746
外器	-10.5746
是假有	-10.5754
又言	-10.5758
能說	-10.5759
四處	-10.576
如來法身	-10.5761
釋此初也	-10.5761
為五	-10.5762
聞正法	-10.5765
諸心心所	-10.5768
觀待因	-10.5768
不和合	-10.5769
何故不說	-10.5772
親緣	-10.5773
離此	-10.5775
略義	-10.5776
蘊界處	-10.5776
有境	-10.5779
之外	-10.5779
以不	-10.5781
資糧位	-10.5784
不明了	-10.5786
四位	-10.5786
當得	-10.5788
諸心所	-10.5789
起煩惱	-10.579
識生	-10.5791
究	-10.5794
鉢	-10.5796
恃	-10.5797
善知識	-10.5805
非想非非想處	-10.5807
二十三	-10.5808
第二靜慮	-10.5812
不定過	-10.5817
四道	-10.5821
自性清淨	-10.5822
麁相	-10.5822
擇滅無為	-10.5822
諸師	-10.5823
非因緣	-10.5824
有漏種	-10.5827
五句	-10.5828
非異熟	-10.5829
成有漏	-10.5841
即非	-10.5841
異熟無記	-10.5842
可有	-10.5843
諸界	-10.5843
耽著	-10.5845
阿僧祇	-10.5847
根性	-10.5848
陵	-10.585
咸	-10.585
勝鬘	-10.5854
奢摩他毘鉢舍那	-10.5856
箭	-10.5856
中邊	-10.5858
果中	-10.5868
說正法	-10.5869
是故此	-10.5871
不善性	-10.5872
巳來	-10.5873
智見	-10.5876
云何知	-10.5879
安立諦	-10.5881
想受	-10.5881
淨故	-10.5881
諸苦	-10.5881
順益	-10.5883
何因	-10.5884
證智	-10.5887
如何說	-10.5889
並生	-10.5898
災	-10.59
所感	-10.5901
云何得	-10.5902
焉	-10.5903
以是義故	-10.5911
如眼識	-10.5914
法寶	-10.5916
即成	-10.5916
清淨故	-10.5917
道品	-10.5919
悲愍	-10.5921
衰損	-10.5922
文分為二一	-10.5922
復由	-10.5924
牽引因	-10.5924
或以	-10.5926
一物	-10.5929
非但	-10.5933
自性者	-10.5936
能滅	-10.5936
熏成種	-10.5938
化眾生	-10.5938
能藏	-10.5939
貪癡	-10.5942
第七識中	-10.5947
恒有	-10.5948
三諦	-10.5949
不生故	-10.595
大苦	-10.5955
所攝故	-10.5959
攝大乘	-10.5962
三界九地	-10.5962
嘆	-10.5963
大涅槃	-10.5971
一地	-10.5975
不唯	-10.5975
惡不善法	-10.5979
謂欲	-10.5984
精勤	-10.5988
空者	-10.599
死後	-10.5991
下中上	-10.5992
巳滅	-10.5995
雜集論	-10.5995
彼既	-10.5995
身在	-10.5999
增盛	-10.5999
意處	-10.5999
道故	-10.6
緣慮	-10.6002
從初	-10.6004
視	-10.6008
清淨者	-10.6009
角	-10.6012
望於	-10.6013
有為相	-10.6014
不現前	-10.6015
且依	-10.602
阿難	-10.6023
有染	-10.6024
二十六	-10.6025
得菩提	-10.6026
實體	-10.6029
諦現觀	-10.603
無緣	-10.6032
住地	-10.6033
不犯	-10.6038
下三	-10.6041
變起	-10.6043
二身	-10.6045
此六	-10.6046
以來	-10.6061
忽	-10.6062
急	-10.6063
為根	-10.6066
然有	-10.607
無漏業	-10.6071
之類	-10.6075
言有	-10.6077
是第二	-10.6077
之力	-10.6079
彼此	-10.6082
自受用	-10.6083
過去世	-10.6089
所藏	-10.609
無學位	-10.609
諸波羅蜜	-10.6093
喜受	-10.6095
巧便	-10.6102
亦得名	-10.6105
後世	-10.6106
防修	-10.6108
大海	-10.6112
於中有三	-10.6114
惛沈	-10.6116
二事	-10.6116
補	-10.6116
羞恥	-10.6116
現在世	-10.6118
初修	-10.6123
非染	-10.6126
復云	-10.6127
是所	-10.6127
是色	-10.6128
戲	-10.613
本論	-10.613
皆名為	-10.6132
與樂	-10.6139
其中	-10.614
總言	-10.6142
皆成	-10.6143
隨所應	-10.6144
已前	-10.6145
雜心	-10.6147
在欲界	-10.6147
悲心	-10.6148
復以	-10.6149
為是	-10.6151
未至定	-10.6152
非斷	-10.616
演曰後荅	-10.6167
若就	-10.617
能捨	-10.6171
斷結	-10.6175
前七識	-10.6176
三聚	-10.6177
多時	-10.618
恒時	-10.618
餘一切	-10.618
唯有一	-10.6183
六轉識	-10.6187
師說	-10.6191
為例	-10.6191
餘五	-10.6195
自許	-10.6195
黑白	-10.6196
非愛	-10.6198
若爾何故	-10.6199
前行	-10.6208
三惡趣	-10.6217
此唯	-10.6219
根識	-10.622
教化	-10.622
自下第三	-10.6221
聖言	-10.6223
中復二	-10.6226
種生現	-10.6227
通一切	-10.6228
刀	-10.623
須陀洹	-10.6231
必定	-10.6232
所欲	-10.6233
變現	-10.6235
此經	-10.6242
真異熟	-10.6242
財寶	-10.6242
堪忍	-10.6246
謂如	-10.6253
神足	-10.6256
起愛	-10.6256
因義	-10.626
根身	-10.6261
二世	-10.6267
不清淨	-10.6275
演曰六	-10.6277
諸世間	-10.6279
橫	-10.6279
適悅	-10.6281
但於	-10.6282
論之	-10.6283
證真	-10.6283
菩提分	-10.6285
血	-10.6285
有分	-10.6286
四大種	-10.6289
如經說	-10.6291
而未	-10.6292
二十七	-10.6295
諸部	-10.63
相也	-10.6306
相待	-10.6311
釋此	-10.6312
因緣者	-10.6317
所愛	-10.6318
無間滅	-10.6326
制立	-10.6326
魚	-10.6331
能執	-10.6333
音義謂	-10.6334
此復	-10.6336
向前	-10.6338
如於	-10.6339
〔	-10.6341
察	-10.6343
戒禁取	-10.6344
稱讚	-10.6345
諸聖	-10.6346
表業	-10.6349
即於彼	-10.635
一切善法	-10.6358
為障	-10.6369
女人	-10.6374
明淨	-10.6382
論本	-10.6383
諸善法	-10.6386
狂	-10.6389
如其	-10.6402
今約	-10.6402
汝等	-10.6402
未知當知根	-10.6405
四倒	-10.6407
能修	-10.6412
展轉相	-10.642
此與	-10.6423
無智	-10.643
此中有	-10.6432
先後	-10.6432
香等	-10.6435
傍生	-10.6436
時節	-10.6436
不定性	-10.6437
宗鏡	-10.6437
釋義	-10.6441
諸心	-10.6441
適	-10.6446
鄙	-10.6447
若自	-10.6451
追求	-10.6452
此三種	-10.6454
鼻舌	-10.6456
損益	-10.6456
七明	-10.6463
不造	-10.6466
內境	-10.6467
分者	-10.6468
令入	-10.6474
實色	-10.6475
總釋	-10.6476
六通	-10.6476
故稱	-10.6485
因力	-10.6485
然今	-10.6496
正覺	-10.6498
梵本	-10.6503
為開導依	-10.6503
志	-10.6503
遭	-10.6503
於外	-10.6505
亦成	-10.6506
聽聞正法	-10.6507
別異	-10.6508
無分別故	-10.6509
近住	-10.651
淨不淨	-10.6517
一性	-10.6523
十善	-10.6524
易知	-10.6525
且約	-10.6526
聖法	-10.653
有樂	-10.6531
是人	-10.6537
標舉	-10.6539
是因	-10.6541
非離	-10.6542
功力	-10.6549
財施	-10.6551
讀	-10.6555
二師	-10.6558
頓悟	-10.6561
不善法	-10.6562
跡	-10.6564
六義	-10.6566
伽他	-10.6567
否	-10.657
舊云	-10.6573
我體	-10.6574
斷欲界	-10.6576
識為	-10.6578
微劣	-10.6579
正道	-10.658
非有非無	-10.6582
長者	-10.6583
行解	-10.6587
拘	-10.6593
實智	-10.6593
外難	-10.6596
作是念	-10.6611
名捨	-10.6611
謂除	-10.6613
善無記	-10.6613
樂者	-10.6615
所以不	-10.6616
濟	-10.662
關	-10.6622
報恩	-10.6622
疏文	-10.6622
十卷	-10.6624
四重	-10.663
他地	-10.6633
無力	-10.6636
正是	-10.6637
折	-10.6638
世人	-10.664
從因	-10.6644
修得	-10.6646
緣過去	-10.6646
不絕	-10.6654
眼等五識	-10.6656
色界中	-10.6659
諸教	-10.6661
差別分二	-10.6662
當有	-10.6665
若作	-10.6666
必須	-10.6668
取相	-10.6671
五義	-10.6672
詰	-10.6677
此二門竟	-10.668
於現在	-10.668
東	-10.6682
一解	-10.6687
以後	-10.669
所依處	-10.6695
色者	-10.6697
何有	-10.6705
是現量	-10.6705
無障	-10.6706
惑業	-10.6708
無別故	-10.6709
總持	-10.6711
欲求	-10.6713
亦許	-10.6714
法師云	-10.672
慢等	-10.6727
不令	-10.673
染污意	-10.6731
鹿	-10.6732
境也	-10.6733
無方分	-10.6734
所緣境界	-10.6734
永無	-10.6737
無妨	-10.6739
流布	-10.6744
一明正義	-10.6747
彼定	-10.6749
果生	-10.6749
思慮	-10.6753
不如理	-10.6762
唯以	-10.6765
所對治	-10.677
第十二	-10.6771
共不共	-10.6772
亦攝	-10.6772
略釋	-10.6773
躰	-10.6775
是故名為	-10.6776
勢用	-10.6784
預	-10.6785
釋頌	-10.6787
未滅	-10.6787
瓶等	-10.6789
不定故	-10.679
忘失	-10.6792
有十一	-10.6793
畜	-10.6801
亦言	-10.6808
今云	-10.6808
三科	-10.6811
見聞	-10.6814
誓	-10.6815
類別	-10.6816
應許	-10.6817
貪瞋	-10.6817
釋上	-10.6824
易了	-10.6825
阿耨多羅三藐三菩提	-10.6826
必同	-10.6827
無明等	-10.6829
故亦名	-10.683
末後	-10.6832
隨身	-10.6841
三師	-10.6841
分四如論	-10.6843
鳥	-10.6844
非處	-10.6845
受變易身	-10.6845
恐怖	-10.6845
祕密	-10.6848
果時	-10.6848
相稱	-10.6848
融	-10.6851
傷	-10.6852
成實法中	-10.6854
眼見	-10.6857
唯得	-10.6858
證成	-10.6861
【	-10.6867
名句文身	-10.6872
所住	-10.6876
既說	-10.6878
增上力	-10.6881
設許	-10.6882
緣於	-10.6883
善能	-10.6883
句義	-10.6887
初破	-10.6891
軍	-10.6895
瑜伽論說	-10.6895
大劫	-10.6895
仰	-10.6902
善說法	-10.6904
亦與	-10.6907
中隨	-10.6908
信樂	-10.6909
名言熏習	-10.6913
所取能取	-10.6915
亦起	-10.6916
不繫	-10.6917
小隨	-10.6917
清辨	-10.6917
不簡	-10.6919
有間斷	-10.6921
不欲	-10.6923
答言	-10.6924
五百	-10.6927
有礙	-10.6927
無悔	-10.6928
即真如	-10.6928
麤色	-10.693
能有	-10.6933
生緣	-10.6939
三有	-10.6941
或立	-10.6948
愛等	-10.6949
是故說名	-10.695
變易身	-10.695
名言種子	-10.6955
第十三	-10.6956
別解脫	-10.6956
釋中有二	-10.6956
推度	-10.6962
生中	-10.6965
為善	-10.6965
豈有	-10.6965
諸聖教	-10.6967
此問	-10.6974
由業	-10.6976
景師云	-10.6978
不妨	-10.6983
即用	-10.6986
文分為	-10.6992
更無別	-10.6995
無間斷	-10.6997
識性	-10.7005
定生	-10.7005
勝相	-10.7007
一切諸	-10.7011
樂住	-10.7012
心緣	-10.7017
學人	-10.702
三摩提	-10.7022
曉	-10.7023
代	-10.7024
交	-10.7024
天人	-10.7032
三十二	-10.7032
識食	-10.7035
辦	-10.7035
自作	-10.704
是以	-10.7041
眼等五根	-10.7042
無斷	-10.7045
有何差別	-10.7051
污	-10.7051
皆言	-10.7054
尒	-10.7057
何等為五	-10.7058
自在者	-10.7058
依前	-10.7058
周遍	-10.7062
仙	-10.7063
相離	-10.7065
十六行	-10.7069
有作用	-10.7071
等引	-10.7073
尸	-10.7075
深心	-10.7078
所不攝	-10.7079
近事	-10.7081
吉祥	-10.7082
應斷	-10.7083
此即初也	-10.7083
名想	-10.7084
毘尼	-10.7085
懸	-10.7086
此緣	-10.7088
大法	-10.7091
為所依止	-10.7092
安惠	-10.7099
應作	-10.71
為眾生	-10.7103
內證	-10.7106
於識	-10.711
承	-10.7111
言顯	-10.7113
然由	-10.7114
總破	-10.7123
辨其	-10.7125
業所感	-10.7127
菩薩住	-10.7133
中有四	-10.7134
故不可	-10.7136
出觀	-10.7137
相順	-10.7139
四靜慮	-10.7139
真心	-10.7146
於一切時	-10.7148
途	-10.7149
無障礙	-10.7153
有罪	-10.7155
異熟因	-10.7158
觸受	-10.7159
真性	-10.716
然於	-10.7167
定者	-10.717
十行	-10.7172
巳說	-10.7175
巳生	-10.7176
通論	-10.7177
此文即	-10.7178
百年	-10.7183
戒等	-10.7183
不執	-10.7185
無漏定	-10.7188
四因	-10.7192
攝在	-10.7196
第三靜慮	-10.7203
了境	-10.7203
實物	-10.7204
唯識論	-10.7205
實句	-10.7205
現境	-10.7206
雖未	-10.7206
色界繫	-10.7206
感得	-10.7208
天中	-10.7209
第一句	-10.721
人法	-10.721
自受用身	-10.721
雖同	-10.7212
攝受因	-10.7213
屈曲	-10.7215
相差別	-10.7219
隨行	-10.722
遍染心	-10.7221
問言	-10.7222
慈心	-10.7222
容受	-10.7224
先釋	-10.7225
論議	-10.7226
多生	-10.7227
相符	-10.7229
迷諦	-10.723
此通	-10.7231
生也	-10.7232
禁	-10.7238
離蘊	-10.7241
為實	-10.7241
實德業	-10.7242
意者	-10.7253
慧故	-10.7255
違犯	-10.7259
薩埵	-10.7261
而於	-10.7261
彼所執	-10.7261
降伏	-10.7267
理門	-10.7268
為依止故	-10.7268
薄伽梵	-10.7269
斷善根	-10.7271
依根	-10.7272
威儀工巧	-10.7276
緣色	-10.7276
歲	-10.7276
梵語	-10.7278
果法	-10.7279
欲者	-10.7281
眾生界	-10.7283
一行	-10.7285
捨根	-10.7286
言我	-10.7288
結生	-10.7289
正教	-10.7294
彼相	-10.7295
界者	-10.7297
彼無	-10.7304
言詞	-10.7305
實是	-10.7306
攝善	-10.7308
見彼	-10.7308
同彼	-10.7308
欲顯	-10.7314
利益眾生	-10.7315
諸異生	-10.7315
五十六	-10.7323
活	-10.7325
麥	-10.7326
破戒	-10.7326
該	-10.7327
通前	-10.7327
無情	-10.7329
如經中說	-10.733
覺時	-10.733
無表色	-10.7333
漸斷	-10.7335
逐	-10.7335
有兩	-10.7335
二立	-10.734
色境	-10.7345
相應心品	-10.7347
有如是	-10.7357
十者	-10.7359
增上意樂	-10.7359
持業釋也	-10.7361
附	-10.7364
所障	-10.7375
密意說	-10.7376
疲	-10.738
所犯	-10.7382
四空	-10.7382
諸趣	-10.7383
空等	-10.7384
妄心	-10.7385
慧解脫	-10.7388
初辨	-10.7389
大義	-10.7393
法隨法行	-10.7394
非想地	-10.7397
攝益	-10.7399
又契經說	-10.7402
望彼	-10.7403
性是	-10.7403
有間	-10.7405
無色界中	-10.7406
發願	-10.7406
大小乘	-10.7408
天上	-10.7409
無量無邊	-10.7417
國王	-10.7417
心體	-10.7418
有眾多	-10.7418
相似故	-10.7421
證知	-10.7421
離垢	-10.7429
所緣之境	-10.743
通取	-10.7432
相應門	-10.7436
文云	-10.7442
閏	-10.7443
道者	-10.7443
廣略	-10.7445
乞食	-10.7446
四德	-10.7447
總明	-10.7449
無堪任性	-10.7462
心淨	-10.7462
所化有情	-10.7465
若此	-10.747
善不善無記	-10.7472
識處	-10.7473
假施設	-10.7475
緣現在	-10.7477
永離	-10.7482
前義	-10.7483
簡非	-10.7485
立一	-10.7493
意取	-10.7494
二業	-10.7497
始終	-10.75
了相	-10.7501
如夢	-10.7502
創	-10.7508
怯	-10.7509
所許	-10.751
望後	-10.7511
原	-10.7512
恒沙	-10.7516
此執	-10.7521
空無	-10.7524
離過	-10.7526
小乘中	-10.7527
之教	-10.7527
五釋	-10.7529
今據	-10.753
施戒	-10.7535
是主	-10.7538
得阿耨多羅三藐三菩提	-10.7541
三性心	-10.7541
一切障	-10.7542
彼所	-10.755
解脫者	-10.756
作如是	-10.7562
欲解	-10.7565
增上故	-10.7567
特	-10.7568
希有	-10.7571
資粮	-10.7572
宅	-10.7573
公	-10.7576
解深密經	-10.7576
永害	-10.7577
陳那	-10.7578
西明	-10.7579
總舉	-10.758
第五明	-10.7585
逢	-10.7586
六識身	-10.7586
空觀	-10.7587
如一	-10.759
俱舍云	-10.7593
沙門果	-10.7596
僧寶	-10.7603
景	-10.7603
轉易	-10.7604
失壞	-10.7604
有處	-10.7604
緣事	-10.7606
五十八	-10.7611
何者為	-10.7617
為自性	-10.7617
依他起自性	-10.7621
顧	-10.7622
同類因	-10.7626
增上心	-10.7627
無常性	-10.7627
亦不能	-10.7632
詮表	-10.7632
即從	-10.7634
偽	-10.7637
綱	-10.7637
若斷	-10.7639
此後	-10.7639
一切皆是	-10.764
〕	-10.764
別顯	-10.7643
聞思慧	-10.7647
體雖	-10.7648
體一	-10.7649
觸處	-10.7659
法喻	-10.7668
此偈	-10.767
喜足	-10.7675
婬	-10.7675
大乘經	-10.7675
又釋	-10.7676
楞伽經	-10.7677
無減	-10.7679
懃	-10.7686
增上慧	-10.7686
文也	-10.7687
或唯	-10.7689
本事	-10.7691
分七	-10.7691
毘婆沙	-10.7696
浮	-10.7696
大乘法	-10.7697
喚	-10.7699
多法	-10.7699
教導	-10.7702
族	-10.7704
依士釋	-10.7708
大圓鏡智	-10.7716
思議	-10.7717
具三	-10.7718
半頌	-10.7718
證自證分	-10.7722
又以	-10.7723
第一師	-10.7725
依之	-10.773
二就	-10.7731
淨妙	-10.7737
二徵	-10.7739
入初地	-10.775
演曰三結	-10.7756
其事	-10.7759
羸劣	-10.7762
不得自在	-10.7764
正願	-10.7766
所依者	-10.7766
初徵	-10.7766
翻此	-10.7767
不分別	-10.7768
此諸	-10.7769
親疎	-10.777
是增上緣	-10.7774
莊嚴論	-10.7777
八解脫	-10.7787
第三果	-10.7791
惡慧	-10.7794
十相	-10.7799
十門	-10.7801
觀空	-10.7801
生欲界	-10.7805
未見	-10.7807
弘	-10.7809
二根	-10.7812
福業	-10.7813
是有為	-10.7817
利鈍	-10.7817
誤	-10.7821
前因	-10.7821
互為緣	-10.7822
無尋伺	-10.7826
自境	-10.7826
前八	-10.7828
令住	-10.7829
忍辱	-10.783
綺語	-10.7832
遷	-10.7836
酪	-10.7836
邪教	-10.7836
別解脫戒	-10.7838
不可見	-10.784
成熟有情	-10.784
略攝	-10.7844
所生果	-10.785
復有二種	-10.7854
本末	-10.7855
無能	-10.7856
先有	-10.7858
生在	-10.7861
八法	-10.7863
迷苦	-10.7868
唯欲界	-10.7871
欲色界	-10.7872
不名為	-10.7876
若知	-10.788
一分攝	-10.788
無所緣	-10.7889
計為	-10.7891
續生	-10.7892
擬	-10.7894
憑	-10.7894
活命	-10.7894
所造色	-10.7897
住心	-10.7898
更相	-10.7902
有七種	-10.7906
若准	-10.7906
自果	-10.7906
如佛	-10.7906
非數滅	-10.7907
此中意說	-10.7909
無想異熟	-10.7915
獄	-10.7916
正破	-10.7919
中言	-10.7922
我說	-10.7922
第三卷	-10.7925
後法	-10.7925
一切有漏	-10.7925
宿命	-10.7926
遍一切	-10.7927
多住	-10.7928
賢善	-10.7928
樂故	-10.7928
比智	-10.7936
同性	-10.7936
十一種	-10.7939
隨相	-10.794
別境五	-10.794
可悉	-10.7944
名相	-10.7945
與他	-10.7947
翳	-10.7949
兒	-10.7957
緣起經	-10.7958
見佛	-10.7966
作意者	-10.7967
實際	-10.7968
通攝	-10.7969
或分為	-10.7969
闡提	-10.797
有三品	-10.7972
為依止	-10.7978
業招	-10.7978
一答	-10.7983
無依	-10.7983
論此中	-10.7986
所顯故	-10.799
集成	-10.7995
彼言	-10.7998
二心	-10.8005
於所緣	-10.8009
修證	-10.8014
即滅	-10.8015
二人	-10.8016
為苦	-10.8017
梵天	-10.8018
此總	-10.8019
於是處	-10.802
敵	-10.8021
蘇	-10.8022
非學非無學	-10.8024
箇	-10.8024
淺深	-10.8025
地水火風	-10.8028
分別煩惱	-10.803
但可	-10.8031
日月	-10.8032
謂欲界	-10.8032
聞說	-10.8034
已來	-10.8034
練根	-10.8035
頌文	-10.8036
前云	-10.8037
發趣	-10.8046
生現	-10.8047
生色界	-10.8051
或云	-10.8054
一事	-10.806
不明	-10.8062
與五識	-10.8063
貧	-10.8065
差別義	-10.8065
此障	-10.8071
即由	-10.8072
成故	-10.8075
知見	-10.8077
有無量	-10.8079
上座部	-10.8081
初總標	-10.8085
何以得知	-10.8086
此類	-10.8086
二破	-10.8089
獨頭	-10.8089
有義下	-10.8092
二行	-10.8093
三果	-10.8094
而行惠施	-10.8097
共成	-10.8098
印持	-10.8101
思業	-10.8102
二顯	-10.8106
生有	-10.811
亦唯	-10.8117
制伏	-10.8118
退屈	-10.8121
即攝	-10.8127
二受	-10.8129
亦不得	-10.8131
本地	-10.8135
住異	-10.8135
餘地	-10.8135
自義	-10.8135
文中分二初	-10.8138
如是已說	-10.8141
四攝	-10.8143
呵	-10.8145
生歡喜	-10.8146
根力	-10.8147
第三禪	-10.8148
今謂	-10.8149
無生無滅	-10.8152
明利	-10.8155
修所成	-10.8155
營	-10.8156
貪嗔	-10.816
是義不然	-10.8161
從前	-10.8164
以何為	-10.8165
相應義	-10.8166
通妨	-10.8167
有多種	-10.8168
方斷	-10.8169
諸佛法	-10.8172
三約	-10.8175
所緣者	-10.8175
彼岸	-10.8178
十句	-10.818
辨相	-10.8182
身語意	-10.8187
三解脫門	-10.8189
親因緣	-10.819
應知其相	-10.819
猶在	-10.8191
即同	-10.8191
愛非愛	-10.8193
境界故	-10.8197
為方便	-10.8198
證理	-10.8199
此但	-10.8203
其人	-10.8205
對治道	-10.8206
非心	-10.8209
劣故	-10.8209
彼種	-10.821
能通達	-10.8214
所相	-10.8221
驗	-10.8222
自在故	-10.8222
▁四	-10.8224
一緣	-10.8224
非真實	-10.8224
心也	-10.8224
所執我	-10.8224
長夜	-10.8226
諸諦	-10.8226
餘部	-10.8228
須陀	-10.8229
相例	-10.8229
慢類	-10.8232
淨識	-10.8232
請問	-10.8238
皆為	-10.8239
於善	-10.8244
不覺	-10.8246
心所相應	-10.8246
隨增	-10.8246
分限	-10.8249
不觀	-10.8252
汝執	-10.8252
施者	-10.8253
憂喜	-10.8256
離一切	-10.8259
相續不斷	-10.826
五處	-10.8266
豈可	-10.8267
唯立	-10.8268
他故	-10.8268
身語業	-10.8269
住故	-10.8271
音義先	-10.8277
增故	-10.8279
鼓	-10.8279
諸所有	-10.828
善士	-10.8284
品說	-10.8285
慧學	-10.8287
信等五	-10.8288
已還	-10.8289
亦應然	-10.8295
有果	-10.83
不伏	-10.8302
良	-10.8303
是異熟	-10.8304
三列名	-10.8307
應立量云	-10.8307
同此	-10.8309
二境	-10.8312
聖性	-10.8317
無間解脫	-10.8319
天耳	-10.8321
已離	-10.8325
入聖	-10.8326
歎	-10.833
妄識	-10.8332
七地巳前	-10.8333
三毒	-10.8333
能淨	-10.8339
捨故	-10.8341
為質	-10.8342
亦爾者	-10.8345
見道斷	-10.8347
軛	-10.8348
參	-10.8348
不施	-10.835
愛取有	-10.8351
譽	-10.8351
剎那剎那	-10.8351
有尋伺	-10.8353
復次云何	-10.8356
渴	-10.8356
即生	-10.8356
未了	-10.8357
無體故	-10.8359
處說	-10.8359
即離	-10.836
知法	-10.8361
從何	-10.8362
顯揚論	-10.8363
出世心	-10.8365
復有三種	-10.8366
俱得	-10.8367
此能	-10.8368
能取所取	-10.8369
故者意云	-10.837
不相應故	-10.837
妄分別	-10.8372
唯見	-10.8374
饒益有情	-10.8375
能憶	-10.8379
淨者	-10.8383
所行境	-10.8384
隨他	-10.8385
樞要	-10.8386
得此	-10.8387
可意	-10.8388
伺察	-10.8393
解脫身	-10.8395
於己	-10.8398
受支	-10.8401
此理	-10.8401
先問	-10.8408
淨色	-10.8409
於中初	-10.8414
熱惱	-10.8415
注	-10.8415
舉喻	-10.8419
響	-10.842
喪	-10.8421
束	-10.8421
飢	-10.8422
摧	-10.8423
粗	-10.8425
牟尼	-10.8426
善者	-10.8428
亦無失	-10.8429
同於	-10.843
▁初正釋	-10.843
妙行	-10.8435
於所緣境	-10.8438
無定	-10.8438
性也	-10.8441
第九品	-10.8443
中際	-10.8454
九門	-10.8457
三解	-10.8462
演曰四釋	-10.8464
何異	-10.8465
無對	-10.8471
三十六	-10.8472
盡智	-10.8473
授記	-10.8475
不修	-10.8476
無明為緣	-10.8479
除此	-10.8483
諸極微	-10.8486
二廣答	-10.8487
飾	-10.8488
莖	-10.8493
心上	-10.8493
釋之	-10.8494
慈氏	-10.8495
即唯	-10.8496
通二種	-10.8499
開導依	-10.8499
壽煖	-10.8503
若為	-10.8505
義不成	-10.8506
如虛空	-10.8508
即第八識	-10.8512
此文意說	-10.8514
三十頌	-10.8516
無漏故	-10.8519
執為我	-10.8521
非一切	-10.8522
誰為	-10.8523
勝德	-10.8524
二初	-10.8527
此非	-10.8528
心及心所	-10.853
非也	-10.8531
等義	-10.8539
更互相	-10.854
假想	-10.8541
後辨	-10.8541
深信	-10.8542
正量部	-10.8544
方便因	-10.8546
即起	-10.8547
畜生	-10.8548
取捨	-10.855
及果	-10.8551
題	-10.8554
何者是	-10.8555
隱顯	-10.8555
彌	-10.8555
白品	-10.8559
百劫	-10.8559
一劫	-10.856
演曰後辯	-10.856
皆從	-10.8565
如涅槃說	-10.8568
相見二分	-10.8569
復有四種	-10.8571
實德	-10.8572
同是	-10.8572
取彼	-10.8573
如是乃至	-10.8577
方所	-10.858
揔結	-10.8582
有實體	-10.8587
應思	-10.8588
後師	-10.8589
全分	-10.859
無實體	-10.8595
委	-10.8596
析	-10.8597
十處	-10.8598
於世間	-10.8599
何等為四	-10.8601
為異	-10.8604
五力	-10.8606
如前已說	-10.8611
無間緣	-10.8614
名心	-10.8616
定果色	-10.8617
勝鬘經	-10.8623
無差別故	-10.8624
不亂	-10.8625
理亦不然	-10.8628
二愚	-10.8633
伏惑	-10.8633
圓鏡智	-10.8635
生無色	-10.8643
所變相分	-10.8644
是故說	-10.865
四由	-10.865
合名	-10.8651
入地	-10.8651
明處	-10.8653
有十二	-10.8654
悲願	-10.8655
亦隨	-10.8661
雜染清淨	-10.8662
含藏	-10.8667
厭心	-10.8677
文分為二	-10.8677
隨法	-10.8677
世道	-10.8683
伏除	-10.8683
非他	-10.8684
遠近	-10.8686
諦觀	-10.8687
必是	-10.8691
不增	-10.8693
異於	-10.8695
思等	-10.8696
若法	-10.8699
階	-10.87
受報	-10.87
如所說	-10.8703
羊	-10.8704
亦取	-10.8706
無相觀	-10.8712
初地已上	-10.8712
於未來	-10.8714
了因	-10.8716
脩習	-10.8717
下二句	-10.8718
何非	-10.8718
心品	-10.8719
瑜伽師	-10.872
阿羅漢果	-10.8721
等位	-10.8724
餘義	-10.8725
四境	-10.8726
即知	-10.8727
一百	-10.8735
易解	-10.8736
若論	-10.8738
略標	-10.8739
所因	-10.8741
唯識理	-10.8743
而自	-10.8743
於彼彼	-10.8744
聲聞地	-10.875
定道	-10.8753
親相分	-10.8754
為本質	-10.8755
三見	-10.8763
攝大乘論	-10.877
三行	-10.8771
厚	-10.8771
四中	-10.8775
互為	-10.8775
復於	-10.8778
諍論	-10.8778
結生相續	-10.8779
醉	-10.8779
緣之	-10.8782
彼障	-10.8787
不得起	-10.8787
一切諸佛	-10.8788
為常	-10.8789
無明發	-10.8795
非此	-10.8795
不同分	-10.8797
十使	-10.8798
火等	-10.8798
戒者	-10.8799
謂佛	-10.88
而復	-10.8801
彼復	-10.8803
五蓋	-10.8813
作是	-10.8815
證入	-10.8815
由得	-10.8816
定是	-10.8822
此論文	-10.8823
諸門	-10.8827
其所	-10.883
如何言	-10.8832
申正義	-10.8833
門者	-10.8834
修果	-10.8836
正直	-10.8837
此方	-10.8839
割	-10.8839
遺	-10.8842
能分別	-10.8843
陀那	-10.8845
入息	-10.8845
無漏界	-10.8853
道支	-10.8865
識相	-10.8867
一於	-10.8868
永不	-10.887
勝用	-10.8872
不許有	-10.8875
於定	-10.8876
富	-10.8876
於四	-10.8879
第二釋	-10.888
第二月	-10.8886
各一	-10.8887
唯於	-10.889
住於	-10.8892
六道	-10.8893
法行	-10.8894
隨好	-10.8898
所知事	-10.8901
小分	-10.8903
假設	-10.8906
炎	-10.8909
於諸眾生	-10.891
務	-10.8911
主宰	-10.8914
演曰七	-10.8915
罵	-10.8915
可欣	-10.8915
我法二執	-10.8917
釋論曰	-10.8918
問意	-10.8918
問既	-10.892
菩提涅槃	-10.8925
清淨法	-10.8925
次一	-10.8926
家家	-10.8927
親證	-10.8927
攀緣	-10.8928
前明	-10.8928
有八種	-10.893
具戒	-10.8932
一聚	-10.8934
成實論	-10.8935
七作意	-10.8936
佛智	-10.8938
應更	-10.894
餘六	-10.8944
此業	-10.8945
是故菩薩	-10.8948
名大	-10.8957
非無漏	-10.8958
如眼	-10.8959
無退	-10.896
空華	-10.896
體同	-10.8965
妙法	-10.8966
之文	-10.8968
化心	-10.8971
現量所得	-10.8971
不發	-10.8975
兩句	-10.8975
所以不說	-10.8976
願樂	-10.8978
能盡	-10.8979
開蒙	-10.8979
均	-10.898
次後	-10.8985
磨	-10.8987
如地持說	-10.8987
逸	-10.8988
佛位	-10.8989
讚歎	-10.899
起諸	-10.8991
門竟	-10.8991
上上	-10.8993
無住涅槃	-10.8994
護法等	-10.8996
一切門	-10.9001
界處	-10.9004
邪命	-10.9006
兩門	-10.9007
有處說	-10.9008
阿陀那識	-10.9009
之我	-10.901
▁○	-10.9012
多人	-10.9013
名色支	-10.9013
恒與	-10.9014
若復	-10.9014
名識	-10.9017
依定	-10.9018
緣起支	-10.902
彼於	-10.9021
現行識	-10.9022
盡理	-10.9027
不忍	-10.9028
言非	-10.9036
眼界	-10.9042
黑品	-10.9043
諸經	-10.9044
五品	-10.9046
是無記性	-10.9047
有愛	-10.9048
顧戀	-10.9056
條	-10.9056
例破	-10.9056
不善心	-10.9058
若略說	-10.9058
而是	-10.9058
為治	-10.9058
演曰次	-10.906
無容	-10.9061
三云	-10.9061
隣虛	-10.9063
極重	-10.9064
道果	-10.9065
一切佛	-10.9067
二利	-10.9072
有四句	-10.9075
我於	-10.9075
發識	-10.9076
所遍計	-10.9082
起現行	-10.9086
隣	-10.909
身分	-10.9093
身行	-10.9098
上中下	-10.9098
即簡	-10.9099
安處	-10.9101
親所緣	-10.9103
善說	-10.9106
識類	-10.9107
見色	-10.9108
義准	-10.911
無實用	-10.9113
正命	-10.9117
所觸	-10.9119
知有	-10.9121
初二句	-10.9125
無雜	-10.9125
先已	-10.9125
調柔	-10.9128
此四種	-10.9129
搆	-10.913
呪術	-10.913
金剛喻定	-10.913
扶塵	-10.913
狗	-10.9134
報果	-10.9135
飢渴	-10.9135
手足	-10.9135
熏修	-10.9135
種種差別	-10.9137
由依	-10.9138
次二	-10.914
錯亂	-10.9141
證淨	-10.9152
唐	-10.9153
先辨	-10.9155
義成	-10.9155
種子識	-10.9156
無差	-10.9158
應同	-10.9163
若未	-10.9164
身在欲界	-10.9164
能遍	-10.9165
初地菩薩	-10.9167
得勝	-10.9171
二類	-10.9171
分故	-10.9173
大生	-10.9173
能所取	-10.9174
信心	-10.9175
尚不	-10.9176
何故如是	-10.918
以何	-10.9183
作意故	-10.9183
得滅定	-10.9184
雖多	-10.9185
體是一	-10.9185
其理	-10.9186
神我	-10.9187
云云	-10.919
由四種	-10.9196
是別	-10.9197
現果	-10.9197
是處	-10.9199
定體	-10.9201
通別	-10.9202
貧窮	-10.9202
瞻	-10.9203
降	-10.9204
又非	-10.9205
行人	-10.9208
本生	-10.9209
納	-10.9209
問若爾	-10.9211
能遍計	-10.9212
三別釋	-10.9213
和集	-10.9214
先於	-10.9215
令增長	-10.9217
略有五種	-10.9218
如大	-10.9219
出現	-10.9224
空中	-10.9235
勝功德	-10.9236
前所	-10.9237
五業	-10.9237
汝宗	-10.9238
現生	-10.9239
無礙智	-10.9241
事相	-10.9244
在未來	-10.9245
耳根	-10.9246
第一卷	-10.9252
為緣生	-10.9254
似有	-10.9256
離合	-10.9258
二釋分三	-10.9262
初敘	-10.9263
同境	-10.9263
一切功德	-10.9264
之失	-10.9268
服	-10.9277
所了	-10.9277
先業	-10.9277
無有差別	-10.9278
遍緣	-10.9279
諸轉識	-10.9279
當知即是	-10.9283
於爾時	-10.9286
器世界	-10.9286
唯佛	-10.9288
第二念	-10.9291
第二第三	-10.9291
說無	-10.9296
證涅槃	-10.9305
文意	-10.9306
十二因緣	-10.931
輕重	-10.931
所除	-10.9314
修習位	-10.9314
爾者	-10.9315
言語	-10.932
於義	-10.9321
增語	-10.9322
自體故	-10.9326
對法論	-10.9326
易脫	-10.9327
和上	-10.9329
煩惱種子	-10.9331
同喻	-10.9344
不得成	-10.9345
崇	-10.9347
言音	-10.9348
滑	-10.935
無變異	-10.9351
生法	-10.9353
成無漏	-10.9353
相同	-10.9353
先起	-10.9354
盡未來際	-10.9354
盜	-10.9354
由心	-10.9357
難破	-10.9363
不能自	-10.9366
離彼	-10.9367
是義云何	-10.937
所攝者	-10.9371
觀察作意	-10.9374
轉成	-10.9378
知故	-10.9379
猶是	-10.9382
未熟	-10.9382
定位	-10.9384
自他利	-10.9384
後報	-10.9384
通力	-10.9388
法是	-10.9391
緣自	-10.9392
六十二見	-10.9393
求菩提	-10.9395
極微細	-10.9395
如次配	-10.9398
攝事	-10.94
自乘	-10.9401
能隨	-10.9401
二十唯識	-10.9404
盲	-10.9409
人等	-10.9409
水火	-10.9411
默	-10.9412
是智	-10.9414
此句	-10.9415
是第三	-10.9415
先標	-10.9417
寺	-10.9418
要須	-10.942
相用	-10.9424
免	-10.9425
懼	-10.9425
十煩惱	-10.9426
邊執見	-10.9427
唱	-10.9428
覺者	-10.943
促	-10.9431
酒	-10.9431
餘心所	-10.9432
轉時	-10.9433
不定者	-10.9433
不顧	-10.9435
亦不成	-10.9437
能自	-10.9437
於諸法中	-10.9437
不安隱	-10.9441
從緣生	-10.9447
支分	-10.9447
受菩薩戒	-10.9448
故偏	-10.9448
無量功德	-10.945
苦樂受	-10.9453
證法	-10.9454
於色	-10.9455
資生	-10.9456
亦應爾	-10.9457
後依	-10.9463
想受滅	-10.9466
死時	-10.9468
法華經	-10.9469
令起	-10.947
惑障	-10.947
擇法	-10.947
說以為	-10.9474
初頌	-10.9476
判為	-10.9476
例餘	-10.9477
未成	-10.9479
由先	-10.9484
真義	-10.9486
生上地	-10.9502
澁	-10.9504
忿恨	-10.9507
煗	-10.9507
他方	-10.9507
是不善	-10.9509
二無我	-10.951
常樂我淨	-10.9512
立量破	-10.9512
接	-10.9514
雖亦	-10.9515
三十七品	-10.9516
卑	-10.9516
生死相續	-10.9518
四取	-10.952
而緣	-10.952
能離	-10.9521
一來果	-10.9522
大隨	-10.9525
本頌	-10.9525
三塗	-10.9527
還生	-10.9527
長短	-10.9528
形相	-10.9529
心解脫	-10.9531
及於	-10.9533
前方便	-10.9535
受想行識	-10.9537
如空	-10.9538
常樂	-10.9539
化作	-10.9543
遠離一切	-10.9545
四無色	-10.9548
無根	-10.955
不顛倒	-10.9555
先世	-10.9556
一界	-10.956
力者	-10.9562
善人	-10.9562
染意	-10.9562
俱生煩惱	-10.9564
質礙	-10.9566
之後	-10.9567
延	-10.9567
斷所知障	-10.9567
雜染法	-10.9573
畢	-10.9575
臥具	-10.9575
勝智	-10.9576
此相	-10.9576
不現行	-10.9577
蘊處界	-10.9581
一實	-10.9581
噉	-10.9583
利益事	-10.9587
毘曇法中	-10.9588
成事智	-10.9591
觀彼	-10.9593
次別	-10.9597
身證	-10.9597
受想思	-10.9598
下文云	-10.9603
破彼	-10.9604
忍受	-10.9608
煩惱相應	-10.9609
定果	-10.961
觸食	-10.9612
不安	-10.9614
要由	-10.9617
地繫	-10.9617
諸法種子	-10.9619
為初	-10.9622
中陰	-10.9627
想等	-10.9629
於未來世	-10.9629
為人	-10.9637
五心	-10.9641
細故	-10.9641
二障種	-10.9643
善中	-10.965
一總	-10.9651
踈	-10.9651
昏	-10.9652
臨	-10.9653
五大	-10.9655
可生	-10.9655
前前	-10.9655
二量	-10.9658
心平等	-10.9658
諂誑	-10.9658
銅	-10.9659
我有	-10.966
一師言	-10.9663
侵	-10.9663
基師	-10.9664
知其	-10.9664
貴	-10.9664
界中	-10.9665
難也	-10.9667
理亦	-10.967
演	-10.967
由何	-10.9672
有過	-10.9674
前巳	-10.9678
略有四種	-10.9678
無常苦	-10.9679
師義	-10.9679
塗	-10.9684
能了知	-10.9688
差別門	-10.969
往還	-10.9691
能化	-10.9691
此界	-10.9692
總顯	-10.9697
最後身	-10.9698
下解	-10.9699
實境	-10.9699
不入	-10.97
演曰四明	-10.9701
依法	-10.9704
施設建立	-10.9706
苦具	-10.971
即許	-10.9712
反顯	-10.9712
永盡	-10.9712
入無餘	-10.9713
知彼	-10.9714
此論中	-10.9716
意界	-10.9717
修道煩惱	-10.9717
內有	-10.9717
比度	-10.9717
十度	-10.9718
為十	-10.9718
空有	-10.9719
如經言	-10.972
念慧	-10.9721
令諸有情	-10.9726
不用	-10.9727
顯彼	-10.973
不息	-10.9735
甞	-10.9735
略答	-10.9735
阿笈摩	-10.9737
契經說	-10.9741
園	-10.9741
大有	-10.9743
分別起	-10.9744
別開	-10.9745
樂等	-10.9745
愛著	-10.9747
外別有	-10.9748
六界	-10.9749
與一切	-10.9749
不離身	-10.9752
二形	-10.9752
非要	-10.9753
諸漏	-10.9754
勝品	-10.9755
頓悟菩薩	-10.9755
故經說言	-10.9755
如燈	-10.9759
水等	-10.976
於生死	-10.9761
二十二根	-10.9766
緣上	-10.9775
薩迦耶	-10.9775
心所有法	-10.9779
即緣	-10.9782
番釋	-10.9784
四住	-10.9785
心王心所	-10.9785
幻事	-10.9786
時無	-10.9794
色中	-10.9799
網	-10.98
道中	-10.98
𢢔	-10.9805
四尋思	-10.9806
見道前	-10.9806
一約	-10.9807
聚中	-10.9807
應受	-10.9807
茲	-10.9808
如來地	-10.9809
謂住	-10.9809
懺悔	-10.9813
不增不減	-10.9814
論善男子至	-10.9817
戒禁	-10.9825
引業	-10.9828
我宗	-10.9831
引經證	-10.9833
非因	-10.9836
可厭	-10.9838
准此應知	-10.9842
前生	-10.9842
日夜	-10.9849
結顯	-10.9852
結上	-10.9852
轉法輪	-10.9855
起下	-10.9857
草木	-10.9857
真如理	-10.9859
擾	-10.9859
作如是說	-10.9859
有識	-10.9861
見分緣	-10.9862
依實	-10.9868
次答	-10.987
迷亂	-10.9871
品類差別	-10.9872
六門	-10.9872
唯與	-10.9872
見相分	-10.9874
攝也	-10.9874
五十九	-10.9875
廣破	-10.9876
初中有二	-10.9878
十地經	-10.9881
體實	-10.9881
三十七	-10.9885
方便者	-10.9886
拔濟	-10.9886
遠行	-10.9889
沙彌	-10.989
就初	-10.9891
勸導	-10.9891
若別	-10.9892
阿僧祇劫	-10.9896
阿那含	-10.9897
自業	-10.9897
十七地	-10.9898
等云	-10.9899
空故	-10.99
彼人	-10.99
非恒	-10.9902
疎遠	-10.9904
所識	-10.9906
不證	-10.9907
要集云	-10.9909
勝義無性	-10.9913
第一義諦	-10.9916
為簡	-10.9919
謂觀	-10.992
或執	-10.9922
復能	-10.9923
不聞	-10.9926
形量	-10.9926
成熟眾生	-10.9928
不定地	-10.9929
真妄	-10.993
自在轉	-10.9931
宗鏡云	-10.9936
不顯	-10.9939
慧為體	-10.9939
但舉	-10.9944
所說法	-10.9944
入於	-10.9944
為作	-10.9946
加行故	-10.9948
互相違	-10.9952
皆空	-10.9953
不散	-10.9954
阿陀那	-10.9954
心性	-10.9955
佛性論	-10.9959
此第八識	-10.9965
乏	-10.9965
見聞覺知	-10.9968
油	-10.9969
池	-10.9969
若與	-10.997
持心	-10.997
利養恭敬	-10.997
泥	-10.997
引發因	-10.9971
如所有性	-10.9972
州	-10.9974
見疑	-10.9978
隔越	-10.998
必與	-10.998
處起	-10.9981
八地巳上	-10.9985
佛眼	-10.9986
以此為	-10.9987
至心	-10.9987
同一所緣	-10.9987
殺害	-10.9988
大智	-10.9988
五十七	-10.9988
能順	-10.9988
八禪	-10.9988
理教	-10.9989
唯能	-10.9989
似色	-10.999
衣服	-10.9993
應知亦爾	-10.9993
依緣	-10.9995
所作業	-10.9996
諸聖者	-10.9996
斷煩惱障	-10.9998
能持種	-10.9998
佛法僧	-10.9999
佛無	-11.0003
七生	-11.0005
法空觀	-11.0005
修道斷	-11.0006
若已	-11.0008
違教	-11.0008
所聞	-11.0009
之別	-11.0011
華嚴經	-11.0012
中有五	-11.0013
雖言	-11.0015
佛語	-11.0015
中第一	-11.0016
不苦不樂受	-11.0016
登	-11.0023
苦樂等	-11.0026
多修習	-11.0027
不別說	-11.0028
是能	-11.003
難得	-11.0032
資助	-11.0033
能行	-11.0037
觸等五	-11.0041
寒	-11.0041
緣他	-11.0042
諸定	-11.0043
相見分	-11.0045
身智	-11.0045
為空	-11.0046
體義	-11.0048
二十句	-11.0049
惛	-11.0049
聚色	-11.005
如理應思	-11.005
如何名	-11.0053
無流	-11.0055
上座	-11.0055
目之為	-11.0056
為量	-11.0058
於無相	-11.0063
類故	-11.0066
遍智	-11.0071
虗空等	-11.0072
名同	-11.0074
法處色	-11.0081
遮止	-11.0081
頌明	-11.0086
復起	-11.0088
標列	-11.0089
彼依	-11.0093
上假立	-11.0097
如世	-11.0098
取果	-11.0099
名言種	-11.01
有殊	-11.01
總名為	-11.0101
肉眼	-11.0103
證菩提	-11.0103
起執	-11.0106
貫	-11.0107
受相應	-11.0107
薩婆多等	-11.0108
故論云	-11.0108
成不成	-11.011
為行相	-11.0111
詐	-11.0115
剎那滅	-11.0116
𦦨	-11.0118
煩惱業	-11.0118
三十三	-11.0118
當說	-11.0119
大段	-11.012
諸障	-11.0122
色等法	-11.0122
名斷	-11.0123
為何義故觀	-11.0125
果色	-11.0126
頃	-11.0128
計有	-11.0129
根者	-11.0129
糞	-11.0129
沙門婆羅門	-11.0136
羯	-11.0136
不共佛法	-11.0136
無增減	-11.0137
入見道時	-11.0139
一切種智	-11.014
一來	-11.014
果體	-11.0142
熏發	-11.0142
彼亦	-11.0142
亦具	-11.0143
發露	-11.0144
皆容	-11.0145
於其中	-11.0146
下云	-11.0147
自相故	-11.0148
便為	-11.015
乃名	-11.015
四支	-11.0151
依主釋也	-11.0153
文句	-11.0153
起行	-11.0153
證有	-11.0155
此色	-11.0157
無住	-11.0162
初文分	-11.0164
如是次第	-11.0165
世出世間	-11.0169
又前	-11.0171
愛支	-11.0172
是佛	-11.0172
意明	-11.0172
生下	-11.0173
由自	-11.0173
時方	-11.0174
並名	-11.0175
一切雜染	-11.0175
廣辯	-11.0176
所有諸	-11.0178
諸有漏	-11.0179
二廣解	-11.0179
自在天	-11.0181
分成	-11.0183
所攝受	-11.0186
能斷惑	-11.0189
諸義	-11.019
同梵行	-11.0191
既同	-11.0192
所緣相	-11.0193
略由	-11.0193
是善性	-11.0196
佛寶	-11.0199
分為四	-11.0199
引教	-11.02
間雜	-11.0202
為捨執著	-11.0203
蜜	-11.0204
身上	-11.0206
未入	-11.0207
廣說如前	-11.0207
解深密	-11.0208
無慚無愧	-11.0209
攬	-11.021
昇	-11.0213
第四解	-11.0213
攝藏	-11.0214
住時	-11.0217
橫計	-11.0218
今謂不爾	-11.0218
有對色	-11.0218
率爾心	-11.022
信受	-11.0221
所宜	-11.0221
別分	-11.0222
此三門竟	-11.0222
今既	-11.0222
護月	-11.0223
可為	-11.0226
第一解	-11.0227
仙人	-11.0232
因緣種	-11.0234
學勝利	-11.0234
同品	-11.0236
非時	-11.0239
六十五	-11.024
唯識義	-11.0244
長壽	-11.0245
圓明	-11.0245
諸處	-11.0247
然依	-11.0249
亦有二	-11.0249
成道	-11.0249
能了別	-11.025
所依根	-11.0254
能執持	-11.0256
求者	-11.0262
何以知	-11.0264
說十	-11.0264
若無此識	-11.0264
外塵	-11.0272
依識	-11.0272
戒學	-11.0272
通達位	-11.0273
煞	-11.0274
中起	-11.0277
緣也	-11.0278
着	-11.0286
而論	-11.0286
見趣	-11.0287
即當	-11.0289
感果	-11.0289
瑜伽等	-11.0289
久遠	-11.029
妙慧	-11.0291
怯弱	-11.0293
前來	-11.0294
富貴	-11.0295
人身	-11.0299
捨者	-11.0299
如是諸	-11.03
趣寂	-11.03
中先	-11.0301
賤	-11.0302
五識緣	-11.0302
圓寂	-11.0304
妄見	-11.031
外無別	-11.0311
大力	-11.0312
此遮	-11.0313
惱害	-11.0314
自釋言	-11.0316
對法第十	-11.0316
隨所欲	-11.0318
種子為	-11.0319
人法二	-11.032
所得果	-11.0322
本疏	-11.0324
能趣	-11.0331
會通	-11.0337
增上戒	-11.034
生空觀	-11.0342
前已	-11.0343
墮在	-11.0347
緣所生	-11.0347
染淨法	-11.0347
所集	-11.0348
一有情	-11.0352
如聲聞地	-11.0352
平等平等	-11.0352
有情數	-11.0353
由無明	-11.0353
答此	-11.0354
緣闕	-11.0355
轉釋	-11.0355
應化	-11.0357
是第一	-11.0363
為根本	-11.0365
五識俱	-11.0366
真如是	-11.0366
色想	-11.0367
佛所	-11.0367
方可	-11.0368
明記	-11.0368
我為	-11.0369
灰	-11.0376
聖說	-11.0376
弊	-11.0378
分別門	-11.038
利眾生	-11.0381
六品	-11.0381
獨影	-11.0381
妻子	-11.0382
他受用身	-11.0384
所食	-11.0384
義門	-11.0385
復次若	-11.0386
聖弟子	-11.0388
令離	-11.0388
見道所斷	-11.0389
能燒	-11.0389
不了義	-11.039
三字	-11.0391
算數	-11.0391
平等心	-11.0393
此即是	-11.0396
生巳	-11.0399
者何	-11.0403
為破	-11.0403
有漏定	-11.0405
覺慧	-11.0407
障者	-11.0407
恒起	-11.0408
又應	-11.0409
下破	-11.0411
分別所起	-11.0411
如契經說	-11.0414
至得	-11.0416
施主	-11.0416
能發業	-11.0418
聲者	-11.0423
別報業	-11.0423
對治故	-11.0424
彼種子	-11.0426
若正	-11.0427
正觀	-11.0427
因緣變	-11.0427
人趣	-11.0429
前境	-11.0433
違順	-11.0435
演說	-11.0438
方乃	-11.0439
為遮	-11.0439
欲繫	-11.044
於色等	-11.0441
鈔	-11.0442
位次	-11.0444
若不許	-11.0445
種望	-11.0447
畢竟不	-11.0451
惑種	-11.0451
一切有為	-11.0453
中文	-11.0454
如色	-11.0456
令成	-11.0456
無戲論	-11.0458
吐	-11.0458
廣說如經	-11.0459
此見	-11.0462
慈愍	-11.0462
內法異生	-11.0463
之物	-11.0468
不相違故	-11.0469
乾	-11.0471
但隨	-11.0472
利樂有情	-11.0473
同也	-11.0477
觀智	-11.0477
諸惡行	-11.0478
於涅槃	-11.048
外餘	-11.0481
無學道	-11.0482
如大論	-11.0482
改轉	-11.0483
識等五	-11.0483
地前菩薩	-11.0484
影略	-11.0485
更無餘	-11.0487
各別故	-11.0488
解者	-11.0493
豈無	-11.0493
無貪等	-11.0494
十支	-11.0496
地者	-11.0496
顯其	-11.0497
有九種	-11.0499
能照	-11.0499
法空智	-11.05
非根	-11.0503
法眼	-11.0505
次別釋	-11.0508
三無漏根	-11.0511
利生	-11.0512
高下	-11.0512
可以	-11.0514
輪轉	-11.0516
更加	-11.052
或名	-11.0522
揚	-11.0527
己身	-11.0529
界攝	-11.0529
無漏者	-11.0529
前九	-11.0533
能生果	-11.0537
得自在故	-11.054
現可得	-11.054
即蘊	-11.0541
半擇迦	-11.0544
身邊二見	-11.0544
植	-11.0545
謂真如	-11.0548
一就	-11.0549
審決	-11.0549
根本識	-11.055
便非	-11.0551
六入	-11.0552
文言	-11.0553
善逝	-11.0556
結集	-11.0557
自相續	-11.0562
後心	-11.0563
正加行	-11.0564
信者	-11.0568
證云	-11.057
七寶	-11.0577
有其二	-11.0578
一部	-11.058
是事	-11.0584
依他圓成	-11.0586
雖知	-11.0586
上生	-11.059
內種	-11.0591
難解	-11.0594
三歸	-11.0594
惡心	-11.0597
現報	-11.0606
辟支佛	-11.0607
出過	-11.0608
名成	-11.0609
修善法	-11.0609
之位	-11.0611
文分為二先	-11.0613
離惡	-11.0613
建	-11.0613
思擇力	-11.0617
十五種	-11.0617
指前	-11.0619
不現見	-11.0619
星	-11.0622
不答	-11.0623
離欲界	-11.0625
凡所	-11.0627
六支	-11.0627
悕望	-11.0628
俱通	-11.0628
離生喜樂	-11.0629
行德	-11.063
矯	-11.063
又解云	-11.063
此品	-11.0632
投	-11.0634
幽	-11.0634
經生	-11.0635
後得智中	-11.0639
且據	-11.0642
身表	-11.0643
二彰	-11.0645
論文中	-11.0646
熏生	-11.0647
趣中	-11.0648
無礙道	-11.0648
六十二	-11.0648
分五如論	-11.065
不動業	-11.0651
清淨法界	-11.0653
真識	-11.0654
習近	-11.0655
便得	-11.0656
舊論	-11.0657
下一句	-11.0658
為自性故	-11.0665
定時	-11.0666
施物	-11.0669
根本後得	-11.0672
破他	-11.0673
下三禪	-11.0677
應起	-11.0678
故但	-11.068
由此故知	-11.0685
分析	-11.0686
染者	-11.0687
隨事	-11.0692
生死苦	-11.0693
一邊	-11.0694
現在法	-11.0696
不如是	-11.0699
何以然者	-11.07
非想非非想	-11.0701
於諸法	-11.0703
憤	-11.0709
腹	-11.0712
智也	-11.0716
殷重	-11.0716
無執	-11.0717
同聚	-11.0717
劬勞	-11.0718
斷對治	-11.0721
宿住	-11.0721
耎	-11.0723
中間禪	-11.073
此中言	-11.0732
麤動	-11.0732
亦別	-11.0733
有二一	-11.0734
是世間	-11.0738
生信	-11.0739
不可以	-11.0741
恒隨轉	-11.0745
餘文	-11.0746
與心	-11.075
非能熏	-11.0753
損伏	-11.0753
方是	-11.0755
修道中	-11.0758
彼識	-11.0765
移	-11.0769
愍	-11.0772
等文	-11.0776
小十	-11.0781
生老	-11.0781
慧者	-11.0782
於勝	-11.0784
悉是	-11.0786
行施等	-11.0786
會違	-11.079
率	-11.0794
問云何	-11.0796
之種	-11.0797
可成	-11.0797
相應心所	-11.0799
耽	-11.0799
罰	-11.08
宮殿	-11.0801
牙	-11.0802
釋也	-11.0803
最清淨	-11.0804
所依身	-11.0808
乃得	-11.0811
妄念	-11.0812
堅執	-11.0812
未審	-11.0812
不同故	-11.0816
強盛	-11.0816
共生	-11.0817
梵住	-11.0818
或於一時	-11.0819
入出息	-11.0822
無因緣	-11.0828
耳等	-11.0829
此種	-11.083
能隨順	-11.0835
身語意業	-11.084
簡異	-11.0844
未潤	-11.0845
無亂	-11.0847
非道	-11.0848
「	-11.085
無生智	-11.085
妨難	-11.085
有幾種	-11.085
故說名	-11.0853
由見	-11.0853
後二句	-11.0855
應生	-11.0856
八明	-11.0857
五數	-11.0857
定不定	-11.086
謂初	-11.0861
了義經	-11.0861
具五	-11.0861
增上義故	-11.0863
助成	-11.0863
中解	-11.0865
便起	-11.0868
各具	-11.0876
先時	-11.0876
一對	-11.0877
文中有二初	-11.0879
有實用	-11.0879
論意	-11.088
為大	-11.0881
執者	-11.0882
苾蒭	-11.0882
孤	-11.0883
定也	-11.0883
所須	-11.0884
現前故	-11.0885
作惡	-11.0887
一自性	-11.0888
教授教誡	-11.0888
名勝義	-11.0889
以成	-11.0889
五十二	-11.089
五十四	-11.0891
名阿賴耶	-11.0891
▁初標	-11.0891
命者	-11.0894
發勤精進	-11.0896
苦因	-11.0901
何假	-11.0905
典	-11.0907
果名	-11.0911
此間	-11.0914
至皆	-11.0916
熏習種子	-11.0922
現緣	-11.0926
淨天	-11.0926
生解	-11.0929
虗妄分別	-11.0932
義顯	-11.0935
為種子	-11.0936
滯	-11.0938
舉數	-11.0939
名樂	-11.094
同法	-11.0942
空行	-11.0943
演曰後別	-11.0946
所招	-11.0947
文中分二一	-11.0948
備云	-11.095
為利益	-11.0951
初得	-11.0953
既然	-11.0953
二解釋	-11.0954
決了	-11.0954
無疑	-11.0955
受學	-11.0957
有緣	-11.0959
皆可	-11.0962
財位	-11.0962
眾中	-11.0964
萬法	-11.0964
六十	-11.0965
相應無明	-11.0968
四總結	-11.0969
緩	-11.0971
會釋	-11.0971
通有	-11.0971
無生滅	-11.0971
隨自	-11.0972
則為	-11.0972
無記者	-11.0972
恥	-11.0973
令身	-11.0974
妻	-11.0975
博	-11.0975
永伏	-11.0977
每	-11.0978
化地部	-11.098
晝夜	-11.0982
其因	-11.0983
無漏識	-11.0984
作因	-11.0986
增上者	-11.0986
謂諸如來	-11.0987
強故	-11.0987
修方便	-11.0987
貪嗔癡	-11.0987
十二部經	-11.0988
光影	-11.0989
具知根	-11.0989
生報	-11.099
不離心	-11.0992
名苦	-11.0992
影顯	-11.0994
流出	-11.0994
教者	-11.0996
八地已上	-11.0997
所染	-11.0998
心識	-11.0999
驚	-11.1001
何因緣故	-11.1002
種子生現行	-11.1002
准下	-11.1004
雖得	-11.1011
五戒	-11.1011
小乘法中	-11.1012
是法	-11.1014
無彼	-11.1016
亦斷	-11.1016
小乘說	-11.1017
數量	-11.1022
夢境	-11.1024
聲聞藏	-11.1026
生身	-11.1029
除彼	-11.1031
功能差別	-11.1031
無果	-11.1031
即入	-11.1034
正修行	-11.1034
有二說	-11.1036
未滿	-11.1037
工巧處	-11.1039
一切如來	-11.1041
財法	-11.1047
彼非	-11.1051
初念	-11.1051
不相違因	-11.1052
通有漏無漏	-11.1055
五淨居	-11.1057
或應	-11.1058
種子也	-11.1059
七依	-11.1059
五通	-11.1059
教體	-11.1061
愚者	-11.1063
𤏙	-11.1063
薀	-11.1063
二十九	-11.1064
端嚴	-11.1065
傍修	-11.1066
七八二識	-11.1067
柔軟	-11.1067
於理無違	-11.1068
無尋無伺	-11.1068
出世法	-11.1069
身見等	-11.1071
上文	-11.1072
善不善業	-11.1072
於現法	-11.1073
由二因緣	-11.1074
鬼畜	-11.1076
因名	-11.1078
行也	-11.1079
身口意	-11.108
追	-11.1083
二生	-11.1087
難言	-11.1089
過失故	-11.1092
第三師	-11.1095
當體	-11.1095
移轉	-11.1096
般涅槃法	-11.1096
說一切法	-11.1097
何理	-11.1098
有幾	-11.1104
為六	-11.1104
難斷	-11.1108
事境	-11.1108
復為	-11.1113
自性分別	-11.1113
六事	-11.1114
是諸菩薩	-11.1118
識是	-11.1122
初二果	-11.1125
總合	-11.1125
分別惑	-11.1128
如地	-11.1128
自行	-11.1133
無記故	-11.1134
隨其所	-11.1134
有無不定	-11.1136
緣如	-11.1136
事理	-11.1139
有何過	-11.114
涅盤	-11.1143
䇿	-11.1143
何言	-11.1145
齒	-11.1145
盡所有性	-11.1147
表無表	-11.1148
闍	-11.1151
汝言	-11.1154
此第二	-11.1159
方便善	-11.116
增進	-11.1163
差別應知	-11.1163
▁初明	-11.1165
略明	-11.1169
識外	-11.117
染分	-11.1172
為淨	-11.1176
云何可見	-11.1177
或現	-11.1178
同行	-11.118
承事	-11.118
兩重	-11.1183
四結	-11.1185
靜慮者	-11.1189
諸弟子	-11.119
過者	-11.1191
正顯	-11.1193
由此義故	-11.1193
慧眼	-11.1196
樂著	-11.1198
從緣	-11.1202
淨智	-11.1203
求解脫	-11.1207
常無	-11.1208
無性云	-11.1211
破經部	-11.1212
器界	-11.1213
非執受	-11.1213
自受	-11.1213
無量眾生	-11.1215
不成故	-11.1215
修起	-11.1218
亦作	-11.122
有間斷故	-11.1222
如經	-11.1223
假相	-11.1223
現在前時	-11.1225
非一異	-11.1226
識緣	-11.1228
五逆	-11.1229
業障	-11.1229
難意	-11.123
識等五種	-11.1232
有功用	-11.1234
甘	-11.1237
所無	-11.1239
頌意	-11.1241
擔	-11.1242
非擇	-11.1244
暴惡	-11.1244
謂之	-11.1245
索	-11.1246
自緣	-11.1248
十二分教	-11.1248
恒審思量	-11.1248
映	-11.1249
出入息	-11.1249
非現	-11.125
淨定	-11.1251
聚落	-11.1252
三十四	-11.1252
為所依故	-11.1252
為助伴	-11.1255
能變識	-11.1257
方便故	-11.1258
第十四	-11.1259
即將	-11.1265
諸門分別	-11.1266
聖教說	-11.1266
自性無記	-11.1268
生喜	-11.1268
何故說	-11.1269
立因	-11.127
一略釋	-11.127
為因緣故	-11.1277
此中說	-11.1278
名無相	-11.1279
顯前	-11.1279
煩惱斷	-11.1285
青黃等	-11.1285
有功能	-11.1289
演曰八	-11.1292
能量	-11.1292
慳悋	-11.1293
前十	-11.1294
問如	-11.1298
餘門	-11.1301
涅槃故	-11.1303
義分	-11.1304
色聚	-11.1306
趣生體	-11.1307
六十六	-11.131
速證	-11.1312
第三云	-11.1313
無處	-11.1313
復有差別	-11.1316
不俱起	-11.1317
今當	-11.1318
由如是	-11.1318
離言說	-11.1319
胎藏	-11.1319
四業	-11.1321
遇緣	-11.1323
漏盡通	-11.1324
所依止故	-11.1325
有頂地	-11.1326
頗	-11.1327
善惡無記	-11.1328
九根	-11.1329
界等	-11.133
謟	-11.1331
細分	-11.1331
此菩薩	-11.1333
復更	-11.1334
所破	-11.1334
相等	-11.1335
於現在世	-11.1335
輔	-11.1336
聰慧	-11.1337
匱乏	-11.1338
一根	-11.1338
為識支	-11.134
龜毛	-11.1341
幾種	-11.1342
人所	-11.1343
常有	-11.1343
心變	-11.1346
萬物	-11.1346
增上慧學	-11.1351
二辨	-11.1351
勝解行地	-11.1351
則能	-11.1354
故者此	-11.1356
伏難	-11.1356
八根	-11.1358
現故	-11.1358
如其所	-11.1359
六境	-11.136
十五界	-11.1362
如緣	-11.1363
學法	-11.1365
俱不成	-11.1366
增上心學	-11.1367
正辨	-11.1368
為有情	-11.1371
進修	-11.1372
有質礙	-11.1374
有執受	-11.1376
例明	-11.1377
支節	-11.1381
苦法智	-11.1381
欲得	-11.1383
出息	-11.1384
亦不應理	-11.1384
總答	-11.1387
攝彼	-11.1389
同利	-11.1389
後彰	-11.139
諸惡趣	-11.1391
望前	-11.1392
如是所說	-11.1395
除其	-11.1395
既通	-11.1399
曾無	-11.1399
具明	-11.1399
名內	-11.1402
八句	-11.1402
果上	-11.1403
具二	-11.1407
顯勝	-11.141
智斷	-11.1412
法合	-11.1412
或緣	-11.1413
論荅至	-11.1415
非佛	-11.1415
群	-11.1422
有所得	-11.1423
倦	-11.1423
緣相	-11.1424
數取趣	-11.1424
得彼	-11.1426
虛偽	-11.1427
註	-11.143
策勵	-11.1431
退還	-11.1433
初列	-11.1435
迴趣	-11.1436
任運起	-11.1437
前解為勝	-11.1437
說如是言	-11.144
分段身	-11.144
能生識	-11.144
種子依	-11.144
諸佛世尊	-11.1441
不淨品	-11.1441
正起	-11.1443
又無	-11.1445
未曾得	-11.1445
無其	-11.1446
應理	-11.1447
所量	-11.1452
有覆無記性	-11.1453
第八識中	-11.1454
表示	-11.1454
不與取	-11.1459
如瑜伽	-11.146
堅等	-11.146
無堪任	-11.146
性罪	-11.1461
亦令	-11.1464
後所得	-11.1464
應修	-11.1468
有漏位	-11.1471
非所緣	-11.1471
此何	-11.1472
下上	-11.1474
與心相應	-11.1474
忍可	-11.1478
顯理	-11.1479
無勝	-11.148
既得	-11.1483
解也	-11.1483
人無我	-11.1485
大乘宗	-11.1486
煩惱現行	-11.1486
境起	-11.1492
文可知	-11.1492
寂靜故	-11.1495
三破	-11.1496
是故說言	-11.1498
於下	-11.15
唯識觀	-11.1501
為第一	-11.1502
馳	-11.1512
現行故	-11.1513
分十	-11.1514
収	-11.1515
義邊	-11.1516
依真	-11.1517
第二義	-11.1521
笑	-11.1522
根及	-11.1523
於世	-11.1525
無始來	-11.1525
大地法	-11.1525
一切世界	-11.1525
若隨	-11.1527
有輕安	-11.1527
他作	-11.1528
苦法智忍	-11.1529
不極成	-11.153
發語	-11.153
就此	-11.1531
狹小	-11.1531
語者	-11.1531
斷二障	-11.1534
於眾生	-11.1536
展轉相望	-11.154
世尊說	-11.154
十智	-11.1541
】【	-11.1541
莊嚴具	-11.1542
離煩惱	-11.1543
如世間	-11.1543
逈色	-11.1544
根本故	-11.1548
西明云	-11.1548
起上	-11.1548
第七卷	-11.155
解行地	-11.1551
本意	-11.1553
初位	-11.1554
中除	-11.1554
二徵問	-11.1557
諸靜慮	-11.1558
攝入	-11.1559
地界	-11.1559
唯觀	-11.156
法藏	-11.156
於諸欲	-11.1561
成辨	-11.1561
白淨	-11.1563
十六種	-11.1563
運轉	-11.1565
法處攝	-11.1565
寤	-11.157
欲愛	-11.1573
上無	-11.1577
生厭	-11.1579
神境	-11.1581
舉頌	-11.1582
能障礙	-11.1583
以自	-11.1584
圓成實自性	-11.1584
者意云若	-11.1585
此舉	-11.1587
無境	-11.1588
通依	-11.1588
此根	-11.1591
離欲者	-11.1595
緣緣	-11.1595
不堪	-11.1599
成佛時	-11.1599
六十九	-11.1601
諸隨煩惱	-11.1602
故者意說	-11.1605
佛出世	-11.1607
嫉妬	-11.1608
問荅	-11.1609
擯	-11.1611
决定	-11.1612
至下當知	-11.1613
雖於	-11.1613
惱亂	-11.1615
今明	-11.1617
起滅	-11.1619
安穩	-11.1619
富樂	-11.1619
世界中	-11.162
上妙	-11.1621
八萬劫	-11.1621
故偏說	-11.1633
愛故	-11.1636
所縛	-11.1637
無常者	-11.1638
世間出世間	-11.1641
義理	-11.1644
五俱	-11.1645
已作	-11.1646
前難	-11.1648
三能變	-11.1648
觀真如	-11.1648
攝法	-11.165
人空	-11.165
有釋	-11.1651
過惡	-11.1651
三十二相	-11.1651
即言	-11.1653
般若波羅蜜多	-11.1654
故此不說	-11.1659
獨名	-11.1662
謂諸菩薩於	-11.1662
總報業	-11.1662
不饒益	-11.1663
解脫門	-11.1663
此皆	-11.1665
對前	-11.1665
亦未	-11.1667
菩薩得	-11.167
何識	-11.1673
地持論	-11.1674
不能伏	-11.1675
要集	-11.1676
進退	-11.1677
顯果	-11.169
樂果	-11.1691
同時意識	-11.1691
法住	-11.1693
為加行	-11.1696
初說	-11.1696
嗢拕南曰	-11.1697
初云	-11.1699
生雜染	-11.1701
三自性	-11.1701
修行者	-11.1701
產	-11.171
波羅	-11.1711
忿等十	-11.1712
帝釋	-11.1714
了相作意	-11.1716
定散	-11.1717
聽受	-11.1718
安置	-11.1718
而修	-11.172
輕微	-11.1721
餘非	-11.1721
俱相違	-11.1723
折伏	-11.1728
寶性論	-11.173
假色	-11.1731
或因	-11.1731
於諸行中	-11.1732
行處	-11.1732
永不生	-11.1734
漸悟	-11.1735
不肯	-11.1736
聖行	-11.1738
幻化	-11.1739
威	-11.1739
利他行	-11.1741
除之	-11.1743
此七	-11.1744
不愛	-11.1747
有其二種	-11.175
彼由	-11.1751
引後	-11.1754
貪分	-11.1757
二障種子	-11.1759
如汝	-11.1762
苦無常等	-11.1763
不屬	-11.1765
答意	-11.1765
見他	-11.1766
不相違也	-11.1769
可熏	-11.177
若無此	-11.1771
不顯現	-11.1783
即依此	-11.1783
貪恚	-11.1784
名見	-11.1784
不善根	-11.1786
種識	-11.1786
是業	-11.1788
理應	-11.1791
慶	-11.1794
對法論說	-11.1796
轉依位	-11.1797
鬘	-11.1799
翻前	-11.18
愁	-11.1801
徹	-11.1802
再	-11.1803
成唯識說	-11.1804
義意	-11.1804
刺	-11.1806
刀杖	-11.1807
能住	-11.1809
八苦	-11.1811
即是此中	-11.1814
可斷	-11.1816
善淨	-11.1817
但能	-11.1817
大意	-11.1823
不惱	-11.1827
智品	-11.1827
前人	-11.1827
境智	-11.1828
不定四	-11.183
答以	-11.1831
斷道	-11.1832
色性	-11.1839
十地論	-11.184
從本	-11.1844
入此定	-11.1846
何相	-11.1852
勤修習	-11.1859
初心	-11.1861
名異	-11.1861
我無	-11.1861
者據	-11.1862
無漏慧	-11.1863
歡	-11.1865
謂緣	-11.1867
應作四句	-11.1874
於色界	-11.1874
自餘	-11.1879
謂隨	-11.1881
壞滅	-11.1882
中收	-11.1887
此量	-11.1888
法上	-11.189
亦有三	-11.1893
未永斷	-11.1893
總立	-11.1894
祖	-11.1896
滋潤	-11.1896
宗法	-11.19
虫	-11.19
靈	-11.1903
見慢	-11.1904
餘煩惱	-11.1905
七分別	-11.1905
他界	-11.1907
在家出家	-11.1912
勤精進	-11.1912
正語	-11.1915
受蘊	-11.192
體上	-11.1921
福行	-11.1922
二列	-11.193
無明愛取	-11.1935
迷四諦	-11.1935
如前釋	-11.1938
無畏施	-11.1938
二答分三	-11.1938
樹下	-11.1941
即由此	-11.1942
遂求	-11.1943
七轉識	-11.1945
受之	-11.1948
化佛	-11.1949
上忍	-11.1951
別境中	-11.1952
惜	-11.1952
三十八	-11.1952
或總	-11.1954
之惑	-11.1955
若異	-11.1959
若大乘	-11.1959
前釋	-11.196
無垢識	-11.1962
斷善	-11.1967
差別建立	-11.1967
合釋	-11.1968
變故	-11.1969
外種	-11.1971
戒中	-11.1972
諸有情所	-11.1975
親屬	-11.1978
聖位	-11.1978
對法說	-11.1982
次第者	-11.1982
喜樂捨	-11.1984
第七地	-11.1987
隨境	-11.1987
觀時	-11.1988
於人	-11.1991
得戒	-11.1993
由其	-11.1994
增上生	-11.1994
為自內我	-11.1994
得成佛	-11.1997
無所畏	-11.1998
剋	-11.1999
研	-11.2001
憂俱	-11.2002
托	-11.2003
何勞	-11.2004
如攝論	-11.2005
色聲香味觸	-11.2008
事差別	-11.2011
疾病	-11.2012
修道所斷	-11.2013
意生身	-11.2015
此亦不爾	-11.2016
亦尒	-11.2018
無漏善	-11.2019
身器	-11.2024
俱生分別	-11.2025
異說	-11.2025
八依	-11.203
次以	-11.2031
心心所等	-11.2032
二乘等	-11.2033
又為	-11.2033
者解云	-11.2034
自相共相	-11.2034
二體	-11.2035
有一類	-11.2036
此無明	-11.2037
邪定	-11.2038
為當	-11.204
先以	-11.204
印順	-11.204
欣厭	-11.2042
不應說	-11.2042
通局	-11.2043
何別答	-11.2044
聲明	-11.205
若對	-11.2053
二問	-11.2053
餘可知	-11.2055
於事	-11.2058
觀見	-11.2061
名句	-11.2063
體既	-11.2064
有根	-11.2064
分為三	-11.2068
起言說	-11.2071
老死支	-11.2072
此疏文	-11.2074
帶質	-11.2077
如來所說	-11.208
無厭	-11.2081
暴	-11.2081
以立	-11.2082
薩婆多師	-11.2082
是空	-11.2083
相緣	-11.2084
▁初釋	-11.2085
余	-11.2085
扶根塵	-11.2087
色塵	-11.2087
旋	-11.209
覆藏	-11.2091
多諸	-11.2091
中之	-11.2092
依色根	-11.2092
生上界	-11.2092
是所熏	-11.2093
一闡提	-11.2093
救言	-11.2094
於十方	-11.2096
諸經論	-11.2096
摩訶	-11.2096
就前	-11.2097
俱生俱滅	-11.2097
猗	-11.2098
地大	-11.2098
色像	-11.2099
進趣	-11.2101
佛言	-11.2103
作是思惟	-11.2103
為增上	-11.2105
剎	-11.2106
四句分別	-11.211
辨體	-11.2112
不如理作意	-11.2118
開為	-11.2118
論復次至	-11.212
無漏位	-11.212
得緣	-11.2122
喜捨	-11.2122
慼	-11.2122
隨根	-11.2122
始起	-11.2124
三和合	-11.2125
此應	-11.2126
佛教	-11.2126
龍樹	-11.2127
第六明	-11.2129
具攝	-11.2132
歸敬	-11.2138
第二云	-11.2139
天住	-11.214
無過失	-11.214
勝果	-11.214
無識	-11.2141
真法界	-11.2145
易可	-11.2152
無漏現行	-11.2155
就彼	-11.2157
善住	-11.2157
次起	-11.2159
性空	-11.216
後邊	-11.2162
識所緣	-11.2163
佛為	-11.2166
五識相應	-11.2172
次前	-11.2172
初中後	-11.2173
學等	-11.2175
諸纏	-11.2176
是名第二	-11.2178
不曾	-11.218
菩薩如是	-11.2181
但與	-11.2183
定俱	-11.2184
行相所緣	-11.2188
有漏業	-11.2189
問幾	-11.219
侍	-11.219
據此	-11.2191
彼因	-11.2191
隱密	-11.2192
餘時	-11.2194
勝解作意	-11.2195
毘柰耶	-11.2196
不相續	-11.2198
受身	-11.2198
由五相	-11.2199
謂離	-11.22
慧為性	-11.2207
異不異	-11.221
知量	-11.2214
除去	-11.2215
淨居	-11.2216
證滅	-11.2216
無相行	-11.2217
所滅	-11.2217
盡無生智	-11.2218
有行	-11.2223
外有	-11.2226
空門	-11.2226
無常想	-11.2227
已離欲	-11.2227
純苦	-11.2228
成壞	-11.2229
不增減	-11.223
計常	-11.2231
先破	-11.2232
十二種	-11.2232
初中有二一	-11.2233
下三無色	-11.2233
因體	-11.2233
所生故	-11.2234
得無上菩提	-11.2235
何故此中	-11.2236
無文	-11.2238
蓮華	-11.2241
苦俱	-11.2245
中上	-11.2254
領解	-11.2255
行於	-11.2255
若如是者	-11.226
所詮義	-11.2261
亦在	-11.2264
大般若	-11.2267
觀四諦	-11.2268
惡戒	-11.2268
初地中	-11.227
七門	-11.2278
離相	-11.2281
處轉	-11.2282
十障	-11.2282
獸	-11.2283
微薄	-11.2285
八萬四千	-11.2288
見道位	-11.2289
異生位	-11.2289
一切法皆	-11.2289
法教	-11.2289
廣百論	-11.229
脚	-11.2291
於大乘	-11.2291
同地	-11.2291
彌勒菩薩說三藏法師玄奘奉詔譯	-11.2291
祇	-11.2292
欲行	-11.2292
今破	-11.2292
辯才	-11.2293
加行位中	-11.2296
稽首	-11.2297
得失	-11.2298
威儀路	-11.23
斯陀	-11.2302
得無漏	-11.2302
通明	-11.2306
滅法	-11.2306
不虛	-11.2309
相起	-11.231
佛告	-11.2311
論當知	-11.2311
無所依	-11.2312
時中	-11.2314
釋難	-11.2314
轉根	-11.2315
勝法	-11.2315
於三世	-11.2315
通有漏	-11.2316
聖果	-11.2317
犯重	-11.2318
本計	-11.2318
隨情	-11.232
淨相	-11.232
非於	-11.2323
今且	-11.2323
一剎那中	-11.2324
金銀	-11.2326
親迷	-11.2326
億	-11.2328
唯量	-11.2328
為離	-11.233
但明	-11.2333
如斯	-11.2336
縱許	-11.2336
亦立	-11.2336
此由	-11.2337
佛子	-11.2338
在見道	-11.2339
青色	-11.2343
而取	-11.2345
先斷	-11.2346
文中有三	-11.2347
即除	-11.2349
生惡趣	-11.235
唯意識	-11.2353
能轉	-11.2353
有心無心	-11.2353
四別釋	-11.2354
中有二初	-11.2355
護持	-11.2355
漸增	-11.2359
作功用	-11.236
能發起	-11.2362
應以	-11.2363
能緣見分	-11.2365
現證	-11.2366
名稱	-11.2366
令知	-11.2371
乃至非想	-11.2371
皆與	-11.2373
本願	-11.2375
正障	-11.2376
立理	-11.2379
我應	-11.238
尊者	-11.238
若我	-11.238
四正斷	-11.2381
應可	-11.2381
善法欲	-11.2382
說法者	-11.2384
正知而住	-11.2384
非諸	-11.2387
大門	-11.2388
發言	-11.239
謂三界	-11.2391
正體智	-11.2391
艱難	-11.2391
毗鉢舍那	-11.2392
諸事	-11.2393
決定心	-11.2394
遊戲	-11.2395
七法	-11.2397
阿黎耶識	-11.2398
中又二	-11.2399
不一不異	-11.24
同事因	-11.2403
可通	-11.2404
畫	-11.2412
心外法	-11.2412
受熏持種	-11.2413
斷所知	-11.2415
此結	-11.242
第四禪中	-11.2421
資粮位	-11.2425
受想等	-11.2425
不退菩薩	-11.2425
或多	-11.2425
為樂	-11.2427
有上	-11.2428
諸法自性	-11.2429
阿賴耶名	-11.243
可然	-11.2431
入出	-11.2433
論主答	-11.2435
地上菩薩	-11.2435
相用故	-11.2436
空相	-11.2438
是依他	-11.2438
四生	-11.2441
如前已	-11.2444
究竟道	-11.2448
不足	-11.2456
及佛	-11.2459
俱依	-11.246
於一切處	-11.2461
離縛	-11.2461
總略	-11.2464
有情界	-11.2467
十二支中	-11.2468
在後	-11.2469
作具	-11.247
外道計	-11.247
觀色	-11.2471
自能	-11.2473
起欲	-11.2473
是能熏	-11.2473
共住	-11.2475
略不說	-11.2477
十二緣	-11.2486
相違過	-11.2486
上流	-11.2487
露	-11.2488
此偈顯示	-11.2491
非色非心	-11.2494
謂阿羅漢	-11.2496
顯揚云	-11.2496
略為	-11.2498
旬	-11.2499
故所以	-11.25
五俱意識	-11.25
景師	-11.2502
是宗	-11.2502
四見	-11.2503
皆盡	-11.2507
於一時	-11.2508
少欲	-11.2509
為他說	-11.2509
大德	-11.2514
風輪	-11.2516
習種	-11.2522
無復	-11.2523
計執	-11.2527
如來住	-11.2528
有退	-11.2529
世第一	-11.253
內色	-11.2531
不雜	-11.2532
正思	-11.2534
知者	-11.2534
曾得	-11.2536
非遍	-11.2537
牽引生起	-11.2538
皆不離	-11.2542
餘八	-11.2544
所行境界	-11.2548
苦集諦	-11.255
之相分	-11.2551
六十三	-11.2552
亦無違	-11.2555
五度	-11.2555
五法中	-11.2557
第八緣	-11.2558
於當來世	-11.2563
唯不善	-11.2567
觀此	-11.2572
境界受	-11.2574
非煩惱	-11.2574
無自性性	-11.2576
障定	-11.2577
廣慧	-11.2577
正方便	-11.2578
有九品	-11.2579
無我理	-11.2581
定知	-11.2582
所厭	-11.2583
一辯	-11.2584
或說為	-11.2584
或見	-11.2587
三際	-11.2591
非遍行	-11.2591
疎緣	-11.2594
必應	-11.2594
村	-11.2594
辛	-11.2595
譏	-11.2597
思食	-11.2597
喜根	-11.2598
墜	-11.2598
摧伏	-11.2601
識無邊處	-11.2601
保	-11.2602
解脫果	-11.2603
以釋	-11.2607
順生	-11.2607
三界唯心	-11.2608
一切境	-11.2608
破僧	-11.2608
阿耨菩提	-11.2608
不同小乘	-11.2609
七十	-11.261
如虗空	-11.261
等字	-11.2611
從無始	-11.2612
勝軍	-11.2613
次依	-11.2616
慧根	-11.2619
菩提資糧	-11.262
之門	-11.262
謂一切法	-11.2622
品麁重	-11.2625
相隨	-11.2626
意識相應	-11.2626
忍者	-11.2626
於過去	-11.2626
無染淨	-11.2634
不恒	-11.2635
行法	-11.2637
緣智	-11.2639
損壞	-11.2641
還起	-11.2644
文有三	-11.2645
演曰九	-11.2645
即令	-11.2648
違逆	-11.265
初中有三	-11.265
略不	-11.2653
苦依	-11.2658
為成	-11.2661
曾受	-11.2662
入過去	-11.2662
不退轉	-11.2663
亦有二種	-11.2663
初略	-11.2666
以別	-11.2666
簡之	-11.2667
實我實法	-11.2669
不放逸者	-11.267
所託	-11.2672
相傳	-11.2673
約對	-11.2675
我已	-11.2676
非主	-11.2677
無作用	-11.2678
所生之	-11.2679
彼心	-11.2681
意俱	-11.2683
極善	-11.2684
死者	-11.2685
煩惱雜染	-11.2686
遲	-11.2687
非食	-11.2689
不可意	-11.269
盖	-11.2691
此時	-11.2694
善方便	-11.2697
當地	-11.2699
緣實	-11.2699
常等	-11.2699
拒	-11.2699
熾盛	-11.27
三辯	-11.2702
會云	-11.2703
色陰	-11.2705
寬故	-11.2705
螺	-11.2705
飛	-11.2705
青黃赤白	-11.2706
真如性	-11.2707
資養	-11.2709
軌持	-11.2709
則知	-11.271
不墮	-11.2712
或在	-11.2714
即於如是	-11.2716
天魔	-11.2717
文中分二一釋	-11.2718
德業	-11.2719
慢疑	-11.2721
次第緣	-11.2722
亦應有	-11.2722
轉勝	-11.2722
此簡	-11.2724
引故	-11.2725
四定	-11.2727
釋頌意	-11.273
遍計所執性	-11.273
本地分	-11.2731
無質礙	-11.2732
慧俱	-11.2735
能攝受	-11.2738
後總結	-11.2739
作此解	-11.2744
正修	-11.2745
而現	-11.2746
分十一	-11.2746
此第二解	-11.2747
之曰	-11.275
後隨別釋	-11.2752
並起	-11.2754
恩德	-11.2756
問如何	-11.2757
位別	-11.2764
為緣故	-11.2765
何地	-11.2767
無明行	-11.2768
或作	-11.2771
無執受	-11.2772
具縛	-11.2773
文分為三	-11.2775
類同	-11.2776
但遮	-11.2777
相合	-11.2778
等者意云	-11.2779
得擇滅	-11.2783
意在	-11.2783
不善無記	-11.2784
資財	-11.2784
断	-11.2786
通善惡	-11.2786
於後時	-11.2787
若爾如何	-11.2789
不能得	-11.279
色種	-11.2791
第二依	-11.2793
不動地	-11.2794
篇	-11.2797
六十四	-11.2798
以去	-11.2803
眾相	-11.2805
彈	-11.2806
舒	-11.2806
讀誦	-11.2807
即識	-11.2808
淳	-11.281
優劣	-11.281
據實而言	-11.2812
唯識論云	-11.2813
猛赤	-11.2814
無缺	-11.2815
有財	-11.2817
五十三	-11.2818
聲聞辟支佛	-11.2819
若依毘曇	-11.282
我能	-11.2823
發身語	-11.2823
是名下結	-11.2823
轉輪王	-11.2827
故涅槃云	-11.2829
五八	-11.2829
顯現故	-11.283
取之	-11.283
執彼	-11.2831
三千	-11.2831
為道	-11.2833
初牒	-11.2834
相增	-11.2836
此就	-11.2837
及無漏	-11.2837
明唯識	-11.2839
四念處	-11.2841
識不離身	-11.2841
極清淨	-11.2841
不正思惟	-11.2852
皆云	-11.2853
邪分別	-11.2855
得增長	-11.2858
於所觀境	-11.2862
合明	-11.2865
警	-11.2865
便是	-11.2865
天親菩薩	-11.2869
不能知	-11.2872
涅槃界	-11.2872
染不染	-11.2874
無學果	-11.2876
諸有學	-11.2877
隨眠故	-11.2877
假建立	-11.2877
為第二	-11.2878
七十三	-11.2878
自見	-11.2878
果報識	-11.2882
初句牒	-11.2882
能施	-11.2884
八聖道	-11.2885
現量得	-11.2888
合響宗鏡	-11.2891
具足中	-11.2898
離障	-11.2899
已成	-11.29
□□□□	-11.29
法忍	-11.2902
能徧計	-11.2902
俱解脫	-11.2903
依他起相	-11.2906
眾色	-11.2906
能忍	-11.2907
前約	-11.2908
修正行	-11.2909
隨生	-11.2909
伏煩惱	-11.2909
童	-11.2911
不可記	-11.2911
統	-11.2913
眼根等	-11.2914
緣力	-11.2916
無比	-11.2917
或無	-11.2918
敬禮	-11.2918
九明	-11.292
以解	-11.292
同世	-11.2922
若定	-11.2923
有種種	-11.2924
是依他起	-11.2924
隨業	-11.2924
憤發	-11.2924
智度論	-11.2926
影像相	-11.2927
觀品	-11.2928
智自在	-11.2931
若第六識	-11.2936
五心所	-11.2937
滅已	-11.2939
滅除	-11.2939
顯揚第一	-11.294
二廣答分二	-11.2943
善修習	-11.2943
執我法	-11.2944
斯乃	-11.2946
亦應無	-11.2947
子微	-11.2947
邪欲	-11.2949
寂止	-11.2949
一段	-11.2949
意思	-11.2957
牒釋	-11.2958
第二禪	-11.2958
便應	-11.2959
瑜伽處	-11.2959
能壞	-11.2961
違宗	-11.2962
三障	-11.2965
即以此	-11.2967
影像相分	-11.2967
唯善性	-11.2968
演曰二別	-11.2968
在前	-11.297
誓願	-11.297
容俱	-11.2971
然而	-11.2973
非聖	-11.2973
破斥	-11.2974
不忘失	-11.2975
其量	-11.2975
順世	-11.2979
巳成	-11.2982
阿梨耶	-11.2987
假說為	-11.299
第五解	-11.2992
初中有二先	-11.2992
男根	-11.2999
今釋	-11.3
身邊	-11.3001
二別釋分二	-11.3004
何意	-11.3007
一切苦	-11.3009
總觀	-11.3011
謂眼	-11.3011
8	-11.3012
蕩	-11.3013
自體分	-11.3014
蘊處界等	-11.3016
隨說	-11.3017
無用故	-11.3019
稠林	-11.302
涉	-11.302
迫	-11.302
葢	-11.302
饒益有情戒	-11.3021
如世尊言	-11.3021
優婆塞	-11.3022
所慮	-11.3023
鬪諍	-11.3024
步	-11.3024
癈	-11.3024
感生	-11.3025
危	-11.3027
呵責	-11.3028
第十五	-11.3029
斫	-11.3033
▁論	-11.3035
怨害	-11.3037
麁色	-11.3037
無有是處	-11.3038
變化心	-11.3038
初能變	-11.3038
乃至有頂	-11.3039
論中說	-11.3039
於中有	-11.304
現相	-11.304
由此應知	-11.3042
諸行無常	-11.3043
訓釋	-11.3043
作是言	-11.3043
中夭	-11.3043
帝	-11.3044
退轉	-11.3045
能作因	-11.3045
動搖	-11.3046
故但說	-11.3047
證二空	-11.3047
於果	-11.3048
自利行	-11.3049
卷第十	-11.305
有十八	-11.3052
由有此	-11.3054
外凡	-11.3056
如常	-11.3059
判屬	-11.306
唯斷	-11.3062
斷疑	-11.3062
用別	-11.3063
名異熟生	-11.3065
境中	-11.3065
厭背	-11.3068
如小乘	-11.3069
為別	-11.3072
教化眾生	-11.3074
即在	-11.3077
三於	-11.3077
憶持	-11.3083
他利	-11.3084
不久	-11.3086
空無邊處	-11.3089
謝滅	-11.309
是俱生	-11.3091
非必	-11.3094
不念	-11.3094
七眾	-11.3096
行住	-11.3097
時時	-11.3098
具分	-11.3098
於有情	-11.3102
知諸法	-11.3103
違越	-11.3106
准上	-11.3108
凝	-11.311
內緣	-11.3111
別法	-11.3113
不得言	-11.3114
優	-11.3116
此物	-11.312
披	-11.3127
唯攝	-11.3128
由五種相	-11.3128
待眾緣	-11.3128
有堪能	-11.3129
屋	-11.3129
相名分別	-11.3129
塔	-11.313
二斷	-11.3131
二無心定	-11.3131
枝	-11.3135
孔	-11.3135
常恒	-11.3136
若汝	-11.3138
大乘教	-11.3141
隱沒	-11.3141
不堅	-11.3143
四字	-11.3144
我所見	-11.3145
無性釋云	-11.3147
先無	-11.3148
曾有	-11.3152
何因緣	-11.3154
名取	-11.3159
則此	-11.316
第十六心	-11.316
命終時	-11.3162
於何	-11.3162
重解	-11.3163
三性中	-11.3165
能永斷	-11.3169
都無所有	-11.317
其果	-11.3171
無數	-11.3176
亦同此	-11.3177
貌	-11.3178
法住智	-11.3178
普於一切	-11.3179
為生因	-11.3182
徧染心	-11.3183
皆滅	-11.3183
未捨	-11.3186
梵音	-11.3186
非緣	-11.3187
攝大乘論釋	-11.3188
五所	-11.3191
貪瞋等	-11.3191
名色等	-11.3197
中邊論	-11.3201
報佛	-11.3202
緣未來	-11.3203
謂即於彼	-11.3204
非所熏	-11.3205
起貪	-11.3207
見道時	-11.3211
唯染	-11.3214
五六	-11.3219
諸苾芻	-11.3219
無間生	-11.322
所不能	-11.322
餘因	-11.3222
頓生	-11.3223
隨護	-11.3225
加行心	-11.3225
成大	-11.3226
經所說	-11.3227
所依處故	-11.3229
痛	-11.3235
善道	-11.3237
名隨煩惱	-11.3238
給	-11.324
餘趣	-11.324
何等為三	-11.3242
命終心	-11.3244
祠祀	-11.3244
泯	-11.3244
色名	-11.3249
履	-11.325
餘生	-11.3251
亦生	-11.3252
貪等煩惱	-11.3253
今世	-11.3254
巳知根	-11.3255
圓成實攝	-11.3258
被他	-11.326
力用	-11.3264
此師意說	-11.3266
就實	-11.3267
似義	-11.327
隨欲	-11.3271
五乘	-11.3272
後當	-11.3274
不熏	-11.3275
即第八	-11.3278
品惑	-11.3281
所應作	-11.3288
最勝故	-11.329
過現	-11.329
約就	-11.329
空智	-11.3291
遍計所執相	-11.3291
具四義	-11.3293
破小乘	-11.3293
作佛	-11.3296
喻中	-11.3298
文分三段	-11.33
彼許	-11.3301
第四卷	-11.3302
制多	-11.3303
七覺支	-11.3307
是名第三	-11.3308
彼由如是	-11.3308
作善	-11.3308
為第三	-11.331
空空	-11.3311
御	-11.3311
煩惱隨煩惱	-11.3312
修加行	-11.3312
因緣依	-11.3313
要期	-11.3313
前加行	-11.3314
淨不淨業	-11.3315
盡處	-11.3318
文勢	-11.3322
餘支	-11.3323
不達	-11.3325
自內	-11.3326
十因中	-11.3326
將欲	-11.3327
平等性	-11.3333
是名略說	-11.3339
自性涅槃	-11.3341
大果	-11.3341
八地巳去	-11.3343
於一切種	-11.3346
戒定慧	-11.3346
相應縛	-11.3347
稱量	-11.3347
今當顯示	-11.335
懺	-11.335
軌範	-11.3351
俱生我執	-11.3354
推尋	-11.3355
純熟	-11.3356
或有或無	-11.3356
得住	-11.3357
流注	-11.3358
證成道理	-11.3359
通二性	-11.3361
一時頓斷	-11.3361
略有六種	-11.3362
事識	-11.3364
門義	-11.3364
此若無者	-11.3365
種子名	-11.3365
轉得	-11.3369
為我所	-11.3372
此十煩惱	-11.3373
初依	-11.3375
文分為二初明	-11.3375
大同	-11.3379
符	-11.3379
等引地	-11.338
無餘依涅槃界	-11.3384
一切異生	-11.3388
可得故	-11.3388
所顯真如	-11.3389
色非色	-11.3391
彼論云	-11.3392
至教	-11.3393
能斷煩惱	-11.3394
我亦	-11.3395
圓鏡	-11.3397
道諦攝	-11.3399
百一十	-11.3406
空義	-11.3409
水月	-11.341
有餘涅槃	-11.341
無有我	-11.3411
行修	-11.3413
煖等	-11.3416
外門	-11.3419
若於此	-11.3419
八十九	-11.342
令我	-11.3421
屬於	-11.3422
宿作	-11.3422
自界	-11.3426
自共相	-11.343
定自在	-11.3438
厭惡	-11.344
意言分別	-11.3441
法自相相違	-11.3442
此土	-11.3443
何故名	-11.3443
定境	-11.3445
雜染故	-11.3445
無退轉	-11.3449
決斷	-11.3449
緣前	-11.3449
若從	-11.3449
從種生	-11.345
晝	-11.3453
即違	-11.3454
負	-11.3456
輩	-11.3459
具三義	-11.346
看	-11.3462
是時	-11.3464
重觀	-11.3464
善事	-11.3464
以離	-11.3466
得修	-11.3466
五分	-11.3466
非直	-11.3467
如我	-11.3467
是因義	-11.3468
親友	-11.3468
有為無漏	-11.3469
鏡像	-11.347
無住處涅槃	-11.3471
瑜伽論云	-11.3472
於大乘中	-11.3474
增上戒學	-11.3474
同喻如	-11.3474
有學無學	-11.3475
於三界	-11.348
無病	-11.3481
身口意業	-11.3481
三千界	-11.3484
寒熱	-11.3485
伽陀	-11.3486
之慧	-11.3486
即因	-11.3486
瑜伽第十	-11.3486
文分三段一	-11.3487
緣種	-11.3493
從多	-11.3493
斷之	-11.3496
衣食	-11.3496
界差別	-11.3496
初四	-11.3497
無種姓	-11.3497
云何建立	-11.3498
不應理故	-11.3507
能生現行	-11.3508
諸心心法	-11.3515
起慢	-11.3516
彼雖	-11.3516
皆不離識	-11.3518
次二句	-11.3519
智境	-11.3524
有所緣	-11.3525
相續中	-11.353
文復	-11.3532
能潤	-11.3534
非由	-11.3535
遍行五	-11.3535
唯修所斷	-11.3537
何時	-11.3538
值	-11.3539
有四義	-11.3539
聞已	-11.3539
若時	-11.354
惑業苦	-11.3541
願求	-11.3543
應知此中	-11.3545
皆約	-11.3546
但得	-11.3548
本智	-11.3554
不相離故	-11.3556
滅定等	-11.3556
汝今	-11.3558
修對治	-11.3559
自己	-11.3562
義類	-11.3566
第四果	-11.3567
立支	-11.3568
難意云	-11.357
死屍	-11.3571
素	-11.3574
挾帶	-11.3574
奇	-11.3574
果性	-11.3576
麟角	-11.3577
一果	-11.3579
省	-11.358
顏	-11.3583
競	-11.3583
諸境	-11.3584
即於此中	-11.3585
業雜染	-11.3587
演曰二彰	-11.3588
修梵行	-11.3589
覆障	-11.359
日輪	-11.359
緣過未	-11.3592
且舉	-11.3592
初性	-11.3595
惡人	-11.3595
未轉依位	-11.3596
貪心	-11.3596
拘礙	-11.3598
無異熟	-11.3599
到究竟	-11.3599
此復云何	-11.3599
依圓	-11.36
亦不可	-11.3601
得初果	-11.3602
得非擇滅	-11.3603
自力	-11.3604
起盡	-11.3604
泰師	-11.3605
假智	-11.3607
諸位	-11.3608
淨行	-11.361
彼論說	-11.3611
聽者	-11.3611
文分為二一明	-11.3614
種子成就	-11.3625
若入	-11.3627
雖異	-11.3627
拔苦	-11.363
客塵	-11.3631
相識	-11.3632
說諸法	-11.3632
淨品	-11.3635
超過一切	-11.3636
逐難	-11.3637
二藏	-11.3637
第二門	-11.3638
學道	-11.3643
無慚愧	-11.3643
十三種	-11.3647
繫念	-11.3653
此亦應爾	-11.3654
名外	-11.3655
諦實	-11.3656
煩惱隨眠	-11.366
破前	-11.3665
無數劫	-11.3665
求涅槃	-11.3666
增廣	-11.3666
無漏後得智	-11.3668
五別境	-11.367
百四十	-11.3671
退分	-11.3673
所入	-11.3675
章云	-11.3676
空識	-11.3679
入見	-11.3682
第一云	-11.3682
初中有三一	-11.3683
所觀境	-11.3683
之聲	-11.3684
右	-11.3685
無色界繫	-11.3686
初中分二一	-11.3687
分別變	-11.3687
朽	-11.3687
諸漏永盡	-11.3689
宰	-11.369
總解	-11.3692
範	-11.3692
惣結之	-11.3692
我語取	-11.3694
截	-11.3694
破執	-11.3694
闡	-11.3695
猶預	-11.3695
攝屬	-11.3695
床	-11.3695
阿毘曇	-11.3695
充滿	-11.3696
八地以上	-11.3697
隨轉理門	-11.3697
點	-11.3698
嫌	-11.3699
最為殊勝	-11.3699
三千大千世界	-11.3701
利有情	-11.3701
是誰	-11.3702
六相	-11.3702
在現在	-11.3703
施波羅蜜多	-11.3706
得相應	-11.3711
泰	-11.3712
迷於	-11.3713
自稱	-11.3714
真空	-11.3717
各有三	-11.3718
能以	-11.372
今論	-11.3722
無塵	-11.3723
但據	-11.3726
聖住	-11.3727
本母	-11.3733
雖通	-11.3733
正信	-11.3733
善惡等	-11.3734
無漏觀	-11.374
不護	-11.374
隨覺	-11.3741
何以故以	-11.3741
不動無為	-11.3741
獄卒	-11.3748
佛法身	-11.3749
體事	-11.3749
可許	-11.375
好惡	-11.3751
第一釋名	-11.3754
煩惱種	-11.3755
彼對治	-11.3759
所辨	-11.376
兩釋	-11.3765
有二十四	-11.3765
由加行	-11.3767
遍行別境	-11.3774
初言	-11.3775
不共法	-11.3779
口業	-11.3779
經典	-11.3781
而入	-11.3784
無質	-11.3786
繫心	-11.3787
名一切種	-11.3789
共依	-11.3792
從因生	-11.3792
有前後	-11.3793
執實	-11.3796
有分別故	-11.3797
如火	-11.3798
無熏習	-11.3799
不續	-11.3799
諫	-11.3799
戀	-11.3803
飽	-11.3804
調暢	-11.3804
灌	-11.3805
根依處	-11.381
惛沈睡眠	-11.381
五十一心所	-11.3811
有十六	-11.3814
沈沒	-11.3814
勝能	-11.3815
尺	-11.3815
心與心所	-11.3816
薄塵	-11.3817
餘十	-11.3817
十一根	-11.3818
當起	-11.3821
憂受	-11.3822
即是前	-11.3822
大慧	-11.3823
色香味觸	-11.3826
苦集滅道	-11.3828
中初一	-11.3828
念定慧	-11.3828
果俱有	-11.383
遍計所起	-11.3833
轉增	-11.3834
今觀	-11.3834
義不同	-11.3837
餘根	-11.3839
調善	-11.384
頓起	-11.3841
想蘊	-11.3842
先觀	-11.3842
所能	-11.3843
為所緣境	-11.3847
而巳	-11.3847
雖斷	-11.3849
由此下	-11.3852
本淨	-11.3852
文中分	-11.3853
共中不共	-11.3854
諸佛法身	-11.3854
總說為	-11.3854
帶相	-11.3856
例同	-11.3859
染淨心	-11.3859
如世尊說	-11.3863
有兩釋	-11.3865
天趣	-11.3865
入大乘	-11.3865
處時	-11.3866
兩種	-11.3867
聞持	-11.3868
有覆性	-11.387
通三乘	-11.3871
亦不應	-11.3872
極喜	-11.3873
能證得	-11.388
無本質	-11.3881
一觀	-11.3881
所屬	-11.3882
名無分別	-11.3882
外道等	-11.3882
四神足	-11.3883
動轉	-11.3884
頓漸	-11.3886
大性	-11.3886
俗智	-11.3887
二念	-11.3889
二惑	-11.3889
修道位	-11.3896
與佛	-11.3897
心所等	-11.39
除佛	-11.3902
重障	-11.3903
願智	-11.3903
五受相應	-11.3904
思現觀	-11.3905
本地分中	-11.3907
一念中	-11.3908
一標經句	-11.391
大種所造	-11.3912
唯是有漏	-11.3915
是名第一	-11.3915
自在力	-11.3916
不恒行	-11.3916
吾	-11.3917
里	-11.392
標釋	-11.392
烏	-11.3922
充	-11.3922
如似	-11.3922
麻	-11.3922
三摩鉢底	-11.3922
有非有	-11.3922
忍位	-11.3923
休息	-11.3924
退墮	-11.3924
大文	-11.3926
西國	-11.3929
藤	-11.3929
非全	-11.3929
實我法	-11.393
張	-11.3931
佛地經	-11.3932
本無今有	-11.3933
名句等	-11.3933
語聲	-11.3933
或此	-11.3934
第八卷	-11.3935
所伏	-11.3938
珍寶	-11.3941
審慮	-11.3941
次三	-11.3942
流散	-11.3942
第三第四	-11.3947
待緣	-11.3948
為最勝	-11.3948
五根五塵	-11.3949
雜修	-11.395
或分為二	-11.3952
非徧行	-11.3954
用彼	-11.3955
四無礙	-11.3956
各有二	-11.3957
略有二	-11.3964
或彼	-11.3964
隣次	-11.3964
能斷道	-11.3967
三徵	-11.397
據勝	-11.397
為同喻	-11.3974
往惡趣	-11.3976
染污法	-11.398
分位建立	-11.3981
內處	-11.3982
所居	-11.3983
所問	-11.3985
劣無漏	-11.3986
議	-11.3986
如前廣說	-11.3988
獄卒等	-11.3989
不了義經	-11.3989
無漏有為	-11.3991
隨轉門	-11.3991
彼界	-11.3996
安樂住	-11.3999
穴	-11.4003
無恚	-11.4004
異品	-11.4004
略無	-11.4004
本文	-11.4005
若使	-11.4009
先徵	-11.4012
十明	-11.4022
唯見所斷	-11.4024
邪正	-11.4024
是故當知	-11.4026
唯捨受	-11.4026
此境	-11.4027
違損	-11.4027
第五卷	-11.4029
語表	-11.4035
上二句	-11.4037
所安立	-11.4038
爛	-11.4041
違自宗	-11.4042
瞿	-11.4043
釋外難	-11.4043
漂	-11.4044
香味觸	-11.4044
皆共	-11.4046
波羅夷	-11.4046
第十卷	-11.4047
名義如是	-11.4048
今更	-11.405
無明緣行	-11.405
懈	-11.405
雖依	-11.4051
諸度	-11.4052
至教量	-11.4052
外道執	-11.4052
上之	-11.4053
求法	-11.4053
怨敵	-11.4053
異論	-11.4053
不無	-11.4054
不越	-11.4057
理通	-11.4057
似外境	-11.4058
非有故	-11.4066
第八見分	-11.4066
誑諂	-11.4068
從此無間	-11.4069
諸塵	-11.407
窮盡	-11.4072
知根	-11.4073
五識種	-11.4074
無心地	-11.4075
違背	-11.4077
斷三界	-11.408
所對	-11.4087
而實	-11.4088
未知根	-11.4088
諸比丘	-11.4089
故偏說之	-11.4089
差別功能	-11.4091
沈掉	-11.4095
而知	-11.4096
從初地	-11.4097
則不如是	-11.4099
初標列	-11.4102
俱不俱	-11.4102
苦滅	-11.4105
為上首	-11.4107
先舉	-11.4108
諸緣	-11.4109
起信論	-11.4114
對彼	-11.4116
翻對	-11.4126
無犯	-11.413
餘位	-11.4131
所受用	-11.4131
章中	-11.4133
而未能	-11.4133
種子現行	-11.4137
小乘宗	-11.4138
中般	-11.4139
諸愚夫	-11.4141
入無餘涅槃	-11.4142
起惑	-11.4145
世事	-11.4148
善慧	-11.415
更起	-11.4154
不但	-11.4154
諸善根	-11.4154
多劫	-11.4156
能遮	-11.4157
一切種子識	-11.4157
此偈明何義	-11.4158
無生法忍	-11.4159
貫穿	-11.416
幾根	-11.416
常相續	-11.4162
更有餘	-11.4162
翻為	-11.4163
維摩	-11.4163
居士	-11.4164
間起	-11.4164
若遇	-11.4164
俱句	-11.4166
三摩呬多地	-11.417
翻譯	-11.4171
云何名王	-11.4172
諸無為	-11.4172
識等五支	-11.4173
則不爾	-11.4173
是能緣	-11.4175
穢污	-11.4178
不生不滅	-11.4178
非一切時	-11.418
隨其次第	-11.4181
無量種	-11.4181
遊觀	-11.4185
成種	-11.4187
有何別	-11.419
皆緣	-11.4191
神通等	-11.4192
緣三界	-11.4196
小大	-11.42
是佛說	-11.4201
並皆	-11.4203
有尋有伺地	-11.4204
氣力	-11.4205
亦得說	-11.4207
若有眾生	-11.4207
第二能變	-11.4208
中說偈	-11.4209
能堪忍	-11.4211
依附	-11.4211
義如前說	-11.4212
彼於爾時	-11.4213
有增減	-11.4215
正等覺	-11.4216
大論第十	-11.4217
汝應	-11.4218
順樂受	-11.4219
萬行	-11.422
後別釋	-11.4222
者所謂	-11.4222
無常故	-11.4223
唐言	-11.4227
色等諸法	-11.4233
欲取	-11.4235
生空智	-11.4235
所覆	-11.4238
出體者	-11.4239
入唯識	-11.4239
欲界煩惱	-11.4244
無我性	-11.4247
名利	-11.4248
三心見道	-11.4251
邊無邊	-11.4252
隨何	-11.4254
分段生死	-11.4254
摽列	-11.4254
起用	-11.426
不同前	-11.4261
後更	-11.4261
論又諸菩薩至	-11.4262
種種界	-11.4262
未曾有	-11.4267
上心	-11.4267
諂曲	-11.4267
方處	-11.4268
名不成	-11.4268
四顛倒	-11.4268
違害	-11.4269
第三時	-11.4271
其境	-11.4272
我空	-11.4274
一分為體	-11.4275
瑜伽等說	-11.4276
師長	-11.4277
▁次明	-11.428
道共戒	-11.428
定學	-11.428
三蘊	-11.428
演曰二徵	-11.4281
流類	-11.4281
可樂	-11.4282
講	-11.4282
修成	-11.4282
循	-11.4283
榮	-11.4284
虧	-11.4285
依斯	-11.4286
依識所變	-11.4287
評	-11.4287
暢	-11.4287
竭	-11.4289
災橫	-11.4289
者不然	-11.4289
羸	-11.429
所依所緣	-11.429
娑	-11.429
八品	-11.4291
達師云	-11.4295
緣他心	-11.4295
豈得	-11.4296
外處	-11.4297
初正明	-11.4297
出入	-11.4299
義說為	-11.4306
麥等	-11.4309
依聲	-11.4312
於自身	-11.4314
亦變	-11.4315
下別釋	-11.4316
而不能	-11.4316
皆用	-11.4317
於內外	-11.4318
為建立	-11.4321
後身	-11.4324
亦不可說	-11.4325
化他	-11.4325
互為因	-11.4325
德句	-11.4326
濕生	-11.4326
此卷	-11.4326
已成熟	-11.4329
正發	-11.4334
界內	-11.4334
文中有二	-11.4337
亦有三種	-11.4338
問何因緣故	-11.4342
生起識	-11.4343
無形	-11.4343
五由	-11.4344
生無想天	-11.4347
滅心	-11.4347
內六處	-11.4347
離貪	-11.4349
復有五種	-11.4354
次引證	-11.4354
演曰二依	-11.4355
違經	-11.4356
寧知	-11.4356
亦不得成	-11.4361
意言境	-11.4368
三界繫	-11.4369
先敘	-11.4369
期願	-11.4371
十方世界	-11.4371
光明想	-11.4372
善護	-11.4372
有尋有伺	-11.4373
何位	-11.4377
自釋	-11.4378
不迷	-11.4386
惡因	-11.4387
若無下	-11.4387
大智論	-11.439
新生	-11.4391
變相	-11.4393
後約	-11.4393
逆次	-11.4394
漏俱	-11.4395
諸果	-11.4395
所防	-11.4398
意解	-11.4399
執為實	-11.4401
等四種	-11.4402
分八	-11.4402
持用	-11.4403
有體法	-11.4406
尤重	-11.4407
筆	-11.4408
柱	-11.4408
能令心	-11.441
補闕云	-11.4411
坑	-11.4413
卒爾	-11.4413
異見	-11.4413
正理師	-11.4414
他受用土	-11.4414
來求	-11.4418
精進三根	-11.4424
善戒經	-11.4425
胎生	-11.4425
迷謬	-11.4425
從無始來	-11.4428
集論說	-11.443
大士	-11.4431
經論中	-11.4433
見道煩惱	-11.4433
不應有故	-11.4434
思察	-11.4439
疏云此	-11.444
此位中	-11.4441
迴向菩提	-11.4441
信根	-11.4442
非空	-11.4443
復次頌曰	-11.4445
極喜地	-11.4446
十年	-11.4447
散位	-11.4448
新舊	-11.4448
八萬	-11.4448
欲色	-11.445
遊觀無漏	-11.445
此世	-11.4451
於一一	-11.4451
凡夫二乘	-11.4452
不淨等	-11.4453
岸	-11.4453
能動	-11.4454
身語二業	-11.4458
能得清淨	-11.4458
大梵	-11.4459
入無餘依	-11.4459
如幻事等	-11.4466
欲邪行	-11.4467
薩婆多宗	-11.4472
地法	-11.4478
攝因	-11.4479
三乘無學	-11.4482
無住處	-11.4482
又即此	-11.4487
如前解	-11.4487
真如體	-11.449
多羅	-11.4491
漸伏	-11.4495
親種	-11.4499
依教	-11.45
日光	-11.45
識生時	-11.4501
演曰五明	-11.4503
勵	-11.4506
非現量	-11.4506
無染污	-11.4506
捨相	-11.4509
心倒	-11.451
極淨	-11.4511
滅因	-11.4512
業報	-11.4513
所待	-11.4513
閒	-11.4514
四如實智	-11.4516
觸境	-11.4516
熏成種子	-11.4518
難思	-11.4519
因緣生	-11.4519
下乘	-11.4523
那洛迦	-11.4524
遊行	-11.4527
包	-11.4529
煗等	-11.453
以為喻	-11.453
奴	-11.4531
若於是處	-11.4533
纂	-11.4534
自所證	-11.4537
惛昧	-11.4537
梁	-11.4537
為門	-11.4537
豆	-11.4539
伏滅	-11.4541
勝義無自性性	-11.4541
次論	-11.4541
枯	-11.4542
還復	-11.4543
總為	-11.4543
快樂	-11.4543
此五種	-11.4543
性同	-11.4543
倣	-11.4544
菩薩種性	-11.4545
遍一切處	-11.4549
之本	-11.4549
如阿羅漢	-11.4549
不生斷	-11.4552
怨家	-11.4553
有何所以	-11.4555
異熟生心	-11.4557
得非得	-11.456
滿業	-11.4565
陀羅尼門	-11.4567
鼻識	-11.4572
善取	-11.4574
二顯果分二	-11.4576
我及我所	-11.4577
無明與	-11.4581
之樂	-11.4582
亦知	-11.4584
心相續	-11.4586
歡喜地	-11.4586
不犯者	-11.4592
故彼論云	-11.4596
六位心所	-11.4597
廣前	-11.4598
死有	-11.4599
能助	-11.4601
此二義	-11.4602
此中所說	-11.4602
一支	-11.4603
之餘	-11.4604
亂心	-11.4605
似塵	-11.4606
勸他	-11.4611
勸修	-11.4613
且第一	-11.4614
不敬	-11.4614
諸文	-11.4615
無性攝論	-11.4615
性種	-11.4619
極果	-11.462
第二解云	-11.4625
稱曰	-11.4628
不倒	-11.4632
非一向	-11.4633
修道位中	-11.4636
證實	-11.4636
為顯此	-11.4639
不決	-11.4646
世智	-11.4651
㸦	-11.4651
依識變	-11.4651
順違	-11.4652
具二義	-11.4652
所執性	-11.4653
不盡理	-11.4654
亦異	-11.4655
相濫	-11.4656
品云	-11.4658
流蕩	-11.4661
生疑	-11.4661
無厭倦	-11.4661
垂	-11.4662
傲	-11.4664
愛非愛果	-11.4664
溫	-11.4665
傾動	-11.4665
仁	-11.4666
六七二識	-11.4668
至處道	-11.4669
別有自性	-11.4669
五種相	-11.4669
演曰三辯	-11.4671
象馬	-11.4672
分六如論	-11.4673
斯陀含	-11.4673
依世俗	-11.4677
故唯識云	-11.4678
如是展轉	-11.4679
無染心	-11.4681
相順故	-11.4681
修慈	-11.4684
憂惱	-11.4684
前三果	-11.4685
無數大劫	-11.4686
若唯有識	-11.469
一切智智	-11.469
釋文	-11.469
所歸	-11.469
二月	-11.4694
自變	-11.4696
極略	-11.4699
能緣之心	-11.4701
應撿	-11.4702
天王	-11.4708
多念	-11.471
分出	-11.471
雖具	-11.4711
十義	-11.4712
而非是	-11.4712
觀外色	-11.4712
二種俱	-11.4715
婬欲	-11.4717
緣五塵	-11.4718
惣結	-11.472
圓證	-11.4723
理必	-11.4723
此初也謂	-11.4728
復有四	-11.4729
所解	-11.473
招感	-11.4732
卷說	-11.4732
句身	-11.4738
解行住	-11.474
逈	-11.4741
阿含經	-11.4742
恐彼	-11.4746
常遍	-11.475
正業	-11.4751
後有愛	-11.4752
通不善	-11.4755
略舉	-11.4757
息滅	-11.4761
大功德	-11.4762
能詮名	-11.4764
令眾生	-11.4765
趣涅槃	-11.4766
報心	-11.4768
忍智	-11.4768
後破	-11.4773
期心	-11.4774
不引	-11.4778
威勢	-11.4782
滋	-11.4784
緣諦	-11.4785
阿練若	-11.4785
哀	-11.4788
攝樂作意	-11.4789
如是名王	-11.479
咎	-11.4791
智為體	-11.4791
族姓	-11.4791
付	-11.4792
教行	-11.4792
叉	-11.4793
斥前	-11.4795
下忍	-11.4795
諸阿羅漢	-11.4796
文分為四一	-11.4798
軟語	-11.4798
此世他世樂	-11.4798
惑盡	-11.4798
心散亂	-11.4799
非一非異	-11.4799
但應	-11.48
害伴	-11.4802
安住其心	-11.4806
謂於一切	-11.4806
深推度	-11.4807
諸聖弟子	-11.4807
大王	-11.4808
所立不成	-11.4808
初禪中	-11.4808
壞時	-11.481
資益	-11.4811
妙理	-11.4812
怨親	-11.4814
修作	-11.4815
正了知	-11.4815
居處	-11.4815
四門竟	-11.4816
今應	-11.4816
五塵境	-11.4818
相資	-11.4821
無上乘	-11.4823
應是無常	-11.4824
八相	-11.4828
山河等	-11.4829
審諦	-11.483
遮罪	-11.4833
與二乘	-11.4836
真如相	-11.4841
諸雜染	-11.4841
世俗智種子	-11.4842
諸菩薩眾	-11.4844
第十地菩薩	-11.4844
大覺	-11.4845
資糧道	-11.4846
迴轉	-11.485
盡壽	-11.485
七方便	-11.485
一日	-11.485
盡滅	-11.485
聖慧	-11.4851
不動行	-11.4854
道智	-11.4855
真金	-11.4855
思可知	-11.4857
皆屬	-11.4859
他性	-11.4859
略有三	-11.486
齊等	-11.4861
復有二	-11.4862
法塵	-11.4862
無想等	-11.4866
善果	-11.4875
各各別	-11.4876
是故名	-11.4876
論宗	-11.4879
了別境	-11.4886
細相	-11.4886
不能斷	-11.4888
真事	-11.4892
三乘人	-11.4892
千世界	-11.4893
八門	-11.4899
乃言	-11.4901
第七八識	-11.4904
已知	-11.4905
决擇	-11.4906
謂諸有情	-11.4915
隙	-11.4916
瑜伽第一	-11.4916
有一分	-11.4916
弟	-11.4917
著我	-11.4917
柔和	-11.4917
未轉依	-11.4918
屠	-11.4918
為能熏	-11.4919
慳貪	-11.4919
文略	-11.4919
遊履	-11.492
經句	-11.492
胡	-11.4921
慰	-11.4921
西域	-11.4921
唐捐	-11.4923
各據一義	-11.4924
擾亂	-11.4925
劫中	-11.4925
非有想非無想	-11.4925
滅巳	-11.4925
嘗	-11.4926
淨穢	-11.4926
不由功用	-11.4926
鮮白	-11.4927
釋中有四	-11.4927
應不得成	-11.4928
重言	-11.4928
論世尊至	-11.4929
有其三	-11.493
二世樂	-11.4931
現等覺	-11.4931
妄生	-11.4934
餘文可知	-11.4939
二空所顯	-11.494
所潤	-11.4943
此義不然	-11.4944
則不得	-11.4947
證果	-11.4947
闕一	-11.4949
大種造	-11.4949
此中顯示	-11.4951
正翻	-11.4952
憂捨	-11.4954
得俱起	-11.4956
對法第一	-11.4958
能聞	-11.496
心學	-11.4962
二趣	-11.4963
入胎	-11.4966
演曰後結	-11.4966
則不然	-11.4967
果德	-11.4968
內門	-11.497
寧有	-11.4972
纏縛	-11.4973
三彰	-11.4973
不散亂	-11.4974
正取	-11.4976
常行	-11.4977
義如前	-11.4983
大雲	-11.4983
所知境界	-11.4983
下論文	-11.4986
佛地論云	-11.4988
餘緣	-11.499
世親攝論	-11.4992
五明處	-11.4992
不正義	-11.4996
問答辨	-11.4998
所熏習	-11.4998
有恩	-11.4998
羅漢果	-11.5007
亦得有	-11.501
簡去	-11.5013
一向是	-11.5013
如是四種	-11.5013
就行	-11.5014
亦兼	-11.5015
順逆	-11.5016
不究竟	-11.5019
等流心	-11.5019
種種異	-11.5021
趣求	-11.5022
不愚	-11.5023
和雜	-11.5025
於三界中	-11.5025
實無有	-11.5029
要先	-11.5031
不信等	-11.5031
業所招	-11.5033
𢙉	-11.5034
離質	-11.5036
二十種	-11.5038
一切所知	-11.5038
隱覆	-11.504
即屬	-11.5041
暖	-11.5044
而行布施	-11.5046
同種	-11.5047
謂有國王	-11.5047
吹	-11.5048
定屬	-11.505
婦	-11.5051
男女二根	-11.5051
盧	-11.5052
扇	-11.5053
等者意說	-11.5054
朝	-11.5054
衣鉢	-11.5056
佛道	-11.5056
動作	-11.5057
出世智	-11.5057
不別立	-11.5057
有漏道	-11.5058
齋	-11.5058
福德智慧	-11.5058
壁	-11.5058
嗢拕南	-11.5059
險	-11.506
入息出息	-11.506
毀謗	-11.5061
覓	-11.5062
能詮所詮	-11.5063
此復三種	-11.5063
妙善	-11.5065
授與	-11.507
微隱	-11.507
之德	-11.507
有漏善法	-11.5071
大空	-11.5073
發光	-11.5073
凡有	-11.5074
卷第三	-11.5078
非色心	-11.5078
釋中有三	-11.5082
三性門	-11.5083
舉例	-11.5083
能成辦	-11.5084
往生	-11.5087
前二句	-11.5087
法同分	-11.5088
無學人	-11.5088
善等三性	-11.5089
欲勝解	-11.509
無量無數	-11.5093
輪迴	-11.5093
彼所依	-11.5093
滅心定	-11.5095
同一處	-11.5095
愛果	-11.5096
此二法	-11.5098
心不相應行	-11.5098
稱為	-11.5099
無輕安	-11.51
扶	-11.5101
異生性障	-11.5104
究竟現觀	-11.5109
愛恚	-11.511
今此論	-11.5114
眾生心	-11.5115
未說	-11.5118
無足	-11.512
無相住	-11.512
入現觀	-11.5123
有諍	-11.5123
何也	-11.5125
方便究竟	-11.5126
卷中	-11.5126
何不許	-11.5127
結示	-11.5127
別脫	-11.5127
義顯現	-11.5129
何要	-11.5137
自害	-11.5137
開解	-11.5137
清淨道	-11.5139
壽盡	-11.5139
受苦樂	-11.5139
第二段	-11.514
未成熟	-11.5142
是癡分	-11.5146
若大乘中	-11.5148
入觀	-11.5153
是徧行	-11.5158
具足住	-11.5162
勤求	-11.5165
如日	-11.5166
分別俱生	-11.5168
平等性故	-11.5169
還淨	-11.517
觸對	-11.5172
如龍樹	-11.5174
正量	-11.5178
樞要云	-11.5179
醫	-11.5179
七十八	-11.518
米	-11.518
敗	-11.5181
相攝門	-11.5183
不自在故	-11.5184
異色心等	-11.5186
禮拜	-11.5187
治罰	-11.5189
已復	-11.5189
巳伏	-11.519
不死矯亂	-11.519
之中有	-11.519
乍	-11.5191
體常	-11.5191
純無漏	-11.5193
不應言	-11.5195
不殊	-11.5195
治道	-11.5195
所趣	-11.5195
故論說言	-11.5196
若爾即	-11.5199
不離識故	-11.5204
助力	-11.5205
隨類	-11.5206
大自在天	-11.5206
隨其所欲	-11.5206
諸德	-11.521
因果俱	-11.5211
唯是一	-11.5213
種種想	-11.5214
空寂	-11.5214
作四句	-11.5214
緣一切法	-11.5215
以欲界	-11.5215
除斷	-11.5216
結云	-11.5216
三解釋分	-11.5217
三惡道	-11.5218
卷第四	-11.5219
如理應知	-11.522
通無記	-11.5225
如次應知	-11.5226
如瑜伽論	-11.5227
護法師	-11.5232
無想定等	-11.5232
見道已前	-11.5232
文中有二先	-11.5233
起邪行	-11.5234
互用	-11.5239
汝所執	-11.5239
有心位	-11.5243
將死	-11.5244
此第七識	-11.5247
成所作	-11.5247
故作是說	-11.5247
過去未來現在	-11.5248
舌識	-11.5248
第三總結	-11.5249
十解	-11.525
類忍	-11.5252
生覺受	-11.5256
永不行	-11.526
語行	-11.5261
實諦	-11.5263
照了	-11.5263
成劫	-11.5263
現量境	-11.5263
不能見	-11.5265
都不	-11.5265
無忘失	-11.5267
離喜	-11.5268
不能熏	-11.527
不相應法	-11.5271
恒轉	-11.5274
衣服等	-11.5275
已捨	-11.5276
親依	-11.5278
六現觀	-11.5281
已證得	-11.5284
依彼轉	-11.5284
名是何	-11.5285
行緣識	-11.5289
憙	-11.5291
所建立	-11.5296
事邊際	-11.5298
誰言	-11.5303
各三	-11.5304
留身	-11.5306
往善趣	-11.5307
相翻	-11.5313
無尋	-11.5314
同處不相離	-11.5314
身邊見	-11.5314
波浪	-11.5315
某甲	-11.5315
一切境界	-11.5316
聰叡	-11.5316
慶慰	-11.5316
抑	-11.5316
漂溺	-11.5316
滋長	-11.5317
而般涅槃	-11.5317
暇	-11.5318
臭	-11.5319
窟	-11.532
所覺	-11.532
於時時間	-11.532
謙	-11.5322
經意	-11.5322
糅	-11.5322
嬰兒	-11.5322
牒上	-11.5322
洗	-11.5323
略而不說	-11.5323
如應當知	-11.5324
訛	-11.5324
按彼論云	-11.5325
電	-11.5325
或時起	-11.5326
不即不離	-11.5326
煩惱及隨煩惱	-11.5328
倍增	-11.5336
增明	-11.5336
所有功德	-11.5338
化現	-11.5341
惡事	-11.5342
轉捨	-11.5343
染淨依	-11.5346
觸所生受	-11.5346
冷觸	-11.5346
無漏緣	-11.5348
護法菩薩	-11.5349
化生有情	-11.535
眾德	-11.535
應信	-11.535
演曰第二	-11.5351
嗔恚	-11.5353
所云	-11.5355
問答分別	-11.5355
乞求	-11.5355
通慧	-11.5356
教誨	-11.5357
分位假立	-11.536
欲天	-11.5361
火燒	-11.5362
何獨	-11.5366
第三地	-11.5369
誰能	-11.537
此文意	-11.537
未轉	-11.5371
已熟	-11.5372
四識住	-11.5375
一趣	-11.5375
八地已去	-11.5377
本法	-11.5383
我見等	-11.5383
有三解	-11.5386
用增	-11.5387
勝意樂	-11.539
今當說	-11.5395
猶起	-11.5397
眼處	-11.54
卵	-11.5404
已盡	-11.5406
餘惑	-11.5406
思種	-11.5406
貪行	-11.5407
二禪巳上	-11.5407
遍染	-11.5408
往彼	-11.5408
非梵行	-11.5408
四無礙解	-11.541
力強	-11.5418
不爾如何	-11.542
修戒	-11.5421
方顯	-11.5424
隨法行	-11.5425
等三法	-11.5428
七覺	-11.5429
前第一	-11.5435
生彼天	-11.5435
後剎那	-11.5436
卑慢	-11.5437
俱滅	-11.5439
定異因	-11.5439
成就如是	-11.544
識自體	-11.544
破分二	-11.5442
上首	-11.5443
中景云	-11.5443
配之	-11.5444
工	-11.5445
念佛	-11.5445
分三一明	-11.5447
悉能	-11.5447
2	-11.5448
本有種	-11.5451
如夢中	-11.5452
與此同	-11.5452
悕	-11.5455
大自在宮	-11.5455
圍	-11.5456
一類相續	-11.5456
外質	-11.5457
隅	-11.5457
骨鎖	-11.5458
堂	-11.5458
聖教中	-11.5459
諸字	-11.5459
真實義愚	-11.546
妬	-11.5461
陰界入	-11.5461
如別章	-11.5463
定非實有	-11.5463
現化	-11.5463
應當了知	-11.5464
五十五說	-11.5464
深密經	-11.5465
人我	-11.5466
世間智	-11.5468
八正	-11.5469
有三相	-11.547
以是因緣	-11.5472
畢竟不生	-11.5475
為正因	-11.5476
所思	-11.5476
於十地中	-11.5477
本來寂靜	-11.5477
所緣相分	-11.5481
去來今	-11.5483
過慢	-11.5483
各分	-11.5484
釋第三句	-11.5484
佛菩提	-11.5485
宿住通	-11.5485
直往	-11.5487
皆不得成	-11.5488
所餘諸	-11.5488
不為說	-11.549
捨戒	-11.549
諸心所法	-11.5491
邪解	-11.5493
大自在	-11.5499
聞所成	-11.5499
遠行地	-11.5499
禪支	-11.5505
初學	-11.5506
復引	-11.5508
五受根	-11.5511
亦非實有	-11.5516
更不生	-11.5522
別配	-11.5522
復有別	-11.5523
所生得	-11.5523
轉智	-11.5525
相扶	-11.5528
財利	-11.5531
於中先	-11.5532
翻彼	-11.5532
三性分別	-11.5534
復有三	-11.5535
七返	-11.5535
不捨生死	-11.5535
今此中	-11.5537
未至定中	-11.5538
唯望	-11.5538
本有種子	-11.5539
十波羅蜜	-11.554
出世間道	-11.5541
眾會	-11.5541
別解脫律儀	-11.5548
第二地	-11.5549
▁次破	-11.5551
威儀等	-11.5551
於三寶	-11.5552
多剎那	-11.5553
各隨	-11.5553
復有餘	-11.5554
明略義	-11.5563
正精進	-11.5566
遍計執	-11.5568
九十三	-11.5569
因所生	-11.5573
後句	-11.5574
自他身	-11.5574
行迹	-11.5575
染無記	-11.5577
善處	-11.5579
有斯	-11.5582
或分為三	-11.5585
珍	-11.5585
所有善法	-11.5585
亂識	-11.5585
9	-11.5586
善巧方便	-11.5587
轉滅	-11.559
灾	-11.559
不相障礙	-11.5592
執我我所	-11.5592
修習力	-11.5593
加行究竟作意	-11.5594
尅	-11.5594
混	-11.5595
飜	-11.5595
閻浮提	-11.5596
蒙	-11.5597
安足處	-11.5597
興盛	-11.5598
初中分	-11.5598
樓	-11.5598
昇進	-11.5598
欲色二界	-11.5598
沙門若婆羅門	-11.5599
玉	-11.5601
死後有想	-11.5601
故得有	-11.5601
波若	-11.5602
騰	-11.5605
所取境	-11.5605
是貪分	-11.5605
可了知	-11.5606
顯揚等	-11.5607
上三句	-11.5607
嗅	-11.5608
何等為二	-11.5609
泥洹	-11.5611
教他	-11.5612
無漏根	-11.5612
第九卷	-11.5615
雖殊	-11.5615
阿羅耶識	-11.5616
要待	-11.5617
先解	-11.5619
生住滅	-11.562
相狀如何	-11.562
工業	-11.5621
不作意	-11.5623
戒體	-11.5626
長短等	-11.5627
罪人	-11.5628
知一切法	-11.5629
獨影境	-11.563
於欲界中	-11.563
初地巳上	-11.5634
具不具	-11.5634
離散	-11.5635
有財釋	-11.5635
非染污	-11.5636
諸蓋	-11.5638
類同故	-11.5641
依耽嗜	-11.5642
先牒	-11.5643
慈恩	-11.5643
不云	-11.5649
自在菩薩	-11.5651
徵起	-11.5651
法花	-11.5653
瑜伽第三	-11.5661
應知即是	-11.5664
亦不說	-11.5665
計度分別	-11.5667
總攝一切	-11.5667
似我法	-11.5667
楞伽云	-11.5667
等四法	-11.567
貪慢	-11.5671
菩薩見道	-11.5672
自下第四	-11.5675
如是三種	-11.5677
此覺	-11.5677
實無所有	-11.5678
愛念	-11.5679
若汝說	-11.568
不容	-11.5681
有色無色	-11.5691
因果性	-11.5691
如金	-11.5693
入滅盡定	-11.5695
所緣緣義	-11.5695
無分別慧	-11.5695
寬通	-11.5696
相續而轉	-11.5701
隨機	-11.5702
皆不成	-11.5706
本性住	-11.5707
青瘀等	-11.5709
證無上正等菩提	-11.5716
第九地	-11.5716
勢速	-11.5717
是染污	-11.5718
所礙	-11.5722
有情世間	-11.5722
尓	-11.5723
業習氣	-11.5725
役	-11.5727
成正覺	-11.573
空界	-11.5731
空三昧	-11.5732
釋第四句	-11.5732
乃能	-11.5733
敷	-11.5734
難了	-11.5735
淵	-11.5736
如是二種	-11.5737
花嚴	-11.5739
官	-11.5739
甘露	-11.574
團	-11.574
唯現量	-11.5741
拏	-11.5742
矯亂	-11.5742
聲體	-11.5744
息除	-11.5744
分分	-11.5747
次對	-11.5749
離增上慢	-11.5749
涅槃經云	-11.5751
眼所見	-11.5752
體性業用	-11.5753
醜	-11.5754
初中分二初	-11.5754
不能動	-11.5754
廣如彼	-11.5754
善順	-11.5758
鏡中	-11.5758
是常住	-11.5763
明闇	-11.5764
何容	-11.5764
正觀察	-11.5768
文中有	-11.5769
修道惑	-11.577
增上慧住	-11.5771
▁三結	-11.5775
變帶	-11.5779
攝大乘云	-11.5781
僧伽	-11.5782
所出	-11.5784
無限	-11.5784
不疑	-11.5787
有漏種子	-11.5791
家之	-11.5794
證自證	-11.5795
後有業	-11.5796
住劫	-11.5796
如鏡	-11.5797
梵世	-11.5798
印可	-11.5801
即由如是	-11.5802
復應	-11.5802
由此智	-11.5804
八地以去	-11.5805
所簡	-11.5806
二三四	-11.5807
獨一	-11.5807
大神通	-11.581
彰其	-11.5811
字身	-11.5812
離欲界欲	-11.5813
斷見惑	-11.5816
聞思修慧	-11.5821
有十一種	-11.5822
則不能	-11.5823
以何為體	-11.5824
卷第二	-11.5828
正證	-11.5834
顯發	-11.5845
無益	-11.5848
惡趣業	-11.585
今顯	-11.5851
獨覺乘	-11.5852
照境	-11.5852
身中有	-11.5852
此文即是	-11.5854
𠛴那	-11.5859
待因	-11.586
第二門中	-11.5861
心心所滅	-11.5862
釋第二句	-11.5865
何必	-11.5867
此即第一	-11.5867
六無為	-11.5867
廣說應知	-11.5868
任運分別	-11.5868
和合相	-11.5868
為教體	-11.587
唯第六	-11.5872
杌	-11.5873
窮未來際	-11.5874
此世他世	-11.5874
悋	-11.5875
欺	-11.5878
侶	-11.5878
所知障種	-11.5879
故地持云	-11.588
訶責	-11.588
可愛樂	-11.5882
勝利分二	-11.5882
無厭足	-11.5882
怙	-11.5883
今此文中	-11.5883
陽	-11.5884
夏	-11.5886
北洲	-11.5886
四天下	-11.5887
便能永斷	-11.5888
今於此中	-11.5889
徧計性	-11.5891
稱之為	-11.5892
下別顯之	-11.5894
六種波羅蜜多	-11.5895
前三種	-11.5896
第四云	-11.5898
無色無	-11.5899
似火	-11.59
八戒	-11.5903
漸悟菩薩	-11.5903
擇滅攝	-11.5908
令不生	-11.591
佛乘	-11.5911
辟支	-11.5912
青瘀	-11.5912
相近	-11.5914
五十八云	-11.5915
巧方便	-11.5915
斷諸煩惱	-11.5917
引喻	-11.5919
觸為緣	-11.5922
二各二	-11.5922
剎帝利	-11.5922
滅定中	-11.5924
真實功德	-11.5924
重明	-11.5926
所修行	-11.5933
是假非實	-11.5934
恒住	-11.5934
計為我	-11.5937
緣色等	-11.5938
無覺	-11.5938
常委	-11.5939
習氣依處	-11.594
通能所	-11.594
能受熏	-11.5943
現法涅槃	-11.5949
云何得知	-11.5953
鼻舌身三	-11.5955
謂佛菩薩	-11.5965
不得解脫	-11.5966
類差別	-11.5969
妙欲	-11.5971
色等境	-11.5974
若薩婆多	-11.5974
情非情	-11.5975
此復有二	-11.5975
無量劫	-11.5979
不受熏	-11.5981
圓成實相	-11.5982
聚義	-11.599
心外境	-11.5991
香味等	-11.5991
智殊勝	-11.5991
手等	-11.5993
相形	-11.5994
調伏方便	-11.6
陀羅	-11.6003
七八識	-11.6003
善通達	-11.6003
引瑜伽	-11.6004
言辭	-11.6007
若諸有情	-11.6009
相宗	-11.601
更互為因	-11.6012
彼經中	-11.6012
文分為五一	-11.6015
初中二	-11.6017
瞋癡	-11.6017
間隔	-11.6018
受所引色	-11.6021
止舉捨	-11.6022
耳鼻舌身	-11.6023
毫	-11.6024
夷	-11.6025
舍宅	-11.6026
驅	-11.6026
苦類智忍	-11.6026
累	-11.6026
渡	-11.6027
耐	-11.6027
小生	-11.6029
此等皆	-11.6029
無明望行	-11.603
總以標舉	-11.6031
潔	-11.6032
丈	-11.6034
決擇分善	-11.6034
不齊	-11.6035
末尼	-11.6035
麼	-11.6036
世俗勝義	-11.6038
漸頓	-11.6038
昧略	-11.6038
從他聞	-11.604
如經廣說	-11.6042
歸禮	-11.6045
觸所生	-11.6047
福分善	-11.6047
於此處	-11.6051
者意云如	-11.6052
其第七識	-11.6053
若汝言	-11.6054
略辨	-11.6054
諸如是等	-11.6055
攝論等	-11.6057
觸生	-11.6057
於諸諦	-11.6057
扶根	-11.6058
卷第五	-11.6058
復有一類	-11.6059
唯聖	-11.6059
檀波羅蜜	-11.606
思准	-11.6063
於正法	-11.6065
近遠	-11.6071
明了意識	-11.6071
如理思	-11.6074
十一善	-11.6075
而言之	-11.608
迷悟	-11.608
男女根	-11.608
真見道中	-11.6083
自性空	-11.6085
如理思惟	-11.6085
有心定	-11.6085
二十二法	-11.6086
訓	-11.6086
三不善根	-11.6087
一卷	-11.6089
生老病死	-11.6093
六波羅蜜多	-11.6095
取像	-11.6095
苦報	-11.61
更立	-11.6101
緣生法	-11.6102
如何得有	-11.6102
未伏	-11.6103
初正破	-11.6104
三善根	-11.6105
此有二種	-11.6108
來求者	-11.611
有爾所	-11.6112
速得	-11.6113
有一人	-11.6115
亦違	-11.6119
顯揚第二	-11.6122
假使	-11.6123
東西	-11.6123
何乃	-11.6128
如何通	-11.6128
聲性	-11.6131
第七末那	-11.6137
威儀心	-11.614
資糧加行	-11.6143
麤顯	-11.6143
厭逆	-11.6144
少時	-11.6146
未來法	-11.6146
品數	-11.6156
廣解分九	-11.6157
文分三分	-11.6158
隨入	-11.6161
伎	-11.6164
慕	-11.6166
天眼耳	-11.6167
之所依止	-11.6168
文顯可知	-11.6168
當知亦尒	-11.6169
依他起攝	-11.6169
因能變	-11.617
六方	-11.617
思之可知	-11.6171
以慧為體	-11.6172
如兔角等	-11.6172
如俱舍	-11.6172
個	-11.6173
瑟	-11.6173
愛敬	-11.6174
歌	-11.6174
應別有	-11.6175
俱胝	-11.6175
第十六	-11.6175
碍	-11.6176
錢	-11.6177
不爾便	-11.6179
七心界	-11.6179
便作是念	-11.6182
取所緣	-11.6187
此中問意	-11.6189
集會	-11.6192
十二有支	-11.6193
略解	-11.6193
僧佉	-11.6193
得解脫故	-11.6196
受心法	-11.6197
兩頭	-11.6198
結縛	-11.6201
於此門中	-11.6201
無作用故	-11.6203
第二果	-11.6209
未圓滿	-11.621
準此	-11.6222
應供	-11.6223
解脫道中	-11.6224
值佛	-11.6229
冥性	-11.6229
遍善心	-11.6234
辨中邊	-11.6234
唯就	-11.6235
古師	-11.6236
舊論云	-11.6237
正死	-11.6237
佛弟子	-11.6243
執受大種	-11.6246
九結	-11.6252
為開導	-11.6252
帶質境	-11.6253
縱有	-11.6253
受想行	-11.6256
對法第二	-11.6257
安心	-11.6258
二正釋	-11.6259
頌釋	-11.626
文中有二一	-11.6265
顯揚論說	-11.6267
諸菩薩等	-11.627
我癡	-11.627
自巳	-11.627
神通力	-11.6271
被損	-11.6271
如此等	-11.6274
驚怖	-11.6275
返顯	-11.6276
四十九	-11.6276
若諸菩薩於	-11.6279
盡諸漏	-11.6279
卒	-11.6285
成實說	-11.629
復次菩薩	-11.629
九句	-11.6297
十三住	-11.6298
作此說	-11.6301
根熟	-11.6301
不減	-11.6304
觀諦	-11.6307
文有二	-11.6307
心得解脫	-11.631
之異名	-11.6311
紛	-11.6315
戾	-11.6315
恣	-11.6316
漫	-11.6317
斷絕	-11.6318
犢子部	-11.6318
玅	-11.6319
仁王	-11.632
大慈	-11.6325
淪	-11.6325
純淨	-11.6326
癰	-11.6326
所計我	-11.6327
受用法樂	-11.6328
霜	-11.6329
七十二	-11.633
普照	-11.633
由三種相	-11.6333
尚無	-11.6335
一一別	-11.6336
相似法	-11.6338
眼等轉識	-11.6338
亦有亦無	-11.6341
宿世	-11.6343
於一切眾生	-11.6344
殺生等	-11.6346
不饒益事	-11.635
異界	-11.6351
除障	-11.6354
知他心	-11.6361
修所成慧	-11.6364
內淨	-11.6364
方得生故	-11.6364
十八界中	-11.6366
妙觀	-11.6371
互不相	-11.6372
有十四	-11.6375
於修道中	-11.6378
入定時	-11.638
所攝受故	-11.6385
因依處	-11.6386
外國	-11.6387
無加行	-11.6393
聲聞人	-11.6394
攝事分	-11.6394
皆爾	-11.6397
百五十	-11.6399
未定	-11.6401
諸法差別	-11.6402
不具足	-11.6403
已說菩薩	-11.6407
得士用果	-11.6411
俱生惑	-11.6411
開發	-11.6413
謂貪瞋癡	-11.6413
受用境界	-11.6416
音義此	-11.6418
佛果位	-11.6419
助發	-11.643
必俱	-11.6431
四緣中	-11.6433
兼取	-11.6435
善根力	-11.6435
極遠	-11.6436
乖離	-11.6436
金銀等	-11.644
滅道諦	-11.6443
明勝利	-11.6443
伽羅	-11.6445
略示	-11.6447
樂根	-11.6448
於中有四	-11.6448
無相界	-11.6449
修諸善	-11.645
薄伽梵說	-11.6455
指廣	-11.6458
阿毗達磨	-11.6461
彼論中	-11.6462
外境界	-11.6464
無我見	-11.6465
▁初約	-11.6466
分之為二	-11.6468
驅擯	-11.6469
欲界人天	-11.6469
製	-11.6469
稟	-11.647
忻	-11.647
吉	-11.647
群臣	-11.647
竪	-11.6471
釋初句	-11.6471
與上相違	-11.6472
黑黑	-11.6472
八支聖道	-11.6472
自性清淨心	-11.6472
電光	-11.6473
一切種妙智	-11.6474
賴	-11.6474
擁	-11.6474
翼	-11.6475
書寫	-11.6476
鍊	-11.6476
嫌恨	-11.6476
未自在	-11.6477
救濟	-11.6478
黑闇	-11.648
飲酒	-11.648
▁1	-11.648
左	-11.6481
我今當說	-11.6482
怨憎	-11.6483
悕求	-11.6484
護法正義	-11.6484
會玄	-11.6485
無因生	-11.6485
美妙	-11.6486
能任持	-11.6486
又汝何所欲	-11.6493
精勤修習	-11.6494
緣自地	-11.6494
法雲地	-11.6498
皆不可得	-11.6498
心之所	-11.65
從欲界	-11.6507
與第八識	-11.6508
如樞要說	-11.6508
已知根	-11.6508
閏生	-11.6511
名圓成實	-11.6513
故不立	-11.6513
必不生	-11.6515
耶荅	-11.6516
我我所執	-11.6516
虛空等	-11.6517
四部	-11.6519
不障礙	-11.652
三災	-11.6522
法苑	-11.6527
深細	-11.6528
況復	-11.6531
初惣	-11.6531
得大菩提	-11.6531
分六中第	-11.6533
三不護	-11.6536
語依處	-11.6538
變他	-11.6539
甚深義	-11.6541
在過去	-11.6544
所學處	-11.6545
初總明	-11.6546
無慚等	-11.6547
初之二	-11.6549
約詮	-11.6549
尋求心	-11.655
前二種	-11.6556
四無畏	-11.6558
觀行人	-11.6558
遍淨	-11.6559
色無色繫	-11.6562
直至	-11.6565
緣四諦	-11.6565
合成一	-11.6566
方名為	-11.6567
差別之相	-11.6571
對法第五	-11.6575
極少	-11.6577
修止	-11.6578
出三界	-11.658
攝大乘說	-11.6587
配屬	-11.6589
大菩提心	-11.6591
識等五果	-11.6591
真觀	-11.6593
放光	-11.6597
於所樂	-11.6598
初一頌	-11.6598
滅度	-11.6599
行為緣	-11.66
不能持種	-11.66
好樂	-11.6601
劫初	-11.6603
故稱為	-11.6604
人分三	-11.6607
一門說	-11.6611
烈	-11.6613
煩惱障種	-11.6615
5	-11.6616
有餘無餘	-11.6617
三答所以	-11.6618
我有色	-11.6619
煩𢚰	-11.6622
式	-11.6622
戚	-11.6622
揔標列	-11.6623
誘	-11.6623
蹔	-11.6623
在地前	-11.6623
潛	-11.6626
鷄	-11.6626
縷	-11.6627
術	-11.6628
採	-11.6629
二轉依果	-11.663
從自種生	-11.6631
踰繕那	-11.6632
愈	-11.6634
則不成	-11.6635
輕蔑	-11.6635
𨷂	-11.6636
利物	-11.6637
宿習	-11.6638
中前二	-11.6639
能為障礙	-11.6639
非現量得	-11.6639
定性二乘	-11.6639
墮惡趣	-11.6642
釋頌中	-11.6642
戒律儀	-11.6643
初劫	-11.6644
」「	-11.6645
設難	-11.6646
意趣分二	-11.6646
寧不	-11.6648
六因中	-11.6655
入母胎	-11.666
依託	-11.6664
二例餘	-11.6664
等流性故	-11.6664
古德	-11.6666
飲食等	-11.6666
病苦	-11.667
輕慢	-11.667
三念住	-11.6673
為欲對治	-11.6678
可愛果	-11.6682
衰變	-11.6687
居家	-11.6688
中庸	-11.669
墮於	-11.6691
故略不說	-11.6692
空閑	-11.6692
能礙	-11.6694
先來	-11.6694
後半	-11.6697
外人問	-11.6698
補特伽羅無我	-11.6699
成唯識云	-11.6704
異分	-11.6704
初家	-11.6705
三受相應	-11.6706
專心	-11.671
作如是言	-11.6712
違緣	-11.6715
亦得起	-11.6715
皆不應理	-11.6716
慙	-11.6717
非擇滅攝	-11.6724
不易	-11.6725
非此所	-11.6728
引果	-11.6729
然此中	-11.6729
業自在	-11.673
蘊為我	-11.6733
無同喻	-11.6735
非所緣緣	-11.6735
奉行	-11.6736
生死流轉	-11.6742
對法等	-11.6743
非福業	-11.6743
斷德	-11.6743
大般涅槃	-11.6744
苦諦下	-11.6749
獨得	-11.675
若謂下	-11.6752
所徧計	-11.6753
諸染法	-11.6753
真淨	-11.6755
脩道	-11.676
待餘	-11.6761
善觀察	-11.6762
根境等	-11.6764
方知	-11.6765
聖凡	-11.6766
徃	-11.6767
能生後	-11.6767
不親緣離自	-11.6768
非真異熟	-11.6772
膿	-11.6775
卷舒	-11.6775
八支	-11.6775
如實觀	-11.6776
庶	-11.6777
瓶衣等	-11.6777
寫	-11.6778
算	-11.6779
迎	-11.6779
囀	-11.6779
微微心	-11.678
遠分對治	-11.6782
諸色根	-11.6783
善達	-11.6783
轉救	-11.6784
下分結	-11.6786
調御	-11.6786
兵	-11.6789
無記性攝	-11.6789
環	-11.679
所治障	-11.679
合響開蒙	-11.679
出世淨	-11.6797
此義應思	-11.6797
發大心	-11.6798
亦無妨	-11.6799
觸塵	-11.6799
獨頭意識	-11.6799
謂諸異生	-11.68
滅受想定	-11.6802
流轉還滅	-11.6804
故彼論言	-11.6805
十一明	-11.6805
自證緣見	-11.6805
無失壞	-11.6806
諸禪	-11.6807
乃至老死	-11.6809
亦說為	-11.681
燒然	-11.6812
無心時	-11.6813
默然	-11.6814
根本惑	-11.6816
第八識體	-11.682
夢覺	-11.6824
如上說	-11.6826
唯據	-11.683
是故世尊	-11.683
先約	-11.6832
不現起	-11.6839
自在成就	-11.684
容起	-11.6843
在定中	-11.6844
七十四	-11.6845
應頌	-11.6847
身量	-11.6849
常寂	-11.685
第二復次	-11.6857
自然生	-11.6857
穢土	-11.6859
通五蘊	-11.6861
謂如有一於	-11.6862
是能依	-11.6863
果能變	-11.6867
雖無實	-11.6867
未來禪	-11.6873
不能執受	-11.6875
未聞	-11.6878
願於當來	-11.6878
一間	-11.688
願我	-11.6882
不礙	-11.6886
未正	-11.6888
大慈悲	-11.689
此等諸	-11.6892
次師	-11.6894
能薰	-11.6896
習種姓	-11.6899
有漏善心	-11.6899
餘七識	-11.6901
不說餘	-11.6904
第九云	-11.6906
作意力	-11.6907
淨心地	-11.6911
所知依	-11.6914
心懷	-11.6915
形質	-11.6919
勤方便	-11.6926
湛	-11.6928
同法者	-11.6929
唯在欲界	-11.693
初標後釋	-11.6931
所隨逐	-11.6932
菩薩所行	-11.6933
已永斷	-11.6934
属	-11.6938
遽	-11.6938
不平等因	-11.6939
案	-11.6939
貝	-11.694
相涉入	-11.6941
若定若慧	-11.6941
放大光明	-11.6942
嗢	-11.6942
啟	-11.6943
煙	-11.6943
如別抄	-11.6943
漢	-11.6943
鼻舌二識	-11.6943
二舉頌總答	-11.6944
有二師	-11.6944
慢過慢	-11.6945
舍利	-11.6945
惡取空	-11.6946
映奪	-11.6946
勇悍	-11.6947
與捨受相應	-11.6947
不俱起故	-11.6947
勸令	-11.6948
顯揚十八	-11.695
天眼耳根	-11.695
叵	-11.6951
阿犁耶識	-11.6951
蘊善巧	-11.6954
內凡	-11.6956
局在	-11.6957
屬當	-11.6957
知恩	-11.6958
往趣	-11.6958
現居	-11.6961
相顯現	-11.6962
極樂	-11.6965
諸根大種	-11.6966
法處所攝色	-11.6966
無餘心所	-11.6967
如前巳說	-11.6967
虛誑	-11.6967
大丈夫	-11.6968
順正理	-11.6969
及無為法	-11.6969
舌根	-11.6972
一立所治	-11.6972
父母極微	-11.6974
相異故	-11.6979
有兩解	-11.6983
登地	-11.6987
初句標名	-11.6992
據理	-11.6995
故此不	-11.6998
摽舉	-11.6999
亦通無漏	-11.7001
六七識	-11.7002
異計	-11.7002
亦得名為	-11.7008
無漏五識	-11.7009
諸惡業	-11.7009
所變現	-11.701
菩	-11.7014
二乘有學	-11.7018
亂相	-11.7019
次列	-11.702
空花	-11.7021
於眼等識	-11.7023
於諸諦中	-11.7023
爾所	-11.7024
成業論	-11.7025
苦忍	-11.7026
四十八	-11.7027
分折	-11.7027
因緣所生	-11.7032
四大所造	-11.7034
為量果	-11.7035
勢分	-11.7042
根本靜慮	-11.7042
老病死	-11.7043
外空	-11.7045
謂如前說	-11.7051
所變相	-11.7052
速能	-11.7056
所熏成種	-11.7059
此師意	-11.706
搖	-11.7064
平等法性	-11.7067
為同類因	-11.7069
無違犯	-11.707
卷第六	-11.7076
不現行故	-11.7079
悅意	-11.7079
唯第八識	-11.7081
誡	-11.7081
唯無記性	-11.7082
若爾云何	-11.7084
破薩婆多	-11.7084
而為自性	-11.7087
麁重縛	-11.7091
種生種	-11.7091
總為一	-11.7093
奢	-11.7094
成阿羅漢	-11.7096
軍林	-11.7096
他人心	-11.7098
壯	-11.7098
掌	-11.7099
分四一明	-11.7101
尚不能	-11.7101
鑒	-11.7102
天竺	-11.7102
青黃	-11.7103
巨	-11.7103
所行處	-11.7104
百億	-11.7104
彩	-11.7105
無學身中	-11.7105
廣果天	-11.7105
欝	-11.7106
不改	-11.7106
爛壞	-11.7106
早	-11.7107
穿	-11.7108
無上依經	-11.7111
中有六	-11.7111
地滿心	-11.7112
救護	-11.7114
鈴	-11.7115
迴心向大	-11.7116
心及心法	-11.7116
兩舌	-11.7118
何不說	-11.7118
入住出	-11.712
眼耳等	-11.712
依他起上	-11.7124
治斷	-11.7126
所引發	-11.7128
愛為緣	-11.7132
不由他	-11.7132
感總報	-11.7133
恒相應故	-11.7134
調順	-11.7137
三業為性	-11.7137
若有人	-11.7138
名身等	-11.7139
四諦理	-11.714
三種自性	-11.714
安慧師	-11.7141
有十二種	-11.7143
展轉相續	-11.7144
金光明	-11.7147
是故如來	-11.7151
我非我	-11.7152
無想報	-11.7156
從初發心	-11.7157
愛著處	-11.7157
生無自性性	-11.7158
▁次答	-11.7161
麁動	-11.7162
所引發故	-11.7165
名等流果	-11.7166
有三句	-11.7166
眾僧	-11.7167
遍於一切	-11.7168
隨別釋	-11.7169
欲塵	-11.717
卷第七	-11.717
分別起者	-11.7171
愛重	-11.7173
無分別影像	-11.7177
此之二	-11.7179
不慳	-11.718
體異	-11.718
木石	-11.7183
示相	-11.7185
非有性	-11.7186
破外道	-11.7196
如上所說	-11.7197
法雲	-11.72
少年	-11.7201
隨緣現	-11.7209
善惡性	-11.7214
四攝事	-11.7215
名為不共	-11.7219
貪瞋癡等	-11.722
於過去世	-11.7221
有不定過	-11.7221
後報業	-11.7229
云何說言	-11.7229
言詮	-11.7229
標宗	-11.723
廣顯	-11.7231
希奇	-11.7233
果圓滿	-11.7235
十歲	-11.7235
捨命	-11.7237
通前為	-11.7238
共相種	-11.724
麁顯	-11.7244
論若諸菩薩至	-11.7246
下半	-11.7247
一切皆有	-11.7251
偏執	-11.7253
無餘依涅槃	-11.7253
梨	-11.7254
瑜伽師地	-11.7254
生善趣	-11.7254
雅	-11.7255
級	-11.7256
記憶	-11.7258
七句	-11.7258
怛	-11.7259
怒	-11.7259
諦察法忍	-11.726
有二解一云	-11.726
雪山	-11.7262
衛	-11.7263
寺沙門	-11.7264
窮生死蘊	-11.7265
一立正義	-11.7265
嬉戲	-11.7266
炭	-11.7267
禽獸	-11.7267
雞	-11.727
第三段	-11.727
朋	-11.727
烟	-11.7272
五分法身	-11.7272
吒	-11.7272
無對色	-11.7273
膚	-11.7275
通見修	-11.7276
穀麥等	-11.7278
七地以前	-11.728
有難言	-11.7281
偈云	-11.7281
答第二問	-11.7287
解脫知見	-11.729
緣青	-11.7291
迷闇	-11.7292
第八所變	-11.7293
福慧	-11.7294
界外	-11.7297
意化	-11.7297
不分明	-11.7299
和合句	-11.7299
不善業道	-11.7299
所轉得	-11.73
唯識教	-11.7302
離言自性	-11.7302
通假實	-11.7302
燈光	-11.7309
文分為二先明	-11.7312
文別	-11.7315
貫通	-11.7317
一偈	-11.7317
能往	-11.7324
當知建立	-11.7325
二破分二	-11.7327
如論中說	-11.7327
還生欲界	-11.7331
云何得有	-11.7332
十二部	-11.7334
現熏種	-11.7336
無有一法	-11.7338
各有四	-11.735
伹說	-11.7354
淨尸羅	-11.7355
本性清淨	-11.7355
通三世	-11.7356
次說菩薩	-11.7356
九品惑	-11.7356
人間	-11.7356
起下地	-11.7357
緣起善巧	-11.7358
隨一攝故	-11.7363
諸有為法	-11.7365
進斷	-11.7369
染愛	-11.7372
靜相	-11.738
出體性	-11.7383
強力	-11.7386
三門分別	-11.7391
回	-11.7393
乃至十地	-11.7397
能除遣	-11.7398
防非	-11.7398
雜穢	-11.7401
諸法空	-11.7403
清淨意樂	-11.7406
能厭	-11.7406
因等起	-11.7409
佉	-11.741
對法論云	-11.7414
本師	-11.742
宣說正法	-11.7421
綺	-11.7424
商	-11.7425
依士	-11.7427
飯	-11.7427
雪	-11.7428
思所成慧	-11.7429
羯邏藍	-11.7432
祕	-11.7432
以要言之	-11.7435
蟲	-11.7437
久習	-11.7437
識緣名色	-11.7438
滴	-11.744
觀待道理	-11.7442
不可言說	-11.7443
出世間智	-11.7443
唯是善	-11.7445
憎恚	-11.7445
本質境	-11.7447
毀壞	-11.7448
離識實有	-11.745
遷流	-11.7451
故不說之	-11.7452
法爾道理	-11.7454
持種心	-11.7454
眼等諸識	-11.7456
合有十	-11.7459
往昔	-11.7464
變相分	-11.7465
不復現行	-11.7469
何等為十	-11.747
端正	-11.7473
亦不可得	-11.7478
第八識見分	-11.7479
唯異熟心	-11.7482
從他受	-11.7483
親愛	-11.7485
所表	-11.749
第三能變	-11.7491
今此文	-11.7491
三賢	-11.7492
謗無	-11.7493
已伏	-11.7494
無邊際	-11.7495
前中初	-11.7495
自他俱	-11.7496
▁初問	-11.7498
老死位中	-11.7499
造惡	-11.7505
無二相	-11.7511
流轉生死	-11.7513
終成	-11.7515
設遮	-11.7519
多聞熏習	-11.7522
歸趣	-11.7524
本際	-11.7527
極大	-11.7528
隨宜	-11.7528
假施設有	-11.7537
他心通	-11.7538
不待因	-11.7542
四大造	-11.7542
見倒	-11.7547
能悟入	-11.755
合會	-11.755
勤修學	-11.7551
任運生	-11.7551
受諸苦	-11.7553
虛假	-11.7557
色不相應	-11.7558
伹是	-11.7564
歡喜住	-11.7565
魔事	-11.7568
答當言	-11.7576
引後念	-11.7576
習所成	-11.7578
未證得	-11.7581
受記	-11.7581
迷悟依	-11.7581
必假	-11.7584
逆觀	-11.7587
羞耻	-11.7589
思惑	-11.7592
如實見	-11.7594
得無學果	-11.7594
意成天	-11.7595
略廣	-11.7596
膝	-11.7597
作所緣緣	-11.7598
於如來所	-11.7599
認	-11.76
稻	-11.7601
精血	-11.7601
順現受	-11.7602
瞖	-11.7603
文殊師利	-11.7604
澤	-11.7605
勞倦	-11.7607
伊	-11.7608
同種生	-11.7609
瞢	-11.7609
燸	-11.7609
籍	-11.7609
臨終	-11.7612
不嫉	-11.7612
如幻事	-11.7612
諸經中	-11.7612
憂慼	-11.7613
輕毀	-11.7614
一切一分是	-11.7614
初結前生後	-11.7616
殺盜	-11.7616
尋伺地	-11.7617
緣藏識	-11.7617
清淨品	-11.7618
大財	-11.7619
理非有故	-11.7622
依出離	-11.7622
增上戒住	-11.7622
檀越	-11.7623
無體法	-11.7626
長老	-11.7627
此中但說	-11.7628
結歸	-11.763
一音	-11.7631
六欲天	-11.7632
種性已上	-11.7636
發惡	-11.764
以理推	-11.7643
所應作事	-11.7644
第二俗	-11.7644
能引所引	-11.7645
大臣	-11.7647
悟解	-11.7647
繫及不繫	-11.7649
善染等	-11.7651
欲界天	-11.7658
演曰二列	-11.7658
釋中有五	-11.7662
然後方	-11.767
等者等取	-11.7671
得大自在	-11.7672
感異熟果	-11.7674
上半	-11.7675
三別釋分二	-11.7678
以為依止	-11.7688
有別體	-11.7688
當廣說	-11.77
下引證	-11.7702
得彼定	-11.7703
為是不	-11.7706
取著	-11.771
非理作意	-11.7713
迷惑	-11.7714
凡位	-11.7716
有力能	-11.7718
此位菩薩	-11.7719
能縛	-11.7724
文中分三一	-11.7724
瑜伽論記卷第	-11.7724
是故偏說	-11.7726
勤苦	-11.7731
此有二義	-11.7731
可分析	-11.7732
執有我	-11.7732
有勝用	-11.7733
能益	-11.7736
先總標	-11.7742
風界	-11.7748
極逈	-11.7751
非佛語	-11.7752
壞劫	-11.7753
論云何菩薩至	-11.7755
聰明	-11.7757
外五塵	-11.776
萬劫	-11.7762
以為本質	-11.7764
峯	-11.7764
頻	-11.7766
沐浴	-11.7767
論又於	-11.7768
二十二根中	-11.7768
不發業	-11.7771
異熟生攝	-11.7772
澄清	-11.7772
退不退	-11.7773
加行究竟果作意	-11.7773
慶喜	-11.7774
各各自	-11.7774
為除此疑	-11.7774
耆	-11.7775
四智心品	-11.7776
佛身中	-11.7776
邑	-11.7778
舉罪	-11.7778
躁擾	-11.7779
曠	-11.7779
如論應知	-11.7779
惰	-11.7779
增益損減	-11.778
鉢羅	-11.7781
併	-11.7782
佛國	-11.7783
復如何知	-11.7783
想受滅無為	-11.7783
此意說云	-11.7783
二立能治	-11.7784
愚昧	-11.7785
愛不愛	-11.7785
疲極	-11.7785
香氣	-11.7786
龍王	-11.7787
歌舞	-11.7787
分七如論	-11.7789
遍計性	-11.779
斷修惑	-11.7792
疑網	-11.7792
義得成	-11.7793
容俱起	-11.7794
集論云	-11.7794
初二果人	-11.7794
內聲	-11.7797
極逈色	-11.78
資生具	-11.7804
佛地經云	-11.7805
法處所攝	-11.7806
六種轉識	-11.7807
壽行	-11.7809
逼切	-11.781
論主云	-11.7821
眼等六識	-11.7823
同小乘	-11.7824
犯罪	-11.7828
引生無漏	-11.7831
無忘失法	-11.7833
今日	-11.7833
奢摩他品	-11.7834
唯識論中	-11.784
愛結	-11.784
多小	-11.784
在其中	-11.7843
分別論者	-11.7845
更不別	-11.7849
愛憎	-11.785
聞熏	-11.785
迷執	-11.7855
及不繫	-11.7857
難前師	-11.7857
成立唯識	-11.7859
八十八	-11.7861
第一義空	-11.7863
略不言	-11.7865
味著	-11.7867
略不論	-11.7867
與欲俱	-11.787
有因緣義	-11.7871
重病	-11.7871
信現觀	-11.7876
初未至定	-11.7876
瓶甌等	-11.7877
應無差別	-11.7878
未至地	-11.7881
於諸善法	-11.7881
思惟真如	-11.7884
無散亂	-11.7894
宗要	-11.7896
誨	-11.7898
通八識	-11.7907
十三卷	-11.7908
不壞淨	-11.791
百二十八	-11.7919
外難云	-11.7924
能令眾生	-11.7928
閑	-11.7934
無因論	-11.7935
能速	-11.7935
對法文	-11.7937
異熟生無記	-11.7938
恱	-11.7941
是不善性	-11.7942
詣	-11.7946
糞穢	-11.7946
健	-11.7947
相似相續	-11.7949
彼同分	-11.7949
契中道	-11.7949
琉璃	-11.7949
提婆	-11.795
苣	-11.795
迭	-11.795
一說部	-11.7951
勅	-11.7951
模	-11.7951
眩翳	-11.7951
中二大八	-11.7951
饒	-11.7952
入正性離生	-11.7952
秘密	-11.7952
勇健	-11.7953
房	-11.7954
躡	-11.7955
作善為業	-11.7955
慶悅	-11.7955
六行伏惑	-11.7956
弄	-11.7957
召	-11.7957
委細	-11.7958
不住生死	-11.7958
違聖教	-11.7959
處非處善巧	-11.7959
問訊	-11.7959
引導	-11.7959
心起時	-11.796
外人難	-11.796
安布	-11.796
此頌顯示	-11.7961
發動	-11.7962
迷苦諦	-11.7963
引論證	-11.7965
復次嗢拕南曰	-11.7968
前五轉識	-11.7969
是等流果	-11.7972
無因而生	-11.7973
大乘阿毘達磨	-11.7974
緣起正理	-11.7978
如文可解	-11.7978
祈願	-11.7979
利樂事	-11.798
劫盜	-11.7983
非謂一切	-11.7986
能成極微	-11.7987
證得涅槃	-11.799
新新	-11.799
所顯得	-11.7992
佛地論說	-11.7993
現法樂	-11.7994
卷第八	-11.7995
回心	-11.7998
開顯	-11.7999
世間離欲	-11.7999
初文有二	-11.8001
種殖	-11.8002
色等五塵	-11.8006
身財	-11.8008
初禪地	-11.8008
所敬	-11.8013
鼻根	-11.802
夜分	-11.802
從師	-11.8024
聖財	-11.8024
無實境	-11.8026
中隨一攝故	-11.8026
感別報	-11.8027
諸識相應	-11.8027
如有人	-11.8028
通達真如	-11.8029
魔王	-11.8029
不並生	-11.8033
苦類智	-11.8034
對法論中	-11.8042
此翻為	-11.8043
五遍行	-11.8044
淨法界	-11.8045
又諸菩薩於	-11.8045
為此難	-11.8046
初二禪	-11.8054
安忍	-11.8054
對法第七	-11.8056
後得智攝	-11.8061
五部	-11.8063
無實作用	-11.807
悲智	-11.8072
自誓	-11.8077
說為空	-11.8081
一時俱	-11.8082
身表業	-11.8091
悟入唯識	-11.8096
作等無間緣	-11.8099
惡口	-11.8099
勤勇	-11.8099
舊種	-11.81
涅槃寂靜	-11.81
變影	-11.8106
論問至	-11.8106
以識為	-11.811
論謂諸菩薩至	-11.8114
何故但說	-11.8116
在下地	-11.8116
文易可知	-11.812
論當知此中至	-11.812
梵志	-11.8122
於一時間	-11.8125
起自心相	-11.8125
大梵天	-11.8126
天眼通	-11.8126
初未至	-11.8127
野	-11.8127
純善	-11.8128
障治	-11.8129
云何得成	-11.8129
魯	-11.8129
虎	-11.8129
疲倦	-11.8131
末那識	-11.8131
如虛空等	-11.8134
閉	-11.8134
兔	-11.8135
恐濫	-11.8138
身念住	-11.8139
衣服飲食	-11.8139
離色界欲	-11.814
射	-11.8141
思為體	-11.8143
禾	-11.8144
君	-11.8144
境行果	-11.8145
亦攝心所	-11.8146
如意足	-11.8146
如何可說	-11.8147
隨一不成	-11.8147
當來世	-11.8149
似外境現	-11.8149
愁憂	-11.8149
俱有根	-11.8151
有根身	-11.8152
徒眾	-11.8152
開為二	-11.8154
體是無	-11.8155
被潤	-11.8156
能正了知	-11.8158
現法後法	-11.8158
謂若有法	-11.8161
復有所餘	-11.8163
煩惱纏	-11.8164
前三句	-11.8165
離垢地	-11.8171
聖諦現觀	-11.8173
如雲	-11.8173
真覺	-11.8174
痴分	-11.8179
和集相	-11.818
廣如彼說	-11.8181
對法藏	-11.8183
承上	-11.8185
所緣縛	-11.8186
牒計	-11.8186
段物	-11.8186
覆蔽	-11.8189
緣縛斷	-11.8193
四諦智	-11.8194
不住涅槃	-11.8194
四大種所造	-11.8195
與彼相違	-11.8195
為他說法	-11.8196
非盡理	-11.82
帶數	-11.82
緣境時	-11.82
卵生	-11.8201
如實通達	-11.8202
能所詮	-11.8204
第八變	-11.8208
卷第九	-11.821
九十四	-11.8214
如菩薩地	-11.8216
唯本有	-11.8219
不一異	-11.8219
入法空	-11.8223
大寶	-11.8224
在纏	-11.8226
所引生故	-11.8235
可意等	-11.8237
互相熏	-11.8238
四十七	-11.8252
有俱有依	-11.8252
當情	-11.8258
法非法	-11.8259
於此位中	-11.8263
影現	-11.8265
根律儀	-11.8268
應須	-11.8274
熏禪	-11.8274
著處	-11.8276
互為因緣	-11.8278
尊勝	-11.8285
成業道	-11.8285
又於此中	-11.8289
別列	-11.8289
變他根	-11.8293
杜	-11.8296
𤗊	-11.8297
淨分依他	-11.8303
洛	-11.8305
]	-11.8305
隨信行	-11.8306
聾	-11.8309
􂎫	-11.8309
金剛喻定現在前時	-11.831
壽暖	-11.831
艱辛	-11.831
塞	-11.8312
凶	-11.8312
前剎那	-11.8312
慢緩	-11.8313
所成立	-11.8313
維摩經	-11.8313
倚	-11.8314
梨耶	-11.8314
臺	-11.8314
走	-11.8314
▁初徵	-11.8315
色究竟天	-11.8316
讚勵	-11.8316
苦集二諦	-11.8317
二釋分三如論	-11.8317
麁惡語	-11.8317
具此三義	-11.8317
奴婢	-11.8318
誓受	-11.8318
生如來家	-11.8322
結勸	-11.8322
五十八說	-11.8328
極難勝	-11.8331
由三因緣	-11.8334
不斷絕	-11.8336
初二靜慮	-11.8338
法空智果	-11.8344
若無第八	-11.8349
身受心法	-11.8351
鈔云	-11.8351
八地巳上菩薩	-11.8352
法無我性	-11.8352
得般涅槃	-11.8354
深妙	-11.8358
及彼心所	-11.8359
有何意	-11.8361
度眾生	-11.8362
變礙	-11.8363
生淨信	-11.8365
所化生	-11.8366
警心	-11.8369
希法	-11.837
出纏	-11.8374
論本云	-11.8382
今助	-11.8384
三十三天	-11.8387
緣上地	-11.8392
身口業	-11.8393
覺天	-11.8401
作佛事	-11.8406
厭生死	-11.8407
略有五	-11.8408
二十劫	-11.8418
未得定	-11.8421
外更無	-11.8422
能依所依	-11.843
癡一分攝	-11.8434
昔所	-11.8435
一切法無我	-11.8436
欲界地中	-11.8452
新種	-11.8457
有心地	-11.8468
母胎	-11.8469
能忍受	-11.8472
無間道時	-11.8479
名士用果	-11.8483
離實德業	-11.8484
止品	-11.8484
俱生我見	-11.8486
獵	-11.849
皮肉	-11.8491
校量	-11.8492
某	-11.8492
英	-11.8492
前後際	-11.8493
彼執非理	-11.8493
干	-11.8493
匱	-11.8493
瑜	-11.8493
奧	-11.8494
體無差別	-11.8494
黠	-11.8495
狼	-11.8495
文中分二初問後荅此初問	-11.8495
醒	-11.8497
曇	-11.8497
來生此間	-11.8498
如愚意	-11.8499
清凉	-11.8499
修止觀	-11.85
徧行別境	-11.8501
鄔波	-11.8501
捨念清淨	-11.8501
闇鈍	-11.8501
名無尋無伺地	-11.8501
反覆	-11.8502
白佛言	-11.8503
前十五心	-11.8503
福德資糧	-11.8503
勸請	-11.8504
力無畏等	-11.8504
掉舉惡作	-11.8505
慰喻	-11.8506
契經等法	-11.8507
作何業	-11.8508
一切菩提分法	-11.8509
空解脫門	-11.851
作如是計	-11.8511
此復二種	-11.8512
有色諸根	-11.8512
勇猛精進	-11.8519
為證不成	-11.8519
鼻舌身	-11.852
此等皆是	-11.8524
於何處	-11.8524
常沒	-11.8524
東方	-11.8529
快淨	-11.853
資粮加行	-11.8533
演曰後彰	-11.8537
論主答云	-11.8538
闇昧	-11.8539
軟中上	-11.8541
四天王	-11.8542
次轉釋	-11.8547
劫數	-11.8547
窮生死	-11.8548
無姓	-11.855
寧非	-11.855
喜樂受	-11.8552
弘誓	-11.8552
詰問	-11.8554
不勞	-11.8558
散意	-11.8564
五十四說	-11.8572
論文云	-11.8575
天授	-11.8579
無想有情	-11.858
於此地中	-11.8581
寂靜解脫	-11.8589
淨佛土	-11.8597
無實我	-11.8602
先所受	-11.8604
緣第八見分	-11.8613
離斷常	-11.8616
對法第四	-11.8616
莊嚴論說	-11.8617
佛果位中	-11.8619
其義云何	-11.8624
揀擇	-11.8629
皆是唯識	-11.8631
一一皆有	-11.8632
曾未	-11.8635
解脫一切障	-11.8636
為令眾生	-11.8636
永捨	-11.8648
等起善	-11.8652
可愛境	-11.8669
水界	-11.8672
f	-11.8674
c	-11.8674
堅牢	-11.8676
損他	-11.8677
二答其數	-11.8677
盡智無生智	-11.8679
帶彼相起	-11.8681
奘	-11.8681
㲉	-11.8682
雷	-11.8683
持對治	-11.8684
警覺	-11.8684
舟	-11.8685
非有邊非無邊	-11.8685
鑽	-11.8686
順後句	-11.8688
縱逸	-11.8689
正念正知	-11.8689
起如是見立如是論	-11.8691
離間語	-11.8691
基撰	-11.8693
法處收	-11.8693
衰退	-11.8693
未自在位	-11.8693
於生死中	-11.8694
賴耶識	-11.8694
債	-11.8694
順決擇	-11.8694
最極清淨	-11.8695
後別解釋	-11.8695
因中有果	-11.8696
須彌	-11.8697
和尚	-11.8697
=	-11.8697
辨才	-11.8697
於諸諦理	-11.8699
飄	-11.87
有兩義	-11.87
為定量	-11.87
殊妙	-11.8706
最初發心	-11.8707
而為上首	-11.8711
意成身	-11.8714
如實義者	-11.8716
俱有所依	-11.8716
文分有	-11.8719
染污意識	-11.8722
周徧	-11.8725
我及世間	-11.873
鬼趣	-11.8734
法性土	-11.8734
諸大乘經	-11.8735
五十六云	-11.8737
順生受	-11.874
支提	-11.8742
五十五云	-11.8743
第二師說	-11.8744
不定姓	-11.8756
云何無義	-11.876
唯是善性	-11.8763
必當	-11.8764
緣十八界	-11.8764
僻執	-11.8766
擊發	-11.8766
鏡面	-11.877
造惡業	-11.8776
明盛	-11.8781
無力能	-11.8782
通內外	-11.8787
能緣所緣	-11.879
自下第五	-11.8799
慼行	-11.88
女身	-11.8807
天子	-11.8815
生厭離	-11.8824
初略釋	-11.8825
第四第五	-11.8828
涅槃經中	-11.8832
恒續	-11.8833
轉齊	-11.8835
念念滅	-11.8837
兩宗	-11.8841
㝡	-11.8841
文分三叚一	-11.8846
輭	-11.8862
魅	-11.8864
規矩	-11.8867
疫	-11.8869
未圓	-11.8869
此明何義	-11.887
非即非離	-11.8871
非空非有	-11.8872
分八如論	-11.8872
須臾	-11.8874
側	-11.8874
齊何	-11.8875
賣	-11.8876
摩訶衍	-11.8877
兄	-11.8877
叫	-11.8878
乖返	-11.8878
腰	-11.8878
怠	-11.8879
春	-11.8879
怡	-11.888
陶	-11.888
末底	-11.888
能造四大	-11.888
觀所緣緣論	-11.888
躍	-11.8881
闢	-11.8881
馬鳴	-11.8881
專注一境	-11.8882
泉	-11.8882
藍	-11.8882
金剛道後	-11.8883
大乘義章卷第	-11.8883
讚美	-11.8884
從此已後	-11.8884
陸	-11.8884
梵眾天	-11.8884
聰	-11.8884
誤犯	-11.8885
集滅道	-11.8886
瘡	-11.8886
能治所治	-11.8887
演曰三彰	-11.8887
思慕	-11.8888
此第一解	-11.8888
不可為例	-11.8891
五位百法	-11.8891
有色根身	-11.8892
任運而轉	-11.8892
歸命	-11.8893
所獲	-11.8895
潤生愛	-11.8898
前後相望	-11.8902
緣安立諦	-11.8902
具足成就	-11.8902
釋妨	-11.8918
善惡趣	-11.8919
第二廣解	-11.8928
四智品	-11.8937
貧苦	-11.8939
諸聖教中	-11.8939
如樞要	-11.8941
覺寤	-11.8942
出現於世	-11.8945
水火風	-11.8949
十方佛	-11.895
依第四禪	-11.8951
如眼等識	-11.8953
以為體性	-11.8953
財富	-11.8954
了相勝解	-11.8956
顯揚論云	-11.8966
廣大甚深	-11.8966
四門分別	-11.8968
熟變	-11.897
分位假	-11.8971
八正道	-11.8972
能緣慮	-11.8979
不親緣	-11.8979
唯欲界繫	-11.8982
假非實	-11.8982
演曰第三	-11.8996
髮等	-11.8997
不藉	-11.8997
五十三說	-11.9001
六神通	-11.9005
之所攝受	-11.9008
不敢	-11.9008
乃至七地	-11.9014
大罪	-11.9017
第八不緣	-11.9018
第十八	-11.902
說為假	-11.9021
是故說彼	-11.9024
生人中	-11.9033
問詞	-11.9035
既殊	-11.9036
1	-11.9037
供養如來	-11.9039
深生信解	-11.9047
善心起時	-11.9056
問如是五事	-11.9058
疎所緣	-11.9063
香味觸三	-11.9065
四答所以	-11.9067
肩	-11.907
管	-11.9071
升	-11.9071
審察	-11.9071
憤恚	-11.9073
上分結	-11.9073
通見修所斷	-11.9074
如地經說	-11.9074
非異非不異	-11.9074
其理極成	-11.9074
欣上	-11.9075
民	-11.9076
懶惰	-11.9076
百由旬	-11.9077
如有頌言	-11.9077
顛	-11.9078
工巧業處	-11.9078
懇	-11.9079
題目	-11.9079
爪	-11.9079
的	-11.908
聞所成慧	-11.908
良醫	-11.908
憎嫉	-11.908
有何相	-11.9081
彼說非理	-11.9081
合掌	-11.9083
定共戒	-11.9083
一字所成名	-11.9083
為對治此	-11.9084
厭壞	-11.9085
愛取二支	-11.9085
醫方	-11.9086
不受後有	-11.9087
八種識	-11.909
貪瞋慢	-11.9092
略有十種	-11.9099
盡無生	-11.9104
大有性	-11.9105
開悟	-11.9105
苦法忍	-11.9105
今依大乘	-11.9112
偏舉	-11.9114
憂悔	-11.9115
能有所	-11.9115
誠證	-11.912
貪憂	-11.9121
導引	-11.9121
超度	-11.9122
四惑相應	-11.9124
如此如此	-11.9131
善慧地	-11.9131
基測	-11.9132
離二邊	-11.9134
種生現行	-11.9137
如本地分	-11.9138
八勝處	-11.9138
初正釋頌文	-11.9142
離實等	-11.9146
解脫堅固	-11.9147
貪信等	-11.9153
此頌中	-11.9154
更須	-11.9157
申難	-11.9169
謂由此故	-11.9181
所恃	-11.9181
二空真如	-11.9181
貪痴	-11.9191
所執實我	-11.9191
專精	-11.9194
宿業	-11.9198
開許	-11.9199
一切煩惱皆	-11.9199
極寂靜	-11.9201
散意識	-11.9209
引聖教	-11.9211
十方諸佛	-11.9218
剎帝利等	-11.9218
釋頌文	-11.9219
邪願	-11.9224
二个	-11.9225
二釋分四	-11.9226
福利	-11.9227
故言一分	-11.9228
同依一	-11.9229
四無量心	-11.924
慧波羅蜜多	-11.9243
揀異	-11.9243
般若經	-11.9243
王子	-11.9245
諸雜染法	-11.9248
准瑜伽	-11.9253
文分為二初惣	-11.9263
囂動	-11.9266
軸	-11.9267
於實德能	-11.9268
槃	-11.9269
撰	-11.927
脇	-11.9271
汎爾	-11.9272
拔除	-11.9272
見苦所斷	-11.9272
轉正法輪	-11.9273
如本母釋	-11.9273
素怛纜	-11.9274
籌度	-11.9274
於母胎中	-11.9274
落謝	-11.9274
必帶	-11.9274
次釋後結	-11.9275
黨	-11.9275
裂	-11.9275
遙	-11.9275
瘂	-11.9276
覩史多天	-11.9276
徧計執	-11.9278
於理為勝	-11.9278
弓	-11.9279
捉	-11.9279
煩惱所知二障	-11.9279
引教證	-11.928
霧	-11.9281
贅	-11.9281
等持等至	-11.9282
摩羅	-11.9285
同在一處	-11.9287
名上士	-11.9287
日出	-11.9288
度量	-11.9288
辨之麁爾	-11.9289
酬因	-11.9289
散壞	-11.929
宿因	-11.929
力勵	-11.9298
去來世	-11.93
豈不相違	-11.9305
中容境	-11.9305
從他生	-11.9305
難測	-11.9309
大勢	-11.9313
詐現	-11.9313
王宮	-11.9314
猶如虛空	-11.9315
三位無	-11.9316
憙樂	-11.9316
薰習	-11.932
喜悅	-11.9322
欲界修惑	-11.9323
列其名	-11.9326
演曰五釋	-11.9329
九次第定	-11.933
希奇法	-11.9336
前中先	-11.9344
證大菩提	-11.9346
復分為二	-11.9347
來世	-11.9348
現般	-11.9357
七種作意	-11.9359
下地煩惱	-11.9361
隨心轉	-11.9362
現前供養	-11.937
十二句	-11.9372
得阿羅漢果	-11.9376
外門轉	-11.9378
所施物	-11.9383
邪思惟	-11.9389
串	-11.939
所對治法	-11.939
雙運	-11.9392
毛孔	-11.9409
與彼同	-11.9412
唯有內識	-11.9418
謂此真如	-11.942
通二斷	-11.9421
法花經	-11.9424
能治道	-11.9428
亂體	-11.9428
皆是無常	-11.9441
祈	-11.9445
所聞法	-11.9448
問若爾何故	-11.9456
出胎	-11.9459
第六卷	-11.9463
福不動行	-11.9466
生般	-11.9467
尤	-11.9467
裏	-11.9468
更無異	-11.9471
諠	-11.9474
現神通	-11.9474
素呾纜	-11.9476
甲	-11.9476
史	-11.9476
贍部洲	-11.9476
頑	-11.9477
括	-11.9477
屈申	-11.9477
執色為我	-11.9478
是名有犯有所違越	-11.9479
尊貴	-11.9479
串習力	-11.9479
無常苦空無我	-11.948
先業所引	-11.948
是實物有	-11.948
迴向無上菩提	-11.948
如龜毛等	-11.948
籌量	-11.9481
宿住隨念	-11.9481
毘鉢舍那品	-11.9482
戰	-11.9483
肘	-11.9483
羯羅藍	-11.9483
此中有頌	-11.9484
心心數法	-11.9486
瓦	-11.9486
思量名意	-11.9487
有分別影像	-11.9488
六七八識	-11.9489
十地位中	-11.9489
浮塵根	-11.9491
住時決定	-11.9492
作者受者	-11.9494
近分定	-11.9494
除惱	-11.9494
中邊云	-11.9497
內等淨	-11.9498
續善根	-11.95
現起分位	-11.9501
二空所顯真如	-11.9503
俱舍頌云	-11.9504
第七地中	-11.9505
審觀察	-11.9507
勝解行住	-11.9508
而為體性	-11.9511
二取習氣	-11.9511
供養三寶	-11.9514
所顯真理	-11.9518
極略色	-11.9522
入無心定	-11.9523
無見無對	-11.9523
初中分三一	-11.9524
由二種相	-11.9524
虗空無為	-11.9525
永拔	-11.9528
馬勝	-11.9529
寬廣	-11.9532
前二師	-11.9533
顯揚第十	-11.9533
摩尼	-11.9536
此即顯示	-11.954
三千世界	-11.9545
通有無漏	-11.9548
無心睡眠	-11.955
招集	-11.9555
顯現似	-11.9559
總斥	-11.9565
於諸境界	-11.9566
十迴向	-11.9569
第三門中	-11.9569
根本無分別智	-11.957
色心等法	-11.9571
起增上慢	-11.9578
淨禪	-11.958
上來第一	-11.9581
得等流果	-11.9584
威德定	-11.9585
受想滅	-11.9589
僻	-11.9601
之所依處	-11.9602
色是我	-11.9604
亦無過失	-11.9607
萬億	-11.961
答初問	-11.9618
不損惱	-11.9619
▁初破	-11.9622
能熏種	-11.9629
等無間意	-11.9632
更無別體	-11.9638
比量相違	-11.9639
為能相	-11.9648
慈尊	-11.9649
短長	-11.9651
前已說	-11.9665
下二界	-11.9667
引自果	-11.9671
二別釋分四	-11.9671
初之一	-11.9676
朗	-11.9678
法無礙解	-11.9679
囑	-11.968
料揀	-11.9681
逼害	-11.9682
恐繁不	-11.9683
安受苦忍	-11.9683
髻	-11.9683
休	-11.9683
瀑流	-11.9683
試	-11.9685
仍未	-11.9685
左右	-11.9685
論云何名為至	-11.9685
演曰後釋之中	-11.9685
僕	-11.9686
嬾	-11.9686
若因若果	-11.9687
起如是見	-11.9687
能攝持	-11.9687
諸根互用	-11.9687
見道修道	-11.9687
忌	-11.9689
繼	-11.9689
昏沉	-11.969
載	-11.9691
農	-11.9692
故無有失	-11.9693
章中具廣分別	-11.9693
車乘	-11.9693
有見無見	-11.9695
𨳝	-11.9695
與定相應	-11.9695
四無記中	-11.9695
養育	-11.9696
正念正定	-11.9696
二十隨煩惱	-11.9699
分十中第	-11.9704
由四因緣	-11.9706
皆是假有	-11.9708
堅密	-11.9708
顯揚十六	-11.9712
三个	-11.9715
十一支	-11.972
計有我	-11.972
▁初正明	-11.9723
梵眾	-11.9726
缺減	-11.9728
滅受想	-11.9741
六處支	-11.9743
明得定	-11.9744
本寂	-11.9747
戲樂	-11.9749
鬼神	-11.975
眾寶	-11.9756
所得轉依	-11.976
釋妨難	-11.9762
變易死	-11.9762
緣此境	-11.9768
燈焰	-11.9769
無文說	-11.9773
作用道理	-11.9773
有五頌	-11.9779
宿命智	-11.9782
對礙	-11.9783
不捨離	-11.9784
隨義分別	-11.9789
必不俱	-11.979
邪勝解	-11.9791
初句標	-11.9792
士夫用	-11.9795
邪慢	-11.9796
障礙依處	-11.9796
所犯罪	-11.9809
資粮加行位	-11.9824
一切波羅蜜多	-11.9825
章句	-11.9826
染淨因果	-11.9826
永寂	-11.9829
無間解脫道	-11.9831
大願力	-11.9847
一向記	-11.9857
得上定	-11.9859
且就	-11.986
汝何所欲	-11.9862
釋其名	-11.9863
皆得自在	-11.9869
剎那生滅	-11.988
僮僕	-11.989
有為功德	-11.989
紙	-11.989
㝵	-11.9891
阿修羅	-11.9892
初果人	-11.9894
赴	-11.9894
攝相歸性	-11.9895
聊簡	-11.9895
非斷非常	-11.9895
前六地	-11.9896
幢	-11.9896
雜彼煩惱	-11.9897
猪	-11.9897
竹	-11.9897
實等性	-11.9899
故思造業	-11.99
七地已前	-11.99
扙	-11.9901
村邑	-11.9901
欲等五	-11.9902
開演	-11.9902
憐	-11.9902
輒	-11.9903
政	-11.9903
通而論之	-11.9903
未知欲知根	-11.9904
不越因量	-11.9904
貞	-11.9904
死後斷滅	-11.9904
名有所依	-11.9904
說斷二愚	-11.9907
能引義利	-11.9907
各別內證	-11.9908
二十三諦	-11.9908
後解為勝	-11.9908
十善業道	-11.9909
魔怨	-11.991
論主破云	-11.9911
緣一切境	-11.9911
苣勝	-11.9911
湛然	-11.9912
卷第一	-11.9912
必藉	-11.9912
從定起	-11.9914
仁王經	-11.9914
猶存	-11.9915
辨其相	-11.9916
永害隨眠	-11.9916
俱生身邊二見	-11.9918
互為客	-11.9919
通見修斷	-11.9921
三徵問	-11.9926
大梵王	-11.9928
帶數釋	-11.9934
福非福不動	-11.9936
天眼耳通	-11.9938
供事	-11.9943
凡愚	-11.9948
難詞	-11.995
堅持	-11.9956
改易	-11.9957
▁次別釋	-11.9962
義門差別	-11.9963
敢	-11.9964
兩个	-11.9965
無慙	-11.9969
大那落迦	-11.997
無著無礙	-11.9975
具足安住	-11.9977
對法等說	-11.9979
三受俱	-11.9982
出家眾	-11.9987
塗染	-11.999
用功	-11.9997
發正願	-11.9997
隣近釋	-11.9999
恃巳	-12
猶未盡	-12.0007
先徵後釋	-12.0009
防惡	-12.0009
和會	-12.0012
制戒	-12.0012
縛所縛	-12.0017
次申	-12.0022
前六轉識	-12.0023
種現俱	-12.0024
令諸眾生	-12.0025
通凡聖	-12.0034
今此論中	-12.0042
內識所變	-12.0043
有為之法	-12.005
明暗	-12.0051
師資	-12.0056
先摽後釋	-12.0063
睡眠悶絕	-12.0067
無不皆	-12.0067
法爾種	-12.0071
永不復	-12.0076
天龍	-12.0086
假實門	-12.0092
?」	-12.0095
府	-12.0101
辯其相	-12.0101
逢緣	-12.0102
門有一問答	-12.0106
毘那耶	-12.0106
罔	-12.0107
躭	-12.0107
分之為三	-12.0108
根身器界	-12.0112
秋	-12.0113
蓋乃	-12.0113
孫	-12.0113
祠	-12.0114
周圓	-12.0114
楚	-12.0115
舍利子	-12.0116
銀	-12.0116
擲	-12.0117
戍	-12.0117
胤	-12.0117
竊	-12.0117
不造新業	-12.0117
菓	-12.0118
船	-12.0118
哲	-12.0119
正實趣生	-12.0119
不相捨離	-12.012
無緣義	-12.012
受具足戒	-12.012
三十七菩提分法	-12.012
各為一	-12.0121
徐	-12.0121
洞	-12.0122
棄背	-12.0123
就初段中	-12.0124
從彼沒	-12.0125
令心高舉	-12.0125
跋	-12.0125
有所堪能	-12.0125
獼猴	-12.0125
生住異滅	-12.0127
難可了知	-12.0127
鎖	-12.0127
心外有法	-12.0128
太狹	-12.0129
與憂相應	-12.0129
邪婬	-12.013
燒惱	-12.0131
念念生滅	-12.0132
掉動	-12.0134
下中上品	-12.0135
有事無事	-12.0135
眼等諸根	-12.0139
而為說法	-12.0142
觸生受	-12.0147
獨行無明	-12.0147
之所隨逐	-12.0148
甚深廣大	-12.0149
到究竟地	-12.0149
有實體用	-12.0158
是故偈言	-12.016
水輪	-12.016
准此文	-12.016
無行般	-12.0161
得緣上	-12.0162
金輪	-12.0162
五十九云	-12.0164
聖教我法	-12.0165
順苦受	-12.0165
與此不同	-12.0168
加功	-12.0169
生盲	-12.0172
勝鬘經云	-12.0173
類此應知	-12.0177
能證涅槃	-12.018
利樂他	-12.018
氣分	-12.0182
自心變	-12.0183
大義曰	-12.0184
數數修習	-12.0185
各各不同	-12.0186
正現在前	-12.019
或有一類	-12.0194
唯分別起	-12.0201
發業潤生	-12.0202
三種意生身	-12.0202
相無自性性	-12.0207
復何所	-12.0209
空不空	-12.021
心行滅	-12.0215
無滯	-12.0216
幾支	-12.0218
執為實我	-12.0225
借識	-12.0227
識等五果種子	-12.0228
隨順依處	-12.0233
堅著	-12.0239
能辦	-12.0239
百歲	-12.0273
十二緣生	-12.0273
在因位	-12.0279
識變現	-12.0287
揔標	-12.0293
釋經文	-12.0307
種上立	-12.0321
儉	-12.0323
躁	-12.0324
初問後答	-12.0327
徧諸染心	-12.0328
谷響	-12.033
臂	-12.0331
三摩呬多	-12.0334
自識所變	-12.0334
僧祗	-12.0336
集起名心	-12.0336
新熏種	-12.0337
若復說言	-12.0337
初修業者	-12.0337
假合生	-12.0339
舞	-12.034
互作等無間緣	-12.034
若諸菩薩安住菩薩淨戒	-12.034
以立其名	-12.0341
讚嘆	-12.0342
踰	-12.0342
氏	-12.0343
逮	-12.0343
道場	-12.0344
嗣	-12.0344
他化自在天	-12.0344
不相雜亂	-12.0344
六十劫	-12.0345
像似正法	-12.0345
八十一品	-12.0345
泛	-12.0345
心所與心	-12.0346
諮	-12.0346
苾芻尼	-12.0346
於中別分	-12.0346
昧劣	-12.0347
須彌山	-12.0347
眼等六根	-12.0347
無色繫	-12.0348
低	-12.0348
獨影唯從見	-12.0348
屍骸	-12.0348
朋友	-12.0349
諸有智者	-12.0349
聚集顯現	-12.0349
兄弟	-12.0349
稱揚	-12.0349
彼既不爾	-12.0349
半月	-12.035
餘文可解	-12.0351
自在依止義	-12.0352
曉了	-12.0353
俱時而轉	-12.0353
淚	-12.0353
拆	-12.0354
崇重	-12.0354
釋有兩義	-12.0354
有實作用	-12.0354
壅	-12.0355
敬重	-12.0356
斷緣縛	-12.0361
脩羅	-12.0362
所造作	-12.0362
隨起言說	-12.0362
執為最勝	-12.0366
大智度論	-12.0366
攝取眾生	-12.0366
不應正理	-12.0371
運轉作意	-12.0371
演曰後荅之中	-12.0384
名句字	-12.0384
無漏定願	-12.039
惑亂	-12.0391
更互為緣	-12.0393
可愛事	-12.0396
三別釋分三	-12.0397
三聚戒	-12.0398
三乘聖道	-12.0402
煞生	-12.0404
等分行	-12.0411
所發業	-12.0416
初能變識	-12.0429
偏增	-12.0432
諦聽	-12.0444
種引種	-12.0455
舉頌答	-12.0463
上來有二	-12.0475
別有自體	-12.0485
次別解	-12.0495
三結示	-12.0523
殖	-12.0524
我執習氣	-12.0537
答前問	-12.054
種望現	-12.0541
柔	-12.0542
次正釋	-12.0545
明善知世間	-12.0546
被甲	-12.055
牒救	-12.0555
長行廣解	-12.0556
我頂禮	-12.0556
憍逸	-12.0557
分九如論	-12.0557
說假部	-12.0558
意解思惟	-12.0558
迦旃延	-12.0558
文分為二一辯	-12.0559
莊	-12.056
萎	-12.056
言總意別	-12.0561
眼耳身三識	-12.0562
生住成得	-12.0562
我愛執藏	-12.0562
酥	-12.0563
耻	-12.0563
院	-12.0564
剌	-12.0565
瑩	-12.0565
多識俱轉	-12.0566
旦	-12.0566
顯揚聖教論	-12.0567
所調伏界	-12.0567
匪	-12.0567
法忍法智	-12.0568
䨱	-12.0568
如先所說	-12.0571
調適	-12.0571
於有有具	-12.0572
受持讀誦	-12.0572
鼠	-12.0573
闍梨	-12.0573
心善解脫	-12.0574
尊卑	-12.0574
石女兒	-12.0575
身業語業	-12.0576
親近善士	-12.0576
維	-12.0576
生死輪迴	-12.0576
脩所斷	-12.0577
不生喜足	-12.0578
此云何然	-12.0581
假有實無	-12.0582
禪波羅蜜	-12.0583
置記	-12.0588
念為增上	-12.059
色根所取	-12.059
發無表	-12.0594
聲名句文	-12.0595
佛滅後	-12.0595
成熟佛法	-12.0599
生空智果	-12.0599
分段變易	-12.0603
第八現行識	-12.0605
入真觀	-12.0606
名自性受	-12.0619
三種佛身	-12.0624
根鈍	-12.0625
六觸處	-12.0625
希願	-12.0626
次結示	-12.0628
入於涅槃	-12.0638
經律	-12.0641
尋伺二法	-12.0643
五淨居天	-12.0644
▁次師	-12.0646
不還果人	-12.0647
第四門中	-12.0648
瑜伽第五十	-12.0665
空界色	-12.069
所逼	-12.0699
名之差別	-12.0703
妙音	-12.0709
蓮花	-12.0722
淨行所緣	-12.0735
太寬	-12.0737
畫師	-12.0741
罪福	-12.0744
而為其	-12.0779
共中共	-12.0781
才	-12.0787
似帶質	-12.0787
偷	-12.0788
膩	-12.079
牢	-12.0791
緣他地	-12.0791
燭	-12.0792
不能親緣	-12.0792
纖	-12.0792
是實非假	-12.0793
伐	-12.0794
詭	-12.0794
現觀智諦現觀	-12.0794
叚	-12.0794
籌	-12.0795
略而不論	-12.0797
如夢所見	-12.0797
紹	-12.0797
摩醯首羅	-12.0797
訪	-12.0799
忿怒	-12.08
為欲斷除	-12.0801
不執著相	-12.0802
十八不共法	-12.0803
諷誦	-12.0803
幸	-12.0803
慇懃	-12.0803
苗	-12.0804
不解我意	-12.0804
宋	-12.0804
無尋唯伺地	-12.0805
卜	-12.0806
所以然者	-12.0807
防守	-12.0807
疲厭	-12.0808
二別釋分四十四中第	-12.0808
焚燒	-12.0808
勤策	-12.0808
不能明記	-12.0808
封	-12.0809
親附	-12.0814
四十四智	-12.0815
是名為犯眾多犯	-12.0817
名中士	-12.0818
故有別也	-12.0818
尸羅律儀	-12.0821
初中復二先	-12.0823
遠離二邊	-12.0825
門文分三段	-12.0826
都無所得	-12.0834
略辨如是	-12.0834
為欲證得	-12.0835
靜慮波羅蜜多	-12.0835
二十部	-12.0837
緣有事	-12.0841
變化土	-12.0843
初一頌半	-12.0845
月藏	-12.0846
覆護	-12.0855
有識身	-12.0856
不定性人	-12.0857
如來十力	-12.0858
聖慧眼	-12.0864
徵列	-12.0878
擾惱	-12.0885
先釋後結	-12.0885
金剛般若	-12.089
伏難云	-12.0895
領觸	-12.0913
離縛斷	-12.0914
數論師	-12.0921
對法第九	-12.0939
從果為名	-12.094
五十三云	-12.0942
初略明	-12.0974
二別釋分三	-12.0978
大般若經	-12.0979
本識所變	-12.098
二初問後荅	-12.0991
堅實	-12.1001
寶藏	-12.1007
肉團	-12.1024
屍	-12.1025
火所燒	-12.1027
相似相對法	-12.1028
焚	-12.103
隨所樂	-12.103
殷	-12.1031
悞犯	-12.1031
獲大	-12.1031
尾	-12.1032
皷	-12.1032
不執為外	-12.1032
碎	-12.1034
梁攝論	-12.1034
他勝處法	-12.1034
共相收攝	-12.1034
欺誑	-12.1034
令法久住	-12.1035
汁	-12.1036
一切法皆無自性	-12.1036
驅役	-12.1036
二禪已上	-12.1036
父母妻子	-12.1036
賓	-12.1036
皆准此知	-12.1036
遞	-12.1036
買	-12.1037
偏注	-12.1037
隨緣何境	-12.1037
何故此滅復名	-12.1038
搆畫	-12.1038
前滅後生	-12.1038
溺	-12.1038
纏及隨眠	-12.1039
矯詐	-12.1039
合響清涼	-12.1039
心淨為性	-12.1039
故不為例	-12.1039
練磨心	-12.104
淡	-12.1041
剎利	-12.1041
和合似一	-12.1041
何爽	-12.1041
觸緣受	-12.1041
性境不隨心	-12.1042
漸減	-12.1042
初地初心	-12.1042
悞	-12.1042
由斯理趣	-12.1042
太子	-12.1043
憚	-12.1043
燃	-12.1043
理教相違	-12.1045
不如正理	-12.1045
故雜心云	-12.1045
不堅住故	-12.1046
存活	-12.1046
稼穡	-12.1046
有尋等地	-12.1047
聲上屈曲	-12.1048
煗頂	-12.1049
總報主	-12.105
狂亂	-12.1052
靜息	-12.1056
唯是無覆無記	-12.1057
次辨其相	-12.1059
彼作是思	-12.1059
未能伏滅	-12.1062
貪瞋痴	-12.1063
便能證得	-12.1063
見膿河	-12.1064
譬如虛空	-12.1065
短命	-12.1069
都盡	-12.107
領受依處	-12.1072
今此頌中	-12.1072
未見文	-12.1073
受法樂	-12.1076
得作佛	-12.1077
在家品	-12.1078
且如眼識	-12.1083
五十七云	-12.1084
貪瞋癡慢	-12.1086
大莊嚴論	-12.1086
無餘依地	-12.1087
此下第二	-12.1088
緣餘境	-12.1089
不善有覆	-12.1096
獨行不共	-12.1096
愛我故	-12.1096
瑜伽第九	-12.1097
與無明俱	-12.1102
生緣老死	-12.1102
諸煩惱纏	-12.1103
此句明	-12.1107
而生起故	-12.1109
福業事	-12.1112
寶珠	-12.1112
善修治	-12.1118
瑜伽六十	-12.1121
十个	-12.1121
八大隨	-12.1127
類亦同	-12.1128
復有六種	-12.1129
作是思	-12.1168
名多名身	-12.1171
互為因果	-12.1174
能牽	-12.118
──	-12.119
恒行不共	-12.1197
列名分四如論	-12.1199
見道所斷煩惱	-12.1215
退弱	-12.1216
如解深密	-12.1217
十色處	-12.123
入唯識觀	-12.1234
佛剎	-12.125
無爽	-12.1257
澄	-12.1259
𦟛	-12.1261
窮生死際	-12.1266
依多分說	-12.1271
演秘	-12.1271
𢝰	-12.1271
乱	-12.1272
如有問言	-12.1272
0	-12.1273
捕	-12.1273
正語業命	-12.1273
所作成辨	-12.1274
羣	-12.1275
恭	-12.1275
堅猛	-12.1275
如實遍智	-12.1275
攝法不盡	-12.1276
灑	-12.1276
修觀行者	-12.1277
咀	-12.1278
獎	-12.1278
故次說言	-12.1279
愁歎	-12.1281
矯誑	-12.1281
文分為二初辯	-12.1281
勒	-12.1281
寢	-12.1281
童子	-12.1282
攝為自體	-12.1282
銷	-12.1283
喜貪俱行愛	-12.1283
藝	-12.1283
灌頂	-12.1284
同分彼同分	-12.1285
觸等亦如是	-12.1285
五無間業	-12.1285
雹	-12.1285
鹽	-12.1286
自餘一切	-12.1286
按瑜伽論	-12.1287
空一顯色	-12.1288
我生已盡	-12.1289
貪欲瞋恚	-12.129
親近善友	-12.1291
什物	-12.1291
殿	-12.1291
苦樂二受	-12.1292
慈悲喜捨	-12.1292
心外無法	-12.1295
名下士	-12.1297
假智詮	-12.1297
是識性故	-12.1298
王臣	-12.1298
世閒	-12.1304
遲鈍	-12.1306
譬如有人	-12.1306
轉名為有	-12.1306
而證得故	-12.1309
心外實有	-12.1309
無涅槃法	-12.1309
種子之所隨逐	-12.1312
雙印	-12.1313
能詮表	-12.1315
表義名言	-12.1315
稍難	-12.1316
者得罪	-12.1316
士用依處	-12.1317
第三果人	-12.132
慧為上首	-12.132
變似我法	-12.1323
成壞劫	-12.1324
清淨佛土	-12.1325
不共中共	-12.1326
勞慮	-12.1327
文復有二	-12.1329
為有為無	-12.1332
清白	-12.1333
能引無義	-12.1353
身語表	-12.1354
御眾	-12.1361
就他宗	-12.1369
唯識相性	-12.137
令他信	-12.1397
百九十	-12.14
施等波羅蜜多	-12.1417
爾所時	-12.1429
墮地獄	-12.1429
上所說義	-12.1433
測師	-12.1436
資長	-12.1442
風災	-12.1454
追憶	-12.1457
文可解	-12.1476
五受俱	-12.1477
釋論師	-12.1477
聲香味觸	-12.1502
十七卷	-12.1511
大乘百法明門論	-12.1513
悔惱	-12.1514
正懃	-12.1515
浮塵	-12.152
不施與	-12.152
應正道理	-12.1523
誠證非一	-12.1524
順前句	-12.1526
賞	-12.1527
幻師	-12.1527
療	-12.1527
善及無記	-12.1529
筞	-12.1529
荷	-12.1529
欻	-12.1529
良藥	-12.1529
誹撥	-12.153
筭	-12.153
冀	-12.1531
謂依止靜慮於	-12.1531
片	-12.1531
燸頂	-12.1531
枝葉	-12.1531
成唯識論述記卷第	-12.1531
阿羅漢位捨	-12.1532
牢固	-12.1532
音義清涼	-12.1534
猴	-12.1535
五停心觀	-12.1535
絃	-12.1535
無分別後智	-12.1536
占	-12.1536
鬪	-12.1536
釋第一句	-12.1537
妙行惡行	-12.1538
圓備	-12.1538
死後無想	-12.1538
眼耳二識	-12.154
蚊	-12.154
受持禁戒	-12.154
苾芻律儀	-12.1543
自類相生	-12.1544
非有似有	-12.1545
此意說言	-12.1548
自類俱起	-12.1552
伎樂	-12.1553
而建立故	-12.1554
聞所成地	-12.1555
無餘永斷	-12.1557
身在下地	-12.1558
所拘	-12.1558
令其增長	-12.1565
質直	-12.1567
凝然	-12.1568
能轉道	-12.1568
變起相分	-12.1571
化導	-12.1571
勤修加行	-12.1572
㝡勝	-12.1572
度脫	-12.1573
機宜	-12.1574
破正量部	-12.1575
△	-12.1576
受俱門	-12.1586
計我我所	-12.1594
所知鄣	-12.1595
利有情事	-12.1598
文分為二先摽後	-12.1606
護他心	-12.1622
為他宣說	-12.1624
名法無礙	-12.1654
宗旨	-12.1659
領順	-12.1702
兩番	-12.1706
十二年	-12.1716
一時頓	-12.1719
衰老	-12.1721
餓	-12.1725
難陀師	-12.1733
轉識攝故	-12.1754
超中二果	-12.1756
繫不繫	-12.1763
初中又二一	-12.1774
疊	-12.1776
幼	-12.1776
眉	-12.1777
成唯識論疏義演卷第	-12.1777
賜	-12.1778
阿拏	-12.1778
慇重	-12.1778
津液	-12.1779
蟻	-12.178
茶	-12.178
謂所知障中俱生一分	-12.1781
予	-12.1781
耐怨害忍	-12.1781
價	-12.1781
刻	-12.1782
佐	-12.1782
臍	-12.1782
十無學法	-12.1782
閱	-12.1783
泥團	-12.1783
立如是論	-12.1783
如何乃言	-12.1784
亦非真愛著處	-12.1784
獨處空閑	-12.1784
乖諍	-12.1785
未知當知	-12.1785
震	-12.1785
設爾何失	-12.1786
隨他相說	-12.1786
長短方圓	-12.1786
色等想事	-12.1786
成等正覺	-12.1786
經爾所時	-12.1786
貧賤	-12.1787
素咀纜	-12.1787
反詰	-12.1787
蘭	-12.1787
振	-12.1788
確	-12.1788
殞	-12.1788
巖	-12.1789
牆	-12.1789
困	-12.1789
靡	-12.1789
整	-12.1789
真俗二諦	-12.179
具此四義	-12.179
相變異分別	-12.179
離瞋無別	-12.1791
奇特	-12.1791
毀呰	-12.1792
略有八種	-12.1792
有間轉	-12.1793
由熏習力	-12.1793
非有色非無色	-12.1794
惓	-12.1795
名義無礙	-12.1795
塊	-12.1796
饑	-12.1796
有餘依涅槃	-12.1796
守根門	-12.1797
眼耳鼻舌身	-12.1798
二釋分五如論	-12.1799
此解為勝	-12.1799
總而言之	-12.1799
無間殷重	-12.1801
定中聞聲	-12.1801
譏毀	-12.1802
形狀	-12.1803
是犯染污起	-12.1807
正與此同	-12.1808
慳嫉	-12.1812
比丘尼	-12.1812
於其中間	-12.1813
勝定果色	-12.1819
是染違	-12.1821
從自種子	-12.1821
能熏所熏	-12.1825
有支習氣	-12.1832
而得起故	-12.1833
憎惡	-12.1837
下三天	-12.1837
四智菩提	-12.1837
故下論云	-12.1838
天神	-12.1849
本事分	-12.1852
五位無心	-12.1861
如病等	-12.1861
訓詞	-12.19
客塵煩惱	-12.1927
如量智	-12.1933
福非福	-12.1965
┬	-12.197
耽嗜	-12.1975
卷末	-12.2005
□□□□□	-12.2008
堅守	-12.2014
頂禮	-12.2028
㧾	-12.2037
搏	-12.2039
私	-12.2041
筏	-12.2041
攝異門分	-12.2042
髮蠅等	-12.2042
剛	-12.2043
自內所證	-12.2043
機務	-12.2045
弗	-12.2046
崇重暴惡	-12.2046
若內若外	-12.2047
諫誨	-12.2048
呾	-12.2048
宇	-12.2048
蓮	-12.2049
旃	-12.2049
津	-12.205
奘師	-12.205
亦有邊亦無邊	-12.205
大牟尼名法	-12.205
馳散	-12.205
無垢稱經	-12.205
忠信	-12.2051
識與名色	-12.2051
毗婆沙	-12.2052
八斷行	-12.2052
若定若生	-12.2053
復次今當略	-12.2054
睺	-12.2055
速得圓滿	-12.2055
勞損	-12.2056
欝單越	-12.2057
求不得苦	-12.2058
毛輪	-12.2059
領以為境	-12.2059
便為無用	-12.2059
極歡喜住	-12.2059
如對法抄	-12.206
冠	-12.206
而施設故	-12.206
僕使	-12.2064
無有斷絕	-12.2064
苦苦壞苦	-12.2064
此文為證	-12.2064
審思量	-12.2065
澄淨	-12.2065
通前合為	-12.2066
本有無漏種子	-12.2067
文中分三一釋	-12.2069
退菩提心	-12.2069
次舉頌答	-12.207
大海水	-12.2072
生苦為業	-12.2073
分十如論	-12.2074
僧祇劫	-12.2076
若言無者	-12.2077
會遇	-12.2079
賢劫	-12.2079
作如是念	-12.2081
二字所成名	-12.2105
違教理	-12.2107
演曰後釋分二初	-12.211
一頌半	-12.2124
初地以上	-12.2132
於此義中	-12.2139
能造所造	-12.2144
由意引	-12.2163
從因緣生	-12.2175
略有十	-12.2193
初之三	-12.2201
次釋妨	-12.2244
淨居天	-12.2247
逆流	-12.225
夭	-12.2271
有覆無覆	-12.2276
龍樹釋	-12.2285
𦘕	-12.2296
次舉本頌答	-12.2309
蘇迷盧	-12.231
崇重賢善	-12.231
名色六處觸受	-12.2313
從喻為名	-12.2314
刑	-12.2314
塚間	-12.2315
從本已來	-12.2315
利益安樂增上意樂	-12.2316
如文可悉	-12.2317
瓶盆	-12.2318
豐	-12.2319
涅	-12.2319
雜修靜慮	-12.2319
涌	-12.2319
挾	-12.2319
彼分涅槃	-12.2319
一結前標問	-12.2321
踊躍	-12.2321
非極微成	-12.2322
前解為正	-12.2322
心性本淨	-12.2323
此初二也	-12.2323
排	-12.2324
曠野	-12.2324
如修多羅說	-12.2324
如雜心說	-12.2327
迅速	-12.2327
非律儀非不律儀	-12.2327
教理行果	-12.2327
於善說法毘奈耶中	-12.2327
消變	-12.2327
生大歡喜	-12.2328
惡知識	-12.2328
縱奪	-12.2329
糓	-12.2329
胡麻	-12.2329
麤猛	-12.233
十千劫	-12.233
矚	-12.2333
初中有四一	-12.2334
惡所作業	-12.2336
是故定知	-12.2337
問答以明	-12.2341
逕	-12.2341
觀所緣論	-12.2353
演曰三惣結	-12.2357
次通妨	-12.236
互不相違	-12.2363
一問二荅	-12.2386
證有第七	-12.24
善惡二業	-12.2407
了不了	-12.2417
空無相無願	-12.2419
文中分四一	-12.242
揔標舉	-12.2443
└	-12.2541
譬如幻	-12.2543
隨類化	-12.2551
畧	-12.2572
綜	-12.2581
同在一	-12.2582
校	-12.2583
便生喜足	-12.2585
釋師解	-12.2585
嬈	-12.2585
不能亡相	-12.2586
檢	-12.2588
依止住食	-12.2588
蜂	-12.2591
羼提波羅蜜	-12.2591
逗	-12.2592
迦延	-12.2593
能為食事	-12.2593
曜	-12.2594
敏	-12.2594
燋	-12.2594
懵	-12.2594
聞思二慧	-12.2594
如來應正等覺	-12.2594
五識身相應地	-12.2594
淨修其心	-12.2595
自業智力	-12.2595
窟宅	-12.2595
奮	-12.2596
寔	-12.2596
此言意顯	-12.2597
廛	-12.2597
伸	-12.2598
密護根門	-12.2598
胸	-12.2598
初結前問後	-12.2599
動發思	-12.2599
咽	-12.26
十方無量世界	-12.2601
吠	-12.2602
荷負	-12.2603
祀	-12.2603
勵力	-12.2603
倡	-12.2604
嗢柁南	-12.2604
恒沙佛法	-12.2604
熏於本識	-12.2605
乖反	-12.2606
大論第五	-12.2606
如空華等	-12.2607
應隨決了	-12.2611
儒童	-12.2612
依如成實	-12.2613
師子吼	-12.2613
於後法中	-12.2613
於諸學處	-12.2613
根境識三	-12.2613
七十七智	-12.2614
身心輕安	-12.2616
攝釋分	-12.2616
恒無間斷	-12.2617
王賊	-12.2619
初引文	-12.2619
故為此問	-12.2621
悉檀	-12.2622
破外執	-12.2622
麁淺	-12.2622
音韻	-12.2624
任運轉故	-12.2624
相續解脫經	-12.2625
定別因	-12.2631
養命	-12.2632
舊地持	-12.2638
慳垢	-12.2641
果與因	-12.2643
二釋經文分	-12.2644
百二十	-12.2646
漸次悟入	-12.265
無始法爾	-12.2659
瑜伽論記卷第十	-12.2678
懃精進	-12.2682
瞋恨	-12.2718
熱地獄	-12.2737
薩婆多部	-12.2758
取隨好	-12.276
墮惡道	-12.2788
快	-12.2827
二初徵後釋	-12.2832
二先問後荅	-12.2835
不捨善軛	-12.2868
摸	-12.2873
4	-12.2873
第二異門依	-12.2873
讚禮	-12.2874
舉數列名	-12.2874
号	-12.2875
液	-12.2877
瞬	-12.2877
今應問彼	-12.2878
別助當業	-12.2878
濤	-12.2879
喉	-12.2879
處非處智力	-12.288
為答此問	-12.288
揵	-12.288
分十二中第	-12.288
纏繞	-12.288
婆娑	-12.2881
離有離無	-12.2881
掃	-12.2882
旁	-12.2883
廟	-12.2883
鏡中像	-12.2883
現觀邊智諦現觀	-12.2884
迷杌	-12.2884
瓦礫	-12.2884
難了知故	-12.2884
歿	-12.2885
稽留	-12.2885
啞	-12.2885
自他差別識	-12.2885
瓨甌	-12.2886
證十真如	-12.2886
演曰後別釋中	-12.2886
躭著	-12.2886
有種種相轉	-12.2888
溉	-12.2888
谷	-12.2888
徑	-12.2889
黎	-12.289
愛望於取	-12.289
技	-12.289
雜受處	-12.289
律儀不律儀	-12.2891
深見過患	-12.2892
趨	-12.2892
振動	-12.2893
身壞命終	-12.2893
炬	-12.2894
爭	-12.2895
世親釋云	-12.2896
二釋分四如論	-12.2897
自受用土	-12.2899
絃管聲	-12.2901
違教失	-12.2902
種現相生	-12.2902
齅	-12.2904
顯境名言	-12.2912
五蘊假者	-12.2913
何受相應	-12.2914
十二卷	-12.2921
運動	-12.2939
障礙有對	-12.2942
前所明	-12.2945
有對無對	-12.2946
唐三藏	-12.2954
麁重所隨	-12.2959
率爾尋求	-12.2969
尊長	-12.2978
辭無礙	-12.2998
十九卷	-12.3024
近事男	-12.3031
文亦分	-12.3062
熾	-12.3155
欲恚害	-12.3163
能制伏	-12.3163
胝	-12.3164
問何義幾種是	-12.3164
二二合	-12.3165
輕拒暴惡	-12.3167
斂	-12.3167
百法明門	-12.3168
麄	-12.3168
朋黨	-12.3168
介	-12.3169
6	-12.317
廻	-12.3172
臨命終時	-12.3173
突吉羅	-12.3174
菊多	-12.3174
八識規矩	-12.3174
恒依心起	-12.3175
如契經言	-12.3176
所作已辦	-12.3176
恒共相應	-12.3177
結前起後	-12.3177
如下所明	-12.3177
煎	-12.3178
摩怛理迦	-12.3178
枯喪	-12.3178
庫藏	-12.3179
首楞嚴	-12.3179
諸弟子眾	-12.3179
於自盛事	-12.318
遏	-12.318
千年	-12.318
此中有偈	-12.318
複	-12.318
舒光	-12.318
親里	-12.3182
初句總標	-12.3182
瑠璃	-12.3182
四大洲	-12.3182
妻妾	-12.3182
往詣	-12.3182
諷頌	-12.3183
淨惑所緣	-12.3183
略之云爾	-12.3184
敗壞	-12.3184
身見邊見	-12.3184
文相可知	-12.3184
蒲	-12.3185
芻	-12.3185
若異此者	-12.3185
有法與有等性	-12.3186
是名此中略義	-12.3186
有大勢力	-12.3186
為一為異	-12.3187
達磨	-12.3187
摩呾理迦	-12.3188
文分三叚	-12.3188
集量論	-12.3189
稱譽	-12.3189
綴	-12.3189
生物解	-12.3189
多念相續	-12.3189
悉有佛性	-12.3189
純苦趣中	-12.319
所被機	-12.319
貪恚癡	-12.319
八聖道支	-12.3191
佛法僧寶	-12.3191
故地持中	-12.3192
諸勝善法	-12.3195
丸	-12.3196
無見有對	-12.3196
此釋伏難	-12.3197
之所以也	-12.3198
氣息	-12.32
親迷苦理	-12.3206
十五卷	-12.321
從義為名	-12.326
隨念計度	-12.3267
庸	-12.3366
徵詰	-12.3376
天帝	-12.3392
山河	-12.3392
軟中上品	-12.3417
真帶質	-12.3436
陁	-12.3462
蘆束	-12.3466
閡	-12.3467
孰	-12.3468
十六卷	-12.3471
死此生彼	-12.3472
寂默	-12.3473
蠅	-12.3474
杵	-12.3475
堅濕	-12.3475
叡	-12.3475
職	-12.3476
轉輪聖王	-12.3476
溢	-12.3476
三謂徵釋結	-12.3476
修習多修習故	-12.3476
吠舍	-12.3477
生支位中	-12.3477
運載	-12.3477
訟	-12.3478
波羅密多	-12.3479
聖所愛戒	-12.3479
沼	-12.3479
文分為二先辯	-12.3479
非別實有	-12.348
盧舍那	-12.3481
無諍願智	-12.3481
輕拒	-12.3482
圖	-12.3482
江河	-12.3482
帶質通情本	-12.3482
秪	-12.3483
緣性緣起	-12.3483
被甲精進	-12.3483
所任持故	-12.3483
藥叉	-12.3483
水中月	-12.3484
商主	-12.3484
豫	-12.3484
栽	-12.3484
無相解脫門	-12.3485
與聖教相違	-12.3485
而受用之	-12.3485
胎卵	-12.3485
織	-12.3486
劍	-12.3486
城邑	-12.3486
奈	-12.3486
親戚	-12.3488
低昂	-12.3489
如束蘆	-12.3489
頗胝迦	-12.3489
煖頂	-12.349
長讀	-12.349
不為損惱	-12.3491
繫屬於心	-12.3492
犍	-12.3493
坐道場	-12.3494
安適	-12.3494
亂不亂	-12.3495
問何義幾蘊是	-12.35
優波離	-12.3501
有餘依涅槃界	-12.3507
道類智忍	-12.3511
未至定行支	-12.3525
大品經	-12.3529
聞不正法	-12.3548
通前十	-12.3551
百千萬	-12.3568
古薩婆多	-12.3575
利樂諸有情	-12.359
符順	-12.3595
孔穴	-12.3596
稱歎	-12.3608
愚痴	-12.3623
二立能	-12.3628
與煩惱俱	-12.3668
黃赤	-12.3682
决	-12.3746
婆羅	-12.375
難勝地	-12.3763
毳	-12.3771
苐	-12.3775
菩提流支	-12.3776
惛掉	-12.3779
那羅延	-12.378
專行放逸	-12.3782
悅豫	-12.3782
根差別義分二	-12.3782
囂	-12.3782
䇿勵	-12.3783
趺	-12.3783
自在所生色	-12.3784
▁158	-12.3785
或總或別	-12.3785
况	-12.3785
契會中道	-12.3786
捺	-12.3787
奔	-12.3788
廁	-12.3788
邊際臥具	-12.3788
捍	-12.3788
宛	-12.3788
本後二智	-12.3788
暫伏滅	-12.3788
四禪八定	-12.3789
紀	-12.3789
研究	-12.3789
初引經證有	-12.3789
涼	-12.379
祿	-12.379
謀	-12.379
三藏法師玄奘	-12.379
打罵	-12.3791
域	-12.3791
薩埵等三	-12.3792
奉詔譯	-12.3792
浩	-12.3792
諍競	-12.3792
如下自解	-12.3793
福智資糧	-12.3793
犁	-12.3794
厄	-12.3794
酢	-12.3794
五趣四生	-12.3794
憎背	-12.3794
不忍樂欲	-12.3795
洽	-12.3795
神境智通	-12.3796
輔翼	-12.3796
捶	-12.3796
靜妙離	-12.3796
更互依持	-12.3796
因滅果生	-12.3797
名色緣識	-12.3797
絲	-12.3797
秀	-12.3797
屏	-12.3798
如電光等	-12.3798
捷	-12.3798
撥為無	-12.3798
受緣愛	-12.3798
氷	-12.3799
規	-12.38
宴坐	-12.38
攝眾生戒	-12.3801
以無量門	-12.3801
熾燃	-12.3801
及涅槃證得	-12.3802
此理不然	-12.3802
川	-12.3802
蝸	-12.3802
目連	-12.3802
婬女	-12.3803
懃修精進	-12.3804
無貪無瞋	-12.3806
上來總是	-12.3806
后	-12.3806
滅道二諦	-12.3806
隱蔽	-12.3807
身住循身觀	-12.3808
不可定說	-12.3808
無處無位	-12.381
世共知	-12.381
有等流樂	-12.3812
塗香	-12.3816
中初問舉	-12.3836
萬歲	-12.3838
延壽	-12.3843
不相礙	-12.385
名義自性差別	-12.3858
得離繫故	-12.3909
詞無礙解	-12.3989
智所行故	-12.4004
差別假立尋思	-12.4046
鬼傍生	-12.4066
列名分三如論	-12.4066
井	-12.4101
起惑造業	-12.4102
邁	-12.4102
非空非不空	-12.4102
於食知量	-12.4104
7	-12.4105
離蘊計我	-12.4106
九品別斷	-12.4106
不信懈怠放逸	-12.4107
大乘莊嚴經論	-12.4107
調暢身心	-12.4107
芥子	-12.4108
率爾墮心	-12.4108
起諸邪行	-12.4109
諸在家者	-12.4109
文中分二一徵二	-12.4109
補特迦羅	-12.4109
止息惡行為業	-12.411
鄰近	-12.411
皆非行支	-12.4111
演曰後番釋	-12.4111
瘦	-12.4111
攝末歸本	-12.4111
非道計道	-12.4112
逃	-12.4112
浣	-12.4113
掩	-12.4113
糧	-12.4113
鷲	-12.4114
圍繞	-12.4114
如是諸行其性無常	-12.4114
怡適	-12.4115
名體名者	-12.4115
醎	-12.4116
不能煩引	-12.4116
變異無常之性	-12.4116
洪	-12.4116
翫	-12.4117
誹毀	-12.4117
揭	-12.4117
惛沈掉舉	-12.4117
輕拒賢善	-12.4117
所望別故	-12.4117
一正釋頌意	-12.4117
心外實境	-12.4117
有障無障	-12.4118
殊特	-12.4118
毘婆舍那	-12.4118
為諸法本	-12.4118
無相濫失	-12.4118
法智比智	-12.4118
以此文證	-12.4118
稼	-12.4118
發論端	-12.4118
有情一切義利	-12.4118
邏	-12.4119
韻	-12.4119
彼彼分別生	-12.4119
皆容現起	-12.4119
陷	-12.4121
我今問汝	-12.4122
龜	-12.4122
行住坐臥	-12.4123
名句味	-12.4123
陵蔑	-12.4123
醜陋	-12.4123
綿	-12.4124
隨汝意	-12.4124
自證分緣見分	-12.4124
災患	-12.4124
聞他音	-12.4126
辨之略爾	-12.4127
母邑	-12.4127
為何義故	-12.4128
有受盡相	-12.4129
香臭	-12.4131
彼若救言	-12.4133
所修勝行	-12.4135
文分為二先徵後釋釋中有	-12.4141
別時意	-12.4172
泰法師	-12.428
威神	-12.4302
摩尼寶	-12.4354
無涅槃性	-12.4391
阿黎耶	-12.442
犢子	-12.4433
文分為二先問後荅此初也	-12.4435
刀兵	-12.4437
柝	-12.4438
如演秘說	-12.4438
3	-12.4439
煩惱障淨智所行真實	-12.4439
所知障淨智所行真實	-12.4439
三摩地所行影像	-12.4439
梵網經	-12.4441
明論聲	-12.4442
即蘊計我	-12.4442
貨	-12.4444
得勝捨劣	-12.4444
恐失利譽	-12.4445
勤依為業	-12.4445
捨念正知	-12.4446
俯	-12.4446
楔	-12.4446
不同小論	-12.4447
沉淪	-12.4447
倫	-12.4447
以心勝故	-12.4448
大劫阿僧祇	-12.4448
掌珍	-12.4449
同安危	-12.4449
送	-12.4449
二俱有過	-12.4449
真如所緣緣種子	-12.445
菴	-12.4451
䇿勤	-12.4451
陽焰	-12.4451
閻浮	-12.4451
恒轉如流	-12.4452
大法智雲	-12.4452
斬	-12.4452
練磨其心	-12.4452
脹	-12.4453
可意不可意	-12.4453
育	-12.4453
疑後三見	-12.4454
發福不動	-12.4454
文中分二初徵後釋此初	-12.4454
依障建立	-12.4455
渚	-12.4455
逾	-12.4455
如來滅後	-12.4456
緒	-12.4456
正語正業正命	-12.4456
類忍類智	-12.4456
皰	-12.4457
若許爾者	-12.4458
幡	-12.4458
昏昧	-12.4459
泣	-12.4459
添	-12.4459
同緣一境	-12.4459
轍	-12.4459
斧	-12.4459
鄔波索迦	-12.446
盡苦際	-12.446
非常非無常	-12.446
短促	-12.4462
糞掃衣	-12.4462
骸	-12.4463
依食住	-12.4469
三頌半	-12.4474
共事因	-12.4483
苑	-12.4687
慎	-12.4787
盤	-12.4788
楷	-12.4791
俟	-12.4792
盈	-12.4792
司	-12.4793
丘	-12.4793
厥	-12.4794
愆	-12.4794
鳴	-12.4795
貯	-12.4796
嗟	-12.4796
懶	-12.4796
糠	-12.4797
塘	-12.4798
勉	-12.4798
祥	-12.4799
層	-12.4799
鐘	-12.4801
爰	-12.4804
戶	-12.4805
滓	-12.4806
莎	-12.4812
展	-12.5125
逝	-12.513
匝	-12.514
項	-12.5141
刼	-12.5142
獷	-12.5143
媚	-12.5144
螫	-12.5146
偃	-12.5146
墨	-12.5146
肅	-12.5146
摶	-12.5147
怪	-12.5147
京	-12.5147
偶	-12.5148
蠲	-12.5151
壬	-12.5151
覽	-12.5151
換	-12.5151
討	-12.5152
衢	-12.5152
膠	-12.5153
柯	-12.5153
蔑	-12.5153
吼	-12.5155
宏	-12.5156
填	-12.5156
豪	-12.516
􂗆	-12.5507
綖	-12.5507
謹	-12.5507
癢	-12.5509
窹	-12.551
癩	-12.5515
攸	-12.5515
紫	-12.5517
瑞	-12.5517
汗	-12.5517
抵	-12.5517
翅	-12.5518
巡	-12.5518
栴	-12.5518
剖	-12.5519
什	-12.5519
肥	-12.5519
黜	-12.552
盆	-12.5521
捐	-12.5521
遶	-12.5521
雄	-12.5522
尠	-12.5523
鞭	-12.5524
孝	-12.5525
辱	-12.5526
蘆	-12.5528
臘	-12.5529
帛	-12.5538
冝	-12.5893
吞	-12.5893
s	-12.5895
艱	-12.5895
鬱	-12.5897
寸	-12.5898
抱	-12.5898
考	-12.59
甌	-12.59
怱	-12.59
跪	-12.5901
鵂	-12.5901
硬	-12.5901
矜	-12.5901
恡	-12.5902
派	-12.5902
嚼	-12.5902
拙	-12.5903
蒼	-12.5904
閣	-12.5905
翹	-12.5906
苟	-12.5906
蹙	-12.5906
衍	-12.5907
撮	-12.5908
梗	-12.5908
棘	-12.591
江	-12.591
苞	-12.591
屢	-12.5917
漿	-12.5922
惺	-12.5924
紺	-12.6291
場	-12.6291
』	-12.6294
証	-12.6297
冤	-12.6298
裁	-12.6301
晉	-12.6303
虵	-12.6303
鍵	-12.6304
昭	-12.6304
歒	-12.6305
肆	-12.6306
夙	-12.6307
祭	-12.6309
眩	-12.6309
耨	-12.631
燥	-12.6311
稽	-12.6311
m	-12.6312
匠	-12.6312
i	-12.6312
猿	-12.6315
騎	-12.6316
構	-12.6316
刊	-12.6318
礦	-12.6319
髓	-12.6321
畵	-12.6323
爽	-12.6329
┌	-12.6647
鮮	-12.6702
刧	-12.6709
吝	-12.6711
弦	-12.6715
刃	-12.6715
麗	-12.6716
甄	-12.6716
癸	-12.6717
䟦	-12.6718
釧	-12.6719
渾	-12.672
泡	-12.672
戴	-12.672
礫	-12.6721
拂	-12.6723
旌	-12.6723
昌	-12.6723
讒	-12.6725
躬	-12.6725
眷	-12.6725
唾	-12.6726
剃	-12.6727
羼	-12.6729
娛	-12.6729
昵	-12.673
巾	-12.673
飡	-12.6732
牟	-12.6732
挍	-12.6733
探	-12.6733
覔	-12.6735
昂	-12.6735
煮	-12.6735
湯	-12.6736
肯	-12.7003
攢	-12.7143
兇	-12.7144
傾	-12.7145
瓨	-12.7146
武	-12.7147
怕	-12.7149
鹹	-12.715
斤	-12.715
蝕	-12.715
羲	-12.7151
暑	-12.7151
罸	-12.7152
隆	-12.7152
悍	-12.7152
姑	-12.7153
凌	-12.7156
蛆	-12.7156
劑	-12.7157
焦	-12.7158
荼	-12.7158
駕	-12.7158
曆	-12.7159
遵	-12.7159
壓	-12.7159
倨	-12.716
藻	-12.716
市	-12.7161
淤	-12.7161
寡	-12.7163
拾	-12.7163
勃	-12.7163
<	-12.7164
g	-12.7164
剩	-12.7165
妹	-12.7171
喃	-12.7174
胄	-12.7598
砂	-12.7602
腐	-12.7603
皇	-12.7603
陋	-12.7603
脊	-12.7606
鴻	-12.7607
愷	-12.7607
悼	-12.7609
塹	-12.7609
綵	-12.761
聊	-12.761
慣	-12.761
丁	-12.7611
替	-12.7611
迮	-12.7611
邀	-12.7611
帙	-12.7612
坦	-12.7614
匿	-12.7614
䟽	-12.7615
堤	-12.7617
鏁	-12.7618
狐	-12.7618
裹	-12.7621
驢	-12.7621
脣	-12.7623
邃	-12.763
松	-12.7636
候	-12.8066
監	-12.8075
馱	-12.8077
跟	-12.8077
削	-12.8078
樞	-12.8081
籠	-12.8081
辰	-12.8083
賚	-12.8083
崖	-12.8083
覈	-12.8085
蕉	-12.8086
揩	-12.8086
陣	-12.8086
魏	-12.8087
殉	-12.8087
鎌	-12.8087
較	-12.8088
旅	-12.8088
璧	-12.8088
贊	-12.8089
鎧	-12.8089
沫	-12.8089
双	-12.809
珊	-12.809
楞	-12.809
忖	-12.8091
享	-12.8092
嶮	-12.8092
裟	-12.8093
斗	-12.8095
+	-12.8096
贍	-12.8097
嚮	-12.8097
完	-12.8098
秦	-12.8098
鳩	-12.8099
鎮	-12.8099
岐	-12.8101
詶	-12.8101
髣	-12.8102
激	-12.8102
這	-12.8103
觧	-12.856
眀	-12.8572
格	-12.8575
倉	-12.8575
憒	-12.8577
征	-12.858
猥	-12.8581
游	-12.8581
壇	-12.8586
芳	-12.8586
迅	-12.8586
踊	-12.8588
輙	-12.8589
擅	-12.8589
勳	-12.8591
玩	-12.8593
磁	-12.8594
紐	-12.8595
筋	-12.8596
突	-12.8596
枉	-12.8599
喫	-12.8601
麟	-12.8601
鄔	-12.8603
筌	-12.8606
咲	-12.9094
縵	-12.9094
𡧱	-12.9095
雋	-12.9097
垣	-12.9103
籥	-12.9103
輸	-12.9104
熖	-12.9105
欽	-12.9106
㒵	-12.9106
繞	-12.9106
坌	-12.9107
藪	-12.9108
握	-12.911
鎔	-12.9111
駛	-12.9111
爵	-12.9112
秤	-12.9113
膏	-12.9113
嶺	-12.9113
丹	-12.9114
稚	-12.9114
埋	-12.9114
浴	-12.9115
淫	-12.9115
燼	-12.9117
栖	-12.9117
曷	-12.9118
鍛	-12.9119
壹	-12.9119
蔭	-12.9119
席	-12.912
峻	-12.912
鬚	-12.912
編	-12.9121
葱	-12.9121
掘	-12.9121
麝	-12.9122
騃	-12.9123
桃	-12.9123
猫	-12.9123
搜	-12.9123
話	-12.9124
費	-12.9124
楯	-12.9125
針	-12.9125
紊	-12.9126
縣	-12.9127
吸	-12.913
愽	-12.9131
把	-12.9633
慇	-12.9649
嗜	-12.9656
宴	-12.9657
窺	-12.9657
胞	-12.9658
穩	-12.9659
冐	-12.9659
繕	-12.9659
惽	-12.9661
摠	-12.9661
函	-12.9661
亭	-12.9661
蠢	-12.9662
詫	-12.9664
播	-12.9664
涯	-12.9665
猷	-12.9666
瑕	-12.9667
僅	-12.9667
庾	-12.9667
餅	-12.9667
頞	-12.9668
廓	-12.9668
暉	-12.9671
扸	-12.9671
劬	-12.9671
襲	-12.9671
夕	-12.9671
顰	-12.9672
軀	-12.9672
板	-12.9672
額	-12.9673
肇	-12.9674
悴	-12.9675
詠	-12.9676
淋	-12.9676
囊	-12.9676
尿	-12.9677
蹤	-12.9678
拳	-12.9681
絺	-12.9686
孕	-12.9689
卦	-12.9703
紅	-12.979
儒	-13.023
庫	-13.024
欠	-13.0244
劉	-13.0244
㹅	-13.0245
薗	-13.0245
嘖	-13.0246
囉	-13.0246
糜	-13.0247
堰	-13.0248
犬	-13.0249
輝	-13.0249
詎	-13.025
匡	-13.0251
哭	-13.0251
諾	-13.0251
縫	-13.0252
沃	-13.0252
疥	-13.0252
蹈	-13.0254
茂	-13.0255
李	-13.0255
猨	-13.0256
羂	-13.0256
詩	-13.0257
奚	-13.0259
菟	-13.026
閻	-13.0261
腸	-13.0262
踐	-13.0263
脉	-13.0264
怜	-13.0264
栗	-13.0264
湎	-13.0264
嗤	-13.0264
遐	-13.0264
䥫	-13.0265
睛	-13.0267
吃	-13.0267
覿	-13.027
跳	-13.0271
歘	-13.0272
鑊	-13.0272
蹄	-13.0274
鑿	-13.0276
晨	-13.0277
甕	-13.0278
廂	-13.0837
押	-13.0864
􂌞	-13.0866
賈	-13.0867
聦	-13.0867
康	-13.0867
粘	-13.0868
涸	-13.0869
閙	-13.0869
泄	-13.0872
琰	-13.0872
蔗	-13.0872
轂	-13.0876
誕	-13.0876
韜	-13.0877
橋	-13.0878
翁	-13.0879
稠	-13.0879
昱	-13.088
黏	-13.088
蹉	-13.0881
槩	-13.0881
鸚	-13.0882
蠍	-13.0882
噵	-13.0882
曳	-13.0882
嘉	-13.0884
鞞	-13.0885
隋	-13.0886
季	-13.0887
雌	-13.0888
喧	-13.0888
諧	-13.0889
豎	-13.0889
台	-13.089
豁	-13.0892
歇	-13.0892
禍	-13.0893
脈	-13.0893
寐	-13.0895
瑙	-13.0896
係	-13.0901
鞕	-13.0902
杳	-13.1517
汙	-13.1519
糩	-13.1528
𢷤	-13.153
曼	-13.1533
頰	-13.1535
秖	-13.1535
鶴	-13.1535
攷	-13.1535
零	-13.1538
篋	-13.1539
蕃	-13.154
鵝	-13.1541
謨	-13.1541
透	-13.1542
婢	-13.1543
輻	-13.1544
慘	-13.1544
濡	-13.1544
婿	-13.1545
劇	-13.1545
援	-13.1545
仲	-13.1546
寅	-13.1546
狠	-13.1546
俳	-13.1547
衡	-13.1548
矛	-13.1548
馥	-13.1548
歐	-13.1548
帖	-13.1549
腦	-13.1549
線	-13.1549
畔	-13.155
秉	-13.155
鑑	-13.155
僚	-13.1551
湖	-13.1551
徤	-13.1553
銳	-13.1553
頸	-13.1553
縮	-13.1554
竅	-13.1554
獻	-13.1555
婁	-13.1555
戇	-13.1557
耕	-13.1559
洟	-13.1562
販	-13.1564
允	-13.1565
粟	-13.1568
恁	-13.159
攀	-13.2189
彥	-13.2236
駈	-13.2247
酉	-13.2249
虬	-13.2249
衝	-13.225
肚	-13.225
輞	-13.225
舜	-13.2252
讎	-13.2252
嚬	-13.2254
踴	-13.2254
吟	-13.2255
羈	-13.2256
膊	-13.2256
揮	-13.2258
憫	-13.2258
緊	-13.2259
肢	-13.2259
朱	-13.226
虔	-13.226
撓	-13.2261
顇	-13.2261
估	-13.2261
詈	-13.2263
佷	-13.2263
杭	-13.2263
甜	-13.2263
舛	-13.2264
鶖	-13.2264
墻	-13.2264
霑	-13.2264
絡	-13.2264
歟	-13.2265
鹵	-13.2265
弭	-13.2266
醯	-13.2266
株	-13.2267
輿	-13.2267
羽	-13.2267
麵	-13.2268
聳	-13.2268
詔	-13.2269
揣	-13.2269
褁	-13.2272
鋤	-13.2272
拍	-13.2273
蓄	-13.228
耀	-13.2281
姊	-13.2282
䎡	-13.301
呻	-13.3013
䗍	-13.3014
窣	-13.3015
恕	-13.3017
灯	-13.3017
忩	-13.3018
脂	-13.302
郎	-13.3022
韋	-13.3023
侮	-13.3023
廿	-13.3024
俊	-13.3024
凉	-13.3024
晴	-13.3025
勗	-13.3025
奏	-13.3026
巢	-13.3026
槖	-13.3026
克	-13.3027
拜	-13.3027
鉗	-13.3027
暮	-13.3028
錫	-13.3029
羝	-13.303
蒜	-13.3031
矩	-13.3031
紜	-13.3032
瞑	-13.3032
戊	-13.3032
臆	-13.3032
𢚰	-13.3032
溷	-13.3033
楊	-13.3033
窓	-13.3033
懊	-13.3033
拉	-13.3034
抽	-13.3034
峰	-13.3034
婚	-13.3034
緝	-13.3034
卯	-13.3034
鳳	-13.3035
呈	-13.3036
綠	-13.3037
洋	-13.3037
拈	-13.3037
妍	-13.3037
捧	-13.3038
賒	-13.3038
梯	-13.3038
挺	-13.3038
企	-13.3039
腋	-13.304
鬬	-13.3041
雀	-13.3041
槁	-13.3041
𡙸	-13.3042
耗	-13.3042
郭	-13.3042
儲	-13.3043
旗	-13.3044
縳	-13.3044
炙	-13.3044
梅	-13.3045
惻	-13.3045
殻	-13.3049
晦	-13.3049
絹	-13.3051
䡄	-13.3839
鋸	-13.3845
臰	-13.3846
䪺	-13.3847
㒒	-13.3848
湧	-13.385
頡	-13.3852
岳	-13.3855
寞	-13.3855
挈	-13.3856
嫁	-13.3857
梓	-13.3858
措	-13.3858
諱	-13.3859
羺	-13.3859
稀	-13.3859
薦	-13.3859
惶	-13.3859
扼	-13.386
萌	-13.3861
赫	-13.3861
騁	-13.3861
滌	-13.3862
撫	-13.3862
蜀	-13.3862
罝	-13.3862
寓	-13.3862
訂	-13.3863
茫	-13.3864
􂔗	-13.3865
腑	-13.3865
㵎	-13.3865
嘿	-13.3866
溟	-13.3866
茅	-13.3866
歛	-13.3866
弃	-13.3866
搋	-13.3867
鍮	-13.3867
擐	-13.3867
悷	-13.3868
蛤	-13.3868
啼	-13.3868
瑣	-13.3869
戈	-13.3869
庭	-13.387
渧	-13.387
罄	-13.387
鬢	-13.3871
𢤱	-13.3871
彫	-13.3871
藐	-13.3871
選	-13.3872
儔	-13.3872
忠	-13.3872
挫	-13.3873
篤	-13.3873
屎	-13.3873
蝎	-13.3873
龕	-13.3874
晚	-13.3874
沾	-13.3874
芬	-13.3875
殆	-13.3875
曹	-13.3876
殄	-13.3877
搦	-13.3877
沽	-13.3878
賸	-13.388
迄	-13.388
粒	-13.388
巷	-13.3881
匹	-13.3884
効	-13.39
諭	-13.4754
抂	-13.4754
湏	-13.4754
糖	-13.4754
諷	-13.4755
傚	-13.4756
嗚	-13.4757
瓫	-13.4761
汲	-13.4762
襍	-13.4762
与	-13.4763
淄	-13.4763
札	-13.4764
盞	-13.4765
伯	-13.4765
丑	-13.4766
僮	-13.4767
揆	-13.4768
体	-13.4768
罽	-13.4769
踝	-13.4769
澆	-13.4769
版	-13.477
粳	-13.477
董	-13.477
戎	-13.4771
旭	-13.4771
崛	-13.4772
慠	-13.4772
荊	-13.4773
概	-13.4773
傑	-13.4773
爐	-13.4773
尖	-13.4774
冲	-13.4774
皺	-13.4775
澀	-13.4775
腫	-13.4775
阻	-13.4775
噫	-13.4775
蹲	-13.4775
儻	-13.4776
雕	-13.4777
臻	-13.4777
牧	-13.4778
股	-13.4778
褒	-13.4778
仆	-13.4779
疱	-13.4779
翠	-13.478
迨	-13.478
件	-13.478
淹	-13.4781
酸	-13.4781
鄭	-13.4782
幹	-13.4785
泊	-13.4785
荒	-13.4785
凍	-13.4787
濃	-13.4794
夾	-13.48
唇	-13.48
蟒	-13.4801
雇	-13.4803
劒	-13.4806
隟	-13.5745
纈	-13.5749
𡙇	-13.5752
万	-13.5752
𠎝	-13.5755
繭	-13.5758
孟	-13.5761
娶	-13.5762
控	-13.5763
瀑	-13.5765
煨	-13.5766
厨	-13.5767
臼	-13.5768
淆	-13.5768
冬	-13.5768
𨵗	-13.5768
腨	-13.577
槽	-13.577
悖	-13.577
覲	-13.577
燕	-13.577
窂	-13.5771
料	-13.5771
鑛	-13.5772
犧	-13.5772
禎	-13.5772
頴	-13.5772
衷	-13.5772
驕	-13.5773
佚	-13.5773
徽	-13.5773
罩	-13.5773
鉤	-13.5773
鐶	-13.5774
腕	-13.5774
沸	-13.5774
扣	-13.5775
亮	-13.5775
髆	-13.5775
沮	-13.5775
讐	-13.5775
穗	-13.5775
勑	-13.5775
儞	-13.5776
操	-13.5776
淮	-13.5776
觝	-13.5776
鷃	-13.5777
貶	-13.5777
猜	-13.5777
肺	-13.5778
寵	-13.5778
燬	-13.5779
澡	-13.5781
亘	-13.5781
叢	-13.5781
葛	-13.5781
旱	-13.5782
緻	-13.5783
咄	-13.5783
昨	-13.5783
暎	-13.5783
昆	-13.5784
癲	-13.5785
掠	-13.5787
瀾	-13.5787
敦	-13.5787
頷	-13.5787
隻	-13.5788
揉	-13.5788
癭	-13.5789
嬰	-13.5789
疆	-13.579
菜	-13.5791
剝	-13.5791
剪	-13.5791
袋	-13.5791
輟	-13.5792
鉾	-13.5793
叶	-13.5793
埵	-13.5795
瞥	-13.5796
匃	-13.5798
盪	-13.5801
笙	-13.6799
!	-13.685
戌	-13.6874
銕	-13.6875
-	-13.6876
煑	-13.6877
𡰱	-13.6878
洹	-13.6878
椎	-13.6878
凹	-13.6879
鄰	-13.6879
虹	-13.6879
霏	-13.6879
癘	-13.688
溝	-13.688
叱	-13.688
它	-13.6881
駄	-13.6882
效	-13.6882
𡖉	-13.6882
芥	-13.6883
熙	-13.6883
儼	-13.6884
捲	-13.6885
甎	-13.6885
邦	-13.6885
旹	-13.6885
闥	-13.6887
罕	-13.6888
鵲	-13.6888
●	-13.6888
壑	-13.6888
葦	-13.6889
庵	-13.6889
箕	-13.689
繹	-13.689
涕	-13.6891
裔	-13.6891
鍾	-13.6891
姤	-13.6891
朵	-13.6892
浸	-13.6892
髀	-13.6892
膜	-13.6893
僵	-13.6894
脆	-13.6894
倘	-13.6895
跛	-13.6895
輥	-13.6896
蓬	-13.6896
膳	-13.6897
藕	-13.6897
閇	-13.6899
虞	-13.6899
掦	-13.69
謔	-13.6901
擎	-13.6901
讓	-13.6902
媒	-13.6902
鵄	-13.6902
棲	-13.6904
闊	-13.6904
隕	-13.6905
碧	-13.6908
酌	-13.6909
裳	-13.6911
錦	-13.6911
駝	-13.6917
─	-13.8067
恍	-13.8104
孳	-13.811
橐	-13.8111
鎻	-13.8115
脅	-13.8115
𥝖	-13.8118
僂	-13.8121
袟	-13.8122
蜯	-13.8123
􂓕	-13.8123
幟	-13.8124
祉	-13.8124
區	-13.8124
謇	-13.8124
䓗	-13.8124
狸	-13.8125
祐	-13.8125
墋	-13.8125
琴	-13.8125
鋒	-13.8125
鴈	-13.8125
湮	-13.8126
溪	-13.8127
濬	-13.8128
穆	-13.8129
詢	-13.8129
酧	-13.8129
綰	-13.8129
鴿	-13.813
a	-13.813
𠛴	-13.813
靉	-13.813
挹	-13.8131
挑	-13.8131
緯	-13.8131
誚	-13.8131
眤	-13.8132
埿	-13.8133
稗	-13.8133
蠶	-13.8134
丙	-13.8135
鑰	-13.8135
憨	-13.8135
摭	-13.8136
隷	-13.8136
榛	-13.8136
瓮	-13.8136
爍	-13.8137
蒸	-13.8137
㮈	-13.8137
鑄	-13.8138
弁	-13.8138
觚	-13.8138
皎	-13.8139
啻	-13.8139
矢	-13.814
瓜	-13.814
漬	-13.8141
憩	-13.8142
絢	-13.8142
粹	-13.8142
肝	-13.8143
潮	-13.8143
舐	-13.8144
辟	-13.8144
喇	-13.8145
刈	-13.8145
呂	-13.8145
搭	-13.8145
牖	-13.8147
􂴺	-13.8147
銓	-13.8148
筒	-13.8149
撻	-13.8149
涎	-13.8149
迊	-13.8149
尉	-13.815
𢮎	-13.815
誷	-13.8151
漚	-13.8151
𤦲	-13.8152
頹	-13.8153
冊	-13.8154
栰	-13.8154
鱗	-13.8154
譚	-13.8156
机	-13.8156
繒	-13.8156
螢	-13.8157
珂	-13.8157
渠	-13.816
肌	-13.816
翔	-13.8162
瞚	-13.8165
侯	-13.817
疹	-13.8171
䯛	-13.9533
无	-13.9543
弶	-13.9544
濯	-13.9545
曦	-13.955
仳	-13.9551
孩	-13.9553
弈	-13.9553
呬	-13.9554
午	-13.9556
帚	-13.9557
廬	-13.9558
央	-13.9559
拱	-13.9559
剏	-13.956
悵	-13.956
慨	-13.9563
瘧	-13.9564
憬	-13.9564
冰	-13.9565
勁	-13.9566
吳	-13.9566
伍	-13.9566
償	-13.9568
咆	-13.957
姦	-13.9572
捃	-13.9572
朔	-13.9572
弼	-13.9575
卓	-13.9576
攻	-13.9577
抗	-13.9578
厲	-13.9579
哳	-13.9584
你	-13.9586
〈	-13.9586
〉	-13.9586
粮	-13.9589
蒭	-13.9596
誹	-14.1202
禽	-14.1217
竺	-14.1217
堵	-14.1226
隸	-14.1239
嬉	-14.1239
讖	-14.3238
鼷	-14.3239
柰	-14.324
菊	-14.3241
臧	-14.3242
誅	-14.3256
呰	-14.3257
穡	-14.5713
瑠	-14.5725
纜	-14.5727
殟	-14.5742
攪	-14.5749
魁	-14.9045
訊	-14.9052
笈	-14.9053
琉	-14.9056
鴦	-14.9056
苾	-14.9064
喬	-14.9066
塚	-14.9067
訾	-14.9091
妾	-14.9095
餮	-14.9108
饕	-14.9112
祗	-15.4053
瘀	-15.4081
沐	-15.4092
璃	-15.4092
瘖	-15.4105
鬧	-15.4111
膾	-16.4006
臾	-16.4019
奕	-16.403
婇	-16.4031
墳	-16.4032
佞	-16.4033
魎	-16.4034
魍	-16.4035
詛	-16.4036
袒	-16.4037
庠	-16.4038
儱	-16.4039
侗	-16.404
獅	-16.4041
悎	-16.4042
哮	-16.4043
膖	-16.4044
彎	-16.4045
鵡	-16.4046
瑚	-16.4047
莂	-16.4048
跏	-16.4049
蕅	-16.405
痆	-16.4051
芭	-16.4052
袈	-16.4053
憺	-16.4054
>	-16.4055
虻	-16.4056
忉	-16.4057
┤	-16.4058
鶹	-16.4059
貢	-16.406
│	-16.4061
迂	-16.4062
醐	-16.4063
醍	-16.4064
饉	-16.4065
頼	-16.4066
罣	-16.4067
殑	-16.4068
遁	-16.4069
蕂	-16.407
獼	-16.407
柁	-16.4071
[	-16.4072
兜	-16.4073
瓔	-16.4074
珞	-16.4075
o	-16.4076
犢	-16.4077
N	-16.4077
『	-16.4078
拕	-16.4078
