<unk>	0
<s>	0
</s>	0
,	-2.35262
。	-2.93531
、	-3.48199
;	-4.65641
!	-4.88998
者	-5.0174
故	-5.05351
(	-5.23012
)	-5.23902
:「	-5.26696
?	-5.47526
為	-5.50079
於	-5.5361
。「	-5.54558
不	-5.56945
。」	-5.59118
如是	-5.6165
無	-5.6198
心	-5.65895
以	-5.66351
之	-5.70199
若	-5.70293
有	-5.72368
是	-5.76733
法	-5.77747
行	-5.81064
▁	-5.81921
一切	-5.83032
菩薩	-5.89408
得	-5.90663
世尊	-5.91251
而	-5.91927
眾生	-5.94806
爾時	-5.95379
及	-5.97984
如	-5.98015
如來	-5.99374
時	-6.0041
諸	-6.03469
此	-6.04579
言	-6.04777
生	-6.0746
已	-6.0837
我	-6.10762
中	-6.1078
佛	-6.1094
身	-6.11016
等	-6.11135
彼	-6.13351
其	-6.14724
善男子	-6.15007
見	-6.17397
人	-6.17415
所	-6.24872
也	-6.30181
大	-6.30645
乃至	-6.36098
二	-6.36831
說	-6.36964
一	-6.37107
相	-6.38721
能	-6.39622
名	-6.40911
即	-6.44269
知	-6.51587
或	-6.52556
欲	-6.53965
非	-6.5526
.	-6.55737
智	-6.55924
皆	-6.57969
常	-6.61498
令	-6.61859
自	-6.61915
受	-6.63109
三	-6.63463
多	-6.6433
作	-6.65918
當	-6.66435
處	-6.66488
入	-6.66829
亦	-6.67651
:『	-6.69143
住	-6.71149
具足	-6.71604
眾	-6.72388
樂	-6.7431
善	-6.74756
天	-6.76589
清淨	-6.77067
觀	-6.77153
修	-6.77841
:	-6.79615
淨	-6.79678
悉	-6.7975
無量	-6.80131
無有	-6.80245
意	-6.83172
念	-6.83921
道	-6.84079
與	-6.84811
?」	-6.86531
離	-6.8683
聲	-6.8729
事	-6.89162
四	-6.89305
*	-6.89415
因	-6.90077
復	-6.90425
王	-6.90793
則	-6.9091
語	-6.93166
今	-6.93232
種種	-6.94035
汝	-6.9478
上	-6.95545
施	-6.96774
云何	-6.97286
願	-6.98598
從	-6.9909
業	-6.99311
力	-6.99391
空	-6.99771
經	-7.01489
惡	-7.01735
至	-7.02023
想	-7.02279
求	-7.02521
莊嚴	-7.02683
戒	-7.03734
應	-7.03763
滅	-7.03947
出	-7.05196
起	-7.05945
苦	-7.05958
又	-7.06402
三昧	-7.0693
功德	-7.07466
盡	-7.07508
色	-7.07654
曰	-7.09085
具	-7.09347
供養	-7.09735
聞	-7.10047
在	-7.10132
智慧	-7.10615
隨	-7.10896
捨	-7.11107
二者	-7.11522
慧	-7.11885
明	-7.11939
是名	-7.12026
一者	-7.12421
地	-7.12982
。』	-7.13649
一切眾生	-7.14336
成就	-7.1446
識	-7.15974
復次	-7.15997
義	-7.16422
現	-7.16592
解脫	-7.17503
諸佛	-7.17564
善哉	-7.18668
是故	-7.22141
方便	-7.22177
定	-7.22805
性	-7.23111
持	-7.23265
勝	-7.23934
若有	-7.25555
精進	-7.27286
界	-7.27349
成	-7.2739
菩薩摩訶薩	-7.27419
佛言	-7.27548
來	-7.2816
煩惱	-7.28436
正	-7.28558
五	-7.28688
因緣	-7.28962
謂	-7.29193
何以故	-7.29939
云	-7.32955
不能	-7.34038
寶	-7.34066
平等	-7.34555
下	-7.35436
所有	-7.36972
所謂	-7.37516
世間	-7.3771
八	-7.39701
難	-7.40743
信	-7.41497
本	-7.41717
世	-7.4192
遠離	-7.42094
報	-7.42744
初	-7.43809
問	-7.44988
忍	-7.45028
聲聞	-7.45925
取	-7.45994
利	-7.46306
諸法	-7.46511
過	-7.4682
白佛言	-7.46915
阿	-7.47115
水	-7.47201
國	-7.47788
斷	-7.47791
然	-7.48004
雖	-7.48225
果	-7.48543
分別	-7.49128
前	-7.4924
無所	-7.4982
他	-7.50281
耶	-7.50439
六	-7.50478
光	-7.51628
生死	-7.5197
同	-7.52584
我今	-7.53653
緣	-7.54012
可	-7.54195
罪	-7.54306
解	-7.54631
根	-7.54664
龍	-7.54829
婆	-7.54943
發	-7.55964
門	-7.56557
斯	-7.56666
我等	-7.56947
復有	-7.57082
那	-7.572
亦復如是	-7.57986
乃	-7.5919
依	-7.59402
十	-7.5963
分	-7.59701
使	-7.6013
眼	-7.60148
亦不	-7.60605
由	-7.61686
轉	-7.61877
增長	-7.62124
菩提	-7.62238
比丘	-7.6225
後	-7.62351
何	-7.62404
七	-7.63057
光明	-7.63205
教	-7.63439
善根	-7.63544
——	-7.64036
皆悉	-7.6454
護	-7.64612
既	-7.64875
用	-7.64966
摩	-7.65068
度	-7.65514
三者	-7.6605
羅	-7.66481
各	-7.67556
於彼	-7.67658
食	-7.67743
實	-7.68574
化	-7.68757
不生	-7.69204
口	-7.69354
句	-7.6963
修行	-7.70045
法界	-7.70914
福	-7.71251
便	-7.7149
壞	-7.71558
證	-7.71853
普	-7.72676
德	-7.73044
俱	-7.73247
正法	-7.73526
思惟	-7.74093
數	-7.749
夜叉	-7.7499
是人	-7.75123
子	-7.75133
。】「	-7.75517
共	-7.75566
神通	-7.75809
大乘	-7.76139
種	-7.76326
說法	-7.76622
地獄	-7.76727
深	-7.77141
未	-7.77344
譬如	-7.77649
佛法	-7.78571
華	-7.78615
先	-7.78905
除	-7.80163
日	-7.80198
妙	-7.80221
唯	-7.80846
亦無	-7.80874
示	-7.81065
不得	-7.81067
尊	-7.81331
是為	-7.8151
劫	-7.81519
。」【	-7.8159
滿	-7.81656
耳	-7.81776
音	-7.81972
火	-7.82268
迦	-7.82635
世界	-7.82896
布施	-7.83575
。△	-7.83641
師	-7.83732
學	-7.8409
廣	-7.84112
虛空	-7.84281
汝等	-7.84324
即是	-7.84363
覺	-7.8504
愛	-7.85181
真實	-7.85399
著	-7.85843
自在	-7.85929
一切法	-7.8626
猶如	-7.86754
像	-7.87094
物	-7.8727
眷屬	-7.87684
於此	-7.88656
諸菩薩	-7.89346
之所	-7.89473
魔	-7.89517
貪	-7.8961
聖	-7.89744
十方	-7.89903
主	-7.90361
雨	-7.90582
山	-7.90647
真	-7.90917
名為	-7.90956
造	-7.91016
命	-7.91596
香	-7.91601
內	-7.92363
獲	-7.92749
重	-7.92905
神	-7.92994
諸天	-7.93026
矣	-7.93536
涅槃	-7.93674
利益	-7.93757
不見	-7.94494
陀	-7.94529
觀察	-7.95008
無上	-7.95055
死	-7.95499
辯	-7.95916
去	-7.95925
失	-7.97088
九	-7.97583
輪	-7.97692
受持	-7.97694
名曰	-7.97939
》	-7.98155
巳	-7.98647
寂靜	-7.98666
所以者何	-7.9869
少	-7.99103
白	-7.99517
但	-7.9954
習	-7.99689
不可	-7.99933
集	-8.00225
流	-8.00691
向	-8.01046
攝	-8.01176
往	-8.01406
餘	-8.0161
樹	-8.02134
境界	-8.02596
反	-8.03312
觸	-8.03364
外	-8.03385
舍利弗	-8.03563
過去	-8.03686
最勝	-8.03963
安	-8.03965
如是等	-8.03966
四者	-8.03989
喜	-8.04672
大悲	-8.04872
形	-8.05068
陀羅尼	-8.05395
遍	-8.05414
邪	-8.05622
破	-8.05891
沙門	-8.05944
通	-8.05954
安住	-8.05964
龍王	-8.06062
持戒	-8.06075
病	-8.06214
所攝	-8.0637
第一	-8.06486
賢護	-8.07207
更	-8.07318
還	-8.08044
地藏	-8.08517
囉	-8.0911
立	-8.09194
異	-8.09503
結	-8.09678
僧	-8.09898
乎	-8.10422
散	-8.10509
風	-8.10675
好	-8.10758
不可思議	-8.11382
自然	-8.11392
坐	-8.11426
禪	-8.11493
合	-8.11621
稱	-8.11665
無我	-8.11886
慈	-8.1208
修集	-8.121
國土	-8.12907
無盡	-8.1299
無礙	-8.13464
小	-8.13593
趣	-8.13604
別	-8.14439
歡喜	-8.14716
聽	-8.14898
必	-8.15207
微妙	-8.15345
婆羅門	-8.16223
女	-8.16247
無明	-8.16376
致	-8.16722
悉皆	-8.17039
忍辱	-8.17258
闍	-8.173
諸眾生	-8.17496
達	-8.17859
顯	-8.18064
伽	-8.18505
調伏	-8.18536
速	-8.18726
不空見	-8.18906
若能	-8.19017
毘	-8.19691
藏	-8.19983
是時	-8.20154
阿修羅	-8.20224
無邊	-8.20361
味	-8.20822
現在	-8.20859
海	-8.21005
其心	-8.21199
以此	-8.21386
恭敬	-8.21514
足	-8.21924
家	-8.22512
一切諸法	-8.22572
尼	-8.22831
護持	-8.23389
莫	-8.23778
百	-8.23865
到	-8.23933
歸	-8.24037
阿難	-8.24038
辯才	-8.24405
堅固	-8.24443
禪定	-8.24501
發心	-8.24555
器	-8.24567
順	-8.24742
不為	-8.24933
思	-8.25297
或有	-8.25442
出家	-8.25476
方	-8.25527
之法	-8.25607
目	-8.25661
極	-8.25745
不知	-8.25809
十二	-8.25905
了	-8.26106
設	-8.26173
福德	-8.26393
及以	-8.26514
大眾	-8.26517
百千	-8.26626
癡	-8.26851
次名	-8.26989
無相	-8.2707
亦復	-8.27073
而不	-8.27446
動	-8.27711
墮	-8.28919
若有眾生	-8.28973
萬	-8.29047
提	-8.2922
讚	-8.29263
讀誦	-8.29443
宣說	-8.29645
無常	-8.29654
母	-8.29789
於諸	-8.30158
迷	-8.30412
乘	-8.30587
猶	-8.30699
及諸	-8.30811
善法	-8.30887
將	-8.31089
終不	-8.31143
月	-8.31189
飲食	-8.3168
聚	-8.31771
作如是言	-8.31925
鬼	-8.32159
金	-8.32162
瞋恚	-8.3229
增	-8.32293
所作	-8.32328
引	-8.32664
遮	-8.32809
呵	-8.32996
高	-8.33133
印	-8.34032
品	-8.34167
又復	-8.34203
佛告	-8.34229
法門	-8.34258
告	-8.34334
文	-8.34599
所說	-8.34738
讚歎	-8.34997
甚深	-8.35134
不著	-8.35221
恒	-8.35901
我當	-8.35961
能令	-8.36146
究竟	-8.36187
梵	-8.37566
三界	-8.37581
須	-8.37655
一心	-8.3772
被	-8.37798
頭	-8.38462
覩	-8.38781
畢竟	-8.38789
寶女	-8.38793
示現	-8.38912
不可說	-8.3919
長	-8.39823
答	-8.39865
昔	-8.39996
未來	-8.40062
不捨	-8.40125
夜	-8.40166
瞋	-8.40262
音聲	-8.40401
惡業	-8.40445
體	-8.40629
師子	-8.40937
大士	-8.41069
帝	-8.41335
果報	-8.41963
加	-8.42001
滿足	-8.42287
安樂	-8.42624
論	-8.42788
獲得	-8.42859
花	-8.43118
智者	-8.43431
脫	-8.43593
沙	-8.43637
疑	-8.43674
所行	-8.44023
興	-8.44057
千	-8.44316
梵天	-8.44367
愚癡	-8.4442
擁護	-8.44696
進	-8.44922
有情	-8.45086
父母	-8.45275
毒	-8.45317
修習	-8.45324
己	-8.45492
破壞	-8.45632
一一	-8.45651
惱	-8.45654
亦如是	-8.45751
號	-8.45787
各各	-8.45882
應當	-8.46376
計	-8.46507
邊	-8.46618
之心	-8.4672
勸	-8.46731
不思議	-8.46761
一切諸	-8.46794
開	-8.47089
了知	-8.47094
大王	-8.47379
衣	-8.47706
波	-8.47716
障	-8.47902
何謂	-8.48086
照	-8.48126
奉	-8.48504
▁初	-8.49006
於是	-8.49589
無數	-8.49652
總持	-8.49652
和合	-8.49734
釋	-8.49737
境	-8.49814
親	-8.49826
諦	-8.49833
不動	-8.50023
緣覺	-8.50081
壽命	-8.50563
其身	-8.50994
!」	-8.51071
諸惡	-8.51078
諸根	-8.51114
字	-8.51116
指	-8.51119
慢	-8.51139
威儀	-8.51216
如此	-8.51247
邪見	-8.51261
量	-8.51822
付囑	-8.5289
當知	-8.52908
蓮華	-8.52997
至心	-8.53115
衣服	-8.53402
以是	-8.53708
害	-8.53992
?』	-8.54398
無為	-8.54482
退	-8.54566
不壞	-8.5475
慈悲	-8.54844
屬	-8.54847
叉	-8.55239
益	-8.5528
歸依	-8.55399
億	-8.5553
若人	-8.56053
建立	-8.56069
守護	-8.56138
類	-8.56275
手	-8.56906
以是因緣	-8.5693
遊	-8.56968
大德	-8.56985
怖畏	-8.57181
久	-8.57358
勿	-8.57765
吾	-8.57872
塵	-8.58186
親近	-8.58462
決定	-8.58625
乾闥婆	-8.58803
人天	-8.58879
身心	-8.59005
復有一法	-8.59324
咸	-8.59345
族姓子	-8.59361
遠	-8.59391
菩薩言	-8.59635
天人	-8.5966
比	-8.59684
魔王	-8.60157
彌	-8.60195
際	-8.60268
請	-8.60308
廣大	-8.60339
土	-8.60737
相應	-8.60798
何況	-8.60869
餓鬼	-8.61352
理	-8.61451
憍陳如	-8.61479
不淨	-8.61625
無生	-8.61699
甚	-8.61714
無能	-8.61733
禮	-8.61754
終	-8.61824
諸煩惱	-8.62281
會	-8.62355
辟支佛	-8.62467
舉	-8.62571
志	-8.62682
不退	-8.62755
未曾	-8.63111
遇	-8.63152
隨順	-8.63177
汝今	-8.63235
近	-8.63406
經云	-8.63414
住於	-8.63455
海意	-8.63507
應供	-8.63563
若有菩薩	-8.63763
彼佛	-8.638
答言	-8.64135
藥	-8.64226
城	-8.64245
置	-8.64356
多聞	-8.646
十六	-8.64825
陰	-8.64879
則為	-8.65131
永	-8.65137
居	-8.65234
是菩薩	-8.6524
《	-8.65324
。」「	-8.65505
彼人	-8.6587
鬼神	-8.65917
三寶	-8.65965
圓	-8.65976
不住	-8.66108
正見	-8.66159
舍	-8.66482
熱	-8.66711
皆得	-8.67128
敬	-8.67292
之中	-8.67805
無量無邊	-8.67957
不應	-8.67992
成熟	-8.68279
奢利弗	-8.68898
令其	-8.68902
止	-8.68919
泥	-8.68997
壽	-8.69186
圓滿	-8.69268
財	-8.69278
悲	-8.69403
時彼	-8.69413
頌	-8.69454
之人	-8.69502
懷	-8.69813
四大	-8.70094
▁二	-8.70099
曉了	-8.70281
中有習	-8.70285
不依	-8.70378
菩提心	-8.70438
執	-8.70461
不以	-8.70702
力故	-8.70828
是名菩薩	-8.70836
金剛	-8.70858
最上	-8.70905
。』「	-8.70945
視	-8.70982
夫	-8.71028
要	-8.71074
獄	-8.71076
犯	-8.71124
法性	-8.71246
。○	-8.71325
二合	-8.7141
即得	-8.71539
三千大千世界	-8.7156
依止	-8.7169
誰	-8.71693
息	-8.71695
虛空藏菩薩	-8.71829
燒	-8.72283
奮迅王	-8.72634
剎利	-8.72772
十八	-8.72773
彼等	-8.72939
曾	-8.72983
大海	-8.73526
勤	-8.73894
安隱	-8.73938
位	-8.74267
一切諸佛	-8.74285
善女人	-8.74605
次	-8.7462
顛倒	-8.74793
邏	-8.74931
何等	-8.75406
星	-8.75415
諸有	-8.75462
寂滅	-8.75502
憍慢	-8.75611
如虛空	-8.76029
雲	-8.76094
鼻	-8.76173
聞已	-8.76249
獨	-8.76342
三世	-8.76572
七寶	-8.76642
路	-8.77281
經典	-8.77412
非法	-8.77435
悉能	-8.77447
見佛	-8.77474
不善	-8.77602
宿	-8.7763
緊那羅	-8.78004
年	-8.78037
十三	-8.78181
然後	-8.78196
畜生	-8.78199
不念	-8.78306
無畏	-8.78331
發阿耨多羅三藐三菩提心	-8.78388
教化	-8.78563
河	-8.78769
二十	-8.78969
于	-8.79099
入於	-8.79388
為欲	-8.79426
堅	-8.79466
希有	-8.7958
五者	-8.79635
地藏菩薩	-8.79666
云何菩薩	-8.79695
寧	-8.79761
娑	-8.79776
首	-8.79795
爾	-8.80084
間	-8.80152
令彼	-8.80316
疾	-8.80329
對	-8.80661
棄	-8.81018
治	-8.81061
供	-8.81094
名之為	-8.81167
演說	-8.81172
宣	-8.81307
逮	-8.81618
底	-8.81865
天女	-8.822
神力	-8.82238
佛土	-8.82294
之事	-8.82435
於法	-8.82658
宜	-8.82819
苦惱	-8.82863
有一	-8.83023
寂	-8.83232
亦爾	-8.8367
能知	-8.83762
縛	-8.83784
鬼王	-8.8408
行者	-8.84113
若欲	-8.84199
云何當得	-8.84208
於我	-8.84424
文字	-8.84619
慈心	-8.84635
何故	-8.84914
輕	-8.84986
聽受	-8.85034
誦	-8.85108
世尊告	-8.853
不離	-8.85427
都	-8.85459
不取	-8.85479
女人	-8.85645
不求	-8.85696
懺悔	-8.86009
沒	-8.86206
變	-8.86318
欲得	-8.86695
并	-8.86893
最	-8.86942
▁南無	-8.8721
調	-8.87276
十一	-8.87351
天子	-8.87365
而能	-8.87375
中有五陰	-8.87605
此經	-8.88266
放	-8.88351
而說偈言	-8.88548
長者	-8.88585
三乘	-8.88674
於一切	-8.88728
不樂	-8.88767
諸仁者	-8.8877
如法	-8.89461
凡夫	-8.89604
為說	-8.89688
當來	-8.8975
演	-8.89773
復有二法	-8.89881
為諸眾生	-8.89886
懈怠	-8.89918
等正覺	-8.89964
羅剎	-8.89974
次第	-8.89986
喻	-8.90001
離諸	-8.9007
受用	-8.90337
察	-8.90634
無漏	-8.91136
覆	-8.91259
記	-8.91313
於諸眾生	-8.91455
象	-8.91492
不起	-8.91539
正覺	-8.91604
宮	-8.91648
以為	-8.9165
頂	-8.91719
誹謗	-8.91766
假使	-8.91836
梨	-8.91905
不可得	-8.92035
一切智	-8.92085
憶念	-8.92105
當得	-8.92175
合掌	-8.92529
鉢	-8.92638
無垢	-8.92814
表	-8.93185
此三昧	-8.93193
熾然	-8.93264
大臣	-8.9335
座	-8.93393
念佛	-8.9346
染	-8.93562
不復	-8.93573
出世	-8.93811
一念	-8.93842
不退轉	-8.93859
始	-8.942
帝釋	-8.94339
蛇	-8.94578
而為	-8.94592
比丘尼	-8.94672
呪	-8.94853
面	-8.94926
福田	-8.95347
雜	-8.95455
六者	-8.95631
廣說	-8.95853
己身	-8.95961
聽法	-8.96096
超	-8.9619
無不	-8.96231
不失	-8.96386
捨離	-8.96391
欲界	-8.96533
輩	-8.96591
七者	-8.96681
亂	-8.9671
凡	-8.9672
末	-8.97006
是為菩薩	-8.97163
破戒	-8.97199
怨	-8.97284
吉祥	-8.97318
波旬	-8.974
薩	-8.97517
摩訶	-8.97629
殺	-8.9775
轉入	-8.97752
氣	-8.97955
憂	-8.98035
諸龍	-8.98048
有所	-8.98118
其人	-8.98129
差別	-8.9817
亦非	-8.98223
慚愧	-8.9834
勇猛	-8.98435
或復	-8.98528
所生	-8.98684
於佛	-8.98857
穢	-8.989
拔	-8.99037
唯願	-8.99264
無量眾生	-8.99265
諸魔	-8.99359
大慈	-8.99439
離於	-8.99483
造作	-8.99532
憐愍	-8.99905
八十	-9.00024
毀	-9.00385
和	-9.00653
隸	-9.00696
佛所	-9.00881
直	-9.0089
畢	-9.00942
十五	-9.01057
釋迦如來	-9.01098
日月	-9.01257
富	-9.01424
遠離一切	-9.01457
於一切法	-9.01466
善逝	-9.01678
賢聖	-9.01686
鳩槃茶	-9.01687
瓔珞	-9.01704
況	-9.01812
聲聞乘	-9.01858
得聞	-9.02001
準	-9.02006
受苦	-9.02134
盛	-9.02297
休息	-9.02469
故名	-9.0249
諸法無	-9.02804
妄	-9.02883
貪欲	-9.0296
之處	-9.03222
悉得	-9.03264
無願	-9.03374
若無	-9.03424
隷	-9.03561
法師	-9.03636
如實	-9.03969
感	-9.04031
三十	-9.04135
迴向	-9.0414
誼	-9.04278
若不	-9.04288
假	-9.04336
生滅	-9.04352
今日	-9.04352
五百	-9.04419
冥	-9.04433
痛	-9.04598
則能	-9.04621
善惡	-9.04666
是名為	-9.04689
閻浮提	-9.04764
而為說法	-9.04878
能得	-9.049
空中	-9.0492
一切世間	-9.05199
滅度	-9.05429
男女	-9.05489
禁戒	-9.05697
妙法	-9.05876
心無	-9.06075
佛剎	-9.06128
諦聽	-9.0624
救	-9.06375
若菩薩	-9.06442
無間	-9.06511
由此	-9.06527
八萬四千	-9.0658
三十二	-9.06715
彼岸	-9.06715
有為	-9.06806
詣	-9.06807
怖	-9.06867
障礙	-9.06927
馬	-9.06941
正遍知	-9.07056
?」「	-9.07077
內外	-9.07082
之時	-9.07147
自在王	-9.07201
而無	-9.07354
外道	-9.0745
十四	-9.0755
生於	-9.07585
優婆塞	-9.07701
伏	-9.07706
漏	-9.07747
闇	-9.07823
不斷	-9.0794
珍寶	-9.08005
自身	-9.08091
情	-9.08091
無作	-9.0813
通達	-9.08149
畏	-9.08338
因緣故	-9.08432
歲	-9.08441
三種	-9.08442
其所	-9.08496
嫉妬	-9.08579
成佛	-9.08583
即便	-9.0889
此是	-9.08952
阿羅漢	-9.09079
善知識	-9.09162
大方等大集經	-9.09361
娑婆世界	-9.09395
八者	-9.09451
是三昧	-9.09473
葉	-9.09487
心不	-9.09821
隨意	-9.09826
是法	-9.09835
燈	-9.09949
黑	-9.10026
悔	-9.10036
珠	-9.10099
復有三法	-9.10111
嚴	-9.10128
棄捨	-9.10163
聖人	-9.10395
)(	-9.10423
尋	-9.1044
百億	-9.10623
名字	-9.10632
呿	-9.10722
或作	-9.10815
人民	-9.1083
惑	-9.10948
舌	-9.10953
書寫	-9.10956
銕	-9.11016
守	-9.11034
作是念	-9.11185
般若	-9.11191
誓	-9.11228
厭	-9.11553
亦能	-9.11574
愛樂	-9.11616
網	-9.11742
絕	-9.11859
唯然	-9.11989
信心	-9.12198
跋	-9.12213
童子	-9.12569
幢	-9.12664
法中	-9.12724
劫中	-9.12733
住處	-9.13097
皆是	-9.13224
制	-9.13408
他人	-9.13454
安置	-9.1354
五陰	-9.13564
令得	-9.13565
不可盡	-9.13573
護持正法	-9.13574
蒙	-9.13668
惡道	-9.13785
佉	-9.138
相好	-9.13913
諸佛世尊	-9.13934
令我	-9.13956
常行	-9.14096
說此	-9.14149
精勤	-9.14499
四種	-9.14527
法故	-9.14768
命終	-9.1477
備	-9.14772
神足	-9.14791
周	-9.14825
吒	-9.14835
哆	-9.14863
得解脫	-9.14938
乃能	-9.14998
惡心	-9.15112
石	-9.15119
阿耨多羅三藐三菩提	-9.1528
而得	-9.1531
悟	-9.15487
放逸	-9.15577
易	-9.15752
如幻	-9.15776
忽	-9.1586
久住	-9.15871
諸有情	-9.1594
若於	-9.16129
虛空藏	-9.16315
法者	-9.1647
誓願	-9.16521
歎	-9.16574
不信	-9.16712
刀	-9.16798
患	-9.16933
:「『	-9.17136
節	-9.1718
彌勒	-9.17224
之行	-9.1725
勢力	-9.17362
大集	-9.17392
知識	-9.17415
作是言	-9.17437
色相	-9.17506
一切佛法	-9.17609
恩	-9.17756
獨覺	-9.17913
見已	-9.18044
一曰	-9.18332
所願	-9.18342
總	-9.18421
善友	-9.18548
骨	-9.18554
波羅蜜	-9.18754
天王	-9.18829
垢	-9.1883
仙人	-9.18849
不作	-9.18866
攝受	-9.18941
所以	-9.19001
亦如	-9.1903
悅	-9.19111
磨	-9.1915
營	-9.19393
至誠	-9.1945
夢	-9.19586
發菩提心	-9.19613
大地	-9.19628
老	-9.20049
真如	-9.20063
欲令	-9.20291
威德	-9.20304
智本	-9.20356
辭	-9.20544
無上菩提	-9.2055
。「『	-9.20551
十方諸佛	-9.20553
俗	-9.20571
此法	-9.20592
助	-9.206
竟	-9.20702
清淨故	-9.20798
者即是	-9.20866
諸行	-9.20983
瞿曇	-9.21003
有人	-9.21021
豈	-9.21145
二十五	-9.21202
而生	-9.21237
不久	-9.21278
一切有情	-9.2135
􂚲	-9.21632
第二	-9.21719
檀	-9.21726
是經	-9.2174
授	-9.21878
亦無所	-9.21929
降伏	-9.21951
葢	-9.22087
度脫	-9.22117
是也	-9.22263
二曰	-9.22284
一切皆	-9.22417
兩	-9.22635
承	-9.22817
出生	-9.22952
端正	-9.2302
導師	-9.23144
第一義	-9.23155
之業	-9.23271
根本	-9.23378
導	-9.23543
亦然	-9.23687
容	-9.23738
青	-9.23744
知見	-9.23793
自性	-9.23864
从	-9.23929
四天王	-9.23949
語言	-9.24156
隨喜	-9.24385
牟	-9.24462
尚	-9.24521
父	-9.24701
十七	-9.2476
違	-9.24774
正念	-9.24875
惡趣	-9.2502
言辭	-9.25065
塵勞	-9.2518
微	-9.25259
摩睺羅伽	-9.2532
哀	-9.25356
隨其	-9.25372
則得	-9.25467
熟	-9.25545
我見	-9.25613
四方	-9.25631
魔業	-9.25665
優婆夷	-9.25715
牟尼	-9.2574
威神	-9.25811
因果	-9.25836
梵行	-9.25888
牛	-9.25934
無二	-9.26218
弟子	-9.26251
南	-9.2627
勤修	-9.26281
如彼	-9.26294
平	-9.26311
十力	-9.26429
尊重	-9.26477
善業	-9.26519
車	-9.26588
損	-9.26634
肉	-9.26661
四天下	-9.26739
充滿	-9.26935
發起	-9.26978
功	-9.271
善能	-9.27152
法行	-9.27193
於其	-9.27218
此人	-9.27225
生天	-9.27561
竭	-9.27591
知一切法	-9.27593
二十四	-9.27613
婆婆	-9.27637
般若波羅蜜	-9.27658
寂然	-9.27674
其有	-9.2784
積	-9.28053
國王	-9.28336
護持養育	-9.28339
十九	-9.28373
約	-9.2838
若干	-9.28437
仙	-9.28473
一切善法	-9.28519
亦當	-9.28617
服	-9.29036
柔軟	-9.29198
不令	-9.29254
鞞	-9.29282
盧	-9.29479
塔	-9.2955
開示	-9.29697
無色	-9.29709
仁	-9.2984
我所	-9.29979
佛道	-9.30017
不與	-9.3017
除滅	-9.30197
賢	-9.30253
而住	-9.30625
顯示	-9.30684
饒益	-9.30711
法身	-9.30812
降	-9.30822
無極	-9.30903
恚	-9.31095
眾中	-9.31166
十方世界	-9.31188
濁	-9.31234
能作	-9.31259
諸如來	-9.31461
田	-9.31504
得阿耨多羅三藐三菩提	-9.31771
一人	-9.31791
荼	-9.31828
眾會	-9.31831
定意	-9.31858
變化	-9.31979
常當	-9.32071
毘舍	-9.3225
所見	-9.32317
曉	-9.32351
之力	-9.32391
無想	-9.32437
強	-9.32472
天人師	-9.32659
常樂	-9.32956
一切聲聞	-9.3301
鬪諍	-9.33042
所修	-9.33074
種子	-9.33103
「	-9.33226
」	-9.33414
攝取	-9.33422
心行	-9.33432
若見	-9.33469
書	-9.33498
復有四法	-9.33535
惟	-9.33547
令諸眾生	-9.33593
而作	-9.33701
略	-9.33758
幻	-9.33925
支	-9.34286
遣	-9.34305
不同	-9.34326
慕	-9.34385
美	-9.34418
欲求	-9.34431
迦樓羅	-9.3451
無所有	-9.34598
能生	-9.34633
宮殿	-9.34652
往昔	-9.34754
第三	-9.34886
得見	-9.34888
剎	-9.34937
解說	-9.34986
清	-9.35058
施與	-9.35221
雖復	-9.35294
丈夫	-9.35385
聞是	-9.35443
作是	-9.35508
繫縛	-9.35619
不受	-9.35636
蘇	-9.35789
常為	-9.35972
我於	-9.36202
律	-9.36221
禮拜	-9.36229
暫	-9.3624
適	-9.3626
不也	-9.36345
人中	-9.36435
三曰	-9.36462
尊者	-9.36482
現前	-9.36538
其中	-9.3656
惱亂	-9.36561
心生	-9.36605
即時	-9.36826
虛	-9.37076
罪人	-9.37106
正道	-9.37144
機	-9.37221
淨戒	-9.37232
交	-9.37238
一切大眾	-9.37292
差	-9.37412
室	-9.37502
〈	-9.37527
所可	-9.37544
如是奢利弗	-9.37548
許	-9.37712
香華	-9.37713
所言	-9.37776
聞此	-9.3789
不忘	-9.38021
消	-9.38088
及餘	-9.38097
觀於	-9.38252
善思惟	-9.38462
信解	-9.38754
橫	-9.38757
『	-9.38778
北方	-9.38795
大仙	-9.38851
布	-9.39009
有佛	-9.39029
彼諸	-9.392
殊	-9.3923
常念	-9.39292
具足故	-9.39382
不分別	-9.39528
妄語	-9.39594
五欲	-9.39856
流布	-9.39879
東方	-9.39928
汝當	-9.39964
利養	-9.40024
譬	-9.40113
蓋	-9.40211
我身	-9.40344
諸功德	-9.40507
履	-9.40717
無所著	-9.40837
無餘	-9.40861
望	-9.40939
無障礙	-9.40946
法眼	-9.40972
如斯	-9.40994
愚	-9.41009
合掌向佛	-9.41015
善知	-9.41048
而有	-9.41217
二十八	-9.41292
或為	-9.41316
誠	-9.41324
無住	-9.41551
幾	-9.41562
麁	-9.41773
一時	-9.41805
純	-9.41813
彼菩薩	-9.41862
婬	-9.41876
為令	-9.41891
赤	-9.41912
密	-9.41948
浮	-9.41989
大德婆伽婆	-9.421
西方	-9.42114
二十一	-9.42148
之相	-9.42195
承事	-9.42279
九者	-9.423
諸善根	-9.423
步	-9.42304
倍	-9.42382
翻	-9.42394
後世	-9.42535
若我	-9.42536
奉行	-9.42676
仰	-9.42772
讀	-9.42935
及與	-9.43006
甘露	-9.43061
奪	-9.43119
六波羅蜜	-9.43136
漸	-9.43181
污	-9.43312
大哀	-9.43332
此陀羅尼	-9.43338
譬如有人	-9.43359
七日	-9.43551
有諸眾生	-9.43569
何等為四	-9.43675
云何名為	-9.43684
趣向	-9.43769
存	-9.43974
皆令	-9.44052
是諸	-9.44088
佛身	-9.44195
得大	-9.44215
復以	-9.44239
菩提道	-9.4426
稽首	-9.44294
驚怖	-9.44302
徧	-9.44308
行處	-9.44348
天眼	-9.44372
亦令	-9.44467
決	-9.44589
各有	-9.44591
俱胝	-9.44667
頂禮	-9.44717
於眾生	-9.44746
猶如虛空	-9.44859
流轉	-9.45095
有定名	-9.45098
身命	-9.45184
二十三	-9.45253
西	-9.45265
聞法	-9.4528
逮得	-9.45295
衰	-9.45308
第四	-9.45392
登	-9.45396
窮	-9.45468
蓮花	-9.45482
覺觀	-9.45593
相續	-9.45729
本願	-9.4576
而不可盡	-9.45796
眾苦	-9.45824
勇	-9.46222
諸苦	-9.46231
或現	-9.46232
濟	-9.46246
諸菩薩眾	-9.46368
無異	-9.46386
清淨平等	-9.46451
城邑	-9.46572
色界	-9.46588
佛及	-9.46657
梵王	-9.46672
希	-9.46802
句義	-9.4696
發願	-9.46966
無量阿僧祇	-9.46988
消滅	-9.47028
黃	-9.4705
即能	-9.47106
菩薩行	-9.4721
男	-9.47242
遍滿	-9.4737
二十六	-9.47397
二十二	-9.47466
訶	-9.47569
弘	-9.47582
形像	-9.47634
為諸	-9.47712
細	-9.4772
正行	-9.47738
華果	-9.47888
能以	-9.47978
林	-9.4799
士	-9.47999
一切勇	-9.48065
今此	-9.48185
彼諸眾生	-9.4824
悉令	-9.48243
眾寶	-9.48308
四曰	-9.48319
毘夜也	-9.48549
呼	-9.48693
十種	-9.48715
諸比丘	-9.4875
暢	-9.48786
亡	-9.4885
縱	-9.4887
吉	-9.48882
跡	-9.48917
晝夜	-9.48919
殊勝	-9.48928
伎樂	-9.48948
知足	-9.49437
十地	-9.49466
惡人	-9.49599
謗	-9.49657
地藏菩薩摩訶薩	-9.49746
短	-9.49778
奢	-9.49817
諸聲聞	-9.49859
覺了	-9.49934
歷	-9.50044
元	-9.50053
大智	-9.50057
載	-9.50086
靜	-9.50117
無分別	-9.50305
典	-9.50322
得菩提	-9.50432
非是	-9.50599
。《	-9.50709
如意	-9.50714
多有	-9.50719
成就如是	-9.50741
如來所	-9.5078
諍	-9.50792
忘	-9.5082
離欲	-9.50845
事業	-9.50855
切	-9.50895
諸眾生故	-9.50923
眾人	-9.51049
哉	-9.51124
五百眷屬	-9.51202
有三昧名曰	-9.51268
臨	-9.51269
髮	-9.51277
頂禮佛足	-9.51379
六入	-9.51388
救濟	-9.51421
諸菩薩等	-9.51429
▁「	-9.51457
何謂為	-9.51517
修學	-9.51547
慳貪	-9.51664
無礙智	-9.5169
憶	-9.51904
講	-9.51926
滅盡	-9.51961
值	-9.52199
。」《	-9.52201
此云	-9.52246
重罪	-9.52271
婆羅	-9.52292
我亦	-9.52358
愍	-9.52425
池	-9.52443
是謂	-9.52444
飲	-9.52454
負	-9.52552
亦名	-9.52602
可得	-9.52618
出世間	-9.52639
隨所	-9.52786
似	-9.52808
礙	-9.52905
十者	-9.52923
百眷屬	-9.52934
十二因緣	-9.52961
臥具	-9.52972
唯願世尊	-9.52973
所得	-9.53079
答曰	-9.53119
神變	-9.53158
增上	-9.53307
不行	-9.53308
斷除	-9.53531
能壞	-9.53606
而彼	-9.53642
南方	-9.537
。』」「	-9.5371
貧窮	-9.53737
遂	-9.53738
成熟眾生	-9.53871
常得	-9.54026
四諦	-9.54112
修於	-9.54142
實際	-9.54153
有大	-9.54377
身口意	-9.54482
速得	-9.54503
草木	-9.54589
惡口	-9.54637
醯	-9.5467
飛	-9.54688
如是之人	-9.54698
如前	-9.54737
我以	-9.54773
樓	-9.54787
能淨	-9.54823
千眷屬	-9.54921
特	-9.54949
首陀	-9.55011
積集	-9.55054
大慈大悲	-9.55135
是為魔業	-9.55161
復白佛言	-9.55206
師子吼	-9.55212
大聖	-9.55368
為我	-9.55379
軍	-9.55382
於一切眾生	-9.55659
化作	-9.55666
不墮	-9.55669
在於	-9.5591
所聞	-9.55926
人所	-9.55969
東	-9.56065
拏	-9.56088
覩見	-9.56101
賊	-9.56222
勿念	-9.5624
心常	-9.56287
繫	-9.56333
何等為十	-9.56337
受者	-9.56431
一切煩惱	-9.56644
婆羅門等	-9.56961
殺生	-9.57055
合掌恭敬	-9.57091
二種	-9.57123
無言菩薩	-9.57216
諸佛法	-9.57218
佛世尊	-9.57246
深心	-9.57257
如空	-9.57267
之身	-9.57276
却伽	-9.57385
泥洹	-9.57462
獸	-9.57587
故曰	-9.57733
精氣	-9.57831
而白佛言	-9.57833
無厭	-9.57916
教化眾生	-9.57962
越	-9.58462
落	-9.58683
迴	-9.58704
聞是三昧	-9.58726
歌	-9.58739
亦有	-9.58788
炎	-9.58793
見彼	-9.58833
無量百千	-9.58843
毘舍遮	-9.58937
授記	-9.58945
瞻禮	-9.5899
不共法	-9.59015
無量無數	-9.59024
云何為	-9.59185
為人	-9.59203
却	-9.5959
於他	-9.59605
常住	-9.597
儞	-9.59739
大梵	-9.59763
威	-9.59804
所念	-9.59881
苦行	-9.5995
辟支佛乘	-9.6008
北	-9.60095
齋	-9.60117
乏	-9.6013
鐵	-9.60141
垂	-9.60142
作如是	-9.60152
唯除	-9.60164
緣覺乘	-9.60176
從座而起	-9.602
無上士	-9.60204
資	-9.60247
旃荼羅	-9.60306
說是法時	-9.6031
偈	-9.60338
非色	-9.60454
無量功德	-9.60459
轉輪王	-9.60483
惡事	-9.60642
無著	-9.60984
有二	-9.61009
颰陀和	-9.61023
逆	-9.61154
皆能	-9.61249
二十七	-9.61258
響	-9.61263
一劫	-9.613
移	-9.61403
圍繞	-9.61449
所須	-9.61455
無所畏	-9.61504
勇健	-9.61538
藥上	-9.61683
法器	-9.61686
四十	-9.61741
已得	-9.61773
而得調伏	-9.62023
災	-9.62045
稱讚	-9.62123
若諸有情	-9.62162
若得	-9.62214
不懷	-9.62517
拘	-9.62521
背	-9.62711
說是	-9.62766
皆由	-9.62899
阿羅訶	-9.62935
三藐三佛陀	-9.62948
奢摩他	-9.62954
怨敵	-9.62964
不滅	-9.62989
每	-9.62992
百八	-9.63161
隨時	-9.63191
聖慧	-9.63337
民	-9.63393
諸善	-9.63483
三惡道	-9.63861
講說	-9.63873
名色	-9.63878
長老	-9.63953
咩	-9.63966
白言	-9.63997
勤求	-9.64029
是則	-9.64065
相故	-9.64086
訖	-9.64105
能為	-9.6416
言說	-9.64184
古	-9.64237
轉輪聖王	-9.64272
默然	-9.64275
受生	-9.64295
業報	-9.64305
所施	-9.64448
星宿	-9.64512
如來至真	-9.64536
見聞	-9.64687
轉法輪	-9.64712
顯現	-9.64824
法施	-9.649
於佛前	-9.65121
不自	-9.65129
影	-9.6513
亦得	-9.65159
佛說	-9.65221
栴檀	-9.65276
是中	-9.65294
畜	-9.65296
此等	-9.65427
減	-9.65438
聚落	-9.65555
鳥	-9.65558
如佛	-9.65754
為彼	-9.65851
相貌	-9.66006
得佛	-9.66048
世間解	-9.66092
精	-9.66223
專	-9.66253
毛	-9.66286
諸見	-9.66339
薩婆	-9.66405
教他	-9.66421
就	-9.66715
不貪	-9.66733
未得	-9.66735
得無生法忍	-9.66794
快樂	-9.668
而自	-9.66849
諸善男子	-9.66865
盲	-9.66957
調御丈夫	-9.67039
菩薩如是	-9.67072
聲聞緣覺	-9.6712
非人等	-9.6712
無限	-9.67167
報應	-9.6718
大虛空藏菩薩	-9.67403
不放逸	-9.67453
於諸法	-9.67461
甚多	-9.67502
大慈悲	-9.67558
聖道	-9.67652
仁者	-9.67762
迷惑	-9.67792
於中	-9.67799
若復	-9.67988
源	-9.68005
二乘	-9.68185
章句	-9.68306
十惡	-9.68314
伊	-9.68318
瞻	-9.68357
碎	-9.68385
兩舌	-9.68423
真諦	-9.68451
三塗	-9.6848
是等	-9.68504
無諍	-9.68516
諂曲	-9.68529
於阿耨多羅三藐三菩提	-9.68636
惡見	-9.68654
為眾生	-9.68674
其意	-9.68687
不如	-9.68735
開化	-9.68894
生處	-9.68953
是諸眾生	-9.69371
蟲	-9.69432
半	-9.69467
一法	-9.6953
之言	-9.69648
銀	-9.6969
熏	-9.69766
大神通	-9.69773
無言	-9.69813
飢饉	-9.69859
若復有人	-9.6987
如是菩薩	-9.69886
焰	-9.69892
熾盛	-9.69893
明行足	-9.69904
超越	-9.69915
於如來	-9.69929
遊戲	-9.69931
微笑	-9.69951
為他	-9.70037
勤行精進	-9.70063
不可宣說	-9.70099
佛智	-9.70285
而作是言	-9.70334
亦不可盡	-9.70528
恒沙	-9.70591
無所住	-9.7068
未曾有	-9.70697
貪著	-9.70775
無盡意	-9.70793
照明	-9.70834
自他	-9.70914
虛妄	-9.70936
奴	-9.7113
烏	-9.71156
恐怖	-9.71275
色像	-9.71278
臥	-9.71287
法王	-9.713
難得	-9.71301
偏	-9.71344
斫	-9.71375
如是法	-9.71381
喜樂	-9.71426
財物	-9.71505
惡鬼	-9.71556
復有二法難作	-9.71592
二十九	-9.716
是為如來	-9.71638
六萬	-9.71739
釋迦牟尼佛	-9.71783
乞	-9.71876
志性	-9.71895
道者	-9.71933
恭敬供養	-9.72012
五根	-9.72056
頗	-9.72216
哩	-9.72249
罪業	-9.72251
成正覺	-9.72274
見如來	-9.72299
輸	-9.72346
五十	-9.72379
離一切	-9.7241
過失	-9.72547
魔眾	-9.72722
】	-9.72734
隱	-9.72743
新	-9.7277
嚴飾	-9.72818
鼓	-9.72894
心念	-9.72907
求法	-9.72962
普勇	-9.72974
即為	-9.7304
阿修羅王	-9.73121
今者	-9.73332
須彌	-9.73358
勸助	-9.73389
速疾	-9.73437
十善	-9.73473
天下	-9.73483
悲心	-9.73584
一切善根	-9.7368
說言	-9.7389
慈愍	-9.74053
救護	-9.74116
尾	-9.74176
亦為	-9.74197
勝妙	-9.7424
覺知	-9.74251
傷	-9.74279
輒	-9.74285
卑	-9.7435
且	-9.74363
何所	-9.74371
婆呵	-9.74383
姓	-9.74482
禪波羅蜜	-9.74574
復有二法多作	-9.74603
不染	-9.7461
亦復然	-9.74644
修習靜慮	-9.74676
此身	-9.74678
今我	-9.74697
互相	-9.74704
阿婆	-9.74742
長老阿難	-9.74744
三業	-9.74768
天龍	-9.74821
會中	-9.74994
云何名	-9.75039
薄	-9.751
今當	-9.75115
如是等法	-9.75153
與我	-9.75167
則無	-9.75206
若以	-9.75257
苾芻	-9.75259
善行	-9.75265
百千萬億	-9.75326
御	-9.75429
暗	-9.75514
權	-9.75549
所依	-9.75581
而行	-9.75589
養	-9.75597
世人	-9.75599
善道	-9.75672
誑	-9.75679
虛空藏菩薩摩訶薩	-9.75768
即說呪曰	-9.75803
豆	-9.75818
無比	-9.75842
羅漢	-9.75856
舊	-9.75882
運	-9.75882
虎	-9.75901
列	-9.75932
業障	-9.75983
檀波羅蜜	-9.76068
名稱	-9.76132
惡行	-9.76328
一切天	-9.76343
聞者	-9.76351
邊際	-9.76452
集會	-9.76508
諸眾生等	-9.76515
名號	-9.76565
?「	-9.76607
淨心	-9.76772
如我	-9.76799
皆為	-9.76817
或以	-9.76862
麼	-9.76958
道場	-9.77044
得如是	-9.77157
留	-9.77245
一日	-9.77297
所受	-9.77334
天魔	-9.77378
舍利子	-9.77419
故知	-9.77499
富單那	-9.77524
能除	-9.77526
聞說	-9.77544
是如來	-9.77559
全	-9.77573
手足	-9.77614
摩尼	-9.77709
彼時	-9.77757
不共	-9.77901
勤精進	-9.77958
不盡	-9.77963
行於	-9.77964
第一義諦	-9.78012
大小	-9.78039
號曰	-9.78056
所有眾生	-9.78062
若有比丘	-9.78087
勅	-9.78119
血	-9.78136
當校計百八	-9.78212
疑惑	-9.78257
一切菩薩	-9.7832
能斷	-9.784
覺意	-9.78463
善說	-9.78642
罪福	-9.78647
諸天人	-9.78715
精進力	-9.78715
義者	-9.78788
巧	-9.78883
卷	-9.78932
樂欲	-9.78951
略說	-9.78965
昇	-9.78995
閉	-9.79001
私	-9.7904
殃	-9.79051
潤	-9.79068
見者	-9.79075
有二種	-9.79103
阿差末	-9.7913
損減	-9.7914
善巧方便	-9.793
諍訟	-9.79362
聽聞	-9.79398
數數	-9.79428
於未來世	-9.79538
善巧	-9.79688
處處	-9.79691
智力	-9.79705
而復	-9.79726
如其	-9.79768
悉知	-9.79778
護法	-9.7982
樂說	-9.79826
又如	-9.79846
貧	-9.79967
作者	-9.80079
如法住	-9.80113
化生	-9.80113
三摩	-9.80133
如是眾生	-9.80258
上妙	-9.80272
即以	-9.80339
具足成就	-9.80344
五濁	-9.80429
徒	-9.80444
其事	-9.80468
唱	-9.8047
何者	-9.80534
千劫	-9.80544
遭	-9.80547
傳	-9.80549
若彼	-9.806
所以然者	-9.80621
灌頂	-9.80727
六道	-9.80782
收	-9.80797
意樂	-9.80861
則以	-9.80943
本末	-9.81073
為求	-9.81087
端	-9.81183
作惡	-9.81242
心性	-9.81483
受樂	-9.8149
惡法	-9.81553
離垢	-9.81603
無動	-9.81631
無行	-9.8164
已來	-9.8198
侵	-9.82024
莎	-9.82067
慮	-9.82127
塗	-9.82129
怛	-9.82136
有無量	-9.82158
唎	-9.82165
普賢	-9.82202
懺	-9.82223
盜	-9.82234
不聞	-9.82238
殺害	-9.82273
過於	-9.82283
園	-9.82306
則為行法	-9.82372
於生死	-9.82429
無人	-9.82508
往詣	-9.82653
臭	-9.82705
斷見	-9.82888
得自在	-9.82892
蘊	-9.82905
不能知	-9.83077
以諸	-9.831
限	-9.83142
受持讀誦	-9.83332
不空見菩薩摩訶薩	-9.83334
執持	-9.83337
釋迦	-9.83489
佛世界	-9.835
我昔	-9.83527
財寶	-9.83592
或有眾生	-9.83664
大願	-9.83701
貴	-9.83747
建	-9.83814
惡友	-9.8383
居士	-9.83837
如實知	-9.83852
當知是人	-9.83855
兒	-9.83874
大眾咸皆讚	-9.83891
曠野	-9.83925
述	-9.83967
真珠	-9.83974
般涅槃	-9.83979
伴	-9.83985
以是義故	-9.84048
資糧	-9.84059
度眾生	-9.84069
微塵	-9.84111
天宮	-9.84115
惠施	-9.84148
王子	-9.84148
疑網	-9.8419
譬如虛空	-9.84207
諸佛國土	-9.84209
到彼岸	-9.84332
觀身	-9.84371
諸佛所	-9.84392
恒河沙等	-9.84399
圍遶	-9.84499
諸人	-9.84538
何因緣故	-9.84541
何處	-9.84552
恐	-9.84582
如夢	-9.84596
世尊以	-9.8467
快	-9.84683
出離	-9.84703
臣	-9.84778
之本	-9.8479
剎土	-9.84878
今現在	-9.84879
中間	-9.84891
眼識	-9.84923
現身	-9.84932
質	-9.85084
捨諸	-9.85207
皆當	-9.85359
木	-9.85428
受教	-9.85535
中有	-9.85539
我是	-9.85541
說如是偈	-9.85562
。』」	-9.85602
旃陀羅	-9.85663
右膝著地	-9.85722
修多羅	-9.85752
叉婆	-9.85769
擲	-9.8578
若觀	-9.85878
寶藏	-9.85881
善修	-9.85966
一切眾	-9.85989
大論云	-9.8599
淨故	-9.85999
一切佛	-9.8611
曜	-9.86124
幢幡	-9.86138
不出	-9.86189
養育	-9.86255
法輪	-9.86281
那由他	-9.8629
索	-9.86327
為眾	-9.8636
大莊嚴	-9.86426
聲聞弟子	-9.86426
禁	-9.86479
今既	-9.8648
海意菩薩	-9.86618
以一	-9.86648
恒河沙	-9.86752
多少	-9.86759
富貴	-9.86921
散亂	-9.87191
校計	-9.87239
投	-9.87278
蜜	-9.87302
娑羅	-9.87346
吹	-9.87399
徹	-9.87403
臨命終時	-9.87417
五力	-9.87455
君	-9.87465
增益	-9.87483
諸佛如來	-9.87561
往彼	-9.87665
救拔	-9.87721
諸善法	-9.87725
佛復告	-9.87778
化眾生	-9.87839
惱害	-9.87875
歸命	-9.88046
諸外道	-9.8808
悕望	-9.8813
能於	-9.88216
大力	-9.88229
其福	-9.88488
於世	-9.88578
汝於	-9.88642
三摩地	-9.88677
無所得	-9.88763
教令	-9.88768
為作	-9.88775
三十一	-9.88784
法忍	-9.8882
亦皆	-9.88822
華香	-9.88837
亦復不	-9.88907
娑婆	-9.88976
六十	-9.89041
令住	-9.89078
孝	-9.89083
稱名	-9.89089
飢渴	-9.89101
譯	-9.89158
招	-9.89159
鎧	-9.89175
加護	-9.89179
不可稱計	-9.89208
毘婆舍那	-9.89214
是事	-9.89252
不共諸佛之法	-9.89287
序	-9.89288
毀謗	-9.89349
其數	-9.89389
如來悉知	-9.89392
將護	-9.89418
三十二相	-9.89435
免	-9.89435
奮迅	-9.89456
悉見	-9.89495
於菩提	-9.89543
作如是念	-9.89742
他方	-9.89806
梵名	-9.89864
侍	-9.89897
迦羅	-9.90057
魔波旬	-9.90079
世俗	-9.90302
摩訶薩	-9.90316
兵	-9.90321
處所	-9.9038
乾	-9.9038
得三昧	-9.90413
作大	-9.90488
造業	-9.90496
若有善男子	-9.90504
不畏	-9.90506
佛語	-9.90526
莫不	-9.9053
明了	-9.90553
惠	-9.90674
勞	-9.90702
斷一切	-9.90763
我已	-9.908
付	-9.90811
衣食	-9.90819
為本	-9.90826
怒	-9.90853
劣	-9.90854
恨	-9.90857
臂	-9.90898
戰	-9.90899
是為慧業	-9.90923
宿命	-9.90935
曲	-9.90966
佛告颰陀和	-9.90983
是為慧之業	-9.90994
枝葉	-9.90998
思念	-9.91008
打	-9.9101
即於	-9.9106
是方便	-9.91071
諸大眾	-9.9128
佛前	-9.91296
毀壞	-9.91321
往來	-9.91387
四禪	-9.91444
阿那	-9.91454
佛國	-9.91584
五種	-9.91643
得是三昧	-9.91751
波羅	-9.91829
若未來世	-9.91968
復有眾生	-9.91971
阿僧祇劫	-9.92029
身體	-9.92044
行施	-9.92085
一味	-9.92124
十方佛	-9.9213
部	-9.92154
故云	-9.92258
本際	-9.92264
世尊即說	-9.92319
大會	-9.92344
道法	-9.92361
議	-9.92408
不用	-9.92419
欺	-9.92462
痛痒	-9.92478
不能得	-9.92518
娜	-9.92522
為眾生故	-9.92543
莎呵	-9.92576
是則為	-9.92579
愛欲	-9.92632
鳩	-9.92632
露	-9.92647
】【	-9.92665
蠲除	-9.92684
二法	-9.92693
剃除鬚髮	-9.92695
在家	-9.92706
戲	-9.92716
申	-9.92731
譬喻	-9.92744
妻子	-9.92761
湯藥	-9.92776
信樂	-9.92795
睡眠	-9.92798
堂	-9.92812
文殊師利	-9.92858
是陀羅尼	-9.92893
形色	-9.92911
摧伏	-9.92945
毘尼	-9.92999
隨其所應	-9.93014
能滅	-9.93017
其義	-9.93026
如說	-9.9307
是大	-9.93089
願力	-9.93097
諸佛世界	-9.93114
天上	-9.93117
解脫知見	-9.93153
則是	-9.93166
心意	-9.93188
法藏	-9.93202
其性	-9.93214
殊妙	-9.93254
二相	-9.93264
身相	-9.93273
法華	-9.93361
迦葉	-9.93368
難可	-9.93482
人非人等	-9.93581
乘者	-9.93602
緣起	-9.93635
度無極	-9.93661
大師	-9.93733
諸餘	-9.93888
纏	-9.94041
原	-9.941
祭	-9.94144
供給	-9.94169
有如是	-9.94219
無取	-9.94278
所問	-9.94445
產	-9.94498
含	-9.94507
詐	-9.94547
牙	-9.94561
寺	-9.94563
欺誑	-9.94564
笑	-9.94584
晝	-9.94611
雙	-9.94616
神通力	-9.94642
刺	-9.9465
渡	-9.94655
菩提薩埵	-9.9466
苦樂	-9.94664
逼	-9.94694
靜慮	-9.94749
勸請	-9.94764
八正道	-9.94795
文殊	-9.94856
是故菩薩	-9.94864
四無所畏	-9.94914
不入	-9.94944
當令	-9.95087
天神	-9.951
臺	-9.95139
彼土	-9.95144
若聞	-9.95244
六根	-9.95297
所在	-9.9533
罪報	-9.95366
有漏	-9.95424
自大	-9.95433
能度	-9.95441
胎	-9.95468
此世界	-9.95476
無色界	-9.95507
若能如是	-9.95526
五道	-9.95573
故得	-9.95582
無量諸佛	-9.9564
捨於	-9.95651
蔽	-9.95664
有三	-9.9572
不可見	-9.95785
之義	-9.95798
尸	-9.95955
此三千大千世界	-9.95972
不說	-9.95979
之意	-9.96004
於世間	-9.96062
少分	-9.96097
呤	-9.96106
摩那	-9.96117
恣	-9.96123
閻浮	-9.96146
終無	-9.9615
敬信	-9.96196
幡蓋	-9.96234
經法	-9.96309
為壞	-9.96315
當為	-9.9635
休	-9.96369
病苦	-9.96402
驚	-9.96429
鏡	-9.96437
忉利天	-9.96447
枝	-9.96469
遺	-9.96487
闕	-9.96487
於意云何	-9.96513
不可計	-9.96525
端嚴	-9.96531
中道	-9.96572
聰明	-9.96638
華鬘	-9.96816
諸弟子	-9.96908
釋迦牟尼如來	-9.96952
心意識	-9.96975
我法	-9.97012
從彼	-9.97114
此土	-9.97254
所造	-9.97395
諸菩薩摩訶薩	-9.97439
能善	-9.97447
眾生界	-9.9747
船	-9.97503
五逆	-9.97509
普照	-9.97565
獨覺乘	-9.9762
須彌山	-9.97683
善住	-9.9784
皆有	-9.97869
修道	-9.97881
亦說	-9.97891
亦是	-9.97913
那吒	-9.97929
上下	-9.9795
所求	-9.98018
若有人	-9.9802
鬘	-9.98068
生大	-9.98112
常以	-9.98133
惡知識	-9.98284
汝等共護	-9.98298
不亂	-9.98301
頗梨	-9.98341
擊	-9.98356
乳	-9.98377
加持	-9.98408
正士	-9.98456
銅	-9.98458
賢劫	-9.9857
三十三	-9.98582
何緣	-9.98607
三有	-9.98652
身口意業	-9.98665
樂聞	-9.98674
如所	-9.98676
剎那	-9.98727
若天	-9.98769
能成就	-9.98789
一句	-9.98881
名聞	-9.98924
千億	-9.98937
愛敬	-9.98947
善入	-9.99019
〉	-9.99033
若遇	-9.99045
此諸	-9.99053
復作是念	-9.99083
哀愍	-9.9923
佛現	-9.99307
同一	-9.99442
於虛空中	-9.99456
戲論	-9.99468
審	-9.99518
皮	-9.99639
測	-9.99812
展轉	-9.99978
隨其所	-9.9999
瞿	-9.99992
儀	-9.99993
資生	-10.0001
某	-10.0001
則有	-10.002
岸	-10.0027
驢	-10.0028
待	-10.003
低	-10.0031
得安樂	-10.0032
頃	-10.0033
草	-10.0033
羼提波羅蜜	-10.0035
重擔	-10.0037
觀法	-10.0037
竝	-10.0039
於一	-10.0041
震動	-10.0041
七十	-10.0044
第十	-10.0044
堅牢	-10.0048
我時	-10.0049
體性	-10.0052
女身	-10.0053
八千	-10.0054
末香	-10.0054
張	-10.0055
井	-10.0055
若諸眾生	-10.006
行布施	-10.0063
了了	-10.0064
所緣	-10.0071
所應	-10.0075
令此	-10.0081
滅除	-10.0082
三十六	-10.0083
一名	-10.0084
難陀	-10.009
我能	-10.0093
不定	-10.0097
調伏眾生	-10.0111
周遍	-10.0117
供養佛	-10.0128
惜	-10.0129
無上道	-10.0139
勤作	-10.0144
天地	-10.0148
床	-10.0148
無染	-10.0151
而常	-10.0158
王舍城	-10.016
此道	-10.016
捨心	-10.0162
無罣礙	-10.0163
作諸	-10.0165
應知	-10.0166
陀羅	-10.0169
得此	-10.017
坻	-10.0175
里	-10.0185
坐禪	-10.0192
聞佛	-10.0196
貫	-10.0197
諸界	-10.0203
袈裟	-10.0203
所趣	-10.0205
倒	-10.0208
野	-10.0217
追	-10.0228
慶	-10.0231
玄	-10.0232
旋	-10.0233
罵	-10.0236
堪任	-10.0239
泥犁	-10.0241
官	-10.0241
靈	-10.0241
是曰	-10.0243
須菩提	-10.0248
成佛道	-10.0251
惡魔	-10.0253
退失	-10.0255
能破	-10.0262
勇猛精進	-10.0264
以法	-10.0265
著袈裟	-10.0265
佛之	-10.0266
遵	-10.0279
云何得	-10.0283
於佛法中	-10.0284
大法	-10.0288
之名	-10.029
熱惱	-10.0298
斷滅	-10.0302
令他	-10.0302
是名如來	-10.0305
無處	-10.0308
多所	-10.0308
無諸	-10.0311
貢高	-10.032
不聽	-10.032
復能	-10.0328
一乘	-10.0331
四眾	-10.0336
譏	-10.0348
禮拜供養	-10.0351
內心	-10.0356
第五	-10.0359
於己	-10.0363
無貪	-10.0365
大智慧	-10.0365
及諸菩薩	-10.0367
而得解脫	-10.038
諸世間	-10.0384
入定	-10.0385
活	-10.0388
角	-10.04
何等為	-10.0401
眾生故	-10.0415
牽	-10.0419
地神	-10.0422
眾惡	-10.0427
護正法	-10.043
宗	-10.0432
期	-10.0432
心得	-10.0437
麁獷	-10.0441
公	-10.0447
安慰	-10.0447
即從座起	-10.0448
補特伽羅	-10.0451
犯根本罪	-10.0455
令諸	-10.0459
亦應	-10.0464
言語	-10.0466
人間	-10.0477
供具	-10.0479
誰能	-10.0479
諸相	-10.0485
普廣	-10.0492
彼處	-10.0493
為我說	-10.0494
為得	-10.0499
知已	-10.05
三十七	-10.0502
威力	-10.0504
亦知	-10.0505
唯有	-10.0513
於時	-10.0519
空寂	-10.0521
所知	-10.0523
舍利弗言	-10.0526
之日	-10.0543
左右	-10.0552
三寶種	-10.0554
於諸法中	-10.0557
穀	-10.0557
以種種	-10.0566
我為	-10.0567
能說	-10.0568
復更	-10.0572
戒行	-10.0574
得成	-10.0577
柔和	-10.0578
宿等日	-10.0583
福利	-10.0588
茶	-10.0595
慳	-10.0595
作佛	-10.0614
皆共	-10.0619
能令眾生	-10.0622
一切所有	-10.0632
膩	-10.0638
諸大	-10.0639
噉	-10.0639
吾我	-10.064
澤	-10.0643
頂上	-10.0646
寒	-10.0648
箭	-10.0649
領	-10.065
隱沒	-10.065
攀緣	-10.0653
吼	-10.0653
園林	-10.0655
之慧	-10.0657
能觀	-10.066
諂	-10.0662
得入	-10.0663
四念處	-10.0669
不可量	-10.0669
心者	-10.0677
之類	-10.0677
根本罪	-10.0679
以偈頌	-10.068
彼國	-10.068
眾僧	-10.0683
流通	-10.0684
至於	-10.0685
淨信	-10.0686
於生死中	-10.0689
之性	-10.0691
三十三天	-10.0692
又問	-10.0692
無復	-10.0697
此善男子	-10.0701
出入	-10.0702
善心	-10.0706
其土	-10.0727
故名為	-10.0729
菩薩念佛三昧	-10.0732
等事	-10.0733
五曰	-10.0733
􂚲(	-10.0736
左	-10.0743
【	-10.0754
除諸	-10.0766
遙	-10.0767
能捨	-10.0771
炬	-10.0772
聞佛所說	-10.0773
洲	-10.0791
堪	-10.0808
勤行	-10.081
施主	-10.0818
不覺	-10.0828
究	-10.0829
初生	-10.0831
專精	-10.0833
我聞	-10.0835
諸所	-10.084
蒱	-10.0844
▁一心頂禮	-10.0851
歌舞	-10.0852
黨	-10.0855
須臾	-10.0855
走	-10.0859
寄	-10.0862
常在	-10.0862
無差別	-10.0863
由旬	-10.0865
讚言	-10.0866
卷第三	-10.0867
虛空孕菩薩	-10.0867
諸業	-10.0868
宅	-10.0871
清涼	-10.0871
罵辱	-10.0877
過去諸佛	-10.0877
色身	-10.0886
?』「	-10.0892
無上尊	-10.0892
說之	-10.0893
寶蓋	-10.0893
塗香	-10.0893
種姓	-10.0898
)」	-10.091
眾具	-10.0911
證知	-10.0918
所有諸	-10.0918
去來	-10.0921
普遍	-10.0922
於大乘	-10.0923
則不	-10.0924
即現	-10.0947
本無	-10.0949
之道	-10.0952
不異	-10.0953
況復	-10.0958
如來出世	-10.0959
真善	-10.0967
能與	-10.0971
忘失	-10.098
照曜	-10.0982
悲愍	-10.0984
能修	-10.0985
方便智	-10.0989
利益安樂	-10.099
以無	-10.099
得清淨	-10.0994
魔界	-10.1002
第七	-10.1005
妙音	-10.1006
第六	-10.1008
飾	-10.1008
如來所說	-10.1012
此法門	-10.1016
無知	-10.1017
伺察	-10.1021
虗	-10.1025
頒宣	-10.1028
暴	-10.1029
若在	-10.1032
行法	-10.1038
寶珠	-10.1038
何能	-10.106
良	-10.1064
脩	-10.1072
悉為	-10.1075
本性	-10.1076
為大	-10.1077
接	-10.1078
統	-10.1078
殊特	-10.1079
毫相光	-10.1079
陳	-10.108
此三宿日	-10.1081
尸波羅蜜	-10.1085
調御	-10.1085
願佛	-10.1086
前後	-10.1087
發露懺悔	-10.1087
初行菩薩	-10.1089
醫藥	-10.109
疾得	-10.1093
毘梨耶波羅蜜	-10.1093
天中天	-10.1094
臭穢	-10.1095
世界名	-10.1101
萬物	-10.1104
修禪	-10.1107
解了	-10.1115
聚集	-10.112
修善	-10.1123
而於	-10.1131
梵語	-10.1141
六度	-10.1145
親友	-10.1149
行故	-10.1152
我於爾時	-10.1152
具戒	-10.1154
罣礙	-10.1155
捨身	-10.1156
福者	-10.1157
十輪	-10.116
觀者	-10.116
非我	-10.1162
而來	-10.1169
歸趣	-10.1177
右	-10.1187
佛弟子	-10.1189
修羅	-10.1191
以何因緣	-10.1193
毀戒	-10.1195
人身	-10.1197
能成	-10.1203
出現於世	-10.1206
諸佛所說	-10.1209
阿僧祇	-10.1212
具足智慧	-10.1213
任	-10.1217
永不	-10.1227
場	-10.1229
善護	-10.1231
知諸法	-10.1239
業緣	-10.1248
世法	-10.1257
嚩	-10.1258
此名	-10.1259
所起	-10.1261
得無生忍	-10.1267
辦	-10.1268
施者	-10.1273
脾	-10.1276
身口	-10.1277
不瞋	-10.1277
藥王軍	-10.1289
拔陂	-10.129
大將	-10.1292
洗	-10.1295
無央數	-10.1296
慎	-10.1297
奇	-10.1298
所獲	-10.1298
逢	-10.1298
卷第二	-10.13
毗	-10.1302
舍利	-10.1307
臨終	-10.1313
禮敬	-10.1315
輪迴	-10.1315
三世諸佛	-10.1316
喻如虛空	-10.1321
三十五	-10.1321
迴向阿耨多羅三藐三菩提	-10.1321
彼一切	-10.1324
金色	-10.1328
天耳	-10.1332
佛界	-10.1344
此佛剎	-10.135
善解	-10.136
菩提之心	-10.1366
復問	-10.1371
梵天王	-10.1376
是故如來	-10.1379
便得	-10.1379
諸大菩薩	-10.138
之眾	-10.1382
唯願如來	-10.1387
深信	-10.1392
放大光明	-10.1401
佛出世	-10.1406
諸欲	-10.1407
福聚	-10.1415
大利	-10.1418
未來世中	-10.1442
不轉	-10.1444
諸眷屬	-10.1446
無緣	-10.1447
常見	-10.1453
到已	-10.1453
剎中	-10.1453
遵修	-10.1457
分身	-10.1461
軍眾	-10.1467
詞	-10.1478
諸陰	-10.1484
菩薩白佛言	-10.1492
入涅槃	-10.1496
迦吒富單那	-10.1503
是慧	-10.1507
一日一夜	-10.1513
得生	-10.1514
誡	-10.1515
祇	-10.1516
太	-10.1518
共相	-10.1518
憍	-10.1519
爛	-10.1524
懼	-10.1526
兄弟	-10.1527
墜	-10.1527
塞	-10.1528
代	-10.1528
毀呰	-10.153
長壽	-10.1537
呵責	-10.1537
捉	-10.1538
應時	-10.154
卷第十	-10.154
亂心	-10.1541
一切種智	-10.1542
充足	-10.1542
下劣	-10.1543
實無	-10.1543
見有	-10.1543
所居	-10.1547
二萬	-10.1549
或時	-10.1552
尊者阿難	-10.1552
於空	-10.1554
金銀	-10.1556
於大眾中	-10.1565
正等正覺	-10.1569
行菩薩道	-10.1574
放捨	-10.1582
土地	-10.1587
有三摩地名為	-10.1591
知眾生	-10.16
百由旬	-10.16
一切諸天	-10.1603
者則	-10.1609
信根	-10.1616
復有地獄	-10.1622
能施	-10.1625
如是三昧	-10.1634
隨念	-10.1635
無所依	-10.1643
〉、	-10.1648
必當	-10.1655
之者	-10.1659
若諸菩薩	-10.1659
見諸	-10.1671
但為	-10.1672
聖女	-10.1689
業感	-10.1698
無出	-10.1704
給	-10.1709
魔事	-10.1712
佛號	-10.1713
我今當	-10.1714
寶莊嚴	-10.1715
輪轉	-10.1723
德本	-10.173
為是	-10.1733
劫數	-10.1735
皆以	-10.1737
身行	-10.1738
受報	-10.1743
而以	-10.1746
順忍	-10.1747
甚深法	-10.1747
栴達囉	-10.1747
慇懃	-10.175
奴婢	-10.1756
以是之故	-10.1756
功勳	-10.1758
信受	-10.176
頓	-10.1761
偏袒右肩	-10.1762
常修	-10.1764
杖	-10.1765
那羅延	-10.1765
震	-10.1766
宣暢	-10.1767
師子座	-10.1768
難思議	-10.1769
瞻仰	-10.1772
知其	-10.1774
可愛	-10.1775
地獄中	-10.1776
斷諸	-10.1779
久遠	-10.1779
恃	-10.1785
種諸善根	-10.1787
執著	-10.1787
如大	-10.179
頭陀	-10.1795
疾病	-10.1795
大集經	-10.1796
厭離	-10.1796
南無	-10.1806
令汝	-10.1807
及諸眷屬	-10.1817
一相	-10.1826
觀一切法	-10.183
離煩惱	-10.1831
依於	-10.1837
乃至一切	-10.184
若有人能	-10.1843
聖法	-10.1844
為令眾生	-10.1848
有四	-10.1855
正使	-10.1857
雖有	-10.1857
譏毀	-10.1861
一毛	-10.1884
時節	-10.1884
莫能	-10.1884
九十	-10.1891
從是	-10.1895
印者	-10.1908
能持	-10.1911
身業	-10.192
愧	-10.1925
諸波羅蜜	-10.1926
歡喜踊躍	-10.1942
口業	-10.1942
平等故	-10.1944
身分	-10.1944
利益眾生	-10.1948
欲見	-10.195
佛境界	-10.1951
齊	-10.1952
善方便	-10.1953
於三世	-10.1962
夢中	-10.197
我慢	-10.1973
遊行	-10.1983
自心	-10.1985
諸陀羅尼	-10.1988
妬	-10.1991
虛空中	-10.1991
自作	-10.1992
寒熱	-10.1993
茂	-10.1995
賒	-10.1995
尤	-10.1996
為說法	-10.1999
悉當	-10.2002
印所印	-10.2005
善權	-10.2006
如汝所說	-10.2007
倫	-10.2007
正路	-10.2009
論云	-10.2009
縱廣	-10.201
所住處	-10.201
於過去	-10.2011
舍宅	-10.2011
婆伽婆	-10.2016
咸共	-10.2018
廢	-10.202
狗	-10.2021
從初發心	-10.2022
大甲冑輪	-10.2023
發大	-10.2024
應以	-10.2026
我心	-10.203
是善男子	-10.203
發起精進	-10.2032
專念	-10.2032
猛火	-10.2032
依著	-10.2041
教人	-10.2041
化度	-10.2043
三十四	-10.2054
能解	-10.2057
右遶三匝	-10.2065
斷絕	-10.2074
問言	-10.2076
甲冑	-10.2085
憐愍眾生	-10.2087
速能	-10.2101
諸漏	-10.2104
亦無有	-10.2105
知於	-10.2108
常懷	-10.2119
無非	-10.2128
思想	-10.2137
靡不	-10.2143
住持	-10.2148
八法	-10.2149
日光	-10.2154
永離	-10.2159
無有異	-10.216
是故名為	-10.2162
念念	-10.2168
法義	-10.2178
不隨	-10.218
珍	-10.218
猛	-10.2182
此中	-10.2185
如上	-10.2185
三十八	-10.219
本來	-10.2192
若此	-10.2197
億百千	-10.2197
那婆	-10.2203
男子	-10.2209
有因	-10.2213
羯	-10.2214
復於	-10.2215
所住	-10.2218
涅槃道	-10.2224
能入	-10.2226
即當	-10.2228
修福	-10.2231
或有變作	-10.2235
固	-10.2236
連	-10.224
三千大千	-10.2243
以來	-10.2243
愁	-10.2245
沙門瞿曇	-10.2247
同時	-10.2248
房	-10.2248
結使	-10.2251
消除	-10.2253
塔寺	-10.2259
第八	-10.2261
皆從	-10.2262
住此	-10.2267
成辦	-10.2268
心無厭足	-10.2274
誹謗正法	-10.2274
四無量心	-10.2278
要當	-10.2278
十八不共法	-10.228
我等今者	-10.2281
如人	-10.2282
彌勒菩薩	-10.2289
四魔	-10.2297
此即	-10.231
汝應	-10.2316
空無	-10.232
以神通力	-10.2326
諸結	-10.2328
云何當得如	-10.2331
能護法	-10.2332
未來世	-10.2332
善事	-10.2333
妙香	-10.2334
見此	-10.2348
虛空目	-10.2359
漏盡	-10.236
有能	-10.236
百六十	-10.2362
所說法	-10.2362
一切天人	-10.2367
說法者	-10.2382
光味	-10.2403
意業	-10.2403
隨住	-10.2404
令不	-10.2412
摩尼寶	-10.2413
不觀	-10.2413
阿修羅等	-10.2417
其餘	-10.2422
八萬	-10.2423
而悉	-10.2429
摧	-10.2437
生念	-10.2444
累	-10.2448
修行者	-10.245
等心	-10.245
一佛	-10.2454
皆空	-10.2457
大光明	-10.246
無量無邊阿僧祇	-10.2471
餘人	-10.2472
奚	-10.2474
關	-10.2477
是名菩薩摩訶薩	-10.2478
生時	-10.2479
見諸佛	-10.248
寐	-10.2488
注	-10.249
衛	-10.2491
稱揚	-10.2491
生怖畏	-10.2492
怪	-10.2493
馳	-10.2493
合集	-10.2494
溺	-10.2496
下賤	-10.2497
訓	-10.2498
最後	-10.2498
麤	-10.2498
瓶	-10.2499
成阿耨多羅三藐三菩提	-10.2501
不惜身命	-10.2503
世尊復告	-10.2503
邪婬	-10.2503
生老病死	-10.2505
則為誼	-10.2506
即說偈言	-10.251
設使	-10.2526
此事	-10.2531
所不能	-10.2533
本淨	-10.2535
作禮	-10.2538
安立	-10.2542
得須陀洹果	-10.257
受我	-10.2573
終不能	-10.2575
身中	-10.2582
解脫門	-10.2585
以何	-10.2585
無疑	-10.2589
貪愛	-10.259
非識	-10.259
墮惡趣	-10.2597
三結	-10.2607
除去	-10.2616
已曾	-10.2618
一切法門	-10.2618
知諸	-10.2626
六十四	-10.2629
無得	-10.2629
清淨心	-10.2635
則見	-10.2637
得於	-10.2637
藥王軍菩薩	-10.2643
釋梵	-10.2649
得是	-10.2649
善哉善哉	-10.2656
深妙	-10.2658
得大利益	-10.2659
其行	-10.2665
非時	-10.2669
證得	-10.2669
危	-10.2685
四流	-10.2685
為一	-10.2689
願我	-10.2696
麗	-10.2696
送	-10.2697
腹	-10.2708
婦女	-10.2709
種善根	-10.2712
藥草	-10.2717
樹林	-10.2718
慧根	-10.2724
術	-10.2728
跛	-10.2729
五千眷屬	-10.2734
欣	-10.2734
周匝	-10.2735
阿彌陀佛	-10.2735
嘍	-10.2736
諛諂	-10.2739
黎	-10.2743
而起	-10.2746
智人	-10.2747
釋提桓因	-10.2749
飯	-10.2749
剎帝利	-10.275
枯竭	-10.2751
點	-10.2754
酒	-10.2754
驅	-10.2754
憂惱	-10.2756
夫人	-10.2756
尸羅	-10.2759
老死	-10.276
急	-10.276
篤信	-10.2764
空無相願	-10.2764
隨逐	-10.2765
時魔波旬	-10.2771
復為	-10.2774
心之所興發	-10.2774
不生不滅	-10.2777
其順法者不	-10.2777
見之	-10.2779
聲聞眾	-10.2779
真實福田	-10.2781
大梵天王	-10.2781
若干種	-10.2783
摩羅	-10.2785
值遇	-10.2797
三十九	-10.2797
會中有	-10.2808
無等	-10.2811
正真	-10.2819
妙樂	-10.2826
以其	-10.283
求於	-10.2831
迴向菩提	-10.2831
凡所	-10.2831
二人	-10.284
正說	-10.2841
所欲	-10.2844
大明	-10.2847
可說	-10.2854
樂著	-10.2859
一切法無	-10.2869
緣生	-10.2872
更不	-10.2873
水火	-10.2874
大苦	-10.2874
王言	-10.2875
云云	-10.2882
形相	-10.289
敬禮	-10.2892
而修	-10.2897
唯佛	-10.2898
諸方	-10.2899
長夜	-10.2899
作此	-10.29
當以	-10.2903
於十方	-10.2918
缺	-10.2921
或因	-10.2924
億那由他百千	-10.2924
起於	-10.2936
念法	-10.2939
即於佛前	-10.294
心懷	-10.2948
善利	-10.2949
念佛三昧	-10.2953
互	-10.2958
汝可	-10.2959
染著	-10.2963
瑞	-10.2974
價	-10.2977
一切法性	-10.2979
加行	-10.2987
信者	-10.2991
知色	-10.2992
無罪	-10.2993
敵	-10.2995
呿伽	-10.2997
嚧	-10.2998
渴	-10.3
白佛	-10.3003
逐	-10.3004
宋	-10.3005
意識	-10.3006
罵詈	-10.3007
當於	-10.3007
淚	-10.3007
獄中	-10.3008
幽	-10.3009
檀越	-10.3009
匝	-10.301
伐	-10.301
章	-10.3011
植	-10.3013
此四天下	-10.3016
應受	-10.3016
實語	-10.3017
滯	-10.3024
山王	-10.3024
迹	-10.3025
於當來世	-10.3025
墮地獄	-10.3029
動轉	-10.3029
遮障	-10.3031
無量億	-10.3034
過患	-10.3035
何法	-10.3036
一切悉	-10.3039
三解脫門	-10.3043
以自	-10.305
何因緣	-10.3052
眾生心	-10.3052
梵志	-10.3064
樂法	-10.3066
生人天	-10.3074
與諸	-10.3083
虗空	-10.3083
護世	-10.3092
剎利王	-10.3113
寂定	-10.3122
勤苦	-10.3127
覺悟	-10.3138
不相	-10.3139
若知	-10.3139
求菩提	-10.3142
鉢囉	-10.3145
兜	-10.3154
我我所	-10.3159
之罪	-10.3161
一切智心	-10.3176
復言	-10.3177
千萬	-10.3179
無所行	-10.318
疑心	-10.3181
現世	-10.3184
我說	-10.3189
自見	-10.3203
當作	-10.3204
煩惱障	-10.3207
同聲	-10.3216
平等心	-10.3217
甘	-10.3217
此經典	-10.3229
惡比丘	-10.3229
供養恭敬	-10.3234
十輪經	-10.3241
利樂	-10.3242
有三摩地名	-10.3245
之聲	-10.3245
電	-10.326
聖行	-10.3264
敷	-10.3265
以彼	-10.327
陽	-10.327
寫	-10.3271
觸惱	-10.3271
弗	-10.3272
受大苦惱	-10.3274
升	-10.3274
唐言	-10.3276
停	-10.3278
聽者	-10.328
苦痛	-10.328
懸	-10.3282
雪山	-10.3282
夷	-10.3282
脾蛇	-10.3283
育	-10.3283
猶豫	-10.3284
並	-10.3284
冷	-10.3287
司	-10.3289
囑	-10.3292
佛說海意菩薩所問淨印法門經	-10.3294
律儀	-10.3295
諸天子	-10.3297
善根者	-10.3301
天帝釋	-10.3302
此會	-10.3306
入道	-10.3306
又善男子	-10.3306
持是三昧	-10.3309
虛誑	-10.3309
此即是為	-10.3309
不從	-10.3322
初又二初	-10.3323
四無礙智	-10.3328
輕慢	-10.3332
之報	-10.3332
不在	-10.3334
心終	-10.3334
故須	-10.3335
生天上	-10.3335
生疑	-10.3337
我等當	-10.3346
為其	-10.3346
有如是相	-10.3346
是心	-10.3347
比丘僧	-10.3349
此則	-10.3353
非有	-10.3353
奉持	-10.3355
無窮	-10.3361
聖眾	-10.3369
大乘法	-10.3373
見我	-10.3374
令人	-10.3381
地界	-10.3385
為佛	-10.3388
是苦	-10.3389
經中	-10.339
之物	-10.3396
勢	-10.3401
亦不能	-10.3406
甚難	-10.3408
自在定	-10.3414
作事	-10.3414
於我法中	-10.3416
不息	-10.3417
諸苦惱	-10.3419
修行菩提道	-10.3421
住世	-10.3433
如是如是	-10.3439
當有	-10.344
寶幢	-10.3449
億那由他	-10.3458
若魔	-10.3459
同共	-10.346
功德莊嚴	-10.3465
若自	-10.3465
阿摩	-10.3465
義理	-10.3471
不以為	-10.3476
之後	-10.3487
如如	-10.3487
顧	-10.3494
是故我	-10.3496
深廣	-10.35
信敬	-10.3507
嘙	-10.3512
受諸	-10.3515
隨彼	-10.3521
妙色	-10.3521
而坐	-10.3523
婦	-10.3525
姥	-10.3533
道心	-10.3536
得道	-10.354
灑	-10.3542
召	-10.3542
沈	-10.3545
自知	-10.3545
伽羅	-10.3547
空三昧	-10.3548
焦	-10.3549
廁	-10.355
觀諸法	-10.3552
猶若	-10.3554
嬈	-10.3555
見是	-10.3556
逸	-10.3556
長阿含	-10.3558
卷第五	-10.356
省	-10.3563
眾生得	-10.3563
壁	-10.3564
畫	-10.3564
禽獸	-10.3564
三摩提	-10.3566
黑闇	-10.3567
無一	-10.3567
出入息	-10.3568
一生補處	-10.3569
五穀	-10.3569
分布	-10.3569
因是	-10.3571
樹木	-10.3571
血肉	-10.3572
對治	-10.3573
實性	-10.3573
宰官	-10.3574
是為四	-10.3575
是名諸法	-10.3575
教授	-10.3576
而死	-10.3577
阿那含	-10.3577
至佛所	-10.358
二事	-10.3581
能受持	-10.3582
滅百八	-10.3584
假名	-10.3585
住者	-10.3586
皆大歡喜	-10.359
真實知	-10.3599
初發心菩薩	-10.3603
言教	-10.3605
光目	-10.3612
亦不見	-10.3617
四攝	-10.3617
奉事	-10.3619
毒蛇	-10.3627
清淨智	-10.3627
往古	-10.3631
菩薩所行	-10.3632
知法	-10.3632
惡聲	-10.3634
善作	-10.3642
猗	-10.3649
不違	-10.3651
人眾	-10.3651
無生忍	-10.3656
解釋	-10.3657
其力	-10.3658
來至此	-10.3658
諸世界	-10.3659
取著	-10.3673
而此	-10.3675
何名	-10.3686
四神足	-10.3688
法座	-10.3689
眾中有	-10.3689
彼世界	-10.3689
今世	-10.369
士夫	-10.3691
海慧菩薩	-10.3693
十二緣	-10.3698
不實	-10.3698
江	-10.3698
時有	-10.3703
墮於	-10.3704
一切外道	-10.3705
闍婆	-10.3705
如是種種	-10.3709
深法	-10.371
有佛出世	-10.371
所成	-10.3711
意行	-10.3711
所歸	-10.3712
能見	-10.3715
)􂚲	-10.3717
已能	-10.3724
之間	-10.3727
無所生	-10.3728
世諦	-10.373
王佛	-10.3733
說偈	-10.3734
是謂為	-10.3744
皆見	-10.3745
其國	-10.3748
無量世中	-10.3753
修禪定	-10.3755
分別解說	-10.3756
菩薩所	-10.3758
不得令	-10.3764
道中	-10.3765
能行	-10.3765
因此	-10.3766
是觀	-10.3767
四王	-10.3767
毛孔	-10.3777
多羅	-10.3782
呵呵	-10.3782
見諸眾生	-10.3785
擔	-10.3795
二名	-10.3796
大悲心	-10.3799
福業	-10.3801
瑟	-10.3817
爾所	-10.3818
如汝	-10.382
敗	-10.3828
止觀	-10.3832
曠	-10.3833
脚	-10.3833
乃往古世	-10.3836
飢	-10.3837
酬	-10.3837
恐懼	-10.3838
跋帝	-10.384
看	-10.3842
寶髻	-10.3843
鹿	-10.3844
非時風雨	-10.3846
泉	-10.3847
庶	-10.3849
是則名曰	-10.385
更無	-10.3851
斬	-10.3851
支節	-10.3853
四大天王	-10.3854
如須彌山	-10.3855
羅網	-10.3856
房舍	-10.3857
摩訶衍	-10.3857
承佛威神	-10.3858
得不退轉	-10.3859
太子	-10.3861
翼	-10.3863
百八便	-10.3866
十善業道	-10.3868
佛神力	-10.3871
白法	-10.3871
能示	-10.3871
盈滿	-10.3872
敬重	-10.3873
喜心	-10.3873
敢	-10.3875
其光	-10.3876
險道	-10.3877
無有二	-10.3878
知之	-10.3879
從何	-10.3882
不虛	-10.3891
妄想	-10.3891
菩薩道	-10.3894
能盡	-10.3896
問佛	-10.3896
一切行	-10.3901
獨覺乘等	-10.3901
助道	-10.3902
樂於	-10.3903
還復	-10.3903
無受	-10.3904
羅婆	-10.3907
故言	-10.391
一偈	-10.391
阿羅	-10.3914
能救	-10.3918
樂受	-10.3919
於道	-10.3923
十法	-10.3923
力勢	-10.3928
復有無量	-10.393
五通	-10.3931
最尊	-10.3934
一切智智	-10.3937
無壞	-10.3941
大乘經典	-10.3942
吾當	-10.3945
三毒	-10.3956
盡智	-10.3964
無邊際	-10.3965
輪故	-10.3967
花果	-10.3969
須陀洹	-10.397
坐於	-10.397
得無	-10.3974
所有一切	-10.398
卷第四	-10.3986
佛正法	-10.3986
心生歡喜	-10.3991
右遶	-10.3992
無始	-10.3992
菩薩若	-10.4002
百千那由他	-10.4004
請問	-10.4005
是處	-10.4005
之苦	-10.4013
樹下	-10.4015
如是念	-10.4034
護念	-10.4035
及眷屬	-10.4038
如來世尊	-10.4048
狀	-10.405
百七十	-10.4054
增減	-10.4066
種種色	-10.4067
何以	-10.4068
異人	-10.407
充	-10.4072
不斷絕	-10.4078
聞名	-10.4078
佛功德	-10.408
倚	-10.4091
不名	-10.4091
受行	-10.4093
不忍	-10.4099
濘	-10.4102
兜率天	-10.4104
輔	-10.4113
毫	-10.4113
光佛	-10.4114
施戒	-10.4116
昧	-10.4118
世尊讚	-10.412
階	-10.4123
見法	-10.4124
發寶心	-10.4125
故能	-10.4126
𠼝	-10.4128
此二	-10.4129
豐	-10.4131
之樂	-10.4134
咨嗟	-10.4134
焚燒	-10.4134
劍	-10.4135
之地	-10.4135
狐疑	-10.4135
憂愁	-10.4135
朋	-10.4135
鈍	-10.4135
澹泊	-10.4136
兩足尊	-10.4136
雷	-10.4137
客	-10.4137
族	-10.4137
與虛空等	-10.4137
受想行識	-10.4138
荒	-10.4138
大陀羅尼	-10.414
陵	-10.4141
寤	-10.4141
寶德	-10.4142
身壞命終	-10.4142
踊	-10.4143
無瞋	-10.4144
刀杖	-10.4144
舍摩他	-10.4147
假使有人	-10.4147
善思念之	-10.4148
無量菩薩	-10.4149
至真	-10.4149
涌	-10.415
漂	-10.415
一切勇菩提薩埵	-10.4152
四十二	-10.4152
瞋怒	-10.4154
積聚	-10.4154
上中下	-10.4154
大誓莊嚴	-10.4156
不肯	-10.4158
灰	-10.4158
七覺分	-10.416
無生無滅	-10.416
無所罣礙	-10.416
怛哩	-10.4163
於汝	-10.4164
是則名為	-10.4169
無際	-10.417
無形	-10.4173
方等	-10.4173
聲聞辟支佛	-10.4179
參	-10.4179
樂修	-10.4186
所致	-10.4188
嫉	-10.4189
慚	-10.4189
悉是	-10.419
陀那	-10.4191
供養於佛	-10.4191
八種	-10.4192
不可以	-10.4193
如是等事	-10.4198
者即	-10.42
入息	-10.4206
表示一切法	-10.4211
正信	-10.4213
當為汝說	-10.4222
此由	-10.4223
大劫	-10.4228
無依	-10.4232
福報	-10.4237
供養如來	-10.4242
修定	-10.4244
諸入	-10.4261
心故	-10.4262
無本	-10.4263
為因	-10.4264
契	-10.4267
不解	-10.4274
於佛法	-10.4276
又於	-10.4278
是故我今	-10.4279
性相	-10.4285
見十方	-10.4287
果實	-10.4287
業果	-10.4293
大功德	-10.4293
求解脫	-10.4295
亦以	-10.4302
惡眾生	-10.4302
其地	-10.4305
未盡	-10.4308
能斷一切	-10.4311
捨施	-10.4313
獲福	-10.4317
至彼	-10.4321
下方	-10.4332
年少眾生	-10.4346
定慧	-10.4347
若法	-10.4347
淨土	-10.4353
彼此	-10.436
是身	-10.4365
樂見	-10.4375
謗毀	-10.4376
法雨	-10.4376
勤加	-10.4378
無病	-10.438
說於	-10.438
於夢中	-10.4383
不自知	-10.4389
不現	-10.439
放光	-10.4392
菩薩大士	-10.44
迦國	-10.44
寶鬘	-10.4404
譽	-10.4405
諸惡業	-10.4408
如金剛	-10.441
能壞一切	-10.4411
時不空見	-10.4416
四十五	-10.4421
見一切法	-10.4426
丘	-10.4428
得人身	-10.4429
修諸	-10.4429
四十一	-10.4431
忿	-10.4431
洗浴	-10.4431
咃	-10.4432
禍	-10.4435
出時	-10.4436
慧命	-10.4436
魔子	-10.4436
憐	-10.4436
三千	-10.4437
城邑聚落	-10.4437
詳	-10.4438
醉	-10.4441
說是語時	-10.4441
業道	-10.4442
佛教	-10.4444
素	-10.4444
題	-10.4444
淨於	-10.4445
屋	-10.4446
弟	-10.4446
耆	-10.4446
沉	-10.4446
愈	-10.4447
生者	-10.4448
三昧正受	-10.4448
妻	-10.4448
疏	-10.4448
高座	-10.4449
叉手	-10.4452
音樂	-10.4452
瓔珞莊嚴	-10.4452
狂	-10.4453
段	-10.4454
無有退轉	-10.4454
殖	-10.4458
漸漸	-10.446
三事	-10.4461
婆囉	-10.4465
輪王	-10.4466
無厭足	-10.4467
佛眼	-10.447
現前三昧	-10.447
異學	-10.4471
眷屬圍遶	-10.4478
!」「	-10.4479
伏藏	-10.448
讀經	-10.4481
可意	-10.4481
不可數	-10.449
是名正見	-10.449
日藏	-10.4493
然後乃	-10.4494
天中	-10.4494
是諸菩薩	-10.4498
三惡趣	-10.4499
毀禁	-10.4504
油	-10.4506
菩提場	-10.4507
空行	-10.4509
是虛空藏菩薩摩訶薩	-10.451
在世	-10.451
一子	-10.4513
所問經	-10.4514
踊躍	-10.4516
於正法	-10.452
普為	-10.452
無量劫	-10.4521
病者	-10.4525
以我	-10.4525
常生	-10.4529
念心	-10.454
所著	-10.4543
無增減	-10.4545
所化	-10.4548
行願	-10.4549
柔	-10.4551
悉共	-10.4553
掌	-10.4554
護戒	-10.4561
識處	-10.4566
優	-10.4571
即生	-10.4572
發於	-10.4574
象王	-10.4579
有何	-10.4588
心始	-10.4597
生長	-10.4598
得福	-10.4598
為諸菩薩	-10.46
佛於是	-10.4604
愛語	-10.4608
此菩薩	-10.4608
百千億	-10.4611
根性	-10.4615
云何行	-10.4616
即是精進	-10.4619
若菩薩摩訶薩	-10.4623
說呪曰	-10.4627
諸聲聞眾	-10.4633
三藏	-10.4643
所興	-10.4645
事者	-10.4652
嚴淨	-10.4667
勸化	-10.4668
是何	-10.4676
法味	-10.4683
多人	-10.469
歸敬	-10.4692
阿差末菩薩	-10.4698
歡	-10.47
大威德	-10.4701
乃得	-10.4713
如是相	-10.4714
博	-10.4715
無量世界	-10.4718
自在力	-10.4725
其形	-10.4727
涅	-10.473
一切諸惡	-10.4731
未聞	-10.4731
唐	-10.4733
如日	-10.4735
雄	-10.4735
枯	-10.4739
習氣	-10.4739
厚	-10.4743
冀	-10.4746
僕	-10.4748
補	-10.4749
於閻浮提	-10.475
奉獻	-10.4751
隣	-10.4751
莖	-10.4751
富樓那	-10.4752
諷誦	-10.4753
慰	-10.4753
聞是語已	-10.4754
房宿	-10.4755
焉	-10.4755
荷	-10.4756
疫病	-10.4757
象馬	-10.4758
銷滅	-10.4758
舒	-10.4758
甲	-10.4759
狼	-10.4759
不合	-10.4759
遍照	-10.476
避	-10.476
栽	-10.4761
能護	-10.4763
羸劣	-10.4765
長養	-10.4766
獄卒	-10.477
又此精進	-10.477
四聖諦	-10.4771
衛護	-10.4772
初禪	-10.4773
如上所說	-10.4774
魔王波旬	-10.4774
此娑婆世界	-10.4778
而說頌	-10.478
合會	-10.4785
何等為八	-10.4789
作是思惟	-10.4791
眾生性	-10.4796
故當知是忍	-10.4799
及其	-10.48
信力	-10.4801
欲來	-10.4804
若有能	-10.4806
願行	-10.4807
悉入	-10.4809
無數劫	-10.4811
大名稱	-10.4816
高下	-10.4818
空處	-10.4818
長者子	-10.4824
爾時世尊	-10.4825
千佛	-10.4829
知此	-10.4832
輪也	-10.4836
知彼	-10.484
又言	-10.484
若入	-10.4842
之福	-10.4845
來集	-10.4845
如是無量	-10.4853
於三界	-10.4856
小乘	-10.4858
此剎	-10.4861
樂行	-10.4863
作業	-10.4871
此呪	-10.4872
等言	-10.4877
當念	-10.488
種種諸	-10.4881
上方	-10.4883
大菩薩	-10.4885
亦不得	-10.4888
何者是	-10.4892
同於	-10.4895
為護	-10.4895
心得自在	-10.4903
能得成就	-10.4903
即見	-10.4907
滅後	-10.4912
此間	-10.4915
恭敬合掌	-10.4916
雜色	-10.4916
常與	-10.4918
於空中	-10.492
不忘失	-10.4923
三惡	-10.4924
觀音	-10.4926
遶	-10.4929
不欲	-10.4929
佛名	-10.4947
大德世尊	-10.4952
熾	-10.4953
便能	-10.4954
法光明	-10.4963
如是說	-10.4964
正修行	-10.4965
死魔	-10.4966
三萬	-10.4971
不貪著	-10.4972
諸佛剎土	-10.4979
佛所說	-10.4979
分別說	-10.4983
當如是	-10.4986
五事	-10.4988
演說法	-10.4992
依法	-10.4994
我欲	-10.5008
能忍	-10.5009
佛事	-10.501
無有是處	-10.501
五千	-10.5015
知我	-10.5018
黠	-10.5021
此四	-10.5022
啟	-10.5023
師長	-10.5024
能發	-10.5031
恭	-10.5038
勝菩提	-10.5039
不敢	-10.5039
弭	-10.5042
生信	-10.5045
智海	-10.5051
得此三昧	-10.5055
受是	-10.5055
賴	-10.506
勒	-10.5061
觀心	-10.5061
焚	-10.5062
諸山	-10.5063
貝	-10.5064
遮羅	-10.5067
愍哀	-10.5068
若為	-10.5069
推	-10.507
鳴	-10.507
輕毀	-10.5073
返	-10.5073
算	-10.5073
或在	-10.5073
片	-10.5073
藥上菩提薩埵	-10.5074
逮成佛道	-10.5074
一百	-10.5075
仗	-10.5075
竪	-10.5075
以天	-10.5076
若斯	-10.5076
得住	-10.5076
及其眷屬	-10.5077
修忍	-10.5078
健	-10.5079
頭面禮足	-10.5079
錯	-10.508
不修	-10.5081
希利	-10.5083
療	-10.5083
牢獄	-10.5084
胃	-10.5085
苗稼	-10.5085
慳悋	-10.5086
心中	-10.5087
悲泣	-10.5089
頻婆娑羅王	-10.509
若曹	-10.5091
如本	-10.5092
狂亂	-10.5092
命終之後	-10.5093
安隱快樂	-10.5093
奢摩	-10.5093
務	-10.5094
苦海	-10.5099
發露	-10.5099
羅睺羅阿修羅王	-10.51
如說修行	-10.51
乃得名戒	-10.5101
與彼	-10.5102
能令一切	-10.5105
徒眾	-10.5105
大人相者	-10.5105
斯陀含	-10.5106
止息	-10.5108
作證	-10.5114
如佛所說	-10.5117
諸色	-10.5117
白衣	-10.5118
香花	-10.5118
繫念	-10.512
或有地獄	-10.5122
正直	-10.5123
悅可	-10.5128
有大威德	-10.513
是慈	-10.5131
寶手	-10.5135
光照	-10.5145
甚深經典	-10.5148
百千劫	-10.5152
菩薩眾	-10.5156
不思議事	-10.5161
難思	-10.5162
菩薩亦復如是	-10.5164
一切法中	-10.5164
慧力	-10.5172
皆來	-10.5176
施設	-10.5185
行相	-10.5186
電光	-10.5186
慧明	-10.5186
退沒	-10.5188
設有	-10.519
無欲	-10.5195
發意	-10.5196
則能為	-10.5198
中有一	-10.52
正定	-10.5201
諸寶	-10.5213
法已	-10.5217
諸菩薩摩訶薩等	-10.5219
修因	-10.5219
所宣	-10.5222
無生法忍	-10.5225
念處	-10.5231
為供養	-10.5232
百千萬	-10.5232
摧滅	-10.5234
觀佛	-10.5236
令入	-10.5236
先世	-10.5237
而致	-10.5238
及彼	-10.524
如法住者	-10.5248
賤	-10.5259
闍羅	-10.526
於自	-10.5264
為人說	-10.5269
無有我	-10.527
大涅槃	-10.5272
不計	-10.5273
人非人	-10.5275
豐饒	-10.5277
而不能	-10.528
寶性	-10.528
生死海	-10.5283
令離	-10.5284
可見	-10.5289
羅國	-10.529
能滿	-10.5295
燒然	-10.5295
聞此三昧	-10.5306
欲聞	-10.5307
於虛空	-10.5307
勿令	-10.5308
力能	-10.5314
不雜	-10.532
為菩薩	-10.5325
宿世	-10.5327
大論	-10.5329
於人	-10.5337
生死罪	-10.534
猶如大海	-10.5341
無明闇	-10.5346
能調	-10.5348
不能動	-10.5359
一切諸魔	-10.5361
有如是等	-10.5363
據	-10.5368
往生	-10.5378
具大	-10.5383
綺	-10.5384
馱	-10.5386
在彼	-10.5387
悋	-10.539
肩	-10.5394
踰	-10.54
咎	-10.5402
吐	-10.5403
欝	-10.5404
除斷	-10.5404
雞	-10.5408
棄捐	-10.5411
魚	-10.5412
陰入界	-10.5412
在在處處	-10.5412
偷盜	-10.5413
係	-10.5414
擾	-10.5416
眾魔	-10.5416
例	-10.5419
彰	-10.5419
毀辱	-10.542
王所	-10.542
悅豫	-10.5421
不識	-10.5421
瘡	-10.5421
塔廟	-10.5421
復得	-10.5422
如是大悲	-10.5422
截	-10.5423
復說偈言	-10.5423
目連	-10.5425
稱量	-10.5426
非想非非想處	-10.5426
如法而住	-10.5427
無二無別	-10.5428
宣揚	-10.5429
障蔽	-10.5429
得離	-10.5429
諮問	-10.5429
瞋恨	-10.5432
陰蓋	-10.5436
皆應供養	-10.5437
鬪	-10.5438
由是因緣	-10.5447
歡樂	-10.5449
歸於	-10.5449
唱言	-10.5452
方面	-10.5453
法音	-10.5458
性空	-10.5459
標	-10.546
所愛	-10.5462
上首	-10.5465
為首	-10.5466
正住	-10.5466
眾生煩惱	-10.5467
能調伏	-10.5468
之形	-10.5468
長短	-10.5471
是三昧者	-10.5475
不具	-10.5475
染污	-10.5483
中出	-10.5486
汝若	-10.5487
不能自	-10.5491
來詣	-10.5491
現在諸佛	-10.5493
魔眷屬	-10.5495
乃至意	-10.5499
如海	-10.55
安忍	-10.5503
經卷	-10.5506
諸通	-10.5508
伺察者	-10.5513
天主	-10.5514
不可取	-10.5517
無依行	-10.5517
諸惡趣	-10.5528
當觀	-10.553
復見	-10.5538
無實	-10.5539
婁	-10.5547
不能盡	-10.555
又能	-10.555
而出	-10.5554
如月	-10.5564
造惡	-10.5566
海水	-10.5574
得度	-10.5587
正智	-10.5589
永斷	-10.559
一切佛剎	-10.5591
少欲	-10.5594
於戒	-10.5595
此閻浮提	-10.5595
百五十	-10.5599
不安	-10.5599
修善法	-10.56
共住	-10.5617
又見	-10.5622
善分別	-10.5622
乏少	-10.5628
十五日	-10.5634
於聲聞乘	-10.5636
苦報	-10.5636
如我所	-10.5636
善觀	-10.5639
惡龍	-10.5642
清淨者	-10.5646
堅住	-10.5648
亦見	-10.5651
離相	-10.5653
菩薩以	-10.5659
一切世界	-10.5662
不害	-10.5664
貌	-10.5666
唯見	-10.5669
初發心	-10.5669
大集會	-10.5673
修慈	-10.5687
向佛	-10.5696
觀世音菩薩	-10.5702
歡悅	-10.5708
之故	-10.5714
我若	-10.5714
墮惡道	-10.5715
世尊所	-10.5717
大道	-10.572
之子	-10.5721
僧物	-10.5726
王位	-10.5726
軟	-10.5727
國中	-10.5728
遠離於	-10.5729
禰	-10.5729
之門	-10.5734
亦與	-10.5734
星生者	-10.5735
巨	-10.5737
其心平等	-10.5743
絰	-10.5743
咤	-10.5744
煩	-10.5744
揭	-10.5745
賓	-10.5747
大地獄	-10.5748
惡獸	-10.5749
見於	-10.575
氏	-10.5751
雅	-10.5752
卒	-10.5752
周旋	-10.5752
摩醯首羅	-10.5754
齒	-10.5755
喪	-10.5755
翳	-10.5756
窟	-10.5756
從坐而起	-10.5757
錄	-10.5757
射	-10.5757
定根	-10.576
我念往昔	-10.576
諸佛土	-10.576
質直	-10.5761
談	-10.5761
於世尊前	-10.5761
乖	-10.5763
羊	-10.5763
支提	-10.5763
親近善友	-10.5764
皆生	-10.5764
綺語	-10.5765
當復	-10.5765
兼	-10.5766
如意珠	-10.5766
所演	-10.5767
懈	-10.5768
牢固	-10.577
它	-10.577
陰界入	-10.5771
等無有異	-10.5771
塵垢	-10.5772
善家子善家女	-10.5772
多羅樹	-10.5774
隨所在處	-10.5774
等法	-10.5774
五蓋	-10.5775
為他說	-10.5779
是則名戒	-10.578
受諸苦惱	-10.578
淨妙	-10.5781
得法	-10.5782
燒香	-10.5783
彼善男子	-10.5785
墮落	-10.5787
輕重	-10.579
出息	-10.5792
汁	-10.5795
所出	-10.58
大罪	-10.58
聞其	-10.5801
諸天世人	-10.5803
心清淨	-10.5809
於彼國土	-10.5809
廣宣	-10.5813
喜悅	-10.5815
生死流轉	-10.5816
彼諸菩薩	-10.5818
如是名為	-10.5818
為他說法	-10.5818
各自	-10.5819
聽我	-10.582
四攝法	-10.5823
非常	-10.5824
諸經	-10.5825
六通	-10.5827
餘乘	-10.5829
覺分	-10.5832
無智	-10.5838
為眾生說	-10.584
不退轉地	-10.5841
力者	-10.5843
備悉	-10.5849
見其	-10.5862
諸物	-10.5867
此非	-10.5875
一面	-10.5875
多諸	-10.5879
知是	-10.588
▁爾時	-10.588
處於	-10.588
之智	-10.5881
攝持	-10.5881
勤作者	-10.5885
三行	-10.589
一切勇猛	-10.5892
過去世	-10.5894
為善知識	-10.5905
而去	-10.5915
非想	-10.5918
正語	-10.5928
正觀	-10.5933
一切苦	-10.5934
)「	-10.5935
如是行者	-10.594
如是言	-10.5942
優波	-10.5946
種種寶	-10.5946
無眾生	-10.5947
四事	-10.5947
師子王	-10.5948
功德天	-10.595
因緣生	-10.595
以手	-10.5973
不疑	-10.5977
阿鼻地獄	-10.5978
見他	-10.5978
不二	-10.5979
無物	-10.5979
然彼	-10.5981
心淨	-10.5989
住在	-10.599
世尊說	-10.5992
劫名	-10.6001
無起	-10.6002
大捨	-10.6005
轉增	-10.6013
知色無	-10.6022
皆不	-10.6026
或見	-10.6029
五戒	-10.603
一字	-10.6032
施福	-10.6032
無性	-10.6033
相似	-10.6037
於色	-10.6039
初心	-10.6042
是故名	-10.6054
能分別	-10.6057
而言	-10.606
閻羅	-10.6064
闇冥	-10.6064
諸王	-10.6065
得阿羅漢果	-10.6066
於彼何者	-10.6067
四法	-10.6072
彼則	-10.6072
亦悉	-10.6073
茲	-10.6078
駄	-10.6082
由是	-10.6084
翅	-10.6085
犁	-10.6087
念力	-10.6088
憍尸迦	-10.6089
群	-10.609
㝹	-10.6092
曼	-10.6094
忍力	-10.6095
佛告梵王	-10.6097
喚	-10.61
穢濁	-10.6104
昏	-10.6106
出現	-10.6106
紅	-10.6106
恩愛	-10.6111
竹	-10.6112
九十五	-10.6112
早	-10.6113
藉	-10.6113
剛	-10.6114
朝	-10.6115
獨步	-10.6116
慧眼	-10.6116
拔濟	-10.6117
卷第一	-10.6119
又發起者	-10.6119
麥	-10.6121
人中尊	-10.6121
得法眼淨	-10.6121
微細	-10.6122
有三種	-10.6124
怨家	-10.6125
結加趺坐	-10.6125
即與	-10.6127
願向菩提	-10.6127
不可窮盡	-10.6128
斗	-10.6128
剎利旃陀羅	-10.6129
恒河沙數	-10.6133
覆藏	-10.6134
悉無	-10.6136
繫屬	-10.6138
現在世	-10.6138
禮佛	-10.6138
來者	-10.6139
所得功德	-10.6139
汝今當知	-10.6141
資具	-10.6143
能除斷	-10.6145
禪思	-10.6147
佛告舍利弗	-10.6148
聖母	-10.615
菩薩摩訶薩成就此輪	-10.6152
真善剎利	-10.6161
此諸眾生	-10.6164
如是三	-10.6164
實相	-10.6165
眾多	-10.6168
法語	-10.6169
六種	-10.6172
即不能	-10.6173
一切諸來大眾	-10.6174
淨光	-10.618
深義	-10.6184
口中	-10.619
弊惡	-10.6193
實非	-10.6195
來集會	-10.6197
除愈	-10.6199
二邊	-10.62
所觀	-10.6203
慈悲心	-10.6205
無障	-10.6211
一切眾會	-10.6223
復生	-10.6226
來此	-10.6227
雨種種	-10.6231
大光	-10.6231
稱譽	-10.6232
天帝	-10.6237
聞此法門	-10.6241
獲得如是	-10.6253
甚大	-10.6253
又其	-10.6261
如來知	-10.6265
於後	-10.6265
菩薩持戒	-10.6268
有得	-10.6269
汝等應當	-10.6269
真金	-10.6272
有五	-10.6272
則知	-10.6279
善丈夫	-10.628
是經典	-10.6281
為汝說	-10.6284
若念	-10.6286
汝能	-10.6291
皆因	-10.6294
而說	-10.6305
魔軍	-10.6308
為斷	-10.632
作佛事	-10.6321
習行	-10.6322
大富	-10.6332
又云	-10.6334
陀羅尼門	-10.6334
受眾苦	-10.6335
沫	-10.6343
未生	-10.6347
百四十	-10.6348
有十	-10.635
我今欲	-10.6351
百劫	-10.6351
皆同	-10.6351
諸病	-10.636
乃是	-10.6369
放光明	-10.6375
無法	-10.6379
大眾中	-10.6387
法相	-10.6387
病人	-10.6392
以如是等	-10.6394
于時	-10.6394
不喜	-10.6396
彼佛世界	-10.64
不懈	-10.6403
所樂	-10.6406
所為	-10.6417
進退	-10.642
昴宿	-10.6421
隨有	-10.6425
月光	-10.6434
正勤	-10.6436
婁宿	-10.6437
於無量	-10.6439
張宿	-10.6454
於諸如來	-10.6454
一切諸佛世尊	-10.6454
誨	-10.6455
自言我無罪	-10.6457
何謂菩薩	-10.6462
有一人	-10.6466
斗宿	-10.6466
氐宿	-10.6467
群黎	-10.6471
柳宿	-10.6472
而現	-10.6473
厄	-10.6473
仇	-10.6474
第九	-10.6474
凶	-10.6475
凡有	-10.6475
祥	-10.6476
虛宿	-10.6479
是為賢聖之正見也	-10.6479
虎狼	-10.6479
延	-10.6482
單	-10.6482
食噉	-10.6482
較	-10.6482
愆	-10.6483
闡	-10.6484
不善法	-10.6484
虛偽	-10.6484
作是語已	-10.6484
王舍大城	-10.6484
吞	-10.6486
以是緣故	-10.6486
閻浮洲	-10.6487
擾亂	-10.6489
憒閙	-10.6489
頸	-10.6491
夜叉大將	-10.6491
逼迫	-10.6491
行住坐臥	-10.6492
願樂欲聞	-10.6492
保	-10.6492
良藥	-10.6493
白彼佛言	-10.6494
判	-10.6495
寺舍	-10.6496
瞋忿	-10.6498
滿足六波羅蜜	-10.65
勝智	-10.6501
聰慧	-10.6501
聾	-10.6502
退坐一面	-10.6503
瑕穢	-10.6503
發勤精進	-10.6503
具大慈悲	-10.6504
正受	-10.6504
作大福田	-10.6505
以神力	-10.6506
三受	-10.6506
乃至迦吒富單那	-10.6507
諸菩薩問佛	-10.6507
陣	-10.6508
娑婆界	-10.6508
聽許	-10.6508
供養諸佛	-10.651
受於	-10.6511
衣服飲食	-10.6513
忽然	-10.6516
猶如金剛	-10.6516
入於涅槃	-10.652
大菩提	-10.6521
穿	-10.6521
者名為	-10.6521
無聲	-10.6529
威神力故	-10.6532
誦經	-10.6533
若離	-10.6533
發者	-10.6535
勤修精進	-10.6536
此處	-10.6539
魔言	-10.6541
墮三惡道	-10.6542
威光	-10.6554
彼中	-10.6554
守護供養	-10.6555
其佛	-10.656
若是	-10.6563
問答	-10.6564
造惡業	-10.6564
蓮華上	-10.6565
使我	-10.6571
所集	-10.6571
命根	-10.6576
是定	-10.6582
善見	-10.6584
無心	-10.6589
俗人	-10.659
人等	-10.6591
無上大乘	-10.6593
得聞如是	-10.6595
從本	-10.6601
嘆	-10.6605
即無	-10.6609
無減	-10.661
所有功德	-10.6613
則無有	-10.6618
廣說乃至	-10.6621
惡者	-10.6622
悉具足	-10.6624
繩	-10.663
塵欲	-10.663
受之	-10.6632
常求	-10.6636
淨行	-10.6641
品第	-10.6643
諸惡眾生	-10.6649
菩薩摩訶薩亦復如是	-10.6649
有為法	-10.6649
無學	-10.6651
須彌山王	-10.6656
九十九	-10.6657
令彼眾生	-10.6658
宣說正法	-10.6664
生歡喜	-10.6665
分明	-10.6669
當生	-10.6671
告言	-10.6679
大水	-10.6684
不須	-10.6686
以慧	-10.6688
誑惑	-10.6689
群生	-10.6692
不悔	-10.6695
眼見	-10.6697
現作	-10.6698
有八萬四千	-10.67
無有能	-10.6702
不證	-10.6706
乾闥婆等	-10.6707
如來身	-10.671
動搖	-10.6713
定力	-10.6716
世中	-10.672
知者	-10.6721
真正	-10.6725
有生	-10.6725
諦觀	-10.6726
千俱胝	-10.6727
得成就	-10.6733
貪心	-10.6738
因故	-10.6739
心相	-10.6739
未能	-10.6739
彼彼	-10.6748
調柔	-10.6754
非離	-10.6758
無憂	-10.6759
更有	-10.6764
五無間	-10.6769
我反	-10.6769
方所	-10.6771
觀眾生	-10.6771
汝以	-10.6779
爾乃	-10.6786
智故	-10.6787
不及	-10.6791
波利	-10.6791
無覺	-10.6811
志心	-10.6817
若作	-10.6818
四正勤	-10.6821
得受記	-10.6822
一身	-10.6827
競	-10.6827
非處	-10.6831
化人	-10.6833
聞正法	-10.6834
如響	-10.6835
數量	-10.6836
意力	-10.6836
於無量劫	-10.6838
辛	-10.6839
說偈言	-10.6842
此界	-10.6843
諸來	-10.6843
攝護養育	-10.6844
訶䫂	-10.6846
不眴菩薩	-10.6848
泣	-10.6851
巧方便	-10.6856
或於	-10.6858
雹	-10.6858
迫	-10.6858
壯	-10.686
無滅	-10.686
哭	-10.686
弘誓	-10.686
豪	-10.6862
損耗	-10.6862
旨	-10.6863
閻	-10.6863
困	-10.6863
佛問諸菩薩	-10.6863
鬚	-10.6864
漿	-10.6864
娑婆呵	-10.6864
屈	-10.6865
奈	-10.6866
枯涸	-10.6866
醜	-10.6866
綿	-10.6868
田宅	-10.6868
託	-10.6868
偽	-10.6869
才	-10.6869
增上慢	-10.6869
借	-10.6871
商主	-10.6871
童男童女	-10.6871
仍	-10.6872
案	-10.6872
謫罰	-10.6872
資財	-10.6873
以權方便	-10.6874
黑暗	-10.6875
日用事	-10.6875
獻	-10.6875
屋宅	-10.6876
畵	-10.6876
遊步	-10.6877
同名	-10.6878
我今以彼	-10.6879
大寶坊中	-10.6879
伽樓羅	-10.688
弱	-10.6881
呪術	-10.6881
憎愛	-10.6882
優波離	-10.6883
淫	-10.6883
作是觀已	-10.6883
授阿耨多羅三藐三菩提記	-10.6884
今以	-10.6884
常能	-10.6888
我曹	-10.6889
即從坐起	-10.6889
毒藥	-10.689
時舍利弗	-10.6892
得大自在	-10.6894
大城	-10.6895
諸禪	-10.6897
諸禪定	-10.69
皆應	-10.6902
如是甚深	-10.6903
希求	-10.6904
報恩	-10.6905
大梵王	-10.6907
天眾	-10.6908
那羅	-10.6911
不愛	-10.6913
世事	-10.6914
非法器	-10.6914
了達	-10.6915
變成	-10.6916
涅槃樂	-10.6917
善不善	-10.6919
栴檀香	-10.6919
令解脫	-10.6919
祭之	-10.6921
作沙門	-10.6923
樂說無礙	-10.6924
惡不善法	-10.6925
容受	-10.6927
菩提分法	-10.6927
寶聚	-10.6928
色如	-10.6929
三月	-10.693
於佛所	-10.6931
盡力	-10.6934
雖知	-10.6936
名如法住	-10.6939
於前	-10.694
為一切眾生	-10.6941
自修	-10.6941
如地	-10.6942
戒禁	-10.6944
一切諸法亦復如是	-10.6946
何等為三	-10.6949
通利	-10.6952
聖教	-10.6953
念誦	-10.6958
道路	-10.6963
饒	-10.6963
七種	-10.6966
值佛	-10.6967
天華	-10.6969
無勝	-10.6972
復令	-10.6973
阿羅漢果	-10.6973
相者	-10.6973
梵音	-10.6975
故不可盡	-10.6985
十千	-10.6995
知諸眾生	-10.7
受安樂	-10.7004
兩手	-10.7004
海中	-10.7013
度彼岸	-10.7013
不輕	-10.7015
九十六	-10.7016
恥	-10.702
平等無二	-10.7021
可謂	-10.7021
一生	-10.7022
無命	-10.7026
無我我所	-10.7028
皆發阿耨多羅三藐三菩提心	-10.7032
諸妙	-10.7035
心如實知	-10.7036
惡報	-10.7036
所入	-10.7039
菩提樹下	-10.7039
知一切法無	-10.7051
生苦	-10.7057
知一切	-10.706
是以	-10.7068
皆已	-10.707
十方諸	-10.7072
帝釋天	-10.7074
眼目	-10.7074
佛輪	-10.7075
眾善	-10.7081
四十四	-10.7082
是初發	-10.7086
瞋心	-10.7095
調眾生	-10.7097
此義	-10.7098
學是三昧	-10.7099
自思惟	-10.71
何因	-10.7101
水中	-10.7103
當得阿耨多羅三藐三菩提	-10.7103
無可	-10.7104
成就阿耨多羅三藐三菩提	-10.7108
妙華	-10.711
尚不能	-10.7114
聞經	-10.7116
非人	-10.7116
無有疑	-10.712
無邊身	-10.7134
光明照	-10.7135
無量劫中	-10.714
既得	-10.714
法時	-10.7145
一塵	-10.7162
一切處	-10.7163
訟	-10.7164
是二	-10.7165
阿鼻	-10.7169
必得	-10.7177
紫	-10.718
出於	-10.7185
華嚴	-10.7189
想念	-10.7193
或求	-10.72
其名曰	-10.7211
諸國	-10.7229
十由旬	-10.723
作種種	-10.7235
法幢	-10.7235
濕	-10.7238
亦說無	-10.7239
問如來	-10.724
問訊	-10.724
殿	-10.7241
斷常	-10.7245
幻化	-10.7245
不久當	-10.7247
防	-10.7248
珊瑚	-10.725
=	-10.725
呬	-10.7252
普為一切	-10.7255
默	-10.7258
大乘者	-10.7258
一處	-10.7259
髻	-10.7261
憎	-10.7262
多地也他	-10.7263
擯	-10.7264
順法	-10.7264
覆蔽	-10.7264
駈	-10.7264
淺	-10.7264
堅持	-10.7266
藪	-10.7266
却坐一面	-10.7266
萬歲	-10.7267
如意寶珠	-10.7267
折	-10.7269
潛	-10.727
繞	-10.727
摩伽陀國	-10.727
融	-10.7272
佛告藥上菩提薩埵	-10.7272
嫌	-10.7272
惡毒	-10.7273
村	-10.7274
知識無	-10.7274
尊貴	-10.7275
呵罵	-10.7278
天龍八部	-10.7278
夜摩天	-10.7279
伺察門	-10.7279
根源	-10.728
所獲福聚	-10.7281
恒河沙等諸佛世界	-10.7281
富伽羅	-10.7281
犯根本重罪	-10.7281
敷演	-10.7282
雜染	-10.7283
具足如是	-10.7283
良醫	-10.7284
不苦不樂	-10.7287
賣	-10.7287
助歡喜	-10.7289
自得	-10.7289
可畏	-10.729
悔過	-10.729
音響	-10.7292
惡言	-10.7293
猶若虛空	-10.7295
謝過	-10.7296
眼色	-10.7299
檀那	-10.73
現在未來	-10.7301
成就無量	-10.7303
涅槃之道	-10.7304
教誨	-10.7306
經行	-10.7307
勝三昧	-10.7308
盛滿	-10.7309
法句	-10.7309
以偈讚	-10.7312
花鬘	-10.7312
請問如來	-10.7313
不護	-10.7315
明相	-10.7318
滅無餘	-10.7318
侵奪	-10.732
婬欲	-10.7326
不眴	-10.7326
各異	-10.7326
無有障礙	-10.733
毒害	-10.7332
因緣法	-10.7332
閻浮眾生	-10.7338
普勇菩薩	-10.7341
之難	-10.7341
作師子吼	-10.7342
得脫	-10.7344
見諸法	-10.7345
活命	-10.7347
我等亦	-10.7348
如幻化	-10.7348
四面	-10.7349
了義	-10.7351
來世	-10.7353
摩呵	-10.7354
是持	-10.7354
遍知	-10.7355
惟願	-10.7356
不思	-10.7357
與之	-10.7358
天人大眾	-10.7368
佛國土	-10.7375
財利	-10.7377
是我	-10.7378
主命	-10.738
無有邊	-10.7386
何者為	-10.7386
佛法僧	-10.7386
百八十	-10.7387
散滅	-10.7387
若男	-10.7388
得安隱	-10.739
其中眾生	-10.7391
失行	-10.7392
四十六	-10.7393
相違	-10.7394
如風	-10.7395
欲入	-10.7397
必定	-10.7398
故有	-10.7399
末世	-10.74
在此	-10.7402
之想	-10.7405
於一切處	-10.7406
一向	-10.7407
八十四	-10.7409
眼根	-10.7409
更相	-10.7411
之功	-10.7413
行人	-10.7414
布施供養	-10.7414
道意	-10.7416
心所	-10.7417
一切人民	-10.7417
般	-10.7428
四天下中	-10.7432
學者	-10.7437
眾病	-10.7438
行業	-10.7439
證菩提	-10.7439
於四	-10.7441
盡滅	-10.7447
無間地獄	-10.745
非即	-10.7453
或復有	-10.7456
超勝一切聲	-10.7461
如是一切	-10.7462
利根	-10.7465
十方界	-10.7467
常處	-10.7468
誰當	-10.7468
而彼菩薩	-10.748
髓	-10.7482
過諸	-10.7487
極惡	-10.7491
眾生之類	-10.7492
彼岸故	-10.7493
法教	-10.7495
者是	-10.7497
勝上	-10.75
種種華	-10.75
教勅	-10.7501
法寶	-10.7502
度世	-10.7512
天衣	-10.7512
辭無礙	-10.7514
智光	-10.7518
見如	-10.7521
若住	-10.7522
苦受	-10.7527
離散	-10.7529
蘇摩	-10.753
賢者	-10.7532
昴	-10.7532
何等法	-10.7535
能降	-10.7541
伽陀	-10.7545
業故	-10.7546
我觀	-10.7551
大丈夫	-10.7553
如是經典	-10.7556
能使	-10.7557
彼等眾生	-10.7568
滅定	-10.7571
不還	-10.7582
弊	-10.7588
所有善根	-10.7591
阿蘭若	-10.7593
諸魔眾	-10.7599
眾德	-10.7611
一切功德	-10.7613
除一切	-10.7614
樓閣	-10.7614
此三	-10.7616
諸國土	-10.762
無缺	-10.7621
參宿	-10.7631
於大乘法	-10.7631
觀是	-10.7646
不順	-10.7649
為難	-10.765
諸佛境界	-10.7652
險	-10.7654
譬如大海	-10.7656
顏	-10.7658
槃	-10.7661
諸佛剎	-10.7661
揚	-10.7663
莎波呵	-10.7665
菩	-10.7668
童真	-10.7669
按	-10.7672
鮮	-10.7674
承他音	-10.7674
憙	-10.7677
總𠢕王菩薩	-10.7678
疲惓	-10.7678
膝	-10.7679
玉	-10.7679
菩薩乘	-10.768
叢林	-10.7681
眠	-10.7681
灌	-10.7682
堅強	-10.7682
抱	-10.7682
選擇	-10.7683
不妄置立	-10.7684
嗔	-10.7687
改	-10.7687
滅壞	-10.7689
不可稱	-10.7689
梯	-10.7689
渴愛	-10.769
優鉢羅	-10.769
善權方便	-10.769
嶮	-10.7691
芽	-10.7692
橋	-10.7692
說是偈已	-10.7694
若有男子女人	-10.7694
滓	-10.7694
美味	-10.7695
簡	-10.7696
汝今諦聽	-10.7696
戀	-10.7696
決擇	-10.7696
獼猴	-10.7697
工巧	-10.7697
眾事	-10.7697
八聖道分	-10.7698
罪苦眾生	-10.7698
生希有心	-10.7698
淨居天	-10.7699
將來	-10.7701
恒河	-10.7701
頻婆羅	-10.7702
泰	-10.7703
聖種	-10.7703
南閻浮提	-10.7704
猛利	-10.7707
弗沙	-10.7709
為他人說	-10.771
惡相	-10.7712
種類	-10.7712
以用	-10.7712
大龍	-10.7713
居家	-10.7714
之文	-10.7714
菩薩爾時	-10.7714
於三寶中	-10.7716
於斯	-10.7717
何等為五	-10.7718
聽受正法	-10.772
住法	-10.7721
彼菩薩摩訶薩	-10.7724
未來現在	-10.7726
除其	-10.7726
是義	-10.7726
牛王	-10.7728
能過	-10.7729
如是觀已	-10.7729
於善法	-10.7731
智慧莊嚴	-10.7733
佛知	-10.7734
佛子	-10.7735
邪論	-10.7735
於一念頃	-10.7739
青色	-10.7739
不學	-10.774
彼即	-10.7743
乞食	-10.7743
大利益	-10.7744
非無	-10.7745
生起	-10.7747
不足	-10.7748
前際	-10.7748
修菩提	-10.7752
逼惱	-10.7752
莊嚴於	-10.7753
』	-10.7757
是真	-10.7757
過去佛	-10.776
大迦葉	-10.7761
得勝	-10.7761
於三乘	-10.7762
所說正法	-10.7765
無差	-10.7765
火燒	-10.7768
無上大	-10.7771
詣彼	-10.7773
此之	-10.7776
常作	-10.7776
二子	-10.7781
而得自在	-10.7782
時王	-10.7786
吾今	-10.7786
脫門	-10.7787
不空見菩薩	-10.7793
佛神力故	-10.7794
常為一切	-10.7796
諸三摩地	-10.7797
胡麻	-10.7798
山林	-10.7799
神通變化	-10.78
非因	-10.78
同是	-10.7804
諸人天	-10.7806
至心聽	-10.782
若佛	-10.7823
五神通	-10.7823
流轉生死	-10.7823
一切眾生心	-10.7826
供養世尊	-10.783
兵眾	-10.7833
義無礙	-10.784
無量眾	-10.7842
是空	-10.7842
一切諸行	-10.7843
定自在王	-10.7846
先當	-10.7846
魔怨	-10.7849
王等	-10.785
為一切	-10.7852
大海水	-10.7853
辟	-10.7856
大神力	-10.7858
四十八	-10.7859
佛菩提	-10.786
持是	-10.786
起大悲心	-10.7871
善女人等	-10.7872
所因	-10.7876
欲令眾生	-10.7878
遙見	-10.7879
我於彼	-10.7883
隨業	-10.7885
法樂	-10.7886
持禁戒	-10.7896
不惱	-10.7904
舍婆	-10.7905
即名為	-10.7906
使令	-10.7918
助菩提	-10.7918
那國	-10.7918
無自性	-10.7918
其心清淨	-10.7919
寶坊	-10.7919
煩惱魔	-10.7921
大千	-10.793
諸佛菩薩	-10.7931
亦常	-10.7934
不厭	-10.7935
樂求	-10.7936
自念	-10.7943
彼王	-10.7944
不造	-10.7944
一切皆得	-10.7948
念慧	-10.7949
喻如	-10.7954
我之	-10.7955
文句	-10.7956
以佛	-10.7959
聖智	-10.7959
大梵天	-10.7961
蓮	-10.7967
之德	-10.7974
能到	-10.7979
是名為慧	-10.798
猶如幻	-10.7981
善根故	-10.7982
念根	-10.7984
說法師	-10.7992
明識	-10.7993
成就眾生	-10.7997
亢宿	-10.8006
不絕	-10.8007
諸事	-10.8008
出世法	-10.8009
達囉	-10.8011
非不	-10.8012
獲大	-10.8012
五趣	-10.8017
佛性	-10.8018
何有	-10.8021
囉婆	-10.8027
不誑	-10.8034
誘	-10.8036
一切諸眾生	-10.8039
受諸苦	-10.804
繫心	-10.8046
謂一切法	-10.8049
捨身命	-10.8049
下至	-10.805
世間眾生	-10.806
修梵行	-10.8065
無有邊際	-10.8065
四十九	-10.8067
葛	-10.807
合掌而	-10.8072
最初	-10.8073
五十三	-10.8079
龍神	-10.8079
二百	-10.8081
彼亦	-10.8084
滿中	-10.8087
途	-10.8088
惡王	-10.8089
井宿	-10.8089
到佛所	-10.8091
如今	-10.8099
一切法界	-10.8099
到於彼岸	-10.81
大人	-10.8101
所立	-10.8102
胃宿	-10.8102
而度脫之	-10.8103
空性	-10.8105
定心	-10.8106
誤	-10.8108
[	-10.811
胸	-10.811
男夫婦女	-10.8111
耽	-10.8111
鮮潔	-10.8112
彼有	-10.8112
沸	-10.8112
咽	-10.8113
於諸有情	-10.8113
摸	-10.8113
蔽礙	-10.8113
藥上菩提薩埵摩訶薩埵	-10.8114
四十三	-10.8115
幡	-10.8116
嗅	-10.8118
頑	-10.8118
剋	-10.8118
幼	-10.8119
渴仰	-10.812
種種莊嚴	-10.812
科	-10.812
爭	-10.8121
牀	-10.8121
囑累	-10.8122
儉	-10.8122
諮受	-10.8122
澁	-10.8122
繫閉	-10.8122
鐵圍	-10.8123
中生	-10.8123
劇	-10.8123
考	-10.8123
我住	-10.8124
秪	-10.8124
涉	-10.8125
徵	-10.8125
擇	-10.8125
阿須倫	-10.8125
𦦨	-10.8125
和雅	-10.8126
優波底沙	-10.8126
受勝妙樂	-10.8128
猪	-10.8128
殑伽沙數	-10.8128
常有	-10.8128
畢宿	-10.8128
精還	-10.8129
大乘大集地藏十輪經	-10.813
糞	-10.813
舉動	-10.813
羸	-10.8131
地上	-10.8131
伺	-10.8132
自謂	-10.8132
疲倦	-10.8132
耆闍崛山	-10.8133
并諸眷屬	-10.8133
作是觀時	-10.8133
奇哉	-10.8135
眾罪	-10.8135
蓮華座	-10.8135
魔境界	-10.8135
深固	-10.8137
者即是無	-10.8137
阿那含果	-10.8138
非積聚不可	-10.8139
聖賢	-10.8139
天藏大梵	-10.8139
童女	-10.814
佛告寶女	-10.8141
皆成	-10.8141
藥叉	-10.8143
無上智	-10.8143
三脫門	-10.8144
神通之力	-10.8148
得解	-10.8148
六情	-10.8148
久近	-10.8149
八聖道	-10.815
增進	-10.815
奎	-10.8151
雲集	-10.8152
菩薩不退印	-10.8152
諸菩薩報佛	-10.8157
生死河	-10.8159
穢惡	-10.8159
之前	-10.816
愚人	-10.8165
達摩	-10.8166
若女	-10.8169
如是念已	-10.8176
彼法	-10.8176
亦離	-10.8178
善語	-10.8178
各以	-10.8181
摩頂	-10.8182
法性爾	-10.8184
!』	-10.8185
若說	-10.8186
於身	-10.8186
諸惡業障	-10.8189
佛出	-10.8189
異相	-10.8189
自恣	-10.8193
緣生法	-10.8195
三解脫	-10.8196
一類	-10.8196
三品	-10.8199
佛告阿難	-10.8199
行道	-10.8201
變異	-10.8208
無有差別	-10.821
缺漏	-10.8214
一一眾生	-10.8215
聞之	-10.8217
恒河沙劫	-10.8217
獨處	-10.8217
照耀	-10.8218
則生	-10.8219
而為供養	-10.8221
者則無	-10.8231
財施	-10.8231
億劫	-10.8234
咸皆	-10.8237
耳根	-10.8242
空相	-10.8243
常說	-10.8243
有四種	-10.8249
於心	-10.8257
日夜	-10.826
為愛	-10.8261
止住	-10.8261
向彼	-10.8263
流出	-10.8266
釋迦牟尼	-10.8276
法行比丘	-10.8279
願求	-10.8279
法無礙	-10.828
四無量	-10.8283
之內	-10.8285
正命	-10.8285
彌勒菩薩摩訶薩	-10.8291
持用	-10.8293
專心	-10.8295
從其	-10.8304
眾所	-10.8306
之上	-10.831
攝心	-10.8314
善師	-10.8315
安止	-10.8317
欲知	-10.8317
假令	-10.8319
謂菩薩	-10.8321
種種微妙	-10.8321
遮遮	-10.8325
不當	-10.8326
從心	-10.8334
真如故則	-10.8343
鴦	-10.8345
與眾生	-10.8346
如來十力	-10.8348
復有四事	-10.835
如影	-10.8351
為除	-10.8357
宿命智	-10.8358
菩提行	-10.8362
一種	-10.8366
獨覺乘法	-10.8373
所謂識	-10.8374
聽經	-10.8375
彼佛言	-10.8377
之數	-10.838
念於	-10.8381
一一皆	-10.8383
又於過去	-10.8384
那由他百千	-10.8386
六十億	-10.8387
受其	-10.8387
承事供養	-10.8388
迦葉佛	-10.8389
心宿	-10.839
有相	-10.8394
行步	-10.8396
復還	-10.84
身得	-10.8402
割	-10.8407
救度	-10.841
最為	-10.841
有此	-10.8413
箕宿	-10.842
深重	-10.8427
而知	-10.8434
變為	-10.8434
婆利	-10.8437
不敬	-10.8437
此言	-10.8443
波羅蜜多	-10.8453
口言	-10.8459
後際	-10.8464
加害	-10.8465
有所說	-10.8466
以智慧	-10.8472
為欲利益	-10.8473
會中有一菩薩	-10.8474
城中	-10.8477
而是	-10.8482
心所念	-10.8482
常勤	-10.8482
斯等	-10.8485
自歸	-10.8487
諮	-10.8497
二句	-10.8498
常自	-10.85
知他心	-10.8504
無量阿僧祇劫	-10.8508
恭敬禮拜	-10.851
悉來	-10.8514
華蓋	-10.8515
他故	-10.8516
斷於	-10.8519
勸令	-10.8523
所發	-10.8526
翼宿	-10.8526
生已	-10.8531
一月	-10.8539
罪過	-10.8542
汦	-10.8546
危宿	-10.8547
誐	-10.8547
大導師	-10.8548
社	-10.8553
捺	-10.8554
浴	-10.8556
未曾聞	-10.8556
環	-10.8559
修供養	-10.856
色無	-10.8561
積累	-10.8562
納	-10.8565
大石	-10.8567
黎庶	-10.8567
奇特	-10.8568
梵眾	-10.8569
剛強	-10.857
觀此	-10.857
不增不減	-10.857
楚	-10.857
耗	-10.857
傾	-10.8571
首楞嚴	-10.8571
算數	-10.8571
恐畏	-10.8572
瑜伽	-10.8573
滋	-10.8573
精進根	-10.8573
眾生發阿耨多羅三藐三菩提心	-10.8574
三摩跋提	-10.8574
春	-10.8574
孤	-10.8575
隱蔽	-10.8577
朗	-10.8577
迎	-10.8578
無上正等菩提	-10.8579
染衣	-10.8579
騰	-10.8579
採	-10.8579
稟	-10.858
局	-10.858
諸如來所	-10.858
又其處者	-10.8581
軌	-10.8582
滴	-10.8582
調戲	-10.8582
盜賊	-10.8583
斧	-10.8583
附	-10.8583
羅睺羅	-10.8583
隔	-10.8584
虛空孕菩薩摩訶薩	-10.8584
根本重罪	-10.8585
得樂	-10.8585
梁	-10.8585
醜陋	-10.8587
名為淨印	-10.8589
今經	-10.8589
了了知	-10.8591
能自	-10.8592
慈氏	-10.8592
神呪	-10.8594
不求果報	-10.8594
三道	-10.8595
無與等	-10.8596
名利	-10.8597
第四禪	-10.8598
發言	-10.8598
墮於惡道	-10.8598
名譽	-10.86
以天眼	-10.8602
毘沙門	-10.8602
於三乘中	-10.8603
一切五欲皆	-10.8603
聖諦	-10.8606
諸趣	-10.8607
逼切	-10.8609
過去未來現在	-10.8609
有能至心稱名	-10.8609
令彼佛土一切	-10.8614
教誡	-10.8615
諍競	-10.8615
開顯	-10.8616
已到第一	-10.862
一切魔	-10.8623
燈明	-10.8624
叫喚	-10.8626
其無	-10.8627
四天王天	-10.8629
次復	-10.8631
毀犯	-10.8633
毘婆	-10.8636
陀摩	-10.8637
諸邪見	-10.8637
憂苦	-10.8639
總示	-10.8639
不缺	-10.8641
比丘言	-10.8642
知苦	-10.8644
一由旬	-10.8648
無有住處	-10.8648
千由旬	-10.865
名瓔珞莊嚴	-10.8652
分散	-10.8655
之所行	-10.8657
審諦	-10.8662
大自在	-10.8665
妙好	-10.8665
等覺	-10.8671
造立	-10.8672
為破	-10.8673
梵釋	-10.8673
我者	-10.8674
業力	-10.8677
福行	-10.8678
佛威神	-10.8681
豈非	-10.8681
微塵等	-10.8684
得未曾有	-10.8684
奉施	-10.8685
是名曰	-10.8685
四十七	-10.8687
所持	-10.8691
無底	-10.8691
彼族姓子	-10.8691
善趣	-10.8692
半月	-10.8693
鬼宿	-10.8702
之所建立	-10.8703
能除一切	-10.8703
則無所	-10.8704
尋即	-10.8705
性即是	-10.8706
九十二	-10.8706
在會	-10.8708
來會	-10.8708
道品	-10.8712
說經	-10.8713
諸賢聖	-10.8714
三昧力故	-10.8714
無言說	-10.8715
依怙	-10.8721
平正	-10.8721
一切諸龍	-10.8722
我又	-10.8723
敬心	-10.8724
不和合	-10.8727
普皆	-10.8736
行時	-10.8738
月藏	-10.874
敘	-10.8744
第	-10.8752
常應	-10.8756
受苦惱	-10.8756
必有	-10.8762
枉	-10.8764
無所從來	-10.8774
皆歡喜	-10.8774
惟佛	-10.8776
施已	-10.8786
鈍根	-10.8792
其智	-10.8792
七財	-10.88
如是乃能	-10.8801
百萬	-10.8802
取一	-10.8802
覆護	-10.8806
會中有一	-10.8808
諸佛之所	-10.8808
不惜	-10.8809
當云何	-10.8809
觀諸眾生	-10.8811
大海中	-10.8813
淨信心	-10.8814
江河	-10.8816
無戲論	-10.8817
如何	-10.8819
作是說	-10.8819
使人	-10.882
靡	-10.8829
供養已	-10.8831
婆邏	-10.8833
無覺觀	-10.8837
金剛䐡	-10.8841
憐愍心	-10.8842
由彼	-10.8843
明見	-10.8848
忍者	-10.8851
利眾生	-10.8855
眾生所有	-10.8858
癡人	-10.8863
莊嚴其身	-10.8864
不遠	-10.8865
與其	-10.8867
所照	-10.8869
耶婆	-10.8872
復作	-10.8875
一切法空	-10.8878
害心	-10.888
度者	-10.8882
轉於	-10.8884
音聲故	-10.8888
諸龍王	-10.8889
前世	-10.8893
作意	-10.8896
讚嘆	-10.8896
可以	-10.8896
菩薩摩訶薩眾	-10.8902
諸阿修羅	-10.8902
可知	-10.8906
大菩提心	-10.8914
欲塵	-10.8918
諸地	-10.892
出要	-10.8929
千年	-10.893
不善業	-10.8934
虛空界	-10.8934
水界	-10.8936
我常	-10.8937
心寂靜	-10.8937
樂故	-10.8938
世尊知	-10.8939
種性	-10.894
法念處	-10.894
有是	-10.8948
得淨	-10.8948
心法	-10.8949
一切如來	-10.895
復觀	-10.8952
如是等人	-10.8953
生此	-10.8955
得授記	-10.8957
摩摩	-10.8963
語已	-10.8968
聲聞獨覺	-10.8969
』「	-10.897
入空	-10.8971
亦淨	-10.8975
修第一義	-10.8977
邪道	-10.898
不廢	-10.8981
住十地	-10.8989
俱共	-10.8992
邪行	-10.8992
無盡意菩薩	-10.8993
誦持	-10.8995
蘭	-10.8997
死時	-10.9005
諸聖	-10.9005
奎宿	-10.9006
傍	-10.9006
自不	-10.9017
諸罪	-10.902
泯	-10.9021
頻	-10.9026
六種震動	-10.9026
䫂	-10.9026
一千	-10.9029
食之	-10.9029
三昧力	-10.903
蓰	-10.9031
空閑	-10.9031
亦空	-10.9031
僧伽吒	-10.9033
次復置	-10.9033
醫	-10.9034
其上	-10.9035
酤胝	-10.9035
施時	-10.9037
歸依佛	-10.9038
卿	-10.9038
川	-10.9039
矜	-10.9039
說此法門	-10.9039
自相	-10.904
憂波提舍	-10.9041
菩薩得是	-10.9041
銷	-10.9041
惡夢	-10.9041
稍	-10.9041
捐	-10.9044
觜宿	-10.9044
我佛	-10.9045
洞	-10.9045
遲	-10.9045
無等倫	-10.9045
澄	-10.9046
威儀禮節	-10.9046
波頭摩	-10.9047
佛爾時頌偈	-10.9047
尠	-10.9048
百三十	-10.9048
長跪合掌	-10.9048
裂	-10.9048
默然而住	-10.9049
聞是佛名	-10.9049
交露	-10.9049
室宿	-10.905
怯	-10.905
洪	-10.9051
南洲	-10.9051
其子	-10.9052
朋黨	-10.9052
崖	-10.9052
却住一面	-10.9052
芽莖	-10.9053
六衰	-10.9054
蘇婆呵	-10.9054
吾當為汝分別解說	-10.9055
具足最上第一	-10.9055
發菩提	-10.9056
若是法器	-10.9056
最大	-10.9056
繼	-10.9059
沈水	-10.9059
娑伽羅龍王	-10.906
苑	-10.906
均	-10.906
柱	-10.9061
都無	-10.9064
見是事已	-10.9064
明智	-10.9065
將養	-10.9065
厭患	-10.9066
貪瞋癡	-10.9066
譏嫌	-10.9068
府	-10.9068
進止	-10.9068
因陀羅	-10.9069
而出家者	-10.9069
釋梵護世	-10.907
花樹	-10.9071
有餘	-10.9072
獲十種功德	-10.9072
開悟	-10.9074
師子意	-10.9074
正知	-10.9075
逆罪	-10.9076
親屬	-10.9077
憶持	-10.9078
歸依三寶	-10.9078
理趣	-10.9079
他世	-10.908
善現	-10.908
滿月	-10.908
其罪	-10.9081
月藏菩薩摩訶薩	-10.9082
而亦	-10.9082
地水火風	-10.9083
破戒比丘	-10.9085
供養地藏菩薩摩訶薩者	-10.9086
有罪	-10.9088
從緣	-10.9088
三千大千世界六種震動	-10.9089
尸利	-10.909
無所見	-10.909
頭面禮	-10.9092
念過去	-10.9096
與諸眷屬	-10.9096
若非法器	-10.9097
為惡	-10.91
懷大哀	-10.9101
閑林	-10.9102
極重	-10.9103
出聲	-10.9104
父王	-10.9104
普告	-10.9111
如應	-10.9111
盡其	-10.9114
皆來集會	-10.9115
慈悲喜捨	-10.9115
是誰	-10.9118
正位	-10.9131
為多不	-10.9134
不隨他	-10.9135
閻羅王	-10.9135
金剛藏菩薩	-10.914
而共	-10.9145
欲度	-10.9147
生慚愧	-10.9148
如大海	-10.9148
思量	-10.915
無生智	-10.9151
合成	-10.9157
本處	-10.9161
如其所	-10.9162
住大乘	-10.9163
財業	-10.9167
至此	-10.9167
之源	-10.9167
正法眼	-10.9172
帝王	-10.9174
造罪	-10.9176
正法久住	-10.9176
無身	-10.9177
正慧	-10.9183
不空	-10.9184
樂具	-10.9186
好色	-10.9187
諍論	-10.919
燒身	-10.919
大師子吼	-10.9191
道慧	-10.9192
集故	-10.9196
為緣	-10.9197
禮佛足	-10.9197
作是念已	-10.92
到彼	-10.9205
菩薩若能	-10.921
樂寂靜	-10.921
無生滅	-10.9211
有八	-10.9215
取證	-10.9221
命者	-10.9224
從緣生	-10.9226
聞如是	-10.9229
十一者	-10.923
著於	-10.9231
不報	-10.9233
發道意	-10.9238
之寶	-10.9241
清淨持戒	-10.9243
尊重讚歎	-10.9244
成菩提	-10.9247
出家人	-10.9249
界中	-10.925
我曾	-10.9253
六十二	-10.9259
十二者	-10.9262
無處所	-10.9265
能摧	-10.9266
若行	-10.9266
如須彌	-10.9266
之像	-10.9269
順從	-10.927
而用	-10.9272
字句	-10.9272
大火	-10.9274
舉身	-10.9275
犯罪	-10.9276
須知	-10.928
受陰	-10.9287
趣入	-10.9287
即有	-10.9289
道果	-10.9294
尊敬	-10.9296
眾生心行	-10.9303
死者	-10.9307
一切有為	-10.9312
於涅槃	-10.9313
九種	-10.9314
由此定	-10.9323
智慧方便	-10.933
如法比丘	-10.933
已度	-10.9337
此名能	-10.9342
之要	-10.9348
是眼	-10.9353
不宜	-10.9355
一眾生	-10.9359
復欲	-10.9362
成道	-10.9365
迴向無上菩提	-10.9368
生人中	-10.937
婆帝	-10.937
重病	-10.9378
心歡喜	-10.9379
以供養	-10.938
觀彼	-10.9385
乃至沙門	-10.9385
作何	-10.9385
違失	-10.9388
妙行	-10.9389
其志	-10.9397
彼於	-10.9402
可樂	-10.9402
寶星陀羅尼經	-10.9402
超過	-10.9404
說伽陀	-10.9408
瑕	-10.9408
羣	-10.9409
亦復不能	-10.941
清淨戒	-10.9414
心平等	-10.9422
此翻	-10.9425
海印	-10.943
隨心	-10.9433
成就具足	-10.9434
果證	-10.9434
尚不	-10.9439
能作如是	-10.9441
!「	-10.9442
法空	-10.9442
大寶	-10.9443
其聲	-10.9449
正業	-10.945
生大歡喜	-10.9451
菩提樹	-10.9451
首楞嚴三昧	-10.9454
善本	-10.9456
道德	-10.9457
皆悉平等	-10.946
三昧者	-10.9466
汝等當	-10.9466
現種種	-10.9473
無念	-10.9476
二俱	-10.9483
業因緣	-10.9484
自致	-10.9484
羅婆國	-10.9484
故我	-10.9485
一音	-10.9487
難及	-10.949
眾華	-10.9493
倦	-10.9494
所護	-10.9496
修治	-10.9498
吟	-10.9498
聰	-10.95
一切惡業	-10.9503
無住處	-10.9508
此世	-10.9512
角宿	-10.9515
垢穢	-10.9518
能為眾生	-10.9526
其明	-10.9528
讖	-10.9529
復滅	-10.9531
一切佛法亦	-10.9532
群萌	-10.9534
躬	-10.9534
旦	-10.9535
辟宿	-10.9537
跋陀和	-10.9537
法要	-10.9537
牛宿	-10.9537
如是大悲出	-10.954
真陀羅	-10.954
他化自在天	-10.954
甞	-10.954
蜜低	-10.9541
竊	-10.9541
刀兵	-10.9541
祖	-10.9542
工	-10.9542
安詳	-10.9543
不可樂想	-10.9543
循	-10.9545
療治	-10.9546
賜	-10.9546
崩	-10.9546
貞	-10.9546
兔	-10.9546
后	-10.9547
異口同音	-10.9547
傾動	-10.9548
尾宿	-10.9548
軀	-10.9548
蚊	-10.9548
腦	-10.9548
復現	-10.9548
攬	-10.9549
善觀作王	-10.9549
鷹	-10.955
按云	-10.9551
纔	-10.9551
狹	-10.9551
鄉	-10.9551
光味仙人	-10.9553
勝慧	-10.9553
再	-10.9553
懃	-10.9553
諸忍諸地	-10.9554
爪	-10.9555
峯	-10.9555
讁罰	-10.9555
鳩槃荼	-10.9555
語汝	-10.9555
剃髮	-10.9555
歟	-10.9556
刃	-10.9556
無價	-10.9556
由延	-10.9557
娑婆世界主大梵天王	-10.9557
遠塵離垢	-10.9557
於汝意云何	-10.9557
紹三寶種	-10.9558
錢	-10.956
纏縛	-10.9561
當應	-10.9561
輕賤	-10.9561
莊	-10.9561
悳	-10.9563
較量	-10.9564
身而為說法	-10.9564
坐道場	-10.9564
齋日	-10.9564
觀之	-10.9564
有大勢力	-10.9568
及與眷屬	-10.9571
短命	-10.9572
諸佛正法	-10.9573
雜穢	-10.9573
友	-10.9575
算數譬喻所不能及	-10.9576
墮諸惡趣	-10.9576
五無間罪	-10.9576
給施	-10.9579
如前所說	-10.958
而自莊嚴	-10.958
死苦	-10.9581
從此	-10.9582
救世	-10.9582
稱佛	-10.9583
若善男子	-10.9584
此苦	-10.9584
承佛神力	-10.9586
正典	-10.9589
菩薩摩訶薩等	-10.9591
安置生天	-10.9591
四真諦	-10.9594
淳至	-10.9595
苦集	-10.9599
倒見	-10.9599
空無相無願	-10.96
不生驚怖	-10.9605
為欲欲	-10.9609
說法時	-10.961
又令	-10.9612
開解	-10.9614
不生憍慢	-10.9614
陀利	-10.9617
復有二種	-10.9617
諸世界中	-10.962
等物	-10.962
利國	-10.9621
有為無為	-10.9623
四梵行	-10.9625
今已	-10.9629
想行	-10.963
退轉	-10.9631
光顯	-10.9632
以此善根	-10.9632
成法器	-10.9632
聲聞之人	-10.9633
跋陀	-10.9635
娑囉	-10.9636
而行布施	-10.9638
開化眾生	-10.964
得聞此	-10.9641
所獲功德	-10.9643
即是佛智	-10.9643
為利	-10.9644
牛頭栴檀	-10.9645
世尊聲聞弟子	-10.9647
熱銕	-10.9647
無退	-10.9655
闍那	-10.9657
人者	-10.9661
不可壞	-10.9674
色陰	-10.9678
天樂	-10.968
所遊	-10.968
薩婆若	-10.9685
得無所畏	-10.9687
當得成佛	-10.969
』,	-10.9692
聞是法	-10.9695
何人	-10.9696
世間人	-10.9696
業者	-10.97
并諸	-10.9701
六念	-10.9703
妄言	-10.9703
惡色	-10.9703
身不	-10.9707
一切有	-10.9708
七星	-10.9708
一切人天	-10.9709
名為業	-10.9718
損害	-10.972
一切龍王	-10.9722
見釋迦牟尼佛	-10.9725
天身	-10.9725
四無畏	-10.9726
雨於	-10.9732
菩薩不共法	-10.9734
在中	-10.9738
非空	-10.9741
說此陀羅尼	-10.9741
一切眾生皆	-10.9748
妙三昧	-10.9754
不任	-10.9754
上音	-10.9756
鴦伽	-10.9759
難陀龍王	-10.9763
身形	-10.9766
等苦	-10.9766
勝解	-10.9769
四生	-10.9769
三名	-10.9769
如是神通	-10.9775
於一切時	-10.9776
當說	-10.9783
又以	-10.9785
性故	-10.9787
說此經	-10.9789
不得行	-10.979
戒者	-10.9797
不墮惡道	-10.98
佛形像	-10.9802
宣布	-10.9803
作如是等	-10.9805
自利	-10.9805
我當云何	-10.9807
復應	-10.9808
二字	-10.9814
小王	-10.9814
我弟子	-10.9817
世尊復	-10.9821
心亦不	-10.9821
利益故	-10.9822
不得勝	-10.9824
好聲	-10.9825
妙聲	-10.9837
之教	-10.984
大喜	-10.9843
萬億	-10.9844
跋陀和菩薩	-10.9851
他身	-10.9852
能具	-10.9853
故來	-10.9854
智者所	-10.9859
若龍	-10.986
即入	-10.9866
寶洲	-10.9867
能淨於	-10.9869
福智	-10.9871
願說	-10.9872
得阿羅漢	-10.9873
最第一	-10.9882
深入	-10.9885
有德	-10.9886
聞是經	-10.9887
最上之	-10.9889
起諸	-10.9892
入淨	-10.9899
得至	-10.9905
其音	-10.9905
夢見	-10.9912
與佛	-10.9916
道教	-10.9919
斯法	-10.9923
生淨信	-10.993
精進行	-10.9934
者也	-10.9934
影像	-10.9937
一分	-10.9939
本行	-10.9941
夜行	-10.9945
意止	-10.9946
使得	-10.9946
既聞	-10.9949
當持	-10.9951
異生	-10.9953
誠實	-10.9955
心亂	-10.9956
於三寶	-10.9961
復當	-10.9963
手執	-10.9964
惡世	-10.9972
大覺	-10.9974
眾生根	-10.9976
如聞	-10.9978
遍覆	-10.9984
其色	-10.999
我亦如是	-10.999
便為	-10.9992
諸乘	-10.9997
所生處	-10.9998
自用	-10.9999
不破	-10.9999
如是次第	-11.0006
醫王	-11.0008
起惡	-11.001
勝法	-11.0012
於此正法	-11.0012
所感	-11.0013
修菩薩行	-11.0015
知恩	-11.0015
以智	-11.0016
經於	-11.0018
住是	-11.0023
閦浮	-11.0023
世世	-11.0023
障難	-11.0025
諸來大眾	-11.0025
尊重恭敬	-11.0027
無作無	-11.0032
摩波利婆	-11.0035
不恃	-11.004
五百人	-11.0041
虫	-11.0041
我母	-11.0041
之一	-11.0042
若諸菩薩摩訶薩	-11.0044
自稱	-11.0045
不止守	-11.0046
聞此陀羅尼	-11.0046
潔	-11.0055
諸華	-11.0055
辱	-11.0056
緊	-11.0059
上至	-11.006
啼哭	-11.0061
斯有是處	-11.0061
具足五滓	-11.0062
米	-11.0062
賢士	-11.0063
婢	-11.0065
徑路	-11.0065
􂚲􂚲(	-11.0067
憺怕	-11.0067
是名聞聲	-11.0067
扶	-11.0068
請問世尊如斯大義	-11.0068
溫	-11.0069
弄	-11.0069
歎未曾有	-11.007
涕	-11.007
具修	-11.0071
殘	-11.0071
終始	-11.0071
淵	-11.0073
浪	-11.0073
一句一偈	-11.0073
披	-11.0074
鈴	-11.0074
當爾之時	-11.0075
弓	-11.0075
眼所見惡色	-11.0075
軫宿	-11.0076
無礙辯	-11.0076
眼所見中色	-11.0076
耳所聞中聲	-11.0076
中有五百四十百八愛行	-11.0077
牢	-11.0077
顯曜	-11.0077
街	-11.0077
耳所聞惡聲	-11.0077
我於今者	-11.0077
祠祀	-11.0078
冤	-11.0078
鼻所聞好香	-11.0078
蠱	-11.0078
鼻所聞惡臭	-11.0079
發大誓願	-11.0079
渠	-11.0079
完具	-11.0079
鳥獸	-11.008
風吹	-11.008
滌	-11.008
何也	-11.0081
即還入	-11.0081
口所得惡味惡語言	-11.0081
四維	-11.0081
村落	-11.0081
無有窮盡	-11.0082
卷第六	-11.0082
其日生者	-11.0082
七日七夜	-11.0083
說此法時	-11.0084
祕	-11.0084
奉敬	-11.0085
發無上菩提心	-11.0085
兜率陀天	-11.0085
阿難陀	-11.0086
魂	-11.0086
如是比丘	-11.0087
多伽羅香	-11.0087
佛告藥上	-11.0087
譯經三藏朝散大夫試鴻臚卿	-11.0087
儻	-11.0088
不可稱量	-11.0089
而為上首	-11.009
帝幢	-11.009
所得福德	-11.009
貪恚癡	-11.009
生隨喜	-11.009
此則名為	-11.0091
修精進	-11.0092
從定起	-11.0094
憎嫉	-11.0094
出家弟子	-11.0094
汝等今者	-11.0095
如是行者應如實知何者名為	-11.0095
忉利天宮	-11.0095
咸作是言	-11.0095
不去不來	-11.0096
瞿曇沙門	-11.0096
日密	-11.0098
及見	-11.0098
聽聞正法	-11.0099
不受果報	-11.0099
佛告一切勇	-11.0099
遮止	-11.01
溢	-11.01
欣樂	-11.01
學無學	-11.0103
彼諸如來	-11.0104
推求	-11.0106
威神之力	-11.0107
入于	-11.0108
因緣著痛	-11.0108
啼泣	-11.0108
三摩地門	-11.0109
無生無起	-11.0109
久修	-11.011
入三昧	-11.0111
遍滿虛空	-11.0113
四如意足	-11.0114
軟語	-11.0116
食肉	-11.0116
經歷	-11.0117
演說正法	-11.0117
土境	-11.0118
阿蘭若處	-11.0118
寶炬陀羅尼	-11.0118
觀行	-11.0123
離諸怖畏	-11.0123
我即	-11.0123
但有	-11.0124
人皆	-11.0125
聲聞乘法	-11.0126
無失	-11.013
為汝	-11.0131
善惡業	-11.0137
尊位	-11.0138
闍師	-11.0139
忍受	-11.0142
濁惡	-11.0145
為諸眾生說	-11.0146
興發	-11.0147
犯重罪	-11.0148
發遣	-11.0148
是喜	-11.0153
問世尊	-11.0154
於彼佛所	-11.0157
墮道	-11.0159
遍照十方	-11.0161
百年	-11.0162
水聚	-11.0165
身心寂靜	-11.0166
現此	-11.0168
此三摩地	-11.0168
般若波羅蜜多	-11.0171
不見眾生	-11.0172
禪那	-11.0175
緊那羅王	-11.0177
兜率	-11.0179
無有休息	-11.018
三十二事	-11.018
便滅	-11.0186
應誼	-11.0186
功德聚	-11.0187
舉聲	-11.0188
日日	-11.019
唯除如來	-11.0192
毒龍	-11.0199
起瞋	-11.0199
勝行	-11.0202
五十一	-11.0203
所覆	-11.021
俱時	-11.0212
置於	-11.0213
心自在	-11.0218
種樹	-11.0218
幢相	-11.022
邪命	-11.0225
得菩提時	-11.0225
但能	-11.0225
是為愛	-11.0229
教示	-11.0229
其母	-11.0232
眾生精氣	-11.0235
功德智慧	-11.024
一渧	-11.024
日月光	-11.0242
便生	-11.0245
自高	-11.0246
乾陀	-11.0251
法炬	-11.0253
五十二	-11.0253
藥王軍菩薩復	-11.026
寶飾	-11.0264
非彼	-11.0271
當獲	-11.0271
開發	-11.0277
我正法	-11.0277
具足神通	-11.0282
無所分別	-11.0284
發誓願	-11.0285
自境界	-11.0285
耳聞	-11.0287
不惟	-11.0288
四句	-11.0293
即告	-11.0295
伽多	-11.0296
欲滅	-11.0303
劫盡	-11.0305
菩薩修行	-11.0307
得忍	-11.0307
有菩薩名	-11.0312
一切大地	-11.0318
我終不	-11.0318
作不	-11.0318
地獄眾生	-11.0327
寶物	-11.0327
光味菩薩	-11.0331
我忍	-11.0336
勸他	-11.0342
虛空藏答	-11.0352
善學	-11.0355
無思	-11.0356
不變	-11.0357
得已	-11.036
薩埵	-11.036
本清淨	-11.036
當忍	-11.0361
鬼身	-11.0362
無愛	-11.0363
女宿	-11.0367
經論	-11.0367
慧業	-11.0367
五十八	-11.0371
無損	-11.0374
義者即	-11.0376
得見佛	-11.0376
餓鬼中	-11.0378
魔宮	-11.0387
不能滅	-11.0389
大弟子	-11.039
義是	-11.0392
如來功德	-11.0392
受無量	-11.0393
自言	-11.0395
出於世	-11.0395
發問	-11.04
好香	-11.04
立名	-11.0401
五濁惡世	-11.0406
作諸惡	-11.0407
餘處	-11.0409
聖王	-11.0411
所現	-11.0413
有四事	-11.0415
伽邏	-11.0416
普入	-11.0417
不善根	-11.0427
十三者	-11.043
不污	-11.0432
諸過失	-11.0434
口行	-11.0446
有八種	-11.0447
火中	-11.0449
母胎	-11.0451
業輪	-11.0452
不然	-11.0452
未來眾生	-11.0456
行十善	-11.0457
說三乘	-11.0463
不犯	-11.0464
渧	-11.0466
其本	-11.0469
佛頂	-11.0469
無染著	-11.047
百俱胝	-11.0471
知佛	-11.0471
識知	-11.0473
我皆	-11.0475
業行	-11.0482
婆提	-11.0482
所習	-11.0482
無量無邊眾生	-11.0483
釋天	-11.0489
善順	-11.0493
生人間	-11.0494
有一菩薩	-11.0503
佉羅	-11.0504
不謗	-11.0508
轉復	-11.0509
菩薩摩訶薩言	-11.051
是名方便	-11.051
欲樂	-11.0513
胡	-11.0513
耀	-11.0516
那耶	-11.0519
本所	-11.052
其王	-11.0522
欲貪	-11.0522
限量	-11.0523
不想	-11.0526
若比丘	-11.0526
三垢	-11.0532
所學	-11.0532
各得	-11.0541
不可動	-11.0541
立於	-11.0545
淨法	-11.0551
之分	-11.0551
豫	-11.0554
處在	-11.0555
諸法性	-11.0557
相與	-11.0558
眾中有一	-11.0558
慈哀	-11.0559
是亦	-11.0559
大威力	-11.0559
得涅槃	-11.056
於諸佛所	-11.056
邊見	-11.056
無毀	-11.0561
諸種	-11.0561
三德	-11.0563
自說	-11.0564
名為根	-11.0564
散華	-11.0565
設供養	-11.0568
是為貫生	-11.0568
利他	-11.057
風界	-11.0571
永無	-11.0583
是故汝等	-11.0584
靨	-11.0585
或言	-11.0586
眉間	-11.0587
四天	-11.0587
慧自在	-11.0587
降伏魔	-11.0593
惡習	-11.0595
菩薩要當斷是盛百八生死	-11.0597
如是功德	-11.0597
戒清淨	-11.0598
本罪百八行	-11.0601
淳	-11.0602
遠行	-11.0603
坑	-11.0605
剎帝利旃荼羅王	-11.0606
其德	-11.0606
此佛世界	-11.0607
清淨行	-11.0613
所共	-11.0613
非真	-11.0615
月滿	-11.0615
迦吒富單那等	-11.0617
又復菩薩	-11.0618
無別	-11.062
滅中有百八後世當復生受不滅	-11.062
率	-11.0621
暉	-11.0621
東西	-11.0624
是為不捨盡	-11.0624
煎	-11.0625
伴侶	-11.0625
男子女人	-11.0626
瑕疵	-11.0626
壞時	-11.0626
其土人民	-11.0626
此四宿日	-11.0627
卒暴	-11.0627
脚跡	-11.0628
塑	-11.0628
奔	-11.0628
其有逮得	-11.0629
叵	-11.063
淪	-11.063
舞	-11.063
麻	-11.063
時佛	-11.0631
大方廣	-11.0631
八解脫	-11.0632
復以種種	-11.0632
壓	-11.0632
祿	-11.0632
忽然不現	-11.0632
脂	-11.0633
鼻所聞中香	-11.0634
孝順	-11.0634
前後圍遶	-11.0635
大授記陀羅尼	-11.0635
阿逸多	-11.0635
為滅百八不捨淨	-11.0636
頂戴	-11.0636
身所得好細軟可身	-11.0636
愁惱	-11.0636
寂寞	-11.0636
鬬	-11.0636
殑伽沙等	-11.0636
襍	-11.0636
三業相應	-11.0636
阿㝹	-11.0637
中有百八罪不可見	-11.0637
膿血	-11.0637
身所得中細軟	-11.0637
幽冥	-11.0637
盲冥	-11.0638
阿若憍陳如	-11.0638
說此偈已	-11.0638
六萬八千	-11.0639
栗	-11.0639
此之謂也	-11.0639
懈廢	-11.064
如實了知	-11.064
煖	-11.064
口所得中味中語言	-11.0641
丈	-11.0641
應器	-11.0642
皆知	-11.0643
警	-11.0643
車乘	-11.0643
是為進行入道	-11.0643
三種精氣	-11.0644
是名進力	-11.0644
未知	-11.0644
妃	-11.0644
▁○	-11.0644
甘露味	-11.0645
孫	-11.0645
夜叉王	-11.0646
敗壞	-11.0646
彩	-11.0646
至心諦聽	-11.0646
一日一夜行	-11.0647
振	-11.0647
良由	-11.0647
啟受	-11.0647
經無量劫	-11.0647
秘藏	-11.0648
為他解說	-11.0648
久遠劫來	-11.0649
種種供養	-11.0649
見佛身	-11.0649
散佛上	-11.065
家宅	-11.065
形貌	-11.065
日行藏菩薩	-11.0651
是為種痛	-11.0652
天龍鬼神	-11.0652
或復有人	-11.0653
便辱百八	-11.0653
白世尊	-11.0653
諸天及人	-11.0654
是為罪識	-11.0654
行檀波羅蜜	-11.0654
無上法	-11.0654
之母	-11.0654
傷害	-11.0655
般涅槃後	-11.0655
遊戲神通	-11.0655
當坐因緣生死痛	-11.0655
畢竟成佛	-11.0655
弘廣	-11.0655
是名慧力	-11.0656
便生栽	-11.0656
是為辱	-11.0657
悉來集會	-11.0657
是名念力	-11.0657
在前	-11.0658
妙寶	-11.0659
何者名為	-11.0662
專注	-11.0664
囉闍	-11.0664
水精	-11.0664
忍行戒	-11.0667
智度無極	-11.0667
為壞眾生如是	-11.0667
若茲	-11.0671
一佛剎	-11.0671
得其便	-11.0672
辛苦	-11.0673
濟度	-11.0673
問曰	-11.0673
根原	-11.0674
大人相	-11.0677
亦不念	-11.0679
頭目	-11.0682
風雨	-11.0683
得無量	-11.0685
本性清淨	-11.0686
瑞應	-11.0687
無量有情	-11.0689
善德	-11.0689
威勢	-11.0693
殊勝功德	-11.0694
高廣	-11.0696
法律	-11.0701
令諸有情	-11.0702
違背	-11.0702
無慚	-11.0703
光雲	-11.0704
千子	-11.0706
僧眾	-11.0706
已於過去	-11.0707
具足六波羅蜜	-11.0708
無所有處	-11.071
和上	-11.0719
智奮迅	-11.072
可反	-11.0722
樹者	-11.0723
施行	-11.0723
各各自	-11.0725
觀世音	-11.0728
憶想	-11.0733
阿耨多羅三藐三菩提記	-11.0734
千歲	-11.0736
是為墮	-11.0736
不毀	-11.0736
十方一切	-11.0737
智自在	-11.0737
一毛孔	-11.0737
復有四	-11.0739
六道眾生	-11.074
」【△	-11.0742
悲哀	-11.0743
是善思惟	-11.0746
謂之	-11.0747
出已	-11.0749
離惡道	-11.0765
亦等	-11.0766
暫時	-11.0767
十四日合	-11.077
堪忍	-11.0773
自守	-11.0775
知真實	-11.0777
無所作	-11.0785
生空中	-11.0785
不捨眾生	-11.0787
感動	-11.0789
今是	-11.0789
嚴身	-11.0796
受持讀誦書寫	-11.0798
隨諸眾生	-11.08
伽婆	-11.0801
法界性	-11.0807
減少	-11.0812
行菩薩行	-11.0813
入佛法	-11.0813
心念處	-11.0818
成滿	-11.0818
復與	-11.0825
百九十	-11.0826
不能測	-11.0827
汝等當知	-11.0828
他心智	-11.083
萬四千	-11.083
力士	-11.0833
無文字	-11.0836
眾妙	-11.0837
告彼	-11.084
修行布施	-11.0842
能離	-11.0851
五十七	-11.0854
之患	-11.0858
若施	-11.0858
以慈	-11.086
而懷	-11.0862
十五者	-11.0862
食者	-11.0863
無上菩提道	-11.0867
喜捨	-11.0869
視之	-11.087
八難	-11.0874
不濁	-11.0875
無所得故	-11.0875
三障	-11.0878
去離	-11.0881
三日	-11.0887
受身	-11.0887
無見	-11.0887
一切諸眾生故	-11.0888
種種香	-11.0892
貴賤	-11.0894
智慧光明	-11.0898
或乘	-11.09
無闇	-11.0901
無憍慢	-11.0908
聞法已	-11.0909
謗法	-11.0911
共護	-11.0913
五日合	-11.0915
無怨	-11.0916
眾生類	-11.0917
瞻波	-11.0922
起大悲	-11.0925
極大	-11.0926
能引	-11.0927
身證	-11.0928
無漏法	-11.0931
而入	-11.0936
遍觀	-11.0936
故施	-11.0938
常定	-11.095
面見	-11.0951
得陀羅尼	-11.0958
我知	-11.096
能現	-11.0968
四無礙	-11.097
并及	-11.0974
從今	-11.0974
永不復	-11.0975
勿生	-11.0976
所疑	-11.0979
端坐	-11.0981
自在王菩薩	-11.0985
利鈍	-11.0985
所講	-11.0986
其間	-11.0987
如文	-11.0994
甚深佛法	-11.0995
不散	-11.0996
念還	-11.0998
法藥	-11.1002
山中	-11.1002
未久	-11.1003
胎藏	-11.1005
速證	-11.1008
一切魔眾	-11.101
十六者	-11.1014
無記	-11.1017
當學	-11.1018
繒	-11.1023
作利益	-11.1025
心業	-11.1027
難勝	-11.1034
眾生諸根	-11.1034
盡諸漏	-11.1035
色力	-11.104
於無上道	-11.1042
虛空性	-11.1043
有十種	-11.1051
生死苦	-11.1059
六十五	-11.1073
善果	-11.108
入城	-11.1086
大慈心	-11.1087
種種瓔珞	-11.1095
滅煩惱	-11.1096
無有分別	-11.1097
中有習為	-11.1098
佛力	-11.11
信施	-11.1102
六處	-11.1104
之因	-11.1106
久已	-11.1108
中最	-11.1112
聲聞大眾	-11.1115
隨應	-11.1116
是名法行	-11.1121
貪嫉	-11.1122
頂受	-11.1124
為欲欲中有五陰	-11.1124
一日合	-11.1128
惟願如來	-11.1128
無所取	-11.1131
法母	-11.1133
記莂	-11.1136
不為有	-11.1137
有時	-11.1139
號釋迦牟尼	-11.1141
深妙法	-11.1143
非身	-11.1145
盧迦	-11.1146
千世界	-11.115
若梵	-11.115
可怖	-11.1155
思議	-11.1156
利益諸眾生	-11.1156
此諸菩薩	-11.1161
出過	-11.1163
藍	-11.1167
百二十	-11.1168
大乘經	-11.1169
秋	-11.1176
我今說	-11.1177
於往昔	-11.1178
要言之	-11.1187
拜	-11.1189
不知為癡	-11.1191
大事	-11.12
意念	-11.1202
顏貌	-11.1202
入胎	-11.1204
捶	-11.1204
菴	-11.1204
是故今	-11.1205
旛	-11.1205
戶	-11.1207
徙	-11.1208
其順法者	-11.1208
▁41	-11.1209
睡	-11.1209
非想非非想	-11.1209
疲	-11.1211
從座起	-11.1211
諸女	-11.1211
翹	-11.1212
尸棄	-11.1213
徐	-11.1214
夙	-11.1214
族姓	-11.1215
遮婆	-11.1215
親族	-11.1215
苦辛	-11.1215
覩是以後	-11.1216
此二宿日	-11.1216
於晨朝時	-11.1216
履反	-11.1216
冠	-11.1216
如理作意	-11.1218
饑	-11.1218
籌	-11.1219
疾疫	-11.1219
]《	-11.1219
徑	-11.122
職	-11.122
午	-11.122
閑居	-11.1221
穀米	-11.1221
亢旱	-11.1221
眼所見好色	-11.1221
頭面作禮	-11.1222
鑑	-11.1222
卷第七	-11.1223
為還應戒	-11.1223
幸	-11.1223
責	-11.1223
坦然	-11.1223
堪任摧壓	-11.1224
多地夜他	-11.1224
所住之處	-11.1224
僕使	-11.1224
伸	-11.1225
餘如上說	-11.1225
其後	-11.1225
瓦	-11.1226
榮	-11.1226
八十種好	-11.1227
緊陀羅	-11.1227
花香	-11.1228
紹	-11.1228
策	-11.1229
下至一頌	-11.1229
奪其精氣	-11.1229
轉正法輪	-11.1229
與其眷屬	-11.123
波羅奈	-11.1231
少欲知足	-11.1231
三十七品	-11.1231
謙下	-11.1231
四大洲	-11.1232
戒聚	-11.1232
墮於惡趣	-11.1232
不知為疑	-11.1232
於彼處	-11.1233
日月星宿	-11.1233
法海	-11.1233
當墮無間地獄	-11.1234
無有厭足	-11.1235
轉大法輪	-11.1235
轉妙法輪	-11.1235
腸	-11.1236
泉池	-11.1236
阿脩羅	-11.1236
侵害	-11.1236
得須陀洹果乃至阿羅漢果	-11.1237
束	-11.1238
憂悲苦惱	-11.1238
錯謬	-11.1239
百倍	-11.1239
斯陀含果	-11.1239
柳	-11.124
如水中月	-11.124
化樂天	-11.1241
如應說法	-11.1241
黑繩	-11.1243
如是等輩	-11.1246
光曜	-11.1246
降伏諸魔	-11.1246
將欲	-11.1247
十七者	-11.1247
娑摩	-11.1247
顏色	-11.1247
隨諸佛國入	-11.1248
是名信力	-11.1249
其慧	-11.1249
心心數法	-11.125
聞彼	-11.1253
有處示現	-11.1254
未出	-11.1255
佛法僧寶	-11.1256
乃至迦吒富單那等	-11.1256
皆住	-11.1256
我念過去	-11.1257
當辱	-11.1257
○	-11.1258
離諸惡	-11.1261
住胎	-11.1262
諸佛正法護持	-11.1263
修集慈心	-11.1267
某人	-11.1269
必須	-11.127
何等名為	-11.1271
從生	-11.1272
如是法門	-11.1273
怨親	-11.1275
深遠	-11.1275
於如來前	-11.1276
黠慧	-11.1284
我於過去	-11.1284
此是菩薩摩訶薩	-11.1289
菩薩修定	-11.129
大千世界	-11.1293
善能分別	-11.1293
一切凡夫	-11.1294
一切菩薩摩訶薩	-11.1295
陀羅尼呪	-11.1296
為調眾生	-11.1301
無壽	-11.1302
三乘法	-11.1304
帝利	-11.1305
瑞相	-11.1307
毘摩	-11.1307
增長善法	-11.1312
悉來集	-11.132
知一切法性	-11.1322
愛別離	-11.1325
五欲樂	-11.1325
無吾我	-11.1326
為他人	-11.1329
非道	-11.1329
得無上智	-11.1332
實義	-11.1332
癡心	-11.1333
作留難	-11.1338
吾以	-11.134
說是經	-11.1344
百千萬劫	-11.1344
聞佛說	-11.1348
斷三寶種	-11.1348
初生者	-11.1351
此正法	-11.1359
純善	-11.136
而無所著	-11.1361
得佛道	-11.1363
如意寶	-11.1365
及諸大眾	-11.1365
飛行	-11.1367
如理	-11.1368
幾時	-11.137
無有作者	-11.1373
言詞	-11.1373
無放逸	-11.1374
涅槃界	-11.1378
亦不可得	-11.1378
利慧	-11.1379
為彼眾生	-11.1379
身教化眾生	-11.1381
淨慧	-11.1385
在生死	-11.1386
六神通	-11.1388
為化眾生	-11.1388
子云	-11.1393
高聲	-11.1394
大眾皆	-11.1401
智慧力	-11.1402
今此會中	-11.1404
唯佛能	-11.1405
長大	-11.1406
有三十二	-11.1411
一切無餘	-11.1412
無難	-11.1414
愛著	-11.1416
聚沫	-11.1416
自應	-11.1419
所生之處	-11.1423
柔順	-11.1424
雖在	-11.1429
欲使	-11.143
寶樹	-11.1432
於諸善法	-11.1434
初出	-11.1434
見於眾生	-11.1438
以己	-11.144
一世界	-11.144
多種	-11.144
無取著	-11.1442
諸年少	-11.1442
汝見	-11.1442
正思惟	-11.1443
同歸	-11.1451
利世間	-11.1453
真實義	-11.1456
一切鬪諍	-11.1457
十四者	-11.1458
之主	-11.1459
之辭	-11.1462
斯成	-11.1464
禪支	-11.1466
如先佛	-11.1466
口出	-11.1473
不願	-11.1475
大法王	-11.1484
非器	-11.1484
其城	-11.1487
薄福	-11.1489
所犯	-11.1491
不興	-11.1493
埵	-11.1494
禮世尊足	-11.1495
他國	-11.1498
復告	-11.1498
宮內	-11.1505
得無上	-11.1505
吾等	-11.1509
不許	-11.151
火災	-11.152
婆那	-11.1521
是人得	-11.1527
大夜叉	-11.1529
勸人	-11.1529
之座	-11.1532
得解脫者	-11.1538
筋	-11.1539
雖未	-11.1541
我本	-11.1543
去處	-11.1548
十萬	-11.155
故感	-11.1554
五逆罪	-11.1554
邏娑	-11.1555
有所得	-11.1556
不動搖	-11.1565
無過	-11.1569
然此	-11.1573
今言	-11.1577
如說行	-11.1577
一切境界	-11.1579
勤修習	-11.1588
而立	-11.159
如是思惟	-11.159
應念	-11.159
一切勇菩提薩埵摩訶薩埵	-11.1591
不從他	-11.1592
毘羅	-11.1593
越度	-11.1596
十八者	-11.1596
八十億	-11.1597
此會中	-11.1607
受請	-11.1607
而可	-11.1608
無量世	-11.1608
之位	-11.161
以何為	-11.161
如火	-11.1614
變作	-11.1616
國界	-11.162
一切三世	-11.1622
名香	-11.1622
異見	-11.1626
凡夫法	-11.1627
坐臥	-11.1628
無慚愧	-11.1629
佛剎土	-11.163
所逼	-11.1631
彼諸天	-11.1634
生厭離	-11.1638
性識	-11.1638
不覺知	-11.1652
失念	-11.1653
不能壞	-11.1655
得免	-11.166
之際	-11.1666
能出	-11.167
千萬億劫	-11.1675
生疑菩薩	-11.1682
以對	-11.1685
之音	-11.1689
城內	-11.1702
虛空相	-11.1703
三昧智	-11.1707
堪受	-11.1707
波履婆	-11.1716
求救	-11.1723
性命	-11.1729
相謂言	-11.1733
觀見	-11.1735
眾邪	-11.1736
婆娑	-11.1736
豈不	-11.1743
渚	-11.1744
生善道	-11.1744
百福	-11.1746
悉除	-11.175
所來	-11.1751
關令不動	-11.1752
清淨無垢	-11.1754
除罪	-11.1758
入地獄	-11.1758
欲盡	-11.1759
一道	-11.177
少眾生	-11.1775
能捨一切	-11.1779
佛足	-11.1783
續	-11.179
身觸	-11.179
莊飾	-11.1794
死生	-11.1795
人王	-11.1798
賀	-11.1799
此忍	-11.1803
為成熟	-11.1803
系	-11.1807
瞋惡	-11.1813
婆樓	-11.1816
魯	-11.1818
說頌	-11.1819
法聚	-11.1821
伎	-11.1822
紙	-11.1823
柘	-11.1825
速成	-11.1826
簸	-11.1826
曷囉	-11.1826
而有所	-11.1826
皆出	-11.1827
谷	-11.1827
駕	-11.1827
隆	-11.1829
祀	-11.1829
屍	-11.1829
基	-11.1831
飽	-11.1832
鴦耆	-11.1832
篋	-11.1832
宰	-11.1833
為體	-11.1834
▁40	-11.1835
試	-11.1835
偷	-11.1836
佉羅坻	-11.1837
地及虛空	-11.1837
得無誤失	-11.1838
乾竭	-11.1838
從坐起	-11.1839
饑渴	-11.1839
驗	-11.1839
死屍	-11.184
不可稱載	-11.184
珊	-11.184
頞	-11.184
緩	-11.1841
車𤦲	-11.1841
不了	-11.1841
跪	-11.1842
不生樂想	-11.1842
霜	-11.1842
陶	-11.1843
慰喻	-11.1843
道力	-11.1843
鬪戰	-11.1843
懈惓	-11.1844
優曇	-11.1844
高齊天竺三藏那連提耶舍譯	-11.1844
躍	-11.1844
耳所聞好聲	-11.1844
愚冥	-11.1845
隨形好	-11.1845
悲因緣故宣說	-11.1845
婬泆	-11.1845
鄙	-11.1845
觀佛三昧經	-11.1845
野馬	-11.1846
阿賴耶	-11.1846
善思	-11.1846
縱廣正等	-11.1846
謀	-11.1846
任運	-11.1846
非大乘器	-11.1846
屠	-11.1847
洛	-11.1847
裏	-11.1848
五體投地	-11.1848
卷第八	-11.1848
嬰	-11.1848
撲	-11.1849
波羅提木叉	-11.1849
其日得病	-11.185
毋	-11.1851
復有一類	-11.1852
心大歡喜	-11.1853
赴	-11.1853
品題	-11.1853
薪	-11.1854
羅剎母	-11.1854
口所得美味好語言	-11.1854
餘道	-11.1854
廣宣流布	-11.1854
地平如掌	-11.1854
殊異	-11.1855
若被	-11.1855
正法念	-11.1855
彊	-11.1856
朱	-11.1856
凌	-11.1856
不增	-11.1857
不畏後世	-11.1857
孔	-11.1857
不驚不怖	-11.1857
遇斯光	-11.1857
烟	-11.1857
精進求	-11.1857
元首	-11.1858
為他廣說	-11.1858
名金剛句	-11.1858
準大論	-11.1858
睒	-11.1859
怨賊	-11.1859
燋	-11.186
只	-11.1861
鍾	-11.1861
托	-11.1861
四方僧物	-11.1862
淨意	-11.1862
迷亂	-11.1862
蘊魔	-11.1862
尚未	-11.1862
為宣說	-11.1862
燃燈	-11.1863
未來之世	-11.1863
怨憎	-11.1863
成就十輪	-11.1864
布薩	-11.1864
破戒惡行苾芻	-11.1865
地藏本願	-11.1865
寺沙門	-11.1865
辟支佛作大福田	-11.1866
如是四法	-11.1866
石蜜	-11.1866
真善剎帝利王	-11.1866
次第而坐	-11.1867
廣博	-11.1868
五大河	-11.1868
從佛聞	-11.1868
悉集	-11.1868
眾生壽命士夫	-11.1869
彼當如是見一切法	-11.1869
戲笑	-11.187
說是呪	-11.187
阿樓那	-11.1871
復有無量無邊眾生	-11.1871
押	-11.1871
歲星	-11.1873
大鐵圍山	-11.1873
隨汝意	-11.1873
不令流布	-11.1874
敷具	-11.1875
損壞	-11.1875
幾種	-11.1876
盧遮那	-11.1877
夫菩提者	-11.1877
彼佛世尊	-11.1878
十九者	-11.1879
五蘊	-11.188
羅剎女	-11.1881
誦習	-11.1881
未度	-11.1883
羅剎子	-11.1885
修智慧	-11.1885
住阿蘭若	-11.1888
卷上	-11.1888
三惡道苦	-11.1889
任持	-11.189
忍辱波羅蜜多	-11.1891
厭倦	-11.1893
知生死	-11.1895
其國土	-11.1899
耳鼻	-11.1899
如法修行	-11.1899
說偈讚	-11.19
厭悔	-11.1904
尸羅波羅蜜	-11.191
而無厭足	-11.1913
分別演說	-11.1914
所加	-11.1914
若如是者	-11.1915
我願	-11.1915
三曜	-11.1916
魔法門	-11.1916
愚癡無智	-11.1919
有限	-11.1922
變現	-11.1925
所縛	-11.1925
一切樂具	-11.1926
布施清淨平等	-11.1927
於大乘中	-11.1928
若有女人	-11.193
難量	-11.193
給與	-11.1932
受念處	-11.1935
之神	-11.1936
起世經	-11.1937
歎言	-11.1938
不種善根	-11.1943
閻浮提中	-11.1943
氣力	-11.1943
永除	-11.1943
變易	-11.1944
六塵	-11.1945
林中	-11.1947
攝一切法	-11.1948
慧光明	-11.1949
護佛法	-11.195
遠聞	-11.1952
缺減	-11.1953
讚說	-11.1954
苦道	-11.1957
受持正法	-11.1958
是故當知	-11.1965
無上乘	-11.1966
十方無量諸佛	-11.1968
城門	-11.1969
妙丈夫	-11.1971
親近供養	-11.1972
三世平等	-11.1973
是慈能	-11.1973
六趣	-11.1974
處非處	-11.1974
是事已	-11.1979
覆其上	-11.1983
超度	-11.1987
佛地	-11.1994
佛告不空見	-11.1996
為斷眾生	-11.1998
眾相	-11.1998
此約	-11.2
以偈問	-11.2006
)【	-11.2007
相隨	-11.2007
奉上	-11.2008
大音聲	-11.2009
摧諸	-11.2009
是輩	-11.2011
受罪	-11.2013
金寶	-11.2015
欲見佛	-11.2015
妙花	-11.2015
汝觀	-11.202
者無有是處	-11.2021
不減	-11.2023
犯戒	-11.2029
七分	-11.2031
惡風	-11.2037
愛取	-11.2041
所云	-11.2041
敬仰	-11.2044
發道心	-11.2045
乃至畜生	-11.2048
諸行無常	-11.2048
舍利弗問	-11.205
彼既	-11.2054
地中	-11.2058
無蓋	-11.206
之妙	-11.2062
不耶	-11.2062
疑悔	-11.2065
結縛	-11.2067
過於彼	-11.2071
惡業障	-11.2073
福慧	-11.2073
適意	-11.2078
等如虛空	-11.2081
廣明	-11.2082
八部	-11.2087
說一切法	-11.2088
不生分別	-11.209
方得	-11.2094
之恩	-11.2106
如來正法	-11.2108
知一切眾生心	-11.2112
諸法相	-11.2113
不得自在	-11.2117
將非	-11.2117
禪定解脫	-11.212
如來法中	-11.2122
金剛䐡菩薩	-11.2126
於此法門	-11.213
及未來世	-11.2132
普令	-11.2134
現其身	-11.2135
不斷三寶	-11.2137
生惡心	-11.2137
離故知	-11.2146
七覺	-11.2149
名發起	-11.215
右手	-11.215
所聞法	-11.215
深奧	-11.2151
過去無量阿僧祇劫	-11.2152
一切國土	-11.2154
滅中有五陰	-11.2155
坊	-11.2159
得利益	-11.2166
八事	-11.2167
好樂	-11.2168
尚爾	-11.2175
法想	-11.2181
各與	-11.2184
以偈答	-11.2185
不可說菩薩	-11.2186
以偈	-11.2186
竟不	-11.2188
婆國	-11.2196
告不空見	-11.2198
安住於	-11.2199
得法忍	-11.2202
無一眾生	-11.2204
諸龍眾	-11.221
始終	-11.2217
給侍	-11.2218
行來	-11.2219
涅槃已	-11.222
樂處	-11.2221
沙國	-11.2222
是人不久	-11.2225
大姓	-11.2228
久住於世	-11.2229
不猗	-11.2231
誰有	-11.2233
修聲聞	-11.2234
山頂	-11.2236
自性清淨	-11.2246
疾成	-11.2249
有大力	-11.2253
五十六	-11.2255
思惟分別	-11.2255
卷下	-11.2263
為根本	-11.2264
常護	-11.2266
不得解脫	-11.2269
受無量苦	-11.2273
諸佛功德	-11.2282
淨佛土	-11.2284
心如虛空	-11.2284
愚癡人	-11.2285
怙	-11.2293
種種方便	-11.2302
我等今	-11.2306
俗諦	-11.2314
不可思議功德	-11.2315
生歡喜心	-11.2319
未解	-11.2321
婆迦	-11.2328
出世間法	-11.2328
佛讚	-11.2333
之首	-11.2337
月合	-11.2338
三日合	-11.2343
道義	-11.2343
於一時	-11.2344
生信心	-11.2344
證明	-11.2348
向菩提	-11.235
不假	-11.2352
義利	-11.2352
山谷	-11.2363
云何菩薩摩訶薩	-11.2369
此大集會正法	-11.237
之體	-11.2372
佛像	-11.2373
具足莊嚴	-11.2375
一切諸法皆	-11.2378
尚可	-11.238
亢	-11.2382
佐	-11.2383
地味	-11.2386
不休息	-11.2391
若有菩薩修四	-11.2392
心相續	-11.2407
供養三寶	-11.2407
九日合	-11.2408
搖	-11.241
一沙	-11.2414
於如來所	-11.2415
慧明三昧	-11.2417
發此	-11.2418
留難	-11.2421
水月	-11.2421
於今日	-11.2422
三千世界	-11.2427
不關者墮罪	-11.2429
初標	-11.2433
降魔	-11.2435
故而為說法	-11.2445
修忍辱	-11.2445
愛念	-11.245
觸身	-11.2457
亦為眾生	-11.2464
等無差別	-11.2467
度生死	-11.2467
脫苦	-11.2469
哂	-11.2472
動欲分別中有盛百	-11.2472
億數	-11.2481
不自知著不自知滅中有五陰	-11.2483
一念頃	-11.2483
於四天下	-11.2483
侶	-11.2484
盈	-11.2485
簁	-11.2486
忌	-11.2488
耳鼻舌身	-11.2493
足下	-11.2493
駛	-11.2496
帛	-11.2496
蒲	-11.2496
頻婆	-11.2496
寂度無極	-11.2497
維	-11.2497
闥	-11.2497
墮在	-11.2498
閑靜	-11.25
是人能禮	-11.25
岐	-11.2502
謝	-11.2502
宇	-11.2503
否	-11.2504
努	-11.2504
勃	-11.2504
嗜	-11.2504
多地他	-11.2504
讚佛	-11.2505
隨所住國	-11.2505
疫	-11.2505
鮮明	-11.2506
校	-11.2506
五十校計	-11.2506
縮	-11.2507
漢	-11.2507
刀劍	-11.2507
羞恥	-11.2508
杜	-11.2508
酪	-11.2508
即是我之	-11.2508
獵	-11.2508
今正是時	-11.2509
搆	-11.2509
籌量	-11.251
分別此	-11.251
不離親近供養眾僧	-11.251
寬	-11.2511
擬	-11.2511
孰	-11.2511
或閉牢獄	-11.2511
趣菩提	-11.2512
迦留羅	-11.2512
一四句偈	-11.2512
右繞三匝	-11.2512
愍傷	-11.2512
巖	-11.2512
潤澤	-11.2512
奏	-11.2512
不可限量	-11.2512
般泥洹	-11.2513
應如是學	-11.2513
廟	-11.2513
劬勞	-11.2514
雄猛	-11.2514
甘蔗	-11.2515
吏	-11.2515
映	-11.2515
謙	-11.2515
封	-11.2515
銕圍山	-11.2516
霑	-11.2516
鞭杖	-11.2516
菩薩承佛聖旨	-11.2516
從三昧起	-11.2516
準長阿含	-11.2517
維衛	-11.2517
審如有知	-11.2517
遏	-11.2517
間錯	-11.2517
憑	-11.2517
菩薩成就四法	-11.2517
滋味	-11.2517
鐵丸	-11.2518
刑	-11.2518
預	-11.2518
丁	-11.2518
殷勤	-11.2518
未甞	-11.2518
掉	-11.2519
往返	-11.2519
芬	-11.2519
師子將軍	-11.2519
多摩羅跋	-11.2519
造諸惡	-11.2519
塑像	-11.2519
三萬六千	-11.2519
吸	-11.2519
閻羅天子	-11.252
胡跪合掌	-11.252
禽	-11.252
稚	-11.252
不離聞法	-11.252
以佛力故	-11.252
比牟	-11.2521
妨	-11.2521
破戒者	-11.2521
淨印三昧	-11.2521
僧中	-11.2521
姦	-11.2521
役	-11.2521
俱利多	-11.2521
諸大龍王	-11.2521
罔	-11.2521
而供養之	-11.2522
㵎	-11.2522
疲厭	-11.2522
䟦	-11.2522
悚	-11.2522
闍鞞	-11.2522
大婆羅門	-11.2522
詮	-11.2522
增長三精氣	-11.2523
身所得惡麁堅苦痛不可身	-11.2523
秦言	-11.2524
毘樓	-11.2524
阿毘	-11.2524
僧事	-11.2525
之家	-11.2526
開導	-11.2526
飲酒	-11.2526
伎術	-11.2527
於此佛剎	-11.2528
喪失	-11.2528
陀羅尼自在王菩薩	-11.2528
亂意	-11.2528
挑	-11.2528
覆蓋	-11.2528
毘舍闍	-11.2529
綵	-11.2529
偈讚佛已	-11.2529
佉伽	-11.253
存亡	-11.253
炙	-11.2531
把	-11.2531
階道	-11.2531
吉凶	-11.2531
光寶	-11.2531
發菩提之心	-11.2532
至心歸依	-11.2532
嬈害	-11.2533
隨所生處	-11.2533
是名為禪	-11.2534
摧壞	-11.2535
世尊欲重明此義	-11.2535
闍梨	-11.2535
於是法中	-11.2535
茂羅	-11.2536
毘奈耶	-11.2536
鎖	-11.2536
剎帝利旃荼羅	-11.2536
趣向惡道	-11.2537
調暢	-11.2537
是為菩薩超	-11.2538
以方便力	-11.2539
愚闇	-11.254
求聲聞	-11.254
所得果報	-11.254
百千俱胝那庾多	-11.2541
是人則能	-11.2542
往詣佛所	-11.2543
雜香	-11.2543
阿囉	-11.2543
舉手	-11.2543
是金剛句	-11.2544
僧伽	-11.2545
商人	-11.2545
從初發意	-11.2545
無作無受	-11.2546
劫奪	-11.2546
化導	-11.2546
成無上道	-11.2546
橫死	-11.2546
以精進故	-11.2548
水災	-11.2548
了義經者	-11.2549
此法門者	-11.2549
豐樂	-11.255
行法比丘	-11.2552
迴向薩婆若	-11.2553
資生所須	-11.2554
修羼提波羅蜜	-11.2554
赤色	-11.2555
患難	-11.2555
豫知	-11.2555
定中	-11.2555
無窮盡	-11.2556
供養眾僧	-11.2557
聞是法已	-11.2558
防護	-11.2558
曾於過去	-11.2559
身心安樂	-11.2561
彼有菩薩名	-11.2561
須達	-11.2562
利益之事	-11.2563
色無色界	-11.2565
侍從	-11.2565
離諸煩惱	-11.2565
不與取	-11.2565
惟願世尊	-11.2567
生老死	-11.2568
無有慈愍	-11.2569
還家	-11.2569
精進清淨平等	-11.257
跋坻	-11.257
一切過去	-11.2571
四倒	-11.2571
億千	-11.2571
女形	-11.2571
之果	-11.2574
治國	-11.2578
日輪	-11.2578
所不能及	-11.2579
不可稱限	-11.258
放大	-11.2581
業盡	-11.2582
大集會正法	-11.2582
亦非空	-11.2584
第一彼岸故	-11.2586
普攝	-11.2591
三萬二千	-11.2591
男子身	-11.2591
胎生	-11.2593
復有三種	-11.2597
志求	-11.2599
善淨	-11.2601
戒律	-11.2604
如山	-11.2606
說是三昧	-11.2607
輸盧	-11.2608
有大光明	-11.2608
多劫	-11.2609
所作善根	-11.2609
如轉輪王	-11.2612
佛告諸菩薩	-11.2613
稱歎	-11.2614
於此世界	-11.2621
大藏	-11.2622
此大地	-11.2626
少聞	-11.2629
大乘之法	-11.2629
一日夜	-11.2633
如恒沙	-11.2637
妙定	-11.2638
病患	-11.2638
此輩	-11.2642
即生念	-11.2642
發精進	-11.2645
寧可	-11.2646
名為誑	-11.2649
諸初生者	-11.2651
其心寂靜	-11.2652
如來今者	-11.2658
即知	-11.2664
何由	-11.2665
無為法	-11.2667
斯人	-11.2668
若欲得	-11.2668
諸怖畏	-11.2669
紫金	-11.267
妙藥	-11.2672
亦無所住	-11.2675
隨從	-11.2679
豐足	-11.268
龍女	-11.2684
不顧	-11.2687
利益事	-11.2687
明達	-11.269
五十九	-11.2692
同學	-11.2693
無量俱胝	-11.2696
所纏	-11.2706
為諸聲聞	-11.2715
如水月	-11.2721
善說如來	-11.2721
諸臣	-11.2721
呵多	-11.2729
乃至不住	-11.2732
是為忍	-11.2733
最妙	-11.2739
八生死	-11.2739
火界	-11.2739
但以	-11.2744
二十者	-11.2745
墮阿鼻地獄	-11.2749
水火風	-11.2751
譬如虛空無有	-11.2759
行六波羅蜜	-11.2759
寶座	-11.2762
諸塵	-11.2765
菩薩便	-11.2767
無救	-11.2769
大神通力	-11.2771
亦不可說	-11.2779
諸菩薩行	-11.2785
我今為汝	-11.2785
同利	-11.2785
無去來	-11.2787
豈有	-11.2788
十界	-11.2792
獲大利	-11.2792
息諸	-11.2793
無量無邊不可思議	-11.2807
不依止	-11.2816
之誼	-11.282
行無盡	-11.2822
志在	-11.2822
八人	-11.2824
皆悉成就	-11.2825
不去	-11.2827
譬如人	-11.2828
復出	-11.2837
然燈	-11.2838
不妄	-11.2839
無違	-11.284
於正法中	-11.2849
大河	-11.2849
身念處	-11.2851
歎此	-11.2852
未學	-11.2857
求是三昧	-11.2862
宮中	-11.2872
度脫眾生	-11.2878
習惡	-11.2881
佛告跋陀和	-11.2887
光色	-11.2888
惡病	-11.2907
十方諸佛世界	-11.2907
復有四種	-11.2908
百分千分百千	-11.291
善守護	-11.2913
誠心	-11.292
無分別故	-11.2921
七日合	-11.2921
千里	-11.2922
大菩薩眾	-11.2924
火光	-11.2925
寶器	-11.2932
明月	-11.2933
佛說如是	-11.2934
六十一	-11.2936
乃名曰	-11.2942
為作護	-11.2946
大船	-11.2949
上虛空中	-11.295
知過去	-11.2954
有佛名	-11.2956
勝義	-11.2959
十方一切諸佛	-11.2962
從地	-11.2968
其量	-11.2973
蒙佛	-11.2975
未至	-11.2979
未有	-11.2979
我子	-11.2989
應速	-11.299
人及非人	-11.2991
慈悲憐愍	-11.2994
真空	-11.2997
汝意	-11.2998
諸神通	-11.2998
不名為	-11.3006
不怖	-11.3007
種種上妙	-11.301
氐	-11.3012
求佛道	-11.3016
無少	-11.3016
無變	-11.3017
諸天眾	-11.3021
為頂	-11.3023
淨水	-11.3026
猶尚	-11.3028
欲壞	-11.3039
苦事	-11.3043
如大地	-11.3047
讀誦書寫	-11.3051
六萬億	-11.3054
令使	-11.3058
說陀羅尼	-11.306
到涅槃	-11.307
空義	-11.3073
於我所	-11.3076
利行	-11.3082
毀他	-11.3106
一切所作	-11.3108
至今	-11.3109
香氣	-11.3114
得值遇	-11.3116
於三惡道	-11.3118
五濁世	-11.3119
有所問	-11.3131
種種珍寶	-11.3141
勸發	-11.3142
寶臺	-11.3144
悉知之	-11.3148
阿跋	-11.3154
百歲	-11.3157
入禪定	-11.3159
色無色	-11.3162
堅固不退	-11.3164
十方無量	-11.3164
法船	-11.317
年少	-11.3176
空門	-11.318
發無上正真道意	-11.3188
毘囉娑	-11.319
瞻禮地藏	-11.3192
若有眾生樂	-11.3195
惹	-11.3197
細軟	-11.3199
諸不善法	-11.3199
逝	-11.3201
郁	-11.3201
千萬億	-11.3204
惑亂	-11.3205
項	-11.3205
湯	-11.3206
奮	-11.3209
慳惜	-11.3209
兮	-11.321
莊嚴道場	-11.3211
十號具足	-11.3211
政	-11.3211
不倚	-11.3212
泡	-11.3212
州	-11.3212
扇	-11.3213
掌中	-11.3214
流布之處	-11.3214
企	-11.3214
英	-11.3214
訓誨	-11.3215
剃頭	-11.3216
剌	-11.3216
八萬四千法聚	-11.3216
肢	-11.3217
謹慎	-11.3218
侯	-11.3218
九十一劫	-11.3219
下中上	-11.3219
妖	-11.3219
龜	-11.322
東方去此	-11.3221
捕	-11.3221
忻	-11.3222
膿	-11.3222
天子千眷屬	-11.3223
橋梁	-11.3223
楞嚴	-11.3224
側	-11.3224
裴	-11.3225
別離	-11.3225
恭對	-11.3225
涯	-11.3226
灌頂剎利大王	-11.3227
與眾等	-11.3227
麁澁	-11.3227
甘美	-11.3227
所作已辦	-11.3227
某甲	-11.3228
究暢	-11.3228
菩提記	-11.3228
魂神	-11.3228
不堪	-11.3228
如來則為讚說	-11.3229
疎	-11.3229
是為菩薩能過魔界	-11.3229
肅	-11.3229
波邏	-11.3229
筆	-11.3229
佛言藥王軍	-11.323
維摩	-11.323
從何處來	-11.323
的	-11.323
入無畏城	-11.323
耕	-11.323
能令菩薩摩訶薩等	-11.323
滋茂	-11.323
常得不離見一切佛	-11.3231
出佛身血	-11.3231
旁	-11.3231
赫	-11.3231
阿鼻獄	-11.3231
乃往過去	-11.3232
不可為喻	-11.3232
三輪清淨	-11.3232
求出無期	-11.3233
嘉	-11.3233
鋸	-11.3233
甚奇	-11.3233
虗妄	-11.3233
羯磨	-11.3233
衣裳	-11.3234
五百年	-11.3234
塚間	-11.3234
斛	-11.3234
於阿耨多羅三藐三菩提而成正覺	-11.3234
鉗	-11.3234
閻浮檀金	-11.3234
揵	-11.3235
城郭	-11.3235
出興於世	-11.3235
陰陽	-11.3235
提頭賴吒天王	-11.3235
年歲	-11.3236
五十四	-11.3236
魏	-11.3236
自利利他	-11.3237
整理衣服	-11.3238
微密	-11.3238
迦留尼迦	-11.3239
傘蓋	-11.324
於現身中	-11.324
於其中間	-11.324
?』」	-11.324
為聽法故	-11.324
小國王	-11.324
顛	-11.324
離間語	-11.3241
噓	-11.3241
瞻視	-11.3241
死此生彼	-11.3242
魅	-11.3242
優鉢羅華	-11.3242
圖	-11.3242
并其眷屬	-11.3243
不可言說	-11.3243
我今敬禮	-11.3245
壽終	-11.3245
色聲香味觸	-11.3246
得無礙智	-11.3246
皆發無上正真道意	-11.3246
廣說如前	-11.3247
如審	-11.3247
或有得於	-11.3247
山川	-11.3247
阿奴	-11.3248
修身念處	-11.3248
小兒	-11.3248
槩	-11.3249
六度無極	-11.325
舌味	-11.325
世尊重顯此義	-11.3251
無始來	-11.3251
難測	-11.3253
出現世間	-11.3254
不謬	-11.3254
以用供養	-11.3254
支體	-11.3255
起慈悲心	-11.3255
取蘊	-11.3256
持淨戒	-11.3257
出家修道	-11.3257
究盡	-11.3258
終無有能	-11.3258
亦能令彼一切眾生	-11.3259
隨眠	-11.326
住虛空中	-11.3263
長遠	-11.3263
或有說言	-11.3263
無上菩提之心	-11.3264
參合	-11.3264
歸向	-11.3265
自念言	-11.3265
得安隱住	-11.3266
白月	-11.3266
是命終人	-11.3267
於當來	-11.3267
一一毛孔	-11.3268
譬如大地	-11.3268
率爾呵舉破戒苾芻	-11.3269
摩帝	-11.3269
諮嗟	-11.3269
若犯一	-11.3269
其實	-11.327
施度無極	-11.327
波囉	-11.3271
皆悉消滅	-11.3271
拘留孫佛	-11.3271
入出息	-11.3272
香象菩薩	-11.3273
云何菩薩得	-11.3274
鼻香	-11.3275
安諦	-11.3275
如實際	-11.3276
釋子	-11.3276
闍耶	-11.3277
迴向法界	-11.3278
於人天	-11.3279
永斷一切煩惱	-11.3279
魔力	-11.3279
興立	-11.328
去來現在	-11.3281
一心歸依	-11.3281
如所聞法	-11.3282
乘相應正法	-11.3283
還自	-11.3284
彼剎帝利旃荼羅王	-11.3284
八道	-11.3285
》《	-11.3287
五支	-11.3288
入海	-11.3288
即能獲得	-11.3289
日月光明	-11.3291
從因緣生	-11.3295
海慧	-11.3295
而作佛事	-11.3297
隨機	-11.3297
百千俱胝	-11.3297
寶聚如來	-11.3305
此四天下所有	-11.3306
色界天	-11.3307
入胎者	-11.3308
幾何	-11.3308
遠近	-11.3311
而來至此	-11.3311
羞慚	-11.3313
十八界	-11.3316
自讚	-11.3318
輔行	-11.3319
不著於	-11.3322
波那	-11.3324
箕	-11.3329
須菩提言	-11.333
令得解脫	-11.333
至心聽受	-11.3331
印句	-11.3332
守是三昧	-11.3332
而供養佛	-11.3337
不信者	-11.3338
進根	-11.3339
所執	-11.3339
又聞	-11.334
美妙	-11.334
若未	-11.334
受三歸	-11.3342
夜叉千眷屬	-11.3344
眾寶莊嚴	-11.3346
畢竟忍	-11.335
心不悔	-11.3351
諸佛國	-11.3352
則不能	-11.3354
九萬二千	-11.3356
滅沒	-11.336
能伏一切	-11.3364
諸惡見	-11.3366
宜應	-11.3369
說大集會正法	-11.337
諸通慧	-11.3373
菩薩應當	-11.3373
無熱	-11.3374
總持方便	-11.3378
往彼世界	-11.3384
呿婆	-11.339
悉發阿耨多羅三藐三菩提心	-11.3391
居處	-11.3392
無濁	-11.3396
於彼何者是	-11.3396
四恩	-11.3396
於我所說	-11.3398
無量人天	-11.3405
初名	-11.3407
所作功德	-11.3413
摩睺羅伽等	-11.3414
求阿耨多羅三藐三菩提	-11.3417
此岸	-11.3418
亦不住	-11.3419
不可說法	-11.342
隨宜	-11.3421
毒惡	-11.3422
眾生樂見	-11.3426
巳來	-11.3428
是何等	-11.3429
眼觸	-11.343
不生怖畏	-11.3434
無所壞	-11.3439
聞此法	-11.344
受持禁戒	-11.3442
汝莫	-11.3443
無上涅槃	-11.3446
作是念言	-11.3446
彼剎	-11.3449
諸阿羅漢	-11.3451
彼輩	-11.346
禮已	-11.3465
皆歸	-11.3466
結上	-11.3468
阿那婆	-11.3472
授與	-11.3476
雖聞	-11.3477
化成	-11.3479
之機	-11.348
眾生處在	-11.3481
命盡	-11.3483
其座	-11.3483
自覺	-11.3496
五十五	-11.3497
色想	-11.3499
正教	-11.3505
為何所	-11.351
遇善知識	-11.3511
既自	-11.3512
無諂	-11.3515
廣分別說	-11.3516
國城	-11.352
受福	-11.3525
別異	-11.3529
聖人處	-11.3531
請佛	-11.3537
難忍	-11.3537
諸香	-11.3538
毀滅	-11.354
大阿羅漢	-11.3547
明解	-11.3547
初地	-11.3551
陰魔	-11.3554
後世所生	-11.3555
然燈佛	-11.3555
東方有	-11.3556
東方過	-11.3556
一體	-11.3559
習交	-11.356
甚深微妙	-11.3562
一切草木	-11.3567
如師子王	-11.3573
神通自在	-11.3574
是名菩薩觀	-11.3577
離染	-11.3582
受記	-11.3587
猶未	-11.3589
金輪	-11.3597
修慈心	-11.3597
於長夜	-11.3599
入此三昧	-11.3607
增長善根	-11.3607
決了	-11.3609
法誼	-11.3611
眾生修集悲心	-11.3617
無所獲	-11.3617
地精氣	-11.3617
畢竟盡	-11.3621
佛說是	-11.3623
佛告地藏菩薩	-11.3626
受持此經	-11.3632
眼空	-11.3634
河沙	-11.3636
那伽	-11.3649
非但	-11.365
摩訶薩言	-11.365
自貢高	-11.366
豈能	-11.3662
梵世	-11.3667
永盡	-11.3673
皆是如來	-11.3674
為信力	-11.3677
極苦	-11.3688
惡臭	-11.369
千生	-11.3693
一切眾生心行	-11.3702
成等正覺	-11.3708
不顛倒	-11.3709
除諸煩惱	-11.371
於彼世界	-11.3717
轉輪王身	-11.372
故而得調伏	-11.3722
法會	-11.3728
福力	-11.373
上品	-11.3732
式	-11.3735
不越	-11.374
涅槃後	-11.3741
於父母	-11.3748
六十七	-11.3749
本願力故	-11.3755
超勝	-11.3758
驚恐	-11.3759
到菩提	-11.3769
大品	-11.3777
於娑婆世界	-11.3778
長時	-11.3779
上乘	-11.3779
而是菩薩	-11.3779
之屬	-11.3787
持此經	-11.3788
乃至真善	-11.379
佛乘	-11.3792
當墮惡道	-11.3799
佛邊	-11.38
證滅	-11.3803
能害	-11.3808
離貪	-11.3812
四意止	-11.3812
己國	-11.3822
生信解	-11.3823
當墮	-11.3824
彼城	-11.3834
為利眾生	-11.3837
諸佛前	-11.3839
曇	-11.3844
頗有	-11.3848
觜	-11.3861
此乘	-11.3866
受持是經	-11.3887
萬倍	-11.3888
捨命	-11.3899
阿彌陀	-11.3901
至于	-11.3903
業果報	-11.3903
旃	-11.3908
餘業	-11.3912
祐	-11.3913
邑	-11.3915
惓	-11.3916
大神變	-11.3918
廣設	-11.3919
善神	-11.3921
從他聞	-11.3926
人說言	-11.3942
童	-11.3944
餓鬼等	-11.3944
七宿	-11.3954
朽	-11.3961
天祠	-11.3964
帝釋天主	-11.3965
搜	-11.397
窮脾	-11.3972
靡所不	-11.3972
菩薩于彼興發大哀為說經	-11.3973
謬	-11.3974
是其莊嚴	-11.3975
貨	-11.3975
何等為二	-11.3976
最極	-11.3976
逮成	-11.3976
精進勇猛	-11.3977
煮	-11.398
星形如	-11.398
無相無願	-11.398
遍十方	-11.3981
丹藏	-11.3981
市	-11.3981
抑	-11.3981
彈	-11.3982
巳上	-11.3982
鴦耆羅娑如來	-11.3983
鬪訟	-11.3983
供養彼佛	-11.3983
牟尼聖人住處	-11.3984
幾許	-11.3984
鐵圍山	-11.3984
馳騁	-11.3984
受胎者	-11.3984
犯禁	-11.3985
厥	-11.3985
勉	-11.3986
業因緣故	-11.3986
真珠瓔珞	-11.3986
牆壁	-11.3987
憂慼	-11.3987
谿	-11.3987
轉於法輪	-11.3988
大長者	-11.3988
夭	-11.3988
蠅	-11.3989
閑	-11.3989
琴	-11.3989
芥子	-11.399
朋友	-11.399
二萬一千	-11.399
官屬	-11.399
默然許	-11.3991
犯四重禁	-11.3991
繒綵	-11.3991
齊限	-11.3991
富樓那彌多羅尼子	-11.3991
興隆	-11.3991
僧祇	-11.3992
割截	-11.3993
兵仗	-11.3993
應如是知	-11.3993
令法久住	-11.3993
戟	-11.3993
愁憂	-11.3993
於諸善根常	-11.3993
甚為希有	-11.3994
乳哺	-11.3994
傲	-11.3994
貢	-11.3994
摧壓	-11.3995
冰	-11.3995
香味觸	-11.3995
瘦	-11.3995
秘密	-11.3995
伽藍	-11.3995
踐	-11.3995
祚	-11.3996
酸	-11.3996
僉	-11.3996
於聲聞乘得無誤失	-11.3996
彼精進王	-11.3996
迦陵頻伽	-11.3996
矟	-11.3996
衝	-11.3996
庫藏	-11.3996
諸苾芻	-11.3996
曼多	-11.3996
世尊為我宣說	-11.3997
求哀懺悔	-11.3997
煑	-11.3997
目揵連	-11.3997
大沙門	-11.3998
地藏菩薩本願經	-11.3998
好醜	-11.3998
如汝所言	-11.3998
常得值遇諸善知識	-11.3998
詣佛所	-11.3998
阿閦	-11.3998
無央數劫	-11.3998
摩我頂	-11.3999
無量苦惱	-11.3999
津	-11.3999
蔭	-11.3999
驚動	-11.3999
由是之故	-11.3999
悕	-11.3999
從空而下	-11.3999
聖人住處	-11.4
整	-11.4
生大怖畏	-11.4
絡	-11.4
閣	-11.4
鉤	-11.4001
戴	-11.4001
於剎那頃	-11.4001
阿素洛	-11.4001
壤	-11.4001
阿耨	-11.4001
我之正法	-11.4002
團	-11.4002
番	-11.4002
蕩	-11.4002
治罰	-11.4003
隋天竺三藏那連提耶舍譯	-11.4003
圍	-11.4003
建立法幢	-11.4003
稱讚貴重	-11.4003
艸	-11.4003
若男若女	-11.4003
滿中珍寶	-11.4003
壑	-11.4004
伴黨	-11.4004
誠諦	-11.4004
常得昇進	-11.4004
債	-11.4005
螺	-11.4005
為菩提故	-11.4005
是名說義	-11.4005
妹	-11.4006
無願順陀羅尼	-11.4006
禍福	-11.4006
法欲滅時	-11.4006
毘樓勒叉天王	-11.4006
精舍	-11.4007
所愛妻子	-11.4007
詔	-11.4007
挍	-11.4007
卵生	-11.4007
虛空庫藏	-11.4007
無所猜	-11.4008
金縷	-11.4008
一剎那頃	-11.4008
甚可愛樂	-11.4008
衰惱	-11.4008
利益存亡	-11.4008
供養之具	-11.4009
來詣佛所	-11.4009
為諸有情如應說法	-11.4009
捷	-11.4009
鷲王	-11.4009
僧祇物	-11.4009
隨順而行	-11.4009
當得作佛	-11.4009
幾所福	-11.4009
既聞法已	-11.401
厄難	-11.4011
結恨	-11.4011
而不取證	-11.4011
疊	-11.4011
諸根不具	-11.4011
開敷	-11.4011
國王大臣	-11.4013
體廢缺	-11.4013
毘沙門天王	-11.4013
一滴水	-11.4013
於流轉中	-11.4013
紀	-11.4013
及大聲聞	-11.4013
堅固鎧	-11.4014
五辛	-11.4014
為他演說	-11.4014
無明黑闇	-11.4014
遮障惡眾生	-11.4014
結舌不言	-11.4014
不久便當	-11.4015
噉食	-11.4015
麁惡語	-11.4015
毘樓博叉天王	-11.4016
見聞隨喜	-11.4016
思惟其義	-11.4016
皆是意行	-11.4016
是畢竟忍	-11.4017
義今說	-11.4018
來至佛所	-11.4018
為人說經	-11.4018
廣設方便	-11.4018
失道者	-11.4019
迴轉	-11.4019
備足	-11.402
不應取著	-11.402
若有法師	-11.4021
復遇	-11.4021
不退阿耨多羅三藐三菩提	-11.4021
如是鎧甲	-11.4021
我於今日	-11.4021
十千眷屬	-11.4022
尋伺	-11.4023
分百千萬分	-11.4024
未來世此佛土中	-11.4024
猛風	-11.4026
耳鼻舌身意	-11.4026
毛竪	-11.4026
老病	-11.4027
菩薩見已修集	-11.4028
樂於寂靜	-11.4028
供像	-11.4029
往娑婆世界	-11.403
有漏無漏	-11.403
寶貝	-11.4031
飯食	-11.4031
精勤修習	-11.4032
妙吉祥	-11.4035
毒氣	-11.4036
處大眾中	-11.4036
恒河沙世界	-11.4036
多日夜	-11.4037
具足成滿	-11.4038
薩他	-11.4039
黑山	-11.4039
速得自在	-11.404
遠離惡友	-11.4041
勝義諦	-11.4043
一品	-11.4044
問於如來	-11.4044
然燈如來	-11.4045
過咎	-11.4045
證此三昧	-11.4045
婆樓那	-11.4045
皆悉具足	-11.4045
支解	-11.4046
影現	-11.4047
作大利益	-11.4048
濕生	-11.4048
護持淨戒	-11.4049
又有眾生	-11.405
修行六波羅蜜	-11.4051
不取不捨	-11.4053
宣示	-11.4053
比摩	-11.4054
成熟有情	-11.4054
繫著	-11.4054
乃至夢中	-11.4055
受大苦	-11.4056
亦無增減	-11.4056
忍波羅蜜	-11.4056
囉系	-11.4057
勤勞	-11.4057
是辰	-11.4057
況能	-11.4058
菩薩見已修	-11.4058
墮於地獄	-11.4059
入初禪	-11.4062
普覆	-11.4063
一切法體性	-11.4064
我等亦當	-11.4065
劫燒	-11.4065
我今當說	-11.4068
十一日合	-11.4068
通慧	-11.4069
貪瞋	-11.4071
能大利益	-11.4072
般遮	-11.4073
無間斷	-11.4073
永斷一切	-11.4076
至心受持	-11.4081
無有覺觀	-11.4084
於百千劫	-11.4084
遍動	-11.4085
一切法障	-11.4085
迦樓羅王	-11.4089
人中師子	-11.409
驚疑	-11.4095
惡道中	-11.4096
又為一切	-11.4099
來到佛所	-11.4101
清白	-11.4101
作如是思惟	-11.4102
清淨梵行	-11.4102
為眾生說法	-11.4102
出沒	-11.4102
常當念	-11.4102
於一切定	-11.4103
善調	-11.4103
暫住	-11.4104
於過去世	-11.4106
無所依止	-11.4108
若能觀察	-11.411
曇摩	-11.4111
壽命無量	-11.4112
遮護	-11.4112
修行善法	-11.4113
倍復	-11.4119
諸善知識	-11.412
薩多	-11.4122
得成阿耨多羅三藐三菩提	-11.4124
入王舍城	-11.4124
四方僧	-11.4127
還來	-11.4128
虛假	-11.4128
一菩薩名	-11.4129
法緣慈	-11.4129
得如月	-11.4132
大醫王	-11.4134
於三寶所	-11.4135
因緣和合	-11.4136
有百千	-11.4136
是故奢利弗	-11.4141
亦復難	-11.4143
乃至得阿耨多羅三藐三菩提	-11.4144
甘樂	-11.4144
發動	-11.4145
如是展轉	-11.4145
八萬四千諸	-11.4147
離癡	-11.4148
四如意	-11.4149
普賢如來	-11.415
化變	-11.4153
七重	-11.4154
佐助	-11.4157
不見一法	-11.416
現神變	-11.4172
告阿難	-11.4176
死後	-11.4179
珠瓔	-11.418
若彼眾生	-11.418
不知恩	-11.4184
正顯	-11.4185
暴惡	-11.4188
方能	-11.419
常勤精進	-11.4191
三萬億	-11.4195
疑網心	-11.4208
第一義空	-11.4212
舍摩	-11.4213
成形	-11.4215
或勸	-11.4215
所作業	-11.4216
塵數	-11.4216
作是言已	-11.4216
摩睺羅伽王	-11.4218
如是說者	-11.4218
諸蟲	-11.4219
知其數	-11.4219
閻浮提人	-11.4223
本來清淨	-11.4225
於是中	-11.4227
總持莊嚴	-11.4228
空無所有	-11.4232
散壞	-11.4233
尋時	-11.4238
譬如世間	-11.4238
如是見者	-11.4243
四顛倒	-11.4244
譬之	-11.4247
說妙法	-11.4248
勝福	-11.4252
施諸眾生	-11.4256
相無相	-11.4261
薩遮	-11.4263
十三日合	-11.4271
詣世尊所	-11.4273
將軍	-11.4278
更不復	-11.4291
之所供養	-11.4296
如是等經	-11.4298
成就無量功德	-11.4298
稱意	-11.4299
破無明	-11.4306
義趣	-11.4309
非聖	-11.4313
於五濁惡世	-11.432
如是等眾	-11.4323
眼界	-11.4327
普聞	-11.433
却後	-11.4333
眾星	-11.4337
皮肉	-11.434
六十三	-11.4342
菩薩於中	-11.4351
世尊為重明此義	-11.4352
知是眾生	-11.4354
二十種	-11.4355
苦諦	-11.4356
復人身	-11.4359
應著	-11.4365
隨轉	-11.4365
不久當得	-11.4367
邪業	-11.4368
所有福德	-11.4372
其邊	-11.4373
四萬	-11.4376
所犯罪	-11.4377
涅槃性	-11.4379
呵呿	-11.4384
愛樂法	-11.4387
耳聲	-11.4391
諸群生	-11.4396
微少	-11.4396
歸依彼	-11.4399
光明普照	-11.4404
未證	-11.4408
如佛世尊	-11.4415
諸魔業	-11.4416
四洲	-11.4417
得無上道	-11.442
若人欲	-11.4422
一切諸佛之所	-11.4423
功德海	-11.4426
乘此	-11.4432
精進波羅蜜	-11.4436
爾許	-11.4436
如是觀時	-11.4438
悉達	-11.444
無想念	-11.4451
等類	-11.4465
無悕望	-11.4475
作惡業	-11.4479
不相應	-11.4481
諸蘊	-11.4483
志願	-11.4486
於其中	-11.4489
持戒清淨	-11.4489
首陀羅	-11.4492
彼諸善男子	-11.4496
是義不	-11.4502
各別	-11.4502
一切無量眾生	-11.4511
藥味	-11.4511
作如是觀	-11.4512
窮極	-11.4518
千倍	-11.4525
各不相	-11.4527
斯經	-11.4529
初敘	-11.4541
皆得解脫	-11.4543
軫	-11.4567
求名聞	-11.4569
懈倦	-11.4574
獨一	-11.4581
受法者	-11.4589
一微塵	-11.4593
佛十力	-11.4595
久生	-11.46
供養供給	-11.46
獲得菩提	-11.4601
八萬四千劫	-11.4606
能壞眾生	-11.4607
沙門婆羅門	-11.4611
諸仙	-11.4611
心不懷	-11.4611
垢濁	-11.4616
於菩提道	-11.4623
能施一切	-11.4632
我今以此	-11.4637
如電	-11.4637
憐愍一切眾生	-11.4638
金剛三昧	-11.4642
麻油	-11.4646
覺支	-11.4649
尼國	-11.4658
汝當受持	-11.4658
修悲	-11.4662
金色光	-11.4684
十方無量世界	-11.4701
我先	-11.4703
有佛世尊	-11.4704
百種	-11.4707
能照	-11.4708
此經法	-11.4715
經家敘	-11.4718
亦不知	-11.4738
行乞食	-11.4738
諸惡道	-11.4742
愍眾生故	-11.4743
羂	-11.4744
汝今當	-11.4746
於此三千大千世界	-11.4753
無所犯	-11.4761
餓	-11.4761
祕密章句	-11.4768
沒唎	-11.4773
斷除一切	-11.4775
三十日	-11.478
辰	-11.478
曳	-11.4781
商	-11.4783
呵囉	-11.4785
諸罪人	-11.4787
告我言	-11.4788
株	-11.4789
沒履呿	-11.4793
牟尼尊	-11.4798
日眼蓮華陀羅尼	-11.48
危害	-11.48
贍部洲	-11.4803
說是偈	-11.4804
如意足	-11.4804
娜娜	-11.4805
三牟陀	-11.4806
羯摩	-11.4808
蔓	-11.4808
衢	-11.481
曼陀	-11.4811
斫芻	-11.4811
住不退轉地	-11.4811
縱廣高下	-11.4811
臍	-11.4811
囉拏	-11.4812
如是忍者是無	-11.4813
塹	-11.4813
效	-11.4814
踈	-11.4815
復有一魔	-11.4815
勒叉	-11.4817
無功用	-11.4817
骨瑣	-11.4818
窓	-11.4818
貧匱	-11.4818
大力軍將	-11.4818
薰	-11.4819
輕蔑	-11.4819
乃至斷命	-11.4819
擁	-11.4819
村邑	-11.4819
鉢底	-11.4819
世尊復告賢護菩薩	-11.482
什	-11.482
枳	-11.482
棒	-11.482
狐	-11.4821
殊致羅娑	-11.4821
清潔	-11.4821
乾闥婆千眷屬	-11.4823
緣覺之乘	-11.4823
導御	-11.4824
汝亦應令得生敬信	-11.4824
諷	-11.4825
北涼天竺三藏曇無讖譯	-11.4825
宴	-11.4825
暖	-11.4825
拍	-11.4825
細滑	-11.4825
撥無因果	-11.4825
惛	-11.4826
童男	-11.4826
德華藏佛	-11.4826
地藏慈尊	-11.4826
信受奉行	-11.4826
箭射	-11.4826
條	-11.4826
與大比丘眾	-11.4826
能堪任	-11.4827
醎	-11.4827
香潔	-11.4827
編	-11.4827
二別明	-11.4827
常於菩提種種行願	-11.4827
袈裟幢	-11.4827
及斷命根	-11.4828
摧魔如來	-11.4828
慼	-11.4828
問訊釋迦牟尼佛	-11.4828
班宣	-11.4828
統領	-11.4828
資生之具	-11.4828
九萬九千	-11.4829
無熱惱	-11.4829
他方怨敵	-11.4829
諸佛所說念佛三昧	-11.4829
夏	-11.4829
減損	-11.483
踊躍歡喜	-11.483
巷	-11.483
貪欲瞋恚愚癡	-11.483
蟻	-11.483
摩睺勒	-11.4831
鼠	-11.4831
十不善業	-11.4831
鑊	-11.4832
伎藝	-11.4832
雷震	-11.4832
息入出	-11.4832
絃	-11.4832
於獨覺乘得無誤失	-11.4832
既命終已	-11.4832
紛	-11.4833
遠行安隱	-11.4833
牟嘍	-11.4833
為護法故	-11.4833
欄楯	-11.4833
蓮華藏如來	-11.4833
於獨覺乘補特伽羅得無誤失	-11.4833
稻	-11.4833
名為自說	-11.4833
姑	-11.4834
整衣服	-11.4834
立世阿毗曇	-11.4834
惡麁堅苦痛不可身	-11.4834
無礙辯才	-11.4834
如是菩薩摩訶薩住第一義忍清淨平等	-11.4834
匿	-11.4834
常願不處	-11.4834
下至一切被片袈裟剃	-11.4835
丹	-11.4835
超殊	-11.4835
神主當	-11.4835
令還俗	-11.4836
二萬五千	-11.4836
剉	-11.4836
初分三初	-11.4836
煙	-11.4836
悕求	-11.4837
鑒	-11.4837
為佛作禮	-11.4837
阿那婆達多龍王	-11.4837
詣寶高座住	-11.4837
得究竟淨	-11.4837
如說而作	-11.4837
含笑	-11.4838
盡形壽	-11.4838
淨潔	-11.4838
京	-11.4838
不如有人	-11.4838
鬪亂	-11.4839
是故如來於諸眾生而	-11.4839
未解脫者	-11.4839
發弘誓願	-11.484
巨海	-11.484
造身語意	-11.4841
履尼	-11.4841
俱來集會	-11.4842
刻	-11.4842
初分二初	-11.4842
迷悶	-11.4842
命終定生無間	-11.4843
陸	-11.4843
藝	-11.4843
窣堵波	-11.4843
十八不共之法	-11.4843
離善知識	-11.4844
從何所來	-11.4844
於睡夢中	-11.4844
曼陀羅華	-11.4844
以己神力	-11.4844
是故我禮	-11.4844
脇	-11.4844
即我身是	-11.4844
我等從今	-11.4844
覺華定自在王如來	-11.4845
嬈亂	-11.4845
楞嚴云	-11.4845
糞穢	-11.4845
時婆羅門女	-11.4846
塊	-11.4847
猶如幻化	-11.4847
以妙香花	-11.4847
百千生中	-11.4848
四梵住	-11.4848
我及我所	-11.4848
臣民	-11.4848
諸三昧門	-11.4849
陀邏	-11.4849
能滿六波羅蜜	-11.4849
疾得是三昧	-11.485
財穀	-11.485
事而持禁戒	-11.485
殘害	-11.4851
寄付	-11.4851
汝曹	-11.4851
靜室	-11.4851
堪為聲聞	-11.4851
不作是念我起	-11.4851
大乘得無誤失	-11.4851
立佛前	-11.4851
受諸苦毒痛切難忍	-11.4852
我於往昔	-11.4852
無所悕望	-11.4852
聞佛名	-11.4853
金剛齊	-11.4853
夢覺	-11.4853
甘露門	-11.4853
無有餘	-11.4853
親近善知識	-11.4854
八萬四千歲	-11.4854
各五百眷屬	-11.4855
修集慈悲	-11.4855
十惡輪	-11.4855
為聞法故	-11.4855
析	-11.4856
塑畫	-11.4856
超異	-11.4858
轉大梵輪	-11.4859
憙樂	-11.4859
此即能修	-11.4859
一切諸法無有	-11.4859
隣國	-11.4859
虛空之性	-11.486
速成阿耨多羅三藐三菩提	-11.486
施作佛事	-11.4861
受持此陀羅尼	-11.4861
白象	-11.4861
俱胝那庾多百千	-11.4861
為彼守護	-11.4861
巧方便智	-11.4862
先亡	-11.4863
舉苾芻	-11.4864
法兄	-11.4864
路迦	-11.4865
善觀作	-11.4865
乃至以精進	-11.4865
中央	-11.4865
阿鞞	-11.4866
塵沙	-11.4866
四百四	-11.4866
百千俱致那由多	-11.4868
迦邏	-11.4868
得增長故	-11.4869
金剛齊菩薩比丘	-11.4869
胞胎	-11.4871
知如是者則知緣生法	-11.4871
剃	-11.4871
他化自在天王	-11.4873
無虛	-11.4873
得福多	-11.4873
是名護法	-11.4873
聚落主	-11.4874
往佛所	-11.4875
產業	-11.4875
是諸人等	-11.4876
國邑	-11.4877
場和	-11.4877
奪他	-11.4877
清信	-11.4878
諸根圓滿	-11.4878
聚會	-11.4878
彼釋子	-11.488
阿吒	-11.488
大乘法義	-11.4882
恣意	-11.4883
并餘	-11.4883
有剎帝利旃荼羅王	-11.4883
婆羅門旃荼羅	-11.4883
無有處所	-11.4884
種種資生	-11.4884
喻如虛空無有	-11.4885
受妙樂	-11.4886
即入三昧	-11.4886
隨其所樂	-11.4886
我等昔來	-11.4889
虛誑語	-11.489
我復又	-11.489
常樂寂靜	-11.4892
不可破壞	-11.4893
復有十種	-11.4895
所作諸業	-11.4896
隨意所	-11.4897
以為眷屬	-11.4897
磨滅	-11.4905
自觀身	-11.4905
有大因緣	-11.4905
意識界	-11.4906
往彼娑婆世界	-11.4906
是白月	-11.4907
虛空之中	-11.4907
毫相	-11.4907
是名第三	-11.4909
去來今	-11.491
壞亂	-11.4915
妙音聲	-11.4915
聽受法	-11.4915
是名第二	-11.4916
不淨觀	-11.4918
如斯念	-11.4918
怖懼	-11.4918
諸惡鬼神	-11.4921
西天	-11.4929
導利	-11.4934
自稱我	-11.4936
助菩提法	-11.4936
供奉	-11.4937
諸不善業	-11.4939
愛重	-11.4943
自見身	-11.4943
眼視	-11.4944
苦擔	-11.4944
度量	-11.4947
據此	-11.4948
衣鉢	-11.4948
愍眾生	-11.4948
知諸法性	-11.4949
如是人等	-11.4952
能師子吼	-11.4953
至心聽法	-11.4954
唯舍利弗	-11.4956
菩薩復有四	-11.4958
以頌讚	-11.4961
品類	-11.4965
是名非法	-11.4966
諸天人等	-11.4972
乃至證得	-11.4973
耶尼	-11.4974
能與眾生	-11.4975
功能	-11.4982
諸大聲聞	-11.4988
日合觜	-11.499
一切法自性	-11.4991
調善	-11.4992
等御	-11.4994
誘進	-11.4996
日合箕	-11.4997
於東方	-11.5001
不審	-11.5006
六反	-11.5013
而師子吼	-11.5015
中陰	-11.5015
不驚	-11.5016
有漏法	-11.5017
之精	-11.5017
諸法實相	-11.502
不可知	-11.5022
亦有二	-11.5023
衣食豐	-11.5023
如來之身	-11.5024
滅諦	-11.5025
汝於過去	-11.5029
乃至命終	-11.503
分別辯	-11.503
所說之法	-11.5035
後夜	-11.5039
滿足一切眾生	-11.5042
種種音樂	-11.5042
於此大乘	-11.5046
聲聞辟支佛乘	-11.5046
修十善	-11.5049
不捨一切眾生	-11.5051
生死涅槃	-11.5053
無暗	-11.5056
虛無	-11.5067
無疑惑	-11.5072
依何	-11.5073
己利	-11.5074
狀如	-11.5075
受快樂	-11.5085
度諸眾生	-11.5094
調伏諸根	-11.5094
聽正法	-11.5095
日合軫	-11.5096
三諦	-11.5097
發大乘	-11.5103
初句	-11.5104
作惱亂	-11.5105
大威	-11.5106
無懈倦	-11.5109
究竟具足	-11.5114
亦不能得	-11.5119
是地藏菩薩摩訶薩	-11.5124
林樹	-11.5127
日合氐	-11.5127
遍至	-11.5128
修集大悲	-11.513
魔女	-11.5141
未定	-11.5144
一切眾生境界	-11.5146
能忍受	-11.5149
割其	-11.516
普觀	-11.516
諸度無極	-11.5164
十二日合	-11.5173
生疑惑	-11.5175
無量無數阿僧祇	-11.5175
飲食衣服	-11.5177
無退轉	-11.5177
聽我說	-11.5181
八萬億	-11.5182
諸如來是	-11.5182
亦是菩薩	-11.5187
諸剎土	-11.5193
罪障	-11.5195
名為如說	-11.5198
能破一切	-11.5204
於無量世	-11.5219
日合亢	-11.522
堪能	-11.5222
能通達	-11.5224
即是空	-11.5225
依止於	-11.523
與諸眾生	-11.5238
作禮而	-11.5248
遠離諸惡	-11.525
無非是	-11.525
悉得解脫	-11.5253
次觀	-11.5257
利益世間	-11.5258
那蛇	-11.5272
諸塵勞	-11.5272
是名菩薩修行	-11.5285
受女身	-11.5286
是為八	-11.5294
法服	-11.5294
若今現在	-11.53
聞此經	-11.5302
王宮	-11.5303
退還	-11.5309
佉婆	-11.531
及大菩薩	-11.5318
邊地	-11.5324
住止	-11.5324
上味	-11.5336
諸法無我	-11.5337
法界平等	-11.5352
乞求	-11.5355
若人於此	-11.5356
羅龍王	-11.5358
成立	-11.536
出三界	-11.5361
黃金	-11.5362
處胎	-11.5365
本誓	-11.5378
等無異	-11.538
修慈悲	-11.5382
七七日	-11.5383
能伏	-11.5386
於眾中	-11.5391
日合辟	-11.5396
得須陀洹	-11.5403
在地獄	-11.5405
即是菩提	-11.5406
光明遍照	-11.5407
法典	-11.5409
并其	-11.5415
我請問	-11.5422
如是行者得	-11.5431
日合婁	-11.5433
彼二人	-11.5439
眾生處於	-11.5446
恭敬尊重	-11.5446
自慚	-11.5451
之所稱讚	-11.5452
一一方	-11.5478
鬼道	-11.5494
所稱譽	-11.5496
知眾生心	-11.5501
叉叉	-11.5514
觸因緣	-11.5515
即是虛空	-11.552
丸	-11.553
觀無常	-11.5532
隨所樂	-11.5533
能如是觀	-11.5543
化度眾生	-11.5552
厭足	-11.5564
三匝	-11.5566
牛頭	-11.557
靡不周	-11.5595
是我所	-11.5603
六十八	-11.5618
廿	-11.563
無受無取	-11.5658
偈讚	-11.5658
世間出世間	-11.566
巧說	-11.5668
恒河沙等諸佛	-11.5669
皆來集	-11.5674
菩薩具足如是	-11.5679
分身地藏	-11.5686
斷諸煩惱	-11.5688
波利婆	-11.569
萬眷屬	-11.5691
成就此輪	-11.5697
靜默	-11.5704
如是生死無數劫是為顛倒	-11.5705
雪	-11.5708
和悅	-11.5709
區	-11.5712
鉢利訶利	-11.5713
陛	-11.5713
速疾得	-11.5713
於後末世	-11.5715
一百一十	-11.5715
詠	-11.5717
微妙經典	-11.5719
磨瑩	-11.5719
匹	-11.572
迅	-11.572
芻	-11.572
說此呪已	-11.572
以戒莊嚴	-11.5721
愛因緣	-11.5721
令法久熾然	-11.5722
慶幸	-11.5722
普密王	-11.5723
六十卷	-11.5724
懅	-11.5724
􂍾	-11.5724
果名精進處	-11.5725
苗	-11.5725
虱	-11.5727
怛薩阿竭	-11.5727
鞭	-11.5727
雀	-11.5727
生慈心	-11.5727
拘律陀	-11.5728
沐浴	-11.5728
羼提	-11.5728
憒亂	-11.5728
嘗	-11.5729
四意斷	-11.5729
徹視	-11.5729
啼	-11.5729
護世四王	-11.573
余	-11.573
妬嫉	-11.573
吳	-11.573
一彈指頃	-11.573
藥王軍菩薩言	-11.573
妓女	-11.573
譌	-11.5731
宣說法要	-11.5731
微薄	-11.5731
二顯益	-11.5733
鉢頭摩	-11.5733
崇	-11.5733
無上正真道	-11.5733
稀	-11.5733
美味好語言	-11.5733
赤真珠	-11.5734
劒	-11.5734
有黑子	-11.5734
博叉	-11.5734
怨憎會	-11.5734
昭	-11.5734
勑	-11.5734
出微妙音	-11.5734
烏闍	-11.5734
寢	-11.5735
孤獨	-11.5735
歇	-11.5735
輦	-11.5735
符	-11.5736
隱身不現	-11.5736
蝎	-11.5736
予	-11.5736
針	-11.5736
酒所醉無覺知者	-11.5736
獷	-11.5736
大地六種震動	-11.5736
可厭患	-11.5736
性識無定	-11.5736
逈	-11.5736
欽敬	-11.5737
擊大法鼓	-11.5737
利益安樂無量有情	-11.5737
此陀羅尼有大勢力	-11.5738
錯亂	-11.5738
潔白	-11.5738
患厭	-11.5738
挽	-11.5738
頭面敬禮	-11.5738
覽	-11.5738
享	-11.5739
騃	-11.5739
歌詠	-11.5739
瞑	-11.5739
是慢業	-11.5739
妻妾	-11.5739
聖旨	-11.5739
除煩惱病	-11.5739
欽	-11.5739
額	-11.5739
功祚	-11.574
菴羅	-11.574
阿惟越致	-11.574
波羅提	-11.574
三寶種不斷絕故	-11.574
於聲聞乘補特伽羅得無誤失	-11.574
倉庫	-11.5741
在日前	-11.5741
冬	-11.5741
疲勞	-11.5741
峻	-11.5741
穢厭	-11.5741
忠	-11.5741
月黑月	-11.5741
於夜後分	-11.5742
不怯弱	-11.5742
奪精氣	-11.5742
謹	-11.5743
該	-11.5743
耆年	-11.5743
鬚髮者	-11.5743
權方便	-11.5743
不望報	-11.5743
陰界諸入	-11.5743
亡者神識	-11.5744
帳	-11.5744
於其大乘補特伽羅得無誤失	-11.5744
憒	-11.5744
歸命禮	-11.5745
翫	-11.5745
常能熾然三寶種姓	-11.5745
灌頂剎利王	-11.5745
忤	-11.5745
前為佛作禮	-11.5745
阿耨菩提	-11.5745
回	-11.5745
髓腦	-11.5745
興發大哀	-11.5745
矯	-11.5745
破和合僧	-11.5745
庭	-11.5746
膳	-11.5746
倉	-11.5746
包	-11.5746
修平等行	-11.5747
住於閑林	-11.5747
居士旃陀羅	-11.5747
婢子	-11.5747
豎	-11.5747
恣汝所問	-11.5747
出大音聲	-11.5747
復有二事	-11.5748
求樂離苦	-11.5748
不可計會	-11.5748
誅	-11.5748
所以迴反	-11.5748
飄	-11.5748
且置	-11.5748
羅睺	-11.5749
皆悉輾壞	-11.5749
遭遇	-11.5749
財產	-11.5749
正定聚	-11.5749
玩	-11.5749
向彼魔王	-11.5749
北涼天竺三藏曇無讖	-11.575
既出家已	-11.575
?』」「	-11.575
病瘦	-11.575
增上意樂	-11.575
怨讎	-11.575
毀罵	-11.575
混	-11.575
剡魔王	-11.5751
是為菩薩校計	-11.5751
百踰闍那	-11.5751
齎持	-11.5751
我為是等	-11.5751
楞伽	-11.5752
槊	-11.5752
將命終時	-11.5752
能稱地藏菩薩名號	-11.5752
永不退轉	-11.5752
憂苦逼切	-11.5752
見佛聞法	-11.5752
撫	-11.5752
生善處	-11.5753
坐一面	-11.5753
買	-11.5753
或斷其命	-11.5753
是為菩薩成就八法	-11.5754
具大果報	-11.5754
葱	-11.5754
大威神力	-11.5754
不唐捐	-11.5755
善男女等	-11.5755
隙	-11.5755
端正聰明	-11.5755
如說能行	-11.5755
所作事業	-11.5755
毘摩質多羅阿修羅王	-11.5755
復有八事	-11.5755
毀呰賢聖	-11.5755
釋迦文佛	-11.5756
銕城	-11.5756
驅擯	-11.5756
大目揵連	-11.5756
深生敬信	-11.5756
欺陵	-11.5757
暇	-11.5757
忿恨	-11.5758
肥	-11.5758
飲血	-11.5758
是寶曜總持	-11.5758
至世尊所	-11.5758
知恩報恩	-11.5758
羅閱祇	-11.5758
不可議	-11.5758
化作床座	-11.5758
星辰	-11.5759
淺深	-11.5759
常不遠離	-11.576
領納	-11.576
合掌向	-11.576
跛履侈	-11.576
百八愛	-11.576
速滿六波羅蜜	-11.5761
吾當為汝	-11.5761
算師	-11.5762
汝可持	-11.5763
律教	-11.5763
那術	-11.5763
是為菩薩成就四法	-11.5763
沓	-11.5763
閻浮利	-11.5764
床座	-11.5764
其順法者亦不	-11.5765
金剛力士	-11.5765
墮大地獄	-11.5766
薄少	-11.5766
凡所演說	-11.5766
慧燈三昧	-11.5766
以方便故	-11.5766
一大樹	-11.5766
無所積聚	-11.5767
善根者謂	-11.5768
不如意事	-11.5768
毘梨	-11.5769
大涅槃城	-11.5769
睡夢	-11.577
中細軟	-11.577
一切殊勝善	-11.5772
第三禪	-11.5772
是名如來第十	-11.5772
恭敬圍遶	-11.5772
雜類	-11.5773
面目	-11.5774
令無有餘	-11.5774
雨種種寶	-11.5774
貯	-11.5776
叚	-11.5776
身壞命終得生	-11.5777
不以為難	-11.5777
來到此	-11.5778
壞煩惱魔	-11.5782
難得人身	-11.5782
天上世間	-11.5784
慧聚	-11.5784
境界即佛境界	-11.5785
雖欲修	-11.5786
種種所須	-11.5787
以自莊嚴	-11.5788
和順	-11.5788
蘭若	-11.5788
言訟	-11.5788
奉順	-11.5789
臭惡	-11.579
誹	-11.579
常欺	-11.579
能求一切	-11.579
降雨	-11.5791
軍將	-11.5791
宣說妙法	-11.5792
聲聞辟支佛地	-11.5792
闍藍婆	-11.5793
婆呵囉	-11.5793
皆悉降伏	-11.5794
諸大菩薩摩訶薩	-11.5796
欲界諸天	-11.5796
此善男子亦復如是	-11.5797
移轉	-11.5797
造十惡	-11.5797
分齊	-11.5797
多摩羅	-11.5798
入三昧已	-11.5799
輕安	-11.58
勤進	-11.58
日合翼	-11.5801
眾祐	-11.5802
啟問	-11.5802
於彼命終	-11.5803
男女眷屬	-11.5804
小河	-11.5805
凡聖	-11.5806
譏呵者	-11.5806
老病死	-11.5809
菩薩行道	-11.5811
質多羅	-11.5812
具大神通	-11.5814
勸諸眾生	-11.5814
廣遠	-11.5814
秋月	-11.5816
我涅槃後	-11.5818
正法念經	-11.5818
不生不起	-11.5818
不誑諸佛	-11.5819
三千界	-11.5819
當來世	-11.582
生慚愧心	-11.5821
不觀後世畏	-11.5822
一百二十	-11.5823
應機	-11.5823
當知即是	-11.5824
無限量	-11.5824
無所造作	-11.5827
三種菩提	-11.5828
於三界中	-11.5828
三百眷屬	-11.583
真實了知	-11.5831
佛隨念	-11.5834
人中上	-11.5834
親愛	-11.5838
苦毒	-11.5842
淨身口意	-11.5844
為我等說	-11.5844
定意莊嚴	-11.5845
有大利益	-11.585
於善師	-11.585
遊處	-11.5851
不了義	-11.5851
洋銅	-11.5852
厭惡	-11.5852
如是等類	-11.5852
戒依止	-11.5853
法界亦爾	-11.5853
無悋惜	-11.5854
所牽	-11.5855
遣令	-11.5857
清淨戒行	-11.5859
懷來	-11.586
見已即	-11.5863
往反	-11.5865
諸菩薩摩訶薩眾	-11.5866
佛告比丘	-11.5866
生其土	-11.5867
圓成	-11.5872
四姓	-11.5876
演出	-11.5877
同體	-11.5879
九十一	-11.5883
殺處	-11.5897
勤力	-11.5899
發心布施	-11.5899
專修	-11.5903
攝護	-11.5905
之原	-11.591
尊者舍利弗	-11.5911
小果	-11.5916
累劫	-11.5919
大虛空藏菩薩摩訶薩	-11.592
作如是說	-11.5921
廣普	-11.5925
滿其中	-11.5931
宿主於	-11.5932
永滅	-11.5934
須彌頂	-11.5937
十習	-11.5937
則能具足	-11.5939
照了	-11.594
調和	-11.594
自在天子	-11.5941
見彼佛	-11.5951
如是得三昧	-11.5952
諸有情類	-11.5969
惑業	-11.5969
麁惡	-11.5976
惡不善業	-11.5977
於經中	-11.5982
凡愚	-11.5987
日合角	-11.599
得首楞嚴三昧	-11.5996
世出世間	-11.6003
救苦	-11.6003
日合危	-11.6006
住於大乘	-11.6007
世尊告不空見	-11.6018
於佛正法	-11.6025
感應	-11.6029
無等等	-11.6036
名為梵行	-11.6041
諸天人民	-11.6048
萬二千菩薩	-11.6052
世閒	-11.6055
十日合	-11.6066
閻浮提內	-11.6077
所應作	-11.6081
諸眾生類	-11.6084
於甚深法	-11.6085
繒蓋	-11.6089
見十方佛	-11.6094
身口意惡	-11.6095
雲雨	-11.6096
故我今日	-11.6098
偈頌	-11.6106
能永斷	-11.611
果藥	-11.6124
況今	-11.6125
作障礙	-11.6129
雜寶	-11.6129
六日合	-11.6131
娑利	-11.6148
皆生歡喜	-11.6155
無礙解	-11.6159
得見諸佛	-11.6169
超過一切	-11.6171
向佛合掌	-11.6175
其中所有	-11.6177
無上菩提之道	-11.6181
天耳聞	-11.6185
彼世界中	-11.6186
未脫	-11.6192
知宿命	-11.6197
八十八	-11.62
拔苦	-11.6201
高明	-11.6201
能如是知	-11.6202
彌利	-11.6215
世尊欲重宣此義	-11.6225
智者觀	-11.624
生邊地	-11.6243
感果	-11.6246
諂誑	-11.6262
奧	-11.6262
求索	-11.6274
是名為定	-11.6277
伽他	-11.6278
婆梨	-11.6297
覩諸佛	-11.6311
萬里	-11.6318
肉血	-11.6321
現種種形	-11.6323
七十六	-11.633
寶網	-11.634
證阿耨多羅三藐三菩提	-11.6346
十二月	-11.6366
名為涅槃	-11.6387
聖達	-11.6387
三十五佛	-11.6389
親承	-11.6399
手掌	-11.64
不染著	-11.64
乘最	-11.6401
有佛世尊名	-11.6429
在閻浮提	-11.6431
現在及未來世	-11.6431
何事	-11.6432
神仙	-11.6434
囉娑	-11.6449
巧便	-11.6461
海意菩薩摩訶薩	-11.6487
須陀洹果	-11.6489
得聞正法	-11.6496
令無所乏	-11.6525
一百四十	-11.6529
殺父	-11.6547
得成就阿耨多羅三藐三菩提	-11.6547
九十四	-11.6549
華臺	-11.6552
時彼眾中	-11.6577
為障礙	-11.658
過去業	-11.6583
頌讚佛	-11.6601
能堪忍	-11.6602
廣演	-11.6603
皆得無生法忍	-11.6619
十方一切佛	-11.6619
卅	-11.6625
羞	-11.6626
曹	-11.6626
名無生智	-11.6631
尚難	-11.6652
畏懼	-11.6667
舍羅	-11.6667
十八不共	-11.6671
者喻於	-11.6676
第一義忍清淨平等	-11.6683
鞮	-11.6689
指示	-11.6692
爹	-11.6693
精修	-11.6693
醫師	-11.6695
域	-11.6698
佗	-11.6701
初稱名	-11.6704
雌	-11.6704
法中出家	-11.6707
踦	-11.6707
分別法界	-11.6708
如是生死無數劫為顛倒	-11.6708
亦化眾人	-11.6712
為重明此義	-11.6713
百一十	-11.6714
長者子須達	-11.6714
訶波履婆	-11.6714
頭摩帝	-11.6715
㲲	-11.6716
三萬二千菩薩	-11.6716
元元	-11.6716
於我滅後	-11.6717
栴	-11.6718
簉	-11.6718
逮得無所從生法忍	-11.6718
阿牟	-11.6718
旱潦	-11.6719
提頭賴吒	-11.6719
色界諸天	-11.672
願救濟我	-11.672
財富	-11.672
􂚹	-11.672
釧	-11.6721
如是比像	-11.6722
齎	-11.6722
裹	-11.6722
纖毫	-11.6723
江河沙等	-11.6723
盜竊	-11.6724
佛身相	-11.6724
犀	-11.6725
而為其頂	-11.6725
暮	-11.6725
五百妓女	-11.6725
飽滿	-11.6726
怠	-11.6726
躁	-11.6726
七千由旬	-11.6726
各二千五百眷屬	-11.6726
牛羊	-11.6726
百千酤胝	-11.6727
詰	-11.6727
偶	-11.6727
屎	-11.6728
織	-11.6728
儒	-11.6728
姊妹	-11.6728
隋	-11.6728
危脆	-11.6728
曲躬合掌	-11.6729
毗婆尸佛	-11.6729
委	-11.6729
孕	-11.673
佛悉在前立	-11.673
婆羅底	-11.673
嵐	-11.673
唐天竺三藏波羅頗蜜多羅譯	-11.673
閉塞	-11.673
瞬	-11.6731
阿練若	-11.6731
六十億姟	-11.6732
歡欣	-11.6732
螫	-11.6732
妙玄云	-11.6732
哂離	-11.6732
無見頂	-11.6732
撿	-11.6733
容恕	-11.6733
諮啟	-11.6733
摩耶夫人	-11.6733
氈	-11.6734
又二初	-11.6734
邦	-11.6734
無能及者	-11.6734
犬	-11.6734
俱胝大菩薩眾	-11.6734
迅疾	-11.6734
威曜	-11.6735
屏	-11.6735
曩	-11.6735
亘	-11.6735
着	-11.6735
阿須輪	-11.6735
妨礙	-11.6736
日午之影長	-11.6736
笈	-11.6736
如毛髮	-11.6736
人與非人	-11.6736
摩尼珠	-11.6736
陽焰	-11.6736
寸	-11.6737
金剛杵	-11.6737
唯願說之	-11.6737
藍婆	-11.6737
於四眾中	-11.6738
鎮	-11.6738
惡剎利王	-11.6738
開府儀同三司	-11.6738
不鼓自鳴	-11.6738
錢財	-11.6738
炎德藏菩薩	-11.6738
甕	-11.6738
耳不聞聲	-11.6738
粟	-11.6738
岳	-11.6739
捷疾	-11.6739
愚戇	-11.6739
鑊湯	-11.674
無上正真之道	-11.674
中味中語言	-11.674
諭	-11.674
是國王等	-11.674
三十二相八十種好	-11.674
饍	-11.674
十二部經	-11.6741
虧	-11.6741
色二界中間	-11.6741
不斷佛種	-11.6741
艱苦	-11.6741
怨讐	-11.6741
晨	-11.6741
一切世間不可樂想	-11.6742
䐡	-11.6742
華菓	-11.6742
於一食頃	-11.6743
般舟三昧經	-11.6743
知是眾生因	-11.6743
隨所有處	-11.6743
遷	-11.6743
羶	-11.6743
魔王說偈	-11.6744
臻	-11.6744
卷第九	-11.6744
嬰兒	-11.6744
檢	-11.6744
無慚無愧	-11.6744
有情來生其國	-11.6744
舟	-11.6744
分陀利華	-11.6745
我成如是第	-11.6745
瓦石	-11.6745
右繞七匝	-11.6745
阿鞞跋致	-11.6746
行施亦復如是	-11.6746
彼佛告言	-11.6747
心生瞋忿	-11.6747
戀慕	-11.6747
金翅鳥	-11.6747
我人壽命	-11.6747
貧賤	-11.6747
溝	-11.6747
開示演說	-11.6747
毀破禁戒	-11.6747
令增壽命	-11.6747
志操	-11.6748
愛憎	-11.6748
醒	-11.6748
慳嫉	-11.6748
香湯	-11.6748
僧伽藍	-11.6748
初中後	-11.6749
晃	-11.6749
皆共親愛	-11.6749
賢愚經	-11.6749
酒肉	-11.6749
眾生來生其國	-11.6749
薜荔多	-11.6749
南無地藏王菩薩	-11.6749
被縛	-11.6749
品之餘	-11.6749
拘那含牟尼	-11.6749
炷	-11.6749
光梵大師賜紫沙門臣惟淨等奉詔譯	-11.675
旱	-11.675
武	-11.675
心不生悔	-11.675
毀呰聖人	-11.675
時無數菩薩	-11.675
須臾之頃至此忍界	-11.675
一心敬禮	-11.675
節節支解	-11.675
婆訶	-11.6751
嗣	-11.6751
修第一義諦菩薩摩訶薩	-11.6751
唯願仁者	-11.6751
復於餘剎或作	-11.6751
沈水香	-11.6751
濯	-11.6751
險難	-11.6752
與十江河沙等諸菩薩	-11.6752
我從昔來	-11.6752
則超魔境	-11.6752
床敷	-11.6752
摶	-11.6752
十二有支	-11.6752
地味精氣	-11.6752
癘	-11.6753
肢節	-11.6753
彼行布施清淨平等時	-11.6753
充遍	-11.6753
栴陀羅	-11.6753
依彼修學離	-11.6753
得柔順忍	-11.6753
漸次趣入	-11.6753
被服袈裟	-11.6754
希望	-11.6754
說是伽陀	-11.6754
而致清淨	-11.6754
陋	-11.6754
唾	-11.6754
宿殃	-11.6754
來至我所	-11.6754
妙寶莊嚴堂	-11.6754
斷滅善根	-11.6754
亦不及一	-11.6755
遶佛三匝	-11.6755
有諸國王	-11.6755
於戒休息	-11.6755
發心已來	-11.6755
如實而知	-11.6756
退失神通	-11.6756
智德峯王如來	-11.6756
名為如作	-11.6756
俱共發來至娑婆世界	-11.6756
其發心來	-11.6756
騎	-11.6757
持法比丘	-11.6757
時諸菩薩偈讚歎佛頭面	-11.6757
莫不歡喜	-11.6757
於諸眾生其心平等	-11.6757
門戶	-11.6757
不可得思議	-11.6757
悉皆消滅	-11.6757
如來於此而起大悲	-11.6757
楚毒	-11.6758
蠱道	-11.6758
是則我師	-11.6758
皇	-11.6758
無有少法	-11.6759
不忘不失	-11.6759
佛告一切勇菩提薩埵	-11.6759
三藐三菩提記	-11.6759
燒沈水香	-11.6759
如前廣說	-11.6759
所居佛土	-11.6759
於流轉時	-11.676
無能動	-11.676
不可算數	-11.676
無毒答曰	-11.676
殺生乃至邪見	-11.676
迴向於一切智	-11.676
善住龍王	-11.6761
主宰	-11.6761
快哉	-11.6761
災害	-11.6761
管	-11.6761
亦不授我阿耨多羅	-11.6762
阿含	-11.6762
抵	-11.6762
勇步	-11.6762
皆是慢業	-11.6762
護養育	-11.6762
允	-11.6762
犯波羅夷	-11.6762
惱熱	-11.6763
難稱量	-11.6763
詐現	-11.6763
無取無捨	-11.6763
微塵數	-11.6763
居止	-11.6764
轉女身	-11.6765
誼理	-11.6765
達磨	-11.6765
住信力時	-11.6765
色貌	-11.6765
尊導師	-11.6765
藥王菩薩摩訶薩	-11.6765
曠劫	-11.6765
昔所未轉	-11.6765
久住世故	-11.6766
第二禪	-11.6766
茷舍	-11.6766
倍增	-11.6766
無增無減	-11.6767
不共之法	-11.6767
啞羊	-11.6767
敬奉	-11.6767
藥叉神	-11.6767
安置養育	-11.6768
調御師	-11.6768
諸尼乾陀眾	-11.6768
宰相	-11.6768
此金剛句	-11.6769
方俗	-11.6769
求覓	-11.677
住定力時	-11.677
住慧力時	-11.677
牛馬	-11.677
是為菩薩出世間道	-11.677
或復化作	-11.677
文辭	-11.6771
告諸大眾	-11.6772
新學	-11.6773
投地	-11.6773
熾然三寶種	-11.6773
非佛所說	-11.6773
十二緣起	-11.6774
地藏之名	-11.6774
說其功德	-11.6774
巧妙	-11.6774
毀譽	-11.6774
無濁亂	-11.6775
梵宮	-11.6775
菩薩摩訶薩應當修學	-11.6775
無義語	-11.6775
辭無礙智	-11.6777
甚深十二因緣	-11.6777
惰	-11.6778
破戒苾芻	-11.6779
悔恨	-11.6779
甚為難	-11.6779
近善知識	-11.678
宗親	-11.678
一毛端	-11.6781
死尸	-11.6781
惡風雨	-11.6781
七覺意	-11.6782
受種種苦	-11.6782
修伽陀	-11.6784
貪悋	-11.6785
專一	-11.6786
所種善根	-11.6787
無所取著	-11.6787
所須之物	-11.6787
光澤	-11.6787
剎帝利王	-11.6788
名曰鐵	-11.6788
六十二見	-11.6789
皆悉除滅	-11.6792
不生貪著	-11.6792
無有陰蓋	-11.6795
眾德本	-11.6798
往聽受	-11.6798
大德阿難	-11.6799
寂滅涅槃	-11.6799
同一味	-11.6801
迦吒	-11.6801
傍生	-11.6802
受如是苦	-11.6802
習誦	-11.6803
得宿命智	-11.6804
三途	-11.6804
婦人	-11.6805
龍乃至迦吒富單那等	-11.6805
爾時彌勒菩薩摩訶薩	-11.6806
與諸大眾	-11.6806
追求	-11.6807
無侶	-11.6807
供給所須	-11.6807
以要言之	-11.6807
奉散	-11.6808
豈可	-11.6808
其數無量	-11.6808
三不護	-11.6809
因緣後來	-11.6811
起大慈悲	-11.6812
過去諸如來	-11.6814
修諸苦行	-11.6816
修善業	-11.6816
甚少	-11.6816
持戒多聞	-11.6816
十種功德	-11.6818
正師子吼	-11.6819
三律儀	-11.6821
初發菩提心	-11.6822
欲往彼	-11.6822
無字無	-11.6822
愍念	-11.6823
緣覺如來共	-11.6823
無量壽佛	-11.6823
修四念處	-11.6823
綸貫	-11.6824
殊勝思惟	-11.6825
賢護當知	-11.6825
阿邏	-11.6827
日合室	-11.6828
博聞	-11.6829
問訊世尊	-11.6831
諸病苦	-11.6831
各各異	-11.6833
淨佛世界	-11.6834
是清淨戒	-11.6834
一切菩薩摩訶薩眾	-11.6834
平聲	-11.6836
若有眾生樂聞	-11.6837
而以供養	-11.6838
自活	-11.684
宣傳	-11.6841
有四種法	-11.6841
經書	-11.6842
行善者	-11.6842
明珠	-11.6846
行十五時	-11.6852
擁護正法	-11.6858
熏修	-11.6859
若有信心	-11.686
黑色	-11.6862
一切諸乘	-11.6863
菩提之道	-11.6863
是處非處	-11.6868
受持淨戒	-11.6871
作是願	-11.6871
緣慮	-11.6875
倚著	-11.6883
真善居士	-11.6885
樂說無礙智	-11.6886
護我法	-11.6889
離三惡道	-11.6889
求多聞	-11.6893
十種力	-11.6893
不從他聞	-11.6895
皆得自在	-11.69
諸眾生輩	-11.69
腹中	-11.69
心歡悅	-11.6904
各隨所	-11.6904
示諸眾生	-11.6905
不久當得阿耨多羅三藐三菩提	-11.6909
寶樓閣	-11.6911
限齊	-11.6911
樂阿蘭若	-11.6916
無價寶	-11.6924
為諸菩薩說	-11.6926
說種種法	-11.6929
告藥王軍菩薩言	-11.6937
欲度生死	-11.6938
嚴麗	-11.694
謗正法	-11.6942
諸習氣	-11.6946
王子師子	-11.6949
所頒宣	-11.6949
能化眾生	-11.6952
無瑕	-11.6959
同聲讚	-11.6965
彼阿彌陀	-11.6966
所送	-11.6975
修四正勤	-11.6982
谷響	-11.6986
真際	-11.6986
銕丸	-11.6988
無所乏少	-11.6996
敬愛	-11.7001
山河	-11.7005
無別異	-11.7008
助成	-11.7014
那茶	-11.7016
發大精進	-11.7026
羣生	-11.703
菩提道場	-11.7045
致斯	-11.7054
辭辯	-11.7058
萬三千	-11.7064
漏盡智	-11.7066
現在世中	-11.7075
證涅槃	-11.7078
於戒遠離	-11.7084
惡行比丘	-11.7095
聽聞法	-11.7102
調諸根	-11.7102
以手摩	-11.7108
能離一切	-11.7108
法式	-11.7109
遮魔	-11.7128
諸魔子	-11.7128
趣涅槃	-11.7136
貪恚	-11.714
普於一切	-11.7158
說三乘法	-11.7161
是人即得	-11.7164
故名大乘	-11.717
親近諸佛	-11.7171
得無量福	-11.7198
柔軟語	-11.7205
罪垢	-11.7206
那荼	-11.721
一百三十	-11.7225
是滅法	-11.7234
佛悲心	-11.7245
大摩尼寶	-11.725
無法可	-11.7265
骨髓	-11.7303
一百五十	-11.7306
日合昴	-11.7307
大勢	-11.7308
大甲冑	-11.7313
月輪	-11.7318
大功德聚	-11.7323
此世界中	-11.7326
不信受	-11.7337
無垢穢	-11.7344
世尊告阿難	-11.7346
眾圍遶	-11.7356
一切法皆悉平等	-11.7358
千二百	-11.7362
所歎	-11.7365
八日合	-11.7376
感報	-11.7422
」「	-11.7435
閒	-11.7441
末伽	-11.7455
大自在天	-11.7462
證大菩提	-11.7466
都無所	-11.7476
遮彌	-11.7512
地獄一劫受苦	-11.7533
親近承事	-11.7548
名菩薩摩訶薩也	-11.7564
千葉	-11.7574
遠離殺生	-11.7581
大眾之中	-11.759
頭面禮敬右遶	-11.7595
無所礙	-11.7686
恚恨	-11.7702
千萬劫	-11.7709
栴檀末香	-11.7768
佛告藥王軍	-11.7768
觀十二緣	-11.7772
為葉及以華果	-11.7778
悲啼	-11.7781
達哩	-11.7784
篤	-11.7791
所說經典	-11.7793
離斷常	-11.7796
在何處	-11.7798
現瑞	-11.7798
嚕	-11.7799
以至誠眼	-11.781
爵祿	-11.7811
干	-11.7811
譏呵	-11.7813
吃	-11.7814
矩	-11.7814
為住何處	-11.7814
是曰善權	-11.7817
柰	-11.7817
鉢囉帝	-11.7822
游	-11.7822
私婆呵	-11.7823
歷劫	-11.7823
昇師子座	-11.7824
裔	-11.7826
祈	-11.7827
亦莫令我	-11.7827
曷羅	-11.7827
仚	-11.7828
於何處	-11.7829
祗	-11.7829
耨	-11.7829
彈指	-11.7831
阿差末菩薩謂舍利弗	-11.7832
秉	-11.7832
尺	-11.7832
突	-11.7832
有想無想	-11.7833
賀反	-11.7833
柧	-11.7835
孔雀	-11.7836
湛然	-11.7837
哺	-11.7837
損秏	-11.7837
馨	-11.7838
掃	-11.7838
諸樂莊嚴世界	-11.7838
不捨道心	-11.7839
灾	-11.7839
親戚	-11.7839
其日病者	-11.7839
蒭	-11.7839
恃怙	-11.7839
泉源	-11.7839
平坦	-11.784
若於諸經	-11.784
諸大菩薩摩訶薩眾	-11.784
猛焰	-11.784
浴池	-11.784
了義修多羅義	-11.7841
殖眾德本	-11.7841
惡味惡語言	-11.7842
斑宣	-11.7842
珂貝	-11.7842
援	-11.7843
駝	-11.7843
不來不去	-11.7843
懸旛	-11.7843
扣	-11.7843
震旦	-11.7843
伽樓	-11.7843
笛	-11.7843
舋	-11.7843
坌	-11.7843
康	-11.7844
著衣持鉢	-11.7844
奸	-11.7844
墮無間獄	-11.7844
衰耗	-11.7844
坎	-11.7844
懺謝	-11.7845
謨	-11.7845
誣	-11.7845
陷	-11.7845
諸過惡	-11.7845
有何等相	-11.7845
無勝意童子	-11.7845
穴	-11.7845
囉惹	-11.7845
惶	-11.7846
百千俱胝那由他	-11.7846
涕淚	-11.7846
二結示	-11.7846
墨	-11.7846
是故菩薩摩訶薩於諸眾生如	-11.7846
摩拏嚩迦	-11.7846
毘鉢舍那	-11.7847
槍	-11.7847
撰	-11.7847
諸來會者	-11.7847
麞鹿	-11.7847
函	-11.7848
熙怡	-11.7848
我從今日	-11.7848
肅國公食邑三千戶賜紫贈司空謚大	-11.7848
克	-11.7848
鉾	-11.7848
右臂	-11.7848
卑賤	-11.7848
綠	-11.7848
掉動	-11.7848
息出入	-11.7848
悉成就故	-11.7849
惻	-11.7849
江沙	-11.7849
活命之具	-11.7849
大廣智大興善寺三藏沙門不空奉詔譯	-11.7849
於一切法而得自在	-11.7849
誠心懺悔	-11.7849
棗	-11.7849
五苦章句	-11.7849
而化度之	-11.7849
彼是我師	-11.7849
試鴻臚卿	-11.785
顛狂	-11.785
諫	-11.785
五衰相現	-11.785
嗟嘆	-11.785
成最正覺	-11.785
沐	-11.785
逃	-11.785
是故諸佛色目	-11.785
帶	-11.7851
不觀後世可怖畏事	-11.7851
禮覲	-11.7851
從佛口生	-11.7851
分陀利花	-11.7851
鑠	-11.7851
償	-11.7852
棲	-11.7852
幻術	-11.7852
世尊故在欲	-11.7852
縣	-11.7852
時戒依止大魔軍主	-11.7852
種少善根	-11.7853
紫磨金色	-11.7853
稱虛空藏菩薩名	-11.7853
迷荒	-11.7853
郡國	-11.7853
鄭	-11.7853
兄弟姊妹	-11.7853
輿	-11.7853
詩	-11.7853
辨	-11.7854
拷	-11.7854
捨忍清淨平等	-11.7854
校量	-11.7854
八支聖道	-11.7854
誤失	-11.7854
以是持力	-11.7854
散於佛上	-11.7854
弗沙耶若	-11.7854
右肩	-11.7855
俄	-11.7855
諸漏已盡	-11.7855
四部眾	-11.7855
大富饒財	-11.7855
彼有世界名曰娑婆	-11.7855
猴	-11.7855
踊悅	-11.7855
血塗	-11.7855
犍	-11.7855
波利質多羅樹	-11.7855
願佛為說	-11.7856
占	-11.7856
紹三寶種不斷絕故	-11.7856
而調伏之	-11.7856
被服	-11.7856
罰	-11.7856
住不退地	-11.7856
搏	-11.7857
稱揚讚歎	-11.7857
羼帝	-11.7857
艱難	-11.7857
阿羅呵	-11.7857
金剛山童子	-11.7857
不及其一	-11.7857
無能壞者	-11.7857
寬廣	-11.7857
伯	-11.7858
叵思議	-11.7858
幻惑	-11.7858
白銀	-11.7858
去此遠近	-11.7858
羽	-11.7858
重閣	-11.7858
發如是言	-11.7858
涼	-11.7859
現其前	-11.7859
心無行動	-11.7859
東弗婆提	-11.7859
有佛世界名曰	-11.7859
一念之頃	-11.7859
安置護持養育	-11.7859
剝	-11.7859
傳梵大師賜紫沙門臣法護等奉詔譯	-11.7859
野干	-11.7859
凶衰	-11.7859
能壞魔業	-11.7859
阿說示	-11.786
善家子	-11.786
說如是法	-11.786
智德峯王佛	-11.786
如車輪	-11.786
儔	-11.786
猗著	-11.786
之所染污	-11.786
水沫	-11.786
九次第定	-11.7861
清徹	-11.7861
群臣	-11.7861
清和	-11.7861
燒堅黑沈水	-11.7861
而修行慈	-11.7861
史	-11.7861
愚戇凡夫不能曉了	-11.7861
敏	-11.7861
替	-11.7862
往至佛所	-11.7862
稽首足下	-11.7862
枷鎖	-11.7862
降注	-11.7862
七聖財	-11.7862
跋持毘盧遮那阿修羅王	-11.7862
非內非外	-11.7862
在於彼土忽然不	-11.7863
巨富	-11.7863
庠序	-11.7863
懇	-11.7863
撮	-11.7863
若能以此休息	-11.7863
閻浮提北方第四分	-11.7863
三天童女	-11.7863
汝當諦聽	-11.7864
我今與汝	-11.7864
尼乾陀等	-11.7864
如我今者	-11.7864
輕躁	-11.7865
筏	-11.7865
即與十恒河沙等諸	-11.7865
深固作意	-11.7865
最為殊勝	-11.7865
初發意	-11.7865
依了義經	-11.7865
光音天	-11.7865
底履	-11.7865
戾	-11.7866
須彌山頂	-11.7866
不敢覆藏	-11.7866
如剎帝利灌頂大王	-11.7866
十力無畏	-11.7866
囚	-11.7866
淳熟	-11.7866
皆自處	-11.7866
懷聰明慢	-11.7866
七寶所成	-11.7866
剎多羅	-11.7867
戮	-11.7867
鹽	-11.7867
母生界	-11.7867
羅隣那竭菩薩	-11.7867
覲見	-11.7867
一闡提	-11.7867
相續不斷	-11.7868
無我無我所	-11.7868
無常苦無我	-11.7868
墻壁	-11.7868
成敗	-11.7868
搖動	-11.7869
僧伽吒經	-11.7869
在一面立	-11.7869
不畏後世苦果	-11.787
不出不滅	-11.787
此諸人眾	-11.787
精妙	-11.787
俱從座起	-11.787
姓氏	-11.7871
阿練若處	-11.7871
復有五法	-11.7871
具足三法	-11.7872
叉蛇	-11.7872
嬪	-11.7872
涌沸	-11.7872
善巧方便大甲冑輪	-11.7872
歡然	-11.7872
語者說	-11.7872
令盡無餘	-11.7873
永絕	-11.7873
不可計劫	-11.7873
為母說法	-11.7874
不爽	-11.7874
寶勝光佛	-11.7874
住進力時	-11.7874
實非沙門自	-11.7875
栴檀天子	-11.7875
於大眾中作師子吼	-11.7876
必墮惡趣	-11.7876
婆羅門旃陀羅	-11.7876
名字何等	-11.7876
g	-11.7876
m	-11.7876
三千大千世界滿中	-11.7877
i	-11.7877
雖得人身	-11.7877
優劣	-11.7877
栴檀末	-11.7877
味精氣	-11.7877
師和上	-11.7878
廣為人說	-11.7878
若有真善剎帝利王	-11.7878
<	-11.7879
難得度脫	-11.7879
仁愛	-11.7879
世尊讚寶女	-11.7879
先所修習一切善根皆悉	-11.788
法治世	-11.788
於二乘法	-11.788
於眾會中	-11.788
非常非斷	-11.788
住念力時	-11.788
於諸眾生不起	-11.788
能護於戒	-11.788
珍妙	-11.7881
十八不共佛法	-11.7881
為其說法	-11.7881
戌達羅	-11.7881
憂悲	-11.7881
信敬三寶	-11.7881
善根微少	-11.7881
無邊光照如來	-11.7881
落惡道	-11.7882
法目陀羅尼	-11.7882
願佛慈悲	-11.7882
以何方便	-11.7883
無慚愧僧	-11.7883
近遠	-11.7884
一切法真如故	-11.7885
不異真如	-11.7885
入耆闍崛山集於佛所	-11.7885
四無色定	-11.7885
營理	-11.7886
和輪	-11.7886
不可盡極	-11.7886
性是法性	-11.7886
不善之業	-11.7887
一一供養彼等諸佛	-11.7887
來生龍中	-11.7889
迷悟	-11.789
彼天仙七宿	-11.7891
我說是人	-11.7892
正宗	-11.7892
不見有法	-11.7892
廣度眾生	-11.7892
當知皆是	-11.7892
四域	-11.7893
化樂天王	-11.7893
是謂取	-11.7894
火坑	-11.7895
悉皆銷滅	-11.7895
亡失	-11.7895
遍滿三千大千世界	-11.7895
州城	-11.7896
空解脫門	-11.7896
善淨境界王	-11.7897
往到佛所	-11.7897
為我出家	-11.7897
十力四無畏	-11.7898
給使	-11.7898
癡闇	-11.7898
非受持正法	-11.7898
不如施一	-11.7899
七寶蓋	-11.7899
為眾說法	-11.7899
得清淨信	-11.7899
惟除	-11.7901
大師云	-11.7901
迦蘭陀園	-11.7901
名戒瓔珞	-11.7902
救母	-11.7902
廣流布	-11.7903
想升	-11.7904
趣惡道	-11.7904
不著內外	-11.7906
皆悉來集	-11.7907
共無量百千	-11.7907
付囑於汝	-11.7907
或有禮拜	-11.7908
彼佛壽命	-11.7909
山石	-11.791
沙彌	-11.7911
譬如須彌山王	-11.7912
不依欲界	-11.7912
弘誓願	-11.7914
四攝事	-11.7914
生龍中	-11.7915
不捨菩提心	-11.7916
興顯	-11.7917
尚獲	-11.7918
毒熱	-11.7919
根不熟	-11.7919
隨所住處	-11.792
故名無句義	-11.7921
師子進	-11.7923
速得阿耨多羅三藐三菩提	-11.7924
皆得圓滿	-11.7925
住於慈心	-11.7925
護持禁戒	-11.7925
當與汝	-11.7926
或復乘	-11.7927
如空聚	-11.7929
無上法王	-11.7929
百千那庾多	-11.793
攝受正法	-11.793
常生人天	-11.7932
故名無分別	-11.7935
日燈	-11.7935
住第一義忍清淨平等	-11.7936
亦無處所	-11.7936
斯輩	-11.7941
一千年	-11.7943
四聖種	-11.7944
說伽他	-11.7945
輕易	-11.7957
厭惓	-11.7958
緣而致	-11.7964
愍念眾生	-11.7967
性常淨	-11.7974
合為一	-11.798
今此眾中	-11.798
違逆	-11.7983
為行法	-11.7984
此念佛三昧	-11.7988
若具足者	-11.8005
七萬二千	-11.8007
謂一切法無	-11.8033
阿婆叉	-11.8035
出大光明	-11.8039
是大菩薩	-11.804
坐菩提樹	-11.8047
自在天像	-11.8051
稱我名	-11.8056
洲渚	-11.8064
那由他劫	-11.8081
十方諸佛國土	-11.81
垢染	-11.816
復說言	-11.8169
不退轉印	-11.8215
遍照三千大千世界	-11.8226
處胎經	-11.8252
遠離一切諸惡	-11.8294
諸闇冥	-11.83
比尼	-11.8304
況餘	-11.8311
為汝分別解說	-11.8325
萬由旬	-11.833
斯經典	-11.8363
得菩提時成第	-11.8379
稱南無佛	-11.8393
毘舍首陀	-11.8397
轉五趣	-11.8411
聞是經典	-11.8411
惡苾芻	-11.8418
恒沙劫	-11.8422
積德	-11.8437
修集悲心	-11.845
得菩提真如	-11.8458
合掌頂禮	-11.8493
愚惑	-11.8501
得菩提時成	-11.8504
南無佛陀	-11.8518
契經	-11.8538
頗羅	-11.8554
準正法念	-11.8598
此三千大千世界所有	-11.8642
苦空無我	-11.8644
貪染	-11.8645
度生死海	-11.8686
令一切眾生得	-11.8694
日合牛	-11.872
鬼畜	-11.8732
破戒惡行	-11.8739
通奮迅	-11.8759
月光明香勝如來	-11.878
瓔	-11.8781
古昔	-11.8793
香塗	-11.8834
盧遮	-11.8886
蓋幢幡	-11.8943
薩羅	-11.8945
普勇菩薩復	-11.8953
悋惜	-11.8981
高七多羅樹	-11.8991
百萬億	-11.9003
拘留孫	-11.902
嚩底	-11.9032
十方佛國	-11.9033
印印之	-11.9036
醯履醯履	-11.9039
那庾多	-11.9042
朱盧	-11.9056
必利洟	-11.9059
七返	-11.9059
覲	-11.9061
眴	-11.9063
頻頭	-11.9068
播	-11.9069
蹈	-11.907
而開化之	-11.9071
完	-11.9071
吠	-11.9072
呵奢	-11.9073
休休	-11.9073
客塵煩惱	-11.9074
羈	-11.9075
息華魔	-11.9076
戍	-11.9076
宛轉	-11.9076
喘息	-11.9077
分別現說	-11.9078
阿差末謂舍利弗	-11.9079
殺阿羅漢	-11.9079
秦	-11.908
得受阿耨多羅三藐三菩提記	-11.908
2	-11.908
栖	-11.9081
若身口意所作罪過	-11.9081
蚖	-11.9081
肆	-11.9081
嵠	-11.9081
以憐愍故	-11.9082
姪	-11.9082
撾	-11.9082
殞	-11.9083
無所從生法忍	-11.9083
如雨而下	-11.9083
簫	-11.9083
菜	-11.9083
涅盤	-11.9084
臣寮	-11.9084
佞	-11.9085
唼	-11.9085
疾得是定	-11.9085
洹	-11.9085
讒	-11.9085
汗	-11.9085
裝	-11.9086
曷	-11.9086
欄	-11.9086
拒	-11.9086
著新淨衣	-11.9086
周匝圍遶	-11.9086
姿	-11.9087
持閻浮提東方第四分	-11.9087
西晉月氏三藏竺法護譯	-11.9087
毛端	-11.9087
兄	-11.9087
輻	-11.9088
沙門及婆羅門	-11.9088
撥	-11.9088
何能觸嬈	-11.9088
大力雄猛不可害輪大明呪	-11.9088
所在之處	-11.9089
縵	-11.9089
欺𣣋	-11.9089
踏	-11.9089
尚不敢近	-11.9089
s	-11.9089
實是愚癡	-11.9089
1	-11.909
夙夜	-11.909
脣	-11.909
蓋纏	-11.909
嚴駕	-11.909
殄	-11.909
無有遺餘	-11.909
逕	-11.9091
為是等故	-11.9091
明哲	-11.9091
若減一劫	-11.9091
箇	-11.9091
以慧力故	-11.9091
皤	-11.9091
靈椉	-11.9092
說寶幢陀羅尼	-11.9092
景	-11.9092
睺	-11.9092
三耶三佛	-11.9092
器非器	-11.9092
錠	-11.9092
貧窮困苦	-11.9092
頭面著地	-11.9092
咥	-11.9092
促	-11.9093
尒時年少眾生	-11.9093
曼陀羅花	-11.9093
劣弱	-11.9093
阿惟顏	-11.9093
5	-11.9093
妓	-11.9094
無常變異	-11.9094
侈	-11.9094
嚌	-11.9094
薜荔	-11.9094
懷抱	-11.9094
欝單曰	-11.9094
睡臥	-11.9095
窈冥	-11.9095
坐於道場	-11.9095
平均	-11.9095
褥	-11.9095
〕-【	-11.9095
豺狼	-11.9095
喧	-11.9095
慈悲地藏懺法	-11.9095
〔	-11.9096
乍	-11.9096
戰慄	-11.9096
巡	-11.9096
火不能燒	-11.9096
寶星陀羅尼	-11.9096
趨	-11.9097
妨廢	-11.9097
骸	-11.9097
眷	-11.9097
以妙香華	-11.9097
如救頭然	-11.9097
知止足	-11.9098
憍曰兜	-11.9098
日密分	-11.9098
仁和	-11.9098
。】【△	-11.9098
智慧之人觀是事已	-11.9098
食不淨想	-11.9099
末香塗香	-11.9099
從禪定起	-11.9099
吝	-11.9099
彼出家菩薩	-11.9099
是名初行菩薩第	-11.9099
志性無定	-11.91
廣為他說	-11.91
為菩薩十校計	-11.91
雲雷音	-11.91
▁南無文殊師利	-11.91
欲作事者	-11.91
嘴宿	-11.91
初誡聽許說	-11.91
身毛皆竪	-11.91
凍	-11.91
波羅陀阿修羅王	-11.91
何因何緣	-11.9101
召集	-11.9101
椎	-11.9101
親厚	-11.9101
剃鬚髮	-11.9101
阿濕婆	-11.9101
所發一切智心寶	-11.9101
騾	-11.9101
捨家出家	-11.9101
銕圍	-11.9101
廣長舌	-11.9101
莫呼洛伽	-11.9102
好細軟可身	-11.9102
摧碎心高緣法等句陀羅尼印入差別記	-11.9102
打罵	-11.9102
精誠	-11.9102
安庠	-11.9102
頭面禮拜	-11.9102
渧數	-11.9102
金色百福	-11.9103
於阿耨多羅三藐三菩提得不退轉	-11.9103
迮	-11.9103
魚鼈	-11.9103
乙	-11.9103
散其上	-11.9103
選	-11.9103
須臾之間	-11.9103
有慧菩薩	-11.9103
費	-11.9103
沒不現	-11.9103
罷	-11.9103
寶雨經云	-11.9103
柔順法忍	-11.9104
轉無上法輪	-11.9104
打擲	-11.9104
志慕	-11.9104
殖德本	-11.9104
席	-11.9104
胡跪	-11.9105
覓	-11.9105
俯	-11.9105
耐	-11.9105
三寶種姓	-11.9105
咽喉	-11.9105
四諦順忍陀羅尼	-11.9105
籍	-11.9105
諸善男子及善女人	-11.9105
那羅達菩薩	-11.9105
以惡業故	-11.9105
謟	-11.9105
炭	-11.9105
贈	-11.9105
及餘種種富貴尊位	-11.9105
別行疏	-11.9105
如是忍者是觀	-11.9105
摩訶須薩和菩薩	-11.9106
無願解脫門	-11.9106
慾	-11.9106
未曾忽忘	-11.9106
定意正受	-11.9106
尊者舍利子	-11.9106
講說經典	-11.9106
瞋罵	-11.9107
歷耳根	-11.9107
厭賤	-11.9107
如鏡中像	-11.9107
說是語已	-11.9107
眾人愛敬	-11.9107
風所吹	-11.9108
智積菩薩	-11.9108
戰鬪	-11.9108
難行苦行	-11.9108
七菩提分	-11.9108
無所悋惜	-11.9108
剃除鬚髮被服袈裟	-11.9108
速證阿耨多羅三藐三菩提	-11.9108
人身難得	-11.9109
稽首足下遶	-11.9109
三有海	-11.9109
壽命長遠	-11.9109
摧折	-11.9109
深淺	-11.9109
摩納	-11.9109
魄	-11.9109
得歡喜心	-11.9109
拘物頭花	-11.9109
默然不答	-11.9109
天竺	-11.9109
而教化之	-11.9109
因坻達菩薩	-11.911
屑	-11.911
有反復	-11.911
畔	-11.911
以何義故	-11.911
健達縛	-11.9111
見聞覺知	-11.9111
夕	-11.9111
銕牀	-11.9111
拯	-11.9111
毘梨耶	-11.9111
夜叉乃至迦吒富單那等	-11.9111
瘖瘂	-11.9111
金剛齊比丘	-11.9111
毳	-11.9111
講說經法	-11.9111
疲懈	-11.9111
心之所念	-11.9111
趺	-11.9111
遮𩘌	-11.9112
二十八宿	-11.9112
生時死時	-11.9112
四悉檀	-11.9113
牛跡	-11.9113
孫陀利	-11.9113
變怪	-11.9113
口不能語	-11.9113
不可譬喻	-11.9113
氷	-11.9113
歸敬地藏者	-11.9113
無言童子	-11.9113
無諸障礙	-11.9113
祕密	-11.9114
起居輕利	-11.9114
慎勿	-11.9114
監	-11.9114
是名初發心菩薩犯於第	-11.9114
虎豹	-11.9114
兩手捧	-11.9114
佛出世者即是	-11.9114
香湯澡浴	-11.9114
禾	-11.9114
服袈裟	-11.9115
熒惑	-11.9115
膏	-11.9115
一時同聲	-11.9116
欣然	-11.9116
隋天竺三藏達磨笈多譯	-11.9116
四正斷	-11.9116
最為第一	-11.9116
諦聽諦聽	-11.9116
加持力故	-11.9116
良福田	-11.9116
天台	-11.9116
威德力故	-11.9117
大地震動	-11.9117
灌頂大王	-11.9117
油燈	-11.9117
速得成就阿耨多羅三藐三菩提	-11.9117
燒滅善根	-11.9117
變成七寶	-11.9117
瞻覩	-11.9117
不可復計	-11.9117
陂	-11.9117
流注	-11.9117
鈎	-11.9118
誑惑世間	-11.9118
疾成阿耨多羅三藐三菩提	-11.9118
有三昧名	-11.9118
地神護法	-11.9118
悉令休息	-11.9119
其佛壽命	-11.9119
若菩薩成就八法	-11.9119
多陀阿伽度	-11.9119
敬信三寶	-11.9119
被弘誓鎧	-11.9119
河池	-11.9119
而語之言	-11.9119
為成熟眾生故	-11.9119
四天大王	-11.912
種種香花	-11.912
恒河沙諸佛如來	-11.912
俟	-11.912
灌頂王位	-11.912
忿恚	-11.912
無明所覆	-11.9121
漸次	-11.9121
共集會	-11.9121
我悉供養	-11.9121
光目女	-11.9121
住蘭若	-11.9122
所聞不忘	-11.9122
此二種人	-11.9122
娑婆世界釋迦如來	-11.9122
稱虛空藏菩薩摩訶薩名	-11.9122
毗沙門	-11.9122
滿足禪波羅蜜	-11.9122
如說而住	-11.9122
此智慧依止	-11.9122
何等為百八	-11.9122
造床	-11.9122
若菩薩摩訶薩成此	-11.9123
陀那波羅蜜	-11.9123
汝今見此	-11.9123
不失念心	-11.9123
斷除五欲	-11.9123
大慈大悲大喜大捨	-11.9123
未得法忍	-11.9123
未詳	-11.9124
哀愍攝受	-11.9124
沮	-11.9124
抄寫此經	-11.9124
殿堂	-11.9125
無有於他實	-11.9125
乃至奪命	-11.9125
十二由旬	-11.9125
陂池	-11.9125
師子獸王	-11.9125
此名曰通	-11.9126
六和敬	-11.9126
談論	-11.9127
我橋上	-11.9127
有依行輪	-11.9127
久住不滅	-11.9127
鏡像	-11.9127
為欲成熟諸有情故	-11.9128
隨其所須	-11.9128
永不墮惡道	-11.9128
父母師長	-11.9128
要期	-11.9129
接引	-11.9129
虗空藏菩薩	-11.9129
大火聚	-11.913
百億四天下	-11.913
地藏白言	-11.913
無緣梵行	-11.913
以是義故名之為	-11.913
又復際者	-11.9131
一瞻一禮	-11.9131
速成就阿耨多羅三藐三菩提	-11.9132
無畏大城	-11.9132
合掌禮佛	-11.9132
誹謗賢聖	-11.9133
生我國	-11.9134
如法而說	-11.9135
非作非	-11.9135
伽留	-11.9136
本來不生	-11.9136
能壞死魔	-11.9137
甘果	-11.9137
破魔法門	-11.9137
若見有人	-11.9138
燈燭	-11.9138
逆順	-11.9139
梵輔	-11.9144
如理修行	-11.9147
寶橋	-11.9148
家室	-11.9151
八大地獄	-11.9151
威神建立	-11.9151
何所饒益	-11.9152
不流散	-11.9153
精味	-11.9155
彼賢護菩薩	-11.9158
修行忍辱得清淨故	-11.916
說偈答	-11.9163
聞如來說	-11.9164
膠	-11.9164
大叫	-11.9165
可思議	-11.9167
得幾許罪	-11.9171
是攝正法	-11.9172
心知離	-11.9173
終不忘失	-11.9174
甚深之義	-11.92
越三界菩薩	-11.9212
旃檀	-11.9215
即於會中	-11.9223
知色真如	-11.9228
魔羂	-11.9249
毀損	-11.9258
脫免	-11.9259
瞿沙	-11.9265
憐愍我故	-11.9269
不厭生死	-11.9273
燈炬	-11.9301
乃至一切迦吒富單那	-11.9302
佛告海意菩薩	-11.9305
懈退	-11.9329
拘那	-11.9368
萬二千人	-11.9374
阿迦尼吒天	-11.94
頭面禮敬	-11.9423
真善婦女	-11.9439
久存	-11.946
速成無上	-11.9563
無常苦空	-11.9572
趣阿鼻地獄	-11.961
熾火	-11.9628
貧乏	-11.9641
穀藥	-11.9657
于大哀	-11.9667
闇蔽	-11.9668
摩兜	-11.9715
快說此	-11.9717
七日夜	-11.9746
日合七星	-11.9751
我實不	-11.9802
卷第四十	-11.9831
枉習	-11.9922
以如上諸	-11.9943
我當為汝	-12.0012
衣服臥具	-12.0026
所說妙法	-12.0107
為他宣說	-12.0148
此陀羅尼句	-12.0156
明月珠	-12.0193
有比丘名	-12.0196
復有魔	-12.0204
日除愈	-12.0213
益彼故	-12.0261
還生人	-12.0262
洋	-12.0368
哥	-12.0384
上昇虛空	-12.0419
𧰃	-12.0425
賴坻	-12.0446
𩘌地離	-12.0452
赤袈裟	-12.0457
唏	-12.0461
檀地羅	-12.0467
守門者	-12.0479
疵	-12.048
觀後世畏	-12.0483
􂚳	-12.0486
姹	-12.0488
二萬五千億眾生	-12.0489
末力伽	-12.049
喃	-12.0491
咄	-12.0491
薩底耶	-12.0492
戲弄	-12.0494
芒	-12.0497
敦	-12.0497
九十九億百千那由他	-12.0499
阿吒薄俱	-12.05
粗	-12.0501
訥	-12.0502
黶	-12.0502
為諸眾生宣說正法	-12.0502
出入氣息	-12.0503
祁	-12.0503
嘔	-12.0503
蒙光觸身	-12.0505
尒時藥王軍菩薩摩訶薩	-12.0505
欺詐	-12.0505
醉象	-12.0506
婆婁那	-12.0507
存活	-12.0508
堤	-12.0508
楊	-12.0508
稅	-12.0508
汲汲	-12.0509
相未具者	-12.0509
罽	-12.0509
剖判	-12.0509
緣是之故	-12.0509
及龍眷屬	-12.051
新婆沙	-12.051
縣邑	-12.051
唄	-12.0511
應病與藥	-12.0511
叱	-12.0512
清信士	-12.0512
迦樓尼迦	-12.0512
饌	-12.0512
歌羅羅	-12.0513
𠸪	-12.0513
咨	-12.0513
慈悲喜護	-12.0513
而取滅度	-12.0513
伽伽那	-12.0514
4	-12.0515
暉曜	-12.0515
憚	-12.0515
未之有也	-12.0515
撻	-12.0515
宿曜辰	-12.0516
荀	-12.0516
了知清淨士	-12.0516
無數億劫	-12.0516
殃舋	-12.0516
金剛道場三昧	-12.0516
娑樹帝	-12.0516
輯	-12.0517
於天人中	-12.0517
鉀	-12.0517
澆	-12.0517
䩕	-12.0517
丑	-12.0518
見是相已	-12.0518
菩薩復有十校計	-12.0519
7	-12.0519
增一阿含	-12.0519
雕	-12.0519
鏁	-12.0519
告尊者阿難	-12.052
城邑村落	-12.052
於歸我法	-12.052
無上正真之道為最正覺	-12.052
栘	-12.052
獨而無侶	-12.052
目犍連	-12.052
彼有世界名曰	-12.052
脈	-12.052
周圍	-12.052
毘婆尸	-12.052
販賣	-12.0521
無邊虛空處	-12.0521
叔	-12.0521
奉迎	-12.0521
二品文二初	-12.0521
梓	-12.0521
浩	-12.0521
眾德之本	-12.0521
床褥	-12.0521
嘿	-12.0521
埋	-12.0521
麝	-12.0521
掠	-12.0521
跢	-12.0521
鵠	-12.0521
起瞋恚心	-12.0522
隋天竺三藏闍那崛多譯	-12.0522
捧	-12.0522
閙	-12.0522
兵革	-12.0522
糜	-12.0522
隱密	-12.0523
窟宅	-12.0523
非時寒熱	-12.0523
月上境界如來	-12.0523
威儀庠序	-12.0523
弩	-12.0523
無遺餘	-12.0524
拳	-12.0524
總攝一切佛法	-12.0524
無量百千萬億那由他	-12.0524
9	-12.0524
悶	-12.0524
大寶莊嚴最勝道場	-12.0524
茹	-12.0524
鹹	-12.0524
前後圍繞	-12.0524
註	-12.0524
甚可怖畏	-12.0524
不孝父母	-12.0524
腋	-12.0524
沈沒	-12.0524
抄	-12.0524
填	-12.0525
為火所焚	-12.0525
稽首佛足	-12.0525
了了分明	-12.0525
大通山王	-12.0525
經典之要	-12.0525
叢	-12.0525
鱗	-12.0525
錫	-12.0525
如者反	-12.0525
▁397(	-12.0525
釋梵四王	-12.0526
法師及聽法者	-12.0526
淤泥	-12.0526
霧	-12.0526
娘	-12.0526
啄	-12.0526
暫停	-12.0526
農夫	-12.0526
普眼尊	-12.0526
慠慢	-12.0526
四事助歡喜	-12.0526
瞿摩娑羅	-12.0526
慇	-12.0526
絲	-12.0526
寡	-12.0526
其土有佛	-12.0527
勝福常得增長	-12.0527
昵	-12.0527
巍巍之德莫能當焉	-12.0527
我念一時	-12.0527
但有名字	-12.0527
乾陀羅國	-12.0527
嫁	-12.0527
莊校	-12.0528
卑利癡比	-12.0528
脊	-12.0528
銅柱	-12.0528
火所燒	-12.0528
捐棄	-12.0529
掩	-12.0529
牟真隣陀阿修羅王	-12.0529
攫	-12.0529
於己眷屬及他眷屬	-12.0529
阿那波那	-12.0529
掣	-12.0529
繳	-12.0529
即便授以修	-12.0529
感應道交	-12.0529
楞	-12.0529
竊盜	-12.0529
無始無終	-12.0529
穌	-12.0529
晉	-12.053
當來之世	-12.053
繞佛三匝	-12.053
而護於戒	-12.053
癩病	-12.053
於賢劫中	-12.053
菩薩所行諸施	-12.053
桃	-12.0531
鞭打	-12.0531
塵霧	-12.0531
而返取	-12.0531
佷戾	-12.0531
加其鞭杖	-12.0531
渾	-12.0531
斯之謂	-12.0531
挺	-12.0532
溟	-12.0532
衡	-12.0532
非有非無	-12.0532
拘物頭	-12.0532
下至無戒	-12.0532
壽命短促	-12.0533
是為如來第十	-12.0533
萎	-12.0533
萬六千菩薩	-12.0533
讐	-12.0533
為重宣此義	-12.0533
勳	-12.0533
資養	-12.0533
哽	-12.0533
癰	-12.0533
精懃	-12.0533
常現在前	-12.0534
五音作樂	-12.0534
大人之相	-12.0534
逾	-12.0534
饑餓	-12.0534
乾枯	-12.0534
稼穡	-12.0534
肘	-12.0534
變動諸法王菩薩	-12.0534
庶民	-12.0535
旹	-12.0535
以經力故	-12.0535
媚	-12.0535
違本誓願	-12.0535
擣	-12.0535
於三昧中	-12.0535
惡業盡故	-12.0535
部黨	-12.0535
為何等類	-12.0535
天仙七宿	-12.0535
杵	-12.0535
發大勇猛	-12.0535
此賢劫初	-12.0535
不如聞是三昧	-12.0535
失譯人名今附北涼錄	-12.0535
從地獄出	-12.0536
罪苦之事	-12.0536
此剎帝利灌頂大王	-12.0536
於是三昧中	-12.0536
屯	-12.0536
生欲勤進	-12.0536
發聲聞心	-12.0536
瘖啞	-12.0536
範	-12.0536
輔佐	-12.0536
摩睺勒鬼神	-12.0536
誰於今日	-12.0536
酥	-12.0537
毘樓博叉	-12.0537
校飾	-12.0537
滅度之後	-12.0537
攝心正除	-12.0537
命欲終時	-12.0537
竹林	-12.0537
痛痒思想生死識	-12.0537
囑累人天	-12.0537
在世尊前	-12.0538
或解支節	-12.0538
涸	-12.0538
提婆達多	-12.0538
我等今者於世尊前	-12.0538
逮此總持	-12.0538
須深菩薩	-12.0538
受持讀誦書寫解說	-12.0538
心不見心	-12.0538
阿耨多羅三耶三菩阿惟三佛	-12.0538
靡所不達	-12.0539
晚	-12.0539
為滿六波羅蜜	-12.0539
災禍	-12.0539
聞是偈	-12.0539
其行誠諦	-12.0539
又願生生世	-12.0539
不可捉持	-12.0539
防護當來所有罪	-12.0539
嶽	-12.0539
從南方來	-12.0539
此妙正法	-12.0539
五百魔子	-12.0539
以何緣故	-12.0539
嗚呼	-12.0539
菩薩觀諦方便	-12.0539
宛	-12.054
諸莊嚴具	-12.054
侵損	-12.054
掬	-12.054
憶宿命	-12.054
焦爛	-12.054
善道及涅槃樂	-12.054
葷	-12.054
聞我說法	-12.0541
遇佛授記	-12.0541
盪	-12.0541
僧坊	-12.0541
厨	-12.0541
悲華經	-12.0541
竄	-12.0541
諸婆羅門外道	-12.0541
捨是身已	-12.0541
菩薩亦承佛神力入	-12.0541
塑畵形像	-12.0542
種種寶衣	-12.0542
我以佛眼	-12.0542
鼈	-12.0542
抑豈	-12.0542
長跪叉手	-12.0542
八萬四千由旬	-12.0542
成就無量無邊功德	-12.0542
空無想願	-12.0542
功德光王	-12.0543
文分二	-12.0543
菩薩及聲聞眾	-12.0543
復於餘剎	-12.0544
令我等輩	-12.0544
聰叡	-12.0544
快得善利	-12.0544
發是言	-12.0544
籠	-12.0544
馳走	-12.0544
毘盧遮那	-12.0544
熈怡	-12.0544
或有眾生聞說	-12.0544
啟請	-12.0544
這	-12.0545
迴旋	-12.0545
目乾連	-12.0545
藥王菩薩	-12.0545
所散之華	-12.0545
一切所化有情	-12.0545
過去已盡	-12.0545
不譏彼	-12.0545
其等與者	-12.0545
眾生得如法忍	-12.0545
請問於如來	-12.0545
勝義僧	-12.0545
福報莊嚴王	-12.0546
寂默	-12.0546
在其人前	-12.0546
別解脫戒	-12.0546
非有想非無想	-12.0547
鳩槃	-12.0547
分身度脫	-12.0547
折伏	-12.0547
釘	-12.0547
艶	-12.0548
夾	-12.0548
沒溺	-12.0548
空中有聲	-12.0548
蔑	-12.0548
時會大眾	-12.0548
震越	-12.0548
珍財	-12.0548
不與聲聞辟支佛共	-12.0549
復於佛前以偈	-12.0549
何時當	-12.0549
此則名為不共凡夫四諦順陀羅尼第	-12.0549
令自國土增長安樂	-12.055
好疑問	-12.055
飢渴寒熱	-12.055
歸敬三寶	-12.055
拂	-12.055
得大勢力	-12.0551
有幾所	-12.0551
摩呼羅伽	-12.0551
隨惡友行	-12.0551
閱叉鬼神	-12.0552
清淨平等作因	-12.0552
狂象	-12.0552
是則不通	-12.0552
阿修羅城邑宮殿	-12.0553
娑婆佛剎	-12.0553
以四攝法攝取眾生	-12.0553
舍利弗語無盡意	-12.0553
以言宣	-12.0553
咄哉	-12.0553
永離惡趣	-12.0553
佉羅帝山牟尼諸仙所依住處	-12.0553
恒受勝報	-12.0554
皮骨	-12.0554
來入會中	-12.0554
剎帝利種灌頂大王成就如是第	-12.0554
三天童女護持養育	-12.0554
摩尼寶珠	-12.0554
妙高山	-12.0554
諸有諸趣	-12.0555
曼殊沙華	-12.0555
見一切色	-12.0556
夫出家者	-12.0556
無發悟	-12.0556
退住一面	-12.0556
聞地藏菩薩名	-12.0556
臨命終人	-12.0556
無有出期	-12.0557
磨拭	-12.0557
嬾惰	-12.0558
押油	-12.0558
草木叢林	-12.0559
博差	-12.0559
良田	-12.0559
行大布施	-12.0559
鎮星	-12.056
若有剎利灌頂	-12.056
菩薩摩訶薩具足修習	-12.056
尼犍	-12.056
淨居諸天	-12.056
乞士	-12.056
尿	-12.0561
皆以正智如實知	-12.0561
斷煩惱習	-12.0561
燒脚	-12.0562
菩薩具足如是等法	-12.0562
生於天上	-12.0563
恒伽大河	-12.0563
輕弄	-12.0563
應當容忍莫恨	-12.0563
以大悲故	-12.0563
為百分	-12.0565
併	-12.0566
佛復問諸菩薩	-12.0569
為利益一切眾生	-12.057
是名不共凡夫如實陀羅尼	-12.0571
口相稱	-12.0571
為流布故	-12.0571
作者受者	-12.0572
盡故有盡	-12.0573
各與無量百千眷屬	-12.0574
香象王菩薩	-12.0574
千菩薩得無生忍	-12.0575
諸陀羅尼堅固大忍大甲冑輪	-12.0576
七七日內	-12.0577
而能得之	-12.0579
說聲聞法	-12.0584
觀三世方便	-12.0591
念總持力	-12.0598
十方諸來菩薩	-12.0613
演說正法為令	-12.0614
幻炎	-12.0619
四種奮迅	-12.0624
眉間白毫	-12.0628
謗方等經	-12.0628
人樂觀	-12.0635
波斯迦	-12.0639
斷一切不善法	-12.0643
無至處	-12.0651
於彼布施清淨平	-12.0678
萬二千眾生發阿耨多羅三藐三菩提心	-12.0694
所遊居	-12.0707
三昧之定	-12.0712
真如故即	-12.0731
降法雨	-12.0742
有菩薩摩訶薩名	-12.0804
萬二千天子	-12.0839
降伏一切魔	-12.0868
為苦所	-12.0887
波利質多	-12.0901
般遮羅國	-12.091
得迴向真如	-12.0939
詣王舍城	-12.0943
魔及魔	-12.0962
說此寶星陀羅尼	-12.0965
世世所生	-12.0967
以本願力	-12.1024
懷樂菩薩	-12.1054
令作護持	-12.1071
颰陀和菩薩白佛	-12.1088
億姟	-12.1114
無事不	-12.1184
床臥	-12.1199
為母發	-12.127
法滅時	-12.1292
筋骨	-12.1325
慚恥	-12.1511
姟	-12.1528
有王名	-12.1563
銕繩	-12.1587
△	-12.1622
宜結親友	-12.1622
【△	-12.1865
銅汁	-12.1976
奪衣鉢	-12.2025
貫穿	-12.2025
嗟歎	-12.207
酤	-12.2106
肯	-12.2109
昔來未	-12.2121
堵	-12.2122
燭	-12.2133
展	-12.2135
䏶	-12.2135
靺	-12.2138
沒達離多	-12.2145
鴿	-12.2146
眾合地獄	-12.2147
崛	-12.2148
屣	-12.2148
戌	-12.2149
跋時囉	-12.2151
鴛	-12.2152
而來向此	-12.2153
霤	-12.2154
斫啾	-12.2156
抧	-12.2157
泠	-12.2157
㖃	-12.2157
轉女身得男子身	-12.2159
之所致也	-12.2164
姊	-12.2165
無量力王	-12.2165
瞻蔔	-12.2165
者遮囉	-12.2165
剆	-12.2166
胞	-12.2166
有一星如婦	-12.2167
蘘	-12.2167
祭祀	-12.2167
諸行諸根諸解	-12.2168
姦偽	-12.2168
蒂	-12.2168
蠲	-12.2169
入城乞食	-12.2171
非彼現在身證	-12.2171
億百千姟	-12.2172
躄	-12.2173
踟	-12.2174
復有一窟名曰	-12.2174
糧	-12.2174
逋	-12.2174
聞所未聞	-12.2175
是故名曰如來至真	-12.2175
來害我	-12.2175
而於此處	-12.2175
蹉	-12.2175
彼諸樂莊嚴世界之中	-12.2175
梅	-12.2175
搥	-12.2176
此三摩地而極	-12.2176
波利車陀	-12.2176
若知此者名因緣智	-12.2176
盡智無生智	-12.2176
協	-12.2176
琦	-12.2176
㭊	-12.2176
挍飾	-12.2176
鍾鼓	-12.2176
拘盧舍	-12.2177
占察經	-12.2177
慘	-12.2177
漚	-12.2178
拘薩羅國	-12.2178
𪏭	-12.2178
侍衛	-12.2178
信根乃至慧根	-12.2178
洽	-12.2178
佉盧虱吒仙人	-12.2178
窈	-12.2179
不懷怯弱	-12.2179
不受後有	-12.2179
無倫匹	-12.2179
鈐	-12.2179
歸滅盡種道	-12.2179
寶德離車子	-12.2179
西晉月支三藏竺法護譯	-12.218
肌	-12.218
鹿苑	-12.218
省己過	-12.218
拘毘羅	-12.218
我當云何不生憐愍	-12.218
無主故無	-12.218
眼不見色	-12.2181
嫌恨	-12.2181
阜	-12.2181
撾打	-12.2181
􂛄	-12.2181
呧	-12.2182
規	-12.2182
銘	-12.2183
發意之頃	-12.2183
柔輭	-12.2183
戴仰	-12.2183
􂌞	-12.2183
迦噌嬭	-12.2183
深得敬信	-12.2183
初夜後夜	-12.2183
殷	-12.2183
縷	-12.2183
箏	-12.2183
朴	-12.2183
鴈	-12.2183
燎	-12.2183
復以閻浮提中	-12.2184
淨目陀羅尼	-12.2184
而其內心	-12.2184
髏	-12.2184
鍼	-12.2184
十方菩薩品	-12.2184
皿	-12.2184
偃	-12.2184
入泥洹要	-12.2184
億菩提薩埵俱來集會	-12.2184
癃殘	-12.2185
曀	-12.2185
其淨心者能斷	-12.2185
6	-12.2185
善師視如佛	-12.2185
沙勒國	-12.2185
阿毘跋致	-12.2185
諸通敏慧	-12.2185
藐	-12.2185
摩睺羅	-12.2186
古鹽匡菴青蓮苾	-12.2186
屎尿	-12.2186
苞	-12.2186
悴	-12.2186
誘誑	-12.2186
即起合掌	-12.2187
如彈指頃	-12.2187
倡	-12.2187
可不慎	-12.2187
婬怒癡	-12.2187
揵沓惒	-12.2187
其心不高	-12.2187
其日生人	-12.2187
怡悅	-12.2187
一時佛在	-12.2187
哆他多	-12.2188
俱舍論	-12.2188
臘	-12.2188
釋迦毘楞伽寶而為圍遶	-12.2188
或男或女	-12.2188
沾污	-12.2188
8	-12.2188
來入佛會	-12.2188
日初分	-12.2188
有滯礙	-12.2188
賈	-12.2189
括	-12.2189
蹙	-12.2189
介	-12.2189
鄰	-12.2189
宀	-12.2189
今於我前	-12.2189
鷄	-12.219
毅	-12.219
如來願行此道坐	-12.219
作何行業	-12.219
除鬚髮	-12.219
不起此坐	-12.219
有雨碎	-12.219
玅	-12.219
頗胝迦	-12.2191
矛	-12.2191
皷	-12.2191
法眼得久住	-12.2191
本無今有	-12.2191
無所愛惜	-12.2191
酢	-12.2191
寇	-12.2191
文分三	-12.2191
無樔窟	-12.2191
或言毀謗大乘正法	-12.2191
枷	-12.2192
匙	-12.2192
池沼	-12.2192
鏤	-12.2192
鵝	-12.2192
充溢	-12.2192
同一法界證	-12.2192
縣官	-12.2192
肌膚	-12.2192
初結前起後	-12.2192
西晉月氏國三藏竺法護譯	-12.2193
金剛佉婆娑履	-12.2193
䭾	-12.2193
吾今為汝	-12.2193
郡	-12.2193
魏優禪尼國王子月婆首那譯	-12.2193
唯我一人	-12.2193
卉木	-12.2194
人壽百歲	-12.2194
恒伽河沙	-12.2194
所食之物	-12.2194
膾	-12.2194
翔	-12.2194
見作隨喜	-12.2195
杻械	-12.2195
亭	-12.2195
雲霧	-12.2195
欲學是三昧者	-12.2195
說無因果	-12.2195
茫	-12.2195
踊身虛空	-12.2195
逃避	-12.2195
霹	-12.2195
財首菩薩	-12.2195
佛法得久住故	-12.2195
蜂	-12.2195
刑罰	-12.2195
迦蘭陀竹園精舍	-12.2195
謙遜	-12.2196
休徵	-12.2196
煒	-12.2196
鋒	-12.2196
拋	-12.2196
韋	-12.2196
一切眾生惡業盡陀羅尼	-12.2196
耻	-12.2196
受持如來十二部經	-12.2196
如水泡	-12.2197
四禪地依止心念陀羅尼	-12.2197
各隨本	-12.2197
紹王位	-12.2197
諸助道法	-12.2197
紹三寶種使不斷	-12.2197
甫	-12.2197
濫	-12.2197
大罪惡業根本	-12.2197
得不起法忍	-12.2198
有智之人	-12.2198
匱乏	-12.2198
願佛當復為我解	-12.2198
終不暫捨	-12.2198
邲	-12.2198
寤寐	-12.2198
轉讀尊經	-12.2198
令我具足般若波羅蜜	-12.2198
後五百歲	-12.2198
坐佛樹下	-12.2198
為善為惡	-12.2199
大記別法	-12.2199
於百劫中	-12.2199
遞	-12.2199
轂	-12.2199
頰	-12.2199
羖羊	-12.2199
輔臣	-12.2199
激	-12.2199
晦	-12.2199
極善護持四根本戒	-12.2199
住於堅固金剛	-12.2199
師子奮迅具足萬行	-12.2199
三藏法師玄奘奉詔譯	-12.22
娜婆軍闍	-12.22
眉	-12.22
言行相應	-12.22
訶責	-12.22
慌	-12.22
阿鼻大地獄中	-12.22
應於後夜	-12.22
應用慧	-12.22
以淨天眼	-12.2201
豐壤	-12.2201
難有出期	-12.2201
如來所種諸善根也	-12.2201
異口同聲	-12.2201
尼拘陀	-12.2201
東西南北	-12.2201
西域記	-12.2201
守獄者	-12.2201
生住滅相	-12.2201
濟拔我等	-12.2201
誚	-12.2202
然大法炬	-12.2202
出家學道	-12.2202
研	-12.2202
勵	-12.2202
宜可要結	-12.2202
革	-12.2202
寒氷	-12.2203
又念我昔	-12.2203
如是大神通事	-12.2203
於諸行中	-12.2203
瞳	-12.2203
庸	-12.2204
招提僧物	-12.2204
魘	-12.2204
彼則以斯	-12.2204
若作事者	-12.2204
秘	-12.2204
乃至知色如	-12.2204
施戒忍辱精進禪定智慧	-12.2204
昔所未見	-12.2204
無來無去	-12.2204
金剛光明功德如來	-12.2204
常樂我淨	-12.2204
分不及一	-12.2205
願不有慮	-12.2205
偕	-12.2205
娶婦	-12.2205
文字及義	-12.2205
無崖底	-12.2205
盡未來際	-12.2205
鳩槃茶等分張付囑	-12.2205
疇	-12.2205
厲	-12.2205
梟	-12.2205
一切法自在三昧	-12.2206
大惡果報	-12.2206
當受持此三昧	-12.2206
所亦生慚愧	-12.2206
蹇	-12.2206
啅	-12.2207
比梨闍藍婆	-12.2207
欲詣彼世界	-12.2207
肖	-12.2207
還復本座	-12.2207
紺	-12.2207
餚饍	-12.2207
裁	-12.2207
爇	-12.2207
得他人力	-12.2207
慞惶	-12.2208
伊羅跋	-12.2208
廓	-12.2208
世記經	-12.2208
永盡無餘	-12.2208
照除眾生	-12.2208
具壽阿難陀	-12.2209
尊重敬仰得未曾有	-12.2209
示我方便	-12.2209
三法度論	-12.2209
儀式	-12.2209
坤	-12.2209
魔不得其便	-12.2209
若遇惡緣	-12.221
青黃赤白	-12.221
敷榮	-12.221
苦集滅道	-12.221
意有所念	-12.221
升沉	-12.221
游戲	-12.221
發於阿耨多羅三藐三菩提心	-12.221
而告之言	-12.221
驚愕	-12.221
阿迦膩吒	-12.2211
如優曇花	-12.2211
悠	-12.2211
娑訶世界	-12.2211
腐	-12.2211
漫	-12.2211
承斯功德	-12.2211
脫其袈裟	-12.2211
緊捺洛	-12.2212
今悉來集在世尊	-12.2212
菩薩摩訶薩具足幾法	-12.2212
毘摩羅詰	-12.2212
發希有心	-12.2212
汝於來世	-12.2212
鬼子母	-12.2212
菓	-12.2212
無去無來	-12.2213
紹隆三寶	-12.2213
綺飾	-12.2213
時世有佛	-12.2213
猛健	-12.2213
於諸佛所種諸善根	-12.2213
紇	-12.2213
床鋪	-12.2214
得自然智	-12.2214
渴仰欲見	-12.2214
纓	-12.2214
齡	-12.2214
剛法心因緣自在陀羅尼	-12.2214
出家受具足戒	-12.2214
一切智成就如來	-12.2215
於大乘中而為障難	-12.2215
燥	-12.2215
自護己	-12.2215
故名之為空	-12.2215
西瞿陀尼	-12.2215
剃除鬚髮被袈裟者	-12.2215
乃至真善戌達羅	-12.2215
觀他人法	-12.2215
啗	-12.2216
蒼	-12.2216
悉來聚集	-12.2217
不能思量一	-12.2217
阿闍世王	-12.2217
諂偽	-12.2217
敷揚	-12.2218
恕	-12.2218
錦	-12.2218
不依不了義經	-12.2218
顏容端正	-12.2218
如我解佛所說義	-12.2218
著慚愧衣	-12.2218
發大乘善家子善家女	-12.2218
若復世尊聲聞弟子	-12.2218
農	-12.2219
諸業法受	-12.222
從今以往	-12.222
於某處	-12.222
是施無	-12.222
瘧	-12.2221
山帝釋王佛	-12.2221
慎勿殺害	-12.2221
揣	-12.2221
兆	-12.2221
眾中有一菩薩名曰	-12.2221
七識住	-12.2221
供奉眾僧	-12.2222
眾生業果神通	-12.2222
橙	-12.2222
生生之處	-12.2222
壞龍境界	-12.2222
便獲大罪	-12.2222
瘡疣	-12.2222
生時長時	-12.2222
帥	-12.2222
昔在人中	-12.2222
有來去者	-12.2222
而宣說之	-12.2223
而成熟之	-12.2223
北欝單越	-12.2223
有情緣慈	-12.2223
檀波羅蜜乃至般若波羅蜜	-12.2223
破用常住	-12.2223
不分離	-12.2223
畢舍遮	-12.2224
語者若說	-12.2224
一毛一渧	-12.2225
一沙一塵	-12.2225
彌帝隷菩提薩埵	-12.2225
亦名地藏本	-12.2225
以後世惡業眾生為	-12.2226
非法非非法	-12.2226
無量淨天	-12.2226
給孤獨	-12.2226
無量光天	-12.2226
佉羅帝山	-12.2227
所捨施者	-12.2227
無滯礙	-12.2227
此三昧能速成就阿耨多羅三藐三菩提	-12.2227
我今亦欲	-12.2229
為幾法所攝	-12.223
四念住	-12.223
舍利弗問阿差末	-12.2231
少病少惱	-12.2231
即汝身是	-12.2232
無盡器陀羅尼	-12.2232
亦無遠離境界及	-12.2232
羯吒布怛那	-12.2233
若三千大千世界所有眾生悉為	-12.2235
茷	-12.2236
護國不退輪心大陀羅尼明呪章句	-12.2237
伎樂而供養之	-12.2237
梨車子	-12.2239
能壞陰魔	-12.2241
所施四方僧物	-12.2244
岳府	-12.2245
菩薩觀緣方便	-12.2253
智成就佛	-12.2253
念其方	-12.2257
如理伺察	-12.2259
著鎧甲	-12.2263
識遠離故自相清淨	-12.2264
萬那由他	-12.2268
不如施彼遍滿三千大千世界如前數量	-12.2274
或所攝受	-12.228
汝心喜	-12.2281
無盡故無盡	-12.2283
能曉了此	-12.2291
後邊身	-12.2298
其仁愛者	-12.2308
於一切法心無所	-12.2322
初經家敘儀	-12.2416
故思殺	-12.2469
為大眾說	-12.2512
十五佛現	-12.2556
校計百八墮	-12.2965
一切勇菩提薩埵摩訶薩埵白佛	-12.2997
此六宿日	-12.3494
能廣分別	-12.3538
國二十五佛現	-12.3668
叫	-12.3979
口業隨智慧行	-12.3998
綸	-12.4005
意業隨智慧行	-12.4108
𡁠	-12.412
中曾作俗人	-12.4126
嬭	-12.4127
所得福德不如布施供養一	-12.4138
囊	-12.414
勸我請	-12.414
脛	-12.4142
陀羅尼金剛句	-12.4143
陁	-12.4143
故建立斯經	-12.4147
希力陀蛇	-12.4147
庾	-12.4148
怛儞也	-12.4149
虔	-12.4149
滸	-12.415
揥	-12.4152
贍	-12.4154
敧	-12.4154
苟	-12.4156
祁利失王	-12.4156
億恒伽沙菩提薩埵	-12.4157
大明呪句	-12.4158
弭多囉	-12.4158
違昔誓願	-12.4158
諸菩薩復問佛	-12.4159
寶曜總持	-12.4159
磨刀大陀羅尼	-12.416
胝	-12.4161
舉心動念	-12.4162
波吒羅	-12.4163
易養易滿	-12.4166
珂	-12.4166
若苦若樂	-12.4167
璫	-12.4167
離馱耶	-12.4167
紹三寶性	-12.4168
其有來者為	-12.4168
涅寐帝	-12.4168
迷哆囉	-12.4168
涅文支	-12.4168
一切智者之所遠離	-12.4169
芳	-12.4169
句擁護某甲莎波呵	-12.4169
苛	-12.4169
自讀誦教他讀誦	-12.4169
無緣之慈	-12.417
菩薩當校計	-12.417
貺	-12.417
嗟	-12.4171
玔	-12.4171
繫其頸	-12.4172
歘	-12.4172
然後學誦是三昧	-12.4172
盡其形壽	-12.4173
時縛羅	-12.4173
排	-12.4174
發聲聞辟支佛心	-12.4174
蘆	-12.4174
般遮囊伽	-12.4174
頂禮尊足	-12.4174
從今已往	-12.4174
其浪那	-12.4175
猷	-12.4175
五分法身	-12.4175
是太白	-12.4175
嘲	-12.4175
羆	-12.4175
燃	-12.4176
餚	-12.4176
粥	-12.4176
虞	-12.4176
觀他人痛痒	-12.4176
謂菩薩未得佛	-12.4176
謎	-12.4177
觀他人身	-12.4177
各令得所	-12.4177
月輪種如來	-12.4177
又因汝故	-12.4177
烈	-12.4177
當共彼等護	-12.4178
多地耶他	-12.4178
閡	-12.4178
𧯞	-12.4178
喝	-12.4178
佛說大乘僧伽吒法義經卷第	-12.4178
度知見品	-12.4179
入無餘涅槃	-12.4179
罕	-12.4179
沃	-12.4179
求諸所願	-12.4179
過去天仙	-12.4179
往到其所	-12.418
摩偷羅國	-12.418
亮	-12.418
粉	-12.418
淳淑	-12.418
亦如上說	-12.418
尼揵子	-12.4181
鵲	-12.4181
刪	-12.4181
架	-12.4181
乃至非想非非想天	-12.4181
聰哲	-12.4181
迦毘羅婆國	-12.4181
八万四千	-12.4181
受性弊惡	-12.4181
幅	-12.4181
穆	-12.4181
恬怕	-12.4181
􂛀	-12.4181
坏	-12.4182
各有所主	-12.4182
依佛出家	-12.4183
潮	-12.4183
修行淨戒波羅蜜多	-12.4183
前後導從	-12.4183
羌	-12.4183
燿	-12.4183
𠯋	-12.4183
控	-12.4184
俱胝殑伽沙數諸菩薩眾來入彼會	-12.4184
酤胝殑伽沙菩薩而來向此	-12.4184
身昇虛空	-12.4184
▁416	-12.4184
崎	-12.4184
練	-12.4184
奚周迦國	-12.4184
阿磨婆	-12.4184
浣	-12.4185
塞迦囉	-12.4185
亦為四眾宣說開示雜四諦法	-12.4185
壇	-12.4185
蚤	-12.4185
欲修無上菩提者	-12.4186
膖脹	-12.4187
亦化他人令斷	-12.4187
如犀牛角	-12.4187
剖	-12.4187
李	-12.4187
几	-12.4188
毘昌伽蘇脂龍王	-12.4188
隅	-12.4188
匡	-12.4188
一切諸法本性淨	-12.4188
屬於火天	-12.4188
暫無休息	-12.4188
悉寐栗底	-12.4188
瑩	-12.4188
菩薩聞作是說	-12.4188
求不得苦	-12.4188
者亦無是處	-12.4188
稽	-12.4188
猜	-12.4188
阿差末菩薩復謂舍利弗	-12.4189
天中之天	-12.4189
憤	-12.4189
無儔匹	-12.4189
十六諸天神王	-12.4189
閃	-12.4189
催	-12.4189
阿迦舍	-12.4189
一切諸法悉無有	-12.4189
砂	-12.4189
豁	-12.4189
身諸毛孔	-12.4189
溪	-12.419
濤	-12.419
鞠	-12.419
餅	-12.419
四部弟子	-12.419
當得大力雄猛不可害輪	-12.419
其日生者性多瞋	-12.419
從火起	-12.419
化自在天	-12.419
招引惡果	-12.419
聞說此經還得正見	-12.419
同菩提性	-12.4191
若有比丘觀息出入	-12.4191
揩	-12.4191
聞此呪已	-12.4191
上求下化	-12.4191
四根本戒	-12.4191
陞	-12.4191
宮殿毫光	-12.4191
湊	-12.4191
二顯施福	-12.4191
悉如上說	-12.4191
我等於彼諸佛弟子	-12.4191
婆羅門及諸魔梵所不能轉	-12.4191
月輪毫光	-12.4191
其聲遍聞	-12.4191
無垢炎無量光王如來	-12.4192
薄伽梵	-12.4192
無偏黨	-12.4192
攻	-12.4192
諧	-12.4192
蝮	-12.4192
婆蹉國	-12.4192
為欺誑一切三世諸佛	-12.4192
身不覺觸	-12.4192
揵闥婆	-12.4192
創	-12.4192
日月土如來	-12.4192
當奉持之	-12.4193
閻浮提南方第四分	-12.4193
佉盧虱吒	-12.4193
俱詣忉利	-12.4193
糞屎	-12.4193
掛	-12.4193
二如來讚喜	-12.4193
擇法覺分	-12.4193
水宅心陀羅尼	-12.4193
𤻧	-12.4193
穿亦不壞	-12.4193
到安隱處得無所畏	-12.4194
湧	-12.4194
海雲毫光	-12.4194
螢	-12.4194
荊棘	-12.4194
央掘	-12.4194
卓	-12.4194
結惡習重	-12.4194
凟	-12.4194
二結會古今	-12.4194
求第一菩提	-12.4194
訴	-12.4194
舒金色臂	-12.4195
如呼響	-12.4195
躡	-12.4195
恬	-12.4195
懦	-12.4195
久修堅固大願	-12.4195
慶雲毫相光	-12.4195
釋迦毘楞	-12.4195
千輪毫光	-12.4195
向於東方至心	-12.4195
日輪毫光	-12.4195
揵沓和	-12.4196
吒吒吒	-12.4196
廊	-12.4196
綖	-12.4196
唇	-12.4196
㘁	-12.4196
大悲思惟大梵天王	-12.4196
心開意解	-12.4196
明所化機	-12.4196
頭面接足	-12.4197
餒	-12.4197
而俱同塵	-12.4197
於後夜時	-12.4197
動經塵劫	-12.4197
樂居寂靜	-12.4197
蒜	-12.4197
寶輪毫光	-12.4197
州縣	-12.4198
爐	-12.4198
臨死之時	-12.4198
菩薩四種發起精進不離布施	-12.4198
娶	-12.4198
三乘不退轉位	-12.4198
闢	-12.4198
動經億劫	-12.4199
一俱盧舍	-12.4199
波利質多羅俱毘陀羅樹	-12.4199
歌舞作樂	-12.4199
猶如雨下	-12.4199
如熱時焰	-12.4199
無縛無解	-12.4199
䗍	-12.42
弛	-12.42
淨自洗浴著	-12.42
澂	-12.42
肝	-12.42
所將眷屬	-12.42
高一多羅樹	-12.42
若經一劫	-12.4201
母陀囉	-12.4201
次有五百	-12.4201
既入定已	-12.4201
凝	-12.4201
三海之內	-12.4201
本師釋迦牟尼	-12.4201
枚	-12.4201
悉能容受一切	-12.4201
識有所識	-12.4201
助其歡喜	-12.4201
已於無量無邊佛所	-12.4201
慈心相向	-12.4201
阿頗那	-12.4201
陰性入	-12.4201
脆	-12.4201
可往問	-12.4202
將非大德之所	-12.4202
悅可眾心	-12.4202
即於是日	-12.4202
灌頂剎利王領國	-12.4202
不可說不可說一切諸佛	-12.4202
盤	-12.4202
受極大苦	-12.4203
赦	-12.4203
於少時間	-12.4203
受持互相隨喜	-12.4203
泄	-12.4203
䇿	-12.4203
大輪圍	-12.4203
則得增廣	-12.4203
蟒	-12.4204
稻麻竹葦	-12.4204
并欲啟受所未曾聞虛空目法門	-12.4204
能深觀察	-12.4204
右遶三周	-12.4204
雨大法雨	-12.4204
七星宿日	-12.4204
仰觀虛空	-12.4204
湖	-12.4204
穹	-12.4204
船華功德	-12.4204
遮迦越王	-12.4204
是名初行第	-12.4204
晡	-12.4204
燒眾名香	-12.4204
覺乘法及大乘法	-12.4204
猶如大車	-12.4204
恌	-12.4205
我隨覺觀	-12.4205
拾	-12.4205
詎	-12.4205
唵	-12.4205
亦復照彼	-12.4205
執慧曜如來	-12.4205
堅黑沈水	-12.4205
丙	-12.4205
日乃至七日	-12.4205
滅小火	-12.4206
不為煩惱所	-12.4206
百千萬億不可思	-12.4206
鳩摩羅臣	-12.4206
能裂一切	-12.4207
能證得安樂涅槃	-12.4207
汝等賢首	-12.4207
為供養事供養世尊	-12.4207
喉	-12.4207
毉	-12.4207
六變振動	-12.4207
八關齋	-12.4207
澍	-12.4207
鴻	-12.4207
淨度三昧經	-12.4207
聞空中聲曰	-12.4207
何有智者樂於彼	-12.4207
擎	-12.4207
菩薩觀入方便	-12.4207
魃	-12.4207
承佛威力	-12.4208
淨命自資	-12.4208
菩薩摩訶薩住於閑林修第一義時	-12.4208
魑	-12.4208
暑	-12.4208
既發心已	-12.4208
烹	-12.4208
無少法可	-12.4208
撓	-12.4208
能障聖道	-12.4208
被大德鎧	-12.4208
趙	-12.4208
鬱	-12.4208
須質多羅阿修羅	-12.4209
尊者摩訶迦葉	-12.4209
自號大乘	-12.4209
與諸大眾圍遶說法	-12.4209
鉢羅華	-12.4209
知時非時	-12.4209
出于世	-12.4209
暝	-12.4209
現在佛悉在前立三昧	-12.4209
舍那舍	-12.4209
善道及涅槃道	-12.421
朔	-12.421
懈怠懶惰	-12.421
碧毫相光	-12.421
宋天竺三藏功德直譯	-12.421
斷其頭	-12.421
如影隨形	-12.421
饑饉	-12.421
昔所未聞	-12.421
得不忘菩提心三昧	-12.4211
我因覺觀	-12.4211
於大乘中而能多作	-12.4211
格	-12.4211
自然退散	-12.4211
蘊界處	-12.4211
詭	-12.4211
復過於此	-12.4211
鄔波索迦	-12.4211
彼天主王	-12.4211
受大快樂	-12.4211
洋銅灌口	-12.4211
無涯底	-12.4211
虛空無邊處	-12.4212
如諸菩薩所得無盡	-12.4212
欲瞋癡	-12.4212
身而受化	-12.4212
或時眾生樂	-12.4212
未發菩提心者	-12.4212
當何名此經	-12.4212
弼	-12.4212
棄愛欲作比丘	-12.4212
永墮棄損	-12.4213
我今示汝	-12.4213
識無邊處	-12.4213
億諸佛如來出興於世	-12.4214
犯大重罪	-12.4214
三十七助道之法	-12.4214
西天譯經三藏朝	-12.4214
整其衣服	-12.4214
諸宿曜	-12.4214
無高無下	-12.4214
北涼天竺三藏曇無讖於姑臧譯	-12.4214
大夫試鴻臚卿傳法大師臣施護奉詔譯	-12.4214
知是眾生未來世中有	-12.4214
信有業報	-12.4215
於十惡輪自	-12.4215
降大雨	-12.4215
以山障故不令得	-12.4215
起尊重心	-12.4216
巴	-12.4216
不味著	-12.4216
焰摩天	-12.4216
拄	-12.4216
丶	-12.4216
粒	-12.4216
為欲成熟諸眾生故	-12.4216
魔伺不得便	-12.4216
𡗓	-12.4217
現相集眾	-12.4217
根機未熟	-12.4217
六欲諸天	-12.4217
說欲隨喜	-12.4217
彼鴦耆如來	-12.4217
駃	-12.4217
出家及受具戒	-12.4217
多饒財寶	-12.4218
拜祭鬼神	-12.4218
庫	-12.4218
倪	-12.4219
精進勤求善法	-12.4219
而遙擲之	-12.4219
彼即為現	-12.4219
去是遠近	-12.4219
覩史多天	-12.4219
汝等今世及以後世	-12.4219
閜	-12.422
如陶家輪	-12.422
與眼對	-12.422
目不暫捨	-12.4221
彼善觀作王比丘	-12.4221
如幻如化	-12.4221
湯藥一切所須	-12.4221
來入此迦蘭陀園	-12.4221
離安隱處失人天樂	-12.4221
首楞伽摩	-12.4222
誠如聖教	-12.4222
廣果天	-12.4222
無法有法空	-12.4222
生輕謗	-12.4222
酬足復	-12.4222
能以正智如實知	-12.4223
入滅盡定	-12.4223
諸禪解脫三昧	-12.4223
萬八千人	-12.4224
怱	-12.4224
但燒手	-12.4224
隨所應見	-12.4224
熬	-12.4224
無憶想分別	-12.4225
欬	-12.4225
垓	-12.4225
拘尸那	-12.4226
瘂	-12.4226
少光天	-12.4226
商賈	-12.4226
名喜覺分	-12.4227
災起時能變為	-12.4227
杜多功德	-12.4228
舍衛城	-12.4228
名念覺分	-12.4228
未願成佛	-12.4228
於夜夢中	-12.4228
云何菩薩不離如如來所許念	-12.4228
名定覺分	-12.4228
名除覺分	-12.4228
是為菩薩不離如如來所許念	-12.4229
名捨覺分	-12.4229
七等覺支	-12.423
煥	-12.423
則得成就現前三昧	-12.423
臠	-12.4231
說大乘過	-12.4231
莫作異觀	-12.4232
荊溪	-12.4232
邃	-12.4232
壞瞿曇身	-12.4232
聞此說已	-12.4233
圭	-12.4234
實非梵行自稱梵行	-12.4235
抽	-12.4235
是為菩薩摩訶薩具足五法	-12.4235
不為煩惱之所	-12.4236
受諸重苦	-12.4236
咷	-12.4236
暎	-12.4236
不執色是	-12.4236
八千菩薩得無生法忍	-12.4238
非色非非色	-12.4238
菩薩具足四法	-12.424
奢摩裴多悉帝	-12.424
我今亦與婦妾宮人	-12.4242
過去諸佛已曾教	-12.4244
斷常二見	-12.4244
彼大臣統理國土	-12.4244
依倚王力	-12.4244
無言訟心	-12.4245
菩薩住是陀羅尼已	-12.4247
以女人形	-12.4249
縛五處	-12.425
土石膠漆	-12.4253
彼初發心菩薩摩訶薩	-12.4254
放此光明	-12.4256
發無上道心	-12.4259
優婆塞戒經	-12.4273
無懈怠者能	-12.4274
任法器及不	-12.4276
須彌藏菩薩	-12.4291
淨印定	-12.4305
他化天	-12.431
莂	-12.4553
苦所惱	-12.4565
四萬二千	-12.5287
百分千分	-12.529
瞻波迦華	-12.5406
世尊欲重宣此義而說偈	-12.543
慈能離諸	-12.5494
葶藶子	-12.5568
所從來生	-12.5632
迴向真如故	-12.5936
阿迦尼吒	-12.6088
初中二初	-12.6336
􂏔	-12.6597
攝護其說法師	-12.6616
皺	-12.6623
以鞭杖等捶拷其身	-12.6627
園中有佛	-12.6628
鎧甲者	-12.6632
𧂐	-12.6632
首樓首樓	-12.6636
不自欺身	-12.6637
此水風摩尼宮陀羅尼輪	-12.6637
祁利叉王	-12.664
𩘌	-12.6643
箄	-12.6644
曬	-12.6644
波闍波提比丘尼	-12.6645
爽	-12.6649
荔	-12.6651
涑羅多	-12.6651
侜	-12.6651
決欲律	-12.6653
伽毘盧呵	-12.6654
耶婆毘娘	-12.6654
髀	-12.6654
綻	-12.6655
奢摩裴多悉致	-12.6655
嗚	-12.6656
貧窮苦楚	-12.6657
扠	-12.6658
閦	-12.6661
仛	-12.6661
謩	-12.6662
於毘舍浮如來法中	-12.6662
咒	-12.6662
所多得中味中語言	-12.6663
磨呵迦盧拏	-12.6663
犍沓和	-12.6664
馺跛曷利捨揭邏	-12.6664
阿吒薄俱大夜叉軍將	-12.6665
𠢕	-12.6665
入王舍大城乞食	-12.6665
鉢剆底篩	-12.6665
饜	-12.6666
欝奴摩	-12.6666
料	-12.6667
行安般守意	-12.6668
粖	-12.6668
㘑	-12.6668
九萬九億	-12.6668
次名尼乾吒	-12.6668
淡	-12.6668
捲	-12.6668
羼羅耶佛	-12.6668
迷帝𠼝	-12.6668
蚖蛇蝮蠍	-12.6669
來入塚間	-12.6669
咀	-12.6669
藺	-12.6669
𣩠	-12.6669
淨印三摩地門	-12.667
軸	-12.667
疽	-12.667
揭邏訶波履婆	-12.6671
吁	-12.6671
輭	-12.6672
懆	-12.6672
挐	-12.6672
紂	-12.6672
菩薩尋應威儀	-12.6673
拶	-12.6673
滑	-12.6674
是二女人常共供養	-12.6674
有依我而出家者	-12.6675
剪	-12.6675
拖	-12.6675
攣	-12.6675
訶䫂達麼	-12.6675
十方現在無量諸佛	-12.6675
潦	-12.6676
三轉十二行	-12.6676
釐	-12.6676
亦名此煩惱以為	-12.6676
雛	-12.6676
諾	-12.6677
祠	-12.6677
熈	-12.6677
二迴向叵喻	-12.6677
來生此閒	-12.6677
憩	-12.6677
拓	-12.6677
剔	-12.6678
直明施福	-12.6679
伊犁伊	-12.6679
右此七宿當於	-12.6679
嚬	-12.6679
弦	-12.6679
所積塵數	-12.6679
目未曾眴	-12.6679
㖉	-12.6679
建大法幢	-12.6679
水上泡	-12.6679
汙	-12.6679
綜	-12.6679
甘露行非緣甘露	-12.6679
謂菩薩能守	-12.6679
酤胝佛剎見彼	-12.6679
􂛍	-12.6679
旭	-12.6679
從其面門放	-12.6679
抓	-12.6679
􂛕	-12.668
嘴	-12.668
塚	-12.668
餝	-12.668
彼有菩薩名曰海	-12.668
攝護國土養育眾生	-12.668
澹	-12.668
十八酤胝無知外道	-12.668
繕	-12.668
虛空藏菩薩神呪經	-12.668
自謂聰敏	-12.6681
躃	-12.6681
旬	-12.6681
欲重明此義	-12.6681
遇佛塔寺	-12.6681
僥	-12.6682
𣚰	-12.6682
必成佛無疑	-12.6682
阿禰拏	-12.6682
頹	-12.6682
緣於甘露非甘露行	-12.6682
菩薩摩訶薩於其終身遠離	-12.6682
二示業感差別	-12.6682
毘𡃳伽摩	-12.6682
慠	-12.6683
揜	-12.6683
龕	-12.6683
噌	-12.6683
􂚷	-12.6683
稷	-12.6683
武佐反	-12.6683
益其氣力	-12.6683
佉羅婆羅國	-12.6683
悉同受之	-12.6683
眵	-12.6683
釋迦牟尼佛告長老	-12.6683
吲	-12.6683
娑伽囉	-12.6683
三示業報差別	-12.6683
東方第四分	-12.6683
罽賓國	-12.6683
德叉迦龍王	-12.6684
日藏法行壞龍境界炎品	-12.6684
妾	-12.6684
零	-12.6684
轅	-12.6684
正此謂也	-12.6684
修行精進波羅蜜多猶若虛空	-12.6684
資身之具	-12.6684
以待彌勒	-12.6684
重重編載	-12.6684
拽	-12.6684
繡	-12.6684
最上語言蓮華世界	-12.6684
此是菩薩摩訶薩成熟眾生能滿	-12.6684
使汝早畢是願	-12.6685
氣芬馥	-12.6686
准	-12.6686
獨有一獄	-12.6686
譬如幻師	-12.6686
况	-12.6686
諸根殘缺	-12.6686
壙	-12.6686
悉都那國	-12.6686
非闇非明	-12.6686
韻	-12.6686
3	-12.6686
于填國	-12.6686
撩	-12.6686
是貪求利養	-12.6686
棱	-12.6686
菩薩次能樂說	-12.6686
蠆	-12.6686
鞾	-12.6686
兀	-12.6686
盲聾瘖瘂	-12.6686
-	-12.6687
布施持戒忍辱精進	-12.6687
侮	-12.6687
善建城	-12.6687
樓炭經	-12.6687
阿慕呵	-12.6687
十種不善業道	-12.6687
汝等宣告令彼得知	-12.6687
修行布施波羅蜜多猶若虛空	-12.6687
為欲調伏諸眾生故	-12.6687
二總流通	-12.6687
掘	-12.6688
地藏菩薩白聖母言	-12.6688
極寒極熱	-12.6688
過是劫已	-12.6688
奘	-12.6688
疾疫不臨	-12.6688
鹵	-12.6688
涕淚哀戀	-12.6688
檐	-12.6689
儜	-12.6689
腰	-12.6689
豚	-12.6689
墮塹路	-12.6689
惟斯芩	-12.6689
衒	-12.6689
瀆	-12.6689
辟支迦	-12.669
悟宿世之	-12.669
三長齋	-12.669
那羅達多摩納	-12.669
不以懈厭	-12.669
旋得旋忘	-12.669
群黎之黨	-12.669
可測量	-12.669
攸	-12.669
無有偏黨	-12.669
閔	-12.669
乃敢發	-12.6691
以此四大天下	-12.6691
修補塔寺	-12.6691
出法攝心非滅法攝心	-12.6691
陌	-12.6691
是大國王等	-12.6691
有諸菩薩摩訶薩輩	-12.6691
水不能漂	-12.6691
先種樹人	-12.6691
和輪調菩薩	-12.6691
怡	-12.6691
迊	-12.6692
趁	-12.6692
金剛堅根	-12.6693
息怒忍	-12.6693
丐	-12.6693
泛	-12.6693
迦止栗	-12.6693
十方世界所來集會	-12.6693
識滅身壞	-12.6693
迦旃延	-12.6693
唯心識觀	-12.6693
富樓沙富羅國	-12.6693
自守節度	-12.6693
誕	-12.6693
銜	-12.6693
發殷重心	-12.6693
棘	-12.6693
萬二千劫	-12.6693
𦂅	-12.6693
價直百千	-12.6693
無常相非無常法	-12.6693
我與一切眾生親	-12.6694
積功累德	-12.6694
讇	-12.6694
丹本云	-12.6694
崙	-12.6694
各遣侍者問訊	-12.6694
廣大明耀	-12.6694
無量功德寶無垢殊妙莊嚴	-12.6694
院	-12.6694
估	-12.6695
十二重城	-12.6695
真語實語	-12.6695
蓐	-12.6695
次有千百	-12.6695
竹林迦蘭陀池邊	-12.6695
八大人覺	-12.6695
離於一切人天之樂	-12.6695
派	-12.6695
神鬼助持	-12.6695
航	-12.6695
離水火災	-12.6695
鑞	-12.6695
天女各二百五十眷屬	-12.6695
拈	-12.6695
非戒乃至非	-12.6695
𨂫	-12.6695
二如來發本	-12.6695
能盡一切欲貪	-12.6696
擊法鼓	-12.6696
女轉男身	-12.6696
悖	-12.6696
毘摩質多阿修羅王	-12.6696
心驚毛竪	-12.6696
持諸佛法寶藏	-12.6696
鼻不嗅香	-12.6696
靈鷲山	-12.6697
芥	-12.6697
配	-12.6697
尼夜摩相	-12.6697
阿耨多羅三藐	-12.6697
彼慈行如來	-12.6697
尉	-12.6697
持空法解盡法	-12.6697
世尊一心念我	-12.6697
分身沙界	-12.6697
曼殊沙花	-12.6697
眾天灌頂聖王	-12.6697
籤	-12.6697
行者二萬一千行	-12.6697
譬如比丘入第三禪	-12.6697
娑婆世界釋迦牟尼佛所	-12.6698
於往昔行菩薩時	-12.6698
運遐法師	-12.6698
提頭賴	-12.6698
墟	-12.6698
地夜跋	-12.6698
一切身業隨智慧行	-12.6698
繪	-12.6698
恤	-12.6698
蹋	-12.6698
釁	-12.6698
阿迦奢	-12.6698
三脫之門	-12.6698
修行禪定波羅蜜多猶若虛空	-12.6698
搔	-12.6698
脉	-12.6698
坦	-12.6698
一切皆得如法所求	-12.6699
靖	-12.6699
不高不下	-12.6699
埏	-12.6699
哿	-12.6699
迸	-12.6699
讎	-12.6699
智德峯王佛告炎德藏菩薩	-12.67
碾	-12.67
十種法施輪	-12.67
態	-12.67
末為風所吹	-12.67
銳	-12.67
新發意菩薩	-12.67
於僧眾中麁重罪相	-12.67
私訶摩提佛	-12.67
禦	-12.67
無憎無愛	-12.67
亨	-12.67
譬如清淨虛空十五日夜極圓滿月	-12.67
諸惡眾生障礙未盡	-12.6701
白銀為莖	-12.6701
阻	-12.6701
三月安居	-12.6701
佩	-12.6701
二別列益數	-12.6701
候	-12.6701
捨邪歸正	-12.6701
謇	-12.6701
多見百佛	-12.6701
斂	-12.6701
是時僧眾應	-12.6701
𨷖	-12.6701
為不斷絕三寶性	-12.6702
匪	-12.6702
迄	-12.6702
復過而去	-12.6702
法器及非法器	-12.6702
鋪	-12.6702
造無間罪	-12.6702
縊	-12.6702
癃	-12.6702
㖑	-12.6702
如我今於此土無異	-12.6702
勅勤國	-12.6702
樞	-12.6702
𢤱	-12.6702
佉羅虱吒仙人	-12.6702
逐境而生	-12.6702
調難伏	-12.6702
世尊即便微笑	-12.6702
室利毱多	-12.6702
揆	-12.6702
超絕無侶	-12.6702
饋	-12.6702
從是已後復值	-12.6702
我從彼佛得	-12.6702
然海酥	-12.6702
袪病速如神由此立假名名為藥王軍	-12.6702
祝	-12.6703
我觀法界性無	-12.6703
魁	-12.6704
薦	-12.6704
如風災起	-12.6704
垣	-12.6704
征	-12.6704
穢惡五濁佛剎	-12.6704
善知一切有情行相	-12.6704
得良伴	-12.6704
所從來處	-12.6704
輕法慢教	-12.6704
彼無畏王如來	-12.6704
此三宿日作事者	-12.6704
茸	-12.6704
我以覺心見佛	-12.6704
斤	-12.6704
若施三千世界諸	-12.6704
其間發覺令憶	-12.6705
蓄	-12.6705
黟	-12.6705
良祐福田	-12.6705
名曰明於三世	-12.6705
度諸有海	-12.6705
冶	-12.6705
彼即示現而為說法	-12.6705
頭面著	-12.6706
郭	-12.6706
浸	-12.6706
屈伸臂頃	-12.6706
能度煩惱海	-12.6706
鐘	-12.6707
從緣而生從緣而滅	-12.6707
袋	-12.6707
遁	-12.6707
姻	-12.6707
跌	-12.6707
萌	-12.6708
膚	-12.6708
添	-12.6708
齧	-12.6708
僚	-12.6708
嬾	-12.6709
聊	-12.6709
昊	-12.6709
矢	-12.6709
鑿	-12.6709
燕	-12.6709
蛔	-12.6711
鸚	-12.6711
洎	-12.6711
澗	-12.6711
鑄	-12.6712
澈	-12.6712
疆	-12.6712
郎	-12.6712
蹬	-12.6713
爰	-12.6713
絺	-12.6713
傅	-12.6713
班	-12.6714
懌	-12.6714
漆	-12.6715
線	-12.6715
甄	-12.6715
贖	-12.6715
墓	-12.6715
肺	-12.6715
濡	-12.6716
捻	-12.6716
莠	-12.6716
枕	-12.6716
戈	-12.6716
艱	-12.6717
換	-12.6719
𠆙	-12.672
瘠	-12.672
稼	-12.6721
躭	-12.6723
技	-12.6723
鵄	-12.6725
幕	-12.6725
冐	-12.6727
綱	-12.6727
牆	-12.6728
逗	-12.673
嗢	-12.6731
媲	-12.674
𦪑	-12.6763
央	-12.9871
虐	-12.9954
𦾨	-12.9956
窒	-12.9964
轍	-12.9964
嘻	-12.9966
拭	-12.9972
簿	-12.9975
𣢁	-12.9977
俞	-12.9981
攡	-12.9983
𧹞	-12.9985
熙	-12.9987
酌	-12.9987
覃	-12.9987
葵	-12.9987
傑	-12.9989
棺	-12.9991
舡	-12.9991
挾	-12.9993
駐	-12.9993
涎	-12.9993
漬	-12.9995
疣	-12.9995
訪	-12.9996
隘	-13
遘	-13
埜	-13.0002
璝	-13.0002
需	-13.0002
唧	-13.0004
嚪	-13.0004
績	-13.0004
蟾	-13.0004
餮	-13.0004
拱	-13.0006
匣	-13.0007
僂	-13.0007
挫	-13.0008
潰	-13.0008
蔕	-13.0008
椉	-13.0009
竺	-13.0009
刈	-13.001
磑	-13.001
毱	-13.0011
謁	-13.0011
驃	-13.0011
珞	-13.0011
怕	-13.0012
捫	-13.0012
捭	-13.0012
蔚	-13.0012
机	-13.0012
紐	-13.0012
蕀	-13.0012
0	-13.0013
胆	-13.0014
鼎	-13.0014
檻	-13.0014
蒸	-13.0014
坯	-13.0014
𨈬	-13.0014
裨	-13.0015
衍	-13.0015
卯	-13.0016
凉	-13.0016
寅	-13.0016
蘂	-13.0016
駿	-13.0016
呂	-13.0018
抂	-13.0018
筭	-13.0018
哲	-13.0019
懾	-13.0019
卵	-13.0019
賞	-13.002
戊	-13.002
核	-13.002
牖	-13.002
詢	-13.002
澇	-13.0021
卜	-13.0021
婫	-13.0021
痒	-13.0021
悽	-13.0022
攢	-13.0022
竈	-13.0022
溷	-13.0022
擐	-13.0022
湎	-13.0022
擘	-13.0022
麋	-13.0022
廂	-13.0022
獅	-13.0022
碓	-13.0022
搗	-13.0022
昞	-13.0022
聯	-13.0022
楗	-13.0022
壬	-13.0023
肇	-13.0023
腥	-13.0023
虹	-13.0023
牒	-13.0024
蠍	-13.0024
纖	-13.0025
跳	-13.0025
廉	-13.0025
壅	-13.0025
涂	-13.0025
鄥	-13.0025
沾	-13.0026
匠	-13.0026
戚	-13.0027
臊	-13.0027
勘	-13.0027
𢍉	-13.0027
俾	-13.0027
埤	-13.0027
餐	-13.0027
侗	-13.0027
鉞	-13.0028
巫	-13.0028
貳	-13.0029
闊	-13.0029
悸	-13.0029
桓	-13.0031
斥	-13.0031
板	-13.0031
砧	-13.0031
粹	-13.0031
綏	-13.0031
悞	-13.0031
緬	-13.0032
鎗	-13.0032
卉	-13.0033
諱	-13.0033
𢡖	-13.0033
艾	-13.0033
迤	-13.0033
憃	-13.0033
鈞	-13.0033
眚	-13.0033
爍	-13.0034
遐	-13.0034
聳	-13.0035
抹	-13.0035
賦	-13.0035
秤	-13.0036
泆	-13.0036
碯	-13.0037
跱	-13.0037
遽	-13.0037
尅	-13.0037
捔	-13.0037
槐	-13.0037
邈	-13.0037
蓏	-13.0038
劵	-13.0039
竅	-13.0039
燼	-13.0039
隻	-13.0039
巾	-13.0039
淹	-13.0041
洟	-13.0041
胥	-13.0041
㵱	-13.0041
昌	-13.0041
㕛	-13.0041
兦	-13.0041
号	-13.0041
液	-13.0041
隥	-13.0042
㹢	-13.0043
玻	-13.0043
炒	-13.0043
糠	-13.0043
瞞	-13.0043
莽	-13.0044
陟	-13.0044
鷲	-13.0044
擅	-13.0045
疋	-13.0045
仕	-13.0045
戱	-13.0045
兇	-13.0045
萃	-13.0045
兗	-13.0045
瘴	-13.0045
穗	-13.0045
趂	-13.0045
淑	-13.0046
恰	-13.0047
銖	-13.0048
稗	-13.0048
劬	-13.0048
督	-13.0049
拼	-13.0049
睛	-13.0049
鐇	-13.0049
蝸	-13.0049
塼	-13.005
瞽	-13.005
蠶	-13.005
騷	-13.005
愉	-13.005
賖	-13.0051
鈔	-13.0051
墻	-13.0052
捄	-13.0052
疼	-13.0052
糓	-13.0052
翊	-13.0052
馭	-13.0052
姨	-13.0054
霞	-13.0054
昨	-13.0054
裟	-13.0054
駁	-13.0054
啞	-13.0055
遜	-13.0056
斜	-13.0056
洵	-13.0056
幹	-13.0056
脅	-13.0056
稜	-13.0056
贊	-13.0057
鳳	-13.0058
濬	-13.0058
嫡	-13.0058
町	-13.0058
卦	-13.006
奄	-13.006
禱	-13.0061
琢	-13.0062
咳	-13.0062
悒	-13.0064
秀	-13.0064
秭	-13.0064
碧	-13.0065
齩	-13.0066
鎔	-13.0066
偉	-13.0066
斑	-13.0066
拙	-13.0067
祛	-13.0068
鈇	-13.0068
汎	-13.007
鱠	-13.007
膽	-13.007
䆳	-13.007
謦	-13.0072
頡	-13.0072
□	-13.0072
孟	-13.0072
龠	-13.0076
鍊	-13.0099
扼	-13.0107
䔧	-13.4908
盎	-13.4933
𤚥	-13.4933
屹	-13.4942
𥄏	-13.4948
䣑	-13.4952
傘	-13.4955
瞢	-13.4961
臈	-13.4961
䯇	-13.4961
潢	-13.4964
鞬	-13.4967
哱	-13.4967
抳	-13.4967
嚟	-13.4967
萋	-13.4967
㕹	-13.497
斟	-13.497
貸	-13.4974
箱	-13.4974
􂎛	-13.4974
訕	-13.4977
裳	-13.4978
愕	-13.4979
哦	-13.498
抆	-13.498
跨	-13.498
㳄	-13.498
歔	-13.498
􂛇	-13.498
莘	-13.4983
迃	-13.4983
坒	-13.4983
撤	-13.4983
徤	-13.4986
杌	-13.4986
握	-13.4986
仳	-13.4986
侘	-13.4989
靼	-13.4989
倩	-13.4989
蜓	-13.4989
疐	-13.4989
紉	-13.4989
飼	-13.4989
培	-13.4992
㭰	-13.4993
嚼	-13.4993
耄	-13.4993
攘	-13.4993
槨	-13.4993
倀	-13.4993
瀏	-13.4993
膈	-13.4993
踝	-13.4993
闚	-13.4993
訊	-13.4993
俠	-13.4994
輞	-13.4996
菟	-13.4996
鴆	-13.4996
𢰗	-13.4996
篩	-13.4996
蘖	-13.4996
洒	-13.4997
醇	-13.4997
薜	-13.4999
蠻	-13.4999
窣	-13.4999
萏	-13.4999
軛	-13.4999
蠢	-13.4999
諊	-13.4999
踣	-13.4999
瑜	-13.4999
睱	-13.5002
鬀	-13.5002
攞	-13.5002
灸	-13.5002
烊	-13.5002
豔	-13.5002
埀	-13.5004
烽	-13.5004
苫	-13.5005
旗	-13.5005
頷	-13.5005
坘	-13.5005
塢	-13.5005
批	-13.5005
瞖	-13.5005
鐶	-13.5005
䥫	-13.5005
巛	-13.5005
摘	-13.5005
竿	-13.5005
霆	-13.5007
騁	-13.5008
儸	-13.5008
曄	-13.5008
棖	-13.5008
凸	-13.5008
匈	-13.5008
榆	-13.5008
滲	-13.5008
蹄	-13.5008
幔	-13.5008
頤	-13.5008
姙	-13.5008
遑	-13.5008
鑽	-13.5008
𥿫	-13.5008
寮	-13.5008
湛	-13.5009
舐	-13.5011
蠃	-13.5011
羇	-13.5011
㘕	-13.5011
緹	-13.5011
諶	-13.5011
貶	-13.5011
陿	-13.5011
羼	-13.5013
䖍	-13.5015
瘖	-13.5015
剚	-13.5015
臼	-13.5015
鐸	-13.5015
婉	-13.5015
獰	-13.5015
透	-13.5015
唅	-13.5015
毆	-13.5015
縠	-13.5015
衫	-13.5015
賑	-13.5015
跟	-13.5015
仲	-13.5016
插	-13.5018
呈	-13.5018
柯	-13.5018
樣	-13.5018
詶	-13.5018
􂌦	-13.5018
啖	-13.5018
岷	-13.5018
悛	-13.5018
慜	-13.5018
杳	-13.5018
涑	-13.5018
璽	-13.5018
痊	-13.5018
諄	-13.5018
酷	-13.5018
颰	-13.5018
頒	-13.5019
瑣	-13.502
噎	-13.5021
窖	-13.5021
􂍧	-13.5021
稿	-13.5021
𠍴	-13.5021
做	-13.5021
昉	-13.5021
訛	-13.5021
刖	-13.5021
哹	-13.5021
椒	-13.5021
繭	-13.5021
蔡	-13.5021
]	-13.5021
蕪	-13.5022
峰	-13.5022
浙	-13.5022
懱	-13.5024
輝	-13.5024
虀	-13.5024
媼	-13.5024
簷	-13.5024
㨗	-13.5024
埠	-13.5024
墳	-13.5024
峙	-13.5024
懲	-13.5024
矰	-13.5024
窅	-13.5024
糖	-13.5024
臛	-13.5024
茗	-13.5024
葂	-13.5024
裘	-13.5024
迥	-13.5024
𠎝	-13.5024
𤿺	-13.5024
秏	-13.5024
台	-13.5024
弁	-13.5026
虺	-13.5026
窊	-13.5027
盍	-13.5027
卸	-13.5027
佳	-13.5027
䏣	-13.5027
幬	-13.5027
廼	-13.5027
惕	-13.5027
措	-13.5027
确	-13.5027
禎	-13.5027
縫	-13.5027
脯	-13.5027
蝕	-13.5027
蟣	-13.5027
躓	-13.5027
愶	-13.5029
筐	-13.5029
樔	-13.503
󰪥	-13.503
椽	-13.503
鄂	-13.503
鑪	-13.503
侫	-13.503
偘	-13.503
刊	-13.503
劓	-13.503
効	-13.503
宓	-13.503
帙	-13.503
敻	-13.503
樸	-13.503
淊	-13.503
炳	-13.503
皓	-13.503
聿	-13.503
舂	-13.503
襟	-13.503
鋤	-13.503
閱	-13.503
騫	-13.503
儐	-13.5032
葶	-13.5033
駑	-13.5033
剜	-13.5033
洄	-13.5033
禧	-13.5033
蝗	-13.5033
嫗	-13.5033
煞	-13.5033
討	-13.5033
齅	-13.5033
旌	-13.5033
癊	-13.5033
臰	-13.5033
佷	-13.5035
𥎞	-13.5035
嚙	-13.5035
伶	-13.5035
狡	-13.5035
袖	-13.5035
𥇒	-13.5036
叛	-13.5036
痴	-13.5037
伍	-13.5037
黏	-13.5037
憫	-13.5037
瘤	-13.5037
盆	-13.5037
捍	-13.5037
緘	-13.5037
輙	-13.5037
垠	-13.5037
怵	-13.5037
桑	-13.5037
榜	-13.5037
瞀	-13.5037
評	-13.5037
焱	-13.504
奕	-13.504
淋	-13.504
燖	-13.504
采	-13.504
炮	-13.504
掖	-13.504
曚	-13.504
郊	-13.504
􂒖	-13.504
憔	-13.504
沿	-13.504
荊	-13.5043
猿	-13.5043
噫	-13.5043
譴	-13.5043
甦	-13.5043
瘟	-13.5043
磓	-13.5043
膺	-13.5043
僅	-13.5043
冊	-13.5043
瞙	-13.5044
繇	-13.5044
鵰	-13.5046
緻	-13.5046
亞	-13.5046
柢	-13.5046
濃	-13.5046
緯	-13.5046
貂	-13.5046
疥	-13.5046
䰅	-13.5046
姤	-13.5046
澓	-13.5046
𤦲	-13.5048
蟯	-13.5049
罹	-13.5049
儨	-13.5049
癈	-13.5049
舜	-13.5049
諠	-13.5049
倘	-13.5049
嗽	-13.5049
戎	-13.5049
携	-13.5049
黿	-13.5049
𠱀	-13.5052
癲	-13.5052
鏘	-13.5052
模	-13.5052
舶	-13.5052
藻	-13.5052
餉	-13.5052
駭	-13.5052
擗	-13.5052
酉	-13.5052
叩	-13.5052
峨	-13.5052
鶴	-13.5052
􂛋	-13.5052
烔	-13.5054
嘶	-13.5055
嚝	-13.5055
竦	-13.5055
糾	-13.5056
紏	-13.5056
厓	-13.5056
囂	-13.5056
彎	-13.5056
懽	-13.5056
滄	-13.5056
篇	-13.5056
鯉	-13.5056
泊	-13.5059
懟	-13.5059
俸	-13.5059
媒	-13.5059
瘞	-13.5059
癎	-13.5059
臆	-13.5059
𦟛	-13.5059
乚	-13.5059
恙	-13.5059
薀	-13.5059
𠲿	-13.5059
栰	-13.506
些	-13.5062
勾	-13.5062
拆	-13.5062
諵	-13.5065
慨	-13.5065
夥	-13.5065
汪	-13.5065
瘵	-13.5065
恆	-13.5067
瀉	-13.5068
亹	-13.5068
歛	-13.5068
猩	-13.5068
錙	-13.5068
廻	-13.5071
禳	-13.5071
汲	-13.5071
亟	-13.5071
驕	-13.5071
丞	-13.5071
宦	-13.5071
貲	-13.5073
勺	-13.5073
彫	-13.5074
伻	-13.5074
藶	-13.5074
貰	-13.5074
羲	-13.5078
膜	-13.5078
嶺	-13.5078
邀	-13.5078
殻	-13.5078
蕭	-13.5081
矚	-13.5081
桴	-13.5081
稔	-13.5084
玷	-13.5084
轄	-13.5087
驎	-13.5089
饉	-13.5096
枙	-13.5097
觭	-13.5097
迺	-13.5106
縇	-13.5119
𦙽	-13.5119
荳	-13.5144
㰠	-14.4865
㗣	-14.4873
􂚽	-14.4875
𪘨	-14.4876
𩢨	-14.4877
𧿡	-14.4878
𧙯	-14.4879
𥢶	-14.488
𤳖	-14.4881
𣫢	-14.4882
𢈔	-14.4883
𡓄	-14.4884
𡍫	-14.4885
𡋯	-14.4886
𡄇	-14.4887
𡀩	-14.4888
𠰘	-14.4889
鼨	-14.489
黛	-14.4891
髠	-14.4892
餌	-14.4893
霖	-14.4894
鐙	-14.4895
鐐	-14.4896
鎞	-14.4897
鍱	-14.4898
鋟	-14.4899
釿	-14.49
郵	-14.4901
邠	-14.4902
遨	-14.4903
逶	-14.4904
貓	-14.4905
貍	-14.4906
誷	-14.4907
誥	-14.4908
觴	-14.4909
覔	-14.491
褒	-14.4911
褁	-14.4912
裓	-14.4913
蜘	-14.4914
蜈	-14.4915
蛟	-14.4916
蛛	-14.4917
蚣	-14.4918
蚑	-14.4919
蔬	-14.492
蓉	-14.4921
茵	-14.4922
芙	-14.4923
膇	-14.4924
肚	-14.4925
纜	-14.4926
縟	-14.4927
緇	-14.4928
綩	-14.4929
䩛	-14.4929
俎	-14.4929
絓	-14.493
笥	-14.4931
窺	-14.4932
窄	-14.4933
磁	-14.4934
眩	-14.4935
甖	-14.4936
瓈	-14.4937
瑰	-14.4938
琳	-14.4939
珀	-14.494
玃	-14.4941
猨	-14.4942
狸	-14.4943
狴	-14.4944
狠	-14.4945
芩	-14.4946
袪	-14.4946
牸	-14.4946
牲	-14.4947
熊	-14.4948
熄	-14.4949
烝	-14.495
濼	-14.4951
濱	-14.4952
漱	-14.4953
慄	-14.4953
湔	-14.4954
湏	-14.4955
淮	-14.4956
沛	-14.4957
汩	-14.4958
欹	-14.4959
欠	-14.496
構	-14.4961
榴	-14.4962
森	-14.4963
梗	-14.4964
枵	-14.4965
材	-14.4966
朅	-14.4967
敕	-14.4968
攪	-14.4969
膖	-14.497
㖿	-14.497
撈	-14.497
戕	-14.4971
慣	-14.4972
悍	-14.4973
恀	-14.4974
徽	-14.4975
徘	-14.4976
徊	-14.4977
馥	-14.4978
彗	-14.4978
廩	-14.4979
庚	-14.498
帑	-14.4981
孃	-14.4982
埴	-14.4983
嚇	-14.4984
嚀	-14.4985
叡	-14.4985
㞢	-14.4986
㻲	-14.4986
侸	-14.4986
課	-14.4986
嘖	-14.4986
喫	-14.4987
喑	-14.4988
哮	-14.4989
呾	-14.499
呻	-14.4991
呌	-14.4992
叮	-14.4993
蔔	-14.4993
㲣	-14.4994
㲪	-14.4994
䩯	-14.4994
亥	-14.4994
叭	-14.4994
凢	-14.4995
儴	-14.4996
儲	-14.4997
儆	-14.4998
乑	-14.4999
操	-14.4999
䴰	-14.5
䦱	-14.5001
萇	-14.5001
㳂	-14.5002
㹠	-14.5002
䠒	-14.5002
䫌	-14.5002
䖟	-14.5003
㲉	-14.5004
㮈	-14.5005
㖪	-14.5006
黜	-14.5007
鸞	-14.5008
熒	-14.5009
鵡	-14.5009
羖	-14.5009
靂	-14.501
䂎	-14.501
䑛	-14.501
伉	-14.501
佑	-14.501
闑	-14.5011
閫	-14.5012
閇	-14.5013
鍮	-14.5014
庠	-14.5014
癩	-14.5014
鉛	-14.5015
軻	-14.5016
僊	-14.5016
剡	-14.5016
喘	-14.5016
軒	-14.5017
讁	-14.5018
賃	-14.5018
㜸	-14.5018
㧧	-14.5018
䬸	-14.5018
串	-14.5018
体	-14.5018
謑	-14.5019
觔	-14.502
複	-14.5021
蟇	-14.5022
蝦	-14.5023
萄	-14.5024
菉	-14.5025
舫	-14.5026
佈	-14.5026
佡	-14.5026
俊	-14.5026
俛	-14.5026
倿	-14.5026
籬	-14.5026
蹹	-14.5026
禹	-14.5027
盞	-14.5028
瘀	-14.5029
琶	-14.503
琵	-14.5031
犛	-14.5032
燁	-14.5033
炰	-14.5034
瑚	-14.5034
㲖	-14.5034
䟽	-14.5034
乇	-14.5034
侏	-14.5034
脹	-14.5034
涵	-14.5035
泔	-14.5036
櫓	-14.5037
槁	-14.5038
曆	-14.5039
悷	-14.504
恢	-14.5041
豹	-14.5041
豺	-14.5042
崑	-14.5042
爵	-14.5042
䆿	-14.5042
你	-14.5042
倐	-14.5042
弈	-14.5042
島	-14.5043
宙	-14.5044
娠	-14.5045
姚	-14.5046
塜	-14.5047
圊	-14.5048
噤	-14.5049
嗤	-14.505
䁥	-14.505
䩭	-14.505
僻	-14.505
喙	-14.505
咻	-14.5051
匃	-14.5052
􂛁	-14.5053
鷂	-14.5054
馺	-14.5055
鄯	-14.5056
粲	-14.5057
沼	-14.5057
畋	-14.5058
械	-14.5058
㰆	-14.5058
丂	-14.5058
倖	-14.5058
璧	-14.5059
瑪	-14.506
狄	-14.5061
灼	-14.5062
欻	-14.5063
掁	-14.5064
寞	-14.5065
恍	-14.5065
匱	-14.5065
蔗	-14.5066
麞	-14.5066
忒	-14.5066
慞	-14.5066
穡	-14.5066
佚	-14.5066
帀	-14.5067
孜	-14.5068
妷	-14.5069
埃	-14.507
副	-14.5071
倣	-14.5072
义	-14.5073
啾	-14.5073
㧣	-14.5074
謫	-14.5074
楯	-14.5074
䦧	-14.5074
倨	-14.5074
尫	-14.5074
𨪏	-14.5075
𤴽	-14.5076
𡃳	-14.5077
髑	-14.5078
冑	-14.5078
鏫	-14.5079
迨	-14.508
辜	-14.5081
戇	-14.5081
踴	-14.5082
䘖	-14.5082
亶	-14.5082
伹	-14.5082
跏	-14.5083
譫	-14.5084
繽	-14.5085
繁	-14.5086
々	-14.5086
甜	-14.5087
玼	-14.5088
溉	-14.5089
棚	-14.509
〡	-14.509
䢖	-14.509
慙	-14.5091
愎	-14.5092
堆	-14.5093
圄	-14.5094
囹	-14.5095
儼	-14.5096
㗭	-14.5097
𥝟	-14.5098
袈	-14.5098
㙠	-14.5098
杻	-14.5098
裸	-14.5099
沌	-14.51
杇	-14.5101
惒	-14.5102
孩	-14.5103
婚	-14.5104
姝	-14.5105
嘷	-14.5106
蜎	-14.5107
舅	-14.5108
撞	-14.5109
恪	-14.511
貿	-14.5111
榻	-14.5112
惚	-14.5113
〕	-14.5114
䴸	-14.5114
仞	-14.5114
擒	-14.5114
魎	-14.5115
謚	-14.5116
訾	-14.5117
葦	-14.5118
嬉	-14.5119
>	-14.512
魍	-14.5121
蠕	-14.5122
傭	-14.5122
琰	-14.5123
岌	-14.5124
妊	-14.5125
万	-14.5126
闐	-14.5127
瑠	-14.5128
臧	-14.5129
粳	-14.513
𣣋	-14.513
僮	-14.5131
輾	-14.5132
虻	-14.5133
淤	-14.5133
懶	-14.5134
懊	-14.5135
瀑	-14.5136
鄔	-14.5137
篌	-14.5138
优	-14.5138
箜	-14.5139
醐	-14.514
醍	-14.5141
穬	-14.5142
礫	-14.5143
憺	-14.5144
+	-14.5145
蕉	-14.5146
販	-14.5146
芭	-14.5147
獼	-14.5148
迭	-14.5149
澡	-14.515
臚	-14.5151
瑙	-14.5152
尒	-14.5153
詈	-14.5154
諛	-14.5155
婇	-14.5156
袒	-14.5157
娛	-14.5158
攀	-14.5159
o	-14.516
N	-14.5161
殑	-14.5162
臾	-14.5163
呰	-14.5164
琉	-14.5165
璃	-14.5166
巍	-14.5167
忉	-14.5168
罣	-14.5169
苾	-14.517
—	-14.5171
