<unk>	0
<s>	0
</s>	0
/	-3.93109
之	-4.30217
)	-4.41806
(	-4.43936
以	-4.54342
為	-4.72426
)(	-4.88816
也	-5.00062
而	-5.11474
其	-5.33157
者	-5.35745
曰	-5.44818
有	-5.49137
不	-5.50089
於	-5.50537
王	-5.52625
人	-5.57722
自	-5.71841
與	-5.72285
上	-5.72325
至	-5.82262
言	-5.84821
及	-5.86113
事	-5.89272
則	-5.90932
大	-5.92963
使	-5.99504
等	-6.03053
所	-6.04025
在	-6.06449
無	-6.08139
一	-6.08831
于	-6.12118
官	-6.12895
詔	-6.13036
皆	-6.14972
今	-6.15339
行	-6.15658
州	-6.16249
知	-6.20994
時	-6.21489
兵	-6.21606
令	-6.22467
中	-6.26194
乃	-6.26716
子	-6.27138
又	-6.28551
故	-6.29087
此	-6.29175
帝	-6.30366
復	-6.30522
出	-6.32325
軍	-6.33762
書	-6.40432
如	-6.40763
下	-6.41269
臣	-6.41731
入	-6.44809
命	-6.46266
翻	-6.46499
將	-6.46614
亦	-6.47392
遂	-6.47519
欲	-6.48195
當	-6.48293
國	-6.48728
已	-6.49287
三	-6.49742
李	-6.49797
得	-6.50189
公	-6.50549
矣	-6.5246
見	-6.52799
文	-6.5409
用	-6.54223
城	-6.54804
切	-6.5653
請	-6.57037
道	-6.57549
非	-6.57648
安	-6.58412
可	-6.58754
立	-6.58881
張	-6.58999
▁	-6.59864
謂	-6.60654
即	-6.61649
從	-6.63172
後	-6.63991
民	-6.64821
日	-6.65466
初	-6.65839
奏	-6.67046
明	-6.67437
相	-6.68507
元	-6.68608
若	-6.69694
二	-6.6971
同	-6.72204
正	-6.73534
然	-6.74797
多	-6.75158
因	-6.75169
名	-6.7633
陳	-6.77857
天	-6.79867
未	-6.80121
遣	-6.82009
是	-6.82045
成	-6.82201
縣	-6.82488
方	-6.82745
必	-6.82912
先	-6.8304
漢	-6.83124
本	-6.83165
南	-6.8376
置	-6.8425
山	-6.85373
平	-6.85645
死	-6.86283
劉	-6.87323
作	-6.87606
進	-6.8787
五	-6.88077
歸	-6.89366
既	-6.89705
法	-6.89751
水	-6.89925
前	-6.90165
取	-6.91577
守	-6.91649
西	-6.93751
何	-6.93893
馬	-6.94218
周	-6.95384
聞	-6.95785
定	-6.96618
地	-6.97072
居	-6.97518
去	-6.99171
東	-6.99235
四	-6.99526
重	-6.99587
或	-6.99958
武	-6.9996
魏	-7.00555
郡	-7.00889
分	-7.01285
賊	-7.01448
降	-7.01516
云	-7.01985
還	-7.02301
始	-7.02708
卒	-7.02821
朝廷	-7.03244
雖	-7.04195
北	-7.04217
長	-7.04734
數	-7.05324
金	-7.05404
府	-7.06081
議	-7.06188
年	-7.06514
宜	-7.0676
生	-7.07024
且	-7.07126
陛下	-7.07787
徳	-7.07824
外	-7.07954
並	-7.08219
罷	-7.08306
殺	-7.09579
賜	-7.10172
以為	-7.112
乎	-7.11592
治	-7.1172
師	-7.12064
内	-7.12449
氏	-7.13892
義	-7.14256
趙	-7.14847
通	-7.14862
實	-7.14869
禮	-7.14903
盡	-7.15029
我	-7.15351
天下	-7.15751
司	-7.15819
修	-7.16202
唐	-7.16352
來	-7.16772
不可	-7.16916
㑹	-7.17314
河	-7.17422
主	-7.17444
門	-7.17771
家	-7.17827
封	-7.19759
音	-7.19779
乞	-7.19961
稱	-7.20169
君	-7.20535
諸	-7.20561
合	-7.2062
錢	-7.20723
改	-7.20812
字	-7.21387
舉	-7.21443
求	-7.2153
常	-7.21779
興	-7.21935
發	-7.22296
傳	-7.22398
士	-7.22673
能	-7.22928
除	-7.2306
任	-7.24286
陽	-7.24596
制	-7.24652
朝	-7.2492
按	-7.25022
齊	-7.2526
直	-7.25666
衆	-7.25795
晉	-7.26505
秦	-7.26811
都	-7.27703
親	-7.27865
世	-7.28847
惟	-7.29294
問	-7.29633
力	-7.29639
屬	-7.29654
許	-7.30188
六	-7.30391
召	-7.30593
不能	-7.30844
權	-7.31089
宗	-7.31821
爲	-7.3241
加	-7.3265
意	-7.33017
各	-7.33112
宋	-7.33245
新	-7.33472
政	-7.33623
論	-7.33653
髙	-7.34947
耳	-7.35118
田	-7.35172
應	-7.35338
古	-7.35339
計	-7.35603
過	-7.35637
更	-7.35836
心	-7.36477
善	-7.36723
甚	-7.37387
和	-7.37932
石	-7.37952
起	-7.38053
小	-7.39111
罪	-7.39123
舊	-7.39799
據	-7.39933
光	-7.40107
謀	-7.40481
信	-7.40491
鎮	-7.40553
服	-7.40731
攻	-7.40905
廣	-7.41212
楊	-7.41578
凡	-7.41992
敵	-7.42197
固	-7.42571
梁	-7.43174
受	-7.43217
焉	-7.43486
失	-7.43491
路	-7.43699
兩	-7.43881
處	-7.43941
坐	-7.44591
益	-7.44675
戰	-7.44686
留	-7.4474
經	-7.45093
白	-7.45404
吏	-7.45962
奉	-7.46049
爾	-7.46555
侯	-7.46644
近	-7.47056
利	-7.47679
恐	-7.47727
深	-7.48022
保	-7.4812
兼	-7.48231
逺	-7.48321
吾	-7.48731
易	-7.49328
難	-7.49467
忠	-7.50244
致	-7.50376
孫	-7.5107
止	-7.51282
江	-7.52094
廢	-7.53298
口	-7.53892
九	-7.55049
陵	-7.55215
節	-7.55308
建	-7.55323
特	-7.55489
章	-7.55676
猶	-7.55991
省	-7.56201
告	-7.56267
志	-7.56298
次	-7.56375
少	-7.56379
開	-7.56715
宫	-7.56934
思	-7.57066
免	-7.57648
夫	-7.58814
十	-7.59948
悉	-7.60565
尚	-7.60793
引	-7.60932
卿	-7.61043
樂	-7.61734
從之	-7.62109
夏	-7.6238
○	-7.6246
獨	-7.63017
食	-7.63095
望	-7.63312
不得	-7.63772
給	-7.64005
朕	-7.6409
辭	-7.64114
太	-7.64162
具	-7.64212
敗	-7.64525
功	-7.64874
反	-7.65122
威	-7.65576
度	-7.65732
史	-7.66342
宣	-7.6657
納	-7.66624
位	-7.66703
理	-7.67145
職	-7.67172
并	-7.67406
克	-7.67511
清	-7.67648
帥	-7.67728
仍	-7.68184
但	-7.6883
海	-7.69067
承	-7.6916
率	-7.6941
流	-7.69691
左	-7.69752
觀	-7.70175
七	-7.70262
遷	-7.70609
寧	-7.70621
比	-7.70978
德	-7.71461
嘗	-7.7185
就	-7.72004
充	-7.72108
别	-7.72173
伯	-7.72268
楚	-7.72656
間	-7.72794
亂	-7.72863
代	-7.7339
萬	-7.73412
濟	-7.73534
孝	-7.73637
仁	-7.74133
祖	-7.74206
嵗	-7.74442
備	-7.74527
往	-7.74529
衛	-7.74559
賢	-7.74789
圖	-7.74867
后	-7.7492
誅	-7.75007
物	-7.75038
語	-7.75192
共	-7.75456
胡	-7.75579
紀	-7.75888
獻	-7.76102
景	-7.76121
昭	-7.76231
布	-7.76553
永	-7.76576
昌	-7.7664
擊	-7.771
八	-7.77124
異	-7.77524
龍	-7.7782
父	-7.78709
元年	-7.78731
首	-7.78731
順	-7.78925
黄	-7.79134
至是	-7.79255
三年	-7.79363
延	-7.7957
部	-7.80166
營	-7.80593
太子	-7.80789
便	-7.8088
誠	-7.80897
聖	-7.81068
二年	-7.8107
執	-7.81477
百	-7.81668
御	-7.8178
監	-7.8188
月	-7.8196
右	-7.82105
吳	-7.8228
殿	-7.8249
餘	-7.82597
勝	-7.8276
太后	-7.82799
将	-7.83307
身	-7.83676
所以	-7.8368
鄭	-7.8381
上曰	-7.84045
先是	-7.8414
選	-7.8441
遇	-7.84431
載	-7.84689
學	-7.84747
徐	-7.84829
恩	-7.85043
依	-7.85048
表	-7.85174
移	-7.85215
拜	-7.85566
亡	-7.8562
對	-7.85863
送	-7.86057
務	-7.86752
全	-7.86827
退	-7.86852
變	-7.86939
於是	-7.87119
破	-7.87215
大臣	-7.88047
收	-7.88231
仲	-7.8857
韓	-7.88642
私	-7.89033
如此	-7.89071
疑	-7.89096
左右	-7.8911
輕	-7.8917
試	-7.89238
報	-7.89369
幸	-7.89603
差	-7.89664
領	-7.89681
再	-7.89908
終	-7.90064
神	-7.90173
臨	-7.90479
曹	-7.90571
追	-7.90612
願	-7.90834
土	-7.90947
良	-7.9098
附	-7.91897
邊	-7.91915
申	-7.91944
號	-7.91963
朱	-7.92075
要	-7.92329
將軍	-7.92421
哉	-7.92692
禁	-7.92881
户	-7.93035
闕	-7.93211
厚	-7.93304
徒	-7.93385
三月	-7.93407
崇	-7.93495
不敢	-7.93505
討	-7.9397
母	-7.94334
貴	-7.95168
燕	-7.95182
解	-7.95386
責	-7.95802
魯	-7.95845
每	-7.96199
惡	-7.96326
授	-7.96394
京	-7.96573
疾	-7.97038
汝	-7.97181
老	-7.97317
集	-7.97555
女	-7.97757
慶	-7.97778
走	-7.9779
約	-7.98415
説	-7.9842
須	-7.98431
里	-7.98541
好	-7.98594
素	-7.99094
由	-7.99241
遣使	-7.99497
林	-7.9952
豈	-8.00438
徙	-8.00958
絶	-8.01103
朔	-8.01186
節度使	-8.01384
俱	-8.01401
録	-8.01567
屯	-8.0184
伐	-8.02056
賞	-8.02445
契丹	-8.02453
丁	-8.02574
被	-8.0276
盖	-8.02932
車	-8.0309
考	-8.03099
邪	-8.03232
六月	-8.03385
嚴	-8.03452
盛	-8.03539
彼	-8.03571
州刺史	-8.03622
繼	-8.03657
春	-8.04051
謝	-8.04059
設	-8.04634
存	-8.04682
而不	-8.05208
犯	-8.05256
才	-8.05257
遺	-8.05489
華	-8.0556
高	-8.05963
九月	-8.05966
夜	-8.05973
籍	-8.06041
視	-8.06156
補	-8.06271
勿	-8.06991
久	-8.07523
諭	-8.07577
容	-8.07705
斷	-8.07858
皇帝	-8.08252
業	-8.08629
▁(	-8.0865
連	-8.09537
蜀	-8.09658
察	-8.0982
聽	-8.09862
懼	-8.09979
福	-8.10006
隂	-8.10736
赴	-8.11334
弟	-8.11495
持	-8.11611
顯	-8.11761
向	-8.11978
委	-8.11985
伏	-8.12015
嘉	-8.12026
急	-8.12088
騎	-8.12448
怒	-8.12482
奔	-8.12818
慮	-8.12862
動	-8.12873
聲	-8.1299
支	-8.13101
害	-8.13122
交	-8.13508
蓋	-8.13567
塞	-8.1375
獄	-8.13785
寳	-8.13883
風	-8.13913
二月	-8.14119
皇	-8.14197
不知	-8.14269
敬	-8.14615
邑	-8.14857
廟	-8.14932
郭	-8.14953
隨	-8.1496
造	-8.14977
例	-8.14982
詣	-8.15029
八月	-8.15276
院	-8.15628
彦	-8.15663
誤	-8.15691
散	-8.15821
闗	-8.15841
著	-8.15963
化	-8.1657
登	-8.16596
莫	-8.1666
圍	-8.16684
斬	-8.16828
養	-8.1711
極	-8.17121
結	-8.17181
憂	-8.17223
懐	-8.17243
專	-8.17288
叛	-8.17289
五月	-8.17313
推	-8.17515
果	-8.17852
康	-8.18145
獲	-8.18651
尚書	-8.18825
金人	-8.18894
列	-8.18902
刑	-8.18903
救	-8.18918
指	-8.19352
怨	-8.19355
第	-8.19399
足	-8.19438
川	-8.19792
役	-8.19862
木	-8.19916
夷	-8.20223
襲	-8.20303
尊	-8.2033
越	-8.204
儀	-8.20554
顧	-8.20998
郎	-8.21036
衣	-8.21088
端	-8.21306
注	-8.2159
迎	-8.2173
十二月	-8.21816
恭	-8.21921
寨	-8.22151
原	-8.22282
達	-8.22643
教	-8.22741
薦	-8.23087
嗣	-8.23115
宰相	-8.23233
况	-8.23803
待	-8.24038
宻	-8.24342
甲	-8.24356
温	-8.24371
尋	-8.24538
天子	-8.24909
逐	-8.24933
市	-8.24999
息	-8.25044
積	-8.25268
典	-8.25742
叔	-8.25801
色	-8.25876
京師	-8.26018
而已	-8.26109
輔	-8.2639
族	-8.26673
臺	-8.26746
疏	-8.26779
記	-8.26926
勞	-8.26935
中書	-8.27141
青	-8.27251
吉	-8.27476
運	-8.27516
火	-8.27544
河北	-8.27555
喜	-8.27655
資	-8.28201
吕	-8.28469
真	-8.2856
四年	-8.28904
十一月	-8.29512
玉	-8.29583
祭	-8.29969
増	-8.301
病	-8.30136
氣	-8.30746
羣臣	-8.3141
勸	-8.31597
關	-8.31758
戒	-8.32002
蘇	-8.32115
可以	-8.32248
到	-8.32458
謂之	-8.32485
勢	-8.32603
鹽	-8.32643
狀	-8.32703
以來	-8.32743
手	-8.32779
期	-8.32933
貶	-8.32947
目	-8.333
陷	-8.33388
滅	-8.33475
杜	-8.33554
稍	-8.33739
羅	-8.33844
副	-8.33922
室	-8.34001
秋	-8.34025
决	-8.34086
乗	-8.34114
冦	-8.34149
放	-8.34234
堅	-8.34642
蔡	-8.34671
費	-8.34992
之地	-8.35025
升	-8.35028
之人	-8.35123
逆	-8.3513
避	-8.35512
棄	-8.35693
簡	-8.35891
敢	-8.35893
無所	-8.3596
雲	-8.3612
榮	-8.36239
卷	-8.36392
御史	-8.36576
阿	-8.36714
呼	-8.36763
䇿	-8.36987
畏	-8.37048
減	-8.37156
密	-8.37218
擇	-8.37382
候	-8.37423
泰	-8.37669
州縣	-8.37699
勒	-8.37988
班	-8.38035
條	-8.38206
孟	-8.38451
情	-8.38631
千	-8.38838
詳	-8.38861
烏	-8.3905
鼎	-8.39183
庶	-8.393
皇后	-8.39426
祀	-8.39633
葢	-8.39658
諸將	-8.39781
撫	-8.39893
呉	-8.4001
奪	-8.40274
他	-8.40338
酒	-8.40395
博	-8.40514
黨	-8.40691
夏四月	-8.4077
憲	-8.40817
愛	-8.40934
以聞	-8.41413
征	-8.4143
洛	-8.41431
亮	-8.41636
之意	-8.41904
己	-8.42056
付	-8.42147
姓	-8.42269
季	-8.4236
頗	-8.42417
殺之	-8.42454
鄉	-8.42737
草	-8.42838
河南	-8.42843
赦	-8.43105
累	-8.4327
澤	-8.43456
不足	-8.43527
援	-8.43651
之後	-8.43755
患	-8.43961
招	-8.44012
侵	-8.44107
隆	-8.44313
邉	-8.44386
冬十月	-8.44501
統	-8.44585
諸路	-8.44596
諫	-8.44683
賀	-8.44857
回	-8.44888
屢	-8.45109
商	-8.45244
咸	-8.45369
羣	-8.45485
尤	-8.45544
然後	-8.45931
河東	-8.46264
蕭	-8.46367
說	-8.46502
格	-8.46623
太祖	-8.46718
體	-8.46786
頭	-8.46862
指揮	-8.46896
習	-8.4691
百姓	-8.46952
浚	-8.4732
假	-8.47357
參	-8.47378
陜西	-8.47383
斯	-8.47399
折	-8.47559
轉	-8.47659
乆	-8.47877
遼	-8.4792
督	-8.48002
戎	-8.48125
諸侯	-8.4824
秋七月	-8.48425
謹	-8.48546
春秋	-8.48559
傷	-8.48636
范	-8.49034
米	-8.49078
曽	-8.49102
雄	-8.49364
薄	-8.49663
由是	-8.49727
舟	-8.49754
五年	-8.49793
太守	-8.49989
寺	-8.49994
國家	-8.50075
乘	-8.50127
糧	-8.50206
界	-8.50285
强	-8.50458
負	-8.50771
大夫	-8.50799
曲	-8.50964
縱	-8.51166
来	-8.51326
英	-8.51407
美	-8.51415
有司	-8.51443
科	-8.51614
審	-8.5169
諸軍	-8.5177
敕	-8.52006
畢	-8.52145
違	-8.52507
淵	-8.52536
振	-8.52602
希	-8.52606
客	-8.52708
休	-8.52764
歴	-8.52793
實録	-8.52794
掌	-8.52802
寛	-8.52818
耶	-8.52849
聚	-8.53051
釋	-8.53364
二人	-8.53708
示	-8.53803
施行	-8.5395
末	-8.54031
讀	-8.54109
器	-8.54216
射	-8.54269
決	-8.54274
雍	-8.54295
爭	-8.54481
類	-8.54658
靈	-8.54833
畧	-8.54918
盧	-8.55053
質	-8.55157
允	-8.55385
額	-8.55426
淮	-8.55522
程	-8.55712
寵	-8.55717
豐	-8.55762
均	-8.55796
佐	-8.56081
安石	-8.56084
爵	-8.56118
機	-8.56224
巴	-8.5633
虎	-8.56332
智	-8.56511
飛	-8.56534
蠻	-8.56647
偽	-8.5672
勇	-8.57301
適	-8.57371
性	-8.57384
妻	-8.57426
妄	-8.5766
一人	-8.57878
工	-8.58137
配	-8.58276
綱	-8.58423
面	-8.58635
判	-8.58655
執政	-8.58824
限	-8.58889
劾	-8.58978
既而	-8.59127
百官	-8.59244
危	-8.59341
惠	-8.59354
牛	-8.59444
侍	-8.59468
虜	-8.59542
昔	-8.59796
衡	-8.59805
管	-8.59975
俊	-8.60077
姦	-8.60307
聞之	-8.60383
𤣥	-8.60589
縁	-8.60658
星	-8.61121
竒	-8.6116
符	-8.61171
茍	-8.61197
紹	-8.61356
夀	-8.61389
㫖	-8.61827
野	-8.61852
其後	-8.6194
漸	-8.61985
施	-8.62145
不許	-8.62207
俟	-8.62306
藏	-8.6246
横	-8.62562
禍	-8.6266
助	-8.62738
庭	-8.62835
故事	-8.62932
略	-8.62978
量	-8.6334
未嘗	-8.63424
離	-8.63492
速	-8.63572
案	-8.63618
太宗	-8.63706
歲	-8.63894
宿	-8.63924
精	-8.64208
𢎞	-8.64261
舍	-8.64382
今日	-8.64623
丞相	-8.64672
虞	-8.64751
冬	-8.64838
庫	-8.64949
薨	-8.65081
彊	-8.65103
傅	-8.65192
司馬	-8.65288
廷	-8.65328
賈	-8.65599
雨	-8.65619
喪	-8.6564
肅	-8.65707
孔	-8.6572
今從	-8.65835
賦	-8.65958
震	-8.66215
䕶	-8.66276
徃	-8.66397
總	-8.6664
以下	-8.66669
先帝	-8.66709
戸	-8.66712
弱	-8.66806
員	-8.66945
輸	-8.67056
雅	-8.67195
隋	-8.67216
境	-8.67331
師古曰	-8.67502
防	-8.67513
祠	-8.67574
所謂	-8.67669
友	-8.67931
長安	-8.67994
谷	-8.68052
覆	-8.68142
丘	-8.68228
却	-8.68289
揚	-8.68517
渠	-8.68528
崔	-8.68565
索	-8.68624
優	-8.6864
以上	-8.68764
為之	-8.68856
中外	-8.689
房	-8.68912
殷	-8.68977
富	-8.68996
循	-8.69035
謙	-8.69092
儒	-8.69102
匈奴	-8.69116
財	-8.69374
有所	-8.69439
講	-8.69518
一日	-8.6958
之事	-8.69699
貫	-8.69865
之間	-8.69924
詩	-8.69942
竊	-8.7
茂	-8.70034
哀	-8.70046
律	-8.70096
遽	-8.701
堂	-8.70341
預	-8.70432
曰吾	-8.70485
會	-8.70733
頃	-8.70799
逹	-8.71056
沈	-8.71168
困	-8.71442
戍	-8.71447
馳	-8.7154
旦	-8.71853
淮南	-8.71904
捕	-8.71951
乾	-8.71956
詞	-8.721
對曰	-8.72128
故也	-8.72203
築	-8.72249
調	-8.72433
遵	-8.72538
洪	-8.7268
干	-8.72721
投	-8.728
錫	-8.72874
辨	-8.72892
提舉	-8.73179
禄	-8.73218
䝉	-8.73278
象	-8.73337
寜	-8.7337
厯	-8.73406
懷	-8.73463
自今	-8.73477
毎	-8.73596
穆	-8.7374
讓	-8.73796
貢	-8.73808
贈	-8.74054
何以	-8.741
弗	-8.74172
雜	-8.74175
即位	-8.7428
接	-8.7432
革	-8.74324
趨	-8.7433
閣	-8.7435
虚	-8.74397
操	-8.74397
紀修	-8.74623
滿	-8.74629
宴	-8.74632
苦	-8.74682
毁	-8.74737
訓	-8.74754
唯	-8.7486
暴	-8.75198
敦	-8.75205
副使	-8.75312
校	-8.75539
是日	-8.75733
倉	-8.75793
念	-8.75838
未有	-8.76714
六年	-8.77014
蒲	-8.77053
係	-8.77078
買	-8.7712
之心	-8.77291
險	-8.77317
銀	-8.77648
農	-8.77803
馮	-8.77828
至於	-8.78085
之子	-8.78151
不從	-8.78274
擢	-8.78316
屈	-8.78319
繫	-8.78349
源	-8.78488
沙	-8.78572
伊	-8.78783
種	-8.78799
策	-8.78962
蕃	-8.79034
超	-8.79049
冀	-8.79101
孤	-8.79241
董	-8.79278
丞	-8.79491
式	-8.79928
兄	-8.80321
祖宗	-8.80348
薛	-8.80462
其事	-8.80538
識	-8.80569
維	-8.80633
四方	-8.8068
趣	-8.81071
税	-8.81094
郊	-8.8112
損	-8.81457
韋	-8.8177
貞	-8.82029
是月	-8.82515
衰	-8.82582
弼	-8.82682
豫	-8.8274
給事中	-8.82754
之言	-8.83086
葬	-8.8311
落	-8.83216
陣	-8.833
微	-8.83306
者也	-8.83316
愈	-8.83347
巻	-8.83352
都督	-8.83497
也今	-8.83607
陸	-8.83881
逃	-8.83964
𨽻	-8.84238
湯	-8.84251
君子	-8.84263
盟	-8.84297
垂	-8.84387
勲	-8.8448
欽	-8.84548
毋	-8.84632
十二	-8.84702
諸州	-8.84929
自是	-8.85046
姚	-8.85047
刺	-8.85067
襄	-8.85142
其子	-8.85246
𫝊	-8.85272
效	-8.85298
不當	-8.85298
者皆	-8.85784
甫	-8.85808
之法	-8.85848
予	-8.85858
貪	-8.85947
不及	-8.85973
二十	-8.85983
倫	-8.86062
幾	-8.86175
羊	-8.86264
盗	-8.86372
窮	-8.86417
羌	-8.8648
最	-8.86768
葉	-8.86945
彭	-8.8709
秀	-8.87192
材	-8.87497
掠	-8.87654
小人	-8.87766
中國	-8.87948
普	-8.87959
仰	-8.87996
背	-8.88086
又言	-8.88129
専	-8.88134
拒	-8.88146
詐	-8.88656
畫	-8.88715
上書	-8.88832
誣	-8.88859
官吏	-8.88897
僧	-8.89119
橋	-8.89269
牧	-8.8947
沮	-8.89572
寶	-8.89594
削	-8.89669
賣	-8.89828
尺	-8.9029
兒	-8.90388
錄	-8.90496
利害	-8.90705
斥	-8.90775
争	-8.90789
飲	-8.90804
之所	-8.90883
弊	-8.90913
裕	-8.91071
轉運使	-8.91184
魚	-8.9121
東南	-8.91468
金主	-8.91498
江南	-8.91513
殊	-8.91773
烈	-8.91901
半	-8.91941
引兵	-8.9208
愚	-8.92087
于是	-8.92334
曰此	-8.9245
徴	-8.92548
似	-8.92779
湖	-8.92838
秩	-8.92865
早	-8.92878
導	-8.93044
冠	-8.93062
政事	-8.93085
船	-8.93222
印	-8.93225
魏主	-8.93374
禹	-8.93454
士卒	-8.93606
考異曰	-8.93662
尹	-8.93703
舜	-8.9377
兄弟	-8.93857
不復	-8.94254
擒	-8.94322
借	-8.94344
之時	-8.94422
三司	-8.9453
增	-8.94571
洛陽	-8.94667
帶	-8.94696
妃	-8.94699
輙	-8.94997
空	-8.95045
通鑑	-8.95046
脩	-8.95063
鄧	-8.95261
不過	-8.95389
誘	-8.95438
壽	-8.95714
俗	-8.95954
顔	-8.96019
而後	-8.96093
監司	-8.96189
遁	-8.96203
介	-8.96236
之士	-8.96511
十月	-8.9656
感	-8.96856
序	-8.96891
使者	-8.97024
潰	-8.97097
措置	-8.97135
大將軍	-8.97159
災	-8.97163
匹	-8.97216
丹	-8.97447
其所	-8.97507
嶺	-8.97553
杖	-8.97586
敏	-8.97618
盜	-8.97638
天下之	-8.97682
䘮	-8.97887
拔	-8.98011
祥	-8.98284
臣等	-8.984
惇	-8.98592
茶	-8.98737
慈	-8.98908
赤	-8.99125
池	-8.99137
募	-8.99191
奴	-8.99263
誰	-8.99304
七年	-8.99333
許之	-8.99471
七月	-8.99528
邦	-8.99687
辟	-8.99722
規	-8.99833
輒	-9.00093
之罪	-9.00113
刻	-9.00138
莊	-9.00153
斬之	-9.00179
擅	-9.00223
逼	-9.00278
使人	-9.00331
囚	-9.00419
山東	-9.00423
四月	-9.00465
子孫	-9.00636
桓	-9.00803
謁	-9.0089
竟	-9.00982
編	-9.0109
檜	-9.01215
駕	-9.01223
袁	-9.01324
甲子	-9.01377
進士	-9.01389
産	-9.01408
元祐	-9.01471
泉	-9.01714
黜	-9.01822
述	-9.01823
熟	-9.01878
焚	-9.0194
城中	-9.02042
刺史	-9.02327
形	-9.02387
不為	-9.02463
致仕	-9.02748
虛	-9.02775
耕	-9.028
皇太后	-9.02808
與之	-9.02841
通判	-9.02848
宏	-9.02867
十年	-9.0288
曾	-9.02921
太原	-9.03142
前後	-9.03398
扶	-9.03424
翼	-9.03461
逸	-9.0368
鼓	-9.03893
帝曰	-9.0392
余	-9.04065
基	-9.04077
津	-9.04252
抑	-9.04338
文字	-9.04369
供	-9.04405
否	-9.04543
託	-9.04561
内外	-9.04792
不如	-9.04819
擊之	-9.04834
勤	-9.04952
併	-9.04988
參知政事	-9.0502
將士	-9.05127
肆	-9.05154
擾	-9.0523
汴	-9.05295
堡	-9.05426
秦檜	-9.05518
知其	-9.05525
聴	-9.05583
渡	-9.05744
罰	-9.05781
衞	-9.05881
靖	-9.06014
尉	-9.06237
傾	-9.06272
忽	-9.06274
珍	-9.06287
三日	-9.06294
庸	-9.06431
公主	-9.0658
術	-9.06581
寒	-9.06587
恨	-9.06717
幽	-9.06845
轉運司	-9.06897
恕	-9.06961
於此	-9.07154
寇	-9.0719
八年	-9.07236
剛	-9.0725
亟	-9.07326
减	-9.07504
將兵	-9.07681
不同	-9.0779
以此	-9.07883
驚	-9.07914
五十	-9.07965
惑	-9.08325
判官	-9.08626
欺	-9.08771
上言	-9.08816
只	-9.08839
吐蕃	-9.08908
價	-9.08972
訴	-9.09429
驕	-9.09525
珪	-9.09726
使臣	-9.09769
雷	-9.10041
稅	-9.10054
亭	-9.10059
樓	-9.10187
翰林學士	-9.10334
辛	-9.10833
辰	-9.11065
昨	-9.11119
慎	-9.11379
正月	-9.11414
荆	-9.11454
本路	-9.11513
藩	-9.11553
旗	-9.11577
西北	-9.1161
宗室	-9.11636
遊	-9.11648
翰	-9.11697
角	-9.11806
悦	-9.11912
恃	-9.11961
岳	-9.12058
夫人	-9.12083
人也	-9.12089
是也	-9.12143
是時	-9.12195
竄	-9.12224
懿	-9.12237
藥	-9.12274
徽	-9.12289
邵	-9.12293
眀	-9.12493
粟	-9.12549
明年	-9.12673
照	-9.12801
笑	-9.12831
姑	-9.13243
死者	-9.13253
必有	-9.13262
其言	-9.1332
訪	-9.13389
句	-9.13421
檢	-9.13486
人心	-9.13624
貨	-9.13686
状	-9.13704
采	-9.13758
江淮	-9.13919
井	-9.13988
改元	-9.14118
言者	-9.14132
豈可	-9.14189
單于	-9.1425
純	-9.14262
廵	-9.14263
場	-9.14312
鄴	-9.14331
衍	-9.14341
是以	-9.14424
之臣	-9.14508
歡	-9.14558
用兵	-9.14809
階	-9.1495
館	-9.15021
攝	-9.15137
忌	-9.15366
牙	-9.1537
答	-9.15617
諡	-9.15668
太平	-9.15747
莽	-9.15748
側	-9.15799
三省	-9.16016
忘	-9.16132
斗	-9.16135
太尉	-9.16449
寢	-9.16518
以通	-9.16553
建康	-9.16736
入朝	-9.16803
没	-9.16843
三十	-9.1707
旱	-9.17193
竇	-9.17208
軍中	-9.17433
厲	-9.17459
崩	-9.17465
署	-9.17465
歳	-9.17594
縣屬	-9.17625
叙	-9.17894
憤	-9.1793
級	-9.1802
用之	-9.18206
足以	-9.18206
哭	-9.18295
巳	-9.18313
覺	-9.18391
當考	-9.18479
御史中丞	-9.18698
當時	-9.18741
蘭	-9.18799
游	-9.18996
占	-9.19148
孰	-9.19184
鑄	-9.19187
又曰	-9.19286
亦不	-9.19336
吏部	-9.19432
有功	-9.19461
浩	-9.19514
上下	-9.1953
細	-9.19583
鈔	-9.19604
松	-9.19646
竭	-9.19696
榖	-9.19714
甲午	-9.19824
吴	-9.19901
亷	-9.19988
張浚	-9.20022
㧞	-9.20087
勘	-9.20204
冊	-9.20335
甲申	-9.20416
言之	-9.20519
貸	-9.20627
紹興	-9.20771
潛	-9.21027
江西	-9.21073
丙午	-9.2118
仙	-9.21312
浮	-9.21318
驅	-9.21348
壁	-9.21414
荒	-9.21431
壬申	-9.21476
不以	-9.2153
諱	-9.2159
欲以	-9.21931
毛	-9.2197
輩	-9.22024
官軍	-9.22025
料	-9.22143
司馬光	-9.22264
抗	-9.22471
社稷	-9.22481
沒	-9.22592
突厥	-9.22734
隠	-9.22741
乙未	-9.22772
黎	-9.22795
創	-9.22829
節度	-9.22839
嵩	-9.22857
學士	-9.22952
民間	-9.23022
而去	-9.23044
遣人	-9.231
不至	-9.23208
乙亥	-9.23271
單	-9.23274
辛未	-9.23335
確	-9.23438
歩	-9.23448
不肯	-9.23536
柔	-9.23561
履	-9.23642
竹	-9.23948
綱目	-9.23953
王安石	-9.23978
祐	-9.24063
丙寅	-9.24074
宮	-9.24179
帛	-9.24199
裁	-9.24263
丙子	-9.24282
哈	-9.24389
桑	-9.24525
甲寅	-9.24594
抵	-9.24687
俾	-9.24688
國公	-9.24711
仕	-9.24826
行之	-9.24849
進呈	-9.2489
堯	-9.24893
晏	-9.24908
卜	-9.24974
步	-9.25015
擬	-9.25099
壬寅	-9.2512
丁亥	-9.25124
庚子	-9.25222
㓂	-9.2527
戊申	-9.25472
不書	-9.25568
覽	-9.25628
辛巳	-9.2567
旁	-9.25864
不然	-9.25871
踰	-9.25872
詔以	-9.2592
宅	-9.25939
成都	-9.26022
徵	-9.26027
飾	-9.26054
澄	-9.26061
鍾	-9.26097
監察御史	-9.261
奚	-9.26145
屋	-9.26327
邀	-9.26363
其罪	-9.26474
癸未	-9.26509
不行	-9.26564
裴	-9.26601
稽	-9.26606
帳	-9.2665
煩	-9.26662
此據	-9.26694
三人	-9.26703
歌	-9.26769
濫	-9.26769
所在	-9.2679
戊寅	-9.27007
癸酉	-9.27061
父子	-9.27077
天地	-9.27104
十萬	-9.27127
壬子	-9.27206
戊辰	-9.27252
儲	-9.27308
辛亥	-9.27411
三百	-9.27453
彌	-9.27479
辱	-9.27573
此事	-9.27588
質實	-9.27664
丙辰	-9.27793
太皇太后	-9.27806
其地	-9.27842
庚午	-9.27869
其家	-9.28106
凖	-9.28151
乙丑	-9.28201
之計	-9.28215
厥	-9.28295
牒	-9.28301
四川	-9.28306
徑	-9.28394
可汗	-9.284
戊午	-9.28473
軍士	-9.28662
考異	-9.28673
匿	-9.28783
壬午	-9.28818
惜	-9.2882
又翻	-9.28866
刀	-9.29059
户部	-9.29078
享	-9.29101
壊	-9.29284
㣲	-9.29309
突	-9.2934
公事	-9.2944
輿	-9.29442
訖	-9.29532
庚申	-9.2966
乙巳	-9.2975
士大夫	-9.29842
已而	-9.29894
扵	-9.29962
壬辰	-9.29974
究	-9.30023
而還	-9.30115
侍中	-9.30221
蔽	-9.30233
寄	-9.30263
樞宻院	-9.30265
州軍	-9.30292
絳	-9.30372
辛酉	-9.30385
課	-9.30388
褒	-9.30454
春正月	-9.30483
宗廟	-9.30496
丁巳	-9.30532
癸亥	-9.30557
卑	-9.30636
啟	-9.30677
誓	-9.30771
己亥	-9.30801
丁未	-9.30884
儉	-9.30896
戊子	-9.30944
侍御史	-9.30979
奏事	-9.31123
奮	-9.31271
羽	-9.31385
䧟	-9.31388
丁丑	-9.31451
文武	-9.31509
一年	-9.31589
癸巳	-9.31952
之際	-9.31956
陶	-9.31957
人情	-9.32015
癸丑	-9.32019
巡	-9.32058
二百	-9.32106
驛	-9.32138
躬	-9.32147
饑	-9.32214
之道	-9.32296
頓	-9.32298
寅	-9.32309
岸	-9.3234
曉	-9.32479
畜	-9.32525
丙申	-9.32527
某	-9.32531
庚寅	-9.32714
人主	-9.32719
其衆	-9.32745
園	-9.32816
乙酉	-9.3296
辛丑	-9.3297
續	-9.33
弑	-9.33227
隱	-9.33366
己巳	-9.33405
緩	-9.33428
将軍	-9.33604
殿中侍御史	-9.33683
融	-9.33708
濬	-9.33782
分註	-9.34324
凶	-9.3437
之民	-9.34429
如何	-9.34482
是嵗	-9.34496
乏	-9.34527
舊作	-9.34581
豪	-9.34882
元豐	-9.34985
壘	-9.35032
侍郎	-9.35115
蒙	-9.35201
偏	-9.35212
衝	-9.3533
所言	-9.35364
子弟	-9.35402
以備	-9.35491
渭	-9.35571
庚辰	-9.35624
武帝	-9.35774
絹	-9.35796
乙	-9.35796
阻	-9.35826
揚州	-9.35843
輔臣	-9.35871
寡	-9.35969
己未	-9.36057
代之	-9.36081
有差	-9.36122
依舊	-9.36197
峻	-9.36215
十一	-9.36289
悔	-9.36298
厭	-9.36314
國之	-9.3639
諸王	-9.36518
麟	-9.36577
駐	-9.36588
己酉	-9.36723
収	-9.36737
割	-9.36786
賤	-9.36883
撰	-9.36892
賔	-9.36954
貧	-9.36964
甲辰	-9.36986
人皆	-9.36994
瑞	-9.37043
珠	-9.37106
舒	-9.37145
十三	-9.37145
勅	-9.3728
禦	-9.37393
十六	-9.37562
秉	-9.37634
瓊	-9.37636
之禮	-9.37695
根	-9.37715
糴	-9.37745
品	-9.37783
莫不	-9.37907
議者	-9.37919
丁酉	-9.37952
短	-9.38256
己丑	-9.38292
奸	-9.38382
之初	-9.38403
以其	-9.38461
強	-9.38581
曰我	-9.38631
雪	-9.38651
育	-9.38707
而無	-9.38763
本紀	-9.38797
蠲	-9.38866
翻下同	-9.38931
屠	-9.38979
藉	-9.39116
䟽	-9.39174
琦	-9.39326
骨	-9.3936
之功	-9.395
韶	-9.39502
苑	-9.39507
父母	-9.39705
東北	-9.39707
髙祖	-9.40044
䝉古	-9.40045
姓名	-9.40088
差遣	-9.4009
蒙古	-9.40159
孔子	-9.4016
咎	-9.40173
逮	-9.4029
不可不	-9.40312
甘	-9.40355
皮	-9.40411
婦	-9.40499
岐	-9.40556
襄陽	-9.40586
無不	-9.40726
去年	-9.40766
大事	-9.40794
陰	-9.41033
俸	-9.41044
以本	-9.41163
熈	-9.41243
銅	-9.41244
不欲	-9.41309
公子	-9.41398
諌	-9.41433
整	-9.41707
賢曰	-9.41711
討之	-9.41746
閉	-9.41831
矦	-9.41995
出入	-9.42029
佛	-9.42296
渾	-9.42337
恒	-9.42362
租	-9.42455
戴	-9.42498
冒	-9.42517
漏	-9.4252
詢	-9.42707
不用	-9.42772
九年	-9.42823
仗	-9.42905
驗	-9.42922
五百	-9.43032
長史	-9.43039
可謂	-9.43112
其餘	-9.43134
屏	-9.4315
祚	-9.43212
明日	-9.43231
不勝	-9.4341
泣	-9.43501
巨	-9.43639
御史臺	-9.43777
傳云	-9.43796
兹	-9.439
内侍	-9.4392
溪	-9.43946
倚	-9.43965
壯	-9.44114
不聽	-9.44178
贊	-9.44319
知之	-9.44321
括	-9.44448
卓	-9.44448
痛	-9.44452
掩	-9.44553
鳯	-9.44619
陜	-9.44647
禮部	-9.44651
紫	-9.44727
臣僚	-9.44734
午	-9.44867
受命	-9.4493
仇	-9.44931
荀	-9.4494
黙	-9.44977
静	-9.45025
西南	-9.45132
奈何	-9.45292
激	-9.45332
淺	-9.45402
旋	-9.45445
乃以	-9.45521
熊	-9.45551
車駕	-9.45579
同平章事	-9.45624
忍	-9.45745
晦	-9.45809
㨗	-9.45861
幽州	-9.45875
排	-9.45925
猛	-9.46011
兆	-9.46024
千里	-9.46043
殆	-9.46055
丈	-9.46269
辦	-9.46334
後世	-9.46352
上以	-9.46402
甲戌	-9.46466
守臣	-9.46485
戮	-9.46512
舞	-9.46592
東西	-9.46596
司徒	-9.46638
準	-9.46648
解題曰	-9.4667
願陛下	-9.46698
匡	-9.46755
妾	-9.47014
然則	-9.47058
倍	-9.47126
神宗	-9.47144
斤	-9.47146
疆	-9.4718
憚	-9.47277
大軍	-9.47396
元昊	-9.47463
公卿	-9.47517
鑑修	-9.4753
知州	-9.47652
不見	-9.47656
南北	-9.47696
恤	-9.47716
毅	-9.47773
僅	-9.47793
舎	-9.47806
郎中	-9.4781
雖有	-9.47999
贍	-9.48052
繁	-9.48072
毋得	-9.48093
夢	-9.48137
幹	-9.48144
校尉	-9.48264
啓	-9.48277
郡縣	-9.48346
哲	-9.48436
肉	-9.4847
中原	-9.48491
曰陛下	-9.48576
閩	-9.48583
訟	-9.48919
挾	-9.49008
都監	-9.49027
撥	-9.49129
鄙	-9.49153
丙戌	-9.49157
章惇	-9.49164
靡	-9.49201
血	-9.49255
又以	-9.49256
軍節度使	-9.49329
銜	-9.49339
仁宗	-9.49357
有罪	-9.4936
事見	-9.49671
相度	-9.49678
鑑	-9.49706
宰	-9.49718
十五	-9.49751
自稱	-9.49788
誅之	-9.4988
閲	-9.49902
讀曰	-9.49944
南陽	-9.50059
鄰	-9.50091
尚書省	-9.5011
京城	-9.50173
露	-9.50324
伺	-9.50327
詔書	-9.50383
出於	-9.50397
安石曰	-9.50411
什	-9.50421
寃	-9.50422
停	-9.50486
筆	-9.50537
贓	-9.50594
知制誥	-9.50637
穀	-9.50641
蔡京	-9.50732
賂	-9.50756
慕容	-9.5076
州郡	-9.50807
復扶	-9.50925
廬	-9.50927
堪	-9.51001
蕩	-9.51022
自古	-9.51068
薩	-9.51249
男	-9.51349
戊戌	-9.51411
兵馬	-9.51434
局	-9.51533
皇子	-9.51546
壬戌	-9.51562
垣	-9.51572
之制	-9.51614
提	-9.5162
冲	-9.51682
段	-9.5174
鐵	-9.51794
僕	-9.51818
拘	-9.51821
實錄	-9.51836
巧	-9.51882
鄂	-9.5193
靜	-9.52121
郡王	-9.52209
君臣	-9.52266
周公	-9.52272
齎	-9.52299
不與	-9.52363
勉	-9.52378
狄	-9.52405
無以	-9.5267
社	-9.52725
不克	-9.5277
至于	-9.52828
植	-9.53037
留守	-9.53062
毒	-9.53069
中書舍人	-9.53154
舊制	-9.53269
遭	-9.53308
曰今	-9.53362
鹿	-9.53435
滋	-9.53444
採	-9.5346
萬餘	-9.5353
以待	-9.5354
福建	-9.53557
樞	-9.53602
檄	-9.53683
伍	-9.53753
以示	-9.53812
隙	-9.53866
陞	-9.54122
之類	-9.54234
矢	-9.54242
庚戌	-9.54314
殘	-9.54321
以吕祖謙	-9.54359
曰臣	-9.54414
取之	-9.54422
吏部尚書	-9.54484
譏	-9.54486
黒	-9.54569
三千	-9.54575
練	-9.54593
涇原	-9.54624
慢	-9.54634
脅	-9.54643
罷之	-9.54806
傑	-9.54842
沔	-9.54933
逵	-9.54933
暉	-9.54998
展	-9.55171
完	-9.55177
晟	-9.55322
悟	-9.55495
中丞	-9.55517
聖人	-9.55556
所部	-9.55567
獵	-9.55583
四十	-9.55684
丑	-9.55686
軍馬	-9.55758
是為	-9.55841
環	-9.55869
湘	-9.55913
十八	-9.5592
罕	-9.55935
属	-9.55985
協	-9.56017
淮西	-9.56042
不報	-9.56056
湖南	-9.56242
不應	-9.56315
幣	-9.56381
是年	-9.56624
徐州	-9.56634
弓	-9.56635
遣兵	-9.56655
旣	-9.56672
警	-9.56873
東都	-9.56986
篇	-9.57064
故有是命	-9.57072
葛	-9.57178
等皆	-9.572
今年	-9.57277
従	-9.57322
閔	-9.57465
項	-9.57469
一旦	-9.57473
坊	-9.57509
賛	-9.57532
有餘	-9.57569
忠義	-9.57673
寸	-9.57728
渉	-9.57761
未可	-9.57866
辯	-9.57941
刑部	-9.57952
箋按	-9.58052
燒	-9.58053
數十	-9.58093
鳴	-9.58179
司空	-9.58194
其黨	-9.58234
標目修	-9.58363
皇太子	-9.58411
一百	-9.58478
㡬	-9.5849
昏	-9.58502
距	-9.58509
之數	-9.58569
邱	-9.58644
萬一	-9.58694
一切	-9.58751
世祖	-9.5885
聼	-9.58853
綏	-9.58856
明堂	-9.58976
宰執	-9.59096
頴	-9.591
翟	-9.59119
誕	-9.59121
墨	-9.59203
昇	-9.59322
鳳	-9.59369
霸	-9.59402
為一	-9.59414
席	-9.59449
齋	-9.59471
潜	-9.59477
髙麗	-9.59477
亨	-9.5948
謗	-9.59544
秦王	-9.59549
夕	-9.59603
唐主	-9.59662
嫌	-9.59821
萬人	-9.59881
總管	-9.59924
逢	-9.59932
斛	-9.60017
其弟	-9.60027
下詔	-9.60092
之上	-9.60334
留後	-9.60376
二州	-9.60697
懲	-9.60701
慰	-9.60802
徇	-9.60821
又有	-9.60843
入城	-9.60853
其間	-9.6089
了	-9.60903
夾	-9.61087
漕	-9.61105
更不	-9.61108
遲	-9.61282
二千	-9.6134
數千	-9.61347
銓	-9.61366
疲	-9.61386
卿等	-9.61426
江陵	-9.61427
開封府	-9.61459
中興	-9.61504
在今	-9.61536
六十	-9.61551
簿	-9.61567
全忠	-9.61598
貝勒	-9.61609
樹	-9.6177
主簿	-9.61892
盈	-9.6196
冝	-9.61972
大敗	-9.61981
不受	-9.61983
潘	-9.62093
也故	-9.62126
節制	-9.62146
壇	-9.62189
聰	-9.6243
劄子	-9.62457
世忠	-9.62468
五日	-9.62599
保甲	-9.62633
範	-9.62677
肇	-9.62695
而死	-9.6272
丙	-9.62743
云云	-9.62806
上疏	-9.62846
燾	-9.62911
又云	-9.62913
朔日有食之	-9.62952
之義	-9.63007
近臣	-9.63027
諸司	-9.63066
遜	-9.63138
地震	-9.63154
皆有	-9.6324
恥	-9.63261
𦵏	-9.63519
樊	-9.63529
趙鼎	-9.63548
之患	-9.63575
熙	-9.63647
朗	-9.63655
宫中	-9.63692
佞	-9.63738
之衆	-9.63797
發兵	-9.63814
不相	-9.63926
破之	-9.64035
如故	-9.64226
不在	-9.64367
之外	-9.64421
不宜	-9.64513
徹	-9.64565
在京	-9.64574
迹	-9.64621
史記	-9.64721
戚	-9.64766
姬	-9.64884
誤也	-9.64893
未至	-9.64982
饒	-9.6506
豈不	-9.65085
至此	-9.65162
圗	-9.65294
金帛	-9.65352
城下	-9.6538
太師	-9.65418
前日	-9.65439
上皇	-9.65466
京東	-9.655
漢書	-9.65532
慕	-9.65638
以爲	-9.65709
柄	-9.65793
州防禦使	-9.65859
麻	-9.65906
他日	-9.6594
譽	-9.65951
亦有	-9.65989
睿	-9.66035
用事	-9.6604
尸	-9.66047
狂	-9.66048
詳定	-9.6609
二日	-9.66095
炎	-9.66103
本朝	-9.66106
之故	-9.66106
禧	-9.66118
呂	-9.66236
誼	-9.66262
河陽	-9.66323
辛卯	-9.66395
十四	-9.66452
含	-9.66487
恪	-9.66503
錯	-9.66591
乃止	-9.66613
道路	-9.66642
未能	-9.66667
巢	-9.667
第一	-9.66702
使之	-9.66792
閏	-9.668
喇	-9.66802
深入	-9.66891
宰臣	-9.66929
斂	-9.66942
冗	-9.67022
琳	-9.67049
磨勘	-9.67055
切下	-9.67096
敷	-9.67116
起兵	-9.67121
參軍	-9.67121
謫	-9.67128
管勾	-9.6713
之勢	-9.67142
傳曰	-9.67175
彬	-9.67202
詰	-9.67354
制置使	-9.67406
脱	-9.67483
以前	-9.67488
湏	-9.67566
藝	-9.67573
宇	-9.67577
兩浙	-9.67611
契	-9.67659
纔	-9.6772
溢	-9.67756
秦州	-9.67809
幼	-9.67819
鈐轄	-9.67879
奏請	-9.6791
晉王	-9.67922
未知	-9.67937
太廟	-9.6797
矜	-9.68061
伏誅	-9.68075
忿	-9.68079
救之	-9.68112
百萬	-9.68224
𤼵	-9.68309
西京	-9.68315
頒	-9.68339
夏人	-9.68342
丁卯	-9.68404
秋八月	-9.68453
諫官	-9.68613
為名	-9.68661
詆	-9.6867
數萬	-9.68687
淳	-9.68733
河西	-9.68769
入見	-9.68827
涉	-9.68863
隴	-9.68914
一時	-9.68989
祝	-9.68992
軍事	-9.69005
書曰	-9.69008
江東	-9.6902
不已	-9.69053
未幾	-9.69091
隊	-9.69094
押	-9.69121
諷	-9.6925
將帥	-9.69314
曰朕	-9.6955
言其	-9.69564
庻	-9.69576
刼	-9.69581
播	-9.69592
之名	-9.69625
謨	-9.69662
賴	-9.69759
州團練使	-9.69864
復扶又翻	-9.69938
墓	-9.69945
塔	-9.69946
栁	-9.70069
餉	-9.70076
七十	-9.70156
肯	-9.70227
何如	-9.70321
數日	-9.7033
十七	-9.70477
相繼	-9.70587
凉	-9.70722
監軍	-9.70956
祈	-9.70983
妻子	-9.71035
不出	-9.71043
撃	-9.71178
旬	-9.71234
耗	-9.71256
上表	-9.71306
其人	-9.71307
錦	-9.71328
疎	-9.71406
玩	-9.71411
陟	-9.71423
行營	-9.71436
嬰	-9.71518
卧	-9.71593
所得	-9.71616
洞	-9.71827
汗	-9.71878
㓜	-9.71882
齊王	-9.71895
遠	-9.71935
皆以	-9.71938
鑒	-9.72198
如此則	-9.72268
若不	-9.72305
霍	-9.72325
千餘	-9.72333
消	-9.72373
榜	-9.7246
不便	-9.72462
不若	-9.72507
以兵	-9.72552
貽	-9.72634
不可以	-9.72656
陽縣	-9.72657
壬	-9.72672
哩	-9.72692
鋭	-9.72739
溥	-9.72739
彰	-9.72818
束	-9.72851
之子也	-9.72898
郢	-9.72981
元帥	-9.73055
恵	-9.73101
乙卯	-9.73346
不合	-9.73386
下同	-9.73415
死之	-9.73635
聘	-9.73665
縣令	-9.73713
五千	-9.73723
東宫	-9.73755
自殺	-9.73862
祿	-9.73868
及是	-9.73876
之弊	-9.73898
麥	-9.7411
晉陽	-9.74111
百里	-9.7414
凌	-9.74197
浦	-9.74216
篤	-9.74286
原本	-9.74315
恣	-9.74322
攻之	-9.74487
閤	-9.74551
添	-9.74582
吏翻	-9.746
丕	-9.7465
齒	-9.74665
壞	-9.74743
大赦	-9.74751
禪	-9.7478
貳	-9.7487
庚	-9.74886
鞏	-9.74973
子也	-9.74989
緣	-9.75071
拒之	-9.75101
抱	-9.75106
禁中	-9.75107
歛	-9.75114
之則	-9.75118
荆州	-9.75202
臧	-9.75278
觧	-9.75319
替	-9.7532
之利	-9.75353
乃命	-9.75374
夏五月	-9.754
百餘	-9.75427
得其	-9.75458
旅	-9.75463
擁	-9.75468
遥	-9.7556
亮翻	-9.75572
妖	-9.75635
文帝	-9.759
公孫	-9.7594
閒	-9.76012
苗	-9.76052
不忍	-9.76129
䖍	-9.76173
効	-9.76211
枉	-9.76252
償	-9.76257
伸	-9.76321
賞罰	-9.76336
亥	-9.76367
璋	-9.76374
輕重	-9.76377
副之	-9.76383
邸	-9.7657
怪	-9.76653
摯	-9.76729
捷	-9.76741
彭城	-9.76812
遼東	-9.76838
此時	-9.76872
古者	-9.76891
台	-9.77013
頌	-9.7704
之日	-9.77075
弩	-9.77102
稷	-9.77303
潤	-9.77308
拱	-9.77342
龜	-9.77371
廉	-9.77472
舉兵	-9.77638
出兵	-9.77693
迫	-9.77717
偕	-9.77748
軾	-9.77879
芳	-9.77935
村	-9.77943
臣聞	-9.77968
是非	-9.78083
鈞	-9.78119
宦官	-9.78134
非是	-9.78167
癸卯	-9.78197
溝	-9.78343
軍民	-9.78396
偃	-9.78409
仲淹	-9.78436
刪	-9.7845
千人	-9.7846
窺	-9.78503
首領	-9.7857
暮	-9.78598
偉	-9.78669
緒	-9.78718
宇文	-9.78738
知縣	-9.78756
南京	-9.78786
其意	-9.78823
證	-9.78827
矯	-9.78838
酋	-9.78849
釋之	-9.78855
筠	-9.78879
百餘人	-9.78887
偽翻	-9.78908
西域	-9.78985
之命	-9.79117
王子	-9.79133
吏民	-9.79159
官司	-9.79187
旨	-9.79225
麗	-9.7929
欽定四庫全書	-9.79419
賑	-9.79512
進退	-9.79548
不必	-9.79698
弛	-9.79711
鴻	-9.79739
真宗	-9.79767
翰林	-9.79806
所殺	-9.79836
無事	-9.7991
題	-9.79947
定州	-9.79988
香	-9.79995
淫	-9.80002
侍從	-9.80062
京西	-9.80091
斬首	-9.80124
右正言	-9.80125
瑾	-9.80138
閤門	-9.80163
饗	-9.80197
巖	-9.80386
仍令	-9.80441
有此	-9.80452
冬十一月	-9.80476
久之	-9.80518
渡江	-9.80554
諒	-9.80596
諸道	-9.80606
住	-9.80779
其父	-9.808
弔	-9.80834
大怒	-9.8089
又詔	-9.81041
挺	-9.8105
上批	-9.81101
姜	-9.81153
不足以	-9.81215
競	-9.81416
人之	-9.81441
議論	-9.81665
虐	-9.81706
萬緡	-9.81795
之家	-9.81861
幕	-9.81864
它	-9.82039
不言	-9.82102
數百	-9.82208
所奏	-9.82223
鐸	-9.82231
都統	-9.8224
之禍	-9.8225
臯	-9.82291
其名	-9.82357
特穆爾	-9.82357
屯田	-9.82514
可也	-9.82538
帝以	-9.82543
拉	-9.82549
乂	-9.82567
曰卿	-9.8258
都尉	-9.82685
談	-9.82697
喬	-9.8271
桂	-9.82716
刃	-9.82723
安國	-9.82831
宛	-9.82869
得罪	-9.82887
捨	-9.82909
如是	-9.8299
行省	-9.83008
駭	-9.83083
韓琦	-9.831
畨	-9.8333
之議	-9.83347
績	-9.83393
所為	-9.83417
)○	-9.83454
風俗	-9.83473
貌	-9.83487
故曰	-9.83591
晚	-9.83777
之徒	-9.83779
輦	-9.838
八十	-9.83955
七日	-9.8397
皓	-9.84071
常平	-9.84079
荆南	-9.84083
瑪	-9.84147
之兵	-9.84148
宦者	-9.84154
數年	-9.84159
十九	-9.8426
寕	-9.84308
太常	-9.84414
不得已	-9.84423
瞻	-9.84473
敗之	-9.84505
玠	-9.84548
三公	-9.84656
耿	-9.84705
攸	-9.84707
臺諫	-9.84789
囘	-9.8495
巴延	-9.84963
㑹要	-9.8503
尾	-9.85062
随	-9.85172
者亦	-9.85208
春二月	-9.85267
虧	-9.85368
書法	-9.85371
乖	-9.85381
謬	-9.85412
安南	-9.85424
盗賊	-9.85464
浸	-9.85483
朔方	-9.85492
億	-9.85506
為相	-9.85508
舊紀	-9.85526
湛	-9.85543
忤	-9.85576
祗	-9.85579
騰	-9.85603
遂以	-9.85643
佑	-9.857
嫁	-9.85703
禽	-9.85721
在位	-9.85782
城縣	-9.85805
御史大夫	-9.85861
長吏	-9.85917
洋	-9.85926
灌	-9.85939
尼	-9.85958
璘	-9.86001
填	-9.86005
塗	-9.86021
河中	-9.8607
劍	-9.86182
千餘人	-9.86342
帝紀	-9.86412
作亂	-9.86438
遏	-9.86488
分兵	-9.86519
俘	-9.86542
邢	-9.86559
罔	-9.86571
太學	-9.86589
檢校	-9.86591
大破之	-9.86595
昆	-9.86731
十餘萬	-9.86779
宣撫使	-9.86779
提㸃	-9.86889
開封	-9.86901
贖	-9.86913
換	-9.86972
本司	-9.86983
廣西	-9.87
册	-9.87019
復置	-9.87093
愍	-9.8712
峽	-9.87121
裔	-9.87133
人臣	-9.87151
惠卿	-9.87186
欲乞	-9.87193
圭	-9.87359
契丹主	-9.87369
輪	-9.87434
豈有	-9.87527
頼	-9.87591
安撫	-9.87722
未必	-9.87751
文王	-9.8776
汪	-9.87826
吏部侍郎	-9.87833
吐	-9.87924
大將	-9.87928
當作	-9.87939
大小	-9.87939
諡曰	-9.87969
宣諭	-9.87995
今後	-9.88002
睦	-9.88015
鬻	-9.88022
膺	-9.88032
斌	-9.88049
在外	-9.88094
人君	-9.881
廣州	-9.88133
行在	-9.88136
祁	-9.88186
未見	-9.88246
花	-9.88247
耶律	-9.8828
四人	-9.88287
隔	-9.88335
朋	-9.88346
得之	-9.88353
叚	-9.88447
隄	-9.88516
左傳	-9.88577
以新	-9.886
廵檢	-9.8861
其實	-9.88676
今改	-9.88717
中山	-9.88729
釁	-9.88864
己卯	-9.88865
至今	-9.8893
王師	-9.88943
乃詔	-9.88978
十一年	-9.89068
水經注	-9.89075
燕王	-9.8909
悲	-9.89158
愧	-9.89164
蓄	-9.89174
狼	-9.8919
鮮	-9.89196
者以	-9.89216
皆不	-9.89259
渡河	-9.89262
之謀	-9.89306
析	-9.89344
益州	-9.89347
請以	-9.89415
民力	-9.89436
江州	-9.8944
後漢	-9.89474
姪	-9.89489
鑿	-9.89499
推恩	-9.89503
健	-9.8952
取㫖	-9.89523
詔自今	-9.8961
殺其	-9.89641
公私	-9.89775
安得	-9.89809
樞密院	-9.89983
世子	-9.90012
托	-9.90087
禮部侍郎	-9.90094
二萬	-9.90165
黃	-9.90181
將即亮翻	-9.9019
五人	-9.90286
應副	-9.90304
手詔	-9.9037
誥	-9.90395
僚	-9.90396
盤	-9.90479
胥	-9.90577
批	-9.90674
大王	-9.90678
柱	-9.90691
張俊	-9.90732
則是	-9.90806
潁	-9.90809
閻	-9.90853
注見	-9.90911
都統制	-9.90937
邊事	-9.90961
靣	-9.91015
萬餘人	-9.9102
畿	-9.91054
入對	-9.91065
國事	-9.91147
戊	-9.91156
罵	-9.91166
翊	-9.91166
漢中	-9.91167
鋒	-9.91219
岱	-9.91251
為太子	-9.91257
諸郡	-9.91274
糾	-9.91299
瓘	-9.91301
職事	-9.91497
取其	-9.91547
誨	-9.91558
宥	-9.91567
喻	-9.91688
甞	-9.91692
鞫	-9.91786
必不	-9.9181
之説	-9.91868
後魏	-9.9192
旌	-9.91921
琮	-9.91935
者不	-9.9198
軌	-9.92018
棣	-9.92037
醫	-9.92101
楚王	-9.92174
言於	-9.92233
先朝	-9.92294
王珪	-9.92295
□	-9.92469
何也	-9.92499
揆	-9.92579
更名	-9.92666
戌	-9.92667
曜	-9.92698
爽	-9.92718
莫敢	-9.92799
域	-9.92802
扼	-9.92802
改為	-9.92809
岳飛	-9.92839
奎	-9.92893
板	-9.92959
國子監	-9.92976
譚	-9.93004
宋主	-9.93123
詭	-9.93143
來降	-9.93144
不問	-9.93157
恱	-9.93162
降指揮	-9.93169
之志	-9.9318
京兆	-9.933
為人	-9.93333
閭	-9.93341
四百	-9.93354
長沙	-9.93397
鳥	-9.93533
翁	-9.93542
臣竊	-9.93573
欵	-9.93606
以後	-9.93626
鬬	-9.93677
伏望	-9.9369
妨	-9.93764
蔡確	-9.93765
所有	-9.93791
敝	-9.93863
禀	-9.93866
十二年	-9.9391
縣有	-9.9401
一員	-9.94046
曠	-9.94081
清河	-9.94149
官屬	-9.94154
南郊	-9.94162
十日	-9.9417
提㸃刑獄	-9.94244
催	-9.94322
為大	-9.94334
古之	-9.94402
泗	-9.94437
蔣	-9.9445
不免	-9.94585
宣撫司	-9.94649
兖州	-9.94651
也若	-9.94726
敇	-9.9473
州觀察使	-9.94795
延州	-9.94831
而下	-9.94867
子曰	-9.949
門下	-9.94931
互	-9.94964
及其	-9.94986
韓世忠	-9.95136
精兵	-9.95195
牢	-9.95219
東海	-9.95224
日月	-9.95229
未及	-9.9529
沛	-9.95312
五萬	-9.95365
閱	-9.95392
户部侍郎	-9.95416
相與	-9.95595
耆	-9.95642
戰于	-9.95718
者多	-9.95777
朝㫖	-9.9581
㑹稽	-9.95897
轄	-9.95905
復以	-9.95956
僭	-9.96004
歎	-9.96005
奉使	-9.96059
誦	-9.96062
讒	-9.96078
訥	-9.9609
綸	-9.96097
測	-9.96164
大同	-9.96223
雲南	-9.96249
往往	-9.96251
夏國	-9.96351
博士	-9.96398
彦博	-9.96401
快	-9.96419
咨	-9.9642
瑜	-9.9644
中書省	-9.96443
艱	-9.96454
青州	-9.96502
兵部尚書	-9.96515
綽	-9.96539
酉	-9.96646
李綱	-9.96734
以来	-9.96738
詔令	-9.96763
䕫	-9.96781
閑	-9.96878
各有	-9.96974
三萬	-9.96984
把	-9.97022
眷	-9.97074
一路	-9.97081
舉人	-9.97142
紙	-9.97186
璽	-9.97251
東平	-9.97299
行下	-9.97338
建炎	-9.97371
庶幾	-9.97377
功臣	-9.9739
泥	-9.97401
讐	-9.97651
守之	-9.97686
碑	-9.97784
雞	-9.97813
自此	-9.97842
朋黨	-9.97875
武王	-9.97999
僕射	-9.98044
踈	-9.98046
劒	-9.98065
等言	-9.98111
克用	-9.98141
耳目	-9.98173
太傅	-9.98192
兖	-9.98276
隘	-9.98281
公議	-9.98328
舅	-9.98363
平章	-9.98387
浙西	-9.98429
文彦博	-9.9846
較	-9.98528
徧	-9.98571
選人	-9.98694
其心	-9.98698
緩急	-9.98757
翌日	-9.98819
詔曰	-9.98846
探	-9.98882
柴	-9.98938
曰汝	-9.98958
臣恐	-9.98993
飢	-9.99012
本州	-9.99049
叱	-9.99111
蕃部	-9.99156
勑	-9.99182
者必	-9.9927
洲	-9.99315
欠	-9.99336
醉	-9.99348
區	-9.99418
鸞	-9.9944
纂	-9.99583
釐	-9.99622
數人	-9.99676
軰	-9.99711
侮	-9.9973
赴闕	-9.99872
巫	-9.9991
長子	-9.99957
其國	-9.99958
烏珠	-10.0002
十餘	-10.0002
帥臣	-10.001
孚	-10.0025
殺人	-10.0031
販	-10.0035
成功	-10.0037
法度	-10.0038
一等	-10.0042
摩	-10.0049
譙	-10.0049
滕	-10.0052
頻	-10.0052
為左	-10.0053
言臣	-10.0057
砦	-10.0057
統制官	-10.0057
等州	-10.0068
内史	-10.0068
往來	-10.0069
腹心	-10.0071
郡國	-10.0078
蒼	-10.0096
包	-10.0101
轍	-10.0105
繕	-10.0115
倡	-10.0115
該	-10.0122
和議	-10.0139
柵	-10.0146
迪	-10.0147
碩	-10.0148
禱	-10.015
廣陵	-10.0151
之下	-10.0152
非所以	-10.0158
江浙	-10.0158
則有	-10.0162
安撫司	-10.017
鬼	-10.0173
返	-10.0173
之役	-10.0174
富弼	-10.0176
雲中	-10.018
滯	-10.0188
四日	-10.0193
亦無	-10.0196
撓	-10.0197
者並	-10.02
官爵	-10.0201
鐡	-10.0205
大理寺	-10.0209
中書令	-10.0211
右僕射	-10.0215
山在	-10.022
牽	-10.0227
者為	-10.0239
雇	-10.0244
薊	-10.0245
昧	-10.0245
富貴	-10.0246
待制	-10.0248
眞	-10.025
指揮使	-10.0255
戾	-10.0256
成王	-10.0257
請也	-10.0259
裂	-10.0272
也然	-10.0274
謚	-10.0276
無罪	-10.0281
之中	-10.0282
國人	-10.0288
為國	-10.0291
率衆	-10.0295
四海	-10.0299
宸	-10.0303
缺	-10.0305
掾	-10.0307
不下	-10.0308
酌	-10.0311
年正月	-10.0316
崖	-10.0319
制置	-10.033
同列	-10.0338
蘇軾	-10.0339
諸子	-10.0343
奢	-10.0353
奏曰	-10.0357
瓦	-10.0357
忠臣	-10.037
見其	-10.0372
洽	-10.0375
可用	-10.0377
城寨	-10.0382
潮	-10.0387
綿	-10.0388
閏月	-10.0394
犬	-10.0404
駢	-10.0404
號令	-10.0405
為陛下	-10.0405
鎮江	-10.0407
一月	-10.0408
古今	-10.0409
終不	-10.041
以告	-10.0412
譴	-10.0413
錡	-10.0415
禁軍	-10.0423
偶	-10.0424
敖	-10.0435
癸	-10.0436
赴行在	-10.0439
娶	-10.0441
豆	-10.0444
資政殿學士	-10.0445
矩	-10.0448
帥讀曰率	-10.0452
開元	-10.0453
何所	-10.0456
從容	-10.0457
書之	-10.0459
之職	-10.0461
惟陛下	-10.0466
都指揮使	-10.0469
歎曰	-10.0481
觀之	-10.0482
十五年	-10.0483
寓	-10.0484
俞	-10.0487
或曰	-10.049
人馬	-10.0495
同知	-10.0495
劉光世	-10.0496
暫	-10.05
出師	-10.0501
自立	-10.0504
民之	-10.0511
不容	-10.0513
踐	-10.0515
行臺	-10.0526
見之	-10.0529
已上	-10.053
得以	-10.053
怠	-10.0535
𣙜	-10.0544
財用	-10.0545
繩	-10.0551
其母	-10.056
婁	-10.0564
三州	-10.0567
下獄	-10.0569
鼔	-10.0569
皆為	-10.0576
也又	-10.0578
轉運	-10.0579
州府	-10.0592
諤	-10.06
統制	-10.0604
之師	-10.0607
文學	-10.061
河内	-10.0611
勛	-10.0611
一曰	-10.0611
臣下	-10.0613
嚮	-10.0615
甚衆	-10.0617
熹	-10.0617
論列	-10.0623
波	-10.0636
日歴	-10.0637
紅	-10.0638
有大	-10.0646
此乃	-10.0646
膳	-10.0646
番	-10.065
勁	-10.066
河間	-10.066
大喜	-10.0664
悼	-10.0668
寘	-10.0683
聞奏	-10.0687
鮮卑	-10.0693
婦人	-10.0694
奏乞	-10.0697
敞	-10.0697
總兵	-10.0699
胄	-10.0702
左僕射	-10.0704
侂胄	-10.0708
帥衆	-10.0715
𦙍	-10.072
儻	-10.0721
促	-10.0726
亢	-10.0734
逺近	-10.0739
率兵	-10.0746
聖㫖	-10.0752
曰君	-10.0753
舊傳	-10.0754
疇	-10.0757
護	-10.0762
二千石	-10.0766
帖	-10.0783
也夫	-10.0783
遼主	-10.0785
之變	-10.0789
當以	-10.079
禮部尚書	-10.0791
卞	-10.0792
蘓	-10.0793
得失	-10.0799
拯	-10.0804
無復	-10.0805
輝	-10.0805
懸	-10.081
悖	-10.082
朴	-10.082
戲	-10.0826
蝗	-10.0841
武臣	-10.0846
兼權	-10.0848
不悦	-10.0848
臣所	-10.085
廷尉	-10.0854
人户	-10.0855
流涕	-10.086
在此	-10.0861
嫡	-10.0865
惡之	-10.0876
門外	-10.0876
光武	-10.0883
齊主	-10.0886
諸将	-10.0893
之官	-10.0907
繇	-10.0909
萌	-10.0912
奬	-10.0917
湖廣	-10.0918
姦邪	-10.0921
謂曰	-10.0924
虢	-10.0926
新紀	-10.0927
鎭	-10.0927
二十年	-10.0929
廹	-10.0934
縣西	-10.0935
東魏	-10.0943
體量	-10.0946
之費	-10.0955
耀	-10.0962
諾	-10.0963
二十萬	-10.0963
言事	-10.0965
儼	-10.0966
王旦	-10.0978
第二	-10.0982
奉詔	-10.0982
數千人	-10.0985
海内	-10.0995
䘏	-10.1
且言	-10.1002
之語	-10.1009
止之	-10.101
看詳	-10.101
穿	-10.1015
何為	-10.1016
駿	-10.1016
逕	-10.1024
汲	-10.1024
黄河	-10.1026
立法	-10.1031
徼	-10.1032
曰昔	-10.1035
不利	-10.1035
今不取	-10.1035
生事	-10.1036
淑	-10.104
平陽	-10.1042
因言	-10.1044
十人	-10.1049
鄜延	-10.105
范仲淹	-10.1051
禦之	-10.106
郎官	-10.1061
等路	-10.1063
亦可	-10.1066
上供	-10.1067
公著	-10.1084
禾	-10.1085
坦	-10.109
墜	-10.1091
淮東	-10.1129
之術	-10.1137
聖意	-10.1142
神武	-10.1144
觀察使	-10.1145
熈寧	-10.1149
並為	-10.1149
汾	-10.115
力戰	-10.1151
臨安	-10.1153
直言	-10.1153
晝	-10.1153
無益	-10.1154
無功	-10.1161
嶺南	-10.1161
逾	-10.1165
一千	-10.1167
毗	-10.1168
安撫使	-10.1175
塲	-10.118
趙王	-10.1184
尼瑪哈	-10.1203
師古	-10.1205
而歸	-10.1206
不顧	-10.1211
童	-10.1212
由此	-10.1213
晉侯	-10.1214
熈河	-10.1217
邇	-10.1217
泄	-10.1219
右諫議大夫	-10.122
之政	-10.1224
涼	-10.1228
劉摯	-10.1231
萬世	-10.1231
第三	-10.1237
彪	-10.1239
經制	-10.1244
上曰朕	-10.1248
而出	-10.1249
改正	-10.125
尚書令	-10.1251
樞密使	-10.1254
進兵	-10.1258
邠	-10.1285
國用	-10.1288
羡	-10.1289
岑	-10.129
遮	-10.1293
所宜	-10.1295
大計	-10.1296
犒	-10.13
十三年	-10.1302
數月	-10.131
傳修	-10.1314
曷	-10.1319
賓	-10.1326
澶州	-10.1328
截	-10.133
縣北	-10.1333
御前	-10.1337
撤	-10.1343
之理	-10.1349
度支	-10.1355
之任	-10.1358
氐	-10.1363
苛	-10.1367
已有	-10.1369
大理	-10.1372
招討使	-10.1386
臂	-10.1386
梅	-10.1396
械	-10.1397
差官	-10.1398
赫	-10.14
軍前	-10.1401
山西	-10.1401
未得	-10.1413
高祖	-10.1414
綰	-10.1418
孟子	-10.1423
遁去	-10.1423
衮	-10.143
勃	-10.143
准	-10.143
下有	-10.1432
巾	-10.1434
黔	-10.1438
鳯翔	-10.1444
参	-10.1447
杭州	-10.1447
荷	-10.1448
桀	-10.1449
曹操	-10.1449
學者	-10.145
庾	-10.145
相公	-10.145
從官	-10.1451
待之	-10.1451
刑獄	-10.1453
臣言	-10.1454
髙宗	-10.1455
余按	-10.1456
金銀	-10.1458
并州	-10.1469
蘇轍	-10.147
肥	-10.1471
平原	-10.1476
數百人	-10.1478
跡	-10.1487
自陳	-10.1505
塘	-10.1512
顥	-10.1513
沿	-10.1516
槩	-10.1516
岡	-10.1518
以為然	-10.1519
來歸	-10.1519
敵人	-10.152
近日	-10.1531
溺	-10.1533
隅	-10.1542
夷簡	-10.1552
之情	-10.1552
安危	-10.1555
芻	-10.1569
即日	-10.1571
猶未	-10.1573
勵	-10.1579
反覆	-10.158
曰公	-10.1583
出戰	-10.1584
豹	-10.1584
一二	-10.1604
太僕	-10.1604
乃遣	-10.1606
亦以	-10.1609
妹	-10.1611
俯	-10.1612
戈	-10.1613
福州	-10.1613
靖康	-10.1615
紀年	-10.1617
劇	-10.1621
倣	-10.1626
繆	-10.1638
髪	-10.1639
轉運判官	-10.1647
緡錢	-10.1657
洮	-10.166
大業	-10.1661
皇甫	-10.1663
水出	-10.1667
鎬	-10.1667
賄	-10.1669
今來	-10.1673
可考	-10.1677
讎	-10.1678
為右	-10.1679
入冦	-10.168
起居	-10.1682
女真	-10.1687
張本	-10.1692
落職	-10.1697
部署	-10.1706
兵部	-10.1711
所居	-10.1714
寔	-10.172
箭	-10.1725
或有	-10.1743
治之	-10.1743
冕	-10.1747
憐	-10.1747
盜賊	-10.1749
見上	-10.1751
齊侯	-10.1752
怯	-10.1754
噐	-10.1762
薪	-10.1764
先王	-10.1764
諸縣	-10.1766
追之	-10.1768
飭	-10.1768
陛	-10.1774
於民	-10.1781
地理志	-10.1782
直秘閣	-10.1787
畋	-10.1788
以安	-10.179
三路	-10.1791
晝夜	-10.1791
那	-10.1793
平章事	-10.1801
所至	-10.1803
倖	-10.1806
悍	-10.1807
闗中	-10.1807
一名	-10.1807
部落	-10.1812
掃	-10.1815
大防	-10.1817
梁王	-10.1817
瓌	-10.1819
君之	-10.182
為于偽翻	-10.1823
中軍	-10.1826
十四年	-10.1827
諸生	-10.1827
況	-10.1829
璧	-10.183
遣官	-10.183
臣之	-10.1831
而立	-10.1834
歟	-10.1841
士民	-10.1844
弃	-10.1847
活	-10.1849
降詔	-10.1849
大兵	-10.1856
朱全忠	-10.1858
五代	-10.1858
上聞	-10.1862
樞宻使	-10.1863
泰山	-10.1863
泗州	-10.1863
亶	-10.1864
其中	-10.1874
涇	-10.1877
曰若	-10.1882
問之	-10.1886
臣愚	-10.1889
汝南	-10.189
侃	-10.1892
宋白曰	-10.1902
中書侍郎	-10.1902
焦	-10.1904
諸臣	-10.1905
洎	-10.1912
懋	-10.1913
不通	-10.1918
於朝	-10.1922
于此	-10.1928
彈	-10.193
牟	-10.1931
腹	-10.1935
捉	-10.1946
大司馬	-10.1955
奇	-10.1966
勾	-10.1968
光世	-10.1969
固守	-10.1971
孺	-10.1976
豈得	-10.1977
衛將軍	-10.1979
參政	-10.1979
堤	-10.1984
饋	-10.1985
攘	-10.1986
潭	-10.1987
驟	-10.1998
控	-10.2001
安定	-10.2005
沃	-10.2009
可見	-10.2012
弓箭手	-10.2016
用翻	-10.2017
狐	-10.2021
以致	-10.2025
演	-10.2029
開府儀同三司	-10.203
像	-10.203
其勢	-10.2038
禮官	-10.204
朝政	-10.2051
帝王	-10.2053
捐	-10.2054
僥倖	-10.2054
東京	-10.2056
諮	-10.2058
人才	-10.2064
濮	-10.2089
衆心	-10.2089
因以	-10.2092
復為	-10.2093
王氏	-10.2097
天命	-10.2098
詠	-10.21
國史	-10.21
墮	-10.2103
三代	-10.2104
卒子	-10.2107
執中	-10.2115
而止	-10.2117
劉豫	-10.2118
水旱	-10.2122
懦	-10.2122
領軍	-10.2125
帥師	-10.2128
臨安府	-10.2129
周禮	-10.2132
古人	-10.2132
建議	-10.2132
宣帝	-10.2134
自有	-10.214
丁夘	-10.2142
酷	-10.2144
祕	-10.2145
奕	-10.2146
上意	-10.2147
宿衛	-10.2147
靈州	-10.2148
廣南	-10.2152
處置	-10.2153
遥翻	-10.2153
廂	-10.2156
緡	-10.2157
壻	-10.2157
莫若	-10.2159
枝	-10.2164
中官	-10.2167
苖	-10.217
待罪	-10.217
衆皆	-10.2175
赦天下	-10.2182
樞宻副使	-10.2184
太常博士	-10.2184
蹈	-10.2185
懇	-10.2187
欲令	-10.2189
鬭	-10.2198
耻	-10.2199
二子	-10.2205
布衣	-10.2208
不安	-10.2209
皆在	-10.2212
辛夘	-10.2212
上問	-10.2213
囊	-10.2213
兮	-10.2217
㤗	-10.2218
僣	-10.2222
少卿	-10.2223
紹聖	-10.2225
疋	-10.2226
帯	-10.2228
龔	-10.2229
權知	-10.2239
劉氏	-10.2242
座	-10.2245
一事	-10.2245
也臣	-10.2247
布哈	-10.2247
處分	-10.2257
賚	-10.2264
沁	-10.2264
大水	-10.2265
兵部侍郎	-10.2272
嶽	-10.2272
經筵	-10.2273
翔	-10.2273
艾	-10.2273
詔諸路	-10.2274
歐陽修	-10.2279
巡撫	-10.2282
月日	-10.2285
召見	-10.2287
處之	-10.2288
㸃	-10.2291
縣地	-10.2301
祔	-10.2303
未敢	-10.2306
環慶	-10.2307
必欲	-10.2308
粲	-10.2308
十六年	-10.2315
編修	-10.2317
賜之	-10.2319
今若	-10.2319
劄	-10.2326
廸	-10.2332
遞	-10.2334
措	-10.2335
約束	-10.2336
之望	-10.2339
西川	-10.235
三品	-10.2359
嗟	-10.2361
已下	-10.2361
萬石	-10.2366
覘	-10.2368
朝夕	-10.237
暑	-10.2375
賔客	-10.2381
街	-10.2394
朔日食	-10.2399
削去	-10.2399
樞宻	-10.2407
陂	-10.2411
上章	-10.2413
遣中使	-10.2416
輟	-10.242
榆	-10.2425
本傳	-10.2429
制度	-10.2432
攻城	-10.2433
不絶	-10.2434
邕	-10.2439
上帝	-10.2441
恩澤	-10.2447
夏六月	-10.2448
瀆	-10.2451
瑀	-10.2452
日夜	-10.2453
再拜	-10.2459
於上	-10.246
珙	-10.2462
侈	-10.2464
除名	-10.2464
隂陽	-10.2465
圓	-10.2466
萬里	-10.2467
製	-10.2473
不聞	-10.2474
不聴	-10.2475
於外	-10.2476
次第	-10.2479
百人	-10.2479
庇	-10.2482
請降	-10.2482
錢物	-10.2482
建安	-10.2484
附見	-10.2491
泛	-10.2495
埽	-10.2495
豫章	-10.2496
舍人	-10.2497
粗	-10.251
遂與	-10.2512
要害	-10.2513
視事	-10.2513
絲	-10.2514
轉運副使	-10.2516
吕翻	-10.2521
貞觀	-10.2522
瑗	-10.2524
之憂	-10.2526
牲	-10.2528
八日	-10.2534
乞罷	-10.2537
柳	-10.2539
贇	-10.254
縊	-10.2541
武昌	-10.2545
縣南	-10.2545
諫曰	-10.2549
翻又	-10.2549
責之	-10.2553
㕔	-10.2553
到翻	-10.2559
周主	-10.2564
曦	-10.2564
上謂	-10.2567
莒	-10.2569
泌	-10.2572
凝	-10.2572
沂	-10.2576
得人	-10.2586
帥讀	-10.2589
氷	-10.2589
布曰	-10.2589
顒	-10.259
潭州	-10.2591
塹	-10.2593
貟外郎	-10.2598
來朝	-10.26
祇	-10.2601
左丞相	-10.2601
謀反	-10.2602
其功	-10.2602
而退	-10.2608
濟南	-10.2608
右丞	-10.261
荆湖	-10.2611
用人	-10.2612
淮陽	-10.2612
而行	-10.2614
十餘人	-10.2617
婢	-10.2617
倒	-10.2618
内臣	-10.2624
至京師	-10.2626
視之	-10.2627
不盡	-10.2629
縣東	-10.2645
等處	-10.2648
宣撫	-10.265
朝直	-10.2668
數十人	-10.2668
未聞	-10.2672
難以	-10.2672
工部侍郎	-10.2674
生靈	-10.2677
酬	-10.2678
起復	-10.2679
亳	-10.268
輯	-10.268
二十四	-10.2682
詣闕	-10.2688
從事	-10.2691
麾下	-10.2694
得免	-10.2699
浙	-10.27
不疑	-10.2702
大梁	-10.2704
號曰	-10.2706
無他	-10.2712
織	-10.2712
宗皇帝	-10.2724
笑曰	-10.2725
緯	-10.2726
言于	-10.2728
眉	-10.2733
無可	-10.2737
求去	-10.2741
努	-10.2747
奉天	-10.275
寖	-10.275
又遣	-10.2752
還宫	-10.2754
混	-10.2756
楚州	-10.2756
般	-10.2759
隴西	-10.2759
太保	-10.276
丹陽	-10.2761
光禄大夫	-10.2767
姓也	-10.2768
九域志	-10.2769
所載	-10.2779
居正	-10.278
之䇿	-10.2786
銳	-10.2789
醜	-10.2797
朱熹	-10.2798
稼	-10.28
媚	-10.28
二字	-10.2801
僉	-10.2802
其一	-10.2804
以謂	-10.2807
失其	-10.2811
袍	-10.2817
獸	-10.2821
總領	-10.2822
少府	-10.2841
立功	-10.2843
交趾	-10.2849
相見	-10.2858
抽	-10.2863
言路	-10.287
廬州	-10.2872
洗	-10.2877
巷	-10.2879
繹	-10.288
衙	-10.2881
府庫	-10.2887
十里	-10.2891
諸部	-10.2897
昶	-10.29
曽布	-10.2903
而不能	-10.2907
再三	-10.2909
行遣	-10.2911
並依	-10.2915
太和	-10.2918
王巖叟	-10.2918
此言	-10.2923
雄州	-10.2923
不知所	-10.2924
堰	-10.2927
三十里	-10.2928
陳留	-10.2931
壓	-10.2936
敗走	-10.2937
貴人	-10.2938
縛	-10.2945
歸之	-10.2948
進攻	-10.2951
未盡	-10.2952
上䟽	-10.2953
經義	-10.2955
鞭	-10.2955
上殿	-10.2955
暇	-10.2957
不載	-10.2959
平江	-10.2959
梟	-10.2963
吕公著	-10.2966
固辭	-10.2978
中郎將	-10.2984
邏	-10.2991
恢	-10.2991
算	-10.2993
名曰	-10.2993
宋史	-10.2995
嘉祐	-10.2995
繳	-10.3
瑄	-10.3001
繪	-10.3002
災傷	-10.3004
嚕	-10.3011
邦昌	-10.3011
䕶軍	-10.3016
握	-10.3018
哲宗	-10.3018
不須	-10.3023
丁謂	-10.3028
鐘	-10.3028
壅	-10.303
托克托	-10.3031
方今	-10.3032
闢	-10.3032
史炤釋文曰	-10.3034
而卒	-10.3036
天意	-10.304
扈	-10.3044
乙夘	-10.3046
綬	-10.3047
敎	-10.3049
入貢	-10.3057
師道	-10.3059
自來	-10.3059
數十萬	-10.3059
噶	-10.306
阜	-10.3062
守禦	-10.3063
糶	-10.3066
評	-10.3071
揺	-10.3076
捍	-10.3079
行至	-10.3083
推官	-10.3086
九十	-10.3088
城南	-10.3093
遐	-10.3094
六人	-10.31
乃與	-10.3112
主管	-10.3113
欽若	-10.3113
教授	-10.3117
主上	-10.3122
史言	-10.3122
追封	-10.3128
八百	-10.3128
麾	-10.3128
畆	-10.3129
聞其	-10.3129
更始	-10.3132
大抵	-10.3138
臣子	-10.314
團	-10.314
㫁	-10.3142
宫觀	-10.3144
刑部尚書	-10.3146
潞州	-10.3148
以為不可	-10.315
貼	-10.3154
朝鮮	-10.3154
中有	-10.3155
守將	-10.3157
州人	-10.3157
两	-10.3159
殿下	-10.3163
一也	-10.3167
易以	-10.3178
無異	-10.318
事之	-10.3184
形勢	-10.3185
先後	-10.3187
自將	-10.3188
明帝	-10.3193
可為	-10.3199
有隙	-10.3201
自為	-10.3203
皆云	-10.3204
豈能	-10.3206
匱	-10.3207
𤓰	-10.3207
貟	-10.3214
穴	-10.3215
太史	-10.3217
朝直遥翻	-10.3218
昉	-10.322
邾	-10.3234
漳	-10.3239
琪	-10.3243
紀綱	-10.3245
忠賢	-10.3247
與其	-10.325
慙	-10.3255
以次	-10.3256
時有	-10.3257
之北	-10.3258
大破	-10.3258
八人	-10.3259
黄帝	-10.3262
憾	-10.3271
茅	-10.3275
宗正	-10.3276
吐谷渾	-10.3279
不樂	-10.3303
興元	-10.3304
先生	-10.3305
中大夫	-10.3307
㸃檢	-10.3307
伏乞	-10.3309
邁	-10.3325
兄子	-10.3326
以求	-10.3326
所屬	-10.3328
賜名	-10.333
本末	-10.3332
灾	-10.3333
奪其	-10.334
日食	-10.3341
宫室	-10.3343
六日	-10.3347
自言	-10.3349
子儀	-10.335
佃	-10.3352
災異	-10.3355
可否	-10.3361
宗社	-10.3364
年四月	-10.3365
都督府	-10.3365
坤	-10.3367
諜	-10.3369
譖	-10.3369
為于	-10.3371
常山	-10.3371
摧	-10.3373
上疏曰	-10.3375
城門	-10.3376
三十六	-10.3376
納之	-10.3383
其主	-10.3386
大義	-10.3389
殂	-10.339
濠	-10.3391
艱難	-10.3395
人言	-10.3398
所用	-10.3402
披	-10.3404
於天下	-10.3406
不平	-10.3407
字子	-10.341
王者	-10.3411
馬軍	-10.3415
王莽	-10.3419
滑	-10.3423
戰死	-10.3423
世民	-10.3424
劭	-10.3429
矣今	-10.3432
晩	-10.3435
一官	-10.3441
冀州	-10.3446
有一	-10.3457
稹	-10.3467
紂	-10.3468
歙	-10.3472
堯舜	-10.3473
不惟	-10.3478
蠧	-10.3482
葺	-10.3482
桃	-10.3487
望之	-10.3489
李氏	-10.3501
之使	-10.3515
泊	-10.3515
侍講	-10.3515
兩路	-10.3517
便宜	-10.3519
脫	-10.3519
龎	-10.353
湖北	-10.3531
無忌	-10.3536
郡守	-10.3536
江翻	-10.3542
覇	-10.3548
簒	-10.3552
廣東	-10.3553
郝	-10.3554
叅	-10.3554
潞	-10.3559
將來	-10.356
城西	-10.3564
聰明	-10.3566
或謂	-10.357
笞	-10.3571
又奏	-10.3576
鄜延路	-10.3579
太常少卿	-10.3581
球	-10.3583
使疏吏翻	-10.3588
所請	-10.3589
兩省	-10.3594
責授	-10.3594
涪	-10.3595
為民	-10.3602
山川	-10.361
魁	-10.3616
熾	-10.3618
國王	-10.3621
召還	-10.3622
並令	-10.363
元帝	-10.3635
權發遣	-10.3636
滑州	-10.3642
列傳	-10.3647
汙	-10.365
晋	-10.3651
奠	-10.3656
潁川	-10.3657
不可得	-10.3661
者非	-10.3669
有竒	-10.3674
不自安	-10.3675
塵	-10.3681
囂	-10.3689
也且	-10.3689
後周	-10.3694
貴妃	-10.37
㳂	-10.3702
羸	-10.3704
何不	-10.3704
叡	-10.3707
其才	-10.3708
故城在今	-10.3709
黑	-10.3717
其城	-10.3718
浪	-10.372
弭	-10.3721
騎兵	-10.3723
而復	-10.3725
灼	-10.3727
拓	-10.3737
尊號	-10.3738
角翻	-10.374
狡	-10.3741
頥	-10.3745
殿中	-10.375
長樂	-10.3752
于朝	-10.3753
遍	-10.3753
狹	-10.3756
之物	-10.3766
餘衆	-10.3772
棘	-10.3772
勒停	-10.3774
畝	-10.3774
切又	-10.3777
所獲	-10.3787
郊祀	-10.3792
不易	-10.3797
范陽	-10.3811
關中	-10.3813
進築	-10.3817
俄	-10.3818
滎陽	-10.3818
所敗	-10.382
賁	-10.3823
所欲	-10.3824
跪	-10.3826
芝	-10.3831
永安	-10.3832
途	-10.3833
鶴	-10.3835
無敢	-10.3835
不食	-10.3838
秘	-10.3838
諳	-10.3838
不失	-10.3841
旻	-10.3842
十七年	-10.3845
河朔	-10.3845
新法	-10.3846
甚多	-10.3846
蘭州	-10.3848
磨	-10.3856
可乎	-10.3857
輜重	-10.3864
軍統制	-10.3869
中使	-10.3871
版	-10.3871
恬	-10.3872
呈	-10.3877
勝非	-10.3878
相州	-10.3881
諭以	-10.3885
根本	-10.3886
十六日	-10.3887
恂	-10.3892
三司使	-10.3892
豪傑	-10.3892
之力	-10.3894
所過	-10.3895
完顔	-10.3896
復遣	-10.3899
洙	-10.3901
銷	-10.3905
迭	-10.3906
主之	-10.3907
之亂	-10.3909
所云	-10.3921
上黨	-10.3922
逞	-10.3922
劵	-10.3922
縁邊	-10.3924
數所	-10.3924
弟子	-10.3925
記曰	-10.3928
一言	-10.393
之世	-10.3934
似道	-10.3935
揖	-10.3941
斃	-10.3942
差役	-10.3944
永興	-10.3945
人數	-10.3947
馭	-10.3952
罪人	-10.3963
輅	-10.3963
十餘年	-10.3966
員外郎	-10.3968
出身	-10.3968
今從之	-10.3971
萇	-10.3976
宫人	-10.3977
故城	-10.3978
最為	-10.398
北京	-10.3988
知樞宻院事	-10.399
鄧州	-10.3993
栗	-10.4001
沐	-10.4012
夲	-10.4016
安能	-10.4017
都䕶	-10.4022
㳺	-10.4024
椿	-10.4026
枕	-10.4026
朱勝非	-10.403
嬖	-10.4033
其弊	-10.4034
其徒	-10.4037
以歸	-10.4039
逋	-10.404
諸國	-10.4043
察其	-10.4051
前代	-10.4053
浙東	-10.4059
亦當	-10.406
蹙	-10.4063
囬	-10.4064
大河	-10.4064
零	-10.4065
欣	-10.407
七人	-10.4071
侍衛	-10.4073
飬	-10.4077
職官	-10.4078
不堪	-10.4079
兩淮	-10.4085
凉州	-10.4088
亳州	-10.4091
端明殿學士	-10.4092
苟	-10.4093
己夘	-10.4093
姻	-10.4096
之失	-10.41
器械	-10.4103
部曲	-10.4105
少保	-10.4105
行事	-10.4107
紳	-10.4114
弄	-10.4115
商人	-10.4118
紿	-10.4118
注云	-10.4119
甄	-10.4119
為天下	-10.4127
弋	-10.4128
其職	-10.4129
人材	-10.4129
而有	-10.413
者乎	-10.4132
亦曰	-10.4136
爾等	-10.4137
嘗為	-10.4139
法令	-10.4142
之才	-10.4143
鑄錢	-10.4143
淹	-10.4145
奉表	-10.4146
底	-10.415
大學士	-10.415
肅宗	-10.415
驍	-10.4155
純仁	-10.4156
等曰	-10.4157
親戚	-10.4159
他人	-10.4161
之國	-10.4161
瑋	-10.4162
兵至	-10.4169
甚厚	-10.4171
之論	-10.4171
障	-10.4172
魏王	-10.4174
稱臣	-10.4176
所當	-10.418
不法	-10.4181
黄門	-10.4184
僑	-10.4186
受其	-10.419
入于	-10.4191
城在	-10.4197
治直	-10.4199
廷臣	-10.4201
不幸	-10.4201
流民	-10.4201
歆	-10.4202
家人	-10.4206
劫	-10.4208
梁主	-10.4209
瓚	-10.4209
九日	-10.4212
豈非	-10.4213
吳越	-10.4219
糧草	-10.422
此皆	-10.4222
彧	-10.4223
財賦	-10.4225
飲食	-10.4227
招撫	-10.4236
恐其	-10.4237
兵攻	-10.4242
蘄	-10.4247
大體	-10.425
伏兵	-10.4252
家屬	-10.4258
楷	-10.426
後宫	-10.4261
屯兵	-10.427
譯	-10.4274
入宫	-10.4277
澗	-10.4278
有言	-10.4278
上命	-10.428
禁止	-10.428
之盛	-10.4285
經畧司	-10.4286
竦	-10.4286
矣然	-10.4288
金國	-10.4288
元符	-10.429
司農寺	-10.4293
言曰	-10.4307
炳	-10.4308
二年春正月	-10.4308
覩	-10.4309
太常寺	-10.431
詩賦	-10.4311
應之	-10.4311
可得	-10.4311
漢主	-10.4313
名在	-10.4314
三千人	-10.4315
已見	-10.4315
舟師	-10.4318
有詔	-10.4318
值	-10.4325
迷	-10.4329
賢者	-10.4333
元年春正月	-10.4338
觀其	-10.4343
三十萬	-10.4349
使其	-10.4349
大禮	-10.435
鄆州	-10.4352
觀望	-10.4365
庠	-10.4369
燧	-10.4371
漢王	-10.4379
寫	-10.4379
守令	-10.438
受之	-10.4381
佳	-10.4381
巖叟	-10.4384
王室	-10.4387
今陛下	-10.4387
人所	-10.4389
因其	-10.4392
討賊	-10.4393
訊	-10.4397
冐	-10.4398
何故	-10.4402
檀	-10.4402
其君	-10.4409
不屈	-10.4409
召對	-10.4409
或作	-10.442
十八年	-10.4424
不止	-10.4426
奉行	-10.4429
有㫖	-10.443
鄒	-10.4435
鬱	-10.444
戸部	-10.444
等奏	-10.4443
估	-10.4447
童貫	-10.4449
帝崩	-10.4453
川陜	-10.4454
其身	-10.4461
城外	-10.4463
授以	-10.4464
四夷	-10.4465
山陽	-10.4465
西賊	-10.4465
悅	-10.4467
慶厯	-10.4468
莫能	-10.4468
沉	-10.447
若此	-10.4471
守備	-10.4474
闇	-10.4477
紇	-10.4478
中尉	-10.4478
十五里	-10.4482
吕大防	-10.4487
門下侍郎	-10.4488
隕	-10.4491
武氏	-10.4492
俠	-10.4494
今乃	-10.4496
杞	-10.4498
梓	-10.4506
廪	-10.4507
為皇太子	-10.4509
浙江	-10.451
埶	-10.4511
白馬	-10.4513
鄂州	-10.4524
起居郎	-10.4528
州安置	-10.4531
軍旅	-10.4532
留之	-10.4532
之黨	-10.4534
都部署	-10.4537
棟	-10.4541
者衆	-10.4542
重兵	-10.4543
諸科	-10.4557
無一	-10.4558
逰	-10.456
愿	-10.4561
以書	-10.4561
汰	-10.4563
廓	-10.4563
鄆	-10.4565
河決	-10.4569
汝州	-10.4571
貲	-10.4571
不識	-10.4572
殿前	-10.4572
降者	-10.4572
壤	-10.4581
晨	-10.4582
及諸	-10.4584
繒	-10.4586
山南	-10.459
十四日	-10.4591
信之	-10.4594
蔡州	-10.4596
愆	-10.4596
發明	-10.4598
授之	-10.4599
河水	-10.4599
憑	-10.4602
宦	-10.4604
冬十二月	-10.4604
覿	-10.4611
舌	-10.4616
二十五	-10.4617
事有	-10.4617
英宗	-10.4618
䑓	-10.463
龍圖閣直學士	-10.463
伏望聖慈	-10.4631
承天	-10.4631
之内	-10.4631
五品	-10.4633
徽猷閣待制	-10.4633
第五	-10.4634
齊人	-10.4634
如字	-10.4637
冶	-10.464
金城	-10.4641
范純仁	-10.4648
文書	-10.4649
陪	-10.465
趙普	-10.4653
山陵	-10.4653
永樂	-10.4654
騐	-10.4654
秋九月	-10.4658
魯侯	-10.4665
奨	-10.4669
欺罔	-10.467
永平	-10.467
都城	-10.4673
卭	-10.4673
雙	-10.4676
碎	-10.4676
琛	-10.4681
怒曰	-10.4681
飲酒	-10.4681
自謂	-10.4689
㕘	-10.4689
朝臣	-10.4693
俶	-10.4694
人多	-10.4695
其下	-10.4697
貝	-10.4697
相國	-10.4705
前此	-10.471
事體	-10.4713
之弟	-10.4715
錢糧	-10.4723
帝怒	-10.4725
燭	-10.4725
不少	-10.473
僻	-10.4731
掘	-10.4733
城北	-10.4735
㦸	-10.4738
回紇	-10.4738
安置	-10.4741
親王	-10.4741
壮	-10.4744
以疾	-10.475
陜州	-10.475
三十年	-10.4751
上乃	-10.4752
奭	-10.4753
昱	-10.4753
户部尚書	-10.4756
不滿	-10.4757
兼侍讀	-10.4759
事者	-10.476
猷	-10.4763
尤甚	-10.4765
代州	-10.4767
餘見通鑑	-10.4767
經略司	-10.4792
直龍圖閣	-10.4801
之君	-10.4802
去之	-10.4802
可令	-10.4805
琰	-10.4808
戰於	-10.4809
大驚	-10.481
無窮	-10.4819
提刑	-10.482
為亂	-10.4823
廩	-10.4823
沆	-10.4824
彛	-10.4824
後來	-10.4824
搆	-10.4825
之孫	-10.4828
可知	-10.4829
北平	-10.4833
札	-10.4837
水陸	-10.4838
癸夘	-10.484
則不	-10.484
汚	-10.4842
宼	-10.4845
北面	-10.4845
涇原路	-10.4848
湟	-10.4849
禮樂	-10.4853
不能自	-10.4856
和州	-10.4859
因此	-10.486
濤	-10.4861
退保	-10.4864
雍州	-10.4865
帝命	-10.4865
者悉	-10.4872
毫	-10.4875
蜀主	-10.4879
繡	-10.4881
貯	-10.4883
自守	-10.4884
其民	-10.4884
右丞相	-10.4885
以禮	-10.4892
之西	-10.4894
攜	-10.4896
輔政	-10.4896
大将軍	-10.4901
史官	-10.4902
築城	-10.4904
交通	-10.4905
藩鎮	-10.4905
男女	-10.491
易之	-10.4911
萬五千	-10.4918
議和	-10.492
領兵	-10.4921
四面	-10.4925
立為	-10.4927
以進	-10.4927
置酒	-10.4932
真定	-10.4933
刋	-10.4934
濁	-10.4937
商賈	-10.4941
萬物	-10.4943
死罪	-10.4947
不明	-10.4948
妙	-10.4949
贄	-10.4952
可行	-10.4953
所生	-10.4955
等事	-10.4957
世宗	-10.4963
縣界	-10.4967
無得	-10.4967
孝宗	-10.4968
唱	-10.4971
免役	-10.4973
王韶	-10.4973
通典	-10.4975
綂	-10.4976
其妻	-10.4978
七百	-10.4986
罷為	-10.4987
中正	-10.4988
牌	-10.499
特賜	-10.4992
蠡	-10.4997
有三	-10.4998
縣西北	-10.4999
猝	-10.4999
之風	-10.5
若水	-10.5
事也	-10.5004
藍	-10.5009
聖徳	-10.5015
渙	-10.5016
改曰	-10.5027
茶鹽	-10.5029
惰	-10.503
兇	-10.5031
死於	-10.5031
佩	-10.5032
兼侍講	-10.5036
左丞	-10.5039
豫州	-10.5045
承㫖	-10.5049
國朝	-10.505
已定	-10.5051
銘	-10.5051
不納	-10.5051
觸	-10.5052
槍	-10.5056
與戰	-10.5059
生民	-10.506
汶	-10.5062
居民	-10.5068
京畿	-10.507
衆人	-10.5071
三分	-10.5072
之路	-10.5075
副將	-10.5077
日厯	-10.508
十萬緡	-10.5083
兩翻	-10.5083
洪州	-10.5084
城東	-10.5085
市易	-10.5085
莊宗	-10.5089
年二月	-10.5092
膽	-10.5092
雋	-10.5098
雖不	-10.5099
不自	-10.5102
萬年	-10.5103
孔子曰	-10.5104
氏為	-10.5107
吕頥浩	-10.511
百餘里	-10.511
常州	-10.5111
弁	-10.5114
成帝	-10.5125
种	-10.5128
荅	-10.513
建武	-10.5134
阮	-10.5136
註	-10.5137
進用	-10.514
或以	-10.5144
者乃	-10.5145
又請	-10.5147
不允	-10.5148
即皇帝位	-10.5148
曰率	-10.5149
搜	-10.5151
解題曰按	-10.5152
之所以	-10.5152
上時掌翻	-10.5154
且曰	-10.5155
詹	-10.5156
王元	-10.5158
乃得	-10.5159
澹	-10.5164
郤	-10.5165
蠶	-10.5169
何必	-10.517
憲宗	-10.5172
上流	-10.5176
不成	-10.5176
甸	-10.5179
猶有	-10.5182
百司	-10.5183
壕	-10.5185
琅邪	-10.5186
艦	-10.5188
靈武	-10.5188
廖	-10.519
天下幸甚	-10.5193
編管	-10.5195
如有	-10.5197
凡三	-10.5202
區區	-10.5205
附此	-10.5206
封樁	-10.521
吳王	-10.5212
曩	-10.5214
臣請	-10.5215
蟲	-10.5216
知府	-10.5216
貧民	-10.522
河州	-10.5221
衛尉	-10.5224
知諫院	-10.5224
蔵	-10.5228
迄	-10.523
有疾	-10.5232
及第	-10.5237
卯	-10.5243
為司空	-10.5244
晞	-10.5246
圉	-10.525
民田	-10.5252
乃復	-10.5256
遂罷	-10.5256
將即	-10.5257
無過	-10.5258
既至	-10.5259
館職	-10.5261
馮翊	-10.5275
夷狄	-10.5277
一軍	-10.5279
之屬	-10.528
掖	-10.5281
事皆	-10.5281
的	-10.5286
武徳	-10.5287
百年	-10.5292
鄉里	-10.5293
本志	-10.5297
十九年	-10.5301
總兵官	-10.5302
邈	-10.5302
都虞候	-10.5304
衣冠	-10.5306
扇	-10.5306
不忠	-10.5306
上曰此	-10.5307
惲	-10.531
是歲	-10.531
鳳翔	-10.531
乆之	-10.5311
文公	-10.5312
以為言	-10.5314
也陛下	-10.5317
不死	-10.5321
之過	-10.5321
杲	-10.5323
筭	-10.5326
盱眙	-10.5327
吕惠卿	-10.5329
二聖	-10.533
縣東南	-10.5331
然而	-10.5337
論事	-10.5341
閤門祗候	-10.5342
不忘	-10.5342
因而	-10.5343
簽	-10.5346
以成	-10.5353
宣和	-10.5354
恊	-10.5359
鉞	-10.5362
藁	-10.5363
進封	-10.5363
愬	-10.5364
讜	-10.5366
大呼	-10.5366
勒兵	-10.5367
故城在	-10.5379
告之	-10.538
者則	-10.539
未易	-10.5396
二曰	-10.5398
列侯	-10.5403
踵	-10.5405
苻	-10.5407
羗	-10.5408
引去	-10.5417
步騎	-10.5425
鞅	-10.5426
具奏	-10.5429
營田	-10.5429
王欽若	-10.5435
舊法	-10.5439
陋	-10.5443
所向	-10.5444
圖之	-10.5445
高麗	-10.545
稱帝	-10.5455
二三	-10.5459
罷去	-10.5459
破賊	-10.5459
縣東北	-10.5463
漲	-10.5463
長公主	-10.5464
售	-10.5465
之實	-10.5465
近者	-10.5469
慶州	-10.5469
江夏	-10.547
上書言	-10.5471
安民	-10.5475
誡	-10.5483
島	-10.5483
覃	-10.5484
讀書	-10.5487
以報	-10.5488
邕州	-10.5488
靳	-10.5488
不可復	-10.5488
之敗	-10.5489
匪	-10.549
函	-10.5491
平章政事	-10.5494
應天	-10.5495
同知樞宻院事	-10.5497
改官	-10.5497
有才	-10.5499
為主	-10.5503
行宫	-10.5503
考之	-10.5505
除之	-10.5506
典禮	-10.5508
詔從之	-10.5509
事理	-10.5509
少詩	-10.551
不暇	-10.5514
鄭州	-10.5524
李克用	-10.5527
遣其	-10.5531
治道	-10.5533
初置	-10.5535
父老	-10.5535
扎	-10.5537
標	-10.5538
霄	-10.5544
十七日	-10.5548
親屬	-10.5551
府界	-10.5559
荘	-10.5561
為太尉	-10.5563
者三	-10.5564
裘	-10.5565
剽	-10.5567
故道	-10.5567
攷	-10.5568
散騎常侍	-10.557
利用	-10.5571
太上皇	-10.5577
論語	-10.5578
淤	-10.558
持節	-10.5581
璟	-10.5584
新城	-10.5584
班志	-10.5587
欲與	-10.5587
窘	-10.5588
兩制	-10.5592
使疏	-10.5592
琬	-10.5593
曄	-10.5595
今欲	-10.5596
非有	-10.5597
而進	-10.5599
京官	-10.56
辜	-10.5601
桓公	-10.5601
偷	-10.5602
九江	-10.5609
事見通鑑	-10.561
李憲	-10.5611
臘	-10.5612
西人	-10.5615
蠻夷	-10.5615
外戚	-10.5617
公曰	-10.5619
自成	-10.5621
欲望	-10.5624
潔	-10.5626
戶	-10.5626
車騎	-10.5627
誤國	-10.563
大名府	-10.563
必先	-10.5633
逐路	-10.5633
韓絳	-10.5637
天地之	-10.5638
仍舊	-10.5642
而入	-10.5642
鮑	-10.5645
景靈宫	-10.5647
穎	-10.5649
之恩	-10.565
渭州	-10.5652
乃令	-10.5654
此則	-10.5655
萬户	-10.5656
見於	-10.5659
朂	-10.5663
封禪	-10.5664
諂	-10.5665
之東	-10.5666
三曰	-10.5666
當是	-10.5667
建徳	-10.5667
祖宗之	-10.5667
西河	-10.5669
分為	-10.567
之權	-10.5671
畤	-10.5675
猥	-10.5675
治亂	-10.5677
曰天	-10.5684
熙河	-10.5685
自然	-10.5686
旬日	-10.5687
喧	-10.5687
置之	-10.5689
而罷	-10.5697
世孫	-10.5702
公論	-10.5703
卦	-10.5708
復用	-10.5709
其説	-10.5725
濠州	-10.5726
等第	-10.5726
又令	-10.5726
婚	-10.5729
祿山	-10.5731
若有	-10.5731
奏言	-10.5732
安世	-10.5733
諸葛	-10.5735
繼之	-10.5735
裏	-10.5738
勘㑹	-10.5738
不肖	-10.5741
所見	-10.5741
駱	-10.5741
又聞	-10.5745
修入	-10.5745
中書舎人	-10.5746
咸陽	-10.5747
集賢校理	-10.5749
之說	-10.5751
不知其	-10.5752
紛	-10.5759
二十里	-10.5765
士人	-10.5765
以獻	-10.5767
為丞相	-10.5769
遷官	-10.5773
縣西南	-10.5775
為姦	-10.5778
堅守	-10.5782
土地	-10.5788
脚	-10.5791
打	-10.5791
當在	-10.5792
杜佑曰	-10.5796
箕	-10.5797
鹽鐵	-10.58
南山	-10.5802
之南	-10.5803
則無	-10.5803
出奔	-10.5809
滔	-10.5809
衷	-10.5813
芮	-10.5813
尚書左丞	-10.5814
拂	-10.5814
大功	-10.5815
陛下之	-10.5816
侯景	-10.5821
兩府	-10.5822
恢復	-10.5823
班師	-10.5825
之主	-10.5827
羽林	-10.5827
六百	-10.583
京朝官	-10.5831
休息	-10.5834
杭	-10.5835
孝皇帝	-10.5838
所書	-10.5839
無人	-10.5839
亦未	-10.5841
大名	-10.5843
軍承宣使	-10.5852
圍之	-10.5855
不取	-10.5856
之餘	-10.5856
不服	-10.586
提要	-10.5861
閹	-10.5864
江北	-10.5867
兼領	-10.5871
者即	-10.5872
嗜	-10.5873
黍	-10.5873
回鶻	-10.5873
羲	-10.5877
允文	-10.5881
内有	-10.5882
二府	-10.5887
扶風	-10.5887
時人	-10.5889
十五日	-10.5892
將佐	-10.5893
漁	-10.5893
起居舍人	-10.5893
官制	-10.5894
珣	-10.5898
肩	-10.5898
蔡卞	-10.5899
暗	-10.5902
壯士	-10.5904
邯鄲	-10.5904
之勞	-10.5909
以濟	-10.5912
蜀人	-10.5913
户口	-10.5913
韜	-10.5917
吝	-10.5919
延安	-10.592
而用之	-10.5923
大懼	-10.5924
其法	-10.5925
御筆	-10.5925
萊	-10.5925
不待	-10.5927
十八日	-10.593
夏州	-10.5932
揮	-10.5934
其他	-10.5935
北漢	-10.5936
為首	-10.5937
牓	-10.5937
狩	-10.5938
者甚衆	-10.5939
給之	-10.5942
挫	-10.5943
詔罷	-10.5945
此月	-10.5946
黄巢	-10.5947
出降	-10.5948
政府	-10.5952
武陵	-10.5953
不願	-10.5954
兩宫	-10.5957
疑之	-10.5957
鄭伯	-10.5964
擊破之	-10.5965
綺	-10.597
請罷	-10.5972
多所	-10.5978
中書門下	-10.5978
甥	-10.5981
骨肉	-10.5982
為政	-10.5982
外任	-10.5993
金陵	-10.5996
夀春	-10.5999
去處	-10.6003
廣平	-10.6005
股	-10.6005
猾	-10.6007
長知兩翻	-10.6007
不進	-10.6007
岀	-10.601
懈	-10.601
開門	-10.601
縣官	-10.6014
水軍	-10.6016
邪正	-10.6021
東路	-10.6023
羙	-10.6023
復有	-10.6024
每嵗	-10.6027
熲	-10.6029
几	-10.6031
乗輿	-10.6034
詔㫖	-10.6034
半年	-10.6036
魏博	-10.6038
沖	-10.6045
愁	-10.6046
鞠	-10.605
修撰	-10.6058
所陳	-10.6066
梓宫	-10.6067
自知	-10.6067
其數	-10.6071
犇	-10.6073
治平	-10.6075
帝即位	-10.6076
得志	-10.6078
從而	-10.6078
年十月	-10.6081
四千	-10.6083
兩人	-10.6083
弘	-10.6087
裝	-10.6088
艘	-10.6089
狗	-10.6089
添差	-10.6094
世家	-10.6094
獠	-10.6095
北流	-10.61
希烈	-10.6102
酋長	-10.6104
邦彦	-10.6104
時政	-10.6107
春三月	-10.6107
銖	-10.6111
乃還	-10.6113
陽郡	-10.6114
中都	-10.6115
軍國	-10.612
滄州	-10.6122
獨不	-10.6124
瀘州	-10.6125
戩	-10.6125
平城	-10.6131
綜	-10.6133
縳	-10.6135
蹇	-10.6135
一嵗	-10.6135
天子之	-10.6136
入海	-10.6138
境内	-10.614
特進	-10.6142
漠	-10.6155
縉	-10.6156
宣州	-10.6157
旰	-10.616
寝	-10.6171
紛紛	-10.6171
駁	-10.6172
吹	-10.6176
泉州	-10.6178
涕	-10.6181
經畧	-10.6183
欽定四庫全書續資治通鑑長編巻	-10.6192
乞令	-10.6192
禘	-10.6194
漢陽	-10.6197
傍	-10.6199
以私	-10.6201
守忠	-10.6201
三鎮	-10.6202
退而	-10.6205
五代志	-10.6206
商量	-10.6211
諭之	-10.6212
元和	-10.6214
昌言	-10.6216
多不	-10.6216
所能	-10.6216
不一	-10.6217
敢言	-10.6217
膠	-10.6219
事君	-10.6223
見前	-10.6224
極言	-10.6227
三年春正月	-10.623
久矣	-10.6233
之重	-10.6236
承議郎	-10.6238
出城	-10.6241
庶子	-10.6245
不獲	-10.6247
神主	-10.6248
汝愚	-10.625
臣謂	-10.6252
二十八	-10.6253
之要	-10.6254
嬪	-10.6255
不加	-10.6259
桂州	-10.626
魏州	-10.626
問曰	-10.626
崧	-10.626
居中	-10.6264
召之	-10.6265
何足	-10.6266
分道	-10.6269
凡五	-10.627
廼	-10.6275
正統	-10.6277
著作佐郎	-10.6278
勾當	-10.6279
下令	-10.6284
以俟	-10.6284
躍	-10.6285
諫議大夫	-10.6285
飯	-10.6286
總督	-10.6297
臺諌	-10.6302
峒	-10.6304
三輔	-10.6307
尚有	-10.6308
未㡬	-10.6309
大國	-10.6311
為司徒	-10.6312
威福	-10.6315
如舊	-10.6318
建州	-10.6324
䜛	-10.6325
昊	-10.6326
城人	-10.6327
緫	-10.6329
郁	-10.6329
内附	-10.6333
余謂	-10.6335
青唐	-10.6337
其謀	-10.6338
懷光	-10.6339
地名	-10.634
暨	-10.6343
渥	-10.6346
膚	-10.6347
柏	-10.6347
示之	-10.6348
六曹	-10.6349
沿邊	-10.6352
所薦	-10.6353
越州	-10.6354
入内	-10.6354
者有	-10.6361
衣服	-10.6361
新知	-10.6365
構	-10.6366
鵬	-10.637
稱賀	-10.6371
熱	-10.6373
歐陽	-10.6378
棄之	-10.6378
盡忠	-10.6379
之號	-10.6379
今已	-10.6384
曼	-10.639
叟	-10.6391
隰	-10.6392
提舉司	-10.6393
涕泣	-10.6393
政目	-10.6399
二員	-10.6401
諸處	-10.6405
掌翻	-10.6407
浪翻	-10.6413
晉人	-10.6413
固請	-10.6414
黯	-10.6414
忱	-10.6418
杜預	-10.6418
進取	-10.6419
斫	-10.6421
輔國	-10.6423
失之	-10.6426
並罷	-10.6427
敵騎	-10.643
得一	-10.643
羞	-10.6433
爰	-10.6439
二十二	-10.6442
許州	-10.6444
而殺之	-10.6448
陽人	-10.6454
黙然	-10.6454
四路	-10.6455
以實	-10.6458
役法	-10.6459
騎竒寄翻	-10.6461
冉	-10.6461
抄	-10.6462
世充	-10.6463
多矣	-10.6465
恚	-10.6467
曰彼	-10.647
人人	-10.6473
頥浩	-10.6476
鋪	-10.6477
三軍	-10.6477
五帝	-10.6478
揀	-10.6479
技	-10.6479
西平	-10.6482
上時	-10.6485
九人	-10.6491
謂其	-10.6492
之始	-10.65
姊	-10.6502
師中	-10.6503
河南府	-10.6505
上怒	-10.6509
之本	-10.6512
軍政	-10.6515
諸公	-10.6518
不以為	-10.6519
天章閣待制	-10.6522
詡	-10.6524
軫	-10.6525
渝	-10.6526
工部尚書	-10.6526
太宰	-10.6528
簾	-10.653
華州	-10.6532
又如字	-10.6532
思明	-10.6532
梁燾	-10.6534
兼知	-10.6537
從者	-10.6537
今從實録	-10.6539
自此始	-10.6543
藻	-10.6543
但以	-10.6543
四州	-10.6544
四萬	-10.6546
止於	-10.6547
為天子	-10.6552
兵士	-10.6553
年號	-10.6554
定國	-10.6554
東方	-10.6555
汜	-10.6559
親征	-10.6566
之道也	-10.6567
京兆尹	-10.6568
熙寧	-10.6571
譛	-10.6572
上欲	-10.6572
尚未	-10.6573
事實	-10.6574
百五十	-10.6575
謁者	-10.6578
詹事	-10.6578
其首	-10.6579
道士	-10.6579
晉主	-10.658
曰臣聞	-10.6581
括地志	-10.6582
因之	-10.6584
嫉	-10.6589
染	-10.6596
朝士	-10.6597
必無	-10.6601
遣將	-10.6607
籌	-10.6615
祭祀	-10.6615
此其	-10.6615
綵	-10.6616
紘	-10.6616
大舉	-10.6624
南朝	-10.6628
御集	-10.6629
尚書左僕射	-10.6631
可不	-10.6635
以正	-10.6635
玄	-10.6639
不果	-10.6639
之辭	-10.6642
承嗣	-10.6646
為害	-10.6652
大風	-10.6652
不實	-10.6655
韓侂胄	-10.6659
天聖	-10.6661
不預	-10.6661
扞	-10.6667
北方	-10.6669
賞賜	-10.6669
以應	-10.667
隴右	-10.6673
則可	-10.6679
聖明	-10.668
味	-10.6686
五百人	-10.6687
交結	-10.669
徳明	-10.6693
應劭曰	-10.6696
本部	-10.6696
慤	-10.6702
申明	-10.6703
彗	-10.6704
足矣	-10.6704
冢	-10.6705
欲立	-10.6706
隣	-10.6706
諧	-10.671
六軍	-10.6712
時事	-10.6712
北朝	-10.6716
之業	-10.6716
粮	-10.6724
黄金	-10.6726
違者	-10.6727
礙	-10.6728
論奏	-10.6728
地分	-10.6731
多少	-10.6732
柔然	-10.6737
永嘉	-10.6738
義勇	-10.6738
歷	-10.6739
其志	-10.6742
無故	-10.6742
同州	-10.6743
宜令	-10.6744
乃可	-10.6746
畧曰	-10.6747
遂為	-10.6747
降于	-10.675
武皇帝	-10.6751
暢	-10.6753
涇州	-10.6757
愔	-10.6758
南安	-10.6766
江都	-10.6767
耳今	-10.6768
睢	-10.6769
冬至	-10.6769
為節度使	-10.6773
下邳	-10.6774
捧	-10.6775
同心	-10.6777
奄	-10.6778
表裏	-10.6778
經畧使	-10.678
有寵	-10.678
湖州	-10.678
行者	-10.6782
付之	-10.6785
乾元	-10.6787
皆無	-10.679
斡	-10.6793
覺察	-10.6793
棺	-10.6799
章疏	-10.68
桐	-10.68
䕃	-10.6802
渚	-10.6802
一舉	-10.6803
校書郎	-10.6814
郵	-10.6814
講和	-10.6816
大明	-10.6816
晁	-10.6817
刪去	-10.6817
范祖禹	-10.6817
吳主	-10.6821
瘞	-10.6825
斧	-10.6828
是故	-10.6828
敗績	-10.683
永興軍	-10.6833
被執	-10.6833
見錢	-10.6836
上幸	-10.6837
征伐	-10.6839
翰林學士承㫖	-10.684
大都督	-10.684
頡	-10.684
募兵	-10.6842
十二日	-10.6843
戢	-10.6844
覈	-10.6848
置司	-10.685
望風	-10.685
文臣	-10.6857
其將	-10.6858
輕騎	-10.6859
人有	-10.6869
疑其	-10.6873
都省	-10.6875
北界	-10.6876
悉以	-10.6877
因循	-10.6881
蔚	-10.6883
罪惡	-10.6883
而不知	-10.6883
垂簾	-10.6885
薦之	-10.6886
將校	-10.6887
太上皇帝	-10.6893
登城	-10.6895
之難	-10.6899
非所	-10.69
新舊	-10.6901
樞密	-10.6902
比年	-10.6908
之文	-10.6911
稔	-10.6911
欒	-10.6912
進軍	-10.6913
禮義	-10.6913
奉聖㫖	-10.6913
四十里	-10.6915
墾	-10.6917
越王	-10.6925
統軍	-10.6926
孝文	-10.6926
財物	-10.6928
朝奉郎	-10.6928
論者	-10.6929
收其	-10.693
衙前	-10.693
楚人	-10.6933
未定	-10.6934
一萬	-10.6934
樸	-10.6935
青苗	-10.6938
亦非	-10.6941
衛士	-10.6944
宋公	-10.6945
逢吉	-10.6946
覲	-10.6949
天之	-10.6954
亦言	-10.6958
罷相	-10.6959
境上	-10.6959
朝廷以	-10.696
陽侯	-10.696
姑息	-10.6966
海陵	-10.6969
邉事	-10.6972
二十七	-10.6975
王宗	-10.6976
帝幸	-10.6977
竟不	-10.6977
今日之	-10.6978
以待之	-10.6979
北地	-10.698
夙夜	-10.6981
利州	-10.6983
槐	-10.6985
廣漢	-10.6987
奏聞	-10.6988
髙陽	-10.699
執之	-10.6996
號為	-10.6996
燕京	-10.6997
之害	-10.7
仍以	-10.7
忠厚	-10.7
州治	-10.7003
殄	-10.7008
八千	-10.7009
康王	-10.7012
招納	-10.7013
以慰	-10.7013
勤王	-10.7019
安西	-10.702
不可用	-10.7023
怨望	-10.7024
事在	-10.7026
光弼	-10.7028
所置	-10.7028
彥	-10.703
猜	-10.7031
天祥	-10.7039
武藝	-10.704
不測	-10.7042
池州	-10.7044
嗚呼	-10.7046
臨江	-10.7049
餘皆	-10.705
將吏	-10.705
軍器	-10.7053
乃是	-10.706
則必	-10.7062
對曰臣	-10.7062
齡	-10.7067
標目	-10.7068
有過	-10.7069
禍福	-10.7071
盍	-10.7078
承宗	-10.7078
引見	-10.7079
豫州刺史	-10.708
䜟	-10.7082
而行之	-10.7082
若以	-10.7087
擢用	-10.7093
縝	-10.7093
招討	-10.7096
隸	-10.7098
先王之	-10.7104
唐書	-10.7105
車騎將軍	-10.7107
晃	-10.7107
君父	-10.7108
副都	-10.711
明矣	-10.7111
不知何	-10.7111
用度	-10.7115
三等	-10.7115
思之	-10.7118
劾奏	-10.7118
復還	-10.7119
常侍	-10.7119
買馬	-10.712
吞	-10.7127
此非	-10.7135
便殿	-10.7141
恐非	-10.7141
從之詔	-10.7141
九州	-10.7146
之學	-10.7147
昻	-10.7148
得㫖	-10.7155
亦自	-10.7156
延夀	-10.7159
逐之	-10.716
唐制	-10.7164
諛	-10.7167
民兵	-10.7168
繋	-10.7169
僖	-10.7171
匠	-10.7172
其書	-10.7172
州牧	-10.7172
朔詔	-10.7182
甲兵	-10.7185
言陛下	-10.7187
方平	-10.7187
萬騎	-10.7188
遣還	-10.719
歸于	-10.719
乃出	-10.7191
熒惑	-10.7192
衢	-10.7192
朝堂	-10.7192
寺監	-10.7193
泚	-10.7193
見上卷	-10.7196
刑部侍郎	-10.7197
煬帝	-10.7197
牀	-10.7204
所致	-10.7204
提刑司	-10.7209
乘輿	-10.7209
萬計	-10.7209
男子	-10.7213
民有	-10.7218
踰年	-10.7218
煥	-10.7223
寐	-10.7224
而自	-10.7226
莫如	-10.7233
鎮撫	-10.7233
亞	-10.7236
皆以為	-10.7236
乗勝	-10.7238
黼	-10.7248
逺方	-10.7249
穰	-10.7251
北人	-10.7253
愛民	-10.7254
武德	-10.7258
保明	-10.7259
居之	-10.726
議事	-10.7262
不信	-10.7264
左氏	-10.7264
認	-10.7266
紊	-10.7266
叩頭	-10.7266
以是	-10.7267
海州	-10.7267
南郡	-10.7267
即以	-10.7268
直史館	-10.7269
餘黨	-10.7271
弓手	-10.7272
言者論	-10.728
樁	-10.7283
備禦	-10.7288
都堂	-10.7292
蛇	-10.7293
愷	-10.7299
翦	-10.73
我軍	-10.7301
饒州	-10.7301
愛之	-10.7302
洪武	-10.7312
右司諫	-10.7312
宣王	-10.7313
狥	-10.7314
伐之	-10.7315
拾遺	-10.7316
為患	-10.7317
邊臣	-10.7318
宻院	-10.7321
剥	-10.7322
用此	-10.7322
山縣	-10.7323
上都	-10.7324
以問	-10.7329
學校	-10.7329
賑濟	-10.733
上有	-10.7337
有異	-10.7338
臻	-10.734
宣仁	-10.7344
劉裕	-10.7351
乃使	-10.7354
石勒	-10.7355
迂	-10.7358
間道	-10.7359
渤海	-10.7362
兩河	-10.7363
學官	-10.7368
所親	-10.737
増入	-10.737
北海	-10.7374
於前	-10.7374
主事	-10.7376
皇城使	-10.7383
無有	-10.7384
莘	-10.7384
金吾	-10.7385
依前	-10.7386
詔有司	-10.7387
以拒	-10.7388
二十一	-10.7389
見任	-10.739
楊氏	-10.7392
雨雹	-10.7392
至公	-10.7392
徃來	-10.7399
為此	-10.7399
王建	-10.7401
仁義	-10.7405
南詔	-10.7405
郡太守	-10.7406
系	-10.7407
珏	-10.7408
覬	-10.741
竹書	-10.7411
開封府界	-10.7412
枚	-10.7417
武功	-10.7418
滄	-10.7418
薛史	-10.7421
顗	-10.7421
無名	-10.7423
首尾	-10.7425
芮翻	-10.7425
表請	-10.7426
京口	-10.7429
都御史	-10.7433
倦	-10.7434
吕夷簡	-10.7435
圜丘	-10.7435
御營	-10.7436
不治	-10.7437
朕意	-10.7438
仙芝	-10.744
明州	-10.744
璠	-10.744
禄山	-10.7441
供職	-10.7442
謹按	-10.7447
役錢	-10.7448
道也	-10.745
欲使	-10.7456
慝	-10.7457
都司	-10.7457
秦鳯	-10.7458
國主	-10.746
儔	-10.7461
濵	-10.7462
黥	-10.7463
過失	-10.7466
領之	-10.7469
餘人	-10.7469
甚矣	-10.7473
尚書右丞	-10.7474
趙氏	-10.7475
長驅	-10.7475
叔父	-10.7476
以列	-10.7477
葵	-10.7479
一方	-10.7481
塟	-10.7481
李光	-10.7484
為庶人	-10.7486
軍法	-10.7487
郭子儀	-10.7487
殆盡	-10.7489
各以	-10.7492
而又	-10.7494
戒之	-10.7495
從子	-10.75
觧題曰	-10.7503
劉錡	-10.7503
未足	-10.7505
國家之	-10.7505
欲用	-10.7507
東郡	-10.7508
盡力	-10.7508
埒	-10.7509
西界	-10.7509
頸	-10.7513
别無	-10.7519
訐	-10.752
錢帛	-10.7521
拒守	-10.7521
又欲	-10.7523
郷	-10.7523
姦臣	-10.7525
所出	-10.7526
委任	-10.7526
皆得	-10.7531
但云	-10.7531
廟堂	-10.7532
夔	-10.7535
特與	-10.7535
將相	-10.7537
聖心	-10.7549
之半	-10.7552
宗道	-10.7553
又按	-10.7554
孟翻	-10.7554
奉祠	-10.7556
山谷	-10.7559
貢舉	-10.756
告急	-10.7561
以圖	-10.7565
仆	-10.7566
怖	-10.7567
自相	-10.7568
千户	-10.7569
以死	-10.7569
嘆	-10.757
襄王	-10.7574
武安	-10.7575
武都	-10.7576
觀文殿大學士	-10.7579
二帝	-10.7582
大雨	-10.7582
竝	-10.7584
清臣	-10.7584
萬嵗	-10.7588
聚衆	-10.7589
九成	-10.7591
陳乞	-10.7592
並進	-10.7595
已行	-10.7595
若干	-10.7597
勝負	-10.7598
繞	-10.7598
二十三	-10.7605
四年春正月	-10.7606
延慶	-10.7609
非常	-10.761
鉉	-10.7612
衣食	-10.7616
聊	-10.7617
公弼	-10.7619
萬貫	-10.7623
喀	-10.7624
伏望陛下	-10.7624
一朝	-10.7625
各置	-10.7628
以救	-10.7632
至矣	-10.7633
𦍑	-10.7634
經術	-10.7635
蔑	-10.7636
宗族	-10.7636
集議	-10.764
遺詔	-10.7642
譬	-10.7642
衛大將軍	-10.7645
長孫	-10.7647
不稱	-10.7648
叔孫	-10.7648
累年	-10.7651
東陽	-10.7651
有二	-10.7652
簽書	-10.7652
兼侍中	-10.7658
嵗月	-10.7662
代王	-10.7663
亘	-10.7664
公輔	-10.7665
僧辯	-10.7666
咄	-10.7667
降户	-10.7667
紆	-10.7669
都轉運使	-10.7672
國體	-10.7672
元吉	-10.7676
時為	-10.7677
遣其將	-10.7682
闕下	-10.7682
之戒	-10.7683
件	-10.7684
鎔	-10.7685
倨	-10.7688
議之	-10.769
相持	-10.7691
降之	-10.7695
轉官	-10.7696
堯臣	-10.7698
其本	-10.77
何可	-10.7707
存之	-10.7707
釗	-10.771
婆	-10.7712
不恤	-10.7713
留意	-10.7718
語言	-10.772
以奉	-10.7726
自當	-10.7732
建成	-10.7733
其軍	-10.7735
敢不	-10.7738
建中	-10.774
堯佐	-10.7745
患之	-10.7749
鎮江府	-10.7751
大金	-10.7756
司言	-10.7756
任之	-10.7757
偵	-10.7763
十餘里	-10.7766
州居住	-10.777
邢州	-10.777
檢討	-10.7775
欲自	-10.7778
陕西	-10.7778
合肥	-10.7782
天道	-10.7782
稜	-10.7783
嶠	-10.7784
西路	-10.7785
所論	-10.7785
還從宣翻	-10.7787
徳音	-10.7792
臨朝	-10.7792
鴈門	-10.7794
以給	-10.7796
忻	-10.7798
麟府	-10.78
數萬人	-10.7802
言近	-10.7803
明宗	-10.7807
食之	-10.7807
網	-10.781
光逺	-10.7811
夏侯	-10.7812
論之	-10.7814
峴	-10.7814
張氏	-10.7814
張掖	-10.7817
當國	-10.782
嶷	-10.7821
大旱	-10.7822
出塞	-10.7823
錦州	-10.7829
裳	-10.783
年七月	-10.7831
中國之	-10.7831
躁	-10.7835
諸君	-10.7842
克之	-10.7846
譟	-10.7848
南康	-10.785
交州	-10.7852
追尊	-10.7859
聶	-10.7861
其兄	-10.7861
謂之曰	-10.7863
羨	-10.7863
傲	-10.7864
之氣	-10.7865
其議	-10.7866
意欲	-10.7866
縣人	-10.7867
民心	-10.7867
湊	-10.7869
帝意	-10.787
異議	-10.7871
少傅	-10.7877
倉卒	-10.7877
擒之	-10.7879
前軍	-10.7885
濟河	-10.7886
之㑹	-10.7893
之處	-10.7893
安在	-10.7898
再任	-10.79
南面	-10.7905
河東路	-10.7909
處昌	-10.7909
不避	-10.791
慧	-10.7911
起於	-10.7911
互相	-10.7912
籠	-10.7914
十數	-10.7915
无	-10.7915
甘泉	-10.7917
招安	-10.7921
岷	-10.7925
環慶路	-10.7925
闔	-10.7926
檢㑹	-10.7928
助之	-10.7928
文章	-10.7929
所知	-10.7932
父兄	-10.7932
給事	-10.7936
漢縣	-10.7938
建言	-10.7941
為御史大夫	-10.7941
沈括	-10.7943
之位	-10.7945
為界	-10.7946
皆出	-10.7949
氏為皇后	-10.795
綱紀	-10.7951
按察	-10.7951
其先	-10.7952
戰國	-10.7961
𢎞農	-10.7961
氏曰	-10.7965
倭	-10.7966
据	-10.7968
有闕	-10.7969
石頭	-10.7975
灋	-10.7975
不任	-10.7979
興師	-10.7981
人民	-10.7982
城郭	-10.7982
琨	-10.7982
五十里	-10.7984
焚其	-10.7987
磧	-10.7994
進奉	-10.7998
至誠	-10.801
受詔	-10.8011
未嘗不	-10.8011
隳	-10.8014
賫	-10.8014
刑罰	-10.8015
訪聞	-10.8015
郯	-10.8015
撲	-10.8022
正人	-10.8024
補外	-10.8025
四曰	-10.8028
軍興	-10.8028
王倫	-10.8028
宣武	-10.803
為侍中	-10.8031
已死	-10.8034
伴	-10.8036
楚子	-10.8037
祜	-10.8038
数	-10.8041
瑕	-10.8042
學士院	-10.8043
第四	-10.8043
驥	-10.8043
黜陟	-10.8046
百官表	-10.8049
禮也	-10.8051
衛侯	-10.8054
邠州	-10.8056
上疏言	-10.8057
罷兵	-10.806
之死	-10.8063
諸軍事	-10.8065
以避	-10.8066
初無	-10.8067
雀	-10.8067
戰敗	-10.8069
伎	-10.807
盛徳	-10.8071
又命	-10.8071
鼻	-10.8072
宣慰	-10.8072
乃自	-10.8073
今既	-10.8073
以張	-10.8074
樞宻院言	-10.8078
五里	-10.8082
官員	-10.8082
承平	-10.8088
銅錢	-10.8089
不得其	-10.8091
城陷	-10.8092
罹	-10.8093
諡忠	-10.8094
夏竦	-10.8097
有天下	-10.8099
頗有	-10.8107
加以	-10.8107
無子	-10.8109
統領	-10.8111
三省樞宻院	-10.8112
鉅	-10.8112
五路	-10.8113
舊録	-10.8115
訛	-10.8115
防禦使	-10.8116
相去	-10.8116
責其	-10.8116
承制	-10.8119
壺	-10.8119
不動	-10.8119
四時	-10.812
慘	-10.8123
實為	-10.8125
亦如之	-10.8125
我師	-10.8126
不豫	-10.8128
二王	-10.8129
既得	-10.8129
㢘	-10.8129
曇	-10.813
立子	-10.8131
海道	-10.8131
墻	-10.8131
順天	-10.8134
募人	-10.814
其門	-10.814
不得不	-10.8141
見在	-10.8144
安可	-10.8144
以身	-10.8144
委之	-10.8145
駙馬都尉	-10.8145
洩	-10.8146
從弟	-10.8146
将士	-10.8147
豎	-10.8147
奉迎	-10.8149
有無	-10.815
改名	-10.8151
賜以	-10.8152
之迹	-10.8154
東至	-10.8155
袒	-10.8156
𥘉	-10.8161
其次	-10.8167
取士	-10.8167
宗弼	-10.817
龍門	-10.8172
臣以為	-10.8172
鑾	-10.8173
佗	-10.8177
孽	-10.8178
交阯	-10.8178
永昌	-10.8186
正義	-10.8191
皇祐	-10.8197
湜	-10.8198
群	-10.8198
鎮撫使	-10.8201
何由	-10.8202
漢兵	-10.8202
歩騎	-10.8203
二千人	-10.8205
地界	-10.8205
安樂	-10.8206
疾苦	-10.8208
且令	-10.8209
六十里	-10.821
漢人	-10.8212
而得	-10.8214
不亦	-10.8215
京東西	-10.8216
記云	-10.8217
送之	-10.8218
異時	-10.822
無此	-10.8221
韓縝	-10.8225
荆州刺史	-10.8226
訓練	-10.8229
皆曰	-10.823
遷都	-10.8231
繫囚	-10.8233
澤州	-10.8238
廟號	-10.8238
又音	-10.8239
士馬	-10.8242
卒于	-10.8245
入官	-10.8246
注曰	-10.8247
倘	-10.8247
不意	-10.8249
發運使	-10.8249
孝寛	-10.825
無遺	-10.8251
然之	-10.8253
間有	-10.8254
棄市	-10.8254
而來	-10.8254
此亦	-10.8256
數所角翻	-10.8256
新除	-10.8258
徃徃	-10.8262
蕃官	-10.8266
詔賜	-10.8269
兵敗	-10.827
重誨	-10.8272
保全	-10.8275
東門	-10.8275
各一	-10.8279
丙戍	-10.8281
生擒	-10.8281
者或	-10.8281
而能	-10.8285
禮院	-10.8285
焚之	-10.8288
棄城	-10.8289
者聽	-10.8289
當死	-10.829
髙下	-10.8291
水經	-10.8294
存亡	-10.8295
即此	-10.8295
任使	-10.8295
城守	-10.8296
夙	-10.8298
太康	-10.8299
韓維	-10.8299
朞	-10.83
七千	-10.8303
叩	-10.8303
援兵	-10.8307
暠	-10.8309
今復	-10.831
在於	-10.831
漆	-10.8311
故以	-10.8311
抜	-10.8312
鉤	-10.8315
月餘	-10.8317
無厭	-10.8318
生辰	-10.8322
甲戍	-10.8323
廬江	-10.8325
斬其	-10.8326
前鋒	-10.8327
乳	-10.833
孝武	-10.8335
用心	-10.8336
之吏	-10.8337
隗	-10.8337
牆	-10.8337
臣願陛下	-10.8338
討論	-10.8341
曰善	-10.8342
徳裕	-10.8344
陽城	-10.8346
城上	-10.8348
五十萬	-10.8349
求救	-10.8351
烏桓	-10.8351
萬全	-10.8351
百一十	-10.8352
今天下	-10.8352
所舉	-10.8353
監司郡守	-10.8355
通州	-10.8355
正色	-10.8358
潼闗	-10.8358
逃亡	-10.8361
谿	-10.8363
烽	-10.8363
所費	-10.8363
瀛	-10.8366
其情	-10.8367
温州	-10.8367
千五百	-10.8372
乘勝	-10.8373
成都府	-10.8377
書云	-10.8381
諭之曰	-10.8381
琴	-10.8383
縮	-10.8385
教之	-10.8385
栢	-10.8388
殿前司	-10.8399
乞下	-10.8399
既已	-10.84
神䇿	-10.8402
遂命	-10.8403
王曰	-10.8403
粉	-10.8404
赦之	-10.8404
無疑	-10.8407
三思	-10.8408
迥	-10.841
官錢	-10.841
犀	-10.8411
武宗	-10.8413
躡	-10.8413
慟哭	-10.8413
閫	-10.8413
殯	-10.8416
彗星	-10.8418
劉安世	-10.8422
晉州	-10.8423
不能制	-10.8429
三十餘	-10.8433
兵馬使	-10.8434
樞宻直學士	-10.8434
和好	-10.8434
豈敢	-10.8436
祧	-10.8436
矣故	-10.8436
絀	-10.8437
墳	-10.8438
振武	-10.8438
淪	-10.8439
慟	-10.844
濶	-10.844
鼐	-10.844
倪	-10.8441
祭酒	-10.8443
諶	-10.8444
奏議	-10.8446
招諭	-10.8451
使天下	-10.8453
卨	-10.8457
之策	-10.8458
詩曰	-10.8458
曽孫	-10.846
以防	-10.8463
忠良	-10.8466
燈	-10.8467
雉	-10.8469
抃	-10.8471
延壽	-10.8472
遙	-10.8473
中宗	-10.8474
和親	-10.8476
遣使來	-10.8477
而反	-10.8478
武俊	-10.8478
南海	-10.848
不善	-10.848
州界	-10.8486
大辟	-10.8486
祥符	-10.849
老弱	-10.8492
之用	-10.8495
饑民	-10.8498
髮	-10.8501
寧逺	-10.8502
調發	-10.8503
為尚書	-10.8503
提舉官	-10.8503
繼遷	-10.8504
篇曰	-10.8505
詔諭	-10.8505
涿	-10.8507
非其人	-10.8508
又與	-10.8518
東川	-10.8518
好呼	-10.8519
其有	-10.852
瑶	-10.852
鷹	-10.852
挽	-10.8521
或言	-10.8524
無辜	-10.8524
鬼神	-10.8526
建昌	-10.8526
訾	-10.8527
賜死	-10.8528
則天下	-10.8529
經營	-10.8531
寡人	-10.8533
黎陽	-10.8538
駮	-10.8543
伋	-10.8544
㐮	-10.8544
舖	-10.8544
一夕	-10.8547
集賢	-10.8549
安州	-10.8552
墟	-10.8554
縁邉	-10.8555
精騎	-10.8556
闥	-10.8557
見二百	-10.8559
工部	-10.856
至是始	-10.8561
光祖	-10.8561
大悦	-10.8562
之前	-10.8562
殺傷	-10.8563
未嘗有	-10.8563
供奉官	-10.8563
為我	-10.8564
王徳	-10.8564
復言	-10.8565
其私	-10.8566
猶豫	-10.8567
而天下	-10.8568
屍	-10.8573
州編管	-10.8577
洵	-10.8579
丗	-10.8579
賜錢	-10.8583
擊敗之	-10.859
妄言	-10.8593
為宰相	-10.8593
無道	-10.8594
欲殺	-10.8594
沛公	-10.8598
記聞	-10.8598
賽	-10.8598
少師	-10.8599
銑	-10.8602
藴	-10.8603
霜	-10.8604
論其	-10.8605
作過	-10.8609
注見前	-10.861
天文	-10.8611
百八十	-10.8612
未安	-10.8613
兵於	-10.8617
凡四	-10.8618
延年	-10.8619
千萬	-10.8623
有五	-10.8628
禕	-10.8628
朝議	-10.8628
膝	-10.8628
好惡	-10.8629
皷	-10.863
凱	-10.8631
其位	-10.8631
以罪	-10.8632
久不	-10.8632
條具	-10.8632
礪	-10.8632
際	-10.8633
淮安	-10.8635
燕山	-10.8636
穢	-10.8637
鄜	-10.8637
烏孫	-10.8641
其害	-10.8642
面對	-10.8645
合兵	-10.8646
十五萬	-10.8647
之長	-10.8649
而上	-10.8651
女子	-10.8652
皆非	-10.8652
歩軍	-10.8655
凡有	-10.8655
收復	-10.8658
上尊號	-10.8658
臣願	-10.8665
修築	-10.8665
黠	-10.8667
張方平	-10.867
戍兵	-10.8673
為是	-10.8675
大中	-10.8676
國號	-10.8679
諸侯之	-10.8681
將官	-10.8681
印綬	-10.8685
與賊	-10.8686
榻	-10.8686
泣曰	-10.8686
年五月	-10.8691
不立	-10.8693
豕	-10.8693
太中大夫	-10.8694
有是	-10.8696
取索	-10.8696
宣徳	-10.8698
無由	-10.8701
婦女	-10.8702
分遣	-10.8703
惶	-10.8706
嘗與	-10.8711
以取	-10.8712
東流	-10.8714
渡淮	-10.8716
從才用翻	-10.8718
友諒	-10.8719
伽	-10.8719
難得	-10.8722
皆死	-10.8724
報國	-10.8726
帑	-10.8726
興州	-10.8738
汴州	-10.874
和氣	-10.874
勣	-10.8742
笏	-10.8743
郡治	-10.8745
諌官	-10.8746
禁兵	-10.8746
乞依	-10.8747
犯法	-10.8747
蹕	-10.8748
傕	-10.8748
南方	-10.8751
又何	-10.8752
知樞密院事	-10.8752
内地	-10.8756
擴	-10.8767
觀察	-10.8767
闊	-10.8767
以助	-10.8767
瀛州	-10.8768
郢州	-10.8773
賞之	-10.8779
司農	-10.8781
開府	-10.8781
以所部	-10.8782
必能	-10.8783
更相	-10.8785
有變	-10.8787
禆	-10.8788
唐太宗	-10.8789
姦人	-10.879
之徳	-10.8792
事勢	-10.8793
當書	-10.8793
左司諫	-10.8794
兢	-10.8795
萬七千	-10.8798
棗	-10.8799
亡命	-10.8807
在上	-10.8815
先鋒	-10.8816
侍讀	-10.8817
遣使者	-10.8817
臨御	-10.8822
自後	-10.8826
良玉	-10.8826
敵兵	-10.8826
命官	-10.8826
志在	-10.8828
衝替	-10.8831
歸附	-10.8831
驍勇	-10.8832
科舉	-10.8835
漕臣	-10.8837
咸平	-10.8837
鳩	-10.8839
勿復	-10.8849
申嚴	-10.8851
大掠	-10.8853
桂陽	-10.8853
綴	-10.8856
詵	-10.8858
汴京	-10.8866
帝問	-10.8866
講讀	-10.8869
講求	-10.8873
天錫	-10.8875
軒	-10.8876
更有	-10.8877
北門	-10.888
西山	-10.888
宵	-10.888
亦作	-10.888
漂	-10.888
歸於	-10.8881
許以	-10.8882
賊衆	-10.8885
政令	-10.8886
士良	-10.8892
雖欲	-10.8894
不由	-10.8895
勃海	-10.8897
天祐	-10.8899
景祐	-10.89
王命	-10.8902
官職	-10.8902
皇弟	-10.8905
手書	-10.8905
兾	-10.891
店	-10.891
建國	-10.891
弦	-10.8914
大亂	-10.8915
閼	-10.8915
之末	-10.8916
䑕	-10.8918
高宗	-10.8919
恐懼	-10.892
相應	-10.8922
招降	-10.8927
割地	-10.8933
獲其	-10.8936
而民	-10.8936
當今	-10.8937
畔	-10.8941
乃召	-10.8941
聲言	-10.8942
也上曰	-10.8948
和糴	-10.8948
之美	-10.8951
蘇州	-10.8955
三衙	-10.8961
禮畢	-10.8963
雱	-10.8964
憫	-10.8965
太子中允	-10.8965
六萬	-10.8965
内殿崇班	-10.8967
部將	-10.8967
不可勝計	-10.8967
項羽	-10.8973
故地	-10.8977
詔曰朕	-10.8977
還朝	-10.8978
西戎	-10.8979
泰州	-10.898
凡十	-10.8986
矣而	-10.8989
矢石	-10.8989
張守	-10.899
觀文殿學士	-10.8991
斡里雅布	-10.8992
凡例	-10.8992
素與	-10.8993
馮京	-10.8994
迨	-10.8995
行密	-10.8995
壽春	-10.8995
曺	-10.8995
廬陵	-10.8997
蕃漢	-10.8998
尋陽	-10.9002
合格	-10.9002
百九十	-10.9002
徂	-10.9003
竊見	-10.9003
固已	-10.9003
霸先	-10.9007
𤣥宗	-10.9008
牛羊	-10.901
已為	-10.901
有常	-10.9013
生子	-10.9016
早賜	-10.9027
攀	-10.9028
賈似道	-10.9028
當從	-10.9039
太監	-10.9041
之禁	-10.9046
稱其	-10.9048
至城下	-10.9048
上謂輔臣曰	-10.905
之象	-10.9053
明公	-10.9053
馴	-10.9054
冩	-10.9054
察之	-10.9054
顛	-10.9055
枯	-10.9057
燕主	-10.9066
李繼	-10.9066
庶人	-10.9072
請和	-10.9072
且以	-10.9075
失職	-10.9076
疫	-10.9077
朝散大夫	-10.9079
餽	-10.9083
額森	-10.9083
竊聞	-10.9088
是夕	-10.9096
是何	-10.9103
聖人之	-10.9105
不給	-10.9107
簽書樞宻院事	-10.9107
謂宰相曰	-10.9107
有勞	-10.9107
不入	-10.9108
不敢言	-10.9108
通好	-10.9109
上亦	-10.9111
漫	-10.9111
劔	-10.9112
複	-10.9112
授官	-10.9113
駒	-10.9116
舎人	-10.9116
即命	-10.9118
上從之	-10.9118
事宜	-10.912
庶㡬	-10.9122
良臣	-10.9123
髙帝	-10.9128
何人	-10.9131
惜之	-10.9136
一家	-10.9137
擇其	-10.9141
盟于	-10.9144
謐	-10.9145
復入	-10.9146
詬	-10.9146
遣之	-10.9154
可與	-10.9157
封還	-10.9159
史炤	-10.9159
語曰	-10.9159
之險	-10.916
王公	-10.916
嘗言	-10.9163
南至	-10.9165
止令	-10.9166
煜	-10.9167
戬	-10.9167
台州	-10.9168
疊	-10.917
唐置	-10.917
貂	-10.9172
王彦	-10.9173
大赦改元	-10.9174
軍儲	-10.9176
黜之	-10.9177
年十二月	-10.9179
王曽	-10.9179
可使	-10.918
稱疾	-10.9181
今又	-10.9181
其利	-10.9182
孫權	-10.9185
行軍	-10.9187
處士	-10.919
増置	-10.9191
魏人	-10.9194
制置司	-10.9195
降授	-10.9195
職名	-10.9195
監押	-10.9195
酺	-10.9198
年少	-10.9198
揭	-10.9199
別	-10.9199
有徳	-10.9199
中常侍	-10.92
天水	-10.9201
邊防	-10.9202
澧	-10.9204
除授	-10.9205
復命	-10.9209
鎮州	-10.9213
同日	-10.9214
亦云	-10.9219
拒戰	-10.922
仁厚	-10.9221
徽宗	-10.9222
違法	-10.9223
疾病	-10.9223
幄	-10.9224
偹	-10.9225
稟	-10.9225
異同	-10.9225
金兵	-10.9226
善惡	-10.9227
刑名	-10.9228
而東	-10.9229
祫	-10.9229
陘	-10.923
精鋭	-10.9231
史館	-10.9233
勰	-10.9235
本意	-10.924
昭義	-10.9242
知人	-10.9245
察訪	-10.9248
日録	-10.925
三王	-10.9251
不答	-10.9254
從才	-10.9254
令有司	-10.9257
駐蹕	-10.9258
模	-10.926
鄩	-10.9261
不正	-10.9263
王府	-10.9265
即今	-10.9267
隋志	-10.9267
姓譜	-10.9269
遷延	-10.9271
不早	-10.9271
安燾	-10.9271
之門	-10.9274
之節	-10.9274
上元	-10.9275
二十六	-10.9278
於内	-10.9279
計置	-10.928
為盗	-10.9281
頓首	-10.9281
此意	-10.9284
附㑹	-10.9284
之私	-10.9286
婺州	-10.9287
提舉江州太平觀	-10.9288
武威	-10.9292
府事	-10.9294
猶在	-10.9296
敵國	-10.9298
王黼	-10.93
忌之	-10.9302
臨淮	-10.9303
盧龍	-10.9305
廢立	-10.9306
士英	-10.9306
本無	-10.9308
鞍	-10.9308
家傳	-10.9312
將作監	-10.9313
戰士	-10.9313
兵柄	-10.9314
長城	-10.9314
以供	-10.9315
始終	-10.9318
敬宗	-10.9319
弟也	-10.9319
千餘里	-10.9321
搏	-10.9327
太白	-10.9327
采石	-10.9329
未行	-10.933
至是復	-10.9333
𤦺	-10.9336
射之	-10.9339
四十餘	-10.9341
隻	-10.9348
千秋	-10.9354
荆襄	-10.9356
軍使	-10.9356
舊臣	-10.9356
薦舉	-10.9357
伊尹	-10.9357
平日	-10.9358
聽政	-10.9359
袁紹	-10.936
熈河路	-10.936
諸將皆	-10.9365
元嘉	-10.9368
漕司	-10.9371
大司農	-10.9372
選擇	-10.9373
朽	-10.9375
迎之	-10.9376
狎	-10.9377
二十三日	-10.9377
諡文	-10.9378
見賢	-10.9379
足下	-10.938
拱辰	-10.938
虎賁	-10.9381
或云	-10.9384
不逮	-10.9385
平江府	-10.9389
二分	-10.9392
屬官	-10.9392
並與	-10.9395
夘	-10.9399
猶言	-10.9399
范宗尹	-10.9403
帷	-10.9406
好呼到翻	-10.9411
尋以	-10.9414
城内	-10.9414
檢正	-10.9419
望見	-10.9421
伐鄭	-10.9422
亦何	-10.9425
入中	-10.943
參考	-10.9432
朔州	-10.9432
巽	-10.9433
一百五十	-10.9433
稚	-10.9433
挈	-10.9436
執事	-10.9436
冇	-10.9437
漁陽	-10.9437
燔	-10.9438
七萬	-10.9439
副總管	-10.9443
異日	-10.9447
牽制	-10.945
别有	-10.9454
一一	-10.9455
江上	-10.9456
裴度	-10.9457
五千人	-10.9458
兵討之	-10.9459
等議	-10.946
成敗	-10.9461
㪚	-10.9466
繼隆	-10.9466
梗	-10.947
不畏	-10.9471
皝	-10.9471
論議	-10.9472
鉅鹿	-10.9473
不遜	-10.9475
請自今	-10.9476
鎧	-10.9476
單騎	-10.9481
羣小	-10.9485
長知	-10.9485
漕運	-10.9486
監當	-10.9487
至尊	-10.9487
太公	-10.9488
方畧	-10.9488
將至	-10.9488
田租	-10.9493
霧	-10.9496
復舊	-10.9497
上令	-10.9498
此書	-10.9499
范鎮	-10.95
固當	-10.9502
謝罪	-10.9502
黨人	-10.9502
免官	-10.9503
瀘	-10.9503
禇	-10.9504
龜兹	-10.9506
大赦天下	-10.9507
以城降	-10.9512
經略	-10.9514
上御	-10.9518
十餘日	-10.952
小國	-10.9521
曰夫	-10.9523
摘	-10.9524
終身	-10.9525
原書作	-10.9525
上嘗	-10.9526
樂音	-10.9528
瑱	-10.9528
諸人	-10.9529
繼恩	-10.9531
弓矢	-10.9532
濡	-10.9534
縣尉	-10.9538
酒泉	-10.9539
本錢	-10.9545
環州	-10.9545
欲得	-10.9546
兩月	-10.955
所行	-10.9551
大理寺丞	-10.9556
西魏	-10.9556
殖	-10.9557
濳	-10.9557
全斌	-10.9562
皆降	-10.9564
揚州刺史	-10.9565
帝遣	-10.9566
錢榖	-10.9574
近年	-10.9574
副元帥	-10.9576
長者	-10.9576
元忠	-10.9578
相率	-10.9579
㑹于	-10.9579
寂	-10.9582
後患	-10.9584
覧	-10.9585
滁州	-10.9585
誌	-10.9587
朱本	-10.9587
宿州	-10.9587
等並	-10.9587
又嘗	-10.9592
斬獲	-10.9592
世傑	-10.9595
入蜀	-10.9596
詳議	-10.9596
上諭	-10.9597
初見	-10.9598
會稽	-10.96
臺官	-10.9601
而成	-10.9601
北至	-10.9602
録云	-10.9605
以禦	-10.9607
沿江	-10.9609
其能	-10.9611
墓誌	-10.9612
鏜	-10.9612
汪伯彦	-10.9614
萬匹	-10.9614
何敢	-10.9614
旭	-10.9614
太祖皇帝	-10.9619
庚戍	-10.962
揣	-10.962
鈎	-10.9621
義理	-10.9622
人望	-10.9623
兵勢	-10.9624
瑩	-10.9626
從其請	-10.9627
諸書	-10.9632
立廟	-10.9633
一面	-10.9634
此二	-10.9646
嘗有	-10.9646
叢	-10.9647
柱國	-10.9647
􁀙	-10.9649
縱兵	-10.9651
邢恕	-10.9651
太清	-10.9652
年月	-10.9654
茹	-10.9655
為刺史	-10.9655
更工	-10.9655
曰爾	-10.9658
遂入	-10.9658
臣嘗	-10.9658
毀	-10.9659
條約	-10.9659
明皇	-10.9659
新安	-10.9661
北邊	-10.9661
治天下	-10.9665
爾雅	-10.9667
絶其	-10.9668
獻忠	-10.9669
張邦昌	-10.967
殊不	-10.967
淮北	-10.9672
赴之	-10.9673
粹	-10.9674
聖慈	-10.9675
直集賢院	-10.9675
驢	-10.9677
磔	-10.9678
鎮戎軍	-10.9678
儁	-10.9678
二十日	-10.9678
忠信	-10.9679
粥	-10.968
平生	-10.968
何事	-10.968
平州	-10.9682
因事	-10.9682
文武官	-10.9684
王安石曰	-10.9684
典故	-10.9687
勍	-10.9687
惡其	-10.9688
以夲	-10.969
所聞	-10.9692
乃罷	-10.9692
曰天子	-10.9696
使民	-10.9696
黨與	-10.9698
尚書右僕射	-10.9698
山林	-10.9699
陵縣	-10.9701
淄	-10.9701
上謂宰執曰	-10.9704
秀州	-10.9705
涿州	-10.9706
洺	-10.9709
奐	-10.971
廂軍	-10.9711
仍詔	-10.9712
旦夕	-10.9715
也昔	-10.9717
韓信	-10.972
者惟	-10.9722
仲舒	-10.9724
未可知	-10.9726
官物	-10.9727
聞者	-10.9728
未决	-10.973
經略使	-10.9732
歸徳	-10.9733
數千里	-10.9735
莭	-10.9735
去位	-10.9737
寤	-10.9738
核	-10.9739
滛	-10.9741
降户江翻	-10.9742
三道	-10.9742
雨雪	-10.9745
雕	-10.9745
是夜	-10.9745
敦煌	-10.9748
劉備	-10.9749
磁	-10.9749
嘗以	-10.9751
致書	-10.9754
皆言	-10.9755
又言臣	-10.9756
闕失	-10.9759
部族	-10.9761
攬	-10.9763
一道	-10.9766
前世	-10.9767
拾	-10.9767
謂宜	-10.9767
逓	-10.9767
可取	-10.9767
敘	-10.9768
都人	-10.9771
帝王之	-10.9771
三百人	-10.9775
逃歸	-10.9776
一戰	-10.9777
水利	-10.9779
今據	-10.9782
定陶	-10.9783
嘆曰	-10.9784
黄州	-10.9785
喜曰	-10.9788
在朝	-10.9789
六七	-10.979
貼黄	-10.979
郊廟	-10.9793
茂貞	-10.9795
畀	-10.9795
遑	-10.9798
頊	-10.9801
椒	-10.9802
今并書	-10.9802
駐劄	-10.9802
管仲	-10.9802
埋	-10.9804
嵐	-10.9806
瓉	-10.9807
壹	-10.9808
請令	-10.9809
止是	-10.981
廆	-10.9812
濮陽	-10.9812
羣盗	-10.9814
罔上	-10.9816
而南	-10.9818
改命	-10.9821
桓温	-10.9823
運糧	-10.9825
霖	-10.9826
臣伏見	-10.9826
河中府	-10.9828
仍賜	-10.9828
内藏庫	-10.9829
驤	-10.9829
日久	-10.9829
纎	-10.9831
行人	-10.9833
㨿	-10.9833
蔓	-10.9833
朝野	-10.9834
廣南西路	-10.9835
旺	-10.9835
饌	-10.9836
又使	-10.9836
罪狀	-10.9836
為先	-10.9837
二縣	-10.9838
少子	-10.9839
歸順	-10.984
其族	-10.9841
不才	-10.9842
以其子	-10.9842
當世	-10.9844
雒陽	-10.9846
信都	-10.9847
兵少	-10.9847
鴆	-10.9847
漢紀	-10.9857
已成	-10.9863
録尚書事	-10.9866
犍	-10.9867
嗣位	-10.9868
百僚	-10.987
保定	-10.9871
苴	-10.9872
征討	-10.9872
義士	-10.9873
嗣源	-10.9881
相望	-10.9882
永州	-10.989
乞降	-10.989
紓	-10.989
吿	-10.9893
諸貝勒	-10.9894
汾州	-10.9894
暹	-10.9895
溫	-10.9895
凢	-10.9896
原州	-10.9898
十分	-10.9899
釣	-10.9899
賞錢	-10.99
紀脩	-10.9902
建寧	-10.9906
並行	-10.9906
貝州	-10.9909
參議	-10.9911
稽古	-10.9911
下流	-10.9915
命有司	-10.9919
見一百	-10.992
兵法	-10.9921
考功	-10.9923
前去	-10.9925
犯者	-10.993
鎮南	-10.9931
只是	-10.9933
不思	-10.9934
其半	-10.9934
山下	-10.9936
推行	-10.9936
何罪	-10.9939
滅之	-10.9946
責以	-10.9949
守城	-10.995
相攻	-10.995
剛中	-10.9951
引軍	-10.9955
邀擊	-10.9955
苞	-10.9956
自安	-10.9957
噬	-10.9961
樂音洛	-10.9963
擲	-10.9964
但當	-10.9965
禮儀	-10.9965
百匹	-10.9967
陜西河東	-10.9968
略曰	-10.9968
相接	-10.9973
後改	-10.9974
百萬緡	-10.998
内降	-10.9981
北郊	-10.9984
殱	-10.9984
舉官	-10.9987
飽	-10.9987
還至	-10.9987
緝	-10.9988
五六	-10.9989
武功大夫	-10.9989
壬戍	-10.9991
巡檢	-10.9991
卒於	-10.9994
兩朝	-10.9994
世勣	-10.9995
若是	-10.9995
則當	-11.0002
死亡	-11.0003
魏以	-11.0009
國子	-11.001
文宗	-11.0011
溺死	-11.0011
謂左右曰	-11.0012
祉	-11.0013
文徳	-11.002
廊	-11.002
為正	-11.0021
歐	-11.0022
舘	-11.0022
汎	-11.0023
樵	-11.0024
眼	-11.0024
煙	-11.0025
各舉	-11.0026
御批	-11.0026
䝉古主	-11.0027
等各	-11.0027
戰守	-11.0028
耕種	-11.0028
安豐	-11.0032
汧	-11.0033
大震	-11.0036
所貴	-11.004
永寧	-11.0041
為帝	-11.0046
需	-11.0049
使副	-11.0051
巢穴	-11.0054
瘠	-11.0055
堵	-11.0058
菜	-11.0059
功名	-11.0059
事覺	-11.0059
中人	-11.0063
大潰	-11.0063
西門	-11.0064
門下省	-11.0065
私意	-11.0065
應援	-11.0068
甚於	-11.0069
不協	-11.0073
之請也	-11.0076
聨	-11.0081
之體	-11.0083
以新舊	-11.0086
提㸃刑獄公事	-11.0086
遍翻	-11.0087
七十餘	-11.0088
母弟	-11.0088
考證	-11.009
誑	-11.009
一百二十	-11.0093
大江	-11.0094
阪	-11.0096
内殿	-11.0098
所稱	-11.0098
曹彬	-11.0098
保州	-11.0098
兵力	-11.0101
於市	-11.0104
偽齊	-11.0106
臣不敢	-11.0107
河南尹	-11.0107
陵寢	-11.0108
鏐	-11.0113
跨	-11.0115
追至	-11.0115
党項	-11.0118
北伐	-11.0118
千二百	-11.0119
衡翻	-11.012
去嵗	-11.012
堂除	-11.0122
遣其子	-11.0123
于外	-11.0125
䖍州	-11.0127
琅邪王	-11.0127
僧格	-11.0128
為御史	-11.0128
何謂	-11.013
無禮	-11.0133
却之	-11.0134
不順	-11.0134
昭宗	-11.0135
河上	-11.0136
光州	-11.0138
今日之事	-11.0139
多寡	-11.014
事聞	-11.0142
軍人	-11.0143
盎	-11.0145
剖	-11.0147
竢	-11.0147
鴻臚	-11.0148
宗澤	-11.0148
幾何	-11.0149
諸葛亮	-11.0152
尚可	-11.0154
戀	-11.0154
人主之	-11.0155
竊恐	-11.0158
社稷之	-11.0167
親信	-11.017
之資	-11.017
禍亂	-11.0173
風雨	-11.0175
軍節度	-11.0176
矣乃	-11.0178
通直郎	-11.018
天下事	-11.0181
平盧	-11.0181
也於是	-11.0183
九齡	-11.0183
扆	-11.0184
遼西	-11.0187
機務	-11.0187
實有	-11.0188
臣雖	-11.0189
漢武帝	-11.0192
與我	-11.0194
兵屯	-11.0194
武后	-11.0194
朝㑹	-11.0197
者謂之	-11.0198
六千	-11.0199
城邑	-11.0201
資序	-11.0205
呉王	-11.0205
方鎮	-11.0206
千騎	-11.0208
錮	-11.021
湯思退	-11.0211
其兵	-11.0211
芒	-11.0212
女為	-11.0214
上親	-11.0216
閉門	-11.0217
大使	-11.0219
已得	-11.0221
頃之	-11.0223
林甫	-11.0224
始有	-11.0224
可勝	-11.0227
潤州	-11.0228
惟恐	-11.0239
土木	-11.0239
上谷	-11.0239
九卿	-11.0239
奉議郎	-11.024
种諤	-11.0243
溉	-11.0244
北軍	-11.0248
軍校	-11.0249
討平之	-11.0251
糓	-11.0254
淑妃	-11.0255
乞賜	-11.0262
條例	-11.0262
引對	-11.0264
呼曰	-11.0265
萬三千	-11.0266
仍命	-11.0266
景帝	-11.0269
忠孝	-11.027
北齊	-11.0274
篆	-11.0274
大用	-11.0275
即令	-11.0278
事件	-11.0278
戰功	-11.0282
因請	-11.0283
度牒	-11.0283
大畧	-11.0283
信州	-11.0285
二十一年	-11.0288
馬歩軍	-11.0289
起發	-11.0292
梁置	-11.0294
知誥	-11.0295
自餘	-11.0296
近侍	-11.0298
實封	-11.0298
軍食	-11.0299
不决	-11.03
萬民	-11.0301
禎	-11.0304
租賦	-11.0304
其上	-11.0304
都水監	-11.0305
俄而	-11.0306
将帥	-11.0307
偁	-11.0308
所掠	-11.031
二十餘	-11.0311
百二十	-11.0313
追諡	-11.0313
趙汝愚	-11.0313
拊	-11.0317
達實	-11.0319
倉庫	-11.0324
亡國	-11.0324
詩云	-11.0327
使還	-11.0327
悔之	-11.0327
語及	-11.0332
都總管	-11.0334
僉事	-11.0336
建康府	-11.0336
帝謂	-11.0337
西方	-11.0338
召試	-11.0338
唐末	-11.0338
曙	-11.034
新録	-11.034
衢州	-11.0341
獲罪	-11.0342
直學士院	-11.0342
三百里	-11.0344
臣前	-11.0345
龕	-11.0345
江左	-11.0346
七八	-11.0346
行軍司馬	-11.0347
亦不可	-11.0349
當先	-11.035
聲色	-11.0352
僧道	-11.0353
出使	-11.0354
然猶	-11.0355
無一人	-11.0355
為額	-11.0359
上曰卿	-11.036
景徳	-11.0364
莫之	-11.0365
數目	-11.0365
十三日	-11.0367
今嵗	-11.0367
士氣	-11.0368
真州	-11.0377
狠	-11.0378
儋	-11.0379
執政大臣	-11.038
沈約	-11.0383
差人	-11.0386
陌	-11.0387
急攻	-11.0387
縣唐	-11.0387
人事	-11.0387
郗	-11.0389
巴哈	-11.039
傳作	-11.0392
貢獻	-11.0397
皆是	-11.0397
不能用	-11.0399
石門	-11.0407
李成	-11.0408
秘書省	-11.0408
天寳	-11.0409
吁	-11.0412
不曽	-11.0412
衆議	-11.0412
河北河東	-11.0414
千緡	-11.0415
之弟也	-11.042
盾	-11.0421
東下	-11.0421
經費	-11.0424
紹興府	-11.0426
時方	-11.0427
地形	-11.0427
殿中丞	-11.0428
充國	-11.0429
衡州	-11.043
不逺	-11.043
不附	-11.0432
義陽	-11.0435
興國	-11.0437
戡	-11.0437
金州	-11.0439
具言	-11.0442
泓	-11.0442
滁	-11.0444
根究	-11.0445
又謂	-11.0451
美人	-11.0452
曾孫	-11.0455
瓜	-11.0458
廣徳	-11.0459
二十九	-11.0459
德宗	-11.0463
天變	-11.0464
太祖太宗	-11.0464
資治通鑑後編卷	-11.0465
更張	-11.0466
吉甫	-11.0467
進討	-11.0468
兖州刺史	-11.047
圜	-11.0471
㝷	-11.0473
分司	-11.0473
重榮	-11.0475
裒	-11.0475
孛	-11.0476
草木	-11.0478
六合	-11.0478
盡心	-11.0478
蓬	-11.0478
勦	-11.0479
鄱陽	-11.0485
經曰	-11.0486
堅壁	-11.0488
害民	-11.049
食邑	-11.0494
虎牢	-11.0498
未甞	-11.0502
中宫	-11.0504
摶	-11.0504
昺	-11.0506
敏中	-11.0506
紏	-11.0506
廸功郎	-11.0506
水災	-11.0507
㸔詳	-11.0508
而起	-11.0508
所立	-11.0509
元帥府	-11.0511
鞫之	-11.0515
昌朝	-11.0517
一貫	-11.0519
荀紀	-11.052
此數	-11.0522
切說文	-11.0525
陽平	-11.0527
徐州刺史	-11.0528
恐誤	-11.0529
母后	-11.0531
資政殿大學士	-11.0532
伏見	-11.0534
一次	-11.0534
頵	-11.0535
冡	-11.0537
麴	-11.0541
季孫	-11.0543
稠	-11.0548
代宗	-11.0549
歸國	-11.055
三國	-11.0552
舊例	-11.0553
良久	-11.0558
不聼	-11.0565
之功也	-11.057
法司	-11.0571
故能	-11.0572
熊克小歴	-11.0572
無備	-11.0575
重行	-11.058
為國家	-11.0582
企	-11.0583
李茂貞	-11.0584
又問	-11.0585
其說	-11.0585
至長安	-11.0589
今附	-11.0591
撫諭	-11.0593
南昌	-11.0595
所賜	-11.0598
條上	-11.06
先次	-11.0602
尋又	-11.0603
懐恩	-11.0603
閤門祇候	-11.0604
僖祖	-11.0604
勾當公事	-11.0606
太原府	-11.0607
捕之	-11.0609
慿	-11.061
加恩	-11.061
不詳	-11.0612
還京師	-11.0612
不起	-11.0613
以下皆	-11.0614
近習	-11.0615
為大司馬	-11.0615
同知樞密院事	-11.0617
昵	-11.0617
甲士	-11.0619
即是	-11.062
苦之	-11.062
終日	-11.0623
自新	-11.0629
土兵	-11.0632
爾朱	-11.0634
陳瓘	-11.0637
皎	-11.0639
差使	-11.064
贛	-11.064
掲	-11.064
檝	-11.0643
以資	-11.0643
斜	-11.0647
權臣	-11.065
徙居	-11.0651
使相	-11.0651
董卓	-11.0652
福建路	-11.0657
貞元	-11.0662
秦主	-11.0663
矣若	-11.0664
朝奉大夫	-11.0665
之境	-11.067
翰林侍讀學士	-11.067
莊公	-11.0671
怙	-11.0671
非特	-11.0672
並許	-11.0673
閎	-11.0675
毆	-11.0675
醮	-11.0677
膏	-11.0678
廨	-11.0679
有能	-11.068
轅	-11.0681
成徳	-11.0684
璞	-11.0684
戯	-11.0685
當是時	-11.0685
宗廟社稷	-11.0685
遵守	-11.0686
律令	-11.0688
惠帝	-11.0691
今因	-11.0693
真卿	-11.0695
慶府	-11.0696
五百里	-11.0698
千六百	-11.0702
良嗣	-11.0703
明詔	-11.0703
大統	-11.0703
蠟	-11.0709
緘	-11.071
鹵簿	-11.071
天福	-11.0715
其狀	-11.0715
依條	-11.0716
晉安	-11.0719
移書	-11.0719
匹夫	-11.0721
進入	-11.0723
創業	-11.0724
誰敢	-11.0726
錢塘	-11.0727
士庶	-11.0727
何得	-11.073
私第	-11.0732
教化	-11.0735
頤	-11.0736
六國	-11.0736
大興	-11.0737
失守	-11.0742
泣下	-11.0743
佯	-11.0743
尋復	-11.0743
尤為	-11.0745
蘆	-11.0745
始此	-11.0745
餌	-11.0746
甘露	-11.0747
為變	-11.0753
五分	-11.0756
忠直	-11.0758
漢唐	-11.0758
西夏	-11.0758
外國	-11.0759
徳宗	-11.0763
權勢	-11.0765
一百六十	-11.0767
大元	-11.0767
行幸	-11.0768
中書樞宻院	-11.0771
可惜	-11.0774
縱火	-11.0778
綝	-11.0778
峯	-11.0781
涼州	-11.0783
惠王	-11.0783
剽掠	-11.0785
所由	-11.0786
轂	-11.0791
兼中書令	-11.0795
懼而	-11.0796
縣置	-11.0799
霍光	-11.08
豉翻	-11.0805
多方	-11.0806
召募	-11.0807
故特	-11.0808
甡	-11.0808
購	-11.0809
太行	-11.0812
銀絹	-11.0812
直祕閣	-11.0812
事務	-11.0813
油	-11.0814
朝貢	-11.0818
擾民	-11.0821
入寇	-11.0821
女也	-11.0822
節鉞	-11.0822
力辭	-11.0824
示天下	-11.0825
為質	-11.0827
千八百	-11.0827
士誠	-11.0828
二百餘	-11.0831
重進	-11.0831
異論	-11.0833
事迹	-11.0833
戎狄	-11.0835
嘉定	-11.0837
畿内	-11.0838
知樞宻院	-11.0842
不解	-11.0845
軻	-11.0845
車師	-11.0846
想	-11.0846
州守臣	-11.0849
今依	-11.085
扈從	-11.085
昭儀	-11.0851
萬二千	-11.0851
仲尼	-11.0859
五原	-11.0865
掖庭	-11.0871
設伏	-11.0872
兩軍	-11.0874
竊以	-11.0875
尚在	-11.0875
朱光庭	-11.0877
必須	-11.0878
今屬	-11.0878
緬	-11.088
酈	-11.088
驩	-11.088
汭	-11.088
遼陽	-11.0881
戊戍	-11.0883
譁	-11.0885
非獨	-11.0887
渦	-11.0887
跋	-11.0892
安都	-11.0895
羣盜	-11.0898
所司	-11.09
洺州	-11.0903
近世	-11.0903
失利	-11.0906
朕甚	-11.0906
計議	-11.0906
睿宗	-11.0909
蕭何	-11.091
軍務	-11.0911
燮	-11.0912
為備	-11.0914
博囉	-11.0914
韓忠彦	-11.0915
新傳	-11.0916
擢為	-11.0917
所執	-11.092
建元	-11.0921
鹵	-11.0922
后稷	-11.0922
不虞	-11.0923
城池	-11.0925
廬舍	-11.0926
遇害	-11.0929
令狐	-11.0933
何益	-11.0933
懐敏	-11.0934
甚盛	-11.0938
名器	-11.094
國夫人	-11.0943
賢良	-11.0946
顓	-11.0948
縦	-11.0949
轡	-11.0951
令史	-11.0952
縋	-11.0954
共議	-11.0955
濮州	-11.0955
隷	-11.0957
不雨	-11.096
皇考	-11.096
康國	-11.096
既罷	-11.096
鯁	-11.0961
襄州	-11.0963
定襄	-11.0964
商旅	-11.0965
未便	-11.0965
二十八日	-11.0965
轉運司言	-11.0966
必死	-11.0969
故謂之	-11.0971
劾之	-11.0973
同判	-11.0975
次于	-11.0977
雒	-11.0978
選差	-11.0978
所記	-11.0978
郡公	-11.0978
牘	-11.0979
著為令	-11.0982
闡	-11.0986
下馬	-11.0988
何憂	-11.0988
澶	-11.0991
開皇	-11.0993
二十四日	-11.0994
穆公	-11.0996
故翻	-11.0997
為翰林學士	-11.0999
崇政殿	-11.1002
復召	-11.1006
天性	-11.1007
安平	-11.101
草制	-11.1013
二十二日	-11.1013
凍	-11.1014
舉行	-11.1014
宗子	-11.1016
和元年	-11.1016
州團練副使	-11.1018
國初	-11.1018
定議	-11.1019
摭	-11.1019
駝	-11.102
韓𤦺	-11.102
懾	-11.1021
黄門侍郎	-11.1023
視朝	-11.1026
平元年	-11.1029
依此	-11.1029
絡	-11.1029
義兵	-11.103
盡殺	-11.1031
即時	-11.1031
詰之	-11.1033
主帥	-11.1033
分置	-11.1034
踰月	-11.1042
侵擾	-11.1043
防秋	-11.1046
太白晝見	-11.1046
奔走	-11.1048
田宅	-11.1049
容翻	-11.1049
謟	-11.1052
吕氏	-11.1053
走馬承受	-11.1054
不可勝數	-11.1055
甚者	-11.1056
邊境	-11.1058
出界	-11.1058
糜	-11.1058
豈無	-11.106
正殿	-11.1061
未下	-11.1062
林希	-11.1064
敗死	-11.1064
事見上卷	-11.1064
五年春正月	-11.1064
章奏	-11.1069
岳州	-11.1072
寄翻	-11.1081
股肱	-11.1085
阿嚕	-11.1087
寗	-11.1088
幅	-11.1089
樞密副使	-11.109
押班	-11.1092
港	-11.1094
兄也	-11.1096
賊勢	-11.1099
識者	-11.1099
是歳	-11.1099
小民	-11.1101
聚兵	-11.1105
罷免	-11.1118
畏之	-11.1118
併力	-11.1122
左藏庫	-11.1125
稻	-11.1126
言語	-11.1126
所作	-11.1127
贏	-11.1128
補官	-11.1128
梁州	-11.1129
杏	-11.1129
正典刑	-11.113
道成	-11.113
暐	-11.1132
朐	-11.1133
為人所	-11.1134
南宫	-11.1136
轉對	-11.114
雖已	-11.1141
終始	-11.1143
路分	-11.1143
矛	-11.1144
騎射	-11.1146
稽首	-11.1146
殺戮	-11.1149
失於	-11.1149
二十人	-11.1153
問其故	-11.1153
猶可	-11.1155
之儀	-11.1158
證翻	-11.1161
下户	-11.1161
鄉人	-11.1162
廷美	-11.1162
神明	-11.1163
哥	-11.1164
奴婢	-11.1165
一帶	-11.1169
千匹	-11.1172
正當	-11.1177
徳秀	-11.1178
乆矣	-11.1185
差除	-11.1186
兊	-11.1193
賈昌朝	-11.1194
冨	-11.1194
已久	-11.1194
控扼	-11.1195
著作郎	-11.1195
小臣	-11.1196
虞允文	-11.1199
奈	-11.1199
貴州	-11.12
誓書	-11.1201
余靖	-11.1203
入侍	-11.1205
數百里	-11.1209
縣漢	-11.1209
亦不能	-11.1216
小事	-11.1217
曲直	-11.1219
殿直	-11.1223
此語	-11.1224
鄂特凌古	-11.1225
簽書樞密院事	-11.1226
玫	-11.1228
賑之	-11.123
灘	-11.1231
殁	-11.1231
裨	-11.1232
三尺	-11.1236
黷	-11.1236
夀陽	-11.1237
無狀	-11.124
所繫	-11.124
頡利	-11.1241
其子孫	-11.1241
心腹	-11.1244
子女	-11.1248
月末	-11.1251
皇城	-11.1251
感動	-11.1252
十九日	-11.1252
思恭	-11.1253
必行	-11.1254
汝曹	-11.1254
黄潛善	-11.1268
貿易	-11.127
能否	-11.1271
譜	-11.1271
居厚	-11.1275
潁州	-11.1275
拳	-11.1277
御崇政殿	-11.1278
凡所	-11.1287
少年	-11.1292
陳執中	-11.1292
山崩	-11.1296
商州	-11.1298
聖朝	-11.1299
家居	-11.1302
安撫大使	-11.1303
四鎮	-11.1305
李彦	-11.1307
曾布	-11.1308
凡六	-11.1311
熈寜	-11.1314
乃更	-11.1318
馬邑	-11.1319
連年	-11.1321
經畧安撫	-11.1332
其姦	-11.1332
萬八千	-11.1334
懽	-11.1335
宣徽使	-11.1337
官給	-11.1337
七里	-11.1342
必敗	-11.1343
瑊	-11.1343
隨軍	-11.1344
照翻	-11.1345
切責	-11.1352
雍州刺史	-11.1354
新書	-11.1354
不息	-11.1354
時年	-11.1355
髙平	-11.1357
愕	-11.1365
朝請大夫	-11.1369
謝曰	-11.1373
始得	-11.1373
隐	-11.1375
浹	-11.1376
衂	-11.1378
槖	-11.1379
瑛	-11.1381
一身	-11.1384
二十七日	-11.1387
玉牒	-11.1388
入閣	-11.1392
将兵	-11.1393
都元帥	-11.1393
䝉正	-11.1394
故有是詔	-11.1394
知潭州	-11.1396
至京	-11.14
諸色	-11.1402
三十二	-11.1406
炭	-11.1411
㓕	-11.1412
佚	-11.1413
天下之人	-11.1416
並無	-11.1418
遷一官	-11.1419
皇城司	-11.1421
别將	-11.1422
不軌	-11.1422
在内	-11.1423
十一日	-11.1424
誠能	-11.1428
達蘭	-11.1429
提㸃刑獄司	-11.1431
將何以	-11.1432
復扶又	-11.1433
宗諤	-11.1433
損益	-11.1434
國政	-11.1436
▁考異曰	-11.1437
遷于	-11.1444
非便	-11.1445
太學生	-11.145
潯	-11.1451
北漢主	-11.1452
殉	-11.1452
數十里	-11.1452
彦章	-11.1453
嗣昌	-11.1453
君子小人	-11.1456
夜半	-11.1457
特書	-11.1458
食盡	-11.1458
賢才	-11.146
二百五十	-11.1461
楯	-11.1461
嘗謂	-11.1462
郃	-11.1463
俘獲	-11.1463
貴戚	-11.1464
為前鋒	-11.1465
阿珠	-11.1465
臨時	-11.1465
無常	-11.1466
愼	-11.1467
祖宗以來	-11.1469
引兵還	-11.147
堯俞	-11.1475
擁兵	-11.1479
崈	-11.148
監國	-11.1481
携	-11.1482
富民	-11.1483
搢紳	-11.1484
頂	-11.1487
更工衡翻	-11.1488
建興	-11.1488
三十人	-11.1489
上封事	-11.149
朱泚	-11.1491
璉	-11.1493
坑	-11.1495
此所謂	-11.1497
三嵗	-11.1503
彼必	-11.1506
寺觀	-11.1508
撃之	-11.1508
赦書	-11.1509
之意也	-11.151
一分	-11.1514
未成	-11.1516
分别	-11.1517
大理評事	-11.1517
㓙	-11.1518
立皇子	-11.1519
三百餘	-11.1519
綾	-11.152
廐	-11.152
沈與求	-11.152
鄜州	-11.1521
拆	-11.1521
拙	-11.1522
程頥	-11.1522
滉	-11.1524
乳母	-11.1524
分析	-11.1526
昕	-11.1526
武公	-11.1527
可知矣	-11.153
子羽	-11.153
吉州	-11.1531
安陸	-11.1536
一子	-11.1536
是謂	-11.1537
移文	-11.1538
人物	-11.1538
堡寨	-11.1538
字伯	-11.1539
左遷	-11.1539
沼翻	-11.1541
牙將	-11.1542
此豈	-11.1543
治兵	-11.1543
邁翻	-11.1551
元年正月	-11.1551
黄履	-11.1551
瘴	-11.1555
之孫也	-11.1555
崇徳	-11.1555
鹽鐡	-11.1556
襲封	-11.1557
被殺	-11.1558
耽	-11.156
腐	-11.156
館閣	-11.156
廡	-11.156
務在	-11.1561
炤	-11.1562
恤翻	-11.1563
牋	-11.1563
餞	-11.1565
太妃	-11.1565
乞伏	-11.1578
一時之	-11.158
帝從之	-11.1585
不備	-11.1585
臣伏	-11.1588
郞	-11.1591
今附見	-11.1594
江湖	-11.1594
大敗之	-11.1595
塗炭	-11.1596
雩	-11.1596
梧	-11.1596
明白	-11.1598
好學	-11.1599
專權	-11.1599
蕃兵	-11.16
團結	-11.16
羈	-11.1603
資治通鑑卷	-11.1607
衛州	-11.1607
擯	-11.1608
赫連	-11.1609
崇韜	-11.1609
俟其	-11.161
奉安	-11.1611
絳州	-11.1612
李清臣	-11.1617
志云	-11.1617
沙門	-11.1619
急務	-11.162
蘄州	-11.1621
降㫖	-11.1622
南渡	-11.1622
秦漢	-11.1624
酣	-11.1629
團練	-11.1631
青苖	-11.1632
千四百	-11.1634
邃	-11.1636
守光	-11.1637
弓弩	-11.1637
終不能	-11.1642
謂輔臣曰	-11.1644
曲沃	-11.1646
季翻	-11.1646
初議	-11.1647
異姓	-11.1648
軍亂	-11.165
宫門	-11.1651
有警	-11.1653
相視	-11.1662
参知政事	-11.1662
涯	-11.1662
徭	-11.1666
讞	-11.1668
勔	-11.1669
茲	-11.1669
邈川	-11.1672
勃勃	-11.1673
處昌吕翻	-11.1674
冰	-11.1676
犢	-11.1677
秉政	-11.1677
兵馬鈐轄	-11.1678
鹽法	-11.168
萬斛	-11.1684
定逺	-11.1685
赤心	-11.1686
出錢	-11.1688
獨孤	-11.169
嵗時	-11.1693
忠彦	-11.1693
不得過	-11.1698
臣竊以	-11.17
祖禹	-11.1701
邜	-11.1704
罷黜	-11.1704
儆	-11.1706
制置大使	-11.1707
緑	-11.171
憂懼	-11.171
淮南王	-11.1711
字仲	-11.1711
鄭氏	-11.1711
一體	-11.1711
舉主	-11.1713
無私	-11.1714
素無	-11.1714
魏晉	-11.1717
元元年	-11.1719
經史	-11.1719
千七百	-11.1722
果有	-11.1726
天禧	-11.1727
州之地	-11.1727
知揚州	-11.1728
禹貢	-11.1728
不習	-11.1732
安禮	-11.1733
羣下	-11.1734
節度副使	-11.1736
全義	-11.1736
蕚	-11.1737
軍糧	-11.1738
橫	-11.174
薦翻	-11.174
昭公	-11.1743
芻粟	-11.1746
齊賢	-11.1747
悠	-11.1747
旗幟	-11.1749
愎	-11.1749
百七十	-11.1751
刁	-11.1751
員外	-11.1752
滂	-11.1752
日益	-11.1752
聲援	-11.1752
昨日	-11.1753
為右丞相	-11.1754
唐紀	-11.1756
教閲	-11.1758
三朝	-11.1759
乃退	-11.1762
刑法	-11.1763
諸鎮	-11.1764
上不許	-11.1764
戰艦	-11.1766
立太子	-11.1768
惡烏	-11.177
辰州	-11.1771
堯舜之	-11.1775
矣夫	-11.1776
挑	-11.1779
看	-11.178
昂	-11.178
恭儉	-11.178
始置	-11.1782
濕	-11.1783
吕頤浩	-11.1784
袖	-11.1784
死傷	-11.1785
宗元	-11.1787
出賣	-11.1787
宰輔	-11.1787
懌	-11.1788
政和	-11.1789
物料	-11.1792
顯忠	-11.1792
事機	-11.1795
晡	-11.1798
内侍省	-11.1798
岷州	-11.1807
管軍	-11.181
縱横	-11.1815
璁	-11.1819
進對	-11.1819
荆湖南路	-11.1821
璜	-11.1822
汾陽	-11.1824
方士	-11.1824
駐泊	-11.1826
宕	-11.1832
乃有是命	-11.1834
捶	-11.1836
登州	-11.1838
募民	-11.1839
興宗	-11.184
之言也	-11.1841
外餘	-11.1842
悉平	-11.1843
舉動	-11.1846
狄青	-11.185
大略	-11.185
宣城	-11.1852
懐州	-11.1853
天寶	-11.1856
工部郎中	-11.1857
帥所類翻	-11.1858
退屯	-11.1858
厨	-11.186
灣	-11.1863
成臯	-11.187
葦	-11.1871
知貢舉	-11.1873
臨事	-11.1876
中傷	-11.1877
天心	-11.1877
驪	-11.1878
武寧	-11.1879
疏入	-11.1881
學生	-11.1881
息錢	-11.1884
上邽	-11.1888
上京	-11.1891
載記	-11.1892
尅	-11.1892
發運司	-11.1895
芾	-11.1896
骸	-11.1896
資治通鑑	-11.1897
教習	-11.1897
栻	-11.1898
太常丞	-11.19
饑饉	-11.19
建立	-11.1901
襄公	-11.1903
嬴	-11.1904
畱	-11.1905
平定	-11.1907
汝等	-11.1907
虚實	-11.1911
塢	-11.1911
全軍	-11.1911
複姓	-11.1912
南越	-11.1913
藍田	-11.1914
藥師	-11.1916
侍臣	-11.1916
李全	-11.1916
我國	-11.1916
又音如字	-11.1917
唐屬	-11.1918
尋改	-11.1919
僚屬	-11.192
去就	-11.1921
内東門	-11.1921
濟隂	-11.1924
降一官	-11.1924
計翻	-11.1927
謀殺	-11.1927
武舉	-11.1927
猺	-11.1928
夀州	-11.1932
諸侯王	-11.1933
柩	-11.1935
雖多	-11.1935
慶元	-11.1935
伶	-11.1936
架	-11.1936
放罷	-11.1936
曹州	-11.194
見賢遍翻	-11.194
二百里	-11.1941
建隆	-11.1941
妬	-11.1944
汾隂	-11.1951
之罪也	-11.1952
廵撫	-11.1953
正旦	-11.1953
五十人	-11.1955
開寳	-11.1957
麟州	-11.196
為賊所	-11.1964
二世	-11.1965
仁恭	-11.1966
應接	-11.1967
太平興國	-11.1968
横山	-11.197
選官	-11.1972
繫獄	-11.1972
禽獸	-11.1974
朝見	-11.1974
秦檜曰	-11.1976
右軍	-11.1978
元振	-11.1979
冠軍	-11.198
如淳曰	-11.1981
撻	-11.1981
費用	-11.1982
賜姓	-11.1984
甘肅	-11.1985
李靖	-11.1985
寮	-11.1985
既死	-11.1987
僞	-11.1989
一百七十	-11.1992
為御史中丞	-11.1993
理財	-11.1995
二百人	-11.2001
北史	-11.2001
宣府	-11.2003
若能	-11.2003
潼	-11.2004
雲州	-11.2006
不恱	-11.2008
鄢	-11.2009
霽	-11.2011
曰今日	-11.2011
駟	-11.2012
航	-11.2013
瑟	-11.2014
干戈	-11.2014
綯	-11.2015
如之何	-11.2016
箴	-11.2018
力士	-11.2018
綦	-11.2022
始皇	-11.2022
秦鳳	-11.2027
亦須	-11.2027
而遣之	-11.2028
二十六日	-11.2028
攸之	-11.2029
職在	-11.2036
后土	-11.2037
交子	-11.2037
威名	-11.2039
河北路	-11.2039
為之備	-11.204
既成	-11.2042
申尚書省	-11.2048
烹	-11.2049
逄	-11.205
詈	-11.2053
妓	-11.2053
坊場	-11.2053
禮記	-11.2054
冏	-11.2054
錦衣	-11.2055
曆	-11.206
幸甚	-11.2061
肖	-11.2063
從祀	-11.2064
睢陽	-11.2066
一夫	-11.2068
光庭	-11.2069
縣漢屬	-11.2071
分屯	-11.2075
吏士	-11.208
少監	-11.2081
朝請郎	-11.2082
所恃	-11.2086
李燾撰	-11.2088
一百八十	-11.2089
鑰	-11.2091
流離	-11.2092
乗間	-11.2095
丸	-11.2096
南侵	-11.2096
洪範	-11.2096
楊沂中	-11.2097
聖訓	-11.2097
二百四十	-11.2101
潼關	-11.2103
失色	-11.2108
戎人	-11.2108
二十五日	-11.2112
巴陵	-11.2113
戍卒	-11.2114
八萬	-11.2115
作樂	-11.2117
圍城	-11.212
伏覩	-11.2123
昌邑	-11.2125
由榔	-11.2126
閬	-11.2126
剏	-11.2127
伐齊	-11.2127
允恭	-11.2129
婺	-11.2129
燕人	-11.2129
兩國	-11.2131
幷	-11.2131
兵權	-11.2139
五經	-11.2139
逡	-11.2148
赤子	-11.2153
范書	-11.2156
所領	-11.216
朝散郎	-11.2162
襄城	-11.2162
囉	-11.2163
氏崩	-11.2166
臨川	-11.2166
直𨽻	-11.2166
追擊	-11.2167
條貫	-11.2167
喚	-11.2169
慷慨	-11.217
諒祚	-11.2172
鏤	-11.2173
聖慮	-11.2174
步兵	-11.2174
御製	-11.2174
撫州	-11.2175
八九	-11.2176
指使	-11.2178
二十三年	-11.218
選舉	-11.2187
部下	-11.2187
稱疾不	-11.2187
部分	-11.219
擊大破之	-11.2194
並用	-11.2201
何患	-11.2202
東頭供奉官	-11.2203
乾歸	-11.2207
緋	-11.2208
翠	-11.2211
委曲	-11.2211
賓客	-11.2214
統兵	-11.2215
軍器監	-11.2216
驚擾	-11.2216
手足	-11.2217
皇太	-11.2218
仁孝	-11.2222
郭逵	-11.2223
各一人	-11.2224
中山王	-11.2224
蜀中	-11.2228
直學士	-11.2228
熈州	-11.2232
貴賤	-11.2235
三十五	-11.2235
魏郡	-11.2235
絕	-11.224
騷	-11.2244
塞外	-11.2246
荆湖北路	-11.2246
防守	-11.2247
詔獄	-11.2248
兵革	-11.2249
朝議大夫	-11.225
歸朝	-11.2252
趙卨	-11.2257
學術	-11.2258
上又曰	-11.2258
三十七	-11.2259
保吉	-11.2262
治直之翻	-11.2264
封爵	-11.2265
王崩	-11.2266
委官	-11.2268
巴蜀	-11.2269
卒贈	-11.2273
息民	-11.2274
萬四千	-11.2274
追復	-11.2278
七十里	-11.2279
夏秋	-11.2279
剰	-11.228
水勢	-11.2281
力爭	-11.2282
首級	-11.2282
一品	-11.2282
龍圖閣待制	-11.2284
王覿	-11.2285
楮	-11.2288
宗閔	-11.2289
契勘	-11.2291
滌	-11.2294
四郡	-11.2296
憚之	-11.2296
遵裕	-11.2301
兩京	-11.2304
安逺	-11.2304
許昌	-11.2306
職任	-11.2308
守節	-11.231
曰不然	-11.2311
入覲	-11.2312
隋主	-11.2316
繼勲	-11.2321
傳聞	-11.2321
同姓	-11.2322
其妻子	-11.2323
之福也	-11.2323
勉之	-11.2326
遂寢	-11.2326
逆戰	-11.2329
蒸	-11.233
彼此	-11.2331
鎻	-11.2332
既定	-11.2332
蒯	-11.2332
布録	-11.2333
昬	-11.2334
莧翻	-11.2335
之可也	-11.2337
泝	-11.2337
百六十	-11.2337
險阻	-11.2338
鎮守	-11.2339
千餘級	-11.2342
遂圍	-11.2343
李林甫	-11.2346
稱職	-11.2349
喻翻	-11.235
白金	-11.2353
防禦	-11.2356
邊患	-11.2356
為留後	-11.2359
丈夫	-11.236
臣竊見	-11.236
騫	-11.2365
昪	-11.2366
長貳	-11.2366
楊行密	-11.2366
踏	-11.2369
低	-11.237
棄城走	-11.2371
剌	-11.2371
澆	-11.2373
逖	-11.2375
澤潞	-11.2376
項王	-11.2376
竭力	-11.2378
兼并	-11.2378
時政記	-11.2379
引用	-11.2385
臣寮	-11.2385
遣内侍	-11.2385
獻公	-11.2386
從珂	-11.2391
頒行	-11.2394
昆弟	-11.2394
羅索	-11.2398
守信	-11.2402
臣觀	-11.2402
侍御史知雜事	-11.2402
得幸	-11.2403
敗補	-11.2404
臣之所	-11.2406
梯	-11.2406
僮	-11.2407
斥逐	-11.2408
庫庫特穆爾	-11.2409
龍圖閣學士	-11.2411
申請	-11.2412
錢鏐	-11.2414
惶恐	-11.2415
引疾	-11.2416
郎將	-11.2418
武備	-11.2418
比較	-11.242
榆林	-11.2422
豈宜	-11.2422
鍾離	-11.2425
遘	-11.244
帥府	-11.2443
望陛下	-11.2443
入禁中	-11.2443
吏部員外郎	-11.2446
侔	-11.2447
光禄勲	-11.2448
私罪	-11.2448
璽書	-11.245
因依	-11.2451
厰	-11.2451
刷	-11.2452
臣竊謂	-11.2455
譎	-11.2456
直抵	-11.246
不均	-11.2462
萬世之	-11.2463
方略	-11.2466
臨洮	-11.2467
來獻	-11.2469
旃	-11.247
餘慶	-11.2473
臺臣	-11.2479
慰勞	-11.248
興元府	-11.2484
涿郡	-11.2484
館伴	-11.2485
來賀	-11.2486
紐	-11.2488
歉	-11.2488
厮	-11.249
芻糧	-11.2491
淮甸	-11.2491
詳酌	-11.2493
狼狽	-11.2497
困於	-11.2502
考試	-11.2503
諸儒	-11.2504
月六日	-11.2506
子諲	-11.251
亦嘗	-11.2512
三十一	-11.2513
備位	-11.2514
亦不敢	-11.2515
軍府	-11.2517
益甚	-11.2518
鐵錢	-11.2519
兵三千	-11.252
虛實	-11.2524
帳下	-11.2526
天祚	-11.2526
占城	-11.253
訕	-11.253
深慮	-11.2533
鄖	-11.2534
一百三十	-11.2536
京師地震	-11.2537
酖	-11.2538
未詳	-11.2539
并力	-11.2544
招集	-11.2544
國忠	-11.2549
唐虞	-11.2552
立皇后	-11.2555
錠	-11.2558
延和殿	-11.2562
夫子	-11.2563
絃	-11.2564
棐	-11.2565
車馬	-11.2565
分數	-11.2568
斷丁	-11.2568
珽	-11.2569
引還	-11.2575
建平	-11.258
惟演	-11.258
考詳	-11.2584
胡寅	-11.2594
安邑	-11.2596
大半	-11.2599
至於此	-11.2607
上謂大臣曰	-11.261
行狀	-11.261
攻陷	-11.2611
千牛	-11.2611
稍稍	-11.2611
頤浩	-11.2614
央	-11.2614
韓魏	-11.2615
秦鳯路	-11.2615
歴代	-11.2618
舊史	-11.2619
腰	-11.2626
璪	-11.263
聽命	-11.2631
起居注	-11.264
沙陀	-11.2643
其鋒	-11.2644
欣然	-11.2644
貢方物	-11.2646
别置	-11.2646
死生	-11.2652
殤	-11.2652
剪	-11.2652
瀕	-11.2652
五十餘	-11.2653
影	-11.2654
逺矣	-11.2654
河外	-11.2655
不拘	-11.2655
宋司馬光撰胡三省音註	-11.2655
來年	-11.2659
納欵	-11.2662
乾祐	-11.2666
黄龍	-11.2667
傳位	-11.2667
不戰而	-11.2668
知永興軍	-11.2669
廷弼	-11.2669
役人	-11.2669
郭威	-11.2671
彦超	-11.2675
近嵗	-11.2675
零陵	-11.2676
九錫	-11.2678
為尚書令	-11.2681
以新紀	-11.2681
配天	-11.2682
勸進	-11.2684
雅克特穆爾	-11.2684
貺	-11.2688
袁紀	-11.2691
正史	-11.2692
孥	-11.2693
顔色	-11.2699
猗	-11.2699
擔	-11.27
幟	-11.27
堆	-11.2703
章楶	-11.2705
媯	-11.2706
徙都	-11.2712
本府	-11.2713
東西路	-11.2713
責降	-11.2714
乾徳	-11.2714
蠻人	-11.2726
恩信	-11.2729
議者謂	-11.2729
磬	-11.273
后妃	-11.2731
求援	-11.2732
蚡	-11.2732
皇孫	-11.2733
被害	-11.2735
衘	-11.2736
鞬	-11.2745
先悉	-11.2745
怡	-11.2746
今改後仿此	-11.2746
對曰陛下	-11.2746
前殿	-11.2751
袤	-11.2753
功徳	-11.2754
謚曰	-11.2758
珂	-11.2763
謂人曰	-11.2763
審察	-11.2764
請給	-11.2768
不覺	-11.277
所築	-11.277
隲	-11.2772
中書侍郎同平章事	-11.2775
慨然	-11.2777
薩里罕	-11.278
韻	-11.278
攻圍	-11.2782
讙	-11.2782
二十二年	-11.2785
知秦州	-11.2787
吳玠	-11.2792
張齊賢	-11.2792
離間	-11.2792
沂中	-11.2794
皇天	-11.2796
果莊	-11.2796
儀注	-11.28
江州刺史	-11.2801
臺諫官	-11.2802
郡縣志	-11.2807
皆由	-11.2808
濮王	-11.2811
氊	-11.2814
馥	-11.2815
史館修撰	-11.2816
電	-11.2816
簿書	-11.2816
豈容	-11.2817
世隆	-11.2818
玘	-11.2819
相結	-11.2819
擅權	-11.282
死節	-11.282
刪定	-11.2821
叶	-11.2822
衡山	-11.2822
郡隋	-11.2822
入闗	-11.2826
杼	-11.2827
賦役	-11.2828
富平	-11.2832
率百官	-11.2833
孝經	-11.2834
李徳裕	-11.2835
愛惜	-11.2836
權貴	-11.2839
累日	-11.2841
沮渠	-11.2847
受禪	-11.2848
素服	-11.2849
一百四十	-11.2849
宣示	-11.2851
四海之	-11.2851
部衆	-11.2852
傅堯俞	-11.2852
殿門	-11.2857
願得	-11.2858
内殿承制	-11.2859
承受	-11.2865
洛水	-11.2866
實録云	-11.2868
天資	-11.287
路轉運判官	-11.2872
覆奏	-11.2873
明年正月	-11.2873
否則	-11.2875
天下之事	-11.2876
親民	-11.288
機宜	-11.2886
檢舉	-11.2889
二十九日	-11.2893
餘悉	-11.2893
親黨	-11.2896
承務郎	-11.2897
鮮于	-11.2898
𠡠	-11.2898
賈易	-11.2899
此所以	-11.29
為太傅	-11.2901
器甲	-11.2902
陳康伯	-11.2903
侁	-11.2903
肝	-11.2907
葭	-11.2907
鷄	-11.2907
靚	-11.2908
十有二	-11.2908
楊素	-11.2908
怏怏	-11.2911
旄	-11.2911
江南東路	-11.2912
應募	-11.2913
舒州	-11.2913
元祐元年	-11.2916
忠武	-11.2919
太常卿	-11.2922
代郡	-11.2925
樂安	-11.2926
目前	-11.2927
按視	-11.2931
賜爵	-11.2933
學問	-11.2937
礮	-11.2939
霑	-11.2942
二十一日	-11.2943
璨	-11.2944
霖雨	-11.2945
頑	-11.2945
淮隂	-11.2947
騎竒	-11.2948
詧	-11.2949
諸路監司	-11.295
宫殿	-11.2952
義倉	-11.2958
莫大於	-11.2959
封疆	-11.2963
兵三萬	-11.2964
依例	-11.2972
彈奏	-11.2972
大司空	-11.2974
畫一	-11.2974
令尹	-11.2978
天章閣	-11.2982
資善堂	-11.2982
𣙜貨務	-11.2984
惕	-11.2986
進屯	-11.2987
夭	-11.2987
聖政	-11.2988
轉一官	-11.2989
州别駕	-11.2992
三十三	-11.2994
誚	-11.2995
衆論	-11.2996
牧馬	-11.2997
太重	-11.2997
髙郵	-11.3
京湖	-11.3001
體仁	-11.3002
編類	-11.3002
言事者	-11.3005
所統	-11.3006
侵掠	-11.3009
甚急	-11.3009
必勝	-11.301
謀議	-11.302
稱藩	-11.3023
乏食	-11.3023
詔三司	-11.3024
吕后	-11.3025
擠	-11.3027
婉	-11.3027
乎對曰	-11.3027
司𨽻校尉	-11.3029
殫	-11.3029
民户	-11.3029
彞	-11.3031
裹	-11.3032
悰	-11.3034
南岸	-11.3034
稱善	-11.3035
祔廟	-11.3036
向敏中	-11.3037
盆	-11.3037
作坊	-11.304
上表請	-11.3044
歎息	-11.3045
應天府	-11.3048
更定	-11.3048
易簡	-11.3049
四十萬	-11.3049
鄴都	-11.3055
察哈爾	-11.3055
附注	-11.3062
河洛	-11.3062
僉書樞宻院事	-11.3068
之大者	-11.3069
選用	-11.3071
倬	-11.3071
審刑院	-11.3072
鄧綰	-11.3076
詛	-11.3078
開封尹	-11.3078
兵器	-11.3078
老子	-11.3083
茶場	-11.3088
養子	-11.3089
四品	-11.3093
三萬人	-11.3095
士論	-11.3098
阿哈瑪特	-11.3104
凡七	-11.3111
陲	-11.3112
臣愚以為	-11.3112
支用	-11.3113
沴	-11.3114
通和	-11.3115
入内内侍省	-11.3115
烝	-11.3116
鼠	-11.3116
團練使	-11.3116
李晟	-11.3117
上即位	-11.3123
惑衆	-11.3123
賊帥	-11.3126
江寧府	-11.3127
宰執奏	-11.3133
不得已而	-11.3138
此輩	-11.3139
被皮	-11.3141
御殿	-11.3142
牛馬	-11.3142
農民	-11.3148
躬親	-11.315
權知開封府	-11.315
二十八年	-11.3154
忝	-11.3156
所惡	-11.3157
歸田里	-11.3158
䕫州	-11.3159
擊破	-11.3161
謡	-11.3162
絢	-11.3163
擊走之	-11.3163
捍禦	-11.3165
删	-11.3169
逗	-11.3172
特㫖	-11.3172
僵	-11.3172
大雪	-11.3175
閣臣	-11.3175
内庫	-11.3175
老病	-11.3175
諸陵	-11.3179
類翻	-11.3179
醫官	-11.318
弑君	-11.3186
迎合	-11.3187
出迎	-11.319
官一員	-11.3192
儒臣	-11.3194
嘉勒斯賚	-11.3196
鄉縣	-11.32
隄防	-11.3201
豳	-11.3205
國勢	-11.321
月十二日	-11.3211
傉檀	-11.3212
千金	-11.3213
後苑	-11.3214
浮橋	-11.3214
五日一	-11.3215
考課	-11.3216
柯	-11.3219
泰始	-11.3221
兵甲	-11.3225
馬步	-11.3226
旦翻	-11.3227
切齒	-11.3228
小兒	-11.3229
慰諭	-11.323
曰某	-11.3231
庶政	-11.3233
邳	-11.3234
光禄	-11.3235
哷	-11.324
情理	-11.3241
左正言	-11.3241
持重	-11.3243
城破	-11.3243
記室	-11.3243
集英殿修撰	-11.3244
右武大夫	-11.3244
規模	-11.3246
所管	-11.3247
舉進士	-11.3247
涇陽	-11.3248
毓	-11.3251
翕然	-11.3251
暴露	-11.3252
曏	-11.3252
相息亮翻	-11.3252
沅	-11.3252
王世充	-11.3254
歇	-11.3256
絞	-11.3257
紹述	-11.3258
寢疾	-11.3263
據險	-11.3269
檢察	-11.327
風聞	-11.3275
豐州	-11.3278
二十五年	-11.3278
二人皆	-11.3282
劉向	-11.3282
經理	-11.3285
大鴻臚	-11.3287
包拯	-11.3287
長編	-11.3288
不祥	-11.3288
蹤	-11.3289
㲄	-11.329
呉越	-11.329
潼川	-11.3291
感悟	-11.3293
刎	-11.3295
尺寸	-11.3296
上許之	-11.3298
常平倉	-11.3298
六部	-11.3302
隋置	-11.3305
配享	-11.3305
廣武	-11.3307
親近	-11.3307
䜴翻	-11.3308
聖賢	-11.3309
協力	-11.3309
大饑	-11.3313
不能守	-11.3315
檢詳	-11.3317
誰可	-11.3319
横行	-11.3326
永和	-11.3328
鶻	-11.3328
三班奉職	-11.3333
紫宸殿	-11.3333
煦	-11.3334
瞽	-11.3335
爵賞	-11.3337
浴	-11.334
舜卿	-11.3342
疾速	-11.3342
但恐	-11.3343
鄉村	-11.3345
幡	-11.3347
兵五千	-11.3348
餓	-11.335
切姓也	-11.335
孝先	-11.3351
左諫議大夫	-11.3358
交割	-11.3372
威武	-11.3374
東京留守	-11.3375
英雄	-11.3375
滬	-11.3375
􁨑	-11.3376
虗	-11.3377
龎籍	-11.3379
殿侍	-11.338
舛	-11.338
督責	-11.338
司天監	-11.3381
漢髙祖	-11.3384
郴	-11.3385
月八日	-11.3386
説文	-11.3386
穆爾	-11.3391
慰撫	-11.3394
失信	-11.34
請對	-11.3402
告身	-11.3406
公亮	-11.3407
此類	-11.3409
屯駐	-11.3416
遣將軍	-11.3418
嘉問	-11.3418
璹	-11.3419
沅州	-11.3419
騷擾	-11.3424
藩邸	-11.3425
國子祭酒	-11.3425
梓州	-11.3426
師旦	-11.3428
萬六千	-11.3431
北庭	-11.3432
井陘	-11.3433
聖躬	-11.3437
籍其家	-11.3439
踊	-11.344
杜衍	-11.3441
邠寧	-11.3441
光化	-11.3447
月給	-11.3448
宥州	-11.3448
神宗皇帝	-11.3449
幽王	-11.345
竟陵	-11.345
上件	-11.3451
升卿	-11.3453
奏到	-11.3456
琿	-11.3457
驍騎	-11.3459
得其實	-11.3461
丁度	-11.3461
主管台州崇道觀	-11.3463
華隂	-11.3467
虹	-11.3468
沈該	-11.347
譲	-11.347
牢城	-11.3473
陕	-11.3473
遴	-11.3474
南向	-11.3474
居住	-11.3474
被皮義翻	-11.3475
縑	-11.3475
助役	-11.3475
枋	-11.3476
馮道	-11.3476
樞府	-11.3476
淳化	-11.3477
諌議大夫	-11.3477
言昨	-11.3481
南史	-11.3481
得其人	-11.3482
鈐轄司	-11.3485
置局	-11.3485
失望	-11.3485
㳟	-11.349
太過	-11.35
縣故城	-11.3505
彌逺	-11.3505
江寧	-11.3505
贓吏	-11.3506
百餘萬	-11.3507
䛕	-11.3508
聖恩	-11.3509
宗愈	-11.3511
夫婦	-11.3514
馮拯	-11.3515
沸	-11.3523
諸州軍	-11.3526
跌	-11.3528
信任	-11.3529
八十里	-11.3533
極論	-11.3539
至洛陽	-11.3541
譬如	-11.3543
何哉	-11.3544
凖備	-11.3545
一百九十	-11.3548
蜀郡	-11.3549
總制	-11.3552
坰	-11.3552
有司奏	-11.3552
潦	-11.3554
沽	-11.3555
刦	-11.3555
審官院	-11.3556
㤙	-11.3556
帶御器械	-11.3557
進秩	-11.3557
啜	-11.3559
幕府	-11.3559
澶淵	-11.3559
還京	-11.356
沿邉	-11.3562
二百七十	-11.3563
第六	-11.3563
蘇頌	-11.3564
陳堯叟	-11.3565
安得不	-11.3568
逐處	-11.3569
西蕃	-11.3569
年老	-11.357
登極	-11.3575
解鹽	-11.3582
無虞	-11.3584
推賞	-11.3588
乗馬	-11.359
震恐	-11.359
旱蝗	-11.3592
夀皇	-11.3592
欲殺之	-11.3599
竿	-11.36
話	-11.36
萃	-11.3601
贈官	-11.3601
濱	-11.3602
通商	-11.3603
鋹	-11.3603
詩書	-11.3604
妣	-11.3605
遹	-11.3605
騶	-11.3607
卒子恤翻	-11.3608
株	-11.3609
孟庾	-11.361
蠱	-11.3611
户部言	-11.3612
兵二萬	-11.3614
動揺	-11.3614
曹利用	-11.3614
臨海	-11.3616
諌曰	-11.3617
勇士	-11.3618
西羌	-11.3619
勢必	-11.3622
王中正	-11.3623
五代史	-11.3628
房州	-11.364
奥	-11.3642
憸	-11.3643
塤	-11.3645
徽猷閣直學士	-11.3647
帝曰朕	-11.3649
抵罪	-11.3649
巒	-11.3651
弑其君	-11.3652
所撰	-11.3652
赧	-11.3655
劣	-11.3656
殽	-11.3658
經略安撫	-11.3666
不可輕	-11.3667
二十六年	-11.3668
宣化	-11.3674
所部兵	-11.3678
辭免	-11.3678
郴州	-11.3682
始祖	-11.3684
摰	-11.3684
崇寧	-11.3691
不奉詔	-11.3692
宗正寺	-11.3693
矧	-11.3695
史彌逺	-11.3695
至行在	-11.3696
廻	-11.3696
宜早	-11.3696
元璋	-11.3697
輓	-11.3698
脉	-11.3698
禁錮	-11.37
聿	-11.3701
未見其	-11.3702
優詔	-11.3708
槊	-11.371
聖德	-11.3711
安静	-11.3714
權御史中丞	-11.3716
絰	-11.3718
河東節度使	-11.3728
為樞宻使	-11.3733
不敢進	-11.3734
醇	-11.3737
璽綬	-11.3737
宜速	-11.3737
礟	-11.3738
誣罔	-11.3739
窺伺	-11.3739
數倍	-11.374
淇	-11.374
逈	-11.3748
元康	-11.3748
考校	-11.3749
㸃集	-11.3749
臣昨	-11.3751
戚里	-11.3754
甚善	-11.3754
喜怒	-11.3757
勞苦	-11.3761
初即位	-11.3764
宫禁	-11.377
來貢	-11.3772
苑中	-11.3775
西突厥	-11.3776
耘	-11.378
遂陷	-11.378
三班借職	-11.378
恩禮	-11.3781
及第出身	-11.3782
通事舍人	-11.3783
偓	-11.3784
秘閣修撰	-11.3787
姦謀	-11.3789
二萬人	-11.3789
傳檄	-11.3789
洮州	-11.3795
數十年	-11.3797
孝忠	-11.3804
杲卿	-11.3804
過半	-11.3804
無所不至	-11.3804
夏口	-11.3807
荆門	-11.3807
所劾	-11.3808
可畏	-11.381
仁傑	-11.3811
隋改	-11.3817
厚恩	-11.3817
李繼遷	-11.3817
二千餘人	-11.382
服御	-11.3825
汝礪	-11.3827
年八十	-11.3828
邴	-11.3829
付史館	-11.3829
眩	-11.383
追奪	-11.3831
訢	-11.3832
態	-11.3833
匄	-11.3834
等四人	-11.3835
蒐	-11.3835
禋	-11.3835
糧食	-11.3836
吕誨	-11.3841
左將軍	-11.3842
掩擊	-11.3844
亞夫	-11.3844
十倍	-11.3851
秦王堅	-11.3852
租税	-11.3855
州司户	-11.386
後數日	-11.3862
邊備	-11.3868
嵗幣	-11.387
坎	-11.387
穆呼哩	-11.3874
紬絹	-11.3875
太一宫	-11.3876
灰	-11.3879
藤	-11.388
赤眉	-11.3882
赭	-11.3883
奮擊	-11.3884
椎	-11.3884
郾	-11.3886
粤	-11.3886
呵	-11.3886
或勸	-11.3886
解圍	-11.3888
洧	-11.3891
詳考	-11.3895
連坐	-11.3899
彦澤	-11.39
闗東	-11.39
二年正月	-11.3902
禆將	-11.3902
從諫	-11.3902
鄯州	-11.3903
馬燧	-11.3903
恩例	-11.3903
隋開皇	-11.3905
市井	-11.3907
四十五	-11.391
益州刺史	-11.3912
呂翻	-11.3914
參議官	-11.3922
監察御史裏行	-11.3923
何異	-11.3925
屯田員外郎	-11.3927
為内應	-11.393
組	-11.3931
縻	-11.3933
二十餘年	-11.3934
貼黄稱	-11.3934
誅戮	-11.3935
潘美	-11.3936
蒙遜	-11.3937
功業	-11.3938
金帶	-11.3938
襄陽府	-11.3939
安敢	-11.3943
太子太傅	-11.3945
蔚州	-11.3947
二十餘萬	-11.3949
漣水	-11.395
經畫	-11.395
鄉侯	-11.395
職事官	-11.395
細民	-11.3951
深思	-11.3954
被甲	-11.3956
擁衆	-11.396
承業	-11.3965
不細	-11.3968
趙鼎曰	-11.3969
坡	-11.397
侑	-11.397
趍	-11.3973
難乃旦翻	-11.3973
郡國志	-11.3973
軸	-11.3976
趙抃	-11.3976
經界	-11.3976
愽	-11.3977
中書監	-11.3978
煩擾	-11.3984
西伯	-11.3986
輻	-11.3986
箠	-11.3986
養馬	-11.3991
考察	-11.3992
追還	-11.3995
任滿	-11.4004
世襲	-11.4005
被圍	-11.4008
供奉	-11.4011
廷議	-11.4011
節儉	-11.4012
如是則	-11.4013
臺省	-11.4014
安定郡	-11.4014
秘書少監	-11.4015
提舉臨安府洞霄宫	-11.4016
凋	-11.4017
摠	-11.4019
順昌	-11.4019
迴	-11.402
竈	-11.4021
檻	-11.4022
糧道	-11.4024
栅	-11.4024
僚佐	-11.4025
諍	-11.4026
進圍	-11.4027
閬州	-11.4028
累遷	-11.4031
軍節度副使	-11.4038
奬諭	-11.4038
私恩	-11.4041
仁軌	-11.4044
鄯	-11.4044
張燾	-11.4048
神考	-11.4053
切說	-11.4056
汜水	-11.4057
殛	-11.4061
響	-11.4061
分畫	-11.4062
垍	-11.4063
刑部郎中	-11.4066
尚存	-11.407
敗補邁翻	-11.4073
伯彦	-11.408
阿里	-11.4081
流亡	-11.4082
死者甚衆	-11.4082
濟北	-11.4084
宣宗	-11.4088
主客	-11.4088
聲勢	-11.409
酒食	-11.4091
匈	-11.4091
胥吏	-11.4092
浮梁	-11.4092
移檄	-11.4096
晏然	-11.4102
侵犯	-11.4106
遥郡	-11.4106
非常之	-11.4109
物價	-11.4111
砲	-11.4112
裁定	-11.4113
宣撫處置使	-11.4113
諸道兵	-11.4113
賢妃	-11.4114
縣今屬	-11.4115
奏裁	-11.4117
半月	-11.4119
前一日	-11.412
義康	-11.4121
擣	-11.4121
盪	-11.4124
有異志	-11.4124
後魏置	-11.4125
大司徒	-11.4128
孫升	-11.4128
無幾	-11.413
尊卑	-11.4131
十五人	-11.4134
隋書	-11.4135
頰	-11.4136
可憂	-11.4137
章䟽	-11.4138
戮力	-11.414
天下之大	-11.4143
親祠	-11.4145
納其言	-11.4155
筵	-11.4156
叨	-11.4158
湯鵬舉	-11.4158
洶洶	-11.4158
殃	-11.4159
供備庫副使	-11.4161
玊	-11.4162
阨	-11.4162
於上前	-11.4162
市舶	-11.4164
舂	-11.4165
建德	-11.4166
臥	-11.4167
窮治	-11.4168
勞費	-11.4171
韶州	-11.4171
利州路	-11.4176
二十四年	-11.4177
嘉興	-11.4179
場務	-11.4179
仇池	-11.4179
閏二月	-11.418
器用	-11.4181
新野	-11.4184
百三十	-11.4187
去冬	-11.419
告諭	-11.4191
夾攻	-11.4194
引咎	-11.4195
沼	-11.42
利病	-11.4201
定奪	-11.4203
賊黨	-11.4207
宣徽南院使	-11.4207
郟	-11.4209
醴	-11.4211
虢州	-11.4213
延儒	-11.4213
先悉薦翻	-11.4214
祏	-11.4214
未暇	-11.4215
鼓譟	-11.4215
可疑	-11.4216
丐	-11.4216
張商英	-11.4218
歴陽	-11.4218
皆潰	-11.4218
汴河	-11.4231
朝賀	-11.4235
轉輸	-11.4239
遺表	-11.4243
州諸軍事	-11.4246
黜責	-11.425
祕書省	-11.4254
宣撫副使	-11.4256
泳	-11.4256
西上閤門使	-11.4257
坐視	-11.4258
兵部員外郎	-11.4258
兵馬都監	-11.4262
駙馬	-11.4262
李泌	-11.4263
阿史那	-11.4264
鎰	-11.4264
牧守	-11.4266
留身	-11.4267
沂州	-11.4268
評曰	-11.427
裁損	-11.4271
堯翻	-11.4276
髙歡	-11.4282
世輔	-11.4293
們	-11.4295
乘間	-11.4296
經畧司言	-11.43
賞功	-11.4302
崇勲	-11.4305
蝕	-11.4306
貎	-11.4307
鵲	-11.4309
胷	-11.4316
廣淵	-11.4319
神農	-11.432
功賞	-11.4321
衛上將軍	-11.4323
勸農	-11.4323
昭逺	-11.4325
承訓	-11.4326
南單于	-11.4327
諭㫖	-11.4332
所忌	-11.4338
知祥	-11.4343
内閣	-11.4347
因縁	-11.4351
課利	-11.4353
坑冶	-11.4354
正其罪	-11.4354
淚	-11.4355
流俗	-11.4356
功曹	-11.4356
麓	-11.4357
觴	-11.436
燎	-11.4361
异	-11.4362
甲辰詔	-11.4363
姒	-11.4363
入境	-11.4368
跋扈	-11.4369
晏殊	-11.4369
朝謁	-11.4369
贈太師	-11.4381
穆宗	-11.4385
知開封府	-11.4387
每年	-11.4389
士遜	-11.4391
潞王	-11.4398
皇帝陛下	-11.4399
大中祥符	-11.44
敬瑭	-11.4401
直徽猷閣	-11.4403
蚤	-11.4404
蔬	-11.4405
竑	-11.4405
皂	-11.4407
謂侍臣曰	-11.4407
弇	-11.4407
苾	-11.4409
百四十	-11.441
屢敗	-11.4411
厠	-11.4413
卬	-11.4414
炬	-11.4414
茶馬	-11.4417
臨淄	-11.4419
寒心	-11.442
它日	-11.4421
遣使入貢	-11.4422
多遜	-11.4423
是冬	-11.4423
千三百	-11.4424
親臨	-11.4435
東萊	-11.4439
價錢	-11.4439
聖主	-11.444
甘州	-11.4443
神御	-11.4444
嗣宗	-11.4447
商議	-11.4449
都大提舉	-11.4449
國子司業	-11.445
擄	-11.4452
聳	-11.4452
适	-11.4453
繼嗣	-11.4453
瞿	-11.4455
躋	-11.4456
愉	-11.4458
降戸江翻	-11.4458
接伴	-11.4458
三館	-11.4459
涸	-11.446
不懌	-11.446
鞮	-11.4461
窟	-11.4461
供給	-11.4465
神靈	-11.447
矯詔	-11.4474
太平州	-11.4474
助教	-11.4475
豈肯	-11.4475
訛言	-11.4477
丁酉詔	-11.4477
知臨安府	-11.448
交易	-11.4482
卿大夫	-11.4482
財利	-11.4483
賜予	-11.449
資糧	-11.4493
寳訓	-11.4496
大慶殿	-11.4499
瀚	-11.4499
籙	-11.45
猜忌	-11.4505
建業	-11.4506
菑	-11.4506
樓櫓	-11.4506
潛善	-11.4507
孝恭	-11.4507
倍道	-11.4509
鄠	-11.451
存留	-11.4511
兵萬人	-11.4511
江南西路	-11.4512
簾前	-11.4514
左朝奉郎	-11.4514
到任	-11.4517
典刑	-11.4518
山澤	-11.4521
滑臺	-11.4522
六品	-11.453
諸蠻	-11.4532
省察	-11.4534
戒嚴	-11.4534
魏徵	-11.4535
哈達	-11.4542
顧問	-11.4543
管内	-11.4548
汪藻	-11.4549
人之所	-11.455
杜充	-11.455
敷文閣待制	-11.4551
賻	-11.4552
摇	-11.4552
狃	-11.4553
穫	-11.4554
慚	-11.4556
様	-11.4556
董戩	-11.4557
顓頊	-11.4557
昊天上帝	-11.4558
敵情	-11.4559
濰	-11.4559
兩浙路	-11.456
訣	-11.4561
黎州	-11.4561
于闐	-11.4561
六年春正月	-11.4561
臣僚上言	-11.4562
綏州	-11.4565
邵州	-11.4565
戀翻	-11.4569
生員	-11.457
二百八十	-11.457
擐甲	-11.4572
土豪	-11.4574
淮浙	-11.4574
下有司	-11.4575
按察使	-11.4577
定䇿	-11.4578
童子	-11.4579
招誘	-11.458
周世宗	-11.4585
朔望	-11.4589
凖此	-11.459
縂	-11.4591
薛向	-11.4592
閉城	-11.4593
輔弼	-11.4594
祖父	-11.4595
憎	-11.4597
恒州	-11.4598
掊	-11.46
褚	-11.4602
着	-11.4602
磐	-11.4602
療	-11.4604
篡	-11.4604
鯀	-11.4605
撒	-11.4606
覊	-11.4606
何㮚	-11.4607
徭役	-11.4607
奄至	-11.461
震動	-11.4612
朗州	-11.4614
哈喇	-11.462
復振	-11.4622
丁夫	-11.4623
病死	-11.4635
犯贓	-11.4637
同出身	-11.4637
舊典	-11.4639
司𨽻	-11.4642
尚書僕射	-11.4643
分𨽻	-11.465
集賢殿修撰	-11.4651
夏國主	-11.4652
漳水	-11.4655
休戚	-11.466
隴州	-11.4661
掛	-11.4661
昌齡	-11.4662
德裕	-11.4663
合祭	-11.4664
鹽鈔	-11.4665
四十年	-11.467
上然之	-11.468
思慮	-11.4681
租庸	-11.4689
工役	-11.4691
除放	-11.4691
知河南府	-11.4696
楨	-11.4697
二百六十	-11.4699
捕獲	-11.4699
百端	-11.4699
奉朝請	-11.47
斟酌	-11.47
伐楚	-11.4704
了當	-11.4704
擕	-11.4705
片	-11.4706
帝大怒	-11.4707
縷	-11.4709
彘	-11.471
嗇	-11.471
頽	-11.4712
平凉	-11.4715
張士遜	-11.4716
犯罪	-11.4719
厚賞	-11.4722
孝友	-11.4723
藝祖	-11.4723
大理卿	-11.4723
孺子	-11.4724
依違	-11.4725
脂	-11.4726
府今因之	-11.4728
名目	-11.473
先零	-11.4731
江隂	-11.4738
提舉常平	-11.474
汀	-11.4742
闈	-11.4746
綱運	-11.4746
特奏名	-11.4747
末年	-11.4749
方面	-11.4749
蕪	-11.4753
大理少卿	-11.4753
搖	-11.4754
降戸	-11.4754
佺	-11.4755
議郎	-11.4756
溪峒	-11.4756
濯	-11.4758
縶	-11.4759
咽	-11.4762
兩川	-11.4762
刈	-11.4765
五星	-11.4765
兼樞宻使	-11.4767
昭穆	-11.4772
權三司使	-11.4776
辭不受	-11.4779
四十六	-11.478
思退	-11.4787
恵卿	-11.4788
漣	-11.4791
建儲	-11.4796
僖公	-11.4799
甘心	-11.48
禹偁	-11.4801
玉清昭應宫	-11.4802
淖	-11.4805
不貲	-11.4805
寳文閣待制	-11.4805
趙甡之遺史	-11.4806
反側	-11.4806
石虎	-11.4806
嶲	-11.4809
秀實	-11.481
僧孺	-11.4811
經略司言	-11.4812
烟	-11.4813
蔡攸	-11.4814
教閱	-11.4815
累世	-11.4825
以名聞	-11.4826
春夏	-11.4831
恤民	-11.4841
磁州	-11.4847
毬	-11.4854
概	-11.4856
爕	-11.4861
悛	-11.4864
按劾	-11.4864
阬	-11.4864
不能救	-11.4867
隍	-11.4867
敺	-11.4868
漳州	-11.4871
監牧	-11.4874
鄯善	-11.4875
嗣君	-11.4875
唐曆	-11.4876
聖祖	-11.4879
袁術	-11.4879
西面	-11.4881
師傅	-11.4882
焉耆	-11.4889
曉諭	-11.489
諡法	-11.4892
節度使同平章事	-11.4903
圃	-11.4907
騁	-11.4908
誇	-11.491
塩	-11.4912
查	-11.4912
駐兵	-11.4912
蒼梧	-11.4913
縯	-11.4913
彤	-11.4913
罵曰	-11.4914
肺	-11.4921
送納	-11.4923
情偽	-11.493
錢米	-11.4938
曰主上	-11.4938
當塗	-11.4941
紛然	-11.4942
三十八	-11.4942
上以為然	-11.4943
西征	-11.4948
禮儀使	-11.4948
宣慰使	-11.495
殺掠	-11.4952
萬九千	-11.4953
歿	-11.496
扺	-11.4961
瘳	-11.4962
腕	-11.4966
解體	-11.4966
賜諡	-11.4966
滇	-11.4968
汀州	-11.4968
驕恣	-11.4968
溪洞	-11.4969
滎	-11.497
朕躬	-11.497
牡	-11.4971
愕然	-11.4971
陀	-11.4971
侍從官	-11.4973
賦詩	-11.4979
挑戰	-11.498
七十二	-11.4982
商英	-11.4983
變易	-11.4985
孜	-11.499
攻破	-11.4993
過惡	-11.5004
芬	-11.5006
悚	-11.5007
玷	-11.501
勤勞	-11.501
蕭氏	-11.5011
杖殺	-11.5012
邯	-11.5012
渾瑊	-11.5014
翳	-11.5014
孟康曰	-11.5015
故有是	-11.5016
增置	-11.5016
愠	-11.5016
儂	-11.5016
駞	-11.5017
苻堅	-11.5019
市易務	-11.5019
臼	-11.502
姑臧	-11.5021
疽	-11.5024
懣	-11.5025
奔競	-11.5027
獄訟	-11.5031
制科	-11.5034
赴援	-11.5037
後悔	-11.5043
李光弼	-11.5044
博學	-11.5046
秣	-11.5047
知青州	-11.5048
兵大敗	-11.505
柬之	-11.5052
紗	-11.506
上諭輔臣	-11.5063
楹	-11.5064
窠	-11.5066
鎖	-11.5066
財力	-11.5068
保安軍	-11.5069
緜	-11.5069
令孜	-11.5072
柰何	-11.5078
聖聽	-11.5079
鞍馬	-11.5079
殿最	-11.5081
結絶	-11.5085
萬幾	-11.5088
之謂也	-11.5093
都指揮	-11.5095
放罪	-11.5097
前驅	-11.51
翻又音	-11.5101
豈不知	-11.5102
闔門	-11.5102
顔師古曰	-11.5106
積粟	-11.5106
黑闥	-11.5107
智勇	-11.5112
繼忠	-11.5112
啻	-11.5113
凟	-11.5114
霈	-11.5115
灤	-11.5116
肩輿	-11.5116
陳俊卿	-11.5117
下遐	-11.5117
戸部侍郎	-11.5117
嵬	-11.5119
黙啜	-11.512
筦	-11.512
媿	-11.5121
來援	-11.5121
濛	-11.5122
惡烏路翻	-11.5122
摠管	-11.5122
吏部郎中	-11.5123
北岸	-11.5124
陶侃	-11.5124
娣	-11.5127
熾磐	-11.5127
太極	-11.5128
殞	-11.513
督師	-11.5132
䝉遜	-11.5134
適足	-11.5141
題名	-11.5141
茶法	-11.5141
竊慮	-11.5144
焞	-11.5146
四十二	-11.5147
天文志	-11.5147
皇帝廟號	-11.515
仲堪	-11.5151
號泣	-11.5152
于太廟	-11.5152
儀仗	-11.5153
四十八	-11.5158
葉赫	-11.5159
李沆	-11.5159
醴泉觀使	-11.5161
襃	-11.5162
垂拱	-11.5167
軼	-11.5169
殘破	-11.5169
筮	-11.517
崔𦙍	-11.5172
赴都堂	-11.5174
少詩照翻	-11.5175
僦	-11.5176
執金吾	-11.5177
張璪	-11.5179
祖母	-11.518
醢	-11.5182
迦	-11.5182
宗尹	-11.5183
回河	-11.5184
龍驤	-11.5187
統紀	-11.5187
翰林院	-11.5188
杜佑	-11.519
紀律	-11.5192
統領官	-11.5193
畏天	-11.5195
冦凖	-11.5196
淵聖	-11.5203
嘉納	-11.5205
珠玉	-11.521
琚	-11.5221
亾	-11.5221
竣	-11.5224
騷動	-11.5225
元豐八年	-11.5227
三千餘人	-11.523
祖考	-11.5232
還長安	-11.5234
沙漠	-11.5234
十斤	-11.5235
累朝	-11.5237
細故	-11.5256
漢蕃	-11.5257
大駭	-11.5257
刀翻	-11.5262
年七十	-11.5263
市易司	-11.5263
哨	-11.5276
倩	-11.5277
鄒浩	-11.5277
出其不意	-11.5279
間古莧翻	-11.5282
曵	-11.5283
言於上曰	-11.5285
秉常	-11.5288
蟬	-11.5292
跳	-11.5293
知杭州	-11.5296
無算	-11.53
肆赦	-11.5301
被災	-11.5304
每遇	-11.5307
指斥	-11.5313
湖北京西	-11.5313
月十八日	-11.5314
阿爾	-11.5323
爛	-11.5328
流内銓	-11.5329
兀	-11.5329
装	-11.533
吕中曰	-11.533
床	-11.5331
研	-11.5332
旂	-11.5333
纛	-11.5335
庭芝	-11.5336
馘	-11.534
唐厯	-11.5344
近裏	-11.5344
趣七	-11.5346
七廟	-11.5347
拜珠	-11.535
危亡	-11.535
張士誠	-11.5351
言伏見	-11.5352
延英	-11.5356
函谷	-11.5359
輸錢	-11.536
三十四	-11.5363
終身不	-11.5363
萬斤	-11.5363
内批	-11.5366
遊擊	-11.5372
有大功	-11.5375
特們徳爾	-11.5378
起居舎人	-11.5379
千九百	-11.5379
太常禮院	-11.5382
承事郎	-11.5382
秘書監	-11.5383
軀	-11.5383
昌㝢	-11.5383
髠	-11.5385
澧州	-11.5385
涵	-11.5386
崇煥	-11.5387
淄青	-11.5389
西京留守	-11.5389
秋毫	-11.539
貨財	-11.539
无咎	-11.5392
娑	-11.5393
教坊	-11.5398
進擬	-11.5403
李顯忠	-11.5405
旬月	-11.5407
各有差	-11.5409
重困	-11.541
寛恤	-11.5414
右諌議大夫	-11.542
付有司	-11.5425
言事官	-11.5428
豨	-11.5435
右班殿直	-11.5437
督戰	-11.5437
套	-11.5439
西頭供奉官	-11.544
杯	-11.544
皇太妃	-11.5441
彚	-11.5442
戒飭	-11.5445
徐温	-11.5445
灑	-11.5446
鳯翔府	-11.5446
賜宴	-11.5447
倉猝	-11.5447
荔	-11.5449
史思明	-11.545
伉	-11.5451
響應	-11.5454
條制	-11.5456
孟知祥	-11.5456
鄭注	-11.5463
祖宗故事	-11.5464
詞頭	-11.5467
毎嵗	-11.5472
提舉江州太平興國宫	-11.5489
濼	-11.5492
天雄軍	-11.5493
兵部郎中	-11.5496
危急	-11.5497
倧	-11.55
諸羌	-11.5501
傳㫖	-11.5501
耄	-11.5502
少詩沼翻	-11.5502
驃騎	-11.5504
奢侈	-11.5506
上下相	-11.5508
家財	-11.5509
朋比	-11.5512
月十一日	-11.5512
離散	-11.5516
疾篤	-11.5523
京東路	-11.5527
成都府路	-11.5528
熺	-11.5534
流血	-11.5535
迎戰	-11.5542
右司員外郎	-11.5543
鍳	-11.5545
秘書丞	-11.5546
掄	-11.5548
爪牙	-11.5548
徐達	-11.5548
璀	-11.5548
掌書記	-11.5549
郅支	-11.5549
詰問	-11.555
隗囂	-11.5551
桷	-11.5551
孫奭	-11.5552
膠東	-11.5553
豁	-11.5553
馬步軍	-11.5554
悌	-11.5554
行下孟翻	-11.5554
陸贄	-11.5554
蹂	-11.5556
延齡	-11.5559
聚斂	-11.556
擿	-11.5561
士衡	-11.5562
舟船	-11.5577
慧景	-11.5578
議者以為	-11.5579
月二十二日	-11.5581
棠	-11.5599
屑	-11.5601
惴	-11.5602
殿前都指揮使	-11.5602
驁	-11.5605
鬰	-11.5605
楊存中	-11.5606
胡宗愈	-11.5606
巵	-11.5606
蜂	-11.5606
頠	-11.561
舁	-11.5612
違戾	-11.5613
拓跋	-11.5613
錢穀	-11.5615
星變	-11.5618
袁宏	-11.5618
神器	-11.5619
籖	-11.562
隔絶	-11.5621
矟	-11.5624
升殿	-11.5626
戰不利	-11.5638
伊都	-11.5649
博囉特穆爾	-11.5652
琥	-11.5653
便宜從事	-11.5658
有星孛于	-11.5659
河源	-11.5661
醴泉	-11.5664
鑠	-11.5666
旌旗	-11.5668
糗	-11.5668
砥	-11.5669
彫	-11.5672
孕	-11.5674
尉遲	-11.5676
吕陶	-11.5677
鳯陽	-11.5681
内帑	-11.5685
特贈	-11.5686
楊億	-11.5694
四十一年	-11.5701
右翼	-11.5705
唐鄧	-11.571
鍔	-11.571
呼沙呼	-11.5713
良弼	-11.5713
上疏請	-11.5714
三省樞密院	-11.5716
三班院	-11.5716
被㫖	-11.5718
中流矢	-11.5719
林邑	-11.5719
韓愈	-11.5719
進士出身	-11.572
王安禮	-11.5721
鉗	-11.5721
典略	-11.5725
而有是命	-11.5725
翹	-11.573
天竺	-11.5731
馬歩	-11.5739
舉措	-11.5747
樂浪	-11.575
飛龍	-11.5756
乞致仕	-11.5764
秘閣	-11.5764
稀	-11.5768
僖宗	-11.5769
講筵	-11.577
䖏	-11.577
米脂	-11.5771
昨來	-11.5772
國子博士	-11.5772
楫	-11.5773
楊國忠	-11.5778
悝	-11.5778
肜	-11.5782
伊遜	-11.5784
柘	-11.5784
跣	-11.5785
腸	-11.5785
知成都府	-11.579
冦準	-11.579
裁減	-11.5792
恟	-11.5792
太醫	-11.5794
廕	-11.5826
傭	-11.5828
悞	-11.583
龐	-11.5831
禳	-11.5832
羯	-11.5838
陁	-11.5842
㝠	-11.5882
犂	-11.5885
朶	-11.5886
迤	-11.5887
麤	-11.5893
箋	-11.5935
㪷	-11.5942
夸	-11.5942
煒	-11.5942
胙	-11.5943
礬	-11.5944
莾	-11.5947
琯	-11.5996
厄	-11.6001
媒	-11.6005
軹	-11.6014
碣	-11.6015
卽	-11.6051
肄	-11.6059
撾	-11.606
診	-11.606
菽	-11.6067
艶	-11.6073
璩	-11.6112
苐	-11.6113
沾	-11.6115
偪	-11.6116
圻	-11.6119
眇	-11.6122
鄄	-11.6123
樗	-11.6123
藺	-11.6124
惻	-11.6159
晴	-11.6167
墀	-11.617
剗	-11.6171
舶	-11.6174
羔	-11.6177
𠂻	-11.6225
嚳	-11.6231
刄	-11.6232
姿	-11.6233
佾	-11.6234
陴	-11.6234
吟	-11.624
兠	-11.6244
踞	-11.6246
艮	-11.6286
霆	-11.6288
𨗳	-11.6291
扣	-11.6291
阡	-11.6293
楞	-11.6293
騏	-11.6296
鈍	-11.6297
涓	-11.63
渴	-11.63
卹	-11.6345
籬	-11.6355
孳	-11.6356
蟻	-11.6364
闞	-11.6367
訃	-11.6408
鍊	-11.641
鋸	-11.6411
岌	-11.6415
瑒	-11.6416
僊	-11.6419
𬒳	-11.6428
淸	-11.6468
侗	-11.6471
冷	-11.6471
矼	-11.6473
堙	-11.6473
駑	-11.6478
甌	-11.6481
詗	-11.6484
鎛	-11.6524
閘	-11.653
峭	-11.6531
俛	-11.6532
鬚	-11.6535
䋲	-11.6536
堞	-11.6536
硤	-11.6541
皖	-11.6541
犧	-11.6595
荼	-11.6596
曳	-11.6597
琇	-11.6598
栖	-11.6599
梃	-11.6599
璆	-11.66
崤	-11.6601
秬	-11.665
帽	-11.6651
卻	-11.6654
么	-11.6657
𦂳	-11.666
鮪	-11.6673
閌	-11.6707
臭	-11.6713
礦	-11.6716
溱	-11.6724
兎	-11.6725
舸	-11.6728
蟠	-11.6774
鉢	-11.6775
魂	-11.6775
开	-11.6776
勗	-11.6781
棲	-11.6781
碧	-11.6782
潢	-11.6784
雛	-11.6791
惋	-11.6792
洹	-11.6795
臠	-11.6798
㗖	-11.6801
佶	-11.6832
筋	-11.6838
鈐	-11.6839
耒	-11.6839
穉	-11.6843
垢	-11.6846
燼	-11.685
票	-11.6852
釀	-11.6853
啇	-11.6899
婿	-11.6903
耜	-11.6903
楶	-11.6903
煑	-11.6906
麋	-11.6911
墊	-11.6918
箇	-11.6959
幵	-11.696
卵	-11.6961
剩	-11.6965
乍	-11.6965
倅	-11.6967
澈	-11.6971
牂	-11.6972
膂	-11.6973
桞	-11.6973
羿	-11.6985
噩	-11.6988
掇	-11.7029
頷	-11.7031
皥	-11.7031
㩁	-11.7033
峙	-11.7037
郿	-11.7038
邙	-11.704
鏡	-11.704
慄	-11.7088
闋	-11.7092
鄞	-11.7095
唾	-11.7096
閨	-11.7098
寰	-11.7099
鴨	-11.71
僥	-11.7103
筏	-11.7103
棧	-11.7109
万	-11.7109
齧	-11.7112
炅	-11.7161
澣	-11.7165
瘡	-11.7168
纓	-11.7173
餼	-11.7173
瑚	-11.7212
皃	-11.7217
派	-11.7228
襟	-11.7228
啖	-11.7232
碭	-11.7236
飼	-11.7237
罄	-11.7282
餅	-11.7284
迓	-11.729
嘿	-11.7292
涖	-11.7294
坂	-11.7294
閽	-11.7295
諠	-11.7301
梢	-11.7343
禫	-11.7352
鐫	-11.7353
㒺	-11.7353
拖	-11.7354
殍	-11.7358
疵	-11.7359
褊	-11.736
酤	-11.7367
映	-11.7423
穹	-11.7427
恙	-11.7428
俚	-11.7431
幢	-11.7441
弹	-11.7483
菲	-11.7488
髓	-11.7489
臆	-11.749
煎	-11.7493
趾	-11.7493
鷙	-11.7498
貊	-11.7502
煮	-11.7546
欝	-11.7553
瑣	-11.7554
鱗	-11.7554
宄	-11.7555
鉛	-11.7557
詎	-11.7558
蓮	-11.7562
鋤	-11.7562
蕘	-11.7563
褥	-11.7564
棚	-11.7565
芟	-11.7568
迺	-11.7614
培	-11.7618
洒	-11.7627
抉	-11.7627
脇	-11.7627
淯	-11.7629
鬲	-11.7631
蹶	-11.7637
摹	-11.7687
蹟	-11.7687
衾	-11.7695
琅	-11.7695
崞	-11.7696
髦	-11.7702
幘	-11.7713
胤	-11.775
滸	-11.7756
啗	-11.7758
媪	-11.776
躐	-11.7761
亹	-11.7762
蓼	-11.7769
踣	-11.7769
滏	-11.7771
箱	-11.7772
內	-11.782
綘	-11.7825
訂	-11.7826
鯉	-11.7826
絛	-11.7827
戕	-11.7829
揔	-11.7829
豚	-11.7831
捜	-11.7831
褐	-11.7832
鑊	-11.7836
訶	-11.784
鈴	-11.7847
攅	-11.7895
瞰	-11.7897
蛟	-11.7899
宙	-11.7901
肱	-11.7902
鏁	-11.7906
徤	-11.7907
嫗	-11.7907
悸	-11.7909
朏	-11.7909
噉	-11.7911
舋	-11.7926
森	-11.7957
𠫭	-11.7963
枷	-11.7966
款	-11.7968
関	-11.7968
繖	-11.7968
厓	-11.7969
䟦	-11.7969
鄫	-11.7974
蠭	-11.7978
瑁	-11.7979
縞	-11.7981
橈	-11.7981
淀	-11.8031
爪	-11.8038
窒	-11.8038
捃	-11.804
棊	-11.804
晙	-11.804
溧	-11.8044
臚	-11.8049
跂	-11.805
脊	-11.8051
攽	-11.8108
甯	-11.8113
􁝠	-11.8115
瘁	-11.8117
脛	-11.8121
湓	-11.8124
鴈	-11.8175
匭	-11.8179
糞	-11.818
郛	-11.818
纉	-11.818
羮	-11.8183
篋	-11.8185
怛	-11.8192
煬	-11.8192
娠	-11.8198
蒋	-11.8251
鎗	-11.8251
韐	-11.8251
伾	-11.8253
竺	-11.8254
嘏	-11.8257
牖	-11.8269
掎	-11.8271
鄕	-11.832
衫	-11.8323
徠	-11.8324
鵠	-11.8327
䧏	-11.8327
渇	-11.8327
債	-11.8328
榛	-11.833
喝	-11.8331
耐	-11.8331
漿	-11.8334
肘	-11.8339
牝	-11.834
肻	-11.8395
淆	-11.8396
攄	-11.8397
透	-11.84
頋	-11.8401
胸	-11.8401
罸	-11.8402
殪	-11.8403
榷	-11.8416
貿	-11.8465
翀	-11.8467
莅	-11.8468
郅	-11.8468
峪	-11.8471
湧	-11.8471
挟	-11.8472
喉	-11.8472
煇	-11.8479
圎	-11.8487
鄣	-11.8489
籥	-11.8538
剄	-11.8541
餙	-11.8545
屨	-11.8547
湍	-11.8548
諺	-11.8551
釡	-11.8555
芥	-11.8616
䞇	-11.8618
昃	-11.8618
柟	-11.8619
捽	-11.8621
娥	-11.8621
莆	-11.8621
与	-11.8622
棫	-11.8622
癘	-11.8625
詘	-11.8628
䙝	-11.863
腦	-11.863
义	-11.8631
黓	-11.8635
炙	-11.8646
䓁	-11.8689
仔	-11.8691
捄	-11.8693
袴	-11.8696
魄	-11.8696
騾	-11.87
纒	-11.8701
匐	-11.8701
璿	-11.8702
鴟	-11.8702
澳	-11.8703
袂	-11.8708
賾	-11.8711
秃	-11.8712
謾	-11.8771
俵	-11.8774
辠	-11.8775
琢	-11.8776
虓	-11.8777
兔	-11.8781
脯	-11.8787
悒	-11.8788
曮	-11.8841
層	-11.8847
党	-11.8847
驃	-11.8847
呌	-11.8848
冥	-11.885
杷	-11.885
倓	-11.8853
洸	-11.8918
噲	-11.892
嫚	-11.8924
彩	-11.8925
仿	-11.8926
娘	-11.8929
莖	-11.8933
嶧	-11.8935
鍜	-11.8935
棹	-11.8936
涂	-11.8937
媵	-11.8938
橐	-11.8939
沓	-11.8941
蹋	-11.8949
莱	-11.8996
斐	-11.8998
淡	-11.9003
昴	-11.9004
屛	-11.9007
掣	-11.908
瞑	-11.9082
鉷	-11.9084
袋	-11.9084
翕	-11.9141
㐫	-11.915
默	-11.9151
鶉	-11.9158
軟	-11.916
兕	-11.9164
庖	-11.9164
磯	-11.9165
賖	-11.9167
錐	-11.9168
斟	-11.9168
暱	-11.9168
迸	-11.9171
慨	-11.9232
胎	-11.9238
喋	-11.9241
畎	-11.9242
紱	-11.9244
璫	-11.9249
撞	-11.9249
挹	-11.9254
抹	-11.9314
拭	-11.9315
曖	-11.9318
衿	-11.9319
懟	-11.932
兗	-11.9321
珉	-11.9324
懃	-11.9325
餐	-11.9325
弢	-11.9326
槃	-11.9329
轘	-11.9332
諲	-11.9344
現	-11.9393
巍	-11.94
駰	-11.9402
靴	-11.9403
璡	-11.941
祺	-11.9479
堕	-11.9479
翥	-11.9483
僃	-11.9484
煉	-11.9485
撙	-11.9487
睨	-11.9487
剡	-11.9487
鉏	-11.949
鼂	-11.9491
羆	-11.9555
㡌	-11.9558
逝	-11.956
両	-11.9561
毘	-11.9564
欄	-11.9565
猖	-11.9565
迅	-11.9565
倔	-11.9566
雌	-11.9571
緱	-11.9576
沌	-11.9593
𢷬	-11.9645
鬯	-11.9648
晷	-11.965
瓠	-11.9653
祼	-11.9655
漬	-11.9663
葱	-11.9724
壑	-11.9725
勺	-11.9729
壼	-11.9732
觖	-11.9733
旒	-11.9733
夬	-11.9734
擘	-11.9734
嗷	-11.9736
劓	-11.9737
液	-11.9738
賃	-11.9739
髀	-11.9744
縫	-11.9803
槽	-11.9807
宐	-11.9813
闘	-11.9813
悵	-11.9817
蹔	-11.9818
濓	-11.982
孑	-11.9821
吻	-11.985
杵	-11.9891
籩	-11.9899
眚	-11.9901
爼	-11.9906
癡	-11.9914
藪	-11.9976
堠	-11.9978
楙	-11.9982
囑	-11.9986
盂	-11.9987
陿	-11.9988
暄	-11.999
禺	-11.999
傉	-12.0004
㸑	-12.0005
闚	-12.0006
〇	-12.0031
郕	-12.0065
捲	-12.0068
搬	-12.007
鈇	-12.0071
媛	-12.0073
皁	-12.0074
兑	-12.0076
甕	-12.0076
禰	-12.0077
沱	-12.0077
伷	-12.0078
驂	-12.0085
呪	-12.0086
剔	-12.0088
嚞	-12.0151
壩	-12.0151
燬	-12.0151
攢	-12.0152
淝	-12.0152
璣	-12.0157
囿	-12.0159
詮	-12.0164
貰	-12.0167
菩	-12.0169
璮	-12.0175
睹	-12.024
遯	-12.0241
砂	-12.0244
暾	-12.0246
詿	-12.0246
嫂	-12.0248
怱	-12.0249
郇	-12.0249
餒	-12.025
鏃	-12.0252
珩	-12.0255
絙	-12.0257
櫬	-12.0257
邽	-12.0302
餗	-12.0327
荐	-12.0327
浞	-12.0327
娛	-12.0328
愀	-12.0329
黽	-12.0329
皋	-12.0331
券	-12.0331
暖	-12.0331
詖	-12.0332
隧	-12.0336
禩	-12.0336
葆	-12.0339
寀	-12.0339
胃	-12.0346
澠	-12.0348
颺	-12.0351
峡	-12.0423
樽	-12.0425
鵝	-12.0427
玭	-12.0503
蒿	-12.0512
爌	-12.0513
彀	-12.0514
㤀	-12.0514
窖	-12.0514
線	-12.0516
愜	-12.0517
澂	-12.0517
爇	-12.052
𥙷	-12.056
紬	-12.0597
𤨏	-12.0598
麒	-12.0599
絜	-12.06
爻	-12.06
彖	-12.0601
粒	-12.0602
址	-12.0602
矍	-12.0604
緍	-12.0607
搢	-12.0607
纍	-12.0608
嘔	-12.0609
碌	-12.0611
悶	-12.0618
淨	-12.0687
涌	-12.0687
㬇	-12.0689
暘	-12.069
份	-12.0695
做	-12.0695
黻	-12.0696
霞	-12.0697
拷	-12.0697
剝	-12.07
罽	-12.0701
釘	-12.071
廏	-12.0718
縗	-12.0721
剋	-12.0784
噪	-12.0784
嶼	-12.0788
闌	-12.0788
讟	-12.079
酢	-12.0792
椽	-12.0796
閶	-12.0798
耤	-12.0874
撝	-12.0875
姧	-12.0879
薰	-12.0881
豢	-12.0882
謔	-12.0883
虺	-12.0884
扁	-12.089
菁	-12.0893
刳	-12.0894
噍	-12.0897
鑲	-12.0967
賡	-12.0968
撼	-12.0969
唇	-12.097
邛	-12.0975
悴	-12.0976
靑	-12.0976
枹	-12.0979
鹹	-12.0981
攺	-12.0982
菟	-12.0983
匕	-12.0995
㮚	-12.1059
諄	-12.1062
俎	-12.1074
婪	-12.1076
甬	-12.108
踧	-12.1089
嬉	-12.1163
瑑	-12.1169
絮	-12.1172
壝	-12.1172
贅	-12.1174
魅	-12.1174
閥	-12.1176
廙	-12.1179
慣	-12.1184
穡	-12.1259
鏞	-12.126
浄	-12.1262
囯	-12.1264
頲	-12.1266
匝	-12.1267
謩	-12.1269
埭	-12.127
焰	-12.1349
鯨	-12.1356
脆	-12.1361
蓍	-12.1361
穽	-12.1362
埸	-12.1363
啼	-12.1364
櫛	-12.137
箸	-12.1377
櫟	-12.1423
畵	-12.1452
彝	-12.1458
圏	-12.1459
韙	-12.1459
孩	-12.146
杰	-12.1461
爐	-12.1462
轢	-12.1462
孱	-12.1463
愴	-12.1465
紕	-12.147
扉	-12.1471
忷	-12.1482
䍧	-12.1513
聯	-12.1553
烜	-12.1554
唘	-12.1562
緄	-12.1563
鬷	-12.1565
瘦	-12.1566
璝	-12.1566
緇	-12.1567
掦	-12.1568
栰	-12.1568
耦	-12.1569
獪	-12.1575
輜	-12.1579
翺	-12.165
忞	-12.1655
鰥	-12.1657
蜚	-12.1659
湣	-12.166
雎	-12.166
聦	-12.1664
鞾	-12.1664
纘	-12.1665
謳	-12.1665
譌	-12.1668
騖	-12.1669
拍	-12.1673
桴	-12.1676
俁	-12.1756
悆	-12.1757
箔	-12.1759
凛	-12.176
廞	-12.176
蘧	-12.1761
謄	-12.1761
湫	-12.1762
禖	-12.1762
濞	-12.1763
窄	-12.1766
斵	-12.1768
畸	-12.1771
墅	-12.1772
袐	-12.1861
澱	-12.1863
窩	-12.1864
斾	-12.1865
惹	-12.1865
昞	-12.1866
鬪	-12.1867
蒨	-12.1867
猊	-12.1868
縠	-12.1869
珥	-12.187
嗤	-12.1871
榭	-12.1872
棒	-12.1872
梵	-12.1875
湎	-12.1876
煌	-12.1877
佻	-12.188
翌	-12.1952
吠	-12.1972
艷	-12.1973
閠	-12.1975
兌	-12.1976
茨	-12.1977
瀍	-12.1978
螽	-12.1988
覡	-12.1988
仞	-12.1989
䍐	-12.2064
𠞰	-12.2078
艫	-12.208
饉	-12.2084
阼	-12.2084
魴	-12.2086
狁	-12.2092
頫	-12.2171
掞	-12.2173
灝	-12.2175
牐	-12.2177
瑤	-12.2177
匣	-12.2178
揜	-12.2178
墉	-12.218
俳	-12.2186
貉	-12.2188
圯	-12.219
珝	-12.2191
𨼆	-12.2287
杆	-12.2288
郜	-12.2289
諦	-12.2289
峰	-12.229
翬	-12.2291
煨	-12.2293
哺	-12.2297
溷	-12.2301
昫	-12.2304
㸔	-12.2384
塋	-12.2393
泮	-12.2395
聫	-12.2396
埀	-12.2399
讃	-12.24
噫	-12.24
蟒	-12.2402
炊	-12.2404
崗	-12.2408
衎	-12.2408
虔	-12.242
匏	-12.2495
燄	-12.2503
㝢	-12.2504
睡	-12.2505
澥	-12.2506
䂓	-12.2507
氶	-12.2508
垜	-12.251
盥	-12.2511
氂	-12.2514
螟	-12.2515
湔	-12.2525
窴	-12.2534
雹	-12.2597
產	-12.2605
縀	-12.2607
滙	-12.2613
鏖	-12.2614
磋	-12.2614
笙	-12.2614
怵	-12.2615
嗾	-12.2615
綎	-12.2617
締	-12.2618
撮	-12.2619
淘	-12.2619
舳	-12.262
顏	-12.262
晸	-12.2624
鼈	-12.2624
濩	-12.2627
傔	-12.2627
㳙	-12.2629
荻	-12.2635
挂	-12.2637
罘	-12.2651
㒟	-12.2726
𢃄	-12.2726
爚	-12.273
禠	-12.273
瓶	-12.2731
絪	-12.2731
儕	-12.2732
抛	-12.2732
誹	-12.2734
獷	-12.2735
壠	-12.2738
襖	-12.2742
塡	-12.2744
鳬	-12.2749
棁	-12.2835
筞	-12.2841
憶	-12.2842
亰	-12.2842
蒍	-12.2844
喟	-12.2848
𤯝	-12.2848
珊	-12.2848
皿	-12.285
泫	-12.2854
刧	-12.2855
憊	-12.2858
滻	-12.2858
刖	-12.2862
虡	-12.2865
糊	-12.2956
卲	-12.2957
䭾	-12.2959
褫	-12.2961
鍼	-12.2963
麄	-12.2964
掉	-12.2965
饕	-12.2966
喫	-12.2966
戇	-12.2967
迕	-12.2969
睂	-12.297
鷂	-12.2971
慊	-12.2975
觚	-12.2977
柰	-12.3033
燦	-12.3061
屡	-12.3067
湼	-12.3067
蹻	-12.3071
岩	-12.3072
氓	-12.3077
佖	-12.3077
煖	-12.3078
軋	-12.3079
飄	-12.308
豺	-12.308
贑	-12.3081
坻	-12.3083
哂	-12.3085
瑭	-12.3085
憙	-12.3086
纊	-12.3086
帆	-12.3087
輳	-12.3088
倞	-12.3089
莧	-12.3097
柞	-12.3103
茫	-12.3184
鼇	-12.3189
慥	-12.3189
邲	-12.3191
暕	-12.3191
珵	-12.3191
瀝	-12.3192
薿	-12.3196
靼	-12.3196
泯	-12.3196
簇	-12.3196
踴	-12.3196
讚	-12.3197
霾	-12.3197
沭	-12.3198
醖	-12.32
汛	-12.3201
臍	-12.3202
霫	-12.3202
倜	-12.3206
蘂	-12.3246
慾	-12.3305
菴	-12.3306
帙	-12.3311
䨇	-12.3311
夣	-12.3312
伃	-12.3313
厦	-12.3313
梨	-12.3313
訝	-12.3315
郫	-12.3317
鄘	-12.3318
朘	-12.3319
銍	-12.332
穗	-12.332
耨	-12.332
芍	-12.3322
簮	-12.3323
洄	-12.3323
遶	-12.3324
鄼	-12.3325
蹉	-12.3333
舫	-12.3335
嵇	-12.3337
桱	-12.3428
塑	-12.3431
櫜	-12.3433
冤	-12.3433
蹊	-12.3434
酹	-12.3436
猪	-12.3437
甑	-12.3438
塊	-12.3438
蓐	-12.344
轝	-12.3446
咥	-12.3448
旼	-12.3545
櫃	-12.3551
弅	-12.3552
冄	-12.3552
淦	-12.3553
蒞	-12.3554
紈	-12.3555
聃	-12.3555
釜	-12.3556
苹	-12.3556
毖	-12.3559
溵	-12.3559
濃	-12.356
邐	-12.356
妥	-12.3561
欷	-12.3561
簋	-12.3563
槁	-12.3564
鄗	-12.3565
礫	-12.3569
緦	-12.357
眠	-12.3572
濊	-12.3573
腫	-12.3574
癰	-12.3581
轓	-12.3674
吸	-12.3676
筒	-12.3677
鍇	-12.3679
刅	-12.368
戱	-12.368
擗	-12.3685
帟	-12.3687
茸	-12.3688
琕	-12.3688
蹴	-12.3688
恇	-12.3688
爨	-12.3691
陬	-12.3693
巂	-12.3693
頎	-12.3698
駙	-12.379
秤	-12.3797
恠	-12.3798
綠	-12.3806
夹	-12.3806
蜜	-12.3809
狸	-12.381
撿	-12.381
鉦	-12.3817
鴦	-12.3821
劬	-12.3822
聮	-12.3823
磾	-12.3927
叵	-12.3928
茗	-12.393
茵	-12.3933
笄	-12.3934
濘	-12.3934
幻	-12.3934
憬	-12.3937
㐲	-12.3937
挿	-12.394
䏻	-12.3942
莵	-12.3943
継	-12.3944
盲	-12.3947
鍪	-12.3949
誄	-12.3955
豔	-12.3959
焕	-12.4048
珫	-12.405
諝	-12.4054
悮	-12.4057
搗	-12.4059
趂	-12.4059
湮	-12.4059
昩	-12.4061
燃	-12.4062
頺	-12.4063
㟁	-12.4063
馨	-12.4064
翅	-12.4065
鶚	-12.4069
澍	-12.4074
糟	-12.4074
慴	-12.4081
埃	-12.4181
妺	-12.4184
腑	-12.4186
㬰	-12.4188
儇	-12.419
飜	-12.4192
竪	-12.4195
圈	-12.4196
臏	-12.4198
狙	-12.4213
堨	-12.4216
賕	-12.4306
犨	-12.4317
惨	-12.4319
裸	-12.432
暈	-12.4321
舩	-12.4322
萱	-12.4322
熏	-12.4322
紡	-12.4324
凑	-12.4324
鍠	-12.4325
瑯	-12.4326
仄	-12.4326
讋	-12.4326
蕞	-12.4327
狷	-12.4329
糠	-12.4332
髻	-12.4333
恰	-12.4448
肌	-12.4448
穏	-12.4448
圩	-12.4452
騤	-12.4453
娯	-12.4453
纁	-12.4453
帕	-12.4454
熒	-12.4455
闓	-12.4456
呐	-12.4458
睥	-12.4459
悽	-12.446
疹	-12.446
梲	-12.4461
騭	-12.4461
燝	-12.4462
磑	-12.4464
豊	-12.4465
偫	-12.4466
髯	-12.4466
澮	-12.4466
幔	-12.4474
桁	-12.4476
檛	-12.4476
嘛	-12.4568
闐	-12.4578
碉	-12.458
鎡	-12.4581
蒜	-12.4581
窋	-12.4586
圮	-12.4587
柸	-12.4588
翫	-12.459
薫	-12.4592
蒔	-12.4594
琊	-12.4594
炫	-12.46
酆	-12.4601
浣	-12.4603
﨑	-12.4608
衒	-12.4718
瘵	-12.4724
暵	-12.4725
弧	-12.4726
璵	-12.4727
佟	-12.4727
煽	-12.4728
你	-12.4729
汁	-12.473
覔	-12.4733
齕	-12.4733
鴉	-12.4736
搒	-12.4737
蒱	-12.4738
襁	-12.4745
咈	-12.4859
渤	-12.4862
旴	-12.4862
紞	-12.4865
吭	-12.4866
俌	-12.4867
卸	-12.4868
杓	-12.4868
闒	-12.4868
脣	-12.4869
怏	-12.487
騑	-12.4871
盱	-12.4872
墩	-12.4873
洊	-12.4999
㺯	-12.4999
綢	-12.5
熖	-12.5003
痺	-12.5005
淅	-12.5006
灞	-12.5007
悃	-12.5009
􁇛	-12.5009
栩	-12.5009
魔	-12.5009
匯	-12.5012
囤	-12.5013
猫	-12.5013
坼	-12.5014
彎	-12.5145
雁	-12.5146
簫	-12.5147
嘯	-12.5147
証	-12.5149
駸	-12.5149
衽	-12.515
㨂	-12.5151
疚	-12.5152
穜	-12.5152
藎	-12.5155
覦	-12.5155
棻	-12.5156
泠	-12.5157
缶	-12.5158
塈	-12.5159
厝	-12.5163
湝	-12.5163
棨	-12.5164
縈	-12.5173
圄	-12.5287
峘	-12.5288
硯	-12.529
栽	-12.5292
倢	-12.5292
駉	-12.5296
黶	-12.5296
舄	-12.5298
澁	-12.5298
腥	-12.5301
燥	-12.5301
豬	-12.5301
䄂	-12.5303
闍	-12.5307
岊	-12.5308
笮	-12.5312
櫓	-12.5324
囹	-12.5436
㽞	-12.5436
絁	-12.5437
䧺	-12.5437
癃	-12.5439
倐	-12.5441
讖	-12.5442
椀	-12.5443
鍚	-12.5444
堦	-12.5444
歃	-12.5444
繭	-12.5445
塜	-12.5446
𤾉	-12.5446
秭	-12.5451
羕	-12.5454
姐	-12.5454
罃	-12.5456
鈆	-12.5458
謇	-12.5458
劑	-12.5582
賨	-12.5583
蠢	-12.5586
祸	-12.5587
笠	-12.5588
蹄	-12.5588
逍	-12.5589
榦	-12.559
粱	-12.5592
瀦	-12.5592
堇	-12.5593
燿	-12.5593
埤	-12.5595
嘲	-12.5596
甓	-12.5599
蟄	-12.5601
螫	-12.5603
弈	-12.5607
宂	-12.5607
瀧	-12.5732
藜	-12.5733
怫	-12.5734
瑴	-12.5736
盃	-12.574
噤	-12.574
絺	-12.5744
㕓	-12.5746
宓	-12.5747
贜	-12.5747
嶢	-12.5749
琉	-12.5752
騃	-12.5752
柤	-12.5755
拽	-12.5757
摽	-12.5758
溆	-12.5759
𥚹	-12.5762
紺	-12.5764
峨	-12.5766
垓	-12.5884
這	-12.5885
㴶	-12.5888
瀏	-12.5892
譔	-12.5892
頔	-12.5893
幃	-12.5894
氛	-12.5896
趯	-12.5899
蔭	-12.5902
酎	-12.5903
璃	-12.5907
搔	-12.5908
紵	-12.5908
罟	-12.591
繚	-12.591
羇	-12.5911
糒	-12.592
翾	-12.5936
嬈	-12.594
糲	-12.6046
姨	-12.6047
𦕈	-12.6047
咺	-12.6047
擎	-12.6049
袵	-12.605
茭	-12.6052
鞞	-12.6052
葫	-12.6053
裾	-12.6054
犁	-12.6055
鍛	-12.6056
禿	-12.6056
椁	-12.6056
瘼	-12.6057
嗚	-12.6057
寋	-12.606
褰	-12.606
僨	-12.6061
飱	-12.6064
玼	-12.6064
飤	-12.6099
很	-12.611
瀋	-12.618
陥	-12.6203
酗	-12.6203
熄	-12.6206
攤	-12.6207
偲	-12.6208
玖	-12.6208
芽	-12.6208
葑	-12.6209
隼	-12.6211
忒	-12.6213
趋	-12.6213
莎	-12.6214
嶮	-12.6214
宷	-12.6216
軺	-12.6216
笥	-12.6221
祓	-12.6222
縢	-12.6222
鵡	-12.6227
踖	-12.6228
搤	-12.6229
姥	-12.623
虖	-12.6365
汨	-12.6366
嫄	-12.6367
觷	-12.6368
郄	-12.6368
躪	-12.637
凊	-12.6373
慆	-12.6373
冺	-12.6374
獬	-12.6374
蚩	-12.6378
蘖	-12.6379
殮	-12.638
蚝	-12.6382
甃	-12.6382
謖	-12.6383
槀	-12.6383
璲	-12.6385
潬	-12.639
柝	-12.639
忙	-12.6395
璯	-12.6521
􁔡	-12.653
蝻	-12.6533
惮	-12.6533
顆	-12.6536
巔	-12.6536
濙	-12.6537
藹	-12.6537
戣	-12.6537
沇	-12.6538
錬	-12.6538
茌	-12.6542
㩀	-12.6543
莬	-12.6544
匍	-12.6546
艸	-12.6549
鸚	-12.6554
黤	-12.6604
傒	-12.668
戛	-12.6693
舡	-12.6697
𣲖	-12.6699
咱	-12.6701
媮	-12.6702
麵	-12.6702
諉	-12.6702
畯	-12.6705
傚	-12.6705
灃	-12.6705
屹	-12.6706
畦	-12.6706
僂	-12.6707
莢	-12.6707
壟	-12.6708
窬	-12.6708
彠	-12.6709
脽	-12.6709
螺	-12.671
㰱	-12.671
妲	-12.671
遒	-12.6711
斆	-12.6716
憺	-12.6719
净	-12.6861
甦	-12.6862
稿	-12.6864
簴	-12.6865
臾	-12.6866
韡	-12.6867
侫	-12.6868
邰	-12.687
斿	-12.6873
歔	-12.6874
顚	-12.6874
讁	-12.6874
瘖	-12.6875
苫	-12.6876
蝟	-12.6877
縡	-12.6877
餱	-12.6878
槨	-12.6879
謠	-12.6879
鸇	-12.688
箐	-12.688
晊	-12.6882
戞	-12.6883
刹	-12.6895
换	-12.7016
昷	-12.704
瘐	-12.704
軄	-12.7041
暌	-12.7042
箝	-12.7042
搭	-12.7043
㫤	-12.7043
鮒	-12.7045
顕	-12.7045
黏	-12.7046
逭	-12.7046
翽	-12.7047
彍	-12.7049
礿	-12.7049
賭	-12.7049
鵞	-12.705
蠅	-12.7051
憒	-12.7051
閿	-12.7052
牣	-12.7053
僇	-12.7053
遡	-12.7054
惔	-12.7056
溍	-12.7057
玢	-12.7057
碁	-12.7058
跖	-12.706
翩	-12.7204
燁	-12.7213
䜿	-12.7214
彷	-12.7215
罍	-12.7216
翎	-12.7216
暁	-12.7217
犴	-12.7217
勳	-12.7217
站	-12.7218
齮	-12.7218
觜	-12.722
賠	-12.722
慱	-12.7221
藐	-12.7222
聵	-12.7225
瞳	-12.7225
坪	-12.7225
鄶	-12.7226
鍤	-12.7226
霤	-12.7227
嶓	-12.723
喙	-12.723
郪	-12.7234
玁	-12.7235
櫂	-12.7235
簠	-12.7237
鋋	-12.7239
驄	-12.7387
醋	-12.7391
夤	-12.7394
芙	-12.7395
閧	-12.7395
喘	-12.7395
昰	-12.7396
賙	-12.7397
术	-12.7398
睽	-12.7399
瑫	-12.74
槱	-12.7401
枳	-12.7402
佇	-12.7403
韵	-12.7405
珦	-12.7407
鷺	-12.7408
魋	-12.7412
酪	-12.7416
鯤	-12.7418
鏘	-12.7418
涅	-12.7422
𣢾	-12.7429
攫	-12.7441
喆	-12.7567
儈	-12.7569
埓	-12.7574
慬	-12.7575
昀	-12.7575
詒	-12.7577
㞦	-12.7577
嗢	-12.7578
眙	-12.7578
繢	-12.758
鄲	-12.7584
褁	-12.7585
媾	-12.7586
怦	-12.7587
机	-12.7587
恍	-12.7587
曌	-12.7588
醒	-12.7588
簪	-12.7589
鐶	-12.759
昝	-12.7591
僰	-12.7592
嶸	-12.7592
炮	-12.7593
橘	-12.7596
扄	-12.7597
扑	-12.7598
嵊	-12.7598
尫	-12.7604
漑	-12.7636
俅	-12.7747
擐	-12.7759
洶	-12.7761
逯	-12.7762
詁	-12.7765
齪	-12.7767
顙	-12.7769
㢮	-12.777
椅	-12.777
脞	-12.7771
沬	-12.7772
綖	-12.7772
硬	-12.7772
栒	-12.7773
晻	-12.7775
歧	-12.7776
鋌	-12.7776
洱	-12.7779
夐	-12.7779
灅	-12.7781
罳	-12.7808
糺	-12.7944
聾	-12.7945
馹	-12.7945
瑠	-12.7948
賒	-12.7949
鵶	-12.795
脈	-12.7952
慼	-12.7952
莞	-12.7952
蜑	-12.7953
遄	-12.7953
閙	-12.7953
竅	-12.7954
爱	-12.7954
献	-12.7954
灄	-12.7954
螭	-12.7955
詼	-12.7956
岵	-12.7956
躊	-12.7956
隃	-12.7957
眊	-12.7958
豸	-12.7962
筐	-12.7963
惚	-12.7963
汊	-12.7963
檐	-12.7966
絫	-12.7969
吮	-12.7978
琸	-12.8133
躒	-12.8133
㦲	-12.8137
叠	-12.8138
戅	-12.814
賵	-12.8141
寥	-12.8141
㚟	-12.8143
僱	-12.8143
肸	-12.8145
蝮	-12.8146
洳	-12.8146
唁	-12.8147
狭	-12.8148
拏	-12.8149
讌	-12.815
涔	-12.8151
憮	-12.8151
町	-12.8154
雝	-12.8154
觔	-12.8155
棃	-12.8156
瀹	-12.8159
蕤	-12.8175
𥙿	-12.8179
鐃	-12.8183
瓛	-12.833
痕	-12.8332
牾	-12.8334
郈	-12.8334
燠	-12.8337
岔	-12.8338
愐	-12.834
徨	-12.8341
萼	-12.8341
单	-12.8342
躇	-12.8344
佽	-12.8344
輼	-12.8345
緞	-12.8345
揉	-12.8345
阽	-12.8346
釵	-12.8346
祲	-12.8347
儷	-12.8347
嚚	-12.8349
祟	-12.8349
諴	-12.835
嶇	-12.8351
痊	-12.8352
媟	-12.8352
銛	-12.8352
紲	-12.8354
勱	-12.8356
錙	-12.8357
裼	-12.8364
肴	-12.837
崑	-12.8503
轎	-12.8529
縵	-12.8529
凜	-12.8533
笛	-12.8534
盞	-12.8537
晳	-12.8538
瞎	-12.8538
塾	-12.8542
秪	-12.8543
跛	-12.8544
磻	-12.8545
杌	-12.8546
缾	-12.8546
襦	-12.8547
暝	-12.8547
喑	-12.8547
畚	-12.8547
醪	-12.8548
躓	-12.8549
彜	-12.8549
碾	-12.8549
壙	-12.855
刲	-12.8551
㐌	-12.8555
氍	-12.8559
沘	-12.856
佼	-12.8563
溳	-12.8576
椹	-12.8578
蓉	-12.8737
肢	-12.8739
贐	-12.8741
忮	-12.8742
籲	-12.8743
莩	-12.8744
埜	-12.8746
賍	-12.8747
逅	-12.8748
乱	-12.8749
娱	-12.8749
喁	-12.8749
庳	-12.875
邂	-12.8751
鄊	-12.8754
鏑	-12.8758
螻	-12.8761
褶	-12.8761
袪	-12.8761
麈	-12.8761
褘	-12.8762
猴	-12.8765
簟	-12.8767
跬	-12.8776
醬	-12.8779
薳	-12.8938
些	-12.894
僴	-12.894
鰲	-12.8948
巉	-12.895
盻	-12.895
虵	-12.8951
攔	-12.8953
夥	-12.8953
􁚠	-12.8954
㓗	-12.8954
龠	-12.8955
眺	-12.8955
􁁊	-12.8955
蠆	-12.8955
蕡	-12.8956
貍	-12.8957
淶	-12.8957
鞗	-12.896
釃	-12.896
刮	-12.8961
黟	-12.8961
隤	-12.8962
譓	-12.8963
樅	-12.8964
裙	-12.8966
鼙	-12.8968
眄	-12.8974
荏	-12.8979
訿	-12.899
􁝜	-12.9156
欹	-12.9156
觱	-12.9159
煴	-12.916
芘	-12.9161
緹	-12.9163
摺	-12.9164
烙	-12.9165
㢤	-12.9165
綮	-12.9166
鈿	-12.9169
趫	-12.9169
筑	-12.9169
嵯	-12.917
搶	-12.917
昜	-12.9171
迢	-12.9171
壖	-12.9172
筯	-12.9172
瀼	-12.9174
鍵	-12.9176
剃	-12.9177
襆	-12.9177
鳶	-12.9178
褻	-12.9178
蝦	-12.918
翃	-12.9183
囷	-12.9183
獫	-12.9183
骼	-12.9183
䦨	-12.9185
怍	-12.9187
傖	-12.9187
酸	-12.9192
柬	-12.9229
泇	-12.9361
嵲	-12.9374
漙	-12.9375
闖	-12.9376
徯	-12.9376
婣	-12.9377
㬎	-12.9377
鹻	-12.9378
瞶	-12.9378
瞍	-12.938
魑	-12.9383
蘚	-12.9385
漯	-12.9385
届	-12.9387
鉄	-12.9388
屣	-12.939
颯	-12.939
筈	-12.9391
畮	-12.9391
瑨	-12.9392
抶	-12.9394
剉	-12.9394
墌	-12.9395
饔	-12.9395
祅	-12.9395
暍	-12.9397
毳	-12.94
眭	-12.9403
拄	-12.9404
蛤	-12.9406
箎	-12.9408
忸	-12.9413
朓	-12.9414
柷	-12.9594
侠	-12.9598
珤	-12.9601
靄	-12.9602
鞋	-12.9605
繯	-12.9605
寬	-12.9606
艤	-12.9607
亓	-12.9607
痼	-12.9607
獅	-12.9607
綈	-12.961
澇	-12.9611
櫝	-12.9611
肋	-12.9611
葷	-12.9612
麫	-12.9612
漒	-12.9613
斁	-12.9613
莪	-12.9614
閡	-12.9615
峋	-12.9615
盭	-12.9616
捫	-12.9617
坌	-12.9617
墠	-12.9618
媧	-12.9618
􁞗	-12.9619
閺	-12.962
惬	-12.9621
鑣	-12.9626
鞚	-12.9627
儵	-12.9627
潾	-12.9813
筴	-12.9826
怎	-12.9828
帔	-12.9828
漷	-12.9829
犫	-12.9829
兜	-12.9832
瞋	-12.9833
懵	-12.9833
躔	-12.9834
牁	-12.9834
閟	-12.9835
猱	-12.9835
蓺	-12.9839
憕	-12.984
浿	-12.984
蒺	-12.9841
綫	-12.9841
攴	-12.9841
朦	-12.9842
旉	-12.9842
駘	-12.9843
灊	-12.9844
饟	-12.9852
羖	-12.9854
埧	-13.0055
籓	-13.006
韃	-13.0062
欎	-13.0066
塚	-13.0067
冑	-13.0067
芸	-13.0067
慓	-13.0067
點	-13.0068
䆒	-13.0068
㽔	-13.0068
尖	-13.0068
獺	-13.0068
曝	-13.0069
敲	-13.007
氈	-13.0073
栝	-13.0074
鄔	-13.0074
嬙	-13.0074
鄀	-13.0076
鋐	-13.0077
酇	-13.0077
滴	-13.0078
鬛	-13.0079
鑕	-13.008
愞	-13.0087
盩	-13.0091
蟹	-13.0097
韍	-13.01
豉	-13.0143
另	-13.0288
岫	-13.0296
㝏	-13.0297
剴	-13.0297
菱	-13.0299
暅	-13.0302
崛	-13.0303
胊	-13.0303
愒	-13.0304
嵒	-13.0305
逌	-13.0305
搴	-13.0308
蓚	-13.0309
斑	-13.0311
㛰	-13.0311
磽	-13.0312
脾	-13.0314
橤	-13.0314
繻	-13.0315
秸	-13.0315
沍	-13.0317
罌	-13.0319
菰	-13.0333
黁	-13.0334
褎	-13.0533
婼	-13.0535
孃	-13.0535
穩	-13.0536
偰	-13.0538
攖	-13.0541
鬴	-13.0542
碓	-13.0544
騂	-13.0544
鏄	-13.0545
堊	-13.0545
鬢	-13.0545
擦	-13.0546
寑	-13.0548
祊	-13.0548
肓	-13.0549
悁	-13.0551
鷰	-13.0551
壍	-13.0554
塌	-13.0554
个	-13.0557
鏊	-13.0557
躭	-13.0557
鴞	-13.0562
冮	-13.0563
針	-13.0563
貙	-13.0563
犖	-13.0564
梳	-13.0565
杻	-13.0567
胔	-13.057
姝	-13.0573
閈	-13.0573
攣	-13.0573
漚	-13.059
咒	-13.0791
獞	-13.0791
㝡	-13.0791
瀾	-13.0791
菊	-13.0793
貔	-13.0794
緼	-13.0795
磚	-13.0795
崘	-13.0795
漼	-13.0798
竽	-13.08
窶	-13.0801
熬	-13.0804
咩	-13.0806
尢	-13.0806
仵	-13.0807
廱	-13.0808
蔕	-13.0808
窑	-13.0808
憔	-13.0809
哽	-13.0809
蜡	-13.0811
簧	-13.0815
蘿	-13.0816
諏	-13.0818
桔	-13.0818
嚭	-13.1038
穪	-13.1039
鄤	-13.1049
藿	-13.1049
憝	-13.1049
媳	-13.105
愭	-13.1052
渰	-13.1053
跽	-13.1053
憩	-13.1053
腆	-13.1055
擡	-13.1055
蟾	-13.1055
崍	-13.1056
鎚	-13.1056
仭	-13.1057
攪	-13.1058
粘	-13.106
戻	-13.106
恫	-13.106
栲	-13.1061
斮	-13.1061
劃	-13.1061
玳	-13.1061
䃭	-13.1062
觝	-13.1063
匀	-13.1064
頁	-13.1065
柢	-13.1065
姫	-13.1066
抒	-13.1066
窳	-13.1067
㬋	-13.1069
𣏌	-13.107
棓	-13.1074
埿	-13.1075
鐔	-13.1077
橦	-13.1082
嬀	-13.1108
䜴	-13.1279
鄱	-13.1301
悈	-13.1306
凴	-13.1306
羑	-13.1309
璐	-13.1309
諗	-13.131
薙	-13.131
鄚	-13.1313
渊	-13.1313
癭	-13.1314
鄃	-13.1316
濺	-13.1316
覯	-13.1316
饜	-13.1317
抆	-13.1317
挐	-13.1317
呑	-13.1317
崙	-13.1318
厩	-13.1318
捋	-13.1318
澭	-13.1318
昛	-13.1319
韈	-13.132
驘	-13.1321
児	-13.1322
髣	-13.1323
髴	-13.1323
㪺	-13.1324
惏	-13.1325
吃	-13.1326
劎	-13.1327
玦	-13.1328
蘋	-13.1329
薑	-13.1331
侏	-13.1331
梏	-13.1334
蹲	-13.1335
溜	-13.1335
叫	-13.1338
噎	-13.134
薇	-13.1341
槌	-13.1341
掬	-13.1342
蠹	-13.1346
踪	-13.1576
庵	-13.1582
祛	-13.1582
簷	-13.1584
瑰	-13.1584
颶	-13.1585
宁	-13.1585
輛	-13.1585
侂	-13.1586
悺	-13.1587
粢	-13.1587
衊	-13.1588
誾	-13.1589
奩	-13.1589
萯	-13.159
縲	-13.159
淩	-13.1591
晤	-13.1591
咤	-13.1592
鄏	-13.1592
淬	-13.1593
遟	-13.1594
柙	-13.1594
檉	-13.1594
繅	-13.1595
价	-13.1595
焬	-13.1595
廋	-13.1597
駹	-13.1599
蹷	-13.16
耑	-13.1601
沫	-13.1601
膜	-13.1601
璙	-13.1602
犲	-13.1604
劌	-13.1606
輴	-13.1606
壷	-13.161
旛	-13.1616
漾	-13.1627
䣛	-13.1629
从	-13.1652
鱄	-13.1849
齟	-13.1855
齬	-13.1855
禅	-13.1857
濋	-13.1858
愾	-13.1861
雊	-13.1861
睫	-13.1862
鈕	-13.1863
滈	-13.1863
悻	-13.1865
畬	-13.1865
樣	-13.1866
頟	-13.1867
僎	-13.1867
瘧	-13.187
鯢	-13.187
悪	-13.187
筲	-13.187
謜	-13.1871
晶	-13.1873
咀	-13.1876
羹	-13.1876
盼	-13.1877
馛	-13.1878
潚	-13.1879
撩	-13.188
戹	-13.1881
卾	-13.1882
犛	-13.1884
𫀆	-13.1885
艟	-13.1885
洑	-13.1888
厔	-13.1894
禴	-13.2133
鵰	-13.2136
岯	-13.2143
倂	-13.2146
芰	-13.2147
稗	-13.2148
葅	-13.215
嵕	-13.215
筍	-13.2151
捺	-13.2152
踶	-13.2153
拐	-13.2154
孶	-13.2154
懬	-13.2155
饘	-13.2155
忼	-13.2157
簞	-13.2158
阯	-13.2158
臟	-13.2158
惎	-13.2158
筩	-13.2158
髭	-13.2159
倀	-13.2161
誖	-13.2161
醯	-13.2163
憇	-13.2167
珌	-13.2167
檣	-13.2168
綆	-13.2171
樛	-13.2173
蚪	-13.2175
􁔨	-13.2426
峩	-13.2432
崆	-13.2439
邡	-13.244
㔻	-13.244
泆	-13.2441
熠	-13.2442
箧	-13.2443
蟜	-13.2444
攟	-13.2445
醵	-13.2445
鸛	-13.2445
厪	-13.2446
棋	-13.2447
甿	-13.2447
擺	-13.2447
洭	-13.2447
鞘	-13.2447
薁	-13.2448
匆	-13.2449
嗛	-13.2449
俣	-13.245
笁	-13.245
霪	-13.2451
楪	-13.2452
皦	-13.2453
膾	-13.2453
滓	-13.2453
籛	-13.2454
苕	-13.2455
蚌	-13.2456
殣	-13.2457
槎	-13.2457
悄	-13.2459
啄	-13.2459
鰍	-13.2459
嗔	-13.246
轑	-13.2462
甖	-13.2462
哆	-13.2463
鐇	-13.2463
芹	-13.2464
訩	-13.2464
絆	-13.2467
𠢐	-13.2478
珮	-13.2736
黿	-13.2736
筝	-13.2738
㦯	-13.274
氾	-13.2741
嘻	-13.2741
祋	-13.2744
萑	-13.2744
蓨	-13.2745
哇	-13.2745
廽	-13.2745
㢸	-13.2746
粧	-13.2746
忭	-13.2746
訔	-13.2747
忬	-13.2747
喏	-13.2747
巋	-13.2749
杠	-13.2749
藳	-13.2749
趕	-13.275
𢾗	-13.2751
檮	-13.2752
吊	-13.2752
粳	-13.2753
柑	-13.2753
譸	-13.2754
尭	-13.2755
苓	-13.2755
焯	-13.2756
鷟	-13.2757
嵎	-13.2757
珧	-13.2758
袝	-13.2758
橞	-13.2759
絓	-13.2759
灸	-13.2759
鰌	-13.276
藕	-13.2761
幞	-13.2762
冎	-13.2763
蝨	-13.2763
啞	-13.2766
禊	-13.2766
篚	-13.2771
冘	-13.2773
埇	-13.2773
枸	-13.2779
筰	-13.3044
毉	-13.3049
摛	-13.305
酅	-13.305
䢴	-13.3053
枵	-13.3054
嫣	-13.3055
荃	-13.3057
匽	-13.3058
疢	-13.3058
愳	-13.3059
焴	-13.306
蓆	-13.306
疥	-13.306
埨	-13.3061
巘	-13.3061
腴	-13.3062
鏹	-13.3062
暀	-13.3062
篙	-13.3062
吒	-13.3063
窻	-13.3063
㬥	-13.3065
輾	-13.3066
綉	-13.3066
窈	-13.3066
鑪	-13.3068
瑺	-13.3069
侖	-13.307
稳	-13.307
銚	-13.307
塼	-13.307
漊	-13.3071
恧	-13.3073
熨	-13.3075
嘘	-13.3075
糯	-13.3077
䴥	-13.3077
忖	-13.3078
艨	-13.3081
煚	-13.3081
鐺	-13.3081
鏌	-13.3082
墯	-13.3085
淞	-13.3085
䑛	-13.3088
跼	-13.309
洿	-13.309
壎	-13.3093
腋	-13.3101
猞	-13.3367
猻	-13.3368
耼	-13.3369
臬	-13.3375
􁆶	-13.3377
杪	-13.338
聪	-13.338
崟	-13.338
璇	-13.3382
詾	-13.3383
迯	-13.3383
䘖	-13.3384
壌	-13.3384
燇	-13.3385
毌	-13.3385
橚	-13.3386
瓖	-13.3386
紼	-13.3386
嵓	-13.3386
刓	-13.3388
篥	-13.3388
崱	-13.3388
怕	-13.3389
簀	-13.3389
豋	-13.339
㫺	-13.339
耉	-13.339
諼	-13.3391
纖	-13.3391
橛	-13.3394
菅	-13.3394
逷	-13.3395
篳	-13.3397
飴	-13.3397
靁	-13.3398
䠞	-13.3398
鏗	-13.3399
茄	-13.3404
柹	-13.3404
桶	-13.3405
輈	-13.3407
虨	-13.3412
瑳	-13.3417
稈	-13.342
溠	-13.3421
昳	-13.3422
茆	-13.3699
磊	-13.3705
􁁦	-13.3709
飫	-13.371
捭	-13.371
圑	-13.3711
瀰	-13.3711
潏	-13.3712
蝶	-13.3712
熿	-13.3713
芑	-13.3714
陝	-13.3715
楛	-13.3716
蝝	-13.3716
蚊	-13.3717
惸	-13.3717
襍	-13.3719
􁂍	-13.372
鍰	-13.372
睚	-13.3721
嚼	-13.3721
砌	-13.3721
衲	-13.3721
霅	-13.3722
椘	-13.3722
懔	-13.3723
炯	-13.3723
倮	-13.3723
陡	-13.3724
杉	-13.3725
溲	-13.3726
甎	-13.3727
楩	-13.3727
羝	-13.3729
翮	-13.3729
辮	-13.3731
疐	-13.3732
囁	-13.3732
軿	-13.3732
匙	-13.3732
餧	-13.3733
痍	-13.3733
鼷	-13.3733
厎	-13.3736
虒	-13.3739
■	-13.374
甾	-13.3742
虫	-13.3747
榱	-13.3751
猒	-13.3752
恁	-13.4052
碍	-13.4053
亍	-13.4054
􁇳	-13.4055
蔥	-13.4056
邘	-13.4056
涑	-13.4057
眤	-13.4057
晰	-13.4058
溶	-13.4058
麯	-13.4059
荗	-13.4062
檥	-13.4062
滲	-13.4065
籞	-13.4066
旤	-13.4066
繄	-13.4067
􁇚	-13.4068
妒	-13.4068
晥	-13.4068
飡	-13.4069
搉	-13.407
厫	-13.407
覉	-13.4071
醤	-13.4071
爺	-13.4072
茀	-13.4072
詫	-13.4072
芋	-13.4073
秔	-13.4073
皐	-13.4073
咋	-13.4073
麝	-13.4074
猿	-13.4076
喈	-13.4078
燉	-13.4079
澡	-13.408
𧖟	-13.4082
䆳	-13.4092
嬌	-13.4096
踝	-13.4114
㬠	-13.4395
嚬	-13.4404
隈	-13.4409
殲	-13.4412
乣	-13.4413
媢	-13.4414
鐙	-13.4417
垕	-13.4417
洫	-13.4418
􁀮	-13.4418
嶂	-13.4419
窕	-13.442
晌	-13.4421
阸	-13.4421
櫺	-13.4423
箏	-13.4423
瓴	-13.4423
岍	-13.4423
囏	-13.4425
靦	-13.4425
彄	-13.4426
曀	-13.4426
瑝	-13.4427
璬	-13.4427
𣅿	-13.4427
溴	-13.4427
挍	-13.4429
狴	-13.443
洼	-13.443
蜮	-13.4432
鐩	-13.4433
檡	-13.4433
畹	-13.4434
韞	-13.4436
𥜗	-13.4437
蹐	-13.4437
盬	-13.4438
䲭	-13.4438
曅	-13.4439
墬	-13.4439
蠕	-13.4439
讇	-13.4439
琶	-13.444
莋	-13.4441
糅	-13.4442
軛	-13.4444
帢	-13.4446
眥	-13.4449
縹	-13.4452
褠	-13.4453
萎	-13.4454
㶏	-13.4455
韭	-13.4758
䜌	-13.4779
顱	-13.4779
翛	-13.4781
祤	-13.4782
邶	-13.4782
盌	-13.4783
鞓	-13.4783
鶩	-13.4784
蹌	-13.4785
蛾	-13.4786
滚	-13.4786
𬗟	-13.4787
緊	-13.4787
菹	-13.4788
鈺	-13.479
懶	-13.4791
癉	-13.4791
炕	-13.4791
蜺	-13.4793
抔	-13.4793
轒	-13.4793
郳	-13.4793
苪	-13.4794
㕑	-13.4796
篁	-13.4796
菀	-13.4797
嘽	-13.4798
剸	-13.4799
灮	-13.4803
臀	-13.4803
甽	-13.4804
幬	-13.4804
儐	-13.4805
劈	-13.4805
㟭	-13.4806
翂	-13.4807
嚻	-13.4807
鑚	-13.4808
糵	-13.4809
呴	-13.4814
蛙	-13.4815
滍	-13.4819
蜉	-13.4831
歠	-13.4834
棼	-13.5163
𤇺	-13.5163
瞭	-13.5166
潑	-13.5169
輊	-13.517
侣	-13.517
蘊	-13.517
澨	-13.517
毦	-13.5172
埰	-13.5172
耰	-13.5173
礼	-13.5175
䰟	-13.5175
蠋	-13.5175
殻	-13.5176
秖	-13.5176
遝	-13.5177
鞌	-13.5178
儗	-13.5178
庀	-13.5179
魃	-13.5179
眦	-13.518
𣪚	-13.5181
凾	-13.5181
獯	-13.5181
旡	-13.5182
瓆	-13.5183
櫻	-13.5183
嚈	-13.5183
鍮	-13.5183
噠	-13.5183
瓢	-13.5183
扃	-13.5184
鐬	-13.5185
薺	-13.5187
驎	-13.5187
卉	-13.5188
罅	-13.5188
豷	-13.5188
襯	-13.5188
呫	-13.5189
􁌿	-13.5189
槥	-13.5192
浟	-13.5195
耎	-13.5195
鐻	-13.5197
軨	-13.5207
櫪	-13.5208
澀	-13.5209
濜	-13.5211
阱	-13.5211
衺	-13.5213
敔	-13.5553
杳	-13.556
騅	-13.556
絅	-13.5562
傘	-13.5563
歜	-13.5564
鍋	-13.5566
彿	-13.5566
珀	-13.5566
謪	-13.5567
􁇋	-13.5568
攙	-13.5568
竚	-13.5568
楠	-13.5568
扳	-13.5568
揄	-13.5569
􁥫	-13.557
曚	-13.557
娼	-13.5572
凄	-13.5572
复	-13.5572
袞	-13.5572
蘅	-13.5573
罝	-13.5573
鶡	-13.5573
蕢	-13.5573
玕	-13.5574
尃	-13.5575
泲	-13.5576
撠	-13.5576
牕	-13.5576
襌	-13.5576
獮	-13.5576
愊	-13.5577
簳	-13.5578
鼉	-13.5578
薉	-13.5579
繙	-13.558
凈	-13.5581
杅	-13.5581
澌	-13.5582
騄	-13.5582
袓	-13.5583
鋼	-13.5583
虬	-13.5583
笈	-13.5584
萄	-13.5584
旟	-13.5584
晛	-13.5586
毐	-13.5586
黝	-13.5586
湩	-13.5587
頍	-13.5587
芃	-13.5587
邗	-13.5588
焮	-13.5589
菌	-13.5591
闟	-13.5592
窰	-13.5592
倕	-13.5593
惆	-13.5594
萋	-13.5594
眡	-13.5599
䦧	-13.5602
餔	-13.5605
桎	-13.5607
蹀	-13.561
𬞞	-13.5617
玃	-13.5625
瞞	-13.5968
蹬	-13.5979
緻	-13.598
篷	-13.5981
儌	-13.5983
棉	-13.5984
窣	-13.5984
圵	-13.5985
髹	-13.5985
朅	-13.5986
涎	-13.5986
㢲	-13.5986
抦	-13.5987
璥	-13.5987
霓	-13.5989
瞬	-13.599
珹	-13.5992
勠	-13.5992
敫	-13.5992
罩	-13.5993
呶	-13.5993
煆	-13.5994
禡	-13.5994
瞀	-13.5997
漴	-13.5997
訹	-13.5998
蟊	-13.5999
徉	-13.5999
纜	-13.6
墡	-13.6
疃	-13.6
漓	-13.6001
㡳	-13.6001
蜕	-13.6002
琫	-13.6004
軓	-13.6005
䏰	-13.6006
嗸	-13.6006
断	-13.6008
翜	-13.6009
芊	-13.601
楣	-13.601
櫨	-13.6011
腎	-13.6013
􁕏	-13.6013
秺	-13.6015
畒	-13.6017
膢	-13.6019
溟	-13.6021
睺	-13.6024
尔	-13.6025
蔗	-13.6025
粕	-13.6026
綣	-13.6031
㟍	-13.6032
𡵨	-13.6085
駔	-13.6414
峗	-13.6416
鑛	-13.6418
酃	-13.642
莠	-13.6421
嘷	-13.6423
汔	-13.6423
侄	-13.6423
碏	-13.6424
焜	-13.6424
葠	-13.6426
蔴	-13.6427
佋	-13.6428
薈	-13.6428
惷	-13.6429
縟	-13.643
舗	-13.643
淥	-13.6431
罥	-13.6431
肫	-13.6431
惛	-13.6432
姞	-13.6432
禬	-13.6432
韉	-13.6433
鯈	-13.6433
儡	-13.6434
敳	-13.6435
录	-13.6435
畛	-13.6435
㱕	-13.6436
昈	-13.6438
襜	-13.6439
厖	-13.6439
顫	-13.6439
􁕓	-13.6439
湞	-13.6441
屐	-13.6441
遨	-13.6442
漉	-13.6442
𣆀	-13.6443
􁞧	-13.6444
虀	-13.6447
辝	-13.6448
賧	-13.6448
韠	-13.645
紖	-13.6451
韲	-13.6452
甔	-13.6452
旐	-13.6458
慺	-13.6461
䌓	-13.6462
涫	-13.6464
嵻	-13.6468
尓	-13.647
𥿄	-13.6525
獒	-13.686
茙	-13.6864
嫩	-13.6866
贒	-13.6868
榔	-13.6871
睍	-13.6871
嬃	-13.6872
轟	-13.6874
楼	-13.6875
庱	-13.6876
趁	-13.6877
瞷	-13.6877
禑	-13.6878
汋	-13.6879
腊	-13.688
鱓	-13.688
紃	-13.6881
堋	-13.6881
琄	-13.6881
閃	-13.6881
菓	-13.6882
窪	-13.6882
串	-13.6883
餮	-13.6883
柿	-13.6884
矅	-13.6884
褾	-13.6886
咫	-13.6886
惙	-13.6888
鷇	-13.6888
淙	-13.6889
㵼	-13.6889
汐	-13.6889
頣	-13.689
剜	-13.689
瘤	-13.689
棰	-13.6891
霹	-13.6891
壚	-13.6891
磴	-13.6891
愓	-13.6892
鏢	-13.6892
緤	-13.6892
恮	-13.6893
爝	-13.6893
埳	-13.6894
柅	-13.6894
瘍	-13.6896
眯	-13.6898
􁨄	-13.6898
簣	-13.6898
斄	-13.6899
蛉	-13.69
傀	-13.69
臈	-13.69
粃	-13.6901
糝	-13.6902
礌	-13.6905
麀	-13.6906
澎	-13.6909
襚	-13.691
麑	-13.6912
騧	-13.6914
蹵	-13.6914
蟇	-13.6915
蟀	-13.6918
髏	-13.6919
膈	-13.6924
搰	-13.6948
𦵔	-13.6948
䆫	-13.6959
狶	-13.7312
灕	-13.7319
軏	-13.7337
甗	-13.7338
疉	-13.7344
纈	-13.7345
恡	-13.7346
媕	-13.7347
鵒	-13.7347
栳	-13.7348
禭	-13.7348
斚	-13.7348
鐍	-13.735
襴	-13.735
瀨	-13.735
臊	-13.7351
煞	-13.7351
鶠	-13.7352
芡	-13.7352
浃	-13.7353
酳	-13.7353
涙	-13.7353
歹	-13.7353
酧	-13.7354
鏻	-13.7354
礱	-13.7354
茷	-13.7355
堧	-13.7355
梠	-13.7355
鸗	-13.7356
眘	-13.7356
萍	-13.7356
鴿	-13.7356
冽	-13.7356
鄺	-13.7357
遫	-13.7357
挨	-13.7358
姆	-13.7358
麞	-13.7359
翿	-13.7359
錞	-13.736
鴛	-13.736
渫	-13.736
樺	-13.736
溯	-13.7361
噀	-13.7361
榑	-13.7361
籕	-13.7362
娖	-13.7362
怤	-13.7362
佀	-13.7363
嘖	-13.7364
嫪	-13.7366
碗	-13.7366
輬	-13.7366
幇	-13.7366
靂	-13.7368
麃	-13.7369
爟	-13.737
碇	-13.737
蟣	-13.7371
剿	-13.7372
謼	-13.7372
麽	-13.7374
靷	-13.7374
㒷	-13.7376
崦	-13.7377
囓	-13.738
傜	-13.7382
矰	-13.7383
𨵦	-13.7384
跗	-13.7385
犠	-13.7388
髑	-13.7394
􁕼	-13.7405
朙	-13.7839
滽	-13.7841
鼗	-13.7842
􁨈	-13.7843
魘	-13.7844
唃	-13.7844
􁀐	-13.7847
稾	-13.7849
离	-13.785
耋	-13.785
獍	-13.7853
獎	-13.7854
蕙	-13.7854
芉	-13.7855
殳	-13.7855
撅	-13.7856
淋	-13.7857
嘱	-13.7857
蕕	-13.7857
碙	-13.7858
痿	-13.7858
姤	-13.7858
觥	-13.7861
週	-13.7861
蹠	-13.7861
嗑	-13.7864
瑇	-13.7864
鷸	-13.7864
斸	-13.7864
泒	-13.7864
㒒	-13.7865
銶	-13.7866
籀	-13.7866
楧	-13.7867
琡	-13.7867
眂	-13.7869
暦	-13.7869
􁣕	-13.7869
麕	-13.787
蒗	-13.787
噴	-13.787
汳	-13.7871
髆	-13.7871
襪	-13.7872
渌	-13.7872
縚	-13.7873
衜	-13.7874
揕	-13.7877
嘴	-13.7877
摴	-13.7877
𫐠	-13.7877
榼	-13.7877
塉	-13.7877
郍	-13.7878
睛	-13.7878
裦	-13.7881
瘉	-13.7882
揵	-13.7882
浰	-13.7884
躅	-13.7885
癲	-13.7888
鷲	-13.7889
杙	-13.7889
祍	-13.7896
捩	-13.7896
薶	-13.7912
敉	-13.8364
濉	-13.8368
緷	-13.837
挼	-13.8373
埴	-13.8373
痤	-13.8374
姁	-13.8374
巇	-13.8375
竞	-13.8375
崓	-13.8376
勻	-13.8376
樟	-13.8376
殚	-13.8377
涘	-13.8377
辣	-13.8377
瞪	-13.8377
鱉	-13.8378
麪	-13.8378
㩦	-13.8378
禥	-13.8378
翡	-13.8378
蔀	-13.8379
㓛	-13.8379
丄	-13.8379
顰	-13.838
矚	-13.838
衩	-13.838
謏	-13.8382
坫	-13.8383
𪠘	-13.8383
掀	-13.8383
敭	-13.8384
插	-13.8385
犄	-13.8386
擷	-13.8387
餬	-13.8387
陔	-13.8388
遅	-13.8388
晧	-13.8389
稆	-13.8389
袛	-13.839
佔	-13.839
徜	-13.839
蔞	-13.8391
俑	-13.8392
迃	-13.8393
滹	-13.8393
濂	-13.8393
闉	-13.8393
渒	-13.8394
撣	-13.8395
椓	-13.8397
楡	-13.8397
䘺	-13.84
嘑	-13.8401
漅	-13.8403
仚	-13.8403
朢	-13.8405
􁢱	-13.8407
聸	-13.8408
㭬	-13.8409
跟	-13.8409
藟	-13.841
鑨	-13.8411
貣	-13.8418
虯	-13.8418
袀	-13.8423
𬒮	-13.8441
䠆	-13.8459
稭	-13.891
筌	-13.8916
􁑣	-13.892
𡨕	-13.8922
聆	-13.8924
値	-13.8924
嫠	-13.8924
胾	-13.8925
泂	-13.8925
鸜	-13.8926
􁱧	-13.8926
㫄	-13.8927
枲	-13.8929
訏	-13.8929
綳	-13.8931
榘	-13.8931
穂	-13.8932
個	-13.8932
罣	-13.8932
㻛	-13.8932
騣	-13.8932
褔	-13.8932
㖫	-13.8933
鄮	-13.8934
烖	-13.8935
嬗	-13.8935
棡	-13.8935
徕	-13.8936
幙	-13.8937
絏	-13.8937
奂	-13.8938
鰓	-13.8938
橅	-13.8939
孀	-13.8939
螘	-13.8939
洌	-13.894
痾	-13.8941
鄅	-13.8941
挻	-13.8941
駛	-13.8942
芷	-13.8943
沗	-13.8943
呻	-13.8943
聒	-13.8943
瘢	-13.8946
姙	-13.8946
喣	-13.8947
徬	-13.8947
􁧯	-13.8947
确	-13.8949
欻	-13.8949
戭	-13.895
惘	-13.895
峝	-13.8951
咷	-13.8951
鮓	-13.8951
㗋	-13.8953
焱	-13.8953
愻	-13.8956
艇	-13.8957
綟	-13.8957
瓮	-13.8957
莨	-13.896
㵯	-13.8962
繾	-13.8967
醻	-13.8968
蜒	-13.8968
䥴	-13.8974
嚙	-13.8974
氅	-13.8975
􁏉	-13.8979
罼	-13.8993
杕	-13.9506
脤	-13.9507
澉	-13.9509
疣	-13.9511
紋	-13.9511
檦	-13.9512
餳	-13.9512
喊	-13.9514
靉	-13.9515
鄳	-13.9517
硜	-13.9517
噦	-13.9517
鬨	-13.9518
􁱇	-13.9518
睠	-13.9518
憃	-13.9519
􁏄	-13.9519
廿	-13.9521
䟎	-13.9521
渺	-13.9522
瘃	-13.9522
淊	-13.9523
搥	-13.9523
凂	-13.9523
烱	-13.9523
頞	-13.9524
徊	-13.9525
鼾	-13.9526
狤	-13.9526
岢	-13.9527
燋	-13.9527
型	-13.9529
椰	-13.9529
憖	-13.9529
柂	-13.9529
幗	-13.9529
垠	-13.953
鞵	-13.9531
硃	-13.9531
卣	-13.9532
砮	-13.9533
緌	-13.9533
秕	-13.9533
飈	-13.9533
蒢	-13.9534
鸑	-13.9534
袷	-13.9536
鮎	-13.9536
廄	-13.9537
熞	-13.9537
笴	-13.9537
晢	-13.9537
傴	-13.9538
糖	-13.9538
傪	-13.954
覷	-13.954
蒭	-13.9541
掆	-13.9542
簏	-13.9542
蹯	-13.9546
帀	-13.9546
䤈	-13.9548
拗	-13.9549
釭	-13.955
篾	-13.9551
綌	-13.9551
䆠	-13.9555
熛	-13.9561
抎	-13.9562
舴	-13.9563
粽	-13.9572
籃	-13.9581
潝	-13.9584
䃺	-13.9585
𣑽	-13.9588
漦	-14.0126
禜	-14.0131
楗	-14.0133
欑	-14.0135
撘	-14.0136
􁂎	-14.0136
瘥	-14.0139
搃	-14.0141
屝	-14.0141
惺	-14.0141
誎	-14.0143
㶚	-14.0143
檑	-14.0144
蕳	-14.0144
麇	-14.0144
輗	-14.0144
寞	-14.0146
嚢	-14.0146
鑽	-14.0146
拶	-14.0147
埈	-14.0147
輵	-14.0148
肹	-14.0148
穣	-14.0148
桉	-14.0149
忩	-14.0149
􁀣	-14.0149
稒	-14.0151
㬓	-14.0151
㳫	-14.0154
僶	-14.0154
􁊞	-14.0154
𫉬	-14.0154
㳄	-14.0154
綍	-14.0154
纚	-14.0155
䶵	-14.0155
剚	-14.0155
茟	-14.0155
拈	-14.0156
㥄	-14.0156
楔	-14.0157
丼	-14.0157
墱	-14.0158
鵁	-14.0158
埠	-14.0158
泃	-14.0158
鷩	-14.0158
鶄	-14.0158
鞉	-14.0158
竧	-14.0159
炰	-14.0159
餤	-14.0159
綃	-14.016
噂	-14.0161
咏	-14.0161
脰	-14.0161
偈	-14.0161
癬	-14.0161
靺	-14.0162
鐐	-14.0163
瀬	-14.0164
蜣	-14.0164
㠶	-14.0165
甜	-14.0165
摸	-14.0165
荂	-14.0167
􁌆	-14.0167
稺	-14.0168
嫖	-14.0169
迮	-14.017
僬	-14.017
􁥌	-14.017
麊	-14.0171
黈	-14.0173
舷	-14.0176
噱	-14.0177
苔	-14.0177
惽	-14.0179
剕	-14.0179
憯	-14.0179
蝱	-14.018
幰	-14.0181
搯	-14.0184
鶖	-14.0184
鷖	-14.0192
艋	-14.0192
􁀈	-14.0209
嗽	-14.0214
􁆁	-14.0248
腄	-14.025
?	-14.0789
㠓	-14.0794
􁱬	-14.0796
薌	-14.0799
抝	-14.0802
湑	-14.0803
笋	-14.0804
嫻	-14.0806
埏	-14.0807
鄛	-14.0807
梭	-14.0808
钁	-14.0808
甆	-14.0809
湬	-14.081
濾	-14.0811
靠	-14.0811
􁂒	-14.0811
貅	-14.0812
癯	-14.0812
頬	-14.0812
膓	-14.0813
㠯	-14.0813
檿	-14.0814
鄡	-14.0814
隩	-14.0815
廧	-14.0815
峕	-14.0815
冋	-14.0815
潩	-14.0816
藋	-14.0817
駼	-14.0817
悳	-14.0817
昢	-14.0817
孊	-14.0818
溽	-14.0818
猨	-14.0818
磝	-14.0818
㪯	-14.0818
裀	-14.0818
麛	-14.0818
嘵	-14.0819
頏	-14.0819
鉶	-14.0819
瑙	-14.0819
􁃻	-14.0819
㔨	-14.082
嵹	-14.082
抺	-14.082
咬	-14.082
巗	-14.082
皛	-14.0821
楀	-14.0821
䴵	-14.0821
騢	-14.0822
慫	-14.0823
炟	-14.0824
狻	-14.0824
醲	-14.0824
彡	-14.0824
䝠	-14.0825
觶	-14.0825
珎	-14.0826
掫	-14.0826
緭	-14.0826
爍	-14.0827
㹠	-14.0828
扛	-14.0828
堲	-14.0828
邟	-14.0829
鵜	-14.0829
劊	-14.0829
頹	-14.0829
砍	-14.0829
玨	-14.0829
躙	-14.083
菆	-14.083
玲	-14.083
幍	-14.083
鵑	-14.0831
菻	-14.0832
擥	-14.0832
溘	-14.0833
鋈	-14.0833
忲	-14.0833
漪	-14.0833
鵃	-14.0834
煤	-14.0834
獘	-14.0835
鉥	-14.0836
誗	-14.0836
駈	-14.0836
叉	-14.0837
撑	-14.0837
旿	-14.0839
屩	-14.0839
黛	-14.0839
臑	-14.084
䄠	-14.0841
汮	-14.0841
糇	-14.0842
膊	-14.0842
蛻	-14.0846
茇	-14.0846
廑	-14.0847
蠃	-14.0847
絝	-14.0847
靬	-14.0847
佷	-14.0858
䊸	-14.0859
跲	-14.0862
繦	-14.0865
撗	-14.0882
餕	-14.1485
肈	-14.1503
臋	-14.1507
肚	-14.1508
忉	-14.1509
泖	-14.1511
袚	-14.1516
劘	-14.1518
觿	-14.1518
霰	-14.1518
貜	-14.1519
蒂	-14.152
娃	-14.152
橡	-14.152
䪹	-14.1521
靨	-14.1521
􁏛	-14.1522
泅	-14.1522
􁀅	-14.1523
衟	-14.1523
洚	-14.1524
馺	-14.1524
嘶	-14.1524
儺	-14.1524
􁂆	-14.1525
桌	-14.1526
鋟	-14.1526
鹺	-14.1526
篹	-14.1527
馱	-14.1527
揑	-14.1527
扐	-14.1527
䥫	-14.1527
蔟	-14.1528
鼛	-14.1528
丱	-14.1529
羶	-14.1529
㟧	-14.1529
淓	-14.153
庲	-14.1532
硖	-14.1533
㓪	-14.1533
眕	-14.1534
羃	-14.1535
壐	-14.1536
揩	-14.1536
禔	-14.1536
蓑	-14.1536
抨	-14.1537
㼐	-14.1538
禨	-14.1538
篲	-14.1538
鼃	-14.154
尽	-14.154
齷	-14.154
崿	-14.154
窆	-14.154
礓	-14.154
鑼	-14.154
鱣	-14.1541
煃	-14.1541
踉	-14.1542
􁀨	-14.1542
剷	-14.1542
橙	-14.1542
獐	-14.1543
蹛	-14.1543
踘	-14.1544
褧	-14.1544
挌	-14.1544
譊	-14.1545
妍	-14.1545
簸	-14.1546
騒	-14.1546
磵	-14.1546
訞	-14.1547
膴	-14.1547
呰	-14.1548
𨫼	-14.1548
唏	-14.1548
潺	-14.1549
鏦	-14.1549
傿	-14.155
輣	-14.155
蜋	-14.1551
峥	-14.1552
纇	-14.1553
䄍	-14.1554
酲	-14.1555
芈	-14.1555
芀	-14.1556
溼	-14.1556
鐲	-14.1557
倎	-14.1557
娬	-14.1558
睪	-14.1558
乜	-14.156
馗	-14.1561
闤	-14.1561
䪥	-14.1561
珞	-14.1562
㬭	-14.1563
郲	-14.1563
奰	-14.1564
蓽	-14.1565
斻	-14.1565
娀	-14.1568
煠	-14.1568
襤	-14.1568
虩	-14.1569
埆	-14.157
窀	-14.1571
菘	-14.1574
􁇟	-14.1575
柚	-14.1577
扜	-14.1578
蚍	-14.1582
箄	-14.1585
獼	-14.1592
匵	-14.1616
蓁	-14.2277
浼	-14.2281
秫	-14.2281
瀉	-14.2283
霶	-14.2284
瘝	-14.2284
嚇	-14.2286
壄	-14.2287
􁐜	-14.2289
慍	-14.229
咼	-14.2291
罙	-14.2291
偘	-14.2292
缸	-14.2293
􁀰	-14.2294
驀	-14.2294
鄟	-14.2294
溏	-14.2294
瘇	-14.2296
螢	-14.2297
鞶	-14.2298
嬸	-14.2298
棖	-14.2299
􁗁	-14.2299
趺	-14.23
拇	-14.23
韀	-14.23
蝎	-14.23
萆	-14.2301
雘	-14.2302
誶	-14.2302
湨	-14.2302
檟	-14.2303
鋗	-14.2303
鎣	-14.2304
騍	-14.2304
潄	-14.2304
砭	-14.2304
􁂧	-14.2304
􁱭	-14.2305
涣	-14.2306
裎	-14.2306
乩	-14.2306
讕	-14.2306
蓂	-14.2306
懊	-14.2306
皤	-14.2307
烺	-14.2307
庥	-14.2307
㸙	-14.2308
諐	-14.2308
狑	-14.2308
銕	-14.2308
惥	-14.2309
玹	-14.2309
冓	-14.2309
枿	-14.2309
咳	-14.231
榕	-14.2311
桮	-14.2311
篠	-14.2311
襈	-14.2313
崕	-14.2314
済	-14.2314
蜃	-14.2315
獶	-14.2315
釧	-14.2315
褓	-14.2316
鞨	-14.2316
胝	-14.2317
蕝	-14.2317
撚	-14.2317
嚨	-14.2319
玝	-14.2319
恌	-14.2319
稲	-14.232
橰	-14.232
銲	-14.232
嶭	-14.232
琱	-14.232
泐	-14.2321
痩	-14.2321
蜹	-14.2322
袹	-14.2322
醊	-14.2323
䱇	-14.2324
迁	-14.2325
轔	-14.2325
㮣	-14.2326
闠	-14.2327
体	-14.2327
碕	-14.2328
旍	-14.233
胛	-14.2331
龑	-14.2332
䟆	-14.2332
俀	-14.2334
騮	-14.2336
纏	-14.2343
䂮	-14.2344
莚	-14.2357
鏬	-14.2366
蹎	-14.2373
箜	-14.3101
笱	-14.3107
懍	-14.3107
咲	-14.311
醅	-14.3112
䴡	-14.3114
瞠	-14.3115
絍	-14.3118
觳	-14.3118
齓	-14.3118
秒	-14.3119
廳	-14.312
悊	-14.312
庄	-14.3121
孌	-14.3121
㒡	-14.3123
呿	-14.3123
噽	-14.3126
㕎	-14.3126
憧	-14.3126
䗶	-14.3127
耏	-14.3127
曁	-14.3128
趄	-14.3129
3	-14.313
"	-14.313
錘	-14.313
褭	-14.313
䁥	-14.313
惱	-14.3132
洟	-14.3132
豭	-14.3132
鷃	-14.3133
矴	-14.3133
隮	-14.3133
訽	-14.3133
敡	-14.3133
誧	-14.3134
閾	-14.3134
櫽	-14.3134
茘	-14.3134
棍	-14.3134
娵	-14.3135
驆	-14.3135
黧	-14.3135
㭊	-14.3136
鞲	-14.3136
鑱	-14.3137
盔	-14.3137
矇	-14.3138
澘	-14.3138
苜	-14.3138
慇	-14.3139
摎	-14.3139
㮙	-14.3139
帚	-14.3139
瓏	-14.3139
傋	-14.314
鄿	-14.314
眾	-14.314
嶙	-14.314
刊	-14.314
嫘	-14.3141
捻	-14.3141
黌	-14.3141
貮	-14.3141
􁑼	-14.3141
錚	-14.3142
㠋	-14.3143
􁆍	-14.3143
橜	-14.3144
樉	-14.3144
怳	-14.3144
鵾	-14.3145
酥	-14.3145
笳	-14.3145
籐	-14.3146
桅	-14.3147
儳	-14.3147
艻	-14.3148
羚	-14.3148
匃	-14.3148
餫	-14.3149
裯	-14.3149
玻	-14.3149
柁	-14.3149
窓	-14.3149
曬	-14.315
㬚	-14.315
𧺫	-14.315
䴚	-14.3151
蹹	-14.3151
泱	-14.3151
揲	-14.3151
嶅	-14.3151
澅	-14.3151
崢	-14.3151
蠖	-14.3151
鉾	-14.3152
釦	-14.3152
俔	-14.3153
懴	-14.3153
弰	-14.3154
夑	-14.3154
韣	-14.3154
熢	-14.3154
揷	-14.3155
沲	-14.3157
鏺	-14.3157
㻆	-14.3157
驊	-14.3158
􁥟	-14.3159
蚣	-14.3159
慷	-14.3159
骲	-14.3161
悾	-14.3161
穄	-14.3162
琵	-14.3164
湕	-14.3164
頮	-14.3165
蚰	-14.3166
慵	-14.3169
椑	-14.3169
鍫	-14.3172
茈	-14.3172
袈	-14.3174
鮦	-14.3174
蹢	-14.3177
妊	-14.3178
駜	-14.318
􁐏	-14.3185
猇	-14.3188
鼕	-14.3193
瑥	-14.3193
焭	-14.3197
緶	-14.3198
胳	-14.3199
飆	-14.3982
蘷	-14.4003
拑	-14.4009
睶	-14.4013
䔉	-14.4018
斲	-14.402
苧	-14.4021
蹭	-14.4023
眈	-14.4023
蠔	-14.4023
秠	-14.4024
蚕	-14.403
邿	-14.4031
萴	-14.4031
侹	-14.4032
褕	-14.4032
畞	-14.4032
敓	-14.4033
㢠	-14.4033
狨	-14.4033
琁	-14.4034
仝	-14.4034
倥	-14.4035
蠙	-14.4035
畊	-14.4037
眢	-14.4037
剺	-14.4038
簨	-14.4039
銃	-14.4039
􁇨	-14.404
砧	-14.404
实	-14.404
櫕	-14.404
籧	-14.404
籮	-14.4041
雯	-14.4041
裡	-14.4041
晣	-14.4042
凙	-14.4042
嶔	-14.4042
笲	-14.4043
饍	-14.4043
咅	-14.4043
皡	-14.4043
臓	-14.4043
湄	-14.4043
陗	-14.4043
惓	-14.4043
翣	-14.4044
牴	-14.4044
矮	-14.4044
岠	-14.4045
鸂	-14.4045
鏟	-14.4045
􁋎	-14.4045
鉌	-14.4045
偼	-14.4046
睇	-14.4046
螳	-14.4046
蜩	-14.4047
霛	-14.4047
啣	-14.4047
䐗	-14.4047
螣	-14.4048
洨	-14.4048
凰	-14.4048
瀟	-14.4049
槳	-14.4049
尨	-14.405
疪	-14.405
絭	-14.405
柈	-14.4051
躶	-14.4051
妘	-14.4051
怘	-14.4051
飮	-14.4051
𦦨	-14.4052
巙	-14.4052
茪	-14.4052
郏	-14.4053
滶	-14.4053
稙	-14.4054
嵏	-14.4054
鑴	-14.4055
蜍	-14.4055
轜	-14.4055
薅	-14.4056
塍	-14.4057
枤	-14.4057
脗	-14.4058
轊	-14.4058
篪	-14.4058
歘	-14.4058
蘩	-14.4059
逶	-14.4059
㺷	-14.406
䫻	-14.4061
韮	-14.4061
躑	-14.4062
芼	-14.4062
垻	-14.4062
紝	-14.4063
称	-14.4063
胖	-14.4064
鑢	-14.4064
螉	-14.4065
鰒	-14.4065
蒟	-14.4065
涚	-14.4067
墁	-14.4067
鄈	-14.4067
栱	-14.4068
蚶	-14.4068
箯	-14.4069
栫	-14.407
甋	-14.407
訇	-14.4071
狽	-14.4072
吪	-14.4074
矻	-14.4075
傃	-14.4075
鴇	-14.4077
輶	-14.4078
麰	-14.4079
崎	-14.4079
蠚	-14.4081
􁈍	-14.4081
茢	-14.4082
牸	-14.4084
鍖	-14.4084
蝤	-14.4085
膀	-14.4086
嵫	-14.4091
苽	-14.4095
跱	-14.4098
渢	-14.4099
涒	-14.4101
穸	-14.4101
郚	-14.4102
澓	-14.4111
籟	-14.5004
鄋	-14.5007
伻	-14.5011
犆	-14.5017
􁣽	-14.5024
鷁	-14.5028
諰	-14.5028
堌	-14.5028
袱	-14.5029
僝	-14.5029
淛	-14.503
营	-14.5031
宧	-14.5031
碻	-14.5032
熸	-14.5032
䀋	-14.5032
胆	-14.5033
蕉	-14.5034
痘	-14.5035
㚋	-14.5036
㴻	-14.5036
苡	-14.5036
醸	-14.5036
謷	-14.5036
剙	-14.5037
釬	-14.5038
胞	-14.5038
圁	-14.5038
諓	-14.5039
穨	-14.5039
儶	-14.504
􁩞	-14.504
蛛	-14.5041
嫈	-14.5041
汏	-14.5041
樷	-14.5042
鍍	-14.5042
燫	-14.5042
綻	-14.5042
穯	-14.5042
鑞	-14.5042
趆	-14.5042
齰	-14.5042
腓	-14.5043
墪	-14.5043
鍬	-14.5043
逥	-14.5043
蓿	-14.5043
划	-14.5043
􁂋	-14.5043
丰	-14.5044
蹏	-14.5044
枌	-14.5044
喤	-14.5044
躧	-14.5045
𧦬	-14.5046
緗	-14.5046
閴	-14.5046
髄	-14.5046
弒	-14.5047
鞴	-14.5047
礠	-14.5048
昖	-14.5048
祹	-14.5048
圌	-14.505
晹	-14.505
唄	-14.5051
屮	-14.5051
妤	-14.5052
熁	-14.5052
捎	-14.5052
弮	-14.5052
軷	-14.5052
骰	-14.5053
鬵	-14.5053
湳	-14.5055
悕	-14.5055
㵒	-14.5055
鋩	-14.5055
玈	-14.5055
榴	-14.5056
艽	-14.5056
煅	-14.5056
炷	-14.5056
俻	-14.5057
眸	-14.5057
俴	-14.5058
儦	-14.5059
蛣	-14.5059
茒	-14.5059
釱	-14.5059
桿	-14.506
􁱮	-14.506
妷	-14.5061
駡	-14.5061
儛	-14.5062
辿	-14.5062
芴	-14.5062
渣	-14.5063
蠮	-14.5064
齄	-14.5064
丏	-14.5064
崐	-14.5064
腯	-14.5064
㷲	-14.5065
慅	-14.5065
毼	-14.5065
帊	-14.5065
齩	-14.5066
􁚫	-14.5066
噣	-14.5066
僄	-14.5067
戔	-14.5067
飊	-14.5068
墝	-14.5068
唳	-14.5068
臝	-14.5068
稸	-14.5068
猘	-14.5068
翖	-14.507
陻	-14.507
捂	-14.507
睆	-14.5071
廥	-14.5071
圂	-14.5072
脁	-14.5074
􁇒	-14.5074
骾	-14.5074
懅	-14.5076
郉	-14.5076
𤏡	-14.5077
胱	-14.5078
圬	-14.5079
癩	-14.5079
橑	-14.508
扢	-14.5081
裟	-14.5081
憋	-14.5081
怩	-14.5084
綡	-14.5084
澞	-14.5085
犗	-14.5086
跅	-14.5087
刌	-14.5087
臶	-14.5087
帬	-14.5088
蛭	-14.509
膿	-14.5092
鞁	-14.5102
蜴	-14.5111
觽	-14.61
􁦜	-14.6113
芣	-14.6116
㜮	-14.6121
嬛	-14.6121
堝	-14.6122
窊	-14.6127
莝	-14.6127
琠	-14.6128
韅	-14.6129
痏	-14.6131
緐	-14.6133
暙	-14.6134
淏	-14.6135
窐	-14.6136
悢	-14.6137
􁂠	-14.6137
􁀒	-14.6137
鴒	-14.6137
嘩	-14.6139
罏	-14.6139
鮀	-14.614
鉟	-14.614
膰	-14.614
靮	-14.614
炆	-14.6142
賸	-14.6142
蕋	-14.6142
鮫	-14.6142
稃	-14.6143
䚟	-14.6143
嗕	-14.6144
偬	-14.6144
珓	-14.6144
逴	-14.6144
醆	-14.6144
庋	-14.6144
雚	-14.6144
樻	-14.6144
譆	-14.6145
㚄	-14.6146
薏	-14.6146
撡	-14.6146
厙	-14.6146
惄	-14.6147
􁂞	-14.6147
􁂚	-14.6147
鄬	-14.6148
䢵	-14.6148
篦	-14.6148
咻	-14.6149
摏	-14.615
妝	-14.6151
贗	-14.6151
穊	-14.6151
髫	-14.6152
㫋	-14.6152
紉	-14.6152
溈	-14.6152
粛	-14.6152
涗	-14.6153
吼	-14.6153
鎌	-14.6153
瓐	-14.6154
歂	-14.6155
甪	-14.6155
榯	-14.6155
浯	-14.6155
勌	-14.6155
朡	-14.6156
䘙	-14.6156
憗	-14.6156
姺	-14.6156
樾	-14.6156
獂	-14.6156
塠	-14.6157
晭	-14.6157
篨	-14.6157
窯	-14.6157
炒	-14.6157
煕	-14.6157
蜯	-14.6158
胯	-14.6158
啑	-14.6159
蛋	-14.6159
缿	-14.616
暎	-14.616
煢	-14.616
罐	-14.6161
豽	-14.6161
奫	-14.6162
杈	-14.6162
􁅔	-14.6162
稌	-14.6162
􁑿	-14.6163
訌	-14.6164
虙	-14.6164
呆	-14.6164
髳	-14.6164
􁁏	-14.6164
㠖	-14.6164
欬	-14.6165
姍	-14.6165
斈	-14.6165
捣	-14.6165
遛	-14.6165
挏	-14.6165
茱	-14.6165
獧	-14.6165
硝	-14.6166
搓	-14.6166
稂	-14.6166
䍦	-14.6166
䖝	-14.6167
㾗	-14.6168
㦧	-14.6168
秅	-14.6168
􁀞	-14.6168
楓	-14.6168
䕠	-14.6168
㹪	-14.6168
屎	-14.6168
趑	-14.6169
鷔	-14.6169
㷀	-14.617
萁	-14.617
箑	-14.617
輞	-14.617
泜	-14.6171
桄	-14.6171
穠	-14.6172
枅	-14.6173
辶	-14.6173
輭	-14.6173
䘚	-14.6173
燻	-14.6174
睒	-14.6174
唶	-14.6175
韔	-14.6175
擂	-14.6175
耇	-14.6175
饐	-14.6175
啍	-14.6175
騩	-14.6176
瓣	-14.6177
筥	-14.6177
膩	-14.6178
畟	-14.6178
蓩	-14.6178
莛	-14.6178
蛆	-14.6179
牷	-14.6179
霣	-14.6179
灨	-14.6179
澋	-14.618
婕	-14.618
襻	-14.618
牱	-14.6181
裊	-14.6182
㩧	-14.6183
潕	-14.6183
􁄰	-14.6184
􁔿	-14.6188
幐	-14.6188
饁	-14.619
菼	-14.619
慳	-14.619
鑷	-14.6191
嘒	-14.6191
譒	-14.6192
柺	-14.6193
韎	-14.6195
妯	-14.6196
􁌫	-14.6197
鈸	-14.6198
邔	-14.6199
剠	-14.6202
焟	-14.6202
忡	-14.6203
哮	-14.6205
囮	-14.6206
仡	-14.6208
檾	-14.6208
􁄂	-14.6209
臿	-14.6214
轞	-14.6214
勮	-14.6222
燖	-14.6224
􁓖	-14.6227
蜥	-14.6229
壏	-14.7363
㮤	-14.7365
嚪	-14.738
倰	-14.738
䡖	-14.7385
唊	-14.7389
凹	-14.7391
堉	-14.7395
媫	-14.7396
䓗	-14.7397
剮	-14.7397
圳	-14.7397
侲	-14.7398
䑠	-14.74
俆	-14.74
垾	-14.74
僙	-14.74
嚌	-14.7401
䍽	-14.7402
啾	-14.7402
儘	-14.7402
塏	-14.7404
㴠	-14.7405
儧	-14.7406
㡯	-14.7407
侶	-14.7407
冔	-14.7409
偱	-14.741
丌	-14.7411
侻	-14.7411
倆	-14.7412
匜	-14.7412
㪍	-14.7415
变	-14.7415
伹	-14.7416
剟	-14.7417
堽	-14.7424
仂	-14.7432
咢	-14.7435
傫	-14.7437
㒹	-14.7438
䭔	-14.7444
㦍	-14.7448
劼	-14.7456
堢	-14.7458
㣥	-14.7466
呦	-14.7469
㒋	-14.747
紜	-15.2503
鋮	-15.497
徘	-15.834
獗	-15.8343
炣	-16.333
艴	-16.3331
彔	-16.3332
夽	-16.3333
㣓	-16.3334
鳲	-16.3335
砫	-16.3336
烷	-16.3337
淔	-16.3338
蟋	-16.3339
婭	-16.334
蓰	-16.3341
珸	-16.3342
猁	-16.3343
詪	-16.3344
嘍	-16.3345
禝	-16.3345
