<unk>	0
<s>	0
</s>	0
。	-1.83556
故	-4.31121
者	-4.52204
也	-4.90395
以	-5.08657
是	-5.1472
有	-5.22016
(	-5.27354
二	-5.29407
為	-5.32626
)	-5.33085
此	-5.35789
無	-5.41032
即	-5.42335
等	-5.46832
如	-5.47019
中	-5.48442
之	-5.56416
▁	-5.5751
謂	-5.59864
於	-5.59903
不	-5.62378
若	-5.63221
言	-5.64567
心	-5.66372
一	-5.66753
法	-5.68537
名	-5.69967
生	-5.75852
相	-5.7795
非	-5.78105
義	-5.7897
因	-5.82825
三	-5.89676
而	-5.90115
說	-5.90764
下	-6.04355
行	-6.05568
彼	-6.06796
又	-6.08851
至	-6.11769
得	-6.12316
則	-6.12636
及	-6.14836
如是	-6.1531
亦	-6.17647
成	-6.18862
其	-6.19398
人	-6.20975
論	-6.21831
*	-6.2758
依	-6.29043
自	-6.29221
明	-6.29345
起	-6.29487
。】「	-6.32713
見	-6.35253
門	-6.35351
時	-6.35739
所	-6.36748
智	-6.37766
一切	-6.38543
四	-6.41741
諸	-6.41828
與	-6.42995
佛	-6.46788
。」【	-6.47429
由	-6.48254
或	-6.4899
後	-6.4932
性	-6.49675
身	-6.49779
大	-6.49794
皆	-6.51202
作	-6.52074
眾生	-6.52357
云	-6.5241
本	-6.5284
上	-6.53016
顯	-6.53527
初	-6.54252
緣	-6.54677
我	-6.5506
能	-6.55571
答	-6.56095
宗	-6.5742
無明	-6.58501
離	-6.58894
處	-6.60584
同	-6.60646
從	-6.60943
前	-6.61284
滅	-6.61456
體	-6.61647
觀	-6.64225
知	-6.6655
問	-6.70083
立	-6.70503
識	-6.70725
常	-6.72014
空	-6.72268
分	-6.73152
今	-6.73171
然	-6.7344
是故	-6.73531
事	-6.7423
定	-6.74256
即是	-6.74369
應	-6.74635
入	-6.74832
名為	-6.75378
隨	-6.75745
雖	-6.764
唯	-6.76713
菩薩	-6.77071
覺	-6.7854
色	-6.78598
苦	-6.78711
意	-6.78858
真如	-6.79499
云何	-6.79717
耶	-6.80261
故云	-6.80271
異	-6.81282
念	-6.81419
釋	-6.81716
分別	-6.82883
過	-6.82948
果	-6.84282
令	-6.84899
通	-6.85539
業	-6.87177
多	-6.87315
五	-6.87583
已	-6.8773
既	-6.88328
解	-6.8838
別	-6.88509
修	-6.88649
當	-6.88703
現	-6.89417
樂	-6.89705
受	-6.91654
喻	-6.9203
攝	-6.92313
用	-6.92886
在	-6.93697
斷	-6.9377
具	-6.93927
正	-6.94158
住	-6.94773
地	-6.95364
餘	-6.96436
真	-6.96443
道	-6.99113
取	-6.99227
欲	-6.99512
但	-6.99692
等者	-7.0005
難	-7.00605
善	-7.00767
經	-7.03952
聲	-7.06011
乃至	-7.06036
因緣	-7.0624
淨	-7.06402
合	-7.06582
他	-7.07554
根	-7.0784
境	-7.08248
先	-7.08649
證	-7.09537
信	-7.10579
疏	-7.10829
出	-7.11543
理	-7.12606
一者	-7.12735
二者	-7.12902
轉	-7.14486
可	-7.15873
俱	-7.1624
差別	-7.16331
何	-7.1693
次	-7.16997
無常	-7.17677
盡	-7.17727
勝	-7.17811
文	-7.18608
生滅	-7.19119
復	-7.19724
功德	-7.20062
無有	-7.2084
本覺	-7.22069
引	-7.22095
水	-7.22115
王	-7.23243
對	-7.23284
六	-7.2353
德	-7.23904
教	-7.24229
如來	-7.24563
約	-7.26473
故名	-7.26792
復次	-7.28071
實	-7.28265
量	-7.29875
位	-7.30275
煩惱	-7.30472
問曰	-7.30724
十	-7.30806
答曰	-7.31514
外	-7.31937
舉	-7.32283
染	-7.34679
相應	-7.3591
不能	-7.37309
妄	-7.37456
力	-7.38086
除	-7.38755
未	-7.38915
方便	-7.40745
諸法	-7.40939
捨	-7.42298
內	-7.43288
境界	-7.43486
世間	-7.43789
想	-7.45035
所謂	-7.45509
方	-7.45827
此中	-7.4598
大乘	-7.46032
執	-7.46269
總	-7.46415
清淨	-7.48843
】	-7.48967
汝	-7.49836
聞	-7.50355
動	-7.50531
發	-7.5055
八	-7.50622
具足	-7.5086
火	-7.51002
示	-7.51153
」	-7.51541
藏	-7.51581
一心	-7.51931
眾	-7.52557
平等	-7.53034
惡	-7.53148
各	-7.53792
破	-7.54828
天	-7.55595
七	-7.55722
便	-7.55912
廣	-7.56844
種種	-7.57096
戒	-7.57194
深	-7.57332
共	-7.5793
來	-7.58401
巳	-7.58905
求	-7.59197
熏	-7.60216
修行	-7.61683
第二	-7.62013
就	-7.62123
,	-7.63384
故言	-7.63874
不同	-7.63968
▁二	-7.64003
乃	-7.64191
重	-7.64259
師	-7.64893
遍	-7.65743
必	-7.65816
略	-7.66252
種	-7.66413
記	-7.66602
不覺	-7.6723
解脫	-7.67272
愛	-7.67608
數	-7.67738
施	-7.68103
曰	-7.68322
違	-7.68954
物	-7.69811
論曰	-7.69828
不可	-7.69987
結	-7.70333
涅槃	-7.70508
止	-7.70645
不定	-7.71143
障	-7.71662
慧	-7.72214
無量	-7.7244
所依	-7.7277
語	-7.7304
)。】「	-7.73251
。「	-7.73471
自性	-7.73719
諸佛	-7.74015
界	-7.74176
法身	-7.74381
是名	-7.7491
疑	-7.75097
失	-7.75838
始覺	-7.75938
所作	-7.75948
辨	-7.76291
二種	-7.76586
極	-7.77058
惑	-7.77138
和合	-7.77504
三者	-7.77509
利	-7.77949
使	-7.78064
決定	-7.78811
相違	-7.79064
成就	-7.7926
持	-7.79572
相續	-7.79979
食	-7.80447
何故	-7.80826
悉	-7.81255
▁初	-7.81404
順	-7.8182
風	-7.81852
句	-7.8208
指	-7.82165
染淨	-7.82373
耳	-7.8246
。」【(	-7.83366
自在	-7.83466
迷	-7.83601
世	-7.84162
字	-7.8486
了	-7.85078
少	-7.85192
更	-7.8557
故知	-7.86806
所說	-7.88834
開	-7.89044
願	-7.89319
屬	-7.89613
生死	-7.89628
所以者何	-7.89836
所立	-7.90616
第三	-7.90707
有法	-7.91001
次第	-7.91332
品	-7.91867
所以	-7.92023
當知	-7.92398
邪	-7.92872
海	-7.93598
不得	-7.93619
兩	-7.94168
譬如	-7.94267
妙	-7.94368
報	-7.9465
還	-7.95305
滿	-7.95619
觸	-7.96812
細	-7.96823
眼	-7.96939
日	-7.97512
似	-7.97656
遠離	-7.98067
對治	-7.98071
能立	-7.98718
稱	-7.98739
照	-7.99028
凡夫	-7.99483
集	-7.99732
發心	-8.0002
法界	-8.00114
之義	-8.00156
著	-8.0016
死	-8.00356
由此	-8.00688
外道	-8.00725
流	-8.00727
不成	-8.00839
望	-8.01047
子	-8.01262
故說	-8.01453
亦無	-8.0196
假	-8.02561
所有	-8.02718
並	-8.03836
第一	-8.0388
思	-8.039
喜	-8.04079
寶	-8.04336
根本	-8.04347
不生	-8.04399
述曰	-8.04931
塵	-8.05043
恒	-8.05065
遮	-8.05231
不離	-8.05512
二門	-8.05713
一切法	-8.05821
闕	-8.05966
究竟	-8.06042
類	-8.06088
精進	-8.0632
許	-8.06695
以此	-8.07404
音	-8.07435
標	-8.07563
皆是	-8.08274
熏習	-8.09081
遣	-8.09271
意識	-8.09422
變	-8.09674
學	-8.09849
歸	-8.10036
猶如	-8.10126
小	-8.11015
會	-8.11348
論云	-8.11644
無我	-8.11721
九	-8.1193
要	-8.12434
可知	-8.12758
於此	-8.12831
光	-8.12988
須	-8.13619
四種	-8.14363
何以故	-8.14699
。△	-8.14755
簡	-8.15132
一切眾生	-8.15147
自然	-8.15183
壞	-8.15295
造	-8.15349
化	-8.15522
自體	-8.15638
圓滿	-8.15935
隨順	-8.16105
向	-8.16156
之相	-8.16245
。【	-8.16261
度	-8.16541
貪	-8.16843
趣	-8.16957
此即	-8.16958
釋曰後	-8.17132
麁	-8.17231
顯示	-8.17768
二合	-8.17837
三種	-8.18009
無礙	-8.18096
月	-8.1826
山	-8.18634
聖	-8.18776
反	-8.18897
斯	-8.19223
且	-8.19447
比量	-8.196
圓	-8.19709
治	-8.19741
有二	-8.19795
罪	-8.19854
亦有	-8.20052
亦不	-8.20104
猶	-8.20138
遠	-8.2043
香	-8.21279
真實	-8.2131
長	-8.21362
亦爾	-8.22029
經云	-8.22085
善根	-8.22199
行者	-8.22317
菩提	-8.22344
將	-8.22374
因果	-8.22512
忍	-8.22536
形	-8.23144
福	-8.23271
增	-8.23317
增長	-8.23416
矣	-8.23561
之法	-8.23566
羅	-8.23742
不動	-8.2379
始	-8.24278
故名為	-8.24436
建立	-8.24515
安	-8.24788
全	-8.24988
智慧	-8.25085
雙	-8.25091
四相	-8.25365
不應	-8.25534
爾	-8.25576
劫	-8.25632
一一	-8.26193
瓶	-8.26211
直	-8.26746
一分	-8.27132
去	-8.27231
不知	-8.27431
二乘	-8.27653
豈	-8.27982
益	-8.28491
乘	-8.29293
波	-8.29309
為因	-8.29482
之中	-8.29545
而不	-8.29602
無相	-8.29609
四者	-8.29821
兼	-8.29872
末	-8.30591
非有	-8.30635
比丘	-8.30679
於中	-8.30891
以為	-8.30967
如來藏	-8.30978
三昧	-8.31338
凡	-8.31716
妄心	-8.31997
據	-8.32137
悟	-8.32676
業識	-8.32774
自相	-8.32791
亦名	-8.33213
足	-8.33335
利益	-8.33613
命	-8.33847
主	-8.33918
聚	-8.34819
白	-8.35505
之所	-8.35785
○	-8.35911
計	-8.35944
法性	-8.36043
若有	-8.36092
虛空	-8.36104
無漏	-8.36212
世尊	-8.3626
摩	-8.36316
廣大	-8.36779
則無	-8.36919
無所	-8.37012
家	-8.3733
此論	-8.37506
終	-8.37751
親	-8.37923
二初	-8.38083
而有	-8.38269
能生	-8.3859
所攝	-8.38665
不見	-8.3904
義故	-8.39302
習	-8.39431
禪	-8.39829
今此	-8.40872
觀察	-8.40977
亦如是	-8.41219
樹	-8.41353
徧	-8.4141
有二種	-8.41617
非是	-8.41622
若無	-8.41676
異品	-8.41775
四句	-8.42225
味	-8.42629
同品	-8.42635
現量	-8.42727
設	-8.42813
坐	-8.42914
唯識	-8.4303
百	-8.43208
影	-8.43559
竟	-8.43603
因明	-8.43966
目	-8.44017
供養	-8.44339
若人	-8.44354
光明	-8.44628
第四	-8.44685
金剛	-8.44744
邊	-8.44765
亦復如是	-8.44786
中有	-8.44809
所成	-8.45237
阿	-8.45441
魔	-8.45446
亦是	-8.45602
此二	-8.45749
常住	-8.45756
種子	-8.45786
病	-8.45799
鏡	-8.45836
無邊	-8.46101
僧	-8.46382
神	-8.46583
獨	-8.47305
如本	-8.4732
於彼	-8.47377
二義	-8.47393
甚深	-8.47523
不淨	-8.48091
漸	-8.48131
佛法	-8.48225
那先言	-8.48684
詮	-8.48691
同異	-8.48752
護	-8.4904
言說	-8.49508
達	-8.50073
若不	-8.50123
莊嚴	-8.50132
那	-8.50482
比	-8.50494
衣	-8.50581
近	-8.50863
加	-8.51187
金	-8.51233
癡	-8.51532
前後	-8.5188
國	-8.52371
思惟	-8.52549
息	-8.52688
寂	-8.53046
。」【【	-8.53739
互	-8.54108
修習	-8.54196
云何為二	-8.54363
是人	-8.54573
到	-8.54659
麤	-8.54762
最	-8.55236
現在	-8.55579
信心	-8.55741
同喻	-8.55756
絕	-8.56033
染法	-8.56181
如偈	-8.56848
千	-8.56849
寂靜	-8.56913
如實	-8.57476
不說	-8.57643
散	-8.57683
有情	-8.57811
若爾	-8.57846
不異	-8.57947
能所	-8.57993
皆悉	-8.58069
輪	-8.5809
被	-8.58473
劣	-8.5863
亦可	-8.58634
過去	-8.5896
器	-8.59188
智者	-8.59415
普	-8.59661
之心	-8.60028
尊	-8.60149
巳說	-8.60287
行相	-8.6074
大悲	-8.60956
所見	-8.60999
法門	-8.61055
名字	-8.61105
不空	-8.61168
過失	-8.61192
墮	-8.6133
表	-8.61395
真如門	-8.61842
所言	-8.61923
此是	-8.62162
退	-8.62206
相似	-8.62585
如何	-8.6278
此則	-8.62851
經說	-8.63339
是為	-8.63503
道理	-8.63606
覆	-8.63906
釋曰	-8.64018
往	-8.6427
花	-8.64294
含	-8.64473
如是等	-8.64522
不斷	-8.64589
異相	-8.64841
蓋	-8.65094
所起	-8.65171
以下	-8.65267
十種	-8.65538
部	-8.65544
心體	-8.65882
像	-8.66023
事識	-8.66053
手	-8.66124
小乘	-8.66163
亦應	-8.66354
待	-8.66413
、	-8.66601
不善	-8.66614
而為	-8.66654
未來	-8.66697
由是	-8.67246
體相	-8.67543
異喻	-8.67581
色等	-8.67625
悲	-8.681
正法	-8.68455
成立	-8.68471
瞋	-8.68635
高	-8.68671
伹	-8.68894
幻	-8.6905
情	-8.69142
義也	-8.69532
復有	-8.69777
口	-8.70033
即此	-8.7021
根本無明	-8.70429
然此	-8.7076
爾時	-8.70898
進	-8.71097
尚	-8.71317
無別	-8.71522
雖有	-8.71706
十二	-8.71946
如前	-8.72025
存	-8.72038
燒	-8.72081
微細	-8.72215
應知	-8.72345
又云	-8.72665
堅	-8.72748
法中	-8.7277
居	-8.72917
華	-8.73007
無念	-8.73217
惱	-8.73561
虗空	-8.73762
真心	-8.73925
久	-8.74019
窮	-8.74195
無始	-8.74531
三界	-8.74584
五陰	-8.74631
唯心	-8.74655
四大	-8.74891
此義	-8.75064
最勝	-8.75262
五者	-8.75287
染心	-8.75372
珠	-8.75421
不退	-8.7553
辯	-8.75584
王言	-8.75749
雜	-8.75779
獲	-8.75907
微	-8.76229
頭	-8.76305
能起	-8.76359
世界	-8.76429
并	-8.76652
請	-8.76689
此謂	-8.76743
佛言	-8.76745
況	-8.7677
了知	-8.76784
三寶	-8.76855
囉	-8.76925
不共	-8.77002
不許	-8.77063
勸	-8.77185
果報	-8.77199
▁三	-8.77256
不起	-8.77271
諦	-8.77281
若言	-8.77322
正因	-8.7744
寂滅	-8.77452
畢竟	-8.77469
因喻	-8.77654
依此	-8.77656
緣起	-8.77724
本曰	-8.77823
闇	-8.77985
如此	-8.78173
或有	-8.78215
陀	-8.78222
能破	-8.78269
作意	-8.78287
諸眾生	-8.78359
此初也	-8.78373
陰	-8.78539
生滅門	-8.78651
隨緣	-8.78899
地獄	-8.79049
一念	-8.79249
亂	-8.79266
不相應	-8.79325
現前	-8.79359
名曰	-8.79538
斯則	-8.79744
婆	-8.79794
般若	-8.80027
十地	-8.80035
年	-8.80095
通達	-8.80228
相故	-8.80238
乎	-8.80331
而生	-8.8041
間	-8.80521
問答	-8.80843
亦非	-8.80885
所生	-8.81172
說法	-8.81381
此明	-8.81481
易	-8.81885
三相	-8.82103
有三種	-8.82127
過患	-8.82267
伏	-8.82364
各有	-8.82424
支	-8.82604
下釋	-8.82745
象	-8.82756
一時	-8.82895
已說	-8.8313
卷	-8.83257
十信	-8.83512
藥	-8.83534
好	-8.83555
淨法	-8.83825
機	-8.83889
寧	-8.83918
害	-8.84018
無體	-8.84139
有無	-8.84162
名之為	-8.8439
現識	-8.84535
止觀	-8.84541
我今	-8.85106
所緣	-8.85111
別釋	-8.85207
者即	-8.85263
五種	-8.85517
此云	-8.85553
不變	-8.85556
解釋	-8.85687
第七	-8.85728
燈	-8.85739
偏	-8.85927
本來	-8.85974
發起	-8.86277
配	-8.86313
輕	-8.8654
收	-8.86548
縛	-8.86753
論文	-8.8703
隱	-8.8712
佛說	-8.87185
置	-8.87306
城	-8.87462
怖	-8.87535
於中有二	-8.87554
無盡	-8.87865
但是	-8.88033
脩	-8.88059
厭	-8.88073
蘊	-8.88134
色相	-8.88219
不了	-8.88339
.	-8.88428
焉	-8.88495
能見	-8.88543
第五	-8.88623
有性	-8.88747
邪見	-8.88903
又若	-8.88928
帝	-8.89533
女	-8.89581
無為	-8.89697
無異	-8.8986
歡喜	-8.89904
1	-8.90118
如人	-8.90176
遂	-8.90253
如說	-8.9026
母	-8.90293
大海	-8.9039
熱	-8.90666
法體	-8.9073
經中	-8.90848
次說	-8.90962
本無	-8.91186
半	-8.91326
其相云何	-8.91336
述	-8.91381
諸天	-8.91396
齊	-8.91541
中間	-8.91658
妄念	-8.92023
阿羅漢	-8.92155
有三	-8.92169
業相	-8.922
自他	-8.92235
極成	-8.92324
不可說	-8.92488
返	-8.92675
而無	-8.92855
例	-8.92862
出生	-8.93025
下文	-8.93119
頌	-8.93143
不二	-8.936
相者	-8.93711
傳	-8.93727
廣說	-8.93809
轉識	-8.94308
不壞	-8.94309
之因	-8.94543
眷屬	-8.94817
受用	-8.94904
那先	-8.94907
十方	-8.94986
慈	-8.95246
垢	-8.9529
摩訶衍	-8.95535
顯現	-8.95776
最上	-8.95834
假名	-8.95864
新	-8.9592
是則	-8.95983
彰	-8.95996
沒	-8.96045
又此	-8.96074
龍	-8.96177
顛倒	-8.96179
非謂	-8.96227
沙門	-8.96315
聲聞	-8.9632
故曰	-8.96347
剎那	-8.96364
實有	-8.96417
誦	-8.96509
故得	-8.96545
萬	-8.96566
是其	-8.96706
意云	-8.96897
生起	-8.96962
夫	-8.96979
頂	-8.97326
牒	-8.97414
決	-8.97552
眼識	-8.97681
恐	-8.9798
非一	-8.98111
靜	-8.98122
可見	-8.98125
又如	-8.98366
敬	-8.98466
此因	-8.98474
應當	-8.9862
而起	-8.98876
一切諸法	-8.98972
莫	-8.99061
致	-8.99108
隨一	-8.99172
無餘	-8.99308
一向	-8.99315
殺	-8.99322
讚	-8.99323
禮	-8.99415
二相	-8.9944
生相	-8.99594
勿	-8.99642
感	-8.99715
熟	-8.99736
以是	-8.99758
其心	-8.99877
鬼	-8.99981
備	-9.00063
說為	-9.00069
菩提心	-9.0013
門中	-9.0035
第八	-9.00366
縱	-9.00476
出離	-9.00544
能成	-9.00579
夢	-9.00628
毀	-9.00705
唯有	-9.00887
正理	-9.0118
此識	-9.01288
而得	-9.01397
迦	-9.01423
誰	-9.01433
強	-9.01538
迴向	-9.01644
是時	-9.01884
木	-9.02044
翻	-9.02279
契	-9.02308
殊	-9.024
皆有	-9.02585
何以	-9.02604
法者	-9.02703
路	-9.03103
是常	-9.032
同一	-9.03272
財	-9.03353
安住	-9.03368
十六	-9.03533
尋	-9.03564
真妄	-9.03571
石	-9.03603
科	-9.03784
超	-9.04105
之人	-9.04112
無二	-9.04419
雲	-9.0447
譯	-9.045
何等	-9.04548
依止	-9.04584
古	-9.04659
一體	-9.04782
無生	-9.04859
既無	-9.04962
懈怠	-9.05313
佛性	-9.05416
見佛	-9.05652
能知	-9.05664
救	-9.05744
準	-9.0584
車	-9.06011
功	-9.06072
於是	-9.06162
列	-9.06174
有所	-9.06217
礙	-9.0622
無性	-9.06279
陳那	-9.06408
此文	-9.06416
三細	-9.06424
有漏	-9.06465
相也	-9.06493
七識	-9.06623
昔	-9.06675
揀	-9.06697
興	-9.06756
宜	-9.06757
依於	-9.06875
本識	-9.06892
有二初	-9.06926
面	-9.0709
助	-9.07234
體性	-9.07341
倒	-9.07459
唯是	-9.0753
二法	-9.07567
末那	-9.07725
憶	-9.07725
准	-9.07787
三世	-9.07853
何得	-9.07895
夜	-9.0814
宗因	-9.08364
中說	-9.08372
義者	-9.08413
號	-9.08655
不然	-9.08689
略說	-9.08895
亡	-9.09124
能緣	-9.09297
之言	-9.09325
遇	-9.09406
而能	-9.09481
不滅	-9.09506
有四	-9.09522
父母	-9.09536
旨	-9.09959
殊勝	-9.10083
第六	-9.10097
以有	-9.10137
經中說	-9.10143
力故	-9.10193
造論	-9.10197
頌曰	-9.10224
印	-9.10417
林	-9.10556
犯	-9.1061
宗法	-9.10802
不可得	-9.10803
如經中說	-9.10812
謗	-9.10851
不言	-9.11031
後二	-9.11127
法故	-9.11168
己	-9.11197
飲食	-9.11372
則不	-9.11447
速	-9.11751
二釋	-9.11791
不思議	-9.11813
徵	-9.11953
釋成	-9.12014
流轉	-9.12271
永	-9.12274
亦復	-9.12706
無上	-9.12969
牛	-9.13005
諸行	-9.13085
能現	-9.13202
章	-9.13237
元	-9.13284
受持	-9.13287
即無	-9.13411
互相	-9.13445
下明	-9.1349
欲界	-9.13634
2	-9.13688
俗	-9.13726
却	-9.13744
不捨	-9.13763
一味	-9.13911
能依	-9.14199
能令	-9.14552
為一	-9.14686
總相	-9.14792
令其	-9.14932
所證	-9.15225
若以	-9.15282
此法	-9.15335
苦樂	-9.15515
舍	-9.15565
我見	-9.15649
諸菩薩	-9.15684
不爾	-9.15738
是心	-9.1574
虛	-9.15782
只	-9.1583
總標	-9.15894
先明	-9.16042
能別	-9.16232
頓	-9.16379
無不	-9.16383
陳	-9.16476
不信	-9.16546
若離	-9.16576
不出	-9.16683
安立	-9.16696
法執	-9.16697
甚	-9.16716
此義云何	-9.16724
共相	-9.16846
不取	-9.1685
所知	-9.16865
土	-9.16894
聖人	-9.16942
清	-9.16956
弟子	-9.17004
所得	-9.17058
老	-9.17142
即前	-9.17199
而言	-9.17221
初地	-9.17343
滿足	-9.17356
本有	-9.17383
有人	-9.17426
說名	-9.17498
之體	-9.17583
出家	-9.17874
泥洹	-9.17916
源	-9.18258
成佛	-9.18417
各各	-9.18522
分齊	-9.18577
禪定	-9.1858
際	-9.18587
慢	-9.18847
是事	-9.18903
從此	-9.19004
自心	-9.19186
心性	-9.19555
審	-9.19595
梵	-9.19613
可得	-9.19681
所入	-9.19827
念念	-9.19959
為宗	-9.19968
提	-9.20054
尼	-9.20062
六者	-9.20067
汝言	-9.20158
改	-9.20195
和	-9.20301
聽	-9.20538
善法	-9.20542
一法	-9.20595
繫	-9.20728
持戒	-9.20754
善惡	-9.20814
之時	-9.21042
布施	-9.21128
憂	-9.21139
位中	-9.21468
所作性	-9.2179
馬	-9.21811
曾	-9.21916
青	-9.21956
所詮	-9.21966
滅相	-9.21983
偈	-9.22193
一種	-9.22212
是中	-9.22238
身心	-9.2224
作用	-9.22323
不為	-9.22385
于	-9.22427
貪欲	-9.22447
轉相	-9.22458
此釋	-9.228
佛果	-9.22803
節	-9.22858
心所	-9.22978
勤	-9.23043
嚩	-9.23069
此說	-9.23203
密	-9.23328
何者	-9.23465
西	-9.23578
於諸	-9.23934
所行	-9.24048
大王	-9.24097
咸	-9.24115
文中	-9.24178
此心	-9.24266
立義	-9.2429
無實	-9.24317
微塵	-9.24319
權	-9.24415
冥	-9.24462
玄	-9.24592
歎	-9.24719
有體	-9.24736
里	-9.24872
唯一	-9.24981
功能	-9.25092
鼻	-9.25102
性故	-9.2511
恭敬	-9.25133
能作	-9.25158
以彼	-9.25169
妄想	-9.25182
諸根	-9.25214
周	-9.25444
能入	-9.25494
一相	-9.2565
有為	-9.25811
亦如	-9.25824
骨	-9.25829
耶答	-9.25912
調	-9.2606
是名為	-9.26084
寬	-9.26184
正念	-9.26545
損	-9.2696
守護	-9.26992
以明	-9.27065
但說	-9.27247
極微	-9.27437
四諦	-9.27741
愚癡	-9.27794
則有	-9.27812
論主	-9.27817
六識	-9.27846
都	-9.2836
三句	-9.28488
行人	-9.28565
初禪	-9.2872
資	-9.28749
河	-9.28809
此三	-9.28961
脫	-9.29067
離於	-9.2909
不生滅	-9.2909
內外	-9.29603
得入	-9.29689
若依	-9.29699
緣生	-9.29701
利他	-9.29803
皆名	-9.29839
減	-9.29863
釋云	-9.29908
智相	-9.3
所現	-9.30031
融	-9.30036
諸識	-9.30257
父	-9.30273
生滅門中	-9.30318
是也	-9.30324
判	-9.30548
上下	-9.30613
切	-9.30711
以無	-9.30776
本性	-9.31052
三藏	-9.31188
用大	-9.3137
又復	-9.31426
少分	-9.3155
壽命	-9.31717
又說	-9.31831
出世	-9.31857
亦然	-9.31899
惡業	-9.32069
論中	-9.3219
別明	-9.32197
地前	-9.3229
謂此	-9.32401
偈曰	-9.32433
得成	-9.32512
毒	-9.32514
怖畏	-9.32701
報身	-9.328
段	-9.32867
分明	-9.32934
神通	-9.33148
故有	-9.33393
正智	-9.33482
越	-9.33515
何所	-9.33702
心法	-9.33783
0	-9.33826
得名	-9.33836
瞋恚	-9.33888
造作	-9.33923
幾	-9.33955
善知識	-9.33992
乖	-9.34013
十一	-9.34085
隨其	-9.34095
三乘	-9.34108
畏	-9.34174
廣釋	-9.34296
此約	-9.3431
恩	-9.34335
五識	-9.34351
不立	-9.34408
伽	-9.34415
眾生心	-9.34452
壽	-9.34467
有異	-9.34579
底	-9.34792
棄	-9.3484
展轉	-9.34848
差	-9.34867
悉皆	-9.35174
此等	-9.35332
更無	-9.35548
容	-9.35778
解云	-9.35985
若說	-9.36009
呪	-9.36161
詳	-9.3621
此顯	-9.36243
音聲	-9.36251
地上	-9.36414
堅固	-9.36582
見分	-9.36681
是無常	-9.36687
總結	-9.36749
舌	-9.36869
野	-9.36911
信解	-9.36916
能熏	-9.36919
敘	-9.36934
法也	-9.36939
質	-9.3709
立者	-9.37149
故下文云	-9.37165
三大	-9.37237
正釋	-9.37295
東	-9.37758
文云	-9.38173
則是	-9.38178
無所有	-9.38296
消	-9.38298
呵	-9.38488
云何名為	-9.38511
有四種	-9.38624
申	-9.38759
初標	-9.38894
業報	-9.38961
承	-9.39118
不名	-9.39197
背	-9.392
得生	-9.39301
3	-9.39432
以顯	-9.39508
各別	-9.39534
令起	-9.39658
仍	-9.39877
正見	-9.39903
初明	-9.40046
瓶等	-9.40075
怨	-9.40078
而非	-9.40245
毛	-9.40256
共許	-9.40325
其身	-9.4055
現相	-9.40706
異故	-9.40742
氣	-9.408
障礙	-9.40921
色界	-9.40971
初釋	-9.41068
分別事識	-9.41087
悔	-9.4115
但以	-9.41189
其體	-9.4122
有二義	-9.41224
有一	-9.41261
此下	-9.41408
八種	-9.41417
哉	-9.41425
親近	-9.41436
故今	-9.41645
十五	-9.41654
實無	-9.41753
麤細	-9.4176
六塵	-9.41942
性德	-9.42116
婆羅門	-9.42229
無量無邊	-9.42374
烟	-9.42551
執著	-9.42679
不相捨離	-9.42728
與彼	-9.42799
精	-9.42807
肉	-9.42815
宣說	-9.42908
謂於	-9.42955
未得	-9.43019
及與	-9.43025
誠	-9.43053
網	-9.43071
敵	-9.43097
示現	-9.43132
而說	-9.43199
云何為三	-9.4326
之性	-9.43371
二障	-9.43397
寺	-9.43432
池	-9.43445
安樂	-9.43468
愚	-9.43468
正明	-9.43642
狹	-9.43647
方得	-9.43655
舊	-9.43665
無間	-9.43698
誹謗	-9.43764
無過	-9.43767
若於	-9.43894
a	-9.43901
本法	-9.43935
園	-9.43983
不失	-9.43987
何有	-9.43988
之智	-9.44385
謂由	-9.44596
所依不成	-9.44628
二十	-9.44667
非無	-9.4468
眼等	-9.4493
六種	-9.45105
因中	-9.45124
故不	-9.45135
第十	-9.45252
逆	-9.45267
怛	-9.45335
談	-9.45411
十八	-9.45505
為欲	-9.45543
心也	-9.45574
由旬	-9.45612
相分	-9.45732
橫	-9.45817
角	-9.45861
心境	-9.46325
前二	-9.46562
住持	-9.46689
斷除	-9.4669
故無	-9.46693
次釋	-9.46709
徵釋	-9.46758
真體	-9.46904
該	-9.46945
尸	-9.46946
現行	-9.47258
愛樂	-9.47367
懷	-9.476
穢	-9.47622
之用	-9.47771
我執	-9.47995
雨	-9.4801
虛妄	-9.48069
草	-9.48083
現見	-9.48256
等諸	-9.48346
覺義	-9.48372
七者	-9.48601
無色	-9.48797
釋曰次	-9.48846
或以	-9.48888
藏識	-9.48931
問云何	-9.49069
名言	-9.4915
鳥	-9.49274
國土	-9.49426
一切智	-9.4946
上來	-9.49504
淨心	-9.49511
續	-9.49517
別相	-9.4954
等也	-9.49572
住相	-9.49583
諍	-9.49674
不實	-9.49679
無因	-9.49722
濕	-9.4981
威儀	-9.49857
立名	-9.49972
本論	-9.49988
善男子	-9.50094
十四	-9.50144
暗	-9.50308
不可思議	-9.50357
體用	-9.50362
不相離	-9.50501
得解脫	-9.50641
有此	-9.5068
帶	-9.50681
隨應	-9.50736
者謂	-9.50854
正行	-9.50904
書	-9.50996
猶豫	-9.51249
福德	-9.51404
不生不滅	-9.51466
發菩提心	-9.51486
本末	-9.51512
葉	-9.51518
心識	-9.51526
別解	-9.51593
制	-9.51679
中初	-9.51736
惠	-9.51824
華嚴	-9.51827
飲	-9.51832
初一	-9.5188
□	-9.5188
不復	-9.519
終不	-9.51967
諸煩惱	-9.52043
別有	-9.52076
其義	-9.52132
說有	-9.52146
魔事	-9.52272
住處	-9.52277
滅故	-9.52291
覺觀	-9.52415
於他	-9.52431
慮	-9.52458
非異	-9.52499
一切諸	-9.52517
二字	-9.52521
同時	-9.52527
正顯	-9.52545
若能	-9.52604
意許	-9.52654
業障	-9.52694
黑	-9.52752
馬鳴	-9.52832
三賢	-9.52838
毘	-9.52936
奉	-9.53058
不與	-9.53143
五十	-9.53143
貪著	-9.53146
然後	-9.53165
有過	-9.5325
後一	-9.53267
法爾	-9.53335
開示	-9.53355
患	-9.53363
無分別	-9.53393
此言	-9.53575
妄法	-9.53652
八地	-9.53696
故成	-9.53711
所造	-9.54104
俱生	-9.54154
視	-9.54188
同法	-9.54195
語言	-9.54302
難云	-9.54343
尊重	-9.5441
梨耶	-9.54438
可愛	-9.54472
正定	-9.54595
不作	-9.54597
內熏	-9.54644
離念	-9.54687
數量	-9.54689
攝受	-9.54818
謂有	-9.5482
亦得	-9.54842
不相違	-9.54846
是事不然	-9.54866
契經	-9.54901
說言	-9.54926
今言	-9.54948
論說	-9.55254
潤	-9.55266
虗	-9.5534
同體	-9.55488
宮	-9.55511
守	-9.55546
但言	-9.55599
所作性故	-9.55612
離相	-9.55629
所執	-9.55648
契經中作如是說	-9.55859
一人	-9.5586
外緣	-9.55908
之行	-9.55951
服	-9.56052
作業	-9.56063
疏云	-9.5608
為緣	-9.56426
盛	-9.56666
離諸	-9.56669
忘	-9.56748
南	-9.56837
推	-9.5686
八識	-9.56866
成宗	-9.5689
色心	-9.56986
瑜伽	-9.57007
轉故	-9.57119
滅者	-9.57156
室	-9.57178
此事	-9.57181
所熏	-9.57193
後顯	-9.57243
即有	-9.57304
非真	-9.57349
不著	-9.57418
淺	-9.57424
薄	-9.57427
不依	-9.57472
百千	-9.57549
原	-9.57633
如下	-9.57732
若見	-9.57739
譬喻	-9.57757
是菩薩	-9.57781
諸佛菩薩	-9.57805
似因	-9.57824
令彼	-9.57833
前文	-9.5784
佛地	-9.57909
別故	-9.57926
声	-9.57992
疾	-9.57995
八者	-9.58073
生因	-9.58136
有義	-9.58209
貫	-9.58267
心生	-9.58339
體大	-9.58359
無住	-9.58375
沙	-9.58499
總別	-9.58515
舉體	-9.586
生故	-9.58602
嚴	-9.58615
不須	-9.5867
兩俱	-9.58747
倍	-9.58755
調伏	-9.58773
首	-9.58884
一切入	-9.58901
是法	-9.58906
焰	-9.58941
不住	-9.59006
此身	-9.59058
深心	-9.59069
恒沙	-9.59207
一法界	-9.59239
以依	-9.59275
業用	-9.59289
如次	-9.59296
落	-9.59297
中道	-9.59567
破壞	-9.59643
人天	-9.59658
自許	-9.59753
起信	-9.59796
真理	-9.59817
大義	-9.59916
釋上	-9.59918
大有	-9.59938
初相	-9.59988
楞伽	-9.60166
法相	-9.6019
五根	-9.60201
但有	-9.60527
苦惱	-9.60564
增上	-9.60601
心不	-9.60644
立宗	-9.60646
之力	-9.60738
虗妄	-9.60871
鉢	-9.60897
此四	-9.60953
為體	-9.60996
不定過	-9.61036
彌	-9.61203
宿	-9.61249
無差別	-9.61408
一云	-9.61428
故能	-9.61487
若約	-9.61509
別說	-9.61582
次下	-9.61654
不遍	-9.61729
未盡	-9.61744
譬	-9.61781
則能	-9.61851
端	-9.61861
謂依	-9.61892
覺知	-9.61906
可說	-9.61912
冷	-9.62053
寄	-9.6224
任運	-9.62294
四十	-9.62416
△	-9.62464
宣	-9.62472
妄染	-9.62618
能感	-9.62724
渴愛	-9.62977
總攝	-9.63067
如理	-9.63129
雖復	-9.63132
繁	-9.63178
不樂	-9.63209
隨染	-9.63219
泯	-9.63326
法空	-9.63421
招	-9.63433
三初	-9.63743
無記	-9.63776
自利	-9.63855
了因	-9.63857
能詮	-9.63859
刺	-9.63907
相待	-9.64081
勢	-9.64082
過也	-9.64087
所別	-9.64103
凡聖	-9.64223
演	-9.6429
真如門中	-9.64312
長者	-9.6439
取著	-9.64605
第一義	-9.64612
謂即	-9.64695
眠	-9.64763
藉	-9.64871
波羅蜜	-9.6488
阿梨耶識	-9.64904
4	-9.6502
化身	-9.65031
此人	-9.65057
是一	-9.65127
立義分	-9.6518
放逸	-9.65275
阿難	-9.6533
顕	-9.65378
一句	-9.65385
能斷	-9.65419
而作	-9.65627
覺者	-9.65717
出現	-9.65829
第一義諦	-9.65845
不以	-9.65848
鐵	-9.65855
定有	-9.65897
不分	-9.66086
定心	-9.6615
此之	-9.66186
一切皆	-9.66186
曲	-9.66261
捨離	-9.66423
無窮	-9.665
作如是說	-9.66546
真性	-9.66636
次當說	-9.66653
我慢	-9.66743
貪愛	-9.6675
無知	-9.66849
中有二	-9.66898
有何	-9.67019
前說	-9.67068
美	-9.67136
薰	-9.67148
體故	-9.67232
心故	-9.67264
四義	-9.67267
偈言	-9.67405
常無常	-9.67494
志	-9.67718
徒	-9.67722
無數	-9.67756
欲令	-9.67773
憶念	-9.67874
或復	-9.67938
得道	-9.67953
我當	-9.6798
今既	-9.67997
其相	-9.68007
暫	-9.68036
如上	-9.68049
彼此	-9.68194
漏	-9.68239
拔	-9.68292
疑惑	-9.68296
依心	-9.68321
五塵	-9.68414
之意	-9.68424
智淨相	-9.6854
勇猛	-9.68577
能攝	-9.68645
及諸	-9.68662
自身	-9.68701
體也	-9.68847
別異	-9.6893
心相	-9.6894
依前	-9.68999
又以	-9.69011
理門	-9.69127
受生	-9.69168
缺	-9.69219
覩	-9.69294
等法	-9.69351
如彼	-9.69384
No	-9.69441
上文	-9.69569
微妙	-9.69672
心中	-9.6982
運	-9.69885
之本	-9.69887
二喻	-9.69918
修止	-9.69992
慈悲	-9.70062
猶預	-9.70095
住地	-9.70102
慳	-9.70168
敵者	-9.70392
心起	-9.7043
真如三昧	-9.70454
不現	-9.70538
留	-9.70593
為相	-9.70647
單	-9.70682
以其	-9.70694
泥	-9.70704
唱	-9.70704
顯其	-9.70732
前三	-9.70776
所化	-9.70869
如其次第	-9.70941
中無	-9.70977
後重	-9.71006
而成	-9.71067
布	-9.71198
諸有情	-9.71318
生於	-9.71336
因也	-9.71364
俱有	-9.71449
皆為	-9.71452
總舉	-9.71501
濫	-9.71567
何況	-9.71588
一切世間	-9.71665
辭	-9.71667
對治邪執	-9.71671
枝	-9.71774
之境	-9.71815
盜	-9.71872
刀	-9.71873
此亦	-9.71883
何不	-9.71906
正覺	-9.71937
隨所	-9.71949
責	-9.72026
由彼	-9.72217
始終	-9.72391
又經中說	-9.72461
佛身	-9.72513
而實	-9.72542
洲	-9.726
未曾	-9.72604
師子	-9.72613
聲無常	-9.7264
今初	-9.7264
總名	-9.72674
心無	-9.72791
快樂	-9.72855
詞	-9.72891
法師	-9.73023
門者	-9.73036
何須	-9.73238
皮	-9.73292
皆以	-9.73336
歲	-9.73375
常恒	-9.73413
逐	-9.73449
邪執	-9.73456
尾	-9.73467
謂若	-9.73487
俱不成	-9.73497
云何為四	-9.73522
此意	-9.73585
免	-9.73605
空無	-9.73606
離欲	-9.73607
若是	-9.73649
利根	-9.73693
趣向	-9.73732
行處	-9.7375
中言	-9.73769
積聚	-9.73783
中亦二	-9.73784
論師	-9.73829
二合引	-9.73995
謬	-9.73998
四法	-9.74061
明了	-9.74315
六染	-9.74366
何等為	-9.74563
座	-9.74578
心外	-9.74649
成熟	-9.74672
如言	-9.74826
結成	-9.74869
男女	-9.75073
所明	-9.75113
短	-9.75126
有其	-9.75133
以心	-9.75153
皆由	-9.75165
引證	-9.75251
遊	-9.75274
十住	-9.75342
去來	-9.75365
辨相	-9.75397
二句	-9.75413
更有	-9.7545
具有	-9.75633
之宗	-9.75784
訖	-9.75862
奪	-9.75895
妄境	-9.76011
他人	-9.76116
故須	-9.76178
良以	-9.76243
女人	-9.76258
大小	-9.76272
赤	-9.76422
賢	-9.76477
浮	-9.7652
一義	-9.76532
動念	-9.76601
輪迴	-9.76702
之上	-9.76741
巳上	-9.76756
九者	-9.76788
為彼	-9.76826
初句	-9.76848
總持	-9.77001
五欲	-9.7709
證得	-9.77092
未能	-9.77182
悅	-9.77308
種類	-9.77345
無作	-9.7736
無自性	-9.77414
其因	-9.77614
不自	-9.77723
名色	-9.7779
復說	-9.77873
九相	-9.77879
五蘊	-9.77884
應身	-9.77923
法寶	-9.77955
積	-9.78127
為顯	-9.78162
自性差別	-9.78257
學者	-9.78259
因云	-9.78273
所作性因	-9.78277
世俗	-9.78315
故非	-9.78404
俱非	-9.78467
生滅相	-9.78479
從本巳來	-9.78543
心源	-9.78601
同相	-9.78657
兩俱不成	-9.78689
▁【	-9.78696
不違	-9.78735
非實	-9.78773
善行	-9.78861
性相	-9.78922
眼根	-9.7893
異法	-9.78931
漸漸	-9.78936
一切煩惱	-9.78972
徹	-9.79017
仰	-9.79093
呼	-9.79116
迴	-9.79146
顯示正義	-9.7941
題	-9.79418
即名	-9.79426
所量	-9.79438
彼坐禪人	-9.79501
不覺義	-9.7951
必有	-9.79722
田	-9.79755
此名	-9.79763
列名	-9.79825
日月	-9.7985
云何為	-9.79852
億	-9.7987
空義	-9.7987
牽	-9.7988
諸惡	-9.799
四禪	-9.799
者即是	-9.7992
無畏	-9.80023
巳下	-9.80042
能得	-9.80043
是有法	-9.80083
有差別	-9.80102
安隱	-9.8011
若得	-9.80159
相對	-9.80166
取相	-9.80226
濟	-9.8028
我等	-9.80444
所成立	-9.8047
巧	-9.80495
不相	-9.80698
命終	-9.8072
茲	-9.80722
清涼	-9.80803
隔	-9.80861
說名為	-9.80922
二因	-9.80973
戲論	-9.81056
所顯	-9.81217
賊	-9.81283
寂寂	-9.8138
萬行	-9.81492
南無	-9.81636
業果	-9.81686
則為	-9.81732
散亂	-9.81738
薩	-9.818
浪	-9.82076
所取	-9.82104
局	-9.82199
煩惱障	-9.8223
黃	-9.82235
蓮華	-9.82313
攝一切	-9.82316
下二	-9.82322
有五	-9.82455
之名	-9.82547
》	-9.8255
《	-9.82553
其中	-9.82707
修行信心分	-9.8272
加行	-9.82722
且如	-9.82813
北	-9.82896
七種	-9.82999
或可	-9.83
即顯	-9.83026
歷	-9.83084
立量	-9.83108
相違決定	-9.83151
鼓	-9.83153
資糧	-9.83182
真諦	-9.83199
或為	-9.83287
惡道	-9.83373
俱是	-9.8341
古師	-9.83572
簡別	-9.83607
無障礙	-9.8364
大願	-9.83718
如是以	-9.83757
但為	-9.83818
梵行	-9.83838
得自在	-9.83864
乾	-9.83883
引經	-9.83893
岸	-9.8394
者意云	-9.83958
鹿	-9.83977
如前所說	-9.83981
曉	-9.84008
濁	-9.84016
三摩地	-9.84082
弘	-9.84082
於佛	-9.84126
天人	-9.84181
不在	-9.84263
亦能	-9.84303
娑	-9.84303
若法	-9.84318
未有	-9.84356
勤修	-9.84387
一處	-9.84418
若心	-9.8442
皆依	-9.84476
宗中	-9.84528
是無	-9.84541
最後	-9.8466
豈非	-9.84698
忍辱	-9.84698
思之	-9.84733
今以	-9.84768
見道	-9.84829
罪人	-9.84838
稽首	-9.84875
為他	-9.84898
有六	-9.84949
周遍	-9.85097
轉勝	-9.85173
正觀	-9.85288
一切染法	-9.85304
此中有二	-9.8532
菩薩摩訶薩	-9.85357
總明	-9.85394
令他	-9.85495
起信論	-9.85503
所聞	-9.85521
誐	-9.85552
貴	-9.85592
不攝	-9.85665
靈	-9.85677
外境	-9.857
奢摩他	-9.85871
能觀	-9.85952
同類	-9.85993
後三	-9.86023
以何義故	-9.86059
如水	-9.86061
遍滿	-9.8607
初總標	-9.86086
汝說	-9.86138
次明	-9.86269
一百	-9.86311
無能	-9.86391
但取	-9.86446
喜樂	-9.8654
分二	-9.86641
諸業	-9.86907
應化	-9.8695
軍	-9.87234
放	-9.87253
所發	-9.87321
髮	-9.87323
沈	-9.87378
於一	-9.87415
廢	-9.8742
二明	-9.87461
以成	-9.87776
意業	-9.8788
七日	-9.87901
處處	-9.87903
渴	-9.87905
是苦	-9.87938
尊者	-9.8796
則知	-9.88011
解行	-9.88026
受樂	-9.88047
但隨	-9.88137
告	-9.88143
唯取	-9.88148
若據	-9.88151
聖道	-9.88184
前云	-9.8819
饒益	-9.88286
即為	-9.88425
若有眾生	-9.88431
諸佛如來	-9.88531
十者	-9.88535
專	-9.88569
空等	-9.88583
三分	-9.88659
即當	-9.88688
性功德	-9.88741
如幻	-9.88797
有火	-9.88813
佛世尊	-9.88902
纏	-9.88951
一切處	-9.89013
詣	-9.89049
皆無	-9.89073
一切境界	-9.89093
平	-9.89132
盡故	-9.8914
見愛	-9.89199
為喻	-9.89241
相即	-9.89255
實相	-9.89392
因緣故	-9.89453
值	-9.89571
三業	-9.89672
打	-9.89997
導	-9.89998
憍慢	-9.9005
問何故	-9.90061
數論	-9.90108
勝論	-9.90208
怯弱	-9.90272
既是	-9.90308
苦諦	-9.90314
善人	-9.90333
脩行	-9.90337
二覺	-9.90368
非一非異	-9.90419
哩	-9.90467
離言	-9.90659
理事	-9.90677
因者	-9.90752
自有	-9.90759
脚	-9.90813
初二	-9.90813
既不	-9.90964
稍	-9.91046
遷	-9.91156
生長	-9.91217
鈍根	-9.91226
妄執	-9.91436
未生	-9.91458
相違因	-9.9148
亦說	-9.91498
富	-9.915
因故	-9.91514
成正覺	-9.91553
即成	-9.91553
於前	-9.91577
授	-9.91585
但云	-9.91596
實性	-9.91665
勝義	-9.91666
念佛	-9.91687
見聞	-9.91692
是有	-9.91693
訶	-9.91758
偈云	-9.91807
左	-9.91865
不定聚	-9.91875
長時	-9.91884
叉	-9.91978
性淨	-9.91989
信位	-9.9199
限	-9.92006
三身	-9.92066
歸命	-9.92088
住於	-9.92134
不如	-9.92213
非法	-9.92342
帝釋	-9.92432
念念滅	-9.9248
以一	-9.92485
獲得	-9.92546
等相	-9.92568
此門	-9.92591
見者	-9.92662
陀羅尼	-9.92692
能取	-9.92717
義理	-9.92738
如其	-9.92762
妨	-9.92854
之過	-9.92857
惡趣	-9.93017
之理	-9.9302
種性	-9.93064
時中	-9.93069
7	-9.931
乃至廣說故	-9.9313
似破	-9.93133
證真	-9.93171
立敵	-9.932
隨喜	-9.93279
真如法	-9.93291
相大	-9.93324
第九	-9.93336
第七識	-9.93397
入涅槃	-9.93443
忽	-9.93514
有三初	-9.93608
擊	-9.9361
正解	-9.93619
檀	-9.93683
亦即	-9.93704
代	-9.93729
之事	-9.93772
眾多	-9.93777
厚	-9.93779
即能	-9.9385
黎耶	-9.93859
讚歎	-9.9387
實等	-9.93919
皆非	-9.94123
其猶	-9.94195
所修	-9.94336
有非有	-9.94341
法自相	-9.9439
無差	-9.94444
准此	-9.94459
須陀洹	-9.94463
無自體	-9.94475
殘	-9.94504
覺故	-9.94579
穀	-9.94603
律	-9.94606
習氣	-9.94633
相符	-9.94676
最初	-9.94726
稱讚	-9.94791
大眾	-9.94834
邪定	-9.94849
趣入	-9.94912
從本已來	-9.94939
多言	-9.94943
畜生	-9.94945
此上	-9.94972
繫縛	-9.95004
六十	-9.95033
群	-9.95231
大覺	-9.95274
後釋	-9.95419
投	-9.95438
又於	-9.95457
吉祥	-9.95502
其所	-9.95531
初中	-9.95601
動靜	-9.95632
形相	-9.95661
煩	-9.9567
如前說	-9.95873
不解	-9.95978
復生	-9.95981
如空	-9.96046
無明住地	-9.96067
能證	-9.96076
戲	-9.9609
不具	-9.96112
解脫道	-9.96165
聖諦	-9.96389
虫	-9.96404
三聚	-9.96415
異熟	-9.96462
起滅	-9.96467
三義	-9.96493
凡夫二乘	-9.96518
曩	-9.96525
揚	-9.96548
從彼	-9.96659
符	-9.96736
立義分中	-9.96779
依他	-9.96821
思量	-9.96878
與前	-9.969
我所	-9.96915
雖不	-9.96934
以何	-9.96968
是謂	-9.97066
後得智	-9.97093
不待	-9.97094
第八識	-9.97149
無常等	-9.9715
心念	-9.97171
何義	-9.9726
於同品	-9.97269
讀	-9.97292
或有眾生	-9.97329
異者	-9.97352
諸有	-9.97358
本自	-9.97368
故論云	-9.97448
淨用	-9.97455
受苦	-9.9754
懸	-9.97548
至於	-9.97784
釋曰三	-9.97887
聞法	-9.97943
大師	-9.97964
喻中	-9.97986
供	-9.98009
無力	-9.98021
中間有	-9.98036
過者	-9.98088
8	-9.98092
煩惱礙	-9.981
大乘起信論	-9.98114
所觀	-9.98143
魚	-9.98255
不是	-9.98261
疏中	-9.98279
養	-9.98322
軌	-9.98334
所歸	-9.98487
降	-9.98491
唐	-9.98545
破戒	-9.98568
邪正	-9.98626
覺了	-9.98659
皆得	-9.98667
三支	-9.98698
世諦	-9.98756
作此	-9.98889
傍	-9.98903
生時	-9.98909
差別故	-9.98981
此偈	-9.99061
心王	-9.99108
有我	-9.99169
俱名	-9.9921
飛	-9.99304
剡浮提	-9.99312
於中有三	-9.99352
乳	-9.99396
方成	-9.99396
別立	-9.99452
祖	-9.99498
無違	-9.99516
我說	-9.99581
釋迦	-9.99602
不可得故	-9.99615
亦名為	-9.99633
已下	-9.99701
生念	-9.99932
緣故	-9.99956
釋曰二	-9.99991
乃是	-10.0007
大智	-10.0007
能顯	-10.001
能為	-10.0011
衰	-10.0018
說者	-10.0026
貧	-10.0032
以一切法	-10.0036
三釋	-10.0037
蛇	-10.0045
特	-10.0048
境界相	-10.0049
翳	-10.005
或於	-10.0051
防	-10.0054
諸相	-10.0061
生滅因緣	-10.0064
所為	-10.0064
不盡	-10.0071
都無	-10.0074
誓願	-10.0074
獄	-10.008
為本	-10.0089
無上菩提	-10.0093
又汝言	-10.0094
明其	-10.0101
狀	-10.0107
不假	-10.0116
後世	-10.0116
序	-10.0127
相好	-10.0131
乞	-10.0132
法合	-10.0133
之文	-10.0138
真故	-10.0142
有十	-10.0144
龍樹	-10.0146
懺悔	-10.0151
驗	-10.0152
十善	-10.0156
涅盤	-10.0165
三法	-10.0166
又有	-10.017
修道	-10.0171
此乃	-10.0176
▁四	-10.0181
有力	-10.0185
凡小	-10.0188
別顯	-10.019
五分	-10.0191
麁細	-10.0192
之異	-10.0193
釋義	-10.0195
餘處	-10.0198
於我	-10.0198
文殊	-10.02
五十一	-10.0204
二俱	-10.0205
釋曰四	-10.0205
前中	-10.0206
名也	-10.0209
經論	-10.0216
令得	-10.0217
依義	-10.0217
非彼	-10.022
能治	-10.022
牙	-10.023
義說	-10.0238
宮殿	-10.0246
伊	-10.0246
純	-10.0247
新論	-10.0247
棄捨	-10.0252
二量	-10.0257
皆從	-10.0257
不善業	-10.0262
先說	-10.0277
斷煩惱	-10.0277
從無始來	-10.0279
6	-10.0286
定慧	-10.0287
前所說	-10.0288
勤勇	-10.029
汝問	-10.0297
有為法	-10.0297
四門	-10.03
無著	-10.0302
顯了	-10.0305
變易	-10.0323
解釋分	-10.0326
勞	-10.0327
五十一位	-10.0328
總說	-10.0328
智力	-10.0333
正義	-10.0336
於異品	-10.0338
憎	-10.0338
論者	-10.0351
令人	-10.0354
接	-10.0355
令心	-10.0356
勇	-10.0358
跡	-10.0359
相續識	-10.0362
隨逐	-10.0364
自證分	-10.0367
自利利他	-10.0377
徵起	-10.0377
賴耶	-10.0379
下顯	-10.038
之外	-10.0387
隨意	-10.0388
則滅	-10.0388
出世間	-10.039
人所	-10.0392
即真如	-10.0393
廣明	-10.0397
一心法	-10.041
能除	-10.041
王復問那先	-10.0414
天眼	-10.0418
劍	-10.0426
常見	-10.0426
「	-10.0428
於其	-10.0435
而轉	-10.0442
通於	-10.0449
相用	-10.0451
坐禪人	-10.0452
決擇	-10.0455
再	-10.0455
究	-10.0458
即便	-10.046
分中	-10.0468
葢	-10.0468
此二種	-10.0476
樂受	-10.0481
堪	-10.0485
退失	-10.0495
平等緣	-10.0497
我於	-10.0498
何者是	-10.0509
後際	-10.0518
成於	-10.0521
時節	-10.0524
是實	-10.053
知見	-10.0533
六度	-10.0534
相應故	-10.0536
聲論	-10.0542
者此意	-10.0543
不思議熏	-10.0543
何名	-10.0545
諸苦	-10.0554
任	-10.0556
熱惱	-10.0558
雖無	-10.0567
明何義	-10.0568
餘人	-10.0571
無垢	-10.0571
無別體	-10.0572
云何對治	-10.0576
能成立	-10.0579
勸請	-10.0583
無明熏	-10.0588
但約	-10.0591
士	-10.0593
真智	-10.0605
八十	-10.0605
5	-10.0608
轉變	-10.0617
象王	-10.0618
不遣	-10.063
等義	-10.0632
報化	-10.0633
第四禪	-10.0646
何用	-10.0646
自下	-10.0651
災	-10.0651
連	-10.0651
偽	-10.0653
十三	-10.0655
繩	-10.0658
一切菩薩	-10.0658
不入	-10.066
說此	-10.0663
汝等	-10.0664
動心	-10.0665
財物	-10.0671
妄語	-10.0677
粗	-10.0681
利樂	-10.0681
比量相違	-10.0682
心者	-10.0682
名義	-10.0688
影像	-10.0688
二智	-10.0689
殺生	-10.0691
非因	-10.0707
境故	-10.0707
七地	-10.0709
相續相	-10.0709
不唯	-10.0715
文義	-10.0715
生疑	-10.0717
後得	-10.0717
非常	-10.0724
天子	-10.073
此解	-10.0737
何處	-10.0752
滅盡	-10.0754
兒	-10.076
勤勇無間所發	-10.0767
應云	-10.0769
而立	-10.0774
外人	-10.0778
如實知	-10.0779
註	-10.0781
若在	-10.0792
周徧	-10.0816
諸功德	-10.0819
兩重	-10.0822
教法	-10.0827
出興	-10.083
4)	-10.0831
廣略	-10.0838
逼	-10.0843
老死	-10.0844
臭	-10.086
可以	-10.0864
五意	-10.088
不極成	-10.0885
不改	-10.0885
一切有情	-10.0899
諸如來	-10.0901
為實	-10.0902
所別不成	-10.0907
隨心	-10.0917
是業	-10.092
不可知	-10.0921
施設	-10.0925
能別不成	-10.0925
若我	-10.093
雜亂	-10.0936
究竟離	-10.0938
猶未	-10.0946
三德	-10.0955
似立	-10.0957
信根	-10.0959
了別	-10.0959
所餘	-10.0972
六道	-10.0972
軟	-10.0975
名究竟覺	-10.0978
必須	-10.0978
衣服	-10.098
不一	-10.0983
慚愧	-10.0987
所斷	-10.0988
2)	-10.0989
余	-10.0989
斷滅	-10.0994
並是	-10.0999
國王	-10.101
為能立	-10.1011
故經云	-10.1015
8)	-10.1022
5)	-10.1024
淨土	-10.1025
7)	-10.1027
自宗	-10.1034
修多羅	-10.1038
為自	-10.1039
用相	-10.1039
如實修行	-10.1045
漸次	-10.1051
之處	-10.1053
身口	-10.106
離此	-10.1074
我我所	-10.1079
律儀	-10.1081
細分	-10.1083
證發心	-10.1085
修多羅中	-10.1085
炎	-10.1091
體中	-10.1098
六句	-10.1099
果海	-10.1102
無智	-10.1104
亦云	-10.1108
初門	-10.1112
摩訶	-10.1114
人中	-10.1125
多聞	-10.113
1)	-10.1131
6)	-10.1134
說也	-10.1135
說故	-10.1138
空寂	-10.1138
智礙	-10.1157
能了	-10.1163
有人言	-10.1163
大慧	-10.1167
也問	-10.1189
二禪	-10.119
壁	-10.1196
圓覺	-10.1197
初重	-10.1197
釋文	-10.1198
梨	-10.1199
睡	-10.1201
傷	-10.1205
猗	-10.1205
有始	-10.1209
不轉	-10.1216
善友	-10.1218
佛所	-10.122
善業	-10.1224
或現	-10.1224
梵天	-10.1225
如有	-10.1229
即彼	-10.1231
大地	-10.1235
以是義故	-10.1236
荅	-10.1237
自證	-10.1239
而巳	-10.1241
生處	-10.1248
真如體	-10.1251
非但	-10.1252
大意	-10.1259
令諸眾生	-10.1261
無所不	-10.1262
於此中	-10.1265
然則	-10.1271
宗義	-10.128
盲	-10.1286
初中言	-10.1288
更生	-10.1289
對法	-10.1294
厭求	-10.1297
見有	-10.1299
非一切	-10.1305
侵	-10.1305
步	-10.1306
畢	-10.1309
誑	-10.1309
俱行	-10.131
睡眠	-10.131
即得	-10.1311
競	-10.1312
六麤	-10.1313
交	-10.1315
決定相違	-10.1315
貪等	-10.1319
竪	-10.1322
無分別智	-10.1325
功用	-10.1326
名相	-10.1328
是所	-10.1329
不能得	-10.133
伸	-10.1338
文殊師利	-10.1341
勝妙	-10.1343
依法	-10.1343
及以	-10.1347
?	-10.1347
i	-10.1348
變異	-10.1348
動故	-10.1354
久遠	-10.1355
迷悟	-10.1356
用故	-10.1362
見彼	-10.1363
諸比丘	-10.1364
如意	-10.138
所許	-10.1387
隨一不成	-10.1388
唯依	-10.139
唯佛	-10.1394
之門	-10.1395
為同喻	-10.1398
三事	-10.1403
有相	-10.1404
有大	-10.1407
3)	-10.1407
九種	-10.1412
灰	-10.1416
樂為	-10.1418
自性清淨	-10.1423
仁	-10.1427
儀	-10.1428
有五種	-10.1428
9)	-10.1432
三十	-10.1432
如佛	-10.1434
於一切	-10.1435
般若波羅蜜	-10.1438
賴	-10.1441
▁二釋	-10.1442
如鏡	-10.1445
頌中	-10.1447
為其	-10.1456
成滿	-10.147
寫	-10.1471
因義	-10.1482
真覺	-10.1482
章門	-10.1494
唯是一心	-10.1495
電	-10.1496
拏	-10.1499
變化	-10.15
胎	-10.1502
眼見	-10.1517
臥	-10.1523
冤	-10.1527
覺心	-10.1529
不聞	-10.1543
煖	-10.1547
無量功德	-10.1551
不欲	-10.1551
悟他	-10.1553
威德	-10.1556
兔	-10.156
三自	-10.1565
賢首	-10.157
般若波羅蜜多	-10.1572
若欲	-10.1574
白佛言	-10.1576
ā	-10.1579
太	-10.1581
為欲顯示	-10.1581
萬法	-10.1583
分別發趣道相	-10.1588
舉喻	-10.1589
前四	-10.1598
所治	-10.16
不定因	-10.1604
一卷	-10.1608
若此	-10.1611
分位	-10.1612
全體	-10.1614
得涅槃	-10.1617
勸修	-10.1617
神我	-10.1624
是真	-10.164
何法	-10.164
此經	-10.1642
反顯	-10.1643
出入	-10.1653
痛	-10.1653
負	-10.1656
遺	-10.1658
非所作	-10.166
有諸	-10.1662
疎	-10.1665
手足	-10.1667
汎	-10.1672
一切諸佛	-10.1673
途	-10.1675
污	-10.1682
自此	-10.1688
瓦器	-10.169
隨其所應	-10.1696
慈心	-10.17
大士	-10.17
是前	-10.1701
攀緣	-10.1702
心行	-10.1703
不從	-10.171
登	-10.1713
非同	-10.1716
昧	-10.176
能覺	-10.1762
心數	-10.1766
二約	-10.1768
不達	-10.177
當念	-10.1774
上轉	-10.1775
能示	-10.1775
覺悟	-10.1779
長行	-10.1779
利養	-10.1782
適	-10.1782
能見相	-10.1787
惟	-10.1787
二邊	-10.1788
以無明	-10.1811
無所得	-10.1815
修觀	-10.1816
下轉	-10.182
龍王	-10.1822
無染	-10.1822
隨染本覺	-10.1824
下品	-10.1827
解行發心	-10.183
所立宗	-10.1838
豈不	-10.1851
言無	-10.1857
無定	-10.1864
摧	-10.1866
不思議業相	-10.1869
下云	-10.187
領	-10.1871
應言	-10.1881
辟支佛	-10.1891
略明	-10.1892
公	-10.1895
云何得	-10.1897
講	-10.1898
貧窮	-10.19
因緣和合	-10.1903
疑云	-10.1914
妄見	-10.1918
六根	-10.1919
三賢位	-10.1922
別義	-10.1925
中有三	-10.1928
是諸	-10.1929
覺與不覺	-10.193
關	-10.193
下文云	-10.1932
本來無	-10.1936
若彼	-10.1936
正信	-10.1936
有實	-10.194
方能	-10.1941
心心所	-10.1944
謂以	-10.1947
有十種	-10.1949
法藏	-10.1949
謂真如	-10.1959
希有	-10.1967
若汝	-10.1967
良	-10.1972
釋前	-10.1973
是知	-10.1973
心生滅門	-10.1975
臣	-10.1976
等中	-10.1976
總有	-10.198
異生	-10.1981
亦為	-10.1987
實智	-10.1989
為我	-10.1999
執取相	-10.1999
是宗法	-10.1999
意根	-10.2004
弱	-10.2009
迦葉	-10.2011
遍無	-10.2015
造業	-10.2022
智也	-10.2024
五百	-10.2034
統	-10.2035
疏二	-10.2036
同前	-10.2037
亦同	-10.2043
以真如	-10.2046
不守自性	-10.205
問云何以	-10.2055
不令	-10.2055
有多	-10.2058
都盡	-10.2061
智識	-10.2066
云何為五	-10.2072
可解	-10.2074
散壞	-10.2076
此論中	-10.2078
結前	-10.2085
立量云	-10.2088
起行	-10.2093
若云	-10.2094
以前	-10.2094
散心	-10.2102
言陳	-10.2111
佛道	-10.2118
今當	-10.2119
發生	-10.2122
▁初標	-10.2124
如上說	-10.2128
九地	-10.2129
宿命	-10.2132
獄卒	-10.2138
垂	-10.2139
閉	-10.2139
方名	-10.2153
於空	-10.2155
剎	-10.2159
聲是	-10.216
此非	-10.216
真俗	-10.2164
事故	-10.2167
為作	-10.217
永離	-10.2172
如大	-10.2176
謂之	-10.2177
其人	-10.2177
意樂	-10.2177
無色界	-10.2178
修行信心	-10.2179
所覺	-10.2186
覺性	-10.2186
仙	-10.2187
為正	-10.2189
罪福	-10.2198
有所作	-10.2203
修慧	-10.2208
應說	-10.2209
不行	-10.2211
色身	-10.2212
修善	-10.2219
滅時	-10.222
歸依	-10.222
此二義	-10.2227
疏文	-10.2227
亦通	-10.2228
為苦	-10.2232
建	-10.2244
皆同	-10.2251
佛語	-10.2252
希	-10.2266
油	-10.2266
一異	-10.227
願力	-10.2273
真似	-10.2279
應是	-10.2279
佛子	-10.2285
本空	-10.2285
其實	-10.229
通別	-10.2295
佛寶	-10.2298
宗過	-10.2301
聞慧	-10.2302
無常性	-10.2305
初約	-10.2312
眾苦	-10.2317
大決擇分	-10.2323
姓	-10.2324
內心	-10.2331
所變	-10.2331
起故	-10.2333
迷真	-10.2337
依正	-10.2347
既有	-10.2348
雖多	-10.2358
染相	-10.2359
得定	-10.2363
頭陀	-10.2375
起於	-10.2375
真空	-10.2383
善心	-10.2384
等事	-10.2386
以離	-10.2392
念處	-10.2394
皆因	-10.2394
攝論	-10.2396
楞伽經	-10.2397
辯才	-10.2398
因緣分	-10.24
應非	-10.2406
正是	-10.2407
善巧	-10.2407
人民	-10.2408
異法喻	-10.2409
淨信	-10.2411
圓融	-10.2417
毀謗	-10.2417
佛智	-10.2419
在於	-10.242
答中	-10.242
修學	-10.2424
故釋曰	-10.2424
無心	-10.2425
自知	-10.2431
本質	-10.244
無能所	-10.2446
見相	-10.2447
馬鳴菩薩	-10.2449
是明	-10.2462
十二因緣	-10.247
所問	-10.2474
學人	-10.2476
不至	-10.2479
今論	-10.2483
十解	-10.2484
露	-10.2487
見色	-10.2491
柔軟	-10.2497
拘	-10.2503
罵	-10.2504
鈍	-10.2505
如是已說	-10.2519
九十	-10.2538
佉	-10.254
分段	-10.2544
過故	-10.2545
無有是處	-10.2546
果故	-10.2547
正道	-10.2549
我心	-10.2555
勝劣	-10.2564
何故不	-10.2567
雖是	-10.2568
不到	-10.2574
餘法	-10.2577
是故名為	-10.2578
以此義故	-10.2581
巳去	-10.2585
身命	-10.2591
是我	-10.2595
是處	-10.26
教化	-10.2603
形色	-10.2605
然其	-10.2607
心之	-10.2611
因於	-10.2627
皆應	-10.2627
寒	-10.2627
此難	-10.263
緣也	-10.2632
四分	-10.2634
是名為三	-10.2635
所乘	-10.2637
磨	-10.2637
受報	-10.2637
雖說	-10.2637
淨德	-10.2641
今約	-10.2644
幢	-10.2646
不求	-10.2648
便成	-10.2648
福田	-10.2653
如虛空	-10.2655
鬼神	-10.2655
珍寶	-10.2658
然於	-10.2658
直心	-10.266
佛弟子	-10.266
阿耨多羅三藐三菩提	-10.2664
性者	-10.2665
牒前	-10.2668
後義	-10.267
眾生界	-10.2672
能離	-10.2672
聲是無常	-10.2675
立因	-10.2675
夢中	-10.2676
平等平等	-10.2692
十九	-10.2695
有因	-10.2695
無法	-10.2698
聲上	-10.2701
差別緣	-10.2706
頌云	-10.271
化度	-10.2711
能化	-10.2711
果位	-10.2712
為令	-10.2713
以一切	-10.2714
離分別	-10.2717
為異	-10.2731
異也	-10.2743
是故說言	-10.2744
中生	-10.2746
等過	-10.2746
假立	-10.2753
示義	-10.2753
攝故	-10.2753
勝故	-10.2754
諸善	-10.276
腹	-10.2761
下別釋	-10.2764
後陳	-10.277
能滅	-10.2781
聚集	-10.2787
而住	-10.279
缺減	-10.2793
作是念	-10.2795
積集	-10.2795
如是巳說	-10.2798
梵王	-10.2817
上說	-10.2824
之一字	-10.2826
不亂	-10.2829
之身	-10.2831
不能自	-10.2834
已竟	-10.2835
無常宗	-10.2838
無上道	-10.284
及餘	-10.2841
二礙	-10.2842
罪業	-10.2843
釋疑	-10.2858
能有	-10.286
神王	-10.2863
真識	-10.2863
二別	-10.2873
邪行	-10.2874
彼人	-10.2883
門有二初結指	-10.2887
覓	-10.2889
之功	-10.2895
優	-10.2896
羅漢	-10.2898
根性	-10.29
無為法	-10.2903
筆	-10.2906
攝持	-10.2911
累	-10.2914
錄	-10.2915
業等	-10.2918
初後	-10.292
鈔	-10.2923
有別	-10.2924
於真如	-10.2926
滅諦	-10.2927
亦如上說	-10.2927
既云	-10.2932
佛經	-10.2933
授記	-10.2938
名如來藏	-10.2938
阿含	-10.294
所作因	-10.2947
思慧	-10.2947
一劫	-10.295
已得	-10.2951
二諦	-10.2954
四位	-10.2961
亦以	-10.2963
理門論	-10.2967
牟尼	-10.2969
能善	-10.2971
他宗	-10.2971
從初	-10.2974
諸陰	-10.2984
地中	-10.2984
無明所起	-10.2986
各異	-10.2988
更不	-10.299
久住	-10.2991
王所	-10.2999
邪道	-10.3001
應作	-10.3004
或時	-10.3011
市	-10.3011
惡口	-10.3013
樓	-10.3015
正宗	-10.3019
誓	-10.302
臂	-10.3023
始教	-10.3026
苟	-10.303
悲智	-10.3032
若非	-10.3033
応	-10.3037
伴	-10.304
當得	-10.3042
一識	-10.3044
三有	-10.3047
宗之	-10.3047
委	-10.305
不成因	-10.3053
由無明	-10.3054
云何名	-10.3063
是色	-10.3066
愛著	-10.3068
初學	-10.3069
非有非無	-10.3074
萬物	-10.3074
法施	-10.3076
相應心	-10.3078
釋摩訶衍論	-10.3079
義中	-10.3079
法義	-10.3087
句義	-10.31
三禪	-10.3102
若為	-10.3105
釋相	-10.3107
悲心	-10.3107
經文	-10.3109
超過	-10.3111
滅壞	-10.3112
三結	-10.3115
非直	-10.3119
9	-10.3119
自性清淨心	-10.3119
立論	-10.312
一門	-10.3127
位地	-10.3128
擇	-10.3147
中陰	-10.3148
闍	-10.315
宗因喻	-10.3152
依無明	-10.3159
行成	-10.3159
男	-10.316
馳	-10.3161
狂	-10.3162
箭	-10.3164
爭	-10.3164
諸論	-10.317
漏盡	-10.3174
即滅	-10.3174
諸位	-10.3176
勤發	-10.3183
注	-10.3184
俗諦	-10.3187
非作	-10.3192
有餘	-10.3192
理故	-10.3194
淺深	-10.3199
五位	-10.32
能障	-10.3201
唯一心	-10.3205
勸修利益分	-10.3206
為性	-10.3218
勢力	-10.3218
反流	-10.3219
德相	-10.3224
大性	-10.3225
難曰	-10.3226
所引	-10.3233
等覺	-10.3238
資熏	-10.3238
之與	-10.3246
終教	-10.3247
差別之相	-10.3247
二云	-10.3247
不別	-10.3261
唯除	-10.3263
此句	-10.3266
諸色	-10.3267
二分	-10.3273
實法	-10.3281
不相離故	-10.3284
不受	-10.3285
廣如	-10.3289
西方	-10.329
畫	-10.3291
異類	-10.3294
而已	-10.3296
三際	-10.3298
恚	-10.3299
飾	-10.3299
謝	-10.33
文字	-10.3304
真如是	-10.3311
起時	-10.3319
包	-10.3322
前之	-10.3323
亦無有	-10.3329
一切如來	-10.3332
身分	-10.3333
上品	-10.3335
隨他	-10.3336
所須	-10.3338
現比	-10.3338
斷故	-10.3339
初顯	-10.334
命根	-10.3342
普賢	-10.3347
二一	-10.3352
天主	-10.3353
多種	-10.3354
初三攝	-10.3357
如實不空	-10.336
護法	-10.3364
得菩提	-10.3366
信成就發心	-10.3369
而知	-10.3377
除滅	-10.3382
勝行	-10.339
猛	-10.3396
無緣	-10.3398
應有	-10.3401
執取	-10.3403
又二初	-10.3407
所由	-10.3422
增減	-10.3429
如來藏者	-10.343
走	-10.3432
德業	-10.3432
賢聖	-10.3434
之色	-10.3441
相違過	-10.3441
理實	-10.3442
俱時	-10.3442
移	-10.3444
欲顯	-10.3446
榮	-10.3446
術	-10.345
遭	-10.3454
煙	-10.3455
響	-10.346
餘二	-10.3462
一性	-10.3467
隨自	-10.3468
大苦	-10.3469
不必	-10.347
壽量	-10.3476
不增不減	-10.3478
增益	-10.3485
不可以	-10.3488
典	-10.3489
流通	-10.3489
今說	-10.3491
行也	-10.3492
為勝	-10.3496
初正	-10.3497
為說	-10.3502
因此	-10.3503
斷絕	-10.3507
熏義	-10.3507
真能立	-10.3508
種姓	-10.3508
而現	-10.3513
知之	-10.3514
諸經	-10.3519
或說	-10.3519
以上	-10.3523
聖教	-10.3528
過恒沙	-10.3529
謂前	-10.3531
何別	-10.3534
則於	-10.3538
理無	-10.3539
愍	-10.3541
唯此	-10.3541
摩尼	-10.3543
下結	-10.3543
又佛	-10.3546
根本智	-10.3547
因三相	-10.3547
違順	-10.3547
自作	-10.3552
圓明	-10.3554
後說	-10.3555
大乘者	-10.3557
自念	-10.3558
即真	-10.3558
於自	-10.3559
離垢	-10.3561
經言	-10.3562
晝夜	-10.3566
體相用	-10.3568
餘皆	-10.3569
第二禪	-10.3569
種智	-10.3573
愛欲	-10.3576
急	-10.3576
參	-10.3585
但名	-10.3591
毗	-10.3593
啟	-10.3595
若就	-10.3595
前五	-10.3595
無質礙故	-10.3605
是佛	-10.3606
阿僧祇	-10.3606
攬	-10.361
當說	-10.3612
故說為	-10.362
承事	-10.3621
千歲	-10.3622
t	-10.3627
於身	-10.3628
以法	-10.3635
無可	-10.3644
理智	-10.3644
能解	-10.3651
無所有處	-10.3658
則非	-10.3659
圓教	-10.3673
假說	-10.3675
惹	-10.3675
欲求	-10.3675
而亦	-10.3679
無此	-10.3686
佛土	-10.3691
得有	-10.3691
那先問王	-10.3693
隨流	-10.3698
船	-10.3699
察	-10.3699
至此	-10.3701
次顯	-10.3702
約法	-10.3702
出過	-10.3703
跋	-10.3711
竭	-10.3718
某	-10.3724
慚	-10.3724
薪	-10.3729
博	-10.373
此有	-10.3733
覺體	-10.3735
作者	-10.3735
一因	-10.3736
錯	-10.3736
哆	-10.3739
非非	-10.3741
昏	-10.3741
為根本	-10.3746
塔	-10.3746
此為	-10.3747
準此	-10.3748
若不爾者	-10.3749
意明	-10.3757
執相應染	-10.3757
道者	-10.3759
嚕	-10.3761
惡法	-10.377
多羅	-10.3776
心動	-10.3779
枝末	-10.3782
滿足方便	-10.3783
我為	-10.3788
緣覺	-10.3795
十由旬	-10.3795
熏真如	-10.3796
異義	-10.3798
有八	-10.3798
釋論	-10.3799
人空	-10.3801
乃至廣說	-10.3805
無學	-10.3812
往生	-10.3817
門也	-10.3817
違他	-10.3818
究竟覺	-10.3823
斷惑	-10.3825
日夜	-10.3826
一乘	-10.3833
與此	-10.3837
除疑	-10.384
人執	-10.3849
復以	-10.3852
厭離	-10.3855
爛	-10.3857
則生	-10.3858
身中	-10.3861
不由	-10.3864
不思議業	-10.3865
固	-10.3865
字事	-10.3865
則成	-10.3867
務	-10.387
綱	-10.3872
亦空	-10.3873
不存	-10.3877
懈	-10.3878
本一	-10.388
依真	-10.3883
義門	-10.3884
法喻	-10.3885
往來	-10.3886
止息	-10.3888
難得	-10.3892
豈可	-10.3895
點	-10.3897
不愛	-10.3898
若作	-10.3898
相望	-10.3899
第三句	-10.39
常宗	-10.39
品類	-10.39
所求	-10.3901
信有	-10.3901
相離	-10.3905
中亦有	-10.3907
惡心	-10.3909
以知	-10.3921
願諸眾生	-10.3922
與眾生	-10.3925
此一	-10.3935
於一切時	-10.3936
吒	-10.3945
悲願	-10.3957
其本	-10.3957
起用	-10.3962
二名	-10.3969
數數	-10.3972
非他	-10.3973
所應	-10.3973
時彼	-10.3977
期	-10.3983
人身	-10.3983
難言	-10.3985
所示	-10.4001
不成就	-10.4002
血	-10.4003
菓	-10.4004
熏習義	-10.4005
飯	-10.4006
孔	-10.4009
相滅	-10.4011
得果	-10.4012
若望	-10.4013
修定	-10.4015
不修	-10.4021
夏	-10.4023
草木	-10.4026
八門	-10.4027
舍利弗	-10.4028
附	-10.4029
渡	-10.4029
植	-10.403
各具	-10.403
非如	-10.403
觀行	-10.4035
成故	-10.4035
不許有	-10.4038
初心	-10.4039
神呪	-10.404
三品	-10.4048
諸外道	-10.4048
起業相	-10.4049
令眾生	-10.4052
厚薄	-10.4056
梵語	-10.4057
實義	-10.4058
圓音	-10.4062
世人	-10.4065
一約	-10.4065
且約	-10.4065
常樂	-10.4067
由前	-10.4071
萬德	-10.4073
立為	-10.4075
厭生死苦	-10.4078
有無量	-10.4082
善不善	-10.4082
真如平等	-10.4087
糞	-10.4091
圓成	-10.4094
威	-10.4106
波羅蜜多	-10.4107
者問	-10.4108
聖智	-10.4117
初住	-10.4117
轉現	-10.4122
佛菩薩	-10.4122
而常	-10.4127
即以	-10.4127
之德	-10.4128
似宗	-10.413
行苦	-10.4136
違自	-10.4136
不可見	-10.4139
州	-10.4142
問此	-10.4149
因生	-10.4152
信行	-10.4153
得見	-10.4156
彼論	-10.416
分別者	-10.416
皆不	-10.4161
瑜伽論	-10.4161
下二句	-10.4162
法身菩薩	-10.4168
星	-10.417
依何	-10.417
為如	-10.4172
屈	-10.4172
入於	-10.4173
勝鬘	-10.4176
幽	-10.4176
蔽	-10.4178
心則	-10.418
堪任	-10.4184
之失	-10.4185
欣	-10.4186
憂惱	-10.4191
心真如門	-10.4193
以智	-10.4203
亦成	-10.4206
即心	-10.4207
俱不	-10.4207
合結	-10.4208
非過	-10.4211
受身	-10.4213
意言	-10.4217
不善法	-10.4217
非定	-10.422
因位	-10.422
道路	-10.4224
此位	-10.4234
軌則	-10.4234
毫	-10.4239
自悟	-10.4243
文也	-10.4243
一念相應	-10.4244
此依	-10.4248
問若	-10.4248
幻化	-10.425
當觀	-10.426
此菩薩	-10.426
智障	-10.4261
名相違	-10.4268
因緣生	-10.4274
一切種智	-10.4275
結指	-10.4285
有二門	-10.43
各自	-10.43
琉璃	-10.4305
枯	-10.4307
相依	-10.4311
臨	-10.4314
兵	-10.4316
是名為二	-10.4318
驚	-10.4318
昇	-10.4321
各攝	-10.4321
應觀	-10.4322
瓔珞	-10.4322
有二意	-10.4323
難也	-10.4324
澄	-10.4325
預	-10.433
佛所說	-10.4332
託	-10.4335
輩	-10.4336
涉	-10.4336
般涅槃	-10.4337
芽	-10.4341
斥	-10.4343
大悲心	-10.4351
樂求涅槃	-10.4352
是故當知	-10.4355
不及	-10.4355
一日	-10.4356
忽然	-10.4362
薰習	-10.4364
所樂	-10.4371
染污	-10.4371
顯因	-10.4372
意也	-10.4373
起諸	-10.4376
中實	-10.4379
遍計	-10.438
一類	-10.4382
表示	-10.4388
作如是	-10.4391
位故	-10.4394
如夢	-10.4395
以之為	-10.4401
惡人	-10.4401
所立法	-10.4404
有四一	-10.4416
別體	-10.4418
勝進	-10.4433
同故	-10.4441
智故	-10.4445
佛心	-10.445
分三	-10.445
色聲	-10.4452
四方	-10.4453
杖	-10.4454
四不成	-10.4459
皆空	-10.4469
水相	-10.4471
令生	-10.4478
俱轉	-10.4478
或云	-10.4478
嫉	-10.4479
正受	-10.448
難知	-10.448
緣者	-10.4481
梁	-10.4482
聚落	-10.4482
階	-10.4483
便是	-10.4485
絕言	-10.4492
眾善	-10.4502
覺不覺	-10.4505
如疏	-10.4505
宗體	-10.4515
如虗空	-10.4515
應審觀察	-10.4521
本覺隨染	-10.4522
其性	-10.4527
依如來藏	-10.4528
以不	-10.4532
論之	-10.4534
初問	-10.4541
次言	-10.4543
明淨	-10.4545
名為法身	-10.4547
成一	-10.4548
為難	-10.4555
能說	-10.4556
我亦	-10.4557
心滅	-10.4561
僧寶	-10.4568
賀	-10.4574
所諍	-10.4577
無動	-10.4582
斷見	-10.4582
苦滅	-10.4586
未知	-10.4586
潔	-10.4592
其理	-10.4599
動作	-10.4609
量果	-10.4611
江	-10.4613
妙覺	-10.4613
仙人	-10.4614
乏	-10.4615
發心修行	-10.4623
慈氏	-10.4624
能入門	-10.4625
鍵	-10.4625
淳	-10.4627
遲	-10.4628
信受	-10.4629
譏	-10.4629
富貴	-10.4631
金銀	-10.4631
心生滅	-10.4632
得住	-10.4634
通名	-10.4635
飢	-10.4636
彼岸	-10.4636
為同品	-10.4638
二識	-10.4638
嫌	-10.4638
之位	-10.4644
料揀	-10.4651
破他	-10.4652
若知	-10.4657
波浪	-10.4662
如如	-10.4663
舉數	-10.4663
二執	-10.4664
則不能	-10.4664
推求	-10.4668
不離眼識	-10.467
此定	-10.4672
皆能	-10.4672
菩提分	-10.4674
此三種	-10.4674
異名	-10.4675
摩訶衍法	-10.4675
如法	-10.4676
既非	-10.4679
遍知	-10.4679
上文云	-10.4681
躡前	-10.4683
之內	-10.4687
今此論中	-10.4688
不無	-10.4688
十七	-10.4689
第四句	-10.4691
義相	-10.4692
輪轉	-10.4695
議	-10.4698
未入	-10.47
相違故	-10.4703
道諦	-10.4708
三十三	-10.4713
佛為	-10.4719
民	-10.4722
令知	-10.4732
故稱	-10.4732
初起	-10.4747
不顯	-10.4748
空空	-10.4762
五意中	-10.4763
離妄	-10.4766
信等	-10.4773
然彼	-10.4777
恃	-10.478
麻	-10.4781
勝緣	-10.4783
十信位	-10.4783
疊	-10.4785
右	-10.4788
門法	-10.4791
即生	-10.4792
覺照	-10.4793
具三相	-10.4795
是故說	-10.4796
作釋	-10.4799
停	-10.4801
體同	-10.4802
能發	-10.4803
諸魔	-10.4811
不絕	-10.4814
成事	-10.4817
理門論云	-10.4825
悟入	-10.4832
隨相	-10.4837
作是說	-10.4839
別名	-10.4843
舉因	-10.4843
不久	-10.4854
本具	-10.4854
對前	-10.4866
義准	-10.4881
實德業	-10.4885
今就	-10.4886
無差別故	-10.4892
空觀	-10.4895
於餘	-10.4896
非色	-10.4904
言語	-10.4906
隨念	-10.4908
名不成	-10.4922
因法	-10.4925
堂	-10.4929
三合	-10.4932
隨機	-10.4937
一名	-10.4943
或是	-10.4945
信者	-10.4946
閑	-10.4948
羊	-10.4949
童子	-10.4949
善說	-10.4954
由斯	-10.4956
無依	-10.4957
惜	-10.496
盧	-10.496
生解	-10.4961
一萬	-10.4961
𨷂	-10.4961
拂	-10.4962
延	-10.4963
憑	-10.4965
迹	-10.497
地界	-10.4972
彼彼	-10.4973
載	-10.4973
屬於	-10.4974
前陳	-10.4976
擬	-10.4979
立我	-10.4982
了義	-10.4986
中二	-10.4987
無質礙	-10.4995
海中	-10.4998
彼說	-10.4999
是真如	-10.5
馱	-10.5
邪定聚	-10.5001
開章	-10.5004
大慈	-10.5005
乞食	-10.5007
本來平等	-10.501
如是說	-10.5011
熏力	-10.5012
永不	-10.5014
讀誦	-10.5017
是故下	-10.5017
入定	-10.5019
覽	-10.502
夫人	-10.502
後二相	-10.5024
妙樂	-10.5027
雖未	-10.5027
相見	-10.5029
當體	-10.503
苦受	-10.5031
宗依	-10.5032
由有	-10.5037
受諸	-10.5044
生苦	-10.5046
此量	-10.5052
答此	-10.5057
初發心	-10.506
但依	-10.5068
之旨	-10.507
初正釋	-10.5072
鄔	-10.5079
六相	-10.5083
愁	-10.5088
擲	-10.5088
成道	-10.5098
無厭	-10.5099
恐怖	-10.5107
如瓶等	-10.5111
醫	-10.5111
天王	-10.5114
体	-10.5115
懼	-10.5115
答云	-10.5117
付	-10.5117
生死涅槃	-10.5118
為依	-10.5118
厭患	-10.5122
何以知之	-10.5123
身見	-10.5123
上云	-10.5124
即應	-10.5127
以對	-10.5127
諸染	-10.5131
即明	-10.5135
率	-10.5139
向上	-10.5139
頗	-10.5142
得罪	-10.5143
則應	-10.5143
脩習	-10.5147
祕密	-10.515
已生	-10.515
其義云何	-10.5153
已上	-10.5153
言之	-10.5156
十方世界	-10.5157
演說	-10.5158
三中	-10.5162
事業	-10.5162
發願	-10.5162
離心	-10.5169
故說名	-10.5171
能遮	-10.5174
云何為十	-10.5176
邊際	-10.5177
海水	-10.518
復更	-10.5182
無疑	-10.5184
皆名為	-10.5186
如來法身	-10.5187
諸波羅蜜	-10.5189
不放逸	-10.519
法執分別	-10.5193
為有	-10.5201
百由旬	-10.5203
堪能	-10.5207
十力	-10.521
▁「	-10.5211
永斷	-10.5212
義不然	-10.5218
心與	-10.5228
一音	-10.5234
自力	-10.5236
量故	-10.5242
顯真	-10.5253
其事	-10.5257
其數	-10.5262
立聲無常	-10.5273
妙吉祥	-10.5275
給	-10.528
可遣	-10.5281
相隨	-10.5282
難可	-10.5284
其名	-10.529
薩婆多	-10.5294
一者明	-10.5306
受想行識	-10.5306
无常	-10.5314
別記	-10.5317
阿賴耶識	-10.5323
望於	-10.5324
體者	-10.5326
是彼	-10.5328
始從	-10.533
說無	-10.5333
計我我所	-10.5333
以喻	-10.5334
動轉	-10.5334
無處	-10.5339
其宗	-10.534
地地	-10.5341
信力	-10.5346
楞伽云	-10.535
大本	-10.5355
得大	-10.5358
行願	-10.5359
巳前	-10.536
自下第二	-10.5361
不覺故	-10.5361
令入	-10.5361
前際	-10.5363
音樂	-10.5371
電等	-10.5379
立破	-10.538
無想	-10.5381
真如性	-10.5384
第二相	-10.5386
上有	-10.5389
菩薩行	-10.539
之果	-10.5391
即下	-10.5391
以色	-10.5395
非勤勇無間所發	-10.5398
釋名	-10.5398
同於	-10.5406
如實空	-10.5407
廣辨	-10.5408
」【	-10.541
始本	-10.5411
謂離	-10.5412
不退轉	-10.5413
體空	-10.5413
族	-10.5414
若復	-10.5417
無數劫	-10.5421
以下明	-10.5425
貪瞋	-10.5429
無分齊	-10.5429
生滅之相	-10.5429
大種	-10.5436
柯	-10.544
水火	-10.544
大劫	-10.5441
奇	-10.5442
牟休多	-10.5444
裂	-10.5446
苦者	-10.5447
文可見	-10.545
出入息	-10.545
禮敬	-10.5451
每	-10.5452
彼經	-10.5452
所以也	-10.5452
外有	-10.5454
論意	-10.5454
二十五	-10.5454
皆具	-10.5455
是正	-10.546
合掌	-10.546
此亦不然	-10.5466
一切功德	-10.5467
以空	-10.5474
如火	-10.5475
不過	-10.5476
計名字相	-10.5485
似能立	-10.5487
波羅	-10.5487
人我	-10.549
初正明	-10.5494
第三禪	-10.5501
於宗	-10.5504
空無我	-10.5506
所知障	-10.551
用也	-10.551
今則	-10.5514
又諸	-10.5522
後明	-10.5529
論宗	-10.5535
身口業	-10.5538
一剎那	-10.5538
有緣性	-10.5539
則無有	-10.5545
之源	-10.5552
同異性	-10.556
無妄	-10.5563
該攝	-10.5565
是因	-10.5567
隨轉	-10.5568
為眾生	-10.5569
進趣	-10.5573
如風	-10.5579
為樂	-10.558
是故應	-10.5584
為初	-10.559
七十	-10.5595
問言	-10.5596
為異品	-10.5597
而復	-10.5599
鏡中	-10.5605
險	-10.5606
臥具	-10.561
所聞性因	-10.5612
餓鬼	-10.5613
避	-10.5613
體非	-10.5614
甘	-10.5614
二行	-10.5617
蓮花	-10.5617
若聞	-10.5619
柱	-10.5623
疲	-10.5627
蜜	-10.5631
識相	-10.5632
證理	-10.5636
識者	-10.5637
意在	-10.5638
諂	-10.5639
靜慮	-10.5639
根本不覺	-10.564
二地	-10.564
下釋成	-10.5643
諸染法	-10.5643
豎	-10.5645
頃	-10.5645
淨心地	-10.5646
相攝	-10.5647
誤	-10.5647
滯	-10.5647
是義	-10.5648
無前後	-10.5649
揀擇	-10.565
上句	-10.5656
酥	-10.5659
隱覆	-10.5666
染淨法	-10.5669
其意	-10.5676
是總	-10.5677
身業	-10.5679
以本	-10.5683
性淨本覺	-10.5687
有法差別	-10.569
十地菩薩	-10.5692
不自在	-10.57
是名為十	-10.5701
謂諸	-10.5703
實際	-10.5704
多少	-10.5704
若許	-10.5704
豈得	-10.5708
生天	-10.5708
復言	-10.5708
是身	-10.571
不同故	-10.5717
所依故	-10.5718
復何	-10.5723
時分	-10.5723
稱量	-10.5724
今世	-10.5725
略標	-10.5728
空華	-10.5728
境也	-10.5732
者即此	-10.5734
此五	-10.5736
名利	-10.5737
平等無二	-10.5738
風相	-10.5739
隨彼	-10.5748
咎	-10.575
思擇	-10.5752
佛位	-10.5756
空有	-10.5759
塗	-10.5765
入正定聚	-10.5767
清淨本覺	-10.5768
非理	-10.577
等者此	-10.5772
能歸	-10.5775
西瞿耶尼	-10.5786
業煩惱	-10.5788
妄識	-10.5789
未必	-10.5789
掌	-10.579
蘇	-10.5792
六入	-10.5792
合成	-10.5795
處所	-10.5796
充滿	-10.5799
屋	-10.5799
婬欲	-10.5802
雙非	-10.5806
於世間	-10.5806
抑	-10.5808
崇	-10.581
眾生亦爾	-10.5812
別開	-10.5814
非我	-10.5814
嫉妬	-10.5818
二如是下	-10.5821
性空	-10.5822
攝法	-10.5826
禮拜	-10.5827
答言	-10.5828
贊	-10.583
生滅門內	-10.5832
執相	-10.5834
是故一切法	-10.5842
二別釋	-10.5845
法界一相	-10.5849
集諦	-10.585
具說	-10.5854
欲明	-10.5854
妄有	-10.5855
諸教	-10.5857
意者	-10.5859
下句	-10.5861
人我見	-10.5863
若取	-10.5864
業繫苦相	-10.5866
重罪	-10.5867
非量	-10.587
三慧	-10.5871
無礙自在	-10.5873
故理門云	-10.5874
心不相應	-10.5875
是故我	-10.5878
念法	-10.5879
度脫	-10.5883
況復	-10.5884
難思	-10.5886
皆說	-10.5894
諸師	-10.5901
揀異	-10.5903
契經云	-10.5904
初言	-10.5909
王數	-10.5909
真如相	-10.591
而彼	-10.5917
大乘法	-10.5917
合本	-10.5921
楞嚴云	-10.5922
多分	-10.5926
解者	-10.5927
性也	-10.5934
有念	-10.5939
如是觀	-10.5939
善根增長	-10.594
權實	-10.594
斫	-10.594
有自體	-10.5944
全分	-10.5945
所覆	-10.5945
利益眾生	-10.5949
頓教	-10.595
一切行	-10.5951
非唯	-10.5952
四相違	-10.5953
為首	-10.5954
樹下	-10.5955
捉	-10.5958
受此	-10.5959
非自	-10.596
齒	-10.5963
此理	-10.5967
洗	-10.597
之差別	-10.5974
歌	-10.5977
滅也	-10.598
超越	-10.5983
受者	-10.5988
於如來	-10.5989
初三	-10.599
正定聚	-10.5992
閻浮提	-10.5992
法自相相違	-10.5995
尸羅	-10.5996
任持	-10.6004
知有	-10.6008
下劣	-10.6009
非正	-10.6019
立聲	-10.6023
遍一切處	-10.6025
無明者	-10.6032
義邊	-10.6044
緣境	-10.6045
又由	-10.6051
妙法	-10.6054
道中	-10.6057
敢	-10.6059
合說	-10.6063
濕性	-10.6063
道路中	-10.6069
有法自相	-10.6072
空故	-10.6077
上明	-10.6079
五十由旬	-10.608
畜	-10.6081
具足圓滿	-10.6083
一法界心	-10.609
起動	-10.6092
許有	-10.6092
二種門	-10.6094
善修	-10.6094
釋中	-10.6094
現身	-10.6097
二乘人	-10.6103
復有二種	-10.6104
是宗	-10.6115
已成	-10.6115
所感	-10.6115
外曰	-10.6118
攝取	-10.6118
持業	-10.6121
最極	-10.6122
若自	-10.6123
不正	-10.6126
不名為	-10.6126
皆是無常	-10.6127
以種種	-10.6131
所不能	-10.6133
喻上	-10.6134
戰	-10.6137
圍繞	-10.6137
不妨	-10.6141
別用	-10.6142
會通	-10.6143
佛剎	-10.6143
開悟	-10.6144
井	-10.6145
宅	-10.6149
既言	-10.6149
客	-10.6151
履	-10.6153
王言善哉	-10.6153
信成就	-10.6153
禁	-10.6154
仗	-10.616
曠	-10.6161
識處	-10.6161
譽	-10.6162
業者	-10.6169
天上	-10.6169
依彼	-10.6169
主宰	-10.6172
逢	-10.6172
之緣	-10.6172
稟	-10.6176
以辨	-10.6177
熏習真如	-10.6178
即指	-10.6178
起念	-10.6182
真相	-10.6182
利鈍	-10.6184
□□	-10.6185
兔角	-10.6186
聲聞緣覺	-10.6189
寔	-10.619
盡於未來	-10.6192
此門中	-10.6192
無終	-10.6193
譬若	-10.6194
證真如	-10.6198
三明	-10.6198
▁○	-10.6199
內因	-10.62
向下	-10.62
自此已下	-10.6201
我法	-10.6208
初生	-10.6213
不礙	-10.6218
離言說相	-10.622
故次	-10.6224
依因	-10.6224
聲常	-10.6227
地上菩薩	-10.623
之類	-10.6235
決斷	-10.6243
四德	-10.6246
相資	-10.6255
無形相	-10.627
其過	-10.6272
終無	-10.6273
苦行	-10.6275
眾寶	-10.6284
故不說	-10.6295
五明	-10.6296
惑業	-10.6298
此亦如是	-10.6311
測	-10.6313
能分別	-10.6314
因分	-10.6315
分離	-10.6315
婬	-10.6318
解了	-10.6318
得無念	-10.632
即名為	-10.632
正辨	-10.6325
層	-10.6328
有時	-10.6328
成辦	-10.6329
婦	-10.6332
中具	-10.6333
無際	-10.6334
旋	-10.6335
今云	-10.6336
明知	-10.6342
見諦	-10.6342
追	-10.6343
始起	-10.6343
敵論	-10.6346
実	-10.6348
不苦不樂	-10.6348
是空	-10.6348
之業	-10.635
舍利子	-10.635
不墮	-10.635
研	-10.6351
洞	-10.6353
忉利天	-10.6353
空中	-10.6354
策	-10.6359
一千	-10.6359
創	-10.6362
似能破	-10.6364
辦	-10.6379
剖	-10.6379
未至	-10.6387
不有	-10.6392
名稱	-10.6402
不相應心	-10.6404
三大義	-10.6405
正意	-10.6412
樂欲	-10.6415
三名	-10.6416
不斷絕	-10.6417
知此	-10.6419
教中	-10.6424
所念	-10.6425
分際	-10.6426
不相離性	-10.6428
謂眾生	-10.6429
實體	-10.6431
得此	-10.6433
初標徵	-10.6433
用熏習	-10.6435
如經言	-10.6442
前義	-10.6442
隨分	-10.6443
諸塵	-10.6446
生老死	-10.6446
若如是	-10.6448
初舉	-10.645
非餘	-10.6451
妄起	-10.6456
生果	-10.6458
同彼	-10.646
即知	-10.646
立聲常	-10.6462
唯立	-10.6469
分為二	-10.6475
今日	-10.6476
所入法	-10.6478
能捨	-10.6486
唯一真如	-10.6487
之海	-10.6487
流出	-10.6488
名聞	-10.649
設有	-10.6491
所聞性故	-10.6492
施等	-10.6494
於何	-10.6494
因過	-10.6497
四事	-10.6499
愛取	-10.65
若入	-10.65
法為	-10.6503
於眾生	-10.6503
見之	-10.6503
因相	-10.651
觀智	-10.6511
而取	-10.6519
虎	-10.6521
豐	-10.6524
釋頌	-10.6527
酒	-10.6528
牒章	-10.6529
烏	-10.6533
敷	-10.6533
生滅心	-10.6534
休	-10.6536
纔	-10.6536
施戒	-10.6537
德句	-10.6537
是正因	-10.6539
人也	-10.654
逼惱	-10.654
天台	-10.6541
孤	-10.6541
塞	-10.6542
受苦樂	-10.6542
對染	-10.6544
又解	-10.6545
彌勒	-10.6546
本覺義	-10.6546
喚	-10.655
眾中	-10.6551
詰	-10.6552
熾然	-10.6553
伺察	-10.6556
補	-10.6557
題目	-10.6559
墮於	-10.6559
離心緣相	-10.656
即說	-10.6562
而自	-10.6563
大力	-10.6565
愚者	-10.6568
二巳說下	-10.657
h	-10.6572
e	-10.6572
已訖	-10.6574
區	-10.6575
勝德	-10.6577
彼文	-10.6578
無有增減	-10.6578
出纏	-10.6584
曼	-10.6589
能止	-10.6595
總體	-10.6595
於心	-10.6597
不通	-10.66
徧計	-10.66
方有	-10.6601
初二句	-10.6605
不殊	-10.6609
第六識	-10.6615
重釋	-10.6617
數論師	-10.6619
比知	-10.6623
而行	-10.6623
不思	-10.663
見其	-10.6633
言簡	-10.6638
得福	-10.664
以是因緣	-10.6643
為異喻	-10.6643
圓覺云	-10.6645
釋也	-10.6651
位位	-10.6651
言詞	-10.6653
此業	-10.6665
色法	-10.6667
可取	-10.6672
必定	-10.6674
俱不極成	-10.6675
二利	-10.6676
處說	-10.6677
前解	-10.668
何為	-10.6682
違宗	-10.6682
翻前	-10.6685
經典	-10.6688
活	-10.6689
名一切種智	-10.669
此真如	-10.6692
空無為	-10.6692
己身	-10.6694
此過	-10.6696
殺等	-10.6697
為人	-10.6701
吹	-10.6706
得佛	-10.6709
詐	-10.6709
福報	-10.6713
斧	-10.6715
無覺	-10.6715
瞻	-10.6717
施者	-10.6718
不共不定	-10.6719
鳩	-10.672
清淨心	-10.672
飢渴	-10.6721
驚怖	-10.6722
殺害	-10.6723
本智	-10.6727
有緣	-10.6727
取境	-10.6728
玉	-10.6734
能與	-10.6734
幸	-10.6736
知足	-10.6738
謗法	-10.6743
聖法	-10.6744
三千大千世界	-10.6745
修行者	-10.6747
於理	-10.6754
即離	-10.6756
山王	-10.676
立聲為常	-10.6764
心緣	-10.6766
住心	-10.6766
為欲現示	-10.6768
大宗地玄文本論	-10.6769
無常性故	-10.6772
苦故	-10.6774
以自	-10.6776
得起	-10.6777
近遠	-10.6779
了達	-10.678
能照	-10.6781
定是	-10.6787
如立	-10.6789
退墮	-10.679
唯以	-10.679
如是下	-10.6791
非一異	-10.6791
天下	-10.6792
在家	-10.6799
知識	-10.6801
乃能	-10.6806
真如理	-10.6821
鉢囉	-10.6826
通用	-10.6828
所謂下	-10.683
並皆	-10.6833
如來地	-10.6838
前則	-10.6838
具德	-10.6839
指法	-10.6841
彼諸	-10.6847
身相	-10.6848
契經說	-10.6851
是非	-10.6856
第十地	-10.6858
此語	-10.6859
隨其所	-10.686
喻如	-10.686
境相	-10.6862
業果報	-10.6869
解脫門	-10.6879
疏主	-10.6883
亦不得	-10.6883
華嚴經	-10.6884
依主	-10.6884
珍	-10.6885
即同	-10.6886
俱無	-10.6888
謂能	-10.6891
汁	-10.6891
謂彼	-10.6892
常為	-10.6899
後二句	-10.6904
天女	-10.6904
廣大心	-10.6904
於大乘	-10.6914
商	-10.6914
御	-10.6914
校	-10.6914
法華	-10.6917
摩羅	-10.692
恣	-10.6921
最為	-10.6926
蒙	-10.6927
朝	-10.693
奧	-10.6932
至教	-10.6933
不離真如	-10.6934
奢	-10.6934
如瓶	-10.6937
以因	-10.6938
此但	-10.6939
式	-10.6939
離染	-10.6939
八萬四千	-10.6941
運載	-10.6942
是時諸人	-10.6943
有七	-10.6945
重重	-10.6947
觀也	-10.6953
雙運	-10.6953
離一切相	-10.6958
此識有二種義	-10.6961
不可破壞	-10.6961
三輪	-10.6963
過於恒沙	-10.6967
細相	-10.6967
通妨	-10.6968
應審思擇	-10.6969
病苦	-10.6969
百億	-10.697
彼所	-10.6973
今此文中	-10.6974
若其	-10.6974
宗也	-10.6976
神力	-10.6977
眼所見	-10.6977
無所不遍	-10.6977
僧祇	-10.6979
豈有	-10.6983
計我	-10.6983
能持	-10.6983
其法	-10.6984
不等	-10.6988
畢竟平等	-10.6988
以能	-10.6989
相應也	-10.699
不能知	-10.6996
應成	-10.6999
凡愚	-10.6999
十行	-10.7
高下	-10.7002
解也	-10.7002
謂從	-10.7002
染緣	-10.7007
尚不	-10.7008
有一實	-10.7008
餘三	-10.7011
又釋	-10.7014
過於	-10.7016
云何說	-10.7018
因是	-10.7023
總問	-10.7024
那先言人	-10.7027
於法	-10.7031
之後	-10.7032
後時	-10.7032
遍有	-10.7032
世親	-10.7035
上妙	-10.7038
障故	-10.704
修集	-10.7042
有為無為	-10.7042
釋其	-10.7042
發趣	-10.7044
八千	-10.7045
相應者	-10.7047
墮地獄	-10.7047
攝護	-10.7048
將欲	-10.7051
離性	-10.7053
無明業相	-10.7055
遂令	-10.7055
彼天	-10.7056
廣顯	-10.7058
下約	-10.7063
皆屬	-10.7064
共成	-10.7064
無明不覺	-10.7072
誦呪	-10.7074
劫中	-10.7083
不淨觀	-10.7086
陀那	-10.7089
雖同	-10.7091
友	-10.7094
聞已	-10.7096
諸境	-10.7099
充	-10.7104
僕	-10.7109
豫	-10.7109
阿修羅	-10.711
北欝單越	-10.7112
受熏	-10.7112
淚	-10.7112
今據	-10.7113
東弗婆提	-10.7113
看	-10.7115
孝	-10.7118
果也	-10.712
嚤	-10.7122
乃得	-10.7122
割	-10.7122
優婆塞	-10.7122
言顯	-10.7122
擔	-10.7123
泉	-10.7125
製	-10.7127
佛法中	-10.7133
於一切眾生	-10.7133
撰	-10.7138
聲性	-10.7139
此問	-10.7141
道場	-10.7143
非能立	-10.7144
報業	-10.7145
多人	-10.7145
色像	-10.7151
阿僧祇劫	-10.7151
善根微少	-10.7153
苦因	-10.7156
造種種業	-10.7157
湛然	-10.7158
樂著	-10.7158
成有法	-10.7158
墮惡道	-10.7159
作惡	-10.7161
深廣	-10.7162
因滅	-10.7163
非實有	-10.7168
旦	-10.7169
枝末不覺	-10.717
分別事識熏習	-10.7172
對此	-10.7178
名異品	-10.718
佛告	-10.718
雖具	-10.7184
但舉	-10.7189
同品定有性	-10.7193
是假名	-10.7195
無失	-10.7196
假使	-10.7196
所愛	-10.7198
之機	-10.7199
相符極成	-10.721
無見	-10.7212
執持	-10.7212
八萬	-10.7213
華嚴云	-10.7216
欲樂	-10.7217
正說	-10.7217
遍照	-10.7218
非無常	-10.7224
群生	-10.7224
菩薩於	-10.7237
二十四	-10.724
似有	-10.724
實教	-10.7245
一切無量	-10.725
見故	-10.7251
約人	-10.7254
所遣	-10.7254
若準	-10.7256
歸敬	-10.7264
悉能	-10.7266
噉	-10.7267
事識中	-10.7267
攝義	-10.727
得成就	-10.7272
而論	-10.7273
彼處	-10.7277
重顯	-10.7277
之別	-10.7281
不決定	-10.7285
所欲	-10.7286
攝諸	-10.7289
唯在	-10.729
體無	-10.7291
營	-10.7292
唱本	-10.7295
即非	-10.7296
微塵數	-10.7305
能遣	-10.7314
坑	-10.7317
隱顯	-10.7318
狗	-10.7318
喪	-10.7318
身口意	-10.7321
綺語	-10.7321
掉	-10.7322
憐愍	-10.7323
怒	-10.7323
愚夫	-10.7323
醉	-10.7324
四住	-10.7324
以要言之	-10.7326
妄計	-10.7332
徧知	-10.7333
試	-10.7334
剋	-10.7338
立此	-10.7339
銷	-10.734
燃	-10.7341
貪瞋癡	-10.7348
三百	-10.7349
他心智	-10.735
似喻	-10.7352
一事	-10.7353
熏真	-10.7354
過類	-10.7355
何由	-10.7356
離名字相	-10.7358
▁五	-10.7361
不相妨	-10.7365
心性無動	-10.7367
所獲	-10.7368
而修	-10.7369
眼所不攝	-10.7369
隨眠	-10.7372
食噉	-10.7373
返顯	-10.7375
非愛	-10.7376
諸大	-10.7377
不能盡	-10.7378
不緣	-10.7379
因亦	-10.7379
攝化眾生	-10.7379
在纏	-10.7382
九句	-10.7385
化眾生	-10.7386
苦果	-10.7389
頂禮	-10.7393
心心數法	-10.7394
喃	-10.7396
廣大圓滿	-10.7396
耳識	-10.74
而去	-10.74
良由	-10.7402
諸弟子	-10.7403
若唯	-10.7403
悲愍	-10.7404
俱不遣	-10.7405
十卷	-10.7405
論也	-10.7408
有法上	-10.7411
觀心	-10.7415
見苦	-10.7418
空者	-10.7421
而此	-10.7421
相似過類	-10.7426
普遍	-10.7441
無色定	-10.7441
十向	-10.7441
末那識	-10.7445
是顯	-10.7447
中云	-10.7454
應觀察	-10.7464
初一句	-10.7465
萬由旬	-10.7469
與力	-10.7471
喻依	-10.7478
有色	-10.7491
以大悲	-10.7492
一切物	-10.7497
非離	-10.7497
詳之	-10.7501
此智	-10.7504
生已	-10.7506
信心成就	-10.7508
空性	-10.7511
是何	-10.7516
碎	-10.7519
􂵋	-10.7522
一切佛法	-10.7522
繞	-10.7522
毒蛇	-10.7525
銅	-10.7526
但由	-10.7527
諍論	-10.7527
親友	-10.7533
陽	-10.7534
臺	-10.7535
恨	-10.7536
取捨	-10.7538
張	-10.7538
無病	-10.754
標名	-10.7542
不息	-10.7547
善逝	-10.7547
逕	-10.7548
吾	-10.7548
束	-10.7549
素	-10.7552
沉	-10.7553
三十二	-10.7558
大菩提	-10.7558
域	-10.7561
覺心初起	-10.7563
流注	-10.7564
因緣具足	-10.7568
三細六麤	-10.7571
先後	-10.7575
此之謂也	-10.7577
【	-10.7579
不論	-10.758
前明	-10.7585
專念	-10.7586
永無	-10.7588
東方	-10.7593
云何為六	-10.7594
一行	-10.7595
當於	-10.7598
端正	-10.7602
不但	-10.7605
相成	-10.7607
時有	-10.7609
離過	-10.7615
初發心住	-10.7618
明鏡	-10.7618
即上	-10.762
之識	-10.7624
後身	-10.7642
能信	-10.7644
質礙	-10.7647
如下文云	-10.7649
不念	-10.7656
不增減	-10.7659
劫數	-10.766
名能破	-10.7664
牒釋	-10.7671
自分	-10.7673
真金	-10.7674
如海	-10.7676
名宗	-10.7678
色者	-10.768
因成	-10.7682
不染	-10.7683
金剛位	-10.7687
間斷	-10.7688
對待	-10.769
量云	-10.769
比觀	-10.7696
熏故	-10.7702
信佛	-10.7703
除遣	-10.7704
內有	-10.771
蟲	-10.771
法輪	-10.771
違教	-10.7718
護持	-10.7719
獸	-10.7719
為破	-10.7722
得勝	-10.7726
無有自性	-10.7729
墜	-10.7731
不喜	-10.7731
盈	-10.7732
殿	-10.7736
如是諸	-10.7736
即現	-10.7736
吐	-10.7739
浴	-10.774
本云	-10.774
嚴飾	-10.774
賤	-10.7743
有對	-10.7744
妻子	-10.7745
衛	-10.7746
今且	-10.7746
欺	-10.7746
妄境界	-10.775
修證	-10.7753
五事	-10.7753
鑽	-10.7753
騰	-10.7754
為除	-10.7755
才	-10.7759
財利	-10.7764
所逼	-10.7765
止觀門	-10.7766
樂等	-10.7767
妄生	-10.7772
龜毛	-10.7778
煩惱業	-10.7779
難可了知	-10.7781
不斷相應染	-10.7781
無斷	-10.7782
乃至菩薩究竟地	-10.7783
自語相違	-10.7784
為根	-10.779
種種諸	-10.7793
猶如瓶等	-10.7794
所被	-10.7794
揀非	-10.7795
遮表	-10.7799
或言	-10.7799
云何修行	-10.7799
違自教	-10.7799
聖凡	-10.7801
自教	-10.7801
宗者	-10.7806
如勝論師	-10.781
之見	-10.7812
捺	-10.7815
八法	-10.7817
唯是一	-10.7821
立聲是無常	-10.7822
後一句	-10.7823
無罪	-10.7823
所陳	-10.7824
總顯	-10.7831
指陳	-10.7831
復云	-10.7834
王位	-10.7834
為同	-10.7837
入十住	-10.7837
後別	-10.7837
繫屬	-10.784
雖殊	-10.784
常住一心	-10.7842
三字	-10.7849
第	-10.785
行法	-10.785
為有法	-10.7859
自利行	-10.7863
慳貪	-10.7866
善道	-10.7868
一身	-10.7871
以何為	-10.7872
二過	-10.7872
不足	-10.7872
轉相門	-10.7872
深信	-10.7872
餘四	-10.7877
依生滅門	-10.7879
難者	-10.7884
依真如	-10.7886
真能破	-10.7887
三毒	-10.7887
別法	-10.789
未相應	-10.7893
名為無明	-10.7894
應如是	-10.7898
四智	-10.7902
有殊	-10.7908
若異	-10.7909
五句	-10.7913
兩句	-10.7914
水界	-10.7915
義同	-10.7916
其餘	-10.7918
行布施	-10.7919
而可	-10.7919
百年	-10.7925
難陀	-10.7933
此觀	-10.794
言有	-10.7941
故名真如	-10.7946
米	-10.7949
緩	-10.795
妻	-10.795
辛	-10.795
令不	-10.7952
如餘	-10.7952
総	-10.7956
雖念	-10.7957
瘡	-10.7957
名不定	-10.7958
甲	-10.7958
官	-10.7958
諸境界	-10.7958
對彼	-10.7959
敗	-10.7961
取其	-10.7962
伐	-10.7963
迎	-10.7964
為味	-10.7965
杌	-10.7965
甘露	-10.7966
不雜	-10.7967
而有無明	-10.7971
財施	-10.7973
名法身	-10.7973
治障	-10.7973
丈	-10.7973
戶	-10.7975
禁戒	-10.7975
阿那含	-10.7975
真宗	-10.7976
轉輪聖王	-10.7979
霧	-10.7979
乍	-10.7981
增勝	-10.7984
墮負處	-10.7986
亦不能	-10.799
漠	-10.7991
聽受	-10.7993
留惑	-10.7995
安置	-10.7995
上中下	-10.7999
無有窮盡	-10.8003
他用	-10.8005
若心有動	-10.8007
本覺內熏	-10.8008
若立	-10.801
此六	-10.8011
為此	-10.8012
兩俱隨一	-10.8014
不明	-10.8015
品中	-10.8018
知一切法	-10.8019
同異品	-10.802
伽陀	-10.802
造此論	-10.8021
不成過	-10.8028
諸佛世尊	-10.8029
如上所說	-10.8033
一萬劫	-10.8033
皆盡	-10.8036
無所依	-10.8037
合云	-10.8037
無間道	-10.8039
一切眾生皆	-10.804
以信	-10.804
歸本	-10.8044
作沙門	-10.8045
徧轉	-10.8045
五法	-10.8045
於一切法	-10.8047
當來	-10.8048
其用	-10.805
聲等	-10.8056
決擇分	-10.8058
此中有三	-10.8065
同分	-10.8065
有智	-10.8069
略辨	-10.8073
為門	-10.8073
可成	-10.8078
差別相	-10.8078
大慈悲	-10.8081
入住	-10.8083
中各	-10.8083
唯言	-10.8083
汝今	-10.8087
得離	-10.8089
三千	-10.8092
析	-10.8096
於色等	-10.8099
受想	-10.811
示相	-10.811
取陰	-10.8111
中之	-10.812
實非	-10.8127
起成	-10.8129
在前	-10.813
業因	-10.8131
不住生死	-10.8134
開合	-10.8134
即是真如	-10.8136
未來世	-10.8137
法差別	-10.8143
無非	-10.8144
若如	-10.8147
離障	-10.8147
已還	-10.8149
能成就	-10.8153
生彼	-10.8158
熾	-10.816
順真	-10.816
見諸眾生	-10.8161
刃	-10.8162
賜	-10.8162
種種相	-10.8169
由心	-10.8169
但於	-10.8173
二意	-10.8173
依不覺	-10.8174
損害	-10.8174
列釋	-10.8176
分分	-10.8179
方始	-10.818
醎	-10.818
於水	-10.8182
所持	-10.8183
齋	-10.8188
何者為	-10.8189
漂	-10.8189
溺	-10.819
鄙	-10.8191
的	-10.8191
識等	-10.8191
王言善哉善哉	-10.8191
親證	-10.8192
知是	-10.8194
故前云	-10.8194
按	-10.8198
彼中	-10.8198
一多	-10.8198
根塵	-10.8199
兩舌	-10.82
三摩提	-10.82
斯陀含	-10.82
賓	-10.8201
此無明	-10.8201
皆不可得	-10.8202
下答	-10.8203
鑒	-10.8205
僧佉	-10.8205
轉釋	-10.8206
無別異	-10.8209
未起	-10.8209
積聚他用	-10.8209
因明論	-10.821
損減	-10.8214
淨戒	-10.8215
此方	-10.8215
離苦	-10.8216
所緣境	-10.8217
心不見心	-10.8218
邪命	-10.8219
是其常	-10.822
大圓鏡智	-10.8221
儞	-10.8221
自體相熏習	-10.8227
迴向菩提	-10.8227
▁初總	-10.8229
非所聞	-10.8231
未滿	-10.8232
如是知	-10.8235
顯理	-10.8235
聲聞乘	-10.8236
此位中	-10.8238
盡不盡	-10.8239
唯自	-10.824
如我	-10.824
本覺智	-10.8241
一一各各	-10.8242
初中有三	-10.8242
不思議變	-10.8242
合集	-10.8244
如何得	-10.8246
勝處	-10.825
合為	-10.8251
麁相	-10.8251
生喜	-10.8253
淳淨	-10.8254
所破	-10.8254
可壞	-10.8255
不忘	-10.8257
出息	-10.8261
由其	-10.8262
立論者	-10.8269
亦乃	-10.8271
有二義一	-10.8271
與無明	-10.8271
名為智礙	-10.8272
以無常	-10.8273
於境	-10.8275
名為能立	-10.8276
為先	-10.8278
人間	-10.8284
婆羅	-10.8286
相應義	-10.829
事理	-10.829
入真如門	-10.8294
未斷	-10.8299
但明	-10.8304
入道	-10.8305
一論	-10.8305
因名	-10.8309
喻體	-10.831
二年	-10.8312
人法	-10.8313
天道	-10.8314
千由旬	-10.8314
無功用	-10.8317
本意	-10.8322
法說	-10.8322
藏中	-10.8327
所成故	-10.8327
順理	-10.8331
不合	-10.8331
問云	-10.8339
同法喻	-10.834
染著	-10.834
隨釋	-10.834
不同也	-10.8341
令滿	-10.8343
大仙	-10.8343
無二故	-10.8345
不容	-10.8345
今文	-10.8345
已去	-10.8348
未離	-10.8351
無量劫	-10.8353
功力	-10.8354
初牒	-10.8356
令心生滅	-10.8359
亦具	-10.8362
八相	-10.837
意意識	-10.837
有九	-10.8377
自立	-10.8377
於一切處	-10.838
唯說	-10.8381
甜	-10.8389
理應	-10.8391
所立不成	-10.8392
行善	-10.8392
之道	-10.8394
顯發	-10.8394
謂如來藏	-10.8399
業故	-10.84
快	-10.8402
麥	-10.8408
丸	-10.8408
舒	-10.8409
眾緣	-10.8411
相續不斷	-10.8413
計名	-10.8414
同許	-10.8414
聲生	-10.8415
非宗法	-10.8416
練	-10.8416
楞嚴	-10.8419
誡	-10.842
降伏	-10.8425
智了	-10.8427
氷	-10.8427
卑	-10.8432
生一切法	-10.8435
折	-10.8435
故新論云	-10.8438
約義	-10.844
無明滅	-10.8443
非約	-10.8446
一日一夜	-10.8446
不得言	-10.845
後結	-10.8452
勤勇發	-10.8453
名能立	-10.8454
信真如	-10.8458
無俱不成	-10.846
先有	-10.8461
疏記	-10.8465
滅盡定	-10.8468
眾僧	-10.8468
化生	-10.8472
真如也	-10.8472
此皆	-10.8473
可斷	-10.8475
若菩薩	-10.8475
若因	-10.8476
答以	-10.8479
以為其	-10.848
聲為	-10.848
不怯	-10.8481
無二體	-10.8486
智淨	-10.8489
何因	-10.849
遍一切	-10.8491
不可分別	-10.8491
未證	-10.8492
比智	-10.8494
外塵	-10.85
今明	-10.8501
心真如者	-10.8506
依主釋也	-10.8508
過去未來	-10.8509
陀羅	-10.8512
證智	-10.8513
即空	-10.8516
之量	-10.8518
之方便	-10.8518
無形	-10.8519
有生滅	-10.8526
又行者	-10.8528
執有	-10.8529
三細中	-10.853
智人	-10.8531
初總	-10.8535
通相	-10.8539
出體	-10.8547
垢染	-10.8547
前重	-10.8547
別別	-10.8548
相者是	-10.855
六染中	-10.855
果分	-10.8555
生法	-10.8555
六塵境界	-10.8557
皆是無明	-10.856
為明何義	-10.8561
無常想	-10.8562
不消	-10.8563
上上	-10.8568
妄相	-10.857
我身	-10.8571
十門	-10.8572
耀	-10.8573
餘義	-10.8577
義別	-10.8577
以後	-10.8581
登地	-10.8581
資生	-10.8582
還生	-10.8584
總立	-10.8585
自他共	-10.8586
如佛所說	-10.8588
無雜	-10.8594
含攝	-10.8595
白言	-10.8603
還淨	-10.8604
隨文	-10.8604
未見	-10.8606
奉行	-10.861
名差別	-10.8617
分別心	-10.8619
鬘	-10.862
即真如門	-10.8624
種生	-10.8626
雖然	-10.863
爪	-10.863
周迴	-10.8631
和尚	-10.8634
莖	-10.864
風吹	-10.8642
熾盛	-10.8645
必當	-10.8645
小兒	-10.8647
荷	-10.8648
怨家	-10.8648
回向	-10.8648
刻	-10.865
信成就發心者	-10.8653
有前後	-10.8653
慶	-10.8654
瞿	-10.8655
隣	-10.8656
見聞覺知	-10.8659
淪	-10.866
庶	-10.8661
覺分	-10.8663
擾	-10.8664
括	-10.8667
今者	-10.8669
尋伺	-10.8669
唯見	-10.8671
亦不應	-10.8677
生住異滅	-10.8679
大臣	-10.8679
那先言譬如	-10.868
淨法滿足	-10.8682
聖賢	-10.8683
此結	-10.8684
地水火風	-10.8685
業力	-10.8689
阿棃耶識	-10.869
勤行	-10.8694
俱分	-10.8696
頌言	-10.8697
娑婆	-10.8698
異品遍無	-10.8699
略示	-10.8702
精勤	-10.8708
二顯	-10.8711
過咎	-10.8712
又此人	-10.8716
為義	-10.8718
本淨	-10.8718
知者	-10.8725
禰	-10.8727
轉法輪	-10.8727
若起	-10.8729
善見	-10.8729
名同	-10.8734
根本熏習	-10.8736
別辨	-10.8737
九句中	-10.8738
猶若	-10.874
不可言	-10.8743
貌	-10.8743
相耶	-10.8748
而實不	-10.8749
能藏	-10.875
常寂	-10.875
諸凡夫	-10.8751
四行	-10.8755
下第三	-10.8758
屬當	-10.8759
聞說	-10.8761
所立義	-10.8765
於義	-10.8766
重說	-10.8768
未成	-10.8768
作大	-10.8768
宗喻	-10.8771
火燒	-10.8772
三世諸佛	-10.8775
勝解	-10.8778
何謂	-10.878
識浪	-10.8785
雜染	-10.879
第二句	-10.879
大法	-10.8791
未曾有	-10.8794
熏動	-10.8796
證入	-10.88
利眾生	-10.88
戒者	-10.8802
意顯	-10.8805
既爾	-10.8808
能正	-10.8809
一切下	-10.8811
為所熏	-10.8812
總釋	-10.8814
五趣	-10.8818
謂由無明	-10.8819
之相也	-10.8819
謂眾生心	-10.8819
非可	-10.8819
甚深法	-10.8819
標釋	-10.8823
即法身	-10.8829
我與	-10.8833
生信	-10.8836
與我	-10.8838
證成	-10.8843
自見	-10.8844
闕一	-10.8845
得度	-10.8854
依主釋	-10.8857
佛塔	-10.8859
所聞性	-10.886
若行	-10.8862
丈夫	-10.8862
銀	-10.8865
染淨諸法	-10.8869
工巧	-10.8869
人有	-10.887
陵	-10.8872
何能	-10.8873
嗅	-10.8876
四過	-10.8877
焦	-10.888
紹	-10.888
默	-10.8881
為主	-10.8882
侍	-10.8885
弗	-10.8885
憒閙	-10.8886
穿	-10.8887
炬	-10.8891
從本	-10.8891
義利	-10.8891
次二	-10.8891
暢	-10.8894
諸門	-10.8894
此經文	-10.8894
稱性	-10.8894
毛孔	-10.8895
速疾	-10.8896
不應說	-10.8896
阿賴耶	-10.8897
愈	-10.8898
廓	-10.8898
尤	-10.8902
五十一種	-10.8903
本願	-10.8903
訓	-10.8904
他方佛色	-10.8908
須彌	-10.8909
禪師	-10.8909
撥	-10.8911
如量智	-10.8912
斷常	-10.8913
長短	-10.8915
遷流	-10.8916
無生滅	-10.8916
異於	-10.8917
為因緣	-10.8919
緣熏習鏡	-10.892
救度	-10.8922
結名	-10.8923
瑟	-10.8924
是大	-10.8927
以不解故	-10.893
所量性故	-10.8933
可畏	-10.8933
心數法	-10.8935
智慧觀察	-10.8937
故說名為	-10.8937
絕待	-10.8937
生佛	-10.8938
莊嚴具	-10.8941
即是不覺	-10.8941
見已	-10.8943
能立不遣	-10.8944
修生	-10.8946
比量者	-10.8947
文意	-10.895
若觀	-10.8952
多一心	-10.8956
言生因	-10.8956
三重	-10.8956
可立	-10.8958
二緣	-10.8958
大涅槃	-10.8959
往向	-10.896
治道	-10.8961
顯說	-10.8964
斯論	-10.8965
真法	-10.8969
風界	-10.8975
境起	-10.8975
同品定有	-10.8981
不淨想	-10.8982
六趣	-10.8985
愛敬	-10.8986
變作	-10.8988
彼宗	-10.8989
萬劫	-10.899
入正理	-10.899
廣分別	-10.8993
師云	-10.8993
有所得	-10.8998
應修	-10.9006
四攝	-10.9007
是名為四	-10.9012
十法	-10.9015
以起	-10.9018
心生滅者	-10.9019
正命	-10.9019
蓋以	-10.9022
此當	-10.9029
名身	-10.9029
信根本	-10.9031
說偈	-10.9039
進退	-10.904
非有相	-10.904
所依止	-10.9042
所宗	-10.9046
相違義	-10.9046
未說	-10.9048
事中	-10.9053
有法差別相違	-10.9055
亦不離	-10.9058
之根本	-10.9059
此之二	-10.9061
施與	-10.9062
總略	-10.9065
中有四	-10.9066
欲得	-10.907
寶藏	-10.9072
得聞	-10.9074
云何有	-10.9074
猶在	-10.9075
不增	-10.9076
般	-10.9083
常行	-10.9086
送	-10.9087
度眾生	-10.9088
猶有	-10.9088
中文	-10.9093
一真	-10.9094
先釋	-10.9095
唯識論	-10.9097
但能	-10.9097
於因	-10.91
求菩提	-10.9102
伎	-10.9102
聖者	-10.9103
氏	-10.9103
奔	-10.9103
法有法	-10.9108
起業	-10.9109
之語	-10.9109
定中	-10.911
方是	-10.911
汝當	-10.911
四信	-10.9111
用熏	-10.9113
縣	-10.9116
若住	-10.9118
若如是者	-10.9118
枝葉	-10.9119
則得	-10.912
染故	-10.912
羣	-10.912
紛	-10.9124
逼迫	-10.9125
阿毘曇	-10.9125
淨熏	-10.9126
隨妄	-10.9127
削	-10.9128
工	-10.9129
皇	-10.9129
沙門婆羅門	-10.913
相去	-10.9133
巨	-10.9134
鮮	-10.9139
於諸眾生	-10.914
湛	-10.914
又問	-10.914
之由	-10.9141
弟	-10.9141
轉輪王	-10.9141
無始無明	-10.9145
於虛空	-10.9145
纏縛	-10.9148
四五	-10.915
名句文	-10.9151
救護	-10.9153
鎔融	-10.9154
總為	-10.9157
已見	-10.9159
是法身	-10.9161
因明入正理論	-10.9162
及彼	-10.9163
若修止者	-10.9163
可言	-10.9164
三十六	-10.9165
分別智相應染	-10.9168
此三昧	-10.9168
引文	-10.917
天竺	-10.917
常恒不變	-10.917
一由旬	-10.9171
不失不壞	-10.9171
若生	-10.9172
脩多羅中作如是說	-10.9172
我義	-10.9172
見佛身	-10.9173
定不離眼識	-10.9174
有何差別	-10.9177
具顯	-10.918
不可壞	-10.9181
具云	-10.9184
釋所以	-10.9186
若有人	-10.9187
違理	-10.9188
又彼	-10.9197
答釋	-10.9199
無德	-10.9199
世間法	-10.9201
次下第二	-10.9203
得樂	-10.9205
各有三	-10.9207
容受	-10.9209
無漏法	-10.9211
現色	-10.9216
即依	-10.9218
諸部	-10.9222
轉成能見	-10.9225
與其	-10.9225
問意	-10.9233
隨宜	-10.9234
作諸	-10.9235
出其	-10.9237
日光	-10.9237
而於	-10.9238
或見	-10.9244
擇滅	-10.9247
說名能立	-10.9248
▁初正釋	-10.925
智起	-10.9252
多義	-10.9255
覆藏	-10.9258
開門	-10.9262
以慧	-10.9264
靜心	-10.9264
新生	-10.9265
一切世界	-10.9268
依不覺故	-10.9271
現起	-10.9274
卷第一	-10.9275
為真	-10.9281
初正顯	-10.9282
行施	-10.9282
若實	-10.9283
利他行	-10.9287
種種差別	-10.9289
九過	-10.929
謂無明	-10.9294
▁二別釋	-10.9298
今取	-10.93
善知	-10.93
發智	-10.9301
既離	-10.9303
教令	-10.9304
皆當	-10.9305
神解	-10.9306
一明	-10.9314
虗空等	-10.9314
後合	-10.9316
除此	-10.9318
以不知	-10.9318
意熏習	-10.9322
如斯	-10.9322
現境	-10.9322
無流	-10.9324
真熏	-10.9325
不能了	-10.9326
正體	-10.9326
五過	-10.9328
順真如	-10.934
日日	-10.9342
勅	-10.9343
有二一	-10.9343
無邊際	-10.9344
如是如是	-10.9344
方便善巧	-10.9345
祇	-10.9345
元年	-10.9345
昔在人中	-10.9346
皮肉	-10.935
能生一切	-10.935
妄心熏習	-10.9351
狼	-10.9358
怨憎會	-10.9358
阿蘭若	-10.9358
十歲	-10.936
曼陀羅	-10.936
沙彌	-10.936
截	-10.936
裟	-10.9361
滑	-10.9362
愛別離	-10.9362
全分一分	-10.9365
悉知	-10.9365
稻	-10.9369
塹	-10.9374
雅	-10.9376
扶	-10.9376
真如隨緣	-10.9379
此疑	-10.938
往昔	-10.938
弊	-10.938
所詮義	-10.9381
村	-10.9381
未了	-10.9384
忻	-10.9388
借	-10.939
踰	-10.9391
灌頂	-10.9394
不覺知	-10.9395
蕩	-10.9396
釋有二初	-10.9399
六麁	-10.9403
宿世	-10.9403
左右	-10.9403
總答	-10.9406
萬像	-10.9406
先問	-10.9408
染汙	-10.9408
無有變異	-10.9417
知相緣相	-10.9418
不能見	-10.9421
以方便	-10.9421
有二初結指	-10.9421
善哉	-10.9424
如是眾生	-10.9426
從無始世來	-10.943
如金	-10.9431
今但	-10.9434
而言之	-10.9435
無漏種子	-10.9437
出家人	-10.944
身體	-10.9444
作禮	-10.9447
當知是人	-10.945
靜處	-10.9452
位在	-10.9453
通攝	-10.9458
唯有一	-10.9458
動搖	-10.946
妙音	-10.946
意謂	-10.9461
又言	-10.9461
七變	-10.9463
能受	-10.9465
作如是言	-10.9466
作善	-10.9467
據此	-10.9468
之大	-10.947
譬如有人	-10.947
但緣	-10.9472
經書	-10.9474
初義	-10.9475
我今當	-10.948
能使	-10.9481
五蓋	-10.9481
盡十方	-10.9485
不得名	-10.9488
口業	-10.9491
五教	-10.9492
復次若	-10.9492
似現	-10.9498
離礙	-10.9502
已作	-10.9503
隨時	-10.9507
復能	-10.9515
非一相	-10.9515
四字	-10.9523
卷上	-10.9525
護念	-10.9526
亦滅	-10.9527
更相	-10.9531
初中有二	-10.9537
界中	-10.9539
諦聽	-10.9542
火聚	-10.9544
治斷	-10.9544
業識心	-10.9546
合為一	-10.9549
不生滅心	-10.955
妙用	-10.9551
諸眾生等	-10.9552
無邊故	-10.9554
供養諸佛	-10.9555
修作	-10.9558
諸趣	-10.9558
為善	-10.9559
巳來	-10.9563
本文	-10.9564
三門	-10.9565
諸天子	-10.9566
惡行	-10.9568
所住	-10.9571
業轉	-10.9571
絕相	-10.9572
菩薩藏	-10.9579
結云	-10.9583
即生滅門	-10.9585
炙	-10.9585
結也	-10.959
詔	-10.9594
三諦	-10.9599
既其	-10.96
執我	-10.9603
持業釋	-10.9609
為能熏	-10.9611
卿	-10.9615
引喻	-10.962
醜	-10.9622
湯	-10.9625
君	-10.9627
即墮	-10.9627
彼復	-10.9627
游	-10.9628
此一心	-10.9631
終不能	-10.9631
曜	-10.9634
映	-10.9639
春	-10.964
其聲	-10.9641
羸	-10.9641
怨賊	-10.9642
圖	-10.9645
意欲	-10.9646
真言	-10.9646
不耐	-10.9648
是心生滅因緣相	-10.965
則不得	-10.965
健	-10.9651
他受用	-10.9655
優劣	-10.9655
所別不極成	-10.9656
何故說	-10.9657
極成色	-10.9659
猒	-10.9659
箇	-10.9659
略舉	-10.966
無所畏	-10.9661
聰明	-10.9662
足處	-10.9663
果滿	-10.9665
未甞	-10.9665
真故極成色	-10.9665
或作	-10.9666
真如熏習	-10.9666
有法及法	-10.9667
思議	-10.9667
大城	-10.9668
唯佛窮了	-10.9668
不苦不樂受	-10.9669
寶花	-10.9671
聞思修	-10.9671
l	-10.9674
逆順	-10.9674
塵沙	-10.9674
形像	-10.9675
世間相違	-10.9676
無惑	-10.9676
香象	-10.9685
此執	-10.9687
無復	-10.9688
詮表	-10.9689
更無別法	-10.9689
能變	-10.9691
乘者	-10.9696
首陀	-10.9698
知彼	-10.9699
標數	-10.97
失念	-10.97
困苦	-10.9701
真妄和合	-10.9702
樂相	-10.9703
既成	-10.9704
地獄中	-10.9707
不亡	-10.9708
之義也	-10.9708
此處	-10.9709
要須	-10.9711
死時	-10.9716
發心相	-10.9716
名似現量	-10.9716
惑染	-10.9717
熏起	-10.9717
結屬	-10.9717
佛出世	-10.972
此即是	-10.9721
善巧門	-10.9722
希求	-10.9728
自共	-10.9729
▁二別	-10.9731
無質礙因	-10.9733
經所說	-10.9734
具明	-10.9736
地者	-10.9736
各各差別	-10.9737
契當	-10.9737
清淨始覺	-10.9739
通明	-10.9744
眾德	-10.9745
無妨	-10.9748
見法身	-10.9755
已知	-10.9762
喻合	-10.9764
諸人	-10.9768
見非所作	-10.9769
言因	-10.977
無相可得	-10.9771
此相	-10.9774
後四	-10.9775
▁初明	-10.9781
言辭	-10.9785
成佛道	-10.979
意趣	-10.979
為無	-10.9792
諸禪定	-10.9794
全同	-10.9794
深妙	-10.9795
六麤中	-10.9796
他比量	-10.9797
何故此中	-10.9802
轉生	-10.9802
無分別故	-10.9802
釋曰五	-10.9808
無所立	-10.9808
亦不相違	-10.9809
佛法僧	-10.9813
行因	-10.9814
攝一切法	-10.9819
以少	-10.982
他方	-10.9825
隨滅	-10.9826
有愛	-10.9828
福智	-10.9828
又若人	-10.9829
出三界	-10.983
成其	-10.9842
染淨本覺	-10.9847
虛空界	-10.9848
亦當	-10.985
焚	-10.9857
思念	-10.9858
立無常	-10.9862
智用	-10.9868
令修	-10.9868
哭	-10.9869
圍遶	-10.9869
以彰	-10.987
師說	-10.987
巖	-10.987
脹	-10.9877
清淨法	-10.9879
七八	-10.9882
麤相	-10.9883
聾	-10.9885
科分	-10.9885
誦經	-10.9886
相似覺	-10.9886
體無二	-10.9887
住位	-10.9887
哀	-10.989
論師說	-10.989
他不許	-10.989
所受	-10.9891
笑	-10.9893
如波	-10.9893
私	-10.9893
灑	-10.9894
大德	-10.9895
夷	-10.9897
六七	-10.9897
便生	-10.9898
基	-10.9899
淨智	-10.9899
何異	-10.9901
曇	-10.9903
貫通	-10.9903
保	-10.9904
醍	-10.9905
合修	-10.9906
貪恚	-10.9906
捐	-10.9906
河沙	-10.9909
危	-10.991
遲速	-10.9911
善哉善哉	-10.9911
戒取	-10.9912
斷盡	-10.9913
與佛	-10.9913
如日	-10.9913
善男子善女人	-10.9917
兩宗	-10.9919
無合	-10.9921
筏	-10.9923
八聖道	-10.9924
懃	-10.9925
香味	-10.9926
二人	-10.9927
除斷	-10.9928
所願	-10.993
不染而染	-10.9932
願我	-10.9933
法出離鏡	-10.9934
於契經中	-10.9935
信相應地	-10.9936
是菩提	-10.9937
此謂修	-10.9937
四念處	-10.9941
標指	-10.9944
現色不相應染	-10.9946
諸禪	-10.9949
有法自相相違	-10.9951
因言	-10.9951
得無分別心	-10.9951
少分見	-10.9955
無餘涅槃	-10.9957
不住涅槃	-10.9962
此復	-10.9964
對量	-10.9966
本有法身	-10.9966
作有緣性	-10.9968
見愛煩惱	-10.9969
須菩提	-10.997
電光	-10.9973
曳	-10.9974
隨順法性	-10.9979
難意	-10.9982
梨耶識	-10.9982
佛世尊說	-10.9984
努	-10.9984
從緣生	-10.9987
所集	-10.9987
依處	-10.9992
雖無量	-10.9993
論釋	-10.9993
從來	-10.9993
往彼	-10.9995
諸物	-10.9998
愚人	-11.0004
起大悲	-11.0007
令增長	-11.0011
名為大	-11.0015
惑亂	-11.0018
得益	-11.0018
▁二釋成	-11.0019
應如是知	-11.0021
八句	-11.0023
林中	-11.0027
遍行	-11.0028
得自相	-11.0034
天魔	-11.004
大菩薩	-11.0048
能立因	-11.006
此中有	-11.0064
證涅槃	-11.0065
第三相	-11.0067
有生滅心	-11.0069
卒	-11.0079
而悉	-11.0082
別門	-11.0088
老病死	-11.0089
初結前生後	-11.0093
摩訶衍論	-11.0102
無有前後	-11.0104
初徵	-11.0104
現報	-11.0104
故華嚴云	-11.0106
則有三種	-11.0107
皆令	-11.0107
求之	-11.0108
依經	-11.0113
六處	-11.0114
增上緣	-11.0116
大用	-11.0119
世間人	-11.012
之教	-11.0124
便無	-11.0128
斷無明	-11.0134
暴	-11.0135
十方諸佛	-11.0138
於彼中生	-11.0139
無礙智	-11.014
癡行人	-11.0141
此本覺	-11.0143
法我見	-11.0143
苾芻	-11.0145
現證	-11.0145
釈	-11.0146
螺髻	-11.0147
索	-11.0149
作證	-11.0152
貝	-11.0162
懺	-11.0163
遊戲	-11.0165
四中	-11.0168
鬪諍	-11.0168
條	-11.0168
怪	-11.0169
憍	-11.017
顏	-11.017
云何下	-11.0171
偶	-11.0171
溫	-11.0171
出世間法	-11.0175
到彼岸	-11.0175
床	-11.0176
吉	-11.0177
意說	-11.0177
耽	-11.0177
滅度	-11.0178
伺	-11.0179
王復問	-11.0182
塔廟	-11.0183
番	-11.0183
染熏	-11.0184
頗梨	-11.0189
倒合	-11.019
闡提	-11.019
憎愛	-11.0191
皆通	-11.0192
提婆	-11.0194
戲樂	-11.0194
自成	-11.0197
千世界	-11.0198
念無住相	-11.0199
幾種	-11.0199
心行處滅	-11.02
䇿	-11.02
上所說	-11.02
初發意	-11.0201
迦羅	-11.0201
果不離因	-11.0203
染而不染	-11.0203
深厚	-11.0204
阿黎耶識	-11.0206
色無色界	-11.0207
還源	-11.0208
即入	-11.0211
麗	-11.0211
脩多羅說	-11.0212
之具	-11.0214
無明滅故	-11.0214
過去世	-11.0215
此釋之	-11.0217
不應作	-11.0221
文有三	-11.0222
卷第三	-11.0222
現形	-11.0224
不能盡知	-11.0224
法身不現	-11.0229
三世間	-11.023
今依	-11.0231
智身	-11.0233
隷	-11.0233
減失	-11.0234
正業	-11.0235
五行	-11.0236
亦隨	-11.024
一切凡夫	-11.0242
皆在	-11.0244
於聲	-11.0245
乘義	-11.0245
念念生滅	-11.0246
隨緣成	-11.0249
偈頌	-11.0255
何因緣故	-11.0258
阿字	-11.0259
取彼	-11.026
聲是有法	-11.0264
古今	-11.0264
信樂	-11.0264
。」【(○	-11.0267
凡所	-11.0267
本體	-11.0271
涅槃經云	-11.0273
脩羅	-11.0277
此文中	-11.0278
故令	-11.0288
如燈	-11.0289
所以言	-11.0291
迷惑	-11.0291
勝論師	-11.0292
所著	-11.0296
即是一心	-11.0297
此示	-11.0299
作緣	-11.03
大無量	-11.0302
其文	-11.0304
淨相	-11.0304
東西	-11.0305
無同喻	-11.0306
見性	-11.0308
合喻	-11.0313
相從	-11.0314
起後	-11.0318
諸菩薩等	-11.0325
分別六塵	-11.0328
應機	-11.033
能立不成	-11.033
泯相	-11.0334
雖異	-11.0334
立比量	-11.0339
表實	-11.0341
諦觀	-11.0345
方起	-11.0347
勝能	-11.0359
不繁	-11.0359
智體	-11.0362
自語	-11.0368
同異喻	-11.037
眾生真心	-11.0371
不云	-11.0374
所疑	-11.0381
修心	-11.0384
前約	-11.0387
諸過	-11.0387
合離	-11.039
相生	-11.0395
正思惟	-11.0405
發起善根	-11.0407
善惡業	-11.0416
極樂	-11.0416
尺	-11.0424
圍	-11.0424
周圍	-11.0425
果德	-11.0426
價	-11.0428
忘失	-11.0428
所作事	-11.0428
劇	-11.043
勒	-11.0431
富樂	-11.0434
徑	-11.0435
其上	-11.0435
漫	-11.0435
壞苦	-11.0436
即時	-11.0437
愧	-11.0439
四名	-11.0439
不離於	-11.0439
無倒	-11.0439
我語	-11.044
谷	-11.044
有終	-11.0442
作是思惟	-11.0443
苑	-11.0444
明白	-11.0445
在後	-11.0445
鉤	-11.0452
蓮	-11.0453
端嚴	-11.0454
傾	-11.0456
楚	-11.0456
依業識	-11.0458
恩愛	-11.0461
因由	-11.0463
二十七	-11.0464
鍊	-11.0464
瑜伽等	-11.0465
無用	-11.0465
四無量	-11.0466
誘	-11.0467
體相二大	-11.0468
舍利	-11.0469
不破	-11.0469
得究竟樂	-11.0469
教授	-11.0469
能顯示	-11.0469
適悅	-11.0469
識變	-11.0473
品云	-11.0475
苦集	-11.0475
念無異相	-11.0476
我所說	-11.0477
故下論云	-11.0477
覺於念住	-11.0478
十句	-11.048
枳	-11.0482
卷第四	-11.0482
下釋成二初	-11.0483
如實空鏡	-11.0483
頓悟	-11.0484
離念相者	-11.0484
濕性不壞	-11.0485
勤勇無間所發性故	-11.0486
無所不徧	-11.0487
十千劫	-11.0488
此段	-11.0489
對佛弟子	-11.049
對色	-11.0491
竟在於前	-11.0492
初坐禪人	-11.0495
何假	-11.0504
釋曰後合本論	-11.0508
空相	-11.0509
何等為四	-11.0509
返流	-11.051
以熏習故	-11.0512
卷第二	-11.0512
但遮	-11.0513
實句	-11.0514
教義	-11.0519
當生	-11.052
滅惑	-11.052
異執	-11.052
名一行三昧	-11.0525
生淨土	-11.0528
後門	-11.0529
自在天	-11.053
念住	-11.0531
結使	-11.0532
十八界	-11.0532
喻明	-11.0537
力用	-11.0541
十萬	-11.0541
持業釋也	-11.0542
徵列	-11.0542
此二因	-11.0542
亦不成	-11.0543
為境	-11.0545
力能	-11.0553
所緣境界	-11.0558
合二	-11.0558
熏成	-11.0559
天耳	-11.0565
異前	-11.0571
歡喜地	-11.0571
略顯	-11.0572
所染	-11.0575
火界	-11.0576
隨順修行	-11.0579
熏變	-11.0582
永滅	-11.0584
述曰此	-11.0587
行道	-11.059
從緣	-11.0594
不應有	-11.0595
具戒	-11.0595
假有	-11.0597
何成	-11.0603
使令	-11.0605
佛意	-11.0605
略釋	-11.0608
淨業	-11.0609
自高	-11.0609
前來	-11.0612
道果	-11.0615
先總	-11.0618
隨從	-11.0618
攝盡	-11.0621
執受	-11.0621
名為如來藏	-11.0622
已被	-11.0624
顧	-11.0626
正教	-11.0629
倒離	-11.063
今疏	-11.063
有三門	-11.0632
十義	-11.0634
證法身	-11.0635
生喜樂	-11.0635
不相應染	-11.0637
能令眾生	-11.0638
即如來藏	-11.0642
以瓶	-11.0644
約生滅門	-11.0645
說有無明	-11.0648
假智	-11.0648
無二無別	-11.0649
異心	-11.065
一分轉	-11.065
標列	-11.0653
開發	-11.0656
廣論	-11.0663
聲瓶	-11.0663
通釋	-11.0669
今舉	-11.0669
莫不	-11.067
遂成	-11.0671
還歸	-11.0671
初中二	-11.0676
違共	-11.0678
謨	-11.068
次辨	-11.0696
召	-11.0703
如勝論	-11.0703
針	-11.0705
冠	-11.0705
㲲	-11.0707
准前	-11.0711
八分	-11.0713
之境界	-11.0714
六門	-11.0715
射	-11.0716
百非	-11.0716
佛教	-11.0716
酪	-11.0718
為始	-11.0719
今欲	-11.0719
亦知	-11.0719
祕	-11.072
猴	-11.0721
苗	-11.0723
欝	-11.0723
通緣	-11.0723
納	-11.0725
互為	-11.0725
披	-11.0727
夜叉	-11.0731
於一心	-11.0733
片	-11.0733
震	-11.0734
朗	-11.0737
一切法無	-11.0739
▁三結	-11.074
嘆	-11.0742
嗔	-11.0742
中作如是說	-11.0742
折伏	-11.0742
默然	-11.0744
涯	-11.0745
爾時世尊	-11.0746
戒定慧	-11.075
業轉現	-11.0751
他智	-11.0753
勝用	-11.0754
梵世	-11.076
簡擇	-11.076
獨一	-11.0761
已來	-11.0764
因熏習鏡	-11.0766
還復	-11.0767
秘	-11.0768
云何當	-11.0768
滅無餘	-11.0769
故此釋云	-11.0769
從初正信	-11.0772
如來之藏	-11.0774
報化二身	-11.0774
聞修多羅說	-11.0775
善巧方便	-11.0777
所言法者	-11.078
當何	-11.0785
三祇	-11.0787
常在	-11.0789
敵智	-11.0791
權教	-11.0791
但得	-11.0795
那先問王言	-11.0796
五門	-11.08
總中	-11.08
五大	-11.0804
異熟識	-11.0806
等持	-11.0806
求那	-11.0807
成相違	-11.0808
結頌	-11.0813
二品	-11.0816
屬著	-11.0816
生老病死	-11.0816
罪報	-11.0818
不殺	-11.0822
真如生滅	-11.0823
善利	-11.0824
熱觸	-11.0825
由因	-11.0826
若對	-11.0828
器世間	-11.0833
異品有	-11.0833
前世	-11.0836
更互	-11.0839
無比	-11.0842
無所依止	-11.0847
勤苦	-11.0847
法出離	-11.085
理趣	-11.0852
正答	-11.0852
本數	-11.0852
通依	-11.0852
歸於	-11.0854
令成	-11.0857
上根	-11.0859
無明熏真如	-11.086
種種莊嚴	-11.0862
深入	-11.0865
隨根	-11.0867
又經云	-11.0869
厭惡	-11.0873
正修	-11.0874
不覺而起	-11.0876
依真如門	-11.0877
以如來藏	-11.0879
天中	-11.0887
諸佛法身	-11.089
已滅	-11.0892
速得	-11.0897
至極	-11.0898
此中下	-11.0898
畢竟空	-11.0904
生人中	-11.0905
俱時而有	-11.0912
太虗	-11.0914
有本覺	-11.0917
便能	-11.0928
正當	-11.093
不闕	-11.0932
妄動	-11.0934
應滅	-11.0935
報佛	-11.0937
翻為	-11.0938
巳還	-11.0938
遊行	-11.0939
一切言說	-11.094
熏習力故	-11.0944
歸一心	-11.0946
機感	-11.0954
本始	-11.0956
不去	-11.0956
常念	-11.0963
定力	-11.0964
者謂即	-11.0967
陰所攝	-11.0977
怯	-11.098
別處	-11.0988
諸眾生故	-11.0991
無增減	-11.0993
已前	-11.1
若比丘	-11.1
是語	-11.1003
八義	-11.1004
剛	-11.1004
福行	-11.1006
甞	-11.1006
鬪戰	-11.1012
輪王	-11.1014
錢	-11.1015
四障	-11.1015
綿	-11.1015
有俱不成	-11.1017
雖知	-11.1017
早	-11.1019
飄	-11.102
後方	-11.1021
一字	-11.1021
遙	-11.1022
戴	-11.1023
憙	-11.1025
雪山	-11.1026
逸	-11.1026
逾	-11.1027
決疑門	-11.1031
卵	-11.1032
槃	-11.1032
縷	-11.1033
怠	-11.1035
翻譯	-11.1035
勉	-11.1036
奴	-11.1038
不共許	-11.1038
此即初也	-11.1038
喻顯	-11.1039
如初廣說	-11.1039
動亂	-11.1041
心想	-11.1041
稠林	-11.1043
契真	-11.1044
例此	-11.1045
同品異品	-11.1045
救世	-11.1046
聽聞	-11.1046
答意	-11.1047
於十方	-11.1048
自比量	-11.1049
若汝意謂	-11.1051
寬狹	-11.1052
聽法	-11.1053
克	-11.1054
覺於念異	-11.1054
一切諸法皆	-11.1056
財寶	-11.1056
鑛	-11.1057
宗家法	-11.1058
竝	-11.1058
重明	-11.1059
所修離相	-11.1059
問若爾	-11.1059
尅	-11.1061
心念法異	-11.1064
依如來藏故有生滅心	-11.1065
入胎	-11.1067
四句者	-11.1067
與心相應	-11.1067
長養	-11.1068
求解脫	-11.1069
十惡	-11.107
已後	-11.1071
二初牒指	-11.1071
不能入	-11.1071
願求	-11.1072
無有斷絕	-11.1072
緣慮	-11.1072
不敬	-11.1072
不安	-11.1073
譬如瓶等	-11.108
從他	-11.1082
覺分齊	-11.1085
異說	-11.1089
引經證	-11.1091
施主	-11.1093
境界為緣	-11.1093
二種本法	-11.1094
說法要	-11.1094
塵境	-11.1097
顯現法身	-11.1097
因性	-11.11
配屬	-11.1101
知諸法	-11.1102
如諸部	-11.1104
退轉	-11.1107
佛那謨	-11.1107
斷結	-11.1107
小劫	-11.1108
今此門中	-11.1108
徧滿	-11.1108
悔過	-11.111
對顯	-11.1112
非不可壞	-11.1119
於瓶等	-11.1125
融通	-11.1128
之所以	-11.113
堅等	-11.1132
三節	-11.1132
緣滅	-11.1134
不堪	-11.1136
阿羅漢果	-11.1139
現識所現	-11.1144
乃至十地	-11.1145
藏性	-11.1146
日輪	-11.1154
諸善根	-11.1155
耳根	-11.1157
稱實	-11.1157
後文	-11.1159
善根力	-11.116
無斷絕	-11.1162
破云	-11.1164
正因相應	-11.1165
無我想	-11.1165
行位	-11.1171
同相者	-11.1172
諸佛法	-11.1174
有礙	-11.1178
所辨	-11.1178
持淨戒	-11.1179
本覺體	-11.1181
即屬	-11.119
一一皆	-11.1194
苦報	-11.1198
不自在故	-11.12
歸向	-11.1201
於諸法	-11.1205
一心二門	-11.1206
作是言	-11.1208
專心	-11.1208
無物	-11.121
後當	-11.1212
離眼識	-11.1215
所障	-11.1215
所作無常	-11.1219
可聞	-11.122
雖在	-11.122
釋曰後辨	-11.122
起念相續	-11.1221
不減	-11.1228
後位	-11.1233
二徵列	-11.1239
無邊功德	-11.1244
翻對	-11.1245
清淨戒	-11.1246
之詞	-11.1247
如前所	-11.1253
少欲	-11.1265
眼耳	-11.1269
說念	-11.1275
離見	-11.128
翻染	-11.1287
微劣	-11.1287
口中	-11.1289
後報	-11.1292
後三句	-11.1295
融攝	-11.1301
相關	-11.1307
驅	-11.1309
髓	-11.1309
自不成	-11.131
毺	-11.1312
眾寶所成	-11.1316
踊躍	-11.1316
筋	-11.1317
能見能現	-11.1317
熏眾生	-11.1318
後後	-11.1319
黑暗	-11.1321
摂	-11.1323
一切無量無邊	-11.1323
採	-11.1324
邑	-11.1324
恥	-11.1324
寒熱	-11.1324
發如是心	-11.1325
一行三昧	-11.1325
二云何下	-11.1326
似現量	-11.1327
殃	-11.1327
色香味觸	-11.1329
省	-11.1329
入理	-11.133
俱胝	-11.133
掃	-11.133
泥犁	-11.1331
憎惡	-11.1331
予	-11.1332
育	-11.1333
収	-11.1336
沾彌利望群	-11.1336
可樂	-11.1337
所縛	-11.1337
外別有	-11.1339
眾人	-11.134
現染	-11.1341
堅牢	-11.1341
更復	-11.1343
情有	-11.1344
差別相故	-11.135
未解	-11.135
寶池	-11.135
若復有人	-11.1354
冤家	-11.1354
剎那不住	-11.1356
皆無自立	-11.1357
輕安	-11.1357
動則有苦	-11.1357
空理	-11.1358
修遠離法	-11.1358
初地以上	-11.1359
名為意識	-11.1361
阿梨耶	-11.1362
對敵	-11.1364
因言遣言	-11.1364
根本業不相應染	-11.1365
凝然	-11.137
天地	-11.1371
輕重	-11.1372
復次真如自體相者	-11.1373
所現之色	-11.1373
惡知識	-11.1374
順於	-11.1376
如說聲常	-11.1376
神足	-11.1377
即理	-11.1377
宗同品	-11.1377
正體智	-11.1377
不遮	-11.138
自教相違	-11.1381
獨存	-11.1384
不變隨緣	-11.1384
諸惑	-11.1384
能熏所熏	-11.1384
不用	-11.1385
違害	-11.1386
為對治	-11.1388
是業熟	-11.139
依於業識	-11.1392
破和合識相	-11.1393
以有妄心	-11.1393
經意	-11.1393
他世	-11.1398
論議	-11.1398
王言我	-11.1399
由是義故	-11.1399
隨所應	-11.1401
三衣	-11.1401
法集經	-11.1402
佛體	-11.1404
以為體故	-11.1406
不犯	-11.1407
設使	-11.1414
諸有智	-11.1418
分別染淨	-11.1421
此二法	-11.1424
如世	-11.1432
一切法皆	-11.1434
臥具等	-11.1434
序分	-11.1434
若爾何故	-11.1435
種種性	-11.144
瓶上	-11.1447
佛法身	-11.1451
諸善法	-11.1452
苦想	-11.1452
色蘊	-11.1456
以此因緣	-11.1462
共不定	-11.1463
清白	-11.1464
如似	-11.1464
愛念	-11.1465
前雖	-11.1465
中又二	-11.147
有質礙	-11.1473
後解	-11.1486
如來藏心	-11.1489
四塵	-11.1494
離言說	-11.1494
理體	-11.1496
初中後	-11.1498
標舉	-11.1504
從無始	-11.1505
惡作	-11.1506
摩訶衍者	-11.1506
影現	-11.1507
為令眾生	-11.1508
頓斷	-11.1511
聲上所作	-11.1513
淨名云	-11.1515
分門	-11.1517
不怖	-11.1517
得脫	-11.1519
之極	-11.1523
真如自體	-11.1528
無中間有	-11.1529
皆共	-11.1536
言真如者	-11.1541
言極成	-11.1545
必為	-11.1547
不如實知	-11.1556
要依	-11.1562
總攝諸	-11.1562
名相似覺	-11.1566
前三染	-11.1572
方所	-11.1574
者何義	-11.1574
下正明	-11.1591
釋曰後別	-11.1592
本源	-11.1603
造惡	-11.1606
寧有	-11.1609
頸	-11.1611
杵	-11.1612
𡄣	-11.1615
熱鐵	-11.1616
菴	-11.1617
更無別	-11.1617
隨緣義	-11.1626
吞	-11.1626
進修	-11.1628
膝	-11.1629
豪	-11.1631
泥團	-11.1631
匿	-11.1631
芥子	-11.1632
迅	-11.1633
他身	-11.1633
依體	-11.1634
照明	-11.1634
倚	-11.1634
開敷	-11.1636
汝難	-11.164
警	-11.1641
輒	-11.1646
太子	-11.1646
毘婆舍那	-11.1648
攝末	-11.1649
紫	-11.1651
一塵	-11.1653
定有性	-11.1653
希望	-11.1655
無道理	-11.1655
二段	-11.1656
後句	-11.1656
善因果	-11.1657
認	-11.1658
敗壞	-11.1659
增上慢	-11.166
今釋	-11.166
料簡	-11.166
龜	-11.1661
若言有	-11.1661
方隅	-11.1661
如來滅後	-11.1665
如來在世	-11.1666
白衣	-11.1668
依覺故迷	-11.1669
踈	-11.167
懈慢	-11.167
言詮	-11.1671
消滅	-11.1672
名現量	-11.1673
若生若滅	-11.1673
教誡	-11.1673
包含	-11.1674
佛功德	-11.1675
成自然業	-11.1675
所謂心性不生不滅	-11.1675
流布	-11.1675
細中之細	-11.1676
寶船	-11.1677
有垢	-11.1678
釋師	-11.168
四天下	-11.1681
墮二乘地	-11.1682
遍照法界義	-11.1682
自下第三	-11.1683
今此偈中為明何義	-11.1684
;	-11.1684
遠近	-11.1686
移轉	-11.1686
無有邊際	-11.1686
二作釋文	-11.1687
染法淨法	-11.1687
卷第十	-11.1687
瓶衣等	-11.1688
足目	-11.1691
福蘊	-11.1695
真偽	-11.1697
八因	-11.1698
三十二種	-11.1704
報應	-11.171
終不可得	-11.1712
俱舍	-11.1713
上二句	-11.1713
實語	-11.1721
最大	-11.1723
三十二相	-11.1723
大乘義	-11.1727
數息	-11.1733
無有一法	-11.1737
句處	-11.1737
名為應身	-11.1738
猶豫不成	-11.1738
唯局	-11.174
凡位	-11.1743
但應	-11.1744
一期	-11.1747
自體相用	-11.1748
有八種	-11.1752
三十四	-11.1757
上首	-11.1757
依功力	-11.1758
宗有法	-11.1758
一月	-11.1761
六波羅蜜	-11.1766
如何說	-11.1766
無退	-11.1771
遇佛	-11.1771
對勝論	-11.1774
凡夫人	-11.1774
在其中	-11.1778
智惠	-11.1781
正量	-11.1782
前六	-11.1789
總言	-11.1794
能乘	-11.1798
覺心源	-11.1803
未分	-11.1815
三類	-11.1818
彼子	-11.1824
兼取	-11.1824
一味平等	-11.1826
妙行	-11.1835
名似因	-11.1839
何功德	-11.1842
所化眾生	-11.1843
方便心	-11.1843
菩提涅槃	-11.1843
如虗空等	-11.1853
▁二答	-11.186
且依	-11.1864
隨緣不變	-11.1865
室中	-11.1869
王子	-11.1871
如下文	-11.1872
證菩提	-11.1878
彼坐禪人如是	-11.188
欲行人	-11.1884
外物	-11.1885
之因緣	-11.1887
始得	-11.1887
見報身	-11.1891
前位	-11.1893
大有性	-11.1903
值佛	-11.1909
麁顯	-11.1911
智性	-11.1911
證果	-11.1911
均	-11.1911
堪受	-11.1914
修梵行	-11.1917
發時	-11.1921
前七	-11.1923
敵對	-11.1923
惱亂	-11.1927
先標	-11.1927
信地	-11.1927
耆	-11.193
城門	-11.1932
如來身	-11.1932
京	-11.1932
邪念	-11.1934
二初結前生後	-11.1936
剃	-11.1936
但欲	-11.1941
冬	-11.1942
周匝	-11.1944
血肉	-11.1944
吼	-11.1945
場	-11.1947
灌	-11.1947
園林	-11.1949
竹	-11.1949
旃陀羅	-11.1951
諸苦惱	-11.1952
禮佛	-11.1953
諂曲	-11.1953
躁	-11.1953
赴	-11.1954
兄	-11.1956
活命	-11.1957
云何取其相	-11.1959
居士	-11.196
鳴	-11.1964
滋	-11.1964
供給	-11.1965
欺誑	-11.1967
裏	-11.1971
是亦不然	-11.1971
迭	-11.1972
下引證	-11.1973
聲聞獨覺	-11.1973
現世	-11.1975
虛空相	-11.1976
厄	-11.1976
酬	-11.1977
邪婬	-11.1977
有六種	-11.1978
無厭足	-11.1978
鎧	-11.1979
知有我	-11.1979
常樂我淨	-11.198
厭生死	-11.1983
七寶	-11.1985
軌法師	-11.1985
長夜	-11.1986
導師	-11.1986
菩提行	-11.1987
發趣道相	-11.1992
摧伏	-11.1993
石女	-11.1994
能別不極成	-11.1994
維摩詰	-11.1996
名同品	-11.1996
g	-11.1996
水非動性	-11.1997
智性不壞	-11.1999
以為宗	-11.2
綱要	-11.2002
云何知	-11.2002
受道緣	-11.2002
作如是念	-11.2003
u	-11.2003
p	-11.2003
o	-11.2003
n	-11.2003
唯屬	-11.2004
大乘集菩薩學論卷第	-11.2005
畧	-11.2005
依一心法有二種門	-11.2005
能知名義	-11.2006
答前問	-11.2007
遍是宗法性	-11.2011
新熏	-11.2012
此下第二	-11.2012
深固	-11.2013
衰變	-11.2014
無逼樂無有受樂	-11.2015
遍於	-11.2016
非無相	-11.2019
常無常品	-11.202
大果	-11.2022
四卷經	-11.2025
亦得名	-11.2026
平等一味	-11.2029
依如來藏故	-11.2029
資具	-11.2032
則墮	-11.2032
所言義者	-11.2033
不能成	-11.2035
顯照	-11.2036
極成能別	-11.2039
名似比量	-11.204
修止觀	-11.2045
見思	-11.2045
二者相大	-11.2046
所敬	-11.2047
指前	-11.2049
例前	-11.205
色陰	-11.2053
極成有法	-11.2054
一者體大	-11.2057
十五種	-11.2058
自性空	-11.206
妙吉祥言	-11.2065
所趣	-11.2068
衣食	-11.207
無明動	-11.2073
盡無餘	-11.2074
能發起	-11.2074
相分色	-11.2076
意之識	-11.208
消除	-11.2081
三年	-11.2085
五頂	-11.2085
境智	-11.2086
即熏習真如	-11.2087
威神	-11.2088
能壞	-11.2092
一段	-11.2093
漸斷	-11.2094
誰為	-11.2094
妙寶	-11.2105
分量	-11.2106
▁二釋相	-11.2107
四百	-11.2108
斷障	-11.2108
宜應	-11.2108
道分	-11.2112
示法	-11.2116
學道	-11.2117
淨鏡	-11.2122
器世界	-11.2124
時方	-11.2125
難解	-11.2127
意識轉	-11.2128
傍生	-11.2128
染淨始覺	-11.2128
反此	-11.2133
無有差別	-11.2135
彌陀	-11.214
獨覺	-11.2144
經本	-11.2151
有五百	-11.2154
恒沙功德	-11.2154
潤生	-11.2154
道品	-11.2156
一切智智	-11.2157
現像	-11.2163
見邊	-11.2165
不敢	-11.2168
麤顯	-11.2168
初略明	-11.2171
謂一切法	-11.2173
麤分	-11.2177
能度	-11.2186
違自宗	-11.2186
自受用	-11.2193
搖	-11.2198
福業	-11.2202
之末	-11.2207
二執相	-11.2214
文可知	-11.2218
先陳	-11.2221
六不定	-11.2222
惑障	-11.2229
故名現量	-11.2233
二十一	-11.2234
▁初總標	-11.2234
熏修	-11.2235
亦同此	-11.2238
更立	-11.2239
并及	-11.2247
枝末無明	-11.2248
隨類	-11.2248
先世	-11.2249
為所依故	-11.2252
成佛時	-11.2253
論者言	-11.2253
迷理	-11.2253
依報	-11.2255
那尸	-11.2258
瓶等無常	-11.2261
華嚴經云	-11.2263
溢	-11.2269
我等今	-11.227
如經說	-11.2273
歡	-11.2274
賣	-11.2275
直顯	-11.228
鈴	-11.2281
筌	-11.2282
各各不同	-11.2282
教理	-11.2284
黨	-11.2284
勝義諦	-11.2286
方顯	-11.2291
曹	-11.2291
方盡	-11.2292
侶	-11.2292
房	-11.2293
墨	-11.2294
顛	-11.2294
爰	-11.2294
世間出世間	-11.2294
須彌山	-11.2294
戀	-11.2295
執著相	-11.2299
四邊	-11.2299
非實等	-11.2301
更無餘	-11.2301
教誨	-11.2303
僻	-11.2307
貪恚癡	-11.2307
舍宅	-11.2309
纂	-11.2311
軸	-11.2314
端坐	-11.2316
岐	-11.2318
何緣	-11.2321
蘊處界	-11.2322
無有邊	-11.2322
交徹	-11.2323
鄣	-11.2326
對無空論	-11.2326
二十三諦	-11.2329
假使有人	-11.2329
正取	-11.233
心無初相	-11.233
法及有法	-11.2331
本始二覺	-11.2331
唯佛能知	-11.2332
亦無可立	-11.2332
主伴	-11.2335
得見心性	-11.2336
d	-11.2336
c	-11.2336
若如是義者	-11.2337
深解現前	-11.2337
十五日	-11.2337
大智慧光明義	-11.2339
二自此下	-11.2341
若干	-11.2341
損益	-11.2341
引教證	-11.2343
唯一真心	-11.2344
謂諸菩薩	-11.2344
妄顯真	-11.2345
一切諸佛本所乘故	-11.2346
如是次第	-11.2347
實我	-11.235
二釋疑	-11.2351
闕初相	-11.2356
應當知	-11.2357
可燒	-11.2357
尋思	-11.2359
不樂世間	-11.2359
自害	-11.236
▁s	-11.2364
龍樹菩薩	-11.2366
地水	-11.2368
王富	-11.2369
眼等根	-11.2371
兼正	-11.2371
一邊	-11.2373
七支	-11.2376
實德業三	-11.2379
法差別相違因	-11.238
不退位	-11.2382
比丘尼	-11.2382
有一實因	-11.2382
呬	-11.2384
不易	-11.2385
前量	-11.2388
教化眾生	-11.239
科文	-11.2393
忍門	-11.2397
本覺性	-11.2397
質礙性	-11.24
賢善	-11.2421
中初一	-11.2423
亦不可得	-11.2424
四大種	-11.2425
且初	-11.2427
生厭離	-11.2428
四種住相	-11.2433
有三一	-11.2433
無益	-11.2455
所謂顯示	-11.2455
諸界	-11.2458
勝方便	-11.2459
業幻	-11.2461
通凡聖	-11.2462
方便道	-11.2476
遠離一切	-11.2478
例知	-11.2479
名隨分覺	-11.2479
金剛心	-11.2488
三十七	-11.2489
聲宗	-11.2493
得利	-11.2493
五種意	-11.25
觀待	-11.2502
勝慧	-11.2502
為增上緣	-11.2507
大歡喜	-11.2508
餘位	-11.2515
似比量	-11.2516
得成佛	-11.252
所起之	-11.2522
無明熏習	-11.2524
救拔	-11.2531
度生	-11.2533
已盡	-11.2534
故下云	-11.2535
得安隱	-11.2538
有厭求	-11.2538
大菩提心	-11.2545
困	-11.2548
七句	-11.2553
施作	-11.2557
真如無相	-11.2559
住異	-11.2562
愛語	-11.2568
所信	-11.257
分之一	-11.2574
諦所攝	-11.2577
不空義	-11.2577
性本無	-11.2578
助成	-11.2584
如佛說	-11.2585
瓶體	-11.2585
愛見	-11.2588
云何隨順	-11.2592
猪	-11.2606
三段	-11.2608
令觀	-11.2609
蜂	-11.2613
山林	-11.2614
四眾	-11.262
雷	-11.2624
耕	-11.2628
如是我聞	-11.263
▁初問	-11.2631
喧	-11.2631
蚊	-11.2634
忿	-11.2634
峯	-11.2636
妙理	-11.2636
細滑	-11.2636
府	-11.2637
此中意	-11.2637
兜率	-11.2637
政	-11.2638
生滅因緣相	-11.2638
封	-11.2639
慰	-11.2639
柔	-11.264
乾闥婆	-11.2641
罰	-11.2641
會釋	-11.2641
中央	-11.2645
制伏	-11.2647
薩埵	-11.2647
花鬘	-11.2647
德所依故	-11.2648
總指	-11.2649
領納	-11.2649
靡	-11.2649
虛誑	-11.2651
杜	-11.2651
紙	-11.2653
一真法界	-11.2653
身語意	-11.2654
刀杖	-11.2654
逮	-11.2655
華文論	-11.2656
書寫	-11.2657
不顛倒	-11.2658
金剛喻定	-11.2658
違世間	-11.2658
勵	-11.2658
福慧	-11.2662
善趣	-11.2664
外無別	-11.2664
真常	-11.2665
從本以來	-11.2666
顯法身	-11.2666
鎖	-11.2667
所以然者	-11.2667
大乘經	-11.2668
不依氣息	-11.2671
唯證相應	-11.2672
心王心所	-11.2673
分為三	-11.2674
即斯義	-11.2674
即分為	-11.2675
所住依果	-11.2676
牒上	-11.2677
脩多羅中	-11.2679
以無念等故	-11.2679
疾病	-11.268
信得增長	-11.268
菩薩盡地	-11.268
k	-11.2681
本業經云	-11.2683
無明力不覺心動	-11.2683
作正因緣	-11.2683
宛然	-11.2683
能別所別	-11.2685
有體無體	-11.2686
障難	-11.2686
依無明起差別	-11.2686
無別異故	-11.2687
境界滅時	-11.2687
各開	-11.2688
徵問	-11.2688
猶存	-11.2689
更作	-11.2689
俱行俱轉	-11.269
久久	-11.2691
瓶盆等	-11.2692
和會	-11.2692
親愛	-11.27
世出世間	-11.2703
聲上有	-11.2703
亦犯	-11.2706
實理	-11.2707
塵勞	-11.2708
正勤	-11.2711
就初中有二	-11.2712
分際門	-11.2718
五逆	-11.2718
弭	-11.2719
想念	-11.2722
相應心滅	-11.2723
開釋	-11.2724
所住處	-11.2732
徧照	-11.2735
四聖諦	-11.274
摩尼寶	-11.2741
於諸法中	-11.2745
頌文	-11.2746
名婆羅門	-11.2747
不相應義	-11.275
漸增	-11.2755
陳那菩薩	-11.2757
麤重	-11.2757
始覺同本	-11.2758
深解	-11.2762
不二大乘	-11.2762
最多	-11.2763
法相宗	-11.2763
不顧	-11.2772
自在無礙	-11.2772
不捨離	-11.2778
圓智	-11.2779
亦有二種	-11.2784
二頌	-11.2787
微少	-11.279
轉識現	-11.28
豈能	-11.2805
非勤發	-11.2814
所立宗義	-11.2817
義如前說	-11.282
觀音	-11.2821
始覺般若	-11.2825
後三染	-11.2826
非究竟覺	-11.2831
敵證	-11.2831
那羅	-11.2832
直明	-11.2839
住正定	-11.2842
說名法身	-11.2842
中受生	-11.2849
餘物	-11.2853
迴心	-11.2855
忍受	-11.2867
下第二明	-11.2867
為地獄	-11.2872
戒定	-11.2879
所學	-11.2879
故圓覺云	-11.2881
約位	-11.2891
初總明	-11.2892
斯乃	-11.2892
諸漏	-11.2897
齊等	-11.2906
散說	-11.2911
據實	-11.2911
次句	-11.2912
違逆	-11.2915
滿覺	-11.2918
何故不說	-11.2923
不同彼	-11.2926
是名為五	-11.2926
梵音	-11.2926
長大	-11.2927
有二釋	-11.2927
問意云	-11.2936
初唱本論	-11.2942
十億	-11.2943
一切法空	-11.2945
耐	-11.2952
易解	-11.2956
遍轉	-11.2956
似彼	-11.2959
▁初結指	-11.2966
肢	-11.297
有多種	-11.2973
散說門	-11.2974
髻	-11.2974
忠	-11.2974
不斷絕故	-11.2975
離實有	-11.2978
幹	-11.2983
伴侶	-11.2987
瑩	-11.2988
彩	-11.2989
黃金	-11.299
陀羅驃	-11.2992
高一由旬	-11.2992
種現	-11.2992
穴	-11.2994
眼色	-11.2994
身土	-11.2999
十波羅蜜	-11.2999
男子	-11.3
鹽	-11.3002
諸男女天	-11.3002
調柔	-11.3003
堂殿	-11.3006
澤	-11.3006
佛像	-11.3006
振	-11.3006
閱	-11.3007
炷	-11.3008
提婆達多	-11.3008
不可分	-11.3008
祠	-11.3009
匪	-11.301
經中佛說	-11.301
補特伽羅	-11.3012
韻	-11.3013
淡	-11.3013
柔和	-11.3014
故楞伽云	-11.3015
青黃	-11.3016
文略	-11.3017
阿闍梨	-11.3017
空無相無願	-11.3019
聲聞辟支佛	-11.302
一切善法	-11.302
過去未來現在	-11.302
起厭求	-11.3021
叵	-11.3023
盡未來際	-11.3024
利益安樂	-11.3024
毘鉢舍那	-11.3024
何以得知	-11.3024
長老	-11.3025
解釋分中	-11.3026
四鏡	-11.3027
所繫	-11.3029
勇猛精進	-11.3031
根熟	-11.3032
扇	-11.3032
出所以	-11.3032
四正勤	-11.3033
慧眼	-11.3035
經無量劫	-11.3036
非覺照義	-11.3037
謂心體離念	-11.3037
無生無滅	-11.3038
苟能	-11.3039
舉數總標	-11.304
無減	-11.3041
不散	-11.3043
同異二品	-11.3043
出胎	-11.3043
勤修習	-11.3043
相應不相應義	-11.3043
皆各總攝	-11.3044
非真識知	-11.3044
比度	-11.3047
無法可現	-11.3047
佗	-11.3047
各差別故	-11.3047
四種無為	-11.3048
無漏智	-11.3049
畢竟無念	-11.3051
終至	-11.3051
攝化	-11.3053
敬禮	-11.3053
初分門	-11.306
皆悉各各	-11.306
非真實	-11.3062
究竟地	-11.3062
見彼無常	-11.3067
墮惡趣	-11.307
何別答	-11.3073
云何為八	-11.3076
無始已來	-11.3077
長遠	-11.3079
暫時	-11.3091
ra	-11.3092
唯心所作	-11.3095
摧邪	-11.3096
無去來	-11.3097
兩輪	-11.3099
悟解	-11.3099
三賢菩薩	-11.31
不動地	-11.3101
不肯	-11.3106
迴轉	-11.313
無法可	-11.313
王復問那先言	-11.313
即有二門	-11.3131
名似能破	-11.3137
文句	-11.3137
所計	-11.314
如同異性	-11.314
第二解	-11.3141
相貌	-11.3142
如金剛	-11.3144
無窮盡	-11.3148
不變義	-11.3152
開二門	-11.3152
是故應說	-11.3159
三大之義	-11.3162
▁二引經	-11.3162
光照	-11.3175
大乘不許	-11.3178
故淨名云	-11.3178
復有何	-11.3181
十度	-11.3192
差別不同	-11.3192
微苦	-11.3194
罪惡	-11.3198
差別性故	-11.3198
能伏	-11.3201
一一門	-11.3202
神變	-11.3203
成菩提	-11.3204
結歸	-11.3207
遍宗法	-11.321
和合句	-11.321
如來所說	-11.3221
修福	-11.3221
月輪	-11.3225
四相俱時	-11.3227
風動	-11.3228
息滅	-11.3228
契合	-11.323
不得自在	-11.3232
名因明	-11.3236
身形	-11.3244
一切智心	-11.3253
十六種	-11.3253
苦海	-11.3257
容有	-11.3258
十重	-11.3261
下正釋	-11.3267
不可立	-11.327
熏習之義	-11.327
菩薩發心	-11.3275
壞時	-11.3283
立宗言	-11.3284
現比量	-11.3284
相順	-11.3286
▁三釋	-11.33
瓶所作	-11.3304
具足無量	-11.331
之異名	-11.3312
被燒	-11.3312
愚迷	-11.3316
真實性	-11.3319
我母	-11.3323
門有三初	-11.3328
相濫	-11.3331
即指前	-11.3331
勑	-11.3334
可爾	-11.3335
四住地	-11.3336
照達	-11.3336
緣熏	-11.3337
諸妙	-11.3341
巷	-11.3343
文中有二	-11.3345
踐	-11.3348
輔相	-11.3349
饒	-11.3349
不異真如	-11.3352
澁	-11.3357
童	-11.3357
旬	-11.336
悕	-11.3361
大神通	-11.3362
菩薩乘	-11.3363
升	-11.3364
茂	-11.3365
四無為	-11.3367
名不相應	-11.3367
豆	-11.3367
滴	-11.3369
五種寶樹	-11.337
罔	-11.337
遠行	-11.3371
屠	-11.3372
舟	-11.3375
有論師言	-11.3376
無限	-11.3376
他化自在天	-11.3377
除障	-11.3378
往詣	-11.3379
両	-11.3382
托	-11.3382
嘗	-11.3383
幡	-11.3385
撿	-11.3386
惱害	-11.3387
極喜	-11.3388
同品非有	-11.3389
窺	-11.3389
頭面	-11.339
派	-11.339
渾	-11.3391
秖	-11.3392
勤精進	-11.3393
猛利	-11.3393
成等正覺	-11.3394
翼	-11.3394
亦遣除想	-11.3395
依如來藏有生滅心	-11.3395
倣	-11.3396
憂喜	-11.3396
以一切法悉皆真故	-11.3396
隱沒	-11.3396
平等性智	-11.3397
菩提資糧	-11.3399
歟	-11.34
大丈夫	-11.34
棃耶識	-11.34
摽	-11.3402
有三義	-11.3402
所立無常	-11.3403
不可說不可念	-11.3403
氣息	-11.3404
又心起者	-11.3405
立大誓願	-11.3405
胎藏	-11.3405
未嘗	-11.3406
應說此論	-11.3407
先舉	-11.3407
十方三世一切	-11.3408
未曾離念	-11.3408
行根本方便	-11.3408
能見心不相應染	-11.3411
聲論師	-11.3411
分流	-11.3412
對薩婆多	-11.3413
以不知為破著故	-11.3413
有幾數	-11.3413
俱品一分轉	-11.3414
佛滅後	-11.3416
偽妄	-11.3416
寺沙門	-11.3417
發起問答決疑門	-11.3417
與行與相	-11.3418
徧一切處	-11.3419
通指	-11.3419
色心不二	-11.3419
今更	-11.3419
有二種門	-11.3423
乃至得佛	-11.3424
畢竟不退	-11.3424
種種妄執	-11.3427
報恩	-11.3428
何義謂	-11.3428
三自一心	-11.3429
可思議	-11.343
今當說	-11.3431
心體不滅	-11.3432
能詮教	-11.3432
ar	-11.3442
相可得	-11.3443
皆無分齊	-11.3443
無所住	-11.3449
亦許	-11.3449
迷亂	-11.3451
功德品	-11.3451
業繫	-11.3453
三者用大	-11.3454
決定有性	-11.3455
如凡夫人	-11.3456
能取境界	-11.3457
善財	-11.3465
滅相續心相	-11.347
總攝一切	-11.3477
地前菩薩	-11.3483
三種發心	-11.3489
依真起	-11.3489
為所成立	-11.349
六七識	-11.3491
故前文云	-11.3498
小乘不許	-11.3499
亦復然	-11.35
生死苦	-11.3502
大龍王	-11.351
此有二義	-11.3511
聞聲	-11.3514
伏難	-11.3519
有說言	-11.3522
無與等	-11.3523
無量差別	-11.3527
可了	-11.3527
常在前	-11.353
天親	-11.3543
西天譯經三藏朝散大夫試鴻臚少卿	-11.3546
影略	-11.3548
本業經	-11.3551
以有自體	-11.3572
顯了分	-11.3572
法我見者	-11.3573
應化身	-11.3577
結勸	-11.3578
標徵	-11.358
本際	-11.3589
分析	-11.359
有二初問	-11.3596
然此菩薩	-11.3597
語業	-11.36
漸轉	-11.3608
假觀	-11.361
體是一	-11.3615
調心	-11.3617
第三總結	-11.3624
用熏習者	-11.363
佛種不斷	-11.3631
佛種不斷故	-11.3633
是人於	-11.3634
自共相	-11.3635
無所著	-11.3641
歸真	-11.3642
諸善行	-11.3645
人我見者	-11.3649
壞滅	-11.365
依分別事識	-11.3651
正念真如	-11.3654
初標數	-11.3654
不離本覺	-11.3662
魔境	-11.3665
正語	-11.3665
無明染法	-11.3671
第四分	-11.3671
三總結	-11.3676
虛空處	-11.3676
從本來	-11.3687
敵論者	-11.3695
何妨	-11.3697
此中所說	-11.3708
受陰	-11.3709
尚未	-11.371
十二分	-11.371
忿恨	-11.3711
既許	-11.3716
下引經	-11.3717
塚間	-11.3718
理門云	-11.3719
高舉	-11.3722
聖眾	-11.3724
受用身	-11.3729
上上品苦	-11.3729
退分	-11.3729
囑	-11.3732
乃至無量	-11.3734
劫初	-11.3735
晝	-11.3736
朋友	-11.3737
慕	-11.3737
腰	-11.3739
悶	-11.3739
涌	-11.3743
樓閣	-11.3745
諸經論	-11.3747
頻	-11.3749
秋	-11.3751
羅剎	-11.3751
那羅延	-11.3753
暖	-11.3753
席	-11.3754
何修何相何味何處何	-11.3755
梵志	-11.3756
死屍	-11.3756
阿脩羅	-11.3758
探	-11.3759
負債	-11.3759
兇	-11.3759
悋	-11.3762
隙	-11.3763
無外境界	-11.3765
籌	-11.3766
奄	-11.3766
現現別轉	-11.3766
欲界繫	-11.3766
五受陰	-11.3767
念佛三昧	-11.3773
貪嗔	-11.3775
所入本法	-11.3775
欣厭	-11.3776
非想非非想處	-11.3776
崖	-11.3776
城邑	-11.3776
格	-11.3778
經營	-11.3778
案	-11.3779
摩醯首羅	-11.378
積聚性因	-11.378
無盡意經	-11.3781
無始時來	-11.3782
吠	-11.3783
無有休息	-11.3783
怨親	-11.3784
不無之有	-11.3785
同有異無	-11.3785
發大心	-11.3785
即謂無念	-11.3786
更互相	-11.3787
焚燒	-11.3787
隨事攀緣	-11.379
所言覺義者	-11.3792
取著轉深	-11.3792
覺知前念起惡	-11.3793
一時俱	-11.3794
摠	-11.3794
違平等性	-11.3795
不動則無見	-11.3796
諸無常者	-11.3796
十方世界之塵量	-11.3797
消惡業障	-11.3797
同品有異品	-11.3797
則無真覺自相可說	-11.3798
苦樂等報	-11.3798
色無色	-11.3802
無所遺	-11.3802
依染淨差別	-11.3802
六種染心	-11.3803
即同本覺	-11.3803
以之故言	-11.3804
從真起	-11.3804
入於涅槃	-11.3804
瞋惱	-11.3804
即此相續識	-11.3805
止濫	-11.3807
難測	-11.3807
觀一切法	-11.3808
純淨	-11.3809
猶預不成	-11.381
▁初釋義	-11.3812
示摩訶衍體	-11.3813
決了	-11.3813
同相門	-11.3814
如前云	-11.3815
流轉生死	-11.3818
尋求	-11.382
二復次下	-11.3822
能依所依	-11.3825
無有障礙	-11.3827
答初問	-11.3827
福聚	-11.3836
未熟	-11.3836
故說為用	-11.3837
三解脫門	-11.3837
前陳有法	-11.3838
無諍	-11.3839
猶如虗空	-11.384
更無別體	-11.3841
如次配	-11.3841
楞伽經云	-11.3842
摩訶衍者總	-11.3846
本來涅槃	-11.3852
甚多	-11.3853
能攝一切法	-11.3857
譬如虛空	-11.3859
依他性	-11.3861
俱決定故	-11.3862
受染熏	-11.3862
地種	-11.3863
五十一種位	-11.3867
助道	-11.3867
二初結指分門	-11.3869
衰惱	-11.3869
作四句	-11.3873
觀聽	-11.3875
那先言王	-11.3878
何故但說	-11.3878
總示	-11.3878
見五陰	-11.3879
百二十	-11.3882
不空如來藏	-11.3883
聖種	-11.3884
諸外道等	-11.3885
假令	-11.3888
名曰馬鳴	-11.3888
滅相續心	-11.389
總聚	-11.3894
無數時	-11.3895
四類	-11.3895
名為報身	-11.3896
法印	-11.3898
如理智	-11.3898
無所不至	-11.3903
有人云	-11.3906
虛妄分別	-11.3915
求出離	-11.3917
攝屬	-11.3923
展轉相	-11.3924
受化	-11.393
具足無漏	-11.3934
極細	-11.3935
似異	-11.3939
下徵釋	-11.3941
指示	-11.3963
正報	-11.3966
生怖畏	-11.3968
護身	-11.3971
病人	-11.3974
具二義	-11.3993
玄理	-11.3997
準前	-11.3997
麤分別	-11.4009
但就	-11.4012
而為其	-11.4015
在生滅門	-11.4017
根宜	-11.4024
圓通	-11.4028
安慧	-11.403
就第	-11.404
千年	-11.4042
不能成宗	-11.4045
耳聞	-11.4048
菩提道	-11.4052
藍	-11.4056
染淨熏習	-11.4061
麁念	-11.4066
無變異	-11.407
題名	-11.4076
無此過	-11.4098
述曰此下	-11.4101
鋒	-11.4109
叫	-11.4113
所惱	-11.4115
入初禪	-11.4117
煮	-11.4121
起大悲心	-11.4124
歌舞	-11.413
綸	-11.4131
業繫苦	-11.4132
庫藏	-11.4134
偷	-11.4135
勳	-11.4135
裸形	-11.4139
少壯	-11.4139
離心無	-11.414
蟻	-11.4142
燥	-11.4142
緒	-11.4143
調適	-11.4144
鬪	-11.4145
巾	-11.4145
譬如北地妙好	-11.4147
低	-11.4147
隆	-11.4147
毒藥	-11.4148
堆	-11.4149
否	-11.415
臭穢	-11.415
險難	-11.4151
象馬車	-11.4153
所觀境	-11.4153
坐臥	-11.4154
瓦	-11.4155
事事無礙	-11.4156
天水盈滿	-11.4156
竊	-11.4156
潛	-11.4159
欝單越	-11.416
有正智生	-11.416
憂悲苦惱	-11.4161
厥	-11.4162
清淨持戒	-11.4163
簡異	-11.4163
環	-11.4165
混	-11.4166
嘉	-11.4166
金色	-11.4168
勝遍光天	-11.4172
他功力	-11.4172
史	-11.4172
厨	-11.4175
正遍知	-11.4176
而實無有始覺之異	-11.4176
遞	-11.4176
巧方便	-11.4177
酤	-11.4178
救濟	-11.4178
有一比丘	-11.4179
制止	-11.418
諸所作者皆是無常	-11.418
則不須論	-11.4181
減損	-11.4181
宗無因不有	-11.4182
妙觀察智	-11.4182
請轉法輪	-11.4182
與此相違	-11.4183
客塵	-11.4185
無障無礙	-11.4185
無始覺之異	-11.4185
心實不動	-11.4186
說因宗所隨	-11.4186
非前際生	-11.4187
取種種塵	-11.4187
不出不入	-11.4188
猒求	-11.4188
雖復名覺	-11.4188
是心真如相	-11.4188
如來根本之義	-11.4189
憂悲	-11.4189
無始無終	-11.419
]	-11.419
身有無量色	-11.419
覺則不動	-11.419
執取計名	-11.419
諸所作者	-11.4191
周遍法界	-11.4191
共比量	-11.4192
有何咎	-11.4192
境界妄現	-11.4192
一切染法不相應故	-11.4192
故攝論云	-11.4193
不了一法界義者	-11.4194
無所闕失	-11.4194
應廣通達	-11.4195
非有無俱相	-11.4195
汝執	-11.4195
則無是處	-11.4195
四十二	-11.4195
智體不動	-11.4196
聖弟子	-11.4196
須陀洹果	-11.4197
佛自說	-11.4197
恐繁	-11.4199
約真如門	-11.42
獨力業相	-11.42
所言空者	-11.4202
立其名故	-11.4202
形相如何	-11.4202
墮落	-11.4203
二次說下	-11.4203
拔除	-11.4204
為那先耶	-11.4204
逆罪	-11.4206
第一變中	-11.4207
帶過	-11.4207
維摩	-11.4207
則有淨用	-11.4207
因有三相	-11.4208
具無漏法	-11.4208
魔王	-11.4209
一千由旬	-11.4211
名為同品	-11.4211
是佛境界	-11.4213
孕	-11.4213
引導	-11.4214
燒炙	-11.4215
▁二答釋	-11.4216
師教	-11.4216
不名為覺	-11.4219
或有說者	-11.4219
不為那先	-11.4219
金剛三昧	-11.4222
惡友	-11.4225
十種信心	-11.4226
釋曰後解釋有二初	-11.4227
身口意業	-11.423
如聲論師	-11.4233
九月	-11.4238
十迴向	-11.4239
第二重	-11.4245
龍樹云	-11.4246
遠離大悲	-11.4248
勝義諦中	-11.425
亦如前說	-11.425
一者覺義	-11.4255
准理	-11.4255
猶如虛空	-11.4256
六麁中	-11.4259
一切有為法	-11.4269
色究竟	-11.4272
亦有亦無	-11.4276
不相應心滅	-11.4276
𧹞	-11.428
以下明其	-11.4281
又復有	-11.4282
。」【△	-11.4293
且止	-11.4294
名為得入	-11.4295
若准	-11.4295
下結成	-11.4301
智了因	-11.4306
如華嚴	-11.431
初總敘	-11.4311
佛不說	-11.4317
等虛空界	-11.432
若坐禪人	-11.4324
王言然	-11.4327
大千	-11.4341
佛菩薩等	-11.4342
多劫	-11.4343
二百五十	-11.4344
施物	-11.4348
何等眾生	-11.4355
此二句	-11.4367
自他俱	-11.4377
生滅之法	-11.4381
違自現	-11.4382
覺滅相	-11.4386
重辨	-11.4388
大總持	-11.4391
前段	-11.4392
亦隨滅	-11.4406
勤勇因	-11.4409
淨妙	-11.442
謂此菩薩	-11.442
不謬	-11.4422
初三句	-11.4427
名得涅槃	-11.4446
信解行	-11.4461
就此門中	-11.4463
罪過	-11.447
依此義	-11.4471
瓶上所作	-11.4474
二初唱本	-11.4475
依門釋相	-11.4476
經部	-11.4503
右手	-11.4503
一心法界	-11.4505
熏習不斷	-11.4513
見空華	-11.4519
王舍城	-11.4523
大乘起信	-11.4524
黑繩	-11.4525
等無差別	-11.4525
不越	-11.4526
逃	-11.4535
禽	-11.4536
七轉識	-11.4545
奏	-11.4545
脇	-11.4547
涎	-11.4548
甘蔗	-11.4552
婁	-11.4553
胸	-11.4553
剎帝利	-11.4558
獵	-11.456
川	-11.4561
誕	-11.4563
如此之	-11.4565
瞋行人	-11.4568
郡	-11.457
炭	-11.457
例餘	-11.4572
宛	-11.4572
軀	-11.4575
肩	-11.4575
徐	-11.4575
若離神通及	-11.4576
飛鳥	-11.4576
心住不亂	-11.458
剎利	-11.458
若多若少	-11.458
輿	-11.4583
跳	-11.4583
虧	-11.4584
成實論	-11.4585
如立聲常	-11.4586
更無異	-11.4589
得阿耨多羅三藐三菩提	-11.4591
心若馳散	-11.4591
支提	-11.4591
知心妄動	-11.4592
士夫	-11.4593
都無所得	-11.4593
輸	-11.4593
是心則攝一切世間出世間法	-11.4594
如虛空等	-11.4595
太虛	-11.4595
稱揚	-11.4596
秦	-11.4597
純熟	-11.4597
三賢十聖	-11.4597
泰	-11.4598
延促	-11.4599
證自證分	-11.4599
樹木	-11.46
非色非心	-11.4601
後以心除心	-11.4601
成所作智	-11.4602
即觀之止	-11.4602
所依不成過	-11.4602
捧	-11.4602
綺互	-11.4603
故唯識云	-11.4603
不樂眾善	-11.4604
而得解者	-11.4604
奉詔譯	-11.4604
宋	-11.4605
隨分覺	-11.4605
隨眾生根	-11.4606
真俗二諦	-11.4606
色有無量相	-11.4606
依法力熏習	-11.4607
卷第五	-11.4608
還作眾生	-11.4609
妄心熏習義有二種	-11.461
若離不覺之心	-11.4611
瓶上無常	-11.4611
真實識知義故	-11.4612
所緣之境	-11.4613
父子	-11.4614
若於是處	-11.4614
異品徧無性	-11.4614
不取不著	-11.4614
寶性論云	-11.4615
自然而有不思議業	-11.4615
薩哩	-11.4617
則有染相	-11.4618
即是一法界大總相法門體	-11.4619
十方世界微塵數	-11.462
增長行緣	-11.4621
一切菩薩皆乘此法到如來地故	-11.4622
不覺心動	-11.4622
有及非有	-11.4625
成宗義	-11.4625
虗假	-11.4626
依於此心	-11.4626
略不說	-11.4633
總為一	-11.4633
無不盡	-11.4634
味著	-11.4638
出生增長	-11.4646
了不可得	-11.4646
真實不空	-11.4656
初機	-11.4657
二者不覺義	-11.4658
生三種相	-11.4664
本來清淨	-11.4667
滅無明故	-11.4667
盲人	-11.4669
所現境	-11.4674
真如之體	-11.4678
依他起	-11.468
其數無量	-11.4683
世出世法	-11.4686
無有分齊	-11.4686
39	-11.469
來去	-11.4695
因緣總相	-11.4699
一切有為	-11.4714
氣分	-11.4716
不流轉	-11.4719
月二十	-11.4724
配合	-11.4726
十信位中	-11.4729
變化身	-11.4732
何等為三	-11.4758
字輪	-11.4759
無二相故	-11.4759
釋曰六	-11.476
不可言說	-11.4762
後別釋	-11.4762
地一切入	-11.4765
所聞因	-11.4773
應是常	-11.4777
翻云	-11.4791
又是菩薩	-11.4794
如佛弟子	-11.4796
信三寶	-11.4805
應供	-11.4807
以一切下	-11.4817
名為阿梨耶識	-11.4821
住正念	-11.4829
阿那	-11.4829
上座	-11.4846
諸聲聞	-11.4847
諸罪人	-11.4857
禪那	-11.4859
念念相續	-11.4866
修習信心	-11.487
生天上	-11.4881
源本	-11.4887
燒然	-11.4893
言自許	-11.4909
同法相似	-11.4911
究竟位	-11.4914
消文	-11.4917
樹林	-11.4926
非大有	-11.493
十一種	-11.4933
其體性	-11.4943
亦得名為	-11.4948
干	-11.4956
夾	-11.4957
復二初	-11.496
一心三大	-11.4962
役	-11.4972
恭	-11.4973
鐵圍山	-11.4975
胝	-11.4975
不念我	-11.4979
極堅極強最為痛	-11.4981
親里	-11.4982
妄情	-11.4985
如華嚴經	-11.4985
貞	-11.4987
羅睺羅	-11.4988
整	-11.499
波利夜多樹	-11.499
裹	-11.4991
瘂	-11.4991
剩	-11.4992
朽	-11.4993
燭	-11.4994
紅	-11.4995
目連	-11.4996
斷諸煩惱	-11.4999
絕諸	-11.5
唾	-11.5001
娑羅	-11.5003
諮	-11.5003
攻	-11.5004
凝	-11.5008
肘	-11.5009
逈	-11.5009
江水	-11.501
夙	-11.5011
謙	-11.5011
牆	-11.5012
調御	-11.5014
立宗云	-11.5015
述造論意	-11.5015
今謂不爾	-11.5015
藏海	-11.5016
陰界入	-11.5017
蘭	-11.5019
皈	-11.5019
此事不然	-11.5019
切身	-11.5019
編	-11.5019
百歲	-11.502
寶積經	-11.502
虛偽	-11.502
迦葉波	-11.5021
不也世尊	-11.5021
風雨	-11.5022
嗢	-11.5022
昭然	-11.5023
端直	-11.5024
促	-11.5025
異類等解	-11.5026
䟦	-11.5027
白王言	-11.5027
圓音一演	-11.5028
有因有緣	-11.5028
求覓	-11.5029
不生不滅與生滅和合	-11.503
冀	-11.503
頑	-11.503
捨壽命後	-11.503
金城	-11.503
木石	-11.5031
受大苦惱	-11.5031
解脫知見	-11.5032
其數幾有	-11.5032
專注	-11.5032
斷三寶種	-11.5033
謂東為西	-11.5034
起惑造業	-11.5034
退屈	-11.5035
印度	-11.5035
如鏡中像	-11.5037
思慮	-11.5037
非非想處	-11.5038
名似立宗	-11.5039
孰	-11.5039
亂行者心	-11.5039
空無邊入	-11.504
肇	-11.504
無明熏習所起識者	-11.5041
等虗空界	-11.5041
有分別智	-11.5042
妄起想念	-11.5042
爾時世尊告	-11.5042
說有五分	-11.5042
心滅則種種法滅	-11.5042
所起見愛熏習	-11.5043
起大乘正信	-11.5043
非生非滅	-11.5043
不覺心起而有其念	-11.5044
▁166	-11.5044
畢竟常恒	-11.5044
:「	-11.5044
立敵共許	-11.5044
b	-11.5044
依業受果	-11.5045
當知無明能生一切染法	-11.5045
者此中意說	-11.5045
造斯論	-11.5046
能障真如根本智故	-11.5046
作逆事	-11.5047
不二摩訶衍法	-11.5048
能成此信	-11.5048
無始妄想熏	-11.5049
我見愛染煩惱	-11.5049
亦名如來法身	-11.505
因滅故不相應心滅	-11.5051
真如生滅二門	-11.5051
親承供養	-11.5052
俱合動相	-11.5053
境界隨滅	-11.5053
所謂不生不滅與生滅和合	-11.5054
生住滅	-11.5055
此以何義	-11.5055
三種大義	-11.5057
廣大神王	-11.5057
其心怯弱	-11.5058
迷倒	-11.5059
麼	-11.5059
似同法喻	-11.5061
若離業識	-11.5063
播	-11.5069
羅婆	-11.5069
親屬	-11.5072
種族	-11.5073
。」【(△	-11.5074
勝鬘經	-11.5079
如立聲無常	-11.508
橫說	-11.5081
根本罪	-11.5082
子微	-11.5087
漸漸轉	-11.5089
故說為意	-11.509
下總結	-11.5091
大智慧光明義等	-11.5092
動相滅	-11.5092
五欲樂	-11.5096
法身顯現	-11.5096
加持	-11.5102
憂苦	-11.5105
說名同品	-11.5108
兩重所入	-11.5112
二何故下	-11.5112
法門海	-11.5113
黎耶識	-11.5118
若無明滅	-11.512
因無所依	-11.512
名相續識	-11.5125
一切心行	-11.5126
若爾何	-11.5126
作不定過	-11.5132
配釋	-11.5138
質直	-11.5139
不離眼識色	-11.5142
相狀	-11.5156
本覺佛性	-11.5159
能治之	-11.5159
喻況	-11.5167
陀羅尼門	-11.5172
引經證成	-11.5174
兩重能入	-11.5174
以下第二	-11.5184
兩種	-11.5184
准知	-11.519
自下第二明	-11.5196
名相續相	-11.5197
金輪	-11.5213
習熏	-11.5223
第八地	-11.5224
所覺相	-11.5229
有五一	-11.5231
行乞食	-11.5248
總徵	-11.5249
勤求	-11.5249
十方界	-11.5256
入初地	-11.5257
真如之用	-11.5273
圓頓	-11.5275
並屬	-11.5277
中二句	-11.5284
在生滅門中	-11.5298
見滅諦	-11.5327
二隨釋	-11.5344
不能動	-11.5373
遂能	-11.5384
輔	-11.541
嗜	-11.5414
壓	-11.5417
贍	-11.5419
曠野	-11.5435
難可堪忍	-11.5436
值遇	-11.5437
五有為	-11.5441
療	-11.5443
沸	-11.5444
挙	-11.5445
驢	-11.5445
聰	-11.5446
叢	-11.5447
廁	-11.5448
破和合識	-11.5448
(21	-11.5448
暇	-11.5449
肅	-11.545
回	-11.5451
武	-11.5451
現比二量	-11.5451
偷盜	-11.5453
俾	-11.5453
(36	-11.5454
后	-11.5454
四天王天	-11.5454
展	-11.5454
唵	-11.5457
無覺無觀	-11.5458
泣	-11.5459
辰	-11.5459
之所圍繞	-11.5459
其樹中間	-11.5459
鵂	-11.546
倦	-11.546
泡	-11.546
s	-11.546
宰	-11.5461
瑞	-11.5461
匹	-11.5462
閻浮	-11.5462
規	-11.5462
併	-11.5463
午	-11.5463
勇健	-11.5463
能示摩訶衍自體相用故	-11.5464
螺	-11.5464
啼	-11.5465
洛叉	-11.5465
沖	-11.5466
須彌山王	-11.5466
泛	-11.5467
慳悋	-11.5467
教理行果	-11.5468
錯謬	-11.5468
所牽	-11.547
二千五百	-11.547
非想非非想	-11.547
籍	-11.5472
殑伽沙數	-11.5472
所纏	-11.5473
毘舍	-11.5474
無咎	-11.5474
瞿曇	-11.5474
佛滅度後	-11.5475
追求	-11.5476
闡	-11.5476
色聲香味觸	-11.5477
旡	-11.5477
初三攝眼所不攝故	-11.5478
訛	-11.5478
毀犯	-11.5478
菩提薩埵	-11.5479
捷	-11.5479
護持正法	-11.5479
奇特	-11.548
親疎	-11.548
發阿耨多羅三藐三菩提心	-11.548
隅	-11.5481
算數	-11.5481
發動身口	-11.5485
非求世間名利恭敬故	-11.5486
宗等多言	-11.5486
忿恚	-11.5487
以一切法皆同如故	-11.549
唯示體	-11.549
决	-11.5491
皆同真如性相	-11.5492
彼身體相	-11.5492
黑闇	-11.5492
若得無念者	-11.5493
二十小劫	-11.5494
心生則種種法生	-11.5495
見修煩惱	-11.5495
初牒指	-11.5496
梁攝論云	-11.5496
妙吉祥菩薩	-11.5496
心沈沒	-11.5497
備有不思議業	-11.5497
三界虗偽	-11.5497
違自順他	-11.5497
虗偽	-11.5498
為欲解釋如來根本之義	-11.5499
作境界之性	-11.5499
微薄	-11.5499
以有不覺妄想心	-11.5499
次第漸轉	-11.5499
具足無漏性功德故	-11.5499
對聲顯論	-11.5499
禮懺	-11.5499
等同一味	-11.55
得免諸障	-11.55
顯示摩訶衍義	-11.55
住如來種中	-11.55
薩般若慧	-11.55
恒常熏習	-11.55
猶如淨鏡	-11.5501
即心不覺常無別異	-11.5501
但以無明而熏習故	-11.5501
𥁞	-11.5501
有其染心	-11.5501
畢竟無得	-11.5501
不取不念	-11.5501
體無不實	-11.5502
馬鳴菩薩造真諦三藏譯	-11.5502
緣滅故相應心滅	-11.5502
諸佛甚深廣大義	-11.5502
因無明風動	-11.5503
淳淨明故	-11.5503
以有境界緣故	-11.5504
離實等有	-11.5504
以有無明染法因故	-11.5504
於其中	-11.5504
狹劣	-11.5506
習種性	-11.5508
若心起見	-11.5508
爾時文殊師利	-11.5515
說之為	-11.5515
能自發心	-11.5516
千劫	-11.5517
妄念而生	-11.5517
聲是所聞	-11.5518
異品一分轉	-11.552
自當顯	-11.5521
得生天上	-11.5522
嚴淨	-11.5525
釋成上義	-11.5525
圓備	-11.5526
不為車	-11.5527
有其二種	-11.5527
舍那	-11.5528
以之為別	-11.5529
怖畏生死	-11.5531
暫住	-11.5533
說所立無	-11.5534
次二句	-11.5535
由是道理	-11.5536
有勝劣	-11.5538
結示	-11.5539
與心不相應	-11.5542
未詳	-11.5545
恩德	-11.5545
四無量心	-11.5551
始覺義者	-11.5552
五種有為	-11.5554
歸趣	-11.5555
後五三	-11.5556
初執緣	-11.5557
三塗	-11.5558
過患品	-11.5558
病眼	-11.5559
一體一心	-11.5563
結集	-11.5567
受變易	-11.5573
而作因緣	-11.5573
堅實	-11.5581
法自相相違因	-11.5586
一切皆是無常	-11.5587
若然者	-11.5588
婆婆	-11.5591
唯識論中	-11.5592
眼見色	-11.5595
此位菩薩	-11.5598
有此過	-11.5604
巳竟	-11.5614
若人修行	-11.5615
能立所立	-11.5618
非佛語	-11.5624
一味一相	-11.5625
成立有法	-11.5633
具足成立	-11.5634
麁重	-11.5635
殊妙	-11.5644
若知一切法	-11.5663
甚難	-11.5665
有法自相相違因	-11.5668
四萬由旬	-11.5673
萬億	-11.5674
無量無數	-11.5685
長壽	-11.5687
拔濟	-11.5688
起現行	-11.5694
藏總攝	-11.5719
如立無常	-11.5722
一時轉	-11.5723
美妙	-11.5731
無常為宗	-11.5783
所說偈	-11.5793
自心現	-11.5803
一分不成	-11.5831
r	-11.586
前科	-11.5867
皆無自體	-11.5867
別釋散說	-11.5869
太原	-11.5874
轉徵釋	-11.5879
屍	-11.5888
聳	-11.5892
青色	-11.5892
前二句	-11.5894
藕	-11.5898
團	-11.59
貨	-11.5902
算	-11.5904
(33	-11.5908
黎	-11.591
涕	-11.5911
肥	-11.5912
離諸過	-11.5913
考	-11.5913
六塵境	-11.5915
慳嫉	-11.5915
斬斫	-11.5917
無量百千	-11.5917
象馬	-11.5919
躬	-11.592
歇	-11.5923
旁	-11.5923
牟	-11.5923
屎尿	-11.5924
自許之言	-11.5925
鷲	-11.5927
嬉戲	-11.5928
諍訟	-11.593
如意足	-11.5931
茶	-11.5932
戲笑	-11.5933
伽羅	-11.5934
祀	-11.5934
池岸	-11.5935
繒	-11.5935
戰鬪	-11.5936
飲食衣服	-11.5937
轍	-11.5938
跏	-11.5938
於所比義	-11.5939
窟	-11.5939
隣虛	-11.5939
柵	-11.5941
拯	-11.5941
繼	-11.5942
覈	-11.5943
鏤	-11.5944
飲酒	-11.5944
芳	-11.5945
檢	-11.5945
挍	-11.5947
師子吼	-11.5948
諸所有事	-11.5948
在家菩薩	-11.5948
衛世	-11.5951
遐	-11.5951
離二取相	-11.5953
寥	-11.5956
受解緣別	-11.5956
受持讀誦	-11.5956
欠	-11.5957
範	-11.5958
揀濫	-11.5958
謂心為念	-11.5959
法雲地	-11.5959
憂悔	-11.596
(22	-11.5961
阿鼻	-11.5962
戒律儀	-11.5962
階降	-11.5962
皆同如故	-11.5962
有生有滅	-11.5963
即止之觀	-11.5963
字義差別	-11.5963
九十六種	-11.5963
(23	-11.5964
比尼	-11.5965
:	-11.5966
是現識因	-11.5966
為先導	-11.5967
溼	-11.5967
確	-11.5967
悉於中現	-11.5967
即熏習妄心	-11.5968
言語道斷	-11.5968
猛風	-11.5968
證何境界	-11.5968
即是如來平等法身	-11.5969
非心智滅	-11.5969
唯心所現	-11.5969
四天王	-11.5969
與因俱	-11.597
相有無量好	-11.5971
心非動性	-11.5971
遍計所執	-11.5971
一切諸法唯依妄念而有差別	-11.5971
見從外來	-11.5971
正解不謬	-11.5972
甚為可愍	-11.5972
水相風相不相捨離	-11.5972
(43	-11.5972
即得往生	-11.5973
故說無始無明	-11.5973
非心體滅	-11.5973
薩婆若	-11.5973
違他順自	-11.5974
次下第三	-11.5975
恒河沙	-11.5976
眼等必為他用	-11.5976
若修觀者	-11.5976
隨染幻差別	-11.5977
所修之行	-11.5978
初地巳上	-11.5978
亦名為量	-11.5978
所言止者	-11.5978
卷第六	-11.5978
以何因緣	-11.5979
勤勇所發	-11.5979
離分齊相	-11.5979
曉了	-11.5979
能成立法無質礙	-11.598
不依文字	-11.598
問答決疑門	-11.598
熏習之力	-11.5981
敵者不許	-11.5981
正明執相	-11.5982
無始有終	-11.5982
即熏習無明	-11.5982
文相可知	-11.5982
為如眼識	-11.5982
十解以上	-11.5982
以依業識生滅相示	-11.5983
不離覺性	-11.5985
文相可見	-11.5985
染淨相資	-11.5987
馳散	-11.5988
滅度後	-11.599
則無邪執	-11.599
哥	-11.5991
一體無異	-11.5991
得利益故	-11.5993
以彼文中	-11.5993
聲上無常	-11.5993
起於大悲	-11.5995
毗鉢舍那	-11.5995
無體可得	-11.5995
不思議佛法	-11.5998
細微	-11.5998
與用相應	-11.5998
得漏盡	-11.5999
依境界緣	-11.5999
前文云	-11.6001
所立不遣	-11.6001
妙好	-11.6001
居止	-11.6002
巳訖	-11.6002
梵眾	-11.6003
即心不覺	-11.6003
本來常住	-11.6005
馬鳴菩薩造	-11.6007
自受用身	-11.6008
諸法實相	-11.6009
此中常宗	-11.6009
獨尊	-11.6009
師尊	-11.6011
復次為欲顯示	-11.6011
下中上	-11.6016
國師	-11.6021
諸苾芻	-11.6025
無所不通	-11.6025
謂下中上	-11.6028
染淨二法	-11.6031
別記云	-11.6032
平正	-11.6044
未亡	-11.6044
集會	-11.6045
中邊論	-11.6049
比類	-11.6051
一切異生	-11.6062
惡不善法	-11.6066
以此妄心	-11.6069
舉例	-11.6073
求名利	-11.6076
所得功德	-11.6076
入第四禪	-11.6086
歷然	-11.6089
均等	-11.6096
領解	-11.6101
寶印	-11.6103
文內有	-11.6104
皆依無明	-11.6115
以三行	-11.6119
修諸行	-11.6137
相續識滅	-11.6171
從因生	-11.6171
得無分別智	-11.6219
學者世間	-11.6223
真如之理	-11.6223
惠施	-11.6239
下釋所以	-11.6244
所現色	-11.6256
能所熏	-11.6278
勤加	-11.6283
白毫	-11.6286
情器	-11.6296
變易生死	-11.6319
前七識	-11.6339
體即真如	-11.634
攀	-11.6341
初行菩薩	-11.6344
離二邊	-11.6349
隨自意	-11.6351
躡	-11.6369
哪	-11.6371
世出世	-11.6388
忉利	-11.6389
項	-11.6389
檀越	-11.639
脣	-11.6399
飽	-11.6402
蠅	-11.6402
烈	-11.6411
彼壽量者	-11.6412
慎	-11.6413
誨	-11.6414
彼中生已受用種種不善	-11.6414
紀	-11.6419
盤	-11.6421
壘	-11.6422
妃	-11.6423
萎	-11.6425
咽	-11.6427
寡	-11.6428
阿毘達磨	-11.6428
沫	-11.6428
是生滅因	-11.6428
夕	-11.6429
疲極	-11.643
儒	-11.6431
嗔恚	-11.6432
諂誑	-11.6433
老病	-11.6433
波羅提木叉	-11.6433
耽著	-11.6433
欽	-11.6434
西域	-11.6434
朋	-11.6435
如幻夢	-11.6436
蹔	-11.6438
邏	-11.6438
沾彌利	-11.6439
掩	-11.644
牢獄	-11.644
狐	-11.6441
美味	-11.6442
琰	-11.6443
三十七品	-11.6443
院	-11.6445
長水沙門子璿錄	-11.6445
漢	-11.6446
対	-11.6447
起信論疏筆削記卷第十	-11.6447
循環	-11.6447
四大所造色	-11.6448
化樂天	-11.6448
白疊	-11.6448
門樓一	-11.6449
行住坐臥	-11.6449
尊貴	-11.6449
非彼相違義能遣	-11.6449
堪忍	-11.645
地獄餓鬼畜生	-11.645
嶮	-11.645
嬈	-11.6451
寶鈴	-11.6451
審察	-11.6452
住阿蘭若	-11.6452
陀尼	-11.6452
具足無量性功德故	-11.6453
四如意足	-11.6453
倫	-11.6455
少欲知足	-11.6456
疲倦	-11.6456
與外道共	-11.6456
吽	-11.6456
十二支法	-11.6457
示教利喜	-11.6457
激	-11.6459
豁	-11.646
捨麁分別	-11.6461
依不覺故說有始覺	-11.6462
依本覺故而有不覺	-11.6462
親友尊長	-11.6463
取色分齊	-11.6464
從因至果	-11.6464
所謂樂念真如法故	-11.6464
隨一攝故	-11.6464
現前介爾	-11.6465
五百歲	-11.6465
<	-11.6466
中亦同此說	-11.6466
始本二覺	-11.6466
遍是宗法	-11.6466
聲顯論	-11.6466
二初標示	-11.6466
如菩薩地盡	-11.6466
黑白	-11.6466
契證	-11.6467
依數列名	-11.6467
無明頓盡	-11.6468
無自心力	-11.6468
始不異本	-11.6469
生滅與不生滅	-11.6469
心即常住	-11.647
麤中之細	-11.647
善根成熟	-11.647
勝負	-11.647
此識依見愛煩惱增長義故	-11.6471
放大光明名	-11.6471
對治凡夫住著世間	-11.6471
非後際滅	-11.6471
貲	-11.6471
畢竟不可說相	-11.6472
皆同微塵性相	-11.6472
舉劣顯勝	-11.6473
能捨二乘怯弱之見	-11.6473
若止觀不具	-11.6473
歸三寶	-11.6473
同體智力	-11.6473
從信相應地觀察學斷	-11.6474
答後問	-11.6474
立聲是常	-11.6474
色性即智	-11.6475
真實識知	-11.6475
恒河	-11.6475
業果不失	-11.6475
最極微細	-11.6476
復次真如者	-11.6477
非可修相	-11.6477
一一皆各各	-11.6477
清涼不變自在義故	-11.6477
不稱法性	-11.6477
唯是法身智相之身	-11.6478
智度論云	-11.6478
決定常住無	-11.6479
除障方便	-11.6479
動相隨滅	-11.6479
離見則無境界	-11.648
發大慈悲	-11.648
當念唯心	-11.6481
復生六種相	-11.6481
依何等人	-11.6481
澄淨	-11.6481
心性離見	-11.6481
廻	-11.6481
以是二門不相離故	-11.6482
謂止一切境界相	-11.6482
經中所說	-11.6483
自此巳下	-11.6484
犯戒	-11.6485
住持苦樂	-11.6485
內路	-11.6486
校量	-11.6487
雙現前故	-11.6487
有大智用	-11.6487
此云何示	-11.6489
一分兩俱不成	-11.649
常無斷絕	-11.649
是生滅緣	-11.6492
通而言之	-11.6492
生此天	-11.6495
摩尼珠	-11.6499
六粗	-11.6502
動作生滅	-11.6506
普徧	-11.6508
犯隨一	-11.651
分明顯示	-11.6512
住胎	-11.6513
自性淨心	-11.6515
無明所動	-11.6515
為智障	-11.6517
虛假	-11.6521
現妄境界	-11.6528
唧	-11.6537
異品遍無性	-11.6537
故說為空	-11.6538
增長善根	-11.6546
倍增	-11.6547
剎土	-11.6547
立敵俱	-11.6549
初總釋	-11.655
理不失	-11.6551
冒	-11.6556
而說偈	-11.6572
上轉門	-11.659
有二初總	-11.6596
普照	-11.6597
淨潔	-11.6604
不住道	-11.6611
決疑	-11.6614
法差別相違	-11.662
心不亂	-11.6624
計著	-11.6624
更成立	-11.6627
淨法熏習	-11.664
未審	-11.6644
他受用身	-11.6654
動靜不一	-11.6656
三十三天	-11.6662
釋本文	-11.6684
多羅樹	-11.6702
癡暗	-11.6703
彼經又	-11.673
經中作如是說	-11.6735
俱不違	-11.6741
報化色	-11.6747
文可解	-11.6756
諸賢聖	-11.6756
陳疑	-11.6764
百六十	-11.6803
修一切善	-11.6828
天壽命	-11.6833
中之一	-11.6839
入如來地	-11.6866
故略不	-11.6866
弓	-11.6886
妬	-11.6909
悶絕	-11.6912
珠寶	-11.6923
帛	-11.6939
紺	-11.6939
駕	-11.6941
善法堂	-11.6944
排	-11.6944
剪	-11.6945
脈	-11.6946
訶責	-11.6948
陣	-11.6952
風所吹	-11.6953
叫喚	-11.6953
俯	-11.6953
商羯羅	-11.6958
不生滅與生滅	-11.6958
產	-11.6958
鞭杖	-11.6958
裁	-11.6959
籠	-11.6961
寶雲經	-11.6962
抱	-11.6964
給侍	-11.6964
童女	-11.6964
四寶所成	-11.6964
綺	-11.6965
揣食	-11.6967
鼻舌身	-11.6968
得泥洹道	-11.6968
矯	-11.6968
兜率陀天	-11.6968
支節	-11.6969
智度論	-11.6969
拍	-11.697
夜摩天	-11.6971
狂亂	-11.6971
悲鳴	-11.6971
尚不能	-11.6972
阿鼻地獄	-11.6972
苞	-11.6973
菟	-11.6973
忽爾	-11.6973
窮未來際	-11.6976
阿彌陀佛	-11.6976
依本修治	-11.6978
添	-11.6978
祕藏	-11.698
瑕	-11.6982
肝	-11.6982
無始世來	-11.6983
二十五諦	-11.6983
而顯現故	-11.6984
謂若為修彼止輪門	-11.6986
覧	-11.6986
槩	-11.6986
造諸惡	-11.6987
曆	-11.6987
即得隨順入真如門	-11.6987
終無有退	-11.6988
似因似喻	-11.6988
暮	-11.6989
賓頭盧	-11.6989
依名辨相	-11.6989
為欲總攝如來廣大深法無邊義故	-11.699
賢位	-11.699
重擔	-11.699
〔	-11.699
飯食	-11.6991
方寸	-11.6991
得入如來種性	-11.6991
唯依妄念而有差別	-11.6991
密嚴	-11.6991
以如來藏無前際故	-11.6992
有實體	-11.6992
ta	-11.6993
同無異有	-11.6993
則知心相生住異滅	-11.6994
契經異說	-11.6995
謂不如實知真如法一故	-11.6995
入正位	-11.6995
使人愛著	-11.6995
先宗後因	-11.6995
晦	-11.6996
重罪業障	-11.6996
能起厭苦之心	-11.6996
依此法身說名本覺	-11.6996
菩	-11.6997
必為他用	-11.6997
心不懈退	-11.6998
增長取熏習	-11.6998
隱密	-11.6998
厭生死苦樂求涅槃	-11.6998
是故此光名	-11.6998
當勤正念	-11.6999
無因無果	-11.6999
亦名分離識	-11.6999
威力	-11.6999
常與無常	-11.6999
問答釋疑	-11.7
初發意菩薩等	-11.7
總括	-11.7001
則無能入菩提之道	-11.7001
無差違故	-11.7002
穢土	-11.7002
亦無有相可取	-11.7002
情有理無	-11.7003
永離惡道	-11.7003
亦無色相可見	-11.7003
但隨眾生見聞得益	-11.7003
歸依德處	-11.7003
由宗因喻多言	-11.7003
何等外道說	-11.7004
能化教法出興門	-11.7004
欲求無上菩提	-11.7005
王復言	-11.7005
則有不見之相	-11.7006
復次眾生初學是法	-11.7006
若心體滅	-11.7007
離和合相	-11.7007
無想天	-11.7008
欲求正信	-11.7008
十卷經云	-11.7009
瓶衣	-11.7009
廣百論	-11.7009
▁初偈頌	-11.701
能依別相	-11.7011
能立法不成	-11.7011
為明無明	-11.7011
不覺念起	-11.7011
所言觀者	-11.7012
略不別釋	-11.7013
此即初門	-11.7016
謂若是常	-11.7017
周圓	-11.7021
和南	-11.7022
未離欲	-11.7023
各攝一切法	-11.7024
▁二長行	-11.7025
心性不起	-11.7027
雖有染心	-11.7028
本自無	-11.7029
深淺	-11.7031
如大海水	-11.7035
神通力	-11.7035
覺樂等	-11.7035
同品一分轉	-11.7037
始覺之智	-11.704
委釋	-11.7044
性真如理	-11.7046
是猶豫因	-11.7046
固知	-11.7048
無想定	-11.7048
乃至總說	-11.7054
修習善根	-11.7054
釋曰後解釋	-11.7055
廣狹	-11.7059
自性無生	-11.7062
置自許	-11.7065
信業果報	-11.7065
是義已	-11.7069
為能量	-11.7071
八種識	-11.7074
有為自在	-11.7077
如意珠	-11.708
種種諸惡	-11.7089
能測	-11.7128
佛及菩薩	-11.7137
未入十信	-11.7145
復次戒有	-11.7162
即起下	-11.7171
旨趣	-11.7233
聲是所作	-11.7263
首楞嚴	-11.7265
冥熏	-11.7349
林樹	-11.7383
冷熱	-11.7389
肯	-11.7409
於菩薩所	-11.7419
鏡像	-11.7427
敵證智	-11.7431
抧	-11.7431
隨一所依不成	-11.744
葛	-11.7449
大乘集菩薩學論卷第十	-11.7471
無事處	-11.7473
雪	-11.7479
筋骨	-11.7483
千億	-11.7486
鼠	-11.7488
景	-11.7491
斤	-11.7491
癰	-11.7492
臍	-11.7492
掘	-11.7492
怙	-11.7492
求不得苦	-11.7493
赤鐵	-11.7493
剝	-11.7493
辱	-11.7494
羞	-11.7494
祇數	-11.7496
嗟	-11.7496
蔑	-11.7496
趺	-11.7497
殿堂	-11.7501
忿怒	-11.7502
謹	-11.7502
衢	-11.7503
躍	-11.7504
禽獸	-11.7506
矛	-11.7507
珂	-11.7508
寶性論	-11.7508
枉	-11.7508
側	-11.7511
閙	-11.7513
醫師	-11.7514
名聞利養	-11.7515
候	-11.7515
奘師	-11.7515
阿迦尼吒天	-11.7515
婬女	-11.7516
悠	-11.7517
饑	-11.7517
凶	-11.7517
眉	-11.7518
有覺有觀	-11.7518
絲	-11.7518
之虫復有	-11.7518
即智名果	-11.7519
屏	-11.752
勇悍	-11.752
敏	-11.7521
達磨	-11.7522
毘曇	-11.7522
篋	-11.7523
得無生忍	-11.7523
牢固	-11.7524
抄	-11.7525
且止斯事	-11.7525
阿耨	-11.7527
彈指	-11.7527
撮	-11.7527
那由他	-11.7528
巧妙	-11.7528
無常苦空無我	-11.7528
【△	-11.753
無發悟	-11.7531
效	-11.7531
阿闍世王	-11.7531
无	-11.7531
循	-11.7532
修習二禪	-11.7532
精神	-11.7533
八萬由旬	-11.7533
從業生	-11.7533
英	-11.7533
青黃赤白	-11.7535
攝眾生戒	-11.7535
塗香	-11.7535
若為造作	-11.7536
無明緣行	-11.7536
一法界大總相法門體	-11.7537
爽	-11.7538
懸敘	-11.7538
信滿入住	-11.7539
故彼文云	-11.7539
喘息	-11.7539
放光明	-11.754
津	-11.7541
以現烟故	-11.7542
歡樂	-11.7544
示大乘體	-11.7545
以始覺者即同本覺	-11.7546
以有妄境界染法緣故	-11.7547
誹	-11.7547
結觀分齊	-11.7547
外緣之力	-11.7547
唯依心現	-11.7548
諾	-11.7549
照察	-11.7549
為令善根成熟眾生	-11.7549
無有少法	-11.755
遠離微細念	-11.755
(44	-11.755
令諸眾生正解不謬故	-11.7551
謂言說之極	-11.7552
遵	-11.7552
乃至不依見聞覺知	-11.7552
醒	-11.7553
共相助成	-11.7553
恭敬供養	-11.7553
麤念相	-11.7553
無有初相可知	-11.7553
能作一切勝妙境界	-11.7553
疎遠	-11.7554
群品	-11.7554
皆從心起	-11.7554
不可窮盡	-11.7554
識無邊入	-11.7555
約體絕相	-11.7555
速趣涅槃	-11.7555
通是宗法性	-11.7555
說名智身	-11.7555
心起著故	-11.7555
所言不空者	-11.7555
非其實退	-11.7556
離言絕慮	-11.7557
ḍ	-11.7557
令修善根	-11.7557
更無所念	-11.7557
徧照法界義故	-11.7557
以不達一法界故	-11.7558
非可作相	-11.7558
使無有餘	-11.7558
如有成立聲是無常	-11.7558
hā	-11.7558
轉彼淨心	-11.7558
以智性即色故	-11.7559
普利一切眾生界	-11.7559
見本法身	-11.7559
善護其心	-11.7559
無有超過之法	-11.756
若心有起	-11.756
勸請隨喜	-11.756
能攝一切法生一切法	-11.756
唯是其空	-11.756
二演義疏文	-11.7561
三寶之海轉廣大故	-11.7561
以依動故能見	-11.7561
雖實有此諸功德義	-11.7561
相應不斷故	-11.7562
則有香氣	-11.7562
所謂依不定聚眾生	-11.7562
三事和合	-11.7563
往復除疑	-11.7563
人天二乘	-11.7563
畢竟空寂	-11.7563
其旨趣者	-11.7564
未經一萬劫	-11.7564
常樂我淨義故	-11.7564
以有如是大方便智	-11.7566
亦非業繫	-11.7566
闇鈍	-11.7566
二散文釋	-11.7566
萬歲	-11.7566
與種種善法	-11.7566
丘龍	-11.7566
不了真如法故	-11.7567
初發心菩薩	-11.7568
勝鬘經云	-11.7568
故無有斷	-11.7568
遣拂	-11.7569
此等皆是	-11.757
喧動	-11.7571
二初標門	-11.7571
隨所示現	-11.7571
自性清淨心義故	-11.7573
同異二喻	-11.7575
過河沙	-11.7576
所餘法門	-11.7579
脩行信心	-11.758
調順	-11.758
教勅	-11.7581
修諸波羅蜜	-11.7583
無量功德藏	-11.7585
漸漸修習	-11.7586
無畏施	-11.7586
▁初問起	-11.759
訥	-11.759
第六意識	-11.7592
𡁠	-11.7593
能仁	-11.7598
約別義	-11.7599
與生滅和合	-11.7599
釋曰後徵釋	-11.7601
更有何	-11.7604
何過耶	-11.7604
第二中言	-11.7611
於本論中	-11.7614
那婆	-11.7621
巘尼	-11.7623
諸城門	-11.7624
此生中	-11.7627
名為退分	-11.7632
無和合義	-11.7634
就此門中即有二	-11.7637
不思議業用	-11.7638
攝世間法	-11.7644
分為四	-11.7646
從他聞	-11.7647
中唯釋	-11.7676
開二種門	-11.7689
所至處	-11.7724
何須更	-11.7725
修習止觀	-11.7733
力士	-11.7744
燒木	-11.7749
宣梵大師賜紫沙門臣日稱等奉詔譯	-11.7779
修諸善	-11.778
段論文	-11.7815
十行位	-11.7833
以依智淨	-11.7874
僧伽	-11.7888
結前生後	-11.7931
不一不異	-11.7932
法華經	-11.7948
如意寶	-11.7968
後之二	-11.7985
不定及相違	-11.8028
修念死	-11.8067
酢	-11.807
踰繕那	-11.807
変	-11.8074
囊	-11.8081
火所燒	-11.8082
棘	-11.8082
栖	-11.8086
擣	-11.8087
以阿羅漢道	-11.8088
鞞	-11.8088
貢	-11.8089
嬰	-11.809
燼	-11.809
藝	-11.809
懶	-11.8091
璃	-11.8094
哀愍	-11.8094
臨命終時	-11.8095
亦如耳璫眾寶	-11.8095
買	-11.8096
惛	-11.8097
以五事治五事	-11.8099
求索	-11.81
瀑	-11.81
庸	-11.8101
眾寶莊嚴	-11.8101
藤	-11.8102
勤発	-11.8102
撫	-11.8103
南北	-11.8104
徳	-11.8104
醫藥	-11.8106
如世尊說	-11.8107
故受之以	-11.8109
舞	-11.8109
放光	-11.8109
南山	-11.8109
慨	-11.811
不住見相	-11.811
有四軍	-11.8111
司	-11.8111
三不善根	-11.8113
揆	-11.8114
發揮	-11.8116
緊	-11.8118
勸修利益	-11.812
伎樂	-11.812
以此門以此行	-11.812
舉益勸修	-11.8122
於義異轉	-11.8122
求死不	-11.8122
須臾頃	-11.8123
好醜	-11.8123
自信己性	-11.8124
背覺合塵	-11.8124
由彼為因	-11.8125
為無明所染	-11.8127
形容	-11.8127
像時中	-11.8128
於汝意云何	-11.8129
學無學	-11.813
輕慢	-11.813
檀波羅蜜	-11.8131
本無今有	-11.8131
棄擲	-11.8131
苐	-11.8131
迦旃延	-11.8132
若能觀察知心無念	-11.8132
彼諸部見	-11.8133
海東疏	-11.8133
奈	-11.8134
即復此心亦無自相	-11.8134
炳	-11.8134
馬鳴大士	-11.8135
毘盧遮那	-11.8135
令其念著	-11.8135
以有真如法故	-11.8135
聲聞獨覺地	-11.8135
因緣互闕	-11.8136
覺心初起心無初相	-11.8136
此亦不爾	-11.8136
三細六麁	-11.8136
礦	-11.8136
動彼靜心	-11.8137
非智非識	-11.8137
纓絡	-11.8137
始本不二	-11.8138
少聞而多解者	-11.8138
若得淨心	-11.8138
依覺有不覺	-11.814
自信巳性	-11.814
此非心識分別能知	-11.814
此真如體無有可遣	-11.814
非非有相非非無相	-11.814
顯法體空無妄故	-11.8142
智相相續相	-11.8142
下答有二	-11.8142
若風止滅	-11.8142
似宗因喻	-11.8142
遠離一切心境界相	-11.8142
仁王經云	-11.8142
智淳淨故	-11.8143
未至心源	-11.8143
無明迷故	-11.8143
菩薩發是心故	-11.8144
則名不空	-11.8144
寂滅者名為一心	-11.8144
大極地	-11.8144
是故此義唯佛能知	-11.8145
▁167	-11.8145
而亦即念性不可得	-11.8145
識名色六入觸受	-11.8145
多有重罪惡業障故	-11.8146
所言法者謂眾生心	-11.8146
遠離凡夫不修善根	-11.8146
俱非絕離	-11.8146
於色究竟處	-11.8146
須臾變壞	-11.8146
離於妄見	-11.8146
此意復有五種名	-11.8146
承事供養	-11.8147
徧是宗法性	-11.8147
眾生依心意意識轉	-11.8147
妄取境界	-11.8147
依於無明熏習而有	-11.8147
斷命品	-11.8147
▁【【	-11.8147
當知真如自性	-11.8147
具有過恒沙等妄染之義	-11.8147
臨終	-11.8148
修行有五門	-11.8148
妄取涅槃	-11.8148
發露	-11.8148
譬如瓦器	-11.8148
二乘觀智	-11.8148
非是水滅	-11.8149
初寄問生起	-11.8149
妄與法違	-11.8149
令行十善	-11.8149
不覺念起現妄境界	-11.815
以說不究竟	-11.8151
能入所入	-11.8151
由不共故	-11.8151
了自心	-11.8151
未入正位	-11.8152
忽然念起	-11.8152
得值諸佛	-11.8152
菩提之道	-11.8152
涅	-11.8153
窮源	-11.8153
畔	-11.8153
發何等心	-11.8153
俱生法執	-11.8154
餘文可知	-11.8155
圓圓海	-11.8155
毛頭	-11.8155
若無明斷	-11.8155
顯照諸法	-11.8155
前後無量差別	-11.8156
向佛智	-11.8157
釋曰後釋文有二初	-11.8157
六百年	-11.8158
不覺起念	-11.8158
已生已得	-11.8159
十方世界之微塵數量	-11.816
二初問起二答釋二初偈頌	-11.816
二文合也	-11.8161
能生一切染法	-11.8162
楞	-11.8163
亦不怯弱	-11.8166
所立法不成	-11.8168
與體相應	-11.8171
十方一切世界	-11.8172
▁初標示	-11.8173
金光明經	-11.8178
皆無常故	-11.8185
百弓	-11.8187
寅	-11.819
因云所作性故	-11.8227
盆	-11.8239
初正問答	-11.8241
兩俱全分	-11.8243
糞穢	-11.8351
禪枝	-11.8381
釋曰後依門	-11.8588
堨	-11.8658
嘶	-11.8664
㖡	-11.8669
大智慧光明	-11.8669
之虫名	-11.8689
捕	-11.8691
炎熱	-11.8692
臘	-11.8694
閣	-11.8694
壯	-11.8695
螫	-11.8695
當念身自性	-11.8697
踊	-11.87
糞掃衣	-11.8706
以阿那含道	-11.8706
感彼中生	-11.8707
艱	-11.8708
覲	-11.8708
鬚髮	-11.8709
玻	-11.8711
儀式	-11.8711
釋提桓因	-11.8713
問訊	-11.8714
惓	-11.8714
汗	-11.8715
髀	-11.8715
稼	-11.8717
羼提	-11.8717
衛世師	-11.8718
転	-11.8719
康	-11.8719
匠	-11.872
最上授所問經	-11.872
遽	-11.8721
摸	-11.8722
閻羅	-11.8722
辣	-11.8723
額	-11.8723
涼	-11.8723
貧賤	-11.8723
債	-11.8724
咽喉	-11.8725
雞	-11.8725
費	-11.8725
陸	-11.8726
刑	-11.8727
戾	-11.8728
器仗	-11.8728
乃至小罪	-11.8729
法之自相	-11.8729
侵奪	-11.8729
牧	-11.873
佛告阿難	-11.8731
佛在世	-11.8731
羯	-11.8731
斬	-11.8731
七重寶	-11.8733
孫	-11.8733
游戲	-11.8733
疲勞	-11.8734
種種雕	-11.8734
離名種等所有分別	-11.8735
憒	-11.8735
燒煮	-11.8736
芬	-11.8737
非根覺	-11.8739
拕	-11.8739
良藥	-11.8739
善不善無記	-11.8739
洪	-11.8739
渚	-11.8739
娛樂	-11.8742
受具足戒	-11.8743
古德云	-11.8743
床座	-11.8743
輕賤	-11.8744
絡	-11.8744
寶塹	-11.8744
諳	-11.8746
慈悲喜捨	-11.8746
訶梨跋摩造姚秦三藏鳩摩羅什譯	-11.8746
雌	-11.8747
罵辱	-11.8747
念即無念	-11.8747
嵐	-11.8747
滌	-11.8747
妍	-11.8748
較	-11.8748
淨居天	-11.8748
㖿	-11.8748
雄	-11.8749
漸漸微薄	-11.8749
外別無	-11.875
汙	-11.875
歸命盡十方	-11.875
非實非德非業	-11.8751
慈雲	-11.8752
亭	-11.8752
攝末歸本	-11.8752
陽焰	-11.8753
梯	-11.8754
替	-11.8754
若無人知	-11.8754
逗	-11.8755
暗鈍	-11.8755
具示三大	-11.8755
眾緣和合	-11.8756
歸敬述意	-11.8756
難行苦行	-11.8756
六七二識	-11.8757
本在因地	-11.8757
若從坐起	-11.8757
斯之謂也	-11.8757
棄背	-11.8758
佛告文殊師利	-11.8758
帶質	-11.8758
即是眾生外緣之力	-11.8758
得見心性心即常住	-11.8758
是正念者	-11.8758
同品非定有	-11.8759
由不異故	-11.8759
隨無明緣	-11.8759
皆應止觀俱行	-11.8759
班	-11.876
而言知初相者	-11.876
修唯識觀	-11.876
靈鑒	-11.876
從微至著	-11.876
經多劫	-11.8761
麁中之細	-11.8761
此玄文本論亦復如如是若有眾生類	-11.8761
應成非所說	-11.8761
如木中火性	-11.8761
唯佛能了	-11.8762
常不休廢	-11.8762
自然歸順真如法故	-11.8762
若離於念	-11.8762
當護譏嫌	-11.8762
毘佛略	-11.8763
猶如迷人	-11.8763
又令使人	-11.8763
無明之相亦無有始	-11.8763
所謂為令眾生離一切苦	-11.8763
無前境界	-11.8763
沼	-11.8763
至心源時	-11.8763
不善律儀	-11.8764
如虛空明鏡	-11.8764
所言不覺義者	-11.8764
細中之麤	-11.8764
知心妄動無前境界	-11.8765
速離眾苦	-11.8765
自性清淨心因無明風動	-11.8765
依諸凡夫取著轉深	-11.8765
皆離此因	-11.8765
能熏習無明	-11.8765
復次真如用者	-11.8765
以真如自在用義故	-11.8766
如是略說名	-11.8766
染心者有六種	-11.8766
不知轉識現故	-11.8766
少分而見	-11.8766
欲於如來甚深境界	-11.8767
言真如者亦無有相	-11.8767
對至即現	-11.8767
以熏習因緣力故	-11.8767
修諸福德	-11.8767
此阿梨耶識當何決擇	-11.8768
依心自在地能離故	-11.8768
一心者名如來藏	-11.8768
云何熏習起淨法不斷	-11.8768
復次覺體相者	-11.8768
寶𠕋	-11.8768
唯有如如	-11.8768
以同體智力故	-11.8769
又以覺心源故	-11.8769
故地論云	-11.8769
止觀雙運	-11.8769
以隨順法性無斷絕故	-11.8769
無上大覺	-11.8769
若因滅則緣滅	-11.8769
端坐正意	-11.8769
亦無得淨	-11.877
f	-11.877
或學他發心	-11.877
則有過恒沙等諸淨功德相義示現	-11.8771
其體皆同	-11.8771
離心則無六塵境界	-11.8772
此用有二種	-11.8772
以念相應不斷故	-11.8772
依方故迷	-11.8772
往來生死	-11.8772
生他解	-11.8773
若離心念	-11.8773
漚	-11.8773
修何等行	-11.8774
則知法界一相	-11.8774
以從先世來	-11.8774
念無自相不離本覺	-11.8776
奚	-11.8776
略說信心有四種	-11.8776
所謂能現一切境界	-11.8776
依於動心能見相故	-11.8777
立敵俱許	-11.8777
如攝論云	-11.8777
隨順奢摩他觀義故	-11.8777
▁初摽	-11.8778
能所未分	-11.8778
無明所染有其染心	-11.8778
謂一切法真如平等不增減故	-11.8778
而有無量無邊無明	-11.8779
唯如來能知故	-11.8779
三巳說下	-11.8779
於其中間	-11.878
次說立義分	-11.8781
復次生滅因緣者	-11.8781
不須重釋	-11.8781
次立正	-11.8781
以依能見故境界妄現	-11.8781
非空決定住法	-11.8782
神力自在	-11.8782
猶如明鏡	-11.8783
是人住下品	-11.8784
受中品上品	-11.8784
心無懈怠	-11.8785
若心滅者云何相續	-11.8785
喝	-11.8785
能生一切世間出世間善因果故	-11.8785
深里出興地藏大龍王	-11.8785
二初標列	-11.8786
自心所現	-11.8786
心自在地	-11.8789
目之為	-11.8792
釋曰後答有二初結頌	-11.8792
隔檀	-11.8792
隨舉一	-11.8803
見相二分	-11.882
以垢無量	-11.8826
釋意轉	-11.8872
同喻如瓶	-11.8894
分段變易	-11.8898
因之明	-11.8904
ṃ	-11.8908
有三初徵	-11.8988
標其名	-11.9109
立常宗	-11.9126
穢污	-11.9134
釋曰後開示有二初	-11.914
分相門	-11.9144
復退失	-11.9183
犯相符	-11.9306
𠼝	-11.9326
無間獄	-11.934
維	-11.9344
出現於世	-11.9345
脊	-11.935
如芭蕉	-11.9354
販	-11.9355
擯	-11.9359
屎	-11.9359
湩	-11.9363
相之夢	-11.9364
崩	-11.9365
萬大劫	-11.9366
把	-11.937
綜	-11.9373
硬	-11.9374
酸	-11.9376
痰	-11.9377
於後世生	-11.9377
戮	-11.9378
挺	-11.9378
無慚無愧	-11.9379
幼	-11.9379
洛	-11.938
填	-11.9381
受種種苦	-11.9382
南剡浮提	-11.9383
優波離	-11.9386
龍獸	-11.9387
砂	-11.9388
銳	-11.9388
冲	-11.9388
昭	-11.9389
蹈	-11.9389
串	-11.9389
藪	-11.939
拒	-11.939
是中罪人	-11.939
蹙	-11.9391
膚	-11.9392
渧	-11.9392
堅依堅	-11.9392
鳥獸	-11.9393
四寶為塼	-11.9394
荷負	-11.9396
魏	-11.9396
彈	-11.9397
翅	-11.9397
燕	-11.9397
騎	-11.9397
星宿	-11.9398
煥	-11.9399
膿血	-11.94
王又問那先	-11.94
邈	-11.9401
三重塹外	-11.9402
廣二由旬	-11.9402
纖毫	-11.9402
生緣老死	-11.9403
辟	-11.9403
蠲除	-11.9404
謐	-11.9405
評	-11.9406
模	-11.9406
棲	-11.9407
慎勿	-11.9407
柯羅羅	-11.9407
丘	-11.9408
與理相應	-11.941
傲	-11.941
常慘菩薩	-11.9411
混融	-11.9412
取要言之	-11.9412
無對礙	-11.9412
如寶雲經說	-11.9413
淵	-11.9415
十信初心	-11.9415
者此意說云	-11.9416
秀	-11.9416
六度萬行	-11.9417
施與無畏	-11.9417
攝善法戒	-11.9417
幽致	-11.9417
四信五行	-11.9418
勘	-11.9419
現身說法	-11.9419
平坦	-11.9419
對始覺義說	-11.9419
顯其礙義	-11.942
非染非淨	-11.9422
丁	-11.9422
菩提樹下	-11.9423
若有眾生來求法者	-11.9423
問意可知	-11.9423
茫	-11.9424
無有能說可說	-11.9424
無所有無邊入	-11.9424
無明為因生三細	-11.9424
遮非表	-11.9424
毘尼	-11.9425
攝律儀戒	-11.9425
非明分位	-11.9426
正念正知	-11.9426
沐	-11.9426
嬈亂	-11.9426
妄心熏無明	-11.9427
三藏法師	-11.9427
僅	-11.9427
鹽味	-11.9427
依士釋	-11.9427
以是緣故	-11.9427
寂而常照	-11.9427
愁憂	-11.9427
約終教說	-11.9428
色離識	-11.9428
善惡之業	-11.9428
終無得淨	-11.9428
胡	-11.9429
亦不得隨心外念境界	-11.9429
隨順得入真如三昧	-11.9429
入大乘道	-11.9429
澡	-11.9429
受於一切身心等苦	-11.943
世諦故有	-11.943
依於此心顯示摩訶衍義	-11.943
名為識藏	-11.9431
一切凡夫聲聞緣覺菩薩諸佛	-11.9431
速成不退	-11.9431
▁184	-11.9432
輪回	-11.9432
以未入法身位故	-11.9432
初說因緣分	-11.9432
所謂自有熏習之力	-11.9433
以真如法常熏習故	-11.9433
以能成就分別事識義故	-11.9433
或起懈怠	-11.9433
法性真如海	-11.9434
與彼本覺不相捨離	-11.9434
終不為惱	-11.9434
謂於是處	-11.9434
開示諸有問者未了義故	-11.9434
有法能起摩訶衍信根	-11.9434
生二種相	-11.9434
非凡夫能知	-11.9434
貪著世間名利恭敬	-11.9434
釋上立義分中	-11.9435
顯因同品決定有性	-11.9435
以見始故	-11.9435
有其終盡	-11.9435
是我見有二種	-11.9435
對治凡夫二乘心過故	-11.9436
不相違背	-11.9436
亦取如來地	-11.9437
以如實知無前境界故	-11.9437
妄作境界義故	-11.9437
ṇ	-11.9437
謂離一切法差別之相	-11.9437
住於靜處	-11.9438
能取所取	-11.9438
云何有信無信	-11.9438
能障世間自然業智故	-11.9438
而亦不取眾生相	-11.9438
離於施作	-11.9438
噵	-11.9439
立志堅強	-11.9439
皆令究竟無餘涅槃	-11.9439
所謂以依真如法故	-11.9439
無得久停	-11.9439
增其不了	-11.9439
在知境	-11.944
大願平等方便	-11.944
金鼓經	-11.944
或為世間事務種種牽纏	-11.944
云何修行止觀門	-11.944
或為病苦所惱	-11.944
乃至久遠熏習力故	-11.944
身心適悅	-11.944
有如是等眾多障礙	-11.944
入淨心地隨分得離	-11.944
必定不退信心故	-11.944
連續	-11.944
前三位中	-11.9441
現鏡識	-11.9441
及不思議熏之所成就	-11.9441
雖念因緣善惡業報	-11.9441
修習觀者	-11.9441
依於妄執	-11.9441
然起人天種子	-11.9441
真如熏無明	-11.9442
常樂親近諸菩薩眾	-11.9442
求學如實行故	-11.9442
謂以專意念佛因緣	-11.9442
以立其名	-11.9442
此體用熏習	-11.9442
無去無來	-11.9443
乃至如來地能究竟離	-11.9443
非同非異	-11.9443
但以真如而熏習故	-11.9443
無量前後差別	-11.9443
自畏不能常值諸佛	-11.9444
如是信心成就得發心者	-11.9444
謂如來藏具足無量性功德故	-11.9444
是故得名一切種智	-11.9446
體備一切功德之法	-11.9447
凌	-11.9448
猶如明鏡現於色像	-11.9448
常見佛故	-11.9449
則無見相	-11.945
謂一切諸佛所證之道	-11.945
唯為開導利益眾生	-11.945
生於彼已受下品	-11.945
真言行人	-11.945
言相應義者	-11.9451
真非妄	-11.9451
分明顯說	-11.9451
以一切時任運而起常在前故	-11.9453
次說解釋分	-11.9453
依是義故	-11.9457
經部師	-11.9462
色究竟天	-11.9476
下釋相二初	-11.948
宗違因	-11.9502
沒馱	-11.9506
鑁	-11.9511
枿	-11.9511
伽藍	-11.9529
真有妄	-11.9557
當為汝	-11.9626
照耀	-11.9635
釋迦牟尼佛	-11.982
質多羅	-11.9891
譬如種種瓦器	-11.9946
瓶盆	-11.9948
八地巳上	-12.0015
観	-12.0047
寸	-12.0077
池沼	-12.0077
醯摩跋多	-12.0079
凋	-12.0079
押	-12.0081
喉	-12.0082
瘦	-12.0083
栽	-12.0085
雕	-12.0085
沛	-12.0087
詎	-12.0088
核	-12.0088
宣說法要	-12.0089
蹉	-12.0089
嚙	-12.009
犁	-12.0091
革	-12.0092
鞭	-12.0094
右旋	-12.0094
広	-12.0094
汝先言	-12.0094
攸	-12.0096
諭	-12.0097
脂	-12.0098
高半由旬	-12.0099
占	-12.0102
煎	-12.0102
竅	-12.0102
善見大城	-12.0103
復有別風	-12.0103
暑	-12.0104
証	-12.0104
膜	-12.0105
廣如彼說	-12.0105
輟	-12.0105
衡	-12.0106
潰爛	-12.0107
涕唾	-12.0107
軟滑	-12.0107
姊妹	-12.0109
迫	-12.011
鴻	-12.011
翔	-12.0112
晨	-12.0112
臆	-12.0112
秉	-12.0113
降雨	-12.0113
無所從來	-12.0113
尼乾子	-12.0113
傳梵大師賜紫沙門臣法護等奉詔譯	-12.0114
飡	-12.0114
寐	-12.0114
胞	-12.0114
因一喻二	-12.0114
於二量中	-12.0116
壺	-12.0116
鑑	-12.0116
七寶樹林之所圍	-12.0116
得阿羅漢道	-12.0117
時諸天子從	-12.0118
翰	-12.0118
輝	-12.0118
牘	-12.0118
鳳	-12.0119
古因明師	-12.012
有人聞說	-12.012
誅	-12.0121
中入三昧於	-12.0121
是難顛倒	-12.0121
鞠	-12.0122
妓	-12.0122
与	-12.0122
爐	-12.0123
八相成道	-12.0124
現前介爾心性	-12.0124
亘	-12.0125
桑	-12.0125
所流教法	-12.0126
弄	-12.0126
糖	-12.0127
磕	-12.0127
犢子	-12.0127
職	-12.0127
吻	-12.0127
於大眾中	-12.0127
兩俱極成非佛語所不攝	-12.0128
有兩意	-12.0129
說我是思	-12.0129
劑	-12.0132
况	-12.0132
監	-12.0132
以是等緣	-12.0133
〕	-12.0135
成實論卷第十	-12.0136
有一實故有德業故	-12.0136
心相隨滅	-12.0136
芻	-12.0137
宗義一分為因	-12.0137
墮餓鬼	-12.0138
樞	-12.0138
結末歸本	-12.0138
則為向佛智故	-12.0138
我法二執	-12.0138
方實不轉	-12.0139
從細至麁	-12.0139
紹佛種	-12.0139
結果由因	-12.0139
何須重說	-12.014
若離善知識所護	-12.014
是隨同品言	-12.014
圭山	-12.014
是遣諸法自相門故	-12.014
心與無明俱無形相	-12.014
有其六種	-12.0141
若見一切來求索者	-12.0142
是故一切眾生不名為覺	-12.0142
復次顯示從生滅門即入真如門	-12.0142
三界虛偽	-12.0142
彼無過故	-12.0142
依言說分別	-12.0143
則無一切境界之相	-12.0143
麁中之麁	-12.0143
技	-12.0144
歒	-12.0144
是中依未入正定聚眾生	-12.0144
若人修行一切善法	-12.0144
造像門	-12.0144
石女兒	-12.0144
非受樂相	-12.0145
則令妄心厭生死苦	-12.0145
一因二喻	-12.0145
細中之麁	-12.0145
十方世界之塵數	-12.0145
除疑捨邪執	-12.0146
以能究竟顯實故	-12.0146
以遠離微細念故	-12.0146
定離眼識色	-12.0146
牒因顯果	-12.0146
深密經	-12.0146
初問後答	-12.0146
可燒可見	-12.0147
菟角	-12.0147
如是摩訶衍諸佛祕藏	-12.0147
分別假名言相	-12.0148
或卒起精進	-12.0148
重牒分別	-12.0148
但隨妄念不可得故	-12.0148
無有世諦境界	-12.0148
亦有無量種種莊嚴	-12.0149
五種非空	-12.0149
法應爾	-12.0149
不為外緣一切音聲之所驚動	-12.0149
為令善根微少眾生	-12.0149
地持論	-12.0149
若水滅者	-12.015
以瓶等為同品	-12.015
尋名取著	-12.015
一向離故	-12.015
於中若見若念	-12.015
又復說名分別事識	-12.015
境界熏妄心	-12.015
意生身	-12.015
令不失故	-12.0151
無明熏習義有二種	-12.0151
三支無過	-12.0151
後陳宗體	-12.0151
是近遠二緣	-12.0151
略說方便有四種	-12.0152
如是淨法無量功德	-12.0152
則得少分見於法身	-12.0152
又一切染法所不能染	-12.0152
乃能志求無上之道	-12.0153
聖言量	-12.0153
以一切染法皆是不覺相故	-12.0153
當知此中道理亦爾	-12.0153
冊	-12.0153
乃至滿足無有所少義故	-12.0154
以隨順法性離癡障故	-12.0154
依諸凡夫二乘人等	-12.0154
以有大願自在力故	-12.0154
則一切境界滅	-12.0154
牀	-12.0154
所謂心性常無念故	-12.0154
云何熏習起染法不斷	-12.0154
如風依水而有動相	-12.0155
以隨順法性無住故	-12.0155
隨願得生他方佛土	-12.0155
凡夫二乘心所見者	-12.0155
一切世間生死染法	-12.0155
體非無故	-12.0155
得長相續	-12.0155
如大海水因風波動	-12.0155
若離覺性	-12.0155
釋曰後作釋有二初分門	-12.0156
漸漸能生無量三昧	-12.0156
依如來藏故有生死	-12.0156
所謂自體有大智慧光明義故	-12.0156
所謂依因依緣	-12.0156
若人專念西方極樂世界阿彌陀佛	-12.0156
而知相緣相同故	-12.0157
得信成就堪能發心	-12.0157
與諸佛智用相應	-12.0157
復次分別生滅相者	-12.0157
除滅無明見本法身	-12.0157
境界為緣生六	-12.0157
依二乘鈍根故	-12.0157
無一一法而非	-12.0157
能示如是無數方便	-12.0158
或起二乘種子	-12.0158
離於想念	-12.0158
難知難解	-12.0158
意及意識	-12.0158
諸佛菩薩教令發心	-12.0159
乃得平等見諸佛故	-12.0159
以住於此娑婆世界	-12.0159
常念親近供養恭敬	-12.0159
謂分別因緣生滅相	-12.0159
以智相無可見故	-12.0159
即是大智慧光明義故	-12.0159
當知如來善巧方便	-12.0159
皆願度脫一切眾生	-12.016
色像不現	-12.016
當知如來有勝方便	-12.016
但依眾生心現	-12.016
非有為非無為	-12.016
於同品有非有	-12.016
迴此功德如法性	-12.0161
生樂想	-12.0161
初結指標分	-12.0161
金剛薩埵	-12.0162
文相明故	-12.0162
不毀不失	-12.0163
略說發心有三種	-12.0163
釋曰後開示有二初唱本	-12.0164
勤勇無間所支	-12.0164
起下復次生滅	-12.0165
寂滅寂靜念	-12.0165
分流楞伽	-12.0165
離教說故	-12.0166
諸淨功德	-12.0167
亦復同前	-12.0167
堵	-12.0173
釋曰後辨相有二初	-12.0176
瑟吒	-12.0177
百千萬億	-12.0194
又汝所	-12.0254
對大乘立	-12.0334
所信之境	-12.0384
摩訶薩	-12.0535
如燈焰	-12.0664
親眷	-12.0682
疱	-12.0817
釘	-12.0829
禾	-12.0836
耳璫	-12.0836
臼	-12.0837
浣	-12.0848
羽	-12.0849
塚	-12.085
虻	-12.0851
昔行何業受此	-12.0851
腦	-12.0852
雹	-12.0854
涸	-12.0855
祥	-12.0856
倏	-12.0856
節量食	-12.0856
晃	-12.0857
矩	-12.0859
潤澤	-12.0859
亮	-12.0859
旋火輪	-12.086
猫	-12.0861
盧舍那佛	-12.0861
腐	-12.0863
八功德水	-12.0863
纖	-12.0863
鑿	-12.0863
鎔	-12.0863
旃檀	-12.0864
来	-12.0864
迢	-12.0864
忌	-12.0865
貯	-12.0865
四衢道	-12.0866
透	-12.0866
乃至惡業受報未盡求	-12.0866
寤	-12.0866
鎮	-12.0868
莊飾	-12.0868
奉獻	-12.0869
犬	-12.0869
彼經復說	-12.087
脾	-12.087
阿毘止	-12.0872
汝意若謂	-12.0872
王復問何等為	-12.0872
念安般	-12.0872
貿易	-12.0874
鬚	-12.0875
奴僕	-12.0875
摶	-12.0876
暨	-12.0877
牢	-12.0877
不耐食想	-12.0878
復一小門	-12.0879
管	-12.0879
因明正理門論	-12.088
割截	-12.088
愆	-12.088
獻	-12.0881
板	-12.0881
晴	-12.0882
是證相故	-12.0882
爍	-12.0882
懈倦	-12.0884
覚	-12.0884
澡浴	-12.0884
峻	-12.0884
朕	-12.0885
捶	-12.0885
有諸婇女	-12.0885
哲	-12.0886
下廣上狹	-12.0886
憶想分別	-12.0887
濤	-12.0888
膏	-12.0888
住空閑	-12.0888
與彼不覺相應不離	-12.0888
醯	-12.0889
對治此執說	-12.0889
穩	-12.0889
性除智	-12.089
乃得成辦	-12.089
劬	-12.089
燧	-12.0891
若見若聞	-12.0892
無上正等菩提	-12.0894
膿	-12.0894
甫	-12.0894
尒	-12.0895
經律論	-12.0895
溟	-12.0896
掌珍	-12.0896
挫	-12.0897
隨流反流	-12.0897
彌蘭	-12.0897
恭敬父母沙門婆羅門	-12.0898
發迴向心	-12.0898
貧乏	-12.0898
墮邪網	-12.0898
數瞋數喜	-12.0899
爾時住唯識	-12.0899
若時於所緣	-12.09
咤	-12.09
曷	-12.09
執取計名字相	-12.0901
境界風所動	-12.0901
不惜身命	-12.0902
後譯云	-12.0902
少文而攝多義	-12.0902
初結前標後	-12.0903
三摩鉢底	-12.0903
皎	-12.0904
十二部經	-12.0905
若離心念則無一切境界之相	-12.0905
矚	-12.0905
救世大悲者	-12.0906
若自若他	-12.0906
諠	-12.0906
若有眾生能觀無念者	-12.0906
寄言簡過	-12.0906
飜	-12.0906
不得輕於如來所制禁戒	-12.0907
宏	-12.0907
漸漸猛利	-12.0907
十地滿心	-12.0907
不限劫數	-12.0908
㲉	-12.0908
造業受報	-12.0908
則起外道見故	-12.0908
一剎那頃	-12.0908
從麁至細	-12.0908
唯一夢心	-12.0908
無罣礙	-12.0909
不住得相	-12.0909
見一處住地	-12.091
人法二執	-12.091
凡所有相	-12.091
依言說分別有二種義	-12.091
生善處	-12.0911
以修世間諸禪三昧	-12.0911
心一境性	-12.0911
我愛執藏	-12.0911
我已總說	-12.0911
二長行釋二初	-12.0911
為善不善因	-12.0911
所作非常故	-12.0911
約心境釋	-12.0911
令彼憶念本極成故	-12.0912
闍梨	-12.0912
撓	-12.0912
十信滿心	-12.0912
熏離俱相	-12.0913
云何修行施門	-12.0913
血塗	-12.0913
發決定心	-12.0913
人頂骨淨	-12.0913
無來無去	-12.0913
唯彼有性	-12.0913
直等三心	-12.0914
娑婆訶阿阿訶呵若此神呪誦	-12.0914
一道清淨	-12.0914
知彼色相莊嚴等事	-12.0914
以離念境界唯證相應故	-12.0914
能受凡夫業繫苦故	-12.0914
▁163	-12.0915
無一可樂	-12.0915
有何因緣而造此論	-12.0915
定常為宗	-12.0915
以深信真如法故	-12.0916
如幻如夢	-12.0916
以心住故	-12.0916
此緣有二種	-12.0916
閒	-12.0916
畢竟不畏墮二乘地	-12.0917
當知染法淨法皆悉相待	-12.0917
謂法喻合	-12.0917
從細至麤	-12.0917
皆依眾生無明妄心而得住持	-12.0917
云何隨順而能得入	-12.0917
現世當得十種利益	-12.0917
不為九十五種外道鬼神之所惑亂	-12.0917
不為諸魔惡鬼所能恐怖	-12.0918
即此法身是色體故	-12.0918
離有離無	-12.0918
依諸凡夫說有五種	-12.0918
復次若人雖修行信心	-12.0918
心動說名為業	-12.0919
一切世間境界悉於中現	-12.0919
造作論教	-12.0919
名為法身如來之藏	-12.0919
示一切世間最高大身	-12.0919
別立以為阿梨耶	-12.0919
心生法生	-12.0919
五者滅一切疑諸惡覺觀	-12.0919
以一切言說假名無實	-12.0919
依一切眾生以有妄心	-12.092
退入凡夫	-12.092
必為諸佛之所授記	-12.0921
得淨心地究竟離故	-12.0921
謂分別染淨法故	-12.0921
起執緣	-12.0921
一執緣	-12.0921
有三種心微細之相	-12.0921
所謂於諸善事	-12.0921
云何復說體有如是種種功德	-12.0921
若人雖念真如	-12.0921
性染幻差別故	-12.0922
或說有退墮惡趣者	-12.0922
答有二解	-12.0922
処	-12.0922
唵摩羅	-12.0922
性自本無	-12.0922
何故不唯念真如	-12.0922
復次究竟離妄執者	-12.0922
具足無漏熏眾生故	-12.0922
不可合一	-12.0922
所謂雖念諸法自性不生	-12.0923
是覺利益	-12.0923
盡欲度脫等眾生界	-12.0923
以起如是願故	-12.0923
又如來藏無有後際	-12.0923
當觀一切世間有為之法	-12.0923
一者施門	-12.0923
亦能使人得諸三昧	-12.0923
應觀過去所念諸法	-12.0923
甚深極妙	-12.0923
行者常應智慧觀察	-12.0923
願令我心離分別故	-12.0923
以上四分	-12.0923
有熏習善根力故	-12.0924
離三假相	-12.0924
以見法身故	-12.0924
三相應染	-12.0924
彼契經中	-12.0924
▁165	-12.0924
則無後際故	-12.0924
復以何義得說差別	-12.0924
能以自力廣聞而取解者	-12.0924
若心離於妄動	-12.0924
立聲滅壞	-12.0924
皆因諸波羅蜜等無漏行熏	-12.0924
或令人知宿命過去之事	-12.0924
遠轉遠縛	-12.0924
能現於色	-12.0924
從初發意始求道時	-12.0924
闢	-12.0924
亦知未來之事	-12.0925
舉非顯失	-12.0925
盡其未來	-12.0925
又是菩薩功德成滿	-12.0925
欲拔一切眾生苦故	-12.0925
正念真如法故	-12.0925
未曾與如來藏相應故	-12.0925
則能遠離是諸業障	-12.0926
皆依如來藏而有	-12.0926
如來但為說人無我	-12.0926
應觀世間一切有身	-12.0926
以為懈慢眾生故	-12.0926
棱伽	-12.0926
即分別自心	-12.0926
廣果天	-12.0926
鏡若有垢	-12.0926
而使證會永息妄者	-12.0926
但隨眾生世界不同	-12.0926
而有見色相者	-12.0926
定性二乘	-12.0927
復次言意識者	-12.0927
皆因無明所熏習故	-12.0927
意欲退者	-12.0927
自然而有不思議業種種之用	-12.0927
障量智	-12.0927
應觀未來所念諸法	-12.0927
向涅槃道	-12.0927
廣答門	-12.0928
以知法性體無慳貪故	-12.0928
如世間衣服	-12.0928
六者根本業不相應染	-12.0928
所謂見佛色相而發其心	-12.0928
是故眾生應勤修學	-12.0928
依色自在地能離故	-12.0929
以意意識熏習	-12.0929
又亦無有用相可得	-12.0929
或進或退	-12.0929
以隨順法性離諸過故	-12.0929
假以言說引導眾生	-12.0929
以唯依真如義說故	-12.093
未得自在業修行	-12.093
真如淨法實無於染	-12.0931
諸佛所師	-12.0931
大總地	-12.0933
自體顯照一切妄法	-12.0933
或立為常	-12.0933
一切菩薩發心修行趣向義故	-12.0933
是二種門皆各總攝一切法	-12.0934
相違及不定	-12.0942
一體一心摩訶衍	-12.0942
護法論師	-12.0944
集量論	-12.0946
住壽一	-12.095
即理門第	-12.0954
一心二門三大	-12.0965
如十地經	-12.0966
六十小劫	-12.0994
毗盧舍那	-12.0997
就此門中則有	-12.1097
就初中有	-12.1099
卿宣梵大師賜紫沙門臣日稱等奉詔譯	-12.1321
菩薩集西天譯經三藏朝散大夫試鴻臚	-12.1324
初結指分門	-12.1477
aṃ	-12.1571
皆是疑因	-12.1608
銛	-12.1609
懊惱	-12.1661
犀	-12.1671
悴	-12.1673
(47	-12.1675
鋸	-12.1676
遶	-12.1676
非現量攝	-12.1677
(48	-12.1677
本體神王	-12.1679
閻	-12.168
嬰兒	-12.1681
蒸	-12.1683
戌	-12.1685
洗浴	-12.1688
(49	-12.1688
髮毛爪齒	-12.1691
癩	-12.1691
頂禮佛足	-12.1692
如兜羅綿	-12.1692
是地獄人	-12.1693
琴	-12.1693
奮	-12.1694
現一切境	-12.1694
人非人等	-12.1695
棺	-12.1695
以心除心	-12.1696
屣	-12.1698
儲	-12.1698
轉彼靜心	-12.1698
輾	-12.1699
十不善業道	-12.1699
嗣	-12.17
鴦	-12.17
(45	-12.1702
饌	-12.1702
遏	-12.1702
抂	-12.1703
羨	-12.1703
陞	-12.1704
搏	-12.1704
祈	-12.1704
醜陋	-12.1705
唐西京太原	-12.1705
礫	-12.1705
蚊蚋	-12.1705
鴈	-12.1705
料	-12.1706
如月燈經	-12.1706
我入息	-12.1706
金翅鳥	-12.1707
睛	-12.1708
償	-12.1708
僧坊	-12.1709
李	-12.1709
吹諸花鬘	-12.171
迮	-12.171
廟	-12.171
惺	-12.1711
俱胝那庾多	-12.1714
袪	-12.1714
所起諸似義智	-12.1714
係	-12.1714
虔	-12.1715
陶	-12.1715
(46	-12.1716
綵	-12.1716
韋	-12.1718
營事比丘	-12.1718
明行足	-12.1718
禪那波羅蜜	-12.172
絃	-12.172
言生智了	-12.172
稠	-12.172
安受苦忍	-12.172
惰	-12.172
屑	-12.1721
六觸入	-12.1721
鵝	-12.1721
立宗過性	-12.1721
胎藏不安者	-12.1721
地獄畜生餓鬼	-12.1722
異品徧無	-12.1723
族姓	-12.1723
万	-12.1723
殖	-12.1723
咄	-12.1724
漿	-12.1725
諸戲論識	-12.1726
禪外行	-12.1726
瑣	-12.1726
憍逸	-12.1727
鄭	-12.1728
疼痛	-12.1728
憫	-12.1728
荼	-12.1729
故法華云	-12.173
優波底沙梁言大光造梁扶南三藏僧伽	-12.173
楷	-12.173
能生無量三昧	-12.173
後世不復生	-12.173
有遮有表	-12.1731
懵	-12.1731
隨念皆除	-12.1731
於念念中	-12.1731
依解起行	-12.1732
十善業道	-12.1732
等流果	-12.1732
𦦨	-12.1732
儻	-12.1733
輻	-12.1733
扃	-12.1733
斂	-12.1734
轂	-12.1734
因風波動	-12.1735
對果舉因	-12.1735
肇公云	-12.1735
云何修行戒門	-12.1737
四歎實行	-12.1737
八十種好	-12.1738
轉大法輪	-12.1738
松	-12.1738
精魅	-12.1738
五唯量	-12.1738
九種心住	-12.1738
一切妄念無相	-12.1738
先因後宗	-12.1739
下隨釋二初	-12.1739
何所攝耶	-12.1739
俟	-12.1739
我巳總說	-12.1739
歘	-12.174
智性即色	-12.1741
分段麁苦	-12.1741
無怨無親	-12.1742
能自燒木	-12.1743
於無量阿僧祇劫	-12.1743
起事心滅	-12.1743
無我無我所	-12.1743
唯癡滅故	-12.1744
翻染成淨	-12.1744
以無常成所作	-12.1744
猒生死苦	-12.1744
猶如螺貝	-12.1745
根本心盡	-12.1745
若因緣具足者	-12.1745
迷於無相	-12.1745
隨力所能	-12.1745
當持此論	-12.1745
初三攝眼所不攝因	-12.1746
作非有緣性	-12.1746
境從心起	-12.1746
如是無漏無明種種業幻	-12.1746
如次率自類	-12.1747
依正二報	-12.1747
雖有染心而常恒不變	-12.1747
非前際生非後際滅	-12.1747
以起大悲熏習之力	-12.1747
據本而言	-12.1748
或為眷屬父母諸親	-12.1748
此似不成	-12.1748
慧及方便	-12.1748
當知世間一切境界	-12.1748
不如實知真法一故	-12.1749
麤中之麤	-12.1749
而倒說言	-12.1749
不令眾生妄起過罪故	-12.1749
如法身菩薩等	-12.175
非可壞非不可壞	-12.175
法準思之	-12.175
約王數釋	-12.175
一者增長念熏習	-12.175
得入如來地能離故	-12.175
應亦名宗	-12.1751
色體無形	-12.1751
非異非不異	-12.1751
本末二不覺	-12.1751
遍淨天	-12.1751
是因緣有八種	-12.1751
若雖有外緣之力	-12.1751
非有相非無相	-12.1752
當知此人定紹佛種	-12.1752
如薩婆多對大乘	-12.1752
又是菩薩發心相者	-12.1752
常能住持不毀不失	-12.1752
云何修行進門	-12.1752
深伏煩惱	-12.1752
能現十方利益眾生	-12.1752
誠心懺悔	-12.1752
隨時隨處	-12.1753
一切分別即分別自心	-12.1753
因於廣論而得解者	-12.1753
ś	-12.1754
皆是不覺相故	-12.1754
會相入實	-12.1754
或為知友	-12.1754
又為諸佛菩薩等慈悲願護	-12.1754
若聞無量無邊阿僧祇劫	-12.1754
從外來	-12.1754
以一切法即真實性故	-12.1754
此等並同	-12.1754
現形恐怖	-12.1755
則有所少	-12.1755
復假求學諸善之行	-12.1755
防退方便	-12.1755
所謂從兜率天退	-12.1755
癈	-12.1756
得自然香美飲食	-12.1756
謂有眾生作如是	-12.1756
如是無漏無明	-12.1756
若如來藏體有妄法	-12.1756
大乘起信論裂網疏卷	-12.1757
當知真如是三昧根本	-12.1757
一一位位各增	-12.1757
建立名字門	-12.1757
信謗損益	-12.1758
二初牒屬	-12.1758
此謂如來廣大性智究竟之義	-12.1758
不失壞故	-12.1758
對治二乘不起大悲狹劣心過	-12.1758
無等等生	-12.1758
先問後答	-12.1759
娛	-12.1759
皆乘此法	-12.1759
或因供養眾僧而發其心	-12.1759
即應勇猛立大誓願	-12.1759
真如熏習義有二種	-12.1759
若人以香而熏習故	-12.176
愛與不愛故	-12.176
能令眾生貪著世間名利之事	-12.176
則眾生斷絕	-12.176
以知法性體明	-12.176
唯有過恒沙等諸淨功德	-12.176
非常非樂非我非淨	-12.176
烟立火	-12.1761
次當說現示	-12.1761
有一實等因	-12.1761
火立觸	-12.1761
以為怯弱眾生故	-12.1761
心有分齊	-12.1762
大攝主識	-12.1762
其有眾生於此論中	-12.1762
隨順修行羼提波羅蜜	-12.1762
現在即有無量逼迫	-12.1762
謂法性功德無有盡故	-12.1762
隨順修行檀波羅蜜	-12.1763
前陳宗依	-12.1763
而有其念	-12.1763
乃至廣破	-12.1763
能止一切惡法不令增長	-12.1764
不入實智故	-12.1764
昨	-12.1764
或有眾生無善根力	-12.1764
以深自害	-12.1764
是故得成此光明放大光明名	-12.1764
所謂眾生依於三昧	-12.1765
又一行處	-12.1766
亦非二乘智慧所覺	-12.1766
以瓶等為異品	-12.1766
餘中品上品	-12.1767
假使有人能化三千大千世界滿中眾生	-12.1767
隨應見聞而現作業	-12.1768
非有為非無為一心本法	-12.1774
是凡夫人修習	-12.1775
二以何下	-12.1785
􂶗	-12.1785
三通權教	-12.1787
􂵦	-12.1799
水之動	-12.1805
淫	-12.1806
囕	-12.1809
所作亦無常	-12.1924
故同喻云如	-12.1982
二初問起	-12.2158
腋	-12.2549
琰魔羅卒	-12.2553
眩	-12.2559
陷	-12.2561
一坐食	-12.2569
諱	-12.2572
荊棘	-12.2575
㮈	-12.2579
賞	-12.258
膳	-12.258
娑多耆利	-12.2583
啼哭	-12.2587
悼	-12.259
捄	-12.2591
縈	-12.2592
猨	-12.2595
蒲	-12.2596
刊	-12.2599
沙門法藏述疏	-12.26
頹綱	-12.26
孔雀	-12.26
野惒羅言	-12.2601
將命終時	-12.2602
六十二見	-12.2602
謀	-12.2603
錫	-12.2603
傅	-12.2604
作與作者	-12.2607
瞬	-12.2608
擁	-12.2609
成就自身利益	-12.261
惶	-12.261
醋	-12.261
(50	-12.2611
大梵天王	-12.2611
於世尊所修	-12.2611
瘀	-12.2612
終南草堂沙門宗密錄	-12.2612
壬	-12.2612
宋秀州長水沙門子璿修	-12.2612
清錢塘慈雲沙門續法	-12.2613
旱	-12.2613
蛾	-12.2614
是中諸天須彼花	-12.2615
跟	-12.2615
扣	-12.2615
庭	-12.2617
搆	-12.2617
壅	-12.2617
自然隨著	-12.2617
玩	-12.2617
十二門論	-12.2617
復有種種諸惡業報	-12.2618
禍	-12.2619
腸胃	-12.2619
拱	-12.262
那先說經	-12.262
森	-12.2621
於似所比	-12.2621
在棃耶中	-12.2622
不以自相為境界	-12.2622
九十九門	-12.2622
腸	-12.2623
西天譯經三藏	-12.2623
俱盧舍	-12.2624
埋	-12.2624
狩	-12.2625
獷	-12.2625
椽	-12.2625
恍	-12.2626
陵蔑	-12.2626
訪	-12.2627
羅列遍	-12.2628
肌	-12.2629
抗	-12.2629
肆	-12.2629
鷄	-12.263
梗	-12.2631
羯磨	-12.2631
謂藉眾相而觀於義	-12.2632
骸	-12.2632
作惡得殃	-12.2632
趨	-12.2633
祿	-12.2634
離實大有	-12.2634
開曉問者	-12.2635
允	-12.2635
遼	-12.2637
息諸緣務	-12.2637
極成之聲	-12.2637
從眾緣生	-12.2638
賒	-12.2639
荒	-12.2639
我及我所	-12.2639
最後身菩薩	-12.264
顏色變異	-12.264
赫	-12.264
麟	-12.264
飢餓	-12.264
迦毘羅	-12.2641
於無明念中	-12.2641
似現似比	-12.2641
篇	-12.2642
中貪使	-12.2642
如法華云	-12.2643
剌	-12.2643
隣近均等	-12.2644
二地至七地	-12.2644
輙	-12.2644
即是真心常恒不變	-12.2644
婢	-12.2645
拳	-12.2645
殷	-12.2645
覺至心源	-12.2645
第七天王梵	-12.2647
無眾生無命	-12.2647
行至苦盡	-12.2647
乃至出定亦無懈慢	-12.2647
總攝諸論要義	-12.2648
禱祀門	-12.2648
梵先行天	-12.2648
以依能見故	-12.2649
有解無行	-12.2649
依迷顯覺	-12.2649
大乘之起信	-12.2649
不應貪求名利恭敬	-12.2649
猶如於鏡	-12.2649
舉廣類求	-12.2649
多起味著	-12.265
陿	-12.265
動相則滅	-12.265
唯辨真性	-12.265
示現萬化	-12.265
一法界大總相	-12.2651
依棃耶有無明	-12.2651
非學世間	-12.2651
晝夜六時	-12.2651
尠	-12.2652
為眾生離苦得樂	-12.2652
勝拔道	-12.2652
更修雜業	-12.2652
陰入界	-12.2653
發大誓願	-12.2653
皆徧法界	-12.2653
或捨本勝行	-12.2653
本無所動	-12.2653
謂現量相違	-12.2653
遮無表	-12.2653
依根本心滅	-12.2654
祗	-12.2654
略後廣	-12.2654
雖有正因熏習之力	-12.2654
所有煩惱漸漸微薄	-12.2654
以此妄心有厭求因緣故	-12.2654
脉	-12.2654
如水中月	-12.2654
以此因緣故建立	-12.2655
最高大身	-12.2655
初約識舉人	-12.2655
非自性動	-12.2655
若離業識則無見相	-12.2655
是能覺人	-12.2656
諸佛所護	-12.2656
作六根境界	-12.2658
無有所少	-12.2658
謂以一念相應慧	-12.2658
究竟能至無上之道	-12.2658
亦不能究竟厭生死苦	-12.2658
復次精勤專心修學此三昧者	-12.2659
􂵧	-12.2659
初明起執之由	-12.2659
正會伏疑	-12.2659
還同本覺	-12.2659
若真實天	-12.266
是故應勤修諸功德	-12.266
作內熏之因	-12.266
復次若人唯修於止	-12.2661
我今隨順總持說	-12.2661
未所見邊	-12.2661
謂應說言	-12.2661
無增無減	-12.2661
復謂如來所得涅槃	-12.2661
宗家之法	-12.2661
乃至一切所作無量行緣	-12.2662
隨心能示十方世界	-12.2662
前是遮詮	-12.2662
後便休廢	-12.2662
能令眾生增長善根	-12.2662
願求一切智故	-12.2662
謂所立法均等義品	-12.2662
為邪魔諸鬼之所惱亂	-12.2662
若證法身得少分知	-12.2662
然是菩薩未名法身	-12.2662
一切邪執皆依我見	-12.2663
如是外緣有無量義	-12.2663
後唯止濫	-12.2663
復次依是三昧故	-12.2663
如是等人所不能入	-12.2663
▁rakṣa	-12.2663
若諸凡夫不習此三昧法	-12.2663
軌生物解	-12.2663
起貪瞋等	-12.2663
種子海會	-12.2663
不飢不渴	-12.2664
依心體而動	-12.2664
非一異俱相	-12.2664
四者名為智識	-12.2664
對彼有論	-12.2664
着	-12.2664
從具縛地	-12.2664
如鏡中像無體可得	-12.2664
為欲令眾生除疑捨邪執起大乘正信	-12.2665
粮	-12.2665
若諸佛法身離於色相者	-12.2665
而此證者無有境界	-12.2665
不覺妄慮	-12.2665
如修多羅說	-12.2665
八十小劫名	-12.2665
而為其門所趣入故	-12.2665
繫緣法界	-12.2665
修一切善行以為對治	-12.2665
十有無為	-12.2665
三者名為現識	-12.2665
復能成熟現在未來苦樂等報	-12.2665
不為他人所惱	-12.2666
五者名為相續識	-12.2666
遠離殺生偷盜邪婬妄語兩舌惡口綺語	-12.2666
顯前不二	-12.2666
膺	-12.2666
為示利益勸修行故	-12.2667
二初標分二	-12.2667
若進若退	-12.2667
不變自在義	-12.2667
或起四攝	-12.2667
一切眾生本來常住入於涅槃	-12.2668
生得住地	-12.2668
二於空謬執	-12.2668
具足如是過於恒沙不離不斷不異	-12.2668
與佛妙法味	-12.2668
身有威德	-12.2669
或示超地速成正覺	-12.2669
久習淳熟	-12.2669
分剖門	-12.267
减	-12.267
二者能止方便	-12.267
故示所行亦有差別	-12.267
謂慚愧悔過	-12.267
照體獨立	-12.267
謂諸菩薩從初發意	-12.2671
若離妄心實無可空	-12.2671
以知法性無身心相	-12.2671
樂集一切諸善行故	-12.2672
信法有大利益	-12.2672
過前功德不可為喻	-12.2672
雖值於佛亦得供養	-12.2672
迴向願求生彼世界	-12.2672
即謂真如涅槃之性	-12.2673
皆為離念歸於真如	-12.2673
以愛敬三寶淳厚心故	-12.2673
揭	-12.2674
如是眾生心若有垢	-12.2674
執法性本有染	-12.2674
過恒河沙等上煩惱	-12.2674
謂凡夫二乘初發意菩薩等	-12.2675
即是諸法之性	-12.2675
是故眾生但應仰信	-12.2675
則為諸魔外道鬼神之所惑亂	-12.2676
或因二乘之人教令發心	-12.2676
􂶛	-12.2677
所見所聞根欲性異	-12.2677
執性德同色心	-12.2677
非想非非想無邊入	-12.2677
或現端正男女等相	-12.2678
色自在地	-12.268
因論生論	-12.2681
品德類	-12.2681
獨力隨相	-12.2685
遇惡因緣	-12.2751
是疑因性	-12.2817
海意經	-12.2947
有二初解義門	-12.3131
初結指科分	-12.3225
令人內愁	-12.355
􂎶	-12.3565
脛	-12.3569
抖擻	-12.3572
属	-12.3579
吏	-12.3587
不冷不熱	-12.3589
捲	-12.3589
蔭	-12.359
選	-12.359
粒	-12.3592
構	-12.3592
阿迦尼吒	-12.3592
侯	-12.3593
犍	-12.3593
晉	-12.3594
踞	-12.3595
完	-12.3596
掠	-12.3597
汲	-12.3597
陳西印度三藏真諦譯	-12.3598
舡	-12.3599
佛說立世阿毘曇論卷第	-12.3599
詠	-12.3602
膽	-12.3602
何相何味何起何處	-12.3602
鉗	-12.3603
拙	-12.3604
及諸雜花	-12.3606
兜	-12.3607
假智及詮	-12.3607
會編順天府府丞戴京曾閱定	-12.3607
嶽	-12.3608
挑	-12.3609
慣	-12.361
討	-12.361
塑	-12.361
睿	-12.361
碍	-12.361
鷹	-12.3611
給孤獨	-12.3612
抵	-12.3612
恢	-12.3612
粉	-12.3613
豺	-12.3614
携	-12.3615
吟	-12.3615
妻妾	-12.3616
初夜後夜	-12.3617
漾	-12.3618
人與陰各	-12.3618
殺盜婬	-12.3619
匡	-12.3619
愓	-12.3619
童男童女	-12.3619
輦	-12.362
薄伽梵	-12.362
洎	-12.362
七重多羅樹林之所圍	-12.3621
懶惰	-12.3621
鞞世師	-12.3622
々	-12.3623
九次第定	-12.3623
霑	-12.3623
芥	-12.3624
相應先行海	-12.3624
義一名異	-12.3625
浸	-12.3625
膩	-12.3627
發大勇猛	-12.3627
慜	-12.3628
時外林中	-12.3628
函	-12.3629
材	-12.3629
色之與心	-12.363
駛	-12.363
躭	-12.363
媸	-12.363
牽來近身	-12.363
数	-12.3631
因此地果報	-12.3632
若內若外	-12.3633
性起為相	-12.3633
澍	-12.3633
卿曹諸沙門	-12.3633
一部論文	-12.3633
􂏔	-12.3633
揵	-12.3634
成淳淨圓智	-12.3634
孩	-12.3634
梵網經	-12.3635
睫	-12.3635
邃	-12.3635
拾	-12.3636
漬	-12.3637
五住性結	-12.3637
持散偈	-12.3637
全攬真如為體	-12.3637
於剎那頃	-12.3637
增上心學	-12.3638
故知煩惱因緣有	-12.3638
謳	-12.3638
蕭	-12.3639
約緣別顯	-12.3639
坐菩提場	-12.3639
晚	-12.364
因悲立願	-12.364
搜	-12.364
從本起末	-12.364
輭	-12.3641
正陳所說	-12.3642
佐	-12.3642
月燈三昧經	-12.3642
轉至滅相	-12.3643
無覆無記	-12.3643
駄	-12.3643
但示於體	-12.3645
言語路絕	-12.3645
離實之有	-12.3646
無明之相不離覺性	-12.3646
乃能進趣向涅槃道	-12.3647
逆論滅義	-12.3648
彊	-12.3649
無生法忍	-12.3649
刪	-12.3649
餘皆此相似	-12.365
湏	-12.365
非是智色不空之性	-12.365
諷	-12.365
若見厄難恐怖危逼	-12.3651
開悟他時	-12.3651
防退之法	-12.3651
此二名譬喻	-12.3652
而有鑛穢之垢	-12.3653
若人雖念寶性	-12.3653
從三生於	-12.3653
專意念佛	-12.3653
能說之人色心業勝	-12.3653
從心念至	-12.3654
如種生芽	-12.3654
一者常為十方諸佛菩薩之所護念	-12.3655
廣顯緣起差別	-12.3655
囀	-12.3655
是言便失能成立	-12.3655
顯示所作業用門	-12.3655
而內淨法未有熏習力者	-12.3656
一者總表	-12.3656
復次本覺隨染分別生二種相	-12.3656
精媚神	-12.3656
如數論師對佛弟子	-12.3656
如說懷兔非月有故	-12.3656
夭	-12.3657
若人聞是法巳	-12.3657
依名辨釋	-12.3657
聊	-12.3657
使信成滿	-12.3657
冐	-12.3657
久遠得度故	-12.3658
從麤至細	-12.3658
心樂總持少文而攝多義能取解者	-12.3658
外緣力劣	-12.3658
此人依於諸佛菩薩等	-12.3658
恍惚如夢	-12.3658
不能得隨順世間一切境界種種知故	-12.3658
難捨難離	-12.3659
久習淳熟其心得住	-12.3659
▁164	-12.3659
不從外入	-12.3659
依業受報	-12.3659
則風相斷絕	-12.366
得少分見法身	-12.366
有違現亦	-12.366
諸無常者皆是所作	-12.366
舉是彰得	-12.366
應障理智	-12.366
梓	-12.366
釋法身能現	-12.366
明能作緣者	-12.3661
就第一中有	-12.3661
未來之事不覺妄慮	-12.3661
而復即念因緣和合善惡之業	-12.3661
速得度故	-12.3662
若離於念名為得入	-12.3662
性相本末四	-12.3662
乃至得佛後則有斷	-12.3662
一切諸想隨念皆除	-12.3662
j	-12.3663
如遮實等	-12.3663
阿僧祗	-12.3663
同知同緣	-12.3664
倍勝於前阿僧	-12.3664
能令現在巳經之事	-12.3664
隨其五塵對至	-12.3664
涅槃可欣	-12.3664
為示專念方便	-12.3664
隨於六道各見不同	-12.3665
生滅是起動門	-12.3665
諸佛所得涅槃與之相應	-12.3665
因功力生	-12.3665
揔	-12.3665
假令十方一切諸佛	-12.3665
若於坐中現形恐怖	-12.3665
喻本性王	-12.3665
此娑婆世界	-12.3666
熱惱衰變則不自在	-12.3666
淨法熏習則無有斷	-12.3666
皆應一時自知有真如法	-12.3666
自性滿足一切功德	-12.3666
二寄問列名	-12.3666
亦不限劫數盡於未來	-12.3666
龍樹菩薩造姚秦三藏筏提摩多奉詔譯	-12.3666
諦聽諦聽善思念	-12.3666
遠離癡慢出邪網	-12.3666
令得涅槃第一義樂	-12.3666
以一切法常靜無有起相	-12.3666
若見若聞得利益故	-12.3666
阿呼門	-12.3667
是菩薩於一念頃	-12.3667
勿令此心墮於邪網	-12.3667
申相違量	-12.3667
𦘕	-12.3668
種種方便起隨順行	-12.3668
以取一切眾生如巳身故	-12.3668
真隨妄轉	-12.3668
一一白白	-12.3668
世間諸法畢竟體空	-12.3669
因生滅染義示現說差別故	-12.3669
隨順修行禪波羅蜜	-12.3669
只由不覺	-12.3669
若觀彼佛真如法身	-12.367
於中遇緣亦有發心	-12.3671
若能分得進居	-12.3671
專住一趣	-12.3671
以不知轉識現故見從外來	-12.3671
若諸佛有自然業	-12.3671
乃至涅槃真如之法亦畢竟空	-12.3672
能知名義為說真覺	-12.3672
建立二種摩訶衍門	-12.3672
如是當念一切眾生	-12.3672
過患本藏	-12.3673
於第一阿僧祇劫將欲滿故	-12.3673
▁168	-12.3673
設有求大乘者	-12.3674
無相方便地	-12.3674
緣相同者	-12.3674
諸無常者見彼質礙	-12.3674
內無色想觀外色	-12.3674
合說契當門	-12.3674
而實菩薩種性根等	-12.3674
妄念而有差別	-12.3674
畢竟得生住正定故	-12.3675
還兩答	-12.3675
引經第二十	-12.3676
興造一切趣生	-12.3676
殑	-12.3677
無相現應門	-12.3678
亦害他人	-12.3678
斷絕一切三寶之種	-12.3678
取色分齊不能盡知故	-12.3679
生於彼已受	-12.3679
以一切如來皆依此法得涅槃故	-12.368
引經第三十	-12.368
已生於彼受業果報	-12.3686
佛聖弟子修習	-12.3687
推求五陰色之與心	-12.3687
釋曰後依門辨相有二初	-12.3692
銘	-12.3699
住思應觀	-12.3785
下解第	-12.3946
初結指標徵	-12.4138
下依門釋相二初	-12.4369
立敵共諍	-12.4553
悟辟支佛緣	-12.4646
逝	-12.4653
挽	-12.4666
頰	-12.4667
鑊	-12.4668
棒	-12.4671
衒	-12.4673
燋	-12.4675
毘提訶	-12.4681
位間五蘊	-12.4682
裝	-12.4685
赦	-12.4685
沾	-12.4686
啄	-12.469
如細蜂蜜	-12.4691
薦	-12.4693
倉庫	-12.4694
姹	-12.4694
瞑	-12.4696
盾	-12.4696
禦	-12.4698
􂌞	-12.4698
珊瑚	-12.47
寢	-12.4701
我從今日斷	-12.4702
稽	-12.4702
傘	-12.4702
匝	-12.4703
濯	-12.4703
勃	-12.4703
𠼦	-12.4706
措	-12.4706
牖	-12.4706
時後不食	-12.4707
拜	-12.4708
陌	-12.471
嗚	-12.4712
巴	-12.4714
懇	-12.4714
須陀味	-12.4714
殄	-12.4715
帖	-12.4715
冰	-12.4716
舍衛城	-12.4717
匣	-12.4717
渠	-12.4718
粹	-12.4719
唇	-12.4719
阿浮陀	-12.472
卯	-12.472
大目乾連	-12.4723
椎	-12.4723
如縷貫	-12.4723
舶	-12.4723
筒	-12.4724
洄	-12.4724
訟	-12.4725
穡	-12.4725
痴	-12.4725
怱	-12.4726
綠	-12.4726
栗	-12.4727
突	-12.4727
呾	-12.4727
明真如法身自體不空	-12.4728
酉	-12.4728
氍	-12.4728
虛空藏經云	-12.4729
毘奈耶	-12.4729
乘船遊	-12.4729
秪	-12.4729
弁	-12.4732
織	-12.4733
誣	-12.4734
色形醜陋	-12.4735
何修何相何味何	-12.4736
肺	-12.4736
宮殿羅列	-12.4736
燦	-12.4736
洟	-12.4737
橋	-12.4737
啻	-12.4737
如來應供正等正覺	-12.4737
穆	-12.4738
蕉	-12.4739
詢	-12.4739
餓	-12.474
諸女天等	-12.474
這	-12.474
頞浮陀	-12.474
心言罔及	-12.4741
積功所得	-12.4741
自度度他	-12.4741
銀青光祿大夫	-12.4742
囚	-12.4742
卑賤家	-12.4742
仲	-12.4743
貪愛瞋恚邪見	-12.4743
嬌	-12.4743
以定研磨	-12.4743
增上慧學	-12.4744
富樓那	-12.4744
毗盧遮那	-12.4744
墮諸惡趣	-12.4744
換	-12.4744
巍	-12.4744
驕	-12.4745
姑	-12.4746
蠶	-12.4747
結德屬人	-12.4748
入正理之因明	-12.4748
隨巳堪任	-12.4748
屢	-12.4748
楊	-12.4748
踏	-12.4748
用還歸體	-12.4748
毀滅佛法	-12.4749
真如不礙生滅	-12.4749
隨願往生	-12.475
摩訶摩耶經	-12.475
如大乘對小乘	-12.475
紐	-12.475
此藥能安	-12.4751
外道執有等性與諸法	-12.4751
鄉	-12.4752
患者服之	-12.4752
懷兔非月	-12.4752
定當作佛	-12.4752
色心業勝	-12.4753
攝用歸體	-12.4753
或多慈愛	-12.4753
所謂應忍他人之惱	-12.4753
如水八德	-12.4754
無邊德藏僧	-12.4754
智相及相續相	-12.4754
心不懷報	-12.4754
生滅是攬理成事門	-12.4754
水清珠	-12.4754
由合故知因	-12.4755
念中最細	-12.4755
無思成自事	-12.4756
如服藥	-12.4756
四智心品	-12.4757
浩	-12.4757
鼎	-12.4757
會彼同此	-12.4757
是為發起第	-12.4757
觀察學斷	-12.4758
巡	-12.4758
均等義品	-12.4758
違他順巳	-12.4758
種種牽纏	-12.4759
拈	-12.4759
亥	-12.4759
朗然大悟	-12.4759
止成得定除障不退	-12.4759
食差顏變	-12.476
楯	-12.476
罄	-12.4761
復以廣論文多為煩	-12.4761
準華嚴說	-12.4761
由此有諸趣	-12.4761
大總相法門體	-12.4761
夢念未盡	-12.4762
會釋伏疑	-12.4762
識名色六處觸受	-12.4763
如言燒衣	-12.4763
及彼身體相法性真如海無量功德藏	-12.4763
真諦三藏譯	-12.4763
即當攝來住於正念	-12.4763
依迷起似	-12.4763
篤	-12.4763
依本覺有不覺	-12.4764
有我無我不可說	-12.4764
十八不共法	-12.4764
分別修行正道相	-12.4764
雖一切分皆能為因	-12.4764
復次初發意菩薩等所見者	-12.4764
謂於是處無其所立	-12.4765
以四相俱時而有皆無自立	-12.4765
能受阿羅漢辟支佛一切菩薩生滅苦故	-12.4765
標歎甚深	-12.4765
約非有義以明止	-12.4765
又為凡夫所見者	-12.4766
去來進止	-12.4766
隨其流處	-12.4767
名無始無明住地	-12.4767
義豐文約	-12.4767
應審思惟	-12.4768
以色性即智故色體無形說名智身	-12.4769
如二乘觀智初發意菩薩等	-12.4769
能有四大非四大種	-12.4769
此妄境界熏習義則有二種	-12.4769
悞	-12.4769
是其麤色	-12.4769
及信相應地遠離	-12.4769
亦當忍於利衰毀譽稱譏苦樂等法故	-12.4769
次經二十小劫	-12.4769
傍成無我	-12.4769
翫	-12.477
百佛世界	-12.477
但為成立此相應物	-12.477
當念過去久遠巳來	-12.477
執體疑相難	-12.477
菩薩發心勇猛速趣涅槃	-12.477
有命無命	-12.4771
以能成就業識義故	-12.4771
心不相應忽然念起名為無明	-12.4771
似一似常	-12.4771
謂說如覺	-12.4771
無明住地其力最大	-12.4772
成始覺萬德差別	-12.4772
皆能開示種種法義	-12.4772
隨諸眾生所應得解	-12.4772
釋罪重意	-12.4772
於摩訶衍法堪任不退信故	-12.4773
不壞假名而說實相	-12.4773
多疑多慮	-12.4773
起含不起	-12.4773
無有彼此色相迭相見	-12.4773
標釋俱成門	-12.4774
遇緣便退	-12.4774
無超次第漸轉位	-12.4774
ī	-12.4774
治二乘不起大悲	-12.4774
若著世事種種牽纏	-12.4775
盡知恒沙諸佛法界無差別相	-12.4775
若以合類離	-12.4775
初釋生滅心法	-12.4775
以無虗妄心念故	-12.4775
不覺心源故非究竟覺	-12.4775
隨其願力能現八種利益眾生	-12.4775
或說平等空無相無願	-12.4775
或復令人若一日若二日若三日	-12.4775
二依標別釋	-12.4776
觧	-12.4776
定成一宗	-12.4776
乃至七日住於定中	-12.4776
出邪網故	-12.4776
亦作如來像	-12.4776
不以方便種種熏修	-12.4776
離慮知縛	-12.4777
以一切法皆從心起妄念而生	-12.4777
更見前法可念者	-12.4777
若一劫乃至十劫	-12.4777
云何說究竟滅	-12.4777
約自體不斷	-12.4777
恒沙等上煩惱	-12.4777
二者細與心不相應故	-12.4778
所謂以有真如法故能熏習無明	-12.4778
後六變如次增倍倍數轉	-12.4778
常念修行諸波羅蜜故	-12.4778
獨一山王摩訶山王	-12.4778
五十一種根本位	-12.4779
信業果報能起十善	-12.4779
自信巳身有真如法	-12.4779
是知今動	-12.4779
斯有何失	-12.4779
企	-12.4779
債主無如之何	-12.4779
宗義相類	-12.4779
以眾生根行不等	-12.4779
住持過去無量世等善惡之業令不失故	-12.4779
能至十方無餘世界	-12.478
唯除坐時專念於止	-12.478
無名過量功德	-12.478
未來菩薩當依此法得成淨信	-12.4781
現在菩薩今依此法得成淨信	-12.4781
以無量方便救拔一切苦惱眾生	-12.4781
是心即攝一切世間出世間法	-12.4781
妄執事空以為法體	-12.4781
未得無分別心與體相應故	-12.4781
計有外塵	-12.4781
說聲非所聞	-12.4781
妄執法體唯是空	-12.4781
波羅蜜多而得圓滿	-12.4781
於生死中勇猛不怯	-12.4782
若說布施持戒忍辱精進禪定智慧	-12.4782
常行勝善	-12.4783
不離不斷不異真如義故	-12.4783
心性和雅戒品具足	-12.4783
顯所依因緣體	-12.4784
因生滅染義	-12.4784
此人功德亦復如是無有邊際	-12.4784
此識何相何境	-12.4785
所成立法常性是	-12.4785
依此法得成淨信	-12.4785
所餘皆不定	-12.4785
釋曰後釋文有三初	-12.4785
立敵兩家	-12.4787
不如有人於一食頃正思此法	-12.4787
或以大悲故能自發心	-12.4787
我今隨分總持說	-12.4787
具足無量樂相故說為報	-12.4787
無明染法實無淨業	-12.4787
云何世間多不能見	-12.4787
及以善道善道中住	-12.4788
以電空等為異品	-12.4788
執染淨有始終	-12.4788
窣	-12.4789
是時諸人依福德行	-12.4789
能感富貴家生	-12.4789
頼	-12.4791
自相大義門	-12.4795
由所量等九	-12.4795
惡立異法	-12.4797
抳	-12.48
能說字相門	-12.4802
或見一類有情	-12.4814
菩薩為諸有情起大悲心故	-12.4814
三依章廣釋	-12.4846
所起種種惡業	-12.4951
下第二廣釋	-12.5083
千萬人	-12.5085
下第二別釋	-12.561
業能感壽命短促	-12.577
掣	-12.5917
心無悋惜	-12.5919
坌	-12.5926
拘舍彌	-12.5926
潰	-12.5926
頂光化佛	-12.5928
繹	-12.5932
従	-12.5933
丑	-12.5933
嘴	-12.5933
尖	-12.5939
傭	-12.5939
駝	-12.594
斛	-12.5941
莊	-12.5941
作何業令諸有情	-12.5941
嚼	-12.5943
罕	-12.5945
迦婁羅	-12.5945
現現別転	-12.5948
朔	-12.5948
崇福寺	-12.5949
仕	-12.5949
踵	-12.595
撻	-12.595
痊	-12.5952
羹	-12.5953
根莖枝	-12.5954
壤	-12.5954
架	-12.5954
鵠	-12.5955
竄	-12.5958
咀	-12.5959
瘧	-12.596
大權神王	-12.5962
禱	-12.5965
塊	-12.5965
滓	-12.5965
餐	-12.5966
嫁	-12.5966
海外有山	-12.5967
罤	-12.5967
猿	-12.5967
榍	-12.5967
臘吉支	-12.5968
液	-12.5968
舅	-12.5968
坤	-12.5969
山壁柵	-12.5969
姿	-12.5971
諦察法忍	-12.5972
社	-12.5972
所謂推求五陰	-12.5974
種種摩尼之所	-12.5975
次佛後供養	-12.5975
蝎	-12.5975
宴	-12.5976
即從座起	-12.5976
譬如妙好𣰽毺	-12.5976
謂初能立缺減過性	-12.5976
諫	-12.5977
髏	-12.5977
潭	-12.5977
殑伽河	-12.5978
樂從苦樂生恩愛從恩愛生貪欲從貪欲	-12.5978
娠	-12.5978
更受新身	-12.5978
揵闥婆	-12.5978
及喻過性	-12.5979
祐	-12.5979
坏	-12.5979
拽	-12.5979
憲	-12.598
伊沙陀	-12.598
祭	-12.598
洽	-12.5981
絹	-12.5981
狸	-12.5982
丹	-12.5982
所作已辦	-12.5982
慼	-12.5982
現念入息	-12.5982
吳	-12.5983
唼	-12.5984
訾	-12.5985
四生九類	-12.5985
藐	-12.5985
顰	-12.5985
毘婆沙	-12.5986
􂵛	-12.5986
粳	-12.5986
復次女人懷孕至第	-12.5986
地界水界火界風界	-12.5986
若所比處	-12.5986
試光祿卿	-12.5987
三摩呬多	-12.5987
舛	-12.5987
輪圍山	-12.5988
諸女天等奏諸	-12.5988
餌	-12.5988
感應道交	-12.5988
詩	-12.5988
壇	-12.5989
淮	-12.5989
喬	-12.5991
蔓	-12.5991
櫃	-12.5991
頞陂曰	-12.5991
纓	-12.5991
兀	-12.5992
太賢集云	-12.5992
囂	-12.5993
髮毛爪等	-12.5993
褒	-12.5994
四圍陀	-12.5994
龍猛菩薩	-12.5994
愷	-12.5995
癹	-12.5996
螢	-12.5996
教所被機	-12.5996
當知唯有現比二量	-12.5996
若麁若細	-12.5996
降伏一切諸外道輩	-12.5997
賦	-12.5997
戊	-12.5998
非男非女	-12.5999
鷺	-12.5999
不驚不怖	-12.6001
辨用之益	-12.6002
殞	-12.6002
斷彼是滅	-12.6002
貿	-12.6002
初生即有滅	-12.6002
皆不離見愛我慢之心	-12.6002
其出水塵	-12.6003
勤求正覺者	-12.6003
於無過宗有過宗言	-12.6004
輞	-12.6004
荔	-12.6004
擎	-12.6005
以修善根成熟故	-12.6005
我造此罪	-12.6005
唯是隨染業幻所作	-12.6005
盎	-12.6005
處夢謂經年	-12.6005
但說諸法皆空	-12.6006
十千劫行十戒法	-12.6006
攝別成總	-12.6006
對敵申宗	-12.6006
非佛語所不攝	-12.6006
讓	-12.6006
開總成別	-12.6006
因眼緣色	-12.6006
若遊行者唯	-12.6006
盥	-12.6007
自問自答	-12.6007
洋	-12.6007
往生安樂國	-12.6008
綴	-12.6008
乃至烏波尼	-12.6008
優波提舍	-12.6009
山河大地	-12.6009
界生有處	-12.6009
郤	-12.6009
以從本來念念相續未曾離念	-12.601
吾今此身	-12.601
始息滅相	-12.601
个	-12.601
猶如伎兒	-12.601
鉾	-12.601
則為證得如來智慧	-12.6011
一切世間境界之相	-12.6011
商羯羅主菩薩造	-12.6011
詺	-12.6011
對理事二定以明真偽	-12.6011
三藏法師玄奘	-12.6011
所棄屍	-12.6012
念慮三世	-12.6012
於霧等性	-12.6012
若有眾生來到我所	-12.6012
念念不生念念不滅	-12.6012
彼心為煩惱所染	-12.6012
騰躍而轉生	-12.6012
從生滅門入真如門	-12.6012
於貪等諸自證分	-12.6013
親依無明因生	-12.6013
立我以為和合	-12.6013
親而且近	-12.6013
於下不戀	-12.6013
稱我言說無道理	-12.6014
乃至菩薩地盡見之究竟	-12.6014
恐繁不述	-12.6014
初直明淨相	-12.6014
丙	-12.6014
體離言以明觀智境	-12.6015
共住雖未得見學此論火光明	-12.6015
鼈	-12.6015
引經釋成心源無念	-12.6015
今助一釋	-12.6015
岳	-12.6015
二十種本藏	-12.6016
譬如大摩尼寶	-12.6016
宗等多言說能立	-12.6016
有微細生滅之累	-12.6016
若出家者為折伏煩惱故	-12.6016
內熏力微	-12.6016
茅	-12.6016
唱本論二作釋文二初分門二	-12.6016
勸脩利益分	-12.6016
辨定聖意	-12.6017
依因者不覺義故	-12.6017
離本覺無不覺	-12.6017
由合及離比度義故	-12.6017
此玄文本論亦復如如是	-12.6017
躇	-12.6017
不捨緣而即真	-12.6017
始得無念之覺	-12.6017
初開問門	-12.6018
以天百味飲食及天	-12.6018
所謂如本法名門亦爾故	-12.6018
若以離類合	-12.6018
遠離癡慢	-12.6018
各緣自依	-12.6018
即知心相生住異滅	-12.6019
湻	-12.6019
非約剎那生滅義也	-12.6019
不同佛地純淨之德	-12.6019
但為初學菩薩未入正位而懈怠者	-12.6019
不念彼此究竟寂滅故	-12.6019
於中委悉	-12.6019
明生滅依因緣義	-12.6019
為成大種和合火有	-12.6019
勤苦難行乃得涅槃	-12.6019
二重釋前文	-12.602
就人標意	-12.602
依二乘解脫及信相應地遠離故	-12.602
以明二種生滅之義	-12.602
始終起盡道理	-12.602
以淨光明而為	-12.602
昌	-12.602
又因佛法僧力所護故	-12.602
疇	-12.602
依言辨德以明生信境	-12.602
既取智為了因	-12.602
亦無能念可念	-12.6021
有違現非	-12.6021
而有無量煩惱垢染	-12.6021
西天譯經三藏朝散大夫試	-12.6021
深伏煩惱信心增長速成不退	-12.6022
如是等似宗因喻言	-12.6022
多睡多病	-12.6022
徧照眾生之心	-12.6022
責總立難	-12.6022
受熏持種	-12.6023
若青等色與色性	-12.6023
則無虗空之相	-12.6023
此二皆有業用顯現	-12.6023
▁85	-12.6023
顯示答釋廣說門	-12.6023
世界無邊故眾生無邊	-12.6023
唵婆尸尼	-12.6023
眾生無邊故心行差別亦復無邊	-12.6023
隨其所生與微苦相應	-12.6023
謂勤供養禮拜三寶	-12.6024
不動亦在動門	-12.6024
事雖實爾	-12.6024
若覩神變	-12.6024
二初結前生後二演義疏文二初	-12.6024
若說三界外更有眾生始起者	-12.6024
隨問次第答釋門	-12.6024
gacchatu	-12.6024
nāṃ	-12.6024
▁sarva	-12.6024
-	-12.6024
徃	-12.6024
自滿足一切功德	-12.6024
āga	-12.6025
北山神王	-12.6025
則值諸佛菩薩示教利喜	-12.6025
被染誑	-12.6025
不熏之熏	-12.6025
能止後念令其不起	-12.6025
總標略示門	-12.6025
能脫諸障	-12.6025
若法能成相違所立	-12.6025
前說諸位中	-12.6025
▁77	-12.6025
然唯一分且說為因	-12.6026
因明入正理論疏前記卷	-12.6026
晝夜六時禮拜諸佛	-12.6026
菩薩別解脫經	-12.6026
今此唯依證了因故	-12.6026
捨壽命已生	-12.6026
廣釋魔事對治門	-12.6026
眾生勝劣不同門	-12.6027
明信心成就之行	-12.6027
如燈照物	-12.6027
依梨耶有無明	-12.6027
如是亦能成立所立法差別	-12.6027
以一切法常靜	-12.6027
即與真如等遍一切處	-12.6027
是故應當勇猛精勤	-12.6027
順順如如	-12.6028
以無明滅故心無有起	-12.6028
觀一切法因緣和合業果不失	-12.6028
八大靈塔	-12.6028
品識無邊入相應業	-12.6029
或因正法欲滅	-12.6029
如無違法相違亦爾	-12.6029
帙	-12.6029
別除四障	-12.6029
設問答以明	-12.6029
讚歎三昧功德門	-12.603
我當為汝分別解說	-12.603
世界散壞已住	-12.603
各於無量無邊阿僧祇劫	-12.603
恐怖令彼勇猛故	-12.603
欻	-12.603
逼迫侵形	-12.603
巳受一切身心大苦	-12.603
以眾生妄見境界	-12.603
於同有及二	-12.603
唯由精動隱流	-12.603
以體不滅心得相續	-12.603
所有功德無量無邊不可得說	-12.603
舉一全收	-12.6031
同品一分轉異品遍轉	-12.6031
以過恒沙等煩惱染法	-12.6031
若相續者云何說究竟滅	-12.6031
隨順毗鉢舍那觀義故	-12.6031
二者深心樂集一切諸善行故	-12.6032
即謂如來之藏有色心法自相差別	-12.6032
在異無是因	-12.6032
久遠巳來煩惱深厚	-12.6032
以其過去無量世來	-12.6032
就此文中即有	-12.6032
復次有四種法熏習義故	-12.6032
隨順修行尸波羅蜜	-12.6032
別顯三慧益相	-12.6033
曼拏羅	-12.6033
增幾數	-12.6034
以一切菩薩皆經三阿僧祇劫故	-12.6034
或說我於無量阿僧祇劫當成佛道	-12.6034
闊	-12.6035
經一萬劫信心成就故	-12.6035
凖	-12.6036
唯依法力自然修行	-12.6036
即於諸法無所分別	-12.6037
勸請行者離邪門	-12.6037
來到行者所	-12.6038
內有色想觀外色	-12.6038
世尊即告文殊師利	-12.6038
以瓶樂等為異品	-12.6038
依前轉相能現境界	-12.6038
懼謂信心難可成就	-12.6038
以電以瓶為同法	-12.6039
依信力故而能修行	-12.6039
非異品中不顯無性	-12.604
如是之罪倍勝於前阿僧	-12.6041
是業能感長壽	-12.6041
以空等為同品	-12.6041
以水不滅風相相續	-12.6042
為如電等無常性故	-12.6042
主海神王	-12.6045
一無逼樂	-12.6045
如成立聲為無常等	-12.6046
非觀偽法	-12.6046
頗有現量相違	-12.6053
如是修習如是數行如第四	-12.6057
爹	-12.6069
由此日夜三十日為一月	-12.6073
秫	-12.6103
鐙	-12.6108
壽命短促	-12.6255
如種種瓦器各各不同	-12.6405
能自斷煩惱入涅槃者	-12.724
諡	-12.7305
戟	-12.732
之像清淨具成	-12.7339
頭面禮足	-12.7348
其子乃名	-12.7349
坦	-12.7351
兕	-12.7354
侮	-12.7357
裔	-12.736
腕	-12.7362
皺	-12.7367
優曇華	-12.7369
騐	-12.7369
四萬八千八十由旬	-12.7371
了知有火或無常等	-12.7374
諸來乞者	-12.7375
眵	-12.7375
癊	-12.7376
沃	-12.7376
量所不攝量所攝故	-12.7379
兢	-12.7381
埵	-12.7381
釧	-12.7381
璿	-12.7382
魁	-12.7382
捍	-12.7382
控	-12.7382
或通或別	-12.7382
線	-12.7385
誥	-12.7386
号	-12.7386
阿鼻大地獄中	-12.7387
甄	-12.7388
復次依不覺故生三種相	-12.7388
兆	-12.7389
稚	-12.7389
如然頭衣	-12.739
矜	-12.7391
狎	-12.7391
增上業報感彼中生	-12.7391
株	-12.7392
壑	-12.7394
繭	-12.7395
三摩跋提	-12.7396
吸	-12.7396
讒	-12.7397
掬	-12.7398
云何此獄名	-12.7398
鑄	-12.7398
迦陵頻伽	-12.7399
出佛身血	-12.7399
勗	-12.7399
霜	-12.74
笳	-12.7401
三種皮持之所	-12.7402
其城外邊	-12.7402
裸	-12.7404
抽	-12.7404
跏趺坐	-12.7404
憤	-12.7404
膾	-12.7405
罷	-12.7405
拭	-12.7405
總御諸根	-12.7405
闐	-12.7406
掁	-12.7406
真善剎帝利王	-12.7408
叔	-12.7408
若一劫二劫	-12.7409
崔	-12.741
優婆夷	-12.741
周迴一百九十	-12.7411
觀無覺觀定	-12.7411
頞	-12.7411
叛	-12.7411
總該萬有	-12.7412
助佛揚化	-12.7413
見眾生落生	-12.7413
若樂惛睡	-12.7414
怡	-12.7414
如佛弟子對數論	-12.7414
欲界色界無色界	-12.7414
鶖	-12.7415
頴	-12.7416
緇	-12.7417
如來滅後六百歲	-12.7417
敦	-12.7418
辜	-12.7418
姊	-12.7418
昔在因地	-12.7418
頞波曰	-12.7418
咇	-12.7419
曝	-12.7419
從始至終	-12.7419
鵄	-12.7419
朱	-12.742
撈	-12.742
讎	-12.742
於不相違因相違因言	-12.742
初指事總標	-12.742
哿	-12.742
宗要既略	-12.7421
毳	-12.7421
是宗法而非遍	-12.7421
陋	-12.7421
篩	-12.7422
摩伽陀國	-12.7422
文不累書	-12.7423
瞥	-12.7423
概	-12.7423
犢	-12.7423
咥	-12.7424
邪法欺張起諸過惡	-12.7425
攢	-12.7425
佷戾難教	-12.7426
大隋南印度三藏達磨笈多譯	-12.7426
憂鉢羅花	-12.7426
撾	-12.7426
且止傍論	-12.7426
由與現量等相違故	-12.7427
偕	-12.7427
布施持戒忍辱精進禪定	-12.7427
瀾	-12.7427
輕拒暴惡	-12.7429
理量齊鑒	-12.7429
三苦八苦	-12.7429
如救頭然	-12.7429
應知外道所有三昧	-12.7429
瓈	-12.743
崇重賢善	-12.7431
捺落迦	-12.7431
皆是事定所緣	-12.7432
聯	-12.7432
嚚	-12.7433
岩	-12.7433
嚮	-12.7433
耨	-12.7434
根欲性異	-12.7434
闡提不信障	-12.7434
跛	-12.7434
袒	-12.7434
出現言說亂識門	-12.7435
性用相應之得	-12.7435
如佛弟子對數論師立聲滅壞	-12.7435
真如是泯相顯實門	-12.7435
隨自樂為所成立性	-12.7435
即為證得如來智慧	-12.7435
出現人相令信門	-12.7435
修習少欲知足頭陀等行	-12.7436
鹹	-12.7436
􂵎	-12.7436
迄	-12.7437
倘	-12.7437
由致既興	-12.7437
離外惡緣	-12.7437
朅	-12.7437
苦苦壞苦行苦	-12.7439
能作障礙假人門	-12.7439
實叉難陀	-12.744
皷	-12.744
顯示發心功德門	-12.744
一者直心正念真如法故	-12.7441
能立與能破及似	-12.7441
而與無明七識共俱	-12.7441
三實行不殊德	-12.7441
從後向前	-12.7441
於此宮殿亦因亦緣	-12.7441
是為入不二法門	-12.7441
刀不自割	-12.7441
苾	-12.7441
如是亦能成遮有性	-12.7441
謂觀一切法自性無生	-12.7442
不變性而緣起	-12.7442
多機頓感	-12.7442
介	-12.7442
若不實顯能立過言	-12.7442
而其音韻恒不雜亂	-12.7442
如來藏是清淨相	-12.7442
客塵煩惱垢染不淨	-12.7442
簡宗依上違宗	-12.7443
二定以別邪正	-12.7443
実徳業	-12.7443
明闕因不成	-12.7443
二如本下合本	-12.7443
前陳後陳和合	-12.7444
二隨根延促德	-12.7444
此中現量相違者	-12.7444
疑真絕修	-12.7444
於霧等性起疑惑時	-12.7444
起生相等種種夢念	-12.7445
十地修道位中	-12.7445
以是證知佛地無念	-12.7445
信為道源功德母	-12.7445
遠離煩惱障智障	-12.7445
乃至無相方便地究竟離故	-12.7445
以離分別麁念相	-12.7445
是心真如相即示摩訶衍體	-12.7445
若至心源得於無念	-12.7445
以諸佛法身無有彼此色相迭相見故	-12.7445
自有眾生復以廣論文多為煩	-12.7446
彼見諸佛種種色	-12.7446
廣拔物苦	-12.7446
此有二解一云	-12.7446
樸揚智周撰	-12.7447
總標所入二種本法	-12.7447
良以非有即是非無	-12.7447
自運運他	-12.7448
於中亦有轉識業識	-12.7448
略問廣答散說門	-12.7448
便謂真先妄後	-12.7448
此光能覺諸眾生	-12.7448
能破和合識內生滅之相	-12.7448
隨文散說決疑門	-12.7448
制伏惡業不生門	-12.7448
所謂發願盡於未來	-12.7449
兩般不極成色	-12.7449
又是菩薩一發心後遠離怯弱	-12.7449
顯示修行觀輪門	-12.7449
於殑伽沙數等劫中	-12.745
約非無義以明觀	-12.745
說本覺恒沙性德	-12.745
㕧	-12.745
不以方便種種磨治	-12.745
純白一法界	-12.7451
信心成就時量門	-12.7451
真如門是染淨通相	-12.7451
離機根故	-12.7451
為積聚他所受用故	-12.7451
橫該十方	-12.7451
謂一切諸佛法身與眾生身平等無二	-12.7451
獨地獨天一種廣大無二山王	-12.7451
乃至能現一切境等	-12.7451
法行平等行善行	-12.7451
乍多乍少	-12.7452
必內依末那	-12.7452
初三所攝眼所不攝	-12.7452
前後相違難問門	-12.7452
重重該攝無障礙門	-12.7452
依具戒地漸離	-12.7452
如人負債依附於王	-12.7452
憬	-12.7452
乃至初地證三無性	-12.7452
得三世智惑人門	-12.7452
依於相續緣念境界	-12.7452
以其過去無量世來有漏之業未能決斷	-12.7452
而得顯示無有宗處	-12.7452
=	-12.7453
此因唯於異品中有	-12.7453
大龍王重重廣海無盡大藏	-12.7453
於一切時常念方便隨順觀察	-12.7453
躰	-12.7453
amas	-12.7453
戍	-12.7453
能引持過去無明所發諸行	-12.7453
如是三世因果流轉	-12.7453
兼治凡夫懈怠之	-12.7453
一切出世間善因果用大摩訶衍	-12.7453
初八九煩惱	-12.7453
心性無常生亂門	-12.7453
相從入此意識中	-12.7453
修善行者得益門	-12.7453
果中所證最勝上	-12.7453
緣眾生界立願門	-12.7454
復次染法從無始巳來	-12.7454
此明覺於滅相義也	-12.7454
若不值善知識者	-12.7454
也總意而言	-12.7454
兩輪俱轉不離門	-12.7454
出離繫縛地清白解脫道路	-12.7454
正由不動能成染淨	-12.7454
滅相續心相顯現法身智淳淨故	-12.7454
􂶖	-12.7454
摩訶本地具足品藏非患道路	-12.7454
而自真相實不滅	-12.7454
不可熏處而能熏	-12.7454
一切境界本來一心離於想念	-12.7454
自信己身有真如	-12.7455
初順辨生緣	-12.7455
通達軌則不動門	-12.7455
舉無明所迷法性	-12.7455
修行止輪得益門	-12.7455
遇緣不勝	-12.7455
種種異類非受樂相故說為應	-12.7455
二顯其勝相	-12.7455
一千二百七十五位	-12.7455
總攝如來廣大深法無邊	-12.7456
如淨目天子	-12.7456
上說法界一相佛體無二	-12.7456
復次為顯世間所執諸法皆非真實	-12.7456
心無形相十方求之終不可得	-12.7456
繫縛地地品類不吉祥道路	-12.7456
及顯外道所執不同	-12.7456
能治所治契當門	-12.7456
若不遇諸佛菩薩善知識等以之為緣	-12.7456
即謂虗空是如來性	-12.7457
能見能現能取境界起念相續	-12.7457
開通會釋消難門	-12.7457
顯示得益位勝門	-12.7457
以無虛妄心念故	-12.7457
譬如泥團微塵	-12.7457
舉勝顯勝形相門	-12.7457
以眾生妄見境界故心有分齊	-12.7457
謂如來藏自體具有一切世間生死等法	-12.7457
一者麁與心相應故	-12.7458
上說真如其體平等	-12.7458
乃至菩薩究竟地心所見者名為報身	-12.7458
少因多果	-12.7458
舉劣顯勝生解門	-12.7458
我說亦復如幻如夢	-12.7458
以無起故境界隨滅	-12.7458
如是行人禮拜諸佛	-12.7458
為風所吹而作動水	-12.7459
唯影無本	-12.7459
明淨德妙有	-12.7459
勸劣向勝不退門	-12.7459
謂依菩薩從初正信發心觀察	-12.746
一心法界及三大義各二種	-12.746
顯示兩輪所治門	-12.746
由客塵空故	-12.746
見有五陰生滅之法	-12.746
計一切法各有體性	-12.746
如是眾生真如之法體性空淨	-12.746
離一切妄念相	-12.746
以依染心能見能現	-12.746
所入根本總體門	-12.746
八者其心柔和	-12.746
應觀現在所念諸法猶如電光	-12.746
直示修行止輪門	-12.746
使覺三昧觸	-12.7461
溪	-12.7461
四者信僧能正修行自利利他	-12.7461
由彼相似不說異名	-12.7462
不兩舌不惡口不妄言不綺語	-12.7462
依具戒地漸離乃至無相方便地究竟離	-12.7462
際限不分	-12.7462
六者為示修習止觀	-12.7462
譬如明鏡持諸色像	-12.7462
𣅍	-12.7462
心真實故即是諸法之性	-12.7463
能令心體生住異滅	-12.7463
及諸無量安立理趣	-12.7464
以知法性無苦	-12.7464
復次若人受持此論	-12.7464
一切眾生悉有真如等皆熏習	-12.7464
若於諸法勝義理趣	-12.7464
通總攝前所說門	-12.7464
以樂以空為同法故	-12.7464
染法違真無始有終	-12.7465
云何此因說名宗法	-12.7465
大乘起信論䟽卷第	-12.7465
依前業識之動	-12.7465
如其次第說相可	-12.7465
捨邪見法修行正	-12.7465
是故如前亦為不定	-12.7466
世界起成已住	-12.7466
施於眾生普利門	-12.7466
歸總作別散說門	-12.7467
根本攝末分際門	-12.7467
二初問起二答釋二初偈頌二長行二初	-12.7468
依於境界心起分別愛與不愛故	-12.7468
今此經文為欲顯示	-12.7468
品三禪相應業生	-12.7468
直詮真體門	-12.7469
由如來藏中有二義	-12.7469
眾生來生其國	-12.7469
云何說為人我執耶	-12.747
三如本下合本	-12.747
總問總答顯宗門	-12.747
必不為他用	-12.747
若言是眼所見性故	-12.747
展舒功德令廣門	-12.7471
揩	-12.7471
以電瓶等為	-12.7472
品四禪相應業生	-12.7472
別法於別處轉	-12.7472
望上及下臨	-12.7473
𤚥	-12.7475
後五三定離眼識	-12.7475
得無逼樂	-12.7476
若唯宗法是因性	-12.748
如是修習如是數行	-12.7482
名其窮微	-12.7484
甚深大乘正道故	-12.7487
迺	-12.749
尸梵諾本王道路	-12.7494
𡫸	-12.7504
沬	-12.7516
既得成就自身利	-12.7532
憾	-12.7544
心生滅因緣相能示摩訶衍自體相用故	-12.7565
跓	-12.7648
共諍一有法	-12.7723
謚	-12.8953
拄	-12.8995
宇	-12.8998
央	-12.9001
穟	-12.9003
澀	-12.9005
罥	-12.9005
顒	-12.9007
瘳	-12.901
泳	-12.9011
餚	-12.9015
齶	-12.9017
糠	-12.9017
賃	-12.9018
槍	-12.9019
蓄	-12.9021
眩耀世	-12.9021
劈	-12.9023
裝飾花鬘	-12.9024
郭	-12.9027
磋	-12.9028
翠	-12.9028
鼉	-12.903
斗	-12.9031
迦蘭陀竹	-12.9032
揣	-12.9033
枚	-12.9033
磣	-12.9034
嬉	-12.9035
如秋滿月	-12.9036
篆	-12.9037
憐	-12.9037
塼	-12.9038
䭾	-12.9038
旃	-12.9039
廃	-12.9039
頹	-12.9042
雀	-12.9042
枕	-12.9042
後世亦得其福	-12.9042
麋	-12.9043
蓏	-12.9043
熠	-12.9043
零	-12.9044
齎	-12.9044
從冥入冥	-12.9044
蠢	-12.9044
掖	-12.9046
不黑不白	-12.9046
騃	-12.9047
嗽	-12.9047
晝夜燒燃恒	-12.9047
簫	-12.9048
繖	-12.9048
寇	-12.9048
從頭至足	-12.9049
邇	-12.9051
褥	-12.9052
鼾	-12.9052
將釋深經	-12.9053
笛	-12.9054
是稱命世	-12.9055
湎	-12.9055
提頭賴吒	-12.9055
諛	-12.9056
葱	-12.9057
觀述作之利害	-12.9057
耐怨害忍	-12.9057
阿闍黎	-12.9057
檻	-12.9057
駃	-12.9058
杓	-12.9059
驪	-12.906
心垢故眾生垢	-12.906
什	-12.9061
脆	-12.9062
館	-12.9062
不能於非作處	-12.9062
撲	-12.9062
叡	-12.9062
戚	-12.9062
垣	-12.9062
贖	-12.9063
蛆	-12.9063
如來人天師如實見是已故說	-12.9063
桎	-12.9063
麵	-12.9064
縫	-12.9064
並四寶塼之所搆	-12.9064
是路兩邊	-12.9064
舂	-12.9065
其江兩邊	-12.9065
損耗侵陵	-12.9066
疥	-12.9066
㗚	-12.9066
塘	-12.9067
歿	-12.9068
衣內明珠	-12.9068
梅	-12.9068
圭	-12.9068
瀉	-12.9068
枷	-12.9069
那先言設令命在	-12.9069
翹	-12.9069
副	-12.9069
痒	-12.9069
雉	-12.9069
瓫	-12.907
波利夜多	-12.907
黠	-12.907
班彌達	-12.907
梁武帝	-12.9071
襲	-12.9072
乙	-12.9072
新發意菩薩	-12.9074
錍	-12.9074
鵲	-12.9074
天子亦奏音樂	-12.9074
生因有致從有致因生從	-12.9074
剃除鬚髮被袈裟	-12.9075
弼	-12.9076
鉀	-12.9076
桷	-12.9076
日月星辰	-12.9077
鍮	-12.9077
鐶	-12.9077
筩	-12.9078
昂	-12.9078
訴	-12.9078
猷	-12.9079
龕	-12.9079
婆薩伊伽諾	-12.9079
忒	-12.9079
七事學知道	-12.9079
湧	-12.908
瓔	-12.908
福蓋正行所集經卷第十	-12.908
熙	-12.908
泥犁中人亦如是	-12.908
示現一切成菩提等	-12.9081
一音即一切音	-12.9081
斉	-12.9082
泊	-12.9083
正歎行德	-12.9083
腹中懷子寧	-12.9083
兮	-12.9083
旻	-12.9084
闔	-12.9084
秤	-12.9084
澓	-12.9084
藻	-12.9085
農	-12.9085
定譬於磨	-12.9085
簡凡異小	-12.9085
矟	-12.9086
蹤	-12.9086
趣高上上轉去	-12.9086
何相何用何緣何義	-12.9087
不壞曲而等遍	-12.9088
除樂三有障	-12.9088
窓	-12.9088
一生之期為一晝夜	-12.9088
琢	-12.9088
相所作業用門	-12.9088
桴	-12.9088
偃	-12.9088
郎	-12.9089
摘	-12.9089
㒵	-12.9089
是名初行菩薩第	-12.9089
愜	-12.9089
贈	-12.909
通達對治行法門	-12.909
會用歸體	-12.909
是城外邊	-12.909
個	-12.909
援	-12.9091
一言演說盡無餘	-12.9092
呈	-12.9092
迷東為西	-12.9092
如摩尼天鼓	-12.9092
殆	-12.9093
阿毗達磨	-12.9093
幻妄稱相	-12.9093
漆	-12.9093
初明勝人能入	-12.9093
祝	-12.9093
從此有往彼有	-12.9094
尼優婆塞優婆夷	-12.9094
眸	-12.9094
勿曲勿聳	-12.9094
程	-12.9094
闍十五之幽致	-12.9094
不縱橫並別	-12.9094
世尊釋迦牟尼如來	-12.9094
唯此三分說名能立	-12.9095
拶	-12.9095
以一切音即一音	-12.9095
菩薩為欲調伏眾生令離苦惱	-12.9095
鴿	-12.9096
若是善根之所發者	-12.9096
初託靜息心修止方便	-12.9096
且如本修不淨觀禪	-12.9097
今則依本修不淨觀	-12.9097
碧	-12.9097
背塵合覺	-12.9097
邦	-12.9097
如病如癰	-12.9097
濡	-12.9097
五示益勸	-12.9097
除此更無能入之	-12.9098
駐	-12.9098
胤	-12.9098
此菩薩初生之時	-12.9098
洒	-12.9098
今染緣既息	-12.9098
爾時諸人不行正法	-12.9098
閏	-12.9098
澆	-12.9099
如來唯用大悲為力	-12.9099
不能行善不知作福	-12.9099
六十億白馬	-12.9099
粟	-12.9099
以三法驗之	-12.91
謂不樂為能成立性	-12.91
兩舌惡口綺語	-12.91
瞖	-12.91
為彼意識親所依故	-12.91
劫濁自然而起	-12.91
亦當忍於利	-12.91
若是其常見非所	-12.91
二離內惑業	-12.9101
刈	-12.9101
南西北方四維上下	-12.9101
光祿卿傳法大師賜紫臣施護奉詔譯	-12.9102
歧	-12.9102
最勝業徧知色無礙自在救世大悲者	-12.9102
無明與前生相和合	-12.9102
俗故相有別	-12.9102
輅	-12.9103
莎	-12.9103
方成種子此遮	-12.9103
邪不干正	-12.9103
殺戮棄擲	-12.9103
無世滋味	-12.9104
竪窮橫遍	-12.9105
濃	-12.9105
示現世間自在力行	-12.9105
唯悟他現量與比量及似唯自悟	-12.9105
此因如能成遮實等	-12.9105
一頭世瓶上	-12.9105
一相修為一相	-12.9105
寓	-12.9105
粵	-12.9105
三彌底部論卷	-12.9106
初舉數標意	-12.9106
一切法圓滿成就無能壞性	-12.9106
無明所染有染心	-12.9107
故言心生種種法生	-12.9107
融俗歸真論	-12.9107
通契經文決疑門	-12.9107
軛	-12.9108
作答釋成二初	-12.9108
同類以勸發	-12.9108
暉	-12.9108
初正寄四相顯其四位	-12.9108
怖之以入道	-12.9108
誌	-12.9108
始還同本	-12.9108
十力四無畏等	-12.9109
說此能觀為向	-12.9109
日藏月藏	-12.9109
總識攝生圓滿	-12.9109
念本國中事	-12.9109
本性法然世界應起時	-12.9109
因治之力得益門	-12.911
謂六識身及意	-12.911
錦	-12.911
見毛月等	-12.911
我今與汝及諸菩薩甚深智者	-12.911
門自入門破異門	-12.911
一者根本熏習以能成就業識義故	-12.911
操	-12.9111
碩	-12.9111
一各攝五十一時一處轉然不可合一	-12.9111
依不思議變故得住	-12.9111
顯示人見對治門	-12.9111
依自隨分所有覺慧	-12.9111
三世悉在無有餘	-12.9112
亦無形相而可得	-12.9112
未有能所王數差別	-12.9112
空緣當有此業報受用具	-12.9113
二答釋二初偈頌答	-12.9113
轅	-12.9113
故名染心為煩惱礙	-12.9113
不言二義各攝一切	-12.9113
令嗅佛戒香	-12.9113
摩奢趺娑	-12.9113
猶如輕毛隨風東西	-12.9113
雖舉體動而本來	-12.9113
依位漸漸轉一主生二伴至	-12.9113
菩薩無量報身無量莊嚴各各差別	-12.9113
非謂法體是非有	-12.9114
報恩無盡住地	-12.9114
不可變異而變異	-12.9114
迦羅鳩奢那	-12.9114
難離實之大有	-12.9114
自然本王廣大轉地無障無礙俱行道路	-12.9114
向焉下下轉去	-12.9114
在眾苦而不干	-12.9114
建立四種法相門	-12.9114
離言說名字心緣	-12.9115
細中唯說無明熏	-12.9115
玄之又玄	-12.9115
切分別即分別自心心不見心無相可得	-12.9115
廢詮談旨	-12.9115
誓願無邊平等門	-12.9115
起必賴不起	-12.9115
菩薩造西天譯經三藏朝奉大夫試	-12.9115
顯應不應差別門	-12.9116
眷屬無盡殊勝門	-12.9116
其間值惡知識因緣故	-12.9116
從六有於三	-12.9116
總標能入二種別門	-12.9116
頭有婆多提	-12.9116
㿇	-12.9117
舉受持功讚揚門	-12.9117
生滅門者別顯染淨	-12.9117
能止後念令不起者	-12.9117
是此論忽然義也	-12.9117
墯	-12.9117
緣生不迷故離慢彼知空	-12.9117
約時節以說忽然	-12.9117
自然徧行利益眾生故	-12.9117
遠離貪嫉欺詐諂曲瞋恚邪見	-12.9117
從住相夢而得覺悟	-12.9117
不離世間縛纏門	-12.9118
猶如鏡中能現影也	-12.9118
辨上無明約治料揀	-12.9118
所謂無量功德之相常無斷絕	-12.9118
相似過類者內曰義本如前外曰	-12.9118
開府儀同三司	-12.9118
初散徵頌答	-12.9118
尾有舍伽必	-12.9118
比類為對示勝門	-12.9118
起染淨微細分別	-12.9118
衷	-12.9119
應觀現在所念諸法	-12.9119
以知法性無慳貪	-12.9119
牒上覺心初起之言	-12.9119
非謂覺時知有初相	-12.9119
此雖動念而極微細	-12.9119
而猶計有生死可	-12.9119
若依非異非可壞義	-12.9119
若餘一切悉當觀察應作不應作	-12.9119
若泥團微塵異者	-12.9119
顯示修行假者門	-12.9119
能說可說雖念亦無能念可念是名隨順	-12.9119
rahe	-12.9119
長四千里	-12.9119
大師賜紫沙門臣	-12.9119
顯示離雜合一門	-12.912
業作緣續生亦非不緣此	-12.912
虛空無邊故世界無邊	-12.912
顯離疑信功德門	-12.912
似異法喻亦有五種	-12.912
若行若住若臥若起	-12.912
如人迷故謂東為西方實不轉	-12.9121
顯示道路軌則門	-12.9121
以知法性常定體無亂故	-12.9121
羊車行菩薩人	-12.9121
金銀琉璃及頗梨柯	-12.9121
六者於諸如來境界信得增長	-12.9121
令人食無分齊乍多乍少顏色變異	-12.9121
計有總相主宰	-12.9121
二初問起二答釋二初結頌答	-12.9122
似異法中所立不遣	-12.9122
呪知根壞不壞門	-12.9122
唯癡滅故心相隨滅非心智滅	-12.9122
欲明所相心體	-12.9122
舉劣顯劣形相門	-12.9122
以知法性無染離五欲過	-12.9122
或便退失墮二乘地	-12.9122
殊勝廣說離謗門	-12.9122
讚歎三昧殊勝門	-12.9123
少分相似皆是外道所得非真三昧	-12.9123
所謂一切境界唯心妄起故有	-12.9123
獨地非亂一定一定道路	-12.9123
惡處所退信門	-12.9123
云何利他說無始耶	-12.9123
令得邪定非真門	-12.9123
自然依彼二種佛身	-12.9123
如來方便殊勝門	-12.9123
以一切色法本來是心實無外色	-12.9123
總結修行勸人門	-12.9123
二更重料揀	-12.9124
舉誹謗過令怖門	-12.9124
待何不覺而有始覺	-12.9124
第一義諦無有世諦境界離於施作	-12.9124
妄見有限之境	-12.9124
隨病設藥	-12.9124
初就本總標	-12.9124
虗受一切身心大苦	-12.9124
一者依分別事識凡夫二乘心所見者	-12.9124
得無障礙清淨法身	-12.9124
甚微且隱	-12.9125
兩輪具闕益損門	-12.9125
即謂虛空是如來性	-12.9125
顯示無邊毛生門	-12.9125
以念一切法令心生滅不入實智故	-12.9125
非如生因由能起	-12.9125
勤修方便等入涅	-12.9125
此別釋中具顯因緣	-12.9125
順於法性不動道理	-12.9125
故修五行以成四信	-12.9125
諸識生滅相集而生	-12.9125
謂十空十有	-12.9125
叚	-12.9125
能令現在已經之事忽然而念	-12.9125
四者大願平等方便所謂發願	-12.9125
一心真如門二心生滅門	-12.9126
相名常相隨而生諸妄	-12.9126
念念分別皆不相應故說為空	-12.9126
金輪山王道路	-12.9126
一切心行念念生滅以是故苦	-12.9126
如殺遲碁	-12.9126
與幾沙門俱來	-12.9126
通相之外無別染淨	-12.9126
明妄不入真	-12.9126
即與真如等徧一切處	-12.9126
異品一分轉同品遍轉	-12.9126
梁天竺三藏真諦譯唐海東沙門元曉疏	-12.9126
謂如實知一切眾生及與巳身	-12.9127
藂	-12.9127
二者一切染因名為無明	-12.9127
及佛塔是故得成此光明放大光明名淨	-12.9127
此依作具作者而說	-12.9128
依於動心成能見故	-12.9128
壽命八十千歲	-12.9128
得厭苦樂求涅槃	-12.9128
親承供養懼謂信心難可成就意欲退者	-12.9128
諸佛及大菩薩眾	-12.9128
為諸勝智者作六根境界示現微妙色	-12.9128
於彼一分電等是有	-12.9128
正釋所立大乘法義	-12.9128
擇真偽令了門	-12.9129
以一切法本來唯心實無於念	-12.9129
法門該攝圓滿門	-12.9129
顯示中中主者門	-12.9129
起下復次真如者依言說	-12.9129
若當有法勝涅槃者	-12.913
自然熏習恒常不捨	-12.913
無明昏迷無所分別	-12.913
如是一切煩惱依於無明所起	-12.913
本法所依決定門	-12.913
伽摩伊陀耶	-12.9131
舉障示治配當門	-12.9131
𡨋	-12.9131
聲聞神通行菩薩人	-12.9131
以知法性常定	-12.9132
總攝諸佛一切法藏	-12.9132
無餘究竟總持位	-12.9132
四者緣熏習鏡謂依法出離故	-12.9132
悉當觀察應作不應作	-12.9132
發起開問總標門	-12.9132
由是雖對不立實有	-12.9133
天佑皇帝	-12.9133
厭生死苦隨力所能以漸趣向無上道故	-12.9133
名為心及心所念法	-12.9133
初開數辨德	-12.9134
略釋決擇隨順門	-12.9134
所謂通及別如	-12.9134
後後諸轉中如次第無超漸漸增數量	-12.9134
若唯因言所詮表義	-12.9135
良以心源無二故得然也	-12.9135
即於前宗有法差別	-12.9137
廣釋決擇止輪門	-12.9137
如瑜伽論菩薩地云	-12.9137
品無所有入相應業	-12.9137
此中但說定是宗法	-12.9138
其境界所動轉成能見者	-12.9138
因有三初能化門	-12.9139
總標總釋觀輪門	-12.9139
懃勇無間所發性	-12.9139
以電空等為其同品	-12.9141
如牛兩角	-12.9144
同入理論六不	-12.9145
複	-12.9148
由合喻顯非一切故	-12.9159
曀	-12.9182
㘑	-12.9252
賽	-12.9255
聞性因是不定	-12.9863
特象送與	-13.0915
雍	-13.097
傴	-13.0983
訶阿呵若此神呪誦一萬八千	-13.0998
念之不可常得皆當棄捐	-13.1
齧	-13.1001
蹲	-13.1011
很	-13.1012
慘	-13.1014
鎚	-13.1015
東弗毘提	-13.1021
蒼	-13.1023
儉	-13.1025
袍	-13.1027
荊	-13.1027
優鉢羅花	-13.1028
謟	-13.1028
腫	-13.1028
哺	-13.1028
魅	-13.1029
署	-13.1029
裴	-13.1029
蟹	-13.1029
昵	-13.1029
擘	-13.1031
躄	-13.1032
掛	-13.1037
挂	-13.1037
於今世得其福	-13.1037
䆳	-13.1038
恪	-13.1039
奴婢僕從	-13.104
腨	-13.1041
詵	-13.1043
沽	-13.1043
娶	-13.1043
縮	-13.1044
奉以周旋	-13.1044
鈎	-13.1044
毋	-13.1044
話	-13.1045
鐘	-13.1048
釜	-13.105
伊帝曰多伽	-13.105
菜	-13.1051
帳	-13.1052
毘留勒叉	-13.1052
墻	-13.1053
如陶家輪	-13.1053
鉞	-13.1054
髴	-13.1054
於世輪相熱明倍第	-13.1054
吃	-13.1055
叨	-13.1055
槊	-13.1055
蠱	-13.1055
滄	-13.1056
堤	-13.1057
几	-13.1057
初悲歎人法	-13.1058
斯由合掌禮佛塔	-13.1058
􂶔	-13.1058
謁	-13.1058
咃	-13.1059
􂍊	-13.1059
毘留博叉	-13.1059
萌	-13.1059
㺗	-13.106
崛	-13.106
闥	-13.106
卦	-13.1061
腎	-13.1061
虱	-13.1062
樵	-13.1064
孽	-13.1064
泄	-13.1064
茵	-13.1065
妖	-13.1065
湖	-13.1065
沮	-13.1066
経	-13.1066
師子虎豹	-13.1066
饍	-13.1066
鑷	-13.1066
殫	-13.1068
葦	-13.1068
棹	-13.1069
阻	-13.1069
憚	-13.1069
失譯人名附東晉錄	-13.107
蔗	-13.107
啞	-13.107
寂寥虗曠	-13.1071
軒	-13.1071
鸚	-13.1071
詭	-13.1072
於決定因不定因言	-13.1073
佷	-13.1073
能與我共難經道	-13.1073
跪	-13.1073
竿	-13.1074
毱	-13.1074
隨機巧妙之辯	-13.1074
復次若正顯示能立過失	-13.1075
蚤	-13.1076
尿	-13.1076
当	-13.1076
修身戒心慧	-13.1076
閫	-13.1076
噬	-13.1077
発	-13.1077
遘	-13.1078
僊	-13.1078
園內女天亦出觀聽	-13.1078
喘	-13.1078
怕	-13.1079
稀	-13.1079
妻子奴婢	-13.108
鵬	-13.108
諸女天等音樂謳	-13.108
街	-13.1081
侔	-13.1081
螘	-13.1081
勿令手足差異	-13.1082
如自按摩法	-13.1082
蔔	-13.1082
建立廣大諸佛事故	-13.1082
媚	-13.1083
翥	-13.1083
令鼻與臍相對	-13.1084
次正頭頸	-13.1084
蘆	-13.1085
由與七種大性相應	-13.1085
一邊長四十九萬	-13.1085
乳汁同煎	-13.1085
唯是於空法還自生空法	-13.1085
𠎝	-13.1086
窹	-13.1086
慾	-13.1087
酌	-13.1087
濺	-13.1087
左脚置右髀上	-13.1087
袖	-13.1088
多於丑時來者	-13.1088
二唱本作釋二初唱本論二作釋文二初	-13.1088
挹	-13.1088
胃	-13.109
𠰒嚩迦仙	-13.109
馭	-13.109
次宜廣釋令其生解	-13.1091
悷	-13.1091
現惡形以怖	-13.1091
見世間滅則滅有見	-13.1091
虞	-13.1092
盖	-13.1092
非比極成現所	-13.1092
贅	-13.1092
藥師瑠璃光王	-13.1092
倪	-13.1092
行者恒用此時	-13.1093
每令安穩	-13.1093
若是所作見彼無常如瓶等者	-13.1093
牃	-13.1093
勝奢波葉譬	-13.1093
簡妄異真答	-13.1094
循環研覈	-13.1094
有三十二相八十種好身	-13.1094
名無得物之功	-13.1094
不壞相而即泯	-13.1095
批	-13.1095
由是成前舉所說力	-13.1095
以奉無上之尊	-13.1096
菩薩知終不知始	-13.1096
總括摩羅百八之廣	-13.1097
摛	-13.1098
課	-13.1098
綰	-13.1099
舉此無二之命	-13.1099
訂	-13.1099
我人眾生壽者	-13.1099
大乘起信論廣釋卷第	-13.1099
冶	-13.11
倡	-13.11
生色香等五法亦不從	-13.11
聲聞藏及菩薩藏	-13.11
隋	-13.11
瞳	-13.1101
及作諸獸之形	-13.1101
璅	-13.1101
一切外道九種變論	-13.1101
應誦菩薩戒本	-13.1101
乍抱持於人	-13.1101
邀	-13.1101
鍛	-13.1102
於是時中法行平等行	-13.1102
末劫眾生如是過失自然而生	-13.1102
而不拒彼諸相發揮	-13.1102
則應閉目一心	-13.1102
或作少男女相	-13.1102
或作老宿之形	-13.1102
諸無漏法順平等性	-13.1102
羂	-13.1103
鑰	-13.1103
若不遇諸佛菩薩善知識等	-13.1103
復令他人亦悉安住	-13.1103
那爛陀寺	-13.1103
􂋧	-13.1103
應誦戒律	-13.1103
唯依文約義豐之論	-13.1104
深解佛經所說之旨	-13.1104
建立戒相標宗門	-13.1104
無沒是不失義	-13.1104
􂶙	-13.1104
尼犍子論師	-13.1104
蹄	-13.1105
應機殊用德	-13.1105
二自力聞經悟	-13.1105
妄真同二妄	-13.1105
鷲山無二之趣	-13.1105
二會相入實顯動靜不異	-13.1105
􂶚	-13.1105
而不作意我現差別	-13.1106
窯	-13.1106
慵	-13.1106
所起現識行相微細	-13.1106
餘機不假此論	-13.1106
具足戒行不輕門	-13.1106
成就戒品勝處門	-13.1106
能現於色所謂從本巳來色心不二	-13.1106
会	-13.1106
意地亦有離諸分別	-13.1106
總顯三中前之二法	-13.1106
彼處亦應於其現因	-13.1107
柝	-13.1107
如有成立聲非所聞	-13.1107
顯示法見對治門	-13.1108
三約相釋遣	-13.1108
一小劫者名為一劫	-13.1108
鶴	-13.1108
又以覺心原故	-13.1108
唯取彼此俱定許義	-13.1109
二除自然業用疑	-13.1109
初內因力微	-13.1109
顯示智身形相門	-13.1109
三劣機因尋廣論悟	-13.111
本覺義者對始覺說	-13.111
舉因望果以成運	-13.111
何故不能現報化等色身	-13.111
依宗所顯差別義理	-13.111
因明入正理論疏後記卷	-13.111
金色有光影	-13.1111
品空無邊入相應業	-13.1111
師教外熏為緣	-13.1111
應以非作證其常	-13.1111
又染心義者名為煩惱礙	-13.1111
現示本因決定證成除疑生信大決擇分	-13.1111
鉢囉膩波低	-13.1111
內營事內事	-13.1112
或令人食無分齊	-13.1112
巳宣少句義為始立方隅其間理非理妙	-13.1112
觀止輪失門	-13.1112
非離此二別有所量	-13.1112
說有二種云何為二一者法二者義	-13.1112
初依覺成迷	-13.1112
攝義顯宗生解門	-13.1112
淄	-13.1112
窮三際而無改	-13.1112
當念唯心境界則滅終不為惱	-13.1112
通與二行為本	-13.1112
明起始覺之所由	-13.1113
觀諸魔事察而治之	-13.1113
因他廣論而得解	-13.1113
諸佛何故現報化等種種色耶	-13.1113
淩	-13.1113
甚極切難	-13.1113
有一萬二千七百五十法門	-13.1113
校量功德讚歎信行現示利益大決擇分	-13.1113
還淨本覺業用之相	-13.1113
故說三界唯心轉也	-13.1114
三有五趣七識住九眾生居	-13.1114
信法精進修行門	-13.1114
十解初心名發心住	-13.1114
思議重重不可稱量阿說本王大決擇分	-13.1114
界外別有一眾生界	-13.1114
身光眼入不入門	-13.1114
迷前自心所現之境	-13.1114
流出一切清淨真如菩提涅槃	-13.1114
摩訶空塵海藏王道路大決擇分	-13.1114
由於極微所成立法常性不遣	-13.1114
解脫山王大道路大決擇分	-13.1114
之色無有分齊隨心能示十方世界無量	-13.1114
推求五陰色之與心六塵境界畢竟無念	-13.1114
廣大無盡解脫海海摩訶山王大決擇分	-13.1115
闚	-13.1115
謂磨治離垢	-13.1115
躑	-13.1115
即彼和合心海之中	-13.1115
亦分斷無明住地故	-13.1115
依因者不覺義故依緣者妄作境界義故	-13.1115
故無明滅時亦隨滅也	-13.1115
令其念著造種種業受於一切身心等苦	-13.1115
二明雖不二而差別	-13.1116
四應機殊行德	-13.1116
四者遠離誹謗甚深之法	-13.1116
初明雖差別而不二	-13.1117
外妄境界動起識浪	-13.1117
明真有待妄之義	-13.1117
豈可得說以為境界	-13.1117
􂎥	-13.1117
凡此等輩中	-13.1117
無有少法能取少法	-13.1117
反驗六塵唯是一心	-13.1117
二廣寄四相釋成	-13.1117
以眾生執佛色身之礙相	-13.1117
色如玻瓈珠	-13.1117
若得淨心所見微妙其用轉勝	-13.1117
證發心者從淨心地乃至菩薩究竟地	-13.1117
如來法身畢竟寂寞猶如虛空	-13.1117
必薩伊尼羅	-13.1118
但今略舉根本細相	-13.1118
笈	-13.1118
顯真無相隨熏	-13.1118
信本令心平等門	-13.1118
染淨互熏相生不斷	-13.1118
然本智正證之時	-13.1118
生滅因緣者所謂眾生依心意意識轉故	-13.1118
真如用者所謂諸佛如來本在因地發大	-13.1118
光祿卿明教大師臣法賢奉詔譯	-13.1118
妹	-13.1118
自體自相自用摩訶衍	-13.1118
何處有體而可得耶	-13.1118
訣	-13.1118
離始則顯生死無	-13.1118
雖真理妙智本來常湛	-13.1118
明妄有起淨之功	-13.1118
有礙能緣永不得起	-13.1118
信僧令心無諍門	-13.1118
具足圓滿無闕失轉	-13.1118
舉前所說總結門	-13.1118
一心法界三大義中各開二種	-13.1119
令業重惑多	-13.1119
以心住故漸漸猛利隨順得入真如三昧	-13.1119
捨彼事識外計分別	-13.1119
眾生如此功德自然得成	-13.1119
真如三昧能生此等無量三昧	-13.1119
總標答前所問門	-13.1119
舉益勸人令修門	-13.1119
若心有起更見前法可念者則有所少	-13.1119
雖未得定於一切時一切境界處則能	-13.1119
立二礙別障用門	-13.1119
𣅍陀尸梵迦諾道路大決擇分	-13.1119
旭	-13.1119
ḥ	-13.1119
度深行之熏	-13.1119
以真如門無能生義故	-13.1119
下依義釋成二初	-13.1119
不說因無宗不有	-13.1119
如瑜伽唯識等論	-13.1119
惣	-13.1119
二十四種分離別相	-13.1119
因緣三初能化門	-13.1119
無邊之智所現之相	-13.112
効	-13.112
卛	-13.112
故能遍知諸念	-13.112
能不捨止而修觀	-13.112
率相屬當假人門	-13.112
離終則顯涅槃無	-13.112
所成立法常住性無	-13.112
執心外實有境界	-13.112
此約隨流生滅門說	-13.112
七者遠離憂悔於生死中勇猛不怯	-13.112
然此始覺無別始起	-13.112
自此下對立第	-13.112
金剛寶輪山王大決擇分	-13.112
㡿	-13.1121
故云相不云用也	-13.1121
故說依心及無明也	-13.1121
現識亦爾隨其五塵對至即現無有前後	-13.1121
破器中水不得住	-13.1121
若有彼無見則迷緣生義	-13.1121
乱	-13.1121
䟽	-13.1121
捨五陰生有處	-13.1121
違此智用名為智礙	-13.1121
彼經是權非實	-13.1121
恐後報遷遇緣成退	-13.1121
所謂不殺不盜不婬	-13.1121
令普觀眾生起於大悲	-13.1121
故云無相方便地究竟離也	-13.1121
於空若起慢則不厭	-13.1121
眾生亦爾依覺故迷若離覺性則無不覺	-13.1121
言即是此故無有失	-13.1122
不同智識微細分別	-13.1122
然俱可得一義相違	-13.1122
唯除疑惑不信誹謗重罪業障我慢懈怠	-13.1122
遍於十方修行一切諸善功德	-13.1122
依於六根別取六塵	-13.1122
入胎住胎出胎出家成道轉法輪入於涅	-13.1122
必與意識同境	-13.1122
無奢摩他軟滑相續	-13.1122
異說相應契當門	-13.1122
象車行菩薩人	-13.1122
具無漏法備有不思議業作境界之性	-13.1123
但由智力了所說義	-13.1123
有財物隨力施與以自捨慳貪令彼歡喜	-13.1123
依阿梨耶識說有無明不覺而起	-13.1123
答曰所言滅者唯心相滅非心體滅	-13.1123
總標軌則決定門	-13.1123
以知法性無苦離瞋惱故	-13.1123
猶如迷人依方故迷若離於方則無有迷	-13.1123
非是外道等所起也	-13.1123
此是白此是疊	-13.1123
於成就因不成就因言也	-13.1124
白品相熏有力門	-13.1124
塵數量道路大決擇分	-13.1124
總結兩輪俱轉門	-13.1124
通法大師賜紫臣沙門法悟奉勑撰	-13.1124
鍵尸多陀摩宮	-13.1124
從異相夢而得微覺	-13.1124
氣息不依形色不依於空不依地水火風	-13.1124
無雜一味平等不增不減體大摩訶衍	-13.1124
譬如大摩尼寶體性明淨而有鑛穢之垢	-13.1124
量無邊諸法差別不增不減體大摩訶衍	-13.1124
𤼵	-13.1124
〕-【	-13.1124
此識住持境界不息	-13.1124
迷諸法門事中無知	-13.1124
隨順修行毘梨耶波羅蜜	-13.1124
二舉彼染法一一對顯	-13.1124
怖之以失志	-13.1124
故知今動則有生死苦患	-13.1124
根本摩訶衍中開八種故	-13.1125
四者為令善根微少眾生修習信心故	-13.1125
解脫山王根本地地無礙自在大決擇分	-13.1125
中京報恩傳教寺崇祿大夫守司空詮	-13.1125
二初問起二答釋二初偈頌答二長行釋	-13.1125
或多慈愛多睡多病其心懈怠	-13.1125
獨一無二山王自在道路大決擇分	-13.1125
離心之外無可念相	-13.1125
舉緣廣說開通	-13.1125
設有求大乘者根則不定若進若退	-13.1125
一切法離此心外無別體性	-13.1125
不得現行故云遠離非約隨眠以留惑故	-13.1125
有四種法熏習義故染法淨法起不斷絕	-13.1125
標釋俱成示相門	-13.1125
見有五陰生滅之法怖畏生死妄取涅槃	-13.1125
起一相能所不分	-13.1125
幔	-13.1125
唯如如及如如智獨存	-13.1126
漱	-13.1126
摩訶無二山王最勝高頂一地大決擇分	-13.1126
是中依未入正定眾生	-13.1126
無漏無明種種幻用	-13.1126
寶輪王廣大圓滿無上地地大決擇分	-13.1126
當知過去菩薩巳依此法得成淨信	-13.1126
知滅相實是不善	-13.1126
舉人顯示殊勝門	-13.1126
反顯能見必依動義	-13.1126
諸佛有自然業能現一切處利益眾生者	-13.1126
假令十方一切諸佛各於無量無邊阿僧	-13.1126
此中常言表非無常	-13.1127
因違於宗名相違	-13.1127
性染幻差別者	-13.1127
未來所苦亦無分齊	-13.1127
諸佛如來身如虛空無相	-13.1127
謂是如來本覺性智	-13.1127
遠離誹謗甚深之法重罪業障漸漸微薄	-13.1127
而有無量煩惱染垢	-13.1127
觀一切法自性無生離於妄見不住生死	-13.1127
一切菩薩因之修行入佛智故	-13.1127
一切諸佛不共之法能	-13.1127
三顯上緣起之相	-13.1127
二顯上無明緣起之由	-13.1127
以自捨慳貪令彼歡喜	-13.1127
壽命最長色形奇特威德最勝	-13.1127
故云色自在地能離也	-13.1127
日月神通行菩薩人	-13.1127
非所作言表無所作	-13.1128
一種金剛道路大決擇分	-13.1128
二三於有倒智	-13.1128
以一切義皆名品故	-13.1128
亦可與平等心機為緣	-13.1128
以對色故有是可見相令心生滅	-13.1128
非異相非非一相非非異相非一異俱相	-13.1128
以八地中得三種世間自在	-13.1128
以深自害亦害他人斷絕一切三寶之種	-13.1128
毀謗不信所獲罪報經無量劫受大苦惱	-13.1128
發起問答顯因門	-13.1128
為此極成現量比量相違義遣	-13.1128
或因正法欲滅以護法因緣故能自發心	-13.1128
而無差別之相等同一味唯一真如	-13.1128
佛說如來藏以為阿	-13.1129
依前業相轉成能	-13.1129
周徧圓滿廣大位	-13.1129
少欲知足頭陀等行乃至小罪心生怖畏	-13.1129
非如瓶等因成猶豫	-13.1129
我上立有立無	-13.1129
依無明風熏動之時	-13.113
生滅識相滅盡之時	-13.113
向悽慘道	-13.113
為諸煩惱之所漂動	-13.113
動之濕是水相	-13.113
境界風所動種種諸識浪騰躍而轉生	-13.113
亦能成立與此相違作非有緣性	-13.1131
建立誓願遍布門	-13.1131
三者法出離鏡謂不空法出	-13.1131
又復能起潤生煩惱	-13.1131
約其功能釋相續義	-13.1131
非離無常於無我等此因有故	-13.1131
七者為示專念方便生於佛前	-13.1131
則不動動則有苦果不離因故	-13.1131
㝡	-13.1131
以所作性現見離瓶於衣等有	-13.1131
已受一切身心大苦	-13.1131
得善處定不退門	-13.1131
於摩訶衍法堪任不退信心故	-13.1131
俱俱微塵一切山王道路大決擇分	-13.1131
明真離妄有也	-13.1131
此中水之動是風相	-13.1131
具有一切世間生死等法	-13.1132
順業識義以見佛身	-13.1132
因佛法僧力所護故能消業障善根不退	-13.1132
得生正信遠離誹謗入大乘道當持此論	-13.1132
相既現於自體之上	-13.1132
終無有退若觀彼佛真如法身常勤	-13.1132
而有妄心不覺起念見諸境界故說無明	-13.1132
門亦所入與本量等	-13.1132
依是二義以顯因緣	-13.1132
依此五義次第轉成	-13.1132
然此本覺在生滅門中為妄法之體	-13.1132
劒	-13.1133
筭	-13.1133
䖍	-13.1135
齅	-13.1136
租	-13.1139
薀	-13.1144
咩	-13.1146
璨	-13.1188
杲	-13.1191
枲	-13.1203
鴨	-13.3435
柄	-13.3446
竺	-13.3475
捻	-13.3482
佞	-13.3492
妉	-13.3492
姦	-13.3494
葬	-13.3496
魂	-13.3496
扑	-13.3496
鐺	-13.35
灸	-13.3501
舫	-13.3503
譴	-13.3504
庠	-13.3506
蝠	-13.3508
円	-13.351
溝	-13.351
喙	-13.3511
癬	-13.3512
辺	-13.3512
蚓	-13.3515
寰	-13.3515
褫	-13.3519
揮	-13.352
婿	-13.3521
瘻	-13.3521
衝	-13.3521
虜	-13.3521
眴	-13.3522
瞢	-13.3522
学	-13.3522
疆	-13.3524
郊	-13.3525
髫	-13.3525
厶	-13.3525
韜	-13.3528
独	-13.3528
腥	-13.3531
屯	-13.3532
頒	-13.3533
篙	-13.3533
霞	-13.3533
縲	-13.3534
霖	-13.3536
趙	-13.3536
痢	-13.3537
霍	-13.3537
廈	-13.3537
簾	-13.3537
穽	-13.3538
埀	-13.354
蘂	-13.354
槌	-13.3541
漉	-13.3542
芙	-13.3542
慍	-13.3542
蠲	-13.3542
虐	-13.3543
銜	-13.3544
涶	-13.3544
撚	-13.3544
迨	-13.3545
𦘺	-13.3547
蠟	-13.3549
逍	-13.355
厲	-13.355
巒	-13.355
茸	-13.3551
挾	-13.3553
姝	-13.3553
版	-13.3554
觴	-13.3555
弑	-13.3555
跨	-13.3557
踝	-13.3557
采	-13.3558
邁	-13.3558
擒	-13.3559
芟	-13.3559
儔	-13.356
蕀	-13.356
帚	-13.356
瘖	-13.356
棗	-13.356
莂	-13.356
縋	-13.3561
渥	-13.3561
澂	-13.3562
彷	-13.3564
餧	-13.3565
凍	-13.3565
蝕	-13.3565
祛	-13.3565
惚	-13.3566
臝	-13.3566
募	-13.3567
鄰	-13.3568
彫	-13.3568
剗	-13.3568
莟	-13.3568
熊	-13.3569
凹	-13.3569
癀	-13.3569
萍	-13.3571
暎	-13.3571
噓	-13.3571
戈	-13.3572
𦟛	-13.3572
硃	-13.3572
鈞	-13.3572
奘	-13.3572
榻	-13.3572
蹋	-13.3573
呻	-13.3573
肪	-13.3573
鍾	-13.3573
謾	-13.3575
惻	-13.3576
寵	-13.3576
榜	-13.3576
賄	-13.3577
賾	-13.3578
搔	-13.3578
㝹	-13.3579
渺	-13.3579
髣	-13.3579
咫	-13.3579
譜	-13.3579
仆	-13.358
煬	-13.358
𨒬	-13.358
雇	-13.3582
矬	-13.3582
偫	-13.3582
叱	-13.3582
彥	-13.3584
翛	-13.3585
㮏	-13.3586
俄	-13.3586
霄	-13.3586
㵎	-13.3589
裡	-13.3589
酷	-13.359
姤	-13.359
蒭	-13.359
斟	-13.3591
膀	-13.3591
俚	-13.3592
丞	-13.3593
灼	-13.3593
𢪛	-13.3594
悛	-13.3594
鏁	-13.3595
鵽	-13.3596
傑	-13.3598
態	-13.36
𠩋	-13.36
攪	-13.36
迂	-13.36
─	-13.3603
僉	-13.3603
泮	-13.3604
奕	-13.3604
台	-13.3605
􂢰	-13.3606
徽	-13.3606
蒜	-13.3607
隘	-13.3607
握	-13.3607
卓	-13.3608
孟	-13.361
勾	-13.361
耗	-13.3611
谿	-13.3611
陜	-13.3612
琮	-13.3612
狡	-13.3615
〡	-13.3615
廬	-13.3616
閇	-13.3616
玅	-13.3616
颯	-13.3616
嚧	-13.3618
飴	-13.3618
ṁ	-13.3619
虵	-13.3621
楗	-13.3621
襟	-13.3621
臻	-13.3623
捫	-13.3626
廉	-13.3627
粥	-13.3627
筞	-13.3627
緘	-13.3628
+	-13.3628
撼	-13.3633
匱	-13.3634
耎	-13.3634
痆	-13.3636
弃	-13.3638
粘	-13.3647
蕷	-13.3647
薯	-13.3647
􂶆	-13.365
姉	-13.3661
隸	-13.3661
噪	-13.3679
䜿	-13.6739
敻	-13.6773
樊	-13.6779
褰	-13.6792
齗	-13.6798
䞋	-13.6798
塢	-13.6808
燬	-13.6808
拇	-13.6811
鈐	-13.6812
嵬	-13.6817
貳	-13.6817
尻	-13.6818
顗	-13.6823
摝	-13.6823
拼	-13.6823
股	-13.6828
鰍	-13.6831
肋	-13.6831
磷	-13.6831
瘥	-13.6831
僂	-13.6833
搥	-13.6835
攊	-13.6836
婚	-13.6837
歐	-13.6837
峰	-13.6838
璫	-13.684
陛	-13.684
玃	-13.684
曬	-13.6841
朵	-13.6843
噳	-13.6843
喫	-13.6844
哽	-13.6844
叟	-13.6847
諧	-13.6848
酇	-13.6848
刮	-13.685
臟	-13.6854
忙	-13.6856
慞	-13.6856
疼	-13.6857
㺄	-13.6858
錐	-13.6858
懊	-13.6858
痺	-13.686
搗	-13.686
滔	-13.686
咒	-13.686
劓	-13.6862
坯	-13.6862
黜	-13.6862
幖	-13.6862
綆	-13.6862
嚬	-13.6864
橛	-13.6864
紋	-13.6864
󰪠	-13.6866
恤	-13.6866
稿	-13.6868
鳶	-13.6868
觜	-13.6869
疹	-13.687
蝦	-13.687
颺	-13.687
忖	-13.6872
鉛	-13.6872
湊	-13.6873
甕	-13.6873
鞋	-13.6875
曙	-13.6875
催	-13.6875
熈	-13.6877
擅	-13.6877
帷	-13.6879
燻	-13.6879
蟣	-13.6879
煉	-13.6881
沓	-13.6881
旅	-13.6881
蘗	-13.6882
翌	-13.6883
鴉	-13.6883
吝	-13.6883
矢	-13.6883
魯	-13.6885
澇	-13.6885
嬾	-13.6887
咨	-13.6887
諒	-13.6888
傚	-13.6889
軫	-13.6889
搦	-13.689
鬻	-13.6891
稅	-13.6891
泝	-13.6891
瘼	-13.6891
鏘	-13.6891
睞	-13.6891
逭	-13.6891
嶺	-13.6891
綾	-13.6893
踴	-13.6893
杯	-13.6893
飤	-13.6893
徤	-13.6895
叩	-13.6895
癭	-13.6895
帆	-13.6896
蛤	-13.6896
歛	-13.6896
亨	-13.6896
艾	-13.6896
餅	-13.6898
癸	-13.6898
縶	-13.6898
髆	-13.6899
綖	-13.6899
瘤	-13.6899
謌	-13.6899
烹	-13.69
馨	-13.69
蹇	-13.6901
眷	-13.6901
貶	-13.6902
闌	-13.6902
弦	-13.6902
噫	-13.6903
悚	-13.6904
斆	-13.6904
埳	-13.6904
獎	-13.6906
瓠	-13.6906
駿	-13.6906
享	-13.6907
妾	-13.6908
巫	-13.6908
莽	-13.6908
魑	-13.6908
澈	-13.691
晣	-13.691
咲	-13.691
眇	-13.691
浦	-13.6911
潮	-13.6912
豹	-13.6912
妊	-13.6912
縦	-13.6912
煗	-13.6912
鑪	-13.6912
鶙	-13.6912
鷿	-13.6912
斜	-13.6914
􂎫	-13.6914
慄	-13.6914
羡	-13.6914
𧂐	-13.6916
裕	-13.6916
檐	-13.6916
𥇒	-13.6916
淆	-13.6917
岑	-13.6917
敕	-13.6918
邐	-13.6918
聘	-13.6918
煌	-13.6918
挐	-13.6918
瑯	-13.6918
絺	-13.6918
輯	-13.6919
穪	-13.692
糯	-13.6921
迸	-13.6921
輛	-13.6922
涵	-13.6922
查	-13.6922
欬	-13.6923
惘	-13.6924
撗	-13.6924
腑	-13.6925
倉	-13.6925
陂	-13.6926
蝸	-13.6926
昱	-13.6926
庫	-13.6926
璞	-13.6927
圈	-13.6927
絆	-13.6929
樑	-13.6929
竈	-13.693
貼	-13.6931
駑	-13.6931
駘	-13.6931
貊	-13.6931
拆	-13.6931
𠗦	-13.6932
愕	-13.6932
牌	-13.6933
闠	-13.6933
貽	-13.6934
献	-13.6935
燄	-13.6935
鵶	-13.6935
㸦	-13.6937
璧	-13.6937
屹	-13.6939
誚	-13.6939
剏	-13.6939
牓	-13.6941
栢	-13.6941
宸	-13.6941
獘	-13.6942
朦	-13.6943
恬	-13.6943
蹴	-13.6944
唄	-13.6944
攜	-13.6945
鍱	-13.6945
廕	-13.6947
􂐔	-13.6949
挈	-13.695
繇	-13.6951
坈	-13.6952
慙	-13.6952
𠃊	-13.6952
繕	-13.6953
􂵚	-13.6953
媿	-13.6954
𦅂	-13.6954
俞	-13.6954
獯	-13.6954
協	-13.6956
怳	-13.6956
轄	-13.6958
􂵊	-13.6958
煞	-13.6958
董	-13.6958
濶	-13.696
飱	-13.6962
麄	-13.6964
瞙	-13.6965
餒	-13.6966
鄧	-13.6967
緻	-13.6968
􂵗	-13.6968
嫰	-13.697
􂶋	-13.697
􂶥	-13.6971
𠕋	-13.6971
季	-13.6972
􂶇	-13.6972
愽	-13.6973
莾	-13.6973
聒	-13.6974
寘	-13.698
焬	-13.7001
釤	-13.7039
弩	-13.7045
嗏	-13.7084
砌	-13.7086
幘	-14.1664
珊	-14.1726
售	-14.1789
恊	-14.181
徙	-14.1811
峭	-14.1811
徊	-14.182
廡	-14.182
冏	-14.1827
囓	-14.1829
坡	-14.1831
蚋	-14.1842
帥	-14.1842
啒	-14.1842
㖀	-14.1846
亞	-14.1849
唅	-14.1849
廊	-14.1851
幟	-14.1852
堋	-14.1855
糧	-14.1857
鱗	-14.1858
壹	-14.1858
悽	-14.1858
倀	-14.1858
員	-14.1874
嚥	-14.1874
姪	-14.1874
将	-14.1874
刖	-14.188
亢	-14.1883
崑	-14.1883
宙	-14.1886
佚	-14.1891
咜	-14.1892
𠰒	-14.1893
卉	-14.1893
霔	-14.1893
惋	-14.1896
忤	-14.1896
剽	-14.1896
僣	-14.1896
些	-14.1899
弒	-14.1899
柰	-14.1902
碁	-14.1902
罣	-14.1904
坻	-14.1905
慠	-14.1908
唌	-14.1912
訊	-14.1914
唎	-14.1915
剉	-14.1915
侈	-14.1918
嘯	-14.1927
件	-14.1928
咋	-14.193
嗁	-14.193
㵱	-14.1931
剔	-14.1934
庇	-14.1937
仞	-14.1937
券	-14.1937
䨱	-14.1937
嘹	-14.194
廼	-14.194
㝵	-14.194
悖	-14.1943
懌	-14.1943
伯	-14.1945
伍	-14.1949
嚟	-14.1949
坊	-14.195
閭	-14.1951
啖	-14.1952
另	-14.1952
|	-14.1953
㘕	-14.1953
俻	-14.1953
䑛	-14.1956
䌥	-14.1956
A	-14.1957
忝	-14.196
戱	-14.1962
㧌	-14.1962
嘿	-14.1968
B	-14.1971
婉	-14.1984
埿	-14.1984
䏶	-14.1987
嬭	-14.2022
抖	-15.1736
擻	-15.1736
悍	-15.1808
靖	-15.1816
扛	-15.1818
悸	-15.1819
悩	-15.182
恙	-15.1821
怜	-15.1822
征	-15.1823
廳	-15.1824
庾	-15.1824
庵	-15.1825
幰	-15.1826
帑	-15.1827
尹	-15.1828
宵	-15.1829
孾	-15.183
孺	-15.1831
墾	-15.1832
瑚	-15.1832
埴	-15.1833
埠	-15.1834
埏	-15.1835
址	-15.1836
吱	-15.1837
卍	-15.1838
医	-15.1839
劃	-15.184
偵	-15.1841
倆	-15.1842
俵	-15.1843
俙	-15.1844
仔	-15.1845
䩭	-15.1846
䠓	-15.1847
䖟	-15.1848
䔧	-15.1849
㴑	-15.185
㓟	-15.1851
ṛ	-15.1852
麝	-15.1853
鵰	-15.1854
髂	-15.1855
雋	-15.1856
鐸	-15.1857
鐲	-15.1858
逶	-15.1859
轤	-15.186
轆	-15.1861
蠃	-15.1862
蜾	-15.1863
蒺	-15.1864
崙	-15.1864
艚	-15.1865
臈	-15.1866
羲	-15.1867
纜	-15.1868
繪	-15.1869
繚	-15.187
綻	-15.1871
綮	-15.1872
佑	-15.1872
紵	-15.1873
紲	-15.1874
窄	-15.1875
窂	-15.1876
犛	-15.1877
満	-15.1878
歍	-15.1879
梟	-15.188
跮	-15.188
柢	-15.1881
条	-15.1882
愶	-15.1883
寱	-15.1884
孥	-15.1885
埃	-15.1886
圄	-15.1887
囹	-15.1888
凰	-15.1889
做	-15.189
俳	-15.1891
ケ	-15.1892
􂶨	-15.1893
􂵝	-15.1894
􂒲	-15.1895
𢤱	-15.1896
𠯗	-15.1897
𠊷	-15.1898
麞	-15.1899
鵡	-15.19
靂	-15.1901
霹	-15.1902
迤	-15.1903
諄	-15.1904
蠕	-15.1905
螻	-15.1906
蜈	-15.1907
蚣	-15.1908
蚔	-15.1909
航	-15.191
縹	-15.1911
紜	-15.1912
紂	-15.1913
穫	-15.1914
穌	-15.1915
稈	-15.1916
碑	-15.1917
睒	-15.1918
漁	-15.1919
溉	-15.192
桓	-15.192
榴	-15.1921
梏	-15.1922
柘	-15.1923
懾	-15.1924
恡	-15.1925
廷	-15.1926
嘖	-15.1927
咂	-15.1928
劂	-15.1929
剞	-15.193
俊	-15.1931
亶	-15.1932
T	-15.1933
鴛	-15.1934
絮	-15.1935
羼	-15.1936
粖	-15.1936
窶	-15.1937
爻	-15.1938
溈	-15.1939
槁	-15.194
忉	-15.1941
扼	-15.1941
憨	-15.1942
憔	-15.1943
嘔	-15.1944
馥	-15.1945
郁	-15.1946
躊	-15.1947
蒔	-15.1948
糜	-15.1949
琶	-15.195
琵	-15.1951
妮	-15.1952
驃	-15.1952
蠡	-15.1953
匍	-15.1953
儗	-15.1954
倨	-15.1955
亀	-15.1956
ū	-15.1957
髑	-15.1958
閦	-15.1959
鐇	-15.196
迊	-15.1961
粲	-15.1962
稗	-15.1963
稊	-15.1964
煻	-15.1965
桂	-15.1966
搩	-15.1967
慇	-15.1968
峙	-15.1969
娉	-15.197
壙	-15.1971
匐	-15.1972
冑	-15.1973
𡁆	-15.1974
閃	-15.1975
棱	-15.1976
蕅	-15.1976
篌	-15.1977
箜	-15.1978
樸	-15.1979
鬧	-15.198
賈	-15.1981
焼	-15.1982
儼	-15.1983
仮	-15.1984
詈	-15.1985
疽	-15.1986
獼	-15.1987
估	-15.1988
􂵥	-15.1989
釐	-15.199
覃	-15.1991
級	-15.1992
庚	-15.1993
煨	-15.1994
僮	-15.1995
仏	-15.1996
丐	-15.1997
􂵭	-15.1998
虚	-15.1999
罽	-15.2
􂵳	-15.2001
􂵲	-15.2002
􂵱	-15.2003
􂵰	-15.2004
􂵮	-15.2005
􂵫	-15.2006
􂵪	-15.2007
鄽	-15.2008
呰	-15.2009
饉	-15.201
鑞	-15.2011
牸	-15.2012
惕	-15.2013
􂵤	-15.2014
􂵣	-15.2015
􂵡	-15.2016
疫	-15.2017
ṭ	-15.2018
􂵢	-15.2019
鶹	-15.202
乗	-15.2021
>	-15.2022
淤	-15.2023
芭	-15.2024
瑠	-15.2025
寞	-15.2026
堄	-15.2027
埤	-15.2028
ṣ	-15.2029
[	-15.203
栴	-15.2031
姚	-15.2032
→	-15.2033
←	-15.2034
𠾅	-15.2035
婇	-15.2036
膖	-15.2037
惒	-15.2038
𣰽	-15.2039
醐	-15.204
睺	-15.2041
y	-15.2042
臚	-15.2043
袈	-15.2044
凉	-15.2045
v	-15.2046
珞	-15.2047
琉	-15.2048
臾	-15.2049
m	-15.205
剡	-15.2051
N	-15.2052
棃	-15.2053
瑜	-15.2054
洹	-15.2055
巘	-15.2056
衍	-15.2056
