<unk>	0
<s>	0
</s>	0
之	-4.11715
以	-4.65781
而	-4.8277
為	-4.90824
/	-4.94091
其	-5.0997
者	-5.19964
有	-5.2041
也	-5.22398
不	-5.31294
公	-5.38763
於	-5.39665
人	-5.40956
(	-5.44955
曰	-5.59463
)	-5.63772
)(	-5.67583
則	-5.76111
一	-5.76495
無	-5.78806
自	-5.79146
與	-5.80347
上	-5.85213
事	-5.86224
至	-5.86343
大	-5.91917
時	-5.9196
言	-5.99962
王	-6.02053
中	-6.05674
所	-6.05739
子	-6.07743
皆	-6.10934
知	-6.11758
行	-6.15458
又	-6.15662
在	-6.18386
及	-6.18446
矣	-6.19315
得	-6.21172
如	-6.23403
復	-6.25096
是	-6.27849
道	-6.30578
此	-6.31298
▁	-6.32043
亦	-6.32533
使	-6.34216
見	-6.34303
先生	-6.34632
出	-6.3485
故	-6.34923
乃	-6.37214
然	-6.37319
兵	-6.39479
官	-6.3999
氏	-6.43149
明	-6.4387
三	-6.43959
非	-6.43969
心	-6.45508
于	-6.47302
文	-6.47388
即	-6.48875
後	-6.50033
州	-6.52806
山	-6.52886
當	-6.53921
書	-6.54419
等	-6.55148
今	-6.55375
可	-6.55394
從	-6.55624
已	-6.55842
學	-6.56054
用	-6.56108
臣	-6.56759
乎	-6.5685
安	-6.56986
遂	-6.57865
欲	-6.58872
命	-6.58938
下	-6.5899
歸	-6.59838
正	-6.60159
名	-6.60637
生	-6.60936
相	-6.6098
方	-6.63277
多	-6.63756
將	-6.64336
入	-6.64565
理	-6.6458
民	-6.65015
必	-6.65074
善	-6.65742
二	-6.66707
若	-6.67404
成	-6.68339
令	-6.69606
天	-6.70356
國	-6.71663
請	-6.72075
徳	-6.73614
謂	-6.73622
孫	-6.74886
同	-6.74951
進	-6.76593
立	-6.76706
日	-6.77143
初	-6.79569
能	-6.80068
何	-6.80812
軍	-6.81174
未	-6.83275
禮	-6.84728
雖	-6.85136
聞	-6.85224
焉	-6.85332
死	-6.85374
君	-6.8551
處	-6.85863
字	-6.86756
世	-6.86925
論	-6.87118
去	-6.88652
來	-6.88671
守	-6.88757
因	-6.8896
常	-6.89355
長	-6.89431
陳	-6.90073
居	-6.90693
意	-6.90787
問	-6.91881
任	-6.92027
張	-6.92386
且	-6.9246
定	-6.92861
圖	-6.92926
爾	-6.93471
家	-6.94393
吾	-6.94515
詔	-6.94867
卒	-6.95231
法	-6.95729
既	-6.96301
先	-6.96542
南	-6.97128
元	-6.97788
作	-6.98429
諸	-6.98825
克	-6.99084
士	-6.99988
李	-7.00179
義	-7.00364
四	-7.00435
城	-7.00436
我	-7.00517
馬	-7.00692
實	-7.00934
平	-7.01507
本	-7.01586
不可	-7.01968
外	-7.04247
前	-7.04552
傳	-7.05743
議	-7.05795
齊	-7.05988
重	-7.06667
惟	-7.07519
分	-7.07786
甚	-7.07811
賊	-7.07918
師	-7.07931
舉	-7.07977
始	-7.08694
通	-7.0901
五	-7.09876
云	-7.10383
地	-7.10787
金	-7.11248
和	-7.11454
達	-7.12797
起	-7.12915
清	-7.13053
天下	-7.1316
治	-7.13254
思	-7.13337
授	-7.13387
易	-7.13445
年	-7.14057
發	-7.14324
取	-7.14507
帝	-7.14952
夫	-7.14965
盡	-7.15451
以為	-7.15653
水	-7.15887
數	-7.16166
都	-7.16352
原	-7.16952
親	-7.17003
布	-7.17071
過	-7.1718
或	-7.18302
海	-7.18332
賜	-7.18671
西	-7.18937
奏	-7.19144
特	-7.19806
獨	-7.19812
求	-7.19834
縣	-7.202
拜	-7.20834
不能	-7.21251
原任	-7.21706
身	-7.21771
由	-7.21798
志	-7.22714
内	-7.22751
武	-7.22914
石	-7.23121
宜	-7.23577
益	-7.23592
朝	-7.23916
深	-7.24761
門	-7.25044
稱	-7.25067
耳	-7.25119
衆	-7.25214
還	-7.25535
直	-7.25609
劉	-7.25923
阿	-7.25943
古	-7.26098
東	-7.26516
德	-7.26625
性	-7.26756
/)	-7.2676
保	-7.27512
遷	-7.27974
除	-7.28738
應	-7.29644
間	-7.30194
宗	-7.30988
氣	-7.31322
色	-7.31588
嘗	-7.32008
合	-7.33068
忠	-7.33159
周	-7.33562
經	-7.33685
改	-7.34571
力	-7.34812
仁	-7.35142
主	-7.35282
次	-7.35464
府	-7.3566
父	-7.36027
政	-7.36139
語	-7.36195
物	-7.36422
著	-7.36702
賢	-7.36847
少	-7.37383
遣	-7.37742
信	-7.37824
凡	-7.38101
風	-7.38383
納	-7.39123
逺	-7.39244
小	-7.39292
加	-7.3989
固	-7.39998
兼	-7.40072
漢	-7.40174
俱	-7.40517
修	-7.40663
哉	-7.41137
樂	-7.41312
誠	-7.41563
興	-7.41694
功	-7.41968
封	-7.42212
難	-7.42757
髙	-7.42807
動	-7.42957
陽	-7.43014
兩	-7.43834
猶	-7.43926
降	-7.44829
辭	-7.45154
㑹	-7.45432
濟	-7.45597
白	-7.45723
六	-7.45852
坐	-7.45912
説	-7.45914
其子	-7.46801
萬	-7.4722
黄	-7.47411
尚	-7.47477
觀	-7.47599
便	-7.48326
爲	-7.48542
終	-7.49243
泰	-7.49332
格	-7.49445
好	-7.49516
往	-7.49863
宋	-7.49882
集	-7.50111
吏	-7.50113
章	-7.50436
林	-7.50534
召	-7.50539
北	-7.50891
受	-7.51411
真	-7.51646
制	-7.51834
要	-7.5259
神	-7.52807
伯	-7.52956
止	-7.53197
老	-7.53481
聖	-7.5353
服	-7.53826
致	-7.53843
卿	-7.53887
江	-7.54901
新	-7.54996
敬	-7.55659
首	-7.55905
舊	-7.55992
留	-7.56223
異	-7.56243
屬	-7.56833
節	-7.5707
戰	-7.57864
食	-7.58635
郡	-7.59072
所以	-7.59325
教	-7.5953
敵	-7.59598
福	-7.61119
察	-7.61196
光	-7.61607
流	-7.61987
九	-7.62271
田	-7.62361
奉	-7.62689
朝廷	-7.62737
失	-7.62967
近	-7.63043
職	-7.63249
視	-7.63278
楊	-7.63476
就	-7.64329
開	-7.64354
考	-7.64454
體	-7.64699
穆	-7.64861
更	-7.64903
率	-7.66262
聲	-7.66293
詩	-7.66389
不得	-7.66475
利	-7.66659
母	-7.6703
吳	-7.67126
鄉	-7.67296
精	-7.6749
計	-7.67579
建	-7.67948
所謂	-7.68545
陛下	-7.68567
司	-7.69285
如此	-7.69327
遇	-7.69453
號	-7.69491
解	-7.69769
罪	-7.69809
河	-7.69834
再	-7.69916
口	-7.6995
寧	-7.69959
魯	-7.70158
對	-7.70185
部	-7.70364
但	-7.70456
各	-7.71007
惡	-7.71205
嚴	-7.71636
廣	-7.71705
而不	-7.71706
豈	-7.72032
里	-7.72043
病	-7.72487
謀	-7.72487
百	-7.72676
亂	-7.72818
龍	-7.73296
晉	-7.73428
巴	-7.73453
務	-7.73549
殺	-7.73827
尋	-7.73951
置	-7.74021
恩	-7.74193
望	-7.74551
邊	-7.74614
登	-7.7465
素	-7.75119
隨	-7.75229
地方	-7.75365
嵗	-7.75499
蘇	-7.75514
羅	-7.75522
絶	-7.75792
路	-7.75844
養	-7.76065
罷	-7.76138
祖	-7.76156
疾	-7.76241
極	-7.77081
備	-7.77356
木	-7.78148
具	-7.78616
耶	-7.78822
吉	-7.79067
良	-7.79266
省	-7.79478
順	-7.79909
存	-7.79916
史	-7.80179
博	-7.80289
唐	-7.80858
位	-7.80878
代	-7.80936
退	-7.8099
果	-7.81162
變	-7.81182
念	-7.81193
愛	-7.81232
告	-7.8134
雲	-7.81668
持	-7.81749
權	-7.8222
反	-7.82764
疏	-7.82781
化	-7.82894
侯	-7.82976
貴	-7.8299
學者	-7.83025
亡	-7.83216
悉	-7.83403
薦	-7.83498
許	-7.83553
才	-7.83728
朕	-7.84101
每	-7.84124
三年	-7.84211
恐	-7.84214
别	-7.84842
七	-7.84995
贈	-7.85095
勒	-7.85217
領	-7.85255
額	-7.85315
孝	-7.85316
度	-7.85513
雅	-7.85805
疑	-7.86221
遺	-7.86355
端	-7.86382
諭	-7.86382
富	-7.86447
庫	-7.86475
並	-7.86575
春	-7.86762
汝	-7.86833
厚	-7.8687
尤	-7.86982
按	-7.87024
襲	-7.87029
攻	-7.87142
左	-7.87508
選	-7.87571
繼	-7.87635
久	-7.87697
敗	-7.88084
記	-7.88093
楚	-7.8839
廟	-7.88489
予	-7.88573
載	-7.89586
不知	-7.89609
顧	-7.89788
顯	-7.89912
趙	-7.90055
八	-7.90533
全	-7.90665
追	-7.90776
喜	-7.91046
錫	-7.91097
崇	-7.91146
轉	-7.91667
引	-7.91727
推	-7.9214
錢	-7.92382
女	-7.92514
表	-7.92613
私	-7.92856
交	-7.9342
識	-7.93459
永	-7.93989
習	-7.94765
移	-7.94818
比	-7.95243
現任	-7.95287
君子	-7.95715
大臣	-7.95812
執	-7.96023
營	-7.96041
二年	-7.96205
不敢	-7.96361
葢	-7.96385
伊	-7.96416
謝	-7.96416
元孫	-7.96606
給	-7.96612
乞	-7.9674
太	-7.97122
承	-7.97265
弟	-7.97476
宫	-7.97761
臨	-7.97881
情	-7.98823
右	-7.99001
會	-7.99128
鄭	-7.99248
徐	-7.99479
郎	-7.99918
向	-7.99921
第	-7.99993
彼	-8.00053
附	-8.00062
他	-8.00221
破	-8.00307
夏	-8.00312
指	-8.00445
恭	-8.00552
胡	-8.00614
仲	-8.00628
竒	-8.00972
鎮	-8.01048
願	-8.01829
簡	-8.0187
哈	-8.02084
十	-8.02237
設	-8.02531
足	-8.0276
録	-8.028
堂	-8.03018
擢	-8.03121
獻	-8.03436
斯	-8.03553
華	-8.03666
勿	-8.03684
於是	-8.03871
朱	-8.03872
感	-8.03948
玉	-8.04264
某	-8.04506
勝	-8.04632
叔	-8.05526
手	-8.05559
夜	-8.05709
校	-8.05765
秦	-8.05793
岱	-8.06048
勞	-8.06167
威	-8.06287
憂	-8.06288
業	-8.0657
被	-8.06681
餘	-8.07161
英	-8.0718
調	-8.0751
陵	-8.07655
盛	-8.07716
高	-8.07955
列	-8.07993
殿	-8.08201
昭	-8.0826
講	-8.08299
月	-8.08373
容	-8.08502
莫	-8.08576
臺	-8.08873
塔	-8.09113
塞	-8.09247
約	-8.09277
陞	-8.09446
宣	-8.09507
而已	-8.09519
曹	-8.09853
景	-8.0993
赫	-8.10079
嘉	-8.10079
仍	-8.10337
充	-8.10429
幸	-8.10679
衛	-8.10746
目	-8.10913
廢	-8.10982
邑	-8.11037
輕	-8.11566
魏	-8.11785
急	-8.11946
報	-8.12175
土	-8.12223
尊	-8.12258
赴	-8.12321
拉	-8.12399
幾	-8.13395
典	-8.13801
須	-8.13858
延	-8.14188
曽孫	-8.14239
村	-8.14366
尚書	-8.14434
皇	-8.14672
補	-8.14702
可以	-8.149
器	-8.15068
韓	-8.15096
共	-8.15099
屯	-8.15499
蓋	-8.15564
者也	-8.15656
歴	-8.15875
鄂	-8.15915
累	-8.16051
儀	-8.16121
禁	-8.16174
據	-8.16203
窮	-8.16301
車	-8.1659
征	-8.16659
闗	-8.16747
舍	-8.17085
讀	-8.17499
衣	-8.17553
未嘗	-8.17844
責	-8.17864
靈	-8.18181
御史	-8.18284
之學	-8.18434
紀	-8.18595
御	-8.18851
烏	-8.19062
希	-8.19154
適	-8.19204
免	-8.19212
敏	-8.19237
戒	-8.19326
音	-8.19571
撫	-8.19668
藏	-8.19688
梁	-8.19807
索	-8.20029
積	-8.20122
擊	-8.20188
滿	-8.20497
造	-8.20669
侍	-8.21031
逆	-8.21091
倫	-8.21215
静	-8.21426
試	-8.21581
頭	-8.21716
昌	-8.21832
迎	-8.21885
帥	-8.21913
進士	-8.22006
而後	-8.22024
覺	-8.22144
原任䕶軍校	-8.22238
舟	-8.22435
待	-8.22456
只	-8.22746
賞	-8.22844
㫖	-8.22979
将	-8.23079
獄	-8.23083
天子	-8.2323
愈	-8.23348
聽	-8.2365
一日	-8.23741
懼	-8.23813
謹	-8.23997
元年	-8.24058
連	-8.2415
辨	-8.24308
强	-8.24451
爵	-8.24749
無所	-8.24897
祠	-8.24997
京	-8.253
散	-8.25364
說	-8.2564
面	-8.25703
孔子	-8.25886
族	-8.2602
扵	-8.26065
公曰	-8.26212
期	-8.2643
榮	-8.26582
美	-8.26808
慶	-8.26817
聖人	-8.27034
切	-8.27136
隂	-8.27217
喪	-8.27526
𫝊	-8.27847
獲	-8.28023
盖	-8.28033
有所	-8.28035
訓	-8.28094
草	-8.28109
原任驍騎校	-8.28238
籍	-8.28247
科	-8.28541
詳	-8.28613
徙	-8.28899
序	-8.29063
運	-8.29216
朱子	-8.29613
泉	-8.29655
監	-8.29813
最	-8.29891
孟	-8.2999
羣	-8.30196
慎	-8.30279
憲	-8.30574
弗	-8.30701
黨	-8.30828
副	-8.30902
狀	-8.30934
却	-8.31135
慮	-8.31441
怒	-8.31476
咸	-8.32009
友	-8.32013
郭	-8.32031
質	-8.32149
牧	-8.32379
蜀	-8.32499
勢	-8.32628
統	-8.32631
工夫	-8.32805
錄	-8.32953
伏	-8.32979
越	-8.32995
專	-8.3308
總	-8.33123
儒	-8.33184
騎	-8.33303
左右	-8.33477
齋	-8.33519
輔	-8.33584
偽	-8.33814
四年	-8.33865
五年	-8.33944
息	-8.33968
禄	-8.34005
逹	-8.34024
呉	-8.3413
根	-8.34158
屢	-8.34172
兮	-8.34194
資	-8.34199
春秋	-8.34236
苦	-8.34475
青	-8.34567
溪	-8.34653
曽	-8.34715
費	-8.34841
犯	-8.34874
悟	-8.34879
渾	-8.34954
到	-8.35266
叛	-8.35494
喀	-8.35737
千	-8.3574
空	-8.35815
微	-8.3584
棄	-8.35979
昔	-8.36014
害	-8.36056
良知	-8.3608
其孫	-8.3615
現	-8.36213
佐	-8.36564
曾孫	-8.36609
祭	-8.36735
負	-8.36742
明年	-8.36899
詞	-8.37071
亮	-8.37109
離	-8.37283
康	-8.37411
送	-8.37588
智	-8.3767
收	-8.37677
形	-8.37724
仕	-8.37777
京師	-8.3783
并	-8.3787
似	-8.37949
嗣	-8.3806
擇	-8.38183
聚	-8.38306
之心	-8.38403
来	-8.38489
飛	-8.38817
卷	-8.3886
曰吾	-8.39272
柱	-8.3939
至於	-8.39429
斷	-8.39597
謂之	-8.3968
其所	-8.39712
邪	-8.39712
撰	-8.3974
澤	-8.40295
援	-8.40379
避	-8.40435
室	-8.40609
后	-8.40858
走	-8.40978
虚	-8.41087
讀書	-8.41095
温	-8.41263
卒其子	-8.41296
俗	-8.41297
學士	-8.41432
圍	-8.4181
闕	-8.41893
夷	-8.41961
隆	-8.41982
將軍	-8.42002
畏	-8.42177
輒	-8.42354
賦	-8.42475
川	-8.42889
回	-8.43092
余	-8.43254
密	-8.43705
象	-8.4385
機	-8.43882
舒	-8.44023
懐	-8.44348
沙	-8.44411
敢	-8.44433
瑚	-8.4455
滅	-8.44623
酒	-8.44628
游	-8.44731
孤	-8.44789
呼	-8.44879
顔	-8.44985
危	-8.45043
徒	-8.45087
放	-8.45102
人心	-8.45167
冦	-8.45222
瑪	-8.45245
雜	-8.45252
刑	-8.45577
客	-8.456
宻	-8.4585
火	-8.46367
傷	-8.46418
諫	-8.46437
施	-8.46543
患	-8.46547
依	-8.46764
振	-8.46842
䇿	-8.46851
忘	-8.46971
孔	-8.47175
勤	-8.47332
珠	-8.47507
勇	-8.4757
商	-8.47582
秋	-8.47635
之間	-8.4781
巳	-8.4781
工	-8.48012
原任筆帖式	-8.48086
洪	-8.48244
示	-8.48249
廷	-8.48266
勸	-8.4831
揚	-8.48354
救	-8.49216
誅	-8.49237
程	-8.49274
祀	-8.4938
助	-8.49458
佛	-8.49586
稍	-8.49672
大夫	-8.49941
差	-8.50327
末	-8.50363
蔡	-8.50366
漸	-8.50569
釋	-8.50602
范	-8.50912
督	-8.50955
落	-8.50972
對曰	-8.50982
訥	-8.512
厯	-8.51351
寛	-8.51479
維	-8.51534
湖	-8.51578
條	-8.51638
奪	-8.51729
旗	-8.51819
決	-8.51953
寺	-8.51992
答	-8.52075
畢	-8.52109
寳	-8.52178
六年	-8.5237
震	-8.52384
蘭	-8.52563
然後	-8.52666
什	-8.52717
編	-8.52742
為之	-8.52928
竟	-8.53006
葉	-8.53021
不足	-8.53206
虛	-8.53258
趨	-8.53375
吕	-8.53382
怨	-8.53445
薄	-8.53464
遊	-8.53501
碑	-8.53531
肅	-8.53544
歲	-8.53671
謁	-8.53765
宰相	-8.53819
四世孫	-8.53856
妄	-8.53918
惠	-8.54083
茍	-8.5419
葬	-8.54561
防	-8.54763
頗	-8.54863
季	-8.54995
曰此	-8.54995
宿	-8.55016
不為	-8.55022
刻	-8.55111
松	-8.55203
剛	-8.55232
天地	-8.55357
莊	-8.55519
源	-8.55776
允	-8.55888
甫	-8.55905
哀	-8.55913
尼	-8.5605
薩	-8.56097
院	-8.56105
兄	-8.56158
之所	-8.56287
甲	-8.56497
之後	-8.56584
申	-8.56797
馳	-8.5689
徃	-8.57018
姓	-8.57056
墓	-8.57339
筆	-8.57368
休	-8.57414
曾	-8.57513
財	-8.57859
人也	-8.57922
操	-8.58193
關	-8.58261
那	-8.58447
役	-8.58716
斬	-8.58898
杜	-8.59002
何以	-8.59149
茂	-8.59222
接	-8.59498
偕	-8.59531
糧	-8.59548
篤	-8.59654
忽	-8.59682
之意	-8.59739
丁	-8.59784
市	-8.59905
普	-8.60521
半	-8.60556
境	-8.60667
禪	-8.60907
八年	-8.61092
敦	-8.61121
早	-8.61256
彦	-8.61285
貞	-8.61564
堅	-8.61649
了	-8.61718
討	-8.61744
優	-8.61938
之子	-8.61946
野	-8.61963
丹	-8.62083
掌	-8.6215
述	-8.62233
燕	-8.62252
委	-8.62555
逐	-8.62585
偏	-8.62731
庭	-8.62751
結	-8.62827
不及	-8.62961
之功	-8.6313
班	-8.63252
襲職	-8.6326
傅	-8.63373
禍	-8.63478
其後	-8.63716
鼎	-8.63769
䕶	-8.64002
誰	-8.64046
嶺	-8.64252
乆	-8.64292
階	-8.64433
畫	-8.64501
巻	-8.64694
靜	-8.6487
純	-8.64986
從之	-8.65308
隠	-8.65338
妻	-8.65428
介	-8.65504
貧	-8.65639
於此	-8.65754
便是	-8.65774
寜	-8.66089
庶	-8.66255
)○	-8.66308
孟子	-8.66397
違	-8.66544
竊	-8.6662
托	-8.6671
陸	-8.66795
管	-8.66957
例	-8.66972
牛	-8.67015
之言	-8.67098
寵	-8.67351
署	-8.6746
邦	-8.67789
伐	-8.67956
爭	-8.67964
户	-8.68256
致仕	-8.68284
虎	-8.68517
招	-8.6855
畧	-8.68551
現任筆帖式	-8.68628
聞之	-8.68666
河南	-8.68708
太宗	-8.6883
國家	-8.68833
南京	-8.68984
烈	-8.69084
貢	-8.69085
閩	-8.69098
類	-8.6925
界	-8.69273
原任佐領	-8.69287
夫人	-8.69297
七年	-8.70064
丞相	-8.70154
承襲	-8.70174
以來	-8.70457
遣使	-8.70555
否	-8.70631
冠	-8.70652
未有	-8.70666
之説	-8.70696
誣	-8.70735
沈	-8.70885
革	-8.71139
太子	-8.71188
之道	-8.71196
縱	-8.71332
輩	-8.71404
圗	-8.71455
一人	-8.71752
星	-8.7177
假	-8.71863
冬	-8.71906
現任䕶軍校	-8.72254
判	-8.72372
量	-8.7268
䝉	-8.72805
愚	-8.7302
只是	-8.73022
三月	-8.73056
之士	-8.73173
閣	-8.73257
談	-8.73263
可謂	-8.73381
劾	-8.73384
有司	-8.73428
十年	-8.73453
擒	-8.73816
米	-8.73913
人之	-8.74071
折	-8.741
乗	-8.74107
江西	-8.74188
抑	-8.74255
夀	-8.74397
困	-8.74404
貝勒	-8.74449
升	-8.7454
决	-8.74666
篇	-8.74829
係	-8.74984
天理	-8.74986
横	-8.75241
尹	-8.75294
未幾	-8.75463
辟	-8.75468
乾	-8.75665
賚	-8.7606
奔	-8.76137
豐	-8.76206
照	-8.76249
律	-8.76261
殊	-8.7644
今日	-8.7651
俊	-8.7696
晚	-8.77043
其言	-8.77209
者皆	-8.77284
董	-8.77535
險	-8.77574
一時	-8.77823
衡	-8.77864
㣲	-8.77914
由是	-8.77922
黙	-8.78163
僧	-8.78194
毎	-8.78342
翁	-8.78392
衞	-8.78403
知其	-8.78516
天下之	-8.7866
卓	-8.78754
徴	-8.78824
謙	-8.78829
淵	-8.78836
大軍	-8.78935
旦	-8.7894
詣	-8.79049
自是	-8.79091
争	-8.79141
岳	-8.79149
浮	-8.79419
親王	-8.79448
斥	-8.79708
札	-8.79721
誦	-8.79827
無不	-8.8003
虞	-8.80064
奮	-8.80095
現任驍騎校	-8.80135
笑	-8.80165
貫	-8.80255
己	-8.80287
參	-8.8037
藩	-8.80413
花	-8.80415
毋	-8.80454
雄	-8.80787
勲	-8.80801
脩	-8.81001
住	-8.81064
兒	-8.81206
欽	-8.81234
上曰	-8.81438
仰	-8.81646
曲	-8.81793
偉	-8.81853
諸將	-8.81901
雨	-8.82067
又曰	-8.82107
言之	-8.82203
策	-8.82248
誤	-8.82369
效	-8.82414
至是	-8.82591
靖	-8.82715
俾	-8.82809
均	-8.82927
魚	-8.82932
四方	-8.83035
屈	-8.83056
乘	-8.83113
吏部	-8.83333
銘	-8.83426
遽	-8.83485
陜西	-8.83532
寨	-8.83582
孰	-8.83652
如何	-8.83782
第一	-8.83856
躬	-8.83876
多爾濟	-8.83957
尉	-8.84049
邉	-8.84268
小人	-8.84304
的	-8.84315
兼佐領	-8.84557
當時	-8.84655
奸	-8.84786
占	-8.84963
喇	-8.85059
驚	-8.85089
自然	-8.85209
駐	-8.8545
遁	-8.85701
覆	-8.85769
亭	-8.85869
丘	-8.86253
謨	-8.86352
貪	-8.86492
暴	-8.86531
預	-8.86797
原任員外郎	-8.86828
式	-8.86895
増	-8.86933
知之	-8.87046
之孫	-8.87161
扎	-8.87201
門人	-8.87415
循	-8.87452
懷	-8.87651
哲	-8.87711
掠	-8.87766
百姓	-8.87859
讓	-8.87941
𢎞	-8.88023
庸	-8.88081
而無	-8.88222
弼	-8.88383
晏子	-8.88434
淮	-8.88481
賴	-8.88571
兄弟	-8.88591
賀	-8.88633
浚	-8.88648
足以	-8.88677
之事	-8.88963
干	-8.8905
八月	-8.89061
啟	-8.89082
論曰	-8.89084
規	-8.89242
館	-8.89249
案	-8.89289
二人	-8.89344
逸	-8.89345
中書	-8.89448
抵	-8.89536
亟	-8.89638
略	-8.89679
垂	-8.89778
訪	-8.8997
姦	-8.90028
是以	-8.90046
陣	-8.90059
有功	-8.90141
慕	-8.90227
審	-8.90241
𩔖	-8.90258
襄	-8.90323
子孫	-8.9036
唯	-8.90483
弊	-8.90836
雍	-8.90883
恨	-8.90966
此心	-8.91072
仁宗	-8.91149
古人	-8.91234
細	-8.91245
飲	-8.91382
捕	-8.9139
聖賢	-8.91406
潛	-8.91711
講學	-8.91919
▁(	-8.92118
戍	-8.92129
厲	-8.92436
况	-8.92466
究	-8.92567
履	-8.92587
雷	-8.92693
侵	-8.927
正月	-8.92803
毁	-8.92862
夢	-8.92997
諸生	-8.93198
題	-8.93211
船	-8.93219
不復	-8.93233
之曰	-8.93234
戎	-8.93455
夫子	-8.93582
肆	-8.93618
熟	-8.93628
太祖	-8.93743
本體	-8.93883
十月	-8.9393
皇帝	-8.93995
亷	-8.94046
之地	-8.94372
必有	-8.94401
陷	-8.94429
妾	-8.94438
原任防禦	-8.94611
盜	-8.94613
也今	-8.94893
其家	-8.94934
得其	-8.95298
遜	-8.95419
寒	-8.95426
逮	-8.95731
不以	-8.95764
材	-8.95839
秉	-8.96145
倚	-8.96201
鼓	-8.96395
六月	-8.96537
勉	-8.96591
衰	-8.96606
台吉	-8.96725
太守	-8.96785
先是	-8.96802
貶	-8.96819
五十	-8.9682
徹	-8.96833
豪	-8.96847
九月	-8.96864
兆	-8.96872
壯	-8.96881
來歸	-8.97042
歌	-8.97139
席	-8.97155
洛	-8.97252
山東	-8.97263
不同	-8.97379
綱	-8.97408
付	-8.97416
執政	-8.97479
陽明	-8.9749
郡王	-8.97895
寶	-8.97918
久之	-8.97982
看	-8.98026
鍾	-8.98246
翰林	-8.98294
蔽	-8.98365
𨽻	-8.98526
父母	-8.98542
儲	-8.9865
寢	-8.98733
射	-8.98837
九年	-8.98895
築	-8.99162
橋	-8.99377
檄	-8.99475
是時	-8.99732
逃	-8.99817
樹	-8.9999
謫	-9.00246
銀	-9.00335
噶爾丹	-9.00435
鼐	-9.0044
公之	-9.00474
五月	-9.00586
碩	-9.00592
嗚呼	-9.00958
二月	-9.01004
娶	-9.01035
粟	-9.01092
鹽	-9.01097
諱	-9.01294
僅	-9.01419
佳	-9.0143
贊	-9.01521
不過	-9.01534
内外	-9.01702
勅	-9.01706
崔	-9.01769
四月	-9.01815
支	-9.01891
宏	-9.01942
旁	-9.02083
賈	-9.02373
太平	-9.02397
卜	-9.02416
投	-9.0244
嵩	-9.02444
陶	-9.02569
寂	-9.02609
痛	-9.02683
樓	-9.0274
其事	-9.02839
蕭	-9.03108
寡	-9.0313
聴	-9.03351
隱	-9.03489
原任郎中	-9.03552
谷	-9.03614
完	-9.03663
即位	-9.03665
姑	-9.03678
諾	-9.0389
井	-9.03901
擬	-9.0395
步	-9.04042
俟	-9.04054
注	-9.04073
不然	-9.04092
以此	-9.04138
太后	-9.04206
之時	-9.0452
激	-9.04657
徵	-9.04661
欽定四庫全書	-9.04692
慈	-9.04766
沒	-9.05096
竹	-9.05265
諸侯	-9.05376
大學士	-9.05653
種	-9.05818
提	-9.05888
荒	-9.05923
五世孫	-9.06039
擾	-9.06209
纔	-9.06238
耕	-9.06272
十二	-9.06343
佳氏	-9.06422
已而	-9.06581
候	-9.06639
幼	-9.0671
文公	-9.06965
婦	-9.06984
洞	-9.07102
諡	-9.07103
速	-9.07116
上下	-9.07187
甘	-9.0723
遵	-9.07249
一切	-9.07337
倉	-9.07428
給事中	-9.07558
訟	-9.07793
秀	-9.07887
品	-9.08284
傾	-9.08331
扎薩克	-9.08356
禮部	-9.08637
祥	-9.08705
桑	-9.08814
其心	-9.08851
託	-9.08852
悔	-9.08865
幽	-9.08904
從征	-9.08923
供	-9.08947
七月	-9.0898
故事	-9.08995
禦	-9.09025
印	-9.09173
十一月	-9.0933
墨	-9.09351
壁	-9.09355
廉	-9.09361
基	-9.09449
背	-9.09582
之人	-9.09595
褒	-9.09859
哭	-9.09907
旋	-9.0994
格物	-9.09984
乾隆	-9.10044
盟	-9.10048
丞	-9.10087
堪	-9.10105
祿	-9.10136
金人	-9.10173
恒	-9.10282
輙	-9.10461
中庸	-9.1056
没	-9.1062
國公	-9.10649
佐領	-9.1068
導	-9.10875
辱	-9.10995
兹	-9.10999
赦	-9.1116
鄧	-9.11197
宴	-9.11399
所部	-9.11467
缺	-9.11492
眀	-9.11518
舎	-9.11522
噶	-9.11606
言者	-9.11625
池	-9.11639
不如	-9.11663
湯	-9.11739
戴	-9.11867
駕	-9.11969
裁	-9.12003
黜	-9.12183
不可以	-9.12184
農	-9.12366
藥	-9.12435
上疏	-9.1248
使人	-9.12648
頃	-9.12668
中外	-9.12788
亦不	-9.12952
繫	-9.1297
閒	-9.12992
郊	-9.13057
即是	-9.13187
既而	-9.13208
未發	-9.13561
喀爾喀	-9.13604
翰	-9.13648
士大夫	-9.13741
學問	-9.13822
減	-9.13856
舜	-9.14098
配	-9.14098
政事	-9.14122
厥	-9.14252
味	-9.14261
恃	-9.14451
屏	-9.14547
不許	-9.14592
是也	-9.146
殆	-9.14876
輸	-9.14956
削	-9.14975
宇	-9.15003
巖	-9.15013
也故	-9.15249
不見	-9.15275
妙	-9.15359
紹興	-9.15622
惑	-9.15678
人皆	-9.1572
翼	-9.15851
拒	-9.1598
彌	-9.16102
餉	-9.16133
壽	-9.16257
弱	-9.16401
抗	-9.16467
鳴	-9.16659
俸	-9.16665
續	-9.16672
同族	-9.16686
七十	-9.1669
遭	-9.1671
太極	-9.17335
平生	-9.17424
萬物	-9.17457
盗	-9.17519
古今	-9.17552
叙	-9.17693
薨	-9.17797
卒子	-9.17861
渠	-9.1798
房	-9.17996
莫不	-9.18086
堯	-9.18142
績	-9.18404
侍郎	-9.18817
四十	-9.18869
超	-9.19119
扶	-9.19299
員外郎	-9.19318
享	-9.19318
汪	-9.19358
朔	-9.19655
攝	-9.19737
羣臣	-9.19846
如是	-9.19905
句	-9.2009
虜	-9.20129
植	-9.20143
覽	-9.20162
損	-9.20222
先生曰	-9.20222
符	-9.20224
文章	-9.20246
子弟	-9.20306
歳	-9.20322
十二月	-9.20377
秩	-9.20722
徑	-9.20754
禹	-9.20876
奇	-9.21074
瓦	-9.21115
彭	-9.21274
整	-9.21311
併	-9.21317
渡	-9.21597
䘮	-9.2173
出入	-9.21872
綬	-9.21981
二十年	-9.22228
廬	-9.22263
坦	-9.22273
先帝	-9.22291
閩書	-9.22398
行之	-9.22456
紹	-9.22479
居正	-9.22563
軍校	-9.22621
郎中	-9.22711
上書	-9.22744
雪	-9.22791
澄	-9.22811
倡	-9.22894
故曰	-9.22911
術	-9.23037
詩云	-9.23151
鮮	-9.23314
饑	-9.23344
𤣥	-9.23375
員	-9.23475
寄	-9.23523
叅	-9.23626
産	-9.23739
之法	-9.23771
江南	-9.23773
歩	-9.23775
公言	-9.23776
忌	-9.23802
敎	-9.2401
諌	-9.24115
拔	-9.24151
恤	-9.24234
歎	-9.24509
後世	-9.24593
竄	-9.2471
榜	-9.24761
輝	-9.24842
汗	-9.24958
見其	-9.25047
輿	-9.25135
災	-9.2523
啓	-9.25231
都督	-9.25283
通判	-9.25321
之理	-9.25365
何如	-9.25569
跡	-9.25606
嘉靖	-9.25668
馮	-9.25714
邵	-9.26009
晦	-9.26098
阿爾	-9.26111
盧	-9.26208
其人	-9.26321
邁	-9.2637
誘	-9.26403
提舉	-9.26464
祖宗	-9.26523
二十	-9.26577
杖	-9.26581
幹	-9.2661
潰	-9.26648
帶	-9.26649
是非	-9.26651
綽	-9.26712
恕	-9.26739
赤	-9.26782
迹	-9.26796
環	-9.26811
副使	-9.26854
洪武	-9.26869
宰	-9.26979
也夫	-9.27246
賔	-9.27261
募	-9.27438
與之	-9.27454
一姓世居	-9.27601
羊	-9.27821
惜	-9.27844
賽	-9.27851
園	-9.27859
社稷	-9.2787
得之	-9.27946
露	-9.28053
瑞	-9.28114
扎布	-9.28119
僕	-9.28249
皆有	-9.28308
潔	-9.28321
伊川	-9.28444
警	-9.28461
殷	-9.28472
姜	-9.28576
凖噶爾	-9.28651
佟	-9.28666
遼	-9.28669
曉	-9.28713
飾	-9.28717
等處	-9.28788
總兵	-9.28821
為人	-9.29029
泊	-9.29117
屋	-9.29156
之際	-9.29162
趣	-9.29175
逢	-9.29182
豫	-9.292
毅	-9.29334
所著有	-9.29363
寓	-9.29366
無事	-9.29369
専	-9.29377
尺	-9.29413
戚	-9.29579
忤	-9.29726
出於	-9.29865
景公	-9.29904
大學	-9.29916
聘	-9.30035
浙江	-9.30067
台	-9.30079
襲職時削去	-9.30189
傑	-9.30287
蒙	-9.30294
成化	-9.30324
勵	-9.30393
樞	-9.30412
淺	-9.30555
姚	-9.30605
𦵏	-9.30641
社	-9.30763
契丹	-9.30821
課	-9.30832
途	-9.30862
育	-9.31013
三十	-9.31039
不肯	-9.31072
桂	-9.31087
歟	-9.31109
繁	-9.31111
遠	-9.31296
又有	-9.31299
做	-9.31318
辯	-9.31529
彰	-9.31561
泣	-9.31598
永樂	-9.31602
靡	-9.31634
六十	-9.318
十三年	-9.31848
明日	-9.31865
冀	-9.3199
鐵	-9.31992
浩	-9.32011
殺之	-9.32061
懿	-9.32217
裕	-9.3222
借	-9.3237
瞻	-9.32372
梅	-9.32417
弟子	-9.32473
艱	-9.32562
融	-9.32652
司馬	-9.32813
其曾孫	-9.3286
檢	-9.32904
不容	-9.32962
都統	-9.33029
前後	-9.33169
悦	-9.3327
吏部尚書	-9.33344
個	-9.33532
父子	-9.3365
不出	-9.3372
峻	-9.33751
欺	-9.33892
河北	-9.33944
戸	-9.3434
宅	-9.34352
縁	-9.34393
旣	-9.3444
不受	-9.34567
仙	-9.34591
津	-9.34658
不在	-9.34888
達理	-9.3489
簿	-9.35
使者	-9.35118
㠯	-9.35283
卑	-9.35313
至今	-9.35368
終日	-9.35396
以其	-9.35728
數十	-9.3574
斂	-9.35772
買	-9.35797
不必	-9.35889
教授	-9.3603
之則	-9.36165
乏	-9.36178
丈	-9.36259
寃	-9.36269
巨	-9.3629
竭	-9.36369
隂陽	-9.36399
憤	-9.36419
不忍	-9.36474
窺	-9.3648
證	-9.36507
河東	-9.36586
諭曰	-9.36599
絡	-9.36692
肯	-9.36712
忍	-9.36906
貨	-9.36937
吴	-9.36972
現係	-9.37049
淳	-9.3716
譽	-9.37186
悲	-9.37194
所得	-9.37256
采	-9.37306
不從	-9.37309
滯	-9.37401
○	-9.37406
驕	-9.37416
殘	-9.37461
伍	-9.37646
副都統	-9.37667
洋	-9.3791
萬厯	-9.38087
東南	-9.38117
三人	-9.38152
之義	-9.3817
㡬	-9.38217
明道	-9.3823
塘	-9.38255
十三	-9.38306
騰	-9.38327
側	-9.38342
憚	-9.38372
州刺史	-9.38473
底	-9.38579
幣	-9.38611
一百	-9.38628
正統	-9.38642
以下	-9.38757
魁	-9.38781
奬	-9.38795
踰	-9.38833
洲	-9.39009
骨	-9.39063
之中	-9.39119
而言	-9.3924
賛	-9.3927
姬	-9.3932
創	-9.39454
這	-9.39509
俄	-9.39533
祝	-9.39541
血	-9.39657
檜	-9.3972
旨	-9.39758
角	-9.39776
岸	-9.39793
其曽孫	-9.39978
凝	-9.40004
厭	-9.40231
驛	-9.40466
恥	-9.40474
柄	-9.40482
賑	-9.40522
頌	-9.4056
不當	-9.40577
不是	-9.4058
子曰	-9.40631
雙	-9.40648
罕	-9.40656
次子	-9.40662
皇上	-9.40691
努	-9.40705
驗	-9.40708
薛	-9.40766
亦有	-9.40781
同知	-9.4087
三日	-9.40911
㓜	-9.40951
從容	-9.41053
之外	-9.41132
貝子	-9.41354
東林	-9.41364
雲南	-9.41434
用兵	-9.41459
衮	-9.4155
無以	-9.41723
祐	-9.41734
所至	-9.41749
斗	-9.41883
公為	-9.41978
毛	-9.42161
盤	-9.4218
抱	-9.42214
致知	-9.42248
不至	-9.42289
議論	-9.423
頼	-9.42395
之日	-9.42446
沮	-9.42663
紫	-9.42763
巴爾	-9.42843
白沙	-9.42852
上言	-9.42927
義理	-9.43007
見之	-9.43092
怪	-9.43162
旅	-9.43174
字子	-9.43219
者亦	-9.43256
以示	-9.43301
黒	-9.43314
鄙	-9.43449
安石	-9.43518
芳	-9.4362
天命	-9.43672
包	-9.43823
辰	-9.43868
拱	-9.43948
十二年	-9.43951
值	-9.44139
稽	-9.44151
諸公	-9.44178
童	-9.44324
為滿洲一姓此	-9.44367
確	-9.44385
衝	-9.44428
儉	-9.44521
者必	-9.44783
富貴	-9.44956
緩	-9.45159
波	-9.45162
公以	-9.45289
欲以	-9.45291
錯	-9.454
閲	-9.45857
也其	-9.45995
用之	-9.46016
堯舜	-9.46018
忠義	-9.46023
不報	-9.46047
彬	-9.46114
文字	-9.46154
沉	-9.46181
誓	-9.46187
程子	-9.46297
原任步軍校	-9.46371
活	-9.46382
菴	-9.46393
增	-9.46414
現任佐領	-9.46418
狂	-9.46452
康熙	-9.4648
崖	-9.46484
不用	-9.46496
而去	-9.4656
寇	-9.46675
數日	-9.47098
脱	-9.47174
豈不	-9.47218
廵	-9.47325
茶	-9.4749
夕	-9.47646
軒	-9.47686
姪	-9.47712
於朝	-9.47727
十五	-9.4784
採	-9.47995
暇	-9.48009
廣東	-9.48015
不免	-9.48028
裔	-9.48222
熊	-9.4823
氣質	-9.48236
暮	-9.48255
窮理	-9.48335
其間	-9.48336
地方人	-9.48337
罰	-9.48434
闢	-9.4845
返	-9.48458
湖廣	-9.48459
戮	-9.48568
蘭泰	-9.48609
以自	-9.48623
衍	-9.48723
壘	-9.48739
囚	-9.48755
巡撫	-9.48767
不相	-9.48795
何也	-9.48821
内閣	-9.48892
袁	-9.48895
古之	-9.48987
阻	-9.49019
道之	-9.49064
儒者	-9.49074
神宗	-9.4911
麟	-9.49239
像	-9.49536
不合	-9.49612
有餘	-9.49837
長子	-9.50068
日用	-9.50198
往往	-9.50199
昏	-9.50329
不行	-9.5035
倭	-9.50426
焚	-9.50441
于是	-9.5046
許之	-9.50502
所在	-9.50551
掩	-9.50614
奈何	-9.5066
飭	-9.50811
也然	-9.50811
尾	-9.50813
兵部尚書	-9.50919
羽	-9.50932
綏	-9.50948
禮部尚書	-9.5096
四川	-9.51032
峰	-9.51112
逰	-9.51114
他日	-9.51127
珍	-9.51138
柔	-9.51139
八十	-9.51167
現襲職又	-9.51197
氣象	-9.51219
擅	-9.51307
級	-9.51359
拘	-9.51387
潜	-9.51426
追封	-9.51589
蠻	-9.51661
䕶軍校	-9.51676
荆	-9.51701
㸃	-9.51705
皇太子	-9.5175
相繼	-9.51779
刺	-9.5187
用事	-9.51906
罔	-9.51914
倍	-9.52063
利害	-9.52077
鳯	-9.52082
公與	-9.52152
囘	-9.52174
矯	-9.52201
錦	-9.52275
排	-9.52282
十一年	-9.52346
妃	-9.52431
盈	-9.52433
喻	-9.52455
塵	-9.52465
諸子	-9.52534
蘓	-9.52664
貸	-9.52706
不已	-9.52713
滋	-9.52737
遂以	-9.52746
大將軍	-9.52874
驅	-9.52919
潮	-9.52936
可見	-9.52959
噶爾	-9.53116
又言	-9.53207
矜	-9.53272
詩曰	-9.533
諸軍	-9.53314
十四	-9.5336
人主	-9.53395
峯	-9.53401
召為	-9.53418
包衣	-9.53444
日月	-9.53444
豈可	-9.5349
流行	-9.53494
之謂	-9.53719
書院	-9.53728
香	-9.53755
眞	-9.53792
潤	-9.53806
玩	-9.54033
相與	-9.54071
鳳	-9.54071
銓	-9.54075
騎都尉	-9.54101
堡	-9.54117
十六	-9.54143
展	-9.54348
福建	-9.54373
従	-9.54439
保住	-9.54537
至此	-9.54598
税	-9.54615
進退	-9.54641
以聞	-9.54774
之氣	-9.54847
道理	-9.5492
輯	-9.54927
匿	-9.54938
協	-9.5498
莽	-9.55026
其中	-9.55075
亨	-9.55099
煩	-9.55152
搆	-9.55198
消	-9.55338
愧	-9.55506
鄒	-9.55507
其身	-9.55627
君臣	-9.55943
北京	-9.55979
喬	-9.56033
桓	-9.56052
三百	-9.56254
世居	-9.56264
凖	-9.56276
遲	-9.5628
汛	-9.56283
麗	-9.56294
伸	-9.56308
碧	-9.56313
淫	-9.5634
嬰	-9.56376
真宗	-9.56551
以待	-9.56758
停	-9.56853
榖	-9.56861
男	-9.57057
中國	-9.57081
岡	-9.57129
不與	-9.57145
東宫	-9.57222
歎曰	-9.57239
動静	-9.57442
聰	-9.57603
耀	-9.5772
不言	-9.57833
以兵	-9.57878
坤	-9.57994
帛	-9.58007
挾	-9.58016
恩詔加	-9.58026
三十年	-9.58037
人物	-9.58093
文集	-9.58114
善惡	-9.58182
緒	-9.58201
十四年	-9.5823
醫	-9.5824
黎	-9.5829
蕩	-9.58318
誠意	-9.58359
肉	-9.58602
藉	-9.58604
得失	-9.58623
舉進士	-9.58709
鑑	-9.58765
昇	-9.58834
蕃	-9.58868
局	-9.58869
謗	-9.58882
大事	-9.58989
矢	-9.59081
限	-9.59142
恪	-9.59178
人情	-9.59189
不足以	-9.59289
元祐	-9.59293
驍騎校	-9.59358
也若	-9.59365
者非	-9.59381
一事	-9.5944
名臣	-9.59529
漕	-9.59702
奚	-9.59725
國之	-9.59752
中原	-9.59788
逼	-9.59791
較	-9.59983
編修	-9.60031
英宗	-9.60035
文武	-9.60042
範	-9.60069
準	-9.6008
卧	-9.60111
瑾	-9.60216
擁	-9.60285
千餘	-9.60321
太學	-9.60381
求之	-9.60414
額爾	-9.60448
辦	-9.60466
曰我	-9.6053
騎校	-9.60582
頓	-9.60595
呂	-9.60604
布衣	-9.6068
列傳	-9.60723
巡	-9.60766
潘	-9.60962
大同	-9.61003
其學	-9.61112
距	-9.61195
契	-9.61223
隔	-9.61229
港	-9.61231
誥	-9.61436
鑒	-9.61485
偶	-9.61524
䟽	-9.61538
浦	-9.61542
賤	-9.61548
慰	-9.6169
百官	-9.61772
先聖	-9.61818
強	-9.61829
想	-9.61978
百餘	-9.62051
不可不	-9.62092
練	-9.62124
千里	-9.62139
州縣	-9.62156
建康	-9.62289
之臣	-9.62432
短	-9.6249
修撰	-9.62575
往來	-9.62577
可也	-9.6258
凌	-9.6265
𠞰	-9.62733
旌	-9.62738
勘	-9.62954
畜	-9.63017
懇	-9.63053
僚	-9.63109
終身	-9.63115
擊敗	-9.63283
瓊	-9.63591
太原	-9.63616
禮樂	-9.63723
數百	-9.63797
疆	-9.63801
蒼	-9.63842
詢	-9.63898
原任主事	-9.64048
者以	-9.64191
六經	-9.64307
等兵	-9.64322
嘆	-9.64395
小名	-9.64408
之初	-9.64497
涉	-9.64553
總督	-9.64644
之門	-9.64679
認	-9.64683
徽	-9.647
十七	-9.64909
無窮	-9.65057
未能	-9.65186
主事	-9.65293
皇后	-9.65348
不勝	-9.65358
為學	-9.65367
措	-9.65392
達什	-9.65411
十五年	-9.65483
三代	-9.6554
又以	-9.65601
纂	-9.65618
知府	-9.65725
撤	-9.65737
自有	-9.65747
國初	-9.6576
齒	-9.65771
塗	-9.65774
鴻	-9.65774
不宜	-9.65829
耳目	-9.65876
博士	-9.65913
議者	-9.65914
懸	-9.6606
溺	-9.66069
無一	-9.66088
諡文	-9.66098
紅	-9.66125
死者	-9.66244
數年	-9.66267
璧	-9.66361
閱	-9.66366
突	-9.6638
挺	-9.66384
召還	-9.66631
性命	-9.66642
束	-9.66681
詐	-9.66698
十餘	-9.6673
杭	-9.66813
疎	-9.66998
爾泰	-9.6704
詠	-9.67043
来歸	-9.67063
天地之	-9.67304
一言	-9.6731
羌	-9.67313
刀	-9.67333
士卒	-9.67356
天之	-9.67395
妻子	-9.67424
之體	-9.67665
不忘	-9.67741
十一	-9.67816
稱其	-9.67843
艾	-9.68098
及其	-9.68157
公卿	-9.68192
析	-9.68212
祁	-9.68213
從事	-9.68265
怠	-9.68269
洗	-9.68284
鳥	-9.6831
而有	-9.68313
世祖	-9.68314
皆以	-9.68357
翰林院	-9.68441
然而	-9.68476
輔國公	-9.68548
敷	-9.68566
上以	-9.68699
是年	-9.68746
陰	-9.68825
山西	-9.68867
勑	-9.68887
障	-9.68911
長安	-9.68992
𢎞治	-9.69028
億	-9.69186
數月	-9.69245
三等	-9.69274
之所以	-9.69301
以是	-9.69345
蓄	-9.69527
敕	-9.69836
宮	-9.69837
料	-9.69853
該	-9.69861
鹿	-9.69947
未嘗不	-9.69986
紳	-9.70161
率兵	-9.70199
其意	-9.70258
然則	-9.70351
進士授	-9.70409
君之	-9.70455
閉	-9.70458
猛	-9.70473
哩	-9.70478
詭	-9.70478
詆	-9.70512
歡	-9.70544
際	-9.7075
俘	-9.70774
其地	-9.70793
朗	-9.70793
海内	-9.70796
䝉古	-9.70819
不動	-9.70833
栁	-9.70881
侍講	-9.70924
有一	-9.70988
㕘	-9.7099
楞	-9.71052
監察御史	-9.71091
眷	-9.71154
鶴	-9.71177
不得已	-9.71363
兵部	-9.71374
葉赫地方	-9.71433
饒	-9.71474
藝	-9.71548
先後	-9.71639
任驍騎校	-9.71712
佞	-9.71769
宥	-9.71778
矩	-9.71785
禮部侍郎	-9.71796
駭	-9.71808
入覲	-9.71839
六世孫	-9.71892
者為	-9.71959
葛	-9.72035
未至	-9.72118
嫌	-9.72119
耿	-9.72165
塟	-9.72176
墜	-9.72193
為文	-9.72231
而下	-9.72378
熙	-9.72384
森	-9.72384
崩	-9.72444
知縣	-9.72457
不息	-9.72467
妖	-9.72471
一旦	-9.72472
晝夜	-9.72551
之㫖	-9.72608
詰	-9.72615
青海	-9.72637
多所	-9.72767
収	-9.72776
之罪	-9.72799
世忠	-9.72857
遣人	-9.72924
而不知	-9.73091
栢	-9.7311
以求	-9.73116
謬	-9.73127
苑	-9.73133
諷	-9.73141
仁義	-9.73151
數萬	-9.73203
聖學	-9.73207
浙	-9.73212
一物	-9.73243
蔣	-9.73479
嗟	-9.73572
經筵	-9.7362
氏曽祖	-9.73643
二子	-9.73659
於心	-9.73712
墮	-9.73734
諸臣	-9.73764
轍	-9.73771
隙	-9.73777
歛	-9.73798
嫁	-9.73804
澳	-9.73849
不欲	-9.73912
總管	-9.74055
自古	-9.74067
冊	-9.74125
捷	-9.74131
匪	-9.74451
弓	-9.74483
隋	-9.74525
將士	-9.74533
豈有	-9.74581
轉運使	-9.7474
粹	-9.74792
雅圖	-9.7481
觀之	-9.74893
中有	-9.74928
潭	-9.74934
受命	-9.74992
其先	-9.75042
況	-9.75107
旱	-9.75123
忿	-9.75133
仇	-9.7514
鈔	-9.75151
濫	-9.75167
不聽	-9.75292
以疾	-9.7532
洛陽	-9.7533
之故	-9.75392
而已矣	-9.75397
壊	-9.75451
卒其	-9.75485
厄魯特	-9.75631
寸	-9.75706
一念	-9.75737
時有	-9.75771
凶	-9.75811
磨	-9.75817
莫敢	-9.75821
蒲	-9.75836
舞	-9.75838
俞	-9.75839
始終	-9.76042
咎	-9.76085
未必	-9.76103
性之	-9.76147
㨗	-9.76163
霸	-9.76203
門下	-9.76264
鬼神	-9.76271
未及	-9.76284
把	-9.76317
踐	-9.76368
帖	-9.76491
地方人其孫	-9.76615
則有	-9.76815
頒	-9.76864
敗之	-9.76876
糾	-9.76892
叙功	-9.77017
十六年	-9.77027
標	-9.77137
判官	-9.77149
恵	-9.77192
鄰	-9.77193
劍	-9.77232
其父	-9.77237
都御史	-9.77239
此理	-9.7727
得罪	-9.77299
安得	-9.77426
諸儒	-9.77442
原係	-9.77491
㧞	-9.77549
查	-9.77565
冒	-9.77571
繩	-9.77601
實録	-9.77628
心之	-9.77631
齡	-9.77749
宗即位	-9.7775
所居	-9.77932
恩詔所	-9.77983
慨然	-9.77984
二百	-9.78091
郡守	-9.78144
扎薩克一等台吉	-9.78145
巧	-9.78228
蹈	-9.78232
原任典儀	-9.78246
恣	-9.7825
訴	-9.7826
誨	-9.78281
天地萬物	-9.7848
文學	-9.78497
亦無	-9.78521
邀	-9.78547
藍	-9.78549
大抵	-9.78564
有大	-9.78567
昧	-9.78584
奏事	-9.786
快	-9.78622
也而	-9.78754
出為	-9.78806
其志	-9.78905
塲	-9.78911
日生外氏	-9.78911
其罪	-9.78984
官至	-9.79147
註	-9.79207
現任防禦	-9.79255
鑿	-9.7935
茅	-9.79353
見得	-9.79427
論語	-9.79527
妣	-9.79547
成都	-9.79581
偵	-9.79629
岐	-9.7964
之志	-9.79645
不易	-9.79681
不識	-9.79699
書曰	-9.79754
㠘	-9.79856
雖有	-9.79887
改元	-9.7992
不善	-9.79927
第二	-9.79955
萌	-9.79967
十八	-9.80044
晝	-9.80066
城中	-9.80188
王氏	-9.80245
軾	-9.80292
家人	-9.80366
劇	-9.80376
混	-9.80388
粗	-9.8039
鑲紅旗	-9.80418
巴顔	-9.80435
者多	-9.80618
有二	-9.80679
觸	-9.80691
截	-9.807
晏	-9.80701
性也	-9.80703
奠	-9.80713
而歸	-9.80742
覩	-9.80745
自得	-9.80803
曰臣	-9.8082
廣西	-9.80855
筆帖式	-9.80926
韋	-9.80996
以告	-9.8102
鈕	-9.81057
達色	-9.81069
囊	-9.81081
其實	-9.81091
㳺	-9.81107
天順	-9.81147
言曰	-9.8133
者乎	-9.81342
所言	-9.81415
行在	-9.81418
城下	-9.81429
涵養	-9.81515
國史	-9.81559
當世	-9.81629
二字	-9.81659
旺	-9.81677
懋	-9.81805
探	-9.81814
風俗	-9.81827
銘曰	-9.81853
四人	-9.81872
庶幾	-9.81928
以上俱附載	-9.82126
其衆	-9.82172
冕	-9.82189
㓂	-9.82213
貳	-9.82232
龜山	-9.82262
主宰	-9.82321
臣等	-9.82337
其功	-9.82343
單	-9.82378
胥	-9.82456
貌	-9.82487
元昊	-9.82498
鋒	-9.82517
誌	-9.82569
家居	-9.82579
人以	-9.82763
縣令	-9.8281
延平	-9.82813
衣冠	-9.82819
江淮	-9.82885
飢	-9.82893
各有	-9.82941
汴	-9.82988
精神	-9.8302
知制誥	-9.83212
毒	-9.83216
其弟	-9.83286
競	-9.83298
世之	-9.833
鄉里	-9.83319
軍中	-9.83342
碩色	-9.83348
人才	-9.83606
穀	-9.83628
仗	-9.83638
眉	-9.8364
懲	-9.83663
擊之	-9.83832
周公	-9.83915
溢	-9.83964
憾	-9.84006
留守	-9.84017
弔	-9.84032
勁	-9.84042
坊	-9.84048
終不	-9.84061
鄉人	-9.84096
之本	-9.84109
命公	-9.84135
刑部	-9.84267
來朝	-9.84284
稅	-9.84378
麻	-9.84401
奴	-9.84406
槩	-9.84407
為主	-9.84496
為善	-9.8456
健	-9.84695
貝	-9.84771
一等	-9.84775
撓	-9.84782
之語	-9.84786
三千	-9.84872
襲職卒其子	-9.84925
飲食	-9.84935
宦	-9.84974
任筆帖式	-9.85009
達爾	-9.85098
鑲藍旗	-9.851
譏	-9.85124
徇	-9.8513
銅	-9.85177
之計	-9.85253
韶	-9.85277
有㫖	-9.85291
不幸	-9.85304
教人	-9.85478
琥	-9.85483
賂	-9.85488
皮	-9.85571
侍衛	-9.85626
雲騎尉	-9.8577
大小	-9.85788
第三子	-9.85796
迫	-9.85875
玠	-9.85889
昭烈	-9.85894
紙	-9.8591
為一	-9.8592
夾	-9.86013
天性	-9.86048
即日	-9.8607
帝曰	-9.86112
沁	-9.86224
咨	-9.86235
邸	-9.8624
壞	-9.86276
陋	-9.86284
帳	-9.86289
効	-9.86491
圓	-9.86615
擊賊	-9.86636
睦	-9.86648
座	-9.86681
所為	-9.86694
曠	-9.86704
之勢	-9.86713
矣然	-9.86816
不失	-9.86841
未知	-9.86842
辛	-9.86874
以上	-9.86893
同列	-9.86903
之禮	-9.86984
鋭	-9.87024
大義	-9.87062
鐘	-9.87101
西山	-9.87136
宣徳	-9.87235
一也	-9.87245
絳	-9.87312
長史	-9.8733
曰汝	-9.87346
巢	-9.87416
牙	-9.87446
爽	-9.87452
顔子	-9.87476
正白旗	-9.87479
南北	-9.87577
十八年	-9.87594
所屬	-9.87636
熈	-9.87676
事物	-9.87823
聰明	-9.87864
原任牧長	-9.87888
哈達	-9.87966
與人	-9.88068
聖人之	-9.88096
有言	-9.88143
垣	-9.88188
祚	-9.88201
龜	-9.88419
裏	-9.88504
四書	-9.88536
亦是	-9.88552
孝友	-9.88577
醉	-9.88635
漁	-9.88652
不若	-9.88731
本末	-9.88766
數千	-9.88887
霍	-9.88895
長子乾隆	-9.88948
酌	-9.88959
區	-9.8896
隅	-9.88961
琦	-9.88972
上命	-9.89176
僉事	-9.89261
轄	-9.89277
翰林學士	-9.89318
肇	-9.8935
遏	-9.89351
太尉	-9.89445
此書	-9.89481
朝夕	-9.89534
酋	-9.89625
割	-9.89662
笑曰	-9.89677
僉	-9.89701
敝	-9.89732
孔子曰	-9.89783
其才	-9.8996
任䕶軍校	-9.89963
鏡	-9.89968
年七十	-9.90028
之徒	-9.90083
項	-9.90108
諸路	-9.90118
段	-9.90123
熹	-9.90133
鎭	-9.90139
殁	-9.90142
荷	-9.90146
士竒	-9.90158
廷臣	-9.90186
十七年	-9.90199
之名	-9.90219
公在	-9.9022
未可	-9.90255
莫能	-9.90269
曰朕	-9.90285
原任歩軍校	-9.90296
鐸	-9.90391
元帥	-9.90476
宗室	-9.90484
戲	-9.90496
璫	-9.90514
不起	-9.90515
軰	-9.90536
租	-9.90554
渉	-9.90558
含	-9.90559
反覆	-9.90623
淑	-9.90634
經史	-9.90661
不少	-9.90739
匹	-9.90815
勦	-9.90857
鬼	-9.90861
蓀	-9.90873
午	-9.90902
溝	-9.90903
閔	-9.9091
理學	-9.91039
主簿	-9.91149
迷	-9.91319
陳氏	-9.91322
價	-9.91333
其門	-9.91427
而死	-9.91632
世孫	-9.91831
何為	-9.91851
桑格	-9.91868
户部	-9.91934
為政	-9.9194
曰昔	-9.91942
不聞	-9.91945
不顧	-9.92005
州人	-9.92022
屯田	-9.92026
五百	-9.92055
苗	-9.921
眼	-9.92142
里第	-9.92218
其元孫	-9.92224
以爲	-9.92384
如故	-9.92394
悼	-9.92467
匡	-9.92491
賣	-9.92522
掖	-9.9254
渭	-9.92553
洽	-9.92556
之說	-9.92591
一二	-9.926
指揮	-9.92654
諸王	-9.92734
知覺	-9.92773
是故	-9.92802
車凌	-9.92863
謂其	-9.92892
掃	-9.92906
吾心	-9.92916
渡江	-9.92924
臧	-9.92935
睿	-9.92946
膺	-9.92964
在此	-9.93
正藍旗	-9.93005
萬餘	-9.93038
郡縣	-9.93143
▁初來歸	-9.93197
銜	-9.93263
頤	-9.93268
暨	-9.93294
閑	-9.93351
竇	-9.93383
寡人	-9.93388
二十一年	-9.93437
車駕	-9.93547
中官	-9.936
東西	-9.9365
中興	-9.9368
上意	-9.93684
漏	-9.93722
中書舍人	-9.93733
嚮	-9.93756
醇	-9.93759
稿	-9.93774
而能	-9.94013
之上	-9.94079
讐	-9.94175
捐	-9.94193
曰陛下	-9.94311
曰是	-9.94322
司徒	-9.94383
大節	-9.94463
溫	-9.94499
凱	-9.94506
公獨	-9.9452
之民	-9.9453
畨	-9.94542
倒	-9.94606
見於	-9.94642
無可	-9.94656
卒無嗣	-9.94701
不問	-9.94757
而卒	-9.94839
釋氏	-9.9486
之變	-9.94934
棟	-9.94943
三司	-9.94947
頴	-9.94971
濬	-9.94972
傍	-9.94977
泛	-9.94982
暫	-9.94996
之論	-9.94996
防禦	-9.94997
太師	-9.95041
炳	-9.95124
沛	-9.95201
四海	-9.95282
正紅旗	-9.95285
嗜	-9.95302
時時	-9.95319
願陛下	-9.95324
淡	-9.95389
慷慨	-9.95399
虐	-9.95405
䘏	-9.95421
祗	-9.95422
陜	-9.95428
枝	-9.95457
廵撫	-9.95457
貽	-9.95508
其餘	-9.95641
聞見	-9.95655
曽祖	-9.9569
邇	-9.95762
寅	-9.95764
溥	-9.95785
秦檜	-9.95827
藴	-9.9585
而止	-9.95854
所著	-9.95871
御史中丞	-9.95888
俱原任	-9.95938
不盡	-9.95939
不明	-9.95968
年四十	-9.96007
浪	-9.96242
爾圖	-9.96332
不仕	-9.96408
琳	-9.96596
賄	-9.96625
貲	-9.96644
鑲白旗	-9.96657
慢	-9.96688
僻	-9.96688
至善	-9.96727
俱原任筆帖式	-9.96833
者則	-9.9685
十萬	-9.96916
好惡	-9.9695
好學	-9.97023
輔臣	-9.97138
直言	-9.97185
十里	-9.97191
侃	-9.97226
服除	-9.97262
太常	-9.97311
先儒	-9.9736
一字	-9.97406
生死	-9.9742
力行	-9.97436
復以	-9.97444
現任員外郎	-9.97446
天聰時来歸	-9.97449
安國	-9.97484
山川	-9.97485
西北	-9.97518
泉州	-9.97631
為本	-9.97659
姓名	-9.97769
博學	-9.9777
刺史	-9.9783
械	-9.97862
所見	-9.97894
福州	-9.98011
尸	-9.98012
施行	-9.98054
於人	-9.98079
婦人	-9.98113
自謂	-9.98146
人有	-9.98236
弛	-9.98325
黃	-9.98347
累遷	-9.98352
惰	-9.98354
者不	-9.98364
卦	-9.98371
評	-9.98376
贍	-9.98382
處之	-9.98392
奥	-9.98407
以身	-9.98501
衮布	-9.98508
少卿	-9.98698
騐	-9.98776
獵	-9.98784
臯	-9.98812
心也	-9.9883
而行	-9.9888
之才	-9.98997
丕	-9.99083
賢者	-9.99108
事君	-9.99116
而還	-9.99176
鑄	-9.99204
齎	-9.99224
神道	-9.99303
効力	-9.99305
若不	-9.99373
嘆曰	-9.99378
朋	-9.99538
召對	-9.9954
不絶	-9.99541
曰今	-9.99612
掾	-9.99635
任佐領	-9.99661
授騎都尉	-9.99683
無他	-9.99683
冝	-9.99693
猷	-9.99793
不自	-9.99804
司空	-9.99923
批	-10.0001
㢘	-10.0006
藁	-10.0009
曷	-10.001
嘉祐	-10.0013
公諱	-10.0019
謚	-10.0022
歐陽	-10.0035
行事	-10.0036
奏曰	-10.0036
本心	-10.0043
矣故	-10.0045
逾	-10.0047
江陵	-10.0049
諒	-10.005
婚	-10.0053
徧	-10.0053
番	-10.0053
諡曰	-10.0057
朴	-10.006
祭酒	-10.0064
甞	-10.0075
佛氏	-10.0077
緣	-10.0089
魂	-10.0095
二公	-10.0096
當以	-10.0098
正黄旗	-10.01
互	-10.011
奉命	-10.0116
派	-10.0119
節度	-10.0126
炎	-10.0132
僖	-10.0136
禀	-10.0139
踵	-10.0142
恬	-10.0144
輪	-10.0145
中丞	-10.0147
百里	-10.0148
誼	-10.0148
和碩	-10.0149
一個	-10.0153
喜怒哀樂	-10.0158
小字	-10.0161
之弊	-10.0162
湛	-10.0171
於外	-10.0174
濠	-10.0176
幕	-10.0178
墳	-10.0181
藻	-10.0181
樸	-10.0181
繹	-10.0188
飬	-10.0189
也公	-10.0192
人臣	-10.0205
紛	-10.0207
以備	-10.0215
以後	-10.0216
襄陽	-10.0217
萬人	-10.0223
二十二年	-10.0223
刼	-10.0225
多羅	-10.0226
孚	-10.0228
一毫	-10.0229
檢討	-10.0231
隘	-10.0233
荘	-10.0235
烏珠	-10.0242
測	-10.0245
十九年	-10.025
原任驍	-10.025
監司	-10.0254
地方人其子	-10.0266
又云	-10.0266
崇禎	-10.0269
受業	-10.0269
瑜	-10.0273
賓	-10.0274
島	-10.0275
泥	-10.0275
峽	-10.0281
工部	-10.0289
其説	-10.0292
班第	-10.0309
牽	-10.0309
壇	-10.0312
駁	-10.0316
偃	-10.0317
爾哈	-10.0327
萬世	-10.0329
髙祖	-10.0338
程朱	-10.0341
又何	-10.0348
髪	-10.0352
察哈爾	-10.0358
璘	-10.0358
慎獨	-10.0359
鎮江	-10.0362
學術	-10.0376
龍溪	-10.0384
心體	-10.0386
國朝	-10.0389
畿	-10.0393
故也	-10.0403
王公	-10.0404
蠲	-10.0405
觀其	-10.0405
讒	-10.0406
攜	-10.0407
柏	-10.0411
乃以	-10.0413
以進	-10.0416
曰君	-10.0419
大怒	-10.0427
以歸	-10.0432
用功	-10.0436
三遇	-10.0437
君子之	-10.044
故其	-10.0446
以死	-10.045
嶽	-10.0455
枉	-10.0457
吟	-10.0457
觧	-10.0459
朋友	-10.046
哈爾	-10.0476
哈達地方	-10.0477
人欲	-10.0482
參政	-10.0486
萬里	-10.0488
括	-10.049
李氏	-10.0497
為相	-10.0498
昨	-10.0499
視之	-10.0499
氷	-10.0503
必以	-10.0508
為國	-10.0512
入見	-10.0515
大用	-10.0518
今之	-10.0523
只在	-10.0524
公主	-10.0528
正徳	-10.0528
其母	-10.0535
帖式	-10.0538
故不仕祖	-10.0542
衷	-10.0542
内侍	-10.0545
躍	-10.0546
入朝	-10.0546
禱	-10.0546
狄	-10.0546
淵源	-10.0553
於世	-10.0557
之曽孫	-10.056
武帝	-10.0561
詹	-10.0561
甚衆	-10.0571
曰卿	-10.0573
譜	-10.0588
守備	-10.0589
疲	-10.0589
虧	-10.0593
誕	-10.0593
爾等	-10.0603
償	-10.0633
嘗曰	-10.0635
澹	-10.0636
元豐	-10.064
㫁	-10.064
孚敬	-10.064
叟	-10.0643
成功	-10.0643
盡心	-10.0645
貴州	-10.0646
罵	-10.0646
相傳	-10.0648
烏喇地方	-10.0652
域	-10.0652
漳	-10.0661
天祥	-10.0675
使之	-10.0675
荆州	-10.0676
撃	-10.0676
贈雲騎	-10.0678
濓	-10.068
添	-10.0683
者其	-10.0687
欵	-10.069
不待	-10.0699
之風	-10.0699
之命	-10.0703
京兆	-10.0708
而出	-10.0708
國子監	-10.0717
進士第	-10.0717
驟	-10.0725
裂	-10.073
裴	-10.0735
詩文	-10.074
脅	-10.0757
十九	-10.0761
賦詩	-10.0762
之書	-10.0763
至于	-10.0765
仲尼	-10.077
綸	-10.0771
時政	-10.0774
襲扎薩克一等台吉	-10.0775
陟	-10.0777
秘	-10.0777
禽	-10.0778
跪	-10.0781
未見	-10.0784
王曰	-10.0786
以禮	-10.0788
言語	-10.0792
侍讀	-10.0793
不離	-10.0796
不獲	-10.0798
錦州	-10.0804
平日	-10.0807
淮南	-10.081
不應	-10.0811
釋之	-10.0819
透	-10.0825
穴	-10.0826
漫	-10.0826
冲	-10.0828
達爾漢	-10.0831
皆是	-10.0832
金陵	-10.0837
可乎	-10.084
二三	-10.0866
江東	-10.0869
鄂爾	-10.0871
弄	-10.0873
攘	-10.0874
本朝	-10.088
發明	-10.0886
原任䕶	-10.0889
杭州	-10.0891
久矣	-10.0895
矣而	-10.0898
思之	-10.0899
順治	-10.0899
無敢	-10.0899
文成	-10.0904
現襲職	-10.0909
羅卜藏	-10.0917
絲	-10.0921
餽	-10.0921
奄	-10.0921
芝	-10.0922
培	-10.0923
大體	-10.0927
五人	-10.0935
以書	-10.0936
天道	-10.0937
殺人	-10.0946
召見	-10.095
一貫	-10.0953
之盛	-10.0956
冗	-10.0966
伺	-10.0966
隴	-10.0968
而不能	-10.0969
訖	-10.0971
扼	-10.0972
憐	-10.0973
十餘年	-10.0974
百萬	-10.0979
守之	-10.0983
大計	-10.0988
聞者	-10.0994
忠孝	-10.1004
字仲	-10.1007
必欲	-10.101
五日	-10.1013
叩	-10.1014
脚	-10.1015
道心	-10.1016
縉	-10.1016
壤	-10.1018
克圖	-10.1018
賞罰	-10.1019
揖	-10.1021
荀	-10.1023
為滿洲一姓此一	-10.1033
都尉	-10.1034
道者	-10.1035
聞其	-10.1038
論學	-10.1042
問曰	-10.1046
道也	-10.1054
謂曰	-10.1059
影	-10.1062
則無	-10.1062
廕	-10.1063
琴	-10.1065
侈	-10.1065
以至	-10.1068
焦	-10.1069
燈	-10.1071
分兵	-10.1079
襲封	-10.1081
其長子	-10.1082
劉氏	-10.1086
金華	-10.109
字伯	-10.1093
一心	-10.1095
毫	-10.1099
而非	-10.1099
自此	-10.1108
染	-10.1111
□	-10.1111
飯	-10.1112
其為	-10.1114
脫	-10.1114
䧟	-10.1115
出知	-10.1115
分别	-10.1121
忠信	-10.1129
講論	-10.113
有詔	-10.1141
不求	-10.1144
安撫	-10.1145
車稜	-10.1147
製	-10.1148
卒年七十	-10.115
麾	-10.1151
者矣	-10.1152
彥	-10.1153
或有	-10.1156
之役	-10.1157
道學	-10.1159
佩	-10.1159
建炎	-10.1164
煥	-10.1165
止之	-10.1169
分明	-10.1171
根本	-10.1173
陣亡	-10.1174
或問	-10.1181
軍節度使	-10.1183
倦	-10.1186
躬行	-10.1193
之性	-10.1197
親弟	-10.1198
一年	-10.1199
沿	-10.12
以上俱係應立傳之人	-10.1205
俯	-10.1207
原任司庫	-10.1212
縛	-10.1214
論事	-10.1225
遼東	-10.1226
察罕	-10.1227
未免	-10.1228
湖南	-10.1229
在外	-10.1231
人所	-10.124
物也	-10.1243
西南	-10.1248
索諾木	-10.1253
推官	-10.1258
逺近	-10.1259
諾爾布	-10.1262
織	-10.1263
更無	-10.1264
穎	-10.1266
不允	-10.1274
變化	-10.1285
現襲	-10.1287
原任䕶軍	-10.1288
老成	-10.1293
望之	-10.1298
隸	-10.1301
釁	-10.1303
牒	-10.1304
圭	-10.1304
奎	-10.1307
灣	-10.1307
揭	-10.131
繕	-10.1312
祜	-10.1313
柴	-10.1313
研	-10.1314
奏請	-10.1316
䕶軍	-10.1326
是為	-10.1326
亦以	-10.1333
原任䕶軍叅領	-10.1339
景泰	-10.1339
取之	-10.1341
門外	-10.1341
若此	-10.1343
曰子	-10.1343
邢	-10.1357
百年	-10.1357
浸	-10.1359
王師	-10.136
属	-10.136
摘	-10.1361
贓	-10.1361
之禍	-10.1362
燭	-10.1363
與公	-10.1371
山中	-10.1371
繼之	-10.1383
諸郡	-10.1384
可為	-10.1397
涕	-10.1404
彈	-10.1404
無善無惡	-10.1405
𤼵	-10.1406
之文	-10.1412
之女	-10.1417
周子	-10.1431
姓世居	-10.1431
之要	-10.1441
便宜	-10.1447
無有	-10.1452
年二十	-10.1453
廩	-10.1458
播	-10.1459
屠	-10.146
粤	-10.1461
撥	-10.1465
游牧	-10.1467
修身	-10.1472
第三	-10.1484
是謂	-10.1485
忠臣	-10.1486
若是	-10.1492
原任七品官	-10.1492
坡	-10.1492
原任三等侍衛	-10.1494
本無	-10.1496
用力	-10.1498
嘗言	-10.1503
繇	-10.1504
憫	-10.1508
平居	-10.1509
討之	-10.1512
鄉試	-10.1516
也乃	-10.1517
其書	-10.1523
其名	-10.1524
法度	-10.1529
他人	-10.1529
退而	-10.1533
蒙古	-10.1536
經術	-10.1541
静坐	-10.1548
達頼喇嘛	-10.1551
吏民	-10.1553
妨	-10.1556
黑	-10.1556
媚	-10.1556
梓	-10.1557
蹇	-10.1558
册	-10.1561
籌	-10.1564
萬一	-10.1565
國事	-10.1571
不便	-10.1571
誅之	-10.1573
失其	-10.1578
敗賊	-10.1578
奉詔	-10.1582
至則	-10.1597
著書	-10.16
同族世居	-10.1602
學校	-10.1602
師友	-10.1602
訂	-10.161
攸	-10.1613
乆之	-10.1613
後人	-10.1614
執事	-10.1623
甲申	-10.1624
其文	-10.1629
有三	-10.1629
之元孫	-10.1629
所當	-10.1637
原任協領	-10.1643
諤	-10.1654
戈	-10.166
摩	-10.1661
按察使	-10.1662
摧	-10.1664
正學	-10.1673
列𫝊	-10.1675
節度使	-10.1676
樞宻院	-10.1681
薩哈	-10.1681
次第	-10.1682
死生	-10.1692
上章	-10.1694
以成	-10.1702
人其孫	-10.1711
拂	-10.1712
它	-10.1716
悖	-10.1717
𤦺	-10.1721
其本	-10.1726
之妙	-10.174
惇	-10.1753
百餘人	-10.1755
秦州	-10.1756
現係生員	-10.1761
故不仕父	-10.1762
流涕	-10.1765
迪	-10.1767
随	-10.1768
諸書	-10.1772
得人	-10.1776
公子	-10.1778
教諭	-10.1779
塔爾	-10.1783
乞休	-10.1784
不可得	-10.1787
年五十	-10.1789
人倫	-10.1791
薩爾	-10.1791
風雨	-10.1793
是日	-10.1794
不樂	-10.1798
齋先生	-10.1802
言其	-10.1807
功名	-10.1813
太史	-10.1814
犬	-10.1815
立朝	-10.1815
堤	-10.1818
不通	-10.1819
蚤	-10.1819
𤓰	-10.182
枕	-10.1825
遇事	-10.1833
諫官	-10.1842
生生	-10.1857
涵	-10.1861
費揚古	-10.1864
以上俱有傳	-10.1864
言事	-10.1866
也又	-10.1868
脈	-10.1868
奕	-10.187
逋	-10.1871
大敗	-10.1882
博爾	-10.1893
之實	-10.1895
先君	-10.1896
削去	-10.1897
草木	-10.1898
一見	-10.19
無欲	-10.1901
民之	-10.1905
孺	-10.1905
四十年	-10.1906
教之	-10.1915
言行	-10.1916
鑲黄旗	-10.192
治亂	-10.192
祈	-10.1923
披	-10.1924
之用	-10.1926
促	-10.1926
訊	-10.1928
也吾	-10.1931
一身	-10.1939
斬之	-10.1964
不安	-10.1969
不就	-10.1975
話	-10.1975
湏	-10.1976
暢	-10.1978
服闋	-10.1979
别有	-10.1984
孝宗	-10.1993
遣官	-10.2001
也此	-10.2004
者有	-10.2007
腹	-10.201
饋	-10.2024
敖	-10.2025
嚕	-10.2027
則曰	-10.2029
者乃	-10.203
而自	-10.2032
灌	-10.2033
二千	-10.2033
弱冠	-10.2035
汲	-10.2037
既至	-10.2038
必先	-10.204
松山	-10.2041
侍從	-10.2047
得以	-10.2056
原任三等䕶衛	-10.2061
贄	-10.2079
古者	-10.2079
覈	-10.2081
寘	-10.2082
暗	-10.2082
吹	-10.2082
掲	-10.2083
握	-10.2083
叱	-10.2087
丗	-10.209
無益	-10.2094
宣和	-10.2098
人人	-10.2109
乙	-10.2114
代之	-10.2116
之餘	-10.2116
君子謂	-10.2124
道徳	-10.2126
旬	-10.2126
糴	-10.2126
揚州	-10.213
萊	-10.213
礙	-10.213
由此	-10.2133
苛	-10.2133
巴圖	-10.2134
阿喇布坦	-10.2135
豈非	-10.2136
蛇	-10.2137
聼	-10.2138
樊	-10.2145
平章	-10.2147
二十里	-10.2152
實錄	-10.2153
五經	-10.2163
平江	-10.2166
何所	-10.2166
之患	-10.2168
不堪	-10.2172
治之	-10.2173
學者稱	-10.2177
此事	-10.2178
侍講學士	-10.2179
酬	-10.2186
狐	-10.2187
韻	-10.2191
等地方	-10.2192
賔客	-10.2193
瑪爾	-10.2195
薪	-10.2196
闡	-10.2196
去之	-10.22
異端	-10.2203
常州	-10.2215
我軍	-10.2221
知止	-10.2223
吾儒	-10.2237
都察院	-10.2238
遍	-10.2248
十卷	-10.2248
狼	-10.2248
固辭	-10.2256
動靜	-10.2256
官吏	-10.2258
晉江人	-10.2265
軍士	-10.2267
後學	-10.227
公奏	-10.2277
察哈爾地方	-10.2283
▁初来歸	-10.2287
所知	-10.2288
以功	-10.2291
叅領	-10.2293
蠧	-10.2295
不死	-10.2296
緝	-10.2297
晨	-10.2297
神明	-10.2298
卽	-10.23
仲淹	-10.2302
頂	-10.2302
聶	-10.2303
存心	-10.2306
方是	-10.2307
牢	-10.2312
同時	-10.2324
已發	-10.2325
歴任	-10.2327
問學	-10.2327
行省	-10.233
平定	-10.2332
忠賢	-10.2333
原任驍騎	-10.2337
再拜	-10.2342
額爾徳尼	-10.2343
少師	-10.2345
長沙	-10.2346
于朝	-10.2346
夙	-10.2349
闈	-10.2352
師事	-10.2353
勛	-10.2354
葺	-10.2355
晟	-10.2358
鬭	-10.2359
奮勇	-10.236
光武	-10.2364
流賊	-10.2364
諸葛	-10.2366
名曰	-10.2366
前鋒	-10.2366
有此	-10.2371
孔孟	-10.2378
固有	-10.2382
無間	-10.2383
則是	-10.2384
禍福	-10.2389
二十三年	-10.2397
近臣	-10.2402
鵬	-10.2403
亦可	-10.2404
疇	-10.2406
揆	-10.2407
将軍	-10.2408
年六十	-10.241
倪	-10.2412
此則	-10.2412
宰桑	-10.2412
宗廟	-10.2414
滿洲	-10.2423
所以為	-10.2423
十名	-10.2424
東平	-10.2429
言也	-10.2434
請以	-10.244
有志	-10.2449
逺矣	-10.2453
有聲	-10.2461
天下事	-10.2463
稟	-10.2472
霜	-10.2472
巫	-10.2472
開封	-10.2478
襲一次襲	-10.248
二十七年	-10.2488
不信	-10.2495
終始	-10.2496
率衆	-10.2505
烏爾	-10.2511
此是	-10.2515
吏部侍郎	-10.2517
綿	-10.2522
譚	-10.2523
状	-10.2524
埀	-10.2525
刑部尚書	-10.2526
雖不	-10.2526
數百人	-10.2537
千古	-10.2541
可用	-10.2542
和議	-10.2545
與其	-10.2553
也先生	-10.2555
惟恐	-10.2561
鑾	-10.2569
軍民	-10.2571
且曰	-10.2572
二十四	-10.2575
猶未	-10.2576
鉅	-10.2577
五千	-10.258
庇	-10.258
思慮	-10.2582
来歸年分無考	-10.2586
矣今	-10.2589
舉人	-10.259
其黨	-10.2593
著述	-10.2601
師道	-10.2601
南陽	-10.2602
七人	-10.2602
其下	-10.2605
氣之	-10.2611
不倦	-10.2613
州郡	-10.2618
今人	-10.2624
讎	-10.2627
墨爾根	-10.2628
九十	-10.2628
替	-10.2632
譴	-10.2633
乖	-10.2633
乞歸	-10.2636
頻	-10.2636
長者	-10.2638
巾	-10.2639
甲辰	-10.264
㸔	-10.264
烟	-10.2641
自為	-10.2644
不屈	-10.2647
侍衞	-10.2655
世宗	-10.2661
考功	-10.2665
賜之	-10.2666
晏子曰	-10.2666
嘗謂	-10.2669
開元	-10.2669
一姓此一姓世居	-10.267
日夜	-10.2674
扈從	-10.2677
有事	-10.2678
一體	-10.2679
禧	-10.268
耆	-10.268
以上俱世居	-10.2685
湘	-10.2687
暑	-10.2687
佑	-10.2688
場	-10.2688
子貢	-10.2689
龎	-10.2689
工部尚書	-10.269
第十	-10.269
諸人	-10.2692
戾	-10.2692
几	-10.2694
迨	-10.2695
遮	-10.2695
上怒	-10.2697
以致	-10.2701
遂為	-10.2711
侍讀學士	-10.2711
有竒	-10.2712
俱現任筆帖式	-10.2714
二十餘	-10.2717
臨安	-10.2718
不立	-10.2722
大將	-10.2722
或曰	-10.2723
數人	-10.2724
大兵	-10.2724
當國	-10.2727
原任八品官	-10.273
軍營	-10.2731
官軍	-10.2732
治道	-10.2733
訐	-10.274
禁中	-10.2742
泰原任	-10.2746
汙	-10.2747
裘	-10.2748
䕫	-10.2749
宸	-10.2749
翊	-10.2751
寫	-10.2754
綺	-10.2757
太夫人	-10.2769
甚多	-10.2772
不下	-10.2784
伊犁	-10.2797
薦之	-10.2799
不知其	-10.28
再三	-10.2802
者即	-10.2802
亞	-10.2807
芻	-10.2807
侮	-10.2808
此言	-10.2809
攷	-10.281
横渠	-10.2814
秩滿	-10.2817
三等輕車都尉	-10.2823
聞而	-10.2823
嘉納	-10.2829
彦博	-10.2832
於天下	-10.2854
襲二次襲	-10.2856
無復	-10.2859
斃	-10.2859
彊	-10.2859
者又	-10.286
千載	-10.2861
地方人其	-10.2862
銳	-10.2863
搜	-10.2864
霄	-10.2866
諜	-10.2866
以養	-10.2867
或以	-10.2871
王安石	-10.2873
之節	-10.2878
至矣	-10.2879
有差	-10.2883
以前	-10.2885
太監	-10.2887
科舉	-10.2889
為先	-10.2891
明白	-10.2896
乾道	-10.2905
父老	-10.2908
取其	-10.292
慧	-10.2921
豪傑	-10.2922
刋	-10.2923
知者	-10.2927
邵武	-10.2947
至誠	-10.2953
象山	-10.2954
色布騰	-10.2962
惡之	-10.2967
文王	-10.2973
庠	-10.2975
欠	-10.2978
少保	-10.2979
鬱	-10.298
板	-10.2981
梗	-10.2983
訓導	-10.2989
副將	-10.2994
也是	-10.2995
宣撫	-10.2997
為心	-10.2997
功夫	-10.2998
恢復	-10.2999
不測	-10.3
輕重	-10.3005
至京師	-10.3007
文定	-10.3009
非所以	-10.3013
儼	-10.3017
乎其	-10.3018
人材	-10.302
納木扎勒	-10.3027
事親	-10.3029
三子	-10.303
之物	-10.3033
寕	-10.3035
居官	-10.3035
挈	-10.3036
珙	-10.3037
▁初來歸其孫	-10.3038
其所以	-10.3042
▁初來歸其子	-10.3043
四時	-10.3044
錡	-10.3046
求去	-10.3065
所能	-10.3072
於天	-10.3076
侍中	-10.3076
給事	-10.3078
遺書	-10.3079
杜門	-10.3079
之制	-10.3081
帝王	-10.3085
歴官	-10.3086
吐	-10.3089
二十五年	-10.309
隊	-10.3096
恂	-10.3098
姿	-10.31
讀之	-10.3106
自今	-10.3107
二日	-10.3112
卓然	-10.3112
提督	-10.3118
近世	-10.3118
有異	-10.312
身心	-10.3122
未㡬	-10.3123
十巻	-10.3123
察其	-10.3124
若有	-10.3136
講官	-10.3139
閭	-10.3149
生平	-10.3152
真定	-10.3154
汾	-10.3155
冷	-10.3156
之難	-10.3159
之私	-10.316
駐防	-10.3162
飲酒	-10.3165
檢校	-10.3173
正心	-10.3175
甲子	-10.3176
其道	-10.3177
臣聞	-10.3183
待之	-10.3187
未發之中	-10.3188
程氏	-10.3199
其一	-10.3202
郎阿	-10.3202
前日	-10.3203
丁未	-10.3205
潁	-10.3214
控	-10.3216
璟	-10.3216
昻	-10.3216
宇宙	-10.3218
挽	-10.3219
豈能	-10.322
遐	-10.3221
鈞	-10.3222
户部尚書	-10.3222
而知	-10.3223
從子	-10.3224
所欲	-10.3226
以事	-10.3231
召公	-10.3232
久而	-10.3233
嘗與	-10.3236
錦衣	-10.3244
不得不	-10.3247
千户	-10.3248
知也	-10.325
喇布坦	-10.3259
無所不	-10.3259
出處	-10.3261
瑄	-10.3262
至元	-10.3264
人君	-10.3266
皓	-10.3276
爰	-10.3277
無愧	-10.3277
當是時	-10.3277
庵	-10.3279
伯克	-10.328
棺	-10.3281
紀綱	-10.3284
其妻	-10.3288
何事	-10.329
復為	-10.3291
佛保	-10.3293
爾岱	-10.3299
有不	-10.3303
不肖	-10.3303
長白山地方	-10.3308
叔向	-10.3312
先師	-10.3312
言官	-10.3314
仁者	-10.3321
聖賢之	-10.3322
贖	-10.3332
稱之	-10.3335
輟	-10.3336
猶有	-10.3338
岱青	-10.3341
刃	-10.3342
國正白旗人世居	-10.3342
魏公	-10.3347
臂	-10.3347
第四子	-10.3364
箇	-10.3367
宋史	-10.3372
沂	-10.3373
晚年	-10.3374
喀爾	-10.3375
問之	-10.338
而得	-10.3381
雖然	-10.3385
勃	-10.3393
勾	-10.3394
庶吉士	-10.3396
丁丑	-10.3397
團	-10.3398
阜	-10.3399
廪	-10.34
視事	-10.3402
俠	-10.3407
敞	-10.3408
待制	-10.341
不疑	-10.3419
失之	-10.343
三十里	-10.3434
乃止	-10.344
莫非	-10.3442
行狀	-10.3444
生於	-10.3449
則知	-10.345
吐魯番	-10.3456
賛曰	-10.346
沃	-10.346
寮	-10.346
姻	-10.3461
先生之	-10.3463
系	-10.3463
濮	-10.3463
驥	-10.3465
耻	-10.3466
翠	-10.3469
性善	-10.3474
民力	-10.3478
閣臣	-10.3486
之情	-10.3487
非有	-10.3488
也且	-10.3492
破賊	-10.3507
之下	-10.3509
肥	-10.3517
無非	-10.3517
璋	-10.3522
鬻	-10.3523
嫡	-10.3524
之議	-10.3527
漢中	-10.353
之使	-10.3532
又謂	-10.3539
諸賢	-10.3541
為天下	-10.3544
文帝	-10.3545
二十五	-10.3546
公事	-10.355
贈太師	-10.3551
之教	-10.356
叅政	-10.3562
伊爾	-10.3564
經畧	-10.3565
事業	-10.3571
騷	-10.3571
致良知	-10.3575
濁	-10.3578
靖康	-10.358
如此則	-10.3584
之職	-10.3584
漠	-10.3584
昂	-10.3585
者曰	-10.3585
知名	-10.3585
盜賊	-10.3585
居家	-10.3586
踰年	-10.3588
捨	-10.3589
有得	-10.3601
未得	-10.3602
中和	-10.3603
憲宗	-10.3605
未盡	-10.3606
學之	-10.3607
家貧	-10.3612
一語	-10.3613
安危	-10.3616
等皆	-10.3631
愛之	-10.3632
人少	-10.3633
中正	-10.3639
帑	-10.3639
知人	-10.3641
倖	-10.3642
徼	-10.3646
膽	-10.3646
桐	-10.3646
下獄	-10.3647
此意	-10.3648
兵部侍郎	-10.3649
不入	-10.3649
有過	-10.3649
枯	-10.3651
片	-10.3652
閏	-10.3652
叢	-10.3652
安能	-10.3662
體認	-10.3662
一家	-10.3665
張浚	-10.3689
天聰	-10.3694
二萬	-10.3694
破之	-10.3695
襲職又	-10.3697
萬事	-10.3698
復有	-10.3698
葉赫	-10.3703
拖	-10.3704
懦	-10.371
其義	-10.3714
膏	-10.3715
樵	-10.3716
尼堪	-10.3717
而巳	-10.3728
事也	-10.3729
重之	-10.373
在於	-10.3735
形勢	-10.3742
庚	-10.3746
言路	-10.3746
之謂也	-10.3752
衆皆	-10.3753
道南	-10.3759
節制	-10.3761
北征	-10.3762
經義	-10.3762
十餘萬	-10.3763
揮	-10.3763
者甚衆	-10.3763
生民	-10.3766
閹	-10.3771
額駙	-10.3772
金帛	-10.3772
起居	-10.3772
匱	-10.3773
陪	-10.3774
淪	-10.3775
公對曰	-10.3779
裳	-10.3779
大名	-10.3783
以来	-10.3793
二十九年	-10.3794
兵馬	-10.3796
桑阿	-10.38
嘉之	-10.38
皆為	-10.3806
條理	-10.3806
西路	-10.3807
明徳	-10.381
未嘗有	-10.3813
元兵	-10.3815
二十四年	-10.3817
薩克	-10.382
孝弟	-10.3822
號令	-10.3825
可知	-10.3827
罷之	-10.3827
而求	-10.3829
鎮守	-10.3829
以俟	-10.383
桃	-10.3831
苟	-10.3833
工部侍郎	-10.3836
概	-10.3837
泄	-10.3837
勉之	-10.3837
▁尉其子	-10.3837
者惟	-10.3839
下詔	-10.384
雞	-10.3842
麥	-10.3842
箕	-10.3842
彛	-10.3843
哨	-10.3843
内附	-10.3846
廓	-10.3851
五行	-10.3852
公所	-10.3854
昆	-10.3857
軍務	-10.386
倭赫	-10.387
自任	-10.3873
同里	-10.3874
何謂	-10.3893
碎	-10.3896
墩	-10.3896
愆	-10.3897
㤗	-10.3901
壬辰	-10.3902
倘	-10.3902
打	-10.3904
灘	-10.3906
力辭	-10.3908
下令	-10.3909
詩書	-10.3911
表裏	-10.3914
自以為	-10.3916
則不	-10.3916
千萬	-10.3923
髙宗	-10.3925
一清	-10.3927
原任六品官	-10.3929
算	-10.3929
預修	-10.3932
意思	-10.3933
不茍	-10.3934
進兵	-10.3934
將帥	-10.3944
我師	-10.3947
深入	-10.3948
之力	-10.3948
道路	-10.3951
知有	-10.3953
珠爾	-10.3954
救之	-10.3955
鞏	-10.3959
衢	-10.396
所聞	-10.3961
穿	-10.3962
不悦	-10.3962
愼	-10.3964
大理評事	-10.3964
丹津	-10.3964
無功	-10.3965
加一雲騎尉	-10.3966
朋黨	-10.3967
歿	-10.3967
箴	-10.3968
嘉定	-10.397
介甫	-10.3973
之政	-10.3982
豫章	-10.3983
常平	-10.399
之前	-10.3998
之衆	-10.3998
西京	-10.4004
民間	-10.4004
恢	-10.401
自號	-10.4012
事上	-10.4012
聖門	-10.4023
舌	-10.4026
汰	-10.4027
竦	-10.4027
减	-10.4029
邱	-10.403
准	-10.4031
千人	-10.4031
隣	-10.4032
䖏	-10.4032
汚	-10.4032
正藍旗人	-10.4034
慟	-10.4035
存亡	-10.4036
驍	-10.4036
京城	-10.4037
禕	-10.4042
斬首	-10.4043
人世居	-10.4046
不利	-10.4047
汝愚	-10.4047
宗社	-10.4047
二格	-10.4051
之術	-10.4053
數十萬	-10.4053
詔以	-10.406
親兄	-10.406
在我	-10.406
諸司	-10.4061
至正	-10.4062
所載	-10.4063
珪	-10.4067
所學	-10.4068
可得	-10.407
衣食	-10.4077
不去	-10.4081
烏梁海	-10.4085
迂	-10.4094
畝	-10.4094
大本	-10.4094
嫉	-10.4096
圍錦州	-10.4097
袍	-10.41
額森	-10.4102
喀喇	-10.4105
足矣	-10.4107
科給事中	-10.411
襲職任	-10.4114
體用	-10.4115
艱難	-10.4117
感應	-10.412
四格	-10.4124
嗣位	-10.4125
未易	-10.4125
不赴	-10.413
大明	-10.4135
不聴	-10.4135
年八十	-10.4145
人言	-10.4149
追至	-10.416
馭	-10.416
䖍	-10.4161
牘	-10.4162
鞫	-10.4163
抄	-10.4164
俱原任佐領	-10.4165
爾賽	-10.4166
翻	-10.4166
功臣	-10.4171
之知	-10.4172
上問	-10.4173
爾布	-10.4174
㑹稽	-10.4181
非是	-10.4182
為民	-10.4185
臣子	-10.4186
南昌	-10.419
應之	-10.4197
守臣	-10.4201
本貫	-10.4201
不覺	-10.4208
而未	-10.421
永嘉	-10.4211
南海	-10.4212
内地	-10.4215
鉞	-10.4219
四世	-10.4223
泗	-10.4224
公至	-10.4226
亦自	-10.4226
羞	-10.4226
太常博士	-10.4227
張公	-10.4228
韜	-10.4229
物之	-10.4229
倣	-10.4229
多矣	-10.423
臺諫	-10.4231
顛	-10.4232
識者	-10.4235
國夫人	-10.4235
太傅	-10.4237
大理	-10.4238
故能	-10.424
尚有	-10.424
人其子	-10.4241
漢唐	-10.4242
渾然	-10.4261
公亦	-10.4273
之師	-10.4283
天地間	-10.4285
孔明	-10.4285
政和	-10.4291
篆	-10.4292
酷	-10.4295
區區	-10.4295
膳	-10.4298
行人	-10.4302
慤	-10.4303
皇太后	-10.4303
之行	-10.431
在位	-10.431
招撫	-10.4312
置之	-10.4314
辛未	-10.4325
行者	-10.4325
權貴	-10.4339
宋儒	-10.4339
歸於	-10.4339
公既	-10.4342
之先	-10.4342
之機	-10.4342
欣	-10.4342
宗正	-10.4345
所宜	-10.4349
不逺	-10.4355
孔門	-10.4358
色稜	-10.4359
舅	-10.436
坑	-10.436
而復	-10.436
封輔國公	-10.4361
熾	-10.4361
而成	-10.4362
戊辰	-10.4362
唱	-10.4363
弁	-10.4363
臻	-10.4363
塋	-10.4364
言性	-10.4366
沐	-10.4368
於上	-10.437
乎曰	-10.437
嘗以	-10.4372
右翼	-10.4378
通志	-10.4379
後來	-10.438
張氏	-10.4381
公自	-10.4385
死而	-10.4385
則可	-10.4388
異之	-10.4389
然其	-10.4395
諾顔	-10.4395
其可	-10.4397
太和	-10.4398
奉祠	-10.4403
楞額	-10.4407
歸年分無考其子	-10.4409
擊賊陣亡	-10.4409
右係有傳	-10.4422
件	-10.4428
濵	-10.443
淮西	-10.443
襟	-10.443
刑部侍郎	-10.443
儒臣	-10.4434
鮑	-10.4436
庫爾	-10.4437
華色	-10.4442
楊士竒	-10.4442
人生	-10.4449
二程	-10.4449
紹聖	-10.4454
一員	-10.4458
事聞	-10.4464
天資	-10.4466
故人	-10.4469
群	-10.4475
開國	-10.4479
公論	-10.448
以獻	-10.4481
竟不	-10.4483
之數	-10.4488
入為	-10.4489
太常少卿	-10.4492
吾人	-10.4496
逵	-10.4496
瑋	-10.4497
粮	-10.4497
鞭	-10.4499
同年	-10.4499
悍	-10.4501
斌	-10.4502
自家	-10.4508
制度	-10.451
正人	-10.4511
用人	-10.4511
相望	-10.4512
公公	-10.4515
存養	-10.4516
瑚什	-10.4522
為言	-10.4523
宦官	-10.4526
劄	-10.4531
此其	-10.4531
莫如	-10.4538
烏喇	-10.4541
國初来歸	-10.4544
郡志	-10.4546
三十六年	-10.4547
聲色	-10.455
乎此	-10.4551
喇嘛	-10.4557
嶠	-10.4558
規模	-10.456
傲	-10.456
累官	-10.4561
弩	-10.4562
誡	-10.4564
斤	-10.4565
賻	-10.4566
不避	-10.4567
殉	-10.4568
恱	-10.4569
還朝	-10.4569
臣之	-10.4572
其兄	-10.4574
心而	-10.4576
力戰	-10.458
措置	-10.4581
遣兵	-10.4586
引兵	-10.4589
㑹試	-10.4591
矣夫	-10.4592
乙未	-10.4594
先主	-10.4594
人多	-10.4595
從此	-10.461
自信	-10.4611
疏言	-10.4616
嗟乎	-10.4617
十人	-10.4625
寖	-10.4628
等䕶衞	-10.4629
侂胄	-10.463
羲	-10.463
鸞	-10.4631
滑	-10.4634
鼔	-10.4634
壺	-10.4635
七世孫	-10.4636
飽	-10.4637
球	-10.4637
是嵗	-10.464
以為不可	-10.464
璽書	-10.4642
號為	-10.4643
從而	-10.4646
性情	-10.4649
爾吉	-10.465
宣撫使	-10.4655
動而	-10.4657
大喜	-10.4658
乃知	-10.4658
於時	-10.4658
戒懼	-10.4659
得一	-10.466
一本	-10.4668
支離	-10.4669
知公	-10.467
俱原任䕶軍校	-10.4671
太宗曰	-10.4673
於道	-10.4674
墓誌銘	-10.4676
語録	-10.4681
處士	-10.4681
之所謂	-10.4682
也上	-10.4684
悅	-10.4686
雅爾	-10.4691
何處	-10.4696
銷	-10.4697
耗	-10.4703
亢	-10.4703
布爾	-10.4706
訣	-10.4706
巴圖魯	-10.4709
入於	-10.4712
曰公	-10.4713
公議	-10.4714
書云	-10.4716
講讀	-10.4717
達瓦齊	-10.4718
頃之	-10.4724
自知	-10.4729
詣闕	-10.4736
私意	-10.4736
贊曰	-10.474
足下	-10.4743
不知所	-10.4754
一子	-10.4757
死之	-10.4763
鄉薦	-10.4763
凉	-10.4765
力學	-10.4766
品官	-10.4767
然有	-10.4767
唐古特	-10.4767
弭	-10.4772
丐	-10.4772
奢	-10.4772
響	-10.4774
十餘人	-10.4775
靣	-10.4776
饒州	-10.4777
二等	-10.4779
癸丑	-10.4781
非常	-10.4785
魏忠賢	-10.4788
宰執	-10.479
皆可	-10.4791
則為	-10.4793
不著	-10.4805
屢敗	-10.4811
世傑	-10.4816
十數	-10.4819
曰某	-10.4828
歸之	-10.4828
也非	-10.4828
知州	-10.483
其在	-10.483
後進	-10.4831
有道	-10.4832
襲三次襲	-10.4836
也自	-10.484
庻	-10.4841
魄	-10.4842
相公	-10.4843
此一	-10.4843
郤	-10.4844
從祀	-10.4844
匠	-10.4845
斯文	-10.4848
朝鮮	-10.485
巷	-10.485
時方	-10.4852
詔書	-10.4852
中貴人	-10.4857
又嘗	-10.4861
不變	-10.4861
浙東	-10.4867
登進士第	-10.4873
腹心	-10.4873
而生	-10.4873
不食	-10.4874
卒年六十	-10.4877
萬計	-10.488
皇子	-10.4881
三十五年	-10.489
同安	-10.489
初授	-10.4903
授為	-10.4903
谿	-10.4905
鄂齊爾	-10.4907
治平	-10.4909
閻	-10.491
庚辰	-10.4913
拓	-10.4915
國子祭酒	-10.4916
燧	-10.4917
禎	-10.4918
事有	-10.4918
不止	-10.4922
饗	-10.4924
之利	-10.4925
處州	-10.4933
二十萬	-10.4934
東北	-10.4939
常在	-10.494
現係䕶軍	-10.4947
無異	-10.4947
之美	-10.4955
矣又	-10.4957
斛	-10.4963
用心	-10.4965
以謂	-10.4969
迄	-10.4974
夸	-10.4978
未聞	-10.4979
有罪	-10.4979
答曰	-10.4982
乙丑	-10.4983
毅然	-10.4984
蘄	-10.4985
告子	-10.4985
瑗	-10.4985
濶	-10.4987
翌日	-10.4987
涯	-10.4991
膠	-10.4991
哲宗	-10.4994
先生之學	-10.4994
格爾	-10.4998
一曰	-10.5008
建安	-10.5013
愍	-10.5015
在人	-10.5017
侍御史	-10.5029
三省	-10.5032
與焉	-10.5033
無嗣	-10.5033
克什	-10.5034
敢言	-10.5035
將以	-10.5045
丕勒	-10.5054
正是	-10.5055
為二	-10.5057
壓	-10.5058
辛酉	-10.506
小學	-10.5062
承宗	-10.5062
慙	-10.5062
釣	-10.5065
來歸年分無考其子	-10.5065
柵	-10.5066
入城	-10.5067
而退	-10.507
感激	-10.507
征明	-10.5074
泌	-10.5074
奉使	-10.5074
以正	-10.508
縣人	-10.5083
相見	-10.5087
起復	-10.5087
極論	-10.5088
卿等	-10.5095
歸年分無考其孫	-10.5095
所論	-10.5097
而實	-10.5097
為性	-10.5098
生而	-10.5098
獨不	-10.51
其行	-10.5102
巴海	-10.5103
譬	-10.5103
手詔	-10.5108
語曰	-10.5108
二十八	-10.5117
遁去	-10.5118
乃得	-10.5118
▁尉	-10.5118
曰若	-10.5128
携	-10.5129
以文	-10.513
稱為	-10.5135
懈	-10.5135
蹟	-10.5135
中人	-10.5135
稷	-10.5136
成就	-10.5137
有無	-10.5137
造化	-10.5142
己巳	-10.5143
理也	-10.5145
則又	-10.5145
現任主事	-10.5148
之主	-10.5149
亦非	-10.5161
擊敗賊	-10.5166
不果	-10.5168
始得	-10.5169
堯夫	-10.517
莆	-10.5181
孔氏	-10.5186
闗中	-10.5195
主上	-10.5195
濤	-10.5198
沆	-10.52
識之	-10.5201
東海	-10.5201
蔚	-10.5203
演	-10.5203
壩	-10.5204
郷	-10.5205
纎	-10.5206
殱	-10.5206
挫	-10.5209
著有	-10.5212
左氏	-10.5217
可否	-10.5225
護	-10.5229
巴什	-10.5229
泰山	-10.5238
需	-10.5243
言動	-10.5248
統制	-10.5251
無私	-10.5252
廣州	-10.5254
孫男	-10.5255
家傳	-10.5256
夫婦	-10.5257
上御	-10.5258
告歸	-10.5259
二十六年	-10.5264
無二	-10.5266
䕃	-10.527
右係應立傳之人	-10.5273
即此	-10.5273
之分	-10.5274
即以	-10.5275
柯	-10.5276
貟外郎	-10.5276
麓	-10.5277
歸化城	-10.5278
萃	-10.5279
上聞	-10.5281
廖	-10.5281
司馬光	-10.5288
翕然	-10.5289
者是	-10.5294
疏請	-10.5298
子思	-10.5309
賊衆	-10.5309
士民	-10.5311
若無	-10.5313
以安	-10.532
男女	-10.5325
字元	-10.5326
敘功	-10.5339
提學	-10.5339
晉侯	-10.5339
文正公	-10.534
於我	-10.534
百世	-10.5344
不暇	-10.5347
不加	-10.5348
戢	-10.5349
遥	-10.5349
何不	-10.535
手足	-10.5351
皇考	-10.5354
孽	-10.5354
翔	-10.5356
澗	-10.5356
頑	-10.5356
當其	-10.5358
省察	-10.5359
召試	-10.5361
入對	-10.5361
全體	-10.5363
之曾孫	-10.5367
聖徳	-10.5368
不能自	-10.5369
渡河	-10.5369
正直	-10.5369
千總	-10.5373
丙子	-10.5373
章句	-10.5376
諡忠	-10.5378
也遂	-10.5388
致其	-10.5389
拒之	-10.5391
允文	-10.5394
先王之	-10.5399
之屬	-10.5399
知本	-10.5403
鎮國公	-10.5404
所向	-10.5407
見而	-10.5407
七日	-10.5409
出師	-10.5409
時事	-10.541
嘗有	-10.5411
阿睦爾撒納	-10.5414
十日	-10.5419
太皇太后	-10.542
緯	-10.5421
未行	-10.5423
楷	-10.5424
廸	-10.5424
畱	-10.5424
服其	-10.5424
拙	-10.5424
夙夜	-10.5424
廟堂	-10.5425
羡	-10.5426
現係馬甲	-10.5426
辛丑	-10.5428
睹	-10.5428
求其	-10.5428
蹙	-10.5429
丙午	-10.5429
荅	-10.5429
劒	-10.5431
則必	-10.5433
許多	-10.5434
致之	-10.5434
氣節	-10.5435
者或	-10.5438
過人	-10.5443
六人	-10.5444
公乃	-10.5444
年三十	-10.5445
李公	-10.5448
居民	-10.5455
騎都尉兼一雲騎尉	-10.5457
東陽	-10.5463
三十一年	-10.5465
丹陽	-10.5465
一代	-10.5466
公私	-10.547
典禮	-10.5471
少傅	-10.5472
此時	-10.5475
陛	-10.5477
至京	-10.5479
固山貝子	-10.5484
而上	-10.5487
山下	-10.5487
天啟	-10.5488
可與	-10.5496
五品	-10.5496
五代	-10.5497
繪	-10.5502
鑲白旗人	-10.5502
隆阿	-10.5503
琮	-10.5506
之弟	-10.5507
本於	-10.5509
緩急	-10.5509
哈薩克	-10.5511
燒	-10.5513
之道也	-10.5517
恩詔	-10.5518
災異	-10.5526
復命	-10.5528
學於	-10.5529
諭以	-10.553
參軍	-10.553
周旋	-10.553
乃命	-10.5531
逝	-10.5531
喜曰	-10.5532
桓公	-10.5535
品級	-10.5539
學派	-10.5539
曰彼	-10.554
人性	-10.5546
文簡	-10.5547
文子	-10.5554
要害	-10.5555
待罪	-10.5555
極言	-10.5566
原任頭等䕶衛	-10.5566
世襲	-10.5567
所云	-10.557
國初来歸其	-10.5571
原任内管領	-10.5571
傳之	-10.5572
縮	-10.5572
或謂	-10.5575
輦	-10.5576
涼	-10.5576
廼	-10.5576
迺	-10.5576
愁	-10.5577
得免	-10.558
慘	-10.5583
神道碑	-10.5586
蓮	-10.5588
牌	-10.559
矣公	-10.559
數十人	-10.5591
其親	-10.5591
諸部	-10.5593
由閒散	-10.5595
遊擊	-10.5597
授雲騎尉	-10.5599
心則	-10.56
儒學	-10.5602
成額	-10.5603
謂之曰	-10.561
而入	-10.5612
軍事	-10.5622
者何	-10.563
以故	-10.5634
靈阿	-10.564
無罪	-10.564
之原	-10.5641
斯道	-10.5644
中書令	-10.5647
迭	-10.5649
宣諭	-10.5649
扣	-10.5651
敵人	-10.5654
龔	-10.5655
巴哈	-10.5658
諸葛亮	-10.5658
匈奴	-10.5659
不正	-10.566
癸未	-10.5662
人以為	-10.5663
八百	-10.5664
體也	-10.5673
臣下	-10.5674
忠厚	-10.5676
胸中	-10.5678
奏議	-10.5681
御製	-10.5681
又與	-10.5686
兼學士	-10.5689
六格	-10.5692
文莊	-10.5697
索柱	-10.5699
二十一	-10.5703
必不	-10.5705
不朽	-10.5708
竒之	-10.571
益州	-10.5712
國太夫人	-10.5715
囂	-10.5717
便殿	-10.5717
綱常	-10.5721
闔	-10.5722
簾	-10.5724
怙	-10.5724
云云	-10.5725
自言	-10.5726
矣此	-10.5728
祔	-10.5729
隐	-10.573
白金	-10.573
絹	-10.573
乾坤	-10.5733
夔	-10.5733
二等輕車都尉	-10.5733
拾遺	-10.5734
佚	-10.5734
墻	-10.5734
何必	-10.5736
欲為	-10.5737
膝	-10.5737
左翼	-10.5746
一雲騎尉	-10.5748
知識	-10.575
肅然	-10.5757
大驚	-10.5763
人者	-10.5764
名士	-10.577
凡所	-10.5771
佛老	-10.5773
子羽	-10.5776
為宗	-10.5777
鑲白旗人世居	-10.5792
大中	-10.5792
江州	-10.5798
號曰	-10.5798
原任三等䕶衞	-10.5801
訛	-10.5802
戕	-10.5808
千餘人	-10.5811
廹	-10.5812
理氣	-10.5812
名儒	-10.5813
莫若	-10.5816
景公問	-10.5819
布政	-10.5824
於家	-10.5825
至大	-10.5827
蔡京	-10.5827
畧曰	-10.5831
意見	-10.5833
百户	-10.5835
己未	-10.5838
城守	-10.584
而起	-10.5841
郡邑	-10.5843
大破之	-10.585
年老	-10.5857
光禄	-10.5861
來歸年分無考	-10.5867
鑲藍旗人世居	-10.5869
夫子之	-10.5871
其用	-10.5871
諌官	-10.5875
原任筆帖	-10.5877
上親	-10.5877
浄	-10.5877
顏	-10.5878
武昌	-10.5878
村地方	-10.5879
而反	-10.5882
原任筆	-10.5883
丙辰	-10.5884
熱	-10.5885
旒	-10.5885
進曰	-10.5886
辭曰	-10.5887
闇	-10.5887
拯	-10.5888
蕪	-10.5888
釐	-10.5889
膚	-10.5889
庚戌	-10.5889
婢	-10.5891
狥	-10.5891
公等	-10.5891
原任二等侍衛	-10.5892
輝發地方	-10.5895
總裁	-10.5897
不思	-10.5899
軍功	-10.5899
感動	-10.59
全活	-10.5904
登第	-10.5908
圖爾	-10.5909
無過	-10.5911
棄之	-10.5911
便有	-10.5914
其能	-10.5914
清明	-10.5916
為名	-10.5916
孝子	-10.5917
僧格	-10.5917
原任驍騎校孫	-10.5917
張子	-10.5918
子也	-10.5919
金石	-10.5927
朝議	-10.5927
漳州	-10.5929
無極	-10.593
遣歸	-10.593
為我	-10.5931
靡不	-10.5933
衆人	-10.5935
王道	-10.5941
之失	-10.5946
以次	-10.5947
禮義	-10.5948
引疾	-10.5948
政府	-10.5949
鎮撫	-10.5951
呈	-10.5954
心性	-10.5955
親叔	-10.5955
現係監生	-10.596
綜	-10.596
盍	-10.5962
大理寺丞	-10.5962
電	-10.5962
贈雲騎尉其子	-10.5963
籠	-10.5964
兇	-10.5964
璉	-10.5965
萬户	-10.5967
宛	-10.5967
袖	-10.5967
又請	-10.5968
胄	-10.5969
甘肅	-10.597
俱原任驍騎校	-10.5971
郢	-10.5972
之辨	-10.5972
考其	-10.5973
其屬	-10.5978
因以	-10.5979
都城	-10.5979
異同	-10.5985
平時	-10.5991
湖州	-10.5995
邊事	-10.5995
勤勞	-10.5998
宗族	-10.5998
曰天	-10.6
援兵	-10.6004
把總	-10.6008
人亦	-10.601
以報	-10.601
廣大	-10.6012
敢不	-10.6013
趙氏	-10.6017
男子	-10.6021
而動	-10.6023
先天	-10.6025
仕至	-10.6028
非所	-10.6031
原籍無考	-10.604
故不仕本貫	-10.6041
吝	-10.6041
獸	-10.6041
數十年	-10.6042
柳	-10.6043
醜	-10.6045
豹	-10.6045
疑之	-10.6047
正白旗人	-10.6051
南安	-10.6055
太保	-10.6057
事事	-10.6059
及門	-10.6062
聖明	-10.6066
合而	-10.6074
無疑	-10.6075
縣丞	-10.6076
自少	-10.6086
安撫使	-10.6089
祀之	-10.6094
閩中	-10.6098
夏人	-10.6104
父兄	-10.6106
若夫	-10.6109
旺扎勒	-10.6112
之類	-10.6112
土爾扈特	-10.6116
事皆	-10.6119
弑	-10.6119
永感下第	-10.612
仁義禮智	-10.6121
艘	-10.6125
而欲	-10.6127
肩	-10.6128
屍	-10.6129
左都御史	-10.6129
繆	-10.6129
管領	-10.6129
䕶軍叅領	-10.613
削籍	-10.6135
文忠	-10.6157
命也	-10.6169
安世	-10.6172
無物	-10.6173
卒於	-10.6176
召入	-10.6178
建陽	-10.618
道周	-10.618
大禮	-10.6181
些	-10.6184
若干	-10.6184
不答	-10.6185
尼雅	-10.6187
安置	-10.6189
吾心之	-10.6189
應詔	-10.619
以明	-10.6191
矣其	-10.6196
開封府	-10.6199
狹	-10.62
僭	-10.6202
何故	-10.6203
把總一兵	-10.6205
而又	-10.6206
噫	-10.6207
户部侍郎	-10.6208
偷	-10.6209
光禄大夫	-10.6209
寒暑	-10.6209
捍	-10.6209
濟南	-10.6211
箭	-10.6213
不妄	-10.6218
廬陵	-10.6223
行至	-10.6223
正色	-10.6224
紫陽	-10.6225
阿哈	-10.6227
不一	-10.6232
欣然	-10.6233
有定	-10.6236
學行	-10.6246
為滿洲一姓其氏族	-10.625
瀋陽地方	-10.6254
發兵	-10.6266
度支	-10.6274
引去	-10.6275
額敏和卓	-10.6277
異於	-10.6279
聞公	-10.6279
南都	-10.6281
諸道	-10.6285
散秩大臣	-10.6287
一一	-10.6287
繋	-10.6288
畔	-10.6288
正紅旗人	-10.629
寐	-10.6291
阮	-10.6291
興化	-10.6292
岩	-10.6294
發其	-10.6296
此皆	-10.6296
左侍郎	-10.6299
與夫	-10.63
内大臣	-10.6309
因其	-10.6309
祭祀	-10.6317
詹事	-10.6317
童子	-10.6321
公品級	-10.6322
以為然	-10.6324
都督府	-10.6328
人事	-10.6329
其他	-10.6329
與語	-10.633
下手	-10.6331
姓此一姓世居	-10.6336
稱善	-10.6336
叔父	-10.6339
原任副都統	-10.6341
明兵	-10.6345
國子	-10.6351
行於世	-10.6355
山林	-10.6356
亦何	-10.6356
為詩	-10.6357
西安	-10.636
奉天	-10.6362
不須	-10.6363
以上俱係國初來歸之人	-10.6364
輕車都尉	-10.6365
康齋	-10.6366
憑	-10.6368
叚	-10.637
刑部主事	-10.637
鈎	-10.637
貧賤	-10.637
壬午	-10.6371
原任三等侍衞	-10.6374
間有	-10.6375
其私	-10.6376
以病	-10.6377
新法	-10.638
疏入	-10.6382
重兵	-10.6382
成敗	-10.6383
而不可	-10.6387
居敬	-10.6391
尋以	-10.6391
樞密院	-10.6391
加恩	-10.6392
少年	-10.6394
建昌	-10.6397
天人	-10.6398
不負	-10.64
無形	-10.6404
軌	-10.6405
四百	-10.6405
二先生	-10.6407
喜怒	-10.6407
萬古	-10.6408
監國	-10.6423
疑其	-10.6423
中使	-10.6425
之亂	-10.6425
親征	-10.6426
主之	-10.6429
建寧	-10.6434
易之	-10.6436
留之	-10.6436
葉爾羌	-10.6444
進講	-10.6446
紛紛	-10.6447
貯	-10.6447
明安	-10.6449
君父	-10.645
經學	-10.6452
教化	-10.6452
䑓	-10.6453
戊戌	-10.6453
甲戌	-10.6455
人父	-10.6455
榻	-10.6456
砲	-10.6458
敘	-10.6459
吾之	-10.6466
舊制	-10.6466
攻之	-10.6469
一夕	-10.647
大業	-10.6476
罷去	-10.6477
上疏曰	-10.6481
之害	-10.6482
二十餘年	-10.6485
常綬	-10.6487
責之	-10.6489
安民	-10.6489
元氣	-10.6489
不取	-10.6495
手書	-10.6501
所用	-10.6505
江上	-10.6506
宣宗	-10.6507
大王	-10.6512
西銘	-10.6513
貞觀	-10.6514
孟子曰	-10.6514
吾子	-10.6515
廷和	-10.6516
而立	-10.6516
可以為	-10.6519
者衆	-10.6519
鑲黄旗包衣旗鼓人世居瀋陽地方來	-10.6522
對曰臣	-10.6524
子産	-10.6526
山谷	-10.6528
䜛	-10.6529
百人	-10.6529
綴	-10.6529
零	-10.653
中間	-10.6531
公請	-10.6531
聊	-10.6532
思哈	-10.6537
槐	-10.6537
蓬	-10.6537
乂	-10.6539
文華殿	-10.6539
南康	-10.654
在朝	-10.6542
出兵	-10.6544
治天下	-10.6546
不亦	-10.6547
中山	-10.6551
哈納	-10.6552
同志	-10.6555
守令	-10.6557
城門	-10.656
二府	-10.6561
官屬	-10.6561
異日	-10.6562
邑人	-10.6564
莫之	-10.6567
烏蘭	-10.6569
學案	-10.657
二十八年	-10.657
珠瑚	-10.6571
極其	-10.6571
授扎薩克	-10.6577
謝曰	-10.6586
三曰	-10.6587
楊氏	-10.6589
不法	-10.6593
員外	-10.6595
同官	-10.6596
之𩔖	-10.6598
其君	-10.66
劉公	-10.6601
此非	-10.6604
瓘	-10.6607
大畧	-10.6608
不克	-10.661
令其	-10.6614
菜	-10.6616
作詩	-10.6619
醒	-10.6619
墓誌	-10.662
愷	-10.6621
裝	-10.6624
狗	-10.6624
陂	-10.6624
祥符	-10.6625
統之	-10.6625
桀	-10.6626
暉	-10.6631
太僕	-10.6632
慶元	-10.6636
也哉	-10.6636
各一	-10.6645
望風	-10.6645
執中	-10.6645
為滿洲一姓其氏	-10.6649
立功	-10.6649
卒年五十	-10.6652
嶺南	-10.6653
文正	-10.6653
見聞	-10.6654
阿喇	-10.6665
倉卒	-10.6666
蘇爾	-10.6668
自立	-10.6673
人無	-10.6673
惻	-10.6677
者公	-10.6678
從征雲南	-10.6687
莆田	-10.6688
知所	-10.6688
國用	-10.669
公著	-10.6692
卒其孫	-10.6693
如也	-10.6696
筭	-10.6696
準噶爾	-10.6697
鱗	-10.6697
授以	-10.6698
所作	-10.6698
建議	-10.6698
不可得而	-10.67
壻	-10.6702
曩	-10.6703
諧	-10.6704
羸	-10.6705
灼	-10.6705
巴圖爾	-10.6706
愿	-10.6707
軫	-10.6707
聳	-10.6707
皇祐	-10.6709
己丑	-10.6709
㝠	-10.6711
未始	-10.6711
上帝	-10.6714
得力	-10.6714
都爾	-10.6715
禮記	-10.6716
於前	-10.6721
李文	-10.6722
一千	-10.673
感悟	-10.6738
通阿	-10.674
以道	-10.6742
無人	-10.6749
節義	-10.6757
而民	-10.6758
異時	-10.676
永平	-10.677
抗疏	-10.6774
公嘗	-10.6775
南山	-10.6776
主於	-10.6777
數千人	-10.678
一書	-10.678
順天	-10.6781
稱㫖	-10.6781
棲	-10.6782
兼侍讀	-10.6782
著作佐郎	-10.6783
移書	-10.6783
現係廕生	-10.6783
豆	-10.6783
與王	-10.6784
竈	-10.6785
之内	-10.6785
歆	-10.6785
𣙜	-10.6786
婁	-10.6788
逞	-10.679
踐履	-10.679
瑩	-10.6791
踈	-10.6792
霞	-10.6792
奨	-10.6793
土黙特	-10.6794
牀	-10.6795
交阯	-10.6796
取士	-10.6796
之靈	-10.6797
縝	-10.6799
則其	-10.68
姊	-10.68
徳之	-10.6801
之子也	-10.6802
也葢	-10.6805
獻公	-10.6805
鉉	-10.6805
疏上	-10.6808
崇徳	-10.681
臨事	-10.6811
此語	-10.6813
兩遇	-10.6814
之病	-10.6816
子儀	-10.6816
原任䕶軍校孫	-10.6818
門户	-10.682
監軍	-10.6822
慶厯	-10.6827
未定	-10.6829
立志	-10.6829
邪正	-10.6831
何物	-10.6831
光世	-10.6834
考亭	-10.6835
孝經	-10.6836
原是	-10.6837
戸部	-10.6841
外無	-10.6851
言於	-10.6856
然也	-10.6858
兼侍講	-10.6862
無遺	-10.6864
庾	-10.6869
禆	-10.6869
以見	-10.6873
布政使	-10.6874
于此	-10.6874
兩宫	-10.6875
不解	-10.6876
戌	-10.6877
芬	-10.6877
五名	-10.6878
堰	-10.6879
丁酉	-10.6879
詔世襲罔替	-10.688
原任驍騎校元孫	-10.688
永興	-10.6881
達哈	-10.6882
奏言	-10.6883
平陽	-10.6884
冥	-10.6884
兀魯特地方	-10.6885
根敦	-10.6886
譬之	-10.6888
多少	-10.6888
及第	-10.6891
受其	-10.6891
伏誅	-10.6892
文辭	-10.6893
原任頭等侍衛	-10.6895
魯人	-10.69
現任步軍校	-10.6902
南渡	-10.6919
中節	-10.6926
主一	-10.6927
副將軍	-10.6927
甚厚	-10.6939
主敬	-10.6942
巴勒	-10.6946
晉江	-10.6946
有五	-10.6947
尚書令	-10.6949
又問	-10.695
等書	-10.6952
滄	-10.6957
拾	-10.6958
毫釐	-10.6959
歉	-10.6959
掛	-10.696
峙	-10.6963
庶子	-10.6965
砦	-10.6965
柩	-10.6966
内臣	-10.6967
吾身	-10.6968
一生	-10.6968
使臣	-10.6972
艮	-10.6974
本傳	-10.6974
起為	-10.6974
其為人	-10.6975
皆在	-10.6976
熙寧	-10.6976
五里	-10.6978
推之	-10.6985
進取	-10.6985
太虛	-10.699
者如	-10.6993
然亦	-10.6998
則心	-10.7004
吾道	-10.7006
知此	-10.7008
俘獲	-10.7013
安排	-10.7015
就道	-10.7016
來歸年分無考其孫	-10.7019
制置	-10.702
建言	-10.702
見公	-10.7023
曰非	-10.7026
為諸生	-10.7033
正黄旗人世居	-10.7033
氣也	-10.7034
鑲黄旗包衣管領下人世居瀋陽地方	-10.7035
遇之	-10.704
諫議大夫	-10.7041
校書郎	-10.7043
冶	-10.7043
武宗	-10.7044
進攻	-10.7044
河西	-10.7045
▁加之職承襲	-10.7045
又明年	-10.7046
梯	-10.7046
滕	-10.7047
讞	-10.7047
雕	-10.7049
讜	-10.705
受之	-10.705
着	-10.7051
窘	-10.7051
賁	-10.7052
斧	-10.7052
殄	-10.7053
戊申	-10.7053
甲午	-10.7055
國鑲黄旗人世居	-10.7057
渙	-10.7057
寔	-10.706
沔	-10.706
薩穆哈	-10.7062
烏什	-10.7063
臣恐	-10.7064
三十六	-10.7067
之始	-10.7068
一月	-10.707
書成	-10.7071
現任八品官	-10.7072
錢塘	-10.7077
不喜	-10.7077
守將	-10.7079
之遺	-10.7081
繼母	-10.7085
哈密	-10.7089
定國	-10.709
爾瑚	-10.7094
覲	-10.7099
蜀人	-10.7101
辜	-10.7102
温公	-10.7107
之善	-10.7116
愛民	-10.7118
係隸滿洲旗分之蒙古一	-10.7119
財用	-10.712
無考	-10.7121
鑲黄旗人世居	-10.7122
任員外郎	-10.7123
緡	-10.7125
守禦	-10.7127
車臣汗	-10.7128
任事	-10.7129
水陸	-10.713
扎爾	-10.7131
俄羅斯	-10.7131
班師	-10.7131
攀龍	-10.7132
諸君	-10.7133
洙	-10.7136
之權	-10.7136
獲罪	-10.7137
隻	-10.7138
繞	-10.7138
閫	-10.7138
歙	-10.7139
本原	-10.7139
朱氏	-10.714
剖	-10.714
怯	-10.7144
作亂	-10.7144
宣府	-10.7145
晦翁	-10.7147
出而	-10.7149
約束	-10.7152
奔走	-10.7153
徃徃	-10.7155
壬子	-10.7156
伊洛	-10.7159
四十里	-10.717
荆南	-10.7171
幾何	-10.7172
行也	-10.7174
史官	-10.7183
京東	-10.7185
之憂	-10.7186
不得其	-10.7188
否則	-10.7194
尚未	-10.7194
二聖	-10.7198
襲輔國公	-10.7201
人之所	-10.7201
偽總兵	-10.7203
疾病	-10.7206
有能	-10.7208
精兵	-10.7208
前代	-10.7208
實有	-10.721
襲職卒其	-10.721
先生以	-10.7213
相似	-10.7214
原任御史	-10.7217
温州	-10.722
次適	-10.722
猾	-10.7222
核	-10.7224
圖原任	-10.7225
晏子對曰	-10.7225
丙申	-10.7225
媿	-10.7226
斜	-10.7227
其性	-10.7228
羈	-10.7228
聨	-10.7228
使其	-10.7231
穢	-10.7231
乙酉	-10.7233
周禮	-10.7234
之望	-10.7238
春坊	-10.7243
詔獄	-10.7244
上蔡	-10.7245
卒年八十	-10.7247
庚子	-10.7254
先公	-10.7255
生擒	-10.7258
子男	-10.7261
噶哈	-10.7262
有意	-10.7264
上前	-10.7264
史館	-10.7267
吾輩	-10.727
官兵	-10.7272
流俗	-10.7272
最為	-10.7273
語及	-10.7276
時年	-10.7277
無算	-10.7277
無餘	-10.7279
江右	-10.7279
四子	-10.7284
不惟	-10.7286
主管	-10.7286
胸	-10.729
稱職	-10.7291
亦多	-10.7291
前此	-10.7291
原任前鋒校	-10.7293
光明	-10.7293
故有	-10.7295
其勢	-10.7298
以全	-10.7299
十事	-10.7299
其年	-10.7305
功業	-10.7306
凢	-10.7306
原任佐領孫	-10.7307
有加	-10.7308
夲	-10.7308
株	-10.7313
剿	-10.7313
理會	-10.7314
駐蹕	-10.7314
乍	-10.7314
揺	-10.7316
牟	-10.7317
觴	-10.7317
不違	-10.7317
憶	-10.7319
徃來	-10.7319
邕	-10.7319
苖	-10.732
信之	-10.7321
牆	-10.7321
更有	-10.7322
布禄	-10.7322
慚	-10.7324
方畧	-10.7327
固守	-10.7329
廷試	-10.7331
子路	-10.7332
秀才	-10.7333
之業	-10.7334
原任叅領	-10.7339
涇	-10.734
閉門	-10.7344
人或	-10.7344
原任三等	-10.7347
不以為	-10.7349
族散處於	-10.735
臣竊	-10.7352
等侍衞	-10.7352
李先生	-10.7353
順昌	-10.7357
天聖	-10.7357
以公為	-10.7361
現任三等侍衛	-10.7362
吉林烏喇地方	-10.7364
之樂	-10.7368
黄氏	-10.7377
喇什	-10.7378
武王	-10.738
大江	-10.7383
一篇	-10.7386
泰現任	-10.7388
安南	-10.739
正白旗人世居	-10.7391
扎薩克輔國公	-10.7391
赴闕	-10.7393
騎尉	-10.7393
數千言	-10.7395
始知	-10.7398
天也	-10.7398
由䕶軍校從征	-10.7399
友諒	-10.74
原任五品官	-10.7401
皆出	-10.7401
太子太傅	-10.7401
究其	-10.7401
蘇氏	-10.7401
網	-10.7402
壮	-10.7405
丙戌	-10.7406
蘆	-10.7407
搏	-10.7407
嘗為	-10.7408
墾	-10.741
戒慎恐懼	-10.741
晏子諫	-10.741
悠	-10.7411
俱原	-10.7411
前輩	-10.7411
叩頭	-10.7412
栗	-10.7414
第四	-10.7414
國鑲白旗人世居	-10.7414
懽	-10.7415
曰爾	-10.7416
國正黄旗人世居	-10.7416
層	-10.7417
不輟	-10.7419
周易	-10.7421
矣乃	-10.7421
曰先生	-10.7428
扎木	-10.7429
其次	-10.7432
主静	-10.7437
發之	-10.744
行而	-10.7442
黙然	-10.7442
次曰	-10.7443
長樂	-10.745
髮	-10.7453
賜宴	-10.7453
以便	-10.7453
品典儀	-10.7455
機務	-10.7456
恐懼	-10.7458
二者	-10.7461
明德	-10.7468
崇安	-10.7469
不滿	-10.7472
二曰	-10.7474
王室	-10.7477
宣公	-10.7481
逆瑾	-10.7484
親伯	-10.7492
技	-10.7492
殫	-10.7493
成進士	-10.7494
頓首	-10.7494
令人	-10.7495
世俗	-10.7497
棘	-10.7497
掇	-10.7498
購	-10.7499
肝	-10.75
爾濟	-10.7501
和碩特	-10.7502
戊午	-10.7502
第五	-10.7502
態	-10.7503
屹	-10.7503
三公	-10.7504
一路	-10.7504
浹	-10.7505
緑	-10.7505
自己	-10.7506
所存	-10.7516
經傳	-10.7519
朱文公	-10.752
後有	-10.7523
河朔	-10.7525
尋陞	-10.7525
物而	-10.7531
爭之	-10.7532
保現任	-10.7533
奪其	-10.7534
亦未	-10.7539
胡什	-10.7539
經略	-10.754
善長	-10.7541
阿拉	-10.7542
穆爾	-10.7543
落職	-10.7543
誥命	-10.7546
以老	-10.7546
其徒	-10.7557
否曰	-10.7558
黑龍江地方	-10.7562
至公	-10.7563
宣子	-10.7567
督學	-10.7569
乞致仕	-10.7571
正白旗包衣管領下人世居	-10.7575
宫中	-10.7576
語人曰	-10.7576
兩浙	-10.7577
屢敗賊	-10.7579
禽獸	-10.7582
廬州	-10.7582
原任廐長	-10.7582
僑	-10.7583
僣	-10.7583
薊	-10.7584
千五百	-10.7585
之妻	-10.7587
㕔	-10.7588
揣	-10.7589
灑	-10.7589
鳳翔	-10.7589
副都御史	-10.759
不可為	-10.7591
辦事	-10.7591
非禮	-10.7592
蛟	-10.7592
妹	-10.7592
扁	-10.7594
矧	-10.7596
慊	-10.7596
押	-10.7597
渥	-10.7597
以私	-10.76
惟公	-10.76
左春坊	-10.7601
若水	-10.7603
多羅貝勒	-10.7603
其子孫	-10.7607
哀毁	-10.7611
大呼	-10.7613
示之	-10.7613
現任郎中	-10.7616
左遷	-10.7618
涕泣	-10.7619
公復	-10.762
蘇州	-10.7623
士之	-10.7624
大典	-10.7625
長子康熙	-10.7628
杜爾伯特	-10.763
晦菴	-10.7631
也公曰	-10.7633
率性	-10.7634
亡何	-10.7634
近日	-10.7635
君子小人	-10.7638
不給	-10.7644
福王	-10.7645
樞密	-10.7648
却是	-10.7649
也故曰	-10.7658
同心	-10.766
只有	-10.7662
和羅	-10.7665
意也	-10.7665
名節	-10.7665
車布登	-10.7674
先生與	-10.7676
一巻	-10.7677
禡木特	-10.7679
廊	-10.768
霽	-10.768
復召	-10.7681
二十三	-10.7681
佳為滿洲一姓此	-10.7681
正黄旗人	-10.7681
地方人其曽孫	-10.7682
冐	-10.7682
恚	-10.7683
鯉	-10.7683
心之所	-10.7686
黯	-10.7689
額爾克	-10.7689
聖祖	-10.7689
仆	-10.769
扇	-10.769
惟陛下	-10.7691
嬖	-10.7693
赤子	-10.7694
職方	-10.7704
而後已	-10.7707
而終	-10.7707
達海	-10.7714
祖父	-10.772
此之謂也	-10.7721
兩淮	-10.7722
不治	-10.7724
惜之	-10.7725
之資	-10.7726
臨川	-10.7734
納之	-10.7738
於學	-10.7739
必為	-10.7744
之䇿	-10.7745
一室	-10.7746
嘉其	-10.7748
者自	-10.7751
此乃	-10.7752
為此	-10.7757
之正	-10.776
其體	-10.7762
且言	-10.7762
祖宗之	-10.7763
女子	-10.7765
明堂	-10.7766
遂與	-10.7767
刪	-10.7767
特進	-10.7769
一名	-10.7769
所過	-10.7769
班珠爾	-10.7769
也即	-10.7772
正白旗包衣管領下人世居瀋陽地方	-10.7774
瀕	-10.7775
廡	-10.7776
因言	-10.7777
先朝	-10.7777
蝗	-10.7777
城外	-10.7777
資政殿學士	-10.7778
疋	-10.778
濱	-10.778
燮	-10.7781
兀	-10.7782
饌	-10.7782
版	-10.7784
齊賢	-10.7785
峒	-10.7786
麄	-10.7787
禮也	-10.7788
翺	-10.7788
凡有	-10.779
提刑	-10.7794
樞宻使	-10.7794
長白山地方人	-10.7798
縁事	-10.7798
小心	-10.7798
仁也	-10.7803
於是乎	-10.7805
唐虞	-10.7807
其親弟	-10.7808
者三	-10.7812
御前	-10.7812
承㫖	-10.7813
之兵	-10.7815
不逮	-10.782
之㑹	-10.782
之典	-10.7831
者哉	-10.7834
則不可	-10.7836
元和	-10.7838
危坐	-10.7841
和靖	-10.7842
三等男	-10.7843
所行	-10.7846
太上	-10.7849
百家	-10.785
入内閣	-10.785
二十七	-10.7851
河陽	-10.7854
也及	-10.7854
任防禦	-10.7857
不祥	-10.7858
之賢	-10.7859
家事	-10.786
生事	-10.7862
錫喇	-10.7865
陽縣	-10.7867
䕶軍統領	-10.7867
墟	-10.787
䇿妄阿喇布坦	-10.787
無聲無臭	-10.787
綂	-10.7871
摭	-10.7872
瘠	-10.7873
覿	-10.7873
僥倖	-10.7873
八旗滿洲氏族通譜卷	-10.7873
著加恩	-10.7874
襲職三遇	-10.7875
固已	-10.7875
陳公	-10.7875
所掠	-10.7875
纂修	-10.7876
壬戌	-10.7876
為治	-10.7877
丁内艱	-10.7877
之謀	-10.7878
上表	-10.7879
徐州	-10.7879
閎	-10.7879
布祿	-10.7881
軸	-10.7883
陛辭	-10.7885
歎息	-10.7886
鑲藍旗人	-10.7888
太常卿	-10.7889
譬如	-10.7901
日益	-10.7903
去其	-10.7906
門生	-10.7906
不附	-10.7906
誠心	-10.7907
柱國	-10.791
累贈	-10.7911
心為	-10.7914
君實	-10.7919
恩澤	-10.792
有才	-10.7921
字叔	-10.7925
樞宻	-10.7926
貴人	-10.7932
涇原	-10.7933
御史大夫	-10.7936
都理	-10.7938
由佐領	-10.7938
四字	-10.7939
不成	-10.7939
無内外	-10.7944
久不	-10.795
之極	-10.7952
帝王之	-10.7953
正藍旗人世居	-10.7956
踰月	-10.7956
始有	-10.7959
璽	-10.796
攻城	-10.7961
其弊	-10.7963
司農	-10.7963
縣主簿	-10.7964
甚矣	-10.7965
涪	-10.7965
敦多布	-10.7966
一息	-10.7967
扎薩克圖汗	-10.7968
濂	-10.7968
伯淳	-10.797
辛亥	-10.7971
圃	-10.7971
惶	-10.7972
霧	-10.7972
躁	-10.7973
羨	-10.7973
售	-10.7975
壬寅	-10.7975
賜金	-10.7976
填	-10.7976
戊寅	-10.7976
罹	-10.7977
洶洶	-10.7977
侃侃	-10.7977
武臣	-10.7979
老子	-10.7981
九江	-10.7982
辛巳	-10.7982
貴妃	-10.7982
登城	-10.7982
甲寅	-10.7984
從弟	-10.7985
水旱	-10.7992
一㸃	-10.7994
叔祖	-10.7994
和托	-10.7997
髙明	-10.7999
絶人	-10.8004
浙西	-10.8005
復起	-10.8006
還京	-10.8008
氣質之性	-10.8008
最後	-10.801
之末	-10.8017
太廟	-10.8023
淮東	-10.8025
惟其	-10.8031
其職	-10.8032
士人	-10.8033
上疏言	-10.8034
寺丞	-10.8036
徽宗	-10.8042
報國	-10.8042
乃復	-10.8042
常保	-10.8048
瀚	-10.805
不能無	-10.8052
可行	-10.8055
塔哈	-10.8055
自守	-10.8056
經濟	-10.8058
京口	-10.8058
討賊	-10.8059
粲	-10.8059
訃	-10.8061
羅卜藏丹津	-10.8061
廐	-10.8062
磯	-10.8062
偏侍下第	-10.8062
受學	-10.8063
笞	-10.8064
坎	-10.8066
劵	-10.8066
腐	-10.8066
淚	-10.8066
帕	-10.8066
壅	-10.8069
鷄	-10.807
水火	-10.807
寝	-10.807
規矩	-10.8071
鈍	-10.8072
竝	-10.8072
二千石	-10.8073
允之	-10.8074
國正藍旗人世居	-10.8076
聖人之道	-10.8079
一等輕車都尉	-10.808
典儀	-10.8081
三十二年	-10.8083
椘	-10.8084
嶷	-10.8085
本院	-10.8088
今為	-10.8092
尤為	-10.8093
相去	-10.8094
㕘政	-10.8098
擊敗之	-10.8099
旬日	-10.8099
無用	-10.8101
簡易	-10.8102
於物	-10.8106
若以	-10.8113
三十餘	-10.8115
從學	-10.8117
有文	-10.8118
何可	-10.8124
不願	-10.8129
沾	-10.813
論議	-10.8132
慨	-10.8135
於民	-10.814
及此	-10.8149
以濟	-10.8152
相率	-10.8152
為文章	-10.8156
者以為	-10.8157
李賢	-10.8158
抃	-10.8158
畀	-10.8159
性理	-10.8162
此之謂	-10.8162
恩詔加至二等輕車都尉	-10.8162
恰	-10.8163
塾	-10.8163
淹	-10.8165
曼	-10.8165
躋	-10.8166
埋	-10.8167
繡	-10.817
林氏	-10.817
何嘗	-10.8172
當然	-10.8177
之長子	-10.8177
四夷	-10.8178
北方	-10.8179
天聰時	-10.8179
甘泉	-10.8181
常明	-10.8183
孝亷	-10.8185
能知	-10.8185
巡按	-10.8186
原任筆帖式元孫	-10.8187
中允	-10.8187
送之	-10.819
誤國	-10.8191
須是	-10.8198
婺州	-10.8202
見上	-10.8204
闕下	-10.8204
不可復	-10.8207
胡公	-10.8207
從者	-10.8208
一舉	-10.8209
子二長	-10.821
可言	-10.8216
太極圖	-10.8216
河中	-10.8218
明經	-10.8222
皆非	-10.8231
改過	-10.8231
原任䕶軍校元孫	-10.8235
三軍	-10.8249
朋素克	-10.825
養之	-10.8253
得志	-10.8254
搖	-10.8255
此處	-10.8258
以奉	-10.8258
改知	-10.8262
卞	-10.8262
臺諌	-10.8262
鼻	-10.8262
也臣	-10.8263
灾	-10.8264
參知政事	-10.8265
扎木素	-10.8266
筠	-10.8267
殯	-10.8268
楹	-10.8268
年少	-10.8271
𦙍	-10.8272
頥	-10.8273
餓	-10.8273
祕書	-10.8273
甌	-10.8273
逆賊	-10.8275
荆襄	-10.8277
無心	-10.8279
為大	-10.828
乃可	-10.8281
兩朝	-10.8282
其四世孫	-10.8284
理㑹	-10.829
所親	-10.8291
墓碑	-10.8293
麾下	-10.8294
時為	-10.8295
卒其親弟	-10.8304
世儒	-10.8306
部郎中	-10.8307
都是	-10.831
而行之	-10.8312
分為	-10.8313
曰臣聞	-10.8313
親戚	-10.8314
海上	-10.8321
劾之	-10.8325
惕	-10.8326
北平	-10.833
忠獻	-10.833
至其	-10.8336
由委署	-10.834
集賢	-10.8341
臨江	-10.8349
也惟	-10.8351
召至	-10.8352
憂國	-10.8356
善巴	-10.8359
之句	-10.836
詹事府	-10.836
脉	-10.836
不納	-10.8361
貟	-10.8361
閤	-10.8363
殖	-10.8364
枚	-10.8364
宵	-10.8364
塊	-10.8364
二十二	-10.8365
瑕	-10.8366
忝	-10.8367
韓公	-10.8367
所稱	-10.8369
國正紅旗人世居	-10.837
文選	-10.8371
冺	-10.8371
馴	-10.8372
奏上	-10.8373
𣣔	-10.8373
湧	-10.8373
姒	-10.8374
可惜	-10.8377
人心之	-10.8378
宗㫖	-10.838
太子太保	-10.8381
青州	-10.8385
天聰時來歸其	-10.8385
黒龍江地方	-10.8388
曹操	-10.8389
也又曰	-10.839
其民	-10.839
富弼	-10.8393
刑獄	-10.8393
武功	-10.8397
之四世孫	-10.84
蘇完地方	-10.8401
就擒	-10.8404
也初	-10.8405
所司	-10.8405
以詩	-10.8408
其族	-10.8411
族人	-10.8411
何足	-10.8411
意氣	-10.8413
望見	-10.8415
科爾沁	-10.8419
純仁	-10.8422
進封	-10.843
悉以	-10.8438
守正	-10.8441
無禮	-10.8446
時人	-10.8447
蕭然	-10.8448
旗分	-10.8448
扈	-10.8451
上有	-10.8451
栻	-10.8456
北路	-10.8458
正大	-10.8459
多羅郡王	-10.8459
元史	-10.846
厄	-10.846
而為之	-10.8462
遑	-10.8462
冰	-10.8462
躡	-10.8464
慾	-10.8464
伴	-10.8464
函	-10.8466
狎	-10.8467
剪	-10.8467
換	-10.8467
溉	-10.8468
阿爾台	-10.8469
礟	-10.847
今上	-10.847
彞	-10.8471
交趾	-10.8471
牲	-10.8471
緘	-10.8472
淳熙	-10.8472
擠	-10.8473
上䟽	-10.8474
逆璫	-10.8474
弇	-10.8475
却之	-10.8476
陰陽	-10.8476
入貢	-10.8478
祖妣	-10.8479
本來	-10.848
王府	-10.8484
忠誠	-10.8488
未有不	-10.8489
講求	-10.849
來降	-10.849
人力	-10.8494
隆慶	-10.8494
王文	-10.8497
札爾	-10.8497
安定	-10.85
不由	-10.8502
上官	-10.8503
東門	-10.8503
入冦	-10.8504
賽音	-10.8507
先王	-10.8507
其氣	-10.8507
外郎	-10.8509
求諸	-10.851
其上	-10.8514
永安	-10.8515
傳卷之	-10.8517
有年	-10.8517
經世	-10.8518
俊卿	-10.8527
泣下	-10.8528
而用之	-10.853
歸年分無考其曽孫	-10.8532
聞之曰	-10.8533
二十六	-10.8536
大政	-10.8541
講明	-10.8542
不假	-10.8543
不學	-10.8544
地方來歸年分無考	-10.8545
江寧	-10.8547
太宰	-10.8547
相繼承襲	-10.8548
如初	-10.855
臭	-10.8555
敬齋	-10.8558
寗	-10.8562
原任城門尉	-10.8562
催	-10.8563
原任二等䕶衛	-10.8563
分無考其孫	-10.8564
烏巴什	-10.8564
稔	-10.8564
不敬	-10.8564
諳	-10.8565
証	-10.8567
吐蕃	-10.8567
嘯	-10.8567
恊	-10.8568
隕	-10.8569
疊	-10.857
滛	-10.8571
禮部右侍郎	-10.8572
篤行	-10.8573
有力	-10.8573
瀾	-10.8573
愬	-10.8576
潞	-10.8578
棠	-10.8578
氏封	-10.8579
亦原任	-10.8579
延安	-10.8581
犒	-10.8582
又奏	-10.8584
巴克	-10.8585
城南	-10.8586
其辭	-10.8586
戊子	-10.8587
出來	-10.8589
有四	-10.859
諸将	-10.8592
以資	-10.8597
天下國家	-10.8597
今日之	-10.8599
得㫖	-10.8603
范公	-10.8604
靖難	-10.8613
布哈	-10.8615
原任副	-10.8616
其說	-10.8619
居之	-10.8624
與我	-10.8632
文華	-10.8633
康節	-10.8635
陽明先生	-10.8636
日與	-10.8636
並進	-10.8637
未敢	-10.8638
偽將	-10.864
校尉	-10.8642
所致	-10.8644
常存	-10.8646
流於	-10.8647
都司	-10.8648
輔政	-10.8649
只為	-10.865
隆興	-10.8651
為滿洲一姓	-10.8652
心之體	-10.8653
郡人	-10.8655
配享	-10.8655
生意	-10.8659
洪武初	-10.8659
欽定外藩䝉古回部王公表傳卷之	-10.8662
臘	-10.8664
霍集斯	-10.8665
擕	-10.8666
貂	-10.8667
紘	-10.8668
欽定四庫全書八旗滿洲氏族通譜卷	-10.8668
祇	-10.8669
冉	-10.867
洒	-10.8671
我兵	-10.8671
笏	-10.8672
架	-10.8673
煙	-10.8674
褚	-10.8676
噐	-10.8676
山陵	-10.8678
瑛	-10.8679
不廢	-10.8679
諮	-10.8679
庚午	-10.868
兵備	-10.868
萬石	-10.8682
舟師	-10.8683
軍馬	-10.8684
輔導	-10.8686
考察	-10.8688
歐	-10.8689
目前	-10.869
寂然	-10.8694
理原任	-10.8696
太學生	-10.8697
不畏	-10.8699
侍臣	-10.8702
愛人	-10.8708
毫髪	-10.871
可畏	-10.8712
削爵	-10.8718
西域	-10.8718
一則	-10.872
扎薩克台吉	-10.8725
友善	-10.8735
不恤	-10.8737
布拉	-10.8749
愕	-10.8757
和囉理	-10.876
怡	-10.876
鑲紅旗人世居	-10.8761
天下之人	-10.8761
靜坐	-10.8767
動也	-10.8767
仔	-10.8768
宰臣	-10.8769
洩	-10.877
倅	-10.8773
襲四次襲	-10.8775
黔	-10.8776
乳	-10.8776
大凌河	-10.8777
琬	-10.8779
范仲淹	-10.8779
鯁	-10.8779
畆	-10.878
當死	-10.878
天命之性	-10.878
冩	-10.8784
也因	-10.8784
而來	-10.8785
來者	-10.8788
收斂	-10.8789
惠卿	-10.879
無善	-10.8795
説得	-10.8795
養性	-10.8796
恩詔所加之職	-10.8797
不難	-10.8799
歸年分無考其元孫	-10.8805
獨知	-10.8806
叙功授雲騎尉	-10.8808
所遺	-10.8808
立言	-10.8809
無能	-10.8811
世家	-10.8811
仍兼	-10.8813
有名	-10.8815
之流	-10.8819
法司	-10.8819
中道	-10.8819
民心	-10.882
不厭	-10.8824
䏻	-10.8825
其城	-10.8831
日食	-10.8833
必能	-10.8834
再遷	-10.8836
薩穆	-10.8837
會試	-10.8842
貴賤	-10.8842
章京	-10.8847
瑚爾	-10.8849
矣若	-10.8856
而天下	-10.8864
天則	-10.8865
龍門	-10.8866
地震	-10.8869
校元孫	-10.8869
問其故	-10.8872
模	-10.8873
廷議	-10.8873
輅	-10.8874
一等台吉	-10.8878
貎	-10.8878
三山	-10.8879
拊	-10.888
譖	-10.8881
别號	-10.8881
進士及第	-10.8881
分無考	-10.8882
捧	-10.8882
彚	-10.8885
軍節度	-10.8886
通州	-10.8886
荆公	-10.8888
布原任	-10.8891
欲用	-10.8891
克其城	-10.8894
終身不	-10.8899
卒贈	-10.8903
色爾	-10.8905
日以	-10.8909
過之	-10.8915
先世	-10.8918
必死	-10.8921
公生	-10.893
池州	-10.8931
在天	-10.8932
雖欲	-10.8933
始以	-10.8934
一卷	-10.8935
保定	-10.8936
公謂	-10.8936
何時	-10.8937
府君	-10.894
府庫	-10.894
惟有	-10.8942
威儀	-10.8943
向髙	-10.8945
諾爾	-10.8945
問公	-10.8945
餘黨	-10.8949
外史氏曰	-10.8951
安在	-10.8951
為亂	-10.8953
留意	-10.8956
不知也	-10.8959
長吏	-10.8961
以行	-10.8965
勲徳	-10.8967
朝政	-10.8968
識得	-10.8971
新安	-10.8971
直指	-10.8971
民有	-10.8974
家世	-10.8975
孰能	-10.8975
海中	-10.8975
鞍	-10.898
霍集占	-10.8981
殿中侍御史	-10.8981
諛	-10.8982
現係舉人	-10.8982
鬚	-10.8982
礪	-10.8983
小臣	-10.8983
諭之曰	-10.8983
跋	-10.8984
湮	-10.8985
琰	-10.8985
洎	-10.8986
襲職現任	-10.8986
亦曰	-10.8987
不論	-10.8989
小人之	-10.899
父為户第	-10.899
當下	-10.899
禾	-10.8991
也昔	-10.8991
凱旋	-10.8991
峩	-10.8992
漲	-10.8993
熈寧	-10.8997
廷尉	-10.8997
築城	-10.8999
識其	-10.8999
少時	-10.8999
國鑲藍旗人世居	-10.9
低	-10.9
優賚	-10.9
特賜	-10.9001
宣慰	-10.9003
斯人	-10.9007
持節	-10.9011
敵兵	-10.9011
兖州	-10.9011
幕府	-10.9012
僚屬	-10.9014
曾祖	-10.9014
陵寢	-10.9021
有成	-10.9022
進士仕至	-10.9024
三司使	-10.9029
之傳	-10.9032
大敗之	-10.9032
庶人	-10.9035
者悉	-10.9037
瓦爾喀	-10.9041
胡氏	-10.9046
之次子	-10.9046
河間	-10.9054
有疾	-10.9056
楊榮	-10.9057
院事	-10.9058
府事	-10.9064
威福	-10.9067
直學士	-10.9067
乾元	-10.9069
右正言	-10.9073
易曰	-10.9073
賢良	-10.9075
可知矣	-10.9077
後征	-10.9078
文皇	-10.908
萬餘衆	-10.9082
授為二等輕車都尉	-10.9083
不仁	-10.9087
駿	-10.9087
堵	-10.9088
擔	-10.9088
乃為	-10.9089
駝馬	-10.909
骸	-10.9092
閩中理學淵源考卷	-10.9093
慝	-10.9093
和氣	-10.9095
霖	-10.9097
生靈	-10.9099
毁譽	-10.9099
油	-10.9099
黄金	-10.91
壬申	-10.9101
窟	-10.9103
音布	-10.9103
旦夕	-10.9107
其主	-10.9112
勒克	-10.9112
也帝	-10.9116
徙知	-10.9116
諸州	-10.9118
遼陽地方	-10.9125
境内	-10.9126
一般	-10.9126
常以	-10.9129
早卒	-10.9129
尋常	-10.913
納穆	-10.9135
之費	-10.9138
吉州	-10.9139
老而	-10.914
失守	-10.914
孺子	-10.9146
行義	-10.9147
兩人	-10.9151
天下無	-10.916
賜諡	-10.9161
是心	-10.9162
體仁	-10.9163
乃是	-10.9163
不能盡	-10.9174
南方	-10.9175
相近	-10.918
凛	-10.9182
事宜	-10.9182
職事	-10.9184
法令	-10.9185
尚可	-10.919
考官	-10.9192
瓜	-10.9194
喀什噶爾	-10.9195
昉	-10.9195
宸濠	-10.9197
攬	-10.9197
龍圖閣直學士	-10.9198
蔬	-10.9199
廣平府知府李清馥撰	-10.9202
野史氏曰	-10.9202
彩	-10.9203
定州	-10.9204
鞠	-10.9205
詡	-10.9206
丁母憂	-10.9207
灰	-10.9208
弓矢	-10.9208
鑰	-10.9209
揚阿	-10.9209
罷歸	-10.9209
癸酉	-10.921
另	-10.921
瀆	-10.921
布顔	-10.9211
非吾	-10.9213
徳秀	-10.9215
浩然	-10.9215
入門	-10.9216
將相	-10.9219
天意	-10.9221
與人交	-10.9222
不使	-10.9229
國人	-10.923
大悦	-10.9233
孟氏	-10.9235
贈騎都	-10.9245
相對	-10.9251
何人	-10.9254
精微	-10.9255
等侍衛	-10.9256
台州	-10.9262
以罪	-10.9262
南郊	-10.9263
為陛下	-10.9264
焚之	-10.9265
存之	-10.9265
未甞	-10.9266
只此	-10.927
上曰朕	-10.9274
四十八年	-10.9276
求仁	-10.9276
參議	-10.9278
祖諱	-10.9278
歐陽修	-10.9288
公孫	-10.9289
道體	-10.9289
張俊	-10.9293
徳性	-10.9295
三品	-10.9298
欲使	-10.9298
安慶	-10.9298
得疾	-10.9304
委任	-10.9305
賜號	-10.9306
朝奉郎	-10.9307
阿克蘇	-10.9307
老矣	-10.9309
蔑	-10.9309
達爾扎	-10.931
二等台吉	-10.931
梧	-10.931
婉	-10.9311
股肱	-10.9311
猜	-10.9311
捫	-10.9312
掘	-10.9312
欽定四庫全書閩中理學淵源考卷	-10.9313
舶	-10.9313
吞	-10.9314
須臾	-10.9314
去就	-10.9315
訓詁	-10.9315
夷狄	-10.9316
庚申	-10.9317
販	-10.9318
様	-10.9319
覧	-10.932
親切	-10.932
夜半	-10.9321
種種	-10.9321
左僕射	-10.9323
濕	-10.9323
軍旅	-10.9326
彪	-10.9326
怒曰	-10.9327
茹	-10.9327
委曲	-10.9327
程子曰	-10.9327
尼雅哈	-10.9328
秦漢	-10.9328
仕進	-10.9332
若何	-10.9332
殿下	-10.9333
古文	-10.9338
二百餘	-10.9339
襲扎薩克	-10.9344
嗣昌	-10.9344
師魯	-10.9344
一朝	-10.9344
軍叅領	-10.9348
管仲	-10.9352
原任中書	-10.9353
和州	-10.9355
自見	-10.9358
生理	-10.9359
餘衆	-10.9361
見在	-10.9363
徙居	-10.9366
䕶衛	-10.9367
東都	-10.937
荆湖	-10.9371
不存	-10.9374
可觀	-10.9375
天生	-10.9381
有物	-10.9381
之南	-10.9382
見性	-10.9384
鑲藍旗包衣	-10.9385
奉㫖	-10.9387
阿布	-10.9387
嵗餘	-10.939
食邑	-10.9393
第八	-10.9394
未上	-10.9394
告之	-10.9395
建州	-10.9396
嵗月	-10.9397
奈	-10.9397
學官	-10.9401
字徳	-10.9402
有云	-10.9404
晉封	-10.9406
生徒	-10.9407
軍國	-10.9407
盡力	-10.9409
而進	-10.941
處分	-10.941
朝士	-10.941
原任庫掌	-10.9414
狩	-10.9415
髙下	-10.9418
與天地	-10.9418
以上俱係來歸年分無考之人	-10.942
譯	-10.9421
棄官	-10.9422
黄門	-10.9424
頽	-10.9424
凜	-10.9424
鋪	-10.9427
滌	-10.9428
餞	-10.9429
邏	-10.943
遺事	-10.943
黼	-10.943
應天府	-10.9431
忱	-10.9431
衢州	-10.9432
濯	-10.9432
千百	-10.9433
一句	-10.9433
一姓其氏族世居	-10.9435
岑	-10.9435
正白旗包衣	-10.9435
自陳	-10.9435
舍人	-10.9436
不移	-10.9437
何者	-10.9437
東萊	-10.9438
俄而	-10.9439
漕運	-10.9446
十五里	-10.9454
名位	-10.9455
無知	-10.9456
授編修	-10.9457
兩廣	-10.9457
左丞	-10.9464
公因	-10.9465
甚急	-10.9467
沂中	-10.9468
卒以	-10.9469
寧逺	-10.9474
乎對曰	-10.948
互相	-10.948
部落	-10.9483
叅領兼佐領	-10.9487
隨事	-10.9487
所由	-10.949
土木	-10.9493
奏乞	-10.9496
特恩	-10.9497
致祭	-10.9497
加以	-10.95
勤王	-10.9502
忠良	-10.9504
昔者	-10.9505
洪武中	-10.9506
建文	-10.9508
直道	-10.9515
司業	-10.9516
性體	-10.9522
絃	-10.9524
銑	-10.9525
郵	-10.953
縳	-10.9534
楫	-10.9534
詎	-10.9535
一等男	-10.9536
蔵	-10.9536
孜孜	-10.9536
青苗	-10.9536
莅	-10.9537
縉紳	-10.9538
顥	-10.9538
甄	-10.9539
是性	-10.9539
一變	-10.9539
忻	-10.954
巴雅爾	-10.954
裹	-10.954
東坡	-10.954
户部主事	-10.9541
其力	-10.9541
謂此	-10.9544
乙亥	-10.9546
頃刻	-10.9546
改隸	-10.9546
為己任	-10.9547
乃還	-10.9548
奉行	-10.955
冬十月	-10.955
軍政	-10.9557
尼喀	-10.9559
當自	-10.9564
乃能	-10.9565
將兵	-10.9566
私欲	-10.9567
請老	-10.9568
請罷	-10.9571
保原任	-10.9574
不平	-10.9577
何異	-10.9578
知開封府	-10.9584
者謂之	-10.9587
乃與	-10.9592
襲扎薩克多羅郡王	-10.9594
岱原任	-10.9596
一次襲	-10.9599
勝非	-10.9602
方今	-10.9603
責其	-10.9606
不欺	-10.9606
始至	-10.9609
丙	-10.9616
四千	-10.9623
丈夫	-10.9624
寧夏	-10.9624
先人	-10.9624
敘功授雲騎尉	-10.9627
一理	-10.9628
三世	-10.9628
公即	-10.9628
一節	-10.9628
卓爾	-10.9629
齊克	-10.9631
官制	-10.9634
義利	-10.9635
中大夫	-10.9637
祕	-10.9641
具慶下第	-10.9646
錮	-10.9647
猝	-10.9647
爻	-10.9649
峭	-10.9649
宼	-10.9649
樞宻副使	-10.965
嬉	-10.965
瑟	-10.9651
苐	-10.9651
爛	-10.9652
近侍	-10.9652
址	-10.9653
粥	-10.9653
剽	-10.9654
端倪	-10.9654
太常寺	-10.9655
上亦	-10.9656
夣	-10.9656
藤	-10.9656
大行	-10.9657
殞	-10.9658
竿	-10.966
長白山	-10.9662
中書省	-10.9664
太宗皇帝	-10.9667
誠敬	-10.967
頭等侍衞	-10.967
不衰	-10.9673
都指揮使	-10.9675
稍稍	-10.9677
考績	-10.9678
趙鼎	-10.9682
惻然	-10.9683
由䕶軍校	-10.9683
諸君子	-10.9685
謂人曰	-10.9685
赫訥	-10.9685
要在	-10.9687
畢竟	-10.9687
何其	-10.9688
以語	-10.9688
保全	-10.9688
道義	-10.9688
改𨽻	-10.9689
後生	-10.9694
扈駕	-10.9697
無幾	-10.9697
京西	-10.9697
下車	-10.9699
曰吾聞	-10.9701
科爾沁地方	-10.9702
生子	-10.9704
黙識	-10.9704
先生謂	-10.9711
是月	-10.9714
物格	-10.9717
尚書省	-10.9719
三萬	-10.9723
患難	-10.9724
城縣	-10.9726
之治	-10.9735
征雲南	-10.9739
公曰吾	-10.9742
鑲黄旗人	-10.9742
八人	-10.9746
乎哉	-10.9747
與弟	-10.9752
為御史	-10.9752
四十三年	-10.9753
不遺	-10.9753
大戰	-10.9755
祖考	-10.9756
裡	-10.9758
憎	-10.9758
處事	-10.976
國子博士	-10.976
不意	-10.976
緣事革退	-10.9762
愽	-10.9762
閣待制	-10.9764
凋	-10.9765
覘	-10.9766
吳爾	-10.9766
汲汲	-10.9767
夭	-10.9768
廂	-10.977
蒞	-10.977
静中	-10.9772
郁	-10.9773
飄	-10.9775
賓客	-10.9775
稍長	-10.9776
映	-10.9776
兄子	-10.9782
松阿	-10.9783
五萬	-10.9784
侂冑	-10.9785
議事	-10.9786
無乃	-10.9788
文宣王	-10.9789
石亨	-10.9789
補外	-10.9791
月餘	-10.9796
起兵	-10.9797
利病	-10.9799
略曰	-10.9799
襲扎薩克輔國公	-10.9799
通鑑	-10.98
金紫	-10.9803
于家	-10.9808
復請	-10.981
百五十	-10.9813
多見	-10.9818
後漢	-10.9818
友人	-10.982
賴以	-10.9823
楊時	-10.9826
招降	-10.9826
伏望	-10.9831
文書	-10.9835
者固	-10.9837
遣之	-10.9839
烏蘇	-10.9847
係隸滿洲旗分之䝉古	-10.9848
好古	-10.9848
目之	-10.9849
羣小	-10.9855
四日	-10.9858
實為	-10.9861
壬	-10.9861
辭不受	-10.9862
自明	-10.9863
以寛	-10.9868
一無所	-10.9868
厥後	-10.987
喀爾喀部人姓博爾濟吉特	-10.987
頥浩	-10.987
上流	-10.9871
形氣	-10.9871
衙	-10.9872
豈得	-10.9872
正字	-10.9872
巴朗	-10.9874
機宜	-10.9874
晴	-10.9875
道南源委	-10.9877
煽	-10.9877
餘皆	-10.9878
原係雲騎尉	-10.988
隠居	-10.988
濡	-10.9882
窒	-10.9883
寂然不動	-10.9883
懾	-10.9884
延州	-10.9884
亘	-10.9885
器械	-10.9887
椒	-10.9887
竣	-10.9887
仁宗皇帝	-10.989
街	-10.9891
經綸	-10.9891
剛柔	-10.9893
鞍馬	-10.9895
欽宗	-10.9896
可考	-10.9897
忤㫖	-10.9898
以慰	-10.9901
色克	-10.9901
臣請	-10.9902
莆田人	-10.9903
過失	-10.9907
中軍	-10.991
之徳	-10.9911
之恩	-10.9915
出身	-10.9916
朽	-10.9922
四十七年	-10.9929
襄公	-10.993
髙皇帝	-10.9931
數千里	-10.9934
忠貞	-10.9937
吉甫	-10.9938
原任驍騎校曽孫	-10.9938
勉齋	-10.994
源流	-10.9941
川陜	-10.9943
開門	-10.9944
肖	-10.9945
自相	-10.9947
哈理	-10.9948
族孫	-10.9948
徳行	-10.9949
喜怒哀樂未發	-10.9954
任之	-10.9957
尤甚	-10.996
盡矣	-10.996
故謂之	-10.9964
一門	-10.9965
一時之	-10.9966
九卿	-10.9969
心術	-10.997
淑人	-10.9973
天啓	-10.9976
經歴	-10.9976
外戚	-10.9977
世襲罔替	-10.998
遂定	-10.9984
有子	-10.9984
四十六	-10.9986
稜	-10.9988
烏里雅蘇台	-10.9988
世子	-10.9988
權臣	-10.9988
縁事革退其	-10.9991
章獻	-10.9991
集義	-10.9992
淨	-10.9994
充國	-10.9995
厰	-10.9996
瀛	-10.9996
叅知政事	-10.9997
紓	-10.9997
淳熈	-10.9997
个	-10.9998
帷	-10.9998
諌議大夫	-10.9999
官保	-10.9999
覬	-10.9999
嗾	-11
覃	-11.0001
兾	-11.0001
鐡	-11.0001
按察司	-11.0002
果然	-11.0005
福清	-11.0006
上諭	-11.0006
起家	-11.0008
消息	-11.0008
等官	-11.0008
裒	-11.0008
帙	-11.0009
盛徳	-11.001
征伐	-11.001
琛	-11.001
既歸	-11.001
又從	-11.0012
撫州	-11.0013
志在	-11.002
縱横	-11.0025
遣中使	-11.0025
武子	-11.0025
圖庫	-11.0033
第五子	-11.0035
軍前	-11.0037
淺深	-11.0041
損益	-11.0042
命有司	-11.0044
臣願	-11.0044
典籍	-11.0048
四十餘	-11.0051
士氣	-11.0056
萬殊	-11.0057
原任佐	-11.0057
盗賊	-11.0058
給之	-11.0068
疾苦	-11.0069
來歸年	-11.007
必須	-11.0077
豈無	-11.008
納海	-11.0081
即命	-11.0082
盡忠	-11.0085
中行	-11.0086
廬墓	-11.0086
領兵	-11.0088
昆弟	-11.0088
亦不能	-11.0088
三代之	-11.0089
般	-11.009
其位	-11.0091
克之	-11.0093
右都御史	-11.0094
叔孫	-11.0098
知行	-11.0102
封爵	-11.0103
王者	-11.0106
字季	-11.0106
祖母	-11.0107
袤	-11.0107
處置	-11.0111
上曰卿	-11.0111
現係副䕶軍校	-11.0113
秘閣	-11.0114
文獻	-11.0115
先登	-11.0115
滿都	-11.0115
逖	-11.0115
不第	-11.0116
蔓	-11.0116
蟲	-11.0116
偽學	-11.0118
狡	-11.0118
一介	-11.0119
令尹	-11.012
心學	-11.012
丁亥	-11.012
山海闗	-11.0123
駢	-11.0123
舉兵	-11.0123
來歸年分無考其曽孫	-11.0124
鴈	-11.0126
問答	-11.0126
厓	-11.0127
瑚錫	-11.0129
和碩齊	-11.0129
論性	-11.0129
幻	-11.0129
景祐	-11.0133
之碑	-11.0134
端坐	-11.0136
宗人府	-11.0137
焚其	-11.0137
宋濂	-11.0138
承天	-11.0142
不可謂	-11.0143
國家之	-11.0147
不好	-11.0147
阿克	-11.0152
何由	-11.0158
魏徴	-11.0159
形容	-11.0164
後宫	-11.0166
果有	-11.0168
不服	-11.0169
四曰	-11.017
其議	-11.017
血氣	-11.0171
巴林	-11.0172
有個	-11.0173
王珪	-11.0173
推恩	-11.0173
有功授	-11.0176
使民	-11.0177
一分	-11.0178
而致	-11.0179
大猷	-11.018
作用	-11.0181
四十二年	-11.0182
所生	-11.0182
不可勝	-11.0185
李綱	-11.0187
推誠	-11.0187
易州地方	-11.0188
外物	-11.0189
乆矣	-11.0191
猶在	-11.0196
遂罷	-11.0196
海州	-11.02
大儒	-11.0202
三載	-11.0207
邪説	-11.0209
精明	-11.0211
不屑	-11.0214
獻可	-11.0214
代善	-11.0215
賜祭	-11.0216
從征湖廣	-11.0218
語錄	-11.0218
指為	-11.0219
人之心	-11.0227
其情	-11.0228
察罕丹津	-11.023
出戰	-11.023
瘴	-11.0231
大理寺	-11.0232
五十餘	-11.0233
㪚	-11.0234
諂	-11.0234
文忠公	-11.0234
誄	-11.0235
八品官	-11.0235
以上俱係國初来歸之人	-11.0236
枝葉	-11.0237
襲扎薩克固山貝子	-11.0238
怖	-11.0238
靳	-11.0239
囑	-11.0239
軀	-11.0239
焞	-11.0243
喟然	-11.0244
純粹	-11.0244
宣德	-11.0249
韓琦	-11.025
或勸	-11.0252
曾子	-11.0252
付之	-11.026
戰守	-11.026
公為人	-11.0261
顧問	-11.0262
夏四月	-11.0262
善政	-11.0267
陞南京	-11.027
采石	-11.0274
經書	-11.0275
告以	-11.0277
諫曰	-11.0282
劉豫	-11.0292
在内	-11.0292
今襲	-11.0295
瓦爾喀地方	-11.0296
總是	-11.0299
易學	-11.0301
將來	-11.0304
如之何	-11.0305
真心	-11.0306
為多	-11.0313
尤多	-11.0315
道士	-11.0315
卒于	-11.0319
叅將	-11.0319
孰為	-11.0321
嵗時	-11.0322
土人	-11.0322
五十八	-11.0323
今天下	-11.0324
只要	-11.0327
歸年分無考	-11.0328
師還	-11.0329
不敢言	-11.0329
只是一	-11.0329
豁	-11.0332
富民	-11.0333
都指揮	-11.0333
間斷	-11.0333
總兵官	-11.0334
授為騎都尉	-11.0336
氏族世居	-11.0338
南軒	-11.034
闕里	-11.0342
金兵	-11.0343
何等	-11.0344
詔封	-11.0345
顔氏	-11.0345
克錫	-11.0345
分無考其曽孫	-11.0346
授為三等輕車都尉	-11.0349
禮儀	-11.035
山隂	-11.0352
欒	-11.0356
不豫	-11.0356
入太學	-11.0356
莒	-11.0357
蘇尼特	-11.0358
豕	-11.0358
涖	-11.0359
檀	-11.0359
開府儀同三司	-11.036
擯	-11.036
端明殿學士	-11.036
幅	-11.0361
者多矣	-11.0361
一以貫之	-11.0361
大水	-11.0361
譁	-11.0364
欲求	-11.0364
癸巳	-11.0364
當先	-11.0364
吿	-11.0364
後主	-11.0365
不甚	-11.0365
轅	-11.0365
而弗	-11.0366
綰	-11.0367
迴	-11.0367
祖禹	-11.0368
浮屠	-11.0368
梏	-11.037
▁初来歸其子	-11.037
加太子太保	-11.0371
其害	-11.0372
皷	-11.0372
忠肅	-11.0372
頸	-11.0373
紿	-11.0375
商賈	-11.0377
假借	-11.0378
石門	-11.0383
風采	-11.0383
四十九	-11.0384
下詔獄	-11.0385
鑲紅旗人	-11.0387
丕揚	-11.0387
禦之	-11.0391
利用	-11.0392
言陛下	-11.0393
合一	-11.0394
入内	-11.0398
特赫	-11.0398
色勒	-11.0398
即所謂	-11.0399
巴延	-11.0399
瀋陽	-11.0399
江北	-11.04
委署䕶軍叅領	-11.0404
看得	-11.0404
入海	-11.0407
西寧	-11.0409
太息	-11.041
恐其	-11.0411
黒龍江	-11.0411
而後有	-11.0412
無定	-11.0412
稽古	-11.0413
字文	-11.0415
元定	-11.0416
光宗	-11.0417
惡其	-11.0419
浩善	-11.0425
操存	-11.0426
星阿	-11.0429
在京	-11.0432
海道	-11.0435
婺	-11.0436
恩格	-11.0439
授一等台吉	-11.044
殆盡	-11.044
大旱	-11.0441
日新	-11.045
能盡	-11.0454
未足	-11.0456
文靖	-11.0456
逹色	-11.0457
齊國	-11.046
鑲黄旗包衣管領下人世居	-11.0462
冢	-11.047
存焉	-11.0473
甲科	-11.0474
慶歴	-11.0474
天聰時來歸	-11.0475
陀	-11.0477
槖	-11.0478
裨	-11.0478
垢	-11.0478
吁	-11.048
圉	-11.048
翟	-11.0481
譛	-11.0481
上遣	-11.0482
竅	-11.0482
駟	-11.0483
二氏	-11.0485
渚	-11.0485
不愧	-11.0486
藹	-11.0486
丙寅	-11.0487
水軍	-11.0487
瓦爾達	-11.0487
甥	-11.0487
遯	-11.0487
轂	-11.0487
隳	-11.0488
摯	-11.0489
臆	-11.049
扞	-11.049
自稱	-11.0491
既得	-11.0491
也於是	-11.0493
咸平	-11.0495
縷	-11.0495
褐	-11.0496
現任中書	-11.0496
博爾濟	-11.0498
單騎	-11.05
之所以為	-11.0501
五世	-11.0502
和卓	-11.0502
之基	-11.0503
稽首	-11.0507
猶可	-11.0507
清河	-11.0511
名教	-11.0514
復還	-11.0514
御史臺	-11.0514
遵化	-11.0515
全斌	-11.0516
萬餘人	-11.0517
文肅	-11.0517
西川	-11.0521
爾漢	-11.0522
江夏	-11.0535
積累	-11.0536
無所得	-11.054
有功授雲騎尉	-11.0543
正言	-11.0546
一世	-11.0547
召問	-11.0547
城郭	-11.0552
分道	-11.0556
英額	-11.0557
詔授	-11.0559
交章	-11.0561
難矣	-11.0564
關中	-11.0566
具奏	-11.0566
衡州	-11.0568
語言	-11.0574
當阿	-11.0579
不務	-11.0579
也陛下	-11.058
今年	-11.0581
良臣	-11.0582
不設	-11.0583
武夷	-11.0585
史記	-11.0593
駝	-11.0598
章奏	-11.0599
原任親軍校	-11.0601
聖主	-11.0603
自若	-11.0603
彥博	-11.0605
州教授	-11.0605
不懈	-11.0606
珏	-11.0608
六百	-11.0608
二卷	-11.0608
鷹	-11.0609
輜重	-11.0609
攀	-11.0609
江浙	-11.0611
椿	-11.0611
濓溪	-11.0612
㤀	-11.0612
馨	-11.0614
甸	-11.0614
臥	-11.0615
瑚圖	-11.0615
梟	-11.0615
阿濟格	-11.0615
去位	-11.0616
所獲	-11.0616
優詔	-11.0617
辨之	-11.0619
不踰	-11.0619
廣平	-11.0619
釋奠	-11.062
仍令	-11.0621
東山	-11.0621
潁川	-11.0622
乙巳	-11.0623
燔	-11.0626
築室	-11.0626
現任六品官	-11.0628
究竟	-11.0628
龍山	-11.0629
冬至	-11.0639
諾穆	-11.0639
北面	-11.0641
白雲	-11.0641
易簡	-11.0643
學教授	-11.0645
諸家	-11.0645
實踐	-11.0647
發憤	-11.0656
兵三千	-11.0656
不可用	-11.0662
惠安	-11.0662
山水	-11.0665
何益	-11.0671
九日	-11.0673
死矣	-11.0676
備禦	-11.0677
之所為	-11.0678
八日	-11.0683
念頭	-11.0687
姓氏	-11.0689
哈喇	-11.0689
侍御	-11.0691
忠節	-11.0692
與兄	-11.0694
專以	-11.0696
鄆	-11.0696
顔色	-11.0699
格現任	-11.0701
學派按	-11.0711
翕	-11.0711
此便是	-11.0715
力請	-11.0717
魯齋	-11.0723
殿前	-11.0725
討論	-11.0726
賊兵	-11.0726
琨	-11.0727
官爵	-11.0728
錫爾	-11.0729
雍正元年	-11.073
摇	-11.0732
繳	-11.0732
儀禮	-11.0732
箋	-11.0733
萬物之	-11.0734
兗州	-11.0735
天下後世	-11.0735
絀	-11.0736
未襲	-11.0736
舘	-11.0737
喚	-11.0738
歷	-11.0738
遞	-11.0739
邠	-11.0739
庚寅	-11.074
礦	-11.0741
煜	-11.0742
槁	-11.0742
戀	-11.0742
炙	-11.0742
紛紜	-11.0742
只是一個	-11.0743
人望	-11.0743
稼	-11.0744
襃	-11.0745
克己	-11.0748
孝孺	-11.0749
封還	-11.075
南征	-11.0756
福寧	-11.0756
賢才	-11.076
天心	-11.0762
獄中	-11.0764
楚材	-11.0764
卒年四十	-11.0767
些子	-11.077
和理	-11.0776
拒戰	-11.0778
綱目	-11.0779
何哉	-11.078
公曰此	-11.0782
萬全	-11.0783
相國	-11.0783
徙牧	-11.0786
天地之心	-11.0789
曽子	-11.079
秉政	-11.079
原任員外	-11.0804
散處於	-11.0805
大雨	-11.0808
被召	-11.0811
進用	-11.0818
篤志	-11.0822
固請	-11.0823
公薨	-11.0825
鄭氏	-11.0826
切責	-11.0827
廣徳	-11.0829
臺省	-11.0831
天機	-11.0835
任郎中	-11.0836
費雅	-11.0836
水利	-11.0837
公輔	-11.0837
格致	-11.0837
語黙	-11.0843
托和	-11.0844
具疏	-11.0845
先正	-11.0847
旺舒克	-11.0847
興起	-11.0848
朝野	-11.0849
額琳沁	-11.0851
衣服	-11.0852
待詔	-11.0853
宣撫司	-11.0853
土謝圖汗	-11.0853
其孤	-11.0854
部曲	-11.0855
柱原任	-11.0856
泗州	-11.0856
現係副驍騎校	-11.0857
正白旗包衣旗鼓人世居瀋陽地方來	-11.0858
立教	-11.0858
鄉舉	-11.0858
文淵閣	-11.086
鐫	-11.086
譙	-11.0862
軼	-11.0862
囬	-11.0862
耄	-11.0863
餌	-11.0863
視聽言動	-11.0864
此之謂也頌曰	-11.0864
鎰	-11.0864
䟦	-11.0866
洮	-11.0866
在其中	-11.0866
鳩	-11.0867
疫	-11.0867
煬	-11.0867
雀	-11.0868
汎	-11.0869
臣愚	-11.0869
構	-11.0871
隨大軍	-11.0871
虢	-11.0872
三格	-11.0872
章惇	-11.0873
之流行	-11.0875
禪學	-11.0877
凡三	-11.0877
剛毅	-11.0877
賜白金	-11.0878
附之	-11.0882
父諱	-11.0882
不惑	-11.0882
此身	-11.0884
七十二	-11.0884
髙弟	-11.0885
常山	-11.0886
進呈	-11.089
髙麗	-11.0893
制置使	-11.0893
千金	-11.0894
維揚	-11.0894
神仙	-11.0895
四十九年	-11.0896
世間	-11.0901
三路	-11.0902
曰今日	-11.0902
六十里	-11.0903
功利	-11.0904
三朝	-11.0904
皇甫	-11.0904
奪情	-11.0904
立廟	-11.0906
訥殷地方	-11.0909
伏兵	-11.0909
貢士	-11.0915
黨人	-11.0916
從遊	-11.0917
流民	-11.0921
錫爵	-11.0922
通書	-11.0922
泰州	-11.0935
學宫	-11.0937
五十六	-11.0942
五十年	-11.0943
七十餘	-11.0943
地方人其曾孫	-11.0946
武進	-11.095
恩信	-11.096
自欺	-11.096
晏子對㠯	-11.0976
而况	-11.0977
東京	-11.0977
貫通	-11.0978
嗜學	-11.0979
尉卒其子	-11.0979
獲其	-11.0979
詔令	-11.0981
自㓜	-11.0982
鄂木布	-11.0985
歴代	-11.0986
神武	-11.0986
自負	-11.0987
卓哩克圖	-11.0987
迤	-11.0988
武英殿大學士	-11.0988
▁初率	-11.099
慄	-11.0991
擴	-11.0991
天下士	-11.0991
經理	-11.0992
紇	-11.0992
儘	-11.0993
無由	-11.0994
竟以	-11.0995
誚	-11.0995
冨	-11.0996
沖	-11.0996
噶爾丹䇿凌	-11.0996
床	-11.0998
別	-11.0998
慟哭	-11.0999
紫峰	-11.0999
太子太師	-11.1
棨	-11.1
寥	-11.1
鄴	-11.1001
壑	-11.1001
浦城	-11.1001
畋	-11.1002
當今	-11.1002
景仁	-11.1003
其墓	-11.1003
一段	-11.1004
孩提	-11.1005
邈	-11.1005
大亂	-11.1008
若謂	-11.1015
斬其	-11.1017
綱紀	-11.1018
自為户第	-11.1021
小子	-11.1025
之力也	-11.1025
條上	-11.1027
難得	-11.1028
宿衛	-11.1029
母喪	-11.1031
應天	-11.1034
登極	-11.1035
可得而	-11.1036
乞降	-11.1038
李絳	-11.1039
右丞	-11.104
堯舜之	-11.1043
韓愈	-11.1045
論列	-11.1047
三十二	-11.1047
克塔	-11.1056
置酒	-11.1057
舊臣	-11.106
舉業	-11.1062
瑚理	-11.1063
上書言	-11.1071
文詞	-11.1071
鄉黨	-11.1072
而逝	-11.1077
篤信	-11.1079
亦未嘗	-11.1079
五十里	-11.1079
助教	-11.1081
廓然	-11.1081
二千餘	-11.1082
他事	-11.1085
有不善	-11.1085
友愛	-11.1087
監修	-11.109
為户第	-11.1093
白石	-11.1094
不可奪	-11.1095
與物	-11.1097
濟農	-11.1099
潛心	-11.1102
原任知縣	-11.1104
良久	-11.1105
天變	-11.1106
謚曰	-11.1107
臣不敢	-11.1109
吕氏	-11.111
巴里坤	-11.1112
酣	-11.1115
叡	-11.1117
年九十	-11.1118
蝕	-11.1118
炯	-11.1119
宣教郎	-11.1119
氏係隸滿洲旗分之高麗	-11.112
燦	-11.1123
两	-11.1123
甲胄	-11.1124
擴充	-11.1124
縫	-11.1124
寤	-11.1125
帯	-11.1125
敇	-11.1126
太平興國	-11.1126
塹	-11.1126
定議	-11.1127
鍊	-11.1127
抽	-11.1127
潦	-11.1128
鴻臚	-11.1129
芒	-11.1129
鑲	-11.1129
鎬	-11.1129
貿	-11.1129
信州	-11.1132
惜其	-11.1133
虹	-11.1133
庶㡬	-11.1134
形於	-11.1137
尺寸	-11.1137
亳州	-11.1137
爾薩	-11.1139
成誦	-11.1139
國勢	-11.1143
朝臣	-11.1148
騎兵	-11.1149
餘姚	-11.1151
此豈	-11.1153
同郡	-11.1154
岳飛	-11.1154
少孤	-11.1156
遣將	-11.1158
乘勝	-11.1159
都堂	-11.116
太過	-11.1166
文敏	-11.1167
赫爾	-11.1167
自幼	-11.1168
莫知其	-11.1176
斯言	-11.1177
乞罷	-11.1177
銀幣	-11.1177
杏山	-11.1181
淮陽	-11.1183
理宗	-11.1183
黄河	-11.1185
相應	-11.1186
爾渾	-11.1188
襲職卒	-11.1191
五格	-11.1193
等䕶衛	-11.1201
巴拜	-11.1204
上皇	-11.1205
聖賢之學	-11.1206
周程	-11.1207
被執	-11.1207
忌之	-11.1214
急務	-11.1214
妄言	-11.1215
俱現任	-11.1219
馬步兵	-11.1224
亦原	-11.1226
世道	-11.1228
和爾	-11.123
何敢	-11.1233
宣王	-11.1236
首領	-11.1238
大觀	-11.124
上疏請	-11.1244
青衮咱卜	-11.1245
興國	-11.1245
篤實	-11.1246
永福	-11.1246
陲	-11.1248
申公	-11.1248
係國初來歸之人	-11.1249
完顔	-11.125
幄	-11.125
北山	-11.1253
榆	-11.1255
營撥守	-11.1256
釋褐	-11.1256
来歸年分	-11.1257
艦	-11.1258
生物	-11.1258
自覺	-11.1259
諍	-11.1259
著作郎	-11.126
四面	-11.126
牖	-11.1261
博貝	-11.1262
瘁	-11.1263
腰	-11.1263
泚	-11.1263
癸卯	-11.1263
翳	-11.1264
閨	-11.1264
毗	-11.1264
歩軍校	-11.1265
做得	-11.1266
兄之子	-11.1267
治民	-11.1268
刑罰	-11.1269
殿中丞	-11.1271
骨肉	-11.1271
蘇軾	-11.1272
柰何	-11.1273
薊州	-11.1274
廟實録	-11.1276
字彦	-11.1276
做工夫	-11.1277
之本體	-11.128
驍騎	-11.1282
易傳	-11.1284
兼侍讀學士	-11.129
原任長史	-11.1295
原任筆帖式四世孫	-11.1297
原任筆帖式曽孫	-11.13
無一毫	-11.1301
聖人之學	-11.1303
伊尹	-11.1306
儼然	-11.1307
恩詔授	-11.1309
現任䕶	-11.1309
一新	-11.1309
宫室	-11.131
忠武	-11.1312
兵陣亡	-11.1315
降襲	-11.1316
太上皇	-11.1321
臨御	-11.1327
竭力	-11.1327
諸台吉	-11.1328
有時而	-11.1331
許州	-11.1333
希憲	-11.1334
去國	-11.1334
臨朝	-11.1341
六日	-11.1343
尚寳	-11.1343
近習	-11.1347
執法	-11.1348
靈明	-11.1348
考諱	-11.1351
彼此	-11.1354
正德	-11.1356
依舊	-11.1356
司郎中	-11.1356
擢用	-11.1358
朕心	-11.1364
仁義之	-11.137
優授	-11.1371
順應	-11.1371
儒士	-11.138
留中	-11.138
贒	-11.1381
帝怒	-11.1383
卒於官	-11.1383
山海	-11.1386
訾	-11.1387
寳慶	-11.1387
現任三等侍衞	-11.1388
劾奏	-11.1389
恩詔加至三等輕車都尉	-11.139
廬山	-11.1391
果爾	-11.1391
丁外艱	-11.1391
鳯翔	-11.1393
授受	-11.1393
綵	-11.1394
慿	-11.1394
徤	-11.1394
逓	-11.1395
僉都御史	-11.1395
猥	-11.1395
侗	-11.1395
羮	-11.1396
提㸃	-11.1397
寡欲	-11.1398
太祖髙皇帝	-11.14
舉於鄉	-11.14
襲鎮國公	-11.1401
擣	-11.1401
萼	-11.1402
沙喇	-11.1403
縊	-11.1405
中書侍郎	-11.1405
厦門	-11.1405
楚州	-11.1406
象昇	-11.1412
拉哈	-11.1412
岳託	-11.1415
卒後	-11.1416
任步軍校	-11.1417
明主	-11.1417
平生所	-11.1417
四十八	-11.1419
勸上	-11.1421
光祿	-11.1425
施於	-11.1426
黒色	-11.1427
為小人	-11.1428
大略	-11.1429
㕘議	-11.1431
非其人	-11.1431
堅守	-11.1432
阿海	-11.1433
河南府	-11.1433
革退	-11.1436
其材	-11.1437
海口	-11.1438
悉平	-11.1439
宗伯	-11.1442
之所在	-11.1443
變易	-11.1445
鏡山	-11.1445
失所	-11.1446
明道先生	-11.1446
索爾	-11.1448
兩河	-11.145
詔下	-11.145
草堂	-11.1453
語之曰	-11.1454
後先	-11.1455
六部	-11.1456
等護衛	-11.1458
為國家	-11.1463
如何曰	-11.1464
舒書	-11.1465
聖意	-11.1468
三十八年	-11.1469
無主	-11.1471
天下之事	-11.1484
物欲	-11.1487
反復	-11.1488
續征雲南	-11.1489
就職	-11.1489
瑪哈	-11.1493
亦不敢	-11.15
字景	-11.15
敬則	-11.1506
縣尉	-11.1509
兩府	-11.1512
茫	-11.1513
立祠	-11.1514
成衮扎布	-11.1516
卒其弟	-11.152
國體	-11.1521
現任筆帖	-11.1523
蔡文莊	-11.1524
瀘	-11.1524
雒	-11.1526
不覩不聞	-11.1527
五十九	-11.1529
㓕	-11.1529
䑕	-11.153
勿忘勿助	-11.1531
雋	-11.1531
表章	-11.1532
疵	-11.1532
地方人其元孫	-11.1532
世蕃	-11.1532
己亥	-11.1532
跨	-11.1534
祕閣	-11.1534
耳今	-11.1534
中郎將	-11.1535
為害	-11.1535
泯	-11.1535
上念	-11.1535
妥	-11.1535
杞	-11.1536
喧	-11.1537
瞿	-11.1537
一氣	-11.1538
爌	-11.1539
勞績	-11.154
爐	-11.154
滸	-11.154
編佐領	-11.1542
璞	-11.1544
牛羊	-11.1544
愛敬	-11.1544
羽翼	-11.1546
玉牒	-11.1547
尊號	-11.1549
為盜	-11.1551
逾年	-11.1553
追贈	-11.1553
所傳	-11.1554
上疏論	-11.1554
累年	-11.1554
所造	-11.1554
賊黨	-11.1558
銜之	-11.1558
顧謂	-11.1563
尋改	-11.1564
文仲	-11.1565
原任藍翎侍衞	-11.1565
承襲卒其子	-11.1566
年譜	-11.1568
矢石	-11.1569
更相	-11.1571
太白	-11.1573
季子	-11.1573
忠直	-11.1574
讀易	-11.1581
菴先生	-11.1584
布爾哈	-11.1585
與弼	-11.1585
甲第	-11.1585
二十名	-11.1586
冠服	-11.1586
起居注	-11.1588
語孟	-11.1589
綏分地方	-11.1589
晏然	-11.1594
塞爾	-11.1595
自强	-11.1596
蔡氏	-11.1599
不失其	-11.1599
觀望	-11.1601
世職	-11.161
大國	-11.1611
髙第	-11.1614
步軍校	-11.1617
卒於家	-11.1617
視聽	-11.1619
鑲白旗包衣	-11.162
右丞相	-11.1622
多士	-11.1624
治國	-11.1625
存問	-11.1626
心之本體	-11.1628
其親兄之子	-11.1629
六十四	-11.1632
宦者	-11.1632
無厭	-11.1633
寛厚	-11.1634
瑪拉	-11.1635
義勇	-11.1638
青山	-11.1641
江左	-11.1642
四維	-11.1643
為騎都尉	-11.1644
泣曰	-11.1653
講説	-11.1654
奏對	-11.1654
豈敢	-11.1656
子厚	-11.1656
豎	-11.1659
帆	-11.166
避地	-11.166
丑	-11.1661
始祖	-11.1662
翎	-11.1663
以母老	-11.1663
自殺	-11.1664
轡	-11.1664
方略	-11.1664
從父	-11.1665
扎薩克固山貝子	-11.1665
現任親軍校	-11.1666
邇英	-11.1666
䛕	-11.1666
按察副使	-11.1667
恩詔加一雲騎尉	-11.1668
有警	-11.1668
觀文殿學士	-11.1669
撲	-11.1669
訕	-11.1669
改容	-11.1671
糜	-11.1671
乙卯	-11.1671
㤙	-11.1671
鎗	-11.1671
▁初来歸其孫	-11.1672
皎	-11.1672
欽定四庫全書八旗滿洲氏族通譜目録	-11.1672
郡國	-11.1673
黜陟	-11.1674
踞	-11.1674
杯	-11.1675
奮勉	-11.1675
沸	-11.1675
纍	-11.1675
簽書	-11.1679
超然	-11.168
當路	-11.1682
者心之	-11.1682
國鑲紅旗人世居	-11.1682
吉凶	-11.1685
相顧	-11.1687
匹夫	-11.1688
物理	-11.1691
既定	-11.1691
萬緡	-11.1692
理義	-11.1692
唐書	-11.1694
阿爾泰	-11.1694
金壇	-11.1694
丁巳	-11.1699
賞賚	-11.1699
虛靈	-11.1699
財賦	-11.1701
曜	-11.1703
不患	-11.1705
屯兵	-11.1709
現任䕶軍	-11.1711
獻子	-11.1713
西拉木楞地方	-11.1716
逆黨	-11.1717
三百餘	-11.1719
僕射	-11.1727
奮擊	-11.173
真卿	-11.1735
念慮	-11.1735
有形	-11.1738
至尊	-11.174
也然則	-11.1741
交通	-11.1744
千秋	-11.1749
季氏	-11.175
自持	-11.1751
東閣	-11.1751
協領	-11.1754
同異	-11.1754
章疏	-11.1755
鄂對	-11.1756
既成	-11.1756
千戸	-11.1758
登科	-11.1759
伊勒	-11.176
保甲	-11.1762
益堅	-11.1765
四十一年	-11.1766
智髙	-11.1767
十有二	-11.1781
生員	-11.1782
授為一等輕車都尉	-11.1786
七品	-11.1786
指揮使	-11.1787
愛君	-11.1794
成祖	-11.1794
頭等䕶衛	-11.1795
切直	-11.1796
正紅旗人世居	-11.1796
安得不	-11.1797
奭	-11.1801
羙	-11.1802
黠	-11.1802
葵	-11.1803
分司	-11.1804
罷相	-11.1804
蟒	-11.1805
扎庫木地方	-11.1805
恂恂	-11.1807
十五日	-11.1808
莱	-11.1809
梯攻	-11.1809
療	-11.1811
右係國初來歸之人	-11.1811
四端	-11.1811
儆	-11.1812
髯	-11.1812
馘	-11.1814
知無不言	-11.1815
延年	-11.1816
凍	-11.1817
昱	-11.1819
力言	-11.1821
策凌	-11.1822
剔	-11.1822
工詩	-11.1823
松花江地方	-11.1826
丹徒	-11.1831
原任藍翎侍衛	-11.1831
慰勞	-11.1831
涇陽	-11.1832
兼權	-11.1835
河地方	-11.1837
景帝	-11.1838
之為人	-11.1839
武備	-11.1844
所記	-11.1845
新城	-11.1847
後因	-11.1848
司直	-11.185
父喪	-11.1852
十八日	-11.1853
訃聞	-11.1857
詰之	-11.1857
立碑	-11.1859
忠恕	-11.1863
發見	-11.1865
行營	-11.1869
貧者	-11.1872
科道	-11.1874
花色	-11.1878
撫順	-11.1887
儒林	-11.1888
狀元	-11.189
無一人	-11.1892
召用	-11.1893
修起居注	-11.1893
古理	-11.1895
原任護軍校	-11.19
邵子	-11.1903
偏圖	-11.1915
封多羅貝勒	-11.1922
忠定	-11.1928
三尺	-11.193
孥	-11.1933
二十九	-11.1936
授徒	-11.1937
家法	-11.1939
阿里	-11.1939
降詔	-11.1941
無不善	-11.1943
○○	-11.1944
惓惓	-11.1946
鑲藍旗包衣人世居瀋陽地方	-11.1946
原任頭等䕶衞	-11.1947
帝即位	-11.1947
晋	-11.1947
拈	-11.195
鄜延	-11.195
恍	-11.195
劫	-11.195
滔	-11.1951
原係副驍騎校	-11.1951
蠱	-11.1951
情識	-11.1952
邃	-11.1952
蒐	-11.1952
上封事	-11.1953
郝	-11.1954
國子司業	-11.1954
淆	-11.1955
大中祥符	-11.1955
殃	-11.1956
仝	-11.1957
享年六十	-11.1958
嘿	-11.1961
鋤	-11.1961
者莫不	-11.1962
焚香	-11.1963
洪範	-11.1963
羞惡	-11.1965
閤門	-11.1966
鹽鐵	-11.1966
屑	-11.1967
成帝	-11.1969
七百	-11.1973
祠堂	-11.1973
若干卷	-11.1975
雙江	-11.1975
督兵	-11.1975
累日	-11.198
大學之	-11.1981
金幣	-11.1989
後儒	-11.1993
統領	-11.1995
兩路	-11.1996
存柱	-11.2003
叙功授	-11.2005
犯法	-11.2006
孫權	-11.2006
宣帝	-11.2009
襲職遇	-11.2009
也是故	-11.201
感泣	-11.2012
屏山	-11.2016
講習	-11.2017
入境	-11.2023
四十四年	-11.2023
汀	-11.2025
盡性	-11.2025
英廟	-11.2025
三十四年	-11.2027
北伐	-11.2029
晏子對	-11.2029
謹按	-11.2029
嘗問	-11.203
東漢	-11.2032
三十四	-11.2032
復辟	-11.2036
思孝	-11.2038
賢士大夫	-11.2041
松江	-11.2041
虚靈	-11.2041
襲職從征	-11.2047
兼佐	-11.205
委署	-11.2052
入蜀	-11.2052
行臺	-11.2054
三等子	-11.2054
第六	-11.2057
嘗論	-11.2058
立國	-11.206
閒居	-11.2062
胡廣	-11.2064
特命	-11.2064
從事於	-11.2065
高祖	-11.207
鄂州	-11.2074
我朝	-11.2079
蘇赫	-11.2084
貼	-11.2085
光祿大夫	-11.2088
諸縣	-11.2089
酉	-11.2092
磐	-11.2093
渇	-11.2094
放心	-11.2096
纒	-11.2098
偹	-11.2099
隄	-11.2099
鹵	-11.2099
剴切	-11.21
儁	-11.21
嗇	-11.21
舟中	-11.2101
弋	-11.2102
股	-11.2103
俯仰	-11.2103
漆	-11.2103
愉	-11.2106
瞽	-11.2106
淳祐	-11.2107
哥	-11.2108
將吏	-11.2109
於其間	-11.2109
劉光世	-11.211
韓世忠	-11.2111
百僚	-11.2111
丁謂	-11.2112
無恙	-11.2113
特穆爾	-11.2114
原係監生	-11.2115
以本官	-11.2117
東廓	-11.212
視朝	-11.2124
修徳	-11.2126
經營	-11.2128
七八	-11.2128
休息	-11.2128
詩集	-11.213
退居	-11.213
駐兵	-11.2132
御書	-11.2134
為人所	-11.2134
現任歩軍校	-11.2145
無辜	-11.2146
勝負	-11.2151
遺文	-11.2151
扎薩克多羅郡王	-11.2156
辦理	-11.2156
七品官	-11.2163
三十九年	-11.2165
宣力	-11.2166
永樂中	-11.2166
聖心	-11.217
劄子	-11.2172
開府	-11.2179
是之謂	-11.2185
可勝	-11.2187
楚子	-11.2187
冠帶	-11.2191
又徙	-11.2191
敵騎	-11.2192
自劾	-11.2194
兵二千	-11.2196
泰原	-11.2197
杏	-11.2198
驚曰	-11.2198
戊	-11.2198
本然之	-11.2199
戰功	-11.2203
中傷	-11.2203
方人其	-11.2209
空言	-11.2211
以文學	-11.2212
永寧	-11.2218
龍江	-11.222
觀察使	-11.222
春正月	-11.2225
田地	-11.2226
統兵	-11.2226
首先	-11.2227
正黄旗包衣管領下人世居瀋陽地方	-11.2227
民困	-11.223
校官	-11.2235
沽	-11.2237
天章閣待制	-11.2238
達克	-11.2238
承務郎	-11.2239
薛文清	-11.224
襲五次襲	-11.224
蠡	-11.224
永泰	-11.2241
仞	-11.2242
札魯特地方	-11.2242
咏	-11.2243
頭腦	-11.2243
二次襲	-11.2244
杲	-11.2245
卵	-11.2245
喫	-11.2246
磨滅	-11.2247
愠	-11.2247
萬安	-11.2248
撼	-11.2249
蟠	-11.2249
蒸	-11.2249
上親征	-11.225
洵	-11.225
岷	-11.2251
犀	-11.2252
稀	-11.2252
稚	-11.2253
布政司	-11.2255
考其孫	-11.2259
引咎	-11.2259
為己	-11.2264
四品	-11.2264
其餘無事蹟可立傳者附載於後鑲黄旗	-11.2266
首尾	-11.2268
兩月	-11.2269
華亭	-11.2276
以此為	-11.2276
境上	-11.2278
十五人	-11.2285
輝特	-11.2287
宣州	-11.2288
伏闕	-11.2291
赫色	-11.2292
長子雍正	-11.2293
在廷	-11.2299
筵	-11.2301
必勝	-11.2306
指示	-11.2309
綽爾	-11.2317
叅議	-11.2318
伊等	-11.2325
詞章	-11.2332
越州	-11.2333
相接	-11.2338
總領	-11.234
明覺	-11.234
渾春地方	-11.2342
部衆	-11.2348
三十七年	-11.2352
以疾卒	-11.2354
道輔	-11.2357
潞公	-11.236
亦可以	-11.2372
城陷	-11.2373
魯國	-11.2373
萬世之	-11.2378
江山	-11.2381
薩爾圖	-11.2381
不恱	-11.2382
己酉	-11.2387
原任二等䕶衞	-11.2387
命乾清門行走	-11.2387
子瞻	-11.2389
鑲黃旗	-11.2389
自勵	-11.2389
諄諄	-11.239
由正白旗改隸	-11.2391
感而遂通	-11.2391
鄒元標	-11.2393
戡	-11.2394
汶	-11.2394
中書舎人	-11.2395
紐	-11.2395
尅	-11.2395
怵惕	-11.2396
通政使	-11.2396
种	-11.2396
燾	-11.2396
祉	-11.2397
徳裕	-11.2397
企	-11.2397
朕意	-11.2398
因病告退其子	-11.2399
不啻	-11.2399
淄	-11.24
鄱陽	-11.2401
這個	-11.2401
丸	-11.2401
数	-11.2401
吏部左侍郎	-11.2401
洙泗	-11.2402
莘	-11.2404
擊敗賊偽將	-11.2404
認得	-11.2405
趙南星	-11.2405
奐	-11.2405
了翁	-11.2407
潯	-11.2407
馥	-11.2409
奏罷	-11.241
不煩	-11.2416
江湖	-11.2423
賢否	-11.2426
北門	-11.2426
二十七日	-11.2426
大器	-11.2427
擊敗賊偽	-11.2427
納木	-11.2435
婦女	-11.2435
夷簡	-11.2436
六七	-11.2441
勞苦	-11.2449
未詳	-11.2449
户口	-11.2456
長適	-11.2457
奏聞	-11.2458
入侍	-11.246
越王	-11.2461
吾儕	-11.2462
失利	-11.2463
昭昭	-11.2463
疾革	-11.2463
韶州	-11.2466
力争	-11.2469
布魯	-11.2475
墨爾	-11.2485
告急	-11.249
登額	-11.2495
阿都	-11.2498
市易	-11.2502
倉庫	-11.2502
哈什	-11.2502
果能	-11.2503
不敢犯	-11.2505
恭敬	-11.2505
什泰	-11.2508
天津	-11.2511
登進士	-11.2512
原任包衣大	-11.2513
日久	-11.2515
贊善	-11.2516
正黄旗包衣	-11.2518
唐阿	-11.2521
千餘衆	-11.2529
什哈	-11.2529
不貳	-11.2529
師門	-11.2536
理藩院	-11.2537
嘉興	-11.2538
渤	-11.2538
叛賊	-11.2539
騰機思	-11.254
同中書門下平章事	-11.2541
壹	-11.2542
沅	-11.2544
剰	-11.2544
親叔之子	-11.2544
巍	-11.2544
盎	-11.2545
敗走	-11.2545
杜稜	-11.2545
亾	-11.2546
砥	-11.2546
托克托	-11.2547
轉運司	-11.2547
噶爾瑪	-11.2547
堆	-11.2547
靠	-11.2547
瘡	-11.2549
篋	-11.2549
千總一兵	-11.2549
毓	-11.255
瑣	-11.255
酬酢	-11.255
跳	-11.255
瘞	-11.2551
阨	-11.2551
眩	-11.2552
格物致知	-11.2553
聲臭	-11.2554
不睹不聞	-11.2555
醴	-11.2557
由䕶軍叅領	-11.2557
領鄉薦	-11.2558
蠻夷	-11.2562
馳驛	-11.2562
朱熹	-11.2564
清濁	-11.2565
莭	-11.2565
睡	-11.2566
儒術	-11.2567
宜興	-11.2568
埜	-11.2568
死節	-11.2571
凛然	-11.2573
莆陽	-11.2587
奏曰臣	-11.2588
星額	-11.259
主靜	-11.2592
姑蘇	-11.2593
察哈	-11.2594
歸宿	-11.2598
征四川	-11.2598
自得之	-11.2599
三才	-11.2608
廷對	-11.2608
原任䕶軍校曽孫	-11.2609
駐牧	-11.2614
萬兩	-11.2616
湛然	-11.2618
不能容	-11.2618
疏論	-11.2622
丹巴	-11.2623
謂公曰	-11.2626
衆議	-11.2629
天地之間	-11.2633
伊克	-11.2637
曰不然	-11.2641
吉納	-11.2642
貽書	-11.2644
馬歩兵	-11.2644
戰死	-11.265
河内	-11.2655
持重	-11.2661
兖	-11.2664
海門	-11.2664
牧長	-11.2667
光景	-11.2675
文淵閣大學士	-11.2679
軒先生	-11.2679
伯宗	-11.2681
分殊	-11.2681
賡	-11.2687
世務	-11.2688
阿林	-11.2691
鰲	-11.2691
怕	-11.2695
鈐轄	-11.2697
丁父憂	-11.2697
原任二等侍衞	-11.2699
車布登扎布	-11.2699
設伏	-11.27
擲	-11.27
主考	-11.27
戰艦	-11.2702
餒	-11.2702
玄	-11.2702
旰	-11.2702
右副都御史	-11.2702
㳂	-11.2703
現係副	-11.2703
琢	-11.2703
滿丕	-11.2704
醫藥	-11.2704
﨑	-11.2704
襲扎薩克鎮國公	-11.2705
襍	-11.2705
碣	-11.2706
己卯	-11.2707
濓洛	-11.2707
楨	-11.2707
同平章事	-11.2707
蹤	-11.2708
尙書	-11.2711
秋毫	-11.2712
一燝	-11.2715
虚實	-11.2715
三十萬	-11.2716
物物	-11.2716
蔬食	-11.2718
忠烈	-11.2721
發揮	-11.2721
右布政使	-11.2724
承平	-11.2728
現任三等䕶衛	-11.2729
樞密使	-11.2731
紀律	-11.2737
原任驍騎校曾孫	-11.2741
養氣	-11.2742
少詹事	-11.2745
官職	-11.2745
報可	-11.2746
百餘里	-11.2746
風雲	-11.2757
士風	-11.2761
人也少	-11.2762
真實	-11.2768
如是則	-11.277
妙用	-11.2775
一品	-11.2777
尋除	-11.2779
乘間	-11.2779
直抵	-11.2781
永昌	-11.2782
近溪	-11.2786
歸附	-11.2792
并州	-11.2794
夏侯	-11.2798
郡太守	-11.2804
臨終	-11.2805
死罪	-11.2808
部尚書	-11.2813
從征厄魯特噶爾丹	-11.2819
非徒	-11.2821
紹興初	-11.2825
所不及	-11.2826
輝發地方人其	-11.283
槃	-11.2833
恭格	-11.2836
動作	-11.284
緬	-11.2843
贑	-11.2844
雁	-11.2846
現任䕶軍叅領	-11.2846
現係庫使	-11.2847
酢	-11.2848
磬	-11.2848
琉	-11.2848
漢陽	-11.2848
承制	-11.2848
現任三等䕶衞	-11.285
公奏曰	-11.285
曰然則	-11.2851
嬴	-11.2851
明儒學案卷	-11.2852
癸亥	-11.2855
鄂爾多斯	-11.2855
𨼆	-11.2857
淮安	-11.2857
煉	-11.2858
右係國初来歸之人	-11.2858
承事郎	-11.2859
白水	-11.2863
謫戍	-11.2864
迪功郎	-11.2866
磁	-11.2866
贈雲騎尉	-11.2868
子三長	-11.2868
涇野	-11.2869
秋七月	-11.2876
撃敗	-11.2881
相繼承襲又	-11.2885
禮部郎中	-11.2888
風化	-11.2891
致力	-11.2893
城府	-11.2894
十餘里	-11.2894
永豐	-11.29
都統制	-11.2905
異議	-11.2905
追擊	-11.2906
大司馬	-11.2907
館閣	-11.2908
心存	-11.2911
奉勅	-11.2911
伊川曰	-11.2914
駕幸	-11.2919
景隆	-11.2923
舒穆	-11.2924
岳州	-11.2928
光祖	-11.2929
交友	-11.293
三十餘年	-11.2936
縁事革退	-11.2937
永樂初	-11.2938
西喇	-11.294
十分	-11.2943
流離	-11.2943
皇祖	-11.2947
事勢	-11.2948
大震	-11.2949
五十七	-11.2951
不軌	-11.2952
徽州	-11.2955
以明經	-11.2955
行誼	-11.2955
剛直	-11.296
端重	-11.296
南宫	-11.2963
湖北	-11.2967
不虞	-11.2969
士英	-11.2975
之本也	-11.2984
諸將皆	-11.2984
之大者	-11.2988
來援	-11.2989
先鋒	-11.2989
謚文	-11.2995
賜孔雀翎	-11.3003
腦	-11.3005
𣲖	-11.3008
蠶	-11.3009
一片	-11.301
峪	-11.301
第九	-11.301
譎	-11.3011
年十八	-11.3011
原任二等	-11.3012
未仕本貫	-11.3012
參領	-11.3013
糶	-11.3013
百司	-11.3014
僮	-11.3014
澶淵	-11.3015
𠡠	-11.3016
儻	-11.3016
閬	-11.3018
襲職任佐領	-11.3018
洪承疇	-11.3018
太中大夫	-11.3018
覇	-11.3019
卻	-11.3019
原任防	-11.302
殮	-11.302
舍稜	-11.302
薫	-11.3021
阿巴泰	-11.3021
干戈	-11.3024
睿親王	-11.3025
䕶衞	-11.3025
琅	-11.3026
薦舉	-11.3026
祧	-11.3026
震悼	-11.3027
暁	-11.3028
漳浦	-11.3028
渴	-11.3031
賢不肖	-11.3031
甘心	-11.3032
潮州	-11.3035
咸淳	-11.3036
騎射	-11.304
逹理	-11.3045
天禧	-11.3046
日記	-11.3046
夏五月	-11.3048
虚齋	-11.3049
家屬	-11.3051
訓練	-11.3052
▁加之職	-11.3053
六合	-11.3053
桂陽	-11.3059
選侍	-11.3059
包衣管領下人世居遼陽地方	-11.3061
現任驍	-11.3063
一時名	-11.3064
端平	-11.3066
巴理	-11.3066
萬斛	-11.3067
現任筆	-11.307
希孟	-11.3072
鄆州	-11.3072
夢陽	-11.3074
造化之	-11.3077
巴格	-11.3082
原任佐領元孫	-11.3084
尼馬察地方	-11.3086
單于	-11.3087
賊勢	-11.3088
潭州	-11.3089
充塞	-11.3091
到此	-11.3092
蘇克	-11.3094
疑獄	-11.3101
未可知	-11.3104
原任頭等	-11.3106
一箇	-11.3108
選舉	-11.3118
授三等輕車都尉	-11.3124
江隂	-11.3125
正黄旗包衣人世居	-11.3125
諸大臣	-11.3128
從兄	-11.3132
訪求	-11.3138
十三日	-11.314
以言事	-11.3148
吾聞	-11.3148
南星	-11.3149
如其言	-11.315
忠簡	-11.3151
原任六品	-11.3152
放過	-11.3154
恤民	-11.3158
先生之言	-11.3163
囉	-11.3169
崧	-11.317
琿台吉	-11.3172
漣	-11.3172
恩詔所加之職承襲騎都尉	-11.3172
分無考其子	-11.3172
惜哉	-11.3173
擿	-11.3174
逹爾漢	-11.3174
不勝其	-11.3174
阿濟	-11.3175
入翰林	-11.3176
邁圖	-11.3177
繒	-11.3178
徂	-11.3179
屨	-11.3179
人康熙時自科爾沁	-11.318
忒	-11.318
將作監主簿	-11.3181
車都尉	-11.3183
縦	-11.3184
榮禄大夫	-11.3184
是歲	-11.3184
門下侍郎	-11.3184
歇	-11.3185
阿敏	-11.3185
衙門	-11.3186
撒	-11.3186
徳音	-11.3187
征西	-11.3188
無一物	-11.3188
京畿	-11.3189
閣下	-11.3194
儉約	-11.3194
姦邪	-11.3197
仁孝	-11.3198
與本旗	-11.3199
反求	-11.3203
▁皇帝	-11.3206
興化軍	-11.3208
家庭	-11.3209
造詣	-11.3209
諭徳	-11.321
叙功優授	-11.3211
所以能	-11.3216
數里	-11.3221
特係隸滿洲旗分之蒙古	-11.3227
交薦	-11.3239
入京	-11.3251
部使者	-11.3251
赫赫	-11.3252
邊境	-11.3254
一種	-11.3256
功績	-11.3257
緒山	-11.3261
不預	-11.3262
貴戚	-11.3263
毋得	-11.3266
州安置	-11.3267
覺羅	-11.3273
歎服	-11.3274
講義	-11.328
謝罪	-11.3286
平反	-11.329
内徙	-11.3291
以下皆	-11.3295
練兵	-11.3302
士習	-11.3305
壯士	-11.331
三十五	-11.3315
晉泰	-11.3318
所著書	-11.332
兩儀	-11.3324
修身為本	-11.3326
亳	-11.3331
鶻	-11.3331
仁體	-11.3332
土謝圖	-11.3332
由正白旗改𨽻	-11.3333
流水	-11.3333
扎爾固齊	-11.3335
有善有惡	-11.3335
元璐	-11.3336
卦爾察	-11.3337
阿哈瑪特	-11.3337
塔布囊	-11.3338
本係地名因以為姓	-11.3338
議政大臣	-11.3338
戸部尚書	-11.3339
冢宰	-11.3339
鼠	-11.334
芽	-11.3341
翰林侍讀學士	-11.3342
䆳	-11.3342
贏	-11.3342
店	-11.3343
三十七	-11.3343
二等男	-11.3343
九齡	-11.3344
宓	-11.3344
惺惺	-11.3344
趾	-11.3345
煒	-11.3345
右諫議大夫	-11.3345
瑀	-11.3345
所係	-11.3345
磔	-11.3345
尚書左丞	-11.3346
謐	-11.3346
弦	-11.3346
盪	-11.3347
行于世	-11.335
雷霆	-11.335
廻	-11.335
閭里	-11.3356
兄弟二人	-11.3357
於上前	-11.336
九疇	-11.3361
遵㫖	-11.3362
奸邪	-11.3363
創業	-11.3364
從征明	-11.3366
都綂	-11.3368
其餘無事蹟可立傳者附載於後	-11.3371
金銀	-11.3371
節儉	-11.3373
力爭	-11.3374
掃除	-11.3377
任協領	-11.3379
燕京	-11.3379
惜乎	-11.3379
海冦	-11.3381
供奉	-11.3391
扶風	-11.3394
消長	-11.3395
現任七品官	-11.3396
朔望	-11.3397
唐太宗	-11.3399
比年	-11.3402
禍亂	-11.3403
浮雲	-11.3406
通事官	-11.3411
前鋒校	-11.3418
震怒	-11.342
之罪也	-11.3421
二十日	-11.3422
一百二十	-11.3423
伊川先生	-11.3424
詩賦	-11.343
數萬人	-11.3432
遇害	-11.3435
僧保	-11.3436
三十三	-11.3437
司冦	-11.3439
楞泰	-11.3446
只説	-11.3447
優授騎都尉	-11.3448
欽州	-11.3451
其大者	-11.3452
錦衣衛	-11.3455
三桂	-11.3457
亦只是	-11.3462
文炳	-11.3465
文升	-11.3466
原任步軍	-11.3472
現任佐領又	-11.3474
四十五年	-11.3474
旗包衣	-11.3482
是夕	-11.3482
逮繫	-11.3486
上覽	-11.3489
悚	-11.349
入閣	-11.3492
許國	-11.3493
授雲騎尉三遇	-11.3493
窩	-11.3496
紊	-11.3499
鞅	-11.35
循理	-11.35
正黄旗包衣人世居瀋陽地方來歸年	-11.3501
克嚕倫	-11.3502
銖	-11.3502
巽	-11.3502
奉議郎	-11.3503
誇	-11.3503
伎	-11.3503
與本旗同里	-11.3503
▁至三等輕車都尉	-11.3503
逕	-11.3503
觀文殿大學士	-11.3504
闊	-11.3504
科布多	-11.3504
緋	-11.3505
賢良方正	-11.3506
惻隱	-11.3506
憸	-11.3506
纓	-11.3507
参	-11.3507
櫛	-11.3508
優劣	-11.3508
壕	-11.3508
侔	-11.3508
天下之大本	-11.3509
杳	-11.3512
襲扎薩克多羅貝勒	-11.3513
太常寺卿	-11.3513
楊漣	-11.3514
右僉都御史	-11.3515
鎧	-11.3515
廷杖	-11.3518
菊	-11.3519
營田	-11.3519
權倖	-11.3519
北狩	-11.3521
末年	-11.3524
三千餘	-11.3526
季孫	-11.3528
無疆	-11.3532
楊墨	-11.3538
亡國	-11.3539
殺賊	-11.3541
土地	-11.3542
包衣大	-11.3547
賜銀	-11.3549
對曰陛下	-11.3553
數百里	-11.3564
大司農	-11.3571
長驅	-11.3577
哲爾	-11.3579
協理	-11.3583
薨于	-11.3584
遺詔	-11.359
原任通事官	-11.3597
桓子	-11.36
次子乾隆	-11.3607
隱居	-11.3613
才識	-11.3614
卒業	-11.3614
某日	-11.3616
正藍旗包衣	-11.3621
被逮	-11.3622
誰敢	-11.3623
稍遷	-11.3623
攻克	-11.3625
鄧州	-11.3627
第巴	-11.3628
懇辭	-11.3632
竊謂	-11.3636
八九	-11.3638
訃聞上	-11.3641
族弟	-11.3645
此一姓世居	-11.3646
雍正九年	-11.3654
察琿多爾濟	-11.3658
韙之	-11.3662
涌	-11.3663
藩臬	-11.3665
頗羅鼐	-11.3667
埒	-11.3667
潼	-11.3671
麒	-11.3672
捉	-11.3672
猖	-11.3672
▁魯號	-11.3673
首先登城克之	-11.3673
輓	-11.3673
直集賢院	-11.3675
栖	-11.3675
太宗文皇帝	-11.3676
舛	-11.3677
偶然	-11.3677
鳶飛魚躍	-11.3677
欽定四庫全書明儒學案卷	-11.3677
燬	-11.3677
組	-11.3678
折衷	-11.3679
噬	-11.3679
狷	-11.3681
㳺牧	-11.3681
胎	-11.3684
滇	-11.3684
氓	-11.3684
迅	-11.3685
何患	-11.3687
航	-11.3688
為翰林學士	-11.3689
倫泰	-11.3689
空寂	-11.3692
彗星	-11.3693
推重	-11.3693
奉聖	-11.3698
礁	-11.3699
貧民	-11.37
曲阜縣	-11.3701
姑息	-11.3701
噶斯	-11.3703
州觀察使	-11.3706
曲折	-11.3706
何如曰	-11.3707
第六子	-11.371
有志於	-11.371
賦役	-11.3711
過北京征山東	-11.3712
心齋	-11.3713
都總管	-11.3714
頭等侍衛	-11.3715
仁厚	-11.3721
敗績	-11.3721
豐城	-11.3722
上柱國	-11.3727
艾軒	-11.374
須要	-11.375
字廷	-11.375
夜氣	-11.3754
直𨽻	-11.3756
兵五百	-11.3756
回部	-11.3763
豈惟	-11.3764
現任協領	-11.3765
不自安	-11.3768
督府	-11.377
任䕶軍叅領	-11.377
原任給事中	-11.3772
征湖廣	-11.3773
科第	-11.3775
尚存	-11.3784
一人而已	-11.379
歐陽公	-11.3791
本㫖	-11.3792
襲固山貝子	-11.3795
刻石	-11.38
所忌	-11.3806
多寡	-11.3819
路安撫使	-11.382
天下之理	-11.3826
丹濟拉	-11.3828
接物	-11.3828
曲阜	-11.3834
七嵗	-11.3837
頡	-11.3842
昬	-11.3842
何繼祖等	-11.3843
謡	-11.3844
睢	-11.3844
提㸃刑獄	-11.3844
家國天下	-11.3844
萬變	-11.3844
懸空	-11.3845
衮楚克	-11.3845
噶布拉	-11.3846
涓	-11.3846
克西克騰地方	-11.3846
劑	-11.3847
騖	-11.3848
票	-11.3848
貢舉	-11.3849
款	-11.3849
為善去惡	-11.3849
隧	-11.385
祺	-11.385
濟爾哈朗	-11.385
挑	-11.385
虎爾哈地方	-11.385
棗	-11.3851
旻	-11.3851
禮部左侍郎	-11.3852
兢	-11.3852
衾	-11.3853
芥	-11.3853
翀	-11.3853
剥	-11.3854
俛	-11.3854
穉	-11.3855
撰墓志	-11.3855
㨿	-11.3855
洪熈	-11.3856
左副都御史	-11.3857
喉	-11.3858
巴克什	-11.3859
直史館	-11.386
解縉	-11.386
休戚	-11.3862
處便是	-11.3863
乘輿	-11.3864
風流	-11.3866
鎮海	-11.3868
誰能	-11.387
宋濓	-11.387
洪武元年	-11.3871
編脩	-11.3871
被創	-11.3873
禁止	-11.3873
擅權	-11.3873
曹彬	-11.3875
李東陽	-11.3878
防秋	-11.389
馳赴	-11.3893
改南京	-11.3895
空虚	-11.3895
交結	-11.3905
精㣲	-11.3908
不渝	-11.3915
興祖	-11.3917
貞元	-11.3923
伊拉	-11.3925
方寸	-11.3928
原任佐領其子	-11.3929
夫人子男	-11.393
御筆	-11.3932
盛京	-11.3933
現任典儀	-11.3935
防守	-11.3936
曲直	-11.3947
纂官	-11.395
氏追封	-11.3953
講解	-11.3966
年十五	-11.3971
三十八	-11.3975
未嘗一日	-11.3977
賑濟	-11.3979
因循	-11.398
繼祖	-11.3994
係隸滿洲旗分之蒙古	-11.3997
雇	-11.4005
涿	-11.4008
重慶	-11.401
顧實汗	-11.4011
鳶	-11.4013
伊勒登	-11.4015
纖	-11.4016
螺	-11.4017
蹕	-11.4018
原任鳴贊	-11.4018
觀音保	-11.4018
鬬	-11.4018
檻	-11.4018
湜	-11.4018
流亡	-11.4019
玷	-11.4019
詬	-11.4019
湍	-11.402
昶	-11.4021
燄	-11.4021
還京師	-11.4022
虗	-11.4023
左諭徳	-11.4023
樞密副使	-11.4023
晁	-11.4023
▁初來歸其曽孫	-11.4023
不為動	-11.4024
春秋臣傳巻	-11.4025
張獻忠	-11.4025
燕山	-11.4025
葉赫地方人	-11.4025
秘書省	-11.4026
棣	-11.4027
濂溪	-11.4027
溯	-11.4028
遘	-11.4028
怍	-11.4029
歸田里	-11.403
椎	-11.403
紏	-11.403
體認天理	-11.4031
朞	-11.4031
不可勝計	-11.4032
雉	-11.4032
印綬	-11.4033
起居郎	-11.4035
運糧	-11.4035
博羅特	-11.4035
榦	-11.4036
玉帶	-11.4042
環慶	-11.4044
濠州	-11.4045
春芳	-11.4046
郊祀	-11.4047
以字行	-11.4047
現任委署	-11.405
年老告退其	-11.4052
與此書	-11.4065
武侯	-11.4066
勵精	-11.4067
䕶軍參領	-11.4067
真儒	-11.407
想見	-11.4071
仁傑	-11.408
一峯	-11.4086
長短	-11.4088
頭目	-11.4096
永康	-11.4096
肅宗	-11.4098
正域	-11.4099
監丞	-11.41
無所容	-11.4102
蒼生	-11.4102
聖躬	-11.4104
元符	-11.4107
光弼	-11.4108
親臨	-11.4109
不能奪	-11.4111
續征	-11.4114
叅軍	-11.4125
袁州	-11.4125
右僕射	-11.4126
萬象	-11.4126
老母	-11.4131
首輔	-11.4133
翼日	-11.4136
門徒	-11.4138
太子少保	-11.4142
勢必	-11.4151
達禪	-11.4154
賜巴圖	-11.4156
嘉靖初	-11.416
博羅	-11.4163
王莽	-11.4172
先覺	-11.4178
厚恩	-11.4183
不悔	-11.4183
車凌烏巴什	-11.4184
簽	-11.4187
阿玉什	-11.4189
炭	-11.4194
肩輿	-11.4195
策妄阿喇布坦	-11.4196
驩	-11.4197
黍	-11.4198
慰諭	-11.4198
淤	-11.4198
宗廟社稷	-11.4199
巢穴	-11.4199
頋	-11.4199
玊	-11.42
娛	-11.42
布爾尼	-11.42
穹	-11.4201
兵部右侍郎	-11.4202
步兵	-11.4202
咽	-11.4203
定鼎燕京時	-11.4204
滂	-11.4205
史傳三編卷	-11.4205
芟	-11.4205
佛阿拉地方	-11.4206
欽定四庫全書史傳三編卷	-11.4206
茲	-11.4206
橫	-11.4207
銘其墓	-11.4208
壼	-11.4208
孔子廟	-11.4208
枋得	-11.421
粒	-11.421
鴻臚寺	-11.421
阿拉善	-11.4212
獠	-11.4212
悠悠	-11.4213
筦	-11.4213
譟	-11.4214
圍城	-11.4215
蹂	-11.4217
平昔	-11.422
私淑	-11.4224
告老	-11.4227
怡然	-11.4228
堅壁	-11.423
問之曰	-11.4231
功授雲騎尉卒其子	-11.4232
告之曰	-11.4233
形色	-11.4233
邦彦	-11.4238
東野	-11.4238
襲職歴任	-11.4239
不悅	-11.4239
英雄	-11.4244
係隸滿洲旗分之䝉古一	-11.4246
成都府	-11.4247
延夀	-11.4249
阿爾賽	-11.4261
忠宣	-11.4268
然後可以	-11.4269
察哈爾布爾尼	-11.427
海澄	-11.4273
盛衰	-11.4278
水寨	-11.4284
侍經筵	-11.4284
嗜欲	-11.4291
原任佐領曽孫	-11.4292
文靖公	-11.4297
受學於	-11.43
大軍𠞰	-11.4301
達喇	-11.4301
封禪	-11.4303
母后	-11.4304
塔喇	-11.4308
十有八	-11.4309
聖恩	-11.431
七十六	-11.4312
常住	-11.4322
天台	-11.4331
連江	-11.4337
吳越	-11.4339
泰現任驍騎校	-11.434
學之要	-11.4341
以疾辭	-11.4344
第二子	-11.4359
國初来歸其孫	-11.4363
祖為户第	-11.4375
盱眙	-11.4376
扎薩克多羅貝勒	-11.4376
列聖	-11.4378
龍圖閣學士	-11.4378
砥礪	-11.4378
捄	-11.4379
欽定外藩蒙古回部王公表傳卷之	-11.438
名臣碑傳琬琰之集中	-11.438
集賢校理	-11.4381
詈	-11.4382
影響	-11.4382
簒	-11.4382
承璀	-11.4382
鄢	-11.4384
公神道碑銘	-11.4384
悛	-11.4385
阡	-11.4385
穰	-11.4386
冡宰	-11.4386
學問思辨	-11.4387
脂	-11.4387
直秘閣	-11.4387
㕘知政事	-11.4387
徭	-11.4388
鄉試第一	-11.4389
𢡟	-11.4389
陕西	-11.4389
菽	-11.4389
僊	-11.4389
程門	-11.439
厨	-11.439
澤潞	-11.439
朝散大夫	-11.4391
榛	-11.4391
怳	-11.4391
廨	-11.4391
廵檢司	-11.4392
㐮	-11.4392
朂	-11.4393
瘳	-11.4393
等處屢敗賊	-11.4395
贅	-11.4395
睢陽	-11.4399
固執	-11.44
閩縣人	-11.4403
莫知所	-11.4403
渡淮	-11.4404
任佐領卒其子	-11.4405
内帑	-11.4406
無所不至	-11.4408
寒士	-11.4408
沿江	-11.4409
二十二日	-11.441
差役	-11.441
長子乾隆四十	-11.4414
計較	-11.4415
兼一雲	-11.4416
寂感	-11.4418
現任藍翎侍衛	-11.4418
商量	-11.4419
其親弟之子	-11.4419
齊旺	-11.4422
滁州	-11.4422
瑾誅	-11.4425
韋齋	-11.4426
護軍校	-11.4429
從征福建	-11.443
病痛	-11.4432
二年二月	-11.4432
嚴嵩	-11.4434
二十四日	-11.4436
黑龍江	-11.4438
抗章	-11.4438
彭城	-11.4443
仍舊	-11.4445
有大志	-11.4447
鳯陽	-11.4449
泰現任䕶軍校	-11.4453
元齡	-11.4462
敗賊偽將	-11.4462
香山	-11.4472
亦如之	-11.4482
若之何	-11.4487
編修官	-11.4489
紹定	-11.4489
尹直	-11.4496
十倍	-11.4497
罪狀	-11.4506
淵聖	-11.4511
瓦爾	-11.4514
良玉	-11.4519
世界	-11.455
㑹典	-11.4554
烏黙客	-11.4557
四十六年詔世襲罔替	-11.4557
木蘭行圍	-11.4559
謹身殿大學士	-11.456
西特庫	-11.456
係來歸年分無考之人	-11.4562
人姓博爾濟吉特	-11.4562
原係庫使	-11.4563
㢤	-11.4564
條例司	-11.4565
儋	-11.4566
詘	-11.4566
林丹汗	-11.4566
汩	-11.4568
闖	-11.4568
寰	-11.4568
蓍	-11.4569
正白旗人来歸年分無考	-11.4572
鎮國將軍	-11.4572
瓌	-11.4572
蹊	-11.4572
嬪	-11.4573
瞰	-11.4575
衂	-11.4575
偪	-11.4575
上嘉納之	-11.4575
賫	-11.4576
翦	-11.4578
伽	-11.4578
崇徳元年	-11.4579
婿	-11.4581
啼	-11.4581
杼	-11.4583
馬察地方	-11.4586
求放心	-11.4586
會稽	-11.4587
主客	-11.4589
胷中	-11.4594
激切	-11.46
恭儉	-11.46
現任驍騎	-11.46
現任前鋒校	-11.4602
頓首謝	-11.4602
反側	-11.4604
精鋭	-11.4606
歌詩	-11.4607
自此始	-11.4609
光斗	-11.461
六十三	-11.4611
國子生	-11.4614
終不可	-11.4619
叛逆	-11.4621
諱某	-11.4625
供職	-11.4627
化育	-11.4629
沙津	-11.463
桂林	-11.4631
三十九	-11.4634
僉書	-11.4638
畿内	-11.4639
原任六品包衣大	-11.4643
古聖賢	-11.4646
孟子所謂	-11.4652
指揮同知	-11.4659
乗間	-11.4666
原任員	-11.4667
陜州	-11.4669
征廣東	-11.4677
饑民	-11.4677
北溪	-11.4698
正色曰	-11.4699
歐公	-11.47
遺表	-11.47
太倉	-11.4708
套	-11.4718
性至孝	-11.472
心腹	-11.4745
攄	-11.4749
起居舍人	-11.475
抒	-11.475
巴特瑪	-11.475
繫獄	-11.4754
博囉	-11.4754
登城克之	-11.4755
知善知惡	-11.4755
閽	-11.4755
吏部右侍郎	-11.4755
屢著戰功	-11.4755
隗	-11.4755
驢	-11.4756
斟酌	-11.4756
三次襲	-11.4756
禘	-11.4756
浴	-11.4758
掞	-11.4758
縑	-11.4759
大理寺卿	-11.476
煎	-11.476
以親老	-11.476
𦍑	-11.4761
三等台吉	-11.4761
絲毫	-11.4761
净	-11.4761
騫	-11.4761
巒	-11.4762
鏗	-11.4762
揀	-11.4762
張士誠	-11.4762
氛	-11.4763
伊犂	-11.4763
烹	-11.4763
甘露	-11.4763
鎖	-11.4764
原任步	-11.4764
甕	-11.4766
頴悟	-11.4766
想像	-11.4766
陸費墀	-11.4767
丐祠	-11.4767
昀	-11.4767
孫士毅	-11.4768
大理卿	-11.4771
梓宫	-11.4772
唯唯	-11.4772
屈伸	-11.4774
熈寜	-11.4775
陌	-11.4775
人服其	-11.478
藝祖	-11.4784
平凉	-11.4787
削奪	-11.4788
七十八	-11.4788
牽制	-11.4791
迄今	-11.4795
五十九年	-11.48
丞相亮	-11.48
本院官	-11.4802
智勇	-11.4803
景泰初	-11.4804
魏國公	-11.4806
年分無考其子	-11.4806
再娶	-11.4807
不可測	-11.4808
文皇帝	-11.4808
邀擊	-11.4809
曰自古	-11.4809
母夫人	-11.481
撫按	-11.4812
權奸	-11.482
循吏	-11.4821
殊不知	-11.4822
記誦	-11.4822
太虚	-11.4825
設施	-11.4827
念菴	-11.4828
昌期	-11.4829
妄念	-11.483
門戸	-11.4835
數十里	-11.484
敎授	-11.4842
晚節	-11.4843
載籍	-11.4846
十六日	-11.4849
沛然	-11.4853
平章事	-11.4853
釋老	-11.4863
征浙江舟山	-11.4879
總制	-11.4879
萬五千	-11.4884
康熙五十	-11.4898
尋擢	-11.4899
贈太子太保	-11.4906
臣僚	-11.4934
形而上者	-11.4938
聖人之心	-11.4938
貺	-11.4942
罸	-11.4943
餘悉	-11.4944
東林列傳卷	-11.4944
獅	-11.4945
彗	-11.4945
琪	-11.4945
黥	-11.4945
譲	-11.4946
縁事革	-11.4947
西喇塔拉地方	-11.4947
市舶	-11.4948
現任司庫	-11.4948
右係附載	-11.4948
蹶	-11.4949
餘姚黄宗羲撰	-11.4949
右係来歸年分無考之人	-11.4949
諦	-11.495
覊	-11.495
㫤	-11.495
右係來歸年分無考之人	-11.4951
覺和托	-11.4951
臼	-11.4951
燼	-11.4951
緇	-11.4952
駮	-11.4952
加太子少保	-11.4953
䘚	-11.4953
恁地	-11.4953
囿	-11.4953
鄖	-11.4954
乞骸骨	-11.4954
悵	-11.4954
腸	-11.4955
奉朝請	-11.4955
藩籬	-11.4955
達賴	-11.4955
蠢	-11.4955
麽	-11.4956
睿親王多爾衮	-11.4957
縻	-11.4957
氏家世學派	-11.4958
十朋	-11.4959
農桑	-11.496
㦸	-11.4961
海島	-11.4961
房𤣥齡	-11.4962
呼吸	-11.4963
欽定四庫全書史部七	-11.4963
弟子員	-11.4963
太宗謂侍臣曰	-11.4963
延綏	-11.4964
胡文定	-11.4964
旄	-11.4966
今日之事	-11.4966
險阻	-11.4968
循循	-11.497
餘杭	-11.4971
洞庭	-11.4972
烏喇特	-11.4972
晦叔	-11.4974
應酬	-11.4977
非禮勿	-11.4978
優游	-11.4986
百餘年	-11.4986
羣盜	-11.4987
十九日	-11.4988
不懌	-11.4989
八世孫	-11.4989
秋冬	-11.4989
由驍騎校從征	-11.4993
穆瑚	-11.4997
封疆	-11.4998
白都訥	-11.5001
澶州	-11.501
哈宻	-11.501
贈太子少保	-11.5011
禦敵	-11.5015
短長	-11.5015
聚散	-11.5018
被害	-11.5021
外史氏曰先生	-11.5023
提要	-11.5024
潮陽	-11.5025
同僚	-11.5028
俱原任員外郎	-11.5036
撰墓誌	-11.5038
卒于官	-11.5038
皂	-11.5039
擬議	-11.5041
賜御	-11.5042
之福也	-11.5046
紛然	-11.5047
河洛	-11.5048
黙特	-11.5058
順天府	-11.506
㕘軍	-11.5061
庶政	-11.5061
福禄	-11.5062
副都統兼佐領	-11.5064
由佐領從征	-11.509
滁	-11.5102
六十年	-11.511
終喪	-11.511
包衣人来歸年分無	-11.5118
學者須	-11.5129
恠	-11.5136
樞宻直學士	-11.5137
纛	-11.5138
招討使	-11.5139
焰	-11.5139
阿竒木伯克	-11.5139
鑲藍旗包衣人世居	-11.5141
琿	-11.5142
廖道南曰	-11.5143
誑	-11.5143
盾	-11.5143
唾	-11.5144
阿巴噶	-11.5145
鑲白旗包衣人世居	-11.5146
兢兢	-11.5146
丁卯	-11.5146
帷幄	-11.5146
雅爾湖地方	-11.5146
複	-11.5146
青苖	-11.5147
伉	-11.5147
腔子	-11.5147
釀	-11.5148
䂓	-11.5148
鏜	-11.5148
湊	-11.5148
辛卯	-11.5148
剗	-11.5149
啖	-11.5149
前鋒統領	-11.5149
驂	-11.5149
粉	-11.5151
箠	-11.5151
譔	-11.5152
腴	-11.5152
禮部主事	-11.5153
穆成額	-11.5154
帽	-11.5154
賙	-11.5155
討平之	-11.5155
舖	-11.5157
兼侍中	-11.5157
辤	-11.516
䕃補	-11.5163
府推官	-11.5164
調停	-11.5165
進𠞰	-11.5167
指㸃	-11.517
征察哈爾	-11.5171
太醫	-11.5171
乾隆元年	-11.5175
薩喇	-11.5175
側目	-11.5178
沿海	-11.5181
隴西	-11.5185
割地	-11.5185
徒步	-11.5188
元標	-11.5189
嚴毅	-11.5189
來歸其孫	-11.5197
榜進士	-11.5199
酋長	-11.5201
上嘉其	-11.5202
源頭	-11.5207
群臣	-11.5212
秀實	-11.5212
年十二	-11.5218
愛惜	-11.5221
明年春	-11.5224
趙孟	-11.5232
折節	-11.5235
數百年	-11.5237
師旋	-11.5245
儕	-11.5246
脅從	-11.5248
曽祖諱	-11.525
御營	-11.5252
莽吉	-11.5253
軍需	-11.5257
六十八	-11.5259
中進士第	-11.5264
渝	-11.5271
日夕	-11.5275
聞其名	-11.5277
不䏻	-11.5282
賞給	-11.5297
七十里	-11.5298
楓	-11.5307
額爾齊斯	-11.5327
州判官	-11.533
可不謂	-11.5332
璮	-11.5334
拳	-11.5337
塗炭	-11.5338
掣	-11.5338
閘	-11.5339
拭	-11.534
喀喇烏蘇	-11.534
峨	-11.5342
聿	-11.5342
孟軻	-11.5342
產	-11.5342
謇	-11.5343
州防禦使	-11.5344
舂	-11.5345
鳥獸	-11.5345
㝷	-11.5345
▁初來歸其元孫	-11.5345
駐劄	-11.5345
呵	-11.5345
牲畜	-11.5346
扺	-11.5346
叨	-11.5347
戸部侍郎	-11.5348
垂簾	-11.5349
頷	-11.5349
淮甸	-11.5349
賕	-11.5349
顧憲成	-11.5349
曳	-11.5351
畊	-11.5351
無虚日	-11.5353
額爾徳尼昭	-11.5354
苻	-11.5354
太子中允	-11.5354
幟	-11.5356
殪	-11.5356
淛	-11.5356
謔	-11.5356
耆舊	-11.5358
髙攀龍	-11.5358
和尚原	-11.5361
莫大於	-11.5364
境界	-11.5368
懇切	-11.5369
地方擊賊陣亡	-11.5373
褒美	-11.5377
逰擊	-11.5378
脩撰	-11.5378
霍光	-11.538
内批	-11.5382
人一舉娶	-11.5387
豁然	-11.5388
原任防禦元孫	-11.539
三等䕶衛	-11.5393
馮保	-11.5396
靖康初	-11.5399
其餘無事蹟可立傳者附載於後正黄旗	-11.5411
祀典	-11.5416
卒無嗣其親弟	-11.5433
卓異	-11.5438
免役	-11.5438
仰視	-11.5446
形體	-11.5446
諭㫖	-11.5448
覺悟	-11.545
兵二百	-11.5464
襲職卒無嗣其	-11.5466
號泣	-11.549
十有七	-11.5497
五十四年	-11.5498
扎薩克鎮國公	-11.5533
絜	-11.5539
臣願陛下	-11.5539
偁	-11.5541
𦂳	-11.5542
估	-11.5545
朝散郎	-11.5545
荆棘	-11.5546
原係副䕶軍校	-11.5546
郃	-11.5546
朝請大夫	-11.5546
瞬	-11.5546
詮	-11.5547
名臣碑傳琬琰之集下巻	-11.5548
何思何慮	-11.5548
擊賊偽將	-11.5549
將胡國秉	-11.5549
澆	-11.555
悃	-11.555
葦	-11.5553
蟬	-11.5553
太常寺太祝	-11.5553
悳	-11.5553
聖祖仁皇帝	-11.5554
獻駝馬	-11.5554
薩哈連	-11.5555
遶	-11.5555
摹	-11.5557
范純仁	-11.5558
辛夘	-11.5558
璁	-11.5558
襲封衍聖公	-11.5558
霆	-11.5559
眠	-11.5559
顙	-11.5559
咫尺	-11.556
太常丞	-11.5561
躐	-11.5561
慈湖	-11.5562
乙夘	-11.5562
零陵	-11.5563
嘻	-11.5564
京兆尹	-11.5564
畫像	-11.5564
原任郎中兼佐領	-11.5565
鄭成功	-11.5565
曄	-11.5566
薩里罕	-11.5567
言於上	-11.5568
操履	-11.558
以公貴	-11.558
玩好	-11.5587
仕宦	-11.5588
褒諭	-11.5597
乏食	-11.5598
浮梁	-11.5605
聚徒	-11.5613
抵罪	-11.5615
多鐸	-11.5616
蘭太	-11.562
補闕	-11.5622
現任六品	-11.5625
五峯	-11.5625
國初來歸其	-11.5632
封鎮國公	-11.5654
知貢舉	-11.5655
薩爾泰	-11.5656
文藝	-11.5674
劾罷	-11.5689
寢疾	-11.5692
百戸	-11.5697
三等侍衛	-11.5706
分無考其元孫	-11.5712
知揚州	-11.572
堡地方	-11.5734
濙	-11.5737
移駐	-11.5744
必有事焉	-11.5746
正黄旗包衣旗鼓人世居瀋陽地方來	-11.5751
賽因諾顔	-11.5753
婆	-11.5753
涸	-11.5753
亹亹	-11.5754
襲六次襲	-11.5754
廖道南曰予	-11.5754
扈蹕	-11.5754
領侍衛内大臣	-11.5755
講席	-11.5755
拷	-11.5755
拳拳	-11.5755
紱	-11.5756
欽定四庫全書名臣碑傳琬琰之集中巻	-11.5756
現任二等侍衛	-11.5756
正藍旗包衣人世居瀋陽地方來歸年	-11.5756
諺	-11.5757
白金文綺	-11.5757
籲	-11.5757
原任驍騎校四世孫	-11.5757
太常禮院	-11.5757
你	-11.5758
舉子業	-11.5758
馬步軍	-11.5759
雩	-11.5759
係隸滿洲旗分之䝉古一姓	-11.5759
瑶	-11.576
蠟	-11.576
犂	-11.5761
薰	-11.5761
欄	-11.5761
𠂻	-11.5761
餐	-11.5762
中常侍	-11.5763
致知格物	-11.5763
切磋	-11.5763
黷	-11.5764
副總裁	-11.5764
倨	-11.5765
悞	-11.5765
曙	-11.5766
祫	-11.5766
迓	-11.5766
遙	-11.5767
紛擾	-11.5767
選庶吉士	-11.5768
沙漠	-11.5768
左布政使	-11.5768
大學中庸	-11.5768
撻	-11.5769
佯	-11.577
郎小字	-11.577
踪	-11.577
等謹案	-11.5771
莫測	-11.5771
翰林修撰	-11.5771
庻幾	-11.5772
耐	-11.5773
贈太傅	-11.5774
痛哭	-11.5774
辨析	-11.5775
蔡確	-11.5775
佟保	-11.5775
龍谿	-11.5777
翰墨	-11.5778
學𣲖	-11.5779
藏於家	-11.5779
市井	-11.578
從征江西	-11.5782
太祖皇帝	-11.5782
刪定	-11.5784
愕然	-11.5787
强弱	-11.5789
楓山	-11.581
在其中矣	-11.5814
崇禎初	-11.5817
擁衆	-11.582
良弼	-11.582
老弱	-11.5824
山十名	-11.5828
惕然	-11.583
㸃檢	-11.5831
知潭州	-11.5834
憂患	-11.5834
十七日	-11.5843
妄動	-11.5852
寧古塔	-11.5856
千二百	-11.5865
寧古塔地方	-11.5865
年十九	-11.5867
六品官	-11.5869
原任委署	-11.5871
十有四	-11.5871
額爾格	-11.5878
夾擊	-11.5892
年分無考其曽孫	-11.5897
戮力	-11.5906
試禮部	-11.5922
府同知	-11.5928
晦庵	-11.5962
㳟	-11.5965
渥巴錫	-11.5965
翩	-11.5966
吕公著	-11.5967
藩邸	-11.5967
州别駕	-11.5967
虎爾哈	-11.5968
詔求直言	-11.5968
原係生員	-11.5968
撮	-11.5968
糓	-11.5968
狠	-11.5968
羔	-11.5969
賈誼	-11.5969
承議郎	-11.5969
阿玉竒	-11.5969
司經局	-11.597
提學副使	-11.5971
觜	-11.5972
孳	-11.5973
苴	-11.5973
暘	-11.5974
拆	-11.5974
某月某日	-11.5974
搗	-11.5974
萬物皆備	-11.5974
憊	-11.5974
孝悌	-11.5975
泳	-11.5976
酸	-11.5976
藪	-11.5976
彭韶	-11.5977
糗	-11.5977
莽古爾泰	-11.5978
盆	-11.5978
禇	-11.5978
團練	-11.5978
鏹	-11.5979
闓	-11.5979
裁抑	-11.5981
扉	-11.5981
織造	-11.5981
拱辰	-11.5982
顓	-11.5982
管勾	-11.5983
蘿	-11.5983
禆益	-11.5984
耒	-11.5985
斫	-11.5986
浯	-11.5986
鼓舞	-11.599
行中書省	-11.5991
殽	-11.5991
閲月	-11.5993
饑寒	-11.5994
哈那	-11.5997
秋八月	-11.6
八卦	-11.6
顔淵	-11.6001
陳友諒	-11.6001
源委	-11.6015
止至善	-11.6021
粲然	-11.6022
廷弼	-11.6023
四十餘年	-11.6023
十一年卒子	-11.6024
喬年	-11.6027
建儲	-11.6033
諸暨	-11.6035
許衡	-11.6038
大丈夫	-11.6038
州知州	-11.6048
從何處	-11.6059
田宅	-11.6076
陣亡優	-11.609
二等輕	-11.6105
歲餘	-11.6119
傳註	-11.6121
藍翎侍衞	-11.6122
尼瑪	-11.6125
任頭等侍衛	-11.6136
停襲	-11.6141
古帝王	-11.6154
歴任副都統	-11.6155
樗	-11.6157
〇	-11.6158
現任頭等	-11.6174
獎	-11.6179
父子兄弟	-11.618
夢昱	-11.618
卯	-11.618
四次襲	-11.618
今獻備遺	-11.6182
事事物物	-11.6183
正白旗包衣人世居瀋陽地方來歸年	-11.6183
妬	-11.6183
桀紂	-11.6184
線	-11.6184
佃	-11.6185
授盟長	-11.6185
絅	-11.6186
闥	-11.6186
儷	-11.6186
椽	-11.6187
踊	-11.6187
直學士院	-11.6188
呈露	-11.6188
加少保	-11.6188
諉	-11.6188
斡	-11.6188
咱	-11.6188
張邦昌	-11.6188
白鹿洞	-11.6189
莫先於	-11.619
刁	-11.619
阿睦爾撒納叛	-11.6192
瞑目	-11.6192
冑	-11.6192
舟楫	-11.6193
戩	-11.6193
旂	-11.6193
跌	-11.6193
收拾	-11.6193
轉運判官	-11.6193
胙	-11.6194
遣官諭祭	-11.6195
榆林	-11.6196
明徐紘撰	-11.6198
毛文龍	-11.6199
蜚	-11.62
瑚什巴	-11.6201
耽	-11.6201
任叅領	-11.6201
渠魁	-11.6202
霑	-11.6203
太子少師	-11.6203
咨訪	-11.6204
奉聖㫖	-11.6204
絰	-11.6204
贈禮部尚書	-11.6204
潛邸	-11.6205
高麗	-11.6206
矯㫖	-11.6208
髙郵	-11.6208
君臣父子	-11.6209
郡庠	-11.6209
稱疾不	-11.621
鄉閭	-11.6211
端拱	-11.6212
仙遊	-11.6213
騷動	-11.6214
斥逐	-11.6215
𥘉	-11.6215
服膺	-11.6219
安堵	-11.6221
司主事	-11.6227
百二十	-11.6227
勉强	-11.6228
毛詩	-11.6232
斬獲	-11.6237
拜監察御史	-11.6242
協力	-11.6246
原任内閣侍讀	-11.6261
堯舜之道	-11.6272
憂勤	-11.6298
尚書右丞	-11.6304
千三百	-11.6331
運判	-11.6337
獻俘	-11.6338
得其情	-11.634
罪削爵	-11.6342
訥殷	-11.6342
兄弟三人	-11.6375
正黃旗人	-11.6375
貢楚克	-11.638
醮	-11.64
耨	-11.6402
邾	-11.6403
格致誠正	-11.6404
券	-11.6404
𥙷	-11.6404
睨	-11.6404
知永興軍	-11.6405
羗	-11.6406
朝議大夫	-11.6406
綵幣	-11.6407
賊馬步兵二十萬衆	-11.6408
通政司	-11.6408
站	-11.6408
鉤	-11.6409
糲	-11.641
鑠	-11.641
易有太極	-11.641
皋	-11.641
斁	-11.6411
兌	-11.6412
紂	-11.6412
皇太孫	-11.6412
癸夘	-11.6412
蜂	-11.6412
荔	-11.6413
兵部員外郎	-11.6413
鉛	-11.6413
敏珠爾	-11.6413
𢷬	-11.6413
通議大夫	-11.6413
稠	-11.6413
噪	-11.6414
左僉都御史	-11.6414
債	-11.6414
瓢	-11.6414
詛	-11.6414
糟	-11.6414
煖	-11.6414
厮	-11.6415
廵檢	-11.6415
鄂爾坤	-11.6415
竒塔特	-11.6417
塲屋	-11.6418
領催	-11.6419
軟	-11.6419
潼闗	-11.6419
韐	-11.642
鞏昌	-11.642
灤	-11.6421
原任内副管領	-11.6421
寀	-11.6422
嫂	-11.6422
毘陵	-11.6422
是年冬	-11.6422
筮仕	-11.6424
崑山	-11.6424
諫諍	-11.6426
磨勘	-11.6427
焕	-11.6427
按新唐書	-11.6428
梨	-11.6433
趙汝愚	-11.6435
滄州	-11.6438
延祐	-11.6443
從征浙江福建	-11.6446
茫然	-11.6446
之過也	-11.6447
縱火	-11.6453
不可勝數	-11.6455
魏徵	-11.6457
巡視	-11.6459
夾攻	-11.6461
遣行人	-11.647
調䕶	-11.6472
沾河	-11.6486
索爾和	-11.6493
八十里	-11.6505
廟庭	-11.6532
講筵	-11.6534
儒釋	-11.6538
千六百	-11.6539
諭曰朕	-11.6559
卒于家	-11.6581
兵三萬	-11.6587
兼佐領卒其子	-11.659
姓其氏族世居	-11.6602
征朝鮮	-11.6615
緹騎	-11.662
羊舌	-11.6621
嚨	-11.6622
幼孜	-11.6623
覔	-11.6624
魯昭公	-11.6624
佟養	-11.6628
騏	-11.6629
両	-11.6629
渺	-11.6631
諾木齊	-11.6631
將作監丞	-11.6631
朝奉大夫	-11.6631
竑	-11.6633
阿南達	-11.6634
前鋒侍衛	-11.6635
熒惑	-11.6635
啇	-11.6635
綏哈	-11.6635
由本旗包衣改	-11.6636
媒	-11.6636
縁事降為	-11.6636
現承襲又	-11.6636
鵠	-11.6638
舁	-11.6639
晏駕	-11.6639
倐	-11.6639
紬	-11.6641
叵測	-11.6641
烝	-11.6641
筋	-11.6642
狃	-11.6643
刷	-11.6643
鑲藍旗人来歸年分無考	-11.6643
理藩院議	-11.6643
硯	-11.6644
戯	-11.6644
廖道南曰予觀	-11.6644
顛倒	-11.6644
漿	-11.6644
錠	-11.6645
太學博士	-11.6645
惶恐	-11.6646
漂	-11.6646
先後承襲	-11.6648
泠	-11.6648
濂洛	-11.6648
縶	-11.6648
𦂳要	-11.6648
圜丘	-11.6648
縂	-11.6649
澧	-11.6651
稻	-11.6652
宰輔	-11.6656
尼瑪哈	-11.6657
順治元年	-11.6658
額爾赫	-11.6658
傭	-11.6659
仙源	-11.6659
閒散	-11.6661
謖	-11.6665
楊龜山	-11.6666
吏部郎中	-11.6673
編管	-11.6674
舅姑	-11.6676
條例	-11.6683
廵視	-11.6689
帝崩	-11.669
二十六日	-11.6733
辭不就	-11.6734
吉林烏喇	-11.6736
肅親王	-11.6752
副驍騎校	-11.6758
尉兼一雲騎尉	-11.676
人所難	-11.6766
元帥府	-11.6773
那木都魯地方	-11.6782
集註	-11.6783
為賊所	-11.6789
十有五	-11.6797
鄉貢	-11.6813
塞楞	-11.6819
扎什	-11.6825
玉素卜	-11.6858
叠	-11.6859
躭	-11.6859
張家口	-11.6859
窺伺	-11.6861
櫟	-11.6863
塢	-11.6864
矍	-11.6864
正白旗包衣人世居	-11.6865
竺	-11.6865
直龍圖閣	-11.6865
猖狂	-11.6866
駙	-11.6866
蜚悠城地方	-11.6866
烏珠穆沁	-11.6867
嶼	-11.6867
抉	-11.6867
步軍副尉	-11.6868
哥小字	-11.6868
石門坎黄草壩	-11.6868
按察僉事	-11.6868
慶都縣	-11.6868
第二登城克之	-11.6868
幡	-11.6868
知覺運動	-11.6869
㮚	-11.6869
撿	-11.687
謄	-11.687
承奉郎	-11.687
兑	-11.687
謨爾渾	-11.6871
䨇	-11.6871
笥	-11.6871
憒	-11.6871
楠	-11.6871
曽鞏	-11.6871
妤	-11.6871
倜儻	-11.6872
沌	-11.6873
鏤	-11.6873
穿鑿	-11.6873
布拉呢敦	-11.6873
碩壘	-11.6873
拉察布	-11.6874
穆克登	-11.6874
享年五十	-11.6874
肘	-11.6875
㡌	-11.6875
豺	-11.6876
塑	-11.6876
毆	-11.6876
州團練使	-11.6876
栅	-11.6876
温體仁	-11.6878
捐軀	-11.6878
迥	-11.6878
璣	-11.6879
瀚海	-11.6881
贖罪	-11.6881
叅賛	-11.6881
容貌	-11.6881
明名臣琬琰録卷	-11.6882
棋	-11.6882
莖	-11.6884
新郡志	-11.6884
伏羲	-11.6885
舊郡志	-11.6887
伋	-11.6889
任三等侍衛	-11.689
百八十	-11.6892
而不自知	-11.6892
大名府	-11.6894
撤回	-11.6895
日用之間	-11.6895
悚然	-11.6906
警敏	-11.6907
興學校	-11.6912
二十九日	-11.6916
額爾登	-11.6924
雅爾泰	-11.6928
原任城守尉	-11.694
州學正	-11.6955
六品包衣大	-11.6969
正紅旗包衣	-11.6977
陜右	-11.7027
無時不	-11.707
草廬	-11.7084
宗登極	-11.7084
現任叅領	-11.7094
遹	-11.7096
現任庫掌	-11.7101
欽定四庫全書今獻備遺卷	-11.7102
邊邊界以外	-11.7102
珠爾黙特納木扎勒	-11.7102
峝	-11.7103
洺	-11.7103
授騎都尉三遇	-11.7104
班禪喇嘛	-11.7104
庖	-11.7105
鄜	-11.7105
由鑲黄旗改𨽻	-11.7105
現任二等侍衞	-11.7105
疚	-11.7105
乳母	-11.7106
殁於陣	-11.7106
侑	-11.7106
嘉木湖	-11.7106
劣	-11.7107
酹	-11.7107
尚書右僕射	-11.7107
徽猷閣待制	-11.7107
刑部右侍郎	-11.7108
圜	-11.7108
馮翊	-11.7108
州團練副使	-11.7108
顒	-11.7108
戅	-11.7109
趍	-11.7109
亥	-11.7109
拍	-11.711
世祖章皇帝	-11.711
駒	-11.711
䋲	-11.711
膂	-11.711
襲職兩遇	-11.7111
抜	-11.7111
突厥	-11.7112
穫	-11.7114
逗	-11.7114
彈劾	-11.7114
徘徊	-11.7115
郴	-11.7115
悶	-11.7116
轉運副使	-11.7116
櫬	-11.7117
仭	-11.7117
維祺	-11.7117
汨	-11.7117
都督僉事	-11.7117
們	-11.7119
厲聲曰	-11.7119
氊	-11.712
㓜孜	-11.7121
商輅	-11.7121
糞	-11.7121
芸	-11.7122
浣	-11.7122
讌	-11.7122
廢弛	-11.7123
讙	-11.7123
國子監祭酒	-11.7123
浩然之氣	-11.7124
赫達色	-11.7124
劔	-11.7125
盛暑	-11.7127
庠序	-11.7127
暠	-11.7128
巡幸	-11.713
楊溥	-11.7133
主和議	-11.7134
互異	-11.7135
拱手	-11.7139
闔門	-11.7139
維垣	-11.7139
現任護軍校	-11.7142
無嗣其親兄	-11.7144
由委署䕶軍校從	-11.7145
知陳州	-11.7147
形迹	-11.7147
談笑	-11.7149
謂左右曰	-11.7149
詰責	-11.7151
現任副䕶軍叅領	-11.716
一等輕車都尉兼一雲騎尉	-11.7169
原任前鋒叅領	-11.7174
昌黎	-11.72
者此也	-11.722
過北京征	-11.7222
都統兼佐領	-11.7224
汀州	-11.7242
功授雲騎尉	-11.7255
南京禮部尚書	-11.7272
承襲卒其	-11.7288
忠愍	-11.7296
崑	-11.7339
妍	-11.7344
蹴	-11.7345
臬	-11.7347
菲	-11.7349
逄	-11.7349
訶	-11.735
攖	-11.735
謟	-11.7351
兎	-11.7351
禳	-11.7352
默	-11.7353
泝	-11.7354
騶	-11.7355
妓	-11.7355
嫩	-11.7355
圯	-11.7355
澥	-11.7355
媵	-11.7356
璊	-11.7356
罄	-11.7356
鶚	-11.7357
聯	-11.7357
鍰	-11.7358
孑	-11.7359
液	-11.736
糊	-11.736
卭	-11.7361
逡	-11.7361
筍	-11.7363
炊	-11.7364
翬	-11.7364
紆	-11.7365
儂	-11.7366
踏	-11.7368
刈	-11.7368
鏞	-11.7586
蟻	-11.7594
簞	-11.7594
僦	-11.7595
闐	-11.7596
亶	-11.7596
誹	-11.7597
芮	-11.7597
冡	-11.7599
蘊	-11.76
瓖	-11.76
殛	-11.76
劘	-11.7602
圈	-11.7602
玘	-11.7603
巵	-11.7604
璡	-11.7605
斐	-11.7606
槍	-11.7606
刮	-11.7607
褫	-11.7607
駑	-11.7607
釡	-11.7607
哺	-11.7607
翹	-11.7608
崛	-11.7608
瑊	-11.7609
剡	-11.761
暹	-11.7611
洊	-11.7611
垍	-11.7614
娣	-11.7616
撞	-11.7617
璲	-11.7618
愴	-11.7621
蕡	-11.7623
韙	-11.7624
鑨	-11.7831
騁	-11.7847
誾	-11.7848
筮	-11.785
潢	-11.785
髫	-11.7855
笈	-11.7856
蹄	-11.7857
愜	-11.7857
猗	-11.7859
煦	-11.786
肄	-11.7863
餼	-11.7863
儔	-11.7863
覓	-11.7863
萍	-11.7864
僵	-11.7864
摶	-11.7865
脇	-11.7866
郛	-11.7867
嵬	-11.7868
瀟	-11.7869
墅	-11.7874
烽	-11.7875
栽	-11.7881
頲	-11.7882
饉	-11.8108
燎	-11.8111
勺	-11.8111
掊	-11.8114
柘	-11.8115
瓚	-11.8116
擄	-11.8117
磧	-11.8117
鵝	-11.8118
褊	-11.812
唇	-11.812
揜	-11.812
袒	-11.812
廏	-11.8123
牓	-11.8123
溟	-11.8124
遡	-11.8124
漓	-11.8125
晰	-11.8125
滙	-11.8126
贛	-11.8126
痊	-11.8126
棹	-11.8126
餙	-11.8126
璠	-11.8126
坂	-11.8127
堕	-11.8127
頺	-11.8127
槊	-11.8129
諄	-11.8129
髦	-11.8129
晷	-11.813
愀	-11.8133
豢	-11.8133
憩	-11.8134
搬	-11.8135
剏	-11.8135
壙	-11.814
橘	-11.8146
齧	-11.8167
邳	-11.8378
昩	-11.8382
肫	-11.8385
藎	-11.8387
鏊	-11.8388
蘖	-11.8388
雹	-11.8388
昺	-11.8389
輗	-11.839
讋	-11.839
鈐	-11.8391
鴟	-11.8391
樁	-11.8392
彝	-11.8392
柟	-11.8393
肺	-11.8393
峴	-11.8394
澈	-11.8394
袂	-11.8395
牝	-11.8395
紗	-11.8396
泮	-11.8396
躪	-11.8397
腕	-11.8398
髓	-11.8398
曺	-11.8398
犢	-11.8398
夤	-11.8398
窈	-11.8399
燃	-11.8399
􁀊	-11.8399
瞭	-11.8401
脊	-11.8402
娯	-11.8402
聫	-11.8402
肻	-11.8655
猊	-11.866
茗	-11.866
刦	-11.8661
針	-11.8665
慥	-11.8666
肎	-11.8666
僨	-11.8667
龕	-11.8669
診	-11.867
鍵	-11.867
蠅	-11.867
麤	-11.867
袵	-11.8671
茨	-11.8671
毀	-11.8673
樽	-11.8673
鋸	-11.8674
装	-11.8676
嶴	-11.8678
窠	-11.8679
焯	-11.8681
倩	-11.8681
淬	-11.8681
灝	-11.8681
圻	-11.8682
挂	-11.8683
颶	-11.8688
柬	-11.8695
胷	-11.8926
荼	-11.8935
呢	-11.8944
皖	-11.8945
珂	-11.8947
顚	-11.8948
櫓	-11.895
岀	-11.8951
􁇾	-11.8951
牡	-11.8953
䙝	-11.8953
驤	-11.8953
盥	-11.8953
凑	-11.8954
雱	-11.8955
陴	-11.8955
楮	-11.8955
繙	-11.8955
雌	-11.8956
黻	-11.8957
粧	-11.8957
宕	-11.8957
蠭	-11.8957
剝	-11.8957
鯨	-11.8959
藺	-11.896
靄	-11.896
吻	-11.8961
晡	-11.8961
悴	-11.8962
徠	-11.8962
丰	-11.8962
躓	-11.8964
聮	-11.8965
珣	-11.8966
涣	-11.8966
寞	-11.8967
秣	-11.8968
孕	-11.8969
巔	-11.897
埇	-11.8975
揷	-11.8976
宙	-11.9227
酤	-11.9242
忮	-11.9243
莞	-11.9244
喝	-11.9245
陬	-11.9245
甦	-11.9246
牋	-11.9247
据	-11.9247
鷙	-11.9247
摸	-11.9247
宁	-11.9248
衿	-11.9249
謾	-11.9249
茭	-11.925
蒿	-11.9251
煞	-11.9251
厦	-11.9252
淂	-11.9252
䜟	-11.9252
郾	-11.9253
㐫	-11.9253
襁	-11.9253
荐	-11.9254
訢	-11.9254
彫	-11.9255
叶	-11.9256
爱	-11.9256
綠	-11.9256
禋	-11.9258
迦	-11.9259
隲	-11.9259
埽	-11.9259
蒋	-11.926
籬	-11.926
聦	-11.9262
鴨	-11.9262
莾	-11.9263
滴	-11.9263
遄	-11.9263
烱	-11.9264
坪	-11.9264
呌	-11.9266
鮒	-11.9536
嘲	-11.9539
溷	-11.954
尙	-11.9543
褘	-11.9544
瞑	-11.9545
髻	-11.9545
卹	-11.9546
𤨏	-11.9546
臾	-11.9547
詖	-11.9547
郕	-11.9548
愎	-11.9549
猺	-11.9551
熖	-11.9551
鑊	-11.9551
贐	-11.9551
墉	-11.9552
瓉	-11.9552
箝	-11.9553
濳	-11.9553
伶	-11.9554
霾	-11.9555
壠	-11.9555
髣	-11.9556
訝	-11.9558
榘	-11.9558
鹹	-11.9558
糺	-11.9559
黽	-11.956
欝	-11.9561
惋	-11.9564
賾	-11.9566
俶	-11.9566
耘	-11.957
猿	-11.957
烺	-11.958
兔	-11.9848
滬	-11.986
癢	-11.9861
肱	-11.9861
瑭	-11.9862
昃	-11.9862
摠	-11.9862
髠	-11.9863
眺	-11.9863
湟	-11.9863
捃	-11.9864
颺	-11.9864
肢	-11.9864
駱	-11.9864
掉	-11.9865
罅	-11.9865
墀	-11.9865
嘔	-11.9867
軋	-11.9867
巋	-11.9868
珊	-11.9868
剋	-11.9868
瞞	-11.9868
蔭	-11.9869
溘	-11.987
忙	-11.987
顗	-11.987
鷺	-11.9871
湫	-11.9871
暖	-11.9872
榭	-11.9872
砂	-11.9872
縋	-11.9873
蒯	-11.9873
隰	-11.9875
犖	-11.9877
脆	-11.9877
詵	-11.9879
糅	-11.988
娘	-11.9884
癸	-12.0167
鉗	-12.0174
驪	-12.0177
恁	-12.018
耴	-12.018
串	-12.018
厠	-12.0181
貰	-12.0183
斑	-12.0183
蝦	-12.0183
菩	-12.0184
屛	-12.0185
硬	-12.0186
薇	-12.0186
燥	-12.0186
怵	-12.0186
曦	-12.0187
鳬	-12.0187
掄	-12.0187
窪	-12.0187
鍼	-12.0189
遴	-12.0189
俚	-12.0189
啄	-12.0189
吠	-12.019
义	-12.019
爼	-12.0191
娱	-12.0191
熏	-12.0191
緍	-12.0191
稹	-12.0192
矱	-12.0192
戱	-12.0192
輻	-12.0192
恆	-12.0193
媪	-12.0195
孩	-12.0195
藐	-12.0196
㩁	-12.0197
疴	-12.0197
沱	-12.0198
惺	-12.0199
弧	-12.0199
隷	-12.02
芾	-12.02
蟄	-12.0201
霅	-12.0201
蚌	-12.0201
炬	-12.0203
娥	-12.0204
顆	-12.0207
檝	-12.0507
詒	-12.0509
埕	-12.051
㴱	-12.0512
靑	-12.0512
孜	-12.0513
瀝	-12.0513
臚	-12.0514
刹	-12.0514
甃	-12.0515
穡	-12.0515
鍔	-12.0516
倥	-12.0516
懟	-12.052
暐	-12.052
疽	-12.052
翫	-12.0521
悌	-12.0521
䧏	-12.0522
鬰	-12.0522
裾	-12.0522
滲	-12.0523
祟	-12.0524
枷	-12.0524
葆	-12.0525
繚	-12.0526
絪	-12.0527
翅	-12.0528
饟	-12.0528
匄	-12.0529
耦	-12.053
㓙	-12.053
鴉	-12.0531
鋐	-12.0531
旃	-12.0531
暱	-12.0532
児	-12.0532
抛	-12.0532
攙	-12.0532
犧	-12.0536
棐	-12.0538
纊	-12.0546
捲	-12.0546
垓	-12.0621
懌	-12.0796
柰	-12.0833
陕	-12.085
溍	-12.0852
讃	-12.0853
甓	-12.0854
皐	-12.0855
眇	-12.0858
箎	-12.0858
荻	-12.0858
羿	-12.0859
畚	-12.086
霈	-12.086
喙	-12.086
詗	-12.0864
抹	-12.0865
鉏	-12.0865
晤	-12.0865
簀	-12.0866
粘	-12.0869
滚	-12.087
觔	-12.087
哷	-12.0871
翥	-12.0871
璜	-12.0871
嫚	-12.0873
漬	-12.0873
彤	-12.0873
衎	-12.0873
擐	-12.0874
縈	-12.0874
刄	-12.0875
餅	-12.0875
鴆	-12.0875
逈	-12.0876
棊	-12.0877
杉	-12.0877
僞	-12.0878
酧	-12.0881
澣	-12.0883
邽	-12.0883
紡	-12.0886
佺	-12.0905
湼	-12.1162
嵐	-12.121
殂	-12.121
彜	-12.1212
覯	-12.1213
鎔	-12.1216
沼	-12.1217
删	-12.1217
殍	-12.1217
祲	-12.1218
懶	-12.1218
齪	-12.1219
啜	-12.122
洶	-12.1221
曖	-12.1222
懣	-12.1222
莪	-12.1223
棼	-12.1223
繄	-12.1225
埸	-12.1225
闌	-12.1226
痍	-12.1227
珤	-12.1227
惚	-12.1228
緼	-12.1228
㬰	-12.1228
苞	-12.1228
諶	-12.1228
孛	-12.1228
閟	-12.1228
崕	-12.1228
堞	-12.1229
么	-12.1229
藜	-12.123
琯	-12.123
窶	-12.123
桷	-12.1231
旭	-12.1231
戶	-12.1232
嗚	-12.1232
彖	-12.1233
嶮	-12.1233
嚼	-12.1233
聾	-12.1235
壟	-12.1235
竪	-12.1236
挹	-12.1236
兊	-12.1237
氐	-12.1239
澠	-12.1241
璿	-12.1243
尭	-12.1251
悆	-12.1273
𤾉	-12.1579
煌	-12.1579
錐	-12.1581
湸	-12.1582
硜	-12.1585
㽞	-12.1585
舸	-12.1586
凟	-12.1588
蹠	-12.1588
闘	-12.1588
謳	-12.1589
潺	-12.1589
笠	-12.159
絢	-12.1591
卨	-12.1591
捜	-12.1592
鼇	-12.1593
礫	-12.1594
鬯	-12.1595
悪	-12.1596
湄	-12.1596
懵	-12.1597
扄	-12.1597
筏	-12.1597
盲	-12.1597
厝	-12.1599
綢	-12.1599
藳	-12.16
侣	-12.16
𣺌	-12.16
炫	-12.16
瘼	-12.16
跣	-12.1601
涘	-12.1602
濃	-12.1603
揉	-12.1603
麋	-12.1603
苫	-12.1604
惲	-12.1604
悽	-12.1604
蓐	-12.1604
稗	-12.1605
廿	-12.1605
滹	-12.1605
閼	-12.1605
畦	-12.1606
刎	-12.1606
艷	-12.1606
癘	-12.1607
袞	-12.1609
鉦	-12.1614
棧	-12.1624
姥	-12.1958
諲	-12.1962
嚢	-12.1962
榕	-12.1962
愔	-12.1966
桶	-12.1967
珝	-12.1967
邴	-12.1968
捽	-12.1973
娠	-12.1973
雛	-12.1974
珵	-12.1975
畎	-12.1975
珦	-12.1975
凄	-12.1976
驁	-12.1976
僇	-12.1977
纘	-12.1977
冏	-12.1978
玭	-12.1978
駞	-12.1979
弃	-12.1979
匝	-12.198
檣	-12.198
翌	-12.1981
碭	-12.1981
熒	-12.1981
夥	-12.1982
擺	-12.1983
晶	-12.1984
賵	-12.1984
嗤	-12.1985
蕙	-12.1985
梃	-12.1985
敭	-12.1987
鉢	-12.1987
蓼	-12.1988
縀	-12.1988
㟁	-12.1988
鎡	-12.1988
珥	-12.1989
盻	-12.199
斵	-12.199
庀	-12.1991
弘	-12.1991
喋	-12.1991
舄	-12.1992
迸	-12.1992
鷗	-12.1992
㢲	-12.1992
淖	-12.1993
飫	-12.1993
桞	-12.1995
劭	-12.1996
鵲	-12.2
㓗	-12.2
汜	-12.2002
奩	-12.2008
嵓	-12.2368
玳	-12.237
籥	-12.237
柁	-12.237
媮	-12.2371
鯀	-12.2372
閥	-12.2372
昵	-12.2373
醖	-12.2375
遒	-12.2375
揔	-12.2375
陡	-12.2375
䦨	-12.2377
瓶	-12.2378
緫	-12.2378
笛	-12.2379
无	-12.238
惴	-12.238
宄	-12.2381
淸	-12.2381
瘵	-12.2381
磊	-12.2381
掀	-12.2382
皦	-12.2382
綦	-12.2382
壎	-12.2382
鄠	-12.2383
稾	-12.2384
墊	-12.2384
㸑	-12.2385
豚	-12.2385
憝	-12.2385
沓	-12.2386
杰	-12.2386
殻	-12.2387
葭	-12.2387
鍳	-12.2387
簪	-12.2387
曵	-12.2389
呻	-12.2389
綎	-12.239
勍	-12.239
鉄	-12.2392
瑺	-12.2394
隍	-12.2779
讚	-12.2785
卬	-12.2785
醢	-12.2786
俎	-12.2786
肸	-12.2786
凊	-12.2787
嘑	-12.2787
雝	-12.2787
緜	-12.2787
趺	-12.2788
僃	-12.2788
衽	-12.2788
闋	-12.279
脗	-12.2791
􁐻	-12.2791
岫	-12.2792
盂	-12.2792
晳	-12.2793
翛	-12.2793
簋	-12.2793
蕘	-12.2793
禺	-12.2794
彀	-12.2794
宷	-12.2795
輳	-12.2795
塜	-12.2795
聪	-12.2796
彘	-12.2797
穪	-12.2797
禠	-12.2798
胞	-12.2798
尖	-12.2799
桴	-12.2799
吸	-12.28
鋟	-12.28
撙	-12.2801
萇	-12.2801
謩	-12.2801
頰	-12.2801
頎	-12.2802
蘋	-12.2802
釘	-12.2802
憇	-12.2802
憗	-12.2803
埃	-12.2803
禰	-12.2803
歧	-12.2803
瀑	-12.2805
嚙	-12.2806
讟	-12.2807
溶	-12.2807
屣	-12.2807
适	-12.2807
𨗳	-12.2808
窆	-12.2808
鏑	-12.2809
嗔	-12.281
倧	-12.281
爪	-12.281
仄	-12.2811
釗	-12.2813
簮	-12.2813
兗	-12.2817
刖	-12.2823
筒	-12.2826
佗	-12.3206
鏖	-12.3217
鄕	-12.322
斾	-12.322
笙	-12.322
釵	-12.3222
鶉	-12.3222
秭	-12.3223
癡	-12.3223
熺	-12.3223
溜	-12.3223
皜	-12.3224
畛	-12.3225
沴	-12.3226
逭	-12.3227
竆	-12.3228
埓	-12.3228
澌	-12.3228
杓	-12.3229
菑	-12.3229
瑁	-12.3229
埭	-12.3229
䜿	-12.3229
饜	-12.323
攫	-12.323
苔	-12.323
濰	-12.323
絮	-12.323
魔	-12.3231
咀	-12.3232
啗	-12.3232
綾	-12.3233
婣	-12.3233
泫	-12.3233
恫	-12.3234
楯	-12.3234
閧	-12.3234
珀	-12.3235
珉	-12.3236
穏	-12.3237
犍	-12.3237
繭	-12.3237
腥	-12.3238
靦	-12.3238
豳	-12.3239
脯	-12.3239
鞾	-12.3239
瞶	-12.3239
晞	-12.324
蕚	-12.3242
槨	-12.3242
夘	-12.3242
値	-12.3243
熄	-12.3243
扆	-12.3244
鼈	-12.3245
虬	-12.3246
瞢	-12.3246
鄣	-12.3665
徔	-12.3668
嚭	-12.3671
皥	-12.3673
倆	-12.3673
褥	-12.3673
埔	-12.3677
礮	-12.3677
蘧	-12.3677
蜒	-12.3677
兠	-12.3678
琚	-12.3678
砭	-12.3679
跖	-12.368
澇	-12.3681
閈	-12.3681
萎	-12.3681
鵞	-12.3683
梵	-12.3683
肌	-12.3684
飼	-12.3684
剩	-12.3684
汧	-12.3685
痕	-12.3685
侁	-12.3685
煮	-12.3685
庄	-12.3686
菱	-12.3686
唁	-12.3686
摳	-12.3686
飮	-12.3686
罩	-12.3686
堠	-12.3687
凰	-12.3688
晃	-12.3688
痼	-12.3689
締	-12.3689
咄	-12.3689
肴	-12.3689
矛	-12.3689
畤	-12.369
緊	-12.3691
喘	-12.3691
簣	-12.3691
儱	-12.3691
轎	-12.3692
哦	-12.3692
樾	-12.3692
滓	-12.3692
噤	-12.3693
絞	-12.3693
諗	-12.3693
虺	-12.3694
𧺫	-12.3694
欷	-12.3694
糠	-12.3695
爚	-12.3695
紵	-12.3695
縞	-12.3696
鴿	-12.3696
撝	-12.3697
碁	-12.3697
轟	-12.3697
鑣	-12.3697
磴	-12.3697
賍	-12.3698
剌	-12.3698
鈴	-12.37
幇	-12.37
搶	-12.37
凃	-12.37
鴛	-12.37
邂	-12.3702
寬	-12.3704
姢	-12.3709
袴	-12.3742
蒜	-12.4136
揑	-12.4138
鑛	-12.4143
郯	-12.4148
篙	-12.4149
囷	-12.4149
皁	-12.4151
蕺	-12.4151
㺯	-12.4151
槀	-12.4151
䘵	-12.4152
㷀	-12.4154
砮	-12.4155
圎	-12.4155
儗	-12.4155
箸	-12.4155
艤	-12.4156
爇	-12.4156
鬢	-12.4157
瀦	-12.4157
蚊	-12.4157
冽	-12.4158
淇	-12.4159
鍜	-12.416
亹	-12.416
轓	-12.416
劬	-12.416
泓	-12.416
瑰	-12.4161
腆	-12.4161
僎	-12.4161
籩	-12.4162
圮	-12.4162
濩	-12.4163
勳	-12.4164
勣	-12.4164
訌	-12.4165
吭	-12.4165
燠	-12.4166
纚	-12.4167
綻	-12.4167
禩	-12.4167
姤	-12.4167
欹	-12.4168
窬	-12.4169
鎻	-12.417
殲	-12.417
簷	-12.4171
瑯	-12.4171
跽	-12.4171
𬒳	-12.4171
怛	-12.4171
眦	-12.4175
榔	-12.4176
瞀	-12.4176
嚚	-12.418
軻	-12.418
郫	-12.4181
爨	-12.4182
嘏	-12.4187
耼	-12.4189
瞋	-12.4199
蛋	-12.4202
澶	-12.4491
鄞	-12.4581
羕	-12.4595
䍐	-12.4628
黿	-12.4635
瀧	-12.464
禫	-12.4641
猪	-12.4646
樟	-12.4649
鱷	-12.4651
痺	-12.4652
衒	-12.4652
巉	-12.4653
甯	-12.4654
殤	-12.4655
嫠	-12.4655
踣	-12.4655
詁	-12.4656
嘛	-12.4656
臟	-12.4656
飈	-12.4656
篷	-12.4656
汐	-12.4656
釜	-12.4656
錙	-12.4657
𤯝	-12.4658
鎛	-12.4659
豸	-12.4659
櫜	-12.4659
煑	-12.466
濼	-12.466
觖	-12.4661
敡	-12.4662
聆	-12.4662
堦	-12.4662
嘴	-12.4662
蹉	-12.4663
缶	-12.4663
謠	-12.4663
匕	-12.4663
璆	-12.4663
莎	-12.4664
霓	-12.4664
魅	-12.4664
症	-12.4665
鏘	-12.4665
籓	-12.4665
猫	-12.4666
褰	-12.4667
艶	-12.4668
怎	-12.4668
耋	-12.4668
澍	-12.4669
貔	-12.4669
迯	-12.4669
挟	-12.4669
蹲	-12.467
焜	-12.4672
薌	-12.4672
幙	-12.4672
丱	-12.4673
炤	-12.4673
雎	-12.4674
䆒	-12.4674
㒜	-12.4674
堙	-12.4675
羇	-12.4676
瀨	-12.4676
崗	-12.4676
㴶	-12.4679
赭	-12.468
敲	-12.4681
瓛	-12.4683
睠	-12.4684
㝎	-12.4689
㪺	-12.5155
开	-12.5168
箔	-12.5169
礱	-12.517
擘	-12.5174
酈	-12.5176
踧	-12.5177
艫	-12.5177
窀	-12.5178
笋	-12.5179
斆	-12.518
鋹	-12.518
窄	-12.518
舫	-12.5181
褓	-12.5181
綘	-12.5181
淩	-12.5181
詫	-12.5181
渦	-12.5182
馹	-12.5182
玖	-12.5182
幷	-12.5183
哂	-12.5183
闞	-12.5185
袋	-12.5185
閃	-12.5186
迕	-12.5187
竢	-12.5187
孱	-12.5188
䭾	-12.5188
麈	-12.5188
畯	-12.5188
嫗	-12.5188
靴	-12.5188
嶄	-12.5189
党	-12.5189
嶢	-12.5189
昕	-12.5189
咈	-12.5189
甜	-12.519
簠	-12.519
飴	-12.519
褎	-12.5191
眙	-12.5191
瀏	-12.5192
倬	-12.5192
㝢	-12.5193
央	-12.5193
芙	-12.5194
曇	-12.5194
酖	-12.5194
榷	-12.5194
憬	-12.5195
拄	-12.5196
飱	-12.5196
牕	-12.5196
鑚	-12.5196
湓	-12.5196
跛	-12.5197
俳	-12.5197
撾	-12.5198
瘦	-12.5198
闚	-12.5198
冤	-12.5199
单	-12.52
卉	-12.52
葑	-12.52
筴	-12.5202
鏃	-12.5204
慣	-12.5205
冣	-12.5209
倀	-12.5209
纉	-12.5209
魴	-12.5209
勔	-12.521
淐	-12.572
颯	-12.573
噲	-12.5732
胔	-12.5734
緹	-12.5736
尢	-12.5738
彧	-12.5738
淝	-12.5738
跂	-12.5738
吊	-12.5739
澂	-12.574
薙	-12.574
烜	-12.574
覷	-12.574
洑	-12.5741
鼉	-12.5741
閙	-12.5741
佇	-12.5742
淋	-12.5742
匭	-12.5743
瀰	-12.5743
塚	-12.5745
殣	-12.5745
癯	-12.5745
劈	-12.5746
匆	-12.5746
庳	-12.5748
眚	-12.5748
麴	-12.5748
齕	-12.5749
愾	-12.5749
唘	-12.5749
阪	-12.5749
刳	-12.575
臞	-12.575
佾	-12.575
饕	-12.575
侄	-12.575
惱	-12.5751
鶯	-12.5752
惮	-12.5752
裙	-12.5753
琵	-12.5753
閾	-12.5754
傚	-12.5754
渼	-12.5755
棚	-12.5755
扃	-12.5756
牂	-12.5757
祼	-12.5757
煇	-12.5757
瓏	-12.5758
疹	-12.5758
紋	-12.576
琶	-12.5762
醪	-12.5762
蚋	-12.5767
䁥	-12.5821
暌	-12.6297
軏	-12.6306
媸	-12.631
蕉	-12.6315
赳	-12.6317
鄫	-12.6319
錚	-12.6319
澐	-12.6319
蚩	-12.6319
鬛	-12.632
濺	-12.6321
毉	-12.6322
痘	-12.6322
奧	-12.6322
攢	-12.6322
縗	-12.6323
悸	-12.6324
磚	-12.6325
渟	-12.6326
刧	-12.6326
鹺	-12.6327
籖	-12.6327
杪	-12.6327
聵	-12.6328
絕	-12.6329
匙	-12.6329
粵	-12.6329
噍	-12.6329
躊	-12.633
豔	-12.633
鈺	-12.633
窗	-12.633
戬	-12.633
遨	-12.6331
衘	-12.6331
菁	-12.6331
醵	-12.6331
躅	-12.6332
臍	-12.6332
嶂	-12.6332
梢	-12.6333
踖	-12.6333
幃	-12.6334
藿	-12.6334
蓰	-12.6335
术	-12.6335
匏	-12.6335
藕	-12.6335
嵊	-12.6336
鑽	-12.6336
薑	-12.6337
妲	-12.6337
黌	-12.6337
諠	-12.6337
黛	-12.6338
搉	-12.6338
丢	-12.6338
暈	-12.6339
笄	-12.6339
粃	-12.6339
炮	-12.634
頹	-12.6342
砌	-12.6342
瀹	-12.6342
掦	-12.6342
廌	-12.6343
摽	-12.6344
毖	-12.6344
届	-12.6344
韞	-12.6347
爕	-12.6348
獺	-12.6349
襆	-12.635
陘	-12.6353
鈇	-12.6354
玲	-12.6354
鴦	-12.6364
紞	-12.6367
鱟	-12.6895
燝	-12.6919
偈	-12.6925
舵	-12.6933
郿	-12.6939
稌	-12.694
埠	-12.6941
爍	-12.6942
斲	-12.6942
􁲾	-12.6944
匀	-12.6946
凹	-12.6946
巘	-12.6947
螭	-12.6948
貊	-12.6948
悝	-12.6949
葩	-12.6949
菓	-12.695
訦	-12.6952
齮	-12.6952
煆	-12.6952
犫	-12.6953
蟹	-12.6953
羾	-12.6953
呶	-12.6954
瀉	-12.6954
𥚹	-12.6955
穩	-12.6955
嫓	-12.6955
悮	-12.6956
跼	-12.6956
簸	-12.6956
蕳	-12.6956
摰	-12.6957
秪	-12.6957
庲	-12.6957
郄	-12.6957
緱	-12.6957
莠	-12.6957
訒	-12.6957
圏	-12.6957
錬	-12.6958
塡	-12.6958
耑	-12.6959
襚	-12.6959
怫	-12.696
祛	-12.696
筌	-12.696
毬	-12.696
篁	-12.6961
捶	-12.6961
崙	-12.6961
姨	-12.6963
獞	-12.6963
秤	-12.6963
淦	-12.6963
昞	-12.6963
型	-12.6963
塏	-12.6963
髀	-12.6963
?	-12.6964
粢	-12.6965
蟾	-12.6965
闤	-12.6966
橐	-12.6966
籃	-12.6967
鄺	-12.6967
邜	-12.6968
叫	-12.6969
郜	-12.6969
洄	-12.6971
縟	-12.6971
忩	-12.6971
絙	-12.6971
粱	-12.6971
璨	-12.6973
搴	-12.6974
匣	-12.6974
眎	-12.6974
蒔	-12.6974
朶	-12.6974
濛	-12.6975
訔	-12.6978
綯	-12.698
汊	-12.6981
銃	-12.6984
躔	-12.6986
瀼	-12.7024
盔	-12.7599
腔	-12.7601
洫	-12.7603
􁏢	-12.7603
㫄	-12.7604
郇	-12.7605
狙	-12.7606
犴	-12.7609
夐	-12.7609
礎	-12.761
燿	-12.761
灋	-12.761
澎	-12.7611
兕	-12.7614
斟	-12.7615
蛾	-12.7616
漈	-12.7616
癖	-12.7616
豊	-12.7619
屡	-12.7619
洸	-12.7619
蒂	-12.762
瀋	-12.762
琁	-12.7621
阱	-12.7621
榱	-12.7621
箱	-12.7621
梴	-12.7621
櫻	-12.7621
悻	-12.7622
拽	-12.7623
芹	-12.7624
椅	-12.7624
恡	-12.7624
緻	-12.7625
紈	-12.7625
睟	-12.7625
𡨕	-12.7626
𫉬	-12.7626
犇	-12.7626
搭	-12.7626
㒺	-12.7626
氾	-12.7626
岔	-12.7627
匾	-12.7627
湔	-12.7627
醯	-12.7627
蔕	-12.7627
頁	-12.7628
蝟	-12.7628
攅	-12.7628
漚	-12.7628
菉	-12.7628
茸	-12.7629
簫	-12.7629
罍	-12.7629
崆	-12.7629
戦	-12.7629
勗	-12.763
嵌	-12.763
掬	-12.763
硏	-12.7631
綮	-12.7632
瞪	-12.7632
卲	-12.7633
釃	-12.7633
𬗟	-12.7633
蚶	-12.7633
穽	-12.7633
葱	-12.7635
憔	-12.7635
澦	-12.7635
僂	-12.7635
秬	-12.7636
暄	-12.7636
媢	-12.7636
縢	-12.7636
涅	-12.7636
獬	-12.7637
噴	-12.7637
蝶	-12.7637
璵	-12.7637
劌	-12.7641
躱	-12.7642
汭	-12.7643
洧	-12.7647
幔	-12.7649
霏	-12.7652
柑	-12.7653
嶲	-12.7654
㳄	-12.7658
􁃝	-12.8302
恙	-12.8304
兜	-12.831
塤	-12.8318
珹	-12.8323
鮪	-12.8324
杠	-12.8324
㗖	-12.8326
鑱	-12.833
畸	-12.833
鬷	-12.833
夬	-12.8331
讁	-12.8332
唃	-12.8333
娑	-12.8333
驃	-12.8334
𧖟	-12.8335
衫	-12.8336
鄤	-12.8336
惎	-12.8336
諏	-12.8337
贜	-12.8337
嘖	-12.8337
㾗	-12.8337
𦕈	-12.8337
蓑	-12.8338
咤	-12.8338
衊	-12.8339
朘	-12.834
箬	-12.834
攪	-12.834
洹	-12.834
篠	-12.8341
仿	-12.8341
阬	-12.8341
噎	-12.8341
脛	-12.8342
輜	-12.8342
轢	-12.8342
㳫	-12.8342
万	-12.8342
沫	-12.8342
㪷	-12.8342
韡	-12.8345
邲	-12.8345
慫	-12.8346
鞋	-12.8346
䄂	-12.8346
躇	-12.8347
姝	-12.8348
簇	-12.8348
嵎	-12.8348
甑	-12.8348
燹	-12.8348
篚	-12.8348
扳	-12.8348
瀬	-12.8349
漾	-12.8351
蛤	-12.8351
窻	-12.8353
飜	-12.8354
忭	-12.8355
賃	-12.8357
涎	-12.8358
鑕	-12.836
旴	-12.8361
穗	-12.8366
刲	-12.8372
鷇	-12.8373
澁	-12.8375
邰	-12.8386
茄	-12.9044
黶	-12.9083
昊	-12.9089
懃	-12.909
圩	-12.9092
諼	-12.9093
痿	-12.9094
瑤	-12.9095
纜	-12.9095
舗	-12.9095
籙	-12.9095
珽	-12.9097
煨	-12.9097
􁂯	-12.9097
槽	-12.9098
蔿	-12.9098
鍤	-12.9099
鞬	-12.9099
篡	-12.91
挐	-12.91
戇	-12.9101
偓	-12.9101
璹	-12.9101
鵰	-12.9102
儇	-12.9102
贗	-12.9102
鰌	-12.9102
熬	-12.9104
肓	-12.9105
蹔	-12.9105
隤	-12.9105
愊	-12.9105
份	-12.9106
觚	-12.9106
綉	-12.9106
坌	-12.9106
衺	-12.9107
鐺	-12.9107
菰	-12.9108
飡	-12.9108
褀	-12.9108
𠫭	-12.9109
瓣	-12.911
櫂	-12.911
鷂	-12.911
璝	-12.911
幗	-12.9111
珮	-12.9111
呪	-12.9111
描	-12.9111
佔	-12.9112
酆	-12.9112
騾	-12.9112
襮	-12.9112
鍛	-12.9113
沍	-12.9113
䞇	-12.9113
罟	-12.9113
聒	-12.9114
撑	-12.9114
彎	-12.9114
㬥	-12.9114
蜮	-12.9115
曁	-12.9115
嗛	-12.9116
軄	-12.9116
愒	-12.9117
礴	-12.9117
罃	-12.9117
鍚	-12.9117
窓	-12.9117
漑	-12.9118
垐	-12.9118
欎	-12.912
􁏉	-12.9121
胖	-12.9121
盼	-12.9122
淘	-12.9122
菌	-12.9123
窕	-12.9123
踽	-12.9125
噉	-12.9126
駛	-12.9128
丼	-12.9128
凂	-12.9128
筐	-12.913
弹	-12.913
苕	-12.9142
斶	-12.9201
碙	-12.9896
璃	-12.9912
湥	-12.9917
瓠	-12.9919
厩	-12.992
盃	-12.992
牐	-12.9925
點	-12.9926
脾	-12.9926
澮	-12.9926
礵	-12.9926
勷	-12.9928
迢	-12.9929
埤	-12.9929
抝	-12.993
慼	-12.9931
幘	-12.9931
沭	-12.9932
岞	-12.9932
郈	-12.9932
哆	-12.9933
猴	-12.9933
嶙	-12.9934
喁	-12.9934
炷	-12.9935
芰	-12.9935
軔	-12.9935
餗	-12.9936
拴	-12.9936
攽	-12.9937
觫	-12.9937
䑸	-12.9937
栰	-12.9937
勩	-12.9937
㩀	-12.9938
蘚	-12.9938
膾	-12.9938
丏	-12.9938
淟	-12.9938
訹	-12.9939
氤	-12.9939
氲	-12.9939
縹	-12.9939
㵼	-12.9939
悈	-12.9939
縠	-12.994
悒	-12.994
巗	-12.994
擎	-12.9941
柝	-12.9941
甬	-12.9941
拏	-12.9941
筯	-12.9941
鬲	-12.9941
虀	-12.9941
澡	-12.9941
湎	-12.9943
惘	-12.9943
枘	-12.9943
蜃	-12.9943
膜	-12.9943
漉	-12.9943
溱	-12.9945
婧	-12.9945
孀	-12.9946
磷	-12.9946
虔	-12.9946
紺	-12.9946
㭿	-12.9947
擡	-12.9947
褁	-12.9947
袪	-12.9948
埰	-12.9948
纁	-12.9949
軿	-12.9949
肹	-12.9949
棁	-12.9949
吃	-12.9949
慍	-12.995
膴	-12.995
朐	-12.9951
仡	-12.9951
枵	-12.9951
閴	-12.9952
盱	-12.9952
舩	-12.9952
衲	-12.9952
醋	-12.9953
瘖	-12.9954
异	-12.9954
駰	-12.9954
蘗	-12.9954
縯	-12.9955
緞	-12.9955
芍	-12.9956
碍	-12.9956
蜜	-12.9958
栝	-12.9958
盞	-12.9959
潑	-12.9961
傴	-12.9961
磵	-12.9962
嵇	-12.9964
諟	-12.9968
屐	-12.997
祻	-12.9975
縲	-12.9976
娟	-12.9976
㜑	-13.0804
拐	-13.0817
逶	-13.0822
燉	-13.0826
滎	-13.0826
蒍	-13.0828
䶵	-13.0829
杵	-13.0831
佖	-13.0832
睽	-13.0834
佈	-13.0835
磾	-13.0836
扑	-13.0836
暎	-13.0836
踉	-13.0837
􁱷	-13.0837
姆	-13.0839
祏	-13.0839
橚	-13.084
暵	-13.0841
禔	-13.0841
髭	-13.0842
邨	-13.0842
壖	-13.0843
芋	-13.0843
朦	-13.0843
攤	-13.0843
洳	-13.0843
倔	-13.0844
玹	-13.0844
憖	-13.0844
佶	-13.0844
尫	-13.0844
鈿	-13.0844
骼	-13.0844
獪	-13.0844
鐍	-13.0845
輛	-13.0845
煢	-13.0846
赧	-13.0846
艸	-13.0846
暦	-13.0846
襯	-13.0846
搒	-13.0846
駘	-13.0846
旹	-13.0847
咫	-13.0847
𫀆	-13.0847
櫃	-13.0847
鐩	-13.0847
荃	-13.0847
矇	-13.0847
矦	-13.0848
窋	-13.0848
傒	-13.0848
郗	-13.0848
篝	-13.0848
恧	-13.0849
胚	-13.0849
甡	-13.0849
哇	-13.0849
挨	-13.0849
餱	-13.0849
昴	-13.085
綍	-13.085
塼	-13.085
桮	-13.0851
悱	-13.0852
嚶	-13.0852
涊	-13.0852
綆	-13.0852
鴞	-13.0852
瘧	-13.0852
榴	-13.0853
襪	-13.0853
捭	-13.0854
褧	-13.0854
醊	-13.0855
檟	-13.0855
邙	-13.0855
崞	-13.0855
帚	-13.0856
攣	-13.0856
䌓	-13.0856
睫	-13.0857
蛙	-13.0858
騤	-13.0858
㩦	-13.0858
椗	-13.0859
暝	-13.0859
賭	-13.0859
泅	-13.0859
槧	-13.086
磽	-13.086
澘	-13.086
涑	-13.086
惛	-13.0861
妺	-13.0861
媳	-13.0861
巇	-13.0862
阯	-13.0862
闒	-13.0863
滏	-13.0863
瞠	-13.0864
茵	-13.0864
㳙	-13.0865
䲭	-13.0867
踔	-13.0868
鐃	-13.0868
葷	-13.0868
吼	-13.087
煕	-13.0871
爬	-13.0872
窅	-13.0872
囤	-13.0872
㕓	-13.0873
茁	-13.0873
蹻	-13.0874
駈	-13.0876
簟	-13.0876
璩	-13.0878
絺	-13.0878
淙	-13.0881
媛	-13.0881
蟇	-13.0886
释	-13.0889
鷓	-13.0895
蕈	-13.0907
岢	-13.1815
畵	-13.1824
腑	-13.1826
蹌	-13.1827
糵	-13.1828
􁫏	-13.1829
鮀	-13.183
燫	-13.183
敺	-13.1832
砍	-13.1832
緲	-13.1832
閌	-13.1832
嶸	-13.1835
眊	-13.1835
礲	-13.1837
磻	-13.1837
隼	-13.1837
刱	-13.1838
潄	-13.1841
蠙	-13.1841
幢	-13.1841
㱕	-13.1841
畬	-13.1842
贇	-13.1842
槎	-13.1842
犁	-13.1842
鏁	-13.1843
甍	-13.1843
萱	-13.1843
萑	-13.1843
拮	-13.1844
𥪡	-13.1844
疉	-13.1844
覡	-13.1845
頫	-13.1845
颷	-13.1845
梳	-13.1845
埏	-13.1846
哽	-13.1846
眄	-13.1846
澀	-13.1846
禡	-13.1847
嶇	-13.1847
禅	-13.1847
侶	-13.1847
阸	-13.1848
欬	-13.1848
芑	-13.1848
矼	-13.1848
肋	-13.1848
矗	-13.1849
㛰	-13.1849
徊	-13.1849
煅	-13.1849
諝	-13.1851
鞮	-13.1851
抨	-13.1851
卸	-13.1851
櫝	-13.1851
瑱	-13.1851
韵	-13.1851
箧	-13.1851
炌	-13.1852
週	-13.1852
楸	-13.1852
蚡	-13.1853
箐	-13.1853
埶	-13.1853
蠖	-13.1854
蹷	-13.1854
鞶	-13.1855
蔥	-13.1855
籟	-13.1855
眸	-13.1855
㰱	-13.1856
蔀	-13.1856
插	-13.1856
鮓	-13.1856
槪	-13.1856
窖	-13.1856
聃	-13.1856
竽	-13.1856
峋	-13.1857
剸	-13.1857
貤	-13.1857
閿	-13.1857
鞓	-13.1857
擷	-13.1858
陿	-13.1858
篳	-13.1859
蜑	-13.1859
尠	-13.186
匯	-13.1861
閶	-13.1861
橙	-13.1861
汁	-13.1861
饍	-13.1861
阼	-13.1862
儈	-13.1862
曆	-13.1862
邅	-13.1862
魑	-13.1863
嘘	-13.1864
嘅	-13.1864
偲	-13.1864
珩	-13.1864
楙	-13.1865
臠	-13.1865
眤	-13.1865
韈	-13.1865
蕆	-13.1865
墪	-13.1866
婪	-13.1867
疥	-13.1867
璇	-13.1868
繻	-13.1868
萄	-13.1869
嫻	-13.1869
貍	-13.1869
糒	-13.1871
爝	-13.1873
翽	-13.1873
瘍	-13.1873
戹	-13.1873
継	-13.1877
凈	-13.1877
匐	-13.1883
苧	-13.1885
疢	-13.1889
揠	-13.1892
栩	-13.1893
塽	-13.1895
滉	-13.1901
貉	-13.2929
嚞	-13.2929
螻	-13.293
痰	-13.2933
玻	-13.2934
櫪	-13.2935
嶧	-13.2936
􁢛	-13.2936
羹	-13.2936
頟	-13.2937
嵛	-13.2938
闉	-13.294
珈	-13.294
狸	-13.2941
匈	-13.2941
睇	-13.2942
啞	-13.2943
黟	-13.2943
錘	-13.2943
祓	-13.2943
牾	-13.2943
惬	-13.2943
瘝	-13.2946
隚	-13.2947
徯	-13.2947
攟	-13.2948
竁	-13.2949
頊	-13.295
坫	-13.295
悄	-13.2952
欖	-13.2952
蕢	-13.2952
儌	-13.2952
閡	-13.2953
䧺	-13.2954
昪	-13.2954
瑨	-13.2954
价	-13.2954
掎	-13.2954
溽	-13.2954
獷	-13.2954
汹	-13.2955
籕	-13.2955
歜	-13.2955
皭	-13.2955
坼	-13.2955
酗	-13.2956
齔	-13.2956
揵	-13.2956
簧	-13.2956
鍪	-13.2957
魃	-13.2957
彷	-13.2958
旛	-13.2958
樑	-13.2958
厪	-13.2958
塩	-13.2959
慆	-13.2959
鏐	-13.2959
偘	-13.2959
棉	-13.296
唶	-13.296
姙	-13.296
忡	-13.296
羶	-13.296
亓	-13.2961
栱	-13.2961
鄯	-13.2961
搔	-13.2961
螟	-13.2961
刓	-13.2962
歘	-13.2962
廋	-13.2962
瘐	-13.2963
毳	-13.2963
顰	-13.2964
咻	-13.2964
㒒	-13.2964
鱄	-13.2964
滀	-13.2965
骫	-13.2965
蕝	-13.2965
艇	-13.2965
刅	-13.2965
慱	-13.2965
帔	-13.2966
陁	-13.2966
坻	-13.2966
楽	-13.2967
涂	-13.2967
頳	-13.2967
拿	-13.2967
絆	-13.2968
嗒	-13.2969
眥	-13.2969
薾	-13.2969
夹	-13.297
怱	-13.297
瞍	-13.2971
鍋	-13.2971
杌	-13.2971
甎	-13.2971
袝	-13.2971
埵	-13.2971
罏	-13.2971
扯	-13.2971
蹐	-13.2971
茀	-13.2972
綈	-13.2973
嚬	-13.2973
甿	-13.2974
腋	-13.2974
垠	-13.2974
堊	-13.2975
牿	-13.2975
梭	-13.2976
彂	-13.2976
殚	-13.2977
鯤	-13.2977
黏	-13.2978
龐	-13.2978
郪	-13.2978
緦	-13.2978
紝	-13.2979
鍇	-13.2979
孶	-13.2981
朅	-13.2982
捋	-13.2983
枹	-13.2987
塈	-13.2988
潨	-13.2989
碏	-13.299
峡	-13.2992
稳	-13.2992
絛	-13.2992
嶝	-13.3
棫	-13.302
悰	-13.3021
鋗	-13.4151
􁈍	-13.4161
嘐	-13.4163
跟	-13.4172
皤	-13.4175
蹋	-13.4186
擗	-13.4186
貜	-13.4186
傕	-13.4189
鵶	-13.4192
籞	-13.4193
妒	-13.4193
􁯌	-13.4194
戟	-13.4194
濘	-13.4194
魍	-13.4195
睂	-13.4195
僥	-13.4195
嶻	-13.4195
劓	-13.4195
鼂	-13.4196
峥	-13.4197
魎	-13.4197
嵯	-13.4197
譌	-13.4197
窰	-13.4198
􁠭	-13.4198
蔞	-13.4199
礧	-13.4199
浰	-13.4199
􁃻	-13.4199
氈	-13.42
䔍	-13.4201
齓	-13.4201
􁈂	-13.4201
坵	-13.4201
晬	-13.4202
筞	-13.4202
懔	-13.4203
窳	-13.4203
桅	-13.4203
嶤	-13.4203
蓽	-13.4203
逯	-13.4203
廄	-13.4203
讕	-13.4203
剉	-13.4203
梱	-13.4204
鏌	-13.4204
􁁴	-13.4204
碌	-13.4204
曝	-13.4205
徉	-13.4205
􁅭	-13.4205
盭	-13.4206
壚	-13.4206
裸	-13.4206
椀	-13.4206
饘	-13.4207
輾	-13.4207
胆	-13.4207
趕	-13.4207
頮	-13.4208
啣	-13.4208
晜	-13.4208
謦	-13.4208
橑	-13.4208
旼	-13.4208
痒	-13.4208
灃	-13.4209
樣	-13.421
慁	-13.421
撡	-13.421
荏	-13.421
𢃄	-13.4211
嚅	-13.4211
皿	-13.4212
緖	-13.4212
讖	-13.4212
翶	-13.4212
冄	-13.4212
罽	-13.4212
耜	-13.4212
鶩	-13.4213
慵	-13.4213
勰	-13.4213
􁁦	-13.4214
蘷	-13.4214
瞳	-13.4214
騃	-13.4214
棖	-13.4215
崤	-13.4215
檠	-13.4216
覸	-13.4216
蕕	-13.4216
喆	-13.4216
斿	-13.4216
饔	-13.4216
蠆	-13.4217
暍	-13.4217
尨	-13.4218
烙	-13.4218
靚	-13.4219
曀	-13.4219
慴	-13.4219
慳	-13.422
崎	-13.422
蔴	-13.422
蘩	-13.4221
鴣	-13.4221
杆	-13.4221
郟	-13.4222
圄	-13.4223
廽	-13.4223
撩	-13.4223
缾	-13.4223
埂	-13.4224
硫	-13.4224
棒	-13.4224
襦	-13.4224
簏	-13.4224
総	-13.4225
櫄	-13.4225
洟	-13.4225
贋	-13.4225
緄	-13.4225
癲	-13.4226
侏	-13.4226
輞	-13.4226
疣	-13.4227
絏	-13.4229
灞	-13.4229
惨	-13.4229
䘖	-13.423
泆	-13.423
媟	-13.4231
禨	-13.4231
佻	-13.4232
悾	-13.4232
䘙	-13.4232
婭	-13.4232
廱	-13.4232
賖	-13.4233
頜	-13.4234
珫	-13.4234
澯	-13.4234
蓁	-13.4236
螫	-13.4236
厎	-13.4236
秃	-13.4236
􁌿	-13.4238
䓁	-13.4238
矮	-13.4238
碗	-13.4238
壌	-13.4239
摛	-13.424
薏	-13.424
硃	-13.4241
蠒	-13.4245
俵	-13.4246
胤	-13.4247
嗅	-13.4262
啻	-13.5576
秧	-13.5589
漯	-13.5592
颼	-13.5603
栒	-13.5606
枋	-13.5607
痔	-13.5608
皝	-13.561
窣	-13.5611
蠣	-13.5612
蛛	-13.5612
忞	-13.5613
趯	-13.5616
噀	-13.5616
柷	-13.5616
蠔	-13.5617
􁲠	-13.5619
譊	-13.5619
獍	-13.562
螽	-13.5622
斮	-13.5623
菟	-13.5624
穵	-13.5624
騮	-13.5624
浥	-13.5625
麵	-13.5625
㙮	-13.5625
犛	-13.5625
鋩	-13.5626
酺	-13.5626
狴	-13.5626
蹀	-13.5626
耔	-13.5627
峕	-13.5628
鐙	-13.5628
蜕	-13.5628
騋	-13.5628
觥	-13.5628
柅	-13.5628
􁂜	-13.5629
鸛	-13.5629
蛻	-13.5629
漷	-13.5629
櫺	-13.5629
猱	-13.563
廳	-13.563
豨	-13.563
関	-13.5631
趋	-13.5631
楔	-13.5631
癉	-13.5631
崢	-13.5631
勌	-13.5631
驆	-13.5631
鰥	-13.5632
拗	-13.5632
袐	-13.5632
娼	-13.5632
綝	-13.5632
撇	-13.5632
騭	-13.5633
濆	-13.5633
椁	-13.5633
囁	-13.5633
煊	-13.5633
坭	-13.5633
袠	-13.5634
龢	-13.5634
蹰	-13.5634
眡	-13.5634
蹵	-13.5634
閠	-13.5634
􁰋	-13.5635
呀	-13.5635
騂	-13.5635
廞	-13.5635
鄄	-13.5635
姞	-13.5635
斚	-13.5636
翃	-13.5637
堧	-13.5637
玶	-13.5637
惹	-13.5637
轘	-13.5637
辮	-13.5637
膈	-13.5638
厫	-13.5638
鄊	-13.5638
醲	-13.5638
僱	-13.5638
躒	-13.5638
頔	-13.5638
酲	-13.5639
咒	-13.5639
禜	-13.564
机	-13.564
熲	-13.564
礬	-13.564
渰	-13.564
鱉	-13.564
蒺	-13.564
痴	-13.5641
䑛	-13.5641
蒨	-13.5641
敉	-13.5641
姫	-13.5642
秕	-13.5642
伷	-13.5642
苓	-13.5642
秖	-13.5643
鱣	-13.5643
鸕	-13.5643
碇	-13.5643
瞎	-13.5644
愞	-13.5644
繯	-13.5644
咋	-13.5645
襖	-13.5645
儳	-13.5646
鬪	-13.5646
腊	-13.5646
嬌	-13.5646
桱	-13.5646
俐	-13.5646
虵	-13.5646
芘	-13.5647
矚	-13.5647
噱	-13.5648
駔	-13.5648
剜	-13.5648
暏	-13.5648
眹	-13.5648
羆	-13.5648
呐	-13.5648
噩	-13.5648
痁	-13.5649
襞	-13.5649
褻	-13.5649
确	-13.5649
翮	-13.5649
幬	-13.565
俅	-13.565
胼	-13.565
漪	-13.565
岌	-13.5652
忖	-13.5652
换	-13.5652
朢	-13.5652
蚕	-13.5652
嘱	-13.5652
罇	-13.5653
碉	-13.5653
銕	-13.5653
糖	-13.5654
荑	-13.5654
乱	-13.5655
摺	-13.5655
冇	-13.5656
嗷	-13.5657
噓	-13.5657
爺	-13.5658
坰	-13.5658
瑑	-13.5659
􁐠	-13.5659
絓	-13.5659
縡	-13.566
駉	-13.566
姣	-13.5661
瑒	-13.5662
骯	-13.5663
譸	-13.5664
喊	-13.5666
譓	-13.5666
􁨑	-13.5669
詼	-13.5671
灊	-13.5671
碚	-13.5672
殀	-13.5673
㞦	-13.5673
戛	-13.5673
􁂪	-13.5675
顱	-13.5675
鉌	-13.5676
卡	-13.5676
攩	-13.568
皴	-13.5681
泪	-13.5684
綌	-13.5688
鄘	-13.5689
鈆	-13.5702
淶	-13.725
沚	-13.7263
畞	-13.7265
􁃇	-13.7265
湋	-13.7265
淒	-13.7268
糈	-13.727
簦	-13.727
竚	-13.7273
瑢	-13.7273
遫	-13.7274
𬋩	-13.7275
磋	-13.7276
䬃	-13.7277
柞	-13.7277
耉	-13.7278
屆	-13.7278
轝	-13.7279
㦯	-13.728
膊	-13.728
㬇	-13.728
屎	-13.728
敔	-13.7282
􁊞	-13.7282
耰	-13.7283
嶪	-13.7283
傀	-13.7284
郅	-13.7284
鷃	-13.7284
瓮	-13.7285
玫	-13.7285
脰	-13.7286
􁋊	-13.7286
喟	-13.7288
虓	-13.7289
蝎	-13.7291
誶	-13.7291
蠋	-13.7291
賮	-13.7291
蘂	-13.7291
鵒	-13.7291
鸜	-13.7291
媽	-13.7293
烴	-13.7293
撈	-13.7294
旡	-13.7294
囮	-13.7294
􁇔	-13.7295
厘	-13.7295
遟	-13.7295
儡	-13.7295
蕾	-13.7296
蓢	-13.7296
瓿	-13.7296
癭	-13.7297
鞌	-13.7297
􁦚	-13.7297
黝	-13.7297
賺	-13.7297
襌	-13.7298
樅	-13.7298
窽	-13.7298
窿	-13.7298
瘃	-13.7298
􁂎	-13.7299
檐	-13.7299
褂	-13.7299
蓺	-13.7299
雯	-13.73
澨	-13.73
塙	-13.73
􁀣	-13.7301
羯	-13.7301
隃	-13.7301
嬙	-13.7301
阽	-13.7301
㴠	-13.7301
忸	-13.7302
虱	-13.7302
屩	-13.7302
𤇺	-13.7302
虖	-13.7302
籽	-13.7304
瘥	-13.7304
衟	-13.7304
蝨	-13.7304
牴	-13.7305
啾	-13.7305
莢	-13.7305
泱	-13.7305
暕	-13.7305
鐶	-13.7305
憺	-13.7305
乩	-13.7306
岏	-13.7306
哮	-13.7306
划	-13.7306
罣	-13.7306
侫	-13.7306
鋼	-13.7306
粳	-13.7306
腎	-13.7307
疼	-13.7307
膰	-13.7307
辣	-13.7307
揄	-13.7307
􁬸	-13.7308
呑	-13.7308
釬	-13.7308
胝	-13.7309
遅	-13.7309
呰	-13.7309
僩	-13.7309
穜	-13.7309
狖	-13.731
睛	-13.731
裎	-13.731
滻	-13.731
曬	-13.731
毘	-13.731
薺	-13.731
籜	-13.731
戞	-13.7311
轔	-13.7311
挿	-13.7311
崒	-13.7311
淅	-13.7311
紕	-13.7311
咳	-13.7311
枿	-13.7311
歂	-13.7311
醻	-13.7311
隈	-13.7311
誷	-13.7312
枳	-13.7312
廛	-13.7312
浡	-13.7313
尒	-13.7313
鑪	-13.7313
湴	-13.7314
柿	-13.7314
町	-13.7314
螘	-13.7314
艨	-13.7314
輭	-13.7314
餕	-13.7314
趄	-13.7315
貓	-13.7315
瞷	-13.7315
㷱	-13.7315
毦	-13.7315
衜	-13.7315
楗	-13.7316
禭	-13.7316
麕	-13.7316
痾	-13.7316
呆	-13.7316
瘢	-13.7316
祍	-13.7316
隩	-13.7316
錞	-13.7316
儵	-13.7317
姍	-13.7317
霰	-13.7318
􁇦	-13.7318
蠏	-13.7319
鬆	-13.7319
橡	-13.7319
攲	-13.7319
癰	-13.7319
辠	-13.732
捆	-13.732
鮫	-13.732
輈	-13.7321
髹	-13.7321
姧	-13.7321
皃	-13.7322
瓆	-13.7322
𦦨	-13.7322
俻	-13.7322
芷	-13.7322
槳	-13.7323
籀	-13.7324
輋	-13.7325
橈	-13.7325
胃	-13.7325
堣	-13.7326
鼾	-13.7326
罌	-13.7326
􁦹	-13.7326
笳	-13.7327
䦧	-13.7327
厷	-13.7327
薈	-13.7327
昜	-13.7328
晢	-13.7328
傖	-13.7329
弢	-13.733
䇓	-13.733
攔	-13.7331
糢	-13.7331
嬾	-13.7332
搤	-13.7332
醸	-13.7332
癬	-13.7333
餬	-13.7333
㡳	-13.7333
觶	-13.7334
􁀾	-13.7334
琇	-13.7334
凭	-13.7334
枅	-13.7335
燁	-13.7335
裭	-13.7335
岧	-13.7336
獮	-13.7336
棻	-13.7337
蓊	-13.7338
鷲	-13.7338
鯢	-13.7338
㶁	-13.7338
蜺	-13.734
漦	-13.7341
憙	-13.7344
弈	-13.7345
紉	-13.735
丫	-13.7353
穠	-13.7359
剃	-13.7359
枲	-13.7361
㠶	-13.7363
歊	-13.7366
銚	-13.9238
涴	-13.9255
沇	-13.9255
逴	-13.9257
粽	-13.926
枌	-13.9261
鄱	-13.9261
漙	-13.9262
浤	-13.9262
繖	-13.9268
垕	-13.9269
䢵	-13.9269
轆	-13.9271
肚	-13.9272
巣	-13.9273
禝	-13.9274
蟊	-13.9274
盬	-13.9275
賠	-13.9276
齦	-13.9276
杙	-13.9277
姉	-13.9277
劂	-13.9278
蚣	-13.9278
醺	-13.9279
淞	-13.9279
崈	-13.9279
纏	-13.928
繽	-13.928
杕	-13.928
棬	-13.928
桌	-13.9281
蓴	-13.9281
㲄	-13.9281
贙	-13.9282
箑	-13.9282
挍	-13.9283
獧	-13.9283
紼	-13.9283
魋	-13.9284
萋	-13.9286
橛	-13.9287
誆	-13.9287
嚻	-13.9287
剴	-13.9287
抔	-13.9288
濞	-13.9288
騙	-13.9288
豋	-13.9289
磕	-13.929
岵	-13.929
瀲	-13.929
擦	-13.9291
鎸	-13.9291
嚇	-13.9291
嘽	-13.9292
竜	-13.9292
晒	-13.9293
㢮	-13.9293
醎	-13.9293
𨕖	-13.9293
苢	-13.9294
渫	-13.9294
獰	-13.9294
塌	-13.9294
絍	-13.9294
渑	-13.9294
懂	-13.9294
嘠	-13.9295
煤	-13.9295
嚳	-13.9295
槥	-13.9295
駴	-13.9296
滾	-13.9297
迮	-13.9297
韠	-13.9297
浞	-13.9297
记	-13.9297
甖	-13.9297
淊	-13.9298
胗	-13.9298
􁐾	-13.9298
憕	-13.9298
拚	-13.9298
倜	-13.9299
牯	-13.9299
穂	-13.9299
緌	-13.93
鋋	-13.93
邡	-13.93
撐	-13.93
戜	-13.93
鶡	-13.93
笻	-13.9301
惸	-13.9301
瀣	-13.9301
磑	-13.9301
蠎	-13.9301
吮	-13.9302
榼	-13.9302
驄	-13.9302
蒭	-13.9302
浃	-13.9303
釴	-13.9303
蒧	-13.9303
熭	-13.9303
倏	-13.9303
鄔	-13.9304
滘	-13.9304
㦂	-13.9304
洱	-13.9304
簉	-13.9304
沠	-13.9305
咺	-13.9305
眢	-13.9305
蟶	-13.9305
韭	-13.9305
哱	-13.9305
嵂	-13.9305
嵒	-13.9305
釧	-13.9306
厖	-13.9306
泡	-13.9306
堇	-13.9306
惽	-13.9306
朧	-13.9306
尔	-13.9306
莩	-13.9306
黮	-13.9307
熇	-13.9307
鞕	-13.9307
逌	-13.9307
廥	-13.9308
􁒺	-13.9308
濚	-13.9308
簴	-13.9308
眯	-13.9308
廑	-13.9309
簑	-13.9309
臀	-13.9309
􁃽	-13.9309
嘶	-13.9309
徕	-13.9309
戣	-13.9309
珞	-13.931
醬	-13.931
㗋	-13.931
缽	-13.931
錝	-13.931
爆	-13.931
录	-13.931
斸	-13.931
灶	-13.931
熞	-13.931
劃	-13.931
蟣	-13.9311
𫝑	-13.9311
庋	-13.9312
圵	-13.9313
鼙	-13.9313
熠	-13.9313
囏	-13.9314
潸	-13.9314
虣	-13.9314
􁒦	-13.9314
櫨	-13.9314
碾	-13.9314
㒞	-13.9315
灕	-13.9315
􁪶	-13.9315
㽔	-13.9316
媼	-13.9316
縕	-13.9316
紲	-13.9316
鬍	-13.9316
瞥	-13.9316
狻	-13.9316
痢	-13.9316
𣗳	-13.9316
鏟	-13.9317
靬	-13.9317
惙	-13.9317
湞	-13.9318
鮭	-13.9318
綖	-13.9318
浼	-13.9318
䓻	-13.9319
峘	-13.9319
篔	-13.9319
羖	-13.9319
齠	-13.932
嫕	-13.932
酎	-13.9321
歠	-13.9321
瑫	-13.9321
嶔	-13.9322
楩	-13.9322
穟	-13.9322
醨	-13.9322
燀	-13.9322
磝	-13.9323
岨	-13.9323
梲	-13.9323
咿	-13.9323
顴	-13.9324
蕋	-13.9324
唳	-13.9324
㞐	-13.9324
玗	-13.9324
敓	-13.9325
嗑	-13.9325
眘	-13.9327
􁈊	-13.9327
槱	-13.9327
軹	-13.9328
冔	-13.9328
鎚	-13.9328
㐲	-13.9328
諴	-13.9328
踴	-13.9328
肈	-13.9329
茒	-13.9329
􁗽	-13.9329
灔	-13.933
愳	-13.933
𥙿	-13.933
椶	-13.9331
曏	-13.9331
厶	-13.9331
跧	-13.9331
縚	-13.9331
媾	-13.9332
􁁪	-13.9333
鉶	-13.9334
酪	-13.9334
􁀧	-13.9334
稺	-13.9335
悊	-13.9335
侊	-13.9336
𠻳	-13.9336
懍	-13.9337
抶	-13.9338
霣	-13.9338
逥	-13.934
嘷	-13.9341
􁎗	-13.9341
鎩	-13.9342
儺	-13.9342
袿	-13.9343
猨	-13.9343
鑼	-13.9343
笆	-13.9344
桒	-13.9344
麀	-13.9346
巂	-13.9347
􁆸	-13.9352
罥	-13.9353
媍	-13.9355
涔	-13.936
葡	-13.9361
韌	-13.9369
瑠	-13.9391
柂	-14.172
滃	-14.1734
稊	-14.1749
咮	-14.1749
薤	-14.1749
鵁	-14.1752
鶄	-14.1752
矌	-14.1754
蠕	-14.1755
慇	-14.1755
嵲	-14.1757
廙	-14.1757
薳	-14.1757
巓	-14.1764
飇	-14.1765
婼	-14.1767
􁡯	-14.1768
抆	-14.177
葘	-14.177
鷖	-14.1771
幵	-14.1771
戔	-14.1771
沄	-14.1771
瀍	-14.1773
􁀇	-14.1773
瀠	-14.1773
闍	-14.1775
癃	-14.1775
蒱	-14.1776
芣	-14.1777
籮	-14.1777
邯	-14.1777
慺	-14.1777
秊	-14.1777
襜	-14.1778
􁋚	-14.1778
㒹	-14.1778
楛	-14.1779
餳	-14.178
泐	-14.1781
驘	-14.1781
橅	-14.1782
蓨	-14.1782
鰐	-14.1782
艣	-14.1782
罙	-14.1783
苜	-14.1784
謭	-14.1784
蘀	-14.1784
俔	-14.1784
谹	-14.1785
蜈	-14.1785
淯	-14.1785
踢	-14.1785
􁇛	-14.1785
轤	-14.1786
怩	-14.1786
勻	-14.1786
嶫	-14.1786
艚	-14.1786
𥅆	-14.1786
嗸	-14.1787
宂	-14.1788
椸	-14.1788
賨	-14.1789
棱	-14.1789
圌	-14.179
戄	-14.1791
窑	-14.1791
縭	-14.1791
跑	-14.1791
脤	-14.1791
㳅	-14.1792
鋌	-14.1792
躚	-14.1792
卣	-14.1793
虒	-14.1793
侻	-14.1793
啍	-14.1793
鵾	-14.1793
麯	-14.1795
銛	-14.1795
皺	-14.1795
龠	-14.1795
嬈	-14.1796
鐇	-14.1796
􁒽	-14.1796
揲	-14.1796
餧	-14.1796
饁	-14.1796
帡	-14.1796
幪	-14.1796
皸	-14.1796
臝	-14.1796
幞	-14.1798
旐	-14.1798
碻	-14.1798
霪	-14.1798
鰓	-14.1798
囓	-14.1799
鄷	-14.1799
䴡	-14.1799
噂	-14.1799
搘	-14.1799
萸	-14.1799
偰	-14.1799
鬖	-14.1799
桄	-14.1799
玦	-14.1799
蚓	-14.1799
􁀒	-14.1799
媺	-14.18
歃	-14.18
苶	-14.18
𣆀	-14.18
靁	-14.18
稞	-14.1802
抺	-14.1802
鞘	-14.1802
楝	-14.1802
迋	-14.1802
壝	-14.1802
畮	-14.1802
舡	-14.1802
蝇	-14.1802
慗	-14.1802
桺	-14.1802
矟	-14.1802
豷	-14.1802
鏄	-14.1803
􁈯	-14.1803
䌫	-14.1803
痌	-14.1803
鍧	-14.1803
犠	-14.1803
訿	-14.1803
柙	-14.1803
蜉	-14.1803
煃	-14.1803
􁁄	-14.1804
洭	-14.1804
鞞	-14.1804
橧	-14.1804
垾	-14.1804
纇	-14.1804
舴	-14.1804
渢	-14.1805
愓	-14.1805
秸	-14.1806
溈	-14.1806
骳	-14.1806
㢡	-14.1806
杇	-14.1806
啚	-14.1806
葅	-14.1806
沬	-14.1806
茆	-14.1806
埧	-14.1806
鍥	-14.1806
㭱	-14.1806
􁆻	-14.1806
蓓	-14.1807
槬	-14.1807
驊	-14.1807
艋	-14.1807
捿	-14.1807
篥	-14.1807
猇	-14.1807
䡌	-14.1807
嫋	-14.1807
琱	-14.1807
漱	-14.1808
哻	-14.1809
霹	-14.1809
涙	-14.1809
亰	-14.1809
幂	-14.1809
菅	-14.1809
慷	-14.1809
膓	-14.181
咥	-14.181
簹	-14.181
与	-14.181
啁	-14.181
姗	-14.181
涷	-14.181
屼	-14.181
虫	-14.181
囅	-14.1811
弆	-14.1811
蟜	-14.1811
㮄	-14.1811
㷂	-14.1811
􁝠	-14.1813
堲	-14.1813
懊	-14.1813
楪	-14.1813
鄗	-14.1813
蘤	-14.1813
檗	-14.1813
嗢	-14.1814
噭	-14.1814
麫	-14.1814
茟	-14.1814
􁒭	-14.1814
薜	-14.1814
圬	-14.1814
岍	-14.1814
曕	-14.1814
摉	-14.1816
娃	-14.1816
艟	-14.1816
噆	-14.1816
篐	-14.1816
𫐠	-14.1816
鳲	-14.1817
蝴	-14.1817
袗	-14.1817
䥴	-14.1817
邛	-14.1818
喈	-14.1818
漻	-14.1818
淓	-14.1818
拲	-14.1818
􁔱	-14.1818
瓈	-14.1818
􁈜	-14.1818
赱	-14.182
淼	-14.182
跅	-14.182
変	-14.182
賅	-14.182
檔	-14.182
淀	-14.1821
緷	-14.1821
鍈	-14.1822
窹	-14.1822
趫	-14.1822
覉	-14.1822
搯	-14.1822
朏	-14.1823
禿	-14.1823
怗	-14.1824
麩	-14.1824
昰	-14.1824
洌	-14.1824
劊	-14.1824
羝	-14.1824
麰	-14.1824
砢	-14.1825
寠	-14.1825
􁇢	-14.1826
磗	-14.1827
剷	-14.1827
鷁	-14.1828
螢	-14.1828
磈	-14.1828
璪	-14.1828
痞	-14.1828
峿	-14.1828
炅	-14.1829
筝	-14.1829
嫵	-14.1829
芼	-14.1829
荇	-14.1829
鏸	-14.1829
膩	-14.1829
裯	-14.1829
悁	-14.1831
薯	-14.1831
鄲	-14.1831
杻	-14.1831
橦	-14.1831
澔	-14.1831
鉧	-14.1831
蚺	-14.1831
桔	-14.1834
崐	-14.1834
垵	-14.1834
鈷	-14.1834
狭	-14.1835
秫	-14.1835
鱠	-14.1835
裼	-14.1836
曛	-14.1838
訇	-14.1838
軺	-14.1838
谼	-14.1839
劎	-14.1839
甆	-14.1839
邶	-14.1839
䟱	-14.1839
袈	-14.1839
裟	-14.1839
脣	-14.1841
茇	-14.1842
旉	-14.1842
獐	-14.1843
詧	-14.1843
玕	-14.1843
窔	-14.1846
鬨	-14.1846
堨	-14.1846
塍	-14.1847
縧	-14.1847
堉	-14.1847
娀	-14.1849
䠞	-14.185
僴	-14.1852
獫	-14.1853
檮	-14.1853
怜	-14.1854
葯	-14.1856
恮	-14.1856
箏	-14.1857
氅	-14.1858
頵	-14.186
帟	-14.1861
鰒	-14.1863
𥜗	-14.1863
鏢	-14.1867
崍	-14.187
倓	-14.1884
鐷	-14.1884
荳	-14.1913
桁	-14.5054
唆	-14.5079
捩	-14.5081
榗	-14.5083
仃	-14.5083
呫	-14.5087
姸	-14.5089
懆	-14.5089
溆	-14.5089
甽	-14.5091
㴻	-14.5093
斕	-14.5094
㘵	-14.5095
搥	-14.5096
溞	-14.5097
僈	-14.5098
㦲	-14.5098
㨂	-14.5098
䱷	-14.51
搓	-14.51
剟	-14.5101
㔻	-14.5102
獒	-14.5102
墖	-14.5102
帨	-14.5104
痏	-14.5106
㗳	-14.5106
珓	-14.5106
䪥	-14.5108
偟	-14.5108
湃	-14.5108
啑	-14.5108
珷	-14.511
柢	-14.5111
俌	-14.5112
畣	-14.5114
櫳	-14.5114
惷	-14.5114
柗	-14.5116
俁	-14.5116
墼	-14.5116
巑	-14.5118
嚄	-14.5118
佼	-14.5118
听	-14.512
姐	-14.512
濈	-14.512
撦	-14.5121
晊	-14.5122
搪	-14.5122
䣛	-14.5122
㳤	-14.5123
妊	-14.5123
泒	-14.5123
撗	-14.5124
㬎	-14.5124
㮤	-14.5124
璐	-14.5124
岹	-14.5125
剳	-14.5125
卾	-14.5125
帀	-14.5125
眶	-14.5125
惏	-14.5127
漼	-14.5127
呴	-14.5127
秔	-14.5127
暾	-14.5127
皈	-14.5127
眭	-14.5127
槿	-14.5129
匶	-14.5129
曮	-14.5129
挲	-14.513
淥	-14.5131
灂	-14.5131
倂	-14.5131
忼	-14.5131
昫	-14.5131
枇	-14.5131
漭	-14.5133
洿	-14.5133
潚	-14.5133
碕	-14.5133
烖	-14.5133
剞	-14.5133
嚌	-14.5133
欃	-14.5133
杷	-14.5133
崘	-14.5134
猘	-14.5135
嚏	-14.5135
咆	-14.5135
儅	-14.5135
㝱	-14.5135
櫩	-14.5135
䖝	-14.5137
唬	-14.5137
祊	-14.5137
喑	-14.5137
惓	-14.5137
䆅	-14.5137
㻑	-14.5137
剚	-14.5137
庥	-14.5137
㞰	-14.5137
㯣	-14.5137
抖	-14.5139
擻	-14.5139
惔	-14.5139
偎	-14.5139
墐	-14.5139
圊	-14.5139
坨	-14.5139
噢	-14.5141
㕑	-14.5141
媯	-14.5141
怔	-14.5141
琠	-14.5141
墯	-14.5143
徘	-14.5145
揩	-14.5145
撅	-14.5145
旤	-14.5145
条	-14.5145
圇	-14.5145
弥	-14.5145
禊	-14.5145
勱	-14.5145
牸	-14.5147
凸	-14.5147
撚	-14.5147
穣	-14.5147
僶	-14.5147
柚	-14.5147
扒	-14.5147
忷	-14.5147
汞	-14.5147
杈	-14.5149
䀻	-14.5149
孃	-14.5149
僰	-14.5149
䀋	-14.5149
儧	-14.5149
殳	-14.5149
焻	-14.5149
㴩	-14.5149
碔	-14.5149
屺	-14.515
竸	-14.515
淏	-14.515
滷	-14.515
潠	-14.515
磥	-14.5151
璀	-14.5151
砆	-14.5151
渷	-14.5152
圳	-14.5152
䰟	-14.5152
忉	-14.5152
潏	-14.5152
熨	-14.5152
沕	-14.5152
眕	-14.5152
㯽	-14.5154
㘭	-14.5154
伹	-14.5154
唤	-14.5154
壒	-14.5154
榰	-14.5156
槲	-14.5156
㕁	-14.5156
牷	-14.5156
愻	-14.5156
殕	-14.5156
晛	-14.5158
眈	-14.5158
㜕	-14.5158
慓	-14.5158
擭	-14.5158
烓	-14.5158
㚄	-14.516
䥖	-14.516
癩	-14.516
坍	-14.5162
㬠	-14.5162
棕	-14.5162
禴	-14.5162
姱	-14.5162
坷	-14.5162
嵳	-14.5162
侠	-14.5164
呿	-14.5164
楣	-14.5164
墦	-14.5166
扭	-14.5166
墄	-14.5168
恝	-14.5168
号	-14.5168
盒	-14.517
玟	-14.517
拇	-14.517
很	-14.5172
悢	-14.5172
獯	-14.5172
洼	-14.5174
㮣	-14.5174
瘋	-14.5175
嘬	-14.5176
扠	-14.5176
璦	-14.5176
矰	-14.5176
痤	-14.5177
牗	-14.5177
嶒	-14.5177
椰	-14.5177
砧	-14.5177
㴀	-14.5177
㵸	-14.5179
焱	-14.5181
櫑	-14.5181
吒	-14.5183
濴	-14.5183
磢	-14.5183
枑	-14.5183
叵	-14.5185
垤	-14.5185
禬	-14.5189
广	-14.5189
盝	-14.5191
禢	-14.5191
挻	-14.5193
皞	-14.5195
旖	-14.5199
䏢	-14.5199
嚥	-14.5201
塴	-14.5203
劖	-14.5205
戭	-14.5212
倕	-14.5239
窯	-14.524
駸	-15.01
彿	-15.011
囹	-15.0141
匍	-15.0173
逍	-15.0179
祮	-16.0016
琾	-16.0017
屾	-16.0018
鮜	-16.0019
跴	-16.002
臉	-16.0021
璸	-16.0022
昷	-16.0023
宬	-16.0024
墱	-16.0025
劻	-16.0026
俑	-16.0027
佽	-16.0028
㨮	-16.0029
鸂	-16.003
鶒	-16.0031
餮	-16.0032
鏕	-16.0033
轇	-16.0034
趦	-16.0035
訏	-16.0036
蟆	-16.0037
茌	-16.0038
臏	-16.0039
羜	-16.004
絿	-16.0041
筈	-16.0042
皪	-16.0043
琫	-16.0044
牣	-16.0045
櫽	-16.0046
梈	-16.0047
嵋	-16.0048
埈	-16.0049
儐	-16.005
𣏌	-16.0051
鷥	-16.0052
鷀	-16.0053
髒	-16.0054
菖	-16.0055
苡	-16.0056
筲	-16.0057
稂	-16.0058
盩	-16.0059
湣	-16.006
檇	-16.0061
厔	-16.0062
㸅	-16.0063
貅	-16.0064
苒	-16.0065
漶	-16.0066
汸	-16.0067
徬	-16.0068
𣅿	-16.0069
騧	-16.007
蝻	-16.0071
蔟	-16.0072
翡	-16.0073
砫	-16.0074
瑙	-16.0075
懥	-16.0076
瑇	-16.0077
惥	-16.0078
婀	-16.0079
剄	-16.008
偬	-16.0081
鸇	-16.0082
詾	-16.0083
訩	-16.0084
磅	-16.0085
畹	-16.0086
湲	-16.0087
欿	-16.0088
惆	-16.0089
壈	-16.009
䀌	-16.0091
㮮	-16.0092
鵑	-16.0093
輊	-16.0094
㢠	-16.0095
轕	-16.0096
艴	-16.0097
瓴	-16.0098
櫆	-16.0099
齷	-16.01
邐	-16.0101
觳	-16.0102
脞	-16.0103
禵	-16.0104
灧	-16.0105
欛	-16.0106
齗	-16.0107
闠	-16.0108
舳	-16.0109
矻	-16.011
媕	-16.0111
鮎	-16.0112
葫	-16.0113
㜪	-16.0114
蕞	-16.0115
穸	-16.0116
睥	-16.0117
牁	-16.0118
潿	-16.0119
鸚	-16.012
鵡	-16.0121
遛	-16.0122
蜿	-16.0123
綫	-16.0124
徨	-16.0125
嫄	-16.0126
冼	-16.0127
頏	-16.0128
琊	-16.0129
歔	-16.013
蓉	-16.0131
睚	-16.0132
逅	-16.0133
嗎	-16.0134
瘤	-16.0135
渣	-16.0136
恟	-16.0136
憮	-16.0137
嘵	-16.0138
跬	-16.0139
覦	-16.014
撕	-16.0141
桎	-16.0142
娓	-16.0143
髴	-16.0144
詿	-16.0145
犄	-16.0146
粕	-16.0147
狽	-16.0148
齬	-16.0149
齟	-16.015
婕	-16.0151
鋮	-16.0152
溧	-16.0153
獗	-16.0154
搢	-16.0155
怏	-16.0156
紜	-16.0157
憧	-16.0158
侂	-16.0159
徜	-16.0159
