<unk>	0
<s>	0
</s>	0
之	-4.15122
而	-4.87232
以	-5.00003
/	-5.01237
(	-5.24768
其	-5.25731
有	-5.27075
也	-5.33703
)	-5.33825
者	-5.37365
不	-5.38885
一	-5.48436
人	-5.55181
於	-5.5628
為	-5.59928
無	-5.7604
爲	-5.7741
自	-5.79367
山	-5.87321
公	-5.90475
中	-5.91044
與	-5.95487
則	-5.95768
大	-5.96461
行	-5.97397
如	-6.00123
子	-6.03319
時	-6.03347
此	-6.03356
)(	-6.04388
在	-6.04613
書	-6.11066
天	-6.11375
三	-6.17299
所	-6.17432
至	-6.17632
生	-6.18227
文	-6.19314
事	-6.21078
上	-6.21173
得	-6.21276
水	-6.21597
亦	-6.22548
見	-6.23348
是	-6.24791
曰	-6.2521
日	-6.25401
作	-6.31788
言	-6.33667
于	-6.34916
心	-6.36483
長	-6.36787
王	-6.37217
然	-6.37447
君	-6.38206
名	-6.38924
風	-6.39728
又	-6.40272
可	-6.40608
成	-6.41718
已	-6.41726
矣	-6.41767
道	-6.43156
▁	-6.4358
明	-6.43953
下	-6.45153
出	-6.46797
非	-6.46828
來	-6.47766
雲	-6.4816
後	-6.48326
家	-6.48642
相	-6.49311
入	-6.49313
同	-6.49776
詩	-6.50843
今	-6.5136
春	-6.51364
故	-6.53759
未	-6.54178
皆	-6.54546
花	-6.54604
多	-6.54741
傳	-6.56061
知	-6.56319
二	-6.56432
前	-6.5728
當	-6.60794
復	-6.6133
我	-6.62553
正	-6.63306
重	-6.65468
過	-6.65916
及	-6.65945
石	-6.66203
南	-6.6647
聲	-6.67789
歸	-6.68998
方	-6.70059
因	-6.71255
四	-6.7143
去	-6.71475
年	-6.72256
乃	-6.72703
若	-6.72787
小	-6.73271
月	-6.73564
何	-6.75174
用	-6.75679
地	-6.7577
古	-6.76016
門	-6.76294
雨	-6.76525
經	-6.76695
欲	-6.77228
分	-6.77397
將	-6.78765
本	-6.78802
官	-6.79189
西	-6.80205
五	-6.81787
安	-6.82038
乎	-6.82575
清	-6.82582
東	-6.82586
意	-6.83197
世	-6.83871
金	-6.8394
題	-6.83982
聞	-6.84795
新	-6.84933
臣	-6.85423
學	-6.85859
秋	-6.85973
玉	-6.86392
州	-6.87154
惟	-6.8754
思	-6.87819
初	-6.87903
望	-6.88155
平	-6.88689
國	-6.88929
城	-6.89218
從	-6.89322
應	-6.89342
能	-6.90628
即	-6.90702
先生	-6.90895
開	-6.93149
深	-6.93439
吾	-6.93815
焉	-6.94945
老	-6.95016
實	-6.95106
諸	-6.95764
稱	-6.96135
先	-6.96224
難	-6.9647
江	-6.96597
盡	-6.96622
等	-6.9731
流	-6.97553
且	-6.97576
民	-6.9781
字	-6.98371
兩	-6.98572
定	-7.00178
元	-7.00609
命	-7.00625
外	-7.01381
居	-7.01984
白	-7.0268
河	-7.02928
謂	-7.02974
馬	-7.03612
雖	-7.04565
海	-7.05216
必	-7.05344
合	-7.05476
圖	-7.0591
猶	-7.06085
志	-7.0612
或	-7.06472
數	-7.06581
觀	-7.06699
空	-7.06738
予	-7.07632
六	-7.07634
更	-7.07949
云	-7.08309
舊	-7.09136
法	-7.09146
令	-7.09687
問	-7.10039
林	-7.10069
余	-7.10159
通	-7.10539
客	-7.10719
九	-7.10845
光	-7.10853
處	-7.11462
氣	-7.11504
兵	-7.12129
髙	-7.12183
近	-7.12232
使	-7.12234
北	-7.1228
獨	-7.12653
夫	-7.12659
始	-7.12816
神	-7.13088
論	-7.13276
陽	-7.13492
起	-7.13867
立	-7.14536
堂	-7.15496
語	-7.15833
好	-7.16138
朝	-7.16773
師	-7.16784
身	-7.17559
張	-7.17886
氏	-7.17992
香	-7.18363
還	-7.18366
易	-7.19232
序	-7.1958
義	-7.20711
龍	-7.20959
陳	-7.21058
寒	-7.21133
夜	-7.21586
遂	-7.21671
逺	-7.22711
樹	-7.22793
和	-7.22939
士	-7.23278
物	-7.23333
華	-7.23385
發	-7.2407
樂	-7.24088
萬	-7.24096
集	-7.24161
少	-7.24205
情	-7.24494
向	-7.24753
興	-7.24776
漢	-7.25008
禮	-7.25266
宜	-7.27692
餘	-7.28071
周	-7.28371
飛	-7.28546
黄	-7.28592
色	-7.28865
節	-7.28884
路	-7.29202
雪	-7.29522
歌	-7.29547
爾	-7.29606
間	-7.29756
常	-7.2999
善	-7.30028
記	-7.31194
宗	-7.31276
似	-7.31358
高	-7.31421
頭	-7.3143
縣	-7.32825
百	-7.33716
田	-7.34008
取	-7.34755
酒	-7.35197
耳	-7.3533
益	-7.35334
坐	-7.35878
次	-7.35947
舉	-7.364
紅	-7.36462
李	-7.37703
理	-7.38025
畫	-7.38454
死	-7.38493
親	-7.38577
景	-7.38676
守	-7.38777
閒	-7.39223
各	-7.39342
史	-7.40097
誰	-7.40478
樓	-7.4056
請	-7.40791
莫	-7.40915
賦	-7.4115
落	-7.4136
亭	-7.4174
喜	-7.41938
衣	-7.42085
致	-7.42835
草	-7.43535
手	-7.43737
章	-7.44168
首	-7.443
哉	-7.44461
足	-7.44744
青	-7.4515
原	-7.45314
甚	-7.45619
尚	-7.45664
力	-7.4574
斯	-7.45768
登	-7.46526
松	-7.46832
母	-7.46939
既	-7.46973
都	-7.4712
臺	-7.47213
治	-7.47391
信	-7.4785
来	-7.48243
不可	-7.48384
異	-7.4865
進	-7.48776
奏	-7.49764
女	-7.49953
寺	-7.50139
/)	-7.51384
留	-7.51672
豈	-7.51932
半	-7.5195
七	-7.51987
八	-7.52169
齋	-7.52322
直	-7.5274
木	-7.52791
滿	-7.53053
臨	-7.5315
看	-7.53246
勝	-7.53362
食	-7.53747
凡	-7.5377
夏	-7.54319
口	-7.54443
解	-7.54525
十	-7.54896
土	-7.54998
泉	-7.55002
度	-7.55151
誠	-7.55439
送	-7.55465
不能	-7.55872
德	-7.55894
主	-7.56556
徳	-7.56705
報	-7.56754
共	-7.56819
千	-7.57114
奉	-7.57115
齊	-7.5733
溪	-7.57577
著	-7.57823
武	-7.57827
賢	-7.57829
真	-7.57902
宋	-7.58088
載	-7.5829
孫	-7.58293
别	-7.58368
唐	-7.58788
目	-7.58823
曲	-7.58913
内	-7.58954
寧	-7.59145
卽	-7.5926
吳	-7.59506
竹	-7.60121
全	-7.60765
到	-7.60893
連	-7.6142
韻	-7.61713
交	-7.61749
室	-7.61768
終	-7.61992
顧	-7.62096
久	-7.62308
仍	-7.62529
園	-7.6256
讀	-7.62892
期	-7.62898
教	-7.63011
任	-7.63051
求	-7.63062
兮	-7.63607
固	-7.63809
魚	-7.63912
對	-7.63995
並	-7.64242
閣	-7.64506
永	-7.64696
軍	-7.65786
葉	-7.66076
聖	-7.6623
詞	-7.66275
修	-7.66295
工	-7.6657
辭	-7.66739
視	-7.66835
早	-7.67316
再	-7.67356
嵗	-7.67852
府	-7.67871
識	-7.6803
敬	-7.68166
湖	-7.6838
屬	-7.68381
歲	-7.68967
宫	-7.69306
比	-7.69353
每	-7.69421
賊	-7.69663
愛	-7.69688
由	-7.69827
祖	-7.69847
議	-7.70006
體	-7.70164
指	-7.70272
省	-7.70413
動	-7.70466
嘗	-7.70539
計	-7.70582
車	-7.708
愁	-7.70843
寄	-7.70851
建	-7.71171
贈	-7.71306
引	-7.71463
淸	-7.71614
影	-7.71969
存	-7.72331
輕	-7.72392
轉	-7.72663
筆	-7.72975
野	-7.73128
吟	-7.73178
孤	-7.73443
兹	-7.73482
性	-7.73574
政	-7.7438
失	-7.74415
夢	-7.7453
遺	-7.74919
幾	-7.74995
幸	-7.75182
彼	-7.75236
隨	-7.75566
靈	-7.75566
恩	-7.75577
衆	-7.757
受	-7.75735
說	-7.75813
病	-7.7604
遊	-7.76243
巳	-7.76419
就	-7.76596
止	-7.76816
廣	-7.77309
疑	-7.77321
念	-7.77429
兼	-7.77724
許	-7.77873
端	-7.77995
帝	-7.78068
賜	-7.78085
澤	-7.78128
良	-7.78228
星	-7.78299
㑹	-7.78406
羣	-7.78741
父	-7.7884
極	-7.78932
笑	-7.7934
待	-7.79364
加	-7.79436
雙	-7.79502
游	-7.79502
里	-7.79735
試	-7.7975
絶	-7.79758
微	-7.80537
最	-7.80766
功	-7.8092
遇	-7.80948
便	-7.80972
才	-7.81032
承	-7.81039
陵	-7.81186
仁	-7.81401
封	-7.81568
朱	-7.8199
照	-7.8202
考	-7.8261
碧	-7.82682
火	-7.82948
但	-7.82964
要	-7.83203
亂	-7.83503
仙	-7.83609
劉	-7.83626
幽	-7.83755
代	-7.83835
列	-7.83884
俱	-7.83923
烟	-7.83939
波	-7.84193
橋	-7.84549
精	-7.84619
句	-7.84864
往	-7.85255
露	-7.85304
晴	-7.85438
音	-7.85496
翠	-7.85592
服	-7.85709
感	-7.85829
舟	-7.85937
容	-7.85948
謝	-7.86348
苦	-7.86378
以爲	-7.8649
梁	-7.86605
移	-7.86757
司	-7.8685
篇	-7.86927
軒	-7.87232
關	-7.87241
曾	-7.87318
窮	-7.88061
部	-7.88211
化	-7.88269
秦	-7.88433
素	-7.88744
注	-7.89138
伯	-7.89263
弗	-7.8949
懐	-7.89518
據	-7.89737
徐	-7.90199
天下	-7.90344
具	-7.90445
楊	-7.90491
種	-7.90545
卒	-7.90545
特	-7.90591
楚	-7.90791
盛	-7.91596
越	-7.91693
收	-7.91972
忽	-7.91992
徒	-7.92275
刻	-7.92321
聽	-7.92367
垂	-7.92461
利	-7.92464
覺	-7.92589
隂	-7.92687
率	-7.92731
尋	-7.92823
皇	-7.92898
紀	-7.92953
右	-7.9303
曽	-7.93537
旣	-7.93885
沙	-7.93885
池	-7.94007
塵	-7.94261
卷	-7.94447
廟	-7.94725
昔	-7.9499
梅	-7.95019
殊	-7.95261
庭	-7.95966
補	-7.96174
變	-7.96382
宿	-7.96502
羅	-7.96768
表	-7.96886
疏	-7.97366
適	-7.97431
改	-7.97639
御	-7.97667
尤	-7.97803
置	-7.97805
養	-7.97842
達	-7.98198
被	-7.9822
設	-7.98357
遠	-7.98546
勞	-7.98741
浮	-7.98764
慶	-7.98776
曉	-7.98797
散	-7.98862
制	-7.9921
却	-7.99215
詳	-7.9938
持	-7.99787
驚	-7.99864
佳	-7.99913
孝	-8
放	-8.00063
錢	-8.00149
鳴	-8.0017
燕	-8.00258
詠	-8.00509
繼	-8.00609
太	-8.00631
兒	-8.00967
延	-8.01004
仲	-8.01389
蘭	-8.01715
尊	-8.01744
離	-8.01829
結	-8.02043
鄉	-8.02203
依	-8.0231
接	-8.02377
鳥	-8.02398
巻	-8.02407
嘉	-8.02474
荒	-8.02762
不知	-8.03116
邊	-8.03137
村	-8.03168
號	-8.03637
布	-8.03794
紫	-8.03836
堪	-8.03881
左	-8.03917
授	-8.03963
業	-8.04019
撫	-8.0409
霜	-8.04205
殘	-8.04417
願	-8.04549
黃	-8.04572
藏	-8.04599
積	-8.04642
忠	-8.0465
枝	-8.04686
濟	-8.04828
調	-8.04885
所謂	-8.05097
憶	-8.05201
降	-8.05871
郡	-8.05878
宣	-8.05917
川	-8.06005
昭	-8.06033
漸	-8.0619
象	-8.06285
峯	-8.06302
總	-8.06338
嚴	-8.06483
者也	-8.06573
殿	-8.06878
形	-8.07123
葢	-8.07394
吏	-8.07455
憂	-8.07724
友	-8.07754
典	-8.08033
晉	-8.08034
侯	-8.08061
貴	-8.08071
絲	-8.08116
俗	-8.08338
逢	-8.08438
冬	-8.08747
弟	-8.09171
示	-8.09552
竟	-8.09882
營	-8.10419
克	-8.1048
切	-8.10498
忘	-8.10539
佛	-8.10541
陸	-8.10638
推	-8.10861
静	-8.10892
偶	-8.10908
祠	-8.10969
朕	-8.11022
而不	-8.11098
備	-8.11285
不得	-8.11831
恐	-8.11856
施	-8.12213
負	-8.124
珠	-8.12508
懷	-8.12805
破	-8.13084
船	-8.1317
屋	-8.13185
斷	-8.13188
京	-8.13237
福	-8.13504
所以	-8.13716
例	-8.13755
細	-8.13809
休	-8.13879
遷	-8.13923
阿	-8.13942
銀	-8.13983
簡	-8.14025
敢	-8.14311
盤	-8.14517
谷	-8.14658
習	-8.14676
薄	-8.14818
類	-8.14939
勢	-8.1496
虚	-8.15053
含	-8.15241
芳	-8.15276
竒	-8.15409
面	-8.15436
趙	-8.15499
靑	-8.15767
呼	-8.16854
蓋	-8.16898
巖	-8.16974
以為	-8.17024
遲	-8.17198
可以	-8.17283
沈	-8.17487
緑	-8.17546
雅	-8.17551
祭	-8.17886
告	-8.18076
急	-8.18357
除	-8.18454
裏	-8.18659
偏	-8.18682
約	-8.18694
逰	-8.18813
諭	-8.19083
惜	-8.19187
源	-8.19338
回	-8.19573
崇	-8.19963
按	-8.20071
運	-8.20242
美	-8.20367
伏	-8.20455
翁	-8.20806
勤	-8.21084
擬	-8.21094
扵	-8.21147
嶺	-8.21403
迎	-8.21825
辨	-8.21881
鶴	-8.21906
亡	-8.21975
麥	-8.22049
須	-8.22161
某	-8.22429
之所	-8.22439
汝	-8.22691
眞	-8.22813
醉	-8.22992
資	-8.23016
蒼	-8.23498
仰	-8.23511
附	-8.2368
保	-8.23958
倚	-8.24112
闗	-8.24415
折	-8.24418
悲	-8.24428
豐	-8.24438
商	-8.24706
哀	-8.24764
遣	-8.24934
他	-8.24973
蘇	-8.25003
虎	-8.25122
祀	-8.25148
果	-8.25295
英	-8.25491
厚	-8.2551
燈	-8.25594
疾	-8.26003
横	-8.26013
塞	-8.26111
隔	-8.26574
烏	-8.26787
墨	-8.26947
隱	-8.26961
煙	-8.27135
帶	-8.27258
邑	-8.2735
僧	-8.27441
訓	-8.27505
維	-8.27562
鄭	-8.27572
儒	-8.27669
市	-8.28153
曹	-8.28295
吉	-8.28687
徵	-8.28966
禁	-8.28991
藉	-8.29053
位	-8.29567
反	-8.29606
春秋	-8.29662
順	-8.29888
婦	-8.30112
碑	-8.30323
舍	-8.30403
雜	-8.30462
丹	-8.31107
戒	-8.31113
述	-8.31125
如此	-8.31331
追	-8.31694
昌	-8.31904
賞	-8.31985
律	-8.32094
懸	-8.32112
遥	-8.32169
博	-8.322
程	-8.32302
将	-8.32319
綠	-8.32795
罷	-8.32942
悉	-8.32945
陰	-8.32977
卿	-8.33057
編	-8.33212
詔	-8.3322
魯	-8.33351
招	-8.33359
私	-8.33366
農	-8.33371
會	-8.33503
耶	-8.33641
拜	-8.33641
墓	-8.33768
栁	-8.33814
銘	-8.33997
咸	-8.34235
旋	-8.34267
屢	-8.34271
傷	-8.34344
晩	-8.34427
并	-8.34697
恭	-8.34704
敎	-8.34869
峰	-8.34994
息	-8.35022
圍	-8.35044
闕	-8.3508
戰	-8.35108
獻	-8.35415
揚	-8.3549
房	-8.35496
宮	-8.35755
那	-8.35761
徑	-8.36085
職	-8.36166
誤	-8.36219
壁	-8.36237
根	-8.36277
甫	-8.36316
惡	-8.36448
漫	-8.36521
慰	-8.36532
索	-8.36534
叔	-8.36621
獲	-8.36712
族	-8.36752
謀	-8.36932
爭	-8.3705
申	-8.37109
韓	-8.3722
殺	-8.3737
境	-8.37494
支	-8.3766
季	-8.37707
眼	-8.37734
翻	-8.37823
鼓	-8.37827
潤	-8.3804
條	-8.38423
甘	-8.38842
頻	-8.38853
務	-8.38887
角	-8.38888
寫	-8.38984
累	-8.39141
慈	-8.39223
征	-8.39236
秀	-8.39341
鴻	-8.39416
晚	-8.39453
衰	-8.39512
消	-8.3961
機	-8.3964
館	-8.39656
錄	-8.39908
胡	-8.39911
末	-8.39975
康	-8.40168
勿	-8.40202
院	-8.40214
錦	-8.40245
井	-8.40283
采	-8.40403
只	-8.40631
牛	-8.40774
欣	-8.40783
㡬	-8.41154
丁	-8.41308
執	-8.41321
管	-8.41322
君子	-8.41558
稍	-8.4156
釋	-8.4175
乾	-8.41973
投	-8.42114
器	-8.42263
憐	-8.42301
江南	-8.42432
孟	-8.42487
披	-8.42518
耕	-8.42642
虞	-8.42701
妙	-8.43011
庶	-8.4312
抱	-8.43306
廢	-8.43459
米	-8.43604
兄	-8.43717
郎	-8.44026
乗	-8.44071
冠	-8.44092
説	-8.4423
歴	-8.44236
顔	-8.44277
魏	-8.44374
訪	-8.44515
恒	-8.44997
胥	-8.45211
頗	-8.45374
榮	-8.45433
荷	-8.45475
飲	-8.45539
琴	-8.45582
選	-8.45621
儀	-8.45664
甲	-8.45691
額	-8.45738
壽	-8.45846
莊	-8.45915
底	-8.46079
鏡	-8.46382
二首	-8.46828
納	-8.47538
寳	-8.47632
渡	-8.47811
均	-8.47829
盖	-8.47863
夕	-8.48039
避	-8.4828
夀	-8.4835
不敢	-8.48612
籍	-8.48613
柳	-8.4866
略	-8.48834
講	-8.48917
供	-8.48949
射	-8.48996
免	-8.49231
質	-8.49399
謹	-8.4966
毛	-8.49732
殷	-8.49841
較	-8.49973
造	-8.50208
領	-8.50285
別	-8.50305
雄	-8.5031
舞	-8.50349
歎	-8.50513
藥	-8.50656
第	-8.50773
聚	-8.5092
杜	-8.51049
暮	-8.51089
歡	-8.51367
格	-8.51562
升	-8.51653
築	-8.51761
畢	-8.5185
退	-8.5206
郭	-8.52206
廷	-8.52476
羽	-8.52577
騎	-8.52702
候	-8.52759
恨	-8.53309
輿	-8.53391
况	-8.53602
案	-8.53607
慮	-8.53609
肅	-8.53625
禪	-8.5372
駐	-8.53757
凉	-8.54187
洞	-8.54322
顯	-8.54344
讀書	-8.54357
陶	-8.54469
傾	-8.54643
靜	-8.54677
否	-8.54912
奇	-8.55068
岸	-8.55733
富	-8.5577
差	-8.55835
給	-8.55873
蕭	-8.55876
侍	-8.56086
馳	-8.56258
澄	-8.56653
借	-8.56819
鹿	-8.57123
察	-8.57189
貞	-8.57207
逆	-8.57339
宇	-8.57393
吹	-8.57668
竊	-8.57692
棄	-8.5779
走	-8.5787
傍	-8.57908
談	-8.58008
郊	-8.58076
鮮	-8.58307
麗	-8.5836
辰	-8.5838
眀	-8.5847
詎	-8.58678
逸	-8.58773
擊	-8.5883
科	-8.58986
假	-8.59043
狂	-8.59059
鼎	-8.59123
覽	-8.59223
赴	-8.59246
聊	-8.59357
步	-8.59366
盈	-8.59504
昨	-8.59793
錫	-8.59859
斜	-8.59887
姑	-8.59994
威	-8.60082
冷	-8.601
宴	-8.60151
午	-8.60169
黨	-8.60182
住	-8.60186
席	-8.60477
孔	-8.60722
低	-8.60765
寛	-8.60784
惠	-8.60943
社	-8.61019
於是	-8.61209
今日	-8.61291
罪	-8.61527
衡	-8.6153
返	-8.61762
停	-8.61905
屏	-8.61922
骨	-8.6209
菴	-8.62119
召	-8.62406
參	-8.62606
尺	-8.62697
覆	-8.62726
愚	-8.62827
斗	-8.62906
貧	-8.62907
僕	-8.62989
展	-8.63081
統	-8.63086
康熙	-8.63286
塘	-8.63322
泰	-8.63323
桂	-8.63325
答	-8.63333
廬	-8.63362
滋	-8.63713
淮	-8.6373
熟	-8.64303
旁	-8.64383
葬	-8.64545
符	-8.64605
短	-8.6465
乞	-8.64695
泥	-8.64901
宅	-8.6509
逐	-8.651
霞	-8.65109
十二	-8.65349
環	-8.65436
强	-8.65469
攻	-8.65696
鐘	-8.65989
孰	-8.66035
側	-8.6625
畧	-8.6629
増	-8.66291
嗣	-8.66541
三年	-8.66631
赤	-8.66814
跋	-8.66832
續	-8.66948
姓	-8.66974
乘	-8.67007
天子	-8.67038
茶	-8.67108
輪	-8.67373
校	-8.67448
縱	-8.6764
繁	-8.67814
委	-8.67821
背	-8.67924
叢	-8.67988
駕	-8.68036
防	-8.68168
寶	-8.68297
量	-8.68334
希	-8.68387
頌	-8.68394
潮	-8.68621
而後	-8.68629
卜	-8.68732
雷	-8.68879
一日	-8.68884
誦	-8.6889
班	-8.68911
迴	-8.6947
喪	-8.69543
履	-8.69565
温	-8.69591
跡	-8.6979
優	-8.69915
祗	-8.70064
扶	-8.70088
紛	-8.70122
三月	-8.70123
占	-8.70172
疎	-8.70277
振	-8.70282
湯	-8.70504
充	-8.7061
掌	-8.70687
淺	-8.70732
費	-8.70963
製	-8.71081
響	-8.71093
印	-8.71197
鳳	-8.71212
俾	-8.71462
謂之	-8.71536
界	-8.71581
品	-8.7163
值	-8.71773
鎮	-8.71969
勒	-8.72123
晨	-8.72161
豫	-8.72267
匪	-8.72319
公之	-8.72364
之後	-8.72366
伊	-8.72558
蜀	-8.72698
彌	-8.72808
僅	-8.72844
瞻	-8.72851
古人	-8.72937
其所	-8.72971
材	-8.73269
助	-8.73274
階	-8.73349
文章	-8.73485
浪	-8.73701
夷	-8.73767
銅	-8.73789
烈	-8.73813
想	-8.73841
閱	-8.73936
干	-8.73995
涼	-8.74005
瑞	-8.7409
危	-8.74176
勸	-8.74415
倍	-8.74487
淚	-8.74549
之事	-8.74672
枕	-8.74679
夫人	-8.74875
尾	-8.74948
户	-8.74961
標	-8.75104
畏	-8.75133
怨	-8.75287
狀	-8.7541
衛	-8.75441
撰	-8.75587
糧	-8.75601
倫	-8.75745
謁	-8.75934
介	-8.75988
裁	-8.76204
貢	-8.76332
霑	-8.76493
氷	-8.76501
兄弟	-8.76616
敗	-8.76705
蓮	-8.77011
滅	-8.77013
隆	-8.77126
抑	-8.7713
呉	-8.77209
權	-8.77342
州縣	-8.77375
孺人	-8.77426
十年	-8.7752
旗	-8.77531
戴	-8.77631
途	-8.77881
署	-8.78192
啟	-8.78192
寓	-8.78199
役	-8.78318
朔	-8.78563
洪	-8.78609
憲	-8.78671
苑	-8.78766
憑	-8.7882
薦	-8.79006
堅	-8.79033
人之	-8.79131
千里	-8.79146
允	-8.79244
漁	-8.79272
虛	-8.7944
桑	-8.79514
趨	-8.79539
圗	-8.79637
閲	-8.79668
祥	-8.79767
京師	-8.80007
學士	-8.80147
之言	-8.80204
至於	-8.80327
尚書	-8.80354
拂	-8.80354
增	-8.80761
董	-8.80847
漏	-8.80947
險	-8.80954
鄕	-8.80959
監	-8.81049
座	-8.8106
託	-8.81104
津	-8.81153
萬里	-8.81177
翼	-8.81401
豪	-8.81427
速	-8.81538
隠	-8.81586
何以	-8.81656
哭	-8.8171
簾	-8.81779
逮	-8.81836
責	-8.81863
諱	-8.81881
躬	-8.81938
浦	-8.82081
效	-8.82119
刑	-8.82142
奔	-8.82159
荆	-8.82484
毎	-8.825
繫	-8.82704
羊	-8.82781
祝	-8.82787
雁	-8.82918
徴	-8.82921
繞	-8.82958
譜	-8.83163
妻	-8.83191
暗	-8.83207
牧	-8.83239
輩	-8.83273
味	-8.83323
旅	-8.83354
付	-8.83646
把	-8.83744
茂	-8.83979
纔	-8.84028
桃	-8.8419
審	-8.8421
眠	-8.84286
不足	-8.84354
縁	-8.84365
圓	-8.84426
痛	-8.8443
循	-8.84431
尙	-8.84481
震	-8.84648
專	-8.84767
添	-8.8493
以來	-8.85085
炎	-8.85101
宵	-8.85189
厯	-8.85323
鄰	-8.85862
天地	-8.85874
眉	-8.85876
是以	-8.86061
抵	-8.86158
大夫	-8.86174
配	-8.8627
規	-8.86313
未嘗	-8.86475
童	-8.86559
㫖	-8.8673
無不	-8.86928
閩	-8.87042
霽	-8.87084
而已	-8.87226
遵	-8.87301
內	-8.87391
洗	-8.874
穿	-8.87402
飄	-8.87492
舒	-8.87535
提	-8.87554
盧	-8.87654
欽	-8.87767
不及	-8.87865
督	-8.88251
愧	-8.88282
懼	-8.88299
䇿	-8.8832
杖	-8.8845
減	-8.88487
倒	-8.88504
智	-8.88818
困	-8.88887
雞	-8.8899
排	-8.89139
血	-8.89159
卧	-8.89166
藻	-8.89188
融	-8.89189
渾	-8.89206
慕	-8.89366
棲	-8.89388
趣	-8.89433
淵	-8.89442
一時	-8.89455
䝉	-8.89543
孔子	-8.90065
嗟	-8.90112
煩	-8.90152
燭	-8.90195
完	-8.90246
何處	-8.90271
乆	-8.90303
枯	-8.90313
己	-8.90459
壯	-8.90472
輸	-8.90658
䕶	-8.90861
宻	-8.90887
沒	-8.91016
艱	-8.91268
巴	-8.9132
爽	-8.91328
獄	-8.91421
妄	-8.9149
錯	-8.91511
奪	-8.91562
奚	-8.91572
丈	-8.91683
柱	-8.91875
沉	-8.91945
㸔	-8.91964
催	-8.92051
害	-8.92097
歩	-8.92132
言之	-8.92363
徃	-8.92368
巡	-8.92402
怪	-8.92426
救	-8.92446
塔	-8.92552
壇	-8.92593
丘	-8.92599
災	-8.92837
邉	-8.92914
乍	-8.92935
爰	-8.92942
范	-8.92948
員	-8.92972
苗	-8.92988
亦有	-8.93219
絕	-8.93295
侵	-8.93303
吐	-8.93386
篤	-8.93435
刀	-8.93436
鹽	-8.93578
凝	-8.9365
密	-8.93731
疊	-8.93783
禹	-8.93813
岀	-8.93976
邪	-8.94171
嗚呼	-8.94183
齒	-8.94511
大臣	-8.94525
式	-8.94708
究	-8.94834
映	-8.9499
綺	-8.95098
穆	-8.95123
啼	-8.95233
援	-8.95401
庸	-8.95433
偕	-8.95438
註	-8.95466
今年	-8.95479
之意	-8.95551
㣲	-8.95571
洛	-8.95654
無所	-8.95703
怒	-8.95754
之間	-8.95825
操	-8.95935
查	-8.95964
貽	-8.95972
稽	-8.96051
之學	-8.96097
愈	-8.96184
敦	-8.96268
戲	-8.96439
將軍	-8.96589
誌	-8.966
畔	-8.96637
粉	-8.96761
迷	-8.96865
際	-8.97175
録	-8.97189
聴	-8.97191
淡	-8.97276
湘	-8.97312
渠	-8.97366
洲	-8.97405
濃	-8.97624
慎	-8.97637
策	-8.97733
貫	-8.97756
探	-8.9781
寸	-8.98126
缺	-8.98212
買	-8.98236
澹	-8.98301
地方	-8.98305
詣	-8.98311
帆	-8.98345
六月	-8.98389
冊	-8.984
毋	-8.98416
膏	-8.98448
勉	-8.98505
蕩	-8.98547
不見	-8.98814
悟	-8.98858
鬼	-8.98935
兆	-8.99033
崖	-8.99055
恰	-8.99104
㸃	-8.99217
頓	-8.99269
筵	-8.99512
採	-8.99701
蒙	-8.9971
茅	-8.99811
戸	-8.99872
至今	-9.00021
邦	-9.00135
掩	-9.0014
於此	-9.00169
争	-9.00512
暇	-9.00556
汪	-9.00636
遭	-9.00665
普	-9.00822
佐	-9.01067
什	-9.01144
束	-9.01203
鳯	-9.01292
叶	-9.01293
輒	-9.01309
谿	-9.0133
呈	-9.01413
聖人	-9.01515
泛	-9.01577
珍	-9.01857
緩	-9.01932
蔡	-9.02071
二月	-9.02169
了	-9.02217
帖	-9.02254
之文	-9.02335
朱子	-9.02396
禽	-9.02412
有所	-9.02448
賈	-9.02519
苟	-9.0252
讓	-9.02528
巨	-9.02555
證	-9.02559
倉	-9.02626
繡	-9.0271
暑	-9.02756
厥	-9.02768
菊	-9.02873
植	-9.03044
賴	-9.03241
暢	-9.03251
鍾	-9.03378
二十	-9.0339
瓊	-9.0343
窺	-9.03589
然而	-9.03767
皇上	-9.03826
仕	-9.03871
巧	-9.03915
子孫	-9.03947
爲之	-9.04001
襲	-9.04025
點	-9.04168
朗	-9.0421
傅	-9.04294
驅	-9.04317
俯	-9.04363
契	-9.04538
爵	-9.04607
寜	-9.04622
畱	-9.04777
柔	-9.04872
旦	-9.04974
悔	-9.05028
違	-9.05049
凌	-9.05087
牽	-9.05214
弱	-9.05327
徧	-9.05379
術	-9.05475
酬	-9.05739
染	-9.0592
幼	-9.0594
硯	-9.0594
宛	-9.05955
垣	-9.05962
快	-9.06137
遍	-9.06146
隄	-9.06149
脫	-9.06418
況	-9.06472
騰	-9.06558
嫌	-9.06615
泣	-9.0685
刺	-9.06956
蔵	-9.07528
廿	-9.0755
該	-9.07679
蒲	-9.07692
魂	-9.07794
廻	-9.07854
五月	-9.08025
籌	-9.08099
之說	-9.08142
晝	-9.08154
澗	-9.08236
患	-9.08298
勇	-9.08352
岡	-9.08393
暖	-9.08397
旌	-9.0859
穀	-9.08688
巢	-9.08718
山東	-9.08722
逃	-9.08993
其後	-9.09109
屯	-9.09193
進士	-9.09195
當時	-9.09368
旬	-9.09387
邀	-9.0942
鐵	-9.097
桐	-9.09701
互	-9.09779
屈	-9.09815
逾	-9.0985
壺	-9.09936
話	-9.10067
之義	-9.10117
有餘	-9.10127
窗	-9.10133
潛	-9.10135
府君	-9.10142
伐	-9.10165
蹟	-9.1031
銜	-9.10447
毫	-9.10469
疆	-9.10635
觴	-9.10664
然則	-9.10719
四月	-9.10872
牙	-9.10946
古今	-9.11081
藩	-9.11193
矢	-9.11227
諸生	-9.11289
阻	-9.11433
靡	-9.1158
擁	-9.11597
衍	-9.11675
四十	-9.1174
係	-9.11755
掃	-9.11797
歟	-9.11854
東南	-9.11934
歳	-9.11966
唱	-9.1211
馮	-9.1219
杯	-9.12281
層	-9.12338
以後	-9.12392
壑	-9.12511
山水	-9.12516
協	-9.12609
饒	-9.1264
牀	-9.12652
忍	-9.12685
擇	-9.12766
蓬	-9.12796
酌	-9.12879
亟	-9.12911
雕	-9.13072
決	-9.13158
贊	-9.13232
預	-9.13313
霧	-9.13344
純	-9.1338
圃	-9.13381
奮	-9.13424
冀	-9.13502
練	-9.13583
五十	-9.13627
黎	-9.1382
副	-9.13843
敵	-9.13901
國家	-9.13908
不過	-9.13908
欽定四庫全書	-9.13941
塗	-9.1398
巡撫	-9.14016
璧	-9.14323
輔	-9.1434
左右	-9.14583
衞	-9.1459
鸞	-9.1463
如是	-9.14762
乾隆	-9.14866
曠	-9.14917
○	-9.14943
祈	-9.1507
不同	-9.15091
頂	-9.15134
肯	-9.15207
奴	-9.15212
麟	-9.15364
紙	-9.15432
沿	-9.15449
堯	-9.15456
七十	-9.15626
風雨	-9.15631
其事	-9.15876
濤	-9.15921
未有	-9.15941
殆	-9.16118
必有	-9.16147
恵	-9.16168
績	-9.16207
賔	-9.16282
學者	-9.16325
驛	-9.16377
激	-9.16417
弄	-9.16521
溝	-9.16608
弓	-9.16609
暫	-9.16617
絃	-9.16661
春風	-9.16736
其人	-9.16803
漲	-9.16834
肆	-9.1685
項	-9.17037
是也	-9.17181
咏	-9.17212
辦	-9.17221
穴	-9.17224
浙	-9.17302
輝	-9.17332
姿	-9.17378
祇	-9.17388
削	-9.17413
鑒	-9.17431
一人	-9.17439
故人	-9.17488
芝	-9.17591
鱗	-9.17816
岳	-9.18076
即事	-9.18245
淳	-9.1828
塲	-9.18281
健	-9.18404
革	-9.18478
藝	-9.18493
嶽	-9.18534
剛	-9.18782
啓	-9.18824
厲	-9.18941
巷	-9.18968
迹	-9.18976
衝	-9.19061
橫	-9.19483
課	-9.1952
司馬	-9.19842
靖	-9.19849
第一	-9.19973
不如	-9.19998
也夫	-9.2
昏	-9.20066
為之	-9.20087
奏報	-9.20287
風流	-9.20621
曰吾	-9.20648
也其	-9.20717
書屋	-9.20787
南北	-9.20953
誇	-9.2106
唯	-9.2117
囘	-9.21171
捐	-9.21205
百年	-9.21288
潭	-9.21303
派	-9.21402
競	-9.21429
肉	-9.2147
彈	-9.21591
隴	-9.21638
熱	-9.21642
何如	-9.21688
蠻	-9.21777
鎭	-9.21795
瓦	-9.21858
腹	-9.21873
足以	-9.21891
飽	-9.21902
袁	-9.21974
可謂	-9.22197
十五	-9.2229
牆	-9.22342
長安	-9.22383
飯	-9.22442
寢	-9.22588
盜	-9.22812
磨	-9.22937
攷	-9.22949
冰	-9.23108
貯	-9.23255
襄	-9.23269
宰	-9.23289
徙	-9.23403
父母	-9.23467
鑿	-9.23596
像	-9.23612
濕	-9.23712
詢	-9.24176
古文	-9.2418
踰	-9.24285
局	-9.24291
算	-9.24296
灑	-9.24332
之地	-9.24378
脩	-9.24382
辛	-9.24399
犯	-9.24436
得雨	-9.24446
籠	-9.2446
繩	-9.24505
知其	-9.24541
緣	-9.24578
十六	-9.24611
肥	-9.24649
謬	-9.24739
敷	-9.24752
十三	-9.24871
攜	-9.24893
闢	-9.24924
随	-9.24999
之中	-9.25111
敏	-9.25372
遼	-9.25419
緒	-9.25467
銷	-9.25498
之心	-9.25681
熊	-9.25948
導	-9.25994
不必	-9.26044
人間	-9.26106
日月	-9.26172
伴	-9.26319
之人	-9.26387
綿	-9.26401
堤	-9.26406
産	-9.26436
上下	-9.26454
弟子	-9.26481
七月	-9.26485
蟲	-9.26534
片	-9.26543
翰	-9.26635
墜	-9.2672
誅	-9.26736
扇	-9.26738
河南	-9.2677
寡	-9.26812
千秋	-9.26819
輯	-9.26888
畵	-9.26957
以此	-9.27225
賑	-9.27307
䖍	-9.27341
距	-9.27353
禍	-9.27356
壓	-9.27383
六十	-9.27691
鑑	-9.27697
價	-9.27758
三十	-9.27766
零	-9.27855
樵	-9.28053
超	-9.28074
皇帝	-9.28119
白雲	-9.28121
其中	-9.28179
繪	-9.28359
享	-9.28517
亦不	-9.28553
摩	-9.2859
侍郎	-9.28624
劍	-9.28801
潔	-9.28817
如何	-9.28965
吴	-9.29026
篆	-9.29034
之士	-9.29324
現	-9.29349
八月	-9.29476
恤	-9.29502
二年	-9.29527
鞭	-9.29545
攀	-9.29665
今嵗	-9.29698
育	-9.29785
頒	-9.29876
之曰	-9.29881
没	-9.29943
弊	-9.30009
叅	-9.30275
賀	-9.30459
邱	-9.30551
卦	-9.30729
正月	-9.30757
山中	-9.30808
單	-9.30816
大學士	-9.3082
巾	-9.30828
後世	-9.30836
態	-9.30938
霖	-9.31
稀	-9.31043
几	-9.31055
廊	-9.31121
之書	-9.31151
卑	-9.312
辟	-9.31258
者亦	-9.31259
后	-9.31301
十八	-9.31365
姚	-9.31406
▁(	-9.31523
百里	-9.31557
三日	-9.31564
齡	-9.31717
綴	-9.31798
觸	-9.31835
榖	-9.31863
俟	-9.31897
也今	-9.3201
泊	-9.32049
竝	-9.32206
限	-9.32217
腰	-9.32231
基	-9.32297
然後	-9.32347
勵	-9.32405
矜	-9.32569
帳	-9.32739
厭	-9.32854
陣	-9.32901
阮	-9.32924
佑	-9.32983
囊	-9.33256
獵	-9.33257
戎	-9.33297
遽	-9.33318
織	-9.33587
逹	-9.33766
擅	-9.33836
焚	-9.33953
十一	-9.34061
天下之	-9.34079
䖏	-9.34135
飾	-9.34144
未能	-9.34216
韋	-9.34284
網	-9.34299
創	-9.34376
墻	-9.34475
餉	-9.34602
畝	-9.34673
簷	-9.34739
雀	-9.348
平生	-9.34865
禾	-9.34935
髪	-9.35043
區	-9.35048
蔚	-9.3509
閉	-9.35149
臯	-9.35211
粟	-9.35218
者皆	-9.35274
乳	-9.35465
其言	-9.35487
攬	-9.35589
四首	-9.35616
孟子	-9.3568
玩	-9.35697
行宫	-9.35951
苔	-9.36024
袖	-9.36157
淨	-9.36339
裘	-9.36478
慙	-9.3652
討	-9.36661
當年	-9.36689
寂	-9.36727
之道	-9.36854
揮	-9.36901
尹	-9.37434
賣	-9.37478
桃花	-9.3751
陋	-9.37698
竄	-9.37732
羡	-9.37803
秉	-9.37821
夾	-9.3788
彭	-9.37894
黙	-9.37963
醫	-9.38113
窓	-9.38227
菜	-9.38232
之時	-9.38385
嘆	-9.38422
儲	-9.38518
釣	-9.38621
遐	-9.38625
中有	-9.38905
歷	-9.39005
丗	-9.39026
劇	-9.39072
之名	-9.39366
卓	-9.39403
以下	-9.39438
御史	-9.39442
幻	-9.39587
不復	-9.3961
樸	-9.39739
従	-9.39927
亮	-9.39975
灌	-9.4008
總督	-9.4014
桓	-9.40153
朋	-9.40178
戚	-9.40222
而無	-9.40473
鬱	-9.4056
郞	-9.40611
姜	-9.40613
鋪	-9.40651
娶	-9.40698
活	-9.40723
翔	-9.40787
旨	-9.40838
咨	-9.40976
風吹	-9.40979
忌	-9.41063
夫子	-9.41076
惕	-9.41125
貪	-9.41132
蔽	-9.4116
旱	-9.41194
有司	-9.41196
襟	-9.41232
梅花	-9.41255
哈	-9.41325
廉	-9.41399
飮	-9.41452
需	-9.41666
徹	-9.4169
熙	-9.41717
是日	-9.41721
八十	-9.41945
周公	-9.41973
瑶	-9.41979
寅	-9.42129
渥	-9.42348
後人	-9.42393
叩	-9.42621
頃	-9.42678
叟	-9.4272
幕	-9.42766
漕	-9.42801
郷	-9.4292
雍	-9.43015
遙	-9.43066
庵	-9.43233
踏	-9.43253
閏	-9.43307
料	-9.43425
墮	-9.43425
晦	-9.43527
東西	-9.43568
陟	-9.43673
涉	-9.43709
臥	-9.43789
整	-9.43875
板	-9.43975
譽	-9.44075
姬	-9.44095
藤	-9.44119
蒸	-9.44127
汗	-9.44248
葛	-9.44339
渚	-9.44506
飭	-9.4459
研	-9.44718
損	-9.44736
沾	-9.44788
梵	-9.45054
覩	-9.45096
浙江	-9.45099
凍	-9.45135
畨	-9.45142
愼	-9.45147
壘	-9.45205
臂	-9.45348
縈	-9.4536
鄙	-9.45405
粤	-9.45562
架	-9.45585
痕	-9.45669
捕	-9.45856
勲	-9.45951
之法	-9.45959
君之	-9.4598
貌	-9.46128
欄	-9.46245
十七	-9.46247
逝	-9.46264
紹	-9.46288
草堂	-9.46361
諫	-9.46388
燒	-9.46453
包	-9.46459
財	-9.46475
西北	-9.46527
喧	-9.46742
踈	-9.4687
堆	-9.46967
得其	-9.47022
肩	-9.47094
黍	-9.47156
鴉	-9.47167
賓	-9.47184
夜雨	-9.4728
佩	-9.47301
乏	-9.47442
域	-9.47493
戀	-9.47521
柏	-9.476
番	-9.47621
㫁	-9.47631
搆	-9.47634
札	-9.47753
斥	-9.47892
閑	-9.47991
綸	-9.48263
宏	-9.48301
往往	-9.48355
西南	-9.48357
不以	-9.48423
可憐	-9.48472
評	-9.48521
眷	-9.4855
綱	-9.48579
蕪	-9.48609
之日	-9.48671
沐	-9.48711
繇	-9.48743
奸	-9.48778
帥	-9.48793
隅	-9.48809
諸臣	-9.49063
鶯	-9.49087
溢	-9.49098
宦	-9.49102
人心	-9.49161
坊	-9.49191
浄	-9.49201
警	-9.49242
蠲	-9.49296
倣	-9.49379
灰	-9.49405
寨	-9.49421
鈎	-9.49509
十里	-9.49517
韶	-9.49547
山川	-9.49622
文字	-9.49727
夙	-9.49742
崔	-9.49759
十四	-9.49777
憩	-9.49999
街	-9.50256
割	-9.50342
禦	-9.50366
誥	-9.50487
一百	-9.50648
九月	-9.50667
朝廷	-9.50667
勅	-9.50706
皇祖	-9.50717
遮	-9.50769
罕	-9.50775
怡	-9.50785
醒	-9.50796
蔣	-9.50827
版	-9.50846
先生之	-9.50849
閭	-9.50963
敘	-9.50994
㳺	-9.50997
竿	-9.51075
何必	-9.51186
諸侯	-9.51239
戍	-9.51319
依然	-9.51321
誓	-9.51338
之際	-9.51348
株	-9.51382
壤	-9.514
舜	-9.51443
吿	-9.51471
五年	-9.51495
濯	-9.51495
其間	-9.51548
喻	-9.51566
暨	-9.51584
太守	-9.51622
欺	-9.51738
擾	-9.5175
箋	-9.51786
皆有	-9.51806
主人	-9.51818
也而	-9.51866
毁	-9.52113
蟬	-9.52115
幅	-9.52133
槐	-9.52162
籬	-9.52203
玄	-9.5221
絮	-9.52259
換	-9.52269
人也	-9.52279
西山	-9.5228
檄	-9.52356
攝	-9.5243
世之	-9.52446
閨	-9.52458
之作	-9.52576
羞	-9.52615
撥	-9.52647
莽	-9.52654
十月	-9.52719
坡	-9.5275
俊	-9.52757
黑	-9.52882
淪	-9.52899
眺	-9.5293
戈	-9.5317
挂	-9.53215
饑	-9.53226
不然	-9.53249
舎	-9.53334
蘆	-9.53358
口號	-9.53359
所云	-9.53467
倦	-9.53552
晏	-9.53598
史記	-9.53607
蝶	-9.53668
妃	-9.53692
隣	-9.53696
迥	-9.53921
鈔	-9.53927
賤	-9.53978
剪	-9.53984
謨	-9.54015
其子	-9.54074
足下	-9.54115
遜	-9.54326
盆	-9.54383
湛	-9.54392
斬	-9.54402
拔	-9.5442
霄	-9.54459
恃	-9.54467
扉	-9.54565
生平	-9.54707
浩	-9.54782
笛	-9.54863
以上	-9.54968
裝	-9.54981
元年	-9.551
錢糧	-9.55102
儉	-9.5513
髮	-9.55167
逼	-9.5526
檢	-9.55464
子弟	-9.5556
謙	-9.55652
秩	-9.55711
嵐	-9.55722
淑	-9.55969
禮部	-9.55982
岐	-9.56042
靄	-9.56057
虹	-9.56116
椒	-9.56173
促	-9.56284
截	-9.56461
属	-9.56587
舌	-9.56657
即景	-9.56686
潘	-9.56704
安得	-9.56715
廵	-9.56747
麻	-9.56787
一切	-9.56788
函	-9.56842
溯	-9.57011
島	-9.57051
御園	-9.57117
盼	-9.57201
殁	-9.57251
一二	-9.57331
又曰	-9.57383
輦	-9.57393
叙	-9.57471
稻	-9.57672
耀	-9.57731
裕	-9.57747
淹	-9.57763
倘	-9.57822
訟	-9.579
子之	-9.57955
纎	-9.57987
榭	-9.58049
之詩	-9.58075
不可以	-9.58118
徽	-9.58136
綵	-9.58159
逕	-9.58253
嫁	-9.58293
涵	-9.58467
不勝	-9.58508
餐	-9.58651
楹	-9.58661
秋風	-9.58803
沛	-9.58816
明年	-9.58871
摹	-9.58914
揚州	-9.5898
𢎞	-9.5898
數十	-9.59044
江西	-9.5909
尚未	-9.59112
辱	-9.59113
打	-9.59135
確	-9.59148
惑	-9.59178
靣	-9.59223
輙	-9.59248
豆	-9.59251
以示	-9.59306
皮	-9.59325
裂	-9.59502
芙蓉	-9.59567
之不	-9.59589
砌	-9.59633
邨	-9.59653
千古	-9.59662
誣	-9.59856
也故	-9.59988
擢	-9.60006
庫	-9.60097
去嵗	-9.60109
翰林	-9.60114
拉	-9.6013
妍	-9.60149
不忍	-9.60382
荅	-9.60392
萬物	-9.60403
滴	-9.60414
睡	-9.60441
庶幾	-9.60514
是時	-9.60588
前後	-9.60631
陪	-9.60693
朶	-9.607
吕	-9.60737
榻	-9.60766
暴	-9.60878
偉	-9.60901
弔	-9.60922
洋	-9.60943
抗	-9.61016
官兵	-9.6105
尚有	-9.61093
膺	-9.61184
竭	-9.61233
莫不	-9.61254
浸	-9.61354
寵	-9.61492
父子	-9.61688
纂	-9.61688
黔	-9.61735
芒	-9.61778
决	-9.61856
一片	-9.61941
柯	-9.61959
公子	-9.62277
闌	-9.623
拈	-9.62303
之外	-9.62498
驗	-9.62679
渭	-9.6268
諸子	-9.62684
觧	-9.62699
圭	-9.62702
禄	-9.62734
挾	-9.62769
慚	-9.62825
徘徊	-9.62909
捷	-9.62952
幷	-9.62962
蓄	-9.63009
敝	-9.63196
場	-9.63236
夕陽	-9.63239
千載	-9.63322
彰	-9.63365
腸	-9.6339
陷	-9.63439
峻	-9.63439
何人	-9.63446
四方	-9.63661
諸公	-9.63668
焦	-9.63693
栖	-9.63717
之故	-9.63724
絳	-9.63726
者乎	-9.63769
男	-9.63811
緯	-9.63855
勘	-9.63869
飢	-9.63981
檻	-9.64144
卉	-9.64311
慧	-9.64325
綏	-9.6437
邵	-9.64391
三首	-9.64432
瀾	-9.64445
偃	-9.6448
鵲	-9.64583
擒	-9.64693
昧	-9.64766
埋	-9.6477
摘	-9.64795
士大夫	-9.64824
不相	-9.64874
爛	-9.65106
帷	-9.65123
衢	-9.65137
縷	-9.65223
杏	-9.65266
喬	-9.65439
蹕	-9.65626
妾	-9.65631
漢書	-9.65655
茲	-9.65658
鳩	-9.65841
無人	-9.65841
疇	-9.66019
摧	-9.66032
太夫人	-9.66035
龜	-9.6611
脚	-9.66202
大小	-9.66241
臘	-9.66286
藴	-9.66378
訝	-9.66469
奠	-9.66534
東風	-9.66734
僞	-9.66735
坤	-9.66766
太平	-9.66863
香山	-9.66894
叠	-9.669
伍	-9.67009
歇	-9.67162
其地	-9.67202
濁	-9.67225
諧	-9.67231
秘	-9.67292
彩	-9.67378
紗	-9.67397
哲	-9.67397
訂	-9.67413
抽	-9.67539
壩	-9.6756
則有	-9.67573
氏之	-9.67618
先後	-9.67698
亦可	-9.67699
無一	-9.67726
灘	-9.67803
駐蹕	-9.67818
培	-9.6785
醇	-9.67871
滯	-9.67914
十九	-9.67966
其餘	-9.67994
古之	-9.68079
薛	-9.68081
隋	-9.68092
倡	-9.68119
析	-9.68123
摇	-9.68174
床	-9.68191
者其	-9.683
樞	-9.6831
三百	-9.68325
之子	-9.68344
柴	-9.6836
毅	-9.68374
不為	-9.68383
忩	-9.68389
二人	-9.6846
灣	-9.68491
牖	-9.68566
樽	-9.68601
出於	-9.68625
騷	-9.68632
棹	-9.68639
箭	-9.68666
踐	-9.68689
仗	-9.68832
恥	-9.69065
其文	-9.69128
各有	-9.69186
搜	-9.69323
誰能	-9.6939
捧	-9.69413
孝子	-9.69423
冶	-9.69508
褒	-9.6952
雖然	-9.69535
漾	-9.69578
衷	-9.69652
遁	-9.69669
籟	-9.69998
釐	-9.70015
山莊	-9.70236
千年	-9.70361
之所以	-9.70402
崇禎	-9.70449
判	-9.70489
訛	-9.70554
十日	-9.70625
者以	-9.70692
瓜	-9.70701
鷗	-9.70707
魄	-9.7073
次第	-9.70757
曰此	-9.70825
碎	-9.70825
知之	-9.70998
牘	-9.71019
携	-9.71071
少年	-9.71081
突	-9.7111
之句	-9.71187
喚	-9.71205
耆	-9.71379
躍	-9.71386
罔	-9.71571
溫	-9.71613
強	-9.71685
箕	-9.71792
𠞰	-9.71942
鼔	-9.71954
巫	-9.71987
檀	-9.72027
詩以誌事	-9.72083
所見	-9.72129
東坡	-9.72191
豁	-9.72192
稔	-9.72202
羲	-9.7222
岑	-9.72242
海内	-9.72256
呂	-9.72411
豈不	-9.72479
一年	-9.72644
茗	-9.72715
裔	-9.72725
楓	-9.72735
㴱	-9.72782
障	-9.72785
明月	-9.72867
雨後	-9.72974
透	-9.73004
庚	-9.73005
狐	-9.73108
碩	-9.73121
此時	-9.7317
軸	-9.73233
阜	-9.73408
挽	-9.7342
嗜	-9.73429
者則	-9.7345
浴	-9.73662
自是	-9.737
拒	-9.73786
匹	-9.73788
處士	-9.73828
梧	-9.73832
認	-9.73898
譏	-9.73912
蘿	-9.74055
祿	-9.74117
鄒	-9.74301
冒	-9.74467
昆	-9.74471
二十年	-9.74492
稿	-9.74531
薪	-9.74554
欠	-9.74612
三代	-9.74837
孚	-9.74891
九日	-9.74929
斑	-9.74959
核	-9.75039
拘	-9.75052
霏	-9.75138
一卷	-9.75144
媿	-9.75188
吏部	-9.75233
膝	-9.75251
曷	-9.75306
太祖	-9.75358
黒	-9.7542
恣	-9.75443
嘯	-9.75458
一帶	-9.75558
汲	-9.75559
可知	-9.7556
榆	-9.75576
彦	-9.75698
又有	-9.75747
峽	-9.75752
奕	-9.75752
郵	-9.7579
舫	-9.75804
懿	-9.75894
于是	-9.75916
嬌	-9.75969
書院	-9.76095
洽	-9.76156
弦	-9.76158
傑	-9.76254
肇	-9.76255
盟	-9.76388
見其	-9.7641
歐陽	-9.7643
鐙	-9.7663
用之	-9.76662
之徒	-9.76715
欵	-9.76717
荘	-9.76724
見於	-9.7675
侍御	-9.76953
迨	-9.76963
拙	-9.76963
裳	-9.76968
門外	-9.7705
衫	-9.77142
今朝	-9.77151
森	-9.77218
掠	-9.77238
漿	-9.77245
暉	-9.77247
六年	-9.77426
故曰	-9.77448
去年	-9.77459
斂	-9.77542
鬢	-9.77646
倪	-9.77669
猿	-9.77834
幹	-9.77939
伸	-9.78087
其時	-9.78144
捲	-9.78148
播	-9.78218
渉	-9.78244
芬	-9.7835
藍	-9.78351
滑	-9.78364
測	-9.78375
榜	-9.78466
弁	-9.78639
勾	-9.7879
眾	-9.78814
未必	-9.78927
鴈	-9.78976
蚤	-9.78981
之於	-9.79085
脱	-9.79148
之功	-9.79235
濡	-9.79295
刪	-9.79314
淫	-9.79424
侍郞	-9.79713
之志	-9.79729
濶	-9.79772
護	-9.79794
稼	-9.79866
不在	-9.79947
得句	-9.79964
托	-9.79965
誼	-9.80063
玊	-9.80122
潦	-9.80176
闈	-9.80208
媚	-9.80221
刋	-9.80242
霈	-9.80298
牕	-9.80299
雉	-9.80409
之盛	-9.80616
爐	-9.80733
西風	-9.80823
中丞	-9.80852
粧	-9.80935
者必	-9.80958
歉	-9.81045
梓	-9.81061
此地	-9.81146
魁	-9.81164
尉	-9.81263
流水	-9.81449
峙	-9.8145
之則	-9.81462
墳	-9.81575
筠	-9.81577
台	-9.81643
西湖	-9.81667
拾	-9.81688
岱	-9.81788
以自	-9.81804
往來	-9.8184
韵	-9.81847
銘曰	-9.81869
灾	-9.81956
四年	-9.81968
梯	-9.81971
滌	-9.82075
僻	-9.82098
聞之	-9.82189
叛	-9.82203
岫	-9.82276
自古	-9.82292
不盡	-9.82328
天涯	-9.82402
驕	-9.8241
嵩	-9.82442
册	-9.82532
喇	-9.82549
一首	-9.82551
三千	-9.82551
斧	-9.82713
檐	-9.82725
棟	-9.82746
禱	-9.82903
道中	-9.8302
以前	-9.83081
帙	-9.83085
詰	-9.83086
以其	-9.83135
丞	-9.83274
文武	-9.83292
青山	-9.8333
陌	-9.8336
収	-9.83445
匿	-9.83585
誕	-9.837
栽	-9.83782
說文	-9.83813
矣而	-9.83862
者有	-9.839
小人	-9.83957
數年	-9.8396
帛	-9.84031
諾	-9.84043
之餘	-9.84138
混	-9.84155
亦無	-9.84173
湧	-9.84217
苞	-9.84349
以致	-9.84449
賦得	-9.84483
城南	-9.84535
憤	-9.84552
歛	-9.84558
屠	-9.84641
團	-9.84658
槩	-9.84667
笠	-9.84677
尼	-9.84682
十二月	-9.84704
江上	-9.8473
杳	-9.8476
今之	-9.8482
自有	-9.84849
䘮	-9.8488
箇	-9.84888
匡	-9.85079
羨	-9.8513
萃	-9.85133
驟	-9.85198
牢	-9.85222
人皆	-9.85241
也又	-9.85298
訊	-9.85526
䝉古	-9.85587
鳬	-9.85633
悦	-9.85824
毒	-9.85842
其二	-9.85916
詩人	-9.86019
鑄	-9.86073
段	-9.86219
覲	-9.86266
涯	-9.86292
未可	-9.86345
相思	-9.86362
着	-9.86402
鉅	-9.86426
譚	-9.86469
躋	-9.86518
濬	-9.86534
一字	-9.86544
上元	-9.86689
䟽	-9.86709
矯	-9.86742
降㫖	-9.86796
十一月	-9.8692
鷹	-9.86957
邇	-9.87103
嬰	-9.87178
傲	-9.87185
嗟乎	-9.87216
笙	-9.87251
螺	-9.87419
聨	-9.87451
若夫	-9.87467
邸	-9.87516
掛	-9.87519
演	-9.87521
坦	-9.87596
赫	-9.87605
鼻	-9.8764
惻	-9.87661
此日	-9.87665
獸	-9.87707
未及	-9.87758
所得	-9.8778
鴨	-9.87834
是非	-9.8784
漳	-9.87851
督撫	-9.8786
批	-9.8797
人生	-9.87998
不肯	-9.88016
二百	-9.88141
等語	-9.88144
鄂	-9.88173
詭	-9.88294
搖	-9.88331
駿	-9.88402
電	-9.88403
也然	-9.88426
準	-9.88436
君臣	-9.88503
不用	-9.88528
祐	-9.88562
簫	-9.88597
撲	-9.88632
壞	-9.88646
杭	-9.88659
國之	-9.88698
陀	-9.88733
之大	-9.8875
劒	-9.88783
草木	-9.88808
金陵	-9.88816
皆以	-9.88841
譌	-9.88847
沃	-9.88873
枉	-9.88882
尙書	-9.88971
五日	-9.89076
不足以	-9.89182
三人	-9.89287
十分	-9.89327
併	-9.89431
狼	-9.89441
亞	-9.89471
聘	-9.89581
拓	-9.89589
肖	-9.89591
技	-9.89636
肰	-9.89661
黛	-9.89684
潰	-9.89753
翦	-9.89785
江湖	-9.89792
相見	-9.8981
酉	-9.89951
宸	-9.89998
使君	-9.90009
周禮	-9.90032
瀑	-9.90086
瑟	-9.90187
十二年	-9.90192
甲子	-9.90192
汀	-9.90223
罰	-9.90236
洵	-9.90258
著書	-9.90343
擲	-9.90346
酣	-9.90379
豈非	-9.90439
淮南	-9.90524
樊	-9.90528
分明	-9.9057
寕	-9.90576
邁	-9.90605
不爲	-9.90647
王氏	-9.90662
顏	-9.90758
隊	-9.90782
烹	-9.90785
從容	-9.9085
詩以誌慰	-9.90867
油	-9.90905
概	-9.90917
天上	-9.90998
偷	-9.91056
迂	-9.91061
堵	-9.91127
蠶	-9.91128
栗	-9.91164
坎	-9.91178
勁	-9.91265
百餘	-9.91279
咎	-9.91296
鋒	-9.91364
枚	-9.91405
鮑	-9.91448
同年	-9.9154
暎	-9.9159
尸	-9.91869
無事	-9.91871
未嘗不	-9.91945
釀	-9.91951
猛	-9.91969
屐	-9.92056
怕	-9.92082
不易	-9.92192
何事	-9.92195
緬	-9.92288
冩	-9.92318
得雪	-9.92482
内外	-9.92522
恬	-9.92666
而有	-9.92762
逋	-9.92784
濫	-9.92787
其家	-9.9297
猶未	-9.92995
丸	-9.93029
厓	-9.93057
麓	-9.93122
畜	-9.93128
得之	-9.93175
儒者	-9.93205
溜	-9.93228
涕	-9.93246
陂	-9.93471
紆	-9.9348
凶	-9.93481
無可	-9.93635
忙	-9.9385
竇	-9.93866
年年	-9.93923
一言	-9.94126
鑾	-9.94171
者不	-9.94223
七年	-9.94231
同時	-9.94264
踵	-9.94282
𤣥	-9.94342
㧞	-9.94416
相逢	-9.9445
明堂	-9.94572
文集	-9.94584
出入	-9.94788
艾	-9.94795
歸來	-9.94949
紛紛	-9.94965
磬	-9.9505
道之	-9.95101
四時	-9.95164
㝠	-9.95166
昊	-9.95186
瓶	-9.9526
慿	-9.95263
奥	-9.95307
其名	-9.9532
至于	-9.95326
民之	-9.9538
臻	-9.95388
一笑	-9.95391
二麥	-9.95398
則又	-9.95411
瘦	-9.95412
葵	-9.9542
無以	-9.95435
文學	-9.95487
者矣	-9.95511
虧	-9.95519
暄	-9.9552
一家	-9.95527
山房	-9.9554
他日	-9.95567
奈	-9.95575
拱	-9.95655
也余	-9.95709
金石	-9.95736
蕃	-9.95857
蹈	-9.95907
莭	-9.95993
鐫	-9.96022
春雨	-9.96109
㨗	-9.96113
之説	-9.96136
文王	-9.96176
鏤	-9.96283
蛇	-9.96309
崩	-9.96387
睿	-9.96432
釵	-9.96443
豈有	-9.96446
墓誌銘	-9.96457
仇	-9.96551
亷	-9.96586
康熈	-9.9662
凛	-9.96634
騐	-9.96709
詩書	-9.96781
萊	-9.96804
又何	-9.9694
從此	-9.96948
公以	-9.96984
乙	-9.97126
範	-9.97132
蕉	-9.97359
雖有	-9.97362
俄	-9.97467
偽	-9.97579
也若	-9.9758
三十六	-9.97664
諒	-9.97741
蹤	-9.97814
䟦	-9.97899
東北	-9.97944
貨	-9.97974
所著	-9.97986
巒	-9.98026
三寸	-9.98031
挑	-9.98098
八分	-9.98134
構	-9.98226
蔬	-9.98321
庾	-9.9833
賡	-9.98373
二三	-9.98432
家人	-9.98448
裙	-9.98483
爻	-9.98491
握	-9.98573
悵	-9.98627
偶然	-9.98644
相與	-9.98671
花開	-9.98979
八年	-9.99075
闡	-9.99093
軌	-9.99253
所稱	-9.99315
不識	-9.99336
贏	-9.99345
由來	-9.99392
戯	-9.99429
而又	-9.99448
洩	-9.99457
揖	-9.99483
王公	-9.99515
繹	-9.99625
卻	-9.99636
不與	-9.99636
賚	-9.9967
以是	-9.99684
二日	-9.99689
窟	-9.99728
牡丹	-9.99729
六經	-9.99744
儼	-9.99785
㕔	-9.99798
系	-9.99823
絡	-9.99828
炳	-9.99983
溺	-9.99984
厪	-10.0006
衣冠	-10.001
皇考	-10.0018
的	-10.0025
此書	-10.0042
吞	-10.0045
猷	-10.0048
其意	-10.0052
不自	-10.0055
寇	-10.0057
彚	-10.0062
二子	-10.0069
咫尺	-10.0071
之爲	-10.0072
若干	-10.0072
山西	-10.0085
新正	-10.0093
顛	-10.0093
填	-10.0095
收成	-10.0121
筍	-10.0133
山之	-10.014
縛	-10.014
瀛	-10.0143
隙	-10.0146
其說	-10.0147
刼	-10.0149
僚	-10.015
直𨽻	-10.0151
書之	-10.0153
人所	-10.0162
迅	-10.0171
祁	-10.0174
九十	-10.0177
惟有	-10.0182
廵撫	-10.0193
以詩	-10.0196
因之	-10.0197
騁	-10.0199
汾	-10.0204
十一年	-10.0204
不免	-10.0208
自然	-10.0209
風俗	-10.0215
襍	-10.0227
扁舟	-10.0229
等處	-10.0234
皇太后	-10.0236
四海	-10.0237
蹙	-10.024
爾雅	-10.0248
太子	-10.0249
蟠	-10.0252
劾	-10.0253
嶂	-10.0253
跳	-10.0254
人情	-10.0262
精神	-10.0262
脂	-10.0267
楷	-10.0271
詩序	-10.0278
三十年	-10.0279
霍	-10.0283
級	-10.0292
簪	-10.0294
不須	-10.0299
蜂	-10.0316
侣	-10.0318
海上	-10.0321
阡	-10.0322
䕃	-10.0329
亨	-10.0332
耳目	-10.0342
太宗	-10.0348
見之	-10.0354
數百	-10.0356
紋	-10.0357
廓	-10.0357
十餘年	-10.0358
刑部	-10.036
匠	-10.036
老人	-10.037
鬚	-10.0371
鬬	-10.0372
勃	-10.0374
粗	-10.0374
行之	-10.038
茫茫	-10.0385
耐	-10.0385
百姓	-10.0386
美人	-10.0388
歐	-10.0389
編修	-10.0393
黄河	-10.0394
親王	-10.0394
訖	-10.0394
不忘	-10.0396
其義	-10.0396
矣然	-10.0398
先是	-10.04
堡	-10.041
墟	-10.0422
相對	-10.0423
仿	-10.0423
㦸	-10.0424
古者	-10.0435
簇	-10.0438
准	-10.045
慘	-10.0451
抛	-10.0451
萬年	-10.0455
貝	-10.046
蕭蕭	-10.0462
琢	-10.0465
舘	-10.0466
聖賢	-10.0466
洞庭	-10.0468
帯	-10.047
一枝	-10.0471
嚮	-10.0479
賦詩	-10.0481
膚	-10.05
棗	-10.0502
畦	-10.0504
甯	-10.0508
參差	-10.0513
悼	-10.0519
娥	-10.052
亾	-10.0523
不成	-10.0527
迫	-10.053
梢	-10.0531
姪	-10.0546
店	-10.0566
曙	-10.0568
篋	-10.0571
之上	-10.0579
漠	-10.058
鵠	-10.0585
所作	-10.0586
中外	-10.0594
娛	-10.0598
租	-10.0598
漪	-10.0598
之處	-10.0599
帝王	-10.0602
神仙	-10.0605
者非	-10.0606
工部	-10.0608
何所	-10.0612
琳	-10.0613
平原	-10.062
倩	-10.0624
姓名	-10.0628
未得	-10.0631
消息	-10.0635
江山	-10.064
福康安	-10.0645
颯	-10.0646
堰	-10.0648
滇	-10.065
子曰	-10.0651
插	-10.0651
弼	-10.0651
括	-10.0652
陞	-10.0654
轡	-10.0661
不至	-10.0672
駒	-10.0673
措	-10.0675
衮	-10.0675
凋	-10.0678
人物	-10.0679
凄	-10.069
奄	-10.069
之氣	-10.0693
乖	-10.0694
何時	-10.0695
及其	-10.0695
纓	-10.0703
雍正	-10.0704
艸	-10.0707
未知	-10.071
擕	-10.0716
祚	-10.072
二十四	-10.0721
黯	-10.0732
㱕	-10.0733
千金	-10.0748
湏	-10.0757
聖人之	-10.077
一旦	-10.077
讌	-10.0773
仙人	-10.0775
於斯	-10.0776
顚	-10.0777
鎗	-10.0782
無窮	-10.0786
胸	-10.0789
綜	-10.0789
不言	-10.079
峭	-10.0793
挈	-10.0795
禮樂	-10.0795
畆	-10.0807
不覺	-10.0816
各省	-10.0822
不可得	-10.0824
懲	-10.0839
轍	-10.0841
敞	-10.085
斜陽	-10.0852
汎	-10.0856
繭	-10.0868
旭	-10.0868
由是	-10.087
居然	-10.0881
乾坤	-10.0888
其心	-10.0893
御製	-10.0893
至此	-10.0894
冥	-10.0894
佇	-10.0895
不當	-10.0904
挹	-10.0909
誰知	-10.091
不出	-10.091
𥿄	-10.0911
迤	-10.0921
南山	-10.0926
馨	-10.0927
聯	-10.0928
駭	-10.0938
艇	-10.0939
現在	-10.0948
濵	-10.0949
富貴	-10.0949
雨中	-10.095
竣	-10.0952
何妨	-10.0952
名曰	-10.0957
中原	-10.096
天之	-10.0966
替	-10.097
詩文	-10.0971
泛舟	-10.0974
迄	-10.0989
𤓰	-10.0993
淑人	-10.1005
湖上	-10.1008
妖	-10.1022
太史	-10.1024
順治	-10.1027
慢	-10.1028
左傳	-10.1033
鬟	-10.1036
沼	-10.105
苐	-10.105
蔓	-10.1054
讀之	-10.1054
而其	-10.1057
集卷	-10.1057
㕘	-10.1057
控	-10.1061
丞相	-10.1061
磴	-10.1072
之下	-10.1073
亥	-10.1075
馭	-10.1075
山荘	-10.1082
情形	-10.1083
惟是	-10.1116
悠悠	-10.1118
軰	-10.1119
名山	-10.1122
隻	-10.1133
左氏	-10.1142
艶	-10.1144
白日	-10.115
或曰	-10.1159
之禮	-10.1173
云云	-10.1173
縮	-10.1175
經史	-10.1186
蛟	-10.119
竈	-10.119
堦	-10.1191
之遺	-10.1193
徼	-10.1194
二字	-10.1197
中書	-10.1203
翳	-10.1204
頑	-10.1204
攸	-10.1204
廣陵	-10.1206
兵部	-10.1207
唐宋	-10.1209
以及	-10.1213
有序	-10.1223
七日	-10.1224
懶	-10.1232
颺	-10.1233
髩	-10.1233
窻	-10.1235
一篇	-10.1239
白頭	-10.1245
嬉	-10.1247
簿	-10.1249
之理	-10.1253
求之	-10.1255
冕	-10.1261
柄	-10.1263
故事	-10.1263
數日	-10.1265
辯	-10.1268
民生	-10.1271
絶句	-10.1271
太常	-10.1275
流傳	-10.1275
鼠	-10.1277
其一	-10.1283
未免	-10.1288
何須	-10.1296
大兵	-10.1299
天地之	-10.13
闔	-10.1307
陜西	-10.1314
疲	-10.1314
者曰	-10.1316
尢	-10.1329
勦	-10.1331
芽	-10.1333
犬	-10.1334
久矣	-10.134
所居	-10.1343
宐	-10.1344
億	-10.1345
磯	-10.1345
甌	-10.1347
栢	-10.1352
其志	-10.1355
上年	-10.1358
尋常	-10.1361
龔	-10.1365
惆悵	-10.1376
髻	-10.1376
謫	-10.1377
十餘	-10.1378
勑	-10.1379
溥	-10.138
福建	-10.1385
摺	-10.1386
萬古	-10.1388
掖	-10.1392
癡	-10.1393
而下	-10.1396
鈞	-10.1405
煥	-10.1406
侈	-10.1407
公諱	-10.1413
麥收	-10.1423
所有	-10.1426
股	-10.1427
十五年	-10.143
隸	-10.1437
䕫	-10.1451
婁	-10.1453
熈	-10.1461
之才	-10.1464
墅	-10.1473
黄金	-10.1475
渺	-10.1476
不聞	-10.1476
専	-10.1478
邈	-10.1481
相傳	-10.1481
當日	-10.1491
瑣	-10.1493
耗	-10.1494
此則	-10.1495
俸	-10.1496
而爲	-10.1502
與君	-10.1505
成功	-10.1506
既而	-10.1507
雛	-10.1509
拍	-10.1511
揆	-10.1512
脈	-10.1512
膠	-10.1512
更有	-10.1514
山人	-10.1515
昌黎	-10.1515
葺	-10.1516
曩	-10.1528
募	-10.1536
糾	-10.1538
其詩	-10.1538
俞	-10.1539
奎	-10.1539
嶠	-10.1541
又云	-10.1551
夣	-10.1557
無端	-10.1566
浣	-10.1571
之謂	-10.1572
炊	-10.1582
鎖	-10.1582
其書	-10.1584
中秋	-10.1608
誘	-10.1614
祕	-10.1618
裴	-10.1619
醜	-10.1626
苖	-10.1626
諡	-10.1631
隘	-10.1638
賛	-10.1639
涸	-10.164
省城	-10.1646
五百	-10.1647
題句	-10.1653
終身	-10.1653
籲	-10.1657
駢	-10.1672
者而	-10.168
千餘	-10.1681
妥	-10.1686
太孺人	-10.1692
咽	-10.1698
湖南	-10.1701
𥘉	-10.1713
䦨	-10.1714
耽	-10.1719
遂以	-10.1721
涇	-10.1724
從來	-10.1729
馴	-10.1734
稚	-10.1734
槎	-10.1734
聼	-10.1745
逓	-10.1746
箱	-10.1746
償	-10.1747
是故	-10.1752
其實	-10.1754
渡江	-10.1757
殱	-10.1759
三四	-10.1768
至是	-10.1768
弘	-10.1768
萌	-10.1776
稠	-10.1776
俠	-10.1777
稅	-10.1777
鄧	-10.1779
而非	-10.178
九年	-10.1786
之制	-10.1787
落日	-10.1787
相望	-10.179
覔	-10.1791
棘	-10.1793
亦以	-10.1793
寥	-10.18
譬	-10.1806
之閒	-10.1806
購	-10.1808
樂府	-10.1809
而巳	-10.1814
慣	-10.1822
槖	-10.1822
司空	-10.1828
之例	-10.1832
寂寞	-10.1837
慷慨	-10.1838
萬世	-10.1845
昔人	-10.1847
漆	-10.1848
其父	-10.1849
翹	-10.185
怯	-10.1851
區區	-10.1853
瀆	-10.1856
大義	-10.1862
港	-10.1864
揭	-10.1865
若此	-10.1867
鷺	-10.1869
犀	-10.1869
不待	-10.187
値	-10.1871
久之	-10.1877
線	-10.1885
友人	-10.1885
穫	-10.1887
聳	-10.1897
所為	-10.1898
炙	-10.1899
壻	-10.19
袍	-10.1901
一事	-10.1901
饗	-10.1901
萬事	-10.1908
不朽	-10.1913
蟾	-10.1913
爲人	-10.1914
蠟	-10.1916
箴	-10.1918
不是	-10.1924
丑	-10.1924
一一	-10.1925
未見	-10.1926
頽	-10.1928
所至	-10.1929
之語	-10.1933
組	-10.1933
周官	-10.1936
荀	-10.1937
甕	-10.1942
羙	-10.1943
葱	-10.1945
猶有	-10.1947
恪	-10.1947
詩韻	-10.1955
淒	-10.1958
粥	-10.1959
軫	-10.197
梗	-10.1976
帑	-10.1982
而未	-10.1984
豹	-10.1988
頼	-10.1991
亦未	-10.1991
濳	-10.1995
冡	-10.2006
論語	-10.2009
所載	-10.2011
閘	-10.2017
武帝	-10.2018
貲	-10.2023
細雨	-10.203
又以	-10.2032
鄞	-10.2047
冦	-10.2048
不欲	-10.2048
揺	-10.2049
踞	-10.205
鄭氏	-10.2052
□	-10.2056
十三年	-10.2056
本朝	-10.2066
悶	-10.2067
不應	-10.2068
噶	-10.2072
亦何	-10.2074
鈴	-10.208
五色	-10.2083
博士	-10.2096
杭州	-10.2099
愆	-10.2099
朝夕	-10.21
滄	-10.2101
袂	-10.2116
臧	-10.212
奈何	-10.2124
不肖	-10.2125
十七年	-10.2128
之矣	-10.2129
挺	-10.213
不可不	-10.2137
之難	-10.2141
幢	-10.2142
而不能	-10.2144
一朝	-10.2145
蟻	-10.2145
乎其	-10.2146
木蘭	-10.216
覈	-10.216
天津	-10.2162
不少	-10.2164
斤	-10.2175
年來	-10.2178
碣	-10.2178
牲	-10.218
霸	-10.2181
錢塘	-10.2191
貺	-10.2192
跨	-10.2208
婢	-10.2212
四川	-10.2212
臺灣	-10.2216
公卿	-10.2221
門人	-10.2227
嘉靖	-10.2234
趂	-10.2235
觀之	-10.2238
旃	-10.2239
睂	-10.2243
太君	-10.2248
恭人	-10.2249
遞	-10.2255
泗	-10.2255
父老	-10.2256
君不見	-10.2259
㓜	-10.2259
憫	-10.2269
粒	-10.2271
擘	-10.2271
䑓	-10.2272
懇	-10.2272
禮記	-10.2274
卒於	-10.2277
一月	-10.2278
得失	-10.2281
塢	-10.2285
盗	-10.2286
羈	-10.2303
諸家	-10.2304
閔	-10.2304
使者	-10.2306
稷	-10.2307
望雨	-10.2314
缾	-10.2317
懋	-10.2318
之數	-10.2319
卯	-10.232
金川	-10.2334
提督	-10.2335
布衣	-10.2335
耿	-10.2336
丈夫	-10.2337
𨽻	-10.2344
功名	-10.2346
甸	-10.2348
斃	-10.235
瑤	-10.2354
丕	-10.2354
先君	-10.2355
則以	-10.2366
蹇	-10.2369
潜	-10.238
也自	-10.238
以至	-10.2385
嫩	-10.2385
綽	-10.2387
企	-10.2397
様	-10.2399
埽	-10.24
題詩	-10.2401
牌	-10.2403
駁	-10.2403
泠	-10.2419
羮	-10.2419
慨	-10.2424
鷄	-10.243
於世	-10.243
娘	-10.2435
繋	-10.2445
棠	-10.2453
不幸	-10.2454
也吾	-10.2466
無恙	-10.2469
一身	-10.2473
春日	-10.248
剖	-10.248
抒	-10.2481
南巡	-10.2482
氛	-10.2492
蠧	-10.2495
鯨	-10.2498
春光	-10.25
㝡	-10.2509
元氣	-10.2509
芻	-10.2511
舂	-10.2511
漂	-10.2511
腐	-10.2512
模	-10.2513
而不知	-10.2514
矦	-10.2522
也此	-10.2528
愴	-10.253
賊匪	-10.2536
不知其	-10.2539
則其	-10.254
吾友	-10.2541
鞍	-10.2543
講學	-10.2547
鉤	-10.2548
東山	-10.2549
豈無	-10.255
詩以	-10.2552
者又	-10.2559
江東	-10.2561
薫	-10.2562
塡	-10.2585
亦非	-10.2585
有二	-10.2587
其爲	-10.2589
經營	-10.259
二千	-10.2593
粲	-10.2596
皓	-10.2596
徂	-10.2596
唐人	-10.2604
擔	-10.2609
矩	-10.261
叨	-10.261
梨	-10.2612
山下	-10.2614
而今	-10.2614
拳	-10.2624
凱	-10.2626
諳	-10.2627
脉	-10.2629
仲春	-10.2635
阿桂	-10.2638
多少	-10.2641
明日	-10.2641
彊	-10.2647
葦	-10.2657
趾	-10.2659
瀉	-10.2661
先世	-10.267
墩	-10.2672
啄	-10.2675
捨	-10.269
時有	-10.269
不死	-10.2695
其身	-10.2695
艷	-10.2696
世祖	-10.2696
圜	-10.2697
将軍	-10.27
百世	-10.2707
䘏	-10.2708
礙	-10.2708
布政使	-10.2709
五言	-10.2712
不合	-10.2721
拖	-10.2724
膳	-10.2726
藜	-10.2727
橘	-10.273
之本	-10.2738
轅	-10.274
精舍	-10.2741
扈	-10.2746
時時	-10.275
儂	-10.2758
佚	-10.2763
蕙	-10.2763
或有	-10.2763
觀其	-10.2764
有以	-10.2768
複	-10.2775
膽	-10.2777
夭	-10.2779
大吏	-10.2783
篁	-10.2789
士之	-10.2792
酸	-10.2793
九分	-10.2797
日夜	-10.2799
經過	-10.2805
孺	-10.2809
抄	-10.2815
堯舜	-10.2815
曦	-10.2824
髯	-10.2825
兀	-10.283
不堪	-10.2832
未盡	-10.2834
沸	-10.284
十六年	-10.2842
嘲	-10.2847
十載	-10.2849
春色	-10.285
舉人	-10.2852
燦	-10.2858
經術	-10.2859
鄴	-10.2866
棺	-10.2876
一代	-10.2877
所能	-10.2878
孝廉	-10.2881
薩	-10.2885
未敢	-10.2894
轂	-10.2895
性情	-10.2898
緝	-10.2899
髙下	-10.29
東海	-10.2912
故其	-10.2913
妣	-10.2917
嘉慶	-10.2918
具奏	-10.2919
嗤	-10.2927
冲	-10.2929
姊	-10.2929
諷	-10.2929
豔	-10.2935
不妨	-10.2937
河北	-10.2939
社稷	-10.2944
未幾	-10.2955
衙	-10.296
戮	-10.2962
讐	-10.2968
胎	-10.2976
訴	-10.2977
牋	-10.2977
人事	-10.2981
蘋	-10.2983
數千	-10.2993
寮	-10.2994
軼	-10.2998
欲以	-10.3002
蓮花	-10.3008
鉢	-10.3009
罵	-10.3014
它	-10.3015
名士	-10.3023
此事	-10.3023
歸去	-10.3026
藕	-10.3027
上人	-10.3027
無異	-10.3028
掣	-10.3031
隷	-10.3034
終日	-10.3035
海棠	-10.3038
俯仰	-10.3038
弛	-10.3044
昇	-10.3049
之至	-10.305
於今	-10.3051
屑	-10.3058
者多	-10.3061
暘	-10.3062
犢	-10.3062
各屬	-10.3063
牒	-10.3064
沖	-10.3065
淤	-10.3065
殉	-10.3081
七言	-10.309
女子	-10.3094
而去	-10.3095
鬼神	-10.3098
衾	-10.3101
湖北	-10.3105
一律	-10.3107
之論	-10.3115
粹	-10.3117
九卿	-10.3118
貂	-10.3118
本無	-10.3119
一曲	-10.3124
一例	-10.3129
也以	-10.3129
从	-10.313
六朝	-10.3133
綃	-10.3134
裹	-10.3135
秋日	-10.3136
於其	-10.3141
喀	-10.3142
仁義	-10.3145
我皇上	-10.3147
参	-10.3147
有感	-10.3148
爪	-10.3148
頤	-10.3151
豕	-10.3151
瞿	-10.3153
穹	-10.3163
五經	-10.3164
入海	-10.3164
憚	-10.3169
蛾	-10.317
言其	-10.3172
撤	-10.318
帽	-10.3183
是則	-10.3183
大田	-10.3187
忠孝	-10.3194
拏	-10.3198
逞	-10.3199
紀事	-10.3205
繆	-10.3205
行人	-10.3211
憾	-10.3213
所在	-10.3216
山色	-10.3218
鋤	-10.3221
東方	-10.3222
江水	-10.3223
分别	-10.3224
尖	-10.3237
門前	-10.3244
十四年	-10.3247
芸	-10.3252
奬	-10.3253
譯	-10.3253
太白	-10.3256
先儒	-10.326
孝友	-10.3271
菱	-10.3273
太息	-10.3278
濟南	-10.3285
莖	-10.3288
扣	-10.331
忝	-10.3311
駝	-10.332
第二	-10.3321
蘓	-10.3321
得以	-10.3325
用兵	-10.3326
所屬	-10.3326
刃	-10.3328
之變	-10.3337
曼	-10.3338
之類	-10.334
雖不	-10.3342
誨	-10.3344
先人	-10.3356
閭閻	-10.3359
螢	-10.3359
赦	-10.3365
冬至	-10.3371
玲瓏	-10.3377
乃知	-10.3377
有此	-10.338
太僕	-10.3381
酷	-10.3381
詩云	-10.3382
集序	-10.3382
賁	-10.3385
其為	-10.3386
鯉	-10.3392
童子	-10.3402
晝夜	-10.3404
以来	-10.3408
得此	-10.3412
以待	-10.3414
官員	-10.3415
十萬	-10.3416
濱	-10.3416
不止	-10.3419
雨雪	-10.3421
丙	-10.3425
覊	-10.3431
同心	-10.3433
公曰	-10.3435
以成	-10.3438
被災	-10.3444
僉	-10.3447
遑	-10.3449
悅	-10.345
址	-10.3451
為君	-10.3452
五行	-10.3453
登臨	-10.3454
薰	-10.3468
呌	-10.3482
陛	-10.3487
中庸	-10.3489
廣東	-10.3498
三江	-10.35
俘	-10.35
隕	-10.3502
乙酉	-10.3505
不受	-10.3506
安能	-10.351
則曰	-10.3512
聰	-10.3521
相國	-10.3523
琅	-10.3534
牟	-10.3535
輓	-10.3536
凖	-10.3537
鬻	-10.3539
黜	-10.3541
彤	-10.3557
珮	-10.3557
狗	-10.3557
進退	-10.356
恢	-10.3561
清明	-10.3561
芳草	-10.3561
巔	-10.3571
葩	-10.3574
誡	-10.3575
依舊	-10.3577
秋色	-10.3591
囬	-10.3607
鞠	-10.361
殫	-10.3611
豈可	-10.3616
之役	-10.3617
之内	-10.3619
庚子	-10.3624
憇	-10.3625
秋水	-10.3629
諸儒	-10.3632
舍人	-10.3634
隂陽	-10.3635
雨澤	-10.3639
二十八	-10.364
求其	-10.3645
虬	-10.3646
酋	-10.3647
依稀	-10.3655
効	-10.3658
意氣	-10.366
驪	-10.3662
曁	-10.3673
經義	-10.3673
睢	-10.3674
以求	-10.3677
四面	-10.3681
落花	-10.3686
囚	-10.3687
年少	-10.3688
諸書	-10.3689
舛	-10.3692
别有	-10.3694
君子之	-10.3695
河東	-10.3696
則是	-10.3697
之用	-10.3706
產	-10.3709
于此	-10.3712
江蘇	-10.3717
睦	-10.3718
總兵	-10.3719
一書	-10.372
宜人	-10.3726
妻子	-10.3728
若是	-10.3728
同知	-10.3728
兎	-10.3736
奢	-10.3737
門下	-10.3738
昨嵗	-10.3744
始知	-10.3744
次韻	-10.3751
白居易	-10.3751
腴	-10.3752
曾祖	-10.3753
掉	-10.3756
金山	-10.3759
使人	-10.3761
􁀙	-10.3775
兔	-10.3777
何有	-10.3777
滄浪	-10.3777
可也	-10.3779
鴛鴦	-10.378
不獨	-10.3781
朂	-10.3792
煖	-10.3796
矣夫	-10.3798
也公	-10.38
當世	-10.3801
是年	-10.3808
大學	-10.3818
清風	-10.3819
潁	-10.383
覃	-10.3831
㝷	-10.3831
成龍	-10.3831
盪	-10.3831
開元	-10.3833
國史	-10.3849
逺近	-10.3856
薊	-10.3857
夜半	-10.3861
甚多	-10.3862
卡	-10.3864
宋史	-10.3869
攘	-10.3869
豈知	-10.3874
安徽	-10.3875
陜	-10.3875
小民	-10.3881
何足	-10.3886
平定	-10.3894
雨過	-10.3897
不得已	-10.39
亘	-10.3903
萍	-10.3905
生於	-10.3905
謡	-10.3905
航	-10.3907
猗	-10.3907
矧	-10.3907
而能	-10.3909
詹	-10.391
取其	-10.3913
可見	-10.3916
宰相	-10.3917
簟	-10.3924
太原	-10.3933
四五	-10.3933
宋人	-10.3934
城西	-10.3938
刹	-10.3938
螭	-10.3941
匱	-10.3941
虜	-10.3946
檢討	-10.3951
城中	-10.3951
或以	-10.3952
有時	-10.3952
婉	-10.3963
軟	-10.3964
作詩	-10.3964
無定	-10.3967
昨日	-10.397
惬	-10.3976
泓	-10.3977
劫	-10.3979
匣	-10.3979
觀察	-10.3979
懈	-10.398
失其	-10.3982
夏日	-10.3986
有一	-10.3988
其所以	-10.3992
液	-10.3994
遘	-10.3997
儔	-10.3999
貳	-10.4001
沽	-10.4008
有云	-10.4008
將以	-10.4008
瘠	-10.4016
僮	-10.4017
不禁	-10.4017
無復	-10.402
詮	-10.402
僃	-10.4026
豈能	-10.4027
壮	-10.4032
之世	-10.4032
戌	-10.4034
跪	-10.4035
眸	-10.4037
乃以	-10.4038
恕	-10.4039
作者	-10.4039
廑	-10.4051
而卒	-10.4059
二寸	-10.406
盛京	-10.4072
不宜	-10.4072
春水	-10.4073
百尺	-10.4076
是書	-10.4077
不得不	-10.4084
閟	-10.4091
肝	-10.4097
不啻	-10.4102
蘭亭	-10.4104
輟	-10.4108
英雄	-10.4109
滙	-10.411
儘	-10.4112
狎	-10.4113
沁	-10.4114
今古	-10.4122
杪	-10.4124
天道	-10.4128
欹	-10.413
蓼	-10.4133
弧	-10.4133
然其	-10.4136
妝	-10.4137
妹	-10.4138
之辭	-10.4139
五代	-10.4147
濠	-10.4149
榛	-10.4149
晶	-10.415
銓	-10.4151
汴	-10.4151
綬	-10.4152
江寧	-10.4152
事者	-10.4154
詩曰	-10.4155
何其	-10.4161
李公	-10.4162
御書	-10.4164
家法	-10.4166
沂	-10.4169
浹	-10.4172
太學	-10.4176
朔日	-10.4177
今春	-10.4179
慨然	-10.4179
蕆	-10.4184
上有	-10.4189
韜	-10.4189
筐	-10.419
由来	-10.4205
扼	-10.4206
婦人	-10.4206
馥	-10.4206
昻	-10.4208
翩	-10.421
瑩	-10.421
零落	-10.4213
戾	-10.4215
歎息	-10.4222
溟	-10.4228
怠	-10.4228
閻	-10.423
泰山	-10.4232
雲南	-10.4237
茵	-10.4244
貸	-10.4244
墀	-10.4247
諸君	-10.4248
鬭	-10.4248
性命	-10.4249
曜	-10.4251
張氏	-10.4254
日日	-10.4257
秧	-10.4265
墓表	-10.4266
恍	-10.4268
姦	-10.427
死者	-10.4271
舅	-10.4278
之初	-10.4281
流涕	-10.4282
須臾	-10.4287
憎	-10.4288
通省	-10.4291
者何	-10.4294
而言	-10.4296
詐	-10.4302
胄	-10.4305
糜	-10.4306
慟	-10.4306
佞	-10.4309
㫄	-10.4311
三尺	-10.4317
檣	-10.432
嵇	-10.4324
梳	-10.4324
王孫	-10.4325
詡	-10.4327
不致	-10.433
暝	-10.4332
作歌	-10.4339
再題	-10.434
擎	-10.4341
厨	-10.4342
另	-10.4342
纖	-10.4347
殷勤	-10.4348
張公	-10.4349
岩	-10.4357
㢤	-10.4357
處處	-10.436
椀	-10.4361
雲山	-10.4362
不改	-10.4366
第三	-10.4366
遯	-10.4367
除夕	-10.4367
貶	-10.437
者爲	-10.4374
十九年	-10.4377
縦	-10.4379
神明	-10.4383
都御史	-10.4383
壬午	-10.4384
傷心	-10.4384
數十年	-10.4388
道路	-10.4391
世間	-10.4393
民間	-10.4396
寒食	-10.44
逈	-10.44
菁	-10.4401
佈	-10.4401
與人	-10.4403
者謂	-10.4404
杏花	-10.4405
剝	-10.4406
洪武	-10.4416
十卷	-10.4418
妨	-10.442
茸	-10.4424
雒	-10.4426
有功	-10.4426
分數	-10.4429
長者	-10.4432
熱河	-10.4433
遺書	-10.4438
我亦	-10.4439
婚	-10.4443
州府	-10.4451
䑕	-10.4456
屈指	-10.4458
顆	-10.446
愍	-10.4463
苕	-10.4465
落落	-10.4467
也且	-10.4467
未至	-10.4474
爲文	-10.4476
恱	-10.4479
一體	-10.4487
李氏	-10.4487
可得	-10.4488
寐	-10.4488
武王	-10.4492
詩有	-10.4494
執事	-10.4495
得一	-10.4502
龍門	-10.4509
風塵	-10.4516
歙	-10.452
學問	-10.4521
蕊	-10.4524
襄陽	-10.4527
甲申	-10.453
衙門	-10.4531
始於	-10.4534
故國	-10.4534
蒐	-10.4539
湖廣	-10.4539
璽	-10.454
昬	-10.4543
有言	-10.4544
而成	-10.4551
罏	-10.4555
倐	-10.4557
丙辰	-10.4561
餅	-10.4561
十八年	-10.4562
冐	-10.4562
臆	-10.4564
而行	-10.4573
大抵	-10.4574
知縣	-10.4577
落葉	-10.458
肌	-10.4581
為詩	-10.4595
燈火	-10.4595
挿	-10.4598
劣	-10.46
茹	-10.46
鞏	-10.4601
昔年	-10.4602
好事	-10.4606
辜	-10.462
拊	-10.4621
視之	-10.4626
舟中	-10.4628
二十二	-10.4632
太極	-10.4637
祖宗	-10.4648
微雨	-10.4648
湖山	-10.465
安人	-10.4652
驢	-10.4654
縱横	-10.4657
殤	-10.4658
先王	-10.4661
圎	-10.4662
白首	-10.4663
道人	-10.4666
因以	-10.4666
奔走	-10.4671
聖祖	-10.4671
此皆	-10.4674
大人	-10.4678
郡縣	-10.468
渴	-10.4681
也然則	-10.4682
亢	-10.4682
始終	-10.4684
之民	-10.4685
孝經	-10.469
大江	-10.4693
其在	-10.4699
篷	-10.47
熏	-10.4704
碑文	-10.4706
歸政	-10.4707
人以	-10.4708
不許	-10.4721
㡌	-10.4721
宋元	-10.4722
城東	-10.4724
頴	-10.4727
也是	-10.4739
噫	-10.4742
儻	-10.4743
白石	-10.4744
雲中	-10.4746
花落	-10.4746
捫	-10.476
轄	-10.476
塍	-10.476
太傅	-10.4761
居士	-10.4762
一曰	-10.4764
湮	-10.4764
塾	-10.4766
籖	-10.4767
君家	-10.4773
吳越	-10.4774
戸部	-10.4781
蘄	-10.4781
罹	-10.4782
麾	-10.4783
椎	-10.4784
遏	-10.4785
吳中	-10.4791
前此	-10.4792
此間	-10.4794
諸人	-10.4796
鵬	-10.4799
謂其	-10.4802
驂	-10.4802
覓	-10.4803
矗	-10.4803
如意	-10.4806
禾黍	-10.4812
不信	-10.4813
雲氣	-10.4813
緘	-10.4822
唐書	-10.4823
悽	-10.4826
猜	-10.4827
議論	-10.4832
萬夀	-10.4833
崑	-10.4844
惹	-10.4844
他人	-10.485
有三	-10.4858
偈	-10.486
瘴	-10.486
相繼	-10.4863
逄	-10.4865
醴	-10.4866
宥	-10.4866
實為	-10.4867
當是時	-10.4878
也乃	-10.4879
太公	-10.4879
曡	-10.4883
松風	-10.4883
終不	-10.4891
惟恐	-10.4891
廡	-10.4905
皎	-10.4906
年七十	-10.4906
崑山	-10.4914
艱難	-10.4915
從事	-10.4915
汛	-10.4925
柘	-10.4925
穂	-10.4926
棧	-10.4926
天然	-10.4928
蝕	-10.4929
之官	-10.4932
噶爾丹	-10.4933
紳	-10.4938
其下	-10.4938
中國	-10.4939
事也	-10.4942
宛轉	-10.4945
言也	-10.4945
幔	-10.4948
之賢	-10.4949
遶	-10.4949
夫婦	-10.4951
方伯	-10.4951
行館	-10.4964
貼	-10.4968
贖	-10.4969
庻	-10.497
幣	-10.4972
八日	-10.4979
新詩	-10.4983
吾母	-10.4987
煎	-10.4989
悠	-10.499
者乃	-10.4991
嵗月	-10.4991
何年	-10.4993
風雅	-10.4996
其三	-10.4998
可惜	-10.4999
藹	-10.5012
有作	-10.5013
艮	-10.5017
六日	-10.5022
朋友	-10.5024
五湖	-10.5024
鉛	-10.5027
人家	-10.5031
祔	-10.5033
此亦	-10.5038
何也	-10.5042
而已矣	-10.5043
家居	-10.5045
京兆	-10.5046
巘	-10.5049
之屬	-10.5055
相應	-10.5057
昂	-10.5059
所言	-10.5065
不容	-10.5067
碉	-10.5069
程朱	-10.507
敕	-10.5071
而死	-10.5071
鎻	-10.5071
廽	-10.5071
優渥	-10.5079
六韻	-10.5084
所傳	-10.5089
犁	-10.509
禘	-10.5091
闊	-10.5094
緜	-10.5095
伎	-10.5095
在此	-10.5099
之交	-10.5106
長沙	-10.5108
踪	-10.5108
窈窕	-10.5113
幄	-10.5115
洒	-10.5115
四寸	-10.5116
所藏	-10.5121
湖水	-10.5122
聖主	-10.5124
蘇州	-10.5129
大節	-10.5131
厄	-10.5135
此中	-10.5137
蟹	-10.5138
鐡	-10.5138
謚	-10.5139
吾師	-10.514
主事	-10.5141
二十五	-10.5143
齋居	-10.5144
鵞	-10.5152
之樂	-10.5154
荔	-10.5156
爲一	-10.5157
避暑	-10.5159
畿	-10.516
斟	-10.5161
為人	-10.5163
甚矣	-10.5169
簮	-10.5175
提要	-10.5179
廩	-10.5181
四百	-10.5186
起居	-10.5192
回首	-10.5193
空山	-10.5195
近日	-10.5196
僊	-10.5198
惱	-10.52
愷	-10.5201
死而	-10.5201
剡	-10.5202
蕭然	-10.5203
山陽	-10.521
指揮	-10.5214
塟	-10.5217
珊瑚	-10.5219
曳	-10.522
蒼茫	-10.5223
樓臺	-10.5228
即今	-10.5231
府屬	-10.5233
未成	-10.524
前輩	-10.5242
夲	-10.5243
上書	-10.5245
濛	-10.5251
山隂	-10.5255
蘚	-10.5262
墾	-10.5263
不孝	-10.5269
新月	-10.5269
両	-10.5273
桃李	-10.5278
承恩	-10.5281
埃	-10.5281
餞	-10.5284
辛丑	-10.5285
令其	-10.5301
之勢	-10.5305
鉞	-10.5305
趁	-10.5306
顒	-10.5308
則必	-10.5312
使之	-10.5321
陡	-10.5324
呵	-10.5325
庥	-10.5326
剔	-10.5327
所爲	-10.5336
而知	-10.5336
盛事	-10.5341
日暮	-10.5346
不動	-10.5347
伺	-10.5347
蹊	-10.5348
聞道	-10.5351
間有	-10.5351
竺	-10.5361
復有	-10.5363
戢	-10.5367
桞	-10.537
冢	-10.537
山林	-10.5374
異同	-10.5377
者或	-10.5378
矣其	-10.5379
緇	-10.5389
禹貢	-10.5391
户部	-10.5395
詒	-10.5396
㑹同	-10.5396
本末	-10.5411
里中	-10.5412
賢者	-10.5418
衣食	-10.5419
萬曆	-10.5421
南陽	-10.5421
税	-10.5427
壊	-10.5434
砥	-10.5435
歸於	-10.544
久而	-10.5445
西安	-10.5448
有人	-10.5453
烽	-10.5453
肘	-10.546
也哉	-10.546
廣西	-10.5471
减	-10.5476
滄海	-10.5479
禎	-10.548
徵君	-10.5481
忱	-10.5482
忠臣	-10.5484
人才	-10.5484
浮雲	-10.5486
政事	-10.5487
無逸	-10.5497
與其	-10.5497
瞻禮	-10.55
鵝	-10.55
當其	-10.5502
一面	-10.5507
江左	-10.5511
為文	-10.5512
甲辰	-10.5514
蟄	-10.5522
耦	-10.5523
者如	-10.5524
淀	-10.5525
明府	-10.5526
之前	-10.5536
五六	-10.5538
昨夜	-10.5542
繕	-10.5542
而出	-10.5546
其才	-10.5548
二十一	-10.5549
猶在	-10.5556
髙士	-10.5557
顔色	-10.5558
蕭條	-10.5562
飬	-10.5563
南渡	-10.5569
鈿	-10.5571
箸	-10.5572
八分有餘	-10.5582
故園	-10.559
貴州	-10.5591
貝勒	-10.5591
歸里	-10.5598
無他	-10.5606
鴟	-10.5609
剏	-10.5609
甄	-10.5614
九州	-10.5616
詆	-10.5616
陳氏	-10.5616
通鑑	-10.5626
集中	-10.5628
非所	-10.5634
士民	-10.5637
百家	-10.5645
玉泉	-10.5652
饋	-10.5653
贍	-10.5654
澆	-10.5655
流連	-10.5656
臨風	-10.5659
莫如	-10.566
花下	-10.567
職方	-10.5673
洛陽	-10.5674
塊	-10.5677
莅	-10.5678
饌	-10.5679
一心	-10.5682
屛	-10.5682
斯人	-10.5683
也予	-10.5684
月明	-10.5684
失之	-10.5688
寰	-10.569
而止	-10.5691
經筵	-10.5694
躡	-10.5696
櫂	-10.5698
騶	-10.5701
笥	-10.5701
丙申	-10.5704
据	-10.5705
并序	-10.5708
兵丁	-10.5715
一夜	-10.5715
琬	-10.5721
剰	-10.5723
石渠	-10.5723
訣	-10.5724
目前	-10.5726
宗伯	-10.5726
内閣	-10.5732
而復	-10.5733
和尚	-10.574
其母	-10.5741
豎	-10.5742
滕	-10.5748
之年	-10.5762
丹青	-10.5767
四明	-10.5769
穎	-10.577
縫	-10.5772
朽	-10.5774
而得	-10.5775
陽明	-10.578
弆	-10.5782
㳟	-10.5788
暈	-10.579
沮	-10.579
腕	-10.5791
諭大學士	-10.5793
蠅	-10.5793
天命	-10.5794
自此	-10.5795
翰墨	-10.5799
相如	-10.5801
風光	-10.5808
焉而	-10.5809
駱	-10.5809
剥	-10.5809
雌	-10.5813
郢	-10.5817
長子	-10.5818
藪	-10.5828
詩集	-10.5835
者為	-10.5837
蹄	-10.5839
如斯	-10.584
給事中	-10.5841
云爾	-10.5841
侍衛	-10.5847
曰是	-10.5852
無言	-10.5853
大師	-10.5856
杜甫	-10.5858
琉璃	-10.5858
有㑹	-10.5859
道士	-10.5859
前人	-10.5859
餓	-10.586
昔者	-10.586
熾	-10.586
保定	-10.5862
其有	-10.587
桃源	-10.587
榦	-10.5876
孽	-10.5878
妬	-10.5881
西河	-10.5882
蠲免	-10.5884
禧	-10.5885
六十年	-10.5902
萬一	-10.5903
喜晴	-10.5908
幽人	-10.5914
猶存	-10.5925
彥	-10.5929
始得	-10.5929
不到	-10.593
出門	-10.5933
吁	-10.5938
㓂	-10.5945
江都	-10.5947
司農	-10.596
治之	-10.5961
才子	-10.5963
甡	-10.597
夥	-10.597
囂	-10.5971
氊	-10.5973
秀才	-10.5973
瘁	-10.5975
世家	-10.598
恭紀	-10.5983
八九	-10.5985
娱	-10.5989
憶昔	-10.5989
盤山	-10.5994
城下	-10.6
不失	-10.6007
雲間	-10.601
扁	-10.6017
綻	-10.6017
白馬	-10.6017
無疑	-10.6019
皆可	-10.6021
迭	-10.6022
下有	-10.6032
翎	-10.6038
漣	-10.6041
二十九	-10.6044
斌	-10.6046
乂	-10.6047
事而	-10.6048
其辭	-10.6054
從前	-10.6061
斛	-10.6062
深透	-10.6063
前代	-10.6068
鈍	-10.6069
只有	-10.607
皇子	-10.6071
年六十	-10.6073
四人	-10.6076
堂堂	-10.6081
五字	-10.6085
歲月	-10.6086
仄	-10.6086
七夕	-10.6087
孜孜	-10.6088
菽	-10.6089
銳	-10.609
漢唐	-10.6096
西域	-10.6097
成進士	-10.61
而不可	-10.6103
販	-10.6108
鬛	-10.611
矣今	-10.6122
看花	-10.6123
龕	-10.6132
無有	-10.6133
晤	-10.6134
虗	-10.6135
朴	-10.6144
之禍	-10.6144
玉泉山	-10.6145
其他	-10.6149
群	-10.6153
鐸	-10.6154
嶼	-10.6157
郁	-10.6157
棋	-10.6158
彞尊	-10.6159
再拜	-10.6159
鴛	-10.6159
其四	-10.616
互相	-10.6162
吾家	-10.6163
變化	-10.6164
無非	-10.617
莫能	-10.6171
一名	-10.6178
不作	-10.6181
者惟	-10.6181
燕子	-10.6181
有詩	-10.6183
輕重	-10.6183
姻	-10.6183
懽	-10.6184
殖	-10.6185
荆州	-10.6186
少陵	-10.6193
清河	-10.6202
灼	-10.6205
晷	-10.6208
告成	-10.621
玆	-10.6212
不負	-10.6215
成王	-10.6218
汶	-10.6224
搶	-10.6224
㢘	-10.6225
受命	-10.6226
巵	-10.6227
加恩	-10.6227
反覆	-10.6228
小學	-10.6229
風雲	-10.6229
琵琶	-10.6231
㪅	-10.6232
翟	-10.6233
傳曰	-10.6243
節婦	-10.6247
汙	-10.6248
愜	-10.625
煮	-10.6251
翅	-10.6251
泮	-10.6251
夸	-10.6254
萬民	-10.6256
車馬	-10.6259
流離	-10.6263
有志	-10.6271
晰	-10.6273
何異	-10.6277
雋	-10.6277
四十年	-10.6278
之君子	-10.6281
為一	-10.6282
吳門	-10.6293
千人	-10.6295
此意	-10.6296
龎	-10.6299
迄今	-10.63
永樂	-10.6305
妓	-10.6305
不惜	-10.6312
何當	-10.6315
無多	-10.6317
五人	-10.6318
經學	-10.6321
荼	-10.6322
行事	-10.6323
針	-10.6324
一巻	-10.6325
五更	-10.6327
璣	-10.6327
悖	-10.6329
不能自	-10.633
本年	-10.6336
大雅	-10.6338
儒林	-10.6344
椽	-10.6347
豫省	-10.6348
穉	-10.635
與余	-10.635
儀禮	-10.6356
如故	-10.6356
書曰	-10.6356
荷花	-10.6357
章句	-10.6361
辛未	-10.6361
聖母	-10.6364
捉	-10.6366
周旋	-10.6367
靳	-10.637
彷彿	-10.637
重修	-10.6371
茍	-10.6371
是為	-10.6374
實有	-10.6374
嬴	-10.6376
中流	-10.6379
存者	-10.6381
民力	-10.6382
之精	-10.6382
兇	-10.639
天恩	-10.6391
塞外	-10.6392
十二日	-10.6392
等日	-10.6393
敲	-10.6394
歌舞	-10.6396
蓬萊	-10.6397
而歸	-10.6398
周易	-10.6406
明之	-10.6409
癸未	-10.6413
蔥	-10.6414
亦自	-10.6418
八首	-10.6418
訾	-10.6423
秋月	-10.6427
原韻	-10.643
陰陽	-10.6431
立春	-10.6433
内地	-10.6438
柴門	-10.6438
而上	-10.6442
何用	-10.6445
特諭	-10.6446
稱其	-10.6447
九江	-10.645
一路	-10.6454
造物	-10.6458
閉門	-10.646
噪	-10.6464
也曰	-10.6468
山寺	-10.6471
生死	-10.6471
貢生	-10.6488
㝛	-10.6489
謳	-10.649
程子	-10.649
之力	-10.649
繚	-10.6493
公孫	-10.6493
河間	-10.6494
寸不等	-10.6495
那得	-10.65
太古	-10.6501
臣等	-10.6504
民情	-10.6508
都督	-10.6509
宵旰	-10.6511
已而	-10.6515
湍	-10.6515
鍊	-10.6515
巍	-10.6515
吳江	-10.6517
大功	-10.6517
吏治	-10.652
相近	-10.6522
昇平	-10.6533
以文	-10.6538
凭	-10.6538
其親	-10.6539
厰	-10.6541
新安	-10.6542
無能	-10.6545
大父	-10.6545
翰林院	-10.655
攻克	-10.6551
之水	-10.6551
似此	-10.6552
蒿	-10.6556
之典	-10.6557
蜃	-10.656
不若	-10.6562
裡	-10.6562
軀	-10.6564
潢	-10.6565
忤	-10.6565
羸	-10.6567
甥	-10.6567
未聞	-10.6567
扈從	-10.6581
乎此	-10.6581
莎	-10.6586
自得	-10.6588
翕	-10.6588
千尺雪	-10.6591
悚	-10.6593
武昌	-10.6594
言者	-10.6594
風月	-10.6598
老矣	-10.6598
渡河	-10.6605
躭	-10.6609
銖	-10.661
匝	-10.6611
侶	-10.6611
未足	-10.6612
六七	-10.6616
五寸	-10.6617
之末	-10.6618
不特	-10.6618
立秋	-10.6626
諸將	-10.6628
尔	-10.6628
骸	-10.6633
祉	-10.6635
紓	-10.6635
畢沅	-10.6636
癖	-10.6636
中人	-10.6637
文公	-10.6637
蔭	-10.6637
𧖟	-10.6638
以告	-10.6639
亦必	-10.6641
想見	-10.6641
之流	-10.6642
前朝	-10.6645
刊	-10.6652
元旦	-10.6654
南昌	-10.6655
姓氏	-10.6655
笻	-10.6657
泯	-10.6662
迺	-10.6662
狩	-10.6663
亦復	-10.6664
桺	-10.6665
証	-10.6667
爲詩	-10.6668
四日	-10.6668
何日	-10.6672
萬石	-10.6673
必以	-10.6675
不獲	-10.6678
而自	-10.668
杵	-10.6684
拄	-10.6685
筒	-10.6685
隐	-10.6685
鼐	-10.6686
畿輔	-10.6689
無盡	-10.669
山僧	-10.6691
者一	-10.6692
諸君子	-10.6693
數月	-10.6698
於後	-10.6698
鄭康成	-10.6698
之罪	-10.6705
十五日	-10.6706
珪	-10.6709
河水	-10.671
笈	-10.671
穢	-10.671
被水	-10.6712
之始	-10.6713
盎	-10.6713
脅	-10.6713
不克	-10.6718
其先	-10.672
誰與	-10.6721
豫章	-10.6723
道也	-10.6724
重來	-10.673
衲	-10.6732
嬾	-10.6732
其上	-10.6735
髣髴	-10.6736
謾	-10.6736
盍	-10.674
寒山	-10.6745
地方官	-10.6751
無過	-10.6756
鸚鵡	-10.6762
藁	-10.6765
十三日	-10.6766
我來	-10.6767
往事	-10.6768
明朝	-10.6769
天氣	-10.6774
崑崙	-10.6783
南海	-10.6783
迓	-10.6784
沅	-10.6784
筝	-10.6785
頥	-10.6786
題名	-10.6787
置之	-10.6787
所當	-10.6791
風前	-10.6791
優霑	-10.6803
固有	-10.6804
至意	-10.6807
盂	-10.6807
謙益	-10.681
械	-10.6811
唾	-10.6812
鑪	-10.6812
有子	-10.6815
秋禾	-10.6815
部院	-10.6816
天台	-10.6821
彝	-10.6821
靈巖	-10.6822
實錄	-10.6828
余曰	-10.6828
内府	-10.6835
加賑	-10.6835
窩	-10.6835
之失	-10.6837
王子	-10.6845
郎中	-10.6846
其學	-10.6847
所由	-10.6849
雨水	-10.685
二卷	-10.6856
磵	-10.686
八旬	-10.686
做	-10.6862
無心	-10.6862
嘉定	-10.6871
所聞	-10.6875
佳人	-10.6875
有事	-10.6878
入土	-10.6879
揣	-10.6885
汰	-10.6886
惶	-10.6886
同日	-10.6887
光明	-10.6887
鬯	-10.689
六首	-10.6898
笏	-10.6899
兩人	-10.69
婆	-10.6908
蛩	-10.6909
𣺌	-10.6909
厠	-10.691
賽	-10.691
穗	-10.6912
也則	-10.6914
甘霖	-10.6918
有聲	-10.6919
之詞	-10.693
窪	-10.6932
再三	-10.6933
紈	-10.6934
狹	-10.6936
五首	-10.6938
誰家	-10.6938
閶	-10.6957
出其	-10.6957
登髙	-10.6957
於人	-10.6957
感激	-10.6959
南國	-10.696
茁	-10.696
摭	-10.6963
夙夜	-10.6963
以資	-10.6963
烝	-10.6965
余與	-10.6967
觚	-10.6968
其道	-10.6969
池上	-10.6973
大事	-10.6976
先師	-10.6976
公羊	-10.698
即用其韻	-10.6981
九分有餘	-10.6983
之計	-10.6983
噴	-10.6985
較之	-10.6985
不厭	-10.6989
丁丑	-10.699
壬	-10.7
歎曰	-10.7004
三更	-10.7006
墉	-10.7009
縹緲	-10.701
推之	-10.7012
恆	-10.7015
祭酒	-10.7016
十八日	-10.7016
檜	-10.7017
景物	-10.7021
人主	-10.7021
不暇	-10.7022
不入	-10.7026
頺	-10.7036
登樓	-10.7051
不善	-10.7053
王師	-10.7056
相同	-10.7057
臚	-10.7058
觥	-10.706
燼	-10.706
􁔪	-10.7061
與夫	-10.7062
藏書	-10.7073
者此	-10.7078
太倉	-10.7083
之臣	-10.7085
渝	-10.7086
瓢	-10.7088
東林	-10.709
釁	-10.7092
正義	-10.7092
經年	-10.7102
以死	-10.7111
叱	-10.7112
有竒	-10.7112
憔悴	-10.7112
虞山	-10.7114
為此	-10.7114
闥	-10.7114
冺	-10.7115
无	-10.7118
此言	-10.712
一門	-10.7126
於時	-10.7129
山居	-10.7134
祖父	-10.7135
國朝	-10.7137
垢	-10.7138
千萬	-10.7141
售	-10.7141
故云	-10.7146
曾孫	-10.7146
圖書	-10.7152
自成	-10.7153
亭亭	-10.7154
大士	-10.7161
瞬	-10.7162
於天	-10.7162
槃	-10.7164
論文	-10.7169
庚戌	-10.717
即此	-10.717
先公	-10.7171
之㫖	-10.7175
今人	-10.7182
北方	-10.7185
古人之	-10.7186
山海	-10.719
橈	-10.7191
汚	-10.7192
筮	-10.7198
瀛臺	-10.7199
太湖	-10.7202
其本	-10.7204
安南	-10.7207
愉	-10.7216
一編	-10.7218
秋雨	-10.722
何能	-10.7222
西成	-10.7224
甞	-10.7225
好學	-10.7229
縣令	-10.723
即以	-10.7232
依依	-10.7233
雲林	-10.7237
此非	-10.7238
驄	-10.7241
筞	-10.7242
戊戌	-10.7242
笋	-10.7242
倖	-10.7242
虐	-10.7245
炭	-10.7247
之情	-10.7249
紹興	-10.7249
疊舊作韻	-10.7262
溪山	-10.7267
注云	-10.7267
黄花	-10.7268
悍	-10.7269
球	-10.727
諭内閣	-10.727
蓴	-10.7274
半月	-10.7274
甲乙	-10.7275
無遺	-10.7277
矣故	-10.728
繼之	-10.7287
成都	-10.7287
江陵	-10.7289
山陰	-10.7293
芃	-10.7294
焚香	-10.73
嘉興	-10.7306
壬子	-10.7306
茫	-10.7315
李白	-10.7315
地丁	-10.7316
未易	-10.7317
嘶	-10.732
脣	-10.7324
耄	-10.7324
璜	-10.7325
岷	-10.7325
遣使	-10.7327
禋	-10.7328
不遇	-10.7329
不解	-10.733
副使	-10.7332
功成	-10.7336
駟	-10.7347
鑰	-10.7347
炤	-10.7349
璫	-10.735
訃	-10.7352
㳒	-10.7355
君諱	-10.7355
明史	-10.7357
王母	-10.736
大將軍	-10.7364
漠漠	-10.7372
哨	-10.7372
装	-10.7373
侍讀	-10.7374
夏至	-10.7375
太液	-10.7375
芍藥	-10.7376
丙午	-10.7379
書法	-10.7381
十首	-10.7383
水流	-10.739
羣臣	-10.7392
書生	-10.7398
屆	-10.7398
弩	-10.74
石經	-10.74
喉	-10.7401
南歸	-10.7401
罄	-10.7402
狄	-10.7403
千百	-10.7404
穩	-10.7404
風景	-10.7405
聿	-10.7406
其説	-10.7406
太和	-10.7408
江淮	-10.741
丁酉	-10.7411
之師	-10.7412
茅屋	-10.7414
文帝	-10.7423
壠	-10.7424
重陽	-10.7424
髙樓	-10.7424
萬頃	-10.7427
燃	-10.7428
罅	-10.7428
鱸	-10.7428
僑	-10.7429
縞	-10.7429
周之	-10.7429
戶	-10.7431
無限	-10.7432
試問	-10.7449
㠶	-10.7451
長城	-10.7453
禮成	-10.7453
坂	-10.7456
好古	-10.7459
歿	-10.7461
稽首	-10.7464
飲酒	-10.7464
詹事	-10.7465
百萬	-10.7468
吁嗟	-10.747
件	-10.7476
夘	-10.7477
蒼蒼	-10.7479
庇	-10.7481
七字	-10.7482
想像	-10.7486
戊辰	-10.7486
事宜	-10.7488
者哉	-10.7488
一見	-10.7501
幀	-10.7505
城郭	-10.7506
捍	-10.7507
頰	-10.7508
彪	-10.751
笳	-10.7511
夢中	-10.7512
二十七	-10.7512
聰明	-10.7515
加以	-10.7518
此其	-10.7519
㑹稽	-10.752
後先	-10.7523
以備	-10.7526
已成	-10.7526
風雪	-10.7528
闐	-10.7529
丙子	-10.753
歆	-10.7533
鳶	-10.7533
洄	-10.7534
餌	-10.7534
為我	-10.7535
回部	-10.7539
曲折	-10.7541
彛	-10.7542
兌	-10.7543
方寸	-10.7547
一生	-10.7547
明珠	-10.7549
到處	-10.7555
功臣	-10.7557
積雪	-10.7557
開府	-10.756
不起	-10.7561
邢	-10.7562
犖	-10.7563
贅	-10.7565
稽古	-10.7565
吾聞	-10.7565
上林	-10.7565
楊柳	-10.7571
霑足	-10.7572
非常	-10.7573
經傳	-10.7575
必先	-10.7576
運河	-10.758
若有	-10.7582
苛	-10.7583
故鄉	-10.7587
樾	-10.7588
昉	-10.7588
自昔	-10.7589
順天	-10.7589
令人	-10.7589
嗣後	-10.759
後來	-10.7599
死生	-10.76
三載	-10.7607
之德	-10.761
竹林	-10.7611
十六日	-10.7613
攫	-10.7613
靡不	-10.7614
之風	-10.7614
因命	-10.7616
寃	-10.7616
勻	-10.7616
婺	-10.7617
庚寅	-10.7617
多有	-10.7618
闇	-10.7619
裒	-10.7621
兹據	-10.7622
南京	-10.7622
當以	-10.7624
終始	-10.7625
無數	-10.7627
知已	-10.7627
山河	-10.7628
長洲	-10.7639
芥	-10.7643
纒	-10.7643
城北	-10.7643
兒童	-10.7643
寂寂	-10.7644
天人	-10.7651
乙未	-10.7654
他年	-10.7655
宋之	-10.7657
宫中	-10.7657
歸田	-10.7658
松江	-10.766
萬樹	-10.7661
十有二	-10.7661
亦云	-10.7661
不逮	-10.7662
若何	-10.7666
幕府	-10.7667
口占	-10.7667
諮	-10.7668
諌	-10.767
弭	-10.7672
老夫	-10.7674
給事	-10.7677
小憩	-10.7685
何曾	-10.7691
故有	-10.7692
尚可	-10.7692
之命	-10.7693
薈	-10.7694
府属	-10.7696
曵	-10.7696
一夕	-10.7702
文獻	-10.7706
不顧	-10.7707
秊	-10.7712
而公	-10.7713
白髪	-10.7714
謐	-10.7724
▁臣	-10.7724
款	-10.7726
葆	-10.7726
秋成	-10.7727
璋	-10.7728
有大	-10.7728
裾	-10.7728
敖	-10.773
園中	-10.7731
過雨	-10.7733
以次	-10.7735
天子之	-10.7736
全書	-10.7737
寒暑	-10.7744
礟	-10.7744
春來	-10.7744
凜	-10.7752
誚	-10.7753
月令	-10.7755
謗	-10.7758
徃徃	-10.7763
老子	-10.7767
春夏	-10.7768
其能	-10.7774
雖未	-10.7775
絹	-10.7778
覇	-10.7779
山谷	-10.7779
識者	-10.778
捜	-10.778
有異	-10.7781
榴	-10.7781
鍼	-10.7782
之區	-10.7786
古寺	-10.7787
三十二	-10.7795
次日	-10.7797
彼此	-10.7801
武功	-10.7804
同人	-10.7804
耘	-10.7805
糊	-10.7809
驥	-10.7809
此際	-10.7812
殯	-10.7816
北海	-10.7817
暮春	-10.7817
起家	-10.7819
七十二	-10.7819
未經	-10.7822
畫圖	-10.7822
曰我	-10.7825
矣又	-10.7826
格物	-10.7826
辛苦	-10.7827
平陽	-10.7828
彎	-10.7829
尊者	-10.7831
羃	-10.7832
賄	-10.7834
瀕	-10.7834
届	-10.7836
我欲	-10.784
形勢	-10.7847
從之	-10.7852
迸	-10.7859
第五	-10.7864
譁	-10.7864
瑕	-10.7865
弑	-10.7867
多士	-10.7876
奏請	-10.7887
炬	-10.7888
霰	-10.789
估	-10.7891
媒	-10.7897
上官	-10.7897
也先生	-10.7898
我心	-10.7901
發明	-10.791
緊	-10.7914
礪	-10.7916
一室	-10.7916
吝	-10.7918
泐	-10.7921
一聲	-10.7922
之術	-10.7929
晨夕	-10.7933
有神	-10.7935
北山	-10.7935
瓣	-10.7939
侍從	-10.7941
旂	-10.7941
既已	-10.7943
及此	-10.7943
燥	-10.7948
而况	-10.7949
及之	-10.795
會稽	-10.7952
太史公	-10.7958
京口	-10.7961
珍重	-10.7965
二十三	-10.7966
漬	-10.7972
隈	-10.7975
之體	-10.7978
固不	-10.7978
學術	-10.7979
月下	-10.798
也嗚呼	-10.798
竹垞	-10.7984
西京	-10.7987
葬於	-10.7988
爲我	-10.7991
部議	-10.7992
多矣	-10.7992
自謂	-10.7993
欣慰	-10.7997
雞鳴	-10.7998
之利	-10.7999
蕚	-10.8001
盃	-10.8002
睹	-10.8003
搏	-10.8005
書畫	-10.8009
九重	-10.801
從而	-10.801
南望	-10.8012
避暑山莊	-10.8026
白玉	-10.8028
剽	-10.8028
斯文	-10.8029
勤政	-10.803
楮	-10.8031
奩	-10.8032
搴	-10.8032
壬寅	-10.8032
畫舫	-10.8032
肩輿	-10.8037
兩月	-10.8038
者三	-10.804
貞觀	-10.8041
百餘年	-10.8041
前往	-10.8049
禀	-10.8053
剿	-10.8054
繾	-10.8055
公與	-10.8056
侮	-10.8057
不離	-10.8059
萬餘	-10.8059
臼	-10.8059
攢	-10.8062
三十里	-10.8066
孔子之	-10.8067
庠	-10.807
第四	-10.8071
兒女	-10.8075
廷臣	-10.8075
宗廟	-10.8079
知有	-10.8081
翠微	-10.8086
苴	-10.8086
狥	-10.8086
訶	-10.8087
春山	-10.809
祜	-10.8092
深處	-10.8094
一經	-10.8096
取之	-10.8097
幸而	-10.8101
五福	-10.8104
行狀	-10.8108
盜賊	-10.8108
姚江	-10.8109
趺	-10.811
鹵	-10.811
盻	-10.8111
淮安	-10.8114
悃	-10.8115
壹	-10.8116
生計	-10.8117
著述	-10.8118
悄	-10.8118
三分	-10.8119
時節	-10.8124
旣而	-10.8126
三世	-10.8128
則無	-10.8134
徒以	-10.8138
蛟龍	-10.8138
悠然	-10.8138
凢	-10.814
穰	-10.8141
張子	-10.8142
忠介	-10.8143
錢唐	-10.8144
四字	-10.815
秦漢	-10.8156
右軍	-10.8157
胸中	-10.8163
八韻	-10.8164
甘肅	-10.8166
十四日	-10.8166
劄	-10.8168
固已	-10.8168
褐	-10.8169
廼	-10.8172
唐虞	-10.8173
婆娑	-10.8173
不辭	-10.8174
默	-10.8176
庚辰	-10.8179
萬人	-10.8179
無何	-10.818
馬上	-10.8182
縣知縣	-10.8183
然也	-10.8184
不甚	-10.819
楊栁	-10.819
今已	-10.819
無所不	-10.8192
斫	-10.8195
不問	-10.8196
攅	-10.8196
新城	-10.8199
槁	-10.8199
年八十	-10.82
復何	-10.8201
寔	-10.8202
挫	-10.8202
般	-10.8204
耒	-10.8204
如有	-10.8204
枋	-10.8205
山東巡撫	-10.8205
甲寅	-10.8213
鄉試	-10.8214
國語	-10.8217
烟波	-10.8217
之弊	-10.8218
舊有	-10.822
因思	-10.8221
濺	-10.8222
何為	-10.8222
騫	-10.8227
屨	-10.8231
瞽	-10.8232
一千	-10.8233
然亦	-10.8233
奏聞	-10.8236
僖	-10.8238
大有	-10.8238
不下	-10.8239
諸葛	-10.8243
燄	-10.826
淋漓	-10.8261
惇	-10.8261
掇	-10.8263
安知	-10.8265
中間	-10.8266
無疆	-10.8267
男子	-10.8267
也葢	-10.8275
忠義	-10.8282
烘	-10.8284
齎	-10.8285
泠泠	-10.8285
渇	-10.8286
聖祖仁皇帝	-10.8288
洊	-10.8288
个	-10.8293
愛民	-10.8297
徐州	-10.8301
生子	-10.8304
辛巳	-10.8305
其年	-10.8305
猶是	-10.831
壚	-10.8311
園林	-10.8315
潼	-10.832
變而	-10.8327
硯銘	-10.833
同里	-10.8333
遺民	-10.8334
數人	-10.8335
君以	-10.8337
躬行	-10.8337
男女	-10.8339
唘	-10.834
皴	-10.8342
些	-10.8347
迴蹕	-10.8348
逵	-10.8348
居民	-10.8348
御製詩	-10.8349
老成	-10.835
殺之	-10.8351
萬壑	-10.8361
垂楊	-10.8367
門戸	-10.8368
無私	-10.8368
迦	-10.8372
諸王	-10.8372
壅	-10.8372
犂	-10.8373
蘇軾	-10.8373
數萬	-10.8373
塋	-10.838
孫子	-10.8382
吾民	-10.8384
已過	-10.8389
孤城	-10.8392
海內	-10.8392
城外	-10.8393
流光	-10.8395
刈	-10.8399
華山	-10.8399
正當	-10.84
薇	-10.84
何不	-10.8402
賭	-10.8403
肄	-10.8404
紱	-10.8404
䰟	-10.8405
二公	-10.8405
秃	-10.8406
賸	-10.8406
不辨	-10.8406
南苑	-10.8407
淵明	-10.8413
源流	-10.8413
文選	-10.842
名家	-10.8423
終古	-10.8424
侍講	-10.8425
字子	-10.8425
之音	-10.8425
甲午	-10.8427
庭前	-10.8429
砧	-10.8432
綰	-10.8433
曇	-10.8435
胷	-10.8435
有道	-10.8435
少時	-10.8436
記曰	-10.8437
精舎	-10.8442
石橋	-10.8442
之喪	-10.8452
相似	-10.8452
氓	-10.8459
髓	-10.8461
未發	-10.8461
鞵	-10.8462
晋	-10.8462
衣裳	-10.8463
有意	-10.8465
入山	-10.847
天心	-10.8473
大儒	-10.8477
可乎	-10.8482
之先	-10.8485
所知	-10.8486
生民	-10.8486
翩翩	-10.849
萼	-10.8491
陲	-10.8491
記得	-10.8491
璞	-10.8492
此心	-10.8494
癸丑	-10.8494
無論	-10.8494
掘	-10.8495
舟行	-10.8495
抹	-10.8497
林下	-10.8498
西園	-10.8504
往還	-10.8506
世人	-10.8506
月上	-10.8514
睇	-10.8517
有無	-10.8518
轟	-10.8518
閃	-10.8519
膩	-10.8522
蕋	-10.8525
甘泉	-10.8525
水經	-10.8527
宣和	-10.8528
便是	-10.8528
造化	-10.853
五十年	-10.8544
載酒	-10.8546
瀟湘	-10.8547
週	-10.8547
状	-10.8548
歸而	-10.855
廹	-10.855
萱	-10.8551
河南巡撫	-10.8552
司徒	-10.8552
乎曰	-10.8553
太行	-10.8553
丙戌	-10.8554
曝	-10.8554
寤	-10.8555
名臣	-10.8559
長河	-10.8563
夜月	-10.8563
相去	-10.8564
太師	-10.8569
又復	-10.857
萬厯	-10.8571
君王	-10.8572
汨	-10.8577
槳	-10.8579
淆	-10.8581
窄	-10.8583
樓閣	-10.8583
日出	-10.8583
柬	-10.8584
頸	-10.8585
亹	-10.8585
濂	-10.8586
雪後	-10.8587
可望	-10.8588
飄零	-10.859
身後	-10.8596
北斗	-10.86
此語	-10.8601
出而	-10.8605
鋭	-10.8606
烈婦	-10.8607
漢魏	-10.8607
朅	-10.8608
飲食	-10.8609
慵	-10.8609
諦	-10.861
屹	-10.861
瀟灑	-10.861
溼	-10.8612
盈尺	-10.8622
雨暘	-10.8629
爾等	-10.863
和闐	-10.8631
石門	-10.8634
予以	-10.8635
牡	-10.8637
明矣	-10.8637
拆	-10.8639
燬	-10.864
目錄	-10.8647
繙	-10.8648
入都	-10.865
人知	-10.8655
能無	-10.8656
桐城	-10.8656
亦多	-10.8656
丁未	-10.8658
皆在	-10.8659
各属	-10.8663
家世	-10.8666
四庫	-10.8668
聆	-10.8669
難得	-10.8669
科舉	-10.867
毓	-10.867
賖	-10.8671
舉其	-10.8674
亦曰	-10.8676
其功	-10.8676
子姓	-10.8677
奉命	-10.8677
靑山	-10.868
洪範	-10.8681
相公	-10.8681
賔客	-10.8685
之兵	-10.8688
不傳	-10.8693
欣然	-10.8694
惰	-10.87
斯言	-10.8704
匆匆	-10.8705
甲戌	-10.8707
聮	-10.8708
盈盈	-10.8708
天竺	-10.871
理學	-10.871
而弗	-10.8712
不知何	-10.8718
花枝	-10.8722
殺賊	-10.8726
瞰	-10.8728
刷	-10.8729
溷	-10.873
鏗	-10.873
撒	-10.873
忻	-10.873
樂天	-10.8733
脆	-10.8734
浚	-10.8735
翡翠	-10.8735
宼	-10.8737
西陵	-10.8738
時文	-10.8738
豈必	-10.8739
外藩	-10.8743
况復	-10.8744
兩家	-10.8745
十七日	-10.8747
之患	-10.8753
施行	-10.8755
秋收	-10.8756
予嘗	-10.8756
曺	-10.8759
屧	-10.8759
此次	-10.8759
廓爾喀	-10.876
經文	-10.876
菩薩	-10.8761
時若	-10.8761
即位	-10.8762
幡	-10.8762
渙	-10.8763
艘	-10.8763
粱	-10.8763
三春	-10.8766
日以	-10.8766
庚午	-10.8768
薨	-10.8768
皋	-10.8769
在兹	-10.8771
甘膏	-10.8774
有情	-10.8775
於天下	-10.8776
出于	-10.8778
峩	-10.8787
蓑	-10.8788
佔	-10.8788
知君	-10.879
石城	-10.879
瘞	-10.8791
旄	-10.8791
禪師	-10.8792
卽以	-10.8793
潑	-10.8793
撓	-10.8794
珂	-10.8795
之美	-10.8796
中央	-10.8798
之思	-10.8801
不食	-10.8804
知我	-10.8805
出處	-10.8806
一官	-10.8808
禮成述事	-10.8816
由此	-10.882
儆	-10.8821
孔氏	-10.8822
山雲	-10.8825
熹	-10.8827
古詩	-10.8828
淵源	-10.8828
祈年	-10.8828
吾鄕	-10.8829
一寸	-10.8832
千尺	-10.8833
癸	-10.8834
官吏	-10.8838
海外	-10.8839
林泉	-10.8845
坼	-10.8846
天啓	-10.8847
徇	-10.8848
元日	-10.8848
武陵	-10.8849
論詩	-10.8854
而終	-10.8856
不絶	-10.8868
其詞	-10.887
幾何	-10.8875
四子	-10.8876
伊犁	-10.8879
立言	-10.888
蜜	-10.8882
綘	-10.8883
䧟	-10.8883
四書	-10.8883
筑	-10.8884
羌	-10.8884
忠貞	-10.8885
瑜	-10.8888
縠	-10.8888
迪	-10.8888
連朝	-10.8891
每嵗	-10.8894
尤為	-10.8898
我朝	-10.8899
矣余	-10.8905
三間	-10.8905
不息	-10.8906
舉行	-10.891
識其	-10.8911
也蓋	-10.8911
筆墨	-10.8912
及時	-10.8913
假借	-10.8913
壬辰	-10.8915
杲	-10.8916
不惟	-10.8917
疵	-10.8919
駮	-10.8921
山左	-10.8928
底事	-10.8929
者故	-10.8933
攤	-10.894
水勢	-10.8945
閎	-10.8947
讎	-10.8947
之使	-10.8947
是爲	-10.8953
潞	-10.8953
阮亭	-10.8955
親見	-10.8958
臨川	-10.8963
刺史	-10.8967
五臺	-10.8969
櫛	-10.8974
涌	-10.8974
而先生	-10.8975
按察使	-10.8978
譙	-10.8978
樓上	-10.898
搨	-10.8981
抉	-10.8981
更無	-10.8981
未央	-10.8984
竟日	-10.8987
列傳	-10.8992
丹陽	-10.8997
華亭	-10.8997
乃得	-10.8998
宋儒	-10.8999
搔	-10.9008
囑	-10.9008
鞅	-10.9009
乃有	-10.9012
蛾眉	-10.9013
一方	-10.9013
者固	-10.9014
滿洲	-10.9015
二十六	-10.9021
京城	-10.9023
我聞	-10.9025
花朝	-10.9026
寥寥	-10.9033
伶	-10.9035
穡	-10.9035
翮	-10.9036
傭	-10.9038
押	-10.9038
瓠	-10.9038
珊	-10.9039
稟	-10.9039
療	-10.9039
陛下	-10.9039
芟	-10.904
珥	-10.9041
韶光	-10.9041
長歌	-10.9043
布政司	-10.9044
詩句	-10.9046
聨句	-10.9047
考之	-10.905
等奏	-10.9053
孝弟	-10.9053
馬蹄	-10.9054
卒于	-10.9055
於朝	-10.9056
也君	-10.9059
天門	-10.9059
拯	-10.9067
封疆	-10.9067
灤	-10.9067
邇日	-10.9067
擷	-10.9069
以慰	-10.9071
漢人	-10.9072
試看	-10.9074
吾子	-10.9077
孝亷	-10.9078
不一	-10.9082
豈其	-10.9084
子美	-10.9085
不樂	-10.9088
不可勝	-10.9089
春草	-10.9089
松柏	-10.9096
門生	-10.9097
柑	-10.91
嫡	-10.9103
近世	-10.9106
我兵	-10.9112
世事	-10.9117
舊事	-10.912
水旱	-10.9124
魚龍	-10.9127
牐	-10.9128
潄	-10.9129
囿	-10.9131
藐	-10.9131
擴	-10.9132
獅	-10.9141
宗室	-10.9145
曲江	-10.9148
孤山	-10.9151
家有	-10.9156
而反	-10.9156
一尺	-10.9156
閫	-10.9161
之勝	-10.9162
拭	-10.9163
遄	-10.9165
羅漢	-10.9166
江浙	-10.9175
南方	-10.9176
博學	-10.9188
有年	-10.9189
撫臣	-10.9189
不載	-10.919
何由	-10.919
巽	-10.9194
氣象	-10.9194
閙	-10.9195
蹉跎	-10.9195
劑	-10.9196
竅	-10.9197
八旗	-10.9197
㤗	-10.9198
猶可	-10.9201
無極	-10.9206
望澤	-10.9206
東流	-10.9207
磊落	-10.9208
人倫	-10.9209
星辰	-10.9211
平湖	-10.9219
悞	-10.9219
清和	-10.922
糟	-10.9223
杉	-10.9223
迢迢	-10.9225
燠	-10.9226
臬	-10.9226
穠	-10.9226
荻	-10.9228
天際	-10.9228
玉堂	-10.923
粘	-10.9231
碑記	-10.9237
家傳	-10.9238
不通	-10.9241
中夜	-10.9242
也雖然	-10.9243
無聲	-10.9245
猶然	-10.9249
咲	-10.9253
軍營	-10.9253
平日	-10.9255
七八	-10.9256
十數	-10.9257
於民	-10.9257
庖	-10.9258
石室	-10.926
棚	-10.926
彞	-10.926
稜	-10.9262
欒	-10.9263
不異	-10.9266
一錢	-10.9267
一葉	-10.9269
直隸	-10.9271
劉氏	-10.9272
不行	-10.9273
夜深	-10.9278
古來	-10.9279
上方	-10.928
大都	-10.9282
余嘗	-10.9284
净	-10.9287
朝鮮	-10.9287
葭	-10.9287
淙	-10.9288
楣	-10.9291
蠡	-10.9293
勺	-10.9293
落成	-10.9295
幾時	-10.9295
吳興	-10.9299
太歲	-10.9312
喇嘛	-10.9314
五千	-10.9316
者多矣	-10.9318
伽	-10.9318
詘	-10.9321
袒	-10.9325
連日	-10.9325
圻	-10.9327
上帝	-10.9329
世宗	-10.9332
纏	-10.9332
金門	-10.9334
不寐	-10.9335
今宵	-10.9338
南宋	-10.9344
未有不	-10.9344
十丈	-10.9344
七分	-10.9345
獨坐	-10.9351
窘	-10.9353
朝來	-10.9353
窠	-10.9354
纍纍	-10.9354
鏡中	-10.9358
大同	-10.9358
雖無	-10.936
正是	-10.9362
以俟	-10.9362
蒼生	-10.9371
小樓	-10.9373
雲霞	-10.9374
韓愈	-10.9375
㝎	-10.938
筭	-10.9387
醪	-10.9388
推官	-10.9389
刦	-10.939
兩岸	-10.939
江流	-10.939
亦當	-10.9394
爾時	-10.9395
隨時	-10.9396
大家	-10.9396
師友	-10.9397
之舊	-10.9402
少保	-10.9403
昆明	-10.9406
淮揚	-10.9411
纂修	-10.9412
中興	-10.9413
我師	-10.9413
雩	-10.9413
西直門外	-10.9415
鼇	-10.9416
名之曰	-10.9417
至誠	-10.9418
叔父	-10.942
僵	-10.942
寄語	-10.9421
㟁	-10.9421
宇宙	-10.9422
檠	-10.9423
假山	-10.9427
所宜	-10.9427
一語	-10.943
白髮	-10.9432
可信	-10.9441
壁間	-10.9442
遺文	-10.9442
一行	-10.9442
娑	-10.9448
聫	-10.9449
敢不	-10.945
諭户部	-10.945
超然	-10.9453
年正月	-10.946
畿南	-10.946
賓客	-10.946
明經	-10.9461
之旨	-10.9463
孫女	-10.9464
詞臣	-10.9466
飛來	-10.9466
偉業	-10.9469
仁和	-10.947
可知矣	-10.9474
應知	-10.9474
石壁	-10.9476
子夏	-10.9476
青雲	-10.9476
餘姚	-10.948
皇后	-10.948
𬒳	-10.9482
磔	-10.9484
世俗	-10.9491
誄	-10.9491
嘗謂	-10.9491
公主	-10.9493
地下	-10.9495
安民	-10.9498
不廢	-10.95
不屑	-10.95
今昔	-10.9501
寸心	-10.9502
近代	-10.9506
京華	-10.9507
波濤	-10.9509
取士	-10.9513
無益	-10.9515
恠	-10.9516
三五	-10.9517
絲竹	-10.9521
是謂	-10.9521
當前	-10.9521
戊午	-10.9522
癸卯	-10.9523
後漢書	-10.9531
對酒	-10.9532
泉石	-10.9534
之要	-10.9537
杜牧	-10.9542
陸續	-10.9544
麤	-10.9551
頗有	-10.9556
釋文	-10.9556
匏	-10.9556
三卷	-10.9557
煦	-10.9558
播種	-10.9558
多情	-10.9561
曛	-10.9579
具在	-10.9581
畊	-10.9582
江北	-10.9583
劵	-10.9583
仲子	-10.9583
書堂	-10.9583
曾子	-10.9583
弋	-10.9584
豈易	-10.9584
兢	-10.9585
昔日	-10.9588
或謂	-10.9592
初六日	-10.9595
輕輿	-10.9597
千頃	-10.9602
祠堂	-10.9602
漢儒	-10.9608
供奉	-10.9609
楫	-10.961
不數	-10.9611
之任	-10.9617
二十里	-10.962
閣下	-10.9626
獨立	-10.9627
弱冠	-10.9632
一等	-10.9633
展轉	-10.9633
上天	-10.9635
秋山	-10.9637
以養	-10.9638
而不得	-10.9639
西河集巻	-10.9641
不能盡	-10.9644
秋光	-10.9644
餽	-10.9646
其弟	-10.9646
所撰	-10.9646
昆弟	-10.9646
儷	-10.9648
前年	-10.9648
屍	-10.9648
裊	-10.9649
僭	-10.965
卓然	-10.9651
極目	-10.9652
不已	-10.9653
花前	-10.9653
形容	-10.9653
口糧	-10.9659
家貧	-10.9662
生意	-10.9662
將士	-10.9665
詩成	-10.9671
摛	-10.9672
罨	-10.9674
歲在	-10.9675
張宗蒼	-10.9675
眩	-10.9677
攄	-10.968
三朝	-10.9692
位置	-10.9694
王父	-10.9697
元韻	-10.97
眼前	-10.9707
無子	-10.9709
扎	-10.971
入門	-10.971
諺	-10.9711
容易	-10.9714
寂寥	-10.9714
少卿	-10.9714
譲	-10.9714
翊	-10.9717
琮	-10.9718
樣	-10.9719
長發	-10.9721
玉樹	-10.9721
長江	-10.9722
儕	-10.9723
冤	-10.9724
詳見	-10.9725
支離	-10.9728
臨江	-10.9731
庚申	-10.9734
児	-10.9734
雖云	-10.9739
鐘聲	-10.974
啞	-10.9742
吾心	-10.9745
人閒	-10.9746
霙	-10.9748
糓	-10.9748
槽	-10.9748
閬	-10.9748
煌	-10.9749
掲	-10.975
燎	-10.9754
所生	-10.9754
楨	-10.9754
亦可以	-10.9756
世界	-10.976
宣城	-10.9762
初度	-10.9767
八百	-10.9768
歡喜	-10.9768
孺子	-10.9772
於心	-10.9776
壽序	-10.978
濛濛	-10.9781
鄧尉	-10.9782
或可	-10.9782
邃	-10.9782
墊	-10.9784
前嵗	-10.9784
淩	-10.9784
炫	-10.9785
紐	-10.9785
剩	-10.9785
來往	-10.9786
柵	-10.9786
䄂	-10.9786
摩挲	-10.9787
脊	-10.9788
亦足	-10.979
何敢	-10.9791
亦知	-10.9796
並無	-10.9803
水經注	-10.9803
於余	-10.9809
悲歌	-10.981
表裏	-10.9811
櫓	-10.9811
南廵	-10.9813
啜	-10.9816
峨	-10.9816
底須	-10.9817
烟霞	-10.9821
規模	-10.9821
戊申	-10.9822
蕭瑟	-10.9822
素心	-10.9822
瑾	-10.9823
軍中	-10.9827
幾人	-10.9828
曰汝	-10.9828
疇昔	-10.9829
何曽	-10.983
人人	-10.9833
賑濟	-10.9834
杜陵	-10.9835
那能	-10.9836
戊子	-10.9842
椿	-10.9847
隰	-10.9851
高祖	-10.9851
嵌	-10.9851
中和	-10.9853
京畿	-10.9854
圉	-10.9857
正值	-10.9858
城市	-10.9866
風物	-10.9866
微風	-10.9867
明季	-10.9867
均霑	-10.9867
典禮	-10.9867
者葢	-10.9869
至尊	-10.9872
諭㫖	-10.9874
南湖	-10.9878
第十	-10.9881
蹋	-10.9882
痩	-10.9883
秋聲	-10.9888
招提	-10.9897
為民	-10.9897
嵗時	-10.9898
無間	-10.99
之節	-10.9901
紫陽	-10.9904
葉前	-10.9906
厄魯特	-10.9908
頋	-10.9911
闕里	-10.9914
頻年	-10.9914
飼	-10.9917
鮫	-10.9917
新秋	-10.9918
流俗	-10.9921
唇	-10.9922
輈	-10.9924
樊榭	-10.9927
水仙	-10.9935
㢲	-10.9935
躬親	-10.9937
季子	-10.9941
蛙	-10.9945
時雨	-10.9947
土人	-10.9947
軾	-10.9949
戕	-10.9953
綾	-10.9954
個	-10.9961
僉事	-10.9963
一道	-10.9968
知音	-10.9968
浮屠	-10.997
浙東	-10.9971
吾父	-10.9973
坑	-10.9983
梁肯堂	-10.9984
仆	-10.9985
懦	-10.9986
卵	-10.9987
迤邐	-10.9987
或云	-10.9988
辛亥	-10.9991
無餘	-10.9992
春寒	-10.9992
癸巳	-10.9993
引河	-10.9997
五世	-10.9997
今夕	-10.9999
紅葉	-11.0001
亦已	-11.0002
夏秋	-11.0002
三徑	-11.0002
二十餘	-11.0003
題王	-11.0004
漕糧	-11.0005
豈獨	-11.0007
人世	-11.0008
諭大學士伊桑阿阿蘭泰	-11.0015
腳	-11.0016
哥	-11.0017
歲星	-11.0017
官軍	-11.002
怵	-11.002
棃	-11.0021
覧	-11.0025
著作	-11.0025
潺湲	-11.0026
實録	-11.0027
遺事	-11.0027
原本	-11.0028
經世	-11.003
彖	-11.003
督臣	-11.0033
水利	-11.0035
各報	-11.0036
附近	-11.0037
二十餘年	-11.0038
離騷	-11.0048
異日	-11.0051
春雲	-11.0055
覯	-11.0055
恧	-11.0055
肻	-11.0057
杓	-11.0058
山田	-11.006
晉書	-11.0061
居官	-11.0062
白雪	-11.0062
辛卯	-11.0064
玉蘭	-11.0065
兩年	-11.0068
江漢	-11.0069
仁者	-11.0071
水火	-11.0072
致仕	-11.0073
石刻	-11.0073
青天	-11.0076
用此	-11.0079
磧	-11.0081
何似	-11.0082
成什	-11.0082
東漢	-11.0087
釡	-11.0087
亦不能	-11.0088
鶻	-11.0089
蝦	-11.0089
芊	-11.0092
合龍	-11.0092
詫	-11.0093
西苑	-11.0093
聖天子	-11.0094
監察御史	-11.0094
矛	-11.0096
孔孟	-11.0097
青蓮	-11.0098
自知	-11.01
承平	-11.0111
山靈	-11.0111
尙有	-11.0112
百五十	-11.0116
碑跋	-11.0117
都統	-11.0117
之職	-11.0119
腦	-11.0123
光武	-11.0123
夔	-11.0125
蹴	-11.0126
侑	-11.0126
視其	-11.0128
四壁	-11.0129
毗	-11.0132
廬山	-11.0132
人士	-11.0132
奉㫖	-11.0135
所司	-11.0139
不可復	-11.0143
部落	-11.015
農民	-11.0156
掞	-11.016
初十日	-11.016
錮	-11.0161
啖	-11.0162
玉女	-11.0163
聖賢之	-11.0167
莫敢	-11.0171
傳聞	-11.0179
花間	-11.0181
他時	-11.0181
吹簫	-11.0184
豳	-11.0184
酹	-11.0186
山樓	-11.0188
裨	-11.0189
今夜	-11.019
义	-11.0191
庶㡬	-11.0192
嗔	-11.0193
尚在	-11.0195
麋	-11.0195
皇太子	-11.0197
柩	-11.0199
千山	-11.0201
長句	-11.0201
中州	-11.021
約收	-11.0212
喬木	-11.0212
月夜	-11.0218
可知也	-11.0222
猶能	-11.0225
𪷟	-11.0226
琯	-11.0227
癸亥	-11.0227
阨	-11.0228
郡王	-11.0229
丙寅	-11.023
野老	-11.023
幃	-11.0231
哦	-11.0231
撼	-11.0231
石上	-11.0236
退而	-11.0236
風波	-11.0243
峪	-11.0249
友朋	-11.025
元稹	-11.0252
彈指	-11.0257
天性	-11.026
禊	-11.0263
穏	-11.0263
台吉	-11.0264
之期	-11.0264
蝗	-11.0264
舸	-11.0265
崧	-11.0265
杼	-11.0268
亶	-11.0268
者蓋	-11.0269
之暇	-11.027
洎	-11.027
生擒	-11.0271
年五十	-11.0273
五十里	-11.0275
清口	-11.0276
帶兵	-11.0276
河流	-11.0277
金錢	-11.0278
指示	-11.0279
殺人	-11.0284
地勢	-11.0295
氤氲	-11.0296
三公	-11.0297
笑語	-11.0298
清暉	-11.0299
两	-11.03
麈	-11.0301
三秋	-11.0302
疉	-11.0302
躔	-11.0303
蒙古	-11.0303
舊時	-11.0305
華嚴	-11.0306
干戈	-11.0308
沿途	-11.031
骨肉	-11.0312
不意	-11.0313
只今	-11.0314
江右	-11.0324
鬰	-11.0331
劉向	-11.0333
榕	-11.0334
義理	-11.0336
鷓鴣	-11.0336
拚	-11.0337
武林	-11.0338
瑰	-11.0339
豐稔	-11.034
禮義	-11.0341
杜詩	-11.0341
次年	-11.0344
已久	-11.0344
流泉	-11.0349
經濟	-11.0351
無足	-11.0352
之業	-11.0356
語言	-11.0359
之習	-11.0364
臣子	-11.0366
砲	-11.0366
雷雨	-11.0366
北地	-11.0369
秦淮	-11.0369
褰	-11.0373
廿年	-11.0378
猥	-11.0378
舅姑	-11.0379
盾	-11.0379
生徒	-11.0381
西江	-11.0382
長嘯	-11.0394
哈薩克	-11.0398
報國	-11.04
塞上	-11.04
斾	-11.04
棉	-11.0402
嚢	-11.0406
關中	-11.0407
信宿	-11.0407
邏	-11.0408
僦	-11.0408
臣民	-11.0409
愾	-11.041
屯田	-11.0411
文正	-11.0414
古今體	-11.0416
應時	-11.0422
中年	-11.0429
各州縣	-11.0431
父兄	-11.0433
圖畫	-11.0434
譬如	-11.0441
威儀	-11.0441
摶	-11.0441
勤民	-11.0442
元和	-11.0442
蔑	-11.0443
㒺	-11.0444
十有八	-11.045
知府	-11.0453
江城	-11.0455
偶成	-11.0457
和平	-11.0457
史館	-11.0468
賊巢	-11.0472
逍遥	-11.0473
尚存	-11.0474
矚	-11.0474
軋	-11.0474
通判	-11.0475
席上	-11.0476
兢兢	-11.0479
蔗	-11.0479
瓷	-11.0481
生員	-11.0482
涓	-11.0483
麝	-11.0484
無塵	-11.0487
咨嗟	-11.0489
監司	-11.0493
已經	-11.0494
無情	-11.0502
新舊	-11.0506
窰	-11.0507
琅玕	-11.051
北風	-11.0512
光祿	-11.0512
名園	-11.0512
嘆曰	-11.0512
遒	-11.0514
縑	-11.0514
孫氏	-11.0514
寝	-11.0515
狡	-11.0516
乙丑	-11.0517
璇	-11.0518
嚼	-11.0518
難忘	-11.0523
種種	-11.0525
浩然	-11.0525
賊衆	-11.0531
堂上	-11.0532
文殊	-11.0534
無愧	-11.0535
皇甫	-11.0537
用是	-11.0539
今則	-11.054
離離	-11.0542
斜日	-11.0545
滚	-11.0545
河工	-11.0547
相從	-11.0551
泌	-11.0551
孱	-11.0552
偪	-11.0553
陬	-11.0555
小兒	-11.0556
勳	-11.0556
相識	-11.0557
浩浩	-11.0562
感慨	-11.0564
杞	-11.058
秋夜	-11.0584
七尺	-11.0585
不遑	-11.0586
曉行	-11.0587
吼	-11.0589
卞	-11.0589
劬	-11.059
乙卯	-11.059
不果	-11.059
濮	-11.0592
嗇	-11.0593
雨露	-11.0593
齊魯	-11.0596
槪	-11.0597
曆	-11.0617
不愧	-11.0619
日夕	-11.062
賠	-11.062
峴	-11.0621
債	-11.0622
紺	-11.0623
而為之	-11.0625
䨇	-11.0625
脯	-11.0626
積水	-11.0627
豪傑	-11.063
窮理	-11.0632
同學	-11.0636
注疏	-11.0648
師古	-11.0649
禆	-11.0652
梟	-11.0653
手書	-11.0654
國子	-11.0655
殄	-11.0657
𦂳	-11.0659
倭	-11.0659
河源	-11.0659
豚	-11.066
煽	-11.066
万	-11.0661
天理	-11.0665
羔	-11.0666
正學	-11.0673
掌故	-11.0677
御極	-11.0682
獅子	-11.0682
乕	-11.0685
借問	-11.0687
悳	-11.0692
牝	-11.0694
臨水	-11.0694
經理	-11.0696
覘	-11.0697
維摩	-11.0697
金華	-11.0698
聖學	-11.07
毀	-11.07
仕宦	-11.0702
朱氏	-11.0702
姒	-11.0703
卿大夫	-11.0705
陣雨	-11.0705
相接	-11.0709
牽牛	-11.0711
昨年	-11.0712
燕市	-11.0713
唐寅	-11.0719
雪中	-11.0719
譬之	-11.0722
舶	-11.0725
東省	-11.0726
其兄	-11.0728
與予	-11.073
魔	-11.073
皷	-11.073
揚子	-11.0731
畹	-11.0732
㤀	-11.0732
都察院	-11.0733
諛	-11.0733
即席	-11.0737
冗	-11.0738
癸酉	-11.0738
梧桐	-11.0739
農功	-11.0739
俶	-11.074
内廷	-11.0741
八景	-11.0747
湖光	-11.075
開國	-11.0754
飛鳥	-11.0759
青青	-11.0762
天池	-11.0768
瑪	-11.077
㾗	-11.077
遨	-11.077
櫻桃	-11.0771
卹	-11.0772
芷	-11.0773
缶	-11.0773
滄桑	-11.0774
惲	-11.0778
表章	-11.078
谷口	-11.0782
門户	-11.0789
膏澤	-11.079
萬方	-11.0791
仞	-11.0792
四卷	-11.0793
於是乎	-11.0804
軍務	-11.0805
揀	-11.0809
芋	-11.081
將來	-11.0811
相看	-11.0811
齋宫	-11.0813
四十八	-11.0816
優游	-11.0818
聖恩	-11.0825
毛詩	-11.0826
題宋	-11.0828
伯仲	-11.0834
府知府	-11.0835
坪	-11.0836
恭奉皇太后	-11.0836
古北口	-11.0843
亳	-11.0844
酥	-11.0844
菰	-11.0844
巗	-11.0844
前一日	-11.0846
臭	-11.0846
敢忘	-11.085
未識	-11.0853
祖母	-11.0854
也然而	-11.0858
如許	-11.0858
上舍	-11.0859
功徳	-11.0863
誰識	-11.0866
班固	-11.0872
齋中	-11.0878
夹	-11.0879
渟	-11.088
萬象	-11.0882
颸	-11.0882
霓	-11.0883
叚	-11.0883
罍	-11.0883
彬	-11.0886
相期	-11.0886
濓	-11.0886
公車	-11.0887
六旬	-11.0887
莊子	-11.0889
弇	-11.0889
山梁	-11.0892
儒臣	-11.0897
却是	-11.0902
送客	-11.0904
茫然	-11.0906
學校	-11.0911
無算	-11.0914
入夜	-11.0915
丰	-11.0916
利害	-11.0916
旻	-11.0918
踊	-11.0921
棣	-11.0921
盞	-11.0922
奏報得雨	-11.0922
土司	-11.0924
眇	-11.0925
梅村	-11.0926
之責	-11.0928
旌旗	-11.093
髙閣	-11.0936
君父	-11.0946
不加	-11.0946
虎丘	-11.0948
微言	-11.0948
一念	-11.0948
制曰	-11.095
日得雨	-11.0954
貰	-11.0955
陸氏	-11.0957
蹶	-11.0957
是編	-11.0959
侔	-11.096
晞	-11.096
事業	-11.096
其勢	-11.0962
毬	-11.0963
薑	-11.0963
五里	-11.0964
囘首	-11.0966
具官某	-11.0968
彭蠡	-11.0972
閒情	-11.0975
詩集序	-11.0981
以文章	-11.0988
幾度	-11.099
蘂	-11.0991
腥	-11.0995
麥苗	-11.0996
耿耿	-11.0997
歸路	-11.0998
斟酌	-11.1
先聖	-11.1
炯	-11.1001
氷雪	-11.1002
一章	-11.1002
是處	-11.1002
未到	-11.1003
一條	-11.1009
尺寸	-11.101
堂集	-11.101
文正公	-11.1012
歲時	-11.1012
乎哉	-11.1014
貴人	-11.1015
一種	-11.1017
夜夜	-11.1018
祖諱	-11.1019
置酒	-11.1021
春膏	-11.1023
耆舊	-11.1031
覿	-11.1032
四庫全書	-11.1033
簧	-11.1035
金粟	-11.1036
詞賦	-11.1037
四十里	-11.1038
詁	-11.104
未許	-11.1041
片時	-11.1043
康成	-11.1044
興亡	-11.1046
先朝	-11.1058
開封	-11.1062
劉公	-11.1063
田家	-11.1065
觀音	-11.1067
吸	-11.1067
又據	-11.1068
􁁊	-11.1069
鐺	-11.107
圮	-11.107
白露	-11.1071
國子監	-11.1071
讞	-11.1073
肺	-11.1073
煞	-11.1073
巋然	-11.1073
煌煌	-11.1073
初九日	-11.1074
趙氏	-11.1075
甓	-11.1075
鳳凰	-11.1076
風氣	-11.108
奏稱	-11.108
内有	-11.1083
清秋	-11.1084
菊花	-11.1084
先王之	-11.1085
先期	-11.1088
可考	-11.109
文靖	-11.1092
科名	-11.1093
糶	-11.1093
快晴	-11.1095
年譜	-11.11
中宵	-11.11
篙	-11.1105
墓志銘	-11.1105
詠古	-11.1107
缸	-11.1107
最是	-11.1108
瀰	-11.1112
旬日	-11.1114
黄帝	-11.1123
勤勞	-11.1125
自號	-11.1125
行旅	-11.1127
甘露	-11.1129
高下	-11.1129
孫男	-11.1136
祀典	-11.1136
荷葉	-11.1136
鄉人	-11.114
人力	-11.1141
禅	-11.1141
田地	-11.1141
後進	-11.1142
飈	-11.1145
向來	-11.1146
俛	-11.1146
忿	-11.1147
哺	-11.1148
郤	-11.1149
掄	-11.1149
涎	-11.115
禰	-11.115
家學	-11.1151
飴	-11.1151
滄洲	-11.1155
銀河	-11.1155
到此	-11.1157
乙巳	-11.1162
豐年	-11.1164
晴雨	-11.1171
特命	-11.118
旰	-11.1184
纈	-11.1186
徐公	-11.1186
逗	-11.1187
輅	-11.119
繁華	-11.1192
蜚	-11.1193
題畫	-11.1194
老去	-11.1195
張君	-11.1195
扶桑	-11.12
高陽	-11.12
君墓誌銘	-11.121
本紀	-11.1212
孤舟	-11.1217
東門	-11.1223
膓	-11.1223
直𨽻總督	-11.1225
失所	-11.1225
劃	-11.1225
突兀	-11.1226
鞋	-11.1228
斯民	-11.123
湄	-11.1232
辛酉	-11.1233
十有六	-11.1241
頃刻	-11.1245
臨清	-11.1247
緩急	-11.1249
今世	-11.1253
喀爾喀	-11.1257
同異	-11.1259
煑	-11.126
損益	-11.1262
踰年	-11.1265
埭	-11.1266
邳	-11.1267
劭	-11.1267
侃	-11.1268
銀兩	-11.1272
雜詠	-11.1274
孔子曰	-11.1277
通志	-11.1279
唱和	-11.1281
題壁	-11.1282
縱橫	-11.1282
夕照	-11.1282
在昔	-11.1283
未完	-11.1284
握手	-11.1288
各處	-11.1288
儼然	-11.1289
玉河	-11.1298
埀	-11.1302
迢	-11.1302
掀	-11.1304
感舊	-11.1304
苧	-11.1305
卅	-11.1306
槍	-11.1307
喙	-11.1307
余言	-11.1308
稾	-11.1309
旺	-11.1312
南江	-11.1315
先帝	-11.1315
清流	-11.1316
徙倚	-11.1318
亭子	-11.1319
督師	-11.1333
所引	-11.1333
萬壽	-11.1335
具題	-11.1339
不亦	-11.134
可觀	-11.1341
罩	-11.1341
窈	-11.1342
閥	-11.1344
㺯	-11.1344
千林	-11.1347
綦	-11.1347
萬夀山	-11.1348
天半	-11.1348
杜鵑	-11.1348
太廟	-11.1354
有奇	-11.1354
入覲	-11.1356
都尉	-11.1365
疾苦	-11.1367
直上	-11.1369
設法	-11.1375
乎夫	-11.1376
州刺史	-11.1377
戯題	-11.1378
逥	-11.1379
滛	-11.1379
綱目	-11.138
自笑	-11.1382
聾	-11.1382
蘧	-11.1383
鎬	-11.1383
忭	-11.1384
蹲	-11.1384
閩中	-11.1384
三府	-11.1385
嘔	-11.1385
旛	-11.1385
摯	-11.1388
兩字	-11.1393
人之所	-11.1395
六藝	-11.1406
傳諭	-11.1409
讀史	-11.1412
首尾	-11.1412
紅塵	-11.1415
故能	-11.1415
金剛	-11.1415
鶚	-11.1418
隱居	-11.142
繄	-11.1423
蠢	-11.1424
颿	-11.1425
韭	-11.1425
醖	-11.1425
拮据	-11.1426
戊	-11.1428
雯	-11.1431
訓詁	-11.1431
對雨	-11.1432
士子	-11.1433
賜宴	-11.1438
歴代	-11.1443
酒酣	-11.1445
三十五	-11.1446
享年	-11.1447
萬松	-11.1448
吾兄	-11.145
宗子	-11.1452
梨花	-11.1455
綂	-11.1457
燕山	-11.1458
鶉	-11.1459
娯	-11.1461
撐	-11.1462
梭	-11.1463
淇	-11.1463
戊寅	-11.1466
碧雲	-11.1466
譔	-11.1468
蕭山	-11.1469
髙堂	-11.1471
鄕試	-11.1479
江海	-11.1481
通州	-11.1484
受業	-11.1484
數千里	-11.1488
根本	-11.1496
觸目	-11.1496
據奏	-11.1496
茟	-11.1496
樂善	-11.1498
徐氏	-11.1499
真蹟	-11.1499
斵	-11.15
陕	-11.1501
惘	-11.1501
麰	-11.1502
逡巡	-11.1503
孟陽	-11.1504
湫	-11.1504
泉聲	-11.1504
哂	-11.1505
璿	-11.1506
途中	-11.1509
石鼓	-11.1509
丁亥	-11.1511
邇來	-11.1514
年十月	-11.1516
之謂也	-11.1517
牛羊	-11.1521
那知	-11.1525
汁	-11.1537
僂	-11.1537
瀚	-11.1538
顥	-11.154
閒居	-11.154
光禄	-11.154
臨安	-11.154
搗	-11.154
幫	-11.1541
湔	-11.1541
辦理	-11.1542
伏乞	-11.1543
道德	-11.1543
諄	-11.1544
該督撫	-11.1549
釋氏	-11.155
四十九	-11.1551
忠信	-11.1552
厺	-11.1552
貧賤	-11.1555
月二十日	-11.156
日久	-11.1563
髙低	-11.1565
月十九日	-11.1565
戦	-11.1569
之言曰	-11.157
古稀	-11.1574
筋	-11.1575
副都統	-11.1577
串	-11.1579
懾	-11.158
某氏	-11.158
黼	-11.1581
兾	-11.1582
稗	-11.1583
某年月日	-11.1585
閤	-11.1586
涖	-11.1586
諄諄	-11.1588
㸃綴	-11.159
卽位	-11.1592
古木	-11.1594
嶺南	-11.1595
徳州	-11.1597
仲尼	-11.1599
折衷	-11.16
白沙	-11.1601
疑是	-11.1602
祥符	-11.1605
無礙	-11.1606
啾	-11.1615
持盈	-11.1615
壬戌	-11.1623
神廟	-11.1628
閹	-11.163
周子	-11.1633
治天下	-11.1635
竹枝	-11.1636
大略	-11.1641
渥澤	-11.1641
所存	-11.1649
彼時	-11.1649
儒學	-11.1657
一隅	-11.1658
瀋	-11.1658
諉	-11.1662
鏘	-11.1662
鷲	-11.1662
駛	-11.1663
㑹心	-11.1666
果然	-11.1668
啟蹕	-11.1669
画	-11.1669
分寸	-11.167
老僧	-11.167
伯兄	-11.1683
男兒	-11.1684
數里	-11.1688
之誼	-11.1693
庄	-11.1694
文昌	-11.1697
贑	-11.1699
百花	-11.17
兩朝	-11.1704
猝	-11.1704
髫	-11.1705
庀	-11.1706
果有	-11.1711
歸舟	-11.1721
杜門	-11.1723
無妨	-11.1727
各官	-11.1728
庠生	-11.1732
才名	-11.1733
殘月	-11.1737
料理	-11.1739
𦵏	-11.1741
泪	-11.1743
賫	-11.1743
暢春園	-11.1745
嫗	-11.1745
湖州	-11.1747
努力	-11.1747
絀	-11.1748
郝	-11.1749
冉	-11.1749
詩卷	-11.1751
安瀾	-11.1752
東籬	-11.1759
廣平	-11.1762
承歡	-11.1763
幽居	-11.1769
𥙷	-11.1783
㪚	-11.1784
甃	-11.1785
㸑	-11.1785
飱	-11.1786
五嶽	-11.1786
挐	-11.1786
緡	-11.1786
澣	-11.1787
情形詩以誌慰	-11.1787
艤	-11.1788
白衣	-11.1788
學政	-11.1789
赭	-11.1789
噶爾	-11.1791
遣人	-11.1793
甎	-11.1797
却笑	-11.1803
太尉	-11.1806
二十一年	-11.1811
惜哉	-11.1812
千五百	-11.1813
絶勝	-11.182
舄	-11.1824
浥	-11.1826
萎	-11.1827
淼	-11.1827
七旬	-11.1829
最後	-11.1829
烽火	-11.1832
額手	-11.1835
黃金	-11.1835
往復	-11.1838
可識	-11.1842
其罪	-11.1846
初四日	-11.1847
三百篇	-11.185
絶頂	-11.1851
廿四	-11.1854
士女	-11.1854
稍稍	-11.186
督學	-11.1867
縻	-11.1867
𧺫	-11.1867
緗	-11.1868
俎	-11.187
漉	-11.187
幟	-11.187
無錫	-11.1871
嫂	-11.1872
鉉	-11.1873
匡廬	-11.1874
近年	-11.1878
之道也	-11.1878
彈琴	-11.1882
旦夕	-11.1887
三百年	-11.1893
一幅	-11.1894
小雅	-11.1897
合葬	-11.1898
之學者	-11.19
故里	-11.1902
貞女	-11.1905
無聊	-11.1905
疊前韻	-11.1905
篠	-11.1906
盛衰	-11.1908
賂	-11.1908
冉冉	-11.1909
惓惓	-11.1909
翫	-11.1911
乙亥	-11.1912
紀年	-11.1915
擒獲	-11.1922
赤子	-11.1922
改元	-11.1931
闋	-11.1941
登高	-11.1944
櫺	-11.1945
世逺	-11.1946
厎	-11.1948
謠	-11.195
𣲖	-11.1951
櫟	-11.1955
翰林院編修	-11.1957
諭吏部	-11.1958
對月	-11.1959
別有	-11.196
士卒	-11.1961
長短	-11.1964
汝南	-11.1964
神宗	-11.1965
斯世	-11.1972
還宫	-11.1984
治亂	-11.1986
柝	-11.199
丹砂	-11.1993
褚	-11.1993
噉	-11.1994
邂逅	-11.1994
疴	-11.1996
貧民	-11.1996
笑曰	-11.1996
獮	-11.1998
冬日	-11.1998
鰲	-11.1998
封侯	-11.2
雲霄	-11.2002
覃恩	-11.2006
前賢	-11.2009
拾遺	-11.2015
二十七日	-11.2021
朝陽	-11.2023
椘	-11.2025
董其昌	-11.2032
撞	-11.2034
盱	-11.2035
孕	-11.2036
讒	-11.2037
頭白	-11.2038
顰	-11.2043
始祖	-11.2044
見示	-11.2045
枝頭	-11.2053
應制	-11.2058
戰國	-11.2059
鄉里	-11.2062
何物	-11.2065
南華	-11.2068
農田	-11.207
尅	-11.2074
耻	-11.2074
忠烈	-11.2075
拾級	-11.2075
紛紜	-11.2075
琦	-11.2076
數百年	-11.2076
淄	-11.2077
牽連	-11.2077
黽勉	-11.2078
宋玉	-11.2079
丈人	-11.2082
獅子林	-11.2086
媪	-11.2086
制度	-11.2086
清溪	-11.2089
長卿	-11.2089
奏到	-11.2102
彭城	-11.2104
水面	-11.2106
甘省	-11.2107
百官	-11.211
薙	-11.2118
縹	-11.2119
豺	-11.2123
遡	-11.2123
瞑	-11.2123
雲容	-11.2125
何限	-11.2128
不苟	-11.2129
寧夏	-11.2132
藝文志	-11.2132
奉使	-11.2138
垂老	-11.2139
一綫	-11.2146
相顧	-11.2149
不知所	-11.2153
或問	-11.2153
事務	-11.2155
嘘	-11.2157
碧玉	-11.2159
擇其	-11.2161
纜	-11.2162
石湖	-11.2162
田盤	-11.2162
逭	-11.2163
烟雨	-11.2163
衿	-11.2164
所不能	-11.2164
樗	-11.2165
纘	-11.2166
蚩	-11.2166
泳	-11.2166
揮毫	-11.2169
教化	-11.217
壬申	-11.2171
魯公	-11.2179
初八日	-11.218
洞天	-11.2196
波光	-11.2197
廂	-11.2199
惜乎	-11.2199
泛月	-11.2201
河西	-11.2203
萬卷	-11.2203
訥	-11.2203
冝	-11.2203
懐古	-11.2205
𬗋	-11.2207
閼	-11.2207
沓	-11.2208
加意	-11.2213
硏	-11.2214
廬陵	-11.2216
忠毅	-11.2216
二十六日	-11.2219
别離	-11.2225
不煩	-11.2229
二十五日	-11.224
别業	-11.224
鏃	-11.2244
盲	-11.2245
徬徨	-11.2247
孫士毅	-11.2248
漢志	-11.2249
魏公	-11.2249
澈	-11.225
修竹	-11.2251
卭	-11.2252
頡	-11.2253
肎	-11.2256
農事	-11.226
野人	-11.2261
釋奠	-11.2262
浩蕩	-11.2263
先君子	-11.2271
祈雨	-11.2281
高士	-11.2282
型	-11.2287
幘	-11.2289
兩浙	-11.2289
揚雄	-11.2289
躅	-11.229
晩年	-11.2292
瀼	-11.2294
泝	-11.2294
汲汲	-11.2295
撮	-11.2295
豈徒	-11.2296
僅存	-11.2296
盥	-11.2297
九分者	-11.23
太陰	-11.2302
大典	-11.2307
韓偓	-11.231
如此則	-11.2315
面目	-11.2316
光景	-11.232
該撫	-11.2322
短長	-11.2323
不屈	-11.2326
何嘗	-11.2328
始末	-11.2329
百嵗	-11.2329
籜	-11.2331
能使	-11.2331
詶	-11.2336
邯鄲	-11.2338
錐	-11.2338
聶	-11.2339
扆	-11.2339
酈	-11.234
廟堂	-11.2342
行圍	-11.2344
那堪	-11.2349
因循	-11.2349
一杯	-11.235
經籍	-11.235
討論	-11.2353
李商隱	-11.2354
漢武	-11.2356
庾信	-11.236
固非	-11.2363
峡	-11.2372
寓意	-11.2372
我軍	-11.2372
氣候	-11.2374
艫	-11.2376
釜	-11.2377
屣	-11.2378
鑱	-11.2382
瑛	-11.2385
夫子之	-11.2388
燿	-11.2417
溽	-11.2418
晃	-11.2419
堞	-11.242
帚	-11.242
蛛	-11.2421
扃	-11.2422
斐	-11.2423
幙	-11.2424
諏	-11.2425
茨	-11.2464
訐	-11.2464
啣	-11.2465
薌	-11.2466
描	-11.2468
籥	-11.2469
殞	-11.247
欝	-11.2504
塹	-11.2508
滓	-11.2511
瓚	-11.2513
䡖	-11.2542
濘	-11.2551
燔	-11.2551
宕	-11.2552
袠	-11.2552
筦	-11.2554
擣	-11.2555
叫	-11.2556
撻	-11.2557
莱	-11.2597
碁	-11.2598
泚	-11.2599
驀	-11.26
棊	-11.2601
啻	-11.2626
票	-11.2638
畀	-11.264
毳	-11.2641
桀	-11.2642
岌	-11.2643
黠	-11.2643
耜	-11.2644
砂	-11.2679
埒	-11.2683
彫	-11.2683
摐	-11.2686
廪	-11.2687
荇	-11.2688
􁢃	-11.2689
勛	-11.2691
霔	-11.2691
髦	-11.2696
祫	-11.2704
暾	-11.2728
佃	-11.2733
兖	-11.2747
潯	-11.2768
偵	-11.2771
眄	-11.2775
莾	-11.2779
瀝	-11.278
寖	-11.278
譴	-11.2782
苓	-11.2817
孑	-11.282
娟	-11.2823
劈	-11.2823
綆	-11.2826
孳	-11.2828
孩	-11.2832
磊	-11.2848
締	-11.2866
恊	-11.2867
嗚	-11.2868
蝸	-11.2869
娃	-11.2869
譎	-11.2869
嫓	-11.287
濩	-11.2873
諤	-11.2884
瑯	-11.2911
搘	-11.2912
闉	-11.2913
禩	-11.2915
騖	-11.2916
霾	-11.2916
燧	-11.2918
滎	-11.2919
彴	-11.2955
榔	-11.2959
垓	-11.2961
襪	-11.2963
箐	-11.2964
鈐	-11.2964
鎔	-11.2964
麽	-11.2964
箔	-11.2966
髀	-11.297
戛	-11.2997
茆	-11.3003
榼	-11.3006
頷	-11.3007
晁	-11.3011
嘏	-11.3012
琛	-11.305
㕍	-11.305
飫	-11.3051
怙	-11.3054
磐	-11.3056
匀	-11.3057
鸝	-11.3057
澳	-11.3094
煉	-11.3094
䋲	-11.3099
撃	-11.31
瞳	-11.3101
駑	-11.3102
祺	-11.3104
鬪	-11.3104
闘	-11.3141
兜	-11.3141
怳	-11.3146
陔	-11.3147
髭	-11.3192
簸	-11.3193
棼	-11.3193
仔	-11.3194
貎	-11.3195
噬	-11.3196
遅	-11.3236
涪	-11.3242
咄	-11.3244
瀨	-11.3246
楞	-11.328
撾	-11.3284
泄	-11.3287
糞	-11.3288
澌	-11.329
畬	-11.3334
偹	-11.3335
仝	-11.3336
毘	-11.3336
蠱	-11.3339
喘	-11.334
町	-11.3341
璘	-11.3346
◍	-11.3351
圯	-11.3383
滂	-11.3385
吻	-11.3386
慄	-11.3388
箏	-11.3388
冨	-11.3389
翥	-11.3433
淞	-11.3434
翬	-11.3434
菀	-11.3434
壙	-11.3436
堕	-11.3437
躁	-11.3438
皖	-11.3476
羇	-11.3479
㝢	-11.348
艦	-11.3481
繳	-11.3481
閽	-11.3482
澷	-11.3483
緫	-11.3483
黏	-11.3483
蓍	-11.3485
愕	-11.3485
窅	-11.3529
荃	-11.3529
殃	-11.3531
佺	-11.3532
糴	-11.3532
棨	-11.3532
曬	-11.3533
駘	-11.3533
䧏	-11.3579
隧	-11.3585
溶	-11.3587
熒	-11.3587
䓁	-11.3624
茭	-11.3625
撑	-11.3625
丐	-11.3626
蕤	-11.3628
闖	-11.363
淅	-11.363
堠	-11.3631
謔	-11.3632
嫉	-11.3633
喁	-11.3634
庋	-11.3637
央	-11.3652
菲	-11.3676
軻	-11.3677
驤	-11.3678
戞	-11.3678
睫	-11.3678
祛	-11.368
笄	-11.3681
廖	-11.3725
縳	-11.3725
嶔	-11.3726
囀	-11.3726
蛤	-11.3726
齧	-11.3727
箑	-11.3728
纛	-11.3729
淋	-11.373
澀	-11.3732
㩦	-11.3734
籩	-11.3734
坳	-11.3774
沔	-11.3775
濆	-11.3776
猖	-11.3776
㽞	-11.3776
徤	-11.378
炷	-11.378
嵓	-11.3781
皂	-11.3825
趕	-11.3825
忒	-11.3826
唳	-11.3826
刁	-11.3829
鍵	-11.3832
憨	-11.3875
贄	-11.388
栝	-11.388
槿	-11.388
徠	-11.3882
站	-11.3884
懌	-11.3885
隳	-11.3885
筌	-11.3927
瞥	-11.3927
硬	-11.3929
褁	-11.3931
劔	-11.3932
薤	-11.3932
鶩	-11.3976
芹	-11.3982
鸛	-11.3982
卸	-11.3982
芭	-11.3986
栩	-11.3986
廳	-11.4023
滁	-11.4027
鐃	-11.4027
畚	-11.4027
鍤	-11.4028
𫾣	-11.4031
兕	-11.4033
黷	-11.4035
袴	-11.4037
瞭	-11.4078
怖	-11.4078
絢	-11.4079
帕	-11.408
詬	-11.4083
鵑	-11.4084
窣	-11.4085
垠	-11.4085
鯤	-11.4086
鱠	-11.4086
佽	-11.4088
簒	-11.4089
虀	-11.4131
柁	-11.4135
澇	-11.4135
徊	-11.4136
蒂	-11.4136
蒔	-11.4136
耑	-11.4141
紂	-11.4143
厦	-11.4184
漚	-11.4184
絜	-11.4184
菑	-11.4187
藿	-11.419
糠	-11.4192
稲	-11.4234
䏻	-11.4238
縟	-11.424
坰	-11.424
肴	-11.4241
櫻	-11.4244
覬	-11.4244
榷	-11.4244
洮	-11.4245
牎	-11.4245
皈	-11.4285
飜	-11.4285
嬗	-11.4289
讙	-11.4289
沫	-11.4291
籙	-11.4293
紵	-11.4294
娣	-11.4297
愔	-11.4299
鄖	-11.4303
柰	-11.4308
坍	-11.4337
邕	-11.434
渰	-11.4341
爇	-11.4343
竽	-11.4347
幌	-11.4348
睠	-11.4349
祧	-11.4359
嚙	-11.4392
㓕	-11.4395
蕎	-11.4396
蘸	-11.4398
瀹	-11.4399
么	-11.44
爨	-11.4401
厝	-11.4404
㵼	-11.4445
嘻	-11.4449
塌	-11.4451
汜	-11.4454
櫬	-11.4456
夤	-11.4456
崛	-11.4503
鬂	-11.4505
删	-11.4509
繢	-11.4511
憊	-11.4559
甍	-11.456
囷	-11.4561
髠	-11.4564
紉	-11.4564
滔	-11.4565
扺	-11.4608
馘	-11.4611
酪	-11.4615
枰	-11.4615
慳	-11.4615
鬲	-11.4617
巉	-11.4662
貿	-11.4663
袤	-11.467
荄	-11.4671
皺	-11.4672
吠	-11.4717
篝	-11.4718
窖	-11.4718
冽	-11.4719
攪	-11.4722
煜	-11.4724
㷀	-11.4725
蹔	-11.4726
玷	-11.4729
咀	-11.4734
偁	-11.4739
㤙	-11.4774
甜	-11.4779
蹌	-11.478
燮	-11.478
跂	-11.478
䜟	-11.4781
琰	-11.4782
愿	-11.4783
挟	-11.4828
顙	-11.4833
脛	-11.4835
嶧	-11.484
甬	-11.4868
楸	-11.4885
溉	-11.4887
舁	-11.4888
窶	-11.489
蒞	-11.489
罥	-11.4891
瓌	-11.4894
驍	-11.4894
嬪	-11.4896
萇	-11.4897
鏞	-11.4898
諍	-11.4943
蒯	-11.4944
紊	-11.4947
廸	-11.4948
霅	-11.4994
鷁	-11.5001
檝	-11.5001
焰	-11.5002
磚	-11.5003
淖	-11.5003
緋	-11.5006
沆	-11.5007
扄	-11.5007
渤	-11.5047
蚓	-11.5055
賃	-11.5055
陴	-11.5056
觜	-11.5057
滸	-11.5057
桮	-11.5057
盌	-11.5058
祲	-11.5061
莢	-11.5062
纍	-11.5063
蘊	-11.5063
灝	-11.5064
這	-11.5065
蔀	-11.5065
縂	-11.511
䜿	-11.5117
仭	-11.5117
晟	-11.5117
澮	-11.5118
氐	-11.5119
嫣	-11.5121
琪	-11.5122
畞	-11.5126
蓺	-11.5129
瑚	-11.5167
蝨	-11.5172
晳	-11.5173
鼉	-11.5174
筏	-11.5174
俚	-11.5174
鵷	-11.5175
霶	-11.5176
竪	-11.5177
緐	-11.518
皥	-11.518
蜨	-11.5184
葑	-11.5229
醸	-11.523
妒	-11.5235
臉	-11.5239
酢	-11.5289
涙	-11.5291
啇	-11.5292
脾	-11.5294
礎	-11.5294
遴	-11.5295
睨	-11.5297
淘	-11.5344
韘	-11.5347
竦	-11.5347
菌	-11.5349
橅	-11.5351
兑	-11.5352
詈	-11.5352
噩	-11.5352
襯	-11.5353
餒	-11.5355
傖	-11.5404
碓	-11.5405
佀	-11.5411
蘖	-11.5412
刮	-11.5412
讚	-11.5461
縵	-11.5462
㫺	-11.5463
袪	-11.5464
躓	-11.5464
羗	-11.5465
繅	-11.5466
嘿	-11.5466
屺	-11.5467
澁	-11.5469
釘	-11.547
蛻	-11.547
韞	-11.5471
帨	-11.5471
揜	-11.5474
鋟	-11.5476
刲	-11.5522
笞	-11.5524
颷	-11.5524
佗	-11.5528
爬	-11.5531
靚	-11.5531
芰	-11.5582
贓	-11.5583
藎	-11.5583
縶	-11.5586
蓂	-11.559
駙	-11.559
㵎	-11.5592
坫	-11.5595
澧	-11.5597
騾	-11.5637
幛	-11.5641
甦	-11.5642
歊	-11.5643
苻	-11.5645
噐	-11.5647
凹	-11.5648
掾	-11.5648
寘	-11.5649
鑣	-11.5649
硃	-11.565
窆	-11.565
呻	-11.5653
霆	-11.5702
渦	-11.5703
腋	-11.5706
飇	-11.5706
蓀	-11.5707
膴	-11.5708
䢴	-11.5708
皤	-11.5708
焙	-11.5709
錘	-11.571
紏	-11.5711
斁	-11.5712
㽔	-11.5713
縉	-11.5716
􁈁	-11.5722
汐	-11.5765
釃	-11.5765
碭	-11.5768
讜	-11.5768
葳	-11.5769
餼	-11.5769
犧	-11.577
莘	-11.5773
鑠	-11.5773
璠	-11.5774
徭	-11.5825
豢	-11.5828
奨	-11.5828
珩	-11.5832
廨	-11.5833
癘	-11.5834
敉	-11.5836
朢	-11.584
匯	-11.5848
頫	-11.5885
戡	-11.5891
驩	-11.5891
爼	-11.5892
琚	-11.5892
佯	-11.5893
磁	-11.5895
㶑	-11.5895
賒	-11.5949
嗷	-11.5951
癢	-11.5952
禺	-11.5954
涂	-11.5955
弹	-11.5956
菘	-11.596
頁	-11.5999
輻	-11.6007
霪	-11.6013
聒	-11.6014
瀦	-11.6015
盒	-11.6017
寬	-11.6017
圅	-11.6018
姥	-11.602
愠	-11.602
墖	-11.6025
惺	-11.6025
碾	-11.6072
埤	-11.6076
阪	-11.6078
餳	-11.6078
怛	-11.608
喝	-11.608
沭	-11.6081
秫	-11.6081
掬	-11.6081
輭	-11.6083
慤	-11.6083
爍	-11.6083
佟	-11.6086
諶	-11.6142
斚	-11.6143
矮	-11.6143
睛	-11.6144
羹	-11.6145
雎	-11.6145
玠	-11.616
鰥	-11.6203
㡳	-11.6203
跌	-11.6206
廕	-11.6206
疋	-11.6207
蒨	-11.6207
埏	-11.6209
㦯	-11.6209
鉏	-11.621
摸	-11.6212
簋	-11.6212
愬	-11.6212
軺	-11.6213
嘎	-11.6264
旒	-11.6265
凑	-11.6266
桷	-11.6267
瀠	-11.6269
喫	-11.6272
涔	-11.6273
綉	-11.6278
扞	-11.6331
麯	-11.6333
攔	-11.6334
秪	-11.6334
耨	-11.6335
撩	-11.6335
鞫	-11.6335
畸	-11.6337
羿	-11.6338
滃	-11.6393
䭾	-11.6397
埜	-11.64
貍	-11.64
猾	-11.64
糝	-11.64
煨	-11.64
婣	-11.6401
饘	-11.6402
倂	-11.6403
襃	-11.6405
沚	-11.6405
邾	-11.6406
餙	-11.6408
秣	-11.6455
麴	-11.6459
筴	-11.6463
胃	-11.6465
茀	-11.6466
颭	-11.6467
螯	-11.6469
媵	-11.6471
慝	-11.6472
輾	-11.6528
灔	-11.6529
煒	-11.653
焜	-11.6531
吭	-11.6532
縊	-11.6535
邠	-11.6536
絰	-11.6536
舖	-11.6593
𨳩	-11.6593
鍳	-11.6595
闚	-11.6597
舷	-11.6597
竢	-11.6599
儗	-11.6602
毖	-11.6604
燾	-11.6606
郯	-11.6606
狷	-11.6609
你	-11.6617
蚊	-11.6655
壕	-11.6658
壌	-11.6658
憮	-11.666
刳	-11.666
棱	-11.6661
𣏌	-11.6663
颼	-11.6666
逖	-11.6667
虢	-11.6686
咫	-11.6723
澂	-11.6725
韙	-11.6728
樁	-11.6728
蚌	-11.6729
竆	-11.673
狸	-11.673
勗	-11.6731
屩	-11.6731
箠	-11.6731
邅	-11.6732
澘	-11.6732
紡	-11.6733
袷	-11.6734
莠	-11.6734
厮	-11.6736
瀟	-11.6792
跣	-11.6797
㕑	-11.6797
蜩	-11.6798
伉	-11.6798
箬	-11.68
唫	-11.6802
罌	-11.6804
夐	-11.6805
緹	-11.6806
綫	-11.6828
昕	-11.6838
蘅	-11.6845
窑	-11.6856
緼	-11.6859
涘	-11.6864
謄	-11.6864
緱	-11.6864
殪	-11.6867
倀	-11.6868
疫	-11.6869
惄	-11.6869
倬	-11.687
嶷	-11.687
絺	-11.687
擯	-11.6873
廚	-11.6874
淛	-11.6925
䧺	-11.6931
薜	-11.6934
蝀	-11.6936
悴	-11.6936
􁎘	-11.6936
泖	-11.6937
砭	-11.694
澍	-11.6942
槧	-11.6945
禫	-11.6951
撝	-11.6992
姝	-11.7002
醬	-11.7003
瀧	-11.7003
啁	-11.7004
肱	-11.7005
殽	-11.7007
櫝	-11.7007
縢	-11.7007
淥	-11.7007
桴	-11.7007
晡	-11.7008
襦	-11.7009
媛	-11.7014
劚	-11.7068
嘈	-11.7071
隖	-11.7072
枵	-11.7073
殮	-11.7074
袵	-11.7074
饕	-11.7075
豸	-11.7075
諜	-11.7075
眙	-11.7076
賾	-11.7077
婿	-11.708
苫	-11.7081
擺	-11.7136
畛	-11.7141
扳	-11.7142
熠	-11.7142
崦	-11.7143
醅	-11.7146
疚	-11.715
号	-11.7153
紘	-11.7206
恫	-11.7209
桁	-11.721
鼙	-11.721
㳫	-11.7211
鷙	-11.7212
撿	-11.7212
攖	-11.7213
繖	-11.7214
术	-11.7217
貓	-11.7276
陘	-11.7278
捎	-11.7279
埴	-11.7282
廐	-11.7283
挍	-11.7286
簽	-11.7288
窒	-11.7288
砦	-11.7291
鳧	-11.7292
套	-11.7345
唄	-11.7351
雝	-11.7356
猊	-11.7357
澎	-11.7358
徨	-11.7359
琨	-11.7359
跽	-11.7362
歧	-11.7362
嘵	-11.7363
曈	-11.7423
枳	-11.7425
兠	-11.7425
癭	-11.7426
玦	-11.7426
塜	-11.7427
羶	-11.7427
膾	-11.7427
腆	-11.7427
闍	-11.7428
孃	-11.7428
靨	-11.7429
繒	-11.7433
喟	-11.7458
棍	-11.7493
宁	-11.7493
鴿	-11.7495
璅	-11.7496
罇	-11.7496
罟	-11.75
皐	-11.7502
玫	-11.7507
暌	-11.7508
厤	-11.7514
籃	-11.7565
隼	-11.757
沴	-11.7571
僨	-11.7571
稊	-11.7573
髥	-11.7573
悤	-11.7575
𠂻	-11.7575
醢	-11.7576
沍	-11.7578
蠭	-11.7641
腔	-11.7643
鵰	-11.7643
忡	-11.7644
誑	-11.7645
懵	-11.7646
贋	-11.7649
鈕	-11.765
絞	-11.7651
堇	-11.7653
沱	-11.7657
兪	-11.7658
謖	-11.7718
湜	-11.772
湊	-11.7722
暵	-11.7725
唧	-11.779
肢	-11.7791
衎	-11.7795
愽	-11.7795
坌	-11.7796
祓	-11.7797
琱	-11.7797
媧	-11.7798
淬	-11.7799
藺	-11.7799
嫻	-11.7801
䜛	-11.7869
贛	-11.7869
瓏	-11.7871
蕨	-11.7872
瀏	-11.7872
礫	-11.7944
坏	-11.7946
螘	-11.7947
胤	-11.7948
歘	-11.7949
釭	-11.7951
熄	-11.7952
漑	-11.7961
蓊	-11.8015
敺	-11.802
醯	-11.8022
单	-11.8023
橐	-11.8023
蒜	-11.8024
癯	-11.8027
獺	-11.8027
鉦	-11.8028
杰	-11.8029
奧	-11.8029
僇	-11.8031
賙	-11.8032
藳	-11.8039
鉄	-11.809
嵬	-11.8094
畺	-11.8096
瞠	-11.8097
篔	-11.8097
薺	-11.8098
彂	-11.8098
呶	-11.8103
崕	-11.8104
舠	-11.8104
楠	-11.8172
楯	-11.8172
酲	-11.8174
蘉	-11.8174
嘴	-11.8175
擠	-11.8175
鸚	-11.8176
煇	-11.8177
燐	-11.8177
瀘	-11.8178
饜	-11.8179
抺	-11.8179
簀	-11.8181
壼	-11.8181
珣	-11.8189
舩	-11.8252
璉	-11.8255
舲	-11.8256
茘	-11.8257
莒	-11.8258
耋	-11.8259
儁	-11.826
踣	-11.8261
踔	-11.8262
毆	-11.8263
婪	-11.8326
渌	-11.833
确	-11.8331
棒	-11.8331
嫠	-11.8331
峒	-11.8333
泬	-11.8333
𤨏	-11.8334
坻	-11.8337
涴	-11.8337
筯	-11.8337
瓴	-11.8338
圏	-11.8339
硜	-11.8346
簏	-11.841
莞	-11.8411
暹	-11.8412
膜	-11.8413
橙	-11.8413
􁇐	-11.8415
芾	-11.8417
翺	-11.8417
鴞	-11.8488
靉	-11.849
悌	-11.8493
𣙜	-11.8493
蕘	-11.8493
鶱	-11.8494
雹	-11.8494
籞	-11.8495
齗	-11.8495
眎	-11.8496
􁈍	-11.8496
礦	-11.8496
瘳	-11.8498
蜉	-11.8501
讖	-11.8501
匕	-11.8502
蘗	-11.8556
僱	-11.8565
雇	-11.8565
㙮	-11.8567
尠	-11.857
䆒	-11.8571
罽	-11.8572
摳	-11.8573
黻	-11.8573
颶	-11.8575
軹	-11.8575
櫳	-11.8575
㐮	-11.8575
誾	-11.8575
裵	-11.8575
􁁬	-11.8578
甑	-11.8578
璁	-11.8578
慇	-11.8579
𫀆	-11.8645
㕓	-11.8648
蘢	-11.8649
皁	-11.8652
黝	-11.8653
彷	-11.8653
悸	-11.8655
莪	-11.8657
嫵	-11.8657
鋏	-11.8658
蹏	-11.8661
鑽	-11.8735
蔕	-11.8738
窳	-11.8739
嶰	-11.8739
肫	-11.874
鄣	-11.874
琤	-11.874
喈	-11.8741
綈	-11.8741
昃	-11.8741
瀬	-11.8743
礀	-11.8745
斸	-11.8814
鏑	-11.8815
畎	-11.8818
鼯	-11.8818
礱	-11.8819
鬆	-11.8819
醵	-11.882
蒋	-11.882
蹀	-11.8821
斲	-11.8822
輜	-11.8824
漓	-11.8825
紇	-11.8826
怍	-11.8827
寉	-11.8895
搃	-11.8895
悰	-11.8897
廛	-11.8899
秔	-11.8899
怦	-11.89
倏	-11.8903
跛	-11.8904
箧	-11.8905
爕	-11.8906
数	-11.8906
瞪	-11.8908
㨿	-11.8981
竚	-11.8983
懣	-11.8987
枻	-11.8987
櫪	-11.8988
匄	-11.899
纚	-11.8992
曄	-11.8992
奭	-11.8994
莆	-11.8996
泫	-11.9042
涿	-11.9062
斡	-11.9065
粮	-11.9068
宄	-11.907
揷	-11.9071
澨	-11.9071
佻	-11.9072
帘	-11.9073
壖	-11.9073
豊	-11.9074
璵	-11.9075
饔	-11.9075
隗	-11.9075
侗	-11.908
■	-11.908
呢	-11.9153
桕	-11.9155
愀	-11.9155
楝	-11.9156
臠	-11.9157
胝	-11.9158
蕞	-11.916
羯	-11.9161
煬	-11.9161
鯁	-11.9161
碍	-11.9162
惋	-11.9163
貟	-11.9164
僣	-11.9165
錡	-11.9166
閈	-11.9166
奐	-11.9168
嶤	-11.9239
悛	-11.9239
糗	-11.9242
烜	-11.9244
捩	-11.9244
犒	-11.9246
諗	-11.9248
纊	-11.9248
痊	-11.925
泱	-11.925
憧	-11.925
豬	-11.9254
嗅	-11.9328
荳	-11.9328
懃	-11.9328
駰	-11.9329
壒	-11.9329
傚	-11.9329
昴	-11.933
咿	-11.9331
苾	-11.9334
俳	-11.9336
顱	-11.9336
嬝	-11.9336
憺	-11.9397
叵	-11.941
蘼	-11.9417
猺	-11.9418
嚇	-11.9418
匙	-11.9418
洱	-11.9418
踉	-11.9419
瀲	-11.9419
騮	-11.942
煤	-11.942
頎	-11.9424
頳	-11.95
觔	-11.9502
讋	-11.9502
熖	-11.9503
礼	-11.9505
篡	-11.9505
凊	-11.9508
渫	-11.9508
遹	-11.9509
紿	-11.951
紬	-11.9517
迆	-11.9537
朙	-11.9585
塑	-11.9591
柿	-11.9595
彀	-11.9595
萋	-11.9598
畯	-11.9599
凸	-11.9601
朞	-11.9602
筩	-11.9603
恂	-11.9603
勩	-11.9605
黽	-11.9682
嶄	-11.9686
臞	-11.9686
悒	-11.9689
詼	-11.969
嚬	-11.969
􁇾	-11.9694
籀	-11.9696
㶁	-11.9769
撇	-11.9772
閴	-11.9773
畤	-11.9775
楗	-11.9775
獰	-11.9775
徯	-11.9776
殢	-11.9777
鮓	-11.9778
熨	-11.9778
醺	-11.9778
紕	-11.9778
荑	-11.9779
狃	-11.9779
渲	-11.9779
籤	-11.978
鯢	-11.978
楔	-11.978
戱	-11.9782
咳	-11.9782
顓	-11.9782
鞾	-11.9783
嶻	-11.9863
懴	-11.9863
吮	-11.9863
嵎	-11.9865
餔	-11.9866
䆳	-11.9866
膂	-11.9867
帔	-11.9868
耉	-11.9868
毿	-11.9868
恚	-11.9869
蝉	-11.9871
牓	-11.9872
濼	-11.9874
拿	-11.9876
溘	-11.9876
軓	-11.9879
嚳	-11.9881
壟	-11.9959
澠	-11.996
佶	-11.996
喑	-11.996
猱	-11.9961
郅	-11.9961
忖	-11.9961
抃	-11.9962
瞶	-11.9963
沄	-11.9963
蜍	-11.9964
饉	-11.9964
訏	-11.9965
蝟	-11.9965
鋮	-11.9967
怏	-11.9969
𣪚	-12.0044
罾	-12.0051
瘡	-12.0052
塚	-12.0053
褉	-12.0055
殲	-12.0055
哩	-12.0056
簣	-12.0056
診	-12.0057
哽	-12.0057
脰	-12.0059
箎	-12.006
埸	-12.0062
曖	-12.0062
凟	-12.0064
堊	-12.0064
卄	-12.0139
茜	-12.014
䍐	-12.0145
籓	-12.0145
磷	-12.0146
恁	-12.0148
􁄭	-12.015
懊	-12.0151
圩	-12.0153
潺	-12.0153
斕	-12.0154
糲	-12.0155
弃	-12.0156
㮄	-12.0157
卬	-12.0157
䂓	-12.0158
塩	-12.0234
䌫	-12.0236
篚	-12.0239
菟	-12.024
猴	-12.0242
缷	-12.0242
殻	-12.0243
庳	-12.0243
鼂	-12.0244
媸	-12.0244
猩	-12.0245
鰕	-12.0246
濊	-12.025
塤	-12.0252
槊	-12.0332
虯	-12.0333
𬞞	-12.0334
皦	-12.0336
蚪	-12.0337
叉	-12.0338
氍	-12.0339
揑	-12.034
㩁	-12.0341
薏	-12.0341
瑋	-12.0341
霤	-12.0341
哆	-12.0342
烱	-12.0342
异	-12.0342
棻	-12.0343
𥪡	-12.0347
醮	-12.035
樷	-12.0351
帬	-12.0434
剌	-12.0434
斿	-12.0434
儋	-12.0435
纉	-12.0435
沌	-12.0435
賅	-12.0437
袛	-12.0438
犍	-12.0439
喃	-12.0442
鋐	-12.0443
摉	-12.0444
錬	-12.0447
訒	-12.0448
腎	-12.0449
芍	-12.0531
揉	-12.0532
鼈	-12.0533
珉	-12.0533
㓗	-12.0534
搦	-12.0537
弈	-12.0538
庿	-12.054
阬	-12.0541
霹	-12.0542
蘩	-12.0543
撚	-12.0544
喆	-12.0545
謇	-12.0547
鵶	-12.063
匳	-12.063
暁	-12.0631
痴	-12.0632
晻	-12.0632
跼	-12.0633
珎	-12.0633
雘	-12.0634
蕖	-12.0636
瓿	-12.0636
鑲	-12.0637
狙	-12.0637
簠	-12.0638
爆	-12.0724
鏁	-12.0726
飣	-12.0728
諴	-12.0729
戺	-12.0731
趯	-12.0731
湓	-12.0732
椶	-12.0732
撈	-12.0733
洧	-12.0733
芡	-12.0734
螳	-12.0734
軿	-12.0735
槀	-12.0736
螻	-12.0736
胞	-12.0737
漱	-12.0738
虺	-12.0738
蓉	-12.074
靦	-12.0741
埠	-12.0824
粼	-12.0828
酤	-12.0828
蔔	-12.0829
饞	-12.0833
窱	-12.0833
蜡	-12.0833
霎	-12.0834
瘢	-12.0835
慾	-12.0836
嗁	-12.0836
灞	-12.0837
貤	-12.0838
脇	-12.0838
辠	-12.0839
鬥	-12.084
慷	-12.0842
珏	-12.0843
寗	-12.0848
巓	-12.0932
匾	-12.0935
訌	-12.0935
稳	-12.0936
漭	-12.0937
嚶	-12.0939
儈	-12.0939
堙	-12.0939
忸	-12.094
撡	-12.0941
鍚	-12.0941
衘	-12.0942
簑	-12.0943
姸	-12.0945
慊	-12.0945
㬪	-12.0953
􁑻	-12.0971
侖	-12.1029
榱	-12.1036
蠕	-12.1037
詄	-12.1038
梔	-12.1038
樅	-12.1039
䔩	-12.104
呀	-12.1041
棖	-12.1043
彜	-12.1044
灧	-12.1045
礴	-12.1046
芙	-12.1047
衽	-12.1048
勖	-12.1049
縝	-12.105
朏	-12.1054
猨	-12.1137
櫜	-12.1141
昱	-12.1143
蓽	-12.1143
隤	-12.1144
曨	-12.1144
唼	-12.1144
恝	-12.1145
邙	-12.1145
錙	-12.1146
衒	-12.1146
蹻	-12.1148
蠁	-12.1149
塏	-12.1149
遝	-12.1151
痼	-12.1151
瑁	-12.1156
晾	-12.1241
悮	-12.1243
酡	-12.1244
鋩	-12.1246
僰	-12.1248
鎛	-12.1249
嚨	-12.1249
蝌	-12.1251
侏	-12.1251
麄	-12.1251
幗	-12.1251
肪	-12.1252
跖	-12.1253
呦	-12.1254
捃	-12.1254
幬	-12.1254
悱	-12.1255
禇	-12.1256
酺	-12.1258
噤	-12.135
欎	-12.135
澡	-12.135
舵	-12.1351
暱	-12.1355
匜	-12.1355
鉗	-12.1356
駴	-12.1356
喔	-12.1357
菼	-12.1357
緻	-12.1358
縋	-12.1358
檮	-12.1358
欬	-12.1358
顫	-12.136
絆	-12.136
鍔	-12.1361
卣	-12.1363
噱	-12.1363
腮	-12.1363
笵	-12.1364
糅	-12.1372
憬	-12.1452
裛	-12.1463
歗	-12.1465
攲	-12.1465
拗	-12.1466
炮	-12.1466
胙	-12.1467
姨	-12.147
揄	-12.1476
梏	-12.148
桒	-12.1559
敇	-12.1563
﨑	-12.1567
腫	-12.1567
竁	-12.1569
獠	-12.157
嵒	-12.157
箜	-12.1572
洶	-12.1572
砰	-12.1572
券	-12.1574
糈	-12.1575
樟	-12.1576
褪	-12.1577
緖	-12.1581
搢	-12.1585
𬈑	-12.1677
㘭	-12.1679
埓	-12.168
颻	-12.168
胼	-12.1681
賺	-12.1682
祼	-12.1683
捄	-12.1683
姹	-12.1684
澒	-12.1684
臍	-12.1685
粢	-12.1686
肸	-12.1687
儓	-12.1688
𦙍	-12.1689
吊	-12.1693
昶	-12.1694
咒	-12.1786
朧	-12.1787
􁧹	-12.179
亰	-12.179
茰	-12.1791
耤	-12.1791
縴	-12.1791
鎧	-12.1791
躞	-12.1792
壈	-12.1793
彘	-12.1793
𦕈	-12.1794
骼	-12.1794
牂	-12.1794
阯	-12.1796
冣	-12.1796
迕	-12.1796
揩	-12.1796
昀	-12.1798
奡	-12.1798
蓐	-12.1798
􁀇	-12.1798
舳	-12.1799
褎	-12.1802
晌	-12.1862
蹂	-12.1897
瘝	-12.1897
糺	-12.1898
犇	-12.1899
霂	-12.19
􁋚	-12.1902
㶚	-12.1903
刖	-12.1904
貔	-12.1905
褶	-12.1906
柟	-12.1906
爱	-12.1907
簦	-12.1907
嬛	-12.1908
嗛	-12.1909
魴	-12.191
呱	-12.191
綍	-12.191
赧	-12.1913
緦	-12.1913
璨	-12.1914
痘	-12.1914
眚	-12.1916
偓	-12.1917
灕	-12.2009
垞	-12.2014
躪	-12.2014
眈	-12.2015
沬	-12.2016
罙	-12.2018
旐	-12.2019
錚	-12.2019
郛	-12.2019
抜	-12.2019
謦	-12.202
禔	-12.2022
婷	-12.2026
隲	-12.2026
菅	-12.2026
嫺	-12.2026
搤	-12.2028
夬	-12.2035
輞	-12.2126
蜺	-12.2128
崟	-12.2128
搓	-12.213
茱	-12.2132
瞀	-12.2132
葄	-12.2133
鍋	-12.2134
鞶	-12.2134
㮣	-12.2135
鄘	-12.2137
唶	-12.2137
擿	-12.2137
汭	-12.2137
鹺	-12.2137
暍	-12.2139
璀	-12.2139
蕾	-12.2141
欷	-12.2141
噲	-12.2142
齕	-12.2144
鞮	-12.2145
跑	-12.2147
褥	-12.2148
槲	-12.2244
絪	-12.2246
醑	-12.2246
兗	-12.2246
隃	-12.2247
傴	-12.2248
犄	-12.2248
螟	-12.2248
迍	-12.2249
唁	-12.225
嵋	-12.2251
訕	-12.2252
嘅	-12.2253
􁔷	-12.2253
昵	-12.2254
獞	-12.2254
輶	-12.2255
圈	-12.226
瑗	-12.2262
努	-12.2359
囓	-12.2365
鬖	-12.2367
蠆	-12.2367
瘵	-12.2369
刓	-12.237
鄢	-12.237
湻	-12.237
瑀	-12.2371
纁	-12.2371
芮	-12.2371
溲	-12.2372
鯖	-12.2372
汧	-12.2373
鏐	-12.2378
殳	-12.2381
咷	-12.2381
詛	-12.2382
涑	-12.2385
跏	-12.248
譟	-12.2485
轢	-12.2485
瑄	-12.2485
茄	-12.2486
岔	-12.2487
煢	-12.2488
皜	-12.2488
紼	-12.2489
滉	-12.2489
賻	-12.249
貉	-12.2491
麐	-12.2491
鬘	-12.2492
韉	-12.2492
岵	-12.2493
鬐	-12.2494
烺	-12.2495
樺	-12.2495
倅	-12.2495
喩	-12.2495
𢷬	-12.2495
禳	-12.2496
豓	-12.2497
豨	-12.2499
矱	-12.25
杙	-12.2596
洑	-12.2599
漙	-12.2603
鷖	-12.2604
嚕	-12.2606
茒	-12.2607
萄	-12.2607
噓	-12.2608
皛	-12.261
粃	-12.2611
扛	-12.2611
赬	-12.2613
阼	-12.2616
辧	-12.2618
蜷	-12.2621
渣	-12.271
湼	-12.2719
玅	-12.272
沜	-12.2724
瓞	-12.2724
搭	-12.2725
巇	-12.2727
粕	-12.2729
睎	-12.2729
鬴	-12.2729
刎	-12.2729
翆	-12.273
鰣	-12.2731
誶	-12.2731
鸎	-12.2731
睪	-12.2734
黌	-12.2736
喋	-12.2736
棫	-12.2739
咍	-12.274
娉	-12.2745
湃	-12.2847
徕	-12.2848
幪	-12.2851
鼕	-12.2852
琖	-12.2852
酧	-12.2853
瞞	-12.2854
礬	-12.2854
韝	-12.2855
翌	-12.2857
憒	-12.2857
􁂜	-12.2858
婭	-12.2859
崒	-12.286
礲	-12.286
厖	-12.2863
渢	-12.2966
簞	-12.2973
满	-12.2973
陁	-12.2973
跬	-12.2975
磽	-12.2977
倔	-12.2979
醻	-12.2979
萹	-12.298
讃	-12.298
跟	-12.2981
甆	-12.2981
瞢	-12.2981
鋸	-12.2983
溱	-12.2984
杠	-12.2985
礮	-12.2985
埔	-12.2985
䙝	-12.2985
瓮	-12.2987
弢	-12.2988
蛄	-12.3086
翾	-12.3099
蝠	-12.3099
咋	-12.3101
珅	-12.3101
邶	-12.3102
畋	-12.3102
殛	-12.3105
釧	-12.3105
屡	-12.3105
嶁	-12.3106
髽	-12.3106
誹	-12.3107
㬉	-12.3108
贔	-12.3108
岏	-12.3109
蠖	-12.3113
瞋	-12.3115
聃	-12.3127
慱	-12.3228
螽	-12.323
薝	-12.3231
噍	-12.3231
崗	-12.3232
褊	-12.3232
闓	-12.3234
蓰	-12.3234
鞚	-12.3234
籛	-12.3235
窔	-12.3235
輊	-12.3235
饁	-12.3236
黟	-12.3237
郗	-12.3237
扑	-12.3237
孛	-12.3238
笮	-12.3241
蝣	-12.3243
灺	-12.3244
􁀁	-12.3349
攣	-12.3354
矇	-12.3359
螫	-12.336
飡	-12.336
熬	-12.3361
褭	-12.3361
稂	-12.3362
剴	-12.3363
脗	-12.3363
翀	-12.3363
㛰	-12.3363
焯	-12.3363
蟣	-12.3363
瓉	-12.3364
趼	-12.3366
呪	-12.3366
嶴	-12.3367
澑	-12.3368
忼	-12.3368
謭	-12.337
琶	-12.337
吃	-12.3371
騏	-12.3372
闞	-12.3373
泡	-12.3487
濰	-12.3489
彗	-12.349
剗	-12.3491
刄	-12.3491
浃	-12.3492
麒	-12.3494
矞	-12.3494
璟	-12.3494
蕡	-12.3495
鍰	-12.3496
怊	-12.3497
諂	-12.3497
剜	-12.35
洫	-12.35
觶	-12.35
瘧	-12.3501
跗	-12.3501
劘	-12.3502
朓	-12.3503
菓	-12.362
矰	-12.3621
臾	-12.3624
褫	-12.3624
擡	-12.3626
黿	-12.3628
愒	-12.3628
祟	-12.363
寍	-12.363
昜	-12.3631
捋	-12.3631
毯	-12.3632
咻	-12.3632
昺	-12.3633
蔟	-12.3633
鹹	-12.3635
絫	-12.3635
訇	-12.3636
扢	-12.3641
兊	-12.3755
餱	-12.3755
蠣	-12.3757
棬	-12.3757
苹	-12.3759
戔	-12.3759
擐	-12.3759
卌	-12.376
膊	-12.376
莧	-12.3761
筥	-12.3761
髹	-12.3761
牣	-12.3762
怩	-12.3762
抝	-12.3763
讕	-12.3764
楼	-12.3765
傀	-12.3765
橡	-12.3765
汞	-12.3766
慬	-12.3766
晼	-12.3767
欿	-12.3771
襞	-12.3771
葫	-12.3773
謷	-12.3774
嵯	-12.3784
㯶	-12.3892
惝	-12.3894
篘	-12.3895
鴂	-12.3895
鞬	-12.3895
隩	-12.3896
挖	-12.3896
洟	-12.3898
嘒	-12.3898
疢	-12.3898
癰	-12.3899
噭	-12.3899
胚	-12.3899
玕	-12.39
鄊	-12.39
哇	-12.39
癉	-12.39
耡	-12.3901
宓	-12.3901
狠	-12.3901
崿	-12.3902
腊	-12.3902
鎪	-12.3905
􁑀	-12.3906
凰	-12.3907
躚	-12.3908
敭	-12.3909
叜	-12.391
瓘	-12.391
鄮	-12.392
鼪	-12.4032
澶	-12.4033
氾	-12.4035
栅	-12.4035
惨	-12.4038
蟇	-12.4039
拽	-12.4039
歕	-12.4039
唏	-12.4041
罣	-12.4042
爓	-12.4042
嗾	-12.4042
鯀	-12.4043
鷂	-12.4043
璐	-12.4044
􁚳	-12.4045
攙	-12.4046
㠀	-12.4048
汊	-12.4049
擗	-12.4052
丱	-12.4168
蹐	-12.4171
槌	-12.4173
駞	-12.4173
愓	-12.4177
擄	-12.4177
愫	-12.4178
咈	-12.4179
卮	-12.4179
璆	-12.4179
檥	-12.418
銛	-12.418
沲	-12.418
詵	-12.4182
瓔	-12.4183
眦	-12.4185
鄠	-12.4188
糕	-12.4192
翃	-12.4192
媼	-12.4192
辤	-12.4196
楩	-12.431
暦	-12.4311
䬃	-12.4313
羆	-12.4316
摻	-12.4317
閧	-12.4318
痺	-12.432
鑚	-12.4321
鴒	-12.4321
旎	-12.4321
湎	-12.4322
蠺	-12.4323
禡	-12.4324
蹷	-12.4324
騅	-12.4324
鏖	-12.4324
紲	-12.4325
椅	-12.4327
摠	-12.4327
􁴆	-12.4327
掦	-12.4328
惸	-12.4328
歔	-12.4329
瘖	-12.4329
珀	-12.4329
洙	-12.4329
偎	-12.433
裸	-12.433
畇	-12.433
樛	-12.4331
贗	-12.4331
墠	-12.4334
絨	-12.446
咮	-12.446
䑛	-12.4461
􁄢	-12.4462
醲	-12.4463
秒	-12.4463
匭	-12.4464
靆	-12.4464
饟	-12.4465
玖	-12.4466
艋	-12.4466
屭	-12.4467
舴	-12.4467
篌	-12.4467
袞	-12.4468
孜	-12.4468
蔆	-12.4468
轆	-12.4469
麞	-12.4469
菉	-12.447
葯	-12.4472
嬖	-12.4473
諑	-12.4476
滲	-12.4477
􁀼	-12.4606
隍	-12.4608
嫰	-12.461
櫩	-12.461
鱣	-12.461
鋋	-12.461
柈	-12.4611
枌	-12.4613
旖	-12.4614
猪	-12.4615
鼃	-12.4615
毺	-12.4615
橢	-12.4616
諼	-12.4616
咤	-12.4616
漈	-12.4618
摒	-12.4619
袋	-12.4619
魅	-12.4619
偫	-12.4619
姫	-12.4619
輳	-12.462
搰	-12.462
洸	-12.462
郄	-12.462
噎	-12.462
絙	-12.4621
挱	-12.4621
顗	-12.4623
懺	-12.4623
瑙	-12.4624
鰓	-12.4627
姤	-12.463
㗋	-12.475
浯	-12.4758
銃	-12.4758
𣑽	-12.4759
揲	-12.4759
澥	-12.4761
莵	-12.4763
䟎	-12.4763
衂	-12.4763
玲	-12.4764
鶡	-12.4764
糖	-12.4765
垤	-12.4765
症	-12.4766
􁀫	-12.4766
韈	-12.4767
慴	-12.4767
囅	-12.4767
擋	-12.4768
猫	-12.4769
鞲	-12.4769
狆	-12.477
􁅟	-12.4771
騈	-12.4773
撙	-12.4774
睽	-12.4775
慼	-12.4775
煟	-12.4905
􁇒	-12.4906
趋	-12.4907
麅	-12.4909
蝙	-12.491
芼	-12.4911
爝	-12.4912
饍	-12.4912
砑	-12.4914
嶢	-12.4915
𢡟	-12.4916
焕	-12.4916
嘹	-12.4916
鱷	-12.4917
倕	-12.4918
籹	-12.4918
姆	-12.4918
鐍	-12.4918
豗	-12.4919
轇	-12.492
熇	-12.492
譖	-12.492
捻	-12.492
詿	-12.492
剸	-12.4921
娩	-12.4924
袝	-12.4924
粵	-12.4924
澱	-12.4925
眯	-12.4925
簉	-12.493
枲	-12.5052
嶓	-12.5052
凴	-12.5061
适	-12.5062
堉	-12.5063
甿	-12.5064
垻	-12.5064
壝	-12.5065
簌	-12.5065
礧	-12.5067
蹠	-12.5068
馡	-12.507
尻	-12.507
拷	-12.507
赩	-12.5072
湟	-12.5073
忺	-12.5073
秕	-12.5074
傔	-12.5074
籒	-12.5076
蘀	-12.5079
殂	-12.5081
𨗳	-12.5081
珞	-12.5081
摽	-12.5081
偸	-12.5085
蜻	-12.5217
丫	-12.5219
髑	-12.522
蜑	-12.522
帋	-12.522
旴	-12.5221
㫋	-12.5222
轔	-12.5222
縀	-12.5222
􁌫	-12.5223
鎰	-12.5223
躗	-12.5226
倨	-12.5227
栞	-12.5228
醍	-12.523
覦	-12.5231
硤	-12.5231
汍	-12.5232
黥	-12.5232
娠	-12.5234
噦	-12.5234
躐	-12.5236
􁯳	-12.5237
挨	-12.5237
袐	-12.5238
檟	-12.5371
骫	-12.5374
衺	-12.5379
㳂	-12.538
夗	-12.5381
莩	-12.5381
鵾	-12.5381
垜	-12.5383
罋	-12.5383
靴	-12.5383
眢	-12.5384
鎸	-12.5386
𬎼	-12.5387
葠	-12.5387
繻	-12.5387
蠏	-12.5387
踽	-12.5388
嬈	-12.5388
閠	-12.5388
轖	-12.5389
旉	-12.5394
怎	-12.5396
㝱	-12.5396
滏	-12.5397
鈺	-12.5398
抂	-12.5407
霡	-12.5536
摵	-12.5539
珙	-12.5539
腑	-12.554
濞	-12.554
蛉	-12.5541
驁	-12.5542
𬒮	-12.5543
匼	-12.5543
晒	-12.5545
嚅	-12.5547
鄜	-12.5547
㞕	-12.5548
偘	-12.5548
邴	-12.5548
汩	-12.5548
萟	-12.5549
鬧	-12.5549
聱	-12.5551
壎	-12.5551
淦	-12.5551
鷥	-12.5551
娜	-12.5552
菡	-12.5553
凾	-12.5556
鐶	-12.5557
詖	-12.5557
郃	-12.5559
恉	-12.5564
翛	-12.569
関	-12.5698
笨	-12.57
毶	-12.5703
鑼	-12.5704
嶭	-12.5707
秬	-12.5707
輛	-12.5708
皚	-12.5708
篴	-12.5709
勰	-12.571
鯈	-12.5711
劌	-12.5711
眥	-12.5713
鸂	-12.5713
馺	-12.5717
裀	-12.572
剙	-12.572
蟪	-12.5852
璈	-12.5868
砢	-12.5868
髏	-12.587
觝	-12.5871
堄	-12.5871
崙	-12.5871
謌	-12.5873
耔	-12.5873
掎	-12.5874
宧	-12.5875
蟫	-12.5875
瓻	-12.5875
眡	-12.5876
坱	-12.5876
琲	-12.5877
襮	-12.5877
帀	-12.5878
泅	-12.5878
擥	-12.5878
嵂	-12.5879
櫃	-12.5879
戅	-12.5879
潏	-12.5879
􁌆	-12.588
訢	-12.588
凈	-12.5882
碪	-12.5882
枹	-12.5882
爺	-12.5884
氲	-12.5884
囈	-12.5885
𥙿	-12.5886
銑	-12.5888
桎	-12.5888
箝	-12.5892
㙜	-12.6038
䲭	-12.6039
瀁	-12.604
甪	-12.604
銍	-12.6041
鴆	-12.6041
伇	-12.6041
蜮	-12.6042
硎	-12.6043
剋	-12.6044
碕	-12.6044
蠓	-12.6046
騃	-12.6046
繐	-12.6048
碌	-12.6048
斆	-12.6048
籯	-12.6049
蒱	-12.6049
鶒	-12.605
佘	-12.605
纇	-12.605
榘	-12.6052
韁	-12.6052
憝	-12.6055
枷	-12.606
匈	-12.6069
恙	-12.6182
􁆖	-12.6207
噏	-12.6208
筓	-12.6209
蜕	-12.6211
郫	-12.6213
叮	-12.6213
餖	-12.6215
䳌	-12.6216
耰	-12.6216
覉	-12.6216
姧	-12.6216
咱	-12.6216
谽	-12.6217
綣	-12.6218
摰	-12.6218
潨	-12.6218
跕	-12.6218
嵫	-12.6219
篛	-12.6219
扮	-12.622
欃	-12.622
蠃	-12.6221
觱	-12.6221
鍜	-12.6221
芘	-12.6221
縲	-12.6223
穨	-12.6224
璩	-12.6226
蚍	-12.6227
磋	-12.6228
憙	-12.6231
刱	-12.6233
媳	-12.6237
瀌	-12.6387
鍥	-12.6387
砉	-12.6388
鼾	-12.6388
翣	-12.639
鄆	-12.639
嚀	-12.639
龐	-12.639
隮	-12.639
杌	-12.6391
洼	-12.6391
酎	-12.6391
岣	-12.6392
㴻	-12.6392
懟	-12.6393
䰅	-12.6393
秖	-12.6394
漩	-12.6394
磈	-12.6394
掊	-12.6395
悻	-12.6395
鵩	-12.6396
歈	-12.6396
鷟	-12.6396
嫚	-12.6396
冏	-12.6397
盦	-12.6399
䛕	-12.64
鷇	-12.6401
勣	-12.6402
敍	-12.6404
裼	-12.6408
鄚	-12.6561
捴	-12.6562
嘷	-12.6564
蜿	-12.6566
哢	-12.6567
冄	-12.6568
襜	-12.6569
穽	-12.6569
綮	-12.6569
嗒	-12.657
騧	-12.6571
瞍	-12.6572
窯	-12.6573
睞	-12.6574
􁎐	-12.6574
嶪	-12.6575
寀	-12.6576
踠	-12.6576
捶	-12.6583
𢋫	-12.6587
隟	-12.6591
帟	-12.6742
簍	-12.6744
霨	-12.6745
琠	-12.6746
朘	-12.6747
腓	-12.6747
哄	-12.6749
姢	-12.6749
獷	-12.675
鮭	-12.675
閾	-12.675
蠛	-12.675
篾	-12.675
裠	-12.6751
頊	-12.6752
躊	-12.6752
呿	-12.6752
硠	-12.6753
鯽	-12.6753
撟	-12.6754
囹	-12.6754
橛	-12.6755
綯	-12.6755
鵁	-12.6755
妤	-12.6755
馱	-12.6756
簴	-12.6756
塿	-12.6757
椰	-12.6757
縆	-12.6757
繰	-12.6757
肋	-12.6758
脞	-12.6758
稌	-12.676
縧	-12.6762
覼	-12.6762
坷	-12.6763
乹	-12.6764
虔	-12.6768
漯	-12.6769
媕	-12.6771
􁁜	-12.6928
陿	-12.6932
葷	-12.6933
囉	-12.6933
絅	-12.6934
賨	-12.6937
藟	-12.6939
鉶	-12.6939
螮	-12.6939
稡	-12.6939
鷦	-12.6939
忉	-12.694
鷃	-12.6941
詗	-12.6941
嗃	-12.6941
媮	-12.6941
洹	-12.6944
踧	-12.6944
幰	-12.6945
孀	-12.6945
矍	-12.6945
盬	-12.6947
霉	-12.6947
獘	-12.6947
邗	-12.6948
媲	-12.6949
篪	-12.695
犵	-12.695
茝	-12.695
嘐	-12.6952
傎	-12.6952
蟒	-12.6955
罝	-12.6961
槭	-12.7115
鵜	-12.7117
螿	-12.7118
韎	-12.7118
痌	-12.7119
鎩	-12.7119
鮚	-12.7119
仃	-12.712
埂	-12.7122
茯	-12.7123
孥	-12.7123
屇	-12.7124
圄	-12.7124
洨	-12.7124
琇	-12.7125
躄	-12.7125
駔	-12.7126
􁂫	-12.7126
俺	-12.7126
􁃊	-12.7127
豉	-12.7127
蟈	-12.7127
轣	-12.7127
𦍑	-12.7127
綳	-12.7128
哮	-12.7128
疥	-12.7129
帡	-12.713
愳	-12.713
换	-12.713
妯	-12.713
晜	-12.7132
邐	-12.7132
綎	-12.7133
鳷	-12.7133
仡	-12.7134
笭	-12.7134
蹉	-12.7136
狺	-12.7136
羚	-12.7136
宙	-12.7138
菹	-12.7139
銼	-12.714
淝	-12.714
駉	-12.7175
冪	-12.731
䓗	-12.7311
葅	-12.7311
窽	-12.7312
飀	-12.7315
籐	-12.7317
谺	-12.7317
杆	-12.7317
鄗	-12.7318
郟	-12.7318
狖	-12.7319
骳	-12.7319
㳤	-12.7319
僾	-12.7319
羾	-12.7319
慽	-12.7321
扐	-12.7321
騂	-12.7323
忮	-12.7324
噞	-12.7324
醆	-12.7325
沗	-12.7325
獧	-12.7326
轕	-12.7327
伋	-12.7329
涅	-12.7329
燝	-12.7331
仳	-12.7332
𬋩	-12.7504
阽	-12.7506
骯	-12.7507
淶	-12.7508
軔	-12.751
罡	-12.751
鑊	-12.751
𥚑	-12.7511
邛	-12.7512
崢	-12.7512
篩	-12.7512
朐	-12.7513
􁁪	-12.7514
羝	-12.7514
㸐	-12.7515
唔	-12.7515
抖	-12.7515
閡	-12.7515
鴦	-12.7516
鈇	-12.7517
犴	-12.7519
蘐	-12.7519
銕	-12.7519
吚	-12.7519
蕕	-12.752
踳	-12.752
醁	-12.752
娌	-12.7521
蝎	-12.7521
斒	-12.7522
呴	-12.7523
槨	-12.7524
亍	-12.7526
蒭	-12.7704
荈	-12.7707
槗	-12.7708
踆	-12.7709
憀	-12.7711
􁌄	-12.7712
驌	-12.7712
膈	-12.7713
踖	-12.7713
䖝	-12.7713
芑	-12.7713
簔	-12.7713
臈	-12.7714
㦲	-12.7714
鐔	-12.7714
珈	-12.7715
帢	-12.7715
抨	-12.7715
㳙	-12.7715
嶮	-12.7715
劼	-12.7716
鶄	-12.7717
鍧	-12.7717
雭	-12.7717
搬	-12.7718
絓	-12.7718
繯	-12.7718
邯	-12.7718
齦	-12.7719
嚲	-12.7721
孶	-12.7722
挼	-12.7722
嶲	-12.7722
璚	-12.7724
睍	-12.7724
倥	-12.7724
嚄	-12.7724
惴	-12.7724
錠	-12.7725
攏	-12.7725
枘	-12.7728
呑	-12.773
榰	-12.773
彧	-12.7734
粻	-12.7909
呷	-12.7914
螗	-12.7914
鸘	-12.7915
嘬	-12.7915
踴	-12.7916
襖	-12.7917
柅	-12.7917
蠹	-12.7917
狻	-12.7918
襁	-12.7918
恇	-12.7918
燁	-12.7919
雰	-12.792
呐	-12.792
痰	-12.7921
朦	-12.7921
椷	-12.7921
瘃	-12.7922
怱	-12.7922
嶒	-12.7923
牗	-12.7923
鍛	-12.7924
竜	-12.7925
鸇	-12.7925
箵	-12.7926
絏	-12.7926
靧	-12.7927
剷	-12.7927
妺	-12.7928
覷	-12.793
銚	-12.793
糚	-12.793
攟	-12.7931
㠯	-12.7935
􁄄	-12.794
軨	-12.7943
菶	-12.7944
鑷	-12.8114
蚕	-12.8117
籽	-12.8119
廰	-12.812
肚	-12.8123
厫	-12.8123
嵜	-12.8123
淂	-12.8123
䍦	-12.8124
壷	-12.8124
抔	-12.8124
啗	-12.8125
㷖	-12.8126
􁇶	-12.8126
雈	-12.8127
縐	-12.8127
覡	-12.8127
蹰	-12.8127
捆	-12.8128
鱉	-12.8129
郴	-12.8129
獒	-12.813
琹	-12.813
螂	-12.813
蛸	-12.813
蹬	-12.813
齪	-12.8131
藂	-12.8131
劖	-12.8132
踟	-12.8132
廌	-12.8133
緌	-12.8133
蹁	-12.8133
廁	-12.8135
柚	-12.8137
灂	-12.8139
勌	-12.8139
蓞	-12.8139
窬	-12.8139
齔	-12.814
橦	-12.8142
觳	-12.8151
剉	-12.8328
髒	-12.8332
甗	-12.8333
畈	-12.8334
墄	-12.8335
祏	-12.8335
趫	-12.8336
滬	-12.8336
襆	-12.8336
㑴	-12.8337
檔	-12.8337
轝	-12.8337
称	-12.8337
擻	-12.8339
崎	-12.8339
睒	-12.8339
惎	-12.8339
儵	-12.834
賮	-12.834
埼	-12.834
縕	-12.8341
黮	-12.8342
蕐	-12.8342
偨	-12.8342
溆	-12.8343
嗑	-12.8343
疽	-12.8343
􁃼	-12.8343
殍	-12.8343
娼	-12.8344
楽	-12.8344
艣	-12.8345
浡	-12.8346
轎	-12.8346
翽	-12.8346
嬀	-12.8346
嫖	-12.8348
娵	-12.8348
篲	-12.8348
穪	-12.8352
禕	-12.8353
棅	-12.8355
㫤	-12.8357
亯	-12.8358
鄯	-12.8548
洺	-12.8549
殣	-12.855
胾	-12.855
勷	-12.8551
鄱	-12.8552
嗎	-12.8553
蔦	-12.8553
􁎊	-12.8555
瀍	-12.8556
𦦨	-12.8556
氅	-12.8557
囁	-12.8557
俑	-12.8557
闒	-12.8557
頹	-12.8557
漘	-12.8558
􁊥	-12.8558
傺	-12.8558
骩	-12.8559
蒺	-12.8559
㕠	-12.8559
祊	-12.8559
𬗟	-12.856
麕	-12.856
皸	-12.8561
瘉	-12.8561
醋	-12.8561
碶	-12.8561
伻	-12.8562
褷	-12.8562
㲲	-12.8563
毉	-12.8563
鸑	-12.8563
蟊	-12.8563
崐	-12.8564
芉	-12.8564
嘽	-12.8565
鄽	-12.8565
桶	-12.8565
怫	-12.8566
噢	-12.8566
睚	-12.8566
樨	-12.8567
稏	-12.8569
臏	-12.8569
䣊	-12.8569
珽	-12.8572
佾	-12.8577
􁁺	-12.8584
沕	-12.8767
跫	-12.877
棐	-12.8772
琫	-12.8772
駈	-12.8773
晅	-12.8774
闤	-12.8776
鶺	-12.8776
酩	-12.8776
戟	-12.8777
㵸	-12.8777
褓	-12.8777
灩	-12.8777
鷯	-12.8778
蝻	-12.8779
苡	-12.8779
尫	-12.8779
侘	-12.878
儡	-12.878
唆	-12.8782
貙	-12.8783
滳	-12.8783
􁇢	-12.8783
鑕	-12.8783
紞	-12.8784
皭	-12.8784
晬	-12.8785
邰	-12.8785
蓓	-12.8785
槅	-12.8785
餻	-12.8786
咬	-12.8786
胠	-12.8786
䨴	-12.8787
崤	-12.8787
逌	-12.8787
曕	-12.8787
搯	-12.8787
賵	-12.8788
崚	-12.8788
檗	-12.8789
污	-12.8791
桉	-12.8791
敡	-12.8791
彳	-12.8793
阱	-12.8794
嬙	-12.8798
岈	-12.8995
笱	-12.8996
貅	-12.8999
汸	-12.9
􁭤	-12.9002
䕷	-12.9002
逑	-12.9002
蓁	-12.9002
狭	-12.9003
馣	-12.9003
酊	-12.9003
麏	-12.9003
炘	-12.9005
筸	-12.9005
萁	-12.9006
齾	-12.9007
姍	-12.9008
昩	-12.9008
粔	-12.9009
痏	-12.901
抶	-12.901
堁	-12.9011
艎	-12.9011
崋	-12.9012
篸	-12.9012
璸	-12.9015
鏜	-12.9015
齮	-12.9015
瀵	-12.9016
褌	-12.9018
馗	-12.9018
釂	-12.902
渼	-12.9021
皃	-12.9025
歃	-12.9026
釅	-12.9027
磑	-12.9225
緞	-12.9225
奘	-12.9228
翏	-12.923
樑	-12.923
𫐠	-12.9231
踝	-12.9232
􁝪	-12.9234
桅	-12.9235
驃	-12.9235
禴	-12.9236
襠	-12.9237
麌	-12.9238
竑	-12.9238
畮	-12.9239
崱	-12.9239
䌓	-12.9239
恡	-12.9239
𡨕	-12.9239
埰	-12.9239
纑	-12.924
轘	-12.924
咯	-12.924
􁇟	-12.9241
狴	-12.9242
蘺	-12.9242
蘤	-12.9244
褏	-12.9244
熸	-12.9244
鑅	-12.9244
鍠	-12.9244
蚡	-12.9245
嶙	-12.9246
孌	-12.9246
篥	-12.9247
朒	-12.9247
撏	-12.9248
魃	-12.925
莂	-12.925
䆉	-12.925
赳	-12.925
乩	-12.9251
恖	-12.9252
澉	-12.9253
柞	-12.9256
憖	-12.9275
泒	-12.9465
猧	-12.947
逡	-12.9471
戽	-12.9471
拇	-12.9472
伾	-12.9472
侠	-12.9473
諠	-12.9475
􁩉	-12.9475
柙	-12.9476
鵓	-12.9476
頬	-12.9476
慍	-12.9476
罫	-12.9477
炰	-12.9477
辮	-12.9477
鷫	-12.9478
㡡	-12.9478
鏟	-12.9479
敶	-12.9479
梃	-12.9479
麦	-12.9479
栻	-12.948
胆	-12.948
𤱔	-12.9481
愊	-12.9481
囱	-12.9481
酖	-12.9482
蠨	-12.9482
溧	-12.9483
袿	-12.9483
嚥	-12.9484
獎	-12.9485
廋	-12.9487
荏	-12.9491
敧	-12.9492
嫄	-12.9511
萝	-12.9712
湞	-12.9714
厂	-12.9714
璹	-12.9714
騄	-12.9715
苒	-12.9717
㿽	-12.9717
窋	-12.9718
桔	-12.9718
椁	-12.9719
椹	-12.972
廏	-12.9721
橄	-12.9722
椓	-12.9722
胯	-12.9723
听	-12.9724
枿	-12.9724
圬	-12.9725
𤇺	-12.9725
箆	-12.9725
尭	-12.9726
蜘	-12.9726
泇	-12.9727
趍	-12.9727
簜	-12.9727
螙	-12.9727
獬	-12.9728
㡧	-12.973
靠	-12.973
瑑	-12.9731
籕	-12.9731
滹	-12.9731
奶	-12.9736
醨	-12.9736
軃	-12.974
泲	-12.9742
騘	-12.9951
襌	-12.996
党	-12.9962
穟	-12.9962
眊	-12.9963
驦	-12.9964
槥	-12.9965
蝇	-12.9965
㬋	-12.9966
瑱	-12.9966
禨	-12.9966
痒	-12.9967
咆	-12.9968
矟	-12.9969
蚋	-12.9969
飤	-12.9969
躇	-12.997
䆠	-12.997
嬃	-12.997
縡	-12.997
䀌	-12.997
佼	-12.9971
齲	-12.9972
欖	-12.9972
瀣	-12.9973
舗	-12.9973
憸	-12.9974
辣	-12.9974
艭	-12.9974
逶	-12.9974
蹣	-12.9975
嶫	-12.9975
蜆	-12.9976
釦	-12.9976
麫	-12.9976
𣢾	-12.9977
蜾	-12.9977
酇	-12.9977
錞	-12.9978
綢	-12.9978
檉	-12.9978
淟	-12.9979
疣	-12.9979
騑	-12.9979
暜	-12.998
胔	-12.998
梱	-12.998
匶	-12.9981
爚	-12.9982
綌	-12.9983
謎	-12.9983
鶼	-12.9984
憗	-12.9997
鄫	-13.0009
􁋊	-13.0206
嗸	-13.0217
萑	-13.022
郇	-13.0221
幐	-13.0222
姱	-13.0224
靺	-13.0224
鮪	-13.0225
蛆	-13.0225
湢	-13.0225
湥	-13.0226
忪	-13.0227
燹	-13.0228
逬	-13.0228
岝	-13.0228
噀	-13.0229
磕	-13.0229
罛	-13.0229
怲	-13.0229
邜	-13.023
羖	-13.023
褘	-13.0231
醕	-13.0232
姣	-13.0232
襏	-13.0232
睆	-13.0232
咥	-13.0232
种	-13.0233
墐	-13.0233
踘	-13.0233
偬	-13.0234
㢙	-13.0234
冑	-13.0234
玳	-13.0235
􁰛	-13.0235
鷴	-13.0235
轗	-13.0235
卲	-13.0236
驔	-13.0237
罘	-13.0237
终	-13.0238
撦	-13.0238
痾	-13.0238
鬒	-13.0239
稭	-13.0239
鵒	-13.024
姞	-13.0241
蠙	-13.0242
儺	-13.0244
嫮	-13.0247
菏	-13.0248
鵪	-13.0472
㯽	-13.0478
諐	-13.048
趲	-13.048
滮	-13.0481
湑	-13.0482
棽	-13.0483
双	-13.0484
疁	-13.0484
屴	-13.0484
㐲	-13.0484
竞	-13.0485
黧	-13.0486
盋	-13.0487
褂	-13.0487
騕	-13.0488
嚌	-13.0488
蓆	-13.0488
蔌	-13.0488
滻	-13.0489
櫨	-13.0489
􁂰	-13.0491
跚	-13.0491
衹	-13.0491
凘	-13.0492
攽	-13.0492
褕	-13.0494
擫	-13.0494
楛	-13.0494
梠	-13.0495
蓏	-13.0495
峋	-13.0495
瘍	-13.0495
臟	-13.0496
沇	-13.0496
罸	-13.0497
諟	-13.0497
慫	-13.0497
褻	-13.0497
噌	-13.0497
虵	-13.0498
鬨	-13.0498
㪺	-13.0499
楡	-13.0499
嬋	-13.0499
捽	-13.05
霮	-13.0501
艑	-13.0501
紃	-13.0502
䙰	-13.0503
嶸	-13.0503
穜	-13.0505
殀	-13.0507
輢	-13.0507
巋	-13.0741
尝	-13.0751
㟪	-13.0752
㟏	-13.0754
稧	-13.0754
岧	-13.0755
愎	-13.0756
炧	-13.0757
餕	-13.0758
趄	-13.0758
韤	-13.0759
􁎗	-13.076
煴	-13.0761
􁰈	-13.0761
􁄑	-13.0761
侂	-13.0761
塈	-13.0762
絇	-13.0762
莛	-13.0762
霛	-13.0762
籋	-13.0763
檎	-13.0764
槱	-13.0765
傘	-13.0765
􁇵	-13.0765
蹖	-13.0765
裯	-13.0766
悁	-13.0766
贉	-13.0767
臛	-13.0768
稹	-13.0768
縚	-13.0769
晹	-13.0769
韲	-13.0769
巑	-13.0769
肓	-13.077
媾	-13.077
吰	-13.077
橊	-13.077
雺	-13.0773
彯	-13.0782
餬	-13.1026
皪	-13.1028
焞	-13.103
鄼	-13.1033
柂	-13.1034
缽	-13.1035
㩀	-13.1035
酔	-13.1036
鎌	-13.1036
筤	-13.1037
蚨	-13.1037
癃	-13.1037
牯	-13.1037
㟧	-13.1038
瘐	-13.1039
傋	-13.1039
阸	-13.1039
糒	-13.104
鼛	-13.104
瘏	-13.1041
惚	-13.1041
惓	-13.1041
筲	-13.1041
飰	-13.1041
昫	-13.1042
榾	-13.1043
譾	-13.1043
柎	-13.1044
筰	-13.1044
袚	-13.1044
郿	-13.1044
聵	-13.1045
虱	-13.1045
醼	-13.1045
悢	-13.1045
襫	-13.1046
髿	-13.1046
蔫	-13.1047
躧	-13.1047
柮	-13.1047
牏	-13.1048
劓	-13.1048
艨	-13.1048
躳	-13.1049
骴	-13.105
菖	-13.105
璊	-13.1051
儳	-13.1056
諲	-13.1077
臝	-13.1308
㬰	-13.1311
淜	-13.1314
醳	-13.1314
薔	-13.1314
丏	-13.1316
熛	-13.1316
莓	-13.1317
嵕	-13.1317
晢	-13.1317
􁒊	-13.1319
洚	-13.1319
瘥	-13.1319
裌	-13.132
驘	-13.132
賕	-13.1321
靁	-13.1321
湣	-13.1321
舡	-13.1322
媺	-13.1322
藋	-13.1323
鉥	-13.1323
撕	-13.1323
縗	-13.1323
悝	-13.1323
坿	-13.1323
鯫	-13.1323
岕	-13.1324
倧	-13.1324
鬵	-13.1325
泜	-13.1325
鎡	-13.1325
挏	-13.1325
砍	-13.1325
蟆	-13.1325
碻	-13.1326
爌	-13.1326
魈	-13.1327
疃	-13.1327
霣	-13.1329
幇	-13.1329
繂	-13.133
禖	-13.133
洢	-13.133
菆	-13.1331
醊	-13.1332
呫	-13.1332
蒟	-13.1332
睟	-13.1333
齶	-13.1333
荐	-13.1333
秸	-13.1335
虓	-13.1335
騤	-13.1336
餗	-13.1337
觕	-13.1338
嚻	-13.1338
髴	-13.1339
痿	-13.134
酴	-13.134
􁅯	-13.1346
倆	-13.1347
蕺	-13.1383
㗖	-13.1598
靷	-13.1604
茌	-13.1604
嘱	-13.1611
堧	-13.1615
轓	-13.1615
蠒	-13.1616
㭬	-13.1617
啅	-13.1617
鱖	-13.1617
甔	-13.1617
􁃔	-13.1618
阹	-13.1618
窞	-13.1618
汕	-13.1618
灊	-13.1618
煗	-13.1619
葓	-13.1619
麑	-13.162
釗	-13.1621
窌	-13.1621
偭	-13.1621
薖	-13.1621
們	-13.1622
虫	-13.1622
堀	-13.1622
雊	-13.1623
㢠	-13.1623
掐	-13.1623
儧	-13.1623
煕	-13.1624
􁠟	-13.1624
蹢	-13.1624
駪	-13.1624
痁	-13.1625
緅	-13.1626
旟	-13.1626
嚘	-13.1627
頣	-13.1627
剃	-13.1628
栲	-13.1628
驊	-13.1628
蒻	-13.1629
摋	-13.1631
芣	-13.1631
􁈔	-13.1632
瑔	-13.1632
艟	-13.1632
褵	-13.1634
份	-13.1635
鞞	-13.1636
鋌	-13.1638
浼	-13.1639
櫍	-13.169
麚	-13.1906
穣	-13.1911
􁦍	-13.1912
冞	-13.1913
杕	-13.1914
鬑	-13.1916
摴	-13.1916
薾	-13.1917
宷	-13.1917
猘	-13.1917
㯭	-13.1917
総	-13.1919
魘	-13.1921
戹	-13.1922
㦷	-13.1922
鷓	-13.1922
薶	-13.1923
笆	-13.1923
唤	-13.1923
鷰	-13.1923
黂	-13.1924
薯	-13.1925
肹	-13.1926
韡	-13.1926
㫪	-13.1926
搥	-13.1926
􁂻	-13.1927
萸	-13.1927
凂	-13.1927
蹩	-13.1928
嵳	-13.1929
佹	-13.1931
湱	-13.1931
陊	-13.1932
拌	-13.1933
虒	-13.1933
絛	-13.1933
峚	-13.1934
剟	-13.1934
緤	-13.1937
鍇	-13.1938
蒓	-13.1939
鷽	-13.1939
慥	-13.1943
􁜂	-13.1946
瑮	-13.1946
敓	-13.2223
螾	-13.2225
鮎	-13.2225
鞘	-13.2225
臿	-13.2226
玘	-13.2227
姁	-13.2228
葸	-13.2229
媯	-13.2229
橑	-13.2229
貊	-13.223
岨	-13.2232
癥	-13.2233
稺	-13.2234
翶	-13.2235
烙	-13.2235
咡	-13.2235
䙫	-13.2237
砆	-13.2237
尨	-13.2237
痂	-13.2238
跧	-13.2238
艅	-13.2238
碞	-13.2239
憯	-13.2239
戇	-13.2239
勍	-13.2239
蕢	-13.2239
鏇	-13.2239
餠	-13.224
蜼	-13.224
猒	-13.224
彙	-13.2241
䋣	-13.2241
螣	-13.2241
献	-13.2241
侻	-13.2242
埶	-13.2243
㐫	-13.2243
篳	-13.2243
搊	-13.2244
踦	-13.2244
䑳	-13.2245
亙	-13.2245
綷	-13.2245
鯿	-13.2245
虡	-13.2247
灸	-13.2248
􁡾	-13.225
喞	-13.225
漵	-13.225
璥	-13.225
聦	-13.2251
􁇲	-13.2254
溍	-13.2255
澚	-13.2257
愐	-13.2261
抆	-13.2263
爥	-13.2541
躱	-13.2543
眴	-13.2546
閜	-13.2548
㒷	-13.2548
鍪	-13.2549
蚯	-13.2549
擱	-13.2549
橇	-13.2549
鮒	-13.255
􁃯	-13.2551
儇	-13.2551
髄	-13.2552
瓤	-13.2552
䔥	-13.2553
涷	-13.2553
蝥	-13.2553
韐	-13.2554
櫚	-13.2554
峿	-13.2555
弥	-13.2555
酳	-13.2555
澦	-13.2556
秭	-13.2556
匆	-13.2556
瞩	-13.2557
娖	-13.2557
凥	-13.2558
鼒	-13.2558
鵂	-13.2558
杗	-13.2558
笇	-13.2559
嫋	-13.2559
磻	-13.2559
禠	-13.2559
蝯	-13.2559
栱	-13.256
嗢	-13.2561
脹	-13.2561
鮐	-13.2561
誖	-13.2561
餧	-13.2561
徉	-13.2561
􁍑	-13.2561
麁	-13.2562
涬	-13.2562
䕬	-13.2564
訿	-13.2564
毸	-13.2565
盭	-13.2565
㒒	-13.2566
厀	-13.2566
椏	-13.2567
寞	-13.2568
􁏖	-13.2569
棓	-13.2569
篹	-13.257
畣	-13.257
𤼵	-13.2573
頲	-13.2574
箯	-13.2577
㬥	-13.2584
湲	-13.2856
鞿	-13.2873
􁂬	-13.2878
喊	-13.2879
牿	-13.2879
磡	-13.2883
枮	-13.2883
龢	-13.2883
㠑	-13.2883
蟉	-13.2883
竛	-13.2884
骹	-13.2886
麂	-13.2886
譍	-13.2887
遛	-13.2887
㠝	-13.2888
澐	-13.2889
鶹	-13.289
价	-13.289
顑	-13.289
㓙	-13.289
䠞	-13.2891
喣	-13.2891
艧	-13.2891
氂	-13.2892
隹	-13.2892
婕	-13.2892
帮	-13.2892
𤏡	-13.2892
蝡	-13.2892
齠	-13.2893
幨	-13.2893
擩	-13.2893
楂	-13.2893
臲	-13.2893
屝	-13.2894
梲	-13.2894
飃	-13.2895
鐮	-13.2896
焱	-13.2898
熻	-13.2899
筇	-13.29
嚚	-13.29
筧	-13.29
氿	-13.2901
粳	-13.2902
刌	-13.2902
扯	-13.2903
穅	-13.2903
趠	-13.2903
􁃶	-13.2903
蜊	-13.2907
斮	-13.2908
蠋	-13.2909
捭	-13.2909
菩	-13.2911
詧	-13.321
茇	-13.3212
窕	-13.3218
嫜	-13.3224
䋞	-13.3224
麇	-13.3225
炌	-13.3226
􁰹	-13.3226
洌	-13.3227
􁭘	-13.3229
惙	-13.323
澔	-13.323
峥	-13.323
慗	-13.323
蔎	-13.323
胏	-13.323
䨲	-13.323
􁐍	-13.323
豋	-13.3231
紝	-13.3231
㨂	-13.3232
墢	-13.3232
琌	-13.3232
攴	-13.3233
輠	-13.3233
㴞	-13.3234
輀	-13.3234
旓	-13.3234
䯢	-13.3234
卍	-13.3234
煊	-13.3235
囏	-13.3236
齏	-13.3237
甁	-13.3237
佪	-13.3237
蚶	-13.3238
魍	-13.3238
敂	-13.3238
觿	-13.3239
㠎	-13.3239
闃	-13.3239
湩	-13.3239
碔	-13.324
茈	-13.324
硌	-13.3241
疹	-13.3242
􁚐	-13.3244
爟	-13.3244
綹	-13.3244
歠	-13.3244
檳	-13.3244
戩	-13.3246
鄶	-13.3246
胛	-13.3246
䓻	-13.3247
刅	-13.3248
琥	-13.3248
椉	-13.3248
炁	-13.3248
棕	-13.3249
洏	-13.325
幞	-13.325
譆	-13.3251
敔	-13.3251
蜎	-13.3251
蕅	-13.3253
讁	-13.3254
櫞	-13.3254
偝	-13.3254
黦	-13.3254
醿	-13.3254
眂	-13.3257
葊	-13.3265
轊	-13.3266
􁂪	-13.3572
􁋆	-13.3573
耏	-13.3577
怔	-13.358
揵	-13.358
綋	-13.3581
磝	-13.3582
噆	-13.3584
鋼	-13.3585
擦	-13.3586
陗	-13.3587
炕	-13.3587
鬌	-13.3587
􁈊	-13.3588
欱	-13.3589
曀	-13.3589
䴡	-13.3589
姗	-13.3589
㟢	-13.3589
鶗	-13.359
姐	-13.359
睋	-13.3591
葚	-13.3591
糯	-13.3591
鞳	-13.3591
軛	-13.3591
鴃	-13.3592
郜	-13.3592
衋	-13.3592
匵	-13.3593
滆	-13.3594
杬	-13.3594
䥘	-13.3594
􁃝	-13.3594
鬈	-13.3595
玼	-13.3595
濈	-13.3595
􁬸	-13.3595
殚	-13.3596
纕	-13.3596
卺	-13.3596
釲	-13.3597
癲	-13.3597
斨	-13.3598
嘑	-13.3599
歜	-13.3599
漻	-13.3599
赶	-13.3599
噂	-13.36
秤	-13.36
莬	-13.36
灃	-13.3601
帣	-13.3601
鋗	-13.3601
皿	-13.3602
㦤	-13.3602
嶞	-13.3602
荍	-13.3603
眵	-13.3603
蓱	-13.3604
鎦	-13.3605
􁨳	-13.3605
齅	-13.3605
墁	-13.3605
蔿	-13.3606
鋝	-13.3607
澓	-13.3608
刧	-13.3609
廱	-13.361
楙	-13.3611
憍	-13.3612
忞	-13.3614
剚	-13.3944
紥	-13.3944
俜	-13.3945
叡	-13.3946
脽	-13.3953
膰	-13.3954
磺	-13.3955
喂	-13.3955
絍	-13.3956
麵	-13.3957
􁀒	-13.3957
吒	-13.3957
餈	-13.3957
艙	-13.3957
嘛	-13.3958
慆	-13.3959
尟	-13.3959
柢	-13.3959
竸	-13.3959
薉	-13.3959
禜	-13.396
氤	-13.396
晛	-13.396
躠	-13.396
霢	-13.3961
僛	-13.3961
遟	-13.3961
蛬	-13.3961
蟁	-13.3961
蟂	-13.3961
鞨	-13.3962
膢	-13.3962
騋	-13.3963
椑	-13.3964
讔	-13.3965
揃	-13.3965
韺	-13.3965
嗉	-13.3966
麀	-13.3966
郸	-13.3967
謿	-13.3967
訽	-13.3967
㬅	-13.3967
侫	-13.3968
嚦	-13.3969
靅	-13.3969
菂	-13.397
杻	-13.3971
哳	-13.3971
籪	-13.3972
繍	-13.3972
弸	-13.3972
鏦	-13.3973
魋	-13.3973
頖	-13.3974
珵	-13.3974
絝	-13.3974
鏹	-13.3979
灋	-13.3981
烖	-13.3981
廈	-13.3982
悕	-13.3984
柷	-13.3986
䏸	-13.4331
愞	-13.4333
燀	-13.4336
躃	-13.4336
幺	-13.4336
痡	-13.4336
鞓	-13.4339
丝	-13.434
蜴	-13.434
蜥	-13.4341
欸	-13.4341
娬	-13.4342
崥	-13.4342
韀	-13.4344
皞	-13.4344
䧿	-13.4344
𡵨	-13.4344
难	-13.4345
祅	-13.4345
蹡	-13.4346
鞺	-13.4346
靃	-13.4346
蚿	-13.4347
􁉤	-13.4347
郉	-13.4347
􁳋	-13.4348
衖	-13.4348
􁆡	-13.4348
牷	-13.4348
薿	-13.4349
嚆	-13.4349
亝	-13.435
鴐	-13.435
璲	-13.435
孼	-13.4351
宬	-13.4351
褱	-13.4351
鱟	-13.4351
媢	-13.4352
瑇	-13.4352
􁀾	-13.4352
呰	-13.4353
磥	-13.4353
醞	-13.4355
湋	-13.4355
蝮	-13.4355
瓛	-13.4356
輴	-13.4357
蹯	-13.4357
僝	-13.4358
餋	-13.4358
輹	-13.4359
喤	-13.4359
遫	-13.436
劎	-13.4361
閷	-13.4361
繠	-13.4361
桭	-13.4363
躕	-13.4363
惛	-13.4363
􁈭	-13.4365
鎞	-13.4366
黁	-13.4366
騭	-13.4368
􁃞	-13.4369
狫	-13.437
枒	-13.4723
鸊	-13.4734
玥	-13.4735
礽	-13.4735
齁	-13.4737
囤	-13.4737
惔	-13.4737
窹	-13.4739
断	-13.4739
甖	-13.474
鶬	-13.474
獍	-13.4741
迯	-13.4741
瘤	-13.4741
􁉓	-13.4741
灉	-13.4742
硉	-13.4742
猓	-13.4743
耼	-13.4743
罐	-13.4744
濾	-13.4745
侁	-13.4746
漶	-13.4747
圴	-13.4747
袨	-13.4747
峝	-13.4748
鮞	-13.4748
朵	-13.4748
猙	-13.4748
揎	-13.475
瑒	-13.475
倌	-13.475
腯	-13.4751
炅	-13.4751
骭	-13.4751
渗	-13.4752
蛀	-13.4752
砫	-13.4752
眶	-13.4752
髲	-13.4753
􁆬	-13.4753
伹	-13.4753
􁈋	-13.4754
鴝	-13.4754
釚	-13.4755
塒	-13.4755
嵼	-13.4755
瞚	-13.4755
埡	-13.4755
涊	-13.4756
醽	-13.4756
驑	-13.4756
鬋	-13.4756
榑	-13.4756
暠	-13.4757
蔞	-13.4757
邲	-13.4758
鴣	-13.4758
謏	-13.4758
􁀧	-13.4759
䦧	-13.476
􁃣	-13.4761
矑	-13.4763
驎	-13.4764
畷	-13.4765
諝	-13.4767
惽	-13.4769
蕣	-13.4803
爯	-13.5137
摟	-13.5145
䧹	-13.5147
荂	-13.515
焮	-13.5152
蛱	-13.5152
媐	-13.5154
蕝	-13.5154
謟	-13.5154
㜑	-13.5157
煆	-13.5158
崹	-13.5158
剳	-13.5158
㙷	-13.5158
岢	-13.5159
槔	-13.5159
盝	-13.5159
嶇	-13.516
顋	-13.516
滫	-13.5161
靮	-13.5161
菭	-13.5161
蛭	-13.5161
笴	-13.5161
狰	-13.5162
餭	-13.5162
岞	-13.5163
邽	-13.5163
汳	-13.5163
儐	-13.5163
卼	-13.5164
𤯝	-13.5164
􁦵	-13.5165
瓖	-13.5165
𥜗	-13.5166
嫏	-13.5166
漊	-13.5166
啐	-13.5166
礌	-13.5166
𤾂	-13.5166
氈	-13.5166
譓	-13.5166
塼	-13.5167
廙	-13.5167
埵	-13.5167
芈	-13.5168
媫	-13.5168
􁒍	-13.5169
謩	-13.5169
繘	-13.517
拕	-13.517
媟	-13.517
儤	-13.517
戣	-13.5171
縓	-13.5171
晭	-13.5171
盩	-13.5171
懔	-13.5172
鈹	-13.5173
搒	-13.5173
瀺	-13.5173
鬣	-13.5174
腿	-13.5174
硪	-13.5175
䏈	-13.5175
捺	-13.5176
柍	-13.5176
穾	-13.5177
毷	-13.5178
璃	-13.5178
苶	-13.5178
臀	-13.5179
僎	-13.5181
􁌿	-13.5181
飪	-13.5183
钁	-13.5183
挩	-13.5183
璱	-13.5185
􁎍	-13.5187
暐	-13.5187
蠍	-13.5581
弨	-13.5582
黴	-13.5582
郾	-13.5587
簁	-13.5587
灎	-13.5588
鼷	-13.5588
㬌	-13.5589
􁱆	-13.5589
􁀨	-13.559
􁔛	-13.5591
蔴	-13.5591
坯	-13.5592
庨	-13.5592
圇	-13.5593
徘	-13.5593
桿	-13.5593
餫	-13.5593
鴇	-13.5593
缿	-13.5594
酆	-13.5594
螞	-13.5595
􁣖	-13.5595
蚖	-13.5596
苣	-13.5597
啿	-13.5597
樝	-13.5597
􁂭	-13.5597
䦱	-13.5597
鮆	-13.5598
􁉅	-13.5598
萐	-13.5599
㡿	-13.5599
薅	-13.5599
碡	-13.5599
畟	-13.56
嶕	-13.56
鬅	-13.56
蛋	-13.5601
趵	-13.5601
酗	-13.5601
搉	-13.5602
輥	-13.5602
惧	-13.5603
歹	-13.5603
綖	-13.5604
苢	-13.5604
潠	-13.5604
熲	-13.5605
匃	-13.5605
駹	-13.5606
嵰	-13.5606
跅	-13.5607
􁂥	-13.5607
醰	-13.5608
􁣕	-13.5608
捱	-13.5609
牸	-13.561
馚	-13.561
􁲓	-13.5611
㮚	-13.5612
髁	-13.5614
袜	-13.5614
駾	-13.5615
剞	-13.5616
飥	-13.5616
紜	-13.562
狁	-13.5621
拲	-13.5624
軶	-13.5626
畼	-13.5627
􁉃	-13.5628
虩	-13.563
鳸	-13.6031
悪	-13.6033
䔍	-13.6039
礁	-13.604
􁑋	-13.6043
瀜	-13.6044
葹	-13.6046
銹	-13.6046
倞	-13.6047
扠	-13.6047
㹀	-13.6048
洴	-13.6048
磅	-13.6048
儦	-13.6048
氳	-13.6048
崣	-13.6048
夯	-13.6049
㵳	-13.6049
坨	-13.6049
遌	-13.605
〇	-13.605
掫	-13.605
芚	-13.6051
刨	-13.6051
俻	-13.6052
挶	-13.6052
汃	-13.6052
轃	-13.6052
蜒	-13.6053
猋	-13.6053
碟	-13.6053
䬯	-13.6053
䓤	-13.6054
􁞘	-13.6055
䱉	-13.6056
㕙	-13.6056
蝝	-13.6057
㡢	-13.6057
昰	-13.6057
􁁵	-13.6057
桄	-13.6057
䨑	-13.6058
頞	-13.6058
鑛	-13.6058
嚭	-13.6059
蜋	-13.6059
蚣	-13.6059
耩	-13.606
穸	-13.606
笯	-13.606
駵	-13.606
嵁	-13.6061
麛	-13.6063
箾	-13.6063
媍	-13.6064
欑	-13.6064
嚏	-13.6065
侄	-13.6065
鼗	-13.6067
妁	-13.6068
擧	-13.6069
諆	-13.6069
碗	-13.6069
葡	-13.6071
罃	-13.6072
鬃	-13.6072
㣧	-13.6073
黹	-13.6073
輗	-13.6073
嗽	-13.6075
踸	-13.6075
儹	-13.608
肜	-13.6088
酏	-13.609
迮	-13.6508
㷊	-13.6512
矼	-13.6513
跜	-13.6514
楖	-13.6514
薬	-13.6517
鄤	-13.6517
硐	-13.6517
鰐	-13.6519
􁨆	-13.652
糵	-13.652
漴	-13.6521
啚	-13.6521
菔	-13.6522
臕	-13.6523
籔	-13.6523
懍	-13.6524
鱧	-13.6525
掔	-13.6526
浽	-13.6526
硝	-13.6527
嬺	-13.6527
甾	-13.6527
􁢍	-13.6528
窃	-13.6529
蝱	-13.6529
虖	-13.653
腷	-13.653
駬	-13.653
鰱	-13.653
肈	-13.653
凷	-13.6531
扒	-13.6531
禿	-13.6531
搪	-13.6531
􁅗	-13.6531
吷	-13.6531
睘	-13.6532
郕	-13.6533
蜈	-13.6533
靶	-13.6533
纆	-13.6534
秈	-13.6534
汋	-13.6534
􁎠	-13.6534
嫫	-13.6535
鬙	-13.6535
䎫	-13.6535
焄	-13.6536
傒	-13.6537
屼	-13.6537
辴	-13.6537
硫	-13.6537
㵝	-13.6537
攓	-13.6537
嶨	-13.6537
旡	-13.6537
倓	-13.6538
雱	-13.6538
頮	-13.6538
顴	-13.6541
鞉	-13.6541
籝	-13.6542
簺	-13.6543
墍	-13.6544
㪟	-13.6545
烕	-13.6546
鰈	-13.6549
瑺	-13.655
􁳴	-13.655
羼	-13.6551
俍	-13.6565
玁	-13.6568
矐	-13.6571
曶	-13.6573
礿	-13.6576
阞	-13.6976
鄃	-13.6992
􁅃	-13.7008
賍	-13.701
蚴	-13.7015
枸	-13.7016
广	-13.7018
莝	-13.7018
蜓	-13.7019
虙	-13.702
􁢤	-13.7021
榿	-13.7022
稉	-13.7023
筳	-13.7023
頀	-13.7023
弻	-13.7024
舀	-13.7024
偟	-13.7024
澼	-13.7024
棜	-13.7024
倜	-13.7024
勱	-13.7025
艚	-13.7026
劻	-13.7026
舋	-13.7026
箊	-13.7026
灮	-13.7027
鐻	-13.7027
媌	-13.7028
繽	-13.7028
脤	-13.7029
㷼	-13.7029
䝟	-13.7029
襧	-13.7031
㣶	-13.7031
􁯤	-13.7031
唎	-13.7033
􁥈	-13.7033
浭	-13.7033
扱	-13.7034
倮	-13.7035
枑	-13.7035
璪	-13.7035
㛹	-13.7035
􁧂	-13.7036
泂	-13.7036
鷸	-13.7036
䌨	-13.7036
衕	-13.7036
蝃	-13.7037
鈆	-13.7037
筈	-13.7038
鑨	-13.7038
袱	-13.7038
㚄	-13.7038
悆	-13.7039
残	-13.7039
霦	-13.7039
蜣	-13.7039
扅	-13.704
稑	-13.704
䠥	-13.704
䥥	-13.704
韍	-13.704
鎚	-13.704
堋	-13.704
􁄽	-13.7041
嘖	-13.7041
籧	-13.7042
譛	-13.7043
妆	-13.7043
咢	-13.7044
鶵	-13.7044
屓	-13.7044
􁌣	-13.7045
軷	-13.7046
燋	-13.7047
痗	-13.7048
𣆀	-13.7049
睱	-13.705
俔	-13.7051
骰	-13.7052
侲	-13.7054
哱	-13.7071
菇	-13.7535
鳦	-13.7539
婃	-13.7539
觽	-13.7541
鄔	-13.7541
昒	-13.7542
繊	-13.7543
唪	-13.7543
􁋡	-13.7543
痀	-13.7543
丽	-13.7544
騙	-13.7548
駃	-13.7548
嶊	-13.755
癬	-13.7551
禈	-13.7551
旿	-13.7551
儍	-13.7551
齬	-13.7552
熺	-13.7552
墪	-13.7553
躙	-13.7554
貐	-13.7554
疼	-13.7555
䣛	-13.7556
贐	-13.7556
斝	-13.7557
驆	-13.7558
凃	-13.7558
黈	-13.756
䖟	-13.756
􁿩	-13.756
瀡	-13.7561
犛	-13.7561
蜇	-13.7561
嵊	-13.7561
霿	-13.7562
倶	-13.7562
娭	-13.7562
袽	-13.7562
釪	-13.7563
嶃	-13.7564
貭	-13.7564
􁰣	-13.7564
蚉	-13.7564
簃	-13.7564
澴	-13.7565
靸	-13.7565
䫇	-13.7565
紒	-13.7565
录	-13.7566
黓	-13.7566
滾	-13.7567
􁦹	-13.7567
娿	-13.7568
柹	-13.7568
􁧥	-13.7569
迾	-13.7569
瑳	-13.7569
桯	-13.7569
㰱	-13.757
傞	-13.7571
潸	-13.7571
糁	-13.7571
􁆣	-13.7572
囋	-13.7573
賧	-13.7573
旊	-13.7573
獐	-13.7576
泔	-13.7579
彄	-13.758
蓲	-13.7582
甋	-13.7583
濚	-13.7584
泆	-13.7586
姼	-13.761
􁬿	-13.8088
􁂮	-13.8092
惮	-13.8093
杅	-13.8094
陼	-13.8097
轑	-13.8099
蝤	-13.8101
歅	-13.8101
涞	-13.8101
蛹	-13.8102
箖	-13.8102
􁒷	-13.8103
槮	-13.8103
耙	-13.8104
􁇨	-13.8104
眘	-13.8104
嶅	-13.8104
霱	-13.8106
㗳	-13.8106
􁉔	-13.8107
讇	-13.8107
雴	-13.8107
潧	-13.8107
鶖	-13.8108
螉	-13.8108
翿	-13.8109
鬉	-13.8109
湝	-13.811
滷	-13.811
旍	-13.811
􁱷	-13.811
尒	-13.811
鉧	-13.8111
􁴮	-13.8111
嶐	-13.8111
繣	-13.8111
蛺	-13.8111
􁇠	-13.8111
埧	-13.8111
淰	-13.8111
弒	-13.8111
傫	-13.8111
絁	-13.8112
䀨	-13.8113
礓	-13.8113
嶟	-13.8113
㠖	-13.8113
齩	-13.8113
揅	-13.8113
飧	-13.8113
裓	-13.8114
衅	-13.8114
歾	-13.8114
楘	-13.8114
蓨	-13.8115
遰	-13.8115
􁱝	-13.8115
􁦞	-13.8116
鼍	-13.8116
奫	-13.8116
玢	-13.8116
鏌	-13.8116
腠	-13.8116
􁯠	-13.8116
謼	-13.8117
㵲	-13.8117
嬲	-13.8118
謊	-13.8118
匉	-13.8118
隒	-13.8118
伃	-13.8119
􁂚	-13.8119
謈	-13.812
匽	-13.812
䞇	-13.812
馤	-13.812
壄	-13.812
洳	-13.812
惆	-13.812
㬢	-13.8121
醎	-13.8122
䆗	-13.8123
揔	-13.8123
鰍	-13.8123
襚	-13.8123
䰄	-13.8123
萧	-13.8123
洿	-13.8123
剄	-13.8124
瑊	-13.8125
潙	-13.8126
􁑛	-13.8126
􁔾	-13.8126
稞	-13.8127
砮	-13.8127
穮	-13.8128
箒	-13.8128
櫽	-13.8129
𥅆	-13.8131
鬷	-13.8131
饎	-13.8133
塨	-13.8134
贜	-13.8134
絼	-13.8136
獝	-13.8137
孴	-13.8138
絻	-13.8166
玀	-13.8681
庤	-13.8682
鏄	-13.8682
杈	-13.8683
􁇦	-13.8683
􁐾	-13.8683
茷	-13.8683
圠	-13.8685
惷	-13.8687
靛	-13.8687
餵	-13.8688
棷	-13.8688
沠	-13.8689
䗶	-13.8689
荚	-13.8691
嵿	-13.8691
掆	-13.8691
鰷	-13.8692
廧	-13.8692
痞	-13.8692
榨	-13.8693
祸	-13.8693
韅	-13.8694
跱	-13.8694
鄄	-13.8694
鰌	-13.8695
蝘	-13.8695
􁇴	-13.8695
啽	-13.8696
爉	-13.8697
􁲰	-13.8697
艓	-13.8697
鰉	-13.8698
蝴	-13.8699
踶	-13.8699
矉	-13.8699
㲄	-13.8699
􁅔	-13.8699
􁁄	-13.87
裱	-13.87
𫉬	-13.87
峘	-13.8701
蠐	-13.8702
􁄚	-13.8702
瞎	-13.8702
疻	-13.8702
瞷	-13.8703
晧	-13.8703
􁒐	-13.8703
祘	-13.8703
飂	-13.8704
蟨	-13.8704
盇	-13.8705
𠢐	-13.8705
趿	-13.8705
獾	-13.8705
亊	-13.8706
蓘	-13.8706
橜	-13.8706
孿	-13.8707
醤	-13.8707
謪	-13.8707
頦	-13.8707
咭	-13.8709
萩	-13.8709
篨	-13.8709
匊	-13.871
甒	-13.871
蓧	-13.871
軑	-13.871
𩃱	-13.8711
鏊	-13.8711
裎	-13.8711
䀹	-13.8712
龡	-13.8712
􁇌	-13.8712
賷	-13.8713
楄	-13.8713
楬	-13.8714
耞	-13.8715
醥	-13.8716
溓	-13.8717
彍	-13.8718
嵲	-13.8718
璡	-13.8722
怗	-13.8724
丣	-13.8724
鵙	-13.8726
􁐟	-13.8728
􁿻	-13.873
熷	-13.8735
垸	-13.8736
􁂎	-13.8742
椵	-13.8776
鋡	-13.9291
坵	-13.9305
脃	-13.9306
豖	-13.9309
瘼	-13.931
丼	-13.9311
幚	-13.9312
嗌	-13.9313
蛑	-13.9313
碨	-13.9314
崘	-13.9314
碇	-13.9314
絧	-13.9316
􁀤	-13.9316
豝	-13.9316
冔	-13.9317
嫈	-13.9318
騊	-13.9318
毵	-13.9318
醃	-13.9319
窀	-13.9319
黾	-13.932
􁆝	-13.932
滱	-13.9321
圑	-13.9321
旼	-13.9322
甽	-13.9322
蒍	-13.9323
瀫	-13.9323
痔	-13.9323
櫋	-13.9323
衊	-13.9323
髣	-13.9324
襭	-13.9324
薲	-13.9325
褍	-13.9325
顇	-13.9326
桫	-13.9326
閿	-13.9328
絿	-13.9328
跴	-13.9328
􁒻	-13.9328
􁱹	-13.9328
覛	-13.9329
卟	-13.9329
娀	-13.9329
髢	-13.9329
燖	-13.9329
昞	-13.9329
巂	-13.933
磾	-13.933
芄	-13.933
蜯	-13.933
奼	-13.933
捖	-13.933
囙	-13.933
鞀	-13.9331
翱	-13.9331
􁠬	-13.9331
晐	-13.9331
軄	-13.9331
砐	-13.9332
逴	-13.9332
阤	-13.9332
琉	-13.9333
蟀	-13.9333
揕	-13.9333
腒	-13.9333
僥	-13.9334
輘	-13.9334
痍	-13.9335
浞	-13.9335
漦	-13.9336
􁀍	-13.9336
弮	-13.9337
蕳	-13.9337
戧	-13.9337
􁀳	-13.9337
㸌	-13.9337
祋	-13.9337
㦧	-13.9338
􁨹	-13.9338
关	-13.9339
婀	-13.9339
濙	-13.9339
捂	-13.9339
鄩	-13.934
􁇱	-13.9341
逯	-13.9342
􁇥	-13.9342
寱	-13.9342
▫	-13.9343
緺	-13.9344
䘚	-13.9346
礐	-13.9346
气	-13.9346
􁀉	-13.9347
龠	-13.9348
軥	-13.935
鮦	-13.9351
􁎱	-13.9351
馹	-13.9351
璺	-13.9355
㱃	-13.9356
􁑡	-13.9966
䍡	-13.9972
偯	-13.9974
汔	-13.9976
嚎	-13.9979
㻞	-13.9979
釉	-13.998
薹	-13.998
涆	-13.9981
矹	-13.9981
慌	-13.9982
餚	-13.9982
騠	-13.9982
僸	-13.9982
墝	-13.9982
旜	-13.9982
蚱	-13.9983
宀	-13.9983
鯷	-13.9983
櫹	-13.9983
􁊽	-13.9983
踢	-13.9984
渑	-13.9984
懭	-13.9985
溔	-13.9985
継	-13.9985
儌	-13.9986
窊	-13.9986
狒	-13.9986
瀞	-13.9987
䙚	-13.9987
芧	-13.9987
駣	-13.9988
墼	-13.9988
笪	-13.9989
􁃒	-13.9989
矻	-13.9989
磉	-13.9989
􁗠	-13.9989
伫	-13.9989
殭	-13.999
忳	-13.999
蕷	-13.999
梦	-13.999
偲	-13.999
筊	-13.999
磲	-13.9991
欐	-13.9991
枏	-13.9991
蜢	-13.9991
窵	-13.9992
鷩	-13.9992
齓	-13.9992
礡	-13.9992
犗	-13.9992
蜧	-13.9992
輷	-13.9993
鼋	-13.9993
􁵊	-13.9993
蔲	-13.9993
郈	-13.9994
禬	-13.9994
橒	-13.9994
闠	-13.9994
螬	-13.9995
哷	-13.9995
痢	-13.9995
䄡	-13.9995
刜	-13.9996
崮	-13.9996
墈	-13.9996
箙	-13.9996
淢	-13.9996
擪	-13.9998
麪	-13.9998
臮	-13.9998
􁲽	-13.9998
馽	-13.9999
蓻	-13.9999
檿	-13.9999
俁	-13.9999
戃	-14
䑸	-14
昄	-14
焈	-14
蟢	-14.0001
槑	-14.0001
􁦪	-14.0002
营	-14.0002
羑	-14.0003
掯	-14.0003
芴	-14.0003
輇	-14.0004
𫝊	-14.0004
儛	-14.0005
楳	-14.0005
譣	-14.0006
溈	-14.0006
胖	-14.0006
櫱	-14.0007
籊	-14.0007
捦	-14.0007
丳	-14.0008
籮	-14.0009
籺	-14.001
𦍕	-14.0011
穯	-14.0011
嵞	-14.0013
嫭	-14.0013
膞	-14.0014
撋	-14.0016
冇	-14.0016
桼	-14.0017
殸	-14.0025
軏	-14.0032
椸	-14.0034
𣙗	-14.0671
糙	-14.0677
逎	-14.0683
罼	-14.0683
捏	-14.0684
蟯	-14.0685
傻	-14.0686
諵	-14.0687
丧	-14.0687
鮀	-14.0687
訔	-14.0687
􁈒	-14.0687
韔	-14.0688
崪	-14.0689
漎	-14.0689
佌	-14.069
錕	-14.069
鰩	-14.069
庪	-14.069
廞	-14.069
羵	-14.0691
飆	-14.0692
欏	-14.0692
㟙	-14.0692
泑	-14.0692
橚	-14.0694
栀	-14.0695
嬿	-14.0695
崆	-14.0696
湡	-14.0696
騀	-14.0696
篿	-14.0698
繛	-14.0698
佉	-14.07
跦	-14.07
􁐝	-14.07
䀜	-14.07
炒	-14.07
冱	-14.0701
輼	-14.0701
􁂦	-14.0701
潬	-14.0701
􁂌	-14.0701
穈	-14.0702
箘	-14.0702
􁏏	-14.0703
顢	-14.0703
紖	-14.0703
栴	-14.0703
荗	-14.0704
泃	-14.0705
淯	-14.0705
罻	-14.0705
晸	-14.0706
黕	-14.0706
觹	-14.0706
鯸	-14.0706
瘕	-14.0707
鰒	-14.0707
緉	-14.0707
妳	-14.0707
挻	-14.0708
蟶	-14.0708
梐	-14.0708
瑠	-14.0708
圾	-14.0709
找	-14.0709
恟	-14.0709
屫	-14.0709
鱘	-14.0709
猰	-14.071
髾	-14.071
嗶	-14.071
䥫	-14.0711
䘲	-14.0711
鱨	-14.0712
蕈	-14.0712
懆	-14.0712
䝿	-14.0712
鱻	-14.0712
瑵	-14.0713
㴶	-14.0713
贇	-14.0714
鼏	-14.0714
暏	-14.0714
葇	-14.0714
􁌵	-14.0715
穵	-14.0715
睩	-14.0716
戠	-14.0716
䪥	-14.0716
秏	-14.0716
浜	-14.0717
窾	-14.0717
跎	-14.0717
眨	-14.0718
癈	-14.0718
裦	-14.0718
躑	-14.072
頍	-14.072
鍭	-14.0721
頟	-14.0722
狶	-14.0722
袗	-14.0724
机	-14.0724
袟	-14.0724
瘈	-14.0725
蜞	-14.0725
撅	-14.0726
縯	-14.0726
醧	-14.0727
韌	-14.0727
穄	-14.0728
轐	-14.0728
􁪽	-14.0728
耇	-14.0728
葘	-14.0729
􁐳	-14.0729
浤	-14.0732
甹	-14.0736
屚	-14.0747
碏	-14.1438
䬒	-14.1451
􁋑	-14.1457
濋	-14.1458
䢉	-14.1459
崍	-14.146
摏	-14.146
覻	-14.146
𪠘	-14.1461
􁀥	-14.1461
磩	-14.1461
淲	-14.1461
鼬	-14.1463
嬢	-14.1463
顕	-14.1463
蹜	-14.1464
弰	-14.1464
㰖	-14.1464
縿	-14.1465
耖	-14.1465
廄	-14.1465
惏	-14.1465
艴	-14.1465
􁂝	-14.1465
㵟	-14.1466
蓯	-14.1466
蘜	-14.1466
磶	-14.1467
湨	-14.1467
徔	-14.1468
􁏟	-14.1468
茮	-14.1468
􁇻	-14.1469
絖	-14.1469
呇	-14.1469
􁜵	-14.1469
佅	-14.147
蚑	-14.147
堨	-14.147
狓	-14.147
􁊩	-14.147
鋹	-14.1471
礚	-14.1471
睺	-14.1471
􁇧	-14.1472
寠	-14.1472
艖	-14.1472
昳	-14.1473
勹	-14.1473
喓	-14.1473
䴥	-14.1474
迁	-14.1474
馯	-14.1474
𣣔	-14.1474
􁌹	-14.1474
頇	-14.1475
䄄	-14.1475
眭	-14.1475
玃	-14.1475
曏	-14.1475
㱲	-14.1476
樔	-14.1476
幱	-14.1476
蒹	-14.1476
讟	-14.1476
䉶	-14.1476
縰	-14.1476
很	-14.1476
咂	-14.1476
慜	-14.1476
埝	-14.1476
莉	-14.1477
鰋	-14.1477
􁂙	-14.1477
桌	-14.1477
㴠	-14.1478
啑	-14.1478
􁌚	-14.1478
巹	-14.1478
玗	-14.1478
臡	-14.1478
􁨓	-14.1478
傂	-14.1478
毣	-14.1479
􁦝	-14.1479
炱	-14.1479
硨	-14.1479
韠	-14.1479
隺	-14.1479
坋	-14.1479
鉁	-14.148
嗄	-14.1481
鱄	-14.1481
堮	-14.1481
玞	-14.1481
餤	-14.1481
堲	-14.1481
􁎒	-14.1482
蜹	-14.1482
埈	-14.1482
棡	-14.1482
潾	-14.1482
篬	-14.1483
􁛬	-14.1483
掁	-14.1485
礨	-14.1485
􁣉	-14.1485
􁑮	-14.1485
鏨	-14.1486
熯	-14.1486
䯱	-14.1486
塽	-14.1486
棙	-14.1486
􁃛	-14.1486
􁈘	-14.1486
唅	-14.1486
焫	-14.1487
諞	-14.1488
鱮	-14.1488
鰽	-14.1488
僄	-14.1489
涣	-14.149
䓿	-14.149
拮	-14.149
鼫	-14.149
䁥	-14.1491
鰂	-14.1491
媆	-14.1491
譊	-14.1492
妮	-14.1494
欂	-14.1494
亓	-14.1494
犆	-14.1499
嘂	-14.1499
䢅	-14.15
􁄕	-14.1503
牴	-14.1504
蟛	-14.1505
髳	-14.1507
墦	-14.1507
囟	-14.1508
叭	-14.1515
鍈	-14.1516
􁌙	-14.152
䯒	-14.2249
顈	-14.2269
挪	-14.227
鬍	-14.2274
蘘	-14.228
撎	-14.2281
䈥	-14.2283
駏	-14.2286
揠	-14.2286
䆿	-14.2288
戄	-14.2289
窨	-14.2289
韩	-14.2289
訞	-14.2292
胹	-14.2292
􁁆	-14.2292
恼	-14.2294
䫉	-14.2294
萆	-14.2295
吧	-14.2295
㟃	-14.2295
􁁏	-14.2295
楶	-14.2295
蒧	-14.2296
瀄	-14.2297
虻	-14.2297
蛓	-14.2297
齘	-14.2297
㠘	-14.2297
洇	-14.2298
蚺	-14.2298
􁚙	-14.2299
䱷	-14.2299
鸕	-14.23
厈	-14.23
岭	-14.23
匍	-14.2301
划	-14.2301
揶	-14.2301
愡	-14.2302
薗	-14.2302
䃺	-14.2302
盔	-14.2302
欞	-14.2302
嫇	-14.2302
潗	-14.2302
鶘	-14.2303
帊	-14.2303
毚	-14.2303
㓛	-14.2304
翡	-14.2304
薆	-14.2305
髡	-14.2305
鞌	-14.2305
􁶋	-14.2305
瑽	-14.2305
訑	-14.2306
垚	-14.2306
𠡠	-14.2307
魖	-14.2307
􁇣	-14.2307
婞	-14.2307
攦	-14.2307
䓪	-14.2307
聪	-14.2307
檏	-14.2307
耍	-14.2308
狨	-14.2308
􁂍	-14.2308
􁃚	-14.2309
偼	-14.2309
􁃹	-14.2309
䭭	-14.2309
鵊	-14.2309
薳	-14.2309
貛	-14.2309
頏	-14.231
枅	-14.231
匌	-14.2311
􁮑	-14.2311
棁	-14.2311
蓡	-14.2311
鏝	-14.2311
径	-14.2311
衩	-14.2312
􁄻	-14.2313
𣅿	-14.2313
䜴	-14.2313
籑	-14.2314
泽	-14.2314
讄	-14.2314
郪	-14.2314
㠗	-14.2314
秝	-14.2314
屰	-14.2314
􁆉	-14.2315
煃	-14.2315
􁇋	-14.2315
壂	-14.2316
霳	-14.2316
筀	-14.2317
汹	-14.2317
煐	-14.2317
瓐	-14.2317
輂	-14.2317
萏	-14.2318
僽	-14.2318
觺	-14.2318
麃	-14.2319
𦵔	-14.2319
􁇷	-14.2319
爹	-14.2319
艿	-14.2319
觖	-14.232
砟	-14.232
鞴	-14.232
􁏔	-14.232
鏽	-14.232
鄺	-14.232
舝	-14.2321
鈒	-14.2321
㥄	-14.2321
􁱨	-14.2321
頵	-14.2322
慓	-14.2322
唈	-14.2323
韮	-14.2323
犠	-14.2323
鷕	-14.2324
冘	-14.2324
糸	-14.2324
燻	-14.2324
囦	-14.2324
獚	-14.2324
栔	-14.2325
漷	-14.2325
戻	-14.2325
􁋥	-14.2325
齴	-14.2326
螓	-14.2326
􁐬	-14.2326
鐩	-14.2326
鵡	-14.2327
圊	-14.2327
侐	-14.2327
朌	-14.2329
嫕	-14.233
枤	-14.233
玹	-14.2331
饈	-14.2331
獶	-14.2331
磹	-14.2332
衵	-14.2333
蛣	-14.2333
肊	-14.2334
簳	-14.2335
懹	-14.2337
轛	-14.2341
淊	-14.2342
揫	-14.2343
柶	-14.2347
臑	-14.2349
軎	-14.2379
滈	-14.3165
茴	-14.3187
輣	-14.319
䃔	-14.3194
厘	-14.3194
栟	-14.3195
􁁦	-14.3195
欙	-14.3197
襴	-14.3198
㡘	-14.3198
􁤋	-14.3199
逷	-14.3201
廃	-14.3202
洭	-14.3202
煅	-14.3203
翯	-14.3203
芲	-14.3203
朣	-14.3203
繵	-14.3203
廥	-14.3203
綁	-14.3204
虣	-14.3205
婵	-14.3205
瀅	-14.3206
軆	-14.3206
垍	-14.3206
旹	-14.3207
䲷	-14.3207
秠	-14.3207
㹠	-14.3207
暭	-14.3207
􁲤	-14.3207
𠫭	-14.3208
曯	-14.3208
韃	-14.3208
霫	-14.3208
觩	-14.3208
臄	-14.3209
㶏	-14.3209
俵	-14.3209
􁃠	-14.3209
􁲛	-14.3209
膋	-14.3209
􁘭	-14.3209
謱	-14.321
皡	-14.321
剺	-14.3211
䈾	-14.3211
砏	-14.3211
籨	-14.3212
鐂	-14.3212
鞈	-14.3212
􁒅	-14.3213
摡	-14.3214
鱔	-14.3214
魑	-14.3214
㠡	-14.3214
櫸	-14.3214
嘠	-14.3214
貮	-14.3214
离	-14.3214
鐧	-14.3214
􁂒	-14.3215
鵯	-14.3215
羭	-14.3215
杴	-14.3215
迬	-14.3215
网	-14.3215
攰	-14.3216
唽	-14.3216
憃	-14.3216
膨	-14.3217
䣃	-14.3217
灶	-14.3218
竱	-14.3218
壍	-14.3218
潝	-14.3218
冋	-14.3218
哿	-14.3218
錧	-14.3218
􁊘	-14.3219
䂖	-14.3219
獼	-14.3219
緍	-14.3219
䴢	-14.3219
豌	-14.3219
㱿	-14.3219
頩	-14.3219
隉	-14.3219
噣	-14.322
􁐸	-14.322
蛚	-14.322
鞣	-14.322
􁎾	-14.322
蹵	-14.322
􁇼	-14.322
杷	-14.322
簰	-14.3221
㮰	-14.3221
㸦	-14.3221
旆	-14.3221
㧖	-14.3221
𥚹	-14.3221
闑	-14.3221
懂	-14.3222
唬	-14.3222
渒	-14.3223
榎	-14.3223
奰	-14.3223
𠻳	-14.3223
檙	-14.3224
潎	-14.3224
膬	-14.3224
眤	-14.3224
氃	-14.3225
峛	-14.3225
醹	-14.3225
櫑	-14.3225
洓	-14.3225
渊	-14.3226
昐	-14.3226
䶉	-14.3226
氋	-14.3226
燂	-14.3227
琿	-14.3227
膿	-14.3228
􁒜	-14.3228
鋙	-14.3228
䀪	-14.3228
俌	-14.3228
䮉	-14.3229
䄖	-14.3229
谸	-14.3229
菢	-14.3229
㷳	-14.3229
􁊍	-14.3229
憔	-14.323
崈	-14.3231
臃	-14.3231
焼	-14.3231
鄷	-14.3231
馞	-14.3231
㕛	-14.3231
漰	-14.3231
􁮻	-14.3232
罶	-14.3232
梴	-14.3233
㓨	-14.3235
鶊	-14.3235
潩	-14.3236
􁙧	-14.3236
焭	-14.3237
葍	-14.3237
冓	-14.3237
橧	-14.3238
㪷	-14.3239
茢	-14.3242
􁊃	-14.3242
爞	-14.3243
廇	-14.3243
􁛄	-14.3245
曑	-14.3245
蠎	-14.3246
耴	-14.3246
髂	-14.3247
嶾	-14.3249
拴	-14.325
慁	-14.3251
巛	-14.3253
髆	-14.326
􁋳	-14.3262
鄲	-14.3267
夆	-14.3282
隥	-14.419
濏	-14.419
誆	-14.4193
㶟	-14.4193
僿	-14.4194
㑺	-14.4194
鉸	-14.4195
嵸	-14.4195
緃	-14.4196
獫	-14.4196
伙	-14.4197
燉	-14.4199
􁈠	-14.4199
獗	-14.4199
琡	-14.4199
瑢	-14.42
竃	-14.4201
鑴	-14.4201
滀	-14.4201
礉	-14.4202
赱	-14.4202
飦	-14.4203
鯹	-14.4203
旤	-14.4203
?	-14.4204
臊	-14.4204
䲧	-14.4204
暅	-14.4204
琵	-14.4205
訹	-14.4205
蠉	-14.4206
瞏	-14.4207
剕	-14.4207
栭	-14.4207
藷	-14.4207
埁	-14.4207
谼	-14.4207
詀	-14.4207
仵	-14.4207
詅	-14.4208
襇	-14.4208
巆	-14.4208
蒀	-14.4209
膀	-14.4209
竉	-14.4209
襼	-14.421
􁑵	-14.421
􁊢	-14.4211
麧	-14.4211
蘃	-14.4211
葌	-14.4211
􁑴	-14.4211
閆	-14.4212
蚘	-14.4212
洤	-14.4212
㷒	-14.4212
珷	-14.4212
苿	-14.4212
鯊	-14.4213
􁠴	-14.4213
艒	-14.4213
峍	-14.4213
鉽	-14.4213
輬	-14.4215
槜	-14.4215
熢	-14.4215
榧	-14.4215
胗	-14.4216
㪣	-14.4216
脢	-14.4218
鰭	-14.4218
巣	-14.4218
奓	-14.4218
髵	-14.4218
勔	-14.4219
嵽	-14.4219
崷	-14.4219
攡	-14.4219
靼	-14.4219
珤	-14.4219
宝	-14.4219
􁒭	-14.422
檃	-14.4221
壐	-14.4221
梆	-14.4221
􁀬	-14.4221
瑴	-14.4221
僬	-14.4221
祻	-14.4221
氄	-14.4222
髼	-14.4222
溎	-14.4222
嚱	-14.4222
􁱰	-14.4222
繮	-14.4223
烋	-14.4223
釴	-14.4223
硖	-14.4224
圌	-14.4224
鋬	-14.4224
厶	-14.4224
􁊁	-14.4225
䨟	-14.4225
瘻	-14.4225
䃱	-14.4225
矅	-14.4225
衟	-14.4226
劂	-14.4226
芨	-14.4226
􁞋	-14.4227
􁍆	-14.4227
峗	-14.4227
耎	-14.4227
媻	-14.4227
􁏳	-14.4228
颾	-14.4228
㥫	-14.4228
礥	-14.4228
呺	-14.4229
拐	-14.4229
瑭	-14.4229
玻	-14.4229
􁘤	-14.4229
􁲻	-14.4229
􁀪	-14.4229
輨	-14.423
撢	-14.423
僢	-14.4231
楦	-14.4231
蟜	-14.4231
趐	-14.4231
騩	-14.4232
抓	-14.4233
䐹	-14.4233
莨	-14.4233
鞦	-14.4233
魨	-14.4234
嗈	-14.4234
箄	-14.4234
餁	-14.4235
緲	-14.4235
􁉒	-14.4235
㭊	-14.4235
芎	-14.4235
儚	-14.4236
䳇	-14.4238
􁀭	-14.4239
搠	-14.424
牾	-14.424
鑯	-14.424
𢾗	-14.424
鮝	-14.4241
啍	-14.4242
豵	-14.4243
斖	-14.4244
埳	-14.4244
珫	-14.4244
珝	-14.4245
姙	-14.4245
揾	-14.4246
桱	-14.4248
囝	-14.4248
㡠	-14.4249
幠	-14.425
髧	-14.4253
皠	-14.4254
开	-14.4254
狉	-14.4254
狘	-14.4256
婼	-14.4257
紾	-14.4266
郥	-14.4307
藨	-14.5253
褧	-14.5288
▱	-14.5293
蚻	-14.5298
鶃	-14.5303
􁯣	-14.5305
嵾	-14.5306
銶	-14.5306
綟	-14.5308
􁆭	-14.5308
淠	-14.5309
䱹	-14.531
浟	-14.5311
淈	-14.5311
琕	-14.5311
卨	-14.5312
黶	-14.5312
褠	-14.5313
鼢	-14.5313
帗	-14.5314
响	-14.5314
􁀯	-14.5315
砯	-14.5315
屎	-14.5315
鄹	-14.5315
捼	-14.5315
皵	-14.5315
瘀	-14.5316
􁁇	-14.5316
蟥	-14.5316
劳	-14.5316
􁀆	-14.5316
駸	-14.5317
􁃿	-14.5317
羱	-14.5317
戳	-14.5317
浰	-14.5318
芿	-14.5318
丢	-14.5318
􁈈	-14.5319
僴	-14.5319
疐	-14.532
哤	-14.532
厗	-14.532
鎋	-14.532
帉	-14.532
劊	-14.532
崞	-14.5321
薋	-14.5321
獪	-14.5321
靫	-14.5322
鸖	-14.5322
􁗟	-14.5322
嘩	-14.5322
􁘫	-14.5322
鼟	-14.5322
裩	-14.5323
彔	-14.5323
龑	-14.5323
􁁂	-14.5324
繶	-14.5324
褲	-14.5324
嵘	-14.5324
矓	-14.5324
昈	-14.5324
栘	-14.5325
􁘓	-14.5325
閌	-14.5326
愸	-14.5326
茳	-14.5326
蔮	-14.5326
嬽	-14.5326
􁈡	-14.5326
㝅	-14.5327
黭	-14.5327
􁧜	-14.5327
睅	-14.5327
褾	-14.5327
䠱	-14.5327
褆	-14.5328
􁰓	-14.5328
腄	-14.5328
䕸	-14.5328
鄡	-14.5328
􁚠	-14.5329
吽	-14.5329
􁿧	-14.5329
谾	-14.5329
撣	-14.5329
􁈳	-14.533
諢	-14.533
䁀	-14.533
􁯾	-14.533
薍	-14.533
恋	-14.533
祹	-14.533
綪	-14.5331
楥	-14.5331
膻	-14.5331
譫	-14.5331
狢	-14.5331
􁁲	-14.5331
滭	-14.5331
粽	-14.5332
僶	-14.5332
􁮺	-14.5332
􁠸	-14.5332
䥴	-14.5332
䃭	-14.5333
澾	-14.5333
􁃦	-14.5333
罿	-14.5333
􁁐	-14.5333
沘	-14.5333
䂊	-14.5333
𡡉	-14.5334
糉	-14.5334
㩗	-14.5334
䬟	-14.5334
觭	-14.5334
絣	-14.5335
􁪮	-14.5335
􁁕	-14.5335
􁘡	-14.5336
瘟	-14.5336
琭	-14.5336
鵉	-14.5336
麖	-14.5336
僩	-14.5336
櫆	-14.5336
㬎	-14.5337
􁅳	-14.5337
豩	-14.5337
􁐻	-14.5338
緁	-14.5338
盉	-14.5338
憭	-14.5339
眕	-14.5339
痎	-14.5339
劙	-14.5339
齟	-14.534
犎	-14.534
葽	-14.5341
㞡	-14.5342
􁏢	-14.5343
嘨	-14.5343
壆	-14.5343
酅	-14.5343
剱	-14.5343
唲	-14.5343
溦	-14.5344
髃	-14.5344
焻	-14.5345
􁅰	-14.5345
䨓	-14.5345
甀	-14.5345
剨	-14.5345
獃	-14.5346
賬	-14.5346
娸	-14.5346
覰	-14.5347
杮	-14.5347
詻	-14.5347
餂	-14.5347
玎	-14.5347
溴	-14.5347
怐	-14.5348
䍧	-14.5348
倳	-14.5348
掺	-14.5348
薧	-14.5349
㾐	-14.5349
矌	-14.5349
錟	-14.535
朡	-14.5351
􁌲	-14.5351
珦	-14.5351
㨾	-14.5353
斄	-14.5353
􁗋	-14.5355
悊	-14.5355
鸜	-14.5355
趪	-14.5356
綑	-14.5356
䟤	-14.5356
鵕	-14.5358
苪	-14.5359
嬸	-14.5359
窚	-14.536
樏	-14.5361
衇	-14.5361
􁕲	-14.5363
䱇	-14.5364
啎	-14.5364
骬	-14.5365
楧	-14.5365
􁲕	-14.5366
揬	-14.5366
圛	-14.5367
幵	-14.537
􁊾	-14.5372
澬	-14.5373
妷	-14.5376
岊	-14.5379
昝	-14.5381
檾	-14.6524
􁄺	-14.6533
荁	-14.6534
㷭	-14.6538
􁏛	-14.6542
蔇	-14.6542
鏢	-14.6548
􁏁	-14.6548
䳺	-14.6548
稸	-14.655
萯	-14.655
􁰽	-14.6552
楅	-14.6553
臙	-14.6555
姌	-14.6555
蟺	-14.6556
􁓈	-14.6556
儥	-14.6556
潇	-14.6557
褮	-14.6557
踱	-14.6557
襻	-14.6557
歪	-14.6559
迒	-14.6561
􁋍	-14.6561
挕	-14.6562
轙	-14.6562
䉵	-14.6563
袓	-14.6563
瞵	-14.6564
芩	-14.6564
乜	-14.6565
鶠	-14.6565
􁁙	-14.6566
㰚	-14.6566
􁀩	-14.6566
􁆞	-14.6567
醱	-14.6567
殑	-14.6567
㭙	-14.6568
熳	-14.6568
傝	-14.6569
漼	-14.6569
喭	-14.6569
􁮜	-14.6569
㑒	-14.6569
鋈	-14.6569
鱏	-14.6569
嵏	-14.6569
梥	-14.657
祍	-14.657
滩	-14.657
簵	-14.657
霩	-14.657
􁎴	-14.6571
乱	-14.6571
饝	-14.6571
婬	-14.6571
橱	-14.6571
変	-14.6571
朾	-14.6571
迱	-14.6572
晲	-14.6572
雧	-14.6572
􁃻	-14.6572
􁄞	-14.6573
靽	-14.6573
猭	-14.6573
墙	-14.6573
瀯	-14.6573
䵷	-14.6573
伷	-14.6573
垡	-14.6573
䨙	-14.6574
犨	-14.6575
郏	-14.6575
抬	-14.6575
鷮	-14.6575
崴	-14.6575
敚	-14.6575
澟	-14.6575
藭	-14.6575
饀	-14.6575
􁁧	-14.6576
襵	-14.6576
􁠻	-14.6576
孏	-14.6576
醟	-14.6576
殰	-14.6576
蘝	-14.6577
蚳	-14.6577
跲	-14.6577
䋫	-14.6577
逤	-14.6577
􁃩	-14.6577
窿	-14.6578
鈸	-14.6578
藙	-14.6578
璂	-14.6578
厩	-14.6579
庒	-14.6579
襥	-14.6579
砒	-14.6579
袀	-14.658
諰	-14.658
簩	-14.658
紽	-14.658
跔	-14.658
㞑	-14.658
􁈂	-14.6581
㲈	-14.6582
齣	-14.6582
畍	-14.6582
詑	-14.6582
娙	-14.6582
䄜	-14.6582
芫	-14.6582
妸	-14.6582
睐	-14.6582
舕	-14.6582
訩	-14.6582
葶	-14.6582
攗	-14.6583
汏	-14.6583
鞟	-14.6583
囮	-14.6584
蕰	-14.6584
攛	-14.6584
騢	-14.6584
捒	-14.6584
籭	-14.6584
貈	-14.6584
俅	-14.6584
䃮	-14.6584
祴	-14.6584
䑵	-14.6584
俴	-14.6584
畐	-14.6584
虆	-14.6585
頠	-14.6585
䪺	-14.6585
瘣	-14.6585
艽	-14.6586
辝	-14.6586
􁆳	-14.6587
盅	-14.6587
峉	-14.6588
􁅾	-14.6588
悋	-14.6588
鯬	-14.6588
孅	-14.6589
杝	-14.6589
鬩	-14.6589
瀗	-14.659
簨	-14.659
駻	-14.659
鯠	-14.659
􁱘	-14.659
䍽	-14.659
柤	-14.659
􁎆	-14.659
䙀	-14.659
栒	-14.6591
哃	-14.6591
毦	-14.6591
輮	-14.6591
輤	-14.6592
癩	-14.6592
塐	-14.6592
禝	-14.6592
陻	-14.6592
㴑	-14.6592
碚	-14.6592
臶	-14.6592
晀	-14.6593
豻	-14.6593
螃	-14.6594
藶	-14.6594
歀	-14.6595
湅	-14.6595
傃	-14.6595
蓚	-14.6595
邍	-14.6596
翨	-14.6596
襤	-14.6596
􁂶	-14.6597
甝	-14.6597
􁵵	-14.6597
枙	-14.6597
斠	-14.6598
狑	-14.6598
攈	-14.6599
􁕀	-14.6599
㛮	-14.6599
禭	-14.66
㠋	-14.6601
􁓒	-14.6601
厹	-14.6602
暻	-14.6602
覂	-14.6602
冂	-14.6603
𨼆	-14.6603
塪	-14.6604
踼	-14.6606
舐	-14.6606
啙	-14.6607
䛡	-14.6607
鵻	-14.6609
鬽	-14.6609
琁	-14.661
眹	-14.661
卝	-14.661
旙	-14.6611
匔	-14.6613
緎	-14.6614
駡	-14.6615
砅	-14.6618
稃	-14.662
撱	-14.6621
丯	-14.6632
䋄	-14.6633
骶	-14.6636
腧	-14.664
沑	-14.6645
虋	-14.6647
衳	-14.6647
鑮	-14.665
忯	-14.6656
虴	-14.6722
儃	-14.7937
苺	-14.795
詺	-14.7951
檴	-14.7964
擭	-14.7969
蟭	-14.7973
凇	-14.7973
䌰	-14.7976
鄅	-14.7976
􁊛	-14.7976
洣	-14.7979
􁚗	-14.7981
􁈼	-14.7981
瞹	-14.7981
􁥱	-14.7982
粣	-14.7982
􁥋	-14.7982
狽	-14.7983
菸	-14.7983
㑂	-14.7984
顤	-14.7984
仾	-14.7984
瘯	-14.7985
𦣱	-14.7985
􁪄	-14.7985
怜	-14.7985
􁖬	-14.7985
釬	-14.7985
隁	-14.7986
餾	-14.7986
鐎	-14.7986
㟅	-14.7987
薢	-14.7988
鲁	-14.7988
􁊹	-14.7988
嵉	-14.7989
嚷	-14.7989
潫	-14.799
蛮	-14.799
媞	-14.7991
鏬	-14.7991
荊	-14.7991
𩔖	-14.7991
庌	-14.7991
枇	-14.7991
隽	-14.7991
戼	-14.7991
鴽	-14.7992
􁵉	-14.7992
娓	-14.7992
踹	-14.7992
􁈹	-14.7993
槹	-14.7993
◁	-14.7994
摑	-14.7994
􁌜	-14.7994
牵	-14.7995
俈	-14.7996
鐲	-14.7996
喨	-14.7996
帓	-14.7996
􁥆	-14.7996
堌	-14.7996
佊	-14.7996
毨	-14.7997
鴰	-14.7997
罱	-14.7997
蹮	-14.7997
􁖫	-14.7997
䨥	-14.7997
􁇛	-14.7998
䔿	-14.7998
壜	-14.7998
嵤	-14.7998
艄	-14.7998
跐	-14.7999
􁂋	-14.7999
衱	-14.7999
畕	-14.7999
欻	-14.8
蔻	-14.8
俿	-14.8
㲪	-14.8
􁌱	-14.8
罭	-14.8001
鎏	-14.8001
韣	-14.8001
珧	-14.8001
鄪	-14.8001
擂	-14.8002
篐	-14.8002
鋄	-14.8003
跆	-14.8003
戙	-14.8003
赮	-14.8004
鉊	-14.8004
􁂧	-14.8004
玭	-14.8004
􁤗	-14.8004
梘	-14.8004
熿	-14.8005
騞	-14.8005
詉	-14.8005
􁑣	-14.8005
徬	-14.8005
雚	-14.8005
肧	-14.8006
苽	-14.8006
􁥽	-14.8006
㻬	-14.8006
韽	-14.8006
緰	-14.8006
䫜	-14.8006
帒	-14.8006
􁂆	-14.8006
韆	-14.8006
躒	-14.8006
潟	-14.8006
蝪	-14.8006
蔂	-14.8006
鵀	-14.8006
騍	-14.8006
埛	-14.8006
稬	-14.8007
􁰷	-14.8007
趗	-14.8007
胍	-14.8008
䬪	-14.8008
窫	-14.8008
飶	-14.8008
鼚	-14.8008
􁃅	-14.8008
廆	-14.8008
鞔	-14.8008
瞒	-14.8008
螀	-14.8009
􁳳	-14.8009
㦄	-14.8009
潕	-14.8009
矕	-14.8009
䆞	-14.8009
刾	-14.8009
>	-14.801
螵	-14.801
匐	-14.8011
􁰵	-14.8011
躩	-14.8011
䉡	-14.8012
噠	-14.8012
􁑬	-14.8012
穱	-14.8012
婓	-14.8012
梡	-14.8012
笫	-14.8012
鮰	-14.8012
瀎	-14.8012
􁦛	-14.8013
瑉	-14.8013
鱓	-14.8013
􁚣	-14.8013
穊	-14.8014
幎	-14.8014
侇	-14.8014
郱	-14.8014
蠚	-14.8014
妎	-14.8015
㼾	-14.8015
鄏	-14.8015
覕	-14.8015
􁒽	-14.8015
􁀊	-14.8016
㰕	-14.8016
􁆩	-14.8016
昡	-14.8016
敫	-14.8016
㱥	-14.8016
鬀	-14.8017
埕	-14.8017
緄	-14.8017
偦	-14.8017
􁃇	-14.8017
舑	-14.8017
鵮	-14.8017
㾕	-14.8017
淓	-14.8017
雑	-14.8018
媽	-14.8018
葒	-14.8018
幂	-14.8018
拎	-14.8018
􁶁	-14.8018
􁗩	-14.8018
剠	-14.8018
􁧉	-14.8018
罦	-14.8019
瓟	-14.8019
䁱	-14.8019
靊	-14.802
磳	-14.802
􁁉	-14.802
呆	-14.8021
􁱈	-14.8021
䯏	-14.8021
勠	-14.8021
􁎄	-14.8021
􁁍	-14.8021
戁	-14.8022
莋	-14.8022
橿	-14.8023
輖	-14.8023
􁔿	-14.8023
䑠	-14.8023
缻	-14.8024
硊	-14.8024
􁰃	-14.8024
妊	-14.8024
鱭	-14.8024
刵	-14.8024
橰	-14.8025
輁	-14.8026
嗥	-14.8026
􁐺	-14.8026
羕	-14.8026
聓	-14.8026
齍	-14.8027
醡	-14.8028
䣙	-14.8028
䆁	-14.8029
㢝	-14.8029
襕	-14.8029
黺	-14.8029
􁈎	-14.803
彲	-14.803
騣	-14.803
凮	-14.8031
㜲	-14.8033
􁆤	-14.8033
晙	-14.8033
斶	-14.8033
旝	-14.8035
慠	-14.8036
瓀	-14.8036
糭	-14.8036
塕	-14.8037
諩	-14.8037
殼	-14.8037
弞	-14.8039
􁇂	-14.8039
杶	-14.804
竷	-14.8041
㲚	-14.8041
喎	-14.8043
􁄜	-14.8043
噰	-14.8045
滶	-14.8045
齃	-14.8045
崡	-14.8045
􁑭	-14.8045
魫	-14.8045
夃	-14.8045
􁇡	-14.8046
鯔	-14.8048
脡	-14.8049
圽	-14.805
􁈛	-14.8056
䯂	-14.806
埻	-14.8061
䮯	-14.8067
豏	-14.8069
蛨	-14.8152
蛕	-14.9625
敐	-14.963
溳	-14.963
襹	-14.9631
􁋌	-14.9632
閳	-14.9637
麩	-14.9638
嫘	-14.9639
䄃	-14.9639
薱	-14.9639
拶	-14.9639
菣	-14.964
濭	-14.9641
䬳	-14.9642
􁌓	-14.9642
􁯶	-14.9643
㵚	-14.9643
泾	-14.9644
鷿	-14.9645
䨸	-14.9647
萭	-14.9647
凳	-14.9647
陾	-14.9647
堃	-14.9647
馲	-14.9649
䪨	-14.9649
襛	-14.965
䁑	-14.965
襋	-14.9651
疈	-14.9651
瘋	-14.9652
􁓵	-14.9652
䬞	-14.9653
佁	-14.9654
滍	-14.9654
尓	-14.9655
蠔	-14.9655
忲	-14.9655
㙼	-14.9655
􁗷	-14.9655
蚏	-14.9655
礅	-14.9655
鈖	-14.9656
朹	-14.9656
艍	-14.9656
酟	-14.9657
仐	-14.9657
宖	-14.9657
麙	-14.9657
䭫	-14.9658
聸	-14.9659
莃	-14.9659
窴	-14.9659
綀	-14.9659
蕸	-14.9659
彿	-14.9659
葐	-14.966
稇	-14.966
鴳	-14.966
簭	-14.9661
茩	-14.9661
攂	-14.9661
㘘	-14.9661
埿	-14.9661
觻	-14.9662
熅	-14.9662
黬	-14.9662
圞	-14.9662
嵔	-14.9662
萵	-14.9662
驒	-14.9662
􁑺	-14.9662
􁒦	-14.9662
遻	-14.9662
撘	-14.9663
䞉	-14.9663
惪	-14.9663
曣	-14.9663
俋	-14.9663
􁱲	-14.9663
鈵	-14.9664
􁑾	-14.9664
齝	-14.9664
梌	-14.9664
鍍	-14.9665
蚄	-14.9665
竂	-14.9665
鶋	-14.9665
虸	-14.9666
瓈	-14.9666
􁩪	-14.9666
槫	-14.9666
泞	-14.9666
䌄	-14.9667
刴	-14.9667
稯	-14.9667
􁀮	-14.9667
鄛	-14.9667
駓	-14.9667
剮	-14.9667
埆	-14.9667
璬	-14.9667
鍬	-14.9667
儿	-14.9668
呾	-14.9668
癹	-14.9668
𤾉	-14.9668
竻	-14.9668
羜	-14.9668
欛	-14.9668
苯	-14.9669
䊵	-14.9669
餴	-14.967
珓	-14.967
􁍐	-14.967
􁘬	-14.967
胊	-14.967
氆	-14.967
硿	-14.967
牉	-14.967
䘠	-14.967
薞	-14.967
􁞀	-14.9671
葮	-14.9671
厸	-14.9671
梜	-14.9671
崶	-14.9671
氌	-14.9671
􁔇	-14.9671
翐	-14.9671
䳒	-14.9671
蕼	-14.9672
浿	-14.9672
觛	-14.9672
䇲	-14.9672
瞂	-14.9672
骲	-14.9672
墬	-14.9673
濄	-14.9673
豀	-14.9673
髇	-14.9673
㦂	-14.9673
􁆫	-14.9673
騒	-14.9673
濉	-14.9674
歫	-14.9674
朻	-14.9674
㩻	-14.9674
檍	-14.9674
攵	-14.9675
􁠞	-14.9675
氶	-14.9675
梄	-14.9676
檋	-14.9676
籸	-14.9676
􁀺	-14.9676
㗶	-14.9676
橪	-14.9677
緵	-14.9677
晥	-14.9677
􁆸	-14.9677
㓤	-14.9677
茞	-14.9677
嚾	-14.9677
眽	-14.9677
􁊎	-14.9678
襓	-14.9678
辞	-14.9678
㵿	-14.9678
䠶	-14.9678
鏻	-14.9678
瞱	-14.9678
􁂁	-14.9678
曚	-14.9678
袈	-14.9678
􁎦	-14.9678
􁉨	-14.9678
􁤬	-14.9678
哵	-14.9678
觵	-14.9679
􁛰	-14.9679
佝	-14.9679
篖	-14.9679
捥	-14.9679
岍	-14.9679
磌	-14.9679
媠	-14.9679
嶆	-14.9679
蓫	-14.9679
粑	-14.968
糌	-14.968
驈	-14.968
匋	-14.968
豜	-14.968
怢	-14.968
秅	-14.968
轚	-14.968
􁀗	-14.968
􁆒	-14.968
羍	-14.968
㺅	-14.968
萰	-14.968
怇	-14.968
趟	-14.9681
􁎙	-14.9681
跰	-14.9681
柸	-14.9681
墺	-14.9681
㴲	-14.9681
厴	-14.9681
淏	-14.9681
玟	-14.9682
􁙇	-14.9682
暪	-14.9682
䦘	-14.9682
侅	-14.9683
厔	-14.9683
䳱	-14.9683
鰻	-14.9683
睊	-14.9684
宂	-14.9684
䡊	-14.9684
櫰	-14.9684
􁶏	-14.9684
䀻	-14.9684
躶	-14.9685
騝	-14.9685
睗	-14.9685
魱	-14.9685
襒	-14.9685
晊	-14.9685
庉	-14.9685
窲	-14.9686
悾	-14.9686
􁧁	-14.9686
壔	-14.9686
䱐	-14.9686
䐈	-14.9687
蔤	-14.9687
鍑	-14.9688
嫿	-14.9688
杇	-14.9688
墌	-14.9688
桲	-14.9688
榅	-14.9688
楪	-14.9689
瘒	-14.9689
祾	-14.9689
鼜	-14.9689
洁	-14.9689
衭	-14.9689
侹	-14.9689
廠	-14.969
籰	-14.969
咺	-14.969
􁅘	-14.969
廾	-14.969
摲	-14.9691
耊	-14.9691
枓	-14.9691
􁆵	-14.9691
艌	-14.9691
髖	-14.9692
鮠	-14.9692
壃	-14.9692
葴	-14.9692
㙡	-14.9693
繃	-14.9693
哻	-14.9693
扦	-14.9693
颮	-14.9693
硾	-14.9693
䘖	-14.9693
悺	-14.9694
厙	-14.9694
􁇳	-14.9694
蕑	-14.9694
􁐠	-14.9695
鏵	-14.9695
碬	-14.9696
髤	-14.9697
􁁥	-14.9697
􁎓	-14.9697
伈	-14.9698
𢥠	-14.9698
丂	-14.9698
玈	-14.9698
僔	-14.9698
霝	-14.9698
酮	-14.9699
䑰	-14.9699
傉	-14.97
戓	-14.97
氎	-14.97
􁋽	-14.97
翍	-14.97
迻	-14.97
鐓	-14.97
櫧	-14.9701
枊	-14.9701
篦	-14.9701
垿	-14.9701
􁑃	-14.9701
昦	-14.9701
䴵	-14.9702
杀	-14.9702
􁄗	-14.9703
􁌁	-14.9703
顄	-14.9703
攑	-14.9703
塙	-14.9703
肂	-14.9704
薓	-14.9704
邋	-14.9705
灜	-14.9705
􁜄	-14.9705
聡	-14.9706
􁇩	-14.9706
馧	-14.9708
趖	-14.9709
綝	-14.9709
墇	-14.971
􁇚	-14.9711
怴	-14.9711
舚	-14.9711
紩	-14.9711
痟	-14.9714
曌	-14.9715
睉	-14.9719
曧	-14.9722
誃	-14.9722
睴	-14.9724
辥	-14.9725
瑲	-14.9732
漒	-14.9732
鉼	-14.9732
疧	-14.9738
誺	-14.9785
蒫	-15.1585
蘬	-15.1589
荺	-15.1592
䭔	-15.1618
仂	-15.1625
犉	-15.163
稰	-15.1632
橭	-15.1632
瑹	-15.1633
䬠	-15.1637
荸	-15.1639
瀙	-15.164
篂	-15.1641
磢	-15.1642
抳	-15.1642
毲	-15.1642
昢	-15.1644
妗	-15.1644
糍	-15.1644
瀖	-15.1644
矬	-15.1645
焌	-15.1645
塸	-15.1645
抌	-15.1645
蛘	-15.1646
蠵	-15.1646
涍	-15.1647
禓	-15.1647
禂	-15.1647
祙	-15.1647
晱	-15.1647
煓	-15.1648
䯻	-15.1648
懠	-15.1649
稈	-15.1649
傽	-15.1649
耈	-15.1649
燏	-15.1649
牤	-15.165
曥	-15.165
䜭	-15.1651
栚	-15.1652
蓛	-15.1652
莗	-15.1653
苮	-15.1653
䃧	-15.1653
茙	-15.1653
焬	-15.1654
燽	-15.1654
愗	-15.1654
㘴	-15.1654
毾	-15.1654
瀃	-15.1654
垾	-15.1655
䓶	-15.1655
槷	-15.1656
圁	-15.1656
尰	-15.1656
㰦	-15.1656
灅	-15.1656
檡	-15.1657
寷	-15.1657
扷	-15.1658
粛	-15.1658
扭	-15.1658
惵	-15.1658
蛂	-15.1658
蛢	-15.1658
俏	-15.1659
崌	-15.1659
咉	-15.1659
倈	-15.166
菝	-15.166
巃	-15.166
䨧	-15.166
䣱	-15.166
厒	-15.166
㻾	-15.1661
旵	-15.1661
蠯	-15.1662
摷	-15.1662
虇	-15.1662
俐	-15.1662
寑	-15.1662
壋	-15.1663
斋	-15.1663
豭	-15.1663
矺	-15.1663
濔	-15.1663
檛	-15.1664
㮔	-15.1664
㜕	-15.1664
檆	-15.1665
槴	-15.1665
胱	-15.1665
尞	-15.1666
蛔	-15.1666
莑	-15.1666
秷	-15.1666
㔉	-15.1667
䝇	-15.1667
茻	-15.1667
誐	-15.1667
㬱	-15.1668
瑨	-15.1668
侀	-15.1668
戥	-15.1668
癅	-15.1669
椔	-15.1669
縩	-15.1669
轤	-15.1669
碝	-15.1669
猻	-15.1669
矴	-15.1669
裭	-15.1669
抏	-15.1669
縪	-15.167
埢	-15.1671
䧢	-15.1671
巠	-15.1671
吩	-15.1671
樴	-15.1671
琈	-15.1672
瘂	-15.1672
椐	-15.1672
盰	-15.1673
卋	-15.1673
斞	-15.1673
儱	-15.1674
褅	-15.1674
亱	-15.1674
啵	-15.1674
菻	-15.1675
傪	-15.1675
涾	-15.1675
焅	-15.1675
溏	-15.1675
侜	-15.1675
熉	-15.1675
崵	-15.1675
謣	-15.1676
㑲	-15.1676
煁	-15.1676
唻	-15.1676
扙	-15.1676
檇	-15.1677
痤	-15.1677
禯	-15.1677
嵛	-15.1677
䘳	-15.1677
熰	-15.1677
僁	-15.1677
蟘	-15.1677
抍	-15.1679
虷	-15.1679
㛠	-15.1679
朮	-15.1679
蝹	-15.168
舃	-15.168
曅	-15.168
慭	-15.168
䄇	-15.1681
寎	-15.1681
砠	-15.1681
㫮	-15.1681
蚹	-15.1681
䭡	-15.1681
䋏	-15.1682
瞌	-15.1682
䭓	-15.1682
捔	-15.1683
噧	-15.1683
濎	-15.1683
凔	-15.1683
墯	-15.1683
绳	-15.1683
褸	-15.1683
䭀	-15.1683
莙	-15.1683
䄠	-15.1684
吪	-15.1684
体	-15.1684
瘰	-15.1684
撶	-15.1684
芁	-15.1684
腵	-15.1685
婾	-15.1685
㝉	-15.1685
祄	-15.1685
梹	-15.1685
粺	-15.1685
倛	-15.1686
茿	-15.1686
藾	-15.1686
畲	-15.1686
螄	-15.1686
樆	-15.1686
儜	-15.1687
䈂	-15.1687
彾	-15.1687
懤	-15.1687
䡦	-15.1687
臇	-15.1688
犓	-15.1688
熚	-15.1688
咐	-15.1688
蝜	-15.1688
罤	-15.1689
兟	-15.1689
胲	-15.1689
㯺	-15.1689
噑	-15.1689
怓	-15.169
嬥	-15.169
墎	-15.169
虨	-15.169
艗	-15.1692
筕	-15.1692
㫃	-15.1692
藑	-15.1692
稛	-15.1693
慉	-15.1693
橾	-15.1693
佰	-15.1694
䯳	-15.1694
恌	-15.1694
磄	-15.1694
姅	-15.1695
揳	-15.1695
糨	-15.1695
獉	-15.1695
䟃	-15.1695
梩	-15.1695
兦	-15.1696
垕	-15.1696
䰻	-15.1696
㔍	-15.1696
挲	-15.1696
痯	-15.1697
㠐	-15.1697
丄	-15.1698
䵑	-15.1698
彡	-15.1698
曟	-15.1698
湒	-15.1698
氉	-15.1699
圪	-15.1699
薮	-15.1699
㒞	-15.1699
㭰	-15.1699
㩧	-15.17
㡉	-15.1701
极	-15.1701
㓻	-15.1701
暆	-15.1701
偰	-15.1702
瀐	-15.1702
㽛	-15.1702
备	-15.1703
裶	-15.1703
爗	-15.1703
孊	-15.1706
戉	-15.1706
礶	-15.1706
腜	-15.1706
蘠	-15.1707
緪	-15.1708
臷	-15.1708
慅	-15.1708
妲	-15.1709
㕦	-15.1709
茾	-15.1709
曭	-15.171
脟	-15.171
虈	-15.171
庱	-15.1711
蠠	-15.1711
塝	-15.1711
䞟	-15.1711
瀷	-15.1714
幍	-15.1715
偊	-15.1716
箅	-15.1716
垝	-15.1717
樠	-15.1718
憪	-15.172
枀	-15.1721
婥	-15.1731
堶	-15.1734
豑	-15.1743
匘	-15.1744
㟭	-15.1749
巿	-15.1756
猣	-15.1763
瘛	-15.1768
婏	-15.1769
䙟	-15.1769
邂	-15.4177
徜	-15.4179
顦	-15.4181
逅	-15.4184
餮	-15.419
睥	-15.4192
蓿	-15.4201
鷀	-15.7447
蟋	-15.7514
厜	-15.7516
胭	-15.7525
逍	-15.7528
牁	-15.7533
齷	-15.7564
茉	-15.757
嫦	-16.2481
㕒	-16.2522
簹	-16.2538
苜	-16.256
䂬	-17.238
餛	-17.2381
飩	-17.2382
謰	-17.2383
觪	-17.2384
礜	-17.2385
爃	-17.2386
圝	-17.2387
傯	-17.2388
䴊	-17.2389
3	-17.239
"	-17.2391
駼	-17.2392
鐇	-17.2393
鋣	-17.2394
脝	-17.2395
慂	-17.2396
􁤉	-17.2397
饅	-17.2398
鞻	-17.2399
鍝	-17.24
縭	-17.2401
祤	-17.2402
璙	-17.2403
崺	-17.2404
岰	-17.2405
䥷	-17.2406
㺄	-17.2407
膇	-17.2408
惥	-17.2409
蠮	-17.241
俙	-17.2411
㔩	-17.2412
駊	-17.2413
餺	-17.2414
衚	-17.2415
窸	-17.2416
嗊	-17.2417
恿	-17.2418
鈷	-17.2419
艼	-17.242
匑	-17.2421
􁡯	-17.2422
鼘	-17.2423
諓	-17.2424
慺	-17.2425
䰐	-17.2426
扊	-17.2427
躨	-17.2428
裲	-17.2429
魎	-17.243
餦	-17.2431
禛	-17.2432
栳	-17.2433
囫	-17.2434
觫	-17.2435
襶	-17.2436
褦	-17.2437
裋	-17.2438
髺	-17.2439
譸	-17.244
竮	-17.2441
毰	-17.2442
毹	-17.2443
鳲	-17.2444
錣	-17.2445
趦	-17.2446
蹭	-17.2447
諈	-17.2448
涒	-17.2449
裟	-17.245
𥻘	-17.245
鋃	-17.2451
䍥	-17.2452
醐	-17.2453
懨	-17.2454
姮	-17.2455
靂	-17.2456
糢	-17.2457
琊	-17.2458
罳	-17.2458
