<unk>	0
<s>	0
</s>	0
之	-4.00794
也	-4.34968
(	-4.76726
者	-4.76979
)	-4.8268
/	-4.83216
而	-4.8526
爲	-4.9283
以	-5.00267
其	-5.1632
有	-5.18668
則	-5.24763
不	-5.25642
於	-5.36562
一	-5.39938
)(	-5.44071
中	-5.54892
人	-5.57463
無	-5.57971
生	-5.67157
上	-5.69451
氣	-5.7277
心	-5.76627
故	-5.77059
神	-5.81805
天	-5.84962
三	-5.8622
是	-5.86869
此	-5.87665
大	-5.88517
道	-5.91871
自	-5.93402
曰	-5.93597
下	-5.94959
在	-5.96319
如	-5.97109
行	-5.97144
得	-5.97645
水	-6.03417
至	-6.03465
子	-6.06537
即	-6.10212
與	-6.10556
日	-6.12844
見	-6.15178
矣	-6.15824
陽	-6.15996
言	-6.16929
眞	-6.20387
二	-6.21383
時	-6.21436
五	-6.21608
乃	-6.21876
金	-6.25193
明	-6.25756
入	-6.29931
出	-6.3026
用	-6.30267
火	-6.31344
六	-6.34643
非	-6.34822
成	-6.35024
四	-6.36382
内	-6.37022
乎	-6.40249
所	-6.40793
合	-6.41423
後	-6.41627
九	-6.41889
又	-6.42988
若	-6.43149
身	-6.43634
謂	-6.44352
皆	-6.44933
陰	-6.44992
可	-6.46874
山	-6.47663
王	-6.48909
地	-6.49221
精	-6.50329
相	-6.50662
焉	-6.5077
同	-6.50951
名	-6.51092
亦	-6.52495
經	-6.52514
當	-6.54201
來	-6.54452
君	-6.54868
作	-6.55127
法	-6.5542
七	-6.58223
于	-6.58454
常	-6.59005
玄	-6.59627
事	-6.60093
靈	-6.60146
從	-6.60473
能	-6.61087
去	-6.61226
正	-6.62533
然	-6.63806
復	-6.64147
形	-6.64322
化	-6.64369
通	-6.64409
風	-6.65898
知	-6.6729
▁	-6.67937
物	-6.69852
或	-6.70353
外	-6.71519
令	-6.73715
主	-6.74919
多	-6.75609
方	-6.7599
長	-6.76109
月	-6.76868
玉	-6.77246
云	-6.78372
及	-6.80018
欲	-6.80889
元	-6.81597
光	-6.83635
未	-6.83734
今	-6.84386
病	-6.84527
木	-6.85307
處	-6.85776
先	-6.85984
數	-6.87092
丹	-6.8714
分	-6.87436
取	-6.88186
使	-6.88489
年	-6.88646
我	-6.8906
八	-6.89258
土	-6.90785
安	-6.90836
十	-6.91215
星	-6.91239
本	-6.91518
門	-6.9232
前	-6.92848
耳	-6.93002
脉	-6.93443
應	-6.93499
死	-6.93867
白	-6.94931
體	-6.95819
清	-6.95942
性	-6.96667
書	-6.96699
仙	-6.97255
小	-6.98138
已	-6.99185
命	-6.99734
宫	-6.99798
居	-7.00077
夫	-7.00247
過	-7.00296
兩	-7.00589
理	-7.01342
受	-7.01593
文	-7.02097
必	-7.02225
空	-7.02781
天地	-7.02912
師	-7.03092
立	-7.03346
因	-7.04208
善	-7.04336
開	-7.04412
將	-7.05575
德	-7.05594
治	-7.05638
難	-7.06157
始	-7.07771
何	-7.08871
龍	-7.09288
和	-7.09999
虚	-7.10085
者也	-7.10105
實	-7.10542
雲	-7.10572
存	-7.10929
盡	-7.11218
高	-7.11944
流	-7.11982
不可	-7.12221
目	-7.12475
歸	-7.12616
聲	-7.12686
食	-7.12874
寒	-7.12999
平	-7.14326
世	-7.14838
傳	-7.1491
動	-7.1506
石	-7.15133
象	-7.15179
起	-7.15948
字	-7.17607
意	-7.17679
萬	-7.18072
諸	-7.18475
熱	-7.18732
運	-7.18831
變	-7.19513
雖	-7.20353
藏	-7.20669
少	-7.20683
藥	-7.20861
黄	-7.21142
色	-7.22047
飛	-7.22133
定	-7.22136
帝	-7.22772
符	-7.22865
位	-7.23402
易	-7.23717
觀	-7.23725
公	-7.23944
右	-7.23973
華	-7.24186
還	-7.24253
離	-7.25179
發	-7.25499
服	-7.25751
口	-7.26659
凡	-7.27499
初	-7.27791
重	-7.28017
散	-7.28437
邪	-7.28556
更	-7.28788
足	-7.30256
○	-7.31482
不能	-7.31503
各	-7.31538
度	-7.31836
陰陽	-7.31975
音	-7.32229
守	-7.32485
便	-7.32841
骨	-7.32899
國	-7.33181
會	-7.33276
求	-7.34167
周	-7.34361
隨	-7.34754
乾	-7.34928
吾	-7.35203
青	-7.35405
西	-7.35631
絶	-7.3595
反	-7.36079
炁	-7.36087
東	-7.36219
息	-7.3627
修	-7.36608
失	-7.36634
極	-7.37147
微	-7.37442
蓋	-7.38047
不得	-7.38275
家	-7.38412
向	-7.38464
靜	-7.3857
頭	-7.3859
滿	-7.38633
○)	-7.39065
終	-7.39394
說	-7.3946
甚	-7.40057
日月	-7.40418
思	-7.40452
深	-7.40907
○)(	-7.40981
次	-7.41502
隂	-7.41759
止	-7.41828
衆	-7.42085
須	-7.42364
北	-7.42458
眞人	-7.42792
伏	-7.4348
結	-7.44077
勝	-7.44097
情	-7.44172
歲	-7.44882
交	-7.45378
血	-7.46154
而不	-7.46242
自然	-7.46407
俱	-7.47267
无	-7.47598
降	-7.47726
功	-7.48019
聞	-7.48233
轉	-7.48495
妙	-7.48848
樂	-7.48979
惡	-7.49072
間	-7.49095
南	-7.49269
景	-7.49352
全	-7.49555
盛	-7.4986
十二	-7.50228
好	-7.50324
但	-7.5061
問	-7.50817
百	-7.50946
别	-7.51195
志	-7.51404
臣	-7.51466
既	-7.51897
左	-7.51948
引	-7.51978
千	-7.52125
猶	-7.52197
論	-7.52611
可以	-7.52753
隱	-7.52845
真	-7.53023
赤	-7.53122
之氣	-7.53137
解	-7.53183
章	-7.53226
所以	-7.54013
著	-7.54103
虎	-7.54948
養	-7.56329
故曰	-7.57103
半	-7.57617
之中	-7.57689
教	-7.57844
異	-7.58517
女	-7.58915
莫	-7.5911
要	-7.59267
太	-7.59424
萬物	-7.59692
等	-7.59736
春	-7.59813
鬼	-7.59832
節	-7.59909
亂	-7.6027
遂	-7.60448
汞	-7.61729
滅	-7.62232
肝	-7.62689
傷	-7.63077
五行	-7.63191
聖	-7.63417
腎	-7.63691
宜	-7.63801
之道	-7.64049
積	-7.64185
朝	-7.64477
識	-7.64485
哉	-7.64818
似	-7.64939
且	-7.65085
州	-7.65149
爾	-7.65182
老	-7.65425
手	-7.66034
虛	-7.66366
關	-7.66782
篇	-7.66809
謂之	-7.66881
刺	-7.67211
除	-7.67259
遇	-7.67579
利	-7.67817
衣	-7.67861
苦	-7.67922
鉛	-7.68377
學	-7.68463
義	-7.68492
齊	-7.6862
圖	-7.68689
肺	-7.69005
為	-7.69119
指	-7.69147
固	-7.69212
洞	-7.69228
都	-7.69543
授	-7.69741
民	-7.69999
紫	-7.70173
力	-7.70585
疾	-7.70837
坤	-7.71284
獨	-7.71737
乘	-7.72112
不知	-7.72415
念	-7.72587
卷	-7.72672
卦	-7.72675
首	-7.73049
天下	-7.73157
兵	-7.73307
坐	-7.7403
順	-7.74031
注	-7.74109
寶	-7.74832
海	-7.75283
並	-7.75325
直	-7.75627
信	-7.75716
官	-7.76
鍊	-7.76402
遊	-7.76432
致	-7.76561
制	-7.7676
廣	-7.77227
註	-7.77247
照	-7.77435
旣	-7.77511
屬	-7.7754
由	-7.77858
留	-7.77873
永	-7.78087
語	-7.78704
舉	-7.78708
餘	-7.78731
亡	-7.78946
花	-7.7898
進	-7.79752
夜	-7.80129
痛	-7.80233
愛	-7.8035
惟	-7.80411
脾	-7.80451
馬	-7.81106
加	-7.81214
浮	-7.81358
名曰	-7.81588
却	-7.82522
魂	-7.83329
室	-7.8345
遠	-7.83667
唯	-7.83998
張	-7.84068
味	-7.84768
殺	-7.84875
害	-7.85292
黑	-7.86907
近	-7.86983
逆	-7.871
巳	-7.87142
忘	-7.87381
依	-7.8806
悟	-7.88145
衰	-7.88941
斯	-7.89084
魚	-7.891
勿	-7.89256
感	-7.89333
夏	-7.89418
候	-7.89722
堅	-7.8985
消	-7.89888
士	-7.89902
臨	-7.89957
之所	-7.90023
酒	-7.90629
漢	-7.90921
益	-7.9152
面	-7.91582
根	-7.91618
尋	-7.91814
并	-7.92083
胎	-7.92272
禁	-7.92439
了	-7.92474
凝	-7.92542
輕	-7.92615
府	-7.92704
鼎	-7.92713
共	-7.92727
登	-7.92788
退	-7.93033
秋	-7.93187
畢	-7.93526
宗	-7.93693
幽	-7.94049
母	-7.94422
雨	-7.94582
達	-7.95558
寳	-7.95683
壽	-7.95765
吟	-7.96046
古	-7.96396
太上	-7.96988
己	-7.97429
視	-7.97929
也故	-7.98128
於是	-7.98452
以爲	-7.98481
急	-7.98485
持	-7.98592
李	-7.987
久	-7.98745
斗	-7.9875
損	-7.99065
任	-7.99473
神仙	-7.99754
保	-8.00424
福	-8.00461
覺	-8.00681
强	-8.01085
液	-8.01374
訣	-8.01379
塵	-8.01443
貴	-8.01506
所謂	-8.01709
水火	-8.01967
豈	-8.02122
奉	-8.02198
代	-8.02611
榮	-8.02802
落	-8.03434
肉	-8.03525
閉	-8.03649
執	-8.03668
長生	-8.03767
上下	-8.0405
乾坤	-8.04148
彼	-8.04219
之時	-8.04323
機	-8.04464
布	-8.05176
含	-8.05512
香	-8.05719
素	-8.06011
/○○○○)	-8.06077
智	-8.06099
就	-8.061
切	-8.06331
皇	-8.06482
是也	-8.0686
具	-8.07071
毛	-8.07157
疑	-8.07194
收	-8.0722
裏	-8.07336
稱	-8.07511
到	-8.0768
恐	-8.08114
陳	-8.08194
呼	-8.08367
變化	-8.08596
如此	-8.08614
告	-8.08632
喜	-8.09102
(/	-8.09363
奇	-8.10435
走	-8.10467
對	-8.10506
興	-8.10704
望	-8.10708
坎	-8.10785
被	-8.1086
是謂	-8.10884
路	-8.10925
左右	-8.11064
然後	-8.11076
許	-8.11257
羽	-8.11572
吉	-8.11636
草	-8.11745
武	-8.1231
城	-8.12544
汝	-8.12555
温	-8.13129
每	-8.13496
圓	-8.13569
憂	-8.13679
朱	-8.1382
聖人	-8.13891
閑	-8.14049
中有	-8.14164
冬	-8.14213
父	-8.14361
泄	-8.14364
十五	-8.14552
施	-8.14797
親	-8.14891
返	-8.14979
珠	-8.14985
備	-8.15473
妄	-8.15974
禮	-8.16337
號	-8.16386
造	-8.16596
隂陽	-8.16786
調	-8.17328
金丹	-8.17447
宿	-8.17652
是以	-8.17739
窮	-8.17835
秦	-8.1786
賢	-8.18066
聚	-8.18274
五藏	-8.18513
夢	-8.1876
術	-8.18889
漸	-8.19001
十一	-8.19014
甲	-8.19128
臺	-8.19532
太陽	-8.19555
休	-8.1963
升	-8.19681
而爲	-8.19863
迷	-8.19905
鼻	-8.19993
尚	-8.20081
是爲	-8.20293
源	-8.20603
⬤	-8.20742
舌	-8.2075
質	-8.20786
太一	-8.2098
眼	-8.21017
縣	-8.21089
氏	-8.21332
破	-8.21749
河	-8.219
只	-8.22551
補	-8.22575
爭	-8.22598
期	-8.22667
報	-8.22886
假	-8.22919
司	-8.22924
辰	-8.23055
昔	-8.23232
他	-8.23402
先生	-8.23744
牛	-8.23874
穴	-8.24151
迴	-8.24166
敗	-8.24238
甘	-8.24307
江	-8.24589
聽	-8.24678
請	-8.24714
谷	-8.24728
胃	-8.24775
之後	-8.24791
其氣	-8.24792
之法	-8.24911
艮	-8.24912
魄	-8.25017
鳥	-8.25212
按	-8.25214
器	-8.25338
住	-8.25755
夫人	-8.26094
沉	-8.26111
巽	-8.26401
救	-8.26768
筋	-8.26856
濟	-8.26896
願	-8.27115
十三	-8.27181
曲	-8.27187
尊	-8.27244
魏	-8.27305
容	-8.27361
伐	-8.27512
辛	-8.27736
林	-8.27753
大道	-8.27774
顯	-8.27918
兼	-8.28422
陵	-8.28625
震	-8.28685
宻	-8.28757
刻	-8.28925
驗	-8.29367
愈	-8.29458
業	-8.29933
十四	-8.3001
果	-8.30156
針	-8.3019
再	-8.30863
美	-8.30956
記	-8.30961
人之	-8.31296
斷	-8.31353
混	-8.31375
建	-8.3171
步	-8.31743
看	-8.31854
飲	-8.3194
俗	-8.31963
細	-8.32079
列	-8.32691
客	-8.32796
車	-8.32989
部	-8.33062
祖	-8.33123
想	-8.33467
比	-8.33469
卧	-8.3357
元氣	-8.336
類	-8.3369
而生	-8.33715
黄帝	-8.33724
衛	-8.33881
羅	-8.33984
勞	-8.34007
午	-8.34469
封	-8.34571
孔	-8.34603
辭	-8.34827
十六	-8.3494
移	-8.34957
戒	-8.3519
至于	-8.35318
造化	-8.35667
啓	-8.35678
新	-8.35711
境	-8.36073
而成	-8.36161
腹	-8.36248
劉	-8.3626
龍虎	-8.36303
之上	-8.36307
還丹	-8.36378
忽	-8.36882
太極	-8.36929
盈	-8.37117
循	-8.37177
驚	-8.37254
井	-8.3737
端	-8.37615
剛	-8.37673
二十	-8.37765
生於	-8.37827
陽氣	-8.38036
上清	-8.38304
兮	-8.38317
干	-8.38423
經云	-8.38492
毒	-8.38708
四時	-8.38888
仰	-8.39023
煉	-8.39054
一日	-8.39295
泉	-8.39304
某	-8.39449
歌	-8.39482
放	-8.4014
採	-8.40239
凶	-8.40256
絡	-8.40527
伯	-8.40533
陽明	-8.40738
罪	-8.40795
災	-8.40925
晋	-8.41101
砂	-8.4112
適	-8.41287
二十四	-8.41301
尺	-8.41736
角	-8.41737
寧	-8.41758
葉	-8.41796
之間	-8.41814
兆	-8.41858
寫	-8.41894
厥	-8.41955
乆	-8.42153
誠	-8.42161
鼓	-8.42222
/○○○	-8.42306
回	-8.42366
種	-8.42373
無所	-8.42699
耶	-8.42826
澤	-8.42983
待	-8.43114
露	-8.43246
誰	-8.43286
禍	-8.43851
十八	-8.4387
良	-8.44121
昇	-8.44172
集	-8.44241
房	-8.4431
參	-8.44422
載	-8.44514
逺	-8.44624
爐	-8.44755
三元	-8.45012
申	-8.45034
充	-8.45152
計	-8.45317
患	-8.4532
覆	-8.4542
仁	-8.45469
末	-8.45524
威	-8.45703
軍	-8.45764
濁	-8.45942
不及	-8.46009
爻	-8.46311
詩	-8.46412
危	-8.46493
烏	-8.46728
齋	-8.46821
延	-8.46856
刑	-8.47035
表	-8.47216
遍	-8.47249
天地之	-8.47373
薄	-8.47382
愚	-8.47599
證	-8.47696
梁	-8.47762
縁	-8.47991
尸	-8.47996
姓	-8.48129
釋	-8.48159
舍	-8.48168
早	-8.48273
三十	-8.48434
少陽	-8.4855
而已	-8.48842
蛇	-8.48963
司天	-8.49012
紅	-8.49163
遺	-8.49186
差	-8.49374
寂	-8.49496
録	-8.49857
鳴	-8.49871
佛	-8.49976
紀	-8.50241
/○○○○)(	-8.50295
謝	-8.50357
連	-8.50358
潜	-8.50471
拜	-8.50496
童	-8.50508
煙	-8.5052
太陰	-8.50621
脫	-8.50717
侯	-8.50741
冥	-8.50766
無爲	-8.50884
帶	-8.50964
旦	-8.51048
攝	-8.51191
懷	-8.5137
宣	-8.51506
塞	-8.51541
丁	-8.51566
鳳	-8.5157
御	-8.51608
晨	-8.51623
火候	-8.51699
昏	-8.51932
攻	-8.52077
丘	-8.52125
闕	-8.52538
十七	-8.5265
第二	-8.52942
抱	-8.53155
田	-8.53233
之人	-8.53351
背	-8.53419
令人	-8.53542
樹	-8.53579
棄	-8.53591
笑	-8.5361
師曰	-8.53669
楚	-8.53743
之下	-8.53832
不足	-8.53928
資	-8.54177
勤	-8.54178
商	-8.54452
原	-8.54485
也夫	-8.54533
犯	-8.54646
徃	-8.5482
總	-8.5485
眞氣	-8.54939
道士	-8.55064
瑩	-8.553
越	-8.55388
趙	-8.55511
卒	-8.55564
吴	-8.55754
專	-8.55819
而後	-8.5596
慧	-8.56034
徒	-8.56061
奔	-8.5624
駕	-8.56483
津	-8.56893
之内	-8.56942
冠	-8.56962
條	-8.57062
化爲	-8.571
承	-8.57113
也其	-8.57251
宅	-8.57484
庭	-8.57633
不見	-8.5767
慮	-8.57803
喻	-8.57809
契	-8.57818
推	-8.57941
累	-8.57982
賊	-8.58121
鬱	-8.58135
濕	-8.58183
輪	-8.58374
兔	-8.58542
殊	-8.5855
履	-8.58823
丹田	-8.58835
納	-8.59046
雜	-8.59242
不同	-8.59335
雪	-8.59394
柔	-8.59426
弱	-8.5948
服之	-8.59699
蟲	-8.59737
貪	-8.59899
蒼	-8.59926
三日	-8.59929
里	-8.60088
縱	-8.60107
出入	-8.60163
序	-8.60211
男	-8.60235
垂	-8.60342
皮	-8.60694
吐	-8.60762
犬	-8.60997
敬	-8.61196
之精	-8.61406
碧	-8.61514
超	-8.61517
淫	-8.61522
接	-8.6168
厚	-8.61858
舊	-8.61859
十九	-8.62101
獲	-8.6212
竹	-8.62343
甲子	-8.62348
堂	-8.6237
往	-8.62756
英	-8.62955
昌	-8.62959
謹	-8.63019
經曰	-8.63038
悲	-8.63045
政	-8.63071
逢	-8.63222
人也	-8.63476
庚	-8.63497
之數	-8.63537
少陰	-8.63566
行之	-8.63667
膽	-8.63954
寅	-8.64198
金水	-8.64293
霞	-8.64505
三年	-8.64529
况	-8.64686
一聲	-8.64757
置	-8.65003
父母	-8.65736
暴	-8.65756
三十六	-8.65837
禀	-8.65847
横	-8.66006
得道	-8.66118
龜	-8.66163
審	-8.66296
爲之	-8.66395
孫	-8.6641
丸	-8.66699
君子	-8.66745
冷	-8.66927
謀	-8.67089
穢	-8.67311
腦	-8.67344
孝	-8.67483
野	-8.67521
投	-8.67586
錬	-8.67612
輔	-8.67621
奪	-8.67626
營	-8.67666
生死	-8.67779
歷	-8.67842
淵	-8.67935
□	-8.67958
)(/	-8.68061
將軍	-8.68127
神明	-8.68151
齒	-8.68314
訖	-8.6847
察	-8.68526
泥丸	-8.68529
燥	-8.68591
怒	-8.68719
祕	-8.6883
辰戌	-8.68973
跡	-8.69259
至於	-8.69588
箇	-8.69687
戰	-8.6999
帝君	-8.70006
簡	-8.70207
髮	-8.70359
霜	-8.70482
狀	-8.70486
寄	-8.70685
貫	-8.70742
老君	-8.70943
宰	-8.70992
五色	-8.71033
有所	-8.71439
枯	-8.71464
内外	-8.71518
遷	-8.71529
蒙	-8.71676
徹	-8.71782
宋	-8.7181
汗	-8.71902
奏	-8.71911
第一	-8.71929
折	-8.72178
改	-8.72295
户	-8.72326
衝	-8.72367
腰	-8.72388
品	-8.72625
壯	-8.72628
界	-8.72829
兊	-8.72918
悉	-8.72971
弟子	-8.73096
示	-8.73303
穀	-8.73333
鐵	-8.7337
熟	-8.73426
辰巳	-8.73449
咽	-8.73459
銀	-8.73514
惑	-8.73618
五聲	-8.73636
波	-8.73669
卯	-8.73747
兄	-8.73867
恩	-8.73895
懸	-8.73927
工	-8.74026
郡	-8.74072
泰	-8.74545
精神	-8.74659
忌	-8.74665
者是	-8.74762
潤	-8.75135
映	-8.75167
否	-8.75176
增	-8.75447
黄芽	-8.75468
卿	-8.75535
包	-8.75612
諱	-8.75649
約	-8.75677
第三	-8.75825
迎	-8.75861
五音	-8.76159
最	-8.76225
楊	-8.76293
育	-8.76323
速	-8.76437
三千	-8.76449
務	-8.76465
配	-8.76525
畫	-8.76644
負	-8.76866
才	-8.76973
逐	-8.7717
三聲	-8.77518
神氣	-8.77531
鼠	-8.77804
八聲	-8.77817
獸	-8.77857
一切	-8.77886
十聲	-8.77935
環	-8.7799
産	-8.77996
邊	-8.78445
四聲	-8.78463
畏	-8.78487
一年	-8.78535
晝夜	-8.78586
答	-8.78617
二聲	-8.78733
辯	-8.78801
乙	-8.78934
財	-8.79011
群	-8.7908
九聲	-8.79187
酉	-8.79273
妻	-8.79484
三五	-8.79805
世人	-8.79806
改元	-8.79813
鬼神	-8.79934
九天	-8.79977
仙人	-8.80155
劫	-8.80528
治之	-8.80757
幾	-8.81064
徐	-8.81128
唐	-8.81355
權	-8.81417
魔	-8.81582
鎭	-8.81661
泥	-8.81944
辰申	-8.81944
修行	-8.82047
侍	-8.82067
瓊	-8.82199
亥	-8.82449
辰辰	-8.82576
辰午	-8.82615
召	-8.82767
白虎	-8.82834
友	-8.83045
曉	-8.83195
綱	-8.83218
辰寅	-8.83308
曾	-8.83385
玉女	-8.8347
辰未	-8.83478
仍	-8.83651
愼	-8.83739
詳	-8.83808
余	-8.83838
真人	-8.83847
純	-8.83923
騰	-8.84034
故云	-8.84106
辰子	-8.84265
辰丑	-8.84402
辰亥	-8.84404
辰酉	-8.84406
辰卯	-8.8441
澄	-8.8465
㫖	-8.84668
又曰	-8.84695
煩	-8.84815
學道	-8.84957
人間	-8.85127
管	-8.85218
惠	-8.85283
醉	-8.85338
領	-8.85369
律	-8.85571
乍	-8.85584
雙	-8.85818
偏	-8.85886
而無	-8.85895
酸	-8.8594
竅	-8.86296
敢	-8.86357
短	-8.86591
又云	-8.86646
湯	-8.86688
燒	-8.86693
二十五	-8.86786
滯	-8.86808
祝	-8.86895
隔	-8.86942
胡	-8.87181
其所	-8.87215
中央	-8.8724
潔	-8.87255
設	-8.87545
孤	-8.87551
坎離	-8.87557
雷	-8.87806
没	-8.87912
於此	-8.87939
之事	-8.88045
天之	-8.88115
習	-8.88332
何以	-8.88406
竭	-8.88428
尾	-8.88528
一名	-8.8862
助	-8.88623
漏	-8.88705
青龍	-8.88928
鄭	-8.88935
其數	-8.89119
也若	-8.89155
際	-8.89467
鉛汞	-8.89488
迹	-8.89576
試	-8.896
咸	-8.89862
在泉	-8.90079
入于	-8.90101
緩	-8.90143
先天	-8.90172
哀	-8.90177
秀	-8.90187
魯	-8.90391
翼	-8.90402
廢	-8.90456
答曰	-8.90505
岳	-8.90553
之日	-8.90618
丹砂	-8.90619
髓	-8.90637
把	-8.9087
傾	-8.9106
停	-8.91094
帥	-8.911
妾	-8.91137
儀	-8.91272
一寸	-8.91374
誦	-8.91514
送	-8.91601
顧	-8.91613
底	-8.91635
决	-8.91651
不死	-8.917
霍	-8.91748
金液	-8.91883
丑	-8.91898
康	-8.91921
默	-8.91949
水銀	-8.92061
曜	-8.92087
夷	-8.92243
仲	-8.92258
二音	-8.92376
之山	-8.92441
季	-8.92528
陰氣	-8.92553
嬰兒	-8.92714
捨	-8.92854
五臟	-8.92929
索	-8.93478
繼	-8.93725
屋	-8.93762
八音	-8.93794
狂	-8.9382
嚥	-8.93883
如是	-8.93911
貞	-8.93979
遣	-8.94047
膝	-8.94086
欠	-8.94169
東方	-8.94299
癸	-8.94349
川	-8.94426
掌	-8.94442
亦有	-8.94445
喪	-8.9459
壇	-8.94672
沐浴	-8.94969
九音	-8.9498
招	-8.94981
量	-8.95139
吞	-8.95222
附	-8.95286
十一音	-8.95309
知其	-8.95338
其神	-8.95352
五十	-8.95483
四十	-8.95564
暗	-8.95625
繫	-8.9563
拔	-8.95849
六音	-8.95861
各有	-8.95871
池	-8.95987
辟	-8.96154
慈	-8.96199
違	-8.96233
不用	-8.96474
佐	-8.96537
松	-8.9657
岐伯曰	-8.9663
俞	-8.96632
四音	-8.96641
燕	-8.96709
有餘	-8.96844
問曰	-8.96849
錯	-8.9688
道德	-8.96894
十音	-8.96928
一音	-8.97025
七音	-8.9713
徑	-8.97164
不敢	-8.97197
借	-8.97208
扶	-8.97362
十二音	-8.97375
擊	-8.9749
霄	-8.97512
膀胱	-8.97514
夕	-8.97759
其中	-8.97784
用之	-8.9801
據	-8.98126
者皆	-8.98152
三音	-8.98178
昧	-8.98469
呼吸	-8.98495
允	-8.98547
頂	-8.9856
純陽	-8.98566
旋	-8.98634
北斗	-8.98639
暮	-8.98755
勢	-8.98791
支	-8.98798
刀	-8.98802
禪	-8.9884
七日	-8.98861
精氣	-8.98867
其道	-8.98974
一月	-8.99018
幸	-8.99044
鏡	-8.99137
魂魄	-8.9918
十月	-8.99297
鶴	-8.9933
第五	-8.9951
韓	-8.9959
六甲	-8.99621
厥陰	-8.99669
乞	-8.99684
市	-8.99796
無窮	-8.99814
出於	-8.99827
免	-8.99847
讀	-9.00027
恒	-9.00033
西方	-9.00035
述	-9.00054
太素	-9.00205
是故	-9.00336
考	-9.00413
略	-9.00423
淨	-9.00614
灌	-9.00695
弦	-9.00706
逸	-9.00727
弟	-9.00872
溢	-9.00979
北方	-9.00985
嘗	-9.01017
性命	-9.01045
昭	-9.0128
之士	-9.01286
即是	-9.01308
項	-9.01417
炎	-9.01533
八卦	-9.01567
亦不	-9.01636
丙	-9.01791
傍	-9.0197
新校正云詳	-9.02155
貧	-9.02396
芝	-9.02409
殿	-9.02646
如何	-9.02668
慶	-9.02699
呪	-9.02728
統	-9.02999
屈	-9.03032
何也	-9.03303
枝	-9.03312
克	-9.03416
二千二百	-9.03639
粉	-9.03727
避	-9.03748
則爲	-9.03802
之理	-9.03862
寸	-9.0392
草木	-9.03971
虧	-9.03972
託	-9.04004
詣	-9.04045
脚	-9.04587
況	-9.04617
科	-9.04721
透	-9.04732
兒	-9.04909
句	-9.05031
六十	-9.05163
者爲	-9.05195
道之	-9.05197
課	-9.05232
朗	-9.05273
戊	-9.05279
鹹	-9.05361
嘉	-9.05372
游	-9.05382
頓	-9.05402
之外	-9.05449
牙	-9.0547
南方	-9.05485
二十一	-9.05505
者謂	-9.05677
晝	-9.05729
委	-9.05751
新校正云按	-9.05798
顔	-9.05809
之功	-9.05877
籙	-9.0588
歟	-9.0591
一人	-9.06129
不動	-9.06245
𣈆	-9.06324
偶	-9.06464
之脉	-9.06496
不離	-9.06528
苟	-9.06765
占	-9.07114
盤	-9.07129
特	-9.07147
予	-9.07242
至道	-9.07472
眉	-9.075
揚	-9.07902
一氣	-9.0808
巨	-9.08113
希	-9.08145
誤	-9.08175
基	-9.08469
印	-9.08563
痹	-9.08641
舒	-9.08845
郎	-9.08953
不通	-9.09204
之妙	-9.09437
滋	-9.09823
也此	-9.09878
宇	-9.09989
崇	-9.10016
鄉	-9.10085
現	-9.10362
樞	-9.10392
亘	-9.10683
賜	-9.10707
黄庭	-9.10894
校	-9.11025
嬰	-9.1103
緑	-9.1106
披	-9.11094
佳	-9.11107
忠	-9.11262
護	-9.11395
道者	-9.11396
不生	-9.11409
之用	-9.11685
逰	-9.11718
嚴	-9.11764
叔	-9.11801
拘	-9.12037
貌	-9.12183
九轉	-9.12212
此是	-9.12217
太平	-9.12217
邪氣	-9.12223
學者	-9.12283
標	-9.12475
儒	-9.12493
彌	-9.12517
翠	-9.12525
沖	-9.12705
影	-9.13016
壞	-9.13025
大丹	-9.13043
太過	-9.13235
不復	-9.13317
策	-9.1356
禄	-9.13585
陶	-9.13634
而有	-9.13784
入於	-9.13869
沙	-9.13895
蜀	-9.13941
竟	-9.13959
減	-9.13976
滑	-9.13988
無形	-9.14295
動靜	-9.14306
沈	-9.14773
此法	-9.14822
津液	-9.14994
射	-9.1508
一斤	-9.15113
上元	-9.15182
者何也	-9.15265
樓	-9.15285
萬里	-9.15305
婦	-9.15326
冰	-9.15561
籍	-9.15658
血氣	-9.15689
病者	-9.15837
二十二	-9.15877
觸	-9.15887
密	-9.15911
千里	-9.16028
二十八	-9.16116
徵	-9.16132
四象	-9.1614
役	-9.16183
其名曰	-9.16238
司命	-9.16275
一陽	-9.16306
追	-9.16316
二十三	-9.16481
腸	-9.16755
吸	-9.16953
乳	-9.17043
肩	-9.17044
四日	-9.17099
莊	-9.17283
耀	-9.17349
蕩	-9.17436
自有	-9.17555
吕	-9.17716
也又	-9.17767
秘	-9.17779
洪	-9.17872
太清	-9.1797
一身	-9.17984
絳	-9.18017
凉	-9.18085
摩	-9.1818
蒸	-9.18194
怪	-9.18212
妖	-9.18239
飲食	-9.18476
懼	-9.18567
階	-9.18982
暑	-9.1903
世間	-9.19061
在於	-9.19243
彰	-9.19338
錦	-9.19347
遲	-9.19441
子曰	-9.1956
富	-9.19621
盜	-9.19732
號曰	-9.19784
雄	-9.2002
起於	-9.2037
故能	-9.20465
佩	-9.20509
三才	-9.20561
之道也	-9.20588
混沌	-9.20591
冬至	-9.20593
五日	-9.20722
長史	-9.20724
一百	-9.2077
融	-9.20942
壬	-9.20966
黄帝曰	-9.21207
之位	-9.2132
巧	-9.21373
逍遥	-9.21395
戌	-9.216
暉	-9.21792
寒熱	-9.21933
歩	-9.22009
淺	-9.22125
防	-9.22129
兹	-9.22199
臭	-9.22216
天氣	-9.22442
研	-9.22521
洛	-9.22528
桃	-9.22542
尚書	-9.22555
衆生	-9.22616
不相	-9.22617
躁	-9.22642
四方	-9.22727
氣也	-9.22729
一時	-9.22797
胞	-9.22948
圍	-9.22952
百日	-9.22981
服氣	-9.23009
腫	-9.23017
得其	-9.23188
吹	-9.23268
羊	-9.23367
乖	-9.23445
灾	-9.23487
旬	-9.23546
維	-9.2367
付	-9.23683
限	-9.23805
僧	-9.23841
第四	-9.24206
其形	-9.24225
淳	-9.24252
明堂	-9.24264
往來	-9.24313
脅	-9.24327
慾	-9.2436
無不	-9.24394
流珠	-9.24482
三月	-9.24532
天尊	-9.24562
博	-9.24621
馳	-9.24662
奈何	-9.24793
个	-9.24822
其身	-9.2493
吏	-9.24951
葛	-9.25026
陸	-9.25029
尤	-9.25051
之物	-9.25321
不可以	-9.25368
分明	-9.25372
多少	-9.25378
像	-9.25402
其病	-9.25405
錢	-9.25477
豐	-9.25528
爲一	-9.25566
寒暑	-9.2567
三焦	-9.2584
荒	-9.2586
緫	-9.25902
困	-9.25932
小腸	-9.26003
二氣	-9.26188
元君	-9.26251
寢	-9.26284
童子	-9.2664
莫不	-9.26642
口訣	-9.26688
歡	-9.26759
殃	-9.26772
三陽	-9.26828
第六	-9.26838
庶	-9.26855
暢	-9.26931
二十七	-9.26967
於人	-9.27
桑	-9.27163
侵	-9.27189
妻子	-9.27202
身中	-9.27259
二十六	-9.2728
堪	-9.27509
誅	-9.27536
振	-9.27538
棲	-9.27611
三界	-9.27692
霧	-9.27704
帝曰	-9.27792
柳	-9.27985
常以	-9.2801
彭	-9.28246
以成	-9.28382
爲陽	-9.28462
互	-9.28542
所生	-9.28579
其心	-9.28809
銅	-9.2886
談	-9.28936
中宫	-9.29166
使人	-9.29228
響	-9.29237
禹	-9.29406
不出	-9.29581
道也	-9.29587
導	-9.29629
夭	-9.29767
日中	-9.29773
后	-9.29855
名爲	-9.29996
取之	-9.30175
鹽	-9.30189
灰	-9.30218
太玄	-9.30344
故爲	-9.30462
祥	-9.30474
三百	-9.30508
杜	-9.30626
典	-9.30639
之象	-9.30734
不利	-9.30808
也然	-9.30943
祝曰	-9.31021
之初	-9.31035
郭	-9.31038
洗	-9.3108
側	-9.31083
怨	-9.31085
五帝	-9.31103
劒	-9.31143
女子	-9.31476
鮮	-9.31506
虚無	-9.31629
晦	-9.31662
廉	-9.31688
猛	-9.31923
水中	-9.31983
則氣	-9.32214
天符	-9.32399
在上	-9.324
倒	-9.3241
得之	-9.32531
五味	-9.32633
所在	-9.32711
之神	-9.32749
三十二	-9.32938
合於	-9.32939
見之	-9.33207
舟	-9.33276
不過	-9.33293
者必	-9.33307
溺	-9.33337
大腸	-9.33361
私	-9.33362
有一	-9.33465
覩	-9.33759
言之	-9.33819
食之	-9.341
責	-9.34175
汁	-9.3422
三一	-9.34222
畜	-9.34225
皆有	-9.3428
大小	-9.3445
弗	-9.34521
捻	-9.34562
臂	-9.34681
省	-9.34682
人身	-9.34687
輿	-9.34699
毁	-9.34735
殘	-9.34738
生氣	-9.34774
史	-9.34919
有三	-9.34924
紙	-9.35162
天師	-9.35166
議	-9.35182
銖	-9.35203
之本	-9.35218
皮膚	-9.35237
富貴	-9.35417
幻	-9.35469
添	-9.35529
焚	-9.35566
慕	-9.35569
崩	-9.35604
涉	-9.35649
男女	-9.3575
黄金	-9.35808
一曰	-9.35945
邑	-9.36069
在乎	-9.36072
溪	-9.36101
此道	-9.36106
光明	-9.36182
剋	-9.36295
六氣	-9.36377
人有	-9.36652
般	-9.3666
太白	-9.36751
十日	-9.36887
染	-9.36936
賞	-9.37024
賔	-9.37034
枕	-9.37048
鑒	-9.37054
妃	-9.37055
以其	-9.37138
上昇	-9.37297
者則	-9.37358
輝	-9.37361
戲	-9.37501
乗	-9.3751
格	-9.37515
五星	-9.37522
着	-9.37567
善惡	-9.37603
進退	-9.37679
以此	-9.37838
六府	-9.37855
朔	-9.37896
鐘	-9.37967
爽	-9.38021
上有	-9.38114
未嘗	-9.38161
之前	-9.38196
京	-9.3823
清淨	-9.38242
老子	-9.38242
不爲	-9.38263
而去	-9.38302
胎息	-9.38324
無極	-9.38356
知之	-9.38359
飽	-9.38386
陰陽之	-9.3847
道君	-9.38505
天眞	-9.38566
之術	-9.38604
厭	-9.38653
魁	-9.38804
玉清	-9.38819
稍	-9.38956
一本	-9.39085
鍾	-9.39203
消息	-9.39252
驅	-9.39269
頃	-9.39378
羣	-9.39394
奚	-9.39402
憑	-9.39418
浪	-9.3942
醫	-9.3949
亦可	-9.39708
丈	-9.3973
均	-9.39848
萌	-9.39869
勸	-9.39878
穿	-9.39907
悅	-9.39908
愁	-9.39943
二十九	-9.3995
▁(	-9.40076
抑	-9.4008
華池	-9.40082
無常	-9.4009
工夫	-9.40163
鎮	-9.40272
亦無	-9.40275
太虚	-9.40304
伸	-9.40347
題	-9.4037
率	-9.4038
惜	-9.40388
蔽	-9.408
則有	-9.40861
纔	-9.40884
戊己	-9.40885
前後	-9.40936
此之謂也	-9.40968
第	-9.41038
相合	-9.41201
渾	-9.41316
孟	-9.41389
五嶽	-9.41483
焦	-9.41536
天道	-9.41557
庚申	-9.4187
監	-9.41871
何謂	-9.4214
釜	-9.42201
恭	-9.42303
活	-9.42326
爲陰	-9.42334
阿	-9.42346
杖	-9.42361
二年	-9.42424
五氣	-9.42433
三尸	-9.4245
可得	-9.42686
點	-9.42722
塗	-9.42774
朱雀	-9.42784
祭	-9.42843
蔵	-9.42905
卯酉	-9.43199
九宫	-9.43373
途	-9.43398
太隂	-9.43484
萬物之	-9.43564
之類	-9.43646
鹿	-9.43701
廟	-9.43756
者即	-9.43799
不行	-9.43813
眞一	-9.43827
元始	-9.4383
頗	-9.43849
必有	-9.43875
筆	-9.43883
其人	-9.44157
蕭	-9.44307
恍惚	-9.44359
究	-9.44388
胷	-9.4439
脊	-9.44394
唱	-9.44405
見其	-9.44492
七十	-9.4451
雞	-9.44611
是非	-9.44646
中元	-9.44829
不欲	-9.44972
之際	-9.44998
三十日	-9.45002
主之	-9.45023
二百	-9.45043
又有	-9.45115
蘇	-9.45325
軒	-9.45372
下降	-9.45536
經脉	-9.45556
甲午	-9.45576
翁	-9.45594
三分	-9.45602
歎	-9.45886
瑞	-9.45892
辨	-9.45915
也今	-9.46177
今日	-9.4636
宴	-9.46368
桂	-9.46436
八月	-9.46438
無有	-9.46459
那	-9.46512
之說	-9.46513
河車	-9.46518
之要	-9.46519
測	-9.46619
汗出	-9.46644
鷄	-9.46683
葬	-9.46858
輒	-9.46902
訪	-9.46928
效	-9.46938
激	-9.46944
之始	-9.47042
男坎	-9.471
心審	-9.47229
弘	-9.47331
烈	-9.47341
巾	-9.47426
白氣	-9.47426
化生	-9.47435
牢	-9.47449
烹	-9.47492
刀早孝	-9.47539
牛斗奏	-9.47544
老君曰	-9.47561
禾火化八	-9.47564
龍甬用	-9.47572
其脉	-9.47602
飢	-9.47769
故也	-9.47793
騎	-9.47952
龜水貴	-9.48105
正月	-9.48152
少隂	-9.48212
便是	-9.48258
尅	-9.48258
手足	-9.48272
爲相	-9.48303
終始	-9.48437
也言	-9.48474
須臾	-9.48474
巖	-9.48493
不成	-9.48513
也帝曰	-9.48561
七星	-9.48576
千典	-9.48671
丁井	-9.48674
撰	-9.48725
一一	-9.48731
獻	-9.48967
斬	-9.48983
多可	-9.4905
爛	-9.49052
疏	-9.49063
五分	-9.49194
左手	-9.49205
豈不	-9.49248
一兩	-9.49249
病在	-9.49399
煥	-9.49509
壁	-9.4951
煑	-9.49511
神丹	-9.49511
遁	-9.49512
姹女	-9.49533
繞	-9.49547
燭	-9.49559
第七	-9.49873
而出	-9.49898
良兩	-9.49938
僞	-9.49958
古人	-9.49959
爲人	-9.49985
繁	-9.50061
再拜	-9.5009
答云	-9.50105
喉	-9.50127
夜半	-9.50161
職	-9.50162
金運	-9.50314
三寸	-9.50339
涼	-9.50427
衡	-9.50559
煎	-9.50638
天上	-9.50716
風雨	-9.50741
之體	-9.50807
孰	-9.50839
回每	-9.50843
之宫	-9.50854
逃	-9.5114
導引	-9.51195
抽	-9.5121
相應	-9.5122
之性	-9.51241
喘	-9.51242
舞	-9.51253
姑	-9.51615
茂	-9.51654
晩	-9.51682
小人	-9.51697
診	-9.51746
萬神	-9.51955
藥物	-9.52221
謁	-9.52268
翻	-9.52289
不在	-9.52381
之義	-9.52501
升降	-9.52508
掩	-9.52777
耗	-9.52788
踈	-9.52799
囊	-9.52802
六月	-9.52864
氣之	-9.52893
六合	-9.53019
臍	-9.53234
肥	-9.53277
洞房	-9.53284
詞	-9.53329
席	-9.53387
欺	-9.53401
墮	-9.53402
椎	-9.53429
可謂	-9.535
東南	-9.53505
西北	-9.53555
十里曰	-9.53587
夫婦	-9.5361
若不	-9.53625
刺之	-9.53666
崑崙	-9.53838
疫	-9.54013
漿	-9.54306
罷	-9.54432
盟	-9.5446
岀	-9.5447
謙	-9.54471
茅	-9.54629
長安	-9.54884
判	-9.55001
泣	-9.55041
蘭	-9.55085
十二月	-9.55145
三百六十	-9.55273
不明	-9.55338
咎	-9.55412
修鍊	-9.55492
陷者中	-9.55597
玄珠	-9.55608
競	-9.55636
瀉	-9.55652
位也	-9.55687
閉氣	-9.55736
者以	-9.55793
二千一百	-9.55799
二者	-9.55841
諸侯	-9.55866
者有	-9.55874
太微	-9.56007
尹	-9.56027
珍	-9.56128
不言	-9.56132
琴	-9.5617
寡	-9.56195
趣	-9.56215
徳	-9.56256
天下之	-9.56288
若有	-9.56314
天門	-9.56401
生成	-9.56403
矣故	-9.56417
天關	-9.56477
者乃	-9.56538
由是	-9.56603
竊	-9.56673
効	-9.56726
睡	-9.5676
不必	-9.56767
甲寅	-9.56849
二分	-9.56929
十年	-9.57033
百年	-9.57065
崔	-9.57209
勑	-9.57243
者其	-9.57275
眠	-9.57285
東北	-9.5733
周天	-9.57371
輩	-9.57385
地氣	-9.57564
兩傍	-9.57588
卑	-9.57821
狐	-9.57843
吾之	-9.57932
然而	-9.58166
者非	-9.58187
餌	-9.58248
穆	-9.5839
不失	-9.58393
厄	-9.58409
岸	-9.5841
肅	-9.58439
芳	-9.58457
一物	-9.58464
費	-9.58482
曰吾	-9.58491
赤氣	-9.58653
對化	-9.58653
絳宫	-9.5876
鼎器	-9.58779
肘	-9.58917
雌	-9.58933
戴	-9.58949
耳目	-9.59012
八十	-9.59014
神室	-9.5902
鸞	-9.59021
毫	-9.59038
劔	-9.59042
園	-9.59069
儉	-9.59088
虞	-9.591
元年	-9.59153
而行	-9.59218
之門	-9.59271
之處	-9.59433
芒	-9.59523
絲	-9.596
演	-9.59615
在人	-9.59856
之歲	-9.60037
山中	-9.60088
曹	-9.60093
民病	-9.60149
墓	-9.60214
式	-9.60227
大夫	-9.60235
亭	-9.60266
濡	-9.60279
則神	-9.60288
東西	-9.60366
上應	-9.6065
足太陽	-9.6076
普	-9.60791
僕	-9.60804
金石	-9.60814
檢	-9.60823
握固	-9.60862
敵	-9.60868
淡	-9.60873
之謂也	-9.60896
謬	-9.61432
之炁	-9.61438
膏	-9.61442
桓	-9.61494
咳	-9.6152
之源	-9.61606
賤	-9.61619
而死	-9.61761
金精	-9.61773
常存	-9.61879
脩	-9.61891
正一	-9.61908
孔子	-9.61916
筭	-9.61938
甲申	-9.61947
携	-9.61995
暖	-9.62032
覓	-9.62071
矣夫	-9.62124
其間	-9.62181
子孫	-9.62311
上帝	-9.62321
洞天	-9.62402
死生	-9.62404
之地	-9.62534
右手	-9.62546
嶽	-9.62566
於外	-9.62568
修道	-9.6258
擣	-9.62611
凌	-9.62633
暫	-9.62638
吉凶	-9.62713
玄元	-9.62785
正化	-9.62928
不已	-9.6294
四肢	-9.62981
覽	-9.62989
寇	-9.63036
得一	-9.63062
二寸	-9.63068
西南	-9.63102
族	-9.63179
植	-9.63225
漱	-9.63227
埋	-9.63233
大藥	-9.63262
軀	-9.63279
炭	-9.6329
君曰	-9.63297
其名	-9.6353
延年	-9.63548
眞君	-9.63815
嘔	-9.63839
這	-9.63857
唾	-9.639
則無	-9.63944
始於	-9.63965
九月	-9.64004
鼎中	-9.64091
八景	-9.64135
其事	-9.64176
不應	-9.64189
三光	-9.6435
脹	-9.64373
太虛	-9.64392
醮	-9.64434
翳	-9.64439
换	-9.64448
灸	-9.64452
讓	-9.64458
乙丑	-9.64485
燈	-9.64487
缺	-9.64521
之大	-9.64546
柱	-9.64555
朴	-9.6456
天子	-9.64768
易曰	-9.64798
者亦	-9.64849
二物	-9.64855
辱	-9.65026
麗	-9.6505
冀	-9.65069
玉皇	-9.65074
遭	-9.65087
革	-9.65102
拂	-9.65104
下見	-9.65116
泛	-9.6513
億	-9.65131
紫陽	-9.653
何謂也	-9.65308
彩	-9.65318
腎氣	-9.65331
至此	-9.6535
始生	-9.65482
下元	-9.65508
摇	-9.65556
不以	-9.65586
之形	-9.65662
渴	-9.65663
髪	-9.65701
詔	-9.65704
頸	-9.65705
唇	-9.65722
鬲	-9.65744
三清	-9.65761
一點	-9.65786
义赤	-9.65829
坼丑	-9.6583
黄華雄賢	-9.65837
五瓦仰	-9.65841
吾牙月堯	-9.65843
安亞乙一	-9.65847
内南年	-9.65848
走哉足	-9.65849
老冷吕	-9.6585
近揆	-9.6585
自在匠	-9.65851
普朴品匹	-9.65853
同覃田	-9.65853
乃妳女	-9.65855
旁排平瓶	-9.65855
陷	-9.65862
父凡吠	-9.65865
寺象	-9.65876
崇辰	-9.65876
頌	-9.65897
腹中	-9.6598
卓中	-9.66017
甲乙	-9.66145
堯夫	-9.66184
堯	-9.66248
之謂	-9.66326
遥	-9.66327
焕	-9.66352
足陽明	-9.66365
肌肉	-9.66371
古甲九癸	-9.66448
曹才全	-9.66469
草采七	-9.66478
鹿犖离	-9.66478
東丹帝	-9.66478
母馬美米	-9.66482
莊震	-9.66482
卜百丙必	-9.66485
爻王寅	-9.66485
夫法飛	-9.66491
非是	-9.66494
宅直	-9.6658
是知	-9.66616
時人	-9.66667
也即	-9.66694
山川	-9.66736
認	-9.66755
飛仙	-9.66827
山手	-9.66947
鈆	-9.66952
墨	-9.67022
掾	-9.6703
减	-9.6704
清靜	-9.67095
思三星	-9.671
天機	-9.671
步白備鼻	-9.67121
於心	-9.67376
之狀	-9.67471
剛柔	-9.67497
十五日	-9.67554
水穀	-9.67556
濇	-9.67557
不勝	-9.67578
神水	-9.67605
綿綿	-9.67632
隆	-9.67636
鈎	-9.67718
茶呈	-9.67726
太和	-9.67728
黑花香血	-9.67729
乾虯	-9.67732
文万未	-9.67758
目貌眉民	-9.67758
於天	-9.68009
四海	-9.68017
在下	-9.68174
芽	-9.6818
本無	-9.68228
單	-9.68242
打	-9.68245
兌	-9.68262
電	-9.68271
閣	-9.68276
無事	-9.68333
甲戌	-9.68354
水運	-9.68371
東海	-9.68419
於地	-9.68539
萬象	-9.68596
火運	-9.68775
握	-9.6881
八十一	-9.68841
苗	-9.6887
規	-9.6887
錫	-9.68876
動而	-9.6889
金木	-9.69018
域	-9.69267
金玉	-9.69296
斤	-9.69364
新校正云按甲乙經	-9.69366
故言	-9.69384
論曰	-9.69457
座	-9.69534
倍	-9.69546
而能	-9.69567
不然	-9.69867
之根	-9.69914
養生	-9.6994
正氣	-9.69949
敷	-9.70183
操	-9.70198
癸亥	-9.70199
五神	-9.7021
材	-9.7022
倚	-9.70226
縮	-9.70241
飯	-9.70293
金闕	-9.70312
坤巧丘弃	-9.70332
長存	-9.70336
子午	-9.70431
疾病	-9.7044
木運	-9.70449
未有	-9.70452
參同契	-9.7058
閉目	-9.70626
其性	-9.707
何處	-9.70735
古今	-9.70773
徴	-9.70798
舜	-9.7081
能知	-9.70855
帛	-9.70889
或曰	-9.70901
粗	-9.70913
宫中	-9.71024
口中	-9.71247
一歲	-9.71362
此二	-9.71365
士石	-9.71436
後聖	-9.71461
上天	-9.71473
巡	-9.71479
提	-9.71483
甚則	-9.71493
經辰之	-9.715
殆	-9.71501
孕	-9.71527
擾	-9.7154
厲	-9.71544
頻	-9.71574
弄	-9.71586
戊寅	-9.71601
武晩尾	-9.71663
丁卯	-9.71663
偃	-9.71832
成丹	-9.71911
續	-9.71914
煩惱	-9.72005
失其	-9.72033
麻	-9.72191
弊	-9.72207
丙寅	-9.7222
鄰	-9.72233
之主	-9.7225
饑	-9.72273
上古	-9.72306
名山	-9.72308
四十九	-9.72426
心中	-9.72427
而不知	-9.72513
華蓋	-9.72526
聞之	-9.72702
血脉	-9.72721
琅	-9.72821
網	-9.72857
搏	-9.72878
妙用	-9.72888
戊午	-9.72907
修眞	-9.72951
世之	-9.72998
瘧	-9.73007
朱砂	-9.73021
而得	-9.73056
至人	-9.73108
金花	-9.73183
癸酉	-9.73251
自己	-9.73255
冲	-9.73324
人生	-9.73354
於内	-9.73463
篤	-9.73516
誓	-9.73573
戊申	-9.73635
寸口	-9.73817
上眞	-9.73869
曰此	-9.73877
九十	-9.73933
廬	-9.73948
壬子	-9.74094
皇帝	-9.74149
乙卯	-9.74223
赤子	-9.74226
捉	-9.74251
古之	-9.74264
庚子	-9.74285
取其	-9.74382
故以	-9.74389
中見	-9.74419
七十二	-9.74671
變爲	-9.74739
鴻	-9.7485
併	-9.74862
快	-9.74871
悔	-9.74891
擇	-9.74907
冒	-9.74938
焰	-9.74962
三皇	-9.74972
九年	-9.74983
良久	-9.75048
皆是	-9.75063
何如	-9.75114
十方	-9.75195
以應	-9.75263
人物	-9.75283
人皆	-9.75283
者不	-9.75323
盛則	-9.75368
人心	-9.75391
羲	-9.75422
戊辰	-9.75568
窺	-9.75572
米	-9.7558
磨	-9.75628
戀	-9.75668
丁巳	-9.75833
不入	-9.75883
庚辰	-9.76087
二人	-9.76142
叩齒	-9.76244
呵	-9.76263
忍	-9.76291
給	-9.76317
括	-9.76353
如前	-9.76396
三官	-9.76415
於中	-9.76433
元神	-9.76454
壬申	-9.76467
神光	-9.76471
榮衛	-9.76492
靈寶	-9.766
十有二	-9.76628
之氣也	-9.76667
四支	-9.76713
魏公	-9.76716
九竅	-9.76721
神靈	-9.76783
身心	-9.76818
第十	-9.76855
雲母	-9.76868
爲道	-9.76894
盧	-9.76907
麤	-9.76926
水之	-9.76932
館	-9.76962
雀	-9.76995
牽	-9.77008
循環	-9.77035
希夷	-9.77062
之象也	-9.77073
春秋	-9.77105
者乎	-9.77246
後聖君	-9.77351
兩手	-9.77459
五行之	-9.77482
司馬	-9.775
罰	-9.7756
男子	-9.7765
然則	-9.77654
弓	-9.77659
靖	-9.77681
乙酉	-9.77685
鑄	-9.77701
不如	-9.77734
迫	-9.77747
㑹	-9.77768
戒不得	-9.77882
修之	-9.77979
眞仙	-9.77983
中間	-9.78006
於身	-9.78112
而止	-9.78123
名也	-9.78173
百里	-9.78176
使者	-9.7823
飄	-9.78351
素問	-9.78399
相交	-9.78411
若能	-9.78565
之方	-9.78579
入室	-9.78615
倫	-9.78619
相生	-9.78703
上行	-9.78764
叛	-9.7892
亦是	-9.79029
祐	-9.79029
三千六百	-9.79031
勿令	-9.79059
丙戌	-9.7906
五穀	-9.79064
祠	-9.7907
係	-9.79084
嶺	-9.79109
蓬萊	-9.79116
橋	-9.79118
雖有	-9.79137
排	-9.79137
叅	-9.79142
痿	-9.79147
墜	-9.79165
勇	-9.7921
百九	-9.7921
有大	-9.79422
寒氣	-9.79513
言其	-9.79514
之變	-9.79563
其色	-9.79583
通於	-9.79668
百六	-9.79678
介	-9.7978
不息	-9.79784
預	-9.7981
揺	-9.79814
存思	-9.79824
慢	-9.79827
奥	-9.79842
卵	-9.79852
恨	-9.79853
程	-9.79855
有道	-9.79974
喜怒	-9.79981
陰符	-9.80061
三十一	-9.80089
乙未	-9.80122
君臣	-9.80227
成數	-9.80451
眞鉛	-9.80473
之名	-9.80527
纏	-9.80543
逼	-9.80559
彈	-9.80563
丙午	-9.80599
髙	-9.80602
顛倒	-9.80602
眀	-9.8062
燒香	-9.80632
丁亥	-9.80646
用事	-9.80697
己未	-9.80708
公子	-9.80777
戊子	-9.80868
頌曰	-9.80923
交合	-9.80979
神也	-9.81045
三十九	-9.81068
百病	-9.81075
旱	-9.81096
不散	-9.81157
詠	-9.81158
碎	-9.81315
辛酉	-9.81326
悶	-9.81336
己卯	-9.8134
庚午	-9.81346
功成	-9.81394
乙亥	-9.81397
荆	-9.81426
玄武	-9.81456
礙	-9.81633
或有	-9.8173
其精	-9.81815
罔	-9.81922
未得	-9.81936
侣	-9.81964
二月	-9.81964
匿	-9.81989
奕	-9.8199
牀	-9.81993
鎖	-9.82023
之分	-9.82024
爍	-9.82052
輸	-9.82084
甲辰	-9.82103
日夜	-9.82133
𩲸	-9.82143
之府	-9.82148
玄牝	-9.82185
日月之	-9.82386
白日	-9.82499
主人	-9.82551
俠	-9.8265
無名	-9.82654
淪	-9.82688
瘡	-9.82743
棗	-9.82746
低	-9.82749
赴	-9.82784
己丑	-9.82825
白金	-9.82839
十里	-9.8294
焉其	-9.83028
獄	-9.83038
三十五	-9.83085
五百	-9.83086
火氣	-9.83116
太上老君	-9.83175
功德	-9.83254
十餘	-9.83322
凡人	-9.8339
三十四	-9.83408
分别	-9.83456
赫	-9.83477
劎	-9.83478
飾	-9.83497
巢	-9.8351
郷	-9.83514
沸	-9.83532
人能	-9.83542
丁酉	-9.8355
梵	-9.83596
太子	-9.83609
玉液	-9.83623
三十三	-9.83685
也是以	-9.83716
筋骨	-9.83738
或作	-9.83804
丁未	-9.83908
丙辰	-9.83962
肯	-9.84076
蜜	-9.84109
曠	-9.84114
甫	-9.84219
八百	-9.8422
鍼	-9.84221
禽	-9.84231
癸丑	-9.84243
翔	-9.8425
運行	-9.84269
我身	-9.84272
言語	-9.8428
丙申	-9.84281
生化	-9.84283
智慧	-9.84332
與人	-9.84333
乃得	-9.84427
辛巳	-9.84467
己巳	-9.84471
生于	-9.84515
壬午	-9.84543
二八	-9.84576
辛亥	-9.84596
農	-9.84596
徃來	-9.84655
八日	-9.84668
按之	-9.84789
狀如	-9.84848
屯	-9.84883
(/○○○	-9.84918
卜	-9.84947
躍	-9.84989
刀圭	-9.85003
訓	-9.85013
趨	-9.85019
庚寅	-9.85057
鑿	-9.85057
夏至	-9.8528
未能	-9.85284
因縁	-9.85297
有二	-9.85316
丹成	-9.8539
徙	-9.85472
黄氣	-9.85498
此皆	-9.855
隂年	-9.85684
禦	-9.85716
耕	-9.85756
其狀如	-9.85778
肌	-9.85793
癸巳	-9.85859
晴	-9.85876
辛卯	-9.85885
而至	-9.85932
一體	-9.85999
而復	-9.86069
仙官	-9.86094
使之	-9.86222
門户	-9.86223
内觀	-9.86263
丙子	-9.86285
服食	-9.86369
祈	-9.86505
自生	-9.86508
壬寅	-9.86581
鋒	-9.86599
股	-9.86608
之言	-9.86632
脇	-9.8666
躡	-9.86705
之令	-9.86719
千萬	-9.8674
足少陽	-9.86753
千日	-9.86832
刺可入同身寸之	-9.86922
庵	-9.86949
後人	-9.86967
四季	-9.87014
無心	-9.87176
守一	-9.87233
案	-9.87246
火之	-9.87281
相見	-9.87282
三者	-9.87288
殷	-9.87288
有人	-9.87311
曆	-9.87313
盖	-9.87328
團	-9.87346
夫子	-9.87364
徧	-9.87376
丙丁	-9.87376
此乃	-9.87382
院	-9.87384
壬辰	-9.87392
涕	-9.87392
通神	-9.87398
乙巳	-9.87409
宋朝	-9.87469
已上	-9.87509
辰星	-9.87509
有形	-9.87593
三遍	-9.87684
三宫	-9.87769
可見	-9.87812
訣曰	-9.87936
昇天	-9.87944
心爲	-9.8796
浩	-9.87982
之至	-9.87982
生也	-9.88018
賦	-9.88092
峯	-9.88111
竈	-9.88121
準	-9.88146
三氣	-9.88282
不聞	-9.88314
在于	-9.88371
欲得	-9.88389
器中	-9.88461
陽生	-9.88461
能生	-9.88481
而下	-9.88615
不覺	-9.88626
經世之	-9.88722
十一月	-9.88727
行人	-9.88778
鱗	-9.88807
障	-9.88823
闔	-9.88824
不食	-9.88838
七月	-9.88847
寐	-9.88854
險	-9.88908
神名	-9.88908
己亥	-9.88915
伴	-9.88952
己酉	-9.89058
三天	-9.89115
人事	-9.89217
動則	-9.8924
第八	-9.89259
數十	-9.89315
物之	-9.89331
熒惑	-9.89458
百七	-9.89463
見於	-9.89482
土運	-9.8954
緯	-9.89582
雅	-9.8964
壬戌	-9.89677
的	-9.89686
束	-9.89721
眩	-9.89744
三關	-9.89765
空中	-9.89778
集賢	-9.89802
皆以	-9.89813
陽也	-9.89828
山在	-9.89883
也凡	-9.89884
一分	-9.89893
四月	-9.89988
視之	-9.90024
辛丑	-9.90031
辛未	-9.90043
在心	-9.90128
有無	-9.90147
和合	-9.90278
歸於	-9.9028
稽	-9.90292
補之	-9.90301
虚空	-9.9038
靡	-9.90469
刃	-9.90479
祟	-9.905
郞	-9.90511
擬	-9.90519
之心	-9.9056
之月	-9.90568
梅	-9.90583
丁丑	-9.90618
第九	-9.9063
度支	-9.90651
腸胃	-9.90652
成都	-9.90655
胸	-9.90663
有五	-9.90753
以明	-9.90794
虚實	-9.91117
者何	-9.91151
九日	-9.91152
王母	-9.91191
五月	-9.91253
數也	-9.91264
戊戌	-9.9128
賜緋魚袋	-9.91285
張君房集	-9.9129
叙	-9.91299
零	-9.91317
經絡	-9.91321
矜	-9.91332
寬	-9.9134
緊	-9.91352
神人	-9.91364
竒	-9.91382
仕	-9.9139
成矣	-9.91396
衛氣	-9.91401
晚	-9.91418
陽年	-9.91482
仁義	-9.91526
凝結	-9.91539
不止	-9.91633
勝則	-9.91681
虚則	-9.91682
别有	-9.91701
俟	-9.91808
以養	-9.91952
蔡	-9.91995
此書	-9.92003
戎	-9.92021
隅	-9.92043
牧	-9.92055
瑶	-9.92064
垢	-9.92072
相去	-9.92073
矣此	-9.92078
莫能	-9.92083
員外郎	-9.92107
泯	-9.92111
内丹	-9.92115
癸卯	-9.92123
腐	-9.92128
銜	-9.92135
銷	-9.92151
贈	-9.92184
之意	-9.92197
癸未	-9.92203
注云	-9.92231
萬事	-9.92241
土貪天	-9.92249
不安	-9.92356
譬	-9.92658
金鼎	-9.92752
例	-9.92813
東向	-9.92868
之機	-9.92882
其一	-9.92882
嗣	-9.9292
擒	-9.92971
話	-9.92982
此爲	-9.92987
膺	-9.92988
流注	-9.93304
心不	-9.9338
高下	-9.93466
皓	-9.93493
進火	-9.93497
之子	-9.93586
馮	-9.93673
與天地	-9.93728
朋	-9.9375
厥隂	-9.93776
瞻	-9.93799
神通	-9.93811
非有	-9.9384
氣逆	-9.93937
表裏	-9.93939
自在	-9.94253
襄	-9.943
抵	-9.94308
之首	-9.94358
流行	-9.94403
安得	-9.94427
其中有	-9.94536
誘	-9.94558
离	-9.9456
庚戌	-9.94573
噫	-9.94577
嗟	-9.94584
健	-9.94584
壅	-9.94601
生焉	-9.94621
愆	-9.94651
肆	-9.94671
壺	-9.94716
極則	-9.9485
百八	-9.94852
禾	-9.94871
人所	-9.94923
無以	-9.95119
不信	-9.95135
聖人之	-9.95285
脂	-9.95304
虛無	-9.9534
熙	-9.95345
崖	-9.95382
割	-9.95385
探	-9.95407
復有	-9.95428
襲	-9.95441
寓	-9.95444
闇	-9.95444
遐	-9.95448
奈何岐伯曰	-9.95471
此言	-9.95504
咽液	-9.95508
殻	-9.95509
本來	-9.95516
氣者	-9.95516
五年	-9.95523
無所不	-9.95574
五寸	-9.95612
云何	-9.95612
死者	-9.95642
命門	-9.95671
之候	-9.95681
則傷	-9.95771
壬癸	-9.9586
其德	-9.95947
求之	-9.95995
得仙	-9.9615
浴	-9.96229
天人	-9.96231
賈	-9.96239
挺	-9.96242
千年	-9.96258
訟	-9.96266
闊	-9.9629
俯	-9.9629
掛	-9.96312
掃	-9.96338
木也	-9.96349
不須	-9.96369
邈	-9.96427
爲主	-9.96549
河圖	-9.96561
云云	-9.96562
日用	-9.96589
東華	-9.96605
/○○○○)(/	-9.96678
洞玄	-9.96747
觀之	-9.96774
解曰	-9.96787
仙道	-9.96802
其二	-9.96828
天心	-9.96841
者蓋	-9.96883
所居	-9.96898
情性	-9.9692
八方	-9.96925
其用	-9.96954
之徒	-9.96966
百二	-9.96969
盛衰	-9.96971
銘	-9.97003
緒	-9.97131
百神	-9.97169
日日	-9.97195
蟾	-9.97238
南北	-9.97413
少商	-9.97455
陰也	-9.97525
混合	-9.97772
終日	-9.97813
曰我	-9.9785
從此	-9.97912
勃	-9.97924
淮南	-9.97931
其功	-9.97949
範	-9.97969
削	-9.97981
捕	-9.97984
促	-9.98014
抽添	-9.98036
晏	-9.98048
八節	-9.9818
故知	-9.98219
周流	-9.98284
骨髓	-9.98334
亦如	-9.98339
禹歩	-9.98444
湖	-9.98568
和氣	-9.98634
有功	-9.98804
展	-9.98813
又東	-9.98819
以至	-9.98855
闢	-9.98858
滎	-9.98868
瘦	-9.98869
亨	-9.98872
滓	-9.98874
奢	-9.98936
饒	-9.98962
百五	-9.98989
四十五	-9.9899
智者	-9.99062
不至	-9.99082
之㫖	-9.99086
時有	-9.99121
此經	-9.99215
洲	-9.9927
白雪	-9.99276
洛陽	-9.99297
金華	-9.99306
賢者	-9.99395
白雲	-9.99449
六十四	-9.99486
及其	-9.99554
筮	-9.99564
之化	-9.99652
征	-9.99706
滌	-9.99725
剥	-9.99755
太徵	-9.99787
居之	-9.99832
亦然	-9.99841
之情	-9.99992
陽火	-10.0007
紫微	-10.0008
精思	-10.0016
心心	-10.0017
好道	-10.002
也金	-10.002
秋冬	-10.0035
其位	-10.0038
自是	-10.0046
所出	-10.005
其上	-10.0051
敦	-10.0053
系	-10.0059
丈人	-10.0066
成形	-10.0078
也此課	-10.0082
蓮	-10.0087
高上	-10.0102
堯夫非是愛吟詩堯夫非是愛吟詩詩是	-10.0112
故名	-10.0119
諸天	-10.012
當以	-10.012
金火	-10.0125
北極	-10.0142
不識	-10.0146
一千二百	-10.0147
黍	-10.0149
練	-10.015
范	-10.0151
銳	-10.0152
傷於	-10.0152
峰	-10.0153
怠	-10.0153
享	-10.0153
純陽子曰	-10.0154
道成	-10.0154
採藥	-10.0155
做	-10.0157
合而	-10.0168
拙	-10.0169
心者	-10.0169
萬法	-10.0173
四兩	-10.0188
至眞	-10.0198
道人	-10.0201
而反	-10.0202
眞人曰	-10.0206
少腹	-10.0209
埃	-10.0213
牝	-10.0227
其時	-10.0228
朽	-10.0228
飛行	-10.023
旁	-10.023
之用也	-10.0233
觀其	-10.0235
窟	-10.0239
踵	-10.024
賴	-10.0245
栖	-10.0247
療	-10.0247
恬	-10.025
秉	-10.025
黃	-10.0259
無方	-10.0259
尸解	-10.0261
故不	-10.0271
百姓	-10.0273
不肯	-10.0274
至藥	-10.0278
此三	-10.0301
與天	-10.0305
不絶	-10.0305
人迎	-10.0306
二兩	-10.0312
四十八	-10.0316
伊	-10.0321
摧	-10.0331
曰夫	-10.0333
生萬物	-10.0334
同身寸之一寸	-10.0336
以道	-10.0355
,	-10.0355
聖賢	-10.0359
元陽	-10.0359
齋戒	-10.036
玉京	-10.0362
章第十	-10.0378
風化	-10.0389
雖然	-10.0394
吾身	-10.0396
䧟	-10.0408
三魂	-10.0408
此卦	-10.0411
帝王	-10.0417
傅	-10.0421
渠	-10.0425
谿	-10.0426
猿	-10.0426
藉	-10.0427
仲尼	-10.0429
故有	-10.0435
兌大弟	-10.0437
其實	-10.0441
何爲	-10.0447
下有	-10.0454
也非	-10.0461
何所	-10.0467
運火	-10.0472
三十七	-10.0474
者所以	-10.0481
不受	-10.0491
足以	-10.0507
冝	-10.0512
齡	-10.0515
郊	-10.0515
完	-10.0516
上升	-10.0516
喫	-10.0518
窗	-10.052
值	-10.0521
亦得	-10.0524
杳冥	-10.0524
譽	-10.0525
依前	-10.0539
者死	-10.0551
行於	-10.0556
水水	-10.0559
平旦	-10.0567
分爲	-10.0569
祖師	-10.0569
而不能	-10.0573
衍	-10.0575
之數也	-10.0584
一千五百	-10.0585
保命	-10.0596
乃可	-10.06
黑氣	-10.06
毋	-10.0601
船	-10.0603
巴	-10.0605
逾	-10.0608
姤	-10.0609
元精	-10.0611
五藏六府	-10.0616
七祖	-10.0616
宇宙	-10.0618
思慮	-10.064
元炁	-10.0641
上士	-10.0643
三田	-10.065
鼎内	-10.0656
應之	-10.0661
蓬	-10.0674
行氣	-10.0681
丹陽	-10.0684
淮	-10.0692
百四	-10.0695
眞火	-10.0697
莖	-10.0699
托	-10.0705
稽首	-10.0705
歛	-10.0705
湘	-10.0705
二十八宿	-10.0705
整	-10.0707
鄙	-10.0707
拒	-10.0709
二日	-10.0724
手陽明	-10.0733
武帝	-10.0737
庚辛	-10.0738
衆人	-10.0744
太空	-10.0745
天帝	-10.0747
伏火	-10.0748
非常	-10.0754
口吐	-10.076
金也	-10.0761
四十四	-10.0761
祀	-10.0798
氷	-10.0801
扇	-10.0805
軟	-10.0809
百三	-10.0814
六十卦	-10.0817
配合	-10.082
自此	-10.0829
火也	-10.083
至精	-10.0833
中部	-10.0848
不可得	-10.086
者當	-10.0873
物外	-10.0873
者先	-10.0879
以致	-10.0881
嘯	-10.0888
漫	-10.0894
法象	-10.0894
編	-10.0895
發於	-10.0895
胷中	-10.0895
藴	-10.0896
賓	-10.0896
膚	-10.0899
恃	-10.09
徐徐	-10.0901
通靈	-10.0902
熱病	-10.0917
由此	-10.0917
百脉	-10.0929
少角	-10.0935
大將軍	-10.094
三十八	-10.0941
則不	-10.0944
出于	-10.0953
氣海	-10.0956
流通	-10.0957
凈	-10.0963
不知其	-10.0979
百一	-10.0983
寥	-10.0987
變而	-10.0987
玩	-10.0989
魅	-10.0991
浸	-10.0993
歳	-10.0993
驕	-10.0994
韻	-10.0998
吐納	-10.1004
下臨	-10.1004
何者	-10.1004
則知	-10.1005
月中	-10.1006
三千五百	-10.1017
三兩	-10.102
一陰	-10.1025
其化	-10.1028
藏府	-10.1029
温養	-10.1031
上陽子曰	-10.1051
山林	-10.1054
晶	-10.1059
日出	-10.1061
聖胎	-10.1063
裴	-10.1065
聲色	-10.1068
豆	-10.1072
湛	-10.1074
乃是	-10.1078
唤	-10.1085
恣	-10.1087
勝復	-10.1088
討	-10.109
徘徊	-10.109
傳於	-10.1091
築	-10.1093
明月	-10.1096
千九百	-10.11
囚	-10.11
形神	-10.1102
玄妙	-10.1104
之端	-10.1107
頭上	-10.1108
始終	-10.1108
可不	-10.111
甲乙經	-10.1118
以意	-10.1124
倦	-10.1128
之所以	-10.1132
失守	-10.1145
其法	-10.116
無知	-10.1162
一息	-10.1171
當時	-10.1173
南極	-10.1176
也故曰	-10.1176
鈴	-10.1178
癡	-10.1191
癰	-10.1192
裂	-10.1195
溲	-10.1199
水出焉	-10.1199
去其	-10.1203
譬如	-10.1208
則病	-10.121
閉塞	-10.121
一本作	-10.1215
生數	-10.1216
以生	-10.1218
一千三百	-10.1235
混元	-10.1241
七返	-10.1248
六日	-10.126
月之	-10.1263
福地	-10.1264
是一藥	-10.1269
授以	-10.1271
上見	-10.1272
可知	-10.1273
豫	-10.1276
叩	-10.1278
而不可	-10.1279
是一病	-10.1286
狗	-10.1287
問云何是道笑指	-10.129
用也	-10.129
爵	-10.1291
詐	-10.1293
璧	-10.1293
疲	-10.1295
若夫	-10.1297
相得	-10.1297
四大	-10.1299
君火	-10.1301
以來	-10.1311
天生	-10.1311
九氣	-10.1313
不悟	-10.1314
氣不足	-10.1314
於道	-10.1315
老子曰	-10.1316
愼之	-10.1321
生而	-10.1321
終於	-10.1323
運用	-10.1329
爲水	-10.1331
守眞	-10.1348
神神	-10.135
微妙	-10.1366
匪	-10.1383
筌	-10.1389
准	-10.1389
誕	-10.1389
宛	-10.1394
餐	-10.1398
小便	-10.1398
腠理	-10.1403
藏於	-10.1405
調和	-10.1406
或以	-10.1415
合德	-10.1415
太角	-10.1415
固濟	-10.142
焉故	-10.142
左足	-10.1423
鎮星	-10.1426
人人	-10.1427
方寸	-10.1427
顔色	-10.1427
形體	-10.1429
太陽之	-10.1433
二千五百	-10.1439
五金	-10.1439
歌曰	-10.1445
足少陰	-10.1459
則生	-10.1461
虛空	-10.1469
之經	-10.147
必先	-10.1477
冢	-10.1486
相傳	-10.1486
遵	-10.1487
亢	-10.1489
脛	-10.1489
攪	-10.1491
渡	-10.1492
姦	-10.1493
析	-10.1495
一千四百	-10.1496
在天	-10.1501
而入	-10.1506
因而	-10.1509
紛	-10.151
一千八百	-10.1514
而行之	-10.1518
卒子	-10.1525
或問	-10.1536
王氏	-10.1538
若是	-10.1539
上仙	-10.154
未知	-10.1542
春夏	-10.1549
心神	-10.1551
也蓋	-10.1555
無復	-10.1555
呪曰	-10.156
四十三	-10.1561
天有	-10.1571
方知	-10.1577
清濁	-10.1579
欣	-10.1585
天綱	-10.1589
受氣	-10.1593
粟	-10.1595
誡	-10.1597
綿	-10.1599
俄	-10.16
乏	-10.1601
雌雄	-10.1601
元陽子曰	-10.1605
默默	-10.1607
相通	-10.1608
勝之	-10.1608
寅申	-10.161
四者	-10.1617
學仙	-10.1624
四十一	-10.163
六十日	-10.1635
心痛	-10.1639
腎之	-10.1648
離宫	-10.1653
爪	-10.1657
存神	-10.1661
即得	-10.1664
化氣	-10.167
同身寸之	-10.1678
受之	-10.1683
萬化	-10.1686
二千四百	-10.1687
戾	-10.1697
三千七百	-10.1701
呈	-10.1701
㝠	-10.1703
氣爲	-10.1704
瞑目	-10.1704
棊	-10.1714
存之	-10.1717
不定	-10.1718
修丹	-10.1723
胃氣	-10.1731
其下	-10.1733
愼勿	-10.1735
肝氣	-10.1735
太初	-10.1737
殺之	-10.1744
三千二百	-10.1745
其本	-10.1749
若無	-10.1754
其日	-10.1756
本命	-10.1757
水也	-10.1763
玄眞	-10.1769
赤色	-10.1771
其中多	-10.1775
眞汞	-10.1778
人面	-10.179
貨	-10.1792
七八	-10.1792
函	-10.1795
三人	-10.18
顛	-10.18
燔	-10.1803
成功	-10.1805
𤣥	-10.1805
焚香	-10.1807
五十五	-10.1808
於上	-10.1808
嘆	-10.1809
拳	-10.181
湧	-10.1815
第三十	-10.1822
姓名	-10.1824
亦非	-10.1825
何云	-10.1835
一旦	-10.1838
者謂之	-10.1839
手太陰	-10.1842
不是	-10.1844
金銀	-10.1845
發生	-10.1847
文王	-10.1849
有此	-10.1852
上皇	-10.1856
各一	-10.186
子時	-10.1874
未始	-10.1875
病也	-10.1885
命曰	-10.1889
熱則	-10.1891
杯	-10.1904
忽然	-10.1906
駐	-10.1909
眄	-10.191
旺	-10.1911
轡	-10.1911
逝	-10.1911
灑	-10.1912
買	-10.1915
後世	-10.1916
陽精	-10.1917
篆	-10.1917
燦	-10.1918
四十二	-10.1918
眇	-10.192
凡事	-10.1922
周易	-10.1923
二千八百	-10.1933
其次	-10.1938
下手	-10.1939
日行	-10.1941
變易	-10.1943
之德	-10.1944
雄黄	-10.1945
一千七百	-10.1955
度世	-10.1969
以手	-10.1987
三千四百	-10.1998
五方	-10.2005
清氣	-10.201
三千三百	-10.2011
頑	-10.2012
籠	-10.2018
跨	-10.2018
勁	-10.2018
繩	-10.2021
灼	-10.2021
撓	-10.2021
妨	-10.2021
黨	-10.2022
治病	-10.2023
擁	-10.2023
攀	-10.2025
成道	-10.2039
歸于	-10.204
六爻	-10.2041
陰生	-10.2053
二曰	-10.2054
一千六百	-10.2055
字道	-10.2056
知此	-10.2058
凡此	-10.206
相似	-10.2063
不與	-10.2068
其餘	-10.2068
長短	-10.207
百事	-10.2074
者歟	-10.2078
形容	-10.208
五運	-10.2081
不宜	-10.2087
九九	-10.2088
人情	-10.2093
九星	-10.2094
而長	-10.2098
寫之	-10.21
二千三百	-10.211
飮	-10.2111
太守	-10.2115
國之	-10.2116
軌	-10.2118
潭	-10.2118
紐	-10.2124
之聲	-10.2124
匠	-10.2125
賣	-10.2125
也且	-10.2127
村	-10.2131
黎	-10.2132
會稽	-10.2136
哭	-10.2137
嚥之	-10.2138
大指	-10.2146
法也	-10.2149
四千二百	-10.2152
内踝	-10.2153
眞誥	-10.2154
不祥	-10.2156
其情	-10.2156
右遷	-10.2159
中黄	-10.2161
二千六百	-10.2163
火火	-10.2174
於肺	-10.2177
於世	-10.2181
三陰	-10.2184
二千七百	-10.2187
金金	-10.2196
曰子	-10.2205
與道	-10.2208
每日	-10.2212
坎中	-10.2215
一者	-10.2215
之官	-10.2216
豁	-10.2219
嗜	-10.2224
揆	-10.2225
揮	-10.2226
局	-10.2231
窒	-10.2232
華陽	-10.2233
蒲	-10.2235
三千八百	-10.2235
耽	-10.2236
頥	-10.2238
暇	-10.2239
污	-10.224
凋	-10.2242
峻	-10.2243
稀	-10.2246
皮毛	-10.2247
麥	-10.2249
有時	-10.2253
十分	-10.2257
也經云	-10.2259
則死	-10.2261
其志	-10.2266
當其	-10.227
二千九百	-10.2278
一卷	-10.2282
其眞	-10.2284
北向	-10.2292
之義也	-10.2302
四千一百	-10.2304
生者	-10.2307
常行	-10.2316
直符	-10.2321
三尺	-10.2322
其意	-10.2324
八兩	-10.2325
後天	-10.2327
物物	-10.2331
下部	-10.2338
大如	-10.2339
其理	-10.2344
之時也	-10.2345
勾	-10.2346
替	-10.2346
擲	-10.2348
縛	-10.2348
衢	-10.2353
得此	-10.2353
五藏之	-10.2354
講	-10.2356
明矣	-10.2359
所言	-10.2361
三千九百	-10.2372
此即	-10.2378
一千一百	-10.2386
隂功	-10.2392
片	-10.2397
逆順	-10.2402
矣其	-10.2404
夫妻	-10.241
咽之	-10.2414
太帝	-10.2415
口舌	-10.2424
皆得	-10.244
生滅	-10.244
之液	-10.244
養神	-10.2446
者也故	-10.2446
少氣	-10.2446
四寸	-10.2447
從來	-10.2447
歇	-10.2451
員	-10.2457
昊	-10.246
昨	-10.2462
一二	-10.2462
盲	-10.2463
賁	-10.2464
播	-10.2464
菜	-10.2464
雍	-10.2465
西王母	-10.2465
枉	-10.2466
氣候	-10.2466
蹻	-10.2467
釣	-10.2468
晦朔	-10.247
他人	-10.2471
何如岐伯曰	-10.2472
微祝曰	-10.2472
身體	-10.2474
之病	-10.2476
故聖人	-10.2476
只是	-10.2476
土也	-10.248
四十六	-10.2481
湛然	-10.2482
三部	-10.2484
歲會	-10.2488
之運	-10.2489
守之	-10.2494
六分	-10.2495
眞精	-10.2495
手少陽	-10.2498
相須	-10.2502
思之	-10.2504
四面	-10.2523
之會	-10.2529
時時	-10.2536
地獄	-10.2537
下弦	-10.2542
氣化	-10.2545
一十二	-10.2549
出世	-10.2549
諭	-10.2567
冤	-10.2568
醜	-10.2569
鄕	-10.257
皇極經世	-10.257
之卦	-10.2573
䟽	-10.2574
漠	-10.2576
奸	-10.2576
又以	-10.2577
填	-10.2577
爲火	-10.2577
頰	-10.2577
茶	-10.2578
爲用	-10.2579
蘂	-10.2579
洩	-10.2579
翫	-10.2579
功滿	-10.2582
相隨	-10.2596
故得	-10.26
之書	-10.2606
日精	-10.2611
玄關	-10.2613
萬人	-10.2613
三百里	-10.2616
無他	-10.2616
之紀	-10.2624
兄弟	-10.2626
性也	-10.2627
眞空	-10.263
得長生	-10.2631
爲本	-10.2643
陰精	-10.2647
穀氣	-10.265
丈夫	-10.265
有四	-10.2657
二儀	-10.266
聦	-10.2669
也腎	-10.2672
赤龍	-10.2676
而言之	-10.2677
養性	-10.2679
麟	-10.2685
此時	-10.2686
製	-10.2688
心主	-10.269
翕	-10.269
選	-10.269
床	-10.2691
金剛	-10.2691
阻	-10.2692
欽	-10.2693
少陽相火	-10.2694
歲星	-10.2694
諧	-10.2695
奴	-10.2698
互相	-10.27
清風	-10.2711
氣盛	-10.2718
觀物	-10.2733
五彩	-10.274
中出	-10.2741
不合	-10.2745
上弦	-10.275
亦猶	-10.2763
故謂之	-10.2767
頭痛	-10.2771
一炁	-10.2772
今在	-10.2773
瓶	-10.2774
不妄	-10.2774
言曰	-10.2775
五千	-10.2788
自得	-10.279
名字	-10.2794
常在	-10.2799
扣	-10.2799
迅	-10.28
茯苓	-10.2803
老人	-10.2804
剖	-10.2805
肌膚	-10.2805
沃	-10.2805
倉	-10.2809
疝	-10.2811
裙	-10.2811
挾	-10.2811
也岐伯曰	-10.2812
假令	-10.2816
地户	-10.2816
青童	-10.2816
内有	-10.2817
相連	-10.2832
)(/○○○	-10.2833
合于	-10.2833
終不	-10.2834
平氣	-10.2838
其外	-10.284
或爲	-10.2846
入山	-10.2853
十二時	-10.2854
而求	-10.2861
浮沉	-10.2869
百歲	-10.2872
其義	-10.2873
萬靈	-10.2877
修身	-10.2882
三三	-10.2882
對曰	-10.289
其象	-10.2898
廓	-10.2903
之色	-10.2904
山上	-10.2909
濤	-10.2917
濯	-10.2917
斧	-10.292
屑	-10.2924
溜	-10.2924
揖	-10.2926
王君	-10.2927
如人	-10.2927
逮	-10.2928
額	-10.2929
突	-10.293
旅	-10.2931
遯	-10.2932
勉	-10.2932
其陽	-10.2934
之教	-10.2935
結於	-10.2938
一法	-10.2938
喘息	-10.295
秋分	-10.2951
而上	-10.2953
腰痛	-10.2957
應乎	-10.2964
三過	-10.2968
與我	-10.2968
玉童	-10.2969
北帝	-10.2969
此人	-10.297
久久	-10.2972
安能	-10.2977
所爲	-10.2985
於物	-10.2986
勿食	-10.2987
靜室	-10.2987
當是	-10.2991
玉帝	-10.2991
三四	-10.2992
不起	-10.2999
乾之	-10.2999
歩綱	-10.3004
爲大	-10.3009
氣血	-10.3014
以自	-10.3019
存亡	-10.3021
枚	-10.3024
青氣	-10.3026
怡	-10.3028
濛	-10.3028
更無	-10.303
其體	-10.3034
願聞	-10.304
矯	-10.3043
氣交	-10.3044
竿	-10.3044
撫	-10.3045
憶	-10.3046
憎	-10.3047
有九	-10.3049
踏	-10.3051
屈伸	-10.3052
存想	-10.3052
縱横	-10.3054
鬢	-10.3054
出焉	-10.3055
心氣	-10.3055
濫	-10.3057
書云	-10.3066
不修	-10.3068
共成	-10.307
圓明	-10.307
順行	-10.3075
六丁	-10.3082
四年	-10.3094
七年	-10.3098
出其	-10.3111
成眞	-10.3113
使我	-10.3114
也吾	-10.3117
於腎	-10.3119
傳授	-10.3128
𩔖	-10.3139
此謂	-10.3139
養之	-10.3146
吿	-10.3152
臟	-10.3152
山下	-10.3153
牒	-10.3154
也所謂	-10.3154
胸中	-10.3156
溟	-10.3157
禱	-10.3158
熾	-10.316
隱書	-10.316
閭	-10.3161
漆	-10.3162
月華	-10.3163
洞周迴	-10.3163
料	-10.3165
此一	-10.3165
厨	-10.3167
中國	-10.3174
功曹	-10.3178
此其	-10.3178
長久	-10.3178
口鼻	-10.3182
傳之	-10.3182
太宫	-10.3184
形骸	-10.3186
願聞其	-10.3195
黑鉛	-10.3207
心存	-10.3224
千一百	-10.3226
人知	-10.3227
長春	-10.3228
堅固	-10.3229
者也夫	-10.3236
九六	-10.3237
神化	-10.3242
金氣	-10.3243
玄冥	-10.3246
金砂	-10.3252
其變	-10.3253
三曰	-10.3253
手太陽	-10.3255
木之	-10.3261
陰陽相	-10.3263
骸	-10.3263
方可	-10.3272
聾	-10.3273
俾	-10.3275
其運	-10.3278
金公	-10.3278
六年	-10.3279
漬	-10.3279
新校正云詳此	-10.328
帖	-10.328
絡脉	-10.3281
庸	-10.3281
不解	-10.3282
矢	-10.3283
繡	-10.3284
栢	-10.3286
毎	-10.3288
蓍	-10.3289
雲牙子曰	-10.3294
在左	-10.3297
制伏	-10.3298
良乆	-10.33
皆爲	-10.3306
一粒	-10.3313
結成	-10.3314
之患	-10.3324
所求	-10.3329
反覆	-10.3334
萬劫	-10.3338
上聖	-10.3339
之正	-10.3342
玄黄	-10.3345
氣氣	-10.3354
玉晨	-10.3357
人自	-10.3364
也所以	-10.3365
爲金	-10.3367
父子	-10.3369
不自	-10.3371
其三	-10.3372
化成	-10.338
功夫	-10.3381
成也	-10.3391
文武	-10.3392
者多	-10.3394
乃生	-10.3396
長生不死	-10.3397
至妙	-10.3397
箕	-10.3397
采	-10.34
狼	-10.3402
者言	-10.3402
森	-10.3408
匝	-10.341
蹤	-10.3411
捐	-10.3411
潰	-10.3412
冶	-10.3412
缺盆	-10.3412
囂	-10.3413
地紀	-10.3417
金液還丹	-10.3418
忙	-10.3419
火燒	-10.3426
入水	-10.3429
一周	-10.3432
紫雲	-10.3433
交媾	-10.3437
大洞	-10.3438
所得	-10.345
未至	-10.3451
而自	-10.3457
後來	-10.3461
不休	-10.3462
藏之	-10.3463
而知	-10.3467
金爲	-10.3476
紫房	-10.3487
採取	-10.3509
天柱	-10.3509
董	-10.3521
構	-10.3524
匡	-10.3524
自然之	-10.3524
層	-10.3529
只在	-10.353
嘘	-10.353
屍	-10.3531
南嶽	-10.3531
世上	-10.3533
飈	-10.3534
黄婆	-10.3534
纖	-10.3536
屏	-10.3537
躬	-10.3537
廣成子	-10.3538
蓄	-10.3541
醒	-10.3547
下丹田	-10.3547
嗜欲	-10.3552
重陽	-10.3554
人以	-10.3556
臍下	-10.3559
文字	-10.3566
者何也答曰	-10.357
遠近	-10.3576
穴也在	-10.3578
稱帝	-10.3578
太羽	-10.3579
督脉	-10.3582
此則	-10.3583
三洞	-10.3588
此章	-10.3595
此所謂	-10.3595
居中	-10.36
制之	-10.36
光照	-10.3603
而起	-10.3604
配衣	-10.3613
也於是	-10.3614
卓	-10.3615
聰	-10.3627
内氣	-10.3633
安靜	-10.3636
楊君	-10.3638
之祖	-10.3643
風從	-10.3645
坦	-10.3652
寺	-10.3652
精華	-10.3654
軒轅	-10.3654
垣	-10.3656
侮	-10.3656
墟	-10.3658
霸	-10.366
遽	-10.3663
簫	-10.3663
漁	-10.3665
山澤	-10.3666
謾	-10.3667
周而復始	-10.3668
丹元	-10.3673
一般	-10.3674
俯仰	-10.3674
之母	-10.3689
無憂	-10.369
也謂	-10.3697
非眞	-10.3702
第一百	-10.3705
一云	-10.3716
砂汞	-10.3722
有疾	-10.373
法師	-10.3731
以求	-10.3731
左右手	-10.3732
閉息	-10.3737
少羽	-10.3738
生神	-10.3741
色青	-10.3743
而變	-10.3746
陽中	-10.3747
街	-10.3748
石室	-10.3751
柄	-10.3753
刺可入同身寸之三分	-10.3754
亦名	-10.3757
次第	-10.376
有獸焉其狀如	-10.3761
四分	-10.3766
少宫	-10.3769
未見	-10.377
不失其	-10.3778
叟	-10.378
夾	-10.3781
豪	-10.3782
若見	-10.3784
漸漸	-10.3785
涸	-10.3787
之宗	-10.3788
捧	-10.3788
腕	-10.3789
太始	-10.3789
箭	-10.3789
薰	-10.3791
坑	-10.3792
鮑	-10.3794
用心	-10.3794
欲知	-10.3798
盃	-10.3808
道家	-10.3809
無益	-10.3809
不去	-10.3811
綱紀	-10.3812
丗	-10.3812
顏云	-10.3814
天仙	-10.3817
調之	-10.3818
不盡	-10.3825
歸一	-10.3834
神農	-10.3839
運轉	-10.384
先須	-10.3849
所勝	-10.3853
之藥	-10.3856
數百	-10.3861
生人	-10.3867
隂陽之	-10.3869
其内	-10.3869
可使	-10.3874
飲酒	-10.3874
金汞	-10.3881
道無	-10.3897
救人	-10.3904
韋	-10.391
曰道	-10.3914
陣	-10.3917
叩齒九通	-10.3918
足太陰	-10.3919
迸	-10.3923
治在	-10.3923
在此	-10.3926
動也	-10.3927
則不能	-10.3928
造化之	-10.3929
腧	-10.3929
之極	-10.393
焉夫	-10.3931
丹經	-10.3933
而言	-10.3935
吏兵	-10.394
紫金	-10.394
禍福	-10.3941
豈有	-10.3947
其說	-10.3947
之訣	-10.3949
混成	-10.3954
四十七	-10.3961
方諸	-10.3971
仙問	-10.3972
實則	-10.398
大神	-10.398
不求	-10.3987
更相	-10.3989
星辰	-10.3991
八風	-10.3992
至矣	-10.3994
清虚	-10.3998
七元	-10.4004
死矣	-10.4006
無上	-10.4007
不知所	-10.401
朝元	-10.4011
傳曰	-10.4016
而終	-10.4017
巫	-10.4019
不化	-10.4023
婦人	-10.4028
昴	-10.4042
蠻	-10.4044
瀆	-10.4044
區	-10.4044
丞相	-10.4044
帀	-10.4048
伺	-10.4048
祚	-10.4049
形如	-10.405
澗	-10.405
欻	-10.4051
妹	-10.4051
韜	-10.4052
鑑	-10.4052
撥	-10.4054
清虛	-10.4055
較	-10.4055
事皆	-10.4055
瓦	-10.4056
若灸者可灸三壯	-10.4056
抱一	-10.4059
溝	-10.4061
玄門	-10.4061
師云	-10.4065
裳	-10.4066
何人	-10.4067
豈能	-10.4069
不遇	-10.4069
立春	-10.4072
是以聖人	-10.4074
也是故	-10.408
也復詢	-10.4084
也黄帝曰	-10.4088
之策	-10.4094
之中有	-10.4094
既濟	-10.4095
將欲	-10.4098
八石	-10.41
又西	-10.4101
一作	-10.4107
養氣	-10.4109
右足	-10.4109
庵曰	-10.411
訖即	-10.4119
五十一	-10.412
天皇	-10.412
人民	-10.4129
入道	-10.4132
五十二	-10.414
洞中	-10.4148
書曰	-10.415
若得	-10.415
身熱	-10.4151
運氣	-10.4151
跪	-10.4167
之文	-10.4169
稷	-10.4171
神鬼	-10.4173
賢人	-10.4173
邵	-10.4178
得失	-10.4178
膈	-10.4179
急急如律令	-10.4179
盆	-10.4181
遷正	-10.4182
控	-10.4182
班	-10.4183
誰能	-10.4185
廼	-10.4186
小大	-10.4186
軿	-10.4186
遏	-10.4186
踐	-10.4187
墻	-10.4187
柯	-10.4188
和則	-10.4188
六十四卦	-10.4193
啼	-10.4193
璇璣	-10.4194
何物	-10.4196
小指	-10.4197
不傳	-10.4206
敢問	-10.4208
名利	-10.4216
純陰	-10.4216
氣有餘	-10.4221
玄都	-10.4226
大衆	-10.4226
此山	-10.4231
知道	-10.4232
正坐	-10.424
化也	-10.4246
兆身	-10.4251
眞水	-10.4254
茅山	-10.4255
誦之	-10.4255
骨肉	-10.4263
全眞	-10.4266
三教	-10.4267
不可不	-10.427
陽神	-10.4276
尊師	-10.4278
靜而	-10.4279
五六	-10.4286
非道	-10.429
七魄	-10.4294
上焦	-10.4294
賛	-10.4298
會於	-10.4298
殺人	-10.4303
黄老	-10.4303
大風	-10.4304
形質	-10.4304
膠	-10.4307
相逢	-10.4307
社	-10.4308
當作	-10.431
至理	-10.4313
無生	-10.4321
絃	-10.4322
滴	-10.4323
幼	-10.4324
無異	-10.4324
至今	-10.4325
此亦	-10.4325
郄	-10.4327
酬	-10.4327
寒温	-10.4329
詭	-10.433
洞眞	-10.4332
月一日	-10.4334
潤澤	-10.4335
入鼎	-10.4347
虚而	-10.4351
雲雨	-10.4353
其根	-10.4362
也參同契曰	-10.4366
易之	-10.4369
曰汝	-10.437
腎爲	-10.4377
清齋	-10.4383
何必	-10.439
五符	-10.4393
不著	-10.4394
論云	-10.4398
運動	-10.44
之師	-10.4406
貴人	-10.441
相與	-10.441
神炁	-10.4412
第四十	-10.4416
不滅	-10.4418
矣然	-10.4419
爲丹	-10.4423
誥	-10.4425
穩	-10.4427
陽爻	-10.4436
軫	-10.4439
自知	-10.444
以鼻	-10.4442
未可	-10.4443
俞在	-10.4446
壤	-10.4447
罕	-10.4448
上品	-10.4449
謗	-10.4453
炙	-10.4454
术	-10.4455
生則	-10.4456
尾閭	-10.4457
忿	-10.4459
耦	-10.446
爲病	-10.4471
如何是	-10.4472
將來	-10.4474
而化	-10.4485
皆在	-10.4499
一家	-10.4511
下至	-10.4512
今古	-10.4524
之始也	-10.4524
定録	-10.4524
交會	-10.4526
爰	-10.4529
不免	-10.453
靈臺	-10.4532
有異	-10.4533
二陰	-10.4544
五十九	-10.4548
丹法	-10.4551
志人	-10.4559
寒則	-10.4561
忽有	-10.4562
眞道	-10.4565
心肺	-10.4569
婁	-10.4583
不正	-10.4583
歸根	-10.4585
來復	-10.4587
純粹	-10.4588
虹	-10.4588
受邪	-10.4588
肇	-10.4589
驟	-10.4593
其下多	-10.4594
守其	-10.4595
畔	-10.4595
鑪	-10.4596
哲	-10.4596
豈非	-10.4597
不和	-10.4598
腥	-10.4598
壘	-10.4599
闡	-10.4599
淚	-10.4599
仇	-10.46
面目	-10.4602
根本	-10.4604
種種	-10.4604
上宫	-10.4605
白玉	-10.4606
太原	-10.4607
髀	-10.4607
正陽	-10.461
求仙	-10.4611
入口	-10.4612
武火	-10.4613
行道	-10.4622
太商	-10.4628
靈根	-10.4628
生長	-10.4629
空洞	-10.4631
乃至	-10.4633
所有	-10.4635
後學	-10.4637
身之	-10.4637
肺氣	-10.4639
也經曰	-10.4643
一片	-10.4651
有何	-10.4651
明珠	-10.4651
三素	-10.4654
不測	-10.4655
之國	-10.467
故病	-10.4685
其文	-10.4687
穴也	-10.4689
下焦	-10.4692
衝脉	-10.4693
應是	-10.4693
日光	-10.4697
一刻	-10.4697
篇云	-10.4699
必得	-10.4705
紛紛	-10.4706
成就	-10.4709
精微	-10.4715
凶惡	-10.4716
奈	-10.4717
而動	-10.4717
眞性	-10.4721
所行	-10.4721
尉	-10.4726
戚	-10.4728
髣髴	-10.473
奉上	-10.4731
金鎖流珠	-10.4731
嫌	-10.4733
沐	-10.4733
澆	-10.4734
烟	-10.4735
拯	-10.4736
几	-10.4736
裁	-10.4737
寵	-10.4738
刀支	-10.4739
斜	-10.4739
搜	-10.4739
薪	-10.4743
聊	-10.4744
拈	-10.4744
誇	-10.4747
方平	-10.4753
肅殺	-10.4757
十餘年	-10.4762
嘿庵曰	-10.4762
於陽	-10.4766
爲上	-10.4775
學道者	-10.4778
之疾	-10.4779
虚者	-10.4795
之境	-10.48
太元	-10.481
方便	-10.4813
精精	-10.4817
仙公	-10.4834
不審	-10.4836
坐忘	-10.4836
方圓	-10.4838
太眞	-10.484
貴賤	-10.4844
凝神	-10.4852
也或	-10.4859
帳	-10.4864
忤	-10.4864
人多	-10.4866
南山	-10.4866
猪	-10.4867
隴	-10.4869
脾氣	-10.4869
鄧	-10.4869
明日	-10.4869
叉	-10.487
旌	-10.4873
梯	-10.4874
剪	-10.4875
裹	-10.4875
塊	-10.4875
氣而	-10.4876
段	-10.4879
傲	-10.4882
樵	-10.4882
賀	-10.4882
天中	-10.4883
襟	-10.4884
獨立	-10.4884
爲我	-10.4884
你	-10.4884
同歸	-10.4884
胻	-10.4886
長生久視	-10.4889
關節	-10.4891
下入	-10.4894
閉口	-10.49
得火	-10.4905
少徵	-10.4917
丑未	-10.4928
章第二十	-10.493
九過	-10.4934
熱氣	-10.4947
之光	-10.4951
心脉	-10.4955
一爻	-10.4955
無礙	-10.4965
三百六十五	-10.4971
客於	-10.4971
此之謂	-10.4973
則能	-10.4974
九還	-10.4982
其狀	-10.4983
百二十	-10.4989
用火	-10.4991
命也	-10.4995
在地	-10.4996
此四	-10.5003
無情	-10.5006
或云	-10.5007
其子	-10.501
乎天	-10.5011
須知	-10.5011
愍	-10.5012
可用	-10.5013
樸	-10.5014
嵩	-10.5015
杏	-10.5015
陽而	-10.5016
眞經	-10.5017
署	-10.5019
絹	-10.5021
斡	-10.5022
荷	-10.5022
曝	-10.5023
睛	-10.5023
抛	-10.5023
邁	-10.5025
色赤	-10.5026
直指	-10.5027
癘	-10.5028
少隂君火	-10.5029
價	-10.5031
寰	-10.5031
周易參同契	-10.5032
伏羲	-10.5032
瘕	-10.5032
藏氣	-10.5033
半斤	-10.5035
其夕	-10.5038
輪迴	-10.5039
飢渴	-10.5042
之基	-10.5043
四時之	-10.5044
莫測	-10.5044
三將軍	-10.505
三物	-10.5058
五十四	-10.5063
世界	-10.5067
之野	-10.5069
風吹	-10.5077
無人	-10.5087
之先	-10.5089
丹書	-10.509
隱居	-10.5091
乃止	-10.5091
軸	-10.5093
人之所	-10.5093
九眞	-10.5095
腎之氣	-10.5097
衆眞	-10.51
飛昇	-10.5103
孰能	-10.5106
入地	-10.5106
二字	-10.511
無色	-10.5112
之精也	-10.5115
以知	-10.5119
合道	-10.5121
又存	-10.5124
不治	-10.5126
黄色	-10.5132
須是	-10.5134
手把	-10.5137
海中	-10.5138
有物	-10.5138
應時	-10.5139
食氣	-10.5142
彊	-10.5145
從容	-10.5147
一句	-10.515
在中	-10.5151
歸去	-10.5153
經中	-10.5154
九重	-10.5154
天地之間	-10.5154
有聲	-10.5157
知音	-10.5162
揣	-10.5163
錬形	-10.5165
眞文	-10.5167
任脉	-10.5167
喬	-10.5167
袁	-10.5167
遶	-10.5168
无極	-10.5168
日爲	-10.5168
隙	-10.5169
嗜慾	-10.517
喧	-10.5172
掣	-10.5173
㸃	-10.5174
眥	-10.5175
截	-10.5175
善則	-10.5176
牡	-10.5179
隋	-10.5179
四五	-10.5181
薦	-10.5183
懃	-10.5183
當得	-10.5186
不移	-10.5187
動脉	-10.519
外踝	-10.5194
其國	-10.5194
而得之	-10.5195
母也	-10.5203
注於	-10.5206
者可	-10.5207
百餘	-10.5208
此文	-10.5217
眞常	-10.5218
五十三	-10.5225
太山	-10.5227
天台	-10.523
有數	-10.523
宫室	-10.5231
上部	-10.5233
不可妄	-10.5235
天宫	-10.5235
硫黄	-10.5238
正道	-10.5242
飛龍	-10.5247
亦如之	-10.5253
無聲	-10.5258
道生	-10.526
任意	-10.5262
亦曰	-10.5266
皆由	-10.527
以象	-10.527
無差	-10.5275
非人	-10.528
之至也	-10.5284
而作	-10.529
授之	-10.5295
所主	-10.53
道性	-10.5301
五十七	-10.5303
五十六	-10.5307
木木	-10.5308
寔	-10.531
麽	-10.5311
杳	-10.5315
泊	-10.5316
蟬	-10.5316
羸	-10.5317
疊	-10.5318
涎	-10.532
簾	-10.532
讎	-10.532
叫	-10.5321
日月星辰	-10.5321
輦	-10.5322
昆	-10.5322
徽	-10.5323
鳥獸	-10.5326
淸	-10.5326
槁	-10.5327
態	-10.5328
及乎	-10.5335
之卦也	-10.5339
巳亥	-10.5341
然其	-10.5344
太乙	-10.5345
身形	-10.5348
九州	-10.5349
又北	-10.535
根源	-10.5351
德也	-10.5351
我者	-10.5358
十六日	-10.536
無量	-10.5365
右英	-10.5368
過於	-10.5379
陽脉	-10.5386
仙翁	-10.5387
二陽	-10.5388
有六	-10.5389
玄玄	-10.5393
青城	-10.5393
形氣	-10.5395
胎仙	-10.5396
當知	-10.5399
一丸	-10.5399
天元	-10.5401
數日	-10.5402
錬之	-10.5405
之號	-10.5406
留七呼若灸者可灸三壯	-10.5424
所說	-10.5427
上陽子	-10.5434
心無	-10.5436
玉華	-10.5443
無間	-10.5447
出乎	-10.5447
臓	-10.5447
貢	-10.546
一呼	-10.5462
葱	-10.5462
不病	-10.5464
泠	-10.5464
洋	-10.5465
誨	-10.5465
勒	-10.5466
慎	-10.5466
副	-10.5468
無限	-10.5468
屢	-10.547
弩	-10.5472
鳩	-10.5473
慄	-10.5476
先天地	-10.5477
扶桑	-10.5478
仙家	-10.5479
岐伯對曰	-10.548
巔	-10.548
婚姻	-10.5482
洒	-10.5482
優	-10.5483
其類	-10.5483
也聖人	-10.5488
頭戴	-10.5491
未盡	-10.5491
聦明	-10.5499
有象	-10.5502
靈寳	-10.5504
法度	-10.5507
躡地紀	-10.5508
皇后	-10.5508
端坐	-10.5508
大有	-10.5519
也肺	-10.5529
星君	-10.553
氣滿	-10.5531
無涯	-10.5534
子母	-10.5542
畢矣	-10.5547
爲地	-10.5547
何由	-10.5548
不可得而	-10.5549
利害	-10.5551
異名	-10.5554
交感	-10.5558
卷中	-10.5559
心火	-10.5561
去來	-10.5572
身有	-10.5578
輕重	-10.5584
於下	-10.5588
也陽	-10.559
同類	-10.559
正位	-10.5598
些	-10.5598
爲首	-10.5603
猶未	-10.5607
苑	-10.5615
供	-10.5616
漂	-10.5619
妙道	-10.5619
二七	-10.5624
詰	-10.5624
蘆	-10.5624
瑕	-10.5625
鬭	-10.5626
伍	-10.5626
匹	-10.5626
橫	-10.5627
鬚	-10.5627
天文	-10.5628
頽	-10.5628
若以	-10.5628
屯蒙	-10.5628
全元起	-10.5629
淹	-10.563
墳	-10.563
脱	-10.563
巍巍	-10.5632
自古	-10.5634
金母	-10.5634
其音如	-10.5638
胞胎	-10.5639
之異	-10.564
常人	-10.5642
者腎	-10.5643
玉斧	-10.5648
金丹大要	-10.5649
并於	-10.5651
而知之	-10.5651
則謂之	-10.5653
今人	-10.5653
黄牙	-10.5656
應於	-10.566
從心	-10.5663
其動	-10.5667
春分	-10.5671
帝一	-10.5672
可也	-10.5673
元和	-10.5673
者也其	-10.5673
天地間	-10.5677
舍於	-10.568
初九	-10.5681
未詳	-10.5681
其方	-10.5681
一百二十	-10.5682
太極眞人	-10.5682
室中	-10.5693
又按	-10.5694
豈可	-10.5695
不思	-10.5698
眞元	-10.5705
常有	-10.5709
場	-10.5711
自家	-10.5724
之應	-10.5726
不遠	-10.5741
紫氣	-10.5744
不下	-10.5746
神功	-10.5748
其隂多	-10.5754
唯有	-10.5756
上文	-10.5758
汴	-10.576
以左手	-10.5764
挽	-10.5775
醴	-10.5775
遮	-10.5779
煉丹	-10.5779
六寸	-10.5779
分野	-10.578
簇	-10.578
猜	-10.578
姜	-10.5781
薛	-10.5781
三萬六千	-10.5782
棺	-10.5782
褐	-10.5783
夾脊	-10.5783
梨	-10.5783
腴	-10.5784
核	-10.5785
潛	-10.5785
姬	-10.5785
不許	-10.5786
迭	-10.5786
袖	-10.5786
水土	-10.5788
尻	-10.579
霜雪	-10.5791
岐	-10.5793
直入	-10.5795
陽子	-10.5796
必須	-10.58
矣若	-10.5805
煙霞	-10.5809
許長史	-10.581
六腑	-10.5812
豈知	-10.5817
是何	-10.582
處也	-10.5825
所作	-10.5831
誤也	-10.5832
一十五	-10.5832
咽氣	-10.5834
色黄	-10.5835
如嬰兒	-10.5841
三蟲	-10.5842
九鼎	-10.585
紫府	-10.5852
天之道	-10.5857
之類也	-10.586
之期	-10.5874
成敗	-10.5882
之位也	-10.5883
州刺史	-10.5886
奉天	-10.5891
乃成	-10.5892
脾胃	-10.5895
脉氣	-10.5899
數之	-10.59
相國	-10.5906
則身	-10.5909
求道	-10.5918
之屬	-10.5921
所見	-10.5921
谷神	-10.5922
精光	-10.5923
陰陽之氣	-10.5926
微微	-10.593
偉	-10.5935
踰	-10.5936
竇	-10.5936
山河	-10.5937
板	-10.5938
檀	-10.5938
掘	-10.5938
三花	-10.5939
件	-10.5939
姿	-10.594
挹	-10.594
澹	-10.5942
瞑	-10.5942
兑	-10.5942
生矣	-10.5943
琳	-10.5943
措	-10.5944
慘	-10.5944
雲笈七籖卷之	-10.5945
婆	-10.5945
斂	-10.5945
佞	-10.5946
九色	-10.5946
脆	-10.5947
戈	-10.595
此身	-10.5951
二卦	-10.5955
涯	-10.5956
山其上多	-10.5957
一念	-10.596
歲月	-10.5966
腸中	-10.5968
眉間	-10.597
盡矣	-10.5971
災害	-10.5972
腹滿	-10.5975
筭數	-10.5979
國曰	-10.5983
大壯	-10.5983
思存	-10.5984
腹脹	-10.5985
陽明金	-10.5988
滋味	-10.5988
不虚	-10.5988
至誠	-10.5995
文帝	-10.5996
昇仙	-10.5997
靈光	-10.6
夫道	-10.6006
斯爲	-10.6008
自見	-10.6016
來入	-10.6017
不容	-10.6021
飲之	-10.6027
在足	-10.6029
詩云	-10.6035
在内	-10.6035
相對	-10.6036
何故	-10.6037
類也	-10.6037
失之	-10.604
受病	-10.6044
有病	-10.6044
靜坐	-10.6044
眼前	-10.6049
間氣	-10.6057
之元	-10.6059
盛而	-10.6063
山有	-10.6064
陽極	-10.6064
五兩	-10.6068
以水	-10.6068
手執	-10.6069
是道	-10.6076
氣至	-10.6077
弼	-10.6087
瞳	-10.6092
叢	-10.6092
地仙	-10.6092
恍	-10.6093
兎	-10.6095
倮蟲	-10.6096
開元	-10.6098
之年	-10.61
蕃	-10.6101
戮	-10.6101
赦	-10.6101
杵	-10.6102
晃	-10.6102
仗	-10.6102
瓜	-10.6103
蟄	-10.6103
糞	-10.6105
雹	-10.6105
凍	-10.6105
摶	-10.6106
夬	-10.6107
僻	-10.6107
眚	-10.6108
宂	-10.611
靈砂	-10.6112
否泰	-10.6118
人姓	-10.613
不變	-10.613
一百八十	-10.6135
不得其	-10.6139
服餌	-10.6141
之本也	-10.6143
根基	-10.6145
不泄	-10.6149
兩儀	-10.6155
而坐	-10.6156
多則	-10.6156
歸來	-10.6164
發明	-10.6166
合之	-10.6167
一味	-10.6175
六十三	-10.6176
猶如	-10.6177
同於	-10.6178
復生	-10.618
濕氣	-10.618
之靈	-10.6183
復卦	-10.6187
難以	-10.6192
志意	-10.6195
輕舉	-10.6198
十二分	-10.6201
陰脉	-10.6209
則成	-10.6212
與此	-10.6214
楊書	-10.6216
莫知其	-10.6221
地之	-10.6222
水出	-10.6225
其應	-10.6225
赤帝	-10.6226
往往	-10.6226
變通	-10.6228
帝曰善	-10.6232
自相	-10.6236
裕	-10.6238
上至	-10.6243
問之	-10.6253
爲眞人	-10.6255
翰	-10.6256
誣	-10.6257
于丹田	-10.6257
其要	-10.6258
涌	-10.6259
徤	-10.626
淘	-10.626
尼	-10.6261
呬	-10.6261
邦	-10.6262
娥	-10.6262
藍	-10.6263
貯	-10.6264
其陽多	-10.6264
綸	-10.6268
𫝊	-10.6268
芥	-10.6269
鴻濛	-10.6269
膜	-10.6271
轍	-10.6271
揲	-10.6272
閏	-10.6273
供養	-10.6273
脉之	-10.6273
這箇	-10.6274
真鉛	-10.6274
也陰陽	-10.6274
催	-10.6275
匀	-10.6276
無由	-10.6278
龜蛇	-10.6279
無草木	-10.6279
十二經	-10.6279
陰陰	-10.6282
其母	-10.6282
長夏	-10.6291
聰明	-10.6292
未分	-10.6293
二三	-10.6295
五常	-10.6296
莫知	-10.6297
備矣	-10.6299
坎爲	-10.6299
相薄	-10.6304
年月	-10.631
一篇	-10.631
而明	-10.6315
一十八	-10.6319
一度	-10.632
周旋	-10.632
羽蟲	-10.632
四四	-10.6325
虎豹	-10.633
壺中	-10.6332
亦能	-10.6333
時也	-10.6339
道之人	-10.6342
古文	-10.6342
位爲	-10.6343
在外	-10.6343
地生	-10.6346
肺藏	-10.6347
眞靈	-10.6348
榮華	-10.6361
元曰	-10.6367
到此	-10.6372
甚多	-10.6372
使其	-10.6372
在右	-10.6376
眞形	-10.6377
乃爲	-10.6386
容易	-10.6386
皆須	-10.6386
五老	-10.639
以候	-10.6394
隂氣	-10.6396
失道	-10.6398
色如	-10.6399
讚	-10.6402
也刺	-10.6403
隂符	-10.6405
爲仙	-10.6407
或問曰	-10.6413
渭	-10.6418
涂	-10.6423
膿	-10.6424
但以	-10.6424
太無	-10.6425
牝牡	-10.6427
北海	-10.6427
風氣	-10.6429
孩	-10.6431
此理	-10.6431
所宜	-10.6432
有心	-10.6433
愧	-10.6434
蹈	-10.6434
嗔	-10.6435
怎	-10.6436
模	-10.6436
兩足	-10.6441
斟	-10.6444
者水也	-10.6447
隸	-10.6448
分肉	-10.6451
樞機	-10.6452
人不知	-10.6455
本在	-10.6455
參差	-10.6455
其後	-10.6455
與道合	-10.6467
皆可	-10.6467
在手	-10.6472
大還丹	-10.6473
向上	-10.6473
皆屬於	-10.6479
上中下	-10.6479
肘後	-10.6481
腎脉	-10.6483
而取之	-10.6487
鉛中	-10.6488
畢又	-10.6489
冬夏	-10.649
言也	-10.65
豹	-10.6501
乾元	-10.6502
氣穴	-10.6503
一遍	-10.651
而來	-10.651
九寸	-10.6513
病人	-10.6513
不足則	-10.6515
不令	-10.6519
下文	-10.6525
不能自	-10.6527
法界	-10.653
代立	-10.6533
通玄	-10.6534
所治	-10.6535
於斯	-10.6541
又何	-10.6543
以傳	-10.6549
一輪	-10.655
内視	-10.6555
以示	-10.6558
王注	-10.656
所傳	-10.6561
本性	-10.6568
修煉	-10.6579
者肺	-10.6581
卦之	-10.6583
者可以	-10.6585
天津	-10.6586
蠶	-10.6588
兩目	-10.659
腎腎	-10.6592
醋	-10.6593
氤氲	-10.6593
無英	-10.6593
鳳凰	-10.6596
今之	-10.6597
禳	-10.6598
其主	-10.6598
鞭	-10.6598
番	-10.6599
平等	-10.6599
正陽子曰	-10.66
玄女	-10.66
之音	-10.6601
藝	-10.6601
臻	-10.6601
暄	-10.6601
昂	-10.6602
熊	-10.6602
應于	-10.6603
派	-10.6603
遘	-10.6604
逕	-10.6605
陋	-10.6605
如斯	-10.6606
煞	-10.6607
嫁	-10.6609
臘	-10.6609
子鍾離子曰	-10.6611
喝	-10.6613
吕子曰	-10.6617
腨	-10.6618
一升	-10.662
也人之	-10.662
流水	-10.6636
氣之所	-10.6636
勝於	-10.6637
如是者	-10.6637
斗建	-10.6649
不差	-10.665
殊不知	-10.6656
之符	-10.666
時節	-10.6661
周迴	-10.6662
無功	-10.6663
不堪	-10.6663
故人	-10.6664
者病	-10.6666
所用	-10.6667
華山	-10.6668
體用	-10.6672
安樂	-10.6681
也地	-10.6684
爲體	-10.6685
七寶	-10.6686
大聖	-10.669
亦爲	-10.6692
神全	-10.6692
七十四	-10.6698
不亦	-10.6699
號爲	-10.6701
高祖	-10.6702
冥冥	-10.6702
之府也	-10.6703
學人	-10.6705
以下	-10.6705
法則	-10.6707
九地	-10.671
行則	-10.671
飛走	-10.6712
逆之	-10.6712
五十八	-10.6716
爲天下	-10.6721
水流	-10.6721
同契	-10.6722
洞神	-10.6724
皇人	-10.6726
清閑	-10.6728
各有所	-10.6728
見性	-10.673
慕容	-10.6743
今以	-10.6743
之力	-10.6746
而爲之	-10.6753
其木多	-10.6758
遼	-10.6763
却入	-10.6764
二十四分	-10.6764
幹	-10.6766
𡖖	-10.6766
一日一夜	-10.6771
轂	-10.6771
娶	-10.6771
儔	-10.6773
諫	-10.6774
寂然不動	-10.6775
當願一切	-10.6775
麋	-10.6776
彦	-10.6777
油	-10.6779
雲笈七籤卷之	-10.6782
中指	-10.6783
臍之下	-10.6784
三十年	-10.6787
侍衛	-10.679
心腎	-10.679
肺脉	-10.6802
一合	-10.6803
未必	-10.6806
者肝	-10.6808
無物	-10.6809
出血	-10.6814
次存	-10.6816
屬於	-10.6817
洛書	-10.6819
道術	-10.6823
台	-10.6828
一周天	-10.6829
是時	-10.683
丹道	-10.6832
月建	-10.6833
之罪	-10.6835
標本	-10.6835
玉池	-10.6839
其穀	-10.6839
八十七	-10.6841
徃徃	-10.6842
四句	-10.6848
天地之氣	-10.6848
木氣	-10.6848
若欲	-10.6848
大吉	-10.685
忽見	-10.6856
推之	-10.6857
欲求	-10.6859
土氣	-10.6867
於脾	-10.6867
風雲	-10.6867
萬民	-10.6869
誰知	-10.6869
亦同	-10.6874
有常	-10.6876
其聲	-10.6878
中外	-10.6883
星宿	-10.6887
鍊形	-10.6887
之冠	-10.6887
何須	-10.6887
也但	-10.6889
一箇	-10.6895
秋石	-10.6896
存乎	-10.6897
之絡	-10.6897
次之	-10.6899
文章	-10.69
官事	-10.6903
土土	-10.6904
國有	-10.6906
其政	-10.6907
一斗	-10.6908
天庭	-10.6908
入聖	-10.6908
愚者	-10.6914
爲藥	-10.692
先師	-10.692
蛻	-10.6922
之節	-10.6927
少年	-10.6929
天數	-10.6935
來迎	-10.6935
袋	-10.6937
盗	-10.694
鈞	-10.694
外物	-10.694
宏	-10.694
滄	-10.6942
天神	-10.6944
鵠	-10.6944
中和	-10.6944
筒	-10.6945
少時	-10.6945
旗	-10.6946
韶	-10.6947
之政	-10.6948
凛	-10.6948
摽	-10.695
相感	-10.695
疇	-10.695
綺	-10.6951
樊	-10.6951
謫	-10.6951
株	-10.6952
鬥	-10.6955
无所	-10.6955
直下	-10.6955
者人之	-10.6956
考召	-10.6956
抄	-10.6957
鶯	-10.6957
驪	-10.6958
扉	-10.6958
撞	-10.6958
秋氣	-10.6961
二景	-10.6962
通天	-10.6963
金丹之道	-10.6967
靈源	-10.6976
十八日	-10.6981
無非	-10.6982
二十四氣	-10.699
青黄	-10.6994
六十六	-10.6998
厥隂木	-10.6998
矣於是	-10.7
不當	-10.7004
無能	-10.7006
羽化	-10.701
大寒	-10.7015
爪甲	-10.7019
情欲	-10.7025
三百日	-10.7026
日魂	-10.7026
通流	-10.7027
一十四	-10.7028
消滅	-10.7032
飛步	-10.7034
故稱	-10.7034
四曰	-10.7037
與物	-10.7039
一章	-10.704
肝脉	-10.7041
相剋	-10.7044
受命	-10.7061
更有	-10.7063
復命	-10.7066
粒	-10.7074
不從	-10.7077
矣吾	-10.7078
玉堂	-10.7081
島	-10.7083
姚	-10.71
如是則	-10.7102
一言	-10.7104
隨時	-10.7107
卷下	-10.7107
遊行	-10.711
既得	-10.711
不住	-10.7111
叚	-10.7112
虚邪	-10.7112
舌本	-10.7113
傷人	-10.7113
虔	-10.7117
熬	-10.7119
菴	-10.7122
俊	-10.7123
憫	-10.7125
禽獸	-10.7125
熏	-10.7127
區區	-10.7127
天曹	-10.7128
本是	-10.7128
輟	-10.7128
白日昇天	-10.7129
後聖君告	-10.7129
腠	-10.7131
嗚呼	-10.7131
籬	-10.7132
至神	-10.7134
起居	-10.7135
昩	-10.7135
而用	-10.7136
爐中	-10.714
仆	-10.7141
者哉	-10.7142
恰	-10.7142
甲蟲	-10.7152
不仁	-10.7156
無定	-10.7159
成子	-10.716
三等	-10.716
日月之精	-10.7161
百關	-10.7166
度人	-10.7172
變動	-10.7172
坐卧	-10.7176
變成	-10.7182
氣街	-10.7188
之常也	-10.7193
無思	-10.7196
功行	-10.7198
十二辰	-10.7205
白色	-10.7207
要知	-10.7213
胃中	-10.7213
其言	-10.7215
百刻	-10.7219
鼻中	-10.7219
之所在	-10.7224
五靈	-10.7225
七竅	-10.7227
七十六	-10.7227
自謂	-10.7233
無象	-10.7241
爲度	-10.7253
且道	-10.7255
常道	-10.7257
二十日	-10.7262
圓光	-10.7267
當先	-10.7268
自來	-10.727
用鉛	-10.7275
行符	-10.7276
問道	-10.7279
清水	-10.7283
黄雲	-10.7284
於後	-10.7285
彘	-10.7286
仙都	-10.7287
讒	-10.7289
珪	-10.7291
天令	-10.7294
起火	-10.7295
而歸	-10.7297
帔	-10.7298
顓頊	-10.7298
栗	-10.7298
前聖	-10.7299
氣和	-10.7299
句曲	-10.7305
媒	-10.7307
圭	-10.7307
袍	-10.7308
叱	-10.7308
潮	-10.7309
蝕	-10.7309
勘	-10.731
織	-10.731
籥	-10.7311
狄	-10.7312
紫微夫人	-10.7314
粮	-10.7315
頤	-10.7316
微呪曰	-10.7316
渺	-10.7317
岑	-10.7318
合成	-10.7318
並是	-10.7323
而立	-10.733
卦二	-10.733
臟腑	-10.7331
脉沉	-10.7333
大修行人	-10.7335
爐火	-10.7336
神仙經曰	-10.7337
甘露	-10.7338
忘形	-10.7349
已成	-10.735
居上	-10.7352
解脫	-10.7354
爲寒	-10.7357
足厥陰	-10.7361
以制	-10.7363
重樓	-10.7366
始得	-10.7373
先後	-10.7373
相承	-10.7377
頂門	-10.7381
六十二	-10.7382
水氣	-10.7383
稱王	-10.7385
七分	-10.739
用針	-10.7391
不足以	-10.7392
見人	-10.7392
故先	-10.7393
聞其	-10.7396
七曜	-10.7396
少女	-10.7397
六天	-10.7397
虚皇	-10.7399
此名	-10.7401
大象	-10.7402
抑之	-10.7403
身中之	-10.7408
乃能	-10.7412
昔有	-10.7415
昭然	-10.7421
不達	-10.7421
化形	-10.7422
礬	-10.7423
太古	-10.7425
初生	-10.7425
在前	-10.743
之流	-10.7431
未濟	-10.7438
異也	-10.7438
爐鼎	-10.7441
定息	-10.7444
訣云	-10.7445
形於	-10.745
八素	-10.7454
以左右手	-10.7456
世世	-10.7459
七十五	-10.746
木火	-10.746
骨節	-10.7461
故經云	-10.7463
二子	-10.747
不老	-10.7475
之末	-10.7477
吾道	-10.7483
寂然	-10.7484
庫	-10.7485
叩齒三通	-10.7486
聞道	-10.7487
狹	-10.7487
眷	-10.7487
棠	-10.7488
顏	-10.7488
靜則	-10.7488
吁	-10.749
拭	-10.7491
峨	-10.7491
玄宫	-10.7492
別	-10.7493
之司	-10.7494
拍	-10.7496
劣	-10.7497
裘	-10.7497
懇	-10.7498
拱	-10.7498
誑	-10.7499
六十一	-10.7499
嵗	-10.7499
奮	-10.75
訴	-10.7501
睹	-10.7502
瑶池	-10.7502
嚏	-10.7502
陰陽應象大論	-10.7504
之辭	-10.7505
謚	-10.7505
伊川	-10.7506
端的	-10.7507
乆乆	-10.7507
愚人	-10.7512
千歲	-10.7512
毛蟲	-10.7512
足少隂	-10.7513
諸經	-10.7515
營衛	-10.7518
一尺	-10.7524
耳聾	-10.7527
七七	-10.7528
脫胎	-10.7533
天命	-10.7537
諸法	-10.7549
南海	-10.7552
之户	-10.7552
世俗	-10.7554
余聞	-10.7554
老氏	-10.7555
單衣	-10.7556
不假	-10.7558
光輝	-10.7562
萬世	-10.7563
相和	-10.757
運入	-10.7576
黄白	-10.7578
居於	-10.7578
子之時	-10.7582
生乎	-10.7587
後五日	-10.7589
亦當	-10.7591
無可	-10.7593
不易	-10.7596
十兩	-10.7598
大地	-10.76
妙理	-10.7609
所欲	-10.7611
矣是以	-10.7611
不可見	-10.7614
定位	-10.7621
不到	-10.7623
百節	-10.7624
海外	-10.7625
平生	-10.7627
十有八	-10.7628
而已矣	-10.7631
十有五	-10.7632
諸神	-10.7632
主於	-10.7634
而用之	-10.7637
道路	-10.7643
孰爲	-10.7644
一百五十	-10.7645
在我	-10.7646
皇君	-10.7647
可以爲	-10.765
諸人	-10.766
腋	-10.7664
相類	-10.7664
胤	-10.7665
蠱	-10.7667
蛟	-10.7669
噴	-10.7673
文火	-10.7673
仞	-10.7676
榆	-10.7677
汞爲	-10.7678
柏	-10.7678
堯舜	-10.7679
傷則	-10.7679
衣服	-10.768
貽	-10.7681
捷	-10.7681
而勿	-10.7682
裝	-10.7682
詮	-10.7682
恥	-10.7682
無病	-10.7683
緘	-10.7683
江湖	-10.7683
嗌	-10.7684
明白	-10.7685
澀	-10.7685
新校正云按全元起本	-10.7685
耻	-10.7686
痏	-10.7686
札	-10.7686
則是	-10.7687
疼	-10.7687
壑	-10.7687
雄雌	-10.7689
鵬	-10.7689
三品	-10.769
怫	-10.769
夢見	-10.769
蕪	-10.769
驚駭	-10.7691
算	-10.7693
運交時面向	-10.7693
焉於是	-10.7694
盞	-10.7695
八八	-10.7695
乙庚	-10.7696
身長	-10.7699
戊巳	-10.7702
承之	-10.7705
脉浮	-10.7711
不知何	-10.7711
赤白	-10.7714
詩曰	-10.7719
以鹹	-10.7721
洞庭	-10.7726
江河	-10.7728
役使	-10.7733
蟠	-10.7737
五曰	-10.7742
如此則	-10.7742
昇降	-10.7742
其經	-10.7748
脾主	-10.7748
陰德	-10.7749
坎宫	-10.775
存念	-10.7752
十有六	-10.7753
如何然	-10.7759
還元	-10.7769
焉此	-10.7777
玄微	-10.7779
莫不由	-10.7781
十二年	-10.7782
心地	-10.7784
數足	-10.7786
陽盛	-10.779
外丹	-10.7791
中斗	-10.7792
四人	-10.7795
不衰	-10.7796
又如	-10.7797
教人	-10.7798
所以爲	-10.78
肝藏	-10.78
乃知	-10.7803
衣冠	-10.7804
直事	-10.7807
如玉	-10.7809
感而	-10.7812
筋脉	-10.7813
龍虎經	-10.7814
黄土	-10.7819
精血	-10.7821
東都	-10.7821
未來	-10.7822
陷中	-10.7826
上經	-10.7837
四四四	-10.784
而還	-10.7842
憐	-10.7844
天光	-10.7845
鄴	-10.7847
㜽	-10.785
之根本	-10.785
水者	-10.7853
白石	-10.7853
西山	-10.7857
雉	-10.7857
喙	-10.7858
感應	-10.7859
至游子曰	-10.7862
無欲	-10.7866
攸	-10.7868
服藥	-10.787
之勢	-10.787
恠	-10.7871
圜	-10.7872
肺主	-10.7874
阜	-10.7874
恢	-10.7874
縷	-10.7875
九玄	-10.7875
橐籥	-10.7878
斑	-10.7878
翮	-10.7879
閻	-10.788
祝畢	-10.788
汎	-10.7882
崑	-10.7882
行步	-10.7884
一事	-10.7885
太上道君	-10.7886
擘	-10.7886
腰脊	-10.7886
柔弱	-10.7887
元始天尊	-10.7887
色黑	-10.7888
相因	-10.7888
久而	-10.7889
金烏	-10.7889
瘥	-10.789
不昧	-10.7892
貧賤	-10.7897
若人	-10.7898
足太隂	-10.7901
相火	-10.7903
必死	-10.7903
形象	-10.7909
光芒	-10.791
者道之	-10.7919
斗柄	-10.7925
無邊	-10.7925
而易	-10.7927
太陽水	-10.7931
化而爲	-10.7932
未生	-10.7939
補寫	-10.794
濁氣	-10.7943
六十八	-10.7958
隨之	-10.7961
長三寸	-10.7962
帝時	-10.7963
死氣	-10.7977
八極	-10.7984
二升	-10.7985
氣足	-10.7985
自非	-10.7989
救之	-10.7989
八八八	-10.7996
嚥氣	-10.7996
請問	-10.7997
孔子曰	-10.7997
會得	-10.7998
由人	-10.8006
此物	-10.801
上法	-10.8011
長生之道	-10.8011
九天之	-10.8012
土爲	-10.8027
商王	-10.8031
若非	-10.8031
以和	-10.8032
一處	-10.8039
修養	-10.804
受其	-10.8041
玄機	-10.8043
正性	-10.8045
地上	-10.8049
無相	-10.805
氐	-10.8051
山高	-10.8052
察其	-10.8053
豕	-10.8053
不見其	-10.8054
一心	-10.8055
腑	-10.8056
常當	-10.8057
鴈	-10.8058
㓜	-10.8061
掖	-10.8061
敏	-10.8062
六十五	-10.8063
駭	-10.8066
敕	-10.8068
狸	-10.8068
䕶	-10.8068
恚	-10.8069
敲	-10.8069
紂	-10.807
肺肺	-10.8071
無令	-10.8071
膂	-10.8071
長子	-10.8071
鉢	-10.8072
菊	-10.8072
邀	-10.8072
惱	-10.8073
創	-10.8073
何異	-10.8074
嘻	-10.8077
醴泉	-10.8077
雷電	-10.8077
怕	-10.8078
惶	-10.8079
胠	-10.808
若灸者可灸五壯	-10.8081
醺	-10.8081
四氣	-10.8083
耎	-10.8083
十十十	-10.8085
偷	-10.8085
不論	-10.8086
七十一	-10.8087
三陰三陽	-10.8087
兊大弟	-10.8089
紫清	-10.8094
本經	-10.8095
章第三十	-10.8098
天地之道	-10.8098
虎嘯	-10.8099
千餘	-10.8099
歡喜	-10.81
不朽	-10.81
不忘	-10.81
羅列	-10.8102
靈樞經曰	-10.8106
三台	-10.8106
應物	-10.8108
先生曰	-10.8112
自身	-10.8118
不顧	-10.8118
視其	-10.8123
勿以	-10.8124
下治	-10.8128
妙有	-10.8129
呼爲	-10.8131
八寸	-10.8131
始皇	-10.8132
難得	-10.814
人家	-10.8141
江南	-10.8146
腎藏	-10.8152
吐氣	-10.8165
遊於	-10.8166
妄想	-10.8168
尋常	-10.8171
其源	-10.8172
以定	-10.8173
半夜	-10.8179
心心心	-10.8183
其家	-10.8183
涓	-10.8186
幽微	-10.8186
黄赤	-10.8188
焉能	-10.819
身輕	-10.8194
穴在	-10.8201
金書	-10.8203
雲霧	-10.8204
上登	-10.8206
調氣	-10.8206
不曉	-10.8207
土地	-10.821
手少陰	-10.8216
一生	-10.8219
萬年	-10.8219
故令	-10.822
成仙	-10.8222
傷寒	-10.8225
六六六	-10.8228
龍吟	-10.8229
亦以	-10.8236
在天爲	-10.8237
休息	-10.8238
四極	-10.824
禺	-10.8246
立秋	-10.8248
胥	-10.8248
汲	-10.8251
不顯	-10.8253
之表	-10.8255
祛	-10.8257
蚩尤	-10.8257
大要	-10.8258
糧	-10.826
蹄	-10.8261
事須	-10.8261
粲	-10.8261
不立	-10.8263
生物	-10.8263
太后	-10.8267
味甘	-10.8267
春夏秋冬	-10.8268
蚌	-10.8268
勿使	-10.8269
牖	-10.827
二穴	-10.827
衞	-10.8272
滲	-10.8272
夙	-10.8272
艱	-10.8273
春氣	-10.8273
峕	-10.8273
綴	-10.8274
浙	-10.8274
皎	-10.8274
寤	-10.8275
屠	-10.8276
尊卑	-10.8276
一陰一陽	-10.8277
而痛	-10.8278
繼是謂	-10.8278
甬	-10.8278
塘	-10.8279
太倉	-10.828
因此	-10.8282
拔宅	-10.8287
德德德	-10.8292
此說	-10.8292
叩頭	-10.8293
鈆汞	-10.8296
是之謂	-10.8299
不由	-10.8303
不染	-10.8306
并序	-10.8307
氣絶	-10.8308
朱衣	-10.8308
不交	-10.8308
我今	-10.8309
身家	-10.831
是名	-10.8311
視聽	-10.8312
一顆	-10.8314
不肖	-10.8318
補其	-10.8318
青童君	-10.8318
曾青	-10.8324
不飢	-10.8326
寂寂	-10.8334
爲先	-10.8334
返照	-10.8335
中焦	-10.8339
肺爲	-10.834
此事	-10.834
水旱	-10.8344
海底	-10.8347
魂神	-10.8347
黄精	-10.8352
過此	-10.8355
毒藥	-10.8356
生門	-10.8356
黄衣	-10.8357
洞府	-10.8358
風月	-10.8359
尺五寸	-10.8362
本命日	-10.8366
一身之	-10.8369
在左手	-10.8372
以補	-10.8372
神符	-10.8373
無别	-10.8373
六十七	-10.8374
志心	-10.8383
金碧	-10.8385
還返	-10.8393
陰極	-10.8396
但能	-10.8397
法身	-10.84
淺深	-10.8402
六根	-10.8404
風雷	-10.8413
六十九	-10.8416
大明	-10.8417
二十三日	-10.8423
腎主	-10.8425
至陰	-10.8425
不傷	-10.8426
黑白	-10.8426
如火	-10.8432
已後	-10.8432
其上多	-10.8434
太易	-10.8437
而升	-10.8442
億萬	-10.8443
氣散	-10.8446
終身	-10.8446
諸陽	-10.8447
白帝	-10.845
欒	-10.8452
佛法	-10.8461
本乎	-10.8462
叓	-10.8466
皆從	-10.8467
宵	-10.8468
評	-10.8471
亮	-10.8471
瘟	-10.8471
性情	-10.8472
哺	-10.8472
碑	-10.8474
彖	-10.8476
婚	-10.8477
噓	-10.8477
怖	-10.8477
尊神	-10.8477
之理也	-10.8477
柴	-10.8477
脾脉	-10.8478
鱗蟲	-10.8478
胤丹	-10.8479
餅	-10.8479
霓	-10.8479
縈	-10.848
鷄鳴	-10.8481
凡夫	-10.8482
祭祀	-10.8482
玉童玉女	-10.8483
金木水火土	-10.8483
宋守尚書屯田郎孫兆重改誤	-10.8484
媚	-10.8486
平坐	-10.8486
優游	-10.8487
留七呼	-10.8488
何事	-10.8489
氣衰	-10.8489
當用	-10.8489
籟	-10.849
龍龍龍	-10.849
錬氣	-10.8494
以為	-10.8495
呼之	-10.8496
可可可	-10.8496
朔旦	-10.8497
刀刀刀	-10.8497
何故也	-10.85
仙矣	-10.85
强名	-10.8514
豁然	-10.8516
屬于	-10.8517
飛騰	-10.8522
大帝	-10.8524
三丹田	-10.8525
虎虎虎	-10.8527
光耀	-10.8528
死不治	-10.8532
莫若	-10.8533
都畢	-10.854
未成	-10.8541
亦云	-10.8542
用力	-10.8544
得道者	-10.8549
玉樓	-10.8553
廬山	-10.8556
於胃	-10.8562
小童	-10.8564
三百六十日	-10.8566
無失	-10.8569
而異	-10.8572
脉之會	-10.8572
肝肝	-10.8575
屬陽	-10.8576
各自	-10.8579
江海	-10.8581
作丹	-10.8583
猶有	-10.8585
明明	-10.8586
二至	-10.8587
月生	-10.859
九霄	-10.8591
戊癸	-10.8596
其藏	-10.8597
坤卦	-10.8597
燥化	-10.8605
立冬	-10.8606
功名	-10.861
終無	-10.861
交接	-10.8617
如今	-10.8619
運太過	-10.8619
依法	-10.8623
臨目	-10.8626
人莫	-10.8627
行用	-10.8629
開口	-10.8636
雲山	-10.8637
節度	-10.864
有兩	-10.8646
未有不	-10.8651
火化	-10.8653
之精氣	-10.8656
上玄	-10.8662
臧	-10.8663
北北北	-10.8663
彼此	-10.8664
黑色	-10.8666
肝木	-10.8666
巽巽巽	-10.8667
噦	-10.8669
之化也	-10.867
陟	-10.867
神定	-10.8671
妄行	-10.8671
寶寶寶	-10.8671
潘	-10.8672
五斗	-10.8673
黜	-10.8674
帥帥帥	-10.8675
報報報	-10.8677
憚	-10.8677
拄杖	-10.8677
犬犬犬	-10.8677
兔兔兔	-10.8678
明鏡	-10.8679
決	-10.8679
斗斗斗	-10.8679
妻妻妻	-10.868
蔚	-10.8681
孝孝孝	-10.8681
懽	-10.8681
瞽	-10.8682
南華	-10.8682
瑩瑩瑩	-10.8683
牛牛牛	-10.8683
稻	-10.8683
廣廣廣	-10.8683
元元元	-10.8684
藹	-10.8684
舌舌舌	-10.8685
男男男	-10.8686
分形	-10.8687
多多多	-10.8687
一陽生	-10.8687
簪	-10.8687
禁禁禁	-10.8688
毛毛毛	-10.8688
坎坎坎	-10.8688
頷	-10.8689
宰宰宰	-10.8689
貴貴貴	-10.869
久則	-10.869
骨骨骨	-10.8691
欠欠欠	-10.8691
妾妾妾	-10.8692
化化化	-10.8693
酥	-10.8693
甬甬甬	-10.8693
旨	-10.8694
師道	-10.8694
第十一	-10.8696
真人曰	-10.8696
無私	-10.8696
脯	-10.8697
回回回	-10.8697
半半半	-10.8697
玉玉玉	-10.8698
欬	-10.8699
瘖	-10.8699
退退退	-10.87
孔孔孔	-10.8701
岳岳岳	-10.8702
向向向	-10.8702
宫宫宫	-10.8702
允允允	-10.8703
况况况	-10.8703
去去去	-10.8703
君君君	-10.8703
開開開	-10.8703
順天	-10.8704
艮艮艮	-10.8705
永永永	-10.8705
金光	-10.8705
光光光	-10.8706
奏奏奏	-10.8706
井井井	-10.8707
臣臣臣	-10.8708
衆衆衆	-10.8709
霍霍霍	-10.871
龜龜龜	-10.8711
審審審	-10.8712
九十六	-10.8712
丁丁丁	-10.8713
魚魚魚	-10.8713
典典典	-10.8714
玄靈	-10.8714
登仙	-10.8717
引引引	-10.8717
愛愛愛	-10.8717
亘亘亘	-10.8717
二十有四	-10.8718
千千千	-10.8718
旦旦旦	-10.8719
其光	-10.8719
用用用	-10.8719
早早早	-10.8719
女人	-10.872
衰衰衰	-10.8721
个个个	-10.8721
子子子	-10.8722
九靈	-10.8722
侍女	-10.8722
兄兄兄	-10.8722
一吸	-10.8726
鼠鼠鼠	-10.8729
遠矣	-10.873
一條	-10.873
一十六	-10.8732
風府	-10.8733
兩兩兩	-10.8734
小兒	-10.8738
良良良	-10.874
三里	-10.8744
千載	-10.8749
已來	-10.875
禾禾禾	-10.8753
直上	-10.8757
自然之道	-10.8759
一竅	-10.8766
也又曰	-10.8766
獨坐	-10.8787
七十三	-10.8787
季主	-10.8787
放下	-10.8794
躡紀	-10.8805
以授	-10.8811
心藏	-10.8812
從官	-10.8816
何時	-10.8816
清明	-10.8819
南向	-10.882
燒之	-10.8821
迎之	-10.8825
明皇	-10.8827
合和	-10.8827
二十年	-10.8832
崑崙山	-10.8841
玄母	-10.8844
圃	-10.8846
甲子日	-10.8847
所受	-10.8848
行於上	-10.885
因其	-10.8851
可知也	-10.8853
章第四	-10.8856
之鄉	-10.8862
地理	-10.8866
利名	-10.8866
跳	-10.8869
觜	-10.887
之津	-10.887
究其	-10.8871
貶	-10.8874
南流注于	-10.8875
如法	-10.8878
茫	-10.8884
亦復如是	-10.8887
黒	-10.8887
贊	-10.889
戒者	-10.8892
不待	-10.8893
疆	-10.8893
何足	-10.8893
攺	-10.8894
募	-10.8894
剡	-10.8895
雕	-10.8895
南陽	-10.8895
濱	-10.8895
堆	-10.8896
酌	-10.8897
吾有	-10.8898
同異	-10.8898
優劣	-10.8898
惕	-10.8898
寥廓	-10.8899
潄	-10.8899
譬喻	-10.8899
睦	-10.89
拆	-10.89
恁	-10.8901
莽	-10.8901
獵	-10.8902
嬌	-10.8902
什	-10.8903
留三呼	-10.8903
雷霆	-10.8903
醇	-10.8904
亟	-10.8904
妍	-10.8905
俗人	-10.8906
罇	-10.8907
摘	-10.8908
則陽氣	-10.8908
䰟	-10.8908
多食	-10.8912
有餘則	-10.8914
甚麽	-10.8917
之例	-10.8919
八年	-10.8921
妄言	-10.8922
砂中	-10.8923
肩背	-10.8926
二名	-10.8929
坎男	-10.8929
陰盛	-10.8931
昇玄	-10.8934
爲國	-10.8935
某甲	-10.8936
平地	-10.8936
六陽	-10.8941
歸眞	-10.8941
膕	-10.8946
每每每	-10.8946
鍊丹	-10.8947
紫煙	-10.8947
土釜	-10.895
雷公	-10.8951
流轉	-10.8957
道要	-10.8961
火火火	-10.8961
要訣	-10.8962
九十一	-10.8969
三篇	-10.8971
如此者	-10.8977
群生	-10.8977
正當	-10.8979
隂德	-10.8979
生殺	-10.8979
天地萬物	-10.8979
四體	-10.8981
須得	-10.8985
妄爲	-10.8986
顔云	-10.8987
所願	-10.8989
火龍	-10.899
字子	-10.9001
要妙	-10.9002
芝草	-10.9009
玉兔	-10.901
大還	-10.9012
畢引	-10.9013
及諸	-10.9013
水水水	-10.9016
炎上	-10.9017
道法	-10.9025
列仙	-10.9025
不死之道	-10.9026
十有四	-10.9032
第十二	-10.9035
雲氣	-10.9037
自悟	-10.904
太尉	-10.9045
貴乎	-10.9052
其卦	-10.9052
林下	-10.9054
想其	-10.9055
。	-10.9059
不樂	-10.906
之正氣	-10.9062
脾土	-10.9063
日日日	-10.9072
又名	-10.9073
不勞	-10.9081
立夏	-10.9094
不收	-10.9095
憲	-10.9097
五百里	-10.9099
不干	-10.9099
槐	-10.9099
炳	-10.9101
馭	-10.9103
故號	-10.9106
幡	-10.9107
蠲	-10.9107
諦	-10.9107
衷	-10.9107
乃復	-10.9108
疵	-10.911
皆當	-10.9111
册	-10.9111
萎	-10.9113
以類	-10.9114
髻	-10.9114
漑	-10.9114
稼	-10.9114
斃	-10.9115
立功	-10.9115
言功	-10.9115
杓	-10.9116
名之曰	-10.9117
岐伯答曰	-10.9117
至亥	-10.9117
濃	-10.9118
溉	-10.9118
𨽻	-10.9118
𨼆	-10.9118
頃刻	-10.9119
梟	-10.9122
百骸	-10.9124
岫	-10.9125
所以能	-10.9125
勳	-10.9126
嘿	-10.9126
詎	-10.9127
之脉起於	-10.9132
笑曰	-10.9132
火五日用炭	-10.9134
遞	-10.9136
烏烏烏	-10.9137
桃李	-10.9138
中嶽	-10.914
嚥液	-10.9141
鼎爐	-10.9142
刻漏	-10.9144
九十八	-10.9144
武王	-10.9146
三呼	-10.9146
賢愚	-10.9157
七十七	-10.9159
神守	-10.916
經言	-10.9161
之勝也	-10.9164
伯陽	-10.9167
至聖	-10.9167
紀綱	-10.9169
血血	-10.9169
既已	-10.917
風寒	-10.9172
自稱	-10.9173
九十九	-10.9175
度量	-10.9177
七十九	-10.9178
八分	-10.9179
无爲	-10.9181
在世	-10.9181
所聞	-10.9183
色白	-10.9184
仙經	-10.9188
論篇黄帝問曰	-10.919
方得	-10.919
能通	-10.9194
二斤	-10.92
房中	-10.9202
之主也	-10.9209
不拘	-10.921
死籍	-10.9213
四維	-10.9215
安寧	-10.9216
靈官	-10.9219
可刺	-10.9223
同志	-10.9224
念念	-10.9228
冠衣	-10.9228
何也岐伯曰	-10.9231
壽命	-10.9239
丁壬	-10.9249
調其	-10.9253
於己	-10.9255
乎岐伯曰	-10.926
火數	-10.9262
食飲	-10.9265
三百五	-10.9267
不倦	-10.9273
精進	-10.9278
開明	-10.9281
大海	-10.9284
九分	-10.9286
小腹	-10.9287
七十八	-10.9288
黄花	-10.9289
不煩	-10.9292
語言	-10.9294
不克	-10.9295
八十五	-10.93
塵世	-10.9301
玉房	-10.9307
明知	-10.9307
腎水	-10.9308
也靈樞經曰	-10.9312
宰相	-10.9314
陽數	-10.9316
饌	-10.9319
精誠	-10.932
參同	-10.9321
褒	-10.9323
曷	-10.9324
靚	-10.9324
縫	-10.9329
已前	-10.9331
笙	-10.9332
和平	-10.9332
勾陳	-10.9334
精明	-10.9334
而入于	-10.9337
金鎖流珠引卷之	-10.9338
躭	-10.9339
伎	-10.9339
援	-10.9339
悠悠	-10.934
瑛	-10.9341
諷	-10.9343
警	-10.9343
驂	-10.9343
邇	-10.9343
版	-10.9345
秩	-10.9346
掉	-10.9347
壓	-10.9348
痺	-10.9349
活計	-10.9349
夫欲	-10.935
懶	-10.935
所由	-10.9353
髎	-10.9353
黄庭經云	-10.9354
辛水運	-10.9354
鬱鬱	-10.9354
飮食	-10.9354
之事也	-10.9356
第十四	-10.936
月十五日	-10.9361
二首	-10.9362
開闔	-10.9365
修行人	-10.9368
修行之人	-10.937
林泉	-10.9374
以至於	-10.9374
爲表裏	-10.9374
釋氏	-10.9376
滿口	-10.9378
洞徹	-10.9379
太淵	-10.9386
見聞	-10.9386
爲太尉	-10.9386
白鹿	-10.9388
茅君	-10.9388
通乎	-10.9393
逆行	-10.9394
人身中	-10.9397
南宫	-10.9401
崑崙之	-10.941
復還	-10.9422
等閑	-10.9422
流霞	-10.9424
所致	-10.9425
物我	-10.944
老君告	-10.9442
萬歲	-10.9453
得之以	-10.9458
復歸	-10.9466
如雞子	-10.9466
乎哉	-10.9472
腹痛	-10.9475
死生之	-10.9476
爻象	-10.9477
光澤	-10.9481
司命君	-10.9483
機關	-10.9485
不改	-10.9489
嚥津	-10.9491
何以知	-10.9497
家風	-10.9503
兵士	-10.9513
處處	-10.9518
者以其	-10.953
陽光	-10.9532
梓	-10.9532
大易	-10.9534
右腎	-10.9536
左腎	-10.9546
粹	-10.9546
之所生	-10.9548
翟	-10.9548
紹	-10.955
廣大	-10.955
甞	-10.9554
不專	-10.9556
鑠	-10.9557
矩	-10.9557
瘞	-10.9558
苞	-10.9559
邾	-10.956
豈無	-10.9561
金虎	-10.9561
儻	-10.9562
蔓	-10.9562
大洞眞經	-10.9562
訛	-10.9562
葩	-10.9563
橘	-10.9564
悸	-10.9564
煅	-10.9564
戌亥	-10.9565
嚮	-10.9566
眸	-10.9566
悖	-10.9567
太上大道君	-10.9567
霧露	-10.9567
騁	-10.9567
悟眞篇云	-10.957
小指次指	-10.957
通達	-10.957
猛獸	-10.957
㐫	-10.9571
癉	-10.9571
天王姓	-10.9574
冑	-10.9576
某乙	-10.9577
在目前	-10.9578
參同契曰	-10.9579
海内	-10.9583
會合	-10.9586
罔象	-10.9594
有无	-10.9595
定庵曰	-10.9596
乘雲	-10.9597
於是乎	-10.9597
灸之	-10.9607
相守	-10.9611
青天	-10.9613
厥逆	-10.9618
相親	-10.9621
正宫	-10.9622
内守	-10.9624
間隔	-10.9627
河東	-10.9636
礬石	-10.9644
禮樂	-10.9645
至寳	-10.9648
外側	-10.9648
其液	-10.9652
易象	-10.9655
十斤	-10.9655
大抵	-10.9657
關元	-10.9659
俟其	-10.9663
金生水	-10.9666
道德經	-10.967
又問	-10.9672
不愈	-10.9673
飛雲	-10.9682
沖和	-10.9683
升天	-10.9687
圓成	-10.969
侍中	-10.9702
未聞	-10.9714
施行	-10.9717
三卷	-10.9719
陰爻	-10.9719
日辰	-10.972
九十三	-10.972
一夕	-10.9722
一丈	-10.9723
朱書	-10.9725
善言	-10.9726
學士	-10.9729
神凝	-10.9749
大敗	-10.9752
空寂	-10.9753
能制	-10.9756
月魄	-10.9759
其㫖	-10.9762
傳云	-10.9762
出没	-10.9763
汞鉛	-10.9765
臯	-10.9769
一百四	-10.9772
二穴在	-10.9772
璞	-10.9773
以辛	-10.9774
本師	-10.9776
臍中	-10.9778
纂	-10.9781
杞	-10.9784
孺	-10.9789
窈冥	-10.9789
距	-10.9791
規矩	-10.9793
泝	-10.9793
纓	-10.9794
祇	-10.9794
篩	-10.9794
其候	-10.9794
黍米	-10.9795
恬淡	-10.9795
懿	-10.9795
羞	-10.9796
梢	-10.9796
社廟	-10.9796
迥	-10.9796
攣	-10.9797
滔	-10.9797
慙	-10.9799
張道陵	-10.98
罏	-10.98
迨	-10.98
芙	-10.9801
凑	-10.9801
鋪	-10.9801
魏伯陽	-10.9804
梗	-10.9804
辦	-10.9806
冽	-10.9806
殞	-10.9808
胕腫	-10.9808
昔者	-10.9809
光元曰	-10.9811
當此之時	-10.9811
豫章	-10.9811
絶粒	-10.9812
偃卧	-10.9815
肺金	-10.9818
手心主	-10.9819
澄心	-10.9826
手太隂	-10.9826
厚薄	-10.9827
眞官	-10.9829
勤行	-10.9832
夜行	-10.9838
二百五	-10.9839
八十四	-10.984
者陽也	-10.9841
火記	-10.9852
輪轉	-10.9852
玉爐	-10.9855
左遷	-10.9856
天寶	-10.9858
生涯	-10.9859
動作	-10.9868
施化	-10.9873
珠玉	-10.9875
天蓬	-10.9876
何嘗	-10.9877
人主	-10.9879
易遷	-10.988
喪其	-10.988
太隂土	-10.9881
帝晨	-10.9891
退位	-10.9907
其術	-10.9908
三十有六	-10.9909
居家	-10.991
爲司徒	-10.9911
飛入	-10.9913
氣液	-10.9915
河中	-10.9916
交結	-10.9917
事業	-10.9918
志士	-10.9921
具足	-10.9924
畢乃	-10.9924
濕化	-10.9926
肺病	-10.9927
圓通	-10.9928
知覺	-10.9931
方始	-10.9936
人倫	-10.9942
節候	-10.9944
素靈	-10.9947
九華	-10.9949
飛天	-10.9953
法籙	-10.9957
太過故	-10.996
體重	-10.9965
肝主	-10.9966
舌下	-10.9978
之極也	-10.998
各得其	-10.9986
乘龍	-10.9999
爲司空	-11.0003
匈奴	-11.0003
靈符	-11.0007
閔	-11.0009
相反	-11.0011
景雲	-11.0011
土木	-11.0013
弑其君	-11.0013
居于	-11.0016
拾	-11.0019
璨	-11.002
蒂	-11.0025
鎔	-11.0026
洗心	-11.0031
抗	-11.0031
秤	-11.0032
虐	-11.0032
讃	-11.0032
芬	-11.0032
嫉	-11.0033
浩浩	-11.0033
繇	-11.0034
祅	-11.0035
惰	-11.0035
災厄	-11.0035
羡	-11.0036
終而復始	-11.0037
偕	-11.0037
斫	-11.0037
静	-11.0038
伐鄭	-11.0039
輻	-11.0039
懈	-11.004
𩱿	-11.0041
吾身之	-11.0042
斥	-11.0042
金門	-11.0043
咫尺	-11.0043
無疾	-11.0044
悮	-11.0045
滄海	-11.0048
蝶	-11.0051
其支者	-11.0053
丙辛	-11.006
餌之	-11.0062
混然	-11.0062
尺寸	-11.0063
此藥	-11.0064
其猶	-11.0066
其腹	-11.0067
鍾離	-11.0072
存焉	-11.0077
經文	-11.0079
鼻孔	-11.008
依舊	-11.0082
天樞	-11.0082
冥心	-11.0087
傳送	-11.009
冲和	-11.0094
新校正云按甲乙經作	-11.0099
真君	-11.0105
金陵	-11.0105
大哉	-11.0108
五德	-11.0109
宗祖	-11.0111
雲霞	-11.0116
二篇	-11.0119
脾藏	-11.012
龍蛇	-11.0131
之域	-11.0137
一百八	-11.0144
潜龍	-11.0148
自覺	-11.015
長一尺	-11.0154
未足	-11.0159
登山	-11.0162
甚矣	-11.0168
泰山	-11.0169
三旬	-11.0178
天官	-11.0182
小車	-11.0186
歌云	-11.0186
深淺	-11.0194
也帝曰善	-11.0195
經營	-11.02
去世	-11.0202
百鬼	-11.0202
夢中	-11.0203
岐伯	-11.0212
度數	-11.0213
司地	-11.022
癸火運	-11.0222
大雨	-11.0227
右轉	-11.0234
真一之	-11.0236
起于	-11.0236
九天之上	-11.0241
洞達	-11.0242
者陰也	-11.0242
向外	-11.0242
之所生也	-11.0249
頴	-11.0263
簿	-11.0264
蔣	-11.0266
竦	-11.0266
葵	-11.0266
曹操	-11.0267
鳳翔	-11.0269
赤水	-11.0271
蜂	-11.0271
净	-11.0273
戸	-11.0274
綜	-11.0278
翠虚篇云	-11.0278
痾	-11.0279
撮	-11.0279
安樂窩中	-11.028
貝	-11.0281
峙	-11.0281
孚	-11.0281
櫛	-11.0281
至游子曾慥集	-11.0283
臆	-11.0283
稟	-11.0283
悔吝	-11.0284
慰	-11.0284
寥寥	-11.0285
説	-11.0285
究竟	-11.0285
秦王	-11.0285
遜	-11.0285
槩	-11.0286
該	-11.0286
䧺	-11.0286
玉珮	-11.0287
燼	-11.0287
有爲之	-11.0288
如意	-11.0288
耐	-11.0289
肋	-11.0289
摸	-11.0289
張天師	-11.029
霖	-11.029
七月七日	-11.0291
熱化	-11.0296
聖師	-11.0298
平人	-11.0301
八十二	-11.0307
北方水	-11.031
覆載	-11.0311
音聲	-11.0313
旁門	-11.0314
向前	-11.0316
無妄	-11.0319
紅塵	-11.0322
五雲	-11.0332
占事	-11.0333
午時	-11.0333
童顔	-11.0334
屬金	-11.0334
何哉	-11.0334
有赤氣	-11.0343
水其中多	-11.0357
何況	-11.0358
玉芝	-11.0361
積聚	-11.0362
土德	-11.0362
也或問	-11.0367
三斤	-11.0379
内廉	-11.038
朗然	-11.0381
公卒子	-11.0383
夏王	-11.0384
留於	-11.0388
花開	-11.0388
須要	-11.0392
此三者	-11.0392
相推	-11.0392
皆因	-11.0394
者火也	-11.0406
狀若	-11.0407
神官	-11.0408
諸方	-11.0413
發泄	-11.0415
承當	-11.0417
水府	-11.042
金籙	-11.0423
斯言	-11.0426
外應	-11.0436
通暢	-11.0447
超然	-11.0456
直至	-11.046
悉皆	-11.047
百步	-11.0473
養形	-11.0474
顆	-11.0477
罡	-11.0484
青色	-11.0488
幽玄	-11.0493
黑帝	-11.0493
猶可	-11.0496
丞	-11.0497
朕	-11.05
白白白白	-11.0503
離合	-11.0505
丙丙丙丙	-11.0506
偈	-11.0507
萬遍	-11.0507
寅寅寅寅	-11.0507
爻爻爻爻	-11.0511
赤赤赤赤	-11.0512
天天天天	-11.0515
孟子	-11.0515
白馬	-11.0515
山海經	-11.0516
詢	-11.0516
三三三三	-11.0516
掇	-11.0517
莊莊莊莊	-11.0518
眉眉眉眉	-11.0518
宦	-11.0518
備備備備	-11.0518
全全全全	-11.0519
朙	-11.0519
弟弟弟弟	-11.0519
梧	-11.052
泓	-11.052
扁鵲	-11.052
朴朴朴朴	-11.052
東東東東	-11.052
蹙	-11.0523
盪	-11.0523
青衣	-11.0523
普普普普	-11.0524
星星星星	-11.0524
釐	-11.0525
兀	-11.0525
离离离离	-11.0525
鉤	-11.0527
幾人	-11.0527
斯須	-11.0527
父父父父	-11.0527
瓢	-11.0527
癸癸癸癸	-11.0527
耳耳耳耳	-11.0527
閱	-11.0528
戟	-11.0528
手手手手	-11.0528
飛飛飛飛	-11.0529
山山山山	-11.0529
坼坼坼坼	-11.0529
玄白	-11.053
瓶瓶瓶瓶	-11.053
賢賢賢賢	-11.053
在在在在	-11.053
孽	-11.0531
酣	-11.0531
古古古古	-11.0531
岡	-11.0532
凡凡凡凡	-11.0532
草草草草	-11.0532
蠢	-11.0532
文文文文	-11.0532
排排排排	-11.0532
盼	-11.0533
直直直直	-11.0533
堯堯堯堯	-11.0533
華華華華	-11.0534
民民民民	-11.0534
釋迦	-11.0534
同身寸之三寸	-11.0534
巧巧巧巧	-11.0534
毗	-11.0535
步步步步	-11.0535
七七七七	-11.0535
揆揆揆揆	-11.0535
驢	-11.0535
石石石石	-11.0536
血血血血	-11.0536
春風	-11.0536
思思思思	-11.0536
田田田田	-11.0537
南嶽夫人	-11.0537
中中中中	-11.0537
采采采采	-11.0537
乍乍乍乍	-11.0537
唐太僕令啓玄子王氷次註宋光禄卿直	-11.0537
海蟾	-11.0538
寺寺寺寺	-11.0538
平平平平	-11.0538
曹曹曹曹	-11.0538
月月月月	-11.0538
闔闢	-11.0538
近近近近	-11.0539
南南南南	-11.0539
搗	-11.0539
貪貪貪貪	-11.0539
笛	-11.0541
象象象象	-11.0541
呈呈呈呈	-11.0541
旁旁旁旁	-11.0541
夫夫夫夫	-11.0541
乾乾乾乾	-11.0542
震震震震	-11.0542
茶茶茶茶	-11.0542
打破	-11.0544
宅宅宅宅	-11.0544
匹匹匹匹	-11.0544
乙乙乙乙	-11.0544
义义义义	-11.0544
夏禹	-11.0545
枝葉	-11.0545
品品品品	-11.0545
米米米米	-11.0545
乃乃乃乃	-11.0545
内内内内	-11.0545
足足足足	-11.0545
万万万万	-11.0546
漏泄	-11.0546
捻訣	-11.0546
未未未未	-11.0547
牙牙牙牙	-11.0547
匠匠匠匠	-11.0548
黄黄黄黄	-11.0548
瓦瓦瓦瓦	-11.0548
妳妳妳妳	-11.0548
尾尾尾尾	-11.0548
忠信	-11.0548
武武武武	-11.0548
甲甲甲甲	-11.0549
吕吕吕吕	-11.0549
坤坤坤坤	-11.0549
吠吠吠吠	-11.0549
女女女女	-11.055
雄雄雄雄	-11.055
自自自自	-11.055
鹿鹿鹿鹿	-11.055
㒵㒵㒵㒵	-11.055
才才才才	-11.0552
吾吾吾吾	-11.0552
士士士士	-11.0553
崇崇崇崇	-11.0553
各隨	-11.0553
五五五五	-11.0553
母母母母	-11.0554
美美美美	-11.0554
卜卜卜卜	-11.0555
帝帝帝帝	-11.0556
依時	-11.0556
一一一一	-11.0556
九十七	-11.0557
必必必必	-11.0557
九九九九	-11.0557
大大大大	-11.0558
馬馬馬馬	-11.0558
走走走走	-11.0559
百百百百	-11.0559
卓卓卓卓	-11.0559
同同同同	-11.056
香香香香	-11.056
坦然	-11.0561
哉哉哉哉	-11.0561
老老老老	-11.0562
亞亞亞亞	-11.0562
鼻鼻鼻鼻	-11.0563
丘丘丘丘	-11.0565
年年年年	-11.0565
丹丹丹丹	-11.0566
仰仰仰仰	-11.0567
丑丑丑丑	-11.0567
法法法法	-11.0567
磁石	-11.057
花花花花	-11.0571
覃覃覃覃	-11.0571
兌兌兌兌	-11.0571
毛髮	-11.0572
安安安安	-11.0573
雌黄	-11.0576
冷冷冷冷	-11.0577
新校正云按甲乙經云	-11.0577
鬼賊	-11.0577
目目目目	-11.0577
炎炎	-11.0578
黑黑黑黑	-11.0586
犖犖犖犖	-11.0588
二二二二	-11.0589
本末	-11.0593
辰辰辰辰	-11.0593
清凈	-11.0595
驅使	-11.06
相配	-11.0602
相扶	-11.0611
能致	-11.0612
大羅	-11.0615
煉氣	-11.0622
細微	-11.0625
不得妄	-11.0629
昇入	-11.063
斷絶	-11.0631
亦須	-11.0632
八十六	-11.065
八會	-11.0653
認得	-11.0653
先聖	-11.0656
大司馬	-11.0659
將何	-11.0663
不厭	-11.0666
軍于	-11.0672
頂上	-11.0678
中自有	-11.0678
公孫	-11.0681
虎龍	-11.0681
不壞	-11.0681
千金	-11.0681
玉泉	-11.0696
丹青	-11.07
相臨	-11.0705
何曾	-11.0708
惡寒	-11.0711
下田	-11.0714
斛	-11.0721
相求	-11.0733
肝病	-11.0735
初起	-11.0745
之候也	-11.0755
甲己	-11.0757
何以故	-11.0759
各異	-11.0761
涇	-11.0761
結胎	-11.0762
不畏	-11.0763
顒	-11.0766
徇	-11.0774
收氣	-11.0774
數年	-11.0775
桀	-11.0776
爾雅	-11.0777
洽	-11.0777
毫釐	-11.0778
瞿	-11.0779
聘	-11.0779
譚	-11.078
藻	-11.078
从	-11.078
蕭蕭	-11.0781
北斗七星	-11.0781
耆	-11.0783
飄飄	-11.0783
寂寞	-11.0784
荀	-11.0785
劇	-11.0785
靜定	-11.0787
恕	-11.0788
瀟	-11.0788
蹇	-11.0789
擺	-11.0789
兇	-11.0789
琢	-11.079
霑	-11.079
其支别者	-11.0791
朵	-11.0792
虯虯虯虯	-11.0793
祕閣林億等校正	-11.0794
藜	-11.0794
丹田中	-11.0795
虎狼	-11.0797
五升	-11.0798
道經當思	-11.08
長跪	-11.08
嗌乾	-11.08
飛天綱	-11.0801
王王王王	-11.0802
榮辱	-11.0807
第十三	-11.0815
司録	-11.0816
白蜜	-11.0822
爲皇太子	-11.0825
章第七	-11.0826
章第六	-11.0827
神機	-11.0839
武后	-11.0841
紫庭	-11.0841
妙哉	-11.0842
交泰	-11.0846
金蓮	-11.0847
首尾	-11.0849
眞訣	-11.0851
不虧	-11.0856
洞虚	-11.0857
相望	-11.0857
萬邪	-11.0859
相吞	-11.0861
昭昭	-11.0864
四卦	-11.0873
乎答云	-11.0873
熱熱	-11.0874
天地之中	-11.0875
忘機	-11.0877
延壽	-11.088
點化	-11.0889
精液	-11.0896
吾嘗	-11.0903
温温	-11.0904
文侯	-11.0907
文公	-11.0915
蓮花	-11.0925
不知其所	-11.0927
盈虚	-11.0929
所不勝	-11.0935
受符	-11.0952
深處	-11.0955
汞汞	-11.0957
味酸	-11.0971
惡鬼	-11.0972
領兵	-11.0978
生成之	-11.0986
邪正	-11.0992
按摩	-11.0992
督	-11.0993
于腎	-11.0996
二斗	-11.1001
常住	-11.1004
還家	-11.1004
奎	-11.1013
魒	-11.1023
凡欲	-11.1024
有鳥焉其狀如	-11.1026
郁	-11.1029
燧	-11.1032
眎	-11.1033
汾	-11.1034
跗	-11.1037
亢倉㜽	-11.1039
熒	-11.104
六一泥	-11.1041
羈	-11.1042
菽	-11.1043
憩	-11.1043
峨嵋	-11.1045
沮	-11.1046
盻	-11.1046
鍜	-11.1047
蟻	-11.1048
幃	-11.1049
糠	-11.1049
嬉	-11.1049
旬有五日	-11.1049
陰中之陽	-11.105
擔	-11.105
滄浪	-11.1051
涌泉	-11.1051
湛湛	-11.1051
薑	-11.1051
勵	-11.1052
忠孝	-11.1054
擅	-11.1054
躋	-11.1054
甑	-11.1054
霽	-11.1055
骷髏	-11.1055
汧	-11.1055
汨	-11.1056
棒	-11.1057
陂	-11.1058
犢	-11.1058
仙籍	-11.1062
怯	-11.1062
待時	-11.1063
市賈	-11.1063
積功	-11.1063
天師曰	-11.1064
專政	-11.1064
塵埃	-11.1065
鬱儀	-11.1065
威儀	-11.1066
恁麽	-11.1066
畢微祝曰	-11.1067
盜賊	-11.1068
流沙	-11.1071
豺	-11.1073
殊不	-11.1075
翊	-11.1076
十有五日	-11.1076
青雲	-11.1078
止于	-11.1086
斤兩	-11.1087
者取之	-11.1089
卒然	-11.1091
五藏之氣	-11.1092
央	-11.1094
二尺	-11.1094
朝夕	-11.1095
震巽	-11.1098
腋下	-11.11
勝負	-11.1102
金木相	-11.1104
相接	-11.1105
仙童	-11.1107
八十九	-11.1115
中原	-11.1117
南面	-11.112
青霞	-11.1123
五辛	-11.1125
太白星	-11.1128
損益	-11.1129
讀書	-11.1129
罪福	-11.1131
萬丈	-11.1132
八十八	-11.1142
元首	-11.1145
識破	-11.1155
一千六	-11.1167
縣屬	-11.1167
北辰	-11.1169
鷄子	-11.117
萬類	-11.1176
地皇	-11.1177
雲林	-11.119
求長生	-11.1193
長養	-11.12
司徒	-11.1207
手指	-11.123
九十五	-11.1235
鍾山	-11.1237
桓公	-11.1258
右一條	-11.1261
腎病	-11.1264
交通	-11.127
衆妙	-11.1271
相干	-11.1273
都督	-11.1293
之所由	-11.1295
九皇	-11.1295
踞	-11.1301
八十三	-11.1303
𢘆	-11.1303
遞相	-11.1303
赭	-11.1303
一千八	-11.1305
陀	-11.1308
磬	-11.1309
癖	-11.131
騫	-11.131
桐	-11.1311
奄	-11.1312
扃	-11.1313
鵲	-11.1313
婢	-11.1313
夀	-11.1315
刊	-11.1316
沛	-11.1317
改元建	-11.1317
宮	-11.1318
杭	-11.1319
綵	-11.1319
乾卦	-11.1319
儲	-11.132
片餉	-11.132
畧	-11.1322
形神俱妙	-11.1322
長七寸	-11.1322
稚	-11.1322
塑	-11.1322
慈悲	-11.1323
裔	-11.1323
玄之又玄	-11.1323
嫩	-11.1323
閬苑	-11.1324
蠹	-11.1325
葢	-11.1326
在其中	-11.1327
行住坐卧	-11.1328
官吏	-11.1331
慨	-11.1332
儘	-11.1332
臑	-11.1332
熨	-11.1333
卉	-11.1333
秋毫	-11.1333
不妨	-11.1337
土土土土	-11.1339
毫毛	-11.1346
劉子	-11.135
恐懼	-11.1353
感通	-11.1355
九十四	-11.136
飽食	-11.1365
與道同	-11.1365
雨露	-11.1371
未免	-11.1374
星甲	-11.1378
以右手	-11.1392
玉籙	-11.1404
只要	-11.1405
煉形	-11.1407
稱兵	-11.1412
百萬	-11.1414
六戊	-11.1419
萬慮	-11.1421
赤城	-11.1428
眞僞	-11.143
十干	-11.1432
養就	-11.1435
以手按	-11.1437
玄洲	-11.1438
黄帝曰善	-11.144
香火	-11.145
次序	-11.1456
過度	-11.1463
水母	-11.1485
月滿	-11.1489
氣至而	-11.15
幽冥	-11.1505
祕訣	-11.1506
内側	-11.1508
正角	-11.1511
掌中	-11.1515
無滯	-11.152
勞神	-11.1526
閑居	-11.1529
踝	-11.1531
屬陰	-11.1531
兩腎	-11.1532
王侯	-11.1541
萬古	-11.1543
千古	-11.1545
餘氣	-11.1548
浮雲	-11.1551
所殺	-11.156
以兩手	-11.1564
四時之氣	-11.1575
弈	-11.1576
惚	-11.158
協	-11.1581
頭頭	-11.1585
黙	-11.1585
靈芝	-11.1585
敖	-11.1587
丸如梧桐子大	-11.1587
顙	-11.1589
洪範	-11.159
晷	-11.1591
狡	-11.1591
玲瓏	-11.1591
匹配	-11.1591
槌	-11.1592
噬	-11.1592
藩	-11.1592
豚	-11.1593
妬	-11.1593
二直之候也	-11.1594
凄	-11.1596
賞罰	-11.1596
僚	-11.1596
酆	-11.1598
蓬壺	-11.1598
一切衆生	-11.1598
忻	-11.1598
堤	-11.1599
蘿	-11.1599
栽	-11.1599
脚跟	-11.1599
蹊	-11.16
盂	-11.16
顚倒	-11.16
澁	-11.16
蟾蜍	-11.16
泥丸宫	-11.1601
五金八石	-11.1601
啖	-11.1601
新校正云按别本	-11.1601
忒	-11.1601
鑚	-11.1602
麵	-11.1603
塡	-11.1605
達磨	-11.1605
可得聞乎	-11.1605
恬惔	-11.1605
挈	-11.1605
弃弃弃弃	-11.1606
毛羽	-11.1606
根蒂	-11.161
玄牝之門	-11.1611
新校正云按太素	-11.1611
主簿	-11.1612
在地爲	-11.1614
善男子	-11.1614
傷肝	-11.1614
遊宴	-11.1615
芳草	-11.1616
委曲	-11.1617
住世	-11.1619
卦爻	-11.162
發揮	-11.1624
足厥隂	-11.1626
頓首	-11.1626
徒勞	-11.1633
欣然	-11.1639
包含	-11.164
可以長生	-11.1642
雙關	-11.1648
覩其	-11.1648
與天地同	-11.1649
京師	-11.1654
百川	-11.1654
骨空	-11.166
塵勞	-11.166
熒惑星	-11.1665
玉漿	-11.1666
得其理	-11.1669
寳珠	-11.1673
按甲乙經	-11.1676
急急	-11.168
可知矣	-11.1684
分付	-11.1688
爰有	-11.1691
不違	-11.1692
兩般	-11.1694
久視	-11.1698
黄河	-11.1702
天涯	-11.1709
初學	-11.1712
南斗	-11.1717
萬縁	-11.1719
紫色	-11.1722
黄房	-11.1724
道場	-11.1726
血溢	-11.1733
三百八	-11.1747
脾脾	-11.1761
脾病	-11.1776
丹臺	-11.1786
互用	-11.1788
逆流	-11.1798
人之身	-11.1799
精氣神	-11.1808
皇太子	-11.181
者也於是	-11.181
玉蟾	-11.1815
不能知	-11.1827
也吾之	-11.1829
匱	-11.1831
媾	-11.1843
達觀	-11.1849
靈驗	-11.185
本根	-11.1853
離坎	-11.1858
其獸多	-11.1859
瞋	-11.186
聖人之道	-11.1861
駿	-11.1865
橐	-11.1866
虖	-11.1868
顚	-11.1871
翹	-11.1872
饗	-11.1873
蔭	-11.1873
鱉	-11.1874
椒	-11.1874
冕	-11.1875
挫	-11.1875
謐	-11.1875
兖	-11.1876
猴	-11.1876
孰知	-11.1877
鷹	-11.1878
無所見	-11.1878
犀	-11.1878
竺	-11.1879
㖟	-11.1879
犧	-11.1879
弃	-11.188
兕	-11.1881
結璘	-11.1882
靡不	-11.1882
儼	-11.1883
笈	-11.1883
隳	-11.1883
顴	-11.1884
酆都	-11.1885
筠	-11.1885
暝	-11.1885
雲母粉	-11.1885
霹靂	-11.1885
隻	-11.1885
到頭	-11.1886
摹	-11.1886
庾	-11.1887
瀝	-11.1887
陌	-11.1887
謂應作	-11.1888
艾	-11.1888
癃	-11.1889
西方庚辛	-11.1889
膻中	-11.1891
餓	-11.1893
樣	-11.1893
之歲上見	-11.1893
稽首再拜	-11.1894
傑	-11.1895
巿	-11.1896
京兆	-11.1897
休歇	-11.1897
小豆	-11.1901
蟄蟲	-11.1903
城郭	-11.1907
髮際	-11.1911
烏兔	-11.1911
苦海	-11.1912
防危	-11.1915
五臓	-11.1915
句容	-11.1915
襄王	-11.1918
徙居	-11.192
畢竟	-11.1921
緩急	-11.1922
天地造化	-11.1925
一百一	-11.1929
百餘年	-11.1933
有餘不足	-11.1934
學道之人	-11.1934
周公	-11.1935
須憑	-11.1936
己土運	-11.1941
士運	-11.1945
山嶽	-11.1949
筋急	-11.1954
兩脚	-11.1958
外廉	-11.1975
隱顯	-11.1977
聞聲	-11.1979
斯文	-11.1989
味苦	-11.2008
四時五行	-11.2011
十二時中	-11.2014
自然之理	-11.2024
傷脾	-11.2034
無影	-11.204
漸加	-11.2045
道之士	-11.2059
河南	-11.2063
法常以	-11.2063
思念	-11.208
九十日	-11.2087
揚州	-11.2094
六壬	-11.2098
劑	-11.2099
修真	-11.2116
宫闕	-11.2122
四十年	-11.2134
膕中	-11.214
之山無草木多	-11.2152
羿	-11.216
赤松子	-11.2165
邃	-11.2166
悼	-11.2166
屬土	-11.2166
重重	-11.2167
舐	-11.2167
倣	-11.2168
鵝	-11.2168
暈	-11.2168
緣	-11.2169
洎	-11.2169
弛	-11.2172
劈	-11.2172
渚	-11.2173
穰	-11.2173
鍋	-11.2174
鉞	-11.2174
綬	-11.2174
級	-11.2174
沾	-11.2174
腭	-11.2174
黔	-11.2175
沫	-11.2176
蒿	-11.2176
瞀	-11.2176
巷	-11.2177
轅	-11.2177
鞅	-11.218
齎	-11.218
浦	-11.218
籌	-11.218
甕	-11.2181
罵	-11.2181
翛然	-11.2182
龐	-11.2182
跟	-11.2182
受書爲	-11.2183
虬	-11.2184
攢簇	-11.2184
靄	-11.2185
收拾	-11.2185
瘛	-11.2185
淖	-11.2186
惹	-11.2186
飡	-11.2187
績	-11.2188
户牖	-11.2189
權衡	-11.2191
胡麻	-11.2192
枝條	-11.2193
來徃	-11.2194
境界	-11.2195
這些	-11.2196
迦	-11.2199
仕宦	-11.2199
太一天符	-11.22
些子	-11.2202
快樂	-11.2204
膿血	-11.2208
裴君	-11.2209
离坎	-11.2212
天罡	-11.2212
消魔	-11.2212
乾坤坎離	-11.2219
利貞	-11.222
未曾	-11.2225
以下至	-11.2225
三島	-11.2227
瓶子	-11.2232
仰卧	-11.2233
壬木運	-11.2235
修齋	-11.2237
十二經脉	-11.2247
紫霞	-11.2248
不相得	-11.2248
經緯	-11.2252
繼代	-11.2258
兩弦	-11.226
錦衣	-11.2275
木生火	-11.228
刺史	-11.2281
相續	-11.229
玉霄	-11.2293
山谷	-11.2313
禀受	-11.2318
三十過	-11.2333
閉炁	-11.2333
因循	-11.2339
靈樞	-11.2345
者心也	-11.2353
五牙	-11.2355
庶人	-11.2357
頭面	-11.236
仙佛	-11.237
泰和	-11.2371
楚王	-11.239
五斤	-11.2404
終身不	-11.2416
經歷	-11.2417
金簡	-11.2418
大暑	-11.2419
肖	-11.2421
其色白	-11.2426
雞子	-11.2453
龍虎交	-11.2455
箝	-11.2458
澡	-11.2463
墉	-11.2466
甜	-11.2467
郢	-11.2467
扈	-11.2469
榻	-11.247
蛤	-11.247
儵	-11.247
峭	-11.2471
匣	-11.2472
淩	-11.2472
閬	-11.2473
殁	-11.2474
幘	-11.2475
閃	-11.2475
憤	-11.2475
鋤	-11.2476
蔕	-11.2476
隄防	-11.2476
線	-11.2476
幕	-11.2477
恱	-11.2477
禹步	-11.2479
自然而然	-11.2479
稠	-11.248
擎	-11.248
捲	-11.248
神水華池	-11.248
扣齒	-11.2481
九晨	-11.2481
五臟六腑	-11.2481
知白守黑	-11.2482
譜	-11.2482
黅	-11.2483
刺可入同身寸之四分	-11.2483
御史	-11.2483
侈	-11.2483
吼	-11.2483
鈍	-11.2485
茹	-11.2486
繒	-11.2486
疽	-11.2487
販	-11.2488
秪	-11.2488
大指次指	-11.2489
誌	-11.2489
男兒	-11.249
蛟龍	-11.2491
三咽止便讀玉經畢又祝曰	-11.2492
拓	-11.2492
三百八十四銖	-11.2492
日夕	-11.2493
士貪天	-11.2496
遲速	-11.2498
瓊林	-11.2499
庶幾	-11.2499
蕩蕩	-11.2501
南方火	-11.2506
君曰仙道有	-11.2508
計謀	-11.2509
陽蹻	-11.2515
迷惑	-11.2515
變而爲	-11.2516
震卦	-11.2527
腠理開	-11.2529
妙訣	-11.2533
通徹	-11.2541
光彩	-11.2541
飛揚	-11.2548
各一謂	-11.255
與天同	-11.255
深淵	-11.2553
東卿	-11.256
舉世	-11.2562
車馬	-11.2568
曲江	-11.2569
安穩	-11.2571
紫微宫	-11.2572
彭祖	-11.2576
萬般	-11.2577
弗能	-11.2584
無咎	-11.2585
皓月	-11.2588
大衍	-11.2597
相尅	-11.2601
朱子	-11.2602
相繼	-11.2605
調息	-11.2616
萬端	-11.2617
以養其	-11.2631
未審	-11.2638
所撰	-11.2638
者心之	-11.2638
百丈	-11.264
來往	-11.2647
仰觀	-11.2669
集云	-11.2678
鼻引	-11.268
異香	-11.2708
高士	-11.271
洪水	-11.272
相違	-11.2727
太衝	-11.2733
形狀	-11.2736
其草多	-11.2759
六尺	-11.2766
咦	-11.2769
之甚也	-11.2776
珮	-11.2778
婬	-11.278
儛	-11.2781
睿	-11.2782
葷	-11.2782
石勒	-11.2783
嗇	-11.2784
菌	-11.2784
旄	-11.2785
彤	-11.2786
聯	-11.2786
松栢	-11.2786
彫	-11.2787
毅	-11.2787
悌	-11.2788
棘	-11.2789
虫	-11.2789
遨	-11.279
捫	-11.279
竹筒	-11.2791
趾	-11.2791
硬	-11.2792
皎潔	-11.2792
叩齒三十六通	-11.2793
趙昇王	-11.2793
煆	-11.2793
愚癡	-11.2793
罩	-11.2794
悍	-11.2794
馨	-11.2795
瘍	-11.2795
粥	-11.2795
債	-11.2795
朝廷	-11.2795
訝	-11.2798
柔順	-11.2799
趁	-11.28
巍	-11.28
撲	-11.2802
汩	-11.2802
艷	-11.2803
茫茫	-11.2803
丘山	-11.2804
撰述	-11.2804
肓	-11.2806
攘	-11.2806
稚川	-11.2806
英雄	-11.2808
繆刺	-11.2811
悴	-11.2811
西嶽	-11.2813
塵垢	-11.2813
何以言之	-11.2819
艱難	-11.2819
專制	-11.2832
堂堂	-11.2832
季夏	-11.2833
公案	-11.2833
作麽	-11.2833
推移	-11.2836
珍重	-11.2839
皮肉	-11.2842
四千三	-11.2842
一枚	-11.2843
莊周	-11.2846
玄圃	-11.2848
保養	-11.2848
純隂	-11.2858
房室	-11.2861
一劑	-11.2865
味辛	-11.2866
輕泄	-11.2868
純乾	-11.2873
吉何云	-11.2881
白鶴	-11.2883
戊土	-11.2886
辛苦	-11.2886
補益	-11.2892
水晶	-11.2893
血絡	-11.2897
隨縁	-11.2899
入於胃	-11.2901
大羅天	-11.2907
帝尊	-11.2911
燥濕	-11.2921
行此道	-11.2923
玄覽	-11.2924
曲直	-11.2964
百八十	-11.2975
傷肺	-11.2983
寒濕	-11.2991
覺悟	-11.3011
二百四	-11.3021
丗人	-11.3038
李克用	-11.3071
鼈	-11.3088
邠	-11.3093
揭	-11.3097
二百七	-11.3099
鯉	-11.3099
甯	-11.31
千二百	-11.3101
瑯	-11.3103
蒜	-11.3104
繕	-11.3105
亞	-11.3106
溶	-11.3106
敎	-11.3106
燠	-11.3107
脘	-11.3109
贍	-11.311
硝	-11.311
考召法師	-11.3111
懲	-11.3111
倮	-11.3111
綉	-11.3111
苛	-11.3111
捏	-11.3112
魏改元	-11.3112
椿	-11.3112
抱朴子	-11.3112
竄	-11.3112
感而遂通	-11.3113
兢	-11.3114
隧	-11.3114
日再服	-11.3115
馳騁	-11.3115
窈	-11.3115
檄	-11.3116
遼東	-11.3117
蹉	-11.3117
皺	-11.3118
東方甲乙	-11.3118
足陽明脉氣所發	-11.3118
鞋	-11.3119
否答云	-11.3119
颺	-11.3119
鯨	-11.312
涵	-11.3121
狎	-11.3122
闌	-11.3122
鴟	-11.3123
絲毫	-11.3123
薰蒸	-11.3124
嗽	-11.3124
鬧	-11.3125
臀	-11.3127
䏶	-11.3128
赫赫	-11.3128
之炁此天炁	-11.3129
骨之端	-11.3129
壽夭	-11.313
辟穀	-11.313
細研	-11.3131
囑	-11.3131
厠	-11.3131
視之不見	-11.3133
尹喜	-11.3136
耿	-11.3136
太過不及	-11.3139
韞	-11.3139
弼星	-11.3139
紫河車	-11.314
七十二候	-11.3146
雷公曰	-11.3154
咒曰	-11.3155
雷震	-11.3155
其卦得	-11.3156
崔公	-11.3166
必待	-11.3168
巨勝	-11.3177
修習	-11.3183
浩然	-11.3188
清涼	-11.3188
五湖	-11.3189
金匱	-11.319
子母相	-11.3202
正徵	-11.3209
夫何故	-11.3213
朝禮	-11.3219
東方青	-11.3221
群仙	-11.3237
腸鳴	-11.3242
苦酒	-11.3247
地軸	-11.3279
火炎	-11.3288
黄帝曰願聞	-11.3301
剛柔相	-11.3307
人不識	-11.3311
方丈	-11.3312
旣畢	-11.3317
指示	-11.3327
坎卦	-11.333
制御	-11.333
之别名	-11.3333
勿妄	-11.3355
月晦	-11.3357
二千九	-11.338
咒	-11.3403
第二十一	-11.3419
冠帶	-11.3422
肢	-11.3422
弑	-11.3428
踐位是謂	-11.3432
節度使	-11.3434
碍	-11.3435
牌	-11.3435
羌	-11.3435
貳	-11.3436
璽	-11.3436
廷	-11.3437
宫殿	-11.3437
強	-11.3438
蛾	-11.3438
櫃	-11.3438
渴飲	-11.3438
癢	-11.3439
叅同契	-11.344
驛	-11.3441
元始天王	-11.3441
長生乆視	-11.3442
奧	-11.3443
蕤	-11.3443
莫大乎	-11.3445
奴婢	-11.3445
衫	-11.3446
龔	-11.3446
恊	-11.3446
蠕	-11.3447
胚	-11.3447
素問六氣玄珠宻語卷之	-11.3447
倏忽	-11.3448
轄	-11.3449
萊	-11.3449
徼	-11.345
紗	-11.345
鐶	-11.3451
寛	-11.3451
巓	-11.3452
胃脘	-11.3452
膩	-11.3453
鑊	-11.3453
酷	-11.3453
閼	-11.3453
琰	-11.3455
浩劫	-11.3455
衒	-11.3456
稔	-11.3456
咽喉	-11.3457
漚	-11.3457
莫大於	-11.3458
聳	-11.346
父母未生	-11.3462
辜	-11.3463
足躡	-11.3463
華胥	-11.3467
參伍	-11.3467
冰雪	-11.3467
二七過	-11.3468
晡	-11.3468
東嶽	-11.3471
猶豫	-11.3472
交姤	-11.3474
支干	-11.3476
旦夕	-11.3476
歷歷	-11.3476
章第八	-11.3477
十洲	-11.3478
孫權	-11.3481
太霄	-11.3482
温凉	-11.3482
伯高曰	-11.3489
熱化二	-11.3494
陰陽升降	-11.3498
瓊花	-11.3501
徹視	-11.351
片時	-11.3511
養育	-11.3516
凡服氣	-11.3523
邪魔	-11.3528
旣濟	-11.3534
清凉	-11.3551
一斛	-11.3555
第十六	-11.3556
兩箇	-11.3583
三遍訖	-11.3599
堯夫非是愛吟詩	-11.363
荆州	-11.3699
二百一	-11.3704
循喉嚨	-11.3721
丹基	-11.3752
莫知所	-11.3759
校尉	-11.3767
白埃	-11.3772
與天地相	-11.3773
薩	-11.3775
祝融	-11.3776
週	-11.3778
漳	-11.3779
殗	-11.378
擢	-11.378
刳	-11.3781
三百有六十	-11.3782
千變萬化	-11.3783
諒	-11.3784
汙	-11.3784
閩	-11.3785
亹	-11.3785
譏	-11.3786
挼	-11.3787
嵐	-11.3787
皂	-11.3788
逞	-11.3791
穎	-11.3791
溽	-11.3791
嬪	-11.3793
菟	-11.3794
棟	-11.3794
驀	-11.3794
燋	-11.3794
鷺	-11.3794
袂	-11.3795
騷	-11.3795
瀾	-11.3795
大腸小腸	-11.3795
絞	-11.3796
笠	-11.3796
挂	-11.3796
瞞	-11.3796
羹	-11.3796
款	-11.3797
:	-11.3797
荆棘	-11.3797
形影	-11.3797
庖	-11.3798
瓦礫	-11.3798
哭泣	-11.3798
癰腫	-11.3799
欄	-11.3799
北方壬癸	-11.38
喘咳	-11.3801
黄帝問於岐伯曰	-11.3802
三百八十四爻	-11.3803
駡	-11.3803
三部九候	-11.3803
漉	-11.3804
歧	-11.3804
忙忙	-11.3805
臊	-11.3805
鼽	-11.3806
宿下管	-11.3807
綽	-11.3809
星君上應	-11.3809
坎离	-11.3814
下文云	-11.3822
保護	-11.3824
熱化七	-11.3829
補瀉	-11.3831
陽氣盛	-11.3832
换骨	-11.3832
卷舒	-11.3838
間斷	-11.3843
具載	-11.3847
朝暮	-11.3848
左旋	-11.3851
此章言	-11.3855
百穀	-11.3857
離中之	-11.3861
紅鉛	-11.3869
紛紜	-11.3876
美酒	-11.388
雜類	-11.3881
斷穀	-11.3897
了了	-11.3903
散髮	-11.3904
丈餘	-11.3909
老君曰夫	-11.3927
埃昏	-11.3928
情慾	-11.3929
幾何	-11.3951
亘古	-11.3951
玉壺	-11.3968
修錬	-11.3968
道之要	-11.3986
名之爲	-11.4073
者治其	-11.4092
堊	-11.4106
矣次六旬而	-11.4112
鐺	-11.4128
縉	-11.4133
粕	-11.4136
衮	-11.4139
嗅	-11.4139
悟真篇	-11.414
糜	-11.4141
千乘萬騎	-11.4142
僅	-11.4142
壟	-11.4142
叩齒二十四通	-11.4143
拖	-11.4144
衾	-11.4144
拄	-11.4144
楊上善云	-11.4145
臼	-11.4145
陽中之陰	-11.4147
仿	-11.4148
帷	-11.4148
陪	-11.4149
咽液九過	-11.4149
內	-11.4149
新校正云按楊上善云	-11.4149
榖	-11.4149
拉	-11.415
霏	-11.415
換	-11.415
日魂月魄	-11.415
王屋山	-11.415
幢	-11.415
氛	-11.4151
九還七返	-11.4151
軻	-11.4152
炷	-11.4152
萃	-11.4152
紊	-11.4152
包裹	-11.4153
眞一之水	-11.4153
塚	-11.4153
薤	-11.4154
筵	-11.4154
烹煎	-11.4154
黯	-11.4155
中書令	-11.4155
鏁	-11.4155
髯	-11.4156
故病如是	-11.4156
壼	-11.4156
驥	-11.4157
翅	-11.4158
含弘	-11.4158
擊壤集	-11.4158
曹溪	-11.4158
宿上治	-11.4159
賒	-11.4159
洪波	-11.4159
炅	-11.416
碗	-11.416
寂寥	-11.4161
金鐺	-11.4161
啄	-11.4164
新校正云按五常政大論云	-11.4166
流鈴	-11.4169
寒化一	-11.4169
所以然者	-11.417
陛下	-11.4171
開闢	-11.4186
步綱	-11.4189
頑空	-11.4189
魚際	-11.4195
秦伐	-11.4196
怡然	-11.4202
佛祖	-11.4202
箇箇	-11.4203
兒女	-11.4204
禮拜	-11.4208
曠然	-11.4215
紫户	-11.4218
讚曰	-11.422
十二支	-11.4221
可憐	-11.4222
比類	-11.4222
第二節	-11.4228
助國	-11.4229
同𩔖	-11.4234
遇至人	-11.4247
動摇	-11.4272
偃月	-11.4304
黄鍾	-11.4314
帝曰何謂	-11.4371
祖宗	-11.439
之爲物	-11.4416
心之火	-11.4467
其故何也	-11.4469
衣裳	-11.447
二寸半	-11.4478
衹	-11.4491
矣次而	-11.4495
日月之光	-11.4498
韭	-11.4499
歩躡	-11.45
呪畢	-11.4503
桐栢	-11.4503
岱	-11.4506
諾	-11.4507
百二十里曰	-11.4508
懺	-11.4508
噉	-11.4509
拌	-11.451
衂	-11.4511
淋	-11.4511
太微天帝君	-11.4512
新校正云按氣交變大論云	-11.4514
蹔	-11.4514
鳧	-11.4517
痕	-11.4517
徊	-11.4518
飴	-11.4518
覔	-11.4518
㕘	-11.4518
匡郭	-11.4518
吝	-11.4518
蚓	-11.4518
譴	-11.4519
鏗	-11.4519
捭	-11.452
難曰經言	-11.452
諂	-11.452
佚	-11.4522
碌	-11.4522
䐜	-11.4522
唐將軍	-11.4522
髭	-11.4523
楮	-11.4523
長司命李仲甫茅盈許玉斧等係代	-11.4524
轟	-11.4524
疹	-11.4524
憊	-11.4524
返本還元	-11.4524
虜	-11.4525
恡	-11.4525
閉氣三息	-11.4525
慵	-11.4526
朦	-11.4526
戍	-11.4526
浄	-11.4526
絮	-11.4526
榦	-11.4526
社稷	-11.4527
戊火運	-11.4528
鄕里	-11.4529
窘	-11.453
麾	-11.453
剌	-11.4532
纏綿	-11.4532
雨化五	-11.4533
三百八十四	-11.4533
譫	-11.4533
鑽	-11.4535
宿管天下	-11.4535
子午卯酉	-11.4535
瑶臺	-11.4537
命人禄壽禍	-11.4539
二百六	-11.4539
雞犬	-11.4542
學道之士	-11.4542
雷雨	-11.4547
愉	-11.4547
足跗	-11.4547
日三服	-11.4548
俠脊	-11.4548
銅鐵	-11.455
混融	-11.455
木火土	-11.4551
背俞	-11.4554
影響	-11.4554
低頭	-11.4556
清庵	-11.4557
老翁	-11.4558
邪客於	-11.4561
天帝位	-11.4567
坎户	-11.4569
大杼	-11.4574
祭酒	-11.4575
洛城	-11.4575
煉就	-11.4598
添汞	-11.4631
莫能知	-11.4758
此五者	-11.4762
黃帝	-11.4801
其上多金玉其下多	-11.4877
水出焉而東流注于	-11.488
蟾宫	-11.4883
邢	-11.4885
叶	-11.4888
涿	-11.4891
巡狩	-11.4891
卜筮	-11.4892
癲	-11.4895
殖	-11.4895
架	-11.4896
弋	-11.4896
金璫	-11.4896
正化令實	-11.4899
喜怒哀樂	-11.49
檻	-11.49
地下主者	-11.49
西昇經云	-11.4901
杳杳冥冥	-11.4901
擣篩	-11.4901
阮	-11.4901
輙	-11.4902
諠	-11.4902
綻	-11.4902
動脉應手	-11.4903
錦帔	-11.4903
虢	-11.4903
䘮	-11.4903
鶉	-11.4903
拽	-11.4904
瑟	-11.4904
蹶	-11.4904
鄂	-11.4905
攅	-11.4905
洒洒	-11.4906
疋	-11.4906
梳	-11.4906
湊	-11.4906
拊	-11.4908
淑	-11.4908
敘	-11.4908
關鍵	-11.4909
纖毫	-11.4909
谷神不死	-11.4909
繫辭曰	-11.491
懦	-11.491
它	-11.491
諮	-11.4911
螢	-11.4912
僑	-11.4912
黄裳	-11.4913
逹	-11.4913
佑	-11.4913
苔	-11.4913
遨遊	-11.4914
隕	-11.4914
辰戌丑未	-11.4914
瓊漿	-11.4914
肚	-11.4915
恤	-11.4915
蔬	-11.4916
雁	-11.4918
癰疽	-11.4918
炎暑	-11.4919
瘡瘍	-11.4921
吟詠	-11.4922
䐃	-11.4923
伐吴	-11.4926
蝗	-11.4928
展轉	-11.4928
徹底	-11.4928
腦户	-11.4929
澄澄	-11.4931
正陽之氣	-11.4931
這般	-11.4931
與天地齊	-11.4932
訥	-11.4932
跳出	-11.4938
章第五十	-11.4941
在其中矣	-11.4958
甲庚	-11.4962
曰吾聞	-11.4967
廓然	-11.4973
者汞也	-11.4978
胃管	-11.4988
審察	-11.4999
雲笈七籤卷之一百	-11.5028
手摩	-11.5075
涓子	-11.5088
吉解曰	-11.5119
石硫黄	-11.5127
靈樞經	-11.5198
磁	-11.5216
吐蕃	-11.5261
巇	-11.5282
礪	-11.5285
樗	-11.5286
翦	-11.5289
縳	-11.5291
榛	-11.5294
范蠡	-11.5295
謨	-11.5295
璇	-11.5295
剔	-11.5296
踴	-11.5296
賾	-11.5297
邯	-11.5298
葺	-11.5298
沓	-11.5298
搓	-11.5298
牲	-11.53
嚼	-11.5301
悚	-11.5301
吠	-11.5301
棋	-11.5302
隗	-11.5303
飧泄	-11.5303
礜石	-11.5303
悠	-11.5304
咨	-11.5304
頡	-11.5304
窈窕	-11.5304
勤而行之	-11.5305
馥	-11.5305
汪	-11.5306
一呼一吸	-11.5307
脈	-11.5307
觴	-11.5307
趍	-11.5308
痔	-11.5308
宸	-11.5308
曳	-11.5309
倏	-11.5309
左足躡	-11.5309
黄帝内經靈樞集註卷之	-11.5309
晦朔之間	-11.531
廊	-11.531
衆妙之門	-11.5311
崗	-11.5311
獅子	-11.5312
皎皎	-11.5312
脣	-11.5312
閡	-11.5312
悦	-11.5313
朋友	-11.5314
沉淪	-11.5314
超凡入聖	-11.5314
玄關一竅	-11.5317
娱	-11.5317
東流水	-11.5317
東西南北	-11.5318
門戸	-11.5318
火生土	-11.5318
正化盛而實勝而不復	-11.5319
胂	-11.5322
悗	-11.5322
焫	-11.5323
夢寐	-11.5323
旦暮	-11.5324
䆫	-11.5324
瀛洲	-11.5326
晩晩晩晩	-11.5326
髀樞	-11.5329
偃月爐	-11.5331
符牒	-11.5331
早晩	-11.5331
□□	-11.5336
精粹	-11.5336
省悟	-11.5338
傳非人	-11.5338
循臂	-11.5338
青龍白虎	-11.5339
樓臺	-11.534
光明砂	-11.5359
同身寸之二寸	-11.5418
日起子	-11.5431
十五里	-11.5447
一千九	-11.5523
配衣轉天關	-11.5531
一千三	-11.561
一千二	-11.5648
杼	-11.5677
鉅	-11.5696
姚興	-11.5696
夸	-11.5704
謡	-11.5704
有草焉	-11.5704
弭	-11.5705
瘉	-11.5706
柰	-11.5707
翥	-11.5708
𠕋	-11.5708
岷	-11.5709
廵	-11.5709
繆	-11.5709
螻蟻	-11.5711
孛	-11.5711
肱	-11.5712
帝嚳	-11.5712
夔	-11.5712
企	-11.5712
歐	-11.5713
老聃	-11.5713
臍下三寸	-11.5713
華陽隱居	-11.5714
譎	-11.5714
笻	-11.5715
覲	-11.5715
貪嗔	-11.5716
啄齒	-11.5716
煖	-11.5717
駟	-11.5717
懈怠	-11.5717
娘	-11.5717
坊	-11.5718
速於水火	-11.5718
何謂歟正陽子曰	-11.5718
彝	-11.5719
瞬	-11.572
梧桐	-11.572
萬二千	-11.5722
碧潭	-11.5722
縹	-11.5722
雰	-11.5723
搬	-11.5723
痼	-11.5723
杪	-11.5723
贅	-11.5723
無中生有	-11.5724
耳目聦明	-11.5724
褚	-11.5725
償	-11.5725
䝿	-11.5727
甄	-11.5727
衲	-11.5727
蓑	-11.5728
煒	-11.5728
廕	-11.5728
濮	-11.5729
掀	-11.5729
専	-11.573
烝	-11.5731
粧	-11.5733
故下文曰	-11.5734
一二三四	-11.5734
蓼	-11.5734
兒孫	-11.5735
俛仰	-11.5736
朗朗	-11.5737
踐位	-11.5739
滕	-11.5739
槃	-11.5739
紋	-11.574
誰肯	-11.574
蜀郡	-11.574
足脛	-11.5745
吉祥	-11.575
氣上騰	-11.575
如之何	-11.5775
之門户也	-11.5802
肢體	-11.5996
龍蟠	-11.6015
《	-11.6077
》	-11.608
圖子欲	-11.6114
州軍亂	-11.6123
彙	-11.6127
晟	-11.613
嗣位是謂	-11.613
𩲃	-11.613
柘	-11.6132
丕	-11.6138
鋭	-11.6139
糈	-11.6142
唏	-11.6143
曄	-11.6143
扁	-11.6144
崐	-11.6146
砥	-11.6146
輳	-11.6147
閉目内視	-11.6147
璣	-11.6148
巫咸	-11.6148
白日上昇	-11.6149
蠅	-11.6149
惺	-11.615
馴	-11.615
瑜	-11.615
倉廪	-11.615
挑	-11.6151
涅槃	-11.6151
箴	-11.6151
瀛	-11.6151
渾淪	-11.6151
睫	-11.6151
鸇	-11.6152
查	-11.6152
天地水三官	-11.6152
収	-11.6152
對化有間與運	-11.6153
坼	-11.6153
勇猛	-11.6154
兜	-11.6154
本來面目	-11.6154
膊	-11.6154
嶮	-11.6154
轆	-11.6154
灼灼	-11.6154
蓬島	-11.6155
㣲	-11.6155
河魁	-11.6155
砭石	-11.6156
冉冉	-11.6156
四千三百二十	-11.6156
檐	-11.6157
伊尹	-11.6157
僣	-11.6157
繩墨	-11.6158
鄞鄂	-11.6158
巒	-11.6158
嶷	-11.6159
六百篇	-11.6159
彌綸	-11.6159
蟠桃	-11.616
炫	-11.616
渾沌	-11.6161
瘁	-11.6161
溏	-11.6162
蝎	-11.6162
垓	-11.6163
陜	-11.6163
跌	-11.6163
攢	-11.6164
中央黄老君	-11.6164
帙	-11.6165
干戈	-11.6165
猫	-11.6165
暘	-11.6166
金丹大藥	-11.6166
陽中有陰	-11.6166
閒	-11.6167
蹤跡	-11.6167
古歌曰	-11.6168
舛	-11.6168
留而不去	-11.6169
水火既濟	-11.6169
燎	-11.6171
般般	-11.6172
二穴在足	-11.6172
畫八卦	-11.6173
箋	-11.6174
心包絡	-11.6175
黄帝曰余聞	-11.6175
盈縮	-11.6175
无能子	-11.6176
指揮	-11.6177
嵩高	-11.6177
園林	-11.618
夷狄	-11.6182
季脇	-11.619
騰騰	-11.6199
二千八	-11.621
土生金	-11.6211
水數一	-11.6214
尸蟲	-11.6323
一千五	-11.6348
一千七	-11.6524
二千六	-11.6539
二千二	-11.6545
二千七	-11.6565
二千一	-11.6574
一千一	-11.6575
鯀	-11.6581
徵火音也	-11.6582
莢	-11.6583
昱	-11.6584
咄	-11.6585
修黄籙道場	-11.659
凱	-11.659
荼	-11.6592
西城王君	-11.6592
鳯	-11.6596
聶	-11.6597
女媧	-11.6597
峽	-11.6597
溥	-11.6597
羨	-11.6598
匙	-11.6599
芸芸	-11.6601
陶弘景	-11.6601
軒冕	-11.6601
瓮	-11.6602
後聖君告天師曰	-11.6603
叠	-11.6603
歃	-11.6604
之原出於	-11.6604
疥	-11.6605
佗	-11.6605
昺	-11.6605
努	-11.6605
坐在立亡	-11.6605
五嶽眞形	-11.6606
鍛	-11.6606
自下而上	-11.6606
三魂七魄	-11.6606
二千四	-11.6607
倪	-11.6607
篋	-11.6607
咀	-11.6607
羶	-11.6608
錐	-11.6609
銚	-11.661
新校正云按六元正紀大論云	-11.6611
如韭葉	-11.6611
燿	-11.6611
熈	-11.6613
嗷	-11.6613
榆莢	-11.6613
征伐	-11.6613
悳	-11.6613
楗	-11.6615
疎	-11.6615
五月五日	-11.6615
炊	-11.6615
庇	-11.6616
𢘆守我	-11.6616
目内眥	-11.6616
夙夜	-11.6616
莒	-11.6616
旂	-11.6617
晉	-11.6618
大矣哉	-11.6618
舂	-11.6619
陰中有陽	-11.6619
撩	-11.6621
刹	-11.6621
呻	-11.6621
艶	-11.6622
休糧	-11.6623
譆	-11.6623
泮	-11.6623
遑	-11.6623
眹	-11.6624
對化盛而不實勝而有復	-11.6624
寒化六	-11.6624
巅	-11.6624
十餘里	-11.6625
鴨	-11.6626
鄒	-11.6626
少俞曰	-11.6627
悄	-11.6627
煅煉	-11.6631
之所致也	-11.6631
北正司天天面向南左東直右西直上正	-11.664
羲皇	-11.6641
收斂	-11.6646
則太上云	-11.6648
月二十七日	-11.6663
胃脉也	-11.667
雲笈七籤卷之一百一十	-11.6702
壬寅癸卯甲辰	-11.6766
在其東	-11.6809
二千五	-11.6903
一千四	-11.6967
疸	-11.7037
二千三	-11.7048
四千二	-11.7054
陬	-11.7056
覈	-11.7063
蜚	-11.7063
跋	-11.7068
渤海	-11.7071
冉	-11.7071
役使鬼神	-11.7073
秃	-11.7074
啞	-11.7075
是也䟽曰	-11.7075
掠	-11.7075
煮	-11.7076
蟬蛻	-11.7077
髦	-11.7077
淄	-11.7077
戢	-11.7077
穹	-11.7078
新枝正云按	-11.7078
確	-11.7079
㠯	-11.708
罣	-11.708
一隂一陽	-11.708
渝	-11.708
牟	-11.7081
糾	-11.7081
木運角木音也	-11.7081
曽	-11.7082
痢	-11.7082
芻	-11.7082
捩	-11.7083
龍吟虎嘯	-11.7083
畒	-11.7083
咬	-11.7084
釁	-11.7084
錯綜	-11.7084
五日一候	-11.7084
佇	-11.7084
嫗	-11.7085
撼	-11.7085
硃砂	-11.7086
個	-11.7086
五運行大論	-11.7086
讖	-11.7086
葆	-11.7088
曇	-11.7088
綿綿若存	-11.7089
依韻和	-11.7089
白日升天	-11.709
歸根復命	-11.709
見龍在田	-11.7091
巻	-11.7091
咀嚼	-11.7091
復命篇云	-11.7092
緻	-11.7092
毬	-11.7092
滲泄	-11.7093
鼽衂	-11.7093
岩	-11.7093
隊	-11.7093
悽	-11.7093
嚴固守之使	-11.7093
𦙄	-11.7094
慳	-11.7094
眦	-11.7094
貨財	-11.7094
翱翔	-11.7095
眞鉛眞汞	-11.7096
祗	-11.7096
㝠㝠	-11.7098
冰雹	-11.7098
礦	-11.71
白馬牙	-11.71
嫁娶	-11.7101
釘	-11.7101
筋攣	-11.7101
倘	-11.7102
淅	-11.7102
祭醮	-11.7102
叢林	-11.7102
古歌云	-11.7103
丈二尺	-11.7104
鍾吕	-11.7106
氷雪	-11.7108
癲疾	-11.711
嶠	-11.7112
天數有餘	-11.7115
郗	-11.7118
乎其中矣	-11.712
麻姑	-11.7122
四千一	-11.7123
從何而	-11.714
問其故	-11.7184
戊子己丑庚寅辛卯壬辰癸巳	-11.7522
萇	-11.7537
陛	-11.756
羽水音也	-11.7561
鬛	-11.7561
嘿庵	-11.7564
縞	-11.7564
駢	-11.757
眞誥卷之十	-11.7571
訾	-11.7572
蟹	-11.7572
絆	-11.7573
叡	-11.7574
三歩九跡	-11.7574
乂	-11.7574
琮	-11.7574
漓	-11.7575
其要在乎	-11.7576
金闕右卿司命蓬萊都水	-11.7577
猷	-11.7577
椀	-11.7578
穗	-11.7578
睢	-11.7579
非有非無	-11.7579
塔	-11.7579
餉	-11.758
誼	-11.758
贖	-11.7581
沌	-11.7582
佯	-11.7582
痞	-11.7583
璈	-11.7583
躄	-11.7583
三日三夜	-11.7583
鬼臾區	-11.7583
惺惺	-11.7584
暨	-11.7584
螺	-11.7584
酪	-11.7585
自古及今	-11.7585
魍	-11.7586
流金火鈴	-11.7586
蝦	-11.7586
址	-11.7586
嗔怒	-11.7586
彷彿	-11.7587
城隍	-11.7587
青木香	-11.7587
呌	-11.7587
衿	-11.7587
哂	-11.7588
幅	-11.7588
轝	-11.7588
佐以苦	-11.7588
三天正法	-11.7589
沿	-11.7589
渺渺	-11.759
黄帝素問靈樞集註卷之	-11.759
痰	-11.759
澡雪	-11.7591
王子喬	-11.7591
甌	-11.7591
清靈眞人	-11.7591
縻	-11.7591
荔	-11.7591
潁川	-11.7591
䖍	-11.7592
琉璃	-11.7594
尖	-11.7594
髃	-11.7594
抱元守一	-11.7595
留六呼若灸者可灸三壯	-11.7596
田𧖟	-11.7596
從兆泥丸中入下布兆	-11.7597
裊	-11.7598
醪	-11.7599
寵辱	-11.7599
年乙丑丙寅丁卯	-11.76
藕	-11.76
麴	-11.76
揀	-11.76
伊川擊壤集卷之十	-11.7602
遟	-11.7605
冗	-11.7606
僵	-11.7606
慣	-11.7606
嬴	-11.761
痎	-11.7611
田蠶	-11.7611
以胃氣爲本	-11.7612
神之舍	-11.7663
篇第十	-11.7701
雲笈七籤卷之八十	-11.7878
雲笈七籤卷之六十	-11.7932
雲笈七籤卷之七十	-11.7966
乙亥丙子丁丑戊寅己卯	-11.8053
道樞卷之十	-11.8086
裸	-11.8089
泳	-11.8091
桎	-11.8092
常能行之	-11.8093
嵬	-11.8093
昰	-11.8095
跂	-11.8096
狙	-11.8096
曦	-11.8097
勗	-11.8099
狩	-11.81
輻輳	-11.81
炬	-11.81
褥	-11.8102
晁	-11.8102
我命在我	-11.8103
孰能與於此	-11.8104
迄	-11.8105
翩翩	-11.8106
罹	-11.8106
緇	-11.8107
捍	-11.8108
瘳	-11.8109
稻米	-11.811
靈飛六甲	-11.811
繳	-11.811
覷	-11.8111
宛宛中	-11.8111
匆	-11.8111
畝	-11.8111
隘	-11.8112
頁	-11.8113
汲汲	-11.8113
矧	-11.8115
次右間從偶即先右間次左間也	-11.8115
留三呼若灸者可灸三壯	-11.8115
拔宅上昇	-11.8115
需	-11.8115
慼	-11.8115
粳	-11.8116
紆	-11.8116
黄帝内經素問補註釋文卷之十	-11.8116
咳嗽	-11.8117
睽	-11.8117
河上公	-11.8118
象帝之先	-11.8118
螻	-11.8118
五常政大論	-11.812
臉	-11.812
憔悴	-11.812
腸澼	-11.8121
綿綿若存用之不勤	-11.8122
鷗	-11.8122
伊川邵雍堯夫	-11.8122
躔	-11.8122
從本生數	-11.8122
年乙未丙申丁酉戊戌己亥庚子辛丑	-11.8123
帝曰治之奈何岐伯曰	-11.8123
戊辰己巳庚午辛未壬申癸酉甲戌	-11.8123
忖	-11.8125
無爲而無不爲	-11.8125
杳杳	-11.8126
頏	-11.8127
黵	-11.8128
菀	-11.8128
嚙	-11.8129
堵	-11.8131
桐柏	-11.8131
窩	-11.8134
沽	-11.8134
明月清風	-11.8135
異於常	-11.814
倩	-11.814
日夜半時	-11.8144
不得已而	-11.8164
在掌後	-11.818
雲笈七籤卷之九十	-11.8373
右二條	-11.8518
道樞卷之三十	-11.8524
道樞卷之二十	-11.8598
水出焉而北流注于	-11.864
窳	-11.8643
瑰	-11.8644
𩵄	-11.8646
劬	-11.8646
四百里曰	-11.8646
硇砂	-11.8649
拇	-11.865
梏	-11.8651
鴆	-11.8652
其鳥多	-11.8653
煴	-11.8654
圈	-11.8654
机	-11.8655
雎	-11.8657
械	-11.8657
壷	-11.8657
涅	-11.8657
一陽初動	-11.8659
勛	-11.866
釀	-11.866
卭	-11.866
亶	-11.866
闓	-11.866
杻	-11.866
白日昇仙	-11.8662
自上而下	-11.8662
杲	-11.8662
坯	-11.8662
至簡至易	-11.8662
沅	-11.8662
晞	-11.8664
穡	-11.8666
搐	-11.8666
鈔	-11.8666
麒麟	-11.8667
瓷	-11.8667
中華仙人李淳風注	-11.8667
魑	-11.8668
一生二二生三三生萬物	-11.8668
赤石脂	-11.8668
漯	-11.8669
一點靈光	-11.8669
毓	-11.8669
叩齒十二通	-11.867
痤	-11.867
八萬四千	-11.867
向水中生	-11.867
笋	-11.8671
鏤	-11.8672
葫	-11.8672
厮	-11.8672
西江月	-11.8674
貺	-11.8675
龍從火裏	-11.8675
眞君降言曰	-11.8675
殫	-11.8675
爇	-11.8675
蓽	-11.8675
彬	-11.8676
䑕	-11.8677
覿	-11.8677
愕	-11.8677
畎	-11.8678
泡	-11.8679
押	-11.868
妓	-11.8683
六元正紀大論	-11.8684
慓	-11.8684
瞎	-11.8685
嵓	-11.8685
三五七九	-11.8686
淡泊	-11.8686
薺	-11.8686
刻火入地也	-11.8686
髁	-11.8686
幈	-11.8687
旛	-11.8688
硯	-11.869
愠	-11.869
歴	-11.8691
哩	-11.8692
南華老仙	-11.8696
瑋	-11.8711
太陽脉氣所發	-11.8717
隂年不及故少	-11.8768
乙巳丙午丁未戊申己酉庚戌辛亥	-11.8876
右三條	-11.9087
天元紀大論	-11.9121
庚辰辛巳壬午癸未甲申乙酉丙戌丁亥	-11.9187
又南三百里曰	-11.9218
又東五百里曰	-11.922
渥	-11.9223
㯶	-11.9223
藏氣法時論	-11.9224
犍	-11.9225
扺	-11.9227
堝	-11.9232
蒨	-11.9235
駮	-11.9237
蚊	-11.924
鵰	-11.9241
蹋	-11.9241
翌	-11.9242
凖	-11.9242
罅	-11.9243
嫉妬	-11.9243
恍恍惚惚	-11.9243
組	-11.9243
葦	-11.9244
▲	-11.9244
圉	-11.9244
鄆	-11.9245
龢	-11.9245
溟涬	-11.9245
詹	-11.9246
纒	-11.9246
藿	-11.9246
紳	-11.9246
膳	-11.9246
鑰	-11.9247
如彈丸	-11.9248
複	-11.9248
羲頓首頓首	-11.9248
珊	-11.9248
古先至人	-11.9249
母隱子胎	-11.9249
闈	-11.925
禹歩三歩九跡	-11.925
炒	-11.925
迺	-11.925
三尸九蟲	-11.925
不可勝數	-11.925
天一生水	-11.925
絪緼	-11.9251
鴉	-11.9251
塩	-11.9251
一萬事畢	-11.9251
癇	-11.9251
浣	-11.9252
相得即小間小間即一間也地從奇即	-11.9253
入藥鏡	-11.9253
叩齒七通	-11.9253
燮	-11.9253
箱	-11.9254
此資生第二元	-11.9254
婉	-11.9255
疣	-11.9255
霪	-11.9255
蓋謂此也	-11.9255
拗	-11.9255
五嶽四瀆	-11.9255
還源篇	-11.9255
先左間不右間從偶即先右間不左間也	-11.9256
餚	-11.9256
渟	-11.9256
寮	-11.9256
缾	-11.9256
潦	-11.9256
娠	-11.9257
倡	-11.9257
兩筋間	-11.9257
洿	-11.9258
渌	-11.9258
諳	-11.9259
坡	-11.9259
繚	-11.926
肘後飛金晶	-11.926
延年益壽	-11.926
噏	-11.926
壠	-11.926
不盛不虚以經取之	-11.9261
棹	-11.9261
猖	-11.9261
瘴	-11.9262
脉之所入也刺可入同身寸之	-11.9262
代書寄	-11.9262
匏	-11.9262
噪	-11.9262
宥	-11.9263
逈	-11.9263
衆卦之父母	-11.9263
人發之治王	-11.9264
枷	-11.9264
諍	-11.9264
不亦難乎	-11.9264
熇	-11.9264
樽	-11.9266
窠	-11.9266
僖	-11.9266
土數五	-11.9266
踪	-11.9267
怵	-11.9267
其或未然	-11.9268
嘶	-11.9268
朧	-11.9268
縁督子	-11.9268
埏	-11.9269
流水不冰	-11.9269
鈹	-11.9269
淫泆	-11.927
黛	-11.927
蛙	-11.927
眺	-11.9271
巵	-11.9271
葛藤	-11.9272
簮	-11.9272
黄帝内經素問補註釋文卷之二	-11.9278
之籍係色界	-11.9279
敝	-11.9285
頄	-11.9288
揵	-11.9289
月十四日	-11.9481
金運商金音	-11.9525
平人氣象論	-11.9831
蛩	-11.9838
袁紹	-11.9839
帝崩皇太子	-11.9842
郭璞傳	-11.9848
潞	-11.9855
紺	-11.9856
虺	-11.9856
鴞	-11.9858
水出焉而南流注于	-11.9858
芮	-11.9859
䰢	-11.9859
多㻬琈之玉	-11.9859
餒	-11.9859
帆	-11.986
下獄死	-11.986
氏爲皇后	-11.9861
鎻	-11.9862
魓	-11.9863
嗚	-11.9863
咤	-11.9864
歆	-11.9867
罵詈	-11.9867
一升一降	-11.9867
乘雲駕龍	-11.9869
𧷤	-11.987
鍮	-11.987
䢉	-11.9871
技	-11.9871
此資生第五元	-11.9871
榴	-11.9872
澈	-11.9872
囟	-11.9873
兩手相叉	-11.9873
泗	-11.9873
麝	-11.9874
專氣致柔	-11.9874
殄	-11.9875
陽陵泉	-11.9875
啗	-11.9875
緱	-11.9875
璋	-11.9876
鹵	-11.9877
陞	-11.9877
諄	-11.9877
慚愧	-11.9877
揩	-11.9878
蝸	-11.9878
醯	-11.9878
紈	-11.9878
非天下之至	-11.9878
妊	-11.9879
楷	-11.9879
迂	-11.9879
蓬瀛	-11.988
螫	-11.988
殯	-11.988
潜龍勿用	-11.988
孑	-11.9881
鴛鴦	-11.9881
啓玄子述	-11.9881
粃	-11.9881
茵	-11.9881
服二十丸	-11.9881
姥	-11.9882
如如不動	-11.9882
藪	-11.9882
嶂	-11.9883
鈐	-11.9883
菲	-11.9884
赤氣在上熱行於天	-11.9884
插	-11.9886
者不知何許人也	-11.9886
頞	-11.9886
者何氣使然岐伯曰	-11.9886
颯	-11.9887
蠧	-11.9887
懐	-11.9887
多血少氣	-11.9887
藤	-11.9887
隂中之陽	-11.9888
捺	-11.9888
日月合璧	-11.9888
蕙	-11.9888
笥	-11.9888
炅煌	-11.9888
身外有身	-11.9888
詬	-11.9889
囉	-11.9889
𠫤	-11.9889
搆	-11.9889
蘖	-11.989
螟	-11.989
慝	-11.989
凭欄	-11.989
簷	-11.9891
瞥	-11.9891
榭	-11.9891
賫	-11.9891
午爲離其數九	-11.9893
皷	-11.9894
年老逢春	-11.9894
剩	-11.9894
蠟	-11.9894
兀兀	-11.9895
鑱	-11.9896
斯之謂歟	-11.9896
訶	-11.9898
盥	-11.9898
痠	-11.9898
滚	-11.9899
僂	-11.9899
病亡年	-11.9901
蘧	-11.9902
搶	-11.9902
磚	-11.9904
紫微王夫人	-11.9904
萼	-11.9905
蠡	-11.9906
骶	-11.9908
耘	-11.9908
新校正云按四時刺逆從論云	-11.9909
占者得之	-11.9909
愔	-11.991
䭀飯	-11.9911
轉天關指	-12.0212
讙	-12.0503
勺	-12.0512
濬	-12.0514
李茂貞	-12.0515
王崩太子	-12.0516
璿	-12.0516
矇	-12.0522
𩳐	-12.0525
悟眞篇	-12.0527
熊羆	-12.053
水出焉而西流注于	-12.053
臥	-12.0531
一動一靜	-12.0532
慤	-12.0534
樞宻使	-12.0534
詆	-12.0536
紅霞子	-12.0536
煌煌	-12.0538
舄	-12.0538
柟	-12.0538
陔	-12.0539
嗤	-12.0539
磻	-12.0539
鉗	-12.0539
酢	-12.054
太陽所至爲	-12.054
畋	-12.054
瘠	-12.0541
鍵	-12.0541
捶	-12.0542
覬	-12.0542
陽明所至爲	-12.0542
兩筋之間	-12.0542
培	-12.0543
詫	-12.0543
黄籙道場	-12.0544
同正商	-12.0544
姧	-12.0544
錙	-12.0544
鷙	-12.0545
惋	-12.0545
礫	-12.0546
噲	-12.0546
誚	-12.0547
簞瓢	-12.0547
熹	-12.0547
萋	-12.0547
脉之所行也刺可入同身寸之	-12.0547
慚	-12.0548
櫟	-12.0548
苖	-12.0548
之謂也修夫	-12.0548
譔	-12.0548
恙	-12.0549
忝	-12.0549
醖	-12.055
寅爲艮其數八	-12.055
陽中之隂	-12.055
稅	-12.055
天虚運不佐天即大間大間即左右俱間	-12.055
貸	-12.0551
奬	-12.0551
踊	-12.0551
傚	-12.0551
剉	-12.0551
訊	-12.0551
何氣使然	-12.0552
金眞玉光	-12.0552
詘	-12.0552
跛	-12.0553
紫霄絳宫上陽子觀吾陳致虚撰	-12.0553
功成行滿	-12.0553
麥門冬	-12.0553
琪	-12.0554
上善若水	-12.0554
沴	-12.0555
生氣通天論	-12.0555
緬	-12.0555
航	-12.0556
到這裏	-12.0556
中華總眞大仙宰	-12.0556
嶸	-12.0557
聆	-12.0557
憺	-12.0557
竪	-12.0558
沼	-12.0558
五呼若灸者可灸三壯	-12.0558
六七八九	-12.0559
𥋋	-12.0559
乾坤者易之門户	-12.056
倮倮洒洒	-12.056
撒	-12.056
廛	-12.0561
刮	-12.0561
藥食宜也新校正云按玄珠云	-12.0563
歸去來兮	-12.0564
旡	-12.0564
徐從事	-12.0565
颼	-12.0567
申爲坤其數二	-12.0567
彷	-12.057
廨	-12.0571
觀物篇之二十	-12.0571
國並九小國下管人間	-12.0578
厥炁客於	-12.0585
䏚	-12.0591
壬子癸丑甲寅乙卯丙辰丁巳戊午己未	-12.0797
順倒反	-12.0838
笑呵呵	-12.0898
呵呵笑	-12.0906
運北正司天天面向南左東直右西直	-12.1037
新校正云按金匱眞言論	-12.1229
山海經卷之十	-12.123
潼	-12.1234
璫	-12.1236
駝	-12.1239
匈	-12.124
屐	-12.1241
物理窺開後人情照破	-12.1242
趺	-12.1244
鮫	-12.1246
坂	-12.1246
筯	-12.1247
紫極宫	-12.1247
喚	-12.1249
眼耳鼻舌	-12.1249
䝉	-12.1249
拶	-12.1249
瑾	-12.125
鶩	-12.125
搭	-12.125
珉	-12.125
浹	-12.1251
公卒世子	-12.1251
覃	-12.1252
亢倉子	-12.1252
郝	-12.1252
簁	-12.1253
猥	-12.1253
罄	-12.1253
六節藏象	-12.1253
懵	-12.1253
廳	-12.1254
僭	-12.1254
御政之首	-12.1255
褁	-12.1255
囿	-12.1256
嵒	-12.1256
少陽所至爲	-12.1256
烱	-12.1256
粱	-12.1256
見則天下大	-12.1257
褰	-12.1257
謌	-12.1257
窈窈冥冥	-12.1257
芷	-12.1257
糵	-12.1257
懾	-12.1257
五位相得而各有合	-12.1258
有名萬物之母	-12.1258
㤅	-12.1258
三十輻共一轂	-12.1258
聴	-12.1258
蔑	-12.1259
西南得朋	-12.1259
緜	-12.126
是死炁之門	-12.1261
煌	-12.1261
畿	-12.1261
百姓日用而不知	-12.1261
湣	-12.1262
騏	-12.1262
攫	-12.1262
千經萬論	-12.1262
彗	-12.1263
愴	-12.1263
隱符太上大道君次乘	-12.1263
燁	-12.1263
黽	-12.1263
吕洞賔	-12.1263
因母立兆基	-12.1264
神光不聚	-12.1264
一陰一陽之謂道	-12.1264
脉動應手	-12.1264
象彼仲冬節	-12.1265
倨	-12.1265
婪	-12.1265
皋	-12.1265
願某飛仙	-12.1265
素履子曰	-12.1266
罟	-12.1266
U	-12.1266
滿庭芳	-12.1266
A	-12.1266
N	-12.1266
吐故納新	-12.1266
亥子丑	-12.1267
参	-12.1267
產	-12.1267
顗	-12.1267
J	-12.1267
璚	-12.1267
紫度炎光	-12.1267
噀	-12.1267
法天象地	-12.1267
翡	-12.1268
撈	-12.1268
雛	-12.1269
殽	-12.1269
悒	-12.1269
股内後廉貫脊屬腎	-12.127
丹砂木精得金乃并	-12.127
店	-12.127
顱	-12.1272
癥	-12.1272
迤邐	-12.1272
俸	-12.1272
蚤	-12.1273
返老還童	-12.1273
璃	-12.1273
榼	-12.1273
迴光返照	-12.1274
閟	-12.1275
垠	-12.1275
氈	-12.1276
損之又損	-12.1278
九眞中經	-12.1278
椎之傍	-12.1278
旬有六日	-12.1279
騖	-12.1279
又按至眞要大論云	-12.1279
則文始眞經云	-12.128
痴	-12.1281
迢	-12.1282
炮	-12.1283
瑣	-12.1283
飋	-12.1283
耨	-12.1284
黄帝八十一難經纂圖句解卷之	-12.1285
縑	-12.1285
徨	-12.1286
砌	-12.129
刺禁論	-12.1293
脉令人腰痛	-12.1306
内氣自極七息	-12.1314
玉機眞藏論	-12.1328
三分留七呼若灸者可灸三壯	-12.1542
;	-12.1949
阯	-12.1989
沮渠蒙遜	-12.199
琨	-12.1994
邳	-12.1995
顥	-12.1999
虻	-12.1999
録尚書事	-12.2004
鯢	-12.2004
水出焉東流注于	-12.2005
婺	-12.2007
桑榆子曰	-12.2008
哥	-12.2009
洮	-12.201
霆	-12.2011
菅	-12.2012
頒	-12.2012
里其神狀皆	-12.2014
修黄籙齋	-12.2015
灘	-12.2015
逵	-12.2015
鴣	-12.2017
又北二百里曰	-12.2017
繹	-12.2017
秖	-12.2018
纍	-12.2019
鳶	-12.2019
左手第四指	-12.2019
鐸	-12.202
鎚	-12.202
浚	-12.202
墀	-12.2021
薨	-12.2021
朝屯暮蒙	-12.2021
㸘	-12.2022
苴	-12.2022
經星之甲二百	-12.2022
茍	-12.2023
潁	-12.2023
打成一片	-12.2023
天一地二	-12.2024
登眞隱訣	-12.2024
湍	-12.2025
邵康節	-12.2025
太陰所至爲	-12.2026
丙申丁酉戊戌己亥庚子辛丑	-12.2026
勒陽關	-12.2026
三洞經教部經	-12.2027
蘸	-12.2027
韓趙魏	-12.2027
皇甫士安	-12.2027
汰	-12.2027
綃	-12.2028
少陰所至爲	-12.2028
河上姹女	-12.2028
媿	-12.2028
泌	-12.2028
癭	-12.2029
楓	-12.2029
枳	-12.2029
歙	-12.2029
孳	-12.2029
銓	-12.203
娉	-12.203
鸚	-12.203
本性共宗祖	-12.203
此資生第四元	-12.2031
球	-12.2031
賑	-12.2031
璜	-12.2031
曼	-12.2031
燃	-12.2031
臁	-12.2032
巘	-12.2032
鏘	-12.2032
蓊	-12.2033
廪	-12.2033
深根固蒂	-12.2033
偽	-12.2033
欵	-12.2034
脉之所注也刺可入同身寸之	-12.2034
瓠	-12.2034
怱	-12.2034
丐	-12.2034
酉爲兊其數七	-12.2035
吳	-12.2035
牋	-12.2035
涣	-12.2035
也天從奇即先左間	-12.2035
淒	-12.2036
姹	-12.2036
糊	-12.2036
小間小間即一間也天從奇即先左間不	-12.2036
申酉戌	-12.2036
訂	-12.2036
嘲	-12.2036
暎	-12.2037
毫髮差殊	-12.2037
鞠	-12.2037
帝曰願卒聞之岐伯曰	-12.2037
譙	-12.2037
常無欲以觀其妙	-12.2038
藁	-12.2038
一晝一夜	-12.2038
日火始治天始行天令	-12.2039
少俞答曰	-12.2039
鼔	-12.204
天地之數五十有五	-12.204
殳	-12.2041
新校正云按全元起云	-12.2041
瘻	-12.2041
端去爪甲如韭葉	-12.2042
貂	-12.2043
耄	-12.2043
僊	-12.2043
拏	-12.2043
戕	-12.2044
汶	-12.2044
凭	-12.2044
肴	-12.2045
劍	-12.2046
欹	-12.2047
灧	-12.2047
火始治地也熱行於地苦物乃生	-12.2047
繭	-12.2047
奠	-12.2048
右手撫心左手指	-12.2048
䂓	-12.2048
駑	-12.2049
諛	-12.2049
浥	-12.2049
岐伯曰悉乎哉問也	-12.205
胗	-12.205
憾	-12.2051
晦朔弦望	-12.2051
茗	-12.2052
槍	-12.2054
殢	-12.2063
僮	-12.2064
孟嘗君	-12.2064
堯夫非是愛吟詩詩是堯夫自	-12.2453
壬寅癸卯甲辰乙巳丙午丁未戊申己酉	-12.2578
庚戌辛亥壬子癸丑甲寅乙卯丙辰	-12.2579
丁巳戊午己未庚申辛酉壬戌癸亥	-12.258
泚	-12.2819
柞	-12.2821
以元經會之	-12.2822
澧	-12.2832
窫	-12.2832
稌	-12.2838
圓陀陀	-12.2839
蠢動含靈	-12.2839
色聲香味	-12.2843
靳	-12.2844
勅	-12.2844
右僕射	-12.2844
曈	-12.2844
蜼	-12.2844
窅	-12.2846
汚	-12.2846
赧	-12.2847
咏	-12.2847
猗	-12.2848
溪上眞廟在	-12.2848
子之後午之前	-12.2849
廖	-12.2849
攄	-12.2849
瀨	-12.2849
鶚	-12.285
俎	-12.285
俺	-12.285
礜	-12.285
萍	-12.285
姊	-12.285
珏	-12.2851
隂故爲第	-12.2851
祁	-12.2852
盩	-12.2852
槨	-12.2852
来	-12.2852
熛	-12.2852
廻	-12.2852
彪	-12.2853
碩	-12.2853
敞	-12.2853
舅	-12.2853
闚	-12.2854
墊	-12.2854
宫土音也	-12.2854
侔	-12.2854
芸	-12.2854
嵇	-12.2855
嗄	-12.2855
厶	-12.2855
勦	-12.2855
笄	-12.2855
蜕	-12.2856
扐	-12.2858
駒	-12.2858
蜃	-12.2858
泑	-12.2858
唳	-12.2858
迫促時陰	-12.2859
薊	-12.2859
埅	-12.2859
邕	-12.2859
裾	-12.2859
瘈	-12.2859
郛	-12.286
痊	-12.286
閲	-12.286
遡	-12.286
桶	-12.286
賺	-12.286
卯爲震其數三	-12.286
宕	-12.286
岌	-12.2861
九還七返八歸六居	-12.2861
粤	-12.2861
禎	-12.2861
鋸	-12.2861
在足大指本節後	-12.2862
錘	-12.2862
冩	-12.2862
妒	-12.2863
飱	-12.2863
北邙山	-12.2863
昃	-12.2863
左取右右取左	-12.2863
還元返本	-12.2863
將兵百萬衆	-12.2864
懊	-12.2864
儲華谷	-12.2864
震來受符	-12.2864
概	-12.2865
騩	-12.2865
中華總真大仙宰王方平	-12.2865
粘	-12.2865
吃	-12.2866
薈	-12.2866
一萬三千五百息	-12.2866
生長收藏	-12.2866
國并九小國下管人間	-12.2866
月律也管長	-12.2866
颻	-12.2867
鷦	-12.2867
僥	-12.2867
腊	-12.2867
娟	-12.2868
吊	-12.2868
許旌陽	-12.2868
緝	-12.2868
鰲	-12.2869
閉音濁和律二之	-12.2869
諸人作麽會	-12.2869
泪	-12.2869
發音濁和律二之	-12.287
閉音濁和律四之	-12.287
諸葛亮	-12.287
碣	-12.287
右間從偶即先右間不左間也	-12.2871
撑	-12.2871
麓	-12.2871
時人氣亦在	-12.2871
三百八十有四銖	-12.2871
肝心脾肺腎	-12.2871
閉音清和律三之	-12.2871
幄	-12.2871
叩齒三通咽液三過	-12.2871
惒	-12.2872
易統天心	-12.2873
收音濁和律二之	-12.2873
曩	-12.2873
爲此諸病盛則寫之	-12.2873
賄	-12.2874
屣	-12.2874
昴畢之上	-12.2874
斲	-12.2875
椹	-12.2875
堦	-12.2875
鷰	-12.2875
删	-12.2876
陁	-12.2877
珂	-12.2878
𩩲	-12.2878
開音清和律一之	-12.2879
帽	-12.2879
開音濁和律四之	-12.2879
黼	-12.2879
發音清和律三之	-12.288
俛	-12.2881
樂天知命	-12.2881
同出而異名	-12.2881
閉音清和律一之	-12.2881
烊	-12.2882
臏	-12.2882
循腹裏	-12.2883
櫝	-12.2883
簟	-12.2883
哮	-12.2883
開音濁和律二之	-12.2884
呆	-12.2886
寒暑燥濕風火	-12.2886
霐	-12.2886
猶尚治天	-12.2887
緋	-12.2888
臰	-12.289
發音清和律一之	-12.289
衄	-12.2891
肛	-12.2891
發音濁和律四之	-12.2893
𤙲	-12.2893
迍	-12.2903
之節初五日	-12.2906
以一日言之爲	-12.2909
以一月言之爲	-12.2909
北正司天天面向南左東直右西直上太	-12.3068
庚申辛酉壬戌癸亥經世之	-12.3162
條有楊書	-12.3616
脉氣所發也	-12.3683
玫	-12.3717
驁	-12.3729
孝武皇帝	-12.3733
鞏	-12.3736
尺之皮膚亦	-12.3736
俶	-12.3739
經星之甲一百	-12.374
噎	-12.3741
汜	-12.3741
奭	-12.3742
刋	-12.3744
之時其氣在于	-12.3747
山其上多玉其下	-12.3748
盾	-12.375
逭	-12.3751
隼	-12.3753
眯	-12.3753
小人由是知	-12.3754
蒯	-12.3755
嫂	-12.3756
儋	-12.3756
寅午戌	-12.3756
諺	-12.3757
琬	-12.3758
蹠	-12.3758
瀰	-12.3758
水出焉西流注于	-12.3759
糅	-12.3759
偎	-12.376
顓	-12.376
撻	-12.376
隍	-12.376
閹	-12.376
墬	-12.376
直指人心見性成佛	-12.3761
朱晦菴	-12.3761
視之不見聽之不聞	-12.3761
疰	-12.3761
濠	-12.3762
闥	-12.3762
閎	-12.3762
湄	-12.3762
扞	-12.3763
宣明五氣篇	-12.3763
拘畜禁門	-12.3764
蜺	-12.3764
啜	-12.3764
廡	-12.3764
之君盟于	-12.3764
魴	-12.3764
暐	-12.3765
溷	-12.3765
父精母血	-12.3766
痙	-12.3767
逋	-12.3767
璘	-12.3767
霔	-12.3767
煦	-12.3767
叮	-12.3767
熔	-12.3767
一萬八千	-12.3768
寃	-12.3768
窄	-12.3768
諤	-12.3768
齦	-12.3769
瑚	-12.377
疴	-12.377
賽	-12.377
仐	-12.3771
檝	-12.3771
吒	-12.3772
叩齒三七通	-12.3772
多入少出	-12.3772
竚	-12.3772
綂	-12.3773
執文泥象	-12.3773
脉之所過也刺可入同身寸之	-12.3773
躑	-12.3773
躅	-12.3773
檜	-12.3774
叵	-12.3774
磐	-12.3774
曰昭乎哉問	-12.3774
穫	-12.3774
攜	-12.3775
皈	-12.3775
陰陽不測之謂神	-12.3775
東北喪朋	-12.3775
天元玉册	-12.3775
瘀	-12.3776
屎	-12.3776
啟	-12.3776
椎節下間俯而取之	-12.3776
篁	-12.3776
沍	-12.3776
吻	-12.3776
甦	-12.3776
築固靈株	-12.3776
莎	-12.3777
摯	-12.3777
儳	-12.3777
金來歸性初乃得稱還丹	-12.3777
性主處内立置鄞鄂	-12.3777
鬻	-12.3777
收音濁和律四之	-12.3778
癩	-12.3778
八石正綱紀	-12.3778
鋌	-12.3778
參天兩地而倚數	-12.3778
上商與正商同	-12.3778
正一盟威	-12.3778
幞	-12.3779
飫	-12.3779
闗	-12.3779
陽禀陰受	-12.378
矛	-12.378
刼	-12.378
新校正按	-12.378
新校正云按六微㫖大論云	-12.378
叨	-12.3781
𣲖	-12.3781
彎	-12.3781
土運南正司天天面向北左西直右東直	-12.3781
殂	-12.3782
遄	-12.3782
收音清和律三之	-12.3782
磷	-12.3782
十呼若灸者可灸三壯	-12.3782
飬	-12.3782
稜	-12.3782
旃	-12.3782
蝴	-12.3783
徐來勒	-12.3783
苒	-12.3783
水者道樞其數名一	-12.3783
運交時面向未望	-12.3784
篡	-12.3784
三分留十呼若灸者可灸三壯	-12.3784
搔	-12.3785
有物混成先天地生	-12.3785
飲食勞倦	-12.3785
扳	-12.3785
荄	-12.3786
月節有五六	-12.3786
診要經終論	-12.3787
井滎俞經合	-12.3787
乙庚之間中生金運也	-12.3787
膨	-12.3787
安爐立鼎	-12.3788
中華仙人李淳風註	-12.379
鄽	-12.379
林屋山人全陽子俞琰	-12.379
畦	-12.379
筏	-12.379
惻	-12.3791
届	-12.3792
新校正云按全元起本及甲乙經	-12.3792
桴	-12.3792
雲之色從兆泥丸中入下布兆	-12.3793
𡜍	-12.3793
芎	-12.3793
埴	-12.3794
昶	-12.3794
上宫與正宫同	-12.3794
收音清和律一之	-12.3795
紱	-12.3796
開音清和律三之	-12.3797
絓	-12.3798
之卦也月至乎	-12.3798
湮	-12.38
㪷	-12.3801
海空智藏	-12.3804
六微㫖大論	-12.3888
丙子丁丑戊寅己卯庚辰辛巳壬午癸未	-12.3906
腎上貫肝鬲入肺中循喉嚨俠舌本	-12.3993
老君曰或見一人	-12.4027
竽	-12.4693
虓	-12.4729
摭	-12.4733
跣	-12.4736
鷩	-12.4738
䕫	-12.4738
儕	-12.474
播州録事參軍袁孝政註	-12.4741
蝮	-12.4744
大荒之中有山名曰	-12.4745
上元上部將軍	-12.4746
元上部唐將軍	-12.4748
又西二百里曰	-12.4749
柤	-12.475
饕	-12.475
伶	-12.4751
旻	-12.4752
椽	-12.4754
翛	-12.4754
橡	-12.4756
舍人氣行於身	-12.4756
水出于其隂	-12.4756
綏	-12.4757
解形遯變	-12.4757
秊	-12.4758
猾	-12.476
貼	-12.476
餳	-12.4761
滂	-12.4761
詵	-12.4761
澠	-12.4762
趕	-12.4762
漭	-12.4763
躊	-12.4763
火衝對位化標從成其數七通運其數十	-12.4764
捻都監訣	-12.4764
雇	-12.4764
鞍	-12.4764
跖	-12.4764
經星之癸二百	-12.4765
串	-12.4765
旍	-12.4765
呴	-12.4765
晻	-12.4765
沁園春	-12.4766
囷	-12.4766
茆	-12.4766
故鉛外黑内懷金華	-12.4766
叩齒二七通	-12.4766
正化司天火歸本從生其數二通運其數	-12.4766
改形免世厄號之	-12.4766
墠	-12.4766
攖	-12.4767
錄	-12.4767
返本還源	-12.4767
尚書僕射	-12.4767
八百一十丈	-12.4767
戒曰勸助	-12.4767
絕	-12.4767
姑射侯善淵述	-12.4767
窮理盡性以至於命	-12.4768
胕	-12.4768
倶	-12.4768
幙	-12.4769
天得一以清	-12.4769
旭	-12.477
翶	-12.477
寂寞山居好	-12.4771
黥	-12.4771
爨	-12.4771
睪	-12.4773
老翁復丁壯耆嫗成姹女	-12.4773
鼷	-12.4773
躡地紀三遍散爲禹歩	-12.4773
上聲闢唱吕一之	-12.4774
乙丑丙寅丁卯戊辰己巳庚午辛未壬申	-12.4774
飼	-12.4774
濼	-12.4774
姪	-12.4774
道可道非常道	-12.4775
象著明莫大乎日月	-12.4775
去聲翕唱吕二之	-12.4775
邸	-12.4775
曖	-12.4775
小腸者受盛之	-12.4776
筭數依隂年運交時面向	-12.4776
蕉	-12.4776
隄	-12.4776
新校正云按藏氣法時論云	-12.4776
淆	-12.4777
子南午北	-12.4777
阡	-12.4777
韵	-12.4777
卹	-12.4777
橛	-12.4778
韮	-12.4778
掬	-12.4778
憒	-12.4779
入聲翕唱吕四之	-12.4779
榜	-12.4779
誃	-12.4779
姻	-12.4779
砒	-12.478
入聲闢唱吕三之	-12.4781
熺	-12.4781
聊陳兩象未能究悉	-12.4781
黄氣在上濕行於天	-12.4781
貿	-12.4782
經日之甲一經月之午七經星之	-12.4782
槖	-12.4782
様	-12.4782
毳	-12.4783
白者金精黑者水基	-12.4783
闋	-12.4783
振拉摧拔	-12.4783
狠	-12.4783
抬	-12.4783
上聲闢唱吕三之	-12.4784
入聲翕唱吕二之	-12.4784
上聲翕唱吕二之	-12.4784
痱	-12.4784
上正徵少隂君火司天熱行於上	-12.4784
刻人氣在太陽水下	-12.4784
撤	-12.4784
傭	-12.4784
觀物篇之四十	-12.4785
舁	-12.4785
篦	-12.4785
齧	-12.4785
虚則補之熱則疾之寒則留之陷下則	-12.4785
上聲翕唱吕四之	-12.4785
去聲闢唱吕三之	-12.4785
爺	-12.4785
入聲闢唱吕一之	-12.4785
甸	-12.4786
春夏據内體從子到辰巳	-12.4786
兩弦合其精乾坤體乃成二	-12.4787
扭	-12.4787
正坐取之刺可入同身寸之五分	-12.4787
秋冬當外用自午訖戌亥	-12.4787
天地設位而易行乎其中矣	-12.4787
㝷	-12.4787
爻辭有仁義隨時發喜怒	-12.4787
魘	-12.4787
平聲闢唱吕一之	-12.4788
千善則爲聖眞仙	-12.4788
四時刺逆從論	-12.4788
痍	-12.4789
斐	-12.4789
去聲翕唱吕四之	-12.4789
緛	-12.4789
平聲闢唱吕三之	-12.4791
蘋	-12.4791
昳	-12.4792
翽	-12.4793
婥	-12.4793
熠	-12.4793
俣	-12.4793
門火五日退炭至	-12.4793
諕	-12.4793
督脉氣所發	-12.4794
於交地時前十	-12.4794
溼	-12.4795
易圖通變卷之	-12.4795
御史中丞	-12.4797
寂兮寥兮	-12.4797
上正商陽明金司天燥行於上	-12.4797
平聲翕唱吕四之	-12.4797
晩晚晩	-12.4797
血氣皆少則	-12.4797
秦昭襄王	-12.4798
厦	-12.4799
齲	-12.4799
碾	-12.4799
濩	-12.48
綫	-12.4801
孕者生男	-12.4802
方無極太上道德天	-12.4802
去聲闢唱吕一之	-12.4804
弧	-12.4805
取之所别也	-12.4805
投一枚於釜中祝曰	-12.4805
所在刺灸分壯與氣穴同法	-12.4806
涬	-12.4808
奇經八脉	-12.4828
音也卯酉隂年	-12.5247
矣道樞卷之	-12.527
倒反三遍	-12.5338
脉要精微論	-12.5719
、	-12.5786
其孰能大乎吾之大乎	-12.5826
人唯二人系代	-12.5839
道教靈驗記	-12.5839
九經星之癸一百	-12.5843
恪	-12.5847
訆	-12.5847
今故賚爾	-12.5849
攬	-12.585
赫連勃勃	-12.5853
駱	-12.5854
多杻橿	-12.5854
珙	-12.5855
鵜	-12.5858
風伯雨師	-12.5858
水出焉北流注于	-12.5859
帝加元服	-12.5859
㳂	-12.5859
晰	-12.5859
輾	-12.586
綰	-12.5861
暦	-12.5861
君戴星冠躡朱履衣	-12.5861
贏	-12.5862
鷃	-12.5863
㦸	-12.5864
經元之甲一經會之午七經運之	-12.5864
邡	-12.5865
騶	-12.5866
茄	-12.5866
塼	-12.5868
沔	-12.5868
負陰抱陽	-12.5869
屛	-12.5869
諫議大夫	-12.587
楝	-12.587
井也刺可入同身寸之一分留	-12.587
獰	-12.5871
鼉	-12.5871
譯	-12.5871
梵音土皇姓	-12.5871
柩	-12.5873
玄教大公案	-12.5873
㓂	-12.5873
臨朝稱制	-12.5873
尿	-12.5873
閽	-12.5874
租	-12.5874
行音土皇姓	-12.5874
賂	-12.5874
姒	-12.5874
堙	-12.5874
裨	-12.5875
寜	-12.5875
閤	-12.5875
視之不見近而易求	-12.5875
仰觀俯察	-12.5876
睾	-12.5876
槎	-12.5876
十一經星之乙二百	-12.5876
十二經星之丙二百	-12.5876
黄中漸通理潤澤達肌膚	-12.5876
緼	-12.5877
十二萬九千六百	-12.5877
玃	-12.5877
十三經星之丁二百	-12.5877
壇凡星位	-12.5877
十五經星之己二百	-12.5877
十八經星之壬二百	-12.5877
十六經星之庚二百	-12.5877
十四經星之戊二百	-12.5877
澒	-12.5878
被褐懷玉外爲狂夫	-12.5878
左刺右右刺左	-12.5878
十七經星之辛二百	-12.5878
惆	-12.5878
黑氣在上寒行於天	-12.5879
酡	-12.5879
拴	-12.5879
鵾	-12.5879
剛柔斷矣不相涉入	-12.5879
水熱穴論	-12.588
袴	-12.588
三道由一俱出徑路	-12.588
同心併力	-12.588
詛	-12.588
氣下浹身中	-12.588
䐈	-12.588
對化天虚運佐天	-12.588
負陰而抱陽	-12.5881
聿	-12.5881
匕	-12.5881
瞤	-12.5881
芘	-12.5881
男白女赤金火相拘	-12.5881
翩	-12.5881
簣	-12.5881
誹	-12.5881
治天始行天令後	-12.5882
簳	-12.5882
囀	-12.5882
鉚	-12.5882
隟	-12.5882
果實垂布	-12.5882
白虎爲熬樞	-12.5882
撿	-12.5882
頊	-12.5883
趓	-12.5883
枝莖華葉	-12.5883
脖	-12.5883
剗	-12.5884
牎	-12.5884
窪	-12.5884
訢	-12.5884
㧞	-12.5884
胦	-12.5884
峩	-12.5885
瓓	-12.5885
豔	-12.5885
無中養就兒	-12.5885
氣索命將絶休死亡魄魂	-12.5885
日黑氣奉上少羽	-12.5886
劾	-12.5886
三物一家都歸戊	-12.5887
菑	-12.5887
某州縣郷里	-12.5888
撚	-12.5888
穽	-12.5888
硃	-12.5888
漲	-12.5888
烘	-12.5888
支别者復從胃别上鬲注心中	-12.5888
上入髮際同身寸之	-12.5888
臒	-12.5889
矚	-12.5889
桔	-12.5889
觀變於陰陽而立卦	-12.5889
賃	-12.589
褊	-12.589
上角與正角同	-12.589
子爲坎其數一	-12.589
瑗	-12.589
𤸷	-12.5891
玊	-12.5891
佻	-12.5892
秬	-12.5892
湲	-12.5892
薫	-12.5892
咆	-12.5892
唐太僕令啓玄子王氷次注	-12.5892
臨川道士雷思齊	-12.5892
以無制有器用者空	-12.5892
壖	-12.5892
苣	-12.5893
磕	-12.5893
攴	-12.5893
漾	-12.5893
牕	-12.5893
崎	-12.5893
瀹	-12.5893
交地時後十	-12.5894
心肺在鬲上	-12.5894
釅	-12.5894
青龍白虎朱雀玄武	-12.5894
歉	-12.5894
踡	-12.5894
平聲翕唱吕二之	-12.5894
瓌	-12.5894
瘤	-12.5895
倖	-12.5895
汋	-12.5896
金丹大成集云	-12.5896
乾剛坤柔配合相包	-12.5896
未爲土其數五	-12.5896
嶓	-12.5896
脗	-12.5896
莧	-12.5897
而況於人乎	-12.5897
之民子可歸之	-12.5897
鼙	-12.5897
迪	-12.5897
釵	-12.5897
十五乾體就盛滿甲東方	-12.5897
厯	-12.5897
憧	-12.5897
抹	-12.5898
活潑潑	-12.5898
復卦建始萌	-12.5898
指玄三十九章云	-12.5898
恒順地理承天布宣	-12.5898
日黄氣奉上少宫	-12.5898
愜	-12.5899
八應一斤易道正不傾	-12.5899
者其日出入晝夜與	-12.5899
璟	-12.5899
滷	-12.5899
莅	-12.5899
瘵	-12.59
泫	-12.59
鎰	-12.5901
菰	-12.5901
芑	-12.5902
霈	-12.5902
盛而躁在手	-12.5902
栁	-12.5902
星奇乗之	-12.5903
奈何伯高答曰	-12.5903
月奇乗之	-12.5903
犇	-12.5903
上正羽太陽寒水司天寒行於上	-12.5903
鵷	-12.5905
晤	-12.5905
牝之門是謂天地根	-12.5905
羔	-12.5906
謳	-12.5906
時起火以煉	-12.5906
擦	-12.5906
鍉	-12.5907
甆	-12.5907
鋩	-12.5907
輅	-12.5908
首尾武中間文	-12.5908
等以持罪	-12.591
上正徵少陽相火司天熱行於上	-12.5911
簑	-12.5913
帝曰善黄帝内經素問補註釋文卷之	-12.5915
刺可入同身寸之五分若灸者可灸三壯	-12.5916
七旬有二日	-12.5916
清庵瑩蟾子語録卷之	-12.5917
門之内也修飛步之道	-12.592
辛卯壬辰癸巳經世之	-12.6038
君也老君曰或見	-12.6779
人唯一人系	-12.7053
蹲	-12.7065
五息止第	-12.7069
江水帝廟在	-12.7082
裙頽雲髻第	-12.7089
紇	-12.7091
納氣自極七息而止	-12.7095
渤	-12.7095
十五經星之己一百	-12.7096
十六經星之庚一百	-12.7096
十四經星之戊一百	-12.7096
十三經星之丁一百	-12.7096
湫	-12.7096
其鳴自詨	-12.7097
十七經星之辛一百	-12.7097
十二經星之丙一百	-12.7097
汭	-12.7098
氾	-12.7099
黏	-12.7104
舫	-12.7104
其木多穀柞	-12.7104
水出焉而東南流注于	-12.7104
珥	-12.7108
辛巳壬午癸未	-12.7108
瀘	-12.711
絙	-12.711
爪甲上與肉交者	-12.711
磎	-12.7111
勣	-12.7111
阪	-12.7113
么	-12.7113
滛	-12.7113
水出于其上潜于其下	-12.7114
擿	-12.7114
磅	-12.7115
潑	-12.7115
胴	-12.7116
龕	-12.7117
鏐	-12.7117
躇	-12.7117
又東北二百里曰	-12.7117
劓	-12.7118
出大迎循頰車上耳前	-12.7118
茱	-12.7118
柎	-12.7119
睨	-12.7119
麄	-12.7119
貲	-12.7119
癎	-12.7119
硇	-12.712
糺	-12.712
緗	-12.7121
沖妙先生李思聦集	-12.7121
玷	-12.7121
傴	-12.7121
蹷	-12.7121
正音土皇姓	-12.7121
遊音土皇姓	-12.7121
櫾	-12.7122
襌	-12.7122
啾	-12.7122
縶	-12.7122
塜	-12.7123
苽	-12.7123
衃	-12.7123
俓	-12.7123
慜	-12.7124
氣交變大論	-12.7124
阨	-12.7124
椐	-12.7124
怳	-12.7124
娛	-12.7124
之時老君下爲師號曰	-12.7125
嚇	-12.7125
饋	-12.7125
景玉符上元洞天炁部	-12.7125
邙	-12.7126
熖	-12.7126
獐	-12.7126
硫	-12.7127
蠖	-12.7127
蝣	-12.7128
襖	-12.7128
痓	-12.7128
芊	-12.7128
因叩齒三十六通而微祝曰	-12.7128
仝	-12.7129
搧	-12.7129
誷	-12.7129
金以砂爲主禀和於水銀	-12.7129
降臨醮席	-12.7129
薯	-12.713
蛄	-12.713
紘	-12.713
仙遊山道士彭致中集	-12.713
璺	-12.713
卞	-12.713
棣	-12.713
飜	-12.7131
冪	-12.7131
嫦	-12.7132
蕖	-12.7132
釗	-12.7132
螭	-12.7132
覡	-12.7132
二用無爻位周流行六虚	-12.7132
气	-12.7132
觀天之道執天之行	-12.7132
禧	-12.7133
𥙷	-12.7133
缶	-12.7133
亢龍有悔	-12.7133
可以心授而不可以立談也	-12.7133
爻象内動吉凶外起	-12.7133
火記不虚作演易以明之	-12.7133
硌	-12.7133
将	-12.7134
發號順時令勿失爻動時	-12.7134
盛火消滅俱死歸厚	-12.7134
關關雎鳩在河之洲	-12.7134
前却違黄老曲折戾九都	-12.7134
蜣	-12.7134
閫	-12.7134
至天時於天數後	-12.7134
若夫至聖不過伏羲	-12.7135
霰	-12.7135
氣見而復没不來至	-12.7135
辰爲土其數五	-12.7135
上正宫太隂土司天天氣右遷	-12.7135
鲁	-12.7136
澮	-12.7136
或臣邪佞行不順軌	-12.7136
芰	-12.7136
至天後八日下臨	-12.7136
閨	-12.7136
俠脊抵腰中入循膂絡腎	-12.7136
祉	-12.7136
明者省厥㫖曠然知所由	-12.7137
嚚	-12.7137
晦朔之間合符行中	-12.7137
擡	-12.7137
分章通眞義	-12.7137
時按手如法存	-12.7137
臨爐定銖兩五分水有餘	-12.7137
廩	-12.7137
屨	-12.7137
譁	-12.7137
至言緫卷之	-12.7137
擣治并合之	-12.7137
殺氣所臨何有不傾	-12.7138
況近存身切在於心	-12.7138
濁者清之路昏久則昭明	-12.7138
煬	-12.7138
含元虚危播精於子	-12.7138
僉	-12.7139
嗑	-12.7139
金復其故性威光鼎乃	-12.7139
仄	-12.7139
鯤	-12.7139
之時剛柔相結而不可解得其	-12.7139
菡	-12.7139
抜	-12.7139
詈	-12.714
侃	-12.714
癬	-12.714
傘	-12.714
七八數十五九六亦相應	-12.714
戌爲土其數五	-12.714
綦	-12.7141
發揮於剛柔而生爻	-12.7141
鎸	-12.7141
馳入赤色門	-12.7141
情主營外築垣城郭城郭完全人	-12.7141
宋光禄卿直祕閣林億等校正	-12.7141
也金匱眞言論曰	-12.7141
終坤始復如循連環	-12.7142
蛆	-12.7142
婿	-12.7142
痒	-12.7142
出日入月呼吸存	-12.7142
故推消息坎離没亡	-12.7142
黄帝問於伯高曰	-12.7142
懣	-12.7142
丑爲土其數五	-12.7142
鑾	-12.7143
帬	-12.7143
鎁	-12.7143
收視返聽	-12.7143
邅	-12.7144
裒	-12.7144
締	-12.7144
骬	-12.7144
盱	-12.7145
㨿	-12.7145
㢲	-12.7145
鷇	-12.7145
雨風勝復同	-12.7146
紬	-12.7146
四季羅絡始終	-12.7146
脉之所出也刺可入同身寸之一分留	-12.7146
玉皇君兆若	-12.7146
繪	-12.7146
鋼	-12.7147
立壇宇朝暮敬祭	-12.7147
越王勾踐	-12.7147
獺	-12.7147
寨	-12.7147
楹	-12.7147
爆	-12.7147
焠	-12.7147
景之道行之八年	-12.7147
柈	-12.7148
清熱勝復同	-12.7149
昭靈李夫人	-12.7149
上弦兊數八下弦	-12.7149
驩	-12.7149
濳	-12.7149
囘	-12.7149
賞罰應春秋昏明順寒暑	-12.7149
塌	-12.7149
犂	-12.7149
既未至晦爽	-12.715
寒雨勝復同	-12.715
蹴	-12.715
曛	-12.7151
如上科兮日數亦取甫	-12.7151
屈折低下降	-12.7151
弔	-12.7152
陡	-12.7152
篠	-12.7152
齟	-12.7152
齬	-12.7152
蚑	-12.7152
易謂坎離坎離者乾坤二用	-12.7153
起於腎下出於氣街	-12.7153
怜	-12.7153
盛而不實勝而有復熱化七從標成數也	-12.7153
殤	-12.7154
進右足并通氣	-12.7154
㾬	-12.7155
拷	-12.7155
飭	-12.7156
治在燔針劫刺以知爲數以痛爲輸	-12.7156
朔旦屯直事	-12.7156
痝	-12.7156
菱	-12.7157
欽定四庫全書	-12.7158
㫁	-12.7158
倐	-12.7158
艮直於丙南下弦二十三	-12.7158
呿	-12.7159
掊	-12.716
黄帝内經素問遺篇卷之	-12.716
賞善罰惡	-12.716
輯	-12.716
薜	-12.716
紀洞玄本行經云	-12.7161
懌	-12.7162
諲	-12.7166
譛	-12.7167
伽	-12.7168
苓	-12.7168
籃	-12.7169
贇	-12.7173
俳	-12.7173
和君實端明	-12.7176
和王安之少卿	-12.7178
敺	-12.7178
脉氣所發者	-12.7227
甲申乙酉丙戌丁亥戊子己丑庚寅	-12.7309
今身所行與先不異	-12.8467
膻	-12.85
笞	-12.8509
橿	-12.8511
人唯三人系代	-12.8512
瓘	-12.8514
㑺	-12.8516
十八經星之壬一百	-12.8519
邽	-12.8522
湥	-12.8524
洺	-12.8525
藷	-12.8527
窑	-12.8527
如雞抱卵	-12.8532
鶹	-12.8532
麈	-12.8533
蝟	-12.8533
㞢	-12.8533
鱓	-12.8534
鱣	-12.8534
搥	-12.8536
扆	-12.8536
羬	-12.8537
趎	-12.8537
眐	-12.8538
誠惶誠恐	-12.8539
聵	-12.854
徐徐出針以手捫其穴	-12.854
粢	-12.854
懲忿窒慾	-12.854
蜎	-12.8541
荑	-12.8542
朐	-12.8542
寘	-12.8542
儷	-12.8542
圀	-12.8543
入腹屬脾絡胃	-12.8543
瑆	-12.8543
崧	-12.8544
旋斗歷箕	-12.8544
鐍	-12.8545
水不溺入火不	-12.8545
𢖍	-12.8546
蚩	-12.8546
涔	-12.8546
懂	-12.8547
衘	-12.8547
郵	-12.8547
儂	-12.8548
羆	-12.8548
仰山道院牧常晁撰門人一山黄本仁編	-12.8549
縢	-12.8549
堰	-12.8549
鴽	-12.8549
繟	-12.8549
過客主人循髮際至額顱	-12.8549
驤	-12.8549
輥	-12.855
鄢	-12.855
茸	-12.8551
天數五地數五	-12.8551
賚	-12.8551
劂	-12.8552
聒	-12.8552
𣈆興寧三年乙丑	-12.8552
掐	-12.8552
斸	-12.8552
梭	-12.8552
出俠口環唇下交承漿却循頤後下廉	-12.8552
呀	-12.8553
迓	-12.8553
鵡	-12.8553
駁	-12.8553
沂	-12.8553
麂	-12.8553
㽷	-12.8553
日合五行精月受六律紀	-12.8553
渉	-12.8554
渇	-12.8554
亳	-12.8554
噤	-12.8555
在天成象在地成形	-12.8555
搖	-12.8555
動靜有常奉其繩墨	-12.8555
燻	-12.8555
黠	-12.8555
内指通玄祕訣云	-12.8555
笏	-12.8555
脉起於鼻交頞中下循鼻外入上齒中還	-12.8555
胳	-12.8555
殛	-12.8557
嬖	-12.8557
喑	-12.8557
蚖	-12.8557
變化由其眞終始自相因	-12.8557
㡬	-12.8558
曁	-12.8558
針以手捫之	-12.8558
懋	-12.8558
五緯錯順應時感動	-12.8558
蜿	-12.8558
垤	-12.8558
鵒	-12.8558
蛭	-12.8558
劌	-12.8558
蠆	-12.8558
胡粉投火中色壞還	-12.8559
候視加謹愼審察調寒温	-12.8559
難圖變而分布各自獨居	-12.8559
爲範占候定吉凶	-12.856
在台州黄巖縣	-12.8561
蘄	-12.8561
紏	-12.8561
逓	-12.8561
土遊於四季守界定規矩	-12.8561
㓨	-12.8561
貍	-12.8561
㿉	-12.8561
褭	-12.8561
指之端去爪甲角如韭葉	-12.8562
牘	-12.8562
狐疑背道守迷路	-12.8562
无情戀修行志意	-12.8562
斯之妙術兮審諦不誑語傳於億	-12.8562
九至天後九日下臨	-12.8562
嵎	-12.8563
上太徵少陽相火司天天	-12.8563
庶聖雄十翼以輔之三君天所挺迭興更	-12.8563
貧自古及今好者億人訖不諧	-12.8563
罍	-12.8564
扎	-12.8564
陰陽爲度魂魄所居	-12.8564
流水不腐户樞	-12.8564
剛施而退柔化以滋	-12.8564
殊制作有所踵推度審分銖	-12.8564
天對化天間至運	-12.8564
氓	-12.8564
窮神以知化陽往則陰來	-12.8564
簧	-12.8564
皦	-12.8564
迯	-12.8564
汀	-12.8564
眈	-12.8564
八卦列布曜運移不失中	-12.8564
無刺已刺無	-12.8564
栩	-12.8565
昕	-12.8565
正在根株不失其素誠心所言審而不誤	-12.8565
火太過從成其數七	-12.8565
盍	-12.8565
𢎞	-12.8566
水出焉而東北流注于	-12.8566
絛	-12.8566
言不苟造論不虚生	-12.8566
鴝	-12.8566
胝	-12.8567
膲	-12.8567
錞	-12.8567
傖	-12.8567
僦	-12.8567
其化鳴紊啓拆	-12.8567
易者象也懸象著明莫大乎日月	-12.8567
經營養鄞鄂凝神以成軀	-12.8567
芟	-12.8567
鞴	-12.8567
水盛坎侵陽火衰離晝昏	-12.8567
寖	-12.8567
隱龍匿莫知所存將欲制之黄芽爲根	-12.8567
䀆	-12.8567
二至改度乖錯委曲隆冬大暑盛夏	-12.8567
楫	-12.8567
寅望先有青	-12.8567
巋	-12.8568
少陽二脉之會刺可入同身寸之三分	-12.8568
失事緒言還自敗傷	-12.8568
先天而天弗違後天而奉天時	-12.8569
紵	-12.8569
觚	-12.857
氣之虚也則宜補之	-12.857
墾	-12.857
毀	-12.857
絫	-12.857
别序斯四象以曉後生盲	-12.857
𠋣	-12.857
腿	-12.857
齗	-12.857
母含滋液父主禀與	-12.8571
磯	-12.8571
澣	-12.8571
烽	-12.8571
心有所憶謂之意	-12.8571
淨倮倮赤洒洒	-12.8571
歲月將欲訖毁性傷壽年	-12.8571
凹	-12.8572
應度育種陰陽之	-12.8572
蹟	-12.8572
䤵	-12.8573
鄶	-12.8573
凢	-12.8573
蜒	-12.8573
軼	-12.8573
鍊銀於鉛神物自生	-12.8573
罐	-12.8573
豉	-12.8573
九萬九千九百九十	-12.8574
雲從龍風從虎	-12.8574
冠婚氣相紐元年乃芽滋	-12.8574
薇	-12.8574
俚	-12.8574
其變炎烈沸騰	-12.8575
金爲水母母隱子胎水者金子子藏母胞	-12.8576
磊	-12.8576
睒	-12.8576
繿	-12.8576
莠	-12.8577
玉池清水灌靈根	-12.8577
懟	-12.8577
非徒生時著而見之及其死也亦復效之	-12.8577
十日餘八十七刻半	-12.8578
爝	-12.8578
以金爲隄防水入乃優游	-12.8578
務在順理宣耀精神神化流通四海和平	-12.8578
暍	-12.8579
沆	-12.8579
八日兊受丁上弦平如繩	-12.8579
詰過貽主	-12.8579
世人好小術不審道淺深	-12.8579
賢者能持行不肖母與俱	-12.8579
顰	-12.858
玉清隱文又祝曰	-12.858
名曰第一鼎兮食如大黍米	-12.858
道窮則反歸乎坤元	-12.858
貉	-12.8581
悛	-12.8581
晋李存勗	-12.8581
衙	-12.8581
自然之所爲兮非有邪僞道	-12.8582
甿	-12.8582
關雎建始初	-12.8582
十六轉受統巽辛見平明	-12.8582
星尊神君謹請	-12.8582
變易更盛消息相因	-12.8583
鷂	-12.8583
抃	-12.8583
瞭	-12.8583
覽其端辭寡意大後嗣宜遵	-12.8583
烖	-12.8584
觀其權量察仲秋情	-12.8584
青龍處房六兮春華震東卯	-12.8585
腪	-12.8585
伯夷叔齊	-12.8585
劄	-12.8585
席上腐談	-12.8585
蕕	-12.8586
與巳爲友留爲巳使	-12.8586
蒭	-12.8587
骭	-12.8587
姙	-12.8587
國秦越人撰臨川晞范子李駉子埜句解	-12.8589
冐	-12.8589
恇	-12.8589
顑	-12.8591
楯	-12.8591
霿	-12.8592
素問入式運氣論奥	-12.8595
也故爲之治針必	-12.8595
髖	-12.8596
道人之心亦當如此又如	-12.8601
之月是也此時陽氣	-12.8603
紿	-12.8609
此其爲陰息者也	-12.8612
紜	-12.9779
淇	-13.0137
䱱	-13.0176
亣	-13.0176
甃	-13.0176
䳜	-13.0177
㚟	-13.0181
墝	-13.0181
义	-13.0181
間也地從奇即	-13.0183
左間不右間從偶即右間不左間也	-13.0184
蹌	-13.0186
崿	-13.0188
胖	-13.0188
筍	-13.0191
俘	-13.0191
暠	-13.0191
雲氣之車驂駕	-13.0192
骼	-13.0193
柢	-13.0197
舋	-13.0197
瘢	-13.0198
倕	-13.0199
雲之氣帀滿齋堂	-13.0199
幣	-13.0199
肁	-13.02
郴	-13.0201
魁𩲃𩵄䰢魓𩳐魒	-13.0201
喟	-13.0202
子火居上父木在下子臨父位	-13.0203
贛	-13.0203
倭	-13.0203
眞人譚景昇譔	-13.0203
售	-13.0204
煢	-13.0204
笳	-13.0204
降地主窒地	-13.0204
八十一萬億八十一萬歲	-13.0204
瀁	-13.0205
盎	-13.0205
侗	-13.0205
上下同法視其部中有浮絡者皆	-13.0205
絡盛則入客於經	-13.0205
楛	-13.0205
呉	-13.0206
玗	-13.0206
隈	-13.0207
瓣	-13.0207
于斯之時情合乾坤	-13.0207
絜	-13.0208
捜	-13.0208
耍	-13.0208
獅	-13.0209
𥹋	-13.0209
朔旦爲復陽氣始通	-13.0209
隲	-13.0209
氄	-13.0209
靈蘭秘典論	-13.021
畤	-13.021
𡻕	-13.021
彧	-13.021
妘	-13.0211
淤	-13.0212
嚳	-13.0212
霹	-13.0213
𡨋	-13.0213
騭	-13.0213
糖	-13.0214
荘	-13.0214
黷	-13.0214
逍	-13.0214
䉋	-13.0214
銛	-13.0214
蝡	-13.0215
厩	-13.0215
洹	-13.0215
伋	-13.0215
盌	-13.0215
曰復其見天地之心乎	-13.0216
肝者將軍之官謀慮出焉	-13.0216
侄	-13.0216
衆夫蹈以出蝡動莫不由	-13.0216
謔	-13.0217
终	-13.0217
侖	-13.0218
七至天後七日下臨	-13.0218
蹕	-13.0218
縟	-13.0218
吤	-13.0218
筐	-13.0218
蚪	-13.0219
鎗	-13.0219
𦬸	-13.0219
不寒不暑進退合時各得其和俱吐證符	-13.0219
覯	-13.022
烜	-13.0221
貊	-13.0221
𦔳	-13.0221
詧	-13.0221
西魏宇文泰	-13.0222
犁	-13.0222
醅	-13.0222
爓	-13.0222
火不及從生其數二二	-13.0223
扼	-13.0223
味歸形形歸氣氣歸精	-13.0223
彿	-13.0223
或以招禍或以致福或興太平或造兵革	-13.0223
夤	-13.0223
樁	-13.0223
各如其度黄老用究較而可御爐火之事	-13.0223
琚	-13.0224
韛	-13.0224
即小間小間即一間也地從奇即	-13.0224
火記六百篇所趣等不殊	-13.0224
令蘇秦通言張儀結媒發辯利	-13.0224
惟昔聖賢懷玄抱眞	-13.0224
殉	-13.0224
罌	-13.0224
在足内側核骨下	-13.0225
鄜	-13.0225
則水定火五行之初上善若水清而	-13.0225
搢	-13.0225
甖	-13.0225
雒	-13.0225
子土居上父火在下子臨父位	-13.0226
轉午乃東旋卯酉界隔主	-13.0226
龍呼於虎虎吸龍精兩相飲食俱相貪	-13.0226
日水始治天始行天令	-13.0226
韁	-13.0226
崦	-13.0226
循喉嚨入缺盆下鬲屬胃	-13.0226
槁木心若死灰	-13.0226
即大間大間即左右俱間	-13.0226
慊	-13.0226
水太過從成其數六	-13.0226
也地從奇即先左間	-13.0227
嶼	-13.0227
毘	-13.0227
踣	-13.0227
溫	-13.0227
金太過從成其數九	-13.0227
奮舒美辭推心調諧	-13.0227
成八也至天時於天數後八刻至也	-13.0227
水流不炎上火動不潤下	-13.0227
䵟	-13.0228
蟪	-13.0228
揄	-13.0228
始於東北箕斗之郷	-13.0228
雄陽翠玄水雌陰	-13.0228
靴	-13.0228
之道旣畢乃又兩足俱上	-13.0228
𢬵	-13.0228
脉氣所發仰而取之	-13.0228
赩	-13.0228
二見龍和平有明三五德就乾體乃成	-13.0228
輔自然物成易陶冶魚目豈	-13.0228
憨	-13.0229
𩀱	-13.0229
生之徒十有三死之徒十有三	-13.0229
九三夕惕虧折神符盛衰漸革終還其初	-13.0229
方圓徑寸混而相拘	-13.0229
橈	-13.0229
上姹女靈而最神得火則飛不見埃塵鬼	-13.0229
纜	-13.023
䑞	-13.023
燾	-13.023
鼻徐徐長取其清氣	-13.023
左手撫心右手指	-13.023
迤	-13.023
遇希有能成廣求名藥與道乖殊	-13.023
龍陽以三立陰以八通故三日震動八日	-13.023
男女媾精萬物化生	-13.023
櫻	-13.023
睠	-13.023
出正入邪蹊管窺不廣見難以揆方來	-13.023
和則隨從路平不邪邪道險阻傾危國家	-13.023
火不焦入水不濡能存能亡長樂	-13.023
爲輿龍馬就駕明君御	-13.0231
鈿	-13.0231
胛	-13.0231
𨭊	-13.0231
推演五行數較約而不	-13.0231
假使二女共室顔色甚姝	-13.0232
窈窕淑女君子好逑雄不獨處雌不孤居	-13.0232
靠	-13.0232
怍	-13.0232
柸	-13.0232
楪	-13.0233
坎雄金精離雌火光	-13.0233
竭殫家産妻	-13.0233
十至天後十日下臨	-13.0233
平旦至日中天之陽陽中之陽也	-13.0233
窌	-13.0234
兩浙錢鏐	-13.0234
尫	-13.0234
䯏	-13.0234
佪	-13.0234
弁	-13.0234
故男動外施女靜内藏	-13.0234
飲食自倍腸胃乃傷	-13.0235
牝牡相從滋液潤澤施化流通天地神	-13.0235
之籍係欲界	-13.0235
合體居千舉必萬敗欲黠反成癡	-13.0235
猶郊境也骨節之分猶百官也神猶君也	-13.0235
青龍與之俱舉東以合西魂魄自相拘	-13.0235
鬨	-13.0236
郟	-13.0236
桉	-13.0236
訕	-13.0236
摙	-13.0236
批	-13.0236
近取諸身遠取諸物	-13.0236
顬	-13.0236
顳	-13.0236
養性延命却期審思後末當慮其先人所	-13.0236
脉之所流也刺可入同身寸之三分留	-13.0236
燧以取火非日不生光方諸非星月安能	-13.0236
於猛火色不奪精光自開闢以來日月不	-13.0236
衽	-13.0237
鋟	-13.0237
剏	-13.0237
鏃	-13.0237
綾	-13.0237
膾	-13.0237
黄土金之父流珠水之母水以土爲鬼土	-13.0237
刻人氣在隂分水下	-13.0237
商人棄貨志士家貧吾甚傷之定録	-13.0237
節符非有工巧以制御之	-13.0237
見聞遂使宦者不	-13.0237
碭	-13.0238
纖芥不正悔吝爲賊	-13.0238
洧	-13.0238
弦望盈縮乖變凶咎執法	-13.0238
名者以定情字者縁性言	-13.0238
欲作服食仙宜以同類者	-13.0238
三川邵堯夫撰以會經運之	-13.0238
砭	-13.0238
袒	-13.0238
夐	-13.0238
莘	-13.0238
磋	-13.0238
鶡	-13.0239
瀵	-13.0239
騄	-13.0239
蒞	-13.0239
撝	-13.0239
貰	-13.0239
襯	-13.0239
猶火動而炎上水流而潤下非有師	-13.024
天天令不正故小虚	-13.024
寗	-13.024
天命之謂性率性之謂道	-13.024
鬬	-13.0241
氣之實也則宜瀉之	-13.0241
翊聖保德眞君	-13.0241
天甲子也下見辛	-13.0242
忸	-13.0242
環陰器抵少腹	-13.0242
膝股内前廉入腹	-13.0242
㾓	-13.0242
倦恍惚狀若癡百脉鼎沸馳不得清澄居	-13.0242
來迎兆身上昇太清	-13.0243
熱化二從本生數也長氣	-13.0243
剛柔迭興更歷分	-13.0243
地甲子也故天乙地庚	-13.0243
壬地丁也於丁壬之間中生	-13.0243
天甲子也下見庚	-13.0243
幽玄若達此會乾坤	-13.0244
踹	-13.0244
三日出爲爽震受庚西方	-13.0244
爲酒同類易施功兮非種難爲巧	-13.0244
庠	-13.0244
景行道受仙之日也至其日如上法清旦	-13.0244
消息應鍾律升降據斗樞	-13.0245
徭	-13.0245
用鉛不用鉛須向鉛中作	-13.0245
辛地丙也於丙辛之間中生水運也	-13.0246
天甲子也下見丁	-13.0246
天甲子也下見乙	-13.0246
天甲子也下見丙	-13.0246
幌	-13.0246
丁地壬也於丁壬之間中生木運也	-13.0246
天甲子也下見癸	-13.0246
和下鹹寒藥食宜也	-13.0246
逆之者凶順之者吉按	-13.0247
觧	-13.0247
天甲子也下見戊	-13.0247
所在刺灸分壯	-13.0247
進日以益長丑之大吕結正低昂	-13.0248
瀣	-13.0248
太陽流珠常欲去人卒得金華轉而相因	-13.0248
盛則寫之虚則補之	-13.0248
一火二木三金四土五	-13.0249
惛	-13.0249
幀	-13.0249
無平不陂道之自然	-13.0249
塢	-13.0249
属	-13.0249
棄正從邪徑欲速閼不通猶盲	-13.025
蠵	-13.025
倆	-13.025
雄陽播玄施雌陰化黄包	-13.025
壻	-13.025
念深思惟至要言甚露昭昭不我欺	-13.025
正化度也其化上鹹寒中	-13.025
際水旱隔并柯葉萎黄失其華榮	-13.025
勿刺已刺勿	-13.025
天甲子也下見壬	-13.025
贱	-13.0251
原本隱明内照形軀	-13.0251
钮	-13.0251
邗	-13.0251
瀍	-13.0252
三里在膝下同身寸之三寸	-13.0252
循股陰入髦中環陰器	-13.0252
檗	-13.0252
不知年之所加氣之	-13.0253
舎	-13.0253
勿食苦熱物佐火之	-13.0253
循喉嚨之後上入頏顙	-13.0253
畢叩齒九下咽液九過祝曰	-13.0253
圮	-13.0254
恂	-13.0256
虵	-13.0256
爕	-13.0257
節盡相禪與繼體復生龍	-13.0257
金魚玉龍各一枚	-13.0257
刁	-13.0258
箒	-13.0259
隣	-13.0259
騮	-13.0261
餞	-13.0261
日拜䟽玉斧言	-13.0263
大骨枯槁大肉陷下	-13.0267
剜	-13.0268
以乾卦言則應乾之	-13.0269
皝	-13.0269
玘	-13.0269
澇	-13.027
宫商角徵羽	-13.0271
絀	-13.0271
駘	-13.0272
半以一歲言之則斗杓建	-13.0272
蕨	-13.0275
坐玉樓之中若有玄名	-13.0276
炎火張於下晝夜聲正勤始文使可修終	-13.0297
戊地癸也於戊癸之間中生火運也	-13.0606
獜	-13.2145
鋋	-13.2163
綯	-13.217
狻	-13.2171
茈	-13.2174
貆	-13.2179
峴	-13.2179
三素雲也存禮密呪皆如上法	-13.218
麪	-13.2181
鮪	-13.2181
爲禍星常欲禍	-13.2183
君子居其室出其言善則千里之外應之	-13.2184
麑	-13.2184
瑁	-13.2185
澶	-13.2186
肄	-13.2186
釱	-13.2188
刉	-13.2189
氂	-13.2189
殅	-13.2189
軋	-13.219
猳	-13.2191
苕	-13.2191
鮎	-13.2192
闞	-13.2193
之臟其臟精上形爲	-13.2193
楢	-13.2196
軄	-13.2196
懁	-13.2196
箠	-13.2196
銑	-13.2196
崙	-13.2197
齕	-13.2197
至日閉關商旅不行后不省方	-13.2198
一三川邵堯夫撰	-13.2199
丱	-13.2199
璀	-13.22
主柔剛爲太過柔爲不及太過即	-13.2202
煽	-13.2202
鄗	-13.2203
飆	-13.2203
蠃	-13.2203
劭	-13.2204
𡨥	-13.2204
磴	-13.2204
萯	-13.2204
洵	-13.2204
膞	-13.2205
其修潔攝息有定則	-13.2205
正化司天金歸本從生其數四通運其數	-13.2205
鄣	-13.2206
逄	-13.2206
其獸多㸲牛羬羊	-13.2206
皛	-13.2206
褶	-13.2206
睟	-13.2207
滉	-13.2207
愎	-13.2207
沐浴蘭湯使身意清	-13.2207
綝	-13.2207
骹	-13.2207
姝	-13.2208
忺	-13.2209
猒	-13.2209
司頓首稽首三百數然後靖跪	-13.2209
捧心至誠定息靜念	-13.2209
禮祈無上正眞大道太眞太寶内内及	-13.2209
褻	-13.221
先有紫氣見見畢次有黄氣自己横流至	-13.221
熄	-13.221
國有六音之銘是高	-13.221
寞	-13.221
嵋	-13.2211
臾	-13.2211
灣	-13.2211
怛	-13.2211
貎	-13.2211
忮	-13.2211
隩	-13.2211
栝	-13.2211
帝夫人從月光中來在我	-13.2211
憮	-13.2212
昻	-13.2212
繢	-13.2212
㹠	-13.2212
砧	-13.2212
摳	-13.2212
華之芝見賜出	-13.2212
此兩孔穴法金氣亦相胥	-13.2213
腎苦燥急食辛以潤之	-13.2213
煜	-13.2213
者從缺盆循頸上頰至目	-13.2213
帝君從日光中來在我之	-13.2214
金衝對位化標從成其數九通運其數十	-13.2214
葌	-13.2214
屹	-13.2215
翾	-13.2215
臷	-13.2215
後九十九萬億九十九萬歲乃化生	-13.2215
嶢	-13.2216
升熬於甑山兮炎火張設下白虎	-13.2216
戛	-13.2216
陘	-13.2216
爰清子至命篇	-13.2216
廑	-13.2216
左間不右間也從偶即先右間不左間也	-13.2216
徯	-13.2217
在建州建陽縣	-13.2217
左青龍右白虎前朱雀後玄武	-13.2217
三百八十四爻據爻摘符符謂六十四卦	-13.2217
以棗肉和爲丸	-13.2217
戹	-13.2217
先左間不右間	-13.2217
篷	-13.2218
神室者丹之樞紐	-13.2218
蜋	-13.2218
之端也爲井金溜於	-13.2218
參伍以變錯綜其數	-13.2218
聖功生焉神明出焉	-13.2218
苧	-13.2218
酖	-13.2219
飊	-13.2219
一百六十七億九千六百一十六萬	-13.2219
捻去災訣歩五星九遍誦五行	-13.2219
沁	-13.2219
墯	-13.222
脾苦濕急食苦以燥之	-13.222
玲	-13.222
㳺	-13.222
厢	-13.222
用湯飛龜舞蛇愈見乖張	-13.222
蠁	-13.222
無勞爾形無揺爾精	-13.222
爲萬物寳術士服食之壽命得長久	-13.2221
鋒芒鋒芒光垂	-13.2221
浡	-13.2221
奉告承尊體安和以慰	-13.2221
離形去智同於大通	-13.2221
之訣福德助祐我	-13.2221
亦病不當其位亦病位不能	-13.2221
小間小間即一間也	-13.2222
命之星及生日所管之宿	-13.2222
一年易氣二年易血三年易	-13.2222
三光陸沉温養子	-13.2222
肉五年易髓六年易筋七年易骨八年易	-13.2222
肺苦氣上逆急食苦以泄之	-13.2222
佘	-13.2222
胇	-13.2222
酉三庚戌四辛亥五壬子六癸丑七甲寅	-13.2223
先治其標後治其本	-13.2223
慈母育養孝子報恩	-13.2223
闠	-13.2223
丹術著明莫大乎金火	-13.2223
一至天後十一日下臨	-13.2223
鉛爲芽母芽爲鉛	-13.2223
血氣未并五臓安定	-13.2223
綴斯愚陶冶有法度未	-13.2224
男生而伏女偃其軀	-13.2224
鏑	-13.2224
鑛	-13.2224
駈	-13.2224
尪	-13.2224
廿	-13.2224
爲九十章以應陽九之數	-13.2224
少隂君火對化在泉也故子爲坎其數一	-13.2224
攷	-13.2224
珞	-13.2224
乾動而直氣布精流坤靜而翕爲道舍廬	-13.2225
位也亥爲乾其數六	-13.2225
爲珠蓬蒿不成檟類同者相從事乖不成	-13.2225
鼇	-13.2225
鑣	-13.2225
及吾無身吾有何患	-13.2225
鸛	-13.2225
芋	-13.2225
巨勝尚延年還丹可入口金性不敗朽故	-13.2225
母二眞之神父諱	-13.2225
設位者列陰陽配合之位	-13.2226
瀑	-13.2226
襦	-13.2226
渙	-13.2226
對化地虚運勝乃甚	-13.2226
聃	-13.2227
利用安身隱形而藏	-13.2227
太過申陽年筭數加	-13.2227
參同契者敷陳梗槩不能純一	-13.2227
竢	-13.2227
正化司天水歸本從生其數一通運其數	-13.2227
䕃	-13.2227
就湯鑊兮摧折傷毛羽漏刻未過半兮	-13.2228
九三君子終日乾乾	-13.2228
會稽禹穴道士范翛然撰	-13.2228
鴿	-13.2228
修飛步之道當思夫人姓諱形像并足上	-13.2228
瞍	-13.2228
成七也至天時於天數後七刻至也至後	-13.2228
是死炁之門二神固密守之使	-13.2228
淫淫若春澤液液象解冰	-13.2228
文字鄭重說世人不熟思尋度其	-13.2228
要道魁柄統化綱紐	-13.2228
訐	-13.2229
晦至朔旦震來受符當斯之	-13.2229
此乙巳生丙午乙亥生丙子丙	-13.2229
殮	-13.2229
荐	-13.2229
埭	-13.2229
耑	-13.2229
𧵥	-13.2229
立竿見影呼谷傳響豈不靈哉天地至象	-13.2229
水衝對位化標從成其數六通運其數十	-13.2229
即禹歩一遍躡地紀三遍配衣轉天關指	-13.223
曙	-13.223
駃	-13.223
丹景道精隱地八術	-13.223
巽繼其統固濟操持	-13.223
三十度度竟復更始原始要終存亡之緒	-13.223
至天時於天數後九刻至也至後	-13.223
常存累積長久變形而仙	-13.223
癤	-13.223
神祇請哀諸鬼沐浴齋戒冀有所望	-13.223
蝨	-13.2231
憹	-13.2231
薄蝕掩冒相傾	-13.2231
躓	-13.2231
上九亢龍戰德于野	-13.2231
坎離匡郭運轂正軸	-13.2231
穉	-13.2231
譌	-13.2231
偊	-13.2231
搦	-13.2231
若以野葛一寸巴豆一兩入喉輙僵不得	-13.2231
乾坤毁則無以見易	-13.2232
詁	-13.2232
心苦緩急食酸以收之	-13.2232
證居則觀其象準擬其形容立表以	-13.2232
並由中宫土德黄帝之功	-13.2232
依文說妄以意爲之端緒	-13.2232
欲發鬱亦須待時	-13.2232
輻輳而輪轉出入更卷舒	-13.2232
微小爲消癉滑甚爲	-13.2232
從兆泥丸中入下布	-13.2232
内輔骨之後大筋之下	-13.2232
𥐻	-13.2232
丑太隂對化在泉也故丑爲土其數五	-13.2232
運氣下同間物同生也二十	-13.2232
楸	-13.2233
黿	-13.2233
陽神日魂陰神月魄魂之與魄互爲室宅	-13.2233
思之務令熟兮反覆視上下千周	-13.2233
琶	-13.2233
薙	-13.2233
彰播施柔暖黎烝得常	-13.2233
正法眼藏涅槃妙心	-13.2233
滃	-13.2233
補養我身便三味口三咽止仰呪曰	-13.2233
𪇱	-13.2233
洞曉陰陽深達造化	-13.2233
髕	-13.2233
始治地也燥行於地辛物	-13.2234
生後三日運氣同下間物同生也	-13.2234
簞	-13.2234
堇	-13.2234
起於中焦下絡大腸還循胃口上鬲屬肺	-13.2234
瞰	-13.2234
曰開通天庭使我長生	-13.2234
甓	-13.2234
畛	-13.2234
襞	-13.2234
陽數已訖訖則復起推情合性轉而相與	-13.2234
茨	-13.2234
坤初變成震三日月出庚	-13.2234
砂入五内霧散若風雨薰蒸達四肢顔色	-13.2234
蓇	-13.2234
鉏	-13.2234
昌利化飛鶴山眞一子彭曉	-13.2234
氣見見畢次有黄氣自甲横流至	-13.2234
水運太過從成其數六	-13.2234
蚿	-13.2234
辰極受正優游任下	-13.2234
開傷門應塞門	-13.2234
漸歷大壯俠列卯門	-13.2235
四時順宜與氣相得	-13.2235
趄	-13.2235
胄	-13.2235
朔旦屯直事至暮蒙當受	-13.2235
愀	-13.2235
鬒	-13.2235
九重乃叩齒九通咽液九過祝曰	-13.2235
太過寅陽年筭數加十	-13.2235
水不及從生其數一一	-13.2235
醬	-13.2235
壊	-13.2236
御白鶴兮駕龍鱗	-13.2236
閙	-13.2236
慟	-13.2236
推情合性轉而相與	-13.2236
嘴	-13.2236
碁	-13.2236
後五日黑氣下生地氣奉運	-13.2236
毛悴色夭死於	-13.2236
乾健盛明廣被四鄰	-13.2237
天土衝對位化標從成其數五通運其數	-13.2237
徂	-13.2237
經氣已至愼守勿失	-13.2237
赤丹金精石景水母	-13.2237
纎	-13.2237
形容虚寂不可覩匡郭以消亡謬誤	-13.2237
太過子陽年筭數加	-13.2237
辰太陽對化在泉也故辰爲土其數五	-13.2237
終身子繼父業孫踵祖先傳世迷惑竟	-13.2238
乃生後五日運氣同下間物同生也	-13.2238
胼	-13.2238
髏	-13.2238
酋	-13.2238
醑	-13.2238
爲寫吸爲補夫	-13.2238
用長針於口中温針先以左手按穴刺	-13.2238
穠	-13.2238
運交時面向戌望先有温白色見	-13.2238
太隂正化司天土歸本其數五通運其數	-13.2238
物無陰陽違天背	-13.2238
歷其麤細或可以	-13.2238
水始治地也寒行於地鹹物	-13.2238
澼	-13.2238
三五不交剛柔離分施化之精天地自然	-13.2239
文字約易思事省不	-13.2239
乃終其色深其行疾	-13.2239
天地之雌雄兮徘徊子與午寅申	-13.2239
己也於甲己之間中生土運也即地見己	-13.2239
得水漿二氣玄且遠感化尚相通何	-13.2239
捽	-13.2239
驍	-13.2239
异	-13.2239
河車不敢暫留停	-13.2239
狢	-13.2239
玄幽遠眇隔閡相連	-13.2239
乾道成男坤道成女	-13.2239
刻人氣在少陽水下	-13.2239
四者混沌列爲龍虎龍陽數奇虎陰數偶	-13.2239
寒淫所勝平以辛熱濕淫於内治以苦熱	-13.2239
舍可以長存配以服食	-13.2239
午陽年筭數加十	-13.2239
氣經於四宿下合	-13.2239
犖	-13.224
八日赤氣下生地氣奉運	-13.224
媱	-13.2241
水不起朱雀爲火精執平調勝負水	-13.2241
元牝雞自卵其雛不全夫何故乎配合未	-13.2241
刻人氣在陽明水下	-13.2241
巳厥隂對化在泉也故巳爲巽其數四	-13.2241
部龍西虎東建緯卯酉刑德並會相見	-13.2241
四日運氣同下間物同生也十	-13.2241
河鼓臨星紀兮人民皆驚駭晷	-13.2241
刷	-13.2241
蠐	-13.2241
洌	-13.2242
𥉛	-13.2242
其支别者從大迎前下人迎	-13.2242
榆莢墮落還歸本根刑德相負晝夜始分	-13.2242
糝	-13.2242
三光合度以致太平	-13.2242
對化司天木衝對位化標從成其數八	-13.2242
𧖟	-13.2242
九四或躍進退道危艮主進止不得	-13.2242
地甲子也故天庚地乙也	-13.2242
妄前却兮九年被凶咎皇上覽	-13.2242
黄氣下生地氣奉運二十	-13.2242
闤	-13.2243
葭	-13.2243
一對談吐所謀學者加勉力留	-13.2243
上正宫太隂土司天濕行於上	-13.2243
坎離冠首光耀垂敷玄冥難測不可畫圖	-13.2243
有動氣按之牢若痛	-13.2243
之仙何謂也致之有道乎子鍾離子曰	-13.2243
又一拜起曰上煩	-13.2243
袵	-13.2243
五行錯王相據以生火性銷金金伐木榮	-13.2243
棼	-13.2244
下臨肺氣上從白氣奉天	-13.2244
戊月精離己日光日月爲易剛柔相當土	-13.2244
臨爐施條開路正光光耀	-13.2244
陰陽得其配兮淡泊	-13.2244
号	-13.2244
屬脾絡胃上鬲俠咽連舌本散舌下	-13.2244
青赤白黑各居一方皆禀中宫戊己之功	-13.2244
下手速修猶太遲	-13.2244
二位也至地後二日	-13.2244
胙	-13.2244
不歸正角盛而還衰勝而不實	-13.2244
譊	-13.2244
地甲子也故天丙地辛也於丙辛之間中	-13.2244
坎男爲月離女爲日日以施德月以舒光	-13.2244
霶	-13.2245
葅	-13.2245
河出圖洛出書	-13.2245
經緯奉日使兼并爲六十剛柔有表裏	-13.2245
騃	-13.2245
嶒	-13.2245
接手於兩膝上閉炁瞑目内視存	-13.2245
腮	-13.2245
法象莫大乎天地兮玄溝數萬里	-13.2245
致虛極守靜篤萬物並作吾以觀其復	-13.2246
棧	-13.2246
物生謂之化物極謂之變	-13.2246
九層之臺起於累土千里之行始於足下	-13.2246
冠足躡九色之履手執	-13.2246
寒化六從標成數也下臨心	-13.2246
胞食氣鳴腸胃吐正吸	-13.2246
謎	-13.2246
𩩻	-13.2246
化爲血血化爲精精化爲	-13.2247
爲蕤賔賔服於陰陰爲主人	-13.2247
鑲	-13.2247
六穴也左右言之則十二俞也	-13.2247
朢	-13.2247
九日赤氣下生地氣奉運	-13.2248
臛	-13.2248
其變震驚飄驟	-13.2248
逯	-13.2248
義設刑當仁施德	-13.2248
天三地四天五地六天七地八天九地十	-13.2248
閶	-13.2248
萬世可循序以御政行之不	-13.2248
乃凶逆化也對化之地	-13.2248
燥淫於内治以苦温	-13.2248
五行守界不妄盈縮易行周流屈伸	-13.2249
裀	-13.2249
佖	-13.2249
𡨚	-13.2249
滿室莫之能留守之者	-13.2249
引内養性黄老自然含德之厚歸根	-13.2249
蚕	-13.2249
留穀二斗水一斗五升	-13.225
鞲	-13.225
繋	-13.225
地之濕氣感則害皮肉筋脉	-13.225
腎神玄冥字育嬰	-13.225
欲散急食辛以散之	-13.225
地甲子也故天癸地戊	-13.2251
同出異名皆由一門	-13.2251
亥望先有黑氣見見畢次有青氣自壬至	-13.2251
木始治地也風行於地酸物乃生後	-13.2252
審用成物世俗所珍羅列三條枝莖相連	-13.2253
寥廓恍惚莫知其端先迷失軌後爲主君	-13.2253
乃凶逆化也正化之地	-13.2254
杌	-13.2254
斗亦自有圖存想成	-13.2254
蘼	-13.2255
煨	-13.2255
鰥	-13.2255
喃	-13.2255
繰	-13.2256
丰	-13.2256
趂	-13.2256
神也於是存入星中共坐	-13.2256
釡	-13.2256
犳	-13.2257
眙	-13.2257
胃脘當心而痛上支兩脅	-13.2257
天地者乾坤之象也設位者列	-13.2257
藘	-13.2257
帝王承御千載常存	-13.2258
旣竭亡失至神	-13.2258
溱	-13.2258
鰂	-13.2258
身中三宫三一三𡖖及我合七人我	-13.2258
鯁	-13.2259
𦛗	-13.2259
壙	-13.226
亥厥隂正化在泉也故亥爲乾其數六	-13.2261
圊	-13.2261
縊	-13.2261
酹	-13.2261
氣來虚微是謂不及病在内	-13.2262
轍處中以制外數在律	-13.2262
輭	-13.2263
塋	-13.2264
獪	-13.2265
辤	-13.2265
衊	-13.2265
畆	-13.2266
翎	-13.2266
天性人也人心機也	-13.2266
鬯	-13.2267
冨	-13.2269
灋	-13.2269
與不及其病皆何如岐伯曰太過則令人	-13.227
孀	-13.2271
紡	-13.2272
姓諱形像留立	-13.2272
拿	-13.2274
蹬	-13.2274
挨	-13.2274
之時以待小運生乎元氣傳送	-13.2274
厚之以利則民競	-13.2277
㝢	-13.2279
晨君内諱知者則	-13.2282
禕	-13.2283
先有碧氣見見畢次有赤氣自癸横流至	-13.2283
湜	-13.2289
饜	-13.2293
本也故生數對司於	-13.2302
端正則和利難傷	-13.233
踰時二十三日典守弦期	-13.2354
胆	-13.2367
不澤毛折乃死	-13.2369
人常失道非道失人人常去生非生去	-13.4074
於戊癸之間中生火運也即地見戊	-13.4208
磾	-13.4625
剟	-13.465
傕	-13.4654
闒	-13.4658
在白水沙洲空山	-13.4659
釧	-13.4662
捘	-13.4663
𤤠	-13.4663
鉉	-13.4667
蟜	-13.4668
祙	-13.4669
䃌	-13.4669
沇	-13.4673
𩇥	-13.4674
猨	-13.4674
上清秘道九精回曜合神上眞玉	-13.4677
諌	-13.4679
贜	-13.468
蝯	-13.4681
福星常救止伏其禍禍不敢行人得長生	-13.4681
鵁	-13.4684
状	-13.4685
繫辭焉以斷其吉凶	-13.4685
之帔戴七寶星冠	-13.4686
獋	-13.4686
眡	-13.4686
贄	-13.4687
㴭	-13.4687
綆	-13.4687
佺	-13.4687
澎	-13.469
詡	-13.469
炱	-13.469
譖	-13.4691
頠	-13.4691
泔	-13.4691
棃	-13.4691
縠	-13.4692
委志歸虚無無念以爲常	-13.4692
輶	-13.4692
䮝	-13.4692
豨	-13.4692
槪	-13.4694
吮	-13.4694
酈	-13.4694
𧢄	-13.4694
璪	-13.4695
墅	-13.4695
琦	-13.4695
肉之大會爲谷肉之小會爲谿	-13.4695
鬣	-13.4695
券	-13.4696
磧	-13.4696
弇	-13.4697
𥆐	-13.4698
所生三分减一管率長	-13.4699
第六壘金剛鐵澤地	-13.4699
懔	-13.4701
巉	-13.4701
東西表仁義五行變四時	-13.4701
一呼再至一吸再至	-13.4701
鱖	-13.4701
宙	-13.4702
䓘	-13.4702
歘	-13.4702
五三川邵堯夫撰	-13.4703
伉	-13.4704
𡼏	-13.4704
肪	-13.4704
雘	-13.4704
子木居上父水在下子臨父位	-13.4704
渦	-13.4705
因口呼出氣二十四過	-13.4705
㩉	-13.4705
䳐	-13.4705
稗	-13.4705
殲	-13.4705
螽	-13.4705
先以左手按其源穴得動氣乃下針	-13.4705
抉	-13.4705
第九壘洞淵無色剛維地氣	-13.4705
估	-13.4706
踆	-13.4706
淬	-13.4706
左爲隱月右爲日根六合清	-13.4706
迕	-13.4706
卬	-13.4706
齶	-13.4706
苫	-13.4706
灊	-13.4708
皇來降巳行五靈之外	-13.4708
神是性兮氣是命神不外馳	-13.4708
出陽入陰流曜二方	-13.4708
蠪	-13.4708
酎	-13.4708
天符道漸剥難以應玄圖	-13.4708
牷	-13.4708
不睦之眚不能得侵其實	-13.4708
第五壘金粟澤地	-13.4708
鋏	-13.4708
鐔	-13.4708
嬀	-13.4709
裡	-13.4709
刲	-13.4709
霤	-13.4709
㜸	-13.4709
此己卯生庚辰己酉生庚戌庚金	-13.4709
潢	-13.4709
畗	-13.4709
膻中者臣使之官喜樂出焉	-13.4709
金本從日生朔旦受日符	-13.4709
襁	-13.4709
祻	-13.471
日赤色有紫光九芒	-13.471
霂	-13.471
濂	-13.471
入五内霧散若風雨	-13.471
躰	-13.471
嘍	-13.4712
耒	-13.4712
帝其一帝輒備一門以奉屬於中央	-13.4712
三焦者决瀆之官水道出焉	-13.4712
輴	-13.4712
〇	-13.4712
旎	-13.4713
朶	-13.4713
北方黑色入通於腎開竅於	-13.4713
天道無適莫兮常傳與賢者	-13.4713
木生火父木下臨子火父臨子位順也	-13.4713
謇	-13.4713
不歸正商盛而還衰勝而不實二十	-13.4714
石精金光藏景録形	-13.4715
者從目系下頰裏	-13.4715
芒盡來入喉中都畢又	-13.4715
申望只有白氣自庚	-13.4715
䪼	-13.4715
二寸半徑八分分之少半	-13.4715
槽	-13.4715
遒	-13.4716
㗖	-13.4716
包囊衆石爲丹祖宗	-13.4716
腎藏受病乆及膀胱鱗蟲	-13.4716
入氣街中其支别者起胃下口循腹裏	-13.4716
坰	-13.4716
忪	-13.4716
玄白生金公巍巍建始初	-13.4716
卮	-13.4716
所部不但所部乃太上之所主吾知六天	-13.4716
謟	-13.4717
至大至剛以直養而無害	-13.4717
鄖	-13.4717
若當决海百瀆傾葉去樹枯失青青	-13.4717
頭流達足究竟復上升往來	-13.4717
撆	-13.4717
歩五星五遍以受長生訣也常以	-13.4717
蕊	-13.4717
身長生往往行之三年便獲不死之道	-13.4717
滏	-13.4717
睘	-13.4717
至天時於天數後十一刻至也至後	-13.4717
在手大指本節後内側散脉	-13.4718
冏	-13.4719
抔	-13.4719
六十卦用張布爲輿	-13.4719
罪莫大於淫禍莫大於貪咎莫大於	-13.4719
軹	-13.4719
人能常清靜天地悉皆歸	-13.4719
宄	-13.4719
啣	-13.4719
四七乖戾侈離俯仰	-13.4719
恵	-13.4719
随	-13.4719
太陽流珠常欲去人卒得金	-13.4719
皓若褰帷帳瞋目登高臺	-13.4719
魃	-13.472
少語少笑少愁少樂少喜少怒少好少惡	-13.472
眴	-13.472
神室設位變化在乎其中矣	-13.472
一者以掩蔽世人莫知之	-13.472
肝苦急急食甘以緩之	-13.472
爲己之軸轄動靜不竭窮	-13.472
又不受故因此留結爲	-13.472
王而不受邪復欲還與	-13.472
黝	-13.4721
㶼	-13.4722
箬	-13.4722
紫赫然成還丹粉提以一丸刀圭最爲神	-13.4722
便九嚥氣止開目服符修之	-13.4722
南方赤色入通於心開竅於	-13.4722
却入二寸爲洞房却入三寸爲丹田	-13.4722
太平金闕後聖玉皇上道君	-13.4722
揜	-13.4722
敓	-13.4722
洄	-13.4722
葪	-13.4722
諸疾可以和形長服	-13.4722
二萬八千二百一十一兆九百九十	-13.4722
仙人雞犬同得上昇天庭急急如律令次	-13.4722
周旋十二節節盡更須親	-13.4722
方上堅牢土木下築鐵圍堅鋼	-13.4722
萬七千四百五十六億	-13.4722
蒐	-13.4722
褫	-13.4722
爲階陛麟脯鳳腊把籍長跪	-13.4722
上上禪善無量壽天	-13.4723
絢	-13.4723
一闔一闢謂之變往來不窮謂之通	-13.4723
瞼	-13.4723
朂	-13.4723
阼	-13.4723
帝君命簡金書不傾五老奉符天地	-13.4723
𠑽	-13.4723
閾	-13.4723
羅列三條枝莖相連同出異名皆由一門	-13.4723
聖人奪得造化意手摶日月安爐	-13.4723
菓	-13.4723
也修飛步之道當思夫人姓諱形像	-13.4723
今更撰録補塞遺脱潤色幽深鉤援相逮	-13.4723
柿	-13.4723
色轉更爲紫赫然成還丹	-13.4723
逶	-13.4723
三將也人各百萬衆兵竪架此宅	-13.4723
息行于榮之白道焉	-13.4723
溯	-13.4723
在足外踝後跟骨上陷	-13.4724
達四肢顔色恱澤好髮白	-13.4724
獳	-13.4724
𦿜	-13.4724
至九月甲戌月己得甲	-13.4724
娼	-13.4724
箔	-13.4724
氷雪得温湯解釋成太玄	-13.4724
嗒	-13.4724
天始行天令也後十五日少徵來和	-13.4724
火伏羽蟲災心藏病後	-13.4724
皴	-13.4724
𨇠	-13.4724
六三川邵堯夫撰	-13.4725
深淵浮游守規中旋曲以視	-13.4725
頂中央旋毛中陷容指督脉足太陽	-13.4725
篥	-13.4726
愿	-13.4726
太過則薄所不勝而乘所勝	-13.4726
三物相含受變化狀若神	-13.4726
髴	-13.4726
有餘而往不足隨之不足而往有餘從之	-13.4726
伫	-13.4726
正化地實運勝减半	-13.4726
荻	-13.4726
物芸芸各歸其根歸根曰靜靜曰復命	-13.4726
植禾當以黍覆雞用其	-13.4726
金華先倡有頃之間	-13.4726
以酒爲漿以妄爲常醉以入房以	-13.4727
奣	-13.4727
唾涕精津氣血液	-13.4727
嚴父施令教敕子孫	-13.4727
元精眇難覩推度效符	-13.4727
得神不能自生神不得形不能自成形神	-13.4727
坤乙三十日東北喪其朋	-13.4727
從缺盆下乳内廉下俠齊	-13.4727
洞虚稽古當元皇關雎建始初	-13.4727
金化爲水水性周章火化爲土水不得行	-13.4727
戯	-13.4727
故演作丹意乾坤不復言	-13.4727
褐懷玉外似狂夫	-13.4727
𩅞	-13.4727
䳋	-13.4727
不歸太羽盛而還衰勝而不實	-13.4728
始畫八卦效法天地文王帝之宗	-13.4728
䁘	-13.4728
矍	-13.4728
䖝	-13.4728
兩無宗一有靈化妙難窺	-13.4728
楂	-13.4728
蘩	-13.4728
虱	-13.4728
凊	-13.4728
視萬里魂魄返嬰滅鬼却魔來致千靈上	-13.4728
髽	-13.4728
鍊爲表衛白裏貞居	-13.4728
韡	-13.4728
木皆摧傷佐陽詰商旅人君深自	-13.4728
苾	-13.4728
辛酉十四壬戌十五癸亥十六	-13.4728
𣗳	-13.4728
徔	-13.4729
鬐	-13.4729
夫妻弊髮腐齒終不相知若藥物非種名	-13.4729
奂	-13.473
字三過畢曰願得與	-13.473
梃	-13.473
夢寐感慨之心歡意	-13.473
鱅	-13.473
也此可以立談而非心授也所言心授者	-13.473
意等齊所趣不悖故復作此命五相類則	-13.473
時順節令閉口不用談天道甚浩廣太玄	-13.473
菘	-13.473
上見水運運勝地火也黑氣之下苦物	-13.473
嚬	-13.473
官有司各典所部	-13.473
身長六寸六分著青寶神光錦	-13.473
霜羅九色之綬頭戴紫元玄黄寶冠居九	-13.473
髂	-13.473
陰陽之始玄含黄芽五金之主北方河車	-13.4731
雲門下一寸乳上三肋間	-13.4731
昉	-13.4731
罽	-13.4731
豢	-13.4731
鬟	-13.4731
見畢次有黑氣自辛横流至	-13.4731
膊内俠脊抵腰中	-13.4731
乘雲氣入我身中安鎭	-13.4731
分著玄黄素靈之綬頭戴七稱珠玉之幘	-13.4731
周旋十二節節盡更親觀	-13.4731
則稱有下閉則稱無無者以奉上上有神	-13.4731
綮	-13.4731
天始行天令也後十四日少羽來	-13.4731
此丙午生丁未丙子生丁	-13.4733
不用尋冬至身中自有一陽生	-13.4733
午未申爲秋酉戌亥爲冬	-13.4733
赶	-13.4733
𤣎	-13.4733
悃	-13.4733
僥倖訖不遇聖人獨知之	-13.4733
先天地生巍巍尊高旁有垣闕狀	-13.4733
㘅	-13.4733
金丹之術百數其要在神水華池	-13.4733
鴸	-13.4733
先有赤氣見見畢次有黑氣自丙至	-13.4733
子金居上父土在下子臨父位	-13.4733
有形易忖量無兆難慮謀作事令可法	-13.4733
極怫怫被容中反者道之驗弱者德之柄	-13.4733
八月麥生天罡據酉子南午北互爲綱紀	-13.4733
蒸兮興雲而爲雨泥竭	-13.4733
聖人不虚生上觀顯天符天符有進退	-13.4734
諦思之不須論深藏守莫傳文	-13.4734
一呼若灸者可灸一壯	-13.4734
寸田尺宅可治生	-13.4734
昴畢之上震出爲徵陽氣造端初九	-13.4734
狷	-13.4734
紫雲飛精羽蓋從十二鳳凰三十六玉女	-13.4734
金德尚白鍊鉛以求黄色焉	-13.4734
五苦八難九厄百病	-13.4734
民病風病行於上治之以辛凉	-13.4734
顋	-13.4734
内觀其心心無其心外觀其形形無其形	-13.4734
壬寅十四癸卯十五甲辰十六乙巳十七	-13.4734
庚寅二辛卯三壬辰四癸巳五	-13.4734
引驗見效校度神明推類結字原理爲	-13.4734
憫後生好道之倫隨傍風采指畫古文著	-13.4734
戊戌十己亥十一庚子十二辛丑十三	-13.4734
餽	-13.4734
椆	-13.4735
髠	-13.4735
繄	-13.4735
禰	-13.4735
鬃	-13.4735
洗濯羽翮振索宿塵	-13.4735
者吐生光七八道已訖	-13.4735
關節透自然精滿谷神存	-13.4735
丙戌三丁亥四戊子五己丑六	-13.4735
晦土木金將化繼坤生震龍	-13.4735
簦	-13.4735
證難以推移心專不縱横寢寐神相抱覺	-13.4735
黶	-13.4735
六乙未七丙申八丁酉九	-13.4735
戌太陽正化在泉也故戌爲土其數五	-13.4735
第三壘石脂色澤地	-13.4735
雄雌設陳挺除武都八石棄捐	-13.4736
縱横不應漏刻風雨不節水旱相伐蝗蟲	-13.4736
土始治地也濕行於地甘物乃生後五日	-13.4736
流幽明本共居竊爲賢者談曷敢輕爲書	-13.4736
玆	-13.4737
琵	-13.4737
㰦	-13.4737
丁巳十一戊午十二己未十三庚申十四	-13.4737
俐	-13.4737
山治在犍爲郡南安縣去成都一百	-13.4737
日魂月魄若箇識識者便是	-13.4737
膽神龍曜字威明	-13.4737
月受日化體不虧傷陽失其契陰侵其明	-13.4737
肝青爲父肺白爲母腎黑爲子脾黄爲祖	-13.4737
𥋾	-13.4737
憂憫後生好道之倫隨傍風采指	-13.4737
勤而行之夙夜不休服食三載輕舉遠	-13.4738
機諸術甚衆多千條有萬	-13.4738
從頭流達足究竟復上昇	-13.4738
襍	-13.4738
趑	-13.4738
漻	-13.4738
薾	-13.4738
形保全出景藏幽五靈化分合明扇	-13.4738
轢	-13.4738
恐泄天之符猶豫增歎息俛仰	-13.4738
纊	-13.4738
睚	-13.4738
上太極瓊宫玉寶之府丹靈鄕洞元里中	-13.4738
坤三變成乾十五三陽備圓照東方甲	-13.4738
楨	-13.4738
步斗宿六甲以日辰陰道厭九一濁亂弄	-13.4738
右旬依肇啓一門於	-13.4738
稽首再拜次對謹請上聞七元眞君	-13.4738
角亢氐房心尾箕	-13.4738
運即火生土父臨子位順也	-13.4738
蓆	-13.474
或君驕溢亢滿違道	-13.474
潏	-13.474
鰌	-13.474
乾初缺成巽平明月見辛	-13.474
艮二十三下弦下弦水半斤月出於丙南	-13.474
霛	-13.474
二刻人氣在少陽水下三刻人氣在陽明	-13.474
冡	-13.474
剸	-13.474
曚	-13.474
朝散郎守尚書祠部員外	-13.474
自謂必延期遽以夭命死	-13.474
虙	-13.474
顇	-13.474
以天五錯伍於中並列而求之其首尾各	-13.474
若遂結舌瘖絶道獲罪誅寫情著竹帛	-13.474
出其胞骨弱可卷肉滑若鉛	-13.474
運太過戌陽年筭數加十	-13.474
運太過辰陽年筭數加十	-13.474
酤	-13.4741
終於三十七刻半午正之中	-13.4741
金逢望遠不堪嘗	-13.4741
去内踝一寸上踝八寸交出	-13.4741
若星經漢兮昺如水宗海	-13.4741
靣	-13.4741
骨間動脉上去陷谷	-13.4741
列其條核實可觀分兩有數因而相循故	-13.4741
本而得者有逆取而得者有從取而得者	-13.4741
粿	-13.4741
密固閼絶姦邪曲閣相通以戒不虞	-13.4741
資始統政不可復改觀夫雌雄交	-13.4741
其智絶思慮也夫無思無慮則專道無嗜	-13.4742
焙	-13.4742
摛	-13.4742
鶻	-13.4742
三五三五并與一兮都集歸	-13.4742
南午三者俱來朝兮家屬	-13.4742
亷	-13.4742
俏	-13.4742
絶群獨宴靜氣遺形	-13.4742
忡	-13.4742
抓	-13.4742
肉而充皮膚肥腠理而司開闔	-13.4742
上之五日中之五日下之五日各爲一候	-13.4743
下之一候前二日半使火二兩	-13.4743
中之一候前二日半使火二兩	-13.4743
夬陰以退陽升而前洗濯羽翮振索宿塵	-13.4743
時上之一候前二日半是爲三十時使火	-13.4743
窶	-13.4744
栻	-13.4744
今中誥孔穴圖經	-13.4744
日辰爲期度動靜有早晚	-13.4744
上德無爲不以察求下德爲之其用不休	-13.4744
中焦下絡大腸還循胃口	-13.4744
乾納甲壬坤納乙癸	-13.4744
羭	-13.4744
赤童戲朱雀變化爲青龍	-13.4744
一口吸盡西江水	-13.4744
有無互相制上有青龍居	-13.4744
未太隂正化在泉也故未爲土其數五	-13.4744
鬰	-13.4744
𥿄	-13.4744
朞	-13.4745
終於六十二刻半酉正之中	-13.4745
慴	-13.4745
太陽少陽太剛少剛之用數	-13.4745
男生而伏女偃其軀禀乎胞胎受氣元初	-13.4745
賙	-13.4745
奔走江淮之枯竭兮水流注于海	-13.4745
心欲耎急食鹹以耎之	-13.4745
腓	-13.4745
返元近在我心不離己身抱一母	-13.4745
惔	-13.4746
孱	-13.4746
囓	-13.4746
因看崔公入藥鏡令人心地轉分明	-13.4746
旆	-13.4746
起於目内眦上額交巅上	-13.4746
鈕	-13.4746
擷	-13.4746
钁	-13.4746
懻	-13.4747
𥫽	-13.4747
太商不歸正徵盛而還衰勝而不實	-13.4747
愳	-13.4747
火始治地熱行於地苦物乃生後	-13.4747
吾言甚易知甚易行天下莫能知莫能行	-13.4748
蹐	-13.4748
成七也於交地時後七刻	-13.4748
景八道秘言勿傳非仙之人	-13.4748
上正角厥隂木司天風行於上	-13.4748
夫人駕十飛龍乘我流鈴西	-13.4748
畜微稚老枯復榮薺麥	-13.4749
賡	-13.4749
啐	-13.4749
出入無疾立表微剛黄	-13.4749
貟	-13.4749
絪	-13.4751
鞫	-13.4751
是非歷藏法内視有所思履	-13.4751
爲水馬齒闌干陽乃往和情性自然	-13.4751
中肝五日死其動爲語	-13.4751
化盛而實勝而不復燥化四從本生數也	-13.4751
潏潏鼎沸馳兮暴湧不休止	-13.4751
咍	-13.4752
臨泣目窗正營承靈腦空	-13.4752
太谿在足内踝後跟骨上動脉	-13.4752
治在蟠針劫刺以知爲數以痛爲輸	-13.4752
畸	-13.4752
眚火見燔焫革金且耗大暑	-13.4752
乃終其色深其行疾應時不移位吉二十	-13.4752
在心内運天經晝夜存之自長生	-13.4752
萬不得仙玄都上品第	-13.4752
血氣始精衛氣始行月郭滿則血氣	-13.4752
靉	-13.4753
聖人之於聲色滋味也利於性	-13.4753
丹砂流汞父戊己黄金母	-13.4753
屯以子申蒙用寅戌餘六十卦各自有日	-13.4753
湓	-13.4753
窿	-13.4753
时	-13.4753
濕淫所勝平以苦熱寒淫於内治以甘熱	-13.4753
環匝關閉四通踟蹰	-13.4753
碓	-13.4753
籛	-13.4753
給玉童玉女依四極盟科	-13.4753
相去及刺灸分壯法如胃倉	-13.4753
非徒累句諧偶斯文殆有其	-13.4754
受孟先生法暮卧先讀黄庭内景經一	-13.4755
支别者從心系上俠咽喉	-13.4755
吾紅霞子也吾將詬諸造化願假道于君	-13.4755
丘山循遊寥廓與鬼爲鄰化形而仙淪寂	-13.4756
桁	-13.4756
𣌜	-13.4756
瑤	-13.4756
謹及啓䟽玉斧再拜玉斧言	-13.4756
坤乙三十日東北䘮其朋	-13.4756
遊太虚兮謁仙君録天圖兮號眞人	-13.4758
極之下以上毛際循腹裏上關元至咽喉	-13.4758
霜羅九色之綬頭戴	-13.4758
惴	-13.4758
鵕	-13.4759
太平金闕帝晨後聖玄元上道君	-13.4759
少陰太柔少柔之用數	-13.4759
睍	-13.4759
終於八十七刻半子正之中	-13.476
膹	-13.476
不任杖聾者聽宫商没水捕雉兔登山索	-13.476
礀	-13.4762
自見徐升其身以入泥丸自	-13.4762
筦	-13.4763
顫	-13.4763
宅外界入地十丈和土拔	-13.4763
棚	-13.4765
凓	-13.4765
胻骨外廉兩筋肉分間	-13.4765
柬	-13.4766
殍	-13.4766
糲	-13.4766
吸相貪欲佇思爲夫婦	-13.4766
採二儀未判之氣奪龍虎始媾之精	-13.4766
上令得上隨身及家口	-13.4766
柝	-13.4767
上部法天主胸以上至頭	-13.4767
殪	-13.4767
䍧	-13.4767
啇	-13.4767
會宋陳魯衛鄭許曹之	-13.4767
相對而十中虚天五之用而十五	-13.4767
黮	-13.4769
歜	-13.477
閴	-13.477
其要者一言而終不知其要流散無窮	-13.4774
嬛	-13.4774
氣乘矣宣明五氣篇曰精氣并於	-13.4776
劃	-13.478
祝曰五行相推金木相伐水火相滅	-13.4782
蘚	-13.4782
焰照九億萬里中上有	-13.4784
吽	-13.4784
實金翅之所棲自生	-13.4787
取之必切而驗之疏取之上氣和乃止	-13.4791
後二日運氣下同間物同生也	-13.4796
養衆子世爲類母	-13.4892
其直行者從腎上貫肝鬲入肺中	-13.7202
六五坤承結括終始韞養衆子世爲類	-13.7843
矰	-13.7971
蚋	-13.7975
适	-13.7979
癙	-13.7981
其外經病而藏不病故獨取其經於掌後	-13.7983
鶌	-13.7985
籩	-13.7986
矮	-13.7986
醁	-13.7988
櫄	-13.7988
躐	-13.799
秦符登攻姚萇不利	-13.799
蜪	-13.799
㓗	-13.7994
榣	-13.7994
䎶	-13.7998
泱	-13.8
䰠	-13.8
簉	-13.8
暀	-13.8002
顡	-13.8002
蓀	-13.8004
㶌	-13.8004
䪻	-13.8004
𣪯	-13.8008
鄞	-13.8009
内視令火自焚舉體潔白見穢氣	-13.801
珣	-13.801
相伐水火相滅銅口鐵舌	-13.8011
嶔	-13.8011
寢寐神相抱覺悟候存亡	-13.8011
江海所以能爲百谷王者以其善下之	-13.8011
㝁	-13.8011
栒	-13.8011
噆	-13.8011
植禾當以粟覆鷄用其子	-13.8013
珧	-13.8013
鍠	-13.8015
蠚	-13.8015
顔容寖以潤骨節益堅强	-13.8017
𥇓	-13.8017
臞	-13.8019
嚲	-13.8019
哇	-13.8021
嶧	-13.8021
𪆻	-13.8021
桺	-13.8021
种	-13.8021
黈	-13.8021
悀	-13.8021
泅	-13.8023
𪁺	-13.8023
犒	-13.8023
混康内外利貞保兹黄裳	-13.8023
四大開朗天地爲常玄水澡穢辟除不	-13.8023
湟	-13.8023
捃	-13.8023
喣	-13.8023
皞	-13.8025
玄子字延期隴西定谷人	-13.8025
婩	-13.8025
䧿	-13.8025
泆	-13.8025
數過次摩其掌熱以摩	-13.8025
行年若干𡻕某月某日生本宿某星今被	-13.8025
青氣并來木勝即甚後來木勝即小次後	-13.8025
悰	-13.8027
樟	-13.8027
莞	-13.8027
䖀	-13.8027
盬	-13.8027
鑞	-13.8027
氊	-13.8027
瓀	-13.8027
砆	-13.8027
緡	-13.8027
致虚極守靜篤萬物並作吾以觀其復	-13.8027
鬄	-13.8027
窣	-13.8029
腆	-13.8029
土生金金生水水生木木生火火生土	-13.8029
漣	-13.8029
指次指爪甲上去端如韭葉各一痏	-13.8029
府之眞靈閴無他思其禁不得	-13.8029
欀	-13.8029
猼	-13.8031
恫	-13.8031
耋	-13.8031
麖	-13.8031
大都全藉修持力毫髮差殊不作丹	-13.8031
澳	-13.8031
䳼	-13.8031
呤	-13.8031
粲彬彬兮萬遍將可覩神明或告人兮	-13.8031
滸	-13.8033
其經卦皆八其别皆六十有四	-13.8033
琁	-13.8033
袤	-13.8033
騂	-13.8033
两	-13.8033
咫	-13.8034
兌合不以談希言順鴻濛	-13.8034
楠	-13.8034
廆	-13.8035
觡	-13.8035
上清太淵神龍瓊胎乘景上玄玉章	-13.8035
九眞人五復三歸行道觀門經	-13.8035
哉坤元萬物資生乃順承天	-13.8035
隰	-13.8035
䏁	-13.8035
韙	-13.8035
之並如嬰兒之形髣髴在身各安其所訖	-13.8035
茇	-13.8035
經日之甲一經月之巳六經星之	-13.8036
愽	-13.8036
能益能易名上仙籍不益不易不離死厄	-13.8036
鯥	-13.8036
鸞鳥自歌鳳鳥自舞	-13.8036
偪	-13.8036
訇	-13.8036
母呼亦呼母吸亦吸	-13.8036
乾兩中爻爲離坤一中爻爲坎	-13.8037
蔻	-13.8037
坏	-13.8037
易有太初有太始有太素太易者未見氣	-13.8037
歳之壽無有中夭之命學者知外國地色	-13.8037
滅慾斬尸變景流光玉符著	-13.8037
蚘	-13.8037
樛	-13.8038
穢故用此二物以消形中之滓濁	-13.8038
以見天下之動而觀其會通以行其典禮	-13.8038
擠	-13.8038
月黄色有白光十芒存咽服光芒之液常	-13.8038
罘	-13.8038
罝	-13.8038
倀	-13.8038
君太素内景法旦旦爲之臨目施行視日	-13.8038
颶	-13.8038
上登九門即見九眞太上之尊	-13.8038
漪	-13.8038
窋	-13.8038
績水虛夷子靜安汪可孫	-13.8038
耵	-13.8038
聹	-13.8038
甽	-13.8038
兟	-13.8038
玉之芝見於所行止之前得而服之昇仙	-13.8038
𦭘	-13.8038
辟却衆陰邪然後立正陽	-13.8039
木伏毛蟲病肝氣衰後十	-13.8039
大明之上矣至彼至陽之原也爲汝入於	-13.804
㳙	-13.804
關楗有低昂兮周天遂奔走	-13.804
剽	-13.804
墌	-13.804
壍	-13.804
祿	-13.804
雚	-13.804
駔	-13.804
人令知其國有不死之教其國人皆行禮	-13.804
侚	-13.804
執玉簡懸七星寳劔垂白玉環珮管人間	-13.804
之内與神相向而坐順時吐息次吸	-13.804
千歲而息羸其潔深大至著極於	-13.804
半入室北向正坐按手定氣臨目存北斗	-13.804
希聽之不聞名曰夷摶之不得名曰微	-13.804
庳	-13.804
形之始也太素者質之始也氣形質具而	-13.804
槳	-13.804
瞢	-13.804
磵	-13.8042
𤟑	-13.8042
身者藏身於身而不出藏人於人而不見	-13.8042
王者武以討叛文以懷柔	-13.8042
聖人傳藥不傳火從來火候少人知	-13.8042
闉	-13.8042
闘	-13.8042
棖	-13.8042
此亦陽功不入隂數君曰來生	-13.8042
荳	-13.8042
秕	-13.8042
素臺在易遷宫中已四百年不肯	-13.8042
阝	-13.8042
中部法及三皇五嶽劾召之要行之神驗	-13.8044
岨	-13.8044
视	-13.8044
甥	-13.8044
疊累兮犬牙相錯距形如仲冬冰兮	-13.8044
揉	-13.8044
東到青丘過風山見紫府	-13.8044
鴖	-13.8044
雯	-13.8044
也變化爲砂汞砂汞者金土二用	-13.8044
虩	-13.8044
蟯	-13.8044
又五者符籍之神太一公子白元司命桃	-13.8044
嶲	-13.8044
秱	-13.8044
颷	-13.8044
承奉胃司受盛糟粕受	-13.8044
𦕈	-13.8044
䯒	-13.8044
九十九萬億九十九萬歲三合成德共生	-13.8044
文昌總録詰責台輔百官有司各典所部	-13.8044
東方青牙服食青牙飲以朝華	-13.8044
毼	-13.8044
鐻	-13.8044
瑱	-13.8046
鄫	-13.8046
堨	-13.8046
此三者禍之車小則危身大則	-13.8046
二斗四升水六升三合合之	-13.8046
兩乳間爲氣之海然心主爲君	-13.8046
右有玄一老君此則無極之中所謂九	-13.8046
惡人與火聞木音則惕然而驚	-13.8046
揑	-13.8046
縁彼此懷眞土遂使金丹有返還	-13.8046
腎色黑宜食辛黄黍鷄肉桃	-13.8046
䁝	-13.8046
上戴黄金精下負坤元形中和流	-13.8046
太上與日合并得補眞人列象玄名	-13.8046
眞人潛深淵浮游守規中	-13.8046
褓	-13.8046
南方朱丹服食朱丹飲以丹池	-13.8046
於西而光耀於東則東方青龍木德之正	-13.8046
珚	-13.8046
軏	-13.8046
鐃	-13.8046
門名是故長生敢有犯者太上斬汝	-13.8046
民陵居而多風水土剛强	-13.8048
硎	-13.8048
執火八公擣鍊淮南調合立宇崇壇	-13.8048
惘	-13.8048
有三百八十四銖銖據一斤爲十六兩也	-13.8048
一則眞一也九君所謂天之魂自然成眞	-13.8048
在足心陷者中屈足捲指宛宛中足少	-13.8048
覆七九之裏使天帝之靈魂常治	-13.8048
寀	-13.8048
怙	-13.8048
描	-13.8048
老仙官衛兆之身九年自然得	-13.8048
肉分之間谿谷之會以行榮衛以會大氣	-13.8048
逗	-13.8048
馱	-13.8048
昜	-13.8048
橙	-13.8048
西方明石服食明石飲以靈液	-13.8048
丙辰二丁巳三戊午四己未五	-13.8049
三氣各相去九十九萬億九十九萬歲	-13.805
涪	-13.805
憍	-13.805
福逮於靚等使易世變	-13.805
袪	-13.805
之下循内踝之後别入跟中以上	-13.805
搴	-13.805
塹	-13.805
鍤	-13.805
㪚	-13.805
神室者上下釜也設位者列雌雄配合之	-13.805
蠓	-13.805
跬	-13.805
南方月德庚月合乙生氣	-13.805
根當拔生死栽沉吟墮九泉但坐惜形骸	-13.805
上同身寸之二寸少陰前太陰後筋骨間	-13.805
乙亥十五丙子十六丁丑十七戊寅十八	-13.805
午二十二癸未二十三甲申二十四乙酉	-13.805
深思三眞必能以兆一體周旋三五之中	-13.805
饔	-13.805
坒	-13.805
嵌	-13.805
撇	-13.805
於午而光耀於北則南方朱雀火德之正	-13.805
毖	-13.805
𤓰	-13.805
娃	-13.805
左男戴日右女戴月	-13.805
憿	-13.805
極數知來之謂占通變之謂事	-13.805
鵫	-13.805
鼓下五石銅以之爲輔樞	-13.805
昛	-13.8052
徹面有玉光體有金澤行之十五年太一	-13.8052
之不得舉嗷嗷聲甚悲兮嬰兒之慕母	-13.8052
𣹬	-13.8052
炕	-13.8052
理明初字玄度𡖖一名神宗一名	-13.8052
剿	-13.8052
嘒	-13.8052
棓	-13.8052
瀅	-13.8052
㝡	-13.8052
侍中奉車都尉光禄大夫臣秀領	-13.8052
方諸非星月安能得水漿	-13.8052
陽燧以取火非日不生光	-13.8052
𤠔	-13.8052
事之前不追之於既逝之後民難養而易	-13.8052
入缺盆絡心循咽下鬲抵胃屬小腸	-13.8052
後一日運氣同下間物同生也	-13.8052
慶得奉道眞竊不自揆輒希長生誓	-13.8052
槀	-13.8052
稽首歸身歸神歸命太清玄元無	-13.8052
若還無戊己雖含四象不成丹	-13.8052
鍼巫咸扣鼓安能令蘇復起馳走	-13.8052
𣏌	-13.8052
守界定䂓矩金砂入五内霧散若風雨	-13.8052
得古文龍虎經盡獲妙㫖乃約周易	-13.8052
臾變成兩明鏡徑九寸以前後照我一體	-13.8052
葯	-13.8052
身神衆列並來見形徹視萬里中達九靈	-13.8052
雲巾羅役使千靈封山召河	-13.8052
頭人身赤衣左手持㦸名	-13.8052
鸝	-13.8052
爲始初四肢五臟筋骨乃具彌歷十月脱	-13.8053
類不同分劑參差失其紀綱雖黄帝臨爐	-13.8053
筋之上按之應手屈膝而得之足少	-13.8053
伏蒸須臾間先液而後凝號曰黄轝焉	-13.8053
龍鱗高舉方寸物萬吹皆垢塵顧哀朝生	-13.8054
吐鍾乳崔嵬而雜厠兮交積相支	-13.8054
㮏	-13.8054
攤	-13.8054
縗	-13.8054
嘈	-13.8054
捋	-13.8054
腎者作强之官伎巧出焉	-13.8054
安知入造化之洪罏任陰陽之鼓鑄	-13.8054
成十三也至天時於天數前十三刻至也	-13.8054
泰剛柔並隆陰陽交接小往大來	-13.8054
芹	-13.8054
蕋	-13.8054
蹀	-13.8054
上爲雲天氣下爲雨雨出地氣雲出天氣	-13.8054
二五共成七也故加七刻運交時面向	-13.8054
伏羲受圖軒轅受符高辛受天經	-13.8054
怏	-13.8054
歩五星除災度厄去病上入生榮王盛之	-13.8054
洫	-13.8054
獂	-13.8054
至天時於天數前十四刻至也至後	-13.8054
躣	-13.8054
鮭	-13.8054
𣩠	-13.8054
來至於今日所犯元惡重罪咸賜蕩除許	-13.8055
硋	-13.8056
疐	-13.8056
彌梵羅臺霄絶寥丘飛元雲根之都	-13.8056
術龍從火内出五行不順行虎向水中生	-13.8056
隠	-13.8056
㬠	-13.8056
我五藏攝我精神下灌玉液上朝泥丸夕	-13.8056
綣	-13.8056
跧	-13.8056
以日之寒温月之虚盛四時氣之浮沉	-13.8056
惂	-13.8056
濶	-13.8056
燄	-13.8056
玢	-13.8056
蚡	-13.8056
証	-13.8056
鉛萬里芽若非鉛從鉛而始	-13.8056
䃤	-13.8056
則稱有下閉則稱无无者以奉上上有神	-13.8056
卜梁倚有聖人之才而無聖人之道	-13.8056
嫡	-13.8056
屬脾絡胃上鬲俠咽故	-13.8056
昞	-13.8056
物相含受變化狀若神下有太	-13.8056
𦂳	-13.8056
三者旣關鍵緩體處空房	-13.8056
侑	-13.8056
候兩日半一氣三十時二周半至	-13.8056
則因彖辭乾坤用施行天下然後治	-13.8056
北方玄滋服食玄滋飲以玉飴	-13.8056
新補復前咎令九祖父母幽魂苦爽皆	-13.8056
治山在蜀州新津縣去成都	-13.8056
爲鉛外黑色禀北方内懷銀精	-13.8056
瑄	-13.8056
脩榦立末可持一者以掩蔽世人莫	-13.8056
食飲有節起居有常不妄作勞	-13.8058
蜩	-13.8058
黄中通理正位居體美在其中而暢於四	-13.8058
坐濕地强力入水則傷腎	-13.8058
終則復更始日辰爲期度動靜有早晩	-13.8058
𦖞	-13.8058
絰	-13.8058
老楓化爲羽人朽麥化爲蝴蝶自無情	-13.8058
勰	-13.8058
清庵螢蟾子語録卷之	-13.8058
七魄朝和三魂右命玉華左嘯金晨	-13.8058
伏蒸須臾間先液而後凝號曰黄輿焉	-13.8058
似蓬壺環帀關閉四通踟蹰守禦	-13.8058
孩道康字合精延一名命王一名胞根	-13.8058
我神仙役靈使神常保利	-13.8058
灝	-13.8058
身三景保守令我得眞養魂制魄	-13.8058
天食人以五氣地食人以五味	-13.8058
形司命公子五神黄寧血尸散滅	-13.8058
晬	-13.8058
羯	-13.8058
髣	-13.8058
乙金運不及從生數其數四四	-13.8058
太乙宫養素齋道士臣周眞一即證	-13.8058
妭	-13.8058
尒	-13.8058
愲	-13.8058
旒	-13.8058
氲	-13.8058
致道之初基習靜之成功持安之畢事	-13.8058
虎黄帝美金華淮南鍊秋石王陽	-13.8058
除則戰勝也湛然常樂則榮禄也	-13.8058
去世位收歛其精懷德俟時栖遲昧冥	-13.8059
燒香朝眞願得九天正眞生氣降	-13.8059
入同身寸之三分留三呼若灸者可灸	-13.806
在足小指外側去爪甲角如韭葉	-13.806
靨	-13.806
始富後貧雖不傷邪皮焦	-13.806
委曲相制以使無虞自然之理神化無方	-13.806
㑗	-13.806
有一子母分胎路妙在尾箕	-13.806
此甲辰生乙巳甲戌生乙亥乙金運	-13.806
膝髕中下循胻外廉下足跗入中指内間	-13.806
先見之然而不形於外故曰觀於冥冥焉	-13.806
檎	-13.806
硤	-13.806
結舌欲不語絶道獲罪	-13.806
戌望先有温白色見其黑氣見而復没	-13.806
眞中監五嶽飛仙下領後學眞	-13.806
窬	-13.806
者言形氣榮衛之不形於外而工獨知之	-13.806
達生之情者不務生之所無以爲	-13.806
上星囟會前頂百會後頂	-13.806
之患怪乎物亡乎身未若吾之	-13.806
吾不敢虚説倣效聖人文	-13.806
爲鉛冰雪得温湯解釋成太玄	-13.806
蹂	-13.806
太陰少陰太柔少柔之體數	-13.806
太陽少陽太剛少剛之體數	-13.806
文昌統録詰責台輔百官有司各典所部	-13.806
洟	-13.806
胸陰陽配日月水火爲效徵	-13.8061
華轉而相因化爲白液凝而至堅	-13.8061
號諸石覆冒衆文學者得之韞	-13.8061
竆	-13.8061
諟	-13.8061
欻舞神霄披霞帶九日高皇齊龍輪遂造	-13.8062
天爲陽地爲陰日爲陽月爲陰	-13.8062
枘	-13.8062
上天以其先身好色故轉爲女子	-13.8062
命死腐露其形骸舉措輙有違悖逆失樞	-13.8062
睁	-13.8062
之氣始於三十七刻六分午中之	-13.8062
京骨在足外側大骨下赤白肉際	-13.8062
大淵乍沈乍浮退而分布各守境隅	-13.8062
將仕郎試大理評事賜緋魚袋張弧撰履	-13.8062
卯中之南終於水下百刻丑後之四刻	-13.8062
股膝髀腨胻足病	-13.8062
菜食養盡之無使過之傷其正也	-13.8062
要知産藥川源處只在西南是本郷	-13.8062
酉中之北終於五十刻未後之四刻	-13.8062
三五一都三箇字古今明者實然	-13.8062
丑十八丙寅十九丁卯二十戊辰二十一	-13.8062
六月也土生於火長在夏中既長而王	-13.8062
在腹下俠齊兩傍相去四寸鼠僕上	-13.8062
堽	-13.8062
天地之間六合之内不離於五人亦應之	-13.8062
太空亦宅無矣我未生時天下皆無無也	-13.8062
宫中來覆滿一室内外晻冥良久	-13.8062
成六也至天時於天數後六刻至也至後	-13.8062
璉	-13.8062
男則萬神唱恭女則萬神唱奉	-13.8062
癸丑六甲寅七乙卯八丙辰九	-13.8062
絧	-13.8062
黄芽本是乾坤氣神水根基與汞連	-13.8062
默養志虚無博贍文詞通諸緯候	-13.8062
七丁卯八戊辰九己巳十庚午十一辛未	-13.8062
上察河圖文下序地形流中稽於人情參	-13.8062
之號其位不同一曰太清之中則三五帝	-13.8062
八己亥十九庚子二十辛丑二十一壬寅	-13.8062
其虧四十有八銖存者其應乎	-13.8062
十辛卯十一壬辰十二癸巳十三經辰之	-13.8062
墍	-13.8062
無生死隱則形同於神顯則神同於	-13.8062
畢便九咽氣止開目服符修之	-13.8062
矴	-13.8062
辰望先有緑氣見見畢次有白氣自乙至	-13.8062
鬱待時至天作左間氣之時也	-13.8062
在手大指次指内側去爪甲角如韭葉	-13.8062
酉二戊戌三己亥四庚子五辛丑六壬寅	-13.8063
門受福天下蒙恩仙童玉女侍衛香煙傳	-13.8063
弢	-13.8063
晨風未獲解脫期逍遥丘林中	-13.8063
金返歸其母月晦日相包隱藏	-13.8063
同誠使我不死以致眞靈却遏萬邪禍	-13.8063
下焦者在臍下當膀胱上口主分别清濁	-13.8063
濾	-13.8063
五臟自生還白童顔受書上清司命帝	-13.8064
利而不害聖人之道爲而不爭故與時爭	-13.8064
少腹控睾引腰脊上衝心	-13.8064
袠	-13.8064
八荒之外近在眉睫之	-13.8064
稀東三南二同成五北一西方四共之戊	-13.8064
蟞	-13.8064
踢	-13.8064
上星在顱上直鼻中央入髮際同身寸	-13.8064
乙乃召移居中洲功滿上昇膺籙受圖	-13.8064
廬陵後學黄瑞節附録	-13.8064
得此經以道治世三萬六千歳白日登仙	-13.8064
所以蹈水火而無害對日月而無影存	-13.8064
捧香使者三氣正神當令朝眞之所自然	-13.8064
栖澄至眞當使憂累靡干於玄宅哀念莫	-13.8064
瘜	-13.8064
腄	-13.8064
虀	-13.8064
路仗三千行滿獨步雲歸	-13.8064
連珠日月合璧金砂依分呼吸相應	-13.8064
四庚寅五辛卯六壬辰七癸巳八經辰之	-13.8064
軀體本一無元精雲布因	-13.8064
擗	-13.8065
幽野悟言出從容鼓檝	-13.8065
乾遇巽時觀月窟地逢雷處	-13.8065
綖	-13.8065
擕	-13.8065
月體本黑受日之光而白	-13.8065
鐙	-13.8065
抒	-13.8065
攔	-13.8065
郅	-13.8065
呼夏至之後爲吸此天地一歲之呼吸也	-13.8065
祺	-13.8065
鳳巢高木素衣衫然	-13.8065
候三候謂之氣六氣謂之時四時謂之歲	-13.8065
我命門百神受靈使我骨强魂魄安寧五	-13.8065
生中宫黄金銷不飛灼土煙雲起	-13.8065
高妙負良才邂逅不遭遇耗火亡貨財據	-13.8065
偢	-13.8065
嬈	-13.8065
惙	-13.8065
手兩膝上閉氣瞑目内視存	-13.8065
遂成塵兮火滅化爲土若糵	-13.8065
三九過又以手心及指摩兩目	-13.8065
度過節爲女所拘魄以鈐魂不得淫奢	-13.8065
從十二飛龍二十四仙人從西北來下入	-13.8065
無極之上瓊林七映丹房玉寶洞元之府	-13.8065
荇	-13.8065
讌	-13.8065
賭	-13.8065
耳目口三寳固塞勿發揚眞人	-13.8066
平旦於寢靜之中坐卧任己先閉目内視	-13.8067
痟	-13.8067
虚時乘六雲和攝我身上	-13.8067
上古使僦貸季理色脉而通神明	-13.8067
齠	-13.8067
醢	-13.8067
多食苦則皮槁而毛拔	-13.8067
五石銅以之爲輔樞雜性不同類安	-13.8067
圯	-13.8067
慥	-13.8067
茫茫宇宙人無數幾箇男兒是丈夫	-13.8067
二尺六寸横屈受水穀三斗五升	-13.8067
十二戊戌十三己亥十四庚子十五辛丑	-13.8067
子午數合三戊己號稱五三五旣	-13.8067
火不及水來行勝運被水刑天有間侵	-13.8067
諶	-13.8067
上清無英眞童合遊内變玉經	-13.8067
别下項循肩髆内俠脊抵腰中	-13.8067
午十八丁未十九戊申二十己酉二十一	-13.8067
恓	-13.8067
日在骨蟄蟲周宻君子居室	-13.8067
朅	-13.8067
未望先有紫氣見其黄氣見而復没不來	-13.8067
泜	-13.8067
洈	-13.8067
洳	-13.8067
玄冥星天之遊擊主伐逆上	-13.8067
藂	-13.8067
藏氣法時論云脾虚則腹滿腸鳴飧泄食	-13.8067
貒	-13.8067
餗	-13.8067
又恐泄天符猶豫增歎息俛仰	-13.8068
不歸正宫盛而還衰勝而不實十	-13.8068
火始治天始行天令也後八日太角來和	-13.8068
也至天時於天數前十刻至也至後	-13.8069
玎	-13.8069
彀	-13.8069
通咽液七過乃開目事訖此道神妙又神	-13.8069
愷	-13.8069
姤始紀序履霜最先井底寒泉午	-13.8069
祝曰太上玄一九皇吐精三五七變洞觀	-13.8069
之暖爲夏之暑彼秋之忿爲冬之怒	-13.8069
昴七兮秋芒兊西酉朱雀在張二兮正	-13.8069
觥	-13.8069
辛甘發散爲陽酸苦涌泄爲	-13.8069
鞦	-13.8069
倅	-13.8069
月夜望中能採取天魂地魄結靈丹	-13.8069
無視無聽抱神以靜形將自正必	-13.8069
用九翩翩爲道規矩陽數已訖訖則復起	-13.8069
當召功曹使者左右龍虎君捧香使者三	-13.8069
鎌	-13.8069
之法節宣勞逸有與奪之要忍怒以	-13.8069
慎審察調寒温周旋十二節節盡更	-13.8069
氣來入身謂之生神去於身謂之死	-13.8069
綢	-13.8069
後逆者治其本先逆而後病者治其本先	-13.8069
旣受納有形形染六情	-13.8069
熻	-13.8069
燦彬彬兮萬遍將可覩神明或告人兮	-13.8069
爲亂辭孔竅其門智者審思以意參焉	-13.8069
生官衣服諱字如上法並從素靈宫	-13.8069
痩	-13.8069
窖	-13.8069
立天之道曰陰與陽立地之道曰柔與剛	-13.8069
騐	-13.8069
不用之一象兩之二掛一之三	-13.8069
味過於苦脾氣不濡胃氣乃厚	-13.8069
在腹齊下横骨兩端鼠鼷上	-13.8069
左黄右黄六華相當風氣惡	-13.8069
怗	-13.8069
男女相須含吐以滋雌雄錯雜以類相求	-13.8069
袽	-13.8069
郈	-13.8069
陲	-13.8069
驅二物歸黄道爭得靈丹不解生	-13.8069
𥐼塗瘡去冷加冰除熱用湯飛龜舞蛇	-13.8069
于天霐交于金運二十有五度	-13.807
龍其氣天眞九皇金眞之一氣也	-13.807
服鍊九鼎化跡隱淪含精養神通德三	-13.807
玄武龜蛇蟠蚪相扶以明牝牡	-13.807
乙酉丙戌丁亥戊子己丑庚寅辛卯壬辰	-13.807
喜刑主伏殺德主生起二月榆	-13.807
鴛	-13.8071
謂乙丑丁丑己丑辛丑癸丑乙未丁未	-13.8071
得三四過乃佳北嶽蔣夫人云讀此經	-13.8071
娜	-13.8071
蕢	-13.8071
脉起於心中出屬心系下鬲絡小腸	-13.8071
鬆	-13.8071
牝牡四卦以爲橐籥覆冒陰陽之道猶	-13.8071
纁	-13.8071
若體中不寧當反舌塞喉	-13.8071
盛衰之用其在四維故陽之動始於温	-13.8071
有以養小無見大有以本大無有有亦無	-13.8071
物之生從於化物之極由乎變變化	-13.8071
猝	-13.8071
精紫華敷太陽水能生萬物聖人獨知之	-13.8071
剛柔抗衡不相涉入非火之咎譴責於土	-13.8071
哆	-13.8071
淀	-13.8071
爲親侣本之但二物兮末	-13.8071
以冬壬癸中於邪者爲腎風	-13.8071
便遂相銜嚥咀嚼相吞熒惑守西太	-13.8071
候存亡顔容浸以潤骨節益堅强	-13.8071
去各同身寸之一寸半陷者中督脉别絡	-13.8071
吾不敢虚說倣傚聖人文古記	-13.8071
孃	-13.8071
炤	-13.8071
凸	-13.8071
北極星天之太常主昇進上	-13.8071
奩	-13.8071
戡	-13.8071
猱	-13.8071
舉水以激火奄然滅光明日月相	-13.8071
術藏於内隨務應變法設於外適時御	-13.8071
青氣在上風行於天東生赤氣西有黑	-13.8071
三木二火五土四金一水	-13.8071
來大即火復大來小即火復小	-13.8071
十四戊午十五己未十六庚申十七辛酉	-13.8071
帝君讃大有妙經頌一章	-13.8071
息周流六虚自太玄關逆流至天谷穴	-13.8071
𤝱	-13.8071
爲世定詩書素無前識資因師覺悟之	-13.8072
八庚申十九辛酉二十壬戌二十一癸亥	-13.8072
成六也於交地時後六刻	-13.8072
長二尺八寸受穀九升三合八分合之一	-13.8073
唁	-13.8073
始七十終三旬二百六善調匀	-13.8073
多食酸則肉胝䐢而	-13.8073
四刻日行四十分二千七百息氣行十周	-13.8073
磈	-13.8073
腎欲堅急食苦以堅之	-13.8073
渫	-13.8073
盤山棲雲王眞人語録	-13.8073
素問六氣玄殊宻語卷之	-13.8073
不足壯而聲色有節者强而壽始而胎	-13.8073
予命曰古人治病之方和以醴泉潤以	-13.8073
心靈乍自悟探端索其緒兮必得其門户	-13.8073
息而有愚有智有强有弱有壽有夭天耶	-13.8073
爲亂辭孔竅其門智者審思用意參焉	-13.8073
睇	-13.8073
罨	-13.8073
能見機遂得不死過度壬辰偃息盛木玩	-13.8073
藥不辛不苦甘甜多味常能服之津流五	-13.8073
頼	-13.8073
鬿	-13.8073
䵍	-13.8073
下加頰車下頸合缺盆	-13.8073
修便現老成須是過三年	-13.8073
國鄙夫幽谷朽生挾懷朴素不樂	-13.8073
坎離運氣於鼎中周流六虚於象内	-13.8073
槔	-13.8073
氍	-13.8073
湏	-13.8073
頭人身白衣左手捉箭右手持弩名	-13.8073
𤽉	-13.8073
畫古文著爲圖籍開示後昆露見枝條隱	-13.8074
在足小指次指歧骨間本節前陷者中	-13.8074
厥隂正化司天木歸本從生其數三通運	-13.8074
上盛則夢飛下盛則夢墮	-13.8075
惲	-13.8075
金運臨酉水運臨子所謂歲會氣之平也	-13.8075
無歡此十二多不除喪生之本也	-13.8075
多愁則心懾多樂則意溢多喜則	-13.8075
癧	-13.8075
五宿二十分一萬三千五百息氣行五十	-13.8075
吉人相乘負安穩可長生	-13.8075
玄幽遠渺隔閡相連	-13.8075
致靈徹視杜遏萬邪之道也	-13.8075
一隂一陽之謂道偏隂偏陽之謂疾	-13.8075
十五壬寅十六癸卯十七甲辰十八乙巳	-13.8075
檟	-13.8075
徉	-13.8075
法存月十芒白色從腦中下入喉芒亦	-13.8075
滋味有餘壯而聲色自放者弱而夭生長	-13.8075
與四時合其序與鬼神合其吉凶	-13.8075
之令故養生者必謹奉天時也	-13.8075
嫋	-13.8075
慮兼忘冥想内視則身神並一身神並一	-13.8075
排却衆陰邪然後立正陽	-13.8075
棐	-13.8075
眚土用革體重肌肉萎食减口爽風	-13.8075
竹木皆摧傷佐陽詰賈旅人君深自藏	-13.8075
肌膚充肥然後登山詠洞講微寅獸白齒	-13.8075
虚雲物摇動目轉耳鳴	-13.8075
躶	-13.8075
三丁未四戊申五己酉六庚戌七辛亥八	-13.8076
之兮王者退自改關鍵有低昂兮害	-13.8076
窊	-13.8077
鵙	-13.8077
缸	-13.8077
膀	-13.8077
曰著青裙入天門揖金母拜木公	-13.8077
郤	-13.8077
下序地形流中稽於人心參合考三才	-13.8077
不用而自然望頭不白者亦希聞也	-13.8077
黄金陰陽混交接精液包元	-13.8077
仁慈恭和弘施博愛	-13.8077
嗥	-13.8077
曰大哉乾元萬物資始乃統天	-13.8077
淼	-13.8077
侫	-13.8077
勢者雖不中邪精神内傷身必死亡	-13.8077
太極是生兩儀兩儀生四象四象生八卦	-13.8077
智天也强弱壽夭人也天道自然人道自	-13.8077
鞉	-13.8077
蓂	-13.8079
忱	-13.8079
駞	-13.8079
籤	-13.8079
讟	-13.8079
妣	-13.8081
欝	-13.8081
両	-13.8081
畚	-13.8081
曬	-13.8081
灮	-13.8081
㓻	-13.8081
佃	-13.8081
觱	-13.8081
𤮕	-13.8083
譟	-13.8083
愬	-13.8083
䦨	-13.8083
涘	-13.8083
咯	-13.8085
啘	-13.8085
藺	-13.8085
輓	-13.8085
䔧	-13.8087
欞	-13.8087
軺	-13.8087
囏	-13.8087
壹	-13.8087
鬅	-13.8087
欖	-13.8087
逑	-13.8087
𥝠	-13.8087
呷	-13.8089
胲	-13.8089
纘	-13.8089
嫖	-13.809
讜	-13.809
廙	-13.8091
猘	-13.8091
篚	-13.8091
莝	-13.8091
藐	-13.8091
赳	-13.8092
晳	-13.8094
蟮	-13.8094
糴	-13.8094
咋	-13.8094
坱	-13.8096
鷲	-13.8096
詖	-13.8096
𤛎	-13.8096
柫	-13.8096
焊	-13.8096
釿	-13.8098
焞	-13.8098
喏	-13.81
郇	-13.81
賸	-13.81
卻	-13.81
翬	-13.81
疪	-13.8102
潙	-13.8102
鎛	-13.8102
沒	-13.8102
霒	-13.8102
䕷	-13.8108
愶	-13.811
爬	-13.811
䑛	-13.811
鸓	-13.811
圄	-13.8112
蕷	-13.8112
翐	-13.8112
櫓	-13.8112
耰	-13.8112
釭	-13.8113
謢	-13.8113
䁢	-13.8114
䈁	-13.8114
剝	-13.8116
燐	-13.8116
圬	-13.8118
祼	-13.8119
鵄	-13.8125
腂	-13.8125
儸	-13.8129
靦	-13.8131
墁	-13.8131
噭	-13.8133
禘	-13.8139
焱	-13.8146
㢮	-13.8152
顖	-13.8154
佋	-14.2873
䲃	-14.2923
蕆	-14.2951
褾	-14.2954
瀙	-14.2954
煗	-14.297
摟	-14.2973
諡	-14.2979
蚼	-14.2979
唬	-14.2982
篲	-14.2985
圛	-14.2986
狕	-14.2986
韝	-14.2992
聏	-14.2992
覗	-14.2992
蹵	-14.2992
遹	-14.2992
垻	-14.2995
誄	-14.2998
悢	-14.2998
湨	-14.2998
穏	-14.2998
慡	-14.3001
确	-14.3001
蓻	-14.3001
岭	-14.3004
跱	-14.3004
䬌	-14.3004
惵	-14.3004
朏	-14.3004
瓚	-14.3008
樕	-14.3008
㘪	-14.3008
瑑	-14.3011
㥱	-14.3011
漕	-14.3011
濉	-14.3011
衕	-14.3011
䐆	-14.3011
伇	-14.3011
狟	-14.3011
稹	-14.3011
蔇	-14.3011
飍	-14.3011
艘	-14.3014
歠	-14.3014
甍	-14.3014
矬	-14.3014
鞮	-14.3014
万	-14.3015
躃	-14.3017
騾	-14.3017
毿	-14.3017
濈	-14.3017
痸	-14.3017
鴦	-14.302
嘷	-14.302
榱	-14.302
亼	-14.302
磽	-14.302
臠	-14.302
璆	-14.302
魮	-14.302
佽	-14.3023
礭	-14.3023
犠	-14.3023
臸	-14.3023
鐫	-14.3023
迮	-14.3023
陃	-14.3023
筳	-14.3023
濆	-14.3023
鮌	-14.3023
婤	-14.3023
芤	-14.3023
䯁	-14.3023
頳	-14.3026
淯	-14.3026
秭	-14.3026
裼	-14.3026
処	-14.303
樻	-14.303
荅	-14.303
佼	-14.303
疢	-14.303
詼	-14.303
喆	-14.303
垛	-14.303
碔	-14.303
禗	-14.303
蔀	-14.303
䐢	-14.303
悾	-14.303
戬	-14.303
抇	-14.303
曡	-14.303
蓁	-14.303
鄄	-14.303
鞄	-14.303
㹫	-14.3033
慁	-14.3033
錠	-14.3033
蔗	-14.3033
㬎	-14.3033
栅	-14.3033
㓕	-14.3033
羇	-14.3036
蟊	-14.3036
悞	-14.3036
詶	-14.3036
䍺	-14.3036
䰽	-14.3036
曔	-14.3036
涴	-14.3036
磢	-14.3036
芫	-14.3036
嶁	-14.3039
矗	-14.3039
薳	-14.3039
嘅	-14.3039
㪍	-14.3039
夆	-14.3039
屼	-14.3039
煤	-14.3039
鍧	-14.3039
獷	-14.3039
瓴	-14.3039
蜴	-14.3039
駛	-14.3039
数	-14.3039
瓿	-14.3039
眨	-14.3042
鋉	-14.3042
簒	-14.3042
暁	-14.3042
哢	-14.3042
瀚	-14.3042
甪	-14.3042
栲	-14.3042
罥	-14.3042
昋	-14.3042
闃	-14.3042
㤣	-14.3042
箏	-14.3042
蝀	-14.3042
軾	-14.3042
㦛	-14.3042
佶	-14.3042
冦	-14.3042
姣	-14.3042
媸	-14.3042
枲	-14.3042
祑	-14.3042
薔	-14.3042
蜆	-14.3042
蹹	-14.3042
轘	-14.3042
鈺	-14.3042
聻	-14.3045
厖	-14.3045
耔	-14.3045
埛	-14.3045
浼	-14.3045
雩	-14.3045
尃	-14.3045
暱	-14.3045
汛	-14.3045
纉	-14.3045
蜓	-14.3045
侶	-14.3045
惓	-14.3045
慿	-14.3045
荃	-14.3045
遌	-14.3045
惢	-14.3048
簋	-14.3048
䀟	-14.3048
勲	-14.3048
䁻	-14.3048
儺	-14.3048
枰	-14.3048
疳	-14.3048
罃	-14.3048
杉	-14.3048
泒	-14.3048
濊	-14.3048
胜	-14.3048
蟒	-14.3048
䀮	-14.3048
䬅	-14.3048
凮	-14.3048
弴	-14.3048
恟	-14.3048
粼	-14.3048
蓲	-14.3048
軔	-14.3048
攧	-14.3051
搯	-14.3052
畀	-14.3052
唄	-14.3052
櫬	-14.3052
炲	-14.3052
胱	-14.3052
埜	-14.3052
痀	-14.3052
晊	-14.3052
棙	-14.3052
淛	-14.3052
跽	-14.3052
郯	-14.3052
鍬	-14.3052
䬃	-14.3052
咶	-14.3052
弞	-14.3052
惷	-14.3052
愻	-14.3052
甎	-14.3052
揳	-14.3055
禆	-14.3055
籜	-14.3055
䨴	-14.3055
狰	-14.3055
甝	-14.3055
戇	-14.3055
摻	-14.3055
㡳	-14.3055
䏿	-14.3055
仵	-14.3055
嚞	-14.3055
扅	-14.3055
棫	-14.3055
濺	-14.3055
猎	-14.3055
舩	-14.3055
踽	-14.3055
鏨	-14.3055
麒	-14.3058
崒	-14.3058
揬	-14.3058
癱	-14.3058
謷	-14.3058
藟	-14.3058
醊	-14.3058
儗	-14.3058
枻	-14.3058
汔	-14.3058
另	-14.3058
墩	-14.3058
氁	-14.3058
箘	-14.3058
賷	-14.3058
溧	-14.3061
羙	-14.3061
槿	-14.3061
㵱	-14.3061
厝	-14.3061
唼	-14.3061
塲	-14.3061
帊	-14.3061
悻	-14.3061
擄	-14.3061
柙	-14.3061
棪	-14.3061
檣	-14.3061
檿	-14.3061
祆	-14.3061
蛀	-14.3061
諏	-14.3061
瘃	-14.3064
㒺	-14.3064
柂	-14.3064
咺	-14.3064
檉	-14.3064
㲄	-14.3064
䁴	-14.3064
冊	-14.3064
碙	-14.3064
蜍	-14.3067
暹	-14.3067
蒔	-14.3067
呂	-14.3067
澌	-14.3067
蝱	-14.3067
跑	-14.3067
炋	-14.3067
圎	-14.3067
尓	-14.3067
尠	-14.3067
巛	-14.3067
洙	-14.3067
禣	-14.3067
窻	-14.3067
錍	-14.3067
魌	-14.3067
覦	-14.307
袐	-14.307
埆	-14.307
烕	-14.307
玠	-14.307
燌	-14.3071
倬	-14.3071
桮	-14.3071
庻	-14.3071
湱	-14.3071
踘	-14.3071
慱	-14.3074
暻	-14.3074
垌	-14.3074
塪	-14.3074
埵	-14.3074
擯	-14.3074
淟	-14.3074
澴	-14.3074
翜	-14.3074
訧	-14.3074
鋾	-14.3074
錚	-14.3074
长	-14.3074
螘	-14.3077
埿	-14.3077
媔	-14.3077
㵵	-14.3077
䇿	-14.3077
棕	-14.3077
牓	-14.3077
萓	-14.3077
拐	-14.3077
漦	-14.3077
䓗	-14.3077
儜	-14.3077
壮	-14.3077
㳅	-14.3079
袟	-14.308
撅	-14.308
萑	-14.308
㱔	-14.308
夥	-14.308
屝	-14.308
漩	-14.308
瘨	-14.308
豷	-14.308
醄	-14.308
翱	-14.3083
甀	-14.3083
䜟	-14.3083
蘺	-14.3083
羮	-14.3083
昡	-14.3083
跚	-14.3083
㒨	-14.3083
䖏	-14.3083
潚	-14.3083
泿	-14.3086
謦	-14.3086
洶	-14.3086
卸	-14.3086
裛	-14.3086
辮	-14.3086
桞	-14.3086
妁	-14.3086
皖	-14.3086
磥	-14.3086
祫	-14.3086
綠	-14.3086
胓	-14.3086
蟇	-14.3086
衎	-14.3086
郾	-14.3086
餵	-14.3086
很	-14.3089
綈	-14.3089
喂	-14.3089
摺	-14.3089
柑	-14.3089
飇	-14.3089
咂	-14.3089
苪	-14.3089
謅	-14.3089
媧	-14.3091
㰱	-14.3093
昵	-14.3093
呢	-14.3093
昀	-14.3093
㛰	-14.3093
塾	-14.3093
掞	-14.3093
繻	-14.3093
蒡	-14.3093
㤗	-14.3093
厷	-14.3093
哄	-14.3093
慉	-14.3093
搕	-14.3093
璐	-14.3093
紉	-14.3093
菵	-14.3093
辠	-14.3093
杰	-14.3096
爀	-14.3096
倥	-14.3096
噔	-14.3096
獘	-14.3096
皪	-14.3096
鐐	-14.3099
螗	-14.3099
䒶	-14.3099
傒	-14.3099
㴱	-14.3099
㸔	-14.3099
瞶	-14.3099
蠒	-14.3099
霅	-14.3099
唈	-14.3099
縚	-14.3099
暌	-14.3102
揫	-14.3102
僴	-14.3102
芡	-14.3102
䟦	-14.3102
泬	-14.3102
醎	-14.3102
俵	-14.3105
櫪	-14.3105
靸	-14.3105
慌	-14.3105
嘑	-14.3105
噐	-14.3105
帤	-14.3105
矹	-14.3105
臈	-14.3105
妲	-14.3108
匯	-14.3108
庄	-14.3108
婷	-14.3111
醲	-14.3111
䉂	-14.3111
頣	-14.3111
斁	-14.3111
璹	-14.3115
俋	-14.3115
柚	-14.3118
㮣	-14.3118
叕	-14.3118
蟢	-14.3121
刈	-14.3121
悋	-14.3121
捼	-14.3121
竝	-14.3124
鑯	-14.3127
飥	-14.313
袄	-14.313
槊	-14.313
箄	-14.313
摎	-14.313
皏	-14.313
礲	-14.313
緹	-14.3134
桷	-14.3134
湝	-14.3137
駸	-14.3137
餧	-14.3143
厘	-14.3143
埒	-14.3143
臗	-14.3149
鯫	-14.3149
鑴	-14.3149
嫚	-14.3149
濓	-14.3156
踧	-14.3161
踖	-14.3165
佀	-14.32
红	-14.3225
鯖	-15.2542
鬽	-15.2543
鬳	-15.2544
馗	-15.2545
餡	-15.2546
顦	-15.2547
韆	-15.2548
鞈	-15.2549
靆	-15.255
霺	-15.2551
隤	-15.2552
陑	-15.2553
闍	-15.2554
鐮	-15.2555
鏟	-15.2556
鎧	-15.2557
鍔	-15.2558
鋮	-15.2559
鋣	-15.256
鈃	-15.2561
酧	-15.2562
鄔	-15.2563
郪	-15.2564
遙	-15.2565
迿	-15.2566
蹁	-15.2567
豎	-15.2568
袷	-15.2569
螂	-15.257
蛕	-15.2571
蛔	-15.2572
蚺	-15.2573
蚰	-15.2574
蚍	-15.2575
蘦	-15.2576
蘙	-15.2577
蕎	-15.2578
蕂	-15.2579
蓧	-15.258
蒻	-15.2581
萆	-15.2582
莪	-15.2583
莓	-15.2584
茞	-15.2585
茙	-15.2586
苨	-15.2587
膁	-15.2588
腳	-15.2589
腯	-15.259
胔	-15.2591
肶	-15.2592
肠	-15.2593
聇	-15.2594
耜	-15.2595
翏	-15.2596
羗	-15.2597
绳	-15.2598
繾	-15.2599
縯	-15.26
絏	-15.2601
紕	-15.2602
糯	-15.2603
篱	-15.2604
筩	-15.2605
筑	-15.2606
筈	-15.2607
稳	-15.2608
稊	-15.2609
祏	-15.261
礱	-15.2611
礝	-15.2612
礎	-15.2613
磹	-15.2614
碽	-15.2615
瞵	-15.2616
瞌	-15.2617
眾	-15.2618
眪	-15.2619
眣	-15.262
盙	-15.2621
癕	-15.2622
痂	-15.2623
疿	-15.2624
璩	-15.2625
瑙	-15.2626
珸	-15.2627
玖	-15.2628
獓	-15.2629
猻	-15.263
狴	-15.2631
爼	-15.2632
灃	-15.2633
灂	-15.2634
潸	-15.2635
潕	-15.2636
漊	-15.2637
滁	-15.2638
溵	-15.2639
溓	-15.264
洼	-15.2641
洸	-15.2642
洊	-15.2643
泙	-15.2644
毾	-15.2645
殼	-15.2646
檩	-15.2647
椷	-15.2648
梲	-15.2649
栴	-15.265
柜	-15.2651
柅	-15.2652
枿	-15.2653
枋	-15.2654
杠	-15.2655
朚	-15.2656
朓	-15.2657
朎	-15.2658
暣	-15.2659
晄	-15.266
旴	-15.2661
旖	-15.2662
斵	-15.2663
撾	-15.2664
撙	-15.2665
据	-15.2666
扛	-15.2667
扑	-15.2668
戶	-15.2669
懞	-15.267
懝	-15.2671
憝	-15.2672
愾	-15.2673
愯	-15.2674
惏	-15.2675
恝	-15.2676
怩	-15.2677
徬	-15.2678
彥	-15.2679
廋	-15.268
幔	-15.2681
帕	-15.2682
嶰	-15.2683
嶕	-15.2684
婀	-15.2685
墿	-15.2686
塿	-15.2687
堮	-15.2688
埌	-15.2689
圞	-15.269
囹	-15.2691
嚭	-15.2692
嘸	-15.2693
喎	-15.2694
哽	-15.2695
凥	-15.2696
儌	-15.2697
偟	-15.2698
倧	-15.2699
俈	-15.27
侏	-15.2701
佾	-15.2702
伾	-15.2703
伦	-15.2704
价	-15.2705
䳅	-15.2706
䱻	-15.2707
䫤	-15.2708
䪫	-15.2709
䠞	-15.271
䛿	-15.2711
䛭	-15.2712
䙎	-15.2713
䘒	-15.2714
䃱	-15.2715
䁎	-15.2716
㻞	-15.2717
㶑	-15.2718
㲪	-15.2719
㞡	-15.272
㒁	-15.2721
𪄀	-15.2722
𪃑	-15.2723
𩿨	-15.2724
𨱆	-15.2725
𦱌	-15.2726
𤟤	-15.2727
𤞞	-15.2728
𤝻	-15.2729
𤜣	-15.273
𤊨	-15.2731
𠈉	-15.2732
齮	-15.2733
鼯	-15.2734
鶵	-15.2735
鵺	-15.2736
鵌	-15.2737
鱬	-15.2738
鱄	-15.2739
鰧	-15.274
鰠	-15.2741
騕	-15.2742
騊	-15.2743
駼	-15.2744
馹	-15.2745
餼	-15.2746
鞶	-15.2747
靶	-15.2748
霢	-15.2749
隽	-15.275
鎡	-15.2751
鈇	-15.2752
鄏	-15.2753
邴	-15.2754
蹭	-15.2755
趼	-15.2756
褢	-15.2757
裟	-15.2758
袈	-15.2759
蝤	-15.276
蜘	-15.2761
蛺	-15.2762
蛸	-15.2763
蚳	-15.2764
蚨	-15.2765
蘡	-15.2766
薁	-15.2767
蔔	-15.2768
蓓	-15.2769
葳	-15.277
萧	-15.2771
萏	-15.2772
菔	-15.2773
茀	-15.2774
舀	-15.2775
肸	-15.2776
羝	-15.2777
羑	-15.2778
罻	-15.2779
糢	-15.278
糗	-15.2781
篛	-15.2782
箜	-15.2783
筲	-15.2784
筀	-15.2785
窓	-15.2786
秔	-15.2787
瞦	-15.2788
皥	-15.2789
瘼	-15.279
玼	-15.2791
玳	-15.2792
獯	-15.2793
獫	-15.2794
猲	-15.2795
狳	-15.2796
狍	-15.2797
狁	-15.2798
犰	-15.2799
焜	-15.28
汹	-15.2801
毆	-15.2802
歔	-15.2803
欷	-15.2804
櫳	-15.2805
檳	-15.2806
檠	-15.2807
榔	-15.2808
楄	-15.2809
栯	-15.281
朒	-15.2811
曀	-15.2812
搒	-15.2813
揠	-15.2814
抧	-15.2815
扯	-15.2816
懡	-15.2817
慞	-15.2818
惣	-15.2819
彚	-15.282
嶪	-15.2821
嵳	-15.2822
峚	-15.2823
孥	-15.2824
嬙	-15.2825
嫴	-15.2826
嫪	-15.2827
妴	-15.2828
塏	-15.2829
埻	-15.283
噰	-15.2831
嗊	-15.2832
嗃	-15.2833
啅	-15.2834
咥	-15.2835
卐	-15.2836
党	-15.2837
倜	-15.2838
俙	-15.2839
䱤	-15.284
䗫	-15.2841
䗤	-15.2842
䖺	-15.2843
䖪	-15.2844
䕡	-15.2845
㵼	-15.2846
㬋	-15.2847
㬇	-15.2848
㪇	-15.2849
㦬	-15.285
㚠	-15.2851
㖮	-15.2852
㖫	-15.2853
㐨	-15.2854
𩨗	-15.2855
𧕛	-15.2856
𧕍	-15.2857
𧈫	-15.2858
𥉂	-15.2859
𢢝	-15.286
鼕	-15.2861
鰼	-15.2862
駙	-15.2863
飀	-15.2864
鉾	-15.2865
郃	-15.2866
邏	-15.2867
遝	-15.2868
躚	-15.2869
贒	-15.287
豳	-15.2871
覼	-15.2872
裌	-15.2873
袿	-15.2874
蠮	-15.2875
蠋	-15.2876
蟋	-15.2877
蟀	-15.2878
螉	-15.2879
蜈	-15.288
蛛	-15.2881
蚣	-15.2882
虰	-15.2883
藇	-15.2884
蕞	-15.2885
蓰	-15.2886
蓞	-15.2887
萱	-15.2888
臃	-15.2889
繽	-15.289
箎	-15.2891
笊	-15.2892
硜	-15.2893
瓞	-15.2894
璵	-15.2895
瑪	-15.2896
瑊	-15.2897
瑀	-15.2898
琭	-15.2899
獬	-15.29
狽	-15.2901
燉	-15.2902
瀼	-15.2903
滽	-15.2904
淦	-15.2905
浞	-15.2906
斌	-15.2907
摝	-15.2908
搘	-15.2909
怢	-15.291
弽	-15.2911
幟	-15.2912
媽	-15.2913
塤	-15.2914
嗈	-15.2915
醨	-15.2915
喁	-15.2916
咷	-15.2917
刖	-15.2918
偓	-15.2919
倞	-15.292
䴅	-15.2921
䳇	-15.2922
䲹	-15.2923
䲰	-15.2924
䔄	-15.2925
㥍	-15.2926
鼐	-15.2927
鮆	-15.2928
驊	-15.2929
餮	-15.293
雋	-15.2931
鄱	-15.2932
鄩	-15.2933
跼	-15.2934
貔	-15.2935
貅	-15.2936
蓿	-15.2937
苜	-15.2938
綌	-15.2939
絺	-15.294
篌	-15.2941
瞪	-15.2942
瓈	-15.2943
玻	-15.2944
湎	-15.2945
櫽	-15.2946
枵	-15.2947
曏	-15.2948
挲	-15.2949
懴	-15.295
嶇	-15.2951
嵫	-15.2952
堋	-15.2953
嘹	-15.2954
𪖙	-15.2955
𤢄	-15.2956
黧	-15.2957
鮯	-15.2958
鏌	-15.2959
轔	-15.296
軨	-15.2961
豸	-15.2962
誾	-15.2963
覘	-15.2964
蛉	-15.2965
薏	-15.2966
蓯	-15.2967
蓐	-15.2968
苡	-15.2969
紲	-15.297
皤	-15.2971
狪	-15.2972
濜	-15.2973
楞	-15.2974
斆	-15.2975
戔	-15.2976
悁	-15.2977
峳	-15.2978
嫫	-15.2979
姨	-15.298
冱	-15.2981
䍶	-15.2982
㕮	-15.2983
麢	-15.2984
鵸	-15.2985
跏	-15.2986
觔	-15.2987
蟈	-15.2988
藭	-15.2989
蕾	-15.299
蕘	-15.2991
萸	-15.2992
荽	-15.2993
芭	-15.2994
秣	-15.2995
碏	-15.2996
皿	-15.2997
崢	-15.2998
峥	-15.2999
儡	-15.3
傀	-15.3001
黻	-15.3002
鵑	-15.3003
徘	-15.3003
泏	-15.3003
驎	-15.3004
駉	-15.3005
腔	-15.3006
縲	-15.3007
獼	-15.3008
擻	-15.3009
抖	-15.301
忩	-15.3011
哦	-15.3012
刎	-15.3013
俔	-15.3014
鮒	-15.3015
魈	-15.3016
髑	-15.3017
髆	-15.3018
饉	-15.3019
琉	-15.3019
闐	-15.302
邉	-15.3021
譩	-15.3022
蜉	-15.3023
蒺	-15.3024
胯	-15.3025
灞	-15.3026
嬋	-15.3027
邐	-15.3027
勖	-15.3028
鷓	-15.3029
髼	-15.303
閈	-15.3031
皚	-15.3032
瘲	-15.3033
瀲	-15.3034
姮	-15.3035
髫	-15.3035
嚀	-15.3036
厔	-15.3037
匐	-15.3038
匍	-15.3039
仔	-15.304
㸲	-15.3041
𥐼	-15.3042
鷯	-15.3043
憔	-15.3043
荏	-15.3044
臚	-15.3045
礴	-15.3046
熳	-15.3047
㿗	-15.3048
馘	-15.3049
錮	-15.305
蟆	-15.3051
瑠	-15.3052
琥	-15.3053
珀	-15.3054
猩	-15.3055
傉	-15.3056
飧	-15.3057
霎	-15.3057
轗	-15.3058
菁	-15.3059
䭀	-15.3059
詨	-15.3059
芍	-15.306
翺	-15.3061
潯	-15.3062
脽	-15.3063
矻	-15.3064
炯	-15.3065
潺	-15.3066
榑	-15.3067
祧	-15.3067
枸	-15.3068
㦎	-15.3069
踟	-15.307
蠣	-15.3071
緲	-15.3072
瑘	-15.3073
攙	-15.3074
撢	-15.3075
慷	-15.3076
䨼	-15.3077
酩	-15.3078
酊	-15.3079
慇	-15.308
蹰	-15.3081
跎	-15.3082
𥆨	-15.3083
窕	-15.3083
驃	-15.3084
邂	-15.3085
逅	-15.3086
琈	-15.3087
妳	-15.3087
崘	-15.3088
㑊	-15.3089
魎	-15.309
轤	-15.3091
璝	-15.3092
娑	-15.3093
㻬	-15.3094
菖	-15.3095
桻	-15.3096
蚯	-15.3097
嵯	-15.3098
鄲	-15.3099
啻	-15.31
悵	-15.3101
狌	-15.3102
琊	-15.3103
㬰	-15.3104
醐	-15.3105
醍	-15.3106
糟	-15.3107
逡	-15.3108
靂	-15.3109
瓏	-15.311
骷	-15.3111
崆	-15.3112
峒	-15.3113
菩	-15.3114
蓉	-15.3115
螣	-15.3116
玕	-15.3117
籖	-15.3118
孜	-15.3119
凰	-15.312
嚨	-15.3121
茯	-15.3122
㒵	-15.3123
氤	-15.3124
虯	-15.3124
