<unk>	0
<s>	0
</s>	0
之	-4.0179
而	-4.71549
以	-4.81423
有	-5.1322
其	-5.1904
也	-5.24273
不	-5.27558
者	-5.28608
為	-5.28973
於	-5.32925
一	-5.51881
人	-5.54092
/	-5.5456
無	-5.59884
自	-5.73092
公	-5.74854
(	-5.76022
則	-5.83634
)	-5.87221
如	-5.9342
與	-5.96105
大	-5.96216
行	-5.98454
中	-5.98857
事	-6.0035
此	-6.01413
上	-6.03808
得	-6.05065
子	-6.06455
書	-6.0792
曰	-6.08378
山	-6.10688
天	-6.1084
時	-6.12136
在	-6.14022
見	-6.14348
所	-6.14942
知	-6.17427
君	-6.1902
于	-6.19159
言	-6.23065
是	-6.24789
生	-6.27563
可	-6.28754
然	-6.29241
爲	-6.29248
道	-6.3177
日	-6.3245
文	-6.32707
三	-6.32867
作	-6.33133
至	-6.33789
又	-6.34622
矣	-6.35496
心	-6.35942
今	-6.36323
亦	-6.37616
故	-6.39273
出	-6.39459
我	-6.39967
相	-6.41577
下	-6.42094
非	-6.42142
已	-6.43016
詩	-6.43502
官	-6.4367
王	-6.44696
名	-6.46409
來	-6.4681
臣	-6.47924
未	-6.47982
乎	-6.49389
方	-6.49823
風	-6.51005
成	-6.51467
歸	-6.51809
長	-6.52496
使	-6.52904
欲	-6.53126
)(	-6.53514
皆	-6.54143
當	-6.54257
州	-6.55174
用	-6.55656
明	-6.55953
水	-6.56752
若	-6.586
正	-6.59817
去	-6.61182
復	-6.6133
多	-6.62169
後	-6.64352
同	-6.65806
家	-6.6609
前	-6.66203
清	-6.66209
老	-6.6639
民	-6.67928
何	-6.68325
能	-6.69789
乃	-6.69965
世	-6.70228
聞	-6.70508
入	-6.70645
重	-6.71155
學	-6.7121
雖	-6.71432
從	-6.71605
傳	-6.71696
吾	-6.72472
雲	-6.74084
春	-6.75215
安	-6.75466
二	-6.76331
惟	-6.76354
將	-6.76685
意	-6.77281
焉	-6.78068
及	-6.7821
過	-6.78235
▁	-6.78305
深	-6.78559
居	-6.80258
新	-6.8413
必	-6.84808
先	-6.85745
更	-6.86868
逺	-6.87603
命	-6.90436
髙	-6.90975
且	-6.91451
月	-6.91683
某	-6.91746
觀	-6.923
元	-6.92728
分	-6.93113
四	-6.93142
實	-6.94352
年	-6.94594
國	-6.94731
令	-6.95253
朝	-6.96114
師	-6.96199
石	-6.96212
和	-6.96701
思	-6.97406
盡	-6.97431
南	-6.98116
小	-6.98306
門	-6.98373
地	-6.98434
外	-6.9878
既	-6.98887
花	-6.99025
法	-6.99151
猶	-6.99624
士	-6.99912
云	-7.0073
徳	-7.01101
難	-7.0138
或	-7.01381
論	-7.01894
本	-7.0223
古	-7.02343
身	-7.02715
謂	-7.02715
因	-7.02787
夫	-7.03534
問	-7.03857
獨	-7.0386
常	-7.04119
金	-7.04504
望	-7.05033
氣	-7.05644
間	-7.06984
樂	-7.07487
應	-7.08416
遂	-7.08612
守	-7.08952
立	-7.09396
尚	-7.09476
玉	-7.09509
五	-7.09702
經	-7.10272
處	-7.10512
空	-7.10549
數	-7.10884
西	-7.11401
客	-7.11744
易	-7.11843
字	-7.11943
開	-7.12127
神	-7.1227
善	-7.12295
初	-7.12606
莫	-7.12822
物	-7.12994
舉	-7.13199
兵	-7.13388
哉	-7.13394
秋	-7.13706
兩	-7.13734
兮	-7.13804
求	-7.14122
治	-7.15399
通	-7.15541
巳	-7.15651
少	-7.15905
陳	-7.16123
舊	-7.16167
城	-7.16192
東	-7.16351
予	-7.1641
甚	-7.1685
即	-7.17263
取	-7.17324
始	-7.17324
寒	-7.1735
平	-7.17374
親	-7.17432
光	-7.1799
聲	-7.1815
近	-7.18343
好	-7.18932
力	-7.18985
語	-7.1915
進	-7.19554
爾	-7.19791
流	-7.19991
還	-7.20176
禮	-7.20719
雨	-7.21133
起	-7.21531
興	-7.2168
酒	-7.22471
記	-7.22672
百	-7.22811
合	-7.22834
賢	-7.22965
路	-7.23565
真	-7.23633
馬	-7.23713
萬	-7.23857
益	-7.24424
白	-7.24583
定	-7.24937
志	-7.25159
不可	-7.25188
義	-7.25539
發	-7.26497
張	-7.26606
信	-7.27974
先生	-7.28053
周	-7.28723
諸	-7.28912
黄	-7.29174
江	-7.29772
華	-7.29871
送	-7.29961
飛	-7.30673
請	-7.31618
終	-7.31843
坐	-7.32961
宜	-7.33027
陽	-7.3304
直	-7.33145
死	-7.33263
豈	-7.33278
氏	-7.33372
九	-7.33742
夜	-7.33837
六	-7.33903
漢	-7.34015
天下	-7.35278
龍	-7.35315
節	-7.35786
林	-7.35809
集	-7.35957
喜	-7.36052
致	-7.3682
余	-7.37166
李	-7.37454
章	-7.37612
政	-7.37782
耳	-7.3878
稱	-7.39115
制	-7.39944
辭	-7.3999
任	-7.40043
賦	-7.40094
奉	-7.40543
食	-7.4163
聖	-7.41726
理	-7.41828
扵	-7.41839
海	-7.43821
謝	-7.44016
宗	-7.44044
才	-7.44234
郡	-7.44371
固	-7.44561
寄	-7.44582
異	-7.44795
似	-7.45227
不能	-7.4548
㑹	-7.45513
北	-7.45844
絶	-7.45951
堂	-7.46355
誰	-7.46388
次	-7.46472
情	-7.46688
以為	-7.469
内	-7.47313
教	-7.47873
雪	-7.48289
仁	-7.49256
田	-7.493
留	-7.49951
别	-7.49961
服	-7.50077
府	-7.50637
吏	-7.50903
動	-7.51224
除	-7.51756
餘	-7.51795
賜	-7.51993
縣	-7.52164
都	-7.53139
嘗	-7.53277
頭	-7.53379
圖	-7.53385
衆	-7.53651
軍	-7.54004
主	-7.54009
幸	-7.54228
青	-7.54279
功	-7.5477
共	-7.55533
誠	-7.55648
病	-7.5566
香	-7.55811
凡	-7.55998
對	-7.56366
恩	-7.56574
修	-7.5661
便	-7.56618
勝	-7.57212
極	-7.57267
竹	-7.57567
念	-7.57591
手	-7.57783
德	-7.57901
題	-7.57946
著	-7.58011
等	-7.58077
来	-7.58176
厚	-7.58596
比	-7.58652
要	-7.58676
所以	-7.58712
足	-7.59253
失	-7.59469
武	-7.59877
計	-7.60117
宋	-7.60217
登	-7.60511
度	-7.60794
父	-7.61066
顧	-7.61254
首	-7.61263
衣	-7.61386
滿	-7.61499
落	-7.61836
到	-7.62038
贈	-7.62048
而不	-7.6228
臨	-7.62464
唐	-7.62768
司	-7.6288
利	-7.62985
期	-7.63005
歌	-7.63105
嵗	-7.63333
窮	-7.63496
久	-7.63591
畫	-7.63798
向	-7.6388
千	-7.6393
草	-7.64566
忠	-7.64807
承	-7.64842
視	-7.64962
表	-7.65115
仲	-7.6517
識	-7.65329
奏	-7.65437
宫	-7.65465
願	-7.65547
止	-7.65743
省	-7.65745
載	-7.65807
卿	-7.66101
伯	-7.66139
容	-7.66246
遺	-7.66481
良	-7.66716
受	-7.66727
孫	-7.67165
夢	-7.67332
交	-7.676
封	-7.6773
許	-7.67792
屬	-7.67838
再	-7.68396
帝	-7.68529
卒	-7.68552
但	-7.68932
錢	-7.68994
祖	-7.69568
兼	-7.69611
塵	-7.69697
具	-7.69704
化	-7.69877
彼	-7.7
感	-7.70266
素	-7.70307
議	-7.70393
溪	-7.70553
尊	-7.71031
不知	-7.71096
侯	-7.71098
色	-7.71134
憂	-7.71654
序	-7.72534
永	-7.72707
目	-7.72757
愛	-7.72777
臺	-7.72904
靈	-7.73179
隨	-7.73206
蓋	-7.73382
懐	-7.73522
休	-7.74216
高	-7.74756
隂	-7.75014
說	-7.75098
全	-7.75499
加	-7.75603
劉	-7.75836
試	-7.75905
幽	-7.76505
輕	-7.76732
由	-7.76769
廣	-7.77197
車	-7.77505
孤	-7.77538
乆	-7.77581
報	-7.77692
河	-7.77851
木	-7.77874
八	-7.77957
體	-7.78066
嚴	-7.7812
史	-7.78455
端	-7.78465
適	-7.78629
齊	-7.78726
遊	-7.78845
昔	-7.78918
野	-7.79128
推	-7.79216
建	-7.79332
母	-7.79446
朝廷	-7.79482
精	-7.79492
疑	-7.79517
如此	-7.79883
就	-7.79896
之所	-7.79941
變	-7.79981
尤	-7.79985
告	-7.80059
代	-7.80398
盖	-7.80826
亭	-7.80879
詔	-7.81005
景	-7.81006
養	-7.8119
備	-7.81257
敢	-7.81492
苦	-7.81782
女	-7.82235
驚	-7.82251
特	-7.82433
恐	-7.82585
汝	-7.82722
存	-7.83132
土	-7.83186
鄉	-7.83371
勞	-7.83798
口	-7.83927
十	-7.84149
職	-7.84157
亂	-7.84451
持	-7.84457
看	-7.84469
待	-7.84946
筆	-7.85008
樹	-7.85146
聽	-7.85238
改	-7.85248
/)	-7.85338
遷	-7.85909
庭	-7.85979
仙	-7.86129
将	-7.86359
拜	-7.86391
疾	-7.86455
右	-7.86485
七	-7.86503
俗	-7.8658
羣	-7.86621
仰	-7.86833
半	-7.87012
榮	-7.87087
簡	-7.87145
嘉	-7.87156
遇	-7.87173
敬	-7.87178
醉	-7.87248
慶	-7.87343
往	-7.87658
忽	-7.87726
齋	-7.8777
指	-7.87781
太	-7.87872
須	-7.87905
列	-7.88217
夏	-7.88284
業	-7.88724
照	-7.88873
皇	-7.88924
解	-7.88989
邊	-7.89142
謀	-7.89186
幾	-7.89186
陛下	-7.89267
回	-7.89288
貴	-7.89446
可以	-7.89765
兹	-7.89842
泉	-7.89942
却	-7.9011
美	-7.9018
位	-7.90226
斯	-7.90983
魚	-7.91052
乞	-7.91263
散	-7.91279
趙	-7.91491
寺	-7.91829
考	-7.9217
歲	-7.92408
竒	-7.92425
卷	-7.92876
翁	-7.92908
置	-7.92943
紅	-7.93087
室	-7.93159
闕	-7.93224
轉	-7.9357
徒	-7.93621
垂	-7.93747
秦	-7.94011
君子	-7.94029
連	-7.94053
亡	-7.94145
葉	-7.94208
性	-7.94542
游	-7.94601
謹	-7.94671
各	-7.94893
燕	-7.94898
早	-7.95097
曲	-7.95147
樓	-7.95639
詞	-7.95705
笑	-7.95797
盛	-7.96032
所謂	-7.96204
晚	-7.9622
移	-7.96256
孝	-7.96262
里	-7.96318
薦	-7.97162
愁	-7.97473
宣	-7.97942
星	-7.98792
積	-7.98795
讀	-7.99203
授	-7.995
號	-7.99886
殿	-7.99996
寧	-8.00043
説	-8.00124
微	-8.0016
宿	-8.00625
梅	-8.00673
引	-8.00705
閒	-8.00872
追	-8.01123
叔	-8.01217
薄	-8.0158
英	-8.01649
並	-8.01745
私	-8.01777
耶	-8.01837
示	-8.01908
飲	-8.02291
廟	-8.02343
鳴	-8.02397
舟	-8.02935
務	-8.0297
崇	-8.03011
廢	-8.03028
不得	-8.03214
藏	-8.03488
澤	-8.0362
友	-8.03976
資	-8.04103
松	-8.04295
惡	-8.04372
曽	-8.04508
工	-8.04881
勤	-8.04957
梁	-8.05265
負	-8.05488
退	-8.05625
典	-8.06108
顯	-8.06176
斷	-8.06188
保	-8.06551
福	-8.06596
選	-8.06675
浮	-8.06911
閣	-8.06975
只	-8.07055
楚	-8.07173
施	-8.07696
陵	-8.07745
銘	-8.0778
果	-8.07823
收	-8.07889
急	-8.07912
依	-8.08031
覺	-8.08412
郎	-8.08952
切	-8.08967
罷	-8.09029
篇	-8.0903
句	-8.09108
忘	-8.09446
虚	-8.09589
類	-8.09684
韻	-8.09706
音	-8.09812
濟	-8.09969
昭	-8.10313
遣	-8.10435
形	-8.10461
儒	-8.10756
屋	-8.10762
權	-8.1081
俱	-8.10912
注	-8.11169
邑	-8.1125
降	-8.11324
衰	-8.11903
楊	-8.11976
材	-8.12269
越	-8.12304
賀	-8.12359
惠	-8.12371
賞	-8.12474
狀	-8.12612
最	-8.12794
克	-8.13011
原	-8.13017
破	-8.13044
尋	-8.13148
召	-8.13184
每	-8.13503
不敢	-8.13591
旣	-8.14011
佛	-8.14423
率	-8.14458
露	-8.14595
獲	-8.14628
冠	-8.1479
曹	-8.14861
殊	-8.14886
寳	-8.14951
繼	-8.14994
器	-8.15003
累	-8.15106
哀	-8.15433
申	-8.15666
僧	-8.15726
愚	-8.15746
被	-8.16229
祠	-8.16274
吟	-8.16356
霜	-8.16697
朱	-8.16823
院	-8.16854
面	-8.16905
伏	-8.1695
池	-8.17083
弗	-8.17106
儀	-8.17253
悲	-8.17363
朕	-8.17556
川	-8.17671
仍	-8.17698
懷	-8.17851
妙	-8.17986
約	-8.18235
放	-8.18447
軒	-8.18479
况	-8.18814
紀	-8.18956
順	-8.19225
離	-8.19835
横	-8.20144
慮	-8.20259
荒	-8.20476
火	-8.20511
息	-8.20648
巻	-8.20753
反	-8.2104
差	-8.21079
眼	-8.21115
維	-8.21117
勿	-8.21395
造	-8.21479
夀	-8.21527
詳	-8.2177
仕	-8.22037
細	-8.22207
結	-8.22274
免	-8.22455
充	-8.22517
左	-8.22614
智	-8.22683
者也	-8.228
御	-8.23171
倚	-8.23327
庶	-8.24637
顔	-8.2485
殘	-8.25132
威	-8.25813
俾	-8.25881
吳	-8.2608
次韻	-8.26096
執	-8.26244
竊	-8.2637
勢	-8.264
曉	-8.26608
象	-8.26684
習	-8.26769
寛	-8.27009
戰	-8.27034
禁	-8.27076
兒	-8.27581
舍	-8.27647
胡	-8.27663
雙	-8.27953
逢	-8.2818
折	-8.28292
丹	-8.28361
種	-8.28678
一日	-8.28697
貧	-8.28735
寵	-8.28831
獻	-8.28862
夫人	-8.29083
祭	-8.29118
第	-8.2914
影	-8.29167
延	-8.2919
擇	-8.29225
其所	-8.29457
秀	-8.29699
監	-8.29743
徐	-8.29809
傷	-8.29879
歳	-8.29995
之間	-8.30113
訪	-8.30286
接	-8.30307
二首	-8.30328
機	-8.30373
沙	-8.30514
録	-8.30679
牛	-8.31175
之意	-8.31469
戒	-8.31507
晉	-8.31665
兄	-8.32006
甫	-8.32225
籍	-8.32508
隠	-8.32572
敵	-8.3284
訓	-8.32912
招	-8.32919
市	-8.33178
恨	-8.33284
强	-8.33295
鶴	-8.33664
答	-8.33678
布	-8.33761
湖	-8.3381
波	-8.33917
翠	-8.33926
邦	-8.33976
調	-8.34133
勸	-8.34289
履	-8.34296
至於	-8.34318
運	-8.34333
罪	-8.3473
委	-8.34817
納	-8.34841
季	-8.34841
悉	-8.34875
葢	-8.35028
傾	-8.35393
參	-8.35393
昌	-8.35511
聖人	-8.35569
達	-8.35642
富	-8.35774
呼	-8.35868
徃	-8.35936
族	-8.36101
三年	-8.36107
枝	-8.36195
棄	-8.36312
愧	-8.36563
千里	-8.36773
察	-8.36822
紫	-8.36901
晴	-8.37047
乗	-8.37218
偶	-8.37303
迎	-8.37339
厥	-8.37546
揚	-8.37561
無所	-8.37602
侍	-8.37651
領	-8.3772
責	-8.3775
條	-8.37754
蜀	-8.37761
咸	-8.37781
夷	-8.37867
慈	-8.38024
冬	-8.38076
園	-8.38092
弟	-8.38153
雜	-8.38206
碧	-8.38373
雅	-8.386
畏	-8.38875
賊	-8.3921
曾	-8.39221
韓	-8.39356
危	-8.39399
谷	-8.39474
静	-8.39633
不足	-8.39754
而後	-8.39829
逐	-8.3983
墨	-8.40074
雄	-8.40201
温	-8.4025
佳	-8.40306
補	-8.40385
附	-8.40451
以爲	-8.40619
隆	-8.40621
京	-8.40754
程	-8.40797
役	-8.40858
根	-8.41052
平生	-8.41058
避	-8.41206
恭	-8.41309
愈	-8.4181
升	-8.41861
講	-8.41905
熟	-8.42057
誦	-8.42274
源	-8.42547
屢	-8.42588
殺	-8.42644
聚	-8.42875
想	-8.42917
質	-8.43147
鼎	-8.4316
頗	-8.43238
歎	-8.43264
丘	-8.43298
㣲	-8.43317
䇿	-8.43335
魏	-8.43406
專	-8.43461
投	-8.43617
境	-8.4376
烏	-8.43931
而已	-8.4394
之心	-8.4411
刻	-8.44136
鳥	-8.44231
振	-8.44356
村	-8.44413
壽	-8.44413
按	-8.44505
隱	-8.44594
鄭	-8.44745
走	-8.44755
他	-8.44919
患	-8.44972
并	-8.44999
勉	-8.45359
縁	-8.45426
輔	-8.45432
閑	-8.45453
律	-8.45516
均	-8.45567
䝉	-8.45569
藥	-8.45653
博	-8.45655
庸	-8.4573
部	-8.45767
芳	-8.45788
虎	-8.45908
辨	-8.46039
天子	-8.46122
塞	-8.46365
緑	-8.46369
虞	-8.4637
堅	-8.46883
孰	-8.4702
辱	-8.47026
啓	-8.47166
錫	-8.47178
人之	-8.47357
懼	-8.47378
天下之	-8.47437
蘇	-8.47622
骨	-8.47676
康	-8.4796
増	-8.48223
巖	-8.48242
裏	-8.48328
魯	-8.48414
帥	-8.48476
禄	-8.48503
商	-8.48603
赴	-8.48618
甘	-8.48752
有所	-8.48812
科	-8.48853
煙	-8.49183
脩	-8.49205
末	-8.49379
助	-8.49538
尚書	-8.49716
關	-8.49762
煩	-8.49848
符	-8.49874
壁	-8.49883
堪	-8.5017
天地	-8.50194
今日	-8.50214
帶	-8.50259
遽	-8.50608
邪	-8.50936
設	-8.50981
呉	-8.51204
萬里	-8.5121
刑	-8.51267
豐	-8.51401
味	-8.51436
漸	-8.51493
量	-8.51552
歴	-8.51838
給	-8.52478
米	-8.52672
烟	-8.52724
聊	-8.52803
貫	-8.53398
井	-8.53506
橋	-8.53508
春秋	-8.53848
壯	-8.53887
吉	-8.54053
撫	-8.54143
撰	-8.54163
借	-8.542
逰	-8.54236
暮	-8.54563
費	-8.5472
婦	-8.54805
席	-8.54991
户	-8.55129
抱	-8.55397
羅	-8.55494
管	-8.55527
陶	-8.55562
闗	-8.55585
茂	-8.55687
荷	-8.55756
談	-8.55935
姑	-8.55958
營	-8.56041
峯	-8.56422
淵	-8.56543
㡬	-8.56792
否	-8.56805
𥘉	-8.56843
杜	-8.56914
歡	-8.56963
稍	-8.56967
逸	-8.57042
蘭	-8.57048
違	-8.57219
葬	-8.57228
蒼	-8.57315
佐	-8.57356
班	-8.57403
爭	-8.57444
假	-8.57582
足以	-8.57692
慕	-8.58135
學者	-8.58222
效	-8.5839
付	-8.5843
孟	-8.58458
歟	-8.58463
祀	-8.5856
支	-8.58606
趨	-8.59177
丁	-8.5919
陸	-8.59244
鎮	-8.59245
擢	-8.59337
肅	-8.59365
優	-8.59437
宻	-8.59544
敗	-8.59603
洞	-8.59746
耕	-8.59798
馳	-8.59929
之士	-8.59962
嗣	-8.60003
盤	-8.60045
逹	-8.60101
誤	-8.60335
竟	-8.60366
詠	-8.60543
郊	-8.60581
覆	-8.60661
未嘗	-8.60787
慰	-8.61175
了	-8.61216
彦	-8.61233
編	-8.6138
騎	-8.61499
述	-8.61622
角	-8.61737
船	-8.61763
唯	-8.61795
隔	-8.61969
乾	-8.61969
扶	-8.62198
衡	-8.62406
干	-8.62412
徑	-8.62466
底	-8.62476
於是	-8.62534
尺	-8.62574
困	-8.62668
候	-8.62671
瞻	-8.63002
夕	-8.63294
惜	-8.63309
迹	-8.63472
珠	-8.63851
廬	-8.63989
苟	-8.6412
茶	-8.64154
供	-8.64436
衛	-8.64453
嗚呼	-8.64503
偏	-8.64896
怨	-8.65077
栁	-8.65081
舞	-8.65104
征	-8.65198
憶	-8.65227
憐	-8.65355
肯	-8.65666
屏	-8.65714
害	-8.65882
卧	-8.65908
文章	-8.66124
碑	-8.66167
駕	-8.66227
索	-8.66356
剛	-8.66577
抑	-8.66678
采	-8.66694
聴	-8.668
不及	-8.6684
淮	-8.66861
略	-8.66921
冷	-8.6699
宅	-8.67023
錦	-8.67135
據	-8.67165
絲	-8.67257
沈	-8.67259
農	-8.67264
疎	-8.6736
謂之	-8.67417
格	-8.67423
琴	-8.67443
之言	-8.67617
鴻	-8.67796
館	-8.67847
㳺	-8.67857
釋	-8.68015
勇	-8.68454
羽	-8.68477
躬	-8.68537
短	-8.6871
大夫	-8.68837
嗟	-8.69329
禪	-8.69344
歩	-8.69352
狂	-8.69528
介	-8.69548
浪	-8.69699
疏	-8.69722
憲	-8.69767
頌	-8.70046
嶺	-8.70315
豪	-8.70357
蒙	-8.70395
吹	-8.70442
公之	-8.70844
毛	-8.70981
鼓	-8.71045
允	-8.7113
左右	-8.71132
旁	-8.71208
震	-8.7131
丗	-8.71383
争	-8.71389
宰	-8.71394
怒	-8.71443
十年	-8.71469
斗	-8.71913
何以	-8.72096
郭	-8.72232
秩	-8.72279
牧	-8.72318
寓	-8.72378
住	-8.7255
畢	-8.72553
祥	-8.72622
趣	-8.72652
然後	-8.72741
統	-8.72862
財	-8.73235
厭	-8.73345
毎	-8.73458
縱	-8.73653
不見	-8.73736
希	-8.73878
甲	-8.74043
洪	-8.74104
社	-8.74211
輒	-8.74497
之後	-8.74511
古人	-8.74521
冝	-8.74569
二年	-8.74618
姓	-8.7464
殆	-8.74697
輿	-8.74775
侵	-8.74825
靡	-8.74832
烈	-8.74839
燈	-8.75082
乘	-8.75116
屈	-8.75304
丞相	-8.75479
眷	-8.75498
犯	-8.75782
式	-8.75823
妄	-8.75985
審	-8.76017
敏	-8.76019
子孫	-8.76115
預	-8.76339
卑	-8.76346
舎	-8.7635
遲	-8.76463
操	-8.76583
託	-8.76755
掌	-8.76762
擬	-8.76842
奪	-8.76951
當時	-8.77073
啟	-8.77139
孔	-8.77167
規	-8.77245
晩	-8.77334
渠	-8.77366
於此	-8.77524
循	-8.77734
為之	-8.77754
桂	-8.77903
决	-8.78227
淺	-8.78291
總	-8.78408
吕	-8.78824
銀	-8.78877
之事	-8.78897
靜	-8.79463
雷	-8.79533
環	-8.79562
校	-8.79769
讀書	-8.79807
忍	-8.79849
謁	-8.79868
盈	-8.79932
以來	-8.79992
墓	-8.80044
喪	-8.80195
肆	-8.80772
頃	-8.80825
續	-8.80924
諭	-8.80976
如何	-8.81061
舜	-8.81079
毋	-8.81251
洗	-8.81299
鄰	-8.81306
誅	-8.81321
之人	-8.8142
酬	-8.81431
買	-8.81654
踈	-8.81865
房	-8.82295
悟	-8.8237
孔子	-8.82384
純	-8.82441
㫖	-8.82586
瑞	-8.82692
占	-8.82821
有司	-8.82881
不為	-8.82897
篤	-8.82947
險	-8.83091
享	-8.83171
齒	-8.83255
之道	-8.83446
繫	-8.83495
匪	-8.83701
術	-8.83744
阿	-8.83781
厯	-8.83903
彌	-8.83907
邉	-8.83907
禹	-8.83942
己	-8.83943
國家	-8.8413
階	-8.8434
未有	-8.84374
宇	-8.84374
湯	-8.84478
巧	-8.84606
○	-8.84663
必有	-8.84663
之地	-8.84698
畧	-8.84779
繁	-8.84965
途	-8.84976
蔡	-8.85026
范	-8.85127
藩	-8.85149
救	-8.85157
鍾	-8.85688
蕭	-8.85742
一作	-8.85861
品	-8.85976
爵	-8.86142
怪	-8.8621
僕	-8.86213
援	-8.86248
姦	-8.86413
人間	-8.86532
郷	-8.87085
不復	-8.87232
不以	-8.87303
泥	-8.87307
有餘	-8.87343
弱	-8.87349
亟	-8.87368
賛	-8.87381
一時	-8.87821
痛	-8.87852
塗	-8.87919
射	-8.87953
驅	-8.88345
強	-8.88364
奚	-8.88392
獄	-8.88407
言之	-8.88667
戎	-8.88787
副	-8.88891
防	-8.88939
晦	-8.89019
膺	-8.8905
虛	-8.89155
潤	-8.89188
粟	-8.89237
𤣥	-8.89273
鄙	-8.89373
弊	-8.89485
百年	-8.89491
赤	-8.8964
速	-8.89654
麗	-8.89697
步	-8.89877
知其	-8.89881
卜	-8.89888
例	-8.89922
進士	-8.89996
旋	-8.90092
僅	-8.90156
醫	-8.9019
滅	-8.90238
貢	-8.90285
貪	-8.90368
黨	-8.90432
旦	-8.90553
㸔	-8.90598
擊	-8.90617
植	-8.90636
諱	-8.90984
四方	-8.90998
禍	-8.91067
春風	-8.91157
徙	-8.9119
羊	-8.91232
京師	-8.9126
凉	-8.91343
消	-8.9139
凝	-8.91392
鮮	-8.91416
岸	-8.9158
攻	-8.91608
帖	-8.91743
而無	-8.91989
辟	-8.92274
爰	-8.92447
奮	-8.92479
激	-8.92763
祝	-8.92865
堯	-8.93016
翻	-8.93058
配	-8.93126
佩	-8.93129
暗	-8.9318
眞	-8.93203
倒	-8.9324
辰	-8.93256
舒	-8.93277
丞	-8.93502
寡	-8.93928
風雨	-8.94294
莊	-8.94318
側	-8.94479
俯	-8.94485
偉	-8.94666
次公	-8.94677
背	-8.94864
賤	-8.94999
叙	-8.95236
陋	-8.95298
妻	-8.9541
廷	-8.95703
漫	-8.95855
故人	-8.95897
賈	-8.96088
策	-8.96092
賔	-8.96306
甞	-8.9636
究	-8.96403
伐	-8.96443
曰吾	-8.96536
遭	-8.96769
欺	-8.96793
不如	-8.96871
日月	-8.9709
窺	-8.97534
珍	-8.97768
輙	-8.97811
羞	-8.98061
印	-8.98101
奔	-8.98125
兄弟	-8.98288
昏	-8.98303
催	-8.98354
掃	-8.98368
翼	-8.98414
寜	-8.98487
旅	-8.98523
披	-8.98601
欽定四庫全書	-8.98697
提	-8.98782
祈	-8.98855
淡	-8.98909
江南	-8.98978
柔	-8.99027
輸	-8.99276
謙	-8.99321
拙	-8.99673
湏	-8.99755
寫	-8.99802
戸	-8.99955
枕	-9.00158
泰	-9.0023
陪	-9.00232
後世	-9.00285
后	-9.00301
可謂	-9.00317
擁	-9.00327
氷	-9.00405
欽	-9.00413
祗	-9.00478
眉	-9.00495
稽	-9.00613
菊	-9.00709
寢	-9.00731
龜	-9.00873
朔	-9.00882
枯	-9.01012
童	-9.01024
孟子	-9.01153
界	-9.01179
嘆	-9.01212
譽	-9.01221
飯	-9.01286
把	-9.01293
鳯	-9.01569
也今	-9.01649
輩	-9.01695
䘮	-9.01862
大臣	-9.02073
哭	-9.02121
至今	-9.02136
是以	-9.02422
贊	-9.02496
學士	-9.02541
掩	-9.02554
呈	-9.02741
淚	-9.02822
明年	-9.02958
二十	-9.03088
冀	-9.03145
圗	-9.03153
其後	-9.03261
晝	-9.03266
巨	-9.03285
厲	-9.03373
黙	-9.03434
猷	-9.03523
暴	-9.03688
契	-9.03947
綱	-9.04024
迷	-9.04194
俊	-9.04196
逃	-9.04234
昨	-9.04387
渾	-9.04452
曠	-9.04457
之功	-9.04578
沒	-9.04611
不同	-9.04626
紙	-9.04629
藝	-9.0476
倉	-9.04879
勲	-9.04959
十二	-9.05131
含	-9.05168
文字	-9.05312
鴈	-9.05333
之時	-9.0537
慎	-9.05371
夫子	-9.05422
遥	-9.05443
超	-9.05539
上下	-9.0557
鹽	-9.05715
際	-9.05884
賴	-9.05909
磨	-9.05987
貞	-9.06028
茅	-9.0605
跡	-9.06082
築	-9.06357
泣	-9.06495
者皆	-9.06553
三月	-9.06624
戴	-9.06767
旌	-9.06866
亦有	-9.06903
酌	-9.07004
雞	-9.07031
艱	-9.07182
藉	-9.07228
沉	-9.07244
古今	-9.07282
尾	-9.0745
逮	-9.07561
圍	-9.0771
裁	-9.07716
豈不	-9.0778
一人	-9.07868
尹	-9.07957
觴	-9.07984
尉	-9.08095
之際	-9.08211
頻	-9.08223
革	-9.08378
遠	-9.08521
相與	-9.08572
晨	-9.08631
挽	-9.08735
快	-9.089
旱	-9.0911
髪	-9.09114
茍	-9.09125
洛	-9.09229
蔽	-9.09519
阻	-9.09558
眠	-9.09601
䟽	-9.09706
元年	-9.09954
輪	-9.10061
缺	-9.10241
紛	-9.1025
丈	-9.10287
何如	-9.10307
宴	-9.10374
然而	-9.10397
吐	-9.10693
蓬	-9.10728
戲	-9.1077
之法	-9.1094
倫	-9.10965
育	-9.1103
杖	-9.11067
競	-9.11142
炎	-9.11213
之學	-9.11258
㸃	-9.11386
悔	-9.11436
寸	-9.11591
覽	-9.11618
荅	-9.11696
警	-9.11925
騰	-9.11999
腹	-9.12017
没	-9.12026
逆	-9.12047
澗	-9.12128
飢	-9.12323
展	-9.12364
決	-9.12398
績	-9.12421
釣	-9.12441
靖	-9.12473
穿	-9.12475
囘	-9.12483
踐	-9.12822
人心	-9.12858
蕩	-9.12861
幹	-9.12924
案	-9.13067
也故	-9.13191
欣	-9.13226
乏	-9.13245
飽	-9.13369
劇	-9.13381
安得	-9.13432
嫌	-9.13474
暑	-9.13475
霞	-9.13518
凌	-9.13551
褒	-9.1357
融	-9.13638
損	-9.13653
玩	-9.13907
鬼	-9.1413
拂	-9.14223
渡	-9.14235
增	-9.14312
伊	-9.14332
千載	-9.14375
踰	-9.14411
黃	-9.14431
功名	-9.14431
其事	-9.14495
低	-9.14555
東坡	-9.14704
傍	-9.14833
之義	-9.1504
潮	-9.1507
鈞	-9.15096
眀	-9.15343
幕	-9.15403
暫	-9.1568
未能	-9.15842
那	-9.15966
第一	-9.16031
叨	-9.16051
魂	-9.16071
秉	-9.16212
區區	-9.16292
蓮	-9.16311
血	-9.16341
矧	-9.16356
圓	-9.16389
倍	-9.16442
之餘	-9.16451
竭	-9.16503
柳	-9.16548
亮	-9.16855
判	-9.16881
寶	-9.16893
不勝	-9.17145
屯	-9.17341
叢	-9.17343
燭	-9.17351
無窮	-9.17624
密	-9.17712
属	-9.17741
錯	-9.1781
墮	-9.18053
弄	-9.18072
鳳	-9.1813
返	-9.18161
州縣	-9.18213
束	-9.18365
峰	-9.18426
荆	-9.18476
其間	-9.18503
富貴	-9.18528
漁	-9.18536
飾	-9.1856
其言	-9.18643
不足以	-9.18652
併	-9.18676
儲	-9.1868
江湖	-9.18859
會	-9.1902
東南	-9.1907
滋	-9.19142
其人	-9.19262
㓜	-9.1927
辦	-9.19298
漏	-9.19322
也夫	-9.19452
叟	-9.19606
宏	-9.19668
課	-9.19721
霧	-9.19739
矜	-9.19758
觧	-9.20031
頼	-9.20114
俟	-9.20144
倦	-9.20188
羙	-9.2019
脫	-9.20193
饑	-9.20201
曷	-9.20383
山中	-9.20429
伴	-9.20471
鏡	-9.2057
虜	-9.20654
跋	-9.20693
蕃	-9.2072
刀	-9.21125
津	-9.21173
泛	-9.21396
況	-9.21543
娶	-9.216
姿	-9.21609
五年	-9.21625
慙	-9.21753
漕	-9.21773
鞭	-9.21865
麥	-9.22017
草木	-9.22184
杯	-9.22289
盗	-9.22296
無以	-9.22309
中書	-9.22361
罔	-9.22383
以自	-9.22415
斜	-9.22418
産	-9.22455
然則	-9.22622
萬物	-9.22638
襲	-9.22665
夙	-9.22666
如是	-9.22724
太守	-9.22768
脱	-9.22991
簾	-9.22995
價	-9.23056
䕶	-9.2311
三十	-9.23141
樞	-9.23215
傑	-9.23217
敷	-9.23368
刺	-9.23541
遵	-9.23558
以此	-9.23678
四海	-9.23715
伸	-9.2373
不然	-9.23804
胥	-9.23891
睡	-9.23921
緩	-9.23937
鐘	-9.23944
巢	-9.24039
小人	-9.24046
棲	-9.24172
太平	-9.24172
翰	-9.24355
白雲	-9.2437
基	-9.24388
諫	-9.24395
頒	-9.24448
徹	-9.24498
山川	-9.24559
之說	-9.24689
四年	-9.24713
吴	-9.24937
澄	-9.25062
懸	-9.2507
訟	-9.25107
穆	-9.25202
襟	-9.25245
䖏	-9.25325
遐	-9.2538
潜	-9.2554
父母	-9.2556
局	-9.25584
得其	-9.25613
牙	-9.25627
潛	-9.25735
添	-9.25941
弓	-9.25976
出於	-9.26015
諸侯	-9.26207
哲	-9.26232
者亦	-9.26314
梅花	-9.26584
有以	-9.26669
肉	-9.26677
銅	-9.26813
不過	-9.26863
董	-9.26892
映	-9.26946
巾	-9.27036
頓	-9.27117
崖	-9.27132
纔	-9.2727
完	-9.27391
侍郎	-9.27433
之不	-9.27485
排	-9.27489
傅	-9.2753
閩	-9.27714
桑	-9.27726
朋	-9.27839
禽	-9.27864
午	-9.27865
像	-9.27991
冒	-9.28123
壺	-9.28373
宦	-9.28781
導	-9.28823
探	-9.28853
謨	-9.28909
皇帝	-9.2905
岳	-9.29115
峻	-9.29178
喻	-9.29211
宰相	-9.29329
敦	-9.29394
暖	-9.29412
一笑	-9.29474
亦不	-9.29489
貽	-9.29589
湘	-9.29649
閱	-9.29685
係	-9.29695
泊	-9.29811
台	-9.29857
瓊	-9.29896
之所以	-9.29932
鸞	-9.29934
擾	-9.29948
陰	-9.29979
檢	-9.29995
壇	-9.30008
座	-9.30218
群	-9.30244
話	-9.30268
六月	-9.3027
響	-9.30285
劄子	-9.30473
徽	-9.30519
盧	-9.30639
士大夫	-9.30673
効	-9.30725
銘曰	-9.30799
其心	-9.30852
某官	-9.30973
恃	-9.311
君之	-9.31183
郎中	-9.31233
浩	-9.31364
何處	-9.31516
員	-9.31519
庶幾	-9.31524
驛	-9.31577
四十	-9.31606
人生	-9.31672
幼	-9.31698
潔	-9.31777
盟	-9.3184
健	-9.31841
浦	-9.31946
斥	-9.31955
歸來	-9.32187
璧	-9.3234
衍	-9.3236
不可以	-9.32433
貳	-9.32539
之外	-9.32842
諸公	-9.32866
無不	-9.32924
紹興	-9.33011
昧	-9.3317
之曰	-9.33203
㢤	-9.33424
俄	-9.33799
鬢	-9.33873
恵	-9.34131
限	-9.34141
御史	-9.34145
男	-9.34166
盜	-9.34206
閲	-9.34214
粗	-9.34358
迫	-9.34469
涼	-9.34519
寂	-9.34806
冦	-9.35015
紹	-9.35035
世之	-9.35097
詣	-9.35104
勵	-9.35298
潭	-9.35385
玄	-9.35387
禱	-9.35445
莫不	-9.35464
麟	-9.35469
父子	-9.35642
着	-9.35815
而巳	-9.3587
至于	-9.35926
他日	-9.35941
錄	-9.36028
隣	-9.36066
絃	-9.36095
二月	-9.36134
塘	-9.36145
縯	-9.36385
惑	-9.3644
而有	-9.36488
垣	-9.36491
濕	-9.36608
之至	-9.36644
忌	-9.36681
坡	-9.36876
明月	-9.36931
亷	-9.36991
風流	-9.37091
弼	-9.37136
唱	-9.37182
鐵	-9.37267
人也	-9.37417
貌	-9.3754
肥	-9.37545
随	-9.37622
饒	-9.37644
採	-9.37706
邇	-9.37774
几	-9.37854
恤	-9.37857
其子	-9.37918
馮	-9.37987
禦	-9.37997
洲	-9.381
輝	-9.38221
鑿	-9.38229
宸	-9.38334
提舉	-9.38418
囊	-9.38503
活	-9.3853
戚	-9.38578
之則	-9.3876
寕	-9.38855
誓	-9.38975
而為	-9.38999
儻	-9.39005
也而	-9.39315
数	-9.39338
蒲	-9.39342
觸	-9.39376
五十	-9.39404
緒	-9.39544
無人	-9.39545
整	-9.39607
執事	-9.39647
之中	-9.39861
是非	-9.39922
壓	-9.39925
之志	-9.39958
較	-9.40091
卦	-9.4013
額	-9.4027
腸	-9.4029
也其	-9.40318
風吹	-9.40335
藻	-9.40343
也然	-9.40507
啼	-9.40537
滯	-9.40543
以其	-9.40558
淑	-9.40559
乾坤	-9.40631
無事	-9.40739
榖	-9.40768
不忍	-9.40899
未必	-9.40972
賣	-9.40979
見其	-9.40987
施行	-9.41041
秋風	-9.41046
奠	-9.41081
古之	-9.41358
挾	-9.41538
懇	-9.41549
庵	-9.41561
元祐	-9.41639
柱	-9.41668
桃	-9.41862
練	-9.41928
帳	-9.42079
汗	-9.42209
摧	-9.42248
諒	-9.4228
穴	-9.4238
雍	-9.42432
討	-9.42466
塔	-9.42472
之文	-9.42626
晏	-9.42674
今年	-9.42729
誕	-9.42737
料	-9.42798
暇	-9.43128
𬒳	-9.43136
羡	-9.43151
恥	-9.43285
芝	-9.43307
是也	-9.43387
何時	-9.43434
民之	-9.4346
不用	-9.43528
蚤	-9.43548
敎	-9.43613
主人	-9.43712
脚	-9.43727
詩書	-9.43792
揮	-9.4383
得之	-9.44051
具官某	-9.44066
衝	-9.44112
江西	-9.44143
敕	-9.44174
卓	-9.44194
徧	-9.44202
閉	-9.44343
不自	-9.44348
柄	-9.44418
往往	-9.44454
収	-9.44532
山林	-9.44648
摩	-9.44708
冰	-9.44782
韋	-9.44873
繞	-9.44904
貨	-9.45037
通判	-9.45048
誨	-9.4506
之盛	-9.45083
牒	-9.45161
闢	-9.45234
翔	-9.45242
攝	-9.45276
拱	-9.45398
譜	-9.45417
三日	-9.45481
包	-9.45509
𥙷	-9.45644
浸	-9.45682
其家	-9.4576
青山	-9.45808
讓	-9.4586
戍	-9.45905
歛	-9.45932
百里	-9.46182
蹈	-9.46265
使之	-9.46532
奴	-9.46547
裘	-9.46584
陟	-9.46647
熱	-9.46713
者必	-9.46721
溢	-9.46856
自是	-9.46885
聖人之	-9.46903
諸生	-9.46907
不忘	-9.46944
國之	-9.46949
睿	-9.47041
禮樂	-9.47058
顛	-9.47077
拘	-9.47094
圃	-9.47174
焚	-9.47184
辯	-9.47214
彭	-9.47252
捐	-9.47336
使人	-9.47366
紛紛	-9.47367
山水	-9.47392
岡	-9.4744
誣	-9.47552
冊	-9.47594
戯	-9.47596
飄	-9.47619
則有	-9.47807
飬	-9.47955
靣	-9.48082
䑓	-9.48113
淳	-9.48134
清風	-9.48192
鄧	-9.48284
牽	-9.48293
醒	-9.48294
將軍	-9.48508
菴	-9.48539
簿	-9.48553
停	-9.48561
枉	-9.48588
不容	-9.48712
咎	-9.48793
粹	-9.4888
不必	-9.48888
喧	-9.4889
區	-9.48999
者乎	-9.49011
聖賢	-9.49013
嶽	-9.49152
何人	-9.49209
劍	-9.49302
澹	-9.49514
毁	-9.49599
陞	-9.49601
削	-9.4966
不肯	-9.49676
八月	-9.49716
旗	-9.49732
攀	-9.49854
中有	-9.49857
髮	-9.49933
中外	-9.50015
裕	-9.50052
恭惟某官	-9.50068
涕	-9.50083
南北	-9.50087
苑	-9.50093
喚	-9.50135
司馬	-9.50284
憤	-9.50352
慚	-9.50357
墜	-9.50406
襄	-9.50471
七十	-9.50598
與之	-9.50664
踏	-9.50672
旨	-9.50735
出入	-9.50815
捕	-9.50924
皆有	-9.50948
使君	-9.5111
鹿	-9.51161
三首	-9.51277
由是	-9.51379
十五	-9.51394
周公	-9.51528
誼	-9.51739
宮	-9.51824
徴	-9.51834
之名	-9.51857
驕	-9.51972
孚	-9.52013
之臣	-9.52035
渉	-9.5204
措	-9.52055
豈無	-9.52121
蠻	-9.52133
利害	-9.52146
迂	-9.52197
範	-9.52219
之子	-9.52281
稀	-9.52405
晋	-9.525
層	-9.52502
不在	-9.52514
廉	-9.52519
渥	-9.52581
恭惟	-9.52677
憑	-9.527
劒	-9.52708
者其	-9.52789
噫	-9.5284
長安	-9.52963
人皆	-9.53046
致仕	-9.53132
以是	-9.53174
祐	-9.53324
膏	-9.53355
庫	-9.53426
爐	-9.53496
故事	-9.53675
鱗	-9.5376
偽	-9.53828
督	-9.53945
衣冠	-9.54012
子弟	-9.54186
壤	-9.5426
又曰	-9.54265
一二	-9.54269
圭	-9.5427
簷	-9.54356
抵	-9.54428
勅	-9.54536
播	-9.54596
隅	-9.54614
值	-9.54644
僚	-9.54676
覩	-9.54706
驗	-9.54837
耀	-9.54842
標	-9.54851
疇	-9.54928
杜詩	-9.55014
䟦	-9.55144
檄	-9.55173
蟲	-9.55206
勒	-9.55267
一旦	-9.55443
坤	-9.5555
二人	-9.55567
壊	-9.55578
人物	-9.55654
内外	-9.55657
之書	-9.55682
逾	-9.55746
牀	-9.55894
糧	-9.55907
豫	-9.55957
詩云	-9.56036
不待	-9.5604
兆	-9.56057
創	-9.56134
擅	-9.56154
之上	-9.56155
翰林	-9.56157
矣然	-9.56182
不相	-9.56222
撥	-9.56228
南山	-9.56253
樵	-9.56254
一言	-9.5626
濫	-9.56279
懿	-9.56306
評	-9.56365
赦	-9.56583
二子	-9.56684
君臣	-9.56688
六年	-9.56702
九月	-9.5677
疲	-9.56784
囬	-9.56819
項	-9.56851
辭免	-9.56945
儉	-9.57024
嗜	-9.5711
未知	-9.57168
袁	-9.57244
銷	-9.57294
百姓	-9.57349
悠悠	-9.57379
之日	-9.57416
弟子	-9.57451
矣而	-9.57452
祖宗	-9.57569
袖	-9.5758
進退	-9.57607
壑	-9.57656
亨	-9.57752
之民	-9.57756
災	-9.57831
宵	-9.57842
嫁	-9.57865
咨	-9.57901
揺	-9.57911
換	-9.57985
攸	-9.58023
鑒	-9.58031
稅	-9.58048
舌	-9.58131
邀	-9.58141
鋒	-9.58192
東西	-9.582
居士	-9.582
葛	-9.58474
訖	-9.58485
公曰	-9.58646
協	-9.58663
署	-9.58761
彊	-9.58777
旬	-9.58804
黒	-9.58809
賓	-9.58899
態	-9.58941
繇	-9.59153
雖有	-9.59192
黎	-9.59193
少年	-9.59376
勑	-9.59389
蓄	-9.59402
染	-9.59524
爛	-9.59609
疊	-9.59671
減	-9.59714
指揮	-9.59731
自然	-9.5979
之初	-9.59814
恕	-9.59822
太子	-9.59889
彰	-9.59939
其志	-9.59959
綴	-9.60052
人情	-9.60114
場	-9.60125
不幸	-9.60315
相望	-9.6039
用之	-9.60415
使者	-9.60432
猶有	-9.60462
淹	-9.60566
的	-9.60591
欠	-9.60592
桐	-9.60651
裂	-9.60707
教授	-9.60779
瓦	-9.60952
㝷	-9.61087
又有	-9.61092
不至	-9.61307
割	-9.61336
墻	-9.61347
誇	-9.61354
潘	-9.61408
之説	-9.61654
盍	-9.61679
俞	-9.6183
汪	-9.61922
聨	-9.61937
捨	-9.61999
専	-9.62178
扇	-9.6219
遜	-9.6219
禀	-9.6223
千古	-9.62309
作詩	-9.62385
爽	-9.62461
邁	-9.62517
熹	-9.62525
前日	-9.6253
姪	-9.62555
域	-9.62557
腰	-9.6256
閫	-9.62589
藴	-9.62676
從容	-9.62846
門下	-9.62929
七年	-9.62943
終日	-9.63251
㫁	-9.63276
自有	-9.63308
蔵	-9.63331
單	-9.63458
證	-9.63481
中原	-9.63549
諌	-9.63617
偃	-9.63628
藁	-9.63655
韶	-9.63706
碩	-9.63776
抗	-9.64027
霄	-9.64054
敝	-9.64056
當世	-9.64068
不識	-9.64095
弔	-9.64103
駐	-9.64136
彈	-9.64273
掾	-9.64536
肇	-9.64558
偕	-9.64605
戀	-9.64649
衷	-9.64676
軰	-9.64686
西山	-9.647
轍	-9.64733
辛	-9.64778
混	-9.64797
斬	-9.6488
状	-9.64882
三百	-9.64887
道之	-9.64986
瘦	-9.6504
子曰	-9.65379
熙	-9.65431
癡	-9.65779
綸	-9.6579
拔	-9.65835
崔	-9.65914
山谷	-9.65926
聳	-9.65927
諧	-9.65941
而去	-9.65945
筵	-9.66033
榜	-9.66056
肩	-9.66091
千萬	-9.66109
茲	-9.6616
逝	-9.66217
疆	-9.66239
斯文	-9.66269
議論	-9.66273
凶	-9.66281
鑑	-9.66285
灰	-9.66307
朝夕	-9.66338
丕	-9.66368
濤	-9.66382
相逢	-9.66396
冩	-9.66473
斂	-9.6648
自古	-9.66527
緣	-9.66782
風俗	-9.66814
六十	-9.6693
黜	-9.671
無復	-9.67178
欵	-9.67186
軸	-9.67191
當年	-9.6729
它	-9.67335
霽	-9.67481
萬事	-9.67501
魁	-9.67503
携	-9.67532
而下	-9.67534
毫	-9.67559
技	-9.67623
銜	-9.67678
籠	-9.6768
樽	-9.6773
曰此	-9.67735
詢	-9.67751
政事	-9.6779
之徒	-9.67802
床	-9.67838
谿	-9.67851
其身	-9.67873
東風	-9.6792
十月	-9.68112
洽	-9.68219
至元	-9.68254
故曰	-9.68266
毒	-9.683
忝	-9.68467
精神	-9.68536
西湖	-9.68575
之下	-9.68591
得以	-9.68665
五月	-9.68677
此心	-9.68682
去年	-9.68759
麾	-9.68798
網	-9.68821
臯	-9.68894
江山	-9.69068
明日	-9.69096
揆	-9.69126
十里	-9.69163
遍	-9.69311
十八	-9.69338
騷	-9.69359
鼔	-9.69365
熈	-9.69367
及其	-9.69685
奥	-9.69692
者有	-9.69693
繡	-9.69765
伏惟	-9.69819
護	-9.69872
以示	-9.69901
數十	-9.69913
中國	-9.69954
函	-9.69999
衢	-9.70008
從事	-9.70094
障	-9.70171
三代	-9.7018
姚	-9.70199
何所	-9.70201
雁	-9.70339
秘	-9.70398
淮南	-9.70407
岀	-9.70427
陣	-9.70446
攷	-9.70477
賢者	-9.70529
挺	-9.70579
齡	-9.70581
嘯	-9.7072
馭	-9.70784
一切	-9.70946
未易	-9.71038
庇	-9.71064
譏	-9.71077
攜	-9.71124
詎	-9.71147
其意	-9.71166
窓	-9.712
訴	-9.71234
濃	-9.71234
謬	-9.71265
歐陽	-9.71337
伏以	-9.71401
之才	-9.71418
侈	-9.71521
前後	-9.71525
一首	-9.71657
行之	-9.71709
終身	-9.71731
之故	-9.71763
之重	-9.71808
邵	-9.71815
士之	-9.71871
者不	-9.71899
王氏	-9.71914
苗	-9.71967
九日	-9.72013
控	-9.7202
懶	-9.72028
見於	-9.72056
麻	-9.72101
駭	-9.72149
頴	-9.7215
片	-9.72318
普	-9.72326
奇	-9.72448
繩	-9.72499
君子之	-9.72537
槐	-9.72583
廼	-9.72603
促	-9.72721
綿	-9.72805
糴	-9.72805
正月	-9.72908
為人	-9.72981
薛	-9.73092
衞	-9.73097
矢	-9.73112
埋	-9.73146
所得	-9.73193
殷	-9.73196
叩	-9.73322
可也	-9.73369
苔	-9.73401
暉	-9.73423
之理	-9.73524
無一	-9.73627
不盡	-9.7375
道士	-9.73849
朋友	-9.73866
獵	-9.73878
叛	-9.74006
謫	-9.74025
租	-9.74029
若是	-9.74112
悦	-9.74174
之風	-9.74213
綏	-9.74243
相公	-9.74249
涉	-9.7443
堯舜	-9.74446
仁義	-9.74448
虹	-9.74448
見之	-9.74512
箇	-9.74544
之氣	-9.74559
凢	-9.74621
躍	-9.74622
賦詩	-9.74634
天地之	-9.74672
者非	-9.7474
篆	-9.74741
纎	-9.74833
八年	-9.74861
渭	-9.74871
三千	-9.74876
誰能	-9.74915
隙	-9.74964
謾	-9.74985
陂	-9.7501
两	-9.7512
西風	-9.75121
怠	-9.75141
粉	-9.7527
淪	-9.75352
替	-9.75712
有感	-9.75751
勁	-9.75853
臘	-9.75869
媿	-9.75873
戈	-9.7593
罰	-9.75951
其所以	-9.76002
主簿	-9.76004
可憐	-9.76036
森	-9.76069
慘	-9.76078
社稷	-9.76152
裔	-9.76159
河南	-9.7618
焦	-9.76202
謗	-9.76221
幣	-9.76253
頑	-9.76458
不當	-9.76472
三人	-9.765
織	-9.76578
溺	-9.76801
子之	-9.76851
不免	-9.76886
之禮	-9.76928
薪	-9.76937
溝	-9.77057
凍	-9.77111
嵗月	-9.77115
壘	-9.77214
㧞	-9.77338
隂陽	-9.77408
聞之	-9.77429
涵	-9.77539
鬱	-9.77612
誥	-9.77647
綺	-9.77717
减	-9.77752
綠	-9.77781
汲	-9.77931
憚	-9.77947
庻	-9.78061
闈	-9.78076
庾	-9.78315
各有	-9.78329
懋	-9.78467
萬一	-9.78479
虧	-9.78531
不堪	-9.78629
則其	-9.78648
㱕	-9.78653
所居	-9.78833
不與	-9.78865
䖍	-9.79027
皮	-9.79029
觀之	-9.79071
不肖	-9.79142
輟	-9.79162
濯	-9.79164
驟	-9.79166
四時	-9.79179
雖然	-9.79215
傲	-9.79285
壮	-9.79373
踵	-9.79397
臂	-9.79441
躋	-9.79447
道人	-9.79457
牆	-9.79507
籌	-9.79513
盃	-9.79531
析	-9.79664
貸	-9.797
上人	-9.79739
奈何	-9.79751
冥	-9.79797
倡	-9.79799
是時	-9.79813
諸子	-9.79887
銓	-9.79893
十二月	-9.79921
中庸	-9.7996
之政	-9.79983
絳	-9.80035
碎	-9.80047
十日	-9.80085
豈非	-9.80142
従	-9.8024
鉅	-9.80398
雀	-9.80431
僉	-9.80494
沮	-9.8054
燒	-9.80579
吞	-9.80585
知之	-9.80589
猥	-9.80724
足下	-9.80753
棘	-9.80847
醇	-9.80914
之美	-9.81098
乳	-9.8116
裳	-9.81164
老子	-9.81298
▁(	-9.81301
之私	-9.81302
之計	-9.81328
天之	-9.81376
莊子	-9.81396
未及	-9.81426
於人	-9.81528
凖	-9.81541
濶	-9.8157
之命	-9.81582
乖	-9.81621
妾	-9.81718
臣聞	-9.81746
之恩	-9.81751
老人	-9.81776
之類	-9.81871
黄金	-9.81901
媚	-9.82007
烹	-9.82108
世間	-9.8214
官吏	-9.82162
夾	-9.82198
寂寞	-9.82306
以待	-9.82329
判官	-9.82355
衮	-9.82383
千年	-9.8248
鬼神	-9.82508
仗	-9.82524
頂	-9.8266
悼	-9.82675
壞	-9.82685
言者	-9.82694
吏部	-9.82858
爲之	-9.8298
先君	-9.83036
若干	-9.83147
太學	-9.8318
而能	-9.83222
江上	-9.83242
豈有	-9.83296
妣	-9.8337
涯	-9.83424
灑	-9.83439
掛	-9.83472
猶未	-9.83487
姓名	-9.83494
恒	-9.83499
亦何	-9.83513
莽	-9.83576
冐	-9.83578
七月	-9.83659
嚮	-9.83684
尸	-9.83745
誌	-9.83748
其中	-9.83812
府君	-9.83827
貺	-9.83865
仇	-9.83886
點	-9.83982
者以	-9.84103
硯	-9.84169
什	-9.84231
冲	-9.84309
何必	-9.84361
打	-9.84385
膚	-9.84432
巴	-9.84468
湛	-9.84476
其為	-9.84534
穹	-9.84534
闊	-9.84541
猿	-9.84573
江東	-9.84605
白髪	-9.84787
板	-9.84818
十一月	-9.8483
寅	-9.84935
人所	-9.85026
而不能	-9.85067
扁舟	-9.85128
宛	-9.85179
六經	-9.85236
十六	-9.85248
蹤	-9.85253
牘	-9.85287
閔	-9.85395
囚	-9.85449
墳	-9.85462
餉	-9.85481
叅	-9.85492
偷	-9.85531
而歸	-9.8556
十三	-9.85612
矯	-9.85627
中興	-9.85649
祿	-9.85653
恬	-9.85658
三十年	-9.85666
流水	-9.85778
巷	-9.85848
未可	-9.85899
而又	-9.859
氏之	-9.85962
八十	-9.86015
僻	-9.8607
文武	-9.86094
畝	-9.86165
之職	-9.86189
二十年	-9.86222
伍	-9.86318
拒	-9.86356
慨然	-9.86368
鑄	-9.86414
乎其	-9.86442
摘	-9.86449
阜	-9.86499
蟬	-9.86555
起居	-9.86631
槩	-9.86685
四月	-9.86699
挂	-9.8672
之賢	-9.86739
之罪	-9.86758
文集	-9.86832
副使	-9.86894
至此	-9.86916
之勢	-9.87058
十四	-9.87172
父老	-9.87181
祇	-9.87223
竿	-9.87258
誘	-9.87278
脉	-9.87336
縷	-9.87351
以求	-9.87483
古者	-9.8759
幻	-9.87613
冗	-9.87629
版	-9.87671
不聞	-9.87729
製	-9.878
固有	-9.87835
妃	-9.87847
淫	-9.87868
䕫	-9.87894
渚	-9.87967
文學	-9.87971
堆	-9.87987
畀	-9.88035
遶	-9.88038
從之	-9.88064
畔	-9.88327
十一	-9.88455
太宗	-9.88464
河北	-9.88468
桃李	-9.88478
之憂	-9.88519
蕪	-9.88577
桓	-9.88611
所至	-9.88678
倅	-9.8869
後人	-9.88811
栖	-9.88854
耳目	-9.88894
得失	-9.88906
菜	-9.88923
岐	-9.89002
不須	-9.89009
處士	-9.89019
刋	-9.89085
蔚	-9.89088
竊以	-9.89117
劄	-9.89185
佇	-9.8922
亦無	-9.89239
筠	-9.89244
飭	-9.89264
於世	-9.89271
欄	-9.89298
牕	-9.89298
彩	-9.8932
樊	-9.89348
之論	-9.89406
妍	-9.89439
煥	-9.89453
懲	-9.89482
之樂	-9.89501
剪	-9.89653
忙	-9.8966
滑	-9.8971
汙	-9.89723
鷗	-9.89749
滴	-9.89749
死生	-9.89776
蛇	-9.89793
之大	-9.89847
慧	-9.89898
其餘	-9.89903
殁	-9.89947
互	-9.89949
托	-9.90098
匠	-9.90101
鈎	-9.90135
貶	-9.90172
隴	-9.90194
膝	-9.90199
者又	-9.9023
寔	-9.90274
賁	-9.90281
夲	-9.90421
亦可	-9.90435
公卿	-9.905
岩	-9.90565
史記	-9.90663
毅	-9.90749
閭	-9.90827
之任	-9.90833
愆	-9.90854
濁	-9.90883
税	-9.90949
𦵏	-9.90996
有此	-9.90999
迨	-9.91129
梓	-9.91198
何足	-9.91254
㢘	-9.91331
濡	-9.9135
見寄	-9.91403
䏻	-9.91433
斑	-9.91443
不知其	-9.91511
汴	-9.91527
坊	-9.91585
萌	-9.91642
清明	-9.91666
揖	-9.91743
邈	-9.91766
籬	-9.91853
臣等	-9.91858
其實	-9.91985
一年	-9.92211
何事	-9.92256
雕	-9.92316
不出	-9.92384
大抵	-9.92493
河東	-9.92498
其名	-9.92711
相見	-9.92737
扉	-9.92756
濵	-9.92801
榻	-9.92878
攘	-9.92951
堤	-9.92966
札	-9.93021
熊	-9.93106
瑶	-9.93134
神仙	-9.93197
執政	-9.93227
瀆	-9.93288
不獲	-9.93305
先生之	-9.93529
出處	-9.93592
提刑	-9.93671
金石	-9.93764
帷	-9.93764
不易	-9.93778
莭	-9.9379
沐	-9.9381
別	-9.93847
頋	-9.93878
百世	-9.93884
而不知	-9.93922
柯	-9.93986
監司	-9.94006
蠧	-9.9404
蹇	-9.94045
有功	-9.94133
魄	-9.94171
炳	-9.94185
學問	-9.94214
不可不	-9.94241
公以	-9.94256
測	-9.9426
縮	-9.94271
聘	-9.94282
孫男	-9.94296
漲	-9.94305
僊	-9.94317
頽	-9.94326
勾	-9.94342
遮	-9.94446
蒸	-9.9445
觀其	-9.94467
待制	-9.94482
寖	-9.94486
造化	-9.9449
詩曰	-9.94543
此意	-9.9455
斛	-9.94646
覔	-9.94706
令人	-9.94717
狐	-9.94724
鼻	-9.94752
于是	-9.94895
鬚	-9.94934
逼	-9.94971
本朝	-9.94992
芒	-9.95026
杭	-9.95042
團	-9.95049
蠲	-9.95078
慿	-9.95099
蟠	-9.95145
幅	-9.95214
猛	-9.95273
皆以	-9.95372
甲子	-9.95469
之難	-9.95513
釐	-9.95521
之數	-9.95554
藤	-9.95578
詩人	-9.95604
遁	-9.95661
詭	-9.95697
犬	-9.9571
其可	-9.95817
之舊	-9.95829
浮雲	-9.95835
鷄	-9.95925
嵩	-9.95934
鵲	-9.95935
夭	-9.95987
閣下	-9.96099
也又	-9.96246
者則	-9.96292
簮	-9.96301
所當	-9.96327
沾	-9.96351
罕	-9.96357
牢	-9.96381
一朝	-9.96497
異時	-9.96575
募	-9.96582
墓誌銘	-9.96592
冶	-9.96629
軾	-9.96645
殫	-9.9668
奔走	-9.96699
不暇	-9.96749
之患	-9.96779
鶯	-9.96787
峽	-9.96814
萬世	-9.96836
白日	-9.96858
坎	-9.96901
天上	-9.97011
之弊	-9.97048
新詩	-9.97079
翳	-9.97156
則又	-9.97174
神明	-9.97194
隋	-9.97274
摇	-9.97386
白頭	-9.97472
蝶	-9.97742
侍從	-9.97793
穀	-9.97841
突	-9.97864
灘	-9.97877
廟堂	-9.97878
淵明	-9.97996
事業	-9.98015
斯人	-9.98039
不爲	-9.98063
左傳	-9.98084
耆	-9.98127
之制	-9.98207
而不可	-9.98298
之力	-9.98317
楹	-9.98371
𨽻	-9.98377
䕃	-9.98412
聼	-9.9844
彛	-9.98456
暨	-9.98512
註	-9.98612
遼	-9.98651
奬	-9.98718
李氏	-9.9875
跨	-9.98847
葺	-9.98853
帆	-9.98899
詰	-9.98929
子由	-9.98932
第二	-9.98961
往來	-9.98984
頥	-9.99081
酣	-9.99134
徃徃	-9.99166
歆	-9.99167
有一	-9.99195
膠	-9.99205
太史	-9.99209
電	-9.99248
慢	-9.99258
戾	-9.99258
睦	-9.99286
沃	-9.99305
五日	-9.99345
怯	-9.99355
一百	-9.99405
之變	-9.99443
駿	-9.99472
徇	-9.99521
距	-9.99531
刼	-9.9955
窻	-9.99581
故其	-9.99916
羮	-9.99933
邸	-9.99948
西南	-9.99973
此詩	-9.99975
博士	-10.0001
不受	-10.0002
員外郎	-10.0004
冨	-10.0006
認	-10.0007
迺	-10.0008
扁	-10.0009
佑	-10.0017
尚有	-10.0021
乍	-10.0021
埃	-10.0023
犀	-10.0028
再拜	-10.003
所見	-10.0035
艾	-10.0041
長者	-10.0051
元豐	-10.0052
惟有	-10.0056
或曰	-10.0058
墟	-10.0059
千金	-10.0063
敢不	-10.0075
牋	-10.0078
妖	-10.0082
徘徊	-10.0084
妨	-10.0092
弦	-10.0092
驥	-10.0094
若此	-10.0101
掠	-10.0109
道中	-10.0114
浚	-10.0119
依舊	-10.012
風月	-10.0121
関	-10.0127
之情	-10.0127
人主	-10.0129
寘	-10.0129
伏念臣	-10.0134
箴	-10.0134
未盡	-10.0138
稻	-10.0138
未幾	-10.014
醜	-10.0141
蕭蕭	-10.0141
弛	-10.0152
灌	-10.0154
之望	-10.0158
研	-10.0166
廩	-10.0169
豆	-10.017
一身	-10.0171
恱	-10.0172
之本	-10.0174
栽	-10.0176
也若	-10.0179
十七	-10.0186
者為	-10.0189
飲食	-10.0192
餐	-10.0195
喬	-10.0196
云云	-10.0197
渙	-10.0205
剡	-10.0216
株	-10.0218
以謂	-10.022
以下	-10.0221
㝠	-10.0242
山之	-10.0263
帛	-10.0263
巫	-10.0263
絮	-10.0267
闔	-10.027
芙蓉	-10.0277
竄	-10.0281
其道	-10.0282
償	-10.0283
不若	-10.0283
浙	-10.0284
明堂	-10.0287
捧	-10.0289
他人	-10.0289
廬陵	-10.0296
與其	-10.0297
至正	-10.03
之詩	-10.0305
噐	-10.031
霑	-10.031
郡縣	-10.0315
之誠	-10.0318
陛	-10.0318
人事	-10.032
以告	-10.0326
不成	-10.0331
艱難	-10.0331
徵	-10.0335
不動	-10.0353
物之	-10.0355
造物	-10.0357
其先	-10.0357
祕	-10.037
淨	-10.0373
莫能	-10.0376
棹	-10.0378
歸去	-10.0388
笛	-10.039
未見	-10.0402
又以	-10.0403
十九	-10.0412
文王	-10.0418
无	-10.042
劾	-10.0422
之榮	-10.0423
拾	-10.0425
自得	-10.0426
求之	-10.0435
㑹稽	-10.0435
俸	-10.0441
誰知	-10.0442
一見	-10.0448
窟	-10.0448
獸	-10.0454
絶句	-10.0457
鄒	-10.0463
掖	-10.0468
坦	-10.0468
十餘	-10.0471
是故	-10.0471
栗	-10.0477
袍	-10.048
蟻	-10.0484
金陵	-10.0485
栢	-10.0486
嘉祐	-10.0487
罄	-10.0498
桃花	-10.05
之可	-10.0502
曩	-10.0506
王公	-10.0507
戮	-10.0516
今之	-10.0516
向來	-10.052
者矣	-10.0521
迴	-10.0524
零	-10.0529
西北	-10.0534
無他	-10.0536
潰	-10.0538
公子	-10.0539
粲	-10.0549
大父	-10.0555
朴	-10.0555
纓	-10.0562
吁	-10.0568
以至	-10.0569
塵埃	-10.0569
緫	-10.0575
而未	-10.0576
太常	-10.0581
倘	-10.0581
又云	-10.0588
其說	-10.059
恪	-10.0593
衆人	-10.0593
系	-10.0596
縣令	-10.0603
夣	-10.0603
挈	-10.0605
以成	-10.0606
握	-10.0625
駒	-10.0627
之利	-10.0631
則是	-10.0633
蘆	-10.0637
未嘗不	-10.0643
江淮	-10.0653
輕重	-10.0654
奸	-10.066
多士	-10.0664
嬉	-10.0668
暢	-10.0669
有大	-10.0669
措置	-10.0669
緘	-10.067
則曰	-10.0673
凋	-10.0673
亞	-10.0674
軀	-10.0675
于此	-10.0698
般	-10.0698
稼	-10.0698
嬰	-10.0711
准	-10.0713
憫	-10.0715
慨	-10.0716
道路	-10.0717
不言	-10.072
刺史	-10.0721
不朽	-10.0724
門外	-10.0725
治之	-10.0726
舘	-10.0729
周旋	-10.0733
丈夫	-10.0739
變化	-10.075
學校	-10.0752
太極	-10.0755
揚州	-10.0757
錢塘	-10.0765
髯	-10.0767
相從	-10.0771
沿	-10.0774
文公	-10.0783
該	-10.0799
雖不	-10.0817
蜂	-10.0818
數年	-10.0829
書院	-10.0836
斧	-10.0838
禪師	-10.0839
一字	-10.0841
而自	-10.0841
臥	-10.0842
之實	-10.0843
槖	-10.0847
薫	-10.0847
之術	-10.0851
豈可	-10.0852
太師	-10.0855
未得	-10.0863
久矣	-10.087
扣	-10.0883
粧	-10.0889
恢	-10.0889
一枝	-10.0892
括	-10.0901
畦	-10.0904
寨	-10.0909
蹟	-10.0911
酸	-10.0913
俯仰	-10.0917
與君	-10.0918
撓	-10.0929
徼	-10.0931
夙夜	-10.0942
欲以	-10.0943
白首	-10.0944
一家	-10.0944
祚	-10.0945
縈	-10.0953
紳	-10.0955
遣使	-10.0958
昔者	-10.096
麓	-10.0961
需	-10.0963
薨	-10.0965
朽	-10.0973
未免	-10.0974
而得	-10.0978
胄	-10.0984
蓬萊	-10.0986
祉	-10.0986
後漢	-10.0994
畜	-10.0998
至是	-10.1001
始終	-10.101
漢書	-10.1015
先王	-10.1016
張氏	-10.1016
所有	-10.1017
有道	-10.1021
庠	-10.1023
昆	-10.1025
之勞	-10.103
日夜	-10.1032
邱	-10.1042
辜	-10.1047
與人	-10.1053
箭	-10.1056
不應	-10.1058
㦸	-10.1059
不作	-10.1059
義理	-10.106
不是	-10.1071
萃	-10.1074
同年	-10.1085
次第	-10.1091
不許	-10.1097
二字	-10.1101
攬	-10.1104
截	-10.1104
忠義	-10.1107
搜	-10.1108
議者	-10.1114
為我	-10.1114
飲酒	-10.1115
𢎞	-10.1115
國公	-10.113
之語	-10.1134
天理	-10.1135
洒	-10.1143
落日	-10.1149
禮部	-10.1149
本末	-10.1156
匹	-10.1162
退之	-10.1162
腐	-10.1167
茗	-10.1167
數日	-10.1175
恣	-10.1194
耻	-10.1198
以上	-10.1202
皇后	-10.1202
老成	-10.121
蔬	-10.1212
耗	-10.1213
屠	-10.1215
失其	-10.1223
礙	-10.1228
所聞	-10.1231
鳬	-10.1233
佞	-10.1236
青雲	-10.1236
荘	-10.1244
炊	-10.1246
賔客	-10.1248
梢	-10.1249
塲	-10.1254
回首	-10.1257
晁	-10.1257
之末	-10.1267
而言	-10.1272
泯	-10.1274
芻	-10.129
是為	-10.1294
軌	-10.1295
未甞	-10.1299
丐	-10.1306
棟	-10.1306
淸	-10.1316
仁宗	-10.1317
懽	-10.133
断	-10.1341
第三	-10.1348
佚	-10.1348
弭	-10.1349
聮	-10.1356
二百	-10.1362
於斯	-10.137
無可	-10.1375
鵬	-10.1378
公諱	-10.1386
瑟	-10.1386
盆	-10.1394
未至	-10.1394
惻	-10.1401
何為	-10.1402
鷹	-10.1405
玷	-10.1406
有子	-10.1406
竇	-10.1408
隘	-10.1411
將以	-10.1414
鴉	-10.1416
乆矣	-10.1417
可見	-10.1419
萬古	-10.1422
與夫	-10.1428
拊	-10.1431
誰與	-10.1434
瑣	-10.1436
只是	-10.1447
之用	-10.1448
浴	-10.1454
岑	-10.1455
奄	-10.1463
孺	-10.1464
奕	-10.1468
不少	-10.1469
豈惟	-10.1476
以詩	-10.1476
凄	-10.1481
昔人	-10.1487
所為	-10.1493
逋	-10.1494
䑕	-10.1494
甕	-10.1495
玉堂	-10.1497
蠶	-10.15
道也	-10.1502
惰	-10.1502
填	-10.1505
億	-10.1508
翰墨	-10.1511
鋪	-10.1514
輯	-10.1515
郡守	-10.152
吝	-10.1521
歷	-10.1522
鞍	-10.1528
饋	-10.1528
檻	-10.1528
綵	-10.1534
姬	-10.1537
之官	-10.1537
闌	-10.1539
奈	-10.1541
演	-10.1542
迄	-10.1543
謚	-10.1548
仲尼	-10.155
而求	-10.1551
隐	-10.1556
廪	-10.1557
姻	-10.156
出門	-10.1563
世俗	-10.1566
杭州	-10.157
豁	-10.1579
忠信	-10.1586
無愧	-10.1586
矣今	-10.1587
餞	-10.159
爻	-10.1592
何日	-10.1598
鋤	-10.1599
纂	-10.1599
讀之	-10.1602
汚	-10.1621
古詩	-10.1624
所在	-10.1625
粤	-10.163
皷	-10.1632
百官	-10.1636
羈	-10.1636
洛陽	-10.164
屯田	-10.1641
老矣	-10.1648
登臨	-10.1653
膽	-10.1656
黍	-10.1662
此事	-10.1665
不合	-10.1666
屐	-10.1667
夕陽	-10.1668
鳩	-10.1671
人以	-10.1687
數百	-10.1689
教之	-10.1691
乙	-10.1692
安能	-10.1695
言也	-10.17
絡	-10.1703
公事	-10.1703
平日	-10.1705
蔣	-10.1713
軫	-10.1718
雋	-10.1721
級	-10.1724
不行	-10.1732
羸	-10.1732
嘉定	-10.1735
上帝	-10.1749
詐	-10.175
九年	-10.1752
師友	-10.1757
成都	-10.1769
諾	-10.1771
歲月	-10.1771
門人	-10.1775
先後	-10.1778
傳曰	-10.1783
山下	-10.1792
裴	-10.1802
四首	-10.1809
閤	-10.181
戢	-10.1815
模	-10.1815
百萬	-10.1818
武帝	-10.1822
轅	-10.1827
所欲	-10.183
禾	-10.1832
乃知	-10.1833
潦	-10.1841
挹	-10.1851
寃	-10.1851
邂逅	-10.1858
不善	-10.1869
其文	-10.1874
雉	-10.1877
不欲	-10.1878
痕	-10.1882
剖	-10.1888
海内	-10.1888
自知	-10.189
之行	-10.1893
想見	-10.1897
取進止	-10.19
算	-10.1906
畆	-10.1911
北山	-10.1916
即位	-10.1919
慷慨	-10.1919
髙祖	-10.1925
轡	-10.1929
贍	-10.193
不失	-10.1932
羨	-10.1938
不覺	-10.1941
培	-10.1949
構	-10.1951
言語	-10.1954
朱子	-10.1955
曰是	-10.1957
巽	-10.1958
靄	-10.1966
檀	-10.1968
一本	-10.1986
本無	-10.1989
島	-10.1997
我亦	-10.1998
其親	-10.2002
梧	-10.2005
取其	-10.2007
不妨	-10.2008
宇宙	-10.2017
箕	-10.2022
瓜	-10.2024
橘	-10.2033
十萬	-10.2037
從此	-10.2039
而成	-10.2041
并序	-10.2041
常平	-10.2045
其父	-10.2048
瓶	-10.2054
祔	-10.2055
蔓	-10.2058
之門	-10.206
於朝	-10.206
和氣	-10.2063
廵	-10.2063
䧟	-10.2067
陷	-10.2072
宥	-10.2073
此時	-10.2074
𤓰	-10.2075
或有	-10.2087
得一	-10.2099
其一	-10.2102
饗	-10.2103
不允	-10.2104
所作	-10.2105
嘲	-10.2106
臣某	-10.2108
而復	-10.2111
相對	-10.2111
刃	-10.2112
之勤	-10.2114
臻	-10.212
一事	-10.2121
所以為	-10.2124
子男	-10.2126
簫	-10.2127
時有	-10.2128
槎	-10.2129
椒	-10.2134
世事	-10.2138
推官	-10.2139
薰	-10.214
罹	-10.2142
婉	-10.2146
此身	-10.2146
為善	-10.2148
終始	-10.2155
斯民	-10.2165
詔書	-10.217
怕	-10.2174
芽	-10.2174
継	-10.2175
車馬	-10.2175
長沙	-10.2177
先人	-10.218
簪	-10.2183
取之	-10.2194
未敢	-10.2195
聰	-10.2207
庚	-10.2209
貲	-10.2217
州郡	-10.2219
諷	-10.222
臣無任	-10.2228
湖南	-10.2237
懦	-10.2239
舅	-10.2244
吾道	-10.2251
自謂	-10.2256
大小	-10.2257
二三	-10.2258
珪	-10.2264
勃	-10.2268
漿	-10.2273
以致	-10.2276
杏	-10.2276
庶㡬	-10.2278
稚	-10.2281
粥	-10.2283
虗	-10.229
甄	-10.2303
油	-10.2303
十餘年	-10.2306
非所	-10.2308
参	-10.2308
霖	-10.2311
安知	-10.2317
組	-10.2318
從來	-10.2326
天涯	-10.2334
之始	-10.2336
咫尺	-10.2344
皓	-10.2349
國史	-10.2351
儼	-10.2356
之徳	-10.2359
柏	-10.2363
児	-10.2364
忤	-10.2365
道徳	-10.2371
之謂	-10.2377
人者	-10.2377
於今	-10.2378
二公	-10.2383
不死	-10.2385
談笑	-10.2391
胷中	-10.2393
天台	-10.2398
潁	-10.2401
臣之	-10.2408
乎此	-10.241
百餘	-10.241
庖	-10.241
捷	-10.241
掲	-10.2411
售	-10.2412
埀	-10.2413
無有	-10.2414
李公	-10.2414
遏	-10.2417
閏	-10.2421
秪	-10.2421
萊	-10.2422
茫茫	-10.2425
笙	-10.2426
綬	-10.2429
忩	-10.243
大學	-10.2433
若夫	-10.2434
五言	-10.2438
行人	-10.2452
廊	-10.2456
論語	-10.2464
張公	-10.2465
貯	-10.2468
不到	-10.2475
肝	-10.2475
遙	-10.2478
於天下	-10.2485
而况	-10.2485
紆	-10.2485
九重	-10.2489
繆	-10.249
成功	-10.249
灼	-10.2491
覧	-10.2492
先帝	-10.2497
儒者	-10.2499
思之	-10.2508
年年	-10.2508
讎	-10.2508
法度	-10.2509
豫章	-10.2518
之治	-10.2522
終不	-10.2529
霸	-10.2531
用兵	-10.2533
人才	-10.2537
生死	-10.2544
荀	-10.2547
滌	-10.2547
樸	-10.2548
為國	-10.2554
寮	-10.2556
臧	-10.2557
筍	-10.2558
趂	-10.2569
而行	-10.2571
公為	-10.2571
何也	-10.2575
太祖	-10.2577
先王之	-10.2583
瘴	-10.259
不求	-10.259
諡	-10.2591
天命	-10.2592
氛	-10.2593
簿書	-10.2593
禆	-10.2609
恍	-10.2618
之選	-10.2619
如今	-10.2619
有時	-10.2624
廻	-10.2634
太尉	-10.2636
隕	-10.2637
恊	-10.2638
叚	-10.2638
劉氏	-10.2639
已而	-10.2644
曽祖	-10.2645
聞其	-10.2645
赫	-10.2648
垢	-10.2652
寒暑	-10.2658
㓂	-10.2659
勘	-10.266
而弗	-10.2662
壻	-10.2666
稱其	-10.2669
臨川	-10.2669
可乎	-10.2676
契丹	-10.2681
也此	-10.2686
惕	-10.2689
祁	-10.269
不顧	-10.269
匱	-10.269
髙明	-10.269
番	-10.2691
何妨	-10.2693
繪	-10.2697
受命	-10.2697
幕府	-10.2698
又何	-10.2702
其徒	-10.2707
其地	-10.2708
耿	-10.2712
開元	-10.2713
与	-10.2716
後來	-10.2717
猶在	-10.2723
風雲	-10.2725
狗	-10.2727
文帝	-10.2737
可知	-10.274
盛徳	-10.274
不止	-10.2744
謡	-10.2748
仙人	-10.2748
檜	-10.2752
豪傑	-10.2755
羣臣	-10.2756
五百	-10.2758
人言	-10.2761
浹	-10.2767
琳	-10.2771
昬	-10.2772
之資	-10.2772
漠	-10.2772
非有	-10.2773
峙	-10.2774
未聞	-10.2775
有志	-10.2777
龎	-10.2783
洞庭	-10.2785
抽	-10.2793
翰林學士	-10.2793
押	-10.2798
㤙	-10.2798
多少	-10.2798
些	-10.28
萍	-10.2801
一官	-10.2803
昻	-10.2804
一方	-10.2806
之家	-10.2814
布衣	-10.2819
夢中	-10.282
架	-10.2821
有言	-10.2825
大事	-10.2828
册	-10.2828
聰明	-10.2829
浄	-10.283
七日	-10.2831
蘄	-10.2834
童子	-10.2834
塟	-10.2835
君家	-10.2837
其才	-10.285
家人	-10.285
近世	-10.2854
之役	-10.2858
鑰	-10.2858
海上	-10.2864
袂	-10.2865
鈍	-10.287
鄉里	-10.2873
春色	-10.2873
裝	-10.2873
閉門	-10.2874
渺	-10.2877
鯨	-10.2886
稔	-10.2887
其上	-10.289
而已矣	-10.2892
以文	-10.2893
舍人	-10.2894
胸中	-10.2899
此其	-10.2904
典刑	-10.2904
衙	-10.2905
夸	-10.2907
縱横	-10.291
筭	-10.2915
湧	-10.2917
臣竊	-10.2923
諸將	-10.2924
丹青	-10.2927
姜	-10.2927
前人	-10.2934
釀	-10.2935
㕔	-10.2938
矣夫	-10.2945
榦	-10.295
逕	-10.295
他年	-10.295
父兄	-10.2951
捲	-10.2957
矣故	-10.2958
鈔	-10.2958
秀才	-10.296
中謝	-10.296
蛟	-10.2976
所能	-10.2979
之原	-10.2982
著書	-10.2984
幾何	-10.2984
蕭然	-10.2986
企	-10.2992
笏	-10.3
巡	-10.3004
不可得	-10.3005
廡	-10.3009
而止	-10.3017
具官	-10.3018
脂	-10.3019
一世	-10.302
蘿	-10.3023
之節	-10.3025
以来	-10.3026
顔色	-10.3027
有意	-10.3034
金華	-10.3036
将軍	-10.3037
五行	-10.3038
奎	-10.3041
生日	-10.3042
治平	-10.3042
生於	-10.3045
緩急	-10.3053
窗	-10.3056
而卒	-10.3062
無心	-10.3067
何其	-10.3072
言其	-10.3081
三尺	-10.3085
轉運使	-10.3086
逺近	-10.3088
遂以	-10.309
人有	-10.309
如此則	-10.3091
畿	-10.3092
綽	-10.3095
下有	-10.3099
之仁	-10.31
餓	-10.3104
龔	-10.3112
矩	-10.3112
東山	-10.3117
書生	-10.3139
之内	-10.3141
之謀	-10.3141
城南	-10.3147
在此	-10.3151
批	-10.3153
剥	-10.3153
狹	-10.3154
次適	-10.316
行事	-10.3161
消息	-10.3161
之未	-10.3164
城中	-10.3165
題詩	-10.3167
郵	-10.3171
而上	-10.3172
勉之	-10.3172
阮	-10.3178
馨	-10.318
譬	-10.3184
徳之	-10.3184
兎	-10.3186
月明	-10.3187
生民	-10.3191
武王	-10.3195
梗	-10.3198
杳	-10.32
然也	-10.3219
侮	-10.3224
書曰	-10.3224
既而	-10.3227
集賢	-10.3229
安危	-10.3235
臣愚	-10.3236
妻子	-10.3238
追封	-10.3241
有二	-10.3246
其説	-10.3252
閨	-10.3254
氣象	-10.3256
而知	-10.3257
現	-10.3263
周禮	-10.3266
得此	-10.3266
䘏	-10.3271
江海	-10.3271
贏	-10.3272
歇	-10.3276
言曰	-10.3279
或以	-10.328
礼	-10.3282
訛	-10.3302
迭	-10.3313
繄	-10.3316
得人	-10.3316
蹙	-10.3324
拍	-10.3327
抛	-10.3328
陜	-10.3329
堂堂	-10.333
千餘	-10.3333
上書	-10.3335
椽	-10.3335
纒	-10.3337
瀾	-10.3339
透	-10.334
堂記	-10.3343
永嘉	-10.3344
汀	-10.3344
州刺史	-10.3346
分明	-10.3348
或者	-10.3349
牲	-10.3352
來者	-10.3357
一篇	-10.3364
貟	-10.3372
畨	-10.3372
不問	-10.3372
虐	-10.3373
長老	-10.3374
其能	-10.3376
宗廟	-10.3394
于朝	-10.3394
憂患	-10.3399
及此	-10.3402
多矣	-10.3402
槁	-10.3409
春日	-10.3409
恠	-10.3414
其有	-10.3422
僣	-10.3431
尔	-10.3431
牡丹	-10.3437
怡	-10.3448
楓	-10.345
眩	-10.345
禮義	-10.3451
豹	-10.3455
浩然	-10.3459
諸路	-10.3465
事君	-10.3466
琢	-10.3468
不惟	-10.3468
絹	-10.3468
太白	-10.3471
惟恐	-10.3482
譴	-10.3482
之妙	-10.3488
孝子	-10.3497
秘書	-10.3503
狼	-10.3503
茹	-10.3506
本路	-10.3508
恭惟皇帝陛下	-10.3509
聿	-10.3511
自此	-10.3513
寒食	-10.3514
苛	-10.3518
雨露	-10.3523
死者	-10.3526
之寄	-10.353
梯	-10.3531
確	-10.3532
也吾	-10.3536
竝	-10.3537
何有	-10.3551
數月	-10.3554
幽人	-10.3561
漂	-10.3564
窘	-10.3567
九州	-10.3575
視之	-10.3578
炙	-10.3578
苐	-10.3581
言而	-10.3585
桞	-10.3589
鐡	-10.3591
斤	-10.3592
人之所	-10.3594
廬山	-10.3602
不已	-10.3602
㕘	-10.3602
不負	-10.3613
復何	-10.3613
惟其	-10.3619
也某	-10.3621
之句	-10.3623
學之	-10.3628
欣然	-10.3631
廓	-10.3632
陜西	-10.3633
五色	-10.3637
閎	-10.3646
詩序	-10.3646
竈	-10.3647
舂	-10.3647
啇	-10.3651
者曰	-10.3651
厄	-10.3653
亦以	-10.3664
嵐	-10.3666
中間	-10.3668
忱	-10.3671
渴	-10.3671
集巻十	-10.3675
橫	-10.3675
刪	-10.3678
本州	-10.368
孝友	-10.3683
輦	-10.3683
樞宻	-10.3685
今朝	-10.3687
鬻	-10.3694
老去	-10.3695
豈能	-10.37
之辭	-10.3701
於外	-10.3703
天人	-10.3707
昜	-10.3708
辤	-10.372
莫如	-10.3721
悵	-10.3721
則不	-10.3722
棺	-10.3723
四人	-10.3725
倪	-10.3728
干戈	-10.3733
少卿	-10.3734
則無	-10.3737
於天	-10.3742
人家	-10.3749
命之	-10.3754
繕	-10.3754
于今	-10.3756
國朝	-10.3768
號令	-10.3771
而非	-10.3775
棠	-10.3775
煎	-10.3776
對曰	-10.3781
街	-10.3783
翹	-10.3787
㓕	-10.379
顔子	-10.3793
鄕	-10.3794
為政	-10.3801
羲	-10.3803
超然	-10.3806
漆	-10.3807
三司	-10.3808
未足	-10.3809
之權	-10.3811
其下	-10.3815
無益	-10.3817
數千	-10.3819
皇帝陛下	-10.3828
汎	-10.3829
江水	-10.3834
然其	-10.3836
迪	-10.3836
聞道	-10.3841
羌	-10.3848
則為	-10.3849
崩	-10.385
即日	-10.385
腴	-10.3852
葵	-10.3853
所知	-10.3854
人人	-10.3859
者或	-10.3861
萬人	-10.3862
不逺	-10.3863
即事	-10.3865
圎	-10.3867
二者	-10.3871
不明	-10.3874
之禍	-10.3876
道者	-10.3884
之善	-10.3887
逺矣	-10.3887
祝文	-10.389
愽	-10.3896
平時	-10.3902
民力	-10.3903
霍	-10.3907
瑩	-10.391
者乃	-10.391
職事	-10.3911
故也	-10.3921
注云	-10.3925
鞠	-10.3925
眇	-10.393
緇	-10.3931
於民	-10.3936
天道	-10.3941
同知	-10.3947
鞏	-10.395
甥	-10.3953
繹	-10.3955
翊	-10.3955
酷	-10.3957
瑕	-10.3957
時時	-10.3958
段	-10.396
金人	-10.3961
藍	-10.3962
諸儒	-10.3966
相繼	-10.3981
欲乞	-10.3983
曰我	-10.3987
匿	-10.3994
楽	-10.3996
可為	-10.4003
咏	-10.4006
胡為	-10.401
五人	-10.401
娛	-10.401
閟	-10.4011
固已	-10.4011
揭	-10.4014
咽	-10.4017
楮	-10.4018
之典	-10.4021
察其	-10.4022
抄	-10.4025
無用	-10.4026
耄	-10.4026
之教	-10.4029
軟	-10.403
芬	-10.4035
無異	-10.4038
郡夫人	-10.4041
有詩	-10.4051
淳熈	-10.4052
其勢	-10.4053
太原	-10.4057
搖	-10.4057
扵是	-10.406
矣其	-10.4066
寇	-10.4066
魏公	-10.4068
儒學	-10.4069
亦非	-10.407
梵	-10.4071
名曰	-10.4083
不能自	-10.4086
規模	-10.4086
陳氏	-10.4093
用心	-10.4094
安撫	-10.41
篋	-10.4103
平章	-10.4105
年來	-10.411
屹	-10.4114
經綸	-10.4116
求其	-10.4126
偶然	-10.4127
唐虞	-10.413
可不	-10.4135
未始	-10.4136
則必	-10.4136
覃	-10.4137
幸甚	-10.4137
若有	-10.4139
巵	-10.4139
伺	-10.4145
西京	-10.4147
日日	-10.4148
堦	-10.4151
何由	-10.4152
之要	-10.4154
者何	-10.4161
豊	-10.4164
柴	-10.4165
黑	-10.4168
不逮	-10.4174
鎭	-10.4176
兒童	-10.4177
不疑	-10.4181
旄	-10.4183
稟	-10.4185
葦	-10.4185
嶠	-10.4186
欹	-10.4187
黯	-10.4199
者謂	-10.4201
滕	-10.4208
其行	-10.421
盜賊	-10.4221
雛	-10.4224
準	-10.4224
㤗	-10.4228
之遺	-10.4228
人材	-10.4229
亢	-10.4231
九十	-10.4234
鬬	-10.4235
也哉	-10.4239
狄	-10.424
今古	-10.4246
其本	-10.4247
瀛	-10.425
甌	-10.4251
襄陽	-10.4257
昨日	-10.4259
老夫	-10.4262
兒女	-10.4269
城郭	-10.4271
失之	-10.4271
賚	-10.4282
侯之	-10.4285
不通	-10.429
之深	-10.4291
豈知	-10.4295
緯	-10.4296
疇昔	-10.4299
寺丞	-10.43
挿	-10.4304
泮	-10.4307
忠孝	-10.4308
憎	-10.4318
山東	-10.432
白髮	-10.4323
陌	-10.4327
昇	-10.4327
渇	-10.433
自今	-10.4334
襃	-10.4337
以禮	-10.4341
翟	-10.4342
草堂	-10.4345
其二	-10.4345
於其	-10.4348
者多	-10.4348
聖賢之	-10.435
吾子	-10.4351
有常	-10.4358
君諱	-10.4358
擒	-10.436
無疆	-10.4361
花開	-10.437
厨	-10.4371
鷺	-10.4375
鄉人	-10.4378
諸君	-10.4378
盗賊	-10.4382
所宜	-10.4383
因以	-10.4387
蘂	-10.4389
也自	-10.439
今日之	-10.439
湖山	-10.4391
之師	-10.4392
再三	-10.4394
禧	-10.4402
性命	-10.4403
至矣	-10.4405
囂	-10.4417
光明	-10.4419
紗	-10.4422
犢	-10.4424
也臣	-10.4425
帽	-10.4425
文選	-10.4426
為君	-10.4428
先儒	-10.4435
淵源	-10.4437
慶元	-10.4443
明朝	-10.4443
田里	-10.4451
擲	-10.4452
科舉	-10.4454
南陽	-10.4455
宗皇帝	-10.4457
上曰	-10.4466
啄	-10.4469
汲汲	-10.4474
畵	-10.4479
如故	-10.448
一一	-10.4484
以俟	-10.4487
煖	-10.4491
聲名	-10.4494
之賜	-10.45
韓文	-10.4501
鉞	-10.4504
漢唐	-10.4504
跳	-10.4505
■	-10.4512
一路	-10.4513
至扵	-10.4514
逍遥	-10.4515
流落	-10.4516
稷	-10.4519
肖	-10.452
塵土	-10.452
二日	-10.4522
特賜	-10.4522
之失	-10.4524
中秋	-10.4524
堂上	-10.4527
焉而	-10.4539
樂府	-10.4541
乃以	-10.4541
之請	-10.4542
悍	-10.4543
稿	-10.4549
太息	-10.4556
净	-10.4556
上有	-10.4563
經術	-10.4566
復有	-10.4571
詆	-10.4573
建康	-10.4573
耐	-10.4576
沂	-10.458
衣食	-10.458
以備	-10.458
使其	-10.4581
韜	-10.4588
餌	-10.4592
抃	-10.4599
識者	-10.4601
臆	-10.4602
甚矣	-10.4603
行省	-10.4603
鮑	-10.4604
東海	-10.4608
差遣	-10.4611
英雄	-10.4615
覬	-10.4617
銳	-10.4623
是則	-10.4624
在上	-10.4631
塢	-10.4639
不信	-10.464
不厭	-10.4642
阡	-10.4643
寐	-10.4645
訣	-10.4647
煮	-10.4654
一念	-10.4655
君不見	-10.4662
詹	-10.4663
左丞	-10.4663
而民	-10.4668
鋭	-10.4671
磬	-10.4672
其書	-10.4672
縣君	-10.4675
之效	-10.4676
航	-10.468
五首	-10.4682
埸	-10.4682
牖	-10.4686
沛	-10.469
也予	-10.4707
鄊	-10.4709
恰	-10.472
之業	-10.4728
躡	-10.4731
乾道	-10.4734
仁者	-10.4734
禍福	-10.4737
以慰	-10.4746
三代之	-10.4748
青天	-10.4758
五代	-10.4764
歐	-10.4775
可用	-10.4777
國夫人	-10.4782
擕	-10.4787
經營	-10.4788
衾	-10.4792
平居	-10.4803
不絶	-10.4804
知有	-10.481
娥	-10.4811
敢忘	-10.4814
伊川	-10.4818
嬌	-10.4819
敘	-10.4824
望之	-10.4826
亦自	-10.4831
謂其	-10.4831
之訓	-10.4832
侔	-10.4836
建炎	-10.4838
用其	-10.4838
太夫人	-10.4839
賑	-10.4843
澆	-10.4852
於上	-10.4854
一生	-10.4856
不廢	-10.4858
𥿄	-10.4859
好學	-10.4865
儘	-10.4865
榆	-10.4877
自昔	-10.4879
膳	-10.4879
之寵	-10.488
子瞻	-10.4881
以道	-10.4881
之使	-10.4882
馴	-10.4883
天意	-10.4884
殺人	-10.4892
之儀	-10.4892
棗	-10.4898
悖	-10.4898
涇	-10.4905
相傳	-10.4907
瘠	-10.4908
宣和	-10.4909
與世	-10.491
司徒	-10.4913
尼	-10.4914
真人	-10.4914
有聲	-10.4927
方今	-10.4929
愛之	-10.4929
者豈	-10.4929
林下	-10.4935
斾	-10.4939
可與	-10.4942
憾	-10.4944
之衆	-10.4945
中和	-10.4952
之責	-10.4952
致其	-10.4954
何用	-10.4956
其義	-10.4956
何當	-10.4957
忿	-10.4963
盡其	-10.4967
郢	-10.4969
皆可	-10.4971
以爾	-10.4973
於時	-10.498
知所	-10.498
熾	-10.4983
其功	-10.4984
元帥	-10.4987
之方	-10.4987
冕	-10.4989
三公	-10.4991
諸人	-10.4993
公論	-10.4993
也非	-10.4994
䦨	-10.4997
至誠	-10.5003
女子	-10.5006
淂	-10.5009
蜜	-10.501
沸	-10.501
滄海	-10.5011
家有	-10.5013
蠟	-10.5015
必以	-10.5016
瓢	-10.5021
訃	-10.5031
而莫	-10.5032
之列	-10.5033
芳草	-10.5034
到任	-10.5044
蘓	-10.5046
由此	-10.5049
皇太后	-10.5058
於前	-10.5059
有人	-10.5059
或謂	-10.5063
在天	-10.5063
芥	-10.5064
兢	-10.5064
在於	-10.5065
遯	-10.507
黔	-10.507
退而	-10.5072
槃	-10.5074
孔子曰	-10.5077
貧賤	-10.5079
福建	-10.5083
去國	-10.5086
做	-10.5089
覲	-10.5093
𣣔	-10.5102
糾	-10.5109
反覆	-10.511
惟陛下	-10.511
寝	-10.5119
熏	-10.5119
工夫	-10.5119
三世	-10.5124
塊	-10.513
歎息	-10.5131
無所不	-10.5132
考之	-10.5132
疵	-10.5132
洋	-10.5135
而天下	-10.5135
儔	-10.5136
公議	-10.5136
之㑹	-10.5136
縛	-10.5137
無由	-10.5138
夜半	-10.5139
殖	-10.514
曾祖	-10.5144
聖主	-10.5146
所藏	-10.5149
墀	-10.5153
蘋	-10.5154
禮記	-10.516
徂	-10.5161
賞罰	-10.5163
不起	-10.5173
屨	-10.5174
無遺	-10.5175
洎	-10.5177
廹	-10.5177
夘	-10.5182
湖上	-10.5182
獨立	-10.5182
伏望聖慈	-10.5184
楼	-10.5185
樂天	-10.5196
氊	-10.5199
一道	-10.5218
聯	-10.5218
餅	-10.5218
百尺	-10.5221
晝夜	-10.5223
亦未	-10.5227
渡江	-10.5236
大江	-10.5237
璞	-10.5242
力行	-10.5246
翩翩	-10.5247
帙	-10.5248
公私	-10.5248
門前	-10.5249
之福	-10.5251
而爲	-10.5251
囯	-10.5251
而不敢	-10.5252
人君	-10.5257
烝	-10.5257
易之	-10.5259
泗	-10.5259
荆州	-10.5262
二十四	-10.5266
海棠	-10.5267
也然則	-10.5269
小兒	-10.5272
駑	-10.5273
何須	-10.5274
日以	-10.5276
治亂	-10.5284
恩命	-10.5288
多病	-10.5288
沖	-10.5292
婺	-10.5296
以歸	-10.5303
堵	-10.5305
粒	-10.5312
㨗	-10.5312
與子	-10.5315
侣	-10.5316
武昌	-10.5317
世祖	-10.5319
隷	-10.5322
伊尹	-10.5323
一片	-10.5325
萬年	-10.5331
一代	-10.5332
野人	-10.5333
則亦	-10.5337
逄	-10.5338
相如	-10.5343
闥	-10.5343
公言	-10.5344
夫婦	-10.5346
縣尉	-10.5348
焉則	-10.5348
我欲	-10.5351
第四	-10.5351
劄子臣	-10.5357
竦	-10.5359
天子之	-10.5362
棊	-10.5362
民間	-10.5364
鵝	-10.5368
徃來	-10.5369
便是	-10.5372
卻	-10.5378
驪	-10.5378
吏民	-10.5379
止於	-10.5382
其職	-10.5386
因其	-10.539
宗社	-10.5391
十五年	-10.5392
様	-10.5393
為一	-10.5394
為大	-10.5396
先是	-10.5397
相思	-10.5398
壅	-10.5401
還家	-10.5403
敞	-10.5408
濱	-10.5415
軍節度使	-10.5415
之費	-10.542
不改	-10.5421
驩	-10.5421
流俗	-10.5425
枚	-10.5432
鐫	-10.5434
伏乞	-10.5437
茫	-10.5442
喬木	-10.5444
偈	-10.5447
不仕	-10.5448
七言	-10.5448
之先	-10.5451
岫	-10.5455
刹	-10.546
趍	-10.5461
溪山	-10.5465
盎	-10.547
之勝	-10.5474
莫若	-10.5476
其力	-10.5484
歎曰	-10.549
只有	-10.549
男子	-10.5493
翦	-10.5493
參政	-10.5498
事親	-10.55
李白	-10.5501
伏望	-10.5502
眺	-10.5508
之期	-10.5509
柩	-10.5513
之能	-10.5515
悪	-10.5515
嗇	-10.5523
裾	-10.5524
洊	-10.5525
也昔	-10.5529
世家	-10.5535
衲	-10.5537
也嗚呼	-10.5538
明道	-10.5538
帝王	-10.554
也且	-10.5542
有三	-10.5544
起家	-10.5554
一夕	-10.556
先朝	-10.5562
一杯	-10.5568
矣此	-10.5573
僥倖	-10.5574
子思	-10.5575
糶	-10.5576
詩文	-10.5579
轄	-10.558
裹	-10.5581
惱	-10.5581
蒿	-10.5591
鵠	-10.5596
也則	-10.5599
笠	-10.5606
聖恩	-10.5606
初無	-10.5607
鼇	-10.5611
青青	-10.5613
四十年	-10.5623
至公	-10.5627
悚	-10.5627
竊惟	-10.5638
日新	-10.5638
晤	-10.5639
此生	-10.5641
承平	-10.5643
是用	-10.5646
兔	-10.5647
隻	-10.5648
沼	-10.5653
名臣	-10.5654
是謂	-10.5655
水旱	-10.5657
忻	-10.5663
蒼蒼	-10.5664
丙	-10.5668
為文	-10.567
慵	-10.567
有如	-10.5681
艮	-10.5681
功臣	-10.5681
得罪	-10.5683
太傅	-10.5684
冡	-10.5685
縻	-10.5686
狎	-10.5686
裒	-10.5689
荐	-10.5694
諸孫	-10.5696
長江	-10.5697
知君	-10.5702
日用	-10.5702
而出	-10.5707
紀綱	-10.5709
同時	-10.571
之女	-10.5711
其他	-10.5713
之良	-10.5713
此則	-10.5717
藜	-10.5724
萬户	-10.5726
貂	-10.573
幄	-10.5734
日暮	-10.5736
丸	-10.5738
惟是	-10.574
箋	-10.5743
呂	-10.5746
今來	-10.5746
自號	-10.5746
也余	-10.5748
夷狄	-10.5749
將帥	-10.575
鯉	-10.5752
悠然	-10.5753
聞者	-10.5757
之性	-10.5758
也是	-10.5763
笋	-10.5764
有不	-10.5765
餽	-10.5765
液	-10.5767
前輩	-10.5768
存者	-10.5768
無功	-10.5769
至大	-10.5771
爱	-10.5771
醪	-10.5772
大義	-10.5773
杞	-10.5776
此理	-10.5777
雖無	-10.5782
不得已	-10.5795
慣	-10.5796
稽古	-10.5802
蹄	-10.5812
賡	-10.5813
椿	-10.5814
泰山	-10.5818
參差	-10.582
宗室	-10.5836
凛	-10.5839
溥	-10.5839
緡	-10.584
者固	-10.5843
竊謂	-10.5845
湖州	-10.585
所言	-10.5852
户部	-10.5855
伏念某	-10.5857
扈	-10.5863
褐	-10.5866
讒	-10.5868
一毫	-10.5872
二千石	-10.5873
之體	-10.5877
繳	-10.5877
疾病	-10.5877
珮	-10.5881
猶可	-10.5882
穰	-10.5882
揣	-10.5886
人知	-10.5889
靖康	-10.589
未暇	-10.5891
卓然	-10.5891
斵	-10.5893
舉進士	-10.5893
僭	-10.5902
因循	-10.5903
夜雨	-10.5904
貴賤	-10.5909
穢	-10.5914
意氣	-10.5923
人亦	-10.5924
以疾	-10.5926
黄花	-10.5926
出于	-10.5927
憔悴	-10.5929
覿	-10.5929
置之	-10.5932
辞	-10.5932
燈火	-10.5938
者盖	-10.5938
君王	-10.594
江左	-10.5942
雖欲	-10.595
蛙	-10.5951
昌黎	-10.5953
貝	-10.5953
老病	-10.5955
自笑	-10.5956
舟中	-10.5956
之孫	-10.5959
處處	-10.5961
固不	-10.5962
釁	-10.5964
溟	-10.5975
揚雄	-10.5978
貴人	-10.5981
直學士	-10.5982
峭	-10.5983
不獨	-10.5984
士卒	-10.5987
故鄉	-10.5987
臣子	-10.599
孟子曰	-10.5991
知我	-10.5996
安在	-10.5996
其民	-10.6001
不遺	-10.6002
不入	-10.6005
目前	-10.6006
以聞	-10.6007
此言	-10.601
妹	-10.6011
胸	-10.6012
以報	-10.6014
官府	-10.6016
紓	-10.6019
文書	-10.6021
先公	-10.6022
莖	-10.6023
璋	-10.6031
者哉	-10.6037
依然	-10.6038
運使	-10.6043
䄂	-10.6045
大徳	-10.6047
笻	-10.6048
浮屠	-10.6048
宋史	-10.6049
以事	-10.605
穎	-10.6051
間有	-10.6054
先聖	-10.6057
弘	-10.6059
近臣	-10.606
近日	-10.6061
根本	-10.6064
落花	-10.6065
派	-10.6065
悃	-10.6069
欝	-10.6077
不遇	-10.6079
兀	-10.6083
零落	-10.6083
必欲	-10.6087
夫子之	-10.609
自憐	-10.6094
善惡	-10.6099
趙公	-10.6101
余曰	-10.6101
遞	-10.6103
輓	-10.6104
非其	-10.6108
山色	-10.611
頰	-10.6111
四明	-10.6115
拳	-10.6116
江浙	-10.6116
醴	-10.6117
行下	-10.6124
以濟	-10.6124
尚可	-10.6133
秋水	-10.6135
之流	-10.6136
有能	-10.6142
翅	-10.6143
訂	-10.615
瀝	-10.6151
諸軍	-10.6154
劔	-10.6158
帑	-10.6159
贖	-10.6165
媒	-10.6165
禅	-10.6166
左氏	-10.617
參軍	-10.6172
之屬	-10.6176
之靈	-10.6177
猗	-10.6179
遄	-10.6181
友人	-10.6183
在外	-10.6184
程子	-10.6184
而不得	-10.6186
先世	-10.6193
歉	-10.6199
無非	-10.62
無疑	-10.6203
伏願	-10.6206
世人	-10.6206
拳拳	-10.6208
然亦	-10.6212
𥙿	-10.6213
有成	-10.6214
如許	-10.6216
隄	-10.6222
販	-10.6223
斈	-10.6225
三子	-10.6227
髦	-10.6231
十有二	-10.6232
乂	-10.6232
灾	-10.6234
三朝	-10.6234
股肱	-10.6236
後生	-10.624
風塵	-10.6241
溫	-10.6242
知者	-10.6244
無餘	-10.6245
嗔	-10.6251
譬如	-10.6256
茅屋	-10.6256
學道	-10.626
之報	-10.6263
發明	-10.6264
無恙	-10.6267
之交	-10.6267
彫	-10.627
耒	-10.6271
諸老	-10.6272
朝奉郎	-10.6277
在我	-10.6286
盛時	-10.6295
無情	-10.6295
戦	-10.6296
所及	-10.6304
空山	-10.6306
巒	-10.6308
者蓋	-10.6309
曰子	-10.631
其情	-10.6316
以言	-10.632
惟公	-10.6322
肌	-10.6324
元氣	-10.6324
縣主簿	-10.6325
淮西	-10.6329
所學	-10.6342
蟄	-10.6343
生意	-10.6345
嗟乎	-10.6348
十載	-10.6356
拯	-10.6363
此日	-10.6363
葱	-10.6368
不多	-10.6369
蟾	-10.6369
可畏	-10.6373
婦人	-10.6374
而為之	-10.6375
一也	-10.6376
腥	-10.638
汾	-10.6384
菲	-10.6387
顓	-10.6388
不謂	-10.6389
八日	-10.6392
髙下	-10.6392
也公	-10.6393
衰病	-10.6403
弃	-10.6412
降指揮	-10.6417
者雖	-10.6418
熒	-10.6421
雖未	-10.6423
一時之	-10.6423
奏乞	-10.6426
光武	-10.6426
忠厚	-10.6429
紅塵	-10.643
屑	-10.6435
故能	-10.6443
㝎	-10.6445
使臣	-10.6445
鬭	-10.6448
覈	-10.645
帯	-10.6455
蕭條	-10.6456
千人	-10.6457
少師	-10.6458
磯	-10.6461
篁	-10.6461
刑部	-10.6462
六日	-10.6464
儂	-10.6466
叱	-10.6466
知制誥	-10.6472
天資	-10.6473
今為	-10.6474
亊	-10.6475
軍馬	-10.6475
翕	-10.6478
孺人	-10.6479
年少	-10.648
㳂	-10.6481
所載	-10.6481
邃	-10.6484
大節	-10.6484
蔑	-10.6494
蕙	-10.6496
塩	-10.6497
藹	-10.6497
彭城	-10.6499
鄂	-10.6501
漳	-10.6501
芹	-10.6507
白玉	-10.6507
徤	-10.6512
是日	-10.6513
糜	-10.6515
中大夫	-10.6517
孰不	-10.6525
知縣	-10.653
一介	-10.6532
挽詞	-10.6533
隊	-10.654
曽子	-10.6541
乎哉	-10.6541
視其	-10.6543
始知	-10.6544
此地	-10.6547
後學	-10.6549
閥	-10.655
雲山	-10.6557
雍容	-10.6557
豐年	-10.6557
本司	-10.6559
以養	-10.6564
朗	-10.6573
愉	-10.6576
湍	-10.6577
有客	-10.6578
螭	-10.6581
罵	-10.6581
濬	-10.6582
詩成	-10.6586
二十五	-10.6587
摹	-10.6587
幸而	-10.6589
暇日	-10.6591
不克	-10.6591
衫	-10.6592
稽首	-10.6592
千秋	-10.6594
驂	-10.6596
王子	-10.6599
倐	-10.6599
朝廷之	-10.66
星辰	-10.6602
長適	-10.6602
睠	-10.6602
用力	-10.6603
泄	-10.6606
豈獨	-10.661
嗚呼哀哉	-10.6611
愴	-10.6611
之傳	-10.6612
少陵	-10.6614
邢	-10.6615
其學	-10.6616
必先	-10.6619
國子	-10.6623
唾	-10.6623
嘗謂	-10.6624
有是	-10.6626
忠臣	-10.6627
蠅	-10.663
不得不	-10.6636
復見	-10.6637
殷勤	-10.6639
艶	-10.6644
敲	-10.6644
覊	-10.6647
蒼生	-10.6647
天性	-10.6649
搢紳	-10.6651
呵	-10.6651
歌舞	-10.6654
之助	-10.6655
司農	-10.6663
弩	-10.6665
楷	-10.6666
在人	-10.6666
拈	-10.6669
馬上	-10.667
千百	-10.6671
而終	-10.6672
不亦	-10.6674
兾	-10.6676
一語	-10.6677
寂寥	-10.6678
曳	-10.6679
不宣	-10.6679
何哉	-10.6686
若不	-10.6687
榛	-10.6688
愼	-10.6689
其門	-10.6692
㠶	-10.6698
暝	-10.6698
僖	-10.6699
此書	-10.67
福州	-10.6702
離騷	-10.6703
軺	-10.6708
之常	-10.6712
其爲	-10.6712
峩	-10.6713
之材	-10.6719
之所謂	-10.6726
成就	-10.673
斯言	-10.6732
擔	-10.6737
山河	-10.6743
三十六	-10.6743
鈴	-10.6747
駢	-10.6751
自信	-10.6755
惇	-10.6756
訊	-10.6758
部使者	-10.6761
遑	-10.6767
問其	-10.6768
壬	-10.677
䆫	-10.6773
無間	-10.6774
灣	-10.6776
周之	-10.6781
延祐	-10.6781
譁	-10.6781
殺之	-10.6782
不加	-10.6786
芸	-10.679
賈誼	-10.6792
以見	-10.6802
無言	-10.6808
侑	-10.6808
豈敢	-10.6808
報國	-10.681
卉	-10.6813
螢	-10.6813
從今	-10.682
問之	-10.6821
陳公	-10.6824
依前	-10.6825
闇	-10.6827
而行之	-10.683
愛其	-10.683
總管	-10.683
餘生	-10.6832
新安	-10.6838
娯	-10.6839
從而	-10.6839
鍊	-10.684
二千	-10.6846
年正月	-10.685
郁	-10.685
而致	-10.6854
之異	-10.6856
猶能	-10.686
葬于	-10.686
三山	-10.6862
者衆	-10.6867
韓子	-10.6872
公孫	-10.6873
玊	-10.6878
守之	-10.6888
須臾	-10.689
靳	-10.6894
嘻	-10.6895
逈	-10.6897
蝗	-10.6897
歸来	-10.6906
暄	-10.6907
粮	-10.6907
付之	-10.6911
唐人	-10.6916
古之人	-10.6922
坑	-10.6928
燎	-10.6928
溪上	-10.6932
胷	-10.6935
善人	-10.6937
改元	-10.6938
某人	-10.6938
樞宻院	-10.6938
死而	-10.694
之甚	-10.6943
好事	-10.6946
蹊	-10.695
百家	-10.6959
捍	-10.696
年六十	-10.696
杜門	-10.6961
嶂	-10.6966
十二年	-10.6966
吾之	-10.6966
嚼	-10.6968
譚	-10.697
但見	-10.6973
所存	-10.6979
亦曰	-10.6979
此語	-10.6981
表裏	-10.6982
不解	-10.6983
異於	-10.6987
載酒	-10.6991
𣺌	-10.6992
也雖然	-10.6992
奢	-10.6997
章句	-10.6997
鼠	-10.6998
以安	-10.7002
慟	-10.7006
江漢	-10.7011
曵	-10.7013
蓑	-10.7018
閭里	-10.7018
清光	-10.702
名山	-10.7021
知人	-10.7021
於心	-10.7022
而進	-10.7023
處之	-10.7024
臭	-10.7027
歳月	-10.7027
祖母	-10.7032
鉛	-10.7032
尋常	-10.7034
君墓誌銘	-10.7037
沽	-10.7038
聖明	-10.7038
郤	-10.7039
生涯	-10.7041
以後	-10.7042
以明	-10.7043
檢校	-10.7045
京兆	-10.7046
奉使	-10.705
躔	-10.7053
不樂	-10.7053
霈	-10.706
圜	-10.7062
一夜	-10.7063
胡不	-10.7063
自言	-10.7064
葩	-10.7065
故園	-10.7066
之澤	-10.7068
有可	-10.7069
修撰	-10.7083
形容	-10.7087
居之	-10.7089
風采	-10.709
掉	-10.7091
其弊	-10.7095
年七十	-10.7096
可惜	-10.7097
稜	-10.7098
之道也	-10.7099
籟	-10.7107
今乃	-10.7108
峴	-10.7112
凱	-10.7113
詩句	-10.7114
孰能	-10.7114
諸賢	-10.7121
塋	-10.713
皆是	-10.7131
非吾	-10.7134
鶚	-10.7139
我心	-10.7142
書來	-10.7145
巍	-10.7146
於道	-10.7147
鎖	-10.715
劑	-10.7156
滄浪	-10.7156
幾人	-10.7156
不知所	-10.7161
爲人	-10.7161
矣又	-10.7163
贄	-10.7167
守臣	-10.7172
涸	-10.7173
稠	-10.7176
笑語	-10.7178
脅	-10.718
梨	-10.7182
店	-10.7183
門户	-10.7183
其罪	-10.7184
氓	-10.7188
小大	-10.719
霏	-10.7192
光華	-10.7192
至其	-10.7195
声	-10.7195
贅	-10.72
一物	-10.72
黄州	-10.7201
一月	-10.7201
明公	-10.7201
以身	-10.7204
識其	-10.7205
躐	-10.7207
吾家	-10.7212
于家	-10.7212
事有	-10.7215
魯公	-10.7217
緬	-10.7222
伯夷	-10.7223
掇	-10.7226
可使	-10.7231
風露	-10.7232
㳟	-10.7232
予曰	-10.7235
之聲	-10.7236
骸	-10.7239
十分	-10.7243
龍門	-10.7246
人謂	-10.7248
閻	-10.7251
之世	-10.7252
人意	-10.7255
公自注	-10.7257
十數	-10.7257
此亦	-10.7259
浙東	-10.7263
廊廟	-10.7264
其辭	-10.7264
不願	-10.7264
劉公	-10.7266
卽	-10.7266
繭	-10.7267
則知	-10.7268
能為	-10.7271
献	-10.7272
不倦	-10.7272
剰	-10.7273
事也	-10.7275
雌	-10.7276
塾	-10.7277
嘗以	-10.7284
之華	-10.7285
礪	-10.7287
無私	-10.7288
豈其	-10.7288
子仁	-10.729
南渡	-10.729
勸農	-10.7291
万	-10.7293
鉢	-10.7294
夫人之	-10.7295
在焉	-10.7296
草草	-10.7299
立朝	-10.7303
所論	-10.7306
以相	-10.7309
明白	-10.7309
邑之	-10.7311
孔孟	-10.7312
鴨	-10.7313
熈寧	-10.7314
朞	-10.7315
鞅	-10.7316
之思	-10.7326
者如	-10.7327
覇	-10.7331
曰汝	-10.7334
耽	-10.7337
風霜	-10.7337
紱	-10.7338
美人	-10.7338
為天下	-10.7339
故國	-10.7339
幾時	-10.7341
飜	-10.7344
耘	-10.7346
陀	-10.7348
可喜	-10.7348
寄題	-10.7352
山隂	-10.7356
劵	-10.7359
愍	-10.7361
鎻	-10.7363
號為	-10.7363
手足	-10.7368
莆	-10.7369
奏事	-10.7369
制置	-10.7372
唐書	-10.7375
必能	-10.7376
無限	-10.7378
閤下	-10.7378
萬國	-10.7381
錐	-10.7384
于時	-10.7384
時節	-10.7387
重陽	-10.7387
龍圖	-10.7388
相去	-10.7392
一聲	-10.7392
殄	-10.7394
大人	-10.7395
撲	-10.74
有竒	-10.74
遂為	-10.74
不食	-10.7403
舄	-10.7404
三徑	-10.7405
曽孫	-10.7407
嵗時	-10.7411
以正	-10.7411
莫敢	-10.7412
禋	-10.7413
貟外郎	-10.7417
施於	-10.7422
骨肉	-10.7427
形勢	-10.7428
戰國	-10.7431
穏	-10.7433
轉運司	-10.7437
時事	-10.7443
奨	-10.7449
所願	-10.7452
肘	-10.7454
人臣	-10.7455
無聲	-10.7456
以書	-10.7456
我來	-10.7457
一心	-10.7461
成王	-10.7462
耿耿	-10.7463
多事	-10.7466
奏議	-10.7467
香火	-10.7468
二十八	-10.7469
春雨	-10.7472
棣	-10.7475
黄帝	-10.7475
可否	-10.7479
訝	-10.7479
饌	-10.7481
誚	-10.7482
蛟龍	-10.7487
不去	-10.7487
憂國	-10.7488
不下	-10.749
毀	-10.7494
臣敢不	-10.7495
三省	-10.7497
者惟	-10.75
隳	-10.7501
教化	-10.7502
不辭	-10.7508
書云	-10.7509
用人	-10.7518
與我	-10.7518
都官	-10.752
祖宗之	-10.752
秦漢	-10.752
州軍	-10.7526
頤	-10.7529
雨中	-10.7529
可觀	-10.753
可無	-10.7533
殞	-10.7538
於後	-10.7539
之不可	-10.7539
監察御史	-10.7539
九原	-10.7541
廿	-10.7545
兵馬	-10.7547
泉石	-10.7551
㓗	-10.7556
那知	-10.7563
見上	-10.7564
睹	-10.7566
者歟	-10.7567
記之	-10.7567
見于	-10.757
溜	-10.7571
拓	-10.7574
哺	-10.7575
汨	-10.7582
嘗聞	-10.7584
第五	-10.7585
婚	-10.7586
巻二十	-10.759
紋	-10.759
煑	-10.7591
諸郡	-10.7593
一節	-10.7595
冢	-10.7595
者是	-10.7597
著作	-10.7603
僞	-10.7609
别有	-10.7612
亘	-10.7614
曼	-10.7615
菩薩	-10.7615
叶	-10.7617
濠	-10.7619
誰復	-10.7619
在位	-10.7625
㡌	-10.7627
浩蕩	-10.7628
斜陽	-10.7629
行狀	-10.7631
欲望	-10.7632
彤	-10.7633
菽	-10.7634
儷	-10.7635
何謂	-10.7635
不一	-10.7637
齎	-10.764
狥	-10.764
之前	-10.7642
之議	-10.7642
呌	-10.7644
冬至	-10.7645
謳	-10.7648
其母	-10.7648
郡國	-10.7651
樞密	-10.7653
倖	-10.7658
與公	-10.766
上天	-10.7662
能以	-10.7665
濮	-10.7666
臨江	-10.7669
不妄	-10.767
原注	-10.7671
守令	-10.7676
軼	-10.7676
懈	-10.7677
曺	-10.7683
宗族	-10.7688
無足	-10.7689
而用之	-10.7701
把酒	-10.7703
捉	-10.7704
萬頃	-10.7708
論事	-10.7708
萬象	-10.7709
勤勞	-10.7709
論思	-10.7712
相期	-10.7713
當是時	-10.7715
郎官	-10.772
諸葛	-10.7722
以前	-10.7723
論議	-10.7724
豈復	-10.7727
常州	-10.7727
豕	-10.7733
用事	-10.7735
艇	-10.7738
嵗寒	-10.7738
吾心	-10.7742
安國	-10.7744
東平	-10.7745
如在	-10.7748
縦	-10.7749
浣	-10.7749
夫豈	-10.775
流涕	-10.7751
也蓋	-10.7752
文辭	-10.7752
婁	-10.7753
優游	-10.7754
之東	-10.7754
建安	-10.7756
四日	-10.7759
瘁	-10.776
何敢	-10.7762
古來	-10.7763
堕	-10.7765
迅	-10.7769
能知	-10.777
雲氣	-10.777
遡	-10.7773
王師	-10.778
非不	-10.778
轂	-10.7782
名其	-10.7785
昂	-10.7785
緜	-10.7788
三四	-10.7791
講學	-10.7792
親戚	-10.7795
十一年	-10.7797
而死	-10.7798
豈特	-10.7802
變而	-10.7805
不啻	-10.7808
嬪	-10.781
五千	-10.7811
療	-10.7814
祭祀	-10.7814
蟹	-10.7815
佳句	-10.7815
烽	-10.7815
讐	-10.7817
落落	-10.7819
亦復	-10.7819
萬石	-10.7821
識之	-10.7821
官司	-10.7822
撼	-10.7822
颯	-10.7822
一室	-10.7828
待罪	-10.7829
問學	-10.7832
安之	-10.7833
悠	-10.7838
之兵	-10.7839
平地	-10.7841
感慨	-10.7842
圖書	-10.7842
祖諱	-10.7844
中丞	-10.7846
僕射	-10.7848
不可勝	-10.7848
其在	-10.7851
不可得而	-10.7853
知名	-10.7855
異日	-10.7859
只今	-10.7861
制度	-10.7864
趙氏	-10.7865
行者	-10.7866
簟	-10.7869
難得	-10.7872
所望	-10.7873
東方	-10.7873
濛	-10.7877
悶	-10.7877
砌	-10.7878
鳶	-10.788
學官	-10.7883
闡	-10.7885
賂	-10.7892
譲	-10.7895
為誰	-10.7895
右丞	-10.79
詩集	-10.7905
山人	-10.7907
給事中	-10.7909
畱	-10.7911
件	-10.7912
如水	-10.7914
知音	-10.7917
天下之事	-10.7918
人自	-10.7922
惶	-10.7923
來歸	-10.7927
倩	-10.7927
吾聞	-10.793
線	-10.7931
不從	-10.7933
江州	-10.7934
庻幾	-10.7934
生靈	-10.7936
酉	-10.7936
毗	-10.7937
髙宗	-10.7939
北海	-10.7948
更有	-10.7952
其徳	-10.7957
鏤	-10.7958
孱	-10.7959
之宜	-10.7959
王孫	-10.7964
鏘	-10.7966
而欲	-10.7967
䓁	-10.797
彚	-10.797
逞	-10.7976
朶	-10.7976
昨夜	-10.7976
家事	-10.7979
是亦	-10.7981
寂寂	-10.7989
年八十	-10.7992
之分	-10.7993
翮	-10.7993
欲其	-10.7995
家法	-10.7997
捫	-10.8004
搆	-10.8006
可得	-10.8012
剽	-10.8014
不以為	-10.8015
師道	-10.8016
之精	-10.8018
方寸	-10.8021
功業	-10.8025
秋色	-10.8027
無乃	-10.8028
循吏	-10.8029
教子	-10.803
孝弟	-10.8032
綜	-10.8033
冤	-10.8033
夜深	-10.8035
之䇿	-10.8036
金玉	-10.8037
舎人	-10.8037
擘	-10.804
亦云	-10.8041
之迹	-10.8042
傳之	-10.8043
之慶	-10.8055
性之	-10.8057
者多矣	-10.8058
文獻	-10.8059
東北	-10.8059
大理	-10.806
王室	-10.806
未成	-10.8065
苖	-10.8073
集序	-10.8073
相知	-10.8073
甘泉	-10.8077
韵	-10.808
宣撫	-10.8081
家世	-10.8081
功成	-10.8082
中賀	-10.8084
何似	-10.8084
者耶	-10.8085
漾	-10.8086
孔子之	-10.8091
可勝	-10.8091
有聞	-10.8093
孔明	-10.8095
聖朝	-10.8099
騫	-10.8101
藏之	-10.8101
姊	-10.8103
豈容	-10.8106
縣丞	-10.8106
非特	-10.8109
歸路	-10.811
主管	-10.811
牛羊	-10.811
今人	-10.8111
髓	-10.8112
涓	-10.8113
摭	-10.8114
經史	-10.8115
桀	-10.8115
桷	-10.8116
也惟	-10.8117
有五	-10.8119
筮	-10.812
在乎	-10.8126
所著	-10.8127
嗟夫	-10.8129
閬	-10.8129
魔	-10.813
胎	-10.8132
同一	-10.8136
大體	-10.8141
之序	-10.8143
感激	-10.8145
迪功郎	-10.8148
之位	-10.815
十五日	-10.8153
忘其	-10.8154
直道	-10.8155
子厚	-10.8159
今又	-10.816
季子	-10.8166
非常	-10.8169
壷	-10.817
之象	-10.8173
笑曰	-10.8175
摶	-10.8181
日益	-10.8186
之德	-10.8187
愛君	-10.8188
松風	-10.8189
邦人	-10.8191
曲折	-10.8192
等處	-10.8193
不果	-10.8194
風波	-10.8195
娱	-10.8196
宜有	-10.8196
㐮	-10.8199
傳聞	-10.8201
為學	-10.8203
學術	-10.8205
諳	-10.8205
靑	-10.8206
當以	-10.8211
鬰	-10.8217
繼之	-10.8219
工部	-10.8219
重來	-10.8221
秋日	-10.8223
猜	-10.8224
匡	-10.8225
奉聖㫖	-10.8226
叔父	-10.8227
㕓	-10.8228
出守	-10.8231
由來	-10.8234
不審	-10.8236
智者	-10.8237
瞽	-10.8238
仆	-10.8238
文正	-10.824
臨安	-10.8241
泝	-10.8244
明主	-10.8247
取士	-10.8254
奉詔	-10.8255
搏	-10.8255
幡	-10.8257
之光	-10.8257
加以	-10.826
不息	-10.8263
雷霆	-10.8268
斟	-10.8269
乆而	-10.8276
此非	-10.8278
八九	-10.8279
大明	-10.828
雲間	-10.8282
傳云	-10.8282
皎	-10.8285
瞰	-10.8285
此道	-10.8285
睨	-10.8286
不宜	-10.8294
不便	-10.8299
能使	-10.8301
盡心	-10.8304
皇皇	-10.8305
有異	-10.8305
其用	-10.8308
折衝	-10.8313
教人	-10.8315
樗	-10.8316
留守	-10.8317
而今	-10.8319
翛然	-10.8321
霓	-10.8321
知公	-10.8325
自愛	-10.8325
皇祐	-10.8325
此豈	-10.8328
溉	-10.8328
方外	-10.8329
近者	-10.833
父諱	-10.8331
江陵	-10.8332
生平	-10.8332
挑	-10.8333
瞑	-10.8335
不可復	-10.8335
以義	-10.8339
之尊	-10.8345
鄭公	-10.8347
鍳	-10.8347
牟	-10.8348
不滿	-10.8348
而來	-10.8352
名士	-10.8356
贓	-10.8358
寰	-10.836
穉	-10.8364
老杜	-10.8366
柰何	-10.8366
一曲	-10.8372
酹	-10.8373
擾擾	-10.8375
節制	-10.8376
維摩	-10.8377
頓首	-10.8379
於中	-10.8379
靡不	-10.8381
林泉	-10.8382
亥	-10.8383
聊復	-10.8384
公與	-10.8385
周官	-10.8385
相似	-10.839
安石	-10.839
存亡	-10.8391
特授	-10.8393
変	-10.8395
田園	-10.8396
白石	-10.8399
攄	-10.8404
腹心	-10.8406
跂	-10.8408
繋	-10.8413
寥	-10.8414
恨不	-10.8414
始得	-10.8415
也乃	-10.8416
孽	-10.8417
神宗	-10.842
岱	-10.8424
赤子	-10.8427
進士第	-10.8428
五六	-10.8429
糓	-10.8429
四夷	-10.8433
之害	-10.8435
當其	-10.8436
有年	-10.8437
霆	-10.8444
大名	-10.8444
幢	-10.8446
北斗	-10.8446
盛事	-10.8447
臺諫	-10.8448
告之	-10.8453
南方	-10.8456
即是	-10.8456
撤	-10.8465
貼	-10.8465
浙西	-10.8465
有加	-10.8465
自為	-10.8466
置酒	-10.8466
敵人	-10.8466
匈奴	-10.8467
倣	-10.8468
將有	-10.8468
而易	-10.847
桃源	-10.8471
扶持	-10.8472
敢以	-10.8473
陽春	-10.8474
表臣某言	-10.8477
愛民	-10.8478
命也	-10.8479
中人	-10.8479
有神	-10.8481
而取	-10.8483
口宣	-10.8485
之戒	-10.8489
聫	-10.8495
實録	-10.8499
裙	-10.8502
不能無	-10.8503
古文	-10.8504
宣王	-10.8505
元日	-10.8505
然有	-10.8507
罍	-10.8512
楊氏	-10.8513
安於	-10.8516
天下之人	-10.8522
何許	-10.8524
大師	-10.8525
股	-10.8526
歿	-10.8529
古人之	-10.853
乃有	-10.8531
拆	-10.8534
之班	-10.8535
偹	-10.8538
春水	-10.8538
青春	-10.8541
好惡	-10.8541
如雲	-10.8545
物也	-10.8545
殯	-10.8548
俠	-10.8548
將相	-10.855
無為	-10.8551
足矣	-10.8558
韓愈	-10.8564
麒麟	-10.8565
其始	-10.8565
羔	-10.8566
他時	-10.8567
墓誌	-10.8567
祖考	-10.8567
椎	-10.8568
一洗	-10.8569
而獨	-10.857
迓	-10.8578
萬斛	-10.8584
實為	-10.8587
受其	-10.8587
使我	-10.8588
公獨	-10.8591
暁	-10.8592
亦嘗	-10.8593
之極	-10.8595
吾友	-10.8596
韓詩	-10.8596
蘚	-10.8601
上方	-10.8602
成命	-10.8606
參知政事	-10.8606
釡	-10.8607
無能	-10.8609
此二	-10.8615
挫	-10.8617
佳人	-10.8618
騐	-10.8618
址	-10.8618
譙	-10.8627
非獨	-10.8629
出而	-10.8629
於家	-10.863
雪中	-10.8633
而反	-10.8633
於其間	-10.8637
乆之	-10.864
魯直	-10.8641
惆悵	-10.8643
潭州	-10.8644
婢	-10.8647
白雪	-10.8649
嫉	-10.865
應副	-10.8651
之音	-10.8653
聖人之道	-10.8657
辛苦	-10.8658
治道	-10.866
渝	-10.8663
年五十	-10.8671
其弟	-10.8673
以遺	-10.8673
何異	-10.8677
清江	-10.8679
南康	-10.8681
長子	-10.8683
六合	-10.8683
吸	-10.8684
壠	-10.8686
家傳	-10.8688
政和	-10.8688
不敏	-10.8688
某等	-10.8693
掣	-10.8695
黄河	-10.8696
都城	-10.8696
之具	-10.8696
核	-10.8697
依依	-10.8701
過人	-10.8702
聆	-10.8702
覓	-10.8705
或問	-10.8708
當有	-10.8709
五更	-10.8718
無極	-10.8724
願言	-10.8724
悽	-10.8726
别後	-10.8729
卿等	-10.8733
也盖	-10.8738
太后	-10.8738
鄞	-10.8739
所貴	-10.874
鉤	-10.874
皆得	-10.8742
未㡬	-10.8743
一門	-10.8744
前代	-10.8745
君父	-10.8753
道義	-10.8753
八百	-10.8753
徒以	-10.8754
約束	-10.8756
鳯凰	-10.8758
之威	-10.8759
人倫	-10.8759
豈易	-10.876
于世	-10.8761
鑾	-10.8762
得意	-10.8765
正直	-10.8765
漠漠	-10.8766
晉書	-10.8768
荆棘	-10.8773
其子孫	-10.8776
慳	-10.8776
名家	-10.8776
炭	-10.8778
檣	-10.8779
人户	-10.8781
不仁	-10.8783
陳迹	-10.8786
歸田	-10.8789
持節	-10.8793
甸	-10.8793
男女	-10.8795
大雅	-10.8796
經筵	-10.8798
焚香	-10.88
大用	-10.8802
不任	-10.8802
故有	-10.8802
有罪	-10.8803
生事	-10.8804
舶	-10.8809
無補	-10.8811
不治	-10.8813
集中	-10.8814
橐	-10.8816
謫仙	-10.8819
彞	-10.8822
㒺	-10.8828
榭	-10.883
帰	-10.8833
而至	-10.8836
題名	-10.8838
制勑	-10.8838
鹵	-10.884
秃	-10.8842
訥	-10.8842
不得而	-10.8842
何年	-10.8842
之英	-10.885
潢	-10.8851
諸州	-10.8852
飈	-10.8857
公家	-10.8858
有遺	-10.8858
留意	-10.8863
滛	-10.8864
其詩	-10.8864
久之	-10.8868
廣陵	-10.887
乃得	-10.887
園林	-10.8871
軍中	-10.8873
之休	-10.8873
能言	-10.8874
麽	-10.8874
見聞	-10.8879
萱	-10.8882
盛德	-10.8884
至治	-10.8884
銖	-10.8886
世有	-10.8887
繚	-10.8893
節度	-10.8894
其材	-10.8894
豈徒	-10.8896
可知也	-10.8899
縉紳	-10.8899
故家	-10.8899
癖	-10.89
王道	-10.89
庚申	-10.89
有光	-10.8903
債	-10.8903
不得其	-10.8903
卯	-10.8904
孰為	-10.8904
築室	-10.8906
不學	-10.8909
仁人	-10.891
隆興	-10.8911
宣慰	-10.8912
宰執	-10.8912
安用	-10.8914
與天	-10.8915
肺	-10.8916
楊栁	-10.8918
儒林	-10.8919
不允詔	-10.8922
無聞	-10.8924
紹聖	-10.8925
喉	-10.8927
居官	-10.893
賖	-10.8932
以奉	-10.8935
興起	-10.8938
慶厯	-10.8939
幾年	-10.8939
子貢	-10.894
而立	-10.894
深入	-10.8944
琅	-10.8947
匆匆	-10.8953
艷	-10.8955
語言	-10.8956
昔之	-10.8957
㤀	-10.8957
邑人	-10.8959
討論	-10.8961
不能以	-10.8967
天公	-10.8971
以進	-10.8976
瀑	-10.8981
此皆	-10.8983
篷	-10.8986
武夷	-10.8988
稱之	-10.8992
未遑	-10.8992
伶	-10.8992
先塋	-10.8993
弟兄	-10.8996
花落	-10.8996
太上	-10.9001
簇	-10.9007
棋	-10.9007
復以	-10.9009
不離	-10.9013
闘	-10.902
神道碑	-10.902
秩滿	-10.9021
時人	-10.9024
老杜詩	-10.9027
未應	-10.9028
無數	-10.903
歙	-10.9032
上元	-10.9032
黠	-10.9033
舊物	-10.9034
收拾	-10.9034
誰家	-10.904
不違	-10.9044
之忠	-10.9045
愜	-10.905
憶昔	-10.9051
燧	-10.9054
斃	-10.9055
囿	-10.9056
四方之	-10.9061
果何	-10.9062
詩卷	-10.9062
相國	-10.9066
天心	-10.907
故山	-10.907
竹林	-10.9071
韓退之	-10.9071
嚢	-10.9073
醮	-10.9073
笥	-10.9075
弁	-10.9076
複	-10.9076
不測	-10.9077
漪	-10.9077
開封府	-10.9078
異端	-10.908
十人	-10.9081
不䏻	-10.9081
湮	-10.9084
吾民	-10.9086
諗	-10.9089
其次	-10.909
使民	-10.9092
且以	-10.9095
伎	-10.9098
自立	-10.9098
年四十	-10.91
緝	-10.9103
以死	-10.9105
髙風	-10.9105
宣城	-10.9106
焉其	-10.9106
庠序	-10.9107
者猶	-10.9107
不思	-10.9107
成敗	-10.911
七人	-10.9114
踞	-10.9117
已矣	-10.9118
愠	-10.9118
人多	-10.9121
可得而	-10.9127
屡	-10.9128
自天	-10.9128
以時	-10.9129
杜牧	-10.9129
廣大	-10.9132
之祥	-10.9134
湖海	-10.9136
而起	-10.9136
筒	-10.9136
狡	-10.9138
考其	-10.9138
顒	-10.9141
始於	-10.9141
崔嵬	-10.9145
流離	-10.9145
本心	-10.9146
歐陽公	-10.9148
嘆曰	-10.9148
不立	-10.9149
賓客	-10.915
深處	-10.9154
閽	-10.9158
所爲	-10.916
五湖	-10.9161
方丈	-10.9165
聞於	-10.9165
相過	-10.9166
嬾	-10.9167
巔	-10.9168
其私	-10.9168
獨有	-10.917
滂	-10.9171
事功	-10.9171
山寺	-10.9171
思慮	-10.9175
行道	-10.9176
之南	-10.9177
晞	-10.9178
道德	-10.9179
婆娑	-10.9179
俎	-10.9181
鐸	-10.9183
有酒	-10.9183
之機	-10.9186
小子	-10.919
先生文集	-10.9192
明時	-10.9194
孺子	-10.9194
損益	-10.9195
皇極	-10.9195
兵部	-10.9195
委曲	-10.9199
下車	-10.9199
召還	-10.9201
泳	-10.9201
江頭	-10.9202
南海	-10.9203
瞿	-10.9209
固非	-10.9212
諤	-10.9213
荆湖	-10.9215
釋氏	-10.9217
孫女	-10.9218
年十月	-10.9222
牓	-10.9222
一章	-10.9224
少時	-10.9224
如之何	-10.9224
悴	-10.9225
給事	-10.9227
兇	-10.9227
得請	-10.923
縹緲	-10.9231
宫觀	-10.9236
韓公	-10.9236
一醉	-10.9238
國家之	-10.924
司空	-10.9241
頃刻	-10.9243
了無	-10.9243
南京	-10.9244
自非	-10.9245
北風	-10.9246
頸	-10.9247
相看	-10.9247
何曽	-10.9248
祭文	-10.9249
之貴	-10.9251
者今	-10.9251
臨風	-10.9252
吉州	-10.9252
凄凉	-10.9256
旒	-10.9258
鄴	-10.9259
尚何	-10.9267
這	-10.9269
之主	-10.9271
張子	-10.9274
未識	-10.9275
堯舜之	-10.9275
日月之	-10.9276
其理	-10.9276
亭亭	-10.9276
相忘	-10.9277
髣髴	-10.9277
曜	-10.928
於下	-10.9281
竅	-10.9281
河朔	-10.9282
霜露	-10.9288
瀕	-10.9288
屣	-10.929
用前韻	-10.9291
長短	-10.9294
瀉	-10.9294
歸於	-10.9295
知已	-10.9296
缾	-10.9298
雖云	-10.93
扆	-10.9303
歌詩	-10.9303
廣東	-10.9305
蓴	-10.9306
乃能	-10.9307
掀	-10.9307
推恩	-10.9307
財用	-10.9309
穫	-10.9312
不避	-10.9312
集巻三	-10.9312
雨後	-10.9313
又聞	-10.9313
子雲	-10.9313
冉冉	-10.9316
數千里	-10.9316
天寒	-10.9317
麈	-10.9317
蹕	-10.932
非常之	-10.9321
蝕	-10.9322
民心	-10.9328
宗師	-10.9329
山澤	-10.933
嘗為	-10.9337
夢寐	-10.9338
碌碌	-10.9342
自任	-10.9346
之吏	-10.9347
昉	-10.9347
我生	-10.9354
主上	-10.9355
一書	-10.9356
儆	-10.9356
泚	-10.9367
奏聞	-10.9368
不安	-10.9369
賢人	-10.937
一新	-10.9376
未安	-10.9377
四壁	-10.938
城東	-10.9381
之謂也	-10.9382
贑	-10.9389
怙	-10.9389
侍中	-10.9392
盞	-10.9395
非所以	-10.9396
平江	-10.94
涖	-10.9401
何可	-10.9402
其兄	-10.9405
有㫖	-10.9411
狩	-10.9412
契勘	-10.9412
大計	-10.9414
盛衰	-10.9427
南國	-10.9434
某日	-10.9437
字子	-10.9437
東陽	-10.944
昔年	-10.9442
官至	-10.9443
一卷	-10.9446
管仲	-10.9448
蝸	-10.9448
翩	-10.945
無幾	-10.945
甘棠	-10.9451
大道	-10.9451
則雖	-10.9452
暦	-10.9453
黄昏	-10.9455
到處	-10.9461
其法	-10.9463
瀘	-10.9464
之厚	-10.9467
久而	-10.9467
正色	-10.9469
施之	-10.947
里中	-10.947
未央	-10.9471
豚	-10.9474
顚	-10.9475
晚節	-10.9478
同心	-10.9478
明皇	-10.9479
推之	-10.948
蘇州	-10.9482
翫	-10.9485
太皇太后	-10.9489
不平	-10.9494
所不能	-10.9497
曰某	-10.9497
其利	-10.9499
反復	-10.9502
伏審	-10.9502
老翁	-10.9503
自適	-10.9503
心事	-10.9505
長松	-10.9506
承務郎	-10.9506
六七	-10.9507
乱	-10.9507
漣	-10.9507
螺	-10.9508
不自知	-10.9509
鶩	-10.951
而作	-10.951
㓛	-10.951
誰為	-10.9512
汰	-10.9512
嵓	-10.9517
聾	-10.9518
白鶴	-10.9518
吿	-10.9521
十首	-10.9525
授之	-10.9527
建昌	-10.9533
長樂	-10.9534
云爾	-10.9539
明詔	-10.954
欽承	-10.9545
冨貴	-10.9551
外物	-10.9551
䆒	-10.9555
敖	-10.9555
□	-10.9556
養生	-10.9556
蜀人	-10.9557
圉	-10.956
公墓誌銘	-10.956
奉祠	-10.956
子美	-10.9564
茸	-10.9565
中道	-10.9565
桑榆	-10.9569
也因	-10.9569
暮年	-10.957
十三年	-10.957
夫以	-10.9571
人欲	-10.9571
送李	-10.9577
巍巍	-10.9577
不憚	-10.9578
一氣	-10.9579
称	-10.9579
堰	-10.958
帷幄	-10.958
憩	-10.9584
縣尹	-10.9584
有四	-10.9586
未嘗有	-10.9588
知府	-10.9589
兩浙	-10.959
之西	-10.9591
平原	-10.9594
豈謂	-10.9595
承㫖	-10.9597
羽翼	-10.9598
霜雪	-10.9602
侍講	-10.9602
郡人	-10.9607
不畏	-10.9608
瑰	-10.9609
不敢以	-10.9609
籥	-10.9612
楫	-10.9614
而退	-10.9617
悅	-10.9621
扵此	-10.9622
泓	-10.9623
中流	-10.9624
弧	-10.9625
力學	-10.9627
名字	-10.963
風光	-10.9632
賄	-10.9632
之運	-10.9634
四百	-10.9636
中年	-10.9639
臞	-10.9639
箱	-10.9644
世所	-10.9645
異數	-10.9647
荔	-10.9648
尺寸	-10.965
長官	-10.965
瑤	-10.9652
有序	-10.9654
六人	-10.9655
在前	-10.9656
此邦	-10.9659
爾雅	-10.9659
保全	-10.9661
侍御史	-10.9663
法令	-10.9664
眼前	-10.9664
安人	-10.9664
生成	-10.9665
公在	-10.9668
械	-10.9673
帝王之	-10.9674
戱	-10.9675
湖北	-10.9675
淮東	-10.9676
愿	-10.9679
而可	-10.9679
壹	-10.9681
欲求	-10.9685
傳家	-10.9697
遨	-10.9698
長生	-10.9698
龍蛇	-10.9701
一舉	-10.9702
彭澤	-10.9702
跪	-10.9703
旂	-10.9704
矦	-10.9707
終於	-10.9707
一葉	-10.9707
閒居	-10.9707
數人	-10.9711
之隆	-10.9711
神武	-10.9711
糟	-10.9712
孟軻	-10.9713
袴	-10.9714
秋月	-10.9716
其性	-10.9719
劣	-10.972
文采	-10.9724
妬	-10.9724
以取	-10.973
御筆	-10.9731
斫	-10.9732
飄零	-10.9733
盂	-10.9736
不才	-10.9736
箠	-10.9737
者爲	-10.9739
尚未	-10.974
仰惟	-10.9751
不似	-10.9751
志在	-10.9753
以副	-10.9755
驢	-10.9755
犬馬	-10.9757
龍虎	-10.9757
則非	-10.9758
惓惓	-10.9759
畒	-10.9771
天地間	-10.9772
鄉黨	-10.9773
一出	-10.9775
夜月	-10.9777
諸孤	-10.9778
溍	-10.9782
趾	-10.9786
留連	-10.9786
之微	-10.9787
奉議郎	-10.9788
﨑嶇	-10.9789
琵琶	-10.979
行矣	-10.9791
之年	-10.9792
駁	-10.9793
謹具	-10.9793
笞	-10.9794
至則	-10.9794
燠	-10.9795
虬	-10.9797
支離	-10.9802
萬餘	-10.9802
開國	-10.9803
無地	-10.981
馥	-10.9812
雨過	-10.9815
茵	-10.9815
蠱	-10.9815
御史中丞	-10.9818
相親	-10.982
發於	-10.9821
職方	-10.9826
綰	-10.9826
律詩	-10.9828
城西	-10.9835
凜	-10.984
非其人	-10.9843
夫何	-10.9844
得志	-10.9847
予之	-10.9852
匹夫	-10.9854
眸	-10.9854
泠	-10.9856
雲漢	-10.9859
衿	-10.9861
固無	-10.9861
史官	-10.9863
治天下	-10.9865
前此	-10.9865
無意	-10.9866
躅	-10.9867
扄	-10.9869
范公	-10.9873
發其	-10.9873
當日	-10.9875
僑	-10.9875
遣人	-10.9878
人力	-10.9881
蘧	-10.9882
不愧	-10.9882
敢言	-10.9885
前去	-10.9886
逺方	-10.9889
里人	-10.9894
之𥘉	-10.9894
幙	-10.9894
城下	-10.9898
菊花	-10.9899
耆舊	-10.9902
期於	-10.9904
傷心	-10.9905
孫子	-10.991
捄	-10.9917
婆	-10.9919
氷雪	-10.9919
不惜	-10.9922
嫡	-10.9923
落筆	-10.9924
有味	-10.9926
毫髪	-10.9926
永叔	-10.993
開封	-10.9933
温公	-10.9933
拾遺	-10.9936
誰謂	-10.994
立言	-10.9942
安縣	-10.9942
池上	-10.9944
同列	-10.9944
磊落	-10.9946
祕書	-10.9946
眼中	-10.9952
躁	-10.9953
奉行	-10.9956
者所以	-10.9956
斡	-10.9957
騁	-10.9958
飄飄	-10.9959
制勅	-10.996
鬛	-10.9962
退之詩	-10.9962
者當	-10.9963
慄	-10.9964
四川	-10.9964
吾廬	-10.9966
藪	-10.9967
蘇公	-10.9968
凟	-10.9968
秖	-10.9971
杪	-10.9971
衣裳	-10.9972
小詩	-10.9972
無憾	-10.9973
崑崙	-10.9974
俘	-10.9975
顧我	-10.9978
杯酒	-10.9978
家貧	-10.9983
燦	-10.9987
縣官	-10.999
洋洋	-10.9992
青衫	-10.9993
世故	-10.9993
王君	-10.9993
及於	-10.9994
不傳	-10.9998
酋	-10.9999
杲	-10.9999
席上	-11
南州	-11.0001
諛	-11.0001
黼	-11.0002
俛	-11.0003
區區之	-11.0004
聲色	-11.0004
相識	-11.0007
駟	-11.0009
淛	-11.001
那得	-11.001
於是乎	-11.001
乃是	-11.0011
淮海	-11.0012
濺	-11.0017
天下之大	-11.0018
為言	-11.0022
吾君	-11.0023
猾	-11.0023
可行	-11.0024
畫圖	-11.0025
能盡	-11.0026
論之	-11.0028
受之	-11.0028
庶乎	-11.0028
鬟	-11.0032
數萬	-11.0032
交情	-11.0037
按察	-11.0039
無處	-11.0041
五雲	-11.0041
蘭亭	-11.0041
榴	-11.0043
咸淳	-11.0048
旌旗	-11.0048
文昌	-11.0049
一巻	-11.0052
則天下	-11.0059
風物	-11.0065
山頭	-11.0065
翕然	-11.0066
碣	-11.0067
平昔	-11.0068
杖屨	-11.0069
眉山	-11.0071
無任	-11.0072
所傳	-11.0073
所以爲	-11.0074
未發	-11.0075
軍旅	-11.0076
時方	-11.0077
送王	-11.0077
孰知	-11.0078
粲然	-11.0078
客來	-11.008
蚊	-11.008
哈	-11.008
無過	-11.0081
讜	-11.0082
修身	-11.0082
為民	-11.0082
龜山	-11.0084
自足	-11.0084
鎮江	-11.0089
可知矣	-11.009
自以為	-11.0091
嗤	-11.0091
瘳	-11.0092
十八日	-11.0099
方其	-11.0101
紈	-11.0102
今兹	-11.011
此去	-11.0112
萬壑	-11.0112
臨事	-11.0112
裡	-11.0112
鏗	-11.0114
甑	-11.0114
杓	-11.0115
一㸃	-11.0118
國用	-11.0119
拭	-11.012
九江	-11.0121
京口	-11.0122
樓臺	-11.0124
秋毫	-11.0129
遺書	-11.0131
起於	-11.0134
壁間	-11.0138
親見	-11.0139
賢良	-11.0143
顛倒	-11.0143
而忘	-11.0147
揚子	-11.0148
于外	-11.015
去就	-11.015
亦既	-11.0151
登髙	-11.0153
究其	-11.0157
不利	-11.0159
名節	-11.016
重輕	-11.0165
今已	-11.0168
禰	-11.0172
天威	-11.0172
憇	-11.0173
天下之士	-11.0176
小人之	-11.0178
旦夕	-11.0179
亦知	-11.0181
十六年	-11.0182
細雨	-11.0182
松栢	-11.0183
嘶	-11.0185
三軍	-11.0186
脊	-11.0188
髻	-11.0188
雲霄	-11.0188
虚名	-11.0188
冺	-11.0189
燾	-11.019
郡邑	-11.0192
黛	-11.0195
湫	-11.0199
刻石	-11.0199
丙子	-11.02
長城	-11.02
噬	-11.0202
有所不	-11.0204
亦足	-11.0208
丈人	-11.0211
獻納	-11.0213
東都	-11.0214
疫	-11.0214
寵光	-11.0216
可愛	-11.0217
皇天	-11.0217
月下	-11.0219
笳	-11.022
日與	-11.022
具奏	-11.0221
鉏	-11.0233
諸司	-11.0234
此乃	-11.0236
山前	-11.0242
大理寺丞	-11.0242
二女	-11.0244
麴	-11.0247
之㫖	-11.0247
劫	-11.0251
濟南	-11.0252
我獨	-11.0253
䰟	-11.0257
當然	-11.0258
玉山	-11.0259
公自	-11.0264
史館	-11.0264
甲申	-11.0265
拄	-11.0268
一夫	-11.0268
一郡	-11.0269
清談	-11.027
行路	-11.0271
送張	-11.0271
丙午	-11.0274
至仁	-11.0275
名之曰	-11.0276
作者	-11.0277
淳熙	-11.0279
駸駸	-11.028
介甫	-11.0282
甚多	-11.0283
二十日	-11.0283
涎	-11.0284
亦已	-11.0286
亹亹	-11.0298
經年	-11.0298
皆為	-11.0303
余嘗	-11.0303
煌煌	-11.0304
進取	-11.0305
不報	-11.0306
脈	-11.0307
不能盡	-11.0307
身世	-11.0314
釵	-11.032
大業	-11.032
亾	-11.0324
莫知	-11.0324
有待	-11.0327
皇太子	-11.0327
中夜	-11.0329
爼	-11.0329
一再	-11.0331
一編	-11.0331
躬行	-11.0331
杏花	-11.0336
蒼苔	-11.0337
突兀	-11.0339
年八月	-11.0341
光禄	-11.0342
疑其	-11.0342
暘	-11.0347
流行	-11.0349
港	-11.0351
幽居	-11.0351
累贈	-11.0354
訶	-11.0355
沴	-11.0357
也彼	-11.0365
妓	-11.0365
不可以不	-11.0367
孜孜	-11.0367
悰	-11.0373
樁	-11.0375
後先	-11.0378
逓	-11.0379
祠堂	-11.038
飄然	-11.038
餘力	-11.0381
妥	-11.0381
近年	-11.0381
孤山	-11.0383
杉	-11.0387
𢾗	-11.0388
直言	-11.0389
不禁	-11.0389
士民	-11.039
之務	-11.0393
搔	-11.0395
朝陽	-11.0396
窠	-11.0401
臺閣	-11.0402
筦	-11.0404
玉樹	-11.0406
恭以某官	-11.0407
曾子	-11.0408
熙寧	-11.041
財賦	-11.0411
最為	-11.0411
宗正	-11.0415
驅馳	-11.0417
竟何	-11.0419
送客	-11.042
方且	-11.042
奏狀	-11.0422
仞	-11.0423
當路	-11.0425
北方	-11.0426
風雷	-11.0428
論文	-11.0431
磊	-11.0432
穩	-11.0435
觀察	-11.0436
古道	-11.0437
同前	-11.044
碧雲	-11.044
菑	-11.0442
非是	-11.0444
欒	-11.0445
文正公	-11.0451
責之	-11.0454
陬	-11.0454
壬辰	-11.0454
其氣	-11.0455
偶成	-11.0458
官制	-11.0459
虎豹	-11.0459
遇事	-11.046
行樂	-11.0461
太常博士	-11.0463
僮	-11.0463
得名	-11.0463
壌	-11.0464
之基	-11.0464
自持	-11.0467
浩浩	-11.0468
當今	-11.0469
即今	-11.047
安可	-11.047
麤	-11.0476
皂	-11.0477
察之	-11.0477
清溪	-11.048
松竹	-11.0484
發揮	-11.0486
癯	-11.0488
衆生	-11.0493
謹按	-11.0495
十六日	-11.0496
如玉	-11.0501
軋	-11.0502
蒐	-11.0503
倉卒	-11.0503
是年	-11.0505
喙	-11.0506
惜其	-11.0508
漢家	-11.051
前漢	-11.0513
甘露	-11.0515
次曰	-11.0518
法從	-11.0519
悄	-11.0523
不取	-11.0525
軍民	-11.0525
粱	-11.0527
安樂	-11.0527
凛凛	-11.0529
年四月	-11.0536
赫赫	-11.0536
不稱	-11.0537
况復	-11.0537
矛	-11.0539
文詞	-11.0541
閙	-11.0546
炬	-11.0549
衘	-11.0549
瓠	-11.0553
物外	-11.0554
之亂	-11.0556
春光	-11.0556
深知	-11.0556
不寐	-11.0558
燼	-11.0563
白樂天	-11.0563
未有不	-11.0568
斯道	-11.0569
和尚	-11.057
孝宗	-11.0571
䡖	-11.0573
不計	-11.0574
爾其	-11.0578
元老	-11.0581
不遑	-11.0581
縫	-11.0584
顆	-11.0584
之習	-11.0585
概	-11.0587
閤門	-11.059
中山	-11.059
明經	-11.0591
空言	-11.0594
竊聞	-11.0594
何能	-11.0598
撃	-11.06
旃	-11.0601
凛然	-11.0604
自來	-11.0606
以孝	-11.0608
言行	-11.0612
世道	-11.0612
猶存	-11.0617
不移	-11.0617
綃	-11.062
一曰	-11.0621
孰謂	-11.0622
寤	-11.0627
矣若	-11.0628
十有五	-11.0635
將來	-11.0637
洩	-11.0638
邪正	-11.0641
未覺	-11.0642
之譽	-11.0644
有詔	-11.0652
虀	-11.0652
薇	-11.0654
東坡詩	-11.0654
文物	-11.0659
行李	-11.0659
或可	-11.0661
涪	-11.0663
南史	-11.0663
用韻	-11.0664
既已	-11.0665
淺深	-11.0667
林間	-11.0669
身後	-11.0669
龕	-11.0672
定國	-11.0673
異乎	-11.0674
邕	-11.0677
吁嗟	-11.0678
春來	-11.0678
其位	-11.0678
千丈	-11.0679
滔滔	-11.0684
内翰	-11.0685
譯	-11.0686
聖意	-11.0687
願陛下	-11.0687
而無所	-11.0689
飫	-11.0689
吏部侍郎	-11.069
十有一	-11.0692
詞章	-11.0694
又言	-11.0694
亦不能	-11.0695
某氏	-11.0695
可以為	-11.0701
伽	-11.0702
梟	-11.0703
開府	-11.0706
不難	-11.071
五世	-11.0711
寥寥	-11.0711
啜	-11.0712
岷	-11.0714
春草	-11.0717
嗚	-11.072
茫然	-11.072
十一日	-11.0724
瑜	-11.0725
陽縣	-11.0732
遺文	-11.0732
而實	-11.0735
不曽	-11.0737
樽酒	-11.0738
古木	-11.074
語曰	-11.074
滿眼	-11.0743
辝	-11.0753
思所以	-11.0753
知己	-11.0753
家居	-11.0757
鄭氏	-11.0761
必得	-11.0764
朕惟	-11.0765
昊	-11.0766
不變	-11.0769
半夜	-11.0773
嬴	-11.0776
序送	-11.0776
御書	-11.0776
别駕	-11.0779
一等	-11.0779
司理	-11.0783
伯父	-11.0785
珠玉	-11.0788
亦足以	-11.0788
竟不	-11.0789
䜛	-11.0791
為主	-11.0792
李君	-11.0793
嘗有	-11.0794
太和	-11.0795
欲使	-11.0796
赴闕	-11.0798
南風	-11.08
鄉閭	-11.08
哀哉	-11.0801
籖	-11.0802
之俗	-11.0803
疋	-11.0812
流傳	-11.0814
憊	-11.0816
淳祐	-11.0817
五里	-11.0817
五十年	-11.0817
溝壑	-11.0819
一經	-11.0823
五帝	-11.0825
十三日	-11.0827
轉官	-11.083
之所在	-11.0834
亦難	-11.0835
尓	-11.0837
舉世	-11.0837
召公	-11.0838
問訊	-11.0838
山居	-11.0839
勲業	-11.084
言事	-11.0841
錦繡	-11.0841
祖父	-11.0845
一麾	-11.0847
正是	-11.0847
易曰	-11.0847
顰	-11.0848
絲綸	-11.0849
亦然	-11.0851
閨門	-11.0851
佳處	-11.0852
陳君	-11.0853
武陵	-11.0853
已成	-11.0853
丹砂	-11.0855
平陽	-11.086
王事	-11.0861
某敢不	-11.0863
装	-11.0864
固當	-11.0865
不輕	-11.0867
中書舍人	-11.0867
封侯	-11.0869
天聖	-11.087
焉故	-11.087
皆非	-11.0873
其國	-11.0874
秧	-11.0875
亦多	-11.0876
髭	-11.0877
芋	-11.0877
河陽	-11.0879
宣帝	-11.088
博學	-11.0881
卭	-11.0889
存焉	-11.0896
化為	-11.0896
興亡	-11.0897
乎夫	-11.0897
十七日	-11.0898
盥	-11.09
五福	-11.0903
萬物之	-11.0906
動静	-11.0908
風雪	-11.0909
功徳	-11.091
之表	-11.0911
諸侯之	-11.0912
軻	-11.0914
開府儀同三司	-11.0914
後進	-11.092
我今	-11.092
非敢	-11.0921
朱氏	-11.0924
匝	-11.0926
光輝	-11.0926
柬	-11.0926
愕	-11.0927
今世	-11.0928
臯陶	-11.0929
且曰	-11.0935
郊祀	-11.0935
又謂	-11.0939
田家	-11.094
元昊	-11.0941
醖	-11.0941
廂	-11.0944
丹陽	-11.0944
氏封	-11.0945
君看	-11.0945
筆力	-11.0953
山陽	-11.0954
無敢	-11.0955
蜚	-11.0957
笑談	-11.096
澄清	-11.0962
經略	-11.0964
青燈	-11.0965
曾孫	-11.0966
漬	-11.0967
莫非	-11.0969
任使	-11.097
哦	-11.0972
銘銘曰	-11.0972
亦當	-11.0972
可疑	-11.0972
所恃	-11.0977
敢望	-11.0978
慝	-11.0981
丘壑	-11.0983
滁	-11.0983
土木	-11.0988
故云	-11.099
弹	-11.0991
苞	-11.0991
舫	-11.0992
藐	-11.0995
尚能	-11.0999
餘年	-11.0999
孔氏	-11.0999
藕	-11.1001
遺風	-11.1001
滓	-11.1004
石室	-11.1005
宫室	-11.1005
别離	-11.1006
彼此	-11.1014
徐州	-11.1016
與物	-11.1016
餘事	-11.1018
之嚴	-11.102
列聖	-11.1029
日夕	-11.1029
此等	-11.1031
九天	-11.1032
故里	-11.1032
慾	-11.1032
同志	-11.1034
二聖	-11.1037
如是則	-11.1039
舡	-11.104
善類	-11.1041
騶	-11.1042
源流	-11.1043
河漢	-11.1043
底事	-11.1044
丁寧	-11.1045
手自	-11.1047
枝葉	-11.1054
所請	-11.1055
使天下	-11.1056
鉉	-11.1058
録事	-11.1058
弱冠	-11.1061
盡日	-11.1068
紂	-11.1071
謝公	-11.1074
柰	-11.1077
之墓	-11.1077
然後知	-11.1078
衮衮	-11.1081
異同	-11.1085
秋雨	-11.1087
耦	-11.1089
遺愛	-11.1091
澁	-11.1093
太史公	-11.1093
南軒	-11.1094
吟詩	-11.1095
孰與	-11.1099
之問	-11.11
昆弟	-11.11
伯仲	-11.11
嗟我	-11.1104
飛來	-11.1104
張君	-11.1105
避地	-11.1106
二三子	-11.1107
逆旅	-11.1108
毫釐	-11.1111
清廟	-11.1113
石上	-11.1114
歲時	-11.1118
糞	-11.1123
多情	-11.1124
慤	-11.1124
燥	-11.1124
告成	-11.1127
賸	-11.1131
窒	-11.1133
北門	-11.1134
埽	-11.1136
宜其	-11.1141
無盡	-11.1146
車駕	-11.1148
右某	-11.1148
禁中	-11.1153
恐懼	-11.1157
蕚	-11.1158
柴門	-11.1158
樂事	-11.1158
固知	-11.1165
赤壁	-11.1174
綂	-11.1177
長吏	-11.118
制勅具官某	-11.1181
轉運	-11.1183
噴	-11.1185
始至	-11.1188
厦	-11.1189
所稱	-11.1192
波濤	-11.1192
事體	-11.1196
青州	-11.1197
十四年	-11.1198
歸心	-11.1203
太保	-11.1205
凌雲	-11.1206
分别	-11.1207
休息	-11.1208
尖	-11.1212
威儀	-11.1212
二絶	-11.1213
道理	-11.1214
奪之	-11.1221
瞳	-11.1224
盲	-11.1224
陋巷	-11.1227
水火	-11.1227
是皆	-11.1228
積善	-11.1229
紛紜	-11.123
長年	-11.1232
照臨	-11.1241
不察	-11.1241
廣文	-11.1242
杜陵	-11.1246
庚子	-11.1246
自守	-11.1251
而巳矣	-11.1251
擴	-11.1251
鎔	-11.1255
屈原	-11.1256
何在	-11.1256
半生	-11.1262
不煩	-11.1263
數十年	-11.1263
廣西	-11.1266
寸心	-11.1266
曇	-11.1266
𠂻	-11.1269
𤨏	-11.1269
貎	-11.1269
囘首	-11.127
僵	-11.1276
愛人	-11.1278
予嘗	-11.1279
慊	-11.128
者莫不	-11.128
千嵗	-11.1281
武功	-11.1282
下情	-11.1287
典禮	-11.1288
無定	-11.1291
杵	-11.1292
廖	-11.1292
未忘	-11.1293
愬	-11.1293
之益	-11.1295
樞密院	-11.1295
吉甫	-11.1298
山間	-11.1301
東流	-11.1302
窄	-11.1302
野老	-11.1302
相遇	-11.1302
家庭	-11.1303
清香	-11.1303
顏	-11.1303
御史臺	-11.1307
縞	-11.1307
同僚	-11.1307
伏惟某官	-11.1309
筋力	-11.1311
東歸	-11.1311
南郊	-11.1315
飡	-11.1316
梳	-11.1317
餒	-11.1318
但恐	-11.1319
鯁	-11.132
首尾	-11.132
糠	-11.132
握手	-11.1321
娘	-11.1322
忠宣	-11.1322
逵	-11.1323
葭	-11.1324
故舊	-11.1324
舟楫	-11.1326
上意	-11.1333
殿下	-11.1336
江北	-11.1337
畫像	-11.134
宴坐	-11.1341
彷彿	-11.1344
而愈	-11.1347
卞	-11.1348
纍	-11.135
厥後	-11.1353
篙	-11.1354
吾鄉	-11.1355
補之	-11.1357
二曰	-11.1359
汶	-11.1361
扞	-11.1364
明珠	-11.1364
休戚	-11.1367
悲夫	-11.1368
善政	-11.137
丑	-11.137
霖雨	-11.137
髙堂	-11.137
鶻	-11.1372
西方	-11.1373
譬之	-11.1374
風味	-11.1375
毓	-11.1375
俚	-11.1375
國勢	-11.1376
秋聲	-11.1378
白鷗	-11.1378
手書	-11.138
累年	-11.138
孤舟	-11.1392
之言曰	-11.1393
瀟湘	-11.1395
珍重	-11.1397
諫官	-11.1398
恢復	-11.1402
軍節度	-11.1406
國子監	-11.1406
太行	-11.1409
霰	-11.141
洪範	-11.1411
紊	-11.1414
敷陳	-11.1414
勞苦	-11.1417
景仁	-11.1423
往還	-11.1423
離離	-11.1425
端明	-11.1428
丙辰	-11.1428
懌	-11.1429
小臣	-11.1429
竚	-11.1429
江流	-11.1433
貢舉	-11.1435
殊未	-11.1435
謝安	-11.144
可笑	-11.1442
聖徳	-11.1446
七八	-11.1447
家聲	-11.1449
好古	-11.1449
城縣	-11.1453
唇	-11.1453
纍纍	-11.1453
奩	-11.1456
揔	-11.1456
太公	-11.1457
扼	-11.1457
將士	-11.1461
朋黨	-11.1462
紫芝	-11.1465
子産	-11.1468
何物	-11.1471
酒酣	-11.1472
南宫	-11.1473
天機	-11.1473
之域	-11.1475
菱	-11.1477
羇	-11.1478
春寒	-11.1478
誠意	-11.148
行義	-11.1481
飛鳥	-11.1483
阨	-11.1484
雪霜	-11.1484
和平	-11.1487
脩竹	-11.1492
蜀道	-11.1494
軒冕	-11.1496
楊子	-11.1497
廸	-11.1497
尚存	-11.1498
不湏	-11.1506
尭	-11.1512
太平之	-11.1514
有懐	-11.1514
是宜	-11.1514
少保	-11.1516
更化	-11.1516
十巻	-11.1517
迥	-11.1517
臣願陛下	-11.1518
士人	-11.1526
甲寅	-11.1526
祕閣	-11.1527
未艾	-11.1528
真定	-11.1529
不失其	-11.1529
可考	-11.153
高明	-11.1532
玲瓏	-11.1533
鄆	-11.1533
弋	-11.1537
儒術	-11.1541
朝來	-11.1541
立法	-11.1542
平安	-11.1542
吾儕	-11.1543
撫州	-11.1546
野水	-11.1547
經濟	-11.1547
舩	-11.1547
清流	-11.1548
承事郎	-11.155
輅	-11.1552
厠	-11.1552
居然	-11.1554
䝉恩	-11.1554
山僧	-11.1558
性情	-11.1558
郡王	-11.1558
裊	-11.1558
十有六	-11.1559
聖神	-11.156
髙帝	-11.1564
不知何	-11.1565
亶	-11.1567
荆公	-11.1568
𧺫	-11.157
氏墓誌銘	-11.1577
墉	-11.1581
㽞	-11.1581
西域	-11.1583
劭	-11.1583
千山	-11.1584
宣諭	-11.1585
矣哉	-11.1586
光隂	-11.1587
否則	-11.159
未肯	-11.159
非徒	-11.159
祈雨	-11.159
其為人	-11.1591
二十七	-11.1591
丙申	-11.1596
逖	-11.1597
半年	-11.16
伏覩	-11.1604
投老	-11.1604
經義	-11.1607
曄	-11.1608
㡬何	-11.161
徜徉	-11.1615
何幸	-11.1616
暈	-11.1617
沔	-11.1618
之所能	-11.1618
邦國	-11.1621
先君子	-11.1621
詩酒	-11.1623
果有	-11.1623
又嘗	-11.1625
蒼茫	-11.1627
登山	-11.1629
清夜	-11.163
堯卿	-11.163
琦	-11.1631
百五十	-11.1634
繡衣	-11.1638
其害	-11.1639
聖心	-11.1639
短長	-11.1642
其孤	-11.165
忽然	-11.1653
蛩	-11.1656
與天地	-11.1659
煉	-11.1659
遹	-11.1662
舊章	-11.1664
噪	-11.1667
掬	-11.1669
宜人	-11.1671
荼	-11.1672
兩宫	-11.1672
燔	-11.1675
恨無	-11.1677
及第	-11.1678
門生	-11.1679
入覲	-11.1687
再和	-11.1688
天竺	-11.1689
燬	-11.1689
太上皇帝	-11.1691
簿領	-11.1693
也然而	-11.1693
杖藜	-11.1696
惟神	-11.1699
遘	-11.17
怍	-11.1701
台州	-11.1703
風聲	-11.1704
上流	-11.1706
臣伏見	-11.1706
失所	-11.1709
服除	-11.171
聖慈	-11.1711
鼓舞	-11.1711
見贈	-11.1711
胡氏	-11.1711
行役	-11.1711
其體	-11.1711
駮	-11.1712
萬夫	-11.1713
敕具官某	-11.1715
百户	-11.1718
三載	-11.1719
地下	-11.172
名實	-11.1722
撑	-11.1727
溪水	-11.1728
入城	-11.1729
最後	-11.1729
前年	-11.1733
喘	-11.174
厓	-11.174
涵養	-11.1743
刮	-11.1744
􁀙	-11.1744
餘慶	-11.1747
桴	-11.1757
十四日	-11.1758
西州	-11.1763
自喜	-11.1764
寛大	-11.1765
亰	-11.1766
年五月	-11.1766
坐令	-11.1766
無涯	-11.1768
爪	-11.1768
舟行	-11.1769
綱紀	-11.1769
之辰	-11.1774
鱸	-11.1775
魚龍	-11.1775
蘇軾	-11.1776
制勑具官某	-11.1776
班固	-11.1777
偃蹇	-11.1781
諸道	-11.1783
佃	-11.1785
賑濟	-11.1787
潤色	-11.1788
仕宦	-11.1791
圖畫	-11.1793
惜哉	-11.1794
本軍	-11.1795
都督	-11.1798
轉一官	-11.1799
盡力	-11.18
帝曰	-11.18
漫漫	-11.1804
醅	-11.1808
鶴山	-11.181
科目	-11.1818
史氏	-11.1823
冥冥	-11.1824
寒泉	-11.1824
肄	-11.1827
神靈	-11.1829
使節	-11.1835
里閭	-11.1838
芍藥	-11.1838
一樽	-11.1839
祖妣	-11.184
相接	-11.184
京東	-11.184
㳙	-11.1844
吏事	-11.1845
十九年	-11.1849
風動	-11.185
清泉	-11.1851
而不為	-11.1852
六藝	-11.1853
刷	-11.1854
蓍	-11.1856
思歸	-11.1856
深思	-11.1856
飮	-11.1857
圯	-11.1857
之意也	-11.1859
燕子	-11.1859
國人	-11.186
謝表	-11.1861
堂下	-11.1863
科第	-11.1863
今夕	-11.1863
不給	-11.1866
星斗	-11.1867
筆墨	-11.1868
法師	-11.1874
吉凶	-11.1875
到此	-11.1877
墓銘	-11.1877
頺	-11.1881
夔	-11.1883
居民	-11.1886
昔日	-11.1889
騷人	-11.1891
揀	-11.1892
扃	-11.1894
肴	-11.1894
郝	-11.1896
相應	-11.1896
黽勉	-11.1896
宫中	-11.1898
黄庭	-11.19
不然則	-11.1901
詫	-11.1906
抹	-11.1907
大賢	-11.1908
再見	-11.1908
物色	-11.1909
仄	-11.1911
出納	-11.1913
大槩	-11.1913
少留	-11.1914
舅姑	-11.1915
端平	-11.1915
山房	-11.1917
求諸	-11.1921
㪚	-11.1923
瘞	-11.1924
隨時	-11.1925
東門	-11.1926
去處	-11.1931
年九月	-11.1931
還朝	-11.1932
佀	-11.1933
承議郎	-11.1936
臼	-11.1937
松江	-11.1938
朂	-11.194
癘	-11.1942
据	-11.1942
詒	-11.1943
許國	-11.1943
華嚴	-11.1943
長嘯	-11.1947
子夏	-11.1947
侍讀	-11.195
犒	-11.1951
唯有	-11.1953
長歌	-11.1955
太古	-11.1961
大國	-11.1962
一句	-11.1963
犂	-11.1965
城市	-11.1965
洙泗	-11.1968
白馬	-11.1971
前軰	-11.1972
也於是	-11.1975
先正	-11.1976
窈窕	-11.1977
相率	-11.1979
籲	-11.1981
貿	-11.1983
祥符	-11.1984
揜	-11.1984
㵼	-11.1992
吼	-11.1993
私意	-11.1993
遥知	-11.1994
陰陽	-11.1996
不敢不	-11.1996
京城	-11.1996
所部	-11.1997
也况	-11.1998
云何	-11.2004
甚善	-11.2005
擷	-11.2006
鸎	-11.2007
取諸	-11.2009
牡	-11.2011
早卒	-11.2012
也答	-11.2019
稍稍	-11.2019
朝奉大夫	-11.202
吻	-11.2022
歌曰	-11.2022
薤	-11.2024
年二十	-11.2024
淹留	-11.2034
窆	-11.2038
崛	-11.2039
鑠	-11.2039
孝悌	-11.2039
孫氏	-11.2041
令尹	-11.2041
治民	-11.2047
彂	-11.2055
石門	-11.2056
歸休	-11.2056
十有八	-11.206
炷	-11.2061
丁未	-11.2063
蓼	-11.2063
馬蹄	-11.2064
責其	-11.2064
珥	-11.2066
將仕郎	-11.2066
予言	-11.2072
諉	-11.2072
汗漫	-11.2072
吾黨	-11.2073
不苟	-11.2074
巘	-11.2076
尤甚	-11.2078
固辭	-11.2078
驤	-11.208
八卦	-11.208
莘	-11.208
大政	-11.2081
月色	-11.2082
行中書省	-11.2083
尚饗	-11.2086
自奮	-11.209
蕨	-11.209
蹉跎	-11.2091
惘	-11.2093
程氏	-11.2093
長史	-11.2093
饕	-11.2094
空餘	-11.2097
棟宇	-11.2102
貞觀	-11.2102
右司	-11.2104
慱	-11.2109
甓	-11.2112
無忘	-11.2113
未定	-11.212
二府	-11.2121
盪	-11.2122
上聞	-11.2122
豈止	-11.2127
訾	-11.2127
多聞	-11.2131
千尺	-11.2135
剔	-11.2139
留題	-11.2142
文忠公	-11.2143
未見其	-11.2146
初心	-11.215
景物	-11.215
針	-11.2152
繒	-11.2156
隠居	-11.2158
分符	-11.2159
形骸	-11.2159
嵗晚	-11.2162
相承	-11.2162
疾苦	-11.2163
誰識	-11.2165
姑蘇	-11.2167
而逝	-11.2167
撞	-11.2168
婺州	-11.2169
堡	-11.217
筆端	-11.2171
赤松	-11.2173
規矩	-11.2174
卒于	-11.2175
田野	-11.218
編修	-11.2181
大士	-11.2183
磨勘	-11.2185
前世	-11.2185
百工	-11.2188
凡此	-11.2189
雲夢	-11.2194
雞鳴	-11.2196
鸚鵡	-11.2196
鳳凰	-11.2199
觀音	-11.2204
醉中	-11.2205
周公之	-11.2207
吕氏	-11.2208
漁樵	-11.2214
場屋	-11.2214
固巳	-11.2215
摩詰	-11.2216
監丞	-11.222
不可及	-11.2221
看花	-11.2223
宣教郎	-11.2225
泉州	-11.2225
氣質	-11.2225
竊見	-11.2226
錮	-11.2228
犧	-11.2229
遺恨	-11.2232
跌	-11.2239
朝暮	-11.224
西漢	-11.2244
第十	-11.2245
在昔	-11.2247
雨聲	-11.2248
元戎	-11.2252
曦	-11.2254
刑獄	-11.2255
抉	-11.2256
僅存	-11.2257
嘘	-11.2259
京西	-11.2259
忽忽	-11.2264
烟霞	-11.2265
于兹	-11.2265
南豐	-11.2266
聖㫖	-11.2267
崢嶸	-11.2267
中奉大夫	-11.2267
固宜	-11.2268
它日	-11.2269
諄諄	-11.227
具瞻	-11.2276
次其韻	-11.2276
未到	-11.2277
贈太師	-11.2279
儒生	-11.2281
梧桐	-11.2282
何者	-11.2283
雩	-11.2283
一飽	-11.2284
歴歴	-11.2286
上供	-11.2286
年七月	-11.229
士氣	-11.2291
西園	-11.2293
但知	-11.2294
陲	-11.2296
膾	-11.2299
萬世之	-11.2301
禮部尚書	-11.2301
病中	-11.2305
四海之	-11.2306
壬子	-11.2311
朝請大夫	-11.2313
甃	-11.2314
意思	-11.2314
買田	-11.2315
勛	-11.2316
甚厚	-11.2316
江城	-11.2317
苴	-11.2317
殿中丞	-11.2319
纛	-11.2319
無罪	-11.2325
琅玕	-11.2326
年華	-11.2327
牎	-11.2328
光景	-11.2337
甲午	-11.2339
汩	-11.234
邊事	-11.2341
紏	-11.2342
太府	-11.2342
之懿	-11.2347
十有七	-11.2348
大率	-11.2348
種種	-11.235
亦可以	-11.2351
人主之	-11.2355
市井	-11.2356
期㑹	-11.2358
二十六	-11.2364
宰臣	-11.2366
夜坐	-11.2368
在兹	-11.2369
叠	-11.2372
郞	-11.2372
椀	-11.2373
萬方	-11.2374
蘖	-11.2374
老眼	-11.2375
忠獻	-11.238
十有四	-11.238
老氏	-11.2383
致政	-11.2385
癸酉	-11.2388
不屑	-11.239
聦明	-11.239
叅政	-11.2393
天祥	-11.2396
滄洲	-11.2396
金碧	-11.2397
猶是	-11.2398
楊公	-11.2398
受知	-11.2399
鄂州	-11.2399
漚	-11.2399
存心	-11.24
壙	-11.2402
拖	-11.2403
臣嘗	-11.2403
考諱	-11.2404
嶷	-11.2405
不減	-11.2407
庚辰	-11.2408
升堂	-11.241
〇	-11.2412
貢士	-11.2412
興國	-11.2414
華亭	-11.2415
湖廣	-11.2416
中興之	-11.2417
櫟	-11.2418
菁	-11.2419
食邑	-11.2422
磴	-11.2428
曽大父	-11.243
所向	-11.2432
任重	-11.2432
未報	-11.2433
戕	-11.2433
西江	-11.2435
戸部	-11.2436
左司	-11.2438
有限	-11.2439
不幸而	-11.2441
嶼	-11.2442
騖	-11.2446
勺	-11.2447
乙酉	-11.2448
廣平	-11.245
怵	-11.2451
休命	-11.2451
多寡	-11.2451
記云	-11.2454
萬民	-11.2455
齋記	-11.2456
雨餘	-11.2458
紫陽	-11.2458
䧏	-11.2461
擎	-11.2462
啖	-11.2462
徭	-11.2463
何止	-11.2464
之譏	-11.2464
秣	-11.2465
銀河	-11.2465
風化	-11.2466
行藏	-11.2467
喜雨	-11.2471
親友	-11.2472
官職	-11.2473
垠	-11.2474
景祐	-11.2476
利病	-11.2478
義方	-11.2478
韓信	-11.2479
文武之	-11.248
武侯	-11.2486
不欺	-11.2487
不乏	-11.2488
匣	-11.2489
石刻	-11.2491
莅	-11.2494
容易	-11.2496
大畧	-11.25
劉向	-11.2505
聖門	-11.2505
爵禄	-11.2505
爾等	-11.2508
裨	-11.2508
獨坐	-11.2511
擯	-11.2511
寄語	-11.2512
試問	-11.2516
曲江	-11.2517
咲	-11.2518
誠齋	-11.2522
仭	-11.2522
父母之	-11.2522
落葉	-11.2522
甲辰	-11.2524
真宗	-11.2532
甲兵	-11.2533
平反	-11.2533
扶桑	-11.2533
体	-11.2538
都尉	-11.2538
是邦	-11.254
孝思	-11.254
黷	-11.2542
鍾山	-11.2544
鳥獸	-11.2545
先賢	-11.2546
蝦	-11.2551
也是以	-11.2552
雞犬	-11.2554
𬞞	-11.2562
朱文公	-11.2562
同姓	-11.2564
䂓	-11.2567
金帛	-11.2568
彬	-11.2569
二十七日	-11.257
兩朝	-11.2572
老僧	-11.2574
崇寧	-11.2576
曙	-11.2577
浮生	-11.2578
暮雲	-11.2578
無害	-11.2578
官軍	-11.258
䨇	-11.2581
孤雲	-11.2588
伏念	-11.2593
踰年	-11.2594
吾身	-11.2594
獄訟	-11.2594
先覺	-11.2595
拏	-11.2596
百餘年	-11.2598
悵望	-11.2598
兖	-11.26
讞	-11.2601
荘子	-11.2602
弑	-11.2603
太廟	-11.2604
士夫	-11.2606
父某	-11.2607
國論	-11.2607
插	-11.2609
三嵗	-11.261
三品	-11.2611
琮	-11.2617
天府	-11.2625
壼	-11.2627
疚	-11.2628
也至於	-11.2629
經世	-11.263
春夏	-11.2632
髙士	-11.2644
壬申	-11.2646
墓表	-11.2646
兩淮	-11.2646
罔不	-11.265
前修	-11.265
其術	-11.265
芝蘭	-11.2652
一寸	-11.2655
館閣	-11.2659
諏	-11.2661
𣙜	-11.2662
無聊	-11.2663
芘	-11.2667
楚人	-11.2668
壯士	-11.2669
聒	-11.2671
水陸	-11.2671
存乎	-11.2673
鴟	-11.2674
訐	-11.2674
總領	-11.2675
蛻	-11.2676
孤城	-11.2677
小雨	-11.2681
舊學	-11.2683
聦	-11.2685
登樓	-11.2685
朝散大夫	-11.2687
兢兢	-11.2689
龍飛	-11.2695
第六	-11.2696
安撫使	-11.27
罔極	-11.27
櫓	-11.2702
無斁	-11.2702
文王之	-11.2702
祲	-11.2705
億萬	-11.271
諸縣	-11.2712
霄漢	-11.2713
往事	-11.2716
何足以	-11.2716
逢人	-11.2722
絃歌	-11.2722
桑麻	-11.2726
雲雨	-11.2727
廣州	-11.2731
説文	-11.2734
庚寅	-11.2735
鵷	-11.2735
胙	-11.2736
旬日	-11.2737
筆硯	-11.2738
高祖	-11.2742
爽氣	-11.2743
元符	-11.2747
好事者	-11.2748
頷	-11.275
某啓	-11.2752
羅浮	-11.2758
趺	-11.2761
罇	-11.2762
留滯	-11.2763
齊魯	-11.2765
蓮花	-11.2765
䋲	-11.2766
著作佐郎	-11.2775
國太夫人	-11.2775
寵榮	-11.2777
驍	-11.2778
遒	-11.2781
相依	-11.2781
次韵	-11.2782
癸	-11.2784
櫝	-11.2784
蠢	-11.2785
瓌	-11.2786
空谷	-11.2786
萬緡	-11.2786
涂	-11.2787
承明	-11.2793
莾	-11.2796
君子小人	-11.28
洞天	-11.2801
伏奉	-11.2805
藝祖	-11.2808
到官	-11.281
淒	-11.281
牌	-11.2811
患難	-11.2815
講論	-11.2821
十七年	-11.2822
坂	-11.2827
殽	-11.2829
猝	-11.283
登科	-11.2831
片言	-11.2832
潞	-11.2832
宣室	-11.2833
東漢	-11.2837
國士	-11.2838
欲望聖慈	-11.2843
權衡	-11.2848
益堅	-11.2852
賢能	-11.2853
麋鹿	-11.2856
彖	-11.2856
庚午	-11.286
祧	-11.2862
萬巻	-11.2865
天下士	-11.2868
名教	-11.2869
或云	-11.287
崧	-11.2872
公卿大夫	-11.2873
言之則	-11.2879
吾母	-11.288
嫩	-11.2884
秋夜	-11.2884
予謂	-11.2886
潄	-11.2888
縑	-11.2888
物理	-11.2888
婿	-11.2891
奏請	-11.2891
丁亥	-11.2892
諍	-11.2893
移文	-11.2893
廢興	-11.2894
叢林	-11.2895
神物	-11.2898
葆	-11.2902
黄氏	-11.2902
痾	-11.2905
剏	-11.291
告之曰	-11.2914
流光	-11.2916
罅	-11.2916
兵革	-11.2921
紛然	-11.2922
湖水	-11.2923
也若夫	-11.2925
伏䝉	-11.2928
其大者	-11.293
飱	-11.2935
北闕	-11.2935
青松	-11.2942
面目	-11.2943
汲黯	-11.2944
昭昭	-11.2946
愛惜	-11.2946
廷尉	-11.2951
飛鴻	-11.2952
儋	-11.2955
諸家	-11.2956
樽前	-11.2957
權臣	-11.2958
恩澤	-11.296
吾徒	-11.2964
群臣	-11.2965
巉	-11.2967
杜甫	-11.2968
彥	-11.2968
供奉	-11.2971
姒	-11.2971
中謝伏念臣	-11.2971
放翁	-11.2974
東野	-11.2976
者以其	-11.2979
險阻	-11.2981
舊制	-11.2982
唐太宗	-11.2986
挽詩	-11.2989
笑我	-11.2992
始皇	-11.2993
夏日	-11.2993
校尉	-11.2998
一觴	-11.2999
杼	-11.3
斯世	-11.3005
從軍	-11.301
循良	-11.301
經歴	-11.3012
朱熹	-11.3013
老農	-11.3015
酥	-11.3016
自覺	-11.3018
二十九	-11.3021
東宫	-11.3022
舸	-11.3022
朝散郎	-11.3026
師魯	-11.3028
酤	-11.3029
百丈	-11.3029
相視	-11.303
幅巾	-11.3031
竭力	-11.3035
聖天子	-11.3035
坐客	-11.3038
旦暮	-11.3039
珊瑚	-11.304
華陽	-11.3043
不勝其	-11.3043
旻	-11.3044
和靖	-11.3045
瘡	-11.3046
誰敢	-11.3046
淇	-11.3047
俛仰	-11.3048
曲直	-11.3048
卜居	-11.3057
忽驚	-11.3057
想像	-11.306
魚鳥	-11.3062
辛丑	-11.3063
處置	-11.3064
濳	-11.3065
愷	-11.3066
綍	-11.3069
立功	-11.3069
慎按	-11.3072
哥	-11.3073
墳墓	-11.3074
潼	-11.3075
脆	-11.3076
隂陽之	-11.3078
只恐	-11.3081
嶺南	-11.3081
締	-11.3084
泰定	-11.3085
筋	-11.3085
尊酒	-11.3086
功夫	-11.3092
男兒	-11.3092
壬寅	-11.3095
風濤	-11.3097
五字	-11.3097
便宜	-11.3098
女二人	-11.3099
勝負	-11.3103
百憂	-11.3104
檐	-11.3107
㝡	-11.311
未了	-11.3112
款	-11.3113
東閣	-11.3118
睡起	-11.3118
傾倒	-11.3119
臣僚	-11.3122
虵	-11.3125
千户	-11.3128
饒州	-11.3132
瞻望	-11.3139
鈐轄	-11.314
絜	-11.314
月照	-11.314
度支	-11.3141
戶	-11.3141
安仁	-11.3142
韞	-11.3142
經理	-11.3143
丘園	-11.3145
三十里	-11.3147
何曾	-11.315
賢愚	-11.3151
翬	-11.3157
珂	-11.3157
稚子	-11.3159
眎	-11.3159
六首	-11.3162
濩	-11.3162
二十三日	-11.3163
鬂	-11.3167
五馬	-11.3172
脾	-11.3172
駝	-11.3173
斐	-11.3175
蹶	-11.3175
齧	-11.3176
師古曰	-11.3176
聖學	-11.3178
圖報	-11.3179
累日	-11.3181
恩榮	-11.3182
尚書省	-11.3183
古寺	-11.3183
滿地	-11.3183
推轂	-11.3188
煙霞	-11.3189
泫	-11.319
叅軍	-11.3192
浙江	-11.3192
江河	-11.3193
母夫人	-11.3193
沽酒	-11.32
妻孥	-11.3206
掘	-11.3207
五經	-11.3207
雷雨	-11.3207
穡	-11.3207
丁酉	-11.3209
迄今	-11.3211
奉常	-11.3213
煙雨	-11.3214
杜子美	-11.3216
庭下	-11.3217
東籬	-11.3217
細民	-11.322
兊	-11.3222
隧	-11.3223
廨	-11.3225
仁義之	-11.3226
風煙	-11.3228
腆	-11.3229
掃除	-11.3231
特立	-11.3233
庻㡬	-11.3235
朱顔	-11.3235
媪	-11.3236
淄	-11.3238
乙未	-11.3238
懐抱	-11.3238
喫	-11.3238
安敢	-11.3242
砥	-11.3242
風景	-11.3242
感動	-11.3244
二十二	-11.3247
何嘗	-11.3249
原註	-11.3251
蕉	-11.3253
通直郎	-11.3253
唱和	-11.3255
枯槁	-11.3256
翺翔	-11.3256
吳越	-11.3257
兵火	-11.3258
天下幸甚	-11.3258
孝經	-11.3259
墅	-11.326
衣服	-11.3261
我輩	-11.3261
萬邦	-11.3265
二十四日	-11.3265
吳興	-11.3269
次韻和	-11.327
四面	-11.327
忽聞	-11.327
鴛鴦	-11.3271
者不過	-11.328
襦	-11.3287
穽	-11.3289
誡	-11.329
加食邑	-11.329
忠恕	-11.3295
悵然	-11.3296
風雅	-11.3296
萬夀	-11.3302
賈生	-11.3303
憂勤	-11.3307
不屈	-11.3311
志士	-11.3315
芳菲	-11.3317
隱居	-11.3317
幃	-11.3317
二十餘	-11.3318
此所謂	-11.3319
劳	-11.3321
覘	-11.3322
少游	-11.3323
去嵗	-11.3327
荷花	-11.333
不恤	-11.334
藹然	-11.334
邠	-11.3341
伏羲	-11.3344
吏部尚書	-11.3345
撩	-11.3348
嵩山	-11.3348
嵇	-11.3349
後之人	-11.3357
甘心	-11.3358
侍御	-11.3359
二十一日	-11.3359
右軍	-11.3361
花木	-11.3362
千五百	-11.3364
通鑑	-11.3364
幘	-11.3365
莎	-11.3365
聶	-11.3369
殃	-11.3369
寂然	-11.3371
三昧	-11.3372
制朕	-11.3372
道場	-11.3375
喜怒	-11.3375
不得巳	-11.338
河間	-11.338
詩巻	-11.3382
櫛	-11.3384
郴	-11.3385
嘿	-11.3386
蹔	-11.3396
早晚	-11.3397
棧	-11.3397
鰲	-11.3398
字韻	-11.34
辛亥	-11.3401
在廷	-11.3404
馳驅	-11.3405
固不可	-11.3406
蒼龍	-11.3406
亭記	-11.3406
報稱	-11.3415
懸知	-11.3418
閶闔	-11.3418
晷	-11.3418
乙亥	-11.3419
睢	-11.3426
淋漓	-11.3429
紉	-11.3433
沱	-11.3434
飢寒	-11.3434
松楸	-11.3435
譎	-11.3436
洵	-11.3437
盾	-11.3437
其末	-11.3438
窮理	-11.344
雲霧	-11.3442
國體	-11.3445
堯夫	-11.3446
帥臣	-11.3448
剗	-11.3449
絕	-11.345
癸丑	-11.345
紬	-11.3453
墾	-11.3453
則不然	-11.3457
精微	-11.3462
大略	-11.3463
宛轉	-11.3465
逺遊	-11.3468
禮部侍郎	-11.3468
大儒	-11.3468
艘	-11.347
留别	-11.3472
禽獸	-11.3474
相尋	-11.3477
鴻鴈	-11.3478
忘言	-11.3478
慇懃	-11.3479
華屋	-11.349
珉	-11.3497
纊	-11.3497
荆南	-11.3501
東湖	-11.3504
昊天	-11.3505
孟氏	-11.3505
韙	-11.3505
延平	-11.3509
柑	-11.3516
消長	-11.3517
曰卿	-11.3523
灔	-11.3526
甚衆	-11.3528
努力	-11.3529
樓閣	-11.3531
筯	-11.3532
諮	-11.3535
讙	-11.3536
南浦	-11.3537
血氣	-11.3545
潑	-11.3548
聚散	-11.3549
鑱	-11.355
喟然	-11.3553
敵國	-11.3558
節物	-11.356
購	-11.3567
蔕	-11.3568
咨嗟	-11.3568
紫微	-11.3569
察臣	-11.3575
供職	-11.3575
王者之	-11.3576
浮沉	-11.3579
境内	-11.3581
太湖	-11.3581
甲戌	-11.3583
吠	-11.3583
髙麗	-11.3583
内侍	-11.3593
交游	-11.3596
豈但	-11.3596
進封	-11.3598
禘	-11.3601
蓬蒿	-11.3602
丁丑	-11.3602
施設	-11.3602
摛	-11.3603
極目	-11.3606
得其人	-11.3613
鞋	-11.3613
羅漢	-11.3617
腦	-11.3619
衒	-11.362
亦可謂	-11.362
諦	-11.3622
也故曰	-11.3629
具位	-11.363
絢	-11.3631
䆳	-11.3633
道院	-11.3635
瀛洲	-11.3636
璣	-11.3636
引去	-11.3637
舛	-11.3637
來往	-11.3644
之大者	-11.3646
戊申	-11.365
膏澤	-11.3657
廣南	-11.3659
借問	-11.3659
摩挲	-11.3662
怱怱	-11.3662
遲遲	-11.3663
衰翁	-11.3664
難忘	-11.3664
窮通	-11.3664
講明	-11.3664
辛酉	-11.3665
熖	-11.3665
迸	-11.3665
世界	-11.3666
朝野	-11.3668
二十餘年	-11.367
碩人	-11.367
孕	-11.367
可見矣	-11.3674
百川	-11.3675
節度使	-11.3676
皎皎	-11.3679
簽書	-11.3682
䛕	-11.3684
諜	-11.3685
年月日	-11.3685
女一人	-11.3686
雎	-11.3689
周氏	-11.3694
翎	-11.3695
第七	-11.3695
劉郎	-11.3695
晚年	-11.3698
綉	-11.3699
平章政事	-11.3699
煦	-11.3701
享年六十	-11.3702
伊洛	-11.371
委任	-11.3711
遭逢	-11.3715
戊辰	-11.3717
寄聲	-11.3722
英宗	-11.3722
所請宜不允	-11.3723
單于	-11.3723
興廢	-11.3728
之事也	-11.3731
維揚	-11.3734
魯國	-11.3735
怖	-11.3736
籙	-11.3737
郡侯	-11.3745
臣恐	-11.3747
燃	-11.3751
丙寅	-11.3751
恭儉	-11.3752
坐視	-11.3753
鰥	-11.3755
商賈	-11.3759
不墜	-11.376
有時而	-11.3764
竺	-11.3767
但覺	-11.3768
有志於	-11.3774
孰若	-11.3774
本根	-11.3774
楊花	-11.3778
九華	-11.3781
敷奏	-11.3782
肺肝	-11.3783
池塘	-11.3784
四顧	-11.3785
斟酌	-11.3787
兼侍讀	-11.3788
起舞	-11.3792
道傍	-11.3796
迢迢	-11.3798
攅	-11.3798
百千	-11.3799
大理評事	-11.3801
越州	-11.3801
矣嗚呼	-11.3801
失職	-11.3802
齟齬	-11.3802
碧玉	-11.3803
三峽	-11.3808
夢魂	-11.3808
大厦	-11.3811
陳乞	-11.3813
歸去來	-11.3813
謝賜	-11.3814
茆	-11.3816
住持	-11.3816
薊	-11.3817
鱠	-11.3817
本草	-11.3818
𣲖	-11.382
壬午	-11.3821
台候	-11.3823
危坐	-11.3824
咸平	-11.3827
藥石	-11.3828
青詞	-11.3831
竆	-11.3836
睫	-11.3837
軍政	-11.3839
華髪	-11.384
伏遇某官	-11.3841
卵	-11.3841
閭閻	-11.3841
滄	-11.3843
蕭何	-11.3843
奉親	-11.3843
土地	-11.3853
夥	-11.3853
臚	-11.3857
恩命不允詔	-11.3858
黜陟	-11.3862
洪州	-11.3864
閩中	-11.3869
刈	-11.387
終其身	-11.3871
豈弟	-11.3871
百辟	-11.3872
甚盛	-11.3877
詳見前	-11.3878
西掖	-11.3878
百戰	-11.3887
匏	-11.3889
鬯	-11.389
抑亦	-11.3893
巋然	-11.3894
天宇	-11.3898
漁父	-11.39
食實封	-11.3902
司户	-11.3903
玠	-11.3909
逭	-11.391
白衣	-11.3911
孤忠	-11.3913
両	-11.3918
槍	-11.3919
因縁	-11.3922
轟	-11.3923
稼穡	-11.3925
祺	-11.3928
甲乙	-11.3932
彎	-11.3937
鴛	-11.3939
品題	-11.3944
儕	-11.3949
球	-11.3954
甲科	-11.3957
孩	-11.3958
祜	-11.3963
格物	-11.3965
大將軍	-11.3968
光照	-11.3973
沅	-11.3976
洙	-11.3978
窶	-11.3978
白晝	-11.398
雇	-11.398
髙卧	-11.3983
不惑	-11.3992
嗟予	-11.3995
召試	-11.3997
女適	-11.3999
千騎	-11.4002
鵞	-11.4003
宣徽	-11.4005
釣魚	-11.4008
兒孫	-11.4008
螻蟻	-11.401
綢繆	-11.4011
尤難	-11.4012
憲宗	-11.4017
修竹	-11.4019
對酒	-11.4022
朝議大夫	-11.4023
驄	-11.4024
紫宸	-11.4028
五斗	-11.4028
嫂	-11.4029
千齡	-11.4034
詩話	-11.4035
湜	-11.4045
屛	-11.4046
衰老	-11.4046
湄	-11.4057
也又曰	-11.4061
魏國	-11.4071
不害	-11.4075
折腰	-11.408
掃地	-11.4081
皋	-11.4081
惻然	-11.4082
鄱陽	-11.4084
道塲	-11.4088
厚薄	-11.4089
雨雪	-11.409
浮圖	-11.4091
鷗鷺	-11.4094
籜	-11.4094
蛾眉	-11.4096
黄葉	-11.4097
縶	-11.4098
臭味	-11.4101
呉興	-11.4109
醺	-11.411
餘杭	-11.4112
惶恐	-11.4113
耳目之	-11.4113
集巻四	-11.4114
歘	-11.4114
庀	-11.412
燕雀	-11.4121
何啻	-11.4121
十有三	-11.4123
榮辱	-11.4124
卿大夫	-11.4128
精舍	-11.4128
郷里	-11.4129
承乏	-11.413
然後可以	-11.4132
輪囷	-11.4133
笄	-11.4138
政府	-11.4143
姑息	-11.4145
賢不肖	-11.4148
官舍	-11.415
芟	-11.4152
豢	-11.4152
子房	-11.416
戊子	-11.4166
小舟	-11.4166
鷁	-11.4167
擣	-11.4168
不見其	-11.4179
翼翼	-11.4179
閭巷	-11.418
潯	-11.4181
瀰	-11.4181
進呈	-11.4182
仕進	-11.4183
沓	-11.4183
怳	-11.4185
珠璣	-11.4186
咀	-11.4186
帥府	-11.4189
塜	-11.4203
笈	-11.422
悞	-11.4221
蹴	-11.4221
譔	-11.4222
餼	-11.4226
𬗋	-11.4251
錬	-11.4255
隈	-11.4272
霅	-11.4274
嘏	-11.4276
鷙	-11.4277
黥	-11.4279
茨	-11.4308
鈐	-11.4309
觥	-11.4309
溷	-11.4313
彪	-11.4315
璽	-11.4322
旭	-11.4326
㺯	-11.4343
緼	-11.4346
塹	-11.4347
鑪	-11.4347
煌	-11.4351
犁	-11.4367
隍	-11.4369
曆	-11.4382
蹲	-11.4382
㸑	-11.4383
颺	-11.4399
崦	-11.4399
漉	-11.4401
揉	-11.4402
芾	-11.4403
囑	-11.4416
盼	-11.4419
虢	-11.4421
峨	-11.4453
畬	-11.4455
煒	-11.4456
萎	-11.4472
啾	-11.4485
茁	-11.4491
崑	-11.4491
亳	-11.4544
琰	-11.4546
耋	-11.4547
估	-11.4563
箸	-11.4564
賙	-11.4566
珊	-11.4573
䔥	-11.4578
姢	-11.4579
澈	-11.4581
櫪	-11.4585
痼	-11.46
竽	-11.4601
𫀆	-11.4601
豳	-11.4602
鍼	-11.4606
撝	-11.4607
簞	-11.4619
璉	-11.462
囷	-11.462
恂	-11.4626
淅	-11.4635
砧	-11.4638
琚	-11.464
欎	-11.4641
狙	-11.4659
廐	-11.4661
懾	-11.4663
隼	-11.4676
冉	-11.4677
盻	-11.4678
劬	-11.4691
穗	-11.4695
靚	-11.4714
狃	-11.4721
謔	-11.4731
鈆	-11.4734
榷	-11.4734
羗	-11.4736
犇	-11.4748
誄	-11.4749
珎	-11.475
祓	-11.4752
虺	-11.4753
燮	-11.4771
凈	-11.4786
菌	-11.4787
缶	-11.4788
萼	-11.4803
碁	-11.4804
烱	-11.4804
豸	-11.4829
𣏌	-11.4829
㓙	-11.4843
矗	-11.4878
纖	-11.4883
畹	-11.4885
荣	-11.4888
芰	-11.49
鄜	-11.4905
刘	-11.491
𬋩	-11.4916
秫	-11.4918
螯	-11.492
畊	-11.4921
澧	-11.4925
荻	-11.4937
殱	-11.496
厎	-11.4962
婣	-11.4963
豔	-11.4963
昕	-11.4963
勻	-11.4973
賻	-11.4978
鵶	-11.4979
醻	-11.4996
祫	-11.4996
簉	-11.4999
鼈	-11.502
夐	-11.5023
褰	-11.5036
甜	-11.5036
磔	-11.5037
蒞	-11.5038
褁	-11.5055
棐	-11.5061
僦	-11.5076
縟	-11.5077
堞	-11.5092
偪	-11.5094
籩	-11.5099
恙	-11.5119
蛛	-11.5132
翥	-11.5136
俶	-11.5137
內	-11.5137
竢	-11.5138
橈	-11.5148
陁	-11.5154
禳	-11.5158
縳	-11.517
跖	-11.5172
脯	-11.5173
睇	-11.5188
觚	-11.5193
柝	-11.5194
㴱	-11.5196
麄	-11.521
挟	-11.5212
磐	-11.5213
櫂	-11.5227
煜	-11.5234
雹	-11.525
刳	-11.525
搴	-11.5251
忭	-11.5256
苕	-11.5261
徊	-11.5268
捜	-11.5274
晶	-11.5285
暌	-11.5293
艦	-11.5294
靦	-11.5295
术	-11.531
戡	-11.5315
羶	-11.5326
峒	-11.533
罟	-11.5332
㪯	-11.5336
膓	-11.5345
砂	-11.5347
傭	-11.5352
芷	-11.5389
拉	-11.539
熄	-11.5391
盱	-11.5393
鎬	-11.5394
侃	-11.5394
硬	-11.5408
鼉	-11.5409
軄	-11.5409
縠	-11.5412
吊	-11.5426
燄	-11.5431
艤	-11.5447
蚓	-11.5452
摯	-11.5453
謟	-11.5454
襪	-11.5455
徯	-11.5457
跬	-11.5467
駛	-11.5468
趁	-11.547
覯	-11.5471
葑	-11.5478
髀	-11.549
孑	-11.5491
琪	-11.5509
灝	-11.5513
燁	-11.5515
㩀	-11.5532
諺	-11.5535
焰	-11.5553
鯤	-11.5555
琯	-11.5555
佗	-11.5556
渤	-11.5567
蠡	-11.557
疴	-11.5573
簽	-11.5573
种	-11.5574
蛾	-11.5588
曛	-11.5589
紺	-11.559
莱	-11.5591
赭	-11.5591
獠	-11.5593
冽	-11.5611
擠	-11.5615
螟	-11.5621
痩	-11.5631
磵	-11.5648
暎	-11.5651
烘	-11.5652
曝	-11.5654
筌	-11.5655
塚	-11.5655
蜃	-11.5671
攪	-11.5673
兠	-11.5677
穠	-11.569
𨳩	-11.5691
堙	-11.5698
茟	-11.5715
豎	-11.5718
槀	-11.5721
僥	-11.5723
圻	-11.5739
龐	-11.574
頡	-11.5741
𣸪	-11.5751
梭	-11.5754
殻	-11.5754
叫	-11.5778
璘	-11.5782
繙	-11.5798
壟	-11.5798
漱	-11.5799
瀹	-11.58
矚	-11.5801
闖	-11.5819
厖	-11.5823
輻	-11.5826
瀨	-11.5839
馘	-11.5841
綦	-11.5847
皦	-11.5859
甍	-11.586
麝	-11.5861
攫	-11.5862
迁	-11.5863
㦲	-11.5864
埜	-11.5866
啞	-11.5883
湔	-11.5883
睂	-11.5884
飴	-11.5887
涌	-11.5902
怛	-11.5904
㝢	-11.5908
綆	-11.5922
琛	-11.5927
檝	-11.5945
曁	-11.5948
筐	-11.5964
唳	-11.5965
窈	-11.5966
誑	-11.5968
饜	-11.5968
腕	-11.5969
悸	-11.5972
袤	-11.5972
毉	-11.5972
帚	-11.5993
筴	-11.6012
踣	-11.6012
髩	-11.6024
燿	-11.6037
刁	-11.6051
賽	-11.6051
崗	-11.6053
擿	-11.6073
愔	-11.6091
椘	-11.6092
揷	-11.6093
惲	-11.6101
蹂	-11.6101
楞	-11.6117
槧	-11.6118
禇	-11.6119
紐	-11.6138
垓	-11.6139
蒯	-11.6143
磧	-11.6157
塤	-11.6159
双	-11.6162
苻	-11.6164
腋	-11.6181
斸	-11.6202
槽	-11.6204
綈	-11.6211
𡨕	-11.6243
暾	-11.6244
榼	-11.6264
璫	-11.6269
皈	-11.6281
壖	-11.6291
墊	-11.6291
袵	-11.6296
紵	-11.6333
逗	-11.6335
賫	-11.6335
鉄	-11.6336
瑾	-11.6338
宼	-11.6343
砭	-11.6357
尽	-11.636
駱	-11.6364
囙	-11.6376
榔	-11.638
枵	-11.6381
隮	-11.6381
剸	-11.6404
<	-11.6412
t	-11.6412
窩	-11.6415
嶮	-11.6419
丰	-11.6423
駞	-11.6424
璇	-11.6426
詡	-11.6429
犖	-11.6441
霾	-11.6443
顙	-11.6447
詘	-11.6448
㮣	-11.6449
倬	-11.6451
躓	-11.6451
嗅	-11.6464
粘	-11.6465
桒	-11.6467
鑚	-11.6468
產	-11.6468
璜	-11.6471
楠	-11.6471
臍	-11.6472
輈	-11.6486
斚	-11.6488
糊	-11.6489
緊	-11.6489
箔	-11.6507
憒	-11.6508
頹	-11.6508
祛	-11.6513
叵	-11.6532
釜	-11.6536
竪	-11.6537
跛	-11.6561
兕	-11.6561
謐	-11.6562
泪	-11.6578
閼	-11.6587
槊	-11.6603
淙	-11.6605
蜩	-11.6606
闋	-11.662
爍	-11.6623
薺	-11.6623
壚	-11.6624
憸	-11.6647
猴	-11.6649
臉	-11.6666
喝	-11.6669
醯	-11.667
柵	-11.6672
簸	-11.6673
鼙	-11.6692
酪	-11.6692
餙	-11.6698
戊	-11.6698
届	-11.6698
㒷	-11.6698
顥	-11.6716
獎	-11.6719
欤	-11.6724
炯	-11.6735
隗	-11.6744
闉	-11.6758
涘	-11.6765
涴	-11.6781
樾	-11.6785
胃	-11.6787
洮	-11.6808
剝	-11.681
旰	-11.6811
瞬	-11.6827
髫	-11.683
圮	-11.6831
劃	-11.6832
皁	-11.6834
掄	-11.6838
踪	-11.6853
鵰	-11.6858
蟇	-11.6859
凭	-11.6868
渌	-11.6875
嫗	-11.6877
畸	-11.6878
凂	-11.688
弥	-11.6882
晟	-11.6882
皤	-11.6898
廕	-11.6898
蝨	-11.6903
踊	-11.6903
諂	-11.6904
枌	-11.6906
篝	-11.6922
坰	-11.6923
䜟	-11.6926
晡	-11.6945
枳	-11.6946
鷃	-11.6946
畛	-11.6947
峡	-11.6948
姝	-11.6949
堠	-11.697
㐫	-11.6976
沫	-11.6994
媮	-11.6998
羯	-11.7004
坼	-11.7012
滸	-11.7015
綾	-11.7017
謠	-11.702
縝	-11.704
闐	-11.7041
萹	-11.7041
嫓	-11.7045
褊	-11.7047
瀬	-11.7064
雝	-11.7065
韭	-11.7065
懵	-11.7066
幟	-11.7066
摸	-11.7067
揄	-11.7067
毬	-11.7067
礱	-11.7085
觜	-11.7087
查	-11.7089
嵬	-11.7111
沁	-11.7114
菰	-11.7135
訕	-11.7139
拚	-11.7156
緱	-11.7158
磷	-11.7158
鋏	-11.7158
鍤	-11.7159
尙	-11.7161
緹	-11.7168
菅	-11.7184
綘	-11.7184
义	-11.7187
疢	-11.7208
簧	-11.7209
淬	-11.7235
粃	-11.7236
撿	-11.7256
禊	-11.7257
蜕	-11.7259
昩	-11.7261
伉	-11.7262
橙	-11.7276
薌	-11.7282
袒	-11.7283
釃	-11.7305
幷	-11.7307
搶	-11.7328
篚	-11.7332
薑	-11.7349
怜	-11.7352
楸	-11.7352
廽	-11.7371
槳	-11.7371
澶	-11.7375
旐	-11.7378
徠	-11.7381
酧	-11.7402
謌	-11.7403
膂	-11.7407
皐	-11.7423
酲	-11.7424
嘔	-11.7425
緋	-11.7427
蹋	-11.745
堊	-11.7451
尅	-11.7451
掊	-11.7451
糝	-11.7471
禺	-11.7475
麋	-11.7475
閃	-11.7495
簀	-11.7498
絀	-11.7501
曏	-11.7501
涙	-11.7523
鶉	-11.7525
煇	-11.7529
耨	-11.7529
阼	-11.7531
惨	-11.7546
邏	-11.7548
掞	-11.755
匕	-11.755
爕	-11.7551
絰	-11.7551
甿	-11.7551
撮	-11.7552
泌	-11.7555
淝	-11.7557
絺	-11.7572
皺	-11.7574
㾗	-11.7574
醲	-11.7579
瑛	-11.758
焜	-11.7581
嫵	-11.7596
礴	-11.7599
趋	-11.7599
鏞	-11.7601
蚌	-11.7602
㐲	-11.7607
猩	-11.7623
鏁	-11.7624
囏	-11.7625
价	-11.7633
瞞	-11.7675
澣	-11.7677
睽	-11.7679
猫	-11.7681
澮	-11.7682
毖	-11.7703
么	-11.7704
屍	-11.7725
醢	-11.7725
扳	-11.7727
詮	-11.7727
抒	-11.773
蓽	-11.773
柘	-11.7749
儗	-11.7751
衎	-11.7755
缸	-11.7771
熬	-11.7777
蒔	-11.7778
艸	-11.7799
宕	-11.7801
癢	-11.7801
瘝	-11.7802
闚	-11.7804
擺	-11.7825
痊	-11.7826
詬	-11.7827
隸	-11.7828
禎	-11.7829
綫	-11.783
毘	-11.7832
咈	-11.7832
鋟	-11.7852
縉	-11.7854
敇	-11.7856
牝	-11.7882
揲	-11.7883
隤	-11.7884
閴	-11.7902
埏	-11.7905
勳	-11.7908
莩	-11.791
攽	-11.7913
淋	-11.7956
沆	-11.7957
𦕈	-11.798
㪷	-11.7982
贛	-11.7982
祼	-11.7985
撻	-11.7987
鈿	-11.8004
邅	-11.8028
榱	-11.8032
刄	-11.8034
蠒	-11.8035
殤	-11.8036
伋	-11.8039
筞	-11.806
殍	-11.8061
頎	-11.8062
狷	-11.8064
枰	-11.8082
炫	-11.8084
彀	-11.8088
髠	-11.8089
庥	-11.8092
讌	-11.811
鹹	-11.8116
型	-11.8137
礎	-11.8138
迢	-11.8159
遅	-11.8161
鬪	-11.8165
稗	-11.8195
瘵	-11.8219
璠	-11.8219
滎	-11.822
窣	-11.822
滔	-11.822
薬	-11.8222
昱	-11.8222
鞫	-11.8241
肱	-11.8244
磁	-11.8246
厶	-11.8263
溧	-11.827
抜	-11.8273
畎	-11.8273
嬖	-11.8273
丱	-11.8274
畚	-11.8277
塍	-11.8293
糗	-11.8294
矮	-11.8297
縢	-11.8297
洄	-11.8297
撚	-11.8299
畤	-11.8304
蔗	-11.8318
㟁	-11.8319
鏖	-11.8321
縹	-11.8321
檠	-11.8322
嶄	-11.8323
櫜	-11.8326
寗	-11.8327
闍	-11.8349
陔	-11.8353
淤	-11.8353
囀	-11.8372
詵	-11.8384
稹	-11.8388
浥	-11.8402
㨿	-11.8404
櫳	-11.8427
隰	-11.843
喟	-11.8433
楨	-11.8434
瀚	-11.8461
溽	-11.8461
煤	-11.8462
塑	-11.8464
眡	-11.8468
嫠	-11.8483
葷	-11.8486
涿	-11.8491
枋	-11.8493
蘩	-11.8493
畮	-11.8502
櫺	-11.8511
惹	-11.8513
䧺	-11.8565
噤	-11.8566
簣	-11.8569
畋	-11.857
攖	-11.8571
袠	-11.8573
櫻	-11.8591
唧	-11.8596
苓	-11.8596
俻	-11.8599
凾	-11.8599
肋	-11.86
罙	-11.8602
儁	-11.8626
卹	-11.8627
迤	-11.8651
碾	-11.8652
羿	-11.8653
爨	-11.8654
个	-11.8654
眄	-11.8657
訢	-11.8678
膩	-11.8707
鍜	-11.8711
宓	-11.8716
盌	-11.8731
孥	-11.8735
棃	-11.8735
毳	-11.8735
鏃	-11.8737
蔭	-11.8737
戞	-11.8738
惋	-11.8763
雒	-11.8764
秔	-11.8786
瀦	-11.8792
眚	-11.8794
紘	-11.8798
縂	-11.8819
撒	-11.882
閘	-11.8823
璿	-11.8824
厮	-11.8826
聀	-11.8827
𬒮	-11.8845
澡	-11.8847
氈	-11.8848
瀧	-11.8849
衂	-11.8852
啚	-11.8875
蕋	-11.89
脛	-11.8906
篠	-11.893
諶	-11.8937
簋	-11.8939
酈	-11.8962
妝	-11.8963
饔	-11.8967
湊	-11.8968
粢	-11.8968
斁	-11.898
䴡	-11.8988
悒	-11.8991
肻	-11.9015
澘	-11.9018
淆	-11.9022
厝	-11.9022
藎	-11.9023
鮫	-11.904
羃	-11.9042
苧	-11.9044
𦂳	-11.9048
鯀	-11.9052
噓	-11.9053
暵	-11.9055
癭	-11.9057
鬲	-11.9078
羹	-11.908
箎	-11.9103
螘	-11.9103
芮	-11.9109
顗	-11.9111
泱	-11.9129
鐺	-11.9131
貔	-11.9136
讃	-11.9137
鍵	-11.9139
砦	-11.9142
菟	-11.9162
撾	-11.9163
袋	-11.9163
襍	-11.9163
巇	-11.919
殛	-11.9193
壕	-11.9193
藺	-11.9195
諄	-11.9195
魴	-11.9195
梏	-11.9221
緗	-11.9222
枿	-11.9222
鴞	-11.9225
衽	-11.9226
醸	-11.9251
惸	-11.9251
敭	-11.9253
鉗	-11.9253
肢	-11.9256
单	-11.9256
䆠	-11.9279
覉	-11.928
哂	-11.9281
岌	-11.9281
臬	-11.9285
默	-11.9286
筝	-11.9306
聃	-11.9307
棼	-11.9312
埭	-11.9312
晃	-11.9341
奭	-11.9343
愒	-11.9344
彧	-11.9348
譊	-11.9369
貰	-11.9396
褫	-11.9404
齪	-11.9404
䙝	-11.9404
瑀	-11.9406
剩	-11.9427
纜	-11.9427
琱	-11.9427
戌	-11.9429
郛	-11.9434
傚	-11.9456
确	-11.9458
鵉	-11.946
淘	-11.9461
韡	-11.9462
竣	-11.9462
昴	-11.9463
鋸	-11.9467
莒	-11.9468
纉	-11.9468
兌	-11.9476
劎	-11.9488
蘊	-11.9491
勦	-11.9492
僃	-11.95
惺	-11.951
靴	-11.9518
饘	-11.9521
扎	-11.9522
鼐	-11.9525
悌	-11.9545
豋	-11.9546
鑣	-11.9548
貍	-11.9554
噲	-11.9555
祟	-11.9577
焞	-11.9581
悛	-11.9582
昵	-11.9584
翛	-11.9584
勣	-11.9585
躰	-11.9588
搗	-11.9608
濂	-11.961
蜉	-11.9613
姥	-11.9614
狠	-11.9614
纏	-11.9616
洺	-11.9641
忒	-11.9643
鑊	-11.9644
艫	-11.9644
嘖	-11.9645
蜺	-11.9649
瘖	-11.9669
黏	-11.9672
璵	-11.9675
莞	-11.9676
癃	-11.9676
黌	-11.9681
茒	-11.9699
玦	-11.9702
罌	-11.9702
莢	-11.9703
紼	-11.9704
鷲	-11.9705
旴	-11.9707
苒	-11.9729
怏	-11.9733
漓	-11.9733
翺	-11.9736
鱣	-11.9739
攙	-11.9764
獅	-11.9765
恫	-11.9772
呀	-11.9793
鴒	-11.9793
賾	-11.9802
䔍	-11.9803
戇	-11.9804
璟	-11.9805
咄	-11.9816
坌	-11.9824
澠	-11.9825
莠	-11.9827
斌	-11.983
荇	-11.9856
遟	-11.9858
磚	-11.9858
藂	-11.9858
窳	-11.9864
汁	-11.9892
硎	-11.9894
絆	-11.9919
柂	-11.9921
瞭	-11.9923
讋	-11.9925
餗	-11.9926
瓴	-11.9927
澌	-11.9948
央	-11.9971
遴	-11.9972
曈	-11.9982
焙	-11.9984
幔	-11.9984
躭	-11.9984
糲	-11.9984
迦	-11.9988
楯	-11.9988
咤	-12.0017
邳	-12.0017
墩	-12.0017
濆	-12.0018
緍	-12.002
貊	-12.0021
侏	-12.0045
栻	-12.0052
稳	-12.0108
蕊	-12.0108
蛤	-12.0109
饞	-12.011
鸛	-12.0114
炤	-12.0117
魃	-12.014
煬	-12.0154
灤	-12.0174
吭	-12.0176
脇	-12.0176
鞬	-12.0177
渊	-12.0179
荄	-12.018
殉	-12.0181
窅	-12.0207
昃	-12.0209
势	-12.0215
瓮	-12.0239
芡	-12.024
釂	-12.0241
稲	-12.0243
塡	-12.0245
辠	-12.0275
処	-12.0277
庳	-12.0278
矍	-12.0279
沗	-12.0279
爬	-12.0308
爇	-12.0336
嵌	-12.034
歊	-12.034
銛	-12.034
涔	-12.0341
猊	-12.037
沍	-12.0374
渟	-12.0377
宝	-12.0379
㶑	-12.0402
睛	-12.0404
虫	-12.0408
彘	-12.041
簒	-12.0412
嚥	-12.0436
幌	-12.0437
醑	-12.0438
諼	-12.0438
臠	-12.0439
黿	-12.0442
犍	-12.0447
斕	-12.047
攢	-12.047
蠭	-12.0476
劘	-12.0476
斍	-12.0476
鈇	-12.048
斉	-12.0482
欷	-12.0504
渦	-12.0506
灧	-12.0507
寀	-12.0508
畯	-12.0512
瀏	-12.0534
茱	-12.0535
暍	-12.0537
媧	-12.0538
槿	-12.0539
匯	-12.054
扛	-12.0541
厪	-12.058
瓚	-12.0604
輞	-12.0604
犴	-12.0606
頫	-12.0607
耰	-12.0608
礫	-12.0608
扺	-12.0609
坳	-12.061
彝	-12.0612
寞	-12.0634
璃	-12.064
蝟	-12.0643
跣	-12.0644
菘	-12.0671
鋩	-12.0674
䑛	-12.0678
痴	-12.0703
咿	-12.0706
滹	-12.0709
嚚	-12.071
鑽	-12.0713
滚	-12.0734
巗	-12.0735
呻	-12.0736
嶧	-12.074
歧	-12.074
嶔	-12.0741
値	-12.0742
鐙	-12.0743
薜	-12.0771
嚬	-12.0777
嫣	-12.0778
薙	-12.0779
蔀	-12.078
竁	-12.0812
藳	-12.0813
湟	-12.0814
仝	-12.0815
蓀	-12.0835
淞	-12.0844
磻	-12.0848
瓘	-12.088
繽	-12.0908
籃	-12.091
麯	-12.0912
邨	-12.0915
侶	-12.0915
猪	-12.0917
熠	-12.0945
仔	-12.0949
喇	-12.095
蠖	-12.0951
紿	-12.0951
𥚑	-12.0954
絫	-12.0955
腳	-12.0955
猒	-12.098
湓	-12.0981
瀼	-12.0981
鳧	-12.0982
蕳	-12.0984
塏	-12.0985
薩	-12.099
診	-12.0997
独	-12.1013
曬	-12.1014
澀	-12.1016
僂	-12.1026
刓	-12.1053
惮	-12.1055
愀	-12.1057
猱	-12.1083
鐃	-12.1089
庙	-12.1102
褚	-12.1124
勍	-12.1126
彗	-12.1127
摠	-12.1129
玆	-12.113
韃	-12.1146
匀	-12.1156
釘	-12.1158
軿	-12.1158
腔	-12.1161
汔	-12.1164
錡	-12.1165
柟	-12.1189
溼	-12.1193
喑	-12.1195
珙	-12.1195
閧	-12.1198
篘	-12.1263
瞥	-12.1265
痺	-12.1268
酢	-12.1268
榕	-12.1271
軔	-12.1271
姨	-12.1278
㡳	-12.1302
堇	-12.1304
纚	-12.1304
鵩	-12.1304
褭	-12.1305
湼	-12.1305
嘈	-12.1306
瑋	-12.1306
訏	-12.1307
棒	-12.131
柅	-12.1311
戩	-12.1311
柁	-12.1338
埒	-12.134
嗸	-12.1342
眊	-12.1344
淖	-12.1344
罋	-12.1347
茘	-12.135
兑	-12.1354
浯	-12.1371
楙	-12.1375
窪	-12.1377
迃	-12.1412
藿	-12.1414
楣	-12.1419
慥	-12.142
漑	-12.1449
檟	-12.1451
疽	-12.1454
旧	-12.1456
㢲	-12.1472
搃	-12.1485
睟	-12.1485
甬	-12.1487
蕤	-12.1488
㦯	-12.149
珩	-12.1494
頳	-12.1519
嚶	-12.1521
瑪	-12.1524
柿	-12.1526
澳	-12.1527
􁈍	-12.1527
蕝	-12.1527
惧	-12.1528
䳌	-12.1556
毆	-12.156
戅	-12.156
飼	-12.1561
腫	-12.1562
蚕	-12.1568
茀	-12.1568
㷀	-12.1571
餬	-12.1593
澦	-12.1594
萸	-12.1595
錚	-12.1597
賒	-12.1597
屩	-12.1599
粳	-12.16
噩	-12.1605
皥	-12.1608
榘	-12.1636
迯	-12.1638
綻	-12.1669
樛	-12.1672
餔	-12.1672
愾	-12.1675
蠆	-12.1675
苫	-12.1676
姆	-12.1677
奐	-12.1678
僨	-12.1679
薾	-12.1682
莪	-12.1711
沚	-12.1712
憮	-12.1713
娣	-12.1716
㕥	-12.172
腎	-12.1721
珏	-12.1781
酎	-12.1784
颷	-12.1784
蒨	-12.1787
跕	-12.1789
号	-12.1789
禠	-12.179
箧	-12.1821
蝉	-12.1822
剴	-12.1823
脣	-12.1824
惬	-12.1856
繅	-12.1864
刲	-12.1866
輶	-12.1871
陕	-12.1897
謇	-12.1899
賕	-12.1901
瑯	-12.1902
煽	-12.1902
鉦	-12.1904
囉	-12.1905
琨	-12.1908
譍	-12.1933
黟	-12.1938
証	-12.1939
尫	-12.1939
襆	-12.1941
襯	-12.197
韈	-12.1975
㩁	-12.1976
篔	-12.1976
营	-12.1978
蹉	-12.1979
楩	-12.1982
汭	-12.1982
蕆	-12.1983
澥	-12.2016
偁	-12.2016
緻	-12.2019
詈	-12.2022
凊	-12.2022
戛	-12.2044
濓	-12.2049
菡	-12.2054
亀	-12.2055
纈	-12.2091
勌	-12.2096
哇	-12.2097
瘧	-12.2097
廛	-12.21
㕠	-12.2124
㒒	-12.2129
虖	-12.213
煨	-12.2131
夬	-12.2132
廳	-12.2133
𥜗	-12.2133
蠏	-12.2134
桔	-12.2136
丼	-12.2137
稾	-12.2137
鵾	-12.2138
氐	-12.214
变	-12.2141
瀟	-12.2168
黽	-12.2168
鷰	-12.217
嶪	-12.2172
孀	-12.2172
蓊	-12.2173
詶	-12.2174
諠	-12.2175
旟	-12.2175
旺	-12.2175
𫐠	-12.2176
邾	-12.2177
挍	-12.2178
棨	-12.2179
琬	-12.2208
鞵	-12.2211
蒋	-12.2212
唫	-12.2247
㩦	-12.2249
澒	-12.225
嚙	-12.2251
朧	-12.2251
舷	-12.2251
灞	-12.2251
胞	-12.2252
埴	-12.2254
苾	-12.2256
磽	-12.2257
适	-12.2258
饟	-12.2259
洳	-12.229
憗	-12.2291
鴂	-12.2292
涅	-12.2292
尢	-12.2293
隲	-12.23
獰	-12.233
倥	-12.2331
摽	-12.2334
㠯	-12.2335
蕡	-12.2337
踔	-12.2338
倨	-12.2338
汜	-12.234
褎	-12.2345
臈	-12.2369
淦	-12.2371
捴	-12.2373
垤	-12.2375
恚	-12.2375
䖝	-12.2413
怱	-12.2413
㨂	-12.2415
袞	-12.2453
圩	-12.2454
鼯	-12.2458
珣	-12.2491
顕	-12.2492
鮒	-12.2496
蓺	-12.2497
鄮	-12.25
晳	-12.2533
覦	-12.2537
罩	-12.257
芊	-12.2573
蓂	-12.2576
漙	-12.2578
褥	-12.2579
崒	-12.2608
瑗	-12.2612
町	-12.2614
悁	-12.2614
鍔	-12.2619
瓉	-12.2623
蹀	-12.2652
撙	-12.2655
槨	-12.2661
惴	-12.2662
蕖	-12.2696
党	-12.2696
琊	-12.2697
旛	-12.2701
獷	-12.2703
醬	-12.2705
俳	-12.2738
机	-12.2741
𣑽	-12.2743
难	-12.2744
誾	-12.2744
粛	-12.2745
鼕	-12.2772
袪	-12.278
膜	-12.278
喁	-12.2784
皜	-12.2785
佯	-12.2786
芃	-12.2787
蟣	-12.2787
娟	-12.282
滉	-12.2823
噎	-12.2824
蚩	-12.2826
瑚	-12.2827
蓐	-12.2827
滲	-12.2828
詖	-12.283
掎	-12.2831
焯	-12.2831
湢	-12.2832
鷖	-12.2861
遝	-12.2867
虱	-12.2868
朘	-12.2868
抆	-12.2874
䟱	-12.2905
腮	-12.2905
颸	-12.2905
敺	-12.2908
瞠	-12.2914
你	-12.2914
鏐	-12.292
芼	-12.2951
貉	-12.2951
囁	-12.2952
恁	-12.2953
懣	-12.2953
腊	-12.2955
慼	-12.2955
迩	-12.2958
瘍	-12.2958
删	-12.2991
甦	-12.2994
璨	-12.2997
袐	-12.2997
綮	-12.3
崎	-12.3034
坻	-12.3034
飣	-12.3034
菓	-12.3036
皪	-12.3037
勩	-12.3038
悮	-12.3043
椉	-12.3046
膴	-12.3079
屧	-12.3079
馹	-12.308
呪	-12.3081
溱	-12.3081
𣢾	-12.3081
櫬	-12.3086
蔌	-12.3122
沭	-12.3124
醁	-12.3124
刖	-12.3126
㽔	-12.3126
踴	-12.3127
敡	-12.3128
罸	-12.3128
殚	-12.313
譛	-12.3131
閹	-12.3132
匄	-12.3132
茰	-12.3162
豗	-12.3163
筑	-12.3167
黝	-12.3167
鶱	-12.3168
鎰	-12.3168
崕	-12.3203
赱	-12.3208
帔	-12.3208
礲	-12.321
娃	-12.321
蕕	-12.3212
穣	-12.3215
輜	-12.3216
邴	-12.3216
朅	-12.3236
霤	-12.325
獺	-12.3253
跼	-12.3254
傒	-12.3259
礬	-12.3266
◍	-12.3288
溘	-12.3302
碍	-12.3303
隃	-12.3305
騑	-12.334
曖	-12.3347
筩	-12.3348
唘	-12.3351
纘	-12.3353
媵	-12.3387
冑	-12.3389
羆	-12.339
佔	-12.3391
秤	-12.3392
闓	-12.3396
沬	-12.3396
泬	-12.3426
凰	-12.343
朦	-12.3431
螽	-12.3435
莧	-12.3473
飇	-12.3474
聵	-12.3475
牾	-12.3479
皖	-12.348
券	-12.348
瞢	-12.3517
泡	-12.352
莵	-12.3521
爆	-12.3521
鞦	-12.3522
譟	-12.3527
済	-12.3527
豬	-12.3533
碓	-12.3561
慷	-12.3564
絪	-12.3566
聱	-12.3568
邙	-12.3569
舳	-12.3569
蠁	-12.357
罝	-12.3571
逥	-12.3607
豺	-12.3612
㶁	-12.3612
𦙍	-12.3617
娑	-12.3623
諝	-12.3655
洹	-12.3657
赧	-12.3657
謭	-12.3661
秊	-12.3661
禫	-12.3661
潏	-12.3699
荃	-12.37
艣	-12.3701
吃	-12.3702
䌫	-12.3704
憺	-12.3706
舁	-12.3706
瞋	-12.3707
驁	-12.3707
􁁊	-12.3707
噍	-12.3708
汞	-12.3709
輳	-12.371
鞚	-12.3747
贐	-12.3749
𧖟	-12.3749
蘸	-12.3749
嘅	-12.3751
匙	-12.3753
忮	-12.3754
跫	-12.3755
洟	-12.3797
薏	-12.3797
覷	-12.3801
斿	-12.3802
謩	-12.3802
朢	-12.384
醨	-12.3843
凑	-12.3843
璆	-12.3844
襮	-12.3844
謄	-12.3846
賭	-12.3889
䲭	-12.3891
弈	-12.3891
軆	-12.3892
誹	-12.3892
懟	-12.3893
幬	-12.3896
呶	-12.3896
韁	-12.3932
猨	-12.3932
轕	-12.3936
窬	-12.3937
䌓	-12.394
颶	-12.394
晻	-12.3941
呑	-12.3941
恧	-12.3943
撐	-12.398
飰	-12.3983
筲	-12.3986
阽	-12.3988
蠹	-12.3988
獪	-12.4029
玘	-12.4033
媺	-12.4033
祏	-12.4035
婭	-12.4039
唶	-12.404
槱	-12.404
緌	-12.4043
忡	-12.4075
灯	-12.4076
醆	-12.4077
碭	-12.4078
詛	-12.4086
朌	-12.409
唤	-12.4118
汛	-12.4124
蒭	-12.4129
嚅	-12.4129
薈	-12.4129
傴	-12.4132
蜡	-12.4135
唄	-12.4136
紇	-12.4136
卬	-12.4137
酡	-12.4167
洶	-12.4172
𠖇	-12.4176
蕞	-12.4178
脗	-12.4181
篡	-12.4184
乕	-12.4219
狸	-12.4219
舠	-12.422
唁	-12.4223
帕	-12.4223
盬	-12.4224
蜿	-12.4224
黻	-12.423
磈	-12.4265
嵒	-12.4265
卨	-12.4269
嶇	-12.4269
槌	-12.427
恝	-12.427
嚕	-12.4271
淩	-12.4272
孛	-12.4276
畞	-12.4276
轢	-12.4277
寬	-12.4278
粼	-12.4313
喔	-12.4314
蚋	-12.4317
抺	-12.4317
蒂	-12.4318
肸	-12.4321
泐	-12.4321
垕	-12.4323
帨	-12.433
枻	-12.4361
澷	-12.4366
臾	-12.4367
棚	-12.437
􁗩	-12.4371
懴	-12.4372
懃	-12.4373
阪	-12.4373
掦	-12.4374
蛮	-12.4378
卋	-12.4381
颻	-12.4412
秬	-12.4414
罏	-12.4417
洧	-12.4418
描	-12.4418
樣	-12.4421
玳	-12.4421
傖	-12.4422
鄣	-12.4424
讚	-12.4424
蟊	-12.4427
郇	-12.4433
熨	-12.4461
摻	-12.4464
鰕	-12.447
疹	-12.447
聪	-12.4471
腑	-12.4473
扑	-12.4473
哩	-12.4515
籞	-12.4516
輾	-12.4521
呱	-12.4565
炮	-12.4568
浼	-12.4569
紲	-12.457
韝	-12.4571
耜	-12.4615
塿	-12.4616
籕	-12.4618
圈	-12.4619
鍛	-12.4619
侁	-12.4619
睎	-12.4621
灊	-12.4622
歔	-12.4662
譌	-12.4667
獬	-12.4667
鵒	-12.4668
换	-12.467
汸	-12.4671
僇	-12.4672
㗖	-12.4673
皃	-12.4675
罨	-12.4716
肪	-12.4718
鎪	-12.4719
咍	-12.472
窖	-12.4721
乹	-12.4721
庄	-12.4722
墁	-12.4724
韉	-12.4767
帘	-12.4768
玖	-12.4769
轓	-12.477
觖	-12.4772
嫦	-12.4772
踉	-12.4773
肎	-12.4775
咫	-12.4776
陡	-12.4818
跗	-12.482
哆	-12.482
忉	-12.482
澇	-12.482
嚇	-12.4821
鯽	-12.4822
佺	-12.4822
㪺	-12.4822
鏹	-12.4824
蜑	-12.4825
籓	-12.4827
塼	-12.4827
晼	-12.4827
壝	-12.4829
彜	-12.4829
㫺	-12.4829
侗	-12.4871
㶚	-12.4874
筏	-12.4874
廌	-12.4875
賃	-12.4876
卲	-12.4877
甎	-12.4923
踆	-12.4925
昶	-12.4925
鎗	-12.4929
椅	-12.493
羝	-12.4933
醋	-12.4933
彯	-12.494
舲	-12.4974
毿	-12.4976
磑	-12.4977
媛	-12.4979
箝	-12.4979
梦	-12.5025
皴	-12.5027
咮	-12.5028
跏	-12.5029
𡵨	-12.5029
縲	-12.503
舖	-12.503
轎	-12.5032
孌	-12.5032
勗	-12.5032
稊	-12.5079
岏	-12.5079
􁃻	-12.508
籯	-12.5081
䕷	-12.5082
哽	-12.5083
沌	-12.5085
鸇	-12.5085
麰	-12.5085
鎧	-12.5088
簠	-12.509
酺	-12.5092
颼	-12.5129
洑	-12.5133
螫	-12.5135
苡	-12.5135
濰	-12.514
㛰	-12.514
桮	-12.518
猺	-12.5184
蕐	-12.5186
殂	-12.5188
爝	-12.5189
瞶	-12.5189
杰	-12.519
郯	-12.5192
騃	-12.5194
滏	-12.5194
实	-12.5198
扐	-12.5202
巋	-12.5223
岵	-12.5245
胚	-12.5245
焱	-12.5246
鱉	-12.5248
臟	-12.5251
箏	-12.5289
簹	-12.5292
葅	-12.5294
硤	-12.5294
禔	-12.5295
汐	-12.5296
拗	-12.5297
橰	-12.5297
栝	-12.5299
禭	-12.53
紡	-12.53
匭	-12.5301
繢	-12.5303
梱	-12.5305
杷	-12.534
稌	-12.5346
揩	-12.5348
漭	-12.535
姧	-12.5351
趼	-12.5352
僝	-12.5356
偲	-12.5356
鞶	-12.5366
顱	-12.54
挼	-12.54
騘	-12.54
壈	-12.5401
蹌	-12.5401
䭾	-12.5402
襁	-12.5409
斲	-12.5409
蔟	-12.5411
鵜	-12.5411
夤	-12.5414
䘚	-12.5415
靠	-12.5455
晬	-12.5457
邜	-12.5458
灵	-12.5458
髑	-12.5459
颿	-12.5461
饁	-12.5461
驃	-12.5464
鼂	-12.5465
殾	-12.5503
骼	-12.551
眯	-12.551
咻	-12.5512
牗	-12.5512
边	-12.5512
蚍	-12.5513
攣	-12.5514
跚	-12.5515
騄	-12.5516
敉	-12.5517
瑑	-12.552
䞇	-12.5521
颭	-12.5563
倔	-12.5564
𫾣	-12.5566
髏	-12.5568
詼	-12.5569
銕	-12.5569
㝛	-12.557
壒	-12.557
譖	-12.5572
攺	-12.5573
㫄	-12.5574
裼	-12.5587
还	-12.5618
輊	-12.5624
嫚	-12.5624
瓏	-12.5624
痒	-12.5625
臙	-12.5626
砢	-12.5626
鐔	-12.5627
枘	-12.5627
耔	-12.5627
悻	-12.5632
醍	-12.5675
嘱	-12.5681
𨗳	-12.5681
篲	-12.5684
芭	-12.5684
贇	-12.5687
艎	-12.573
瓣	-12.5732
澎	-12.5735
彴	-12.5736
玻	-12.5737
蛺	-12.5737
茭	-12.5738
闞	-12.5738
宐	-12.5739
迕	-12.5741
総	-12.5742
摵	-12.5778
赬	-12.579
簔	-12.579
饉	-12.5791
滙	-12.5791
禩	-12.5794
谹	-12.5796
􁋊	-12.5796
觳	-12.58
捩	-12.58
𥚹	-12.58
枹	-12.5801
劓	-12.5802
庋	-12.5803
猖	-12.5843
蘗	-12.5844
􁊨	-12.5846
椰	-12.5847
嫰	-12.5847
喈	-12.5848
氅	-12.5848
壎	-12.5849
揶	-12.5849
梔	-12.5853
踧	-12.5853
踖	-12.5853
禕	-12.5858
趄	-12.586
濼	-12.5899
琖	-12.59
麞	-12.5903
曨	-12.5904
餳	-12.5909
嵫	-12.591
棫	-12.5915
拽	-12.5961
韲	-12.5964
輭	-12.5965
霣	-12.5966
鞾	-12.5966
挻	-12.5968
滃	-12.5971
卄	-12.5971
頊	-12.5976
濞	-12.5983
􁰽	-12.6019
蜓	-12.6021
娜	-12.6022
踦	-12.6023
籀	-12.6024
蓰	-12.6027
蘅	-12.6071
画	-12.6073
湃	-12.6076
緦	-12.6076
胆	-12.608
擄	-12.608
偬	-12.6081
曀	-12.6081
媸	-12.6082
釅	-12.6082
窃	-12.6082
躪	-12.6084
㳤	-12.6085
听	-12.6085
鱷	-12.6086
尝	-12.6088
穂	-12.6137
俜	-12.614
鑷	-12.614
犹	-12.614
捋	-12.6142
狺	-12.6143
佽	-12.6145
餕	-12.6145
胾	-12.615
哨	-12.6188
皚	-12.6191
薿	-12.6193
㑭	-12.6196
愎	-12.6197
攴	-12.6197
哢	-12.6198
宂	-12.6201
騾	-12.6201
庐	-12.6202
屺	-12.6202
坏	-12.6205
琤	-12.6252
澍	-12.6253
閈	-12.6254
悱	-12.6257
眥	-12.6257
貤	-12.6258
騂	-12.6258
恋	-12.6258
醐	-12.6311
騏	-12.6313
袈	-12.6315
吮	-12.6317
鼃	-12.6317
﨑	-12.6317
歗	-12.6318
桎	-12.6318
懔	-12.6319
枲	-12.6321
隩	-12.6322
呐	-12.6327
鄱	-12.6353
劈	-12.6372
簦	-12.6372
騮	-12.6373
鶺	-12.6374
鸜	-12.6376
娩	-12.6377
驀	-12.6378
搢	-12.6379
殳	-12.638
盭	-12.6381
㢮	-12.6381
鎛	-12.6383
姤	-12.6384
朓	-12.6389
鵑	-12.643
煞	-12.6432
郿	-12.6436
㦄	-12.6436
偓	-12.6437
騕	-12.6438
輀	-12.6438
𢋫	-12.6438
橅	-12.6439
烜	-12.6474
堧	-12.6495
枸	-12.6495
鴆	-12.6496
跧	-12.6497
孳	-12.6497
𤱔	-12.6499
鷟	-12.6499
胝	-12.6499
牴	-12.6501
轔	-12.6501
惷	-12.6503
絛	-12.6503
籋	-12.6503
頖	-12.6504
疥	-12.6504
溯	-12.651
蚪	-12.655
簑	-12.6553
絅	-12.6554
卸	-12.6557
崐	-12.6557
嘒	-12.6558
齓	-12.6558
癰	-12.6558
耴	-12.6559
揠	-12.656
荑	-12.656
疣	-12.6562
蜮	-12.6563
噉	-12.6565
睱	-12.6566
嶒	-12.6611
挐	-12.6612
啣	-12.6618
鄠	-12.6619
瓿	-12.662
螳	-12.6621
閠	-12.6622
諲	-12.6622
糵	-12.6624
晰	-12.6624
閶	-12.6625
攔	-12.6676
捶	-12.6676
搘	-12.6679
蛆	-12.668
䀌	-12.6684
欿	-12.6685
媯	-12.6687
桄	-12.6687
罘	-12.6689
瘼	-12.6729
噱	-12.674
陘	-12.6742
贔	-12.6743
翾	-12.6745
蕘	-12.6746
骳	-12.6749
錘	-12.6755
蝎	-12.6802
轇	-12.6804
捃	-12.6804
豨	-12.6805
謏	-12.681
㘴	-12.681
繻	-12.6811
伻	-12.6812
廏	-12.6813
謖	-12.6815
螿	-12.6862
鰐	-12.6865
夹	-12.6866
裟	-12.6868
蹣	-12.6868
蓁	-12.6869
鐍	-12.6869
姫	-12.6874
跽	-12.6875
鬷	-12.6882
鸕	-12.6925
罥	-12.6926
叡	-12.6927
搬	-12.6928
矇	-12.6928
窿	-12.693
塈	-12.693
雘	-12.6931
璹	-12.6934
鯖	-12.6934
鮓	-12.6939
俵	-12.6939
娓	-12.694
鍚	-12.6942
詁	-12.6989
崈	-12.6989
霙	-12.6991
駈	-12.6991
搭	-12.6991
憀	-12.6993
凴	-12.6994
鸂	-12.6994
􁂗	-12.6995
躚	-12.6995
獮	-12.6996
嬋	-12.6998
噀	-12.6999
鍪	-12.7
崚	-12.7051
啁	-12.7054
頬	-12.7054
仐	-12.7056
鎩	-12.7057
狖	-12.706
穟	-12.706
嬈	-12.7062
鯫	-12.7062
杌	-12.7064
忸	-12.7065
賵	-12.7065
擐	-12.7067
襖	-12.707
嶢	-12.7116
邯	-12.7122
瘢	-12.7122
瞀	-12.7124
鄼	-12.7124
葳	-12.7125
渢	-12.7125
祍	-12.7127
麫	-12.7129
讟	-12.713
蚡	-12.7135
妺	-12.7135
纇	-12.7187
藋	-12.7188
嵎	-12.7189
抨	-12.719
個	-12.7191
倏	-12.7193
泖	-12.7195
郄	-12.7195
墯	-12.7197
郫	-12.7197
翣	-12.725
鬆	-12.7251
鏜	-12.7254
櫚	-12.7255
䔩	-12.7255
廱	-12.7255
满	-12.7256
瑁	-12.7257
妤	-12.7261
桁	-12.7263
嘷	-12.7263
枇	-12.7309
箬	-12.7316
靨	-12.7317
胖	-12.7321
􁊫	-12.7321
栅	-12.7321
謪	-12.7322
葯	-12.7323
㫋	-12.7333
萁	-12.7378
噶	-12.7381
稂	-12.7383
摺	-12.7386
樷	-12.7386
駘	-12.7387
婪	-12.7387
斆	-12.7388
怎	-12.739
霶	-12.7391
㘭	-12.7393
旡	-12.7395
迍	-12.7449
囓	-12.745
鹺	-12.7452
霪	-12.7452
窽	-12.7453
樟	-12.7456
兜	-12.7459
孜	-12.7461
鄢	-12.7462
滬	-12.7467
磋	-12.7516
嶰	-12.7521
悤	-12.7521
曕	-12.7524
坯	-12.7524
骫	-12.7526
譾	-12.7528
鷀	-12.758
𪷟	-12.758
郟	-12.7587
醽	-12.7588
嗾	-12.7589
儈	-12.7592
訌	-12.7592
廋	-12.7592
陴	-12.7594
襚	-12.7595
漶	-12.7596
皿	-12.7598
葫	-12.7649
詿	-12.7653
眈	-12.7653
塌	-12.7654
霎	-12.7655
䍦	-12.7658
惔	-12.7658
裛	-12.7659
齁	-12.766
瘉	-12.766
湎	-12.7663
搉	-12.7667
墙	-12.7717
蓞	-12.7724
醵	-12.7726
姹	-12.7727
簜	-12.7727
抔	-12.7728
娠	-12.7729
髹	-12.7733
芑	-12.7788
墦	-12.779
潸	-12.7792
燐	-12.7792
煢	-12.7793
蜻	-12.7793
箜	-12.7793
齠	-12.7796
埤	-12.7797
冄	-12.7797
麵	-12.7797
溶	-12.7798
媢	-12.7801
狁	-12.7804
瘥	-12.7859
篌	-12.7861
儇	-12.7863
閾	-12.7866
鯢	-12.7867
怫	-12.7868
剜	-12.7926
仿	-12.793
襞	-12.793
𪠘	-12.7933
黧	-12.7934
眵	-12.7934
阯	-12.7935
祸	-12.7935
橄	-12.7936
牣	-12.7939
溲	-12.794
穸	-12.7947
篪	-12.8001
虓	-12.8002
擡	-12.8002
鶗	-12.8002
魅	-12.8002
桺	-12.8005
嵳	-12.8005
丧	-12.8005
珈	-12.8008
繰	-12.801
洫	-12.8022
矰	-12.8065
鏑	-12.8071
鮭	-12.8072
藟	-12.8073
稏	-12.8073
蔥	-12.8073
墖	-12.8074
翶	-12.8074
蹻	-12.8075
枷	-12.8078
駔	-12.8078
牂	-12.8079
蝣	-12.8079
弇	-12.8081
檗	-12.8138
􁁃	-12.8141
鶡	-12.8141
蹷	-12.8144
屭	-12.8145
璚	-12.8147
膈	-12.8148
㕑	-12.8149
籝	-12.815
茇	-12.8152
郗	-12.8153
淥	-12.8155
郃	-12.816
駰	-12.816
串	-12.821
虯	-12.8213
飀	-12.8215
姱	-12.8215
刊	-12.8217
嵲	-12.8217
眦	-12.8218
萇	-12.8218
焄	-12.8221
剌	-12.8221
脰	-12.8221
膰	-12.8222
鎚	-12.8223
傃	-12.8223
燹	-12.8223
凨	-12.8281
鋋	-12.8283
䬃	-12.8285
徉	-12.8286
繍	-12.8289
蟆	-12.8292
襜	-12.8292
縵	-12.8293
蠋	-12.8303
帟	-12.8353
􁒽	-12.8357
糅	-12.8358
痿	-12.8362
傘	-12.8363
𦦨	-12.8364
繖	-12.8365
嗑	-12.8367
侠	-12.8367
狭	-12.8368
爚	-12.837
􁅋	-12.8373
溈	-12.8373
罾	-12.8426
鯿	-12.8426
撕	-12.8439
嘵	-12.8439
􁐾	-12.844
礦	-12.844
櫃	-12.8441
縗	-12.8442
洿	-12.8443
努	-12.8496
綌	-12.8504
鞿	-12.8507
菆	-12.8507
胭	-12.8508
孶	-12.8509
灋	-12.851
崤	-12.8511
禬	-12.8511
杇	-12.8512
佾	-12.8516
窹	-12.8516
𢷬	-12.8516
异	-12.8521
蘺	-12.8578
肫	-12.8583
倭	-12.8583
渫	-12.8583
鬐	-12.8585
闒	-12.8586
蝇	-12.8588
鬅	-12.8589
耉	-12.859
蒜	-12.8591
觫	-12.8592
眂	-12.8595
啻	-12.8648
捽	-12.8655
儺	-12.8655
􁐇	-12.866
鎌	-12.8661
㳫	-12.8663
稡	-12.8667
鼾	-12.8728
毶	-12.8732
鐶	-12.8732
氍	-12.8732
痏	-12.8732
罽	-12.8733
瑄	-12.8735
狴	-12.8739
淟	-12.8739
閡	-12.8739
蒺	-12.8739
冇	-12.874
檮	-12.8744
闑	-12.8746
蹁	-12.8808
鷴	-12.8809
宁	-12.8809
齗	-12.8812
蕾	-12.8812
耼	-12.8812
栟	-12.8813
桉	-12.8814
鏌	-12.8815
忖	-12.8817
貓	-12.8819
匃	-12.8823
翌	-12.887
偰	-12.8875
酔	-12.8881
璮	-12.8883
鯈	-12.8885
兗	-12.8887
殪	-12.8887
汧	-12.8887
咬	-12.8891
鍧	-12.8891
襌	-12.8891
椹	-12.8892
縡	-12.8893
􁁅	-12.8895
洸	-12.8903
猘	-12.8963
桅	-12.8963
筥	-12.8966
嗒	-12.8966
宷	-12.8967
涑	-12.8968
覌	-12.8969
溆	-12.897
柞	-12.897
劌	-12.897
鄘	-12.897
簴	-12.8971
㞐	-12.8973
醎	-12.9042
囦	-12.9043
詗	-12.9047
恡	-12.9048
絞	-12.9049
棖	-12.905
杠	-12.905
痰	-12.9052
埶	-12.9121
鸑	-12.9122
恟	-12.9124
萏	-12.9126
憙	-12.9128
离	-12.9128
𤯝	-12.9128
禜	-12.9128
瀲	-12.9129
虔	-12.9135
躞	-12.9197
抖	-12.9197
䆉	-12.9201
终	-12.9202
怔	-12.9203
殮	-12.9203
秭	-12.9204
戺	-12.9207
螻	-12.9207
彷	-12.9276
黮	-12.928
飪	-12.928
篩	-12.9281
忼	-12.9282
齕	-12.9282
屦	-12.9285
偵	-12.9286
綯	-12.9288
趦	-12.9292
茜	-12.9356
鄖	-12.9357
瓞	-12.9358
丫	-12.9362
烖	-12.9363
歜	-12.9364
箒	-12.9364
蹏	-12.9364
璀	-12.9365
瑠	-12.9368
岢	-12.937
麑	-12.937
暹	-12.9371
朐	-12.9374
蕢	-12.9376
􁲍	-12.9439
櫨	-12.9441
哮	-12.9443
褪	-12.9443
伹	-12.9443
槲	-12.9444
蚯	-12.9444
贗	-12.9447
㒹	-12.9447
㮚	-12.9448
髄	-12.9448
帋	-12.9449
紞	-12.9452
渰	-12.9453
蔞	-12.9522
砲	-12.9525
桶	-12.9526
茝	-12.9526
䘖	-12.9526
縋	-12.9527
頔	-12.953
𦍑	-12.9533
奫	-12.9538
菹	-12.9607
繐	-12.9608
橡	-12.9609
𬗟	-12.961
鬙	-12.9611
檇	-12.9612
侫	-12.9613
禖	-12.9613
麕	-12.9616
嚳	-12.9616
鞮	-12.9616
脞	-12.9617
芎	-12.9619
鮪	-12.962
畣	-12.9686
髽	-12.9687
嬙	-12.9692
蘤	-12.9692
瀍	-12.9694
𨼆	-12.9694
呦	-12.9698
宙	-12.9698
觕	-12.9699
毣	-12.9706
濘	-12.9768
鵓	-12.9769
惚	-12.9776
邛	-12.9778
菀	-12.978
尠	-12.978
帬	-12.9782
煕	-12.9783
璪	-12.9784
籧	-12.9785
艋	-12.9852
癈	-12.9854
裸	-12.9862
萋	-12.9864
倆	-12.9864
蜴	-12.9867
雱	-12.9869
琥	-12.987
魋	-12.987
趯	-12.9871
絇	-12.9872
祊	-12.9872
舴	-12.9938
琹	-12.9939
淼	-12.9941
胯	-12.9941
焼	-12.9943
㙜	-12.9944
跑	-12.9948
轆	-12.9948
嶓	-12.9949
瞪	-12.9949
腓	-12.995
苶	-12.9952
矱	-12.9952
癉	-12.9955
懊	-13.0029
倂	-13.003
蹠	-13.0031
姸	-13.0031
裯	-13.0033
蓻	-13.0035
攤	-13.0036
觱	-13.0037
啗	-13.0037
覡	-13.0109
肚	-13.0111
㗸	-13.0114
纁	-13.0116
櫩	-13.0117
袢	-13.0118
裵	-13.0119
􁒐	-13.012
釭	-13.012
蛉	-13.0123
秕	-13.0124
焕	-13.0124
肓	-13.0125
鎡	-13.0127
龢	-13.0128
蛄	-13.0129
儵	-13.021
愓	-13.021
瓔	-13.021
衊	-13.021
眙	-13.0212
刦	-13.0214
篾	-13.0214
慁	-13.0218
擻	-13.0292
芙	-13.0292
萑	-13.0294
徕	-13.0295
逶	-13.0295
䞉	-13.0295
糺	-13.0298
莛	-13.0298
蓉	-13.0298
栩	-13.0299
齔	-13.0299
昺	-13.03
棻	-13.0305
喆	-13.0308
欃	-13.0381
鶒	-13.0381
芍	-13.0381
嘬	-13.0382
僰	-13.0384
甔	-13.0386
餫	-13.0387
睚	-13.0389
滇	-13.0391
榿	-13.0395
琲	-13.0471
𬈑	-13.0472
濊	-13.0477
圄	-13.0479
胼	-13.0484
䪨	-13.0563
憃	-13.0567
凹	-13.0567
麦	-13.0567
徨	-13.0568
􁁪	-13.0569
矼	-13.057
欬	-13.0571
旤	-13.0571
駙	-13.0572
衺	-13.0573
狨	-13.0574
驎	-13.0648
褧	-13.065
盩	-13.0651
愞	-13.0654
鶵	-13.0655
㕍	-13.0655
篸	-13.0657
㠝	-13.0657
蝠	-13.0658
駃	-13.0658
蝀	-13.0661
箑	-13.0661
週	-13.0662
𣆀	-13.0662
惎	-13.0662
郅	-13.0674
戣	-13.0674
􁑴	-13.0742
翆	-13.0744
澱	-13.0744
怊	-13.0745
鱖	-13.0748
勔	-13.0749
爺	-13.0751
湾	-13.0751
湩	-13.0752
𢡟	-13.0753
冏	-13.0753
婀	-13.0754
喋	-13.0757
襫	-13.076
婘	-13.0764
【	-13.0837
搥	-13.0839
臊	-13.0843
嘐	-13.0845
擥	-13.0845
喣	-13.0846
蠕	-13.0846
㫪	-13.0846
誶	-13.0846
浃	-13.0846
耡	-13.0848
婕	-13.0851
侄	-13.0851
襏	-13.0854
篨	-13.0854
匈	-13.0935
蜘	-13.0936
饍	-13.0937
瀋	-13.0938
梃	-13.0939
鴿	-13.0939
暐	-13.0941
霂	-13.0941
墐	-13.0943
屆	-13.0949
玁	-13.0952
敓	-13.1027
糯	-13.1028
鬨	-13.103
嚌	-13.103
􁒭	-13.1031
笭	-13.1036
䥴	-13.1036
媾	-13.1036
臝	-13.1037
欖	-13.1038
呫	-13.1039
娭	-13.1044
痔	-13.1126
嶸	-13.1128
薅	-13.1129
鑕	-13.1129
諟	-13.1132
柸	-13.1132
㯶	-13.1133
錠	-13.1133
巑	-13.1133
箆	-13.1133
甽	-13.1134
尻	-13.1136
朏	-13.1136
攵	-13.114
鞲	-13.1218
瞍	-13.122
殢	-13.1223
戔	-13.1225
瑊	-13.123
韀	-13.123
娼	-13.1231
叉	-13.1234
甆	-13.1236
㬰	-13.1317
碕	-13.1318
碪	-13.1318
鷇	-13.1319
椁	-13.1319
蠙	-13.1323
簏	-13.1324
撡	-13.1324
笁	-13.1325
荗	-13.1325
秸	-13.1325
氂	-13.1326
覼	-13.1327
氲	-13.1328
肹	-13.1329
匵	-13.1329
餱	-13.1329
甯	-13.1329
蟪	-13.1331
絏	-13.1336
耤	-13.134
銑	-13.1342
撇	-13.1419
餮	-13.142
寉	-13.1422
狻	-13.1425
糖	-13.1425
㴞	-13.1426
蕎	-13.1426
䆮	-13.1427
廑	-13.1428
咳	-13.1428
箵	-13.1429
幞	-13.1429
缽	-13.143
銍	-13.1431
螣	-13.1431
裌	-13.1432
殣	-13.1522
硜	-13.1523
樅	-13.1525
鬒	-13.1528
􁁄	-13.1529
穜	-13.1529
炰	-13.1532
妒	-13.1534
𩔖	-13.1621
勰	-13.1624
佻	-13.1625
鰌	-13.1625
俑	-13.1625
貙	-13.1626
晢	-13.1626
嫖	-13.1627
䜿	-13.1628
吷	-13.163
蜥	-13.163
韐	-13.163
躄	-13.1634
􁥫	-13.1635
撗	-13.1636
幰	-13.1723
泂	-13.1727
襴	-13.173
柙	-13.1731
匽	-13.1731
怩	-13.1731
刧	-13.1732
蹐	-13.1732
戻	-13.1733
徔	-13.1739
聡	-13.1745
僛	-13.182
酴	-13.1824
疉	-13.1825
㲲	-13.1826
惝	-13.1826
瞎	-13.1826
廚	-13.1827
𣪚	-13.1828
頮	-13.1828
鬧	-13.1828
滫	-13.1829
珌	-13.1829
酖	-13.1831
倜	-13.1832
㽜	-13.1833
菔	-13.1833
剃	-13.1834
胔	-13.1835
慴	-13.1836
埓	-13.1836
憝	-13.1836
肈	-13.1837
刅	-13.1838
踸	-13.1842
駉	-13.1842
􁦹	-13.1844
崟	-13.1926
嵂	-13.1927
蘢	-13.193
鏟	-13.1935
禝	-13.1935
栰	-13.1936
􁒏	-13.1936
慍	-13.1936
麏	-13.1936
擗	-13.1936
站	-13.1936
鳲	-13.1939
觶	-13.1939
褉	-13.1941
稺	-13.1944
赳	-13.1945
戬	-13.1949
顫	-13.2034
䣊	-13.2035
楶	-13.2035
睍	-13.2035
礧	-13.2037
竑	-13.2037
牯	-13.2038
嵊	-13.2042
羑	-13.2042
眢	-13.2043
蓧	-13.2044
匜	-13.2045
鞓	-13.2047
鼷	-13.2048
鑛	-13.2049
匶	-13.205
罳	-13.2051
圞	-13.2139
歈	-13.214
訹	-13.2142
灸	-13.2142
獒	-13.2143
𥅆	-13.2145
伾	-13.2145
鷥	-13.2146
裀	-13.2147
甖	-13.2147
笱	-13.2148
蒻	-13.2148
㬌	-13.2149
莬	-13.2149
痍	-13.2151
暱	-13.2152
紃	-13.2157
睞	-13.2159
蘃	-13.2238
荳	-13.2248
罣	-13.2249
驌	-13.225
轝	-13.2252
榾	-13.2254
挨	-13.2254
軛	-13.2254
萝	-13.2254
𫝊	-13.2256
郜	-13.2257
尨	-13.2258
揵	-13.2259
僶	-13.2259
搨	-13.2259
剋	-13.2259
瑱	-13.2259
嘨	-13.2261
咒	-13.2262
剱	-13.2269
痞	-13.2272
鸚	-13.2357
扅	-13.2358
匆	-13.2359
澨	-13.2361
譸	-13.2362
䄡	-13.2364
蒍	-13.2364
獍	-13.2365
珞	-13.2365
涬	-13.2365
􁆁	-13.2366
霡	-13.2366
嵋	-13.2368
珽	-13.2368
陿	-13.2368
很	-13.2369
哷	-13.2372
賍	-13.2373
㚄	-13.2374
蘼	-13.2466
毹	-13.2467
扊	-13.2468
刎	-13.2468
闤	-13.2469
郾	-13.247
峪	-13.247
櫑	-13.2471
酆	-13.2471
輴	-13.2471
糚	-13.2473
摐	-13.2473
逌	-13.2473
汍	-13.2473
惙	-13.2474
梲	-13.2474
偘	-13.2474
臏	-13.2476
憖	-13.2477
燉	-13.2478
荏	-13.2478
洌	-13.2479
旜	-13.2481
􁈯	-13.2481
杙	-13.2481
簌	-13.2571
窊	-13.2577
嶁	-13.2578
湥	-13.2579
踶	-13.2579
檥	-13.258
柢	-13.258
莉	-13.2581
蹮	-13.2582
寠	-13.2583
姍	-13.2583
騭	-13.2586
㰸	-13.2587
髧	-13.2587
􁂶	-13.2588
潙	-13.2588
楔	-13.2592
砉	-13.2593
􁡯	-13.2688
杆	-13.2691
郸	-13.2692
痡	-13.2693
楝	-13.2694
僎	-13.2695
㯽	-13.2695
滀	-13.2696
劚	-13.2696
荈	-13.2697
噞	-13.2697
縊	-13.2698
𥻘	-13.2698
缿	-13.2699
肰	-13.2699
穷	-13.2701
䀆	-13.2702
卣	-13.2703
逑	-13.2706
䯻	-13.2706
秌	-13.2799
憨	-13.2803
崿	-13.2804
忞	-13.2808
騅	-13.2809
亝	-13.2809
騤	-13.2811
慺	-13.2812
笴	-13.2813
㴠	-13.2813
涊	-13.2815
鉶	-13.2815
谺	-13.2815
昪	-13.2816
痁	-13.2818
巣	-13.282
㬥	-13.2821
菖	-13.2918
鎸	-13.2918
矞	-13.2921
􁑼	-13.2922
飊	-13.2922
趐	-13.2924
􁁜	-13.2924
虡	-13.2926
圑	-13.2928
跟	-13.2928
噦	-13.2928
瑙	-13.2929
犄	-13.2929
蜾	-13.2929
櫽	-13.293
靮	-13.293
蝮	-13.2931
旉	-13.2931
鮐	-13.2931
鬖	-13.3024
圡	-13.3034
驦	-13.3035
雊	-13.3035
蓓	-13.3036
豉	-13.3036
辣	-13.3036
趕	-13.3038
歠	-13.3038
鞘	-13.304
傋	-13.304
茉	-13.304
濈	-13.3041
从	-13.3041
􁄂	-13.3041
蚿	-13.3043
􁆸	-13.3043
絙	-13.3044
硉	-13.3046
悝	-13.3049
坷	-13.305
师	-13.3051
欸	-13.3052
瑳	-13.3052
􁀾	-13.3052
薮	-13.3147
厔	-13.3149
崘	-13.3152
褕	-13.3154
鳷	-13.3155
観	-13.3156
抝	-13.3157
蝙	-13.3157
䂊	-13.3159
灕	-13.3256
鸝	-13.3271
棕	-13.3271
茄	-13.3272
蜷	-13.3275
垜	-13.3276
璁	-13.3276
膻	-13.3276
腯	-13.3276
􁩑	-13.3278
醤	-13.3279
􁊬	-13.3281
暠	-13.3281
硏	-13.3282
漈	-13.3283
鐂	-13.3284
楛	-13.3286
杗	-13.3289
瓷	-13.3387
岣	-13.3392
􁲛	-13.3394
蕺	-13.3396
崷	-13.3397
柮	-13.3397
蔔	-13.3398
谽	-13.3398
嚀	-13.3399
吒	-13.3399
栱	-13.3401
鎁	-13.3402
儤	-13.3403
洚	-13.3403
圬	-13.3404
㰱	-13.3404
矝	-13.3405
蜋	-13.3406
俁	-13.3408
熇	-13.3512
佪	-13.3515
祅	-13.3515
絓	-13.352
澂	-13.3521
啅	-13.3521
禿	-13.3521
苹	-13.3522
勱	-13.3522
螮	-13.3523
酃	-13.3523
腠	-13.3523
珤	-13.3524
攟	-13.3524
䖟	-13.3531
鬴	-13.3636
汹	-13.3636
蛬	-13.3637
砰	-13.3639
漘	-13.3639
迮	-13.3641
彿	-13.3641
岊	-13.3642
菉	-13.3644
鄔	-13.3645
骭	-13.3646
捭	-13.3646
幪	-13.3647
咆	-13.3649
嗽	-13.3653
羾	-13.3656
懍	-13.3658
摳	-13.3763
嘹	-13.3763
訒	-13.3764
揑	-13.3764
棱	-13.3765
杕	-13.3765
蔦	-13.3766
䦧	-13.377
仡	-13.3773
嫻	-13.3775
􁍇	-13.3775
暏	-13.3776
䢴	-13.3777
輤	-13.3777
齦	-13.3787
慓	-13.3791
蝌	-13.3878
巓	-13.3884
搦	-13.389
怗	-13.3892
嶤	-13.3892
觝	-13.3893
凸	-13.3893
叮	-13.3894
侂	-13.3895
廥	-13.3896
鰓	-13.3897
蹰	-13.3897
屇	-13.3898
蒱	-13.3899
慆	-13.3902
倕	-13.3904
咋	-13.3905
􁃽	-13.3905
棬	-13.3905
頲	-13.3906
凬	-13.4017
蓘	-13.4017
滳	-13.4017
瀁	-13.4018
雰	-13.4018
緐	-13.4023
圏	-13.4024
龠	-13.4025
搤	-13.4025
峕	-13.4025
璈	-13.4025
宄	-13.4026
鼪	-13.4027
􁀌	-13.4027
魍	-13.4027
袝	-13.4028
靁	-13.4031
䛇	-13.4032
禴	-13.4038
蜊	-13.4143
𤼵	-13.4147
鷂	-13.4149
躧	-13.4151
霔	-13.4151
劂	-13.4152
蹡	-13.4152
籹	-13.4152
􁄻	-13.4153
僴	-13.4154
摰	-13.4154
楂	-13.4154
沲	-13.4154
晣	-13.4158
牐	-13.4279
釗	-13.4281
蠃	-13.4282
顴	-13.4282
餖	-13.4282
沇	-13.4285
貇	-13.4285
砆	-13.4286
詧	-13.4287
廙	-13.4287
穪	-13.4288
拮	-13.429
蛸	-13.4291
蠨	-13.4292
􁀈	-13.4292
饎	-13.4293
蓏	-13.4293
坱	-13.43
臓	-13.4412
炉	-13.4412
嵸	-13.4413
瀡	-13.4415
柚	-13.4417
襶	-13.4417
琇	-13.4417
嶻	-13.4418
檳	-13.4419
躊	-13.442
崪	-13.4422
麛	-13.4424
垍	-13.4428
旍	-13.4536
睆	-13.4546
慇	-13.4548
毰	-13.4549
遛	-13.455
㬇	-13.455
鈕	-13.455
瞩	-13.4551
頩	-13.4552
煆	-13.4552
酇	-13.4553
碗	-13.4553
阱	-13.4554
骾	-13.4554
翀	-13.4554
騧	-13.4555
㣧	-13.4556
彍	-13.4557
蜍	-13.4559
枽	-13.4559
晜	-13.4559
窌	-13.4559
頁	-13.456
㰖	-13.456
褘	-13.4561
麒	-13.4561
嵆	-13.4562
玫	-13.4562
螗	-13.4565
枤	-13.4567
禡	-13.4569
嗛	-13.457
醾	-13.4684
藷	-13.4687
翽	-13.4688
郍	-13.4688
枅	-13.4688
褦	-13.4689
鷫	-13.469
矌	-13.469
斝	-13.469
踘	-13.4692
柈	-13.4693
膊	-13.4698
湑	-13.4704
䠂	-13.4818
贋	-13.482
􁁂	-13.4822
旆	-13.4823
揫	-13.4824
㬉	-13.4824
巃	-13.4825
䍧	-13.4827
疃	-13.4828
䁀	-13.4828
􁀫	-13.483
蟺	-13.4833
輗	-13.4833
綀	-13.4834
弢	-13.4834
喃	-13.4835
諴	-13.4835
涣	-13.4835
惄	-13.4838
虽	-13.4839
璩	-13.4841
玅	-13.4963
晒	-13.4964
汊	-13.4965
侖	-13.4965
灩	-13.4967
剞	-13.4967
疼	-13.4968
妳	-13.4969
旎	-13.4969
鸘	-13.497
磥	-13.4971
獐	-13.4971
筤	-13.4972
鮎	-13.4973
楗	-13.4973
酗	-13.4973
韠	-13.4974
鏄	-13.4977
紕	-13.4979
氶	-13.4981
籛	-13.5105
皛	-13.5108
鄄	-13.5109
哄	-13.511
㘽	-13.5111
歯	-13.5111
灶	-13.5112
贒	-13.5112
袚	-13.5114
銚	-13.5115
掻	-13.5116
摴	-13.5116
銭	-13.5117
嗃	-13.5118
嘽	-13.5122
廞	-13.5123
鵊	-13.5246
篛	-13.5247
蝱	-13.5249
峥	-13.5252
褓	-13.5252
闃	-13.5252
愳	-13.5253
潩	-13.5255
蹯	-13.5255
讖	-13.5259
骩	-13.526
焴	-13.526
忪	-13.5261
晹	-13.5261
澼	-13.5262
頞	-13.5262
嫄	-13.5263
捻	-13.5263
胹	-13.5264
槪	-13.5267
絍	-13.5275
槭	-13.5389
蕈	-13.5394
􁈡	-13.5398
渼	-13.5398
洏	-13.5399
桕	-13.5399
吚	-13.54
鰍	-13.5401
羜	-13.5402
􁇦	-13.5402
殲	-13.5402
执	-13.5404
訿	-13.5405
穮	-13.5406
竛	-13.5406
鑴	-13.5407
儳	-13.5407
袷	-13.5408
䘵	-13.5408
兟	-13.5408
鄽	-13.5409
赩	-13.5409
痢	-13.541
胤	-13.541
燋	-13.541
媕	-13.5411
鶹	-13.5416
俔	-13.5417
阬	-13.5419
蟫	-13.555
蔫	-13.5551
椶	-13.5551
厺	-13.5552
璐	-13.5552
匳	-13.5552
嫜	-13.5553
皸	-13.5553
竮	-13.5554
賺	-13.5554
搰	-13.5556
媼	-13.5556
崙	-13.5556
佖	-13.5557
趠	-13.5558
惛	-13.556
橛	-13.556
杻	-13.556
脤	-13.5561
霊	-13.5561
捎	-13.5562
們	-13.5563
嚘	-13.5563
鼗	-13.569
鴣	-13.5693
樑	-13.5697
嗈	-13.5698
瘏	-13.5698
鱮	-13.5699
鶬	-13.5699
邽	-13.5701
閿	-13.5702
晛	-13.5703
份	-13.5705
鰻	-13.5708
輥	-13.5708
熺	-13.571
鋼	-13.5711
轑	-13.5712
堋	-13.5713
坪	-13.5714
唃	-13.5714
鬃	-13.5715
樺	-13.5718
敧	-13.5844
鵯	-13.5851
傀	-13.5853
嫫	-13.5853
寑	-13.5853
孠	-13.5854
􁄀	-13.5855
唆	-13.5855
搯	-13.5856
呴	-13.5857
矉	-13.5857
菼	-13.5857
报	-13.5857
弸	-13.5858
笮	-13.5858
搒	-13.5859
鍇	-13.5859
􁯾	-13.586
􁀍	-13.586
蠓	-13.5861
􁂦	-13.5862
瑨	-13.5862
戃	-13.5864
儐	-13.5864
􁃦	-13.5866
呿	-13.5866
禨	-13.5866
墄	-13.5867
腷	-13.5867
憬	-13.5869
岧	-13.6005
犠	-13.6006
䏑	-13.6009
檉	-13.6011
􁈜	-13.6012
蓆	-13.6013
鄯	-13.6014
磎	-13.6014
讁	-13.6017
媻	-13.6021
瘐	-13.6022
娉	-13.6022
篳	-13.6022
髥	-13.6024
蝝	-13.6029
糁	-13.6166
敔	-13.6168
槥	-13.6169
焮	-13.6171
碔	-13.6173
邶	-13.6174
禂	-13.6175
騣	-13.6175
媍	-13.6175
虙	-13.6175
綳	-13.6176
劖	-13.6178
丏	-13.6178
烙	-13.6182
􁈔	-13.6182
貭	-13.6184
妁	-13.6185
蚨	-13.6186
亹	-13.6188
鷸	-13.6188
㗋	-13.6199
怦	-13.6326
嘴	-13.6327
簘	-13.6327
趫	-13.6327
糈	-13.6334
鄶	-13.6336
坫	-13.6336
􁒓	-13.6337
蛭	-13.6337
燀	-13.634
僾	-13.634
跅	-13.6341
鑼	-13.6341
时	-13.6343
兦	-13.6344
玲	-13.6348
噭	-13.6484
躳	-13.6492
萟	-13.6494
獼	-13.6494
鶄	-13.6495
㷔	-13.6497
􁂨	-13.6497
拇	-13.6497
潺	-13.6499
嫺	-13.65
囅	-13.6501
綢	-13.6503
嫮	-13.6503
琶	-13.6504
􁭋	-13.6504
斎	-13.6505
荊	-13.6506
鞌	-13.6507
蝤	-13.6509
鄫	-13.6514
閞	-13.666
蜨	-13.6661
籐	-13.6661
鶂	-13.6662
冞	-13.6663
栴	-13.6665
贜	-13.6665
滆	-13.6667
泅	-13.6668
裋	-13.6668
嬀	-13.6669
砮	-13.6669
蓿	-13.667
訑	-13.6671
忺	-13.6673
囱	-13.6673
碌	-13.6674
餁	-13.6674
嫕	-13.6676
戹	-13.6678
鍍	-13.6678
厘	-13.6678
鶋	-13.6679
墠	-13.668
嚞	-13.6829
妷	-13.683
珦	-13.683
裓	-13.683
􁚠	-13.683
􁆭	-13.683
濉	-13.6831
汳	-13.6832
幛	-13.6833
賮	-13.6834
嫋	-13.6834
玕	-13.6835
礮	-13.6835
妯	-13.6835
眹	-13.6835
藭	-13.6835
蠛	-13.6836
嗁	-13.6836
擭	-13.6837
頟	-13.6837
􁒍	-13.6838
􁂍	-13.684
螂	-13.684
潚	-13.6841
煗	-13.6844
瑒	-13.6847
燖	-13.6853
􁂮	-13.6991
旖	-13.7
鵁	-13.7002
幇	-13.7004
柷	-13.7004
壩	-13.7005
臲	-13.7006
牷	-13.7007
嘑	-13.7007
􁈋	-13.7009
喏	-13.7009
㞦	-13.7009
畇	-13.701
唼	-13.7011
鄏	-13.7013
邲	-13.7013
陊	-13.7014
綖	-13.7015
痟	-13.7017
弮	-13.7017
愫	-13.7017
柤	-13.702
鷦	-13.702
䄖	-13.7021
篴	-13.7173
􁄄	-13.7175
㧾	-13.7177
􁏉	-13.7179
潨	-13.7179
菩	-13.718
噏	-13.7181
鏬	-13.7183
脽	-13.7183
胠	-13.7183
疪	-13.7184
韍	-13.7184
硃	-13.7186
蜒	-13.7186
􁒷	-13.7186
艧	-13.7188
幨	-13.7189
餚	-13.719
羖	-13.7192
稇	-13.7192
纆	-13.7193
筓	-13.7195
脹	-13.7198
鶢	-13.7201
隹	-13.7353
炁	-13.7353
靉	-13.7355
騋	-13.7356
霮	-13.7357
􁰵	-13.7358
抶	-13.7359
钁	-13.7359
疐	-13.736
斮	-13.7361
茞	-13.7361
筰	-13.7363
絖	-13.7363
膄	-13.7365
爟	-13.7366
幐	-13.7366
姉	-13.7368
褻	-13.737
毯	-13.737
跲	-13.737
皡	-13.737
蕰	-13.7371
弆	-13.7374
􁚙	-13.7379
靼	-13.7527
䨴	-13.753
檛	-13.7531
攲	-13.7532
􁁓	-13.7536
坵	-13.7536
堲	-13.7537
欻	-13.7537
搓	-13.7537
㢠	-13.7538
𤦺	-13.7539
𠻳	-13.7541
䀨	-13.7541
㵸	-13.7542
廰	-13.7542
莓	-13.7543
艑	-13.7543
蟈	-13.7543
麹	-13.7546
鞴	-13.7548
灺	-13.7548
隟	-13.7549
𦵔	-13.7549
鼛	-13.7549
喊	-13.755
蛑	-13.7552
麪	-13.7552
躒	-13.7554
鵂	-13.7555
氄	-13.7555
􁉡	-13.7557
蔇	-13.756
􁝠	-13.7561
幈	-13.771
另	-13.7716
􁦛	-13.7721
凘	-13.7722
邹	-13.7723
毌	-13.7723
袛	-13.7725
缷	-13.7725
畈	-13.7727
昡	-13.7727
姣	-13.7728
鍥	-13.773
玭	-13.773
捿	-13.773
倀	-13.7732
漩	-13.7732
􁆢	-13.7732
鏦	-13.7734
囝	-13.7734
􁏠	-13.7736
軏	-13.7742
碇	-13.7742
偫	-13.7742
􁐻	-13.7746
竞	-13.7906
豅	-13.7907
偎	-13.7907
娄	-13.7911
􁃔	-13.7911
隖	-13.7912
㕙	-13.7912
嵽	-13.7914
㮄	-13.7914
亁	-13.7915
劲	-13.7915
獃	-13.7915
髣	-13.7916
㙮	-13.7916
歹	-13.7916
踠	-13.7916
憯	-13.7916
歕	-13.7918
􁂫	-13.7918
鍋	-13.7919
曡	-13.792
苃	-13.7921
仳	-13.7921
䓤	-13.7922
芣	-13.7922
権	-13.7922
剣	-13.7922
沕	-13.7923
寿	-13.7928
堨	-13.793
検	-13.7936
窰	-13.8087
蟒	-13.8103
鶖	-13.8105
轘	-13.8106
馗	-13.8107
狶	-13.8108
葚	-13.8108
䨥	-13.8109
剉	-13.8109
套	-13.8109
駸	-13.8111
愸	-13.8113
䄄	-13.8113
灂	-13.8113
窑	-13.8114
璲	-13.8114
啐	-13.8115
婞	-13.8116
瘤	-13.8116
厩	-13.8117
黶	-13.8118
灮	-13.8123
犗	-13.8124
陏	-13.8127
玼	-13.8131
􁢋	-13.8133
􁡾	-13.8284
婵	-13.8289
􁪽	-13.8296
郕	-13.8296
窱	-13.8299
雑	-13.83
轗	-13.8302
歃	-13.8302
韮	-13.8303
邰	-13.8303
𤏡	-13.8303
堮	-13.8303
櫧	-13.8305
袗	-13.8305
雏	-13.8306
叄	-13.8306
楳	-13.8308
膇	-13.8308
齅	-13.8311
抚	-13.8311
㬊	-13.8312
􁱝	-13.8315
閗	-13.8315
􁮺	-13.8315
􁐳	-13.8315
陻	-13.8316
㽘	-13.8317
淰	-13.832
芲	-13.8474
耑	-13.8489
􁃜	-13.8496
悢	-13.8498
㴻	-13.8498
㬢	-13.8498
篦	-13.8503
黈	-13.8503
醝	-13.8504
蝥	-13.8505
嵘	-13.8505
􁐨	-13.8505
呷	-13.8507
礽	-13.8507
轣	-13.8507
磾	-13.8507
偭	-13.8507
儌	-13.8507
欂	-13.8507
䳵	-13.851
饅	-13.851
縕	-13.8511
矟	-13.8511
笔	-13.8511
泆	-13.8511
艨	-13.8511
蝼	-13.8512
稑	-13.8512
牁	-13.8512
璡	-13.8514
䝨	-13.8516
䟎	-13.8517
迆	-13.8518
挱	-13.8695
躑	-13.8701
誖	-13.8703
䲔	-13.8704
槗	-13.8705
帢	-13.8707
儡	-13.8707
斨	-13.8707
􁓓	-13.8708
呢	-13.8709
駴	-13.8711
渗	-13.8712
昼	-13.8712
媟	-13.8713
􁐪	-13.8713
錞	-13.8713
梠	-13.8714
鬌	-13.8714
􁌫	-13.8715
熯	-13.8715
剄	-13.8716
刜	-13.8716
縐	-13.8716
粻	-13.8717
屝	-13.8717
邡	-13.8717
勠	-13.8717
𠞰	-13.8719
菂	-13.8719
嚏	-13.8722
􁎗	-13.8726
筳	-13.8726
獯	-13.8732
㔟	-13.8738
􁉒	-13.8905
庿	-13.8908
窕	-13.8909
􁱘	-13.8913
鏊	-13.8913
蕷	-13.8914
慫	-13.8916
涒	-13.8916
褷	-13.8916
􁆒	-13.8916
軷	-13.8916
讕	-13.8917
奡	-13.8917
蚖	-13.8918
踳	-13.8919
貮	-13.892
剷	-13.8922
磕	-13.8922
􁐍	-13.8923
􁇾	-13.8923
踟	-13.8924
耇	-13.8924
窞	-13.8925
艟	-13.8925
弨	-13.8925
剟	-13.8926
卺	-13.8928
晸	-13.893
硫	-13.8932
蜣	-13.8934
䚟	-13.9121
􁢤	-13.9121
屼	-13.9123
儿	-13.9123
􁈊	-13.9125
顋	-13.9126
耎	-13.9126
姐	-13.9126
氤	-13.9128
繂	-13.9128
邐	-13.9129
瑘	-13.9129
魘	-13.913
壍	-13.9131
惓	-13.9131
亜	-13.9133
鷽	-13.9133
遫	-13.9134
蠺	-13.9134
䥫	-13.9135
錙	-13.9135
靶	-13.9135
紝	-13.9138
􁆂	-13.9139
徘	-13.9141
楦	-13.9141
醳	-13.9141
珵	-13.9142
緖	-13.9143
􁎾	-13.9144
稭	-13.9145
辮	-13.9147
蹩	-13.9148
鱔	-13.915
蜆	-13.9152
􁀬	-13.9341
薶	-13.9341
窀	-13.9342
蹵	-13.9343
卅	-13.9344
䊸	-13.9345
㢸	-13.9345
螃	-13.9347
蠔	-13.9349
褵	-13.9349
跰	-13.935
䙀	-13.935
謦	-13.9351
匼	-13.9352
験	-13.9353
殀	-13.9353
􁒬	-13.9354
䏈	-13.9355
壐	-13.9355
蒢	-13.9355
裠	-13.9358
曶	-13.9358
媫	-13.9358
觔	-13.9359
餧	-13.9362
訔	-13.9362
簨	-13.9363
紜	-13.9509
悳	-13.9552
枒	-13.9558
橦	-13.9563
淲	-13.9564
䦕	-13.9564
槮	-13.9566
丨	-13.9567
発	-13.9569
俅	-13.957
傔	-13.957
愡	-13.957
駪	-13.9571
礿	-13.9571
娵	-13.9572
諐	-13.9572
䓗	-13.9574
蒹	-13.9574
賠	-13.9574
斒	-13.9575
癬	-13.9575
蹬	-13.9575
􁀒	-13.9576
鯶	-13.9578
簁	-13.9578
嫪	-13.9579
裭	-13.9579
褌	-13.9581
䝺	-13.9581
洴	-13.9581
灃	-13.9582
愊	-13.9582
麨	-13.9584
䠞	-13.9585
諰	-13.9587
㫦	-13.9588
頵	-13.9589
􁀊	-13.9789
栲	-13.9789
噆	-13.9791
榰	-13.9792
楖	-13.9792
蠣	-13.9792
漻	-13.9793
嚻	-13.9794
杮	-13.9795
桹	-13.9796
甗	-13.9796
舋	-13.9797
娬	-13.9798
艴	-13.9799
紾	-13.98
􁁺	-13.98
􁁍	-13.9801
訇	-13.9801
詾	-13.9802
輠	-13.9802
釧	-13.9804
険	-13.9804
馿	-13.9804
擉	-13.9805
榧	-13.9805
飃	-13.9805
觹	-13.9806
𤾉	-13.9806
匾	-13.9806
鍰	-13.9807
碏	-13.9808
雯	-13.981
柎	-13.9811
酏	-13.9812
􁂋	-13.9813
趑	-13.9819
囗	-14.0014
􁈼	-14.0017
齾	-14.0021
睒	-14.0021
矹	-14.0023
恓	-14.0024
鎦	-14.0025
鴝	-14.0027
嚲	-14.0027
旼	-14.0027
瀣	-14.0027
瘃	-14.0029
皭	-14.0029
䜴	-14.003
拷	-14.0031
鄷	-14.0031
对	-14.0031
嶭	-14.0031
癩	-14.0032
􁁬	-14.0033
畺	-14.0034
圣	-14.0034
埆	-14.0034
􁑵	-14.0036
鱓	-14.0036
瀺	-14.0036
􁍑	-14.0036
浡	-14.0036
綷	-14.0036
佶	-14.0037
𬎼	-14.0037
㬅	-14.0038
喓	-14.0039
姁	-14.0039
鉼	-14.004
嶙	-14.0041
淀	-14.0041
芧	-14.0042
􁜎	-14.0043
鐻	-14.0044
咢	-14.0046
椳	-14.0046
孃	-14.0047
幗	-14.0255
􁎐	-14.0257
漼	-14.0258
鐩	-14.0258
􁆶	-14.0259
箯	-14.0261
筧	-14.0262
飂	-14.0263
􁭘	-14.0263
噂	-14.0263
瞷	-14.0264
檪	-14.0264
􁥀	-14.0264
醞	-14.0265
凃	-14.0265
􁊥	-14.0265
囹	-14.0266
僱	-14.0267
踢	-14.0267
稈	-14.0267
㳄	-14.0267
揎	-14.0269
􁔾	-14.027
朣	-14.027
鮆	-14.027
嵯	-14.0271
圅	-14.0271
鱐	-14.0272
䂖	-14.0272
􁎘	-14.0272
悾	-14.0273
倓	-14.0273
􁀁	-14.0274
螾	-14.0274
砑	-14.0274
訩	-14.0275
臛	-14.0275
踝	-14.0276
閌	-14.0277
㫷	-14.0282
扂	-14.0284
鬣	-14.0289
㩜	-14.0499
䡾	-14.0504
䗶	-14.0504
􁏳	-14.0506
緉	-14.0506
籊	-14.0507
眤	-14.0509
矑	-14.0509
籤	-14.0509
䳱	-14.051
糕	-14.051
􁒝	-14.0511
橢	-14.0511
戽	-14.0512
冣	-14.0512
玗	-14.0513
蔾	-14.0514
俙	-14.0514
豭	-14.0514
䰅	-14.0515
瑭	-14.0515
箾	-14.0516
㗲	-14.0516
郪	-14.0516
橑	-14.0517
箳	-14.0517
􁜄	-14.0517
􁇸	-14.0518
霫	-14.0518
􁅖	-14.0519
鋹	-14.0519
咷	-14.0519
昞	-14.0519
虣	-14.052
骰	-14.052
慗	-14.0521
鬵	-14.0522
􁗀	-14.0526
霛	-14.0533
􁋆	-14.0748
傞	-14.0753
嶲	-14.0756
鍠	-14.0759
卼	-14.076
廃	-14.076
􁂼	-14.076
滻	-14.076
眴	-14.0761
残	-14.0761
瀌	-14.0761
蝘	-14.0761
晲	-14.0761
摉	-14.0763
蒓	-14.0764
苢	-14.0765
舐	-14.0765
黾	-14.0765
巙	-14.0765
蚳	-14.0766
厫	-14.0766
熛	-14.0767
庒	-14.0767
拌	-14.0767
鱟	-14.0767
鞞	-14.0768
虩	-14.0769
􁈎	-14.077
罭	-14.077
􁋚	-14.0771
􁱈	-14.0771
壵	-14.0772
鲁	-14.0772
佘	-14.0772
阸	-14.0772
蜎	-14.0774
􁐱	-14.0775
恇	-14.0775
鵙	-14.0776
捆	-14.0776
薳	-14.0776
懺	-14.0776
棁	-14.0777
嬛	-14.0777
祢	-14.0781
枮	-14.1004
芦	-14.1005
众	-14.1008
籺	-14.1009
􁑱	-14.1011
鋌	-14.1012
賨	-14.1012
籮	-14.1013
苣	-14.1013
㜈	-14.1016
薧	-14.1017
􁄪	-14.1017
臀	-14.1017
摟	-14.1017
鰒	-14.1018
噢	-14.1018
􁳋	-14.1019
甪	-14.1019
炒	-14.102
奧	-14.1021
䈥	-14.1021
祴	-14.1021
驔	-14.1022
㽵	-14.1022
􁏏	-14.1022
捺	-14.1022
纑	-14.1022
懥	-14.1023
权	-14.1023
獫	-14.1023
匊	-14.1023
惽	-14.1024
坟	-14.1024
廈	-14.1024
票	-14.1025
㷱	-14.1026
芉	-14.1027
浞	-14.1028
􁛬	-14.1028
瘟	-14.1028
墝	-14.103
憕	-14.1031
秒	-14.1031
銮	-14.1032
黁	-14.1035
􁐺	-14.1263
􁧥	-14.1265
㡡	-14.1271
艅	-14.1272
谼	-14.1274
佈	-14.1275
軹	-14.1275
醥	-14.1276
拶	-14.1277
箙	-14.1277
翏	-14.1279
悊	-14.128
樨	-14.1281
􁑷	-14.1281
鬘	-14.1282
糒	-14.1283
䴵	-14.1284
倛	-14.1284
㳽	-14.1286
騠	-14.1286
􁂚	-14.1287
逡	-14.1287
礨	-14.1288
嗷	-14.1288
澟	-14.1291
咥	-14.1296
椏	-14.1297
㭬	-14.1301
﨣	-14.1306
剙	-14.1541
卮	-14.1541
昈	-14.1545
罡	-14.1546
菶	-14.1546
哤	-14.1548
湿	-14.1549
嚭	-14.1549
毺	-14.1549
𣅿	-14.1549
䗫	-14.155
萦	-14.155
鷓	-14.155
薉	-14.155
浟	-14.155
㯭	-14.1551
礌	-14.1552
凥	-14.1553
痌	-14.1554
㠗	-14.1554
縆	-14.1554
塴	-14.1554
蔿	-14.1555
椷	-14.1556
衋	-14.1556
𤇺	-14.1557
蚶	-14.1558
仟	-14.1558
𥪡	-14.1558
俣	-14.1559
熲	-14.1561
娀	-14.1561
頠	-14.1562
儧	-14.1563
逷	-14.1564
鰭	-14.1564
汕	-14.1564
􁗠	-14.1565
舵	-14.1567
􁁷	-14.1569
􁁴	-14.1816
涷	-14.1822
筇	-14.1822
剚	-14.1822
枃	-14.1823
痗	-14.1823
􁅔	-14.1823
鱻	-14.1824
虻	-14.1825
􁆝	-14.1826
哳	-14.1826
㲄	-14.1827
仃	-14.1827
蘀	-14.1827
鱨	-14.183
埛	-14.183
牸	-14.1832
樕	-14.1832
棉	-14.1833
竸	-14.1834
􁊾	-14.1834
穯	-14.1834
􁇔	-14.1834
掯	-14.1835
痂	-14.1836
馺	-14.1837
麀	-14.184
犲	-14.1843
槻	-14.1843
栄	-14.1849
􁑮	-14.2101
蟁	-14.2103
醼	-14.2103
侐	-14.2104
駬	-14.2106
醊	-14.2106
莝	-14.2108
騩	-14.2109
韔	-14.211
頍	-14.211
􁑺	-14.211
旹	-14.211
摏	-14.2111
峦	-14.2111
磝	-14.2112
蕣	-14.2112
箐	-14.2114
婷	-14.2115
􁏫	-14.2115
譓	-14.2117
靷	-14.2117
湣	-14.2117
胛	-14.2117
􁧐	-14.2117
壄	-14.2118
􁇨	-14.2119
揍	-14.2119
㗳	-14.212
惏	-14.212
􁆩	-14.2121
骯	-14.2121
毡	-14.2121
荂	-14.2122
鈷	-14.2122
窔	-14.2123
􁌲	-14.2123
昳	-14.2123
啿	-14.2123
獧	-14.2123
躃	-14.2123
敶	-14.2124
𢥠	-14.2127
㜷	-14.2128
樝	-14.2129
伈	-14.2129
絁	-14.213
郲	-14.213
矴	-14.2132
喀	-14.2134
奰	-14.2135
猋	-14.2139
竉	-14.2141
餋	-14.2397
蹢	-14.2401
􁶎	-14.2402
魨	-14.2402
緲	-14.2403
䳺	-14.2403
𠫭	-14.2403
潾	-14.2404
喭	-14.2404
傜	-14.2405
怀	-14.2405
攏	-14.2406
墪	-14.2407
􁌄	-14.2411
奘	-14.2413
餠	-14.2414
蚴	-14.2414
躇	-14.2414
㹠	-14.2416
􁃩	-14.2416
韣	-14.2418
痀	-14.2419
俌	-14.242
瓛	-14.2421
􁈭	-14.2422
嬸	-14.2423
嚵	-14.2425
絝	-14.2426
㳅	-14.2426
觷	-14.2429
􁌘	-14.2431
苽	-14.2433
臡	-14.2697
􁣕	-14.2699
唏	-14.2701
銼	-14.2701
胍	-14.2701
魖	-14.2703
莚	-14.2703
粽	-14.2703
呤	-14.2705
嶴	-14.2706
蝻	-14.2706
趲	-14.2706
鸊	-14.2708
墍	-14.2708
泜	-14.2708
刾	-14.2709
姞	-14.2709
燻	-14.2709
憍	-14.271
馽	-14.2711
砍	-14.2711
烛	-14.2711
鴯	-14.2711
剨	-14.2712
筈	-14.2712
薯	-14.2713
簳	-14.2713
鱍	-14.2713
肧	-14.2714
珓	-14.2715
侀	-14.2716
􁑞	-14.2716
倹	-14.2718
膨	-14.2718
黳	-14.2719
訦	-14.2719
褏	-14.272
茔	-14.272
􁈘	-14.272
枑	-14.2721
豝	-14.2724
朒	-14.2724
搪	-14.2729
劼	-14.273
罃	-14.2735
沄	-14.2735
掺	-14.3002
嶫	-14.3003
悈	-14.3011
仵	-14.3014
妲	-14.3015
碚	-14.3015
泒	-14.3015
纕	-14.3017
鷤	-14.3018
热	-14.3018
篥	-14.3019
􁈠	-14.3019
崱	-14.302
椓	-14.302
殭	-14.3021
珹	-14.3021
膋	-14.3022
澑	-14.3023
跱	-14.3023
幺	-14.3024
澬	-14.3025
􁂰	-14.3025
齏	-14.3025
黤	-14.3027
螀	-14.3027
瀵	-14.3027
罦	-14.3027
􁦚	-14.3028
栾	-14.3028
薖	-14.3028
淶	-14.3028
蘙	-14.3028
誎	-14.3028
籴	-14.3029
鏝	-14.303
㥏	-14.303
醭	-14.3031
鮀	-14.3031
咺	-14.3031
翿	-14.3032
􁦵	-14.3033
臑	-14.3033
饙	-14.3034
萤	-14.3034
倿	-14.3034
幵	-14.3035
䃯	-14.3036
煟	-14.3037
􁨑	-14.3038
餾	-14.3038
释	-14.304
菢	-14.3044
逯	-14.3045
煅	-14.3045
篿	-14.3046
㒳	-14.3334
􁊘	-14.3336
玃	-14.3338
鴐	-14.3339
衹	-14.3342
鞳	-14.3342
㘅	-14.3343
غ	-14.3343
牿	-14.3343
冈	-14.3344
嵁	-14.3344
厈	-14.3345
鈺	-14.3345
蓛	-14.3346
髿	-14.3347
㬠	-14.3347
鸒	-14.3347
妵	-14.3348
檏	-14.3348
􁙇	-14.3349
譫	-14.3349
􁐘	-14.3349
􁆬	-14.335
剿	-14.3351
􁗁	-14.3351
拫	-14.3351
气	-14.3353
􁅾	-14.3353
􁉤	-14.3353
瓻	-14.3353
莨	-14.3354
􁊭	-14.3355
􁊁	-14.3356
􁔷	-14.3356
衖	-14.3356
橚	-14.3357
鱒	-14.3357
䣛	-14.3358
􁌀	-14.3359
焫	-14.3359
爹	-14.3359
氾	-14.336
䮍	-14.336
懬	-14.336
檆	-14.336
垚	-14.336
爞	-14.3363
趎	-14.3375
軵	-14.3378
餈	-14.3651
薲	-14.3662
橧	-14.3668
洼	-14.367
􁃇	-14.3673
􁄭	-14.3674
攓	-14.3677
䘙	-14.3677
稉	-14.3677
煴	-14.3677
捂	-14.3679
蝪	-14.368
絿	-14.368
繦	-14.368
皞	-14.3681
𩃱	-14.3681
􁂭	-14.3681
粞	-14.3682
覂	-14.3682
鐮	-14.3683
椑	-14.3683
漦	-14.3683
眾	-14.3684
􁀇	-14.3685
嗢	-14.3685
监	-14.3685
㒟	-14.3685
哿	-14.3685
椔	-14.3688
􁱧	-14.369
䔿	-14.369
璛	-14.369
韛	-14.369
淯	-14.369
縰	-14.3692
瑲	-14.3693
絨	-14.3693
儛	-14.3694
睐	-14.3694
銙	-14.3695
宧	-14.3697
臿	-14.37
騞	-14.3701
㛐	-14.3708
岝	-14.4008
冪	-14.401
翃	-14.4011
悆	-14.4014
恆	-14.4014
宬	-14.4016
􁁏	-14.4016
妆	-14.4017
鈜	-14.4018
玶	-14.4018
黕	-14.4018
抓	-14.4021
伷	-14.4021
橇	-14.4021
朙	-14.4022
症	-14.4023
膞	-14.4023
啔	-14.4024
淊	-14.4024
􁂎	-14.4026
艓	-14.4027
罻	-14.4027
魈	-14.4027
頏	-14.4027
崍	-14.4028
祻	-14.4028
麐	-14.4028
袨	-14.4028
澐	-14.4029
堀	-14.4029
崆	-14.4029
􁓋	-14.4029
奂	-14.4029
癲	-14.4029
尒	-14.403
檿	-14.403
鶠	-14.4031
輼	-14.4031
开	-14.4032
驊	-14.4032
醱	-14.4033
抳	-14.4033
􁎠	-14.4034
姙	-14.4034
楪	-14.4034
苪	-14.4035
逍	-14.4035
飆	-14.4035
蜢	-14.4036
臃	-14.4038
昷	-14.4039
漷	-14.4039
撈	-14.404
佼	-14.4041
峋	-14.4045
肜	-14.4055
燇	-14.4357
羓	-14.4371
驆	-14.4375
饛	-14.4375
禈	-14.4375
弯	-14.4375
髖	-14.4376
漯	-14.4377
奍	-14.4377
䙰	-14.4379
龡	-14.4379
韺	-14.438
騒	-14.438
䥥	-14.438
甡	-14.4381
黐	-14.4381
􁆣	-14.4381
霿	-14.4382
㦤	-14.4383
慌	-14.4383
躩	-14.4383
芄	-14.4384
櫸	-14.4385
姗	-14.4386
蚱	-14.4387
胏	-14.4387
戟	-14.4387
焬	-14.4387
仾	-14.4387
晫	-14.4388
鉷	-14.4388
岨	-14.4388
隑	-14.4389
崞	-14.4389
癏	-14.439
磢	-14.439
暪	-14.4391
粔	-14.4392
緺	-14.4392
葴	-14.4393
蝛	-14.4393
袿	-14.4393
广	-14.4393
礟	-14.4394
䯢	-14.4395
􁯌	-14.4395
縚	-14.4395
䱷	-14.4396
觽	-14.4397
􁀣	-14.4399
夑	-14.4406
􁯳	-14.4736
櫕	-14.4742
畟	-14.4743
柛	-14.4743
􁦉	-14.4744
漵	-14.4744
蛹	-14.4744
緤	-14.4745
㞯	-14.4745
輛	-14.4745
琿	-14.4745
嵼	-14.4745
褾	-14.4747
慂	-14.4747
􁝜	-14.4747
罛	-14.4748
􁁦	-14.4748
遻	-14.4749
瑇	-14.4749
欀	-14.475
喤	-14.475
牱	-14.4751
勧	-14.4751
楬	-14.4752
䝤	-14.4753
􁰈	-14.4753
齶	-14.4754
?	-14.4754
鞺	-14.4755
杅	-14.4756
㥦	-14.4756
􁅗	-14.4756
萠	-14.4756
靃	-14.4757
溔	-14.4758
􁰞	-14.4758
橜	-14.4758
蟉	-14.4759
滮	-14.476
芴	-14.4761
濚	-14.4761
綝	-14.4762
囧	-14.4763
鴇	-14.4763
惉	-14.4764
澉	-14.4765
釦	-14.4765
㜕	-14.4765
倞	-14.4766
饈	-14.4766
餻	-14.4768
饐	-14.4769
篂	-14.477
䴥	-14.477
鸖	-14.4774
謿	-14.4775
珧	-14.5118
彠	-14.5121
穅	-14.5125
喂	-14.5127
灙	-14.5127
鶿	-14.5128
卍	-14.5129
軨	-14.513
鮌	-14.513
嶕	-14.513
垝	-14.5131
栳	-14.5131
飦	-14.5131
屴	-14.5131
鄗	-14.5131
霳	-14.5132
僒	-14.5132
渑	-14.5132
笯	-14.5133
経	-14.5133
璺	-14.5134
􁬸	-14.5136
埧	-14.5138
艚	-14.5138
屎	-14.5138
馡	-14.5138
靆	-14.5139
棓	-14.514
国	-14.514
痱	-14.514
褠	-14.5141
咱	-14.5141
螙	-14.5141
䳏	-14.5142
囤	-14.5143
擦	-14.5143
㷑	-14.5144
轊	-14.5144
鬳	-14.5144
裦	-14.5145
鼒	-14.5145
嬗	-14.5145
茢	-14.5145
矻	-14.5146
椸	-14.5146
齯	-14.5146
塒	-14.5147
骹	-14.5148
甋	-14.5148
漎	-14.5149
昫	-14.5149
㧕	-14.5149
梐	-14.5149
䫫	-14.515
鄃	-14.515
烺	-14.5151
墼	-14.5152
璅	-14.5153
沠	-14.5153
昝	-14.5154
飥	-14.5154
酳	-14.5155
罐	-14.5156
覸	-14.5157
㑓	-14.5511
狒	-14.5514
澚	-14.5521
惪	-14.5521
惣	-14.5524
橊	-14.5525
灎	-14.5525
騙	-14.5525
􁂬	-14.5527
􁁶	-14.5527
阤	-14.5528
顇	-14.5529
欑	-14.553
謼	-14.553
屫	-14.553
旓	-14.553
薝	-14.5532
􁌍	-14.5532
嘂	-14.5533
芚	-14.5533
旾	-14.5533
靧	-14.5533
爥	-14.5533
墢	-14.5534
舃	-14.5535
蚹	-14.5535
瓈	-14.5535
渻	-14.5535
挕	-14.5536
虆	-14.5536
庬	-14.5536
㩲	-14.5538
觭	-14.5539
挃	-14.5539
曚	-14.5539
豌	-14.5541
嬺	-14.5541
􁄜	-14.5541
磅	-14.5542
㔾	-14.5543
盝	-14.5543
槯	-14.5543
鋙	-14.5543
敂	-14.5544
褶	-14.5544
旊	-14.5544
瀜	-14.5544
麩	-14.5545
䪺	-14.5545
倧	-14.5546
曯	-14.5546
迒	-14.5546
碙	-14.5547
􁁱	-14.5547
撅	-14.5548
􁃅	-14.5549
塪	-14.5549
􁴦	-14.555
􁱁	-14.5551
鍬	-14.5551
桌	-14.5553
􁬾	-14.5554
􁅳	-14.5558
螬	-14.5558
箘	-14.5562
飶	-14.5562
瞱	-14.5562
膿	-14.5563
儃	-14.5935
嚎	-14.5936
陼	-14.5936
泔	-14.5939
毵	-14.5939
帀	-14.5941
汻	-14.5943
􁃿	-14.5944
獝	-14.5944
珫	-14.5944
麂	-14.5945
􁕀	-14.5945
啑	-14.5946
慠	-14.5946
磜	-14.5947
栒	-14.5947
孏	-14.5949
􁇆	-14.5949
砠	-14.5949
秠	-14.5949
骴	-14.5951
􁆫	-14.5951
晌	-14.5951
麁	-14.5951
堁	-14.5951
擪	-14.5951
絣	-14.5951
樠	-14.5952
忲	-14.5952
佹	-14.5953
􁔽	-14.5953
􁒣	-14.5953
垞	-14.5953
袽	-14.5953
鶼	-14.5954
炕	-14.5954
悕	-14.5954
罫	-14.5955
㓨	-14.5955
憔	-14.5955
玞	-14.5955
􁐜	-14.5956
腿	-14.5957
柹	-14.5957
㷊	-14.5957
掫	-14.5958
猰	-14.5958
􁇻	-14.5959
罶	-14.5959
檎	-14.5959
泲	-14.596
胊	-14.596
碞	-14.5961
墺	-14.5961
齍	-14.5961
硝	-14.5962
􁇋	-14.5963
憧	-14.5963
琫	-14.5964
桯	-14.5964
􁦍	-14.5964
齮	-14.5964
蚣	-14.5965
暕	-14.5966
􁁑	-14.5967
􁃛	-14.5968
媽	-14.5971
􁂪	-14.5971
鄩	-14.5972
傁	-14.5972
䏰	-14.5973
䨮	-14.5977
􁏅	-14.5986
拋	-14.5988
䰐	-14.6371
􁐠	-14.6371
响	-14.6373
梘	-14.6373
羱	-14.6374
蘐	-14.6375
䰞	-14.6378
萄	-14.6379
稃	-14.6379
魑	-14.6379
艰	-14.6381
蓱	-14.6381
􁱲	-14.6382
枊	-14.6384
齰	-14.6384
珷	-14.6385
潴	-14.6385
㽦	-14.6386
屿	-14.6386
蝍	-14.6387
丣	-14.6387
鰋	-14.6387
㵎	-14.6388
䫉	-14.6388
鰩	-14.6389
蟢	-14.639
簵	-14.639
􁑾	-14.639
􁚐	-14.6391
瑢	-14.6392
謷	-14.6392
鼍	-14.6392
剳	-14.6392
腪	-14.6392
㺄	-14.6393
穾	-14.6393
穨	-14.6393
禓	-14.6394
爓	-14.6394
珀	-14.6394
韘	-14.6395
嶶	-14.6396
粕	-14.6396
􁃶	-14.6396
糇	-14.6396
㹀	-14.6396
􁨓	-14.6397
滷	-14.6397
匍	-14.6397
􁒦	-14.6397
医	-14.6397
荖	-14.6397
􁀼	-14.6398
湠	-14.6398
襋	-14.6399
憭	-14.64
褆	-14.64
劙	-14.64
薟	-14.6401
蛜	-14.6402
碼	-14.6402
傎	-14.6404
齚	-14.6405
鳦	-14.6406
齢	-14.6407
􁊓	-14.6408
虒	-14.6409
垩	-14.6409
勷	-14.6411
琭	-14.6411
碉	-14.6413
挏	-14.6414
傕	-14.6417
傺	-14.6822
覻	-14.6823
􁛾	-14.6825
忴	-14.6829
埂	-14.6834
佟	-14.6835
秈	-14.6836
污	-14.6836
伇	-14.6837
㭊	-14.6838
盋	-14.6838
檡	-14.6839
蠯	-14.6839
咂	-14.6839
渣	-14.6839
扱	-14.684
呰	-14.684
笆	-14.6842
甒	-14.6842
鰣	-14.6842
屓	-14.6842
㘖	-14.6843
噌	-14.6843
爗	-14.6844
圊	-14.6844
䔧	-14.6844
聸	-14.6845
撏	-14.6847
䘲	-14.6847
𠢐	-14.6847
趵	-14.6848
潠	-14.6848
􁆖	-14.6848
樏	-14.6849
㕮	-14.6849
岍	-14.6849
琵	-14.6849
騈	-14.6849
鐏	-14.685
熭	-14.685
鈌	-14.685
唅	-14.6852
礡	-14.6853
鞹	-14.6854
髢	-14.6854
亍	-14.6854
栘	-14.6855
躕	-14.6856
懘	-14.6856
繃	-14.6857
穊	-14.6857
穑	-14.6858
郈	-14.6858
揃	-14.6859
偻	-14.686
􁪣	-14.686
栧	-14.6861
鹤	-14.6861
蓷	-14.6864
琉	-14.6865
蠚	-14.6866
濇	-14.6872
鷩	-14.6873
髒	-14.6876
倴	-14.7294
鰾	-14.7297
騀	-14.7302
凮	-14.7303
裩	-14.7305
敻	-14.7306
㠋	-14.7307
􁋘	-14.7307
藨	-14.7308
悋	-14.731
鵕	-14.731
籸	-14.731
􁐯	-14.7311
栭	-14.7312
􁱴	-14.7312
睪	-14.7312
夛	-14.7312
岯	-14.7312
􁂞	-14.7312
􁔱	-14.7313
觿	-14.7313
疈	-14.7313
闠	-14.7313
䇲	-14.7314
䐑	-14.7314
儱	-14.7314
窸	-14.7315
淈	-14.7315
釆	-14.7316
柲	-14.7316
鮿	-14.7316
㱔	-14.7317
䫙	-14.7317
缻	-14.7317
陥	-14.7318
􁀩	-14.7318
貛	-14.7319
麌	-14.7319
㳒	-14.7319
鐲	-14.7319
􁊍	-14.7321
汯	-14.7321
慭	-14.7323
妊	-14.7323
訽	-14.7323
嗌	-14.7323
窵	-14.7324
崢	-14.7324
葹	-14.7324
蘷	-14.7325
鄲	-14.7325
爀	-14.7325
舗	-14.7325
匐	-14.7325
䡄	-14.7326
靺	-14.7326
曅	-14.7326
沜	-14.7326
鄚	-14.7326
礉	-14.7326
蠍	-14.7326
蹛	-14.7327
撟	-14.7327
􁃹	-14.7327
徜	-14.7327
瘕	-14.7328
襠	-14.7329
㩗	-14.7329
蔆	-14.7329
橤	-14.733
拑	-14.733
卾	-14.733
餤	-14.733
聣	-14.7331
撢	-14.7333
憣	-14.7333
鴽	-14.7333
􁉓	-14.7333
睊	-14.7336
睅	-14.7336
紖	-14.7337
蹜	-14.7339
埵	-14.734
侜	-14.7341
喌	-14.7342
􁂒	-14.7344
躠	-14.7346
裎	-14.7349
㩥	-14.7787
縿	-14.7802
􁊌	-14.7804
熸	-14.7804
晐	-14.7805
粵	-14.7808
峿	-14.7808
駏	-14.7808
冋	-14.7809
飩	-14.781
􁊽	-14.7812
􁇣	-14.7812
瓖	-14.7813
滦	-14.7813
嗥	-14.7813
餂	-14.7813
弅	-14.7813
躶	-14.7815
􁎒	-14.7815
戭	-14.7815
駓	-14.7815
􁆅	-14.7815
㟧	-14.7815
髅	-14.7816
犨	-14.7817
堝	-14.7817
茷	-14.7817
軃	-14.7817
􁮑	-14.7818
嵠	-14.7818
韤	-14.7818
歓	-14.7819
緃	-14.782
槹	-14.782
睘	-14.782
鈃	-14.7821
髴	-14.7821
諑	-14.7822
廧	-14.7822
驘	-14.7822
胗	-14.7822
獱	-14.7823
坍	-14.7823
洨	-14.7823
㬋	-14.7823
襧	-14.7824
羚	-14.7824
糙	-14.7824
􁑈	-14.7824
桫	-14.7824
濋	-14.7825
鵪	-14.7825
䍐	-14.7825
􁀉	-14.7825
􁈓	-14.7825
茯	-14.7825
玢	-14.7826
埼	-14.7826
禼	-14.7826
苜	-14.7827
􁶁	-14.7828
旙	-14.7829
䘐	-14.7829
鋣	-14.7829
复	-14.7829
茈	-14.7829
庤	-14.783
鉥	-14.783
蜼	-14.783
蜈	-14.7831
鵡	-14.7831
𠡠	-14.7831
駜	-14.7831
跎	-14.7831
湆	-14.7832
嚨	-14.7832
􁂻	-14.7833
膬	-14.7833
碯	-14.7834
玺	-14.7834
鴎	-14.7835
狌	-14.7836
蟨	-14.7836
􁌣	-14.7837
㮤	-14.7838
坥	-14.7839
覚	-14.7839
劻	-14.7839
砅	-14.7842
刱	-14.785
鐐	-14.8317
滈	-14.8322
潬	-14.8323
叁	-14.8327
娖	-14.833
蔊	-14.8333
浰	-14.8333
麇	-14.8334
俲	-14.8334
韽	-14.8336
畴	-14.8336
􁱪	-14.8337
餟	-14.8337
廄	-14.8338
􁌙	-14.8338
涏	-14.8338
曮	-14.8339
荚	-14.8339
澭	-14.8339
鼖	-14.8339
湻	-14.8341
詉	-14.8341
糸	-14.8341
眘	-14.8341
择	-14.8342
緄	-14.8342
擫	-14.8342
䂮	-14.8342
䲧	-14.8342
㧖	-14.8343
欏	-14.8343
疻	-14.8343
篱	-14.8343
搐	-14.8344
豶	-14.8344
僬	-14.8346
鴃	-14.8346
瘇	-14.8346
阹	-14.8346
厰	-14.8346
玨	-14.8346
衜	-14.8347
􁁥	-14.8347
窾	-14.8348
谓	-14.8348
吰	-14.8348
埳	-14.835
暸	-14.835
黲	-14.835
呇	-14.835
􁏌	-14.835
邍	-14.835
䂬	-14.835
貆	-14.8351
鋗	-14.8351
薋	-14.8351
麚	-14.8351
垻	-14.8351
碨	-14.8351
槢	-14.8353
栞	-14.8353
繘	-14.8353
􁈷	-14.8353
呺	-14.8354
盒	-14.8354
鞗	-14.8354
繤	-14.8354
􁈂	-14.8354
僿	-14.8354
楧	-14.8355
蛰	-14.8356
穄	-14.8356
眶	-14.8358
棅	-14.8358
耊	-14.836
㲈	-14.836
间	-14.836
溏	-14.836
癙	-14.8361
莟	-14.8361
嬃	-14.8362
鄺	-14.8362
夌	-14.8367
􁁉	-14.8367
􁈁	-14.8369
牏	-14.8376
嗺	-14.8399
䢖	-14.8877
􁌜	-14.8881
俺	-14.8882
䋄	-14.8884
睥	-14.8884
􁠬	-14.8887
为	-14.8888
峗	-14.8889
瑽	-14.889
􁁣	-14.8891
竂	-14.8891
撋	-14.8891
􁈳	-14.8891
鬈	-14.8892
輹	-14.8894
恔	-14.8894
蔲	-14.8894
蜞	-14.8895
諞	-14.8895
㢝	-14.8895
怲	-14.8896
塓	-14.8896
縄	-14.8896
礠	-14.8896
㰅	-14.8897
棙	-14.8898
圵	-14.8899
􁩐	-14.8899
拐	-14.89
漴	-14.89
萆	-14.89
嬭	-14.8901
瞌	-14.8901
䄍	-14.8901
辴	-14.8901
椄	-14.8902
帣	-14.8902
􁀳	-14.8903
猳	-14.8903
媠	-14.8903
岋	-14.8903
凷	-14.8903
柜	-14.8903
葡	-14.8904
楅	-14.8905
彳	-14.8905
􁪠	-14.8906
袓	-14.8906
鴦	-14.8907
埌	-14.8907
䪫	-14.8907
鬉	-14.8908
黓	-14.8908
峬	-14.8908
􁳆	-14.8908
㪣	-14.8909
濾	-14.8909
駚	-14.8909
䕸	-14.8909
嗄	-14.891
冾	-14.891
蒟	-14.891
􁁵	-14.891
冱	-14.891
㫝	-14.8911
逅	-14.8911
棰	-14.8911
陑	-14.8911
蝡	-14.8912
蝃	-14.8913
礓	-14.8914
坚	-14.8914
賅	-14.8914
鞨	-14.8914
􁀐	-14.8915
絭	-14.8915
閆	-14.8916
𩥇	-14.8916
奊	-14.8917
亯	-14.8918
慅	-14.8918
斳	-14.8918
踡	-14.892
菵	-14.8921
韎	-14.8923
犛	-14.8924
瘨	-14.8927
䆁	-14.8927
穭	-14.9467
櫰	-14.9467
樯	-14.9468
䠱	-14.9468
笓	-14.9471
齬	-14.9473
腒	-14.9476
痬	-14.9477
蔴	-14.9477
瀫	-14.9478
羵	-14.9478
􁑭	-14.9478
靸	-14.9478
藾	-14.9478
鶘	-14.9478
􁈴	-14.9478
靫	-14.9479
綎	-14.9479
頣	-14.9479
噑	-14.948
􁛖	-14.948
蟭	-14.948
㿽	-14.9481
塉	-14.9482
􁏋	-14.9482
盰	-14.9483
䴊	-14.9483
淔	-14.9484
蔻	-14.9484
峍	-14.9485
軽	-14.9485
楥	-14.9485
媲	-14.9485
􁊡	-14.9485
飧	-14.9486
抏	-14.9486
嗋	-14.9486
萵	-14.9486
园	-14.9486
駾	-14.9486
隉	-14.9487
圁	-14.9487
晊	-14.9487
犆	-14.9487
諵	-14.9487
斋	-14.9487
怤	-14.9487
扢	-14.9487
邂	-14.9488
椐	-14.9488
瘻	-14.9488
攧	-14.9488
幩	-14.9489
棷	-14.9489
􁍺	-14.9489
灜	-14.949
拿	-14.949
粜	-14.949
䰒	-14.9491
誷	-14.9491
鱘	-14.9491
縧	-14.9491
􁂌	-14.9491
坁	-14.9491
􁇚	-14.9491
轤	-14.9492
㸌	-14.9492
会	-14.9492
蒧	-14.9493
􁤷	-14.9493
坣	-14.9493
浲	-14.9493
縭	-14.9494
笫	-14.9494
䪥	-14.9494
狽	-14.9495
㟪	-14.9495
榯	-14.9496
嬿	-14.9496
淏	-14.9496
􁂜	-14.9496
䁱	-14.9496
㟭	-14.9497
壃	-14.9497
労	-14.9497
齩	-14.9497
􁊿	-14.9497
轃	-14.9498
竜	-14.9498
􁂧	-14.9498
渒	-14.9499
豓	-14.9499
梴	-14.9499
稛	-14.9499
攛	-14.9499
渲	-14.95
秏	-14.95
賎	-14.95
洓	-14.9501
􁛲	-14.9501
鐀	-14.9501
倮	-14.9502
餺	-14.9502
􁋋	-14.9502
旝	-14.9503
貃	-14.9504
􁑆	-14.9505
豦	-14.9505
扙	-14.9506
鯊	-14.9508
䊵	-14.951
䫟	-14.951
韌	-14.9511
怚	-14.9511
汋	-14.9512
挌	-14.9514
敚	-14.9514
軱	-14.9514
􁋍	-14.9516
榠	-14.9517
儥	-14.9519
鱎	-14.953
癕	-14.9543
蝂	-14.9545
䶉	-15.0072
􁀴	-15.0091
槔	-15.0094
养	-15.0096
偟	-15.0099
暧	-15.01
􁉔	-15.01
瑫	-15.0101
笵	-15.0101
媳	-15.0101
匑	-15.0103
俋	-15.0103
酮	-15.0104
􁔇	-15.0104
蟯	-15.0104
揕	-15.0105
剕	-15.0106
呆	-15.0106
巅	-15.0106
鶊	-15.0107
挲	-15.0107
􁂘	-15.0107
犮	-15.0108
駻	-15.0108
莂	-15.0108
瑴	-15.0108
隽	-15.0109
梩	-15.011
碶	-15.0111
濙	-15.0111
頀	-15.0111
蹝	-15.0111
矓	-15.0111
繿	-15.0112
􁱵	-15.0112
腄	-15.0112
䀲	-15.0112
􁇁	-15.0112
榨	-15.0113
琁	-15.0113
嶅	-15.0113
堄	-15.0114
餵	-15.0114
􁀜	-15.0114
惵	-15.0115
眨	-15.0115
亙	-15.0115
姟	-15.0115
㒵	-15.0115
鸐	-15.0116
葠	-15.0116
倄	-15.0116
茙	-15.0116
髇	-15.0116
嚱	-15.0117
鼬	-15.0118
践	-15.0118
􁧭	-15.0118
鼫	-15.0118
邞	-15.0118
嶝	-15.0119
􁐝	-15.0119
狢	-15.012
图	-15.012
鏇	-15.012
鞟	-15.012
􁃋	-15.012
惥	-15.012
騊	-15.0121
􁙧	-15.0121
荧	-15.0121
眛	-15.0122
楄	-15.0122
襭	-15.0122
苯	-15.0122
謢	-15.0122
遌	-15.0122
籒	-15.0122
龞	-15.0122
壡	-15.0122
闻	-15.0123
炘	-15.0123
笪	-15.0124
潗	-15.0125
樲	-15.0125
冮	-15.0125
芿	-15.0126
饀	-15.0126
滾	-15.0127
椊	-15.0128
蝢	-15.0128
啙	-15.0128
􁋷	-15.0128
帲	-15.0129
齲	-15.0129
岠	-15.0129
瘽	-15.0129
琸	-15.013
醟	-15.0131
雚	-15.0132
嗉	-15.0133
􁃼	-15.0133
䂀	-15.0133
㜪	-15.0133
繈	-15.0134
鍮	-15.0135
茌	-15.0135
㢧	-15.0136
􁪸	-15.0136
􁂯	-15.0137
䤬	-15.0138
榑	-15.0142
擧	-15.0144
毨	-15.0146
繶	-15.015
豻	-15.0151
壥	-15.0154
㜑	-15.0196
埠	-15.0755
侘	-15.0764
㡛	-15.0768
䃲	-15.0768
嶃	-15.0768
㣘	-15.077
塯	-15.077
㾕	-15.0772
伃	-15.0775
厤	-15.0777
僄	-15.0777
貅	-15.0777
㒞	-15.078
嬝	-15.078
噣	-15.0784
㙲	-15.0784
䈂	-15.0786
刌	-15.079
䝿	-15.0791
巂	-15.0792
堘	-15.0792
关	-15.0794
兪	-15.0794
䑺	-15.0795
圳	-15.0795
唖	-15.0796
醿	-15.0796
奓	-15.08
啍	-15.0807
㐀	-15.0814
帡	-15.1504
湲	-15.1506
惆	-15.2255
蝴	-15.2265
踽	-15.2265
翡	-15.2267
霹	-15.2279
熳	-15.3071
齟	-15.3109
獗	-15.3988
鷯	-15.4019
蟋	-15.4979
圠	-15.501
>	-15.5018
姮	-15.6112
靂	-15.613
蹭	-15.7358
酩	-15.7376
徬	-15.7382
蟀	-15.8747
顦	-15.8778
糢	-16.0468
繾	-16.2468
綣	-16.2474
薔	-16.2478
齷	-16.2496
昀	-17.3367
蛱	-18.3242
脝	-18.3243
娿	-18.3244
鉧	-18.3245
鷾	-18.3246
氳	-18.3247
矂	-18.3248
魎	-18.3249
娌	-18.325
毸	-18.3251
韆	-18.3252
=	-18.3253
3	-18.3254
"	-18.3255
酊	-18.3255
