<unk>	0
<s>	0
</s>	0
之	-4.2792
以	-4.58464
為	-4.62364
/	-5.08864
也	-5.09198
(	-5.14102
)	-5.16034
而	-5.18542
其	-5.29832
有	-5.34296
者	-5.3942
曰	-5.44078
於	-5.46124
王	-5.49949
不	-5.5221
人	-5.57892
,	-5.62948
與	-5.775
至	-5.83832
及	-5.86267
上	-5.86573
大	-5.89429
)(	-5.90949
事	-5.9155
自	-5.92157
中	-5.92672
子	-5.92909
一	-5.96822
州	-5.97461
無	-6.03951
行	-6.04273
所	-6.07006
在	-6.08367
使	-6.09336
言	-6.09448
則	-6.12828
時	-6.13263
皆	-6.13802
官	-6.1542
又	-6.16555
三	-6.20661
令	-6.23027
等	-6.23507
軍	-6.25445
乃	-6.26057
入	-6.29394
下	-6.30546
故	-6.32777
道	-6.33975
兵	-6.34399
後	-6.34558
復	-6.34643
文	-6.36499
出	-6.36523
從	-6.38701
于	-6.3876
帝	-6.38881
二	-6.39651
立	-6.39857
。	-6.41613
▁	-6.43835
公	-6.46025
見	-6.4624
國	-6.46966
日	-6.46968
今	-6.47245
相	-6.47281
詔	-6.50471
知	-6.50921
得	-6.51009
將	-6.51943
城	-6.52237
命	-6.52574
用	-6.53097
此	-6.53507
平	-6.54522
天	-6.54646
五	-6.54745
安	-6.55559
遂	-6.56271
臣	-6.57483
如	-6.59749
南	-6.59911
生	-6.62643
書	-6.62675
山	-6.63255
同	-6.64095
置	-6.64983
當	-6.66875
初	-6.67232
亦	-6.67336
明	-6.68244
民	-6.68327
謂	-6.68579
縣	-6.68641
四	-6.6998
正	-6.71831
漢	-6.71933
成	-6.72876
李	-6.73155
分	-6.73385
方	-6.74143
欲	-6.74296
名	-6.74804
元	-6.74869
長	-6.74948
多	-6.74971
水	-6.75396
非	-6.76778
可	-6.76903
禮	-6.77701
作	-6.7819
進	-6.78648
郡	-6.78924
張	-6.78983
法	-6.79094
矣	-6.79516
反	-6.80045
請	-6.80334
武	-6.81423
因	-6.81674
封	-6.82425
加	-6.82608
居	-6.8285
周	-6.82922
齊	-6.83219
已	-6.83315
馬	-6.83624
死	-6.84101
定	-6.8413
前	-6.85706
字	-6.86213
北	-6.86566
東	-6.86651
西	-6.87168
即	-6.87407
遷	-6.87472
徳	-6.87834
云	-6.8809
若	-6.89947
地	-6.90335
遣	-6.90384
諸	-6.90463
數	-6.90526
重	-6.90563
通	-6.91517
先	-6.92023
師古曰	-6.92223
音	-6.92343
歸	-6.92387
侯	-6.92775
守	-6.93802
内	-6.93915
既	-6.94108
義	-6.94407
家	-6.94429
六	-6.94979
陳	-6.95153
本	-6.95538
卒	-6.96429
何	-6.96779
未	-6.9693
是	-6.96942
奏	-6.97876
傳	-6.98095
府	-6.98758
還	-7.00796
劉	-7.00875
聞	-7.01104
改	-7.01414
金	-7.01751
君	-7.02179
降	-7.02338
陽	-7.0258
然	-7.03549
必	-7.03691
世	-7.03737
去	-7.03867
常	-7.04228
宜	-7.0455
氏	-7.05144
賜	-7.05237
秦	-7.06172
宋	-7.06461
年	-7.07312
門	-7.08012
主	-7.09613
並	-7.09957
度	-7.10236
師	-7.10391
路	-7.10478
取	-7.10637
趙	-7.11183
始	-7.11338
都	-7.11751
士	-7.12186
外	-7.12569
焉	-7.1264
晉	-7.1324
以為	-7.14024
親	-7.1412
興	-7.14346
制	-7.14543
梁	-7.14996
九	-7.15484
雖	-7.15825
天下	-7.15878
實	-7.1608
司	-7.1618
舉	-7.16959
除	-7.17966
拜	-7.18274
合	-7.18433
求	-7.18653
授	-7.18932
魏	-7.19071
樂	-7.19113
發	-7.19366
和	-7.19407
次	-7.19468
元年	-7.19766
殺	-7.20304
議	-7.20762
服	-7.21057
來	-7.21273
各	-7.21323
治	-7.2162
奉	-7.21775
兼	-7.22409
我	-7.22573
朝	-7.23704
髙	-7.23958
稱	-7.24235
少	-7.24249
屬	-7.24392
率	-7.24481
河	-7.25182
經	-7.25369
小	-7.25514
石	-7.25567
心	-7.25907
白	-7.26272
起	-7.26737
能	-7.26763
乎	-7.26981
父	-7.27039
善	-7.27182
應	-7.27528
或	-7.27644
宗	-7.28376
二年	-7.28935
且	-7.29005
信	-7.29103
光	-7.29461
三年	-7.29849
田	-7.29857
食	-7.30339
景	-7.30727
神	-7.3084
位	-7.31032
直	-7.31424
衆	-7.31603
八	-7.31653
賊	-7.31828
兩	-7.31989
陵	-7.32614
凡	-7.32624
甚	-7.32666
古	-7.33122
廣	-7.33152
問	-7.3357
七	-7.33817
思	-7.34302
盡	-7.34389
宫	-7.34727
建	-7.35435
楚	-7.35692
任	-7.36114
坐	-7.36198
政	-7.37508
受	-7.37537
省	-7.37613
領	-7.37714
攻	-7.39877
㑹	-7.39998
代	-7.40146
舊	-7.40767
論	-7.41003
志	-7.41011
錢	-7.41389
引	-7.41491
鎮	-7.41503
罷	-7.41703
亡	-7.42001
十	-7.42372
戰	-7.4291
餘	-7.4299
太祖	-7.43574
節	-7.4385
左	-7.44616
部	-7.4544
伯	-7.45642
過	-7.45667
物	-7.45693
吾	-7.46229
吏	-7.46449
清	-7.46658
流	-7.4688
○	-7.46964
表	-7.47602
唐	-7.47676
更	-7.47738
宣	-7.47889
不能	-7.48114
逺	-7.48511
易	-7.48867
按	-7.48932
益	-7.49022
謀	-7.49424
深	-7.50153
意	-7.50228
卿	-7.50374
尚	-7.50683
廢	-7.50733
失	-7.50755
月	-7.50771
口	-7.50876
龍	-7.51148
孝	-7.51198
夫	-7.51858
祖	-7.52421
爲	-7.53063
處	-7.53112
異	-7.53118
州刺史	-7.53136
忠	-7.53251
史	-7.53597
孫	-7.53773
新	-7.5426
計	-7.54757
召	-7.5484
星	-7.55217
猶	-7.55263
辭	-7.55534
章	-7.55768
德	-7.55903
右	-7.56193
嵗	-7.56264
母	-7.56521
力	-7.56644
不可	-7.57011
難	-7.57042
功	-7.57148
夏	-7.57156
轉	-7.57164
江	-7.57202
爾	-7.57308
權	-7.57765
告	-7.58046
風	-7.58079
威	-7.58419
望	-7.59149
惟	-7.59262
職	-7.5945
歴	-7.59508
許	-7.59516
弟	-7.59529
仁	-7.59586
将	-7.59888
女	-7.5999
延	-7.60019
給	-7.60148
理	-7.60339
致	-7.60498
車	-7.60782
氣	-7.60811
修	-7.61411
將軍	-7.61583
首	-7.62185
寧	-7.62536
嘗	-7.62596
臨	-7.62848
土	-7.62898
幸	-7.62954
留	-7.6324
固	-7.63293
身	-7.63397
學	-7.63724
昭	-7.63945
|	-7.64004
濟	-7.6414
集	-7.64643
於是	-7.64916
犯	-7.64944
海	-7.65482
御	-7.65493
承	-7.65504
左右	-7.66137
布	-7.66328
朔	-7.66391
備	-7.66502
破	-7.66633
誅	-7.66898
太子	-7.67098
亂	-7.67312
賢	-7.67337
罪	-7.67419
萬	-7.67631
崇	-7.67712
圖	-7.67729
百	-7.67939
每	-7.68117
開	-7.68129
利	-7.68293
止	-7.68393
終	-7.6872
獻	-7.68752
聖	-7.68783
耳	-7.69067
典	-7.69289
殿	-7.69528
好	-7.69626
執	-7.69747
儀	-7.69889
黄	-7.7046
差	-7.70756
間	-7.71471
昌	-7.7182
不得	-7.71994
楊	-7.72411
疾	-7.72676
别	-7.72854
太守	-7.73065
四年	-7.73306
太	-7.73504
永	-7.73897
衛	-7.73981
敬	-7.74254
敗	-7.7437
順	-7.74583
貴	-7.74656
后	-7.7498
充	-7.75645
徙	-7.75741
交	-7.7581
并	-7.76044
獨	-7.76348
便	-7.76589
韓	-7.7663
共	-7.76714
觀	-7.76817
仍	-7.77026
恩	-7.77149
騎	-7.77413
里	-7.7752
近	-7.77721
免	-7.77886
往	-7.78267
皇	-7.78281
聲	-7.78385
就	-7.78785
擊	-7.78798
保	-7.7887
監	-7.78986
變	-7.7909
雲	-7.79519
五年	-7.79846
克	-7.79946
據	-7.80152
悉	-7.80292
注	-7.80992
退	-7.81014
慶	-7.81111
懐	-7.81272
鄭	-7.81413
載	-7.81674
華	-7.81843
遇	-7.8292
曹	-7.82958
業	-7.83082
紀	-7.83127
素	-7.83181
皇帝	-7.83238
色	-7.8343
天子	-7.83444
被	-7.83957
解	-7.84058
良	-7.84153
/)	-7.84279
魯	-7.84321
具	-7.846
比	-7.84793
青	-7.84811
衣	-7.84966
廟	-7.85371
俱	-7.85594
户	-7.85737
禁	-7.85852
高	-7.85943
邑	-7.8605
掌	-7.86055
疑	-7.86144
嗣	-7.86543
隨	-7.86574
選	-7.86754
伏	-7.86801
設	-7.8736
陛下	-7.87401
玉	-7.87677
夜	-7.87723
號	-7.88058
絶	-7.88392
仲	-7.88768
勝	-7.88811
由	-7.89028
髙祖	-7.89188
恐	-7.89588
胡	-7.8972
納	-7.89841
室	-7.89949
朱	-7.90355
厚	-7.91233
徐	-7.9159
積	-7.91666
祭	-7.92684
列	-7.9286
尋	-7.93371
燕	-7.93404
著	-7.93535
寳	-7.93536
誠	-7.93621
嘉	-7.93983
依	-7.94068
收	-7.94337
蕭	-7.94369
吳	-7.94587
減	-7.94675
臺	-7.9469
約	-7.94963
皇后	-7.95883
營	-7.95914
連	-7.96025
諸侯	-7.96246
尊	-7.96699
説	-7.97074
追	-7.97692
特	-7.97855
老	-7.97912
務	-7.9794
尚書	-7.97961
撰	-7.98519
哉	-7.98676
容	-7.98714
討	-7.98794
嚴	-7.9897
斯	-7.9904
考	-7.99052
靈	-7.99101
咸	-7.99196
繼	-7.99255
語	-7.99431
木	-7.99488
化	-7.99693
顯	-7.99833
存	-7.9984
病	-8
圍	-8.00189
會	-8.0058
伐	-8.00614
私	-8.00694
林	-8.00887
盛	-8.00974
視	-8.01318
遺	-8.01452
推	-8.01485
酒	-8.01623
叔	-8.01863
朝廷	-8.0195
謝	-8.02003
升	-8.0277
造	-8.02789
送	-8.0293
末	-8.0297
六年	-8.03274
動	-8.0366
太后	-8.03831
對	-8.03873
登	-8.04092
器	-8.04139
邊	-8.04215
越	-8.04306
極	-8.04532
火	-8.04549
全	-8.04729
祀	-8.04853
乞	-8.0518
夷	-8.05472
汝	-8.05592
契丹	-8.05732
九月	-8.05798
申	-8.05802
象	-8.05805
性	-8.0588
願	-8.05954
所以	-8.06186
闕	-8.06259
刑	-8.06739
移	-8.06821
獲	-8.07022
宿	-8.07312
襲	-8.07315
隂	-8.07423
第	-8.07432
恭	-8.0764
要	-8.08223
鄉	-8.0848
籍	-8.08545
惡	-8.08582
康	-8.08599
敵	-8.08753
春	-8.08772
唯	-8.08812
六月	-8.0888
散	-8.08987
走	-8.09133
害	-8.09419
朕	-8.09874
滅	-8.10135
三月	-8.10214
八月	-8.10306
才	-8.10867
補	-8.10986
再	-8.11034
一人	-8.11136
厯	-8.11269
報	-8.11327
福	-8.11388
族	-8.11496
賞	-8.12066
祠	-8.1247
爵	-8.12549
薨	-8.12553
屯	-8.12764
情	-8.12822
但	-8.12928
豈	-8.12959
果	-8.13028
畢	-8.13281
達	-8.13422
持	-8.1349
班	-8.13741
附	-8.14206
足	-8.14346
輕	-8.14469
宮	-8.14649
榮	-8.1476
二人	-8.14911
累	-8.15202
運	-8.15252
十二月	-8.15597
教	-8.15755
詣	-8.15935
久	-8.16193
曲	-8.16221
急	-8.16459
遣使	-8.166
迎	-8.16671
贈	-8.16725
愛	-8.16787
季	-8.16796
羅	-8.17134
十一月	-8.17206
期	-8.1743
院	-8.17584
休	-8.17616
半	-8.17671
統	-8.17772
手	-8.17867
隆	-8.17887
博	-8.17959
怒	-8.18009
總	-8.18123
懼	-8.18549
斬	-8.18617
案	-8.18688
五月	-8.18752
試	-8.18806
殷	-8.19031
資	-8.19135
戸	-8.19515
阿	-8.19628
參	-8.19762
冠	-8.19763
原	-8.19841
記	-8.19933
憂	-8.20034
孟	-8.20073
蜀	-8.20097
莫	-8.2018
鹽	-8.20211
叛	-8.2022
京師	-8.20286
澤	-8.20697
詩	-8.21139
質	-8.21495
太宗	-8.21759
甲	-8.21799
察	-8.22276
頭	-8.22638
大夫	-8.2267
勞	-8.22909
蘇	-8.22955
律	-8.2312
市	-8.23292
徒	-8.23324
十二	-8.23753
副	-8.23824
邪	-8.23939
頗	-8.24631
逆	-8.24848
不敢	-8.24861
秋	-8.24989
吉	-8.25071
春秋	-8.25134
乘	-8.25185
丁	-8.25439
喜	-8.25445
帥	-8.2549
闗	-8.25503
役	-8.25598
歲	-8.25801
蓋	-8.25939
而不	-8.25955
薦	-8.26092
目	-8.26281
奔	-8.26317
類	-8.26329
簡	-8.26407
客	-8.26412
二月	-8.26669
端	-8.26802
卷	-8.269
七年	-8.26926
雜	-8.27134
烏	-8.27316
牛	-8.27406
格	-8.28087
妻	-8.28187
離	-8.28895
救	-8.29175
郭	-8.29234
商	-8.29459
聽	-8.29485
密	-8.29799
虜	-8.29979
塞	-8.30142
結	-8.30503
杜	-8.30738
郎	-8.3083
養	-8.31097
斷	-8.31142
川	-8.31259
百姓	-8.31344
侍中	-8.31349
調	-8.31532
節度使	-8.31741
赤	-8.31918
符	-8.32033
千	-8.32198
傷	-8.32309
彦	-8.32647
滿	-8.32662
顧	-8.32719
戎	-8.3287
葬	-8.32925
美	-8.33065
羣	-8.33072
司馬	-8.33152
獄	-8.3343
說	-8.33503
呼	-8.33534
賦	-8.3355
體	-8.33735
即位	-8.33835
、	-8.33893
決	-8.33955
乗	-8.33963
大將軍	-8.34054
来	-8.34087
射	-8.34317
精	-8.34795
十月	-8.3527
昔	-8.35307
略	-8.35866
丞相	-8.36089
彊	-8.36149
辰	-8.36201
角	-8.36267
赴	-8.36398
真	-8.36477
有司	-8.36523
紹	-8.36538
丘	-8.36607
刻	-8.36652
喪	-8.36693
世祖	-8.36869
責	-8.36952
假	-8.37031
:「	-8.37239
河南	-8.37522
穆	-8.37531
肅	-8.37561
京	-8.3777
習	-8.3779
蔡	-8.37968
危	-8.38221
衡	-8.38235
棄	-8.38436
豐	-8.38554
雅	-8.38772
征	-8.40431
勢	-8.40463
聚	-8.40474
虞	-8.40508
将軍	-8.40559
慮	-8.40662
夀	-8.40763
憲	-8.40873
輔	-8.41085
之後	-8.41159
息	-8.41192
僧	-8.41222
姓	-8.41261
武帝	-8.41269
向	-8.41397
限	-8.41481
從之	-8.41502
負	-8.41642
管	-8.41744
侍	-8.41879
哀	-8.4195
損	-8.42082
房	-8.42254
惠	-8.4239
人也	-8.42515
彼	-8.42868
貫	-8.43391
其後	-8.43561
以下	-8.43612
八年	-8.4367
俗	-8.43689
勿	-8.4385
崩	-8.44
候	-8.44103
督	-8.44142
崔	-8.44294
指	-8.44369
暴	-8.44467
招	-8.44648
術	-8.44659
智	-8.44704
賀	-8.44767
佐	-8.44853
寵	-8.4486
泰	-8.44867
兄	-8.44969
眀	-8.45098
徴	-8.45175
委	-8.45204
微	-8.45255
銀	-8.45271
振	-8.45386
放	-8.45433
宰相	-8.45511
勒	-8.45525
薄	-8.45547
寺	-8.45667
富	-8.45753
庶	-8.45831
二十	-8.45968
讓	-8.45976
關	-8.46094
工	-8.46248
丞	-8.46647
堂	-8.4685
無所	-8.47157
洛	-8.4734
温	-8.47374
英	-8.47402
雨	-8.47823
横	-8.47915
舍	-8.48016
援	-8.48302
怨	-8.48561
野	-8.48595
歌	-8.48781
條	-8.49105
奪	-8.49152
馳	-8.49455
尤	-8.4973
寇	-8.49858
頃	-8.49942
感	-8.49953
鼓	-8.50146
衞	-8.50359
序	-8.50522
勸	-8.50553
増	-8.50707
疏	-8.50726
匈奴	-8.51094
太尉	-8.51388
徵	-8.5148
謹	-8.51672
糧	-8.51698
玄	-8.51735
雍	-8.5179
大臣	-8.51859
稍	-8.5189
雄	-8.51913
患	-8.52107
施	-8.52198
帶	-8.52259
軍節度使	-8.52352
草	-8.52393
如此	-8.52723
。」	-8.5278
待	-8.53141
高祖	-8.53265
遼	-8.534
游	-8.53412
配	-8.5347
震	-8.53673
冬	-8.53675
違	-8.53719
貞	-8.54045
隋	-8.54057
形	-8.54098
撫	-8.54412
七月	-8.54571
尹	-8.54603
侵	-8.54723
太原	-8.5474
盧	-8.54959
畏	-8.54963
校	-8.55011
避	-8.55213
竝	-8.55321
釋	-8.55487
逐	-8.5554
例	-8.55613
適	-8.55723
是時	-8.55732
庭	-8.55738
秩	-8.56014
飛	-8.56033
宴	-8.56071
鈔	-8.56202
藏	-8.56325
河東	-8.56375
孔	-8.56455
兒	-8.56723
脩	-8.56815
米	-8.56815
覆	-8.56899
員	-8.57309
㫖	-8.57329
勇	-8.574
陸	-8.57408
。|	-8.57445
防	-8.57471
折	-8.57615
專	-8.5767
竒	-8.57765
識	-8.5785
虚	-8.58018
司徒	-8.58226
黨	-8.58253
不知	-8.58295
羣臣	-8.58315
庫	-8.5846
揚	-8.58584
賈	-8.58604
牧	-8.58619
弱	-8.5863
縱	-8.58685
旗	-8.58734
懷	-8.58817
勲	-8.5884
郊	-8.58868
蠻	-8.59076
一卷	-8.5908
均	-8.59105
禍	-8.59147
友	-8.59267
署	-8.5965
財	-8.59696
䇿	-8.59714
辟	-8.59952
贊	-8.60047
十年	-8.60112
𤣥	-8.60139
增	-8.60175
翼	-8.60182
允	-8.60529
詳	-8.60531
畧	-8.60651
姦	-8.60996
乾	-8.61029
謂之	-8.61071
九年	-8.61368
希	-8.61458
池	-8.61492
竟	-8.61584
遵	-8.61612
虎	-8.6204
四月	-8.62072
寶	-8.6249
蕃	-8.6259
長史	-8.62771
弗	-8.629
仕	-8.63052
窮	-8.63089
式	-8.63144
傅	-8.63321
訓	-8.63327
費	-8.63471
敢	-8.63473
鼎	-8.63563
爭	-8.63604
境	-8.6362
讀	-8.63749
畫	-8.63755
飲	-8.63821
吕	-8.63879
殊	-8.63965
羽	-8.64009
他	-8.64186
長安	-8.64237
竊	-8.64366
篇	-8.64377
衍	-8.64392
赦	-8.64418
寛	-8.64497
偽	-8.6451
妃	-8.64778
誤	-8.6526
諫	-8.65265
接	-8.65467
𢎞	-8.65544
泉	-8.65779
孤	-8.65826
國公	-8.65954
革	-8.66075
巴	-8.66219
須	-8.66279
而已	-8.66313
魚	-8.66359
判	-8.66371
扵	-8.6658
歩	-8.66772
茂	-8.67178
斗	-8.67397
洪	-8.67667
助	-8.67745
亮	-8.67883
之事	-8.68084
録	-8.68182
范	-8.68236
階	-8.68272
湯	-8.68274
以上	-8.68276
印	-8.68312
戒	-8.68381
倉	-8.68593
垂	-8.6883
狀	-8.69193
烈	-8.69299
衰	-8.69528
苦	-8.69615
淮	-8.69643
述	-8.69849
貢	-8.70005
逹	-8.70058
空	-8.70063
捕	-8.70084
聞之	-8.70276
壽	-8.70308
諭	-8.70337
支	-8.70394
閣	-8.70424
界	-8.70581
刺史	-8.70592
河北	-8.70626
兮	-8.70632
機	-8.70647
公主	-8.71021
秀	-8.71174
儒	-8.71344
程	-8.71525
淮南	-8.71543
尉	-8.71635
示	-8.71649
量	-8.71709
沙	-8.7171
强	-8.72049
粟	-8.72236
種	-8.7233
源	-8.7234
回	-8.7244
錫	-8.7253
明年	-8.72615
樹	-8.72804
兄弟	-8.72871
廷	-8.7293
盜	-8.73072
之所	-8.73099
然後	-8.73102
毋	-8.73137
超	-8.73152
毁	-8.73354
藥	-8.73357
百官	-8.7339
巳	-8.73525
科	-8.73566
谷	-8.73695
擇	-8.73704
築	-8.73704
面	-8.73853
羊	-8.73925
堅	-8.74138
擢	-8.74197
冀	-8.74305
珠	-8.74411
出為	-8.74729
副使	-8.74819
錄	-8.75068
占	-8.75093
之地	-8.75236
旦	-8.75309
輒	-8.7546
對曰	-8.75461
到	-8.75523
額	-8.7557
策	-8.75579
由是	-8.75635
祥	-8.75689
農	-8.757
淵	-8.76043
謁	-8.76089
丹	-8.76201
戍	-8.7637
韋	-8.76435
輸	-8.76494
沈	-8.7673
可以	-8.76769
屢	-8.76929
最	-8.76939
寜	-8.77006
呉	-8.77027
珍	-8.77113
渠	-8.77139
殺之	-8.77161
貶	-8.77192
規	-8.77281
拔	-8.773
不足	-8.77344
諸軍	-8.77726
亭	-8.7783
遠	-8.77861
漸	-8.77991
世宗	-8.78089
薛	-8.78315
都督	-8.78786
至於	-8.7894
者也	-8.78942
幽	-8.79196
屈	-8.79285
宻	-8.79452
如故	-8.79588
索	-8.79711
謙	-8.79883
彌	-8.8005
講	-8.80276
杖	-8.80316
險	-8.80344
單于	-8.80407
御史	-8.80539
夫人	-8.80706
予	-8.80731
審	-8.80782
一員	-8.80934
五百	-8.81107
優	-8.81151
背	-8.81162
井	-8.81266
舟	-8.81307
陷	-8.81349
材	-8.8162
皇太子	-8.81671
禹	-8.81679
旱	-8.82143
使者	-8.82162
没	-8.82295
勤	-8.82403
己	-8.82506
西北	-8.82516
三十	-8.82524
恒	-8.82788
舞	-8.828
曰吾	-8.82828
伊	-8.83001
付	-8.83038
一日	-8.83132
儉	-8.83245
邉	-8.83248
干	-8.83419
司空	-8.83488
桓	-8.83706
賔	-8.83834
弘	-8.84072
甲子	-8.84126
一巻	-8.84201
災	-8.84235
駕	-8.8425
歳	-8.84382
落	-8.84429
紫	-8.84474
預	-8.84577
䕶	-8.84703
慎	-8.84708
普	-8.84938
使人	-8.85171
其子	-8.85326
念	-8.85447
津	-8.85632
其事	-8.8565
冊	-8.85813
一百	-8.8594
欽	-8.86085
呂	-8.86162
陰	-8.86269
循	-8.86402
前後	-8.86672
詔曰	-8.86746
孔子	-8.86776
䘮	-8.86954
豫	-8.87091
中書	-8.87371
寒	-8.87379
局	-8.87468
銅	-8.8768
盗	-8.87686
仰	-8.87948
國家	-8.88268
十五	-8.88477
十一	-8.88576
𫝊	-8.8876
霸	-8.8884
金人	-8.88878
者皆	-8.88939
驚	-8.89178
掠	-8.89421
岳	-8.8952
飾	-8.89541
陣	-8.89692
敏	-8.89813
内外	-8.90039
之間	-8.90065
是以	-8.90111
凶	-8.90179
輿	-8.90201
砦	-8.90381
投	-8.90564
饑	-8.90935
貨	-8.90982
幼	-8.91065
従	-8.91072
盈	-8.91073
東南	-8.91314
遊	-8.9148
切	-8.91537
襄	-8.91573
莊	-8.91623
堯	-8.91759
盖	-8.91775
壇	-8.91835
浮	-8.92
徃	-8.92029
禄	-8.9224
船	-8.92328
隷	-8.92422
享	-8.92483
攝	-8.9256
荆	-8.92699
洛陽	-8.92702
文帝	-8.92718
躬	-8.9275
豪	-8.92997
幹	-8.9303
俊	-8.93096
繫	-8.93249
樓	-8.93277
湖	-8.93282
忽	-8.93432
品	-8.9345
晏	-8.93707
厥	-8.93721
諸王	-8.93738
夕	-8.93766
顔	-8.93783
産	-8.9382
懿	-8.9395
館	-8.93962
主簿	-8.94119
基	-8.94241
忌	-8.94306
鄧	-8.94419
藩	-8.94556
倫	-8.9463
采	-8.9464
敕	-8.94711
諸將	-8.94864
勅	-8.94959
馮	-8.95
曰此	-8.95098
融	-8.95134
維	-8.95216
導	-8.9533
檢	-8.95334
奴	-8.95477
君子	-8.95716
毎	-8.95735
裴	-8.95875
刺	-8.95883
驗	-8.9609
訖	-8.96407
啓	-8.96424
拒	-8.96463
愈	-8.96543
西南	-8.96554
羌	-8.96654
隸	-8.96972
郡王	-8.97098
蘭	-8.97198
有所	-8.97292
匡	-8.97335
卜	-8.97337
以來	-8.97603
竹	-8.98005
愚	-8.98013
不許	-8.98052
博士	-8.98367
宅	-8.98406
十六	-8.98469
耕	-8.98491
仗	-8.98614
子孫	-8.98681
所在	-8.98709
囚	-8.98828
先是	-8.98835
乆	-8.98886
至元	-8.99162
訪	-8.99171
潛	-8.99217
鍾	-8.99256
裕	-8.99311
編	-8.99317
郎中	-8.99376
十四	-8.99377
沒	-8.99478
早	-8.99617
判官	-8.99765
庸	-9.00095
諡	-9.00236
覽	-9.00278
冬十月	-9.00377
園	-9.00417
故事	-9.00665
四方	-9.00884
有功	-9.00896
袁	-9.0099
十三	-9.01171
夏四月	-9.0134
詞	-9.01377
似	-9.01512
累遷	-9.0156
江南	-9.01578
席	-9.01722
逸	-9.01764
介	-9.0179
東西	-9.01859
天地	-9.01917
改為	-9.0223
割	-9.02256
履	-9.02317
側	-9.02328
蒙	-9.02344
肆	-9.02369
舜	-9.02394
公子	-9.0245
舒	-9.02457
課	-9.02572
車駕	-9.02706
敦	-9.02764
鄴	-9.02948
鎭	-9.02959
松	-9.02983
貧	-9.03115
毛	-9.03124
壁	-9.03291
綱	-9.03297
劾	-9.03327
蒲	-9.03346
趨	-9.03375
削	-9.03419
困	-9.0352
詐	-9.03532
屋	-9.03591
橋	-9.03675
䧟	-9.03782
是月	-9.03809
貪	-9.03832
徐廣曰	-9.03834
妄	-9.04009
五十	-9.04126
俄	-9.04135
榖	-9.04192
範	-9.04287
所謂	-9.04317
逃	-9.04322
二百	-9.04359
慈	-9.04381
董	-9.04419
十一年	-9.04449
至是	-9.04648
廼	-9.04754
純	-9.04761
悦	-9.04932
兹	-9.04963
秋七月	-9.05066
况	-9.05227
十卷	-9.05271
鳴	-9.05479
是也	-9.05488
遲	-9.05652
倍	-9.05798
以聞	-9.05805
逼	-9.05956
熙	-9.06111
東北	-9.06127
節度	-9.06247
四人	-9.0625
不及	-9.06322
婦	-9.06554
荒	-9.06613
未嘗	-9.06619
三百	-9.0668
汴	-9.06808
託	-9.06851
静	-9.06877
宗廟	-9.06968
姚	-9.07049
靖	-9.07055
曾	-9.07072
姬	-9.07084
厲	-9.07092
徽	-9.07232
諱	-9.07285
隊	-9.07335
其所	-9.07408
苑	-9.07552
幣	-9.07609
續	-9.07655
男	-9.07723
陜西	-9.07818
恵	-9.07874
扶	-9.08177
傾	-9.08193
絹	-9.08193
三日	-9.082
十二年	-9.08232
皮	-9.08615
嬰	-9.08654
罰	-9.08657
雷	-9.08698
步	-9.08897
;	-9.08902
忘	-9.08903
寢	-9.08939
何以	-9.08981
太白	-9.08996
宏	-9.09
隱	-9.09029
弼	-9.09176
以此	-9.09251
皇太后	-9.09341
鳥	-9.09373
不同	-9.09391
桑	-9.09435
熒惑	-9.09513
刀	-9.09528
揚州	-9.09621
單	-9.09699
學士	-9.09837
二十四	-9.09988
旁	-9.10043
致仕	-9.10331
供	-9.10438
山東	-9.10609
耶	-9.10643
社	-9.10719
十八	-9.10749
自是	-9.10977
速	-9.11162
公卿	-9.1118
獵	-9.11435
香	-9.11506
句	-9.11698
帳	-9.11711
州縣	-9.11739
輙	-9.11779
諡曰	-9.11987
甫	-9.1199
瑞	-9.12048
之士	-9.12054
嶺	-9.12218
買	-9.12242
級	-9.12253
决	-9.12277
葉	-9.12525
效	-9.1279
既而	-9.1279
巻	-9.12937
晨	-9.12943
漢王	-9.1297
甲寅	-9.13126
併	-9.1319
出入	-9.13302
擒	-9.13307
掩	-9.13486
環	-9.13519
匹	-9.13539
辨	-9.13562
死者	-9.13607
税	-9.13671
踰	-9.13762
四十	-9.1386
寄	-9.13985
文武	-9.14034
台	-9.14192
幾	-9.14239
䝉	-9.14474
壯	-9.14491
也今	-9.1463
竇	-9.14691
佛	-9.14737
又有	-9.1475
頓	-9.14849
三人	-9.14887
罕	-9.14958
宋祁曰	-9.15009
十七	-9.15229
都尉	-9.15229
校尉	-9.15423
葢	-9.15429
俟	-9.15699
虛	-9.15716
未有	-9.15817
尾	-9.15912
擬	-9.15942
庚子	-9.15969
上書	-9.1616
浩	-9.16301
鹿	-9.16305
蒼	-9.16373
觧	-9.16571
六十	-9.16577
軌	-9.16594
靡	-9.16666
妾	-9.16668
渡	-9.16748
中國	-9.16774
鐵	-9.16996
三千	-9.17163
齊王	-9.17368
壬寅	-9.17468
日月	-9.17483
誕	-9.17622
考證	-9.17772
彭	-9.17806
擾	-9.1784
莫不	-9.17869
停	-9.17912
太常	-9.17945
廵	-9.18095
算	-9.18097
牙	-9.18122
陶	-9.18555
丁丑	-9.18675
鳳	-9.18777
鑄	-9.18779
寡	-9.18803
諸州	-9.18884
誣	-9.18894
丁亥	-9.18895
咎	-9.18964
奚	-9.19001
壬申	-9.1908
讀曰	-9.19249
弓	-9.19258
擅	-9.19259
提舉	-9.19289
不如	-9.19353
甲午	-9.19382
之意	-9.19414
夢	-9.19623
茍	-9.19816
恨	-9.19863
辱	-9.19867
尺	-9.19914
辯	-9.19919
之禮	-9.19942
細	-9.19994
誰	-9.19995
盟	-9.20063
庚午	-9.20238
抑	-9.20262
甲申	-9.20284
賣	-9.20347
開府儀同三司	-9.20474
辛未	-9.20542
鴻	-9.2055
奮	-9.20625
壬辰	-9.20669
不見	-9.20694
僕	-9.20708
占曰	-9.20811
祐	-9.20883
驅	-9.209
庚寅	-9.20902
裁	-9.21159
乙亥	-9.21187
千里	-9.21235
復為	-9.21314
剛	-9.2139
行省	-9.21435
黎	-9.21442
壬子	-9.2148
戚	-9.21656
甲辰	-9.21739
癸酉	-9.21781
笑	-9.21783
隠	-9.21855
壬午	-9.21963
遁	-9.21965
不復	-9.21999
乙未	-9.22022
戴	-9.22023
凖	-9.22079
知其	-9.22143
庚申	-9.22143
哭	-9.22165
給事中	-9.2219
戊申	-9.22261
再拜	-9.22276
耶律	-9.22354
辛亥	-9.22385
錦	-9.22579
宗室	-9.22637
邦	-9.22641
内史	-9.22688
▁(	-9.22785
渉	-9.22948
丁酉	-9.22973
吴	-9.23037
開元	-9.23067
不從	-9.23126
辛丑	-9.23166
距	-9.23258
露	-9.23287
戊寅	-9.23348
癸未	-9.23479
御史大夫	-9.235
乙丑	-9.23663
祚	-9.23691
畜	-9.23721
師古	-9.23787
龜	-9.23883
齋	-9.23891
戊午	-9.23954
迹	-9.24137
太平	-9.24308
短	-9.24474
擊之	-9.24901
篤	-9.24918
暉	-9.24924
丙午	-9.24988
募	-9.25091
士卒	-9.25151
十四年	-9.25154
趣	-9.25161
祝	-9.25216
員外郎	-9.25243
黑	-9.2528
十三年	-9.2546
辛酉	-9.25478
卑	-9.25509
晋	-9.25509
乙酉	-9.25548
遭	-9.25596
正月	-9.25634
江陵	-9.25669
率衆	-9.25699
五千	-9.25747
仙	-9.25813
彭城	-9.25949
莊宗	-9.25951
随	-9.26005
血	-9.26137
二十五	-9.26178
儲	-9.2618
之時	-9.26251
祿	-9.26264
輅	-9.26273
屠	-9.26303
之制	-9.2635
筆	-9.26402
慕	-9.26476
之義	-9.26552
明堂	-9.26707
之言	-9.26752
丁未	-9.26763
辛	-9.26797
驛	-9.26923
錯	-9.26944
戊子	-9.27139
専	-9.27209
潰	-9.27282
邵	-9.27295
珪	-9.27387
岐	-9.2745
丈	-9.27488
鬼	-9.2752
進士	-9.27751
閏	-9.27752
操	-9.27764
羙	-9.27933
○(	-9.28052
檢校	-9.28064
悲	-9.28269
帛	-9.28367
某	-9.28536
嵩	-9.28564
賤	-9.28602
入朝	-9.28639
叙	-9.28652
受命	-9.2868
上下	-9.28739
十五年	-9.28881
戊辰	-9.2889
二卷	-9.28898
戮	-9.28972
以其	-9.29056
誘	-9.29073
黜	-9.29075
貞觀	-9.2914
惑	-9.29238
御史中丞	-9.2946
已下	-9.29494
朗	-9.29513
穀	-9.29514
殘	-9.29574
幽州	-9.29693
臧	-9.2984
繁	-9.29919
翰	-9.3002
茶	-9.3008
偏	-9.30133
晦	-9.30158
綏	-9.303
星出	-9.30382
第一	-9.30475
遽	-9.30525
今日	-9.30525
否	-9.30544
甲戌	-9.3058
聼	-9.30653
徑	-9.30846
庚辰	-9.30893
王子	-9.31001
焚	-9.31105
二員	-9.31122
甘	-9.31194
功臣	-9.31195
癸丑	-9.31206
根	-9.31243
癸亥	-9.3127
乙巳	-9.31277
丁巳	-9.31289
當時	-9.31342
垣	-9.31459
丙寅	-9.31548
琳	-9.31573
恃	-9.31585
稽	-9.31748
冬至	-9.31752
帝曰	-9.31819
用之	-9.31886
柔	-9.31974
覺	-9.32044
黃	-9.3206
悟	-9.32068
斥	-9.32225
丙申	-9.32275
父子	-9.32297
峻	-9.32347
許之	-9.32366
之心	-9.32537
絳	-9.32545
尚書令	-9.32621
(○	-9.32673
是嵗	-9.32677
南北	-9.32727
其家	-9.32797
社稷	-9.32913
壘	-9.32915
莽	-9.32961
秉	-9.32966
宼	-9.33051
辛巳	-9.33081
太廟	-9.33242
兆	-9.33256
明宗	-9.33401
秒	-9.33414
余	-9.33463
匿	-9.3367
三卷	-9.33698
未幾	-9.33807
翟	-9.33918
丙子	-9.33928
丙辰	-9.34011
栁	-9.34026
遜	-9.34097
而去	-9.3411
湏	-9.34158
花	-9.34189
漢書	-9.34194
趙王	-9.34203
脱	-9.34247
俾	-9.34279
沛	-9.3433
一曰	-9.34336
醫	-9.3441
屯田	-9.34526
十六年	-9.34547
照	-9.34553
午	-9.3461
括	-9.34717
尚書省	-9.34749
其言	-9.34769
秦王	-9.34943
總管	-9.34984
不過	-9.35104
郡縣	-9.35106
植	-9.35126
戊戌	-9.35214
歡	-9.35269
墓	-9.35281
皇子	-9.3546
吏部尚書	-9.35476
天下之	-9.35501
而後	-9.3559
曰我	-9.35625
破之	-9.35769
公孫	-9.35877
戲	-9.35915
諸路	-9.3595
價	-9.3596
壬戌	-9.35984
毅	-9.3599
頻	-9.36133
夾	-9.36213
抗	-9.36269
饗	-9.3633
武王	-9.36343
大王	-9.36345
亷	-9.36424
太傅	-9.3644
禽	-9.36448
弊	-9.36533
驕	-9.36534
頌	-9.367
答	-9.36747
姑	-9.36941
悔	-9.36978
採	-9.37022
却	-9.37044
南陽	-9.37051
泣	-9.37162
鳯	-9.37314
之法	-9.37366
散騎常侍	-9.37414
岸	-9.37537
哈	-9.37556
廉	-9.37621
雪	-9.37652
歎	-9.37714
又曰	-9.37968
㧞	-9.38115
哲	-9.38119
小餘	-9.38167
創	-9.38175
坊	-9.38191
子弟	-9.3824
廬	-9.38244
斤	-9.38306
之道	-9.38323
斬之	-9.38361
堡	-9.38365
八百	-9.38414
而還	-9.38578
矢	-9.38655
孰	-9.38681
韶	-9.38707
陞	-9.38777
伍	-9.38793
中書令	-9.38965
整	-9.39069
痛	-9.39211
鐘	-9.39257
閉	-9.39267
㣲	-9.39288
妖	-9.39312
癸巳	-9.39542
也音	-9.39572
髙麗	-9.39584
十萬	-9.39625
析	-9.3973
是為	-9.39785
麗	-9.39789
彰	-9.39873
討之	-9.40005
煩	-9.40056
敎	-9.40201
書曰	-9.40251
偃	-9.40383
同知	-9.4039
竭	-9.40421
冦	-9.40438
州節度使	-9.408
騰	-9.40897
啟	-9.40907
本紀	-9.4095
參知政事	-9.40973
爽	-9.41083
輦	-9.41111
壊	-9.41187
黙	-9.41257
不為	-9.41259
廷尉	-9.41338
係	-9.41354
庚戌	-9.41413
已上	-9.41454
言之	-9.4147
父母	-9.41558
旋	-9.41577
訟	-9.41616
閭	-9.41623
抵	-9.4168
其年	-9.41696
談	-9.41699
久之	-9.41722
又以	-9.41901
慰	-9.41967
卒子	-9.42136
牲	-9.42139
卓	-9.42178
租	-9.42226
七百	-9.42226
骨	-9.42377
荆州	-9.42521
之功	-9.42614
盤	-9.42632
上言	-9.4265
劒	-9.42909
上曰	-9.42914
偉	-9.42937
蔽	-9.42962
溪	-9.42989
紹興	-9.43052
澄	-9.43158
侍郎	-9.43207
諌	-9.43233
厭	-9.43362
昇	-9.43375
漏	-9.43389
譽	-9.43389
熟	-9.43422
夲	-9.43475
淫	-9.43656
洞	-9.43661
𨽻	-9.43734
協	-9.43748
聴	-9.43774
髙宗	-9.4378
乏	-9.43789
隴	-9.43808
江淮	-9.43855
丙戌	-9.43901
争	-9.43965
瓊	-9.44053
圗	-9.44199
三公	-9.44223
軍中	-9.445
十九	-9.4456
黒	-9.44562
留守	-9.44588
時年	-9.4469
抱	-9.44784
監察御史	-9.45092
得其	-9.45382
沮	-9.45438
勑	-9.45475
史記	-9.45482
以兵	-9.45506
塗	-9.45526
人皆	-9.45724
城中	-9.45744
蠲	-9.45766
明帝	-9.45775
曽	-9.45844
數百	-9.4585
阻	-9.45878
百餘	-9.45884
鈞	-9.45903
宰臣	-9.45991
藝	-9.46094
乖	-9.46194
倚	-9.46237
提	-9.46319
絲	-9.46334
塔	-9.46342
令史	-9.46385
靜	-9.46388
鄙	-9.4662
千户	-9.46621
突	-9.46622
湛	-9.46663
翰林學士	-9.46863
曉	-9.46866
不行	-9.46914
猛	-9.46919
簿	-9.46961
貸	-9.46966
爰	-9.47023
勉	-9.47113
麟	-9.47126
州郡	-9.47189
効	-9.47329
故曰	-9.47386
神武	-9.47452
襄陽	-9.47585
荀	-9.47611
其地	-9.47684
跪	-9.47773
禦	-9.47901
佩	-9.47957
肉	-9.48042
於此	-9.48105
錠	-9.48123
閤	-9.48342
長子	-9.48369
元嘉	-9.48449
乃以	-9.48486
緩	-9.48522
昆	-9.48538
淳	-9.48581
閒	-9.48859
殆	-9.48906
其餘	-9.48957
宇	-9.49006
段	-9.49082
績	-9.49086
誓	-9.49144
二州	-9.49261
郢	-9.49344
江西	-9.49373
屏	-9.49417
數十	-9.49434
惜	-9.49454
數千	-9.49615
郡公	-9.49817
徹	-9.49851
緒	-9.4998
至于	-9.49984
祗	-9.50105
項羽	-9.50301
先帝	-9.50302
旅	-9.50327
平陽	-9.50376
準	-9.50382
京兆	-9.50387
沛公	-9.50469
之日	-9.50645
齒	-9.50682
育	-9.50689
之數	-9.5075
太師	-9.50797
撃	-9.50958
尸	-9.50969
矜	-9.51015
不用	-9.5105
舍人	-9.51061
行臺	-9.51068
從事	-9.51119
欲以	-9.51157
警	-9.51268
璧	-9.51317
樞	-9.51324
懸	-9.51402
人之	-9.5148
十七年	-9.51548
之人	-9.51561
之子	-9.51659
燒	-9.51678
將兵	-9.51686
浚	-9.51692
太和	-9.51693
冕	-9.51694
也言	-9.5174
訴	-9.51745
曰臣	-9.5176
相國	-9.51781
不肯	-9.5184
西京	-9.51866
眞	-9.51954
中書侍郎	-9.52007
㨗	-9.52052
柱	-9.52089
渾	-9.52113
徐州	-9.52192
亟	-9.52218
逢	-9.52284
大将軍	-9.52301
恤	-9.52303
郡國	-9.52409
皆以	-9.52427
緣	-9.52773
樊	-9.52789
者以	-9.52845
藉	-9.52937
契	-9.53004
播	-9.53088
堪	-9.53112
毒	-9.53115
閑	-9.5317
蕩	-9.53175
沖	-9.53226
應劭曰	-9.53333
歛	-9.53341
縁	-9.53487
稅	-9.53534
麥	-9.53552
六百	-9.53602
奠	-9.53677
綬	-9.53711
二千	-9.53869
四海	-9.53889
國之	-9.53912
渭	-9.53926
中興	-9.53933
宰	-9.5396
誦	-9.53976
復置	-9.54018
纂	-9.5404
萬餘	-9.54069
海陵	-9.54074
更名	-9.54113
參軍	-9.5413
寃	-9.5417
中外	-9.54195
宛	-9.54251
七十	-9.54445
寕	-9.54572
己亥	-9.54585
觀察使	-9.54729
以前	-9.54803
激	-9.54835
敷	-9.54878
昏	-9.54911
大軍	-9.5508
諾	-9.55115
饒	-9.55218
文王	-9.55267
兵馬	-9.55302
先生	-9.55311
褒	-9.55389
怪	-9.55446
賓	-9.55477
閲	-9.55553
鄂	-9.55582
構	-9.55722
五人	-9.55768
虧	-9.55829
侍御史	-9.55866
孝武	-9.55888
料	-9.56043
禪	-9.56068
是日	-9.56292
哩	-9.56354
仁宗	-9.56407
而無	-9.56413
墨	-9.56435
牢	-9.56437
璋	-9.56437
衝	-9.56488
悼	-9.56577
況	-9.56588
憤	-9.56605
凝	-9.56658
與之	-9.56795
欺	-9.5681
霍	-9.5694
巡	-9.56999
周公	-9.57009
俸	-9.57073
罔	-9.57191
舎	-9.57228
之上	-9.57294
轉運使	-9.5737
上疏	-9.57382
通判	-9.5761
輪	-9.57619
政事	-9.57681
引兵	-9.57683
斛	-9.57684
巧	-9.57744
駐	-9.57766
己未	-9.5779
鸞	-9.57811
二千石	-9.57843
中山	-9.57928
潤	-9.57962
獸	-9.58021
突厥	-9.58028
光武	-9.58078
東都	-9.58094
足以	-9.58107
二十二	-9.58187
含	-9.58259
成都	-9.58339
為人	-9.58448
知之	-9.58651
小分	-9.58765
巖	-9.58776
氐	-9.58781
漕	-9.58815
喻	-9.5883
溢	-9.59053
俘	-9.5908
斬首	-9.59101
武徳	-9.59169
十八年	-9.59181
雞	-9.59183
已而	-9.59232
十餘	-9.59248
黄道	-9.59375
其罪	-9.59435
巨	-9.5944
黄帝	-9.59481
如淳曰	-9.59497
塲	-9.59515
縣令	-9.59671
亢	-9.59676
軍士	-9.59695
婁	-9.59713
揖	-9.59774
河中	-9.59808
勃	-9.59871
五日	-9.5989
忍	-9.59927
議者	-9.59982
濫	-9.60115
君臣	-9.60126
護	-9.60222
嫁	-9.60245
炎	-9.6037
己丑	-9.60373
各一人	-9.60407
婦人	-9.60409
用事	-9.60454
豹	-9.60518
贓	-9.60547
洽	-9.60673
釐	-9.60687
行營	-9.60706
己巳	-9.6075
聖人	-9.60773
熊	-9.60802
貳	-9.60882
紅	-9.60947
安國	-9.60989
二萬	-9.6114
汾	-9.61155
中書舍人	-9.61217
傑	-9.61249
肇	-9.61365
王者	-9.61425
皆有	-9.6146
逮	-9.61495
祈	-9.61501
而死	-9.61537
胄	-9.6159
也師古曰	-9.61703
大明	-9.61711
字子	-9.61804
諸子	-9.61854
無不	-9.61893
競	-9.62027
河西	-9.62082
官吏	-9.62136
尼	-9.6214
溫	-9.62155
東宫	-9.62181
三十六	-9.62192
五星	-9.62271
可謂	-9.62274
元帥	-9.62292
之際	-9.62495
輩	-9.62499
小人	-9.62562
檄	-9.62584
入為	-9.62639
訛	-9.62708
二十年	-9.62769
曰卿	-9.62872
有罪	-9.62981
㑹稽	-9.6306
隂陽	-9.63118
太保	-9.6324
乙卯	-9.63392
鑒	-9.6355
恕	-9.63586
日行	-9.63684
羽林	-9.63685
貌	-9.63875
文學	-9.63905
己酉	-9.63958
執政	-9.63987
遣人	-9.64006
稷	-9.64021
晝	-9.64079
不聽	-9.64092
旌	-9.641
波	-9.64104
辛卯	-9.64199
萬五千	-9.64225
叚	-9.64269
元豐	-9.64349
時人	-9.64385
京城	-9.64418
吐蕃	-9.64503
郡守	-9.64578
古今	-9.64582
行之	-9.64589
晉陽	-9.64606
䖍	-9.64651
萬人	-9.647
有差	-9.64767
進封	-9.64811
巫	-9.64824
詔以	-9.64879
必有	-9.64935
墜	-9.64936
萬户	-9.65048
劫	-9.65076
地震	-9.65162
辦	-9.65204
番	-9.65264
州防禦使	-9.6537
拘	-9.65383
門外	-9.65488
二十一	-9.65527
等處	-9.6571
東平	-9.65869
幕	-9.65972
吏部	-9.6605
諸道	-9.66248
拱	-9.66284
丁卯	-9.6633
之徒	-9.66547
自今	-9.6663
第二	-9.66657
三巻	-9.66776
湘	-9.66791
弟子	-9.66807
子也	-9.66847
中郎將	-9.66893
區	-9.66943
贍	-9.67
奏請	-9.67008
完	-9.67033
寅	-9.67103
大怒	-9.67158
都統	-9.67271
娶	-9.67308
蝗	-9.67387
廣陵	-9.67396
不然	-9.67413
二十三	-9.67427
御史臺	-9.67428
恣	-9.67445
賜爵	-9.67458
有餘	-9.67467
溝	-9.67526
軍節度	-9.6756
發兵	-9.67745
奇	-9.67775
十人	-9.67798
翁	-9.67804
旣	-9.67817
測	-9.67822
大都督	-9.67827
不宜	-9.67936
平章政事	-9.67979
妻子	-9.68072
樞密院	-9.68245
跡	-9.68258
一度	-9.68276
製	-9.68316
滋	-9.68345
濬	-9.68369
攸	-9.68403
將士	-9.68418
借	-9.68486
四百	-9.68607
二十七	-9.68653
賂	-9.68655
數日	-9.68682
所殺	-9.68688
圭	-9.68722
建武	-9.68818
食邑	-9.68824
膺	-9.68873
敗之	-9.68892
楚王	-9.68918
狂	-9.68953
自殺	-9.69013
狄	-9.69127
庾	-9.69182
明日	-9.69232
三司	-9.69331
代之	-9.6937
譏	-9.69388
題	-9.69489
東方	-9.69537
伏誅	-9.69603
緯	-9.69607
八十	-9.69611
鋒	-9.69679
村	-9.69705
人主	-9.69715
宣帝	-9.69719
究	-9.69836
淺	-9.6993
其父	-9.69957
繇	-9.6997
數萬	-9.70079
綽	-9.70173
内侍	-9.70246
以備	-9.70267
不當	-9.70296
衙	-9.70351
岱	-9.70413
拉	-9.70489
矯	-9.7054
亦不	-9.70561
麾	-9.70637
聘	-9.70659
癸卯	-9.70683
傳曰	-9.70788
布哈	-9.70788
持節	-9.70838
扇	-9.70936
其衆	-9.70958
河間	-9.71038
巢	-9.71043
二十八	-9.71177
沉	-9.71272
遥	-9.71476
嵗星	-9.71625
謬	-9.71646
繡	-9.71648
排	-9.71673
展	-9.71687
大定	-9.71707
翰林	-9.71828
有大	-9.71962
暮	-9.71966
陜	-9.71992
祖宗	-9.72056
不勝	-9.72082
大將	-9.72092
太常卿	-9.72141
各一	-9.72209
不出	-9.72275
芳	-9.72326
追封	-9.72373
旬	-9.72376
托	-9.72441
初為	-9.72444
鮮	-9.72607
灌	-9.72662
開府	-9.7272
亦有	-9.72805
曰今	-9.72855
用兵	-9.72877
枉	-9.72882
名也	-9.72923
疎	-9.73042
二十九	-9.73096
肅宗	-9.73158
膳	-9.73341
賑	-9.73546
㡬	-9.73552
誅之	-9.73616
不以	-9.73658
嶽	-9.73812
薩	-9.73812
頒	-9.73829
青州	-9.73846
樞密使	-9.7385
所部	-9.73927
渤海	-9.73929
赫	-9.73939
遼東	-9.74019
暑	-9.74036
欣	-9.74142
千餘人	-9.74232
之罪	-9.74388
滎陽	-9.74411
率兵	-9.74414
弩	-9.74427
卦	-9.74444
璽	-9.74448
大敗	-9.74524
不至	-9.74527
僕射	-9.74533
濟南	-9.74632
欽定四庫全書	-9.74651
六人	-9.7469
傳云	-9.74716
贖	-9.7473
枝	-9.74765
百萬	-9.748
賴	-9.74884
曠	-9.7495
千人	-9.75135
臣等	-9.75162
曜	-9.75175
四川	-9.75251
詢	-9.75254
二十六	-9.7529
豆	-9.75306
葛	-9.75397
不受	-9.75426
之中	-9.7562
三分	-9.75676
頴	-9.75723
以功	-9.75729
雖有	-9.75762
彈	-9.75763
寨	-9.75792
斂	-9.75793
貴人	-9.75859
行事	-9.75907
憚	-9.75918
一年	-9.76082
舊制	-9.76097
潁	-9.76101
臯	-9.7614
練	-9.76165
之名	-9.76182
畝	-9.76188
瞻	-9.76274
耀	-9.7628
童	-9.76282
雙	-9.763
肥	-9.76339
國除	-9.76357
東海	-9.76373
為一	-9.76408
狼	-9.76411
壞	-9.76567
筠	-9.76572
彪	-9.76684
詰	-9.76691
大司馬	-9.76818
三萬	-9.76838
元和	-9.77113
二縣	-9.77116
言其	-9.77206
竄	-9.77296
剋	-9.77374
僚	-9.77376
場	-9.77445
特進	-9.77531
改封	-9.77536
隔	-9.77559
依舊	-9.7759
織	-9.77661
刃	-9.77687
銓	-9.77711
靣	-9.77724
荘	-9.7773
來朝	-9.77812
疆	-9.77838
綿	-9.7795
弑	-9.78006
譙	-9.78031
禮樂	-9.78033
十九年	-9.78037
當作	-9.78077
廂	-9.78077
無以	-9.78082
滯	-9.78146
駭	-9.78166
論語	-9.78202
戰于	-9.78256
河陽	-9.78279
指揮使	-9.78332
南京	-9.78356
殿前	-9.78376
醉	-9.78385
強	-9.78471
都監	-9.78502
不相	-9.78831
慕容	-9.78847
胥	-9.78901
百餘人	-9.78928
二日	-9.78998
燕王	-9.79066
仇	-9.79075
大赦	-9.79139
恥	-9.79158
然則	-9.79172
劉氏	-9.79208
畿	-9.79242
板	-9.79254
朔方	-9.79255
第三	-9.79378
姜	-9.79544
神宗	-9.79611
真定	-9.79762
銜	-9.79833
像	-9.79923
殺人	-9.80016
潁川	-9.80046
包	-9.80192
昧	-9.80195
邢	-9.80203
所得	-9.80232
也故	-9.80256
又言	-9.80294
㓜	-9.80476
嚕	-9.80501
乃止	-9.80571
缺	-9.80614
状	-9.80643
項王	-9.80718
叅	-9.80719
二子	-9.80786
?」	-9.80802
徇	-9.8085
福建	-9.80934
大破之	-9.81047
奢	-9.81065
千餘	-9.81069
安石	-9.81085
桂	-9.8118
其國	-9.81191
其母	-9.81229
諷	-9.81307
鋭	-9.81329
掾	-9.81377
留後	-9.81415
常侍	-9.81426
挺	-9.81468
押	-9.81535
軫	-9.81547
曰朕	-9.81697
十巻	-9.81725
軍事	-9.81742
萬物	-9.81744
虢	-9.81778
領軍	-9.81803
上都	-9.81862
蟲	-9.81983
豈可	-9.82012
潘	-9.82153
塵	-9.82171
平原	-9.8218
官至	-9.82242
洗	-9.82277
蛇	-9.82291
周禮	-9.82309
劍	-9.82349
同中書門下平章事	-9.82374
舅	-9.824
之屬	-9.82555
服䖍曰	-9.82665
王師	-9.82697
宥	-9.82746
知制誥	-9.82758
嫌	-9.8287
愍	-9.82957
安撫	-9.82961
郡太守	-9.83026
不與	-9.83065
不欲	-9.83112
潔	-9.83175
踐	-9.83175
完顔	-9.83218
陳留	-9.83231
帝崩	-9.83272
坦	-9.83336
證	-9.83359
欵	-9.83493
數年	-9.83499
之衆	-9.83581
大小	-9.83646
招討使	-9.83767
作亂	-9.83779
縣屬	-9.83807
特穆爾	-9.83818
謁者	-9.83848
歎曰	-9.83848
雍州	-9.83851
蝕	-9.8386
巾	-9.8388
上表	-9.83894
賛	-9.84062
丕	-9.84121
同平章事	-9.84157
後世	-9.84184
熈	-9.84187
河内	-9.84251
大水	-9.84288
諸司	-9.8429
濁	-9.84361
収	-9.84423
鑿	-9.84438
國王	-9.84452
狗	-9.84466
恢	-9.84566
其人	-9.84571
項	-9.84637
未至	-9.84664
不應	-9.84711
睦	-9.84719
後漢	-9.84805
不盡	-9.84811
牒	-9.84819
嗟	-9.84871
人心	-9.84882
古者	-9.84884
上柱國	-9.8494
髙帝	-9.84994
鄰	-9.85
進退	-9.85202
佞	-9.85207
成王	-9.85304
脫	-9.85315
昶	-9.85319
奏事	-9.85357
名曰	-9.85387
麻	-9.85408
中都	-9.85413
妙	-9.85413
擁	-9.85413
不忍	-9.8542
冀州	-9.85442
詔書	-9.85483
四時	-9.85511
卒贈	-9.8555
伺	-9.85557
吏民	-9.85637
建安	-9.85651
孟康曰	-9.85665
門下	-9.85711
糴	-9.85777
南郊	-9.85853
奈何	-9.85856
愧	-9.85862
沂	-9.85987
太學	-9.86018
貽	-9.86109
夜半	-9.8617
捨	-9.8619
裔	-9.86192
一作	-9.86226
閔	-9.86321
紂	-9.86332
者為	-9.86355
數月	-9.86356
金銀	-9.86553
浦	-9.86574
之外	-9.86576
左丞	-9.86641
晟	-9.86749
時有	-9.86768
大事	-9.86793
域	-9.86813
匠	-9.86835
悅	-9.86871
十餘萬	-9.86878
夏人	-9.86965
邸	-9.86986
東京	-9.87069
湖南	-9.87105
號曰	-9.87106
不滿	-9.87119
襃	-9.87336
穿	-9.87406
則天	-9.87414
漆	-9.8743
元帝	-9.87496
一時	-9.87507
汝南	-9.87517
冢	-9.87611
城縣	-9.87627
五帝	-9.87644
陂	-9.87715
讒	-9.87724
豫章	-9.87873
鐸	-9.87932
九十	-9.87947
脅	-9.87968
酌	-9.87987
熙寧	-9.88021
輕重	-9.88024
故也	-9.88132
醜	-9.88183
各有	-9.88195
荷	-9.88254
舉兵	-9.88284
不合	-9.88311
袍	-9.88326
者不	-9.88405
建康	-9.88453
飢	-9.88472
暢	-9.88619
帝即位	-9.88627
取之	-9.8867
敝	-9.8869
風俗	-9.88723
邱	-9.88736
泥	-9.88744
聰	-9.88762
忿	-9.88775
海内	-9.8886
犬	-9.88949
卧	-9.88967
以示	-9.88978
都指揮使	-9.88984
詠	-9.89045
晚	-9.891
汗	-9.89103
艱	-9.89128
起兵	-9.89138
隴西	-9.8919
挾	-9.89234
鐡	-9.89303
儼	-9.89418
涼	-9.89499
齎	-9.89599
粲	-9.89619
邀	-9.89634
柳	-9.89693
腹	-9.89813
》	-9.8986
《	-9.8986
陛	-9.89957
恪	-9.89986
太史	-9.90102
行至	-9.90137
傍	-9.90148
奏曰	-9.90306
座	-9.90364
譜	-9.90429
淑	-9.90451
努	-9.90574
益州	-9.90627
等州	-9.90636
本名	-9.90713
慢	-9.90834
家人	-9.91077
僅	-9.91094
其弟	-9.91108
瓚	-9.91116
曰汝	-9.91123
陟	-9.91246
定州	-9.91251
霜	-9.91274
叡	-9.91318
羡	-9.91415
未能	-9.91469
繩	-9.91477
冶	-9.91502
輝	-9.91539
寫	-9.91543
笞	-9.91589
碑	-9.91611
謀反	-9.91772
雉	-9.91784
并州	-9.91793
古之	-9.91899
隙	-9.91958
嘉之	-9.91971
莫敢	-9.91974
曰昔	-9.91995
第十	-9.92001
漳	-9.92029
琅邪	-9.92109
戈	-9.9219
弔	-9.9223
之臣	-9.92256
苛	-9.92447
也又	-9.92449
誡	-9.92495
柴	-9.92533
所居	-9.9259
陪	-9.92641
貞元	-9.92832
景帝	-9.92918
未及	-9.92938
侯景	-9.92947
禮部尚書	-9.92982
皷	-9.93009
西域	-9.93018
圓	-9.93089
咸陽	-9.93089
邁	-9.9311
上黨	-9.93128
使持節	-9.93137
僉	-9.93167
弦	-9.9322
中尉	-9.93264
豈不	-9.93354
禱	-9.93356
魏王	-9.93391
祁	-9.93503
乂	-9.9358
畔	-9.93621
長沙	-9.93632
鬻	-9.93638
光禄大夫	-9.93665
滑	-9.93801
閤門	-9.93863
誨	-9.93933
乙	-9.9413
冒	-9.94148
以疾	-9.94168
百里	-9.94194
閻	-9.94244
取其	-9.94268
鄒	-9.94369
高麗	-9.94391
旨	-9.9444
七日	-9.94454
左傳	-9.9446
檀	-9.94483
虐	-9.94495
召為	-9.94496
出身	-9.94544
摩	-9.94633
人情	-9.94694
巴延	-9.94713
隅	-9.94729
文章	-9.9474
宗正	-9.94768
憲宗	-9.94777
涇	-9.94803
以獻	-9.94821
大同	-9.94864
茅	-9.94875
束	-9.94922
賔客	-9.94924
誼	-9.94927
梁王	-9.94993
㦸	-9.95027
泄	-9.95028
釁	-9.95103
尚書右僕射	-9.95113
噶	-9.95119
翊	-9.95121
諸郡	-9.95122
清河	-9.95161
一萬	-9.95207
彧	-9.95221
琴	-9.95269
僭	-9.95276
軍民	-9.95328
由此	-9.95409
敖	-9.9543
亨	-9.95444
釋之	-9.9546
矩	-9.95483
庶子	-9.95513
上帝	-9.95613
殿中	-9.95631
劇	-9.95633
三十五	-9.95642
賁	-9.95661
嫡	-9.95724
揆	-9.95725
餉	-9.95738
吏部侍郎	-9.95833
死之	-9.95834
師古曰言	-9.9586
芝	-9.95865
中有	-9.95902
自稱	-9.95977
足下	-9.9598
償	-9.96126
九百	-9.96161
版	-9.96203
殺其	-9.96248
雲中	-9.963
不可以	-9.96301
之民	-9.96387
自古	-9.96413
敞	-9.96434
列傳第	-9.96482
赤道	-9.96492
姓名	-9.96522
通鑑	-9.96547
凌	-9.96584
張晏曰	-9.96692
金吾	-9.9673
之計	-9.96773
册	-9.96823
謨	-9.97056
其意	-9.97071
卒於	-9.97101
裂	-9.97104
四十五	-9.97195
三十二	-9.9722
味	-9.97451
隐	-9.97486
户部	-9.97648
西方	-9.97704
桃	-9.9772
之内	-9.97761
廣州	-9.97889
宇文	-9.97893
安定	-9.97959
魁	-9.97962
如是	-9.98013
庻	-9.9812
五卷	-9.98201
柵	-9.98248
婚	-9.98258
邈	-9.98308
富貴	-9.98315
攻之	-9.98354
漢中	-9.98358
芒	-9.98359
禮部	-9.98403
第五	-9.9842
訥	-9.98514
鞭	-9.98546
什	-9.98556
藻	-9.98587
太僕	-9.98623
為亂	-9.98665
..「	-9.98672
未可	-9.98696
謂曰	-9.98724
戾	-9.98813
兵部尚書	-9.98843
涉	-9.98868
咨	-9.989
冲	-9.98952
億	-9.99013
佗	-9.99023
言者	-9.99045
括地志云	-9.99078
大理	-9.99177
尚書左丞	-9.99195
公事	-9.99202
去之	-9.99264
陽縣	-9.99311
斌	-9.99359
慙	-9.9943
苟	-9.99433
諒	-9.99514
棺	-9.99659
安撫使	-9.99743
飬	-9.99802
汎	-9.99854
披	-9.99925
見其	-9.99969
驍	-10.0001
第四	-10.0004
度支	-10.0007
其先	-10.001
起居	-10.0011
是年	-10.0017
寓	-10.0019
神主	-10.0019
鬬	-10.0022
永安	-10.0023
兖州	-10.0026
世子	-10.0034
子曰	-10.0041
檜	-10.0043
為大	-10.0053
何如	-10.0053
知名	-10.0054
即日	-10.0066
閏月	-10.0068
酷	-10.0068
施行	-10.0072
江東	-10.0073
天寳	-10.0073
朔日有食之	-10.0074
鼔	-10.0074
江州	-10.0082
左丞相	-10.009
奉詔	-10.0092
劭	-10.0092
邕	-10.0099
栗	-10.0102
二十一年	-10.0103
指揮	-10.0105
玄宗	-10.0106
昉	-10.0107
慧	-10.0112
開封府	-10.0115
寡人	-10.0121
又云	-10.0134
牽	-10.0138
萬七千	-10.014
好學	-10.0149
睿	-10.0149
徧	-10.0151
改元	-10.0152
考證欽定四庫全書	-10.0157
教授	-10.016
近臣	-10.0161
瓌	-10.0165
得失	-10.0172
濮	-10.0173
禧	-10.0176
大都	-10.0176
榆	-10.0178
頃之	-10.0188
蠶	-10.0191
號為	-10.0194
政和	-10.0201
未㡬	-10.0202
俯	-10.0203
以自	-10.0206
府事	-10.0209
中書省	-10.0213
二十三年	-10.0214
猷	-10.0228
豫州	-10.0234
制度	-10.0237
𦵏	-10.0242
罵	-10.0249
遐	-10.0252
戶	-10.0253
太平興國	-10.0254
多所	-10.0255
其中	-10.026
王氏	-10.026
甚衆	-10.0269
汲	-10.0271
少府	-10.0271
瓦	-10.0273
元祐	-10.0277
除之	-10.028
晝夜	-10.029
女直	-10.0292
郊祀	-10.0297
勁	-10.0299
添	-10.0302
桓公	-10.0304
惡之	-10.0308
太康	-10.0308
為左	-10.0312
監軍	-10.0318
鞫	-10.0324
遏	-10.0325
箭	-10.0326
孚	-10.0329
中丞	-10.033
列侯	-10.0339
新書	-10.034
利害	-10.0345
酋	-10.0349
駿	-10.0349
糾	-10.0349
秦州	-10.0355
分為	-10.0357
喇	-10.0361
誥	-10.0362
諸軍事	-10.0364
較	-10.0366
其名	-10.0368
也夫	-10.0371
消	-10.0374
諸将	-10.0376
咸平	-10.0378
忠義	-10.0379
乃遣	-10.0384
属	-10.0385
孝文	-10.0387
宦者	-10.0399
道路	-10.0399
苗	-10.04
沔	-10.0402
軰	-10.0406
柱國	-10.0407
者亦	-10.041
之下	-10.042
罷之	-10.0421
宣王	-10.0424
及其	-10.0426
尚書左僕射	-10.0428
墳	-10.043
夔	-10.0431
蘄	-10.0446
臣僚	-10.0447
出於	-10.0452
請以	-10.0452
兄子	-10.0454
入見	-10.0456
綜	-10.0456
黄門	-10.0461
頼	-10.0462
五萬	-10.0471
之故	-10.0473
撥	-10.0477
言曰	-10.0479
祕	-10.0486
十餘人	-10.0491
老子	-10.0497
摧	-10.0499
一百二十	-10.0504
長公主	-10.0506
一千	-10.0508
朴	-10.0511
郤	-10.0515
掃	-10.0523
大風	-10.0524
琛	-10.0524
地理志	-10.0526
為丞相	-10.0528
燭	-10.0528
真宗	-10.053
之利	-10.053
逵	-10.0534
曰臣聞	-10.0534
山川	-10.0538
奕	-10.0539
乾道	-10.0541
琰	-10.0543
淹	-10.0545
住	-10.0555
在位	-10.0559
裏	-10.0562
守之	-10.0562
鹽鐵	-10.0564
譚	-10.0572
臣召南	-10.0579
以待	-10.058
沃	-10.0581
車騎將軍	-10.0587
曰君	-10.059
男女	-10.0591
官屬	-10.0592
太隂犯	-10.0597
百户	-10.0597
怠	-10.0598
溺	-10.0608
詭	-10.0611
倒	-10.0628
牀	-10.0637
萬六千	-10.0637
顥	-10.0641
讀書	-10.0646
見之	-10.0656
後主	-10.0665
文字	-10.0667
右丞相	-10.0669
渡河	-10.0672
縮	-10.0681
常山	-10.0687
遂以	-10.069
迫	-10.0697
不在	-10.0699
韻	-10.0702
為名	-10.0706
綂	-10.0719
八人	-10.0721
疲	-10.0723
讐	-10.0726
往往	-10.0729
襄王	-10.0734
㓂	-10.0737
又遣	-10.0749
郁	-10.0753
雍州刺史	-10.0758
帝王	-10.0762
祭酒	-10.0762
太白晝見	-10.0765
狐	-10.0773
至此	-10.0773
衮	-10.0775
街	-10.0777
吳王	-10.0785
太白犯	-10.0793
牟	-10.0793
學者	-10.0802
宿衛	-10.0812
而下	-10.0814
吐	-10.0819
該	-10.082
歟	-10.082
?	-10.0823
長吏	-10.0823
加時	-10.0826
之初	-10.0831
民間	-10.0835
艾	-10.0837
墮	-10.0837
少卿	-10.0837
王莽	-10.0838
韓信	-10.0841
右丞	-10.0842
車騎	-10.0843
其日	-10.0846
三十三	-10.0846
耿	-10.0848
潞州	-10.0857
城下	-10.0858
一名	-10.0858
永平	-10.0867
演	-10.0873
逋	-10.0874
三品	-10.0879
桀	-10.088
自此	-10.0885
大破	-10.0885
太陰	-10.0889
俄而	-10.0889
北海	-10.0891
之家	-10.0902
首領	-10.0903
北面	-10.0913
四千	-10.0915
綸	-10.0923
孔子曰	-10.0928
兵部侍郎	-10.0931
皓	-10.0932
失其	-10.0932
萌	-10.0936
犀	-10.0937
萬三千	-10.0938
譯	-10.0946
復以	-10.0948
儁	-10.0949
四十八	-10.0957
准	-10.0957
沁	-10.0958
等皆	-10.0959
昴	-10.0961
歆	-10.0964
為太子	-10.0966
力戰	-10.0968
淮西	-10.0969
士大夫	-10.097
莫能	-10.0973
甄	-10.0974
弛	-10.0977
數十人	-10.0978
瑪	-10.0981
推官	-10.0981
廣平	-10.0984
丹陽	-10.0985
中大夫	-10.0986
衛將軍	-10.0987
隄	-10.0993
廢帝	-10.0996
如太白	-10.1004
匪	-10.1005
君之	-10.1008
㢘	-10.1011
姊	-10.1011
莽曰	-10.1015
之類	-10.1019
二年正月	-10.102
荆州刺史	-10.1036
蠕蠕	-10.1043
追贈	-10.1044
左僕射	-10.1047
裳	-10.1051
豫州刺史	-10.1052
荅	-10.1053
相與	-10.1057
翔	-10.1061
謗	-10.1065
以爲	-10.1066
及諸	-10.1067
宣和	-10.1069
一切	-10.1078
貲	-10.1081
棘	-10.1083
綰	-10.1087
進號	-10.1093
大業	-10.1094
||	-10.1095
堰	-10.1095
淮陽	-10.1096
萬餘人	-10.1101
數千人	-10.1101
忠臣	-10.1101
雲南	-10.1102
不言	-10.1109
彥	-10.1112
雨雹	-10.1115
己卯	-10.1129
集十卷	-10.1141
十餘年	-10.1148
監司	-10.1155
數百人	-10.1157
禁中	-10.116
纔	-10.1164
姪	-10.1165
開皇	-10.1165
世家	-10.1184
而行	-10.1188
城門	-10.1192
紙	-10.1194
繕	-10.1194
三十七	-10.1196
乃與	-10.1205
堤	-10.1205
唱	-10.1208
兩浙	-10.1216
千戸	-10.1217
損益	-10.1221
不通	-10.1222
中軍	-10.1224
柄	-10.1226
聞其	-10.1232
祔	-10.1232
邯鄲	-10.1238
侈	-10.1239
者多	-10.1242
謚	-10.1256
薊	-10.1256
酬	-10.1264
主人	-10.1266
者必	-10.1267
紛	-10.1287
先王	-10.1295
阜	-10.1295
它	-10.13
本作	-10.1305
臣聞	-10.1308
何為	-10.131
晉王	-10.1312
五行	-10.132
諧	-10.1324
臂	-10.1331
衣冠	-10.1335
封禪	-10.1335
山陽	-10.1337
相繼	-10.1338
杲	-10.134
不利	-10.1343
祭祀	-10.1344
耗	-10.1347
來屬	-10.135
三十一	-10.1352
互	-10.1353
三州	-10.1353
潭	-10.1353
崖	-10.1354
勵	-10.1355
訊	-10.1356
總管府	-10.1356
吹	-10.137
捷	-10.137
召見	-10.1375
三代	-10.1386
乗之	-10.1387
鮑	-10.1392
潞	-10.1393
荆南	-10.1394
往來	-10.1395
裘	-10.1398
羲	-10.14
禮部侍郎	-10.1401
蓄	-10.1402
換	-10.1402
窺	-10.1402
都部署	-10.1408
所生	-10.1411
視之	-10.1416
萬八千	-10.1417
所言	-10.1419
泗	-10.1422
萬石	-10.143
其下	-10.1437
流涕	-10.1438
溥	-10.1439
二巻	-10.145
圜	-10.1451
死罪	-10.1455
萬四千	-10.1464
眷	-10.1465
布衣	-10.1475
滄	-10.1477
旒	-10.1498
網	-10.1505
國史	-10.1509
填	-10.1511
武皇	-10.1512
|||	-10.1514
右僕射	-10.1519
二十卷	-10.152
四分	-10.1529
一旦	-10.153
影	-10.1533
刑部尚書	-10.1537
隣	-10.1539
懲	-10.1539
髪	-10.1551
㸃	-10.1552
常平	-10.1552
嚮	-10.1556
疋	-10.156
朋	-10.1568
幷	-10.157
鳯翔	-10.1572
大名	-10.1573
鳳翔	-10.1583
得之	-10.1584
乙夘	-10.159
栢	-10.1596
是歲	-10.16
州團練使	-10.1601
甞	-10.1603
立為	-10.1604
成帝	-10.1607
來降	-10.1613
僖	-10.1626
惠王	-10.1627
白馬	-10.1627
衣服	-10.1632
饌	-10.164
妹	-10.164
終不	-10.1642
逺近	-10.1646
內	-10.1653
受禪	-10.1656
魏書卷	-10.1658
蹈	-10.1658
徐州刺史	-10.1658
不足以	-10.166
禾	-10.1661
薪	-10.1662
黄金	-10.1663
皆為	-10.1676
無子	-10.1676
權知	-10.1677
撓	-10.1677
問之	-10.168
彬	-10.1686
稼	-10.1692
丙	-10.1697
又詔	-10.17
而出	-10.1707
瀆	-10.1707
兖	-10.171
䝉古	-10.171
宫中	-10.1711
孝宗	-10.1713
古人	-10.172
活	-10.1721
安得	-10.1723
亦以	-10.1724
壤	-10.1724
萬九千	-10.1725
𦙍	-10.1733
關中	-10.1745
混	-10.1746
卿等	-10.1749
亦如之	-10.1751
下詔	-10.1753
呈	-10.1754
開封	-10.1756
諤	-10.1762
元年正月	-10.1762
燾	-10.1762
帝以	-10.1764
樞宻院	-10.1768
上京	-10.1772
迺	-10.1786
徳宗	-10.1793
那	-10.1793
不絶	-10.1796
遣其	-10.18
范陽	-10.1803
畤	-10.181
何也	-10.1814
穴	-10.1816
京兆尹	-10.1816
衢	-10.1816
促	-10.182
儀同三司	-10.1824
列傳	-10.1825
拯	-10.1827
為右	-10.1831
百人	-10.1838
公私	-10.1842
其功	-10.1842
玩	-10.1843
蠻夷	-10.1845
從容	-10.1856
洲	-10.1857
今年	-10.1859
憑	-10.186
户部侍郎	-10.1861
縣侯	-10.1864
三十四	-10.1869
兵起	-10.1871
泰山	-10.1874
黄門侍郎	-10.1874
滄州	-10.1878
制置使	-10.1884
統軍	-10.189
不便	-10.1891
曰天	-10.1892
捧	-10.1892
中原	-10.1893
贊曰	-10.1893
廹	-10.1894
讎	-10.1899
親王	-10.19
辛夘	-10.1901
昨	-10.1907
人有	-10.1908
得罪	-10.1908
叱	-10.1912
昭王	-10.1914
二十二年	-10.1923
有一	-10.1929
饋	-10.1944
禀	-10.1954
平王	-10.1955
之命	-10.1956
繆	-10.1956
琪	-10.1959
䕶軍	-10.1962
詣闕	-10.1966
陽侯	-10.197
都虞候	-10.1973
疇	-10.1976
丁夘	-10.1981
替	-10.1985
周易	-10.1988
萬里	-10.1988
揚州刺史	-10.1995
沿	-10.1996
熒惑犯	-10.1998
至京師	-10.1998
待之	-10.2
安南	-10.2009
工部尚書	-10.2012
既至	-10.2013
顗	-10.2016
屍	-10.2018
銳	-10.202
襲爵	-10.202
或有	-10.2023
至今	-10.2025
七十二	-10.203
行幸	-10.203
固辭	-10.2034
諸生	-10.2036
山陵	-10.2038
四卷	-10.2038
四十二	-10.2041
奄	-10.2042
五品	-10.2048
北方	-10.2049
所至	-10.205
晉灼曰	-10.2051
譬	-10.2052
長樂	-10.2053
瑾	-10.2057
販	-10.2059
部曲	-10.2063
大使	-10.2064
而卒	-10.2065
托克托	-10.2068
褚	-10.2077
飲食	-10.2079
坤	-10.2085
卽	-10.2087
燔	-10.2087
或曰	-10.2092
救之	-10.2093
軒	-10.2093
人臣	-10.2102
飲酒	-10.2109
囊	-10.2118
萬戸	-10.212
後為	-10.2123
璘	-10.2128
綵	-10.2131
腹心	-10.2132
又為	-10.2133
江夏	-10.2144
奎	-10.2145
碩	-10.2148
邠	-10.2151
弓矢	-10.2164
大赦天下	-10.2165
值	-10.2169
禮記	-10.2169
賜之	-10.2171
晷	-10.2178
西河	-10.2178
瑜	-10.2179
人所	-10.2191
淳熙	-10.2191
都元帥	-10.2191
劔	-10.2197
覩	-10.2199
箕	-10.2203
不報	-10.2213
寔	-10.2213
達嚕噶齊	-10.2217
興元	-10.2219
若不	-10.2222
平章	-10.2223
非也	-10.2223
汪	-10.2228
焦	-10.223
之國	-10.2231
以来	-10.2239
太皇太后	-10.2239
之勢	-10.224
因以	-10.2241
太一	-10.2249
東至	-10.2251
官爵	-10.2252
昻	-10.226
佑	-10.226
返	-10.2266
徽宗	-10.2266
月犯	-10.2267
逾	-10.2279
婢	-10.228
文公	-10.2287
高宗	-10.2288
夏侯	-10.2292
逰	-10.2292
殿中侍御史	-10.2295
而歸	-10.2299
大徳	-10.2299
黍	-10.2304
當世	-10.2304
壓	-10.2308
銘	-10.2309
乃使	-10.2316
月食	-10.2319
乃令	-10.2328
躍	-10.2329
侮	-10.2329
零	-10.2336
潮	-10.2336
琦	-10.2337
琮	-10.2343
三十卷	-10.2346
二曰	-10.2351
淮南王	-10.2355
愆	-10.2355
廻	-10.2358
握	-10.2358
途	-10.2359
滕	-10.2363
免官	-10.2368
當有	-10.2369
官軍	-10.2371
泰始	-10.2371
治之	-10.2386
十日	-10.2391
閱	-10.2391
三十年	-10.2395
蔣	-10.2408
偶	-10.2413
昭宗	-10.2414
大功	-10.2423
巷	-10.2427
寸	-10.2428
麾下	-10.2429
豎	-10.2432
待制	-10.2435
奬	-10.2442
天命	-10.2442
朝服	-10.2445
五色	-10.2448
殄	-10.246
噐	-10.2461
為政	-10.2462
龎	-10.2462
願陛下	-10.2463
縣置	-10.2467
舉進士	-10.2469
守臣	-10.247
州諸軍事	-10.2473
孝經	-10.2476
從七品	-10.2476
行軍	-10.2479
闗中	-10.2486
洎	-10.2493
將帥	-10.2499
會稽	-10.25
俠	-10.2501
之文	-10.2502
亞	-10.2506
耆	-10.251
之師	-10.2511
三十九	-10.2512
奉使	-10.2513
為侍中	-10.2521
之謂	-10.2523
恬	-10.2524
眉	-10.2527
减	-10.2533
入城	-10.2537
皇甫	-10.2538
勾	-10.254
千八百	-10.254
宣武	-10.2542
萊	-10.2543
有司奏	-10.2544
浸	-10.2546
天文	-10.2546
便宜	-10.2548
注云	-10.2549
韜	-10.2554
制置	-10.2556
諸部	-10.2557
填星	-10.256
匱	-10.2561
翦	-10.2564
羞	-10.2565
記曰	-10.2567
江左	-10.2573
潜	-10.2573
石頭	-10.2574
弁	-10.2575
前代	-10.258
始皇	-10.2595
孺	-10.2596
漂	-10.2606
戰於	-10.2607
䑓	-10.2608
人多	-10.2609
械	-10.2613
浙西	-10.2618
則有	-10.2618
西川	-10.2619
徼	-10.262
札	-10.2625
其黨	-10.2628
宋人	-10.263
涇原	-10.263
王府	-10.2638
庚	-10.2639
女子	-10.2641
故云	-10.2643
禮畢	-10.2646
汙	-10.2648
而立	-10.2651
之亂	-10.2651
之則	-10.2655
鬱	-10.2659
廩	-10.2659
刋	-10.2661
也若	-10.2662
甚厚	-10.2665
驃騎	-10.2669
馭	-10.2674
廓	-10.2679
甸	-10.2679
囘	-10.268
觸	-10.2682
起復	-10.2685
日夜	-10.2686
卒于	-10.2688
千五百	-10.269
亳	-10.2693
統制	-10.2697
出知	-10.2699
塘	-10.2702
鄆	-10.2713
二世	-10.2715
部落	-10.2718
齊人	-10.272
從征	-10.2728
闢	-10.2728
暨	-10.2731
縛	-10.2732
新城	-10.2736
安西	-10.2738
宦	-10.2738
「	-10.2743
貝	-10.2749
無功	-10.2751
未知	-10.2758
流星	-10.2758
之役	-10.2759
征伐	-10.2761
在外	-10.2764
二十人	-10.2769
二十五年	-10.2776
三縣	-10.2779
蕭衍	-10.2781
乾元	-10.2783
水旱	-10.2797
無復	-10.2798
四十九	-10.28
裝	-10.2801
衛尉	-10.2814
之官	-10.2815
敘	-10.2828
王公	-10.2831
史臣曰	-10.2832
其實	-10.2841
大餘	-10.2845
稍遷	-10.2845
上有	-10.2848
進爵	-10.2852
繒	-10.2853
盈縮	-10.2858
嶺南	-10.286
忤	-10.2866
綾	-10.2867
健	-10.2867
綴	-10.2867
之變	-10.2868
悖	-10.2869
輟	-10.2874
其間	-10.2876
暇	-10.2881
内附	-10.2881
新安	-10.2881
曰夫	-10.2884
鼓吹	-10.2884
其妻	-10.2884
各以	-10.2886
太公	-10.2892
之樂	-10.2904
埒	-10.2904
南郡	-10.2905
二十萬	-10.2905
偕	-10.292
奴婢	-10.2924
節制	-10.2928
服之	-10.2932
伎	-10.2933
鑑	-10.2938
盜賊	-10.294
蔚	-10.2943
陽城	-10.2949
臻	-10.2953
忻	-10.2955
漢軍	-10.2956
五十七	-10.296
以本官	-10.2961
禮官	-10.2961
鄉里	-10.2966
霧	-10.2969
之志	-10.297
領兵	-10.2972
四十七	-10.2979
鬭	-10.2979
曄	-10.299
軒轅	-10.2997
寘	-10.3006
承制	-10.3006
以告	-10.3008
彗	-10.301
人君	-10.3012
不容	-10.3014
一等	-10.3015
熹	-10.3019
二十四年	-10.302
金帛	-10.302
腰	-10.3025
侍從	-10.3025
壺	-10.3026
之情	-10.303
為國	-10.3036
等路	-10.3042
異之	-10.3043
扎	-10.3043
以次	-10.3047
所知	-10.3048
不下	-10.305
響	-10.3052
隕	-10.3055
壮	-10.3061
天之	-10.3062
更始	-10.3063
提㸃	-10.3065
東井	-10.3066
光祿大夫	-10.3067
舎人	-10.3074
樞宻使	-10.3077
芻	-10.3077
建炎	-10.309
不就	-10.3093
東陽	-10.31
叅軍	-10.3103
北地	-10.3107
鴈門	-10.3107
廪	-10.3112
提舉司	-10.3114
閩	-10.3116
精兵	-10.3125
無事	-10.3126
問曰	-10.3129
庶人	-10.313
從五品	-10.3135
聞而	-10.3144
代王	-10.3157
淳化	-10.3157
七千	-10.3163
中郎	-10.3163
繪	-10.3167
四品	-10.3167
竟不	-10.3168
貎	-10.317
䕫	-10.317
王元	-10.3171
遼史	-10.3171
非常	-10.3179
一月	-10.318
日度	-10.3181
七人	-10.3185
先朝	-10.3189
奸	-10.319
北京	-10.3198
立功	-10.3198
阮	-10.3199
五經	-10.32
戌	-10.32
河南尹	-10.3201
遞	-10.3202
尚書右丞	-10.3202
賜死	-10.3203
若此	-10.3204
衞將軍	-10.3208
不成	-10.3208
記室	-10.3212
相如	-10.3213
為相	-10.3214
夙	-10.3216
拒之	-10.3217
瑀	-10.3217
懇	-10.3218
襄公	-10.3227
四十六	-10.3236
榷	-10.3237
韋昭曰	-10.3238
迷	-10.3239
飯	-10.3239
参軍	-10.3243
高帝	-10.3247
城内	-10.3248
肯	-10.3251
酈	-10.3253
㤗	-10.3256
無忌	-10.3263
癸夘	-10.3265
睿宗	-10.3271
觀之	-10.3272
瘞	-10.3275
卭	-10.3278
曰陛下	-10.3288
鈐轄	-10.329
喬	-10.329
漠	-10.3291
望之	-10.3291
四面	-10.3293
門下侍郎	-10.3296
捐	-10.3298
言於	-10.3303
此言	-10.3308
雒陽	-10.3309
戊	-10.3313
以禮	-10.3313
笑曰	-10.3322
姿	-10.3328
恂	-10.3328
梅	-10.3328
岡	-10.3329
冗	-10.3329
涼州	-10.3331
語曰	-10.3333
梟	-10.3335
緡	-10.3337
上元	-10.3343
集二卷	-10.3353
鄭𤣥曰	-10.3365
萬世	-10.3372
長者	-10.3383
楷	-10.3383
以後	-10.3383
京東	-10.339
出兵	-10.3394
紇	-10.3399
天監	-10.34
起家	-10.34
南方	-10.3401
有詔	-10.3402
函	-10.3403
至自	-10.3406
京畿	-10.3408
之政	-10.341
侍衛	-10.3417
不食	-10.3417
泛	-10.342
四十四	-10.342
不死	-10.342
憐	-10.3421
自立	-10.343
二十八年	-10.3432
孽	-10.3433
鞏	-10.3434
永嘉	-10.3438
二字	-10.3438
斡	-10.3444
輔國將軍	-10.3457
而止	-10.3459
團	-10.346
髮	-10.3461
三十八	-10.3466
覃	-10.347
夏至	-10.3471
與其	-10.3472
一百五十	-10.3477
唐書卷	-10.3481
太宰	-10.3485
之術	-10.3487
顒	-10.3488
越王	-10.3488
玠	-10.3492
敇	-10.3495
疫	-10.3501
為太尉	-10.3503
鷹	-10.3509
寝	-10.3511
李氏	-10.3513
卯	-10.3514
二十七年	-10.3516
有三	-10.3517
進位	-10.3518
豈有	-10.3519
遂與	-10.3522
南康	-10.3529
下邳	-10.3529
之禍	-10.3531
埋	-10.3532
沐	-10.3532
於齊	-10.3533
漢人	-10.3533
二十餘	-10.3534
相見	-10.3534
永興	-10.3535
三年正月	-10.3535
而有	-10.3538
奉表	-10.3547
銷	-10.3549
矟	-10.3553
登歌	-10.3554
數人	-10.3562
辰星	-10.3564
兼侍中	-10.3566
輯	-10.3567
鎮州	-10.3571
時為	-10.3573
六十四	-10.3577
穎	-10.358
樂作	-10.3584
隰	-10.3587
深入	-10.3588
然而	-10.3591
至徳	-10.3593
鉞	-10.3595
甘泉	-10.3595
之位	-10.3601
瓘	-10.3605
永昌	-10.3611
賞罰	-10.3618
桂陽	-10.3622
沙門	-10.3624
蘓	-10.3624
天平	-10.3626
法度	-10.3629
敗績	-10.3636
百寮	-10.3642
轄	-10.3643
凉	-10.3644
有異	-10.3645
各置	-10.3646
一分	-10.3646
緋	-10.3652
系	-10.3655
倡	-10.3662
捍	-10.3663
穢	-10.3664
外戚	-10.3669
論曰	-10.3671
三軍	-10.3672
可得	-10.3673
為皇太子	-10.3674
胤	-10.3679
得免	-10.3689
州事	-10.3693
嬪	-10.3694
稱其	-10.3695
岑	-10.3699
昱	-10.3703
樂止	-10.371
盗賊	-10.3731
淪	-10.3732
宸	-10.3733
諸國	-10.3734
膽	-10.3738
刼	-10.3739
勘	-10.3741
鉅鹿	-10.3742
建元	-10.3744
宣徽使	-10.3744
二十六年	-10.3745
百匹	-10.3749
南面	-10.3756
牌	-10.376
杭州	-10.376
軍都指揮使	-10.3762
他日	-10.3767
卞	-10.3772
辜	-10.3773
搆	-10.3774
眼	-10.3775
朔望	-10.3776
伐宋	-10.3776
位於	-10.3778
曇	-10.3785
功曹	-10.3786
欒	-10.3787
卒年六十	-10.3787
西向	-10.3793
賄	-10.3794
京西	-10.3796
悍	-10.3798
吉凶	-10.38
惇	-10.3804
月餘	-10.3805
其一	-10.3806
其民	-10.3806
長孫	-10.3811
頗有	-10.3814
宫室	-10.3814
鉤	-10.3817
止之	-10.3817
四州	-10.3818
駟	-10.3819
其城	-10.3821
城南	-10.3823
莒	-10.3824
太清	-10.3828
扼	-10.3833
諫議大夫	-10.3837
三十里	-10.3842
暈	-10.3844
底	-10.385
禘	-10.3855
賞賜	-10.3855
磬	-10.3858
三曰	-10.3862
使使	-10.3865
臘	-10.3869
迭	-10.387
雕	-10.3871
毫	-10.3873
答曰	-10.3879
!	-10.3886
熾	-10.3887
財物	-10.389
之儀	-10.3891
應天	-10.3892
曰公	-10.3898
譴	-10.3907
風雨	-10.3907
出師	-10.3915
稱之	-10.3917
伸	-10.3928
前書	-10.393
敗走	-10.3931
縣公	-10.3933
確	-10.3939
吐谷渾	-10.394
明安	-10.3942
賚	-10.3942
於上	-10.3942
鹵簿	-10.3943
齡	-10.3947
四十一	-10.3948
前軍	-10.3948
太常博士	-10.395
復位	-10.3958
攻城	-10.3958
愿	-10.3963
愛之	-10.3966
工部侍郎	-10.3967
馮翊	-10.3968
哷	-10.3968
是非	-10.3968
進士第	-10.3968
不安	-10.3973
之風	-10.3975
為御史大夫	-10.3976
酉	-10.3977
國子祭酒	-10.3981
鞠	-10.3983
渡江	-10.3986
視事	-10.3991
廐	-10.3991
中下	-10.3993
追之	-10.3993
之患	-10.3997
無罪	-10.4013
鏡	-10.4013
江州刺史	-10.4015
以求	-10.402
一品	-10.4024
轉運司	-10.4027
十二卷	-10.4029
三輔	-10.4033
四十三	-10.4034
平章事	-10.4041
謫	-10.4042
抄	-10.4043
郎官	-10.4045
飭	-10.4047
軍馬	-10.4048
東郡	-10.405
昆弟	-10.406
陋	-10.406
五度	-10.4061
刑獄	-10.4062
山在	-10.4062
||||	-10.4063
南海	-10.4065
籌	-10.4067
以為然	-10.4074
不克	-10.4075
脚	-10.4076
並為	-10.4078
各一員	-10.4079
之節	-10.4082
鮮卑	-10.4083
不顧	-10.409
立於	-10.4093
禮儀	-10.4093
濤	-10.41
龔	-10.41
煥	-10.4102
之職	-10.4102
言事	-10.4104
儀注	-10.4104
賜以	-10.411
乃命	-10.411
措	-10.4111
崇寧	-10.4113
景公	-10.4116
實封	-10.4121
食之	-10.4125
直學士	-10.4136
臣下	-10.4136
賜金	-10.4138
慟	-10.4139
杞	-10.414
肩	-10.4141
拂	-10.4142
芮	-10.4147
又置	-10.415
骨肉	-10.415
英宗	-10.4153
不知所	-10.4156
都督府	-10.4161
遮	-10.4165
澹	-10.4165
孝景	-10.4165
不得已	-10.4167
五代	-10.4171
張儀	-10.4172
二分	-10.4174
卒年七十	-10.4176
紗	-10.4178
!」	-10.4178
鑄錢	-10.4186
鈎	-10.4193
二十九年	-10.4195
為司徒	-10.4197
刑部	-10.4202
王室	-10.4205
不已	-10.4213
奉朝請	-10.4218
燧	-10.4219
鎮江	-10.422
爼	-10.422
中宗	-10.4222
六卷	-10.4223
壻	-10.4225
眀年	-10.4226
何不	-10.4231
鬼神	-10.4233
之任	-10.4237
文宗	-10.4242
文曰	-10.4242
𤼵	-10.4242
刪	-10.4243
輔政	-10.4244
張耳	-10.4249
再遷	-10.4249
州總管	-10.4252
都䕶	-10.4255
各有差	-10.4258
朂	-10.426
枚	-10.426
無窮	-10.4261
槍	-10.4261
五分	-10.4267
杜預曰	-10.427
語在	-10.4278
太中大夫	-10.4288
氷	-10.4302
毗	-10.4306
不自	-10.4306
殿下	-10.4309
迄	-10.4321
昬	-10.4325
下有	-10.433
隴右	-10.4336
仁義	-10.4338
珂	-10.4341
寂	-10.4343
水陸	-10.4349
改正	-10.4352
後魏	-10.4353
成功	-10.4358
殁	-10.4359
邇	-10.4361
棗	-10.4363
朝臣	-10.4369
鄆州	-10.437
宋兵	-10.4373
秘	-10.4374
來貢	-10.4375
北伐	-10.4376
鞅	-10.4378
承㫖	-10.438
後宫	-10.4381
六軍	-10.4382
掘	-10.4387
除名	-10.4389
丑	-10.4391
絡	-10.4396
大人	-10.4398
赴闕	-10.4398
陜州	-10.4399
正八品	-10.44
染	-10.44
為司空	-10.4401
宣慰使	-10.4402
國人	-10.4408
曰若	-10.4409
滑州	-10.4411
納之	-10.4417
叟	-10.4419
絃	-10.442
攘	-10.4427
衆軍	-10.4433
所宜	-10.4434
大司農	-10.4437
其文	-10.4437
騶	-10.4441
之説	-10.4449
扈	-10.4454
冉	-10.4456
職官	-10.4458
班師	-10.4458
臣竊	-10.4461
仲尼	-10.4462
狹	-10.4469
大星	-10.4471
兵攻	-10.4479
討平之	-10.4481
冰	-10.4482
㳺	-10.4482
隘	-10.4483
了	-10.4485
耻	-10.4485
廵檢	-10.4487
一百八十	-10.4488
從者	-10.4488
撫軍	-10.449
天道	-10.4492
以歸	-10.4498
凱	-10.45
苖	-10.4501
兇	-10.4502
承天	-10.4504
踵	-10.4507
扶風	-10.451
之才	-10.4514
元帥府	-10.4517
鎔	-10.4529
大喜	-10.4533
從弟	-10.4536
經史	-10.4537
於天下	-10.4539
議郎	-10.454
錄事	-10.4542
延夀	-10.4542
使臣	-10.4542
冐	-10.4544
太上皇	-10.4544
弄	-10.4545
加減	-10.4551
盎	-10.4552
依前	-10.4556
:	-10.4557
青州刺史	-10.456
主上	-10.4562
以報	-10.4565
後漢書卷	-10.4567
第六	-10.4569
旄	-10.4571
曼	-10.4573
鞍	-10.4576
祉	-10.4582
山南	-10.4585
於外	-10.4589
涕	-10.4598
其才	-10.4601
西至	-10.4604
患之	-10.4616
廣西	-10.462
瓜	-10.4625
鎬	-10.4627
儻	-10.4628
之謀	-10.4628
嘉定	-10.463
頸	-10.463
入太微	-10.463
不堪	-10.464
保定	-10.4643
黄鐘	-10.4643
愔	-10.4643
儀同	-10.4645
臨江	-10.4648
宣慰司	-10.465
荆湖	-10.4653
聊	-10.4653
已來	-10.4653
生子	-10.4657
益都	-10.4657
數十萬	-10.4657
賓客	-10.466
贄	-10.466
萬騎	-10.4664
又改	-10.4664
頤	-10.4665
峽	-10.467
金城	-10.467
郢州	-10.4671
年五十	-10.4675
此則	-10.4677
而復	-10.4682
大中祥符	-10.4688
款	-10.469
大雨	-10.4691
萬年	-10.4693
宣宗	-10.4693
酌獻	-10.4693
昭公	-10.47
使副	-10.4703
員外	-10.4704
而退	-10.4704
轅	-10.4704
廬江	-10.4708
舌	-10.4709
行在	-10.4718
欲令	-10.4718
奪其	-10.4719
樞密	-10.4722
乳	-10.4727
𤓰	-10.4728
户部尚書	-10.473
亰	-10.4731
潭州	-10.4732
漁	-10.4737
本朝	-10.4738
其心	-10.4743
五十五	-10.4744
乆之	-10.475
淮東	-10.4754
般	-10.4755
本無	-10.4757
武功	-10.4757
穆宗	-10.4759
八卷	-10.4763
太子詹事	-10.4767
太祝	-10.4769
不拜	-10.4769
犢	-10.477
人父	-10.4771
膝	-10.4772
所司	-10.4772
者並	-10.4774
粗	-10.4774
初置	-10.4774
萬二千	-10.4775
中書門下	-10.4778
東向	-10.4778
入于	-10.478
已後	-10.4784
宣撫	-10.4786
嵗餘	-10.4786
史官	-10.4788
將相	-10.4789
所敗	-10.4789
於秦	-10.4793
一百一十	-10.4795
賻	-10.4795
惶	-10.4796
永元	-10.4796
因此	-10.4796
惲	-10.4797
絕	-10.4798
來歸	-10.4799
同州	-10.48
而不能	-10.4809
詩曰	-10.4809
三省	-10.4811
太山	-10.4813
截	-10.4813
歙	-10.4817
於前	-10.4818
所為	-10.482
佃	-10.482
夏國	-10.4821
戸部	-10.4822
自然	-10.4824
是故	-10.4827
置酒	-10.4829
號令	-10.483
不忘	-10.4831
如前	-10.4834
如何	-10.4835
詆	-10.4836
侂胄	-10.4837
壹	-10.4839
若有	-10.4847
近侍	-10.4848
之難	-10.4848
以故	-10.4854
字仲	-10.4857
劵	-10.486
永明	-10.4862
所著	-10.4865
總領	-10.4876
殯	-10.4878
月行	-10.488
主之	-10.4892
嶠	-10.4896
桐	-10.4897
綺	-10.4898
不免	-10.49
者乎	-10.4901
快	-10.4902
遇害	-10.4905
之重	-10.4905
之弊	-10.4912
大義	-10.4917
或以	-10.492
萬嵗	-10.4921
尚書僕射	-10.4927
京都	-10.4929
平江	-10.4933
常以	-10.494
暫	-10.4941
枕	-10.4942
覇	-10.4945
九江	-10.4949
朔日有蝕之	-10.4949
行宫	-10.4952
百二十	-10.4953
在京	-10.4956
帯	-10.496
六十七	-10.4962
貧民	-10.4964
受詔	-10.4964
起為	-10.4965
侃	-10.4968
也然	-10.4974
不悦	-10.4974
奐	-10.4975
國子	-10.4976
上聞	-10.4978
帷	-10.4979
嶷	-10.4979
相去	-10.4979
從八品	-10.498
柩	-10.4981
嗜	-10.4981
僻	-10.4986
一丈	-10.4991
為主	-10.4992
埶	-10.4995
以安	-10.4995
軍旅	-10.4997
諮	-10.4997
封為	-10.4998
盾	-10.5008
轉運	-10.5017
所求	-10.5034
縣五	-10.5038
開寳	-10.5041
延年	-10.5042
漲	-10.5046
燎	-10.5051
二百五十	-10.5052
筵	-10.5058
詹事	-10.5063
埽	-10.5064
相州	-10.5064
斧	-10.5065
金紫光禄大夫	-10.5069
五十二	-10.5072
日食	-10.5073
僮	-10.5073
江浙	-10.5079
蘇林曰	-10.508
千七百	-10.5082
騫	-10.5082
父兄	-10.5085
澶州	-10.5088
不問	-10.5089
尋陽	-10.5091
廸	-10.5092
志曰	-10.5097
汴州	-10.5097
瀛	-10.5109
分兵	-10.511
臨淮	-10.5111
壅	-10.5113
東門	-10.5115
堯舜	-10.5118
給之	-10.5118
也且	-10.5128
國子監	-10.5129
股	-10.513
脈	-10.513
漢使	-10.5131
贇	-10.5133
進賢	-10.5133
著作佐郎	-10.5133
丹陽尹	-10.5136
恱	-10.5137
尊號	-10.5141
給事	-10.5141
九州	-10.5141
貯	-10.5142
晉書	-10.5142
驃騎將軍	-10.5143
久矣	-10.5158
祫	-10.5163
柏	-10.5164
駒	-10.5164
興宗	-10.5166
章邯	-10.5167
賜名	-10.5167
安帝	-10.517
電	-10.5173
六千	-10.5174
之北	-10.5175
終日	-10.518
駱	-10.5182
張浚	-10.5183
槩	-10.5184
朞	-10.5185
可汗	-10.5192
吞	-10.5203
一十	-10.5204
幡	-10.5205
上以	-10.5209
紹聖	-10.5214
武昌	-10.5214
勣	-10.5215
三尺	-10.5217
加之	-10.5217
雀	-10.5217
控	-10.5218
僑	-10.5218
穰	-10.5218
迪	-10.5218
冠軍將軍	-10.5223
賢者	-10.5225
輜重	-10.523
中正	-10.5232
父老	-10.5233
五十四	-10.5235
者則	-10.5236
十里	-10.524
禎	-10.524
詳定	-10.5242
尅	-10.5243
是謂	-10.5248
年少	-10.5249
兵法	-10.5253
民田	-10.5256
河朔	-10.5259
南山	-10.526
河決	-10.526
乃得	-10.5261
溉	-10.5262
親戚	-10.5262
六國	-10.5263
國用	-10.5263
黄龍	-10.5266
磨	-10.5271
千匹	-10.5276
大行	-10.5276
安平	-10.5277
百僚	-10.5277
黄河	-10.528
今案	-10.5281
之世	-10.5281
入氐	-10.5283
之辭	-10.5284
哲宗	-10.5284
彛	-10.5285
闇	-10.5288
晩	-10.5291
剽	-10.5291
義陽	-10.5293
直言	-10.5294
熱	-10.5295
閎	-10.5297
南向	-10.5298
嗣位	-10.5301
校書郎	-10.5308
其數	-10.5309
蓬	-10.531
亦無	-10.5313
枯	-10.5317
六日	-10.5319
雖不	-10.532
召還	-10.5321
經畧	-10.5325
其主	-10.5328
洋	-10.5329
家貧	-10.5329
禋	-10.5334
武定	-10.5335
城陽	-10.5337
叔父	-10.5339
一千五百	-10.5345
黔	-10.5347
畋	-10.5351
俞	-10.5352
華州	-10.5353
四曰	-10.5357
重之	-10.5358
武宗	-10.5364
衛大將軍	-10.5369
武德	-10.537
謐	-10.5371
駮	-10.5375
搜	-10.5377
道士	-10.5388
义	-10.539
方今	-10.5393
四年正月	-10.5394
拓	-10.5398
銖	-10.5398
瑱	-10.5399
諜	-10.5401
無益	-10.5402
太常少卿	-10.5402
男子	-10.5403
契丹主	-10.5409
草木	-10.5411
四萬	-10.5416
纓	-10.5418
諫曰	-10.5431
之兵	-10.5435
之盛	-10.5435
黯	-10.5438
兵至	-10.544
揺	-10.5442
迴	-10.5443
自陳	-10.5444
顛	-10.5444
渥	-10.5447
駙馬都尉	-10.5448
八千	-10.5448
之聲	-10.545
少子	-10.5454
尤甚	-10.5457
防禦	-10.5458
縣也	-10.5459
一朝	-10.5461
王安石	-10.5462
於朝	-10.5462
漢興	-10.5466
隆興	-10.5469
魂	-10.5469
不可不	-10.5471
太史公曰	-10.5474
因之	-10.5477
乃詔	-10.5477
為定	-10.5478
建徳	-10.548
經略	-10.548
之業	-10.5482
浪	-10.5482
淄	-10.5482
酺	-10.5487
翠	-10.5488
軍國	-10.5495
慶元	-10.5497
京邑	-10.5505
左氏	-10.5509
萬錠	-10.5514
譲	-10.5516
州觀察使	-10.5516
禁軍	-10.5516
宣撫使	-10.5517
猾	-10.5517
法令	-10.5518
從九品	-10.5519
天地之	-10.5525
一寸	-10.5532
夀春	-10.5533
探	-10.5537
曷	-10.5542
豕	-10.5544
則不	-10.5545
後周	-10.5554
今改正	-10.5556
有聲	-10.5558
寤	-10.5559
等使	-10.556
繞	-10.556
追尊	-10.5567
怯	-10.5567
三百六十	-10.5568
受其	-10.5577
浙	-10.558
覈	-10.5582
遣兵	-10.5589
女為	-10.5589
録事	-10.5593
衛上將軍	-10.5596
威將軍	-10.5604
蒸	-10.5604
耳目	-10.5612
陳平	-10.5615
副元帥	-10.5618
其勢	-10.5625
者衆	-10.5631
四夷	-10.5631
搏	-10.5632
詳衮	-10.5634
蚤	-10.5635
主管	-10.5639
州軍	-10.5642
夏五月	-10.5643
觀其	-10.5644
艦	-10.5645
議曰	-10.5647
秦之	-10.5651
元史卷	-10.5652
禆	-10.5654
者謂	-10.5656
定數	-10.5666
南征	-10.5667
有才	-10.5672
磁	-10.5672
浙東	-10.568
實録	-10.5682
衣食	-10.5682
所入	-10.5685
朝夕	-10.5685
州都督	-10.5686
不獲	-10.569
諶	-10.5692
於東	-10.5692
阿里	-10.5695
渙	-10.5696
百餘里	-10.5697
因而	-10.5701
圉	-10.5702
三千人	-10.5704
職事	-10.5709
千三百	-10.571
家屬	-10.571
虎賁	-10.5724
北斗	-10.5734
朝議	-10.5737
百年	-10.5738
蔡京	-10.5739
無異	-10.5739
少監	-10.5743
僣	-10.5743
與戰	-10.5744
易之	-10.5744
六十二	-10.5749
其身	-10.5749
安都	-10.5749
不識	-10.5753
不允	-10.5756
五十八	-10.5758
俶	-10.5759
1	-10.576
洮	-10.5761
轍	-10.5763
闔	-10.5769
于時	-10.5771
怒曰	-10.5771
漢兵	-10.5772
節度使李	-10.5781
簒	-10.5785
郵	-10.5786
碎	-10.5786
二百四十	-10.5786
芬	-10.5789
舊唐書卷	-10.5796
以給	-10.5798
不納	-10.5804
宰執	-10.5806
五十六	-10.5807
百司	-10.5807
居之	-10.5808
忠孝	-10.5812
緝	-10.5812
之議	-10.5814
滛	-10.5815
宗族	-10.5816
許州	-10.5823
彭越	-10.5824
彗星	-10.5824
處分	-10.5828
水軍	-10.5828
今據	-10.583
籠	-10.5832
濵	-10.5834
夫子	-10.5836
油	-10.5836
受之	-10.5838
廊	-10.5838
遼陽	-10.5841
武徳四年	-10.5844
斬其	-10.5845
少有	-10.5849
障	-10.5853
失之	-10.5854
平原君	-10.5856
獠	-10.5861
瑗	-10.5864
非所以	-10.5864
即以	-10.5865
朝政	-10.5866
之理	-10.5867
軍主	-10.5873
安樂	-10.5874
分置	-10.5874
澗	-10.5878
貴妃	-10.5879
著作郎	-10.5881
自言	-10.5881
梓	-10.5882
囂	-10.5886
元昊	-10.5886
每日	-10.5888
有此	-10.5895
收其	-10.5899
水出	-10.59
幄	-10.5904
西魏	-10.591
河南府	-10.591
大兵	-10.5914
慶之	-10.5915
不改	-10.5917
大安	-10.5918
朝㑹	-10.5918
椿	-10.5926
鶴	-10.5928
㝠	-10.5928
河上	-10.5933
逞	-10.5933
以成	-10.5934
又與	-10.5935
春正月	-10.5938
詩云	-10.594
以致	-10.5942
萬國	-10.5942
可也	-10.5942
獻公	-10.5944
璠	-10.5946
獲其	-10.5949
祕書	-10.5949
天祐	-10.5954
軍至	-10.5955
少帝	-10.5955
中京	-10.5958
志云	-10.5966
七卷	-10.5967
笛	-10.5968
己夘	-10.597
衡山	-10.597
滔	-10.5974
闊	-10.5975
仍令	-10.5978
二十里	-10.5983
本官	-10.5991
正七品	-10.5993
其屬	-10.5995
世隆	-10.5996
一百三十	-10.5996
從六品	-10.5997
珙	-10.5998
朽	-10.6
谿	-10.6004
㸃檢	-10.6004
北向	-10.6008
壝	-10.6016
遣使者	-10.6017
標	-10.602
哥	-10.6024
莊公	-10.6027
之始	-10.6029
劉攽曰	-10.6032
遣將	-10.6035
女也	-10.6038
衫	-10.6039
福州	-10.604
衷	-10.6042
多少	-10.6046
改名	-10.605
豈非	-10.6055
行參軍	-10.6055
戰敗	-10.6068
甚多	-10.6069
何所	-10.6072
擊破之	-10.6073
之半	-10.6075
求之	-10.6076
之君	-10.6076
宫人	-10.608
上章	-10.6082
未盡	-10.6083
措置	-10.6085
律令	-10.6094
諫官	-10.6095
邢州	-10.6101
城郭	-10.6102
印綬	-10.6103
爻	-10.6103
之南	-10.6105
重耳	-10.6106
不若	-10.6106
食其	-10.6109
其上	-10.611
灼	-10.6112
第七	-10.6116
諮議參軍	-10.6117
棣	-10.6118
見於	-10.612
和親	-10.6121
垂拱	-10.6121
大旱	-10.6124
上書言	-10.6128
萬緡	-10.6131
復立	-10.6132
建隆	-10.6134
固守	-10.6135
曦	-10.614
所見	-10.6141
驟	-10.6142
刑部侍郎	-10.6145
謂之曰	-10.6149
不易	-10.6151
兼領	-10.6151
供奉官	-10.616
責之	-10.6164
延祐	-10.6164
愼	-10.6166
宜令	-10.6166
大興	-10.6171
射之	-10.6175
一百四十	-10.6175
王曰	-10.6177
驩	-10.6177
軍使	-10.6178
所害	-10.6178
為天下	-10.6184
泊	-10.6187
五巻	-10.6189
譖	-10.6192
親征	-10.6194
於民	-10.6195
有兵	-10.6195
龍門	-10.6198
竟陵	-10.62
冀州刺史	-10.6201
江都	-10.6203
可用	-10.6204
九卿	-10.6205
尋遷	-10.6206
同列	-10.6213
可不	-10.6217
武陵	-10.6226
可乎	-10.6227
為上	-10.6232
征討	-10.6234
減之	-10.6235
渝	-10.6236
昭義	-10.6239
詔令	-10.6244
殖	-10.6244
南安	-10.6248
生於	-10.6249
者悉	-10.6252
本州	-10.6252
帖	-10.626
皎	-10.6267
天子之	-10.6267
貴賤	-10.6267
曾孫	-10.6272
然之	-10.6274
產	-10.6274
入宫	-10.6275
二年春正月	-10.628
袖	-10.6284
入海	-10.6286
斃	-10.6288
汶	-10.6288
不失	-10.6288
年老	-10.629
集五卷	-10.6294
鄉侯	-10.6295
緡錢	-10.6296
大梁	-10.6298
琅邪王	-10.6298
縣名	-10.6304
陽郡	-10.6307
州領	-10.6308
千六百	-10.6308
瑩	-10.6308
数	-10.6312
沆	-10.6314
臨安	-10.6316
北院	-10.632
二度	-10.632
諸侯王	-10.6321
僧辯	-10.6329
不明	-10.6332
故城	-10.6333
評	-10.6335
模	-10.6337
如其	-10.6343
嘉其	-10.6349
王后	-10.6353
球	-10.6358
其能	-10.6364
登進士第	-10.6366
奭	-10.6366
歸徳	-10.6374
以供	-10.6374
可知	-10.6378
后稷	-10.6378
多不	-10.6378
胃	-10.6383
島	-10.6383
兩淮	-10.6383
舘	-10.6385
奨	-10.6385
臥	-10.6387
不知其	-10.6395
眾	-10.6396
民力	-10.6396
所用	-10.6397
千金	-10.6403
從官	-10.6404
亘	-10.6406
莭	-10.6407
之號	-10.6408
五十九	-10.6415
不止	-10.6416
瑕	-10.6417
士庶	-10.6417
蕭何	-10.6418
罪人	-10.6418
所過	-10.6422
蹇	-10.6422
二年二月	-10.6429
王道	-10.6432
先登	-10.6432
不肖	-10.6434
戢	-10.6434
天祚	-10.6434
鑾	-10.6436
羸	-10.6436
斜	-10.6437
仍以	-10.6438
所獲	-10.6439
孟子	-10.6439
秋八月	-10.6439
不樂	-10.6442
饑民	-10.6443
州人	-10.6448
左傳曰	-10.6454
相應	-10.6454
讜	-10.6456
俎	-10.6461
稚	-10.6462
虎符	-10.6469
文宣	-10.6472
神龍	-10.6472
大業初	-10.6473
今之	-10.6473
一嵗	-10.6474
朝野	-10.6477
武成	-10.6479
日益	-10.6484
妨	-10.6486
未聞	-10.6494
乗輿	-10.6498
六度	-10.6499
其職	-10.65
縣名屬	-10.6501
縣民	-10.6511
菜	-10.6513
此其	-10.6514
炳	-10.6516
還京師	-10.6519
聶	-10.652
遁去	-10.6521
敬則	-10.6522
三王	-10.6523
縣東	-10.6524
有二	-10.6524
一子	-10.6525
乘輿	-10.6525
鼠	-10.6532
葵	-10.6535
捉	-10.6535
繹	-10.6536
郊廟	-10.6538
鄧州	-10.6541
見殺	-10.6541
朒	-10.6542
尋除	-10.6543
歐陽史	-10.6543
執事	-10.6545
之處	-10.6548
軍於	-10.6548
觀察	-10.6548
其義	-10.6549
州廢	-10.6552
大觀	-10.6552
頂	-10.6554
鉅	-10.6555
錡	-10.6557
一星	-10.656
厨	-10.6562
躡	-10.6562
技	-10.6563
壯士	-10.6564
未得	-10.6565
祕書監	-10.6565
六十三	-10.6568
元景	-10.6572
歐陽	-10.6573
軾	-10.6575
涇州	-10.6576
莫知	-10.6577
勛	-10.658
薦之	-10.6582
入内	-10.6586
正五品	-10.6589
擢為	-10.659
又令	-10.659
際	-10.6592
建中	-10.6593
不豫	-10.6596
臣之	-10.6597
鎮撫	-10.66
哈喇	-10.6602
亶	-10.6607
左將軍	-10.6608
或作	-10.661
北郊	-10.6611
姻	-10.6612
翌日	-10.6612
太史公	-10.6613
朐	-10.6613
狡	-10.6613
者三	-10.6619
不亦	-10.6623
兼知	-10.6623
橫	-10.6624
遂為	-10.6624
篆	-10.663
仍舊	-10.6633
魏博	-10.6634
不疑	-10.6635
王肅	-10.6637
暗	-10.6638
府庫	-10.664
神明	-10.664
人也祖	-10.6645
州城	-10.665
所欲	-10.6653
參議	-10.6657
几	-10.6658
闡	-10.6659
涪	-10.6659
媚	-10.666
翻	-10.666
訣	-10.6661
宣城	-10.6663
太妃	-10.6663
名為	-10.6664
寖	-10.6664
驪	-10.6667
棄市	-10.6669
衆皆	-10.6679
曺	-10.6683
國子博士	-10.6684
蔵	-10.6685
提領	-10.6686
扞	-10.669
工部	-10.6691
復遣	-10.6691
死於	-10.6693
之子也	-10.6695
五百人	-10.6697
音義	-10.6704
本路	-10.6705
監本訛	-10.6706
中書監	-10.6709
八尺	-10.671
罹	-10.671
猜	-10.6711
其利	-10.6715
竿	-10.6716
境内	-10.6722
乘之	-10.6722
屯兵	-10.6724
字伯	-10.6727
千石	-10.6729
筭	-10.6733
縣官	-10.6733
嘗為	-10.6733
為文	-10.6734
進軍	-10.6734
下令	-10.6736
國有	-10.6736
旬日	-10.6737
之用	-10.6738
鄜延	-10.6741
先後	-10.6749
管仲	-10.6749
冡	-10.675
上谷	-10.6757
紐	-10.6758
晃	-10.6759
摯	-10.676
囉	-10.676
五十三	-10.6762
閬	-10.6763
紳	-10.6764
孔安國曰	-10.6765
征虜將軍	-10.6765
遙	-10.6765
云云	-10.6766
民之	-10.6768
于朝	-10.6768
泉州	-10.6769
元年二月	-10.6774
中星	-10.6786
遍	-10.6787
蠡	-10.6787
驢	-10.6789
膏	-10.6792
歸國	-10.6794
衛将軍	-10.6796
孝惠	-10.6796
南史卷	-10.6803
一十五	-10.6803
親屬	-10.6805
不能自	-10.6809
湖廣	-10.6809
大雪	-10.681
正旦	-10.681
馴	-10.6811
軍人	-10.6814
六十五	-10.6814
二州刺史	-10.6815
霄	-10.6815
千二百	-10.6816
亳州	-10.6816
如此則	-10.6817
坑	-10.6817
未必	-10.6818
鼻	-10.6819
膠東	-10.682
攸之	-10.6822
三十萬	-10.6822
以應	-10.6823
以減	-10.6823
府長史	-10.6823
靈公	-10.6829
平城	-10.6829
入覲	-10.6833
睢	-10.6834
七十五	-10.6835
信都	-10.6835
郝	-10.6837
天成	-10.6839
㳟	-10.684
所奏	-10.6844
馬軍	-10.6845
之舞	-10.6846
監本	-10.6846
可為	-10.685
諸縣	-10.6851
亡命	-10.686
劉向	-10.6861
金石	-10.6864
已亥	-10.6865
不可得	-10.6868
改曰	-10.6871
餘衆	-10.6874
掖	-10.6879
觴	-10.6888
八分	-10.6889
駙馬	-10.689
想	-10.689
轂	-10.6891
無可	-10.6891
㳂	-10.6891
九十一	-10.6892
琬	-10.6892
北至	-10.6894
愁	-10.6895
人民	-10.6899
亭侯	-10.6904
右將軍	-10.6907
師道	-10.6907
開禧	-10.6908
兵士	-10.6909
杜預	-10.6909
諸葛	-10.6911
攷	-10.6915
千萬	-10.6915
提刑	-10.6915
頓首	-10.6919
詔諭	-10.6921
不必	-10.6922
皆如	-10.6924
一百七十	-10.6925
禦之	-10.6927
天水	-10.6927
知州	-10.6935
當以	-10.6935
太常寺	-10.6938
佳	-10.6942
漁陽	-10.6943
療	-10.6944
覬	-10.6945
稔	-10.6945
蔡州	-10.6947
中使	-10.6958
濮陽	-10.6959
應之	-10.6962
以通	-10.6965
映	-10.6967
迥	-10.6967
寐	-10.6969
順帝	-10.697
太隂	-10.6972
竦	-10.6972
懌	-10.6974
禍福	-10.698
大悦	-10.6982
卬	-10.6984
之恩	-10.6991
必不	-10.6995
驃騎大將軍	-10.6996
不聞	-10.6997
韓魏	-10.7
各二	-10.7003
武安	-10.7004
之服	-10.7006
之末	-10.7008
矣今	-10.7009
文徳	-10.7014
榜	-10.7017
入貢	-10.7017
流民	-10.7017
分左右	-10.7017
鄂州	-10.7017
於天	-10.7018
兼中書令	-10.7022
亦同	-10.7023
廣漢	-10.7025
崧	-10.7026
國事	-10.7027
牛羊	-10.7029
稻	-10.7029
復舊	-10.7033
鄭州	-10.7034
元年四月	-10.7036
涿	-10.7038
居民	-10.7038
康王	-10.7039
孫也	-10.7045
災異	-10.7045
之西	-10.7046
寮	-10.7046
大禮	-10.7048
第二星	-10.7048
為庶人	-10.7049
無敢	-10.7053
陰陽	-10.7054
魏州	-10.7057
靈武	-10.706
三司使	-10.7063
刑罰	-10.7065
是夜	-10.7067
輕騎	-10.7068
作樂	-10.7069
鴈	-10.7071
破賊	-10.7071
婆	-10.7072
相率	-10.7076
挫	-10.7078
奉迎	-10.708
巴蜀	-10.7081
髙陽	-10.7082
之費	-10.7082
其志	-10.7082
帝紀	-10.7084
移鎮	-10.7085
蚡	-10.7088
朝士	-10.7088
護軍	-10.7089
升殿	-10.7095
湖北	-10.7095
襄州	-10.7096
四度	-10.71
臣請	-10.7101
之象	-10.7102
嫉	-10.7102
長城	-10.7106
之美	-10.7108
艱難	-10.7109
歴代	-10.7111
從事中郎	-10.7116
學生	-10.7116
項梁	-10.7124
梁州	-10.7125
鋪	-10.7125
昂	-10.7125
奉天	-10.7127
俛	-10.7129
賑之	-10.7133
周之	-10.7136
為天子	-10.714
文集	-10.7145
舊五代史巻	-10.7148
出自	-10.7152
祧	-10.7152
煙	-10.7154
5	-10.7156
嘉努	-10.7157
殤	-10.716
平州	-10.7161
復有	-10.7162
臨海	-10.7162
秋分	-10.7165
軍器	-10.7165
分司	-10.7166
臣言	-10.7167
后土	-10.7167
五十一	-10.7172
雒	-10.7174
不入	-10.7174
之前	-10.7175
歸之	-10.7175
成侯	-10.7175
天厯	-10.718
之物	-10.7182
謝曰	-10.7183
晉州	-10.7184
遣使朝貢	-10.7184
逄	-10.7184
闕下	-10.7192
山谷	-10.7193
者即	-10.7196
皆在	-10.7201
少年	-10.7203
愷	-10.7204
狎	-10.7204
組	-10.7205
踐阼	-10.7207
終身	-10.7211
椒	-10.7211
南越	-10.7211
朏	-10.7212
故有	-10.7212
未行	-10.7213
牽牛	-10.7213
副之	-10.7215
周天	-10.7217
東路	-10.7219
毋得	-10.7221
至正	-10.7223
聚衆	-10.7228
嘉禾	-10.7231
為郎	-10.7234
通直散騎常侍	-10.7234
霖雨	-10.7235
誤也	-10.7238
胙	-10.7239
鎧	-10.7241
裨	-10.7241
十有二	-10.7244
禮義	-10.7244
遣官	-10.7246
前漢書	-10.725
河水	-10.7252
禮儀使	-10.7258
兩省	-10.726
人也少	-10.7261
乃還	-10.7262
澧	-10.7262
丈夫	-10.7266
䘏	-10.7267
其門	-10.7278
字下	-10.7278
二星	-10.7283
兎	-10.7285
以奉	-10.7285
其議	-10.7287
狥	-10.7289
懦	-10.729
安豐	-10.7294
漢陽	-10.7296
欲立	-10.7297
顯祖	-10.7299
何足	-10.7303
三十人	-10.7304
者甚衆	-10.7306
人也父	-10.731
庠	-10.7312
諸儒	-10.7312
營田	-10.7314
行者	-10.7314
猥	-10.7316
武臣	-10.7316
坎	-10.7317
濟隂	-10.7322
經歴	-10.7322
煬帝	-10.7327
十五卷	-10.7328
泗州	-10.733
九日	-10.7338
諸公	-10.7342
雨水	-10.7345
鏤	-10.7348
雍熙	-10.735
全忠	-10.735
之東	-10.7355
貞祐	-10.7356
當死	-10.7357
出戰	-10.7361
笏	-10.7369
悛	-10.737
曩	-10.737
三子	-10.7371
辟為	-10.7375
是書	-10.7375
之主	-10.7376
服闋	-10.7376
餘為	-10.7379
宣撫司	-10.7381
春分	-10.7385
法駕	-10.7387
冬十一月	-10.739
淳于	-10.7391
粉	-10.7392
八日	-10.7393
州别駕	-10.7394
兵部	-10.7395
琿	-10.7399
詡	-10.7399
北邊	-10.7399
無道	-10.7407
襄城	-10.7409
圖克坦	-10.7409
賜錢	-10.741
州府	-10.7414
其法	-10.7415
樂安	-10.7416
軸	-10.7418
参	-10.7418
陳餘	-10.7419
其軍	-10.742
貞觀元年	-10.742
藴	-10.742
通事舍人	-10.7421
征北	-10.7423
其書	-10.7423
數萬人	-10.7423
黼	-10.7423
簫	-10.7425
滌	-10.7426
兩人	-10.7429
識者	-10.7431
等並	-10.7432
嬴	-10.7433
八十一	-10.7433
遣之	-10.7433
曾祖	-10.7435
尚書郎	-10.7437
出奔	-10.7438
濠	-10.7439
初日	-10.7441
簽	-10.7442
臣子	-10.7443
州司馬	-10.7445
渚	-10.7449
秘書監	-10.7449
縣地	-10.745
七十三	-10.7451
汝愚	-10.7452
龍驤將軍	-10.7453
稜	-10.7453
加以	-10.7455
鎮南	-10.7457
不聼	-10.7458
部尚書	-10.746
不幸	-10.7463
御前	-10.7464
四星	-10.7466
部下	-10.7466
騎兵	-10.7468
曰是	-10.7469
九品	-10.747
詔有司	-10.747
田租	-10.7478
昊	-10.7478
不載	-10.7479
商賈	-10.7479
治平	-10.7479
城邑	-10.748
謂其	-10.748
十二人	-10.7481
天福	-10.7486
周官	-10.7486
自後	-10.7489
見而	-10.7492
萬計	-10.7492
進攻	-10.7493
千九百	-10.7493
在今	-10.7494
年表	-10.7495
遂至	-10.7501
輔臣	-10.7501
有竒	-10.7505
拊	-10.7507
存亡	-10.7508
進兵	-10.751
紿	-10.7512
母弟	-10.7516
張掖	-10.7516
十數	-10.7517
十匹	-10.752
廬州	-10.7524
駐蹕	-10.7525
有天下	-10.7528
倖	-10.7533
太微	-10.754
釣	-10.754
自立為	-10.7546
自守	-10.7547
自謂	-10.7548
襲封	-10.7548
元符	-10.755
礪	-10.7552
嘉祐	-10.7554
縣四	-10.7556
入闗	-10.7558
白金	-10.7561
地名	-10.7561
惠帝	-10.7569
此乃	-10.7571
倦	-10.7572
蘭陵	-10.7574
上將	-10.7575
縣南	-10.7577
稱臣	-10.7579
平定	-10.758
反覆	-10.7587
客星	-10.7587
上郡	-10.7589
在於	-10.7591
夭	-10.7592
又奏	-10.7594
司馬光	-10.7594
招討	-10.7601
自號	-10.7603
三十餘	-10.7603
上將軍	-10.7606
衞尉	-10.7607
二年四月	-10.761
漫	-10.7613
弟也	-10.7616
文書	-10.7618
諮議	-10.7619
八十四	-10.762
二郡	-10.7627
成公	-10.7628
鍾離	-10.7631
碭	-10.7639
山縣	-10.7639
黄鍾	-10.764
叢	-10.7641
懋	-10.7641
獨孤	-10.7642
者言	-10.7642
粹	-10.7643
忝	-10.7643
甥	-10.7646
率府	-10.7647
墟	-10.7647
貂	-10.7647
上疏曰	-10.7648
把	-10.7648
非所	-10.7651
七十七	-10.7652
哀帝	-10.7656
引見	-10.7656
善騎射	-10.7656
十五日	-10.7658
拾遺	-10.7664
酒泉	-10.7666
北征	-10.7667
毛詩	-10.7671
殿上	-10.7672
犒	-10.7675
景仁	-10.7678
嘆	-10.7679
檢校司空	-10.7679
以城降	-10.7679
安撫司	-10.7681
墾	-10.7681
還京	-10.7682
亥	-10.7684
萬一	-10.7685
兼權	-10.7688
緑	-10.7692
易曰	-10.7693
全義	-10.7695
十餘日	-10.7697
弭	-10.7703
國語	-10.7703
早卒	-10.7706
對曰臣	-10.7706
是歳	-10.7706
之徳	-10.7708
追至	-10.7711
魏其	-10.7715
防禦使	-10.7718
至尊	-10.7719
熲	-10.772
月在	-10.7722
然其	-10.7728
討賊	-10.7728
殞	-10.7728
璽書	-10.7729
』	-10.773
就位	-10.7731
欲殺	-10.7738
張氏	-10.774
穆昆	-10.7742
不暇	-10.7742
牐	-10.7743
奔走	-10.7749
欲與	-10.7755
伐齊	-10.7756
考功	-10.7756
定陶	-10.7757
舛	-10.7758
苞	-10.7758
惻	-10.7758
膠	-10.7762
之氣	-10.7762
伊喇	-10.7764
儋	-10.7764
表請	-10.7767
器械	-10.7768
在京師	-10.7771
滅之	-10.7774
人事	-10.7777
下文	-10.778
已死	-10.7783
曹參軍	-10.7783
以東	-10.7784
只	-10.7789
已酉	-10.779
别駕	-10.7793
者非	-10.7795
位至	-10.7795
平生	-10.7802
七分	-10.7806
四日	-10.7808
故能	-10.781
梁有	-10.7814
棲	-10.7815
舊唐書卷一百	-10.7815
代宗	-10.7816
朋黨	-10.7818
不信	-10.7825
望見	-10.7827
永寧	-10.7829
集賢	-10.783
功封	-10.783
六十六	-10.7833
欽若	-10.7835
大驚	-10.7835
朕甚	-10.7839
衮冕	-10.784
廣州刺史	-10.7842
有闕	-10.7842
湊	-10.7842
始祖	-10.7844
經義	-10.7848
振武	-10.7848
上尊號	-10.7848
斫	-10.7848
東魏	-10.7852
豫章王	-10.7853
先王之	-10.7858
永徽	-10.7863
經一卷	-10.7863
上林	-10.7863
車馬	-10.7864
右軍	-10.7864
行禮	-10.7867
之象也	-10.7869
六十一	-10.7869
土貢	-10.787
亾	-10.7876
處之	-10.7879
抽	-10.7879
請降	-10.7881
其本	-10.7885
二年六月	-10.7886
緩急	-10.7887
𢎞農	-10.7888
九分	-10.7891
霖	-10.7891
三度	-10.7893
繼遷	-10.7896
事也	-10.7896
所由	-10.7897
剖	-10.7897
樞密副使	-10.7903
嬖	-10.7903
畨	-10.7904
而入	-10.7906
厲王	-10.7908
元年春正月	-10.7916
荼	-10.7916
日蝕	-10.7917
侍臣	-10.7921
因其	-10.7922
西面	-10.7922
孝王	-10.7923
土地	-10.7923
騷	-10.7924
是後	-10.7926
宵	-10.793
縣西	-10.7932
安州	-10.7933
始興	-10.7933
二年五月	-10.794
外國	-10.7941
京口	-10.7943
千餘里	-10.7944
逢吉	-10.7946
安世	-10.7949
伏兵	-10.7951
六分	-10.7952
惜之	-10.7955
鉉	-10.7956
未見	-10.7956
烏孫	-10.7957
而進	-10.7957
祏	-10.7957
鵠	-10.7959
氊	-10.796
惰	-10.7961
下獄	-10.7965
涓	-10.7966
始置	-10.7967
户口	-10.7969
北史	-10.7972
壬	-10.7973
勰	-10.798
靈州	-10.7982
在此	-10.7982
戰死	-10.7992
金塗	-10.7993
遇之	-10.7996
八十七	-10.7996
冠軍	-10.7999
棄之	-10.8003
得一	-10.8003
曲赦	-10.8006
七十六	-10.8009
從軍	-10.8012
秦檜	-10.8012
靈臺	-10.8013
罍	-10.8016
眇	-10.8017
不測	-10.8017
大中	-10.8017
第八	-10.8019
三年春正月	-10.802
倣	-10.8021
有疾	-10.8023
陳王	-10.8025
猶有	-10.8026
之本	-10.8027
孟嘗君	-10.8031
儒者	-10.8033
書云	-10.8036
醴	-10.8039
㝢	-10.8042
大雅	-10.8043
太初	-10.8044
部署	-10.8044
兗	-10.8044
二千人	-10.8045
彦超	-10.8045
閹	-10.8049
陁	-10.8049
魏氏	-10.8051
已丑	-10.8052
白氣	-10.8053
一百六十	-10.8065
孝公	-10.8073
曰善	-10.8075
黥	-10.8077
行軍司馬	-10.8081
猶未	-10.8084
六十九	-10.8086
廣南	-10.8091
稹	-10.8096
文育	-10.8098
2	-10.8098
武將軍	-10.8099
及至	-10.81
旻	-10.81
埓	-10.8101
欠	-10.8104
趙氏	-10.8109
一家	-10.8109
不自安	-10.811
徳裕	-10.8114
任城	-10.8114
不聴	-10.812
後唐	-10.8124
蒼梧	-10.8127
疑其	-10.8128
即皇帝位	-10.8128
不雨	-10.813
擊破	-10.813
蹙	-10.8132
諸君	-10.8133
矛	-10.8135
元中書右丞相總裁托克托等修列傳第	-10.8136
大亂	-10.8139
檢校太傅	-10.814
各得	-10.814
宦官	-10.8144
晝見	-10.8146
朝廷以	-10.8146
博學	-10.8149
天聖	-10.8149
不平	-10.8149
前將軍	-10.8149
天徳	-10.8151
羣官	-10.8151
主事	-10.8157
别有	-10.8158
揮	-10.8159
以金	-10.816
顯宗	-10.816
朝堂	-10.816
4	-10.816
終於	-10.8161
中書舎人	-10.8162
梗	-10.8163
棟	-10.8163
之餘	-10.8171
服其	-10.8172
已未	-10.8172
止於	-10.8172
六品	-10.8175
蒯	-10.8178
金陵	-10.8179
年六十	-10.818
藁	-10.8183
為賊所	-10.8186
武都	-10.8187
党項	-10.8187
3	-10.8187
欲使	-10.819
典禮	-10.8191
朝貢	-10.8194
病死	-10.8194
以西	-10.8198
将士	-10.8198
兼御史大夫	-10.8198
干戈	-10.8199
合于	-10.8199
之道也	-10.82
立廟	-10.8205
交通	-10.8207
繆公	-10.821
萬一千	-10.8212
乃復	-10.8213
黃帝	-10.8214
武威	-10.8215
聿	-10.8216
尋為	-10.8217
䕃	-10.8217
璟	-10.8218
正九品	-10.8219
並同	-10.822
年七十	-10.822
跋	-10.822
冝	-10.8221
項籍	-10.8222
戀	-10.8223
九卷	-10.8226
臨洮	-10.8229
秦州刺史	-10.8229
終始	-10.8235
管内	-10.8235
管勾	-10.8239
開門	-10.8239
六十八	-10.824
其次	-10.824
論之	-10.824
賊衆	-10.8243
距星	-10.8243
者乃	-10.8245
偷	-10.8249
山下	-10.825
郴	-10.8251
白虎	-10.8251
顓	-10.8257
西平	-10.8258
犯法	-10.8258
張良	-10.826
别將	-10.8264
起居注	-10.8265
有㫖	-10.8265
無他	-10.8266
如舊	-10.8266
厲公	-10.827
嘗與	-10.827
七廟	-10.8273
牛馬	-10.8276
炭	-10.8279
歩騎	-10.828
鷄	-10.828
内殿	-10.8281
暹	-10.8281
桓帝	-10.8282
糶	-10.8284
僊	-10.8285
冊寶	-10.8289
後齊	-10.8289
乃出	-10.8291
五曰	-10.8292
邠州	-10.8294
赤黄	-10.8294
正三品	-10.8296
忠武	-10.8298
二年改	-10.8298
相持	-10.8299
然也	-10.83
次之	-10.8302
至則	-10.8302
一十二	-10.8306
右諫議大夫	-10.8309
購	-10.8313
四十里	-10.8313
及長	-10.8314
廣徳	-10.8316
臣恐	-10.8317
涕泣	-10.8318
主者	-10.832
后妃	-10.8323
復入	-10.8327
獨不	-10.8328
告之	-10.833
又音	-10.8331
巴陵	-10.8334
詔曰朕	-10.8335
有變	-10.834
奥	-10.834
後復	-10.8341
挽	-10.8341
慷慨	-10.8343
章句	-10.8343
駞	-10.8343
怡	-10.8345
時政	-10.8347
㫁	-10.8347
之䇿	-10.8348
六合	-10.8348
當是	-10.8348
弋	-10.8349
遼西	-10.8352
今若	-10.8353
義宣	-10.8355
加散騎常侍	-10.8359
三等	-10.836
西夏	-10.8361
成宗	-10.8361
踰年	-10.8361
中常侍	-10.8364
弱冠	-10.8364
禮之	-10.8365
泌	-10.8366
撤	-10.8367
拒戰	-10.8367
而自	-10.8368
淮隂	-10.8372
正四品	-10.8375
七十八	-10.8375
國初	-10.8378
圍之	-10.8378
降者	-10.8378
折衝	-10.8382
東道	-10.8385
侍講	-10.8389
治中	-10.8391
小兒	-10.8395
緬	-10.8396
堅守	-10.8399
寗	-10.8403
景宗	-10.8404
尋加	-10.8405
文武官	-10.8408
今陛下	-10.8408
窘	-10.8408
餘皆	-10.8409
者或	-10.8409
還至	-10.8409
去官	-10.8411
夏州	-10.8411
遣使來	-10.8413
悉以	-10.8415
文昌	-10.8417
其兄	-10.8419
魏書	-10.8423
楚之	-10.8425
臺諫	-10.8425
笙	-10.8426
雩	-10.8428
兗州	-10.8429
韓王	-10.843
紏	-10.8431
不法	-10.8431
晉人	-10.8431
詩書	-10.8432
膚	-10.8433
凍	-10.8434
月掩	-10.8436
授以	-10.844
聖徳	-10.8447
將校	-10.845
扈從	-10.845
西階	-10.845
散官	-10.8451
使還	-10.846
幅	-10.8461
東川	-10.8463
元年三月	-10.8466
城西	-10.8468
多矣	-10.8469
巡檢	-10.8469
竈	-10.8469
今改	-10.8469
留之	-10.8472
架	-10.8477
十二度	-10.8478
自相	-10.8479
吕后	-10.8481
侯子	-10.8482
皂	-10.8485
杭	-10.8485
末帝	-10.8491
愉	-10.8492
逝	-10.8494
璣	-10.8494
安能	-10.8496
當今	-10.8497
起於	-10.8504
豪傑	-10.8504
平公	-10.8508
縣男	-10.8509
秦軍	-10.851
洛州	-10.8515
今後	-10.8516
古文	-10.8517
都城	-10.8519
萬貫	-10.852
無遺	-10.8524
所出	-10.8524
粥	-10.8526
輔國	-10.8527
赫連	-10.8527
必先	-10.8529
不治	-10.8529
同姓	-10.8532
西山	-10.8533
功徳	-10.8536
重誨	-10.8539
輿鬼	-10.8542
安危	-10.8542
晞	-10.8543
楚州	-10.8543
如初	-10.8548
七十九	-10.8548
蠧	-10.855
踈	-10.855
槃	-10.855
此事	-10.8552
萇	-10.8552
太子太傅	-10.8552
莅	-10.8553
益州刺史	-10.8555
惠公	-10.8555
若是	-10.8557
又請	-10.8557
不取	-10.8557
此時	-10.8558
公羊	-10.8565
天寶	-10.8566
薨子	-10.8569
湣	-10.8569
緊	-10.8571
曰王	-10.8579
交阯	-10.858
大鴻臚	-10.8582
其君	-10.8587
巒	-10.8588
也臣	-10.8588
詔賜	-10.8588
月令	-10.8589
則是	-10.8592
宋祁	-10.8593
皇弟	-10.8594
人物	-10.8597
延壽	-10.8598
刑法	-10.86
吳楚	-10.8601
事有	-10.8602
郎中令	-10.8602
招撫	-10.8603
徙居	-10.8604
還都	-10.8606
四縣	-10.8606
䖏	-10.8607
與李	-10.8607
二千五百	-10.8608
臣意	-10.8608
虔	-10.861
鳩	-10.8611
也於是	-10.8613
守將	-10.8614
大抵	-10.8615
光禄	-10.8615
灰	-10.8616
莫若	-10.8616
或謂	-10.8617
酋長	-10.8617
延州	-10.8622
善之	-10.8624
建昌	-10.8627
諭之	-10.8627
字元	-10.8628
之敗	-10.8633
臨川	-10.8636
賦詩	-10.8639
朕意	-10.864
一尺	-10.864
紘	-10.864
泰和	-10.8642
閼	-10.8642
沅	-10.8643
犧	-10.8643
師古曰謂	-10.8643
的	-10.8646
章宗	-10.8647
不加	-10.865
愬	-10.8653
班固	-10.8654
使持節都督	-10.8656
五代史	-10.867
兵圍	-10.8671
种	-10.8673
第一星	-10.8674
固請	-10.8675
在前	-10.8677
仆	-10.8679
不服	-10.8682
有常	-10.8684
禽獸	-10.8685
蔡邕	-10.8686
嘉納	-10.8686
起居郎	-10.8686
不稱	-10.8687
度及分	-10.8691
武平	-10.8692
推之	-10.8692
大元兵	-10.8692
於下	-10.8693
拜為	-10.8695
毆	-10.8695
次子	-10.8697
以罪	-10.8702
兵馬使	-10.8703
太學博士	-10.8708
憾	-10.8708
丐	-10.8708
宗社	-10.8708
少保	-10.8709
鏐	-10.871
潼闗	-10.8711
定襄	-10.8712
陳州	-10.8714
髙平	-10.8717
退保	-10.8718
西征	-10.8718
相望	-10.8719
按察	-10.8723
小字	-10.8724
艘	-10.8724
建平	-10.8725
江北	-10.8727
瀛州	-10.8728
大将	-10.8732
豈得	-10.8733
勔	-10.8734
叅知政事	-10.874
以進	-10.8741
二年三月	-10.8742
􁀙	-10.8743
選人	-10.8743
學官	-10.8744
其首	-10.8744
彦章	-10.8746
於時	-10.8748
仍為	-10.8749
故城在	-10.8753
倉卒	-10.8761
六百石	-10.8763
得以	-10.8763
燈	-10.8766
為民	-10.8767
建議	-10.8767
瑋	-10.8768
廣東	-10.8769
遘	-10.877
百五十	-10.8771
五官	-10.8773
義熙	-10.8774
賜姓	-10.8776
牆	-10.8776
從子	-10.8778
從兄	-10.8778
李竒曰	-10.8778
初立	-10.878
聖宗	-10.878
安置	-10.8781
徴為	-10.8782
率師	-10.8783
零陵	-10.8783
為君	-10.8783
助教	-10.8784
以實	-10.8784
雲氣	-10.8784
消息	-10.8785
南渡	-10.879
信之	-10.8792
珣	-10.8795
下詔曰	-10.8797
人馬	-10.8797
筮	-10.8798
看	-10.8799
帑	-10.88
改授	-10.8801
搢笏	-10.8801
黎陽	-10.8802
乃自	-10.8809
唐虞	-10.8811
之學	-10.8813
八十三	-10.8815
各二人	-10.8816
西門	-10.8817
將吏	-10.8821
兵革	-10.8821
後以	-10.8821
獻帝	-10.8824
山西	-10.8825
召入	-10.8828
紀綱	-10.8829
熙河	-10.8829
䑕	-10.8829
繋	-10.8831
與王	-10.8833
顯徳	-10.8835
齊桓公	-10.8836
塹	-10.8837
百戸	-10.8842
二王	-10.8843
長慶	-10.8843
二品	-10.8847
不可勝數	-10.8853
以身	-10.8853
民多	-10.8854
簾	-10.8856
祭天	-10.8856
謂人曰	-10.8859
南伐	-10.8859
修撰	-10.8861
徙封	-10.8862
籩豆	-10.8862
樂章	-10.8863
三老	-10.8863
剏	-10.8864
郷	-10.8864
與語	-10.8865
估	-10.8865
九人	-10.8865
倪	-10.8865
盡忠	-10.8868
人才	-10.8876
累加	-10.8876
五千人	-10.888
鄉人	-10.888
五車	-10.8884
青龍	-10.8884
租賦	-10.8885
定制	-10.8888
騎射	-10.8888
武公	-10.889
皁	-10.889
鶻	-10.8892
烝	-10.8894
未詳	-10.8895
舟師	-10.8897
博囉	-10.8898
其聲	-10.8899
燕京	-10.8899
餽	-10.8901
送之	-10.8902
譯史	-10.8902
立是為	-10.8904
皆得	-10.8907
城守	-10.891
金兵	-10.8911
戰功	-10.8912
守光	-10.8913
所有	-10.8913
元年五月	-10.8917
人少	-10.8924
虹	-10.8924
歩軍	-10.8925
簡文	-10.8928
環慶	-10.8928
成敗	-10.8929
城在	-10.8931
乾徳	-10.8932
殃	-10.8933
興師	-10.8935
宋史巻	-10.8937
當是時	-10.8939
手詔	-10.8942
敬宗	-10.8942
宿度	-10.8947
重榮	-10.8947
待罪	-10.895
尊卑	-10.895
學校	-10.8952
僧格	-10.8952
汜	-10.8954
盆	-10.8954
大國	-10.8955
何必	-10.8955
以為不可	-10.8955
幘	-10.8957
陵侯	-10.8959
執中	-10.896
郯	-10.896
顏	-10.8963
孝昌	-10.8966
汝州	-10.8966
視其	-10.8967
十餘里	-10.8968
曰彼	-10.897
爾雅	-10.8972
大者	-10.8972
邳	-10.8975
三年二月	-10.8976
大體	-10.8982
邃	-10.8982
復與	-10.8987
吳興	-10.8987
濶	-10.8988
形勢	-10.8993
利州	-10.8994
豳	-10.8994
覘	-10.8994
濟北	-10.8996
入關	-10.8998
所稱	-10.9001
之所以	-10.9003
三百人	-10.9005
以書	-10.9006
部族	-10.9008
侯劉	-10.9008
孝子	-10.9009
運司	-10.901
無常	-10.9012
同時	-10.9012
擊匈奴	-10.9013
不果	-10.9014
五十人	-10.9014
臨朝	-10.9018
記云	-10.9022
恊	-10.9022
籥	-10.9024
帝命	-10.9027
立春	-10.9028
長興	-10.9028
其兵	-10.903
屬國	-10.9036
領縣二	-10.9039
太牢	-10.9041
王儉	-10.9043
山崩	-10.9044
等議	-10.9046
字文	-10.9048
㕔	-10.9054
一千二百	-10.9054
罷兵	-10.9056
不息	-10.9057
聰明	-10.9059
汚	-10.906
太子太師	-10.906
延安	-10.9061
顓頊	-10.9063
郃	-10.9063
太子賔客	-10.9064
還宫	-10.9065
臨安府	-10.9065
南唐	-10.9067
察之	-10.9074
宿衞	-10.9075
赭	-10.9079
伯玉	-10.9086
瑟	-10.9087
兖州刺史	-10.909
打	-10.909
轉運副使	-10.909
絳侯	-10.909
必欲	-10.9091
檢校太保	-10.9092
周室	-10.9098
故城在今	-10.9102
元年七月	-10.9103
後人	-10.9107
五年正月	-10.9107
為刺史	-10.911
奏聞	-10.9111
不避	-10.9113
牘	-10.9114
之長	-10.9115
鵲	-10.9116
馬邑	-10.9116
應劭	-10.9118
雋	-10.9118
汰	-10.9119
妓	-10.9119
謡	-10.912
論其	-10.9121
。||	-10.9122
瘠	-10.9123
售	-10.9124
暠	-10.9126
訾	-10.9126
提控	-10.9127
進討	-10.9129
太㣲	-10.9129
商人	-10.9129
無疆	-10.913
靈王	-10.9131
左散騎常侍	-10.9134
天祥	-10.9134
興國	-10.9139
梁武帝	-10.9142
。|||	-10.9143
驍騎	-10.9148
召拜	-10.9148
一十八	-10.9149
大呼	-10.9151
麴	-10.9155
城東	-10.9156
廬舍	-10.9158
長短	-10.9163
來賀	-10.9165
元康	-10.9166
知祥	-10.9167
湘州刺史	-10.9168
主客	-10.9169
五十里	-10.9172
晉陵	-10.9175
朝賀	-10.9176
先鋒	-10.9176
注曰	-10.9177
有隙	-10.9179
劉歆	-10.918
鄭氏	-10.9182
永初	-10.9186
與俱	-10.919
為我	-10.9192
宋史巻一百	-10.9192
七十餘	-10.9193
甲兵	-10.9194
於人	-10.9197
表裏	-10.9198
郭璞曰	-10.9199
初獻	-10.9201
安之	-10.9201
徐廣	-10.9203
凡三	-10.9203
太醫	-10.9204
不解	-10.9207
安民	-10.9211
6	-10.9211
呉王	-10.9213
提㸃刑獄	-10.9214
拾	-10.9215
碧	-10.9215
詵	-10.9216
棄城	-10.9217
殺傷	-10.9218
蟬	-10.922
夙夜	-10.9221
還朝	-10.9221
伐之	-10.9233
築城	-10.9234
元徽	-10.9235
大如	-10.9236
都總管	-10.9237
珥	-10.9238
假節	-10.924
貝州	-10.9245
洺	-10.9245
舉人	-10.9246
矣然	-10.9247
冒頓	-10.9248
于是	-10.9249
叩頭	-10.9251
怖	-10.9251
叶	-10.9251
端明殿學士	-10.9253
過人	-10.9254
鱗	-10.9255
令人	-10.9257
三年三月	-10.9259
楊氏	-10.9259
察其	-10.926
民有	-10.9262
引軍	-10.9263
希烈	-10.9265
懷王	-10.9268
入洛	-10.9269
七十一	-10.9276
安陸	-10.9277
祖父	-10.9278
汝等	-10.928
奏之	-10.9281
謚曰	-10.9282
湟	-10.9284
㐮	-10.9284
庇	-10.9285
楯	-10.9285
三十巻	-10.9289
鹵	-10.9291
萬匹	-10.9292
之資	-10.9292
診	-10.9294
明經	-10.9294
豈能	-10.9296
田宅	-10.9298
上流	-10.9299
建國	-10.9303
三嵗	-10.9305
群	-10.9307
乘勝	-10.9309
一十三	-10.931
太府	-10.9311
嗣昭	-10.9311
慝	-10.9314
懈	-10.9317
縦	-10.9319
開國	-10.9321
自以為	-10.9322
地理	-10.9328
夷狄	-10.9329
二郡太守	-10.9329
合於	-10.9332
久不	-10.9335
升為	-10.9337
赴之	-10.9343
噲	-10.9344
馨	-10.9344
侔	-10.9347
字也	-10.9347
疊	-10.9348
複	-10.9348
葺	-10.9351
洙	-10.9351
侍讀	-10.9352
本傳	-10.9355
又加	-10.9355
積度	-10.9358
所親	-10.9359
簡子	-10.9359
問其故	-10.936
始興王	-10.9361
内有	-10.9361
宗弼	-10.9365
司天	-10.9366
司直	-10.9367
世忠	-10.9368
尋以	-10.9369
萬户府	-10.9372
郢州刺史	-10.9373
三星	-10.9375
箱	-10.9375
翰林學士承㫖	-10.9379
檻	-10.9383
吳越	-10.9384
穹	-10.9385
羗	-10.9386
縊	-10.9386
三十一年	-10.939
哀公	-10.9398
知樞密院事	-10.94
吳郡	-10.9402
庶幾	-10.9403
醫藥	-10.9404
陽平	-10.9406
跨	-10.9413
䟽	-10.9415
監修國史	-10.9416
釋奠	-10.9416
東宮	-10.9417
耽	-10.9418
批	-10.942
畆	-10.9423
黄門郎	-10.9423
皇統	-10.9425
待詔	-10.9428
前鋒	-10.9437
灤	-10.9441
汾州	-10.9443
閫	-10.9446
狩	-10.9447
守禦	-10.9447
戸部侍郎	-10.9448
武陵王	-10.9448
中道	-10.9449
食甚	-10.945
不動	-10.945
瓉	-10.9451
馬歩軍	-10.9451
企	-10.9453
軼	-10.9454
汴梁	-10.9458
升降	-10.9459
以是	-10.9459
粤	-10.9459
良久	-10.9461
金帶	-10.9464
鎮軍	-10.9466
悼公	-10.9466
未嘗不	-10.9466
處士	-10.9467
與秦	-10.947
害稼	-10.9476
帽	-10.9477
沸	-10.9479
中兵參軍	-10.9483
處置	-10.9484
圖之	-10.9486
孛	-10.9487
勳	-10.949
所當	-10.9494
賊帥	-10.95
丈餘	-10.9504
人倫	-10.9505
以死	-10.9506
稱為	-10.9507
▁六	-10.9507
為大司馬	-10.951
縣北	-10.9512
時事	-10.9513
其弊	-10.9514
不任	-10.9515
侯國	-10.9516
慘	-10.9517
守令	-10.9517
大舉	-10.9519
中二千石	-10.9521
承嗣	-10.9522
騐	-10.9524
恐其	-10.9524
廢立	-10.9526
磐	-10.9526
濟州	-10.9529
疾病	-10.953
遺詔	-10.953
大駕	-10.9535
四員	-10.9535
大辟	-10.9536
千秋	-10.9536
聖人之	-10.9537
淮北	-10.9537
唐古	-10.9539
每嵗	-10.954
繫囚	-10.9541
平地	-10.9543
7	-10.9544
珏	-10.9545
魏晉	-10.9545
長官	-10.9546
盱眙	-10.9549
善惡	-10.9549
代州	-10.9551
麤	-10.9552
歸附	-10.9552
士民	-10.9553
九十六	-10.9553
峯	-10.9554
月日	-10.9555
殿門	-10.9556
軍校	-10.9562
儒學	-10.9562
藍田	-10.9562
西陽	-10.9567
少時	-10.9568
論者	-10.9568
儀仗	-10.9569
吏人	-10.9571
初除	-10.9573
詔遣	-10.9577
已定	-10.9578
寧朔將軍	-10.9579
不可勝	-10.9579
潦	-10.9583
以父	-10.9584
瑒	-10.9585
拙	-10.9586
四十餘	-10.9586
交趾	-10.9587
歲星	-10.9588
兼侍讀	-10.9589
生擒	-10.9595
縣有	-10.9595
此皆	-10.9601
憚之	-10.9601
北軍	-10.9601
永和	-10.9602
非一	-10.9603
日法	-10.9603
輕車	-10.9604
亭長	-10.9607
有過	-10.9612
卒官	-10.9612
八十五	-10.9614
水溢	-10.9614
慤	-10.9615
帳下	-10.9616
不軌	-10.9616
生民	-10.962
功名	-10.962
委以	-10.9626
爛	-10.9626
南斗	-10.963
歇	-10.9631
宣公	-10.9632
東觀	-10.9633
人或	-10.9633
委任	-10.9633
泰州	-10.9637
領軍將軍	-10.9643
歸於	-10.9645
八十六	-10.9647
一百九十	-10.965
未定	-10.9651
以助	-10.9653
㤙	-10.9653
西上	-10.9654
舄	-10.9655
病卒	-10.9656
茲	-10.9658
肝	-10.9659
千載	-10.966
六部	-10.9661
以定	-10.9662
豨	-10.9662
哀王	-10.9664
其制	-10.9665
袁盎	-10.9672
兵敗	-10.9673
羣牧	-10.9674
太陽	-10.9675
考之	-10.9676
天意	-10.9678
而東	-10.9679
列傳第三十	-10.9681
千四百	-10.9686
蘇秦	-10.9686
㝷	-10.9687
厮	-10.9691
軻	-10.9694
此非	-10.9699
元忠	-10.9699
五里	-10.9701
交州	-10.9701
仁傑	-10.9703
去病	-10.9706
慶州	-10.9706
義興	-10.9708
邊事	-10.9709
之分	-10.971
行中書省	-10.9711
眀堂	-10.9712
漕運	-10.9716
袴	-10.9716
綠	-10.9717
光祿	-10.9717
宋史巻二百	-10.9718
黜陟	-10.972
燕趙	-10.9721
盪	-10.9721
管軍	-10.9722
未拜	-10.9725
㪚	-10.9727
不願	-10.9729
祖母	-10.973
歎息	-10.9733
傕	-10.9734
二百八十	-10.9738
司吏	-10.974
九十二	-10.9741
一十六	-10.9743
朔日	-10.9743
所執	-10.9745
軍還	-10.9745
告急	-10.9749
威儀	-10.9753
殂	-10.9755
禁止	-10.9758
上殿	-10.9759
大樂	-10.976
集二十卷	-10.9761
景祐	-10.9761
挈	-10.9762
司農	-10.9763
而能	-10.9764
祗候	-10.9771
昭穆	-10.9772
崇韜	-10.9773
舊名	-10.9781
齊國	-10.9783
褐	-10.9783
竒之	-10.9784
所向	-10.9784
之失	-10.9784
一軍	-10.9785
脉	-10.9788
岷	-10.979
恚	-10.9791
灾	-10.9792
蹤	-10.9792
銀青光禄大夫	-10.9793
獲免	-10.9796
海州	-10.9798
召之	-10.98
其舊	-10.9801
國朝	-10.9803
可否	-10.9806
非是	-10.9813
保甲	-10.9814
攻破	-10.9814
頡	-10.9816
之力	-10.9816
渡淮	-10.9816
宗翰	-10.9817
絶其	-10.9818
餘黨	-10.9819
在朝	-10.9819
無此	-10.9821
劒南	-10.9824
昕	-10.9829
絜	-10.9829
衆心	-10.9829
第九	-10.9833
朔以	-10.9835
髠	-10.9837
而反	-10.9838
北門	-10.984
舊典	-10.9844
雨雪	-10.9844
正始	-10.9848
夷簡	-10.9849
椎	-10.9856
帝親	-10.9857
妬	-10.9858
雌	-10.986
元光	-10.9864
冥	-10.9866
𣙜	-10.9867
近代	-10.9867
主帥	-10.9869
之望	-10.9869
一官	-10.987
聖王	-10.9871
檢校太尉	-10.9875
不善	-10.9877
疾苦	-10.9878
諡曰文	-10.9883
遼主	-10.9884
十五里	-10.9885
樞宻	-10.9885
守貞	-10.9889
隋書卷	-10.9889
馮道	-10.989
其月	-10.9891
紫微	-10.9894
两	-10.9895
嘏	-10.9895
雇	-10.9896
躁	-10.9898
時年五十	-10.9899
東觀記曰	-10.9899
舞蹈	-10.9901
佚	-10.9902
貢方物	-10.991
又作	-10.9913
亦何	-10.9915
初即位	-10.9915
犯房	-10.9918
京官	-10.9919
一十九	-10.992
今欲	-10.992
安陽	-10.992
脯	-10.9923
明昌	-10.9924
達實	-10.9924
中官	-10.9926
梧	-10.9927
綘	-10.9929
祇	-10.993
騎都尉	-10.9931
亦可	-10.9932
所載	-10.9935
天保	-10.9936
彘	-10.9939
廢朝	-10.9941
建寧	-10.9942
光弼	-10.9945
赴行在	-10.9948
二百餘	-10.995
以俟	-10.9955
財賦	-10.9958
代立	-10.9962
給事黄門侍郎	-10.9964
於世	-10.9964
掌書記	-10.9965
樵	-10.9965
股肱	-10.9966
南徐州刺史	-10.9967
懐光	-10.9969
百一十	-10.997
天禧	-10.997
華陽	-10.9974
翳	-10.9975
望風	-10.9977
送神	-10.9978
少尹	-10.9979
稱賀	-10.9982
便殿	-10.9983
同心	-10.9984
二十巻	-10.9984
曽祖	-10.9985
直長	-10.9986
一十七	-10.9987
舊章	-10.9987
積分	-10.9987
盡力	-10.9991
民饑	-10.9996
以下皆	-10.9998
梯	-10.9999
千牛	-10.9999
所致	-11.0001
三路	-11.0002
兗州刺史	-11.0003
尺二寸	-11.0006
無故	-11.0006
積年	-11.0007
龜兹	-11.001
貢獻	-11.0012
檢校司徒	-11.0014
有寵	-11.0015
二三	-11.0015
蜀郡	-11.0019
大饑	-11.002
屬縣	-11.0022
出鎮	-11.0023
以象	-11.0024
不屈	-11.0025
昭帝	-11.0029
第二子	-11.0031
擕	-11.0032
吟	-11.0032
瑶	-11.0032
沴	-11.0033
亦為	-11.0034
伐楚	-11.0035
鑠	-11.0036
大夏	-11.004
城北	-11.0041
頽	-11.0041
朱熹	-11.0041
巽	-11.0044
呼曰	-11.0045
文襄	-11.0046
勒兵	-11.0049
之憂	-11.005
逃亡	-11.0052
乃召	-11.0055
因循	-11.006
湘東王	-11.0065
列傳第十	-11.0066
去年	-11.0069
無後	-11.007
乍	-11.0071
研	-11.0072
檢校太師	-11.0073
其明年	-11.0075
王琳	-11.0077
賞之	-11.0078
文義	-11.0079
改知	-11.0085
董卓	-11.0087
郎將	-11.0088
乾祐	-11.009
藍	-11.0098
常州	-11.0099
入焉	-11.0099
一十四	-11.0099
南平	-11.0101
靈太后	-11.0102
賢良	-11.0103
召對	-11.0103
委之	-11.0103
床	-11.0105
卵	-11.0106
不敬	-11.0106
自將	-11.0109
祕閣	-11.011
月蝕	-11.011
宋初	-11.0112
分遣	-11.0113
列傳第二十	-11.0117
戰國	-11.0118
與賊	-11.0119
幽王	-11.013
招集	-11.0131
官司	-11.0136
延光	-11.0137
綱紀	-11.0137
正隆	-11.0138
南齊書卷	-11.0138
遷都	-11.014
店	-11.014
吏卒	-11.014
憫	-11.0141
劄	-11.0143
開平	-11.0145
日中	-11.0146
駢	-11.0148
山林	-11.015
戍兵	-11.0155
太子少保	-11.0155
正光	-11.0157
吉甫	-11.0158
陕西	-11.0162
征西	-11.0163
奉國	-11.0164
出帝	-11.0164
新附	-11.0169
其説	-11.017
之要	-11.017
又設	-11.0172
補闕	-11.0175
凡有	-11.0175
都轉運使	-11.0175
配享	-11.0179
起居舍人	-11.018
弓箭	-11.0184
間道	-11.0184
姑洗	-11.0185
雎	-11.0187
農桑	-11.019
故人	-11.0192
尺五寸	-11.0194
之說	-11.0196
出降	-11.0196
昌邑	-11.0197
居中	-11.0199
秦漢	-11.0199
入對	-11.0203
次第	-11.0204
琨	-11.0207
永樂	-11.0207
黄初	-11.0208
大赦改元	-11.0208
徙知	-11.0209
國夫人	-11.0209
廣武	-11.021
大敗之	-11.021
行於世	-11.0217
縣西北	-11.0217
蔑	-11.0218
判度支	-11.022
牡	-11.0221
都水監	-11.0221
亦當	-11.0225
不逮	-11.0226
卿士	-11.0231
為副	-11.0234
請和	-11.0235
伏見	-11.0239
甘露降	-11.024
五原	-11.0241
朝鮮	-11.0242
甘露	-11.0243
司州	-11.0244
軍敗	-11.0244
邏	-11.0248
得志	-11.025
小國	-11.025
命有司	-11.0251
廕	-11.0252
新蔡	-11.0253
為姦	-11.0253
以問	-11.0253
群臣	-11.0253
蘆	-11.0257
憎	-11.0259
歴陽	-11.0259
任用	-11.0259
以私	-11.0259
永康	-11.0261
皇考	-11.0262
初封	-11.0266
澭	-11.0276
異姓	-11.0276
七十四	-11.0277
春二月	-11.0278
諭以	-11.0279
煜	-11.028
墻	-11.0281
宗望	-11.0282
一言	-11.0283
是冬	-11.0283
金紫光祿大夫	-11.0285
敦煌	-11.0286
猗	-11.0288
纎	-11.0289
晉安	-11.0293
中央	-11.0297
之狀	-11.0304
定國	-11.0304
和帝	-11.0304
亞夫	-11.0306
樓船	-11.0308
之應也	-11.0309
選舉	-11.031
少師	-11.0312
世襲	-11.0314
其族	-11.0314
百家	-11.0315
武皇帝	-11.0315
童子	-11.0318
亡國	-11.032
轡	-11.0325
稟	-11.0327
厠	-11.0329
人間	-11.033
腐	-11.0332
通事	-11.0335
慰勞	-11.0337
軍節度副使	-11.0337
他人	-11.0338
進取	-11.0338
義兵	-11.0342
優詔	-11.0343
太元	-11.0343
婦女	-11.0346
根本	-11.0347
闈	-11.0348
二百七十	-11.035
梁祖	-11.0351
郡乾元元年復為	-11.0351
扆	-11.0353
湜	-11.0353
荔	-11.0353
或言	-11.0357
自知	-11.0357
奏議	-11.0358
流血	-11.0358
字叔	-11.0358
峴	-11.0358
攜	-11.0362
吝	-11.0362
也昔	-11.0363
九十九	-11.0364
釗	-11.0366
引去	-11.0368
元初	-11.0368
西戎	-11.037
矦	-11.0371
其俗	-11.0372
衛士	-11.0374
靈帝	-11.0374
按此	-11.0374
皇天	-11.0376
八十九	-11.0377
城外	-11.0378
和議	-11.0384
皇孫	-11.0385
舊置	-11.0385
九十七	-11.0386
浙本	-11.0388
八十八	-11.0389
仁恭	-11.039
親臨	-11.0391
加侍中	-11.0392
蓮	-11.0395
妣	-11.0395
都事	-11.0402
圜丘	-11.0404
中領軍	-11.0408
殿直	-11.0412
衡陽	-11.0413
樊噲	-11.0419
要害	-11.0424
順天	-11.043
入東井	-11.0431
彤	-11.0432
呉興	-11.0433
擊走之	-11.0433
凋	-11.0433
中散大夫	-11.0433
漢祖	-11.0434
和州	-11.0436
犯軒轅	-11.0436
塟	-11.0438
宜陽	-11.0438
崇文	-11.0439
縣東北	-11.0441
侍衞	-11.0444
一本	-11.0446
陕	-11.0449
慧景	-11.0452
嵗時	-11.0459
其氣	-11.0459
曅	-11.0462
徳威	-11.0466
兩京	-11.0468
詩一巻	-11.047
篚	-11.0473
丁母憂	-11.0474
亞獻	-11.0476
董仲舒	-11.0476
世世	-11.0477
殿庭	-11.0479
太極	-11.0482
一十一	-11.0482
何得	-11.0485
數嵗	-11.0485
彰徳	-11.0486
詔贈	-11.0488
伊尹	-11.0488
軍吏	-11.049
明徹	-11.0495
犯東井	-11.0495
稱善	-11.0495
各舉	-11.0498
泗水	-11.0499
為尚書	-11.0501
孝友	-11.0501
元中書右丞相總裁托克托等修	-11.0502
槐	-11.0502
苦之	-11.0503
定州刺史	-11.0504
蠟	-11.0504
栖	-11.0504
經術	-11.0507
惕	-11.0509
占城	-11.0512
霽	-11.0512
贈太師	-11.0514
驍騎將軍	-11.0514
曹州	-11.0514
十三卷	-11.0517
度餘	-11.0519
諭之曰	-11.0519
饒州	-11.0519
縣界	-11.0519
宋州	-11.052
孝文帝	-11.0522
知人	-11.0524
咸通	-11.0524
捕之	-11.0524
常山王	-11.0526
北平	-11.0527
親信	-11.0528
遁走	-11.0529
使司	-11.0531
而殺之	-11.0538
祕書郎	-11.0539
其徒	-11.0539
站	-11.054
相攻	-11.0541
暐	-11.0543
濼	-11.0547
憐之	-11.0549
抃	-11.0549
諲	-11.0551
昭明	-11.0556
名臣	-11.0559
呂后	-11.056
孝武帝	-11.0562
魏軍	-11.0562
大逆	-11.0563
覲	-11.0563
統和	-11.0564
似道	-11.0564
與弟	-11.0566
顧謂	-11.0568
盛徳	-11.0572
尒朱	-11.0573
廬陵王	-11.0574
新除	-11.0574
烏桓	-11.0575
而上	-11.0577
六萬	-11.0579
於市	-11.0579
魏郡	-11.058
八十二	-11.0581
迨	-11.0584
穆爾	-11.0586
六尺	-11.0586
素服	-11.0587
宣諭	-11.0587
愕	-11.0588
未敢	-11.0589
東面	-11.0596
勃海	-11.0597
都統制	-11.0604
招諭	-11.0608
呼圖克	-11.0609
贈侍中	-11.0612
山澤	-11.0614
月氏	-11.0617
勉之	-11.0618
資政殿學士	-11.0618
幢	-11.0621
周書	-11.0622
搖	-11.0623
鄴都	-11.0626
祜	-11.0626
讞	-11.0627
傲	-11.0627
書奏	-11.0631
卿大夫	-11.0631
尋復	-11.0632
營室	-11.0636
姦邪	-11.0637
驍勇	-11.0638
正色	-11.0639
山隂	-11.0645
一夕	-11.0648
議論	-11.0649
各以其	-11.065
龕	-11.0655
車服	-11.0657
轉運判官	-11.0657
勤王	-11.0658
濯	-11.0659
初起	-11.066
嗚呼	-11.066
漢官	-11.0665
實錄	-11.0665
宣徳	-11.0668
酣	-11.0668
三員	-11.0669
南平王	-11.0673
恩澤	-11.0675
知樞宻院事	-11.0677
貌也	-11.0677
鈴	-11.0689
員外散騎常侍	-11.0691
利用	-11.0692
克用	-11.0692
樞宻副使	-11.0693
黷	-11.0694
汀	-11.0696
十三日	-11.0699
鴟	-11.07
又犯	-11.0701
登城	-11.0702
或云	-11.0703
揭	-11.0703
贏	-11.0704
奉御	-11.0704
伴	-11.0704
太子少傅	-11.0705
鎰	-11.0707
教坊	-11.0714
論事	-11.0714
數千里	-11.0715
視朝	-11.0715
酈生	-11.0716
九十三	-11.0718
柰何	-11.0718
沈約	-11.072
府州	-11.0726
寧逺	-11.0733
怨望	-11.0733
罄	-11.0733
滂	-11.0734
鴻臚	-11.0735
道徳	-11.0735
金玉	-11.0735
檢校工部尚書	-11.0737
無過	-11.0738
低	-11.0738
頁	-11.074
恐懼	-11.0741
從三品	-11.0743
女主	-11.0744
足矣	-11.0747
龍朔	-11.0751
有憂	-11.0751
何故	-11.0751
武侯	-11.0758
拒守	-11.0761
入交	-11.0762
定分	-11.0762
新野	-11.0763
臨川王	-11.077
幣帛	-11.077
湘州	-11.0771
異同	-11.0771
路總管	-11.0773
封侯	-11.0773
回鶻	-11.0773
所屬	-11.0774
官給	-11.0774
集議	-11.0775
九十八	-11.0776
大司徒	-11.0778
諛	-11.0778
貢舉	-11.0778
以避	-11.0779
烹	-11.078
一部	-11.0783
孫權	-11.0784
正六品	-11.0784
武衛	-11.0787
梁山	-11.0792
勸農	-11.0793
一匹	-11.0794
宰輔	-11.0794
羅索	-11.0795
尚有	-11.0795
三世	-11.0797
車駕幸	-11.0799
四年春正月	-11.0806
義恭	-11.0806
袁紹	-11.0808
蕪	-11.081
七星	-11.081
善射	-11.081
敢不	-11.0812
秘閣	-11.0812
所作	-11.0812
娥	-11.0812
尒朱榮	-11.0815
緘	-11.0817
稠	-11.0817
尚食	-11.082
謂宰臣曰	-11.0821
阿蘇	-11.0821
僖宗	-11.0823
婺州	-11.0824
褥	-11.0828
五品以上	-11.083
三百里	-11.0833
故地	-11.0833
相承	-11.0834
大司空	-11.0835
和尚	-11.0838
穂	-11.0843
百八十	-11.0848
三年四月	-11.0849
廨	-11.0849
掖庭	-11.085
毓	-11.085
曲沃	-11.0852
訢	-11.0852
子貢	-11.0853
覿	-11.0853
舉哀	-11.0856
失利	-11.0858
事君	-11.0859
大歴	-11.0859
七品	-11.086
白衣	-11.0865
禄山	-11.0865
大理卿	-11.0866
奏言	-11.0868
擒之	-11.0869
擊敗之	-11.0871
湖州	-11.0873
詳議	-11.0873
故得	-11.0875
阿珠	-11.0876
官員	-11.0879
朝官	-11.0879
涯	-11.088
㕘	-11.0882
里至東都	-11.0883
敢言	-11.0886
少傅	-11.0888
長沙王	-11.0888
催	-11.0889
都護	-11.089
坐事	-11.089
縳	-11.0893
中書平章政事	-11.0895
二年七月	-11.0896
二百一十	-11.0897
蜀人	-11.0899
錢塘	-11.0899
昭儀	-11.0901
布帛	-11.0901
伊遜	-11.0903
汾隂	-11.0903
三年七月	-11.0905
被誅	-11.0908
永興軍	-11.0911
安邑	-11.0912
焚其	-11.0921
皇帝廟號	-11.0921
不給	-11.0923
叩	-11.0925
藹	-11.0926
詔罷	-11.0927
餌	-11.0928
極言	-11.0929
客省使	-11.0929
運糧	-11.0929
天寳元年	-11.0929
言語	-11.093
休息	-11.0932
母憂	-11.0937
顯慶	-11.0937
小吏	-11.0939
樂工	-11.094
閉門	-11.094
祖宗之	-11.094
贈太尉	-11.0941
鄱陽	-11.0943
財用	-11.0944
黄巢	-11.0947
皇祐	-11.0953
院使	-11.0955
錄一卷	-11.0956
貼	-11.0957
『	-11.0959
鶉	-11.0961
盡心	-11.0962
一篇	-11.0962
莘	-11.0963
霆	-11.0964
焚之	-11.0964
正直	-11.0967
傭	-11.0968
縑	-11.0969
苴	-11.0972
圃	-11.0973
立秋	-11.0973
韓琦	-11.0973
大統	-11.0975
納言	-11.0977
欲得	-11.0978
二年九月	-11.0985
十分	-11.0988
士馬	-11.099
本國	-11.0992
天興	-11.0993
二年八月	-11.0993
霍光	-11.0996
左軍	-11.0999
闥	-11.1
茹	-11.1001
揀	-11.1001
周祖	-11.1003
喪服	-11.1003
配天	-11.1003
榻	-11.1005
敬瑭	-11.1007
蟄	-11.1007
長春	-11.101
不赴	-11.101
二千户	-11.1014
寒暑	-11.1016
詔從之	-11.1018
不附	-11.1018
凡五	-11.102
時論	-11.1022
帝王之	-11.1024
入侍	-11.1027
令狐	-11.1028
上供	-11.1032
二丈	-11.1032
未足	-11.1033
𤣥謨	-11.1033
中書郎	-11.1033
鞾	-11.1035
鄭玄	-11.1036
復還	-11.1037
歩兵校尉	-11.1041
濞	-11.1046
葦	-11.1046
河隂	-11.1048
同郡	-11.1049
從攻	-11.1051
團練	-11.1052
帥府	-11.1057
飾以	-11.1058
太子太保	-11.1065
舊臣	-11.107
七萬	-11.1075
順宗	-11.1076
左遷	-11.108
株	-11.1081
匏	-11.1082
淡	-11.1082
水災	-11.1082
史館	-11.1088
彫	-11.1089
夫婦	-11.1089
四門	-11.1089
台州	-11.109
去交	-11.1093
二十日	-11.1094
治道	-11.1094
開運	-11.1096
大潰	-11.1098
乃拜	-11.1099
建立	-11.1099
禁兵	-11.1106
歸順	-11.1108
二尺	-11.1109
梁書卷	-11.1109
纘	-11.1113
合肥	-11.1114
黙然	-11.1117
考滿	-11.1117
俛伏興	-11.1118
同中書門下三品	-11.1119
骸	-11.1121
首尾	-11.1123
寳應	-11.1124
梁州刺史	-11.1125
二年春	-11.1132
縣東南	-11.1132
于闐	-11.1133
藺	-11.1133
按察司	-11.1135
懐王	-11.1137
比年	-11.114
漢魏	-11.1141
黥布	-11.1142
歲餘	-11.1142
方士	-11.1143
始安	-11.1144
減一	-11.1149
大計	-11.1149
列傳第一百	-11.115
御坐	-11.1151
亦作	-11.1154
旂	-11.1155
州界	-11.1155
倩	-11.1156
執事者	-11.1158
京房	-11.1159
大懼	-11.116
元鼎	-11.116
泓	-11.1161
諌議大夫	-11.1163
乃退	-11.1173
出納	-11.1178
先天	-11.1179
設官	-11.1183
即今	-11.1189
不登	-11.119
武庫	-11.1191
壽春	-11.1192
率所部	-11.1193
受業	-11.1196
荘宗	-11.1197
殆盡	-11.1199
鏘	-11.1199
霑	-11.12
醢	-11.12
窟	-11.1203
灑	-11.1203
刁	-11.1203
虗	-11.1207
撫軍將軍	-11.1209
華山	-11.1209
令漢舊縣	-11.122
廟庭	-11.1225
一本作	-11.1227
二百三十	-11.1228
合朔	-11.1229
員外散騎侍郎	-11.1237
觜	-11.1238
淤	-11.124
棊	-11.1243
裹	-11.1244
嵐	-11.1244
不可復	-11.1246
郎君	-11.1247
征東	-11.125
宫縣	-11.1255
反叛	-11.1255
本部	-11.1256
正交	-11.1257
良弼	-11.1263
子儀	-11.1264
圖一卷	-11.1265
忠信	-11.1266
遑	-11.1269
顔色	-11.1272
江夏王義恭	-11.1273
命婦	-11.1277
錢帛	-11.1278
李斯	-11.1284
近郊	-11.1285
年八十	-11.129
䏻	-11.129
高陽	-11.1292
如意	-11.1294
銅錢	-11.1295
玉帶	-11.1299
武寧	-11.1304
匹夫	-11.1306
北極	-11.1308
彦威	-11.131
掖門	-11.131
青白	-11.1311
三年五月	-11.1315
五尺	-11.1315
伐蜀	-11.1316
靖康	-11.1317
苻堅	-11.1318
萃	-11.1318
始終	-11.1319
仇池	-11.1321
瀕	-11.1321
儔	-11.1321
雅樂	-11.1322
箴	-11.1323
元吉	-11.1324
攀	-11.1324
論議	-11.1325
駁	-11.1325
鞮	-11.1328
堵	-11.1328
矢石	-11.1328
需	-11.133
叔孫	-11.1332
貧者	-11.1334
一千三百	-11.1336
未易	-11.1336
漢書音義曰	-11.1337
國主	-11.134
秦始皇	-11.134
中郎将	-11.1343
軍糧	-11.1346
秦秦	-11.1348
婺	-11.135
皇帝諱	-11.1352
前日	-11.1354
峒	-11.1354
不祥	-11.1358
三年六月	-11.136
記室參軍	-11.1361
餓	-11.1362
歸朝	-11.1363
徭	-11.1363
陘	-11.1365
承業	-11.1366
就國	-11.1367
經筵	-11.1369
膠西	-11.137
上意	-11.1375
晏駕	-11.1377
累官	-11.1378
明徳	-11.1379
漏刻	-11.1381
王僧辯	-11.1381
約束	-11.1382
興和	-11.1388
列傳第四十	-11.139
司農卿	-11.1391
矣夫	-11.1392
武徳元年	-11.1394
朓	-11.1399
邜	-11.14
存審	-11.14
蹕	-11.1401
上封事	-11.1405
鄩	-11.1408
盧龍	-11.1408
州大中正	-11.1409
槀	-11.1409
困於	-11.141
殿中監	-11.1412
酒食	-11.1413
濱	-11.1414
戸部尚書	-11.1416
宋史巻三百	-11.1419
史記集解卷	-11.1419
再三	-11.1419
供奉	-11.1427
餘並	-11.1427
十一卷	-11.1428
赦天下	-11.1433
單騎	-11.1435
晁	-11.1437
貴戚	-11.1439
分野	-11.1442
堆	-11.1442
沈攸之	-11.1443
精騎	-11.1447
哈達	-11.1448
閤門祗候	-11.145
之書	-11.1454
鄜	-11.1457
聖朝	-11.1458
杯	-11.1463
眀帝	-11.1466
逆行	-11.1468
澤州	-11.147
十四卷	-11.1476
泰定	-11.1478
不虞	-11.148
偹	-11.1482
囚徒	-11.1482
甚盛	-11.1483
記一卷	-11.1485
昌言	-11.1486
肄	-11.1487
牖	-11.149
太建	-11.1492
抜	-11.1494
國政	-11.1494
蓺	-11.1494
一歲	-11.1496
身死	-11.1497
遂罷	-11.1498
四年二月	-11.1501
六十里	-11.1505
内屬	-11.151
尚方	-11.151
出塞	-11.1515
宿州	-11.1519
繖	-11.1521
推恩	-11.1521
禇	-11.1521
倉庫	-11.1525
太子洗馬	-11.1526
婉	-11.1526
佾	-11.1526
据	-11.1529
彦澤	-11.1529
淑妃	-11.153
宿次	-11.1533
遣中使	-11.1534
聖明	-11.1534
正朔	-11.1537
為御史中丞	-11.1539
定差	-11.1543
手足	-11.155
別	-11.155
洪州	-11.1552
㑹元	-11.1555
致祭	-11.1556
孫子	-11.1557
衞大將軍	-11.1561
亦云	-11.1561
寰	-11.1562
于太廟	-11.1562
鈐	-11.1563
字景	-11.1564
雹	-11.1565
縉	-11.1565
丸	-11.1565
諸色	-11.1567
航	-11.1567
彩	-11.1568
増置	-11.1569
鳥獸	-11.1572
鬱林	-11.1574
宗祀	-11.1576
犯畢	-11.1585
鎮西	-11.1592
仍賜	-11.1593
稱職	-11.1596
劾奏	-11.1602
霞	-11.1604
辟雍	-11.1605
路轉運使	-11.1606
富人	-11.1607
怙	-11.1607
太子中庶子	-11.1609
嶲	-11.1609
禘祫	-11.1611
巨源	-11.1612
牧守	-11.1612
越州	-11.1613
驥	-11.1613
若夫	-11.1615
數十里	-11.1615
羈	-11.1617
劉攽曰案	-11.1619
建州	-11.1619
萬機	-11.162
建初	-11.1624
成臯	-11.1627
雲州	-11.1628
犇	-11.163
百四十	-11.1633
羣盗	-11.1639
水草	-11.1641
音胡	-11.1642
為前鋒	-11.1643
縣西南	-11.1644
嵗月	-11.1645
神農	-11.1645
濮州	-11.1647
大理評事	-11.165
舂	-11.165
圓丘	-11.1654
城陷	-11.1657
副都指揮使	-11.166
天光	-11.166
吏部郎中	-11.1666
死亡	-11.1666
臨軒	-11.1666
封爵	-11.1668
為尚書令	-11.167
京兆府	-11.1672
大學士	-11.1673
送京師	-11.1678
請罷	-11.168
生靈	-11.1683
河中府	-11.1684
貳師	-11.1686
美人	-11.1687
莊子	-11.1687
退走	-11.1688
旺	-11.169
濕	-11.1691
擒其	-11.1692
桂州	-11.1694
八度	-11.1694
長驅	-11.1695
子胥	-11.1695
清泰	-11.1697
旃	-11.1699
邊境	-11.1699
烽	-11.1701
穆呼哩	-11.1704
境上	-11.1707
召試	-11.1707
萬民	-11.1713
改作	-11.1714
乗勝	-11.1721
為都督	-11.1721
文辭	-11.1724
定朔	-11.1726
攻圍	-11.1728
著作	-11.1728
賽	-11.173
䓁	-11.1731
鄣	-11.1735
摇	-11.1736
簡公	-11.1736
州大都督府長史	-11.1736
吕氏	-11.1737
瀘	-11.1737
耳今	-11.1739
都將	-11.1739
梓宫	-11.1742
事覺	-11.1744
稽古	-11.1746
職事官	-11.1749
可得而	-11.175
博陵	-11.1754
黨與	-11.1755
靈運	-11.1757
君長	-11.1758
櫟陽	-11.1758
太子少師	-11.176
内侍省	-11.1765
天寳元年改為	-11.1766
宋史	-11.1767
薩哈	-11.1768
8	-11.177
元年十月	-11.1775
箕子	-11.1775
雅克特穆爾	-11.1779
㽞	-11.1781
增邑	-11.1782
收復	-11.1786
市易	-11.179
大聖	-11.1792
併入	-11.1794
一階	-11.1796
不協	-11.1796
百斤	-11.1796
講武	-11.1797
卻	-11.1798
令丞	-11.1799
詩賦	-11.18
十四日	-11.1801
何謂	-11.1808
太史令	-11.181
稱制	-11.1813
肅然	-11.1814
註	-11.182
無射	-11.1821
周書卷	-11.1823
章惇	-11.1824
關内侯	-11.1825
大理寺	-11.1827
阬	-11.1828
萬夀	-11.1829
輿駕	-11.1832
髙后	-11.1832
無辜	-11.1833
充國	-11.1836
布薩	-11.1838
泣曰	-11.1839
郭璞	-11.1839
疾疫	-11.184
議欲	-11.1843
善政	-11.1845
孝寛	-11.1847
下吏	-11.1847
邦昌	-11.1849
奉禮郎	-11.1859
浴	-11.1859
澶	-11.1861
戰士	-11.1861
墉	-11.1862
江浙行省	-11.1864
曵	-11.1865
尉遲	-11.1867
孕	-11.1868
六經	-11.1868
遣還	-11.1869
犯輿鬼	-11.1869
繳	-11.187
元年十二月	-11.187
滇	-11.1874
臣愚	-11.1875
斷其	-11.1876
革帶	-11.1878
治亂	-11.1879
與兄	-11.1881
二百里	-11.1883
句踐	-11.1887
不遜	-11.1888
聖主	-11.1888
曽孫	-11.1889
五百里	-11.189
鄭𤣥	-11.1893
七尺	-11.1893
彞	-11.1894
監門	-11.1899
富察	-11.1902
九十五	-11.1905
齊齊	-11.1909
澤潞	-11.1911
安逺	-11.1911
區區	-11.1913
本司	-11.1914
女真	-11.1917
髙昌	-11.1918
洪範	-11.1919
稱㫖	-11.1919
四十人	-11.1922
魏武	-11.1924
咸寧	-11.193
海道	-11.193
府司馬	-11.1931
少孤	-11.1931
帥臣	-11.1933
勇士	-11.1935
相距	-11.1938
縣入焉	-11.1939
歐	-11.194
縣尉	-11.1941
汝隂	-11.1942
參政	-11.1942
譟	-11.1944
濡	-11.1948
絰	-11.1949
秦昭王	-11.1949
瑄	-11.195
嫂	-11.1957
伶	-11.1957
飽	-11.1959
甲士	-11.1959
舊法	-11.1961
魏文帝	-11.1965
左光禄大夫	-11.1968
執法	-11.1974
鄜州	-11.1977
世充	-11.1982
服䖍	-11.1982
順行	-11.1985
兾	-11.1987
讖	-11.1989
樂平	-11.1989
其狀	-11.1989
釋褐	-11.1991
帝幸	-11.1991
為尚書左僕射	-11.1994
七度	-11.1995
家世	-11.1996
赴援	-11.1997
同知樞密院事	-11.2004
觀察等使	-11.2005
不須	-11.2007
代郡	-11.2007
乘馬	-11.2008
前導	-11.201
二百二十	-11.201
相近	-11.2013
右正言	-11.2014
數百里	-11.2014
|||||	-11.2015
所撰	-11.2016
一體	-11.2017
太白經天	-11.2024
舊儀	-11.2028
分秒	-11.2028
赫舍哩	-11.2031
魄	-11.2031
洩	-11.2032
監國	-11.2034
鬚	-11.2034
摭	-11.2034
署令	-11.2035
所造	-11.2036
中山王	-11.2037
十二巻	-11.2039
楨	-11.2041
甌	-11.2041
五代史巻	-11.2042
直史館	-11.2043
馬歩	-11.2043
鞠躬	-11.2044
戰勝	-11.2044
幕府	-11.2047
姒	-11.2047
十三度	-11.205
淮安	-11.2055
一時之	-11.2065
廬陵	-11.2069
縝	-11.2072
移治	-11.2073
牋	-11.2075
散騎侍郎	-11.2076
纒	-11.2078
中書左丞	-11.2079
剪	-11.2079
施於	-11.2082
輓	-11.2083
史記曰	-11.2084
卨	-11.2087
絀	-11.2087
軹	-11.2088
兼御史中丞	-11.2088
廣川	-11.2093
先聖	-11.2095
入寇	-11.2096
以所部	-11.2103
茂貞	-11.2105
社稷之	-11.2108
義康	-11.2108
孝皇帝	-11.2109
歴數	-11.2111
鎮東	-11.2111
臣願	-11.2114
絳州	-11.2117
前漢屬	-11.2118
餞	-11.2119
宋史卷四百	-11.212
天性	-11.2121
踰月	-11.2122
孜	-11.2123
汧	-11.2124
袒	-11.2124
□	-11.2125
節度副使	-11.2125
威名	-11.2125
迂	-11.2126
夀陽	-11.2127
槖	-11.2128
汭	-11.2128
都官尚書	-11.2128
不預	-11.213
建業	-11.2131
駰案	-11.2135
南宫	-11.214
立皇子	-11.2141
帥師	-11.2146
潤州	-11.2148
故謂之	-11.2149
白起	-11.215
雄州	-11.215
臨淄	-11.2155
紵	-11.216
乗馬	-11.2162
伊克	-11.2164
家財	-11.2165
犯右執法	-11.2165
娛	-11.2165
罷相	-11.2166
拳	-11.2167
東萊	-11.2167
畿内	-11.2168
禁錮	-11.217
音徒	-11.2171
帝怒	-11.2171
明主	-11.2176
出征	-11.2177
悼惠王	-11.2178
溉田	-11.2179
五十兩	-11.218
赤氣	-11.2181
三寸	-11.2182
尋改	-11.2183
興化	-11.2184
音律	-11.2184
楚國	-11.2185
鎮星	-11.2193
願得	-11.2198
頤浩	-11.2204
遲疾	-11.2207
匝	-11.2207
逺方	-11.2211
爵一級	-11.2213
桞	-11.2214
東京留守	-11.2215
貿易	-11.2215
辠	-11.2215
起義	-11.2219
下車	-11.2223
祖考	-11.2231
伐鄭	-11.2234
四年三月	-11.2237
著書	-11.2237
還報	-11.224
尚未	-11.2244
意欲	-11.2247
諍	-11.2249
旰	-11.2252
黠	-11.2254
乞骸骨	-11.2258
嗇	-11.2258
常服	-11.2259
烏庫哩	-11.226
四年四月	-11.226
閨	-11.226
攝提	-11.2261
琚	-11.2262
廡	-11.2263
臨潢	-11.2263
太府卿	-11.2264
略地	-11.2267
木連理	-11.2269
為列侯	-11.2271
玉牒	-11.2274
元年十一月	-11.2279
三年十月	-11.228
儀天	-11.2281
惡其	-11.2284
晉屬	-11.2284
宫門	-11.2287
軍亂	-11.2288
開成	-11.2289
此所謂	-11.229
邵陵王	-11.229
稽首	-11.2291
盥	-11.2293
請罪	-11.2295
洺州	-11.2297
阿哈瑪特	-11.2297
東平王	-11.2297
兵部郎中	-11.2298
征西將軍	-11.2299
擲	-11.23
來攻	-11.2302
懾	-11.2302
來獻	-11.2305
伯父	-11.2306
佐命	-11.2306
八萬	-11.2306
瞽	-11.2308
發覺	-11.231
莊帝	-11.2311
戎狄	-11.2313
光逺	-11.2315
石門	-11.2322
末年	-11.2322
失守	-11.2325
其妻子	-11.2325
韋昭	-11.2328
樂毅	-11.2334
西南夷	-11.2338
頊	-11.234
麋	-11.2343
集賢院	-11.2345
新興	-11.2345
翕	-11.2348
奔于	-11.2349
師還	-11.2349
林邑	-11.2349
其子孫	-11.2351
維翰	-11.2354
年號	-11.2355
老弱	-11.2358
皋	-11.2363
前驅	-11.2364
濠州	-11.2364
金主	-11.2365
宗正卿	-11.2365
三川	-11.2368
濟河	-11.2368
話	-11.2378
兩路	-11.2382
并州刺史	-11.2386
攽	-11.2388
䜛	-11.2388
名位	-11.2391
二十餘年	-11.2392
改易	-11.2392
求援	-11.2394
譎	-11.2399
馥	-11.2399
鐵錢	-11.2401
時則有	-11.2402
癸	-11.2403
謂左右曰	-11.2403
北討	-11.2407
大寒	-11.2408
一千一百	-11.2408
正位	-11.2409
涿郡	-11.2411
及即位	-11.2417
固讓	-11.2418
紀年	-11.242
獄訟	-11.2423
驍衛	-11.2425
私第	-11.2425
武藝	-11.2427
遣使獻方物	-11.2427
如杯	-11.2428
䜟	-11.2429
算外	-11.2432
急攻	-11.2435
承宗	-11.2436
字季	-11.2437
隗	-11.2438
貝勒	-11.2441
留侯	-11.2442
繼勲	-11.2446
右司郎中	-11.245
雲陽	-11.2455
太常丞	-11.246
來奔	-11.2464
白水	-11.2466
入汴	-11.2468
秩滿	-11.247
洵	-11.247
責授	-11.2473
綦	-11.2477
孥	-11.2478
靡不	-11.2479
酤	-11.248
聰敏	-11.2481
装	-11.2481
棠	-11.2482
咽	-11.2486
繼岌	-11.249
陽翟	-11.2491
諸陵	-11.2492
安車	-11.2492
七十里	-11.2492
緄	-11.2498
佛寺	-11.2498
千餘級	-11.25
殿中丞	-11.2501
益封	-11.2502
特授	-11.2505
將作監	-11.2507
華州刺史	-11.251
神靈	-11.2512
徴拜	-11.2512
華隂	-11.2512
奉祠	-11.2515
酒酣	-11.2516
蒐	-11.2517
真君	-11.2519
層	-11.2521
録尚書事	-11.2522
瓠	-11.2523
涿州	-11.2523
來聘	-11.2526
經籍	-11.2527
鈕	-11.2528
弃	-11.2528
天竺	-11.2529
生辰	-11.2529
逺矣	-11.2535
從四品	-11.2535
無所不	-11.2535
弓箭手	-11.2536
十六日	-11.2543
居喪	-11.2546
已破	-11.2548
二百六十	-11.255
國遣使朝貢	-11.2554
讚	-11.2557
冊寳	-11.2558
過失	-11.2559
縷	-11.2564
録一卷	-11.2567
劣	-11.2568
噬	-11.2569
韓世忠	-11.257
摶	-11.2571
五寸	-11.2571
九十四	-11.2572
百日	-11.2573
灌夫	-11.2573
高后	-11.2574
光禄卿	-11.2575
徂	-11.2576
柯	-11.2576
軀	-11.2576
明燭地	-11.2578
馳驛	-11.2582
騎士	-11.2588
荅曰	-11.2595
威福	-11.2598
萬斛	-11.26
以上者	-11.26
多寡	-11.2601
大宛	-11.2603
賾	-11.2604
胎	-11.2609
牓	-11.2609
百三十	-11.2609
趾	-11.261
世祖即位	-11.2611
原刻	-11.2612
淚	-11.2613
隳	-11.2614
羮	-11.2617
贛	-11.2618
蕃部	-11.2619
百濟	-11.2624
七里	-11.2625
海西	-11.2629
孰與	-11.2632
車師	-11.2633
樓煩	-11.2638
南徐州	-11.2639
公輔	-11.264
神器	-11.2643
謝罪	-11.2645
義勇	-11.2648
晉國	-11.2649
有戰功	-11.2649
諸弟	-11.2651
至於此	-11.2654
餘慶	-11.2654
前一日	-11.2659
樸	-11.266
駝	-11.2666
統領	-11.2667
腸	-11.2668
袋	-11.2668
大名府	-11.2669
累年	-11.2671
白鹿	-11.2671
集三卷	-11.2673
」。	-11.2674
岳飛	-11.2674
二千七百	-11.2675
籍田	-11.2676
太子舍人	-11.2679
桓𤣥	-11.2679
定天下	-11.2681
莖	-11.2683
餓死	-11.2684
楚楚	-11.2686
詔諸路	-11.2687
姦臣	-11.2697
苻	-11.2699
莫如	-11.27
治書侍御史	-11.2703
慶厯	-11.2704
璨	-11.2706
紓	-11.2708
新豐	-11.271
建義	-11.2712
經營	-11.2715
光化	-11.2716
一千四百	-11.2716
邠寧	-11.2721
已卯	-11.2721
巴勒	-11.2729
副總管	-11.2732
統元	-11.2737
幽州刺史	-11.2737
租税	-11.2738
天雄軍	-11.2741
勾當	-11.2744
牙將	-11.2745
樁	-11.275
猺	-11.275
遯	-11.2754
伊都	-11.2758
亊	-11.2759
羣公	-11.276
喉	-11.2761
稼穡	-11.2761
媯	-11.2762
齊神武	-11.2763
賈誼	-11.2764
賈逵曰	-11.2764
為吏部尚書	-11.2773
周旋	-11.2778
年十五	-11.2781
諸吕	-11.2783
异	-11.2792
析置	-11.2795
錢穀	-11.2795
至城下	-11.2798
崇政殿	-11.2799
西伯	-11.2799
州軍事	-11.2802
袤	-11.2802
侑	-11.2803
孝昭	-11.2806
鉗	-11.2807
英雄	-11.2807
扁鵲	-11.2814
廣寧	-11.2817
西討	-11.2818
一千八百	-11.2819
列傳第五十	-11.282
犯南斗	-11.2823
請依	-11.2825
集十巻	-11.2834
五十萬	-11.2836
而一為	-11.2837
禮直官	-11.2837
至長安	-11.2837
裙	-11.2839
曰吾聞	-11.284
單衣	-11.284
二年十月	-11.2841
司州刺史	-11.2842
蹲	-11.2843
流亡	-11.2844
懽	-11.2845
東莞	-11.2847
朔弦望	-11.2847
穗	-11.2848
靳	-11.2849
集一巻	-11.2849
慟哭	-11.2849
旌節	-11.2849
誚	-11.285
瘡	-11.2851
茶鹽	-11.2853
賜金紫	-11.2853
祁曰	-11.2855
師傅	-11.2861
熙宗	-11.2864
鄭𤣥注	-11.2865
二百人	-11.2867
不待	-11.2867
不拘	-11.2869
夏六月	-11.288
考課	-11.2881
為人所	-11.2889
博囉特穆爾	-11.2891
陌	-11.2896
尋拜	-11.2897
菽	-11.29
東昏	-11.2903
州司户	-11.2904
陽氣	-11.2906
卜筮	-11.2906
方略	-11.2908
襄子	-11.2909
知貢舉	-11.2909
張揖曰	-11.291
軍屯	-11.2912
武俊	-11.2913
分滿	-11.2917
武德四年	-11.2923
端門	-11.2925
.	-11.293
悌	-11.2933
夷吾	-11.2936
旭	-11.2938
性命	-11.2939
昵	-11.294
秘書省	-11.294
弧	-11.2942
非其人	-11.2943
秉政	-11.2943
剝	-11.2943
璜	-11.2945
冇	-11.2945
重威	-11.2946
臣瓚曰	-11.2948
俄遷	-11.2948
絮	-11.2949
從駕	-11.2952
導引	-11.2953
押班	-11.2953
甘州	-11.2954
浙江	-11.2955
蜚	-11.2955
克寧	-11.2957
險阻	-11.2958
立冬	-11.2963
且夫	-11.2966
輟朝	-11.2971
奮擊	-11.2973
歴位	-11.2973
保義	-11.2974
三百五十	-11.2977
羣小	-11.2978
纁	-11.2984
可觀	-11.2985
紊	-11.2988
濳	-11.2989
昭徳	-11.299
夸	-11.2991
兔	-11.2992
旗幟	-11.2994
西京留守	-11.2994
不能制	-11.2996
心腹	-11.2999
慨然	-11.2999
虖	-11.3001
景福	-11.3003
妄言	-11.3004
延慶	-11.3005
崔浩	-11.3005
葛榮	-11.3006
監丞	-11.3006
有異志	-11.3007
勿復	-11.3007
寧之曲	-11.301
牛酒	-11.301
畱	-11.3012
俘獲	-11.3012
地形	-11.3012
秋九月	-11.3015
副大使	-11.3019
陳豨	-11.302
抵罪	-11.3024
羣下	-11.3024
磨勘	-11.303
櫟	-11.3031
騁	-11.3032
覧	-11.3035
銑	-11.3036
謟	-11.3037
迅	-11.3037
被害	-11.3037
紬	-11.3038
少好學	-11.3039
丞一人	-11.304
神䇿	-11.304
鯁	-11.3041
晉武帝	-11.3046
相接	-11.3049
光宗	-11.3053
麟徳	-11.3065
者莫不	-11.3067
創業	-11.3068
延昌	-11.3069
餙	-11.3075
沿江	-11.3076
淨	-11.3078
提舉一員	-11.3079
四尺	-11.3081
曹操	-11.3081
徃來	-11.3081
飄	-11.3083
孔安國	-11.3083
憲章	-11.3083
經略使	-11.3085
貧乏	-11.3085
涸	-11.3085
孝文皇帝	-11.3088
玫	-11.3088
巴西	-11.3088
婚姻	-11.3091
四年五月	-11.3093
相對	-11.3096
朱雀	-11.3097
被執	-11.3099
縱火	-11.3099
没青白有尾跡	-11.31
犯昴	-11.3101
温州	-11.3104
不答	-11.3104
子男	-11.3104
三年八月	-11.3106
享國	-11.3108
譔	-11.3112
職掌	-11.3113
邦國	-11.3115
太社	-11.3117
戸口	-11.3118
特賜	-11.3119
建鄴	-11.3121
欽宗	-11.3123
0	-11.3126
炬	-11.313
賫	-11.3131
音扶	-11.3131
平北將軍	-11.3132
追擊	-11.3134
擿	-11.3135
控鶴	-11.3136
訐	-11.3137
詘	-11.3144
路總管府	-11.3146
倨	-11.3146
伉	-11.315
割地	-11.315
弑其君	-11.3152
旌旗	-11.3153
朝獻	-11.3157
季氏	-11.3159
宣慰	-11.3162
以軍功	-11.3164
穰侯	-11.3165
吏士	-11.3166
和氣	-11.3168
未嘗有	-11.3175
灘	-11.3178
踊	-11.3184
弇	-11.3186
湯武	-11.3192
奉㫖	-11.3198
挑戰	-11.3202
不恤	-11.3211
北向立	-11.3212
去就	-11.3216
簪	-11.3221
功業	-11.3223
撝	-11.3223
觀文殿大學士	-11.3226
讌	-11.3226
步騎	-11.3226
浹	-11.3226
襟	-11.3226
隍	-11.323
連年	-11.323
經一巻	-11.323
百六十	-11.323
璞	-11.3231
呵	-11.3231
燿	-11.3232
磧	-11.3232
禳	-11.3233
寺丞	-11.3233
星占曰	-11.3236
玘	-11.3239
蚩尤	-11.324
樂器	-11.3242
近世	-11.3246
舶	-11.3249
器物	-11.325
本末	-11.3251
里南至	-11.3251
在東宫	-11.3258
解職	-11.3261
史記作	-11.3263
配流	-11.327
涌	-11.3274
五年春正月	-11.3276
縻	-11.3279
慿	-11.328
龍驤	-11.3281
扵是	-11.3281
澆	-11.3281
尺寸	-11.3294
提刑司	-11.3299
禮記曰	-11.3301
水火	-11.3301
詹	-11.3305
臨菑	-11.3306
禍亂	-11.331
六年正月	-11.3313
以待之	-11.3318
恒州	-11.332
許昌	-11.3321
諸蠻	-11.3323
平盧	-11.3323
和糴	-11.3324
特哩衮	-11.3324
貺	-11.3325
烟	-11.3326
團練使	-11.3326
眚	-11.3326
輻	-11.3327
煦	-11.3329
携	-11.3331
殫	-11.3332
蠱	-11.3332
隋文帝	-11.3338
移書	-11.3339
乙已	-11.3342
歸化	-11.3342
犯左執法	-11.3343
兵討之	-11.3345
二千六百	-11.3346
二千三百	-11.3353
轉輸	-11.3354
駕部	-11.3356
已巳	-11.336
左衛將軍	-11.3362
不覺	-11.3363
饑賑	-11.3365
梓州	-11.3366
武舞	-11.3367
文炳	-11.3369
伐我	-11.3372
儒林	-11.3372
子産	-11.3373
宕	-11.3373
塋	-11.3374
二千四百	-11.3376
鵬	-11.3377
嘯	-11.3377
爪牙	-11.3379
新亭	-11.3381
提控案牘	-11.3381
饑饉	-11.3382
東海王	-11.3382
瘳	-11.3386
號泣	-11.3392
乾寧	-11.3392
不可勝計	-11.3395
芝草	-11.3397
尺六寸	-11.3401
弗能	-11.3402
八十里	-11.3405
賜諸王	-11.3405
分之一	-11.3405
募民	-11.3406
永初郡國	-11.3411
二年十一月	-11.3413
立碑	-11.3413
多爾濟	-11.3416
開皇初	-11.3425
禮直官引	-11.3425
塡	-11.3426
脂	-11.3427
邯	-11.3427
糺	-11.3429
戯	-11.3429
大笑	-11.3429
進士及第	-11.3431
右賢王	-11.3431
六巻	-11.3432
解褐	-11.3432
沛郡	-11.3432
祕書丞	-11.3434
唐末	-11.3436
頑	-11.3438
胡亥	-11.3438
殽	-11.3439
歷	-11.344
兹謂	-11.3446
猶豫	-11.3448
富民	-11.3448
聖㫖	-11.3449
河間王	-11.3458
四十卷	-11.3459
泣下	-11.346
錢糧	-11.3462
田榮	-11.3468
謀逆	-11.3468
字彦	-11.3471
仙人	-11.3471
渭州	-11.3471
諸將皆	-11.3472
璉	-11.3472
喪亂	-11.3473
渦	-11.3475
和卓	-11.3478
須臾	-11.3479
辰刻	-11.3479
藪	-11.3479
楹	-11.3479
値	-11.3481
渴	-11.3482
蘇軾	-11.3482
嫗	-11.3482
以孝聞	-11.3483
昪	-11.3485
徙治	-11.3485
大行臺	-11.3486
來援	-11.3487
徃徃	-11.3488
宗廟社稷	-11.3496
鄱陽王	-11.3501
都頭	-11.3502
忠良	-11.3502
奄至	-11.3505
稱疾	-11.3509
急流至	-11.3509
特黙	-11.351
自此始	-11.3513
州安置	-11.3514
危亡	-11.3514
竣	-11.3517
鄯	-11.3519
列傳第六十	-11.352
度量	-11.352
鴨	-11.3525
追諡	-11.3525
鎛	-11.3526
北齊書卷	-11.3527
諡文	-11.3528
諳	-11.3528
醖	-11.3529
頠	-11.3531
東都留守	-11.3532
友謙	-11.3532
河東節度使	-11.3532
廟堂	-11.3534
冬至後	-11.3539
沿邊	-11.3541
壇上	-11.3542
咸亨	-11.3542
南兖州刺史	-11.3544
函谷	-11.3545
太僕卿	-11.3551
東階	-11.356
龍虎	-11.3563
旦夕	-11.3566
神策	-11.3567
清廟	-11.3572
書令史	-11.3574
擣	-11.3575
募兵	-11.3576
晡	-11.3579
跣	-11.3583
尋轉	-11.3583
緜	-11.3583
馘	-11.3583
宣徽院	-11.3583
節度觀察	-11.3593
井陘	-11.3593
失色	-11.3595
十七度	-11.3598
牧馬	-11.3599
衛大将軍	-11.3602
張俊	-11.3602
太上皇帝	-11.3603
損益率	-11.3605
室韋	-11.3606
如淳	-11.3607
伏願	-11.3613
龍圖閣直學士	-11.3625
傳一卷	-11.3626
挹	-11.3627
性剛	-11.3628
平涼	-11.3628
點	-11.3629
百七十	-11.363
武康	-11.3632
八品	-11.3634
乏食	-11.3636
柘	-11.3637
斐	-11.3637
東阿	-11.3641
孺子	-11.3646
甘肅	-11.3647
秩正三品	-11.3649
春夏	-11.3649
僚屬	-11.365
彦回	-11.3654
四年七月	-11.3664
夘	-11.3666
曲直	-11.3669
飲福	-11.3671
潼	-11.3672
欲殺之	-11.3672
鬯	-11.3673
商君	-11.3676
毬	-11.3677
髻	-11.3678
呌	-11.3679
錄尚書事	-11.368
之力也	-11.368
夜郎	-11.368
死傷	-11.3682
孝伯	-11.3686
知政事	-11.369
郅	-11.3694
辟陽侯	-11.3697
四年六月	-11.3698
喝	-11.3701
巴東	-11.3702
典吏	-11.3705
將軍如故	-11.3713
參軍事	-11.3716
昊天	-11.3717
伊蘇	-11.3725
平南將軍	-11.3728
景靈宫	-11.3729
闌	-11.3729
䧺	-11.3732
蕃漢	-11.3733
糜	-11.3734
繇是	-11.3737
揣	-11.3738
遣使來賀	-11.3738
光禄勲	-11.374
赤眉	-11.3743
䕶軍將軍	-11.3747
千餘家	-11.3748
照磨	-11.3751
加開府儀同三司	-11.3751
入南斗	-11.3752
未決	-11.3752
誠能	-11.3757
渭南	-11.3761
並依	-11.3763
賜帛	-11.3763
䝉古軍	-11.3766
9	-11.3777
前廢帝	-11.3778
㡌	-11.3779
亷訪司	-11.3782
二十八宿	-11.3785
上表請	-11.3785
三十日	-11.3788
杜重威	-11.3788
優劣	-11.3789
元狩	-11.379
二十七日	-11.3791
紆	-11.3794
才能	-11.3795
疽	-11.3796
自有傳	-11.3797
討論	-11.3797
日暈	-11.3797
敬兒	-11.3797
皇極	-11.3799
藩鎮	-11.3801
晉安王	-11.3803
戍卒	-11.3804
流離	-11.3807
河橋	-11.3807
年月	-11.381
戍主	-11.3811
互相	-11.3811
儒術	-11.3811
擊秦	-11.3812
虞卿	-11.3814
第三子	-11.3815
惟新	-11.3818
二寸	-11.3818
叔孫通	-11.382
渾儀	-11.3823
遣使來貢	-11.3827
忱	-11.3828
彭祖	-11.383
徭役	-11.3834
沾	-11.3837
畀	-11.3838
托歡	-11.3838
服色	-11.384
羔	-11.3843
琢	-11.3846
刻石	-11.3847
祔廟	-11.385
鼂錯	-11.385
戰艦	-11.3852
殺戮	-11.3853
掾史	-11.3855
歌詩	-11.3857
縱横	-11.3866
左諫議大夫	-11.3871
梁元帝	-11.3871
科舉	-11.3874
彗星見	-11.3878
州縣官	-11.3878
重熙	-11.3881
藤	-11.3881
供給	-11.3883
蔓	-11.3884
以功授	-11.3885
逡	-11.3889
戩	-11.3889
度支尚書	-11.3889
逗	-11.3889
無幾	-11.389
屑	-11.389
億兆	-11.389
燮	-11.3891
匣	-11.3892
珠玉	-11.3893
璽綬	-11.3893
騷動	-11.3894
盍	-11.3895
邾	-11.3896
橐	-11.3897
五丈	-11.39
教化	-11.3901
租庸	-11.3902
諸呂	-11.3904
成之曲	-11.3908
二州諸軍事	-11.3909
開元中	-11.3911
留意	-11.3919
慶歴	-11.3919
招降	-11.392
南豫州刺史	-11.392
一千六百	-11.392
若干	-11.3924
日躔	-11.3929
財貨	-11.3931
伽	-11.3935
朱全忠	-11.3939
璹	-11.394
後晉司空同中書門下平章事劉昫撰	-11.3941
比干	-11.3943
夹	-11.3945
三百九十	-11.3945
賜緋	-11.3945
逆順	-11.3948
鑰	-11.3948
親祀	-11.3948
肺	-11.3949
裒	-11.3949
滑臺	-11.395
本姓	-11.3953
欣然	-11.3954
草創	-11.3957
涇陽	-11.3959
執金吾	-11.396
盡殺	-11.3962
何由	-11.3963
睢陽	-11.3965
率騎	-11.3967
二萬人	-11.3969
潁州	-11.397
成都府	-11.3972
神仙	-11.3977
晉文公	-11.3983
裴度	-11.3984
有星孛于	-11.3985
絢	-11.3985
戮力	-11.3986
僧孺	-11.3987
首虜	-11.3987
盂	-11.3987
郡開國公	-11.3988
品秩	-11.3989
天章閣待制	-11.3989
輔國将軍	-11.3991
善屬文	-11.3992
烏爾古	-11.3993
累世	-11.3996
湖廣行省	-11.3997
煎	-11.4002
園陵	-11.4005
趙鼎	-11.4011
褥位	-11.4012
李綱	-11.4016
蔚州	-11.4019
爾雅曰	-11.4023
家語	-11.4025
河溢	-11.4028
為先鋒	-11.4028
江湖	-11.4029
法而一	-11.4029
犯軒轅大星	-11.4037
尺三寸	-11.4041
擅權	-11.4042
春三月	-11.4042
脊	-11.4042
詔自今	-11.4042
寛厚	-11.4044
讙	-11.4047
太簇	-11.4049
伏惟	-11.4052
變化	-11.4053
勍	-11.4057
犂	-11.4057
犯太微	-11.4057
餘悉	-11.4068
餘如故	-11.4071
秦滅	-11.4073
右散騎常侍	-11.4075
少府監	-11.4079
勤勞	-11.4083
清河王	-11.4086
李克用	-11.4087
南岸	-11.4087
總帥	-11.4089
前書曰	-11.409
慨	-11.4091
土木	-11.4092
港	-11.4092
集賢校理	-11.4094
郡開皇初郡廢	-11.4094
右衛將軍	-11.4097
登第	-11.4097
璩	-11.4097
陲	-11.4099
潼關	-11.4099
鴻臚卿	-11.4101
先儒	-11.4101
膂	-11.4101
乾象	-11.4108
春申君	-11.4111
汴京	-11.4111
黔首	-11.4113
荆襄	-11.4116
氂	-11.4118
巴圖	-11.4119
歩軍都指揮使	-11.412
新羅	-11.4122
應募	-11.4124
後漢書	-11.4128
羣盜	-11.4139
終獻	-11.4141
石勒	-11.4142
蔬	-11.4144
産業	-11.4145
擯	-11.4148
侯莫陳	-11.415
醴泉	-11.4151
楫	-11.4154
針	-11.4155
瑊	-11.4158
豆盧	-11.4162
液	-11.4163
斛律	-11.4166
憂懼	-11.4173
乾符	-11.419
諡忠	-11.4194
仁夀	-11.4195
逆戰	-11.4202
寳夤	-11.4202
砥	-11.4208
羆	-11.4215
司天監	-11.4216
墳墓	-11.4216
虡	-11.4217
乳母	-11.4218
五榖	-11.422
匹綿	-11.4223
太和中	-11.4232
師範	-11.4249
潯	-11.4253
北史卷	-11.4254
孔氏	-11.4255
愴	-11.4258
國子司業	-11.4258
通直郎	-11.426
廖	-11.4261
媪	-11.4261
范延光	-11.4264
萬全	-11.4276
商旅	-11.4285
姚興	-11.4287
鞍馬	-11.4291
清濁	-11.4294
飛龍	-11.4298
御容	-11.4298
聞其名	-11.4303
杳	-11.4303
澣	-11.4304
儉約	-11.4306
劉光世	-11.4308
廵狩	-11.4309
驃騎大将軍	-11.431
貟	-11.4312
罽	-11.4313
蟠	-11.4314
褾	-11.4314
保寧	-11.4315
瀘州	-11.4315
河渠	-11.4318
誑	-11.4319
諂	-11.4319
淛	-11.432
存問	-11.4321
眩	-11.4323
邴	-11.4324
僰	-11.4326
黔中	-11.4332
礬	-11.4332
灌嬰	-11.4339
行樞密院	-11.4342
凉州	-11.4351
志第二十	-11.4357
永熙	-11.4365
卒年四十	-11.4366
樞密直學士	-11.4366
簽書樞密院事	-11.4368
戡	-11.4368
聖賢	-11.4369
改葬	-11.4369
佯	-11.437
茂陵	-11.437
河洛	-11.437
賦役	-11.4371
工匠	-11.4381
竇太后	-11.4383
甚急	-11.4384
左拾遺	-11.4389
曲陽	-11.439
北庭	-11.4391
本草	-11.4392
制置司	-11.4393
盧綰	-11.4393
韋昭云	-11.4394
别廟	-11.4402
侍御	-11.4412
容貌	-11.4415
籩	-11.4416
雝	-11.4418
羽葆	-11.4425
雍丘	-11.4425
伏惟陛下	-11.4426
匈	-11.4428
杓	-11.443
太宗即位	-11.4431
劉豫	-11.444
髙郵	-11.4442
征虜	-11.4448
右北平	-11.4449
簽書	-11.4449
符瑞	-11.4451
即墨	-11.4456
管領	-11.4458
」	-11.446
太極殿	-11.4466
以疾卒	-11.447
幾何	-11.4471
祼	-11.4472
八寸	-11.4474
州大水	-11.4474
平西將軍	-11.4476
詎	-11.4479
驃騎大將軍開府儀同三司	-11.4479
媛	-11.448
偵	-11.4481
太后崩	-11.4482
鴆	-11.4482
縫	-11.4482
沼	-11.4484
驂	-11.4484
刑部郎中	-11.4484
扎拉	-11.4486
二十八日	-11.4486
軍儲	-11.4487
勞苦	-11.4487
劉奉世曰	-11.449
熙寜	-11.449
十萬石	-11.4492
林甫	-11.4502
弘農	-11.4503
齋郎	-11.4505
百官表	-11.4509
獄吏	-11.4512
兵三萬	-11.4515
樂舞	-11.4515
黄巾	-11.4515
合浦	-11.4519
建元元年	-11.4522
交結	-11.4524
萬歲	-11.4525
卒年八十	-11.4525
終身不	-11.4527
司徒左長史	-11.4527
逈	-11.4528
冬十二月	-11.4528
郞	-11.4531
氛	-11.4531
塗炭	-11.4532
宕昌	-11.4533
䧏	-11.4533
縂	-11.4535
内殿崇班	-11.4537
京師地震	-11.454
磔	-11.454
設伏	-11.4541
於是天子	-11.4542
吁	-11.4542
車騎将軍	-11.4543
安西將軍	-11.4545
恢復	-11.4545
玉帛	-11.4547
呼喇	-11.4548
有事於	-11.4552
神龍元年	-11.4556
畜牧	-11.4557
七曜	-11.4558
甘茂	-11.4559
斬獲	-11.4563
稱疾不	-11.4572
光宅	-11.4581
戎服	-11.4583
誌	-11.4584
佶	-11.4585
戒嚴	-11.4587
迎神	-11.4588
罸	-11.459
斟酌	-11.459
螭	-11.4592
四百八十	-11.4593
中流矢	-11.4594
䨇	-11.4594
發運使	-11.4596
醇	-11.4597
阪	-11.4598
葭	-11.4598
修起居注	-11.4599
系本	-11.46
媵	-11.4605
原本作	-11.4606
晉天福	-11.4611
節儉	-11.4611
謝病	-11.4613
荊	-11.4614
達嚕噶齊一員	-11.4622
邕州	-11.4622
安重誨	-11.4623
州地震	-11.4625
跪奏	-11.4637
三千五百	-11.4637
肱	-11.464
顧問	-11.4642
錮	-11.4643
里北至	-11.4644
虵	-11.4645
冩	-11.4645
啜	-11.4647
束帶	-11.4648
學士院	-11.4649
太倉	-11.4651
胷	-11.4652
牝	-11.4653
蓬萊	-11.4654
壕	-11.4654
擔	-11.4654
虎牢	-11.4655
年十三	-11.4655
沽	-11.4656
僵	-11.4656
溺死	-11.466
好惡	-11.4665
犯塞	-11.467
咸淳	-11.467
都承㫖	-11.4674
五百八十	-11.4675
本注曰	-11.4677
犯壘壁陣	-11.4688
濟北王	-11.4692
撫諭	-11.4693
頥	-11.4694
紱	-11.4701
謇	-11.4703
僥倖	-11.4705
跳	-11.4705
鼔吹	-11.4706
鉦	-11.4709
筋	-11.471
舒嚕	-11.4713
配饗	-11.4714
童貫	-11.4715
帥衆	-11.4715
左氏傳	-11.4718
哭泣	-11.4726
卒於家	-11.4729
休祐	-11.4733
曹參	-11.4737
淀	-11.4741
悰	-11.4746
安成王	-11.4746
七寸	-11.4755
蜂	-11.4757
謳	-11.4758
喧	-11.4761
東上閤門	-11.4764
開封尹	-11.4767
巴圖爾	-11.477
亹	-11.4771
判三司	-11.4773
獲罪	-11.4773
暴虐	-11.4778
百辟	-11.4785
掾屬	-11.4786
何敢	-11.4794
吏部郎	-11.4794
未甞	-11.4798
中書右丞	-11.4803
未央	-11.4804
踏	-11.481
被甲	-11.4814
琵琶	-11.4816
遴	-11.4817
藩邸	-11.4817
砂	-11.4817
慄	-11.4817
聳	-11.4819
蹂	-11.4821
䂓	-11.4821
乾坤	-11.4822
縞	-11.4824
菑川	-11.4825
太夫人	-11.4825
淳祐	-11.4827
䕶衛	-11.4828
謂侍臣曰	-11.483
㠯	-11.4832
九齡	-11.4836
輿服	-11.4842
紹熙	-11.4843
聽政	-11.4848
朝謁	-11.485
擁衆	-11.4853
大都督府	-11.4855
犍為	-11.4855
奈	-11.4855
減半	-11.4857
至元二年	-11.4859
徹爾	-11.4862
不倦	-11.4862
岀	-11.4865
京房易傳曰	-11.4867
哈瑪爾	-11.4869
憶	-11.4869
過半	-11.4876
疾篤	-11.4876
籬	-11.4877
擢拜	-11.4877
千乘	-11.4879
車騎大將軍	-11.488
鷙	-11.488
詬	-11.488
韋氏	-11.4886
以功遷	-11.4892
度及分秒	-11.4892
晷景	-11.4899
晨昏	-11.49
刺殺	-11.4901
節鉞	-11.4907
甲戍	-11.4909
丹徒	-11.4911
林牙	-11.4913
巨萬	-11.4915
隕霜	-11.4922
沈炳震曰	-11.4922
昺	-11.4923
齊獻武王	-11.4923
鹽池	-11.4924
剡	-11.4927
襖	-11.4928
阿爾哈雅	-11.4928
片	-11.4931
滁州	-11.4931
榛	-11.4931
奢侈	-11.4932
簋	-11.4932
叨	-11.4933
廻紇	-11.4935
撒	-11.4938
炙	-11.494
守宰	-11.4944
累官至	-11.4945
殿最	-11.4947
同知樞宻院事	-11.495
而一所得	-11.495
喜怒	-11.4954
正二品	-11.4967
四百九十	-11.4969
禕	-11.498
勝負	-11.4981
核	-11.4987
山海經	-11.4988
覊	-11.4988
袁粲	-11.4989
舉秀才	-11.4989
銀青光祿大夫	-11.4989
遐邇	-11.499
湮	-11.499
義倉	-11.4992
撻	-11.4992
衂	-11.4993
欄	-11.4994
厄	-11.4994
推誠	-11.4995
猛獸	-11.4998
孳	-11.4998
王世充	-11.4999
衣裳	-11.5002
萬斤	-11.5004
兼侍講	-11.5007
奏曰臣	-11.501
劉毅	-11.5011
堅壁	-11.5013
悝	-11.5013
律厯	-11.5014
左光祿大夫	-11.5019
揚雄	-11.5023
希憲	-11.5026
昌黎	-11.5027
薨諡曰	-11.5027
仲舒	-11.5032
幞頭	-11.5034
九尺	-11.504
愍帝	-11.5042
機務	-11.5044
朶	-11.5045
兵柄	-11.5046
郾	-11.5047
硤	-11.5047
袂	-11.505
經畧使	-11.5051
爪	-11.5052
巵	-11.5052
新唐書	-11.5053
宮室	-11.5053
禰	-11.5054
千乗	-11.5055
鐘磬	-11.5055
塔喇	-11.5056
禹貢	-11.5067
日及餘秒	-11.5069
曹叅軍	-11.507
渾天	-11.5073
延英	-11.5078
哀毁	-11.5084
二千一百	-11.5085
攻陷	-11.5088
博索	-11.5092
九寸	-11.5092
太微垣	-11.5102
絁	-11.5105
榮禄大夫	-11.5106
受冊	-11.5106
䟦	-11.5107
范仲淹	-11.5108
郗	-11.511
荐	-11.5111
太蔟	-11.5112
七年正月	-11.5113
瓛	-11.5113
臣之所	-11.5114
曙	-11.5115
襄邑	-11.5118
統軍使	-11.512
十二律	-11.5131
天文志	-11.5135
𤣥孫	-11.5136
富弼	-11.5137
卽位	-11.5138
瀛州刺史	-11.5138
武安侯	-11.5148
李守貞	-11.516
眞宗	-11.516
樽	-11.516
炅	-11.5162
驎	-11.5164
摘	-11.5165
撲	-11.5165
賈似道	-11.5166
唘	-11.5166
二百九十	-11.5167
啖	-11.5168
貟外郎	-11.5168
領縣三	-11.5168
圯	-11.5168
封泰山	-11.5169
一千九百	-11.5172
餐	-11.5172
中書省臣言	-11.5173
券	-11.5173
蔬食	-11.5174
韓侂胄	-11.5181
穆穆	-11.5189
諡曰忠	-11.5189
追奔	-11.5194
擊大破之	-11.5194
繫獄	-11.5197
衆庶	-11.52
舋	-11.5221
鵝	-11.5221
莱	-11.5222
湧	-11.5223
舁	-11.5225
蓍	-11.5227
庖	-11.5232
驁	-11.5241
鋹	-11.5277
芾	-11.5281
翹	-11.5284
譌	-11.5284
捶	-11.5285
㽔	-11.5297
齧	-11.53
鄖	-11.5342
兢	-11.5342
昫	-11.5343
啇	-11.5345
貰	-11.5346
虬	-11.535
鬲	-11.5351
濛	-11.5354
臭	-11.5355
从	-11.5395
琯	-11.5401
羃	-11.5406
礙	-11.5408
謠	-11.5417
弒	-11.544
稀	-11.5464
両	-11.5465
陬	-11.5466
舩	-11.5466
喚	-11.5466
甕	-11.5467
圎	-11.5468
禫	-11.5469
燼	-11.5469
鍼	-11.547
攢	-11.5471
冤	-11.5473
歿	-11.5476
蔀	-11.548
鐃	-11.5482
悞	-11.5522
潢	-11.5523
餒	-11.5526
誄	-11.5527
攬	-11.5533
隻	-11.5534
踞	-11.554
囿	-11.5542
倭	-11.5582
枹	-11.5583
陀	-11.5586
囬	-11.559
悚	-11.5591
堙	-11.5595
蹶	-11.56
驤	-11.5646
肘	-11.5647
鄠	-11.565
衎	-11.5655
矧	-11.5658
葱	-11.5659
鯀	-11.566
躋	-11.5714
訕	-11.5715
秃	-11.5716
剥	-11.5716
譁	-11.5717
泚	-11.5776
疵	-11.5779
兠	-11.5781
閠	-11.5782
瑣	-11.5782
腦	-11.5783
伋	-11.5791
偁	-11.5835
蕤	-11.5843
郿	-11.5847
逓	-11.5849
幰	-11.59
籙	-11.5903
滁	-11.5904
涖	-11.5906
笄	-11.5906
斾	-11.5908
啼	-11.5911
洹	-11.5911
襴	-11.5964
簮	-11.5966
濰	-11.5966
湼	-11.5968
泝	-11.5969
詛	-11.5974
邙	-11.5975
縠	-11.5977
駑	-11.5981
醮	-11.6029
煇	-11.6034
麓	-11.6037
擠	-11.6039
楮	-11.6046
瑠	-11.6047
靴	-11.6093
褘	-11.6097
瘴	-11.6097
暄	-11.6098
菑	-11.6104
豁	-11.6159
翅	-11.6164
譛	-11.6165
瞿	-11.6165
琇	-11.6166
騖	-11.6167
鉛	-11.6169
勺	-11.6172
洧	-11.6227
嚳	-11.623
鏃	-11.6233
態	-11.6236
諺	-11.6238
兕	-11.6238
晙	-11.624
爕	-11.624
壑	-11.6296
滉	-11.6299
慚	-11.6304
筦	-11.6305
僞	-11.6359
翫	-11.6361
臾	-11.6362
坡	-11.6365
漿	-11.6372
滎	-11.6409
螟	-11.6425
檝	-11.6428
茫	-11.6431
颺	-11.6434
幟	-11.6435
絞	-11.6435
詈	-11.6435
撞	-11.6436
詮	-11.6439
鄗	-11.6446
貊	-11.6491
殱	-11.6494
兀	-11.6495
惋	-11.6495
誇	-11.6496
髀	-11.6498
駰	-11.6499
蟻	-11.6499
掊	-11.65
鞶	-11.6501
賕	-11.6503
淇	-11.6505
㓕	-11.6507
莎	-11.6508
禺	-11.651
罇	-11.6557
襦	-11.6561
厝	-11.6567
峙	-11.6568
䋲	-11.6569
默	-11.6571
摰	-11.6573
蹄	-11.6575
逕	-11.663
璆	-11.6632
菲	-11.6633
鞬	-11.6636
葆	-11.6636
衘	-11.6637
艮	-11.6651
溧	-11.6694
澈	-11.6698
蒋	-11.6698
咄	-11.6699
偓	-11.67
韈	-11.6701
墀	-11.6702
扣	-11.6705
槊	-11.6707
纛	-11.6707
箠	-11.6711
癘	-11.6771
訂	-11.6774
匄	-11.6775
櫓	-11.6779
砲	-11.6781
鏑	-11.6788
鎖	-11.6835
鶚	-11.6838
顙	-11.6838
冏	-11.684
噉	-11.6842
羯	-11.6901
飜	-11.6904
栻	-11.6904
佇	-11.6909
件	-11.6914
蔭	-11.6914
豊	-11.6916
蕘	-11.6917
殉	-11.6918
睹	-11.6921
闚	-11.6925
森	-11.6967
冷	-11.6982
鬰	-11.6983
們	-11.6986
垢	-11.6987
耨	-11.699
吠	-11.6991
謾	-11.6994
筑	-11.6997
兌	-11.7001
鄢	-11.7043
汨	-11.7053
拆	-11.7055
衿	-11.7055
胸	-11.7057
郇	-11.706
埸	-11.7065
煮	-11.7068
璿	-11.7118
紺	-11.7127
拭	-11.7128
坫	-11.7132
珽	-11.7133
𨼆	-11.7147
剌	-11.7195
嫣	-11.7197
纉	-11.7198
耄	-11.7199
郟	-11.7203
釘	-11.7204
猝	-11.7204
雁	-11.7207
龐	-11.7211
甬	-11.7212
挑	-11.7261
隧	-11.7271
粮	-11.7271
詁	-11.7271
釀	-11.7271
彝	-11.7272
爐	-11.7273
婿	-11.7275
耒	-11.7277
絫	-11.7293
琅	-11.7337
炫	-11.7341
挟	-11.7345
鐫	-11.7346
舸	-11.7348
仞	-11.735
鈇	-11.7351
淖	-11.7353
跌	-11.7354
圻	-11.7416
洒	-11.7421
嬉	-11.7423
垍	-11.7423
閽	-11.7425
剰	-11.7426
牂	-11.7427
坻	-11.7428
掲	-11.7429
嚭	-11.7435
躔	-11.747
璵	-11.7483
柬	-11.7489
聨	-11.749
謩	-11.7495
岌	-11.7496
裾	-11.7497
髦	-11.7498
斟	-11.7508
刎	-11.7513
坂	-11.7566
鹹	-11.7567
憺	-11.7573
笳	-11.7573
闞	-11.7576
榦	-11.7577
秬	-11.7581
蒿	-11.7582
犁	-11.7587
彖	-11.7643
粒	-11.7646
鏗	-11.7646
栅	-11.7646
様	-11.7647
嘿	-11.7649
鉏	-11.7656
阨	-11.7656
沬	-11.766
透	-11.77
禖	-11.7723
媿	-11.7723
褊	-11.7724
悴	-11.7725
縢	-11.7725
篋	-11.7726
縶	-11.7726
贅	-11.7728
靁	-11.7739
欝	-11.779
晧	-11.7793
鏁	-11.7794
蹔	-11.7798
貿	-11.7798
耘	-11.7804
錐	-11.7806
髓	-11.7807
脣	-11.7808
刷	-11.7816
僇	-11.7818
佺	-11.7869
湍	-11.7874
摛	-11.7877
刈	-11.7877
糞	-11.7881
鼐	-11.7885
鮪	-11.7885
憙	-11.7891
毀	-11.7899
嵬	-11.7948
竪	-11.7951
簴	-11.7951
訶	-11.7952
肴	-11.7953
儂	-11.7954
埀	-11.7955
縋	-11.7957
匕	-11.7958
橘	-11.7958
纖	-11.7958
撾	-11.7959
塢	-11.7959
酇	-11.796
陴	-11.7963
釡	-11.7968
迸	-11.8023
㛰	-11.8031
悽	-11.8031
鑊	-11.8032
綢	-11.8033
杼	-11.8033
崤	-11.8034
詧	-11.8036
郄	-11.8038
俚	-11.804
穫	-11.804
垓	-11.804
嫚	-11.8043
炤	-11.8108
彚	-11.8109
祺	-11.8113
臠	-11.8115
悵	-11.8117
認	-11.812
蓼	-11.8121
巋	-11.8182
祅	-11.8186
衾	-11.8186
毳	-11.8186
棓	-11.8187
櫛	-11.8188
蘊	-11.8191
翩	-11.8194
蛟	-11.8194
泯	-11.8196
覦	-11.8198
梨	-11.8201
斿	-11.8265
秪	-11.8268
騭	-11.8272
鉢	-11.8273
腕	-11.8274
媒	-11.8277
涵	-11.8277
瓶	-11.8277
殪	-11.8279
椽	-11.828
䍐	-11.8281
橈	-11.8289
遹	-11.8346
憕	-11.8348
緇	-11.8351
灣	-11.8351
姧	-11.8353
怛	-11.8355
戱	-11.8355
殛	-11.8355
娠	-11.8358
豚	-11.8358
敺	-11.836
酆	-11.8362
瑭	-11.8362
概	-11.8363
邛	-11.8374
滏	-11.8428
宓	-11.8431
謔	-11.8433
闍	-11.8434
驃	-11.8435
柷	-11.8435
璇	-11.8437
甯	-11.8439
仄	-11.8439
韙	-11.844
訃	-11.844
瑤	-11.8441
氓	-11.8442
耐	-11.8443
炊	-11.8444
盞	-11.8447
刳	-11.8448
羿	-11.8449
臏	-11.8457
竺	-11.85
唾	-11.851
頵	-11.8517
侗	-11.8519
峭	-11.852
疚	-11.8521
讁	-11.8522
墅	-11.8523
寥	-11.8523
喀	-11.8523
鎻	-11.8524
匭	-11.8528
纍	-11.8534
鍪	-11.8537
躭	-11.8595
痾	-11.8596
峩	-11.86
皥	-11.8606
彎	-11.8609
赧	-11.8623
傒	-11.8642
麞	-11.8666
摽	-11.8681
線	-11.8682
幔	-11.8684
靑	-11.8686
塤	-11.8688
繭	-11.8688
鍚	-11.869
諠	-11.869
頰	-11.8691
灸	-11.8692
僦	-11.8692
煑	-11.8695
刄	-11.8695
檐	-11.8764
芟	-11.8767
轝	-11.8772
歉	-11.8774
屨	-11.8776
鳬	-11.8776
漬	-11.8778
吸	-11.8779
攄	-11.8854
㸑	-11.8857
杏	-11.8858
剔	-11.8858
昃	-11.8864
髯	-11.8864
睨	-11.8864
鼈	-11.8866
畎	-11.8867
邽	-11.8908
廙	-11.8936
帕	-11.8937
瀋	-11.8939
椁	-11.894
彜	-11.8942
轢	-11.8945
䆒	-11.8945
挂	-11.8946
瑁	-11.895
斑	-11.8953
棧	-11.8954
搢	-11.9013
嵇	-11.9025
簠	-11.9026
猖	-11.9031
豢	-11.9032
貔	-11.9033
迓	-11.9033
痍	-11.9035
粱	-11.9036
蹋	-11.9037
縗	-11.9038
蕚	-11.9041
窋	-11.9051
叉	-11.9102
悠	-11.9113
輜	-11.9116
㒺	-11.9118
暅	-11.9118
頲	-11.9119
嘔	-11.912
斆	-11.9121
餅	-11.9121
鍊	-11.9122
纊	-11.9122
愠	-11.9122
飼	-11.9126
䛕	-11.9128
盱	-11.9133
禃	-11.9136
闋	-11.9177
鍔	-11.92
祲	-11.92
鷺	-11.9201
觚	-11.9201
懃	-11.9203
迦	-11.9203
珮	-11.9204
黽	-11.9205
豺	-11.9206
㨿	-11.9206
浄	-11.9207
淯	-11.9209
嗤	-11.921
娣	-11.9211
糓	-11.9212
俳	-11.9216
鏻	-11.9222
讃	-11.9285
抹	-11.9286
掇	-11.929
樗	-11.9295
峡	-11.9296
肌	-11.9298
壍	-11.93
鉷	-11.9302
拍	-11.9305
烜	-11.9372
𥙿	-11.9375
鯨	-11.9379
緦	-11.9381
撮	-11.9381
舫	-11.9382
怵	-11.9393
氾	-11.9397
犨	-11.9404
悆	-11.9459
証	-11.947
溱	-11.9475
笥	-11.9475
窄	-11.9476
縈	-11.9478
椘	-11.9478
儷	-11.9479
茸	-11.9479
餼	-11.948
糠	-11.9481
瘁	-11.9482
茨	-11.9483
猪	-11.9483
捜	-11.9483
渇	-11.9484
夬	-11.9487
窈	-11.9488
劓	-11.9494
崈	-11.9565
祓	-11.9566
捄	-11.9566
遒	-11.9567
孑	-11.9567
縹	-11.9568
薑	-11.9568
贑	-11.9569
灊	-11.9569
珊	-11.9572
闘	-11.9574
璮	-11.9642
絛	-11.9655
瑛	-11.9656
軟	-11.9658
厙	-11.9659
汁	-11.9661
翺	-11.9662
鄄	-11.9663
繢	-11.9664
鑪	-11.9664
偪	-11.9665
硯	-11.9665
凢	-11.9665
峨	-11.9669
溼	-11.9671
蠭	-11.9672
芷	-11.9676
漣	-11.9708
峰	-11.9751
莾	-11.9753
沓	-11.9754
蜺	-11.9754
酖	-11.9754
敔	-11.9756
顚	-11.9756
墊	-11.9758
饟	-11.9769
戹	-11.977
蒨	-11.9844
捲	-11.9845
愽	-11.985
珉	-11.9851
娑	-11.9851
蜜	-11.9852
佟	-11.9853
鈿	-11.9856
虯	-11.9857
絪	-11.9933
勱	-11.994
圈	-11.994
締	-11.994
苾	-11.9942
澥	-11.9943
濩	-11.9946
儆	-11.9948
債	-11.9951
玷	-11.9952
姨	-11.9952
晊	-11.9954
阸	-11.9958
冄	-12.0028
暕	-12.0029
酸	-12.0033
澍	-12.0034
晴	-12.0035
娘	-12.0036
豔	-12.0036
堕	-12.0037
万	-12.0037
窠	-12.0037
眠	-12.0037
脁	-12.0038
綝	-12.0038
鍳	-12.0039
崑	-12.004
箸	-12.0043
豸	-12.0044
鴉	-12.0047
鯉	-12.0048
煬	-12.0071
裸	-12.0124
篥	-12.0129
摹	-12.0138
槨	-12.0138
哺	-12.0142
徤	-12.0148
篡	-12.015
齮	-12.0172
无	-12.0223
鏞	-12.0233
澮	-12.0233
逖	-12.0234
盃	-12.0234
珩	-12.0235
凑	-12.0235
昞	-12.0235
𣏌	-12.0236
𫉬	-12.0245
貉	-12.0333
菟	-12.0334
孩	-12.0337
暖	-12.0337
蝦	-12.0338
薰	-12.0339
魅	-12.0339
搴	-12.0345
焯	-12.0345
囷	-12.0422
燠	-12.0428
飈	-12.0429
碁	-12.0433
騾	-12.0433
麝	-12.0435
查	-12.0438
湎	-12.0439
惴	-12.0439
瑚	-12.0439
鶡	-12.0442
竅	-12.0443
岫	-12.0445
眊	-12.0445
肖	-12.0471
灃	-12.0517
閟	-12.0534
穉	-12.0537
詖	-12.0538
嶮	-12.0538
臆	-12.0539
軿	-12.054
頔	-12.0542
尙	-12.0542
壖	-12.0542
蜡	-12.0546
茀	-12.0549
鍮	-12.0617
崘	-12.0623
湫	-12.0624
釵	-12.063
儐	-12.063
翥	-12.0631
聃	-12.0632
埃	-12.0634
瀍	-12.0636
帙	-12.0636
堞	-12.0639
迕	-12.0641
踴	-12.0643
糟	-12.0643
脛	-12.0645
票	-12.0652
乣	-12.0655
倕	-12.0732
𠂻	-12.0736
泠	-12.0739
禜	-12.0741
眄	-12.0741
泳	-12.0742
瀚	-12.0742
侁	-12.0744
喙	-12.0744
鄊	-12.075
戟	-12.0753
秣	-12.0834
撙	-12.0837
伾	-12.0838
沌	-12.0839
甿	-12.0841
鬢	-12.0844
瘼	-12.0844
罘	-12.0846
洫	-12.0848
沭	-12.0853
缶	-12.0855
媾	-12.0875
腋	-12.0946
梵	-12.0948
嶸	-12.0949
廆	-12.0949
嶧	-12.0951
榭	-12.0951
楞	-12.0952
蹟	-12.0953
爱	-12.0953
㢮	-12.0954
劑	-12.0954
襈	-12.0956
鋸	-12.0958
繚	-12.0958
祟	-12.0961
鼗	-12.0964
觶	-12.1039
氍	-12.1047
韞	-12.1051
玭	-12.1052
睠	-12.1053
倅	-12.1055
箋	-12.1055
酎	-12.1056
衽	-12.1057
棒	-12.1059
鈍	-12.106
蹊	-12.1061
螽	-12.1062
垠	-12.1063
晳	-12.1065
龠	-12.1068
耦	-12.1068
跖	-12.107
彀	-12.1071
氅	-12.1078
逌	-12.1157
恠	-12.1158
党	-12.1161
碌	-12.1162
埭	-12.1163
殲	-12.1163
呪	-12.1166
緹	-12.1166
娱	-12.1166
頎	-12.1168
吿	-12.1168
喋	-12.1169
楙	-12.117
斵	-12.1171
磑	-12.1171
杠	-12.1172
軄	-12.1269
哇	-12.127
勦	-12.127
黻	-12.127
竑	-12.1271
忒	-12.1273
厓	-12.1274
瞑	-12.1274
狠	-12.1275
隼	-12.1275
冨	-12.1276
氈	-12.1278
蓐	-12.1278
臼	-12.1278
翮	-12.1278
鷰	-12.1279
絺	-12.1279
鍜	-12.128
渤	-12.1366
繅	-12.1372
棻	-12.1377
芥	-12.138
槽	-12.1382
桴	-12.1382
慾	-12.1385
趍	-12.1385
糗	-12.1387
嗛	-12.1387
倐	-12.1387
勗	-12.1387
沱	-12.1387
迤	-12.1388
嶼	-12.1388
賵	-12.1389
殳	-12.1392
枷	-12.1393
蘧	-12.1396
轘	-12.1396
媼	-12.1397
寬	-12.141
窶	-12.1477
壩	-12.1485
茵	-12.1489
脇	-12.1492
濊	-12.1493
獺	-12.1494
癃	-12.1495
􁁊	-12.1496
玖	-12.1496
爚	-12.1497
儛	-12.1501
噍	-12.1502
溷	-12.1503
煖	-12.1509
摠	-12.1596
菴	-12.1599
份	-12.16
琊	-12.16
虺	-12.1602
玢	-12.1604
劎	-12.1605
熏	-12.1608
愎	-12.161
漷	-12.1613
賃	-12.1613
藜	-12.1617
蹻	-12.1618
惔	-12.1712
箇	-12.1715
掛	-12.1716
擎	-12.1717
淆	-12.172
軋	-12.1721
壙	-12.1721
佽	-12.1725
玦	-12.1726
瑑	-12.1726
腫	-12.173
刊	-12.1731
獫	-12.1731
碣	-12.1821
璝	-12.1825
穡	-12.1838
淘	-12.1842
緤	-12.1845
跂	-12.1847
筐	-12.1853
溲	-12.1853
偘	-12.1939
頋	-12.1943
傘	-12.1943
憬	-12.1947
璡	-12.1948
璫	-12.1949
熒	-12.1952
孱	-12.1953
㲄	-12.1954
痺	-12.1955
暘	-12.1956
枋	-12.1958
芍	-12.196
伃	-12.196
鍠	-12.1963
㮚	-12.2056
蠢	-12.2061
殍	-12.2064
崞	-12.2064
塜	-12.2065
扉	-12.2067
狸	-12.2067
匐	-12.2068
甑	-12.2069
菁	-12.207
嘲	-12.207
蒞	-12.2071
羨	-12.2072
埤	-12.2072
凰	-12.2074
朢	-12.2075
饉	-12.2076
礮	-12.2076
狁	-12.208
沇	-12.2082
刖	-12.2092
梲	-12.2169
綯	-12.2179
袞	-12.2183
扁	-12.2185
翬	-12.2187
箎	-12.2189
泮	-12.2189
杵	-12.219
侣	-12.2191
蟜	-12.2192
曖	-12.2193
褰	-12.2195
燥	-12.2195
迯	-12.2199
畦	-12.2203
猴	-12.23
徔	-12.2304
鷂	-12.2306
屣	-12.2306
恟	-12.2307
頷	-12.2307
紕	-12.2308
筞	-12.2309
瘦	-12.231
豬	-12.2311
壄	-12.2311
淩	-12.2312
踣	-12.2314
䍧	-12.2314
狃	-12.2315
煒	-12.2316
曆	-12.2322
侖	-12.2415
肜	-12.2418
鄞	-12.2426
瀝	-12.2426
獬	-12.2427
袐	-12.243
煚	-12.2432
遶	-12.2432
悸	-12.2433
傔	-12.2435
浣	-12.2438
焞	-12.2439
慴	-12.244
卉	-12.244
㦯	-12.2441
嶢	-12.2443
夐	-12.2444
聵	-12.2455
妥	-12.2543
佖	-12.2547
悶	-12.255
夤	-12.2551
鋤	-12.2554
梢	-12.2555
郛	-12.2555
腑	-12.2556
緍	-12.2558
鈒	-12.2558
觖	-12.2559
璃	-12.2561
攅	-12.2562
掞	-12.2563
塩	-12.2567
諄	-12.2571
穨	-12.2572
筏	-12.2676
毉	-12.2678
鏜	-12.2679
鞞	-12.2679
隤	-12.2681
憸	-12.2681
綈	-12.2682
苐	-12.2683
啗	-12.2683
瞰	-12.2687
侠	-12.2689
腥	-12.2691
螫	-12.2693
簧	-12.2787
隲	-12.2793
枵	-12.2794
届	-12.2797
癡	-12.28
鄚	-12.2801
酹	-12.2803
酢	-12.2803
崗	-12.2804
獅	-12.2804
倘	-12.2805
㗖	-12.2805
壟	-12.2806
纚	-12.2806
伷	-12.2806
酪	-12.2808
礫	-12.2808
抉	-12.2811
秭	-12.2818
莞	-12.2921
堠	-12.2927
悳	-12.2929
窳	-12.293
隃	-12.2931
蠅	-12.2931
翀	-12.2932
璪	-12.2934
獷	-12.2934
掣	-12.2934
醒	-12.2935
懣	-12.2935
愜	-12.2938
擄	-12.2938
盲	-12.2941
蓽	-12.2942
騑	-12.2946
妒	-12.2948
犛	-12.2949
魴	-12.3058
扄	-12.3058
渢	-12.3061
雊	-12.3061
掎	-12.3062
莵	-12.3063
玊	-12.3064
适	-12.3064
凛	-12.3064
揔	-12.3064
鵰	-12.3065
个	-12.3065
瞎	-12.3073
牾	-12.3074
椅	-12.318
騮	-12.3189
韍	-12.319
枳	-12.3191
卹	-12.3192
矍	-12.3193
躓	-12.3195
娭	-12.3196
瑯	-12.3196
烱	-12.3197
癰	-12.3198
醬	-12.3198
醋	-12.32
曮	-12.32
㦲	-12.3201
竽	-12.3201
誹	-12.3203
壠	-12.3206
鎗	-12.3208
筰	-12.322
霣	-12.3304
舖	-12.3322
溵	-12.3322
餗	-12.3323
縡	-12.3325
睡	-12.3326
聯	-12.3327
櫂	-12.3328
鑕	-12.3328
徠	-12.3328
琥	-12.3328
刮	-12.3329
慊	-12.3332
郪	-12.3333
哽	-12.3333
筴	-12.3336
旤	-12.3338
巂	-12.3338
搤	-12.3338
樅	-12.3339
臚	-12.3343
娉	-12.3455
紋	-12.3456
粧	-12.3456
狷	-12.3462
刹	-12.3462
崎	-12.3463
簟	-12.3465
磯	-12.3466
穽	-12.3466
剗	-12.3466
紈	-12.3466
坼	-12.3466
遨	-12.3467
擴	-12.347
鷩	-12.3585
􁋢	-12.359
葅	-12.3594
袵	-12.3597
郜	-12.3598
鑣	-12.3598
鐙	-12.3599
着	-12.36
鏖	-12.3601
櫬	-12.3601
淸	-12.3601
删	-12.3602
茭	-12.3603
湓	-12.3606
颯	-12.3608
靚	-12.361
漯	-12.361
藿	-12.3611
鋌	-12.3611
怱	-12.3614
頫	-12.3725
俁	-12.3727
䄂	-12.3728
眺	-12.3733
觱	-12.3733
棐	-12.3733
栩	-12.3736
䴥	-12.3737
菹	-12.3738
聪	-12.3738
蔕	-12.3738
塊	-12.3739
姥	-12.3743
鈆	-12.3745
𦍑	-12.3746
峘	-12.3747
碾	-12.3747
蓉	-12.3748
誖	-12.3748
笮	-12.3748
薫	-12.3748
狭	-12.3748
陿	-12.3751
犍	-12.3765
噪	-12.3872
筍	-12.3878
筩	-12.3878
戕	-12.3879
洄	-12.3879
衒	-12.388
刅	-12.388
嶇	-12.3883
蕙	-12.3885
棹	-12.3887
鋋	-12.3891
蚩	-12.3891
𦕈	-12.3893
滸	-12.4016
裼	-12.4018
儵	-12.4019
荻	-12.402
宂	-12.402
儕	-12.402
鳶	-12.4021
嵊	-12.4021
溟	-12.4023
篾	-12.4024
弹	-12.4027
娯	-12.4029
喘	-12.4029
邰	-12.4029
脾	-12.403
姁	-12.4031
櫝	-12.404
䦨	-12.4161
澁	-12.417
撿	-12.4171
兑	-12.4171
腴	-12.4173
懟	-12.4173
蛤	-12.4173
憊	-12.4174
顕	-12.4176
轓	-12.4306
諴	-12.4307
陥	-12.4313
捽	-12.4313
𠡠	-12.4314
筝	-12.4316
菊	-12.4317
唇	-12.4317
蕞	-12.4317
喁	-12.4319
揜	-12.4324
曳	-12.4326
騂	-12.4327
龑	-12.4328
掉	-12.4329
爨	-12.4329
浿	-12.433
駹	-12.4332
喏	-12.4333
黶	-12.4338
煉	-12.4459
襁	-12.4463
弈	-12.4464
閥	-12.4467
廱	-12.4468
刲	-12.4468
燃	-12.4471
縵	-12.4472
盼	-12.4473
倢	-12.4475
輈	-12.4475
莋	-12.4481
銍	-12.4485
軺	-12.4534
恙	-12.4593
韡	-12.4599
櫃	-12.4602
潏	-12.4606
芸	-12.4608
霾	-12.4609
郫	-12.4611
啻	-12.4612
秸	-12.4613
蟾	-12.4613
艫	-12.4614
圩	-12.4614
棚	-12.4614
肣	-12.4614
翛	-12.4615
滈	-12.4615
阽	-12.4617
豉	-12.4618
派	-12.4619
鑽	-12.4622
刧	-12.4622
牁	-12.4624
晸	-12.4626
杅	-12.4628
犖	-12.4645
焰	-12.4739
醆	-12.4741
窻	-12.4758
磝	-12.4758
璀	-12.4761
墠	-12.4761
䙝	-12.4763
壼	-12.4766
讋	-12.4768
蹷	-12.477
洿	-12.4772
嚢	-12.4773
噫	-12.4773
闒	-12.4775
窕	-12.4776
肻	-12.478
黿	-12.478
㬥	-12.4781
紲	-12.4781
糲	-12.4781
柟	-12.4781
醪	-12.4782
恧	-12.4784
碻	-12.4915
鉶	-12.4918
阼	-12.4918
嫄	-12.4922
児	-12.4922
犴	-12.4922
胯	-12.4923
捃	-12.4923
鯢	-12.4924
斁	-12.4925
爇	-12.4926
珫	-12.4928
魋	-12.4931
髣	-12.4931
窒	-12.4932
瀦	-12.4933
恇	-12.4933
皿	-12.4934
鄘	-12.4936
絝	-12.494
駼	-12.4943
㚟	-12.4944
潾	-12.5071
晈	-12.5071
瀧	-12.508
賭	-12.5081
覡	-12.5082
稾	-12.5086
沫	-12.5086
㩁	-12.5089
紡	-12.509
兜	-12.509
媮	-12.5091
螻	-12.5092
熛	-12.5094
芙	-12.5095
駘	-12.5098
牱	-12.51
諝	-12.51
褕	-12.5103
麽	-12.5229
鞋	-12.5233
湩	-12.5235
莆	-12.5235
㢤	-12.5238
棨	-12.5239
頺	-12.5239
畵	-12.5239
揷	-12.5241
禅	-12.5242
靼	-12.5243
暝	-12.5247
箏	-12.5247
培	-12.5248
倓	-12.5248
卾	-12.5249
髴	-12.525
晻	-12.5252
騏	-12.5254
皦	-12.5255
儗	-12.5257
袪	-12.5258
盭	-12.5258
秤	-12.5264
澳	-12.5388
鍍	-12.5393
淦	-12.5398
郕	-12.5402
幃	-12.5403
吻	-12.5404
㥄	-12.5405
㬰	-12.5406
鍇	-12.5407
挿	-12.5408
猫	-12.5408
讟	-12.5409
掦	-12.541
餔	-12.541
軨	-12.541
賖	-12.5411
椹	-12.5413
楛	-12.5416
閿	-12.5417
籛	-12.5418
喆	-12.542
􁪒	-12.5422
櫺	-12.5562
廞	-12.5563
悮	-12.5563
棱	-12.5566
㩀	-12.557
齪	-12.5571
旛	-12.5571
褻	-12.5571
燬	-12.5572
术	-12.5573
翃	-12.5574
祸	-12.5574
湝	-12.5577
屡	-12.5577
倬	-12.5578
熺	-12.5578
駵	-12.5578
縟	-12.5579
襪	-12.558
盝	-12.558
戇	-12.558
萄	-12.558
媧	-12.5581
恍	-12.5582
糒	-12.5584
飱	-12.5585
畮	-12.5587
槁	-12.5587
蟣	-12.559
啄	-12.574
憇	-12.5742
蓨	-12.5744
褁	-12.5744
憮	-12.5745
㐫	-12.5747
莩	-12.5748
瑨	-12.5748
溶	-12.5752
扺	-12.5754
虓	-12.5755
㓙	-12.5755
齕	-12.5759
廄	-12.5762
岊	-12.5775
篳	-12.5906
畸	-12.5906
襯	-12.5907
嗷	-12.5911
㪷	-12.5912
昝	-12.5916
翽	-12.5918
茌	-12.5919
鴦	-12.592
斮	-12.5923
灞	-12.5923
趺	-12.5923
廏	-12.5923
蝨	-12.5925
开	-12.5926
洸	-12.5927
遫	-12.593
浟	-12.5931
琉	-12.5932
䃭	-12.5932
獘	-12.5936
騊	-12.5936
錞	-12.5937
崱	-12.6078
蒜	-12.6084
螣	-12.6084
傉	-12.6087
飡	-12.6087
嘻	-12.6091
吃	-12.6093
屛	-12.6093
骼	-12.6093
麫	-12.6093
遛	-12.6093
屩	-12.6095
堊	-12.6095
桉	-12.6096
挍	-12.6097
鵞	-12.6097
妺	-12.6098
杪	-12.6098
蒔	-12.6099
櫜	-12.61
躐	-12.6101
鐔	-12.6104
麄	-12.6104
鄼	-12.6106
桷	-12.6107
郈	-12.6122
縚	-12.6259
紼	-12.626
终	-12.6264
屐	-12.6264
帨	-12.6267
僨	-12.6269
饕	-12.6271
厦	-12.6271
慠	-12.6272
竢	-12.6273
鼙	-12.6275
崐	-12.6275
瀏	-12.6276
澂	-12.6279
黏	-12.6282
恡	-12.6283
諦	-12.6284
鼂	-12.6284
瑴	-12.6286
羖	-12.6288
炮	-12.6296
痤	-12.6308
籕	-12.6433
楗	-12.6441
棁	-12.6444
吮	-12.6445
僎	-12.6448
埏	-12.6448
皖	-12.6449
臍	-12.645
胔	-12.6453
熖	-12.6454
泫	-12.6454
甓	-12.6455
澇	-12.6456
藐	-12.6457
梃	-12.6458
煨	-12.646
佼	-12.6461
塾	-12.6461
貍	-12.6461
慥	-12.6462
拖	-12.6462
訏	-12.6463
腎	-12.6464
蕢	-12.6465
拷	-12.6466
繻	-12.6466
愖	-12.6472
瞞	-12.6484
墯	-12.6627
翡	-12.6633
剴	-12.6635
猿	-12.6635
螺	-12.6636
昀	-12.6636
淅	-12.6636
眭	-12.6636
闟	-12.6637
舳	-12.6639
棋	-12.6639
瘖	-12.6641
㤀	-12.6641
蘖	-12.6641
旐	-12.6641
燁	-12.6642
煴	-12.6642
玳	-12.6642
觝	-12.6645
縲	-12.6647
褠	-12.6648
緼	-12.6649
莧	-12.6649
瓢	-12.6653
毐	-12.6654
遅	-12.6654
斄	-12.6656
葷	-12.6657
闐	-12.6801
璲	-12.681
簇	-12.6813
雛	-12.6817
淬	-12.682
憒	-12.6821
皝	-12.6821
偲	-12.6823
儈	-12.6825
燦	-12.6825
獮	-12.6825
繄	-12.6826
蒱	-12.6827
撼	-12.6827
痼	-12.6827
咱	-12.6828
鸇	-12.6828
韐	-12.6829
遄	-12.683
詒	-12.683
宷	-12.6831
栽	-12.6831
珝	-12.6832
虙	-12.6832
塼	-12.6834
塈	-12.6835
满	-12.6835
蒍	-12.6836
嶓	-12.6837
剸	-12.684
刦	-12.6845
翣	-12.6988
戣	-12.7004
藎	-12.7008
棃	-12.7012
龢	-12.7014
隟	-12.7015
蹴	-12.7016
懔	-12.7016
夥	-12.7016
磊	-12.7016
䠞	-12.7017
濃	-12.7018
笠	-12.7021
炯	-12.7021
慍	-12.7021
佷	-12.7022
辮	-12.7023
霓	-12.7024
瞀	-12.7024
澀	-12.7025
侏	-12.7026
鄶	-12.7027
芋	-12.7029
燄	-12.7029
鄃	-12.703
矰	-12.703
禨	-12.7031
頟	-12.7031
筒	-12.7035
浞	-12.7036
煽	-12.7037
娼	-12.7048
跽	-12.7202
晰	-12.7203
噠	-12.7206
粘	-12.721
褫	-12.721
賨	-12.7213
蟇	-12.7214
霤	-12.7214
仵	-12.7215
麈	-12.7215
鬛	-12.7216
酅	-12.7217
歊	-12.7217
嗾	-12.7218
洨	-12.7218
棫	-12.722
𨗳	-12.722
㚖	-12.722
𨳩	-12.722
慺	-12.722
槥	-12.7221
狙	-12.7224
閡	-12.7224
祊	-12.7229
泱	-12.7229
藕	-12.723
轔	-12.723
栒	-12.7231
鶩	-12.7234
瞶	-12.726
柰	-12.7399
灝	-12.7404
覔	-12.7404
疹	-12.7407
滴	-12.741
䞇	-12.7411
湔	-12.7413
垜	-12.7415
虒	-12.7415
薇	-12.7416
蠆	-12.7416
帔	-12.7416
斚	-12.7417
牷	-12.7417
薈	-12.7417
莢	-12.7419
讇	-12.7421
澱	-12.7424
羹	-12.7427
蹏	-12.7427
椀	-12.7427
宙	-12.7428
肸	-12.743
鵒	-12.7431
攣	-12.7433
騠	-12.7434
鴞	-12.7434
脽	-12.7441
猋	-12.7444
菱	-12.7604
鄮	-12.761
塑	-12.7612
址	-12.7612
諐	-12.7614
圮	-12.7615
妍	-12.7616
尖	-12.7617
殮	-12.7619
臝	-12.762
緖	-12.7621
彷	-12.7621
姫	-12.7622
麩	-12.7622
蘋	-12.7622
肹	-12.7622
蹉	-12.7624
邲	-12.7624
𥘉	-12.7625
絙	-12.7627
咀	-12.7627
諏	-12.7627
樛	-12.7628
雱	-12.7628
貙	-12.7629
煌	-12.7629
赳	-12.7631
顆	-12.7632
陔	-12.7633
扑	-12.7633
鄀	-12.7633
𣪚	-12.7633
柚	-12.7633
瓮	-12.7634
駃	-12.7638
褶	-12.7671
逭	-12.7815
帀	-12.7819
欹	-12.7819
匯	-12.782
袝	-12.7823
緌	-12.7824
𤯝	-12.7824
驊	-12.7826
祛	-12.7826
筯	-12.7826
𠫭	-12.7827
釃	-12.7828
傖	-12.7828
奩	-12.783
拏	-12.7833
栰	-12.7834
涂	-12.7835
脆	-12.7835
鏦	-12.7836
鰥	-12.7836
杷	-12.7836
摸	-12.7837
嬙	-12.7838
窖	-12.7838
卲	-12.784
醳	-12.784
坌	-12.7843
嬗	-12.7843
謄	-12.7844
鸜	-12.7845
銛	-12.7846
鄔	-12.785
鼉	-12.7852
哆	-12.7853
蘩	-12.8008
磾	-12.8016
墌	-12.802
堇	-12.8026
禡	-12.8032
菩	-12.8033
蠁	-12.8035
惬	-12.8037
穪	-12.8039
軛	-12.8039
猨	-12.8039
掆	-12.804
聾	-12.8041
莬	-12.8041
暎	-12.8042
暱	-12.8042
桁	-12.8044
滓	-12.8044
犄	-12.8047
霈	-12.8047
僥	-12.8047
匍	-12.8047
苫	-12.8048
咤	-12.8048
萍	-12.8049
牴	-12.805
籞	-12.805
碉	-12.805
鋗	-12.8055
槌	-12.8244
犲	-12.8247
蝝	-12.8248
芃	-12.8253
柞	-12.8253
猊	-12.8254
曁	-12.8254
獯	-12.8254
黝	-12.8254
颶	-12.8255
蕉	-12.8256
崛	-12.8256
蟹	-12.8256
劬	-12.8257
䡄	-12.8258
涅	-12.8258
滬	-12.8258
毦	-12.8258
岩	-12.8259
碓	-12.826
鴛	-12.8261
粢	-12.8261
瘉	-12.8261
蹵	-12.8262
鹻	-12.8262
惚	-12.8262
帟	-12.8263
搒	-12.8264
耜	-12.8265
膊	-12.8265
忼	-12.8267
掄	-12.8268
隁	-12.8269
吼	-12.827
琁	-12.827
罃	-12.8271
瀉	-12.8271
慬	-12.8271
倮	-12.8272
羑	-12.8273
麃	-12.8277
楶	-12.846
寀	-12.847
蛾	-12.847
洊	-12.8471
霿	-12.8473
町	-12.8473
粳	-12.8474
綖	-12.8474
痊	-12.8475
漼	-12.8477
茗	-12.8478
黌	-12.8479
蝮	-12.848
㟁	-12.848
戞	-12.8482
幻	-12.8482
逷	-12.8483
秔	-12.8483
鮒	-12.8484
愀	-12.8485
闓	-12.8485
毖	-12.8485
躅	-12.8487
囑	-12.8488
晶	-12.8489
聫	-12.849
漉	-12.8491
峪	-12.8492
烙	-12.8494
訝	-12.8497
悊	-12.8498
絓	-12.8498
跗	-12.8499
瑰	-12.8499
㸔	-12.8501
捫	-12.8503
墬	-12.8505
髡	-12.8543
翌	-12.8691
橛	-12.8695
呐	-12.8697
萹	-12.8699
鄕	-12.87
籖	-12.8704
搶	-12.8705
攤	-12.8706
乜	-12.8706
現	-12.8707
醯	-12.8707
媟	-12.8708
忙	-12.8709
胊	-12.8709
剃	-12.871
帢	-12.8711
杌	-12.8711
剩	-12.8713
睒	-12.8714
耤	-12.8714
曝	-12.8717
嚼	-12.8717
毌	-12.8718
僂	-12.8721
淝	-12.8725
刓	-12.8728
駔	-12.8728
絨	-12.8928
叫	-12.8932
滻	-12.8936
窆	-12.8936
褧	-12.8937
悒	-12.8937
咩	-12.8938
溍	-12.8939
哂	-12.8941
錬	-12.8941
馛	-12.8941
関	-12.8941
缾	-12.8942
鄲	-12.8942
袛	-12.8943
禩	-12.8945
筈	-12.8945
旼	-12.8945
齓	-12.8946
耰	-12.8946
珦	-12.8947
儺	-12.8947
餧	-12.8947
㕑	-12.8947
傜	-12.8947
辥	-12.8948
箔	-12.8949
璸	-12.8949
窴	-12.8949
芊	-12.8949
澡	-12.8949
妲	-12.8953
襜	-12.8953
釜	-12.8957
鯫	-12.897
簞	-12.8974
鄱	-12.9146
遡	-12.9163
閈	-12.9168
茝	-12.9169
筲	-12.9169
㝏	-12.917
賙	-12.9173
綟	-12.9174
鍵	-12.9174
恰	-12.9175
剙	-12.9175
濂	-12.9175
夣	-12.9175
礎	-12.9176
猒	-12.9177
廽	-12.9177
竂	-12.9177
韝	-12.9178
佻	-12.9178
愞	-12.918
拽	-12.918
簷	-12.9181
旴	-12.9181
另	-12.9182
腯	-12.9183
趫	-12.9183
扛	-12.9183
坪	-12.9184
淶	-12.9185
滲	-12.9185
誾	-12.9185
慼	-12.9186
桮	-12.9188
跛	-12.9189
䚢	-12.919
柢	-12.9191
撟	-12.9191
臬	-12.9191
嵯	-12.9192
崢	-12.9192
橙	-12.9196
䰞	-12.9198
鬪	-12.9202
輴	-12.9391
鷟	-12.9404
鈸	-12.9405
揉	-12.9413
忮	-12.9414
圏	-12.9416
旍	-12.9416
梳	-12.9416
汊	-12.942
眥	-12.9421
湞	-12.9421
晤	-12.9422
櫻	-12.9422
蜑	-12.9422
瘵	-12.9423
仿	-12.9423
磎	-12.9423
漦	-12.9423
飤	-12.9423
鵾	-12.9424
渫	-12.9425
琱	-12.9425
叵	-12.9426
焭	-12.9426
蝟	-12.9426
昩	-12.9428
􁌘	-12.9428
榱	-12.9428
埜	-12.9433
抛	-12.9434
躄	-12.9435
㰱	-12.9436
攏	-12.9437
嚚	-12.9437
蔗	-12.9438
蹠	-12.9442
逅	-12.9444
泜	-12.9445
欃	-12.9453
洌	-12.9652
姐	-12.9659
搥	-12.966
𬒳	-12.9661
尫	-12.9667
仔	-12.9668
蜼	-12.967
眡	-12.967
膋	-12.967
矼	-12.9672
祋	-12.9672
搔	-12.9672
姆	-12.9673
簨	-12.9674
饘	-12.9674
玕	-12.9675
罩	-12.9675
擡	-12.9675
旟	-12.9675
茄	-12.9675
牣	-12.9675
揵	-12.9675
詼	-12.9675
顱	-12.9676
熨	-12.9677
謼	-12.9677
揲	-12.9678
寞	-12.9678
羇	-12.9679
犦	-12.968
枲	-12.9681
洭	-12.9681
姉	-12.9682
倔	-12.9684
鬴	-12.9684
摺	-12.9685
晢	-12.9686
兊	-12.9687
矇	-12.9688
羝	-12.9697
冘	-12.9904
𤾉	-12.9914
偈	-12.9919
塚	-12.9922
襠	-12.9923
咷	-12.9924
咒	-12.9924
酗	-12.9925
价	-12.9925
鬷	-12.9926
尠	-12.9926
仝	-12.9927
榔	-12.9927
荃	-12.9928
咏	-12.9928
矚	-12.9931
檮	-12.9932
畬	-12.9932
痕	-12.9933
逶	-12.9934
盻	-12.9935
霏	-12.9936
罟	-12.9936
擘	-12.9936
薁	-12.9936
隩	-12.9938
裦	-12.9938
鄡	-12.9941
腳	-12.9942
檣	-12.9943
罌	-12.9945
忸	-12.9945
輳	-12.9948
怦	-12.9952
禊	-13.0182
褏	-13.0185
禿	-13.0186
嗚	-13.0187
淥	-13.0188
憝	-13.0189
荏	-13.019
盌	-13.019
觿	-13.019
沗	-13.0192
韭	-13.0192
惓	-13.0192
吒	-13.0192
肈	-13.0192
冺	-13.0193
𬗟	-13.0194
奡	-13.0194
蓚	-13.0195
鰓	-13.0199
嬃	-13.02
趋	-13.0201
葘	-13.0201
鞵	-13.0203
跼	-13.0203
燋	-13.0205
缻	-13.0206
呴	-13.0209
央	-13.0407
昰	-13.0436
臑	-13.0438
髹	-13.0448
芹	-13.0449
筌	-13.045
繦	-13.0451
霰	-13.0453
惮	-13.0453
埳	-13.0455
菌	-13.0455
綮	-13.0457
欎	-13.0461
蚊	-13.0463
腆	-13.0465
㷀	-13.0465
勠	-13.0465
嫖	-13.0465
啐	-13.0465
歘	-13.0467
楠	-13.0467
屹	-13.0468
瀬	-13.0468
瘐	-13.0471
膾	-13.0472
窬	-13.0472
攫	-13.0472
塌	-13.0473
爍	-13.0473
飫	-13.0475
胝	-13.0479
鱉	-13.0481
䭾	-13.0483
甽	-13.0725
靄	-13.0726
栲	-13.0727
囤	-13.0728
􁨑	-13.073
噤	-13.073
唅	-13.073
饍	-13.0731
鼇	-13.0731
糖	-13.0731
吊	-13.0732
緗	-13.0732
唶	-13.0734
畚	-13.0735
氲	-13.0736
䘖	-13.0736
霹	-13.0737
糊	-13.0737
稲	-13.0737
嘘	-13.0737
脰	-13.0737
靂	-13.0737
阯	-13.0738
檟	-13.0739
嵎	-13.0741
懵	-13.0742
菆	-13.0743
𤦺	-13.0743
帆	-13.0743
鮦	-13.0743
挐	-13.0744
柑	-13.0744
毘	-13.0744
沕	-13.0744
腊	-13.0744
砮	-13.0745
怳	-13.0745
鄫	-13.0746
瀾	-13.0746
贐	-13.0746
橑	-13.0747
柝	-13.0747
嚙	-13.0748
痿	-13.0748
熠	-13.0748
轎	-13.0748
嚻	-13.0749
悺	-13.0749
畯	-13.075
輵	-13.0751
臿	-13.0751
鑚	-13.0753
冑	-13.0753
丌	-13.0756
蝻	-13.0989
魔	-13.1015
鞓	-13.1017
踧	-13.1017
沍	-13.1017
鍤	-13.102
些	-13.1021
檉	-13.1022
虫	-13.1024
桶	-13.1024
俈	-13.1025
蘿	-13.1026
尒	-13.1026
昛	-13.1026
喈	-13.1027
跬	-13.1028
堦	-13.1028
僄	-13.1029
閙	-13.103
酳	-13.103
翂	-13.103
鐶	-13.103
獪	-13.103
崆	-13.1031
獍	-13.1031
拄	-13.1032
憔	-13.1032
鞌	-13.1033
珀	-13.1033
惛	-13.1033
磻	-13.1033
跱	-13.1034
怫	-13.1034
螾	-13.1035
偫	-13.1035
徨	-13.1035
眙	-13.1036
諉	-13.1036
鞘	-13.1039
蒺	-13.1039
娃	-13.1041
嶭	-13.1042
蜒	-13.1044
泲	-13.1302
􁆸	-13.1303
薿	-13.1307
惵	-13.1307
巍	-13.1308
膢	-13.131
蛭	-13.131
皃	-13.131
謌	-13.131
㺯	-13.131
擗	-13.1312
萼	-13.1312
謜	-13.1313
賒	-13.1314
櫨	-13.1314
𬒮	-13.1316
搦	-13.1317
𥙷	-13.1317
溆	-13.1317
灅	-13.1318
暍	-13.1319
敻	-13.132
聆	-13.132
芈	-13.1321
濘	-13.1322
倜	-13.1322
喑	-13.1322
枌	-13.1324
硬	-13.1325
麑	-13.1325
滹	-13.1326
𤨏	-13.1327
霫	-13.1328
𢃄	-13.1328
疝	-13.1331
閶	-13.1331
揄	-13.1333
蜮	-13.1337
瞋	-13.1338
廁	-13.134
齗	-13.134
靬	-13.135
稗	-13.1589
砰	-13.1602
么	-13.1606
澠	-13.1612
戬	-13.1612
柿	-13.1612
藂	-13.1615
洳	-13.1616
鶂	-13.1616
遝	-13.1617
睂	-13.1617
净	-13.1618
巔	-13.1618
睫	-13.1619
瀼	-13.162
祤	-13.162
飴	-13.162
潺	-13.1621
纈	-13.1621
秺	-13.1622
䢴	-13.1623
咈	-13.1623
傚	-13.1623
苓	-13.1624
絍	-13.1624
􁃵	-13.1624
磚	-13.1625
煢	-13.1625
騃	-13.1625
睶	-13.1626
撣	-13.1627
脤	-13.1627
粃	-13.1627
咳	-13.1628
貣	-13.1629
萎	-13.163
蔞	-13.163
剉	-13.163
菓	-13.1631
鵶	-13.1631
忖	-13.1631
插	-13.1632
糅	-13.1633
㳙	-13.1634
澌	-13.1634
欷	-13.1634
恫	-13.1636
鄳	-13.1636
沲	-13.1637
閌	-13.1638
擥	-13.1644
牕	-13.192
穸	-13.1921
靦	-13.1922
黟	-13.1925
腄	-13.1925
芘	-13.1925
喤	-13.1929
耋	-13.1929
㝎	-13.193
壌	-13.193
茙	-13.193
丱	-13.1931
錙	-13.1932
鮫	-13.1933
单	-13.1934
蚓	-13.1934
匽	-13.1935
袜	-13.1935
婪	-13.1935
闉	-13.1935
鑛	-13.1936
惸	-13.1936
𫀆	-13.1938
肋	-13.1938
礿	-13.1939
戦	-13.1939
䑛	-13.194
耉	-13.1941
磽	-13.1941
胞	-13.1942
轜	-13.1943
阡	-13.1943
麵	-13.1944
攙	-13.1944
廚	-13.1944
䰟	-13.1945
褭	-13.1945
贜	-13.1946
肓	-13.1946
换	-13.1947
覯	-13.1947
睇	-13.1948
姞	-13.195
魑	-13.195
蹌	-13.195
厩	-13.195
咺	-13.1953
韉	-13.1953
柙	-13.1954
蜿	-13.1954
𤇺	-13.1954
髭	-13.1955
瞳	-13.1956
偰	-13.1965
嬛	-13.1968
翖	-13.1973
琸	-13.2243
睟	-13.2243
楓	-13.2244
騤	-13.2246
蛙	-13.2246
柶	-13.2247
鷁	-13.225
㽅	-13.225
歧	-13.2251
倧	-13.2251
虁	-13.2251
匜	-13.2251
抺	-13.2252
漑	-13.2253
樣	-13.2254
卣	-13.2254
甾	-13.2255
疢	-13.2255
你	-13.2256
卸	-13.2258
坰	-13.2259
歃	-13.2259
艶	-13.2259
睽	-13.226
釧	-13.226
禔	-13.226
蘂	-13.226
宁	-13.2261
嘶	-13.2261
娀	-13.2261
觽	-13.2262
蘢	-13.2262
帚	-13.2263
綫	-13.2263
堨	-13.2263
楪	-13.2264
疥	-13.2264
嵕	-13.2265
薶	-13.2265
彠	-13.2266
盬	-13.2267
芰	-13.2268
䥖	-13.2268
暌	-13.2269
袷	-13.2269
熬	-13.2269
㪺	-13.227
秫	-13.227
䜴	-13.2271
孶	-13.2272
萑	-13.2273
欬	-13.2275
蛻	-13.2276
錘	-13.2276
釭	-13.2277
庳	-13.2278
膓	-13.228
嘽	-13.2281
鱣	-13.2282
㙮	-13.2283
葴	-13.2284
膿	-13.2289
襞	-13.2291
薌	-13.2577
漾	-13.2578
离	-13.2579
踔	-13.2582
蹀	-13.2583
榴	-13.2583
攴	-13.2585
洶	-13.2586
悃	-13.2586
圑	-13.2587
賡	-13.2587
霅	-13.2588
仭	-13.2588
蚌	-13.2588
涒	-13.2589
鏹	-13.259
耎	-13.2591
砌	-13.2593
廛	-13.2593
怍	-13.2593
蜩	-13.2593
螢	-13.2593
焱	-13.2594
繽	-13.2595
輶	-13.2595
珎	-13.2595
彍	-13.2597
䲭	-13.2597
鷫	-13.2597
寑	-13.2598
啾	-13.2599
廰	-13.26
􁞗	-13.26
芽	-13.2601
虱	-13.2601
壃	-13.2602
瞷	-13.2606
瀨	-13.2608
堧	-13.2609
甖	-13.2611
婼	-13.2611
誶	-13.2616
狶	-13.2619
薜	-13.262
晛	-13.2912
垕	-13.2918
懍	-13.2919
玃	-13.292
玼	-13.292
㯶	-13.2923
窀	-13.2925
杰	-13.2926
黛	-13.2926
鷖	-13.2926
朘	-13.2927
緱	-13.2928
冽	-13.2933
鐍	-13.2934
苣	-13.2935
貅	-13.2937
惆	-13.2938
仟	-13.2938
㒟	-13.2939
箧	-13.2939
觔	-13.2939
籤	-13.294
𧺫	-13.294
絆	-13.294
挻	-13.294
棰	-13.2942
㨂	-13.2942
簀	-13.2942
幵	-13.2942
确	-13.2944
酃	-13.2945
㳫	-13.2945
搭	-13.2945
宄	-13.2946
譓	-13.2946
輬	-13.2947
睚	-13.2947
箝	-13.2947
菰	-13.2948
殣	-13.2948
炕	-13.2948
匙	-13.2949
笇	-13.2949
蜴	-13.2949
癉	-13.2949
􁁉	-13.2951
瓴	-13.2952
緻	-13.2955
轊	-13.2955
莠	-13.2955
糵	-13.2957
㬚	-13.2957
曀	-13.2958
銚	-13.2961
􁬜	-13.3264
劈	-13.3274
媢	-13.3278
忳	-13.3282
萱	-13.3286
帬	-13.3287
菅	-13.3289
輼	-13.3289
眎	-13.329
憍	-13.329
衺	-13.3293
榼	-13.3293
餮	-13.3293
﨑	-13.3294
舡	-13.3295
騄	-13.3295
倶	-13.3295
櫪	-13.3295
覓	-13.3295
躪	-13.3295
醼	-13.3295
鐺	-13.3295
岵	-13.3296
闤	-13.3296
攔	-13.3296
潄	-13.3297
磷	-13.3297
迮	-13.3297
􁀐	-13.3298
埧	-13.3299
禠	-13.3301
蕝	-13.3301
泆	-13.3301
慆	-13.3302
邅	-13.3302
罅	-13.3303
喫	-13.3303
眴	-13.3303
侄	-13.3303
觳	-13.3303
騅	-13.3304
嵓	-13.3305
瑙	-13.3305
􁇚	-13.3305
珌	-13.3306
惽	-13.3306
慣	-13.3307
嬀	-13.3307
旉	-13.3308
鰌	-13.3311
躇	-13.3314
凾	-13.3315
􁂆	-13.3316
窑	-13.3317
逯	-13.3324
驒	-13.3326
璚	-13.3625
醍	-13.3629
葑	-13.3634
嵌	-13.3634
忭	-13.3649
䐗	-13.365
鎚	-13.3651
倀	-13.3652
嫠	-13.3653
鏄	-13.3654
襚	-13.3654
醊	-13.3661
㕓	-13.3661
禝	-13.3661
B	-13.3661
墩	-13.3662
廳	-13.3665
捺	-13.3665
訔	-13.3666
弢	-13.3666
攪	-13.3666
拶	-13.3666
憩	-13.3667
袿	-13.3667
惏	-13.3667
笈	-13.3667
凟	-13.3668
棼	-13.3668
琖	-13.3668
犠	-13.367
慇	-13.367
淙	-13.367
暵	-13.3671
嵳	-13.3672
髫	-13.3672
涔	-13.3674
蠒	-13.3674
檛	-13.3675
饜	-13.3676
穣	-13.3677
黈	-13.3678
釳	-13.3678
佪	-13.3682
塪	-13.3684
邶	-13.3688
蕕	-13.3689
扜	-13.3692
蠖	-13.3693
窅	-13.3693
佰	-13.4015
霠	-13.4019
錔	-13.4028
帉	-13.4029
綃	-13.4034
鞉	-13.4035
剄	-13.4037
砭	-13.4037
氤	-13.404
軔	-13.4041
橦	-13.4042
傃	-13.4042
臡	-13.4044
惙	-13.4044
涘	-13.4044
篴	-13.4044
崟	-13.4045
扃	-13.4045
惎	-13.4045
擩	-13.4045
茈	-13.4046
閘	-13.4046
㚇	-13.4047
􁀮	-13.4047
徊	-13.4048
庵	-13.4049
丼	-13.4049
趂	-13.4049
逥	-13.4049
溜	-13.4049
蝸	-13.405
詗	-13.405
堌	-13.405
顇	-13.4051
枇	-13.4052
葳	-13.4052
癕	-13.4052
廌	-13.4052
侫	-13.4055
佔	-13.4055
蓀	-13.4056
壚	-13.4057
淒	-13.4057
碏	-13.4058
殻	-13.4059
囏	-13.4059
牸	-13.406
胏	-13.4061
甃	-13.4062
侲	-13.4063
嘷	-13.4064
悁	-13.4066
嶔	-13.4066
芉	-13.4066
啞	-13.407
戛	-13.407
蟉	-13.4071
躊	-13.4077
仡	-13.408
胐	-13.4082
眯	-13.409
套	-13.4096
筳	-13.442
鶖	-13.4426
悱	-13.4432
滍	-13.4433
杙	-13.4434
焜	-13.4436
甦	-13.4437
劘	-13.4437
漪	-13.4437
傋	-13.4438
芡	-13.4438
㬭	-13.4439
鄏	-13.444
噎	-13.4441
帊	-13.4442
秖	-13.4442
儌	-13.4442
碙	-13.4442
酥	-13.4443
皤	-13.4443
巘	-13.4444
㢸	-13.4444
蠃	-13.4445
篝	-13.4446
詫	-13.4446
吭	-13.4446
馹	-13.4446
杉	-13.4449
䔍	-13.445
餫	-13.445
鵕	-13.4451
䴊	-13.4451
穩	-13.4451
骫	-13.4453
蠕	-13.4454
凊	-13.4455
蜃	-13.4457
廥	-13.4458
𧖟	-13.4459
訞	-13.4459
罼	-13.4461
惨	-13.4462
𥜗	-13.4463
傴	-13.4466
秏	-13.4467
礦	-13.4468
鈹	-13.447
臀	-13.447
耏	-13.447
眦	-13.4473
埆	-13.4473
蠋	-13.4474
􁝜	-13.4476
陝	-13.4488
髾	-13.4488
咫	-13.4823
撁	-13.4845
桄	-13.4848
颷	-13.4848
䆳	-13.4853
涑	-13.4853
琶	-13.4853
俵	-13.4853
焴	-13.4854
緫	-13.4856
跕	-13.4856
楸	-13.4857
叠	-13.4857
曍	-13.4858
禭	-13.4858
賮	-13.4859
懶	-13.4859
魃	-13.4859
䳒	-13.4859
趯	-13.486
薺	-13.4861
崙	-13.4861
婭	-13.4862
蕆	-13.4862
饎	-13.4862
昜	-13.4863
噩	-13.4863
躶	-13.4864
瘢	-13.4865
摎	-13.4865
䜿	-13.4865
岨	-13.4866
痩	-13.4866
閧	-13.4867
餱	-13.4867
廮	-13.4867
薆	-13.4867
憯	-13.4868
胾	-13.4868
庀	-13.4868
翎	-13.4868
錧	-13.4868
倂	-13.4869
蟀	-13.4869
咮	-13.487
枸	-13.487
韣	-13.4871
褌	-13.4871
嚇	-13.4872
磋	-13.4872
岔	-13.4872
螘	-13.4872
鸛	-13.4872
㷭	-13.4872
楼	-13.4874
邡	-13.4874
汛	-13.4875
躧	-13.4875
饔	-13.4875
阹	-13.4875
癭	-13.4876
硜	-13.4876
蹐	-13.4876
眸	-13.4877
噭	-13.4877
芑	-13.4878
仚	-13.4878
轀	-13.4879
抒	-13.4879
爟	-13.4879
媻	-13.488
㫤	-13.4883
恆	-13.4887
豭	-13.4892
厖	-13.5277
涎	-13.528
籟	-13.528
􁐞	-13.5286
釦	-13.5286
蒭	-13.5286
俅	-13.5286
瞢	-13.5287
琡	-13.5287
豋	-13.5288
笋	-13.5288
苧	-13.5288
鷲	-13.5292
絇	-13.5292
僴	-13.5293
剿	-13.5293
璥	-13.5294
紞	-13.5295
楣	-13.5296
撩	-13.5296
敓	-13.5297
蹰	-13.5298
篹	-13.5298
篁	-13.5298
藳	-13.5298
塏	-13.5298
韤	-13.5298
欻	-13.5299
袓	-13.5299
孀	-13.5299
眘	-13.5299
諗	-13.53
泒	-13.5301
柅	-13.5301
䴡	-13.5301
愒	-13.5301
燻	-13.5301
杆	-13.5302
纆	-13.5303
尨	-13.5303
机	-13.5304
蟋	-13.5305
訹	-13.5305
緭	-13.5306
凄	-13.5307
揃	-13.5307
噓	-13.5309
戻	-13.5309
熄	-13.5309
渟	-13.531
驘	-13.531
檿	-13.531
瘕	-13.5311
裋	-13.5312
檇	-13.5312
蹛	-13.5313
哨	-13.5315
鮐	-13.5318
咢	-13.5321
杻	-13.5325
釂	-13.5325
㩜	-13.5329
縐	-13.5333
甝	-13.5727
璬	-13.5729
􁇨	-13.5729
苕	-13.5733
鷗	-13.5738
潚	-13.5739
簣	-13.5739
浃	-13.574
踝	-13.5745
蔥	-13.5746
濆	-13.5747
苹	-13.5747
珞	-13.5747
𣲖	-13.5748
鞦	-13.5749
韀	-13.5749
嶂	-13.575
鼛	-13.575
鶬	-13.5751
詶	-13.5753
娵	-13.5753
塉	-13.5754
􁋡	-13.5755
隈	-13.5755
漚	-13.5755
幙	-13.5756
圄	-13.5756
姙	-13.5756
傀	-13.5756
瘧	-13.5757
鐲	-13.5758
怏	-13.5758
竚	-13.5758
渌	-13.5759
壎	-13.5759
厪	-13.576
㠖	-13.576
驆	-13.576
閾	-13.576
蛆	-13.5761
娙	-13.5762
艷	-13.5763
徯	-13.5764
髕	-13.5764
囓	-13.5764
鑱	-13.5764
捎	-13.5765
晬	-13.5765
憘	-13.5766
蜯	-13.5766
屮	-13.5767
騩	-13.5768
蚋	-13.577
􁧯	-13.577
旎	-13.577
窩	-13.577
焠	-13.5771
礱	-13.5772
邘	-13.5774
煞	-13.5775
鍛	-13.5775
襮	-13.5776
歜	-13.5777
瀣	-13.5777
啚	-13.5777
荗	-13.578
瞼	-13.5783
蛩	-13.5785
􁙆	-13.579
埿	-13.6199
䱉	-13.621
摐	-13.621
㬎	-13.6214
堝	-13.6214
礚	-13.6221
蟆	-13.6221
佋	-13.6221
喟	-13.6222
婣	-13.6222
很	-13.6223
嗔	-13.6224
鍰	-13.6226
綆	-13.6226
瞬	-13.6226
羕	-13.6227
䄠	-13.6227
輾	-13.6227
䫇	-13.6228
裀	-13.6228
幬	-13.6228
轑	-13.6229
鏢	-13.6229
鐻	-13.6229
簉	-13.623
芎	-13.623
醻	-13.6231
癿	-13.6231
倰	-13.6231
涗	-13.6231
旡	-13.6232
襌	-13.6232
藭	-13.6232
謿	-13.6232
愻	-13.6233
怗	-13.6233
歔	-13.6233
澘	-13.6233
穜	-13.6234
敳	-13.6234
埴	-13.6234
逍	-13.6235
唏	-13.6235
薤	-13.6235
甒	-13.6236
鵁	-13.6236
嗢	-13.6237
呀	-13.6237
㖫	-13.6237
䄖	-13.6239
袀	-13.624
觥	-13.6241
邐	-13.6241
芭	-13.6243
韠	-13.6244
彂	-13.6245
箒	-13.6248
頞	-13.625
膀	-13.625
胱	-13.6251
嵏	-13.6251
胈	-13.6252
輣	-13.6254
觷	-13.6256
呻	-13.6259
梬	-13.6263
橪	-13.668
屜	-13.6693
痏	-13.6707
㢠	-13.6711
䟱	-13.6713
鼷	-13.6714
餕	-13.6714
僿	-13.6715
蓁	-13.6718
貤	-13.6719
滙	-13.6719
挨	-13.672
臶	-13.672
縯	-13.672
嬈	-13.6722
袠	-13.6722
郚	-13.6723
縕	-13.6723
軷	-13.6723
麪	-13.6724
尭	-13.6725
鴇	-13.6726
淈	-13.6726
艤	-13.6726
枻	-13.6727
懬	-13.6727
澎	-13.6728
硖	-13.6728
籀	-13.6728
䀋	-13.6728
妳	-13.6728
􁣕	-13.6728
㝡	-13.6729
卺	-13.6729
抆	-13.6729
渺	-13.673
荄	-13.673
暾	-13.6731
鄽	-13.6731
纜	-13.6731
紑	-13.6731
鷇	-13.6733
旿	-13.6733
槱	-13.6734
敲	-13.6734
苜	-13.6734
稭	-13.6735
廋	-13.6736
篪	-13.6736
串	-13.6736
蓿	-13.6738
嚶	-13.6738
敭	-13.6738
鉄	-13.6738
湄	-13.6739
㶏	-13.6739
蜕	-13.6739
嗽	-13.6739
稑	-13.6741
鑞	-13.6741
抔	-13.6742
毯	-13.6742
祍	-13.6743
玈	-13.6743
栘	-13.6744
唊	-13.6744
觕	-13.6745
罝	-13.6745
訽	-13.6745
娖	-13.6745
孅	-13.6745
輛	-13.6748
邔	-13.6748
唼	-13.6749
靷	-13.6749
朅	-13.675
嗸	-13.675
䂎	-13.6752
濓	-13.6753
挏	-13.6755
瞍	-13.6756
汩	-13.676
嚨	-13.6762
蒹	-13.6767
遬	-13.6776
鄋	-13.6781
傱	-13.7225
牏	-13.7228
甪	-13.7231
篙	-13.7234
猱	-13.7235
糯	-13.7236
蚪	-13.7238
椑	-13.7238
柈	-13.7239
墄	-13.7239
檡	-13.7242
漊	-13.7244
洼	-13.7244
摴	-13.7245
僃	-13.7245
蝎	-13.7246
䏰	-13.7248
梭	-13.7249
􁙽	-13.7249
婬	-13.725
硝	-13.725
蓰	-13.7252
􁚠	-13.7252
槎	-13.7252
酧	-13.7252
屆	-13.7253
襍	-13.7253
掬	-13.7253
緥	-13.7253
抶	-13.7253
簸	-13.7254
蕡	-13.7254
苔	-13.7254
勮	-13.7254
匵	-13.7254
悄	-13.7254
湲	-13.7255
惘	-13.7255
䒭	-13.7255
橜	-13.7255
肢	-13.7255
鑌	-13.7255
癖	-13.7255
􁐟	-13.7256
釱	-13.7256
狴	-13.7257
曶	-13.7257
昳	-13.7259
姝	-13.7259
薳	-13.726
驄	-13.726
噴	-13.726
眈	-13.726
噂	-13.726
樺	-13.7261
郍	-13.7261
􁐅	-13.7264
莪	-13.7264
犫	-13.7264
􁌾	-13.7265
鎡	-13.7265
葩	-13.7265
雚	-13.7266
瘤	-13.7267
钁	-13.7267
咋	-13.7267
䛇	-13.7268
睛	-13.7268
騣	-13.7268
蝚	-13.7268
㬋	-13.7269
娟	-13.7269
倎	-13.727
韎	-13.727
卮	-13.727
㯹	-13.7271
讕	-13.7272
駛	-13.7272
尞	-13.7272
爝	-13.7273
潟	-13.7275
墝	-13.7275
薔	-13.7276
噏	-13.7276
郸	-13.7279
麯	-13.7282
㵒	-13.7282
姣	-13.7283
檦	-13.7283
恁	-13.7285
楩	-13.7286
蓧	-13.7289
莨	-13.7297
􁀫	-13.7298
睔	-13.7304
藟	-13.7308
猩	-13.7784
鮭	-13.7788
糈	-13.7791
脹	-13.7792
猘	-13.7793
蟊	-13.7795
䆮	-13.7795
牗	-13.7799
噱	-13.7799
懴	-13.7799
捋	-13.7799
带	-13.7799
侹	-13.7801
嵒	-13.7802
甀	-13.7802
齟	-13.7802
胳	-13.7803
籯	-13.7803
枃	-13.7803
獐	-13.7804
荑	-13.7804
瀰	-13.7804
栝	-13.7805
呦	-13.7805
箙	-13.7806
濺	-13.7808
䜌	-13.7808
衲	-13.7808
罳	-13.7808
鯤	-13.7809
􁝠	-13.7809
膜	-13.781
籲	-13.781
嗌	-13.781
蝱	-13.781
笴	-13.7811
頬	-13.7811
儇	-13.7812
橅	-13.7812
禴	-13.7812
茬	-13.7812
厎	-13.7812
諼	-13.7812
閜	-13.7812
窓	-13.7813
䪥	-13.7813
棖	-13.7813
㟭	-13.7814
趄	-13.7814
繯	-13.7814
嬾	-13.7815
䘲	-13.7815
玹	-13.7815
洟	-13.7816
聮	-13.7817
齰	-13.7818
䟆	-13.7818
紒	-13.7818
斖	-13.7819
㩦	-13.7819
唃	-13.782
茇	-13.782
樟	-13.782
茜	-13.7821
鄅	-13.7821
剚	-13.7822
呰	-13.7822
囙	-13.7822
稺	-13.7823
炰	-13.7823
溠	-13.7824
璙	-13.7824
熉	-13.7825
觡	-13.7826
鴐	-13.7826
㝛	-13.7826
棍	-13.7826
梏	-13.7826
竆	-13.7826
倳	-13.7829
罙	-13.7829
窌	-13.783
盒	-13.7831
涽	-13.7831
喩	-13.7832
鮆	-13.7836
觹	-13.7838
懊	-13.7839
螳	-13.7839
橚	-13.785
鸃	-13.785
銲	-13.7854
谾	-13.7865
􁑵	-13.7886
膰	-13.8374
鈗	-13.8377
涞	-13.8382
爺	-13.8383
蔟	-13.8384
胛	-13.8387
踘	-13.8387
䢵	-13.8388
敡	-13.8388
嵸	-13.8389
沘	-13.8389
醑	-13.839
凜	-13.839
斲	-13.8391
雰	-13.8392
綷	-13.8392
迆	-13.8393
蠙	-13.8393
緅	-13.8394
瀁	-13.8395
􁂺	-13.8395
餚	-13.8395
葫	-13.8395
渰	-13.8396
浥	-13.8396
堀	-13.8396
萁	-13.8396
覉	-13.8396
礟	-13.8396
甗	-13.8397
㴻	-13.8397
鄷	-13.8397
騧	-13.8397
烖	-13.8398
纏	-13.8398
棝	-13.8399
擷	-13.8399
澨	-13.84
啁	-13.84
㻛	-13.84
𣢾	-13.84
俔	-13.8401
扳	-13.8402
萩	-13.8402
柤	-13.8403
䝠	-13.8404
嚞	-13.8404
礧	-13.8404
􁇒	-13.8404
隮	-13.8404
砢	-13.8404
蛉	-13.8404
䊸	-13.8405
畼	-13.8405
飶	-13.8406
齠	-13.8406
蓏	-13.8406
巛	-13.8406
㐲	-13.8407
劌	-13.8407
眛	-13.8408
炷	-13.8408
甍	-13.8409
硰	-13.8409
桔	-13.8411
瓏	-13.8411
裊	-13.8412
輭	-13.8412
週	-13.8412
倈	-13.8412
姤	-13.8412
頍	-13.8412
餬	-13.8413
蜥	-13.8413
鷸	-13.8413
俀	-13.8414
袥	-13.8415
鎩	-13.8416
瑫	-13.8417
鍖	-13.8417
髤	-13.8418
繈	-13.8418
抏	-13.8419
剟	-13.842
莝	-13.842
腠	-13.8421
穟	-13.8422
抨	-13.8424
旖	-13.8431
嫮	-13.8431
擺	-13.8433
㜸	-13.8439
眜	-13.8442
撈	-13.8455
鉸	-13.8988
鞲	-13.8989
􁆲	-13.8995
慌	-13.8999
汋	-13.9001
枿	-13.9005
泂	-13.9006
栱	-13.9007
胖	-13.9007
礨	-13.9007
撦	-13.901
撇	-13.9011
麰	-13.9012
醤	-13.9014
􁁏	-13.9014
榘	-13.9016
蹬	-13.9016
戭	-13.9016
頏	-13.9017
􁀒	-13.9018
㒒	-13.9018
洑	-13.9018
晫	-13.9018
麀	-13.9019
麊	-13.9019
鈃	-13.902
撠	-13.9021
鵜	-13.9022
淋	-13.9023
㶚	-13.9023
皚	-13.9023
筤	-13.9024
稿	-13.9024
悪	-13.9024
鵷	-13.9025
􁚫	-13.9026
䑽	-13.9026
㧖	-13.9026
鍉	-13.9027
鑼	-13.9027
闑	-13.9027
鋼	-13.9027
筥	-13.9028
坏	-13.9029
踶	-13.9029
灨	-13.903
銶	-13.903
褎	-13.9031
餁	-13.9033
戅	-13.9033
醞	-13.9033
蘘	-13.9034
歠	-13.9034
笲	-13.9035
疐	-13.9036
穊	-13.9036
嫕	-13.9037
鶵	-13.9037
畊	-13.9038
樝	-13.9039
孌	-13.904
棽	-13.9042
咥	-13.9043
膴	-13.9044
蓆	-13.9044
㘰	-13.9044
裻	-13.9045
穄	-13.9045
癢	-13.9045
陻	-13.9046
陗	-13.9047
鱓	-13.9047
皪	-13.9048
閺	-13.9049
裶	-13.9051
瓆	-13.9052
髳	-13.9052
蹯	-13.9055
鯈	-13.9056
噣	-13.9056
垝	-13.9067
鵔	-13.9067
薠	-13.9101
靺	-13.9646
煕	-13.9661
𢷬	-13.9664
嶕	-13.9665
蜉	-13.9665
跇	-13.9666
􁞧	-13.967
垤	-13.9674
潩	-13.9675
餈	-13.9676
澐	-13.9677
瀺	-13.9678
硎	-13.9678
豰	-13.9679
甜	-13.9679
涫	-13.9679
臮	-13.968
肫	-13.968
翯	-13.9681
紃	-13.9682
茆	-13.9682
琄	-13.9682
䚟	-13.9683
楔	-13.9684
綧	-13.9684
巇	-13.9685
髆	-13.9685
唁	-13.9686
瑳	-13.9686
裵	-13.9687
謪	-13.9687
圁	-13.9687
陡	-13.9688
兪	-13.9688
潬	-13.9689
蓯	-13.9689
􁈞	-13.9689
賧	-13.9689
䣛	-13.969
譊	-13.969
畛	-13.9691
箄	-13.9691
徉	-13.9691
忷	-13.9691
㒡	-13.9692
𦂳	-13.9692
圂	-13.9692
麕	-13.9692
迢	-13.9692
爓	-13.9693
幍	-13.9693
潑	-13.9693
媠	-13.9694
陼	-13.9694
嶙	-13.9695
晣	-13.9695
楡	-13.9695
垻	-13.9696
畹	-13.9696
窯	-13.9696
醵	-13.9696
綀	-13.9697
萋	-13.9697
𥚹	-13.9698
臟	-13.9698
淟	-13.9698
鐐	-13.9698
􁰳	-13.9699
鞔	-13.9699
溴	-13.97
鐬	-13.97
稸	-13.9701
㲲	-13.9701
搨	-13.9701
玲	-13.9701
訿	-13.9701
轙	-13.9701
甎	-13.9703
珤	-13.9704
鸗	-13.9705
紉	-13.9705
褓	-13.9705
狢	-13.9705
𤏡	-13.9706
墁	-13.9707
桎	-13.9708
輞	-13.9709
踳	-13.9709
媱	-13.9709
䝿	-13.971
粵	-13.9711
芔	-13.9711
􁆹	-13.9712
嵫	-13.9716
廑	-13.9716
箾	-13.9716
簦	-13.9719
淢	-13.972
踦	-13.9722
堈	-13.9722
蚴	-13.9723
逑	-13.9724
塍	-13.9726
圬	-13.9726
騱	-13.9728
姍	-13.9729
獶	-13.9729
鄛	-13.9742
泡	-14.037
瀟	-14.0378
䙆	-14.0378
箐	-14.038
涙	-14.0381
菫	-14.0383
獼	-14.0385
踖	-14.0388
䥴	-14.0389
訬	-14.0389
糙	-14.039
夑	-14.039
􁀔	-14.039
鑷	-14.0391
佀	-14.0393
儡	-14.0393
湋	-14.0394
翾	-14.0395
瓔	-14.0395
瞭	-14.0395
齲	-14.0396
菀	-14.0396
矮	-14.0396
岯	-14.0397
岏	-14.0397
繶	-14.0398
鴿	-14.0398
愭	-14.0399
揩	-14.0401
聒	-14.0401
秕	-14.0402
衜	-14.0402
咲	-14.0402
揕	-14.0403
礠	-14.0403
蟯	-14.0404
晥	-14.0404
娓	-14.0404
霪	-14.0404
儤	-14.0406
疃	-14.0406
訇	-14.0407
馺	-14.0407
􁃕	-14.0407
􁑼	-14.0407
糝	-14.0408
囁	-14.0409
諟	-14.041
侶	-14.041
灄	-14.041
瀹	-14.0411
蠚	-14.0411
愊	-14.0411
慁	-14.0412
憗	-14.0412
汐	-14.0413
慓	-14.0413
踪	-14.0413
惉	-14.0413
懘	-14.0414
諓	-14.0414
珧	-14.0414
涊	-14.0414
浡	-14.0415
簏	-14.0418
灕	-14.0418
溳	-14.0419
淐	-14.0419
柎	-14.0419
毚	-14.0419
坱	-14.042
巉	-14.042
􁇋	-14.0421
胠	-14.0421
鎌	-14.0421
籧	-14.0422
毼	-14.0423
丝	-14.0423
蕳	-14.0423
剜	-14.0423
搬	-14.0425
塠	-14.0425
謖	-14.0426
蘪	-14.0426
芧	-14.0427
㠓	-14.0427
碍	-14.0428
叄	-14.0429
呷	-14.0429
嫵	-14.043
泅	-14.0431
籑	-14.0432
蜋	-14.0433
攡	-14.0433
蜎	-14.0439
箯	-14.044
􁘞	-14.0441
隑	-14.0442
暙	-14.0444
熢	-14.0446
孼	-14.045
巿	-14.0451
隇	-14.1135
縿	-14.114
描	-14.1144
􁱏	-14.1146
煤	-14.1146
矞	-14.1148
㬓	-14.1149
駙	-14.1154
恮	-14.1155
阺	-14.1156
磅	-14.1157
捂	-14.1158
䃮	-14.1158
唳	-14.1159
忉	-14.1159
懕	-14.116
憓	-14.1162
䦧	-14.1163
骩	-14.1163
骰	-14.1163
髽	-14.1164
鸑	-14.1164
溘	-14.1164
宧	-14.1164
矻	-14.1165
埼	-14.1165
穯	-14.1166
漙	-14.1166
鏚	-14.1169
㟧	-14.117
㹠	-14.117
鮌	-14.117
耑	-14.117
嶄	-14.1171
迾	-14.1171
憃	-14.1172
腓	-14.1172
柂	-14.1173
鴰	-14.1173
=	-14.1173
嗉	-14.1174
t	-14.1174
騈	-14.1174
鋏	-14.1174
轞	-14.1175
窽	-14.1175
疉	-14.1175
韮	-14.1175
呫	-14.1176
麏	-14.1176
俷	-14.1176
魍	-14.1176
皐	-14.1177
趡	-14.1177
躑	-14.1177
綉	-14.1177
峥	-14.1177
袚	-14.1177
􁥫	-14.1177
脞	-14.1178
瓷	-14.1178
敫	-14.1178
偭	-14.1179
醸	-14.1179
蓊	-14.118
蓴	-14.118
䴏	-14.1181
拑	-14.1181
堃	-14.1181
刾	-14.1182
愾	-14.1182
捭	-14.1182
篨	-14.1182
櫩	-14.1182
鍋	-14.1182
砍	-14.1183
茱	-14.1183
𣅿	-14.1183
顩	-14.1183
裠	-14.1183
澅	-14.1184
偟	-14.1185
綳	-14.1185
摳	-14.1185
揳	-14.1185
鶼	-14.1185
閴	-14.1185
崿	-14.1186
柸	-14.1186
膩	-14.1186
薉	-14.1186
鸕	-14.1186
䤈	-14.1186
䵷	-14.1186
蓂	-14.1187
􁀨	-14.1187
浛	-14.1187
鷤	-14.1187
蠹	-14.1188
詿	-14.1188
俣	-14.1188
聦	-14.1189
襢	-14.119
醨	-14.119
阱	-14.119
􁛀	-14.119
艨	-14.119
谼	-14.1191
錚	-14.1193
嚄	-14.1195
蒧	-14.1198
鄑	-14.1199
纑	-14.12
肮	-14.12
瘣	-14.12
拕	-14.1201
軥	-14.1202
朌	-14.1202
碝	-14.1203
窊	-14.1206
痱	-14.1206
桼	-14.1207
鼒	-14.1209
鴂	-14.121
谽	-14.121
倥	-14.1213
峗	-14.1213
鄪	-14.1213
衯	-14.1215
禂	-14.1216
螑	-14.122
岋	-14.122
鬺	-14.1223
綡	-14.1971
萭	-14.1972
謷	-14.1975
搊	-14.1979
簺	-14.198
珵	-14.1985
痢	-14.1986
鐏	-14.1987
听	-14.1991
㮙	-14.1991
蝇	-14.1991
潗	-14.1991
􁁦	-14.1991
㡊	-14.1991
茯	-14.1993
漻	-14.1993
崫	-14.1995
睺	-14.1996
迍	-14.1997
羶	-14.1997
碇	-14.1997
璅	-14.1997
裭	-14.1998
焕	-14.1998
憧	-14.1998
焫	-14.1998
蚕	-14.1999
眤	-14.1999
窪	-14.1999
㥦	-14.1999
邨	-14.2
𠻳	-14.2
嘒	-14.2001
苃	-14.2001
啑	-14.2001
迃	-14.2001
硠	-14.2002
忩	-14.2002
傪	-14.2003
獎	-14.2004
㡳	-14.2004
餳	-14.2005
穭	-14.2006
跟	-14.2006
籸	-14.2007
僾	-14.2007
魎	-14.2007
鷮	-14.2007
裯	-14.2007
壈	-14.2007
>	-14.2008
倞	-14.2008
滱	-14.2008
曒	-14.2008
䆃	-14.2009
㷊	-14.2009
麛	-14.201
􁄧	-14.2011
輊	-14.2011
醟	-14.2011
枰	-14.2012
㠶	-14.2012
籓	-14.2012
胲	-14.2013
袄	-14.2013
𣆀	-14.2013
瓖	-14.2013
貓	-14.2013
醓	-14.2013
桺	-14.2013
􁆭	-14.2014
磵	-14.2014
轤	-14.2014
飊	-14.2014
澒	-14.2014
緵	-14.2015
狻	-14.2015
溽	-14.2015
曬	-14.2015
峋	-14.2015
竸	-14.2016
嫋	-14.2018
薙	-14.2018
堋	-14.2019
瀑	-14.2019
䛒	-14.202
篲	-14.202
麒	-14.2021
擐	-14.2021
畟	-14.2021
婞	-14.2021
崍	-14.2022
鵂	-14.2022
傿	-14.2022
蜍	-14.2022
馯	-14.2023
沚	-14.2023
艟	-14.2023
鞕	-14.2023
葡	-14.2024
栿	-14.2025
鞚	-14.2026
蠵	-14.2026
犕	-14.2026
蝘	-14.2027
稳	-14.2027
饁	-14.2028
磕	-14.2029
捥	-14.2029
剕	-14.2029
燀	-14.203
苡	-14.203
瘍	-14.2032
墐	-14.2032
葰	-14.2034
嫺	-14.2035
嘑	-14.2038
阤	-14.204
閃	-14.204
豻	-14.2045
齱	-14.2045
䥫	-14.2047
污	-14.2049
韁	-14.2049
竫	-14.205
趹	-14.2055
踱	-14.2058
跮	-14.206
抴	-14.2065
􁱒	-14.2881
懻	-14.2884
崏	-14.2889
塸	-14.289
罨	-14.2894
􁂷	-14.2895
䍦	-14.2895
瑝	-14.29
鎣	-14.29
鞙	-14.2901
飇	-14.2901
靠	-14.2902
喣	-14.2902
蛫	-14.2902
葠	-14.2903
俑	-14.2903
鄨	-14.2906
湑	-14.2906
曏	-14.2907
𩔖	-14.2907
􁎑	-14.2907
岠	-14.2907
鶠	-14.2907
􁅩	-14.2908
尿	-14.2908
郏	-14.2908
犵	-14.291
瘥	-14.291
灈	-14.2911
硋	-14.2911
釴	-14.2912
聓	-14.2912
麨	-14.2912
獂	-14.2913
鏵	-14.2913
瓡	-14.2913
樠	-14.2914
􁀊	-14.2914
𠢐	-14.2914
濔	-14.2914
𡑞	-14.2914
䗍	-14.2914
螹	-14.2915
豲	-14.2915
蹢	-14.2915
玟	-14.2915
籜	-14.2915
漓	-14.2916
瀄	-14.2916
曛	-14.2916
幐	-14.2916
嫪	-14.2916
檽	-14.2917
勌	-14.2917
癩	-14.2917
鱄	-14.2917
㽦	-14.2918
嵲	-14.2918
绳	-14.2918
肚	-14.2919
磈	-14.2919
隝	-14.2919
㵼	-14.2919
彡	-14.2919
溓	-14.292
𥚑	-14.292
櫧	-14.292
􁡷	-14.2921
櫡	-14.2921
瓵	-14.2921
駡	-14.2921
􁊯	-14.2922
鷞	-14.2922
􁩪	-14.2922
鰲	-14.2922
漱	-14.2922
糇	-14.2922
𪠘	-14.2922
屼	-14.2923
栞	-14.2923
幗	-14.2923
雘	-14.2923
酲	-14.2924
蝥	-14.2924
狨	-14.2924
繙	-14.2924
襆	-14.2924
槿	-14.2925
屎	-14.2925
渒	-14.2926
縓	-14.2926
萯	-14.2926
㠋	-14.2926
駍	-14.2928
緲	-14.2928
軮	-14.2928
嘛	-14.2928
椰	-14.2928
殭	-14.2928
騪	-14.2929
嶊	-14.2929
齔	-14.2929
幌	-14.2929
袨	-14.293
坯	-14.293
扐	-14.293
蚺	-14.2931
逎	-14.2931
逴	-14.2932
滫	-14.2932
㬅	-14.2933
馗	-14.2934
袑	-14.2935
鎋	-14.2935
􁰺	-14.2936
邗	-14.2936
唫	-14.2938
鱏	-14.2938
𢾗	-14.2938
䄡	-14.2938
𠞰	-14.2938
衊	-14.2939
碆	-14.2939
窣	-14.2939
虀	-14.294
戔	-14.2941
鬉	-14.2941
鰒	-14.2943
嫈	-14.2943
粽	-14.2944
穅	-14.2945
􁈩	-14.2946
蟃	-14.2947
櫌	-14.2949
檠	-14.2949
橇	-14.2952
辿	-14.2952
袘	-14.2953
臞	-14.2962
䂍	-14.2963
幓	-14.2967
廝	-14.2973
佁	-14.298
鱷	-14.3861
􁐕	-14.3883
㵯	-14.3885
楬	-14.3886
􁑶	-14.3887
曚	-14.3888
訦	-14.3888
鰐	-14.3888
䲛	-14.3889
銙	-14.3891
㸐	-14.3893
􁍔	-14.3893
湁	-14.3893
浯	-14.3895
詾	-14.3895
鍭	-14.3895
䩺	-14.3896
炸	-14.3896
艇	-14.3896
璐	-14.3896
灂	-14.3896
禗	-14.3896
爗	-14.3896
鬃	-14.3897
悾	-14.3897
昢	-14.3897
甡	-14.3898
􁥟	-14.3898
窐	-14.3899
輄	-14.39
縌	-14.39
掀	-14.39
嫭	-14.3901
鄸	-14.3901
睪	-14.3902
虨	-14.3902
􁆶	-14.3903
􁑛	-14.3903
赱	-14.3903
侐	-14.3903
饅	-14.3904
颮	-14.3904
䯻	-14.3905
洱	-14.3905
蕎	-14.3905
䬃	-14.3905
罐	-14.3905
瑍	-14.3905
韔	-14.3906
崣	-14.3907
麖	-14.3908
羍	-14.3908
攖	-14.3908
禬	-14.3908
􁃊	-14.3909
籋	-14.391
鬟	-14.3911
芼	-14.3911
蟂	-14.3911
鵩	-14.3912
戄	-14.3912
鼃	-14.3912
楀	-14.3912
拐	-14.3913
墪	-14.3913
l	-14.3914
嘱	-14.3914
彯	-14.3915
嗁	-14.3916
妊	-14.3916
橡	-14.3916
嶻	-14.3916
匃	-14.3917
奫	-14.3917
㬇	-14.3917
郉	-14.3917
稈	-14.3917
飂	-14.3917
玻	-14.3918
繐	-14.3918
拌	-14.3918
鬩	-14.3918
頳	-14.3918
邟	-14.3918
㝵	-14.3918
愸	-14.3918
蠼	-14.3919
巚	-14.3919
撅	-14.3919
崒	-14.392
羚	-14.392
颿	-14.3921
􁂠	-14.3921
甔	-14.3921
徕	-14.3922
橰	-14.3922
尢	-14.3922
􁚚	-14.3922
惷	-14.3923
蓩	-14.3923
緺	-14.3923
蝶	-14.3923
碕	-14.3924
㴞	-14.3924
􁪳	-14.3924
䌓	-14.3924
杶	-14.3924
莛	-14.3924
孊	-14.3924
崪	-14.3924
裌	-14.3925
靸	-14.3925
疣	-14.3925
柺	-14.3925
骭	-14.3925
劼	-14.3925
蕈	-14.3926
􁠾	-14.3926
􁏳	-14.3926
􁉌	-14.3926
篠	-14.3926
鱐	-14.3927
藋	-14.3927
欑	-14.3927
疴	-14.3928
檥	-14.3929
暁	-14.3929
鶘	-14.3929
掔	-14.3929
䧢	-14.393
苒	-14.3931
唄	-14.3931
􁱑	-14.3931
醲	-14.3931
褖	-14.3932
􁀈	-14.3933
罏	-14.3933
鞀	-14.3934
劋	-14.3934
貏	-14.3936
鄁	-14.3936
鰬	-14.3937
鷃	-14.3937
梠	-14.3937
嚬	-14.3937
靶	-14.3937
嫓	-14.3938
鋊	-14.3939
猲	-14.394
聸	-14.394
􁇟	-14.3941
訒	-14.3941
蒢	-14.3941
漴	-14.3943
鍬	-14.3944
橤	-14.3944
薏	-14.3944
㺹	-14.3945
瓞	-14.3946
胼	-14.3947
輠	-14.3947
􁗥	-14.3947
藨	-14.3948
㨱	-14.3949
奧	-14.3953
鵑	-14.3953
嶐	-14.3955
鼕	-14.3955
皙	-14.3959
羋	-14.396
蘺	-14.3966
瓿	-14.3968
躈	-14.3971
堲	-14.4948
􁏔	-14.4958
疻	-14.498
鮓	-14.4982
蠝	-14.499
旜	-14.4994
唆	-14.4998
㴔	-14.4999
櫚	-14.5001
祡	-14.5004
􁞫	-14.5004
庄	-14.5005
􁍵	-14.5006
湨	-14.5007
艚	-14.5009
悈	-14.5009
褔	-14.501
冪	-14.501
幩	-14.5012
㭬	-14.5013
癹	-14.5014
􁑳	-14.5014
献	-14.5014
嘄	-14.5014
舐	-14.5014
㩻	-14.5015
跎	-14.5015
T	-14.5015
倴	-14.5016
<	-14.5016
􁯷	-14.5017
遟	-14.5017
㢲	-14.5018
鱠	-14.5018
鍥	-14.5019
愓	-14.5019
奘	-14.5019
廿	-14.502
罥	-14.502
癯	-14.502
熅	-14.502
丧	-14.502
觩	-14.5021
庣	-14.5021
堽	-14.5021
忔	-14.5021
堺	-14.5022
关	-14.5022
爹	-14.5023
崴	-14.5024
僙	-14.5024
魖	-14.5024
蠺	-14.5024
趦	-14.5025
傶	-14.5025
癥	-14.5026
鴒	-14.5027
漵	-14.5027
呶	-14.5027
籃	-14.5027
􁥗	-14.5027
䳏	-14.5028
箬	-14.5028
酏	-14.5028
璯	-14.5028
鎪	-14.5028
盩	-14.5028
衵	-14.5028
㹀	-14.5029
蠓	-14.5029
匀	-14.5029
怕	-14.5029
𨵦	-14.503
奰	-14.503
􁁪	-14.503
鞢	-14.503
瀵	-14.5031
襻	-14.5031
忡	-14.5031
兟	-14.5031
弰	-14.5031
墼	-14.5031
滳	-14.5031
惱	-14.5032
瓫	-14.5032
縰	-14.5032
鼯	-14.5032
丏	-14.5032
趕	-14.5032
嶰	-14.5033
㑄	-14.5033
獝	-14.5033
鰅	-14.5034
慵	-14.5034
瑘	-14.5034
㑓	-14.5035
鞹	-14.5035
沄	-14.5035
瞥	-14.5035
脟	-14.5035
􁁲	-14.5035
黮	-14.5035
枅	-14.5035
鴽	-14.5035
􁕐	-14.5035
凴	-14.5036
眕	-14.5036
跅	-14.5036
浼	-14.5036
萸	-14.5036
扱	-14.5037
鳧	-14.5037
駉	-14.5037
騕	-14.5037
􁞙	-14.5037
轥	-14.5037
睍	-14.5037
蕒	-14.5037
脡	-14.5037
紜	-14.5038
抝	-14.5038
􁌫	-14.5038
悻	-14.5038
魠	-14.5038
韲	-14.5039
趑	-14.5039
􁝉	-14.5039
巗	-14.504
㓻	-14.504
佹	-14.504
奅	-14.504
斨	-14.5041
殰	-14.5041
姱	-14.5041
秅	-14.5041
矸	-14.5041
茷	-14.5042
筓	-14.5042
篷	-14.5042
鵄	-14.5043
騼	-14.5043
臛	-14.5043
旝	-14.5043
鶹	-14.5043
􁁬	-14.5044
邧	-14.5044
戺	-14.5044
綍	-14.5044
韵	-14.5045
齚	-14.5045
鷓	-14.5046
齩	-14.5046
冣	-14.5047
㓗	-14.5047
闃	-14.5047
䝱	-14.5047
缿	-14.5047
瞠	-14.5047
㹪	-14.5047
䍽	-14.5047
搯	-14.5048
厫	-14.5048
頮	-14.5048
煆	-14.5049
􁒧	-14.5049
圌	-14.505
掜	-14.505
掫	-14.5051
膈	-14.5053
鉟	-14.5053
畷	-14.5054
㯉	-14.5054
凹	-14.5055
猳	-14.5056
蝡	-14.5056
蜓	-14.5058
㣥	-14.506
躩	-14.5061
駻	-14.5061
匆	-14.5061
踢	-14.5062
垘	-14.5067
嶟	-14.5067
鑁	-14.5068
楱	-14.507
嗕	-14.507
檋	-14.5072
捻	-14.508
鼫	-14.5081
狿	-14.5081
獟	-14.5096
楟	-14.621
狋	-14.6231
狖	-14.6236
﨣	-14.6241
蚶	-14.6242
牥	-14.6243
䜭	-14.6244
􁂴	-14.6245
懀	-14.6245
弸	-14.625
暦	-14.6251
絏	-14.6251
痂	-14.6252
絟	-14.6253
軆	-14.6255
幞	-14.6255
􁇳	-14.6255
琫	-14.6256
濉	-14.6257
絅	-14.6258
泃	-14.6258
滭	-14.6258
妝	-14.6259
戫	-14.6259
挼	-14.6259
娸	-14.626
骳	-14.626
愐	-14.6261
蝣	-14.6261
瞱	-14.6261
鐇	-14.6261
硏	-14.6261
𠖇	-14.6261
孃	-14.6261
崕	-14.6262
𨫼	-14.6263
俴	-14.6264
䧴	-14.6264
硾	-14.6265
爌	-14.6265
滃	-14.6266
朸	-14.6266
豽	-14.6266
嶚	-14.6266
􁞰	-14.6266
􁆦	-14.6266
槻	-14.6269
鍱	-14.6269
凂	-14.6269
纇	-14.6269
輂	-14.627
潎	-14.627
鏟	-14.627
繿	-14.6271
轆	-14.6271
䴵	-14.6271
靿	-14.6272
轃	-14.6272
鸎	-14.6273
斸	-14.6273
晹	-14.6273
槲	-14.6273
鵫	-14.6273
狫	-14.6275
蕨	-14.6275
䆠	-14.6275
晌	-14.6275
篩	-14.6275
濅	-14.6275
屝	-14.6277
蝀	-14.6277
粕	-14.6277
荇	-14.6277
鏠	-14.6277
糿	-14.6278
脧	-14.6278
𣗳	-14.6279
􁂒	-14.6279
椓	-14.6279
躢	-14.6279
戳	-14.6279
剞	-14.6279
嶶	-14.6279
㦧	-14.6279
劂	-14.628
飰	-14.628
鞂	-14.628
淠	-14.6281
瘃	-14.6281
鵙	-14.6282
臈	-14.6282
誷	-14.6283
鐖	-14.6283
臩	-14.6283
褀	-14.6283
餟	-14.6283
坁	-14.6283
嬐	-14.6284
峕	-14.6284
趐	-14.6284
嚌	-14.6284
皬	-14.6284
壐	-14.6284
劃	-14.6285
缚	-14.6285
鶮	-14.6285
蟈	-14.6285
儜	-14.6286
謏	-14.6286
赐	-14.6286
啣	-14.6286
綣	-14.6286
嫘	-14.6286
鼲	-14.6287
攃	-14.6287
踠	-14.6287
𥅆	-14.6288
嚊	-14.6288
瑬	-14.6288
㣧	-14.6288
鷀	-14.6289
瞪	-14.6289
焍	-14.6289
綎	-14.629
嚏	-14.629
磴	-14.629
譸	-14.629
恌	-14.629
鈲	-14.6291
𥪡	-14.6291
罾	-14.6291
瀯	-14.6291
韅	-14.6292
􁂚	-14.6292
䘚	-14.6292
㳄	-14.6292
拗	-14.6293
槧	-14.6293
惝	-14.6293
絣	-14.6293
鰭	-14.6294
篣	-14.6294
厷	-14.6294
􁠝	-14.6294
拲	-14.6294
􁊬	-14.6295
柮	-14.6296
惪	-14.6296
棌	-14.6296
烕	-14.6296
凷	-14.6296
輀	-14.6296
稆	-14.6296
姹	-14.6296
坿	-14.6297
㮣	-14.6297
䘐	-14.6297
㞕	-14.6298
峿	-14.6298
轠	-14.6298
遰	-14.6298
彄	-14.6298
綪	-14.6298
礉	-14.6298
慗	-14.6299
鷛	-14.63
冔	-14.6301
䮷	-14.6301
礴	-14.6301
緁	-14.6301
躒	-14.6302
􁄭	-14.6302
騬	-14.6302
侜	-14.6303
䫫	-14.6304
棡	-14.6304
枘	-14.6304
磍	-14.6304
嚜	-14.6305
辣	-14.6305
醎	-14.6305
毹	-14.6305
歫	-14.6307
漈	-14.6307
艸	-14.6308
鷦	-14.6309
鏌	-14.6311
褍	-14.6312
唉	-14.6313
獌	-14.6314
臊	-14.6315
嫳	-14.6315
滶	-14.6315
胹	-14.6323
痔	-14.6327
枓	-14.6329
昒	-14.633
皜	-14.6332
嘰	-14.6333
姼	-14.6344
痟	-14.6344
跔	-14.6348
庬	-14.7637
㮈	-14.764
羠	-14.7641
茟	-14.7645
憻	-14.7661
懁	-14.7662
熯	-14.7671
噌	-14.7675
殚	-14.7677
嫩	-14.768
僪	-14.768
柹	-14.7682
欖	-14.7683
汞	-14.7684
䃶	-14.7684
皸	-14.7684
菘	-14.7684
摓	-14.7686
儘	-14.7686
巀	-14.7687
䧿	-14.7687
嚾	-14.7687
暬	-14.7687
攒	-14.7688
巹	-14.7688
䌫	-14.7689
澴	-14.7692
櫑	-14.7692
窫	-14.7693
鸚	-14.7693
挲	-14.7693
瞫	-14.7694
梱	-14.7695
嘖	-14.7695
胍	-14.7695
慳	-14.7695
䖸	-14.7696
垾	-14.7696
簳	-14.7696
焬	-14.7697
禓	-14.7698
漅	-14.7698
喢	-14.7698
瞵	-14.7698
䫻	-14.7698
涣	-14.7699
懺	-14.7699
湃	-14.7699
榎	-14.7699
艴	-14.7699
勩	-14.7701
㻞	-14.7701
枑	-14.7702
惹	-14.7702
窰	-14.7704
岣	-14.7705
湳	-14.7705
渼	-14.7705
紝	-14.7705
廧	-14.7705
撱	-14.7706
笫	-14.7706
巃	-14.7706
怩	-14.7706
㥽	-14.7707
嵔	-14.7707
槳	-14.7707
獑	-14.7707
怜	-14.7707
撚	-14.7708
惧	-14.7708
㫋	-14.7708
䑹	-14.7708
坩	-14.7708
斻	-14.7708
煗	-14.7708
皭	-14.7709
糚	-14.7709
禈	-14.7709
絿	-14.7709
汔	-14.771
羱	-14.771
礲	-14.771
埇	-14.7711
菖	-14.7711
皞	-14.7711
㔻	-14.7713
稌	-14.7714
槪	-14.7714
溯	-14.7714
帣	-14.7714
捩	-14.7715
繾	-14.7715
䙴	-14.7715
燹	-14.7716
獾	-14.7717
穏	-14.7717
湆	-14.7717
㛮	-14.7718
儦	-14.7719
畺	-14.772
珸	-14.772
櫕	-14.772
焄	-14.7721
瑇	-14.7721
絻	-14.7721
柁	-14.7721
幺	-14.7721
臷	-14.7721
坋	-14.7722
嬌	-14.7722
殈	-14.7723
昈	-14.7723
粆	-14.7723
徜	-14.7723
揾	-14.7723
弮	-14.7724
瑲	-14.7724
瑉	-14.7724
箘	-14.7725
慜	-14.7726
剻	-14.7728
聈	-14.7728
綌	-14.7728
䱒	-14.7729
稂	-14.7729
嘴	-14.773
㿊	-14.773
喭	-14.7731
玏	-14.7731
喃	-14.7731
圠	-14.7731
澔	-14.7732
䔧	-14.7732
嗑	-14.7732
汦	-14.7732
断	-14.7732
曕	-14.7732
摟	-14.7732
礏	-14.7733
箆	-14.7733
磼	-14.7735
捴	-14.7736
巠	-14.7737
哮	-14.7738
嬽	-14.7738
燖	-14.7738
囹	-14.774
漶	-14.774
苪	-14.7741
獏	-14.7741
苽	-14.7743
臃	-14.7743
浰	-14.7744
炔	-14.7745
癎	-14.7747
巆	-14.7747
穾	-14.7747
拮	-14.7747
俉	-14.7749
耼	-14.775
臋	-14.7752
氿	-14.7753
碨	-14.7756
亝	-14.7759
狺	-14.7759
檗	-14.7765
曣	-14.7765
疪	-14.7766
翲	-14.7767
㵐	-14.7768
佅	-14.7781
猼	-14.7784
嬓	-14.7784
狽	-14.9348
岢	-14.9361
燉	-15.1376
徘	-15.3858
婕	-15.3872
慷	-15.3878
媫	-15.723
琕	-16.2197
妤	-16.2209
厔	-16.2212
嘍	-17.2199
裲	-17.2224
琵	-17.2248
鵡	-17.228
僬	-17.2287
齬	-17.2288
韃	-17.2289
詪	-17.229
艋	-17.2291
舴	-17.2292
檳	-17.2293
"	-17.2294
裟	-17.2295
袈	-17.2296
迵	-17.2297
脗	-17.2298
炣	-17.2299
奝	-17.23
偼	-17.2301
昷	-17.2302
㯽	-17.2303
颻	-17.2304
澉	-17.2305
淔	-17.2306
齷	-17.2307
栳	-17.2308
踟	-17.2309
玁	-17.231
蚯	-17.2311
髑	-17.2312
髏	-17.2313
闠	-17.2314
彿	-17.2315
燇	-17.2316
駸	-17.2317
邂	-17.2318
獗	-17.2319
嚈	-17.232
蚄	-17.2321
虸	-17.2322
媳	-17.2323
僶	-17.2324
睥	-17.2325
篌	-17.2326
箜	-17.2327
侂	-17.2328
鞨	-17.2328
