<unk>	0
<s>	0
</s>	0
(	-2.95476
)	-3.06802
/	-3.46968
反	-4.22075
也	-4.22091
之	-4.24494
作	-4.69798
而	-4.83716
音	-4.93573
以	-4.937
為	-5.06151
者	-5.12585
其	-5.18713
有	-5.24187
不	-5.34969
下	-5.36117
/)	-5.3649
則	-5.39163
曰	-5.41557
於	-5.45652
字	-5.50588
同	-5.57275
人	-5.62575
一	-5.679
無	-5.70348
上	-5.70688
云	-5.77791
又	-5.80086
是	-5.81591
言	-5.8193
大	-5.83246
與	-5.85406
至	-5.89944
故	-5.91635
子	-5.92275
去	-5.97885
如	-5.98474
此	-6.04699
在	-6.07433
于	-6.07946
謂	-6.13764
三	-6.18592
自	-6.20526
注	-6.25207
皆	-6.25511
亦	-6.27439
行	-6.27505
所	-6.28011
中	-6.28085
王	-6.30973
五	-6.32151
爲	-6.32617
誤	-6.33141
矣	-6.33798
二	-6.34847
見	-6.34911
非	-6.38083
傳	-6.44313
時	-6.4448
得	-6.46462
本	-6.49352
用	-6.49397
生	-6.50362
文	-6.52325
正	-6.52867
事	-6.53577
乎	-6.53639
古	-6.55694
書	-6.57694
易	-6.57749
當	-6.57782
然	-6.58714
四	-6.59195
乃	-6.59701
天	-6.60628
公	-6.6172
疏	-6.62022
問	-6.64068
經	-6.64212
禮	-6.64482
相	-6.64618
若	-6.64918
及	-6.67904
七	-6.68001
下同	-6.68509
知	-6.70358
從	-6.71158
明	-6.71281
成	-6.72227
今	-6.72596
説	-6.7278
出	-6.73464
名	-6.73529
道	-6.73786
必	-6.75449
後	-6.7725
日	-6.78985
六	-6.79039
居	-6.79278
已	-6.80437
▁	-6.81053
長	-6.81132
方	-6.82001
君	-6.8289
九	-6.83422
齊	-6.86983
何	-6.8751
氏	-6.88866
焉	-6.89205
註	-6.90195
使	-6.91319
能	-6.92356
即	-6.93005
義	-6.9308
地	-6.93213
入	-6.94543
可	-6.94974
陽	-6.9573
國	-6.96235
周	-6.96269
或	-6.96906
夫	-6.97484
樂	-6.97508
民	-6.98032
復	-6.98071
處	-6.99289
詩	-6.99643
猶	-7.00847
小	-7.01211
多	-7.0207
未	-7.03404
說	-7.04245
立	-7.04263
水	-7.04788
我	-7.06072
主	-7.06308
命	-7.07655
始	-7.09566
所以	-7.10276
數	-7.10685
宋板	-7.11189
先	-7.12623
八	-7.13962
服	-7.14215
師	-7.14275
合	-7.14772
力	-7.15003
凡	-7.16106
士	-7.16108
來	-7.16817
祭	-7.17574
切	-7.17985
重	-7.18443
心	-7.18818
惟	-7.19098
釋文	-7.19734
平	-7.20191
山	-7.20325
耳	-7.20457
女	-7.20657
物	-7.2136
稱	-7.21604
世	-7.22301
雖	-7.22395
注同	-7.22739
既	-7.23616
取	-7.23661
以為	-7.24376
直	-7.24752
將	-7.25021
分	-7.2593
好	-7.25956
○	-7.26687
父	-7.28017
朝	-7.28341
善	-7.28537
食	-7.28979
欲	-7.29019
如字	-7.29114
他	-7.29217
通	-7.30981
謂之	-7.31585
聲	-7.32228
鄭	-7.32988
臣	-7.33128
春秋	-7.33298
實	-7.33583
大夫	-7.33869
解	-7.34515
象	-7.35188
兩	-7.35758
難	-7.37164
魯	-7.37805
疑	-7.38448
車	-7.3861
因	-7.38676
惡	-7.39526
南	-7.39543
定	-7.40716
東	-7.40848
年	-7.4111
治	-7.41364
内	-7.41397
諸侯	-7.41405
諸	-7.415
十	-7.41712
馬	-7.41932
木	-7.41966
亡	-7.42077
意	-7.42418
常	-7.42758
學	-7.43162
似	-7.43344
止	-7.43486
徐	-7.43614
月	-7.43824
隂	-7.43824
本又作	-7.43966
並	-7.44393
且	-7.4449
安	-7.44977
反又	-7.457
侯	-7.459
徒	-7.45932
不可	-7.46116
徳	-7.46411
法	-7.46582
外	-7.46971
伯	-7.47426
家	-7.47988
但	-7.48509
晉	-7.49088
篇	-7.49271
夏	-7.49379
風	-7.4948
卦	-7.49551
位	-7.5005
下有	-7.50355
星	-7.50367
西	-7.51356
異	-7.52083
終	-7.52411
右	-7.52948
官	-7.53062
當作	-7.53452
便	-7.53586
受	-7.53635
前	-7.53719
章	-7.53798
土	-7.53887
哉	-7.54268
案	-7.54583
氣	-7.54613
下有也字	-7.5504
死	-7.5528
衣	-7.55711
求	-7.55812
陳	-7.56632
遂	-7.56653
亂	-7.58422
神	-7.58821
元	-7.589
令	-7.58946
比	-7.59019
志	-7.59045
德	-7.59306
喪	-7.59604
各	-7.59652
許	-7.59892
所謂	-7.6028
變	-7.60361
君子	-7.60506
屬	-7.60693
而不	-7.608
初	-7.60908
殺	-7.6137
思	-7.62036
和	-7.62144
盡	-7.62991
宋	-7.63127
過	-7.63218
引	-7.63245
觀	-7.63269
應	-7.63325
白	-7.63462
極	-7.6395
尊	-7.64743
聖人	-7.64749
由	-7.64909
論	-7.64931
辟	-7.6514
語	-7.65183
少	-7.65303
近	-7.65401
理	-7.65937
共	-7.66435
門	-7.6644
从	-7.67104
體	-7.67296
起	-7.67748
爾	-7.68423
田	-7.68464
卒	-7.68544
度	-7.6869
孔子	-7.68853
武	-7.68894
歸	-7.68931
記	-7.68965
序	-7.6934
北	-7.6936
天下	-7.69518
帝	-7.70518
天子	-7.70748
政	-7.70867
如此	-7.70878
辭	-7.71204
丁	-7.71295
動	-7.71333
逺	-7.71834
按	-7.72022
火	-7.72713
信	-7.73183
張	-7.73225
仁	-7.73231
致	-7.73492
莫	-7.73562
周禮	-7.73614
都	-7.74127
身	-7.74945
舉	-7.75196
失	-7.75307
乾	-7.75423
著	-7.75491
祖	-7.75737
金	-7.75923
楚	-7.7596
節	-7.76095
謹按	-7.76208
河	-7.7724
㑹	-7.77299
彼	-7.77474
百	-7.77683
發	-7.77831
敬	-7.78257
魚	-7.78275
吉	-7.78665
别	-7.79602
孫	-7.79609
不能	-7.7972
釋	-7.80011
紀	-7.80389
制	-7.80499
順	-7.8051
色	-7.80615
執	-7.80647
親	-7.80652
蓋	-7.80695
加	-7.81124
餘	-7.81467
玉	-7.81522
左	-7.81655
髙	-7.8188
戸	-7.81992
宗	-7.82193
告	-7.82333
考異古本註	-7.82529
衆	-7.8266
尚	-7.82746
叔	-7.8298
漢	-7.83284
利	-7.83641
母	-7.83701
要	-7.83888
次	-7.84239
扶	-7.84478
讀	-7.84824
伐	-7.85339
足	-7.85445
苦	-7.85706
吾	-7.86232
宜	-7.87147
卷	-7.87249
載	-7.87364
太	-7.87468
甚	-7.87491
老	-7.87558
縣	-7.88043
施	-7.88765
胡	-7.89236
固	-7.89419
射	-7.89822
同上	-7.90207
萬	-7.90258
改	-7.90386
美	-7.90401
只	-7.90753
豈	-7.90843
宫	-7.90975
上有	-7.91003
舊	-7.91909
不得	-7.92117
教	-7.92435
離	-7.92594
城	-7.92796
才	-7.92931
流	-7.9302
賢	-7.93044
首	-7.93174
文王	-7.9334
故曰	-7.93424
二字	-7.93708
殷	-7.93775
興	-7.94133
斯	-7.94301
貌	-7.94365
丘	-7.94484
守	-7.94733
考	-7.94761
只是	-7.9498
句	-7.95954
之簡	-7.96213
容	-7.96412
史	-7.96897
周公	-7.97066
段作	-7.97068
盛	-7.97211
升	-7.97719
據	-7.97995
更	-7.98032
恐	-7.98218
劉	-7.98523
類	-7.98614
己	-7.98814
州	-7.98844
進	-7.99506
交	-7.99784
聞	-7.99838
者也	-7.99868
石	-8.00009
角	-8.00012
刑	-8.00353
口	-8.00536
予	-8.01115
商	-8.01451
弗	-8.0183
兵	-8.02046
十二	-8.02131
廟	-8.02147
汝	-8.02471
適	-8.02785
古文	-8.02883
目	-8.03012
龍	-8.03059
坤	-8.03245
代	-8.03846
仲	-8.03972
毛	-8.04311
獨	-8.04397
了	-8.04398
室	-8.04805
是也	-8.04909
指	-8.05181
□	-8.05612
封	-8.0585
廣	-8.05916
本亦作	-8.06174
底	-8.06199
或作	-8.06207
須	-8.07166
夷	-8.07291
又音	-8.07639
之事	-8.07806
化	-8.07843
養	-8.08178
九行	-8.08374
皇	-8.08499
益	-8.08761
禹	-8.0881
向	-8.08882
視	-8.08897
間	-8.09079
又作	-8.09305
洛	-8.09447
邑	-8.09553
任	-8.0958
乗	-8.09692
不知	-8.09831
功	-8.10296
衛	-8.10598
深	-8.10651
赤	-8.11244
二行	-8.11521
天地	-8.11538
列	-8.11557
夫子	-8.11571
司	-8.11876
葢	-8.12377
之義	-8.12497
烏	-8.12593
亦作	-8.12726
圖	-8.12883
申	-8.12913
干	-8.13434
唐	-8.13516
訓	-8.1363
昭	-8.13661
存	-8.14001
玄	-8.14172
俱	-8.14502
秦	-8.14581
降	-8.1465
剛	-8.14716
祀	-8.14744
息	-8.14882
獻	-8.1537
羊	-8.15744
里	-8.16469
无	-8.16602
可以	-8.16877
光	-8.17584
脱	-8.17586
往	-8.17942
辨	-8.18331
禮記	-8.18471
草	-8.18778
承	-8.19165
之意	-8.19194
依	-8.19207
等	-8.19529
備	-8.19594
便是	-8.19604
就	-8.1976
布	-8.20005
江	-8.20068
孔	-8.2019
畫	-8.20305
末	-8.20402
冠	-8.20588
録	-8.207
之道	-8.21033
尚書	-8.21096
反下	-8.21314
孝	-8.21491
修	-8.21658
精	-8.2181
子曰	-8.2192
律	-8.22152
疾	-8.22277
五行	-8.22278
春	-8.22312
原	-8.22395
歌	-8.22479
林	-8.22525
下有也	-8.22564
本或作	-8.22934
尸	-8.23075
甲	-8.23133
戒	-8.23269
滅	-8.23717
卿	-8.23746
黄	-8.23907
設	-8.24034
華	-8.24318
性	-8.24546
全	-8.24582
微	-8.24681
却	-8.24772
凶	-8.25002
正誤	-8.25232
爵	-8.25524
澤	-8.25604
對	-8.25753
感	-8.25755
簡	-8.25949
推	-8.26068
形	-8.26069
皮	-8.26183
本作	-8.26311
罪	-8.26588
具	-8.26645
誠	-8.26661
器	-8.26709
而後	-8.26764
注云	-8.27027
絶	-8.28148
牛	-8.28288
兮	-8.28375
三年	-8.28603
二十	-8.28704
勞	-8.28798
恭	-8.2897
皆同	-8.29248
期	-8.29364
虞	-8.29405
字誤	-8.29579
李	-8.29757
之時	-8.29928
廢	-8.30148
呼	-8.30496
斷	-8.30615
賔	-8.30793
良	-8.30832
虚	-8.31072
新	-8.31235
郭	-8.31409
克	-8.31445
而已	-8.31632
側	-8.31868
孟子	-8.32199
掌	-8.32498
雨	-8.32742
建	-8.33149
毛本誤	-8.33255
授	-8.33521
舜	-8.33587
爻	-8.34442
闕	-8.34457
卜	-8.34591
鳥	-8.3467
純	-8.34687
素	-8.34952
冬	-8.35024
嘗	-8.35644
之言	-8.35794
御	-8.35854
勝	-8.3596
聖	-8.36319
昌	-8.36598
燕	-8.36823
庶	-8.36856
專	-8.37154
手	-8.37298
貞	-8.37409
遺	-8.37431
例	-8.3775
特	-8.37959
衰	-8.38094
藏	-8.38139
隂陽	-8.38236
朱	-8.38384
除	-8.38577
姓	-8.38635
憂	-8.3874
占	-8.3891
請	-8.39055
弟	-8.3919
唯	-8.39316
拜	-8.39389
婦	-8.39668
酒	-8.39886
逆	-8.40096
看	-8.40433
還	-8.40467
不同	-8.40492
尺	-8.4051
左傳	-8.40588
質	-8.40635
至於	-8.4081
厥	-8.40944
孟	-8.41148
邪	-8.41366
賦	-8.41419
賜	-8.41501
之後	-8.41659
郊	-8.41748
繼	-8.4178
嵗	-8.41782
乘	-8.41879
福	-8.41945
刺	-8.41949
沈	-8.41974
七行	-8.4227
井	-8.42462
梁	-8.42598
户	-8.42867
履	-8.43065
革	-8.43124
秋	-8.43133
邦	-8.43444
害	-8.43492
萬物	-8.43763
私	-8.43945
左氏	-8.43951
武王	-8.43989
幾	-8.43992
否	-8.44177
吳	-8.44401
典	-8.44453
儀	-8.44481
開	-8.44494
柔	-8.4463
久	-8.4466
職	-8.44685
路	-8.447
堯	-8.44714
愛	-8.4487
校	-8.44906
十六	-8.44944
甫	-8.44998
曲	-8.4512
工	-8.4519
坐	-8.45204
征	-8.45571
戎	-8.45586
臨	-8.45609
習	-8.45632
盖	-8.45736
四行	-8.4579
隨	-8.45986
桓	-8.46064
千	-8.46107
參	-8.46191
計	-8.46227
監本誤	-8.46305
俗	-8.46617
后	-8.46732
貴	-8.46931
結	-8.47275
蒲	-8.47319
下共有也字	-8.47344
謀	-8.47499
置	-8.47514
辰	-8.47903
又曰	-8.47929
六行	-8.48064
陵	-8.48069
差	-8.48113
傷	-8.4823
越	-8.48296
果	-8.48522
遷	-8.4866
附	-8.48993
夫人	-8.49055
半	-8.49173
兼	-8.49176
衡	-8.49237
巳	-8.49449
十五	-8.4947
薄	-8.49535
堂	-8.49641
一行	-8.49738
哀	-8.49848
成王	-8.50197
妻	-8.50351
危	-8.50634
夜	-8.50652
海	-8.50716
何以	-8.50916
管	-8.50939
羽	-8.51032
三十	-8.51083
之所	-8.5128
讀為	-8.51491
軍	-8.5152
報	-8.51634
三行	-8.52118
葬	-8.52147
覆	-8.52189
號	-8.52296
咸	-8.52316
蔡	-8.52446
旁	-8.52464
濟	-8.525
配	-8.52506
舞	-8.52551
某	-8.52833
卑	-8.53313
反徐	-8.53423
震	-8.53502
人之	-8.53663
言之	-8.53753
旦	-8.53758
厚	-8.53911
待	-8.54298
述	-8.54305
畢	-8.54535
旣	-8.54658
并	-8.54685
舍	-8.55077
奉	-8.55152
毛傳	-8.55376
考異古本經	-8.55544
退	-8.55676
朔	-8.55836
率	-8.56033
飾	-8.56093
假	-8.56156
不敢	-8.56289
達	-8.56348
業	-8.56354
泰	-8.56517
表	-8.56532
總	-8.56945
于僞	-8.57095
維	-8.57417
詳	-8.57554
是以	-8.57767
端	-8.57871
竹	-8.58294
魏	-8.58355
元文	-8.58534
顯	-8.58539
符	-8.58577
介	-8.58989
遇	-8.59043
强	-8.59142
論語	-8.59329
這	-8.59454
史記	-8.595
鼓	-8.59572
散	-8.59651
救	-8.59777
集	-8.59978
箋	-8.60094
如何	-8.60176
智	-8.60183
勑	-8.60199
其所	-8.60924
湯	-8.60924
▁(	-8.60943
轉	-8.61013
到	-8.61014
龜	-8.61031
坎	-8.61128
鄉	-8.6118
亨	-8.6131
節疏	-8.61312
包	-8.61468
再	-8.6151
季	-8.61641
放	-8.61815
歴	-8.61815
族	-8.61898
采	-8.62131
那	-8.62309
逸	-8.62533
一本作	-8.62583
納	-8.62738
莊	-8.62979
小人	-8.63141
宣	-8.63216
做	-8.63343
公羊	-8.63387
公子	-8.63658
然後	-8.6377
宋板同	-8.63788
况	-8.63913
種	-8.64046
頭	-8.64216
享	-8.64533
示	-8.64565
連	-8.64608
敗	-8.64732
戰	-8.64783
青	-8.64808
舎	-8.64977
盟	-8.65137
豆	-8.65312
面	-8.65452
勿	-8.65452
當為	-8.65458
厭	-8.65587
望	-8.65623
輕	-8.65935
飲	-8.66156
景	-8.66315
保	-8.66405
獲	-8.66507
仕	-8.6656
敢	-8.66663
弑	-8.66761
如字又	-8.66808
毋	-8.66973
背	-8.67255
說文	-8.67358
来	-8.67465
十一	-8.67538
音義	-8.67768
聚	-8.67802
之説	-8.68261
恒	-8.68334
市	-8.68379
之子	-8.68651
弔	-8.68878
雜	-8.68919
錯	-8.68923
雲	-8.68924
移	-8.69042
昔	-8.69078
弓	-8.69125
祝	-8.69295
云云	-8.69464
權	-8.69903
之禮	-8.69936
一音	-8.69967
識	-8.70205
余	-8.70248
勇	-8.70306
最	-8.70348
庚	-8.70351
苟	-8.70617
襄	-8.70841
助	-8.70876
積	-8.71355
上下	-8.71687
補遺古本註	-8.72109
運	-8.72158
會	-8.72166
病	-8.7217
嗣	-8.72325
高	-8.7247
博	-8.72533
清	-8.72912
造	-8.73053
賈	-8.73079
羣	-8.7315
狄	-8.73166
條	-8.73436
省	-8.73508
社	-8.73526
威	-8.7379
徐音	-8.73951
接	-8.74259
野	-8.74364
耶	-8.74637
元年	-8.74647
以下	-8.74786
役	-8.74801
尤	-8.74938
歲	-8.75143
靈	-8.75199
陸	-8.75456
冝	-8.7548
丈	-8.75519
雷	-8.75704
郎	-8.75946
刻	-8.75985
芳	-8.76142
議	-8.76392
艮	-8.76491
聽	-8.7651
情	-8.76547
衞	-8.76547
補	-8.76667
蟲	-8.7694
避	-8.76948
虎	-8.7695
格	-8.76964
扶又	-8.76993
儀禮	-8.77304
被	-8.7732
之類	-8.77334
乙	-8.77502
圭	-8.77544
讓	-8.77951
錫	-8.78024
豐	-8.78042
音同	-8.78117
十三	-8.78308
桑	-8.7882
登	-8.78858
自然	-8.78872
又如字	-8.79177
斗	-8.79211
慎	-8.79244
顧	-8.7927
責	-8.79585
鳴	-8.79862
略	-8.8013
説文	-8.80217
八行	-8.80278
之間	-8.80316
戴	-8.80546
客	-8.80571
細	-8.8068
畏	-8.80709
杜	-8.8124
揚	-8.81425
先生	-8.81494
而無	-8.81591
箇	-8.81684
嘉	-8.81707
之心	-8.81737
亦有	-8.81901
忠	-8.82042
趙	-8.82094
也同	-8.82104
倫	-8.82188
不見	-8.82233
喻	-8.82501
閒	-8.8252
父母	-8.82585
協	-8.82679
召	-8.82724
奔	-8.82735
普	-8.82784
脫	-8.82932
忽	-8.83045
幽	-8.83058
節音義	-8.83175
崇	-8.83203
之象	-8.83224
況	-8.83443
畜	-8.83499
急	-8.83546
禘	-8.83718
又云	-8.83827
韻	-8.8397
吕	-8.84058
不言	-8.84174
反本	-8.84282
折	-8.84611
災	-8.84753
之辭	-8.84758
險	-8.84893
怨	-8.85142
司馬云	-8.85159
司馬	-8.85229
下文	-8.85328
二年	-8.85344
慮	-8.85417
黨	-8.85425
真	-8.85519
日月	-8.85592
矢	-8.85678
傳云	-8.8574
預	-8.85804
爾雅	-8.86094
式	-8.86361
歩	-8.86497
竟	-8.86631
者何對曰	-8.8693
費	-8.87016
衍	-8.87019
帥	-8.87046
偏	-8.87087
康	-8.87098
隠	-8.87124
夢	-8.8714
鮮	-8.87203
留	-8.8734
嫁	-8.87377
十四	-8.8742
鬼	-8.87628
舒	-8.87672
韓	-8.87707
刀	-8.87815
之人	-8.87917
厲	-8.87982
貫	-8.88406
察	-8.88517
妄	-8.88659
別	-8.88774
寒	-8.88847
匹	-8.8899
雅	-8.89039
一名	-8.89069
困	-8.89227
或為	-8.89305
旅	-8.89684
葉	-8.89715
豫	-8.89878
王肅	-8.89959
恱	-8.90164
房	-8.90326
不必	-8.90437
輔	-8.9044
無所	-8.90475
巽	-8.90486
免	-8.90579
量	-8.90633
違	-8.90681
誰	-8.90789
謙	-8.90806
五十	-8.90964
持	-8.91068
牲	-8.91076
伏	-8.9122
嚴	-8.91302
脩	-8.91428
厯	-8.91454
之法	-8.91479
喜	-8.91521
後世	-8.916
非也	-8.91658
兄	-8.91778
不然	-8.91808
患	-8.91811
未嘗	-8.91931
錄	-8.91937
念	-8.92247
姑	-8.92276
也故	-8.92391
為之	-8.92432
席	-8.92541
禄	-8.92768
而言	-8.92816
輿	-8.9289
十八	-8.92951
盈	-8.93168
監	-8.93386
未有	-8.93439
悔	-8.93614
兄弟	-8.93774
耕	-8.93822
泉	-8.94573
肆	-8.94851
儒	-8.95005
棄	-8.95517
繫	-8.95525
約	-8.95632
必有	-8.95648
隱	-8.9573
雍	-8.95766
空	-8.95814
均	-8.9582
漢書	-8.95843
抑	-8.96126
古本	-8.96263
當時	-8.96323
悉	-8.96508
之中	-8.9695
之以	-8.97047
乾坤	-8.97114
委	-8.97348
窮	-8.97706
蒙	-8.97775
李云	-8.97831
每	-8.97877
然則	-8.97977
匪	-8.9809
統	-8.98177
徃	-8.98182
懼	-8.98201
尾	-8.98273
出於	-8.98279
諱	-8.98614
機	-8.98625
鼎	-8.98654
樹	-8.98705
謹	-8.98782
五年	-8.98883
含	-8.98927
證	-8.98996
之數	-8.99142
負	-8.99177
學者	-8.99198
奏	-8.99249
七年	-8.99389
畧	-8.99553
毛詩	-8.99576
之地	-8.99634
靜	-8.99736
川	-8.99764
咎	-8.99918
祈	-8.99935
肉	-8.99942
穀	-9.00012
審	-9.0018
宿	-9.00254
妾	-9.00449
曹	-9.00505
王者	-9.00511
候	-9.00549
延	-9.00553
農	-9.00767
追	-9.00867
育	-9.01138
姜	-9.01163
休	-9.01224
一章	-9.01362
洪範	-9.01395
於此	-9.01424
補遺宋板疏	-9.01469
屋	-9.01509
故書	-9.0157
忘	-9.01634
古人	-9.01693
暴	-9.02193
鄭注	-9.02409
崔	-9.02456
爭	-9.02586
黒	-9.02731
漸	-9.02755
十年	-9.02762
道理	-9.03013
十七	-9.03039
稍	-9.03045
友	-9.03421
寢	-9.04018
界	-9.04045
淫	-9.04104
不足	-9.04298
誅	-9.04342
垂	-9.0452
步	-9.0466
胥	-9.04864
正月	-9.04921
惠	-9.04933
傅	-9.05043
仍	-9.05096
四年	-9.05224
迎	-9.05448
歳	-9.05508
早	-9.05563
吐	-9.05629
徴	-9.05678
宅	-9.05684
鄭氏	-9.05722
斂	-9.05767
殊	-9.05983
經文	-9.06158
旋	-9.0616
不及	-9.0661
禦	-9.06836
索	-9.0685
僖	-9.06914
有所	-9.07023
孚	-9.07242
富	-9.07434
寧	-9.07446
天之	-9.07615
不與	-9.07644
反注	-9.07685
巨	-9.0774
弱	-9.07768
佐	-9.07839
導	-9.07842
十九	-9.07997
擇	-9.08081
屈	-9.08225
敎	-9.08226
郷	-9.08682
庸	-9.08945
昏	-9.08947
禾	-9.09107
下皆同	-9.09218
尹	-9.0941
答	-9.09441
逐	-9.09498
天下之	-9.09623
對曰	-9.09873
寡	-9.09883
冕	-9.09946
四時	-9.10075
短	-9.10138
烝	-9.10197
佩	-9.10219
毁	-9.10255
以上	-9.10359
古者	-9.10397
葉左一行	-9.10476
辛	-9.10557
一本	-9.10578
祥	-9.10666
今文	-9.1081
以此	-9.10862
勢	-9.10862
鄭云	-9.10881
丹	-9.10928
徧	-9.11026
壬	-9.11342
徵	-9.11541
賓	-9.11638
人君	-9.11859
者皆	-9.11985
賁	-9.12032
牧	-9.12039
甸	-9.12388
足利本同	-9.12565
之文	-9.12722
蔽	-9.12788
反劉	-9.12803
一人	-9.12849
哭	-9.12954
撰	-9.13023
月令	-9.13052
府	-9.13059
米	-9.13132
四方	-9.13297
人心	-9.13402
三月	-9.13469
先王	-9.13501
賢遍	-9.13516
穆	-9.13794
犯	-9.14091
雉	-9.14118
皆作	-9.14246
圍	-9.14547
孤	-9.14573
奠	-9.14574
支	-9.14595
疆	-9.14624
互	-9.14632
之理	-9.1469
㬊淵録	-9.14804
禹貢	-9.14935
敖	-9.14937
戚	-9.1501
皆以	-9.15174
庭	-9.15194
不復	-9.1536
郡	-9.15648
薦	-9.15737
荀	-9.15863
浮	-9.16028
字林	-9.16135
正義	-9.16249
婦人	-9.16349
賤	-9.16553
強	-9.16561
之書	-9.1661
勤	-9.16739
禁	-9.16764
之名	-9.17059
兆	-9.17131
堅	-9.1715
主人	-9.17376
皆是	-9.17463
充	-9.17469
愚	-9.17476
桓公	-9.17516
用之	-9.17536
榖	-9.17538
於是	-9.17606
後人	-9.17731
禍	-9.17772
營	-9.17937
中庸	-9.17955
允	-9.17998
攝	-9.18083
恁地	-9.18146
歟	-9.18168
防	-9.18218
丑	-9.18313
酉	-9.18333
宰	-9.18355
熟	-9.18366
二十五	-9.18427
頌	-9.18511
侵	-9.18587
係	-9.18609
飛	-9.18625
䘮	-9.18812
調	-9.18934
荒	-9.19007
段	-9.19147
紂	-9.19371
缺	-9.19387
攻	-9.19455
鹿	-9.19522
肅	-9.19523
孰	-9.19629
貢	-9.19683
敦	-9.19878
盧	-9.19953
犬	-9.19986
京	-9.20045
字又作	-9.20072
怪	-9.20133
討	-9.2015
詩云	-9.20214
吏	-9.20413
獸	-9.2052
曾	-9.20584
亮	-9.20588
池	-9.20605
䟽	-9.20643
夾	-9.20645
娶	-9.20938
二十四	-9.20951
邊	-9.2097
也若	-9.20998
契	-9.21049
黄帝	-9.21323
昬	-9.21377
其事	-9.21499
閑	-9.2153
見得	-9.21553
三百	-9.21561
饗	-9.21796
可見	-9.21894
謝	-9.22
足利本	-9.22007
收	-9.22125
罔	-9.22158
楊	-9.2216
損	-9.22176
之外	-9.22211
俊	-9.22245
之謂	-9.22442
永	-9.22472
至于	-9.22486
單	-9.22498
千里	-9.22506
不書	-9.22806
嫡	-9.22881
九年	-9.23111
仲尼	-9.23179
六年	-9.23239
孝經	-9.23261
鍾	-9.23358
訟	-9.23383
敷	-9.23399
二章	-9.23478
宋板足利本同	-9.23487
綏	-9.23538
熊	-9.23604
照	-9.23765
亦不	-9.23905
朱子	-9.23909
周易	-9.241
味	-9.24179
諫	-9.24195
驕	-9.24315
三字	-9.24341
祗	-9.24507
蒼	-9.24546
續	-9.24617
回	-9.24673
左右	-9.24754
之為	-9.24922
璧	-9.2495
資	-9.24999
葛	-9.25174
四字	-9.25187
消	-9.25308
煩	-9.25357
得其	-9.25419
燭	-9.25432
擊	-9.25498
領	-9.25539
之下	-9.25552
覺	-9.25684
術	-9.25734
詞	-9.26013
勉	-9.2618
一箇	-9.26214
故云	-9.26346
本義	-9.26383
下有之字	-9.26411
刃	-9.26413
繫辭	-9.2643
文公	-9.26643
環	-9.2669
葉左四行	-9.26703
塞	-9.27035
臧	-9.27065
落	-9.27093
襲	-9.27284
游	-9.27413
務	-9.27419
寛	-9.27421
彊	-9.27497
磬	-9.27544
下孟	-9.27617
不當	-9.27656
馬云	-9.27673
之詩	-9.27694
翼	-9.27751
不過	-9.27807
君臣	-9.27821
帶	-9.27897
男	-9.28039
呼報	-9.28171
揖	-9.2821
聘	-9.28326
趨	-9.28328
皆有	-9.2848
淵	-9.28558
恩	-9.28639
偽	-9.28768
幣	-9.28799
筮	-9.29069
速	-9.29091
遊	-9.29113
遜	-9.29138
不以	-9.29142
淺	-9.29155
滿	-9.29163
穴	-9.29231
棘	-9.29235
九五	-9.29305
十二月	-9.29482
谷	-9.29509
渠	-9.29688
黃	-9.29717
公孫	-9.29723
析	-9.30017
九二	-9.30106
又有	-9.30198
譏	-9.30308
則不	-9.30325
鐘	-9.30402
板	-9.30409
麻	-9.3043
財	-9.3043
艾	-9.30459
怒	-9.30786
而為	-9.30879
境	-9.31059
縱	-9.31232
下有之也二字	-9.31305
舟	-9.31321
並同	-9.31528
賊	-9.3162
露	-9.31652
其義	-9.31881
道也	-9.31944
骨	-9.32128
則是	-9.32132
本或	-9.32158
知其	-9.32222
一句	-9.32329
栗	-9.32353
齊侯	-9.32364
以其	-9.32415
祭祀	-9.3245
反注同	-9.3251
章指	-9.32527
如是	-9.3261
十二年	-9.32624
辯	-9.32682
韋	-9.32693
之屬	-9.3275
效	-9.32915
說文云	-9.32935
循	-9.32944
編	-9.33012
臺	-9.3305
温	-9.33103
捨	-9.33232
不相	-9.33326
黑	-9.3337
齋	-9.33449
言其	-9.3358
見於	-9.33717
大學	-9.33809
禽	-9.33844
下並同	-9.33902
班	-9.33932
廬	-9.33971
束	-9.33994
不用	-9.34216
子夏	-9.34231
烏路	-9.34233
基	-9.34279
朋	-9.34325
妃	-9.34362
无咎	-9.3441
伊川	-9.34716
本亦	-9.34759
軌	-9.34831
者謂	-9.3496
講	-9.35259
相似	-9.35267
吉凶	-9.35347
去聲	-9.35694
詔	-9.35709
不可以	-9.35722
否曰	-9.35758
茅	-9.35859
袁	-9.35896
第	-9.3605
誥	-9.3615
根	-9.36173
屯	-9.36181
題	-9.36194
笑	-9.36217
彌	-9.36228
菜	-9.36253
倒	-9.3627
一篇	-9.36277
自是	-9.36279
遥	-9.36334
緯	-9.36362
則有	-9.36421
鬼神	-9.36604
十一年	-9.36853
伏羲	-9.36929
諡	-9.36953
陟	-9.37059
八年	-9.37119
也今	-9.37312
各有	-9.37341
周之	-9.3737
莒	-9.37529
雞	-9.37595
送	-9.37619
說文作	-9.37619
悲	-9.3771
子路	-9.37744
香	-9.37757
乃旦	-9.37844
曲禮	-9.37912
杖	-9.37968
敵	-9.38002
徹	-9.3844
䇿	-9.38633
不是	-9.38638
勸	-9.38828
歷	-9.38875
者以	-9.38887
忌	-9.38893
曽	-9.39131
六二	-9.39169
裘	-9.3933
九三	-9.39395
縁	-9.39437
彖傳	-9.39475
十五年	-9.3948
迹	-9.39765
然而	-9.39792
晦	-9.39814
甘	-9.39891
關	-9.39934
狩	-9.39953
僖公	-9.40159
彖辭	-9.40306
之制	-9.40401
踐	-9.40407
㫖	-9.40415
弟子	-9.40431
服䖍	-9.40435
受命	-9.40496
程	-9.40514
奴	-9.4057
卯	-9.4072
不如	-9.40773
壽	-9.40777
莊公	-9.40809
之說	-9.40822
徑	-9.40835
藉	-9.40859
或曰	-9.40913
恤	-9.40918
明堂	-9.41056
稽	-9.41075
蠱	-9.41202
蘇	-9.41407
又問	-9.41502
為是	-9.4165
之行	-9.41677
㣲	-9.41694
部	-9.41695
昧	-9.41814
僕	-9.41862
見其	-9.41866
劉音	-9.4207
起吕	-9.42086
麟	-9.42131
稷	-9.42184
密	-9.42185
貶	-9.42192
伊	-9.42245
絲	-9.42288
的	-9.4233
淳	-9.42373
此言	-9.42443
試	-9.42484
即位	-9.42528
三章	-9.42558
竊	-9.42565
國之	-9.42585
倍	-9.42703
鳩	-9.42867
宗廟	-9.42928
節傳	-9.42973
初九	-9.43067
裳	-9.43072
罰	-9.43169
閏	-9.43169
可知	-9.43203
叙	-9.43251
緩	-9.43288
民之	-9.43414
郭音	-9.43481
放此	-9.43581
援	-9.43699
忍	-9.43706
是故	-9.43758
第十	-9.43809
累	-9.43814
八卦	-9.43869
君之	-9.439
住	-9.43953
象曰	-9.44118
旱	-9.44126
愈	-9.44167
兊	-9.44177
屨	-9.44323
姬	-9.44515
惑	-9.4465
之功	-9.44723
倚	-9.44806
禮樂	-9.44844
賈逵	-9.4493
于僞反下	-9.45062
竒	-9.45211
泥	-9.45266
所云	-9.45413
六月	-9.45479
先儒	-9.45487
昭公	-9.45567
其説	-9.45598
葉右五行	-9.45657
彼列	-9.45678
不為	-9.45684
聖人之	-9.45886
茂	-9.46029
葉左五行	-9.46118
謬	-9.46146
辱	-9.46258
偃	-9.46288
桃	-9.46313
棺	-9.46333
婢	-9.46441
壯	-9.46479
踰	-9.46513
健	-9.46578
陰	-9.46602
篤	-9.46638
決	-9.46752
仰	-9.46775
域	-9.46819
須是	-9.46874
變化	-9.46924
横	-9.47101
午	-9.47126
荆	-9.47172
洽	-9.47176
冬至	-9.47177
譜	-9.47208
慢	-9.47231
奚	-9.47274
幹	-9.47337
陶	-9.47429
説得	-9.47517
六十	-9.47751
靡	-9.47815
齊人	-9.47853
宮	-9.48073
遍	-9.48112
十三年	-9.4823
烈	-9.48254
飯	-9.48347
稅	-9.48384
其言	-9.48533
足以	-9.48549
東方	-9.48577
者不	-9.48663
反一音	-9.48663
大抵	-9.48681
血	-9.48713
呉	-9.48756
葉右八行	-9.48777
吝	-9.48791
反又音	-9.48815
悦	-9.49224
壇	-9.49312
増	-9.49314
補遺釋文	-9.4941
蕩	-9.49411
及注同	-9.49473
不成	-9.49817
豕	-9.49952
六三	-9.50026
以爲	-9.50158
則為	-9.50195
三日	-9.50258
階	-9.50318
如何曰	-9.50335
塗	-9.50347
麗	-9.50393
戈	-9.50409
也此	-9.50503
而有	-9.50616
託	-9.50851
弁	-9.50894
七月	-9.50916
馮	-9.50924
六五	-9.50938
繹	-9.50953
顔	-9.51271
葉右三行	-9.51278
沙	-9.51297
十月	-9.51332
桀	-9.51334
祔	-9.51344
崩	-9.51378
訛	-9.5138
願	-9.51403
括	-9.51426
䝉	-9.51503
𤣥	-9.51556
二十七	-9.51567
寅	-9.51823
偶	-9.51902
啓	-9.52005
童	-9.52021
讀如	-9.5204
振	-9.52052
侍	-9.52181
塟	-9.52244
苗	-9.5226
壁	-9.52358
奪	-9.52381
墨	-9.52405
下有也字疏	-9.52425
截	-9.52496
殯	-9.52504
監本	-9.52635
註云	-9.52726
子孫	-9.5279
者非	-9.52824
慶	-9.52869
懐	-9.52909
焚	-9.52925
滕	-9.52937
上帝	-9.52951
恥	-9.5297
獄	-9.5298
遯	-9.53016
供	-9.53049
晉侯	-9.53362
将	-9.53399
墓	-9.53433
丁丈	-9.53444
反下同	-9.53563
鄙	-9.53565
補遺古本經	-9.53576
不出	-9.53585
笙	-9.53602
幸	-9.53675
在上	-9.53742
四十	-9.53759
葉左八行	-9.53796
行之	-9.53851
太子	-9.53996
易之	-9.53997
文言	-9.54011
河圖	-9.54015
醢	-9.5407
究	-9.54076
薛	-9.5408
匡	-9.54136
繩	-9.54234
岳	-9.54397
故以	-9.54398
閔	-9.54433
巫	-9.54643
狐	-9.5469
蕭	-9.54753
七十	-9.55052
兹	-9.55087
隆	-9.551
數也	-9.5511
名也	-9.55138
榮	-9.55191
没	-9.55201
蜀	-9.55225
也右	-9.55252
十四年	-9.55443
世子	-9.55472
誓	-9.55639
較	-9.55652
附近	-9.55681
破	-9.5569
漆	-9.55743
孔子曰	-9.55744
戾	-9.55747
霸	-9.55751
麥	-9.55755
堯典	-9.55787
上九	-9.55832
六四	-9.55841
二十八	-9.55957
西南	-9.56011
之有	-9.56029
夕	-9.56141
天子之	-9.56206
俎	-9.56262
矜	-9.5639
渉	-9.56454
鄭伯	-9.56469
其餘	-9.56657
其實	-9.56775
鑿	-9.56793
范	-9.56848
牡	-9.56861
今之	-9.56939
牝	-9.56998
般	-9.57004
付	-9.57025
之貌	-9.57045
天地之	-9.57209
為一	-9.57416
几	-9.57459
棟案	-9.57477
倉	-9.57543
其中	-9.57855
嗟	-9.57916
卜筮	-9.57945
傾	-9.5806
罷	-9.58101
僭	-9.58108
博士	-9.58121
百里	-9.58125
貝	-9.58164
直吏	-9.58295
故謂之	-9.58392
王制	-9.58399
専	-9.584
瑞	-9.58448
不在	-9.58454
歎	-9.5847
借	-9.58491
而成	-9.58635
亢	-9.58682
小雅	-9.58805
是謂	-9.58866
頗	-9.59073
籍	-9.59082
啟	-9.59095
拘	-9.59138
之學	-9.5914
祇	-9.59162
章句	-9.59362
材	-9.59545
卿大夫	-9.59556
綱	-9.59586
柱	-9.59638
舌	-9.59723
展	-9.59734
晚	-9.59756
招	-9.59772
酌	-9.598
東南	-9.59815
嚮	-9.59833
彖	-9.59906
左氏作	-9.59909
可謂	-9.60004
墜	-9.60191
嫌	-9.60243
亦然	-9.60278
人也	-9.60317
醴	-9.60331
十六年	-9.60383
俾	-9.60396
削	-9.60401
東北	-9.60503
下注同	-9.60571
晝	-9.60731
咨	-9.60748
殆	-9.60796
鼻	-9.60827
第二	-9.60837
剛柔	-9.60849
墳	-9.60908
枝	-9.60926
取其	-9.61017
曽子	-9.61139
者亦	-9.61179
牢	-9.61398
貪	-9.61427
粟	-9.61435
使之	-9.61441
蛇	-9.61584
草木	-9.61709
潮	-9.61754
禮也	-9.61891
限	-9.61978
希	-9.62021
黍	-9.62084
徂	-9.62119
旬	-9.62134
者有	-9.62339
司徒	-9.62441
隋	-9.62521
帛	-9.62598
頃	-9.62605
百姓	-9.62641
父子	-9.62656
播	-9.62681
天命	-9.63001
繁	-9.63202
譽	-9.63226
其子	-9.63231
周官	-9.63322
初六	-9.63413
舜典	-9.63591
現	-9.63595
西北	-9.63652
幼	-9.63677
亥	-9.63718
秀	-9.6376
此是	-9.6382
弊	-9.63825
巧	-9.64054
葉右七行	-9.64057
不合	-9.64062
一曰	-9.64212
圓	-9.64212
為君	-9.64252
躬	-9.64315
斬	-9.64335
植	-9.64422
繇	-9.64442
彭	-9.6446
中有	-9.64617
庶子	-9.64676
一日	-9.65035
貳	-9.65039
蕃	-9.65054
寄	-9.65109
走	-9.65157
攷	-9.65264
有三	-9.65317
之氣	-9.65436
之日	-9.65588
九四	-9.65694
也問	-9.65711
搏	-9.65772
瓜	-9.65861
襄公	-9.66023
俟	-9.66066
所以為	-9.66069
葉右六行	-9.6608
呼報反	-9.66138
徙	-9.66196
叛	-9.66206
尋	-9.66208
牙	-9.66214
通用	-9.66251
操	-9.66251
駕	-9.66261
赦	-9.66269
孔氏	-9.66274
黎	-9.66288
則以	-9.66337
翟	-9.66387
正嘉同	-9.6647
妙	-9.66527
殤	-9.66564
亦是	-9.66622
闢	-9.66712
欽定四庫全書	-9.66715
之近	-9.66729
註同	-9.66743
自有	-9.66743
牽	-9.66745
選	-9.66776
寶	-9.66823
隅	-9.66836
爻辭	-9.66895
穀梁	-9.66929
羔	-9.67005
也鄭	-9.67101
佳	-9.67126
泄	-9.67185
之國	-9.67234
其文	-9.67241
寸	-9.67293
譬	-9.67293
報反	-9.67358
榖梁	-9.67406
文字	-9.67426
賢者	-9.67443
薨	-9.67492
文武	-9.67621
子貢	-9.67694
之德	-9.67824
三公	-9.67865
烏路反	-9.67951
驗	-9.6798
諸侯之	-9.68045
併	-9.68051
遣	-9.68052
决	-9.68063
力呈	-9.68087
混	-9.68105
漢儒	-9.68168
這箇	-9.68205
摯	-9.6825
檢	-9.68301
之位	-9.68631
十一月	-9.68679
掩	-9.68716
耦	-9.6872
輒	-9.68733
儉	-9.68747
宛	-9.68774
規	-9.68774
之月	-9.68839
攸	-9.68843
藥	-9.68849
二月	-9.68905
道之	-9.69085
在下	-9.69092
韓詩作	-9.69122
今本	-9.6917
中國	-9.69221
一卷	-9.69245
提	-9.69255
遵	-9.6929
分明	-9.69291
驅	-9.69418
而不知	-9.69459
音泰	-9.69819
着	-9.69857
渾	-9.69947
杞	-9.69993
渙	-9.70009
其位	-9.70018
憲	-9.70572
羅	-9.706
筆	-9.70605
赴	-9.70627
樊	-9.70661
及下同	-9.70684
隕	-9.70731
耆	-9.7077
九月	-9.71029
忠信	-9.71151
韓詩	-9.71264
人所	-9.71281
巢	-9.71305
爾雅云	-9.71315
于僞反	-9.71324
雩	-9.71343
灼	-9.71385
副	-9.71386
浪	-9.71394
邾	-9.71523
是為	-9.71572
王之	-9.71591
程傳	-9.71707
欺	-9.71766
庶人	-9.71869
社稷	-9.71933
盤庚	-9.7194
此則	-9.71956
閉	-9.71963
僻	-9.71973
未必	-9.71984
活	-9.72013
暮	-9.72027
練	-9.7203
亦可	-9.7204
鼔	-9.72059
行也	-9.72082
薪	-9.72147
時掌	-9.72322
得之	-9.7233
後同	-9.72342
為主	-9.72347
之世	-9.72422
測	-9.7243
億	-9.72443
優	-9.72473
齒	-9.72484
握	-9.72515
蹇	-9.72579
饋	-9.72612
瀆	-9.72624
即是	-9.72677
婁	-9.72701
侈	-9.72717
皆放此	-9.72738
此詩	-9.72832
哀公	-9.73005
藝	-9.73063
經傳	-9.73107
英	-9.73226
溢	-9.73268
輪	-9.73297
税	-9.73309
山川	-9.73364
之徳	-9.7338
喪服	-9.73404
故不	-9.73436
九十	-9.73498
以成	-9.73607
六經	-9.73627
項	-9.73915
遠	-9.73917
霜	-9.73932
而行	-9.73952
戍	-9.73962
牟	-9.73979
其心	-9.73987
上文	-9.73991
也又	-9.7409
十七年	-9.74266
字足利本同	-9.74393
如字徐	-9.74401
不應	-9.74518
蓍	-9.74535
遲	-9.74537
懲	-9.7459
欽	-9.74608
懷	-9.74615
陷	-9.74617
妹	-9.74622
築	-9.74658
醉	-9.74672
鄰	-9.74696
雖有	-9.74708
曠	-9.74708
二反	-9.74714
貎	-9.74724
上六	-9.74785
之處	-9.74813
安得	-9.74838
岐	-9.7508
大雅	-9.75118
腹	-9.75168
莫不	-9.75169
丙	-9.75185
壺	-9.75215
今人	-9.75221
遽	-9.75237
閭	-9.75243
盤	-9.75273
距	-9.75291
宴	-9.75343
太極	-9.75383
二本	-9.75666
音洛	-9.75668
静	-9.75761
崔云	-9.75832
晏	-9.75864
錢	-9.75906
弘	-9.75965
之應	-9.76033
波	-9.76058
邁	-9.76081
生於	-9.76095
堯舜	-9.762
廣雅云	-9.76375
而生	-9.76377
者何	-9.7641
又如	-9.76544
本又	-9.76579
四章	-9.76591
朕	-9.76607
影	-9.76609
潤	-9.76616
股	-9.76664
八月	-9.76692
版	-9.7674
有一	-9.76855
氏曰	-9.77044
絶句	-9.77115
需	-9.77173
今作	-9.77197
已上並	-9.77207
萃	-9.77298
斥	-9.77302
仙	-9.77335
夭	-9.77341
三十二	-9.77383
可也	-9.77468
仁者	-9.77506
鄭玄	-9.77853
殘	-9.77932
突	-9.77937
饑	-9.77964
涉	-9.77968
崇禎本	-9.78073
男女	-9.78111
隊	-9.78205
二十一	-9.7828
或云	-9.7834
第一	-9.78405
佞	-9.78689
軒	-9.78714
賣	-9.78771
黄鍾	-9.78864
左傳作	-9.79047
上作	-9.79077
誦	-9.79227
貧	-9.79281
十八年	-9.79292
祠	-9.79368
也夫	-9.79452
一字	-9.79483
太甲	-9.79521
墮	-9.79553
宣王	-9.79581
以豉	-9.79697
反郭	-9.7975
息亮	-9.79757
五帝	-9.79886
源	-9.79913
之前	-9.7992
邵	-9.79992
彖曰	-9.80031
於人	-9.80045
攘	-9.80095
召公	-9.801
逮	-9.80104
其間	-9.80131
雄	-9.80144
以見	-9.80149
冒	-9.80194
旄	-9.80229
四月	-9.80289
下有者字	-9.80357
二十九	-9.80369
集解	-9.80428
於䖍	-9.80582
後漢	-9.80609
不行	-9.80632
戌	-9.80658
者為	-9.80659
揲	-9.80666
呂	-9.80682
珠	-9.80704
屏	-9.80764
郭云	-9.80809
徳之	-9.80845
扶又反	-9.81097
樞	-9.81267
栁	-9.81359
淮	-9.81375
羞	-9.81396
旗	-9.81428
闗	-9.81443
西方	-9.81516
天道	-9.81545
之故	-9.81558
敝	-9.81595
宣公	-9.81674
粉	-9.81724
豔	-9.81776
之樂	-9.81801
非从	-9.81808
相應	-9.82111
寳	-9.82114
曷	-9.82204
亟	-9.82238
挍	-9.82244
菑	-9.82277
釐	-9.82312
柄	-9.82321
古之	-9.82341
麋	-9.8235
理㑹	-9.82399
殺之	-9.824
名曰	-9.82409
亦無	-9.8248
五月	-9.8264
之稱	-9.82728
夫婦	-9.82804
鳳	-9.82822
伊尹	-9.8288
萌	-9.82907
毒	-9.82975
欒	-9.82997
眉	-9.83003
郤	-9.8301
事也	-9.83097
子之	-9.83129
昌慮	-9.83313
嶽	-9.83565
貨	-9.83665
傍	-9.83666
姒	-9.837
縮	-9.83709
投	-9.83735
逼	-9.8382
孫注	-9.83955
明矣	-9.8398
皆不	-9.84048
直遥	-9.84138
之初	-9.84289
漏	-9.84333
整	-9.84336
袒	-9.84367
南方	-9.84423
刋	-9.84431
泰誓	-9.84453
氷	-9.84469
鉤	-9.84541
沃	-9.84551
夬	-9.84588
伏生	-9.84663
其君	-9.84689
微子	-9.84895
成公	-9.85036
壊	-9.85079
擯	-9.85123
幅	-9.85125
馬融	-9.85163
割	-9.85191
其身	-9.85213
董	-9.85234
鞠	-9.85263
冥	-9.8528
東西	-9.8531
暫	-9.85399
出入	-9.85411
陽氣	-9.85426
之極	-9.85455
或問	-9.85608
五經	-9.85628
洗	-9.85821
誣	-9.85836
艱	-9.85855
贊	-9.85864
潛	-9.85885
則無	-9.85892
濁	-9.85915
荷	-9.85981
髮	-9.86017
雖然	-9.86058
奄	-9.86264
之内	-9.86284
而復	-9.86316
正也	-9.86425
酬	-9.86492
煙	-9.86504
宻	-9.86511
四海	-9.86525
當從	-9.86568
拒	-9.86577
媵	-9.8664
當以	-9.86674
冰	-9.86732
侮	-9.86742
竭	-9.86758
銜	-9.86777
駟	-9.86779
苞	-9.8682
丸	-9.86841
紆	-9.86929
知之	-9.87342
爾雅作	-9.87352
策	-9.8736
台	-9.87368
逃	-9.87379
檀弓	-9.87421
籥	-9.87446
糾	-9.87536
結反	-9.87647
息亮反	-9.87833
分為	-9.87877
之上	-9.87921
減	-9.88113
慈	-9.8812
佚	-9.88188
鼠	-9.88333
始於	-9.88396
飲食	-9.88458
傳曰	-9.88474
有此	-9.88511
補遺	-9.88622
寫	-9.88687
甲子	-9.88701
徽	-9.88895
溺	-9.88906
館	-9.88928
沒	-9.88948
程子	-9.88995
悖	-9.89014
國語	-9.8912
諸本	-9.89136
箕子	-9.89233
裏	-9.89244
之服	-9.89321
者則	-9.89326
失其	-9.89358
刪	-9.89393
朱傳	-9.89402
歛	-9.8953
有功	-9.89556
繩證反	-9.89642
豳	-9.89692
苑	-9.89715
哲	-9.89736
囚	-9.89754
圉	-9.89832
牆	-9.89834
闕文	-9.89872
祁	-9.89929
一作	-9.89935
父之	-9.90014
一云	-9.90023
二十二	-9.90104
盟于	-9.9025
僅	-9.90349
虐	-9.90373
碑	-9.90413
裼	-9.90421
九州	-9.90438
潔	-9.90472
犧	-9.90476
書之	-9.90489
穿	-9.90511
拂	-9.90591
三十六	-9.90645
佗	-9.90747
駁	-9.90773
答曰	-9.90984
算	-9.91109
朋友	-9.91173
玩	-9.91286
絰	-9.91298
字從	-9.91303
宥	-9.91314
中央	-9.91322
小序	-9.91364
警	-9.9137
陂	-9.91452
也然	-9.91455
愼	-9.91489
象傳	-9.91606
直遥反	-9.917
字或作	-9.91845
之道也	-9.91942
之始	-9.91971
懸	-9.91971
羲	-9.92006
卓	-9.92032
芒	-9.92069
禱	-9.92092
無道	-9.9212
裁	-9.92131
狂	-9.92191
永同	-9.92215
斤	-9.92239
而得	-9.92243
於天	-9.92283
之美	-9.92335
不明	-9.92357
魄	-9.92451
文王之	-9.92469
事之	-9.92511
何也	-9.92523
宋本	-9.92568
其人	-9.92642
六葉	-9.92648
一百	-9.92714
禪	-9.92771
書曰	-9.92802
司空	-9.92805
反字林	-9.92847
綴	-9.92921
笄	-9.92933
繆	-9.92954
峻	-9.9298
皇極	-9.9298
豈有	-9.93019
下有也字釋文	-9.93335
買	-9.93396
玉篇	-9.93418
不从	-9.93576
緦	-9.93601
阻	-9.93612
陋	-9.9362
若是	-9.93647
亳	-9.93682
巻	-9.93683
沮	-9.93687
斧	-9.93711
拾	-9.93717
簋	-9.93726
肩	-9.93728
嬴	-9.93749
灌	-9.93844
汙	-9.93881
且如	-9.93909
辭也	-9.94124
㸔	-9.94194
應對	-9.94224
之喪	-9.94246
也言	-9.9425
秘	-9.94376
蠻	-9.94421
荅	-9.94472
之難	-9.94489
虛	-9.94495
二十六	-9.94511
癸	-9.94521
卷中	-9.94542
馳	-9.94554
爰	-9.94556
旨	-9.94585
皆然	-9.9461
趣	-9.94614
敕	-9.94645
寘	-9.94657
滑	-9.94663
不可曉	-9.94691
十五葉	-9.94692
蟹	-9.94706
五章	-9.9474
猶言	-9.94859
箋云	-9.9496
無不	-9.95
聴	-9.95173
武公	-9.95175
渡	-9.95215
夀	-9.95224
暑	-9.95309
遭	-9.95309
倦	-9.9531
矩	-9.95316
伍	-9.95362
大衍	-9.95415
瞽	-9.95423
狗	-9.95434
濡	-9.95446
為人	-9.95489
扈	-9.95498
此章	-9.95552
大小	-9.95657
以後	-9.95678
女子	-9.95687
一陽	-9.95794
為正	-9.95862
所引	-9.95898
亦云	-9.95947
僣	-9.95969
琴	-9.96045
顛	-9.96068
臯	-9.96072
怠	-9.96125
其後	-9.9613
梅	-9.96156
談	-9.9617
惕	-9.9617
遏	-9.96209
沛	-9.96219
巡	-9.96249
捷	-9.96273
何如	-9.96276
懈	-9.9628
丁丈反	-9.96296
毗	-9.96301
叔孫	-9.96383
取之	-9.96453
祭之	-9.9649
工夫	-9.96588
國人	-9.96701
其道	-9.96815
洪	-9.9682
臭	-9.96892
乖	-9.96953
迷	-9.9696
字子	-9.96963
賛	-9.96965
酢	-9.9698
組	-9.96994
屢	-9.97007
眞	-9.97008
摩	-9.97017
剥	-9.97026
猛	-9.97047
矛	-9.97076
暗	-9.97077
絜	-9.97152
姚	-9.97177
故言	-9.97328
不善	-9.97356
巾	-9.97366
之精	-9.97367
使人	-9.97368
王命	-9.97376
皆為	-9.97422
讀書	-9.97466
狀	-9.97482
病也	-9.97484
三代	-9.97512
失之	-9.97522
僞	-9.97652
所吏	-9.97662
乂	-9.97761
反李	-9.97806
虢	-9.97818
戲	-9.97853
北方	-9.97873
殿	-9.97878
平王	-9.97914
闇	-9.97916
字疏	-9.98031
大人	-9.98053
法也	-9.98236
周書	-9.98401
二十三	-9.98524
三家	-9.98559
許多	-9.98597
區	-9.98605
並無	-9.98608
祫	-9.98622
仇	-9.9863
完	-9.98642
壞	-9.98745
浸	-9.98745
頤	-9.98812
八十	-9.9888
國君	-9.98915
王注	-9.98931
宋公	-9.98971
不稱	-9.99021
絃	-9.99093
節箋	-9.9911
義理	-9.99146
十葉	-9.992
不通	-9.99209
黜	-9.99423
㢲	-9.99458
詠	-9.9946
孔傳	-9.9946
銳	-9.99481
肺	-9.99503
頑	-9.9951
逢	-9.99538
畔	-9.99547
磨	-9.99548
冀	-9.99589
芻	-9.996
大功	-9.99624
汎	-9.99676
在此	-9.99678
也鄭注	-9.99937
季氏	-10.0007
後放此	-10.0008
太平	-10.0015
畝	-10.002
故有	-10.0021
其徳	-10.0026
秉	-10.0029
孔安國	-10.0031
軫	-10.0032
醫	-10.0034
杜預	-10.0038
圜	-10.0038
人者	-10.004
準	-10.0042
闔	-10.0043
去下	-10.0044
創	-10.0047
驚	-10.0047
瑕	-10.0049
叢	-10.005
乆	-10.0057
羣臣	-10.0058
十卷	-10.0063
觀之	-10.0072
則知	-10.0085
箕	-10.0086
為大	-10.0096
后妃	-10.01
之末	-10.0102
之情	-10.0106
其意	-10.012
魂	-10.012
文作	-10.0125
威儀	-10.0126
躍	-10.0127
考異宋板疏	-10.0129
受之	-10.0135
弛	-10.0136
賢遍反	-10.0138
眷	-10.0142
所傳	-10.0143
入于	-10.0146
韋昭	-10.0146
經典釋文	-10.0152
之所以	-10.016
無有	-10.0171
起吕反	-10.0179
遥反	-10.0188
以明	-10.0198
底意思	-10.0201
舅	-10.0203
滋	-10.0205
之用	-10.0212
計反	-10.0212
焦	-10.0214
庾	-10.0214
周人	-10.0217
它	-10.0218
緝	-10.0218
旌	-10.0219
鵠	-10.0221
謁	-10.0223
二傳作	-10.0225
而不能	-10.0227
一時	-10.023
彫	-10.0232
正義曰	-10.0247
以禮	-10.0253
衍字	-10.0254
不易	-10.0267
字林云	-10.0267
所作	-10.027
同姓	-10.0276
敏	-10.028
是説	-10.0286
地名	-10.0288
紫	-10.029
争	-10.0291
諧	-10.0291
挾	-10.0294
筵	-10.0296
亭	-10.0306
本無	-10.0312
盍	-10.0312
愆	-10.0312
恐非	-10.0313
藻	-10.0316
所載	-10.0317
以示	-10.0354
不正	-10.0357
大也	-10.036
昆弟	-10.0364
尺證	-10.0366
於外	-10.0368
瑟	-10.0369
祧	-10.038
者如	-10.0381
盜	-10.0381
渭	-10.0382
補脱	-10.0389
擾	-10.0391
頓	-10.0393
恨	-10.0394
樂記	-10.0399
花	-10.0399
暇	-10.0404
矣故	-10.0406
此皆	-10.0423
戰國	-10.0436
以豉反	-10.0443
神明	-10.0446
下注	-10.0454
曉	-10.0456
科	-10.0461
三千	-10.0465
而能	-10.0468
把	-10.047
或謂	-10.047
中正	-10.047
所主	-10.0478
無所不	-10.0478
鴻	-10.0481
弦	-10.0482
吹	-10.0485
萊	-10.0486
諸儒	-10.0486
零	-10.0487
賀	-10.0491
考之	-10.0494
交反	-10.0497
天王	-10.0509
為天	-10.0524
九葉	-10.0529
㬊淵錄	-10.053
不好	-10.0533
以前	-10.0536
而立	-10.0536
如此則	-10.0537
雜記	-10.0564
邱	-10.0565
疇	-10.0566
及其	-10.0568
謨	-10.0569
意思	-10.057
奥	-10.057
南北	-10.057
理也	-10.0571
膚	-10.0571
詐	-10.0572
兑	-10.0574
二句	-10.0574
亦以	-10.0575
六爻	-10.0576
也玉篇	-10.0578
之語	-10.0579
考工記	-10.0585
膏	-10.0585
纁	-10.0588
趾	-10.0589
惡之	-10.06
先後	-10.0609
其國	-10.0613
無也字	-10.0621
七葉	-10.0626
故知	-10.0644
措	-10.0654
釋文作	-10.0654
鈎	-10.0656
誨	-10.0656
上去	-10.0659
廷	-10.066
三十三	-10.0661
什	-10.0661
濫	-10.0662
湛	-10.0667
進退	-10.0667
其名	-10.0669
考異足利本註	-10.0673
緇	-10.0673
織	-10.0675
阮	-10.0676
緜	-10.0682
之官	-10.069
一本無	-10.0717
相近	-10.0723
推之	-10.0732
宋板無	-10.0743
无妄	-10.0746
寓	-10.0753
寵	-10.0756
箭	-10.0761
止也	-10.0762
補脫	-10.0764
悌	-10.0764
牖	-10.0768
燔	-10.0768
百官	-10.0772
見之	-10.0777
夏至	-10.0779
下孟反	-10.0791
其為	-10.0802
之誤	-10.0803
在位	-10.0803
七十二	-10.0813
之長	-10.0817
未知	-10.0822
求之	-10.0824
炎	-10.0833
以至	-10.0833
雪	-10.0835
易曰	-10.084
尉	-10.084
武成	-10.0841
㡬	-10.0842
夘	-10.0848
戮	-10.0848
伸	-10.0849
蘭	-10.085
者是	-10.0853
个	-10.0854
也也上有之字	-10.0855
脯	-10.0857
判	-10.0858
蜃	-10.0859
狹	-10.0859
諒	-10.086
補闕	-10.086
其書	-10.086
古文尚書	-10.0861
不勝	-10.0862
劣	-10.0864
從之	-10.0864
門人	-10.0874
之為言	-10.0891
十七葉	-10.09
氏之	-10.0919
勾	-10.0925
一事	-10.0927
話	-10.0929
之物	-10.093
鄫	-10.0936
三十一	-10.094
獵	-10.0942
廿二行	-10.0945
昆	-10.0945
定公	-10.0946
柳	-10.0946
無一	-10.0949
值	-10.095
纓	-10.0953
臘	-10.0958
荼	-10.0959
長子	-10.0962
隋書三十二	-10.0966
子思	-10.097
鴆	-10.0983
角反	-10.0985
賢人	-10.1003
梓	-10.1007
之實	-10.1009
善也	-10.1015
觸	-10.1027
之變	-10.1031
十九葉	-10.104
猗	-10.1047
貉	-10.1052
天理	-10.1063
一月	-10.1075
萬里	-10.1076
在天	-10.1077
鄭註	-10.1081
爲之	-10.1099
八葉	-10.1119
終始	-10.1122
仲子	-10.1126
復有	-10.1129
迭	-10.113
觧	-10.113
輅	-10.1134
神農	-10.1137
音餘	-10.1138
命之	-10.1145
狼	-10.1146
贄	-10.1148
則必	-10.1149
矯	-10.1152
依字	-10.1152
天子諸侯	-10.1156
鬯	-10.1158
非禮	-10.116
古字	-10.1188
廉	-10.1193
品	-10.122
頂	-10.1222
低	-10.1222
纔	-10.1222
依注	-10.1229
賞	-10.123
琢	-10.1231
鄭康成	-10.1231
朝廷	-10.1233
兮反	-10.1233
禮之	-10.1234
柴	-10.1238
此理	-10.1241
綸	-10.1244
蒐	-10.1246
縫	-10.1247
枚	-10.1249
穫	-10.125
際	-10.1253
註疏	-10.1254
朝服	-10.1259
下音	-10.1259
弋	-10.1265
五星	-10.1273
物之	-10.128
下共有也	-10.1283
國名	-10.1284
下文同	-10.1295
添	-10.1315
証	-10.1319
也按	-10.1319
足利本同釋文	-10.1321
鰥	-10.1323
李注	-10.1324
欽定四庫全書七經孟子考文補遺卷	-10.1324
説文作	-10.1325
后稷	-10.1329
壻	-10.1332
撫	-10.1334
醜	-10.1336
瞻	-10.1337
奮	-10.1341
僚	-10.1349
尊卑	-10.1352
五葉	-10.136
楚子	-10.1361
亮反	-10.1364
之謂也	-10.1368
反沈	-10.1371
者其	-10.1373
至此	-10.138
此説	-10.1382
氣也	-10.1389
十八葉	-10.1398
之性	-10.1403
有二	-10.1404
是非	-10.1414
阿	-10.142
誕	-10.1426
吁	-10.1427
輦	-10.1431
七經孟子考文補遺卷	-10.1432
稻	-10.1437
二百	-10.1439
水火	-10.1441
染	-10.1441
讙	-10.1441
盾	-10.1442
序疏	-10.1443
聲之誤也	-10.1453
之甚	-10.1462
小過	-10.1468
也注同	-10.1475
百八十	-10.149
之際	-10.1494
百二十	-10.1497
覲	-10.1504
畿	-10.1507
十二葉	-10.1511
觀其	-10.1514
毎	-10.152
反或	-10.152
詩曰	-10.1521
融	-10.1523
痛	-10.1524
脊	-10.1525
擬	-10.1526
之正	-10.1526
抱	-10.1526
篆	-10.1531
管仲	-10.1533
韶	-10.1537
去又	-10.1541
不從	-10.1554
劉向	-10.1562
之體	-10.1563
大國	-10.1573
想	-10.1583
便有	-10.1584
三分	-10.161
關雎	-10.1614
時也	-10.1616
一葉	-10.1619
兒	-10.162
竝	-10.1621
康誥	-10.1626
頒	-10.163
給	-10.1631
前後	-10.1631
藩	-10.1633
通典	-10.1633
奢	-10.1638
迫	-10.1639
法度	-10.1641
橋	-10.1648
絞	-10.1648
壹	-10.1649
其地	-10.1653
固有	-10.1653
疏云	-10.1658
亦非	-10.1659
讀曰	-10.1661
靳	-10.1662
教人	-10.1665
時掌反	-10.1666
來朝	-10.167
止於	-10.1673
所言	-10.1675
昊天	-10.1677
二人	-10.1683
二本同	-10.1691
所生	-10.1708
繩證	-10.1721
不足以	-10.1721
欠	-10.1723
石經	-10.1728
觶	-10.1729
禰	-10.1733
昭穆	-10.1733
燎	-10.1734
邇	-10.1734
堪	-10.1735
讒	-10.1735
邢	-10.1735
歡	-10.1736
凝	-10.1736
蔑	-10.1737
訊	-10.1737
秩	-10.1738
衷	-10.1739
姊	-10.1739
喚	-10.1743
摇	-10.1753
也謂	-10.1762
六反	-10.1769
先天	-10.1775
曰天	-10.178
之㑹	-10.1812
其辭	-10.1813
嘆	-10.1817
或有	-10.1826
跡	-10.1826
叶	-10.1829
衝	-10.1829
汭	-10.1831
錦	-10.1832
世家	-10.1832
雒	-10.1837
惰	-10.1839
二十年	-10.1841
勺	-10.1843
乞	-10.1845
筐	-10.1845
者此	-10.1846
蚤	-10.1847
故為	-10.1852
仁義	-10.186
帥師	-10.1868
無可	-10.1871
未濟	-10.1883
出奔	-10.1887
非是	-10.1902
直吏反	-10.1915
不失	-10.1918
孝子	-10.192
乾之	-10.1924
異於	-10.1926
妖	-10.1928
釋文云	-10.1933
豚	-10.1934
叟	-10.1934
阜	-10.1936
姤	-10.1937
祐	-10.1942
季孫	-10.1948
其一	-10.1949
翰	-10.1949
慝	-10.1952
高宗	-10.1955
蒸	-10.1956
直用	-10.1956
俘	-10.1957
釁	-10.1957
不至	-10.1958
飲酒	-10.1961
鉏	-10.1967
反說文云	-10.1968
物也	-10.197
服之	-10.1971
三葉	-10.1977
冉	-10.1989
二曰	-10.2
弼	-10.2001
變而	-10.2002
故其	-10.2002
雀	-10.2028
觚	-10.2029
也也上有者字	-10.2031
灰	-10.2032
悟	-10.2033
六十四卦	-10.2034
宏	-10.2039
恃	-10.2041
鯀	-10.2041
窒	-10.2041
古今	-10.2044
誘	-10.205
侑	-10.205
鬱	-10.2056
粥	-10.2056
穢	-10.2057
知者	-10.2058
言語	-10.2058
歷反	-10.206
盥	-10.2061
蹙	-10.2062
才用反	-10.2063
苴	-10.2064
有道	-10.2065
三本	-10.2065
乃旦反	-10.2066
如字劉	-10.2098
先君	-10.2105
注皆同	-10.2107
鄭作	-10.2109
許亮反	-10.2113
未詳	-10.2114
大臣	-10.2122
之至	-10.2125
三人	-10.2132
門外	-10.214
毫	-10.2143
洞	-10.2143
隔	-10.2144
賴	-10.2151
也故曰	-10.2153
姦	-10.2157
踊	-10.2159
鸞	-10.2162
之使	-10.2162
蓼	-10.2165
帝王	-10.2165
有箇	-10.2171
卦之	-10.2176
音預	-10.218
十八葉左	-10.218
曾子	-10.2184
丁仲反	-10.219
並如字	-10.2193
春秋傳	-10.2194
以象	-10.2201
而止	-10.2203
内外	-10.2209
國子	-10.221
之神	-10.2211
道心	-10.2213
曰此	-10.2238
鄒	-10.2239
之閒	-10.2241
歆	-10.2243
肝	-10.2245
增	-10.2254
饌	-10.2257
考異古本序	-10.2257
稼	-10.2258
員	-10.226
國風	-10.2268
翦	-10.227
愬	-10.2272
之矣	-10.2273
鼈	-10.2274
螽	-10.2275
圃	-10.2276
詩人	-10.2277
牀	-10.2279
絹	-10.2279
有事	-10.2286
茀	-10.2288
所出	-10.2289
自家	-10.2296
文章	-10.2307
聲也	-10.2314
洛書	-10.2314
所見	-10.2318
二十五年	-10.2327
中間	-10.2332
不信	-10.2333
分别	-10.234
入於	-10.2349
従	-10.2351
不待	-10.2352
食之	-10.2353
朱校宋本禮記疏	-10.2357
奇	-10.2361
蟄	-10.2364
夷狄	-10.2364
玉藻	-10.2367
脾	-10.237
御覽	-10.2371
畿内	-10.2371
史記注三十	-10.2374
旦反	-10.2374
親親	-10.2376
贈	-10.2376
拊	-10.2378
利貞	-10.2384
大過	-10.2392
莧	-10.2395
過也	-10.24
十一葉	-10.2404
猶有	-10.2406
夫子之	-10.2408
别有	-10.241
賢徧	-10.2411
不知其	-10.2415
之臣	-10.2417
不忍	-10.2418
矣然	-10.2429
元文作	-10.2429
二十八年	-10.2437
下去	-10.2452
也無也字	-10.2457
者乎	-10.246
人事	-10.2466
殽	-10.247
確	-10.2473
箴	-10.2475
輯	-10.2475
顓頊	-10.2476
四象	-10.2477
魯人	-10.2477
此書	-10.2479
松	-10.248
大禹謨	-10.2481
棲	-10.2481
流行	-10.2482
函	-10.2483
臂	-10.2485
枉	-10.2485
肥	-10.2485
彦	-10.2487
爲其	-10.2487
饒	-10.2488
驪	-10.2491
札	-10.2503
監本脱	-10.2503
也孫注	-10.2503
人皆	-10.2505
十三葉	-10.251
未見	-10.2517
見于	-10.2517
先王之	-10.2519
當在	-10.2523
詩作	-10.2533
二十葉	-10.2533
字同	-10.2555
次序	-10.2557
崔本作	-10.2572
音智	-10.2573
易傳	-10.2581
而不可	-10.2589
佑	-10.259
謹按當在	-10.2595
祕	-10.2595
偪	-10.2597
孽	-10.2597
膳	-10.2598
頻	-10.2599
怡	-10.26
愧	-10.2602
二葉	-10.2606
驂	-10.2607
拯	-10.2609
刈	-10.261
之志	-10.2613
珍	-10.2613
太守	-10.2614
康成	-10.2616
顧命	-10.2623
十三葉左	-10.2628
以來	-10.2632
平聲	-10.2633
聖賢	-10.2636
可疑	-10.2643
碩	-10.2652
而后	-10.2659
男子	-10.2661
鹽	-10.2664
十四葉	-10.2664
古亂	-10.2666
天文	-10.2671
崑崙	-10.2671
之徒	-10.2681
物事	-10.2688
字亦作	-10.2689
壤	-10.2692
慕	-10.2695
下有者也二字	-10.2699
蓄	-10.2704
翳	-10.2704
而已矣	-10.2705
賵	-10.2706
隷	-10.2707
幕	-10.2715
三篇	-10.2715
卬	-10.2717
於上	-10.2717
枕	-10.2718
兖	-10.2719
公㑹	-10.2722
有九	-10.274
公羊傳	-10.2742
未能	-10.2742
不盡	-10.2742
欲其	-10.2753
叚	-10.2762
之母	-10.2774
可乎	-10.2787
因其	-10.2794
随	-10.2799
凖	-10.2804
様	-10.2805
津	-10.2805
有四	-10.2806
豉	-10.2806
之分	-10.2807
褒	-10.2811
何謂	-10.2812
黙	-10.2812
忿	-10.2814
縷	-10.2814
世之	-10.2815
也鄭云	-10.2818
櫟	-10.2819
績	-10.282
敘	-10.2823
蔡傳	-10.2824
轅	-10.2829
裹	-10.2829
拔	-10.2831
涕	-10.2831
滌	-10.2832
之罪	-10.2836
易中	-10.2838
文子	-10.2841
濯	-10.2843
為作謂	-10.2854
何也曰	-10.2855
於是乎	-10.2858
故稱	-10.2861
首章	-10.2865
四十九	-10.2867
内則	-10.2881
君子之	-10.2888
第三	-10.2894
今日	-10.2896
後鄭	-10.2898
此意	-10.291
𢎞	-10.291
疎	-10.2914
菽	-10.2917
匏	-10.2919
不動	-10.2921
十二葉右	-10.2923
覽	-10.2923
囿	-10.2923
脅	-10.2926
園	-10.2927
好惡	-10.293
楯	-10.2931
鳥獸	-10.2932
㝠	-10.2932
快	-10.2933
摶	-10.2935
夏之	-10.2937
翻	-10.294
魁	-10.294
是時	-10.2941
頰	-10.2942
紹	-10.2944
柩	-10.2945
者必	-10.2945
丕	-10.2945
殺人	-10.2945
吕刑	-10.295
貌下	-10.2955
親迎	-10.2957
經書	-10.2957
五事	-10.2957
一書	-10.2965
却是	-10.2968
豬	-10.2968
則又	-10.2976
國中	-10.2979
五百	-10.2984
何必	-10.2991
馬本作	-10.2992
並史記注三十	-10.2994
非謂	-10.3001
樂之	-10.3006
之義也	-10.3008
音嗣	-10.3009
於君	-10.3009
不已	-10.3011
小功	-10.3027
與此	-10.3035
此亦	-10.3035
之職	-10.3041
昨	-10.3043
溝	-10.3043
婚	-10.3045
辜	-10.3045
緇衣	-10.3045
是如此	-10.3045
臯陶	-10.305
黼	-10.305
蹈	-10.3052
莊子	-10.3052
益稷	-10.3053
柏	-10.3054
四葉	-10.3055
餼	-10.3056
衮	-10.3057
貍	-10.3058
無此	-10.3062
反李云	-10.3064
劒	-10.3076
既濟	-10.3081
如之何	-10.3094
人以	-10.3096
息浪	-10.3106
此謂	-10.312
始也	-10.3125
之本	-10.3125
剝	-10.3144
如何對曰	-10.3155
而歸	-10.3157
菹	-10.3161
墟	-10.3165
靖	-10.3167
甚矣	-10.3167
熒	-10.3168
檜	-10.3168
揆	-10.3169
者言	-10.317
其次	-10.3178
也且	-10.318
二千	-10.3188
如今	-10.3188
事而	-10.3192
而未	-10.3195
事君	-10.3204
善惡	-10.3208
之政	-10.3219
所記	-10.3222
而非	-10.323
訓為	-10.3233
然也	-10.3259
教之	-10.3267
懿	-10.3272
嗚呼	-10.3277
熙	-10.3281
信也	-10.3281
遁	-10.3281
扶又反下	-10.3282
飢	-10.3283
豹	-10.3285
暢	-10.3286
卵	-10.3286
肄	-10.3286
忒	-10.3288
上面	-10.3291
技	-10.3296
飭	-10.3298
已有	-10.3303
三寸	-10.331
輕重	-10.3311
誤也	-10.3322
風雨	-10.3323
不止	-10.3326
鄭音	-10.3329
也案	-10.3331
易也	-10.3331
此一	-10.3332
禮者	-10.334
問曰	-10.3347
無以	-10.3349
先鄭云	-10.3355
鴆反	-10.3363
直專	-10.3364
記云	-10.3371
説命	-10.3372
彗	-10.3372
無窮	-10.3374
十里	-10.3375
禮義	-10.338
日食	-10.338
忍反	-10.3385
讀爲	-10.339
浩	-10.3392
跪	-10.3392
公劉	-10.3393
桐	-10.3397
殛	-10.3398
之至也	-10.3398
傳作	-10.34
也然則	-10.34
擅	-10.3401
纂	-10.3402
損益	-10.3402
義也	-10.3404
竇	-10.3408
明堂位	-10.3409
冢	-10.3409
蠶	-10.3412
葵	-10.3413
袂	-10.3414
傲	-10.3414
憚	-10.342
藪	-10.3424
穎	-10.3425
一行注	-10.3428
本文	-10.3435
戊	-10.3453
動而	-10.3456
無之字	-10.3456
文也	-10.3462
音恱	-10.3465
此二	-10.3478
為政	-10.3485
無疑	-10.3495
有常	-10.3501
逹	-10.3508
老子	-10.3509
耀	-10.351
斁	-10.3515
不解	-10.3517
圗	-10.3517
沈僴錄	-10.3519
小子	-10.3519
其母	-10.3521
洛誥	-10.3522
膠	-10.3525
抗	-10.3525
劉歆	-10.3525
相見	-10.3526
瓦	-10.3526
詩照	-10.3527
噫	-10.3527
炙	-10.353
乎此	-10.353
洒	-10.353
卻	-10.3531
冶	-10.3533
嬖	-10.3536
俞	-10.3536
之序	-10.3538
兔	-10.3544
娣	-10.3545
匿	-10.3546
謹按宋板	-10.3564
亦曰	-10.3566
次第	-10.3569
之主	-10.3577
在於	-10.3577
惟其	-10.358
其他	-10.3586
而出	-10.3588
書云	-10.3588
而知	-10.3592
狀如	-10.3597
其行	-10.3604
十七葉右	-10.3605
二卦	-10.3606
周公之	-10.3614
君也	-10.3619
不變	-10.362
未聞	-10.3622
在外	-10.3624
先祖	-10.3625
也考異古本註	-10.3627
啇	-10.3631
豈不	-10.3636
淑	-10.3639
宇	-10.3642
髪	-10.3646
垣	-10.3647
翔	-10.3649
天官	-10.3649
岱	-10.3651
庇	-10.3657
虺	-10.3671
淸	-10.3676
音烏	-10.3676
廣韻	-10.3678
永懐堂同	-10.3682
六章	-10.3687
以自	-10.369
樂也	-10.3695
十六葉	-10.3696
字下	-10.3703
王子	-10.3705
往來	-10.3709
宋板足利本同疏	-10.3711
十有二	-10.3715
十九年	-10.3718
反司馬云	-10.3724
所當	-10.3729
夏正	-10.3731
音避	-10.3738
下及	-10.3742
有司	-10.3743
不利	-10.3744
之節	-10.3745
似嗟	-10.375
惜	-10.3754
緒	-10.376
諭	-10.3763
胄	-10.3773
有兩	-10.3774
康節	-10.3774
黄道	-10.3775
皆可	-10.3776
勅	-10.3776
婉	-10.3777
埽	-10.3779
八百	-10.3779
緑	-10.3779
醯	-10.378
鋪	-10.3782
隰	-10.3782
坎離	-10.3783
旂	-10.3784
鄭本作	-10.3785
枯	-10.3787
轂	-10.3788
京師	-10.3789
繒	-10.3792
乃是	-10.3795
橫	-10.3796
曹伯	-10.3798
潰	-10.3799
言之則	-10.38
髦	-10.3801
之盛	-10.3811
故君子	-10.3814
異義	-10.3815
一爻	-10.3817
久矣	-10.3818
六十四	-10.3821
國家	-10.3823
其性	-10.3832
以授	-10.3834
其大	-10.3838
文云	-10.384
十葉右	-10.3843
節註	-10.3844
音試	-10.3845
而上	-10.3845
棟	-10.3846
廣大	-10.3846
二十四年	-10.3852
歸于	-10.3868
草也	-10.3869
穆公	-10.3874
冦	-10.3875
當有	-10.3883
此之謂	-10.3892
洲	-10.3894
激	-10.3894
司冦	-10.3894
王季	-10.3896
粗	-10.39
暨	-10.39
遐	-10.3901
鐵	-10.3903
故能	-10.3904
廿一行注	-10.3905
埋	-10.3906
梏	-10.3906
万	-10.3909
塵	-10.391
臼	-10.3911
樓	-10.3917
蒿	-10.3917
阪	-10.3919
兕	-10.392
太史	-10.3921
第一章	-10.3923
時人	-10.3928
三卷	-10.3932
孟子曰	-10.3932
成功	-10.3946
適子	-10.3955
二十一年	-10.3959
無非	-10.3963
之命	-10.3965
居之	-10.3965
大傳	-10.3973
則自	-10.3975
相與	-10.3978
力智	-10.3979
杜氏	-10.3988
以求	-10.3989
二十二年	-10.3991
三王	-10.4004
胃	-10.4012
頥	-10.4017
轡	-10.4021
兌	-10.4022
肱	-10.4023
礙	-10.4024
康叔	-10.4026
訖	-10.4027
用力	-10.4027
舍人注	-10.4028
林學履錄	-10.4028
繡	-10.403
庖	-10.4032
鞅	-10.4032
肯	-10.4032
挈	-10.4036
涇	-10.4036
麤	-10.4036
舂	-10.4039
二卷	-10.404
耄	-10.4048
濕	-10.4049
朝夕	-10.405
所在	-10.405
出來	-10.4059
其丈	-10.406
後來	-10.4064
其數	-10.4078
不忘	-10.4081
皆云	-10.4083
三十五	-10.4083
所行	-10.4098
之廟	-10.4101
齊衰	-10.4104
水經注	-10.4108
不食	-10.4111
魚據	-10.4113
子男	-10.4116
中孚	-10.4118
何休	-10.4119
杭	-10.4135
曰吾	-10.4135
王云	-10.4138
輩	-10.4139
範	-10.4143
騎	-10.4145
翁	-10.4147
存乎	-10.4148
勲	-10.4149
不知何氏錄	-10.4149
虧	-10.4152
下箋	-10.4159
四百	-10.4159
靣	-10.4161
睦	-10.4161
亶	-10.4161
足利本同註	-10.4162
憤	-10.4164
絺	-10.4164
大畜	-10.4167
鶉	-10.4167
十二行注	-10.4167
拱	-10.4167
狎	-10.4168
喙	-10.4171
祼	-10.4174
泣	-10.4176
涖	-10.4177
謹案	-10.4177
考異足利本傳	-10.4178
也从	-10.4178
隧	-10.4179
抄本無	-10.418
喬	-10.418
不欲	-10.4189
之君	-10.419
其聲	-10.4191
兩儀	-10.4198
之聲	-10.4202
視之	-10.4203
說得	-10.4203
楚人	-10.4204
東海	-10.4208
黒水	-10.4208
也韓詩	-10.4212
他人	-10.4238
古文作	-10.4246
何為	-10.4247
四國	-10.425
征伐	-10.4252
南面	-10.4258
毛云	-10.4259
制度	-10.4259
王室	-10.4264
之首	-10.4265
騐	-10.4269
伋	-10.4271
皷	-10.4276
讎	-10.4276
膝	-10.428
乳	-10.4282
亦未	-10.4283
倡	-10.4285
銘	-10.4285
賾	-10.4288
明之	-10.429
若不	-10.429
詭	-10.4291
衽	-10.4292
周正	-10.4293
殄	-10.4299
厄	-10.4299
宵	-10.43
氐	-10.43
旒	-10.4303
堵	-10.4306
貴賤	-10.4306
耿	-10.4308
坦	-10.431
卦爻	-10.4317
則非	-10.4318
治之	-10.4319
司馬法	-10.4322
三曰	-10.4331
未盡	-10.4334
河南	-10.4341
其親	-10.4347
子張	-10.4348
者當	-10.4348
此義	-10.4362
何所	-10.4368
丁歷	-10.4385
𤼵	-10.4388
不爲	-10.4389
雖不	-10.439
才用	-10.4391
二十三葉	-10.4392
家語	-10.4396
使者	-10.4399
董銖録	-10.4405
郕	-10.4415
可與	-10.4415
悅	-10.4415
集註	-10.4418
屑	-10.4419
陪	-10.4421
飽	-10.4421
亞	-10.4422
依注音	-10.4424
䙝	-10.4426
蓬	-10.4429
祊	-10.443
莞	-10.4431
之類是也	-10.4433
緌	-10.4436
宋人	-10.4438
至誠	-10.4439
之卦	-10.4449
畆	-10.4456
地理	-10.4457
爭鬪	-10.4459
所吏反	-10.4466
十葉左	-10.4468
三十八	-10.447
則曰	-10.4473
矣此	-10.4473
又以	-10.4474
數之	-10.4477
聞之	-10.4489
德之	-10.4497
芳服	-10.4499
二十三年	-10.4506
若此	-10.4515
十七葉左	-10.4528
並作	-10.4532
元亨利貞	-10.4535
冡	-10.4539
經作	-10.4539
郭璞	-10.454
浴	-10.4543
晝夜	-10.4547
淪	-10.4548
何人	-10.4549
禫	-10.4552
本意	-10.4553
詁	-10.4556
眚	-10.4561
渝	-10.4562
劓	-10.4564
膺	-10.4564
㦸	-10.4566
春官	-10.4569
管子	-10.4569
墉	-10.457
齎	-10.4572
腥	-10.4573
筴	-10.4573
此篇	-10.4574
揭	-10.4575
菁	-10.4582
三句	-10.4585
三者	-10.4591
永懷堂同	-10.4593
存舊	-10.4596
王弼	-10.4599
衛侯	-10.46
一物	-10.4604
下有之也	-10.4607
而又	-10.4608
韓詩云	-10.4612
光明	-10.4614
馬鄭	-10.4618
矣夫	-10.462
馬傳	-10.4627
正是	-10.4632
也李注	-10.4637
或音	-10.4646
䖍	-10.4649
不安	-10.4655
王后	-10.4655
而天下	-10.4662
二十二葉	-10.4665
鏘	-10.4679
紐	-10.4683
歐陽	-10.4684
夔	-10.4687
晁	-10.4688
朴	-10.4691
滯	-10.4694
亦當	-10.4694
俯	-10.4694
汜	-10.4694
作樂	-10.4694
二十四葉	-10.4695
點	-10.4697
輝	-10.4697
競	-10.4699
其所以	-10.47
文選注	-10.47
毛公	-10.4701
匱	-10.4704
不容	-10.4704
汁	-10.4704
芮	-10.4706
五色	-10.4706
躋	-10.4707
明也	-10.4707
耜	-10.4707
裂	-10.471
詛	-10.471
緫	-10.4711
縛	-10.4716
犂	-10.4716
上音	-10.4717
洩	-10.4718
明夷	-10.472
蜀才	-10.4726
五寸	-10.4728
案毛氏居正云	-10.4729
二作三	-10.4738
氣象	-10.4739
第四	-10.4748
終日	-10.4754
隠公	-10.4756
二十一葉	-10.4761
此類	-10.4782
下共有也字疏	-10.4788
六卿	-10.479
無事	-10.4798
動也	-10.4806
十九葉左	-10.4806
魚吕	-10.4809
制禮	-10.4814
悼	-10.4814
嬰	-10.4815
級	-10.4823
覩	-10.4828
不若	-10.4831
卿士	-10.4833
分曉	-10.4835
椒	-10.4836
反本或作	-10.4837
披	-10.4837
多少	-10.4837
貍首	-10.4837
銅	-10.4839
霍	-10.4839
鎮	-10.4839
鬻	-10.484
十一行注	-10.4841
宋板作	-10.4841
墠	-10.4842
殖	-10.4843
抽	-10.4843
帷	-10.4845
固是	-10.4847
詣	-10.4847
伯禽	-10.4852
蔓	-10.4854
賢徧反	-10.4856
皆從	-10.4858
􁂒	-10.4866
鐸	-10.4868
土地名	-10.487
字釋文	-10.4872
泰山	-10.4876
之水	-10.4877
之次	-10.4877
看來	-10.4883
不敬	-10.4883
藏之	-10.4893
二十五葉	-10.4893
於其	-10.4896
乃以	-10.49
字从	-10.49
詩傳	-10.4904
其時	-10.4907
尊者	-10.4908
徐扶	-10.4912
利用	-10.4913
無常	-10.4916
太師	-10.4924
宋板同疏	-10.4927
以待	-10.4929
當依	-10.493
人情	-10.4934
下脱	-10.4935
也崔云	-10.4938
百年	-10.4941
皆無	-10.4942
取象	-10.4946
河水	-10.4952
正嘉	-10.4954
釋文一	-10.4954
晷	-10.4955
顔淵	-10.496
十行注	-10.496
若夫	-10.4962
葦	-10.4967
騶虞	-10.4967
銀	-10.4969
弑其君	-10.4971
肇	-10.4971
絳	-10.4972
藴	-10.4978
簫	-10.4978
汗	-10.4981
沂	-10.4981
逝	-10.4981
槁	-10.4983
卧	-10.4984
莖	-10.4985
賄	-10.4986
茹	-10.4988
而死	-10.4989
圈	-10.499
不可不	-10.4991
麇	-10.4991
其德	-10.4991
榆	-10.4996
之祭	-10.4997
者即	-10.5001
也足利本	-10.5002
有天下	-10.5011
回反	-10.5013
同今本	-10.5025
衣服	-10.5028
江漢	-10.5031
引此	-10.5032
燕禮	-10.5039
之善	-10.5045
土地	-10.5056
丁仲	-10.5062
臥	-10.5063
之狀	-10.5064
萬世	-10.5068
註作	-10.5072
於内	-10.5073
文義	-10.5073
發明	-10.5078
毛本	-10.5091
乎其	-10.5091
惠公	-10.5093
也二字	-10.5096
尼	-10.5102
冬十月	-10.5103
恵	-10.5107
筍	-10.5108
衆人	-10.5109
貽	-10.5109
噬嗑	-10.5114
㫁	-10.5114
駿	-10.5116
莫大於	-10.5117
羮	-10.5117
下經	-10.5118
㕓	-10.5119
一遥	-10.5119
檀	-10.5119
鹿鳴	-10.512
熱	-10.5122
竈	-10.5123
鮑	-10.5123
憑	-10.5124
研	-10.5124
十九行注	-10.5125
音亦	-10.5125
竄	-10.5126
探	-10.5126
則當	-10.5127
挺	-10.5128
場	-10.5128
扞	-10.5129
翣	-10.513
旃	-10.5131
徐又	-10.5136
胤	-10.5139
無射	-10.5142
之爭	-10.5143
衆也	-10.5151
本紀	-10.5151
悉薦	-10.5157
四十六	-10.5158
又何	-10.5159
反覆	-10.516
而好	-10.5167
望之	-10.5172
第五章	-10.5177
終於	-10.5177
後天	-10.5179
矣而	-10.5194
厲王	-10.5196
昔者	-10.5197
三十一年	-10.5198
十四葉左	-10.5198
無逸	-10.5205
荀作	-10.5206
也春秋	-10.5209
其志	-10.521
所為	-10.5212
得中	-10.5212
十五葉右	-10.5225
有罪	-10.5237
灾	-10.5241
德行	-10.5242
換	-10.5247
以告	-10.5247
不失其	-10.5249
䑕	-10.5256
詢	-10.5257
白虎通	-10.526
鑑	-10.526
脚	-10.5261
駭	-10.5263
寐	-10.5263
賚	-10.5263
裔	-10.5264
蒯	-10.5265
五百里	-10.5266
稚	-10.5266
雕	-10.5267
亷	-10.5267
金縢	-10.5267
愠	-10.5268
不惟	-10.5268
詰	-10.5269
其說	-10.5269
醮	-10.5269
黍稷	-10.527
騂	-10.5273
四十五	-10.5275
其功	-10.5277
少牢	-10.5278
輈	-10.5278
汚	-10.5278
水名	-10.5278
少陽	-10.5279
促	-10.5281
偷	-10.5281
孕	-10.5282
二十行注	-10.5282
於天下	-10.5284
䕃	-10.529
下當脱	-10.5292
宫室	-10.5294
以致	-10.5296
從而	-10.5296
諸家	-10.5297
多士	-10.53
鄉遂	-10.5302
在其中	-10.5304
三百六十	-10.5307
二十九年	-10.5309
集傳	-10.5309
少隂	-10.531
合於	-10.5315
大夫士	-10.5318
大事	-10.5327
十四葉右	-10.5327
五行注	-10.5329
二十七年	-10.5329
未可	-10.5331
之事也	-10.5335
位而	-10.5336
大誥	-10.5349
庶民	-10.5351
小戴	-10.5357
錄中	-10.5357
謹按古本	-10.5359
十一葉右	-10.5361
古亂反	-10.5365
些	-10.5369
百六十	-10.537
侯伯	-10.5374
一節	-10.5378
抵	-10.5378
致其	-10.5388
則民	-10.5396
沉	-10.5403
然亦	-10.5405
襪	-10.5406
複	-10.5406
麓	-10.5406
隙	-10.5407
排	-10.5409
東門	-10.5409
睽	-10.5411
皆在	-10.5412
冀州	-10.5415
裕	-10.5416
不服	-10.5418
蜡	-10.5418
彘	-10.542
畀	-10.542
舄	-10.542
腊	-10.5422
夏后氏	-10.5423
飱	-10.5424
鴈	-10.5424
不厭	-10.5424
樸	-10.5424
說卦	-10.5426
頸	-10.5426
者謂之	-10.5426
也蓋	-10.5427
閱	-10.5428
曼	-10.543
雲漢	-10.543
色主	-10.543
漢志	-10.5438
一年	-10.5438
不亦	-10.5443
第六	-10.5451
衣裳	-10.5453
山之	-10.5454
四寸	-10.5465
髙宗	-10.5466
非常	-10.5466
乎對曰	-10.5469
行注	-10.5475
其政	-10.548
章勇	-10.5481
也葢	-10.5486
其本	-10.5491
字註	-10.5492
反馬云	-10.5492
之異	-10.5496
去其	-10.5498
淮南子	-10.5498
二十六年	-10.5499
大宗	-10.5506
弑君	-10.5508
小國	-10.5512
宗伯	-10.5514
于僞反下爲	-10.5516
綺反	-10.5516
不宜	-10.5533
莽	-10.5538
概	-10.5542
翕	-10.555
劉礪録	-10.555
十二卷	-10.5556
頽	-10.5557
督	-10.5558
造化	-10.5558
丞	-10.556
汲	-10.556
闗雎	-10.5561
呈	-10.5562
斛	-10.5562
郊特牲	-10.5563
璋	-10.5563
汶	-10.5565
壅	-10.5566
晳	-10.5567
子忽	-10.5567
爽	-10.5569
芟	-10.5569
縞	-10.5569
左氏傳	-10.5571
乏	-10.5572
躁	-10.5572
聶	-10.5573
嘏	-10.5575
緼	-10.5581
陰陽	-10.5583
聘禮	-10.5584
衍文	-10.5585
治也	-10.5586
二子	-10.5588
賔客	-10.559
貞吉	-10.5596
焉得	-10.5604
學而	-10.5605
養老	-10.5606
太廟	-10.5606
小畜	-10.5614
安能	-10.5615
也一云	-10.5617
不中	-10.5618
諸本皆	-10.5623
同異	-10.5634
音岳	-10.5638
做得	-10.5641
又去	-10.5644
直龍	-10.5649
相傳	-10.5654
上聲	-10.5658
北面	-10.566
施於	-10.5661
主之	-10.5661
所居	-10.5666
五字	-10.5667
買反	-10.5668
成周	-10.5673
月日	-10.5675
長也	-10.5678
尺二寸	-10.568
於義	-10.5684
足利本同疏	-10.5687
案說文	-10.5687
之田	-10.5688
美也	-10.569
服也	-10.5693
有不	-10.5695
改作	-10.5696
彰	-10.5697
泛	-10.5698
三禮	-10.57
芝	-10.5701
筭	-10.5702
三十年	-10.5703
偕	-10.5705
雙	-10.5711
爪	-10.5711
昴	-10.5713
弧	-10.5717
許亮	-10.5717
嗇	-10.5719
假借	-10.572
注補後漢書	-10.572
不肖	-10.5721
邾婁	-10.5722
訾	-10.5724
四曰	-10.5727
廩	-10.5727
一卦	-10.5727
垢	-10.5728
宋板永懐堂同	-10.573
成人	-10.5732
三傳	-10.5741
書序	-10.5742
之形	-10.575
秋官	-10.5772
此時	-10.5779
性情	-10.5779
知得	-10.578
字之誤	-10.5781
多方	-10.5785
之治	-10.5785
所聞	-10.5788
未成	-10.5791
字之誤也	-10.5804
三十四	-10.5811
下共有也字釋文	-10.5832
有六	-10.5836
其罪	-10.5842
建本	-10.5844
晨	-10.5845
十三葉右	-10.5847
從此	-10.585
君命	-10.5852
髀	-10.5853
該	-10.5855
反元文	-10.5855
所得	-10.5856
製	-10.586
澄	-10.586
名為	-10.5862
佛	-10.5864
媒	-10.5865
嗜	-10.5865
顓	-10.5866
十五葉左	-10.5868
缶	-10.5869
愷	-10.5869
掘	-10.5869
五服	-10.5873
苛	-10.5874
蔚	-10.5875
羌	-10.5876
障	-10.5879
淮夷	-10.5884
者至	-10.5884
涯	-10.5885
弭	-10.5887
取義	-10.5892
補本	-10.5892
不識	-10.5895
津忍	-10.5908
篇云	-10.5916
始銳	-10.5917
必先	-10.5927
明明	-10.5929
當是	-10.5943
不離	-10.5945
手又	-10.5945
而民	-10.5951
一般	-10.5954
君子以	-10.5959
左傳云	-10.5964
非禮也	-10.5968
於我	-10.5977
毗志	-10.5978
南山	-10.5978
字林作	-10.598
服注	-10.5981
之不可	-10.5982
者以其	-10.5985
毗志反	-10.5986
注十卷	-10.5988
公族	-10.5992
音捨	-10.5992
抄	-10.5994
可知矣	-10.5997
滎	-10.5999
採	-10.6005
揜	-10.6008
誼	-10.6008
逵	-10.6008
祿	-10.601
沿	-10.601
下面	-10.6011
填	-10.6013
魴	-10.6015
不得已	-10.6018
効	-10.6018
標	-10.602
寤	-10.602
奈何	-10.6021
烹	-10.6021
子弟	-10.6024
雌	-10.6025
貊	-10.6026
取諸	-10.6027
尨	-10.6028
噬	-10.6028
鬲	-10.6029
九百	-10.603
御覧	-10.603
欣	-10.603
楹	-10.6031
紛	-10.6033
補遺宋板註	-10.6037
襚	-10.6039
生物	-10.6039
宋永同	-10.6042
在中	-10.6043
鈴	-10.6043
此等	-10.6045
弄	-10.6045
揄	-10.6045
后土	-10.6053
五福	-10.6061
以正	-10.6064
二傳	-10.6069
毛氏	-10.6082
于天	-10.6083
與人	-10.6088
二篇	-10.6088
武帝	-10.6088
六百	-10.609
二尺	-10.6093
生也	-10.6104
音恭	-10.611
其氣	-10.6111
不自	-10.6117
矣若	-10.6118
居中	-10.6125
也說文云	-10.6127
不曾	-10.6136
明日	-10.6141
於禮	-10.6149
得失	-10.6152
景公	-10.6155
舅姑	-10.6162
為民	-10.6164
獲麟	-10.6165
寜	-10.6165
臆	-10.6168
鈞	-10.6173
聿	-10.6174
息浪反	-10.6174
纎	-10.6176
家人	-10.6176
虞翻	-10.6178
本誤	-10.6178
驛	-10.6181
嬰齊	-10.6183
盗	-10.6185
嬪	-10.6186
禋	-10.6186
縶	-10.6186
漁	-10.6186
胙	-10.6187
儐	-10.6189
燒	-10.619
帑	-10.6191
漬	-10.6193
其民	-10.6194
顚	-10.6195
罟	-10.6195
闑	-10.6196
豉反	-10.6196
相對	-10.6196
網	-10.6198
眇	-10.62
象辭	-10.62
圎	-10.6202
郢	-10.6203
日中	-10.6203
濟濟	-10.6205
歲星	-10.6208
若以	-10.621
名篇	-10.6213
生民	-10.6214
丈反	-10.6216
此語	-10.622
靑	-10.6224
太白	-10.6228
十二葉左	-10.6231
彼列反	-10.6234
四牡	-10.6234
能盡	-10.6235
定本	-10.6237
息列	-10.6238
戸嫁	-10.624
之士	-10.6242
此句	-10.6245
二者	-10.6246
之餘	-10.6247
音汝	-10.6249
可知也	-10.625
之㫖	-10.6254
於地	-10.6273
四十八	-10.6276
三葉左	-10.6281
陸氏	-10.6288
宣子	-10.6292
謂此	-10.6297
反本亦作	-10.6301
乾文言第二節	-10.6301
則可	-10.6303
魚吕反	-10.6309
政事	-10.6311
地官	-10.6311
旁作	-10.6315
誤從	-10.6322
綽	-10.6325
讐	-10.6325
腎	-10.6327
又按	-10.6328
盪	-10.6328
恕	-10.6329
千五百	-10.633
銖	-10.6331
皆謂	-10.6331
焉故	-10.6333
隂氣	-10.6335
榭	-10.6337
脂	-10.6339
祚	-10.634
響	-10.6341
並史記注	-10.6342
渚	-10.6345
可以為	-10.6346
栢	-10.6347
宋板足利本	-10.6347
邦國	-10.6347
燠	-10.6349
王莽	-10.6354
紅	-10.6358
也一本	-10.6358
綦	-10.6359
黻	-10.6362
蹄	-10.6366
之耳	-10.6366
簟	-10.6367
芾	-10.6368
元亨	-10.6371
注及下	-10.6374
此正	-10.6374
井田	-10.6381
所惡	-10.6386
盛也	-10.6387
肆夏	-10.6395
上有其字	-10.6395
五等	-10.6397
不違	-10.6398
言乎	-10.6402
此為	-10.6415
召南	-10.6415
本心	-10.6423
是就	-10.6424
裏面	-10.6424
本草	-10.6429
反字林云	-10.6437
足利本作	-10.6441
字書	-10.6446
變易	-10.6447
有餘	-10.6449
三十七	-10.6452
上經	-10.6453
八章	-10.6461
未之	-10.6462
彛	-10.6468
存者	-10.6481
永懐堂	-10.6483
因之	-10.6484
卦辭	-10.6488
九江	-10.6488
有五	-10.6489
輸	-10.649
苖	-10.649
舎人	-10.649
若今	-10.6493
亂也	-10.6497
霤	-10.6498
吴	-10.6499
惡乎	-10.6499
䕶	-10.6499
湖	-10.65
碎	-10.65
憾	-10.6502
鉞	-10.6504
媚	-10.6507
鱗	-10.6507
之象也	-10.6508
印	-10.6509
奭	-10.6509
馘	-10.651
徼	-10.651
鄉飲酒	-10.6511
臯陶謨	-10.6514
棗	-10.6515
凱	-10.6517
雍州	-10.6517
音古	-10.6518
三行注	-10.6519
爨	-10.6519
占得	-10.652
燥	-10.6521
不改	-10.6521
巡守	-10.6522
公元年至	-10.6523
不息	-10.6527
必以	-10.6528
於天子	-10.6531
隹	-10.6532
齊桓	-10.6535
李音	-10.6538
四岳	-10.6539
不詳	-10.6542
欲令	-10.6552
者與	-10.6554
唐虞	-10.6565
少儀	-10.6566
不順	-10.6568
説文云	-10.6575
是箇	-10.6577
異同	-10.6579
北極	-10.658
室家	-10.6583
京作	-10.6593
二十二葉右	-10.6595
所好	-10.6596
九行注	-10.6597
字疑衍	-10.6601
三國	-10.6604
一章疏	-10.6606
為天子	-10.6607
五曰	-10.6609
也非	-10.6609
志云	-10.6623
八行注	-10.6628
太祖	-10.6628
産	-10.6632
先公	-10.6632
三尺	-10.6632
靈公	-10.6637
申志反	-10.6642
二十一葉右	-10.6642
外傳	-10.6643
不特	-10.6643
勃	-10.665
毅	-10.6654
者乃	-10.6655
盛貌	-10.6658
吕覽	-10.6658
在人	-10.6659
暘	-10.6662
後皆同	-10.6663
愉	-10.6665
鶉火	-10.6666
沱	-10.6667
浚	-10.6668
姪	-10.6669
巷	-10.667
冷	-10.6672
摘	-10.6672
由是	-10.6674
北堂書鈔	-10.6675
朱氏	-10.6676
潘	-10.6679
纍	-10.6681
粢	-10.6682
貸	-10.6684
瘠	-10.6686
禜	-10.6686
鄧	-10.6687
則此	-10.6688
瓠	-10.6691
盎	-10.6692
之之作也	-10.6692
兾	-10.6693
宋板永懷堂同	-10.6694
晉人	-10.6694
輻	-10.6695
於朝	-10.6707
學官	-10.671
十九葉右	-10.6719
亦何	-10.6721
衞侯	-10.6722
在前	-10.6724
傳寫	-10.6728
未發	-10.6729
太王	-10.6734
事事	-10.6737
不得其	-10.6739
二陽	-10.6743
史記作	-10.6746
之例	-10.6748
何不	-10.6751
公榖	-10.6754
臥反	-10.6755
象也	-10.6757
于是	-10.676
稱之	-10.6765
所用	-10.6775
戸雅反	-10.6782
考異	-10.6788
也一曰	-10.679
王者之	-10.6791
其禮	-10.6793
又言	-10.6793
字亦	-10.6797
此事	-10.68
之賢	-10.6804
子游	-10.6806
日行	-10.6818
九疇	-10.6826
周制	-10.6827
馴	-10.6829
妣	-10.683
字又	-10.6834
十六葉右	-10.6834
恣	-10.6836
死而	-10.6836
寇	-10.6836
旻	-10.6838
眼	-10.6838
敬也	-10.6839
成也	-10.684
泯	-10.6841
坫	-10.6842
譖	-10.6842
陳註	-10.6843
餕	-10.6846
窺	-10.6847
閣	-10.6847
潁	-10.6848
㨗	-10.685
翬	-10.6851
元文上作	-10.6852
詁訓	-10.6853
閏月	-10.6854
下有矣字	-10.6855
曉得	-10.6856
虫	-10.6859
軸	-10.6862
雝	-10.6862
注及	-10.6863
杜子春云	-10.687
于此	-10.6872
杜子春云當為	-10.6872
之詞	-10.6872
也說文	-10.6876
亦如之	-10.6878
格物	-10.6881
經義	-10.6882
晢	-10.6882
遂以	-10.6887
不入	-10.6887
五千	-10.6892
誠意	-10.6897
王事	-10.6908
其上	-10.691
十八葉右	-10.6912
羊朱	-10.6916
乎曰	-10.6917
下句	-10.6921
其職	-10.6924
十六葉左	-10.693
卒章	-10.6932
音界	-10.6938
舉其	-10.6941
三十九	-10.6942
云爾	-10.6943
未得	-10.6945
經典	-10.6948
武子	-10.6948
五日	-10.6949
祭天	-10.695
古禾	-10.6953
字是	-10.6954
伐鄭	-10.6956
十三經	-10.6959
魯史	-10.6963
二公	-10.6967
於民	-10.6969
食亦反	-10.698
變也	-10.6981
明年	-10.6983
者所以	-10.6984
不仁	-10.6988
巖	-10.699
此又	-10.6991
沈僴録	-10.6991
認	-10.6992
不和	-10.6999
大司樂	-10.7
横渠	-10.7
只是説	-10.7002
矣右	-10.7002
疚	-10.7004
搜	-10.7007
盡其	-10.7007
傳之	-10.7007
以樂	-10.7008
赫	-10.7008
繪	-10.7009
廣雅	-10.7009
酒誥	-10.7011
竊疑	-10.7011
惡也	-10.7012
十四行注	-10.7012
禽獸	-10.7013
輔廣錄	-10.7013
奸	-10.7014
豈可	-10.7015
義疏	-10.7017
顙	-10.7017
鍼	-10.702
羔裘	-10.702
綺	-10.702
音甫	-10.7021
替	-10.7023
十三行注	-10.7023
為善	-10.7023
庶幾	-10.7024
也子曰	-10.7024
恐是	-10.7024
囊	-10.7025
都是	-10.7025
袪	-10.7031
孝弟	-10.7032
萑	-10.7033
只管	-10.7033
于萬	-10.7036
死者	-10.704
星辰	-10.704
遐嫁	-10.7041
第五	-10.7041
十二律	-10.7046
而稱	-10.7048
詩書	-10.7052
亦只是	-10.7059
與天地	-10.7062
字誤倒	-10.7063
更無	-10.7067
直龍反	-10.7086
齊魯	-10.7089
五刑	-10.7102
諸經	-10.7106
叔向	-10.7108
例反	-10.7114
大戴禮	-10.7118
而實	-10.7137
始有	-10.7138
萬厯	-10.7142
形容	-10.7142
者葢	-10.7146
三等	-10.715
六寸	-10.7152
虞書	-10.7157
誠之	-10.7158
夏官	-10.7162
小大	-10.7162
而今	-10.7169
戸雅	-10.7169
子曰君子	-10.7169
廉反	-10.717
亦自	-10.7172
射之	-10.7175
蔵	-10.7175
廿	-10.7176
意也	-10.7178
戰于	-10.7178
恰	-10.7179
迂	-10.7179
音扶	-10.718
林學履録	-10.7182
虹	-10.7184
汪	-10.7184
竅	-10.7188
贖	-10.7188
靈臺	-10.7188
異者	-10.7189
粲	-10.719
鋭	-10.7191
或者	-10.7192
髠	-10.7192
清明	-10.7192
之可	-10.7194
曷為	-10.7195
沽	-10.7196
下章	-10.7197
潦	-10.7198
冢宰	-10.7198
朞	-10.7199
倪	-10.7199
懋	-10.7199
張丈	-10.7201
媿	-10.7201
立政	-10.7202
凍	-10.7203
裒	-10.7203
乾卦	-10.7204
小者	-10.7205
鄂	-10.7206
隘	-10.7207
先鄭	-10.721
盡也	-10.721
窮理	-10.7211
大宗伯	-10.722
向云	-10.7223
如字一音	-10.7228
周頌	-10.7231
三爻	-10.7233
直是	-10.7236
俗作	-10.7238
六尺	-10.7239
上有以字	-10.724
上有之字	-10.724
帝堯	-10.7242
黄鍾之	-10.7259
二十六葉	-10.7262
人之所	-10.7272
隱公	-10.7273
顔子	-10.7279
一家	-10.7286
先師	-10.7286
禮運	-10.7288
大壯	-10.7292
木也	-10.7294
反說文	-10.7297
大射	-10.73
知禮	-10.7301
集注	-10.7306
棣	-10.7316
為大夫	-10.7324
幽王	-10.7331
讀詩	-10.7332
鳯	-10.7342
其可	-10.7345
太蔟	-10.7346
而自	-10.7349
名之	-10.7352
囘	-10.7355
否則	-10.7357
其理	-10.7357
訪	-10.7357
桴	-10.7359
一條	-10.736
其色	-10.7362
鄭司農云	-10.7363
五經異義	-10.7365
模	-10.7366
岸	-10.7368
其家	-10.737
楫	-10.737
泮	-10.7371
捕	-10.7372
賂	-10.7373
駒	-10.7373
番	-10.7374
彈	-10.7375
卞	-10.7375
狡	-10.7376
跋	-10.7377
扇	-10.7377
萬人傑錄	-10.7378
扱	-10.7379
支反	-10.7383
泠	-10.7384
筋	-10.7387
刖	-10.7388
雹	-10.7388
祭義	-10.7388
羸	-10.7389
有徳	-10.7389
魯頌	-10.7389
水中	-10.7391
桎	-10.7394
將軍	-10.741
四句	-10.7411
共工	-10.7423
以道	-10.743
也舍人注	-10.7434
大師	-10.7435
衆多	-10.7443
始豉	-10.7447
千乗	-10.7449
日用	-10.746
來聘	-10.7467
一讀	-10.7468
杜子春讀	-10.7469
主婦	-10.747
伐木	-10.7479
行事	-10.7482
於鴆	-10.7489
而行之	-10.7491
舊説	-10.7492
者故	-10.7493
此爻	-10.7496
之論	-10.7499
厚也	-10.7514
孺	-10.7517
似是	-10.752
而終	-10.7525
宗子	-10.7525
秦人	-10.7528
亦惟	-10.753
以興	-10.7532
旡	-10.7533
欽定四庫全書朱子五經語類卷	-10.7536
宫中	-10.7538
鶴	-10.7539
溪	-10.754
而入	-10.7543
為義	-10.7545
禴	-10.7545
丁亂	-10.7546
方是	-10.7546
只有	-10.7546
鑄	-10.7549
滛	-10.7552
而來	-10.7553
胎	-10.7553
嘻	-10.7556
十八行注	-10.7556
二十七葉	-10.7557
槀	-10.7558
聰明	-10.7558
莎	-10.7558
之意也	-10.7559
阼	-10.7561
茨	-10.7561
漫	-10.7562
牒	-10.7564
停	-10.7564
陜	-10.7566
天地之心	-10.7566
大廟	-10.7567
也服䖍	-10.7569
貟	-10.7569
人臣	-10.7569
紙	-10.7569
居良	-10.7569
星歷	-10.7569
詒	-10.757
卒哭	-10.7572
訝	-10.7574
愚按	-10.7575
牂	-10.7576
釋詁文	-10.7579
恚	-10.7579
事物	-10.7585
次之	-10.7586
婢亦反	-10.7586
未至	-10.7588
九葉右	-10.759
欲以	-10.759
崔本	-10.759
中行	-10.7594
各自	-10.7598
不免	-10.7603
五十五	-10.7607
大戴	-10.7608
明白	-10.7609
自得	-10.7615
備矣	-10.764
萬民	-10.7643
水之	-10.7644
非有	-10.7649
第二章	-10.7654
大宰	-10.7656
八字	-10.7661
巧言	-10.7662
歸於	-10.7673
神名	-10.7677
學記	-10.7679
也賈逵	-10.7681
山名	-10.7684
貌下有也	-10.7688
槩	-10.7696
至徳	-10.7698
繋	-10.7703
不知何氏録	-10.7709
蝕	-10.7711
字或	-10.7711
間有	-10.7714
武庚	-10.7716
王道	-10.7716
甞	-10.7716
琅邪	-10.7718
腰	-10.7718
伐之	-10.7718
十日	-10.7719
聰	-10.772
熈	-10.7721
春王正月	-10.7723
寒暑	-10.7723
籩	-10.7723
手又反	-10.7723
恊	-10.7725
掛	-10.7729
弃	-10.7731
餒	-10.7731
墻	-10.7733
駢	-10.7734
鄭人	-10.7737
懌	-10.7741
器也	-10.7743
襃	-10.7743
從者	-10.7743
此數	-10.7743
閤	-10.7744
隴	-10.7744
儼	-10.7744
禮器	-10.7744
覯	-10.7745
疫	-10.7745
寔	-10.7747
用也	-10.7748
熾	-10.7748
膴	-10.7749
北斗	-10.7749
隮	-10.775
畎	-10.775
小學	-10.775
糞	-10.7751
軾	-10.7752
槃	-10.7753
之器	-10.7754
西海	-10.7756
幷	-10.7757
其形	-10.7759
株	-10.7759
後儒	-10.7762
孫炎	-10.7764
皐	-10.7767
後漢書注	-10.7768
仲春	-10.7769
二葉左	-10.7774
一段	-10.7778
孑	-10.7783
反本又	-10.7789
等語	-10.7789
九經	-10.7795
淮南	-10.7796
詩者	-10.7805
河東	-10.7806
一畫	-10.7806
所由	-10.7806
二十三葉左	-10.781
異姓	-10.7812
告之	-10.7814
而可	-10.7817
太常	-10.7819
下言	-10.782
安也	-10.7822
堂上	-10.7834
二十葉右	-10.7837
以觀	-10.7842
誤矣	-10.7845
六字	-10.7845
而為之	-10.7845
列於	-10.785
之别	-10.785
詩照反	-10.7854
王城	-10.7856
諸子	-10.7857
今以	-10.787
不窮	-10.7872
事親	-10.7877
三十二年	-10.7878
直類	-10.7892
永懷堂	-10.7894
束脩	-10.7897
庻	-10.7898
食亦	-10.7901
朱子五經語類卷	-10.7908
袍	-10.791
藝文志	-10.7911
溥	-10.7913
茫	-10.7914
軒轅	-10.7915
曰然	-10.7917
乃命	-10.7917
中和	-10.7919
斐	-10.792
勒	-10.7921
姑洗	-10.7923
正徳	-10.7923
稱王	-10.7924
聊	-10.7924
杼	-10.7926
驟	-10.7926
後面	-10.7926
蹶	-10.7927
壘	-10.7928
蠃	-10.7928
迨	-10.7928
難曉	-10.7931
漿	-10.7932
榛	-10.7932
十五行注	-10.7935
衿	-10.7936
十七行注	-10.7936
妥	-10.7937
字當作	-10.7937
鄆	-10.7938
篡	-10.7939
弇	-10.7941
省文	-10.7942
虯	-10.7943
鄉射	-10.7944
跛	-10.7945
當云	-10.7947
悶	-10.7947
有孚	-10.7948
本末	-10.7948
厎	-10.7954
清廟	-10.7957
刮	-10.7957
皮寄	-10.7958
長幼	-10.7962
以制	-10.7965
尚有	-10.7965
不思	-10.7972
終也	-10.7979
日在	-10.7986
四十一	-10.7987
成物	-10.7991
在其中矣	-10.7992
于万	-10.7993
大率	-10.7995
周南	-10.7995
一國	-10.7997
相承	-10.7997
君陳	-10.7999
舊音	-10.8002
甲士	-10.8011
者若	-10.8016
是書	-10.8017
以相	-10.8017
十七篇	-10.8017
胡氏	-10.8019
惠王	-10.8024
飾也	-10.8027
諸書	-10.8034
史官	-10.8034
更有	-10.8047
則雖	-10.8048
始生	-10.8052
十一葉左	-10.8053
穆王	-10.8058
分野	-10.8065
音遍	-10.8073
皆非	-10.8074
及注皆同	-10.8083
璣	-10.809
下放此	-10.8092
日至	-10.8093
抄本	-10.8094
君子之道	-10.8096
陣	-10.81
雁	-10.8105
二十九葉	-10.811
耒	-10.8111
之家	-10.8111
撓	-10.8115
其父	-10.8115
郁	-10.8115
稟	-10.8115
疵	-10.8117
醬	-10.8117
瞿	-10.8117
舊本	-10.8121
郵	-10.8123
械	-10.8124
濵	-10.8125
櫜	-10.8125
恪	-10.8126
澗	-10.8126
齊師	-10.8126
頡	-10.8129
稾	-10.813
解詁	-10.8131
遼	-10.8131
苓	-10.8131
桷	-10.8133
六葉右	-10.8133
商頌	-10.8134
變風	-10.8136
仆	-10.814
荀子	-10.814
註同註	-10.8145
枲	-10.8146
昵	-10.8146
列國	-10.8147
亦同	-10.815
音釋	-10.8151
葉四行注	-10.8151
柔順	-10.8151
其器	-10.8154
七經孟子考文補遺卷一百	-10.8154
婢面	-10.8156
風俗	-10.8162
卦變	-10.8162
不使	-10.8164
是那	-10.8165
也夫子	-10.8166
吕反	-10.8179
方言云	-10.818
比之	-10.8183
二十四葉右	-10.8187
而見	-10.8192
之類皆	-10.8193
直畧	-10.8197
要之	-10.8202
左氏說	-10.8202
日月之	-10.8205
無服	-10.8211
改正	-10.8212
并注同	-10.8213
但有	-10.8216
邾人	-10.8219
注疏	-10.823
用事	-10.823
來歸	-10.8231
大司徒	-10.824
赫赫	-10.824
疾也	-10.8252
丈夫	-10.8254
人道	-10.826
夏侯	-10.8262
於旣	-10.8264
之失	-10.8264
刺幽王	-10.8264
西伯	-10.8265
以證	-10.8268
八葉右	-10.827
若無	-10.8271
傳言	-10.8276
反徐又	-10.8277
㬊淵錄第	-10.8279
夏殷	-10.8283
䜟	-10.8283
不肯	-10.8288
不取	-10.8289
禹治水	-10.8291
者如此	-10.8295
何故	-10.8301
亦猶	-10.8305
演	-10.8305
諼	-10.8305
即此	-10.8306
采地	-10.8306
占者	-10.8306
稽首	-10.8307
冊	-10.8309
繅	-10.8309
閽	-10.8309
祉	-10.8309
電	-10.8313
夙	-10.8314
二十三葉右	-10.8315
閲	-10.8315
鉶	-10.8316
扐	-10.8316
本今作	-10.8317
出而	-10.8317
二十六葉左	-10.8317
虡	-10.8318
相類	-10.8319
譌	-10.8319
涼	-10.832
柯	-10.8321
珪	-10.8322
渥	-10.8322
縊	-10.8324
珥	-10.8324
僂	-10.8324
用夏正	-10.8324
惡其	-10.8325
地理志	-10.8325
二十八葉	-10.8326
糧	-10.8327
惇	-10.8328
六宗	-10.8329
一語	-10.8332
這般	-10.8332
三四	-10.8334
三作二	-10.8335
立春	-10.8338
匠人	-10.8339
褘	-10.8341
跂	-10.8342
順也	-10.8351
以義	-10.8353
賤者	-10.8354
甚明	-10.8358
十有二月	-10.836
苦浪	-10.8361
召伯	-10.8364
唯季	-10.8371
仲孫	-10.8373
尹氏	-10.8377
未及	-10.8378
宋本春秋疏二十	-10.8382
此所謂	-10.8382
聚也	-10.8384
録中	-10.8385
出車	-10.8386
只得	-10.8398
本是	-10.8404
辨之	-10.8404
庫	-10.8408
一寸	-10.8413
㑹于	-10.8413
待洛	-10.8413
正朔	-10.8415
逺近	-10.8415
下衍	-10.843
無復	-10.8432
之遺	-10.8441
公羊疏	-10.8441
之常	-10.8454
方言	-10.8467
所稱	-10.8479
天時	-10.8479
𤓰	-10.848
直覲	-10.8482
命也	-10.8486
行道	-10.849
一嵗	-10.8491
鄘	-10.8494
如字或	-10.8495
其分	-10.8498
琴瑟	-10.8498
孝反	-10.8499
凡言	-10.85
慊	-10.85
之孫	-10.85
揲蓍	-10.85
諌	-10.8501
鯉	-10.8502
荘	-10.8503
召誥	-10.8504
梓材	-10.8505
門内	-10.8506
輙	-10.8509
訴	-10.8509
咸有一德	-10.8509
自此	-10.851
五聲	-10.8511
五經通義	-10.8512
子夏傳	-10.8512
九五爻辭	-10.8513
宋本御覽	-10.8513
盧注	-10.8514
洫	-10.8514
睹	-10.8515
掃	-10.8515
軹	-10.8516
倅	-10.8517
四十二	-10.8517
餌	-10.8517
酳	-10.8517
鎛	-10.8519
濮	-10.852
羈	-10.8522
丞相	-10.8523
羨	-10.8523
苕	-10.8523
迅	-10.8526
韎	-10.8527
騷	-10.8527
凌	-10.8527
觥	-10.8528
腓	-10.853
長者	-10.8531
騏	-10.8535
修身	-10.854
臣子	-10.8548
承上	-10.8552
如羊	-10.8553
鄭衆	-10.8555
六藝	-10.8555
二爻	-10.8561
夷則	-10.8562
以養	-10.8563
息淺	-10.8565
四葉右	-10.8568
不然則	-10.8574
出于	-10.8579
周天	-10.8581
於廟	-10.8581
引詩	-10.8594
大義	-10.8597
居業	-10.8612
東井	-10.8616
一尺	-10.8625
始終	-10.8645
之言也	-10.8657
衆家	-10.8659
乾道	-10.8662
謹按傳	-10.8663
乎天	-10.8668
毛如字	-10.8671
賁居曰	-10.8674
有過	-10.8677
北海	-10.8678
隨時	-10.8679
四十四	-10.8684
皆言	-10.8685
像	-10.869
猶可	-10.8692
繫之	-10.8694
庠	-10.8697
葉賀孫錄	-10.8701
葉賀孫録	-10.8701
殷人	-10.8703
諷	-10.8706
耐	-10.8707
罍	-10.8708
富貴	-10.8709
樵	-10.871
相連	-10.8711
衢	-10.8711
投壺	-10.8714
稼穡	-10.8714
康王	-10.8715
彞	-10.8715
莘	-10.8716
夙夜	-10.8716
淹	-10.8716
踈	-10.8717
徐邈	-10.8717
豪	-10.8717
底道理	-10.8718
摧	-10.8718
政教	-10.8718
兎	-10.8719
褚	-10.872
剔	-10.872
澮	-10.872
撮	-10.8722
睢	-10.8723
俠	-10.8723
十六行注	-10.8724
趙集傳	-10.8725
脤	-10.8725
寗	-10.8727
兖州	-10.8727
雖是	-10.8729
饎	-10.8729
坼	-10.8731
田獵	-10.8733
彪	-10.8736
八寸	-10.8739
朝聘	-10.8744
譬如	-10.8747
氓	-10.8747
史記注二	-10.875
孔疏	-10.8751
王肅云	-10.8755
所能	-10.8759
顔氏	-10.8759
三軍	-10.8769
二日	-10.877
子産	-10.8772
變則	-10.8774
夏書	-10.8781
則與	-10.8784
冬官	-10.8786
序音義	-10.8792
非聖人	-10.8794
始得	-10.88
安國	-10.8809
曰某	-10.881
人名	-10.8813
魚列	-10.8814
故復	-10.8817
大王	-10.8818
皮弁	-10.8819
星紀	-10.8824
助祭	-10.8826
形如	-10.8828
他得	-10.8829
不幸	-10.8837
則吉	-10.884
古義	-10.8842
將去	-10.8844
不由	-10.8844
死也	-10.8851
由此	-10.8852
七尺	-10.8855
所宜	-10.8859
二十四葉左	-10.8862
音佩	-10.8863
此卦	-10.8863
殺也	-10.8865
為貴	-10.8867
件	-10.8869
人主	-10.8871
但以	-10.8873
陳侯	-10.8874
第八	-10.8875
溫	-10.8876
矣問	-10.8879
陳氏	-10.8881
七行注	-10.8884
側皆反	-10.8886
太公	-10.889
古禮	-10.8894
典禮	-10.8899
上古	-10.8899
乾文言第一節	-10.89
在東	-10.89
𨽻	-10.8902
二年傳	-10.8902
緣	-10.8906
奎	-10.8909
不聞	-10.8912
酏	-10.8912
朂	-10.8912
𦵏	-10.8915
悔吝	-10.8916
鞭	-10.8917
人欲	-10.8917
冩	-10.8918
㧞	-10.8918
黄義剛錄	-10.892
恂	-10.8921
旐	-10.8922
矧	-10.8923
馭	-10.8923
萬人	-10.8925
戕	-10.8925
驩	-10.8927
綃	-10.8928
宋均	-10.8928
林鍾	-10.8928
圻	-10.8929
諂	-10.8929
斾	-10.893
殉	-10.893
妨	-10.893
寂	-10.8931
彤	-10.8931
核	-10.8931
眡	-10.8931
蟬	-10.8933
簿	-10.8935
解經	-10.8935
憎	-10.8936
太傅	-10.8936
篚	-10.8937
曳	-10.8938
弓矢	-10.8938
匕	-10.894
坊記	-10.8942
燮	-10.8942
父兄	-10.8942
於諸侯	-10.8943
既夕	-10.8944
餐	-10.8945
皓	-10.8945
洮	-10.8946
蟻	-10.8947
鄭志	-10.8951
同盟	-10.8952
不知何	-10.8953
堂下	-10.8956
戀	-10.8959
為仁	-10.896
宗人	-10.896
當爲	-10.8962
或以為	-10.8962
九葉左	-10.8964
五十里	-10.8965
何其	-10.8965
鄭玄注	-10.8966
序云	-10.8968
記者	-10.8984
也也上有	-10.8986
進徳	-10.8989
震為	-10.8991
葉二行注	-10.8995
甲兵	-10.8995
此條	-10.8997
頂反	-10.8999
賢遍反下	-10.9
二十葉左	-10.9003
七葉左	-10.9004
宋本疏	-10.9009
好學	-10.9013
所求	-10.9021
三皇	-10.9025
百一十	-10.9031
九族	-10.9032
也又曰	-10.9044
可通	-10.9048
自謂	-10.9053
子匠	-10.9058
不如此	-10.9062
罕	-10.9065
春分	-10.9067
若謂	-10.9074
起於	-10.908
四尺	-10.908
中節	-10.9083
則夢	-10.9086
其來	-10.9092
徃來	-10.9093
却不	-10.9095
乾乾	-10.9103
七日	-10.9112
尺證反	-10.9116
多是	-10.9121
司服	-10.9122
穿鑿	-10.9124
日月星辰	-10.9127
㸃	-10.9127
牽牛	-10.9128
綿	-10.913
居良反	-10.913
繕	-10.9131
僑	-10.9131
灑	-10.9132
笏	-10.9133
劍	-10.9135
童子	-10.9136
炮	-10.9137
邸	-10.9137
跣	-10.9137
瓊	-10.9138
据	-10.9138
大火	-10.914
僎	-10.914
梧	-10.9141
鉉	-10.9141
蚩尤	-10.9142
無疆	-10.9142
汾	-10.9143
如字注同	-10.9143
誄	-10.9144
芸	-10.9145
鳬	-10.9146
秦誓	-10.9146
覿	-10.9147
霆	-10.9147
荆州	-10.9147
撥	-10.9148
緡	-10.9149
鏤	-10.9149
君奭	-10.9149
説話	-10.915
書法	-10.915
無間	-10.9152
怙	-10.9152
蜂	-10.9152
伯姬	-10.9153
軓	-10.9153
儆	-10.9155
禳	-10.9158
管蔡	-10.9158
補遺宋板傳	-10.9159
閩	-10.9162
斃	-10.9162
莠	-10.9168
多矣	-10.917
泮水	-10.9172
木名	-10.9175
孺子	-10.9178
字彚	-10.9183
方可	-10.9185
閔公	-10.9185
秋分	-10.9186
八葉左	-10.919
有德	-10.9191
千乘	-10.9191
赤道	-10.9194
之妙	-10.9202
和樂	-10.9207
一葉左	-10.9207
一乘	-10.9211
兵車	-10.9212
三葉右	-10.9224
於心	-10.9228
四篇	-10.923
識之	-10.9235
辨疑	-10.9237
字皆作	-10.9241
无所	-10.9245
不絶	-10.9247
明王	-10.9255
讀若	-10.9258
正義引	-10.927
大史	-10.9274
大計	-10.9278
魯國	-10.9282
六葉左	-10.929
宋本文選注	-10.9298
二南	-10.9301
當然	-10.9302
第七	-10.9304
其居	-10.9311
兄弟之	-10.9312
矣且	-10.9313
但言	-10.9313
之野	-10.9317
南宫	-10.9318
趙商問	-10.932
暈	-10.9321
車馬	-10.9322
五葉左	-10.9326
變通	-10.9328
仍作	-10.9329
皇帝	-10.9331
悠	-10.9335
老陽	-10.9336
諧聲	-10.9338
片	-10.934
廵	-10.9341
下有也釋文	-10.9344
舛	-10.9344
艮其背	-10.9347
廪	-10.9347
人東晉	-10.9347
莫如	-10.9348
日新	-10.935
夏時	-10.935
棠	-10.9353
泗	-10.9353
璜	-10.9354
脛	-10.9354
夏四月	-10.9354
贅	-10.9355
㓜	-10.9355
坊	-10.9356
子六	-10.9356
咺	-10.9356
梗	-10.9357
茍	-10.9359
菲	-10.9359
致知	-10.9362
系	-10.9362
縠	-10.9362
豎	-10.9363
蠢	-10.9363
賻	-10.9364
蕢	-10.9364
歸妹	-10.9365
莅	-10.9365
朽	-10.9365
莫能	-10.9365
迴	-10.9366
憂患	-10.9366
詩疏一之	-10.9367
鹵	-10.9367
謔	-10.9367
韜	-10.9368
殳	-10.9368
柞	-10.9368
父母之	-10.9368
艸	-10.9369
韠	-10.937
濩	-10.937
癸亥	-10.937
菅	-10.9374
纚	-10.9375
隤	-10.9375
粱	-10.9377
故得	-10.9377
恐懼	-10.938
互體	-10.9381
鞶	-10.9382
續字彚	-10.9383
扃	-10.9384
茷	-10.9385
甑	-10.9386
徇	-10.9386
至今	-10.9387
于況反	-10.9389
很	-10.9393
蔡侯	-10.9399
序卦	-10.9401
季夏	-10.9402
左手	-10.9403
初無	-10.9404
東遷	-10.9418
徳行	-10.9423
漢時	-10.9433
之盟	-10.9437
季子	-10.9445
前此	-10.9445
大明	-10.9457
中心	-10.9458
大計反	-10.9472
扶風	-10.9478
歸父	-10.9479
不須	-10.9483
助也	-10.9487
未免	-10.949
河内	-10.9495
注及下同	-10.95
有終	-10.9507
何嘗	-10.9509
如此説	-10.9521
不誠	-10.9529
正義云	-10.953
音玄	-10.9535
正嘉二本	-10.954
丁歷反	-10.9544
襄王	-10.9548
而治	-10.9556
中興	-10.9557
所聞先生六十	-10.9557
冡宰	-10.9561
所據	-10.9562
秋冬	-10.9563
鳶	-10.9563
廓	-10.9566
吞	-10.9566
巾反	-10.9566
寃	-10.9568
紼	-10.9568
錡	-10.957
液	-10.9572
船	-10.9573
王業	-10.9574
五典	-10.9574
媯	-10.9575
畢竟	-10.9576
礿	-10.9578
慙	-10.9579
禆	-10.9579
七章	-10.958
譚	-10.958
下竝同	-10.958
士喪禮	-10.9582
綬	-10.9584
嚌	-10.9585
深衣	-10.9586
榦	-10.9587
倣此	-10.9588
郜	-10.9589
錯簡	-10.959
鹹	-10.9592
盱	-10.9592
樂正	-10.9594
怛	-10.9595
拳	-10.9597
俶	-10.9597
徐甫	-10.9598
沾	-10.9598
椎	-10.96
慄	-10.9601
駮	-10.9604
芋	-10.9605
仞	-10.9606
號曰	-10.9606
繭	-10.9607
方百里	-10.9608
音基	-10.9617
只是一箇	-10.9629
此一節	-10.9634
乃復	-10.9639
否曰然	-10.964
仁人	-10.9642
水出	-10.9647
成風	-10.965
八十一	-10.9655
後並同	-10.9672
明德	-10.9673
稱子	-10.9679
皇皇	-10.9682
四葉左	-10.9694
碩人	-10.9696
度量	-10.9699
十一篇	-10.97
古書	-10.97
老隂	-10.9702
小臣	-10.9703
不克	-10.9704
萬厯本	-10.9705
後漢書	-10.9714
使民	-10.9718
到那	-10.972
春夏	-10.9723
側皆	-10.9727
只説	-10.9728
使臣	-10.9729
我心	-10.9733
下有而字	-10.9737
自立	-10.9741
東周	-10.9747
其體	-10.9749
此非	-10.9761
火故	-10.9765
存之	-10.9769
不孝	-10.9773
鄭注云	-10.9774
天帝	-10.9775
監本作	-10.9779
師古曰	-10.978
祖廟	-10.9782
五葉右	-10.9783
第十二章	-10.9783
四年傳	-10.9784
噐	-10.9789
嬉	-10.9789
秋七月	-10.979
迺	-10.979
釣	-10.9791
儺	-10.9794
所景	-10.9797
㐮	-10.9797
睿	-10.9798
不得不	-10.9798
訓詁	-10.9798
五采	-10.9799
令人	-10.9799
京房	-10.9799
毖	-10.9803
祝融	-10.9804
烟	-10.9805
吟	-10.9805
地中	-10.9805
安知	-10.9806
建寅	-10.9808
劉氏	-10.9808
遄	-10.9811
湯誥	-10.9813
渴	-10.9814
迪	-10.9814
趙盾	-10.9815
耘	-10.9815
浦	-10.9817
不載	-10.9818
是月也	-10.982
穰	-10.982
荐	-10.982
附庸	-10.982
塊	-10.982
巴	-10.9821
子念	-10.9821
閟宫	-10.9821
六經正誤	-10.9823
飫	-10.9823
興國本	-10.9824
囂	-10.9825
都鄙	-10.9826
窆	-10.9828
己丑	-10.9829
薳	-10.9829
咽	-10.9831
蛤	-10.9835
百篇	-10.9845
其情	-10.9845
以俟	-10.9849
元文下	-10.986
感應	-10.9862
再拜	-10.9868
本今無	-10.9876
五祀	-10.9876
過於	-10.9879
五榖	-10.9899
何時	-10.9901
書名	-10.9908
下及注	-10.9912
四時之	-10.9913
平公	-10.9916
而不及	-10.9923
不可解	-10.9926
一丈	-10.9932
了又	-10.9939
大亨	-10.9944
商書	-10.9948
今觀	-10.9954
子匠反	-10.9972
卦中	-10.9981
坎為	-10.9981
委曲	-10.9982
力呈反	-10.9985
治國	-10.9991
看得	-10.9992
也馬傳	-11.0003
帖	-11.0004
伊川説	-11.0011
彚	-11.0013
之端	-11.0017
明孫㲄編	-11.0019
熒惑	-11.002
局	-11.0022
迄	-11.0025
二葉右	-11.0025
謡	-11.0025
訂	-11.0027
邠	-11.0028
燧	-11.0028
慾	-11.0029
周召	-11.0029
東坡	-11.003
漂	-11.0031
底物事	-11.0033
惻	-11.0034
存舊禮記正義卷第	-11.0034
揚雄	-11.0034
下及注同	-11.0035
繻	-11.0035
耽	-11.0036
腆	-11.0038
錄云	-11.0038
紓	-11.0039
鄶	-11.0039
羿	-11.0039
索隠	-11.004
樛	-11.004
鵲	-11.0041
季秋	-11.0041
逞	-11.0041
汲汲	-11.0042
瘳	-11.0044
醻	-11.0045
孟春	-11.0046
鄢	-11.0046
瑣	-11.0047
襌	-11.0048
下旁加	-11.0048
幡	-11.0049
京兆	-11.0049
顔色	-11.0049
椁	-11.005
皃	-11.0051
束帛	-11.0051
胖	-11.0051
脣	-11.0051
橈	-11.0052
盂	-11.0054
撻	-11.0054
皁	-11.0056
陘	-11.0056
螟	-11.0057
皎	-11.0058
毳	-11.0059
棼	-11.006
熏	-11.0061
縿	-11.0062
頎	-11.0062
交錯	-11.0064
案郭氏京云	-11.0065
而不敢	-11.0065
豈弟	-11.0068
所類反	-11.0068
未敢	-11.0071
黝	-11.0071
閒厠	-11.0074
何得	-11.0077
相接	-11.0077
豫州	-11.0083
庚子	-11.0084
不可得而	-11.0086
谷風	-11.009
升降	-11.0092
史記注四	-11.0092
則否	-11.0093
不顧	-11.0094
嵗星	-11.0094
七葉右	-11.01
古外反	-11.0108
也又問	-11.0115
漢興	-11.0116
謹按此	-11.0119
不曽	-11.0119
長短	-11.0125
山澤	-11.0132
雜卦	-11.0132
未嘗不	-11.0143
始于	-11.0143
一度	-11.0152
乎哉	-11.0155
内史	-11.0157
底事	-11.0161
之所以為	-11.0168
亦不可	-11.0175
官名	-11.0175
歸藏	-11.0202
雅頌	-11.0205
此心	-11.0205
音泰下	-11.022
合樂	-11.0221
之運	-11.0221
所類	-11.0222
音境	-11.0234
一半	-11.0239
母弟	-11.0249
瓚	-11.0249
説卦	-11.0253
㮮	-11.026
溝洫	-11.0262
三年之喪	-11.0262
曜	-11.0263
彭蠡	-11.0265
三危	-11.0265
剛健	-11.0269
絀	-11.027
饋食	-11.027
唐石經	-11.027
特牲	-11.0271
十月之交	-11.0271
臾	-11.0273
遑	-11.0273
額	-11.0274
鳲鳩	-11.0275
斬衰	-11.0277
而不言	-11.0277
少昊	-11.0277
淖	-11.0277
覃	-11.0278
球	-11.0278
慤	-11.0278
艱難	-11.0279
天氣	-11.028
司寇	-11.028
檻	-11.0281
扑	-11.0282
揮	-11.0282
巛	-11.0283
蘧	-11.0284
欽定四庫全書七經孟子考文補遺卷一	-11.0284
髽	-11.0284
剡	-11.0285
掖	-11.0286
挑	-11.0287
傚	-11.0287
葭	-11.0289
蓐	-11.0289
啼	-11.029
兩句	-11.0292
林云	-11.0292
玊	-11.0293
之妻	-11.0294
瑱	-11.0294
埸	-11.0294
參差	-11.0294
絇	-11.0295
柎	-11.0297
本皆作	-11.03
遷殷	-11.03
鞫	-11.0301
祖父	-11.0302
西階	-11.0303
禮書	-11.0303
衎	-11.0304
易曉	-11.0305
遘	-11.0305
劫	-11.0307
無罪	-11.0308
反注及	-11.0312
雨雪	-11.0317
嘒	-11.0324
百畝	-11.0324
下孟反下	-11.0324
緯書	-11.0343
二十一葉左	-11.035
治天下	-11.0353
烝民	-11.0355
學校	-11.0357
成湯	-11.0366
音煩	-11.0366
各以其	-11.0368
從政	-11.037
有也字	-11.038
五年傳	-11.0397
各有所	-11.0408
無而字	-11.0408
如何是	-11.0414
改過	-11.042
所角	-11.0427
初學記	-11.0444
可畏	-11.0447
勿用	-11.0451
偶然	-11.0464
文帝	-11.0464
春秋書	-11.0474
相合	-11.048
無形	-11.0481
大司馬	-11.0487
終身	-11.0489
嵗池録	-11.0494
杵	-11.0497
鏡	-11.0498
洞庭	-11.0498
易簡	-11.0501
阼階	-11.0502
粹	-11.0503
飬	-11.0505
禖	-11.0511
爛	-11.0511
不作弗	-11.0511
巡狩	-11.0512
貴於	-11.0514
鬭	-11.0515
穆穆	-11.0517
篇名	-11.0518
折衷	-11.0518
御覽五百	-11.0518
徃徃	-11.0519
團	-11.0519
鉅	-11.052
鮒	-11.052
明徳	-11.052
勁	-11.052
蝸	-11.0521
紘	-11.0521
隼	-11.0522
肸	-11.0522
皥	-11.0523
職方氏	-11.0524
伶	-11.0524
狃	-11.0525
簠	-11.0525
騰	-11.0525
評	-11.0527
沐	-11.0528
岀	-11.053
朝覲	-11.053
寡人	-11.0532
營室	-11.0533
小象	-11.0533
愿	-11.0533
衾	-11.0534
磔	-11.0534
鞞	-11.0534
洵	-11.0535
煇	-11.0536
岐山	-11.0537
拇	-11.0538
韭	-11.0539
甕	-11.0539
不可以不	-11.0539
腫	-11.054
盲	-11.0541
九寸	-11.0541
鮪	-11.0542
巾車	-11.0543
麾	-11.0545
附㑹	-11.055
三十一葉左	-11.055
汋	-11.0551
待洛反	-11.0553
齧	-11.0554
直亮	-11.0557
菟	-11.0559
戸臘	-11.0564
悔亡	-11.0565
雅云	-11.0567
一等	-11.0568
疑衍字	-11.0569
夏后	-11.0577
色吏	-11.0586
力驗	-11.0588
陽縣	-11.0594
不降	-11.06
天地間	-11.0603
太隂	-11.0608
第三十	-11.0611
僞反	-11.0611
十有五	-11.0618
這是	-11.0639
燕燕	-11.0641
昏禮	-11.065
便説	-11.0651
為災	-11.0652
元吉	-11.0657
三本足利本宋板	-11.0658
便自	-11.0667
詩序	-11.0667
用兵	-11.067
十三卷	-11.0673
不廢	-11.0684
昊	-11.0685
从木	-11.071
音洛下	-11.0719
古堯	-11.0734
丁亂反	-11.0742
孔穎達	-11.0751
一隂一陽	-11.0752
肫	-11.0754
黄義剛録	-11.0758
繞	-11.0759
譎	-11.0761
籠	-11.0761
姻	-11.0764
觜	-11.0764
上九爻辭	-11.0764
科斗	-11.0765
岡	-11.0765
屈伸	-11.0766
無明文	-11.0766
伯夷	-11.0766
翼翼	-11.0767
闡	-11.0767
超	-11.0767
芬	-11.0767
裴	-11.0768
羙	-11.0768
萍	-11.0768
無作亡	-11.0769
饔	-11.0771
戊午	-11.0771
兀	-11.0771
州吁	-11.0771
莪	-11.0772
飄	-11.0772
臚	-11.0772
圜丘	-11.0772
辟廱	-11.0773
澆	-11.0773
忱	-11.0773
淡	-11.0776
秬	-11.0776
鬄	-11.0778
塾	-11.0779
詘	-11.0779
絮	-11.078
厠	-11.0782
餓	-11.0783
縢	-11.0784
文意	-11.0784
班固	-11.0785
懇	-11.0786
仲弓	-11.0787
杏	-11.0787
司農	-11.0788
令尹	-11.0788
嵩	-11.0789
洋洋	-11.0792
縳	-11.0793
堇	-11.0795
春正月	-11.0796
涂	-11.0797
苻	-11.0801
大槩	-11.0806
天下之大	-11.0807
何以知	-11.0807
附近之近	-11.0807
南海	-11.0812
治水	-11.0819
羌吕	-11.0823
逺矣	-11.0827
衛人	-11.0833
亦通	-11.0833
二十八葉右	-11.0834
未安	-11.0835
此章言	-11.0836
下有其字	-11.0843
之大者	-11.0844
鄭讀	-11.0858
雷風	-11.0863
第七章	-11.0864
等篇	-11.0865
梓人	-11.0872
四十七	-11.0875
九六	-11.0875
補遺一本	-11.0876
二隂	-11.0877
謂作為	-11.088
也或曰	-11.0882
夏商	-11.089
平平	-11.089
鄭玄云	-11.0893
力報反	-11.0894
房中	-11.0904
小戎	-11.0914
三十一葉	-11.0914
公田	-11.0914
二十五葉右	-11.0917
六行注	-11.0919
坤卦	-11.0922
湯武	-11.0922
往往	-11.0927
必有所	-11.0935
之所為	-11.0936
並非	-11.0942
載師	-11.0942
耳目	-11.0943
覲反	-11.0945
二十二葉左	-11.0951
亦可以	-11.0957
或如字	-11.0973
祖考	-11.0975
二十卷	-11.0979
公卿	-11.0985
王肅注	-11.0988
是指	-11.0991
㳺	-11.0994
也也上有者字足利本同	-11.1003
黄㽦録	-11.1007
禀	-11.1008
帝嚳	-11.1011
返	-11.1013
㒺	-11.1014
蓍龜	-11.1015
董銖錄	-11.1015
柷	-11.1017
憧憧	-11.1018
臻	-11.1019
日本山井鼎物觀撰禮記註疏第	-11.102
閼	-11.1021
慧	-11.1021
甥	-11.1021
稠	-11.1022
寡君	-11.1022
夾鍾	-11.1022
康王之誥	-11.1023
辛亥	-11.1023
琰	-11.1026
潁川	-11.1027
耗	-11.1027
逾	-11.1028
筥	-11.1029
油	-11.1029
鷹	-11.1029
収	-11.1029
屠	-11.103
四夷	-11.103
荀爽	-11.1031
旟	-11.1032
潜	-11.1032
燬	-11.1032
護	-11.1033
辦	-11.1034
直用反	-11.1035
媾	-11.1035
谿	-11.1036
洪水	-11.1037
紇	-11.1037
有虞氏	-11.1039
頴	-11.104
䜴	-11.1042
庚辰	-11.1044
釋詁云	-11.1045
鴟	-11.1046
是要	-11.1048
梨	-11.1051
匄	-11.1054
百七十	-11.1055
初佳反	-11.1056
甗	-11.1057
沖	-11.1057
然後可以	-11.1059
政治	-11.1061
七寸	-11.1062
封疆	-11.1063
音亮	-11.1064
下當脫	-11.1066
庶母	-11.1066
諡法	-11.107
鑣	-11.1071
必利反	-11.1076
水土	-11.1083
五報	-11.1083
三十葉	-11.1091
者多矣	-11.1096
連山	-11.1099
甫田	-11.11
二十六葉右	-11.1101
二百里	-11.1114
樊注	-11.1124
傅説	-11.1127
三百里	-11.1133
豈得	-11.1136
篇末	-11.114
右繫辭	-11.114
七政	-11.1145
祭器	-11.1151
方伯	-11.1158
可使	-11.1163
國之君	-11.1167
承天	-11.1171
象形	-11.1171
吕氏	-11.1178
故聖人	-11.1189
子貢曰	-11.1195
廟中	-11.1198
八卦之	-11.1223
足利本宋板同	-11.1229
無者字	-11.1233
是聖人	-11.1235
下三本有也	-11.1235
到得	-11.1242
舊文	-11.1258
胸	-11.1262
四分	-11.1263
相通	-11.1263
補遺古本	-11.1264
鵲巢	-11.1266
第十一章	-11.1269
冐	-11.1269
辠	-11.1272
季札	-11.1272
瓉	-11.1275
禎	-11.1276
茲	-11.1278
慰	-11.1279
九四爻辭	-11.128
構	-11.1283
詹	-11.1284
不知是	-11.1285
萇	-11.1285
淄	-11.1285
叩	-11.1286
彬	-11.1287
陽冰	-11.129
女作汝	-11.129
餞	-11.129
竿	-11.1291
沓	-11.1291
斿	-11.1291
晋	-11.1293
飛鳥	-11.1293
魚麗	-11.1294
沸	-11.1295
上有而字	-11.1296
謗	-11.1297
軷	-11.1298
也薛章句	-11.1299
祓	-11.13
荏	-11.1301
詩召	-11.1302
譴	-11.1303
三禮圖	-11.1304
稽疑	-11.1305
暉	-11.1306
巷伯	-11.1306
路寢	-11.1306
烖	-11.1307
逋	-11.1309
蟋蟀	-11.1309
伐紂	-11.1312
酋	-11.1312
蕪	-11.1313
時節	-11.1313
羹	-11.1314
薺	-11.1317
煖	-11.1318
蟊	-11.132
之䘮	-11.1326
仲冬	-11.1329
事理	-11.1329
九州之	-11.1331
宰我	-11.1335
人作民	-11.1336
西河	-11.1338
理㑹得	-11.1339
南吕	-11.1343
祭法	-11.1345
九卷	-11.1347
苦怪	-11.1351
力報	-11.1366
按春秋	-11.1377
彼此	-11.1381
而知之	-11.1385
周家	-11.1389
生魄	-11.1396
庫門	-11.14
皇矣	-11.1406
音咨	-11.1407
二章疏	-11.1417
駁曰	-11.1434
天下之人	-11.1435
文姜	-11.144
今本作	-11.1444
失禮	-11.1446
不能自	-11.1448
四方之	-11.1449
當如此	-11.1461
為博士	-11.1474
繫於	-11.1476
求諸	-11.1484
于僞反注	-11.1485
魯論	-11.1488
入門	-11.1492
字書作	-11.1498
徐又音	-11.1499
朔日	-11.1505
經問卷	-11.1521
原本	-11.1523
太陽	-11.1525
龍門	-11.153
中候	-11.153
脉	-11.1531
絡	-11.1536
邉	-11.1537
騶	-11.1541
褐	-11.1543
畫八卦	-11.1545
盛徳	-11.1545
首尾	-11.1546
古今字	-11.1548
咏	-11.1548
笛	-11.1548
酷	-11.1553
下有也下傳	-11.1554
賈公彦	-11.1554
座	-11.1554
殁	-11.1554
胷	-11.1554
揚之水	-11.1555
然且	-11.1555
瑶	-11.1556
擁	-11.1556
珽	-11.1556
兩箇	-11.1557
綌	-11.1557
此之謂也	-11.1559
偉	-11.1559
菆	-11.1559
剖	-11.156
膾	-11.1561
蕩蕩	-11.1561
成性	-11.1562
窈	-11.1563
唁	-11.1564
掣	-11.1566
燿	-11.1566
怵	-11.157
顒	-11.1573
軍旅	-11.1576
租	-11.1577
靁	-11.1577
曽子曰	-11.1577
奐	-11.1577
采薇	-11.1579
今按	-11.1579
將將	-11.158
埴	-11.1581
纊	-11.1582
櫛	-11.1585
莫若	-11.1585
可食	-11.1585
宣帝	-11.1591
太保	-11.1594
黏	-11.1595
悠悠	-11.1596
百工	-11.1596
簡文云	-11.1598
黄金	-11.1604
孰能	-11.1604
廢疾	-11.1612
寺人	-11.1613
成就	-11.1618
白虎	-11.1629
泰伯	-11.1629
患難	-11.1632
今文無	-11.1637
丁丈反下	-11.1639
滎陽	-11.1647
彖象	-11.1648
小宗	-11.1649
市志	-11.1653
王姬	-11.1653
侍中	-11.1654
治民	-11.1663
姜氏	-11.1669
來奔	-11.1672
出門	-11.1674
色白	-11.1685
名之曰	-11.1689
惡惡	-11.1709
下二本有也	-11.1711
致命	-11.1727
第九	-11.1731
欲使	-11.1755
仲夏	-11.176
不害	-11.1767
職方	-11.1769
周室	-11.1774
匠	-11.178
寺	-11.179
裡	-11.1801
敢問	-11.1801
諸夏	-11.1809
有許多	-11.1815
属	-11.1819
霧	-11.1821
堆	-11.1823
惻隠	-11.1824
贏	-11.1827
山海經	-11.1827
揉	-11.1827
捧	-11.1828
戀反	-11.1829
藏諸用	-11.183
慘	-11.183
戊申	-11.1831
孔壁	-11.1831
趙岐	-11.1832
悝	-11.1833
鷄	-11.1833
殃	-11.1834
輟	-11.1834
張逸問	-11.1834
煬	-11.1834
泳	-11.1834
影宋本集韻	-11.1836
漸漸	-11.1836
吠	-11.1837
穹	-11.1838
褊	-11.184
蔀	-11.1841
菊	-11.1841
釡	-11.1842
綜	-11.1842
儲	-11.1842
墾	-11.1843
四十三	-11.1843
厖	-11.1843
糜	-11.1844
剽	-11.1844
牧誓	-11.1845
斝	-11.1845
濬	-11.1845
虎賁	-11.1845
于偽反	-11.1846
謹按註	-11.1846
應劭	-11.1846
阨	-11.1847
文王世子	-11.1849
腐	-11.1849
嗛	-11.185
叔姬	-11.1851
姆	-11.1851
遟	-11.1852
昕	-11.1852
擔	-11.1853
齍	-11.1855
羶	-11.1855
伺	-11.1856
帳	-11.1856
北辰	-11.1856
存焉	-11.1859
卽	-11.1859
孔子弟子	-11.1863
太宰	-11.1864
捄	-11.1865
瘍	-11.1866
佼	-11.1866
螢	-11.1866
苹	-11.1869
下疑脱	-11.187
注疏本	-11.1883
黃帝	-11.1887
世卦	-11.1887
可見矣	-11.189
息列反	-11.1893
從容	-11.1897
司馬本作	-11.1897
曾子問	-11.1899
姓名	-11.19
三十卷	-11.1913
通志堂本作	-11.1914
大祝	-11.1916
兩端	-11.1917
故夫子	-11.1922
二百四十	-11.1927
白華	-11.1928
恭敬	-11.1939
舊唐書四	-11.1941
表記	-11.1945
漢初	-11.195
程氏	-11.1954
重耳	-11.1964
黄㽦錄	-11.1965
功成	-11.1978
哀樂	-11.1997
憂心	-11.2001
相親	-11.2003
乗馬	-11.2005
何獨	-11.2021
漢律	-11.2031
似嗟反	-11.2032
漢世	-11.2037
音餘下	-11.2037
先聖	-11.2039
秦漢	-11.205
萬國	-11.2064
精神	-11.2081
所歸	-11.2081
祖父母	-11.2085
範圍	-11.2088
陌	-11.2095
髙誘曰	-11.2096
斆	-11.2099
遞	-11.21
蔡邕	-11.2104
楊道夫録	-11.2106
諾	-11.2107
删	-11.2109
䘏	-11.2109
僧	-11.2111
緊	-11.2112
轍	-11.2112
林夔孫錄	-11.2113
腸	-11.2114
璽	-11.2114
情性	-11.2115
敗績	-11.2115
儒林傳	-11.2116
坑	-11.2118
紏	-11.2119
甘盤	-11.2119
牧野	-11.2119
唱	-11.2119
㮚	-11.2119
鏗	-11.212
蔡章句	-11.212
許多道理	-11.212
穀梁傳	-11.2121
蕡	-11.2121
嘖	-11.2121
沔	-11.2122
鴟鴞	-11.2123
甲寅	-11.2123
蚳	-11.2123
喉	-11.2123
楣	-11.2124
忠恕	-11.2124
棐	-11.2127
褰	-11.2128
駘	-11.2129
蝗	-11.2129
潞	-11.2129
妺	-11.2132
祜	-11.2132
考異足利本經	-11.2132
葛藟	-11.2133
矇	-11.2133
輴	-11.2133
於旣反	-11.2133
史佚	-11.2133
柶	-11.2133
諶	-11.2134
茆	-11.2134
漣	-11.2135
郟	-11.2136
窕	-11.2136
紳	-11.2136
麛	-11.2136
殊不知	-11.2137
廏	-11.2137
麕	-11.2138
圖書	-11.2139
騁	-11.214
蠆	-11.214
畛	-11.2141
古洽	-11.2143
藍	-11.2145
慆	-11.2146
采菽	-11.2146
三嵗	-11.2146
㑹稽	-11.2147
揔	-11.2149
繢	-11.215
韗	-11.215
尚未	-11.2151
閾	-11.2153
曽孫	-11.2154
鴇	-11.2157
集韻	-11.2159
王畿	-11.2164
玉衡	-11.2164
宗廟之	-11.2167
二十九葉右	-11.2171
婢支	-11.2176
卿大夫士	-11.2191
髙明	-11.2191
辰星	-11.2197
祭統	-11.2198
不曉	-11.2204
私意	-11.2216
古活	-11.2222
古卯	-11.2246
女乙	-11.2248
喜樂	-11.225
二寸	-11.2251
聖人之道	-11.2257
厲公	-11.2259
山林	-11.2267
冉有	-11.2268
胡老	-11.2271
先儒謂	-11.2272
六鄉	-11.2279
爲韻	-11.228
樂器	-11.2281
今俗	-11.2282
外卦	-11.2287
三苗	-11.2291
不祥	-11.23
八年傳	-11.2308
這裏	-11.2317
一音如字	-11.2326
三統	-11.2336
漢志作	-11.2338
第十一	-11.2342
文選注十	-11.235
刼	-11.2368
申志	-11.2379
湘	-11.2382
降一等	-11.2383
之所在	-11.2383
丗	-11.2388
魯侯	-11.2392
綠	-11.2393
武王伐紂	-11.2394
及考	-11.2396
苐	-11.2397
句讀	-11.2397
孳	-11.2397
采蘋	-11.2399
表裏	-11.2399
漢水	-11.24
透	-11.24
甘節錄	-11.2401
綱領	-11.2403
杓	-11.2404
白駒	-11.2404
廸	-11.2405
簒	-11.2406
涿	-11.2407
戢	-11.2409
顯諸仁	-11.2409
肅拜	-11.241
筆削	-11.2411
雌雄	-11.2411
士冠禮	-11.2411
逖	-11.2412
曲臺	-11.2413
溷	-11.2413
攜	-11.2414
簧	-11.2416
斲	-11.2416
諸臣	-11.2416
樽	-11.2416
闋	-11.2416
瘁	-11.2417
繳	-11.2418
謫	-11.2418
罹	-11.2419
湎	-11.242
鍰	-11.2421
干戈	-11.2421
秃	-11.2421
朗	-11.2422
赬	-11.2423
壓	-11.2423
蠲	-11.2423
搢	-11.2423
妬	-11.2423
貿	-11.2426
正嘉同謹按	-11.2426
詩疏八之	-11.2426
鄣	-11.2427
南向	-11.2427
雞鳴	-11.2428
丹朱	-11.2428
眂	-11.2428
臝	-11.2429
醇	-11.243
磐	-11.243
左一行	-11.243
瑩	-11.2431
逡	-11.2432
袗	-11.2434
踣	-11.2435
藜	-11.2435
瘞	-11.2436
丁浪反	-11.2437
羲和	-11.2438
一件	-11.2439
太康	-11.2441
血氣	-11.2442
帨	-11.2443
釋文二十九	-11.2445
跳	-11.2445
聖王	-11.2445
髢	-11.2445
動靜	-11.2446
應對之應	-11.2448
右手	-11.2448
襢	-11.2448
沫	-11.2449
祁祁	-11.245
豳風	-11.245
色界反	-11.2451
旻天	-11.2452
沈又	-11.2453
林學蒙錄第	-11.2462
議論	-11.2462
下有也字補遺宋板疏	-11.2463
未可以	-11.247
□□	-11.2479
長殤	-11.2487
得其所	-11.249
太室	-11.2491
丁巳	-11.2494
小宰	-11.2499
容貌	-11.25
不踰	-11.2503
宋板足利本同註	-11.2512
必須	-11.2517
古本註	-11.2519
于敏	-11.2525
水經注二十	-11.2531
秦伯	-11.2536
盡心	-11.2549
古洽反	-11.2558
黄㽦錄第	-11.256
芳夫	-11.2562
始祖	-11.2572
形體	-11.2581
春秋傳曰	-11.2586
賢臣	-11.2597
齊桓公	-11.2602
南郊	-11.2606
文作云	-11.2617
只是這	-11.2622
胡臥	-11.2625
東都	-11.2626
沈云	-11.2631
天地之道	-11.2636
道路	-11.264
配天	-11.2651
央	-11.266
何哉	-11.2664
拜送	-11.2666
和氣	-11.2667
先天圖	-11.2695
利見大人	-11.2697
有者字	-11.2697
莊姜	-11.2698
催	-11.2698
董仲舒	-11.2701
托	-11.2702
砥	-11.2702
䧟	-11.2703
糝	-11.2703
捉	-11.2705
籩豆	-11.2706
嘯	-11.2707
打	-11.2707
紺	-11.2707
不可考	-11.2707
簪	-11.2709
險阻	-11.271
義宗	-11.2711
腦	-11.2712
庚午	-11.2712
棫樸	-11.2713
糓	-11.2713
三百八十四爻	-11.2713
傑	-11.2713
尚書大傳	-11.2714
漠	-11.2715
隣	-11.2715
虵	-11.2716
糗	-11.2717
鄄	-11.2717
佃	-11.2717
槐	-11.2717
麟趾	-11.2718
杜撰	-11.2722
頍	-11.2722
鎬	-11.2723
踧	-11.2724
無此字	-11.2724
藐	-11.2724
踵	-11.2724
鞮	-11.2724
懦	-11.2725
瞍	-11.2725
眩	-11.2725
弩	-11.2725
犀	-11.2726
脰	-11.2726
愁	-11.2728
吿	-11.2729
紕	-11.2729
岷	-11.2729
紱	-11.2729
鵙	-11.2729
隩	-11.273
贍	-11.273
卷阿	-11.273
蜩	-11.2731
檉	-11.2731
東萊	-11.2732
啐	-11.2732
肅肅	-11.2735
迓	-11.2735
櫝	-11.2735
通典八十	-11.2736
肴	-11.2736
諜	-11.2737
櫬	-11.2737
尋常	-11.2738
迥	-11.2738
正德嘉靖	-11.2739
輹	-11.274
兢兢	-11.274
聖人作易	-11.2741
遙	-11.2742
甒	-11.2743
刄	-11.2744
蓼蕭	-11.2745
紒	-11.2745
泲	-11.2745
十翼	-11.2748
綍	-11.2748
鬣	-11.2749
王廙	-11.275
吐活	-11.275
猶存	-11.2751
答拜	-11.2755
江南	-11.2756
不可知	-11.2756
吐刀	-11.2762
理會	-11.2763
佳賣	-11.2763
析木	-11.2767
黄鳥	-11.2772
初賣	-11.2782
異端	-11.2783
天下之事	-11.2786
教化	-11.2794
近郊	-11.2798
于作於	-11.2798
疏挍	-11.2806
及下皆同	-11.2821
憂思	-11.2822
伯恭	-11.2826
羊尚	-11.2832
一叚	-11.2841
如銳	-11.2841
偽書	-11.2842
酒食	-11.2842
之所由	-11.2846
篇首	-11.2854
祖宗	-11.2868
立秋	-11.2876
二十五葉左	-11.2877
熊氏	-11.2882
互相	-11.2885
茂盛	-11.2891
戊子	-11.2897
愚謂	-11.2898
六軍	-11.2904
處便是	-11.2915
爵弁	-11.2924
孟氏	-11.2926
卷耳	-11.2937
這道理	-11.2955
不暇	-11.2968
亡丁	-11.2972
各異	-11.2975
觯	-11.2979
觀之則	-11.298
封國	-11.2982
葉左	-11.2996
直吏反下	-11.3002
蒍	-11.3005
河間獻王	-11.3006
蜚	-11.3012
亾	-11.3012
孔頴達	-11.3014
仲山甫	-11.3016
廹	-11.302
姜嫄	-11.3022
二十八宿	-11.3023
揺	-11.3023
采蘩	-11.3023
犆	-11.3023
喜怒哀樂	-11.3024
戴聖	-11.3026
玷	-11.3026
宓	-11.3026
凉	-11.3027
泆	-11.3027
畬	-11.3027
鄉黨	-11.3028
費誓	-11.3028
闕里	-11.303
斟	-11.3031
勤勞	-11.3032
丁亥	-11.3032
沼	-11.3032
殺其大夫	-11.3033
汨	-11.3034
罃	-11.3034
睆	-11.3034
循環	-11.3035
字當在	-11.3035
窟	-11.3035
簞	-11.3036
必待	-11.3037
串	-11.3038
濳	-11.3038
啖集傳	-11.3039
萬厯崇禎本	-11.3039
悛	-11.3039
竦	-11.304
瑗	-11.3041
鎭	-11.3041
喪大記	-11.3042
牘	-11.3043
鄖	-11.3043
鍜	-11.3044
甲午	-11.3044
刊	-11.3044
黍離	-11.3044
鐡	-11.3045
掇	-11.3045
蘆	-11.3045
伊訓	-11.3047
仡	-11.3049
届	-11.305
嬌	-11.305
駰	-11.305
橘	-11.3051
篪	-11.3051
駱	-11.3052
刑罰	-11.3053
闈	-11.3054
夸	-11.3054
駹	-11.3055
消息	-11.3055
髲	-11.3057
旆	-11.3058
癸巳	-11.3059
姬姓	-11.3065
應鍾	-11.3065
視朝	-11.3067
鑒	-11.3069
曁	-11.3071
下有於字	-11.3072
皮冰	-11.3076
青州	-11.3078
禮儀	-11.308
侵伐	-11.3081
昭昭	-11.3082
許慎	-11.3082
些子	-11.3086
三百篇	-11.3089
必爾反	-11.3091
下三本有也字	-11.3095
户雅	-11.3097
庚戌	-11.3098
仲秋	-11.3099
案毛氏云	-11.3104
消長	-11.3106
註放此	-11.3108
鄭𤣥	-11.3109
孔門	-11.3112
三十三葉	-11.3116
小斂	-11.3126
賦車	-11.3133
何足	-11.3134
聲色	-11.3152
伐楚	-11.3162
五穀	-11.32
九勇	-11.3213
四面	-11.3219
虞夏	-11.3243
常棣	-11.3296
如今人	-11.3299
才臥	-11.331
賢才	-11.3313
可得而	-11.3322
頼	-11.3323
倣	-11.3326
芣苢	-11.3328
硬	-11.3328
蹕	-11.3333
儘	-11.3333
玄枵	-11.3334
爼	-11.3334
㨿	-11.3335
閻	-11.3338
鄰國	-11.3339
帙	-11.3339
旡咎	-11.334
勦	-11.3341
變動	-11.3345
上六爻辭	-11.3345
濶	-11.3346
料	-11.3346
柏舟	-11.3347
五子之歌	-11.3347
史記索隱	-11.3348
杌	-11.3349
緇布冠	-11.3349
踖	-11.3352
欽定四庫全書經部七	-11.3352
甯	-11.3354
忙	-11.3354
占筮	-11.3356
縓	-11.3357
貺	-11.3357
贖刑	-11.3357
殻	-11.3357
闊	-11.3357
士毅	-11.3358
蕤	-11.3358
頖	-11.3358
卭	-11.3359
穗	-11.336
炎帝	-11.336
誡	-11.3361
掬	-11.3361
壑	-11.3362
黽	-11.3363
湯誓	-11.3363
伎	-11.3364
風俗通	-11.3364
六年傳	-11.3364
劬	-11.3365
大行人	-11.3366
冲	-11.3366
匝	-11.3366
日本山井鼎物觀撰春秋左傳註疏第	-11.3366
笥	-11.3366
蹲	-11.3367
諺	-11.3367
療	-11.3367
閎	-11.3368
埶	-11.3368
湆	-11.3368
營洛	-11.3369
子鴆	-11.3369
柤	-11.3369
摻	-11.3369
鐘鼓	-11.337
巂	-11.337
曲沃	-11.3371
喧	-11.3372
慼	-11.3373
小兒	-11.3374
隈	-11.3376
蓺	-11.3377
鋤	-11.3377
楚茨	-11.3377
馨	-11.3378
古尚書文	-11.3378
釋名云	-11.3379
熬	-11.3382
紞	-11.3384
周禮疏二十	-11.3384
書亦或為	-11.3384
擩	-11.3387
冊府元龜六百	-11.3387
曆	-11.3387
孟津	-11.339
七雷反	-11.339
這便是	-11.3392
雨水	-11.3393
虞舜	-11.3396
起䖍	-11.3401
何晏	-11.3404
揚州	-11.3406
有此象	-11.3407
力彫	-11.3415
君牙	-11.3416
立冬	-11.3419
蜎	-11.3421
芃	-11.3422
許規	-11.3422
釋文補脱	-11.3425
謹按正嘉二本	-11.3428
力知反	-11.3432
校官	-11.344
郭璞云	-11.3446
居攝	-11.3447
下有人字	-11.3448
河洛	-11.3449
䇿書	-11.3452
趙氏	-11.3455
疾病	-11.3457
第九章	-11.3461
三十里	-11.3462
斯干	-11.3474
三章疏	-11.3482
東面	-11.3482
占法	-11.3486
太過	-11.3491
亡甫	-11.3503
其綺	-11.3518
世室	-11.352
乗車	-11.3537
乆矣	-11.3547
宰夫	-11.3567
居表	-11.3567
第四章	-11.3585
孛	-11.3633
力計	-11.3637
旺	-11.3663
鬱鬯	-11.3668
嶓	-11.3669
雎	-11.3669
層	-11.367
李方子録	-11.3672
纎毫	-11.3672
猾	-11.3675
下並有也字	-11.3675
直方大	-11.3675
陸費墀	-11.3675
昀	-11.3676
欵	-11.3676
懽	-11.3676
謹獨	-11.3678
六五爻辭	-11.368
羑	-11.3681
予小子	-11.3681
拙	-11.3682
狥	-11.3683
昃	-11.3684
訥	-11.3685
遹	-11.3685
菀	-11.3685
玁狁	-11.3685
壬午	-11.3685
竽	-11.3686
愍	-11.3688
刳	-11.3688
翩	-11.3689
瑑	-11.3689
棖	-11.369
涸	-11.3691
憮	-11.3692
黔	-11.3692
狙	-11.3693
儷	-11.3693
郯	-11.3694
倮	-11.3694
滔	-11.3694
澶	-11.3694
未踰年	-11.3694
士虞禮	-11.3695
琮	-11.3696
畧例	-11.3697
潭	-11.3697
卣	-11.3698
邳	-11.3698
摭	-11.3698
啖	-11.3699
吕氏春秋	-11.3699
褎	-11.37
蠅	-11.3701
鼏	-11.3701
跗	-11.3702
饉	-11.3702
歃	-11.3702
九二爻辭	-11.3702
三十二葉	-11.3703
苫	-11.3703
瓢	-11.3704
薫	-11.3704
睡	-11.3704
初爻	-11.3707
闞	-11.3707
戔戔	-11.3709
炤	-11.3709
顏	-11.3709
燋	-11.371
唐國子博士兼太子中允贈齊州刺史	-11.371
卉	-11.371
悼公	-11.3711
橐	-11.3711
王若曰	-11.3712
劉昌宗	-11.3713
豸	-11.3716
瞑	-11.3717
鱣	-11.3718
栝	-11.3719
湑	-11.372
厓	-11.3723
字當衍文	-11.3724
云作文	-11.3729
聲相近	-11.373
只是箇	-11.3732
豫章	-11.3733
行葦	-11.3735
盬	-11.3738
辟雍	-11.3743
麃	-11.3745
當是時	-11.3758
聖門	-11.3775
坎坎	-11.3783
古毒	-11.3783
隂柔	-11.3794
河間	-11.3799
金石	-11.3815
縣南	-11.3847
獸名	-11.3848
補入	-11.3852
下二本有也字	-11.3853
於鹽	-11.3859
合為一	-11.3867
三十四葉	-11.3874
興起	-11.3879
三十三年	-11.3897
爻變	-11.3942
鄭箋	-11.3949
千萬	-11.3981
修辭立誠	-11.3983
宋本春秋疏	-11.3994
娑	-11.3996
誾	-11.4001
考異古本	-11.4005
鳳凰	-11.4007
袒裼	-11.4009
覇	-11.4011
賞罰	-11.4012
博學	-11.4015
屋漏	-11.4015
覬	-11.402
裨	-11.402
正嘉二本同	-11.4021
斜	-11.4021
大射儀	-11.4022
楊道夫錄	-11.4023
大衍之數	-11.4024
郈	-11.4025
俄	-11.4025
清濁	-11.4026
劉炫	-11.4028
誇	-11.4028
磋	-11.4028
孩	-11.4028
壮	-11.4029
涵	-11.4029
膽	-11.403
下有也字下傳	-11.403
盧植	-11.4031
須臾	-11.4032
邰	-11.4032
徃来	-11.4033
伾	-11.4033
姪娣	-11.4033
序系	-11.4034
曉不得	-11.4034
殱	-11.4035
冏命	-11.4037
姞	-11.4038
顛倒	-11.4038
恬	-11.404
淺深	-11.4041
遮	-11.4041
庭燎	-11.4041
六四爻辭	-11.4041
帚	-11.4042
鼗	-11.4043
躡	-11.4043
弑作殺	-11.4043
肘	-11.4044
針	-11.4044
倨	-11.4045
鞏	-11.4045
猥	-11.4045
釋奠	-11.4046
鵻	-11.4046
鵜	-11.4047
碧	-11.4047
休息	-11.4047
廋	-11.4047
埤	-11.4048
栽	-11.4048
鳧	-11.4048
𣙗	-11.4049
祲	-11.4049
纂例	-11.4049
扁	-11.4049
償	-11.405
鼙	-11.405
泮宫	-11.405
蘋	-11.4051
夲	-11.4053
詩疏三之	-11.4053
稺	-11.4053
羆	-11.4054
駉	-11.4055
瞎	-11.4055
芼	-11.4055
棄疾	-11.4057
提要	-11.4057
彤弓	-11.4058
伐柯	-11.4058
塈	-11.4059
壙	-11.4059
茢	-11.4059
掉	-11.406
玈	-11.4061
琅	-11.4061
瓶	-11.4063
草木䟽云	-11.4064
三蒼云	-11.4064
上有言字	-11.4069
紀力反	-11.4071
覲禮	-11.4071
蛾	-11.4073
下一本有	-11.4074
協韻	-11.4075
天地之間	-11.4075
杜氏盡	-11.4076
挼	-11.4078
單伯	-11.4081
子餘反	-11.4082
褖	-11.4083
韻府	-11.4083
太微	-11.409
歩干	-11.4091
丈專	-11.4096
號令	-11.4106
丘勇	-11.4122
分別	-11.4138
陟角	-11.415
子罕	-11.4154
九年經	-11.4169
官之長	-11.4193
將帥	-11.4211
嘉萬	-11.4279
鄭氏註	-11.4288
案爾雅	-11.4291
嘉靖	-11.4329
䑓	-11.4364
婺	-11.4364
賁居子曰	-11.4366
燕射	-11.4366
萬八千	-11.4368
蔡邕石經	-11.437
閟	-11.4371
叅	-11.4373
價	-11.4374
宦	-11.4374
行於世	-11.4375
彩	-11.4376
河圖洛書	-11.4376
搖	-11.4376
鞉	-11.4377
陛	-11.4377
不獲其身	-11.4379
丣	-11.4379
凋	-11.4379
七録云	-11.4379
緦麻	-11.438
褧	-11.4381
臡	-11.4381
狠	-11.4381
安排	-11.4384
蒼帝	-11.4384
尅	-11.4385
畋	-11.4386
簀	-11.4387
郛	-11.4387
禺	-11.4387
亘	-11.4388
蹷	-11.4389
韓奕	-11.4389
廵守	-11.4389
葛覃	-11.439
臑	-11.439
彭彭	-11.4391
鶻	-11.4392
掲	-11.4392
發揮	-11.4392
鄢陵	-11.4393
崖	-11.4393
暌	-11.4394
廛	-11.4394
劵	-11.4394
補遺宋板	-11.4395
宄	-11.4397
咸池	-11.4397
癘	-11.4398
憊	-11.4398
楨	-11.4398
折獄	-11.4399
緑衣	-11.4399
猷	-11.4399
福禄	-11.44
鈍	-11.44
朶	-11.4401
在這裏	-11.4402
㔻	-11.4403
夏五月	-11.4404
闃	-11.4404
建丑	-11.4405
籀文	-11.4407
駵	-11.4407
堊	-11.4407
褫	-11.4408
鞌	-11.4408
􁀓	-11.4409
蘩	-11.4409
廧	-11.4409
諦	-11.4409
篋	-11.4409
少牢饋食禮	-11.4411
譁	-11.4412
𣏌	-11.4412
傴	-11.4413
榱	-11.4414
暱	-11.4416
積石	-11.4417
寮	-11.4417
二十八篇	-11.4417
小宗伯	-11.4417
鼓鐘	-11.4419
爓	-11.442
扆	-11.442
緜緜	-11.442
太史公	-11.4421
拭	-11.4421
楅	-11.4422
蚩	-11.4426
煌煌	-11.4427
芳味	-11.4427
觵	-11.4427
變雅	-11.4432
水旱	-11.4436
許男	-11.444
扶晚	-11.4441
七羊反	-11.4444
㸔得	-11.4446
隋志	-11.4448
側留	-11.4461
注云古文	-11.4461
前面	-11.4468
也上有者字	-11.45
素口	-11.4504
雉門	-11.4506
曲折	-11.4512
初革	-11.4525
上有有字	-11.4557
聖德	-11.4587
八年經	-11.4627
毛詩註疏第	-11.4663
葉右	-11.4673
音恭本	-11.472
焞	-11.4733
周謨錄第	-11.4737
閨門	-11.4739
煆	-11.474
薙	-11.4741
廐	-11.4744
鶴鳴	-11.4745
硜	-11.4746
五十八篇	-11.4746
疊	-11.4747
利有攸往	-11.4747
蘓	-11.4748
輓	-11.4749
沴	-11.4749
仁義禮智	-11.4749
卅	-11.475
叠	-11.4752
王輔嗣	-11.4752
罄	-11.4753
建亥	-11.4753
隻	-11.4754
勉勉	-11.4754
依舊	-11.4754
黶	-11.4755
歇	-11.4755
謚	-11.4755
岍	-11.4756
莫大乎	-11.4756
怯	-11.4756
婆	-11.4756
緅	-11.4757
詬	-11.4757
悴	-11.4757
喪服小記	-11.4758
胾	-11.4759
侍坐	-11.476
庿	-11.476
秣	-11.476
酅	-11.4761
豢	-11.4761
炳	-11.4761
淇奥	-11.4762
魋	-11.4763
鉦	-11.4765
謳	-11.4765
詩疏二之	-11.4765
倩	-11.4765
敉	-11.4766
剕	-11.4766
侏	-11.4766
二三子	-11.4766
袖	-11.4767
令作今	-11.4768
雲夢	-11.4769
頊	-11.4769
烜	-11.4769
义	-11.477
詩疏四之	-11.4771
摽	-11.4771
蘖	-11.4771
葵丘	-11.4771
甲戌	-11.4772
娶妻	-11.4772
城濮	-11.4772
杵臼	-11.4772
靷	-11.4773
縻	-11.4773
栭	-11.4773
螻	-11.4774
淒	-11.4774
畯	-11.4774
淫泆	-11.4774
淇	-11.4774
霄	-11.4774
亹	-11.4774
沚	-11.4775
鴥	-11.4775
榖梁傳	-11.4775
瑳	-11.4776
憐	-11.4776
亹亹	-11.4776
旉	-11.4777
攻古文	-11.4778
䕫	-11.4779
陔	-11.4779
鸛	-11.4779
沬	-11.478
詩疏十六之	-11.478
僨	-11.4781
挫	-11.4783
筩	-11.4784
鷙	-11.4785
蚍	-11.4785
楷	-11.4785
戊寅	-11.4786
柝	-11.4787
吳越	-11.4788
羞惡	-11.4788
輇	-11.4789
采采	-11.479
蓁	-11.479
詩疏十八之	-11.479
壎	-11.4791
遣車	-11.4796
二本足利本宋板	-11.4797
仄	-11.4797
麏	-11.4799
誑	-11.48
祛	-11.48
醋	-11.48
竊意	-11.4802
三本足利本	-11.4802
甲辰	-11.4806
士昏禮	-11.481
絲衣	-11.4812
劣僞	-11.4815
十有八	-11.4829
嘉靖本	-11.4829
羣神	-11.4831
斷斷	-11.4832
扶云反	-11.4837
君子小人	-11.4838
千七百	-11.4843
戸敎	-11.4843
徒丹	-11.4853
力軌	-11.4863
千嵗	-11.4865
徒刀	-11.487
父母之喪	-11.4874
下有則字	-11.4879
當衍字	-11.488
想見	-11.4884
長三尺	-11.4894
哀公問	-11.4895
二作一	-11.4937
第三章	-11.4986
十一卷	-11.5041
謹按足利本	-11.5083
枉矢	-11.511
鈐	-11.511
直吕	-11.5113
薛章句	-11.5114
潛龍勿用	-11.512
節南山	-11.5124
周南召南	-11.5124
采芑	-11.5126
毫釐	-11.513
蜺	-11.5131
𤣥鳥	-11.5132
按晉志	-11.5133
憸	-11.5134
灂	-11.5135
㓙	-11.5136
六二爻辭	-11.5138
丰	-11.5138
脱屨	-11.5138
綂	-11.5138
彷	-11.5139
浹	-11.514
九三爻辭	-11.5141
戊辰	-11.5141
佻	-11.5141
到這裏	-11.5141
瞞	-11.5142
周公攝政	-11.5143
段删	-11.5143
芹	-11.5143
兜	-11.5143
嵬	-11.5143
謖	-11.5144
甘棠	-11.5144
幂	-11.5145
壬辰	-11.5145
八佾	-11.5146
繂	-11.5146
夫人姜氏	-11.5146
拍	-11.5146
騫	-11.5146
脆	-11.5146
昜	-11.5146
鱄	-11.5147
仲虺之誥	-11.5147
贛	-11.5147
邶風	-11.5148
所自出	-11.5149
迸	-11.5149
鎧	-11.5149
釜	-11.515
奔走	-11.5151
戶	-11.5151
下共同	-11.5152
觴	-11.5152
西伯戡黎	-11.5153
醓	-11.5153
培	-11.5153
嚻	-11.5153
僮	-11.5154
恢	-11.5154
髓	-11.5154
醆	-11.5155
鬛	-11.5155
蹢	-11.5155
无不利	-11.5156
骨肉	-11.5157
蔞	-11.5157
躐	-11.5157
崔靈恩	-11.5158
殪	-11.5158
軛	-11.5159
補遺古本序	-11.516
悄	-11.516
禡	-11.516
慟	-11.516
觭	-11.5162
茇	-11.5163
千二百	-11.5163
鬚	-11.5163
佹	-11.5164
黷	-11.5164
樗	-11.5164
攫	-11.5164
夜半	-11.5164
九罭	-11.5164
鄉射禮	-11.5165
死魄	-11.5165
淫奔	-11.5166
杠	-11.5166
皤	-11.5167
剌	-11.5168
星孛	-11.5169
笴	-11.5169
闐	-11.5169
鱉	-11.5169
挹	-11.517
熹	-11.517
枋	-11.517
萋萋	-11.5171
鷖	-11.5171
趯	-11.5171
屬下句	-11.5171
薌	-11.5171
箇物事	-11.5172
鰌	-11.5176
賙	-11.5176
載芟	-11.5176
釋言文	-11.5177
臀	-11.5178
少府	-11.5178
杜例	-11.5182
噣	-11.5186
市軫	-11.5192
淠	-11.5192
蜉蝣	-11.5192
小宛	-11.5195
市戰	-11.5203
慶父	-11.5205
封建	-11.5207
陳留	-11.5214
小弁	-11.5223
牛羊	-11.523
倫理	-11.5247
初患	-11.5257
前儒	-11.5285
右襄公	-11.5289
才計	-11.53
熟讀	-11.5317
子禮反	-11.5324
杜子春	-11.5342
葉六行注	-11.5345
郊祀	-11.5348
三十四葉右	-11.5353
下有以字	-11.5401
百歳	-11.5413
亡巾	-11.5424
彖辭程傳	-11.5514
瑞應圖	-11.5517
甚麽	-11.5522
古微書卷	-11.5524
朔日有食之	-11.5525
何法法	-11.5526
鑠	-11.5528
潘時舉録	-11.5528
宙	-11.5529
遡	-11.5529
状	-11.5531
異義公羊說	-11.5531
考異足利本	-11.5531
漳	-11.5532
曰作日誤	-11.5533
穡	-11.5534
剪	-11.5535
豚魚	-11.5535
縱横	-11.5535
鄭司農	-11.5535
庪	-11.5538
漾	-11.5539
州刺史	-11.5539
十有一年	-11.5539
陸徳明	-11.554
柷敔	-11.554
訕	-11.554
湛露	-11.5541
鳳皇	-11.5541
嗚	-11.5541
朱文公	-11.5542
區區	-11.5542
减	-11.5542
澹	-11.5543
邴	-11.5544
銷	-11.5544
宋本羣經音辨	-11.5544
葱	-11.5545
准	-11.5545
忝	-11.5546
挽	-11.5546
拆	-11.5546
掊	-11.5546
崧髙	-11.5546
豺	-11.5547
窋	-11.5548
麄	-11.5549
塹	-11.555
豭	-11.555
燼	-11.5552
耋	-11.5552
箸	-11.5552
螫	-11.5552
卄	-11.5553
捶	-11.5554
騋	-11.5554
謹按足利本後人記云	-11.5555
酸	-11.5556
枸	-11.5556
嚚	-11.5556
撞	-11.5556
幬	-11.5556
稽顙	-11.5557
咸恒	-11.5558
啻	-11.5558
夭夭	-11.5559
犒	-11.5559
彄	-11.5559
掔	-11.5559
藹	-11.5559
稀	-11.556
詮	-11.556
㓕	-11.556
蔟	-11.556
擘	-11.5561
杙	-11.5561
司馬遷	-11.5561
耨	-11.5561
芘	-11.5561
此作比	-11.5562
再拜稽首	-11.5562
荑	-11.5563
笠	-11.5565
戡	-11.5566
洿	-11.5567
韌	-11.5568
幦	-11.5569
漑	-11.5569
煑	-11.5569
晃	-11.5569
鍵	-11.5571
瓞	-11.5574
聒	-11.5574
必大曰	-11.5576
情偽	-11.5576
敺	-11.5577
轘	-11.5578
踦	-11.5581
蒺	-11.5581
鶬	-11.5581
今作令	-11.5582
􁁆	-11.5584
鴞	-11.5585
皮彦	-11.5586
煮	-11.5588
彼註作	-11.5589
柲	-11.5589
古協反	-11.5589
翛	-11.5595
昭元年	-11.5598
桑柔	-11.5599
莫報反	-11.56
支離	-11.56
刪詩	-11.5601
幼少	-11.5601
乙巳	-11.5605
力輒	-11.5628
丁浪	-11.563
許六反	-11.5643
力兮反	-11.5647
式豉	-11.5653
初學記二十	-11.5654
葉七行注	-11.5673
側巾	-11.5701
魚綺	-11.5707
可攷	-11.5745
上有所字	-11.5762
百畆	-11.5803
帯	-11.5895
肖	-11.5906
騤	-11.5929
顔回	-11.5931
玩味	-11.5937
有司徹	-11.594
占得此爻	-11.594
隳	-11.594
欽定四庫全書古微書卷	-11.5942
樊遲	-11.5944
歐	-11.5946
鈔	-11.5947
𦙍	-11.5947
爾疋	-11.5948
曵	-11.5949
宋本春秋疏十	-11.5949
狐裘	-11.5951
廿一行	-11.5951
㛰	-11.5952
恫	-11.5952
五經要義	-11.5954
旅獒	-11.5954
数	-11.5954
臬	-11.5955
南山有臺	-11.5956
畨	-11.5956
鬷	-11.5956
雨無正	-11.5958
溽	-11.5958
討賊	-11.5958
斟酌	-11.596
錯綜	-11.596
揣	-11.5961
前輩	-11.5961
椅	-11.5962
太簇	-11.5963
收斂	-11.5963
轄	-11.5964
謟	-11.5964
蓮	-11.5964
蒹葭	-11.5965
犧牲	-11.5965
姝	-11.5965
敔	-11.5966
壬戌	-11.5966
稊	-11.5966
篇内同	-11.5966
嫉	-11.5966
撤	-11.5966
公食大夫禮	-11.5967
弁絰	-11.5967
咳	-11.5967
穉	-11.5967
降婁	-11.5968
不敢改也	-11.5968
憯	-11.5969
炭	-11.597
伯翳	-11.597
動静	-11.5971
翅	-11.5972
掠	-11.5972
售	-11.5973
開闢	-11.5974
憖	-11.5974
劑	-11.5975
縗	-11.5975
旌旗	-11.5975
沌	-11.5975
溱洧	-11.5975
豻	-11.5976
楬	-11.5976
葑	-11.5976
棧	-11.5978
遒	-11.5978
炊	-11.5978
雊	-11.5978
撿	-11.5979
柢	-11.5979
陬	-11.5979
維持	-11.598
猨	-11.598
翩翩	-11.598
呻	-11.598
嵎	-11.598
斫	-11.5981
甘誓	-11.5981
王作主	-11.5982
蘿	-11.5982
梲	-11.5982
杯	-11.5982
藿	-11.5983
臠	-11.5983
遲遲	-11.5984
闚	-11.5984
廱	-11.5985
戒懼	-11.5985
黠	-11.5986
憬	-11.5986
典瑞	-11.5987
蝦	-11.5988
二十九篇	-11.5989
鼜	-11.5989
林直解	-11.5989
猒	-11.599
籲	-11.5993
困窮	-11.5994
召陵	-11.5994
鄔	-11.5996
爵禄	-11.5998
晨風	-11.5999
嘵	-11.6
璆	-11.6
上有故字	-11.6001
式氏反	-11.6003
知之矣	-11.6004
韻府古尚書文作	-11.6005
古豆反	-11.6009
於阮反	-11.6019
日南至	-11.602
子賜反	-11.6031
是兩箇	-11.607
舒亮	-11.6097
方于反	-11.6123
鎮星	-11.6335
濳虚	-11.6337
俑	-11.6353
知至至之	-11.6355
恁	-11.6366
各得其所	-11.6367
燄	-11.6367
爐	-11.6372
標準	-11.6375
王伯厚	-11.6375
聃	-11.6375
昻	-11.6376
煞	-11.6376
耻	-11.6376
滅滕	-11.6377
仔細	-11.6377
𫝊	-11.6378
七八九六	-11.6379
嵎夷	-11.6379
腯	-11.6384
犧尊	-11.6385
脡	-11.6385
倬	-11.6386
繋辭	-11.6386
錘	-11.6387
廖	-11.6388
蒼梧	-11.6388
錮	-11.6388
喈	-11.6389
下有者也二字足利本亦有者字	-11.639
勘	-11.639
流沙	-11.6391
鍛	-11.6392
辛夘	-11.6392
㪚	-11.6392
梯	-11.6393
餽	-11.6394
黿	-11.6394
菁菁者莪	-11.6395
緘	-11.6395
矦	-11.6396
人心道心	-11.6396
懆	-11.6397
傭	-11.6397
㬰	-11.6398
癸丑	-11.6398
椹	-11.6398
攝提	-11.6399
蘀	-11.6399
翠	-11.64
簨	-11.64
文侯之命	-11.64
原隰	-11.64
窬	-11.6401
鼉	-11.6401
傒	-11.6401
杕杜	-11.6402
雋	-11.6402
后蒼	-11.6402
徯	-11.6403
詩疏十九之	-11.6403
秸	-11.6403
蠡	-11.6403
尼父	-11.6404
虩	-11.6405
俔	-11.6405
觳	-11.6405
鶩	-11.6405
茸	-11.6405
擿	-11.6405
秭	-11.6406
踐奄	-11.6406
犢	-11.6406
隄	-11.6406
孫毓	-11.6406
鏞	-11.6406
膰	-11.6406
繄	-11.6408
􁄟	-11.6408
俛	-11.6408
郳	-11.6409
廕	-11.6409
紟	-11.6409
夾谷	-11.6409
罝	-11.641
咥	-11.641
逑	-11.6411
嫁娶	-11.6411
倭	-11.6411
綆	-11.6412
化而裁之	-11.6412
飧	-11.6412
獮	-11.6412
虆	-11.6413
諍	-11.6413
崐崘	-11.6413
訏	-11.6413
元嘉本	-11.6413
隗	-11.6413
驖	-11.6414
經典釋文卷第十	-11.6414
封禪	-11.6415
雛	-11.6415
廞	-11.6415
振振	-11.6416
麀	-11.6416
螽斯	-11.6418
罸	-11.6418
衰絰	-11.6418
椑	-11.6418
汰	-11.6419
廡	-11.6419
當在上序	-11.6419
榎	-11.642
浣	-11.6421
豵	-11.6421
煦	-11.6421
頷	-11.6422
侜	-11.6423
君臣之義	-11.6424
呦	-11.6424
新唐書五十	-11.6424
江淮	-11.6424
那裏	-11.6424
矍	-11.6424
桑扈	-11.6425
虣	-11.6427
苦回	-11.6427
頄	-11.6429
鬪	-11.643
梱	-11.6432
覓	-11.6432
韍	-11.6436
芈	-11.644
葘	-11.6445
奕奕	-11.6449
木鐸	-11.6449
朱校宋本禮記疏二十	-11.6459
去逆反	-11.646
側界	-11.6466
雝雝	-11.6474
音利又	-11.6479
周禮疏十	-11.6489
下有有字	-11.6492
千九百	-11.6754
紛紛	-11.6809
知終終之	-11.681
萬人傑録	-11.6816
鋒	-11.6821
鑽	-11.6824
扺	-11.6825
鬬	-11.6825
曺	-11.6827
補遺據元文	-11.6827
邈	-11.6827
㕘	-11.6829
乍	-11.683
放勲	-11.683
翺	-11.6831
邶	-11.6831
古㣲書卷	-11.6834
定之方中	-11.6834
甲胄	-11.6836
枵	-11.6836
羇	-11.6838
架	-11.6838
喟	-11.6839
峰	-11.684
廼	-11.684
漕	-11.6841
蟾	-11.6841
聨	-11.6842
誚	-11.6842
鳯凰	-11.6842
蜮	-11.6842
餗	-11.6842
成之者性	-11.6842
邯鄲	-11.6842
潛龍	-11.6843
螺	-11.6843
鸜鵒	-11.6844
戯	-11.6844
肓	-11.6844
囷	-11.6844
范甯	-11.6844
態	-11.6845
嗅	-11.6845
圛	-11.6846
女媧	-11.6846
譙周	-11.6846
躒	-11.6847
泭	-11.6847
檮杌	-11.6848
慈母	-11.6848
朏	-11.6848
壟	-11.6849
瓘	-11.6849
季孫行父	-11.6849
柘	-11.685
粒	-11.6851
昆吾	-11.6852
寥	-11.6853
嫂	-11.6853
禮記鄭氏註	-11.6854
譙	-11.6854
葆	-11.6854
牽强	-11.6854
嵩髙	-11.6854
禬	-11.6855
眠	-11.6855
吸	-11.6855
薇	-11.6855
洎	-11.6855
絢	-11.6855
緹	-11.6855
肉袒	-11.6855
奔䘮	-11.6856
考槃	-11.6857
梁武帝	-11.6858
賓客	-11.6858
挐	-11.6858
毛校吳文定	-11.6859
畤	-11.6859
會稽	-11.6859
衛宏	-11.686
詩疏七之	-11.686
酗	-11.686
牿	-11.686
課	-11.686
六三爻辭	-11.6861
服虔	-11.6861
芥	-11.6863
瞭	-11.6863
媛	-11.6864
澡	-11.6864
皇皇者華	-11.6864
惄	-11.6865
髻	-11.6865
肜	-11.6865
琫	-11.6865
渫	-11.6865
耼	-11.6866
苽	-11.6866
一作壹	-11.6867
幄	-11.6867
庀	-11.6868
淅	-11.6869
從盧本挍	-11.687
乙亥	-11.6871
迤	-11.6871
疐	-11.6871
凷	-11.6872
吳縣開國男陸德明撰	-11.6872
下有乎字	-11.6873
帀	-11.6873
緻	-11.6874
今從古	-11.6874
後學成德挍訂經典釋文卷第	-11.6874
當作兩音	-11.6875
曏	-11.6876
湊	-11.6876
瀼	-11.6877
漷	-11.6877
蟜	-11.6877
町	-11.6878
袴	-11.6878
纆	-11.6879
息暫反	-11.6879
蒨	-11.6879
周禮疏三十	-11.6882
傎	-11.6882
爇	-11.6882
譟	-11.6882
椽	-11.6885
擊鼓	-11.6885
普庚反	-11.6885
臲	-11.6886
衈	-11.6888
張慮反	-11.6891
鼫	-11.6895
闉	-11.6896
訿	-11.6899
下有耳字	-11.6909
通典五十	-11.6936
頻忍	-11.6945
㬊淵錄第十	-11.7063
伐奄	-11.7085
先王之制	-11.7127
校宋疏	-11.7186
泱	-11.7285
逰	-11.7286
澧	-11.7292
洋	-11.7293
後十五日斗指	-11.7294
為父後者	-11.7297
昉	-11.7299
吉凶悔吝	-11.7299
脈	-11.73
乾鑿度	-11.7301
慿	-11.7303
夕惕若厲	-11.7303
利牝馬之貞	-11.7303
陳文蔚録	-11.7304
聵	-11.7305
皋陶	-11.7305
奇耦	-11.7305
倘	-11.7309
院	-11.731
驚蟄	-11.731
叨	-11.7312
旱麓	-11.7312
邶鄘衛	-11.7312
鼓瑟	-11.7312
梟	-11.7313
宼	-11.7314
左丘明	-11.7314
韓康伯	-11.7314
廵狩	-11.7314
六經奥論	-11.7315
鯤	-11.7316
訣	-11.7316
行夏之時	-11.7317
搆	-11.7317
古經解鉤沉	-11.7317
蚓	-11.7318
唶	-11.7318
涌	-11.7318
桂	-11.7318
蒲坂	-11.7318
覘	-11.7319
竆	-11.7319
扄	-11.732
堲	-11.732
𥅆	-11.732
大學中庸	-11.7322
途	-11.7323
毛萇	-11.7324
璿璣	-11.7324
韓詩外傳	-11.7324
拖	-11.7325
穆天子傳	-11.7325
訃	-11.7325
适	-11.7326
薰	-11.7326
纒	-11.7326
㽔賓	-11.7327
徐廣曰	-11.7327
甄	-11.7327
崔杼	-11.7328
餈	-11.7329
通典一百	-11.7329
虎豹	-11.7329
貜	-11.733
萟文類聚	-11.733
罋	-11.733
慨	-11.7331
涘	-11.7331
線	-11.7331
菴	-11.7331
駈	-11.7332
蛙	-11.7332
麑	-11.7332
沐浴	-11.7332
甬	-11.7332
鋝	-11.7333
瓠葉	-11.7333
馮翊	-11.7333
擢	-11.7333
若作苦	-11.7334
街	-11.7334
邲	-11.7335
諠	-11.7336
廂	-11.7336
濰	-11.7337
燔柴	-11.7338
豁	-11.7338
浩浩	-11.7338
仲虺	-11.734
逍	-11.734
飪	-11.734
洧	-11.734
眄	-11.7341
耉	-11.7341
袵	-11.7341
洟	-11.7341
狸	-11.7341
樴	-11.7342
屬上句	-11.7342
經典釋文卷第二十	-11.7343
􁆐	-11.7343
鷩	-11.7343
屮	-11.7343
郇	-11.7343
蔣	-11.7343
蜻	-11.7344
椓	-11.7344
綢繆	-11.7344
澣	-11.7345
彝	-11.7345
唅	-11.7345
艷	-11.7346
嗃	-11.7346
癸酉	-11.7346
犉	-11.7346
瑣瑣	-11.7346
赳	-11.7346
絻	-11.7346
汔	-11.7347
褻	-11.7348
縵	-11.7349
肌	-11.7349
鏃	-11.735
橧	-11.735
猱	-11.7352
氾	-11.7353
襦	-11.7353
玕	-11.7354
腵	-11.7354
顔師古	-11.7354
蹌蹌	-11.7356
蚣	-11.7358
涗	-11.7359
粢盛	-11.736
蒼蒼	-11.7361
暵	-11.7361
柚	-11.7362
弃戰	-11.7363
韔	-11.7365
喚做	-11.7367
潝	-11.7367
錞	-11.7367
溼	-11.7368
湜	-11.737
噲	-11.7374
溱	-11.7378
麌	-11.7383
書疏十	-11.7536
文選注二十	-11.7577
以意求之	-11.7668
舊唐書	-11.7687
黄鍾之宮	-11.7759
十五葉右六行	-11.7786
汲冢	-11.7788
村	-11.7792
季康子	-11.7797
諄諄	-11.7797
碣	-11.7798
礪	-11.7799
怕	-11.7799
陳淳録	-11.7803
蒯聵	-11.7804
麒麟	-11.7805
歲池録	-11.7805
秬鬯	-11.7805
蟈	-11.7806
坡	-11.7806
瀾	-11.7806
三千六百	-11.7807
鴛鴦	-11.781
梁惠王	-11.781
菉	-11.781
一以貫之	-11.781
日作曰誤	-11.781
戠	-11.7813
忮	-11.7815
芄	-11.7816
毀	-11.7816
㠯	-11.7817
貼	-11.7817
夏小正	-11.7818
戡黎	-11.7819
下有也字下註	-11.782
穩	-11.782
嶺	-11.7821
楮	-11.7821
視聽言動	-11.7821
蛟	-11.7822
皇侃	-11.7823
娛	-11.7823
淨	-11.7823
巍巍	-11.7824
蹌	-11.7824
微子之命	-11.7824
畮	-11.7825
楛	-11.7825
譯	-11.7825
漢文帝	-11.7825
莢	-11.7825
產	-11.7825
狼跋	-11.7827
湼	-11.7827
袷	-11.7827
啄	-11.7827
鄀	-11.7827
瞷	-11.7827
閫	-11.7828
禓	-11.7828
骸	-11.7828
劇	-11.7828
螟蛉	-11.7829
孥	-11.783
澨	-11.7831
央央	-11.7831
羡	-11.7831
膋	-11.7832
稗	-11.7832
諛	-11.7832
抶	-11.7833
諮	-11.7833
旜	-11.7833
覜	-11.7833
侗	-11.7834
饜	-11.7835
笱	-11.7835
邃	-11.7836
注誤字	-11.7837
翹翹	-11.7837
闓	-11.7837
襜	-11.7837
䟦	-11.7837
蛄	-11.7837
裯	-11.7837
篳	-11.7838
餱	-11.7839
跨	-11.7839
野有蔓草	-11.784
鸇	-11.784
簭	-11.784
銍	-11.784
上當脱	-11.784
僊	-11.784
作巳誤	-11.7841
孜孜	-11.7841
鈇	-11.7841
紵	-11.7841
塡	-11.7841
十有三年	-11.7842
埤雅	-11.7842
疆埸	-11.7843
朼	-11.7844
丙午	-11.7844
通鑑音注	-11.7845
喓	-11.7845
腴	-11.7845
呵	-11.7845
特牲饋食禮	-11.7846
穟	-11.7846
饘	-11.7846
騑	-11.7846
刲	-11.7846
諏	-11.7847
疏王曰至	-11.7847
攣	-11.7848
鎋	-11.7848
象曰君子以	-11.7848
儗	-11.7849
鄟	-11.7849
婼	-11.785
鈃	-11.785
搔	-11.7851
夤	-11.7851
箱	-11.7851
饁	-11.7851
七喻反	-11.7852
忡	-11.7853
菼	-11.7853
許庚反	-11.7855
玆	-11.7855
匹妙	-11.7856
坻	-11.7856
膞	-11.7856
蚌	-11.7856
墐	-11.7857
愒	-11.7858
蠋	-11.7858
枳	-11.7859
丁劣反	-11.786
閒廁	-11.786
稹	-11.7861
案朱子云	-11.7861
芳劒	-11.7861
漚	-11.7863
糟	-11.7863
瑜	-11.7864
迆	-11.7865
蒲北反	-11.7872
坂	-11.7875
先鄭云當為	-11.788
史記注一	-11.7979
七經孟子考文補遺卷一百五十	-11.7982
並史記注四十	-11.8035
下有曰字	-11.8094
萬四千	-11.8219
林學蒙錄	-11.8223
註疏諸本	-11.8247
下有者字足利本同	-11.8288
為人後者	-11.8309
忠信所以進徳	-11.8309
分當至不至	-11.831
淇澳	-11.8311
西王母	-11.8319
槍	-11.832
荀卿子	-11.8324
婚姻	-11.8326
這裡	-11.8327
冺	-11.8327
參同契	-11.8327
髠頑	-11.8327
㤀	-11.8328
另	-11.8331
两	-11.8331
娵訾	-11.8331
簴	-11.8331
倉頡	-11.8332
蝃蝀	-11.8332
胳	-11.8332
鶉尾	-11.8333
薑	-11.8334
怎	-11.8334
利建侯	-11.8335
孟獻子	-11.8336
湏	-11.8336
無過不及	-11.8336
㓂	-11.8338
吉㐫	-11.8339
襃貶	-11.8339
敲	-11.8341
易有太極	-11.8341
律歴志	-11.8341
拓	-11.8342
捲	-11.8343
泊	-11.8344
吕燾録	-11.8344
獺	-11.8345
勵	-11.8346
大衍之數五十	-11.8346
姣	-11.8346
隐	-11.8347
齊桓晉文	-11.8348
綢	-11.8348
奎婁	-11.8348
困學紀聞	-11.8349
孌	-11.8349
天尊地卑	-11.8349
其難其慎	-11.835
竺	-11.8351
詩書禮樂	-11.8351
撲	-11.8352
軨	-11.8352
煢	-11.8352
罶	-11.8354
纉	-11.8354
鬴	-11.8355
鮀	-11.8355
躔	-11.8355
日本山井鼎物觀撰毛詩註疏第	-11.8355
敬以直内義以方外	-11.8355
灋	-11.8356
整頓	-11.8356
匡謬正俗	-11.8356
㬊淵錄第九章	-11.8356
天一地二	-11.8356
襟	-11.8357
嬛	-11.8357
紡	-11.8357
霓	-11.8357
蔡仲之命	-11.8357
季武子	-11.8358
鍳	-11.8358
寕	-11.8358
押	-11.8358
汲郡	-11.8359
控	-11.8359
掎	-11.8359
輖	-11.8359
兔罝	-11.836
疈	-11.836
鐏	-11.836
扉	-11.836
豝	-11.8361
隍	-11.8361
杕	-11.8361
匯	-11.8361
糴	-11.8362
籧篨	-11.8362
甾	-11.8362
觱	-11.8363
噍	-11.8363
貔	-11.8363
餅	-11.8364
笫	-11.8364
棜	-11.8364
歠	-11.8364
叱	-11.8367
抉	-11.8367
輂	-11.8368
蜾	-11.8368
儁	-11.8368
蚍蜉	-11.8369
蠖	-11.8369
异	-11.8369
伴	-11.837
湫	-11.837
伉	-11.8371
蜋	-11.8371
􁈩	-11.8371
睇	-11.8372
屛	-11.8372
翫	-11.8373
幠	-11.8373
銚	-11.8373
犫	-11.8374
惔	-11.8374
抒	-11.8375
琳	-11.8376
癉	-11.8376
陸璣	-11.8376
韣	-11.8377
斑	-11.8377
馵	-11.8377
暭	-11.8377
篠	-11.8378
僵	-11.8378
叫	-11.8378
鮐	-11.8378
鎗	-11.838
繰	-11.838
螘	-11.838
秫	-11.838
粻	-11.838
憒	-11.8383
褒姒	-11.8384
星散為	-11.8384
僉	-11.8385
詩疏十七之	-11.8385
骼	-11.8385
晩	-11.8385
十畝	-11.8386
楸	-11.8388
罽	-11.839
盻	-11.8392
埤蒼	-11.8393
霣	-11.8394
紲	-11.8396
吕忱	-11.8396
愔	-11.8397
昌氏反又	-11.8399
鞙	-11.84
喈喈	-11.8407
提提	-11.8408
於妙反	-11.8411
儦	-11.8416
毛詩註疏第十	-11.8477
補本足利本同	-11.8714
宋本疏二十	-11.8827
未當至而至多病	-11.8866
邶鄘	-11.8867
濛	-11.8872
規模	-11.8873
庳	-11.8873
形而下者	-11.8875
十三經義疑	-11.8877
襍	-11.8879
厨	-11.888
星神姓	-11.8881
虜	-11.8882
燉煌	-11.8882
衫	-11.8882
凢	-11.8883
貣	-11.8883
㮣	-11.8885
礱	-11.8885
偹	-11.8888
参	-11.8889
絅	-11.889
犁	-11.8891
駝	-11.8892
以此洗心	-11.8893
朢	-11.8894
御史大夫	-11.8896
丙戌	-11.8896
范寗	-11.8897
公羊疏二十	-11.8897
伯夷叔齊	-11.8897
哂	-11.8897
𦙍征	-11.8897
圄	-11.8898
瑚	-11.8898
萌芽	-11.89
昏姻	-11.89
自上而下	-11.89
尖	-11.89
噩	-11.8901
塲	-11.8901
紊	-11.8901
僩	-11.8901
兠	-11.8903
日有食之	-11.8903
絜矩之道	-11.8904
嚳	-11.8904
煥	-11.8904
佔	-11.8905
咷	-11.8906
㐫	-11.8907
畦	-11.8907
㲈	-11.8908
蟠	-11.8908
怍	-11.8909
甓	-11.891
洳	-11.891
鎬京	-11.891
貓	-11.8911
墊	-11.8911
儻	-11.8911
儌	-11.8911
堙	-11.8913
偝	-11.8913
畱	-11.8913
濤	-11.8914
酆	-11.8914
駁五經異義	-11.8914
咤	-11.8915
侔	-11.8915
皦	-11.8916
瘧	-11.8917
蕰	-11.8917
呌	-11.8918
欿	-11.8918
膊	-11.8918
皿	-11.8918
螣	-11.892
字不知據何本也	-11.892
郰	-11.892
邂	-11.892
諄	-11.8921
輶	-11.8921
筠	-11.8922
下有焉字	-11.8922
逅	-11.8922
輊	-11.8922
券	-11.8922
滸	-11.8923
蓱	-11.8923
滎作熒	-11.8923
鋸	-11.8924
日本山井鼎物觀撰春秋左傳注疏第	-11.8924
蠧	-11.8924
机	-11.8924
爟	-11.8925
薈	-11.8925
儳	-11.8925
聦	-11.8926
刷	-11.8926
蠙	-11.8927
牼	-11.8927
拏	-11.8927
蘂	-11.8927
猗嗟	-11.8928
嚼	-11.8928
鼷	-11.8929
釀	-11.8929
疲	-11.8929
丏	-11.8931
跲	-11.8931
蹻蹻	-11.8931
岵	-11.8932
詩疏六之	-11.8932
繐	-11.8934
葅	-11.8934
䊷	-11.8935
絆	-11.8936
字疑誤倒	-11.8936
鸒	-11.8938
昄	-11.8938
璠	-11.8938
觩	-11.8939
簜	-11.8939
櫕	-11.894
峩	-11.8942
㳂	-11.8942
蓏	-11.8943
古賀反	-11.8945
戟	-11.8945
卼	-11.8946
慇	-11.8947
蛸	-11.8948
薊	-11.895
初冝反	-11.8952
禕	-11.8952
茭	-11.8954
初洽反	-11.8954
振鷺	-11.8956
冽	-11.897
秩秩	-11.8974
初學記十	-11.898
許兩反	-11.9004
史記注六十	-11.9228
萱	-11.9453
真箇是	-11.9461
塨	-11.9462
叔梁紇	-11.9471
諷誦	-11.9473
焱	-11.9473
剰	-11.9474
咫	-11.9475
饒後録	-11.9477
床	-11.9477
渇	-11.9478
嘷	-11.9478
槱	-11.9478
斨	-11.948
斵	-11.9481
纘	-11.9481
查	-11.9481
祏	-11.9481
滄	-11.9482
璉	-11.9483
僥	-11.9483
㢘	-11.9484
旞	-11.9484
䜛	-11.9484
春夏秋冬	-11.9484
綫	-11.9486
蹤	-11.9486
浙	-11.9486
答張逸云	-11.9486
黄榦錄第	-11.9487
昇	-11.9488
㤗誓	-11.9488
妾祖姑	-11.9488
士昬禮	-11.9489
峙	-11.949
匍匐	-11.949
輔廣録	-11.949
縲	-11.9491
嶲	-11.9492
壚	-11.9492
陸德明	-11.9493
洊	-11.9493
熄	-11.9493
繼之者善	-11.9494
哉生明	-11.9494
泓	-11.9494
碏	-11.9494
崧	-11.9494
五經總義類	-11.9495
食貨志	-11.9495
蜼	-11.9495
柞棫	-11.9496
遨	-11.9496
檐	-11.9496
辟作避	-11.9496
堩	-11.9497
僇	-11.9497
煎	-11.9497
韵	-11.9497
馗	-11.9497
册	-11.9497
罩	-11.9498
􁀈	-11.9498
禇	-11.9498
存舊毛詩卷第	-11.9498
棫	-11.9498
經傳通解	-11.9499
昏作婚	-11.9499
綪	-11.95
肈	-11.95
輾	-11.95
鄗	-11.95
稜	-11.95
緧	-11.95
娀	-11.95
儕	-11.95
酖	-11.95
栩	-11.95
􁁯	-11.9501
鵒	-11.9501
痤	-11.9501
虔	-11.9501
霰	-11.9501
趙簡子	-11.9501
矣矣作也	-11.9502
濆	-11.9502
悵	-11.9502
晰	-11.9503
歜	-11.9503
艶	-11.9503
翹	-11.9503
娵	-11.9503
魏文侯	-11.9505
穜	-11.9505
鼃	-11.9506
籌	-11.9506
烕	-11.9506
骭	-11.9506
愎	-11.9506
狊	-11.9506
筏	-11.9506
脢	-11.9507
嫚	-11.9507
耑	-11.9507
稔	-11.9507
廖德明錄	-11.9507
匏有苦葉	-11.9508
遫	-11.9508
鄩	-11.9508
荇	-11.9509
絪緼	-11.9509
沇	-11.9509
蓷	-11.951
倖	-11.951
櫓	-11.951
炰	-11.951
瘦	-11.9511
洹	-11.9511
禚	-11.9512
璅	-11.9513
楔	-11.9513
珌	-11.9513
鴽	-11.9514
瑁	-11.9514
椇	-11.9515
玦	-11.9515
詩疏五之	-11.9515
湄	-11.9516
薑桂	-11.9516
疢	-11.9517
䳺	-11.9517
脃	-11.9517
鑪	-11.9518
迋	-11.9519
􁈈	-11.9519
翿	-11.9519
栘	-11.9519
司几筵	-11.952
枹	-11.952
蛛	-11.952
悊	-11.952
咈	-11.952
蜉	-11.9521
黥	-11.9521
皡	-11.9521
埆	-11.9522
彀	-11.9522
企	-11.9523
簸	-11.9523
芰	-11.9523
貈	-11.9523
輤	-11.9524
蝑	-11.9524
匊	-11.9524
俱縛反	-11.9524
褕	-11.9525
瞢	-11.9525
龡	-11.9525
箾	-11.9526
匜	-11.9527
涅	-11.9527
字當誤倒	-11.9527
薍	-11.9527
蚡	-11.9527
直留反	-11.9528
葍	-11.9528
蠐	-11.9529
蝮	-11.9529
娩	-11.953
媺	-11.9531
鑊	-11.9533
氂	-11.9533
􁈭	-11.9534
睫	-11.9535
燾	-11.9538
槖	-11.9539
葷	-11.954
佌	-11.9541
樕	-11.9541
尺遂反	-11.9542
閷	-11.9542
下疑脫	-11.9545
慱	-11.955
百九十二	-11.9551
睘	-11.9569
七經孟子考文補遺卷一百三十	-11.9837
下有公字	-11.9844
萬九千	-11.9869
進徳修業	-12.006
翰林院檢討毛竒齡撰	-12.0069
林學䝉錄第	-12.0083
修辭立其誠	-12.0083
脀	-12.0084
冪	-12.0085
憫	-12.0085
事事物物	-12.0086
擴	-12.0089
紬	-12.0089
吳必大録	-12.0092
畞	-12.0095
吕不韋	-12.0096
答趙商云	-12.0097
聼	-12.0098
維天之命	-12.01
穨	-12.0101
凑	-12.0101
佾	-12.0102
塘	-12.0102
閨	-12.0102
黯	-12.0104
慚	-12.0104
潢	-12.0106
芑	-12.0106
列女傳	-12.0106
諷詠	-12.0106
讖	-12.0107
挨	-12.0107
栖	-12.0108
瘡	-12.0109
遯于荒野	-12.0109
耰	-12.0109
銕	-12.011
日本山井鼎物觀撰	-12.011
止於至善	-12.0111
爕	-12.0112
裝	-12.0112
五經蠡測	-12.0112
勛	-12.0112
文蔚曰	-12.0113
行其庭不見其人	-12.0113
九經古義卷	-12.0113
湣	-12.0114
欽定四庫全書九經古義卷	-12.0114
逕	-12.0114
矰	-12.0115
文王有聲	-12.0115
幻	-12.0116
璇	-12.0116
詎	-12.0116
縚	-12.0117
君子偕老	-12.0117
個	-12.0117
濃	-12.0118
譔	-12.0118
貆	-12.0118
利涉大川	-12.0119
颺	-12.0119
霖	-12.012
字可刪	-12.012
秠	-12.012
詖	-12.0121
湮	-12.0122
餫	-12.0122
萋	-12.0122
誤興國本作	-12.0122
凛	-12.0123
屐	-12.0123
左右惟其人	-12.0123
不知據何本	-12.0124
絕	-12.0124
滓	-12.0124
懟	-12.0125
袞	-12.0125
䖝	-12.0125
盼	-12.0125
它云貎是	-12.0126
銓	-12.0126
蹯	-12.0126
躓	-12.0128
駜	-12.0128
暋	-12.0128
胞	-12.0129
二王之後	-12.0129
哥	-12.0129
豋	-12.013
下共有也字下註	-12.013
塋	-12.013
毓	-12.013
出其東門	-12.0131
毆	-12.0132
鱮	-12.0132
詩疏九之	-12.0132
􁊾	-12.0133
瓛	-12.0133
南齊書	-12.0133
欽定四庫全書十三經注疏正字卷	-12.0133
擣	-12.0134
鞗	-12.0134
稌	-12.0134
螳	-12.0135
戞	-12.0135
妘	-12.0135
賡	-12.0135
輜	-12.0136
晞	-12.0136
腶	-12.0136
銎	-12.0137
吪	-12.0137
觕	-12.0137
繚	-12.0137
璊	-12.0138
膏盲	-12.0138
旴	-12.0138
孶	-12.0139
泌	-12.0139
賁于丘園	-12.0139
儔	-12.0139
蔿	-12.014
陝	-12.014
蠭	-12.0141
纛	-12.0141
蕘	-12.0141
卝	-12.0141
敝笱	-12.0141
栲	-12.0142
逷	-12.0142
鼐	-12.0142
嫠	-12.0142
防有鵲巢	-12.0143
肵	-12.0143
挂	-12.0144
枿	-12.0144
騅	-12.0144
溉	-12.0144
絏	-12.0145
飴	-12.0145
朿	-12.0146
蕨	-12.0147
勗	-12.0147
犴	-12.0147
怖	-12.0147
綖	-12.0147
拚	-12.0147
戰戰兢兢	-12.0147
■	-12.0148
髺	-12.0149
娠	-12.015
闍	-12.015
蹜	-12.0151
譍	-12.0151
杝	-12.0151
款	-12.0151
頟	-12.0152
嚬	-12.0152
騑騑	-12.0153
嶧	-12.0153
椒聊	-12.0154
愾	-12.0154
宁	-12.0155
滔滔	-12.0155
滂	-12.0156
刉	-12.0157
熯	-12.0157
曀	-12.0157
蒲末反	-12.0158
蝎	-12.0159
菏	-12.0159
聾	-12.016
駔	-12.016
瞿瞿	-12.0162
葚	-12.0162
羝	-12.0162
萏	-12.0162
蠨	-12.0167
寰	-12.0169
稂	-12.0169
懫	-12.017
甿	-12.0174
蜴	-12.0174
謷	-12.018
校宋疏四十	-12.0307
棣棣	-12.0319
澒	-12.0676
一隂一陽之謂道	-12.071
啣	-12.0727
通志堂本	-12.0733
埃	-12.0742
竪	-12.0744
孔叢子	-12.0748
韲	-12.0748
瀍	-12.0751
皋	-12.0751
秦始皇	-12.0751
序卦雜卦	-12.0756
乾文言第五節	-12.0756
术	-12.0757
侃侃	-12.0762
鍪	-12.0763
娥	-12.0764
苡	-12.0765
黄裳元吉	-12.0766
日刺是謂	-12.0767
蹟	-12.0767
蔀七十六嵗	-12.0768
軻	-12.0768
罅	-12.0769
槨	-12.077
嵗饒録	-12.077
隸	-12.0772
變風始作	-12.0772
薿	-12.0773
不可為典要	-12.0774
糈	-12.0774
閔子騫	-12.0774
西狩獲麟	-12.0774
謐	-12.0774
克己復禮	-12.0775
何校官本	-12.0775
入公門	-12.0779
琥	-12.0779
鍚	-12.0779
南有嘉魚	-12.0779
匰	-12.078
無忌憚	-12.0781
鄭無駁	-12.0781
冏	-12.0781
錢塘程川撰書	-12.0782
曰若稽古	-12.0782
攀	-12.0782
敇	-12.0782
旰	-12.0782
仗	-12.0783
廻	-12.0783
之什詁訓傳第二十	-12.0783
凡厥庶民	-12.0783
洄	-12.0783
嗌	-12.0784
臏	-12.0784
軼	-12.0784
洙	-12.0785
批	-12.0785
琬	-12.0785
五經縂義類	-12.0786
祟	-12.0786
禮記卷第	-12.0786
鷦	-12.0787
眀	-12.0787
泂酌	-12.0788
翌	-12.0788
赧	-12.0789
畟	-12.0789
檮	-12.0789
筦	-12.0789
粤	-12.0789
逄	-12.079
桔	-12.079
戒謹恐懼	-12.079
杇	-12.0791
糸	-12.0791
扣	-12.0791
詈	-12.0792
躅	-12.0792
䋲	-12.0793
湨	-12.0793
鑚	-12.0793
盩	-12.0794
菱	-12.0794
嶷	-12.0794
鷃	-12.0794
晡	-12.0795
莆	-12.0795
禂	-12.0796
也二本也上有者字	-12.0796
三老五更	-12.0796
菌	-12.0796
睨	-12.0796
􁇲	-12.0796
路史後紀注	-12.0797
㪺	-12.0797
擠	-12.0797
罭	-12.0797
冔	-12.0798
氄	-12.0798
傃	-12.0798
蕳	-12.0798
塤	-12.0798
鼒	-12.0798
懥	-12.0798
憔	-12.0799
椐	-12.08
煌	-12.08
咮	-12.08
鼬	-12.08
毨	-12.08
媟	-12.08
璞	-12.08
齊民要術	-12.0802
鍇	-12.0804
􁇎	-12.0804
攴	-12.0804
朩	-12.0804
鄑	-12.0805
媧	-12.0805
轝	-12.0805
詩疏二十之	-12.0805
倞	-12.0806
圯	-12.0806
蝥	-12.0807
㦧	-12.0807
蹋	-12.0807
鷂	-12.0808
摰	-12.0808
縈	-12.0808
嵇	-12.0808
熇	-12.0808
杻	-12.0809
尫	-12.0809
藟	-12.081
溲	-12.081
袽	-12.081
璪	-12.0811
縉	-12.0811
檍	-12.0811
綅	-12.0811
蒩	-12.0812
迕	-12.0812
偈	-12.0812
義以方外	-12.0813
寝	-12.0813
古鄧反	-12.0814
俅	-12.0814
猩	-12.0816
鬵	-12.0817
朾	-12.0817
􁆡	-12.0817
牷	-12.0817
憙	-12.0818
蝝	-12.0818
鄼	-12.0818
蜙	-12.0818
汏	-12.0819
瘉	-12.0819
惴惴	-12.0819
輲	-12.082
慘慘	-12.082
駸	-12.0822
駪	-12.0822
瑲	-12.0822
簚	-12.0822
楗	-12.0823
嘽嘽	-12.0823
浼	-12.0824
縟	-12.0826
耡	-12.083
瘣	-12.0831
皙	-12.0833
竫	-12.0834
薁	-12.0834
熲	-12.0835
刌	-12.0837
彼驗反	-12.084
薜	-12.0842
鼖	-12.0844
石經監本同	-12.0847
㓨	-12.0852
土之次曰五	-12.1441
奈	-12.1443
仂	-12.1449
瞳	-12.1456
阡	-12.146
開物成務	-12.1462
曶	-12.1468
膮	-12.1471
掾	-12.1472
踰繕那	-12.1474
辵	-12.1475
靠	-12.1475
苔	-12.1476
純亦不已	-12.1476
映	-12.1477
施孟梁丘	-12.1478
傳冩之誤	-12.1478
泝	-12.1478
援神契	-12.1479
亓	-12.1482
西南得朋	-12.1483
四如講稿	-12.1484
喪服變除	-12.1484
子丑寅	-12.1484
利有攸徃	-12.1485
治國平天下	-12.1486
言乃讙	-12.1486
鄭可學錄	-12.1487
氣盛則夢	-12.1487
惓	-12.1488
璿	-12.1489
疽	-12.149
􁔔	-12.149
筲	-12.149
鱐	-12.1491
裸	-12.1491
齡	-12.1492
龔	-12.1493
鵬	-12.1494
枘	-12.1494
覔	-12.1494
罵	-12.1494
下有耳也二字	-12.1495
龎	-12.1495
戛	-12.1496
象以典刑	-12.1496
詆	-12.1497
蘧伯玉	-12.1497
冊府元龜	-12.1497
毛詩國風鄭氏箋	-12.1497
枌	-12.1498
有條理	-12.1498
漸漸之石	-12.1498
猴	-12.1498
博物志	-12.1498
冓	-12.1499
鳸	-12.1499
群	-12.1499
匈	-12.1499
富以其鄰	-12.1499
嘿	-12.15
愴	-12.15
寖	-12.15
攬	-12.15
慣	-12.15
興國軍本	-12.15
鄹	-12.1502
君子陽陽	-12.1502
穽	-12.1502
皇甫謐	-12.1502
宀	-12.1503
哆	-12.1503
呴	-12.1503
渰	-12.1503
虖	-12.1503
考異宋板註	-12.1504
苾	-12.1504
疥	-12.1504
㽔	-12.1505
春秋公羊說	-12.1505
聖人有以見天下之賾	-12.1505
未敢誚公	-12.1505
匣	-12.1505
瘵	-12.1505
生成之數	-12.1505
抍	-12.1506
焉焉作也	-12.1506
唾	-12.1506
琇	-12.1506
汲古閣	-12.1506
柅	-12.1506
厝	-12.1506
擗	-12.1506
閶	-12.1506
日本山井鼎物觀撰禮記注疏第	-12.1506
檝	-12.1507
畇	-12.1507
有女同車	-12.1507
尚書註疏卷第	-12.1507
赭	-12.1508
購	-12.1508
魅	-12.1508
擭	-12.151
牴牾	-12.151
逈	-12.151
揀	-12.1511
詡	-12.1511
畚	-12.1511
我行其野	-12.1511
郚	-12.1511
郝	-12.1512
鷊	-12.1512
司烜氏	-12.1512
驁	-12.1512
跖	-12.1513
痒	-12.1513
蓲	-12.1514
襮	-12.1514
獳	-12.1515
籬	-12.1515
鏜	-12.1515
匐	-12.1516
祡	-12.1516
詩疏十之	-12.1516
䲭鴞	-12.1516
高麗本集解	-12.1516
韐	-12.1516
捋	-12.1516
煽	-12.1517
跬	-12.1517
噎	-12.1517
猲	-12.1518
菣	-12.1518
訩	-12.1518
檟	-12.1519
撝	-12.1519
壼	-12.1519
鴻漸于	-12.152
盆	-12.1521
网	-12.1521
岑	-12.1521
衙	-12.1521
馹	-12.1522
壝	-12.1522
匍	-12.1522
嘔	-12.1522
履虎尾	-12.1523
擲	-12.1523
橛	-12.1524
訢	-12.1524
瞀	-12.1526
直遙反	-12.1527
朄	-12.1528
鶂	-12.1528
襗	-12.1529
衺	-12.1529
棃	-12.1529
稑	-12.1529
俴	-12.1531
漱	-12.1531
紃	-12.1532
歧	-12.1532
嫗	-12.1532
詩疏十五之	-12.1532
穅	-12.1533
甃	-12.1535
章章六句	-12.1535
獶	-12.1537
蓑	-12.1537
􁈛	-12.1537
厮	-12.1537
杲	-12.1538
偲	-12.154
蜥	-12.154
鮎	-12.1541
杶	-12.1542
蟇	-12.1542
通志六十	-12.1544
楙	-12.1545
眣	-12.1545
爍	-12.1546
僤	-12.1547
旊	-12.1547
惙	-12.1548
罦	-12.155
塴	-12.1551
骹	-12.1552
喤喤	-12.1564
璲	-12.1573
可以意求	-12.1804
鷺	-12.22
棓	-12.2229
可與存義	-12.223
潔淨精微	-12.2233
何彼穠矣	-12.2235
鷟	-12.2236
八能之士	-12.2237
痺	-12.2239
潄	-12.224
徔	-12.224
惺	-12.224
參差不齊	-12.2242
㲄	-12.2243
鉄	-12.2243
莩	-12.2243
兩儀生四象	-12.2244
森	-12.2245
欽明文思	-12.2247
縂	-12.2248
右第二十	-12.225
膷	-12.2252
籙	-12.2252
春王三月	-12.2253
癡	-12.2253
通天下之志	-12.2253
剩	-12.2254
逓	-12.2254
敞	-12.2254
陳淳錄	-12.2254
弈	-12.2255
聯	-12.2255
畸	-12.2255
即鹿无虞	-12.2256
未詳孰是	-12.2256
丌	-12.2257
錐	-12.2258
兢	-12.2258
撎	-12.2259
寂然不動	-12.2259
籔	-12.2259
劾	-12.2259
黄榦録	-12.2259
狷	-12.226
幝	-12.226
刵	-12.2261
湧	-12.2261
譛	-12.2262
林少頴	-12.2262
利渉大川	-12.2262
用九用六	-12.2263
古經解鈎沉卷	-12.2263
考靈曜	-12.2263
詫	-12.2264
憶	-12.2264
㰱	-12.2264
攵	-12.2264
㸑	-12.2264
韙	-12.2264
軟	-12.2264
韞	-12.2265
聳	-12.2266
徭	-12.2266
嚏	-12.2266
公冶長	-12.2266
阝	-12.2267
檿	-12.2267
訐	-12.2268
殞	-12.2268
金木水火	-12.2269
罇	-12.2269
揚子雲	-12.227
疋	-12.227
篇内皆同	-12.227
拕	-12.2271
瑰	-12.2272
秪	-12.2272
䢴	-12.2272
斮	-12.2272
島	-12.2273
睂	-12.2273
檇	-12.2273
眸	-12.2273
渤	-12.2273
顧炎武	-12.2274
散騎常侍	-12.2274
覧	-12.2274
漉	-12.2275
惚	-12.2275
考異宋板經	-12.2275
㝷	-12.2275
鬰	-12.2275
闥	-12.2275
文獻通考	-12.2275
賔之初筵	-12.2276
諗	-12.2276
鞂	-12.2276
杳	-12.2276
髙宗肜日	-12.2277
睠	-12.2277
未知孰是	-12.2277
鉛	-12.2277
螭	-12.2277
擖	-12.2277
並御覽百四十	-12.2277
諐	-12.2277
陀	-12.2278
饕	-12.2278
虬	-12.2278
襯	-12.2278
悽	-12.2278
欬	-12.2279
捍	-12.2279
孔頴逹	-12.2279
邕	-12.2279
雚	-12.2279
笲	-12.228
蜘	-12.228
枷	-12.228
耏	-12.2281
冗	-12.2281
㤗	-12.2281
十三經注疏正字卷	-12.2281
姿	-12.2282
墍	-12.2282
靚	-12.2282
陴	-12.2282
褓	-12.2282
嬙	-12.2282
跌	-12.2283
窖	-12.2283
啜	-12.2284
貃	-12.2285
砠	-12.2285
彧	-12.2286
僾	-12.2287
鵞	-12.2288
販	-12.2289
齕	-12.2289
芭	-12.2289
輮	-12.2289
鯢	-12.2289
張皇六師	-12.2289
繶	-12.229
章八句	-12.229
藋	-12.229
屎	-12.2291
鵰	-12.2291
菶	-12.2292
􁂄	-12.2292
萁	-12.2293
嚭	-12.2293
顧野王	-12.2293
喆	-12.2293
覸	-12.2293
鼛	-12.2294
􁉸	-12.2294
殈	-12.2296
萎	-12.2296
刁	-12.2296
絿	-12.2296
監閩本	-12.2297
珩	-12.2297
鬌	-12.2297
謹按惟萬厯與崇禎本同	-12.2298
隋書十	-12.2298
綵	-12.2299
琛	-12.2299
綯	-12.2299
腒	-12.23
慥	-12.23
茵	-12.23
埒	-12.2301
楘	-12.2301
鐃	-12.2302
巵	-12.2302
煕	-12.2302
槄	-12.2302
芣	-12.2303
駓	-12.2303
坰	-12.2304
靦	-12.2305
蔌	-12.2306
嬀	-12.2307
閡	-12.2308
唪	-12.2308
傀	-12.2309
耊	-12.2309
僰	-12.231
鯊	-12.231
幪	-12.2313
騉	-12.2314
頯	-12.2314
􁊃	-12.2315
蔥	-12.2316
士䘮禮	-12.2317
覈	-12.2317
篹	-12.2318
嚨	-12.2319
笭	-12.232
忉忉	-12.2321
懮	-12.2324
厞	-12.2324
正字通云	-12.2329
窴	-12.2331
惸	-12.2332
旭	-12.2336
噦噦	-12.2337
譆	-12.234
韈	-12.3022
樂天知命	-12.3037
姑姊妹女子子	-12.3044
四千五百六十	-12.3061
中士下士	-12.3062
歲饒録	-12.3066
㝢	-12.3069
涵詠自	-12.3072
為四向所	-12.3072
府史胥徒	-12.3073
霏	-12.3075
卷饒録四十六	-12.3075
艮其止止其所	-12.3075
周謨録	-12.3078
欽定四庫全書十三經義疑卷	-12.308
元者善之長	-12.3081
治厯明時	-12.3083
四象生八卦	-12.3083
穏	-12.3084
丘中有麻	-12.3084
古今人表	-12.3085
先迷後得	-12.3086
不耕穫不菑畬	-12.3086
蠯	-12.3087
鄭可學録	-12.3088
脇	-12.3088
葬我小君	-12.3088
軰	-12.3089
鄋	-12.309
拄	-12.309
醒	-12.309
汧	-12.3091
庵	-12.3091
甘節録	-12.3091
峯	-12.3091
悱	-12.3091
刎	-12.3092
讄	-12.3093
漯	-12.3094
一箇表儀	-12.3094
臐	-12.3094
豊	-12.3094
秊	-12.3094
滴	-12.3095
剏	-12.3095
劉礪錄	-12.3095
摠	-12.3095
窔	-12.3095
髣	-12.3095
瘝	-12.3096
分度之一	-12.3097
哺	-12.3097
斚	-12.3098
野有死麕	-12.3098
溜	-12.3099
銑	-12.3099
無偏無黨	-12.3099
七日來復	-12.3099
噂	-12.31
葺	-12.31
躩	-12.31
聰明睿知	-12.3102
邀	-12.3103
周易註疏卷第	-12.3103
間空一字	-12.3103
絛	-12.3104
霑	-12.3104
摟	-12.3105
䋫	-12.3105
也三本也上有者字	-12.3106
剿	-12.3106
聆	-12.3107
譊	-12.3107
反扶當作蒲	-12.3107
晧	-12.3107
磷	-12.3107
抭	-12.3107
鐓	-12.3108
霽	-12.3108
溟	-12.3108
么	-12.3108
夹	-12.3108
遶	-12.3109
缾	-12.3109
洸	-12.3109
痔	-12.3109
拉	-12.3109
下有矣也二字	-12.3109
冇	-12.311
嚶嚶	-12.311
佯	-12.3111
捐	-12.3111
鬒	-12.3111
号	-12.3111
攅	-12.3111
劌	-12.3112
痯	-12.3112
存舊尚書卷第	-12.3112
轚	-12.3113
隔八相生	-12.3114
淆	-12.3114
橜	-12.3115
驤	-12.3115
何天之衢	-12.3115
獫	-12.3116
攢	-12.3116
踞	-12.3117
槿	-12.3117
槌	-12.3117
恠	-12.3117
士相見禮	-12.3117
賃	-12.3117
螗	-12.3117
便教他居	-12.3117
裧	-12.3118
圮	-12.3118
櫂	-12.3118
杉	-12.3119
芩	-12.3119
詩疏十一之	-12.3119
視履考祥	-12.3119
盥而不薦	-12.3119
鰋	-12.3119
槷	-12.312
㯺	-12.312
邿	-12.312
不喪匕鬯	-12.312
溠	-12.3121
朐	-12.3122
篾	-12.3122
緎	-12.3122
纖	-12.3122
鯁	-12.3122
九百四十分	-12.3123
歂	-12.3123
擥	-12.3123
旝	-12.3123
彳	-12.3124
曝	-12.3124
詩疏十三之	-12.3124
縋	-12.3125
麴	-12.3125
敬以直内	-12.3125
遵大路	-12.3126
諴	-12.3126
傞	-12.3126
欑	-12.3126
譸	-12.3126
范甯集解元年	-12.3127
酲	-12.3127
篴	-12.3127
忤	-12.3127
鍭	-12.3128
如今人言合格	-12.3128
格其非心	-12.3128
䪐	-12.3128
繘	-12.3128
蟆	-12.3129
喪羊于易	-12.3129
榝	-12.3129
𬞞	-12.313
影宋本集韵	-12.313
眈	-12.313
罘	-12.313
祅	-12.313
剗	-12.313
袤	-12.313
惟精惟一	-12.313
瓀	-12.3131
紾	-12.3131
咢	-12.3131
觿	-12.3132
紖	-12.3132
喘	-12.3133
踶	-12.3133
諟	-12.3134
芙	-12.3134
暄	-12.3134
撟	-12.3134
鉗	-12.3135
牋	-12.3135
暀	-12.3135
穧	-12.3136
讇	-12.3136
崒	-12.3136
鱒	-12.3136
祺	-12.3136
年考異宋板傳	-12.3137
遻	-12.3138
㡛	-12.3139
白雜毛	-12.3139
屺	-12.3141
蠜	-12.3141
軋	-12.3142
揃	-12.3143
姡	-12.3143
饟	-12.3144
瀌	-12.3144
酺	-12.3144
醳	-12.3144
髳	-12.3148
尺曰仞	-12.3148
疣	-12.3149
􁀔	-12.3152
溓	-12.3152
倶	-12.3153
頮	-12.3154
九經辨字瀆蒙	-12.3154
􁈞	-12.3154
萩	-12.3155
匴	-12.3155
歸安沈炳震撰	-12.3158
儵	-12.316
詻	-12.3161
絼	-12.3163
瀰	-12.3176
豜	-12.3177
𧃊	-12.3204
欃	-12.3951
三萬六千	-12.3952
宋楊甲撰毛邦翰補	-12.3973
痕	-12.3975
瑯	-12.3975
炁	-12.3975
誌	-12.3975
縦	-12.3981
僴	-12.3981
臤	-12.3982
訒	-12.3986
肢	-12.3987
炫	-12.3987
莱	-12.3988
貲	-12.3988
􁀮	-12.3989
攙	-12.3993
簣	-12.3994
𤨏	-12.3994
踴	-12.3994
譲	-12.3995
汀	-12.3995
荔	-12.3996
劭	-12.3997
軏	-12.3998
舀	-12.3998
薕	-12.3999
閈	-12.4
𬎼	-12.4
霞	-12.4001
莵	-12.4001
喫	-12.4003
羕	-12.4003
剸	-12.4004
謾	-12.4004
呶	-12.4005
讞	-12.4006
窶	-12.4007
晴	-12.4007
帟	-12.4007
襁	-12.4008
濱	-12.4008
簾	-12.4009
觢	-12.4009
蔬	-12.4009
貯	-12.4009
茄	-12.401
剋	-12.401
丱	-12.4012
籧	-12.4012
闌	-12.4012
岌	-12.4012
淬	-12.4013
痗	-12.4013
栫	-12.4013
嘽	-12.4013
襭	-12.4014
鬐	-12.4014
笮	-12.4014
鴝	-12.4014
驥	-12.4015
愕	-12.4015
栜	-12.4015
堕	-12.4015
邥	-12.4015
痡	-12.4016
奡	-12.4018
烘	-12.4019
阱	-12.4019
歙	-12.402
杅	-12.402
殫	-12.4021
郹	-12.4021
愽	-12.4021
剭	-12.4022
稙	-12.4023
駃	-12.4023
捥	-12.4023
暖	-12.4024
琦	-12.4024
扵	-12.4024
䐑	-12.4024
墝	-12.4024
胔	-12.4024
徤	-12.4024
詵	-12.4025
醍	-12.4025
搤	-12.4027
掀	-12.4027
鬢	-12.4027
芴	-12.4027
澳	-12.4027
梜	-12.4027
縭	-12.4027
畷	-12.4027
芡	-12.4028
棰	-12.4028
褶	-12.4028
債	-12.4029
顅	-12.4029
儥	-12.4029
芍	-12.403
箙	-12.403
畺	-12.403
欄	-12.403
藨	-12.4031
蔇	-12.4031
鸜	-12.4031
騵	-12.4031
渳	-12.4031
駛	-12.4031
耇	-12.4032
沍	-12.4032
蔆	-12.4032
鱨	-12.4032
焄	-12.4033
襺	-12.4033
䱷	-12.4034
弢	-12.4034
啗	-12.4034
挎	-12.4035
㭬	-12.4035
坏	-12.4035
誹	-12.4035
鴂	-12.4035
橭	-12.4035
垝	-12.4036
紩	-12.4036
蒢	-12.4037
疹	-12.4039
忖	-12.404
徨	-12.404
瓣	-12.404
茱	-12.404
韡	-12.4041
桼	-12.4041
郃	-12.4041
裦	-12.4042
􁀂	-12.4042
炅	-12.4043
蹵	-12.4044
蹊	-12.4044
稿	-12.4044
􁉚	-12.4044
鮥	-12.4045
􁀎	-12.4046
崈	-12.4046
穮	-12.4047
逭	-12.4047
胏	-12.4047
豶	-12.4047
鴨	-12.4047
鄠	-12.4048
捆	-12.4048
插	-12.4048
焫	-12.4049
蝤	-12.4049
蔾	-12.405
戩	-12.405
羜	-12.4051
濔	-12.4052
曩	-12.4052
驒	-12.4054
罿	-12.4054
鋌	-12.4056
饙	-12.4058
螉	-12.4058
幃	-12.4059
餾	-12.4059
荍	-12.406
掤	-12.406
蘄	-12.4061
啍	-12.4062
瓝	-12.4063
摡	-12.4065
幑	-12.4065
箘	-12.4067
辤	-12.4068
跦	-12.4074
薻	-12.4076
邛	-12.4077
摝	-12.4084
箯	-12.4943
奕	-12.4975
㳙	-12.4976
鄴	-12.4978
䆒	-12.498
炬	-12.4986
肻	-12.4987
蔕	-12.4987
甹	-12.4988
桺	-12.4988
你	-12.499
衘	-12.4992
㢮	-12.4994
餙	-12.4996
囬	-12.4996
滲	-12.4997
湍	-12.4998
莾	-12.4998
𣆀	-12.4998
桶	-12.4999
覦	-12.5
囹	-12.5001
愻	-12.5002
麰	-12.5002
慉	-12.5003
珮	-12.5004
屍	-12.5005
䩉	-12.5005
鞀	-12.5005
尃	-12.5006
㲝	-12.5006
鶡	-12.5007
伹	-12.5007
踟	-12.5008
朅	-12.5008
婿	-12.5008
飼	-12.5008
杆	-12.5008
㫺	-12.5009
掫	-12.5009
嶠	-12.501
灘	-12.501
嗸	-12.501
鎰	-12.5011
塚	-12.5012
邽	-12.5012
豖	-12.5012
忕	-12.5012
綘	-12.5012
玖	-12.5013
脄	-12.5013
鏄	-12.5013
兗	-12.5013
糅	-12.5013
熠	-12.5014
酈	-12.5014
頵	-12.5014
綣	-12.5014
㕦	-12.5015
怭	-12.5015
訽	-12.5015
碍	-12.5016
柣	-12.5016
桁	-12.5016
膱	-12.5016
纑	-12.5016
㫋	-12.5016
蕉	-12.5017
獒	-12.5017
惴	-12.5017
杪	-12.5017
殂	-12.5018
蓧	-12.5018
鈹	-12.5019
迮	-12.5019
菡	-12.5019
庌	-12.502
驢	-12.502
昂	-12.502
摏	-12.502
猫	-12.502
宧	-12.5021
酎	-12.5021
哿	-12.5021
㸷	-12.5022
猜	-12.5022
䞓	-12.5022
稃	-12.5022
虒	-12.5022
咡	-12.5024
栵	-12.5024
餤	-12.5024
檵	-12.5024
箎	-12.5025
椈	-12.5025
翮	-12.5025
讁	-12.5025
纏	-12.5026
䦧	-12.5026
腋	-12.5026
戭	-12.5026
軀	-12.5026
紽	-12.5026
朌	-12.5027
釗	-12.5028
屝	-12.5028
鶯	-12.5028
拈	-12.5029
讟	-12.503
魃	-12.503
薖	-12.5031
伻	-12.5032
餮	-12.5032
昩	-12.5032
粊	-12.5032
衹	-12.5032
筌	-12.5032
婣	-12.5033
飶	-12.5033
芉	-12.5034
猋	-12.5034
岠	-12.5034
挩	-12.5034
瘨	-12.5035
鸋	-12.5035
鴾	-12.5035
郿	-12.5036
飌	-12.5036
鴡	-12.5036
鵯	-12.5036
猪	-12.5036
鄏	-12.5036
鼩	-12.5037
遰	-12.5037
匭	-12.5037
螾	-12.5037
楰	-12.5037
螬	-12.5037
僛	-12.5037
蹴	-12.5037
黮	-12.5037
穋	-12.5038
懰	-12.5039
樠	-12.5039
玼	-12.5039
鶹	-12.504
荓	-12.504
紗	-12.504
襓	-12.504
竑	-12.504
堥	-12.5041
袡	-12.5042
鬈	-12.5042
誶	-12.5042
莤	-12.5042
荎	-12.5042
􁁔	-12.5043
呐	-12.5043
醵	-12.5043
惽	-12.5044
鑰	-12.5045
緵	-12.5046
啞	-12.5046
蠮	-12.5046
捊	-12.5047
麞	-12.5048
倀	-12.5048
鏑	-12.5048
餉	-12.5049
疷	-12.5049
迊	-12.5049
藤	-12.5049
媦	-12.505
梐	-12.505
犍	-12.505
鄝	-12.505
搹	-12.5051
陞	-12.5052
枑	-12.5052
髤	-12.5054
悻	-12.5054
塼	-12.5055
囏	-12.5057
恌	-12.5058
駼	-12.5058
帗	-12.5058
珧	-12.5059
懔	-12.5059
緄	-12.5059
縰	-12.5062
蛣	-12.5063
䃂	-12.5064
挃	-12.5064
膘	-12.5065
櫄	-12.5066
燂	-12.5067
蠓	-12.5068
枏	-12.507
㷀	-12.5072
餳	-12.5073
驔	-12.5079
罛	-12.5082
抌	-12.5083
魗	-12.5086
梂	-12.5088
􁀾	-12.5091
濊	-12.5101
悁	-12.5129
􁈘	-12.6041
牕	-12.6064
籀	-12.6065
撃	-12.607
琊	-12.6077
頫	-12.609
矞	-12.6095
􁉖	-12.6097
羭	-12.6098
菭	-12.6098
歗	-12.6098
簷	-12.6098
璹	-12.6101
髡	-12.6102
沭	-12.6102
蝓	-12.6103
軝	-12.6103
犨	-12.6104
垤	-12.6107
痍	-12.6107
犖	-12.6109
抹	-12.6109
泚	-12.6111
殀	-12.6111
簇	-12.6111
睔	-12.6112
胹	-12.6112
恍	-12.6112
浄	-12.6113
澁	-12.6113
侃	-12.6113
酧	-12.6114
堦	-12.6114
蒹	-12.6114
箈	-12.6115
鄵	-12.6117
攠	-12.6117
眭	-12.6117
尗	-12.6118
莝	-12.6118
犠	-12.6119
蹂	-12.6119
鷸	-12.6119
訑	-12.612
䑛	-12.6121
榜	-12.6121
殲	-12.6121
瘏	-12.6122
蟪	-12.6122
龠	-12.6123
揷	-12.6123
惎	-12.6123
褽	-12.6124
噳	-12.6124
鯨	-12.6125
梢	-12.6125
惛	-12.6126
餔	-12.6126
糊	-12.6126
騧	-12.6126
笋	-12.6127
薤	-12.6127
頳	-12.6127
拲	-12.6128
翽	-12.6128
囧	-12.6128
燦	-12.6128
僢	-12.6128
塒	-12.6129
禨	-12.6129
蕕	-12.6129
悈	-12.6129
苢	-12.613
蹻	-12.613
淰	-12.613
罻	-12.613
瘼	-12.613
雱	-12.6132
巘	-12.6132
舝	-12.6133
垼	-12.6133
汕	-12.6133
琪	-12.6134
雺	-12.6134
鵝	-12.6134
蛆	-12.6135
挋	-12.6135
郱	-12.6136
挶	-12.6136
漪	-12.6137
仔	-12.6137
煁	-12.6137
榻	-12.6137
鷁	-12.6137
櫨	-12.6137
陑	-12.6138
靧	-12.6138
尻	-12.6138
貂	-12.6138
筑	-12.6138
鷇	-12.6138
楖	-12.6139
楢	-12.6139
喭	-12.6139
椌	-12.6139
妊	-12.6139
芐	-12.614
禩	-12.614
褏	-12.614
佽	-12.6141
酤	-12.6141
廁	-12.6141
䳒	-12.6141
蚊	-12.6142
鴳	-12.6142
飰	-12.6142
怲	-12.6142
輁	-12.6143
竁	-12.6144
郄	-12.6144
憃	-12.6144
桋	-12.6144
琨	-12.6145
閹	-12.6145
韇	-12.6145
鳦	-12.6146
錧	-12.6146
僈	-12.6146
妯	-12.6147
鴒	-12.6147
觝	-12.6147
軔	-12.6147
悸	-12.6147
栒	-12.6147
氛	-12.6148
爆	-12.6148
祴	-12.6149
摋	-12.6149
紉	-12.6149
胠	-12.6149
跟	-12.6149
菙	-12.6149
鷮	-12.6149
瓬	-12.6149
餁	-12.615
樅	-12.615
􁈨	-12.6151
厶	-12.6152
螓	-12.6152
窅	-12.6152
蓆	-12.6153
駽	-12.6153
餴	-12.6154
佇	-12.6154
䆫	-12.6155
裻	-12.6155
􁅀	-12.6156
卺	-12.6156
眹	-12.6156
鞔	-12.6156
騭	-12.6156
袼	-12.6156
羖	-12.6157
湔	-12.6157
絙	-12.6157
哨	-12.6157
遴	-12.6157
燖	-12.6158
騢	-12.6158
麎	-12.6158
腍	-12.6159
霹	-12.616
靂	-12.616
莚	-12.616
隒	-12.616
甽	-12.616
腢	-12.6161
鐙	-12.6161
鬽	-12.6161
尰	-12.6161
尪	-12.6161
釂	-12.6162
甐	-12.6163
蝍	-12.6163
簵	-12.6163
飮	-12.6163
鱧	-12.6164
夂	-12.6164
鐲	-12.6164
扳	-12.6164
藾	-12.6165
窘	-12.6165
淢	-12.6166
翯	-12.6167
璂	-12.6169
袢	-12.6171
漘	-12.6171
驎	-12.6171
槫	-12.6171
蕈	-12.6172
扼	-12.6173
幭	-12.6174
虋	-12.6174
涷	-12.6176
搴	-12.6176
耎	-12.6177
㨎	-12.6178
鞛	-12.6179
烰	-12.618
萹	-12.618
􁒅	-12.6181
檠	-12.6182
鵃	-12.6183
鮦	-12.6188
澠	-12.6189
檋	-12.6192
罬	-12.6194
顆	-12.6197
燅	-12.6198
媞	-12.6199
蛭	-12.6206
濈	-12.6207
呬	-12.6212
𤾉	-12.7306
鬀	-12.7306
閧	-12.7322
腔	-12.7324
鸑	-12.7326
溯	-12.733
唇	-12.733
姫	-12.7331
鼂	-12.7335
鍊	-12.7339
蓻	-12.734
麽	-12.734
郔	-12.7341
饐	-12.7344
毇	-12.7345
鱖	-12.7346
籕	-12.7348
蹰	-12.7348
癰	-12.7348
兇	-12.7348
虗	-12.7352
灉	-12.7353
矺	-12.7354
署	-12.7354
騩	-12.7355
涬	-12.7355
鞍	-12.7356
筒	-12.7356
敻	-12.7357
羗	-12.7357
俸	-12.7358
悚	-12.7358
埀	-12.7359
剠	-12.7359
襵	-12.7359
閙	-12.736
偯	-12.7361
賕	-12.7361
鶖	-12.7361
賽	-12.7361
﨑	-12.7363
忻	-12.7363
瑤	-12.7363
糲	-12.7364
堤	-12.7364
柙	-12.7365
竾	-12.7365
惲	-12.7365
袺	-12.7365
郠	-12.7368
𦂳	-12.7368
潼	-12.7368
茗	-12.7368
㫃	-12.7368
㡳	-12.7369
圂	-12.7369
䱸	-12.7369
鞟	-12.7369
虙	-12.737
鎡	-12.737
媢	-12.7371
珈	-12.7371
癈	-12.7371
棒	-12.7371
漼	-12.7372
嘑	-12.7372
顈	-12.7372
逌	-12.7372
琚	-12.7374
讚	-12.7374
䲭	-12.7374
煒	-12.7374
鷯	-12.7374
雘	-12.7374
衖	-12.7375
儡	-12.7375
榼	-12.7375
趺	-12.7375
瀁	-12.7376
膟	-12.7376
鄇	-12.7376
欂	-12.7376
蚯	-12.7377
涑	-12.7377
鄍	-12.7378
惏	-12.7378
齮	-12.7378
倂	-12.7378
棷	-12.7378
揵	-12.7379
躇	-12.7379
黚	-12.7379
瀋	-12.7379
凟	-12.738
縐	-12.7381
噦	-12.7381
搗	-12.7382
秕	-12.7382
庤	-12.7382
烋	-12.7382
徊	-12.7382
俚	-12.7382
蜯	-12.7382
縝	-12.7383
徘	-12.7383
髯	-12.7383
皵	-12.7383
眴	-12.7383
汴	-12.7384
鈆	-12.7384
䡾	-12.7384
弣	-12.7384
轢	-12.7384
繾	-12.7385
懵	-12.7385
萠	-12.7385
㬌	-12.7385
緬	-12.7385
勴	-12.7385
沆	-12.7385
趍	-12.7386
姧	-12.7386
㢙	-12.7386
獐	-12.7387
鄅	-12.7387
礫	-12.7387
蒞	-12.7387
􁈿	-12.7387
嫳	-12.7387
袠	-12.7387
悍	-12.7388
糦	-12.7388
挕	-12.7388
柬	-12.7389
藘	-12.7389
抔	-12.7389
韘	-12.7389
捎	-12.7389
謠	-12.7389
􁅂	-12.7389
磌	-12.7391
璵	-12.7391
鰭	-12.7391
怓	-12.7391
􁂶	-12.7391
擐	-12.7392
秏	-12.7392
彜	-12.7393
緆	-12.7393
趡	-12.7393
汦	-12.7393
儇	-12.7393
􁅆	-12.7394
幘	-12.7394
妁	-12.7394
瀸	-12.7394
睍	-12.7394
蝶	-12.7394
醷	-12.7395
㱿	-12.7395
㽦	-12.7395
玗	-12.7395
飂	-12.7395
瘥	-12.7395
葴	-12.7395
俳	-12.7398
齹	-12.7398
鞹	-12.7398
蛹	-12.7398
濼	-12.7398
䰞	-12.7398
獪	-12.7398
歰	-12.7398
幎	-12.7398
慍	-12.7398
釃	-12.7399
祋	-12.74
藚	-12.74
芊	-12.74
瑒	-12.74
戺	-12.74
茠	-12.74
㵎	-12.74
齝	-12.7401
欇	-12.7402
橦	-12.7402
尞	-12.7402
隉	-12.7402
鮛	-12.7402
檖	-12.7403
邡	-12.7403
鱻	-12.7403
薅	-12.7403
轛	-12.7403
轏	-12.7404
拮	-12.7404
屆	-12.7404
羯	-12.7404
幢	-12.7405
灸	-12.7405
閠	-12.7405
􁎱	-12.7406
胊	-12.7406
􁎺	-12.7406
滫	-12.7406
盝	-12.7406
砎	-12.7407
怳	-12.7407
櫻	-12.7408
酨	-12.7408
蝘	-12.7409
幟	-12.7409
鞻	-12.7409
襋	-12.7409
枓	-12.741
薧	-12.7411
㡭	-12.7411
崤	-12.7411
枇	-12.7413
絪	-12.7413
䶂	-12.7413
蛬	-12.7413
茺	-12.7413
宂	-12.7414
蒻	-12.7415
橡	-12.7416
嶞	-12.7417
飤	-12.7417
椵	-12.7417
鴶	-12.7417
藃	-12.7418
􁈤	-12.7418
筰	-12.7419
茝	-12.7419
璗	-12.7419
愨	-12.7419
䐲	-12.742
蚉	-12.742
􁈹	-12.7422
槹	-12.7422
膂	-12.7422
嗑	-12.7424
鍠	-12.7424
疕	-12.7425
􁃦	-12.7426
筤	-12.7428
鞄	-12.7428
鰕	-12.7428
戔	-12.7428
垸	-12.7428
弥	-12.7428
滺	-12.7429
焌	-12.7435
蠛	-12.7435
幩	-12.7439
樏	-12.7439
妢	-12.7445
葽	-12.7447
邍	-12.745
嗷	-12.7453
粼	-12.7495
贋	-12.8757
肭	-12.8758
碞	-12.8759
飡	-12.876
嫄	-12.8761
盞	-12.8761
􁎠	-12.8761
妍	-12.877
胉	-12.8772
諳	-12.8772
麷	-12.8772
袿	-12.8772
倕	-12.8773
飜	-12.8773
忳	-12.8775
扮	-12.8776
擕	-12.8779
悞	-12.8779
伵	-12.8779
嶇	-12.8782
麐	-12.8782
俈	-12.8783
涪	-12.8783
蓂	-12.8783
戉	-12.8784
捽	-12.8785
叉	-12.8786
狭	-12.8786
喋	-12.8788
燈	-12.8788
柰	-12.8788
凥	-12.8789
輗	-12.879
歉	-12.879
抜	-12.879
絓	-12.8791
憝	-12.8791
犮	-12.8792
羃	-12.8794
毼	-12.8794
彥	-12.8794
殮	-12.8794
凄	-12.8794
窻	-12.8794
韅	-12.8795
瘕	-12.8795
炯	-12.8795
鰷	-12.8796
抝	-12.8796
􁅾	-12.8797
簮	-12.8797
怩	-12.8797
棋	-12.8799
酣	-12.88
靾	-12.8801
鮫	-12.8802
茁	-12.8802
遝	-12.8802
剄	-12.8802
渻	-12.8803
擒	-12.8803
甡	-12.8803
侣	-12.8803
懃	-12.8803
鑢	-12.8804
諉	-12.8806
骴	-12.8806
聱	-12.8806
鬊	-12.8806
坯	-12.8806
膉	-12.8806
鮨	-12.8806
蟘	-12.8806
忸	-12.8806
傁	-12.8806
癶	-12.8806
焭	-12.8806
內	-12.8806
滮	-12.8807
㨨	-12.8808
鳲	-12.8808
藙	-12.8808
栰	-12.8809
獀	-12.8809
鼽	-12.8809
甀	-12.8809
􁆵	-12.8809
鏚	-12.8809
踏	-12.8809
諞	-12.8809
椿	-12.8809
醙	-12.881
袀	-12.881
塏	-12.881
挻	-12.8811
郥	-12.8811
叡	-12.8811
憗	-12.8811
柹	-12.8812
茒	-12.8812
篧	-12.8813
冈	-12.8813
拗	-12.8813
泡	-12.8814
泫	-12.8814
瑾	-12.8814
蛻	-12.8815
窌	-12.8815
鶋	-12.8815
憩	-12.8815
珣	-12.8815
萴	-12.8815
鎒	-12.8816
稯	-12.8816
溴	-12.8816
瘈	-12.8817
駐	-12.8817
絍	-12.8818
揩	-12.8818
鏝	-12.8818
眅	-12.8818
澌	-12.8818
梠	-12.8819
蜜	-12.8819
膍	-12.8819
墁	-12.882
焰	-12.882
恆	-12.8821
漦	-12.8821
嵍	-12.8821
怗	-12.8821
藁	-12.8822
竀	-12.8822
傜	-12.8822
睊	-12.8822
贓	-12.8822
蕖	-12.8823
喩	-12.8823
葸	-12.8823
愀	-12.8823
攪	-12.8823
箄	-12.8824
湝	-12.8824
騮	-12.8824
縪	-12.8824
瑉	-12.8824
圬	-12.8824
紝	-12.8824
僶	-12.8825
酪	-12.8825
璩	-12.8825
繠	-12.8825
訌	-12.8826
餬	-12.8826
覡	-12.8826
貙	-12.8827
縆	-12.8827
莭	-12.8827
橤	-12.8827
孋	-12.8827
蘺	-12.8827
廚	-12.8827
脞	-12.8827
蚿	-12.8828
嚇	-12.8828
犄	-12.8828
秆	-12.8829
紑	-12.8829
瀟	-12.8829
蟀	-12.883
肋	-12.883
讃	-12.883
秝	-12.883
忬	-12.883
牴	-12.883
玟	-12.883
糔	-12.883
㗉	-12.8831
䔰	-12.8831
罙	-12.8831
蛚	-12.8831
迩	-12.8831
㸦	-12.8831
㡯	-12.8832
柂	-12.8833
浞	-12.8833
壃	-12.8833
蝱	-12.8833
捜	-12.8833
蓫	-12.8834
媲	-12.8834
尟	-12.8834
捘	-12.8835
叐	-12.8835
䪥	-12.8836
戁	-12.8836
蘱	-12.8836
蟨	-12.8836
揫	-12.8836
啑	-12.8836
觼	-12.8837
蠹	-12.8837
訧	-12.8838
鏐	-12.8839
寁	-12.8839
槲	-12.8839
鯈	-12.8839
嵒	-12.8839
幨	-12.884
蕝	-12.8841
霡	-12.8841
楳	-12.8842
幔	-12.8842
鵴	-12.8842
趼	-12.8842
亖	-12.8842
鋈	-12.8843
殣	-12.8843
牄	-12.8843
䭫	-12.8844
蜤	-12.8844
轊	-12.8844
􁉘	-12.8845
㕣	-12.8845
尙	-12.8845
躗	-12.8845
䍿	-12.8846
痩	-12.8847
懠	-12.8847
樻	-12.8847
鏌	-12.8848
弍	-12.885
䄠	-12.885
鶚	-12.8851
冤	-12.8852
廌	-12.8853
蹐	-12.8854
蠰	-12.8856
磊	-12.8857
剴	-12.8858
蘢	-12.8859
匶	-12.886
蔏	-12.8861
檛	-12.8865
癙	-12.8865
陾	-12.8866
觓	-12.8866
慬	-12.8868
秔	-12.8869
龐	-12.887
噰	-12.8871
莍	-12.8871
彡	-12.8871
俣	-12.8874
􁆍	-12.8876
撢	-12.8878
韽	-12.8878
蘪	-12.8885
僬	-12.8886
眥	-12.8886
慅	-12.8888
踽	-12.8892
渢	-12.8896
􁉛	-12.8896
訰	-12.8897
扌	-13.0414
疴	-13.0414
頬	-13.0425
戹	-13.0426
店	-13.0426
匃	-13.043
瀉	-13.0432
邯	-13.0434
䠞	-13.0435
肹	-13.0435
涓	-13.0435
亙	-13.0438
栨	-13.0438
屹	-13.0439
緋	-13.0439
賖	-13.044
漲	-13.0441
臍	-13.0441
瀝	-13.0442
䩛	-13.0445
邗	-13.0445
揍	-13.0445
冨	-13.0446
􁁉	-13.0446
璚	-13.0446
壷	-13.0447
􁆄	-13.0447
磻	-13.0448
劔	-13.0449
􁅼	-13.0449
鞬	-13.045
佶	-13.045
巍	-13.045
崛	-13.0451
懾	-13.0451
椀	-13.0451
濘	-13.0452
鄬	-13.0452
錤	-13.0452
檄	-13.0452
磽	-13.0453
僃	-13.0453
鰼	-13.0453
褅	-13.0453
滙	-13.0454
耔	-13.0455
柜	-13.0456
薏	-13.0456
篨	-13.0456
軘	-13.0456
舘	-13.0456
頞	-13.0457
劼	-13.0458
戱	-13.0458
􁂽	-13.0458
繙	-13.0458
靽	-13.0459
焜	-13.0459
票	-13.0459
烙	-13.0459
攔	-13.0459
酇	-13.0459
􁇟	-13.0459
莬	-13.046
襈	-13.046
謌	-13.046
魌	-13.046
䖏	-13.046
猝	-13.046
頋	-13.0461
拶	-13.0461
觽	-13.0461
嗤	-13.0462
鈗	-13.0462
嗾	-13.0462
藎	-13.0462
惹	-13.0462
瀛	-13.0462
謏	-13.0463
巒	-13.0463
瓌	-13.0463
籟	-13.0463
捭	-13.0464
􁓑	-13.0464
邅	-13.0464
勱	-13.0464
寬	-13.0466
桮	-13.0466
劈	-13.0466
椄	-13.0466
珂	-13.0467
㚟	-13.0467
騖	-13.0467
銶	-13.0467
蓽	-13.0468
臟	-13.0468
瑀	-13.0469
躑	-13.0469
􁃸	-13.0469
揥	-13.047
峭	-13.047
牣	-13.0471
蟧	-13.0471
灃	-13.0472
髭	-13.0472
渜	-13.0472
􁎮	-13.0472
昳	-13.0473
慌	-13.0473
崐	-13.0474
甍	-13.0474
媱	-13.0474
萭	-13.0474
芷	-13.0475
䀠	-13.0475
諤	-13.0475
軥	-13.0475
鬠	-13.0475
㨒	-13.0475
謵	-13.0475
昶	-13.0476
沁	-13.0476
欻	-13.0476
􁀝	-13.0477
覊	-13.0477
邧	-13.0477
霾	-13.0477
䳡	-13.0478
漻	-13.0478
鵹	-13.0478
黰	-13.0478
仿	-13.0478
偞	-13.0478
姨	-13.0478
禭	-13.0479
阬	-13.0479
鵌	-13.048
讜	-13.048
仝	-13.048
瘖	-13.048
絝	-13.048
槸	-13.048
蓌	-13.048
洌	-13.0481
綰	-13.0481
矔	-13.0481
垗	-13.0481
粘	-13.0481
鏬	-13.0482
雰	-13.0482
琖	-13.0482
簉	-13.0482
􁀚	-13.0482
擎	-13.0483
蝭	-13.0483
蚔	-13.0483
踂	-13.0484
摳	-13.0484
顰	-13.0484
蚻	-13.0484
嘬	-13.0485
夐	-13.0485
咒	-13.0485
蝀	-13.0485
蟋	-13.0486
暝	-13.0486
頏	-13.0486
岯	-13.0486
堛	-13.0486
舫	-13.0487
侅	-13.0487
鑴	-13.0487
鮌	-13.0487
􁊌	-13.0487
妒	-13.0487
夆	-13.0488
粃	-13.0488
侇	-13.0488
薀	-13.0488
萯	-13.0489
鄸	-13.0489
噆	-13.0489
䐈	-13.049
佋	-13.049
矉	-13.049
斄	-13.049
菩	-13.049
丐	-13.0491
䄙	-13.0491
柟	-13.0491
跽	-13.0491
墯	-13.0491
眦	-13.0491
纇	-13.0491
慭	-13.0491
硩	-13.0492
檷	-13.0492
飦	-13.0492
槙	-13.0492
顁	-13.0493
肶	-13.0493
黹	-13.0493
偵	-13.0493
嘘	-13.0493
噉	-13.0493
淘	-13.0493
剃	-13.0493
諝	-13.0493
藇	-13.0494
鑮	-13.0494
􁍈	-13.0494
幓	-13.0494
胝	-13.0494
朸	-13.0494
摸	-13.0495
槮	-13.0495
募	-13.0495
晅	-13.0495
瀹	-13.0495
􁓖	-13.0495
捫	-13.0496
瘤	-13.0497
矮	-13.0497
广	-13.0497
觡	-13.0498
嚃	-13.0498
淩	-13.0498
犇	-13.0498
凰	-13.0498
毚	-13.0499
辝	-13.0499
咬	-13.0499
阞	-13.05
囆	-13.05
萸	-13.0501
蜓	-13.0501
蠥	-13.0501
氿	-13.0501
䷀	-13.0501
疒	-13.0501
瀏	-13.0501
􁊹	-13.0501
踆	-13.0502
埜	-13.0502
敶	-13.0502
嗿	-13.0503
秅	-13.0503
􁆴	-13.0503
謞	-13.0503
㚄	-13.0503
勠	-13.0503
檡	-13.0503
臞	-13.0504
洚	-13.0505
齓	-13.0507
聮	-13.0507
儋	-13.0508
冘	-13.0508
畽	-13.0508
埳	-13.0508
鐐	-13.0509
峨	-13.0509
穊	-13.0509
饇	-13.0509
懣	-13.0509
䡄	-13.0509
楎	-13.0509
猿	-13.051
䕩	-13.0511
玫	-13.0511
劘	-13.0512
斞	-13.0513
鷕	-13.0513
貛	-13.0513
邘	-13.0514
憍	-13.0514
緷	-13.0514
􁊙	-13.0514
尒	-13.0515
陻	-13.0515
瀐	-13.0515
􁉙	-13.0516
麆	-13.0516
􁈅	-13.0517
犅	-13.0517
醟	-13.0517
癭	-13.0518
廄	-13.0518
鞎	-13.0519
鋂	-13.0519
黈	-13.0519
杷	-13.0521
螈	-13.0521
􁉉	-13.0521
娯	-13.0522
鯇	-13.0522
楀	-13.0523
蛑	-13.0523
䔩	-13.0523
腠	-13.0524
橇	-13.0524
擸	-13.0524
軞	-13.0524
瑌	-13.0524
􁄃	-13.0525
獥	-13.0526
扤	-13.0527
􁈑	-13.0527
橬	-13.0527
䏧	-13.0527
絘	-13.0529
甎	-13.0529
唫	-13.053
稉	-13.0531
藺	-13.0531
菨	-13.0531
桯	-13.0533
𬒮	-13.0535
駣	-13.0535
褭	-13.0536
启	-13.0536
媮	-13.0537
敂	-13.0541
翭	-13.0546
蟰	-13.0548
涚	-13.055
僝	-13.0554
穤	-13.0564
墫	-13.0565
晶	-13.2387
糳	-13.2387
敿	-13.2389
姙	-13.2405
携	-13.2409
㧻	-13.2412
惨	-13.2413
㓗	-13.2414
玤	-13.2418
灞	-13.2418
􁍘	-13.2418
袄	-13.242
􁀱	-13.2421
翡	-13.2421
闅	-13.2422
𥿄	-13.2422
擦	-13.2424
襐	-13.2424
訶	-13.2425
稳	-13.2426
􁂟	-13.2427
灝	-13.2428
萼	-13.2428
凜	-13.2429
恝	-13.2429
籖	-13.2429
鬺	-13.2429
煨	-13.243
痬	-13.2432
盃	-13.2437
叄	-13.2438
琉	-13.2439
滚	-13.2439
粺	-13.244
洼	-13.244
絖	-13.2441
眺	-13.2441
懶	-13.2441
甌	-13.2442
烱	-13.2442
笈	-13.2443
湟	-13.2443
􁔊	-13.2443
翊	-13.2443
軧	-13.2444
睅	-13.2444
菓	-13.2444
潟	-13.2445
殍	-13.2445
喑	-13.2445
燀	-13.2446
嘌	-13.2446
禅	-13.2446
搃	-13.2446
侀	-13.2448
蜒	-13.2448
拽	-13.2448
恧	-13.2449
仳	-13.2449
癖	-13.2449
陡	-13.245
􁈏	-13.245
匵	-13.245
犕	-13.245
蕿	-13.2452
惷	-13.2452
睚	-13.2453
餲	-13.2454
儛	-13.2454
礝	-13.2454
肚	-13.2455
衵	-13.2455
蔗	-13.2455
珉	-13.2455
鄲	-13.2456
沲	-13.2456
窀	-13.2456
齟	-13.2456
隃	-13.2456
齬	-13.2457
亿	-13.2457
昞	-13.2458
樿	-13.2458
梡	-13.2458
梩	-13.2459
狶	-13.2459
蒔	-13.246
鶆	-13.246
倈	-13.2461
堞	-13.2461
瓴	-13.2461
皜	-13.2461
冑	-13.2461
􁁺	-13.2461
秖	-13.2461
觗	-13.2462
搶	-13.2462
鴐	-13.2463
逶	-13.2464
夣	-13.2464
仭	-13.2464
甋	-13.2464
䘵	-13.2464
㫄	-13.2465
粮	-13.2465
輳	-13.2466
吻	-13.2467
紋	-13.2468
楄	-13.2469
棪	-13.247
哇	-13.247
朁	-13.247
堰	-13.247
芽	-13.2471
漙	-13.2471
闖	-13.2471
頜	-13.2471
塓	-13.2471
蝙	-13.2471
獼	-13.2471
蝠	-13.2471
鵡	-13.2471
喿	-13.2471
瀣	-13.2471
瘯	-13.2471
䔖	-13.2471
劖	-13.2471
喤	-13.2472
輢	-13.2472
𥚹	-13.2472
猈	-13.2472
澀	-13.2472
靮	-13.2472
袛	-13.2472
彆	-13.2473
釵	-13.2473
㠩	-13.2473
堣	-13.2474
寉	-13.2475
䠋	-13.2475
攖	-13.2475
痿	-13.2475
雂	-13.2475
鹺	-13.2475
鄐	-13.2476
鵗	-13.2476
侞	-13.2476
浥	-13.2476
㓷	-13.2476
顣	-13.2476
垚	-13.2477
獝	-13.2477
嶔	-13.2478
腕	-13.2478
珎	-13.2478
瀕	-13.2478
閃	-13.2478
梴	-13.2478
蚰	-13.2478
笞	-13.2479
俁	-13.2479
襧	-13.2479
􁓾	-13.2479
郫	-13.2479
蟞	-13.248
貅	-13.248
頁	-13.248
吊	-13.248
晛	-13.248
鸚	-13.248
螯	-13.2481
欎	-13.2481
縏	-13.2481
峓	-13.2481
狘	-13.2481
婘	-13.2482
䎶	-13.2482
腱	-13.2482
鉹	-13.2482
蘉	-13.2482
鄾	-13.2482
螮	-13.2483
碝	-13.2483
倎	-13.2483
蓯	-13.2483
診	-13.2483
桙	-13.2483
緤	-13.2483
窠	-13.2483
蒜	-13.2483
籜	-13.2483
蹹	-13.2483
騣	-13.2483
􁂥	-13.2484
傓	-13.2484
鴰	-13.2484
䤈	-13.2484
錙	-13.2485
蔦	-13.2485
眢	-13.2485
惶	-13.2485
檗	-13.2485
緍	-13.2485
檼	-13.2485
噭	-13.2485
駾	-13.2485
䡴	-13.2486
蛢	-13.2486
餰	-13.2486
弨	-13.2486
柸	-13.2486
捂	-13.2486
㓃	-13.2487
藳	-13.2487
价	-13.2487
􁐳	-13.2487
啁	-13.2487
鱞	-13.2488
熸	-13.2488
虓	-13.2488
呱	-13.2488
鞃	-13.2488
鐶	-13.2488
窄	-13.2488
禿	-13.2488
囟	-13.249
馯	-13.249
戣	-13.249
㹠	-13.249
涔	-13.2491
捃	-13.2491
蚕	-13.2491
氊	-13.2492
臊	-13.2492
靼	-13.2492
􁆳	-13.2492
倌	-13.2492
韝	-13.2492
􁉄	-13.2492
瀡	-13.2493
侐	-13.2493
茰	-13.2493
膇	-13.2494
豨	-13.2494
尌	-13.2494
鶅	-13.2494
荁	-13.2495
敜	-13.2495
鳺	-13.2495
𠞰	-13.2495
臷	-13.2495
㝔	-13.2495
蝟	-13.2496
荻	-13.2496
攕	-13.2496
龢	-13.2496
湅	-13.2496
臄	-13.2496
陲	-13.2496
隲	-13.2497
鞪	-13.2497
鶛	-13.2497
扛	-13.2497
歹	-13.2497
瀦	-13.2498
軜	-13.2498
佸	-13.2498
殰	-13.2498
􁀋	-13.2499
謩	-13.2499
靺	-13.2499
螇	-13.25
扔	-13.25
炕	-13.25
慁	-13.25
䞇	-13.25
獦	-13.25
派	-13.2501
蓉	-13.2501
稰	-13.2501
宎	-13.2501
癠	-13.2501
綼	-13.2501
烓	-13.2502
懍	-13.2502
揱	-13.2502
䖟	-13.2502
楂	-13.2502
獢	-13.2502
蘜	-13.2502
斌	-13.2503
梀	-13.2503
椸	-13.2503
煴	-13.2503
櫐	-13.2504
氲	-13.2504
嫽	-13.2506
衅	-13.2506
掞	-13.2506
菋	-13.2506
鄎	-13.2506
􁆧	-13.2507
梮	-13.2507
勌	-13.2507
􁉗	-13.2507
霂	-13.2508
搚	-13.2508
勩	-13.2508
襛	-13.2508
坋	-13.2508
蚠	-13.2509
􁎤	-13.2509
湇	-13.2509
蚪	-13.251
釘	-13.251
禔	-13.251
箠	-13.2511
􁈧	-13.2511
晣	-13.2511
驈	-13.2511
开	-13.2512
䵄	-13.2512
楽	-13.2512
鼱	-13.2512
鴀	-13.2512
䃉	-13.2512
橙	-13.2512
鉇	-13.2513
厂	-13.2513
楩	-13.2514
雟	-13.2514
毉	-13.2515
袲	-13.2515
閴	-13.2515
撠	-13.2517
􁀖	-13.2517
􁉂	-13.2517
攄	-13.2517
貕	-13.2517
轐	-13.2518
屣	-13.2518
菸	-13.2518
衃	-13.2518
箓	-13.252
㳅	-13.252
䯚	-13.252
繣	-13.2521
蟁	-13.2521
靲	-13.2521
甜	-13.2522
蜣	-13.2522
禧	-13.2523
侉	-13.2523
䵑	-13.2524
糵	-13.2524
槧	-13.2524
䓿	-13.2525
蟷	-13.2525
醪	-13.2525
韤	-13.2525
奰	-13.2525
鰿	-13.2526
䨘	-13.2527
庥	-13.2527
鴿	-13.2527
捼	-13.2527
佷	-13.2527
懕	-13.2528
蟦	-13.2528
磈	-13.2532
菘	-13.2532
蘡	-13.2533
蜢	-13.2534
㩼	-13.2535
腛	-13.2535
朡	-13.2536
􁁌	-13.2537
䋈	-13.254
菰	-13.254
哼	-13.2541
宕	-13.2542
罥	-13.2543
㐼	-13.2544
褱	-13.2548
豮	-13.2549
饛	-13.2551
嗽	-13.2551
㻆	-13.2561
􁀉	-13.2575
誎	-13.2576
愮	-13.2579
禯	-13.2648
敹	-13.4815
媰	-13.4878
齗	-13.4893
􁒾	-13.4895
塔	-13.4907
禝	-13.4911
套	-13.4913
畒	-13.4914
撼	-13.4915
媪	-13.4917
俓	-13.4918
嫪	-13.4918
荊	-13.4919
􁇒	-13.492
埓	-13.492
膓	-13.4921
巋	-13.4922
籑	-13.4922
􁉃	-13.4924
皺	-13.4924
疉	-13.4927
箏	-13.4927
䛕	-13.4928
吒	-13.4928
儈	-13.4928
澈	-13.4928
糶	-13.4929
搰	-13.4929
劃	-13.4931
墦	-13.4933
蚷	-13.4933
痢	-13.4933
廙	-13.4934
摛	-13.4936
砭	-13.4936
皂	-13.4936
捻	-13.4936
☰	-13.4936
呪	-13.4936
詀	-13.4938
亲	-13.4939
賭	-13.494
忉	-13.494
濂	-13.494
珊	-13.4942
苧	-13.4942
値	-13.4942
潏	-13.4942
唧	-13.4942
醩	-13.4942
碙	-13.4943
塜	-13.4945
䍧	-13.4945
塌	-13.4945
觫	-13.4945
韮	-13.4946
爝	-13.4946
鮭	-13.4946
佖	-13.4946
􁈰	-13.4946
㐬	-13.4946
䳄	-13.4947
潬	-13.4947
噅	-13.4947
俤	-13.4947
泜	-13.4949
丂	-13.4949
穸	-13.495
𥜗	-13.495
聫	-13.495
屚	-13.495
齛	-13.4951
擽	-13.4951
竞	-13.4951
巔	-13.4951
瞰	-13.4951
誐	-13.4951
𠂻	-13.4951
胣	-13.4952
鄁	-13.4953
醤	-13.4953
􁒋	-13.4953
臋	-13.4954
份	-13.4954
㬊	-13.4954
畊	-13.4954
鄱	-13.4954
嶡	-13.4954
巅	-13.4954
杍	-13.4954
痌	-13.4954
鷞	-13.4954
㥾	-13.4954
壠	-13.4955
鑞	-13.4956
淶	-13.4956
呿	-13.4956
噪	-13.4956
馥	-13.4956
鷫	-13.4956
􁀿	-13.4956
䵍	-13.4957
鄪	-13.4957
驀	-13.4957
扡	-13.4958
踝	-13.4958
鼆	-13.4958
揠	-13.4958
皀	-13.4958
雃	-13.4958
􁀨	-13.496
㬥	-13.496
臓	-13.496
芧	-13.496
娱	-13.4961
栱	-13.4961
殹	-13.4961
賫	-13.4961
轑	-13.4961
閍	-13.4961
䘳	-13.4961
鷅	-13.4963
􁇔	-13.4963
㳿	-13.4963
蔭	-13.4963
􁒗	-13.4963
鶨	-13.4963
孠	-13.4964
芎	-13.4964
咋	-13.4964
巟	-13.4964
勻	-13.4964
趂	-13.4964
夃	-13.4964
裎	-13.4965
鵖	-13.4967
硝	-13.4967
刅	-13.4967
蝪	-13.4968
鴔	-13.4968
奊	-13.4968
眎	-13.4968
䷁	-13.4968
糇	-13.4968
鄻	-13.4968
螿	-13.4968
禒	-13.4968
蕆	-13.4969
膩	-13.4969
曇	-13.4969
両	-13.4969
軿	-13.4971
觹	-13.4971
餂	-13.4971
髧	-13.4971
䥫	-13.4971
邜	-13.4971
摍	-13.4971
爂	-13.4972
匀	-13.4972
䰟	-13.4972
尢	-13.4972
縑	-13.4972
靃	-13.4972
籈	-13.4972
桵	-13.4973
敳	-13.4974
焮	-13.4974
􁐣	-13.4974
牗	-13.4974
朻	-13.4974
鴛	-13.4974
挏	-13.4974
棬	-13.4974
蠍	-13.4974
氈	-13.4975
厘	-13.4975
瑪	-13.4975
踁	-13.4975
傶	-13.4975
掦	-13.4975
氵	-13.4975
鶞	-13.4975
􁃰	-13.4975
槢	-13.4975
蓛	-13.4976
蝣	-13.4976
瞬	-13.4976
蕞	-13.4976
鷰	-13.4976
犥	-13.4976
緗	-13.4976
䙑	-13.4976
酁	-13.4976
姺	-13.4976
鳻	-13.4976
璘	-13.4978
􁅨	-13.4978
喏	-13.4978
酀	-13.4978
賷	-13.4978
駠	-13.4978
袋	-13.4978
趄	-13.4978
􁍬	-13.4979
􁅧	-13.4979
詷	-13.4979
痁	-13.4979
陗	-13.4979
妵	-13.4981
怱	-13.4981
鑕	-13.4981
撙	-13.4981
苙	-13.4981
蘊	-13.4981
駞	-13.4981
鼢	-13.4981
夑	-13.4982
􁈪	-13.4982
􁈻	-13.4982
啾	-13.4982
躭	-13.4982
鸅	-13.4983
嗉	-13.4983
䳢	-13.4983
鷷	-13.4983
丠	-13.4983
呫	-13.4983
峱	-13.4983
樔	-13.4983
􁑟	-13.4983
䜿	-13.4985
徬	-13.4985
綻	-13.4985
䙱	-13.4985
鬝	-13.4985
銔	-13.4985
樟	-13.4986
曒	-13.4986
􁈄	-13.4986
淋	-13.4986
􁈲	-13.4986
髏	-13.4986
徠	-13.4986
輠	-13.4986
􁎯	-13.4986
麜	-13.4986
壴	-13.4986
捝	-13.4986
寞	-13.4987
椷	-13.4987
髑	-13.4987
郲	-13.4987
玲	-13.4988
篞	-13.4988
豗	-13.4988
凊	-13.4989
哻	-13.4989
䢵	-13.4989
鶘	-13.4989
庈	-13.4989
􁆈	-13.4989
􁊖	-13.4989
䠱	-13.499
崘	-13.499
糠	-13.499
䵷	-13.499
藬	-13.499
鼵	-13.499
玃	-13.499
鯋	-13.499
蠪	-13.4991
泐	-13.4992
祍	-13.4992
蒚	-13.4992
襂	-13.4993
崗	-13.4993
窾	-13.4993
笰	-13.4993
賑	-13.4993
穂	-13.4994
䧏	-13.4994
㬜	-13.4994
簎	-13.4994
䯤	-13.4994
鸐	-13.4994
腝	-13.4994
坅	-13.4994
潯	-13.4994
顱	-13.4996
茈	-13.4996
穛	-13.4996
黤	-13.4996
憇	-13.4997
碭	-13.4997
卨	-13.4997
驊	-13.4997
􁆦	-13.4997
擉	-13.4999
僔	-13.4999
􁀃	-13.4999
慳	-13.4999
驍	-13.4999
䆤	-13.4999
污	-13.5
卸	-13.5
劀	-13.5
鍔	-13.5
臅	-13.5
葝	-13.5
厈	-13.5
鯦	-13.5
脕	-13.5001
唈	-13.5001
玠	-13.5001
柑	-13.5001
鶌	-13.5001
𡱁	-13.5001
豷	-13.5003
衂	-13.5003
貐	-13.5003
嗺	-13.5003
娉	-13.5003
螔	-13.5003
㕍	-13.5003
亐	-13.5004
彎	-13.5004
搯	-13.5004
崑	-13.5004
庮	-13.5004
􁋳	-13.5004
鱑	-13.5004
摲	-13.5004
􁊽	-13.5004
鑯	-13.5004
鍥	-13.5005
鼸	-13.5006
駴	-13.5006
髹	-13.5006
墽	-13.5006
懘	-13.5006
翐	-13.5006
𥙷	-13.5007
偩	-13.5007
㹛	-13.5007
牉	-13.5007
蚖	-13.5008
㱙	-13.5008
訅	-13.5008
滀	-13.5008
貒	-13.5008
踕	-13.5008
鴪	-13.5008
蛉	-13.501
燻	-13.501
鋟	-13.501
嘅	-13.501
􁐥	-13.501
蹔	-13.501
仵	-13.501
悗	-13.501
􁈣	-13.501
蜪	-13.501
䟫	-13.5011
鶵	-13.5011
㚒	-13.5012
椉	-13.5012
腞	-13.5012
駑	-13.5012
鱍	-13.5012
斖	-13.5012
􁍹	-13.5013
㧘	-13.5014
甈	-13.5014
􁀆	-13.5014
窞	-13.5014
􁆁	-13.5014
勍	-13.5014
耤	-13.5014
䳭	-13.5015
衒	-13.5015
崟	-13.5015
痟	-13.5017
㢡	-13.5017
蠸	-13.5017
􁈓	-13.5018
涎	-13.5018
燐	-13.5018
貰	-13.5018
藕	-13.5018
愞	-13.5018
􁋂	-13.5018
瓮	-13.5019
幺	-13.5019
礴	-13.5019
蘐	-13.5021
􁈖	-13.5021
檽	-13.5022
薶	-13.5022
訙	-13.5022
彣	-13.5023
砧	-13.5023
斸	-13.5024
鵂	-13.5024
篲	-13.5025
斪	-13.5025
縜	-13.5025
㩲	-13.5026
膄	-13.5026
􁍑	-13.5026
槪	-13.5028
薉	-13.5028
荄	-13.5028
艽	-13.5029
气	-13.5029
肂	-13.5029
苨	-13.5029
爞	-13.503
㼜	-13.503
㯮	-13.503
䦨	-13.503
噑	-13.503
龕	-13.5032
嬬	-13.5032
胚	-13.5033
趮	-13.5035
髃	-13.5035
豰	-13.5035
蒤	-13.5036
𣢾	-13.5037
楝	-13.5037
竢	-13.5037
嗄	-13.5039
蓃	-13.5039
匽	-13.504
䫥	-13.504
棸	-13.5042
簝	-13.5042
蠑	-13.5043
鯷	-13.5044
蚑	-13.5046
蓨	-13.5047
蝚	-13.5047
蝃	-13.505
㾖	-13.505
嘼	-13.505
􁎚	-13.5054
蠉	-13.5054
螤	-13.5055
魾	-13.5055
毊	-13.5058
偁	-13.5069
汒	-13.5076
虴	-13.5082
藄	-13.5082
蛘	-13.5089
茦	-13.5104
虽	-13.8167
􁔜	-13.8178
㪷	-13.8194
哩	-13.8209
礜	-13.8218
褍	-13.8219
棞	-13.8219
軺	-13.8219
醎	-13.822
媸	-13.8221
轎	-13.8221
鏖	-13.8225
䡇	-13.8226
怸	-13.8227
擺	-13.8227
惪	-13.823
乑	-13.823
壏	-13.823
􁁙	-13.8234
鄷	-13.8236
晹	-13.8236
箅	-13.824
􁓶	-13.8242
臽	-13.8242
汞	-13.8242
辶	-13.8242
熨	-13.8244
琁	-13.8244
曐	-13.8244
􁊈	-13.8244
萲	-13.8244
眊	-13.8246
抃	-13.8246
霝	-13.8246
垔	-13.825
幰	-13.825
撜	-13.8252
窊	-13.8253
单	-13.8253
丒	-13.8254
倐	-13.8254
龣	-13.8254
暜	-13.8255
杰	-13.8255
熖	-13.8257
剟	-13.8259
癥	-13.8259
孿	-13.8259
鸝	-13.8261
鵀	-13.8261
姥	-13.8261
蛩	-13.8261
􁏗	-13.8261
朓	-13.8263
􁎛	-13.8263
夥	-13.8265
仩	-13.8265
梵	-13.8265
丄	-13.8269
煉	-13.8269
厪	-13.8269
夨	-13.8269
禊	-13.8269
瑴	-13.8271
猌	-13.8271
􁁖	-13.8271
孜	-13.8273
粕	-13.8273
炷	-13.8273
褥	-13.8273
圅	-13.8273
螰	-13.8273
輭	-13.8273
𫉬	-13.8273
娭	-13.8273
燉	-13.8275
咀	-13.8275
鍮	-13.8275
廴	-13.8275
卹	-13.8275
􁊜	-13.8275
棹	-13.8275
黅	-13.8276
棊	-13.8277
綈	-13.8277
䷜	-13.8277
帽	-13.8277
瀘	-13.8277
䷞	-13.8277
磓	-13.8277
搉	-13.8277
毌	-13.8277
釆	-13.8277
鴱	-13.8277
抲	-13.8279
眯	-13.8279
佺	-13.8279
跔	-13.8279
叵	-13.8279
凈	-13.8279
陧	-13.8279
頺	-13.8279
藒	-13.828
庋	-13.828
褌	-13.828
磑	-13.828
䨾	-13.8281
晜	-13.8282
墼	-13.8284
䣛	-13.8284
腳	-13.8284
嵌	-13.8284
胯	-13.8284
顥	-13.8284
矙	-13.8284
鄡	-13.8284
縹	-13.8286
舩	-13.8286
𣲖	-13.8286
㢸	-13.8286
襞	-13.8286
堋	-13.8286
种	-13.8286
郞	-13.8286
撕	-13.8286
窣	-13.8286
􁎌	-13.8286
橓	-13.8286
歘	-13.8286
蛁	-13.8286
茥	-13.8288
浡	-13.8288
䷝	-13.8288
凃	-13.8288
婤	-13.8288
萈	-13.8288
鍉	-13.8288
琹	-13.829
恡	-13.829
䷖	-13.829
榷	-13.829
襖	-13.829
匚	-13.829
陁	-13.8292
掄	-13.8292
湢	-13.8292
勹	-13.8292
娓	-13.8292
离	-13.8294
蹩	-13.8294
航	-13.8294
㞵	-13.8294
爿	-13.8294
獯	-13.8294
䍘	-13.8294
䷋	-13.8294
砰	-13.8294
旧	-13.8296
皈	-13.8296
􁌙	-13.8296
腨	-13.8296
幇	-13.8296
㤙	-13.8296
薾	-13.8296
鵩	-13.8296
䧿	-13.8296
蕋	-13.8296
􁇊	-13.8296
梃	-13.8296
玁	-13.8296
薢	-13.8296
蹉	-13.8298
漓	-13.8298
珞	-13.8298
餧	-13.8298
鼪	-13.8298
丽	-13.8298
硯	-13.8298
蘞	-13.8298
寎	-13.8298
茩	-13.8298
袨	-13.8298
犭	-13.83
埻	-13.83
􁓵	-13.83
冋	-13.83
䷓	-13.83
沗	-13.83
鞴	-13.83
𤯝	-13.83
燁	-13.83
虻	-13.8302
衋	-13.8302
攛	-13.8302
晥	-13.8302
䖵	-13.8302
􁍆	-13.8302
帬	-13.8302
僓	-13.8302
􁓢	-13.8302
麒	-13.8303
䮍	-13.8304
塍	-13.8304
㒳	-13.8304
㸤	-13.8304
􁋮	-13.8304
膫	-13.8306
醑	-13.8306
砌	-13.8306
撾	-13.8306
雽	-13.8306
􁓛	-13.8306
净	-13.8306
喢	-13.8306
誷	-13.8306
𥪡	-13.8306
􁔞	-13.8307
歔	-13.8307
癩	-13.8307
葥	-13.8308
渒	-13.8308
眕	-13.8308
㦯	-13.8308
琄	-13.8308
㭒	-13.8308
嶃	-13.8308
􁃱	-13.8308
􁈐	-13.8308
􁐁	-13.8308
泂	-13.8309
暬	-13.8309
眛	-13.8309
陼	-13.8309
䷛	-13.8309
騃	-13.8309
咄	-13.8309
厹	-13.8309
沄	-13.8309
淤	-13.8309
躃	-13.8309
噵	-13.8309
駙	-13.8309
苄	-13.8309
鑋	-13.8309
逗	-13.8311
苪	-13.8311
銒	-13.8311
鎦	-13.8313
䃽	-13.8313
鵾	-13.8313
撅	-13.8313
鎁	-13.8313
俺	-13.8313
玅	-13.8313
䷊	-13.8315
怐	-13.8315
甝	-13.8315
偟	-13.8315
痰	-13.8315
痾	-13.8315
覉	-13.8315
㬎	-13.8315
璺	-13.8315
磁	-13.8315
絫	-13.8317
䷠	-13.8317
䵫	-13.8317
翏	-13.8317
迃	-13.8317
尭	-13.8317
㴉	-13.8317
麚	-13.8317
嘁	-13.8317
舋	-13.8317
藡	-13.8317
蚹	-13.8317
髐	-13.8317
㐱	-13.8317
礎	-13.8317
􁔱	-13.8317
䷯	-13.8319
䷚	-13.8319
鐕	-13.8319
嚙	-13.8319
喁	-13.8319
卲	-13.8319
灛	-13.8319
㯋	-13.8319
穾	-13.8319
竂	-13.8319
褔	-13.8319
搦	-13.8321
垓	-13.8321
敧	-13.8321
橁	-13.8321
䴢	-13.8321
筊	-13.8321
躢	-13.8321
䍐	-13.8321
瞫	-13.8321
胜	-13.8321
䴠	-13.8321
傕	-13.8321
囋	-13.8321
婞	-13.8321
葶	-13.8321
藶	-13.8321
䷡	-13.8322
摹	-13.8323
礦	-13.8323
􁆕	-13.8323
坁	-13.8323
橰	-13.8323
鷢	-13.8323
䮆	-13.8323
稡	-13.8323
齯	-13.8323
鳱	-13.8323
􁉣	-13.8323
􁋪	-13.8323
諔	-13.8325
潨	-13.8325
雇	-13.8325
茶	-13.8325
蓘	-13.8325
櫌	-13.8325
􁉐	-13.8325
櫃	-13.8325
豀	-13.8325
躊	-13.8325
􁓭	-13.8325
􁈕	-13.8327
䭷	-13.8327
䀌	-13.8327
鶾	-13.8327
䳜	-13.8327
蜄	-13.8327
􁎩	-13.8327
忨	-13.8327
䬸	-13.8327
寱	-13.8327
籋	-13.8327
􁉇	-13.8327
犝	-13.8329
跾	-13.8329
􁆅	-13.8329
戻	-13.8329
亰	-13.8329
猰	-13.8329
憭	-13.8329
蜱	-13.8329
㛮	-13.8329
䫉	-13.8329
箹	-13.8329
鉼	-13.8329
澘	-13.833
荖	-13.8331
楓	-13.8331
硃	-13.8331
枻	-13.8331
恑	-13.8331
瞯	-13.8331
譱	-13.8331
轔	-13.8331
惘	-13.8331
􁔶	-13.8331
岫	-13.8332
蓴	-13.8332
攓	-13.8333
翾	-13.8333
箌	-13.8333
㯟	-13.8333
莕	-13.8333
鱠	-13.8333
寍	-13.8333
戄	-13.8333
遾	-13.8334
䣼	-13.8334
帤	-13.8334
橿	-13.8334
橾	-13.8334
􁅅	-13.8334
㸋	-13.8334
餹	-13.8335
憰	-13.8335
簥	-13.8335
䧠	-13.8335
徉	-13.8335
虌	-13.8335
蜰	-13.8335
帆	-13.8335
廯	-13.8335
貁	-13.8335
蜇	-13.8336
鷽	-13.8336
楠	-13.8336
䷍	-13.8336
鑾	-13.8336
扎	-13.8336
袘	-13.8336
纋	-13.8336
蠦	-13.8336
䷪	-13.8338
鮞	-13.8338
氶	-13.8338
确	-13.8338
䊸	-13.8338
垠	-13.8338
尠	-13.8338
畐	-13.8338
鬋	-13.8338
𤱔	-13.8338
汩	-13.834
緶	-13.834
巓	-13.834
犎	-13.834
絤	-13.834
钀	-13.834
􁀑	-13.834
揟	-13.834
惈	-13.834
嘂	-13.834
奓	-13.834
痎	-13.834
魱	-13.834
賒	-13.8342
㱴	-13.8342
恀	-13.8342
􁃟	-13.8342
偄	-13.8342
醲	-13.8342
騬	-13.8342
涒	-13.8342
鈏	-13.8342
抮	-13.8342
蚋	-13.8344
襡	-13.8344
摮	-13.8344
䀵	-13.8344
怫	-13.8344
顗	-13.8344
曣	-13.8344
鮬	-13.8344
弜	-13.8344
􁎜	-13.8344
眘	-13.8346
邐	-13.8346
􁁘	-13.8346
􁋲	-13.8346
棤	-13.8346
􁏒	-13.8346
䁛	-13.8346
蟥	-13.8346
獷	-13.8346
睥	-13.8346
葂	-13.8346
魦	-13.8348
嬼	-13.8348
哽	-13.8348
皫	-13.8348
𨗳	-13.8348
皽	-13.8348
綉	-13.8348
晤	-13.835
𥙿	-13.835
棶	-13.835
偦	-13.835
蒠	-13.8352
疧	-13.8352
㧖	-13.8352
厜	-13.8352
𧖟	-13.8352
鐔	-13.8352
靶	-13.8352
鵁	-13.8352
􁐹	-13.8352
蝨	-13.8352
㩊	-13.8354
芓	-13.8354
黂	-13.8354
幧	-13.8354
薠	-13.8354
埌	-13.8354
䁩	-13.8354
儃	-13.8354
媐	-13.8354
犲	-13.8354
狌	-13.8354
猵	-13.8354
鶪	-13.8354
菷	-13.8356
㜸	-13.8356
㕒	-13.8356
蘴	-13.8356
蕦	-13.8356
裓	-13.8356
䳕	-13.8356
玣	-13.8356
蓈	-13.8358
樷	-13.8358
瘀	-13.8358
䄍	-13.8358
驨	-13.8358
劊	-13.8359
齵	-13.8359
砮	-13.836
棳	-13.836
􁇄	-13.836
􁎬	-13.836
胰	-13.836
鎎	-13.836
魑	-13.8361
惝	-13.8361
楇	-13.8361
䄂	-13.8361
旍	-13.8362
㤜	-13.8362
􁃪	-13.8363
鯿	-13.8363
胈	-13.8363
鏁	-13.8363
㞢	-13.8365
屩	-13.8365
儴	-13.8365
墅	-13.8365
狅	-13.8365
瞋	-13.8365
㳄	-13.8365
㾐	-13.8365
䙒	-13.8365
􁎦	-13.8365
􁁲	-13.8365
褗	-13.8367
窳	-13.8367
蛗	-13.8367
蘥	-13.8367
葹	-13.8369
顴	-13.8369
蟃	-13.8369
輞	-13.8369
薸	-13.8369
􁀹	-13.8369
􁆏	-13.8369
厩	-13.8369
奘	-13.8369
縕	-13.8371
嘩	-13.8371
􁔟	-13.8373
荂	-13.8373
潸	-13.8373
痻	-13.8373
蔈	-13.8375
弎	-13.8375
鱏	-13.8375
駷	-13.8375
􁋻	-13.8375
淚	-13.8377
薞	-13.8377
䔧	-13.8377
􁓦	-13.8377
迿	-13.8377
䈚	-13.8379
禷	-13.8381
槾	-13.8381
捖	-13.8381
籗	-13.8381
焈	-13.8382
芏	-13.8383
􁃥	-13.8383
蟺	-13.8385
鮧	-13.8385
彴	-13.8385
㟭	-13.8386
嬥	-13.8387
齏	-13.8387
􁎭	-13.8387
蕑	-13.8388
贙	-13.8389
刦	-13.8389
蟩	-13.8389
穠	-13.839
䥴	-13.839
􁓿	-13.8392
鉆	-13.8392
􁈬	-13.8394
蕀	-13.8396
蕮	-13.8396
􁔀	-13.8396
帴	-13.8398
鯬	-13.8398
矲	-13.84
鯶	-13.8402
蔜	-13.8406
􁉎	-13.8406
㰚	-13.841
蕧	-13.841
聏	-13.8419
巉	-13.8423
鱺	-13.8435
䓴	-13.8442
􁈫	-13.8462
騕	-13.8468
拼	-13.8474
侹	-14.3136
􁎟	-14.3142
濿	-14.3183
耟	-14.3192
塪	-14.3196
髖	-14.3199
鏊	-14.3202
脘	-14.3202
㞺	-14.3202
乨	-14.3202
乩	-14.3202
戅	-14.3202
䠠	-14.3205
哈	-14.3205
昱	-14.3205
㟁	-14.3208
䞈	-14.3211
㣽	-14.3214
咊	-14.3214
􁅰	-14.3214
灡	-14.3217
幙	-14.3221
􁔁	-14.3221
嫺	-14.3224
櫽	-14.3224
晒	-14.3224
泔	-14.3224
㝤	-14.3224
䇂	-14.3224
腮	-14.3224
􁔻	-14.3224
鎔	-14.3227
旹	-14.3227
瑋	-14.3227
蘟	-14.3227
庛	-14.323
荈	-14.323
蚈	-14.323
􁔲	-14.323
䱊	-14.3233
婟	-14.3233
尔	-14.3233
貤	-14.3236
祸	-14.3236
搟	-14.3236
艴	-14.3239
伽	-14.324
樁	-14.324
脹	-14.324
煤	-14.3243
応	-14.3243
𡨕	-14.3243
篙	-14.3243
㹥	-14.3243
洴	-14.3243
澼	-14.3243
閿	-14.3243
𥻘	-14.3243
􁐸	-14.3243
覻	-14.3246
渮	-14.3246
偓	-14.3249
峒	-14.3249
站	-14.3249
磕	-14.3249
蒦	-14.3249
湌	-14.3249
窽	-14.3249
碁	-14.3249
赩	-14.3249
燃	-14.3249
􁂅	-14.3249
孀	-14.3252
淜	-14.3252
􁋃	-14.3252
􁏱	-14.3252
讌	-14.3252
麯	-14.3252
䝪	-14.3252
騾	-14.3252
栻	-14.3255
賸	-14.3255
汖	-14.3255
􁀛	-14.3255
蒭	-14.3255
徕	-14.3255
䈁	-14.3255
䮧	-14.3255
啎	-14.3255
櫼	-14.3255
歱	-14.3255
溭	-14.3255
螂	-14.3255
􁒯	-14.3258
擷	-14.3258
妐	-14.3258
坵	-14.3258
擑	-14.3258
秤	-14.3261
狢	-14.3262
詗	-14.3262
􁔰	-14.3262
櫺	-14.3264
蓰	-14.3265
􁅮	-14.3265
􁉈	-14.3265
􁀍	-14.3265
䞨	-14.3265
搬	-14.3265
􁅿	-14.3265
鶭	-14.3265
菪	-14.3265
裩	-14.3265
鱓	-14.3265
鷀	-14.3265
峕	-14.3265
珤	-14.3265
窓	-14.3265
醧	-14.3265
􁀄	-14.3265
灺	-14.3265
茜	-14.3267
臛	-14.3268
嬗	-14.3268
㽕	-14.3268
婪	-14.3268
劄	-14.3268
㩱	-14.3268
僿	-14.3268
鋼	-14.3268
􁌩	-14.3271
扯	-14.3271
独	-14.3271
珙	-14.3271
蜆	-14.3271
瓏	-14.3271
㞧	-14.3271
獃	-14.3271
觟	-14.3271
􁔣	-14.3271
䘱	-14.3271
挟	-14.3271
絥	-14.3271
錍	-14.3271
瑄	-14.3274
癬	-14.3274
饍	-14.3274
抺	-14.3274
侫	-14.3274
砒	-14.3274
䢔	-14.3274
埊	-14.3274
姎	-14.3274
忭	-14.3274
眔	-14.3274
葡	-14.3274
謦	-14.3274
郼	-14.3274
􁅱	-14.3274
􁉒	-14.3274
捺	-14.3277
廊	-14.3277
憧	-14.3277
顄	-14.3277
䔄	-14.3277
仓	-14.3277
嫩	-14.3277
抛	-14.3277
蘝	-14.3277
􁔧	-14.3277
杸	-14.3277
穯	-14.328
蹼	-14.328
悰	-14.328
渦	-14.328
􁊁	-14.328
姶	-14.328
☳	-14.328
☷	-14.328
䎵	-14.328
嚅	-14.328
懞	-14.328
焠	-14.328
籛	-14.328
葩	-14.328
鰱	-14.3283
墀	-14.3283
鴖	-14.3283
棁	-14.3284
􁈵	-14.3284
巶	-14.3284
鴢	-14.3284
䷙	-14.3284
狁	-14.3284
㦂	-14.3284
㦛	-14.3284
嘈	-14.3284
嶮	-14.3284
跏	-14.3284
􁊐	-14.3284
􁆑	-14.3284
詿	-14.3287
嶢	-14.3287
檣	-14.3287
渺	-14.3287
螋	-14.3287
蠼	-14.3287
挿	-14.3287
樣	-14.3287
泪	-14.3287
霎	-14.3287
黳	-14.3287
􁈍	-14.3287
􁍗	-14.3287
㜝	-14.3287
㞕	-14.3287
䋌	-14.3287
潑	-14.3287
𧹞	-14.3287
鶝	-14.329
􁔺	-14.329
䉾	-14.329
址	-14.329
窐	-14.329
顫	-14.329
􁔝	-14.329
鶠	-14.329
䷫	-14.3293
䷺	-14.3293
閬	-14.3293
㙪	-14.3293
倿	-14.3293
吅	-14.3293
怚	-14.3293
戼	-14.3293
旲	-14.3293
浲	-14.3293
牌	-14.3293
碫	-14.3293
胇	-14.3293
袟	-14.3293
袹	-14.3293
諰	-14.3293
趁	-14.3293
遅	-14.3293
􁄐	-14.3293
􁉀	-14.3293
壈	-14.3296
爬	-14.3296
䷽	-14.3296
䷘	-14.3296
嗔	-14.3296
鵪	-14.3296
曑	-14.3296
朦	-14.3296
筓	-14.3296
袓	-14.3296
􁉞	-14.3296
䆃	-14.3299
㪍	-14.3299
楶	-14.3299
匙	-14.3299
崎	-14.3299
珵	-14.3299
㒒	-14.3299
䠊	-14.3299
䷦	-14.3299
䷧	-14.3299
娄	-14.3299
竣	-14.3299
㚘	-14.3299
岩	-14.3299
巗	-14.3299
盳	-14.3299
袚	-14.3299
𨳩	-14.3299
􁃷	-14.3299
踳	-14.3302
䷼	-14.3302
陿	-14.3302
歿	-14.3302
䌃	-14.3302
潺	-14.3302
灹	-14.3302
痼	-14.3302
􁈥	-14.3302
䀣	-14.3302
菫	-14.3302
呺	-14.3302
虀	-14.3302
蹍	-14.3302
䡈	-14.3302
堀	-14.3302
尓	-14.3302
瘰	-14.3302
竜	-14.3302
舁	-14.3302
蹝	-14.3302
鋙	-14.3302
鞋	-14.3302
麔	-14.3302
􁈇	-14.3302
􁌛	-14.3302
䷇	-14.3304
姁	-14.3305
幋	-14.3305
䊝	-14.3306
琭	-14.3306
樀	-14.3306
䷈	-14.3306
窗	-14.3306
惣	-14.3306
晬	-14.3306
􁐀	-14.3306
􁐷	-14.3306
䷢	-14.3306
倜	-14.3306
凵	-14.3306
勔	-14.3306
咻	-14.3306
媌	-14.3306
庬	-14.3306
澫	-14.3306
砲	-14.3306
硌	-14.3306
禼	-14.3306
秷	-14.3306
蜕	-14.3306
褁	-14.3306
襾	-14.3306
鉈	-14.3306
鍦	-14.3306
槬	-14.3308
槉	-14.3309
噤	-14.3309
鮆	-14.3309
槇	-14.3309
躄	-14.3309
鋩	-14.3309
蚘	-14.3309
㟪	-14.3309
撊	-14.3309
謼	-14.3309
鞼	-14.3309
絯	-14.3309
蜌	-14.3309
􁄵	-14.3309
䷏	-14.3309
梔	-14.3309
欘	-14.3309
炔	-14.3309
豌	-14.3309
赼	-14.3309
鑱	-14.3309
􁂵	-14.3309
􁉍	-14.3309
􁋚	-14.3309
􁔌	-14.3309
廇	-14.3312
憋	-14.3312
勰	-14.3312
媻	-14.3312
擡	-14.3312
櫅	-14.3312
趕	-14.3312
毘	-14.3312
洜	-14.3312
蚞	-14.3312
䂓	-14.3312
䷉	-14.3312
悃	-14.3312
檎	-14.3312
伝	-14.3312
儹	-14.3312
坌	-14.3312
坶	-14.3312
嶭	-14.3312
胕	-14.3312
蘚	-14.3312
蜳	-14.3312
螴	-14.3312
鍿	-14.3312
鐻	-14.3312
鑵	-14.3312
鶷	-14.3312
􁈢	-14.3312
􁏄	-14.3312
􁔒	-14.3312
瓿	-14.3315
杗	-14.3315
㨱	-14.3315
廑	-14.3315
莇	-14.3315
噞	-14.3315
㝛	-14.3315
婬	-14.3315
羼	-14.3315
蓤	-14.3315
䨣	-14.3315
䷐	-14.3315
坸	-14.3315
坺	-14.3315
嶼	-14.3315
蟅	-14.3315
蠚	-14.3315
跙	-14.3315
蹠	-14.3315
𫐠	-14.3315
􁍪	-14.3315
裾	-14.3318
肕	-14.3318
淝	-14.3318
蝅	-14.3318
㐲	-14.3318
褩	-14.3318
浂	-14.3318
㷸	-14.3318
䷎	-14.3318
䷹	-14.3318
屖	-14.3318
扜	-14.3318
灜	-14.3318
熂	-14.3318
睛	-14.3318
蔍	-14.3318
薹	-14.3318
螝	-14.3318
蟫	-14.3318
諩	-14.3318
躙	-14.3318
鎪	-14.3318
鏉	-14.3318
􁆓	-14.3318
葐	-14.3321
蒛	-14.3321
㯿	-14.3321
攤	-14.3321
厸	-14.3321
囱	-14.3321
膢	-14.3321
􁌌	-14.3321
踱	-14.3321
壍	-14.3321
捔	-14.3321
柛	-14.3321
輚	-14.3321
銛	-14.3321
刜	-14.3321
廅	-14.3321
楞	-14.3321
􁄄	-14.3321
􁈶	-14.3321
椳	-14.3321
獋	-14.3321
砉	-14.3321
蕇	-14.3321
辣	-14.3321
鰨	-14.3321
􁇠	-14.3321
􁏹	-14.3321
羉	-14.3324
狣	-14.3324
笧	-14.3324
煛	-14.3324
􁁷	-14.3324
䷴	-14.3324
偰	-14.3324
鑈	-14.3324
嘲	-14.3325
弹	-14.3325
枃	-14.3325
樲	-14.3325
尿	-14.3325
屰	-14.3325
槈	-14.3325
沰	-14.3325
滍	-14.3325
潈	-14.3325
猬	-14.3325
螆	-14.3325
齪	-14.3325
􁉊	-14.3325
􁓞	-14.3325
棚	-14.3327
鱬	-14.3327
剉	-14.3328
濉	-14.3328
􁅖	-14.3328
枅	-14.3328
􁀕	-14.3328
搓	-14.3328
瑇	-14.3328
祢	-14.3328
塩	-14.3328
虇	-14.3328
㳒	-14.3328
䷌	-14.3328
䷑	-14.3328
鵟	-14.3328
麙	-14.3328
􁇺	-14.3328
􁔦	-14.3328
􁃁	-14.3331
蠁	-14.3331
䍃	-14.3331
㡿	-14.3331
忲	-14.3331
䷂	-14.3331
艹	-14.3331
蕫	-14.3331
麁	-14.3331
􁋑	-14.3331
䓗	-14.3331
畵	-14.3331
頿	-14.3331
鈑	-14.3331
鴜	-14.3331
㡵	-14.3331
塠	-14.3331
寋	-14.3331
瘭	-14.3331
籃	-14.3331
迯	-14.3331
鋏	-14.3331
駥	-14.3331
鬨	-14.3331
􁀜	-14.3334
梳	-14.3334
䷟	-14.3334
鸙	-14.3334
䔍	-14.3334
曙	-14.3334
䷄	-14.3334
􁈚	-14.3334
噴	-14.3334
躠	-14.3334
拹	-14.3334
胆	-14.3334
默	-14.3334
俌	-14.3334
喝	-14.3334
寷	-14.3334
糪	-14.3334
餀	-14.3334
餯	-14.3334
􁓧	-14.3334
瘇	-14.3337
􁀇	-14.3337
崙	-14.3337
妳	-14.3337
䬤	-14.3337
澂	-14.3337
硈	-14.3337
竷	-14.3337
􁇕	-14.3337
㞐	-14.3337
鄤	-14.3337
悆	-14.3337
㵲	-14.3337
䙫	-14.3337
慹	-14.3337
祒	-14.3337
粦	-14.3337
餿	-14.3337
􁏉	-14.3337
亝	-14.3339
噏	-14.334
磯	-14.334
瑙	-14.334
鼣	-14.334
􁃌	-14.334
鴉	-14.334
戜	-14.334
䷅	-14.334
䷸	-14.334
弅	-14.334
碓	-14.334
篎	-14.334
蕍	-14.334
鷾	-14.334
􁎪	-14.334
䷆	-14.3342
䱹	-14.3343
鎻	-14.3343
貑	-14.3343
颻	-14.3343
堭	-14.3343
䷲	-14.3343
悙	-14.3343
㒼	-14.3343
箷	-14.3343
晻	-14.3343
糒	-14.3343
憴	-14.3343
垺	-14.3343
灮	-14.3343
㐰	-14.3343
㕔	-14.3343
㼾	-14.3343
䕡	-14.3343
䷣	-14.3343
乱	-14.3343
喣	-14.3343
囦	-14.3343
垮	-14.3343
潧	-14.3343
藲	-14.3343
魭	-14.3343
鼳	-14.3343
􁒖	-14.3343
􁓡	-14.3343
臰	-14.3346
㵒	-14.3347
吚	-14.3347
峞	-14.3347
詨	-14.3347
榤	-14.3347
餥	-14.3347
􁉆	-14.3347
䈇	-14.3347
䷰	-14.3347
䷱	-14.3347
曬	-14.3347
𠯗	-14.3347
㳫	-14.3347
䔺	-14.3347
估	-14.3347
嚔	-14.3347
弶	-14.3347
悕	-14.3347
摉	-14.3347
柿	-14.3347
謇	-14.3347
譹	-14.3347
鴯	-14.3347
鵽	-14.3347
􁔥	-14.3347
䷕	-14.335
晫	-14.335
櫰	-14.335
歅	-14.335
榩	-14.335
槎	-14.335
蘈	-14.335
嫓	-14.335
莐	-14.335
䷭	-14.335
䷷	-14.335
鍤	-14.335
儽	-14.335
浟	-14.335
煟	-14.335
覤	-14.335
輵	-14.335
鱊	-14.335
􁄠	-14.335
􁇙	-14.335
穐	-14.3352
􁅘	-14.3353
䌓	-14.3353
惮	-14.3353
胼	-14.3353
醹	-14.3353
晊	-14.3353
騞	-14.3353
䷮	-14.3353
蟮	-14.3353
齻	-14.3353
䷳	-14.3353
忔	-14.3353
沶	-14.3353
𬒳	-14.3353
􁋡	-14.3353
􁎸	-14.3353
􁓙	-14.3353
䷩	-14.3356
箬	-14.3356
黧	-14.3356
槽	-14.3356
􁈝	-14.3356
濠	-14.3356
煼	-14.3356
䚡	-14.3356
􁀘	-14.3356
犛	-14.3356
㢆	-14.3356
䷤	-14.3356
俋	-14.3356
擪	-14.3356
晠	-14.3356
瞚	-14.3356
糷	-14.3356
􁔢	-14.3356
箁	-14.3359
諲	-14.3359
欔	-14.3359
苰	-14.3359
茮	-14.3359
菔	-14.3359
㘲	-14.3359
㧁	-14.3359
䘙	-14.3359
胘	-14.3359
淉	-14.3359
齔	-14.3359
䕲	-14.3359
楱	-14.3359
􁋀	-14.3359
揗	-14.3362
汱	-14.3362
傋	-14.3362
薋	-14.3362
桞	-14.3362
樌	-14.3362
䌆	-14.3362
冱	-14.3362
犗	-14.3362
奧	-14.3362
峘	-14.3362
愊	-14.3362
栞	-14.3362
茙	-14.3365
衱	-14.3365
鋷	-14.3365
㓩	-14.3365
穌	-14.3365
枙	-14.3365
阯	-14.3365
􁇩	-14.3365
鵵	-14.3365
䙅	-14.3365
譝	-14.3365
蟭	-14.3365
䭇	-14.3365
䷃	-14.3365
吷	-14.3365
藫	-14.3365
趻	-14.3365
阫	-14.3365
􁐧	-14.3365
怊	-14.3368
獠	-14.3368
䷔	-14.3368
嬾	-14.3369
􁈱	-14.3369
遬	-14.3369
憨	-14.3369
蔤	-14.3369
􁈙	-14.3369
惌	-14.3369
覵	-14.3369
㹱	-14.3369
䓟	-14.3369
惵	-14.3369
腧	-14.3369
莏	-14.3369
虈	-14.3369
蛂	-14.3369
魡	-14.3369
􁌒	-14.3369
􁏌	-14.3369
㹟	-14.3372
峐	-14.3372
曖	-14.3372
琀	-14.3372
㲦	-14.3372
戓	-14.3372
暎	-14.3372
鷚	-14.3372
蓎	-14.3372
䔛	-14.3372
棆	-14.3372
檴	-14.3372
钁	-14.3372
鶄	-14.3372
蘠	-14.3375
䨨	-14.3375
莌	-14.3375
蘮	-14.3375
藑	-14.3375
懊	-14.3375
橢	-14.3375
麂	-14.3375
齘	-14.3375
墤	-14.3375
丮	-14.3375
耓	-14.3375
裞	-14.3375
釿	-14.3375
􁍺	-14.3375
􁅩	-14.3378
蠺	-14.3378
􁀷	-14.3378
􁈳	-14.3378
􁏝	-14.3378
䝐	-14.3381
禠	-14.3381
䷶	-14.3381
妎	-14.3381
薔	-14.3381
蚅	-14.3381
騊	-14.3381
罼	-14.3384
䭞	-14.3384
䷬	-14.3384
芺	-14.3384
鮂	-14.3387
礐	-14.3387
礓	-14.3387
荃	-14.3387
􁇚	-14.3388
鴮	-14.3388
簍	-14.3388
寀	-14.3388
誒	-14.3388
􁀢	-14.3388
爤	-14.3391
霿	-14.3391
㯈	-14.3391
䄏	-14.3391
䝟	-14.3391
呰	-14.3391
蒡	-14.3391
蚇	-14.3391
譪	-14.3391
馲	-14.3391
誃	-14.3394
蓾	-14.3394
㗊	-14.3394
㠀	-14.3394
䭈	-14.3394
徛	-14.3394
瘐	-14.3394
罠	-14.3394
詙	-14.3394
鵅	-14.3394
蚗	-14.3397
蟿	-14.3397
猣	-14.3397
噊	-14.3397
椋	-14.3397
耴	-14.3397
醝	-14.3397
􁉯	-14.3397
翥	-14.34
帉	-14.34
慴	-14.34
犦	-14.34
麖	-14.34
麢	-14.34
􁓘	-14.34
􁔄	-14.34
聝	-14.3403
濺	-14.3403
愓	-14.3403
鼍	-14.3403
㱪	-14.3403
胂	-14.3403
蚸	-14.3406
氍	-14.3406
淔	-14.3406
璓	-14.3406
窯	-14.3406
罾	-14.3406
鯠	-14.3406
敫	-14.3409
苬	-14.341
蜞	-14.341
傫	-14.3413
孓	-14.3413
竚	-14.3413
韹	-14.3413
芅	-14.3416
薚	-14.3416
􁓗	-14.3416
䗲	-14.3419
謑	-14.3419
髁	-14.3419
􁌴	-14.3419
懜	-14.3422
騜	-14.3425
鐎	-14.3425
蛜	-14.3425
芨	-14.3425
蜹	-14.3425
裗	-14.3425
鋋	-14.3425
鏦	-14.3425
輐	-14.3432
蘬	-14.3435
駂	-14.3438
蚢	-14.3441
芫	-14.3441
䗥	-14.3444
蘦	-14.3447
蘼	-14.3454
菂	-14.346
􁔡	-14.3463
儚	-14.347
悒	-14.347
懪	-14.347
蔝	-14.347
螸	-14.347
慔	-14.3476
騲	-14.3476
􁔠	-14.3479
抨	-14.3489
㭨	-14.3495
䵹	-14.3495
䓶	-14.3514
蒬	-14.3514
龥	-14.3552
㵟	-15.3129
㻱	-15.3129
㛑	-15.3161
㶏	-15.3161
㹵	-15.3169
䋕	-15.3169
䌫	-15.3169
㐁	-15.3185
㧊	-15.3193
䃼	-15.3193
䑗	-15.3193
䑘	-15.3193
㸵	-15.3201
䀜	-15.3201
䚛	-15.3201
䄛	-15.3209
牾	-15.3217
㯷	-15.3217
䄄	-15.3217
䏩	-15.3217
䑏	-15.3217
䓯	-15.3217
㛂	-15.3225
㯰	-15.3225
䐆	-15.3225
㵼	-15.3233
䓊	-15.3233
㧾	-15.3241
㨂	-15.3241
䊧	-15.3241
㬋	-15.3249
㯼	-15.3249
䋠	-15.3249
䒭	-15.3249
☱	-15.3257
☲	-15.3257
☴	-15.3257
☵	-15.3257
☶	-15.3257
㓞	-15.3257
㓠	-15.3257
㪉	-15.3257
䀢	-15.3257
㜏	-15.3265
㜽	-15.3265
㩁	-15.3265
㭌	-15.3265
㯘	-15.3265
㲠	-15.3265
䏌	-15.3265
㒞	-15.3274
㓪	-15.3274
㣎	-15.3274
㨶	-15.3274
㪟	-15.3274
㪣	-15.3274
䐌	-15.3274
㰎	-15.3282
㹞	-15.3282
䅽	-15.3282
䒰	-15.3282
䓒	-15.3282
􁓼	-15.3286
􁓌	-15.3287
􁏋	-15.3288
􁍏	-15.3289
䆞	-15.329
䖡	-15.329
􁌽	-15.329
􁊯	-15.3291
𫾣	-15.3292
𣗳	-15.3293
鼝	-15.3294
鱸	-15.3295
魫	-15.3296
骻	-15.3297
鴦	-15.3298
?	-15.3298
㦫	-15.3298
㱂	-15.3298
䆠	-15.3298
䋮	-15.3298
䗃	-15.3298
䘆	-15.3298
驄	-15.3298
騄	-15.3299
駬	-15.33
颼	-15.3301
顋	-15.3302
韸	-15.3303
閌	-15.3304
酩	-15.3305
㥋	-15.3306
㩠	-15.3306
㪦	-15.3306
㴝	-15.3306
㷠	-15.3306
䀎	-15.3306
䆲	-15.3306
䇶	-15.3306
䈕	-15.3306
䛇	-15.3306
酊	-15.3306
週	-15.3307
轕	-15.3308
轇	-15.3309
㧡	-15.331
輄	-15.331
躰	-15.3311
跼	-15.3312
跫	-15.3313
㐀	-15.3314
㐄	-15.3314
㒹	-15.3314
㞔	-15.3314
㢁	-15.3314
㭓	-15.3314
䂬	-15.3314
䌒	-15.3314
䎖	-15.3314
䎘	-15.3314
䐖	-15.3314
䓁	-15.3314
䓣	-15.3314
䕅	-15.3314
䗶	-15.3314
䘺	-15.3314
跢	-15.3314
趏	-15.3315
趀	-15.3316
諊	-15.3317
訉	-15.3318
蠒	-15.3319
螌	-15.332
蜽	-15.3321
蕸	-15.3322
㑂	-15.3322
㣻	-15.3322
㥄	-15.3322
㼎	-15.3322
㾯	-15.3322
䄫	-15.3322
䈥	-15.3322
䌶	-15.3322
䏵	-15.3322
䘚	-15.3322
蔪	-15.3323
莟	-15.3324
艐	-15.3325
舡	-15.3326
舠	-15.3327
腜	-15.3328
腑	-15.3329
胐	-15.333
◚	-15.333
㕡	-15.333
㤞	-15.333
㺂	-15.333
㽟	-15.333
䅇	-15.333
䏞	-15.333
䐹	-15.333
䔏	-15.333
䚾	-15.333
羍	-15.3331
罧	-15.3332
繮	-15.3333
綾	-15.3334
綛	-15.3335
篛	-15.3336
稭	-15.3337
秒	-15.3338
㕑	-15.3338
㗖	-15.3338
䞉	-15.3338
礲	-15.3339
硍	-15.334
砂	-15.3341
睋	-15.3342
盇	-15.3343
癹	-15.3344
疝	-15.3345
疛	-15.3346
㓵	-15.3346
㖾	-15.3346
㝊	-15.3346
㝎	-15.3346
㝱	-15.3346
㠐	-15.3346
㦩	-15.3346
㮃	-15.3346
㮞	-15.3346
㯙	-15.3346
㸂	-15.3346
㽥	-15.3346
䄖	-15.3346
䐇	-15.3346
䗫	-15.3346
䘃	-15.3346
䘇	-15.3346
檾	-15.3346
璱	-15.3347
璑	-15.3348
瑻	-15.3349
玳	-15.335
狾	-15.3351
焙	-15.3352
澅	-15.3353
漶	-15.3354
㣚	-15.3354
㨃	-15.3354
㩥	-15.3354
㯛	-15.3354
滹	-15.3355
滇	-15.3356
溈	-15.3357
泙	-15.3358
沢	-15.3359
欷	-15.336
橶	-15.3361
樎	-15.3362
㢭	-15.3362
䅩	-15.3362
䝗	-15.3362
紿	-15.3362
榪	-15.3363
梄	-15.3364
枖	-15.3365
曮	-15.3366
旪	-15.3367
攽	-15.3368
搭	-15.3369
揑	-15.337
㒃	-15.337
㙁	-15.337
㨄	-15.337
䁹	-15.337
䓷	-15.337
䗪	-15.337
䗱	-15.337
嚶	-15.337
揅	-15.3371
挲	-15.3372
扴	-15.3373
恎	-15.3374
弞	-15.3375
嶰	-15.3376
峽	-15.3377
峗	-15.3378
㚇	-15.3378
㝉	-15.3378
㢠	-15.3378
㦶	-15.3378
㧍	-15.3378
㭊	-15.3378
㭼	-15.3378
䒷	-15.3378
䓇	-15.3378
䖿	-15.3378
屦	-15.3379
壐	-15.338
垜	-15.3381
坭	-15.3382
噱	-15.3383
唸	-15.3384
哱	-15.3385
凭	-15.3386
㕞	-15.3386
㫰	-15.3386
䇾	-15.3386
䒝	-15.3386
䔚	-15.3386
䘍	-15.3386
傹	-15.3387
傰	-15.3388
倆	-15.3389
佘	-15.339
佒	-15.3391
仌	-15.3392
乿	-15.3393
乇	-15.3394
◍	-15.3394
㹅	-15.3394
㻫	-15.3394
䇵	-15.3394
䒞	-15.3394
䖻	-15.3394
䗐	-15.3394
丩	-15.3395
业	-15.3396
䩦	-15.3397
䧦	-15.3398
䦙	-15.3399
䥨	-15.34
䗍	-15.3401
䖥	-15.3402
㒋	-15.3402
䂮	-15.3402
䋛	-15.3402
䖹	-15.3402
䗚	-15.3402
䕻	-15.3403
䌕	-15.3404
䈼	-15.3405
䅳	-15.3406
䀹	-15.3407
㿒	-15.3408
㴻	-15.3409
㫤	-15.341
㘈	-15.341
㪿	-15.341
㱜	-15.341
㹄	-15.341
㺉	-15.341
䀕	-15.341
䝡	-15.341
㨷	-15.3411
㦣	-15.3412
㦁	-15.3413
㥿	-15.3414
㝜	-15.3415
㝅	-15.3416
㙐	-15.3417
㖩	-15.3418
㕟	-15.3418
㗛	-15.3418
㘁	-15.3418
㱕	-15.3418
䕣	-15.3418
㒉	-15.3419
㐳	-15.342
𠺕	-15.3421
鸘	-15.3422
鶺	-15.3423
髕	-15.3424
顦	-15.3425
顇	-15.3426
㹖	-15.3426
㺜	-15.3426
㼅	-15.3426
䅻	-15.3426
踘	-15.3427
趑	-15.3428
藼	-15.3429
藂	-15.343
萐	-15.3431
絁	-15.3432
粧	-15.3433
筯	-15.3434
㒆	-15.3434
㮏	-15.3434
㮦	-15.3434
㷅	-15.3434
䕴	-15.3434
筞	-15.3435
穈	-15.3436
眱	-15.3437
盄	-15.3438
獎	-15.3439
燸	-15.344
毬	-15.3441
樤	-15.3442
㲣	-15.3442
㼹	-15.3442
椯	-15.3443
梪	-15.3444
斳	-15.3445
撍	-15.3446
捇	-15.3447
愵	-15.3448
屇	-15.3449
嫙	-15.345
䘒	-15.345
夒	-15.3451
复	-15.3452
夊	-15.3453
呭	-15.3454
䷨	-15.3455
䷗	-15.3456
䷒	-15.3457
䗂	-15.3458
㸣	-15.3459
㸮	-15.3459
䍽	-15.3459
䓞	-15.3459
䘽	-15.3459
䂊	-15.3459
㶣	-15.346
㔾	-15.3461
􁉁	-15.3462
鬩	-15.3463
驃	-15.3464
萆	-15.3465
翶	-15.3466
㓖	-15.3467
㙾	-15.3467
䀋	-15.3467
翂	-15.3467
羵	-15.3468
罡	-15.3469
綧	-15.347
紜	-15.3471
糕	-15.3472
砅	-15.3473
睪	-15.3474
皪	-15.3475
䖅	-15.3475
璃	-15.3476
玪	-15.3477
滾	-15.3478
浘	-15.3479
泑	-15.348
殬	-15.3481
昫	-15.3482
撒	-15.3483
䄡	-15.3483
憢	-15.3484
忯	-15.3485
娌	-15.3486
囗	-15.3487
嚆	-15.3488
冂	-15.3489
亯	-15.349
䬴	-15.3491
㮗	-15.3491
䣱	-15.3492
䢋	-15.3493
䜅	-15.3494
㯉	-15.3495
㤄	-15.3496
㝌	-15.3497
㐆	-15.3498
陕	-15.3499
䇐	-15.3499
辢	-15.35
衻	-15.3501
脗	-15.3502
聟	-15.3503
氤	-15.3504
榕	-15.3505
暅	-15.3506
撋	-15.3507
㣉	-15.3507
摺	-15.3508
慠	-15.3509
妲	-15.351
咠	-15.3511
䈉	-15.3512
㯤	-15.3513
鷔	-15.3514
馰	-15.3515
㓝	-15.3515
䎹	-15.3515
軦	-15.3516
螵	-15.3517
艁	-15.3518
珓	-15.3519
狒	-15.352
橮	-15.3521
夰	-15.3522
s	-15.3523
㹀	-15.3523
􁊋	-15.3524
郪	-15.3525
菖	-15.3526
籊	-15.3527
皕	-15.3528
焯	-15.3529
愜	-15.353
寪	-15.3531
婭	-15.3532
鶼	-15.3533
靨	-15.3534
緱	-15.3535
碌	-15.3536
疌	-15.3537
璀	-15.3538
琶	-15.3539
琵	-15.354
珕	-15.3541
殥	-15.3542
枤	-15.3543
昺	-15.3544
儿	-15.3545
膀	-15.3546
翨	-15.3547
䖦	-15.3547
罒	-15.3548
緰	-15.3549
卩	-15.355
鄜	-15.3551
覀	-15.3552
漈	-15.3553
溞	-15.3554
垞	-15.3555
彿	-15.3556
冫	-15.3557
侖	-15.3558
瞶	-15.3559
曄	-15.356
悾	-15.3561
宸	-15.3562
髴	-15.3563
蜍	-15.3564
胱	-15.3565
濓	-15.3566
熛	-15.3567
洶	-15.3568
恙	-15.3569
澔	-15.357
諓	-15.3571
䓌	-15.3572
萟	-15.3572
