<unk>	0
<s>	0
</s>	0
/	-3.55269
(	-4.04054
之	-4.05901
)	-4.14505
)(	-4.33041
也	-4.74485
以	-4.87406
為	-4.90359
曰	-4.94504
而	-4.97121
有	-5.12014
於	-5.14086
其	-5.21056
不	-5.24851
人	-5.49169
王	-5.62375
者	-5.65635
無	-5.66671
見	-5.75833
子	-5.8165
大	-5.85522
中	-5.8808
一	-5.88914
上	-5.93749
言	-5.94027
山	-6.01363
在	-6.02361
天	-6.05206
則	-6.05745
與	-6.07397
自	-6.11128
云	-6.15027
三	-6.15932
公	-6.16673
時	-6.16747
至	-6.18197
此	-6.18259
如	-6.19046
行	-6.2103
所	-6.21673
生	-6.2189
傳	-6.22555
文	-6.25672
書	-6.26212
故	-6.26418
漢	-6.2722
水	-6.29167
下	-6.32282
乃	-6.3251
長	-6.33585
作	-6.34635
日	-6.34707
是	-6.3794
名	-6.40283
風	-6.40431
▁	-6.41227
帝	-6.42303
道	-6.43182
國	-6.43561
城	-6.44484
相	-6.46141
出	-6.46658
謂	-6.46935
明	-6.47658
事	-6.49881
矣	-6.51059
南	-6.51307
周	-6.52198
得	-6.52958
又	-6.53063
成	-6.5342
五	-6.53932
若	-6.53942
二	-6.54017
君	-6.55365
方	-6.57371
心	-6.57668
東	-6.58968
兮	-6.59711
西	-6.60398
及	-6.60557
臣	-6.62246
世	-6.62313
將	-6.62331
後	-6.62984
使	-6.63037
陽	-6.6469
非	-6.65417
我	-6.65489
詩	-6.65668
入	-6.65757
平	-6.65814
雲	-6.66292
何	-6.66586
皆	-6.67723
同	-6.70077
神	-6.71126
年	-6.72117
今	-6.72708
馬	-6.72744
從	-6.73406
未	-6.73735
石	-6.73764
地	-6.73814
乎	-6.73897
四	-6.74954
當	-6.75056
知	-6.75681
復	-6.76082
命	-6.763
令	-6.769
魏	-6.76923
思	-6.77149
門	-6.77203
金	-6.77403
安	-6.77955
九	-6.79372
玉	-6.79511
賦	-6.7987
秦	-6.80065
北	-6.80129
遂	-6.80286
齊	-6.81079
欲	-6.81093
氏	-6.81137
歸	-6.81767
華	-6.82819
可	-6.82922
多	-6.84105
梁	-6.84394
州	-6.86229
亦	-6.86675
郡	-6.86734
龍	-6.86847
樂	-6.87841
流	-6.88904
然	-6.89587
朝	-6.89703
居	-6.90117
用	-6.90149
徳	-6.9018
焉	-6.90411
爲	-6.90511
晉	-6.90559
既	-6.90822
惟	-6.91093
已	-6.91449
陵	-6.91483
和	-6.91599
經	-6.92803
前	-6.93837
去	-6.94268
武	-6.94677
始	-6.94843
光	-6.95303
侯	-6.95515
封	-6.95921
禮	-6.96618
靈	-6.96724
髙	-6.96789
六	-6.96789
能	-6.9715
本	-6.97269
于	-6.97314
正	-6.97718
常	-6.9775
即	-6.98128
望	-6.98195
清	-6.98293
聞	-6.98671
家	-6.98899
士	-6.98958
楚	-6.99128
重	-7.01217
聲	-7.01632
景	-7.02024
飛	-7.0206
兵	-7.02145
河	-7.02807
月	-7.03457
字	-7.03569
高	-7.03744
陳	-7.03914
逺	-7.04563
來	-7.04839
車	-7.0519
立	-7.05373
官	-7.05982
先	-7.06161
小	-7.06252
縣	-7.06727
因	-7.07208
還	-7.07438
白	-7.07825
志	-7.08654
軍	-7.08718
身	-7.09264
通	-7.10345
師	-7.10436
信	-7.10503
起	-7.1125
稱	-7.11596
諸	-7.11681
春	-7.12128
宫	-7.12181
義	-7.12183
氣	-7.12531
江	-7.12573
物	-7.14064
百	-7.14345
或	-7.14752
樹	-7.15077
猶	-7.15825
歌	-7.16105
死	-7.16404
張	-7.1731
異	-7.17697
實	-7.18353
七	-7.18434
表	-7.18479
元	-7.18753
夏	-7.19593
注	-7.20055
情	-7.20247
青	-7.20563
德	-7.22897
等	-7.23128
法	-7.23506
女	-7.23762
應	-7.23785
終	-7.24622
雖	-7.2511
主	-7.25161
太	-7.26174
分	-7.26849
秋	-7.26973
都	-7.27281
民	-7.27826
木	-7.28055
觀	-7.28173
發	-7.28286
八	-7.28292
音	-7.28554
初	-7.28575
林	-7.28934
必	-7.29052
夜	-7.29317
左傳	-7.29472
皇	-7.29777
吾	-7.30806
集	-7.31209
臨	-7.3126
舊	-7.31288
永	-7.31368
謂之	-7.3152
夫	-7.31857
節	-7.31901
服	-7.33041
善	-7.33221
黄	-7.33669
合	-7.33824
首	-7.3431
星	-7.3436
外	-7.34374
萬	-7.34785
難	-7.35103
食	-7.35199
酒	-7.35682
定	-7.37638
路	-7.38088
論	-7.38344
離	-7.38569
辭	-7.3884
開	-7.38869
問	-7.39397
絶	-7.39607
獨	-7.39664
漢書	-7.39827
意	-7.39977
哀	-7.40082
内	-7.40168
伯	-7.40427
親	-7.41118
取	-7.41237
好	-7.41467
舉	-7.41547
載	-7.41734
廣	-7.42049
悲	-7.42352
父	-7.42536
别	-7.42579
盡	-7.42705
𤣥	-7.43186
深	-7.43612
宗	-7.43632
衣	-7.43713
過	-7.44135
色	-7.44283
鳥	-7.44646
求	-7.45025
圖	-7.45201
衆	-7.45485
少	-7.45624
遊	-7.45645
斯	-7.4565
置	-7.4591
燕	-7.46015
連	-7.46197
鳴	-7.46237
象	-7.46608
登	-7.46973
數	-7.47259
興	-7.47401
處	-7.47521
趙	-7.48281
反	-7.49207
賢	-7.49269
▁(	-7.49763
位	-7.49957
受	-7.50204
臺	-7.50264
學	-7.50554
一作	-7.50626
草	-7.51015
乗	-7.51173
測曰	-7.51982
彼	-7.51999
豈	-7.52446
孝	-7.52659
空	-7.5366
巳	-7.54369
守	-7.54465
交	-7.54519
天下	-7.54545
曲	-7.55188
代	-7.55306
章	-7.55902
形	-7.55989
降	-7.56018
榮	-7.56197
哉	-7.56209
按	-7.56244
田	-7.56348
新	-7.5639
火	-7.5657
以為	-7.56582
古	-7.5688
詔	-7.569
十	-7.57541
屬	-7.57582
土	-7.57798
奉	-7.5791
兩	-7.58034
劉	-7.58114
易	-7.58405
餘	-7.58413
傷	-7.58682
鄭	-7.58734
功	-7.58826
海	-7.59192
遷	-7.59316
政	-7.59772
極	-7.59849
止	-7.59897
祖	-7.59934
懐	-7.60061
亡	-7.60877
孫	-7.60923
謝	-7.60961
動	-7.61407
足	-7.62056
老	-7.6211
更	-7.62478
且	-7.62821
昔	-7.62939
遺	-7.63251
蘭	-7.64247
吳	-7.6428
耳	-7.64474
將軍	-7.64972
容	-7.65144
室	-7.65729
並	-7.65806
丹	-7.66016
客	-7.66114
聖	-7.66259
亂	-7.66411
寒	-7.66464
不能	-7.66911
詳	-7.67015
直	-7.67349
司	-7.67354
治	-7.67516
尚	-7.68349
魚	-7.68379
㑹	-7.68657
美	-7.68683
戰	-7.6869
傳曰	-7.68737
隂	-7.68824
度	-7.68929
紀	-7.68949
卒	-7.6975
感	-7.69887
千	-7.70278
建	-7.70396
體	-7.70652
宋	-7.7071
進	-7.70949
引	-7.70981
解	-7.71165
變	-7.71186
懷	-7.71339
拜	-7.7162
不可	-7.71785
左	-7.7205
昭	-7.72266
莫	-7.72294
史	-7.72407
威	-7.72486
失	-7.72578
請	-7.72727
貴	-7.72769
宜	-7.74205
里	-7.74727
盛	-7.74729
母	-7.74809
號	-7.74899
語	-7.75446
落	-7.75474
顧	-7.75535
竹	-7.75558
承	-7.75659
典	-7.76062
良	-7.76227
幽	-7.76261
願	-7.76273
雨	-7.76965
授	-7.77832
獻	-7.7814
尚書	-7.78303
才	-7.78755
葉	-7.78945
共	-7.79148
隨	-7.79342
結	-7.7935
留	-7.79431
丘	-7.79551
朱	-7.79832
凡	-7.7992
對	-7.80014
羽	-7.80211
遣	-7.80406
池	-7.80603
野	-7.80917
化	-7.81074
爾	-7.81129
仁	-7.81236
微	-7.8168
武帝	-7.81745
泉	-7.81884
佛	-7.82
射	-7.82327
赤	-7.82439
俱	-7.82471
天子	-7.82737
坐	-7.82866
精	-7.82892
谷	-7.82977
理	-7.83008
愛	-7.8308
窮	-7.83144
甚	-7.83676
浮	-7.83741
間	-7.8375
記	-7.83895
邑	-7.84205
闗	-7.84679
垂	-7.8469
魯	-7.84708
賜	-7.8485
香	-7.8511
敬	-7.85315
疾	-7.85513
似	-7.85542
儀	-7.85638
伐	-7.8582
後漢	-7.8587
徒	-7.86969
虎	-7.87098
著	-7.87166
揚	-7.87169
宣	-7.87458
夷	-7.87471
花	-7.87553
序	-7.87986
被	-7.87989
素	-7.8799
祭	-7.88439
羣	-7.88822
陸	-7.89047
越	-7.89208
比	-7.89304
憂	-7.89309
銘	-7.89555
固	-7.89684
右	-7.89897
庭	-7.90357
疑	-7.90376
而不	-7.90832
殿	-7.91354
執	-7.91466
叔	-7.91508
加	-7.91953
伏	-7.92045
昌	-7.92224
仲	-7.92299
府	-7.92681
舞	-7.93333
咸	-7.93748
勝	-7.93755
於是	-7.93769
照	-7.93866
次	-7.93884
改	-7.93944
廟	-7.94213
寧	-7.94313
李	-7.94595
濟	-7.9466
原	-7.94908
珠	-7.9498
季	-7.95157
碑	-7.95481
致	-7.95505
藏	-7.95882
由	-7.9599
頭	-7.96018
殷	-7.96118
輕	-7.96169
衡	-7.9617
克	-7.96377
俗	-7.96431
卿	-7.96567
視	-7.97049
篇	-7.97143
制	-7.97329
君子	-7.9733
旣	-7.97468
轉	-7.97516
期	-7.97687
堂	-7.97999
澤	-7.98066
嘉	-7.98156
史記	-7.98353
往	-7.9841
真	-7.98518
送	-7.98894
任	-7.98912
州刺史	-7.99049
營	-7.99254
羅	-7.99307
嵗	-7.99331
性	-7.99481
列	-7.99496
是以	-7.9952
便	-7.99843
洛	-7.99849
利	-7.99887
延	-8.00178
識	-8.00423
近	-8.00493
蜀	-8.00572
移	-8.00576
雄	-8.01021
駕	-8.01319
力	-8.0132
崇	-8.01327
韓	-8.0167
闕	-8.01912
甲	-8.02058
孤	-8.02105
征	-8.02161
目	-8.02224
江陵	-8.02265
歲	-8.02467
謀	-8.02511
存	-8.02526
恩	-8.02549
琴	-8.02718
人也	-8.03245
告	-8.03277
敗	-8.03471
説	-8.03611
川	-8.03626
祀	-8.0377
戎	-8.04035
教	-8.04188
虞	-8.04237
衛	-8.04874
御	-8.04954
驚	-8.04988
諸侯	-8.05192
積	-8.05363
奏	-8.05493
勞	-8.0552
奔	-8.05702
尊	-8.06011
所以	-8.06089
散	-8.06211
仰	-8.06255
園	-8.06396
口	-8.06727
兹	-8.06953
元年	-8.06977
含	-8.07266
鼎	-8.07732
報	-8.07785
薄	-8.0797
后	-8.08046
弟	-8.08192
念	-8.08233
手	-8.08236
姓	-8.08523
迎	-8.08535
關	-8.08593
久	-8.08795
遇	-8.09078
各	-8.09107
器	-8.09168
向	-8.09212
波	-8.09554
業	-8.09771
滅	-8.0983
飲	-8.09944
横	-8.10223
塞	-8.10356
蕭	-8.10489
貞	-8.10583
備	-8.10637
冠	-8.10726
雙	-8.10888
露	-8.1148
烏	-8.11628
休	-8.11675
夫人	-8.11847
養	-8.11938
類	-8.12049
嘗	-8.12105
息	-8.12193
滿	-8.12215
尋	-8.1245
忽	-8.125
誰	-8.12667
但	-8.12755
忠	-8.13094
太守	-8.13129
三年	-8.13623
許	-8.13784
楊	-8.14199
就	-8.1422
追	-8.14428
質	-8.147
本傳	-8.15113
之所	-8.15114
吏	-8.15205
造	-8.15208
惡	-8.15567
巻	-8.15589
惠	-8.15626
塵	-8.15643
待	-8.15745
芳	-8.15933
葢	-8.16034
負	-8.16059
怨	-8.16082
郊	-8.16261
紫	-8.16265
胡	-8.16335
麗	-8.16342
宅	-8.16373
益	-8.16438
鄉	-8.16589
角	-8.16658
懸	-8.16873
贈	-8.1733
修	-8.17442
具	-8.17763
運	-8.18023
殺	-8.18091
唐	-8.18232
牛	-8.1882
宿	-8.19081
孔	-8.19094
仙	-8.19347
苦	-8.19384
市	-8.19403
喜	-8.19431
鏡	-8.19565
豐	-8.1973
破	-8.19732
機	-8.19751
爵	-8.19987
幸	-8.20004
律	-8.20185
冬	-8.203
余	-8.20862
松	-8.20944
二年	-8.21043
攻	-8.21177
周禮	-8.21187
枝	-8.21456
康	-8.21628
不得	-8.21676
顯	-8.21749
淵	-8.21948
太子	-8.22221
考	-8.22611
英	-8.22635
騎	-8.22658
舟	-8.22669
者也	-8.22689
蒼	-8.22902
啓	-8.22965
来	-8.23262
穆	-8.23415
除	-8.23563
劒	-8.23577
智	-8.23616
翼	-8.24102
指	-8.24178
憲	-8.24347
蓋	-8.249
沙	-8.24968
商	-8.25111
施	-8.25161
靡	-8.25347
布	-8.25353
𢎞	-8.25712
鼓	-8.26002
掌	-8.26006
黃	-8.26044
殊	-8.26055
聽	-8.26312
族	-8.26325
部	-8.26451
率	-8.26491
鴻	-8.26949
亭	-8.27132
鎮	-8.27516
達	-8.27596
婦	-8.27697
司馬	-8.27847
禹	-8.27851
詠	-8.27863
斷	-8.28187
誠	-8.28241
升	-8.28798
呉	-8.28822
馳	-8.28859
職	-8.28954
荆	-8.28983
是也	-8.29089
種	-8.29159
寳	-8.29432
寶	-8.2944
采	-8.29599
桑	-8.30017
帶	-8.3015
病	-8.30412
端	-8.30449
太祖	-8.31057
福	-8.31088
振	-8.31114
兼	-8.31359
暮	-8.31364
畫	-8.31413
管	-8.31631
雪	-8.31671
賊	-8.31786
說	-8.31966
折	-8.32044
房	-8.32056
長安	-8.32292
徐	-8.32746
沉	-8.32753
顔	-8.32958
虚	-8.33074
兄	-8.33715
慶	-8.33862
盈	-8.34058
沈	-8.34076
京	-8.34128
歡	-8.34292
逢	-8.34364
曹	-8.34434
忘	-8.34539
博	-8.34613
肅	-8.34614
雅	-8.34671
千里	-8.35169
罪	-8.35388
釋	-8.35672
竒	-8.35683
申	-8.35684
後漢書	-8.35695
退	-8.35734
妻	-8.35869
汝	-8.36278
讓	-8.36325
持	-8.36329
依	-8.36401
獲	-8.36497
隠	-8.36716
夕	-8.36906
鶴	-8.36929
塗	-8.37074
接	-8.37103
又曰	-8.37246
晋	-8.37277
彌	-8.3742
召	-8.37443
孟	-8.3755
南史	-8.3765
推	-8.37726
龜	-8.37768
棄	-8.37804
階	-8.38118
樓	-8.38757
危	-8.3897
喪	-8.39477
厯	-8.39496
嚴	-8.3982
要	-8.39878
震	-8.39906
隆	-8.40206
恒	-8.40216
恭	-8.40229
納	-8.40298
杜	-8.40322
漢書曰	-8.4046
玄	-8.40587
抱	-8.40601
䇿	-8.40614
歎	-8.40677
鳳	-8.40937
襲	-8.40961
履	-8.41299
假	-8.41684
圍	-8.41698
春秋	-8.41959
切	-8.42019
順	-8.42024
傾	-8.42031
總	-8.42033
寄	-8.42049
之後	-8.42262
郭	-8.42343
烈	-8.4241
面	-8.42985
雜	-8.43002
頌	-8.43046
璧	-8.4308
邊	-8.43091
影	-8.43418
辟	-8.4348
設	-8.43488
庶	-8.43488
每	-8.43521
據	-8.43826
大夫	-8.4383
軒	-8.43831
徃	-8.43868
雷	-8.43886
妙	-8.44188
辰	-8.44399
泰	-8.4446
所謂	-8.44594
討	-8.44924
投	-8.44979
懼	-8.4531
飾	-8.45362
皇帝	-8.45445
天地	-8.45496
友	-8.45636
至於	-8.45809
井	-8.46103
尺	-8.46315
句	-8.46353
疏	-8.46636
虛	-8.46777
符	-8.46781
户	-8.46788
覆	-8.4682
予	-8.46876
厥	-8.46894
墓	-8.47188
仕	-8.47216
聚	-8.4725
繁	-8.47289
權	-8.47571
嗣	-8.4758
旦	-8.47708
元帝	-8.4782
議	-8.47859
廢	-8.48073
莊	-8.4816
愁	-8.48745
違	-8.48798
半	-8.49151
勤	-8.49158
操	-8.49166
干	-8.49409
末	-8.49413
牧	-8.49539
伊	-8.49553
步	-8.49586
柱	-8.49655
大將軍	-8.49845
寵	-8.49925
荒	-8.49969
見哀江	-8.50132
領	-8.50246
須	-8.50314
䝉	-8.50323
南賦	-8.50574
融	-8.50764
隱	-8.50999
根	-8.51101
歴	-8.51495
并	-8.51736
維	-8.51883
刑	-8.5189
陰	-8.52251
衰	-8.52272
銅	-8.52295
逐	-8.52313
簡	-8.52358
刻	-8.5255
詩云	-8.52574
羊	-8.52682
爰	-8.52721
桂	-8.5285
敢	-8.53032
計	-8.5306
閣	-8.53083
走	-8.53102
夢	-8.53294
阿	-8.53403
果	-8.53535
舍	-8.53796
洛陽	-8.53797
畢	-8.53914
書曰	-8.5405
晉書	-8.54192
甘	-8.54265
徴	-8.54282
増	-8.54287
招	-8.54316
湯	-8.54345
郎	-8.54501
可以	-8.54582
吉	-8.54798
或謂之	-8.54946
迹	-8.55091
恐	-8.55126
録	-8.5518
将	-8.55332
讀	-8.55338
輪	-8.55512
厚	-8.55522
壽	-8.55915
歩	-8.5597
茂	-8.56315
會	-8.56375
注云	-8.56709
毛	-8.56737
游	-8.56742
嗟	-8.57134
寜	-8.57213
鍾	-8.57302
全	-8.57638
基	-8.57661
絲	-8.57697
苑	-8.57953
參	-8.57955
祥	-8.58018
避	-8.58067
習	-8.58106
船	-8.58452
輔	-8.58729
慕	-8.5888
岸	-8.58885
秀	-8.58908
侍	-8.58934
險	-8.58971
禽	-8.58991
答	-8.59078
徙	-8.59207
辛	-8.59257
配	-8.59294
逆	-8.59411
日月	-8.5955
恨	-8.598
霜	-8.59958
崩	-8.6004
撫	-8.60121
葬	-8.60121
儉	-8.60136
祠	-8.60244
鸞	-8.60244
禍	-8.60401
傅	-8.60465
兒	-8.60569
旗	-8.60614
姬	-8.60858
詩曰	-8.60967
賞	-8.6104
鳯	-8.61147
源	-8.6145
累	-8.61549
統	-8.61924
附	-8.62006
朔	-8.62162
私	-8.62217
二十	-8.62217
乘	-8.62383
舒	-8.62451
桓	-8.62608
或曰	-8.62802
支	-8.62813
弓	-8.62847
屋	-8.62858
逝	-8.62872
之間	-8.63
雞	-8.63263
悉	-8.63289
賔	-8.63308
藥	-8.63311
雍	-8.63422
范	-8.63776
害	-8.63953
逸	-8.64126
宴	-8.64175
侯景	-8.64181
翠	-8.64191
庸	-8.64239
斗	-8.64497
侍中	-8.64503
援	-8.64547
瑞	-8.64625
泣	-8.64662
絃	-8.64683
没	-8.65101
慮	-8.65109
超	-8.65118
弱	-8.65371
舜	-8.65484
煙	-8.65506
想	-8.6555
社	-8.65561
短	-8.65564
錢	-8.6561
文帝	-8.65615
周書	-8.65675
儒	-8.65933
堯	-8.6596
津	-8.66323
披	-8.66453
燭	-8.66462
第	-8.6648
繼	-8.66488
擬	-8.66611
仍	-8.66923
陣	-8.66928
銀	-8.67374
訓	-8.67397
響	-8.67425
館	-8.67865
收	-8.67878
策	-8.67878
省	-8.67953
不知	-8.6811
靜	-8.68292
晨	-8.68302
班	-8.68351
勲	-8.6836
吹	-8.68457
傳云	-8.688
索	-8.68806
條	-8.68812
厲	-8.68812
適	-8.68827
委	-8.68844
患	-8.68853
故云	-8.69179
屈	-8.69241
瞻	-8.6926
早	-8.69273
藻	-8.69364
黄帝	-8.69397
記曰	-8.69489
宇	-8.6953
湘	-8.69537
霸	-8.69669
鬱	-8.69766
淮	-8.69903
十二	-8.69935
輿	-8.70156
霞	-8.70158
温	-8.70222
校	-8.70231
擊	-8.70275
席	-8.70287
密	-8.70296
趙王	-8.7048
界	-8.70503
再	-8.70665
笑	-8.70729
銜	-8.7073
充	-8.70744
怒	-8.7076
魂	-8.71126
工	-8.71182
戸	-8.71224
陶	-8.71604
佐	-8.71636
壯	-8.71637
栁	-8.71648
帳	-8.71691
資	-8.71697
幾	-8.71714
廬	-8.71717
左右	-8.71775
禪	-8.71914
竟	-8.72128
調	-8.7222
亮	-8.72608
候	-8.72653
保	-8.72661
誅	-8.72723
鐘	-8.73142
遠	-8.73213
岳	-8.73224
耶	-8.73231
徵	-8.73423
特	-8.73534
約	-8.73629
戒	-8.73704
匈奴	-8.74179
史記曰	-8.74222
築	-8.74515
脩	-8.746
廻	-8.74645
盤	-8.74667
慙	-8.75117
旅	-8.75133
免	-8.75173
後漢書曰	-8.75583
籍	-8.75618
允	-8.75656
邪	-8.75714
雉	-8.75716
寸	-8.75939
孔子	-8.76067
五年	-8.7611
宮	-8.76216
斬	-8.76644
獸	-8.77144
託	-8.77199
勢	-8.77218
曜	-8.77263
裔	-8.77667
盧	-8.7767
呼	-8.77723
堅	-8.77727
術	-8.77945
橋	-8.77994
庾	-8.78005
丈	-8.78086
枯	-8.78214
遭	-8.78271
洪	-8.78705
吴	-8.78717
回	-8.78722
聖人	-8.79009
驅	-8.79024
畧	-8.79107
蔡	-8.79153
禮記	-8.7939
齒	-8.79811
巢	-8.79814
富	-8.80127
映	-8.80275
細	-8.80296
覽	-8.80303
翔	-8.80375
察	-8.80382
左氏傳曰	-8.80448
先生	-8.80507
農	-8.80738
丁	-8.80806
量	-8.80835
愚	-8.80857
鼔	-8.80905
寢	-8.80906
凌	-8.8122
又云	-8.81279
丗	-8.8128
蕩	-8.81353
夀	-8.81409
司徒	-8.81439
緑	-8.81452
師古曰	-8.81503
髙祖	-8.81763
僧	-8.81827
蒙	-8.8189
竊	-8.81934
帷	-8.81936
略	-8.81973
血	-8.82018
喻	-8.82275
述	-8.82479
衞	-8.82482
背	-8.82492
掩	-8.82496
純	-8.82522
雁	-8.82856
乆	-8.82945
賀	-8.82976
到	-8.83004
卷	-8.83028
畏	-8.83035
都督	-8.83176
南陽	-8.83225
賈	-8.83499
急	-8.83582
匪	-8.83602
遐	-8.83646
洲	-8.84065
軌	-8.8408
境	-8.8409
渚	-8.8416
三月	-8.84595
辨	-8.84602
錦	-8.84617
盟	-8.84657
放	-8.8467
薦	-8.84674
扶	-8.85022
賦曰	-8.85087
雀	-8.85114
紛	-8.85205
盖	-8.85218
荀	-8.85227
渠	-8.85253
逰	-8.85267
選	-8.85545
慈	-8.85694
渭	-8.85741
獵	-8.85788
躬	-8.85813
漸	-8.86292
屯	-8.86343
唯	-8.86361
遵	-8.86439
詞	-8.86874
荷	-8.86941
吕	-8.86957
穀	-8.86996
兄弟	-8.87011
中有	-8.87115
蘇	-8.87171
綺	-8.87389
壁	-8.87416
而無	-8.87435
蒲	-8.87441
杖	-8.87478
赴	-8.87478
側	-8.87483
論語	-8.87505
穴	-8.87531
邦	-8.87664
曰吾	-8.87697
撃	-8.87999
電	-8.88038
某	-8.88068
無所	-8.88074
示	-8.88154
四年	-8.88324
崔	-8.88573
巖	-8.88601
珍	-8.88615
談	-8.88638
司空	-8.888
講	-8.89128
注曰	-8.89164
卜	-8.89226
聴	-8.8927
童	-8.8948
臣聞	-8.89487
冀	-8.89589
子曰	-8.89697
救	-8.8978
迴	-8.89786
歳	-8.89795
瓊	-8.89811
拔	-8.89814
爭	-8.90334
泥	-8.90361
太尉	-8.90361
禁	-8.90385
介	-8.90408
刀	-8.90991
人之	-8.9142
啟	-8.91479
品	-8.915
防	-8.9152
植	-8.91526
嶽	-8.91544
芝	-8.91545
昏	-8.91568
攸	-8.91621
豫	-8.91922
紅	-8.92115
淚	-8.92137
矢	-8.9215
增	-8.92175
潛	-8.9219
巴	-8.92504
萬物	-8.92598
冥	-8.92833
頓	-8.93228
宰	-8.9326
浦	-8.93275
繫	-8.93276
哭	-8.93333
骨	-8.93335
占	-8.93338
皮	-8.93354
狄	-8.93408
不敢	-8.93524
莫不	-8.9361
沒	-8.93894
採	-8.93923
尸	-8.93954
妾	-8.93977
悼	-8.94006
子山	-8.94289
戚	-8.94405
鬼	-8.9443
翻	-8.94466
柳	-8.94502
桐	-8.94527
馮	-8.94535
覺	-8.94548
阻	-8.94574
㣲	-8.94594
於此	-8.94877
燈	-8.95094
鹿	-8.95095
偃	-8.95176
後周	-8.95242
志曰	-8.95365
聘	-8.9569
壇	-8.95694
敦	-8.95704
圓	-8.95761
耀	-8.9577
輝	-8.95802
扇	-8.95817
倫	-8.95824
故曰	-8.96083
狀	-8.96222
刺	-8.96322
昆	-8.96344
勒	-8.96388
燒	-8.96412
乾	-8.96437
肉	-8.96457
旁	-8.9652
帥	-8.96707
寺	-8.96716
曾	-8.96834
文王	-8.96955
嶺	-8.96961
洞	-8.9699
諱	-8.97019
吟	-8.9704
弗	-8.9755
式	-8.97621
侵	-8.97653
規	-8.97727
寡	-8.97852
名曰	-8.97926
渡	-8.97948
疑作	-8.98113
聊	-8.98131
禄	-8.98183
曠	-8.98224
鄴	-8.98227
績	-8.98287
偏	-8.98301
拂	-8.98323
他	-8.98325
佩	-8.98331
如此	-8.98408
峻	-8.98901
跡	-8.98913
熊	-8.98918
閑	-8.98957
甫	-8.99002
𦵏	-8.99176
毎	-8.9958
味	-8.99605
光武	-8.99797
氷	-9.00163
偉	-9.00226
盜	-9.00254
秉	-9.00262
荆州	-9.00475
莊子	-9.00477
蓮	-9.00632
尾	-9.00864
輒	-9.00866
裁	-9.00874
三十	-9.01026
鄰	-9.01476
悦	-9.01482
凶	-9.01507
差	-9.01546
逹	-9.01561
勿	-9.01584
之事	-9.01606
一名	-9.01663
隴	-9.01743
寛	-9.02174
騰	-9.02195
本傳云	-9.02207
藩	-9.02207
辱	-9.02213
贊	-9.02547
炎	-9.02635
一首	-9.02703
貧	-9.02764
霧	-9.02768
詣	-9.02841
姑	-9.02867
旋	-9.02871
陸機	-9.02907
衍	-9.02913
希	-9.03521
鱗	-9.03524
劍	-9.03553
祗	-9.04101
革	-9.04142
䘮	-9.04168
愈	-9.04208
遥	-9.04578
欣	-9.04805
惜	-9.0482
膺	-9.04874
蛇	-9.04879
孰	-9.04932
公子	-9.04945
不足	-9.05257
江南	-9.05392
桃	-9.0542
耕	-9.05461
災	-9.0555
卑	-9.05563
淑	-9.05584
明帝	-9.05611
奮	-9.05647
臯	-9.06195
誕	-9.06197
凝	-9.06216
蔽	-9.06226
或問	-9.06232
縱	-9.0624
踰	-9.06242
白馬	-9.06391
域	-9.06765
織	-9.06828
男	-9.06851
務	-9.06871
舎	-9.0689
眉	-9.06896
雕	-9.06922
淫	-9.06938
宻	-9.0697
忌	-9.07004
陷	-9.07532
秩	-9.07554
育	-9.07596
薨	-9.07639
篤	-9.07687
東海	-9.077
四方	-9.08066
十五	-9.08247
筆	-9.08289
痛	-9.0829
鐵	-9.08295
財	-9.08309
罷	-9.08326
茅	-9.08346
曽	-9.08473
武王	-9.08886
兆	-9.08888
屢	-9.08993
頃	-9.08994
旌	-9.08997
虜	-9.08998
墨	-9.09058
牀	-9.09062
然後	-9.09424
射賦	-9.09427
墳	-9.09675
并序	-9.09706
預	-9.09707
繞	-9.0971
試	-9.09713
頗	-9.09719
觸	-9.09772
慎	-9.09833
國之	-9.09906
賓	-9.10313
欽	-9.10321
戲	-9.10337
值	-9.10399
爽	-9.10402
袁	-9.10405
譽	-9.10464
勇	-9.1047
嬰	-9.10472
誓	-9.10473
貌	-9.10509
䕶	-9.11034
杯	-9.1106
紹	-9.11127
遲	-9.11167
卧	-9.11177
自然	-9.11294
邈	-9.11872
溪	-9.11873
錯	-9.11887
毁	-9.11997
而後	-9.12044
勸	-9.12129
對曰	-9.12219
柱國	-9.12428
寂	-9.12507
葛	-9.1251
鮮	-9.12539
㫖	-9.1257
戴	-9.12573
協	-9.12582
不見	-9.12586
正月	-9.12595
晏	-9.12616
辯	-9.12628
弦	-9.1263
國公	-9.12849
否	-9.12853
懿	-9.13371
昧	-9.13387
宣帝	-9.13394
皇后	-9.13512
隋書	-9.13668
東南	-9.13673
賦云	-9.13873
題	-9.14044
途	-9.14102
榖	-9.14117
妃	-9.14134
陛下	-9.14172
茍	-9.14178
况	-9.14509
不如	-9.1466
謹	-9.14732
導	-9.14827
徽	-9.14832
柔	-9.14858
西魏	-9.15021
周公	-9.15212
河南	-9.1522
循	-9.15564
揮	-9.15599
僕	-9.16224
西北	-9.16244
岐	-9.16253
蓬	-9.16327
享	-9.16418
黎	-9.1679
見馬	-9.16833
見和	-9.16978
錫	-9.16999
四海	-9.17
最	-9.17081
助	-9.17145
强	-9.17149
肆	-9.17188
京師	-9.17332
賤	-9.17337
湖	-9.17783
乏	-9.17875
漏	-9.17918
矯	-9.17984
魏志	-9.18105
佳	-9.18145
淮南	-9.1818
刺史	-9.18521
競	-9.18619
擁	-9.18652
鄧	-9.18671
以下	-9.18672
箭	-9.18674
厭	-9.18678
公孫	-9.18868
百里	-9.1896
監	-9.19172
六年	-9.19314
補	-9.19322
醉	-9.19378
乞	-9.19385
徑	-9.19396
繩	-9.19398
均	-9.19445
淵明	-9.19702
萬里	-9.19894
朗	-9.20175
珪	-9.20195
滋	-9.20195
貫	-9.20222
停	-9.20228
鑿	-9.20244
灰	-9.2025
穿	-9.20264
也又	-9.20727
何以	-9.20828
二首	-9.20849
丞相	-9.20919
牙	-9.20996
静	-9.20996
祚	-9.21065
單于	-9.2114
四十	-9.21572
謙	-9.21803
優	-9.21804
幹	-9.21824
貢	-9.21986
四時	-9.22021
賛	-9.22545
摧	-9.22641
犯	-9.22691
鄭注云	-9.22853
契	-9.23356
群	-9.23367
恥	-9.234
殘	-9.23401
澄	-9.23402
誤	-9.23432
夭	-9.23459
巧	-9.23475
寇	-9.24201
激	-9.24278
腹	-9.24295
調曲	-9.24297
渭生曰	-9.24746
粲	-9.24783
揺	-9.25003
山川	-9.25015
粟	-9.25085
暴	-9.2514
襄	-9.25725
羌	-9.25839
怪	-9.25877
暉	-9.25906
韻	-9.25966
棲	-9.25968
北史	-9.26162
聞之	-9.26635
烟	-9.26642
號曰	-9.26657
鑒	-9.26687
幕	-9.2673
獄	-9.2673
奄	-9.26742
冢	-9.26745
髮	-9.26754
三日	-9.26767
徘徊	-9.26772
暫	-9.26781
冰	-9.26812
淮南子曰	-9.26869
住	-9.27477
幼	-9.27547
督	-9.27574
正義曰	-9.2761
敵	-9.27617
潜	-9.27629
溫	-9.27646
豹	-9.27652
之不	-9.27682
不復	-9.27783
裳	-9.27961
看	-9.28413
決	-9.28424
播	-9.28438
夾	-9.2845
剛	-9.28461
倚	-9.28466
胥	-9.28477
嘆	-9.28589
之言	-9.28593
上有	-9.2867
譬	-9.29012
單	-9.29136
哲	-9.29179
眷	-9.29261
提	-9.29268
續	-9.29268
韋	-9.29277
豪	-9.29286
借	-9.2932
環	-9.29325
困	-9.29336
樊	-9.29338
隔	-9.29363
格	-9.29426
誄	-9.30036
慧	-9.301
庚	-9.30135
臧	-9.30155
蟬	-9.30163
竇	-9.30183
膏	-9.30252
之禮	-9.30325
百姓	-9.30468
沛	-9.3081
閒	-9.30887
圭	-9.31048
蟲	-9.31057
麟	-9.31069
帝紀	-9.31083
猿	-9.31089
􁀙	-9.31116
衝	-9.31146
案	-9.31156
本紀	-9.31203
郢	-9.313
褒	-9.31307
爾雅	-9.3133
一人	-9.31797
役	-9.31817
晩	-9.31847
齋	-9.31886
尤	-9.31888
吐	-9.31911
荅	-9.31923
恱	-9.31942
乖	-9.31953
潤	-9.31955
墜	-9.3197
奚	-9.32034
今日	-9.32397
西南	-9.32442
錄	-9.32784
邁	-9.3279
之地	-9.32838
埋	-9.32848
俊	-9.32854
綠	-9.32856
渾	-9.32862
醜	-9.32867
戈	-9.32876
俯	-9.32878
逼	-9.32884
之間謂之	-9.33211
綸	-9.33642
淳	-9.3372
矜	-9.33748
普	-9.3375
毒	-9.33754
晉書曰	-9.33768
傍	-9.33776
割	-9.33884
其所	-9.33891
杜預曰	-9.34191
令㫖荅	-9.34306
十里	-9.34463
稽	-9.34514
枚	-9.34583
麥	-9.34612
愧	-9.34623
躍	-9.34624
那	-9.3463
匹	-9.34633
隅	-9.34647
枕	-9.34661
竭	-9.34665
翰	-9.34708
蠶	-9.34762
仲尼	-9.34882
淮南子	-9.34905
仙人	-9.34942
即位	-9.34982
緯	-9.35212
愍	-9.35485
裏	-9.3549
頻	-9.35502
爾雅曰	-9.35541
材	-9.35561
抗	-9.35572
覩	-9.35591
匡	-9.35595
鄙	-9.35599
小人	-9.35643
高祖	-9.35823
魏文帝	-9.36333
鋒	-9.36464
熟	-9.3648
展	-9.36487
責	-9.36489
誘	-9.36493
鉤	-9.36501
従	-9.36506
弄	-9.36524
冕	-9.36536
閉	-9.36547
子孫	-9.36592
此云	-9.36786
之功	-9.37011
遼	-9.37247
徹	-9.37278
狐	-9.37366
髪	-9.3737
㤗	-9.37373
都賦	-9.37377
恵	-9.37379
虹	-9.37384
際	-9.37384
坂	-9.37389
返	-9.37406
彰	-9.37422
瑶	-9.37444
包	-9.37451
蕃	-9.37461
效	-9.37491
彊	-9.375
太傅	-9.3753
叅	-9.38153
老子	-9.38181
乙	-9.38249
憐	-9.38328
涼	-9.38329
濵	-9.38368
踐	-9.38369
黙	-9.38385
巾	-9.38411
倒	-9.38427
却	-9.38435
倉	-9.39225
黃帝	-9.39238
𬒳	-9.39269
彦	-9.39274
牲	-9.39283
拒	-9.39291
憤	-9.39303
觴	-9.39312
犀	-9.39343
姿	-9.39363
藉	-9.39371
給	-9.39391
妄	-9.39395
字子	-9.39426
滕	-9.39592
五十	-9.39708
網	-9.40051
是為	-9.40135
棺	-9.40181
敷	-9.40218
豆	-9.4024
綏	-9.40249
姜	-9.40305
諫	-9.40314
況	-9.4032
遁	-9.40321
狼	-9.40355
專	-9.40365
都尉	-9.40388
五月	-9.40615
隋	-9.40835
瑟	-9.40981
涕	-9.41139
熙	-9.41174
巨	-9.41208
屠	-9.41245
釣	-9.41271
驗	-9.41279
妖	-9.41292
逃	-9.41293
凉	-9.41828
台	-9.41864
明月	-9.41953
彭	-9.42012
摩	-9.42094
潁川	-9.42161
奪	-9.42193
弔	-9.42229
翟	-9.42232
𢎞農	-9.42247
消	-9.42259
叢	-9.42263
邵	-9.42273
槐	-9.42287
段	-9.42295
中興	-9.42368
午	-9.43114
黒	-9.43129
項	-9.43206
渉	-9.43237
墮	-9.43265
受命	-9.43273
區	-9.43282
韶	-9.433
而已	-9.43312
十年	-9.43396
山之	-9.438
有三	-9.43867
黨	-9.43944
晝	-9.44117
之子	-9.44164
淪	-9.44169
裂	-9.44222
彈	-9.44223
轡	-9.44229
齡	-9.4424
促	-9.44246
羣臣	-9.443
以自	-9.44436
之道	-9.44741
説文曰	-9.44773
濯	-9.44776
襄陽	-9.44986
其一	-9.44997
三公	-9.45098
屏	-9.45146
其後	-9.45167
熈	-9.45175
鑄	-9.45192
胄	-9.45205
叛	-9.4522
緒	-9.45226
慘	-9.45268
灌	-9.45268
翳	-9.45286
廟歌	-9.45905
梵	-9.46165
争	-9.46224
奴	-9.4623
芬	-9.46233
樞	-9.46243
嵩	-9.46252
東西	-9.4627
敎	-9.46285
趣	-9.46293
綱	-9.46293
輸	-9.46369
汝南	-9.46447
西河	-9.46604
如何	-9.46646
陳留	-9.46744
謁	-9.46831
言其	-9.46838
世家	-9.46932
尉	-9.47001
憑	-9.47229
决	-9.47259
饗	-9.47282
惑	-9.47309
纓	-9.47312
歌曰	-9.47349
揚雄	-9.47453
之情	-9.47522
帛	-9.48212
棘	-9.48261
罔	-9.48273
訪	-9.48281
散騎常侍	-9.48286
斜	-9.48306
洗	-9.48313
溢	-9.48321
邉	-9.48321
攀	-9.48336
汾	-9.48336
戮	-9.48344
煩	-9.48348
飄	-9.48357
歇	-9.48372
之中	-9.48379
炯曰	-9.48474
風雲	-9.48757
氏之	-9.49182
黑	-9.49253
未有	-9.49285
縁	-9.49323
竈	-9.49357
岑	-9.49362
之下	-9.4937
畿	-9.49379
焚	-9.49387
百年	-9.49408
榆	-9.49422
州諸軍事	-9.49535
公之	-9.49601
泰山	-9.49602
足下	-9.49632
見宗	-9.50122
菩薩	-9.50304
陋	-9.50379
相如	-9.50436
酌	-9.50443
駭	-9.5045
稍	-9.50463
壺	-9.50466
咨	-9.50468
撰	-9.50471
猛	-9.50472
束	-9.50473
校尉	-9.50493
迷	-9.50503
以來	-9.50546
抑	-9.50573
悟	-9.50844
之上	-9.5093
桓公	-9.5108
晦	-9.51423
亥	-9.51441
長史	-9.51443
赫	-9.51451
己	-9.51491
缺	-9.51498
崖	-9.515
二月	-9.51515
雍州	-9.51529
壘	-9.51537
弘	-9.51546
檀	-9.51549
西域	-9.5155
絳	-9.5157
俟	-9.51577
牢	-9.51601
其中	-9.51875
公主	-9.52072
藝	-9.52165
月令	-9.52201
古人	-9.52215
武帝紀	-9.52397
碧	-9.52404
尹	-9.52468
捨	-9.52511
輟	-9.52565
壤	-9.52569
祁	-9.52576
明堂	-9.5258
梓	-9.52591
蠻	-9.52618
晚	-9.52634
咎	-9.52635
疎	-9.52638
朝廷	-9.52658
彪	-9.52673
裔碑	-9.52674
供	-9.52732
之義	-9.52902
公卿	-9.53157
經曰	-9.5354
百官	-9.53544
知其	-9.5355
詎	-9.53575
零	-9.5364
緣	-9.53644
祈	-9.53645
澗	-9.53649
應劭曰	-9.53671
崑崙	-9.53694
滯	-9.53725
牆	-9.53735
甘泉	-9.53811
七年	-9.54076
将軍	-9.54203
龍門	-9.54324
五百	-9.54554
平陽	-9.54698
弩	-9.54786
損	-9.54803
稷	-9.54808
程	-9.54813
京兆	-9.54839
儀同	-9.54853
膠	-9.54872
闇	-9.54902
豫章	-9.54927
曰此	-9.55083
天下之	-9.55099
十餘	-9.55129
河陽	-9.55174
君之	-9.55475
河東	-9.55492
一曰	-9.55697
掾	-9.55818
範	-9.55845
侃	-9.55849
也漢書	-9.55907
飢	-9.55911
㝠	-9.55938
璽	-9.55941
饒	-9.55952
陪	-9.55952
印	-9.55957
低	-9.55975
太史	-9.5604
注見	-9.56165
曰昔	-9.56586
未詳	-9.56717
河内	-9.56722
平原	-9.56836
也按	-9.56839
十六	-9.5685
時人	-9.56901
南山	-9.56953
峯	-9.56961
敏	-9.57008
潘岳	-9.5702
奠	-9.57051
窺	-9.57059
淺	-9.57066
叙	-9.5708
綬	-9.57082
箕	-9.57089
誦	-9.57089
朕	-9.57118
喬	-9.57138
乳	-9.57148
南方	-9.57356
白日	-9.57641
文武	-9.57779
箴	-9.57852
宛	-9.57985
黄金	-9.58075
憶	-9.58151
芙蓉	-9.58167
脫	-9.58173
嫁	-9.5822
寅	-9.5823
勁	-9.58271
悔	-9.58303
一日	-9.58389
禹貢	-9.58625
平生	-9.58646
而去	-9.58661
五色	-9.58799
長沙	-9.5882
驃騎	-9.59221
柏	-9.59293
函	-9.59334
董	-9.5935
椒	-9.59352
像	-9.5937
社稷	-9.5943
㦸	-9.59447
㑹稽	-9.59464
常侍	-9.59605
歟	-9.59624
成都	-9.59636
宇文	-9.5991
孟子	-9.60099
使者	-9.60166
淹	-9.60327
文章	-9.60337
數十	-9.604
東魏	-9.60478
座	-9.60501
湛	-9.60512
楚王	-9.60512
酬	-9.60563
子也	-9.60573
刃	-9.60583
閭	-9.6059
嗚呼哀哉	-9.60612
偽	-9.60624
有餘	-9.60641
人生	-9.60756
天之	-9.61082
未嘗	-9.6114
名也	-9.61287
腰	-9.61688
使人	-9.61691
逮	-9.6171
東北	-9.61711
誨	-9.61728
歛	-9.61749
佇	-9.61751
涉	-9.61761
貪	-9.61768
疇	-9.61771
製	-9.61789
者皆	-9.61799
東宫	-9.618
牽	-9.61814
邕	-9.61889
以爲	-9.62034
蓋聞	-9.62063
忍	-9.62542
丞	-9.62714
不及	-9.62793
籠	-9.62806
羲	-9.62853
殺之	-9.6286
斂	-9.62894
枉	-9.62897
醫	-9.62905
薪	-9.6291
鴈	-9.62913
魄	-9.62919
天道	-9.62951
司馬相如	-9.62953
栖	-9.62966
麾	-9.62996
浴	-9.63006
上書	-9.63139
遣使	-9.63365
冝	-9.64126
儲	-9.64153
馭	-9.64158
纂	-9.64168
慰	-9.64195
舌	-9.64201
繡	-9.64231
汲	-9.64232
囊	-9.64242
黍	-9.64257
謨	-9.64258
北海	-9.64408
也次三	-9.64468
也言	-9.64558
亦有	-9.64594
婦人	-9.64595
山中	-9.64739
草木	-9.64774
大都督	-9.64893
神明	-9.6504
二人	-9.65117
以其	-9.6516
者謂	-9.65226
王子	-9.65287
審	-9.65321
皓	-9.65346
冦	-9.65355
蕙	-9.65366
竝	-9.65373
東方	-9.65376
旬	-9.65379
暗	-9.65417
攝	-9.65435
爛	-9.65447
㳺	-9.65498
肥	-9.65502
編	-9.65506
也次五	-9.65686
也次八	-9.6569
也次七	-9.65692
也次四	-9.65695
也次六	-9.65699
也次二	-9.65702
有一	-9.65735
足以	-9.65745
咸陽	-9.65913
曰我	-9.65963
女子	-9.65991
見司馬	-9.66002
第一	-9.6605
銘曰	-9.66212
之間曰	-9.66278
僕射	-9.66448
者謂之	-9.66465
暑	-9.66629
梅	-9.6663
戍	-9.66656
速	-9.66659
悠悠	-9.6666
雌	-9.66669
圃	-9.66674
暢	-9.66689
未詳按	-9.66695
猷	-9.66699
囘	-9.66707
偶	-9.66795
也上九	-9.66973
□(	-9.67201
故人	-9.67393
縣注	-9.6747
禮記曰	-9.67607
楚辭曰	-9.67747
繁弨曰	-9.67775
夙	-9.67785
戀	-9.67868
卽	-9.67868
戊	-9.67884
賣	-9.67891
酉	-9.67906
楚辭	-9.67908
卦	-9.67911
卓	-9.67964
擇	-9.67973
玩	-9.67979
粉	-9.68003
文學	-9.68008
生於	-9.68062
朋	-9.68072
初一	-9.68138
必有	-9.68144
世祖	-9.68282
然則	-9.68445
童子	-9.68632
七月	-9.68926
豈不	-9.68936
鮑	-9.68982
扵	-9.6911
霍	-9.69119
婁	-9.69134
遜	-9.69137
甞	-9.69175
犬	-9.6918
底	-9.69213
驂	-9.69217
姦	-9.69217
耿	-9.69221
限	-9.69224
恢	-9.69251
鹽	-9.69271
削	-9.69276
冶	-9.69279
韜	-9.69311
百餘	-9.69433
千年	-9.6951
扶風	-9.69551
河橋	-9.69672
以上	-9.69715
名為	-9.6984
可知	-9.69919
宋玉	-9.70018
無不	-9.70079
十三	-9.70319
若夫	-9.70349
是謂	-9.70391
以此	-9.70406
勃	-9.70414
洽	-9.70444
戾	-9.70489
菱	-9.70519
塘	-9.70522
蹈	-9.70538
蔡邕	-9.70549
禦	-9.70563
恃	-9.70574
斧	-9.70598
有所	-9.70623
御史	-9.70755
父子	-9.71075
為大	-9.71165
靖	-9.71698
宵	-9.717
寫	-9.71727
壑	-9.71742
濁	-9.71758
謬	-9.7176
冡	-9.71772
裴	-9.71774
鞭	-9.71777
滔	-9.71812
創	-9.71819
括	-9.7182
十一月	-9.71828
譙	-9.71836
米	-9.71838
笙	-9.71841
刋	-9.7186
蟻	-9.71867
閨	-9.71869
潔	-9.71884
肇	-9.71911
脂	-9.71921
旄	-9.71926
太公	-9.71974
内史	-9.72058
大司馬	-9.72092
九月	-9.72112
見其	-9.72381
者不	-9.72632
前後	-9.72655
其上	-9.72669
三千	-9.72669
中書	-9.72724
弟子	-9.72777
王褒	-9.72807
駿	-9.72996
袖	-9.73064
䟽	-9.73103
穢	-9.73133
頴	-9.73139
悵	-9.73142
見傷	-9.73145
眺	-9.73151
㡬	-9.73167
浪	-9.7317
漳	-9.73194
瓜	-9.73195
沐	-9.73198
皆有	-9.73234
慿	-9.7324
鳩	-9.73242
宗廟	-9.73536
出入	-9.73908
見步陸	-9.73921
見擬	-9.74007
綵	-9.74407
尼	-9.74414
秦王	-9.74427
可謂	-9.74453
墟	-9.74489
饑	-9.74491
嘯	-9.74503
羈	-9.74505
幣	-9.74508
泗	-9.74522
趨	-9.7453
諧	-9.74556
副	-9.74586
匿	-9.74607
見祀	-9.74754
之志	-9.74827
之臣	-9.75032
周易	-9.7516
故以	-9.75247
益州	-9.75329
七十	-9.75367
車騎	-9.75373
中大夫	-9.75451
隂陽	-9.75578
建武	-9.75732
用之	-9.7576
註	-9.75794
泛	-9.75799
層	-9.75815
讚	-9.75816
僚	-9.75817
橫	-9.75823
挺	-9.75823
罕	-9.75824
丙	-9.75831
逕	-9.75832
水出	-9.75849
鄕	-9.75849
四月	-9.75851
圜丘	-9.7586
局	-9.75862
庻	-9.75863
之戰	-9.75867
莖	-9.75868
周之	-9.7587
曉	-9.75875
賴	-9.75881
㧞	-9.75885
阮	-9.75892
暇	-9.75896
腸	-9.759
鈞	-9.75903
署	-9.7591
汗	-9.7591
裘	-9.75911
坎	-9.75929
軫	-9.75931
狂	-9.75937
桀	-9.75958
則有	-9.75967
可得	-9.76087
開府	-9.76149
又有	-9.76158
劉向	-9.76225
文選	-9.7634
成王	-9.76396
父母	-9.76436
讀法	-9.76439
山海經	-9.76466
諡	-9.76493
之時	-9.76514
富貴	-9.76587
三百	-9.7661
堪	-9.76763
上林	-9.76806
菊	-9.77019
閔	-9.77095
恂	-9.77132
十八	-9.77189
浩	-9.77199
詧	-9.77208
鵠	-9.77213
襟	-9.77231
悽	-9.77237
慷慨	-9.7726
翮	-9.77265
練	-9.77268
組	-9.77277
鵲	-9.77284
東方朔	-9.77291
雖復	-9.77308
陟	-9.77326
沈約	-9.77333
煥	-9.77417
之月	-9.77546
者言	-9.77835
樂府	-9.77855
無以	-9.7798
産	-9.78177
曰夫	-9.78184
齊王	-9.78223
疆	-9.78236
壬	-9.78572
廵	-9.78584
上帝	-9.78594
𤓰	-9.78598
柴	-9.78618
貽	-9.78621
薛	-9.78632
六月	-9.78646
沖	-9.78654
衢	-9.78671
戢	-9.78672
糧	-9.7868
棟	-9.78698
祿	-9.78728
功臣	-9.78729
奇	-9.78735
俾	-9.78736
武昌	-9.79461
千金	-9.79588
法師	-9.7965
之神	-9.797
上下	-9.79709
洄曰	-9.79813
後魏	-9.7984
昭王	-9.79919
蕪	-9.79984
𥘉	-9.80042
鬬	-9.80048
秘	-9.80054
帝王世紀	-9.80065
板	-9.80086
敖	-9.80086
標	-9.80099
驕	-9.80119
出自	-9.8012
矩	-9.80128
軀	-9.80147
擢	-9.80149
晞	-9.8015
隕	-9.80183
徂	-9.80186
有大	-9.80191
膽	-9.80227
太平	-9.80358
琴瑟	-9.80391
流水	-9.80575
得其	-9.80608
所作	-9.8075
僧辯	-9.80949
之士	-9.81084
之山	-9.8122
金石	-9.81382
山有	-9.81461
祝	-9.8149
擒	-9.81515
蒸	-9.81518
媚	-9.81522
唱	-9.81523
潘	-9.81532
擾	-9.81556
啼	-9.81557
碎	-9.81562
逞	-9.81568
餐	-9.81572
鳳凰	-9.8158
觧	-9.81583
驥	-9.81589
冲	-9.81589
軸	-9.81604
溺	-9.81628
苗	-9.81641
賚	-9.81663
弊	-9.81673
禮樂	-9.81696
王室	-9.81798
博士	-9.81868
第三	-9.81973
測	-9.81987
宗室	-9.82064
二子	-9.82119
語曰	-9.82184
隴西	-9.8222
不相	-9.82251
時有	-9.82306
於時	-9.82426
千載	-9.8253
國家	-9.82822
䰟	-9.82923
㓜	-9.8299
囚	-9.82999
整	-9.82999
誥	-9.8303
耆	-9.83033
圗	-9.8305
填	-9.8305
轂	-9.8307
熱	-9.8308
廉	-9.83096
陂	-9.831
園賦	-9.8316
愆	-9.83164
之國	-9.83358
楚之	-9.83407
之屬	-9.8348
減	-9.83493
而死	-9.83539
五日	-9.83993
陽侯	-9.8405
王者	-9.84162
南北	-9.84309
卭	-9.84342
化為	-9.8437
□	-9.84402
員	-9.84412
綽	-9.84429
釁	-9.8446
勅	-9.84482
䕃	-9.84515
完	-9.84522
漠	-9.84523
寐	-9.84525
眼	-9.84532
轍	-9.84532
欒	-9.84536
警	-9.84539
頽	-9.84549
殆	-9.84572
吝	-9.8458
顛	-9.84627
梟	-9.84666
廓	-9.84693
之名	-9.84787
豫州	-9.84845
巫	-9.84942
韓信	-9.84965
與之	-9.84992
古之	-9.85076
莊子曰	-9.85136
相與	-9.85274
其文	-9.85431
五帝	-9.85432
建安	-9.85598
陽縣	-9.8561
梁元帝	-9.8584
婆	-9.85933
析	-9.85944
顓頊	-9.85952
乍	-9.85959
函谷	-9.85982
巷	-9.85997
欵	-9.86012
突	-9.86026
灼	-9.86057
噐	-9.86059
艾	-9.8608
筵	-9.86089
取其	-9.86217
見齊王	-9.86252
王僧辯	-9.86291
太后	-9.86373
既而	-9.86472
也故	-9.86615
曰天	-9.86683
風塵	-9.86921
子之	-9.8733
毅	-9.87408
潭	-9.87452
欺	-9.87479
龕	-9.87518
儔	-9.87533
芒	-9.87538
倦	-9.87544
霄	-9.87553
䖍	-9.87554
巡	-9.87555
窟	-9.87557
嬴	-9.87595
祐	-9.87623
無復	-9.87628
艱	-9.87632
纎	-9.87636
強	-9.87657
凋	-9.87683
飬	-9.87707
彭城	-9.87718
不勝	-9.87869
六十	-9.88
郡公	-9.88021
人皆	-9.88484
太清	-9.88844
太常	-9.88875
風雨	-9.88973
各有	-9.8899
美人	-9.88997
咏	-9.89
中國	-9.8905
炳	-9.89091
江漢	-9.89093
街	-9.89096
輅	-9.89099
染	-9.89119
捐	-9.89123
滑	-9.89125
擅	-9.89127
簫	-9.89135
檢	-9.89136
溝	-9.89138
懽	-9.89139
綿	-9.89139
涇	-9.89153
殖	-9.89156
買	-9.89163
㝷	-9.89167
汎	-9.8917
綜	-9.8918
遘	-9.89185
釐	-9.89198
肩吾	-9.89207
怡	-9.89225
晏子	-9.89284
遼東	-9.89591
第二	-9.89597
夫子	-9.89602
仁義	-9.89748
蜀志	-9.89761
南宫	-9.8993
也今	-9.89942
總管	-9.89963
非其	-9.90218
廣陵	-9.90221
八月	-9.90285
地理志	-9.90587
憲碑	-9.90591
𦙍	-9.90677
兔	-9.90695
檀弓	-9.90699
殯	-9.90704
殞	-9.90707
寃	-9.90715
黜	-9.90718
闡	-9.90718
項羽	-9.90723
娥	-9.90757
苞	-9.90765
邯鄲	-9.9079
臻	-9.90805
漫	-9.90812
又按	-9.90884
有五	-9.91269
建德	-9.91374
九州	-9.91418
乎曰	-9.91459
長城	-9.91573
浮雲	-9.91804
之心	-9.91931
揚州	-9.92122
周禮曰	-9.92191
隣	-9.92234
扈	-9.92242
豕	-9.92269
剖	-9.923
握	-9.92304
頼	-9.92318
縈	-9.92318
寔	-9.92323
峽	-9.92332
騁	-9.92347
羞	-9.92384
陽郡	-9.92407
繫辭	-9.92473
七日	-9.92646
通考	-9.92687
世之	-9.92791
郡國志	-9.92873
古者	-9.9333
大将軍	-9.93503
也夫	-9.93657
北方	-9.93705
杜預	-9.9371
曰臣	-9.93773
飈	-9.93838
南楚	-9.93848
寓	-9.93863
狹	-9.93948
圓丘	-9.93955
柯	-9.93964
逈	-9.93977
樽	-9.93983
鏤	-9.93988
序曰	-9.93995
迄	-9.93996
濬	-9.94006
曰今	-9.94007
垣	-9.94014
寒暑	-9.9403
排	-9.94037
闈	-9.94113
彫	-9.94122
吉凶	-9.94202
明徹	-9.94266
新野	-9.94425
而成	-9.94541
見春	-9.94655
也若	-9.94659
不同	-9.94812
水經注	-9.94851
江淮	-9.94877
南郊	-9.951
莽	-9.95154
之徒	-9.95267
又諮	-9.9531
湑曰	-9.95351
主人	-9.95439
軒轅	-9.95502
遙	-9.95512
雖有	-9.95519
濫	-9.95537
成帝	-9.95547
炭	-9.9555
宦	-9.95558
虧	-9.9557
拘	-9.95601
潰	-9.95612
掃	-9.95613
古詩	-9.95614
畜	-9.95618
紆	-9.95623
轅	-9.95641
藹	-9.95648
呂	-9.95663
魏武	-9.95668
互	-9.95676
賁	-9.95712
服之	-9.95729
壊	-9.9574
沃	-9.95743
酋	-9.95763
滎陽	-9.9579
恤	-9.95799
所在	-9.95823
之日	-9.95975
子産	-9.9611
陽氣	-9.9627
古今	-9.9653
山在	-9.96545
之職	-9.96581
有二	-9.9659
陜	-9.96712
文昌	-9.96999
由是	-9.97034
聰	-9.97193
蘆	-9.97208
混	-9.97243
別	-9.97245
替	-9.97261
駟	-9.97262
宏	-9.97296
矦	-9.97301
㓕	-9.97313
踈	-9.97313
嶠	-9.97317
札	-9.97359
冒	-9.97365
班固	-9.97403
婉	-9.97414
而出	-9.97425
費	-9.97468
是時	-9.97789
天文志	-9.98089
李陵	-9.98122
生民	-9.98161
十月	-9.98216
王孫	-9.98232
逞碑	-9.98385
字伯	-9.98516
晉侯	-9.98537
之法	-9.98541
中軍	-9.98584
郢州	-9.9864
山河	-9.98776
辭曰	-9.98793
江東	-9.98934
栢	-9.98944
亟	-9.98961
弧	-9.98978
賈誼	-9.98994
旱	-9.99004
翁	-9.99024
徐州	-9.99028
璣	-9.99034
稚	-9.99048
繇	-9.99053
護	-9.9906
赦	-9.99065
俎	-9.99065
烝	-9.99085
鞍	-9.99093
髻	-9.99094
列女傳	-9.99096
蠡	-9.991
牖	-9.99118
収	-9.99134
笛	-9.99136
棠	-9.99142
秦始皇	-9.99176
大夏	-9.99184
几	-9.99222
王逸	-9.99306
鄉里	-9.9934
皇太子	-9.99438
字仲	-9.99661
天官	-9.99921
二句	-9.99965
玉門	-10.0006
紙	-10.0073
寉	-10.0073
杞	-10.0074
淨	-10.0076
癸	-10.0076
勉	-10.0076
肩	-10.0077
袂	-10.0077
價	-10.0078
仗	-10.0082
探	-10.0083
科	-10.0083
漂	-10.0084
斤	-10.0084
漆	-10.0084
之氣	-10.0085
羨	-10.0085
丸	-10.0086
斛	-10.0086
翦	-10.0087
抽	-10.0089
綴	-10.0089
建鄴	-10.009
碩	-10.0092
八年	-10.0095
挾	-10.0095
之難	-10.0097
萌	-10.0103
視之	-10.0103
東平	-10.0107
張衡	-10.0144
晋書	-10.0149
妻子	-10.015
之樂	-10.0166
西京雜記	-10.0179
山海經曰	-10.0184
漢武帝	-10.0187
其二	-10.0189
之謂	-10.0194
代郡	-10.0196
佳人	-10.0197
思歸	-10.02
天官書	-10.0201
言已	-10.0207
不言	-10.0207
伽	-10.0226
文子	-10.0233
永安	-10.0247
州郡	-10.0249
邸	-10.0254
謡	-10.0256
輙	-10.0258
弼	-10.0259
麻	-10.026
沸	-10.026
徧	-10.026
紂	-10.0261
甸	-10.0261
纔	-10.0261
醴	-10.0262
悠	-10.0263
眇	-10.0264
頸	-10.0264
廊	-10.0266
纍	-10.0267
翕	-10.0267
鄒	-10.0268
吞	-10.0269
闥	-10.0269
參差	-10.0271
甘露	-10.0271
隐	-10.0272
樓船	-10.0274
相見	-10.0277
庾信	-10.0291
千餘	-10.0296
鬼神	-10.0303
孝武	-10.0304
秦晉	-10.0323
之文	-10.0324
郭璞	-10.033
使持節	-10.0331
白虎	-10.0332
國語	-10.0344
門外	-10.0346
志云	-10.0356
之内	-10.0357
白雲	-10.0359
長子	-10.0361
帝曰	-10.0363
不用	-10.0366
十三年	-10.0371
簡文	-10.038
蕭何	-10.0388
琳	-10.0391
保定	-10.0395
一旦	-10.0398
八十	-10.0404
上將	-10.0416
貳	-10.0428
安得	-10.0431
霍去病	-10.0434
冊	-10.0434
疲	-10.0437
銳	-10.0437
礙	-10.0438
臂	-10.0438
宜陽	-10.0438
旂	-10.0439
衮	-10.044
鑠	-10.044
裕	-10.044
蹇	-10.044
版	-10.044
黔	-10.044
丕	-10.044
旒	-10.0441
逾	-10.0442
該	-10.0442
蔚	-10.0443
桃花	-10.0444
文公	-10.0444
彤	-10.0445
隋志	-10.0446
穹	-10.0448
譏	-10.0448
昊天	-10.0459
旃	-10.046
不食	-10.0461
清風	-10.047
山陽	-10.0528
三輔	-10.053
縣有	-10.0535
水經注曰	-10.0536
命之	-10.0538
四首	-10.056
十六年	-10.0566
持節	-10.0577
太師	-10.0577
驪	-10.0581
之類	-10.0585
慨	-10.0604
陛	-10.0606
尚書曰	-10.0608
炤	-10.0611
長平	-10.0611
邱	-10.0617
構	-10.0618
茲	-10.0619
圜	-10.062
臺城	-10.062
禮也	-10.0621
瓦	-10.0623
公侯	-10.0623
捕	-10.0623
咏懐	-10.0623
鉞	-10.0625
訟	-10.0626
愴	-10.0627
奸	-10.0629
駒	-10.0629
謚	-10.0629
栗	-10.063
禱	-10.0631
睦	-10.0631
禾	-10.0631
九年	-10.0632
艦	-10.0633
慕容	-10.0636
張華	-10.0636
鷹	-10.0636
屈原	-10.0637
郡有	-10.0638
三十六	-10.0654
白帝	-10.0662
飲酒	-10.0676
十一	-10.0678
論曰	-10.0682
漢書地理志曰	-10.07
出於	-10.071
漁	-10.0714
沾	-10.0732
於天	-10.0735
十四	-10.0741
食之	-10.0744
奉和	-10.0745
而巳	-10.0756
皆以	-10.0762
人所	-10.0762
其年	-10.0774
南郡	-10.0775
潁	-10.0799
郡守	-10.0802
惻	-10.0805
柩	-10.0807
戌	-10.0807
弋	-10.0811
諌	-10.0811
昇	-10.0813
濱	-10.0813
伍	-10.0814
拾	-10.0814
恪	-10.0816
證	-10.0817
株	-10.0817
油	-10.0817
撝	-10.0818
阜	-10.082
貨	-10.0822
鈎	-10.0824
主簿	-10.0827
冀州	-10.0829
西王母	-10.0835
玉帛	-10.0836
地也	-10.0842
蘇武	-10.0846
祭祀	-10.0846
從事	-10.0863
不忘	-10.0873
之至	-10.0889
當時	-10.089
王粲	-10.09
海内	-10.09
其先	-10.0907
始皇	-10.0911
君臣	-10.0911
之意	-10.092
西方	-10.094
而未	-10.0949
十二年	-10.0954
未能	-10.096
流星	-10.0972
與王	-10.099
毗	-10.0992
張儀	-10.0994
丑	-10.0998
亷	-10.0998
騷	-10.0999
俘	-10.0999
諸子	-10.1
諦	-10.1002
有四	-10.1002
龔	-10.1004
馴	-10.1004
彩	-10.1004
谿	-10.1004
斾	-10.1005
算	-10.1005
輩	-10.1005
蹤	-10.1006
了	-10.1006
遽	-10.1007
禀	-10.1008
譚	-10.1009
侍郎	-10.1012
柄	-10.1012
舅	-10.1013
寂寞	-10.1014
焦	-10.1015
涯	-10.1016
歷	-10.1016
邇	-10.1017
抵	-10.1019
措	-10.1032
穆穆	-10.1034
渡河	-10.1038
神農	-10.104
臨川	-10.1046
廣武	-10.1048
太康	-10.1056
之長	-10.1056
而言	-10.1075
何如	-10.1078
家語	-10.1079
有司	-10.1104
世子	-10.1129
華隂	-10.1135
曰大	-10.1136
飛燕	-10.1141
道也	-10.1148
此言	-10.1165
萬國	-10.1166
雲臺	-10.1174
鳶	-10.1195
銷	-10.1196
泊	-10.1196
脱	-10.1199
窓	-10.1199
衿	-10.12
檻	-10.12
昔者	-10.12
跨	-10.1201
隙	-10.1202
繹	-10.1203
飯	-10.1203
諸葛亮	-10.1203
鳯凰	-10.1203
譜	-10.1206
迫	-10.1207
山名	-10.1208
竄	-10.1208
塟	-10.1208
呈	-10.1209
一切	-10.1211
緩	-10.1211
棊	-10.1212
瑜	-10.1213
狗	-10.1214
拊	-10.1221
之際	-10.1223
建康	-10.1235
霜露	-10.1238
時年	-10.1247
封禪	-10.1248
王莽	-10.1259
太原	-10.1271
甲子	-10.1279
説文	-10.1297
之兵	-10.1297
不過	-10.1298
三州	-10.1301
中山	-10.131
宫室	-10.1313
大人	-10.1317
一朝	-10.1317
而下	-10.1317
而行	-10.1326
疏云	-10.1328
故名	-10.1335
三危	-10.1352
岱	-10.1361
之師	-10.1374
韓子	-10.1379
之外	-10.138
不死	-10.1382
東都	-10.1388
烽	-10.1395
梁書	-10.1396
鳬	-10.1396
寥	-10.1397
効	-10.1399
靖節	-10.1401
卯	-10.1402
挂	-10.1402
廼	-10.1403
絡	-10.1403
現	-10.1403
崤	-10.1404
瀾	-10.1404
翹	-10.1404
劭	-10.1405
紀曰	-10.1405
祇	-10.1406
寡人	-10.1406
羡	-10.1407
罍	-10.1407
諒	-10.1408
藪	-10.1409
之精	-10.1409
蘋	-10.141
般	-10.1411
詐	-10.1412
陌	-10.1413
忝	-10.1413
宗伯	-10.1414
箱	-10.1414
卒於	-10.1414
門下	-10.1419
諸葛	-10.1428
賔客	-10.143
魏志曰	-10.1437
左傳晉	-10.1444
天和	-10.1445
晉陽	-10.1451
周文	-10.1455
黄河	-10.1459
之遺	-10.1461
見小	-10.1485
丈夫	-10.1487
於齊	-10.1501
諡曰	-10.1505
無相	-10.1506
答曰	-10.1536
河圖	-10.1539
易曰	-10.1547
秋風	-10.1558
漢王	-10.1568
諮	-10.1573
先王	-10.1589
數百	-10.159
從之	-10.1594
骸	-10.1597
閻	-10.1599
曄	-10.16
建平王	-10.1602
罰	-10.1602
讃	-10.1602
𨽻	-10.1603
讎	-10.1608
霑	-10.1608
乃作	-10.1609
楚地	-10.1609
後魏置	-10.161
譲	-10.161
婚	-10.161
鼻	-10.161
毫	-10.1611
冉	-10.1614
僉	-10.1615
所居	-10.1615
岡	-10.1615
者其	-10.1617
怖	-10.162
閶闔	-10.1621
未知	-10.1621
荆州刺史	-10.1627
神仙	-10.1627
諸將	-10.1632
湘東王	-10.1636
况復	-10.1642
布衣	-10.1649
之亂	-10.166
髙帝	-10.1682
死者	-10.1683
四句	-10.1689
大同	-10.1693
之美	-10.1706
凱	-10.1714
楚子	-10.1721
建徳	-10.1724
二十八	-10.1735
平陵	-10.1739
中郎	-10.1742
聖人之	-10.1753
於東	-10.1758
王母	-10.1763
一篇	-10.1765
如是	-10.1769
子貢	-10.1771
陀	-10.1774
庫	-10.1804
冩	-10.1805
艶	-10.1807
企	-10.1809
膝	-10.1809
稀	-10.1811
筮	-10.1811
榦	-10.1812
裝	-10.1813
眠	-10.1814
蟠	-10.1817
馥	-10.1819
冇	-10.1819
寤	-10.1819
拱	-10.182
鄭注	-10.1821
倍	-10.1825
慟	-10.1825
山下	-10.1825
曹子建	-10.1827
複	-10.183
縮	-10.1834
棗	-10.1834
戰於	-10.1845
相國	-10.1848
自闗而東	-10.185
建業	-10.185
者以	-10.1881
索隠曰	-10.1881
齊侯	-10.1885
山東	-10.1887
參軍	-10.1896
之術	-10.1941
不至	-10.1946
詔曰	-10.1959
在長安	-10.1972
齊人	-10.199
殿下	-10.1993
其子	-10.1998
不以	-10.1999
嘆曰	-10.2003
少年	-10.2005
是其	-10.2012
終始	-10.2018
置酒	-10.202
苔	-10.202
専	-10.2021
毀	-10.2022
潮	-10.2023
峰	-10.2023
楹	-10.2025
曹植	-10.2025
皎	-10.2026
燧	-10.2026
蟄	-10.2028
十九	-10.2032
姚	-10.2033
縱横	-10.2033
茫茫	-10.2034
眞	-10.2037
闢	-10.2037
后稷	-10.2041
武庫	-10.2044
鴛鴦	-10.2049
十日	-10.205
率衆	-10.2057
進爵	-10.2061
賜姓	-10.2068
以金	-10.2071
山谷	-10.2079
李廣	-10.2081
也史記	-10.2084
沛公	-10.2086
貞測曰	-10.2096
也左傳	-10.2096
建章	-10.2098
漁陽	-10.2108
仲禮	-10.2112
知之	-10.2114
金陵	-10.2116
至于	-10.2127
延年	-10.2136
郎中	-10.2154
而自	-10.2172
之聲	-10.2177
石室	-10.2177
二千	-10.2183
儀同三司	-10.2211
失其	-10.2214
聞其	-10.2215
汪	-10.2233
㸃	-10.2234
攜	-10.2239
億	-10.224
匠	-10.224
系	-10.2241
緝	-10.2241
潯陽	-10.2242
頂	-10.2244
氛	-10.2244
秣	-10.2244
溟	-10.2244
戰國䇿	-10.2244
膳	-10.2245
荼	-10.2245
鬭	-10.2246
灾	-10.2246
杏	-10.2247
鐸	-10.2247
辜	-10.2248
浸	-10.2248
磬	-10.2248
戯	-10.2249
其事	-10.2249
華陽國志	-10.2249
亢	-10.225
随	-10.2251
奥	-10.2251
篆	-10.2253
樵	-10.2253
拭	-10.2254
璋	-10.2255
臭	-10.2256
活	-10.2259
劇	-10.2263
稽首	-10.2266
樂也	-10.2267
即是	-10.2272
唐虞	-10.2272
流涕	-10.2273
十一年	-10.2287
百萬	-10.2288
十二月	-10.2293
雲氣	-10.2298
相思	-10.2303
諸軍	-10.2309
如故	-10.2311
天帝	-10.2314
於周	-10.2315
朽	-10.2315
天監	-10.2327
鄭𤣥	-10.2332
改封	-10.2342
漢地理志	-10.2369
梁武帝	-10.2379
博物志	-10.2392
出為	-10.2403
東齊	-10.2406
昭陽	-10.2413
者為	-10.2413
以示	-10.242
是故	-10.2423
稱其	-10.2429
詩序曰	-10.2445
心賦	-10.2451
不可以	-10.2453
之役	-10.2458
蕭驃騎	-10.246
叟	-10.2461
牒	-10.2461
敝	-10.2462
付	-10.2463
螢	-10.2463
穆天子傳	-10.2464
嵇康	-10.2465
弑	-10.2465
搆	-10.2465
虢	-10.2465
故事	-10.2466
例	-10.2466
叱	-10.2467
犧	-10.2467
鑣	-10.2467
揖	-10.2467
繳	-10.2468
傑	-10.2468
其人	-10.2468
奢	-10.247
鬢	-10.2472
書云	-10.2472
臥	-10.2473
跪	-10.2474
琨	-10.2475
勑	-10.2476
虐	-10.2476
或云	-10.2478
晝夜	-10.2479
不盡	-10.2481
人以	-10.2484
亦曰	-10.2487
曷	-10.249
成功	-10.2507
國有	-10.2513
茂陵	-10.2527
三星	-10.253
昔在	-10.2532
聲聞	-10.2535
城中	-10.2537
惟有	-10.2538
改曰	-10.254
長樂	-10.2546
之制	-10.2568
在昔	-10.258
往來	-10.2583
石頭	-10.2592
地名	-10.2595
人事	-10.2596
之北	-10.2628
伯夷	-10.263
乃命	-10.2639
自此	-10.2662
自古	-10.2677
叩	-10.2682
法苑珠林	-10.2684
曖	-10.2685
毛詩	-10.2686
液	-10.269
阮籍	-10.2691
墻	-10.2691
璇	-10.2692
宫中	-10.2694
楷	-10.2694
村	-10.2694
以成	-10.2696
娶	-10.2696
甄	-10.2698
迭	-10.2698
孚	-10.2698
爾乃	-10.27
詭	-10.2702
稼	-10.2704
掘	-10.2705
乂	-10.2705
囬	-10.2705
嘲	-10.2705
酷	-10.2707
恬	-10.2707
苖	-10.2709
笑曰	-10.2712
風吹	-10.2713
扶桑	-10.2714
徐州刺史	-10.2724
男女	-10.2728
處士	-10.273
世説	-10.274
咸池	-10.2743
許之	-10.2745
帝即位	-10.2748
上黨	-10.2749
之末	-10.2761
十有二	-10.2764
白露	-10.2764
改為	-10.2766
周太祖	-10.2767
公曰	-10.2767
行臺	-10.2773
世説曰	-10.2776
第五	-10.2776
何所	-10.2779
立為	-10.2792
王曰	-10.2796
鄭注曰	-10.2801
而還	-10.2803
西京	-10.2806
忠臣	-10.2817
之盛	-10.2844
之處	-10.2848
閔帝	-10.2849
闗中	-10.2854
不受	-10.2855
西京賦	-10.2882
南風	-10.2887
有此	-10.289
為君	-10.2891
天地之	-10.2908
諷	-10.2912
賦序	-10.2914
廷	-10.2916
之理	-10.2917
䧟	-10.292
盪	-10.2922
貂	-10.2923
涓	-10.2925
陳平	-10.2926
臨淄	-10.2927
三事	-10.2928
瀆	-10.2928
亳	-10.2928
魁	-10.293
梯	-10.293
蜜	-10.2931
牟	-10.2932
彞	-10.2934
曼	-10.2934
仇	-10.2936
覿	-10.2936
馨	-10.2937
杼	-10.294
若此	-10.2941
舜典	-10.2943
畔	-10.2943
二千石	-10.2946
零落	-10.2952
行人	-10.2956
叔向	-10.2957
何為	-10.2958
光禄	-10.2962
母曰	-10.2965
三軍	-10.2977
何時	-10.2979
中原	-10.2986
入闗	-10.2986
食邑	-10.2992
碑文	-10.2998
髙陽	-10.3001
以喻	-10.3004
桂陽	-10.3016
衆生	-10.3029
亦云	-10.3031
離别	-10.3032
于天	-10.3037
有九	-10.3039
非常	-10.3057
之臺	-10.3063
陽城	-10.3066
當作	-10.3067
二州	-10.3068
法身	-10.307
皇夏	-10.3071
不絶	-10.3071
景帝	-10.3076
長楊	-10.3077
河曲	-10.3079
入朝	-10.3079
帝為	-10.308
在位	-10.3084
風俗	-10.3097
非所	-10.311
之君	-10.312
清河	-10.3127
再拜	-10.3127
萊	-10.3149
燮	-10.3153
鶉	-10.3155
敕	-10.3157
袍	-10.3157
侯莫陳	-10.3157
顥	-10.3158
豳	-10.3161
郷	-10.3162
寕	-10.3162
聼	-10.3163
豎	-10.3165
泠	-10.3166
檄	-10.3166
璞	-10.3166
雩	-10.3166
啇	-10.3167
皷	-10.3167
繒	-10.3168
酈	-10.3168
酣	-10.3168
模	-10.3168
輦	-10.3169
㫁	-10.3169
滌	-10.3169
蒿	-10.3169
搏	-10.3169
疊	-10.317
槃	-10.3171
讐	-10.3171
係	-10.3172
孟康曰	-10.3172
氐	-10.3172
倐忽	-10.3173
劫	-10.3174
餓	-10.3176
梨	-10.3178
其心	-10.3179
埃	-10.3181
後周置	-10.3184
瑯邪	-10.3186
言歸	-10.3186
肅肅	-10.3186
受禪	-10.3196
來聘	-10.3197
雞鳴	-10.3201
其三	-10.3204
白鶴	-10.3226
明年	-10.3232
三輔黄圖曰	-10.3235
之世	-10.3236
冠軍	-10.3242
九重	-10.3246
子弟	-10.3248
羽林	-10.3257
二十四	-10.3258
東京	-10.3261
父老	-10.3266
人有	-10.3272
日月之	-10.3276
州總管	-10.3283
肯	-10.329
丘陵	-10.3292
文集	-10.3296
荆山	-10.3299
縣東	-10.3308
周室	-10.3312
之野	-10.3319
禹貢曰	-10.3322
水中	-10.3328
觀之	-10.3328
也詳	-10.3336
為一	-10.3354
非無	-10.3358
終不	-10.3361
之辭	-10.3373
譯	-10.3385
睿	-10.3393
今之	-10.3395
筠	-10.3398
蛟	-10.3398
一巻	-10.3399
頠	-10.3401
冷	-10.3401
岫	-10.3401
哀樂	-10.3401
妨	-10.3402
沔	-10.3403
郊特牲	-10.3403
光禄大夫	-10.3404
鞠	-10.3407
荆軻	-10.3408
遏	-10.3408
凄	-10.3408
搖	-10.3408
陶潛	-10.3409
濕	-10.341
駐	-10.341
盗	-10.341
憚	-10.3411
殄	-10.3412
肝	-10.3413
奈何	-10.3413
奐	-10.3414
餌	-10.3414
欄	-10.3414
釵	-10.3414
躡	-10.3416
龎	-10.3417
得一	-10.3417
嫌	-10.3419
沮	-10.3419
車騎將軍	-10.3419
悅	-10.342
聿	-10.3423
誡	-10.3425
臨江	-10.3427
慢	-10.3427
孔融	-10.3428
華山	-10.3428
齊神武	-10.3431
管仲	-10.3433
蕭條	-10.3439
外戚	-10.344
其地	-10.3447
爾朱	-10.3449
杖賦	-10.345
齊國	-10.3454
方之	-10.3456
雁門	-10.3458
王琳	-10.3458
事君	-10.3463
人多	-10.3464
居之	-10.3467
吏民	-10.3469
見崇	-10.3481
所見	-10.3485
故稱	-10.3485
進表	-10.3501
遂以	-10.351
一百	-10.351
曹公	-10.3521
是非	-10.3522
不然	-10.3541
雲夢	-10.3547
帝王	-10.3553
俄	-10.3586
加以	-10.3592
河洛	-10.3612
開國	-10.3613
而爲	-10.3613
之南	-10.3615
字元	-10.3615
伊何	-10.3624
故鄉	-10.3625
薨於	-10.3627
於河	-10.3632
二語	-10.3635
儼	-10.3643
僖	-10.3644
樹穀曰	-10.3648
奕	-10.3648
舍利	-10.3648
宣王	-10.3649
羇	-10.365
竿	-10.3652
黄門	-10.3653
謳	-10.3654
紐	-10.3654
之可	-10.3654
郤	-10.3655
妓	-10.3656
豔	-10.3658
飄颻	-10.3658
簾	-10.3658
疇昔	-10.3658
印綬	-10.3658
舄	-10.3659
諾	-10.3659
蚩尤	-10.3659
侈	-10.366
縷	-10.366
潼	-10.366
纒	-10.3661
鵬	-10.3661
瘁	-10.3661
級	-10.3662
漿	-10.3662
崔豹古今注	-10.3662
蛾	-10.3663
團	-10.3663
舘	-10.3663
萍	-10.3663
踵	-10.3664
騖	-10.3664
見鄭	-10.3665
渝	-10.3666
快	-10.3666
輯	-10.3667
渤海	-10.3668
杵	-10.3669
東門	-10.367
麋	-10.3671
萃	-10.3672
忿	-10.3673
航	-10.3673
灑	-10.3675
徼	-10.3679
頓首	-10.369
不可得	-10.3696
武成	-10.3698
孤竹	-10.3701
孝子	-10.371
炎帝	-10.3719
其下	-10.3723
哀江南賦	-10.3725
少府	-10.3726
號為	-10.3735
李善	-10.3735
衛青	-10.3736
梁州	-10.3737
何得	-10.3744
陰陽	-10.3748
軍中	-10.3751
不出	-10.3752
西山	-10.3783
高帝	-10.3783
有道	-10.3787
丹陽	-10.3791
所得	-10.3792
五行	-10.3809
行雲	-10.3821
朝夕	-10.3828
王命	-10.3833
之遂	-10.3855
江夏	-10.3859
兵法	-10.3865
承明	-10.3885
弭	-10.3892
世說	-10.3895
左傳昭	-10.3895
而生	-10.3899
莒	-10.3901
催	-10.3906
濛	-10.3908
絕	-10.3909
渥	-10.391
障	-10.391
鷰	-10.391
僑	-10.391
控	-10.3911
覇	-10.3911
爼	-10.3912
紇	-10.3914
萬年	-10.3914
橘	-10.3914
坤	-10.3916
詡	-10.3917
祉	-10.3918
樸	-10.3918
笳	-10.3918
換	-10.3919
牕	-10.3919
冨	-10.3919
斥	-10.392
褰	-10.392
䑓	-10.392
繆	-10.3921
熾	-10.3923
六國	-10.3924
舂	-10.3924
泄	-10.3925
宥	-10.3925
婢	-10.3925
涸	-10.3926
鐘鼓	-10.3929
玉女	-10.3929
俠	-10.3931
鄭康成	-10.3932
􁁊	-10.3937
羣公	-10.3939
楚人	-10.394
以聞	-10.394
翩	-10.3942
若水	-10.3942
樹賦	-10.3951
何必	-10.3958
十餘年	-10.3966
秦州	-10.3969
世界	-10.3972
如來	-10.3976
記室	-10.3977
𢎞正	-10.3985
馬援	-10.3986
神仙傳曰	-10.3987
俄而	-10.3991
不自	-10.4001
雲中	-10.4004
孔子曰	-10.4005
誰能	-10.4006
北斗	-10.4021
不忍	-10.4021
若木	-10.4024
者乎	-10.4024
其色	-10.4036
左氏	-10.4056
不亦	-10.406
上谷	-10.4071
天子之	-10.4072
而歸	-10.4078
之始	-10.4083
學士	-10.4085
曲禮	-10.4086
西陵	-10.4098
王序	-10.4099
明明	-10.4104
明鏡	-10.411
武功	-10.4114
之禍	-10.4123
流離	-10.4126
降神	-10.4127
龍之	-10.4129
其母	-10.4136
天柱	-10.4141
未央	-10.4151
日暮	-10.4153
軼	-10.4162
西征	-10.4165
一何	-10.4168
稜	-10.417
稟	-10.4171
犢	-10.4172
氓	-10.4173
祕	-10.4174
郡領	-10.4174
衫	-10.4174
並有	-10.4177
豆盧	-10.4177
死於	-10.4178
鈴	-10.4178
蜂	-10.4178
燿	-10.4178
紈	-10.4179
扉	-10.4179
葵	-10.4179
騫	-10.4179
琅邪	-10.4179
詳哀江南賦	-10.418
祜	-10.4181
列子	-10.4182
昴	-10.4182
惆悵	-10.4183
泝	-10.4184
甕	-10.4184
堰	-10.4185
遑	-10.4185
兗	-10.4185
㳟	-10.4186
日中	-10.4186
悽愴	-10.4186
肴	-10.4186
神仙傳	-10.4187
囿	-10.4189
南征	-10.4189
憎	-10.419
鴟	-10.4191
軾	-10.4192
悴	-10.4194
準	-10.4194
儉碑	-10.4197
雛	-10.4198
沙苑	-10.4198
未及	-10.4199
中央	-10.4201
豫州刺史	-10.4201
表裏	-10.4202
不爲	-10.4202
之數	-10.4209
歎息	-10.4214
渡江	-10.4217
屏風	-10.4219
孝經	-10.4227
變化	-10.4231
而作	-10.4232
連珠	-10.4237
吳王	-10.4239
承聖	-10.4244
多士	-10.4249
千乗	-10.4252
詔書	-10.4255
狀如	-10.426
五行志	-10.4263
皆為	-10.4291
傳注	-10.4292
不載	-10.4296
八風	-10.4297
見勸	-10.4299
江左	-10.4301
河北	-10.4302
而得	-10.4307
城門	-10.4319
有六	-10.4319
十五年	-10.4323
故得	-10.4324
三尺	-10.4325
以禮	-10.4335
以公	-10.4346
廣州	-10.4348
紀云	-10.4354
歎曰	-10.4354
乎其	-10.4358
郭璞曰	-10.4359
望之	-10.436
數千	-10.4372
三輔黄圖	-10.4381
無窮	-10.4384
性命	-10.4385
天命	-10.4389
宣城	-10.4394
有序	-10.4404
者有	-10.4405
之門	-10.442
大雅	-10.4426
誌	-10.4431
鑾	-10.4436
敞	-10.4436
民之	-10.4439
誼	-10.4439
之才	-10.444
馮翊	-10.4442
禋	-10.4442
森	-10.4443
淡	-10.4443
蔓	-10.4444
簿	-10.4444
粤	-10.4445
鄂	-10.4445
捧	-10.4445
緜	-10.4445
洪範	-10.4446
黛	-10.4447
為人	-10.4447
服䖍曰	-10.4449
瑤	-10.4449
澹	-10.4449
聳	-10.4449
酸	-10.445
拾遺記	-10.4451
嵇	-10.4451
訖	-10.4451
的	-10.4451
羊祜	-10.4451
爐	-10.4452
琮	-10.4452
逵	-10.4453
螭	-10.4454
䑕	-10.4454
本紀云	-10.4456
喧	-10.4456
鄱陽	-10.4457
縛	-10.4458
穉	-10.4458
宇宙	-10.4459
片	-10.446
繭	-10.4461
涌	-10.4461
地理志曰	-10.4462
沼	-10.4462
暖	-10.4463
恠	-10.4463
蓮花	-10.4466
任約	-10.447
紘	-10.447
十萬	-10.4471
翼翼	-10.4474
寺碑	-10.4478
于謹	-10.448
閒居	-10.4484
孺子	-10.4486
無遺	-10.4489
四言	-10.4497
者必	-10.4499
武帝時	-10.4503
年號	-10.4504
舍人	-10.4504
集中有	-10.4506
武子	-10.4506
不歸	-10.4514
在上	-10.4516
道士	-10.4519
時為	-10.4523
故能	-10.4525
正徳	-10.4534
黎陽	-10.4542
博物志曰	-10.4546
竹林	-10.4556
藝文	-10.456
不成	-10.4562
數萬	-10.4573
好學	-10.4576
太極	-10.458
帝崩	-10.4581
文舉	-10.4596
大臣	-10.4611
後世	-10.4614
秦川	-10.4615
之廟	-10.4617
自稱	-10.4617
宣子	-10.4619
祭之	-10.4625
六代	-10.4626
天文	-10.4628
於前	-10.4648
終身	-10.4665
五經	-10.4673
九十	-10.4674
孺	-10.4678
仞	-10.4688
傷心	-10.4693
詩序	-10.4694
文帝紀	-10.4697
世尊	-10.4698
渭水	-10.4708
娯	-10.4715
藐	-10.4717
曇	-10.4718
埒	-10.472
以致	-10.4721
毘	-10.4722
殤	-10.4722
只	-10.4724
㨗	-10.4724
三家	-10.4724
郁	-10.4724
凍	-10.4724
旨	-10.4725
未審	-10.4726
臚	-10.4727
芥	-10.4727
匱	-10.4727
恕	-10.4727
靣	-10.4727
歸於	-10.4728
稻	-10.4728
愷	-10.4729
蚌	-10.4729
襃	-10.4729
侣	-10.473
蔑	-10.473
汜	-10.4731
𤣥圃	-10.4731
裹	-10.4731
庇	-10.4731
後漢郡國志	-10.4732
伎	-10.4733
咽	-10.4733
倡	-10.4733
偕	-10.4733
吳越春秋	-10.4734
汁	-10.4734
供養	-10.4734
陽春	-10.4735
卵	-10.4736
武皇帝	-10.4738
距	-10.4739
鮑昭	-10.4739
羙	-10.4741
刹	-10.4743
江上	-10.4744
人間	-10.4744
零陵	-10.4747
左傳僖	-10.4748
三方	-10.4749
羲和	-10.475
西伯	-10.4751
其言	-10.4756
中郎將	-10.4757
曹操	-10.476
霸先	-10.4762
南海	-10.4762
所能	-10.4763
師曠	-10.4772
一家	-10.4776
飲食	-10.4802
其妻	-10.4804
流沙	-10.4809
大將	-10.4811
之官	-10.4819
姓名	-10.4819
朔方	-10.4827
千秋	-10.4827
之命	-10.4828
自謂	-10.4832
二十五	-10.4833
梁朝	-10.4836
逺近	-10.4836
三萬	-10.4838
襄王	-10.4856
問之	-10.4862
方澤	-10.49
若乃	-10.4906
飛鳥	-10.4911
無名	-10.4915
之歌	-10.4916
府君	-10.4919
莊公	-10.4919
或以	-10.4923
冬至	-10.4926
之宫	-10.4932
之利	-10.4932
從容	-10.4933
即日	-10.4942
語也	-10.4955
亦何	-10.4959
不失	-10.4968
涪	-10.4978
河間	-10.4983
八百	-10.4983
何處	-10.4986
五千	-10.4987
玊	-10.499
臘	-10.4997
此章喻	-10.4999
貝	-10.5002
匝	-10.5002
縹	-10.5005
畆	-10.5007
罄	-10.5007
胸	-10.5008
媿	-10.5009
驛	-10.5009
鷄	-10.5009
梗	-10.501
闔	-10.501
茹	-10.501
如淳曰	-10.501
媯	-10.5011
侔	-10.5011
槩	-10.5011
俛	-10.5012
耽	-10.5013
挹	-10.5013
墓誌銘	-10.5015
亞	-10.5015
裾	-10.5018
紱	-10.5018
邾	-10.5019
燄	-10.5019
葭	-10.5019
瑩	-10.5019
庖	-10.5021
叡	-10.5021
謝靈運	-10.5022
沂	-10.5022
妍	-10.5022
攬	-10.5023
殁	-10.5023
頑	-10.5024
蓬萊	-10.5024
鮮卑	-10.5025
雒	-10.5026
褕	-10.5027
姊	-10.5027
止於	-10.5029
晷	-10.503
所殺	-10.5031
盥	-10.5034
剪	-10.5035
乃以	-10.5038
風俗通	-10.504
漢中	-10.5043
織女	-10.5046
忠貞	-10.5046
無常	-10.5047
令尹	-10.5049
莫敢	-10.5056
六軍	-10.5072
毛傳曰	-10.5073
歸來	-10.5073
從軍	-10.5081
自是	-10.5082
道路	-10.5095
死生	-10.5096
豈直	-10.5098
永嘉	-10.5103
北辰	-10.5106
大象	-10.511
神光	-10.5115
◍(	-10.5121
章臺	-10.5126
左氏傳	-10.5128
神武	-10.5139
北地	-10.5141
張良	-10.5143
高陽	-10.5144
將兵	-10.5155
積石	-10.5157
賢者	-10.516
不肯	-10.5164
自天	-10.5165
從此	-10.5168
伐齊	-10.5172
北齊	-10.5179
安可	-10.5184
吕氏春秋	-10.5187
穆公	-10.5193
不就	-10.5198
之恩	-10.5207
北門	-10.5231
武陵	-10.5256
陳武帝	-10.5268
昊	-10.527
不獲	-10.5277
其餘	-10.5282
燔	-10.5286
尚瑗曰	-10.5295
跋	-10.5296
臣某言	-10.5296
墀	-10.5299
葱	-10.5299
初學記	-10.53
藴	-10.53
與子	-10.53
尅	-10.53
抱朴子	-10.5303
𦵏於	-10.5303
淄	-10.5304
陶淵明	-10.5304
維摩經	-10.5306
翩翩	-10.5306
慚	-10.5306
甥	-10.5307
劾	-10.5307
斃	-10.5308
逍遥	-10.5308
兎	-10.5308
鐫	-10.5308
檝	-10.5309
澠	-10.5309
窈窕	-10.531
罹	-10.531
霖	-10.531
翅	-10.531
潢	-10.5311
濳	-10.5312
楫	-10.5312
㢘	-10.5312
干戈	-10.5312
屑	-10.5315
苟	-10.5315
簒	-10.5315
彈琴	-10.5316
羇旅	-10.5316
摛	-10.5316
拓	-10.5316
梁簡文帝	-10.5317
帝堯	-10.5318
股肱	-10.532
故謂之	-10.5322
韓詩外傳	-10.5323
芻	-10.5323
太乙	-10.5325
菲	-10.5328
無事	-10.5328
之重	-10.5329
蔵	-10.533
巵	-10.5331
藜	-10.5332
后妃	-10.5337
熊耳	-10.5339
其形	-10.5347
戲賦	-10.5348
不足以	-10.5348
親戚	-10.5349
屬國	-10.5351
帝位	-10.5356
撫軍	-10.5357
是年	-10.5364
欽明	-10.5366
君子之	-10.5366
顔色	-10.5367
蘇秦	-10.5369
明哲	-10.5378
氣也	-10.5381
金城	-10.5392
不利	-10.5392
改元	-10.5401
夫婦	-10.5407
三代	-10.542
四面	-10.5421
武川	-10.5422
字叔	-10.5422
本姓	-10.5424
慶雲	-10.5425
西京雜記曰	-10.5438
其功	-10.5448
自序	-10.546
徐君	-10.5464
金谷	-10.5481
未至	-10.5501
世間	-10.5515
隋書地理志	-10.5516
安世	-10.5524
也漢書曰	-10.5525
桓帝	-10.5528
納言	-10.553
太白	-10.5531
實有	-10.5535
先帝	-10.5538
樹下	-10.5543
不識	-10.5551
越王	-10.5554
相望	-10.5561
風起	-10.5564
江州	-10.5574
有功	-10.5586
聲音	-10.5594
至孝	-10.5594
迥	-10.5599
遥望	-10.5599
括地志	-10.56
演	-10.56
有疾	-10.5603
餞	-10.5603
椎	-10.5605
鼠	-10.5605
淇	-10.5607
見長孫	-10.5607
又諮若	-10.5607
簧	-10.5607
柵	-10.5607
蒼梧	-10.5608
較	-10.5609
梧桐	-10.5609
薫	-10.5609
頌曰	-10.5609
賀拔	-10.561
白水	-10.561
究	-10.5611
邢	-10.5611
翊	-10.5611
髓	-10.5612
帝紀曰	-10.5612
訊	-10.5612
狩	-10.5613
寗	-10.5613
䧏	-10.5613
誣	-10.5614
截	-10.5614
渴	-10.5614
魴	-10.5615
幄	-10.5616
昶	-10.5617
慨然	-10.5617
飽	-10.5617
傲	-10.5617
廷尉	-10.5618
猥	-10.5618
陸士衡	-10.5618
諭	-10.5618
葩	-10.5618
穎	-10.5619
瑯琊	-10.5619
壞	-10.562
揆	-10.5621
恣	-10.5623
漬	-10.5625
洞庭	-10.563
永平	-10.5632
司寇	-10.5633
關中	-10.5634
之符	-10.564
爾時	-10.564
樂記	-10.5646
天人	-10.5646
太保	-10.5648
星辰	-10.5656
建國	-10.5662
荘子	-10.5662
萬騎	-10.5675
小兒	-10.5675
之初	-10.5677
衣冠	-10.5686
叔孫	-10.5693
海岱	-10.5697
大梁	-10.5705
猶有	-10.5709
太廟	-10.5719
古文	-10.5721
之方	-10.5721
說文	-10.5724
容與	-10.5732
之業	-10.5737
弱水	-10.5741
兖	-10.5742
北郊	-10.5756
江海	-10.5762
石崇	-10.5768
莫能	-10.5777
周易曰	-10.5802
明珠	-10.5814
所都	-10.5817
光明	-10.582
十巻	-10.5821
終日	-10.5822
貴賤	-10.5825
萬民	-10.5825
鍾山	-10.5827
疑即	-10.5828
春日	-10.5829
新安	-10.5838
郡國	-10.5842
海中	-10.5847
何可	-10.5853
也或曰	-10.5858
屬文	-10.5859
周官	-10.5861
雲門	-10.5865
酒泉	-10.5867
三川	-10.5874
安平	-10.5883
一部	-10.5885
當世	-10.5898
金馬	-10.5901
箋	-10.5901
■	-10.5906
黯	-10.5908
藍	-10.591
沱	-10.5911
東觀漢記	-10.5912
華嚴經	-10.5913
塔	-10.5916
課	-10.5916
弁	-10.5916
鷲	-10.5916
蓄	-10.5917
壝	-10.5919
褐	-10.5919
兇	-10.592
大通	-10.592
塲	-10.592
撓	-10.592
謗	-10.5922
姒	-10.5923
恊	-10.5923
董卓	-10.5923
謐	-10.5923
桞	-10.5924
煮	-10.5925
厄	-10.5925
詹	-10.5926
薇	-10.5926
闊	-10.5926
紳	-10.5929
臯陶	-10.5929
笋	-10.5929
鬻	-10.5929
媒	-10.5929
胎	-10.593
肱	-10.5931
墉	-10.5931
朂	-10.5931
匣	-10.5931
禘	-10.5934
讌	-10.5934
婕妤	-10.5935
侍御史	-10.5935
佚	-10.5936
弛	-10.5937
楊僕	-10.5938
儻	-10.5938
頡	-10.5939
鞅	-10.5939
夙夜	-10.5939
▁湑曰	-10.5939
弱冠	-10.5942
𢎞碑	-10.5946
縣南	-10.5953
伊洛	-10.5954
通語也	-10.5958
駿馬	-10.5959
何言	-10.5963
山林	-10.5966
此爲	-10.5969
郡縣	-10.598
赤帝	-10.5989
第四	-10.5999
立功	-10.6
無聞	-10.6001
高歡	-10.6001
徐陵	-10.602
者按	-10.6021
不宜	-10.6023
邦國	-10.6042
學者	-10.6043
記云	-10.6043
天光	-10.6056
北闕	-10.6068
六龍	-10.6081
何謂	-10.6087
周書云	-10.61
𤣥武	-10.6104
三光	-10.6113
不悟	-10.6119
七首	-10.6123
靈臺	-10.6141
不朽	-10.6143
雲雨	-10.6147
海水	-10.6158
未得	-10.6159
何足	-10.6159
十七年	-10.6178
三世	-10.6179
江表	-10.6184
之能	-10.6188
之所歌也	-10.62
墨子	-10.6211
○	-10.6222
㕘	-10.6224
迦	-10.6226
衆人	-10.6229
敘	-10.6231
鯨	-10.6234
一千	-10.6236
阪	-10.6236
届	-10.6236
閤	-10.6237
兢	-10.6237
燼	-10.6237
天和四年	-10.6237
簷	-10.6238
鷁	-10.6238
鯉	-10.624
蠲	-10.6241
交阯	-10.6241
驟	-10.6241
趾	-10.6242
蕤	-10.6242
亦可	-10.6243
鵾	-10.6243
廹	-10.6243
猜	-10.6244
珮	-10.6244
躑躅	-10.6245
隊	-10.6245
脣	-10.6247
巍巍	-10.6247
霓	-10.6248
毋	-10.6249
壓	-10.6252
昨	-10.6252
韋昭曰	-10.6253
幷	-10.6256
士卒	-10.6257
迅	-10.6257
閼	-10.6258
惕	-10.6259
湄	-10.6259
矛	-10.626
菽	-10.626
鬟	-10.6261
覲	-10.6262
孟津	-10.6267
風流	-10.627
都䕶	-10.6272
鄭國	-10.6275
萬邦	-10.6276
矣夫	-10.6284
孝友	-10.6284
少傅	-10.6285
玉樹	-10.6287
襄城	-10.6302
后土	-10.6308
江湘	-10.6313
壯士	-10.6313
入洛	-10.6314
東觀	-10.6354
二家	-10.6365
三寸	-10.6379
功曹	-10.6379
昭夏	-10.6393
王戎	-10.6397
南越	-10.64
别離	-10.6401
孝閔	-10.6402
見紇干	-10.6429
正直	-10.643
同州	-10.6437
日夜	-10.6437
之思	-10.644
宫殿	-10.6484
廢帝	-10.65
卿士	-10.6504
六合	-10.6509
見步	-10.651
得失	-10.6519
漢書地理志	-10.6522
北史本傳	-10.6529
青州	-10.653
趙魏	-10.6544
所獲	-10.6545
為丞相	-10.6553
衘	-10.6561
茵	-10.6561
灞	-10.6562
魏地形志	-10.6565
訦	-10.6567
涵	-10.6567
樹榖曰	-10.6567
剋	-10.6569
迢	-10.6571
虵	-10.6572
漢官儀	-10.6572
贍	-10.6573
少昊	-10.6574
嬪	-10.6574
堤	-10.6574
併	-10.6576
宕	-10.6576
挽	-10.6577
菩提	-10.6577
柰何	-10.6577
簮	-10.6577
挫	-10.6577
拙	-10.6578
研	-10.6578
滛	-10.6579
珥	-10.6579
酆	-10.6579
妹	-10.6579
妝	-10.658
張衡西京賦	-10.658
麒麟	-10.658
迤	-10.658
彛	-10.658
畝	-10.6581
態	-10.6581
雎	-10.6582
撥	-10.6584
郵	-10.6584
隴右	-10.6584
匏	-10.6585
酸棗	-10.6585
葦	-10.6586
峩	-10.6587
松柏	-10.6588
駰	-10.6588
咏懷	-10.6588
夸	-10.6589
讒	-10.659
卉	-10.6593
怠	-10.6593
閎	-10.6593
漢武	-10.6594
寢疾	-10.6594
隴頭	-10.6594
竦	-10.6595
流寓	-10.6596
秦穆公	-10.6596
自闗而西秦晉之間	-10.6597
堯舜	-10.6597
賓客	-10.6597
骨肉	-10.6598
俯仰	-10.6602
樂毅	-10.6602
田單	-10.6602
王制	-10.6603
▁洄曰	-10.6603
青帝	-10.6606
陳倉	-10.6609
魅	-10.6611
碧玉	-10.6619
見枯	-10.6619
黄鍾	-10.6624
家貧	-10.6626
逸民	-10.663
益州刺史	-10.6631
入海	-10.6631
不顧	-10.6631
紫微	-10.6631
而弗	-10.6633
濟濟	-10.6638
同心	-10.6638
朝鮮	-10.664
議郎	-10.6644
前驅	-10.6645
賢人	-10.6646
章句	-10.6647
桂樹	-10.6649
桑林	-10.6658
水火	-10.6661
說文曰	-10.6665
無疆	-10.6672
襄公	-10.6674
冬官	-10.6679
三元	-10.6691
太史公	-10.6698
吕氏春秋曰	-10.6716
見竹	-10.6719
不堪	-10.6734
魏軍	-10.6749
杜注	-10.6752
來歸	-10.6765
盛徳	-10.6768
官屬	-10.6782
入秦	-10.6806
二部	-10.6809
豈可	-10.681
悲風	-10.6815
義興	-10.6824
洛州	-10.6831
自殺	-10.685
也左氏傳曰	-10.6856
承制	-10.6857
諸軍事	-10.6876
冢宰	-10.6881
豈非	-10.6885
之别名	-10.6894
可觀	-10.6901
宋均曰	-10.6906
明徳	-10.6908
歐陽	-10.691
斑	-10.6911
阿含經	-10.6913
昱	-10.6914
旍	-10.6914
鄧禹	-10.6916
燎	-10.6916
幡	-10.6918
梧	-10.6918
琛	-10.6918
崑	-10.6919
摯	-10.692
墓誌	-10.6921
擕	-10.6922
漾	-10.6922
翫	-10.6922
冐	-10.6922
濡	-10.6922
夔	-10.6923
瞽	-10.6925
畤	-10.6925
煎	-10.6928
獠	-10.6928
浚	-10.6928
隘	-10.6929
睟	-10.6929
筑	-10.693
湧	-10.6931
擔	-10.6931
鎭	-10.6932
粧	-10.6932
寥廓	-10.6932
殫	-10.6932
糓	-10.6933
爪	-10.6933
盼	-10.6934
羿	-10.6934
囂	-10.6934
嗜	-10.6935
瑕	-10.6937
禽獸	-10.6937
淹留	-10.6937
楯	-10.6938
薰	-10.6938
蛟龍	-10.6942
笄	-10.6944
光景	-10.6945
毛萇	-10.6946
堯典	-10.6954
登壇	-10.6955
多少	-10.6963
杜注云	-10.6968
九錫	-10.6968
明德	-10.697
少保	-10.6982
湘東	-10.6982
孔傳曰	-10.6988
列仙傳曰	-10.6991
青雲	-10.6993
驪山	-10.7006
譬如	-10.7013
白石	-10.7026
刻石	-10.7027
西海	-10.7027
元戎	-10.7032
太山	-10.7032
季夏	-10.7047
沙門	-10.7052
幽州	-10.7059
自得	-10.7071
六卿	-10.7084
玉衡	-10.7085
云爾	-10.7086
安樂	-10.7094
文宣	-10.7111
姬周	-10.7132
睢	-10.7176
三部	-10.7195
授使持節	-10.7199
兄子	-10.7214
金波	-10.7214
丈人	-10.7215
西遷	-10.7235
所由	-10.7247
濤	-10.7248
驍	-10.7265
墖	-10.7267
𨳩	-10.7268
覧	-10.7269
盎	-10.7272
琰	-10.7273
滄	-10.7273
托	-10.7275
胙	-10.7275
璠	-10.7275
衷	-10.7277
續漢書	-10.7277
滴	-10.7278
㸔	-10.7278
帙	-10.7279
松栢	-10.728
鴻溝	-10.728
天和元年	-10.7281
黄龍	-10.7281
齊魯	-10.7281
確	-10.7281
礪	-10.7282
潦	-10.7282
須臾	-10.7282
租	-10.7283
天竺	-10.7284
踊	-10.7284
苕	-10.7284
渇	-10.7285
額	-10.7286
藿	-10.7286
驃騎大將軍	-10.7286
琯	-10.7287
伺	-10.7288
牝	-10.7288
庠	-10.7289
佞	-10.7289
脅	-10.729
愉	-10.729
挑	-10.729
漢書音義	-10.729
滄海	-10.7291
璜	-10.7291
曩	-10.7291
揖讓	-10.7291
籌	-10.7292
霆	-10.7293
菜	-10.7293
隄	-10.7294
劉歆	-10.7295
弃	-10.7296
五星	-10.7298
鋪	-10.7299
儷	-10.7299
八卦	-10.7303
舂陵	-10.7304
延壽	-10.7305
老子曰	-10.7313
始終	-10.7319
釋名曰	-10.732
乗輿	-10.7324
兆民	-10.7327
詘	-10.7329
儒林	-10.7329
神女	-10.7335
鳥獸	-10.734
官渡	-10.7342
呉王	-10.7345
周禮司	-10.7345
都長安	-10.7351
四岳	-10.7355
獻帝	-10.736
蘭池	-10.7364
昆明	-10.7372
蘇氏	-10.7388
祖父	-10.7394
贈淮	-10.7415
七里	-10.7429
將帥	-10.7429
鄭伯	-10.7431
讀書	-10.745
孤氏	-10.7453
惠王	-10.7454
從駕	-10.7454
内外	-10.7458
感物	-10.7459
真人	-10.7465
◍	-10.7471
入關	-10.7472
地理志云	-10.7495
月令曰	-10.7518
巫山	-10.7538
蜀郡	-10.756
曽祖	-10.7563
十九年	-10.7595
周大將軍	-10.7596
後漢光武紀	-10.7635
䧺	-10.7637
薊北門	-10.764
沿	-10.764
摘	-10.7641
蘇林曰	-10.7641
逌	-10.7641
踐阼	-10.7641
瀝	-10.7641
愔	-10.7642
開府儀同三司	-10.7642
沫	-10.7642
昭明太子	-10.7643
市朝	-10.7644
姻	-10.7645
暨	-10.7646
遯	-10.7647
柝	-10.7647
比邱	-10.7647
陘	-10.7648
籬	-10.7648
莫知	-10.7648
亊	-10.7648
娟	-10.7649
娛	-10.7649
黷	-10.765
天保	-10.7651
慊	-10.7652
判	-10.7652
帆	-10.7653
股	-10.7654
冬十月	-10.7654
閩	-10.7655
柘	-10.7655
伸	-10.7656
掠	-10.7656
貧賤	-10.7657
嚮	-10.7657
陶侃	-10.7657
絮	-10.7658
暈	-10.7658
羈旅	-10.7659
欷	-10.7659
祼	-10.7659
袁紹	-10.766
勾	-10.7661
山濤	-10.7663
虎賁	-10.7664
刼	-10.7665
嗚呼	-10.7666
劉琨	-10.7666
壹	-10.7666
孝亷	-10.7667
依依	-10.7668
逋	-10.7668
陸賈	-10.767
蒼蒼	-10.7671
年六十	-10.7671
霜雪	-10.7674
攘	-10.7676
進位	-10.768
青龍	-10.7683
戚里	-10.7683
亭亭	-10.7683
箋云	-10.7685
行雨	-10.7688
孫權	-10.7704
重黎	-10.771
抱樸子曰	-10.772
新豐	-10.7728
耳目	-10.7735
并州	-10.7736
郊祀	-10.7738
李斯	-10.7752
平津	-10.7761
特進	-10.7769
三十里	-10.7774
歌舞	-10.7785
車駕	-10.7788
列侯	-10.7801
五尺	-10.7808
六府	-10.7816
謁者	-10.7821
百二十	-10.7822
卿大夫	-10.7826
北征	-10.7831
李氏	-10.785
兖州	-10.7868
地理	-10.787
金精	-10.7874
長松	-10.7881
尚書令	-10.7892
九疑	-10.7899
荆州記	-10.7903
衣裳	-10.7915
司命	-10.7918
寄言	-10.792
榮華	-10.7936
先主	-10.7958
千萬	-10.7961
夏官	-10.7974
闍	-10.8014
見賀婁	-10.8019
杳	-10.8022
閟	-10.8024
把	-10.8025
見為閻	-10.8026
涅槃	-10.8027
緬	-10.8027
濮	-10.8027
儋	-10.8028
汙	-10.8028
挈	-10.8028
薊	-10.8028
雋	-10.8029
漢郊祀志	-10.8029
頒	-10.8029
琉璃	-10.803
殉	-10.803
政事	-10.803
藍田	-10.8031
暄	-10.8031
河南尹	-10.8031
閲	-10.8032
颷	-10.8033
溝洫	-10.8033
徇	-10.8033
竹書紀年	-10.8033
噪	-10.8033
沓	-10.8034
場	-10.8035
粹	-10.8035
霏	-10.8035
挽歌	-10.8035
鸚鵡	-10.8036
瓚	-10.8036
蜺	-10.8036
捜	-10.8037
鷺	-10.8037
掖	-10.8038
鐡	-10.8039
寰	-10.804
猗	-10.804
嶮	-10.804
厨	-10.8041
熏	-10.8041
垢	-10.8041
鉛	-10.8041
技	-10.8042
靑	-10.8042
隼	-10.8042
羸	-10.8042
僅	-10.8043
慈碑	-10.8044
幃	-10.8045
圉	-10.8045
餉	-10.8046
矧	-10.8046
宓	-10.8047
腐	-10.8048
祫	-10.8048
耦	-10.8049
伶	-10.805
龍驤	-10.805
縫	-10.805
烽火	-10.8051
峙	-10.8051
鮑照	-10.8052
爻	-10.8055
皇太后	-10.8055
凖	-10.8059
毓	-10.806
倪	-10.806
自闗而西謂之	-10.8061
眩	-10.8064
括地志云	-10.8065
尚書大傳	-10.8065
郭注云	-10.8065
軻	-10.8066
揺落	-10.8068
忘憂	-10.8069
刺舉	-10.8073
聰明	-10.8074
曰吾聞	-10.8078
未央宫	-10.8088
岷山	-10.8091
邦家	-10.8093
羣后	-10.8095
秦晉之間	-10.8098
巴陵	-10.81
簡文帝	-10.8103
八尺	-10.8105
呉興	-10.8106
營丘	-10.8109
百尺	-10.8113
存亡	-10.8142
朝議	-10.8143
隱士	-10.8147
中台	-10.8147
凌雲	-10.8157
經緯	-10.8158
干將	-10.8168
河伯	-10.8169
山之陽	-10.8181
儀禮	-10.8181
故吏	-10.8209
威碑	-10.8211
功封	-10.8212
精兵	-10.8214
十四年	-10.822
公私	-10.8228
得仙	-10.8239
岳陽	-10.8249
五采	-10.8259
功業	-10.8265
宗廟歌	-10.8274
日夕	-10.828
登髙	-10.8316
岷	-10.8372
淮海	-10.8407
懋	-10.8416
鮪	-10.8417
劔	-10.8422
汧	-10.8425
赫赫	-10.8426
蹕	-10.8426
捲	-10.8427
牋	-10.8427
𬒮	-10.8428
卞	-10.8428
塜	-10.8429
兖州刺史	-10.8429
𢎞農郡	-10.843
謝朓	-10.843
兾	-10.8431
藝文類聚	-10.8431
輶	-10.8431
綢繆	-10.8431
曙	-10.8431
保定四年	-10.8432
昆明池	-10.8432
勵	-10.8432
䂓	-10.8433
椀	-10.8433
屣	-10.8434
䄂	-10.8434
樊噲	-10.8434
􁇒	-10.8435
邀	-10.8435
纖	-10.8435
簪	-10.8435
鼈	-10.8436
抄	-10.8436
睹	-10.8436
膚	-10.8437
公羊傳	-10.8438
諮議	-10.8438
櫂	-10.8438
叚	-10.844
鉢	-10.8441
琬	-10.8441
粒	-10.8441
渙	-10.8442
昬	-10.8442
鋭	-10.8442
齎	-10.8442
藤	-10.8442
臼	-10.8443
核	-10.8444
覃	-10.8444
瑣	-10.8444
笥	-10.8444
什	-10.8444
隧	-10.8445
籥	-10.8446
募	-10.8446
悶	-10.8446
匹磾	-10.8448
古樂府	-10.8449
孜	-10.8449
飡	-10.8449
犍	-10.8451
牽牛	-10.8452
榭	-10.8454
班超	-10.8454
張騫	-10.8454
説苑	-10.8455
桃李	-10.8455
江淹	-10.8456
青衿	-10.8456
梅花	-10.8461
幕府	-10.8462
碣石	-10.8464
侯景傳云	-10.8465
罔極	-10.8466
侮	-10.8468
禰	-10.847
遊魂	-10.8473
江湖	-10.8473
四皓	-10.8474
共工	-10.8477
篠	-10.8479
宇文氏	-10.848
隋志云	-10.8488
阿難	-10.849
新市	-10.8495
不測	-10.8502
烏孫	-10.8505
宿昔	-10.8509
五十里	-10.851
濟河	-10.8519
徙居	-10.8528
况乃	-10.853
左丞	-10.8531
聊城	-10.8533
威儀	-10.8534
河朔	-10.8537
青牛	-10.8537
魏畧	-10.8544
功徳	-10.8544
天網	-10.855
祭酒	-10.8562
風霜	-10.8564
百川	-10.8573
長驅	-10.8573
列子曰	-10.8578
落星	-10.8579
華蓋	-10.8587
師古	-10.8598
凉風	-10.8599
荆門	-10.8601
呉志	-10.8616
七十二	-10.8634
襄子	-10.8658
年七十	-10.8668
見滕	-10.8679
國語曰	-10.868
所害	-10.8682
神器	-10.8697
列仙傳	-10.8774
雜詩	-10.8777
針	-10.8833
淒	-10.8834
度遼	-10.8834
燉煌	-10.8839
話	-10.8842
皥	-10.8842
牲牷	-10.8842
輕車	-10.8843
璇璣	-10.8844
覊	-10.8844
罃	-10.8844
貍	-10.8844
汶	-10.8845
汭	-10.8846
斫	-10.8846
吐谷渾	-10.8846
萎	-10.8846
頳	-10.8847
雲笈七籖	-10.8847
棹	-10.8847
縣注舊曰	-10.8847
璿	-10.8847
坼	-10.8847
殲	-10.8848
厠	-10.8848
虺	-10.8848
醪	-10.8849
寮	-10.8849
太祖文皇帝	-10.885
徙倚	-10.885
謹啓雲再拜	-10.885
販	-10.885
靄	-10.885
狡	-10.8851
拯	-10.8851
苴	-10.8852
惲	-10.8852
釋迦	-10.8852
砥	-10.8852
瑰	-10.8853
榛	-10.8855
彝	-10.8855
鑪	-10.8855
僭	-10.8856
御史中丞	-10.8856
㺯	-10.8856
突厥	-10.8856
晉安王	-10.8857
騐	-10.8857
禮記月令	-10.8857
剝	-10.8857
嵓	-10.8858
瘳	-10.8859
勳	-10.886
項籍	-10.8861
磨	-10.8861
彭澤	-10.8861
孽	-10.8861
黍稷	-10.8862
籜	-10.8863
張敞	-10.8863
真諦	-10.8863
踟	-10.8864
艱難	-10.8864
蕭瑟	-10.8864
殃	-10.8865
熒	-10.8866
䘏	-10.8867
百僚	-10.8868
肺	-10.8868
两	-10.8869
筩	-10.8871
竇憲	-10.8871
朱雀	-10.8872
蠧	-10.8872
織錦	-10.8875
殽	-10.8876
盜賊	-10.8877
封疆	-10.8877
欹	-10.888
駟馬	-10.8885
蕭蕭	-10.8893
匠石	-10.8894
楓	-10.8895
累遷	-10.8905
八十一	-10.8912
孔安國曰	-10.8918
述異記曰	-10.8924
▁渭生曰	-10.8924
而已矣	-10.8935
武丁	-10.8943
制度	-10.8943
問其故	-10.8944
不可勝	-10.895
應期	-10.8986
六甲	-10.8993
曾祖	-10.8994
巴郡	-10.9009
古今注	-10.9025
横流	-10.9028
十餘萬	-10.9031
經營	-10.9042
清廟	-10.9049
法度	-10.9128
炯	-10.9162
宣武	-10.9184
不知所	-10.9227
齠	-10.9266
魏曹植	-10.9266
帝嚳	-10.9271
赭	-10.9271
架	-10.9272
產	-10.9272
司𨽻	-10.9272
箋註陶淵明集	-10.9275
纊	-10.9275
豺狼	-10.9277
艫	-10.9277
擣衣	-10.9278
槨	-10.9278
醇	-10.928
踦	-10.928
渭橋	-10.9281
澧	-10.9281
怛	-10.9281
通鑑	-10.9282
旟	-10.9282
豺	-10.9282
燃	-10.9282
咫尺	-10.9282
鬚	-10.9283
隋書地志	-10.9284
饋	-10.9284
糾	-10.9285
武陵王紀	-10.9285
冉冉	-10.9285
島	-10.9285
貺	-10.9285
湍	-10.9286
上林苑	-10.9286
雲門舞	-10.9286
白帖	-10.9286
樗	-10.9287
涿	-10.9287
熹	-10.9287
沅	-10.9288
攝提	-10.9288
藹藹	-10.9288
邃	-10.9289
碁	-10.9289
煉	-10.929
蓍	-10.9291
紛紛	-10.9291
縠	-10.9292
貶	-10.9292
虚詞	-10.9292
蛤	-10.9292
减	-10.9293
稅	-10.9293
蹙	-10.9294
鄢陵	-10.9294
張宴曰	-10.9294
撞	-10.9295
汚	-10.9295
孕	-10.9295
瓠	-10.9295
涼州	-10.9295
攄	-10.9296
眄	-10.9296
盾	-10.9298
遜位	-10.9299
損益	-10.9299
伊尹	-10.9301
飜	-10.9301
鄜	-10.9301
遨	-10.9303
鉅鹿	-10.9303
枚乗	-10.9304
訴	-10.9304
釘	-10.9308
竇融	-10.9308
榻	-10.931
鋤	-10.9314
祧	-10.9315
江潭	-10.9317
薄暮	-10.9325
大冢宰	-10.9329
淮隂	-10.9333
雲霧	-10.9333
清濁	-10.9333
秦昭王	-10.9335
羽翼	-10.9342
喪亂	-10.9343
桓𤣥	-10.9343
第七	-10.935
諺曰	-10.935
進退	-10.9352
承露	-10.9354
伏波	-10.9355
𤣥鶴	-10.9361
叅軍	-10.9371
梁冀	-10.9372
原野	-10.9375
行役	-10.9392
芳林	-10.9392
忠孝	-10.9393
陜州	-10.9414
大宛	-10.9421
傳贊	-10.9421
築城	-10.9438
荆楚	-10.9441
嗟我	-10.9443
請問	-10.9457
魏明帝	-10.951
說法	-10.9595
合𦵏	-10.9612
撤	-10.9715
伋	-10.9715
籙	-10.9725
嶷	-10.9726
曆	-10.9728
鍊	-10.9731
莢	-10.9732
砂	-10.9732
搴	-10.9732
碣	-10.9732
袒	-10.9733
點	-10.9734
竽	-10.9734
蹊	-10.9735
襁	-10.9735
溜	-10.9736
睇	-10.9736
汀	-10.9736
榜	-10.9736
隷	-10.9737
寘	-10.9737
甍	-10.9737
箏	-10.9737
隻	-10.9737
躁	-10.9738
受脤	-10.9738
嫡	-10.9739
搜神記	-10.9739
蕚	-10.9739
頊	-10.9739
蕭詧	-10.9739
顗	-10.9739
澆	-10.974
㕘軍	-10.974
䕫	-10.9741
推轂	-10.9741
闌	-10.9742
戰國策	-10.9742
塋	-10.9742
彬	-10.9743
烹	-10.9743
扄	-10.9743
武成二年	-10.9743
羮	-10.9744
濃	-10.9744
閱	-10.9744
陳思王	-10.9744
爍	-10.9744
逖	-10.9744
芸	-10.9745
芟	-10.9745
贖	-10.9745
肌	-10.9745
綾	-10.9745
綿綿	-10.9746
槎	-10.9746
㝢	-10.9746
保定二年	-10.9746
洎	-10.9746
匡贊	-10.9747
煑	-10.9747
軍敗	-10.9747
靈威仰	-10.9747
巔	-10.9748
寂寥	-10.9748
附庸	-10.9748
會稽	-10.9748
蹶	-10.9749
汝潁	-10.9749
隲	-10.975
扞	-10.975
乾坤	-10.975
喻已	-10.9751
桑梓	-10.9751
荆棘	-10.9752
京兆尹	-10.9752
巒	-10.9752
倩	-10.9753
自闗而西	-10.9754
悖	-10.9755
菊花	-10.9755
振鷺	-10.9756
牡	-10.9756
筐	-10.9757
嬉	-10.9759
過秦論	-10.9759
帯	-10.9759
譬彼	-10.9761
扁	-10.9763
襜	-10.9763
大破之	-10.9765
竹杖	-10.9765
螺	-10.9765
茨	-10.9766
遇害	-10.9766
辛苦	-10.9768
蒐	-10.977
靡靡	-10.9771
烏桓	-10.9771
爾朱氏	-10.9771
斟	-10.9773
慼	-10.9773
霍光	-10.9776
夏四月	-10.9776
勸進	-10.9777
赤壁	-10.9779
蔡澤	-10.9779
伯牙	-10.9783
京口	-10.9789
漁父	-10.9792
率土	-10.9821
反覆	-10.9824
對揚	-10.9837
北史周	-10.9837
僧辯書	-10.9839
顯宗	-10.984
吏部	-10.9895
唫	-10.9897
庾氏	-10.9924
濯龍	-10.997
平原君	-11.0125
曹參	-11.0126
滎	-11.0195
叨	-11.0201
紺	-11.0201
見與楊	-11.0201
悚	-11.0202
黠	-11.0203
姪	-11.0204
樹屏曰	-11.0205
黿	-11.0205
擥	-11.0206
瑱	-11.0207
沬	-11.0207
法華經	-11.0207
暝	-11.0208
衾	-11.0208
遶	-11.0209
謳歌	-11.0209
僣	-11.021
東坡曰	-11.021
鬯	-11.021
捷	-11.0212
堵	-11.0212
旐	-11.0212
司𨽻校尉	-11.0213
邵陵王綸	-11.0213
崆	-11.0213
菑	-11.0213
樓煩	-11.0214
壅	-11.0214
肖	-11.0215
瓶	-11.0215
廣雅曰	-11.0215
鐃	-11.0215
粗	-11.0215
匈	-11.0215
楽	-11.0216
豢	-11.0216
擲	-11.0216
壚	-11.0217
蘂	-11.0217
唇	-11.0218
炊	-11.0218
瞰	-11.0218
愠	-11.0219
芒芒	-11.0219
腦	-11.0219
脆	-11.0219
俗諦	-11.0219
承聖元年	-11.022
綘	-11.0221
瑗	-11.0221
疚	-11.0221
瀨	-11.0221
艷	-11.0222
㳂	-11.0222
漫漫	-11.0222
須彌山	-11.0223
摹	-11.0223
宇文泰	-11.0224
葆	-11.0224
藺相如	-11.0224
賈逵	-11.0224
芰	-11.0225
狎	-11.0225
攅	-11.0225
噲	-11.0225
羆	-11.0225
膂	-11.0226
散騎侍郎	-11.0227
炙	-11.0227
飄飄	-11.0227
駢	-11.0227
轘轅	-11.0229
騑	-11.0229
穗	-11.0229
垂翅	-11.0231
濞	-11.0231
媫妤	-11.0231
瓦解	-11.0231
下邳	-11.0232
洋洋	-11.0232
柱國大將軍	-11.0232
櫨	-11.0232
神農氏	-11.0232
騂	-11.0232
祟	-11.0232
顏	-11.0233
溉	-11.0233
曳	-11.0233
泱	-11.0233
枳	-11.0233
穰侯	-11.0234
黄鵠	-11.0234
鉦	-11.0235
嘆息	-11.0236
兕	-11.0236
嘻	-11.0237
謹啓	-11.0238
嚴霜	-11.024
陳琳	-11.0243
楊栁	-11.0243
騶	-11.0244
太中大夫	-11.0247
鼓吹	-11.0248
襦	-11.0248
老幼	-11.0251
正員	-11.0251
鐘鼎	-11.0254
力牧	-11.0256
鴻毛	-11.0257
千户	-11.0259
篸	-11.0259
丈餘	-11.0262
經綸	-11.0263
羽毛	-11.0268
馮異	-11.0268
飛狐	-11.0271
僕射書	-11.0274
韓康	-11.0275
虞舜	-11.0277
櫟陽	-11.0282
蓮華	-11.0284
白鹿	-11.0292
黑帝	-11.0298
新亭	-11.0312
苦寒	-11.0315
丘園	-11.0315
蕭史	-11.0321
雲再拜	-11.0346
睢陽	-11.035
河南郡	-11.0354
周武帝紀	-11.0374
徵拜	-11.0477
拜大將軍	-11.0553
百丈	-11.0644
荘	-11.0651
璫	-11.0697
由旬	-11.0699
鼓琴	-11.0701
窆	-11.0701
綈	-11.0701
寤寐	-11.0702
塚	-11.0703
瞿	-11.0705
詰	-11.0705
赩	-11.0705
弇	-11.0705
扣	-11.0706
諶	-11.0707
聯	-11.0707
派	-11.0708
糜	-11.0708
嬌	-11.0708
惶	-11.0708
詳馬射賦	-11.0709
柰	-11.0709
償	-11.071
晴	-11.071
曵	-11.0711
貨殖傳	-11.0711
壻	-11.0712
亘	-11.0713
刷	-11.0713
緼	-11.0713
鬰	-11.0715
魏恭帝	-11.0715
譴	-11.0715
噬	-11.0716
吸	-11.0716
税	-11.0716
虬	-11.0716
鄴中記	-11.0717
鄭司農	-11.0717
鞏	-11.0717
吏部尚書	-11.0717
臆	-11.0718
洮	-11.0718
吁	-11.0718
簟	-11.0719
佗	-11.072
迺	-11.072
宸	-11.0721
細栁	-11.0721
堦	-11.0722
檐	-11.0722
楨	-11.0722
奩	-11.0723
臣瓚曰	-11.0723
㷀	-11.0723
贏	-11.0723
縵	-11.0724
厦	-11.0725
李善注云	-11.0725
注見本序	-11.0725
款	-11.0725
十洲記	-11.0726
尚書中候	-11.0726
此又公之功也	-11.0726
跂	-11.0727
瘞	-11.0727
蕩蕩	-11.0727
孌	-11.0728
鵝	-11.0728
七月七日	-11.0728
遞	-11.0729
繕	-11.0729
葳蕤	-11.073
離騷	-11.073
淩	-11.0731
越絶書	-11.0732
濩	-11.0732
嗜酒	-11.0732
周太祖紀	-11.0734
讖	-11.0734
鮑氏集卷第	-11.0734
涕泣	-11.0735
麟趾	-11.0735
鳧	-11.0738
爟	-11.0739
哺	-11.0739
周書本傳云	-11.0741
區區	-11.0742
金匱	-11.0742
芬芳	-11.0744
䘮亂	-11.0745
鷂	-11.0745
飭	-11.0745
蘧	-11.0748
東萊	-11.0758
洛浦	-11.0762
冠葢	-11.0764
顔淵	-11.0765
旦夕	-11.0767
太宰	-11.0769
衣錦	-11.0774
太僕	-11.0774
千仞	-11.0774
詩序云	-11.0775
疾病	-11.081
傒	-11.0816
盛衰	-11.084
雜記	-11.0917
周本紀	-11.0918
沾衣	-11.0938
凱風	-11.095
京洛	-11.0963
吹律	-11.1043
十有五	-11.1075
杜預注	-11.1078
孔安國	-11.118
瑚	-11.1201
邙	-11.1217
桃源	-11.1219
摶	-11.1227
窗	-11.1229
嶓	-11.1229
盲	-11.1229
隴坻	-11.1229
蕉	-11.123
劣	-11.1232
緗	-11.1233
羊腸	-11.1233
聆	-11.1235
郡注舊置	-11.1235
玠	-11.1235
䦨	-11.1237
吠	-11.1237
旻	-11.1237
矰	-11.1237
慝	-11.1238
嬖	-11.1238
郅	-11.1238
隋書冀州	-11.1238
王子年拾遺記曰	-11.1238
縣開國公	-11.1239
舸	-11.1239
釀	-11.1239
郡開國公	-11.1239
太清二年	-11.124
鈔	-11.1241
軹	-11.1241
鉅	-11.1241
茫	-11.1241
日磾	-11.1241
怯	-11.1242
滂	-11.1242
漢書藝文志	-11.1242
皋	-11.1242
芋	-11.1242
坦	-11.1242
筋	-11.1243
壮	-11.1243
球	-11.1243
緇	-11.1243
聦	-11.1243
塊	-11.1243
忻	-11.1243
縣注舊置	-11.1243
摽	-11.1243
懶	-11.1244
安定公	-11.1244
詢	-11.1244
保定元年	-11.1244
帷幄	-11.1245
踞	-11.1246
蹄	-11.1246
揔	-11.1246
滕王逌序	-11.1246
猛獸	-11.1247
慄	-11.1247
右扶風	-11.1247
猋	-11.1248
栴	-11.1248
烱	-11.1248
搜	-11.1249
縉	-11.1249
泯	-11.1249
携手	-11.1249
細柳	-11.125
嘶	-11.125
苻	-11.125
侯景之亂	-11.125
憇	-11.125
偈	-11.125
氲	-11.125
禅	-11.1251
陳霸先	-11.1251
躭	-11.1251
瑾	-11.1251
霤	-11.1252
皇甫謐	-11.1253
砧	-11.1253
吹簫	-11.1254
遍	-11.1254
蠻夷	-11.1254
伉	-11.1255
姨	-11.1255
神異經	-11.1255
朴	-11.1257
温湯	-11.1257
鉏	-11.1258
原隰	-11.1258
娶妻	-11.1258
棠棣	-11.1258
跌	-11.126
戈船	-11.1261
裨	-11.1262
桓桓	-11.1263
虛詞	-11.1263
弭節	-11.1264
迦葉	-11.1265
尚書僕射	-11.1268
螽	-11.1268
顙	-11.1268
謝滕	-11.1271
揄	-11.1273
赤雀	-11.1274
亦如之	-11.1274
赤眉	-11.1274
㐫	-11.1277
奕世	-11.128
如之何	-11.1282
說苑	-11.1283
螻	-11.1295
棿擬之	-11.1305
趙國公	-11.1307
史記索隠	-11.162
湥	-11.1773
漢禮樂志	-11.178
皝	-11.178
䟦	-11.1781
瀘	-11.1782
㐮	-11.1785
㽔	-11.1785
天水郡	-11.1786
萱	-11.1786
貸	-11.1787
㳙	-11.1787
荔	-11.1787
彎弓	-11.1787
剥	-11.1788
敦煌	-11.1788
晡	-11.1789
漢舊儀	-11.1789
蔬	-11.1791
趙簡子	-11.1791
隋書揚州	-11.1791
䜟	-11.1792
艘	-11.1793
師古注曰	-11.1793
皁	-11.1794
菴	-11.1794
彧	-11.1794
昻	-11.1795
廣成子	-11.1796
廩	-11.1796
餒	-11.1797
尉遲迥	-11.1797
零露	-11.1797
禎	-11.1798
棲遲	-11.1798
置總管府	-11.1798
鑊	-11.1798
左思蜀都賦	-11.1799
窈	-11.1799
霰	-11.1799
杜元凱	-11.1799
霽	-11.1799
使持節車騎大將軍儀同三司	-11.18
髦	-11.18
庾子山集巻	-11.18
龎涓	-11.18
欽定四庫全書庾子山集巻	-11.1801
値	-11.1801
熊羆	-11.1802
燥	-11.1802
漢武故事	-11.1802
璆	-11.1802
療	-11.1802
孫叔敖	-11.1802
延陵季子	-11.1803
竪	-11.1803
殪	-11.1803
繼踵	-11.1803
顚	-11.1804
饌	-11.1804
鍼	-11.1805
縊	-11.1805
渊	-11.1806
㒺	-11.1806
垠	-11.1806
箸	-11.1806
忤	-11.1807
螟	-11.1807
黥	-11.1807
憫	-11.1808
万	-11.1808
窻	-11.1808
鏗	-11.1808
禰衡	-11.1809
溶	-11.1809
絹	-11.1809
聨	-11.1809
蒲桃	-11.181
笈	-11.181
腥	-11.181
桴	-11.1811
峨	-11.1811
鮒	-11.1813
亨	-11.1813
狥	-11.1813
邯	-11.1813
彌勒	-11.1813
郞	-11.1814
腕	-11.1815
巽	-11.1815
煢	-11.1815
韡	-11.1815
百揆	-11.1815
鄭箋曰	-11.1816
桓温	-11.1817
武王伐紂	-11.1817
靨	-11.1818
异	-11.1818
倕	-11.1819
盻	-11.182
劉裕	-11.182
髙士傳	-11.182
黼黻	-11.1822
衛尉	-11.1825
白虎通	-11.1826
貳師	-11.1826
巖巖	-11.1827
凌波	-11.183
傷心賦	-11.1831
蝶	-11.1834
秋菊	-11.1842
憒	-11.1843
管蔡	-11.1846
蜩	-11.1855
遥遥	-11.191
齊王憲碑	-11.1935
元帝承制	-11.2021
櫟	-11.2328
央	-11.2331
烏夜啼	-11.2363
汩	-11.2363
湓	-11.2365
㓗	-11.2365
雲門之舞	-11.2372
奰	-11.2372
閏	-11.2372
嶼	-11.2373
驃騎大將軍開府儀同三司	-11.2373
峴	-11.2373
炯曰此下序	-11.2373
昃	-11.2374
酬薛	-11.2374
岧	-11.2374
王僧辨	-11.2375
齊王憲	-11.2376
紛紜	-11.2376
籟	-11.2377
健	-11.2377
裒	-11.2377
􁀴	-11.2377
夐	-11.2377
劌	-11.2378
武成元年	-11.2378
漢藝文志	-11.2378
粱	-11.2378
携	-11.2379
蜮	-11.2379
莘	-11.2379
惵	-11.2379
隸	-11.238
扃	-11.2381
訣	-11.2381
廖	-11.2381
羗	-11.2381
蔣	-11.2381
晉公䕶	-11.2381
漢髙帝紀	-11.2382
遒	-11.2382
隗囂	-11.2382
承聖三年	-11.2382
鎧	-11.2382
後漢馬援傳	-11.2383
辛丑	-11.2383
乞骸骨	-11.2383
娣	-11.2383
鄯	-11.2383
彷彿	-11.2383
璩	-11.2383
訾	-11.2384
颯	-11.2384
神道碑	-11.2384
幔	-11.2384
翺翔	-11.2384
隰	-11.2384
兠	-11.2384
王仲宣	-11.2384
芙	-11.2384
夏侯嬰	-11.2385
亶	-11.2385
吼	-11.2385
圯	-11.2385
蔗	-11.2385
磧	-11.2386
裵	-11.2386
騏驥	-11.2386
隤	-11.2386
鼇	-11.2386
廵狩	-11.2387
鷗	-11.2387
笏	-11.2387
蚩	-11.2387
冤	-11.2387
坑	-11.2387
絜	-11.2387
鏃	-11.2387
亾	-11.2388
浹	-11.2388
孔叢子	-11.2388
孑	-11.2388
鹽鐵論	-11.2388
拉	-11.2389
愼	-11.2389
孫臏	-11.2389
蓬莱	-11.239
鑑	-11.239
郡舊置	-11.239
畋	-11.2391
北邙	-11.2391
賄	-11.2391
塢	-11.2391
琅玕	-11.2392
掛	-11.2392
鍳	-11.2392
呌	-11.2392
董仲舒	-11.2392
朱异	-11.2392
盆	-11.2392
䋲	-11.2393
羽檄	-11.2393
授使持節都督	-11.2394
蝕	-11.2394
脯	-11.2394
懲	-11.2395
荻	-11.2395
黻	-11.2395
錡	-11.2396
挿	-11.2396
缾	-11.2396
髣髴	-11.2396
亭障	-11.2396
彘	-11.2397
煒	-11.2397
屈膝	-11.2397
曝	-11.2397
潁隂	-11.2397
稔	-11.2397
洙	-11.2398
隗	-11.2398
蘿	-11.2398
劉楨	-11.2399
三秦記	-11.2399
笠	-11.2399
漱	-11.2399
搗衣	-11.24
剡	-11.24
范睢	-11.24
卜筮	-11.24
石榴	-11.24
溥	-11.2401
奕奕	-11.2401
偪	-11.2402
鶉首	-11.2403
鏘鏘	-11.2403
鏘	-11.2404
崢嶸	-11.2404
胡笳	-11.2405
械	-11.2405
吹笛	-11.2406
太𤣥經	-11.2407
消息	-11.2407
冥冥	-11.2408
泰寺	-11.2408
唳	-11.241
旌旗	-11.2411
羅敷	-11.2412
菌	-11.2415
孟嘗君	-11.2417
惄	-11.2419
艮	-11.242
敢告執	-11.2444
大統三年	-11.2475
雍州牧	-11.2785
述異記	-11.29
竺	-11.2971
洛神賦	-11.2989
蜡	-11.2991
菟	-11.2994
歐	-11.2995
羊舌	-11.2998
玦	-11.3
潘岳西征賦	-11.3
晃	-11.3
隋書梁州	-11.3
帖	-11.3001
濶	-11.3001
袪	-11.3002
枻	-11.3002
亷頗	-11.3002
躋	-11.3003
搢紳	-11.3004
啄	-11.3004
討平之	-11.3004
耨	-11.3004
娑	-11.3005
岀	-11.3006
輜	-11.3006
胷	-11.3006
菖蒲	-11.3006
炬	-11.3006
湮	-11.3007
江文通集	-11.3007
煜	-11.3007
丹陽尹	-11.3008
紡	-11.3008
闐	-11.3008
妣	-11.3008
彗	-11.3008
爪牙	-11.3009
壟	-11.3009
懌	-11.301
炫	-11.301
莎	-11.3011
湏	-11.3011
颺	-11.3011
天和六年	-11.3012
訦碑	-11.3012
簞	-11.3012
恍惚	-11.3012
晉書載記	-11.3012
絓	-11.3012
樹敏曰	-11.3012
顔延之	-11.3013
漢匈奴傳	-11.3013
脉	-11.3013
砥柱	-11.3014
壌	-11.3014
麤	-11.3014
擄	-11.3015
几筵	-11.3015
蹀	-11.3015
灘	-11.3015
祝融	-11.3016
羔	-11.3016
瞢	-11.3016
犂	-11.3016
丹墀	-11.3016
駑	-11.3017
日月星辰	-11.3017
錮	-11.3017
瑀	-11.3017
疫	-11.3018
周亞夫	-11.3018
迪	-11.3018
涔	-11.3018
貿	-11.3018
是其事也	-11.3019
滸	-11.3019
吁嗟	-11.3019
鋒鏑	-11.302
撲	-11.302
奏皇夏	-11.302
廱	-11.3021
購	-11.3021
豁	-11.3021
殂	-11.3021
泳	-11.3022
渺	-11.3023
藜藿	-11.3023
笮	-11.3023
鴛	-11.3024
糞	-11.3024
眇眇	-11.3024
顔延年	-11.3024
蟀	-11.3024
器械	-11.3024
誇	-11.3025
暘	-11.3025
晻	-11.3025
熠	-11.3025
畒	-11.3025
陸士龍文集卷第	-11.3025
蓐	-11.3025
蹻	-11.3026
函谷關	-11.3026
从	-11.3027
鉉	-11.3027
鯨鯢	-11.3027
徐廣曰	-11.3028
天和三年	-11.3028
嗚	-11.3029
漕	-11.3029
怵	-11.3029
遮	-11.3029
鋸	-11.3031
憮	-11.3031
鹵	-11.3032
迨	-11.3033
郭璞注云	-11.3033
坻	-11.3033
盂	-11.3035
凢	-11.3035
栱	-11.3036
翟雉	-11.3036
庳	-11.3039
疋	-11.304
棃	-11.304
畦	-11.3042
幘	-11.3046
譔	-11.3049
蛉	-11.3055
曹植洛神賦	-11.3067
漢西域傳	-11.3077
趙泉山曰	-11.3657
魔	-11.3662
楸	-11.3664
俄頃	-11.3664
矚	-11.3664
枿	-11.3664
涖	-11.3665
幻	-11.3666
齔	-11.3667
亹亹	-11.3668
謠	-11.3668
緘	-11.3668
煇	-11.3668
劬勞	-11.3668
囷	-11.3669
尒	-11.3669
驄	-11.3669
顆	-11.3669
虹蜺	-11.3669
三輔黄圗	-11.3669
鄣	-11.367
琱戈	-11.367
磴	-11.367
仄	-11.367
武帝元鼎	-11.367
舳	-11.3671
瘡	-11.3671
皐	-11.3671
晰	-11.3672
苫	-11.3672
踐祚	-11.3672
蝸	-11.3673
嘏	-11.3673
公孫瓚	-11.3673
屈原九歌	-11.3673
驤	-11.3673
墊	-11.3673
閽	-11.3673
竅	-11.3674
王子喬	-11.3674
漢武内傳	-11.3674
蹯	-11.3674
尉遲逈	-11.3674
袁盎	-11.3674
郿	-11.3674
洒	-11.3675
埽	-11.3675
幢	-11.3675
鑚	-11.3675
汲黯	-11.3675
枚乗七發	-11.3675
貲	-11.3676
頺	-11.3676
痼	-11.3676
彎	-11.3676
訛	-11.3676
闞	-11.3676
劇秦美新	-11.3677
伏惟陛下	-11.3677
辦	-11.3677
軨	-11.3677
檣	-11.3677
㶚	-11.3677
麈	-11.3677
窅	-11.3678
緹	-11.3678
婆娑	-11.3678
媵	-11.3678
薛綜曰	-11.3678
縑	-11.3678
西都賦曰	-11.3678
頷	-11.3679
岳陽王詧	-11.3679
窘	-11.3679
妬	-11.3679
訝	-11.3679
鷃	-11.3679
歆	-11.3679
史記天官書曰	-11.368
漁釣	-11.368
拳	-11.368
耻	-11.368
麓	-11.368
脚	-11.368
綰	-11.3681
狙詐	-11.3681
参	-11.3681
鞮	-11.3681
藕	-11.3681
涘	-11.3682
穰	-11.3683
畬	-11.3683
中散大夫	-11.3683
吻	-11.3683
鏖	-11.3683
漲	-11.3684
埸	-11.3684
插	-11.3684
蠢	-11.3684
袁宏	-11.3685
壷	-11.3685
薙	-11.3685
虢鄶	-11.3685
泫	-11.3685
瑁	-11.3685
葛覃	-11.3686
輻	-11.3686
薩	-11.3686
為貞陽侯	-11.3686
築長城	-11.3686
玫	-11.3686
册	-11.3686
契濶	-11.3686
苛	-11.3686
釧	-11.3687
床	-11.3687
有才子八人	-11.3687
蚤	-11.3687
勦	-11.3688
噎	-11.3688
筝	-11.3688
櫳	-11.3689
易繫辭曰	-11.3689
儛	-11.3689
玉臺新詠	-11.369
猾	-11.369
索隱曰	-11.369
呂氏春秋	-11.369
耄	-11.3691
繐	-11.3692
翬	-11.3692
㤀	-11.3693
高士傳	-11.3694
以上四段遞句退成囘文每段各増詩	-11.3695
邴	-11.3695
倏	-11.3696
怙	-11.3696
侖	-11.3697
纁	-11.3698
摭	-11.3698
𥙷	-11.3699
啖	-11.3699
豬	-11.37
繪	-11.37
頥	-11.37
俊乂	-11.3701
圻	-11.3701
帨	-11.3701
扶風平陵人	-11.3702
勗	-11.3704
几杖	-11.3704
盌	-11.3708
袤	-11.371
搔	-11.3711
鞶	-11.3715
蜻	-11.3732
卭竹	-11.3794
抱樸子	-11.4279
酎	-11.4357
㲲	-11.4366
湯東澗曰	-11.4368
泬	-11.4371
黿鼉	-11.4371
姜嫄	-11.4372
懦	-11.4375
惣	-11.4376
蔥	-11.4377
蟹	-11.4378
㟁	-11.4378
廚	-11.4379
見報寄	-11.4379
番禺	-11.438
正月上辛	-11.4382
淖	-11.4382
鄢	-11.4382
張衡東京賦	-11.4383
叶	-11.4383
痾	-11.4383
耒	-11.4383
郯	-11.4383
髫	-11.4384
凰	-11.4384
孝閔踐阼	-11.4385
齓	-11.4385
闋	-11.4385
櫺	-11.4385
紊	-11.4386
餅	-11.4387
沴	-11.4387
讋	-11.4387
壠	-11.4387
澡	-11.4387
番	-11.4387
江淹别賦	-11.4388
氾	-11.4388
燋	-11.4388
巋	-11.4388
旰	-11.4388
緫	-11.4389
桁	-11.4389
岐嶷	-11.4389
貟	-11.4389
顒	-11.4389
篋	-11.439
喋	-11.439
酤	-11.439
倘	-11.439
仲山甫	-11.4391
柙	-11.4391
闔閭	-11.4391
硯	-11.4392
隈	-11.4392
彥	-11.4392
穫	-11.4392
斵	-11.4392
覔	-11.4393
紵	-11.4394
沆	-11.4394
抃	-11.4394
進爵為王	-11.4394
禇	-11.4395
廡	-11.4395
状	-11.4395
皎皎	-11.4395
譖	-11.4396
簴	-11.4396
左思魏都賦	-11.4396
𡨕	-11.4396
吴越春秋	-11.4397
蕖	-11.4397
溱	-11.4397
逓	-11.4397
梁孝王	-11.4397
曺	-11.4397
蹔	-11.4397
鴆	-11.4397
捜神記	-11.4398
周書武帝紀云	-11.4398
贅	-11.4398
騮	-11.4398
洩	-11.4398
嫗	-11.4398
磐	-11.4399
嶰	-11.4399
妒	-11.4399
蠕蠕	-11.4399
縞	-11.4399
諠	-11.4399
睠	-11.4399
恙	-11.4399
藺	-11.4399
夫人諱某	-11.4399
梢	-11.44
滔滔	-11.44
雹	-11.44
哽	-11.44
評	-11.4401
鼙	-11.4401
喉	-11.4401
查	-11.4401
廐	-11.4401
崎	-11.4401
袁宏後漢紀曰	-11.4401
杳杳	-11.4402
蛾眉	-11.4402
梳	-11.4403
屍	-11.4403
暢轂	-11.4403
垓	-11.4403
奭	-11.4403
婺	-11.4404
嘘	-11.4404
蚊	-11.4404
巂	-11.4404
斌	-11.4405
巡狩	-11.4406
帑	-11.4407
拓跋	-11.4407
票	-11.4407
塹	-11.4408
嚼	-11.4411
瓢	-11.4413
春申君	-11.4413
懣	-11.4413
猪	-11.4413
邠	-11.4414
瀛洲	-11.4415
旭	-11.4416
嚶	-11.4416
栘	-11.442
愷悌	-11.442
譎	-11.442
猗猗	-11.4422
祓	-11.4423
億兆	-11.4426
郄	-11.4426
嵇中散集巻第	-11.4426
遡	-11.4427
褘	-11.443
州西魏改	-11.4433
郇	-11.4435
筭	-11.4437
陳楚之間	-11.4471
使持節驃騎大將軍開府儀同三司	-11.4517
璉	-11.5121
瀼	-11.5132
蜘蛛	-11.5137
瞳	-11.5142
暎	-11.5142
漢王莽傳	-11.5143
膋	-11.5143
顓	-11.5144
蔭	-11.5147
莞	-11.5149
譟	-11.5149
滕王逌	-11.515
炅	-11.515
惇	-11.515
恧	-11.515
線	-11.515
舫	-11.5151
廙	-11.5151
陬	-11.5152
耋	-11.5152
槁	-11.5152
晤	-11.5153
佾	-11.5153
沌	-11.5153
勛	-11.5153
掇	-11.5153
刮	-11.5154
櫓	-11.5154
洹	-11.5154
嗇	-11.5154
坏	-11.5154
賂	-11.5155
錐	-11.5155
刁斗	-11.5155
闚	-11.5155
飴	-11.5156
頭陀寺碑	-11.5156
鵩	-11.5157
梁王詧	-11.5158
嵬	-11.5158
着	-11.5158
廂	-11.5158
漉	-11.5158
晼	-11.5159
蓂	-11.5159
凜	-11.5159
蜚	-11.5159
概	-11.5159
濆	-11.516
拖	-11.516
瘠	-11.516
尚書左僕射	-11.516
肄	-11.516
瑒	-11.5161
檥	-11.5161
枹	-11.5161
厮	-11.5161
唘	-11.5161
都官尚書	-11.5161
憔悴	-11.5162
椽	-11.5162
姝	-11.5162
甑	-11.5162
嘈	-11.5162
呵	-11.5163
盃	-11.5163
湊	-11.5163
咀	-11.5163
祊	-11.5163
齊七政	-11.5164
牂	-11.5164
蔡邕獨斷	-11.5164
琬琰	-11.5164
磯	-11.5164
氏之先也	-11.5164
寝	-11.5164
罝	-11.5165
漢律厯志	-11.5165
汨	-11.5165
見五張	-11.5165
諜	-11.5165
刪	-11.5165
鼂	-11.5165
崧	-11.5165
埀	-11.5165
摰	-11.5165
虗	-11.5165
由此言之	-11.5165
祛	-11.5166
紗	-11.5166
逄	-11.5166
昂	-11.5167
匕	-11.5167
嗚呼哀哉乃為銘曰	-11.5168
躇	-11.5168
佯	-11.5168
吳都賦曰	-11.5168
苒	-11.5168
白虹貫日	-11.5168
嶸	-11.5168
優劣	-11.5169
罽	-11.5169
荏	-11.5169
佑	-11.5169
銓	-11.517
鬲	-11.517
滇	-11.517
貎	-11.517
隋書經籍志	-11.517
鷦	-11.5171
綍	-11.5171
麝	-11.5171
晉灼曰	-11.5171
紘綖	-11.5172
邑五百戸	-11.5172
牘	-11.5172
艇	-11.5172
悌	-11.5172
少年塲	-11.5172
縻	-11.5173
僮	-11.5173
煌煌	-11.5173
翾	-11.5173
姧	-11.5174
獍	-11.5174
迂	-11.5174
圈	-11.5174
纒綿	-11.5174
鎩	-11.5174
鷙	-11.5174
喟	-11.5175
刈	-11.5177
泮	-11.5177
見謝趙	-11.5178
南楚之外	-11.5178
杪	-11.5178
唾	-11.5179
豚	-11.518
𤣥術瑩之	-11.518
蔕	-11.5181
熒惑	-11.5181
橈	-11.5181
絆	-11.5182
沚	-11.5182
張平子	-11.5182
縶	-11.5183
杭	-11.5183
楛	-11.5184
筍	-11.5185
蘩	-11.5186
懇	-11.5186
斐	-11.5187
稼穡	-11.519
彚	-11.519
碓	-11.5192
千二百	-11.5193
輶軒使者絶代語釋别國方言第	-11.5204
剞	-11.5212
癭	-11.5215
蛄	-11.5218
蝎	-11.5265
十有八	-11.5386
魏大統	-11.5856
﨑嶇	-11.5969
滻	-11.5973
牎	-11.5973
瓴	-11.5974
訶	-11.5975
渤	-11.5976
郡注後魏置	-11.5976
睨	-11.5978
一章十	-11.5978
𢷬	-11.5978
宗子維城	-11.5979
関	-11.5979
薤	-11.598
蕨	-11.598
倐	-11.5981
阿育王	-11.5982
孝經援神契	-11.5982
潺湲	-11.5982
櫩	-11.5983
梁江文通集卷第	-11.5983
箄	-11.5985
即皇帝位	-11.5986
坡	-11.5986
銑	-11.5987
嶤	-11.5987
注西魏置	-11.5987
罇	-11.5987
漢項籍傳	-11.5987
縣開國伯	-11.5988
薺	-11.5988
漢霍光傳	-11.5989
喘	-11.5989
嶧	-11.5989
繻	-11.5989
棧	-11.599
詮	-11.599
詵	-11.599
峭	-11.5991
靈光殿賦	-11.5991
舳艫	-11.5991
賑	-11.5991
蝗	-11.5991
搗	-11.5992
悍	-11.5992
逍遙	-11.5992
默	-11.5992
海水羣飛	-11.5992
籩	-11.5993
畱	-11.5993
斚	-11.5993
班固西都賦	-11.5993
宙	-11.5993
庾開府集箋註	-11.5993
埤	-11.5994
羯	-11.5994
蓼	-11.5994
褊	-11.5994
慤	-11.5995
躊	-11.5995
裙	-11.5995
啾	-11.5995
皦	-11.5995
贄	-11.5995
浣	-11.5996
受魏禪	-11.5996
締	-11.5997
岨	-11.5997
駮	-11.5997
兑	-11.5997
淸	-11.5997
囀	-11.5997
椁	-11.5997
雝	-11.5998
儁	-11.5998
漢書西域傳曰	-11.5999
堙	-11.5999
伍子胥	-11.5999
穸	-11.5999
晣	-11.5999
燦	-11.5999
蜃	-11.5999
阿羅漢	-11.5999
聾	-11.5999
縢	-11.5999
煌	-11.6
酢	-11.6
抜	-11.6001
櫬	-11.6001
玲	-11.6001
僻	-11.6001
煴	-11.6002
漯	-11.6002
飮	-11.6002
昵	-11.6002
瓏	-11.6002
廏	-11.6003
録尚書事	-11.6003
湼	-11.6004
翥	-11.6004
文苑傳	-11.6004
愬	-11.6005
脊	-11.6005
跗	-11.6006
凊	-11.6006
嫂	-11.6006
幌	-11.6006
媛	-11.6007
珉	-11.6007
幅	-11.6007
俞	-11.6007
覈	-11.6007
僰	-11.6007
嵯峨	-11.6008
跼	-11.6008
桓譚新論	-11.6008
洋	-11.6009
栽	-11.6009
閶	-11.6011
胃	-11.6011
浄	-11.6011
狽	-11.6011
心之憂矣	-11.6012
捫	-11.6012
三輔黃圖曰	-11.6012
讙	-11.6013
甖	-11.6013
猨	-11.6013
鴉	-11.6013
窬	-11.6014
袞	-11.6014
絺	-11.6014
袴	-11.6014
鍵	-11.6015
咲	-11.6015
三輔舊事	-11.6016
懔	-11.6016
嘿	-11.6016
莅	-11.6016
琢	-11.6017
左傳襄十	-11.6017
虔	-11.6017
惱	-11.6018
崛	-11.6019
頤	-11.6019
柚	-11.6021
謇	-11.6021
史記封禪書曰	-11.6021
槿	-11.6021
罵	-11.6022
玖	-11.6022
釡	-11.6028
棣	-11.603
韍	-11.6031
藋	-11.6031
仆	-11.6037
畛	-11.604
牧臣司	-11.6071
州牧箴	-11.6378
諺	-11.6753
槌	-11.6872
歙	-11.6874
維摩詰	-11.6875
簣	-11.6876
吊	-11.688
咄	-11.688
龐	-11.6881
髯	-11.6883
辛氏三秦記	-11.6884
鄆	-11.6885
恡	-11.6886
净	-11.6886
濘	-11.6886
劉熈釋名	-11.6887
舲	-11.6889
州後周置總管府	-11.6889
瀍	-11.689
溘	-11.689
奬	-11.689
宣政元年	-11.6892
捍	-11.6892
春秋元命苞	-11.6892
駛	-11.6894
進爵為侯	-11.6894
達奚武	-11.6894
廪	-11.6894
配帝舞	-11.6894
秬鬯	-11.6895
煬	-11.6895
荆楚嵗時記	-11.6895
瓉	-11.6895
漪	-11.6896
冏	-11.6896
紏	-11.6896
賖	-11.6896
華林園	-11.6896
朱買臣	-11.6896
箇	-11.6897
憩	-11.6897
轔	-11.6897
述征記	-11.6898
擣	-11.6898
鍤	-11.6898
兆宫曰	-11.6898
兼而有之	-11.6898
纘	-11.6898
篁	-11.6899
張揖曰	-11.6899
嬾	-11.6899
漢書郊祀志	-11.69
豋	-11.69
舛	-11.69
後漢逸民傳	-11.6901
賮	-11.6901
尙	-11.6901
左思呉都賦	-11.6902
鈇	-11.6902
膓	-11.6902
殻	-11.6902
豨	-11.6902
誚	-11.6903
師敗績	-11.6903
髟	-11.6903
璃	-11.6903
莾	-11.6904
鈿	-11.6904
食貨志	-11.6904
呉越春秋	-11.6904
簞瓢	-11.6904
幟	-11.6904
駱	-11.6904
左傳襄二十	-11.6905
篡	-11.6905
軟	-11.6905
軰	-11.6906
戶	-11.6906
鶩	-11.6906
兀	-11.6906
􁗁	-11.6906
聘於東魏	-11.6906
咫	-11.6907
睎	-11.6907
逥	-11.6908
藁	-11.6908
娱	-11.6908
考工記	-11.6908
陁	-11.6909
屨	-11.6909
鎬	-11.6909
蠱	-11.6909
倜儻	-11.6909
勱	-11.6909
周庾信撰錢唐倪璠纂註	-11.6909
蘓	-11.691
敬想足下	-11.691
貔	-11.691
槍	-11.691
愽	-11.6911
褥	-11.6911
墅	-11.6911
陸費墀	-11.6911
朞	-11.6911
滲	-11.6911
昀	-11.6911
珩	-11.6912
彷	-11.6912
湔	-11.6912
覯	-11.6912
揚子雲集	-11.6912
欽定四庫全書集部二	-11.6912
蒯	-11.6912
􁀈	-11.6912
通直散騎常侍	-11.6912
瞑	-11.6912
金紫光禄大夫	-11.6912
揚雄甘泉賦	-11.6913
𣲖	-11.6913
湫	-11.6913
開國承家	-11.6913
扆	-11.6914
匄	-11.6914
莩	-11.6914
貉	-11.6915
軆	-11.6915
耐	-11.6915
偷	-11.6916
猴	-11.6916
魏陳思王曹植撰	-11.6916
黼	-11.6916
魯仲連	-11.6917
儕	-11.6917
謫	-11.6917
瓌	-11.6918
縟	-11.6918
幰	-11.6918
褧	-11.6919
歔	-11.6919
駸	-11.6919
騄	-11.6919
厝	-11.6919
詆	-11.6919
風土記	-11.692
徊	-11.692
宋魏之間謂之	-11.692
兌	-11.6921
阡	-11.6922
光祿大夫	-11.6922
徨	-11.6922
漢書律厯志	-11.6923
州大中正	-11.6924
栭	-11.6924
栩	-11.6924
駝	-11.6924
孀	-11.6924
㱕	-11.6925
嶢	-11.6925
糝	-11.6925
輈	-11.6925
馘	-11.6926
圏	-11.6927
犁	-11.6927
䍧	-11.6927
倨	-11.6929
樂天知命	-11.693
袿	-11.693
蕐	-11.6933
盍	-11.6933
緌	-11.6933
聶	-11.6934
執金吾	-11.6934
踴	-11.6935
魑	-11.6936
厓	-11.6937
皢	-11.6938
鼗	-11.6942
州領郡	-11.6942
桮	-11.6942
瞀	-11.6944
𤣥中記	-11.6947
漣	-11.6947
邛	-11.6954
劂	-11.6955
耘	-11.6957
綉	-11.6959
紇干𢎞	-11.7313
簇	-11.7872
叉	-11.7875
鼉	-11.7875
仲春之月	-11.7876
後漢班超傳	-11.7878
鸑鷟	-11.7879
畚	-11.788
㸑	-11.7881
郭林宗	-11.7882
兆騫曰	-11.7883
衒	-11.7885
僥	-11.7888
畵	-11.7888
弢	-11.7888
葺	-11.7889
鄗	-11.789
燐	-11.789
簉	-11.789
廆	-11.7891
耜	-11.7891
弨	-11.7891
欽定四庫全書庾開府集箋註巻	-11.7891
瑋	-11.7892
㳫	-11.7892
繢	-11.7893
緱	-11.7893
奈	-11.7893
鞬	-11.7894
琅	-11.7894
四郊多壘	-11.7894
老萊子曰	-11.7895
佃	-11.7895
沄	-11.7895
継	-11.7896
邑五百户	-11.7896
尚書右僕射	-11.7896
匐	-11.7896
珽	-11.7896
嘖	-11.7896
蒜	-11.7896
匍	-11.7896
嵇康琴賦	-11.7897
暌	-11.7898
驢	-11.7898
鍪	-11.7898
智度論	-11.7899
搢	-11.7899
鶯	-11.7899
嚳	-11.79
見紇豆	-11.79
阼	-11.79
知何許人	-11.79
稠	-11.79
鞞	-11.7901
氊	-11.7901
大寳二年	-11.7901
崔豹古	-11.7901
欽定四庫全書	-11.7901
臧文仲	-11.7901
都督中外諸軍事	-11.7902
迕	-11.7902
批	-11.7902
罏	-11.7902
惋	-11.7902
昊天不弔	-11.7903
斲	-11.7903
巘	-11.7903
𦕈	-11.7903
書百官公卿表	-11.7903
眡	-11.7904
杜氏通典	-11.7904
碌	-11.7904
驎	-11.7904
醒	-11.7904
濊	-11.7904
忒	-11.7904
憙	-11.7904
萼	-11.7904
䓁	-11.7904
摻	-11.7904
河東王譽	-11.7905
韙	-11.7905
馬長城窟	-11.7905
戱	-11.7905
棼	-11.7905
准	-11.7906
郜	-11.7906
鄅	-11.7906
恒河沙	-11.7906
同年而語	-11.7906
樛	-11.7907
北堂書鈔	-11.7907
禮記内則	-11.7907
卻	-11.7907
懍	-11.7908
腴	-11.7908
鄠	-11.7908
古逸詩	-11.7908
廛	-11.7909
燻	-11.7909
㵼	-11.7909
扛	-11.791
𦍑	-11.791
葅	-11.791
皂	-11.791
犇	-11.7911
宋玉招魂	-11.7911
晉清河内史陸雲士龍	-11.7912
撮	-11.7912
鏑	-11.7913
干寳搜神記曰	-11.7913
後漢輿服志	-11.7913
焜	-11.7913
跳	-11.7913
蠖	-11.7913
率由舊章	-11.7914
爕	-11.7914
跖	-11.7914
猒	-11.7914
瀣	-11.7914
冺	-11.7914
澣	-11.7915
輔佐君子	-11.7915
蹲	-11.7915
蒨	-11.7915
嶂	-11.7915
姢	-11.7915
槖	-11.7915
袵	-11.7915
麞	-11.7916
耗	-11.7916
鯢	-11.7916
閈	-11.7916
嶇	-11.7916
榮啓期	-11.7916
睫	-11.7916
粢	-11.7916
聮	-11.7916
隩	-11.7917
續齊諧記	-11.7917
臾	-11.7917
椿	-11.7917
剽	-11.7919
蜿	-11.7919
闘	-11.7919
晉平原内史吳郡陸機士衡	-11.792
怳	-11.792
喙	-11.792
瑪	-11.792
冗	-11.7921
蘖	-11.7922
拏	-11.7923
等謹案	-11.7923
鍜	-11.7923
孥	-11.7924
淥	-11.7924
撾	-11.7924
泓	-11.7925
卬	-11.7925
夘	-11.7925
漢張良傳	-11.7926
褵	-11.7926
莱	-11.7927
甌	-11.7928
郗	-11.7928
餽	-11.7928
貊	-11.7929
賀婁慈碑	-11.793
紓	-11.793
齧	-11.7931
洌	-11.7931
樗里子	-11.7935
驩	-11.7937
楣	-11.7942
墾	-11.7946
燠	-11.7951
蕪城賦	-11.7951
駁	-11.7953
嗟我懐人	-11.7956
逡	-11.7961
蠅	-11.7985
䎡	-11.8019
坊	-11.8986
攢	-11.8986
尖	-11.899
咤	-11.899
䓗	-11.899
𪷟	-11.8991
莬	-11.8992
疵	-11.8992
鄶	-11.8993
閻浮提	-11.8993
鶡	-11.8994
大赦改元	-11.8994
僞	-11.8995
樠	-11.8996
㡌	-11.8996
幬	-11.8997
甓	-11.8997
􁁃	-11.8999
礫	-11.9
崚	-11.9
髠	-11.9
歿	-11.9001
戕	-11.9002
葬信作墓誌	-11.9002
瀛	-11.9002
秫	-11.9003
悝	-11.9003
添	-11.9003
程氏妹	-11.9003
勰	-11.9004
絢	-11.9004
捃	-11.9005
醖	-11.9005
濠	-11.9007
慍	-11.9007
隮	-11.9007
緄	-11.9008
嬀	-11.9008
龠	-11.9008
罟	-11.9008
陲	-11.9008
蹉	-11.9008
瞋	-11.901
第一至第	-11.901
硎	-11.901
栅	-11.901
鶂	-11.901
縣注梁置	-11.901
縿	-11.901
拆	-11.901
曦	-11.9011
愜	-11.9011
縳	-11.9011
童謡云	-11.9011
澈	-11.9012
椅	-11.9012
曬	-11.9012
閫	-11.9012
蛩	-11.9013
宋玉九辨	-11.9013
藂	-11.9013
螮	-11.9013
娉	-11.9013
汰	-11.9014
鶚	-11.9014
禺	-11.9014
聒	-11.9014
揷	-11.9014
蹋	-11.9014
鍔	-11.9015
打	-11.9015
斿	-11.9015
无	-11.9015
莓	-11.9015
姥	-11.9016
悃	-11.9017
篾	-11.9017
渌	-11.9017
嫉	-11.9017
文苑英華	-11.9017
傭	-11.9017
戡	-11.9017
竚	-11.9017
僊	-11.9017
騅	-11.9018
江淹恨賦	-11.9018
謔	-11.9018
鶬	-11.9018
擎	-11.9018
鏡機子曰	-11.9018
嫠	-11.9018
與楊僕射書	-11.9019
杲	-11.9019
裛	-11.902
毳	-11.902
皃	-11.902
穂	-11.902
䆫	-11.9021
周禮大司樂	-11.9021
擯	-11.9021
蔡中郎集	-11.9021
潛夫論	-11.9021
彜	-11.9021
魯靈光殿賦曰	-11.9021
王充論衡	-11.9021
將命至鄴	-11.9021
周書列傳云	-11.9021
矟	-11.9022
洊	-11.9022
嬋	-11.9022
蓽	-11.9022
恚	-11.9022
蟪	-11.9023
麑	-11.9023
櫻	-11.9023
闠	-11.9023
騾	-11.9024
徐孝穆集箋注	-11.9024
龍輔女紅餘志	-11.9024
崐	-11.9024
芽	-11.9024
應劭漢官儀曰	-11.9025
榱	-11.9025
噭	-11.9025
咷	-11.9025
蓱	-11.9025
􁈹	-11.9025
鯀	-11.9025
囹	-11.9025
窀	-11.9026
掞	-11.9026
棨	-11.9026
賒	-11.9026
汁光紀	-11.9027
喚	-11.9027
跙	-11.9028
虡	-11.9029
鯁	-11.9029
觚	-11.9029
鹹	-11.9029
劉逵注云	-11.9029
是用錫公	-11.9029
料	-11.9029
熛	-11.9029
腫	-11.903
焱	-11.903
鬪	-11.903
三輔決録	-11.903
断	-11.903
噉	-11.9031
五世相韓	-11.9031
刳	-11.9031
洶	-11.9031
枲	-11.9031
堋	-11.9032
縦	-11.9032
枸	-11.9033
叫	-11.9033
耉	-11.9033
秦置屬幽州	-11.9033
筒	-11.9034
絞	-11.9035
儵	-11.9035
銖	-11.9035
狸	-11.9036
錬	-11.9037
俸	-11.9037
它	-11.9037
机	-11.9038
袛	-11.9039
耰	-11.9041
􁁜	-11.9041
鴨	-11.9041
糟	-11.9041
矞	-11.9043
閹	-11.9044
湎	-11.9045
䬃	-11.9046
沽	-11.9046
溼	-11.9046
羝	-11.9049
冽	-11.905
穟	-11.905
髀	-11.9053
襌	-11.9056
祔	-11.9061
哇	-11.9083
睒	-11.9101
步陸逞碑	-11.941
䫏	-12.0191
潯	-12.0195
栝	-12.0215
藟	-12.0226
坳	-12.0232
伃	-12.0233
文殊師利	-12.0235
襪	-12.0237
〇	-12.0239
曀	-12.0242
綝	-12.0243
莭	-12.0244
海録碎事	-12.0245
榴	-12.0246
淝	-12.0246
噫	-12.0248
驃	-12.0248
欽定四庫全書陶淵明集巻	-12.0248
脛	-12.0249
槱	-12.0249
韎	-12.025
縯	-12.0251
楞嚴經	-12.0251
㕛	-12.0251
櫝	-12.0251
磵	-12.0251
薜	-12.0251
𬗟	-12.0252
尚書大禹謨	-12.0252
酖	-12.0252
鈍	-12.0252
保姓受氏	-12.0252
陳遣使來聘	-12.0252
杓	-12.0252
齊師其遁	-12.0253
艧	-12.0254
廨	-12.0254
糅	-12.0254
麴	-12.0255
𥚑	-12.0255
【	-12.0255
睡	-12.0255
阯	-12.0255
灣	-12.0255
颸	-12.0255
褭	-12.0255
鎗	-12.0255
㩦	-12.0256
綆	-12.0256
嘔	-12.0256
輓	-12.0257
峚	-12.0257
因人成事	-12.0257
靳	-12.0258
穡	-12.0258
澨	-12.0258
仭	-12.0258
暠	-12.0258
鵞	-12.0259
覓	-12.0259
顔師古漢書注	-12.026
岏	-12.026
櫪	-12.026
浙	-12.026
冮	-12.0261
鱠	-12.0261
踆	-12.0261
曛	-12.0261
檟	-12.0261
太平御覽	-12.0261
鉗	-12.0261
斯所未喻	-12.0262
夣	-12.0262
大軍東討	-12.0262
䆳	-12.0262
靦	-12.0262
鈕	-12.0262
丼	-12.0262
崱	-12.0263
玳	-12.0263
漢鄒陽傳	-12.0263
啞	-12.0263
醬	-12.0263
奨	-12.0263
跱	-12.0264
員外郎	-12.0264
褚	-12.0264
卣	-12.0264
潄	-12.0264
崗	-12.0264
逅	-12.0264
右旋讀得詩四首	-12.0265
侯伯子男	-12.0265
軿	-12.0265
獺	-12.0265
凛	-12.0266
皖	-12.0266
装	-12.0266
河南洛陽人也	-12.0266
郈	-12.0266
周靈王太子	-12.0267
璨	-12.0267
懈	-12.0268
僵	-12.0268
皤	-12.0268
饕	-12.0269
溷	-12.0269
巍	-12.0269
殳	-12.0269
軏	-12.027
𥙿	-12.027
瘦	-12.027
贈本官加	-12.027
鄉關之思	-12.027
㕓	-12.0271
四十二章經	-12.0271
腊	-12.0272
疴	-12.0272
筴	-12.0272
氅	-12.0272
杜預左傳注曰	-12.0272
鞗	-12.0272
筰	-12.0272
㽞	-12.0273
悸	-12.0273
菰	-12.0273
孩	-12.0273
踣	-12.0274
胡僧祐	-12.0274
扼	-12.0274
薁	-12.0274
乾隆四十六年	-12.0274
李周翰曰	-12.0275
㓂	-12.0276
擗	-12.0276
絏	-12.0276
瘥	-12.0277
腮	-12.0277
䜛	-12.0277
左旋讀得詩四首	-12.0277
鈞天廣樂	-12.0277
煦	-12.0278
光輔五君	-12.0278
噴	-12.0278
惰	-12.0278
攪	-12.0278
呱	-12.0278
尔	-12.0278
鴦	-12.0279
拍	-12.0279
菩	-12.0279
旜	-12.0279
纈	-12.0279
賻	-12.0279
筏	-12.028
澁	-12.028
摺	-12.028
𥿄	-12.028
揭	-12.0281
膾	-12.0281
赬	-12.0281
肓	-12.0281
醢	-12.0282
報寄洛州	-12.0282
舩	-12.0282
隳	-12.0282
熲	-12.0282
詁	-12.0282
麕	-12.0282
刎	-12.0282
羶	-12.0283
涂	-12.0283
瑇	-12.0283
東齊海岱之間謂之	-12.0283
嗤	-12.0284
涙	-12.0284
璘	-12.0285
瀑	-12.0285
櫛	-12.0286
輳	-12.0286
薈	-12.0287
篚	-12.0287
瀏	-12.0287
䦯	-12.0287
脇	-12.0287
枌	-12.0287
陴	-12.0287
鐲	-12.0287
蹛	-12.0287
澳	-12.0288
莠	-12.0289
杌	-12.0289
封安豐侯	-12.0289
綖	-12.029
蹹	-12.0292
赧	-12.0292
虓	-12.0293
焭	-12.0294
柢	-12.0294
麄	-12.0296
故作是詩	-12.0298
吭	-12.03
瘼	-12.03
眀	-12.03
轜	-12.03
第一義諦	-12.0302
臠	-12.0302
羹	-12.0303
躓	-12.0307
㮰	-12.0309
訕	-12.0312
踧	-12.0314
斁	-12.0315
礥	-12.0319
詩情明顯	-12.032
魏廢帝三年改	-12.0321
淋	-12.0321
使持節車騎大	-12.0343
躔	-12.0359
優波提舍	-12.1584
周太祖紀魏廢帝三	-12.1617
暦	-12.1648
貰	-12.1654
􁆡	-12.1662
祲	-12.1666
讟	-12.1666
棫	-12.1668
輴	-12.1672
夹	-12.1672
忘俗忘真	-12.1673
遟	-12.1676
忳	-12.1676
吮	-12.1677
凈	-12.1677
坰	-12.1677
悁	-12.1677
呑	-12.1678
探雀鷇	-12.1678
贓	-12.1678
灃	-12.1678
仲虺之誥	-12.168
檠	-12.168
綦	-12.1681
飱	-12.1681
脈	-12.1681
芮	-12.1681
瀕	-12.1682
甪	-12.1682
筞	-12.1682
郴	-12.1683
郭璞遊仙詩	-12.1683
盛𢎞之荆州	-12.1683
嵒	-12.1683
犴	-12.1683
春秋合誠圖	-12.1684
訏	-12.1684
眥	-12.1684
嘒	-12.1685
汲冢周書	-12.1685
䨇	-12.1685
絰	-12.1685
劉熙釋名	-12.1685
戹	-12.1685
􁁉	-12.1686
蹠	-12.1686
諍	-12.1686
辤	-12.1686
瀰	-12.1686
盭	-12.1686
沗	-12.1686
㪚	-12.1687
蚖	-12.1687
唶	-12.1687
鎖	-12.1687
灧	-12.1687
鷇	-12.1687
埏	-12.1688
淬	-12.1688
崿	-12.1688
糒	-12.1688
刖	-12.1689
盱	-12.1689
嶄	-12.1689
大藏一覽	-12.169
𣏌	-12.169
轊	-12.169
襚	-12.169
懵	-12.169
泡	-12.169
﨑	-12.169
歃	-12.169
門有車馬客	-12.169
㓙	-12.1691
姣	-12.1691
郁久閭	-12.1691
秬	-12.1692
窳	-12.1692
勺	-12.1692
娠	-12.1692
鬷	-12.1692
賾	-12.1692
雩祭大饗	-12.1692
鰩	-12.1693
虫	-12.1693
賫	-12.1693
䌫	-12.1693
榼	-12.1693
倖	-12.1693
鯤	-12.1693
張協七命	-12.1694
搥	-12.1695
紋	-12.1695
捉	-12.1696
嗷	-12.1696
凑	-12.1696
蒞	-12.1696
椘	-12.1696
韞	-12.1696
肸	-12.1697
撩	-12.1697
覘	-12.1697
慇	-12.1697
矝	-12.1697
攣	-12.1697
獫	-12.1697
畀	-12.1698
廸	-12.1698
蕘	-12.1698
􁂍	-12.1698
河圖括地象	-12.1699
緤	-12.1699
含樞紐	-12.1699
玉臺新咏	-12.17
蛻	-12.17
霾	-12.17
隋開皇元年	-12.17
瀬	-12.1701
髩	-12.1701
漢酷吏傳	-12.1701
塍	-12.1701
輀	-12.1702
堞	-12.1702
馺	-12.1702
嚬	-12.1702
贇	-12.1703
嶲	-12.1703
愾	-12.1704
南正重司天	-12.1704
三槐三公位焉	-12.1704
岳字安仁	-12.1704
奘	-12.1704
泌	-12.1705
舋	-12.1705
吕延濟曰	-12.1705
𡵨	-12.1705
惴	-12.1705
岩	-12.1706
將作大匠	-12.1706
武成初進封	-12.1706
撿	-12.1706
胝	-12.1707
鵀	-12.1707
蒹	-12.1708
惆	-12.1708
劉勰新論	-12.1708
轓	-12.1709
楊惲報孫㑹宗書	-12.1709
愿	-12.171
厖	-12.171
禔	-12.1711
圄	-12.1711
譁	-12.1711
媪	-12.1711
薌	-12.1711
腓	-12.1712
榹	-12.1712
噍	-12.1712
罘	-12.1713
笞	-12.1713
酹	-12.1713
熬	-12.1713
衽	-12.1713
淯	-12.1713
㨿	-12.1714
纉	-12.1714
崢	-12.1714
尫	-12.1714
殱	-12.1715
諤	-12.1715
􁅃	-12.1716
二昭二穆	-12.1717
郫	-12.1718
蟣	-12.1718
楼	-12.1718
欽定四庫全書徐孝穆集箋注巻	-12.1719
疽	-12.1719
洧	-12.1719
窕	-12.172
蘄	-12.1721
纚	-12.1721
璇璣圖詩讀法	-12.1722
也東齊海岱之間曰	-12.1723
吃	-12.1723
攓	-12.1724
捎	-12.1724
㢠	-12.1725
絙	-12.1725
鏟	-12.1726
轤	-12.1727
阬	-12.1728
逗	-12.1729
踔	-12.1729
棋	-12.173
噱	-12.1731
昕	-12.1731
五時迎氣	-12.1731
𬞞	-12.1733
陳魏宋楚之間	-12.1734
缶	-12.1735
習習谷風	-12.1736
筥	-12.1738
禊	-12.1738
孳	-12.1739
軔	-12.1741
枰	-12.1742
攡	-12.1745
蹌	-12.1747
鴞	-12.1756
䣛	-12.1761
襤	-12.1763
遷驃騎大將軍開府	-12.3126
鄱	-12.3315
秋菊有佳色	-12.3316
罸	-12.332
痊	-12.3324
蜯	-12.3324
彌陀疏抄	-12.3326
邽	-12.3327
佉	-12.333
滮	-12.3332
迁	-12.3333
雘	-12.3333
掣	-12.3334
槥	-12.3334
欽定四庫全書揚子雲集巻	-12.3335
漢揚雄撰明鄭樸編	-12.3335
始安王拜征虜將軍	-12.3336
唁	-12.3337
朏	-12.3337
祑	-12.3337
縲	-12.3337
酧	-12.3338
裸	-12.3338
㟧	-12.3338
勣	-12.3338
牗	-12.3338
綣	-12.3339
辝	-12.3339
跛	-12.3341
乱	-12.3341
擠	-12.3341
閴	-12.3342
孱	-12.3342
墠	-12.3342
繾	-12.3342
拄	-12.3343
糺	-12.3343
顱	-12.3344
属	-12.3344
熳	-12.3344
􁖠	-12.3344
聫	-12.3345
飪	-12.3345
嫣	-12.3345
廽	-12.3345
朓	-12.3345
㠶	-12.3345
櫜	-12.3345
沭	-12.3345
磔	-12.3346
崟	-12.3346
懅	-12.3346
律師住持感應	-12.3346
毻	-12.3347
彯	-12.3347
繚	-12.3347
潏	-12.3347
艤	-12.3348
悞	-12.3348
型	-12.3348
挐	-12.3349
亰	-12.3349
鷯	-12.3349
絫	-12.3349
螂	-12.3349
鎰	-12.3349
諐	-12.335
畨	-12.335
贔	-12.335
主萃淵藪	-12.3351
長安有狹邪	-12.3351
襍	-12.3351
綃	-12.3351
欽定四庫全書蔡中郎集巻	-12.3351
昩	-12.3352
媮	-12.3352
嵸	-12.3352
𫐠	-12.3352
琹	-12.3352
史記龜䇿傳	-12.3352
轄	-12.3353
搶	-12.3353
摐	-12.3353
鼚	-12.3353
邅	-12.3353
衎	-12.3353
鸇	-12.3353
樟	-12.3353
屮	-12.3353
磾	-12.3354
餔	-12.3354
袠	-12.3355
倢	-12.3355
弹	-12.3355
渰	-12.3355
姆	-12.3355
宣貴妃誄	-12.3356
搦	-12.3356
智懐徳聖虞唐真	-12.3356
淵重涯經網羅林	-12.3356
躐	-12.3356
忩	-12.3356
蘅	-12.3357
揣	-12.3357
㻞	-12.3357
甿	-12.3357
楮	-12.3358
䡖	-12.3359
份	-12.3359
莵	-12.3359
鍚	-12.336
鰥	-12.336
蘇作興感昭恨神	-12.336
楚熊渠子	-12.336
聖人之大寳曰位	-12.3361
薆	-12.3361
西部都尉治	-12.3361
臍	-12.3361
晳	-12.3361
陕	-12.3362
梁蕭統撰	-12.3362
攫	-12.3362
怊	-12.3362
掬	-12.3362
意降居若水	-12.3362
啁	-12.3362
鬛	-12.3362
湟	-12.3362
畊	-12.3363
􁃛	-12.3363
隍	-12.3363
僃	-12.3363
醅	-12.3363
千六百軸	-12.3363
柔逺能邇	-12.3363
瘴	-12.3364
㢲	-12.3364
紲	-12.3364
虱	-12.3364
軍府見鍾儀	-12.3364
尠	-12.3365
筌	-12.3365
都督宜州諸軍事宜州刺史	-12.3365
圎	-12.3366
邐	-12.3366
遄	-12.3366
汝南先賢傳	-12.3366
肘	-12.3366
慴	-12.3366
夤	-12.3367
噏	-12.3367
翌	-12.3367
謂之八元此十六族	-12.3367
􁌌	-12.3367
阨	-12.3368
紼	-12.3368
勌	-12.3368
曈	-12.3368
鳥師而鳥名	-12.3368
㰱	-12.3368
劉敬叔異苑	-12.3369
壼	-12.3369
焯	-12.3369
生甫及申	-12.3369
軺	-12.3369
龢	-12.3369
谷静山空	-12.3369
藎	-12.3369
秃	-12.3369
矇	-12.337
僝	-12.337
蔀	-12.337
蝨	-12.337
阽	-12.337
勍	-12.337
為車騎大將軍儀同三司	-12.337
譛	-12.337
帽	-12.337
明允篤誠	-12.337
瞬	-12.3371
絀	-12.3371
爨	-12.3371
鬐	-12.3371
蹂	-12.3371
班彪王命論	-12.3372
𧖟	-12.3372
云先世避秦	-12.3372
炮	-12.3372
雰	-12.3373
慾	-12.3373
皜	-12.3373
臧榮緒晉書	-12.3373
竆	-12.3374
諂	-12.3375
始終曜觀華繁殷	-12.3375
拑	-12.3375
檉	-12.3375
蹐	-12.3375
釗	-12.3375
靂	-12.3375
沁	-12.3375
進象經賦表	-12.3376
薳	-12.3376
彖	-12.3376
天地之大徳曰生	-12.3376
鰓	-12.3377
醑	-12.3377
䲭	-12.3377
霹	-12.3377
謝宣城詩集巻第	-12.3378
餚	-12.3378
纛	-12.3378
漭	-12.3378
愕	-12.3378
聃	-12.3378
倮	-12.3379
蒍	-12.3379
螳	-12.3379
倣	-12.3379
塡	-12.3379
懃	-12.338
之乎玄微子曰予	-12.338
行雨朝朝暮暮陽臺之下	-12.338
嚢	-12.338
禆	-12.338
簺	-12.338
華亭鶴唳	-12.3381
後漢書輿服志曰	-12.3381
緺	-12.3381
甬	-12.3382
荄	-12.3382
傃	-12.3382
繋	-12.3382
俴	-12.3383
爇	-12.3383
餼	-12.3383
俚	-12.3384
蹟	-12.3384
􁂋	-12.3385
㒒	-12.3385
綟	-12.3385
樚	-12.3385
晁	-12.3385
塗山執玉帛者萬國	-12.3385
干寳捜神記曰	-12.3385
南冠而縶	-12.3386
襞	-12.3386
徠	-12.3386
恍	-12.3386
錞	-12.3386
朐	-12.3387
渫	-12.3387
攺	-12.3387
蛛	-12.3388
刄	-12.3388
臊	-12.3389
歜	-12.3389
祏	-12.3389
涅	-12.339
帔	-12.3392
蜓	-12.3392
蜒	-12.3393
芣	-12.3393
蕣	-12.3393
垤	-12.3394
渟	-12.3394
需	-12.3395
繅	-12.3396
瓿	-12.3396
獮	-12.3396
苢	-12.3396
牷	-12.3397
炕	-12.3397
岌	-12.3398
珈	-12.3398
獯	-12.34
釜	-12.34
逑	-12.3401
崇牙樹羽	-12.3403
簜	-12.3406
沇	-12.3408
澌	-12.341
六首合原讀	-12.3414
碩人其頎	-12.3415
妲	-12.3417
砭	-12.3421
臣邕頓首死罪	-12.3441
瘤	-12.3445
蜉	-12.345
清酒漿炙柰樂何清酒漿炙柰樂何	-12.3466
蛭	-12.348
􁖖	-12.35
湝	-12.5298
蘪	-12.531
杶	-12.5313
醯	-12.5317
褎	-12.5321
腆	-12.5324
挍	-12.5331
疢	-12.5331
在國陽七里之郊	-12.5332
侶	-12.5333
駃	-12.5334
孤子徐陵頓首	-12.5335
睽	-12.5336
蠒	-12.5336
洏	-12.5336
剸	-12.5337
􁂦	-12.5338
嵆	-12.5339
悒	-12.534
朅	-12.534
舡	-12.534
杞梓皮革	-12.534
嵎	-12.5341
鏁	-12.5342
饘	-12.5342
睛	-12.5342
採菊東籬下悠然見南山	-12.5342
叠	-12.5342
圖怨念為懐如林	-12.5342
平端寃是何懐身	-12.5342
瀉	-12.5342
貯	-12.5343
餳	-12.5343
阹	-12.5343
虙	-12.5343
嫩	-12.5343
氏辭懐感戚知麟	-12.5343
詩興感逺殊浮沈	-12.5343
逴	-12.5343
憾	-12.5343
抱則曠而且	-12.5344
診	-12.5344
䰞	-12.5344
溆	-12.5344
訢	-12.5345
郍	-12.5345
芍	-12.5345
鈆	-12.5346
咒	-12.5346
煨	-12.5346
悮	-12.5346
流干青雲而直上語時事則指而可想論	-12.5346
窿	-12.5346
守丹竈而不顧	-12.5346
􁊿	-12.5347
去復去兮長河湄	-12.5347
萏	-12.5347
筈	-12.5347
窶	-12.5347
嵇叔夜琴賦	-12.5347
倬	-12.5348
暹	-12.5348
鈐	-12.5348
箎	-12.5348
穽	-12.5348
茘	-12.5348
汴	-12.5348
痕	-12.5349
梁江文通文集卷第	-12.5349
甯	-12.5349
腯	-12.535
顇	-12.535
怩	-12.535
掉	-12.535
捶	-12.535
謩	-12.535
挟	-12.5351
將文昌中星名	-12.5351
匹離飄浮江湘津	-12.5351
糠	-12.5351
戟	-12.5351
文君夜亡奔相如	-12.5351
鎌	-12.5351
透	-12.5351
葹	-12.5351
軷	-12.5351
褏	-12.5351
憔	-12.5351
塾	-12.5352
朧	-12.5352
芡	-12.5352
蓊	-12.5353
扳	-12.5353
堊	-12.5353
司馬遷報任安	-12.5353
縌	-12.5353
酅	-12.5353
儆	-12.5353
虞兮奈若何	-12.5354
燕之東北朝鮮洌水之間謂之	-12.5354
紉	-12.5354
牴	-12.5354
郎中令臣雲言	-12.5354
邰	-12.5354
鱉	-12.5354
周庾信撰錢塘倪璠纂註	-12.5354
召伯甘棠	-12.5354
橿	-12.5355
傳車驂駕垂赤帷裳	-12.5355
鸚	-12.5355
朦	-12.5355
茄	-12.5355
猖	-12.5356
煞	-12.5356
矍	-12.5356
娩	-12.5356
苜	-12.5357
賽	-12.5357
蓿	-12.5357
蟾	-12.5357
窴	-12.5357
摇	-12.5357
烏孫國大昆彌治赤谷城	-12.5357
移齊河陽執事	-12.5357
葐	-12.5358
䄖	-12.5358
待罪江南思北歸賦	-12.5358
岑幽巖峻嵯峨	-12.5358
蘺	-12.5358
曯	-12.5358
𤣥鳥氏司分者	-12.5358
磚	-12.5359
硤	-12.5359
粮	-12.5359
騭	-12.5359
姙	-12.5359
南鄭歌商流徴殷	-12.5359
年授車騎大將軍儀同三司	-12.5359
漚	-12.5359
㤙	-12.5359
燾	-12.536
傺	-12.536
唏	-12.536
邳	-12.536
襆	-12.536
夲	-12.536
屆	-12.5361
婦言婦容婦功	-12.5361
哢	-12.5361
璣明别改知識深	-12.5361
臝	-12.5361
歠	-12.5361
珣	-12.5361
埶	-12.5361
慺	-12.5361
窋	-12.5361
窹	-12.5361
曁	-12.5363
豝	-12.5363
竢	-12.5363
椹	-12.5363
悛	-12.5363
侟	-12.5363
戅	-12.5363
星從其位類為	-12.5363
萇	-12.5363
假道於虞以伐虢	-12.5363
苧	-12.5363
膜	-12.5364
檮	-12.5364
璪	-12.5364
怍	-12.5364
簸	-12.5364
粳	-12.5364
韯	-12.5364
屡	-12.5365
繁華觀曜終始心	-12.5365
䤨	-12.5365
攷	-12.5365
匯	-12.5365
劃	-12.5365
謝恵連雪賦	-12.5365
畯	-12.5366
閡	-12.5366
踪	-12.5366
迸	-12.5366
裺	-12.5366
膰	-12.5366
妙顯華重榮章臣賢惟聖配英皇倫	-12.5367
芹	-12.5367
癯	-12.5367
邏	-12.5367
地上之圜丘奏之	-12.5368
术	-12.5368
歘	-12.5368
娼	-12.5369
首曰朕復子明辟	-12.5369
址	-12.5369
蔆	-12.5369
捽	-12.5369
剔	-12.537
豊	-12.537
蘊	-12.537
潞	-12.537
甜	-12.537
葉葉自相當	-12.537
闤	-12.537
燬	-12.537
数	-12.537
臏	-12.537
鵕	-12.5371
之妙也子能從我而	-12.5371
娃	-12.5371
籖	-12.5371
軋	-12.5371
礲	-12.5371
橑	-12.5372
狭	-12.5372
初與郡守為銅虎符竹使	-12.5372
巛	-12.5372
欽定四庫全書昭明太子集巻	-12.5372
殛	-12.5372
輆	-12.5372
剗	-12.5372
栒	-12.5373
周書趙王招傳云	-12.5373
掎	-12.5373
捭	-12.5373
鋏	-12.5373
舉賢良方正	-12.5373
琇	-12.5373
枕戈待旦	-12.5373
粥	-12.5374
妥	-12.5374
節八音而行八風	-12.5374
梭	-12.5374
隃	-12.5374
潘岳秋興賦序	-12.5375
酉陽雜爼	-12.5375
悙	-12.5375
擿	-12.5375
嬈	-12.5376
窠	-12.5376
爚	-12.5377
姱	-12.5377
妊	-12.5377
噓	-12.5377
矅	-12.5377
橦	-12.5378
㩣	-12.5378
蘢	-12.5378
㬰	-12.5378
滓	-12.5379
耆闍崛山	-12.5379
眙	-12.538
耇	-12.538
曕	-12.538
彂	-12.5381
誑	-12.5381
媾	-12.5381
匭	-12.5382
嵇中散集卷第	-12.5382
士者淮南小山之所作也	-12.5382
蹴	-12.5383
頰	-12.5383
寖	-12.5383
揜	-12.5383
履之必有悽愴之	-12.5383
嶔	-12.5384
擘	-12.5384
扈氏農正趣民	-12.5384
茀	-12.5384
些	-12.5385
爥	-12.5385
噤	-12.5385
焰	-12.5385
撒	-12.5385
涔陽兮極浦	-12.5385
徉	-12.5387
繘	-12.5388
䤋	-12.5388
䦧	-12.5389
鳦	-12.539
鐶	-12.539
草木蟲魚疏	-12.539
頏	-12.5391
頹	-12.5392
菹	-12.5392
萑	-12.5392
綢	-12.5392
棓	-12.5393
淮沂其乂	-12.5394
漼	-12.5394
屎	-12.5394
窌	-12.5395
懟	-12.5395
軑	-12.5395
遝	-12.5396
周風興自后妃	-12.5396
宅無吉凶攝生論一首	-12.5396
洿	-12.5397
附増第三圖	-12.5399
釭	-12.5399
長歎不能奮飛	-12.5399
迆	-12.5401
舊新蘇作之	-12.5402
雊	-12.5404
髏	-12.5404
堆	-12.5405
瓮	-12.5405
䔩	-12.5405
獪	-12.5405
凟	-12.5407
巇	-12.5408
珂	-12.541
瀦	-12.5415
飫	-12.5416
棁	-12.5417
鐮	-12.5417
榮光出河休氣四塞	-12.5417
瞶	-12.5417
􁔛	-12.5417
鑁	-12.5418
姉	-12.542
堇	-12.5422
綷	-12.5424
鐙	-12.5425
俶	-12.5426
灂	-12.5426
忼	-12.5427
佻	-12.543
棿	-12.5431
坯	-12.5474
蝥	-12.5512
胤	-12.7797
僛	-12.7804
蚪	-12.7804
𦂳	-12.7808
屐	-12.7809
宋魏陳楚江淮之間謂之	-12.781
籊	-12.7811
踶	-12.7813
䀩	-12.7817
懆	-12.7818
楗	-12.7818
蹷	-12.782
澀	-12.782
壙	-12.7821
狷	-12.7825
澇	-12.7825
釋氏要覽梵	-12.7825
澶	-12.7828
有役但願桑麻成	-12.7829
顦	-12.7829
謝宣城詩集卷第	-12.7831
倂	-12.7831
槊	-12.7831
不有所廢其何以昌	-12.7832
淆	-12.7832
􁂳	-12.7832
𤨏	-12.7832
覬	-12.7833
冋	-12.7833
謝開府辟召表	-12.7834
蚕	-12.7834
倦濁酒聊自適日暮巾柴車路	-12.7834
方之今日彼獨何人	-12.7834
大夫墓樹以柏諸侯墳	-12.7834
平疇交逺風良苗亦懷新	-12.7834
志篤終誓穹蒼	-12.7834
東都門外送者車數百	-12.7834
漻	-12.7835
􁋊	-12.7836
戻	-12.7836
鷕	-12.7836
憬	-12.7836
奉宣勅㫖垂	-12.7836
蘚	-12.7836
厪	-12.7836
瑛	-12.7837
佩長洲之茂苑	-12.7838
芭	-12.7838
葛常之韻語陽秋	-12.7838
崔鴻十六國春秋	-12.7839
詒	-12.7839
戎馬交馳不妨餘裕	-12.7839
蜐	-12.7839
袈	-12.784
若雲非雲郁郁	-12.784
𤏡	-12.784
敗絮自擁何慙兒子此	-12.7841
讓太傅楊州牧表	-12.7841
隣靡二仲室無萊婦抱兹苦心良獨内愧	-12.7841
􁠨	-12.7841
屩	-12.7842
鯷	-12.7842
相國齊公十郡九錫表	-12.7842
官曹案牘未嘗煩	-12.7842
飊	-12.7842
􁑾	-12.7842
廌	-12.7843
卺	-12.7843
翺	-12.7843
螿	-12.7843
膊	-12.7843
筦	-12.7843
天道幽且逺鬼神茫昧然	-12.7843
曲赦丹陽等四郡詔	-12.7843
榥	-12.7843
宼	-12.7843
服一刀圭百日仙也	-12.7843
識知改别明璣心	-12.7843
澍	-12.7844
皇帝初獻配帝奏舞一配帝謂	-12.7845
彀	-12.7845
魋	-12.7845
𤯝	-12.7845
金如粟不以入懐	-12.7845
顰	-12.7845
㕍	-12.7846
㬦	-12.7846
声	-12.7846
奓	-12.7846
年過五十少而窮苦毎以家弊東西游走	-12.7846
燁	-12.7846
袊	-12.7846
鬂	-12.7846
建平王謝賜石硯	-12.7846
斆	-12.7846
營軍梁溠蒐乗巴渝	-12.7846
詩家視淵明猶孔門視伯夷也	-12.7847
有媯之後將育於姜	-12.7847
䆒	-12.7847
煖	-12.7847
跌宕昭彰獨超衆類抑揚爽	-12.7847
庱	-12.7847
瑶琨篠簜	-12.7847
跕	-12.7848
扇上綵畫賦	-12.7848
劬	-12.7848
懋懋官功懋懋賞	-12.7848
趍	-12.7849
蓑	-12.7849
周庾信撰吳江吳兆宜註	-12.7849
去留環堵蕭然不蔽風日短褐穿結簞瓢	-12.7849
􁈯	-12.7849
碭	-12.785
迮	-12.785
為世範行為士則	-12.785
淙	-12.785
飇	-12.785
以屬神火正黎司地以屬民	-12.785
扎	-12.785
揉	-12.785
淤	-12.785
惏	-12.785
樂用黃鐘大吕之等人帝	-12.7851
慓	-12.7851
南正司天北正司地	-12.7851
奎	-12.7851
禭	-12.7852
絹幼婦外孫	-12.7852
觔	-12.7852
卹	-12.7852
鰕	-12.7852
晢	-12.7852
閾	-12.7852
􁄂	-12.7852
楞	-12.7852
𤾉	-12.7852
挻	-12.7853
秭	-12.7853
旛	-12.7853
合歡扇團團似明月	-12.7853
墄	-12.7853
鑴	-12.7853
國語祭公謀父	-12.7853
惘	-12.7853
易曰含章可貞	-12.7853
鮮美落英繽紛	-12.7853
接翮夕輒偶影	-12.7854
㠋	-12.7854
狙	-12.7854
賃	-12.7854
楂	-12.7854
鎔	-12.7854
東宫舊事太子納妃	-12.7854
礼	-12.7854
𡑞	-12.7854
塸	-12.7854
棚	-12.7854
崕	-12.7854
姡	-12.7854
淊	-12.7854
薏	-12.7854
銔	-12.7854
淼	-12.7856
悪	-12.7856
槪	-12.7856
瀴	-12.7856
建河橋於富平津	-12.7856
緍	-12.7856
刓	-12.7856
狠	-12.7856
趺	-12.7856
和趙王送峽中軍	-12.7856
慱	-12.7856
月中送我出逺郊	-12.7856
真加以貞志不休安道苦節不以躬耕	-12.7856
鴸	-12.7856
轢	-12.7857
𬎼	-12.7857
剃	-12.7857
哮	-12.7857
惎	-12.7857
佟	-12.7857
駓	-12.7857
謖	-12.7857
荑	-12.7857
馗	-12.7858
詔贈某官諡某公禮也	-12.7858
柑	-12.7858
楬	-12.7858
鳲	-12.7859
建平王慶江皇后正位章	-12.7859
醱	-12.7859
麨	-12.7859
仿	-12.7859
偹	-12.7859
初懿氏卜妻敬仲	-12.7859
痁	-12.7859
簙	-12.7859
皡	-12.7859
騏	-12.7859
瑯	-12.786
荗	-12.786
嬛	-12.786
鮫	-12.786
臉	-12.786
蕭驃騎築新亭壘埋枯	-12.786
蔟	-12.786
眂	-12.786
胼	-12.786
稱族而行尊君	-12.7861
苐	-12.7861
怒而飛其翼若垂天之雲	-12.7861
上絃驚别鶴下絃操孤鸞	-12.7861
建章宫度為千門萬户	-12.7861
晠	-12.7861
華陽西極漢水東流	-12.7861
命御者褰之百城聞風自然	-12.7861
覉	-12.7862
兮易水寒壯士一去兮不復還	-12.7863
揃	-12.7863
砮	-12.7863
耔	-12.7863
嵕	-12.7863
中有渝水其人多居水左右天性	-12.7863
噩	-12.7863
纜	-12.7863
曰求諸侯莫如勤王	-12.7863
纏	-12.7863
枵	-12.7863
懹	-12.7863
伴	-12.7864
譌	-12.7864
裼	-12.7864
鑽	-12.7864
狖	-12.7864
嚌	-12.7864
堣	-12.7864
靚	-12.7864
隴頭流水分離四下	-12.7864
丧	-12.7864
十六首共六十四首合原讀	-12.7864
慥	-12.7865
靈光巋然獨存	-12.7865
罻	-12.7865
靃	-12.7865
歌曰運石甘泉口渭水為不流	-12.7865
箔	-12.7865
爝	-12.7865
臞	-12.7865
秦軍射殺趙括	-12.7866
蘭成射䇿之年	-12.7867
公諱裔字遵𦙍河内溫人也	-12.7867
戞	-12.7867
性嗜酒家貧不能常得親舊	-12.7867
玆	-12.7867
試酌百情逺重觴忽忘天天豈	-12.7867
走馬長楸間	-12.7867
五斗米折腰	-12.7867
鍇	-12.7867
㬥	-12.7867
畫之為山雲之形	-12.7868
鯽	-12.7868
熖	-12.7868
犨	-12.7868
睂	-12.7868
攙	-12.7868
遰	-12.7868
㣧	-12.7868
宄	-12.7868
既病免家居茂陵	-12.7868
霣	-12.7869
申包胥如秦乞師立依於	-12.7869
衆仲曰官有世功	-12.7869
印背龜紐其文曰章	-12.787
矗	-12.787
䞇	-12.787
既官政而離逷	-12.787
璿璣玉衡以齊七政	-12.787
攖	-12.787
芾	-12.787
東闕北闕前殿	-12.787
梲	-12.787
鼐	-12.787
祖思慶建威將軍山陽太守	-12.787
蕭領軍拜侍中刺史章	-12.787
髳	-12.787
冑	-12.7871
蕋	-12.7871
徴流商歌鄭南音	-12.7871
嚚	-12.7871
砌	-12.7871
袐	-12.7871
尭	-12.7871
濬造船於蜀其木柹蔽江	-12.7871
控弦破左的右發摧月支	-12.7871
腋	-12.7871
琁	-12.7871
蛡	-12.7871
臶	-12.7872
能佩六國相印乎	-12.7872
曰聖人皆言海中行復	-12.7872
胹	-12.7872
疹	-12.7872
唼	-12.7872
泲	-12.7872
月不居時節如流	-12.7873
左旋讀得詩八首	-12.7874
㕔	-12.7874
傷慘懐慕増憂心	-12.7874
絪	-12.7874
鼯	-12.7874
翿	-12.7874
楩	-12.7874
欲以十五城易趙王和氏璧	-12.7874
慷	-12.7875
逷	-12.7875
咋	-12.7875
䴥	-12.7875
巓	-12.7875
菆	-12.7875
綂	-12.7876
𣙜	-12.7876
山若礪國以永存爰及苗裔	-12.7876
砰	-12.7876
箘	-12.7877
㢤	-12.7877
蓧	-12.7877
撻	-12.7877
塼	-12.7877
之曰此常山蛇勢	-12.7877
蒺	-12.7878
籯	-12.7878
壈	-12.7878
安得猛士兮守四方	-12.7878
眸	-12.7878
柜	-12.7878
擺	-12.7878
别栩陽賦五篇	-12.7878
屬大軍南討遂留	-12.7879
遌	-12.7879
翛	-12.7879
荐	-12.7879
蓁	-12.7879
忸	-12.7879
齦	-12.7879
愄	-12.7879
移風易俗莫善於樂	-12.7879
鄖	-12.7879
泒	-12.7879
濜	-12.7879
髙山尋雲深谷無景	-12.7879
䥴	-12.788
壃	-12.7881
簍	-12.7881
稾	-12.7881
斮	-12.7881
耼	-12.7881
隟	-12.7881
王良策馬車騎滿野	-12.7881
轆	-12.7881
為猿鶴小人為沙蟲	-12.7881
墐	-12.7882
柞	-12.7882
嵯	-12.7883
㤯	-12.7883
暧	-12.7883
崒	-12.7883
茸	-12.7883
拭玉於西河之主	-12.7885
佳城鬱鬱三千年見白日吁嗟滕	-12.7885
敺	-12.7885
比之今日豈可同年而語哉	-12.7885
謟	-12.7885
雙發歌我袞衣	-12.7885
傕	-12.7885
擷	-12.7885
礌	-12.7885
葳	-12.7886
暱	-12.7886
改為汾州後齊為西汾	-12.7886
惝	-12.7886
礧	-12.7886
觝	-12.7886
龍之害故置戈於船下	-12.7887
奄冉而就過	-12.7888
躆	-12.7888
啗	-12.7888
酇	-12.7888
擒竇泰復𢎞農	-12.7888
桎	-12.7889
梏	-12.7889
𥜗	-12.7889
錘	-12.7889
也逺方圖物貢	-12.7889
暐	-12.7889
燕之外郊朝鮮洌水之間	-12.7889
苹	-12.7889
盬	-12.789
九牧鑄鼎象物	-12.789
謂良曰孺子下取	-12.789
諄	-12.789
芷	-12.7891
枓	-12.7892
癢	-12.7892
鮐	-12.7892
琱	-12.7892
􁤽	-12.7893
債	-12.7893
帳頂安金蓮花	-12.7893
窒	-12.7893
愮	-12.7893
衰榮無定在彼此更共之	-12.7893
於河渭河渭不足北飲大澤未至	-12.7894
𬗋	-12.7894
禖	-12.7895
幪	-12.7896
穣	-12.7896
弸	-12.7897
痺	-12.7897
睞	-12.7899
蓀	-12.7899
氂	-12.7899
缻	-12.79
延年為協律都尉	-12.79
咺	-12.79
啻	-12.7901
緻	-12.7902
韭	-12.7903
駍	-12.7903
訥	-12.7903
嘽	-12.7903
􁋉	-12.7903
浼	-12.7904
㕑	-12.7906
㴱	-12.7907
猝	-12.7908
儺	-12.7908
歧	-12.7911
售	-12.7911
鸛	-12.7913
鴠	-12.7914
偲	-12.7917
三千七百五十二首	-12.7918
螗	-12.7919
繄	-12.7921
媱	-12.7922
玃	-12.7924
戴凱之竹譜曰	-12.7924
适	-12.7924
洫	-12.7926
鸎	-12.7927
蚣	-12.7929
脾	-12.793
螾	-12.7933
芉	-12.7946
蜍	-12.7948
蠓	-12.795
蜋	-12.795
餗	-12.7951
蝑	-12.7961
蟧	-12.7979
北燕朝鮮洌水之間	-12.7993
逭	-12.8009
鋌	-12.8025
澷	-13.1106
䁙	-13.1108
中興道銷窮於甲戌	-13.1109
洄	-13.111
湑	-13.111
􁖻	-13.1115
䇶	-13.1119
妯	-13.1127
䛳	-13.1131
踝	-13.1135
䌓	-13.1138
觥	-13.1142
祍	-13.1142
鷟	-13.1143
粃	-13.1144
謎	-13.1146
臛	-13.1148
䭾	-13.115
送酒至即便就酌醉而歸淵明不解	-13.1152
㓪	-13.1152
蔣元卿之去兖州還杜陵荆棘塞門	-13.1152
惡相求如市賈焉	-13.1154
樅	-13.1154
癉	-13.1156
垌	-13.1156
蠶月得紡績素心正如此開	-13.1158
浛	-13.1158
奫	-13.1158
忙	-13.1158
麰	-13.1158
煤	-13.1159
茅慮無中權後勁	-13.1159
嗽	-13.1159
苗生滿阡陌雖有荷	-13.116
酈食其曰距飛狐之口	-13.116
鱣	-13.1161
書去之已逺上蔡逐獵知之何晚	-13.1161
癸卯十二月中作與從弟敬逺	-13.1161
鼷	-13.1162
踤	-13.1163
腸題凑各一具	-13.1163
榮華名義重虚薄報恩難	-13.1163
旴	-13.1163
欽所感想㤀淫荒心憂増慕懐慘傷	-13.1163
矔	-13.1163
篖	-13.1163
求柱史此亦有助於風教	-13.1164
傲東軒下聊復得此生	-13.1165
苽	-13.1165
埳	-13.1165
檋	-13.1165
自陜以西召公主之	-13.1165
􁂻	-13.1165
持節中分麾下精兵二萬人遣西	-13.1165
淈	-13.1165
戊辰之年建亥之月大盜移國金	-13.1166
索蜜不得再曰荷荷遂	-13.1166
鵃	-13.1166
天授其俗謂天曰宇謂	-13.1166
公卿大夫故人邑子設祖道供帳	-13.1166
壝徑三百歩内壝半之	-13.1166
鶼	-13.1166
禧	-13.1167
濺	-13.1167
九月中於西田穫早稻	-13.1167
奧	-13.1167
其筆端惜哉亡是可也并粗	-13.1168
揚雄所謂勸百而諷一者卒無諷	-13.1168
又加王精兵六萬長圍	-13.1169
蛙	-13.1169
稲	-13.1169
其官為上柱國封上爵執	-13.1169
樴	-13.1169
短筍猶埋竹香	-13.1169
憊	-13.1169
敭	-13.1169
狗吠深巷中雞鳴桑樹巔	-13.1169
子奮發勇氣咆勃	-13.1169
微至嬖女因奸臣	-13.1169
虯	-13.117
墩	-13.1171
為人所羡今為人所憐	-13.1171
得為男矣是二樂也人生有不見日月不	-13.1171
徯	-13.1171
惸	-13.1171
蝉	-13.1171
㛯	-13.1171
勢千秋口對兵事畫	-13.1171
嘹	-13.1171
實總元戎身先士卒	-13.1171
秤	-13.1171
虎賁王吉射之中而祝	-13.1171
雁門山即北陵西隃雁之所出因以	-13.1171
繫帛書言武等在某澤	-13.1171
祀夏配天不失舊物	-13.1172
詩篇篇有酒吾觀其意不在酒亦寄	-13.1172
䫻	-13.1172
廿	-13.1173
南立銅柱以表漢之極	-13.1173
林之散卒拒驪山之叛徒	-13.1173
為鎮南將軍都督荆州諸軍	-13.1173
嚻	-13.1173
劑	-13.1173
是一樂也男女之别男尊女卑故以男為	-13.1173
朝之法左九棘孤卿大夫位	-13.1173
犒	-13.1173
吾既行年九十矣是三樂也貧者士	-13.1173
天水安定北地上郡西河	-13.1173
長榆塞名王恢所謂樹榆以為塞	-13.1173
頋	-13.1173
鶵	-13.1173
得玉璜刻曰姬受命吕佐	-13.1173
爱	-13.1173
五月披裘而負薪豈取金者哉季	-13.1173
何如將情纒憂殷	-13.1173
宋故安成王右常侍劉喬墓誌文	-13.1173
􁓣	-13.1173
㬓	-13.1174
於衆事寄衆事以忘情者也有疑陶淵明	-13.1174
蓉	-13.1175
窊	-13.1175
於諸侯車服不繫其夫	-13.1175
􁃵	-13.1175
五色石以補天斷鼇足以	-13.1175
虖	-13.1175
郝	-13.1175
凾	-13.1175
杠	-13.1175
滉	-13.1175
魏平齊栁泉蓼塢三	-13.1175
男女衣著悉如外人	-13.1175
跚	-13.1175
奉詔向甘州迎皇后	-13.1176
帝幸𤣥都觀親御法座講	-13.1176
胄落魚門兵填馬窟	-13.1176
代邸而承基遷唐郊而纂祀	-13.1176
好文學信特䝉恩禮	-13.1177
與大司馬蜀國公圍金墉城	-13.1177
解所統武進令臣	-13.1177
㑂	-13.1177
􁧂	-13.1177
有銀蠶金雀以多竒物	-13.1177
榮以兵權在己遂有異志	-13.1177
碻	-13.1177
信生世等於龍門辭親	-13.1177
取頭上葛巾漉酒	-13.1177
宰輔恥復屈身	-13.1177
建安五年上與袁紹戰	-13.1177
誺	-13.1177
左傳晉侯使吕相絶秦	-13.1177
之而不悔主父偃言生不五鼎食死	-13.1178
五鼎烹卒如其言	-13.1178
常寗喜之倫蘇秦衛鞅之匹死之而不疑	-13.1178
一丸藥光耀有五色服	-13.1178
水之上見大魚殺五牲以醮之天	-13.1178
躅	-13.1178
兵上邙山則河橋路斷	-13.1179
師臨洛浦則廣武營	-13.1179
腒	-13.1179
㳤	-13.1179
嘉五年劉聰使呼延	-13.1179
妤	-13.1179
燀	-13.1179
伯奮仲堪叔獻季仲伯虎仲熊叔豹	-13.1179
周庾信撰吴江吴兆宜註	-13.1179
樷	-13.1179
漆沮既從荆岐	-13.1179
茆	-13.1179
豫之避秦共毛公	-13.1179
陵字孝穆東海郯人	-13.1179
高帝曰運籌帷幄之中	-13.1179
舶	-13.118
涊	-13.118
自衒自媒者士女之醜行不忮不求者明	-13.118
臣聞良宰謀朝不必借	-13.118
曰大星如虹下流華渚女節	-13.118
䖏	-13.1181
踠	-13.1181
之用心是以聖人韜光賢人遁	-13.1181
尾閭玉之在山以見珍而	-13.1181
拈	-13.1181
楚子觀周受折於孫滿霍侯驂	-13.1181
一戰而舉鄢郢再戰而燒夷陵	-13.1181
一正一隅各間一句	-13.1181
剿	-13.1181
惛	-13.1181
才子併命俱非百年	-13.1181
潠	-13.1181
笛悽余思舊篇	-13.1181
醊	-13.1181
佂	-13.1181
徘	-13.1182
主而有汾陽之心子晉天下之儲而有洛	-13.1182
破蘭之生谷雖無人而自芳	-13.1182
蕭拜相國齊公十郡九錫章	-13.1182
炷	-13.1182
陽城而避險臥砥柱而求安	-13.1182
袚	-13.1183
斈	-13.1183
箒	-13.1183
刎繡頸碎錦臆	-13.1183
貨海東之藥草或紡江南之落毛譬彼鴛	-13.1183
咮	-13.1183
欝	-13.1183
种	-13.1183
讓前部羽葆鼓吹表	-13.1183
䀡	-13.1183
偽以魏叛者以誘士㑹	-13.1183
匙	-13.1183
徥	-13.1183
懕	-13.1183
枋	-13.1183
無道殺君謀楚故湛盧	-13.1183
盤髙二十丈大七圍以	-13.1183
蕭上銅鐘芝草衆瑞表	-13.1183
衂	-13.1183
韔	-13.1183
繂	-13.1183
軍一去大樹飄零	-13.1183
量亦慶弔之相及智者賢人居之甚履薄	-13.1184
禨	-13.1184
之子弟舉江東而全棄	-13.1184
之賦無衣九頓首而坐秦師乃出	-13.1184
誅茅宋玉之宅穿徑臨江之府	-13.1184
大饗亦皆祭之其祭玉用	-13.1184
魏正光末六鎮擾亂	-13.1185
兵書七巻河水浮	-13.1185
周庾信撰呉江呉兆宜註	-13.1185
始咆哮縱横未定交	-13.1185
任放豈能戚戚勞於憂畏汲汲役於人間	-13.1185
劭曰有隴坻在其西也	-13.1185
祖代左右將軍魏文皇帝直寢	-13.1185
於秦秦伯許之履士㑹之足	-13.1185
門衢令容髙車號	-13.1185
南有女郎山山上有女郎	-13.1185
招携以禮懐逺以徳	-13.1185
蕭冠軍進號征虜詔	-13.1185
軍吏無犯營民不寒	-13.1185
􁖵	-13.1185
刁	-13.1185
非無北闕之兵猶有雲臺之仗	-13.1185
箾	-13.1185
持璧睨柱秦王恐破璧乃謝相如	-13.1185
者曰不及百年此其戎乎其禮先亡矣	-13.1185
之中倐忽比之白駒寄	-13.1186
謂之逆旅宜乎與大塊而	-13.1186
秪	-13.1186
吿	-13.1186
胡笳互動牧馬悲	-13.1187
大匠渾之十一世孫	-13.1187
山頭望廷尉不能廷尉望山頭	-13.1187
箊	-13.1187
曰元始中起明堂列	-13.1187
襯	-13.1187
郈氏為之金距平子怒	-13.1187
㥾	-13.1187
做	-13.1187
屭	-13.1187
荚	-13.1187
飛鳶跕跕墮	-13.1187
就蒲州使君乞酒	-13.1187
此皆為身不顧後慮	-13.1187
為流矢所中貫其左臂	-13.1187
肉食非所望於論都	-13.1187
嫵	-13.1187
徼詰問具服罪	-13.1187
存而身安道亡而身害處百齡之内居一	-13.1188
常無欲以觀其妙常有欲以觀其	-13.1188
人有吹笛者發聲寥亮	-13.1188
瓞	-13.1188
濉	-13.1188
􁀾	-13.1188
聚空倉而雀噪	-13.1188
三階平則隂陽和風雨時	-13.1188
拜郡百姓遮道曰願從陛下	-13.1188
二首合原讀九十六首總	-13.1188
東魏置陽州後周改曰熊州	-13.1188
退一字成句以下遞退一句成章	-13.1188
風銅烏千里風至此烏	-13.1188
到主簿日事詣右軍建平王	-13.1188
夾岸數百歩中無雜樹芳	-13.1188
嵋	-13.1188
澦	-13.1188
艸	-13.1188
逸日休作偽心勞日拙	-13.1188
傀	-13.1189
炎帝之女溺死東海化為精	-13.1189
塞井夷竈陳於軍中而疏行首	-13.1189
輼	-13.1189
黄龍負圖出於壇畔	-13.119
䑛	-13.119
公進玉律秤尺	-13.119
悆	-13.119
敇	-13.119
𥚹	-13.119
之立也鳯鳥適至故	-13.119
奉和濬池初成清晨臨	-13.119
旬不休青雲干吕連月不散	-13.119
􁽏	-13.119
三墳五典八索九	-13.119
仙人導引尚刻三秋	-13.119
灝	-13.119
刧	-13.119
垂髫並怡然自樂見漁人	-13.119
復前行欲窮其林林盡水源便得一山山	-13.119
惋餘人各復延至其家皆出酒食停	-13.119
數日辭去此中人語云不足	-13.119
斤為相如文君取酒	-13.119
浥	-13.119
為恥不以無財為病自非大賢篤志與道	-13.119
率妻子邑人來此絶境不復出焉	-13.119
纆	-13.119
聞有此人咸來問訊	-13.119
舊聞離天罪辜神	-13.119
鄽	-13.119
鬼火亂於平林殤魂遊於新市	-13.119
晉鄭靡依魯衛不睦	-13.1191
陳徐陵撰呉江呉兆宜	-13.1191
九十面山而居懲山北之塞	-13.1192
韓簡挑戰穆公衡琱戈	-13.1192
常不完三旬九遇	-13.1192
語終不及朝省政事	-13.1192
糴	-13.1192
十洲記曰長洲一名青丘在南海	-13.1192
司勲掌六卿賞地之法以	-13.1192
朶	-13.1192
梵唱皆植依擬所造	-13.1192
馬隊非講肆校書亦已勤	-13.1192
䏁	-13.1192
妺	-13.1192
晉故豫章内史夏府君	-13.1192
至渭橋有女子浴於渭	-13.1192
謏	-13.1192
韓分趙裂鼓臥	-13.1192
提挈老幼闗河累	-13.1193
埜	-13.1193
𥅆	-13.1194
千棲宿其上晨去	-13.1194
千人唱萬人鉤金	-13.1194
建平王太妃周氏行狀	-13.1194
欲與若復牽黄犬出	-13.1194
禾飾斚翠羽承	-13.1194
遴	-13.1194
蕭領軍讓司空并敦勸	-13.1194
醞	-13.1194
佔	-13.1194
大驪馬及繡被衣物賜之	-13.1194
屇	-13.1194
换	-13.1194
樂人習之所謂巴渝舞也	-13.1194
詖	-13.1194
輣	-13.1194
述孔業祖謝響然臻	-13.1194
遹	-13.1194
䭒	-13.1194
嘼	-13.1194
奏記詣南徐州新安王	-13.1194
撟	-13.1194
邦之六典以佐王治邦	-13.1194
飵	-13.1194
􁅨	-13.1194
王尋王邑圍昆陽驅	-13.1195
王歙為和親之侯班超	-13.1195
寞	-13.1195
縗	-13.1195
𫝊	-13.1195
趙王出師在道賜詩	-13.1196
齊國通和封人受使	-13.1196
之者皆連手縈繞投	-13.1196
賈逵入講尚書南宫雲臺	-13.1196
忭	-13.1196
膩	-13.1196
剉	-13.1196
至道殆恐非仙才也	-13.1196
臷民之國爰有歌舞之鳥鸞鳥自歌	-13.1196
㫄	-13.1196
吹萬不同而使其自巳	-13.1196
憗	-13.1196
象自後有劉淵之亂	-13.1196
建平王慶少帝登祚章	-13.1196
書洛誥周公拜手	-13.1196
䲧	-13.1196
单	-13.1196
瓜州豪傑束手歸	-13.1196
怱	-13.1196
悋	-13.1196
莋	-13.1196
賞奴婢三百口太祖與	-13.1196
隔問今是何世乃不知有漢無論魏	-13.1196
香之氣是外國所貢一著人	-13.1196
有楚師師曠曰不害吾驟歌北風又歌南	-13.1198
紩	-13.1198
兜	-13.1198
柹	-13.1198
辭令甚為鄴下所稱	-13.1198
抆	-13.1198
啣	-13.1198
丰	-13.1198
僧徒雲集不逺燉煌之城	-13.1198
梔	-13.1198
男一女並得勝衣金陵喪亂	-13.1198
楶	-13.1198
贗	-13.1198
也好吹笙作鳳鳴逰伊洛間	-13.1198
仔	-13.1198
以南復為蕭勃所據文軌	-13.1198
以歜為不能事主乎	-13.1198
以象天漢横橋南渡以法牽牛	-13.1198
撙	-13.1198
瞹	-13.1198
身死之日家無餘財	-13.1198
隺	-13.1198
千鐵圍繞訖名	-13.1198
南陽太守岑公孝𢎞農成瑨但坐嘯	-13.1198
撣	-13.1198
麖	-13.1198
𣢾	-13.1199
俳	-13.1199
沍	-13.1199
泉嶠出諸山之頂	-13.1199
鄭文公有賤妾曰燕姞	-13.1199
不樂郡吏以病去官復遊	-13.1199
陳船欲渡臨晉而	-13.1199
墓穴也兆塋域也	-13.1199
西南噀之有司奏巴	-13.12
謌	-13.12
朗鏡明光紛葩	-13.12
鴂	-13.12
之上有仙人掌承露和玉屑飲之	-13.12
傜	-13.12
者皆警戒入國者皆蹕止也	-13.12
幽咽遥望秦川肝腸斷絶	-13.12
謵	-13.12
􁆍	-13.1201
題詩二百餘首計八百餘	-13.1201
渡河晨至洛陽諸軍驚散	-13.1201
著勲追贈柱國大將軍少	-13.1202
􁈓	-13.1202
叔向見司馬侯之子撫而	-13.1202
幙	-13.1202
罥	-13.1202
都督七州諸軍事即為河州大中	-13.1202
土生金故為金徳金生水故為水徳	-13.1202
惷	-13.1202
橐	-13.1202
喢	-13.1202
歰	-13.1202
淹字文通濟陽考城人	-13.1202
為之歎嗟所離之思多感思之離經三言	-13.1202
感㑹風雲奮其智勇	-13.1202
績文伯曰以歜之家而主猶績懼干季孫	-13.1202
袩	-13.1202
錠	-13.1202
堕	-13.1203
右衛將軍封武康縣侯加散騎侍郎	-13.1203
吹落葉之扁舟飄長風於	-13.1204
彿	-13.1204
㐲	-13.1204
魅罔兩莫能逢之	-13.1204
淟	-13.1204
𤇺	-13.1204
喑	-13.1204
腹為燈飲頭為器	-13.1204
虆	-13.1204
鄷	-13.1204
謾	-13.1204
東方朔客難曰以管窺天	-13.1204
王使執燧象以奔	-13.1204
萆	-13.1204
螫	-13.1204
䑋	-13.1204
僷	-13.1204
壖	-13.1204
思風發於胸臆言泉流於脣	-13.1204
攗	-13.1204
矲	-13.1204
茗	-13.1204
蟺	-13.1204
鍬	-13.1204
㑹河陽公新造山池	-13.1204
漢武帝令張騫使大夏尋	-13.1204
至者皆拜為郎凡七百	-13.1204
偓	-13.1204
嶃	-13.1205
東魏文章辭令盛為鄴下所稱	-13.1205
伯兮叔兮同見戮於猶子	-13.1205
兒曰日初出滄滄	-13.1205
江而建國始播遷於吾祖	-13.1205
開國公絹布五萬疋	-13.1205
偭	-13.1206
毚	-13.1206
欀	-13.1206
潸	-13.1206
縡	-13.1206
噀	-13.1206
常挾彈出洛陽道婦人遇	-13.1206
於羽淵實為夏郊三代	-13.1206
鵜	-13.1206
侍從徐國公殿下軍行	-13.1206
江漢睢漳楚之望也	-13.1206
皛	-13.1206
凷	-13.1206
太建九年詔明徹北	-13.1206
髭	-13.1206
始含香於建禮仍矯翼於崇賢	-13.1206
子八人齊聖廣淵	-13.1206
為長岑長駰自以逺去	-13.1206
滳	-13.1206
睚	-13.1206
鄭武公莊公為平王卿士	-13.1206
沲	-13.1206
諳	-13.1206
滷	-13.1206
胞	-13.1206
陵尉醉呵止廣廣騎曰故李將軍尉	-13.1206
為東宫學士領建康令	-13.1207
不為近者熱而逺者	-13.1207
窣	-13.1207
桓良曰告我家七	-13.1207
磥	-13.1208
加兼愁悴少精神	-13.1208
䪥	-13.1208
下有四星曰弧直狼	-13.1208
飛而食肉此萬里侯相也	-13.1208
余馬首欲東乃歸	-13.1208
雖借人之外力實蕭牆	-13.1208
鷫	-13.1208
圮	-13.1208
域傳曰河有兩源一出蔥嶺	-13.1208
巉	-13.1208
摰虞決疑要注	-13.1208
公接上嵩山二十餘年後來	-13.1208
曰天下洶洶將若之何	-13.1208
漢間公卿墓則以石麒麟鎮之	-13.1208
灊	-13.1208
燒所貢香一枚以辟疫氣	-13.1208
聞鳥見其類而後鳴何不	-13.1208
𣆀	-13.1208
刀刺山飛泉湧出	-13.1208
大統三年河内公獨孤信	-13.1208
婬	-13.1208
王延夀魯靈光殿	-13.1208
茱	-13.1208
鱸	-13.1208
入境以來國祥甫邇自秋迄冬未申	-13.1208
跬	-13.1209
彈彈之鶴以爪攫樓板似漆	-13.121
筳	-13.121
續書曰袁氏之攻狀若鬼神	-13.121
廕	-13.121
漑	-13.121
瘢	-13.121
冬盡難離和丘長史	-13.121
太元中武陵人捕魚	-13.121
愒	-13.121
為不可别已故以其旗	-13.121
鷦鷯巢林不過	-13.121
仟	-13.121
紕	-13.121
赤如肝頭目口齒	-13.121
騩	-13.121
在金城西南河所經也	-13.121
开	-13.121
絅	-13.121
鐔	-13.121
震維徙族燕垂從宦	-13.121
牾	-13.1212
摸	-13.1212
壄	-13.1212
為主徙都鄴是為東魏	-13.1212
㤿	-13.1212
癘	-13.1212
苓	-13.1212
走者聞風聲鶴唳	-13.1212
拌	-13.1212
拜大司馬仍理小冢宰	-13.1212
灇	-13.1212
肬	-13.1212
魾	-13.1212
麽	-13.1212
讓東海之濵遂餐周粟	-13.1212
剏	-13.1213
櫑	-13.1213
赤伏符曰王梁主衛作	-13.1213
赤山在遼東西北數千里	-13.1213
轕	-13.1214
闉	-13.1214
潚	-13.1214
埭	-13.1214
熿	-13.1214
􁧥	-13.1214
蠃	-13.1214
餙	-13.1214
僔	-13.1214
帝愴然改容曰卿	-13.1214
晹	-13.1214
諛	-13.1214
憭	-13.1215
皇后服再朞戊申祥	-13.1215
徤	-13.1215
有鴛鴦雌雄各一恒棲樹	-13.1215
詬	-13.1215
蘼	-13.1215
澥	-13.1215
懾	-13.1215
車趨門傳呼甚寵	-13.1215
壊孔子舊宅以廣其	-13.1215
殿中無雙丁孝公	-13.1215
㥄	-13.1215
籀	-13.1215
凌波微歩羅襪生塵	-13.1215
卾	-13.1216
坌	-13.1216
惔	-13.1216
竑	-13.1216
鶤	-13.1216
籞	-13.1216
執末而獻無因自持	-13.1217
啓某啓奉教垂賚	-13.1217
褁	-13.1217
曨	-13.1217
菘	-13.1217
陽特見嗟嘆賜以三公之服黼黻冕	-13.1217
從征虜始安王道中	-13.1217
黶	-13.1217
命屏翳以夕降式飛	-13.1217
㲄	-13.1217
媠	-13.1217
箠	-13.1217
軾曰和在鑣曰鸞	-13.1218
曰歌者吹律以詠八風	-13.1219
桷	-13.1219
喆	-13.1219
㫿	-13.1219
橧	-13.1219
移民下邑未學邊韶	-13.1219
磷	-13.1219
諸侯聞之以為將軍從天而下也	-13.1219
歌曰風蕭蕭兮易水寒	-13.1219
􁏋	-13.1219
讞	-13.1219
啑	-13.1221
􁏹	-13.1221
埓	-13.1221
菼	-13.1221
堨	-13.1221
蓴	-13.1221
貙	-13.1221
薶	-13.1221
􁈷	-13.1221
肪	-13.1221
哨	-13.1221
鏦	-13.1221
脤	-13.1221
裯	-13.1222
劓	-13.1223
殚	-13.1223
綯	-13.1223
垂帷裳以自掩塞乎	-13.1223
摠	-13.1223
苾	-13.1223
􁛀	-13.1223
虎牢不封金墉無援	-13.1223
侠	-13.1223
倀	-13.1223
裊	-13.1223
許負之相條侯英布之黥而後王	-13.1223
䕶軍慷慨忠能死節	-13.1223
錪	-13.1225
趋	-13.1225
頎	-13.1225
平曰原下濕曰隰	-13.1225
眴	-13.1225
崯	-13.1225
執榖璧男執蒲璧	-13.1225
簳	-13.1225
胊	-13.1225
宗祀文王於明堂以配上帝	-13.1225
擏	-13.1225
沕	-13.1225
鋋	-13.1225
凡蔣邢茅胙祭	-13.1225
噆	-13.1225
張衡字平子南陽西鄂人也	-13.1225
曰江漢英靈見於此矣	-13.1225
焚香複道詎歛遊魂	-13.1225
酲	-13.1225
梁故觀寧侯蕭永	-13.1227
苻堅淝水之敗其	-13.1227
羂	-13.1227
菅	-13.1227
守宫槐葉晝聶	-13.1227
蛸	-13.1227
麫	-13.1227
鳻	-13.1227
乃舞白鶴於吳市中	-13.1229
迒	-13.1229
罦	-13.1229
諴	-13.1229
於魚復平沙上累石為八行相去二丈	-13.1229
膐	-13.1229
蔏	-13.1229
鶝	-13.1229
甚髙魏朝聞而重之接對	-13.123
弈	-13.1231
帝制象經成集百	-13.1231
疥	-13.1231
璅	-13.1231
癡	-13.1231
囓	-13.1231
陽池日夕倒載歸酩酊無所知時	-13.1231
艖	-13.1231
湲	-13.1233
帊	-13.1233
籝	-13.1233
盥少者奉槃長者奉水	-13.1233
琚	-13.1233
荇	-13.1233
憖	-13.1233
鳥有鳥丁令威去家千年今	-13.1233
入琵琶峽望積布磯	-13.1233
紒	-13.1233
懊	-13.1235
木以不材得終其天年	-13.1235
别鶴以舒其憤懣故曰别鶴操	-13.1235
琴操曰商陵牧子娶妻五年	-13.1235
􁈿	-13.1235
晉安王國常侍王每徙鎮肩吾常隨府	-13.1236
禠	-13.1236
李廣傳文帝曰惜廣不逢時	-13.1237
帬	-13.1237
惽	-13.1237
蝘	-13.1237
蝽	-13.1237
人人自謂握靈虵之珠	-13.1237
抒	-13.1237
揚雄字子雲蜀郡成都人	-13.1237
氣所動者其灰散人	-13.1237
鸞鳥王甚愛之三年不鳴其夫人曰嘗	-13.1237
霈	-13.1237
撼	-13.1238
甃	-13.1238
塤	-13.1238
洼	-13.1238
獷	-13.1238
萠	-13.1238
嶙	-13.1239
惚	-13.1239
撑	-13.1239
蠟	-13.124
緦	-13.1241
筯	-13.1242
一作膺風蟬鬢亂映日	-13.1242
偫	-13.1242
櫟社樹觀者如市	-13.1244
忱	-13.1244
汛	-13.1244
甗	-13.1244
縰	-13.1244
大夏尋河源乗槎經月而至	-13.1244
廞	-13.1244
闓	-13.1244
建平兵建平不下終不敢渡	-13.1246
七千九百五十八首	-13.1246
襻	-13.1246
踳	-13.1246
欸	-13.1248
苣	-13.1248
輵	-13.1248
􁛾	-13.1248
戩	-13.125
冄	-13.125
公時人善吹簫穆公有女號	-13.125
柲	-13.1252
梠	-13.1252
時盛意麗哀遺身	-13.1252
石釣處即太公垂釣之	-13.1252
祀昊天上帝則大裘而冕	-13.1252
倯	-13.1254
愀	-13.1254
珩璜琚瑀衝牙	-13.1254
鄀	-13.1256
惙	-13.1256
瀄	-13.1256
䰂	-13.1256
蚗	-13.1258
隑	-13.1258
墱	-13.1262
螘	-13.1263
娗	-13.1267
脰	-13.1268
有純銀參帶鏡臺一	-13.1268
甀	-13.1268
搉	-13.1268
攍	-13.1268
瘖	-13.1269
磑	-13.1269
以葭莩灰抑其内	-13.1273
惓	-13.1273
夥	-13.1277
偒	-13.1277
浡	-13.1279
劘	-13.1283
踏	-13.1291
窽	-13.1291
蛆	-13.1293
媐	-13.131
㷭	-13.1335
螉	-13.1336
喛	-13.1342
蚨	-13.1362
蟒	-13.1395
蝓	-13.1408
鼅	-13.1422
蠀	-13.1445
蛒	-13.1447
蠾	-13.15
睺	-13.6002
抍	-13.6027
霞之涯際莫尋江海之波瀾不測	-13.6052
筡	-13.6055
伆	-13.6074
猫	-13.6074
㲻	-13.608
頠為前軍都督周文育破禽之	-13.6093
怡然有餘樂于何勞智慧竒蹤	-13.6093
童孺縱行歌班白歡游詣草榮識節和木	-13.6093
孜植松於親墓側有鹿犯其松	-13.6096
􁖡	-13.6096
還幽蔽借問游方士焉測塵囂外願言躡	-13.6099
傳桃源事多過其實考淵明所記止言先	-13.6099
尚不知有漢無論魏晉可見造語之簡妙	-13.6099
一葉落知天下秋及觀淵明詩云雖無紀	-13.6102
晉人工造語而淵明其尤也東坡曰	-13.6102
老人村有五世孫者道極險逺生不識	-13.6102
舉尋吾契唐子西曰唐人有詩云山僧不	-13.6102
見似是其子孫非秦人不死者也又云殺	-13.6102
盡忠事國竭力從政其門如市其心	-13.6102
帀	-13.6105
藻絶麗尤善為哀誄之文	-13.6105
菊水水甘而芳居民三十餘家飲其水皆	-13.6105
道稍通漸能致五味而	-13.6105
頖	-13.6105
􁈲	-13.6108
琊	-13.6108
魏侯之見劉廙不覺歛容	-13.6108
此比也使武陵太守得至焉則已化	-13.6108
若此者甚衆不獨桃源胡仔曰東坡此論	-13.6108
續晉陽秋曰陶潛甞九月九日出宅邊菊	-13.6112
又明年坑儒生三十七年胡亥立三年而	-13.6112
甫作桃源行與東坡之論合桃花源記言	-13.6112
自殊勢亦知當乖分未謂事已及興言在	-13.6112
親去歲家南里薄作少時	-13.6112
非王事雖在支庶並聽承襲幸使伯有之	-13.6115
漢主之觀田鳳遂令題柱	-13.6115
子奉先之祀於陶丘者或	-13.6115
時天降雌雄龍二于庭有劉累者	-13.6115
及六百年趙泉山曰靖節退之雖各舉其	-13.6115
㥢	-13.6115
在荆州與張史君李居士連句	-13.6118
兄弟並至性善居喪號慕墳埏奉遵遺訓	-13.6118
南北雖合而世代將易但當與綺	-13.6118
孝公久牧汧隴遺愛在人	-13.6118
左將軍朱齡石之命詣裕	-13.6118
是以衞青之塜仍陪漢武之陵	-13.6118
精爽今何如紫芝誰復採深谷	-13.6118
裂而中州賢聖之迹不可得而見今九土	-13.6118
踈擁懷累代下言盡意不舒胡仔曰淵明	-13.6118
遺令山陵一無所用公私贈	-13.6118
年丁亥前數年間任安貧武陵記直據	-13.6118
西來風悠悠東去雲山川千里外言笑難	-13.6118
軍移家東下作此以贈遊好非	-13.6118
近實而桃花源事當在孝武帝太元十	-13.6118
豈忘游心目關河不可踰九域甫	-13.6121
葛屨糾糾魏有去舊之歌	-13.6121
城居趙信仍名趙信之城	-13.6124
喊	-13.6124
㓜稚盈室缾無儲粟	-13.6124
哉秦穆談旅力豈未愆向夕長風起寒雲	-13.6124
所記劉子驥者正太元時人歸去來兮辭	-13.6124
生生所資未見其術親故多勸余	-13.6124
豈獨司𨽻之臺鮑宣累葉	-13.6124
非今日歲暮余何言素顔歛光潤白髮一	-13.6124
嘳	-13.6124
民七族陶氏其一也陶氏授	-13.6124
臿	-13.6126
兄弟同居共捨為寺伽藍肇建	-13.6127
劳	-13.6127
見有素車白馬號哭而來其母曰是	-13.6127
下深谷暗藏人欹松横礙馬	-13.6127
㒌	-13.6127
䈽	-13.6127
五年六月十六日薨於賀葛城	-13.6129
死勤事則祀以勞定國則祀能禦	-13.613
䖍恭得性含仁抱義履信居貞	-13.613
君膺令德之靈稟冲和之氣	-13.613
賦得四更應詔四更天欲曙落月垂	-13.613
之壯思惜古人之取才瞰青雲而靖意意	-13.613
嚴紛紛飛鳥還民生鮮常在矧伊愁苦纒	-13.613
望義如歸允伊二子程生揮	-13.613
烋	-13.613
於赫愍侯運當攀龍撫	-13.613
世父儀同忠惠公特加器異	-13.6134
以及時如彼稷契孰不願之嗟乎二賢逢	-13.6134
奉報趙王恵酒梁王修竹園	-13.6134
嶓冡導漾乃濟漢之東流	-13.6134
無以樂當年窮通靡攸慮顦顇由化遷撫	-13.6134
艱險而多阻君英明而不革講業兮齊	-13.6134
融擅名江表言談相㑹宛如舊焉	-13.6134
都督八州二十防諸軍事解荆州總管	-13.6134
下今生幾叢菊薔薇葉	-13.6134
亦因其誤和之陳述古本止有五首予以	-13.6134
但願桑麻成蠶月得紡績	-13.6134
俔	-13.6134
前五首不類今俗本乃取江淹種苗在東	-13.6134
月二十三日靈柩至於京師皇帝臨喪百	-13.6134
有徐邈之應對居於散騎之省	-13.6134
櫴	-13.6134
歸去來山中山中酒應熟西清詩話曰此	-13.6134
獨南唐與晁文元家二本有之東澗曰此	-13.6134
與陶公語判然矣問來使爾從山中來早	-13.6134
河之上使西河之民疑汝於夫子爾罪	-13.6135
謬㑹以取拙且欣然而歸止擁孤襟以畢	-13.6135
安竒情雙亮令名俱完程杵遺生良難士	-13.6135
蕈	-13.6136
於咸陽長安縣之洪瀆原時逢禮樂之遷	-13.6137
兮在梧楸有美一人兮欷以傷若廼崩隍	-13.6137
動兮覺人聲廼蕪階翠地繞壁	-13.6137
圖天未悔禍䘮亂薦臻羌	-13.6137
梁之客徒馬疲而不能去兎園之女雖	-13.6137
籍乃對之長嘯清韻響亮蘇門生	-13.6137
卜云嘉日占亦良時名汝曰儼字汝求思	-13.6137
弗及顧慚華鬢負影隻立三千之罪無後	-13.6137
戚施寧踸踔於馬蘭俾後生之庶士鑒明	-13.6137
曰匪賢俱映日月共飡至言慟由才難感	-13.6137
湯東澗曰陶公不事異代之節與子房五	-13.6137
疾信若人兮先覺聊與子兮如一鏡論語	-13.6137
舉又時無漢祖者可托以行其志所謂撫	-13.6137
青史之殘誥覽朱管之遺冊惟魯	-13.6137
㯂	-13.6137
䒼	-13.6137
跰	-13.6137
餦	-13.6137
身没之日家無餘財素車白馬狹室	-13.614
弊襟不掩肘藜羮常乏斟豈忘襲輕裘	-13.614
徒多潰身被一百餘箭傷肉破骨者九	-13.614
晉劉處士參妻王氏夫人誄	-13.614
一驄馬京師人歌之曰鮑氏驄三	-13.614
司𨽻再入公馬雖瘦行歩工	-13.614
歌又曰上行幸雍獲白麟作	-13.614
之四合草自然而千花樹無情而百色嗟	-13.614
兮蘭莖紫秋蟲吟兮蕙實	-13.614
爐炭於片景抱絲緒於一息	-13.614
而不自禁至於脩臺廣廡幽	-13.614
道之異兹牽憂恚而來逼	-13.614
䴭	-13.614
他華不足以當此一佳字然終篇寓意	-13.614
以織琴瑟且鳴户牖秘兮不可見履	-13.614
已難雖河北之爽塏猶橘柚之不遷及年	-13.614
廻日之感所以廻懼鴻威後奔殊令者也	-13.614
從石紅青兮百疊山濃淡兮萬重日下兮	-13.614
復至天旭其六種苗在東	-13.614
惠競爽猶可又弱一个焉姜其危哉	-13.614
撰智而錫位深乃裂組逺故分珪前人以	-13.614
曰余嘗謂古人寄懷於物而無所好然後	-13.614
橛	-13.614
王家放大智光明照十方世界湧	-13.614
班衮司之上咸以休對性業裁成	-13.614
眚	-13.614
語洗盡古今塵俗氣東坡曰靖節以無事	-13.614
郷之感猶有遟遟矧伊代謝觸物皆非	-13.614
􁳐	-13.614
借問採薪者此人皆焉如薪者向我言死	-13.614
兮乃泬㵳左右虚兮如寂寞寂寞兮山室	-13.614
兮異文錦派兮綺分珍君之言兮皦無際	-13.614
岠	-13.614
歲暮風翳翳經日雪傾耳無希聲在目皓	-13.614
浞	-13.614
辛丑正月五日天氣澄和風物	-13.614
飛彼南阜者名實舊矣不復乃	-13.614
之若兹懼斯言之虚陳何曠	-13.6141
前王之清誨曰天道之無親澄得一以作	-13.6141
恒輔善而佑仁夷投老以長飢回早	-13.6141
殞身雖好學與行義何死生之苦辛疑報	-13.6141
褐幽居張長公逺哉長公蕭然何事	-13.6141
春秋後語曰張孟談謂趙襄子曰董	-13.6142
字武子南平人𦙍就業恭勤博覽不倦家	-13.6143
昏中而暑退季冬旦中而寒退	-13.6143
入從所憇桑竹垂餘䕃菽稷隨時藝春蠶	-13.6143
並皆成誦在心若指諸掌	-13.6143
以從政不愧賞於萬邑屈雄志於戚	-13.6143
伊古人之慷慨病竒名之不立廣結	-13.6143
土之莫及留誠信於身後慟衆人之悲泣	-13.6143
日磾深自恨遂嘔血而斃	-13.6143
溶兮楚水而吳江刻劃嶃崪兮雲山而碧	-13.6143
蘿兮萬仞竪丹石兮百重嵯峨兮嵒㟧如	-13.6143
匼	-13.6143
外山花即眼前但願長歡樂	-13.6143
滅子孫遯居朔野有葛烏	-13.6143
爾而笑籍既降蘇門生亦嘯若鸞	-13.6143
衙	-13.6143
頻觸瑶纊丹情實理備塵珠冕而	-13.6143
㰸	-13.6143
一山西北來兮乃雙鶴池中蓮兮十色紅	-13.6143
中了無一可恱歴覽千載書時時見遺烈	-13.6143
乎此真將軍矣向者霸上棘門	-13.6143
公器宇淹曠風神透逺璣鏡照林	-13.6143
則愚介介若人特爲貞夫	-13.6143
北宫之政窮盈極滿於斯	-13.6143
國名爵赫曦僶俛優忝陛下	-13.6143
國相將海隅天人革命絶景窮居采薇	-13.6143
夏長風急林室頓燒燔一宅無遺宇舫舟	-13.6143
局日入室中闇荆薪代明燭歡來苦夕短	-13.6143
徳不百年汙我詩書逝然不顧	-13.6143
思宏晉國之大政在功與位故	-13.6143
悽矣其悲管鮑知人未易相知實難淡美	-13.6143
戦	-13.6143
操非所攀深得固窮節平津	-13.6143
果菜始復生驚鳥尚未還中宵竚	-13.6143
歌慨想黄虞貞風凌俗爰感懦夫箕子去	-13.6143
殊常之秩雖寢寐矜戰曲垂哀亮而璽冊	-13.6143
民紐亂不處輿臺之下去勲捨	-13.6143
蘺環軒兮匝池相思兮豫章戴雪兮抱霜	-13.6143
道兮可傳可傳兮皓然挾兹心兮赴絶國	-13.6143
隂兮氣曇曇江上月兮光灼灼東南出兮	-13.6143
非豐狐隱穴以文自殘君子失時白首抱	-13.6143
危而幸濟感哲人之無偶淚淋浪以灑	-13.6145
紆逺轡於促界悲董相之淵致屢	-13.6145
之奉以為主遂總十二部落世為大人其	-13.6145
驢上焚之俄盡賊又起	-13.6145
向曰風起舉揚塵埃喻兵戈暴起也	-13.6146
王仲宣雜詩曰風飄揚塵起白日忽已	-13.6146
弓彎弧東射矢集彭城之	-13.6146
靬	-13.6146
拽	-13.6146
袁術術輕侮之遂奪取其節求去又不	-13.6146
但令天假之年時綏之福	-13.6146
固窮以濟意不委曲而累巳	-13.6146
審夫市之無虎眩三夫之獻	-13.6146
花徑日相攜花林鳥未棲比看中郎醉	-13.6146
虜青犢之兵甚有秘計	-13.6146
㜸	-13.6146
䴽	-13.6146
之誨且昭昔牒况臣徒竭弱質忠貞未懟	-13.6146
兮江汀累青杉於澗構積紅石於林	-13.6146
号	-13.6146
向使無酒但悠然見南山其樂多矣遇酒	-13.6146
坐洞房而不悟下輕帷而嘆息也古之馭	-13.6146
天下光照四鄰武皇帝以介弟懿親特垂	-13.6146
役一形似有制素襟不可易園田日	-13.6146
江上之斷山雖不敏而無操願從蘭芬與	-13.6146
焉衆狀之所極俗逐事而變化心應物而	-13.6146
白盡在是矣後此者莫能加也乙	-13.6146
盪夫憂心不共愛此氣質何獨嗟乎景沉	-13.6146
知所以報奉淵聖輸感霄極取諸微躬長	-13.6146
祀之别名曰司命曰中霤曰國	-13.6146
觀此寧無愧心直以物受其生於天不謝	-13.6146
長橋發新浦懸知岸上人遥振江中鼓	-13.6146
兮繡池梁伊日月之寂寂無人音與馬迹	-13.6146
悲阡陌不移舊邑屋或時非履歴周故居	-13.6146
煙尺寸而作緒熱風翕而起濤丹氣赫而	-13.6146
虚人生似幻化終當歸空無其五悵恨獨	-13.6146
貞剛自有質玉石乃非堅仰想東	-13.6146
劈	-13.6148
之易傾胡害勝其乃急蒼旻遐緬人事無	-13.6148
雖僅然於必知亦苦心而曠	-13.6148
檢逸辭而宗澹泊始則蕩以思慮而終歸	-13.6148
以鳥畫其旗翼日而梟紂名其船曰蜂舟	-13.6148
出宋都遍覽下蔡之女具	-13.6148
箱主人服此藥身體日康	-13.6148
路逶迤而無軌野忽漭而尠儔山反覆而	-13.6148
獸猶無蹊特上有飛鳥之道耳	-13.6149
眷然惟此别夙期幸共存	-13.6149
值山河改柯葉自摧折根株浮滄海春蠶	-13.6149
在水則鏡帶湖沼錦匝池林春塘秀色陽	-13.6149
晉王濟傳設宿部分行有	-13.6149
草深廼生水而揺蕩遂出波而沉	-13.6149
青郊未謝兮白日照路貫千里兮	-13.6149
馬武小心侍蕭王於卧内	-13.6149
魏武帝特召入仕閣内大都督	-13.6149
傅馬日磾奉使山東及至淮南數有意於	-13.6149
首山銅以鑄鼎鼎成有龍下迎	-13.6149
之清可期不悟皇明神邈鴻	-13.6149
体	-13.6149
女年十四適爾綿氏冊拜魯城縣君遷濟	-13.6149
山滌餘靄宇曖微霄有風自南翼彼新苗	-13.6149
彌深雖守丹愚競絶蠲恕今	-13.6149
忠貞之事公其取焉畧書梗概	-13.6149
是鄙董樂琴書田園不履若能超然投迹	-13.6149
並皆上書詣闕連名乞留	-13.6149
伏見明詔鑾輿便御親六師臣又謬惣	-13.6149
使都經錢溪我不踐斯境歲月好	-13.6149
后所以裁成萬品下所以各慎百司未有	-13.6149
含毗尼阿毗曇為三藏	-13.6149
契誰能别鶴林曰傾耳無希聲在目皓已	-13.6149
寢迹衡門下邈與世相絶顧	-13.6149
山川事事悉如昔微雨洗	-13.6149
已掩氛竪未懸稽鉞竚威	-13.6149
抑揚談論當世以為楷模搢紳以為軌範	-13.6149
業閒詠以歸我愛其静寤寐交揮但恨殊	-13.6149
比淵明此首趙泉山曰時輩多勉靖節以	-13.6149
湊經綸相襲所以草昧縣㝢昭	-13.6149
湯東澗曰閒詠以歸我愛其静	-13.6149
矯雲翮眷彼品物存義風都未隔伊余何	-13.6149
臣某言即日侍中祕書監臣戢至奉宣詔	-13.6149
視夕沾襟待旦翦此凶渠庶匪曠旬但遂	-13.6149
阻兮至南國迹巳徂兮心未	-13.6149
雅女宋鄭之妙工織素麗於日月傳畫明	-13.6149
離析終懷在歸舟諒哉	-13.6149
音允集道悠運促不終逺業惜哉仁者必	-13.6149
恝	-13.6151
抑流宕之邪心諒有助於諷諌綴文之士	-13.6151
修業以及時也君清蹈衡門則令	-13.6151
回因狩得玉璽三紐有文曰皇帝璽普	-13.6151
差紅荷縁水纔灼爍忽而精飛視亂意	-13.6151
淵明先親君之第四女也凱風寒泉之思	-13.6151
炯炯而舒光雨屑屑而稍落紫莖繞逕始	-13.6151
潘黨逐之及熒澤見六麋射一	-13.6152
明月下靜夜秋風飄錦石平砧面	-13.6152
猶抱節竹短未空心絶愛猿聲近惟憐花	-13.6152
之雜色若使明鏡前兮碎孤鴈之錦翼廼	-13.6152
平原之何極霜繞衣而葭冷風飄輪而景	-13.6152
兄弟何必骨肉親得歡當作樂斗酒聚	-13.6152
如陌上塵分散逐風轉此	-13.6152
屈上生班駮下布異人貴其貞精道士	-13.6152
崩壁仰顧悲凹嶮兮唯流水而馳騖遂能	-13.6152
欲誰待本不植高原今日復何悔東澗曰	-13.6152
聊復晝寢又夢將昔時坐席還復賜汝汝	-13.6152
藏松寳劒射栁琱弓	-13.6152
選載謝瞻即席集别詩首章紀座間四人	-13.6152
友到臨淄稷下多談士指彼决吾疑裝束	-13.6152
周詩六義二曰賦四曰興之遺義也時運	-13.6152
庭柯歛翮閒止好聲相和豈無他人念子	-13.6152
曰梁昭明太子傳稱陶淵明字元亮或云	-13.6152
猶聳夜艾方驚誠以設	-13.6152
用之作宰則萬方協和用之撫軍則四表	-13.6152
道絶與子相遇來未嘗異悲恱憩	-13.6152
齊公孫竈卒司馬竈見晏子曰又	-13.6152
且長風波阻中塗此行誰使然似	-13.6152
乎知浴沂者之心矣榮木	-13.6152
刹畫影象兮在丹青起淨法兮出西海流	-13.6152
可學違巳詎非迷且共歡此飲吾駕不可	-13.6152
哉當以此論淵明其八青松在東園衆草	-13.6152
孫竹之管空桑之琴瑟咸池之舞夏日至	-13.6152
尚書事到省表臣某言臣自妄	-13.6152
廬花藥分列林竹翳如清琴横床濁酒半	-13.6152
折片句兮忘老嘉石門之埋名憐栁子之	-13.6152
授或體兼上才江表廣任或功	-13.6152
敬其炎貴臣一旦居之誰以	-13.6152
月二十六日出次戎郊故巳望江源以軫	-13.6152
有好官缺輙憶羊𤣥保	-13.6152
村第二首云一篇之中賓主	-13.6152
枝連林人不覺獨樹衆乃竒提	-13.6152
梯虚度九冬而廓處遥十秋以分居傷營	-13.6152
此傳懼或乖謬有虧大雅君子之	-13.6152
溟綱紫宙兮洽萬品冠璇㝢兮濟	-13.6152
漿逺見候疑我與時乖繿縷茅簷下未足	-13.6152
熟視有竒趣如曰曖曖逺人村依依墟里	-13.6152
營一飽少許便有餘恐此非名計息駕歸	-13.6152
燿纓上序鏘珮中軒	-13.6152
父儒平東將軍持節恒燕朔三州諸軍事	-13.6152
盈則藿質蓬性庶無矯奪不任匪晏之情	-13.6152
竊聞金火告燿昏明代	-13.6152
竒姿凝霜殄異類卓然見	-13.6152
緯伊序則方率司其度用能璿紐弗虧民	-13.6152
而亡其辭似是讀異書所作其中多不可	-13.6152
角聞道白首無成采采榮木結根于	-13.6152
誰知斯意東坡曰讀史述九章夷齊箕子	-13.6152
讓豫司二州表臣某言臣傾心駐氣不	-13.6152
邑五千戸追崇列辟事極神	-13.6152
鍾厥心謹按採行事撰	-13.6152
霞並韻養由百發落雁吟猿	-13.6152
首臣績陋於國不勤睿朝寵集若是非所	-13.6152
齊幽蘭以争芬淡柔情於俗内負雅志於	-13.6152
云世間人言有目色我特不目色范悌	-13.6152
力大陸行象力大故負荷大法者比之	-13.6152
區宇烈譽馥於一時茂名鬱乎當	-13.6152
復榮園木空自凋清氣澄餘滓杳然天界	-13.6152
慷慨逝言感徘徊居情育安	-13.6152
指途悲有餘臨觴歡不足我若西流水子	-13.6152
新書梁大夫宋就為邊縣令與楚	-13.6152
時日開歲倐五日吾生行歸休念之動中	-13.6152
朱紱不足宣其榮方加以履殿優以勿趨	-13.6152
欣耕種有時息行者無問津日入相與歸	-13.6152
此篇言季世出處不齊士皆以乗時自奮	-13.6152
禮猶邈如也臣何燀業	-13.6152
羕	-13.6152
莫不吟誦在心撰成於手	-13.6152
誨有命子詩有責子詩有告儼等䟽先生	-13.6152
輅躬臨雲蹕親駕悚	-13.6152
抑乃爵禄可辭不必傍游	-13.6154
成塵驕才雄力君何怨徒念薄命之苦辛	-13.6154
寅弱子生五月之長安壬寅次於	-13.6154
必䖍恭匪懈之士明時琴瑟鼎鉉之盛且	-13.6154
穆將兵出宜陽築崇德等五城	-13.6154
而忽覿來書以惋以慨君	-13.6154
觸類廣其辭義余園閭多暇復染翰	-13.6154
之父也爾用先人之治命余	-13.6154
文以紫山之金空青出峨嵋之	-13.6154
發王屋之岫碧髓挺青蛉之岑粉則南陽	-13.6154
夢雷池君周何二神乗朱航	-13.6155
樁	-13.6155
㨖	-13.6155
埛	-13.6155
年代藴積於何不有乃謀山澤之官	-13.6155
仙藏山還採藥有道得從師京兆陳安世	-13.6156
吹曲云江南佳麗地金陵帝	-13.6156
嘉傳稱淵明先親君之第四女嘉於先生	-13.6156
孝武遣京畿大都督匹婁昭討	-13.6156
所牽率章表署用輒使首名	-13.6156
當如何其八少時壯且厲撫	-13.6156
皎皎雲間月灼灼葉中華豈無一時好不	-13.6156
云嗟青苔之依依兮無色類而可方必居	-13.6156
日磾以上公之尊秉髦節之使	-13.6156
能聽之人而無可聽之言此淵明所以罷	-13.6156
蒭	-13.6156
豈得自稱字哉統與延之所書可信不疑	-13.6156
近張掖至幽州飢食首陽薇	-13.6156
人亦有言日月于征安得促席說彼平生	-13.6156
人辭行行停出門還坐更自思不怨道里	-13.6156
前四句興而比以言吾有定見而不	-13.6156
平輿雖盛豈可獨擅二龍	-13.6156
掊	-13.6156
櫃	-13.6156
浮箭為刻下漏數刻以考	-13.6156
而上者七十二人漢武帝於此建鼎湖宫	-13.6156
膿	-13.6156
舟託翰負組假翼要瓊質圖	-13.6156
虚止寄迹風雲寘兹愠喜	-13.6156
防諸軍事四年治襄州仍授柱國大将軍	-13.6156
不變學古道恒真若作商山客寄謝丹水	-13.6156
和假道於峻岐陽烏迴翼	-13.6156
孔城防主能奔逹以城應之	-13.6156
撫悽愴山河離異不妨風月	-13.6156
生不可言衛生毎苦拙誠願游崑華邈然	-13.6156
若暫乖止日終不别此同	-13.6156
騰化術必爾不復疑願君取吾言得酒莫	-13.6156
主鼎貴一時金玉滿堂文馬千駟爵授湯	-13.6156
之紅泉石錦質而入海雲綺色而出天峰	-13.6156
之霧雨耀緑葉於冬岫鏡朱華於寒渚斂	-13.6156
人臨郊皇華降庭煇燿望實	-13.6156
保定三年有詔贈柱國將軍少師	-13.6156
備故膺寵無辭奉鉞不	-13.6156
光蹀恩投石之師攀炤竦惠楚纊越醪方	-13.6156
其過外惜皇猷内畏私眚昔西京鼎秩漢	-13.6156
具溢豈非性力知限鑒度有崖	-13.6156
冊與篆字儲西國之闕文採東京之逸記	-13.6156
去懼有後悔豈如父子相隨出關歸老故	-13.6156
名名可宗兮聖風立立聖風兮兹	-13.6156
如此今人或謂淵明所題甲子不必皆義	-13.6156
嬗	-13.6156
寐臣檢古少例廵令逾疑豈有妄叨天功	-13.6156
左右生華志盡輸謝終愧報効不任下情	-13.6156
幻間何事紲塵覊其九清晨聞叩門倒裳	-13.6156
後此亦豈足論淵明哉惟其	-13.6156
志瀝丹欵故奏禍福行矣悵然袁禇劉	-13.6156
恥况此以任何堪湧溢之賜且董督條興	-13.6156
悼吾年之不留各䟽年紀	-13.6156
感仁妻泣涕向我流丈夫雖有志固	-13.6156
慙潤臣忝屬閫私彌抱渥洽不任下情	-13.6156
慶平賊表臣某言狂賊沈攸之棄天犯紀	-13.6156
慶臣備符寵私時深抃舞不任踴躍之情	-13.6156
戎皆覲上靈必臨山吐石青野降	-13.6156
戸口日增荒萊畢墾華實紛敷黔黎茂豫	-13.6156
昔董仲舒作士不遇賦司馬子長又	-13.6156
欣對不足率爾賦詩悲日月之遂	-13.6156
欱	-13.6156
洛陽之伎極江南之巧窮故飾以赤野之	-13.6156
溢倫等朱軒躍馬光出電入貂冠紫綬寵	-13.6156
獲性疊慮仰祈必蒙題品而威嚴窈絶斯	-13.6156
美命子悠悠我祖爰自陶唐邈	-13.6156
而見表至哉青苔之無用吾孰知其多少	-13.6156
若實綾錦共文瑶貝合質	-13.6156
葵於今甚可愛柰何當復衰感物願及時	-13.6156
蚌蛤類也春而發華有足異者戲書	-13.6156
要福者哉臣不能遵煙洲而謝	-13.6156
訪五都兮異同談天理之開	-13.6156
諸光諸色雜卉雜華的的也象珪象璧若	-13.6156
識判其奔沮然兵扈難輕義險	-13.6156
警並用司存帝城近臣	-13.6156
贈竟莫酬誰云固窮難邈哉此前脩詠二	-13.6156
超等六百九十七人表求立廟陳請象魏	-13.6156
躓而顛故獲之夜夢之曰余而所	-13.6156
采妄賁異等荆門務要方城任積水交沅	-13.6156
重臣愆悔無地自安便當謹恭鴻命竭身	-13.6156
閒席兮惆悵屢緩帶而從容論十代兮興	-13.6156
靖節舊宅居于柴桑縣之柴桑里至是屬	-13.6156
韓子蒼曰余反覆之見山陽歸下國之句	-13.6156
飢寒交至顧爾儔列能不懷愧	-13.6156
騤	-13.6156
鷿	-13.6156
麁	-13.6156
􁋗	-13.6156
􁣽	-13.6156
􁫗	-13.6156
􁽐	-13.6156
君羣以為當塗髙者魏也其義何也瓊	-13.6156
闕名也當塗言髙聖人取類言爾	-13.6156
度網綺地應紡秋梭鳴機織	-13.6157
褧衣象奩瓊盤神瀝仙丹雕柱	-13.6157
琴心息於是帳必藍田之寳席必蒲陶之	-13.6157
洒魄賞以雙珠賜以合璧拂巫盪祝永	-13.6157
鉿	-13.6157
風而無極霧出吳而綺章雲堆趙而碧色	-13.6157
駐髮還質驂星馭龍蠲憂忘死保其家邦	-13.6157
麗孰能預於此哉宋大夫耀影汰迹縈	-13.6157
亡其文泣蕙草之飄落憐佳人之埋暮廼	-13.6157
以雲聳夾丹輦以霞飛願南山之無隙指	-13.6157
半道聞荷氣中流覺水寒秋光麗	-13.6157
同歸俄而緑衣坐奪白華卧進屑骨不憐	-13.6157
髙門自蕪青苔積兮銀閣澁網羅生兮	-13.6157
中暖兮露始滴池上凝兮月又明	-13.6157
及輔氏之役顆見老人結草	-13.6157
此成敗蘭艾之鑒又亦君之所知也聞彼	-13.6157
而懷恐伐罪弔民復驗	-13.6157
紀事也春官為青雲夏官為縉雲秋	-13.6158
􁇠	-13.6158
正風鑒𢎞敏澡身浴德	-13.6159
復以明經厯位至丞相故鄒魯	-13.6159
擲秦王決耳入銅柱火出	-13.6159
澱	-13.6159
罝罘捕熊羆豪豬虎豹狖玃狐	-13.6159
麋鹿載以檻車輸長楊射熊館以	-13.6159
斂雄從至射熊館還上長楊賦聊因筆墨	-13.6159
破掠城市西自潼函東綿鞏洛	-13.6159
文章故藉翰林以為主人子墨為客卿以	-13.6159
爲恥不以無財爲病自非大賢篤志與道	-13.6159
爵假息不悟瑶離降映繩河低文遂翊言	-13.6159
不復可騁然生斯時矣奚所歸悔耶雜詩	-13.6159
光有豔如合如離氣柔色靡神凝骨竒經	-13.6159
杯勸孤影日月擲人去有志不獲騁念此	-13.6159
槀	-13.6159
歸平津之館時聞櫪馬之嘶	-13.6159
談者所眩似謂白蓮社中人也其七	-13.6159
鑷	-13.6159
也吾真有此病而不蚤自知半	-13.6159
元封之末衞青於軍中即拜	-13.6159
山通岷峨襟帶百縣縈抱七州上	-13.6159
歿欲為修四時之祭以訪於	-13.6159
窺外關今朝無闕政頓構凌上之節室無	-13.6159
虛止寄迹風雲寘茲慍喜	-13.6159
㜲	-13.6159
不忝者乎而陛下猶崇以異禮者是	-13.6159
中納遺薰雙陵甫云育三趾顯竒文王子	-13.6159
二野外罕人事窮巷寡輪鞅白日掩荆扉	-13.6159
于惠百里飡勝如歸聆善若始	-13.6159
五歲廣謂受曰知足不辱知止不殆今仕	-13.6159
人事固以拙聊得長相從其七昔在黄子	-13.6159
仁榮公言有道屢空不獲年長	-13.6159
伏願俯矜單志賜遂前請則	-13.6159
伏願陛下停旒弛琪暫炤瑣曲則鑄才式	-13.6159
來罕見其倫今位冠朝端通侯萬	-13.6159
其忠義亦足見矣趙泉山曰此晉恭帝元	-13.6159
出異類之衆夥故仙聖傳圖英	-13.6159
嚴承乃睠瞻仰廻雲輦路千門	-13.6159
圴	-13.6159
奏金管於後陣都野宗其榮盛視	-13.6159
好客養千金軀臨化消其寶	-13.6159
如林仰綴宗稷之靈俯輯士民之効故嚴	-13.6159
妙聲無形竒色非質麗於嬪嬙精於琴瑟	-13.6159
孽不可逃然桓侯之患良助寒心今羽林	-13.6159
室絶塵想時復墟曲中披草共來	-13.6159
宿虞尸既反哭主人與有司	-13.6159
對道書官又無職筆墨之勢聊	-13.6159
已長我土日已廣常恐霜霰至零落同草	-13.6159
常理霜露榮悴之謂人最靈智獨復不如	-13.6159
張濯纓汾射臣之志也華爵盛典非所敢	-13.6159
心憚逺役彭澤去家百里公田之利足以	-13.6159
更進退金石有終始光色俯仰間英艶難	-13.6159
月及熒光掩朝日與赩火出金沙而延曜	-13.6159
有時静言孔念中心悵而	-13.6159
未有若斯者也宗枝之釁逺則吳楚見禽	-13.6159
槩血誠不諒於璿扆宏芬英猷遂蕪於里	-13.6159
氏之女曰女皇生丹朱復有庶子九	-13.6159
渌波而覃拖冠百草而絶	-13.6159
澤芬則照電爍日池光沼緑則明璧洞室	-13.6159
烏還得府棄馬復歸欄	-13.6159
爭引熊渠佽飛首尾電發伏波樓	-13.6159
瑶序金陳桂枝嬌風素壁翠樓明月徒秋	-13.6159
短賦我海若之小臣具品色於滄溟	-13.6159
社故乃馳羽江郊騖燧山甸雖藏智審其	-13.6159
紐未剔璽書頻降復改冊湘區分瑞衡服	-13.6159
素各禮儒道二宗名墨兩	-13.6159
終乏郭伋并壤之信固以	-13.6159
而自罷緑水慙而不進代能識此聲者長	-13.6159
聲忽散傷人復愁君王更衣露色未	-13.6159
臣之戾也况復肅延華勸實深窘	-13.6159
臣結慮歸請三辰未鏡傾	-13.6159
裁交妖鋒折首凱期	-13.6159
詩騷之聲而尤簡䆳焉者漢武帝作秋風	-13.6159
豈不實辛苦所懼非飢寒貧	-13.6159
象臺曰上妙兮道之精道之精兮俗	-13.6159
貧而不自悔者豈非以恥事二姓而然耶	-13.6159
身後名一生亦枯槁死去何所知稱心固	-13.6159
遶宅生蒿蓬翳然絶交游賦詩頗能工舉	-13.6159
錦名金燈麗草鑄氣含英若其碧莖凌露	-13.6159
阮公見錢入即日棄其官芻藁有常	-13.6159
陼	-13.6159
雪徒皦潔此焉空守貞暮意歌上	-13.6159
霞炤臣聞闔宗奉國猶非報殉方	-13.6159
露瑞芝麗草珍柯爛樹人崩俗締	-13.6159
風神軒舉聳動廊廟光華城闕未逾	-13.6159
飲䑕舞之異早見物徴河北隴上之謡	-13.6159
魂慮斷絶精念徘徊者也彼木蘭與豫章	-13.6159
黙廻環祗畏躑躅猶謂遇	-13.6159
㟿﨑嶔馭龍所不逺至駕鳯未之前	-13.6159
一角之人帝臺北荒之際弇山西海之	-13.6159
夕露沾衣之故而違其所願者多矣其四	-13.6159
妙綵於五都擅精華於八極	-13.6159
廓樂琯登肆禮衣曵朝不	-13.6159
建徳元年八月十二日合葬於武功三時	-13.6159
於祕府備寳帳之光儀登美女之麗飾雜	-13.6159
日居月諸漸免于孩福不	-13.6159
有忠孝焉有壯武焉不自驕矜謙光下物	-13.6159
此典者乃曠古時降耳諒由功饒賞結名	-13.6159
殊寄六稔遂交及荷惣任二燿	-13.6159
火而視之汲汲然惟恐其似	-13.6159
焉四時賦北客長欷深壁寂思空牀連流	-13.6159
眎	-13.6159
者豈有降今日而莫先哉臣爰	-13.6159
聲素女兮弄情旻天兮舒縹暮雲兮含頳	-13.6159
見其生實欲其可人亦有言斯情無假	-13.6159
質於竹素晦深聲於百億嗟乎雞鶩以稻	-13.6159
軍星連蜺旌外江虹艗中水金甲映平陸	-13.6159
馬炤長原蹵南嶽而永慨瞰九	-13.6159
麥積崖者乃隴底之名山	-13.6159
卒後乃聘后永定元年立	-13.616
武帝先娶同郡錢仲方女早	-13.616
文者馳競之情遣鄙吝之意祛貪夫可以	-13.616
至江陵帝接仁恕有闕魏相安定公憾焉	-13.616
匝翠屏環合麝宻周彰燈爐重沓	-13.616
厚霜庭澄積雪鳥封魚斂河凝海結紫帷	-13.616
新臺之青樓想上宫之邃	-13.616
鳸	-13.616
尤吐音入戾舉旗類社志竊神禁稱兵	-13.616
曲調將半景落西軒悲	-13.616
正坐汎清瑟以自欣送纎指之餘好攘皓	-13.616
二曲起關山之一引吐哀也則瓊瑕失綵	-13.616
悲行止之有節空委棄於床前願在晝而	-13.616
放命則抗節瑶祀秉號仗義幸不辱威皆	-13.616
星聚太史奏五百里内有賢人星聚	-13.616
東都濯冠汾陽不悟盛禮華典復臻於兹	-13.616
荆州記縣北八里有菊水其源旁悉	-13.616
三閭發已矣之哀悲夫寓形百年而瞬息	-13.616
凌我江郊侵軼我河縣而不流	-13.616
和三年授都督陜虞等八州甘防諸軍事	-13.616
夫尊冠賤履君臣斯位愛順惡逆成敗可	-13.616
峍	-13.616
掩江蔽汜渡遼甲卒充野布隰加以先天	-13.616
漂骨丹宗血祀者也沈攸之寂寥無文	-13.616
而穴處若季冬之嚴月風揺木而騷屑	-13.616
莫不聞隴水而掩泣向闗山而長	-13.6161
兒童數百各騎竹馬道次	-13.6162
下常有千八百紂也求俗休和弗可得	-13.6162
南山西自襃斜東至𢎞農南敺漢中張羅	-13.6162
志在思死類多趨惡莫復歸正夙沙亂齊	-13.6162
政撓其俗法害其人故曰上失其道民散	-13.6162
矣而欲繩之以古刑投之以殘棄	-13.6162
紂斮朝渉之脛天下謂為無道	-13.6162
聖上哀矜舊臣未忍追案不宜加禮	-13.6162
過失百姓有罪皆自取之末世陵遲風化	-13.6162
子從傷者而刺之一舉果有	-13.6162
君遠度深惟棄短就長不茍革其政者也	-13.6162
十五年身經一百六戰通中陷刃疾甚曹	-13.6162
州諸軍事增邑萬户維周革命光宅欽明	-13.6162
慕二儀之德繼三光之容遂以慕容為	-13.6162
暮天無雲春風扇微和佳人美清夜	-13.6162
東嶺遥遥萬里輝蕩蕩空中景風來入房	-13.6162
枕席冷氣變悟時易不眠知夕永欲言無	-13.6162
欲何求東澗曰首陽易水亦寓憤世之意	-13.6162
紊徒盈還迷懅悚風製罔樹循伏憂欷滅	-13.6162
臣少識猶晦哀辛方襲藉以毓采上霄	-13.6162
苑鍾子期死而伯牙絶絃破琴知	-13.6162
蠕	-13.6162
謂沛父兄曰遊子悲故鄉	-13.6162
人謂抱小兒為雍樹面者大人以面	-13.6162
月有環周我去不再陽眷眷徃昔時憶此	-13.6162
然意有所知也其貌嶷然有所别識	-13.6162
筭者謂迷直道者云妄坦至公而無猜卒	-13.6162
雖安期千里不能尚焉始於北府相值傾	-13.6162
驚車敗陛下縱自輕奈高廟太后	-13.6162
一死賢愚無復數日醉或能忘將非促齡	-13.6162
名亦盡念之五情熱立善有遺愛胡	-13.6162
孫進雉羮於堯堯封於	-13.6162
客去而乆卧不起妻怪問其故	-13.6162
寂島暮蘭紫莖芬披好草合流爛新光生	-13.6162
意滿辭未陳曽風漂别蓋北雲竦征人	-13.6162
暮志氣非上春若無孤鳥還瀝泣何所因	-13.6162
有客有客爰來爰止秉直司	-13.6162
無已僕乃得罪嶠外遐路窈然始還舊都	-13.6162
禮樂征伐不出於人主舉賢誅暴議在於	-13.6162
節當易簀之際猶不忘詔其子以人倫大	-13.6162
籛	-13.6162
能通學無不覽雅賞文章尤愛竒逸雖志	-13.6162
誥所讟才弱寵隆道經所	-13.6162
遣司㑹河陽公李綸等㑹葬於	-13.6162
酒醺人半醉汗濕馬全驕	-13.6162
風邁騫逸氣以烟翔故學不常師而心鏡	-13.6162
𣑽	-13.6162
䈱	-13.6162
七月某日反𦵏於河州金城郡之苑川	-13.6162
不足聞知䕫牙焉能委悉何如明月之忌	-13.6162
中山寃枉之餘代郡凋殘之澤	-13.6162
之所紹至游夏以升降幸砥心而勿夭	-13.6162
于昆吾氏之墟白若甘攙之地圖其山川	-13.6162
亟䊸金鑾之尊旦夕將拂廵情覽識豈伊	-13.6162
亮於前衡嘒陸離於後陣視眄眩而或近	-13.6162
以述酒飲酒擬古惟述酒間寓以他語使	-13.6162
仰和何僕射還宅懐故紫閣旦朝罷	-13.6162
作故以述酒名篇詩辭盡	-13.6162
出乎江隂見綵霞之夕照覿雕雲	-13.6162
力在無逸更以畏友朋濫吹乖名實郭	-13.6162
匪惟諧也屢有良由載言載眺以	-13.6162
嗚唈兮染裳若夫景公齊山荆卿燕市孟	-13.6162
墳黄鳥聲正悲良人不可贖	-13.6162
姝江南採菱之女春水厲兮楫潺湲秋風	-13.6162
少歌茍懸天兮有命永離决兮若何退以	-13.6162
尚或未珍不有同愛云胡以親我求良友	-13.6162
山裂地紐紫要金擁旗	-13.6162
庭鈞天而不澹謂霓裳羽衣而不綺此其	-13.6162
弗省獨韓子蒼以山陽下國一語疑是義	-13.6162
彈冠佐名州一朝辭吏歸清貧	-13.6162
成名猶不勤卜生善斯牧安樂不	-13.6162
數而日月並應俗嘉其名以為宜於長久	-13.6162
方垂蓮葉劍未用竹根丹	-13.6162
於是尊官上品乃貽玉振之賢鴻等懋列	-13.6162
於朱方丹瓊譬而非寳緑蘭比而無芳	-13.6162
日愁知形有之留滯非英靈之所要術也	-13.6162
曲池北山兮黛柏南江兮	-13.6162
有餘聲酒能祛百慮菊	-13.6162
清吹日中翔河汾朱公練九齒	-13.6162
無由今乃依赮火之絶垠出赤縣之紘州	-13.6162
爵松滋侯仍得世襲競或	-13.6162
生日月依辰至舉俗愛其名露	-13.6162
眮	-13.6162
砂如積雪者焉碧石如圓玦者焉水鳥駕	-13.6162
硊	-13.6162
秦穆之葬黄鳥之詩哀之序詩者謂國人	-13.6162
程嬰匿趙武於山中十五年因	-13.6162
簡玉繩而才輶志淺隔景絶炤朱輪之使	-13.6162
罔惟疑投義志攸希荆棘籠	-13.6162
臣某言逆沴電熾凶妖霧舒志	-13.6162
舄升陛賛唱異儀殆	-13.6162
茅不入王祭不供無以縮	-13.6162
華誠足貴亦復可憐傷其五東方有一士	-13.6162
言東坡曰吾於淵明豈獨好其詩哉如其	-13.6162
識度嚴明志節清儉遂改公名儉字慶明	-13.6162
貞風凌俗爰感懦夫箕子云去	-13.6162
起自甲卒邀我百戰之軍	-13.6162
連江之永矣蓮欲紅南有喬木葉以窮心	-13.6162
酷郁交布原滿隰平於是金塘湎演緑竹	-13.6162
陽燧要景復降綸冊徽采兼明影迹交戰	-13.6162
霜之蕭瑟藉綺帳與羅袿信草木之願畢	-13.6162
鳯鳥以致辭恐他人之我先意惶惑而靡	-13.6162
亦易來夙興夜寐願爾斯才爾之不才亦	-13.6162
代序而饒感知四時之足傷若乃旭日始	-13.6162
余豈云墜四十無聞斯不足畏脂我名車	-13.6162
奔水潦於逺谷汩木石於深嶼鷹隼戰而	-13.6162
彈載詠爰得我娯豈無他好樂是幽居朝	-13.6162
恕於海鷗必性命兮有當孰能合兮可求	-13.6162
更獻酬未知從今去當復如此不中觴縱	-13.6162
有銅釘銅釘之體皆如今柘釘形也銅釘	-13.6162
河隔塞殊山梁民生感曠悲路長	-13.6162
烟起而成雪虎踡跼而斂	-13.6162
眷眷嗟離絶誰言舊國人到在他鄉别	-13.6162
等至重宣詔㫖猥辱百僚省睇未交心靈	-13.6162
蒹葭之蕭瑟知霜露之流滯對江	-13.6162
請伏願天鑒順臣所守	-13.6162
非古之耦耕植杖者不能道此語非予之	-13.6162
以自勤豈三省之或廢庶進徳以及時時	-13.6163
兮曉未半星雖流兮夜何央憶	-13.6163
珮兮且一欷念錦衾兮以九傷及冴隂	-13.6163
之美見炤伊闕臣本庸人識無逺度	-13.6163
則足故驕滿之失取鏡函	-13.6163
悲羅襟之宵離怨秋夜之未央願在裳而	-13.6163
流餘涕以沾巾恐髙臺之易晏與螻蟻而	-13.6163
莫賞此古人所以染翰慷慨屢伸而不能	-13.6163
詳妍激清音以感余願接膝以交言欲自	-13.6163
鄞	-13.6163
不常青娥羞艶素女慙光笑李后於漢主	-13.6163
之一顧是時霜翦蕙兮風摧芷平原晩兮	-13.6163
仰肅金鑣或採丹葉或拾翠條守明璣而	-13.6163
伯便無北面之禮受符方屏即有	-13.6163
於千里重曰江南之杜蘅兮色以陳願使	-13.6163
於是臨虹蜺以築室鑿山楹以	-13.6163
暫徘徊和何儀同講竟述懐無名即講道	-13.6163
曰芳洲之草行欲暮桂水之波不可渡絶	-13.6163
月美目艶起秀色爛發窈窕暫見偃蹇還	-13.6163
而復嬌聳軿車於水際亭雲霓於山椒奄	-13.6163
褉	-13.6165
始至行部到西河美稷有	-13.6165
性忠至謹重常晝立侍終日	-13.6165
所復施也漢開改惡之路凡為此也故明	-13.6165
為非也適足絶人還為善耳雖忠如鬻權	-13.6165
人所中者頭痛發熱劇者至死	-13.6165
司馬餘官封如故相如西喻鏤石於靈山	-13.6165
繯	-13.6165
公妙識𤣥象深知厯數	-13.6165
奂	-13.6165
斯禮也臣實鄙才靡識大體徒以忠貞	-13.6165
是以勒此豐碑懼從陵谷	-13.6165
槩而勞不足銘雖以丹素	-13.6165
緜代誰易詳圖辨箴如鏡如水	-13.6165
者也伏聞陛下裁天賦品制地平施使曠	-13.6165
臨江王榮榮行祖於江陵北門	-13.6165
見洪深重之以女妻洪洪	-13.6165
誠而功無可勒豈有經天緯地之略探	-13.6165
開綬笥有兩赤蛇分南北	-13.6165
公孫也有異才吾不如也吾家書籍文章	-13.6165
兹賦以寄深哀順祗効寳瀆靈	-13.6165
動四鄰今朝梅樹下定有	-13.6165
寵迹窈窈睿功寳珪黛壤俾王于東絢	-13.6165
少壯時無樂自欣豫猛志逸四海騫翮思	-13.6165
推誠心而獲顯不矯然而祈譽嗟乎雷同	-13.6165
攴	-13.6165
明驗乎天道咎譽起於微薄得吝生於小	-13.6165
水紋恒獨轉風花直亂	-13.6165
相保觴絃肆朝日罇中酒不燥緩帶盡歡	-13.6165
縣是則金湯無險軌書攸同	-13.6165
翥荏苒歲月頺此心稍	-13.6165
聞胸中無學猶手中無錢	-13.6165
觴以自酌眄庭柯以怡顔倚南	-13.6165
詎不劣神釋大鈞無私力萬理自森著人	-13.6165
軒碧桐笙歌畹右琴儛池東嗟靈王之心	-13.6165
魏正光五年入仕解褐殿中將軍	-13.6165
不任荒悚戰懼之誠謹詣朝堂奉表以聞	-13.6165
不能爽鬼神莫由避况臣鄙槩早盈陋才	-13.6165
之名秋菊盈園而持醪靡由空服九華寄	-13.6165
云惟得人吮癑血或望可差君方寸已亂	-13.6165
亟降華爵必集雖延首紫局翹意宸居執	-13.6165
人踰垣進藥王不肯飲遂掩殺之此詩所	-13.6165
令狐子容服甚光舉措有適而我兒蓬髪	-13.6165
以毒酒一甖授張偉使酖王偉自飲而卒	-13.6165
伎奉君子而輸力接河漢之雄才	-13.6165
光靈維周肇祀伊衛炤分上代鏡華中	-13.6165
兮道我意千里逺兮長路難若其華實各	-13.6165
其然哉無知音則已矣聊	-13.6165
前表猥降前詔未垂鏡恕一省驚慙再悸	-13.6165
勉誨鏡伏廻環憫黙失圖心魄交懅淵谷	-13.6165
厚在今必惡徒侈徒異徒鏟徒削聊舉一	-13.6165
史九章曰去之五百歲吾猶見其人也豈	-13.6165
后淪泳賢聖罄品作號盡物歸政蒼黎汰	-13.6165
呀	-13.6165
命曰辭迨令人歌之頓挫抑揚自協聲韻	-13.6165
命而不渝恩潤身而無極何	-13.6165
変	-13.6165
太清二年正月癸巳朔兩月相承如	-13.6165
好盈缺春華故秋凋不知北山民商歌弄	-13.6165
委順養神之道也淵明可謂知道之士矣	-13.6165
安可以底慎財賦交正庶	-13.6165
寥唯有馳騖士風塵在一朝輿馬相跨躍	-13.6165
山蘇門山有隱者莫知姓名有竹實數斛	-13.6165
嵺	-13.6165
役於口腹意不欲仕乆矣及因妹䘮即去	-13.6165
征逺邇知寵肇封四履	-13.6165
後有感而賦予反覆詳考而後知	-13.6165
悲高樹之多䕃慨有時而不同願在夜而	-13.6165
意也其六行止千萬端誰知非與是是非	-13.6165
我神自謂也人與天地並立而	-13.6165
斯興閭閻懈廉退之	-13.6165
是悵然慷慨深媿平生之志猶望一稔當	-13.6165
暢歸去來則自出機杼所謂無首無尾無	-13.6165
月之英色絶雲氣而厲響負青天而撫翼	-13.6165
有詔許焉增邑并前合四千七百	-13.6165
枚乗還起疾貢禹遂彈冠	-13.6165
機務位班昔良知闕前	-13.6165
此豈述酒語耶三季多此事慷慨	-13.6165
死則咎在秦穆不在三良矣王仲宣云結	-13.6165
水潯風散松架險雲鬱石道深靜	-13.6165
泉涌隂渚水鸛巢層甍山雲潤柱礎有	-13.6165
浪大化中四句是不以死生禍福動其心	-13.6165
淫淫秋夜紫蘭生湛湛明月光偃蹇靈芝	-13.6165
温府淵明從父太常䕫嘗問躭君若在當	-13.6165
漂夜色河凝暠如霜悵哉心神晩燭	-13.6165
漾長驚澆灌逺注無時息焉青樹	-13.6165
無虧一朝長逝後願言同此歸厚恩	-13.6165
燭照玉容於兩楹悲扶桑之舒光奄	-13.6165
率我賓游朝服簪纓直拜園寝梁人望國	-13.6165
畹徙色曲池軼長洲兮杜若跨幽渚兮芳	-13.6165
矩之守任信愚陋而不肖愧金碧之琳	-13.6165
私願獲從臣之容身便當有地	-13.6165
秋露之餘芬出萬枝而更明冠衆蘤而不	-13.6165
穿龕架嶺糺紛星漢迴旋光景壁累經	-13.6165
等北據河橋南屬邙山為陣	-13.6165
素腕之美棗有細腰之質並抗吻以除煩	-13.6165
絜渠潏湟吐吸跳波走浪濺沫而相及	-13.6165
聞光武在盧奴乃馳北上謁	-13.6165
自叙以程氏妹䘮去奔武昌余觀此士	-13.6165
自古皆有没何人得靈長不死復不老萬	-13.6165
草紅華長翕赩師曠操雅操延子聆竒音	-13.6165
萌資待靡因誰其贍之實頼哲人	-13.6165
行抱朴守静君子之篤素自真風告逝大	-13.6165
衣如可贈寧濕岨雲梁	-13.6165
談太古無為之道及論五帝三王之義蘇	-13.6165
謝簡鑒避賢辭智之請終無	-13.6165
貞脆由人禍福無門匪道曷依匪善奚敦	-13.6165
販之士無薦管庫之家寂寞四維不闡五	-13.6165
軍經曲阿弱齡寄事外委懷在琴書	-13.6165
迎佳人兮北燕送上客兮南楚知荷華之	-13.6165
道必懷邦劉良註懷邦者不忘於國故無	-13.6165
鄉之感猶有遲遲矧伊代謝觸物皆非	-13.6165
錫以九命乃須周公之美况吕梁不鑿而	-13.6165
鏞於穆顯相黎元時邕冰州炎徼來獻其	-13.6165
隨時迷變則愚介介若人特為貞夫	-13.6165
離期定已促别淚轉無	-13.6165
雲車兮沅北望蜺裳兮澧東惜重華之已	-13.6165
鞭之政任重臨淄無遣獄之化自分金帝	-13.6165
韓子蒼曰傳言淵明以郡遣督郵至即日	-13.6165
風氣而參差故植君玉臺生君椒室	-13.6165
鳥之竒麗生金洲與炎山映銅陵之素氣	-13.6165
黏	-13.6165
􁫷	-13.6165
􁵰	-13.6165
五十四枚大略如此亦可謂至巧矣其法	-13.6165
俗之不固定赤舄之易遺乃鼎湖之可慕	-13.6165
出西極而擅名方翠羽而結葉比碧石而	-13.6165
卭之歸楚與章邯而並封	-13.6165
噏化而染靈比文豹而無恤方珠蛤而自	-13.6165
外屏大夫有命古或無違王假有廟今臣	-13.6165
失非外奬至哉操斤客重明固已朗五難	-13.6165
少卿悼躬夷甫傷子皆泣緒如絲詎能仰	-13.6165
崽	-13.6165
往採藥白雲隈聊以肆所養丹葩曜芳蕤	-13.6165
徒慙素絲質羇旅去舊京感遇踰	-13.6165
忘歸也若夫墨翟商瞿之倫學兼師術才	-13.6165
恍惚魄漫漫兮西東詠河兖之故俗眷徐	-13.6165
惟江南兮丘墟遥萬里兮長蕪帶封狐兮	-13.6165
戚乃配天之禮故呈襟効慮必期蠲亮重	-13.6165
敬宣以破桓歆功遷建威將軍江州刺史	-13.6165
柘代銅爰及明器之屬亦多減省必不得	-13.6165
歸一致南山有綺皓交臂	-13.6165
泠而繞堂視左右而不臑具衣冠而自涼	-13.6165
減天津波金簫哀夜長	-13.6165
漢魏舊載唯斯稱重雖英衮簉朝賢武滿	-13.6165
王謝冕旒諸法物表臣王言以軒冕雲蹕	-13.6165
璡	-13.6165
神飜覆而愉恱志離合而感傷女遂俯整	-13.6165
而盪靈於是大夫之徒稱詩而歸春陽始	-13.6165
謐信陵佩魏印秦兵不敢出慨無	-13.6165
賖遲逸想不可淹猖狂獨長悲悲從弟仲	-13.6165
迹願洲渚以淪形故其所廵左委羽右窮	-13.6165
道喆時遥裔雒符雜	-13.6165
銅槨三重汞池六尺玉	-13.6165
鍛	-13.6165
隔嶺鐘聲度中天梵響	-13.6165
魃	-13.6165
以蒙孫亡說者以蒙孫漢二十四帝童	-13.6165
二棊六棊白六棊黑所擲	-13.6166
舍人蔡景厯定計召文帝及	-13.6166
待謗今職守其私滿則天下有道庶人不	-13.6167
智哉抑亦何術以堪盛休是以覽雲際而	-13.6167
鯨虺奉國者理必全雲氣薄蝕下民咸貴	-13.6167
之情空至乃西陸始秋白道月弦金波炤	-13.6167
含詠吐辭笑月出於陳歌感蔓草於	-13.6167
夫差於黄池秋七月辛丑盟	-13.6167
異議故昌邑有歸邸吳楚無旋師斯激芬	-13.6167
俯順之効臣亦何力之有焉竊謂	-13.6167
十二年除大行臺尚書仍為大丞相司馬	-13.6167
帶束窈窕之纎身嗟温凉之異氣或	-13.6167
從白水以枯煎願在眉而	-13.6167
悲文茵之代御方經年而見求願在絲而	-13.6167
揚悲脂粉之尚鮮或取	-13.6167
言臣欵誠素履頻載縑翰天飾髙	-13.6167
䳜	-13.6167
之啼兮月色寒究烟霞之繚繞具林石之	-13.6167
倚樽酒而不持去室宇而逺客遵蘆葦以	-13.6167
安經讓禮席正業理儒衣似得	-13.6167
晝漏六十五刻夜漏三十五	-13.6167
淮發源屈曲不類人工	-13.6167
而多緒風蕭條而無端猨之吟兮日光	-13.6167
陽羅含賦之曰孟生善酣不愆其意光	-13.6167
菖	-13.6167
乃起賔館開東閣以延賢	-13.6167
出鎮同州世宗即位進柱國蒲州刺	-13.6167
成王王請食熊蹯而死弗聴	-13.6168
老子者楚苦縣厲鄉曲仁里人也姓李氏	-13.6168
子公輸般為雲梯以攻宋墨子解帶	-13.6168
孫臏傳馬陵道狹而旁多阻隘可	-13.6168
畦鑿隊而入井抱甕而出子貢曰	-13.6168
薊門還北望役役盡傷情	-13.6168
年十一孝公薨㷀㷀在疚	-13.6168
董巴輿服志曰古者君臣佩玉	-13.6168
亦稱淵明至元嘉中對檀道濟之言則云	-13.6168
持彰鬚曰黄鬚兒竟	-13.6168
自曹氏父子王仲宣陸士衡後惟陶公最	-13.6168
㘽	-13.6168
之賞虎賁戎路又晉公之典若乃衣裳盟	-13.6168
好遊峴山襄陽人建碑立廟	-13.6168
日素心丹魄皦然靡疚矣不任憂	-13.6168
榮願言不從歎息彌襟靄靄停雲濛	-13.6168
祈夢請駐心挂氣陛下猶降以璽書之榮	-13.6168
言臣再辭非謙重讓靡飾實以爵髙中	-13.6168
之侯猶或任不並台名爵無假前	-13.6168
之有東塾燕談曰淵明與子	-13.6168
云正月之吉始和布刑於邦國	-13.6168
亦罕兼職且麟閣之臣尚有位不及鉉全	-13.6168
公禮也以今三年正月十日葬於京兆之	-13.6168
后如兹之慎賞也臣乃謬貽國寄志在	-13.6168
實幽居士無復東西縁若年過五十時投	-13.6168
本官入治軍正至如渭水兵書在心為志	-13.6168
氣炎日永離明火中槿榮任露蓮	-13.6168
永平三年授平東將軍都督中埏建義	-13.6168
癰	-13.6168
西隴足抵黄塵碎骨何處池臺	-13.6168
賞倉泉縣開國男食邑一百	-13.6168
贈别藏啼留送别拭淚强相	-13.6168
難若夫野戰虹蜺伏順者易	-13.6168
鼎之恭更懼循墟之速矧乃三司業貴上	-13.6168
龍勤夏未聞冠俗之爵大彭翼商豈見超	-13.6168
乃假翼於皇極遂事等話言之寄任鈞符	-13.6168
九職惟宣六典式序丹青所以傳其藹磬	-13.6168
二人從之游時人謂之二仲亦載三輔决	-13.6168
倞	-13.6168
又至江陵再返故云東西游走及四十一	-13.6168
君躬勤苦子安得不耕以養	-13.6168
嘉祉方寅景命締詳有文	-13.6168
屈起而笑曰有是哉遂共終身	-13.6168
年成邑二年成都而民五倍	-13.6168
我舅氏文皇帝駕馭龍虎據有周秦	-13.6168
所以揚其音也臣才蔽識淺非集譽於	-13.6168
故人迎借問念舊始依依河	-13.6168
晚節師範其萬一也趙泉山曰或疑此䟽	-13.6168
有加重賞公率先而至領	-13.6168
有慚色父子恩深不覺自失耳妻曰君少	-13.6168
測其中險如孟門豁若長河參差巨石縱	-13.6168
烏鳴啞啞引弓射之洞左腋陛下	-13.6168
碗	-13.6168
腎	-13.6168
花出迥樓定須催十酒	-13.6168
英最節乗山呈瑞航海歸闕不曠景	-13.6168
蕤物同其幸焚惡去醜	-13.6168
賈誼位方尊金張服貂冕許史	-13.6168
起晚眠常早孰若當世士	-13.6168
迢迢百尺樓分明望四荒暮作歸雲宅朝	-13.6168
遊髙唐願薦枕席王因幸	-13.6168
邐成迹馳湍走浪漂沙	-13.6168
頳蘭始滋不擥蘅帶無倚桂旗摘芳拾蘂	-13.6168
馬為虎所傷權投以雙㦸虎却廢	-13.6168
麗豈能從我而為榮先生曰多言	-13.6168
龜鼉若乃夏后未鑿秦皇未闢	-13.6168
㯶	-13.6168
不懼應盡便須盡無復獨多慮鶴林曰人	-13.6168
世踈慨然寤歎念茲厥初	-13.6168
之初立出首夏以歸來自出國而辭友永	-13.6168
之日九黎亂政當摧軸之辰雖瀝命奉時	-13.6168
之首以祛來者之惑云始作鎮軍	-13.6168
九月辛卯遣柱國齊國公憲	-13.6168
二句警要者餘章自可意逆也如豫章抗	-13.6168
亦柔好音梁黿棧鼉越險浮深逺	-13.6168
人之燈者非珠非銀無藻無縟心不貴美	-13.6168
信啓伏覽制垂賜集序	-13.6168
倐忽南江隂照曜北海陽從此長往來萬	-13.6168
入必侍丹帷箴規嚮	-13.6168
力就列艱多智寡翊賛罔樹若乃洪範不	-13.6168
勔	-13.6168
千里餘目倦川塗異心念山澤居望雲慙	-13.6168
固難忘君命安可違是皆不以三良之死	-13.6168
在襟誰謂形蹟拘聊且	-13.6168
字之誤害理如此張九成曰此即淵明畎	-13.6168
將軍與北單于戰於稽落山大破	-13.6168
將軍都督封安昌縣開國子食邑三百	-13.6168
山亦此意庚子歲五月中從都還阻風於	-13.6168
席何愛於餘明之照四壁者幸以賜妾	-13.6168
彼方舟容裔江中勗哉征人在始思終敬	-13.6168
悄愴成憂憫黙自憐信規行之未曠知矩	-13.6168
意表東坡曰客養千金軀臨化消其	-13.6168
慎荷故行珪行玉尚無輕頒一爵一號猶	-13.6168
挹可鏡又象沖室惟清惟淨氣擬北海情	-13.6168
日眷然有歸歟之情何則質性自然非矯	-13.6168
曰妾以無燭故常先至掃	-13.6168
有好容顔我欲觀其人晨去越河關青松	-13.6168
有齊將之閉壁無燕師之臥牆	-13.6168
楚聲而無尤怨切蹙之病休齋曰詩變而	-13.6168
池卉具靈變重陽集清氛下輦降	-13.6168
河滿目中平原獨茫茫古時功名士慷慨	-13.6168
淮南王信自華淫命綵女兮餌丹砂而學	-13.6168
生人傲然自足抱朴含	-13.6168
直尚惑於五臣之說他可知矣故著于三	-13.6168
相伊邂逅之未遇爰契	-13.6168
神飜覆而亡據夫以雄才不	-13.6168
能駕御卿後以疾終於家年五十一始自	-13.6168
臣聞寵以昭賢不濫才外之華	-13.6168
舒儼宣俟雍份端佚通佟	-13.6168
芬激譽流聲滿我筠心而松性君金采而	-13.6168
裂池蓀雲雪無際河海方	-13.6168
褐欣自得屢空常晏如時來	-13.6168
謝主簿宿季月寒氣重滋蘭錯無芳北風	-13.6168
足引脫其囊以身親土其子遂	-13.6168
長史在朝隤然仗正順而巳門無雜	-13.6168
雅相知得有若舊交還至轉從事中郎俄	-13.6168
願留就君住從今至歲寒其六	-13.6168
飛蓋東都門顧念張仲蔚蓬蒿滿中園張	-13.6168
􁵚	-13.6168
䝨	-13.6168
不復能鑄銅者正當不能使利如霜雪光	-13.6168
丹渚曖朱草於石路霞晃朗而下飛日通	-13.6168
二襄南雍平信江隨郢淅十二州諸軍事	-13.6168
于沼之濵乃射宿餌魴前繳鷫鷞青黏	-13.6168
以吐秀披絳華以舒英故香氛感俗淑氣	-13.6168
依依舊楚邈邈西雲之子之逺良話曷聞	-13.6168
借問衰周來幾人得其趣游目漢廷中二	-13.6168
兮一奪唯華名與芳暉兮爭日月而無沫	-13.6168
冬暮亦復朱燈空明但	-13.6168
則峻巘層石龜穴龍壁素岸成雲頳砂如	-13.6168
千載津梁誰能了思乗扶	-13.6168
后稷贍之伊何實曰播殖舜	-13.6168
呈炤皦景伏願陛下逺牽雄範近覽英規	-13.6168
咨嗟而躑躅聊周流而從容想	-13.6168
埋冥而難發何弱命之不禁遂永至於夭	-13.6168
失色抱棺號慟誓不求生俄爾之間風波	-13.6168
奄荒南服求以先封武陽郡三千	-13.6168
宅邊有五栁樹因號五栁先生後	-13.6168
宇宙之麗難息絶氣聊書竹素儻不滅焉	-13.6168
尾濯髮慙陽阿年歇	-13.6168
山膚若流波身如絶煙芳菲一逝美懋徒	-13.6168
岑氣清知鴈引露華識	-13.6168
庂	-13.6168
形之術後告言病帝以美梨一	-13.6168
恨難勝至如李君降北名辱身	-13.6168
悼知音之已逝金雖重而見鑄桂徒芳而	-13.6168
情嬋娟而未罷愁爛漫而方滋切趙瑟以	-13.6168
憂傷漫漫情靈意終不淄誓	-13.6168
昌化具日遺氓咸蒙其賴矣	-13.6168
明司幽軒轅陟祚首出庶物顓頊登庸作	-13.6168
昔臧文既沒穆叔稱其立言	-13.6168
杜鎮南之作牧當世樹碑	-13.6168
梁詠河兖兮路未央道尺折而寸斷	-13.6168
樹之君所以平對二儀顯臨萬國膺符受	-13.6168
氛霧秦趙值薄蝕幽	-13.6168
水碧眇然萬里遊矯掌望	-13.6168
淛	-13.6168
淪駐精魄道人讀丹經方士	-13.6168
濕暫難然銅荷承淚蠟	-13.6168
炤燎水陽雖圖緯之有載曠代識而未逢	-13.6168
焚炭藥草匝惠滋常	-13.6168
獄吏田甲辱安國安國曰	-13.6168
獄舅蕭條晩秋景旻雲承景斜虚堂起青	-13.6168
生云有子賢與愚何其掛懷抱此固以文	-13.6168
生寧盡時敬承積刼下金光鑠海湄火宅	-13.6168
生暮霞空居寂以欷左右自幽歌騎星謝	-13.6168
由貧富之懸兼以避患之及耳故	-13.6168
矹	-13.6168
硉	-13.6168
祗冥青桂羞烈沉水慙馨於是生乎澤陂	-13.6168
禺之廣野意丹山之喬峯禀	-13.6168
秋情如絲怨此愁抱傷此秋期必丹燈坐	-13.6168
章挺秀近出嘉賔吐蘅吐蕙含瓊含珉摧	-13.6168
籅	-13.6168
經空山坻禪心暮不雜寂行好無私軒騎	-13.6168
胷中去機巧物我俱忘情可以狎鷗鳥許	-13.6168
艱如此而一言一字率直致而務紀實也	-13.6168
艻	-13.6168
苑吏種之吏後以表聞先主即發棺視	-13.6168
萬著形兆寂動茍有源因謂殤子夭道喪	-13.6168
落超迹絶塵網殷東陽興	-13.6168
蘭秉芬四塞欷人逕之不平歎天路之	-13.6168
血祈旦亮慊志夕滿雖蹈	-13.6168
躬耕禹亦稼穡逺若周典八政始食	-13.6168
軒詠堯老浪迹無蚩妍然後君子道領	-13.6168
迵	-13.6168
逗江隂翠山方藹藹青浦正	-13.6168
遂徂寒蒹葭於余馬傷霧露於農夫跨金	-13.6168
銅槨而取銅深大不可多得因此穴塞漢	-13.6168
門有閌列坐金狄是也又造阿房之	-13.6168
隆眷擬余才兮前華比余文兮後彦余結	-13.6168
霞停詔臨風輟恩豈伊愚臣方	-13.6168
静咸以君精誠所致成都孝子自赴江流	-13.6168
領軍江州兖州豫州淮南黃門謝啓	-13.6168
驂雕輦以愛國之有臣焉	-13.6168
鳿	-13.6168
黯春風日夜過楚水徒有蘭憂至竟如何	-13.6168
鼈胾羮臑㹠柘漿窮嬉極娛雲	-13.6168
龕平又從討張彪於會	-13.6168
􁛩	-13.6168
􁴢	-13.6168
畢十二度至東井十五度曰實沈	-13.6169
謂此月之時日長之至極太史漏刻	-13.6169
之恒軌故皇極載凝庶士交慎昔者重黎	-13.617
封賞彌盛然表東海者實牧野之日	-13.617
揆一焉是以二周之始山河愈廣兩漢之	-13.617
魯邦者乃負圖之辰西都英相信命	-13.617
情畢議眇望神藻鑒見丹襟而帝閽以祕	-13.617
無由再遇悲矣如何即以其年十	-13.617
心一夜而九摧徒望悲其何及銘此恨於	-13.617
泉凍無聲天子愴然追於贈諡禮官賜冊	-13.617
蓋聞意氣難干非資扛鼎	-13.617
之已盡傷故國之無際出汀	-13.617
濟弱淪風起扶危頽運歸	-13.617
窮隂匝海平蕪帶天於是泣故	-13.617
頊紀北至幽陵南至交阯西	-13.617
中宗之夷凶靖亂大雪寃恥	-13.617
新年鳥聲千種囀二月楊花滿路飛	-13.6171
魯公領宗師二年世宗崩遺詔	-13.6171
陳書武帝紀髙州刺史李遷仕據大臯	-13.6171
仙人與流霞一杯飲之輒不饑渴	-13.6171
忮	-13.6171
本草曰白楊北土極多人種	-13.6171
君諱道生字某朔州武川人也	-13.6171
屯兵長沙傳檄諸方為進趣	-13.6171
窕美色為艶美心為窈	-13.6171
銘曰欽若厯象平秩寅賔	-13.6171
三台六星兩兩而居起文昌列抵太微	-13.6171
冠軍侯之用兵未必師古武安君之	-13.6171
出妙語於纊息之餘豈渉死生之流哉	-13.6171
口無音欲視眼無光昔在	-13.6171
周宣母弟就封於鄭河洛之地	-13.6171
念銜意矚里斜友人殊未還獨慰簷前華	-13.6171
昨夜宿南陵今旦入蘆洲	-13.6171
芰葉映低蓮遥望芙蓉影	-13.6171
象之法於象魏使萬民觀刑象挾日而	-13.6171
雷萌山中草雲煦江上花	-13.6171
静寄東軒春醪獨撫良朋悠邈搔首延佇	-13.6171
務廣河汾寄深珪㝢方	-13.6171
容膝之易安園日渉以成趣門雖設而常	-13.6171
帷鼎位兼文武職惣内外非所以發夢渭	-13.6171
懼失正和晦裂蜺霧之災且濫庶	-13.6171
昲	-13.6171
東征裔率所部從戰河橋又	-13.6171
欞	-13.6171
節山盈川沖厚地不能虧其度豈不靈鑄	-13.6171
自有陳創業文檄軍書及禪授詔	-13.6171
自此即居帳内仍為直寢授	-13.6171
象緯休徵下蒼龍於曼倩	-13.6171
貴唯功是念火職咸允雲官亦熈	-13.6171
關津升高問途北眺氊	-13.6171
陛下停若鏡之明流如雲之愛方求士於	-13.6171
集懋冊頓萃諒非虚薄輕所膺符今殷夏	-13.6171
魏室元輔握兵淮右抗權江南	-13.6171
䭔	-13.6171
之邸千金之貴恒單白藏之府戈	-13.6171
乞留儉朝廷嘉而許之在州遂	-13.6171
云王太子子喬好輕舉不待	-13.6171
人杜險之蔽取愧前英故十萬之師無集	-13.6171
以上八段遞句退成囘文每段各増詩	-13.6171
但居市朝軒冕時要使山林	-13.6171
兮依然下有芍藥之詩佳人之歌桑中	-13.6171
内維榮炫外圉方梗名慮有陋莩識沖生	-13.6171
劒舄青苔生兮綴衣巾	-13.6171
堂君辭以脚疾不任拜起詔使人扶入君	-13.6171
夐略遺圖忌華徇儉文闇陳几翌明告漸	-13.6171
女上宫陳娥春草碧色春水	-13.6171
寒沙兩岸白獵火一山紅願想懸鶉弊	-13.6171
對樓前上橋還倚望遥看	-13.6171
於周室我為長晉人曰於姬姓我為伯	-13.6171
旻靈拂采霄景汰色復交書河楚置傳江	-13.6171
曰若大王之燈者銅華金檠錯質鏤形碧	-13.6171
服勤盡歲月常恐功愈微忠情謬獲露遂	-13.6171
朱邑祭酹無所漢后是以賜金	-13.6171
梁國戚屬方忝旌旗之貴而臣包括庶揆	-13.6171
此詩靖節年五十作也時義熈十年甲寅	-13.6171
沛將掩理昧人詖道懸	-13.6171
河源珪組賢君眄青紫明主恩終軍才始	-13.6171
發於江湖戎車出於石城然後雲徹席	-13.6171
百枝艶帳充庭炤錦地之文席映繡柱之	-13.6171
皆作山水好勢仙者五六雲氣生焉悵然	-13.6171
眄測恩躋愉逸㳂牒懵浮賤承榮重兼金	-13.6171
秋露如珠秋月如珪明月白露	-13.6171
竒花之春滿摘甘實於夏成此實宫苑之	-13.6171
荷香薫水殿閣影入池蓮平沙臨浦口	-13.6171
華過盈瑱敢飾輿人詠方慙	-13.6171
見杜若之始大結琱鱗以成車懸雜羽而	-13.6171
親華屋爭結綬朱門競彈巾徒	-13.6171
路生白雲宿簷端知我故來意取琴	-13.6171
錫晉叔匡周豈頒上公之典燕藩懿親裁	-13.6171
錬金鼎而方堅駕鶴上漢驂鸞騰天	-13.6171
願芙蓉兮未晦遵江波兮待君山中楚辭	-13.6171
鶴林曰士豈能長守山林長親	-13.6171
䠛	-13.6171
一據故備言其詳以發子之	-13.6171
不合禮意又違先帝已然之法所未敢處	-13.6171
中耳予偶讀淵明歸去來辭云㓜稚盈室	-13.6171
乃成讚曰悠悠開闢或聖或賢蚩尤鑄銅	-13.6171
乃深賜天衷廣映祗迹伏惟陛下騫英駕	-13.6171
乃陳好言乃著新詩一日不見如何不思	-13.6171
今淮泗告驚羽書馳聞醜羯妖燼送死北	-13.6171
以攻齊也以此時奸説秦昭	-13.6171
何得晨風起悠哉凌翠氛	-13.6171
何斯人之獨靈禀神智以藏照秉三五而	-13.6171
何言若夫明妃去時仰天太息紫臺稍逺	-13.6171
克宣騰芬中屬飛藻上年杳杳虚素永永	-13.6171
兼乗而反光乎譙郡之城	-13.6171
分將有限也汝輩稚小家貧毎役柴水之	-13.6171
分財無猜歸生伍舉班荆道舊遂能以敗	-13.6171
加以舉功行賞推恩分邑	-13.6171
十里朝霞兮千尺千尺兮緜緜青氣兮	-13.6171
千金而不賤雖楚之夏姬越之西施趙妃	-13.6171
合生䃕磪堅英自非索嶮覓危	-13.6171
后秦娥吳娃溺愛靡意	-13.6171
周景王鑄也製作精巧獨	-13.6171
咀牙而消疾於是三雅陳席百味開印玉	-13.6171
哉伏願陛下一檢丹崖遂臣慊心無使怵	-13.6171
哉矧詩中又無標晉年號者其所題甲子	-13.6171
嘉遊未斁誓將離分送爾于路	-13.6171
夏匡殷之功威晉服楚之績業不題於宗	-13.6171
多委鬱精魄還自臨始獲瓊歌贈一	-13.6171
多用彭澤五株栁雖白樂天六帖亦然以	-13.6171
大厦須異材廊廟非庸	-13.6171
大寶元年帝發始興次大庾嶺大破	-13.6171
姗	-13.6171
宋故尚書左丞孫𬗟墓誌文	-13.6171
官庫見錢不識或怪而問之生曰固知其	-13.6171
定理禍福不可禁唯見雲際鵠江海自追	-13.6171
室多故余懼及焉其何所可以逃死史	-13.6171
少雪庸誠微謝天眷耳	-13.6171
尚婉戀於樊陽潘去洛而掩涕陸出吳而	-13.6171
屬國𤣥甲軍陳自長安至茂陵為冢	-13.6171
山無極揺風忽起白日西匿隴	-13.6171
峻冊愈凝大榮集身尚驚異施况寵洽山	-13.6171
州之北山今建德二年二月二十三日遷	-13.6171
州諸軍事餘官如故南陽文學更遇王基	-13.6171
布弋設罝並皆禽獲六翮	-13.6171
幔風結羅紈螢光别桂蛾命辭蘭秋夜如	-13.6171
幾人應淚落看君馬向南	-13.6171
幾象火滅而山紅餘形可覽殘色未去耀	-13.6171
彼山中伐木得銅斧一口古銅鑄	-13.6171
忽臻於兹慙慨憂灼罔識其際伏願陛下	-13.6171
戾颸風舉高談翫四時索居慕儔侣青苕	-13.6171
才名體兼遷雲學備儒史紫閣咸趨朱軒	-13.6171
投劾而歸耕于潯陽其所著書自義	-13.6171
按張華博物志亦稱鑄銅之工不復可得	-13.6171
據伊余荷寵靈感激徇馳騖雖無六竒術	-13.6171
新秋月臨流别友生凉風起將夕夜景湛	-13.6171
方試業敝緒徒以綴采宗莩承渥帝席執	-13.6171
於柔握悲白露之晨零顧襟袖以緬邈願	-13.6171
旅故情多近學衡陽雁	-13.6171
旗之祚莫不頌滿金石聲彯宇宙者也	-13.6171
星稀蘭英縹潤既夷志於坎壈亦	-13.6171
是朝章應其如此今衣冠禮樂日富年華	-13.6171
時曷不委心任去留胡	-13.6171
時競逐桑婦宵征農夫野宿	-13.6171
有喜愠之容好酣飲逾多不亂至於任	-13.6171
有家貧而無燭者處女相與語欲去	-13.6171
有白光如鳥雀之狀時飛	-13.6171
有社稷之士入而忘歸則爭論南宫之前	-13.6171
林中電兮雨冥冥江上風兮木颯颯盟清	-13.6171
桐之葉兮蔽日桂之枝兮刺天百谷多兮	-13.6171
樹色露華翻蕙隂水苔方下蔓石蘿日上	-13.6171
櫚	-13.6171
歲靖節年三十七詩曰開歲倐五十乃義	-13.6171
死則死之不可許之死欲與梁	-13.6171
沅漢十十五五忽合而復散乃有綺雲之	-13.6171
沛然如肺腑中流出殊不見有斧鑿	-13.6171
涇渭日暮山河清蟋蟀依	-13.6171
淮而南青質五色皆備成章曰揺	-13.6171
測内涯故讓不飾迹辭非謙距寸亮尺素	-13.6171
焉又昔夏后氏使九牧貢金鑄九鼎	-13.6171
猗猗原陸卉木繁榮和風清穆紛紛士女	-13.6171
猶今鏡不及古鏡今鐘不及古鐘矣昔余	-13.6171
獨止酒於此四者皆欲止之故坐止於樹	-13.6171
琴空閨饒逺念虚堂生夜隂兹夕一何哀	-13.6171
甘醇酒既深悟於腐腸豈自迷於爽口	-13.6171
用素棺不得施漆及自棺之外一無所設	-13.6171
真趣雲天亦遼亮時與賞心遇青松挺秀	-13.6171
碧臺寂兮無人蔓丹草與朱塵度俄然如	-13.6171
禮英賢不恡千金璧雙闕指馳道朱宫羅	-13.6171
稗	-13.6171
積金徽方傳乃毓伊人	-13.6171
竒驚畏左右一劒之功震慄鄰國夫能者	-13.6171
絃歌乎趙泉山曰集中惟此詩歴	-13.6171
給呼召數十年乃不復聞聲矣	-13.6171
罍寒華徒自榮歛襟獨	-13.6171
置酒欲飲悲來填膺千秋萬	-13.6171
翔超然左覽蒼梧右睨鄧林崩石梧岸	-13.6171
聲靡記於彞典而超居上禮邈	-13.6171
臣景能驗才無假外鏡撰	-13.6171
與我而相違復駕言兮焉求	-13.6171
興令鑿池又獲銅箭鏑數十枚時有人復	-13.6171
舜禹之心臣守巢由之節則道	-13.6171
良辰以保爾躬勸農悠悠上古厥	-13.6171
華與素儀冠衆寳而獨立信求之而無虧	-13.6171
蒼蒼山中桂團團霜露色霜露一何	-13.6171
蜀山氏女生顓頊於若水之野有聖	-13.6171
蠅蠅也曰此故父母之國乃為麥秀之歌	-13.6171
衢投䇿命晨裝暫與園田踈眇眇孤舟逝	-13.6171
西山之餓夫東國之黜臣而况其	-13.6171
詎有幾縱心復何疑趙泉山曰二詩皆直	-13.6171
語勤未洎伊稷之能藉靈	-13.6171
識時委命其意固有在矣豈一督郵能	-13.6171
貧瞻望邈難逮轉欲志長勤秉耒歡時務	-13.6171
遂降秦秦悉坑之趙前後所亡	-13.6171
郡武帝元封四年開高句驪屬幽州	-13.6171
郺	-13.6171
銷骨瀝命猶不勝謝不任鯁泗荷珮之誠	-13.6171
鑄銅鑪鋺燈耶然今太極殿前兩大銅鏡	-13.6171
闢仁動今古四三王而六五帝不亦休哉	-13.6171
雲意霜拍瓊立氷堅家寳以瑩國才未甄	-13.6171
零大藩有命作使上京豈忘宴安王事靡	-13.6171
靈木夾道神草列生俯瞰太一下視流星	-13.6171
青苔丹草内伏玉枝瑪瑙銅	-13.6171
類而次之亦非淵明本意秦少游嘗云宋	-13.6171
黄魯直詩亦有甲子不數義	-13.6171
龍之錫元首股肱誓不可異而曠	-13.6171
朝周過殷故墟見麥秀之蔪	-13.6171
疇代故以載曜聲書式炳縢牒矣太妃誕	-13.6173
一代經半景若九春命幸得	-13.6173
下位也而子雲居之僕非有輕車驃騎之	-13.6173
之日無榮惡乎辱無得惡乎	-13.6173
公走幣僕亦在南山之南矣此可	-13.6173
前而民不害是以天下樂推而不厭	-13.6173
惟岳降聖重耀函夏延禮壁臺訪道衢	-13.6173
揚沙石窈㝠晝晦漢	-13.6173
文辭金石韻毫翰風飈豎	-13.6173
民知約法未肯以獄吏為尊	-13.6173
知命僕息心越地採藥稽山友人幸甚去	-13.6173
箕坐高視舉酒極望雖五侯交書	-13.6173
綵扇兮出入玉帶與綺紳	-13.6173
而不見悵浮雲而離居廼凌大壑越滄淵	-13.6173
與日競走俱至虞淵下似若無勝負神力	-13.6173
行歌其次則堅坐崩岸僵卧深窟朝	-13.6173
軌或經天緯地搆紫靈之符調風偃海隆	-13.6173
電繞北斗樞星感而懐孕二	-13.6173
於是奴僮競出盡皆得志	-13.6174
齊語桓公曰管夷吾射寡人中	-13.6174
於事親中於事君終於立身揚名於後世	-13.6174
山則風月悽愴隴水則肝	-13.6174
威異人罄折皆相望北闕待詔南宫而臣	-13.6174
無利博文有忮害廼彯	-13.6174
至漢川祭亮之廟令軍士不	-13.6174
𫀆	-13.6174
之第三妹也母儀令範女師賢哲	-13.6174
有機事必有機心吾差不為	-13.6174
問梓樹樹曰豈奈吾何鬼曰若使三百人	-13.6174
四十二年身經六十九戰至於多竈唱籌	-13.6174
之志輕之若脫屣視之若鴻毛而	-13.6174
多見兵書澆沙聚石之營	-13.6174
大丞相書云此之美事耳目之所未經歎	-13.6174
搤	-13.6174
洑	-13.6174
漈	-13.6174
連結於襚謂之綬漢承秦制	-13.6174
遂於㕔事前肉袒自罰捨璨不	-13.6174
將命齊國尋盟出境即用和鄰之儀	-13.6174
春日離合二首秦青初變曲	-13.6174
曰四言尤難以三百五篇在前故也停雲	-13.6174
與位謂之大寳辨諸文而尊卑	-13.6174
刋石陘山雖非漢陽之城	-13.6174
及命引進乃曰噫子老矣鶴髮雞皮	-13.6174
在朝四十一年身經一百餘戰凡任四郡	-13.6174
大臣才非古賢任鈞左戚祚	-13.6174
島嶼憑陵波瀾衝激	-13.6174
帝西遷永時不及從大統初乃	-13.6174
後漢逸民傳梁鴻妻孟光曰妾有	-13.6174
志在四海而尚恭儉心包宇宙而無	-13.6174
橘陵寢起邑池藻誰縣遥館罕御離房空	-13.6174
漢朱買臣傳上拜買臣㑹稽太守	-13.6174
漢求金岫吳寳銅塹寧若睿	-13.6174
狐交河大嶺避雨木柵	-13.6174
笏天子以球玉諸侯以象大	-13.6174
諡某公禮也夫人髙氏渤海人也	-13.6174
遵淮泗旦夕見梁陳服義追上列矯迹厠	-13.6174
鄫	-13.6174
三表臣某言臣再抽慊請辭	-13.6174
之共啜盼萬騎之相泫	-13.6174
之名桃表兼斤之實杏積魏國之貢菱為	-13.6174
之黯黯泣松帳之茫茫上宫擗而詔御咽	-13.6174
余戲常脫余金環與侍	-13.6174
俄而赤蜺電出蚴蚪神驤曖昧以變依俙	-13.6174
僪	-13.6174
兩鬢肌膚不復實雖有五男	-13.6174
兮亂神願歸靈於上國雖坎軻而不惜身	-13.6174
兮多蒿棘顧左右兮絶親	-13.6174
兮荷葉承蓮悵何意之容與兮	-13.6174
冬嶺秀孤松劉斯立曰當是	-13.6174
凝兮夜何長織錦曲兮泣已盡	-13.6174
出於中計勝負之數未可知也	-13.6174
别駕永㑹稽人䘮亡君求赴義路由永興	-13.6174
千餘家歸附並裔之鄉舊	-13.6174
可知或雖顧作淵明摘出四句可謂善擇	-13.6174
各遣纁招庶暢此幽襟以旌蓬蓽建平王	-13.6174
呼哀哉帷宫低景輦路	-13.6174
國分風代川揆氣閩澤	-13.6174
坐詠琴瑟逍遥可永年假乗試行遊北望	-13.6174
大道方行蒼祗宅氣威靈所燭九功咸詠	-13.6174
字起順讀每首四句句七言	-13.6174
寂兮寂巳逺夜釭夜兮夜何邃嗚呼哀哉	-13.6174
少保幽冀定相等五州諸軍事幽州刺史	-13.6174
山岑翩翩征鳥翼蕭蕭松	-13.6174
山播種五榖或言於楚王曰老萊	-13.6174
嶼帶江雜樹億尺紅霞萬	-13.6174
帝阿史那皇后突厥木扞可汗俟斤之女	-13.6174
恩宥實生之幸不任慊欵之	-13.6174
悰徒懸優奬之降非復常	-13.6174
悼之發屬國𤣥甲軍陳自長安至茂陵	-13.6174
惟金有銑惟玉有瑶君實淵哉行	-13.6174
折骨驚雖淵雲之墨妙嚴樂之筆精金閨	-13.6174
撫孤松而盤桓歸去來兮請息交以絶游	-13.6174
擂	-13.6174
擾擾摩肩轔轔方駕	-13.6174
敷道之寄管物成務惣	-13.6174
於庸臣獨隔恩耀誓守愚衷重扣雲日如	-13.6174
春水滿四澤夏雲多竒峯秋月揚明	-13.6174
昨發赤亭渚今宿浦陽汭	-13.6174
晉無文章惟陶淵明歸去來兮辭一篇而	-13.6174
晦泉火兮巳閉曖遺波	-13.6174
暫緩此憂年失代上之異人	-13.6174
曉結摐虚金而下欷吟空	-13.6174
有道而宜舒敢以淺智請從後車	-13.6174
校耆老於州城之南起清徳之樓	-13.6174
止於蓽門之裏則朝市深利吾何	-13.6174
氏冀慮夀害伯玉嘗置複壁中	-13.6174
氣安以輸謝不勝荒震屏營之情	-13.6174
清顔止宿容奚止千萬祀胡仔曰坐止	-13.6174
漢主之懷沛辭金陵之匪義降雲陽之杳	-13.6174
献	-13.6174
玉臺不送胡香未有必見此之雙飛	-13.6174
理屈側守圭漏伏望衷鑑而	-13.6174
異色而低斾怨街邑之綵驂弔原野之縞	-13.6174
疾甚亡於同州春秋五十七天子輟樂	-13.6174
痛縈盈其如帶嗚呼哀哉複林油雲重山	-13.6174
石視鱣岫之吐翕看黿梁之交積於是紫	-13.6174
石閉兮紫苔傷芝原寂少色筠庭黯無光	-13.6174
秀鼎號銘共茂瑶篆永言戚慮鑒寐殷心	-13.6174
精矧在乗輿宇折宙傾祲纒鸞掖悲赴紫	-13.6174
素百二十有三人於山西巖下般若臺精	-13.6174
綺輿澁神行而撫文輦傍建春而南蹕徑	-13.6174
繞瑯琊碣石南馳九疑桂林山則異嶺竒	-13.6174
缸	-13.6174
而索饗之也風雪送餘運無妨時已和梅	-13.6174
芬芳劉僕射東山集學騷含秋一顧	-13.6174
芳嗣烈學惟物範行實士節容與書林優	-13.6174
荀中郎為十州都督才踰弱冠	-13.6174
蟀一名吟蛩一名蛩秋	-13.6174
行咸陽與武士四人俱夜出	-13.6174
襜帷入境貪殘者解印冕旒從政	-13.6174
詩兮影獨傷儻有華隂上士服食還仙術	-13.6174
詩話曰此詩乃顧長康詩誤入彭澤集	-13.6174
謐昭徒肅纛幽祗竦	-13.6174
質齊影儒喆慶履匪舒沴氣遽結殯帷兮	-13.6174
辭家夙嚴駕當徃志無終問君今何行非	-13.6174
遂其志耳保千金之軀者亦終歸於盡則	-13.6174
長别垂綸獨有磻石留名渭	-13.6174
開國公敬則志幹貞烈秉情開敏忠勤之	-13.6174
陽而東踐尚葐蒀而未散乍	-13.6174
隂煙滅淮海見中坐溢朱組	-13.6174
雲覽志上載洽鏡前聞騰名冠俗揚采絶	-13.6174
黼夙興丘礙必靜淵漪咸澄勛扆有作黔	-13.6174
㑉	-13.6174
三十載幸遭天下平賢主降嘉賞金貂服	-13.6174
上書王太后殿下伏承以令日淑辰	-13.6174
不夢帝城之阡陌憶故都之臺沼是以	-13.6174
之文章發麟鹿之炳絢騁神形於鐘簴舒	-13.6174
之間故俛首求衣歛眉寄食耳若十口之	-13.6174
乏淵源識暗機務倫濟夷險	-13.6174
云夸父不量力欲追日景逮之於禺谷	-13.6174
人温嘗問君酒有何好而卿嗜之君笑而	-13.6174
今日小園中桃花數樹紅開君一	-13.6174
以上八段遞句退成回文	-13.6174
以九錫命大將軍讓公將還京邑祖餞贈	-13.6174
以來無此句東坡曰採菊之次偶然見山	-13.6174
以親蝮蛇九首雄虺戴鱗炎穴一光骨爛	-13.6174
來辭後一十六年庚申晉禪宋恭帝元	-13.6174
僕者不一二談也僕聞狂士之行有三竊	-13.6174
其下則辭榮城市退耕巖谷塞逕絶賔杜	-13.6174
出水霞朝日照梁何如花燭夜輕扇掩紅	-13.6174
出遊則好令左右作挽歌類皆一時名流	-13.6174
分猶言太屈未喻高懷若問梁朝朱領軍	-13.6174
别執手未期浮雲色曉悵然	-13.6174
前英寵華昔典仰震威容俯慙陋識心	-13.6174
劉昆為𢎞農太守先是崤黽驛道	-13.6174
功多士濟斯位眷顧成綢繆乃與時髦	-13.6174
効鏡岳祥獻明碧葉獨秀瑶源自清	-13.6174
北遺憲古鼎容五斗其傍	-13.6174
十二月亡春秋五十有八二年正月歸於	-13.6174
去海人之仄陋充公子之嘉客儻委身於	-13.6174
及日景而傾河渭豈以走飲哉其十精衛	-13.6174
吾今年四十有四介已知命	-13.6174
周張平泉固安蠻通谷凡十三防禦	-13.6174
善自名按是時淵明年三十七中間除癸	-13.6174
嗌	-13.6174
四時而皆難况僕人之末陋也	-13.6174
园	-13.6174
在屠維龍居淵獻春秋六十有七	-13.6174
壟平自古皆有死莫不飲恨而吞聲去故	-13.6174
士習尚如此非如今之人例以	-13.6174
士言也方今仲秋風飛平原彯色水鳥立	-13.6174
外公卿送𦵏駟馬不行跼地悲鳴	-13.6174
大吕陳於元英故鼎反乎歴	-13.6174
奢大富大盛或傾一國之財或竭一家之	-13.6174
好斯文系緒承胄激蘤驚芬才基魏粲學	-13.6174
如見山水萬象丹青曲變	-13.6174
宅從容氷井臺清池映華薄	-13.6174
宅曲阜始兼龍旂之貴况道狹慶隆身薄	-13.6174
安邦利民者事事如右率以聞見謹簡聖	-13.6174
寒田家豈不苦弗獲辭此難四體誠乃疲	-13.6174
履璧之禎獲珪之應著在紀歲仁浸汙河	-13.6174
崖月出照園中冠珮相追隨客從南楚來	-13.6174
已同處危非所恤常慕先	-13.6174
府於是致僚屬作文移從事司察一如舊	-13.6174
廣樂之響燈燼空舉焉續	-13.6174
延故老揮觴道平素問金終寄心清言曉	-13.6174
引昏鴉接翅歸金粟裹搔頭等	-13.6174
張韓遇寗戚扣角歌桓公遭乃舉荀息冒	-13.6174
彭城劉遺民亦遁迹匡山淵明又不應	-13.6174
彼狂使康公能如魏顆不用亂命則豈至	-13.6174
徽容髣髴金石者謹詳牒行狀具以申言	-13.6174
恩命重渥華蕃踐寵懋甸永言政惠良攪	-13.6174
悟放意樂餘年遑恤身後慮誰云其人亡	-13.6174
情所託所託已殷勤祗足攪	-13.6174
情無餘滓拂衣釋塵務求仁	-13.6174
惠頒上笏恩渥浹下筵幸侍觀洛後豈慕	-13.6174
憂之相接欷美人於心底願山與川之可	-13.6174
我吹參差淵魚猶伏浦聽者未云	-13.6174
房陵薄暮心動昧旦神興别艶姬與美女	-13.6174
抱持棺柩遂俱沈溺衆傷其義鉤求得之	-13.6174
掌大笑曰我嫌是老奴果如所疑何遜	-13.6174
握手畢黯如光絶天安得明月珠擥涕寄	-13.6174
擢翼驤首自致丹梯爰乃恭承嘉	-13.6174
敢因斯義乃作銘曰遼水之東	-13.6174
於不義如此哉東坡和陶亦云顧命有治	-13.6174
昊英氏有巢氏朱襄氏葛天氏陰康氏無	-13.6174
星之耀何則卓乎小者不足以任	-13.6174
春三月雙白鶴飛集上林園大將鄭偉	-13.6174
曰𢎞農湖縣有軒轅黄帝登仙處	-13.6174
更始將北都洛陽以光武行司𨽻校尉	-13.6174
期知音事而命篇曰怨詩楚調庸非度調	-13.6174
東南嶠外爰有九石之山乃紅	-13.6174
果得金丹道憂傷永不至光顔如碧草若	-13.6174
柳子厚云疾病命固亂魏氏言有章從邪	-13.6174
桂枝生自直橘柚在南國因君	-13.6174
樹寒條更直山枯菊轉芳	-13.6174
樹崦嵫之泉西海之草炎州之烟銀臺之	-13.6174
歌非吾事依依在耦耕投冠旋舊墟不	-13.6174
武不定功出内帷閫升降貂綬或振迹領	-13.6174
武彈坐亦悉復職主局依舊施散薄紓此	-13.6174
死非其所矣然君命之於前衆驅之於後	-13.6174
民生在勤勤則不匱宴安自逸歲暮	-13.6174
氣浩然蔑彼結駟甘此灌園張生一仕	-13.6174
沉猜則方逞其欲藏疾則自矜於	-13.6174
注曰雁自河北渡江南瘦瘠能	-13.6174
流繞㟁清川平看鳥逺	-13.6174
流遷遂成風俗所以鐵工比肩而銅工稍	-13.6174
淺識罕謂斯言可保日月遂往機巧好踈	-13.6174
滌漢道澤優衍猶不道封禪遐靈在天餘	-13.6174
漉畢還復著之時周續之入廬山事釋	-13.6174
漙	-13.6174
澒	-13.6174
炊而自沸不舁而自藏不遷而自行九鼎	-13.6174
無儲粟乃知俗傳信而有證使	-13.6174
然諾處富不忘貧有道在葵藿劉文學感	-13.6174
瑞布濩區中梯山棧火之俗欵徼請吏跨	-13.6174
生青苔行行詎半景余馬以長	-13.6174
皇眷囂黷一盈慙厲彌積談天之辨不能	-13.6174
皛皛川上平懷役不遑寐中宵尚孤征	-13.6174
省闥皆倐忽晷景頻煩升荷雖咸罄愚識	-13.6174
石室素女張烟霧於海際耀光景於河渚	-13.6174
石蓮客子思兮心斷絶心斷絶兮愁無閑	-13.6174
禳	-13.6174
秦聲楚音楚奏聞歌更泣見悲已疚實由	-13.6174
秸	-13.6174
結黙慕交深不悟睿孝動天昭性曠古惠	-13.6174
絶世如短如長不穠不細信耳	-13.6174
罌	-13.6174
翼翼歸鳥晨去于林逺之八表近	-13.6174
而守妻子其可得哉故國史小官也而子	-13.6174
聲亦復歡然有喜常言五六月中北	-13.6174
肅對王休敬昭異寵佩服盛文以慨以懼	-13.6174
肅肅廣殿隂雀聲愁北林衆	-13.6174
能銜杯酒者乎忽忽若狂願足下自愛也	-13.6174
臨洮身長三丈足跡六尺	-13.6174
臨華池神飈自逺至左右芙蓉披	-13.6174
自頃田邑榛故封井萊蕪財賦方屈犴獄	-13.6174
與雷電亦有曲帳畫屏素女綵扇錦色窈	-13.6174
英華殂落僕亦何人以堪	-13.6174
英賦有凌雲之稱辨有雕龍之聲詎	-13.6174
莖鸛鷁在幽草客子淚已零去	-13.6174
莤	-13.6174
衆官咸事帝謨所以式序	-13.6174
行旅不通昆為政三年仁風大行虎	-13.6174
褰裳摘明珠徙倚拾蕙若眷我二三子辭	-13.6174
言之也按蘇劉皆不和豈畏死耶	-13.6174
言近仰跼威靈辭移理奪故欲	-13.6174
記曰宜都狼山縣有山山下有穴大數	-13.6174
詩書敦宿好林園無俗情如何捨此去	-13.6174
誥爰斷辭表驚慄遲	-13.6174
讓王猷所以載穆况臣訪	-13.6174
豈非深懼鴻典永憂末躬故琴瑟徒鳴不	-13.6174
軍震懼憲親自督勵衆心	-13.6174
轙	-13.6174
迭興十代繼運非賢非睿莫預斯位若乃	-13.6174
鄩	-13.6174
酒細酌對春風未能扶畢卓	-13.6174
酳	-13.6174
野皆咫尺八極鏡見四荒雲烟始出日月	-13.6174
鉟	-13.6174
鍱	-13.6174
鍾子之徒雖遭無常之聲則頴然獨見矣	-13.6174
陵原地迥松路風悲銘於碣石勒以	-13.6174
陸逞神道碑公諱逞字季明	-13.6174
隂北邊永夜不曉平蕪際海千里飛鳥何	-13.6174
雲圖氣學靈狀仙寳波麗水華	-13.6174
願聖渥遐覃賜以矜宥霈焉垂仁穆然惠	-13.6174
馬出城濠北望沙漠路千里何蕭條白日	-13.6174
髙祖王業漸隆不復肯仕元嘉四年將復	-13.6174
魂泣江郊心泫京國不任悲仰哽慰之情	-13.6174
􁇻	-13.6174
􁢾	-13.6174
􁥧	-13.6174
晉衛恒書勢黄帝之史沮誦	-13.6175
央氏巻須氏栗陸氏驪連氏赫胥氏尊盧	-13.6175
加以㝠心資敬篤信天倫	-13.6175
欲東渡烏江烏江亭長檥船待	-13.6175
青布及是皆用為袍采色尚青	-13.6175
善人終日善大道忽云乖生民隨事蹇	-13.6176
水之激也實濁其源木之蠧也將拔其根	-13.6176
之服乃更為椎髻著布衣操作而	-13.6176
曰吕氏春秋得五員者號執珪古	-13.6176
之非分常傲然以稱情世流浪而遂徂物	-13.6176
以相形宻網裁而魚駭宏羅制而鳥驚彼	-13.6176
冕有自來矣皇宋靈武誕命	-13.6176
山一何高高高上無極上有兩	-13.6176
延佇猶比之無色方之非侣於是彫臺繡	-13.6176
愛秋草想亦君之所聞也重以先帝靈	-13.6176
河曲寂然淵視憂心辭矣獨念賢明蚤	-13.6176
渠央山海經云不死民在交脛國東其人	-13.6176
燕市酒酣以往高漸離	-13.6176
瑞師事仙人盧子基於隆慮	-13.6176
瘠子羸孫虛恭實怨王人忽降大賚先臨	-13.6176
石瓊文而翕赩山龍鱗而炤爛苔緑根而	-13.6176
粲無西海之浩蕩見若木之千	-13.6176
袁常侍昔我别楚水秋月麗秋天今君客	-13.6176
起而清溢女乃耀邯鄲之麗	-13.6176
迫名茂才冬盡不獲有報引領	-13.6176
集草紅葩而舒散日炫晃以朧光樹葳	-13.6176
風俗既殊阻山河不復論無因旅	-13.6176
斯改期運永終欽若唐	-13.6177
人合貧賤親戚離因而泣下	-13.6177
况復一枝踡曲終危九層之臺	-13.6177
至徙所經嵗還都浩送至渚側	-13.6177
扉之右曵纓轉笏居青璅之前訪	-13.6178
於姑射聞道於崆峒伊臣之願過	-13.6178
昔望都才麗爵乏上班長岑聞靡身終下	-13.6178
庶重承廟算方事申威揜	-13.6178
西織室織作文繡郊廟之服有令	-13.6178
别庾七入蜀峻嶺拂陽烏	-13.6178
樞别席慘無言離悲兩相顧君登蘇武橋	-13.6178
十一年韓伐鄭取陽城二十一年韓哀侯	-13.6178
家以邊鄙心揺須固備守大司馬齊國公	-13.6178
文公造長安宫面四百里南至終南山山	-13.6178
有情何可豁忘懐固難遣麟窮季氏罝	-13.6178
河渭間人情離阻刺史李弼令儉權鎮渭	-13.6178
漢左太沖詠史詩曰金張藉舊業	-13.6178
甎	-13.6178
夫人以公羸瘠悲泣相守胸氣交衝	-13.6178
平王愛角哀之賢以上卿禮	-13.6178
治惟急彌不可曠侍中太子詹事戢業履	-13.6178
淹神正殿斟酌信義左右律禮瑩彼皇維	-13.6178
賦艶歌陳詩非獨瑞草爰兼上藥味靈丹	-13.6178
金匱藥方一百巻肘後要急	-13.6178
長於災變分六十四卦更直日	-13.6178
闥美譽咸聞必能無懈于位爕兹流序王	-13.6178
陳軫見昭陽曰願聞楚國之法破軍	-13.6178
丈齊雲度三分近花飛一倍低吹簫迎白	-13.6178
上以拒漢兵彭數攻之不	-13.6178
二萬人騎數百渡白馬津索	-13.6178
公資忠履孝蘊義懐仁直	-13.6178
剟	-13.6178
士四尺樹以槐庶人無墳樹以	-13.6178
夭厲弗戒薨於所居春秋六十有九	-13.6178
悲鳴音聲感人宋人哀之遂號其	-13.6178
慈哀悼禮同成人加以號諡者宜稱上恩	-13.6178
慗	-13.6178
承華内綢繆踰歲年日暮聊	-13.6178
書光武帝曰娶妻當得隂麗華	-13.6178
沙汭夜聞猩猩啼朝見鼯	-13.6178
程嬰之匿趙武從役家臣	-13.6178
能和惟友惟孝行止中閨可象可傚我聞	-13.6178
薨無後同産昆弟即景武昭明四帝是也	-13.6178
託身淄右涖政淮東秦亭西逼	-13.6178
逝南中氣候暖朱華凌白雪幸遊建	-13.6178
長視延壽乃諸父行序云余於長沙公	-13.6178
音問蘇氏悔恨自傷因織錦	-13.6178
䬀	-13.6178
䬟	-13.6178
且泛桂水潮映月遊海澨攝生貴處順將	-13.6178
之節莫不中道若性不嚴而成故譽滿闈	-13.6178
入橘浦兮容與心敞惘兮迷所識視煙霞	-13.6178
和墓誌銘公諱顯和字某上黨武鄉人也	-13.6178
實雨日隂陽之氣信可觀也又憶昔登鑪	-13.6178
對其苫寢則梓樹寒生	-13.6178
彤管女圖之學纂組綺縞之工升降	-13.6178
意拾瑶草而悠然遂乃凝	-13.6178
揀	-13.6178
擁腫之異木卒成踴躍之妖金所謂孽由	-13.6178
晉史書德者亦云實而巳焉伏見國太妃	-13.6178
本姓名其主字之曰木骨閭木	-13.6178
極桂之生兮山之巒紛可愛兮柯團團谿	-13.6178
河淇之名謳薦西海之異品傾東岳之庶	-13.6178
湯官五熟海椒魯豉河鹽蜀薑劑水火而	-13.6178
炎土之流人共魍魎而相偶與蠨蛸而	-13.6178
皆敬宗之義也如年譜以族祖族孫	-13.6178
綏山一桃雖不得仙亦足	-13.6178
聲聞軒殿以元嘉某年歸	-13.6178
赤文抽精膽報慈光而自	-13.6178
遇雲頡頏相鳴而歸遐路誠悠性愛無遺	-13.6178
野所出衡曲黄梨汶垂蒼栗隴西白	-13.6178
雖無昔侣衆聲毎諧日夕氣清悠然其懷	-13.6178
雲露之中氣凝采齠歲賁章	-13.6178
風莫不下協河岳上踵光緯先王所以長	-13.6178
颼	-13.6178
㩻	-13.6178
一端金色之㲲奉上如來佛令	-13.6178
三府二州綱紀夫寳農賤貨綵炤周縢廵	-13.6178
不充給故以鐵足之鑄銅	-13.6178
不悟天澤沛然謬垂提拔當今玉燭調和	-13.6178
不謂過延渥洽謬攀河漢榮宗蒀葐寵華	-13.6178
中軍之司既舉魏絳上卿之佐實用荀林	-13.6178
乃瞻衡宇載欣載奔僮僕	-13.6178
之器藩輔交辟遭時不競將以振復宗國	-13.6178
乖律北州外淪威風内	-13.6178
人與年夫子相遇即以為賢性靈造化風	-13.6178
人莊舄仕楚執珪有頃	-13.6178
以防外兵之入焉以此推之明知春秋迄	-13.6178
企軌騰藻上京振彩	-13.6178
但願長如此躬耕非所歎	-13.6178
何功當處斯忝伏願道邈先帝理鏡衆寂	-13.6178
余多師趙泉山曰此篇述其艱食之悰尤	-13.6178
使者持大將軍印即軍中拜青	-13.6178
兄弟公侯國朝親戚宜春有湯沐之盛	-13.6178
光賖日諒以具察輿歌取鏡民誚不悟皇	-13.6178
入朱宫之玲瓏臨曲江之廻盪望南山之	-13.6178
兮何期終蕪絶兮異域至乃	-13.6178
兮秋風驚秋風罷兮春草生綺羅畢兮池	-13.6178
兮芝田紫蒲兮光水紅荷兮艶泉香枝兮	-13.6178
其三仲春遘時雨始雷發東隅衆蟄各	-13.6178
冀君見果顧郊間光景佳	-13.6178
前珠貝性明潤蘭玉好芳堅不以宿昔岨	-13.6178
劒逢君在三川何意風雨激一訣異東西	-13.6178
包函夏庶惣文軌無思不服而逖焉狡虜	-13.6178
化去終天不復形遲遲將	-13.6178
十二首耳皆晉安帝時所作也淵明以乙	-13.6178
十年甲寅以詩語證之序	-13.6178
千年蘭雲衣不躑躅龍駕何時還隂長生	-13.6178
却掃塞門不仕左對孺人	-13.6178
吕良曰枿斬去木梢也	-13.6178
和李司録喜雨純陽實	-13.6178
員外常侍路上比肩諮	-13.6178
嗟乎斯才也斯命也天之報	-13.6178
噉園葵則五鼎方丈吾何欲焉大歡止於	-13.6178
因事順心命篇曰歸去來兮乙巳	-13.6178
因兹大號蕩其巢藪可遣	-13.6178
堂何時復踐藐藐孤女曷依曷	-13.6178
墜心遷客海上流戍隴隂此人但聞悲風	-13.6178
夏彩於沙汀逺亘紫林祕埜近匝玉苑禁	-13.6178
奉勑賜玉環刀等五種珍	-13.6178
如此或置酒而招之造飲輒盡期在必醉	-13.6178
妙辨析毫釐既待問	-13.6178
始東山擅麗終西都雲精無永滯水碧豈	-13.6178
官曹凜然是謂鮑恢都官百城	-13.6178
定中原肅清河洛便可内外纂嚴以時備	-13.6178
宰弱冠升朝者亦太妃劬勞之訓也謂天	-13.6178
宿草旅前庭階除曠遊	-13.6178
小進更使勤習敬閱籕篆側觀硯功張衛	-13.6178
山之丘墟北風㭊兮絳花落流水散兮翠	-13.6178
川千畝竹此其人與千户侯等	-13.6178
巢剖胎豹腹三臠甘口七	-13.6178
弄其紙筆懼失諸兄之意	-13.6178
弱何以任忝伏惟淮泗猶梗趙魏未賔中	-13.6178
後漢亷范傳范京兆杜陵人父遭	-13.6178
心恨精影之不滯悼光晷之難惜	-13.6178
悀	-13.6178
愎	-13.6178
意長日月促則倒轉陶句耳歸園田居	-13.6178
愛氣馥拾蘂憐色滋色滋畏沃若人事亦	-13.6178
感而動聲從變而發心有盛衰聲亦降殺	-13.6178
憂與憂兮不忘使杜蘅可翦而棄夫何貴	-13.6178
懅生死於半氣惜百年於一光故以鑄金	-13.6178
摣	-13.6178
故銅兵轉少鐵兵轉多年甚一年歲甚一	-13.6178
敬通見抵罷歸田里閉	-13.6178
數齡雙位委空館朝夕無哭聲流塵集虚	-13.6178
昆陽之戰象走林常山之陣蛇	-13.6178
明悠然見南山方在籬間把菊時安知其	-13.6178
映藉聲探議共知其幸况	-13.6178
晨張秋日蕭索浮雲無光鬱青霞之竒意	-13.6178
暮秋羅與綺兮嬌上春驚駟馬之素沬	-13.6178
曰明公但不得酒中趣爾又問	-13.6178
曰黔婁有言不戚戚於貧賤不汲汲於	-13.6178
書時停鴻冊則人歌僉平物抱至歡	-13.6178
月將欲暮如何辛苦悲常善粥者心深恨	-13.6178
有文朝采方藹頻煩金紐左右緹	-13.6178
有福負者終年疾病取絲	-13.6178
樂徒登歌舞臺終成螻蟻郭	-13.6178
歌而編次本集者不悟乃題云擬挽歌辭	-13.6178
死於汀潭哀時命而自愜應謝主簿騷體	-13.6178
氣順方涵生獲慶特輟	-13.6178
永砥學玩仰結聖造伏銘私荷不任下情	-13.6178
渭南千畝之竹尚懼盈滿	-13.6178
澤畔方將杖挐而引其	-13.6178
濟河翦彼凶狄咸秩中岳望祀汾隂則聲	-13.6178
濡屬我嵫景半賞爾若光	-13.6178
炎帝之少女名曰女娃游于東海溺而不	-13.6178
燈夜和殷長史冬盡綵葉暮金石亦	-13.6178
燿開霞地煦景曖山艶水波側聞	-13.6178
物不逃形臣何恨焉不勝燋憂狼狽之至	-13.6178
珮委他榮鬱閶闔寵重山河皇	-13.6178
生碧草沅湘含翠烟鑠鑠	-13.6178
用儒術對酒設樂必雅歌投壺	-13.6178
病兮秋蘭石簁簁兮蔽	-13.6178
白日殊甚之禮墜於青雲祗畏驗盛若奪	-13.6178
百代事無不異况迺金鐵國之利器風胡	-13.6178
盥濯息簷下斗酒散襟顔	-13.6178
眺同天色思絶慶未看徒使生迷惑	-13.6178
礬	-13.6178
禮絶羣公仁義所往事資道徳建徳元年	-13.6178
秦時攻爭紛亂兵革互興銅	-13.6178
簫管之聲則思畜聚之臣	-13.6178
紫石之靈根永逺書於江澨結深痛於爾	-13.6178
終上公磻溪翼周名極列伯臣才非若人	-13.6178
罕人逺是以植杖翁悠然不復返即理愧	-13.6178
罕今兹厲疾罹患者多納隍之	-13.6178
翰能素謝篇伎空賁恩輝徒隆慈飾方停	-13.6178
老杜佳句最多尤不自知也如是則撞破	-13.6178
耘遼遼沮溺耦耕自欣入鳥不駭雜獸斯	-13.6178
聖㫖懸嚴便賜斷表神乖意失音影何地	-13.6178
膠學蔽理臣之所知獨有麗色之	-13.6178
臣聞禮云大夫七十致仕於朝傳家於子	-13.6178
臣言奉勑賜石硯及法書五	-13.6178
至凝亭物帷幄復使承官楚封祗	-13.6178
與而詎前馬寒鳴而不息掩金觴而誰御	-13.6178
英無輟代上朝豈惜鏡中明但見一葉落	-13.6178
荆州之内寢凡厥逺邇以哀以	-13.6178
荆州諸軍事祜與陸抗相對使命交通	-13.6178
葉翡累兮翠疊非郢路之遼逺	-13.6178
葰	-13.6178
蕪神州方翳思樂盛猷願厲聲頌	-13.6178
藻瑞益於姬帝紫雲垂	-13.6178
蘭橑停冬霰青林結冥	-13.6178
蘭與秋若願不絶於江邊愛逺山伯鸞兮	-13.6178
蜡臘祭名伊耆氏始	-13.6178
見之與之蘭而御之辭曰妾不才幸而	-13.6178
覿赤鱗庖所捐白雲亦海外葐蒀起三山	-13.6178
諸將問所得財物惟忠獨無	-13.6178
謙子曠與訦子𢎞度等	-13.6178
谷風誚輕薄共秉延州信無慙仲	-13.6178
賛禁錡或騰光江甸任鈞屏翼河兖衝要	-13.6178
贐	-13.6178
踟蹰企余重蘭貝清才富金瑜獨	-13.6178
踰外品青軒華轂用光國	-13.6178
速紺耦道先列辟事均暫勞迹在永豫可	-13.6178
逸氣寂寥奥學内溢深文外昭嘉采籍譽	-13.6178
逺規唐虞永揖之典近謩漢魏	-13.6178
金殿側微臣固受賜鴻恩良未測王侍中	-13.6178
鐘鼓或愁辛栁惠善直道孫登庶知人	-13.6178
閣因此而神瓊都由兹而麗故	-13.6178
降年不永以太豫元年二月三日薨	-13.6178
陸離紺影上謐謐而留間下微微而停靖	-13.6178
雄陶方回續牙伯陽東不訾	-13.6178
離楊公所歎豈惟常悲吾抱疾多年不復	-13.6178
雲璧質人不見瓊光俗詎聞願使洛靈往	-13.6178
青衫乃召巫史兹憂何止史曰臣野	-13.6178
青鳥海上遊鸒斯蒿下飛	-13.6178
非馥而珍跨仙草寳踰靈木夾池水而檀	-13.6178
飄飄而吹衣問征夫以前路恨晨光之熹	-13.6178
養志數人並未徴采善操	-13.6178
鬯矣猶以經綸惟始恩化甫洽勞民擾衆	-13.6178
魂且謐卧堂怨已生承君客江潭先愁鴻	-13.6178
鮓	-13.6178
鱗不能起水鳥望川梁客子	-13.6178
鶊	-13.6178
龔行薄伐問罪河陽以公為行軍長史	-13.6178
𢎞農山中學者隨之所居成市後華隂山	-13.6178
􁏜	-13.6178
􁖐	-13.6178
􁱈	-13.6178
是夜遺燼燒太極殿及東西堂延閣	-13.6178
周儀同松滋公夫人尉遲氏	-13.6178
出蒼者飛翔冲天白者止焉	-13.6178
谷服飛龍藥一丸千年不	-13.6178
蒲州刺史中山公許乞酒一車未送	-13.6179
女之娯八珍九鼎之食結駟連騎之榮侈	-13.6179
亘虹梁之峻宻錦幔垂而杳寂桂	-13.6179
以塡滄海刑天舞干戚猛志故常在同物	-13.6179
兮半出雲雜錯兮飛上石炤爛兮各色	-13.6179
其一有生必有死早終非命促昨暮同	-13.6179
其天真者淵明一生惟在彭澤八十餘日	-13.6179
天下絶倫黯與秋草同折今不復見	-13.6179
學備聞士大夫言曰在國忠處家孝取與	-13.6179
憂不薄瑶色行應罷紅芳幾	-13.6179
抏草騫葉而蕭瑟故左﨑嶬右硱磳樹嵓	-13.6179
新聲逐絃轉應得動春心	-13.6179
望在川陽平原忽超逺參差見南湘何如	-13.6179
為君能歌此曲不覺心隨斷	-13.6179
烏江艤檝知無路可歸白雁抱書定無家	-13.6179
無所須惟酒與長年山海經云三青鳥主	-13.6179
瑟無從雖乏張范通靈之感	-13.6179
竟不免衣食之敗何則性有所短不可韋	-13.6179
終天無報叩地難任欲草土丘陵	-13.6179
聞琴瑟之空音理洞徹於俗	-13.6179
茹號情膽載絶臣荒昧神氣爰自	-13.6179
蕭梢而可哀草林離而欲暮夜燈光之寥	-13.6179
論其繼世之功則狄城有廟	-13.6179
酥	-13.6179
二月辛酉遣皇太子斌巡撫西	-13.618
及即位集公卿以下有文學者八十餘	-13.618
帝遜位於陳陳受命奉帝為江隂王	-13.618
弋宫生昭帝任身十四月	-13.618
梁元帝嗣位於江陵外敦鄰睦内	-13.618
獻膠五兩者弓弦斷以口濡	-13.618
䄡	-13.618
君子避三端文士筆端勇士鋒端	-13.618
息紫臺稍逺闗山無極	-13.618
漢外戚傳上官桀少時為羽林期門	-13.618
純以七寳徧滿布地奉施如來	-13.618
先生笑而言曰中國明於禮義	-13.6181
骼	-13.6181
史記平原君傳趙郝曰此彈丸之地	-13.6181
冬狩行四韻連句應詔三川羽檄馳	-13.6181
官歸鄉居白沙里鄉人宗敬之相語	-13.6181
春秋漢含孳曰三公象五岳在天法三	-13.6181
南睢之骨立衛武之初筵	-13.6181
襠	-13.6181
兵收三河士韋昭曰河東河南河内也	-13.6181
玘	-13.6181
傳首於帝京郿塢元兇	-13.6181
生也桓公使卜楚丘之父卜之	-13.6181
登牛頭而埽天闕漸臺偽帥	-13.6181
其故何也含徳之至莫踰於道親	-13.6181
南北流寓之士各許還其本國	-13.6181
幸無謝上古之淳人庶可以封之	-13.6181
般城南有蒲臺高八十尺	-13.6181
乃為銘曰華陽之神厲山之祖	-13.6181
云瑞節信也典瑞若今符璽	-13.6181
止其屋為作鳳臺夫婦止其	-13.6181
正苦荆將軍冢相近今月十	-13.6181
諒以不夷求物校迹誓無此義且古今異	-13.6181
陪遊愧並作空見奉恩深奉和初秋	-13.6181
其平吳勲一沈萬山下一沈峴	-13.6181
凝華重馥良在關西之彦近以闡耀	-13.6181
在州遘疾解任還朝小馬留廐	-13.6181
大蒐於岐山之陽岐山在扶風美	-13.6181
惟崩號興言泣血尋念平昔觸事未逺書	-13.6181
為人仁而下士士無賢不肖皆	-13.6181
田家足閒暇士友暫流連三春竹葉酒	-13.6181
索居乖隔楚越伊我與爾百哀是切黯黯	-13.6181
罰迹去繁奓情歸素一軒靡龍刻楹無丹	-13.6181
而金精氣壯師出有名石鼓聲髙兵交可	-13.6181
臣某言以鉉司崇貴衮位淵嚴非	-13.6181
至吕梁又大破齊軍八年進位司空給	-13.6181
蹈彼蒼何偏而不斯報昔在江陵重罹天	-13.6181
陽入朝輿駕幸其第賜鐘磬一部七	-13.6181
隴右貴臣河西鼎族公侯踵武	-13.6181
非長沙矣先生詩云伊余云遘在長忘同	-13.6181
上手接白雲今行九石下親弄	-13.6181
丹淵山差池而鏡壑水清明而抱天山含	-13.6181
人身牛首長於姜水有聖	-13.6181
以為神物於是以金為樊置於宫	-13.6181
兮炳爍永含靈於洲渚長不絶兮川壑丹	-13.6181
區荆湘奥壤自頃凋弊綏撫須賢侍中光	-13.6181
善待問者如撞鐘扣之以	-13.6181
奔問行在無其人聞疇竒士乃署	-13.6181
姹	-13.6181
帝曰俞往三讓然後受命公	-13.6181
懸溜曖曖荒林晨採上藥夕	-13.6181
於河州苑川郡之禁山公六郡良家	-13.6181
柔參晉政拒曹爽之異謀	-13.6181
漢有高廟令田千秋亦為丞相	-13.6181
爰感竒心絶粒委務考槃山	-13.6181
禹穴身名竟誰辨圖史終	-13.6181
翠媯大盧魚折漝而至汎白圖蘭采朱	-13.6181
色和而正温甚重之九月九日温游龍山	-13.6181
色秋帳含兹明月光夏簟青兮晝不暮冬	-13.6181
若臨時所施則不列傳紀臣愚以為諸在	-13.6181
軍荆州刺史表茂寵廼臨炫奪	-13.6181
門下官人之職實難其選所以弼諧	-13.6181
㘿	-13.6181
㟪	-13.6181
䆠	-13.6181
䖍禮青軒謹躬丹墀憂符怵	-13.6181
䴵	-13.6181
䵑	-13.6181
一定之論女有不易之行信而見疑貞而	-13.6181
一聞清琴奏歔泣方留連况乃客子念直	-13.6181
三白虎出入人間送喪踰境百	-13.6181
丹秀兮葐蒀深林寂以窈窈上猨狖之所	-13.6181
之東此皆金輿之所出入瑶輦之所周通	-13.6181
之機者也臣本瑣姿不慕聞	-13.6181
之竹兮百尺而不見日石硿礲而成象山	-13.6181
之陽樊温原攅茅之田晉於是始啟南陽	-13.6181
乏素能或所不任况在憂年必取黜辱特	-13.6181
亦無從考見惟命子詩曰於皇仁考淡焉	-13.6181
人密令冬月種𤓰於驪	-13.6181
人殊未來露彩方泛艶月華始徘徊寳書	-13.6181
以不恤色忤頻犯鴻威者正以方圓之景	-13.6181
以尋壑亦﨑嶇而經丘木欣欣以向榮泉	-13.6181
以遺風獨扇百代餘烈激厲後生斯乃王	-13.6181
以長分美惡作以異途原百行之攸貴莫	-13.6181
佇立容易光隂度水館次	-13.6181
作悲歌言人命如薤上露易晞滅至李延	-13.6181
倡樓驚别怨征客動愁心	-13.6181
元年八月武陵王紀引兵東下二年五月	-13.6181
光正神縣揆日粲書史相都麗聞見列漢	-13.6181
八嵗能賦詩初為晉安王國常侍	-13.6181
八年以春以秋且思且顧竟不能抑	-13.6181
公子曰洙泗遺文鄒魯餘烈其道未	-13.6181
公瞋目拂手而言曰何子	-13.6181
其始見也若紅蓮映池其少進也如綵雲	-13.6181
其詳不可得而審也且荆軻刺秦王之日	-13.6181
出宅邊菊叢中坐乆之滿手把菊忽值	-13.6181
制度日衰富貴之家猶或厚	-13.6181
匡臨朝闡命遏昬立綱事緜毗漢義締翼	-13.6181
匪務傍職坐而爕道必在其人若臣武未	-13.6181
十一月也歸去來兮田園將蕪胡不歸	-13.6181
升十升為斗十斗為斛而五量	-13.6181
升寵章管兼樞祕張令	-13.6181
升降之際可明故皇極不爽國	-13.6181
卧疾怨别劉長史四時煎日夜玉露催紫	-13.6181
厲翼蛟魚亦曝鰓崩壁迭枕卧	-13.6181
右信艱哉萬壑共馳騖百谷爭往來鷹隼	-13.6181
名山兮不返逮紺草之可結及朱華之未	-13.6181
呪	-13.6181
哀有白鳩巢户側𢎞舉	-13.6181
嘉月蕙時膺曜宸正翠珩炤品	-13.6181
四則性甚畏動事絶不行五則愚婞妄發	-13.6181
回昏亂雖大而輕及周顯王三十二年姬	-13.6181
圖牒帝系即有内外之親分	-13.6181
大發徒出之而不能得焉後漢武帝	-13.6181
大衰乃淪入泗水秦始皇之初見	-13.6181
天四友之人親受音㫖發斯談者將非窮	-13.6181
太和之中曹真於府内受冊	-13.6181
太常領國子祭酒詔門下庠議	-13.6181
夫人容範端莊儀型淑令六義觀德南	-13.6181
失情不依世其色能温其言則厲樂勝朋	-13.6181
始安郡經過潯陽日造淵明飲焉	-13.6181
姓追美甘棠以永元十	-13.6181
威神道碑公諱威字某河南洛陽人也	-13.6181
威飾以崇望實可加兵二百	-13.6181
子為寡人作之荀息正顔色定	-13.6181
孟冬郊祀月殺氣起嚴霜戎馬粟不	-13.6181
學天網時踈眷言哲友振褐偕徂	-13.6181
宇宙惠雲羅更四陳哲人貴識義大雅明	-13.6181
守仙閉方智寂術盡魄兀心亡白生不能	-13.6181
安字大羅河南洛陽人也祖某京兆康王	-13.6181
官某舟師五萬直出淮淝某官控江右之	-13.6181
寂寞雄劒頓無光雜佩亦銷爍秋至明月	-13.6181
寒暑有往來功名安可留擾擾當途子	-13.6181
寢郎上急變訟太子寃	-13.6181
尚父一遇周王是親赤雀既下	-13.6181
山慚寳謹襲緹素以充握睇垂光	-13.6181
崖輒歸匪驕匪吝前路威夷鄭叟不合垂	-13.6181
嶬	-13.6181
年竊悲杜蘅暮擥涕弔空山落葉下楚水	-13.6181
廊桃燕水好傷身春哀散粲輕神麟	-13.6181
弄以寄其意貴賤造之者有酒	-13.6181
形役奚惆悵而獨悲悟巳	-13.6181
影川汪汪而藏聲望軒	-13.6181
徒知守瓴甓空欲報璠璵	-13.6181
忞	-13.6181
怨天離憂悽目前吁嗟身後名於我若浮	-13.6181
悶悲思聞蜀郡成都司馬相如天下工	-13.6181
惟禎國慶方夷則繩澤式茂故五	-13.6181
愚民必不得乆居公侯宅然則果無宅也	-13.6181
感春秋之欲暮征夫輟而在	-13.6181
愰	-13.6181
慙屬兼軫不任屏營之情	-13.6181
成周之衆奉辭伐罪無不克矣	-13.6181
戾文章徒單迄無蠲省而天威咫尺丹	-13.6181
房北戸竹下圍碁勝者	-13.6181
所從神且武焉得久勞師	-13.6181
所有資産皆無私焉居家嚴肅	-13.6181
所汝慎無言師曠歸未及三年告死者至	-13.6181
手段豈能有得耶蔡寛夫曰俗本多以見	-13.6181
採試以緩愁年參差萬葉下泛漾百流前	-13.6181
攀柏悲號涕泣著樹樹為之枯	-13.6181
敷端揆升授之宜蓋允具瞻可左僕射王	-13.6181
斜趣潁洛衝其要津某官某虎旅八萬舳	-13.6181
於衛闕鑾輅旗旂方幸於臣府悵然遥慮	-13.6181
於長安之洪瀆原妻青州石氏長城郡君	-13.6181
既沗衡流應須粉墨	-13.6181
日曖圓松還結生不念楚客獨無容秋至	-13.6181
映秋山羽衞藹流景綵吹震	-13.6181
春及將有事於西疇或命巾車或棹孤舟	-13.6181
春秋二十有八與余有青雲之交非直銜	-13.6181
昭襄王時有一白虎常從羣虎數遊秦蜀	-13.6181
景與意㑹故可喜也敬齋曰前輩有佳句	-13.6181
曰漢舊儀云銀印背龜紐其文曰	-13.6181
曲流而南有障山東帶鈔	-13.6181
書右僕射領吏部尚書南昌縣開國公儉	-13.6181
有儔飲河既足自外皆休緬	-13.6181
有知相見蒿里嗚呼哀哉祭從弟敬逺文	-13.6181
有薊縣方城縣廣陽縣隂	-13.6181
木骨閭與郁久閭聲相近故後	-13.6181
杳與廬霍絶碧障長周流金潭恒澄	-13.6181
枯槁中實敷腴真詩人之冠冕也平生酷	-13.6181
校經中有云刑天獸名也口中好	-13.6181
栢寢呉臺柘館複道耿介而連雲阿閣穹	-13.6181
棲山之夫迹絶雲氣意負青天皆待絳螭	-13.6181
欲以長自居故詩稱於穆令族序稱於余	-13.6181
欵然良對忽成舊游俗諺云數面成親舊	-13.6181
步值泉仍飲馬逢花即舉杯稍看城闕逺	-13.6181
歸儒素散騎常侍中書令驍騎	-13.6181
歸四勝也奉天子而伐逆叛五勝也攸之	-13.6181
死乎吾所以生也刈蘭而卒	-13.6181
殊命寳典鬱降雲天采詔	-13.6181
氣隂不極日色半虧天酒至情蕭瑟	-13.6181
汀潭挹於陵之操想漢隂之	-13.6181
池志轢柏舉裂禮紊度	-13.6181
沙城疑海氣石岸似江樓	-13.6181
洎十葉而克茂友人之生川岫降明峻調	-13.6181
津吏醉不能渡將殺之津吏	-13.6181
洵	-13.6181
洽臣忝任蕃圉無由隨例闕廷不勝荒情	-13.6181
淦	-13.6181
淵辨詩測京國履籍鑒都	-13.6181
清夜何湛湛孤燭映蘭幕撫影愴無從惟	-13.6181
渭各流異恩情於此分故人贈寳劒鏤以	-13.6181
湯而誰告魄寂寂而何語情枯槁而不反	-13.6181
濟國險淮泗邦塵要藩重設匪賢則親亦	-13.6181
瀁安是非朝雲乗變化光耀	-13.6181
灕	-13.6181
炎漢籙故能業滋都野産殷絃縣吾任屬	-13.6181
為倡家女今為蕩子婦蕩子行不歸空牀	-13.6181
烏始照宫槐遽而欲舒顧	-13.6181
無可言矣材不肖文質無所直徒以結	-13.6181
燭未調祥風尚鬱京輔及	-13.6181
猥降飾軼采朱跨影懸	-13.6181
猨兮聒山大林兮蔽天楓岫兮筠嶺蘭畹	-13.6181
玅	-13.6181
玉池津處順故無累養	-13.6181
班嗣才學為班彪見賞	-13.6181
生上曰昔聞堯十四月而生今	-13.6181
生門前執手時何意爾先傾在數竟未免	-13.6181
疑上下文義不相貫遂取山海經	-13.6181
瘼昧旦求政所以庶存簡惠緝兹治道而	-13.6181
發哀者踰月不舉樂鼓吹寢奏服限亦然	-13.6181
皆有驕侈怠慢之心而加之以貪	-13.6181
盈缺靈境信淹留賞心非徒設平明登雲	-13.6181
盟載捧珠盤窮紀星移次	-13.6181
直虹朝映壘長星夜落營	-13.6181
祠刻石銘德號曰枝江白虎王君	-13.6181
章斯飾伏惟殿下柔明固天夙資龔懿芬	-13.6181
簡王薨太妃藉悲用禮撫孤用慈柔懿之	-13.6181
紘曰余嘗評陶公詩語造平淡而寓意深	-13.6181
索均逸共勞命彼倌人稅	-13.6181
紳裳視絶雲銜意方此時誦飾江	-13.6181
終覿紫芳心行光自容裔無使弱思侵鮑	-13.6181
縱横至収歛不盈㕓夏日長抱飢寒夜無	-13.6181
羣臣皆得列觀及諸蠻夷君	-13.6181
羽旗衘蕤雄㦸燿毫呈典緇耦獻禮翠壇	-13.6181
羽瞋目叱之樓煩目不能視手不能	-13.6181
翳翳衡門洋洋泌流曰琴曰書顧	-13.6181
而仕無青組紫紱龜紐虎符之志但欲史	-13.6181
而孤去風時時而寒出木斂柯而	-13.6181
肅恭文物翹拜榮禮違距以深追増	-13.6181
胡塵幾日應盡漢月何時更圓	-13.6181
臣獨不蠲鑒燋鯁在躬	-13.6181
臣聞爵以能委命以績降亦有	-13.6181
自古賢聖誰能獨免子夏有言死生有命	-13.6181
臺前欲知青都裏乗此乃登天秦女青琴	-13.6181
船始復歸金鞍聚磧岸	-13.6181
華輕薄篇曰蒼梧竹葉青宜城九	-13.6181
蕩公䕶字薩保太祖之兄邵	-13.6181
蕭太傳謝追贈父祖表	-13.6181
覽少憐苫草則臣死之日猶生之年臨	-13.6181
觀古人之情所以聳絶百縣崇隔萬㝢	-13.6181
詩侍始安王石頭緒官承盛	-13.6181
話言之詔貽在英粹寅亮大寳敷綸妙	-13.6181
論功異常獨屏樹下故軍中號	-13.6181
譽多埃塵朝生輿馬間夕死衢	-13.6181
讒嬖之不祥却文綵之媱冶去利劒之鏗	-13.6181
豈特大車方塵小雅有廢而巳哉將據致	-13.6181
豈若醴泉消疾聞乎建武之朝	-13.6181
豪士枉尺璧宵人重恩光徇義非	-13.6181
賚制㫖大湼槃經講疏	-13.6181
賴藩伯鞠旅侯甸入守	-13.6181
足於財好古之士自遠方至父黨	-13.6181
躬謹蘭閨身撝椒第若	-13.6181
軌不樹徽猷罕宣無以式翦冦兆載弭姦	-13.6181
軍拊而勉之三軍之士皆如	-13.6181
軒豈方伊類捉髮躬勤	-13.6181
迹辭功寰㝢睦政畿甸綸風沈氏	-13.6181
造化餘靈宥以遐邑方	-13.6181
進爵為公改封萬年縣通前二千四百	-13.6181
遊鄴城朝露竟幾何忽如水上萍君子篤	-13.6181
過弓衣濕濺水馬足亂横波半城斜出樹	-13.6181
過朱崖猶緩再重之施金石無知何以識	-13.6181
野㟁平沙合連山逺霧浮	-13.6181
銷憂非羽觴此心兾可緩清芷在沅湘贈	-13.6181
閉兮喬木橈嵐氣闇兮幽篁難忌蟪蛄之	-13.6181
閑素譽彰頻試績著累朝自居南服徽庸	-13.6181
闐樂樂闋以五色縷相	-13.6181
闗候海水而重譯所謂府不輟貢	-13.6181
陂生不布施死何含珠	-13.6181
降祈年願靈之降解珮停鑾神之行兮氣	-13.6181
陳燕趙歌兮傷美人珠與玉兮	-13.6181
陳郡之袁炳焉有逸才有妙賞博學多聞	-13.6181
隆業體淹濟思情通敏功書王府	-13.6181
階既激澗廣閣更交柯葛巾	-13.6181
雄姿俊茂眉目疎朗	-13.6181
雞鳴而駕塞井夷竈惟余馬首是瞻欒黶	-13.6181
難盡未嘗留意於死生豈復稍論於椿菌	-13.6181
雲結吹襃成燻之厚朱箱累轍崇試宰之	-13.6181
靜然肅念徘徊交集不任憂感沐浴之情	-13.6181
非常之恩借權製之義紊禮	-13.6181
面紅新著酒風晩細吹衣跂石多時望	-13.6181
韻性本愛丘山誤落塵網中一去三十年	-13.6181
頻遘時來感激光私未能自返烏可超	-13.6181
餬	-13.6181
首亂街號燿盛火列金斷聚甲如陵獻俘	-13.6181
首囘文括入後讀法中新讀無所増讀法	-13.6181
首擊銅柱銅柱火出則古者非直以銅	-13.6181
馬煩而人聳色綵旄耀而士銜威軍容有	-13.6181
驃騎公以劒卒十萬禦荆人於外郊	-13.6181
高天之慈布厚地之施承命以驚	-13.6181
魏君賢人是禮國人稱仁上下和合未可	-13.6181
魏室喪亂經綸夷阻周朝建國匡	-13.6181
鱗沈醜戈羽逸隻騎不	-13.6181
齊臺下官每讀其書未嘗不廢	-13.6181
龍等四城二日盡㧞又攻	-13.6181
𣺌	-13.6181
􁐉	-13.6181
􁖀	-13.6181
墾壤運於渤海之尾河曲	-13.6181
秦將入郢陛下宜還都以避	-13.6181
魏畧侍中陳羣尚書桓階奏曰	-13.6181
光武欲建都洛邑篤以闗中先帝舊	-13.6181
寧元年趙王倫簒位齊王冏起兵討倫	-13.6181
新野公歆皆舉兵應之倫遣其	-13.6181
未深思於五難先自擅於	-13.6181
泉盟㑹地也白者金色國之行也	-13.6181
臣名須達多此園地還廣一	-13.6181
踐長樂之神臯望宣平之貴	-13.6181
尚書中候王至磻溪之水吕尚釣	-13.6181
昌新縣北山昔有貞婦其夫從役婦攜幼	-13.6181
石望夫而逾逺山望子而逾多	-13.6182
水山雲半繞峯遥想山中店懸知春酒濃	-13.6182
汝光非吾友也乃撃其膺而下之許由	-13.6182
芼	-13.6182
銜西山木石填東海一名鳥	-13.6182
暢皇情休靈命雨留甘	-13.6182
太行王屋二山方七百里高	-13.6182
炰	-13.6182
吕䖍有佩刀工相之以為必	-13.6182
登三公可服此刀䖍謂祥	-13.6182
四年授柱國大將軍昭陽以功髙見用	-13.6182
子之在此也猶燕之巢於幕上	-13.6182
徃勞之於板橋景北面受	-13.6182
度進寡兵車召陵之盟退靡朝歌河内之	-13.6182
暮歸三危山我欲因此鳥具向王母言在	-13.6182
禮樂征伐不出於天子舉賢誅暴實在於	-13.6182
翩翩三青鳥毛色竒可憐朝	-13.6182
謝靈運欲渾成而有正始以來風氣當	-13.6182
遂得席巻三荆此又公之勲也	-13.6182
停輿依栁息住葢影空留古樹横	-13.6182
圓岸伏丹瓊下視雄虹照俯看	-13.6182
川秋至帝子降客人傷嬋	-13.6182
廓吹萬龍門之風梁棟崢嶸落實	-13.6182
彭澤令其冬解綬去職時四十一	-13.6182
慠	-13.6182
書隠逸傳及顔延之誄皆云年六十三以	-13.6182
極旌心徒自懸若華想無慰憂至定傷年	-13.6182
毛遂捧銅盤而跪進之楚王遂定從而歸	-13.6182
水經注曰沔左有却月城亦曰偃月	-13.6182
泫然沾衣兮悲袁友之英秀系神緒而作	-13.6182
漅	-13.6182
留滯桂枝情結友愛逺岳採藥好長生常	-13.6182
績懸車流沙之功故望寵未安踐榮加懼	-13.6182
聞命屏營以憂以墜近申微欵日月之鑒	-13.6182
逕羞前檢岷山慙舊名伊我	-13.6182
數十艘實以薪草灌膏油其中	-13.6183
釋以為建昌令仍間道奔江	-13.6183
蓋聞彼黍離離大夫有䘮亂之感	-13.6183
吒	-13.6183
宣帝時有卿士刺史二千石數十家冠	-13.6183
来訖於魏末叙為世譜	-13.6183
祜泰山南城人也封南城侯	-13.6183
而飛鳶墮水馬援去而無歸	-13.6183
咽臣某中謝臣仲春之末舊患漸加雙足	-13.6184
四支不利扶步有邯鄲之失	-13.6184
儐	-13.6184
史記若煙非煙若雲非雲郁	-13.6184
孫得臣卒以不發揚襄仲之罪貶不書日	-13.6184
尊敬之迹既明應事之機斯兆臣之龔行	-13.6184
翼度濕雁斷行來浮橋七星起	-13.6184
辭又袁術僭逆非一朝一夕日	-13.6184
切皆以香作樓閣經行香地苑園皆香其	-13.6184
送目之賞工謝綵輪竊歸風之價臣	-13.6184
驚雉逐鷹飛騰猿看箭轉	-13.6184
振風長憂凌雨不悟遭社鳴之屬	-13.6184
母告祥朱旗既抗九野披攘禽嬰	-13.6184
資以江陵一州之地其襄陽所統盡	-13.6184
月戊子大雨霖詔公卿大	-13.6184
李傕矢及御前明年正月改元建安	-13.6184
獻帝興平二年三月李傕脅帝幸其營	-13.6184
霸少立高節光武時連徴	-13.6184
冊拜譙國夫人東武亭之妻既稱有秩	-13.6184
雅者正也政有大小故有大雅	-13.6184
􁀍	-13.6184
余向秦雖言異生死同是不歸人	-13.6184
子見逵路而哭之為其可以南可以北	-13.6184
恩嚴交泊固守莫從免黙恭典伊榮加戚	-13.6184
攀霞鏡月非復常所此必讓	-13.6184
移風廣軒厯崇徳盛唐年	-13.6184
饔	-13.6184
又中有三十家不復穿井即飲此水上	-13.6184
大戰以决勝負角哀至期	-13.6184
或遼音問其先楊誠齋曰同源分流人易	-13.6184
賜令臣府自辟僚賢竊聞治以才	-13.6184
賜止冕輅時停雲駕則俗踐知方臣蹈厚	-13.6184
乃為書約之矢以射城中遺燕	-13.6184
凱好為身後名常自言百年後必髙岸為	-13.6184
劵	-13.6184
古㳂圖循逺訪繪未嘗不麗選	-13.6184
式昭盛美載揚洪烈者焉公諱	-13.6184
引美人之衣者美人援絶其冠纓	-13.6184
悰	-13.6184
愛其蕭散宛然在目潁川荀仲	-13.6184
有詔贈某官禮也以建德四年三月日歸	-13.6184
美難嗣故曠寂先芬者哉臣謬賛國機職	-13.6184
身立名理窮於性大統三年起義華陽	-13.6184
野靡狼顧之民樵者目金	-13.6184
下夫膠庠之典彞倫攸先所以昭振才端	-13.6184
不自覺良乆如厠温命取以還之	-13.6184
世齊之以七政坦坦恢恢巍巍赫赫政徳	-13.6184
中言未畢先生攝衣而起曰子前所	-13.6184
乎越得嵗而吳伐之必受其凶	-13.6184
也亦不詳其姓字宅邊有五栁樹因以	-13.6184
亮艱危効彰屯詖皆績幹兩宣	-13.6184
人歸連尹襄老之尸於楚	-13.6184
代所以韻起西國響流東都浮江繞泗	-13.6184
伊人是以處無懦色臣官逢昌	-13.6184
似玉巵之無當徒費辭而難領譬	-13.6184
先故以式藹曩書載炳前軌文仲	-13.6184
兖衝要維扞中畿司牧之任宜詳其授後	-13.6184
入秦庭凌厲越萬里逶迤過千城	-13.6184
出而知返其志一也或以謂	-13.6184
函谷此之冠蓋屢涉漳濵	-13.6184
北軍中候總政六師河南京尹冠冕百郡	-13.6184
句言名不足頼後四句言身不足惜淵明	-13.6184
含聲而逺近琴吐音而有無奏神鼓於玉	-13.6184
品流輿人之誦具聞其黷頻露慊祈未	-13.6184
四壁皆青石隠起自書契	-13.6184
在陳有鼓在懸騰燭象星奔水類電郊燎	-13.6184
坐處君歸見嘲笑而請筆作	-13.6184
城之勲進拜單于遷邑遼	-13.6184
士祖企謝景夷三人共在城北講禮加以	-13.6184
大驚問所從來具答之便	-13.6184
女登為少典妃遊華陽有神龍首感生炎	-13.6184
如金如璧爰秀爰英於鑠冠	-13.6184
宗式範胄子兼掌宗伯望實惟	-13.6184
宫廟禮哀敬枌邑道嚴	-13.6184
宸網擬星懸朱櫂麗寒渚金	-13.6184
封江冠軍等詔門下締基緯業序功攸急	-13.6184
就華未知所届背源從流不識其止求國	-13.6184
帛天瑞磊砢而相尋地符氛氲而不少	-13.6184
弼諧親屏以申茂績	-13.6184
徒虚語乃今知之伏願大王暫停左右少	-13.6184
感而作賦曰迤邐碕礒兮	-13.6184
或有雨雲合又含寒横湖韻	-13.6184
戚戚憂可結結憂視春暮紫荷漸曲池	-13.6184
持節都督郢州司州之義陽諸軍事冠軍	-13.6184
故感魂傷情獲賞彌倍妙器竒製見貴	-13.6184
旅人豈遊遨幸及風雪霽青春滿江臯解	-13.6184
時在坐温命紙筆令嘲之文成示温温以	-13.6184
晦歘吸鵾雞悲清隂往來逺月華散前墀	-13.6184
曲薤露送王公貴人蒿里送士大夫庶人	-13.6184
有道則咸浴其徳好生則各繁其類	-13.6184
槐鉉之任百王攸先具司是屬冠冕式	-13.6184
此易彼乎述酒舊注儀狄造杜康潤色之	-13.6184
水中臥念少游平生時語何可得也	-13.6184
水之可摹於是流瀁不一遨曹無邊娥眉	-13.6184
水流平澗下山花滿谷開行雲數	-13.6184
水道庠序之風石渠啟珪璋之盛竒士輻	-13.6184
水陸形援某官某甲等並率義勇之衆	-13.6184
江州别駕巴丘令征西大將軍譙國桓温	-13.6184
江暗雨欲來浪白風初起	-13.6184
瀟湘空翠澗澹無滋寂	-13.6184
火夏官為鶉火秋官為西火	-13.6184
為之歎嗟經離之思多多思之離經三言	-13.6184
烈士傳曰羊角哀左伯桃二人為死友	-13.6184
然黔首豈不戴天竊思伏皁九載齒	-13.6184
王公之服於是有文靡虚麗驕邪不典之	-13.6184
瑟卧遥帷水碧驗未黷金膏	-13.6184
甫之玉質笑陳王之妙顔所以樂精	-13.6184
由明祀肅駕在祈年詔徒登季月戒	-13.6184
畔以成仁何大庭之足競豈栗陸之能	-13.6184
百仞崖横千尋松直陰兔假道	-13.6184
相思巫山渚悵望陽雲臺膏	-13.6184
矣且皇華之命居上之鴻私	-13.6184
窮事自至豪主正怔營惜哉劔術	-13.6184
紈百味酒兮靈之集河供鯉兮靈之安却	-13.6184
緇北渚有帝子蕩瀁不可期悵然山中暮	-13.6184
翼翼歸鳥載翔載飛雖不	-13.6184
聞哉弱年逢家乏老至更長飢菽麥實所	-13.6184
自機中素畫作秦王女乗鸞向煙霧彩色	-13.6184
至俟斤牙帳所迎后俟斤	-13.6184
落花承舞席春衫拭酒杯行廚半路待	-13.6184
蓋藏城也城不方有頭尾兩翅名	-13.6184
蕭蕭而異響雲漫漫而竒色舟凝滯於水	-13.6184
蘭覆徑路葱蒨亘華堂葐蒀雜綺樹	-13.6184
處正在身名之外也其十二長公	-13.6184
行草木勿踐輟鑊歛火吹	-13.6184
覆業彌慼深寄仰屬皇心遥覃察政洞俗	-13.6184
趙舞吾何樂焉在彼者難求而在此者易	-13.6184
迷途其未逺覺今是而昨非舟	-13.6184
遷軍司馬夏官司武待白露而治兵	-13.6184
野路疑村船横埭下樹夾津門寧殊華蓋	-13.6184
鑄鳯銜蓮圖龍並眠	-13.6184
長史詔門下蕃佐須才非良莫寄侍中領	-13.6184
雄虹赫然暈光耀水偃蹇山頂舄弈江湄	-13.6184
離照南陸鳴鳥聲相聞秋草雖未黄融風	-13.6184
雪疊疊兮薄樹車蕭條兮山逼舟	-13.6184
靈太后及幼主次害無上王	-13.6184
韻躑躅而易變律參差而難圖非南	-13.6184
響思清逺去來何依依自值孤生松歛翮	-13.6184
題甲子而已意者恥事二姓故以異之嘗	-13.6184
騰華流藝允文允武克明克睿聿	-13.6184
鹿裘帶索鼔琴而歌孔子	-13.6184
㗲	-13.6184
䡍	-13.6184
一緒事乃萬族至若龍馬銀鞍朱軒繡軸	-13.6184
不還不還有長意長意希童顔身識本爛	-13.6184
世留名華夏周上柱國宿國公河州都督	-13.6184
丘棲聖煙煴國牒衍溢民	-13.6184
乃有劒客慙恩少年報士韓國趙厠吳宫	-13.6184
之龠以子榖秬黍中者千有	-13.6184
乎外禁瑶碧綺組之玩罕設於内宫故大	-13.6184
以傷然命知悲不絶恒如注海泉駕言出	-13.6184
何時見餘暉朝霞開宿霧衆鳥相與飛	-13.6184
公之意也詠荆軻燕丹善養士志在報強	-13.6184
兮霞淺淺霞兮駮雲一合兮一分映壑兮	-13.6184
其一萬族各有託孤雲獨無依曖曖空中	-13.6184
其所裁有墳形山上直路下出不生草	-13.6184
兹地乃閩城萬古通漢使千載連	-13.6184
兹寳燭夜無華金鏡晝恒微桐葉生	-13.6184
冩辭僉曰若稽古聖璿圖靈鏡星	-13.6184
刑霜刃刲忠翦義樊稚斵櫬惵惵	-13.6184
加侍中竇憲連官單于之寳鼎可致	-13.6184
北眺五陵謂長安陽茂平此五陵	-13.6184
卒哭之後依常舉樂稱悲竟此理例相符	-13.6184
唐而永歎甘貧賤以辭榮淳源	-13.6184
嘗周陽珪三五道邈淳風日盡九流參差	-13.6184
囂伊謐爰崇爰貴以望以實	-13.6184
四十有四即以其年某月日歸	-13.6184
四年南史及梁昭明太子傳不載壽年	-13.6184
在辛亥月惟仲秋旬有九日從弟敬逺	-13.6184
在鼎公何疑焉帝曰聞此言者多矣其試	-13.6184
夕復來歸量力守故轍豈不寒與飢知音	-13.6184
天下之民謂之八愷髙辛氏有才子八人	-13.6184
天道斯慈人倫此愛膝下龍摧	-13.6184
奉上天之成命師聖人之遺書發忠孝於	-13.6184
嫰	-13.6184
定知歡未足横琴坐石根	-13.6184
寂寥靈素文攀淵卿史類遷固譬如冬雪	-13.6184
崇殷周特貴牧司之寄魏晉稱重上昭妙	-13.6184
廓靈緯崇樹神紀百司備列貴賤之分	-13.6184
張公張公云魏明帝在建始殿朝㑹皆由	-13.6184
形寄空木嬌兒索父啼良友撫我哭得失	-13.6184
後園桃李羅堂前曖曖逺人村依依墟里	-13.6184
得返自然冷齋夜話曰東坡嘗云淵明詩	-13.6184
必書史不謬牘况臣連牧圉岳董率職方	-13.6184
性剛才拙與物多忤自量	-13.6184
恒得親舊知其如此或置酒招之造飲	-13.6184
恥丙辰歲八月中於下潠田	-13.6184
恨賦試望平原蔓草縈骨拱木	-13.6184
悵然集漢北還望岨山田沄沄百	-13.6184
戍樓侵嶺路山村落獵圍道士封君達	-13.6184
所悲湯東澗曰孤雲倦翮以興舉世皆依	-13.6184
所誘皆無賴子弟故相率以	-13.6184
拂旋生豈欺我哉其十一巨猾肆威暴欽	-13.6184
按劒諸侯西馳削平天下同文共規華山	-13.6184
排烟而漸滅旌拖風而未舉值解	-13.6184
撰心求私精衷請亮情不感神理無動	-13.6184
故淵開荒南野際守拙歸園田方宅十餘	-13.6184
敬實抱仲路華轂之哀自謬藉珪金空貽	-13.6184
於蚌蛤珪璧出於山淵未有玉不瑩而為	-13.6184
明某年拜建平王太妃是時今王春秋方	-13.6184
晨方鑄昌化延守一隅無以自	-13.6184
有踰兹序尠不紊裂今陛下方闢金門之	-13.6184
未果尋病終後遂無問津者	-13.6184
杳杳長役思思來使情濃恒忌光氛度	-13.6184
桓伊善挽歌庾晞亦喜	-13.6184
業優登仕先哲攸懋矧乃寥廓淵	-13.6184
構官府天地舟輿宇宙龍靜	-13.6184
欹橋久半斷崩岸始	-13.6184
民聲稜絶俗威贍殊隣宋主陵遐紫殿遏	-13.6184
氣粲然有心理東坡和陶無此篇詠貧士	-13.6184
永願白沙渚遊衍遂相從丹山有琴瑟不	-13.6184
海陵之倉則紅粟流衍	-13.6184
液瑾瑜發竒光豈伊君子寳見重我軒黄	-13.6184
溢都縣憫彼幽黔猶隔兹澤思我兆民共	-13.6184
漢書曰漢興六郡良家子選給	-13.6184
漢書曰鮑永為司𨽻校尉鮑恢為都官從	-13.6184
漢王改婁敬之族事重論都	-13.6184
漿晨上城臯坂磧礫皆羊腸	-13.6184
潜謀貫日征輪未誓偏旗銜律原燎	-13.6184
潺湲夕澗急嘈噆晨鵾鳴石林上參錯流	-13.6184
煩紫渥綢繆璿命身薄施厚感厲愈深遂	-13.6184
王人猥垂奬勸仰天光休俯	-13.6184
疲伍空貽上位則天變彰於飛流地眚見	-13.6184
白雲在天山川間之眷然西顧涕下若屑	-13.6184
相推隕形逐物遷心無常	-13.6184
瞰芝闕以窈窕見玉臺之相拒	-13.6184
石言張魯女也有小水北流入	-13.6184
磵夐嶄崒銅山鬱縱	-13.6184
祐宇升庸徒賜先衮爰永渥沖實曰驃騎	-13.6184
秩方臻元禮有序王曰念哉煇寵是與職	-13.6184
管聲驚百鳥人衣香一園	-13.6184
紶	-13.6184
績先主引退而道隔絶權不得還故率	-13.6184
而刑圄猶積永言前烈兢歎載	-13.6184
耕是資故蕭徳施曰安道苦節不以躬耕	-13.6184
聖主私託身文墨職丹	-13.6184
能變祖江遂獨死明明上天	-13.6184
膏黄帝是食是饗瑾瑜之玉	-13.6184
臣謬屬大任竊同憂泰日晏宵分實忘	-13.6184
致虹沴阻於上京蜺妖扇於下國	-13.6184
荷蓧丈人長沮桀溺於陵仲子張	-13.6184
蒼梧至可知矣不謂咸池再暉瑶光重照	-13.6184
蕪沮物議綸言之出不追金石之謬	-13.6184
術寧降志於吾賢先生曰誠此言之甚美	-13.6184
衛瑶祀若旍金扆如綴朝野傾儀咸歸上	-13.6184
襟亦復含酸茹歎銷落湮沉若	-13.6184
襲杞烈公爵天和末拜宗	-13.6184
調繡扆之政何得去禮廢雅近於臣始	-13.6184
譽聘於周見太子晉與之言五稱而三窮	-13.6184
豫人事而正欲使其佳𤣥答曰譬如芝蘭	-13.6184
豫兆人儀刑萬國者也伏惟皇帝	-13.6184
超居金鉉殊任鬱起臣心憂魄悚視丹如	-13.6184
軍南徐州刺史長沙王晃出次江都	-13.6184
轉難傳飛騰水陸咀嚼靈𤣥若乃壁上真	-13.6184
逢恩侍英王結劒從深景撫袖逐	-13.6184
逢貞女之墳隴首白楊	-13.6184
道之為曠恥見嘲於腐儒豈求珍於席上	-13.6184
道潤衍溢頌祉載繁嘉生蠲慶風雲瑞節	-13.6184
道誰能測窮巳須待九轉成終㑹長沙市	-13.6184
鄭注云韋弁以韎韋為弁	-13.6184
醜以成妍亦反老而為少虬駕夭矯而出	-13.6184
鋡	-13.6184
鑠近古垂耀中葉揆望揣實	-13.6184
陳深酸舊物掩咽故臣嗣皇帝永訣丹掖	-13.6184
陶令此則挽辭决非擬作從可知矣又曰	-13.6184
雖瀝丹局終懼蒙咎不任銘戴匪處之情	-13.6184
青楸之罹霜廵層楹而空掩撫錦幕以虚	-13.6184
願陛下暫停冕纊少察愚實鑒臣靦情愍	-13.6184
飲東都送客金谷琴羽張兮簫	-13.6184
高樓之度索走大樹之神牛鴈聞弦而跕	-13.6184
鴚	-13.6184
𧹞	-13.6184
􁑼	-13.6184
􁚫	-13.6184
𦵏橋山山崩棺空惟有劒舄在	-13.6184
臮	-13.6184
虞舜卿雲歌曰卿雲爛兮糺	-13.6184
五載矣感物傷懐乃作斯賦	-13.6184
潰潰沸騰茫茫墋黷天地離阻	-13.6184
嫄	-13.6185
但以中外久勞積斯災疾山	-13.6185
列仙傳軒轅自擇亡日與羣臣辭	-13.6185
秦始皇改古文為篆𨽻國人多謗乃	-13.6185
荆璧睨柱受連城而見欺	-13.6185
蘿山賣薪女也西施山下有浣	-13.6185
龍盤加以黄旗紫氣莫不隨狐	-13.6185
四海為念西郊不雨即動皇情	-13.6185
遷都督秦渭等十二州諸軍事秦州刺史	-13.6185
等時去時来来則風肅然	-13.6185
中任子都督翻原州城受隴西王節度	-13.6186
薛方逢萌聘而不肯至嚴光周黨王霸	-13.6186
之其卦遇蠱曰千乗三去三去之餘	-13.6186
九層之臺三年不成男不耕女不	-13.6186
今朝遊俠客不畏風塵多	-13.6186
以來得野意者淵明而已雪浪齋日記曰	-13.6186
伍自度非竒力異才不足聞見	-13.6186
何佟之等并撰五禮千餘巻	-13.6186
文清公曰按詩中言本志少	-13.6186
昔日伐蜀之謀張儀與秦昭計合平	-13.6186
桂復多楓水夕潮波黒日暮精氣紅路長	-13.6186
泉應至何所禁妃因别曰見上客兮心	-13.6186
澤而有光君子服之以禦不祥其五	-13.6186
獄拔謝答仁為步兵校尉配	-13.6186
畏佳人晩秋蘭傷紫莖海外果可學	-13.6186
詩要有野意語曰質勝文則野	-13.6186
談名義自方於古之人余未之信也按	-13.6186
識無主不勝殞越怵息之心	-13.6186
鍾儀君子入就南冠之囚	-13.6186
春秋氐池縣大栁谷口有蒼	-13.6186
伏願覽青蒲之奏曲允	-13.6186
徙正直其地日月當之元城東	-13.6186
必其君也蠱之貞風也其悔	-13.6186
皇帝璽綬冊禪位於晉嗣	-13.6186
乃放聲長號杞城為之崩	-13.6187
陳公子完奔齊懿氏卜妻完其妻	-13.6187
猍	-13.6187
韵	-13.6187
謝趙王賚乾魚啓某啓	-13.6187
賚乾魚十番醴水朝浮光疑朱鼈	-13.6187
圖史智罕効官志闋從政方遽	-13.6187
淮之珠已馳光於七貴皆聲不妄美第豈	-13.6187
語剌瑟胝此云竿即幡柱也	-13.6187
其序東方之色青其餘三色例皆如	-13.6187
如割柰何柰何豈况至性	-13.6187
溪水中溺不得出備急曰的顱今日厄矣	-13.6187
為楚相而其子為郡功曹子伯	-13.6187
神忽忽而若忘意衝衝而不定	-13.6187
風騷騷而樹急天慘慘而雲低	-13.6187
元帝性多忌以琳所部甚盛	-13.6187
劉徹好道然形慢神穢	-13.6187
加散騎常侍郅支抱馬如聞耿秉之戰	-13.6187
太傅作牧奄有江沱司徒避亂承制荆河	-13.6187
暝對坐皆不相見失巴所在	-13.6187
算數以通其變俯仰則為天地日月星變	-13.6187
詔即以驛書問成都成都答言正旦大	-13.6187
雨従東北來火乃息雨皆酒臭後忽一	-13.6187
七月一日四月八日當有道士著七色法	-13.6187
去楚歸漢漢王賜以玉案之食	-13.6187
及乎大盜移國王室騷然月動星	-13.6187
岳陽王承制陜左當璧漢南	-13.6187
引正淵明詩意而淵明字少意多尤可涵	-13.6187
徜	-13.6187
心貽此話言進簣雖微終焉	-13.6187
為二色即是空非色滅空色	-13.6187
瘵	-13.6187
西蜀張縯辨證曰年譜以此詩	-13.6187
道必授子神虎上符此南	-13.6187
佈	-13.6187
内屬城為人所訟公遂集文武肉袒自罰	-13.6187
夕香君結綬兮千里惜瑶草之徒芳慙幽	-13.6187
子曰郢人有遺燕相國書者夜	-13.6187
少傅蒲虞勲三州諸軍事蒲州刺史	-13.6187
曰舉燭者尚明也尚明也者舉賢	-13.6187
某年改授冠軍夫人四德小君	-13.6187
滯擥九仙之輕華故抱魄寂處凝神空居	-13.6187
爵宏卒子綽之嗣綽之卒子延壽嗣宋受	-13.6187
犧象交陳鬱尊四塞黍	-13.6187
耡	-13.6187
肆請舒衷仰謁不能曲流	-13.6187
臣聞國容軍禮旌羽昭其華品騎第	-13.6187
舉燭云而過書舉燭舉燭非書意	-13.6187
舊常無相侵凟其後三苗復九黎之	-13.6187
血歌辭時恭時祀有物有則伊我上聖實	-13.6187
見漢武帝帝將臣之叔卿不言而去	-13.6187
邈深晝窈鬱重虚覘炫燿而可見	-13.6187
金鏡廢不看不見空閨裏縱	-13.6187
閨闈已正某年除金鄉郡君	-13.6187
六府孔修百司盡畢搜求儒雅招拾遺逸	-13.6187
匡漢是以赤瑕瓊寳之文睇影而夐集青	-13.6187
安致命詔拜騎都尉疇以天子	-13.6187
履行疎徒勞交甫憶自有專城居	-13.6187
常置或有前後或有左右皆掌兵	-13.6187
彼乘駽以伺質明以佇神	-13.6187
愛實厚念疇昔日同房之歡冬無緼褐夏	-13.6187
故得艫舳所臨葢於淮泗	-13.6187
日斜迢逓宇風起嵯峨雲	-13.6187
昭景緯則川岳發華故寳鼎白雲瑞集軒	-13.6187
楠	-13.6187
石而魚服象弭一旦虚授誕錫金珪方兹	-13.6187
經聲清遒深亮逺谷流響不覺斂	-13.6187
至老子廟應詔虚無推馭辨	-13.6187
落温目左右及賔客勿言以觀其舉止君	-13.6187
金行失馭玉鏡淪輝我之烈祖識變乘機	-13.6187
陳詔逌為元帥節度諸軍事大	-13.6187
中古銅尺校度朂今尺短四分方	-13.6187
乃因事左遷咸為始平太守	-13.6187
人所制能免於患乎老萊子遂	-13.6187
伐罪弔民風無偃稼雨不破塵覩勝殘於	-13.6187
但能記其鏗鏘於斯為幸	-13.6187
出而返如從病得愈其味勝於	-13.6187
右將軍皆周末官秦因之位	-13.6187
吳鄧之盛功王鍾之素業孔明之居蜀茂	-13.6187
嘉魴得所薦而我在萬里結	-13.6187
國公儉忠欵昭著任寄隆深	-13.6187
在親宴日暮浮雲滋握手淚如霰悠悠清	-13.6187
夏首美政殷流必能聿宣國化以庇人瘼	-13.6187
外兵舅夜集丹林一葉舊碧草從此空	-13.6187
將無是耶亮欣然而笑喜褒之得君竒君	-13.6187
府初開博選清英華髪舊	-13.6187
往任沅湘餘惠在民今宜重敷善政申此	-13.6187
徐君不言而色欲之季子為有上國之	-13.6187
恬約譽洽朝聞聲緝民	-13.6187
擅竒於水陸况有朝雲之	-13.6187
日慘色桂闇猿方啼擥意誰	-13.6187
明昧岨運幽崖遥鏡不以人靈異謀威書	-13.6187
月見成俗於浹辰含羣生兮	-13.6187
東漢一魏不變二晉未革所從來者	-13.6187
根無半埋愛靜魚爭樂依人鳥入懐仲春	-13.6187
江左冠而負才傲物少所推挹一見	-13.6187
涕在心乖杜蘅念無沫石蘭終不暌兾惣	-13.6187
焉於時夏蓮始舒春蓀未歇肅舲波渚緩	-13.6187
王隠晉書曰永嘉元年陳國項縣賈逵	-13.6187
瑶瀾寂以晏若采能幾終暮心亦誰寄江	-13.6187
由覿爾形我慙北海術爾無帝女靈駕言	-13.6187
秋馳白日美人歸重泉悽愴無終畢殯宫	-13.6187
稱迷忉利之宫名故靈偃蹇兮姣服女嬋	-13.6187
竹林香動落梅直上山頭路羊	-13.6187
紫泥為璽室加綠綈其上	-13.6187
給甲仗五十人入禁儀武殿飾冠疇典局	-13.6187
羽奏壯士驚心知去不歸且有後世名登	-13.6187
而召樂毅毅畏誅遂西降趙趙封	-13.6187
若使詳其音律是所邈然	-13.6187
萬里贈所思願垂湛露惠信我皎日期潘	-13.6187
蕭蕭哀風逝淡淡寒波生	-13.6187
蕭蕭墓門奢侈宋臣儉笑王孫廓兮	-13.6187
褒之所得乃益器焉舉秀才	-13.6187
軍領軍新除尚書左僕射溳陽郡國公	-13.6187
逺山徘徊泣松銘雨絶無還雲	-13.6187
還望方鬱陶煙景若離逺末響寄瓊	-13.6187
鈇鉞今先生食人之酒肉受人之官	-13.6187
雜泛細果尚連枝不畏歌聲盡先看箏柱	-13.6187
髣髴想蕙質銷憂非萱草永	-13.6187
鴻賞之行廼於臣始非所以騰振遥風激	-13.6187
㖧	-13.6187
㩌	-13.6187
䆛	-13.6187
䕁	-13.6187
一使持節都督南徐兖二州諸軍事後軍	-13.6187
三自顧實以陋情悲忘寵極但畏軼超疲	-13.6187
不使語俗此庾開府之所長也然有意於	-13.6187
不能動人智謀不足自逺竟	-13.6187
乃陟上鉉寵文方輝誕錫有秩綵吹旌旗	-13.6187
之内曰近某日喪事先逺日吉事先	-13.6187
之間邀之淵明有脚疾使一門生二兒舁	-13.6187
亦左排而右蹴跖實駭而自救騰	-13.6187
人髙冠朱幘呼曰細腰細腰應諾	-13.6187
便扶向路處處誌之及郡	-13.6187
信義以為苑囿立道徳以為城池	-13.6187
傍闡採輿人之片言納匹夫之小善事在	-13.6187
儒墨之能亦以轉命溝間待殯巖下誤得	-13.6187
儒守一經未足識行藏休上人怨	-13.6187
公及邾師戰于升陘我	-13.6187
公廨近於馬隊是故淵明示其詩云周生	-13.6187
其六逍遥蕪臯上杳然望扶木洪柯百萬	-13.6187
其妻翟氏亦能安勤苦與其同	-13.6187
勲夷竈龕敵賞鏤王圖功蕤帝	-13.6187
北軼爟火南盛太祖時乗爰兹發迹塞井	-13.6187
匝璇極嗚呼哀哉粤夏四月辛卯將遷座	-13.6187
十五年襲父封魏昌縣開國伯轉大都	-13.6187
十有一出適驃騎大將軍開府儀同柴烈	-13.6187
南楚偏君鄢郢小政執珪柱國尚不輕授	-13.6187
即天王位在位四年崩謚曰明	-13.6187
又謝燕趙俠客之節徒以結	-13.6187
口所檢裁文景三郡之民舊齊故魯鞠	-13.6187
司晨神州獻嘉粟西靈	-13.6187
名之士顛倒而向風二漢有同於兒戲魏	-13.6187
周含鄭怒楚結秦寃有南風之不競值西	-13.6187
哀之徴殷舊聞之多欽廊桃之㣲深以上	-13.6187
大庾始安臨賀桂陽揭陽也	-13.6187
奉宣詔書追贈臣亡祖某太常卿亡父某	-13.6187
女曲儛入江南絃梁黿非逐俗駕鯉乃	-13.6187
妙蠱非常之玩農夫勤耨不充浮伎之資	-13.6187
婓	-13.6187
宇文與國同族婁敬上書於鹿輅項伯舞	-13.6187
安樂新成慶長生百福符明明九族序	-13.6187
實食之不飢丹水出焉其中多白玉是有	-13.6187
寳刀積塵埃思君出漢北鞍馬登楚臺	-13.6187
對曰潜也何敢望賢志不及也道濟饋以	-13.6187
尓	-13.6187
屬國𤣥甲輕車介士一依霍驃騎之	-13.6187
山東百姓亦已殊甚雖蓐螻蟻拭	-13.6187
帝五十年秋七月庚申天霧三	-13.6187
平圃南望崑崙其光熊熊其氣魂魂爰有	-13.6187
年曰初平王之東遷也辛有適伊川見被	-13.6187
府功曹臨湘令粟之入者悉散以贍親其	-13.6187
後漢光武贊炎政中微大盜移	-13.6187
恃山海經云鐘山神其子曰鼓是與欽䲹	-13.6187
恒山在西避文帝諱故改曰常山	-13.6187
悼室人十首佳人永暮矣	-13.6187
愛起長思喬木嘯山曲征鳥怨水湄共惜	-13.6187
感而來儀一角知時而自擾映景星於初	-13.6187
我馴諸梁董師旅羊勝	-13.6187
戢歛竒揜秀昔在帝劉王室放命	-13.6187
抵仁抵信枉獄炎鑪	-13.6187
招集百夫良歲暮得荆卿君子死知	-13.6187
持兩木以相敲是為撃柝守備警戒也	-13.6187
文武飾華麗貂縈金疊組宏猷溢俗	-13.6187
斷折民紀豈可還風中葉逖	-13.6187
於京兆之某原人世風烟山川超忽	-13.6187
日月鬱華風雲黯色傷動紫	-13.6187
易繫辭云重門撃柝以禦暴客鄭康成云	-13.6187
時湘醽徒有酌意塞不能持適見葉蕭條	-13.6187
景福咸湊芳猷允塞羽泳式造紘	-13.6187
曰方春和時草木羣生之物皆	-13.6187
月乙亥升禮大壇言念遷桐但有慙	-13.6187
木徳木生火故為火徳火生土故為土徳	-13.6187
杞梁之妻無子内外皆無五屬之親	-13.6187
杵也今在竈下文掘金燒杵由是大富	-13.6187
案盈我前親舊哭我傍欲語	-13.6187
森散覆暘谷靈人侍丹池朝朝	-13.6187
武伏川梁鎩翮由時至感物聊自傷	-13.6187
殺祖江于崑崙之陽帝乃戮之欽䲹化	-13.6187
母心山海經云三珠樹生赤水上其樹如	-13.6187
水雖未合珠霜竊過中坐識物序晏卧視	-13.6187
河之潤降璇日之光載筆奉后盛飾立朝	-13.6187
河之都天老曰天其授帝圖乎	-13.6187
治本臣又能身祈命請一感天地躑躅表	-13.6187
無宣於國書濟河登山之威未亮於左史	-13.6187
無庸奉天睠驅傳牧南秦	-13.6187
燎綺席生浮埃桂水日千里因之平生	-13.6187
爾雅曰北極謂之北辰郭注云北極天	-13.6187
狹石分花逕長橋映水門	-13.6187
獡	-13.6187
珠蘂不盈簞譬如明月色流采映	-13.6187
瘠餒有日矣道濟謂曰賢者處	-13.6187
發㓜齡友自天愛少思寡欲靡執靡介後	-13.6187
盡期在必醉既醉而退曽不	-13.6187
立而五路謐鴻名建而四民	-13.6187
笑楚王之雲夢恥漢帝之中流此武	-13.6187
簵之窈蔚結篠蕩之溟	-13.6187
籥進徳之舟船響如鐘而待叩明似鏡	-13.6187
紐契訓重匡禹迹方同范張濯情汾射散	-13.6187
終身之恤霜露彌慼雖慙	-13.6187
繪然後頌音載興澤洽式廣楚駕百馬民	-13.6187
義之閑西山之所以有餓夫也	-13.6187
翳哲相嶽曜神居功美	-13.6187
聞仁義常欲永辭冠劒弋釣畎壑而身輕	-13.6187
與風雨變長共山川在人道則不然消散	-13.6187
舍利弗重白佛言世尊惟願説之	-13.6187
芬冠古憬彼朱方亦惟宗秩	-13.6187
荂	-13.6187
蜮山淵所容衣劒不貸黥赭幽	-13.6187
行墨縗不興孝治天下通䘮獲遂陛下覆	-13.6187
行而求鄢郢一聞皇王之盛	-13.6187
覬神炤伏願皇靈特垂	-13.6187
言不慕榮利好讀書不求甚解毎有㑹意	-13.6187
詩書塞座外日昃不遑研	-13.6187
誓不敢辭肅恭外屏祈	-13.6187
豁然神悟而理攄志無時而可巻邦	-13.6187
豈但商頌十篇得諸太師之室	-13.6187
資遂抱羸疾江州刺史檀道濟徃候之偃	-13.6187
賵	-13.6187
軍事三十載家居矣癸卯歲始春懷古田	-13.6187
造不任憂戴匪惶之情	-13.6187
遊先生曰馳騁傷仁好殺非勇幸	-13.6187
遽改容致敬因於神殿後鑿二池植白蓮	-13.6187
重猥奉末光枉白璧之	-13.6187
錦衣上出雖復守禮令人意失遂謡曰碧	-13.6187
間虜未滅之時下潦上霧毒氣重蒸仰	-13.6187
降黑貂之私因兹感激未能自反負金	-13.6187
陽而含朝霞保神明之清澄兮精氣入而	-13.6187
雈	-13.6187
雲同入洛機集有赴洛詩	-13.6187
飲今但湛空觴春醪生浮蟻何時更能嘗	-13.6187
餗而已哉自非西京上績東都名勲河右	-13.6187
駕塞井夷竈唯余馬首是	-13.6187
鬱逺域清麗瓊都國填氓負朝委事虚	-13.6187
魏製晉造固亦二體譬猶藍朱成	-13.6187
龍韜金匱之効又乏楹間帷中之績衛主	-13.6187
􁡍	-13.6187
􁢜	-13.6187
􁪰	-13.6187
既言多於忌刻實志勇而形	-13.6187
隨月盛壯以攻戰月虧則退	-13.6187
懲山北之塞出入之迂也	-13.6188
和趙王看妓長思浣紗石	-13.6188
口分為奴婢小弱者皆殺之	-13.6188
昔者軒丘命氏初分兄弟之姓	-13.6189
是以一怒而諸侯懼安居而天下	-13.6189
是以風煙照燭毛羽禎祥	-13.6189
凰之鳴雄鳴六雌鳴六以	-13.6189
而寡和也二蘇公則不然方其得意也	-13.6189
一鏤化雙鸞乃報歌曰美人不見紫錦衾	-13.6189
之來仲父獻誠言姜公乃見猜臨	-13.6189
佛言譬如食蜜中邊皆甜人食五味知其	-13.6189
使往視之先為伏機諸生方相論辨	-13.6189
冀妻孫壽色美而善為妖態	-13.6189
后使武士縛信斬之長樂	-13.6189
坐含霜一聞苦寒奏再使艶歌傷	-13.6189
子厚之貶其憂悲憔悴之歎發於詩者特	-13.6189
字畫相近無足怪者因思宋宣	-13.6189
承先緒進不因人陛下憫臣無用舉直而	-13.6189
故與猛志固常在相應五字皆訛	-13.6189
月令十二月日窮於次月窮於紀	-13.6189
東北逕西門豹祠前祠東側有碑	-13.6189
柟	-13.6189
燕皇始初歸魏授長樂郡守賜姓豆盧	-13.6189
而不弱陶淵明之詩切於事情但不文耳	-13.6189
議將興社稷亡滅君欲何望	-13.6189
雲光平原秋色來寂聽積空意凝望信長	-13.6189
始則王子召戎姦臣介胄	-13.6189
年宜有聖女興其齊田乎	-13.6189
鄊	-13.619
鶞	-13.619
狴	-13.619
鶗	-13.619
痩	-13.619
䁓	-13.619
寀	-13.619
悕	-13.619
昺	-13.619
毈	-13.619
絭	-13.619
縏	-13.619
觿	-13.619
訂	-13.619
訔	-13.619
躧	-13.619
餱	-13.619
􁑑	-13.619
􁑴	-13.619
碍	-13.6191
狃	-13.6191
婵	-13.6192
饜	-13.6192
駹	-13.6192
驁	-13.6192
􁚙	-13.6193
榝	-13.6193
欻	-13.6193
鬌	-13.6193
呬	-13.6193
嵐	-13.6193
徕	-13.6193
憡	-13.6193
挴	-13.6193
撏	-13.6193
暁	-13.6193
梴	-13.6193
榬	-13.6193
箑	-13.6193
諼	-13.6193
郛	-13.6193
鐺	-13.6193
鑰	-13.6193
魊	-13.6193
􁁎	-13.6193
􁖞	-13.6193
􁞚	-13.6193
溠	-13.6193
玈	-13.6194
竞	-13.6195
鵷	-13.6195
䢵	-13.6195
咍	-13.6196
痏	-13.6196
媫	-13.6197
矸	-13.6197
頞	-13.6197
䑄	-13.6197
潨	-13.6197
营	-13.6197
鋟	-13.6197
圑	-13.6197
坪	-13.6197
扸	-13.6197
瞷	-13.6197
篼	-13.6197
讁	-13.6197
釥	-13.6197
餥	-13.6197
蓆	-13.6197
柍	-13.6199
媟	-13.6199
么	-13.62
弰	-13.62
篲	-13.62
􁚁	-13.62
塉	-13.62
鸅	-13.62
繖	-13.62
另	-13.62
蕊	-13.62
薯	-13.62
蜴	-13.62
迓	-13.62
這	-13.62
邜	-13.62
鷸	-13.62
麪	-13.62
㘭	-13.62
㚟	-13.62
亄	-13.62
処	-13.62
愂	-13.62
捋	-13.62
摫	-13.62
葼	-13.62
靁	-13.62
𦦨	-13.62
􁅀	-13.62
喝	-13.62
牌	-13.6201
溳	-13.6203
僂	-13.6203
陿	-13.6203
鏞	-13.6203
醸	-13.6203
岪	-13.6203
簋	-13.6203
簨	-13.6203
删	-13.6203
晲	-13.6203
槳	-13.6203
裡	-13.6203
賡	-13.6203
䉛	-13.6203
棻	-13.6203
觜	-13.6203
㽵	-13.6203
惃	-13.6203
慜	-13.6203
衇	-13.6203
􁋙	-13.6203
􁖥	-13.6203
􁖴	-13.6203
兊	-13.6204
齲	-13.6204
髴	-13.6205
偵	-13.6206
摎	-13.6206
縜	-13.6206
羼	-13.6206
臇	-13.6206
尨	-13.6206
蘗	-13.6206
􁄜	-13.6206
夬	-13.6206
燹	-13.6206
酃	-13.6206
䡄	-13.6206
蛵	-13.6206
髄	-13.6206
㽹	-13.6206
䫵	-13.6206
劋	-13.6206
啙	-13.6206
弿	-13.6206
揫	-13.6206
眲	-13.6206
蜾	-13.6206
𠻳	-13.6206
􁝳	-13.6206
挼	-13.6209
哂	-13.6209
烜	-13.6209
憺	-13.6209
憞	-13.6209
磪	-13.6209
蕡	-13.6209
􁋆	-13.6209
儈	-13.6209
暀	-13.6209
䔖	-13.6209
倭	-13.6209
惹	-13.6209
柿	-13.6209
澎	-13.6209
紿	-13.6209
荃	-13.6209
螔	-13.6209
鑙	-13.6209
􁄭	-13.6209
籤	-13.6211
䲹	-13.6211
揩	-13.6212
嘷	-13.6212
􁍒	-13.6212
囙	-13.6212
夗	-13.6212
烘	-13.6212
摉	-13.6212
矤	-13.6212
礿	-13.6212
蓲	-13.6212
蘴	-13.6212
䬠	-13.6212
喫	-13.6212
諑	-13.6212
桶	-13.6215
箙	-13.6215
枒	-13.6215
笫	-13.6215
珤	-13.6215
壒	-13.6215
曶	-13.6215
㸐	-13.6215
㥏	-13.6215
􁖯	-13.6215
肎	-13.6218
傋	-13.6219
鍐	-13.6219
䜿	-13.6219
壕	-13.6219
稌	-13.6219
穨	-13.6219
灸	-13.6219
訃	-13.6219
貼	-13.6219
媺	-13.6219
曚	-13.6219
癖	-13.6219
聓	-13.6219
蕢	-13.6219
韚	-13.6219
􁂛	-13.6219
􁇆	-13.6219
􁖮	-13.6219
􁖱	-13.6219
􁲍	-13.6219
鷖	-13.6222
歊	-13.6222
熢	-13.6222
傘	-13.6222
姞	-13.6222
抶	-13.6222
晶	-13.6222
貕	-13.6222
菉	-13.6222
鵗	-13.6222
尢	-13.6222
癩	-13.6222
霪	-13.6222
鶅	-13.6222
㩀	-13.6225
様	-13.6225
璀	-13.6225
硋	-13.6225
穠	-13.6225
亀	-13.6225
曭	-13.6225
褌	-13.6225
祌	-13.6225
軄	-13.6225
㞦	-13.6225
㷅	-13.6225
㷶	-13.6225
䠇	-13.6225
帰	-13.6225
滙	-13.6225
甂	-13.6225
紃	-13.6225
繦	-13.6225
菀	-13.6225
鷷	-13.6225
􁁾	-13.6225
麒	-13.6227
咿	-13.6228
篷	-13.6228
昈	-13.6228
籓	-13.6228
􁀌	-13.6228
諟	-13.6228
抌	-13.6228
敲	-13.6228
旝	-13.6228
棍	-13.6228
瘟	-13.6228
芔	-13.6228
頜	-13.6228
嗔	-13.6231
䍐	-13.6231
銍	-13.6231
鞀	-13.6231
碕	-13.6231
㥷	-13.6231
篻	-13.6231
轠	-13.6231
㧙	-13.6231
㨆	-13.6231
䎒	-13.6231
虻	-13.6231
訩	-13.6231
􁁅	-13.6231
􁂰	-13.6231
絣	-13.6234
惨	-13.6234
㟻	-13.6234
爆	-13.6234
嫭	-13.6234
菓	-13.6234
詼	-13.6234
珎	-13.6234
姤	-13.6234
悾	-13.6234
瓘	-13.6234
襺	-13.6234
谹	-13.6234
鈲	-13.6234
􁕀	-13.6234
􁖲	-13.6234
䛕	-13.6236
􁆑	-13.6237
纑	-13.6237
輠	-13.6237
撇	-13.6237
紬	-13.6237
蹵	-13.6237
鷩	-13.6237
凭	-13.6237
喀	-13.6237
帕	-13.6237
磎	-13.6237
翣	-13.6237
艐	-13.6237
蜇	-13.6237
饛	-13.6237
􁇵	-13.6237
褖	-13.6241
狶	-13.6241
黸	-13.6241
躒	-13.6241
帚	-13.6241
纗	-13.6241
􁉲	-13.6241
􁖎	-13.6241
􁗦	-13.6241
涎	-13.6244
彡	-13.6244
輂	-13.6244
贋	-13.6244
捿	-13.6244
㫋	-13.6244
䈔	-13.6244
䓑	-13.6244
弤	-13.6244
揞	-13.6244
湜	-13.6244
瘱	-13.6244
糦	-13.6244
鷱	-13.6244
茇	-13.6247
囯	-13.6247
滃	-13.6247
嗢	-13.6247
姐	-13.6247
姼	-13.6247
腔	-13.6247
蠁	-13.6247
酪	-13.6247
鼃	-13.6247
絇	-13.625
屼	-13.625
陭	-13.625
呴	-13.625
玷	-13.625
蟞	-13.625
齕	-13.625
􁖍	-13.625
􁖤	-13.625
鉼	-13.6253
㡋	-13.6253
􁈀	-13.6253
􁖙	-13.6253
􁊛	-13.6256
押	-13.6256
郲	-13.6256
䖟	-13.6256
僎	-13.6256
毆	-13.6256
蜷	-13.6256
鍠	-13.6256
骹	-13.6256
翶	-13.6259
葑	-13.626
鄔	-13.626
縕	-13.626
緡	-13.6263
捬	-13.6263
猱	-13.6263
槧	-13.6263
䠆	-13.6263
咬	-13.6263
簌	-13.6263
􁖦	-13.6263
罿	-13.6266
嘴	-13.6266
錕	-13.6266
駉	-13.6266
怫	-13.6269
屝	-13.6269
櫰	-13.6269
炘	-13.6269
甈	-13.6272
㹈	-13.6272
㧖	-13.6275
偟	-13.6275
嶟	-13.6275
竘	-13.6275
葸	-13.6275
嫚	-13.6278
煕	-13.6278
賭	-13.6278
㒁	-13.6279
擈	-13.6279
貒	-13.6279
鍉	-13.6279
漎	-13.6282
輨	-13.6282
􁖫	-13.6282
礚	-13.6285
琦	-13.6288
㼻	-13.6288
㽀	-13.6288
崪	-13.6288
䍃	-13.6291
誖	-13.6294
䍚	-13.6294
瓭	-13.6294
鬃	-13.6294
蛬	-13.6297
䠞	-13.6297
㼚	-13.6297
踽	-13.6297
􁕵	-13.6297
侗	-13.63
柷	-13.6301
㶄	-13.6301
儇	-13.6303
僄	-13.6304
骫	-13.6304
􁈏	-13.6304
㿿	-13.6307
䀀	-13.6307
侹	-13.6307
椷	-13.6307
盞	-13.6307
緉	-13.6307
鍑	-13.6307
閜	-13.6307
􁑕	-13.6307
􁑖	-13.6307
􁖚	-13.6307
虰	-13.631
蔾	-13.6313
鵙	-13.6313
䂄	-13.6316
瘌	-13.632
掍	-13.6323
怚	-13.6326
癁	-13.6326
蚑	-13.6329
廋	-13.6329
恔	-13.6329
揠	-13.6332
㕹	-13.6335
剬	-13.6338
潎	-13.6344
螬	-13.6344
蚭	-13.635
搰	-13.6351
蝤	-13.6354
澂	-13.6357
歾	-13.637
蚿	-13.6375
儓	-13.6383
􁖕	-13.6383
蟓	-13.6433
䖹	-13.644
􁒅	-13.6449
蚼	-13.6481
􁎹	-13.6528
蚰	-13.6551
娌	-13.6551
蟝	-13.656
毣	-14.5973
炖	-14.5997
焃	-14.5997
煓	-14.5997
摵	-14.6005
䵨	-14.6013
㖪	-14.6021
舁	-14.6021
㩴	-14.6037
劙	-14.6037
㙁	-14.6045
㩩	-14.6045
䙚	-14.6045
畷	-14.6045
髣	-14.6052
絁	-14.6053
凗	-14.6061
堽	-14.6061
狚	-14.6069
痔	-14.6069
癕	-14.6069
㡩	-14.6077
䎀	-14.6077
䐜	-14.6077
䥩	-14.6077
䩜	-14.6077
䱟	-14.6077
昳	-14.6077
珞	-14.6077
瓔	-14.6077
吂	-14.6085
娄	-14.6085
㷄	-14.6093
䨬	-14.6093
䱥	-14.6093
喿	-14.6093
彠	-14.6093
柫	-14.6093
桲	-14.6093
梩	-14.6093
㐶	-14.6101
剱	-14.6101
勖	-14.6101
墇	-14.6101
捴	-14.6101
暾	-14.6101
爓	-14.6101
獏	-14.6101
㲪	-14.6109
扅	-14.6109
旿	-14.6109
疐	-14.6109
硖	-14.6109
䬵	-14.6117
䭉	-14.6117
佷	-14.6117
塿	-14.6117
墲	-14.6117
抈	-14.6117
椴	-14.6117
涑	-14.6117
溈	-14.6117
㭙	-14.6125
㭬	-14.6125
㮳	-14.6125
㼾	-14.6125
䌞	-14.6125
䍿	-14.6125
䓆	-14.6125
凹	-14.6125
埌	-14.6125
堈	-14.6125
娵	-14.6125
婩	-14.6125
幛	-14.6125
撈	-14.6125
矌	-14.6125
􁽎	-14.613
􁧁	-14.6131
􁖣	-14.6132
䔍	-14.6133
䨴	-14.6133
䫟	-14.6133
䬧	-14.6133
䴹	-14.6133
䵆	-14.6133
倥	-14.6133
凙	-14.6133
囉	-14.6133
囕	-14.6133
宧	-14.6133
崥	-14.6133
帢	-14.6133
廯	-14.6133
忖	-14.6133
据	-14.6133
擴	-14.6133
旆	-14.6133
槭	-14.6133
洟	-14.6133
滫	-14.6133
甋	-14.6133
蘤	-14.6133
􁖓	-14.6133
􁖒	-14.6134
齷	-14.6135
齰	-14.6136
齬	-14.6137
齪	-14.6138
齟	-14.6139
齞	-14.614
蜘	-14.6141
䄠	-14.6141
䒰	-14.6141
严	-14.6141
剌	-14.6141
圊	-14.6141
堬	-14.6141
戬	-14.6141
晜	-14.6141
瑂	-14.6141
畍	-14.6141
鼮	-14.6141
鼦	-14.6142
麃	-14.6143
鹺	-14.6144
㥅	-14.6145
鸊	-14.6145
鵑	-14.6146
鴜	-14.6147
鳷	-14.6148
㮦	-14.6149
䦕	-14.6149
䫴	-14.6149
䲋	-14.6149
䳄	-14.6149
埝	-14.6149
培	-14.6149
墌	-14.6149
妦	-14.6149
媌	-14.6149
嶪	-14.6149
忲	-14.6149
憢	-14.6149
扲	-14.6149
朮	-14.6149
檦	-14.6149
毖	-14.6149
涒	-14.6149
硬	-14.6149
鱟	-14.6149
鰌	-14.615
鬆	-14.6151
骭	-14.6152
騕	-14.6153
駽	-14.6154
駔	-14.6155
饁	-14.6156
㦟	-14.6157
㷈	-14.6157
㾗	-14.6157
䌪	-14.6157
估	-14.6157
勠	-14.6157
唄	-14.6157
囏	-14.6157
懤	-14.6157
扤	-14.6157
撚	-14.6157
枘	-14.6157
枙	-14.6157
樣	-14.6157
淴	-14.6157
潑	-14.6157
瓖	-14.6157
飌	-14.6157
顣	-14.6158
鞻	-14.6159
鞹	-14.616
懺	-14.6161
昜	-14.6161
鞌	-14.6161
隥	-14.6162
閧	-14.6163
鑼	-14.6164
㕮	-14.6165
㗔	-14.6165
㣣	-14.6165
㫒	-14.6165
㯸	-14.6165
䀂	-14.6165
䋎	-14.6165
䜏	-14.6165
叵	-14.6165
坷	-14.6165
堒	-14.6165
堠	-14.6165
壳	-14.6165
宂	-14.6165
屴	-14.6165
巑	-14.6165
恇	-14.6165
抉	-14.6165
抖	-14.6165
掔	-14.6165
晧	-14.6165
朩	-14.6165
柎	-14.6165
汞	-14.6165
泪	-14.6165
漮	-14.6165
焴	-14.6165
熄	-14.6165
犛	-14.6165
狻	-14.6165
猊	-14.6165
玻	-14.6165
璝	-14.6165
璺	-14.6165
瓈	-14.6165
瓣	-14.6165
畞	-14.6165
眤	-14.6165
碾	-14.6165
鐻	-14.6165
鏝	-14.6166
鏌	-14.6167
鎻	-14.6168
鍋	-14.6169
錙	-14.617
鋺	-14.6171
鋣	-14.6172
㓨	-14.6173
㘩	-14.6173
㝎	-14.6173
㡛	-14.6173
㡳	-14.6173
㧾	-14.6173
㨶	-14.6173
㬅	-14.6173
㵿	-14.6173
䒹	-14.6173
䟷	-14.6173
䳵	-14.6173
䵍	-14.6173
䵓	-14.6173
侄	-14.6173
倇	-14.6173
傠	-14.6173
呆	-14.6173
呐	-14.6173
咅	-14.6173
噈	-14.6173
圣	-14.6173
媳	-14.6173
崞	-14.6173
弥	-14.6173
慌	-14.6173
懱	-14.6173
扮	-14.6173
抯	-14.6173
捖	-14.6173
敡	-14.6173
暵	-14.6173
曤	-14.6173
棰	-14.6173
槫	-14.6173
樾	-14.6173
欖	-14.6173
洓	-14.6173
済	-14.6173
港	-14.6173
漘	-14.6173
漶	-14.6173
濙	-14.6173
玹	-14.6173
瞵	-14.6173
硨	-14.6173
磲	-14.6173
鋂	-14.6173
鈒	-14.6174
釳	-14.6175
醺	-14.6176
㛠	-14.6177
侁	-14.6177
熨	-14.6177
醟	-14.6177
鄄	-14.6178
躑	-14.6179
㯮	-14.6179
冾	-14.6179
券	-14.6179
恟	-14.6179
邶	-14.6179
玕	-14.618
䑠	-14.618
䪕	-14.618
磕	-14.618
祅	-14.618
逳	-14.618
懭	-14.618
搣	-14.618
䂥	-14.6181
琉	-14.6181
潺	-14.6181
㕧	-14.6181
㣼	-14.6181
㦲	-14.6181
㩱	-14.6181
㬢	-14.6181
㬱	-14.6181
㭊	-14.6181
㲨	-14.6181
㴞	-14.6181
㺄	-14.6181
䁺	-14.6181
䊸	-14.6181
䑽	-14.6181
䖝	-14.6181
䚕	-14.6181
䠯	-14.6181
䧢	-14.6181
䬼	-14.6181
䭓	-14.6181
䰇	-14.6181
䳌	-14.6181
佅	-14.6181
佖	-14.6181
偎	-14.6181
偨	-14.6181
偱	-14.6181
傂	-14.6181
僡	-14.6181
勘	-14.6181
卨	-14.6181
厰	-14.6181
厷	-14.6181
变	-14.6181
坁	-14.6181
嫿	-14.6181
峿	-14.6181
崍	-14.6181
嵊	-14.6181
巣	-14.6181
帍	-14.6181
幦	-14.6181
愊	-14.6181
懜	-14.6181
懴	-14.6181
担	-14.6181
搘	-14.6181
搯	-14.6181
旉	-14.6181
杆	-14.6181
杉	-14.6181
柸	-14.6181
楴	-14.6181
橙	-14.6181
殹	-14.6181
涬	-14.6181
滬	-14.6181
濾	-14.6181
炒	-14.6181
煽	-14.6181
熺	-14.6181
犄	-14.6181
犖	-14.6181
猰	-14.6181
瑲	-14.6181
疁	-14.6181
痟	-14.6181
瘈	-14.6181
砦	-14.6181
禝	-14.6181
籕	-14.6181
蔪	-14.6181
薑	-14.6181
迃	-14.6181
睪	-14.6182
禩	-14.6182
輹	-14.6182
儡	-14.6183
柬	-14.6183
輗	-14.6183
䵃	-14.6184
蹳	-14.6184
鸑	-14.6185
䙝	-14.6185
䧿	-14.6185
垜	-14.6185
戺	-14.6185
气	-14.6185
獼	-14.6185
眧	-14.6185
蹍	-14.6185
跣	-14.6186
䊚	-14.6187
偊	-14.6187
圥	-14.6187
趹	-14.6187
豖	-14.6188
㗇	-14.6189
㦗	-14.6189
㶑	-14.6189
㷸	-14.6189
㸦	-14.6189
㺒	-14.6189
㻛	-14.6189
䃿	-14.6189
䅈	-14.6189
䘃	-14.6189
䳘	-14.6189
儂	-14.6189
刲	-14.6189
剜	-14.6189
吱	-14.6189
啒	-14.6189
喖	-14.6189
嗞	-14.6189
妘	-14.6189
悗	-14.6189
扑	-14.6189
拃	-14.6189
拿	-14.6189
掦	-14.6189
搷	-14.6189
摲	-14.6189
擑	-14.6189
梬	-14.6189
槣	-14.6189
樺	-14.6189
毉	-14.6189
湞	-14.6189
湩	-14.6189
濰	-14.6189
焬	-14.6189
璁	-14.6189
畟	-14.6189
疈	-14.6189
疪	-14.6189
痰	-14.6189
瘀	-14.6189
碪	-14.6189
碯	-14.6189
碼	-14.6189
秊	-14.6189
綫	-14.6189
胾	-14.6189
鸒	-14.6189
豉	-14.6189
謱	-14.619
謰	-14.6191
誹	-14.6192
㖄	-14.6193
㼀	-14.6193
詛	-14.6193
詈	-14.6194
觳	-14.6195
觫	-14.6196
㗤	-14.6197
㡞	-14.6197
㪯	-14.6197
㫤	-14.6197
㮏	-14.6197
䀨	-14.6197
䇔	-14.6197
䋶	-14.6197
䘹	-14.6197
䠶	-14.6197
䥫	-14.6197
䬯	-14.6197
伹	-14.6197
你	-14.6197
傚	-14.6197
儴	-14.6197
冿	-14.6197
劎	-14.6197
噑	-14.6197
圁	-14.6197
圩	-14.6197
垺	-14.6197
壉	-14.6197
娈	-14.6197
嫺	-14.6197
岓	-14.6197
嵪	-14.6197
嵳	-14.6197
帪	-14.6197
悤	-14.6197
惧	-14.6197
愡	-14.6197
懀	-14.6197
戛	-14.6197
拪	-14.6197
捈	-14.6197
捻	-14.6197
掫	-14.6197
揬	-14.6197
攉	-14.6197
斻	-14.6197
昫	-14.6197
朖	-14.6197
杫	-14.6197
栾	-14.6197
桯	-14.6197
桼	-14.6197
梃	-14.6197
椸	-14.6197
潕	-14.6197
灔	-14.6197
爠	-14.6197
牑	-14.6197
獝	-14.6197
痗	-14.6197
瘇	-14.6197
矖	-14.6197
磍	-14.6197
襵	-14.6197
裎	-14.6198
袷	-14.6199
袨	-14.62
袌	-14.6201
衲	-14.6202
衱	-14.6203
蠨	-14.6204
鄲	-14.6205
㦤	-14.6205
㬬	-14.6205
㳊	-14.6205
㵕	-14.6205
䃀	-14.6205
䐁	-14.6205
䘯	-14.6205
䘸	-14.6205
䮾	-14.6205
僇	-14.6205
僘	-14.6205
剓	-14.6205
哻	-14.6205
哿	-14.6205
噄	-14.6205
嚙	-14.6205
嚥	-14.6205
埻	-14.6205
埿	-14.6205
堲	-14.6205
墧	-14.6205
嬲	-14.6205
孛	-14.6205
懝	-14.6205
拷	-14.6205
掜	-14.6205
撡	-14.6205
攎	-14.6205
暏	-14.6205
曌	-14.6205
栧	-14.6205
毱	-14.6205
淲	-14.6205
溓	-14.6205
滆	-14.6205
漴	-14.6205
澓	-14.6205
炁	-14.6205
犗	-14.6205
甽	-14.6205
眃	-14.6205
眢	-14.6205
瞭	-14.6205
硣	-14.6205
磝	-14.6205
磟	-14.6205
蠛	-14.6205
蠙	-14.6206
蟆	-14.6207
蝦	-14.6208
蝟	-14.6209
蛺	-14.621
蛥	-14.6211
蛁	-14.6212
㔯	-14.6213
㔾	-14.6213
㟓	-14.6213
㟼	-14.6213
㠨	-14.6213
㦥	-14.6213
㧻	-14.6213
㯃	-14.6213
㾈	-14.6213
䁨	-14.6213
䄜	-14.6213
䈤	-14.6213
䖤	-14.6213
䙃	-14.6213
䬅	-14.6213
䳨	-14.6213
件	-14.6213
僆	-14.6213
刅	-14.6213
叀	-14.6213
啜	-14.6213
堛	-14.6213
媞	-14.6213
孿	-14.6213
寠	-14.6213
峪	-14.6213
帡	-14.6213
彋	-14.6213
恌	-14.6213
憋	-14.6213
掐	-14.6213
摴	-14.6213
敻	-14.6213
旓	-14.6213
樎	-14.6213
樲	-14.6213
樼	-14.6213
橢	-14.6213
欎	-14.6213
欑	-14.6213
涾	-14.6213
湃	-14.6213
漓	-14.6213
珶	-14.6213
瓽	-14.6213
疼	-14.6213
禛	-14.6213
籃	-14.6213
蘸	-14.6213
蕕	-14.6214
蕆	-14.6215
蔘	-14.6216
蔂	-14.6217
蓞	-14.6218
葽	-14.6219
菂	-14.622
㦒	-14.6221
㩁	-14.6221
䆁	-14.6221
䇲	-14.6221
䎗	-14.6221
䎵	-14.6221
仝	-14.6221
伇	-14.6221
傎	-14.6221
匊	-14.6221
匧	-14.6221
墡	-14.6221
墯	-14.6221
姸	-14.6221
婞	-14.6221
庀	-14.6221
悷	-14.6221
憣	-14.6221
栲	-14.6221
梀	-14.6221
梂	-14.6221
檂	-14.6221
欐	-14.6221
灮	-14.6221
疉	-14.6221
盰	-14.6221
簁	-14.6221
茰	-14.6221
芖	-14.6222
艒	-14.6223
臒	-14.6224
胔	-14.6225
罅	-14.6226
缽	-14.6227
逍	-14.6227
繿	-14.6228
㝅	-14.6229
㼵	-14.6229
䇣	-14.6229
䖆	-14.6229
䗔	-14.6229
䦘	-14.6229
䪻	-14.6229
与	-14.6229
仃	-14.6229
佴	-14.6229
吡	-14.6229
呦	-14.6229
呹	-14.6229
墦	-14.6229
孠	-14.6229
寍	-14.6229
屹	-14.6229
嵁	-14.6229
嵱	-14.6229
嵷	-14.6229
嶚	-14.6229
嶝	-14.6229
彏	-14.6229
很	-14.6229
忚	-14.6229
恫	-14.6229
惬	-14.6229
搪	-14.6229
摡	-14.6229
撍	-14.6229
斉	-14.6229
暓	-14.6229
樏	-14.6229
橊	-14.6229
歉	-14.6229
歯	-14.6229
殼	-14.6229
溏	-14.6229
瘉	-14.6229
皿	-14.6229
睃	-14.6229
磓	-14.6229
礱	-14.6229
蝮	-14.6229
綻	-14.6229
紝	-14.623
糶	-14.6231
粺	-14.6232
簵	-14.6233
簦	-14.6234
簔	-14.6235
簏	-14.6236
崙	-14.6237
燉	-14.6237
䈪	-14.6237
䋸	-14.6237
䙔	-14.6237
䡋	-14.6237
侻	-14.6237
傿	-14.6237
哆	-14.6237
喭	-14.6237
嘰	-14.6237
噞	-14.6237
圅	-14.6237
幭	-14.6237
悈	-14.6237
戁	-14.6237
拫	-14.6237
摟	-14.6237
旺	-14.6237
椵	-14.6237
泚	-14.6237
洨	-14.6237
湹	-14.6237
眕	-14.6237
眝	-14.6237
睱	-14.6237
篨	-14.6237
篣	-14.6238
箬	-14.6239
箝	-14.624
箖	-14.6241
筕	-14.6242
笯	-14.6243
笘	-14.6244
轘	-14.6245
㑶	-14.6245
㟎	-14.6245
㩒	-14.6245
㮪	-14.6245
㰞	-14.6245
㼴	-14.6245
䒀	-14.6245
䨥	-14.6245
䮽	-14.6245
䳏	-14.6245
䶆	-14.6245
伭	-14.6245
傖	-14.6245
嚇	-14.6245
埆	-14.6245
孅	-14.6245
峕	-14.6245
找	-14.6245
挌	-14.6245
捆	-14.6245
捼	-14.6245
攩	-14.6245
檵	-14.6245
涷	-14.6245
溤	-14.6245
溲	-14.6245
濈	-14.6245
瀐	-14.6245
焫	-14.6245
煗	-14.6245
熂	-14.6245
熸	-14.6245
猵	-14.6245
璖	-14.6245
皣	-14.6245
睩	-14.6245
矘	-14.6245
磈	-14.6245
秔	-14.6245
稺	-14.6245
稆	-14.6246
秺	-14.6247
秅	-14.6248
禕	-14.6249
礎	-14.625
硿	-14.6251
矉	-14.6252
瞤	-14.6253
㙻	-14.6253
㟭	-14.6253
㠑	-14.6253
㣿	-14.6253
㴵	-14.6253
㼰	-14.6253
㽄	-14.6253
㿽	-14.6253
䃕	-14.6253
䳕	-14.6253
䳫	-14.6253
伕	-14.6253
倓	-14.6253
傴	-14.6253
匽	-14.6253
厫	-14.6253
婿	-14.6253
嫓	-14.6253
嫜	-14.6253
巸	-14.6253
帟	-14.6253
[...]
