<unk>	0
<s>	0
</s>	0
之	-4.37539
/	-4.64063
(	-4.71516
以	-4.81097
)	-4.98369
為	-5.02199
者	-5.12821
其	-5.21629
於	-5.24419
一	-5.36305
而	-5.38017
有	-5.41485
人	-5.58739
不	-5.61319
也	-5.6958
至	-5.71109
官	-5.71523
及	-5.79156
三	-5.82888
)(	-5.86965
大	-5.87835
二	-5.89545
曰	-5.91643
上	-5.95692
州	-5.9841
行	-5.99624
等	-6.02182
王	-6.02261
中	-6.03074
則	-6.03467
各	-6.04129
自	-6.05878
所	-6.06046
用	-6.07167
無	-6.09008
/)	-6.14385
與	-6.15307
在	-6.17011
四	-6.19306
時	-6.19672
子	-6.20528
又	-6.21183
皆	-6.21206
文	-6.24459
▁	-6.24814
如	-6.26087
令	-6.26729
五	-6.27613
臣	-6.31437
後	-6.31989
事	-6.32203
同	-6.32424
入	-6.32477
内	-6.35191
出	-6.35787
下	-6.36792
正	-6.37245
名	-6.40348
明	-6.40675
縣	-6.41597
兵	-6.44802
定	-6.47035
天	-6.47577
今	-6.50984
前	-6.5101
設	-6.51196
日	-6.51469
凡	-6.51773
分	-6.51972
此	-6.52167
山	-6.53147
禮	-6.55339
六	-6.55569
本	-6.5665
奏	-6.5715
應	-6.57952
府	-6.58732
南	-6.59933
安	-6.59966
道	-6.60188
民	-6.60489
國	-6.60828
金	-6.61854
亦	-6.61948
長	-6.62
立	-6.62043
地	-6.62272
元	-6.63023
司	-6.63677
使	-6.63749
若	-6.6379
言	-6.64102
成	-6.6488
○	-6.65936
馬	-6.65992
門	-6.66384
軍	-6.66411
將	-6.67793
水	-6.68962
復	-6.6905
從	-6.6933
書	-6.6973
即	-6.69775
並	-6.7016
次	-6.70457
年	-6.70881
進	-6.71412
得	-6.71549
平	-6.7165
城	-6.72254
西	-6.73917
東	-6.74971
置	-6.76515
故	-6.76775
兩	-6.77574
公	-6.77626
重	-6.79518
于	-6.80843
多	-6.81393
當	-6.82595
命	-6.8273
或	-6.82873
見	-6.84313
外	-6.84313
初	-6.84783
加	-6.85012
河	-6.85733
經	-6.87238
法	-6.87313
請	-6.87916
作	-6.891
生	-6.89374
諸	-6.90367
乃	-6.90557
錢	-6.90941
非	-6.91194
通	-6.91287
石	-6.91706
已	-6.91894
服	-6.92608
合	-6.92835
九	-6.93342
武	-6.93465
數	-6.93466
徳	-6.93551
漢	-6.93587
是	-6.93849
實	-6.94027
八	-6.94903
樂	-6.95024
方	-6.95035
封	-6.9563
奉	-6.9607
相	-6.96718
俱	-6.97156
制	-6.97594
取	-6.9783
可	-6.9787
引	-6.98226
七	-7.01634
一人	-7.01776
給	-7.01872
屬	-7.03464
由	-7.03468
北	-7.03793
因	-7.04313
主	-7.04941
十	-7.05263
帝	-7.05278
祭	-7.05535
興	-7.05615
先	-7.05706
氏	-7.05785
小	-7.06932
陳	-7.06984
朝	-7.08793
每	-7.09221
議	-7.09694
皇帝	-7.10644
矣	-7.1107
宫	-7.11109
未	-7.1165
知	-7.11716
周	-7.11839
字	-7.13223
位	-7.13391
省	-7.13395
改	-7.13433
神	-7.13522
家	-7.13591
仍	-7.14489
黄	-7.14826
海	-7.1604
始	-7.16157
和	-7.16297
既	-7.1635
開	-7.16731
銀	-7.17402
宗	-7.17497
謂	-7.1779
稱	-7.17792
親	-7.17819
云	-7.17925
詔	-7.18408
宜	-7.18844
降	-7.20058
傳	-7.20189
舉	-7.20264
惟	-7.20698
清	-7.21562
餘	-7.21787
考	-7.21929
右	-7.22212
營	-7.22253
陽	-7.22375
任	-7.23231
世	-7.23282
布	-7.23284
髙	-7.23786
郡	-7.2381
白	-7.24
授	-7.24047
升	-7.25079
受	-7.25086
龍	-7.25123
發	-7.25352
張	-7.25436
原	-7.25947
新	-7.25975
部	-7.26508
處	-7.26827
例	-7.26861
廣	-7.27054
路	-7.272
宋	-7.28522
古	-7.28567
爾	-7.28631
廟	-7.28721
常	-7.28723
然	-7.29009
除	-7.2927
理	-7.29493
建	-7.29844
唐	-7.3086
三年	-7.31671
儀	-7.31853
月	-7.32344
齊	-7.33231
食	-7.33789
聖	-7.34172
守	-7.3432
以下	-7.34573
遂	-7.34628
來	-7.34644
賜	-7.34715
學	-7.34945
旗	-7.35025
按	-7.35481
圖	-7.35557
田	-7.36091
均	-7.36116
舊	-7.36322
共	-7.36669
衛	-7.3685
義	-7.36867
歸	-7.37072
師	-7.37168
永	-7.37423
隨	-7.37854
度	-7.38211
何	-7.38547
止	-7.38823
著	-7.392
都	-7.39219
士	-7.39908
心	-7.39924
居	-7.40124
木	-7.40322
必	-7.40325
李	-7.40386
坐	-7.40494
殿	-7.40773
治	-7.40886
領	-7.41314
照	-7.41445
車	-7.41663
間	-7.41718
祀	-7.41845
工	-7.41873
詣	-7.42431
流	-7.42564
二人	-7.42624
嵗	-7.42901
節	-7.43358
左	-7.43499
夫	-7.44322
載	-7.4488
光	-7.45387
集	-7.46178
率	-7.46216
物	-7.46425
具	-7.47065
承	-7.47143
律	-7.47301
玉	-7.47372
監	-7.47659
以上	-7.47816
執	-7.4785
直	-7.48041
起	-7.48104
星	-7.4813
户	-7.48278
納	-7.48595
色	-7.4866
管理	-7.48676
掌	-7.48756
備	-7.48981
江	-7.48995
焉	-7.49179
尚	-7.492
雖	-7.49437
土	-7.49831
犯	-7.50246
運	-7.50252
御	-7.50642
萬	-7.50728
雲	-7.50744
逺	-7.50757
易	-7.51063
額	-7.51317
里	-7.51622
首	-7.51761
少	-7.51927
告	-7.52095
口	-7.52112
米	-7.52592
特	-7.52867
還	-7.52899
更	-7.53261
鎮	-7.53286
陵	-7.53404
百	-7.53535
修	-7.54324
去	-7.54472
收	-7.54722
章	-7.5476
聲	-7.548
兼	-7.5482
獻	-7.54834
過	-7.55
克	-7.55779
依	-7.55811
宣	-7.56344
拜	-7.56435
計	-7.56478
罪	-7.56584
代	-7.56761
案	-7.56972
春	-7.56973
㑹	-7.57037
班	-7.57535
朕	-7.57578
庫	-7.57668
詩	-7.57862
将	-7.58093
衆	-7.58102
左右	-7.58226
别	-7.58396
寧	-7.58663
二年	-7.58792
慶	-7.58993
功	-7.59073
論	-7.59103
送	-7.5944
風	-7.59712
交	-7.60097
欲	-7.6054
補	-7.60574
青	-7.60629
列	-7.61256
政	-7.61346
死	-7.61379
科	-7.61404
太	-7.61453
佐領	-7.62255
昭	-7.62404
侯	-7.62626
免	-7.62738
祖	-7.63156
善	-7.63381
管	-7.63387
恩	-7.63462
志	-7.63482
衣	-7.63871
并	-7.64101
尊	-7.64356
盡	-7.64887
差	-7.65176
乎	-7.6519
酒	-7.66081
皇	-7.66332
君	-7.66426
遣	-7.66485
撰	-7.66636
聞	-7.66685
保	-7.6702
以為	-7.67023
近	-7.67659
恭	-7.68115
能	-7.68196
典	-7.68438
阿	-7.68736
夏	-7.68757
報	-7.68963
音	-7.70039
福	-7.70124
失	-7.7092
深	-7.70922
且	-7.70984
室	-7.71052
問	-7.71408
晉	-7.72275
禁	-7.72369
天下	-7.72486
畢	-7.72659
爵	-7.73045
選	-7.73647
訖	-7.73796
紀	-7.73796
之妻	-7.73803
史	-7.74011
務	-7.74068
就	-7.74198
卷	-7.74289
鹽	-7.74374
賊	-7.74537
五年	-7.7462
造	-7.74659
表	-7.74775
職	-7.74932
糧	-7.75326
異	-7.75546
諭	-7.76066
孝	-7.7633
解	-7.7658
林	-7.76715
思	-7.76739
寳	-7.77268
視	-7.77299
利	-7.77312
卒	-7.7771
倉	-7.77902
仁	-7.78095
皇后	-7.78251
役	-7.78311
不得	-7.7836
元年	-7.78529
角	-7.78618
詳	-7.78798
致	-7.794
觀	-7.79429
房	-7.80341
堂	-7.80633
全	-7.80926
徴	-7.81287
梁	-7.81471
不能	-7.81612
再	-7.81658
廢	-7.81686
號	-7.81973
四年	-7.82018
吏	-7.82256
力	-7.82308
銅	-7.82416
臨	-7.82625
甚	-7.82814
減	-7.8286
増	-7.82882
壇	-7.82892
順	-7.82991
據	-7.83178
身	-7.83285
頭	-7.83289
襲	-7.83944
但	-7.83994
鼓	-7.84458
敬	-7.84524
充	-7.85252
望	-7.85614
達	-7.85859
華	-7.85884
意	-7.86485
地方	-7.86556
勒	-7.86578
折	-7.86883
商	-7.8694
闗	-7.87713
劉	-7.88171
退	-7.88235
私	-7.88596
附	-7.88641
羅	-7.88777
女	-7.88883
朱	-7.88962
孫	-7.88975
察	-7.8932
員	-7.89873
帶	-7.90029
丁	-7.90299
難	-7.90401
調	-7.90477
存	-7.9053
濟	-7.90677
教	-7.90698
六年	-7.90857
許	-7.9135
花	-7.91497
泰	-7.91604
氣	-7.9172
限	-7.91824
化	-7.91907
籍	-7.9206
我	-7.92138
闕	-7.92215
求	-7.92226
州縣	-7.92362
貢	-7.92689
父	-7.92789
冊	-7.92959
固	-7.92961
格	-7.93294
嘉	-7.93358
副	-7.9409
伯	-7.94412
十二	-7.9469
臺	-7.9476
景	-7.94975
不可	-7.95505
將軍	-7.95628
崇	-7.95738
火	-7.95903
支	-7.96224
船	-7.96435
刑	-7.96523
登	-7.96623
印	-7.96711
邊	-7.96786
魏	-7.96797
留	-7.9697
查	-7.97074
益	-7.97074
京	-7.97139
靈	-7.97148
半	-7.97399
序	-7.97588
贊	-7.97745
條	-7.97777
德	-7.97798
往	-7.98029
情	-7.98258
昌	-7.98751
誠	-7.98987
祝	-7.99316
編	-7.99698
追	-8.00058
該	-8.00227
鄉	-8.00723
悉	-8.01286
郎	-8.01311
比	-8.01464
象	-8.01628
轉	-8.01728
紅	-8.0195
移	-8.02087
統	-8.02136
猶	-8.02606
反	-8.02764
記	-8.03164
嚴	-8.0337
殺	-8.0344
遇	-8.03784
試	-8.0408
體	-8.04095
注	-8.04311
夀	-8.04312
勅	-8.04392
咸	-8.04718
秦	-8.04725
總	-8.04826
冠	-8.0499
二十	-8.05197
雜	-8.05278
信	-8.0583
院	-8.05845
吉	-8.05954
甲	-8.06074
祠	-8.06432
積	-8.06434
秋	-8.06453
係	-8.06726
忠	-8.07125
滿	-8.07173
配	-8.07178
七年	-8.07199
遷	-8.07292
變	-8.07436
母	-8.07632
/)(	-8.07699
業	-8.07883
巴	-8.0798
延	-8.08086
罷	-8.08114
便	-8.08214
録	-8.08291
卿	-8.08888
曲	-8.08922
大臣	-8.09084
騎	-8.09116
牛	-8.09127
要	-8.09135
厚	-8.09256
征	-8.09357
有司	-8.0939
被	-8.09492
舞	-8.09492
題	-8.09852
向	-8.09991
歌	-8.10151
申	-8.10532
毎	-8.10711
端	-8.11075
赴	-8.11135
期	-8.1119
宿	-8.11368
准	-8.118
連	-8.11992
趙	-8.12013
器	-8.12077
良	-8.12123
類	-8.12284
養	-8.12389
對	-8.12467
斯	-8.12691
十月	-8.12835
雨	-8.12978
戰	-8.13127
跪	-8.13171
足	-8.13573
簡	-8.13782
香	-8.14327
席	-8.14431
署	-8.15195
耳	-8.15627
草	-8.15779
川	-8.15972
極	-8.16006
天子	-8.16103
貴	-8.16206
高	-8.16447
庶	-8.16469
盛	-8.16552
放	-8.16696
穆	-8.16792
越	-8.16943
蓋	-8.16952
千	-8.17105
寶	-8.17244
終	-8.17642
之人	-8.1774
到	-8.1819
門外	-8.1843
射	-8.18478
價	-8.18767
老	-8.18855
楊	-8.18913
豐	-8.18995
施	-8.19086
主人	-8.19176
隆	-8.19375
審	-8.19484
太祖	-8.19637
擬	-8.19702
輕	-8.19713
面	-8.19773
八年	-8.19892
八旗	-8.19991
富	-8.20074
澤	-8.20137
貫	-8.20159
疏	-8.2021
接	-8.20343
散	-8.21056
徒	-8.21248
尚書	-8.21322
供	-8.2154
爲	-8.21556
辭	-8.21865
羣	-8.2204
藏	-8.22047
精	-8.22112
九月	-8.22127
嗣	-8.22167
種	-8.22177
寺	-8.22492
久	-8.22546
后	-8.22664
六月	-8.22813
賦	-8.2287
七月	-8.22989
十二月	-8.23086
回	-8.23142
式	-8.23306
禮部	-8.23309
辦	-8.23534
蘇	-8.24194
屯	-8.24279
容	-8.2439
習	-8.24445
從之	-8.245
奠	-8.24544
錫	-8.24608
八月	-8.24658
伊	-8.24676
資	-8.24719
四人	-8.24792
孔	-8.24874
𨽻	-8.24876
十一月	-8.24917
所以	-8.24989
手	-8.25373
駕	-8.25771
恐	-8.26079
酌	-8.2627
御史	-8.26271
茶	-8.26349
頃	-8.26718
魯	-8.26731
薦	-8.26786
增	-8.26878
扵	-8.26879
鄭	-8.2697
座	-8.27506
垂	-8.27583
冬	-8.27702
享	-8.27822
迎	-8.2793
界	-8.2813
委	-8.28338
推	-8.28339
楚	-8.28432
五月	-8.28635
之後	-8.29148
賔	-8.29206
亡	-8.29308
末	-8.29339
莫	-8.29372
沙	-8.29464
候	-8.29517
威	-8.29694
謂之	-8.29865
素	-8.3015
協	-8.3028
量	-8.30455
九年	-8.30537
勝	-8.30758
結	-8.30781
赤	-8.30804
革	-8.30865
羽	-8.30921
盖	-8.31201
獲	-8.31306
䝉古	-8.31364
目	-8.31458
市	-8.31539
買	-8.31932
曹	-8.31967
博	-8.32163
賞	-8.32192
伏	-8.32289
册	-8.32292
局	-8.32425
賢	-8.32602
而不	-8.32729
撥	-8.32816
三月	-8.32823
肅	-8.33343
五十	-8.33792
滿洲	-8.34041
来	-8.34139
大夫	-8.3425
動	-8.34534
鈔	-8.34563
獨	-8.34654
盤	-8.34898
三十	-8.3497
親王	-8.35125
某	-8.3553
哈	-8.35555
皇太子	-8.35715
族	-8.35816
泉	-8.35837
權	-8.35908
厯	-8.3625
烏	-8.36441
繼	-8.36726
裁	-8.36834
東西	-8.36863
真	-8.37086
稍	-8.37254
品	-8.37314
康	-8.37396
尋	-8.37401
祥	-8.37536
燕	-8.37539
刻	-8.38124
春秋	-8.38417
語	-8.38671
説	-8.39063
遺	-8.3924
湖	-8.39287
指	-8.3932
覆	-8.39789
税	-8.39866
絶	-8.39991
諡	-8.4004
朔	-8.40041
官員	-8.40097
嗣後	-8.4032
幸	-8.40557
四月	-8.40624
階	-8.40786
謹	-8.40787
牲	-8.40846
校	-8.41021
攻	-8.41148
再拜	-8.4117
繫	-8.41241
歲	-8.41272
虞	-8.4201
兹	-8.4206
十年	-8.42208
邑	-8.42215
費	-8.42258
行禮	-8.42436
隋	-8.42567
約	-8.42748
等處	-8.42884
之制	-8.42972
兮	-8.42995
珠	-8.43207
内外	-8.43221
江南	-8.4333
河南	-8.43714
徐	-8.43766
雅	-8.43843
讀	-8.43982
乾	-8.44031
徵	-8.44093
參	-8.44169
須	-8.44283
勤	-8.44369
斷	-8.44445
戸	-8.44474
漢軍	-8.44485
等謹按	-8.44486
莊	-8.44805
吳	-8.44912
果	-8.44925
㫖	-8.44965
圍	-8.44977
亂	-8.45094
仰	-8.45155
擊	-8.4517
篇	-8.45251
胡	-8.45603
牧	-8.45724
郊	-8.45866
予	-8.45926
嘗	-8.46155
傷	-8.46172
亭	-8.46236
贈	-8.46324
妃	-8.46483
瑞	-8.46546
隊	-8.46577
太子	-8.46685
山東	-8.46728
課	-8.46981
尺	-8.47107
符	-8.47163
畫	-8.47169
禄	-8.4725
關	-8.47787
進士	-8.47902
寛	-8.47969
隂	-8.48256
好	-8.48303
為之	-8.48378
俸	-8.48605
敵	-8.48649
項	-8.48704
欽	-8.48758
豈	-8.48866
源	-8.48951
康熙	-8.49024
諸侯	-8.49083
聽	-8.49126
惠	-8.49205
喪	-8.49247
陞	-8.49642
盜	-8.49741
他	-8.49766
閣	-8.49769
徑	-8.49835
農	-8.49995
御製	-8.50106
撫	-8.50982
改為	-8.51035
奏請	-8.51038
姓	-8.51158
各一人	-8.51315
第	-8.51327
葢	-8.51491
賣	-8.51513
衞	-8.51573
夜	-8.51723
疑	-8.51762
使者	-8.5188
幣	-8.51918
社	-8.51974
維	-8.52011
謀	-8.52053
位於	-8.5211
輿	-8.52125
詞	-8.52176
之例	-8.52183
乗	-8.52445
允	-8.52681
柱	-8.52846
哉	-8.52918
侍	-8.52953
切	-8.53101
勞	-8.53306
三人	-8.53466
飾	-8.53487
丞	-8.53757
累	-8.5381
樂止	-8.53886
鑄	-8.54073
遵	-8.54085
逆	-8.54542
斬	-8.54574
顯	-8.55082
帥	-8.55554
弟	-8.55671
息	-8.55672
二百	-8.55746
之事	-8.55765
寜	-8.56165
拉	-8.56608
駐	-8.57054
才	-8.57113
齋	-8.57163
斗	-8.57184
竹	-8.57217
持	-8.57368
輸	-8.57382
立於	-8.57494
於是	-8.57567
講	-8.57752
英	-8.57801
優	-8.57867
繡	-8.57972
太廟	-8.57978
害	-8.58
哭	-8.58491
塞	-8.58525
竒	-8.5853
停	-8.58792
督	-8.58912
誤	-8.58992
紫	-8.59053
季	-8.59057
故以	-8.59103
仲	-8.59234
敗	-8.5926
俗	-8.59312
念	-8.59381
池	-8.59448
派	-8.59604
遼	-8.5966
副都統	-8.59703
杖	-8.59783
願	-8.59854
十三年	-8.60084
呼	-8.60122
蘭	-8.60285
驛	-8.6044
揚	-8.60443
畧	-8.60467
以來	-8.60728
場	-8.60751
郭	-8.6084
駐劄	-8.60851
乘	-8.60941
懐	-8.61166
缺	-8.6126
帛	-8.61421
俟	-8.6147
辰	-8.61549
十一年	-8.61589
破	-8.61877
妻	-8.61889
防	-8.61971
儒	-8.61986
乞	-8.62045
强	-8.62097
丈	-8.62106
惡	-8.62769
仗	-8.62834
豆	-8.63021
夷	-8.63034
倍	-8.63043
閲	-8.63046
叅	-8.63073
錢糧	-8.63164
浙江	-8.63323
淮	-8.63326
其後	-8.63428
館	-8.6344
都統	-8.63616
準	-8.63674
占	-8.63781
大學士	-8.63797
一百	-8.64099
召	-8.64208
榖	-8.64208
羊	-8.64222
遣使	-8.64277
境	-8.64309
示	-8.64486
庭	-8.64504
四川	-8.64607
專	-8.64749
巡撫	-8.64774
六十	-8.64792
魚	-8.6498
責	-8.65147
婦	-8.65159
殊	-8.65247
将軍	-8.65306
各省	-8.65311
假	-8.65502
畝	-8.65572
絲	-8.6559
之禮	-8.65695
賛	-8.65705
頂	-8.65727
勢	-8.65826
洪	-8.65831
百官	-8.65932
獄	-8.65961
陜西	-8.65964
喜	-8.66779
乾隆	-8.66845
韓	-8.66907
殷	-8.67115
三分	-8.6715
至於	-8.67265
之處	-8.67277
訓	-8.67364
葉	-8.67382
吾	-8.67477
子孫	-8.67493
四十	-8.67736
彼	-8.67776
築	-8.67806
完	-8.67985
横	-8.68263
適	-8.68431
姦	-8.68548
形	-8.68578
樓	-8.68634
所屬	-8.6876
太宗	-8.69125
直𨽻	-8.69225
程	-8.69258
昔	-8.6933
文武	-8.6939
各一	-8.69394
公主	-8.69406
䕶	-8.69485
井	-8.69521
熟	-8.69531
皇上	-8.69544
顧	-8.69748
十五	-8.69781
所謂	-8.69784
野	-8.69803
榮	-8.69913
辦理	-8.70042
京師	-8.70138
壽	-8.70224
皮	-8.70438
如有	-8.70503
離	-8.70533
橋	-8.70765
什	-8.70771
饌	-8.70814
産	-8.70842
之法	-8.70846
三等	-8.70873
丹	-8.71037
最	-8.71127
督撫	-8.71167
耕	-8.7119
户部	-8.71217
靖	-8.71471
䕶軍	-8.71726
吏部	-8.71726
一分	-8.71799
導	-8.7197
福建	-8.72003
空	-8.72043
宮	-8.7205
皇太后	-8.72053
豫	-8.72335
鐵	-8.72355
釋	-8.72416
罰	-8.72437
十二年	-8.72478
休	-8.72846
薨	-8.73007
匹	-8.73077
捕	-8.7315
園	-8.73218
版	-8.73311
啟	-8.73439
倫	-8.73807
眀	-8.73825
歴	-8.73899
佐	-8.73942
一等	-8.73981
塔	-8.74052
尤	-8.7409
漸	-8.74277
筆帖式	-8.74524
質	-8.75056
舍	-8.75197
財	-8.75259
病	-8.7533
招	-8.754
揖	-8.75451
勘	-8.75631
衡	-8.75868
旁	-8.75985
勲	-8.76034
賑	-8.76172
較	-8.76221
翼	-8.76305
賓	-8.76363
美	-8.76409
邉	-8.76449
等官	-8.7649
宴	-8.76536
州府	-8.7669
謝	-8.7687
一卷	-8.76906
飛	-8.76906
俾	-8.76938
兵丁	-8.77019
借	-8.77047
粟	-8.77232
三百	-8.77319
不許	-8.77543
郎中	-8.77565
姑	-8.77575
銜	-8.77708
者皆	-8.77711
照例	-8.77731
懸	-8.77759
孟	-8.77789
侍衛	-8.77829
縱	-8.77862
躬	-8.78075
東南	-8.78213
斤	-8.7822
巡	-8.78387
頒	-8.78404
赦	-8.78445
索	-8.78586
葬	-8.78623
穀	-8.78672
稅	-8.78962
之地	-8.79004
十一	-8.79167
杜	-8.79256
侍中	-8.79336
虎	-8.79475
十三	-8.79535
兵部	-8.7955
違	-8.79662
領催	-8.79727
預	-8.80103
𫝊	-8.80105
雲南	-8.80146
待	-8.80224
識	-8.80269
展	-8.80534
步	-8.80828
咨	-8.80871
舒	-8.80927
是以	-8.80943
呈	-8.81007
會	-8.81012
災	-8.81332
歳	-8.81536
黒	-8.81631
敢	-8.81645
可以	-8.81648
屢	-8.81667
而已	-8.81679
提	-8.81679
虚	-8.817
廷	-8.81817
愛	-8.81889
不知	-8.82314
二月	-8.82429
郡王	-8.82465
驗	-8.82492
其餘	-8.82614
之子	-8.82694
刑部	-8.8272
佛	-8.8283
聴	-8.82835
繁	-8.82847
陛	-8.82854
鳴	-8.82908
細	-8.82947
西南	-8.82966
唯	-8.82976
五分	-8.8314
江西	-8.83216
十六	-8.83233
温	-8.83401
距	-8.83549
宗室	-8.83618
鳯	-8.83857
憲	-8.83907
第一	-8.83918
竊	-8.84023
各官	-8.84041
偽	-8.84195
衙門	-8.84264
侍郎	-8.84329
分别	-8.84498
之數	-8.84638
二等	-8.84705
曽	-8.84741
錦	-8.84896
慎	-8.84937
續	-8.85034
句	-8.85077
似	-8.85166
樹	-8.85301
雍	-8.85328
十五年	-8.85474
算	-8.85479
戒	-8.85516
夾	-8.85518
單	-8.85642
租	-8.85799
十四年	-8.861
急	-8.86281
坊	-8.86406
荒	-8.86416
根	-8.86449
輪	-8.86595
抵	-8.86724
一名	-8.86793
尉	-8.8691
逐	-8.87035
絹	-8.87066
至元	-8.87125
疾	-8.8713
旱	-8.87193
狀	-8.87235
縁	-8.87241
普	-8.87305
旋	-8.87327
循	-8.8746
松	-8.87476
慈	-8.87551
一日	-8.87606
決	-8.87791
一員	-8.87839
樂作	-8.88014
䝉	-8.88182
總督	-8.88401
采	-8.88472
溪	-8.8861
决	-8.88735
之所	-8.88746
陸	-8.8886
之時	-8.88879
雙	-8.88965
専	-8.89073
料	-8.8914
以後	-8.89319
奉㫖	-8.89395
勿	-8.89589
併	-8.896
述	-8.89637
渠	-8.8974
舟	-8.89895
蜀	-8.89924
熙	-8.89941
振	-8.90103
戎	-8.90163
襄	-8.90258
喇	-8.90297
卜	-8.90308
銷	-8.90353
捧	-8.90431
至是	-8.90959
輅	-8.91008
徹	-8.9123
黎	-8.9124
人等	-8.91276
疋	-8.91492
鼎	-8.91598
稽	-8.91653
付	-8.91741
太尉	-8.91907
黨	-8.9209
西北	-8.92102
䇿	-8.92288
夫人	-8.92324
宇	-8.92376
損	-8.92493
環	-8.9267
段	-8.92833
聚	-8.92878
輦	-8.92905
議準	-8.93037
呉	-8.93147
山西	-8.93395
具奏	-8.93561
百姓	-8.9404
凖	-8.9404
檢	-8.94217
考試	-8.9436
囚	-8.94448
侵	-8.94606
盛京	-8.94787
毆	-8.94941
是年	-8.95021
絃	-8.95376
鄂	-8.95378
叔	-8.95423
五百	-8.95584
賀	-8.95647
純	-8.95664
零	-8.9573
微	-8.95743
弊	-8.95873
伐	-8.95878
駐防	-8.9597
哀	-8.9614
八十	-8.9615
七十	-8.96186
烈	-8.96227
三日	-8.9623
不及	-8.96264
叙	-8.96296
巾	-8.9634
祗	-8.96379
者也	-8.96384
欽定四庫全書	-8.96436
助	-8.96553
歩	-8.9656
壩	-8.96716
父母	-8.96781
機	-8.96818
底	-8.96864
薄	-8.96903
圓	-8.96918
標	-8.97026
頌	-8.97051
奪	-8.97103
東北	-8.97253
逹	-8.97289
以次	-8.97454
又有	-8.97477
塲	-8.97615
上下	-8.97663
屋	-8.97843
羣臣	-8.97916
汝	-8.97967
苑	-8.98013
秩	-8.98043
毁	-8.98055
一年	-8.98068
曾	-8.98119
减	-8.98328
廣東	-8.98331
落	-8.98392
遣官	-8.98418
牌	-8.98424
十六年	-8.98435
性	-8.98507
十四	-8.98553
所有	-8.98571
毛	-8.98607
勇	-8.98652
博士	-8.98675
避	-8.98744
戴	-8.98811
乆	-8.98861
逃	-8.99095
恒	-8.99161
那	-8.99284
廵	-8.99304
之意	-8.99317
不同	-8.99325
攝	-8.99457
盗	-8.99595
辨	-8.99732
在京	-8.99743
感	-8.99818
不敢	-8.99833
陛下	-8.99857
五人	-8.99895
棄	-8.99916
輔	-8.99929
鍾	-8.99945
徙	-9.00061
徃	-9.00113
囘	-9.00263
吕	-9.00276
為一	-9.0038
頗	-9.00452
不足	-9.00475
官兵	-9.00594
叛	-9.00769
者亦	-9.00806
十七年	-9.00838
每年	-9.00961
太常	-9.0119
𢎞	-9.01218
尾	-9.01379
先是	-9.01478
湖廣	-9.01481
八人	-9.01605
貯	-9.01776
雷	-9.01929
浮	-9.01974
天地	-9.01993
朝廷	-9.02157
人員	-9.02171
寨	-9.02191
干	-9.02192
况	-9.02329
瞻	-9.02375
顔	-9.02415
鐘	-9.02681
幾	-9.02797
鳳	-9.02868
擇	-9.02892
北向	-9.03048
第二	-9.03086
贓	-9.03103
茂	-9.03453
級	-9.03461
桑	-9.03461
誅	-9.03502
饑	-9.03555
麥	-9.036
採	-9.03769
之外	-9.03786
負	-9.03948
如此	-9.03954
驍騎	-9.04152
判	-9.04249
貨	-9.04281
國家	-9.04345
㕘	-9.04352
客	-9.04357
直省	-9.04357
紹興	-9.04394
製	-9.04403
貞	-9.04425
總管	-9.0444
援	-9.04459
収	-9.04609
㕔	-9.04664
滅	-9.04757
偏	-9.05004
二分	-9.05013
勸	-9.0503
救	-9.0509
𤣥	-9.05094
貧	-9.05258
藩	-9.05293
䘮	-9.05374
履	-9.0542
宏	-9.05429
畨	-9.05466
堡	-9.0547
厰	-9.05497
武帝	-9.05525
宗廟	-9.05567
添	-9.05704
然後	-9.05724
早	-9.05741
致祭	-9.05751
弓	-9.05834
九十	-9.05886
窮	-9.05918
大小	-9.06217
皇子	-9.06224
驍騎校	-9.06232
仙	-9.06274
祈	-9.06289
錄	-9.06321
三品	-9.06329
前後	-9.06599
綱	-9.06939
太祝	-9.07076
謁	-9.07137
洪武	-9.07156
俎	-9.07173
岳	-9.07185
提督	-9.07214
之日	-9.07317
太平	-9.07395
不過	-9.07651
敦	-9.07695
漕	-9.07732
綿	-9.07767
扇	-9.07794
贖	-9.0794
十八年	-9.07985
西向	-9.07986
工部	-9.08042
不必	-9.08213
毋	-9.08377
四分	-9.0848
二十四	-9.08615
懿	-9.08746
宻	-9.08764
飲	-9.08913
背	-9.09076
唱	-9.09095
雄	-9.09113
韻	-9.09118
丞相	-9.09313
范	-9.0933
津	-9.09345
諸王	-9.09442
介	-9.09502
敏	-9.09517
順治	-9.09539
赫	-9.09584
副使	-9.09662
牙	-9.09676
說	-9.09794
貝勒	-9.09853
苦	-9.09858
饗	-9.09869
㑹同	-9.09946
刀	-9.10016
慮	-9.10196
兆	-9.10272
南向	-9.10285
傅	-9.10407
篚	-9.10443
堯	-9.10472
子弟	-9.10479
蔡	-9.10625
嘉靖	-9.1073
僧	-9.1076
速	-9.10804
初獻	-9.10887
湯	-9.11005
太常寺	-9.11169
規	-9.11276
十人	-9.11428
刺史	-9.11495
聖祖仁皇帝	-9.11528
弗	-9.11589
蕭	-9.117
地方官	-9.11815
主事	-9.11868
陣	-9.11896
南京	-9.12097
南北	-9.12138
都司	-9.12141
斛	-9.12175
恵	-9.12205
筆	-9.12313
題準	-9.1239
沈	-9.12491
討	-9.12574
敕	-9.12608
之南	-9.1279
彌	-9.12808
袍	-9.12914
辟	-9.12934
邦	-9.12935
露	-9.13018
鴻	-9.13095
之類	-9.13128
滋	-9.13265
妄	-9.13468
黑	-9.13504
希	-9.13513
六人	-9.13666
崩	-9.13829
欽此	-9.13912
材	-9.13979
員外郎	-9.1402
洛	-9.14123
兄弟	-9.14168
尼	-9.14238
薩	-9.14285
祭祀	-9.14289
寒	-9.14317
汛	-9.14326
板	-9.14409
塘	-9.14449
一次	-9.1451
洞	-9.14615
八分	-9.14793
随	-9.1486
儲	-9.15052
禮畢	-9.15241
欠	-9.15404
屯田	-9.15669
罇	-9.15743
麟	-9.15958
敷	-9.15999
註	-9.16223
之儀	-9.16314
革職	-9.16347
遲	-9.16353
一體	-9.16454
佳	-9.16636
官吏	-9.16734
前鋒	-9.16776
司馬	-9.16952
寢	-9.17056
密	-9.172
墨	-9.17423
歡	-9.17438
紹	-9.17512
畆	-9.17529
學士	-9.17534
之間	-9.17721
裕	-9.17743
復位	-9.17907
懷	-9.17946
不行	-9.17952
男	-9.18047
村	-9.18132
舉人	-9.1817
谷	-9.18294
竟	-9.18304
日月	-9.18348
藥	-9.18396
濫	-9.18397
綬	-9.18512
盧	-9.18614
其所	-9.18637
三千	-9.18679
庸	-9.18701
患	-9.1871
究	-9.18723
是也	-9.18728
尸	-9.18797
蒼	-9.18849
未有	-9.18906
尹	-9.19008
住	-9.191
執事	-9.19118
蠻	-9.19131
開元	-9.19287
陶	-9.193
者以	-9.19446
出入	-9.1945
鹿	-9.19591
十八	-9.19726
六分	-9.19729
甘	-9.19783
趨	-9.19792
八百	-9.19883
厥	-9.19966
明堂	-9.19979
僅	-9.19995
馬甲	-9.20076
束	-9.20246
壁	-9.20261
王公	-9.20287
略	-9.20295
故事	-9.20451
番	-9.20593
堅	-9.21001
中書	-9.21091
佩	-9.21108
觧	-9.21164
震	-9.21202
乙	-9.21333
覺	-9.21396
啓	-9.21419
㸃	-9.21467
於此	-9.21513
筵	-9.21633
蒙古	-9.21638
瓦	-9.21722
執事者	-9.21924
看	-9.2207
陳設	-9.22151
同知	-9.2219
盈	-9.22315
冕	-9.22496
二千	-9.22502
隠	-9.22504
投	-9.22505
騰	-9.22534
秀	-9.22545
挑	-9.22608
第三	-9.22723
紙	-9.22735
禹	-9.22875
嶽	-9.22889
二十五	-9.22925
裏	-9.23064
遞	-9.23211
東向	-9.2326
憂	-9.23271
實以	-9.23631
效	-9.23757
蕃	-9.23762
麗	-9.23862
廣西	-9.23976
遊	-9.24028
十七	-9.24035
六品	-9.24063
術	-9.24092
肉	-9.24099
周禮	-9.24174
擅	-9.24269
走	-9.24304
醫	-9.24366
所司	-9.2437
溝	-9.24542
董	-9.24636
社稷	-9.24725
糴	-9.24757
岱	-9.24931
黃	-9.24971
用之	-9.25295
擾	-9.2535
繪	-9.25565
嶺	-9.25609
正月	-9.25624
策	-9.25635
民間	-9.25707
有竒	-9.25722
徽	-9.25746
緑	-9.25894
國公	-9.2596
帳	-9.25979
核	-9.26005
奏準	-9.26116
育	-9.26167
箭	-9.26229
一品	-9.26295
愚	-9.26321
以備	-9.26457
邪	-9.26458
奔	-9.2648
七分	-9.26516
無所	-9.26527
生員	-9.26527
萬厯	-9.26548
綏	-9.26587
藍	-9.26653
都督	-9.26882
匠	-9.26979
勾	-9.26992
波	-9.27043
險	-9.2705
垣	-9.27058
覆準	-9.27147
擢	-9.27254
閒散	-9.27524
扎	-9.27662
属	-9.27708
整	-9.27881
覽	-9.28212
黄鍾	-9.28422
漏	-9.28529
朝服	-9.28557
麻	-9.2858
渡	-9.28657
而後	-9.28755
冒	-9.28845
堪	-9.28911
▁(	-9.2917
却	-9.29181
竢	-9.2926
以上者	-9.29431
區	-9.29442
亦如之	-9.29476
宰	-9.29499
濶	-9.29604
永樂	-9.29618
陪	-9.2966
翟	-9.29692
藝	-9.29835
圗	-9.29937
停止	-9.29944
排	-9.29961
□	-9.30037
明年	-9.30048
戍	-9.3009
礮	-9.30108
夕	-9.30117
釐	-9.30322
基	-9.30378
行事	-9.30389
治罪	-9.30439
大將軍	-9.30484
瑪	-9.30891
璧	-9.30933
孔子	-9.31053
矢	-9.31102
詐	-9.31196
押	-9.31242
各處	-9.31274
肆	-9.31493
司徒	-9.31605
閏	-9.31658
稷	-9.31756
韋	-9.31775
校尉	-9.31795
操	-9.32009
之義	-9.32107
皆有	-9.32108
洗	-9.32194
荆	-9.32199
漆	-9.32228
街	-9.32405
衰	-9.32444
兄	-9.32464
之道	-9.32471
之東	-9.32643
荘	-9.32768
二名	-9.3281
婦人	-9.32894
一切	-9.32908
創	-9.33031
賈	-9.33109
否	-9.33184
訪	-9.33285
騐	-9.33295
二縣	-9.33428
纂	-9.33504
兒	-9.33536
等項	-9.33537
圭	-9.33814
其地	-9.33895
邱	-9.33919
現	-9.3392
柴	-9.34018
以致	-9.34029
側	-9.3408
齡	-9.34094
在外	-9.34257
蠲	-9.34465
游	-9.34482
包衣	-9.34634
噶	-9.3499
北面	-9.35062
該督撫	-9.35076
旌	-9.3509
叅領	-9.35122
甘肅	-9.35458
後漢	-9.35481
契	-9.35572
答	-9.35591
死者	-9.35614
太后	-9.35676
神位	-9.35813
錯	-9.36078
旅	-9.36106
輝	-9.36177
洋	-9.3636
其事	-9.36443
童	-9.36445
守備	-9.36468
織	-9.36483
飭	-9.36772
十九	-9.3691
藉	-9.36929
本朝	-9.36933
即位	-9.36983
一月	-9.3699
確	-9.37128
舍人	-9.37252
令其	-9.37343
鼔	-9.37397
弁	-9.3755
二品	-9.37661
溢	-9.37797
二卷	-9.37838
簿	-9.37869
弱	-9.38185
柄	-9.38202
衍	-9.38221
湖南	-9.38355
内務府	-9.38382
孤	-9.38418
四百	-9.38432
十九年	-9.38503
墓	-9.38599
九分	-9.38675
沒	-9.38765
祖宗	-9.38853
東面	-9.39059
冬至	-9.39156
渾	-9.39163
者不	-9.39175
植	-9.39307
旦	-9.3942
刺	-9.39424
練	-9.39458
謨	-9.39475
裳	-9.39497
恤	-9.39497
仕	-9.39567
又設	-9.39607
譜	-9.39685
扶	-9.39699
之西	-9.3971
隄	-9.3979
卑	-9.39812
貴州	-9.39914
忽	-9.39929
禘	-9.39974
給事中	-9.40004
覈	-9.40047
四品	-9.40058
未嘗	-9.40143
彦	-9.40151
閘	-9.40172
耗	-9.40221
祿	-9.40272
纛	-9.40307
四方	-9.40422
皆以	-9.40497
懼	-9.40523
璽	-9.40611
康熈	-9.40766
催	-9.40782
雪	-9.40844
逢	-9.41052
因之	-9.41062
賤	-9.41107
析	-9.41229
托	-9.41274
河東	-9.41371
宰相	-9.41508
五寸	-9.41555
畏	-9.41756
芳	-9.41779
防禦	-9.41781
給與	-9.41903
有功	-9.42124
牒	-9.42176
燭	-9.42194
輕重	-9.42256
佑	-9.42276
捐	-9.42358
徧	-9.42374
㕘領	-9.42511
二十年	-9.42661
西面	-9.42721
屏	-9.42729
亦有	-9.42751
智	-9.42801
賴	-9.43012
崔	-9.43073
是日	-9.43384
甫	-9.43425
又以	-9.43448
太和	-9.4348
豪	-9.43761
髙祖	-9.43791
淳	-9.43821
笙	-9.43893
奏聞	-9.43943
線	-9.43984
侍衞	-9.43989
卓	-9.44006
爰	-9.44017
扣	-9.44028
壯	-9.44054
倘	-9.44277
掠	-9.44286
簫	-9.44388
奏准	-9.44395
旬	-9.44612
燎	-9.44686
秉	-9.44734
估	-9.44802
也今	-9.44804
另	-9.44824
廬	-9.44858
祭酒	-9.44882
伍	-9.44979
倚	-9.4499
包	-9.44994
六百	-9.45031
哲	-9.45134
即行	-9.45171
寄	-9.45272
績	-9.4529
亞獻	-9.45366
貸	-9.45417
以前	-9.45561
馳	-9.45655
酌量	-9.45724
俊	-9.45733
暨	-9.45755
鹵簿	-9.45832
静	-9.45853
二員	-9.45965
糶	-9.45966
寫	-9.45972
故以其子	-9.46038
胥	-9.46134
人犯	-9.46254
需	-9.46338
婚	-9.46416
引見	-9.46532
緩	-9.46588
弼	-9.4663
肇	-9.4663
從前	-9.46685
逮	-9.46688
短	-9.46712
有所	-9.4679
逸	-9.46797
脚	-9.46893
祚	-9.46919
世祖	-9.46952
如常儀	-9.47013
碑	-9.47069
長安	-9.47208
淺	-9.47249
五品	-9.47329
斂	-9.47374
黍	-9.47412
餉	-9.47527
萬五千	-9.47538
蒲	-9.47545
募	-9.47562
隔	-9.47601
岸	-9.47628
内侍	-9.4766
監察御史	-9.47731
隻	-9.47776
潔	-9.47883
二十二年	-9.47906
阻	-9.47935
珍	-9.48051
骨	-9.48086
其子	-9.48111
三公	-9.48193
一出	-9.48301
稽察	-9.48338
國子監	-9.48356
鋪	-9.48405
荷	-9.48414
千總	-9.48428
只	-9.48469
彚	-9.48474
愈	-9.48513
衝	-9.48526
疆	-9.4857
具題	-9.48606
定例	-9.48609
吹	-9.4864
文帝	-9.48712
滿漢	-9.48755
塗	-9.48856
舊制	-9.48903
位于	-9.48982
山川	-9.48988
神主	-9.49016
台	-9.49197
淵	-9.49227
各有	-9.49266
之内	-9.493
軍民	-9.49302
睿	-9.49379
乏	-9.4939
削	-9.49451
太常卿	-9.49484
典禮	-9.49501
車駕	-9.49571
潮	-9.49718
綵	-9.49731
匪	-9.49746
亷	-9.49917
萬年	-9.49985
漢人	-9.50049
沛	-9.50252
者各	-9.50255
己	-9.50429
又定	-9.50429
三寸	-9.5052
泥	-9.50577
t	-9.50592
="33"/>	-9.50592
<	-9.50596
仁宗	-9.50794
上帝	-9.50877
輯	-9.5093
值	-9.50984
暫	-9.51076
二十一年	-9.51142
軒	-9.51234
冦	-9.5124
油	-9.51447
拘	-9.51483
抑	-9.5153
有餘	-9.51665
僕	-9.51688
七百	-9.51724
指揮	-9.5174
一百二十	-9.51787
鞭	-9.51799
閩	-9.51808
七品	-9.51901
託	-9.51953
困	-9.5196
栁	-9.51973
之樂	-9.51999
㣲	-9.52078
羣官	-9.52258
諫	-9.52325
亦不	-9.52388
者為	-9.52495
暴	-9.52597
妾	-9.52608
姓名	-9.52644
獸	-9.52696
貪	-9.52737
遠	-9.52805
舜	-9.52832
施行	-9.52859
綴	-9.52881
各二	-9.52986
内閣	-9.5301
爭	-9.5302
超	-9.53201
彭	-9.53219
之屬	-9.53227
獵	-9.53274
膳	-9.53394
謹按	-9.53452
幽	-9.53455
批	-9.5347
籩	-9.53512
寸	-9.53557
鑲黄旗	-9.5357
枝	-9.53582
幕	-9.5359
世職表	-9.53658
直隸	-9.53712
諸州	-9.53915
聖人	-9.53966
齒	-9.5399
有差	-9.54037
命婦	-9.54086
奏言	-9.54132
覺羅	-9.54289
萬餘	-9.54315
桃	-9.54327
賞給	-9.54344
司官	-9.54362
臣等	-9.54447
哩	-9.54493
截	-9.54517
熊	-9.54527
把	-9.5458
耶	-9.54607
獻官	-9.54667
罕	-9.54716
踰	-9.54757
危	-9.54771
膺	-9.54791
嫁	-9.54808
圜丘	-9.54853
琴	-9.54862
劾	-9.54917
觔	-9.54951
一尺	-9.54981
二寸	-9.54998
行之	-9.55036
萬夀	-9.55075
喀	-9.55118
之北	-9.55139
遇有	-9.55216
彰	-9.55548
割	-9.55552
一時	-9.55829
宅	-9.55871
監生	-9.55898
域	-9.55901
本年	-9.56017
隸	-9.56023
謙	-9.56052
諱	-9.56067
諸臣	-9.56168
後魏	-9.56213
架	-9.5629
堤	-9.5635
之舞	-9.56441
廵撫	-9.56481
緝	-9.56562
帖	-9.56606
恪	-9.56674
冀	-9.56725
知縣	-9.56909
當時	-9.56928
友	-9.5693
含	-9.56978
晋	-9.57008
屈	-9.57095
三十六	-9.57306
雞	-9.57344
禮部尚書	-9.57441
成化	-9.57501
得㫖	-9.57534
主簿	-9.57624
焚	-9.57717
緯	-9.57794
藻	-9.57876
奸	-9.57977
衮	-9.57983
翰	-9.58143
次之	-9.58145
煩	-9.58201
古者	-9.58293
閒	-9.58294
懲	-9.58354
融	-9.58402
以其	-9.58528
皇考	-9.58565
承襲詳	-9.58638
祐	-9.58677
壺	-9.58777
䕶軍校	-9.5883
自是	-9.58864
慰	-9.58903
儀仗	-9.5895
之上	-9.59018
午	-9.59212
釋奠	-9.59231
䖍	-9.59282
鳥	-9.59346
浦	-9.59493
緣	-9.5952
籌	-9.59548
紗	-9.59732
打	-9.59873
儀注	-9.59893
熈	-9.59944
議處	-9.59949
姚	-9.60023
墾	-9.60074
者即	-9.60109
讓	-9.60129
頓	-9.60153
凶	-9.6041
帯	-9.60567
俛伏興	-9.60592
九百	-9.60645
之官	-9.60655
笛	-9.60666
㡬	-9.60695
拔	-9.60741
不復	-9.60751
亮	-9.6083
鸞	-9.60853
誕	-9.60914
擒	-9.60958
内有	-9.60963
並無	-9.61003
復置	-9.61011
提舉	-9.61025
籩豆	-9.61195
韶	-9.61222
帑	-9.61246
文武官	-9.61318
勉	-9.61339
古今	-9.61416
洽	-9.61424
二十五年	-9.61563
寵	-9.61626
禦	-9.61824
緞	-9.61894
不在	-9.62257
靡	-9.62279
貞觀	-9.62318
之神	-9.62352
一寸	-9.62374
曉	-9.62445
四寸	-9.62503
潛	-9.62515
之左	-9.6258
證	-9.62591
爼	-9.62649
而無	-9.62679
中國	-9.62721
千里	-9.62722
従	-9.62789
没	-9.62808
禱	-9.6282
濬	-9.62952
之中	-9.62973
廂	-9.62978
布政司	-9.63014
其中	-9.63021
蠶	-9.63157
醴	-9.6316
不用	-9.63182
澄	-9.632
樂章	-9.6322
幄	-9.63226
鄧	-9.63267
諸路	-9.63322
縀	-9.63414
片	-9.63501
遁	-9.63559
如常	-9.63562
匈奴	-9.63567
六寸	-9.63612
貼	-9.63828
樽	-9.63833
一千	-9.63915
燒	-9.63994
宸	-9.64007
少卿	-9.64015
禪	-9.64025
鉛	-9.64043
翰林院	-9.64064
又曰	-9.64091
丘	-9.64093
大同	-9.64145
苗	-9.64183
聼	-9.64186
鶴	-9.642
南面	-9.64298
範	-9.64336
虛	-9.64368
凌	-9.64413
穿	-9.6443
門内	-9.64472
撃	-9.64548
該管	-9.64566
甸	-9.64585
耆	-9.64663
惜	-9.64665
内大臣	-9.64731
疏言	-9.64783
夲	-9.64787
概	-9.64818
神位前	-9.64819
測	-9.6484
誥	-9.64875
京城	-9.64932
𤓰	-9.64978
縣界	-9.64984
憑	-9.64985
起居	-9.65115
叩	-9.6513
五日	-9.6519
太監	-9.65227
總兵	-9.6536
疎	-9.65408
潤	-9.65416
二十九年	-9.65454
二十七年	-9.6546
槍	-9.65466
飯	-9.65478
巻	-9.65492
脱	-9.65516
掩	-9.6552
忌	-9.65542
沿	-9.65582
馬匹	-9.65759
毫	-9.65764
替	-9.65802
登歌	-9.65837
輒	-9.65868
𢎞治	-9.65874
閤	-9.65874
褒	-9.65875
之心	-9.65904
偶	-9.65965
何以	-9.66023
陽縣	-9.66098
二十四年	-9.66171
之前	-9.66181
虧	-9.66277
奉天	-9.66288
公卿	-9.66298
二十六年	-9.66392
處分	-9.66463
糾	-9.66493
所在	-9.66509
以示	-9.66685
填	-9.66711
篤	-9.66713
驅	-9.6674
未經	-9.66758
現在	-9.66768
一曰	-9.66794
拱	-9.66805
龜	-9.66875
簾	-9.66884
蒙	-9.66901
旗人	-9.66909
僉	-9.6704
二日	-9.67108
之名	-9.67128
鑒	-9.67164
南郊	-9.67274
陞任	-9.6735
是時	-9.67364
絳	-9.67397
賚	-9.67433
仍照	-9.67518
正白旗	-9.67545
拒	-9.67553
二十三年	-9.67559
諾	-9.67562
十日	-9.67726
阜	-9.67782
府州縣	-9.67799
免其	-9.67844
怒	-9.67865
台吉	-9.67872
寡	-9.67946
舉行	-9.68041
祔	-9.68127
弩	-9.68226
五色	-9.68303
齎	-9.68362
如初	-9.68396
五千	-9.68495
各二人	-9.68538
摺	-9.68666
拜位	-9.68679
委署	-9.68799
馮	-9.68814
典儀	-9.68822
腰	-9.68899
帷	-9.68903
㦸	-9.68972
換	-9.68974
次引	-9.68984
之説	-9.68994
單于	-9.69041
請㫖	-9.69076
繩	-9.69142
或有	-9.69186
從征	-9.69193
巡檢司	-9.69231
河北	-9.69308
行走	-9.69438
輔國公	-9.69472
長子	-9.69482
以聞	-9.6953
匿	-9.6956
從祀	-9.69725
第四	-9.69757
幹	-9.69764
者照	-9.69892
多寡	-9.69914
漫	-9.69928
巖	-9.69929
分為	-9.69997
翠	-9.70001
耀	-9.70032
前一日	-9.70096
事務	-9.70099
和碩	-9.70139
數目	-9.70237
欣	-9.70254
還宫	-9.70275
桂	-9.70285
後世	-9.70327
牆	-9.70362
二十八年	-9.70377
教習	-9.70414
閱	-9.70421
品級	-9.70444
長官司	-9.70464
郡國	-9.70637
鄰	-9.70669
官軍	-9.70675
内府	-9.7068
又議準	-9.70799
九寸	-9.70832
萬石	-9.7089
上香	-9.7098
幼	-9.71033
纓	-9.71083
世職	-9.71105
百里	-9.71123
榜	-9.71125
弦	-9.71288
瀆	-9.71318
蝗	-9.71336
黙	-9.71553
太學	-9.71625
桓	-9.71657
五代	-9.71956
坫	-9.7208
敎	-9.72196
使副	-9.72202
知府	-9.72325
朝鮮	-9.72408
正中	-9.72423
低	-9.72501
人之	-9.72546
之家	-9.72554
磬	-9.72559
郡縣	-9.72583
畜	-9.72708
葛	-9.72794
仍令	-9.72912
八品	-9.73038
篆	-9.73046
贊引	-9.73121
中外	-9.73204
在位	-9.73253
十有二	-9.73307
伊等	-9.73457
柔	-9.73478
途	-9.73481
之右	-9.73498
舎人	-9.73506
以授	-9.73514
本部	-9.7355
十分	-9.73652
層	-9.73693
閉	-9.73725
訥	-9.73745
倒	-9.73781
警	-9.73814
城縣	-9.7386
輙	-9.73929
諸司	-9.74069
西安	-9.74081
勵	-9.74098
三十年	-9.74126
皂	-9.74155
制度	-9.74183
國朝	-9.74205
淑	-9.74237
每月	-9.7434
並同	-9.74393
誣	-9.74399
國初	-9.74414
茍	-9.74447
綸	-9.74515
歛	-9.74543
二十八	-9.74564
不應	-9.74589
通判	-9.74593
隱	-9.74775
四名	-9.74847
九品	-9.74912
無疆	-9.74995
逼	-9.74998
寕	-9.75034
官司	-9.75085
之弊	-9.75114
饒	-9.75182
帝王	-9.75267
若干	-9.75294
祇	-9.75393
際	-9.75397
争	-9.75459
行宫	-9.75519
槩	-9.75521
所載	-9.75544
披	-9.75569
健	-9.7569
御書	-9.75692
欵	-9.75713
禮儀	-9.75719
二十三	-9.75776
就位	-9.75784
禮樂	-9.75785
入官	-9.75801
舊例	-9.75848
如儀	-9.75856
鑲白旗	-9.75869
五帝	-9.7591
祝版	-9.75911
詳見	-9.75913
袁	-9.75917
余	-9.75965
正黄旗	-9.75967
無不	-9.75974
殘	-9.76081
梅	-9.76127
大功	-9.76172
之分	-9.76307
吴	-9.76328
每嵗	-9.7641
通行	-9.7653
汗	-9.76567
置於	-9.76575
禍	-9.76847
誘	-9.76858
雖有	-9.76873
七寸	-9.7692
劍	-9.76952
者謂	-9.76971
今年	-9.77126
御座	-9.77133
銀兩	-9.77187
金銀	-9.77223
大唐	-9.77301
混	-9.77307
刋	-9.77316
邁	-9.77343
尚書省	-9.77367
禮成	-9.77396
剛	-9.77486
几	-9.77605
羌	-9.77718
先後	-9.77744
雍正元年	-9.77796
怨	-9.77804
欽定	-9.77838
翰林	-9.77882
遜	-9.77893
察哈爾	-9.77915
該管官	-9.7793
其國	-9.77969
奉安	-9.78057
揚州	-9.78059
前代	-9.78066
誦	-9.78173
禮官	-9.78227
平之章	-9.78231
互	-9.78604
節度使	-9.78665
太白	-9.78667
受命	-9.78731
一百五十	-9.78761
舎	-9.78801
償	-9.78826
暢	-9.78835
部議	-9.78865
戸部	-9.78866
湖北	-9.78896
蕩	-9.79033
郊祀	-9.79105
二十六	-9.79157
影	-9.79191
闢	-9.79258
像	-9.79394
乾隆元年	-9.79402
奴婢	-9.79422
衛所	-9.79457
江浙	-9.79565
鑿	-9.79602
鑾	-9.79615
佟	-9.79729
鬼	-9.79785
該部	-9.79795
嵩	-9.79795
武職	-9.79863
遥	-9.79864
昆	-9.79938
民人	-9.79945
元豐	-9.79974
前導	-9.80007
衫	-9.80111
隴	-9.80205
鼓吹	-9.80256
太守	-9.80316
昏	-9.80339
邀	-9.80363
陰	-9.80405
謁者	-9.80471
莫不	-9.80471
票	-9.80482
蓄	-9.80584
之下	-9.80621
西階	-9.80634
北齊	-9.80657
占曰	-9.80683
朗	-9.80731
壞	-9.80789
坦	-9.80894
攸	-9.80906
所用	-9.80935
詔曰	-9.81087
三代	-9.81187
驚	-9.81296
壊	-9.81302
晝	-9.81368
偕	-9.81386
應行	-9.81407
不敷	-9.81426
鮮	-9.8145
洩	-9.8167
儉	-9.81681
喀爾喀	-9.81731
奎	-9.81767
醢	-9.81781
暇	-9.81804
壝	-9.81861
改元	-9.81885
司空	-9.81921
弓矢	-9.8193
碩	-9.8201
若有	-9.82054
漲	-9.82106
退復位	-9.82148
定制	-9.82174
太官令	-9.82186
寅	-9.82219
頻	-9.8225
弔	-9.82303
賽	-9.82335
祫	-9.82339
竭	-9.82379
正統	-9.82381
慕	-9.8239
黜	-9.82442
杖一百	-9.82452
壤	-9.82577
大使	-9.82595
都察院	-9.82606
契丹	-9.82657
靣	-9.82669
血	-9.82776
凝	-9.82925
忘	-9.82934
等謹案	-9.83043
補用	-9.83048
序立	-9.83157
第十	-9.83229
萬八千	-9.83237
功臣	-9.83257
委官	-9.8335
世宗憲皇帝	-9.83362
播	-9.83428
陷	-9.8345
䘏	-9.8349
萬六千	-9.83585
萬世	-9.83646
隅	-9.8365
陣亡	-9.83745
二十七	-9.83759
江蘇	-9.83792
長史	-9.83801
㤗	-9.83867
銓	-9.83879
不合	-9.83962
括	-9.83985
抄	-9.84046
殯	-9.84049
汪	-9.84148
三尺	-9.84206
周公	-9.84212
薛	-9.84252
人丁	-9.84257
縁事革退以	-9.84354
萬七千	-9.84404
分左右	-9.84417
辛	-9.84463
上司	-9.84501
額駙	-9.84505
十萬	-9.84516
福晉	-9.84526
四時	-9.8463
把總	-9.84685
三名	-9.84738
歴代	-9.84783
戚	-9.84818
世子	-9.84909
庻	-9.85071
縣令	-9.85091
之用	-9.85185
之士	-9.85204
承襲	-9.85225
國之	-9.85237
賠	-9.85432
幅	-9.85453
謁者引	-9.8546
網	-9.85469
出身	-9.85474
𦵏	-9.85493
各設	-9.8552
樂奏	-9.85522
贊者	-9.85597
搢笏	-9.85706
萬三千	-9.8573
竈	-9.85757
天津	-9.85771
順天府	-9.85789
竿	-9.85802
該旗	-9.8582
廪	-9.85882
貞元	-9.85884
州刺史	-9.85887
受爵	-9.85903
世居	-9.85992
夢	-9.85997
團	-9.86148
雍正	-9.86183
名曰	-9.86203
君子	-9.86254
曠	-9.86291
之文	-9.8634
舉哀	-9.86391
詢	-9.86412
灌	-9.86436
萬四千	-9.86443
翊	-9.86461
萬壽	-9.86474
追封	-9.86507
地畝	-9.86561
四卷	-9.86574
杭州	-9.86589
畿	-9.86605
副將	-9.86667
今日	-9.86815
辦事	-9.86815
彛	-9.86917
演	-9.86924
大将軍	-9.8693
棺	-9.86945
坤	-9.8695
迴	-9.87037
其有	-9.87038
)○	-9.87039
䕶軍統領	-9.87085
邵	-9.87115
两	-9.87116
腹	-9.87198
騎都尉	-9.87242
遐	-9.87259
髙宗	-9.87304
我皇上	-9.87382
其日	-9.87484
皇祖	-9.87533
之言	-9.87555
十卷	-9.87577
牽	-9.87655
二十二	-9.87722
堰	-9.87762
抽	-9.87776
者則	-9.87785
内監	-9.87961
衢	-9.87979
總兵官	-9.88023
訛	-9.88031
禮直官	-9.88034
第五	-9.88044
二萬	-9.88064
巨	-9.88189
遭	-9.88208
准其	-9.88208
七人	-9.88235
二次	-9.88253
笞	-9.88272
貽	-9.88285
箇	-9.88308
四海	-9.88313
沐	-9.88349
内地	-9.88352
殺人	-9.88369
鏡	-9.88385
件	-9.88388
階下	-9.88456
翁	-9.88527
附近	-9.88549
珪	-9.88643
奉禮	-9.88684
強	-9.8869
世宗	-9.88708
跡	-9.88738
欺	-9.88744
効力	-9.88768
一十	-9.88788
艱	-9.88797
陵寢	-9.88902
銘	-9.88905
此等	-9.8893
立定	-9.88971
廩	-9.88991
然則	-9.89
都尉	-9.89044
楹	-9.89092
淤	-9.89095
廐	-9.89201
霍	-9.89219
蟲	-9.89281
悦	-9.89301
繞	-9.89301
孰	-9.89338
後周	-9.89411
貝子	-9.89462
鑲藍旗	-9.89477
晏	-9.89489
裔	-9.89506
職官	-9.89544
脩	-9.89591
東西相向	-9.89614
中有	-9.89658
公服	-9.89681
二十一	-9.89724
員闕	-9.89753
厲	-9.8979
芝	-9.8989
茅	-9.89936
錠	-9.89979
瓊	-9.89985
則有	-9.89987
謬	-9.90022
卦	-9.9005
旨	-9.90101
諸軍	-9.9019
樞	-9.9034
準其	-9.90349
素服	-9.90382
太原	-9.9041
乾隆三十	-9.9045
黔	-9.90452
稻	-9.90526
率兵	-9.90536
爾等	-9.90589
繳	-9.90598
中興	-9.90652
勺	-9.90721
又覆準	-9.90756
之罪	-9.90768
九卿	-9.90895
河間	-9.91054
萬二千	-9.91115
鄉試	-9.91121
劄	-9.91158
誰	-9.91159
永平	-9.91191
齋戒	-9.91212
禾	-9.91237
隨時	-9.91264
足以	-9.91278
樁	-9.91282
設立	-9.91306
丕	-9.91386
熒惑	-9.914
閭	-9.91416
奉諭㫖	-9.9145
議准	-9.91456
鐡	-9.91552
譯	-9.916
撤	-9.91601
南巡	-9.91611
在前	-9.91612
七日	-9.91642
參軍	-9.91678
宛	-9.91704
綠	-9.91705
竇	-9.91715
駝	-9.9176
蔽	-9.91811
作樂	-9.91843
斜	-9.91942
甲子	-9.92058
消	-9.92111
肩	-9.9227
宥	-9.92292
者並	-9.92293
緋	-9.92358
紛	-9.92368
雕	-9.9246
緒	-9.92591
嫡	-9.92724
峯	-9.92727
已上	-9.92846
報部	-9.92892
娶	-9.92902
禁止	-9.92968
浪	-9.92997
是為	-9.93013
一例	-9.93122
嚮	-9.93126
洲	-9.93149
諭曰	-9.93155
霑	-9.93175
判官	-9.93241
重行	-9.933
崇徳	-9.9331
飬	-9.9333
司祝	-9.93332
䟽議曰	-9.93345
學政	-9.93392
其人	-9.93398
齊集	-9.9342
増設	-9.93429
等物	-9.93452
持節	-9.93478
黄道	-9.93536
瘞	-9.93572
碧	-9.93624
乾隆四十	-9.93662
粤	-9.93684
亨	-9.9369
寇	-9.93762
御史臺	-9.93772
百餘	-9.93776
遼東	-9.93798
明洪武	-9.9381
千餘	-9.93813
執事官	-9.93856
平定	-9.93891
違者	-9.93983
少退	-9.94004
數十	-9.9402
柩	-9.94081
陳氏曰	-9.94108
歟	-9.94169
岡	-9.94186
監督	-9.94193
酬	-9.9421
雲騎尉	-9.94231
自今	-9.94248
正徳	-9.94266
天下之	-9.94269
丹墀	-9.943
控	-9.94337
圜	-9.94409
毅	-9.94424
黄河	-9.94437
江寧	-9.9448
鎗	-9.94483
繙譯	-9.94519
猷	-9.94537
祧	-9.94571
以此	-9.94578
菜	-9.94627
繕	-9.94684
前期	-9.94719
傾	-9.94742
旂	-9.94763
佃	-9.94814
傑	-9.94875
貳	-9.9489
先期	-9.94904
脊	-9.94931
叚	-9.94976
恃	-9.95029
偹	-9.95082
站	-9.95163
其間	-9.95175
訴	-9.9523
商人	-9.95289
蠲免	-9.953
國王	-9.95308
宣徳	-9.95417
渭	-9.95435
牀	-9.95542
部落	-9.95588
壘	-9.95592
㧞	-9.95621
正紅旗	-9.95697
霞	-9.95713
酋	-9.95735
闕里	-9.95736
再拜訖	-9.95781
奮	-9.958
逾	-9.95833
協領	-9.96029
戲	-9.96059
諸道	-9.96068
降㫖	-9.9617
上諭	-9.96178
不准	-9.96196
轄	-9.96205
立于	-9.96209
薪	-9.96269
東宫	-9.96292
工程	-9.96295
阿爾	-9.96379
牢	-9.96383
詠	-9.9648
裝	-9.96514
太師	-9.9652
大次	-9.96529
各衙門	-9.96539
户口	-9.966
刪	-9.966
正藍旗	-9.96619
者俱	-9.96693
北向立	-9.96729
枚	-9.96736
鑲紅旗	-9.96885
太僕寺	-9.96893
師古曰	-9.96897
先師	-9.97075
浙	-9.97115
突	-9.97128
肥	-9.97242
掛	-9.97446
鈎	-9.97458
也故	-9.97517
潭	-9.9762
二百五十	-9.97679
必有	-9.97688
往往	-9.97727
已經	-9.9775
叶	-9.97756
萬九千	-9.97762
之曲	-9.97771
罰俸一年	-9.97792
抱	-9.97802
殿中	-9.97804
蘓	-9.97812
氏世居	-9.97832
中軍	-9.97896
懋	-9.97918
杭	-9.97967
以資	-9.98011
由是	-9.9806
廕	-9.98081
不為	-9.98136
自後	-9.9815
千户所	-9.98169
復為	-9.98192
太史	-9.98198
軍器	-9.98223
吏部尚書	-9.98238
一百三十	-9.98295
姪	-9.98362
絞	-9.98381
墳	-9.98406
者有	-9.98436
一百四十	-9.98464
中書令	-9.98466
為民	-9.98499
禮記	-9.98516
巢	-9.98525
充軍	-9.98551
配位	-9.98566
及諸	-9.98577
十名	-9.98592
絡	-9.9866
大兵	-9.98766
管領	-9.98793
通州	-9.98795
大定	-9.98844
呂	-9.98877
政和	-9.98903
門之外	-9.99063
應用	-9.99111
乖	-9.99166
文字	-9.99169
罔	-9.99222
傳曰	-9.99254
棟	-9.99259
教授	-9.99263
神座	-9.99317
淮南	-9.99331
未完	-9.99341
褥	-9.99461
奚	-9.99463
西向立	-9.99486
尊諡	-9.9955
一百八十	-9.99572
知之	-9.99577
僚	-9.99605
進呈	-9.99627
殿上	-9.99637
於東	-9.99655
西域	-9.99674
𣙜	-9.99746
貧民	-9.99768
訟	-9.99778
出於	-9.99794
殤	-9.99829
八名	-9.99862
虜	-9.99866
廊	-9.99867
得其	-9.99891
秒	-9.99914
風俗	-9.99917
貿易	-9.99923
之孫	-10.0002
東階	-10.0007
運河	-10.0009
成都	-10.001
宰臣	-10.0012
本司	-10.0012
黄帝	-10.0017
府屬	-10.0026
正位	-10.0028
潰	-10.0033
鑑	-10.0033
斥	-10.0034
軌	-10.0036
内壝	-10.0037
文王	-10.0047
兼管	-10.0054
終獻	-10.0054
彩	-10.0059
雇	-10.0064
京官	-10.0071
古之	-10.0074
寃	-10.0074
爐	-10.0075
歉	-10.0081
也又	-10.0085
之際	-10.0087
加一等	-10.009
紐	-10.0091
猛	-10.0093
服之	-10.0098
補授	-10.0103
六卷	-10.0106
熙寧	-10.0107
帽	-10.0107
壓	-10.0108
金吾	-10.011
煥	-10.0116
也其	-10.0124
支給	-10.0125
挾	-10.0126
升為	-10.0128
十有五	-10.0133
又題準	-10.0134
大理	-10.0135
荆州	-10.0138
加恩	-10.0142
失察	-10.0143
奏稱	-10.0145
昨	-10.0145
遽	-10.0145
故也	-10.0148
開列	-10.015
而下	-10.0151
雍正二年	-10.0155
偷	-10.0156
鑄錢	-10.0158
十二卷	-10.0165
留守	-10.0165
莽	-10.0168
疇	-10.0176
妙	-10.0184
事件	-10.0187
二十人	-10.0189
常服	-10.019
不當	-10.0191
逰	-10.0194
元和	-10.0194
隂陽	-10.0205
湏	-10.021
宦	-10.0213
函	-10.0215
朝賀	-10.0216
光武	-10.0216
殿前	-10.0217
所奏	-10.022
一百六十	-10.0221
炭	-10.0223
鐸	-10.0223
冲	-10.0225
掣	-10.0228
見於	-10.0229
惑	-10.0231
武官	-10.0231
地震	-10.0233
裴	-10.0233
二尺	-10.0243
瑚	-10.0247
聘	-10.025
庶人	-10.025
貝	-10.0257
鴈	-10.026
其年	-10.0261
次第	-10.0264
滯	-10.0265
世祖章皇帝	-10.0267
拏	-10.0271
巧	-10.0271
民田	-10.0276
炎	-10.0297
言之	-10.03
不以	-10.0302
八卷	-10.0305
水旱	-10.0306
上言	-10.0309
晦	-10.0311
晨	-10.0312
冠服	-10.0321
朱子	-10.0322
又令	-10.0327
炳	-10.0339
三縣	-10.0342
恭奉	-10.0343
取其	-10.0343
保定	-10.0351
朝㑹	-10.0352
御前	-10.0361
盟	-10.0368
冶	-10.0376
所得	-10.0378
庶子	-10.0387
罰俸	-10.0393
首領	-10.0395
本旗	-10.0396
注云	-10.0396
厭	-10.0407
逺近	-10.0409
兼轄	-10.0413
山縣	-10.0416
拂	-10.0424
甚多	-10.0433
二千石	-10.0434
交與	-10.0435
數百	-10.0438
匱	-10.0441
今後	-10.0441
浩	-10.0445
在東	-10.0447
文官	-10.0448
衙	-10.0457
承㫖	-10.046
常平	-10.0463
岐	-10.0466
前往	-10.0466
大祀	-10.0467
三卷	-10.0467
二百四十	-10.0469
陋	-10.0475
安南	-10.0481
宣帝	-10.0486
天寳	-10.0494
來屬	-10.0497
軍士	-10.0498
為首	-10.0499
沁	-10.05
長官	-10.05
武功	-10.05
財物	-10.0506
訊	-10.0509
東方	-10.0511
鈞	-10.0516
五品以上	-10.0517
狄	-10.0518
又諭	-10.0524
出征	-10.0527
駐蹕	-10.053
綽	-10.0535
王子	-10.0543
家人	-10.0547
未能	-10.0547
烟	-10.0549
燈	-10.055
法司	-10.0551
查明	-10.0556
淮安	-10.0564
汾	-10.0564
眷	-10.0565
俯	-10.0569
羲	-10.0572
鑪	-10.0575
堂上	-10.0577
毋得	-10.058
麾	-10.0582
之典	-10.0585
為上	-10.0586
綾	-10.0588
豕	-10.0589
由部	-10.0594
左門	-10.0597
觶	-10.0599
効	-10.06
三十五	-10.06
摩	-10.0603
五名	-10.0606
億	-10.0609
沃	-10.061
一應	-10.0621
公事	-10.0624
事宜	-10.0625
武徳	-10.0628
五釐	-10.063
詹事	-10.0634
安徽	-10.0641
王以下	-10.0647
中軍守備一人千總二人把總四人兵	-10.0648
太蔟	-10.0656
自行	-10.0656
不見	-10.0661
遊擊	-10.0661
羃	-10.0667
懇	-10.0668
漁	-10.0672
死罪	-10.0674
諸生	-10.0679
旒	-10.0693
原任	-10.0695
奉恩將軍	-10.0703
僖	-10.0716
咨部	-10.0717
姑洗	-10.072
之徒	-10.0722
犯罪	-10.0722
一面	-10.0727
至大	-10.073
兇	-10.0732
因而	-10.0733
外其	-10.0733
傍	-10.0733
四尺	-10.0734
小民	-10.0742
王府	-10.0746
刷	-10.0754
彈	-10.076
司香	-10.0765
大軍	-10.0771
修理	-10.0776
萊	-10.0777
十六人	-10.0778
年四月	-10.0779
旌表	-10.0783
四十五	-10.0784
讀書	-10.0787
舁	-10.0788
漳	-10.0788
三十二	-10.079
設於	-10.0796
三十一年	-10.0801
未免	-10.0804
官及	-10.0812
大理寺	-10.0817
四千	-10.0819
樂器	-10.082
元年正月	-10.0822
㓜	-10.0827
十五日	-10.0831
𤼵	-10.0846
徇	-10.0847
實録	-10.0849
神宗	-10.0851
見在	-10.0864
其弟	-10.0872
敘	-10.0874
之服	-10.0881
江淮	-10.0883
十兩	-10.0884
不便	-10.0885
后土	-10.0905
再行	-10.0906
行文	-10.0911
掃	-10.0916
羽林	-10.0921
不等	-10.0925
孝宗	-10.0927
史記	-10.0928
淹	-10.0929
鎭	-10.0929
崖	-10.0936
賛者	-10.0943
遍	-10.0943
堂官	-10.0947
迎神	-10.0948
小功	-10.0964
代之	-10.097
涇	-10.0972
靜	-10.0973
中書省	-10.0982
城門	-10.0984
情形	-10.0991
禧	-10.0994
臘	-10.1001
疊	-10.1008
科道	-10.1024
順天	-10.1033
奴	-10.1039
恩賜雲騎尉世職	-10.1041
有事	-10.1042
聖祖	-10.1044
六名	-10.1046
萬國	-10.1047
三間	-10.1049
之初	-10.1053
盥	-10.1054
令史	-10.1055
給銀	-10.1056
寓	-10.1057
閤門	-10.1061
曰某	-10.1062
乳	-10.1064
嚕	-10.1066
者仍	-10.1067
入貢	-10.1069
輩	-10.1075
㑹試	-10.1075
行省	-10.1076
騎射	-10.1078
奉先殿	-10.108
髙麗	-10.1082
告官	-10.1083
談	-10.1085
來歸	-10.1086
不勝	-10.1092
闡	-10.1096
題叅	-10.1104
庚	-10.1112
東西面	-10.1118
溥	-10.1119
雩	-10.1122
使臣	-10.1126
親軍	-10.1134
冐	-10.1146
巫	-10.1154
文獻通考卷	-10.1154
陪祀	-10.1161
九人	-10.1168
英宗	-10.1169
元祐	-10.1171
徐州	-10.1172
或以	-10.1173
貟	-10.1175
箱	-10.1178
衣服	-10.1191
人數	-10.1191
繹	-10.1191
屆	-10.1193
一卷陳氏曰	-10.1196
一錢	-10.1199
灰	-10.1201
氊	-10.1202
送神	-10.1207
可知	-10.1208
送部	-10.1209
不相	-10.1221
抗	-10.1221
倭	-10.1231
魁	-10.1233
武王	-10.1233
而為	-10.1236
知情	-10.1238
軫	-10.124
的	-10.125
寸二分	-10.1258
埋	-10.1261
聖駕	-10.1262
兵部尚書	-10.1263
奕	-10.1265
殿内	-10.1268
丹陛	-10.1275
賄	-10.1276
奉上諭	-10.1292
本色	-10.1294
若不	-10.1296
稿	-10.13
怠	-10.1302
撥給	-10.1307
哨	-10.1309
配享	-10.1314
競	-10.1318
之盛	-10.1323
其制	-10.1325
蔵	-10.1327
每日	-10.1328
舊有	-10.1337
又奏準	-10.134
闈	-10.1343
裘	-10.1344
武宗	-10.1344
苖	-10.135
國子	-10.1356
如何	-10.1364
膠	-10.1366
塵	-10.1369
鬭	-10.1371
八寸	-10.1372
殆	-10.1373
四十八	-10.1375
鋭	-10.1381
於本	-10.1382
頼	-10.1385
錦州	-10.139
犢	-10.1399
舖	-10.1415
泛	-10.142
千户	-10.1421
致齋	-10.1427
邸	-10.1427
駁	-10.1427
豹	-10.143
大吕	-10.143
臯	-10.1435
遵㫖	-10.1438
土司	-10.1443
駒	-10.1447
二十九	-10.1448
冠者	-10.1454
誌	-10.1455
布政使	-10.1459
殺之	-10.146
外藩	-10.1467
不如	-10.1468
籠	-10.1475
潘	-10.1476
事故	-10.1485
州郡	-10.149
蹕	-10.1491
知其	-10.1501
人户	-10.1502
袖	-10.1507
三十八年	-10.1515
鳥槍	-10.152
觴	-10.1521
等語	-10.1522
二年正月	-10.1522
嫌	-10.1523
都督府	-10.1525
髪	-10.1535
十餘	-10.1536
之故	-10.1551
沉	-10.1555
等事	-10.1558
逓	-10.1559
島	-10.1562
毎年	-10.1563
繖	-10.1568
曰朕	-10.1572
状	-10.158
忱	-10.1589
壻	-10.1589
灣	-10.1589
朋	-10.1591
戈	-10.1592
凱	-10.1592
周官	-10.1592
之物	-10.1596
臣僚	-10.1605
昻	-10.1608
踐	-10.1611
大赦	-10.1616
發遣	-10.1616
不論	-10.1622
亦無	-10.1628
宫中	-10.1639
禮部侍郎	-10.164
每旗	-10.164
綺	-10.164
耿	-10.1652
給發	-10.1654
了	-10.1654
蘆	-10.1655
額爾	-10.1656
故曰	-10.1658
日期	-10.1664
月犯	-10.167
太宗文皇帝	-10.1675
鎮國公	-10.1679
入就位	-10.168
檢校	-10.1682
軍營	-10.1683
邇	-10.1685
被災	-10.1689
凡有	-10.1693
酌獻	-10.1695
使人	-10.1701
乾道	-10.1713
妖	-10.1714
臻	-10.1717
擁	-10.172
學者	-10.172
謹案	-10.1726
疏曰	-10.1738
金川	-10.174
至今	-10.1757
次日	-10.1768
無射	-10.1769
妥	-10.177
伊犁	-10.177
㨗	-10.1771
據實	-10.1772
䟽	-10.1773
憲宗	-10.178
上曰	-10.1781
琳	-10.1782
大樂	-10.1783
貢生	-10.1784
匡	-10.1785
未及	-10.1788
港	-10.1797
以来	-10.1799
以待	-10.18
毋庸	-10.18
覲	-10.18
不堪	-10.1803
萬物	-10.1804
認	-10.1807
順治元年	-10.1813
隣	-10.1819
愍	-10.1819
墜	-10.182
建炎	-10.1824
章京	-10.1826
往來	-10.1828
迤	-10.1829
祀典	-10.1829
升殿	-10.1833
窩	-10.1833
之位	-10.1834
五卷	-10.1839
系出	-10.184
森	-10.184
分數	-10.1847
煙	-10.1849
迄	-10.1849
燔	-10.1856
戮	-10.1856
州縣官	-10.1858
當差	-10.1867
對曰	-10.1869
灾	-10.1871
其名	-10.1873
嬪	-10.1881
男女	-10.1881
障	-10.1885
膏	-10.189
贍	-10.1893
勦	-10.1894
而行	-10.1902
古人	-10.191
𠞰	-10.1911
之次	-10.1911
陳於	-10.1913
咎	-10.1919
歩軍	-10.1919
睦	-10.192
北郊	-10.1923
刼	-10.1927
冊寳	-10.1934
壯丁	-10.1936
太皇太后	-10.1936
學校	-10.1942
諸國	-10.1945
飾以	-10.1947
平陽	-10.1947
土官	-10.1957
元帝	-10.1958
吉林	-10.1961
太常卿引皇帝	-10.1963
紬	-10.1963
漢文	-10.1971
可也	-10.1973
鬻	-10.1979
巴爾	-10.1993
父子	-10.1994
姜	-10.1996
在西	-10.1997
讀祝	-10.1999
我朝	-10.2001
羡	-10.2002
依舊	-10.2005
峻	-10.2005
尚有	-10.2005
三司	-10.2006
釘	-10.2011
扎薩克	-10.2014
販	-10.2022
玉帛	-10.2028
無可	-10.2032
笑	-10.2036
五星	-10.2039
絰	-10.2041
箕	-10.2048
系	-10.2048
虹	-10.205
祝史	-10.2051
文曰	-10.2052
暮	-10.2053
列於	-10.2053
來朝	-10.2055
奉御	-10.2056
亞	-10.2059
竄	-10.2061
可汗	-10.2061
御史大夫	-10.2069
玩	-10.2072
六品以下	-10.2075
光禄卿	-10.2075
來京	-10.2079
凉	-10.2079
縣人	-10.2081
西路	-10.2087
涉	-10.209
誓	-10.2094
東至	-10.2094
文書	-10.2096
營都司一人	-10.2105
爽	-10.2105
右翼	-10.211
更定	-10.2111
俘	-10.2112
伸	-10.2114
民之	-10.2116
十三日	-10.2117
光禄	-10.2122
弟子	-10.2127
此書	-10.2128
染	-10.2136
明白	-10.2137
黄鍾之	-10.2138
迹	-10.2139
道路	-10.2139
十二人	-10.214
五尺	-10.2144
斃	-10.2145
奏事	-10.215
擊之	-10.2151
簋	-10.2156
酉	-10.2164
不言	-10.2165
后稷	-10.2166
是月	-10.2176
一萬	-10.2179
䕫	-10.218
銷金	-10.2186
不準	-10.2187
革帶	-10.2192
兩淮	-10.2201
䧟	-10.2202
三品以上	-10.2204
則以	-10.2206
萬兩	-10.2214
札	-10.2217
矜	-10.222
䕶衛	-10.2221
定為	-10.2227
提舉司	-10.2229
耕種	-10.223
學生	-10.2231
十疋	-10.2234
昇	-10.2234
狼	-10.2239
議者	-10.2246
立為	-10.2247
六部	-10.225
霜	-10.2251
年間	-10.2258
妻子	-10.2258
突厥	-10.2261
祁	-10.2266
降復位	-10.2271
親詣	-10.2273
議定	-10.2276
馭	-10.2276
覩	-10.2276
柳	-10.2277
降襲	-10.2278
詰	-10.2286
瑶	-10.2287
漢書	-10.229
數千	-10.2291
貴妃	-10.2292
肯	-10.2293
向來	-10.2293
協律郎	-10.2295
三次	-10.2296
陽郡	-10.2296
他人	-10.2299
紳	-10.2301
孚	-10.2301
成帝	-10.2304
煬帝	-10.2305
者多	-10.2305
犀	-10.2306
樂工	-10.2308
從事	-10.2313
閑	-10.2313
着	-10.2316
雉	-10.2318
祼	-10.2321
經過	-10.2325
選用	-10.2341
禽	-10.2341
成服	-10.2343
朔望	-10.2343
尚未	-10.2344
百日	-10.2353
五城	-10.2359
檀	-10.2365
康熙三十	-10.2367
祝文	-10.2374
庥	-10.2375
不得過	-10.2379
先聖	-10.2379
扈	-10.238
三萬	-10.2384
揭	-10.2387
承天	-10.2389
之民	-10.239
祭器	-10.2398
營兵	-10.2402
赤道	-10.2403
痛	-10.2404
胄	-10.2406
激	-10.2409
尊長	-10.2421
自古	-10.2426
不致	-10.2434
居住	-10.2434
氷	-10.2436
已下	-10.2446
旗員	-10.2448
光禄寺	-10.2449
不可以	-10.2454
經歴	-10.2455
所生	-10.2457
逋	-10.2461
一丈	-10.2462
隆慶	-10.2466
衷	-10.2471
侍從	-10.2474
陜	-10.2483
不載	-10.249
年老	-10.2492
閑散	-10.2492
數年	-10.2495
禋	-10.2497
阼階	-10.2499
殿中監	-10.2509
臺灣	-10.251
桐	-10.2512
功封	-10.2513
一帶	-10.2517
胙	-10.2526
扈從	-10.2532
先生	-10.2532
執爵	-10.2533
執笏	-10.2535
氐	-10.2538
搜	-10.254
籥	-10.2541
牐	-10.2541
眼	-10.2547
欽天監	-10.2549
賑濟	-10.2549
屠	-10.255
翔	-10.2558
眉	-10.2559
察出	-10.2562
即以	-10.2566
各州縣	-10.2571
百人	-10.2572
内官	-10.2573
迺	-10.2576
嘉定	-10.2578
弛	-10.2579
貂	-10.2586
乗輿	-10.2592
議奏	-10.2601
尊號	-10.2606
亦可	-10.2609
庚子	-10.261
盥洗	-10.2611
增設	-10.2614
步軍	-10.2618
人皆	-10.2621
未詳	-10.2621
所部	-10.2627
北方	-10.2632
字號	-10.2634
安縣	-10.2634
外省	-10.2634
昊	-10.2636
䕶軍叅領	-10.264
杏	-10.2648
五行	-10.2648
致仕	-10.265
玊	-10.2651
聨	-10.2654
荀	-10.2655
宣和	-10.2657
不免	-10.2667
王者	-10.2669
其屬	-10.2669
渥	-10.267
罰俸六月	-10.2672
人以	-10.2674
部院	-10.2681
霸	-10.2681
保之妻	-10.2688
箋	-10.2688
拆	-10.2691
北京	-10.2696
奬	-10.2698
世襲	-10.27
㫁	-10.2701
涼	-10.2703
教官	-10.2709
也然	-10.2709
明帝	-10.271
熹	-10.2718
拏獲	-10.2723
左翼	-10.2726
議叙	-10.2729
枉	-10.273
一疋	-10.2731
軸	-10.2732
不宜	-10.2733
濟南	-10.2733
大清	-10.2733
浚	-10.2733
郊廟	-10.274
謚	-10.2743
臣民	-10.2746
宗正	-10.2751
几筵	-10.2758
東西向	-10.2768
以供	-10.2769
之員	-10.2772
乘輿	-10.2774
二年二月	-10.2776
女子	-10.278
者將	-10.278
㑹典	-10.278
樸	-10.2789
泰山	-10.2791
兩月	-10.2795
開復	-10.2796
軍功	-10.2799
矟	-10.28
太常博士	-10.2801
和之曲	-10.2802
響	-10.2804
叩頭	-10.2804
亟	-10.2805
二十日	-10.2806
粉	-10.2811
叟	-10.2813
銖	-10.2818
鞾	-10.2819
傷人	-10.282
妨	-10.2821
鷹	-10.2822
不與	-10.2825
君臣	-10.2826
串	-10.283
臨時	-10.2831
妻妾	-10.2832
祭之	-10.2832
棗	-10.2836
禮儀使	-10.2839
既而	-10.2841
吐	-10.2843
舅	-10.2849
墻	-10.2851
樂舞	-10.2852
天順	-10.2852
嚴加	-10.2854
礦	-10.2856
晴	-10.2858
其數	-10.2861
理藩院	-10.2862
以昭	-10.2863
鐙	-10.2865
一併	-10.2869
貶	-10.2871
司農	-10.2873
世孫	-10.288
之則	-10.2886
掌事者	-10.2892
一刻	-10.2895
其一	-10.2896
巡幸	-10.2896
漠	-10.2902
玉幣	-10.2904
婦女	-10.2905
齋郎	-10.2909
鐫	-10.2912
一首	-10.2916
降輿	-10.2917
本省	-10.2919
牘	-10.292
律吕	-10.2924
婁	-10.2931
告成	-10.2933
千九百	-10.2938
稼	-10.2938
添設	-10.2939
原籍	-10.2948
雲龍	-10.2949
臣某	-10.2957
鹽課	-10.2958
活	-10.2965
烝	-10.297
大明	-10.2973
豁免	-10.2974
亢	-10.298
鉞	-10.2982
一百七十	-10.2982
鴻臚寺	-10.2985
濮	-10.2987
探	-10.2988
七尺	-10.299
殺傷	-10.2996
囊	-10.3008
價銀	-10.3017
上以	-10.3018
倣	-10.3018
造册	-10.3018
司道	-10.3019
百萬	-10.3023
二十名	-10.3023
姬	-10.3024
瑟	-10.3025
店	-10.3038
之期	-10.304
孟子	-10.3042
毒	-10.3048
親屬	-10.3049
三十四	-10.3062
渉	-10.3077
班首	-10.3082
次於	-10.3083
勑	-10.3092
鬱	-10.3094
到部	-10.3095
以下皆	-10.3096
難以	-10.3096
萬一千	-10.31
一二	-10.3104
如是	-10.3105
卧	-10.3105
幡	-10.3106
定額	-10.3107
之妻𤓰勒佳	-10.3107
事例	-10.3108
河西	-10.3109
收貯	-10.3111
㳺	-10.3121
議曰	-10.3125
冰	-10.3129
政事	-10.313
長沙	-10.3139
謝恩	-10.314
芒	-10.3147
於西	-10.3149
旺	-10.3152
宗人府	-10.3153
之利	-10.3155
年三月	-10.3155
三十六年	-10.3157
供奉	-10.3158
寔	-10.3159
該處	-10.3162
通典	-10.3163
掾	-10.3163
二字	-10.3166
神武	-10.3167
偃	-10.3174
從者	-10.3177
幔	-10.3178
粮	-10.3178
倘有	-10.318
羞	-10.318
黄門侍郎	-10.3183
脅	-10.3184
不至	-10.3189
梓宫	-10.3196
照舊	-10.3199
豈可	-10.32
七十二	-10.3201
永寧	-10.3203
一兩	-10.3204
應鍾	-10.3204
屍	-10.3205
聲明	-10.321
千五百	-10.3211
開墾	-10.3212
鬯	-10.3214
學習	-10.3214
棍	-10.3215
蟒	-10.3222
十里	-10.3226
詔書	-10.323
太平興國	-10.323
轎	-10.324
秋審	-10.3251
纔	-10.3256
陸續	-10.3262
灘	-10.3264
三十九年	-10.3264
跪進	-10.3264
千秋	-10.3265
改正	-10.3267
老人	-10.3268
鏤	-10.3271
龕	-10.3274
鎮總兵	-10.3275
則不	-10.3278
穴	-10.3279
見任	-10.3279
飢	-10.328
度支	-10.3282
鄙	-10.3284
璋	-10.3285
鳴鞭	-10.3286
辯	-10.3287
東上	-10.3287
未明	-10.329
鈐	-10.3293
時有	-10.3294
見經類	-10.3294
儀禮	-10.3295
盥手	-10.3296
上書	-10.3303
千人	-10.3303
磨	-10.3306
印信	-10.3312
孝武	-10.3322
十有四	-10.3327
男子	-10.3336
禀	-10.3337
管轄	-10.3338
更名	-10.3339
踏	-10.3341
八尺	-10.3342
質明	-10.3352
初置	-10.3352
歆	-10.3353
轅	-10.3356
天之	-10.3357
淫	-10.3358
宣宗	-10.3358
数	-10.336
枷	-10.336
侍臣	-10.3363
有大	-10.3364
一半	-10.3366
清河	-10.3366
隘	-10.3368
繒	-10.337
滿洲䝉古	-10.3375
祭官	-10.3383
洵	-10.3386
水利	-10.3396
東平	-10.3402
品官	-10.3403
人心	-10.3404
神座前	-10.3406
瀛	-10.3406
壇上	-10.3417
曰此	-10.3422
蔚	-10.3426
先儒	-10.3426
之年	-10.343
之半	-10.3431
入於	-10.3436
官屬	-10.3436
而止	-10.3439
悔	-10.3442
三十七年	-10.3444
來㑹	-10.3462
林鍾	-10.3462
眞	-10.3463
征明	-10.3464
沂	-10.3467
中書門下	-10.3468
三十七	-10.3471
一件	-10.3475
百石	-10.3483
為大	-10.3484
有奇	-10.3487
槽	-10.3487
餘兩	-10.3492
味	-10.3498
窺	-10.3499
先王	-10.3499
殿下	-10.3499
如遇	-10.3503
萬嵗	-10.3504
之本	-10.3505
洛陽	-10.3511
溜	-10.3512
以便	-10.3516
二州	-10.3519
十斤	-10.352
揆	-10.352
交部	-10.3521
並如	-10.3527
緡	-10.353
三百六十	-10.3531
之費	-10.354
銀一兩	-10.354
匣	-10.3553
布政使司	-10.3554
鑾駕	-10.3557
栢	-10.3557
甚衆	-10.3558
涵	-10.3561
敬謹	-10.3561
衣冠	-10.3563
巳	-10.3563
議覆	-10.3564
昇平	-10.3567
徒一年	-10.357
䑓	-10.3571
砦	-10.3578
五十年	-10.3578
桌	-10.3582
北上	-10.3584
丑	-10.3586
三省	-10.3596
枉法	-10.3596
湘	-10.3607
河道	-10.3609
滌	-10.3614
黒龍江	-10.3615
宋史	-10.3615
頭目	-10.3618
口糧	-10.3621
其罪	-10.3622
真宗	-10.3626
也夫	-10.3633
限内	-10.3634
士卒	-10.3635
杆	-10.3635
行三跪九叩禮	-10.3635
之政	-10.3637
如前	-10.3644
三年正月	-10.3654
毓	-10.3654
昭穆	-10.3657
一對	-10.3657
兵馬	-10.3661
仍以	-10.3662
北極	-10.3662
閔	-10.3663
帥其屬	-10.3663
漕糧	-10.3664
和之樂	-10.3666
不加	-10.3666
也若	-10.3667
沅	-10.3676
祕書	-10.3679
千七百	-10.368
僕射	-10.3681
愧	-10.3682
售	-10.3685
三十九	-10.3686
為從	-10.3689
各項	-10.3692
弧	-10.3698
羮	-10.3702
吟	-10.3706
取之	-10.3707
書曰	-10.3713
自然	-10.3716
内管領	-10.3717
隐	-10.3724
鉅	-10.3727
四十九	-10.3727
宫架	-10.373
鎮江	-10.3733
楞	-10.3735
諸將	-10.3736
諭㫖	-10.3736
濁	-10.3739
其言	-10.3744
二百二十	-10.3747
牟	-10.3752
行在	-10.3756
一并	-10.3757
盆	-10.3758
倉庫	-10.376
太陽	-10.3764
大抵	-10.3764
俞	-10.3766
之職	-10.3767
定議	-10.3768
恩詔	-10.3768
千石	-10.3768
訂	-10.377
佐領下	-10.3771
千二百	-10.3772
縗	-10.378
組	-10.3783
悼	-10.3784
朝貢	-10.3785
六尺	-10.3786
始祖	-10.3789
留任	-10.3791
宿衛	-10.3791
弓箭	-10.3793
佐領係	-10.3796
亦照	-10.3796
南陽	-10.38
汴	-10.3801
五十六	-10.3802
蘇州	-10.3805
鋒	-10.3807
冊寶	-10.3808
侍御史	-10.3812
例議處	-10.3816
職掌	-10.3825
蛇	-10.3828
六十四	-10.383
原係	-10.383
御殿	-10.3837
滇	-10.3838
此次	-10.3839
宜令	-10.384
奠爵	-10.3846
題請	-10.3846
遏	-10.3847
十餘萬	-10.385
遵行	-10.3855
減一等	-10.3857
如故	-10.3867
蹟	-10.3868
鞫	-10.3871
無論	-10.3871
縣丞	-10.3875
帝曰	-10.3875
吐蕃	-10.3876
經理	-10.3877
刃	-10.3877
蒸	-10.3879
簠	-10.3882
二十七日	-10.3884
百五十	-10.3886
翰林學士	-10.3894
按察司	-10.39
可謂	-10.3901
十餘年	-10.3903
一百九十	-10.3903
平糶	-10.3908
文學	-10.3909
者許	-10.3911
停其	-10.3911
螺	-10.3916
該撫	-10.3916
東門	-10.3917
昧	-10.3918
貌	-10.3923
堵	-10.3923
不拘	-10.3928
南吕	-10.393
損益	-10.3934
諡文	-10.3938
祭天	-10.3938
蔣	-10.3946
一嵗	-10.3948
泊	-10.3949
奉迎	-10.3952
飲福	-10.3952
右衛	-10.3953
唐制	-10.3955
自應	-10.396
朝堂	-10.3961
寧夏	-10.3961
明日	-10.3963
有罪	-10.3965
文章	-10.3966
辜	-10.3966
兖州	-10.3969
辛未	-10.3969
初以	-10.3971
總管府	-10.3978
照數	-10.398
建武	-10.3984
二曰	-10.3988
旗一	-10.3989
䕶軍㕘領	-10.3994
鼐	-10.3995
祉	-10.3999
升壇	-10.4007
𣲖	-10.401
陟	-10.4013
盛典	-10.4016
潞	-10.4017
以金	-10.4017
卷一百	-10.402
奏銷	-10.402
百二十	-10.4021
濯	-10.4021
嚴行	-10.4021
萬人	-10.4022
鄒	-10.4026
皆用	-10.4026
皆不	-10.4029
伯叔	-10.403
其實	-10.4032
俯伏興	-10.4033
應得	-10.4037
得以	-10.4038
者必	-10.4042
搭	-10.4043
天子之	-10.4046
長一丈	-10.4047
大成	-10.4049
狐	-10.4056
分引	-10.4057
劒	-10.4058
拾	-10.4068
賞銀	-10.407
十有一	-10.4072
黄金	-10.4077
各一員	-10.4077
廉	-10.4079
浸	-10.4083
鈴	-10.4083
乂	-10.4083
革退	-10.4084
大事	-10.4088
五等	-10.4094
各給	-10.4102
遣官致祭	-10.4103
帝即位	-10.4103
奠於	-10.4113
䕃	-10.4114
有犯	-10.4115
大水	-10.4116
所由	-10.4117
於太廟	-10.4127
噐	-10.4128
京兆	-10.413
硃	-10.4131
九尺	-10.4132
萬緡	-10.4136
一在	-10.4137
竝	-10.414
衚衕	-10.4144
景帝	-10.4147
吉禮	-10.4149
千六百	-10.4149
就近	-10.4152
即於	-10.4154
從其	-10.4155
僻	-10.4155
四日	-10.4159
今之	-10.4162
該督	-10.4164
天文	-10.4166
暑	-10.4173
分獻官	-10.4177
徹饌	-10.4177
領縣二	-10.4187
三十五年	-10.419
節度	-10.4194
各依	-10.42
掲	-10.4202
犬	-10.4203
叢	-10.4206
其家	-10.4208
𩔖	-10.4209
案於	-10.421
咨送	-10.4211
乃以	-10.4215
迭	-10.4222
裙	-10.4224
駮	-10.4229
繋	-10.4231
隙	-10.4233
為宫	-10.4236
庾	-10.4237
故殺	-10.424
會同	-10.4247
幷	-10.4249
凱旋	-10.425
襲封	-10.4253
坎	-10.4254
武舞	-10.4255
諳	-10.426
伯克一人	-10.4262
各部院	-10.4266
罪止	-10.4269
田租	-10.4269
採買	-10.427
左氏	-10.4273
各置	-10.4275
瓶	-10.4275
警蹕	-10.4276
遼陽	-10.4283
前引	-10.4284
飲酒	-10.4284
差官	-10.4285
某官	-10.4288
西方	-10.4292
大都	-10.4292
如所請	-10.4294
諸太祝	-10.4302
匏	-10.4307
圏	-10.4311
亥	-10.4315
卯	-10.4316
緦麻	-10.4318
凡遇	-10.4319
諸衛	-10.4321
衍聖公	-10.4323
山陵	-10.4325
徼	-10.4327
按察使	-10.4327
左衛	-10.4329
四縣	-10.4332
於廟	-10.4338
紅羅	-10.4338
制書	-10.434
芻	-10.434
貺	-10.4342
之禁	-10.4343
㓂	-10.4345
列聖	-10.4345
四面	-10.4349
球	-10.4351
鼓鑄	-10.4352
恭遇	-10.4355
穹	-10.4355
各以	-10.4356
闔	-10.436
譏	-10.4363
迨	-10.4371
皆如	-10.4372
之功	-10.4374
入朝	-10.4381
幫	-10.4383
萬里	-10.4384
公私	-10.4388
曰吾	-10.4391
西京	-10.4391
榆	-10.4392
努	-10.4393
力戰	-10.4394
相應	-10.4396
十有六	-10.4397
旣	-10.44
之妻張	-10.44
蓮	-10.4402
重者	-10.4406
銅錢	-10.4406
参	-10.4408
繇	-10.4413
亦以	-10.4414
襄陽	-10.4419
罪人	-10.4421
達爾	-10.4422
仍舊	-10.4423
怪	-10.4426
之象	-10.4427
三十一	-10.4429
鞏	-10.4431
兑	-10.4438
軍務	-10.4439
之書	-10.4441
察覈	-10.4441
多羅	-10.4443
樞宻院	-10.4445
多爾濟	-10.4446
泗	-10.4447
孝文	-10.4453
太微	-10.4456
安定	-10.4459
己未	-10.4459
崇禎	-10.446
乾清門	-10.446
縣地	-10.4463
南北向	-10.4463
多少	-10.4464
三十四年	-10.4465
十有八	-10.4465
以爵	-10.4465
狹	-10.447
護	-10.4475
親臨	-10.4481
里南至	-10.449
徴收	-10.4492
舄	-10.4492
間有	-10.4494
斧	-10.4497
進士官至	-10.4498
承辦	-10.4503
五間	-10.4504
之案	-10.451
厄魯特	-10.4513
者或	-10.4517
徴銀	-10.4523
軍流	-10.453
上元	-10.4531
造冊	-10.4537
鑲	-10.4537
改設	-10.4538
吿	-10.4543
各營	-10.455
宣慰司	-10.4551
額外	-10.4552
王公百官	-10.4554
技	-10.4557
塊	-10.4558
領縣三	-10.4559
四十年	-10.4562
幢	-10.4562
皇貴妃	-10.4564
攝事	-10.4564
栗	-10.4566
民生	-10.4567
一家	-10.4567
刑名	-10.4571
夾鍾	-10.4573
鉶	-10.4574
暈	-10.4575
返	-10.4576
不然	-10.4579
即將	-10.4579
互相	-10.4582
萃	-10.4584
縫	-10.4585
罷之	-10.459
志曰	-10.459
壬午	-10.4596
監臨	-10.4596
猪	-10.4598
外其餘	-10.4599
即令	-10.4601
湛	-10.4601
職事	-10.4602
作為	-10.4604
之始	-10.4607
預備	-10.4611
攷	-10.4612
廻	-10.4613
督撫提鎮	-10.4615
景泰	-10.462
鑾儀衛	-10.4621
明史	-10.4623
太傅	-10.4624
府州	-10.4627
侈	-10.4628
月令	-10.4631
二釐	-10.4633
六千	-10.4633
本處	-10.4634
又於	-10.4637
導引	-10.4638
覃	-10.4638
以其子	-10.4641
百户	-10.4642
培	-10.4648
次年	-10.4653
侍儀	-10.4655
一道	-10.4655
悟	-10.4656
情願	-10.4658
杖六十	-10.4659
不通	-10.4662
以次出	-10.4663
後為	-10.4663
喬	-10.4669
琮	-10.4678
候補	-10.468
丁丑	-10.4681
為主	-10.4682
數萬	-10.4683
百斤	-10.4683
偉	-10.4689
沾	-10.4692
王莽	-10.4695
下馬	-10.4695
奉諭	-10.4697
二刻	-10.4702
潁	-10.4702
不肯	-10.4703
遲延	-10.471
真定	-10.4715
二百八十	-10.4716
開寳	-10.4718
考取	-10.4723
諸儒	-10.4723
未可	-10.4731
諧	-10.4736
分之一	-10.4738
原封	-10.4738
東京	-10.4744
僭	-10.4744
自此	-10.4747
不盡	-10.4751
蓬	-10.4754
㢘	-10.4755
第六	-10.4769
士子	-10.477
駿	-10.4772
纁	-10.4782
般	-10.4785
坍	-10.4785
棉	-10.4787
傘	-10.4787
評	-10.4787
折銀	-10.4788
夘	-10.4788
四十二	-10.4789
臧	-10.4793
向例	-10.4798
元年二月	-10.4798
届	-10.4801
人所	-10.4802
甲辰	-10.4804
五兩	-10.4805
所請	-10.4807
伎	-10.4812
並不	-10.4812
其法	-10.4812
其書	-10.4813
孝經	-10.4814
隨行	-10.4814
闊	-10.4815
西東向	-10.4816
儒學	-10.4816
又詔	-10.4818
率衆	-10.4821
其次	-10.4823
漕運	-10.4823
畫一	-10.4824
移駐	-10.4825
睿宗	-10.4825
監司	-10.4826
法駕	-10.4828
矩	-10.4832
西上	-10.4834
寝	-10.4834
其文	-10.4837
酌定	-10.484
里北至	-10.484
熱河	-10.4841
詳議	-10.4841
檐	-10.4842
掖	-10.4843
司庫	-10.4843
諸色	-10.4854
噶爾丹	-10.4856
丙	-10.486
其上	-10.4862
常侍	-10.4863
縣知縣	-10.4869
此皆	-10.487
副将	-10.487
不時	-10.4873
躋	-10.4873
樞宻	-10.4874
墊	-10.4874
永安	-10.4883
以出	-10.4883
址	-10.4887
順帝	-10.4888
時以	-10.489
一凡	-10.4897
貢方物	-10.4898
㳟	-10.49
俄	-10.4902
譚	-10.4905
正殿	-10.4906
琿	-10.4907
承祭官	-10.4908
此則	-10.4909
克圖	-10.491
其兄	-10.4911
南方	-10.4912
中都	-10.4912
巷	-10.4916
晚	-10.4918
於上	-10.4923
家長	-10.4924
答拜	-10.4925
升降	-10.4927
商賈	-10.4933
恢	-10.4933
准此	-10.4934
道府	-10.4934
王大臣	-10.4942
十六日	-10.4942
公侯伯	-10.4943
無事	-10.4943
楮	-10.4944
高祖	-10.4945
疲	-10.4951
三十三	-10.4953
受冊	-10.4956
降一級調用	-10.4957
金石	-10.4957
夏至	-10.496
阮	-10.4965
河工	-10.4967
冗	-10.4969
十有三	-10.4972
四員	-10.4975
謹按本朝定制	-10.4975
讞	-10.4978
三曰	-10.498
上年	-10.4984
庚辰	-10.4985
中統	-10.4989
曉諭	-10.4993
四十人	-10.4994
境内	-10.4996
情實	-10.4997
大典	-10.4999
濵	-10.5001
定擬	-10.5002
南海	-10.5003
妃嬪	-10.5007
筮	-10.5011
慶賀	-10.5017
荅	-10.5019
表裏	-10.5021
全完	-10.5023
免議	-10.5024
流民	-10.5025
版位	-10.5026
臨清	-10.5026
四拜	-10.5029
事者	-10.5029
詭	-10.503
掘	-10.5031
床	-10.5032
鎮標	-10.5034
引河	-10.5036
潢	-10.5038
髮	-10.5039
太極	-10.5041
通考	-10.5042
羙	-10.5045
緬	-10.5049
刑部尚書	-10.5051
潜	-10.5051
奏曰	-10.5056
每石	-10.5059
敖	-10.5072
三刻	-10.5073
等縣	-10.5073
九州	-10.5079
綜	-10.5081
學官	-10.5083
堆	-10.5085
前跪	-10.5091
揑	-10.5093
三十八	-10.5101
中軍守備一人	-10.5106
套	-10.511
叅將	-10.5113
夷則	-10.5118
致死	-10.512
官一人	-10.512
一座	-10.512
之律	-10.5125
少府	-10.5126
姊妹	-10.5134
周制	-10.5135
鎮國將軍	-10.5135
慢	-10.5138
封爵	-10.5141
家口	-10.5142
苛	-10.5145
後殿	-10.5145
棚	-10.5147
不易	-10.5148
煎	-10.515
建昌	-10.5151
昊天上帝	-10.5152
請於	-10.5152
兩浙	-10.5153
方物	-10.5153
天聰	-10.5156
房屋	-10.5158
㪚	-10.5158
鞍	-10.5164
恬	-10.5164
席於	-10.5166
雍正三年	-10.5167
豁	-10.5168
水師	-10.517
裂	-10.517
元帥	-10.5176
殿庭	-10.5177
𦂳	-10.5178
管理續以	-10.5178
茲	-10.5179
亦同	-10.5184
諸部	-10.5185
謁者引太尉	-10.5192
如式	-10.5198
斌	-10.52
取中	-10.5203
一人掌	-10.5207
不從	-10.5208
禮物	-10.5211
四十五年	-10.5216
以俟	-10.5219
經義	-10.5221
請以	-10.5223
皆為	-10.5227
畱	-10.523
將士	-10.5234
册寶	-10.5236
一斤	-10.5237
違限	-10.5238
一條	-10.524
廡	-10.5241
御史中丞	-10.5242
東海	-10.5248
愆	-10.5249
平縣	-10.5251
艾	-10.5253
助教	-10.5257
文舞	-10.5257
竊盜	-10.5258
五萬	-10.5267
中道	-10.5267
不可不	-10.5267
之祭	-10.5267
兩省	-10.5272
揀選	-10.5272
完結	-10.5275
臚	-10.5279
熱	-10.5282
年二月	-10.5285
葦	-10.5286
期滿	-10.5288
乙酉	-10.5289
上表	-10.5289
户部尚書	-10.5296
申報	-10.5296
惕	-10.5299
貲	-10.5302
於壇	-10.5302
阿之妻	-10.5304
外任	-10.5304
奏報	-10.5304
中書舍人	-10.5307
案前	-10.5307
渤海	-10.5308
天命	-10.5308
尺二寸	-10.531
職名	-10.531
三十二年	-10.5313
溺	-10.5313
不一	-10.5313
復舊	-10.5318
賊衆	-10.5319
秘書	-10.5319
次詣	-10.5325
四十一年	-10.5329
七名	-10.533
皇朝	-10.5333
民力	-10.5335
各該	-10.5336
所居	-10.5338
風雨	-10.5344
其下	-10.5347
左庶子	-10.5349
劣	-10.535
在内	-10.536
廼	-10.5362
慶元	-10.5362
午門	-10.5362
祭文	-10.5364
無異	-10.5366
東都	-10.5367
犧	-10.5371
於民	-10.5372
文武百官	-10.5372
歸於	-10.5373
一部	-10.5373
蕃王	-10.5381
漕船	-10.5382
世爵	-10.5382
通事舍人	-10.5386
之恩	-10.5387
動支	-10.5389
狩	-10.5395
所轄	-10.5397
饋	-10.5405
該員	-10.5406
實在	-10.5413
儐者	-10.5417
㡌	-10.5418
不入	-10.5421
聰	-10.5422
二百七十	-10.5425
敗之	-10.5425
太白犯	-10.5426
知州	-10.5428
恕	-10.5428
一石	-10.5428
者曰	-10.5431
二百三十	-10.5432
三獻	-10.5438
應令	-10.544
實為	-10.5441
簷	-10.5442
藤	-10.5443
文宗	-10.5444
十畝	-10.5451
剿	-10.5452
又云	-10.5452
贊禮郎	-10.5456
又置	-10.546
額數	-10.546
五錢	-10.5461
汲	-10.5464
文職	-10.5465
簠簋	-10.5467
罍	-10.5471
今嵗	-10.5472
無子	-10.5481
映	-10.5482
電	-10.5482
改置	-10.5484
帝以	-10.5487
一千二百	-10.5487
兖	-10.5488
然而	-10.549
壇下	-10.549
軒轅	-10.5491
其時	-10.5493
措	-10.5496
彗	-10.5497
惰	-10.5506
其義	-10.5507
鉤	-10.5508
之喪	-10.5509
曜	-10.5509
檄	-10.5509
二百六十	-10.551
簡選	-10.5513
中和韶樂	-10.5517
女官	-10.5521
賞賚	-10.5523
四年正月	-10.5523
統領	-10.5523
多羅貝勒	-10.5523
買補	-10.5525
盜賊	-10.5527
跪奠	-10.553
有無	-10.553
又言	-10.553
二十卷	-10.5535
樊	-10.5537
至徳	-10.5539
聞之	-10.5539
太保	-10.5539
三十人	-10.5541
存留	-10.5543
辛巳	-10.5543
祜	-10.5546
北向西上	-10.555
收買	-10.5551
每一	-10.5552
跪奏	-10.5555
亘	-10.5556
皆同	-10.556
僧道	-10.5561
需用	-10.5561
大臣等	-10.5563
器械	-10.5564
聿	-10.5567
城内	-10.5572
涿	-10.5573
裹	-10.5574
徽宗	-10.5576
秘	-10.5577
每名	-10.5578
軍事	-10.5583
厯代	-10.5583
様	-10.5589
飲食	-10.5593
成王	-10.5593
上都	-10.5594
妣	-10.5596
恣	-10.5598
太僕	-10.5599
六十五	-10.5601
一律	-10.5602
儀同	-10.5607
萬方	-10.561
玉輅	-10.5611
僉事	-10.5611
二十萬	-10.5615
殁	-10.5622
於壇上	-10.5623
出次	-10.5623
太宰	-10.5625
而有	-10.5627
傳諭	-10.5629
不忍	-10.563
不出	-10.5632
雖不	-10.5639
戾	-10.564
出宫	-10.5643
運司	-10.5646
鄭氏	-10.5646
旗下	-10.5646
韜	-10.565
食貨	-10.565
淳熙	-10.5655
餘皆	-10.5657
不設	-10.5664
永昌	-10.5669
太牢	-10.5672
為名	-10.5673
三旗	-10.5674
又按	-10.5677
功徳	-10.5679
梓	-10.568
暉	-10.5682
石塘	-10.5688
勘合	-10.569
辱	-10.569
游擊	-10.5691
十匹	-10.5696
之長	-10.57
淨	-10.5703
成功	-10.5703
詳定	-10.5709
踵	-10.5719
溯	-10.5721
後唐	-10.5723
霄	-10.5728
毛血	-10.5735
考之	-10.5736
中書侍郎	-10.5739
兩五錢	-10.574
臂	-10.5741
星去極	-10.5745
位前	-10.5749
州衛	-10.5752
其衆	-10.5755
如此則	-10.5755
五經	-10.5758
之君	-10.576
畤	-10.5763
祖父	-10.5765
齋宫	-10.5766
貨物	-10.5766
之妻李	-10.5774
宗即位	-10.5775
應照	-10.5776
褥位	-10.5776
忍	-10.5778
無窮	-10.5783
黍稷	-10.5784
府尹	-10.5786
其父	-10.5788
爾哈	-10.5791
宣制	-10.5793
千萬	-10.5794
奏樂	-10.58
祭於	-10.5802
王公大臣	-10.5806
雅爾	-10.581
熒惑犯	-10.5812
用兵	-10.5815
經畧	-10.5815
計贓	-10.5819
後改	-10.582
保舉	-10.5822
方澤	-10.5824
中丞	-10.5825
覆奏	-10.5831
昂	-10.5833
為奴	-10.5837
砂	-10.584
二丈	-10.5841
各就位	-10.5842
被水	-10.5845
該地方官	-10.5845
各旗	-10.5846
統轄	-10.5853
屬官	-10.5855
本身	-10.5859
工部尚書	-10.5862
虐	-10.5864
奢	-10.5866
奉行	-10.5867
欄	-10.5872
厨	-10.5872
降二級調用	-10.5873
南直𨽻	-10.5876
無卷	-10.5876
各服其服	-10.5877
大禮	-10.5877
仇	-10.5878
掌印	-10.5879
領縣一	-10.5879
至日	-10.5879
揺	-10.5883
祀天	-10.5884
戰國	-10.5885
於後	-10.5891
粗	-10.5895
先農	-10.5895
修撰	-10.59
五十四	-10.5901
工人	-10.5901
擊敗	-10.5902
安撫司	-10.5904
左傳	-10.5904
儀衛	-10.591
噶爾	-10.5912
之理	-10.5916
兩翼	-10.592
門下	-10.5923
尅	-10.5926
燦	-10.5927
謀殺	-10.5929
州界	-10.593
喇嘛	-10.5936
甎	-10.594
神牌	-10.5943
爛	-10.5946
二年三月	-10.5948
快	-10.5949
將來	-10.5949
自首	-10.5949
不足以	-10.5952
人世居	-10.5953
簽	-10.5953
仿	-10.5955
五十五	-10.5959
悲	-10.5959
元旦	-10.5962
稱賀	-10.5965
草木	-10.5966
約束	-10.5966
握	-10.5967
捷	-10.5971
奥	-10.5972
四十九年	-10.5973
為三	-10.5973
其説	-10.5974
所出	-10.5975
議敘	-10.5978
未必	-10.598
地丁	-10.5981
徳州	-10.5982
故有	-10.5984
鵬	-10.5986
虧空	-10.5991
在南	-10.5994
鎮守	-10.5996
譽	-10.5996
夫子	-10.6001
十萬石	-10.6001
田地	-10.6002
庠	-10.6005
兢	-10.6007
鈒	-10.6008
唐虞	-10.6009
沮	-10.6009
金龍	-10.601
鳩	-10.6015
沿途	-10.6017
從官	-10.6018
鑰	-10.6018
承制	-10.6019
卿大夫	-10.6022
鄭𤣥	-10.6027
已有	-10.6028
止於	-10.6028
廷臣	-10.6031
一斗	-10.6031
柏	-10.6031
復以	-10.6033
又再拜	-10.6038
千八百	-10.604
臨軒	-10.604
位在	-10.6041
魏晉	-10.6045
雍正七年	-10.6046
原額	-10.6046
鳴贊	-10.6047
安國	-10.6048
宫縣	-10.6048
辛丑	-10.6049
複	-10.6052
官有	-10.6052
降階	-10.6059
張家口	-10.606
諸郡	-10.6063
先行	-10.6067
不絶	-10.6068
閭閻	-10.6068
汶	-10.6073
蹈	-10.6078
趣	-10.6082
大觀	-10.6083
陂	-10.6084
義倉	-10.6089
時刻	-10.6093
爾雅	-10.6097
此項	-10.6098
前鋒校	-10.61
故云	-10.6101
摘	-10.6102
焦	-10.6106
中和	-10.6107
歐陽	-10.6111
樣	-10.6116
左輔	-10.6117
病故	-10.6119
執政	-10.612
脫	-10.6124
蠻夷	-10.6126
四十七	-10.6131
粥	-10.6131
兩旁	-10.6132
遮	-10.6142
禎	-10.6144
砌	-10.6144
廣州	-10.6152
行人	-10.6152
敇	-10.6156
厪	-10.6157
私鑄	-10.6157
不報	-10.6159
諒	-10.6161
相承	-10.6164
拊	-10.6167
散齋	-10.617
因事	-10.6174
奉命	-10.6174
鞠躬拜興拜興平身	-10.6174
髙下	-10.6176
尖	-10.618
武舉	-10.6181
跪受	-10.6182
總理	-10.619
本寺	-10.619
吏部侍郎	-10.619
以及	-10.6192
所殺	-10.6193
大徳	-10.6195
看守	-10.6199
撒	-10.6199
入門	-10.6199
元史	-10.6199
國語	-10.6201
五官	-10.6206
倡	-10.6212
知事	-10.6213
時享	-10.6213
黼	-10.6214
夥	-10.6214
驕	-10.6214
指揮使	-10.6215
五里	-10.6215
公子	-10.622
索倫	-10.6224
太樂令	-10.6224
故以其弟	-10.6226
應試	-10.6231
逐一	-10.6233
交易	-10.6236
社倉	-10.624
中間	-10.6244
不獲	-10.6246
本紀	-10.6247
三年三月	-10.6251
劇	-10.6252
鋪作	-10.6252
攤	-10.6252
搆	-10.6253
丁未	-10.6254
元年四月	-10.6254
甄	-10.6259
開元禮	-10.6262
樞密院	-10.6264
不肖	-10.6267
減等	-10.6267
六釐	-10.6267
尚儀	-10.6269
及第	-10.627
二年五月	-10.6272
轉運	-10.6275
序曰	-10.6284
酌酒	-10.6284
牛羊	-10.6284
回部	-10.6288
儼	-10.6289
貼金	-10.6289
稽查	-10.629
安西	-10.6291
殿門	-10.6291
府學	-10.6292
等奏	-10.6292
物料	-10.6292
鞠躬	-10.6295
半年	-10.6301
西向北上	-10.6304
見史類	-10.6304
樂懸	-10.6306
歎	-10.6309
嵗星	-10.631
康熙四十	-10.6313
未盡	-10.6313
泣	-10.6314
祖父母父母	-10.6316
八釐	-10.6317
恩賜	-10.6318
月食	-10.6318
淄	-10.6319
兩廡	-10.6321
鱗	-10.6322
四字	-10.6323
折色	-10.6325
衙署	-10.6327
晝夜	-10.6327
其職	-10.6331
者聽	-10.6333
佳氏	-10.6336
乾隆二年	-10.6336
郊社令	-10.6337
公同	-10.6337
差役	-10.6338
書院	-10.634
粒	-10.6341
朕意	-10.6341
楷	-10.6342
饑民	-10.6343
瀋陽	-10.6344
大學	-10.635
出師	-10.6351
戌	-10.6352
鞭一百	-10.6353
情罪	-10.6354
提㸃	-10.6355
弑	-10.6355
令丞	-10.6357
樞密	-10.6358
不完	-10.6359
椒	-10.6363
備用	-10.6364
尊卑	-10.6364
私鹽	-10.6364
上命	-10.6365
冝	-10.6367
人民	-10.6367
行至	-10.6368
四釐	-10.6373
五十里	-10.6374
躍	-10.6375
五十九	-10.6375
王妃	-10.6382
喻	-10.6384
肄業	-10.6384
之左右	-10.6385
該省	-10.6386
插	-10.6387
二年四月	-10.6392
水勢	-10.6395
題補	-10.6395
常朝	-10.6399
滕	-10.6401
礟	-10.6403
朝夕	-10.6404
非常	-10.6408
哈達	-10.6409
多有	-10.641
潼	-10.6412
葵	-10.6414
所作	-10.6416
禘祫	-10.6417
皇孫	-10.6417
地平	-10.6418
修築	-10.6418
主昏者	-10.6421
之末	-10.6422
磁	-10.6422
進酒	-10.6427
侍讀	-10.6432
一經	-10.6434
跪取	-10.6436
奇	-10.6437
株	-10.6441
著加恩	-10.6442
今據	-10.6442
栱	-10.6443
俱照	-10.6443
中門	-10.6444
前鋒統領	-10.6444
菹	-10.6447
皇城	-10.6448
其聲	-10.6449
功牌	-10.6454
題准	-10.6456
分給	-10.6457
駕至	-10.6462
祭日	-10.6462
二百九十	-10.6466
並令	-10.6466
都御史	-10.6467
大業	-10.6469
翻	-10.6476
暗	-10.6476
況	-10.6477
則是	-10.6478
長吏	-10.6479
一字	-10.6481
驢	-10.6482
二年六月	-10.6486
無益	-10.6487
軍節度	-10.6488
是嵗	-10.6492
惟是	-10.6492
考滿	-10.6495
所需	-10.6495
鴻臚	-10.6496
庚戌	-10.6499
所言	-10.6503
盎齊	-10.6506
之女	-10.6506
配天	-10.6507
郡地	-10.6509
三十里	-10.6514
開封	-10.6516
贊禮	-10.652
剰	-10.6523
滿洲蒙古	-10.6525
舞蹈	-10.6526
官弁	-10.6528
之說	-10.6532
司爵	-10.6533
杖八十	-10.6534
官二人	-10.6535
左丞	-10.6535
兩京	-10.6535
四十四	-10.6539
坡	-10.6544
大駕	-10.6544
菴	-10.6544
直𨽻州	-10.6548
雍正五年	-10.6548
千兩	-10.6549
天地之	-10.6551
者又	-10.6551
第七	-10.6552
四十名	-10.6553
㕘將	-10.6553
稍前	-10.6555
三年二月	-10.6555
漂	-10.6556
年諡	-10.6556
初虧	-10.6558
聖主	-10.6562
剪	-10.6562
月初一日	-10.6567
一篇	-10.6569
立法	-10.657
籖	-10.6571
濟寧	-10.6574
山罍	-10.6575
貢舉	-10.6575
領侍衛内大臣	-10.6578
億萬	-10.658
同上	-10.6582
恭進	-10.6583
以時	-10.6586
旛	-10.659
之餘	-10.6596
責成	-10.6596
四十三年	-10.6596
一百十	-10.6598
口外	-10.6599
一千五百	-10.66
象尊	-10.66
碑文	-10.6602
列侯	-10.6602
暖	-10.6604
陞座	-10.6606
衆官	-10.6607
髤	-10.6608
官至	-10.6608
氏正白旗滿洲	-10.6611
獻爵	-10.6611
松山	-10.6612
一事	-10.6614
侑	-10.6617
建中	-10.662
擇日	-10.6622
徒二年	-10.6622
戊申	-10.6622
本管	-10.6623
門下侍郎	-10.6626
城中	-10.6627
四十六	-10.6627
等第	-10.6629
外官	-10.663
堂子	-10.6631
親征	-10.6635
己酉	-10.6636
滑	-10.6639
旗分	-10.6641
祗告	-10.6648
員外	-10.6652
頴	-10.6655
窄	-10.6655
丙午	-10.6657
坑	-10.6657
國用	-10.6659
進賢	-10.6661
祠祭	-10.6662
莭	-10.6662
是書	-10.6663
之至意	-10.667
聖徳	-10.6673
大樂令	-10.6675
田賦	-10.6678
人情	-10.6679
歿	-10.6681
一十五	-10.6686
移咨	-10.6689
賞罰	-10.669
雅樂	-10.6693
四曰	-10.6699
奉國將軍	-10.6705
甲午	-10.6707
貢使	-10.6707
搶	-10.6714
淳化	-10.6718
新舊	-10.672
盾	-10.6721
外國	-10.6724
徭	-10.6725
應升	-10.6727
復圓	-10.6733
慧	-10.6736
七廟	-10.6736
雁	-10.6738
睢	-10.6742
守衛	-10.6742
兊	-10.6742
侍立	-10.6749
支領	-10.6749
癸巳	-10.6749
案内	-10.675
壮	-10.6754
山海闗	-10.676
有益	-10.6762
子曰	-10.6762
梯	-10.6767
秦漢	-10.6768
戊	-10.6769
朕心	-10.677
至京師	-10.677
元年詔	-10.6771
條奏	-10.6775
二疋	-10.6777
忒	-10.6779
二府	-10.678
鬬	-10.6783
嗣立	-10.6785
伏以	-10.6788
模	-10.6789
為首者	-10.6792
照依	-10.6794
在左	-10.6795
都統副都統	-10.6799
購	-10.6811
𦂳要	-10.6811
太社	-10.6813
人君	-10.6814
霖	-10.6819
龍頭	-10.6823
日給	-10.6823
詎	-10.6824
子康熙	-10.6825
而還	-10.6825
伯克	-10.6827
乾坤	-10.6827
配帝	-10.6828
始於	-10.6829
相去	-10.683
寧縣	-10.6831
纂修	-10.6833
乙巳	-10.6833
氏正黄旗滿洲	-10.6834
賡	-10.6835
四年二月	-10.6837
仲春	-10.6839
大臣官員	-10.6839
遂以	-10.6839
降自西階	-10.6839
宗伯	-10.684
簪	-10.684
北平	-10.684
圈	-10.684
清吏司	-10.6841
丁憂	-10.6843
年正月	-10.6843
一實	-10.6844
各屬	-10.6846
北南向	-10.6848
癸酉	-10.6848
狗	-10.685
特命	-10.6852
薊	-10.6857
大中祥符	-10.6858
於前	-10.6859
㑹議	-10.6864
者雖	-10.6866
乙未	-10.6868
稽古	-10.6869
艘	-10.6871
賛引	-10.6871
少監	-10.6871
繆	-10.6873
芬	-10.6873
戊辰	-10.6874
轡	-10.6875
其他	-10.6875
破之	-10.6879
犧尊	-10.688
人材	-10.6885
保甲	-10.6887
二十四人	-10.6887
曽孫	-10.6891
城外	-10.6894
職銜	-10.6894
装	-10.6895
牡	-10.6896
國史	-10.6897
而未	-10.6902
奉禮郎	-10.6904
船隻	-10.6904
等議	-10.6906
奨	-10.6908
七十五	-10.6908
者與	-10.6909
開國	-10.6909
八十一	-10.691
駙馬	-10.6911
懈	-10.6911
研	-10.6911
立廟	-10.6913
不實	-10.6922
徒流	-10.6922
製造	-10.6923
北靣	-10.6926
想	-10.6931
因其	-10.6931
寧逺	-10.6932
降調	-10.6933
州治	-10.6936
出納	-10.6943
疏請	-10.6945
省方	-10.6952
舊章	-10.6952
必須	-10.6952
車騎	-10.6955
叠	-10.6955
並未	-10.6955
官給	-10.6956
祖母	-10.6957
例應	-10.6959
條例	-10.6966
所宜	-10.6968
縮	-10.6971
礙	-10.6972
至于	-10.6972
頤	-10.6973
藝文志	-10.6973
三十三年	-10.6974
皆仍	-10.6976
十八日	-10.6977
案件	-10.6978
領縣四	-10.698
復有	-10.698
邢	-10.6983
則為	-10.6988
讐	-10.6991
八千	-10.6991
相對	-10.6997
奉表	-10.6999
簧	-10.6999
觀察使	-10.7009
愷	-10.7009
蠟	-10.7013
大敗	-10.7014
曲阜	-10.7015
呈報	-10.7016
之計	-10.7017
御極	-10.7017
誼	-10.7017
三師	-10.7018
莞	-10.7021
特穆爾	-10.7021
尚食	-10.7023
事發	-10.7024
黄門	-10.7025
雨雹	-10.7026
隨征	-10.7026
其本	-10.7029
號曰	-10.7031
海陵	-10.7033
山東河南	-10.7034
両	-10.7034
豈不	-10.7035
脱逃	-10.7036
三年四月	-10.7042
形勢	-10.7048
瓜	-10.7048
蘄	-10.7049
乾元	-10.705
䓁	-10.7051
涸	-10.7052
盞	-10.7052
碎	-10.7054
沿海	-10.7054
七千	-10.7055
闗防	-10.7055
牛录	-10.7058
瓚	-10.706
劵	-10.7061
周易	-10.7062
皥	-10.7063
可見	-10.7063
若夫	-10.7064
誣告	-10.7069
三等輕車都尉	-10.7074
餘石	-10.7075
二十五日	-10.7075
囉	-10.7077
朶	-10.7078
矯	-10.708
俛伏	-10.7086
腥	-10.7087
水陸	-10.7087
九日	-10.7088
處所	-10.7089
城守	-10.7092
股	-10.7092
就次	-10.7095
依律	-10.7095
於篚	-10.7095
恭領	-10.71
之學	-10.7103
本犯	-10.7105
千古	-10.7106
鎮撫	-10.7108
廷尉	-10.7109
之實	-10.711
彤	-10.711
可得	-10.7111
捉	-10.7111
伺	-10.7114
納采	-10.7115
或曰	-10.7117
幃	-10.712
年月	-10.7121
膚	-10.7121
鄴	-10.7122
先帝	-10.7125
天神	-10.7129
螭	-10.7132
彬	-10.7132
一章	-10.7136
均照	-10.7137
棲	-10.7137
于是	-10.7138
迷	-10.7141
而去	-10.7141
所定	-10.7142
生事	-10.7143
贊引引	-10.7144
宣慰	-10.7146
初屬	-10.715
昴	-10.7152
元年三月	-10.7153
因循	-10.7154
監候	-10.7156
盗賊	-10.7158
丙辰	-10.7159
其應	-10.716
小學	-10.7161
所當	-10.7161
邳	-10.7165
㑹稽	-10.7169
袋	-10.7175
廣平	-10.7175
己亥	-10.7176
公孫	-10.7177
唐宋	-10.7177
四十四年	-10.7177
在右	-10.718
㤙	-10.7182
以下皆再拜	-10.7183
尋常	-10.7187
悃	-10.7191
氏正白旗滿洲馬甲	-10.7193
引禮	-10.7194
虡	-10.7194
建隆	-10.7196
奄	-10.7197
安之樂作	-10.7197
至此	-10.7198
大將	-10.7198
舉麾	-10.7199
袒	-10.72
正副使	-10.72
存貯	-10.7201
三老	-10.7205
咸平	-10.7206
吏目	-10.7208
長樂	-10.7209
南昌	-10.721
四夷	-10.7211
哥	-10.7212
者令	-10.7214
辭曰	-10.7221
著為令	-10.7221
元年五月	-10.7222
録事	-10.7222
拜褥	-10.7222
彼此	-10.7223
三百五十	-10.7228
皆得	-10.7229
之患	-10.7232
一尺二寸	-10.7238
有二	-10.7239
脯	-10.724
封禪	-10.724
力戰陣亡	-10.724
乙丑	-10.7241
囬	-10.7242
筐	-10.725
瘠	-10.7255
廣寧	-10.7255
官一員	-10.7256
察明	-10.7257
郵	-10.7258
亦曰	-10.7258
照常	-10.7258
令該	-10.7259
矣然	-10.726
彞	-10.726
擎	-10.7262
正法	-10.7265
琖	-10.7266
帝崩	-10.727
六合	-10.7271
將領	-10.7274
遣人	-10.7275
穰	-10.7275
京畿	-10.7275
大風	-10.7278
敝	-10.7279
司樂	-10.7279
尺八寸	-10.7279
梧	-10.7281
壬申	-10.7281
山海	-10.7282
四十三	-10.7282
香案前	-10.7282
得之	-10.7283
西門	-10.7285
丁酉	-10.7287
入學	-10.7288
建安	-10.7289
金黄	-10.7295
異姓	-10.7297
牲畜	-10.7303
鴻臚寺官	-10.7303
皆再拜	-10.7304
彪	-10.7304
最為	-10.7304
取進	-10.7306
聖人之	-10.7308
寧之曲	-10.7309
選舉	-10.7311
七卷	-10.7315
散官	-10.7317
原設	-10.7317
定限	-10.7318
廓	-10.7319
柵	-10.7319
衮冕	-10.7319
陀	-10.732
康熙五十	-10.7322
徒罪	-10.7325
毎嵗	-10.7329
銀一錢	-10.733
别有	-10.7333
中式	-10.7333
阿桂	-10.7335
近侍	-10.7336
長短	-10.7338
云云	-10.7339
二年七月	-10.7341
宫懸	-10.7341
千三百	-10.7342
在位者皆再拜	-10.7342
州或為	-10.7343
始置	-10.7344
武昌	-10.7344
崇寧	-10.7345
􁀙	-10.7346
苐	-10.7346
乾隆十六年	-10.7347
太和殿	-10.735
瓣	-10.735
丙申	-10.735
神坐	-10.7354
竣	-10.7358
合於	-10.7361
擇其	-10.7362
禆	-10.7362
與其	-10.7366
奉㫖依議	-10.7366
北路	-10.7366
遵照	-10.7368
地祇	-10.7369
城守尉	-10.7369
行幸	-10.7371
之任	-10.7374
議凖	-10.7375
之世	-10.7376
貴賤	-10.7377
固山貝子	-10.7378
朝日	-10.7379
朽	-10.7379
酷	-10.7382
丙戌	-10.7383
做	-10.7383
十四卷	-10.7384
臣工	-10.7386
如果	-10.7386
望瘞	-10.7387
率土	-10.7388
居民	-10.739
嬰	-10.7392
在府西	-10.7395
王貝勒	-10.7401
有常	-10.7406
仲吕	-10.7407
滙	-10.7408
福州	-10.7411
應天	-10.7413
諌	-10.7414
大司馬	-10.7414
漢中	-10.7417
五十三	-10.7421
軍政	-10.7425
候選	-10.7426
中宫	-10.7426
堂下	-10.7426
進攻	-10.7427
璜	-10.7428
省牲	-10.7429
内史	-10.7437
青龍	-10.7438
星出	-10.7438
之號	-10.7439
古制	-10.7441
著於	-10.7442
斿	-10.7446
堯舜	-10.7447
嚴禁	-10.7448
在其南	-10.7449
烏喇	-10.7456
之主	-10.7457
進皇帝	-10.7462
三釐	-10.7468
奏明	-10.747
司俎	-10.7472
限一年	-10.7474
槃	-10.7474
二石	-10.7478
左都御史	-10.7478
塩	-10.748
府治	-10.7482
地畆	-10.7482
琵琶	-10.7483
二千五百	-10.7484
乘馬	-10.7484
補服	-10.7487
琅	-10.7488
西階上	-10.7489
如舊	-10.749
辛酉	-10.749
日久	-10.7494
副都御史	-10.7494
而言	-10.7497
訓導	-10.7498
不欲	-10.7498
文公	-10.7501
銀米	-10.7501
肅宗	-10.7502
朕思	-10.7504
皇地祇	-10.7506
黄龍	-10.7508
自有	-10.751
通鑑	-10.7512
蔬	-10.7512
守禦	-10.7517
加級	-10.7523
長公主	-10.7527
之舊	-10.753
憚	-10.7531
江陵	-10.7531
進退	-10.7534
未見	-10.7536
郡主	-10.7539
靈座	-10.754
上林	-10.7544
宫殿	-10.7546
緑營	-10.7549
嘉祐	-10.755
文武各官	-10.755
以濟	-10.755
迫	-10.7552
攜	-10.7553
枯	-10.7554
勃	-10.7556
擔	-10.7557
麓	-10.7557
月給	-10.7565
無故	-10.7565
古文	-10.7567
官制	-10.7568
曾孫	-10.757
慿	-10.7572
庚午	-10.7573
國學	-10.7575
賂	-10.7575
保送	-10.7576
樵	-10.7576
壬寅	-10.7577
鎖	-10.7578
萌	-10.7579
北面立	-10.7581
海塘	-10.7585
使之	-10.7585
受之	-10.7586
者均	-10.7587
四萬	-10.7589
未得	-10.759
馨	-10.7593
怡	-10.7595
貴人	-10.7596
之聲	-10.7596
元年七月	-10.7599
丙子	-10.7599
無過	-10.7599
太倉	-10.7604
十四日	-10.7605
大門外	-10.7607
正旦	-10.7608
鞍馬	-10.7609
延祐	-10.761
教坊	-10.761
三百二十	-10.7611
袴	-10.7613
藉以	-10.7614
渡江	-10.7615
宵	-10.7615
聊	-10.7619
笏	-10.7619
未知	-10.7622
制錢	-10.7625
皆跪	-10.7626
九名	-10.7629
五十八	-10.7635
其弊	-10.7639
官學生	-10.764
筠	-10.764
率府	-10.764
婆	-10.764
文集	-10.7641
逃人	-10.7642
永興	-10.7642
得失	-10.7645
牖	-10.7645
籲	-10.7647
塋	-10.7648
自為	-10.7648
無算	-10.7649
儀駕	-10.7649
大祭	-10.7651
㸔	-10.7652
者革職	-10.7654
動用	-10.7654
四十八年	-10.766
珊瑚	-10.7662
柷	-10.7663
海内	-10.7663
左右衛	-10.7664
安帝	-10.7664
斟酌	-10.7666
圓明園	-10.7667
逰擊	-10.7668
贏	-10.7671
則例	-10.7672
衾	-10.7677
初設	-10.7677
頒行	-10.7678
苞	-10.768
互見	-10.768
餅	-10.768
大司樂	-10.7685
二百餘	-10.7686
取具	-10.7689
十二日	-10.7689
犯法	-10.7689
贊禮唱	-10.769
律令	-10.769
太常寺卿	-10.7691
奠帛	-10.7691
宣化	-10.7692
典儀唱	-10.7697
里南北距	-10.7697
赦天下	-10.7702
轝	-10.7702
青海	-10.7706
二年九月	-10.7708
軍中	-10.7709
七十里	-10.7709
生計	-10.7711
治平	-10.7714
四十二年	-10.7715
碉	-10.7717
不給	-10.7722
戊戌	-10.7725
檜	-10.7729
乃命	-10.7734
之廟	-10.7736
開封府	-10.7737
駢	-10.7743
戊寅	-10.7745
選人	-10.7746
二十餘	-10.7753
記曰	-10.7754
復命	-10.7757
瀘	-10.7758
上辛	-10.776
糧道	-10.7761
鬼神	-10.7761
贖罪	-10.7764
陕西	-10.7765
歸順	-10.7766
灑	-10.7766
一釐	-10.7772
廵檢	-10.7775
號為	-10.7777
管勾	-10.7778
十一日	-10.778
無庸	-10.7782
王貝勒貝子公	-10.7784
年終	-10.7784
元年改	-10.7788
僱	-10.7789
誡	-10.779
祈穀	-10.7794
甲申	-10.7795
者止	-10.7795
欲以	-10.7795
失其	-10.7796
峪	-10.7796
飽	-10.7808
尚饗	-10.7812
伴	-10.7812
日食	-10.7813
給地	-10.7814
尚書令	-10.7816
𨗳	-10.7817
丹陛上	-10.7819
藁	-10.782
轉運使	-10.7827
人多	-10.7831
觸	-10.7835
縧	-10.7836
闌	-10.7842
爪	-10.7845
蘇松	-10.7847
一貫	-10.7848
御座前	-10.7848
贊唱	-10.7849
溫	-10.785
蟠	-10.785
䦨	-10.7853
辟雍	-10.7853
恭上	-10.7853
公侯	-10.7855
侍講	-10.7856
二人掌	-10.7856
恥	-10.7856
帙	-10.7857
郡守	-10.7858
捨	-10.7858
佐貳	-10.7864
寧古塔	-10.7864
正義	-10.7866
悉心	-10.7867
大慶	-10.7868
道士	-10.7875
忠義	-10.7876
話	-10.7879
埽	-10.7882
癸未	-10.7883
用紅	-10.7886
三十日	-10.7888
農桑	-10.7888
四等	-10.789
元年八月	-10.7892
舅姑	-10.7892
甲寅	-10.7892
鼻	-10.7897
部曲	-10.7899
濕	-10.7899
賫	-10.79
琦	-10.7901
恨	-10.7901
狂	-10.7902
孽	-10.7903
米價	-10.7904
不可勝	-10.7904
科爾沁	-10.7907
拜訖	-10.7908
諸子	-10.7908
二旗	-10.7909
許之	-10.7915
俵	-10.7916
之水	-10.7919
塗金	-10.7921
辛亥	-10.7923
營遊擊一人	-10.7927
二年八月	-10.7927
夙夜	-10.793
夙	-10.7931
初封	-10.7943
節制	-10.7945
南山	-10.7949
甘泉	-10.795
祖父母	-10.7952
澗	-10.7953
論語	-10.7958
學正	-10.7961
千總一人	-10.7961
冩	-10.7967
該衙門	-10.7967
拓	-10.7968
進貢	-10.7969
章宗	-10.7973
始以	-10.7974
滿洲漢人各一人	-10.7974
奉詔	-10.7974
加一級	-10.7974
不分	-10.7975
七言律	-10.7976
生民	-10.7979
印結	-10.798
霧	-10.7983
亦應	-10.7985
忿	-10.7991
曼	-10.7994
如無	-10.7995
階上	-10.7995
青州	-10.7998
五十五年	-10.7998
黄鐘	-10.7999
州屬	-10.8
一等輕車都尉	-10.8002
晌	-10.8005
抒	-10.8005
皷	-10.8005
龎	-10.8008
都指揮使	-10.8008
禮部堂官	-10.8009
五升	-10.8009
食甚	-10.8014
壬辰	-10.8015
在府東	-10.8018
官民	-10.8021
太白晝見	-10.8024
高宗	-10.8027
輔國將軍	-10.803
御馬	-10.8032
驟	-10.8033
壅	-10.8033
餘同	-10.8033
勁	-10.8035
神明	-10.8038
城南	-10.804
四十六年	-10.8044
宋齊	-10.8044
卽	-10.8047
逾限	-10.8047
八旬	-10.8049
古尺	-10.8049
照磨	-10.8049
申明	-10.8054
隕	-10.8057
己丑	-10.8057
藴	-10.8058
加意	-10.806
所見	-10.8061
三嵗	-10.8063
終身	-10.8063
引禮引	-10.8064
由此	-10.8064
四兩	-10.8066
遴選	-10.807
丁巳	-10.8072
内命婦	-10.8076
執事人	-10.8077
前鋒䕶軍	-10.808
叙功	-10.8083
者杖一百	-10.8084
祕	-10.8086
其意	-10.8087
原註	-10.8088
襖	-10.8089
十五人	-10.809
輔臣	-10.8091
阿管理	-10.8093
準噶爾	-10.8095
耕耤	-10.8096
相見	-10.8097
數日	-10.8099
三等侍衛	-10.8099
攀	-10.81
奮勇	-10.8104
罵	-10.8105
出笏	-10.8109
經筵	-10.811
丁亥	-10.8111
是故	-10.8111
在今	-10.8116
滄	-10.8118
五嶽	-10.8118
攅	-10.812
戊午	-10.8126
神廟	-10.8128
祖考	-10.8128
四旗	-10.8128
忻	-10.8128
恭請	-10.8129
曺	-10.8131
隴西	-10.8133
襯	-10.8135
第八	-10.8136
鈕	-10.8137
錢塘	-10.8141
編為	-10.8142
四十里	-10.8145
南向立	-10.8145
儆	-10.8145
先賢	-10.8146
入就	-10.8149
升堂	-10.815
天成	-10.8151
祭服	-10.8152
郡公	-10.8152
喪服	-10.8153
牧馬	-10.8155
悠	-10.8159
並用	-10.816
年限	-10.8162
揮	-10.8164
襲爵	-10.8166
相繼	-10.8166
就拜位	-10.8166
一百一十	-10.8169
詩集	-10.8172
甲戌	-10.8175
十二名	-10.8177
谿	-10.8182
欽定八旗通志卷	-10.8186
絨	-10.8187
姊	-10.8188
濤	-10.819
氏鑲黄旗滿洲馬甲	-10.8192
李氏	-10.8192
是編	-10.8192
唐書	-10.8197
免死	-10.8198
蕃國	-10.8199
元年六月	-10.8207
元孫	-10.8209
十六卷	-10.821
童生	-10.821
人口	-10.821
各以其	-10.8212
起解	-10.8213
匝	-10.8215
壬	-10.822
故縱	-10.8224
缺出	-10.8225
皆在	-10.8226
之妻趙	-10.8226
金輅	-10.8227
九年正月	-10.8228
嘉興	-10.8231
經史	-10.8231
冕服	-10.8232
踈	-10.8234
揀	-10.8238
縁事	-10.8238
祭告	-10.8239
歸化城	-10.8241
萬户	-10.8241
萬民	-10.8246
三十名	-10.8247
逃亡	-10.8252
乗馬	-10.8255
中宗	-10.8257
丙寅	-10.8258
調補	-10.8258
建康	-10.8258
曷	-10.8263
親祀	-10.8268
到任	-10.8268
庚申	-10.8271
六旬	-10.8272
大興	-10.8273
無以	-10.8276
三年五月	-10.8276
龍亭	-10.8279
椿	-10.8282
道南	-10.8282
賛禮	-10.8283
内附	-10.8284
三百四十	-10.8286
特進	-10.8286
晩	-10.8287
六百石	-10.8291
下嫁	-10.8291
王圻續通考	-10.8291
四年三月	-10.8294
除服	-10.8297
政和五禮新儀卷	-10.8299
近年	-10.8299
五銖	-10.83
中大夫	-10.8301
總領	-10.8305
劉向	-10.8307
九江	-10.8308
磚	-10.8309
訓練	-10.831
永嘉	-10.8312
營守備一人	-10.8313
巴里坤	-10.8313
各有差	-10.8313
香案	-10.8314
州知州	-10.8317
跪讀	-10.8321
抹	-10.8325
差遣	-10.8328
相距	-10.8329
典儀贊	-10.8329
實力	-10.8332
王國	-10.8334
元年九月	-10.8334
十二月襲	-10.8338
三員	-10.8338
緩急	-10.8339
稽首	-10.8341
著將	-10.8343
二年十一月	-10.8345
肺	-10.8346
先詣	-10.8347
一十二	-10.8348
律治罪	-10.8349
安置	-10.8352
搏	-10.8354
冷	-10.8355
黑龍江	-10.8357
東路	-10.836
石五斗	-10.836
忭	-10.8362
矣今	-10.8369
元年十月	-10.8372
城郭	-10.8373
洮	-10.8377
幽州	-10.8377
今尺	-10.8378
未聞	-10.8384
追尊	-10.8386
諸王大臣	-10.8386
隆興	-10.8391
時日	-10.8392
耦	-10.8392
官學	-10.8394
百年	-10.8396
皮弁	-10.8399
泰和	-10.8399
三百三十	-10.8401
散秩大臣	-10.8405
入海	-10.8405
十五名	-10.8405
亳	-10.8406
亦當	-10.8406
詹	-10.8406
征伐	-10.8407
五福	-10.8409
甲胄	-10.841
常平倉	-10.8411
司業	-10.8414
主事一人	-10.842
一頃	-10.8422
丈夫	-10.8422
百餘里	-10.8423
千餘人	-10.8429
人主	-10.843
榻	-10.8431
期親	-10.8432
子男	-10.8433
戊子	-10.8435
軼	-10.8441
卡	-10.8442
儀制	-10.8443
流星	-10.8443
天聖	-10.8448
等弊	-10.8452
更代	-10.8453
氏正黄旗滿洲馬甲	-10.8457
如前儀	-10.8459
夏秋	-10.846
虎賁	-10.8463
外命婦	-10.8465
九釐	-10.8465
改屬	-10.8465
裁汰	-10.847
醴齊	-10.847
遑	-10.8471
䖏	-10.8472
禫	-10.8474
贄	-10.8474
舊典	-10.8477
土地	-10.8479
泰之妻	-10.8479
孺	-10.8479
三桂	-10.8484
明經	-10.8484
増置	-10.8486
八兩	-10.8491
壬子	-10.8491
王氏	-10.8492
忌辰	-10.8493
八音	-10.8495
建立	-10.8497
紋	-10.85
長蘆	-10.85
彊	-10.8502
者斬	-10.8502
右門	-10.8503
婺	-10.8503
士庶	-10.8505
聖朝	-10.8506
文廟	-10.8508
縣學	-10.8509
邏	-10.8513
首飾	-10.8514
凛	-10.8515
湧	-10.8516
乃詔	-10.8517
縂	-10.8517
相符	-10.8519
挺	-10.8519
敞	-10.852
槐	-10.8522
二年詔	-10.8523
滿洲䝉古漢軍	-10.8524
殱	-10.8538
迴避	-10.8538
解部	-10.8539
縷	-10.854
孟春	-10.8545
安奉	-10.8546
御筆	-10.8547
選擇	-10.8552
不著	-10.8554
中山	-10.8555
數人	-10.8558
三年七月	-10.8562
攬	-10.8565
仍照例	-10.8566
乾隆三年	-10.8569
普天	-10.857
郊社	-10.857
玉牒	-10.8571
哭盡哀	-10.8572
兵餉	-10.8572
稀	-10.8573
少頃	-10.8574
岷	-10.8574
枷號	-10.8575
佐領驍騎校	-10.8577
存案	-10.8577
改用	-10.8581
視其	-10.8588
諸司職掌	-10.859
發兵	-10.8591
褐	-10.8592
者悉	-10.8593
天竺	-10.8595
史館	-10.8599
册寳	-10.86
蜡	-10.86
薦舉	-10.8604
諭朕	-10.8604
請將	-10.8604
奉移	-10.8604
興工	-10.8606
白虎	-10.8608
祭神	-10.8611
所過	-10.8612
莅	-10.8613
團練	-10.8618
五十二年	-10.8621
尤為	-10.8625
引見補授	-10.8625
選補	-10.8629
趕	-10.8631
狥	-10.8632
墀	-10.8632
交代	-10.8633
康熙二十三年	-10.8636
髙帝	-10.8637
皇帝御	-10.8639
任内	-10.8641
方許	-10.8641
褂	-10.8642
水手	-10.8643
分屬	-10.8644
保題	-10.8645
千戸	-10.8645
詩書	-10.865
款	-10.8652
至意	-10.8654
輔國	-10.8655
浴	-10.8658
中尉	-10.8658
幨	-10.8659
各部	-10.8662
餘如	-10.8663
元年十二月	-10.8666
無定員	-10.8666
鐃	-10.8667
查勘	-10.8668
濠	-10.8675
應將	-10.8677
佐領名	-10.8677
還本位	-10.8677
庶幾	-10.8678
通志	-10.8683
徹豆	-10.8684
塟	-10.8685
吉服	-10.8686
編修	-10.8687
太公	-10.8692
租銀	-10.8693
案上	-10.8694
禮直官引	-10.8697
同日	-10.8705
敗賊	-10.8706
亶	-10.8706
笞四十	-10.8707
免罪	-10.8707
赴京	-10.8708
五百里	-10.8709
編立	-10.8709
所管	-10.871
岑	-10.871
馬端臨	-10.8711
恊	-10.8711
涖	-10.8711
舉羃	-10.8711
議行	-10.8713
所犯	-10.8718
檢討	-10.8719
河泊所	-10.8721
纒	-10.8728
新城	-10.8729
之子孫	-10.873
己巳	-10.8732
跋	-10.8732
誨	-10.8733
右侍郎	-10.8733
降級	-10.8737
待制	-10.8738
顯祖	-10.8741
元年十一月	-10.8743
卑幼	-10.8745
犯死罪	-10.8748
塌	-10.8749
二年十二月	-10.8749
長三尺	-10.8749
扁	-10.875
指示	-10.8752
髻	-10.8756
庚寅	-10.8758
府知府	-10.8758
松江	-10.876
清口	-10.8761
文移	-10.8761
哈喇	-10.8765
景運	-10.8767
孝子	-10.8767
立春	-10.8769
種地	-10.877
讀祝官	-10.8771
飾東珠	-10.8776
鷺	-10.8776
恭導皇帝	-10.8777
五十人	-10.8779
疫	-10.878
商民	-10.8781
員缺	-10.8784
官田	-10.8785
凖噶爾	-10.8787
不容	-10.8787
聖賢	-10.8787
康熙十三年	-10.8788
簮	-10.879
汀	-10.8791
郢	-10.8791
雲中	-10.8795
傷者	-10.8796
中郎將	-10.8798
詩曰	-10.8799
通省	-10.8799
發落	-10.8802
班第	-10.8804
匀	-10.8808
書吏	-10.8808
延安	-10.8808
六十一	-10.881
災傷	-10.881
蒐	-10.8811
分班	-10.8813
攻克	-10.8814
北斗	-10.8816
百餘人	-10.8817
主婦	-10.8818
五縣	-10.882
昌平	-10.8826
漢時	-10.8826
太常卿奏	-10.8829
淡	-10.883
内使	-10.8833
賁	-10.8833
實心	-10.8836
八十四	-10.8837
運糧	-10.8839
武臣	-10.8845
自稱	-10.8845
筭	-10.885
烏嚕木齊	-10.8853
諭内閣	-10.8853
不待	-10.8855
導從	-10.8855
字子	-10.8856
達嚕噶齊	-10.8857
魂	-10.8857
徒三年	-10.8861
踊	-10.8863
沔	-10.8867
不問	-10.8867
省入	-10.887
春夏	-10.8875
躔	-10.8876
武德	-10.8879
武弁	-10.888
醉	-10.888
阿里	-10.8881
養贍	-10.8881
孔雀	-10.8883
一隻	-10.8884
西寧	-10.8891
穆宗	-10.8892
俱係	-10.8897
可考	-10.8898
年久	-10.89
坐罪	-10.8903
憶	-10.8905
珮	-10.8905
䑕	-10.8906
拾遺	-10.891
到日	-10.891
討之	-10.8911
冪	-10.8911
典故	-10.8912
同居	-10.8912
别廟	-10.8921
鹽政	-10.8923
提調	-10.8924
江縣	-10.8924
週	-10.893
另行	-10.8931
經費	-10.8931
開平	-10.8932
注册	-10.8932
古北口	-10.8932
奉祀	-10.8934
通事	-10.8937
豈有	-10.8937
聚衆	-10.8937
鹽法	-10.8939
卭	-10.894
入詣	-10.894
大員	-10.8942
相度	-10.8947
禮部官	-10.8947
都䕶	-10.8947
頁	-10.895
刑獄	-10.8951
潦	-10.8951
跳	-10.8952
復設	-10.8953
鶻	-10.8953
憐	-10.8953
行禮畢	-10.8956
七十八	-10.8956
汎	-10.8957
笞五十	-10.8959
未成	-10.8961
永逺	-10.8962
叩興	-10.8962
游牧	-10.8963
祀官	-10.8971
帕	-10.8972
侍讀學士	-10.8976
分司	-10.8976
即今	-10.8976
聖節	-10.8977
乙亥	-10.8977
答曰	-10.8978
旭	-10.8981
相向	-10.8984
禮服	-10.8986
保管理	-10.8987
朝見	-10.8993
漢唐	-10.8994
太康	-10.8996
倒斃	-10.8999
扎爾	-10.9
接濟	-10.9001
五十名	-10.9001
月日	-10.9004
何也	-10.9008
均與	-10.9009
艱難	-10.901
耆老	-10.901
聞奏	-10.9014
稱職	-10.9015
北海	-10.9015
徵收	-10.9018
六十七	-10.9022
仍將	-10.9024
巴圖魯	-10.9028
去處	-10.9031
皁	-10.9033
莊頭	-10.9033
十五卷	-10.9034
恭逢	-10.9036
例治罪	-10.9036
車馬	-10.9036
典簿	-10.9046
二寸五分	-10.9048
穫	-10.9051
五十一年	-10.9052
釁	-10.9055
加封	-10.9057
長二尺	-10.9058
景福	-10.906
千載	-10.9061
爾圖	-10.9068
械	-10.907
情弊	-10.9071
東階下	-10.9071
開採	-10.9072
從重治罪	-10.9072
駭	-10.9072
挽	-10.9073
五采	-10.9074
葉赫	-10.9075
珥	-10.9076
墮	-10.9078
起居注	-10.9079
律例	-10.9082
襪	-10.9083
十丈	-10.9083
所能	-10.9084
不願	-10.9085
私自	-10.9087
寺丞	-10.9095
四年四月	-10.9096
鄂爾	-10.9097
太妃	-10.9098
十有七	-10.9099
靳	-10.9099
癸亥	-10.9101
罇罍	-10.9103
肄	-10.9106
通事舍人引	-10.9108
望燎	-10.9113
上供	-10.9117
城隍	-10.9117
兼理	-10.9118
工料	-10.9123
豹尾	-10.9124
應請	-10.9125
癸丑	-10.9125
士民	-10.9127
朴	-10.9128
九十六	-10.9137
稍有	-10.9146
六十六	-10.9148
鞠	-10.9149
三輔	-10.915
翎	-10.9151
截留	-10.9152
委員	-10.9153
幘	-10.9157
元日	-10.9161
分兵	-10.9161
順治二年	-10.9163
孝陵	-10.9164
吉服冠	-10.9164
琉璃	-10.9168
蠧	-10.9172
無常	-10.9173
秤	-10.9174
蠡	-10.9175
灼	-10.9178
嵗時	-10.9179
燕京	-10.9179
進爵	-10.9181
應天府	-10.9181
以防	-10.9182
聖夀	-10.9184
謹以	-10.9187
朝冠	-10.919
至京	-10.9192
宫門	-10.9195
椽	-10.9198
厄	-10.9198
顆	-10.9198
太子太保	-10.9208
暘	-10.9219
紵絲	-10.9219
六十八	-10.922
西洋	-10.922
月支	-10.9223
昆弟	-10.9226
鹽鐵	-10.9226
釐五毫	-10.9228
之妻劉	-10.9232
果有	-10.9235
頒發	-10.9236
内務府總管	-10.924
惟神	-10.9241
雍正四年	-10.9243
寘	-10.9243
禮儀使奏請	-10.9243
檔	-10.9244
神坐前	-10.9248
罰俸三月	-10.9252
頒詔	-10.9253
若此	-10.9254
百六十	-10.9256
之責	-10.9256
金塗	-10.9257
宣府	-10.9258
五十七	-10.9258
二年十月	-10.9258
安設	-10.9259
諸書	-10.9259
敢不	-10.926
撫臣	-10.9261
幞頭	-10.9262
贛	-10.9262
擊鼓	-10.9264
薩載	-10.9265
二斗	-10.9272
晉封	-10.9274
改名	-10.9276
從之又	-10.9276
窪	-10.9278
扎布	-10.9279
薩哈	-10.9279
幄次	-10.928
卒哭	-10.9284
宣撫司	-10.9287
莖	-10.9298
尺一寸	-10.9303
膝	-10.9303
枕	-10.9304
祭禮	-10.9305
未幾	-10.9309
各員	-10.9309
大吏	-10.931
隨行禮	-10.9311
嶽鎮海瀆	-10.9316
我兵	-10.9323
不滿	-10.9326
舛	-10.9329
近日	-10.933
諸處	-10.9332
七十六	-10.9333
相者引	-10.934
於大門外	-10.9342
惇	-10.9345
梵	-10.9348
宰執	-10.935
粹	-10.9354
各退	-10.9356
調用	-10.9357
北岸	-10.9367
驍	-10.9367
措置	-10.9369
聖訓	-10.9375
大義	-10.9377
宋制	-10.9379
婢	-10.938
領縣五	-10.9381
十卷陳氏曰	-10.9383
饌筵	-10.9387
滁	-10.9388
廣徳	-10.9388
江東	-10.9389
定奪	-10.9392
似此	-10.9393
秦州	-10.9394
奴僕	-10.9394
鍍金	-10.9394
筵宴	-10.9395
經緯	-10.9397
晟	-10.9401
棘	-10.9405
產	-10.9407
考功	-10.9408
養馬	-10.9409
四十一	-10.9409
豋	-10.9412
形如	-10.9413
龍門	-10.9414
諾爾	-10.9416
散騎常侍	-10.9417
完顔	-10.9421
所獲	-10.943
任意	-10.943
親詣行禮	-10.9431
淮揚	-10.9431
珠爾	-10.9432
非所以	-10.9433
迓	-10.9435
九品以上	-10.9437
士大夫	-10.9438
赴部	-10.9441
諸科	-10.9441
罄	-10.9443
必先	-10.9444
賛禮唱	-10.9445
哲宗	-10.9446
醬	-10.9447
罪名	-10.945
挈	-10.9452
稔	-10.9452
奉天殿	-10.9455
東井	-10.9456
蜜	-10.9456
樂部	-10.9459
賔主	-10.946
哈爾	-10.9464
秦王	-10.9466
以北為上	-10.9467
兩有竒	-10.9467
四十七年	-10.9468
年月日	-10.9469
已久	-10.9469
宵旰	-10.9475
賞賜	-10.9478
已即位	-10.9484
天眷	-10.9484
休致	-10.9485
正副	-10.9486
鳥鎗䕶軍	-10.9487
請照	-10.9489
神功	-10.9495
相傳	-10.9496
富察	-10.9496
郎官	-10.9498
増減	-10.95
二十一日	-10.9502
諡曰	-10.9506
分别議處	-10.9508
促	-10.9509
特氏	-10.9509
拍	-10.9509
憫	-10.9511
乾隆二十二年	-10.9514
直長	-10.9515
先蠶	-10.9516
奉勅	-10.9518
諸家	-10.952
磨勘	-10.9521
劉氏	-10.9528
壬戌	-10.9531
成之曲	-10.9532
惻	-10.9536
乾徳	-10.9537
卓異	-10.9543
科舉	-10.9545
圖管理	-10.9548
液	-10.9549
十七日	-10.9549
百戸	-10.9555
三年十一月	-10.9556
欽定續文獻通考卷	-10.9557
柯	-10.9558
椅	-10.9562
前殿	-10.9568
額設	-10.9569
督催	-10.9569
萬貫	-10.957
得罪	-10.957
行圍	-10.9571
二十八日	-10.9576
醇	-10.958
親祭	-10.958
馬一匹	-10.9583
或因	-10.9584
均由	-10.9587
祫祭	-10.9588
河道總督	-10.9589
絛	-10.959
笳	-10.9592
虢	-10.9593
籩豆簠簋	-10.9594
前導皇帝	-10.9595
不另圖	-10.9596
衣食	-10.9596
四角	-10.9601
各督撫	-10.9606
長一尺	-10.9607
分置	-10.9608
者罰俸一年	-10.9608
乾隆十四年	-10.9611
宣德	-10.9613
朔方	-10.9613
陌	-10.9613
峩	-10.9614
崑	-10.9614
愛民	-10.9615
興化	-10.962
星辰	-10.9623
今既	-10.9625
懽	-10.9628
四年五月	-10.963
寮	-10.9635
三等男	-10.9635
旄	-10.9638
义	-10.9639
沖	-10.9639
自今以後	-10.964
綢	-10.9641
粢盛	-10.9641
浙省	-10.9644
屨	-10.9644
詹事府	-10.9649
亦然	-10.9652
長春	-10.9652
杖一百徒三年	-10.9654
詩賦	-10.9655
雍正十三年	-10.9657
氏鑲紅旗漢軍	-10.9657
大厯	-10.9658
氏正紅旗滿洲	-10.9661
考察	-10.9664
給賞	-10.9665
楹間	-10.9666
殿中侍御史	-10.9672
五丈	-10.9672
詳加	-10.9675
千餘里	-10.9676
字様	-10.9678
著照	-10.968
秋冬	-10.9681
景祐	-10.9682
煮	-10.9688
三年詔	-10.969
悖	-10.9691
公羊	-10.9693
推官	-10.9696
四瀆	-10.9698
錦衣衛	-10.9699
驛站	-10.9699
淳熈	-10.97
耳目	-10.9702
宿遷	-10.9704
具呈	-10.9705
所收	-10.9705
三百八十	-10.9705
子女	-10.9708
投充	-10.9711
尚可	-10.9716
麴	-10.9716
天啟	-10.9716
勤勞	-10.9717
明昌	-10.9719
賔客	-10.972
第九	-10.9725
孟冬	-10.9726
盡行	-10.9727
疏濬	-10.9727
贊禮者引	-10.9733
五年正月	-10.9739
嘉禮	-10.9741
卹	-10.9743
凍	-10.9744
倖	-10.9744
峰	-10.9744
升自西階	-10.9746
近臣	-10.9746
紇	-10.9747
氅	-10.9747
年嵗	-10.975
交角	-10.9751
蹲	-10.9758
各按	-10.9759
填星	-10.976
回鑾	-10.9761
栽	-10.9763
祥符	-10.9763
琛	-10.9763
淪	-10.9766
掃除	-10.9769
枓	-10.9769
筆帖式二人	-10.977
營田	-10.9771
監本	-10.9771
務令	-10.9772
杯	-10.9774
封建	-10.9774
滿洲一人	-10.9776
樂府	-10.9776
入廟	-10.9776
葅	-10.9778
鐵匠	-10.9779
𤣥酒	-10.9781
里東至	-10.9786
文宣王	-10.9789
相沿	-10.979
臨安	-10.9793
燬	-10.9796
御幄	-10.9799
醮	-10.9802
領軍	-10.9804
祝文曰	-10.9804
可比	-10.9805
一千三百	-10.9805
三年八月	-10.9812
不忘	-10.9816
攢	-10.9816
等衙門	-10.9818
聖母	-10.9818
左右翼	-10.982
解送	-10.9828
尹繼善	-10.9829
三十卷	-10.9831
峽	-10.9832
防守	-10.9832
諫議大夫	-10.9833
重罪	-10.9839
博爾	-10.9843
從寛	-10.9845
牝	-10.9846
勅㫖	-10.9848
人康熙	-10.9849
顯慶	-10.9849
濡	-10.985
轍	-10.9852
烏拉	-10.9856
遞運所	-10.9857
百一十	-10.9858
修造	-10.986
永徽	-10.986
冉	-10.9863
郊壇	-10.9865
巡視	-10.9866
父兄	-10.9868
皇帝再拜	-10.9871
慕容	-10.9873
收成	-10.9874
逞	-10.9877
庇	-10.9879
所致	-10.9883
本末	-10.9887
三百餘	-10.989
孳生	-10.9891
何必	-10.9891
中央	-10.9892
偏西	-10.9893
限滿	-10.9896
提鎮	-10.9896
氏正藍旗滿洲馬甲	-10.9897
賦役	-10.9897
順治九年	-10.9898
直學士	-10.9899
南嚮	-10.9908
榛	-10.9909
患病	-10.9909
彝	-10.9911
里西至	-10.9911
加減	-10.9912
奠酒	-10.9912
山陽	-10.9913
候過	-10.9914
於南郊	-10.9915
午門外	-10.9916
軍需	-10.9918
教化	-10.9918
氏正藍旗滿洲	-10.9919
責令	-10.9922
踴躍	-10.9922
序班	-10.9923
百僚	-10.9924
三年十月	-10.9928
出境	-10.993
弄	-10.9933
壑	-10.9933
宋朝	-10.9934
櫛	-10.9934
録一卷	-10.9936
穢	-10.9937
志云	-10.9941
乾隆二十	-10.9943
倪	-10.9946
颺	-10.9946
賜宴	-10.995
魯特	-10.9955
偵	-10.9959
景徳	-10.9961
謫	-10.9965
理事官	-10.9967
壇廟	-10.9968
離任	-10.9969
留心	-10.997
詳悉	-10.9975
上京	-10.9976
初制	-10.9977
火藥	-10.9982
萬邦	-10.9985
嵗終	-10.9986
受財	-10.999
冀州	-10.9995
溉	-10.9996
布爾	-10.9998
鄆	-11
六十年	-11.0006
兩端	-11.0008
晰	-11.0009
葺	-11.0012
少牢	-11.0012
捍	-11.0013
沽	-11.0014
我皇	-11.0016
胃	-11.0017
朂	-11.0021
内閣學士	-11.0022
半徑	-11.0027
中允	-11.0031
七釐	-11.0034
外祖父母	-11.0041
梟	-11.0042
東省	-11.0043
望燎位	-11.0046
㝠	-11.0048
此例	-11.0049
祀事	-11.0051
御容	-11.0063
鼂氏曰	-11.0064
引皇太子	-11.0066
寖	-11.0071
祗候	-11.0072
轉運司	-11.0073
交納	-11.0074
位立定	-11.0075
重修	-11.0076
東序	-11.0078
尤甚	-11.0083
集議	-11.0085
酒罇	-11.0085
東晉	-11.0089
拿	-11.0091
千牛	-11.0096
靈臺	-11.0096
克什	-11.0097
減價	-11.0098
安之樂	-11.01
迪	-11.0101
外委	-11.0102
雲貴	-11.0104
需索	-11.0104
跪迎	-11.0105
脯醢	-11.0106
一千一百	-11.0112
不息	-11.0114
哈薩克	-11.0115
殫	-11.0121
縣省入	-11.0121
强盜	-11.0122
廹	-11.0123
濱	-11.0124
操演	-11.0126
乃止	-11.0126
氏鑲藍旗滿洲馬甲	-11.0128
邕	-11.0131
從容	-11.0135
衛尉	-11.0135
鑲黄旗滿洲	-11.0141
詣罍洗	-11.0145
翰林院編修	-11.0146
新安	-11.0146
暹羅	-11.0147
家産	-11.0148
礪	-11.0148
方色	-11.015
霽	-11.0151
頑	-11.0151
隠匿	-11.0151
蕤	-11.0152
軫念	-11.0154
百王	-11.0155
熈寧	-11.0156
丹陽	-11.0157
披甲	-11.016
監視	-11.0161
發覺	-11.0161
貞祐	-11.0162
后妃	-11.0163
氏鑲藍旗滿洲	-11.0163
太祖太宗	-11.0163
叔父	-11.0163
升自東階	-11.0169
舌	-11.0172
一十六	-11.0172
遵化	-11.0174
叅處	-11.0174
二舞	-11.0175
捲	-11.018
諮	-11.0182
藍翎	-11.0189
甘露	-11.019
潯	-11.019
鵠	-11.019
營造	-11.0191
酌尊所	-11.0193
氏鑲白旗漢軍	-11.0196
伏惟	-11.0199
降三級調用	-11.0202
敔	-11.0202
問罪	-11.0205
輛	-11.0207
四百五十	-11.0207
奉旨	-11.0208
歸徳	-11.0213
闘	-11.0213
弋	-11.0218
改建	-11.022
五經博士	-11.0222
司獄	-11.0223
奉爵	-11.0226
漢陽	-11.0227
流賊	-11.023
祺	-11.0231
擊賊	-11.0232
纎	-11.0234
遙	-11.0236
謹附識	-11.024
孔氏	-11.024
權衡	-11.0255
口徑	-11.026
氏正藍旗漢軍	-11.0262
汚	-11.0263
少保	-11.0266
職方	-11.0266
問擬	-11.0268
金飾	-11.027
陸路	-11.027
改𨽻	-11.0271
先王之	-11.0272
絁	-11.0274
三年九月	-11.028
改元一	-11.0282
飄	-11.0285
升祔	-11.0289
升轉	-11.0289
兎	-11.029
廕生	-11.0292
京口	-11.0294
鎮總兵官	-11.0295
馬駝	-11.0297
祖廟	-11.0303
吉凶	-11.0319
雨水	-11.032
簒	-11.0324
幰	-11.0325
火器營	-11.0325
受禪	-11.0328
氏鑲黄旗滿洲	-11.0328
宋舊	-11.0329
襴	-11.0333
十八人	-11.0335
多士	-11.0337
皇極	-11.0338
地勢	-11.0344
種馬	-11.0344
釀	-11.0348
浄	-11.0349
昌期	-11.0351
鼓柷	-11.0354
隰	-11.0357
童子	-11.0361
還樽所	-11.0361
廣南	-11.0364
收贖	-11.0364
不得已	-11.0367
仰見	-11.037
雀	-11.037
北面跪	-11.0374
弓馬	-11.0375
椀	-11.0376
成祖永樂	-11.0377
灤	-11.0379
禮器	-11.0379
事畢	-11.0381
都水	-11.0381
教職	-11.0382
稜	-11.0384
萬斤	-11.0387
外餘	-11.0388
餘丁	-11.0389
男婦	-11.039
現任	-11.0391
仍留	-11.0391
省饌	-11.0392
請依	-11.0392
道員	-11.0394
未便	-11.0395
缾	-11.0396
刑法	-11.0397
統兵	-11.04
閻	-11.0406
爵洗	-11.0407
搢圭	-11.041
海寧	-11.0412
考覈	-11.0412
各減	-11.0413
輸納	-11.0414
享太廟	-11.0415
五十七年	-11.0417
理宗	-11.042
價直	-11.042
僖祖	-11.0421
每遇	-11.0422
靄	-11.0422
匠役	-11.0423
氏鑲紅旗滿洲馬甲	-11.0424
寰	-11.0424
王公以下	-11.0425
吉日	-11.0429
宣讀	-11.043
雜記	-11.0431
白玉	-11.0431
墩	-11.0435
欽惟我皇上	-11.0437
屯衛	-11.0444
甬	-11.0449
鶉	-11.0453
席前	-11.0459
莒	-11.0459
光禄大夫	-11.046
園寢	-11.0461
大禮使	-11.0462
不須	-11.0462
本路	-11.0462
尚膳	-11.0463
會典	-11.0463
萬壽詩	-11.0467
撞	-11.0467
碾	-11.0469
拒捕	-11.0469
簴	-11.0469
歸附	-11.0469
致死者	-11.0476
莫能	-11.0476
丈五尺	-11.0477
黄色	-11.0477
清酒	-11.048
耄	-11.0481
璣	-11.0481
永和	-11.0482
圃	-11.0487
無力	-11.0488
大裘	-11.0489
謡	-11.049
充補	-11.0491
去年	-11.0491
千四百	-11.0497
康熙元年	-11.0499
鄱陽馬端臨貴與著	-11.05
買賣	-11.05
珍珠	-11.0507
鳥鎗	-11.0507
晷	-11.051
轂	-11.0516
甘州	-11.0519
耶律	-11.0521
承平	-11.0522
泗州	-11.0522
十年正月	-11.0527
霤	-11.0528
荒地	-11.053
廵狩	-11.0531
祀昭忠祠	-11.0532
後裔	-11.0533
頂帶	-11.0533
大司農	-11.0533
毎月	-11.0536
俄羅斯	-11.0538
教諭	-11.0539
家莊	-11.054
撲	-11.0542
米麥	-11.0543
百神	-11.0545
課銀	-11.0545
搢笏跪	-11.0546
太嵗	-11.0546
經厯	-11.0546
嗟	-11.0546
議論	-11.0546
薊州	-11.0554
方丘	-11.0561
選取	-11.0572
崇文	-11.0575
㑹昌	-11.0576
羊豕	-11.0579
四年六月	-11.0579
摧	-11.058
大學士等	-11.058
氏正紅旗滿洲馬甲	-11.0581
㝷	-11.0585
兩二錢	-11.0586
逵	-11.0586
石工	-11.0591
千一百	-11.0592
器物	-11.0596
仁夀	-11.0597
未備	-11.0599
鐘磬	-11.0604
以為常	-11.0605
退立於	-11.0608
大享	-11.0609
地方任	-11.061
譙	-11.0617
瀾	-11.0618
臨御	-11.062
所属	-11.0621
封疆	-11.0626
織造	-11.0626
氏正白旗漢軍	-11.0628
優劣	-11.063
訖引	-11.063
陲	-11.063
醖	-11.0634
左營	-11.0635
嫻	-11.0636
亦宜	-11.0636
六十九	-11.0638
挿	-11.064
平章事	-11.0641
世宗嘉靖	-11.0642
三年六月	-11.0643
四年七月	-11.0645
靖康	-11.0648
成祖	-11.065
安撫	-11.0651
納喇	-11.0652
雹	-11.0652
刑部侍郎	-11.0655
浙西	-11.0656
卷鼂氏曰皇朝	-11.0656
請嗣後	-11.0657
命有司	-11.0659
梨	-11.066
不著撰人名氏	-11.0661
貂皮	-11.0661
聫	-11.0664
餌	-11.0665
瑪爾	-11.0666
单	-11.0667
黄麾	-11.0667
龔	-11.0669
窑	-11.067
廷試	-11.067
變宫	-11.0672
告祭	-11.0674
威儀	-11.0674
修葺	-11.0675
沿邊	-11.068
鳯陽	-11.0682
翠華	-11.0684
俱著	-11.0688
分防	-11.0689
跪奠爵	-11.0691
拷	-11.0696
鄜	-11.0701
武成	-11.0703
貢物	-11.0705
廟庭	-11.0706
謀反	-11.0711
户部侍郎	-11.0712
西魏	-11.0713
令有司	-11.0713
殿門外	-11.0714
少傅	-11.0714
巡檢	-11.0716
亦必	-11.0722
交部議處	-11.0722
各省督撫	-11.0724
府屬之	-11.0726
偃麾	-11.0729
議郎	-11.073
保住	-11.073
尺寸	-11.0731
鄖	-11.0733
年行書	-11.0735
翼日	-11.0738
沿革	-11.0742
捐納	-11.0742
厚一寸	-11.0744
一千四百	-11.0745
喧	-11.0749
起程	-11.0749
儘	-11.075
峙	-11.0751
二等輕車都尉	-11.0753
鉦	-11.0754
西階下	-11.0756
諡忠	-11.0756
旗各一	-11.0757
奠幣	-11.0761
江北	-11.0762
遣兵	-11.0762
餘頃	-11.077
人才	-11.0771
者絞	-11.0771
格之妻	-11.0774
積欠	-11.0774
總河	-11.0776
宫室	-11.0779
戰船	-11.0779
運軍	-11.0781
秀才	-11.0781
馬歩	-11.0782
纘	-11.0782
軰	-11.0783
汰	-11.0783
總裁	-11.0783
一十八	-11.0783
畔	-11.0785
鷄	-11.0787
馬驛	-11.0787
六十三	-11.0788
媒	-11.0793
禹貢	-11.0796
駟	-11.0797
歴代帝王	-11.08
朝覲	-11.08
良民	-11.0801
等謹案是書	-11.0801
氏正黄旗漢軍	-11.0802
長白山	-11.0803
王肅	-11.0806
繼母	-11.0807
紘	-11.0808
豳	-11.0808
趾	-11.0808
乾隆十三年	-11.0808
箴	-11.0811
祔廟	-11.0811
緬甸	-11.0815
梁冠	-11.0816
紹聖	-11.0819
瓉	-11.082
鈿	-11.0822
招撫	-11.0823
澧	-11.0824
繅	-11.0825
成造	-11.0825
垓	-11.0832
二等侍衛	-11.0833
靴	-11.0836
悞	-11.0841
歩軍統領	-11.0843
襟	-11.0844
一寸五分	-11.0845
朔日食	-11.0852
俸銀	-11.0857
乾隆十九年	-11.0858
監丞	-11.0864
欽惟	-11.0866
箇月	-11.0866
黜陟	-11.0866
封號	-11.0871
薩爾	-11.0873
折衝	-11.0874
太祖髙皇帝	-11.0877
九章	-11.0878
内廷	-11.0881
詣神位前	-11.0882
兵部侍郎	-11.0886
於殿庭	-11.0888
秉公	-11.089
相近	-11.0895
紊	-11.0897
亞終獻	-11.0906
籍田	-11.0907
鵲	-11.0907
再加	-11.0908
縣界一百	-11.0908
右丞	-11.0909
燧	-11.0909
嫁娶	-11.0914
貝勒貝子	-11.0917
五彩	-11.0923
東向立	-11.0924
中郎将	-11.0927
殿試	-11.0928
軾	-11.0933
取士	-11.0934
於午門外	-11.0934
大旱	-11.0934
璘	-11.0935
十餘里	-11.094
鑊	-11.094
布哈	-11.0942
河南府	-11.0946
追諡	-11.0946
二十九日	-11.0948
陜甘	-11.095
縉	-11.0952
減半	-11.0954
芹	-11.0958
擊敗之	-11.0959
三十餘	-11.096
恰	-11.0962
導駕官	-11.0964
邠	-11.0968
笞杖	-11.097
來降	-11.0975
盛事	-11.0976
郎中員外郎	-11.0977
烏爾	-11.0978
輕車都尉	-11.0983
長五尺	-11.0983
乾隆二十七年	-11.0986
賠補	-11.0987
降神	-11.0987
峒	-11.0989
搶奪	-11.0993
昊天	-11.0994
都監	-11.0995
費揚古	-11.0997
科斷	-11.0997
衞所	-11.0998
典籍	-11.1005
雖未	-11.1005
封贈	-11.1008
孳	-11.1014
田土	-11.1014
同姓	-11.1016
編審	-11.1017
雍正九年	-11.1019
桂陽	-11.102
督率	-11.102
諸親	-11.1021
舂	-11.1026
情節	-11.1027
淀	-11.1028
論罪	-11.103
回京	-11.1032
詳察	-11.1032
滿漢各一人	-11.1033
靈帝	-11.1033
賞䘏如例	-11.1038
覆凖	-11.104
夙興	-11.1041
滄州	-11.1044
梗	-11.1052
户外	-11.1056
清江	-11.1058
彭城	-11.1059
七年三月	-11.1062
嵗貢	-11.1063
新疆	-11.1065
贊冠者	-11.1066
贊者承傳	-11.1068
永康	-11.1068
領州一	-11.1069
二十二日	-11.1071
皇統	-11.1076
豐年	-11.1076
煌	-11.1076
左手	-11.1076
殉	-11.1077
債	-11.1083
王圻	-11.1088
傅恒	-11.109
琴瑟	-11.1091
利害	-11.1093
籙	-11.1097
遣官祭	-11.1098
伏乞	-11.11
機宜	-11.1102
仍照舊例	-11.1111
一級	-11.1117
三斗	-11.1119
太陰	-11.112
開報	-11.112
青衣	-11.1122
八十五	-11.1123
田畝	-11.1125
飭令	-11.1129
十萬兩	-11.1129
浙東	-11.1134
九十里	-11.1139
牓	-11.1141
價值	-11.1141
弓匠	-11.1148
横行	-11.1149
乾隆七年	-11.115
嵩呼	-11.1152
大慶殿	-11.1154
冢	-11.1154
酌醴齊	-11.1156
更換	-11.1163
禩	-11.1167
還京	-11.117
京兆府	-11.1171
髦	-11.1174
愁	-11.1178
守備一人	-11.118
通計	-11.118
主婚者	-11.118
檐下	-11.1184
七十九	-11.1185
哀帝	-11.1186
咸亨	-11.1189
三百七十	-11.1192
通融	-11.1195
溷	-11.1196
訐	-11.1198
起科	-11.1201
八旗都統	-11.1203
東川	-11.1204
財賦	-11.1205
朝鮮國王	-11.1206
改歸	-11.1215
東珠	-11.1219
浹	-11.1222
氏正黄旗滿洲䕶軍	-11.1222
簽書	-11.1228
漕米	-11.1229
䟦	-11.1237
亦不得	-11.1238
裒	-11.1239
苴	-11.1241
勿論	-11.1242
税銀	-11.1243
韈	-11.1243
雲南貴州	-11.1246
六年正月	-11.1249
十有二人	-11.125
即照	-11.125
丈餘	-11.1251
躬親	-11.1251
報銷	-11.1252
首告	-11.1252
吏民	-11.1253
題報	-11.1255
例處分	-11.1256
元符	-11.126
湖水	-11.1264
駕士	-11.1266
曩	-11.1266
兌	-11.127
壙	-11.127
規避	-11.1276
南極	-11.1276
人物志	-11.1276
寺觀	-11.1277
曽祖	-11.1278
儀刀	-11.1286
依例	-11.129
皇祐	-11.1291
跪奠於	-11.1292
嚴飭	-11.1292
不知其	-11.1295
尊崇	-11.1295
賭	-11.1296
常起居	-11.1298
之繼妻	-11.1308
江都	-11.1309
項下	-11.131
百匹	-11.1311
洪武初	-11.1312
减一等	-11.1322
之妻伊爾根覺羅氏	-11.1323
軍節度使	-11.1327
明太祖洪武	-11.1329
渡河	-11.1331
桞	-11.1332
督臣	-11.1333
坐落	-11.1336
六毫	-11.1337
太尊	-11.1338
以上俱於	-11.1342
凉州	-11.1343
鞶	-11.1345
無逸	-11.1345
聯	-11.1349
鄉村	-11.1351
熾	-11.1352
邈	-11.1358
郁	-11.1358
鳯凰	-11.1359
宜依	-11.136
六年二月	-11.136
甌	-11.1361
罪犯	-11.1362
帮	-11.1363
無遺	-11.1369
貢獻	-11.1372
刑罰	-11.1372
巡狩	-11.1374
吏典	-11.1375
璟	-11.1376
該犯	-11.1378
川縣	-11.1379
扶風	-11.1381
烏孫	-11.1387
剔	-11.1387
豫省	-11.1387
撮	-11.1389
鼗	-11.1389
庭中	-11.139
偽總兵	-11.1391
曠典	-11.1393
七年二月	-11.1398
杖一百流三千里	-11.1399
旗鼓	-11.1405
宣洩	-11.141
造作	-11.1415
哈宻	-11.1417
建寧	-11.1418
銀印	-11.1419
雍正六年	-11.142
陪位	-11.142
蕪	-11.1421
運米	-11.1422
拍板	-11.1428
臨幸	-11.1429
法駕鹵簿	-11.1429
慶典	-11.1431
夹	-11.1436
海口	-11.1438
里東西距	-11.1439
寛免	-11.144
太之妻	-11.144
謹遣	-11.1442
寳相花	-11.1443
七十三	-11.1445
奏凖	-11.1447
妹	-11.1459
辰星	-11.1463
喀喇沁	-11.1463
諸陵	-11.1463
齊衰	-11.1469
圻	-11.1472
四百六十	-11.1475
鳳陽	-11.1478
公費	-11.148
富民	-11.1481
攔	-11.1485
永清	-11.1486
奉天門	-11.1487
降一級	-11.149
南康	-11.149
澹	-11.1494
門之内	-11.1495
把總二人	-11.1498
衆賔	-11.1499
主人以下	-11.15
廬舍	-11.1501
遇賊	-11.1502
再犯	-11.1504
笄	-11.1504
桂林	-11.1505
稍却	-11.1508
天禧	-11.1509
漿	-11.1513
祈榖	-11.1514
曽經	-11.1518
起運	-11.1519
徭役	-11.1519
縛	-11.152
喪禮	-11.1521
個	-11.1522
荔	-11.1524
臣竊	-11.153
城守營	-11.1531
助祭	-11.1534
遣官祭告	-11.1536
祝帛	-11.1539
通事舎人引	-11.154
獲罪	-11.1544
降革	-11.1545
禰	-11.1547
襲職	-11.1549
雲梯	-11.1551
一丈二尺	-11.1552
猾	-11.1552
年號	-11.1552
如上儀	-11.1553
年滿	-11.1556
千牛將軍	-11.1559
骨朶	-11.1559
龍江	-11.1562
九十九	-11.1563
萬戸	-11.1563
大口袴	-11.1564
氏鑲白旗滿洲馬甲	-11.157
章程	-11.1576
米豆	-11.1578
米一石	-11.158
撫按	-11.1581
巽	-11.1581
紏	-11.1583
透	-11.1586
緇	-11.1586
提領	-11.1588
剌	-11.1593
上中下	-11.1595
赤質	-11.1597
艦	-11.1604
營伍	-11.1606
夔	-11.161
午階	-11.1611
二匹	-11.1617
五十餘	-11.1617
勾當	-11.1618
碟	-11.162
之義也	-11.1621
限期	-11.1624
二十里	-11.163
仰體	-11.1631
三百里	-11.1631
喪主	-11.1632
奠獻	-11.1632
馴	-11.1633
璇	-11.1635
鞏昌	-11.1636
覺察	-11.1643
涯	-11.1643
積水	-11.1644
回籍	-11.1645
七十四	-11.1645
我國家	-11.1646
乾隆四年	-11.1647
銳	-11.1649
毬	-11.1649
侍班	-11.1649
輟	-11.1653
實錄	-11.1655
近代	-11.1656
俸餉	-11.1658
奈何	-11.1658
入覲	-11.166
羊一豕一	-11.166
羣牧	-11.1664
先師孔子	-11.1665
戰功	-11.1666
景陵	-11.1667
郡君	-11.1667
銅鉛	-11.1671
逄	-11.1675
賛引引	-11.1676
年一貢	-11.1677
宣諭	-11.1679
酌議	-11.1684
在位官皆再拜	-11.1685
劄付	-11.1688
擊賊於	-11.1692
二麥	-11.1695
工匠	-11.17
服衮冕	-11.1701
作亂	-11.1703
社稷壇	-11.1704
四年八月	-11.1705
束帛	-11.1705
騷	-11.1708
换	-11.1709
十一年正月	-11.1712
正黄旗滿洲	-11.1715
糧船	-11.1718
個月	-11.1718
汝南	-11.1719
獻祖	-11.1721
行事執事官	-11.1723
扣除	-11.1724
銓選	-11.1727
髙一丈	-11.173
左僕射	-11.173
慶祝	-11.1732
刋刻	-11.1743
姻	-11.1744
兩四錢	-11.1745
伽	-11.1747
蹙	-11.1748
尼堪	-11.1748
洗爵	-11.1753
毆傷	-11.1753
塤	-11.1754
鎮圭	-11.1756
監試	-11.1756
違禁	-11.1758
迎送	-11.1759
豈非	-11.1759
齊縗	-11.176
飲福受胙	-11.176
四年詔	-11.1763
鍋	-11.1769
泰陵	-11.177
不知情	-11.1771
崇徳元年	-11.1771
通事舎人	-11.1775
歇	-11.1776
繭	-11.1781
五百餘	-11.1784
北面再拜	-11.1785
奉天府	-11.1786
乾隆五年	-11.1787
挨	-11.1791
北面西上	-11.1791
和糴	-11.1791
奠玉帛	-11.1795
照例議處	-11.1803
里西北至	-11.1803
閲視	-11.1806
軍機大臣	-11.1811
嶠	-11.1812
八旗滿洲	-11.1812
營游擊一人	-11.1813
冠帶	-11.1815
推恩	-11.1816
特賜	-11.1818
緩決	-11.1818
承審	-11.1819
孛	-11.182
端拱	-11.182
草料	-11.1821
謳	-11.1823
氏正紅旗漢軍	-11.1827
罍洗	-11.1832
降一級留任	-11.1833
周圍	-11.1836
為從者	-11.1838
皓	-11.1842
扆	-11.1843
逝	-11.1844
遞減	-11.1844
甞	-11.1845
勞績	-11.1846
羔	-11.1847
腸	-11.1848
太醫院	-11.1849
十有九	-11.185
奠玉幣	-11.1855
南向設	-11.1855
巍巍	-11.1856
尋議	-11.1857
手足	-11.1861
銀二兩	-11.1861
香帛	-11.1863
言語	-11.1864
編鐘	-11.1865
樂舞生	-11.1869
大凌河	-11.1871
位北向立	-11.1872
宫門外	-11.1877
匾額	-11.1881
墉	-11.1883
内賛	-11.1888
詳報	-11.1891
南斗	-11.1891
勒索	-11.1892
百八十	-11.1893
食鹽	-11.1895
楮帛	-11.1899
覈實	-11.19
稽考	-11.19
查核	-11.1901
牧長	-11.1904
鹵	-11.1904
綰	-11.1906
流罪	-11.1908
殳	-11.1913
現年一百	-11.1915
陪臣	-11.1916
巡捕	-11.1929
菁	-11.193
二千四百	-11.1933
展限	-11.1933
果毅	-11.1933
南岸	-11.1935
首尾	-11.1936
畀	-11.1937
携	-11.1937
乾清宫	-11.1944
盛徳	-11.1944
各府州縣	-11.1952
應否	-11.1954
嘉禾	-11.1957
咸寧	-11.1957
涼州	-11.1958
作弊	-11.1964
泛齊	-11.1965
品秩	-11.1969
我皇考	-11.1971
宣徽使	-11.1973
構	-11.1975
曦	-11.1976
土黙特	-11.1977
十有六人	-11.1977
養育兵	-11.1977
憤	-11.1979
五年二月	-11.1981
三百九十	-11.1983
惠帝	-11.1983
三毫	-11.1984
如來儀	-11.1985
朝集使	-11.1986
可得而	-11.1986
江夏	-11.1988
猶未	-11.1992
伏見	-11.1994
四百八十	-11.1995
三層	-11.1995
設香案	-11.1998
排列	-11.1999
紀錄	-11.2
先登	-11.2
泰管理	-11.2002
郝	-11.2006
積貯	-11.2007
太隂	-11.2007
卷鼂氏曰唐	-11.2008
矛	-11.2008
賢能	-11.201
兩江總督	-11.201
脂	-11.2011
參知政事	-11.2012
氏正白旗滿洲䕶軍	-11.202
營房	-11.2021
數十萬	-11.2023
厫	-11.2023
烏蘇	-11.2024
遺漏	-11.2025
倧	-11.2027
巡按	-11.2028
九十四	-11.2028
果能	-11.2033
並如上儀	-11.2034
爻	-11.2035
七年正月	-11.2035
賢良	-11.2037
㨿	-11.2038
鑄造	-11.204
饒州	-11.204
可否	-11.2042
个	-11.2043
豚	-11.2044
孔子曰	-11.2044
欽定四庫全書皇朝文獻通考	-11.2045
侯伯	-11.2047
一千六百	-11.2049
籌畫	-11.205
降諭㫖	-11.2054
樽罍	-11.2055
賛禮者引	-11.2059
大破之	-11.2061
奈	-11.2062
渚	-11.2064
戢	-11.2066
掄	-11.207
鐵錢	-11.2072
嘆	-11.2074
移送	-11.2076
車輅	-11.2077
一千八百	-11.2083
宫闈令	-11.2084
加元服	-11.2085
孟夏	-11.2089
定鼎	-11.2095
考課	-11.2098
祀昊天上帝	-11.2098
糜	-11.2099
中書門下奏	-11.2101
供給	-11.2102
隋唐	-11.2113
交趾	-11.2113
恩賞	-11.2113
臨江	-11.2114
夜明	-11.2115
山谷	-11.2115
幂	-11.2115
兠	-11.2117
景靈宫	-11.2122
保結	-11.2124
先農壇	-11.2128
題凖	-11.2132
雍正八年	-11.2137
顛	-11.2138
司郎中	-11.2138
檻	-11.2143
阿拉	-11.2143
烹	-11.2143
右手	-11.2143
緦	-11.2143
竽	-11.2144
觜	-11.2145
歙	-11.2147
耒	-11.215
七十七	-11.2152
三獻官	-11.2153
遇恩詔晉	-11.2154
雨露	-11.2154
石零	-11.2155
出圭	-11.2159
潁川	-11.216
必致	-11.2161
沿河	-11.2161
十二律	-11.2166
薰	-11.2166
降二級	-11.217
蘭泰	-11.217
乍	-11.2173
輓	-11.2176
降輅	-11.2177
於殿上	-11.2179
釐八毫	-11.2179
尚書侍郎	-11.2183
益都	-11.2184
水師營	-11.2185
鳯翔	-11.2186
霖雨	-11.2186
大唐開元禮卷	-11.2187
首俱行書	-11.2187
司馬光	-11.2187
進饌	-11.2191
髙一尺	-11.2192
八十以上	-11.2194
一等男	-11.2195
畿内	-11.22
庶吉士	-11.2202
盒	-11.2205
瀚	-11.2205
攙	-11.2205
啻	-11.2206
東上閤門官	-11.221
束帶	-11.2211
規模	-11.2212
鵞	-11.2212
抹額	-11.2212
殖	-11.2214
肝	-11.2215
驛馬	-11.2215
凢	-11.2217
翣	-11.2218
執笏俛伏興	-11.2223
輿鬼	-11.2228
陬	-11.2228
親迎	-11.223
每斤	-11.2231
迄今	-11.2231
嶺南	-11.2232
岳州	-11.2233
訖樂止	-11.2233
進立於	-11.2234
某氏	-11.2236
達色	-11.2241
𠡠	-11.2243
瀕	-11.2244
罪囚	-11.2245
渝	-11.2247
佔	-11.2247
先入就位	-11.2247
瑜	-11.2252
多羅郡王	-11.2253
朝鮮國	-11.2253
軍民人等	-11.2254
詣盥洗位	-11.2254
賑恤	-11.2255
桓帝	-11.2264
餘俱如	-11.2274
鮑	-11.2275
百四十	-11.2276
陣亡賞䘏如例	-11.2276
垂拱	-11.2276
戀	-11.2276
拖欠	-11.2276
刁	-11.2278
亹	-11.228
侍臣上馬	-11.228
盂	-11.2284
詞訟	-11.2284
疾苦	-11.2291
戸口	-11.2295
提標	-11.2298
典史	-11.2302
恭候	-11.2303
氏鑲紅旗滿洲	-11.2305
典章	-11.2306
緑旗兵	-11.2306
京都	-11.2308
按翼	-11.2309
孜孜	-11.2309
薫	-11.2314
劭	-11.2314
上疏曰	-11.2315
兩六錢	-11.2317
搢	-11.2317
妥協	-11.2319
試卷	-11.2319
俸滿	-11.2322
互市	-11.2323
氏鑲藍旗漢軍	-11.2326
箎	-11.2329
商船	-11.2329
榆林	-11.2332
一尺五寸	-11.2335
縁由	-11.2336
扼	-11.2339
徇庇	-11.2341
伊犂	-11.2345
昉	-11.2345
召見	-11.2347
止哭	-11.2348
洎	-11.2349
犧牲	-11.2352
青羅	-11.2353
宼	-11.2353
慤	-11.2353
曰臣聞	-11.2361
坐事削爵	-11.2365
廟號	-11.2366
桃源	-11.2366
諏吉	-11.2367
霸州	-11.2368
乾隆十五年	-11.2369
季秋	-11.237
兩岸	-11.2375
千戸所	-11.2378
挖	-11.2378
領縣六	-11.2378
摹	-11.2379
挂	-11.2379
蝕	-11.2384
顒	-11.2384
陣亡贈	-11.2389
年老辭退以	-11.2391
棣	-11.2392
還齋所	-11.2394
大赦天下	-11.2396
附郭	-11.2398
叨	-11.2399
精神	-11.2401
乾隆二十一年	-11.2403
投誠	-11.2405
徽號	-11.2408
内侍省	-11.241
里東北至	-11.241
自今已後	-11.2411
摭	-11.2415
疾病	-11.2416
坻	-11.2417
佚	-11.242
覇	-11.2421
八十里	-11.2424
壮丁	-11.2425
未滿	-11.2425
雍熙	-11.2426
生擒	-11.2432
巴圖	-11.2432
六十里	-11.2432
太上皇	-11.2433
抃	-11.2437
烏什	-11.2438
砲	-11.2443
筩	-11.2444
雨雪	-11.2448
老疾	-11.2452
碣	-11.2455
俯伏興平身	-11.2459
丁卯	-11.246
陞殿	-11.2463
鑾輿	-11.2463
親王以下	-11.2465
驃騎	-11.2465
徃徃	-11.2465
救荒	-11.2469
闗係	-11.2469
縀一疋	-11.2469
斬首	-11.2476
九十七	-11.2478
漳州	-11.2482
器皿	-11.2483
琬	-11.2485
柴塘	-11.2486
婚姻	-11.2487
宿衞	-11.2488
攘	-11.2488
罽	-11.2489
摯	-11.2489
泄	-11.2489
廸	-11.249
鴨	-11.249
井田	-11.2494
闇	-11.2495
登極	-11.2499
郴	-11.2501
畿輔	-11.2506
水災	-11.2507
晡	-11.2508
軍旅	-11.251
七毫	-11.251
上三旗	-11.2512
牲牢	-11.2514
里西南至	-11.2514
夫婦	-11.2514
乾隆三十年	-11.2516
拯	-11.2518
毗	-11.2521
𬗟	-11.2521
掌儀司	-11.2527
圉	-11.2528
安撫使	-11.2531
受幣	-11.2538
拭爵	-11.254
零不等	-11.2541
鄉侯	-11.2543
俘獲	-11.2548
減二等	-11.255
剥	-11.255
里東南至	-11.2556
特㫖	-11.2561
文武官員	-11.2576
恩澤	-11.258
甲乙	-11.2581
倣此	-11.2584
䕶軍校䕶軍	-11.2586
悍	-11.2588
甄别	-11.2592
夾帶	-11.2594
湖北湖南	-11.2595
圩	-11.2595
天祐	-11.2596
欽定續通典卷	-11.2597
百二十里	-11.2598
太湖	-11.2599
清濁	-11.2603
祈禱	-11.2605
田宅	-11.2606
二百一十	-11.2611
侍衛如常儀	-11.2613
俎豆	-11.2614
蛟	-11.2621
烽	-11.2622
兵馬司	-11.2622
証	-11.2627
曾祖	-11.263
烟瘴	-11.263
緝拏	-11.263
江蘇安徽	-11.263
大行皇帝	-11.2635
拒戰	-11.2635
良醖令	-11.2636
頥	-11.2637
還罇所	-11.2639
為人後者	-11.2641
從五品	-11.2642
養亷	-11.2646
工竣	-11.2649
硯	-11.265
歴年	-11.265
同知通判	-11.2655
猗	-11.2656
行中書省	-11.2657
借給	-11.2658
稱有制	-11.266
台州	-11.266
罹	-11.2661
耒耜	-11.2665
餻	-11.2668
孝思	-11.2669
變價	-11.2669
伶	-11.2673
篤疾	-11.2675
郯	-11.2675
六百八十	-11.2678
糧餉	-11.2682
中途	-11.2691
古帝王	-11.2692
痊	-11.2694
首領官	-11.2695
挹	-11.2695
譬	-11.2695
竅	-11.2696
鑲黄	-11.2699
稟	-11.2699
平凉	-11.2705
嵐	-11.2705
廢弛	-11.2706
未央	-11.2706
蕤賔	-11.2707
廣東廣西	-11.271
教坊司	-11.2716
漢武帝	-11.2717
龜兹	-11.2718
御製詩	-11.2719
磧	-11.2729
聫曰	-11.2731
托克托	-11.2733
騾	-11.2736
明㑹典卷	-11.2736
䭾	-11.2738
珂	-11.2738
鐃歌	-11.2739
廬州	-11.274
柘	-11.2743
尊罍	-11.2747
發帑	-11.2748
十五里	-11.2751
乾隆四十五年	-11.2753
登歌樂作	-11.2754
囿	-11.2762
二尺五寸	-11.2763
該管上司	-11.2764
鄉里	-11.2769
到京	-11.277
頸	-11.2771
每歲	-11.2772
䧏	-11.2773
採辦	-11.2775
嗜	-11.2776
苻	-11.2776
客省	-11.2776
聖壽	-11.2777
荒田	-11.2777
父老	-11.2782
右僕射	-11.2783
燔柴	-11.2784
廵察	-11.2785
條例一	-11.2786
邦國	-11.2799
滚	-11.2799
朦	-11.28
媚	-11.2801
瑛	-11.2803
䋲	-11.2804
祝辭	-11.2804
醜	-11.2804
圎	-11.2806
戯	-11.2808
奏入報聞	-11.2809
沐浴	-11.2809
戶	-11.2811
大駕鹵簿	-11.2813
琰	-11.2815
紫禁城	-11.2817
者杖八十	-11.2817
正七品	-11.2819
米榖	-11.2823
里去西京	-11.2826
繖扇	-11.2831
弭	-11.2839
撓	-11.2839
己卯	-11.2842
豈能	-11.2842
斡	-11.2842
方畧	-11.2844
諷	-11.2845
擡	-11.2845
僎	-11.2845
埠	-11.2846
布帛	-11.2847
驤	-11.2847
章句	-11.2847
胙肉	-11.286
日為始	-11.2865
身死	-11.2867
姦夫	-11.2874
順治八年	-11.2875
巵	-11.2876
兔	-11.2883
諤	-11.2885
酢	-11.2887
桓公	-11.2891
壺尊	-11.2895
第一星	-11.2897
里西南到	-11.29
創業	-11.2901
倉厫	-11.2902
堅固	-11.2903
前二日	-11.2907
班固	-11.2911
賃	-11.2913
親戚	-11.2913
癸卯	-11.2914
瑗	-11.2914
正五品	-11.2915
卞	-11.2917
犁	-11.2917
洪範	-11.2919
鄭司農云	-11.2919
威逺	-11.292
松潘	-11.2921
河南山東	-11.2923
主客	-11.2927
行慶賀禮	-11.2927
養老	-11.2931
杜佑	-11.2935
詣厨	-11.2938
氏正藍旗滿洲䕶軍	-11.2939
衢州	-11.2947
吞	-11.2947
僖公	-11.2948
商量	-11.2949
可矜	-11.295
歌頌	-11.2954
謗	-11.2955
簇	-11.296
十三年正月	-11.2965
城垣	-11.2966
兄弟之子	-11.2966
九十八	-11.2975
八十七	-11.2976
舶	-11.2979
酺	-11.2983
洗馬	-11.2985
軟	-11.2989
鑲藍旗滿洲	-11.2991
雩祀	-11.2997
務期	-11.2998
出洋	-11.2999
臨洮	-11.3
福胙	-11.3001
古稀	-11.3004
遵守	-11.3005
髙郵	-11.3006
天子諸侯	-11.3009
冄拜	-11.3009
跪奏請	-11.3011
正白旗滿洲	-11.3014
埏	-11.3016
爵酒	-11.3021
外壝	-11.3026
紆	-11.3026
甕	-11.3026
蔡邕	-11.3028
市價	-11.3028
筋	-11.3028
鳳凰	-11.3032
每等異位重行	-11.3036
詮	-11.3039
四品以上	-11.3039
十八卷	-11.3042
牽牲	-11.3043
立碑	-11.3044
額賦	-11.3045
五年三月	-11.3047
四百二十	-11.3048
筆帖式一人	-11.3049
東坡	-11.3051
東靣	-11.3052
夾室	-11.3054
議政大臣	-11.306
京察	-11.306
拳	-11.3062
騙	-11.3064
䨇	-11.3065
翼領	-11.3066
㒺	-11.3066
蟬	-11.3067
蔽膝	-11.307
諸貝勒	-11.3071
僣	-11.3072
鎛鐘	-11.3075
正四品	-11.3076
蠲租	-11.3083
律一首行書	-11.3084
延綏	-11.309
長六尺	-11.309
編磬	-11.309
八十九	-11.309
遴	-11.3091
咄	-11.3092
商販	-11.3092
璉	-11.3093
神祇	-11.3093
寥	-11.3095
窘	-11.3096
聰明	-11.3096
宣示	-11.3101
翦	-11.3102
奔走	-11.3103
燾	-11.3107
皇太后皇后	-11.3108
雍正十年	-11.3113
奉禮郎太祝	-11.3113
販賣	-11.3116
嘉祥	-11.3117
里去東京	-11.3119
奏禮畢	-11.3121
青質	-11.3124
渙	-11.313
革去	-11.313
紓	-11.3134
事蹟	-11.3139
釋服	-11.3139
鄭康成	-11.3142
徇情	-11.3143
沿塗	-11.3144
秋糧	-11.3145
哷	-11.3146
涪	-11.3148
横刀	-11.315
集賢	-11.315
兩八錢	-11.3157
四百四十	-11.3168
西廡	-11.3171
迅	-11.3173
乾隆八年	-11.3175
華盖	-11.3175
佾	-11.3178
群	-11.3178
流二千里	-11.3182
申飭	-11.3183
鏤金	-11.3183
屯糧	-11.3185
史志	-11.3185
東南西向	-11.3186
朕躬	-11.3188
降輦	-11.3189
違例	-11.3195
緡錢	-11.3197
雍正十二年	-11.3199
色楞	-11.32
囑	-11.3204
著該部	-11.3207
敢昭告於	-11.3209
拖	-11.3212
釐二毫	-11.3212
二十七月	-11.3212
縻	-11.3212
逈	-11.3213
巴延	-11.3215
召募	-11.3216
暢春園	-11.3216
㽔	-11.3219
私販	-11.3222
介幘	-11.3224
圓丘	-11.3229
犯贓	-11.323
針	-11.3239
山東巡撫	-11.3241
功曹	-11.3242
摶	-11.3244
楨	-11.3246
廖	-11.3246
稼穡	-11.325
餓	-11.3252
八年正月	-11.3256
華亭	-11.3258
姆	-11.3259
歸併	-11.3264
四隅	-11.3265
蕃客	-11.3268
客商	-11.327
萬姓	-11.3273
腰輿	-11.3274
他處	-11.3274
典儀曰再拜	-11.328
胥吏	-11.3285
囂	-11.3285
琪	-11.3285
特磬	-11.3286
寳座	-11.329
𤣥宗	-11.3291
讀祝文	-11.3295
鎬	-11.3296
貧乏	-11.3296
規制	-11.3297
税課	-11.3297
勛	-11.3298
邾	-11.3298
二千八百	-11.3304
通曉	-11.331
擇吉	-11.3316
金鉦	-11.3317
中二千石	-11.332
寰宇	-11.3323
稠	-11.3324
餽	-11.3326
辛卯	-11.3328
賞卹如例	-11.3329
縹	-11.3329
婚禮	-11.3329
圍錦州	-11.333
閬	-11.333
興復位	-11.3333
衣裳	-11.3333
䕶送	-11.3333
王安石	-11.3334
紅錦	-11.3342
三等輔國將軍	-11.3345
千匹	-11.3352
閏月	-11.3356
順治五年	-11.3358
可憫	-11.3358
四百三十	-11.3362
猥	-11.3364
婿	-11.3364
文華殿	-11.3365
侵蝕	-11.3365
十年五月	-11.3366
受賀	-11.337
著落	-11.3372
世宗大定	-11.3373
酒尊所	-11.3375
鄱陽	-11.3377
太子少保	-11.338
團扇	-11.3389
粧	-11.3391
廵幸	-11.3392
八十六	-11.3394
租賦	-11.3395
輿情	-11.3396
翅	-11.3406
脚價	-11.3407
遣陪臣	-11.3409
福康安	-11.341
冡	-11.341
協副將一人	-11.3411
鐘鼓	-11.3414
職事官	-11.3421
席羊	-11.3423
嫡子	-11.3425
儒林	-11.3425
壕	-11.3437
楯	-11.3437
晶	-11.3437
嵇	-11.3443
賭博	-11.3444
綦	-11.3446
酤	-11.3447
鮮卑	-11.345
一等台吉	-11.3459
家奴	-11.346
里西北到	-11.3463
專管	-11.3463
八十八	-11.3466
梓宮	-11.3467
冄	-11.3468
順治初年定	-11.347
十三卷	-11.3471
印綬	-11.3471
淆	-11.3473
羨	-11.3474
嗚呼	-11.3476
臆	-11.3477
醍	-11.348
愿	-11.3481
倦	-11.3483
闋	-11.3485
四百七十	-11.3486
㸃檢	-11.3486
聖慈	-11.3486
髹	-11.3492
罪一等	-11.35
抹金銅	-11.3501
皇太子妃	-11.3502
乾隆六年	-11.3506
太原府	-11.3507
鏘	-11.3512
害稼	-11.3512
抑勒	-11.3516
本注曰	-11.3516
己夘	-11.3516
描	-11.3517
天文志	-11.3518
申嚴	-11.3524
流三千里	-11.3524
循環	-11.3525
四品五品	-11.3525
栅	-11.3527
賛者引	-11.3529
欽㸃	-11.3537
礬	-11.3545
紅漆	-11.3546
欽定四庫全書欽定八旗通志	-11.3546
餼	-11.3552
縦	-11.3556
太祖高皇帝	-11.3565
防禦使	-11.3568
往返	-11.3569
門下省	-11.3573
年逾	-11.3576
郅	-11.3588
苟	-11.3589
營守備	-11.3589
郤	-11.3591
輪流	-11.3591
頡利	-11.3594
騎都尉世職	-11.3594
十一年二月	-11.3595
岀	-11.3595
鹿角	-11.3595
七百五十	-11.3596
膽	-11.3596
彜	-11.3596
瓦爾喀	-11.3598
察罕	-11.36
鼂	-11.3602
豫章	-11.3606
行掃除	-11.3607
晉武帝	-11.3612
送燎	-11.3613
矦	-11.3614
興販	-11.3621
鑲紅	-11.3621
謄	-11.3623
待詔	-11.3624
徠	-11.3627
候㫖	-11.3631
閨	-11.3636
禇	-11.3637
挨次	-11.3641
滴	-11.3642
岱宗	-11.3644
署丞	-11.3649
牧養	-11.365
西嚮	-11.365
籌辦	-11.3658
宫赤道在	-11.3658
遇恩詔	-11.3661
内簡選	-11.3666
清蹕	-11.3668
䕶衞	-11.3668
埸	-11.3672
翹	-11.3672
見易類	-11.3672
狡	-11.3673
虗	-11.3674
澇	-11.3677
兼一雲騎尉	-11.3677
厦門	-11.3678
埒	-11.3681
日月星辰	-11.3681
八旗漢軍	-11.3682
置於案	-11.3685
三等奉國將軍	-11.3686
通天冠	-11.3687
十四年正月	-11.369
藹	-11.3695
康熙五十二年	-11.3698
晡後	-11.3703
懿祖	-11.3705
杜典	-11.371
糊	-11.371
畜産	-11.3712
覧	-11.3715
唐貞觀	-11.3716
出具考語	-11.3716
八年二月	-11.3717
蕃主	-11.3718
粲	-11.3718
下部議	-11.3722
有司謹具請行事	-11.3726
抵銷	-11.3726
究治	-11.3736
内外命婦	-11.3738
親王郡王	-11.3741
撥給旗人地	-11.3746
惶	-11.3747
寂	-11.375
隳	-11.3751
神宗萬厯	-11.3753
陰陽	-11.3755
𢃄	-11.3756
太常禮院	-11.3757
步軍統領	-11.3761
氏鑲黄旗滿洲䕶軍	-11.3762
滿洲鑲藍旗人	-11.3762
阿思哈尼哈畨	-11.3765
光禄丞	-11.3767
仲尼	-11.3775
里東南到	-11.3776
伏願	-11.3779
江寜	-11.378
自此始	-11.378
賜胙	-11.3781
翕	-11.3785
都指揮使司	-11.3788
擬絞監候	-11.3789
悅	-11.3791
煤	-11.3793
袤	-11.3795
沭	-11.38
筍	-11.3805
啐	-11.3806
比較	-11.3808
寄養	-11.3809
論俸	-11.3813
滇省	-11.3814
五百八十	-11.3816
某官某	-11.3816
煌煌	-11.3821
航	-11.3823
牲體	-11.3828
刦	-11.3831
菽	-11.3831
斬絞	-11.384
太簇	-11.384
龍朔二年改	-11.3845
營汛	-11.3848
兵一千	-11.3848
饋食	-11.3853
祇候	-11.3862
𢎞農	-11.3869
牧場	-11.387
拮据	-11.3873
企	-11.3878
剏	-11.3879
氏鑲紅旗滿洲䕶軍	-11.3882
戴罪	-11.3887
薨諡	-11.3889
筒	-11.3898
禮直官贊	-11.3903
一等侍衛	-11.3905
産業	-11.3909
七百七十	-11.3911
正藍旗滿洲	-11.3912
詁	-11.3914
以爵授執事者	-11.3915
瑣	-11.3916
外戚	-11.3918
顓頊	-11.3924
逋賦	-11.3925
𠫭領	-11.3925
左右廂	-11.3928
潼闗	-11.3928
瘞坎	-11.393
行三跪九拜禮	-11.3932
月朔日	-11.3935
獅子	-11.3943
慙	-11.3944
歐	-11.3946
五世孫	-11.3946
四品以下	-11.3948
畒	-11.3951
五言排律	-11.3952
矧	-11.3952
評事	-11.3952
棧	-11.3953
剩	-11.3953
蒿	-11.3956
坪	-11.3957
計程	-11.3961
于闐	-11.3965
帨手	-11.3966
劔	-11.3967
宫架樂作	-11.397
綱目	-11.3972
徒一年半	-11.3973
仲秋	-11.3974
栿	-11.3975
五百五十	-11.3981
臨安府	-11.3993
西面北上	-11.3994
穗	-11.3994
進𠞰	-11.3999
瘦	-11.4
三老五更	-11.4
第二星	-11.4004
銑	-11.4012
下部議行	-11.4016
忝	-11.4018
硃紅漆	-11.4021
縵	-11.4026
故以其叔	-11.4027
燕饗	-11.4029
涓	-11.4033
最高	-11.4036
黥	-11.4036
譴	-11.4036
集十卷	-11.4037
武備院	-11.4037
分晰	-11.4038
劑	-11.4038
墾田	-11.4039
乾隆四十九年	-11.4042
百觔	-11.4042
征討	-11.4044
七百二十	-11.4047
京兆尹	-11.4051
從七品	-11.4051
六百四十	-11.4061
嘏	-11.4063
十五萬	-11.4065
西靣	-11.407
奏聖躬萬福	-11.4071
廣儲司	-11.4071
銀三兩	-11.4072
沂州	-11.4072
鑠	-11.4074
庵	-11.4076
瑕	-11.4079
輜重	-11.4082
加勺羃	-11.4082
盝	-11.4082
帨	-11.4085
人嘉靖進士官至	-11.4085
七言絶	-11.4086
大晟	-11.4086
腐	-11.4086
希圖	-11.4095
臨淮	-11.4098
唐縣有	-11.4098
慶歴	-11.4098
丈四尺	-11.4104
滎陽	-11.4106
嵌	-11.4108
袱	-11.4115
鳬	-11.4116
武英殿	-11.4117
鄉㑹試	-11.412
滛	-11.4121
公主適	-11.4121
辛夘	-11.4122
柶	-11.4126
琉球	-11.413
喀喇	-11.413
節氣時刻	-11.4132
燉煌	-11.4134
副尉	-11.4137
杖七十	-11.4138
喝	-11.415
懦	-11.4157
洱	-11.4163
澳	-11.4165
僧尼	-11.4166
藍翎侍衛	-11.4168
鎔	-11.4171
太常少卿	-11.4176
喀爾	-11.4184
洋洋	-11.4199
墟	-11.4203
粱	-11.4203
荆湖	-11.4205
康熙六年	-11.4207
蓮花	-11.4207
神龍元年	-11.421
精竒尼哈畨	-11.4213
東南隅	-11.422
屆期	-11.4221
佩刀	-11.4221
象牙	-11.4224
關防	-11.4229
倩	-11.4233
順治十八年	-11.4237
未入流	-11.4243
癸夘	-11.4244
釐九毫	-11.4244
俯伏	-11.425
鳳翔	-11.4251
賛者承傳	-11.4254
勸農	-11.4255
萬觔	-11.4266
宫殿監	-11.4271
柩車	-11.4272
文獻通考	-11.4273
戸部尚書	-11.428
帶領引見	-11.4283
事竣	-11.4293
以西為上	-11.4296
提調官	-11.4298
大使副使	-11.4305
陞轉	-11.4307
四百九十	-11.4307
祭酒三爵	-11.4309
祫享	-11.431
嫡孫	-11.4312
兩三錢	-11.4313
伏誅	-11.4314
葱	-11.4317
彰徳	-11.4318
氓	-11.4319
踞	-11.4321
匾	-11.4321
瞻仰	-11.4323
擴	-11.4323
鉢	-11.4324
黷	-11.4324
們	-11.4326
訾	-11.4327
課程	-11.4329
廬陵	-11.433
酹	-11.4332
纚	-11.4336
藉端	-11.4345
五百四十	-11.4346
里東北到	-11.4349
八佾	-11.4349
諏	-11.4361
順治三年	-11.4366
有禆益	-11.4369
覔	-11.4369
簍	-11.437
咸朝服	-11.4371
甥	-11.4373
討論	-11.4375
神農氏	-11.438
巡察	-11.438
瀋	-11.4382
謁者引太常卿	-11.4383
禖	-11.4385
和碩親王	-11.4386
宗室覺羅	-11.4389
偽造	-11.439
萬幾	-11.4394
醋	-11.4404
歿於陣	-11.4414
鵝	-11.4415
驥	-11.4416
虎符	-11.4418
乙卯	-11.442
總漕	-11.442
賢良祠	-11.4423
會稽	-11.4428
氏鑲白旗滿洲	-11.4443
把總一人兵	-11.4445
侍立位	-11.4445
健鋭營	-11.4447
蹄	-11.4451
愉	-11.4452
入八分公	-11.446
涕	-11.446
驗看	-11.446
御太和殿	-11.4461
蠲除	-11.4466
衛輝	-11.4471
丈八尺	-11.4473
六百七十	-11.4482
聶	-11.4489
藪	-11.4494
寒暑	-11.4496
裨	-11.4496
亰	-11.4498
鍰	-11.4499
淳祐	-11.4503
爵於坫	-11.4504
滋擾	-11.4506
通政使司	-11.4508
保障	-11.4511
都指揮	-11.4514
鉅典	-11.452
察驗	-11.4524
焚香	-11.4527
恭謁	-11.4527
一尺三寸	-11.4529
川陜	-11.453
縣來屬	-11.4531
慨	-11.4533
猝	-11.4535
睿親王多爾衮	-11.4536
謐	-11.4538
男婦大小	-11.4539
巴顔	-11.4542
魄	-11.4545
鹿脯	-11.4547
䜟	-11.4547
市舶	-11.4548
梅勒章京	-11.455
折衷	-11.4551
十五年正月	-11.4556
旌旗	-11.4559
千把總	-11.4572
侔	-11.4574
營繕	-11.4574
怯	-11.4575
卸	-11.4576
髤朱	-11.4577
猺	-11.4577
皇甫	-11.4578
洊	-11.4578
拙	-11.4578
擕	-11.4579
擺	-11.458
濛	-11.458
泗水	-11.4581
胎	-11.4581
都䕶府	-11.4583
開府儀同三司	-11.4585
嚳	-11.459
纊	-11.4592
騍	-11.4592
前鋒叅領	-11.4596
閏五月	-11.4597
致齋三日	-11.4597
行禮如儀	-11.4602
紫微	-11.4602
神厨	-11.4607
茫	-11.4611
康熙九年	-11.4612
錢粮	-11.4613
筝	-11.4618
誇	-11.4619
輟朝	-11.4623
型	-11.4624
羸	-11.4626
臨陣	-11.4632
豐稔	-11.4632
跨	-11.4632
杖九十	-11.4633
欒	-11.4635
鑾儀衞	-11.4635
杞	-11.464
管束	-11.4646
馮翊	-11.4647
房三間	-11.4648
蹌	-11.4659
釋放	-11.4664
遷徙	-11.4665
鑲白	-11.4667
五百七十	-11.4668
槖	-11.4669
照此例	-11.4672
賞卹如例恩賜雲騎尉世職	-11.4677
工部侍郎	-11.4684
七百四十	-11.4687
朱雀	-11.4688
會試	-11.4694
内遴選	-11.47
俸禄	-11.4707
咏	-11.471
奮勉	-11.471
迥	-11.4711
捜	-11.4711
泮	-11.4711
漢軍鑲黄旗人	-11.4712
技藝	-11.4712
釐四毫	-11.4713
蕆	-11.4714
桀	-11.4716
孝宗𢎞治	-11.4717
菱	-11.4717
鏞	-11.4718
罩	-11.4721
墠	-11.4723
梁武帝	-11.4724
塼	-11.473
五百六十	-11.4731
秋禾	-11.4735
蔓	-11.4748
縑	-11.4754
秸	-11.4758
飼	-11.4758
拭	-11.4759
包攬	-11.476
康熙八年	-11.4761
三寸五分	-11.4762
旗幟	-11.4762
滿洲鑲黄旗人	-11.4763
斬獲	-11.4763
墳墓	-11.4769
澶	-11.477
二十八宿	-11.4774
陕	-11.4774
豐之章	-11.4786
糾察	-11.4787
倅	-11.479
奉神主	-11.4792
亦照此例	-11.4794
剖	-11.4795
銀二錢	-11.4798
卡倫	-11.4798
馘	-11.4798
趺	-11.48
茨	-11.4803
從重論	-11.4804
隨征金川	-11.4807
歩軍尉	-11.4811
擬絞	-11.4812
輴	-11.4817
銃	-11.4825
韭	-11.4847
餙	-11.4847
祏	-11.4851
酳	-11.4855
躡	-11.4881
姨	-11.4884
閫	-11.4888
儷	-11.4891
桿	-11.4894
鞋	-11.4898
贑	-11.4899
綂	-11.4919
龠	-11.4921
縴	-11.4928
慘	-11.4929
揣	-11.4932
褚	-11.4934
崧	-11.4936
赭	-11.4938
鍵	-11.4943
炬	-11.4977
蟄	-11.4979
隷	-11.498
耽	-11.4984
棠	-11.4984
唾	-11.4985
眂	-11.4998
鎻	-11.5017
璞	-11.5021
窰	-11.5041
傭	-11.5065
抛	-11.5066
麤	-11.5069
鍊	-11.5075
繚	-11.5076
紺	-11.5079
閎	-11.5114
炕	-11.5116
覊	-11.512
煦	-11.5161
鼠	-11.5162
贅	-11.5165
麫	-11.52
姿	-11.5203
椎	-11.5204
逕	-11.5206
殄	-11.5208
琥	-11.5209
滸	-11.5209
寗	-11.5212
嫂	-11.5231
鎧	-11.5248
雒	-11.5252
芡	-11.5255
迂	-11.5255
顓	-11.5259
褾	-11.5261
匕	-11.5261
櫃	-11.5287
瘴	-11.5293
婪	-11.5296
犒	-11.5298
髠	-11.5305
囤	-11.5351
獮	-11.5354
㝢	-11.538
譁	-11.5388
縈	-11.5393
侮	-11.5393
瑾	-11.5396
墅	-11.5396
夭	-11.5397
豬	-11.5419
瀝	-11.5438
臭	-11.5439
髀	-11.5452
巍	-11.5475
跟	-11.5481
煽	-11.5484
橫	-11.5489
堊	-11.549
剽	-11.549
濩	-11.5531
汙	-11.5532
訃	-11.5535
貎	-11.5537
窠	-11.554
鍠	-11.5543
畋	-11.5574
脉	-11.5574
滂	-11.5575
悌	-11.5576
鞮	-11.5578
恱	-11.5579
袞	-11.5582
扉	-11.5584
廳	-11.5585
啇	-11.5587
靠	-11.5618
丸	-11.562
慚	-11.5622
憩	-11.5625
錮	-11.5632
鞅	-11.5632
𦍑	-11.5639
縢	-11.564
煟	-11.5643
棒	-11.5675
禳	-11.5681
瑄	-11.5682
嶲	-11.5688
濓	-11.573
鋄	-11.5733
啜	-11.5769
嚇	-11.577
杌	-11.5771
紱	-11.5771
窟	-11.5772
聳	-11.5773
肘	-11.5777
禜	-11.5782
兗	-11.5798
搥	-11.5826
賻	-11.5829
犍	-11.583
汧	-11.5841
瑯	-11.5858
璿	-11.5864
楓	-11.5864
厮	-11.587
眇	-11.5874
葭	-11.5887
壹	-11.5887
芸	-11.5915
劫	-11.5916
茹	-11.5917
羈	-11.5917
漾	-11.5919
兾	-11.5919
杓	-11.5921
羆	-11.5924
䆒	-11.5971
縞	-11.5984
陁	-11.6015
斚	-11.6018
軺	-11.6031
驂	-11.6065
悛	-11.6067
殪	-11.6068
挫	-11.607
塹	-11.6072
怙	-11.6072
盃	-11.6097
嬉	-11.6109
氛	-11.611
濃	-11.611
搖	-11.6118
倬	-11.6119
孕	-11.6121
碭	-11.6132
獅	-11.6152
鏃	-11.6153
胸	-11.6169
鏗	-11.6169
蜃	-11.617
駱	-11.6175
㐮	-11.6176
膋	-11.6181
楅	-11.6216
琢	-11.6217
驪	-11.6219
勣	-11.622
糓	-11.6224
穂	-11.6225
紂	-11.6225
漣	-11.6227
岩	-11.6227
衿	-11.6227
砥	-11.627
詆	-11.6272
剃	-11.6272
愜	-11.6272
屑	-11.6274
篋	-11.6278
褘	-11.6279
櫺	-11.629
仔	-11.6323
釵	-11.6324
鑼	-11.6326
琚	-11.6327
穎	-11.6328
嗇	-11.6328
黻	-11.6332
腦	-11.637
巒	-11.6374
雋	-11.6374
寐	-11.6424
毳	-11.6426
脈	-11.6427
廿	-11.6428
旃	-11.6434
禺	-11.6442
擄	-11.6475
骸	-11.6476
剋	-11.6479
騫	-11.6481
顙	-11.6485
輻	-11.6486
鄞	-11.6487
陘	-11.6492
𠂻	-11.6525
呵	-11.6526
諄	-11.6531
庖	-11.6538
匙	-11.6541
芮	-11.6551
堦	-11.6576
卵	-11.6582
䦕	-11.6585
瞽	-11.6592
瓌	-11.663
顥	-11.6632
盪	-11.6632
苧	-11.6636
緌	-11.664
磔	-11.6641
騶	-11.6642
僑	-11.6642
䏻	-11.6643
塜	-11.6643
冥	-11.6646
讎	-11.6648
哺	-11.6681
佞	-11.6683
殃	-11.6689
瘼	-11.669
湮	-11.6692
宄	-11.6694
莢	-11.6728
閃	-11.6738
斫	-11.6741
砍	-11.6742
鹻	-11.6747
脾	-11.6751
䙝	-11.6753
絫	-11.6779
騸	-11.6782
弇	-11.6787
澆	-11.6792
耐	-11.6792
蘋	-11.6796
洙	-11.6797
刨	-11.6797
犂	-11.68
縳	-11.6846
癸	-11.6847
悮	-11.6849
喚	-11.685
翌	-11.6853
昱	-11.6854
棱	-11.6855
焞	-11.6872
摛	-11.6892
舵	-11.6897
餒	-11.6901
禅	-11.6908
釣	-11.691
觥	-11.6944
滎	-11.695
餐	-11.6953
翳	-11.6957
擲	-11.6958
塾	-11.6962
莘	-11.6963
訣	-11.6963
瓘	-11.6967
媵	-11.6971
洺	-11.6976
盔	-11.6977
腊	-11.7014
沱	-11.7016
羗	-11.7021
鎛	-11.7021
綘	-11.7024
鉉	-11.7025
鵷	-11.7044
碗	-11.7045
樺	-11.7054
愼	-11.7065
袠	-11.7067
湟	-11.7077
禕	-11.708
綍	-11.7115
咫	-11.7119
雝	-11.7124
煖	-11.7125
夤	-11.7126
𨼆	-11.713
淇	-11.7134
㠯	-11.7156
繙	-11.7168
刄	-11.7176
煜	-11.7183
拴	-11.719
緊	-11.7229
硝	-11.7234
鈸	-11.7237
邜	-11.7239
戞	-11.7241
昶	-11.7244
朐	-11.725
卉	-11.7279
喉	-11.7295
淸	-11.7295
襍	-11.7295
泌	-11.7298
殂	-11.7303
撻	-11.7339
塡	-11.7342
療	-11.7351
艮	-11.7354
這	-11.7354
磐	-11.7355
鄯	-11.7362
酎	-11.7366
搬	-11.7402
獠	-11.7405
譟	-11.7406
苾	-11.7407
漪	-11.7407
儧	-11.7407
凟	-11.7407
凑	-11.7408
氂	-11.7408
瞿	-11.741
燠	-11.7412
跣	-11.7417
薌	-11.742
杠	-11.7421
溧	-11.7423
彙	-11.7458
芽	-11.7458
鬚	-11.7462
緹	-11.7464
恂	-11.7468
醆	-11.7476
刹	-11.7513
麋	-11.7513
覘	-11.7515
焜	-11.7518
玠	-11.7519
讒	-11.7524
瑀	-11.7526
牕	-11.7531
焰	-11.7532
眡	-11.7536
瑩	-11.7583
驘	-11.7585
朞	-11.7586
竪	-11.7632
蟻	-11.7636
諴	-11.7641
閼	-11.7642
蒋	-11.7643
簨	-11.7644
蓍	-11.7644
擠	-11.7647
蠱	-11.7647
霈	-11.7648
鬢	-11.7655
濊	-11.7687
蜂	-11.7692
屡	-11.7699
杉	-11.7699
珉	-11.77
袵	-11.77
埃	-11.7742
耋	-11.7747
忤	-11.7757
纍	-11.7757
丐	-11.776
夸	-11.776
擯	-11.7762
庄	-11.7763
沴	-11.7764
襦	-11.7765
晁	-11.7765
匜	-11.7765
榭	-11.7769
侗	-11.7769
兀	-11.7771
鶯	-11.779
鵰	-11.7808
舘	-11.7822
詡	-11.7824
雌	-11.7825
縠	-11.7826
廏	-11.7827
脇	-11.7827
鶚	-11.7832
迦	-11.7872
淖	-11.7877
净	-11.7878
譲	-11.7884
釡	-11.7885
煑	-11.7889
萇	-11.789
戕	-11.7932
盎	-11.7932
薈	-11.7937
掇	-11.7939
痕	-11.7939
絮	-11.794
簟	-11.7941
欝	-11.7944
霆	-11.7992
珀	-11.7994
汁	-11.7995
莎	-11.7999
碍	-11.7999
畦	-11.8
櫝	-11.8002
棨	-11.8003
篪	-11.8004
纉	-11.8005
汜	-11.8007
瑤	-11.805
幻	-11.8053
鍳	-11.8053
擘	-11.8055
稾	-11.8056
筑	-11.8059
豎	-11.8059
訶	-11.8059
紵	-11.8061
蚩	-11.8065
煒	-11.8065
慟	-11.8066
絺	-11.8069
榥	-11.809
帔	-11.8091
臬	-11.811
鰲	-11.811
嘴	-11.8118
籽	-11.8119
騁	-11.812
杵	-11.8125
掆	-11.8127
嶧	-11.8134
軻	-11.8135
櫟	-11.8137
篴	-11.8183
泓	-11.8183
稚	-11.8186
斐	-11.8187
蔑	-11.8188
餕	-11.8192
旐	-11.8202
陡	-11.8238
娑	-11.8238
瞭	-11.8244
頽	-11.8248
逡	-11.8252
璁	-11.8255
嫓	-11.8292
菲	-11.8293
垜	-11.8302
秣	-11.8305
緜	-11.8305
斁	-11.831
曄	-11.8311
瑋	-11.8313
鉗	-11.8314
埳	-11.8317
厦	-11.8319
廱	-11.8321
蝻	-11.8359
肖	-11.8362
琯	-11.8363
擐	-11.8366
嶼	-11.8367
姒	-11.8369
醓	-11.837
溶	-11.8371
剡	-11.8373
筯	-11.8373
桯	-11.8417
鯨	-11.8421
糚	-11.8434
瓷	-11.8435
吻	-11.8437
旻	-11.8438
扄	-11.844
珣	-11.8445
箸	-11.8446
鼇	-11.8491
侃	-11.8491
蕉	-11.8493
嬴	-11.8496
閹	-11.85
獺	-11.85
紕	-11.8501
楫	-11.8501
晃	-11.8506
蓂	-11.8535
榔	-11.8549
棫	-11.8551
譌	-11.8551
廨	-11.8553
鞞	-11.8554
梢	-11.8558
躭	-11.856
踪	-11.8561
顏	-11.8563
哇	-11.8563
宕	-11.8564
淋	-11.8568
杲	-11.8568
鍪	-11.8578
闥	-11.8619
僊	-11.8621
忩	-11.8621
爨	-11.8621
遶	-11.8622
㸑	-11.8624
慝	-11.8624
塪	-11.8635
殮	-11.864
闐	-11.8664
蹂	-11.8682
鋤	-11.8683
糖	-11.8684
詈	-11.8692
喂	-11.8696
梭	-11.8752
灝	-11.8755
瓠	-11.8757
婣	-11.8763
奭	-11.8763
鷩	-11.8763
窖	-11.8817
珙	-11.8819
杻	-11.8821
蹇	-11.8823
燮	-11.8824
紼	-11.8827
拐	-11.883
閟	-11.8831
燿	-11.8832
緘	-11.8877
頡	-11.8881
紡	-11.8882
莱	-11.8885
吝	-11.8889
覿	-11.889
扛	-11.8941
暄	-11.8946
彫	-11.8949
瀦	-11.8951
徂	-11.8954
殞	-11.8955
甒	-11.8957
撈	-11.8958
蚤	-11.896
蓆	-11.8962
襈	-11.8964
儋	-11.8966
耨	-11.9013
𠫭	-11.9014
態	-11.902
芟	-11.9022
詒	-11.9023
粢	-11.9024
𦙍	-11.9024
楣	-11.9027
壼	-11.903
擩	-11.9036
媯	-11.9038
閽	-11.9084
璠	-11.9087
兕	-11.9091
腴	-11.9153
沼	-11.9153
麽	-11.9155
删	-11.9155
楠	-11.9156
鍚	-11.9158
跌	-11.9159
鬛	-11.9164
郷	-11.9165
窓	-11.9176
滷	-11.9186
禔	-11.922
斑	-11.9222
懌	-11.9228
戛	-11.9228
婉	-11.9231
鴟	-11.9234
佗	-11.9236
錞	-11.9289
㤀	-11.929
蒞	-11.9291
靑	-11.9291
刈	-11.9296
阡	-11.9297
覬	-11.9297
嘯	-11.9299
莾	-11.93
隧	-11.931
瘡	-11.9366
狭	-11.9368
舫	-11.9368
薙	-11.9368
裾	-11.9375
澁	-11.9376
鈍	-11.9422
牋	-11.9426
鞘	-11.9427
幟	-11.9428
寤	-11.9433
炊	-11.9435
葆	-11.9435
輾	-11.9435
糗	-11.9438
黽	-11.9438
腯	-11.9442
罐	-11.9446
遘	-11.9489
臾	-11.9498
芾	-11.9501
癘	-11.9505
炙	-11.9507
湍	-11.9508
岔	-11.951
愽	-11.9511
殽	-11.9516
妍	-11.9562
峭	-11.957
党	-11.9571
悚	-11.9573
蜚	-11.9574
禡	-11.9577
扞	-11.9582
肌	-11.964
孥	-11.964
貿	-11.9641
駑	-11.9641
扺	-11.9643
弹	-11.9645
彔	-11.9645
鐶	-11.9645
縊	-11.9647
儻	-11.9648
諜	-11.9649
粘	-11.9651
繢	-11.9652
辮	-11.9654
儺	-11.9657
錡	-11.966
瀼	-11.971
呢	-11.9711
黠	-11.9711
仆	-11.9714
濼	-11.9719
扑	-11.9725
峴	-11.9726
淶	-11.9728
冇	-11.9733
頰	-11.9737
斟	-11.9764
籐	-11.9772
鏁	-11.9777
厠	-11.9785
蹤	-11.9787
咱	-11.9787
聆	-11.9789
耘	-11.979
疵	-11.9791
締	-11.9791
賍	-11.9796
関	-11.9797
㨂	-11.9801
娘	-11.9805
槀	-11.9806
俳	-11.986
咽	-11.9862
籬	-11.9863
挟	-11.9867
甃	-11.9869
卺	-11.9873
棊	-11.9873
鏐	-11.9875
曙	-11.9925
遄	-11.993
笋	-11.9936
壎	-11.9937
鳶	-11.9939
凋	-11.9939
桶	-11.9941
㕓	-11.9941
眚	-11.9942
韠	-11.9947
祓	-11.995
劓	-11.9952
濰	-11.9959
枵	-11.9998
絀	-12.0005
桅	-12.0005
螟	-12.001
淘	-12.001
􁇢	-12.0011
讌	-12.0012
洒	-12.0013
雎	-12.002
炯	-12.0031
穡	-12.0081
啼	-12.0084
攄	-12.0085
憾	-12.0086
㮣	-12.0086
鏄	-12.0086
泝	-12.0087
鯉	-12.0087
惓	-12.0091
醯	-12.0092
嚢	-12.0093
奐	-12.0095
僮	-12.0099
蔀	-12.0149
覯	-12.0149
佇	-12.0151
遹	-12.0154
沸	-12.0155
鍼	-12.0157
䄂	-12.0157
霓	-12.0158
翩	-12.0159
馥	-12.0159
嫩	-12.0163
齍	-12.0167
毘	-12.0168
煉	-12.017
帆	-12.0172
陔	-12.0174
霏	-12.0227
珩	-12.0228
畸	-12.0237
彖	-12.0237
滔	-12.0237
笠	-12.0238
罸	-12.0239
苫	-12.0241
黝	-12.0241
仞	-12.025
騮	-12.0253
郃	-12.0254
佶	-12.0272
糺	-12.0301
燃	-12.031
瞞	-12.0311
佯	-12.0311
郞	-12.0313
穏	-12.0315
觚	-12.0317
塚	-12.0318
鹹	-12.0319
棹	-12.032
烜	-12.0376
胞	-12.0381
翥	-12.0384
酣	-12.0388
泳	-12.0391
㽞	-12.0392
糠	-12.0392
滹	-12.0394
誆	-12.0394
琨	-12.0395
蓐	-12.0399
炫	-12.0399
詛	-12.04
坂	-12.0403
佽	-12.0405
䚢	-12.0409
儔	-12.0457
毖	-12.0464
僰	-12.0465
傲	-12.0465
皿	-12.0465
糝	-12.0466
別	-12.0472
㦯	-12.0475
槅	-12.0543
勻	-12.0544
瓖	-12.0546
熬	-12.0547
璫	-12.0548
昑	-12.0549
耻	-12.055
些	-12.0551
臼	-12.0553
塑	-12.0555
麝	-12.0557
酸	-12.0557
淦	-12.0563
籟	-12.0604
閶	-12.0613
戧	-12.0613
摇	-12.0615
絜	-12.062
豊	-12.0624
猜	-12.0625
毯	-12.0625
曇	-12.0629
稲	-12.0632
箔	-12.0639
朢	-12.0642
笴	-12.0679
籤	-12.0691
蘿	-12.0694
翮	-12.0697
斵	-12.0704
誑	-12.0705
仄	-12.0706
邃	-12.0706
肴	-12.0706
獬	-12.0716
鄢	-12.0726
熲	-12.0728
藎	-12.078
畯	-12.0781
䍐	-12.0781
卻	-12.0782
侂	-12.0782
剝	-12.0784
挐	-12.0785
揄	-12.0789
屛	-12.0789
茵	-12.079
稗	-12.0792
缶	-12.0796
盌	-12.0811
匭	-12.0845
氤	-12.0847
賮	-12.0859
諺	-12.0862
衽	-12.0866
䃭	-12.0868
筦	-12.087
橘	-12.0871
槨	-12.0873
厘	-12.0874
彯	-12.0928
鑽	-12.0935
鴉	-12.0941
祲	-12.0943
撙	-12.0947
俶	-12.0949
閠	-12.0951
祊	-12.0952
躁	-12.0955
豸	-12.0956
甆	-12.0963
瓏	-12.1023
媛	-12.1029
叱	-12.1031
鬰	-12.1034
脣	-12.1041
鼙	-12.1042
袂	-12.1104
緗	-12.1106
垠	-12.1106
昺	-12.1107
髓	-12.1107
据	-12.1108
壌	-12.111
燥	-12.111
淞	-12.111
漷	-12.1112
糞	-12.1113
曝	-12.1117
曵	-12.1187
韵	-12.1188
笥	-12.1192
蝦	-12.1193
顗	-12.1196
秔	-12.1196
膊	-12.1199
廠	-12.12
鴛	-12.12
湊	-12.12
惲	-12.1204
駞	-12.1208
亾	-12.1208
茀	-12.1264
慄	-12.1266
拈	-12.1271
値	-12.1272
鍮	-12.1277
缸	-12.1278
堠	-12.1283
栖	-12.1284
荼	-12.1285
泠	-12.1286
鋐	-12.1286
輈	-12.1289
娥	-12.1289
騑	-12.1292
藺	-12.1293
焯	-12.1304
絢	-12.1347
淚	-12.1354
豢	-12.1355
椁	-12.136
𤾉	-12.1366
藐	-12.1367
圯	-12.1367
眺	-12.137
莪	-12.142
筴	-12.1439
瘁	-12.1439
巔	-12.1441
襠	-12.1443
矍	-12.1444
孶	-12.1444
閙	-12.1445
吁	-12.1448
庀	-12.1449
誄	-12.145
券	-12.1452
黯	-12.1452
娣	-12.1464
蠢	-12.1522
𬎼	-12.1531
羯	-12.1531
耔	-12.1533
抉	-12.1533
屹	-12.1534
篷	-12.1535
娼	-12.1536
彘	-12.1537
朧	-12.154
昕	-12.1544
翬	-12.1545
妺	-12.1552
喁	-12.161
硬	-12.1614
娛	-12.1624
謠	-12.1625
彥	-12.1626
㼧	-12.1653
篐	-12.1665
闓	-12.1701
喫	-12.1702
昬	-12.1704
櫓	-12.1706
暹	-12.1708
褁	-12.1708
渤	-12.1709
戱	-12.1709
眠	-12.1713
柰	-12.1713
皎	-12.1713
粳	-12.1722
錬	-12.1724
矞	-12.1785
曳	-12.1789
旰	-12.1792
犖	-12.1796
玲	-12.1796
牂	-12.1797
憇	-12.1799
杳	-12.1799
鱐	-12.18
廒	-12.18
蓼	-12.1801
湜	-12.1802
衘	-12.1804
壠	-12.1808
郕	-12.1811
澨	-12.1865
睹	-12.1881
溟	-12.1887
涌	-12.1891
軋	-12.1891
𤨏	-12.1893
桷	-12.1897
澮	-12.1898
㕑	-12.1899
璨	-12.1965
磯	-12.1965
浥	-12.1966
詵	-12.1971
褫	-12.1972
沆	-12.1972
蔭	-12.1973
茭	-12.1975
耜	-12.1979
槌	-12.198
俛	-12.198
溱	-12.1988
鐲	-12.199
瑱	-12.1991
騂	-12.1998
穉	-12.2059
圮	-12.2067
它	-12.2069
敉	-12.207
澎	-12.2076
塢	-12.208
薑	-12.2154
匐	-12.2157
鸚	-12.2157
榦	-12.2159
泯	-12.2161
隲	-12.2163
輳	-12.2163
椘	-12.217
貓	-12.217
袷	-12.2175
耉	-12.2237
竑	-12.2246
雛	-12.2247
楪	-12.2248
拽	-12.2249
驃	-12.2251
矮	-12.2253
驩	-12.2256
囷	-12.2257
孜	-12.2259
綉	-12.2264
萍	-12.2264
蕚	-12.2267
胯	-12.2271
恍	-12.2333
肫	-12.2336
曁	-12.2341
桴	-12.2346
笲	-12.2347
㝎	-12.235
劬	-12.2354
䄍	-12.2354
唘	-12.2354
隗	-12.2359
爕	-12.2359
妤	-12.2363
炷	-12.2364
饔	-12.2433
懾	-12.2436
崆	-12.2436
冺	-12.2439
讚	-12.2445
佺	-12.252
彷	-12.2529
吸	-12.2529
鵡	-12.253
芃	-12.2532
餞	-12.2534
㪷	-12.2537
蘩	-12.2538
餬	-12.2539
逍	-12.2539
糯	-12.2541
鞵	-12.2541
岫	-12.2544
愬	-12.2546
綳	-12.2546
煇	-12.2549
儐	-12.257
菊	-12.2621
氲	-12.2621
黌	-12.2622
鞓	-12.2623
飫	-12.2623
稳	-12.2624
幬	-12.2624
琇	-12.2628
􁑶	-12.2632
軷	-12.2633
撿	-12.2633
噫	-12.2635
黏	-12.2637
汊	-12.2641
阼	-12.2658
縿	-12.2715
曈	-12.2715
繄	-12.2722
賅	-12.2728
紜	-12.2729
貔	-12.2734
熏	-12.2734
絇	-12.2735
悝	-12.2741
髽	-12.2743
郿	-12.2744
喙	-12.2822
橐	-12.2823
玷	-12.2823
甦	-12.2823
猫	-12.2824
牾	-12.2824
阨	-12.2825
迯	-12.2826
箐	-12.2828
軿	-12.2831
酏	-12.2832
卬	-12.2833
箆	-12.2834
篾	-12.2856
你	-12.2912
翺	-12.2915
杪	-12.2921
綫	-12.2924
榴	-12.2925
秬	-12.2926
湼	-12.2927
廽	-12.2927
澍	-12.2927
訢	-12.2939
厎	-12.3012
昩	-12.3019
彿	-12.3019
倐	-12.3021
瓞	-12.3021
儂	-12.3023
杼	-12.3025
箠	-12.3025
壖	-12.3028
垢	-12.3029
忙	-12.3029
禴	-12.303
掦	-12.303
𤯝	-12.3031
滏	-12.3035
渦	-12.3036
鎰	-12.3045
硫	-12.3121
牷	-12.3126
扳	-12.3128
虬	-12.3131
楸	-12.3131
茗	-12.3133
愔	-12.3135
梳	-12.3138
澠	-12.3138
騏	-12.3139
泚	-12.3216
僦	-12.3227
縟	-12.3227
霉	-12.3227
呌	-12.3231
貊	-12.3234
汕	-12.3235
帟	-12.3237
窆	-12.3238
㽅	-12.3239
屇	-12.325
麪	-12.3312
滲	-12.3319
牴	-12.3327
怛	-12.3327
酥	-12.3328
軀	-12.3329
狃	-12.3331
﨑	-12.3332
藕	-12.3334
仵	-12.3336
逭	-12.3336
宬	-12.3338
踴	-12.3339
誹	-12.334
盩	-12.335
茸	-12.3426
瀑	-12.3428
譖	-12.3434
噬	-12.3434
戡	-12.3436
愴	-12.3439
鋸	-12.3444
鈚	-12.3514
渴	-12.3535
臥	-12.354
謾	-12.3541
翡	-12.3542
磺	-12.3543
峨	-12.3544
鬴	-12.3544
佈	-12.3545
榷	-12.3548
魅	-12.3553
扱	-12.3556
褶	-12.3587
遡	-12.3632
葩	-12.3639
噴	-12.3642
頺	-12.3642
炮	-12.3644
鋼	-12.3644
䟎	-12.3645
媿	-12.3646
甿	-12.3646
笵	-12.3647
筏	-12.3648
渰	-12.3652
窻	-12.3652
諍	-12.3653
胖	-12.3653
娱	-12.3654
諂	-12.3654
珽	-12.3655
殍	-12.3655
椶	-12.3658
菑	-12.3661
酇	-12.3668
搗	-12.3748
􁁊	-12.3749
諦	-12.3753
趋	-12.3754
盱	-12.3754
畎	-12.3754
貉	-12.3756
爟	-12.3756
酪	-12.3757
扃	-12.3758
惬	-12.3762
睛	-12.3763
秃	-12.3764
磴	-12.3765
埭	-12.3768
臕	-12.3775
璈	-12.3851
貍	-12.3855
侣	-12.386
麒	-12.3861
羹	-12.3864
憎	-12.3865
巹	-12.3866
㮚	-12.387
曬	-12.387
諶	-12.3872
晳	-12.3877
厔	-12.3884
竺	-12.3954
掞	-12.3963
閥	-12.3968
溘	-12.397
鍜	-12.3971
饟	-12.3971
嫗	-12.3972
愾	-12.3972
竦	-12.3974
堞	-12.3974
撝	-12.3974
捶	-12.3975
鉆	-12.3975
糈	-12.3975
睠	-12.3978
阪	-12.3978
澂	-12.3983
掯	-12.3983
堉	-12.3985
彧	-12.3986
槫	-12.401
􁢌	-12.4072
斾	-12.408
懶	-12.408
烙	-12.408
窵	-12.4082
濉	-12.4082
㟁	-12.4082
濘	-12.4087
秫	-12.4088
䕩	-12.409
唇	-12.4091
枋	-12.4095
伋	-12.4096
湫	-12.4097
伉	-12.4097
閾	-12.4101
塍	-12.4186
裡	-12.4188
猖	-12.4188
玕	-12.4189
胷	-12.4189
頊	-12.4193
獞	-12.4193
厩	-12.4193
孩	-12.4194
磽	-12.4195
猴	-12.4197
蕙	-12.4197
腋	-12.4197
翫	-12.4198
盍	-12.4199
昀	-12.42
崗	-12.4201
襃	-12.4205
孑	-12.4205
錐	-12.4205
伃	-12.4208
啖	-12.4211
罘	-12.4212
䆳	-12.4237
烘	-12.4298
俚	-12.4306
楔	-12.4309
醤	-12.431
撾	-12.4311
逖	-12.4312
冨	-12.4313
慣	-12.4313
麵	-12.4314
蜺	-12.4315
讃	-12.4315
糟	-12.4315
菓	-12.4317
賵	-12.4318
譎	-12.432
㩀	-12.432
夐	-12.4411
藜	-12.4413
汐	-12.4415
刊	-12.4419
蠁	-12.4419
妓	-12.4423
蹶	-12.4424
箧	-12.4425
蘧	-12.4428
磑	-12.4429
硤	-12.4433
嚌	-12.4435
㴻	-12.4448
汭	-12.4455
煬	-12.4536
靛	-12.4536
矗	-12.4538
蒔	-12.4539
悽	-12.454
孀	-12.454
傚	-12.4542
麈	-12.4543
鬲	-12.4545
薇	-12.4546
稭	-12.4547
狠	-12.4547
諛	-12.4549
浣	-12.455
褕	-12.4554
邽	-12.4559
偁	-12.4566
銕	-12.4571
幙	-12.4651
鏑	-12.4652
駛	-12.4653
韎	-12.4658
厓	-12.4659
鼈	-12.4659
蠎	-12.4662
釗	-12.4663
鞬	-12.4664
俠	-12.4667
讙	-12.4667
筸	-12.4669
㓕	-12.467
埴	-12.4671
聮	-12.4734
黛	-12.477
誚	-12.4774
趂	-12.4775
漓	-12.4775
妬	-12.4776
熖	-12.4779
柿	-12.4781
豺	-12.4782
珏	-12.4782
窈	-12.4782
酈	-12.4784
緫	-12.4784
栻	-12.4785
嫄	-12.4794
邯	-12.4798
棡	-12.4812
骲	-12.4863
娵	-12.4884
槱	-12.489
紈	-12.4898
唬	-12.49
詘	-12.49
棻	-12.4901
諠	-12.4902
虔	-12.4904
隼	-12.4905
晞	-12.4906
渣	-12.4906
无	-12.4907
噲	-12.4907
棖	-12.4911
暠	-12.4916
酆	-12.4917
澣	-12.4917
鑣	-12.4924
籀	-12.5004
醲	-12.5007
跂	-12.5012
兜	-12.5017
屉	-12.5018
艶	-12.5018
齧	-12.502
貤	-12.5021
莵	-12.5021
堕	-12.5022
𫀆	-12.5025
燼	-12.5026
縚	-12.5026
刖	-12.5032
郾	-12.5032
撘	-12.5035
攏	-12.5036
闟	-12.5044
睂	-12.5117
謊	-12.5131
櫜	-12.5133
腕	-12.5136
檩	-12.5138
璹	-12.5139
肸	-12.5143
䞇	-12.5144
鋌	-12.5145
鶡	-12.5146
靉	-12.5147
嶷	-12.5147
筌	-12.5148
刮	-12.5149
埂	-12.5149
牁	-12.5151
旴	-12.5157
鏹	-12.5158
姐	-12.5163
杰	-12.5252
凜	-12.526
芥	-12.5265
洳	-12.5266
种	-12.5268
闍	-12.5268
揠	-12.5269
涂	-12.5269
暐	-12.5269
遒	-12.527
趲	-12.5271
唆	-12.5271
䂓	-12.5272
惹	-12.5274
鴦	-12.5275
廞	-12.5275
埔	-12.5277
韍	-12.528
叡	-12.5283
緱	-12.5288
菩	-12.5387
戩	-12.5389
躪	-12.5389
濂	-12.5392
覓	-12.5393
樗	-12.5393
螽	-12.5393
苔	-12.5396
碌	-12.5396
嫉	-12.5397
帗	-12.5397
搃	-12.5402
䍧	-12.5402
恙	-12.5402
淅	-12.5405
狎	-12.5405
裼	-12.541
鈃	-12.5413
鄗	-12.5417
饅	-12.551
訝	-12.5512
襚	-12.5513
彀	-12.5517
槁	-12.5518
潑	-12.5518
甓	-12.5519
爍	-12.5519
駘	-12.5519
盼	-12.5521
怖	-12.5522
譔	-12.5524
酗	-12.5527
萱	-12.5527
掊	-12.5527
鰥	-12.5527
萹	-12.5531
宙	-12.5536
鯀	-12.5539
訏	-12.5539
䡖	-12.5542
搴	-12.5642
蘖	-12.5647
蔥	-12.5648
脗	-12.5651
衎	-12.5652
堙	-12.5652
紿	-12.5653
喏	-12.5655
窒	-12.5658
螣	-12.5658
蕎	-12.5658
䜿	-12.5658
奩	-12.5661
匵	-12.5662
睒	-12.5662
甯	-12.5669
殻	-12.5774
蝶	-12.578
揷	-12.578
暾	-12.5781
娯	-12.5784
剗	-12.5785
診	-12.5786
嗷	-12.579
肋	-12.579
儁	-12.579
賾	-12.5791
鏜	-12.5795
檝	-12.5796
傔	-12.5797
膟	-12.5799
瞎	-12.5799
鋋	-12.58
癃	-12.5801
膜	-12.5905
猩	-12.5906
㢲	-12.5907
璊	-12.5908
猊	-12.5909
吊	-12.5911
擦	-12.5912
鞦	-12.5914
緼	-12.5914
罨	-12.5915
皋	-12.5916
僵	-12.5917
淙	-12.5921
霾	-12.5924
豨	-12.5925
塏	-12.5926
耑	-12.5926
瀏	-12.5942
靶	-12.6045
璆	-12.6046
鄫	-12.6046
諉	-12.605
僨	-12.6051
鞉	-12.6053
埶	-12.6057
讋	-12.6057
箏	-12.6057
猿	-12.6058
蜼	-12.606
虺	-12.6061
怵	-12.6061
賖	-12.6063
礿	-12.6065
冏	-12.6069
鄠	-12.607
崞	-12.6073
暎	-12.6171
笈	-12.6178
轟	-12.6178
适	-12.6179
昃	-12.6182
抜	-12.6185
瘝	-12.6188
僾	-12.6188
坼	-12.6191
颶	-12.6191
詿	-12.6192
澈	-12.6192
蟾	-12.6193
媳	-12.6194
樑	-12.6194
柟	-12.6196
鸛	-12.6198
漈	-12.6201
釜	-12.6224
央	-12.6291
璀	-12.6308
秧	-12.6324
咒	-12.6325
鞔	-12.6325
捫	-12.6328
挪	-12.6329
麩	-12.6329
賸	-12.6331
暵	-12.6331
洹	-12.6331
畮	-12.6331
煠	-12.6333
芍	-12.6333
攪	-12.6333
畛	-12.6335
媧	-12.6343
洧	-12.6343
瀉	-12.6465
舡	-12.6466
槳	-12.6466
郛	-12.6469
憊	-12.6469
穩	-12.647
鑛	-12.6471
飱	-12.6474
僞	-12.6481
肢	-12.6482
壟	-12.6482
蹬	-12.6484
􁋎	-12.6488
綖	-12.6496
藿	-12.659
麞	-12.6605
匍	-12.6606
禠	-12.661
讜	-12.6612
礽	-12.6614
桁	-12.6615
戬	-12.6615
闉	-12.6615
擣	-12.6615
倨	-12.6616
啞	-12.6616
瓴	-12.662
偪	-12.6622
嶇	-12.6622
摸	-12.6625
濞	-12.6625
郟	-12.6626
汨	-12.6626
炤	-12.663
耤	-12.673
􁎄	-12.6733
凈	-12.6746
瀹	-12.6747
噪	-12.675
惴	-12.6754
蛤	-12.6754
醒	-12.6756
蔗	-12.6758
碁	-12.6759
艍	-12.676
瞬	-12.676
瓢	-12.6762
痘	-12.6763
醊	-12.6763
槊	-12.6764
澡	-12.6766
岢	-12.6768
瑭	-12.6769
狸	-12.6769
潄	-12.6769
褠	-12.6769
􁈹	-12.6769
渌	-12.6771
鼖	-12.6771
瑁	-12.678
釧	-12.6782
𦦨	-12.6786
鑚	-12.689
渺	-12.6894
焕	-12.6896
紃	-12.6897
逗	-12.6897
瞰	-12.6901
氈	-12.6908
秭	-12.6908
衅	-12.6908
捆	-12.6908
摠	-12.6909
聪	-12.6909
綈	-12.6909
鮫	-12.6911
糙	-12.6912
沓	-12.6914
闑	-12.6915
嵎	-12.6915
錙	-12.6915
淩	-12.6917
凹	-12.6918
瓪	-12.6951
珵	-12.7018
璵	-12.7044
轜	-12.7045
韉	-12.7046
裊	-12.7046
柬	-12.7047
洶	-12.7049
頋	-12.7051
珅	-12.7052
爱	-12.7052
鍔	-12.7054
荐	-12.7054
潾	-12.7055
嗎	-12.7056
瀰	-12.7057
稞	-12.7057
韙	-12.706
悰	-12.7061
櫬	-12.7067
㛰	-12.7067
炒	-12.7068
轓	-12.7074
䂍	-12.7086
撩	-12.7094
㢤	-12.7193
撑	-12.7193
慷	-12.7197
蔴	-12.7198
隈	-12.7201
敺	-12.7206
欃	-12.7207
牱	-12.7209
涎	-12.721
飴	-12.7212
艫	-12.7213
埓	-12.7213
嬖	-12.7216
軛	-12.7218
崙	-12.7218
灋	-12.7218
爓	-12.7219
儕	-12.722
肚	-12.722
鋜	-12.7222
貙	-12.7223
櫨	-12.7239
愠	-12.7349
掉	-12.7357
鐐	-12.7358
嘻	-12.7362
刳	-12.7362
犛	-12.7363
莠	-12.7364
頖	-12.7364
穜	-12.7365
臝	-12.7369
祹	-12.7373
棋	-12.7376
鉸	-12.7495
皤	-12.7497
鬆	-12.7504
柈	-12.7505
觝	-12.7507
彎	-12.7509
匯	-12.7509
艷	-12.751
浃	-12.7513
漬	-12.7516
敲	-12.7517
莩	-12.7518
鷙	-12.752
貰	-12.7522
袪	-12.7523
㙮	-12.7523
湄	-12.7523
鄼	-12.7524
𬒳	-12.7529
遅	-12.7533
梏	-12.7534
榱	-12.7537
畵	-12.7662
滉	-12.7664
獗	-12.7667
膂	-12.7667
櫻	-12.7667
昜	-12.767
戳	-12.7671
嫺	-12.7671
𤦺	-12.7672
呪	-12.7675
頲	-12.7675
臀	-12.7677
祛	-12.7677
縶	-12.7677
暁	-12.7678
榘	-12.7678
䜛	-12.7679
犠	-12.7684
脡	-12.7684
晒	-12.7685
苣	-12.769
巂	-12.7692
璩	-12.7699
褙	-12.7708
茁	-12.7812
瀟	-12.783
煞	-12.7831
默	-12.7833
楬	-12.7834
鈺	-12.7835
醑	-12.7835
垍	-12.7836
哆	-12.7836
洄	-12.784
璐	-12.7845
砫	-12.785
瑑	-12.7852
慾	-12.799
弆	-12.7991
欹	-12.7992
勗	-12.7994
諲	-12.7995
茄	-12.7995
糕	-12.7997
麯	-12.7998
埝	-12.8
颯	-12.8
賙	-12.8003
埀	-12.8004
罏	-12.8004
攫	-12.8006
刧	-12.8008
坰	-12.8009
湩	-12.8009
軨	-12.8012
断	-12.8012
坯	-12.8015
刌	-12.8016
熛	-12.8017
黈	-12.8018
徔	-12.8024
瀧	-12.8026
鄣	-12.8027
煃	-12.8031
繽	-12.814
擷	-12.8147
蘊	-12.8153
嗤	-12.816
埧	-12.8162
褊	-12.8163
懵	-12.8163
柢	-12.8165
鷂	-12.8165
篁	-12.8166
勰	-12.8166
絪	-12.8167
驁	-12.8169
𦕈	-12.8169
稹	-12.817
籮	-12.8171
劃	-12.8171
瘳	-12.8172
蒜	-12.8177
崛	-12.8177
怕	-12.8179
㐫	-12.818
邛	-12.8185
鰈	-12.8318
菉	-12.8321
萼	-12.8323
茒	-12.8328
㯶	-12.8328
媪	-12.8329
咥	-12.8329
渇	-12.8331
髣	-12.8331
髴	-12.8331
珊	-12.8332
竁	-12.8334
繶	-12.8335
搓	-12.8335
秪	-12.8335
脛	-12.8336
愕	-12.8337
蚌	-12.8337
迸	-12.8337
腵	-12.8337
喊	-12.8338
峝	-12.8338
棐	-12.8338
甜	-12.8341
鍱	-12.8342
鍇	-12.8343
綪	-12.8347
韇	-12.835
岌	-12.8351
曨	-12.849
綆	-12.8495
荻	-12.8498
蜿	-12.8499
擗	-12.8503
玻	-12.8505
閆	-12.8506
驄	-12.8508
燹	-12.8508
曡	-12.8508
澀	-12.8509
巘	-12.8509
枹	-12.8509
橛	-12.851
晾	-12.8512
麇	-12.8513
癉	-12.8514
餈	-12.8515
㝡	-12.8515
刲	-12.8516
蹋	-12.8517
碓	-12.8519
廚	-12.8523
旟	-12.8523
鐏	-12.8523
桎	-12.8532
瑠	-12.8532
緲	-12.867
睨	-12.8676
偓	-12.8679
脆	-12.8681
葑	-12.8682
叉	-12.8682
餧	-12.8683
㐲	-12.8684
稑	-12.8685
穽	-12.8686
窳	-12.869
幛	-12.869
劈	-12.869
找	-12.8691
窕	-12.8691
氾	-12.8692
芷	-12.8695
闖	-12.8695
戟	-12.8705
皖	-12.8707
塨	-12.8718
嶂	-12.8849
䥖	-12.8857
逅	-12.8858
么	-12.8858
紥	-12.8859
啄	-12.8861
葠	-12.8862
侏	-12.8864
皝	-12.8868
郄	-12.887
邐	-12.887
湔	-12.8871
鮪	-12.8872
澱	-12.8877
𧖟	-12.8881
緅	-12.8882
驊	-12.8882
􁈞	-12.8883
雘	-12.8887
徤	-12.9029
矚	-12.9034
勷	-12.9039
賕	-12.9043
帚	-12.9043
麄	-12.9044
羶	-12.9045
庋	-12.9046
莆	-12.9047
謟	-12.9052
獷	-12.9053
弘	-12.9054
孱	-12.9054
篡	-12.9059
卲	-12.906
橦	-12.9202
鶼	-12.9208
籃	-12.921
蕊	-12.9211
絙	-12.9215
偈	-12.9219
蜒	-12.922
扒	-12.9221
蝀	-12.9221
蘂	-12.9222
淏	-12.9223
銎	-12.9223
憬	-12.9224
笮	-12.9224
騖	-12.9225
缷	-12.9226
鍤	-12.9227
闒	-12.9228
眩	-12.923
酧	-12.9233
吠	-12.9234
墁	-12.9235
爚	-12.9235
饉	-12.9235
菆	-12.9236
箙	-12.9237
搨	-12.9238
㳂	-12.9238
篥	-12.9239
宁	-12.9242
擿	-12.9246
琺	-12.9387
翽	-12.9394
傜	-12.9397
尙	-12.94
熒	-12.9407
剜	-12.9408
遯	-12.9408
薤	-12.9411
檣	-12.9413
躅	-12.9418
柑	-12.9418
鼉	-12.9418
廆	-12.9419
甍	-12.9419
䒭	-12.9419
郗	-12.942
腑	-12.9421
徨	-12.9421
儈	-12.9422
恡	-12.9422
鯤	-12.9424
腿	-12.9428
鐍	-12.943
肱	-12.9431
宓	-12.9434
郇	-12.9434
閿	-12.9439
嘛	-12.9597
鷲	-12.9597
噉	-12.9597
苜	-12.96
峡	-12.9602
鍥	-12.9602
噎	-12.9603
倢	-12.9603
漉	-12.9604
棕	-12.9604
殚	-12.9606
矬	-12.9607
鄊	-12.9608
棓	-12.9608
蜑	-12.9609
痌	-12.961
罣	-12.9612
紒	-12.9613
翿	-12.9614
蔟	-12.9614
痍	-12.9615
厝	-12.9615
躐	-12.9616
紞	-12.9616
靁	-12.9618
朘	-12.9618
恧	-12.9621
䧺	-12.9622
篩	-12.9622
饈	-12.9625
驆	-12.9626
畚	-12.9626
臏	-12.9626
痾	-12.9641
􁟱	-12.9655
囀	-12.979
艌	-12.9792
繐	-12.9796
赶	-12.9796
嵯	-12.9796
瑊	-12.9801
髯	-12.9802
嗚	-12.9803
萑	-12.9803
葳	-12.9804
歧	-12.9804
粃	-12.9804
齬	-12.9805
戺	-12.9806
瘋	-12.9807
犄	-12.9808
町	-12.9809
湣	-12.9811
爇	-12.9812
萄	-12.9815
烖	-12.9817
韣	-12.9819
凴	-12.9821
跗	-12.9822
琊	-12.9825
䥴	-12.9827
禊	-12.9832
簸	-12.9835
鍍	-12.992
鐮	-12.9966
􁶌	-12.9988
幪	-12.999
𢷬	-12.9992
茆	-12.9995
芋	-12.9996
劂	-13.0001
綻	-13.0003
夣	-13.0005
霪	-13.0005
篠	-13.0006
褻	-13.0007
饘	-13.0007
幇	-13.0009
椵	-13.0009
珦	-13.0009
卨	-13.001
𬋩	-13.001
嶮	-13.0011
苕	-13.0013
嵬	-13.0015
㓗	-13.0016
畹	-13.0016
罳	-13.0017
悶	-13.0018
酅	-13.0022
罈	-13.0022
柞	-13.0025
菟	-13.0029
淯	-13.0029
灊	-13.0045
橚	-13.0048
槎	-13.0188
臡	-13.0192
吼	-13.0195
蕡	-13.0196
蹊	-13.0199
倂	-13.0201
謩	-13.0202
蕘	-13.0205
鷟	-13.0206
吧	-13.0206
蒨	-13.0209
鈇	-13.0211
銍	-13.0211
寀	-13.0212
蕞	-13.0213
靚	-13.0215
尔	-13.0216
芊	-13.0216
賨	-13.0219
泐	-13.0219
凊	-13.022
猓	-13.022
隮	-13.0221
跑	-13.0221
仭	-13.0222
􁁏	-13.0223
踣	-13.0224
椹	-13.0224
軹	-13.0226
麺	-13.0227
从	-13.0227
楼	-13.0229
裟	-13.0397
荃	-13.0402
滓	-13.0404
爆	-13.0404
筓	-13.0405
嚨	-13.041
剞	-13.0411
躧	-13.0413
雯	-13.0414
輜	-13.0415
縝	-13.0415
㵼	-13.0416
渟	-13.0417
釃	-13.0419
𥜗	-13.0419
蠅	-13.042
㠶	-13.042
饎	-13.042
牣	-13.0421
瀍	-13.0423
埤	-13.0423
甑	-13.0425
侄	-13.0425
綃	-13.0426
黟	-13.0426
駰	-13.0431
疈	-13.0433
鄚	-13.0438
騄	-13.0438
熄	-13.0441
鄄	-13.0448
榕	-13.0452
韁	-13.0621
矇	-13.0627
畬	-13.0629
迢	-13.063
轢	-13.0631
踢	-13.0631
㺯	-13.0631
俺	-13.0631
暝	-13.0632
腔	-13.0632
頷	-13.0633
𣺌	-13.0633
鴆	-13.0633
襁	-13.0634
洫	-13.0634
駙	-13.0634
臠	-13.0635
捄	-13.0636
衂	-13.0637
猞	-13.0638
烱	-13.0639
穵	-13.0639
恚	-13.0642
貅	-13.0643
狽	-13.0645
鑴	-13.0645
茌	-13.0646
謖	-13.0646
郫	-13.0651
胉	-13.0654
諟	-13.067
爝	-13.0678
縡	-13.0832
㯽	-13.0841
撼	-13.0842
醸	-13.0842
浞	-13.0844
楗	-13.0845
聃	-13.0847
帊	-13.0848
巋	-13.0848
絆	-13.0848
曖	-13.0848
覦	-13.0849
贜	-13.0849
樟	-13.085
鬪	-13.0851
硏	-13.0851
舸	-13.0852
悴	-13.0853
臟	-13.0854
訕	-13.0854
盻	-13.0855
檮	-13.0855
邨	-13.0856
纈	-13.0858
曕	-13.0863
稄	-13.0863
梃	-13.0864
柝	-13.0864
淛	-13.0865
鄔	-13.0865
洸	-13.0866
袀	-13.0868
雱	-13.0869
犦	-13.087
􁁜	-13.0872
枳	-13.0875
贇	-13.0875
袈	-13.1048
楛	-13.1053
攽	-13.106
頎	-13.1061
鐓	-13.1061
礫	-13.1065
棃	-13.1066
蘉	-13.1066
凰	-13.1066
蚪	-13.1068
揲	-13.1068
璸	-13.107
厖	-13.107
瘐	-13.1071
猻	-13.1071
顚	-13.1072
尠	-13.1077
楙	-13.1077
异	-13.1077
礎	-13.1078
蒯	-13.1078
玘	-13.1079
侲	-13.108
趁	-13.108
珞	-13.1081
艤	-13.1082
淝	-13.1084
輞	-13.1086
腎	-13.1086
璃	-13.109
鍈	-13.1091
磾	-13.1092
韝	-13.1094
摰	-13.1095
蔆	-13.1273
帡	-13.1282
瑰	-13.129
戽	-13.129
巗	-13.129
籞	-13.1292
逥	-13.1295
滾	-13.1296
罅	-13.1297
醃	-13.1298
箾	-13.13
悵	-13.13
鋹	-13.13
鋟	-13.13
蛾	-13.1301
歪	-13.1302
蛙	-13.1302
枌	-13.1304
綎	-13.1305
赧	-13.1307
价	-13.1307
灃	-13.1308
朏	-13.1308
眊	-13.1309
蠭	-13.131
虵	-13.131
祅	-13.1311
啣	-13.1311
􁑬	-13.1316
騊	-13.1317
韮	-13.1321
帉	-13.1329
迊	-13.1329
郜	-13.1333
墬	-13.1333
撱	-13.151
躱	-13.1514
峋	-13.152
畇	-13.1521
椰	-13.1522
鯢	-13.1522
鋗	-13.1524
睡	-13.1524
韐	-13.1526
駹	-13.1526
瓈	-13.1526
晊	-13.1527
錘	-13.1527
盭	-13.1528
份	-13.1528
泡	-13.1531
頫	-13.1531
泱	-13.1532
鎸	-13.1532
筲	-13.1533
刎	-13.1536
栲	-13.1538
邙	-13.1538
搔	-13.1539
柎	-13.154
涑	-13.1541
覡	-13.1542
摉	-13.1544
栔	-13.1545
沍	-13.1546
駵	-13.1547
􁐞	-13.1547
揉	-13.1548
􁀒	-13.1549
砧	-13.1553
嵊	-13.1553
熺	-13.1559
湞	-13.1562
鼒	-13.1662
椌	-13.1746
瀣	-13.1748
飈	-13.1749
喘	-13.1757
橢	-13.1758
鉏	-13.1759
趍	-13.1759
氆	-13.176
鞀	-13.1761
膴	-13.1761
剉	-13.1762
豌	-13.1762
頔	-13.1763
鏖	-13.1764
蹷	-13.1765
濳	-13.1766
徯	-13.1767
懃	-13.1767
凄	-13.1768
蹡	-13.1768
闤	-13.1769
犴	-13.1769
誾	-13.177
匈	-13.177
蹻	-13.177
慥	-13.1771
嶸	-13.1773
蠹	-13.1773
褖	-13.1773
纖	-13.1775
虀	-13.1775
鬃	-13.1775
臓	-13.1775
隃	-13.1776
耍	-13.1777
鄕	-13.1779
襜	-13.178
鄩	-13.1783
拄	-13.1789
騠	-13.1791
逌	-13.1982
邴	-13.2002
詄	-13.2003
賒	-13.2003
豻	-13.2005
睟	-13.2007
遨	-13.2009
徕	-13.2009
瀠	-13.201
錁	-13.2011
蝝	-13.2011
籕	-13.2012
疃	-13.2013
蚡	-13.2015
荍	-13.2015
硎	-13.2015
醞	-13.2015
膾	-13.2016
蓀	-13.2017
鏇	-13.202
礓	-13.2021
炸	-13.2024
骼	-13.2024
㩁	-13.2029
鉄	-13.203
駃	-13.2036
駼	-13.2037
鮐	-13.2238
醪	-13.2241
稌	-13.2252
挲	-13.2252
漙	-13.2253
臈	-13.2253
睥	-13.2254
謔	-13.2255
乣	-13.2256
羿	-13.2257
憝	-13.2257
綑	-13.2257
腶	-13.2257
鶩	-13.2258
𢡟	-13.2258
祘	-13.2259
臍	-13.226
偘	-13.2261
韀	-13.2262
籓	-13.2263
腆	-13.2263
疴	-13.2264
艇	-13.2265
畺	-13.2265
詬	-13.2266
涅	-13.2266
璚	-13.2267
茟	-13.2267
綁	-13.2267
黿	-13.2269
庳	-13.2269
麅	-13.2269
橈	-13.2272
鑕	-13.2272
胊	-13.2272
児	-13.2273
埜	-13.2274
咀	-13.2274
屜	-13.2282
笆	-13.2285
鞲	-13.2293
妝	-13.2305
仩	-13.2473
葯	-13.2483
簰	-13.2499
攖	-13.2503
鍛	-13.2506
縋	-13.2508
祴	-13.2508
裸	-13.2511
鹺	-13.2511
􁇧	-13.2515
凾	-13.2515
娭	-13.2515
㾗	-13.2515
罝	-13.2515
獐	-13.2517
穄	-13.2518
㷀	-13.2519
鍭	-13.252
畷	-13.2521
疚	-13.2522
狁	-13.2522
頹	-13.2522
鏢	-13.2523
闠	-13.2523
娃	-13.2524
蓰	-13.2525
抺	-13.2525
瑒	-13.2525
罟	-13.2526
閡	-13.2526
餚	-13.2526
桔	-13.2527
㲈	-13.2527
窗	-13.2527
漊	-13.2527
薺	-13.253
讁	-13.2534
旜	-13.2537
偼	-13.2551
銚	-13.2574
秄	-13.2755
纜	-13.2762
弰	-13.2763
夯	-13.2767
喤	-13.2768
儹	-13.2769
錚	-13.2771
穣	-13.2771
籈	-13.2773
叭	-13.2775
畊	-13.2775
􁫭	-13.2775
燄	-13.2777
嚼	-13.2778
亁	-13.2779
苹	-13.2779
灸	-13.2781
丫	-13.2781
卾	-13.2781
藳	-13.2784
鯁	-13.2784
丒	-13.2784
箒	-13.2785
揜	-13.2785
嘒	-13.2786
毀	-13.2786
緻	-13.2786
咬	-13.2787
惺	-13.2787
陿	-13.2788
鮒	-13.2788
筤	-13.2789
彍	-13.279
橑	-13.2791
寬	-13.2792
邡	-13.2793
赳	-13.2793
襌	-13.2793
璥	-13.2794
𡨕	-13.2794
垕	-13.2796
鏊	-13.2798
撦	-13.2798
褭	-13.2802
掏	-13.2806
䙆	-13.2807
茜	-13.3037
蘢	-13.3039
豔	-13.3041
燉	-13.3042
騤	-13.3042
譛	-13.3043
龢	-13.3046
綝	-13.3048
禬	-13.3049
魔	-13.305
喈	-13.3052
鴿	-13.3056
攛	-13.3056
䔍	-13.3057
癡	-13.3057
裀	-13.3059
鉷	-13.3059
昵	-13.3059
仝	-13.306
献	-13.3062
怱	-13.3062
桄	-13.3063
葷	-13.3063
毦	-13.3064
憙	-13.3066
犆	-13.3069
灂	-13.3072
釳	-13.3072
侖	-13.3073
鵕	-13.3075
蕢	-13.308
􁕵	-13.3287
餠	-13.3297
倌	-13.3316
窿	-13.332
韺	-13.332
隍	-13.3321
慇	-13.3321
湾	-13.3321
僂	-13.3322
趯	-13.3322
鼚	-13.3322
縐	-13.3323
靆	-13.3323
詧	-13.3324
漋	-13.3324
礲	-13.3324
礴	-13.3324
漚	-13.3325
瓔	-13.3326
漶	-13.3326
侁	-13.3327
隤	-13.3328
枲	-13.3329
篦	-13.333
术	-13.333
呐	-13.333
紟	-13.333
玄	-13.3331
挏	-13.3331
蟊	-13.3332
恁	-13.3332
恫	-13.3332
薔	-13.3333
逶	-13.3334
胔	-13.3334
鷗	-13.3338
矱	-13.3339
栝	-13.3344
㳫	-13.3344
杷	-13.3344
嘠	-13.3345
嘔	-13.3345
鐔	-13.3346
鈆	-13.3347
伾	-13.3347
璪	-13.3348
鰓	-13.335
酃	-13.3354
晫	-13.3355
炅	-13.3361
疉	-13.358
澑	-13.3583
陴	-13.3591
㪺	-13.3604
屧	-13.3605
嘘	-13.3606
鱉	-13.3607
龡	-13.3608
稂	-13.3608
徊	-13.3608
噠	-13.3609
蠕	-13.3609
攣	-13.3611
澐	-13.3612
鄘	-13.3613
廑	-13.3614
棼	-13.3614
螻	-13.3616
驀	-13.3616
繾	-13.3618
窣	-13.3618
晢	-13.3619
喆	-13.362
嘽	-13.362
泇	-13.362
翀	-13.3621
霫	-13.3621
憒	-13.3623
晻	-13.3623
咮	-13.3623
􁰽	-13.3624
褓	-13.3624
駸	-13.3626
攴	-13.3627
鵒	-13.3628
㓙	-13.363
魌	-13.3631
鋝	-13.3635
䴊	-13.3638
溆	-13.3638
俁	-13.3642
桱	-13.3668
噩	-13.389
簜	-13.3892
羾	-13.3894
蟹	-13.3895
㓲	-13.3897
澥	-13.3899
卣	-13.3899
饜	-13.3902
鞚	-13.3903
萁	-13.3906
浯	-13.391
槗	-13.3912
璲	-13.3912
坌	-13.3913
㬰	-13.3913
斆	-13.3914
饕	-13.3915
罙	-13.3915
殛	-13.3916
蒺	-13.3916
澔	-13.3916
㴠	-13.3917
輊	-13.3917
礱	-13.3918
杅	-13.3919
鸜	-13.3919
䑃	-13.392
狙	-13.3921
緍	-13.3921
綯	-13.3922
淥	-13.3923
檠	-13.3923
脽	-13.3924
䑩	-13.3925
魴	-13.3925
繻	-13.3926
輀	-13.3933
邲	-13.3934
鑞	-13.3934
䩺	-13.3941
樅	-13.3948
鰕	-13.4176
伬	-13.4183
唄	-13.4186
毡	-13.4188
醅	-13.4193
蠃	-13.4193
􁑣	-13.4198
韞	-13.4198
?	-13.4201
嗢	-13.4201
聾	-13.4202
蓊	-13.4202
搊	-13.4202
磊	-13.4203
闚	-13.4204
枏	-13.4204
敂	-13.4205
廛	-13.4205
嬗	-13.4207
淜	-13.4208
讟	-13.4208
馹	-13.4208
􁇠	-13.4209
趫	-13.4209
歷	-13.4209
玭	-13.421
頍	-13.421
吃	-13.421
篙	-13.4211
佻	-13.4213
朓	-13.4213
鷖	-13.4214
螳	-13.4214
蒂	-13.4214
㲲	-13.4214
菖	-13.4214
殲	-13.4214
蹀	-13.4215
嘓	-13.4217
蠙	-13.4217
嶤	-13.4218
玖	-13.4219
冽	-13.422
屐	-13.4221
肜	-13.4221
釴	-13.4222
邰	-13.4224
柣	-13.4225
舳	-13.4225
娉	-13.4225
輼	-13.4227
傉	-13.4229
袝	-13.4229
崤	-13.423
褰	-13.4234
襻	-13.4241
緄	-13.4242
䄖	-13.4242
仜	-13.4471
稊	-13.45
玫	-13.4506
銛	-13.4506
槧	-13.4508
烺	-13.4509
硪	-13.4509
弣	-13.451
琱	-13.4511
磅	-13.4514
嶙	-13.4514
髫	-13.4515
扮	-13.4515
釦	-13.4516
鵾	-13.4516
鬟	-13.4516
眸	-13.4516
洑	-13.4516
愒	-13.4517
珎	-13.4517
轆	-13.4518
晤	-13.4518
胼	-13.4519
胝	-13.452
馗	-13.4521
昫	-13.4521
僥	-13.4522
䥥	-13.4522
佖	-13.4523
筞	-13.4523
窶	-13.4525
湇	-13.4526
昞	-13.4526
嘱	-13.4527
叵	-13.4527
㡳	-13.4528
戔	-13.4529
摃	-13.453
旉	-13.453
宷	-13.453
獪	-13.4531
掎	-13.4531
媺	-13.4531
欬	-13.4533
羖	-13.4535
㩦	-13.4537
偫	-13.4537
蒍	-13.4538
袛	-13.4538
湑	-13.4539
涘	-13.4541
阬	-13.4543
韃	-13.4543
荄	-13.4544
栩	-13.4545
􁏔	-13.4548
坵	-13.4548
剕	-13.4549
艙	-13.4827
樾	-13.4831
浿	-13.4833
玳	-13.4835
蚣	-13.4837
菌	-13.4838
蓽	-13.4839
旡	-13.4839
勍	-13.4839
瞀	-13.484
恠	-13.484
皡	-13.4843
鎚	-13.4843
勩	-13.4845
􁐟	-13.4845
菅	-13.4846
倓	-13.4846
焫	-13.4847
衺	-13.4848
橙	-13.4848
棩	-13.4849
酖	-13.4849
綮	-13.485
諝	-13.485
胏	-13.4851
万	-13.4852
􁥟	-13.4852
媟	-13.4852
坨	-13.4853
鬂	-13.4853
揩	-13.4854
伷	-13.4856
慊	-13.4856
嫚	-13.4858
鷰	-13.4859
㬋	-13.4859
崐	-13.4859
秖	-13.4859
􁊌	-13.486
饍	-13.4862
杙	-13.4862
沇	-13.4863
橅	-13.4864
撁	-13.4866
􁐤	-13.4867
鄡	-13.4869
燝	-13.4871
蔕	-13.4872
㫤	-13.4874
嶢	-13.4877
玦	-13.4887
䩥	-13.4888
掍	-13.4905
墡	-13.4912
亿	-13.5127
錽	-13.5146
儗	-13.5164
瑨	-13.5165
煕	-13.5167
渗	-13.5168
蜮	-13.5169
軄	-13.5173
仡	-13.5173
跽	-13.5174
忖	-13.5175
症	-13.5175
啿	-13.5175
噦	-13.5176
袐	-13.5176
开	-13.5177
瑔	-13.5177
罼	-13.518
蒧	-13.5181
卅	-13.5182
潺	-13.5182
廙	-13.5183
筰	-13.5183
晹	-13.5184
絏	-13.5184
甽	-13.5184
慴	-13.5184
渫	-13.5184
捃	-13.5185
褲	-13.5185
弃	-13.5185
䩞	-13.5186
醵	-13.5188
濙	-13.5189
簣	-13.5191
繂	-13.5192
芑	-13.5192
蓺	-13.5192
瑺	-13.5193
靷	-13.5195
魘	-13.5196
譓	-13.5196
糁	-13.5197
祟	-13.5199
鞂	-13.5199
纏	-13.5202
淂	-13.5206
帀	-13.5212
熿	-13.523
玢	-13.5506
娟	-13.5515
㶑	-13.5515
嗶	-13.552
蕋	-13.552
頏	-13.552
砰	-13.5521
颸	-13.5521
坟	-13.5522
摐	-13.5522
詖	-13.5523
飶	-13.5523
怎	-13.5523
鸂	-13.5523
鶒	-13.5524
畞	-13.5524
贔	-13.5525
𥪡	-13.5525
蓉	-13.5525
鍬	-13.5525
鼜	-13.5526
菰	-13.5527
芰	-13.5527
荏	-13.5528
頬	-13.5529
饁	-13.553
嚚	-13.553
扢	-13.553
蹴	-13.5531
閧	-13.5531
剴	-13.5532
麛	-13.5532
洼	-13.5532
櫂	-13.5532
𣣔	-13.5533
䢴	-13.5534
娠	-13.5535
菏	-13.5535
脞	-13.5536
耞	-13.5537
匄	-13.5537
㢠	-13.5537
毉	-13.5538
綟	-13.5538
􁐉	-13.5539
懣	-13.5539
禝	-13.5542
嶰	-13.5543
􁇋	-13.5548
􁐜	-13.5552
楩	-13.5562
垸	-13.5567
梠	-13.5567
氳	-13.5835
箑	-13.5858
􁕧	-13.5861
瀬	-13.5862
熳	-13.5865
膛	-13.5871
摳	-13.5872
梐	-13.5874
蹔	-13.5878
詫	-13.588
蘚	-13.5881
迋	-13.5881
撡	-13.5881
疽	-13.5881
䘖	-13.5882
皜	-13.5883
姥	-13.5883
羚	-13.5883
灶	-13.5884
鴞	-13.5885
輭	-13.5887
隩	-13.5888
矰	-13.5888
捺	-13.5888
劼	-13.5888
鮓	-13.5889
羝	-13.5889
駔	-13.589
栰	-13.5891
蒭	-13.5891
捻	-13.5891
茇	-13.5892
瓛	-13.5893
拌	-13.5894
眭	-13.5898
芼	-13.5899
痼	-13.5899
枸	-13.59
抬	-13.5901
轃	-13.5903
臑	-13.5905
愎	-13.5905
壚	-13.5905
蓚	-13.5907
𥘉	-13.5909
虖	-13.5909
樛	-13.5922
嚙	-13.6235
膞	-13.624
丱	-13.624
褡	-13.6243
蔔	-13.6243
懴	-13.6244
蚊	-13.6244
舗	-13.6245
凭	-13.6246
臉	-13.6247
沕	-13.6247
嶴	-13.6247
僇	-13.6247
巉	-13.6247
蓁	-13.6249
漯	-13.6249
撐	-13.625
猱	-13.6251
灔	-13.6252
耰	-13.6252
鮎	-13.6255
甡	-13.6255
澌	-13.6255
撚	-13.6255
哄	-13.6256
叧	-13.6256
湎	-13.6257
鐺	-13.6257
裱	-13.6257
鏨	-13.6257
騩	-13.6258
瓮	-13.6258
獫	-13.6263
丗	-13.6264
駉	-13.6265
莬	-13.6266
毐	-13.6266
㪍	-13.6266
糒	-13.6267
綌	-13.6267
皃	-13.6267
拲	-13.6267
瞍	-13.6268
𥚑	-13.6268
莋	-13.6268
熠	-13.6268
檉	-13.6268
肻	-13.627
磋	-13.627
枇	-13.6271
胾	-13.6272
幠	-13.6272
􁔪	-13.6274
偲	-13.6276
夬	-13.6278
渳	-13.6282
燇	-13.6291
栓	-13.6301
槿	-13.6303
划	-13.6612
膁	-13.6614
蘑	-13.6617
嬌	-13.662
蝌	-13.6622
徉	-13.6625
餱	-13.6627
禨	-13.6628
搦	-13.6629
􁂗	-13.6629
惄	-13.6629
鄮	-13.6632
挍	-13.6632
鏌	-13.6633
轘	-13.6633
苓	-13.6634
冔	-13.6635
嘲	-13.6635
骰	-13.6636
呻	-13.6636
浡	-13.6636
齦	-13.6637
黲	-13.6637
焬	-13.6637
顱	-13.6637
窯	-13.6637
婼	-13.6639
媮	-13.6639
煨	-13.6641
爬	-13.6642
蕨	-13.6643
廌	-13.6643
蟀	-13.6645
椑	-13.6645
糅	-13.6646
齪	-13.6646
嬙	-13.6647
璂	-13.6647
鼛	-13.6647
䉡	-13.6647
豇	-13.6647
鐄	-13.6648
倜	-13.6648
虸	-13.6648
􁆭	-13.6649
廄	-13.665
凷	-13.6651
輂	-13.6652
鑌	-13.6653
磻	-13.6653
鰾	-13.6653
硇	-13.6654
煓	-13.6657
幞	-13.6667
虫	-13.6671
􁇥	-13.6673
鼷	-13.6678
檟	-13.6694
㳙	-13.7011
汸	-13.7015
鶱	-13.7015
砮	-13.7019
怏	-13.702
􁲬	-13.7022
秅	-13.7026
俻	-13.7028
餳	-13.7028
麕	-13.7029
㲄	-13.7029
喟	-13.7029
柁	-13.7029
鸑	-13.7031
瑮	-13.7031
瞥	-13.7032
哽	-13.7033
肹	-13.7033
芭	-13.7033
怦	-13.7035
櫽	-13.7035
岵	-13.7035
荗	-13.7036
籛	-13.7037
峘	-13.7037
閈	-13.7037
雊	-13.7037
筥	-13.7039
搪	-13.704
嵒	-13.704
焙	-13.704
瞠	-13.7042
掀	-13.7043
輶	-13.7044
霿	-13.7044
邶	-13.7044
咳	-13.7046
窋	-13.7048
泲	-13.7048
晙	-13.7048
沌	-13.7049
妞	-13.705
㿽	-13.7051
𣪚	-13.7051
痩	-13.7052
魑	-13.7053
葸	-13.7055
鄃	-13.7055
脰	-13.7056
舩	-13.7061
犇	-13.7063
嶍	-13.7064
郪	-13.7064
陥	-13.7065
燻	-13.7081
禙	-13.7095
䥷	-13.7425
荳	-13.7429
􁕗	-13.7431
衒	-13.7435
萋	-13.7439
濆	-13.744
壷	-13.7441
笻	-13.7443
堇	-13.7443
墪	-13.7443
咈	-13.7444
檿	-13.7445
枬	-13.7445
琶	-13.7448
喋	-13.7448
瞳	-13.7448
刅	-13.745
蹠	-13.745
䰟	-13.745
狻	-13.745
蜉	-13.7451
簞	-13.7452
皦	-13.7452
掬	-13.7453
剙	-13.7453
鞻	-13.7454
飡	-13.7454
䫜	-13.7454
𤇺	-13.7455
狴	-13.7455
紉	-13.7455
獍	-13.7456
琠	-13.7457
摽	-13.7457
蜎	-13.7457
骫	-13.7458
輌	-13.7459
䛕	-13.7462
梔	-13.7463
䲭	-13.7463
􁁸	-13.7464
跬	-13.7465
窔	-13.7465
宧	-13.7466
幗	-13.7466
毼	-13.7468
靬	-13.7468
腢	-13.7469
襢	-13.7469
鎡	-13.747
欎	-13.7471
脤	-13.7472
滻	-13.7476
頟	-13.7476
浛	-13.7483
幐	-13.7483
胳	-13.7483
塈	-13.7485
楧	-13.7527
皈	-13.7838
侶	-13.7848
䓻	-13.7856
謭	-13.7862
笇	-13.7867
惱	-13.7867
魫	-13.7869
枑	-13.7877
涣	-13.7881
斮	-13.7883
攩	-13.7885
栨	-13.7885
頠	-13.7886
呦	-13.7887
蹖	-13.7887
褎	-13.7887
螂	-13.7888
恆	-13.789
戻	-13.789
觱	-13.789
蠆	-13.789
擱	-13.789
縲	-13.789
䌓	-13.7891
驌	-13.7891
暌	-13.7892
珈	-13.7894
㢮	-13.7894
颷	-13.7894
倥	-13.7895
諼	-13.7895
嵓	-13.7896
趄	-13.7897
殣	-13.7897
潏	-13.7898
嘎	-13.7899
絻	-13.79
跛	-13.7902
崢	-13.7902
憔	-13.7903
碇	-13.7903
璮	-13.7905
沚	-13.7906
傀	-13.7907
刓	-13.7908
姞	-13.791
詗	-13.791
䥫	-13.7912
饊	-13.7915
𣸪	-13.7916
泫	-13.7918
鰣	-13.7918
鱣	-13.792
悊	-13.7921
鉁	-13.7928
楎	-13.7934
郳	-13.7938
鑷	-13.7949
烷	-13.7965
鄱	-13.83
􁅰	-13.831
骹	-13.8313
庣	-13.8319
抝	-13.8326
玥	-13.8329
翾	-13.833
濺	-13.8332
霦	-13.8332
総	-13.8334
搒	-13.8336
盲	-13.8336
慵	-13.8337
轤	-13.8338
觕	-13.8338
愓	-13.8339
鈵	-13.8339
䥕	-13.8339
軔	-13.8339
㗖	-13.834
敭	-13.834
翃	-13.834
訌	-13.8342
蕖	-13.8343
紲	-13.8343
鏟	-13.8343
継	-13.8344
桉	-13.8344
蟆	-13.8344
蓏	-13.8345
吭	-13.8346
穯	-13.8346
鶖	-13.8347
鸇	-13.8347
柸	-13.8348
恇	-13.8348
籧	-13.8348
鷁	-13.8349
螢	-13.835
阯	-13.835
􁐍	-13.835
薳	-13.8351
萎	-13.8352
蚓	-13.8353
堝	-13.8355
窀	-13.8355
焱	-13.8356
􁀁	-13.8357
韘	-13.8357
藂	-13.8357
癰	-13.8357
頵	-13.8358
螫	-13.8359
屣	-13.836
鋈	-13.836
杕	-13.8363
馱	-13.8363
挋	-13.8364
麃	-13.8364
腫	-13.8366
鬌	-13.8368
檇	-13.8369
膢	-13.8371
𣅿	-13.8378
煴	-13.8386
埈	-13.8397
鈏	-13.8406
湳	-13.8409
櫍	-13.842
噍	-13.8789
吮	-13.8791
絣	-13.8792
􁱸	-13.8792
蚳	-13.8794
菇	-13.8799
磡	-13.8803
䑸	-13.8804
匆	-13.8804
栴	-13.8805
慼	-13.8806
徜	-13.8807
蹵	-13.881
鬨	-13.8811
慍	-13.8811
柙	-13.8812
靺	-13.8813
哂	-13.8813
搘	-13.8814
旼	-13.8814
鈀	-13.8814
肪	-13.8814
堋	-13.8815
廋	-13.8815
樿	-13.8816
冣	-13.8816
羢	-13.8816
贋	-13.8816
醐	-13.8816
絍	-13.8817
瞑	-13.8817
芘	-13.8817
担	-13.8818
槪	-13.8819
奘	-13.8819
龐	-13.882
蕝	-13.882
悸	-13.8821
洚	-13.8822
偬	-13.8822
爥	-13.8822
鄹	-13.8822
􁧝	-13.8823
垡	-13.8824
睪	-13.8824
瘟	-13.8824
遝	-13.8824
皚	-13.8825
邅	-13.8825
肓	-13.8827
佘	-13.8828
秠	-13.8828
瞼	-13.8828
鉟	-13.8829
䙫	-13.8829
嘶	-13.883
鑢	-13.883
廰	-13.883
穸	-13.8831
嬛	-13.8832
觽	-13.8833
唳	-13.8833
梴	-13.8833
疣	-13.8834
咤	-13.8835
蘅	-13.8835
蝉	-13.8836
縓	-13.8836
飰	-13.8837
彠	-13.8838
鵪	-13.8838
鸝	-13.8838
盬	-13.8839
燖	-13.8839
􁋑	-13.8842
禭	-13.8847
劎	-13.8847
閷	-13.8853
堧	-13.8853
墱	-13.8854
嬸	-13.8866
枅	-13.8867
癭	-13.8868
捋	-13.9292
䳒	-13.9292
鄀	-13.9293
􁱑	-13.93
蠖	-13.9303
銙	-13.9304
敶	-13.9305
醳	-13.9306
瘍	-13.9308
愀	-13.9308
屭	-13.9308
竚	-13.9309
嗔	-13.9309
皴	-13.9309
􁕑	-13.931
鷇	-13.931
琤	-13.9311
奧	-13.9311
欑	-13.9312
麂	-13.9313
苒	-13.9314
惸	-13.9314
蚍	-13.9314
縕	-13.9314
箍	-13.9315
戅	-13.9316
惋	-13.9316
捎	-13.9317
怍	-13.9317
菀	-13.9317
冤	-13.9317
凸	-13.9318
撣	-13.9319
蚕	-13.9319
踝	-13.932
抔	-13.932
忸	-13.932
褧	-13.9321
柚	-13.9321
圑	-13.9322
緤	-13.9322
营	-13.9322
䣃	-13.9322
𪠘	-13.9323
餗	-13.9323
醻	-13.9325
淬	-13.9327
韔	-13.9327
􁌫	-13.9327
钁	-13.9328
􁆖	-13.9328
騧	-13.9332
曏	-13.9332
慱	-13.9332
娀	-13.9333
迆	-13.9333
簀	-13.9334
鬘	-13.9335
幜	-13.9338
栒	-13.9338
嶓	-13.9338
欷	-13.934
瘵	-13.9341
橰	-13.9342
磲	-13.9342
硨	-13.9342
旍	-13.9343
虙	-13.9344
灞	-13.9345
懟	-13.9345
籸	-13.9348
溈	-13.9348
抨	-13.935
駣	-13.935
嬾	-13.9351
旞	-13.9352
袓	-13.9367
楝	-13.9375
漴	-13.9376
􁌆	-13.9802
跼	-13.9818
􁕝	-13.9821
鯷	-13.9821
􁶇	-13.9821
鳧	-13.9825
霙	-13.9826
頳	-13.9829
沫	-13.9831
粕	-13.9832
泅	-13.9833
霰	-13.9835
逷	-13.9835
稈	-13.9835
靦	-13.9837
蠏	-13.9837
墐	-13.9839
窝	-13.984
箝	-13.984
霅	-13.984
繯	-13.9842
廈	-13.9842
窴	-13.9844
圅	-13.9844
确	-13.9845
縯	-13.9846
漑	-13.9846
岧	-13.9846
𤏡	-13.9847
泖	-13.9847
鍧	-13.9847
竂	-13.9848
鏻	-13.9848
嵸	-13.9848
綅	-13.9848
砭	-13.985
嶻	-13.985
憺	-13.9851
暍	-13.9851
啗	-13.9852
貮	-13.9852
蜷	-13.9853
芙	-13.9853
諗	-13.9854
瑢	-13.9855
棷	-13.9855
絝	-13.9855
䴥	-13.9855
鵫	-13.9857
䌫	-13.9857
彄	-13.9857
躚	-13.9858
硐	-13.9859
疹	-13.9859
穪	-13.9859
袄	-13.986
貭	-13.986
榑	-13.9861
玗	-13.9861
點	-13.9862
俑	-13.9863
蛀	-13.9863
澉	-13.9865
爌	-13.9866
秈	-13.9866
媽	-13.9867
嵋	-13.9869
珤	-13.9869
腄	-13.987
淓	-13.9873
紖	-13.9873
囏	-13.9878
觿	-13.988
罃	-13.9885
堄	-13.9886
沬	-13.9886
堈	-13.9909
鐇	-13.991
堣	-13.9932
㸅	-13.995
姸	-14.0368
勳	-14.0373
䃮	-14.0379
禑	-14.0381
鳷	-14.0381
蹐	-14.0382
带	-14.0384
眄	-14.0384
蠯	-14.0385
擂	-14.0387
籜	-14.0388
膓	-14.0388
噢	-14.0389
韂	-14.039
矻	-14.039
崒	-14.0391
椴	-14.0392
瑵	-14.0393
蛉	-14.0393
崈	-14.0394
奶	-14.0396
䂎	-14.0396
謇	-14.0396
鄾	-14.0398
朅	-14.0398
煊	-14.0399
帢	-14.0399
揵	-14.0399
餔	-14.0399
鉝	-14.0399
嘑	-14.0399
迕	-14.04
櫈	-14.04
溽	-14.04
猋	-14.0401
溲	-14.0401
婭	-14.0402
毌	-14.0403
誖	-14.0403
箬	-14.0403
鞸	-14.0404
錕	-14.0404
篓	-14.0404
寞	-14.0405
儇	-14.0405
􁎾	-14.0406
罌	-14.0407
躊	-14.0407
虒	-14.0409
惨	-14.0409
杝	-14.041
𥙷	-14.0411
髳	-14.0412
窬	-14.0412
撟	-14.0413
唃	-14.0413
􁚠	-14.0414
窅	-14.0414
辠	-14.0414
湃	-14.0414
崘	-14.0415
捏	-14.0416
洭	-14.0417
彴	-14.0418
呀	-14.0418
幎	-14.0421
歃	-14.0422
㠄	-14.0423
橄	-14.0424
碻	-14.0424
磝	-14.0425
睫	-14.0426
脀	-14.0427
㭼	-14.0428
侠	-14.0429
疢	-14.0432
鄲	-14.0433
厞	-14.0436
舀	-14.0465
錝	-14.0472
栟	-14.0473
㰂	-14.0475
浤	-14.0476
燆	-14.0481
熇	-14.0482
熑	-14.0488
洌	-14.0492
㭿	-14.0492
䰛	-14.0959
墢	-14.0966
揪	-14.0974
扭	-14.0975
愊	-14.0976
栳	-14.0977
艟	-14.0977
芉	-14.0977
煚	-14.0978
轔	-14.0979
韗	-14.098
𥚹	-14.0982
嶪	-14.0982
斕	-14.0983
鼃	-14.0985
鷓	-14.0986
媾	-14.0987
麰	-14.0987
緶	-14.0987
閗	-14.0987
蒱	-14.0988
衖	-14.0988
蓑	-14.0988
硜	-14.0989
韲	-14.099
紤	-14.099
罾	-14.099
䘵	-14.0991
拶	-14.0991
虯	-14.0991
耏	-14.0992
贐	-14.0993
榨	-14.0993
􁀤	-14.0993
椸	-14.0994
嚬	-14.0994
綣	-14.0994
蹉	-14.0994
衲	-14.0995
蹰	-14.0995
瘸	-14.0996
儛	-14.0996
尫	-14.0996
眈	-14.0997
敡	-14.0997
鞢	-14.0997
甖	-14.0997
穠	-14.0998
絿	-14.0998
牸	-14.0999
蚺	-14.0999
棁	-14.0999
瘧	-14.1
煢	-14.1
魋	-14.1
冑	-14.1
暱	-14.1001
慳	-14.1001
㮰	-14.1002
褍	-14.1002
曮	-14.1002
躓	-14.1003
桚	-14.1003
頮	-14.1003
暕	-14.1004
瀨	-14.1004
洿	-14.1004
㶚	-14.1004
鵜	-14.1005
睽	-14.1005
崱	-14.1005
弢	-14.1006
戣	-14.1006
軏	-14.1006
凳	-14.1007
歔	-14.1007
璅	-14.1008
泆	-14.1008
膩	-14.1008
疥	-14.1009
阸	-14.101
睚	-14.1011
嗛	-14.1013
嘖	-14.1015
聒	-14.1016
趵	-14.1016
旿	-14.1019
鏵	-14.1019
椇	-14.102
樉	-14.1023
蠺	-14.1027
鐻	-14.1039
橞	-14.1044
塙	-14.1058
犵	-14.1068
埨	-14.1075
鄅	-14.1084
􁇶	-14.158
茴	-14.158
􁂺	-14.1582
磕	-14.1583
灧	-14.1592
湲	-14.1593
屩	-14.1594
􁕡	-14.1594
儡	-14.1595
掔	-14.1597
壍	-14.1597
棽	-14.1598
㵎	-14.1599
癩	-14.16
箛	-14.1602
簉	-14.1602
訇	-14.1603
琫	-14.1603
渢	-14.1604
㫋	-14.1604
嶔	-14.1605
弈	-14.1605
鞥	-14.1606
愞	-14.1606
㴭	-14.1607
珓	-14.1607
簳	-14.1608
惚	-14.1608
礁	-14.1608
蝸	-14.1608
􁂰	-14.1608
謜	-14.1608
嶒	-14.1609
阹	-14.1609
鄽	-14.1609
窽	-14.161
駪	-14.161
芄	-14.1611
拚	-14.1611
淠	-14.1611
丢	-14.1612
擫	-14.1612
瞶	-14.1612
獒	-14.1612
觖	-14.1613
邘	-14.1613
􁆡	-14.1614
薁	-14.1615
躇	-14.1616
丰	-14.1616
憨	-14.1616
歘	-14.1617
琉	-14.1617
惮	-14.1617
祍	-14.1617
嗾	-14.1618
麐	-14.1619
偝	-14.1619
叫	-14.162
棬	-14.162
餵	-14.162
屺	-14.162
鈁	-14.1621
㲼	-14.1621
䟆	-14.1621
麹	-14.1621
唅	-14.1621
髄	-14.1622
蘤	-14.1622
飇	-14.1623
袜	-14.1623
髭	-14.1623
凂	-14.1623
𣆀	-14.1624
眦	-14.1625
􁃝	-14.1625
闞	-14.1626
􁰹	-14.1627
剄	-14.1627
勔	-14.1627
輇	-14.1627
鷃	-14.1628
髢	-14.1628
鋊	-14.1629
舃	-14.1629
鳪	-14.1629
呷	-14.163
㮇	-14.163
餮	-14.163
鷀	-14.1631
􁣸	-14.1631
儤	-14.1631
騼	-14.1633
讖	-14.1633
䮷	-14.1634
歹	-14.1634
悄	-14.1636
鑅	-14.1636
􁆵	-14.1637
緈	-14.1638
珝	-14.1638
喑	-14.164
嵕	-14.1642
塽	-14.1644
蟇	-14.1646
梡	-14.1647
荇	-14.1648
煐	-14.1651
堮	-14.1654
塐	-14.1654
殀	-14.1656
鋷	-14.1659
縌	-14.166
袡	-14.1677
檯	-14.1686
櫏	-14.1687
垿	-14.1698
鏈	-14.17
􁘦	-14.2237
􁕣	-14.2258
艚	-14.2258
泂	-14.2258
眎	-14.2258
噓	-14.2259
鋦	-14.226
􁕔	-14.2261
腒	-14.2263
􁎗	-14.2264
齕	-14.2267
歈	-14.2268
劌	-14.2269
嶁	-14.2269
咻	-14.227
旓	-14.227
玁	-14.2272
頇	-14.2272
睇	-14.2272
橒	-14.2274
菼	-14.2275
萵	-14.2276
筊	-14.2276
𢾗	-14.2276
䵄	-14.2276
皺	-14.2276
嵂	-14.2277
靨	-14.2277
蚋	-14.2277
瞋	-14.2277
蜍	-14.2278
蝟	-14.2278
蟈	-14.2278
憸	-14.2278
灕	-14.2279
阽	-14.228
鷥	-14.228
墄	-14.228
萟	-14.2281
輗	-14.2281
搤	-14.2281
癢	-14.2282
蔞	-14.2282
踟	-14.2282
摴	-14.2282
躞	-14.2283
觗	-14.2283
晬	-14.2284
鋙	-14.2285
溍	-14.2285
皛	-14.2285
􁱰	-14.2285
㰱	-14.2286
茯	-14.2287
嫪	-14.2287
聱	-14.2288
䖝	-14.2288
𤱔	-14.2288
虓	-14.2288
㙜	-14.2288
荑	-14.2288
覜	-14.2289
檾	-14.2289
遫	-14.2289
狆	-14.2289
逯	-14.229
騢	-14.2294
綼	-14.2295
􁉗	-14.2296
斝	-14.2296
絕	-14.2297
愫	-14.2297
檳	-14.2298
䀋	-14.2298
唤	-14.2298
㙩	-14.2299
鄶	-14.2299
􁑵	-14.2299
壄	-14.23
禒	-14.23
笭	-14.23
魃	-14.2305
􁃽	-14.2305
瑆	-14.2306
墼	-14.2306
􁅖	-14.2307
眙	-14.2307
僃	-14.2308
櫳	-14.2309
篹	-14.231
傕	-14.2311
􁏊	-14.2312
韡	-14.2314
錧	-14.232
玀	-14.2329
摝	-14.2331
柲	-14.2336
樨	-14.2337
焻	-14.2341
墺	-14.2344
埢	-14.2346
槤	-14.2346
焌	-14.2353
墭	-14.2387
􁨑	-14.2943
穅	-14.2945
显	-14.2957
縪	-14.2964
朒	-14.2965
咖	-14.2965
奫	-14.2966
鎪	-14.2967
曀	-14.2975
劖	-14.2978
􁞡	-14.2978
珌	-14.298
㬚	-14.2982
轕	-14.2982
轇	-14.2983
熉	-14.2984
􁐠	-14.2985
麀	-14.2985
􁂴	-14.2986
胆	-14.2986
粺	-14.2986
竜	-14.2986
倕	-14.2987
襮	-14.2987
棜	-14.2987
凃	-14.2987
幌	-14.2988
幵	-14.2988
䘺	-14.2988
愐	-14.2989
獾	-14.2989
􁲣	-14.299
靼	-14.299
篲	-14.299
橓	-14.299
氍	-14.299
愃	-14.299
憮	-14.2991
姙	-14.2991
秕	-14.2992
鏺	-14.2994
嘰	-14.2994
捩	-14.2994
絅	-14.2994
顕	-14.2995
蹁	-14.2995
蠒	-14.2996
㬎	-14.2997
怩	-14.2997
姤	-14.2997
嘩	-14.2997
鬐	-14.2998
霮	-14.2998
譊	-14.2998
䄄	-14.2999
崚	-14.2999
儥	-14.2999
簏	-14.2999
鵶	-14.3
薯	-14.3
撇	-14.3
驎	-14.3
拗	-14.3001
炰	-14.3001
飜	-14.3002
醎	-14.3002
僸	-14.3002
癖	-14.3002
觳	-14.3002
奝	-14.3002
襂	-14.3003
朡	-14.3004
觹	-14.3004
涔	-14.3005
囙	-14.3005
閌	-14.3005
欿	-14.3005
亊	-14.3006
嘿	-14.3008
颭	-14.3009
桮	-14.3009
芈	-14.3011
傒	-14.3011
裯	-14.3011
鄷	-14.3011
漦	-14.3013
歊	-14.3013
䓤	-14.3013
踔	-14.3014
賧	-14.3014
臋	-14.3014
挩	-14.3016
炘	-14.3017
汞	-14.3018
剸	-14.3018
崎	-14.3019
騋	-14.3019
柤	-14.302
膰	-14.302
㟃	-14.302
妒	-14.302
湓	-14.302
篳	-14.302
餃	-14.3022
熨	-14.3023
鏥	-14.3023
扐	-14.3025
皐	-14.3026
羑	-14.3029
噤	-14.3032
窨	-14.3032
鐩	-14.3032
㶏	-14.3033
鳲	-14.3036
杴	-14.3041
枘	-14.3053
驒	-14.3053
栐	-14.3056
潪	-14.3071
烰	-14.3096
􁲵	-14.3128
獼	-14.3726
䈼	-14.373
􁨄	-14.373
傋	-14.3734
薧	-14.3743
蝠	-14.3743
銼	-14.3747
臙	-14.3748
𢋫	-14.3749
暟	-14.375
艨	-14.3753
蜕	-14.3754
􁃛	-14.3755
燐	-14.3756
淲	-14.3756
叄	-14.3756
慫	-14.3757
崮	-14.3758
䴡	-14.3758
蛋	-14.3758
坱	-14.3758
漭	-14.3759
􁎒	-14.376
儍	-14.376
櫕	-14.3761
禵	-14.3761
橇	-14.3761
逑	-14.3763
蜻	-14.3764
亙	-14.3764
炟	-14.3765
𫐠	-14.3765
嘷	-14.3765
炁	-14.3765
咢	-14.3765
攟	-14.3766
恝	-14.3766
昷	-14.3766
櫚	-14.3767
衩	-14.3767
燁	-14.3768
薥	-14.3768
痏	-14.3768
嚶	-14.3768
舲	-14.3769
槓	-14.3769
幍	-14.3769
􁄻	-14.3769
葇	-14.3769
豽	-14.377
膱	-14.377
剳	-14.377
劘	-14.377
􁂎	-14.3771
捭	-14.3771
臞	-14.3771
叮	-14.3772
枿	-14.3772
癈	-14.3773
緖	-14.3773
昰	-14.3773
蕾	-14.3774
扯	-14.3775
蜯	-14.3775
鞗	-14.3775
􁁃	-14.3775
捱	-14.3775
􁄀	-14.3775
侹	-14.3776
噱	-14.3776
衊	-14.3777
霣	-14.3777
爹	-14.3777
囒	-14.3778
􁗁	-14.3778
䑛	-14.3779
洟	-14.3779
垼	-14.378
棆	-14.3782
齗	-14.3783
厹	-14.3784
􁛀	-14.3784
澚	-14.3785
艧	-14.3786
垤	-14.3786
娙	-14.3787
炌	-14.3788
酨	-14.3793
湆	-14.3796
舋	-14.3796
麦	-14.3797
䕠	-14.3798
㙔	-14.3802
栭	-14.3805
壐	-14.3808
㬅	-14.3813
鈷	-14.3813
蒗	-14.3814
鋏	-14.3817
羕	-14.3818
萯	-14.3819
槏	-14.3821
􁧨	-14.3828
嶭	-14.3833
渲	-14.3836
狫	-14.3849
䵺	-14.386
㙾	-14.3862
烄	-14.3881
樻	-14.3889
􁋆	-14.3891
㙉	-14.3896
㔍	-14.4544
㦲	-14.455
礶	-14.4553
綹	-14.4558
淼	-14.4563
蕈	-14.4568
朥	-14.4569
歠	-14.4569
謦	-14.4571
坳	-14.4572
刵	-14.4575
鱻	-14.4577
櫩	-14.4577
𠢐	-14.4578
侫	-14.4579
蝴	-14.4579
覼	-14.458
痰	-14.4582
鏽	-14.4583
狷	-14.4584
佅	-14.4585
珫	-14.4585
瑝	-14.4585
騃	-14.4585
瀲	-14.4586
蝮	-14.4587
顢	-14.4587
孴	-14.4587
禟	-14.4587
媢	-14.4588
愖	-14.4589
垻	-14.4589
伙	-14.459
沗	-14.4591
􁃊	-14.4591
忮	-14.4592
籹	-14.4592
陝	-14.4592
搉	-14.4592
哦	-14.4592
吒	-14.4593
崕	-14.4593
黴	-14.4593
禂	-14.4593
跴	-14.4594
􁒻	-14.4594
䘲	-14.4594
磉	-14.4594
峥	-14.4594
􁶃	-14.4595
惔	-14.4595
薶	-14.4596
拇	-14.4597
􁐓	-14.4597
偰	-14.4597
􁀼	-14.4597
跖	-14.4597
箈	-14.4597
靽	-14.4597
薹	-14.4598
昝	-14.4598
釂	-14.4598
踧	-14.4598
𬞞	-14.4599
窱	-14.46
响	-14.46
㕁	-14.46
罋	-14.46
柅	-14.4601
諢	-14.4601
茈	-14.4601
犎	-14.4601
岠	-14.4601
儌	-14.4602
鼏	-14.4602
啾	-14.4602
􁆸	-14.4602
玼	-14.4603
􁕏	-14.4603
骩	-14.4604
漼	-14.4604
㫄	-14.4605
尢	-14.4605
豭	-14.4606
篨	-14.4606
桼	-14.4606
冞	-14.4607
蓻	-14.4607
胐	-14.4609
溠	-14.4609
坁	-14.4609
潬	-14.4609
繰	-14.4609
蘸	-14.461
䄠	-14.4611
湝	-14.4611
麑	-14.4611
蝎	-14.4611
㺨	-14.4611
􁀥	-14.4612
跕	-14.4612
懘	-14.4612
庌	-14.4612
艎	-14.4612
豉	-14.4612
嵫	-14.4612
憃	-14.4613
倔	-14.4613
􁪶	-14.4613
􁎱	-14.4614
鶬	-14.4615
髲	-14.4615
癿	-14.4615
庒	-14.4615
棵	-14.4616
韆	-14.4616
蛻	-14.4617
宂	-14.4621
瞢	-14.4621
弅	-14.4622
蓨	-14.4623
嘂	-14.4623
􁘭	-14.4623
榰	-14.4624
梲	-14.4625
䢵	-14.4626
渶	-14.4626
墝	-14.4629
溵	-14.4629
耎	-14.463
嶕	-14.4632
楶	-14.4633
姫	-14.4633
熂	-14.4639
嶡	-14.464
涞	-14.4642
尨	-14.4644
堀	-14.4644
梈	-14.4645
杇	-14.4649
櫸	-14.465
楡	-14.4653
圁	-14.4654
墦	-14.4655
滽	-14.4655
㘧	-14.4657
艸	-14.4658
􁊿	-14.466
焆	-14.467
垙	-14.467
棌	-14.4671
熼	-14.4674
塒	-14.4679
烇	-14.4679
埅	-14.4689
烆	-14.4693
烒	-14.4725
爀	-14.4733
􁨹	-14.533
欓	-14.5447
菭	-14.5457
沲	-14.5457
抿	-14.5468
塿	-14.547
鞕	-14.5472
􁅭	-14.5475
巃	-14.548
糲	-14.5482
嗒	-14.5482
檎	-14.5484
砯	-14.5484
颻	-14.5484
匳	-14.5484
粞	-14.5487
眢	-14.5488
圬	-14.5488
漩	-14.5489
侉	-14.5489
褏	-14.5489
鞴	-14.5489
犙	-14.5492
溼	-14.5492
􁐑	-14.5493
岣	-14.5493
𠺕	-14.5493
苽	-14.5494
磷	-14.5494
飣	-14.5494
蓤	-14.5494
釪	-14.5495
旤	-14.5495
篝	-14.5496
蔻	-14.5496
欖	-14.5496
琵	-14.5496
躶	-14.5496
賺	-14.5497
忉	-14.5497
榼	-14.5498
􁧉	-14.5498
䇾	-14.5499
襆	-14.55
崦	-14.55
霔	-14.55
圌	-14.55
􁈊	-14.55
􁲻	-14.5501
琲	-14.5502
戹	-14.5503
暻	-14.5503
莧	-14.5503
囓	-14.5504
􁅔	-14.5504
嗉	-14.5504
埕	-14.5505
湋	-14.5506
嬀	-14.5506
悺	-14.5507
挻	-14.5507
戦	-14.5507
𥿄	-14.5507
腮	-14.5508
罥	-14.5508
璡	-14.5509
鸕	-14.5509
黵	-14.5509
蒢	-14.5509
嗩	-14.5509
晣	-14.551
掐	-14.551
齓	-14.5511
嵳	-14.5511
毊	-14.5511
貃	-14.5511
佼	-14.5511
魍	-14.5511
舷	-14.5511
磵	-14.5511
欐	-14.5512
悁	-14.5512
鰍	-14.5513
揔	-14.5513
􁥱	-14.5513
抓	-14.5513
芣	-14.5514
鎣	-14.5514
蹏	-14.5514
蔮	-14.5514
岊	-14.5514
穭	-14.5514
戇	-14.5514
沘	-14.5514
踠	-14.5515
躑	-14.5515
僢	-14.5515
縰	-14.5515
菘	-14.5515
窃	-14.5515
癯	-14.5516
䏰	-14.5516
橡	-14.5516
匶	-14.5517
摡	-14.5517
哮	-14.5517
蓯	-14.5517
桭	-14.5518
擥	-14.5518
袚	-14.5518
乜	-14.5518
曚	-14.5518
茢	-14.5519
鴇	-14.5519
䃁	-14.5519
幧	-14.552
蹹	-14.552
熞	-14.5521
􁁂	-14.5521
屝	-14.5522
襏	-14.5522
妁	-14.5522
嚀	-14.5522
苢	-14.5522
􁔨	-14.5523
淰	-14.5523
㒒	-14.5523
捽	-14.5524
溳	-14.5525
墌	-14.5525
􁣼	-14.5525
􁧈	-14.5525
郏	-14.5525
漵	-14.5526
駴	-14.5526
縏	-14.5527
䋿	-14.5527
𡑞	-14.5528
鬷	-14.5528
閺	-14.553
騪	-14.5532
侀	-14.5532
鴡	-14.5532
潨	-14.5534
恟	-14.5534
妮	-14.5536
楘	-14.5536
霶	-14.5536
珹	-14.5539
﨣	-14.5539
鷸	-14.5539
欂	-14.5541
鯖	-14.5543
襕	-14.5543
􁊯	-14.5547
鞌	-14.5549
檗	-14.5551
泔	-14.5552
鏳	-14.5556
浰	-14.5562
垌	-14.5574
𤬪	-14.5579
窌	-14.5588
垬	-14.5598
潚	-14.5601
釨	-14.5601
堛	-14.5608
㮵	-14.5609
欏	-14.5618
埰	-14.6454
昣	-14.6458
麌	-14.6472
鞙	-14.6474
倎	-14.6475
霱	-14.6475
樷	-14.6479
𣢾	-14.6479
巇	-14.6482
茱	-14.6482
鋩	-14.6484
􁎲	-14.6484
萸	-14.6486
􁒊	-14.6486
詼	-14.6488
􁕒	-14.6488
猳	-14.6488
楳	-14.6489
瞩	-14.649
􁎛	-14.649
尃	-14.649
蛭	-14.6491
趼	-14.6491
鑱	-14.6492
偭	-14.6492
􁰑	-14.6494
䍦	-14.6494
㠗	-14.6494
翛	-14.6495
釱	-14.6495
儓	-14.6495
庹	-14.6496
晧	-14.6496
飪	-14.6496
靫	-14.6497
陠	-14.6497
颿	-14.6497
跧	-14.6497
澷	-14.6498
襤	-14.6498
儦	-14.6499
覷	-14.65
砆	-14.65
碔	-14.65
㸬	-14.65
藔	-14.6501
侐	-14.6501
櫋	-14.6502
鍁	-14.6502
赬	-14.6502
莓	-14.6502
懊	-14.6503
朙	-14.6503
螞	-14.6504
穈	-14.6505
忞	-14.6505
擽	-14.6505
旊	-14.6505
獝	-14.6506
豜	-14.6508
蹛	-14.6508
悒	-14.6509
鼊	-14.6509
柍	-14.6509
騣	-14.6509
甪	-14.6509
菶	-14.651
霨	-14.651
淒	-14.651
儵	-14.651
蜓	-14.651
俌	-14.651
袿	-14.6511
鯽	-14.6511
鋆	-14.6511
黾	-14.6511
犨	-14.6512
洨	-14.6513
晀	-14.6513
卍	-14.6513
柂	-14.6513
櫪	-14.6514
俴	-14.6514
眘	-14.6514
紝	-14.6515
翏	-14.6515
漎	-14.6515
讕	-14.6515
昖	-14.6515
焄	-14.6515
媸	-14.6515
暸	-14.6515
鯈	-14.6516
屎	-14.6516
鱖	-14.6516
菠	-14.6517
𠻳	-14.6518
閴	-14.6519
􁈲	-14.6519
籪	-14.652
髏	-14.652
脿	-14.652
􁫮	-14.652
幓	-14.652
衹	-14.6521
麊	-14.6521
雺	-14.6522
戥	-14.6522
䙱	-14.6523
顰	-14.6523
鈑	-14.6523
唫	-14.6524
鄏	-14.6524
𣗳	-14.6525
玹	-14.6525
瓀	-14.6525
荸	-14.6525
茝	-14.6525
蓘	-14.6525
砑	-14.6526
蝥	-14.6526
翖	-14.6526
䔧	-14.6526
蕐	-14.6526
廧	-14.6527
鼘	-14.6527
悱	-14.6529
澘	-14.653
睎	-14.6531
􁚫	-14.6532
輁	-14.6532
樝	-14.6533
瘉	-14.6534
蜩	-14.6534
􁅯	-14.6536
甋	-14.6536
蟜	-14.6536
㡤	-14.6538
𧺫	-14.6539
嫖	-14.6539
緺	-14.6539
􁏉	-14.654
嶐	-14.654
踉	-14.6542
憗	-14.6542
帬	-14.6542
䂊	-14.6542
𫉬	-14.6544
㷒	-14.6546
鑨	-14.6546
㶁	-14.6549
荈	-14.6552
哵	-14.6554
墰	-14.6559
罡	-14.656
㳋	-14.6562
浼	-14.6575
滰	-14.6575
􁒺	-14.658
窐	-14.658
檡	-14.6589
檽	-14.6599
洤	-14.6601
涍	-14.6608
栘	-14.661
瀞	-14.6615
嗈	-14.7563
耡	-14.7573
汦	-14.7578
瓆	-14.758
枒	-14.7582
赱	-14.7586
狉	-14.7586
􁱵	-14.7588
酵	-14.7589
麖	-14.759
圞	-14.7591
㣶	-14.7592
墖	-14.7593
吚	-14.7594
􁕙	-14.7594
僴	-14.7596
劚	-14.7598
􁕠	-14.7599
澒	-14.7599
蓲	-14.7599
揎	-14.7599
粼	-14.76
諐	-14.7601
蜆	-14.7601
赩	-14.7602
碙	-14.7603
􁈯	-14.7603
昪	-14.7604
痴	-14.7605
軓	-14.7606
鞈	-14.7607
齷	-14.7607
霡	-14.7608
澪	-14.7608
胋	-14.7608
臁	-14.7608
㸐	-14.7608
􁉕	-14.7609
鱸	-14.7609
蝨	-14.761
箘	-14.761
懔	-14.761
薜	-14.761
壒	-14.761
跅	-14.7612
倞	-14.7612
籋	-14.7612
獧	-14.7612
釭	-14.7613
旵	-14.7613
𬒮	-14.7613
倀	-14.7613
气	-14.7613
蒻	-14.7614
伻	-14.7615
撏	-14.7615
紾	-14.7616
𨕖	-14.7617
呶	-14.7617
㖠	-14.7617
蝱	-14.7617
靸	-14.7618
剟	-14.7618
瀁	-14.7618
曅	-14.7619
鐝	-14.7619
歜	-14.7619
机	-14.7619
􁍵	-14.7619
蝡	-14.7619
慓	-14.7619
橔	-14.762
􁇡	-14.762
纆	-14.7621
碞	-14.7621
蕒	-14.7621
堘	-14.7622
吵	-14.7622
㭬	-14.7622
摦	-14.7624
萐	-14.7624
俅	-14.7624
轙	-14.7624
堌	-14.7625
鱏	-14.7625
梇	-14.7625
滃	-14.7625
崿	-14.7626
㓛	-14.7627
隝	-14.7627
䴬	-14.7628
緎	-14.7629
挎	-14.7629
卝	-14.7629
髑	-14.7629
庪	-14.7629
潩	-14.7629
騅	-14.7629
鬍	-14.7629
磜	-14.7629
粆	-14.763
禿	-14.763
焼	-14.763
纑	-14.763
巣	-14.763
􁐇	-14.7631
痁	-14.7632
磶	-14.7632
珧	-14.7632
攦	-14.7633
㲪	-14.7633
弨	-14.7634
􁦝	-14.7634
豝	-14.7635
鷴	-14.7635
襫	-14.7635
瘥	-14.7636
躒	-14.7636
悪	-14.7636
鎌	-14.7636
妯	-14.7636
胇	-14.7636
妊	-14.7637
瘤	-14.7638
鴣	-14.7638
檛	-14.7638
晜	-14.764
笨	-14.7642
稃	-14.7642
鈹	-14.7643
瓝	-14.7643
屓	-14.7644
斒	-14.7644
鐎	-14.7645
峿	-14.7646
媼	-14.7646
霠	-14.7646
佷	-14.7646
襧	-14.7647
熥	-14.7647
䤩	-14.7647
祤	-14.7648
惪	-14.7649
􁆢	-14.7649
极	-14.765
琭	-14.765
袘	-14.765
沄	-14.765
㷆	-14.7651
芚	-14.7652
螗	-14.7652
㰖	-14.7655
脖	-14.7658
旖	-14.7659
旎	-14.7659
銶	-14.766
棅	-14.7663
􁐔	-14.7663
騘	-14.7664
娄	-14.7666
熜	-14.7671
湨	-14.7678
楀	-14.7679
㶇	-14.7688
沺	-14.7697
騱	-14.7698
􁬹	-14.7701
爔	-14.7704
楑	-14.7709
烴	-14.7712
泙	-14.7712
椐	-14.7724
炵	-14.7725
㰇	-14.7727
埼	-14.7741
橏	-14.7771
儳	-14.8795
憧	-14.8812
泃	-14.8822
敳	-14.8822
撎	-14.8826
擰	-14.8827
皀	-14.8832
翭	-14.8837
㒞	-14.8839
乩	-14.8845
窊	-14.8846
瑈	-14.8847
滮	-14.8848
瑴	-14.8848
篔	-14.8849
圄	-14.8852
幚	-14.8853
痤	-14.8854
傎	-14.8856
礌	-14.8856
䘚	-14.8856
笓	-14.8857
䡾	-14.8857
稡	-14.8857
岨	-14.8858
肈	-14.8858
瓿	-14.8858
熀	-14.8859
菡	-14.8859
咋	-14.8859
艭	-14.8859
弸	-14.886
昛	-14.886
硠	-14.8861
痺	-14.8862
昳	-14.8862
嫘	-14.8862
寠	-14.8862
㭊	-14.8862
堩	-14.8862
楦	-14.8862
曛	-14.8862
犉	-14.8862
乕	-14.8862
俔	-14.8863
荚	-14.8864
俐	-14.8865
廯	-14.8865
呾	-14.8865
枃	-14.8865
曣	-14.8865
汹	-14.8866
昈	-14.8866
嶫	-14.8866
荽	-14.8866
妳	-14.8867
罻	-14.8867
哱	-14.8867
嵞	-14.8868
琁	-14.8868
劻	-14.8868
瘢	-14.8869
胗	-14.8869
徘	-14.8869
幏	-14.8869
庯	-14.8869
惆	-14.887
滍	-14.887
磎	-14.887
膷	-14.887
嫠	-14.8871
漅	-14.8871
搯	-14.8871
䇲	-14.8871
䐁	-14.8872
孌	-14.8873
匴	-14.8873
䰞	-14.8873
猨	-14.8873
洓	-14.8874
㝛	-14.8874
摚	-14.8874
疻	-14.8874
痢	-14.8875
椓	-14.8875
欱	-14.8875
孃	-14.8876
燋	-14.8876
晭	-14.8876
塉	-14.8876
嬈	-14.8877
涗	-14.8877
墫	-14.8877
㡘	-14.8878
滈	-14.8879
㞕	-14.8879
惎	-14.8879
碼	-14.888
晸	-14.888
喔	-14.888
䖟	-14.8882
㺐	-14.8882
笤	-14.8882
嘍	-14.8882
姧	-14.8882
屼	-14.8883
䪐	-14.8883
惘	-14.8884
艅	-14.8884
皞	-14.8884
苪	-14.8886
梱	-14.8886
䳓	-14.8888
梆	-14.8889
狑	-14.889
紽	-14.8891
惷	-14.8894
圛	-14.8895
圪	-14.8897
咷	-14.8897
唪	-14.8898
緁	-14.8898
肂	-14.8899
爁	-14.89
䩴	-14.8901
傛	-14.8902
櫆	-14.8904
兟	-14.8904
秺	-14.8904
懬	-14.8904
厙	-14.8908
堁	-14.891
垹	-14.891
杗	-14.8917
焴	-14.8919
瀳	-14.8926
烶	-14.8927
㴶	-14.8929
埥	-14.8932
䞓	-14.8934
坅	-14.8934
壂	-14.8936
勱	-14.8937
櫑	-14.8938
埻	-14.894
杫	-14.894
埫	-14.8944
㷫	-14.8954
橺	-14.8959
埑	-14.8962
塇	-14.8972
燏	-14.8972
㙨	-14.899
瀺	-14.8992
瑙	-15.0316
鞨	-15.1947
录	-15.1956
葫	-15.1988
葡	-15.3962
衕	-15.3967
裲	-15.4044
囹	-15.643
篌	-15.6443
襞	-15.6484
拮	-15.979
遛	-15.9793
錔	-15.9808
箜	-16.4851
􁕜	-17.4808
􁕤	-17.4809
倆	-17.481
蟋	-17.4811
撕	-17.4812
䃋	-17.4813
昄	-17.4814
髃	-17.4815
緙	-17.4816
嚈	-17.4817
蚄	-17.4818
㮮	-17.4819
􁕴	-17.482
鑁	-17.4821
蜈	-17.4822
輬	-17.4823
徬	-17.4824
婕	-17.4825
氌	-17.4826
瑇	-17.4827
糢	-17.4828
菻	-17.4829
猁	-17.483
齟	-17.4831
靂	-17.4832
霹	-17.4833
邂	-17.4834
蓿	-17.4835
媫	-17.4836
餑	-17.4837
衚	-17.4838
>	-17.4839
=	-17.484
3	-17.4841
"	-17.4842
匃	-17.4842
