<unk>	0
<s>	0
</s>	0
之	-3.87312
以	-4.61042
而	-4.72282
為	-4.7972
者	-4.81639
也	-4.87675
其	-4.9163
一	-5.03741
不	-5.17809
有	-5.18616
則	-5.20985
於	-5.36551
人	-5.37017
兵	-5.41192
軍	-5.56049
大	-5.58172
將	-5.64952
/	-5.65881
無	-5.69875
至	-5.7047
(	-5.71794
曰	-5.72996
用	-5.7378
賊	-5.78374
中	-5.80797
在	-5.82309
三	-5.83538
如	-5.83784
與	-5.85194
州	-5.87407
)	-5.89002
上	-5.8984
自	-5.91751
二	-5.91801
出	-5.92015
下	-5.95707
城	-5.97531
行	-5.99669
水	-6.01626
此	-6.02075
所	-6.06062
日	-6.10312
皆	-6.10798
入	-6.12068
若	-6.12101
或	-6.13321
使	-6.1356
地	-6.15472
四	-6.15806
後	-6.17302
敵	-6.17947
戰	-6.19317
必	-6.21512
時	-6.22835
我	-6.23596
五	-6.24092
又	-6.24872
陣	-6.24932
山	-6.25664
可	-6.26606
得	-6.26932
矣	-6.28375
各	-6.29648
即	-6.2967
及	-6.30513
令	-6.33344
乃	-6.33672
故	-6.33972
分	-6.36895
前	-6.37376
馬	-6.38845
先	-6.39073
天	-6.39091
長	-6.41285
當	-6.41303
子	-6.41587
凡	-6.46014
北	-6.46039
道	-6.46518
守	-6.47091
欲	-6.48181
相	-6.48556
亦	-6.48803
營	-6.49066
能	-6.51057
▁	-6.53801
西	-6.54722
合	-6.55269
法	-6.5621
是	-6.5643
事	-6.57111
王	-6.58131
南	-6.58625
多	-6.61019
門	-6.62041
去	-6.62403
見	-6.62498
來	-6.62613
衆	-6.63511
火	-6.6354
方	-6.63957
主	-6.64517
内	-6.65966
外	-6.66029
知	-6.66271
非	-6.66979
等	-6.6728
從	-6.67357
小	-6.67896
立	-6.68003
六	-6.68339
進	-6.69604
發	-6.69942
東	-6.71768
于	-6.72047
今	-6.72804
利	-6.7337
攻	-6.73384
生	-6.73645
死	-6.7451
安	-6.7518
名	-6.76589
重	-6.78518
置	-6.78841
取	-6.79171
八	-6.79319
勝	-6.79379
起	-6.79628
數	-6.79754
未	-6.80623
言	-6.80737
船	-6.80812
平	-6.80897
路	-6.81739
處	-6.81854
隊	-6.81969
擊	-6.83194
國	-6.84228
口	-6.8465
官	-6.84732
風	-6.84769
氣	-6.84984
兩	-6.85155
神	-6.87718
明	-6.87734
車	-6.88025
每	-6.89502
正	-6.90414
成	-6.90749
不可	-6.91006
通	-6.91984
夫	-6.92046
過	-6.92673
民	-6.92942
金	-6.93331
騎	-6.93407
髙	-6.93411
因	-6.93581
計	-6.94169
石	-6.94363
宜	-6.94734
敗	-6.9484
定	-6.95167
師	-6.95661
謂	-6.95837
同	-6.95894
遂	-6.9599
力	-6.96084
公	-6.96153
乎	-6.9637
復	-6.97299
旗	-6.97933
頭	-6.98226
木	-6.98431
作	-6.98432
雖	-6.98877
河	-6.99656
不能	-6.99683
九	-7.00459
七	-7.00887
居	-7.01011
備	-7.01428
亂	-7.01526
勢	-7.0187
須	-7.01977
本	-7.02182
殺	-7.04192
士	-7.04659
已	-7.04805
吾	-7.04885
臣	-7.05169
武	-7.05819
右	-7.05856
次	-7.06482
然	-7.06673
海	-7.07591
伏	-7.07652
白	-7.07896
十	-7.08612
手	-7.09997
急	-7.10639
心	-7.10872
陽	-7.11378
舉	-7.11584
常	-7.11955
止	-7.1211
開	-7.12151
砦	-7.12165
設	-7.12469
動	-7.13612
何	-7.14465
退	-7.145
漢	-7.1454
諸	-7.14552
卒	-7.14632
張	-7.15125
命	-7.15738
縣	-7.15764
破	-7.16001
齊	-7.16996
月	-7.17604
江	-7.17825
身	-7.1861
謀	-7.18714
犯	-7.19071
制	-7.19525
家	-7.19723
盡	-7.20521
間	-7.20594
焉	-7.20662
不得	-7.20681
加	-7.2072
變	-7.20765
失	-7.21634
俱	-7.22713
步	-7.22923
夜	-7.23308
星	-7.2331
土	-7.23316
善	-7.23527
黄	-7.24166
易	-7.2449
逺	-7.25076
鎮	-7.25182
近	-7.25851
)(	-7.25858
更	-7.25996
直	-7.26027
應	-7.26678
難	-7.2717
隨	-7.2775
治	-7.27841
向	-7.29706
歸	-7.30202
可以	-7.30668
既	-7.30724
便	-7.3108
甲	-7.32282
彼	-7.32615
左右	-7.32945
固	-7.32974
唐	-7.33299
君	-7.33648
百	-7.34432
廣	-7.3452
文	-7.35437
信	-7.3552
左	-7.3608
且	-7.36303
衝	-7.36539
要	-7.36847
耳	-7.36988
實	-7.36999
輕	-7.37125
初	-7.37587
聞	-7.37961
角	-7.38779
食	-7.3886
而不	-7.38986
陳	-7.39098
聲	-7.39636
秦	-7.39707
約	-7.39884
打	-7.40353
深	-7.41016
功	-7.41233
圍	-7.41465
他	-7.4152
反	-7.42894
走	-7.42922
乘	-7.43523
並	-7.4357
所以	-7.43836
首	-7.44759
但	-7.45999
界	-7.4611
半	-7.46358
萬	-7.46389
義	-7.46491
少	-7.46593
書	-7.46785
箭	-7.47025
威	-7.48455
遣	-7.4903
視	-7.49233
惟	-7.49388
吳	-7.49472
臨	-7.49825
伐	-7.49916
周	-7.50011
都	-7.50046
鼓	-7.50371
餘	-7.50868
府	-7.50984
散	-7.51126
高	-7.5151
牌	-7.52692
湖	-7.52939
亡	-7.53145
晉	-7.53248
足	-7.54157
敵人	-7.54535
收	-7.54543
色	-7.54729
度	-7.54886
請	-7.5497
天下	-7.55426
布	-7.55605
邊	-7.55636
并	-7.55704
率	-7.55878
沙	-7.56391
/)	-7.56607
面	-7.56941
李	-7.57195
橋	-7.57383
楚	-7.57669
元	-7.57751
年	-7.578
形	-7.57902
建	-7.58413
放	-7.58913
致	-7.5892
經	-7.59164
流	-7.59268
鎗	-7.59344
還	-7.59411
以為	-7.5953
列	-7.60218
龍	-7.60236
賞	-7.60585
順	-7.60734
由	-7.60939
郡	-7.60963
客	-7.6125
青	-7.61759
連	-7.61885
士卒	-7.62113
飛	-7.62556
射	-7.6287
論	-7.63424
竒	-7.63454
候	-7.63616
降	-7.63785
草	-7.64315
舟	-7.64538
之法	-7.64608
田	-7.64832
横	-7.65255
望	-7.65446
大將	-7.65506
領	-7.6568
舊	-7.65978
圖	-7.6608
爲	-7.66194
始	-7.6627
共	-7.66496
梁	-7.66523
報	-7.66543
鐵	-7.66602
服	-7.66937
據	-7.67134
屬	-7.67456
任	-7.67485
轉	-7.68097
號	-7.68291
弩	-7.68543
離	-7.68698
㑹	-7.68854
川	-7.68907
機	-7.69995
勇	-7.70166
險	-7.70197
遇	-7.70207
絶	-7.70371
甚	-7.70497
疑	-7.70682
雲	-7.70769
照	-7.71042
刀	-7.71268
堅	-7.72097
聽	-7.7223
交	-7.72278
新	-7.72488
獨	-7.72809
關	-7.72849
教	-7.72944
引	-7.72965
擊之	-7.73342
恐	-7.73391
親	-7.73716
東至	-7.74536
港	-7.75397
别	-7.75437
云	-7.76263
解	-7.76515
强	-7.76795
砲	-7.76882
傳	-7.77073
節	-7.77254
救	-7.77547
魏	-7.7786
坐	-7.78065
原	-7.78078
操	-7.78115
往	-7.78136
和	-7.78545
防	-7.78692
部	-7.78878
之地	-7.78937
勿	-7.79124
到	-7.79273
總	-7.79274
求	-7.79281
就	-7.79434
嚴	-7.80058
糧	-7.80427
選	-7.80824
之所	-7.81035
精	-7.81091
中軍	-7.81474
屯	-7.81616
德	-7.81633
古	-7.8166
仍	-7.8182
光	-7.82305
隂	-7.82378
哉	-7.82479
十二	-7.83068
保	-7.83072
務	-7.83181
將軍	-7.83307
智	-7.83438
弱	-7.8346
千	-7.83462
司	-7.83507
議	-7.83512
世	-7.83906
權	-7.84218
辰	-7.84534
一人	-7.84854
追	-7.85421
莫	-7.85472
所謂	-7.85484
徳	-7.85723
寇	-7.85841
全	-7.86375
問	-7.86558
鋪	-7.86772
虜	-7.87054
施	-7.87329
藥	-7.87701
目	-7.8792
疾	-7.88065
塞	-7.88116
傷	-7.88184
築	-7.88247
銀	-7.88595
積	-7.88619
再	-7.88776
習	-7.88811
指	-7.88917
塘	-7.89584
悉	-7.90255
尚	-7.90447
斬	-7.91022
逆	-7.91084
弓	-7.91181
獲	-7.9192
聚	-7.92033
異	-7.9215
受	-7.9218
懼	-7.9241
背	-7.92432
野	-7.92458
具	-7.92501
惡	-7.92511
境	-7.92689
物	-7.92732
執	-7.93009
濟	-7.93268
給	-7.93477
果	-7.93838
厚	-7.93855
哨	-7.94031
久	-7.94125
樂	-7.94193
依	-7.94343
渡	-7.94491
支	-7.94516
稱	-7.9525
伍	-7.95377
宋	-7.95406
集	-7.95937
然後	-7.96061
害	-7.96134
縱	-7.96381
壘	-7.96397
留	-7.96634
持	-7.96782
陵	-7.9694
帝	-7.97152
回	-7.974
太	-7.97772
興	-7.97798
管	-7.98108
朝	-7.98316
意	-7.98509
虚	-7.98765
造	-7.98849
雨	-7.99232
宿	-7.99266
闗	-7.9931
二十	-7.99499
前後	-7.9968
赤	-7.9997
東南	-8.00255
附	-8.00324
觀	-8.00966
理	-8.01052
劉	-8.01606
堡	-8.01618
空	-8.02171
罪	-8.02175
末	-8.02335
移	-8.0246
克	-8.02522
接	-8.02526
志	-8.02681
奔	-8.03486
邑	-8.03497
三軍	-8.03688
馳	-8.04129
烏	-8.04139
益	-8.04197
吉	-8.04205
被	-8.05285
不知	-8.05299
統	-8.05984
棄	-8.06101
胡	-8.06331
虎	-8.06416
竹	-8.06736
結	-8.06885
貴	-8.06891
申	-8.07496
代	-8.07505
速	-8.07746
一作	-8.07768
尾	-8.07982
盛	-8.08031
清	-8.08047
許	-8.08047
西北	-8.08405
官兵	-8.08422
夏	-8.08675
猶	-8.08866
林	-8.08907
不敢	-8.0893
陷	-8.09006
是也	-8.09221
葢	-8.09296
戎	-8.09515
趙	-8.09533
乗	-8.09721
逐	-8.09827
告	-8.10115
審	-8.10473
按	-8.10474
嘗	-8.10844
刑	-8.10934
驚	-8.10947
勞	-8.11319
冦	-8.11346
衛	-8.1231
兼	-8.12455
畏	-8.12471
東北	-8.12774
顧	-8.12829
丁	-8.12989
却	-8.13028
密	-8.13473
慮	-8.14304
專	-8.14324
斗	-8.14363
卷	-8.14701
第一	-8.14705
調	-8.1472
畢	-8.14813
襲	-8.14822
占	-8.14904
宗	-8.15089
期	-8.15207
擒	-8.15401
雜	-8.15562
徒	-8.1559
比	-8.1562
討	-8.15907
毎	-8.16069
蛇	-8.16455
来	-8.16458
待	-8.1659
招	-8.16747
避	-8.16838
越	-8.16846
器	-8.16932
環	-8.16942
禮	-8.17793
鄉	-8.17796
兵起	-8.18125
字	-8.18136
好	-8.18284
患	-8.18307
而後	-8.18328
曲	-8.18344
谷	-8.18347
賢	-8.18748
帥	-8.1979
條	-8.20026
推	-8.20483
南至	-8.2059
脚	-8.20643
怒	-8.21416
謂之	-8.21531
差	-8.21831
容	-8.22112
征	-8.22273
浦	-8.22498
西南	-8.22506
澤	-8.22753
著	-8.22755
牛	-8.2308
皷	-8.23168
諸將	-8.23382
而已	-8.23629
仁	-8.23663
伏兵	-8.23855
鋭	-8.23894
恃	-8.24108
攻城	-8.24135
徑	-8.24172
歩	-8.24181
對	-8.24241
説	-8.24244
廢	-8.24672
政	-8.2507
存	-8.25103
己	-8.25175
禁	-8.25244
其所	-8.25267
稍	-8.25654
擇	-8.25671
毒	-8.25822
極	-8.26131
私	-8.26154
禦	-8.26296
二百	-8.26345
示	-8.26413
寧	-8.26522
涇	-8.26558
覆	-8.26572
修	-8.26661
掠	-8.26768
陰	-8.26882
樓	-8.26905
皮	-8.27064
危	-8.27427
憂	-8.27497
者也	-8.27586
老	-8.27943
詐	-8.28096
索	-8.28121
斷	-8.28511
終	-8.2855
爭	-8.2856
資	-8.28562
燒	-8.28585
翼	-8.2937
折	-8.29551
宻	-8.3004
落	-8.30496
槍	-8.30508
闊	-8.30589
抵	-8.30772
誅	-8.30788
㸃	-8.30983
位	-8.31062
三百	-8.31215
夷	-8.31332
輪	-8.31459
素	-8.3146
改	-8.31601
拒	-8.31621
刻	-8.3192
送	-8.32038
潛	-8.32067
短	-8.32092
薄	-8.32135
鬭	-8.32142
畧	-8.3237
於是	-8.32503
延	-8.32897
之時	-8.32997
控	-8.33022
楊	-8.33039
乾	-8.33053
魚	-8.33061
某	-8.33497
號令	-8.33973
奪	-8.34045
衣	-8.34599
算	-8.35043
察	-8.35096
徐	-8.35158
援	-8.35401
熟	-8.35532
良	-8.35661
迎	-8.35797
壁	-8.36174
油	-8.36176
不利	-8.36209
思	-8.36252
除	-8.36255
表	-8.36292
封	-8.36307
至於	-8.3635
黑	-8.36365
三十	-8.36613
之間	-8.36727
井	-8.36782
該	-8.36987
宫	-8.37409
豈	-8.37501
圓	-8.37534
赴	-8.37646
似	-8.37813
五十	-8.38022
副	-8.38096
寨	-8.38136
載	-8.38146
役	-8.38286
敢	-8.38295
之以	-8.38432
陸	-8.38645
軍中	-8.38812
十六	-8.38903
吏	-8.38968
微	-8.3899
鼔	-8.39055
策	-8.3919
矢	-8.39342
銃	-8.39412
息	-8.39437
無所	-8.39459
䕶	-8.39469
蜀	-8.39515
督	-8.39527
趨	-8.39616
探	-8.39979
練	-8.40363
遺	-8.4054
詔	-8.4057
溪	-8.4058
整	-8.40772
術	-8.40814
巳	-8.40926
登	-8.40949
學	-8.4098
繼	-8.41007
灰	-8.41035
决	-8.41159
兵船	-8.41181
不許	-8.41425
帶	-8.41637
助	-8.41708
泊	-8.41721
里	-8.42031
濶	-8.42278
争	-8.42306
如此	-8.42448
侯	-8.42586
枝	-8.42674
徃	-8.42733
銳	-8.42823
進退	-8.42827
恩	-8.42851
主將	-8.4323
花	-8.43253
語	-8.43355
震	-8.43394
蓋	-8.43453
養	-8.43455
雄	-8.43531
洋	-8.43532
把總	-8.43581
窮	-8.43738
會	-8.44027
鋒	-8.44104
八陣	-8.44625
羅	-8.4512
氏	-8.45143
識	-8.45243
量	-8.45763
符	-8.45789
臺	-8.4603
嶺	-8.46348
滅	-8.46731
羣	-8.46877
黒	-8.46914
謹	-8.46933
泥	-8.46955
城中	-8.47005
以上	-8.47026
情	-8.47075
曹	-8.47331
耶	-8.47589
叛	-8.47601
四面	-8.47933
一百	-8.48146
緩	-8.48702
之兵	-8.48777
不過	-8.49122
忠	-8.49246
孤	-8.4925
鳥	-8.49275
将	-8.49343
拔	-8.49415
校	-8.49547
棍	-8.49608
程	-8.49856
竿	-8.49871
寅	-8.49883
爾	-8.4998
忽	-8.49988
貫	-8.50044
藏	-8.5047
契丹	-8.50506
板	-8.50562
三十里	-8.50585
燕	-8.50677
用兵	-8.50962
故曰	-8.51064
也故	-8.51111
景	-8.51136
鳴	-8.51647
財	-8.51703
員	-8.51777
愛	-8.51782
突	-8.51969
之人	-8.52214
用之	-8.52275
工	-8.52299
化	-8.52327
住	-8.52428
城上	-8.52512
是謂	-8.52535
嵗	-8.52843
侵	-8.53015
暴	-8.53037
錢	-8.53199
諸軍	-8.53217
類	-8.53516
三日	-8.53545
授	-8.53627
誠	-8.53691
象	-8.53824
四十	-8.53931
丑	-8.53975
最	-8.54139
細	-8.54301
福	-8.54605
參	-8.5463
阻	-8.54655
雙	-8.5493
負	-8.55043
之道	-8.55175
上下	-8.55355
困	-8.55554
真	-8.55557
舍	-8.55604
辨	-8.55644
况	-8.55656
驅	-8.55917
體	-8.56286
撫	-8.56763
升	-8.56807
投	-8.56906
記	-8.56941
千里	-8.57137
之勢	-8.57501
酒	-8.57518
誘	-8.57535
之士	-8.57579
偽	-8.57597
潰	-8.57796
座	-8.57805
第二	-8.58249
於此	-8.58261
諸侯	-8.5827
料	-8.583
者皆	-8.58604
一日	-8.58662
運	-8.58695
隋	-8.5884
盖	-8.5886
繫	-8.58864
血	-8.58881
均	-8.5891
免	-8.58988
委	-8.59112
洞	-8.59335
揚	-8.59444
喜	-8.59509
市	-8.59515
召	-8.59589
的	-8.59712
費	-8.59751
官軍	-8.59972
奇	-8.6012
不可以	-8.60124
戒	-8.60191
詳	-8.60245
寡	-8.60355
太宗	-8.60432
是以	-8.60534
旁	-8.606
把	-8.60659
倭	-8.60732
經曰	-8.60838
團	-8.60927
達	-8.6096
掩	-8.60992
之類	-8.61069
禍	-8.61083
第	-8.61124
逼	-8.61353
預	-8.61474
巡	-8.61537
病	-8.61655
岸	-8.61745
無不	-8.61975
音	-8.62026
責	-8.62226
鑿	-8.62308
例	-8.6232
歴	-8.62329
闕	-8.62332
城下	-8.62636
北至	-8.63009
羽	-8.6305
警	-8.63283
只	-8.63574
永	-8.63609
性	-8.6366
牧	-8.63723
看	-8.63778
不及	-8.63881
格	-8.63948
萬人	-8.64236
呉	-8.64263
繩	-8.64348
呼	-8.6441
鹽	-8.64483
遁	-8.64654
愚	-8.65051
彊	-8.65082
蔽	-8.65113
募	-8.65382
才	-8.6556
充	-8.65602
查	-8.65728
刃	-8.65751
岀	-8.65795
奏	-8.66492
第三	-8.66527
朱	-8.66538
十萬	-8.66829
竒兵	-8.66903
十五	-8.67117
池	-8.67124
潮	-8.67142
幾	-8.67145
鈎	-8.67187
業	-8.67207
咸	-8.67293
者有	-8.67349
垂	-8.67351
攻之	-8.67902
奉	-8.68002
州界	-8.68303
弓弩	-8.68342
隘	-8.68449
職	-8.68576
干	-8.68623
尤	-8.68666
革	-8.68699
滿	-8.69123
而無	-8.69143
根	-8.69195
奮	-8.69215
編	-8.69435
輜重	-8.69489
太乙	-8.70111
規	-8.70122
端	-8.70148
昌	-8.70224
大敗	-8.7023
守禦	-8.70288
太白	-8.70308
局	-8.70575
䇿	-8.70581
荆	-8.70635
南北	-8.70838
倉	-8.7084
漸	-8.70948
牙	-8.70956
畫	-8.70962
華	-8.70984
猛	-8.70986
巧	-8.70998
聴	-8.7101
太湖	-8.71064
註曰	-8.71103
百里	-8.71444
墪	-8.71601
項	-8.71606
春	-8.71717
人之	-8.71744
吹	-8.71781
盜	-8.71857
人馬	-8.72048
其地	-8.72082
京	-8.72111
決	-8.72147
忌	-8.72168
囚	-8.72395
虛	-8.72403
捕	-8.7241
尅	-8.72476
夾	-8.72477
願	-8.72495
迫	-8.72877
富	-8.73224
種	-8.73231
乆	-8.73286
深入	-8.73418
西至	-8.73476
户	-8.73797
東南至	-8.73833
守城	-8.73935
特	-8.73949
米	-8.73962
酉	-8.7399
丈	-8.74002
我兵	-8.74048
隠	-8.74098
者斬	-8.74199
指揮	-8.74594
垜	-8.74701
一面	-8.74746
倍	-8.74746
惑	-8.74798
舎	-8.74802
紙	-8.74847
勒	-8.75159
妙	-8.75355
一千	-8.75368
羊	-8.75378
必有	-8.75384
裏	-8.75508
聖	-8.75551
強	-8.75568
佐	-8.75591
簡	-8.75597
逃	-8.75636
崑山	-8.75755
假	-8.76262
考	-8.76321
靜	-8.76347
天地	-8.76377
秋	-8.76406
遷	-8.76406
足以	-8.76464
聼	-8.76478
宼	-8.76511
宣	-8.77006
源	-8.77114
羌	-8.77144
之處	-8.7765
有所	-8.77806
飲	-8.77894
說	-8.77975
愈	-8.77977
而來	-8.77993
䧟	-8.78007
器械	-8.78025
㧞	-8.78026
驗	-8.78026
貪	-8.78035
淺	-8.78046
適	-8.78048
雷	-8.78051
劍	-8.78057
材	-8.78058
房	-8.7808
骨	-8.78123
靈	-8.78374
七十里	-8.78454
寳	-8.78597
賜	-8.78737
抽	-8.78745
昔	-8.78826
不如	-8.78885
孫	-8.78906
二人	-8.79174
怯	-8.79571
臨陣	-8.79571
遲	-8.796
祭	-8.79615
麻	-8.79618
損	-8.79622
伯	-8.79637
軍士	-8.79638
額	-8.79694
東西	-8.79729
大小	-8.7973
監	-8.80043
泉	-8.80149
駐	-8.80289
亥	-8.80503
而為	-8.80528
壯	-8.80619
司馬	-8.80654
將士	-8.80774
尺	-8.80791
而進	-8.80841
十八	-8.80864
閉	-8.80973
鬬	-8.81044
旌旗	-8.81055
戌	-8.81227
本朝	-8.81263
柱	-8.81343
茍	-8.81354
焚	-8.81384
遼	-8.8144
㕘將	-8.81491
其下	-8.81633
敵之	-8.81793
柵	-8.82062
狹	-8.82104
罷	-8.82121
暗	-8.82126
毛	-8.82251
出入	-8.82593
六十里	-8.82835
罰	-8.82888
浮	-8.82895
承	-8.82946
御	-8.82985
不足	-8.83392
束	-8.83607
韓	-8.83695
吳淞江	-8.83736
一曰	-8.83772
遠	-8.83782
商	-8.8389
姦	-8.83927
地方	-8.83931
㓙	-8.8396
之後	-8.84088
十九	-8.84201
衡	-8.8435
單	-8.84438
旋	-8.84552
蕃	-8.84575
葉	-8.84597
製	-8.84617
架	-8.84689
屋	-8.84701
蘇	-8.8479
不然	-8.85077
竒正	-8.85264
之外	-8.85348
一員	-8.85403
又曰	-8.85442
卿	-8.85529
剛	-8.85553
慶	-8.85561
斯	-8.85563
㝷	-8.85565
玉	-8.85578
午	-8.85695
𤣥	-8.86356
懸	-8.8641
庶	-8.86445
奸	-8.86446
紀	-8.86451
寒	-8.86532
一隊	-8.86542
十四	-8.8717
孝	-8.87241
凶	-8.87327
章	-8.87349
補	-8.8736
低	-8.87365
而行	-8.87994
斤	-8.88006
刺	-8.88138
十三	-8.88143
盤	-8.88203
逸	-8.88207
休	-8.8823
晝	-8.8854
縣界	-8.88692
烽	-8.88868
匈奴	-8.89077
黨	-8.89125
昏	-8.89222
三尺	-8.89411
敎	-8.89569
鄭	-8.89919
巡司	-8.89993
裝	-8.90012
撥	-8.90021
之用	-8.90028
疲	-8.90048
屈	-8.90115
郭	-8.90187
偏	-8.90257
太倉	-8.90352
使人	-8.90385
孰	-8.90611
苦	-8.909
旣	-8.90923
藝	-8.90943
寶	-8.91032
狀	-8.91243
五百	-8.91305
温	-8.9179
省	-8.91822
注	-8.91849
厯	-8.91886
納	-8.91887
突厥	-8.91904
名曰	-8.9196
虞	-8.92064
二十里	-8.92592
儀	-8.92595
一時	-8.92722
式	-8.92761
肉	-8.92767
弊	-8.9278
試	-8.92794
之事	-8.92795
輔	-8.92799
辭	-8.92803
驕	-8.92894
眼	-8.92921
寛	-8.93135
提	-8.93301
出戰	-8.93395
松	-8.9344
之中	-8.93475
津	-8.93674
穿	-8.93698
包	-8.93734
壕	-8.93734
卯	-8.93758
級	-8.94118
切	-8.94175
三千	-8.94407
層	-8.94424
五十里	-8.94429
戍	-8.94452
篇	-8.9456
李靖	-8.94578
皇	-8.94592
大軍	-8.94611
激	-8.94683
疋	-8.94688
其後	-8.94798
西北至	-8.94853
俟	-8.94987
百人	-8.95005
天目	-8.95123
振	-8.95143
險阻	-8.95162
設伏	-8.95289
四十里	-8.95324
吕	-8.95415
水陸	-8.95446
汝	-8.95534
仲	-8.95535
倒	-8.95574
哨官	-8.95599
畨	-8.95613
大將軍	-8.95648
𫝊	-8.95684
弗	-8.95689
客大將	-8.95752
六十	-8.9609
相去	-8.96112
陣法	-8.96159
五里	-8.9631
在於	-8.96351
樹	-8.96531
蘇州	-8.96565
掌	-8.96584
肅	-8.96617
缺	-8.96628
雞	-8.9663
撃	-8.96656
也夫	-8.96732
狼	-8.96749
禦之	-8.96876
從之	-8.96922
往來	-8.9707
以備	-8.97127
主人	-8.97285
乙	-8.97363
不出	-8.97482
其勢	-8.97493
限	-8.97504
獸	-8.97565
辛	-8.9758
煙	-8.97589
隔	-8.97598
婁	-8.9765
盈	-8.97678
巢	-8.97731
五尺	-8.97763
紅	-8.97785
千人	-8.97795
父	-8.98475
完	-8.98561
斬之	-8.98576
斜	-8.98584
塗	-8.986
卑	-8.98604
靖	-8.98774
若干	-8.98777
入城	-8.98805
誤	-8.98904
節制	-8.99121
輒	-8.99544
了	-8.99568
𨽻	-8.99596
饑	-8.99602
我軍	-8.99604
斬首	-8.99651
東北至	-8.99874
不用	-9.00047
女	-9.00122
八十	-9.00128
二千	-9.00552
捷	-9.00597
底	-9.00631
䝉	-9.00656
裹	-9.00679
為一	-9.00689
吐蕃	-9.00697
江南	-9.00907
所在	-9.01041
循	-9.016
感	-9.01642
朝廷	-9.01655
孟	-9.01699
二十四	-9.01937
四尺	-9.02075
百步	-9.02163
流星	-9.02285
可擊	-9.02516
孔	-9.02561
扇	-9.02611
室	-9.02629
溝	-9.02679
略	-9.02684
栁	-9.02687
晝夜	-9.02723
錯	-9.02754
擺	-9.02761
十一	-9.02927
一兩	-9.03149
一名	-9.03277
而去	-9.03412
遊	-9.03557
併	-9.03583
必勝	-9.0363
廟	-9.03673
㓂	-9.0372
妄	-9.03724
幕	-9.03788
者不	-9.04067
邀	-9.0444
静	-9.04722
湯	-9.04726
押	-9.04762
仰	-9.0477
露	-9.04892
篇第	-9.04899
出軍	-9.05067
冬	-9.05485
固守	-9.05627
為竒	-9.0575
沈	-9.05803
劉家河	-9.05816
五千	-9.0582
塵	-9.05853
知其	-9.05871
四方	-9.05878
在外	-9.0599
之日	-9.06044
矢石	-9.06481
遏	-9.06557
技	-9.06774
鐡	-9.06846
慎	-9.06856
淮	-9.0687
怨	-9.06895
十七	-9.06896
係	-9.069
飢	-9.06927
二丈	-9.06951
水兵	-9.07151
也若	-9.07179
之數	-9.07355
得其	-9.07511
蠻	-9.07761
國家	-9.07867
常熟	-9.0794
硝	-9.08043
雪	-9.08048
喪	-9.08096
賞罰	-9.08113
十里	-9.08256
城外	-9.08378
守之	-9.08577
一尺	-9.08657
不同	-9.08683
節度	-9.08698
傍	-9.08912
班	-9.08974
􁀙	-9.09024
諭	-9.09028
頃	-9.0907
燈	-9.09076
距	-9.09107
又有	-9.09387
吏士	-9.09435
火器	-9.09524
挑	-9.09859
短兵	-9.10016
超	-9.10129
銅	-9.1014
渠	-9.10216
族	-9.10245
弦	-9.10338
律	-9.10344
之利	-9.10431
暈	-9.10483
其衆	-9.10805
駕	-9.11212
排	-9.11229
鬼	-9.1125
柴	-9.11271
蘇松	-9.11276
幸	-9.11301
㨗	-9.11303
兵法	-9.11326
效	-9.11334
毁	-9.11354
勁	-9.11369
聖人	-9.11468
馬軍	-9.11486
箇	-9.11508
本府	-9.11791
腹	-9.12165
縣城	-9.12253
洛	-9.12366
之術	-9.12425
塹	-9.12473
百姓	-9.12493
膽	-9.12558
之師	-9.12776
為正	-9.1279
者必	-9.12832
率兵	-9.12904
否	-9.13031
違	-9.13043
總管	-9.13104
剪	-9.13227
嘉	-9.13358
太宗曰	-9.13371
地形	-9.13388
捍	-9.13495
甘	-9.13538
三年	-9.13548
艦	-9.13561
大夫	-9.1358
返	-9.13581
訖	-9.13592
其中	-9.13597
涉	-9.13612
憲	-9.13629
割	-9.13644
濠	-9.13686
摧	-9.13705
松江	-9.13707
二年	-9.13846
不動	-9.13879
者為	-9.14078
二里	-9.14242
何也	-9.14313
一里	-9.14317
伺	-9.1434
不勝	-9.14382
出兵	-9.14403
風雨	-9.14406
天下之	-9.14471
魁	-9.14541
賦	-9.14715
泰	-9.14747
乏	-9.14754
丘	-9.14763
帳	-9.14799
輙	-9.14812
兵士	-9.14855
蕩	-9.14872
車騎	-9.14889
必敗	-9.15034
形勢	-9.15137
懷	-9.15389
杜	-9.15592
其心	-9.15638
認	-9.15881
惠	-9.15928
唯	-9.15949
頓	-9.15951
踰	-9.15962
准	-9.16013
雲氣	-9.16706
汁	-9.16903
各有	-9.16946
史	-9.16969
麾	-9.16976
縁	-9.17036
徙	-9.1708
恭	-9.1711
國之	-9.17188
㣲	-9.17191
主算	-9.17192
要害	-9.1736
有兵	-9.17655
四百	-9.17751
隻	-9.17854
三分	-9.17993
截	-9.1817
庚	-9.18207
城内	-9.18227
壓	-9.18247
堰	-9.18257
魯	-9.18274
専	-9.18274
早	-9.18278
騎兵	-9.18317
庸	-9.18357
有餘	-9.18396
霧	-9.1843
島	-9.18531
光武	-9.18608
大戰	-9.19088
以其	-9.19141
之際	-9.19234
九十里	-9.19328
之計	-9.19494
柔	-9.19504
塲	-9.19526
曉	-9.19532
捉	-9.19538
巨	-9.19564
増	-9.19565
一枝	-9.19731
變化	-9.19749
虚實	-9.19805
不必	-9.2029
之制	-9.20514
烟	-9.20561
城門	-9.20591
母	-9.20689
庭	-9.20723
殘	-9.20762
内外	-9.20776
賊至	-9.20788
隊長	-9.20796
傾	-9.2083
竊	-9.2083
五寸	-9.20856
刼	-9.20866
曹操	-9.20878
𦂳	-9.20926
枕	-9.20974
討之	-9.21102
先鋒	-9.21132
死者	-9.21217
叅將	-9.21272
險要	-9.21445
雖有	-9.2147
游	-9.21537
一丈	-9.21545
州縣	-9.21625
第四	-9.21661
營中	-9.21724
没	-9.21756
七十	-9.22003
竭	-9.22025
怠	-9.22026
寸	-9.22029
霸	-9.22031
俗	-9.22064
其國	-9.22078
礮	-9.22116
立定	-9.2213
之衆	-9.22231
五行	-9.22309
不戰	-9.22743
旗幟	-9.22818
氣如	-9.23158
磨	-9.23199
也今	-9.23209
頗	-9.23294
墜	-9.23333
盧	-9.23334
庫	-9.23375
盗	-9.23447
引兵	-9.2351
假令	-9.23613
古之	-9.23617
將帥	-9.2362
之心	-9.2376
在前	-9.2377
握竒	-9.2379
三人	-9.23838
祖	-9.24229
邨	-9.24454
衰	-9.24512
靣	-9.24562
究	-9.24563
扼	-9.24577
配	-9.24592
之賊	-9.246
農	-9.24606
響	-9.2468
尖	-9.24731
分為	-9.25125
挾	-9.25232
有功	-9.25439
衞	-9.2559
三月	-9.25607
隆	-9.25711
洪	-9.25761
拳	-9.25833
梯	-9.25836
昭	-9.25867
演	-9.25873
乞	-9.25917
敬	-9.25947
亮	-9.25961
遮	-9.25976
五人	-9.26093
元年	-9.26167
率衆	-9.26175
如何	-9.26182
古人	-9.26185
沿海	-9.2621
幽州	-9.26221
隂陽	-9.26222
而出	-9.26616
精兵	-9.26698
二尺	-9.2683
畜	-9.27053
殊	-9.27134
誰	-9.27136
郎	-9.27157
蕭	-9.27161
濬	-9.27174
擲	-9.2718
稽	-9.27196
屢	-9.27232
標	-9.27269
縣治	-9.27359
念	-9.274
辰星	-9.27454
亦可	-9.27554
使其	-9.27643
主大將	-9.27887
之於	-9.28069
應之	-9.28121
之患	-9.28175
嘉定	-9.28226
崇	-9.28287
巴	-9.28466
夘	-9.28485
牆	-9.28498
朔	-9.28503
擁	-9.28522
美	-9.28563
序	-9.28566
險要説	-9.28571
十餘	-9.28614
分兵	-9.28705
臨敵	-9.28862
駐隊	-9.28898
旅	-9.29144
中有	-9.29205
以防	-9.29286
百户	-9.29331
必死	-9.29484
二曰	-9.29529
蒼	-9.29768
豐	-9.29778
讓	-9.29785
戮	-9.29806
行軍	-9.29812
逺近	-9.29827
拒之	-9.29827
迭	-9.29894
勝負	-9.29896
付	-9.29902
籍	-9.29905
歲	-9.29943
奚	-9.29947
今日	-9.29956
疎	-9.29971
鞍	-9.29977
之氣	-9.30056
中國	-9.3007
數十	-9.30173
不相	-9.30261
二百里	-9.30289
亦不	-9.30345
十人	-9.30373
天子	-9.30399
與敵	-9.30399
隊伍	-9.30475
繞	-9.30868
櫓	-9.31116
顯	-9.31164
寜	-9.31188
汛	-9.31203
匿	-9.31233
誓	-9.31249
懐	-9.31252
榮	-9.3126
瓦	-9.31301
勸	-9.31322
故也	-9.31335
一十	-9.31372
韓信	-9.31394
以待	-9.3151
賊舟	-9.31635
海防	-9.31662
步騎	-9.31878
大敗之	-9.32136
長鎗	-9.32237
斧	-9.32248
金山	-9.32279
一斤	-9.32308
州刺史	-9.32408
之上	-9.32414
臨時	-9.32476
跳	-9.3252
胥	-9.32539
牢	-9.32567
貨	-9.32605
是故	-9.32622
疏	-9.32631
叔	-9.32638
忘	-9.32647
出於	-9.32648
挫	-9.32651
康	-9.32654
詭	-9.3266
僅	-9.32683
鹿	-9.32685
渾	-9.32687
未嘗	-9.32692
爵	-9.32709
匹	-9.32715
釋	-9.32725
不見	-9.32984
大勝	-9.33086
皆有	-9.33109
不拘	-9.33256
三萬	-9.33308
防守	-9.33487
予	-9.33916
香	-9.33971
紹	-9.33976
粟	-9.34011
柄	-9.34034
述	-9.34035
煩	-9.3406
吴	-9.34065
減	-9.34065
諸葛亮	-9.34102
䡴	-9.34123
步兵	-9.34148
□	-9.34173
者以	-9.34188
針	-9.34222
覺	-9.34382
六尺	-9.34447
百五十里	-9.3457
築城	-9.34623
因而	-9.34663
者所以	-9.348
兵馬	-9.35025
五十人	-9.351
向前	-9.3522
劫	-9.35282
坤	-9.35313
零	-9.35389
筒	-9.35389
豫	-9.35397
三百里	-9.35405
之道也	-9.35427
囘	-9.35438
尊	-9.35499
隙	-9.35503
慢	-9.35511
奇兵	-9.35524
佯	-9.35541
貢	-9.3555
薪	-9.35569
烈	-9.35595
途	-9.35597
之情	-9.35627
五星	-9.35681
將兵	-9.35811
挑戰	-9.35824
則為	-9.36054
地利	-9.3618
攻其	-9.3632
火藥	-9.36578
正月	-9.36619
者亦	-9.36719
窺	-9.36878
托	-9.36881
抗	-9.36889
獻	-9.36895
亦有	-9.36929
欽	-9.36933
浪	-9.36936
分合	-9.36961
墓	-9.36965
停	-9.36967
擅	-9.36968
逢	-9.36971
隱	-9.36985
亟	-9.36986
脱	-9.37027
黄帝	-9.37185
千餘人	-9.37596
其法	-9.37621
利害	-9.37751
賊衆	-9.38053
應援	-9.38106
後漢	-9.38293
祐	-9.38329
憚	-9.3834
儲	-9.38354
録	-9.38361
縛	-9.38363
燧	-9.38374
黎	-9.38432
華亭	-9.38559
十五里	-9.38601
曹公	-9.3866
三曰	-9.38669
戸	-9.38806
小門	-9.38986
次之	-9.39007
旦	-9.39149
三里	-9.39186
聞之	-9.39316
僧	-9.39334
填	-9.39758
腰	-9.39772
凖	-9.39845
價	-9.39856
典	-9.39911
狗	-9.39911
波	-9.39913
秘	-9.39914
賀	-9.39916
𤼵	-9.39931
側	-9.39945
一軍	-9.39956
下營	-9.3996
灾	-9.39985
日辰	-9.40167
以此	-9.40745
不便	-9.40805
信地	-9.40816
其次	-9.40923
遇敵	-9.41051
兵法曰	-9.41086
軍門	-9.41152
堂	-9.41236
亭	-9.41291
不和	-9.41361
惜	-9.41374
貯	-9.41382
穴	-9.41393
彭	-9.41395
必先	-9.41423
藉	-9.41424
鳥銃	-9.4145
卧	-9.41468
岳	-9.41514
福船	-9.41655
不備	-9.4169
避之	-9.4204
隅	-9.42722
隴	-9.42829
戊	-9.42903
障	-9.42904
你	-9.42923
遍	-9.42965
洪武	-9.42973
太公	-9.42978
太祖	-9.43012
段	-9.43017
片	-9.43026
殺之	-9.43029
貧	-9.4303
濕	-9.43034
鄰	-9.4306
可用	-9.43215
肯	-9.43307
也凡	-9.43503
孫子	-9.43632
甲子	-9.43844
灌	-9.43845
崇明	-9.43978
於外	-9.44037
維	-9.4421
擾	-9.44332
蒲	-9.44333
柘林	-9.44335
籌	-9.444
悦	-9.44436
潜	-9.44496
禄	-9.4454
熒惑	-9.44557
曾	-9.44558
齒	-9.44665
兵家	-9.44793
人皆	-9.44828
以來	-9.44889
十斤	-9.44991
長短	-9.45043
第五	-9.45133
測	-9.45246
日暈	-9.45327
不意	-9.45512
戰者	-9.45612
沿	-9.45631
何謂	-9.45639
戰隊	-9.45707
與賊	-9.45713
山川	-9.45765
沙船	-9.45779
旬	-9.45782
與戰	-9.45825
暮	-9.45829
營陣	-9.4588
鞭	-9.46026
搗	-9.46055
砂	-9.46055
坑	-9.46082
邉	-9.46082
借	-9.46082
劒	-9.4611
斂	-9.46134
一百二十	-9.46145
博	-9.46167
戈	-9.46181
披	-9.46242
人也	-9.46311
武侯	-9.46334
者可	-9.46341
江隂	-9.46445
日月	-9.46488
其道	-9.46496
則有	-9.46612
其將	-9.4669
七日	-9.47056
三兩	-9.47065
知縣	-9.4736
偃	-9.47416
牽	-9.47525
膏	-9.47564
握	-9.47606
漫	-9.47644
漏	-9.47678
出其不意	-9.47679
採	-9.47694
圗	-9.47694
粗	-9.477
蓄	-9.47717
混	-9.47733
凌	-9.47761
飽	-9.47769
之義	-9.47785
抛	-9.47795
以致	-9.47871
千餘	-9.47903
髙祖	-9.47912
舉兵	-9.47934
不明	-9.48021
有警	-9.48107
手執	-9.48136
着	-9.48219
救之	-9.48281
以待之	-9.48346
以下	-9.48347
數千	-9.48353
西方	-9.48485
而下	-9.48575
增	-9.49001
浙	-9.49008
為主	-9.49092
攔	-9.49203
豆	-9.49208
金人	-9.49316
間道	-9.49342
詣	-9.49358
北門	-9.49365
者非	-9.49366
覘	-9.49376
邪	-9.49395
捕盜	-9.49432
裂	-9.49457
四曰	-9.49458
抱	-9.49491
登岸	-9.49514
緩急	-9.49564
鼻	-9.49593
其間	-9.49629
之所以	-9.49636
弓兵	-9.49935
因其	-9.50158
西南至	-9.50251
八十里	-9.50467
二萬	-9.50485
人心	-9.50537
上海	-9.5055
而還	-9.50643
二百五十	-9.50653
曰吾	-9.50679
掲	-9.50694
不可勝	-9.50945
拿	-9.50957
肆	-9.50958
鍾	-9.50971
仗	-9.50987
紫	-9.51015
姑	-9.51021
談	-9.51024
獵	-9.51033
撓	-9.51038
壊	-9.51049
句	-9.5106
弛	-9.51071
卓	-9.51071
進止	-9.51085
觧	-9.51085
碎	-9.5109
臂	-9.51108
茅	-9.5111
戴	-9.51136
法曰	-9.51183
何以	-9.51216
營壘	-9.51297
而復	-9.51299
之名	-9.51397
則無	-9.5148
太公曰	-9.51503
破之	-9.51525
設備	-9.51537
左手	-9.51799
相應	-9.51832
者勝	-9.52049
丹	-9.52146
衆寡	-9.52163
死地	-9.52181
將官	-9.52253
渭	-9.52291
必須	-9.52293
件	-9.5231
八百	-9.52339
之具	-9.52454
三十六	-9.52533
茂	-9.52677
沮	-9.52691
峽	-9.52761
墻	-9.52772
尉	-9.52811
取之	-9.52836
也然	-9.52954
上有	-9.53049
萬一	-9.5305
數萬	-9.53174
受敵	-9.53181
艘	-9.53362
港口	-9.53392
賊若	-9.53439
各船	-9.5381
枚	-9.53821
殿	-9.53993
棚	-9.54059
不足以	-9.54088
二十五	-9.54157
煎	-9.54232
右手	-9.54287
十日	-9.54332
囊	-9.54386
禽	-9.54391
遽	-9.54391
驛	-9.54414
悍	-9.54421
累	-9.54427
謝	-9.54439
粮	-9.54444
掛	-9.54444
嘉靖	-9.54446
瀆	-9.54453
閲	-9.54473
毅	-9.54474
徴	-9.54508
妖	-9.5455
武藝	-9.54623
金鼓	-9.54733
漢王	-9.55029
東門	-9.55253
百萬	-9.55312
而不能	-9.5545
頭目	-9.55506
吳江	-9.55521
南門	-9.55525
春秋時	-9.5559
居民	-9.55714
五分	-9.55761
其事	-9.55943
不從	-9.56031
𢎞	-9.56118
味	-9.56141
艾	-9.56144
印	-9.56163
擄	-9.56165
収	-9.56167
軍法	-9.56169
釘	-9.56195
矣然	-9.56197
勵	-9.56199
澗	-9.56216
災	-9.56242
桓	-9.56243
祥	-9.56263
欺	-9.56274
忍	-9.56275
幡	-9.56284
工食	-9.56311
浙江	-9.56372
里北至	-9.56537
之内	-9.56538
此謂	-9.5657
前後左右	-9.56595
在乎	-9.56895
成功	-9.57157
之功	-9.57203
正兵	-9.57233
十歩	-9.57413
此之謂	-9.57443
地勢	-9.57459
内地	-9.57492
遣將	-9.57673
一萬	-9.57707
始擊將	-9.57811
墩	-9.57842
桿	-9.5787
癸	-9.57878
追之	-9.57896
歡	-9.57908
俘	-9.57915
春秋	-9.57918
斫	-9.5797
常以	-9.57971
綿	-9.58003
鮮	-9.58006
兒	-9.58009
戰則	-9.58028
屠	-9.58029
賤	-9.58064
京口	-9.58094
扶	-9.58098
冀	-9.58106
七寸	-9.58173
一帶	-9.58181
上來	-9.58276
藏身	-9.58409
或曰	-9.5843
五曰	-9.58567
黄旗	-9.5865
太守	-9.5872
軍行	-9.58761
下有	-9.58825
相持	-9.58877
有五	-9.58889
輕騎	-9.58933
軸	-9.59004
五日	-9.59188
行伍	-9.59363
之變	-9.59476
待其	-9.59564
卦	-9.59649
蔡	-9.59687
嗣	-9.5969
熱	-9.59698
粉	-9.59707
較	-9.59725
滚	-9.59745
虞候	-9.59756
純	-9.5978
耕	-9.5978
叢	-9.59784
徵	-9.59799
頂	-9.59812
一分	-9.59816
傅	-9.59834
泄	-9.59834
犬	-9.59838
袋	-9.59847
部落	-9.59847
敝	-9.59861
薛	-9.59884
戰勝	-9.59913
留都	-9.59923
觸	-9.59926
值	-9.5993
都督	-9.59976
縱横	-9.60039
砦東至	-9.60352
百九十	-9.60496
靖曰	-9.60773
糧道	-9.60896
分野	-9.60991
戰而	-9.61175
二分	-9.61189
水戰	-9.61279
而用之	-9.61304
有竒	-9.61362
明日	-9.61385
五月	-9.61461
腿	-9.61474
在内	-9.61516
莊	-9.61527
爛	-9.61535
廵	-9.6155
駭	-9.6155
如有	-9.61552
劄	-9.61555
袁	-9.61581
臯	-9.6159
閘	-9.61597
派	-9.61607
四月	-9.61611
跨	-9.61613
賴	-9.61625
賈	-9.61631
峻	-9.61636
沉	-9.61636
蒙	-9.61665
尹	-9.61666
繁	-9.61673
拽	-9.6168
衢	-9.6168
福山	-9.61686
竟	-9.61693
黄浦	-9.61702
狐	-9.61721
課	-9.61777
行營	-9.61885
搖	-9.61901
河北	-9.61985
武帝	-9.62086
三沙	-9.62211
曰今	-9.62212
一凡	-9.62215
其形	-9.62268
四人	-9.62307
江北	-9.6238
四兩	-9.62581
知之	-9.62605
大水	-9.62757
拘	-9.62842
一箇	-9.63175
藤	-9.63254
有事	-9.63259
沒	-9.63266
乘之	-9.63298
創	-9.6343
巷	-9.63444
浸	-9.63454
不可不	-9.63458
卜	-9.63478
皆可	-9.63489
雍	-9.63499
炭	-9.63515
四年	-9.63517
咎	-9.63522
厭	-9.63537
善用兵者	-9.63555
希	-9.63558
属	-9.6357
迷	-9.63628
與之	-9.63644
中央	-9.63669
倭寇	-9.63685
喇叭	-9.63736
併力	-9.63747
連坐	-9.63771
先是	-9.63878
未有	-9.63966
丹陽	-9.64121
哨至	-9.64128
木為	-9.64233
百餘	-9.64246
制之	-9.64333
蘭	-9.64336
荆州	-9.64343
者即	-9.64439
總兵	-9.64519
之要	-9.6452
制勝	-9.64585
不入	-9.64602
綏	-9.64742
對曰	-9.64794
而至	-9.64799
七尺	-9.648
互	-9.6482
首尾	-9.64845
無窮	-9.65002
由是	-9.651
季	-9.65202
埋	-9.65303
多少	-9.65304
大破之	-9.65306
械	-9.65383
騰	-9.65389
冒	-9.65395
網	-9.65416
護	-9.65426
寺	-9.65429
辱	-9.65431
燭	-9.6544
十餘萬	-9.65451
盟	-9.65452
迴	-9.65454
迹	-9.65456
眞	-9.65459
䑸	-9.65461
續	-9.65464
殆	-9.6547
歟	-9.6548
紛	-9.65489
搜	-9.65508
遇賊	-9.65525
亞	-9.6555
軌	-9.6556
驟	-9.6558
聞賊	-9.65585
鉛子	-9.656
鏃	-9.65691
不通	-9.65714
大兵	-9.65766
一宫	-9.65804
之理	-9.65805
為用	-9.6582
青龍	-9.65853
賊船	-9.65933
山東	-9.66005
十餘里	-9.66058
草木	-9.66191
各兵	-9.662
大陣	-9.66312
月暈	-9.66327
數百	-9.66475
四里	-9.66597
大潰	-9.66633
天時	-9.67074
一陣	-9.67228
棒	-9.67274
村	-9.67281
王師	-9.67344
啓	-9.67353
徹	-9.67361
桑	-9.67365
亷	-9.67368
撃之	-9.67371
竈	-9.67375
鳯	-9.6739
躍	-9.67394
荒	-9.67405
訓	-9.67409
鉦	-9.67413
不可用	-9.67426
恤	-9.67439
艮	-9.67442
勤	-9.67448
龜	-9.67458
俾	-9.67471
跡	-9.67488
我則	-9.67644
者當	-9.6768
變為	-9.6769
亦如之	-9.6769
孫武	-9.6775
寳山	-9.67824
無以	-9.67934
此為	-9.67964
國朝	-9.68066
郡城	-9.68087
道路	-9.68483
者則	-9.6849
有三	-9.68734
五百人	-9.68739
六月	-9.68837
長一丈	-9.68843
二月	-9.68866
攻守	-9.68926
而入	-9.68937
無事	-9.69049
壬	-9.69061
􁁊	-9.69066
曽	-9.69171
瘡	-9.69196
已上	-9.6921
吐	-9.69212
不宜	-9.69237
汲	-9.69307
風雲	-9.6932
戰陣	-9.69331
穀	-9.69363
遵	-9.69402
纔	-9.69406
壞	-9.69416
偷	-9.6942
辯	-9.69424
盞	-9.6943
番	-9.69433
梅	-9.69439
奈何	-9.69453
翰	-9.69454
儒	-9.69459
握機	-9.69466
郊	-9.69479
釁	-9.69551
百餘里	-9.69577
千六百	-9.69588
不在	-9.69713
君子	-9.69726
不為	-9.69801
十里西至	-9.69882
居中	-9.69888
不至	-9.70246
可得	-9.70267
九宫	-9.70326
不測	-9.70377
大海	-9.70555
山林	-9.70727
百二十里	-9.70867
改為	-9.71109
大門	-9.71191
人主	-9.71292
洗	-9.71309
彈	-9.71346
在我	-9.71377
獠	-9.7138
檄	-9.71413
署	-9.71421
廬	-9.71434
倚	-9.71447
活	-9.71452
拍	-9.71469
勾	-9.71485
憑	-9.71489
阜	-9.71497
履	-9.715
壤	-9.71503
董	-9.71507
虹	-9.7153
肩	-9.71554
甲寅	-9.71616
三丈	-9.71641
泣	-9.71642
一體	-9.71679
之國	-9.71826
火箭	-9.71906
豈能	-9.72062
各以	-9.72075
智者	-9.72075
用此	-9.72223
無錫	-9.72273
兵以	-9.72275
未可	-9.72297
而擊之	-9.72429
八尺	-9.72489
軍營	-9.72504
今之	-9.7256
無備	-9.72807
戰於	-9.72876
二兩	-9.72996
每一	-9.72996
之象	-9.7308
後世	-9.73109
以便	-9.73117
幽	-9.73252
法也	-9.73317
襄	-9.73401
不得已	-9.73413
取勝	-9.73446
舞	-9.73453
輸	-9.73457
抑	-9.73529
另	-9.7353
岡	-9.73533
辦	-9.73535
輿	-9.73544
冠	-9.73556
抄	-9.73559
飾	-9.73565
籠	-9.73575
黃	-9.73575
奴	-9.73616
雲梯	-9.73624
七里	-9.73748
挽	-9.7377
兩旁	-9.73919
海中	-9.7397
耳目	-9.74038
陸兵	-9.7404
之機	-9.74064
車輪	-9.74207
自然	-9.74216
為上	-9.74229
即以	-9.74352
十月	-9.74416
又以	-9.7446
長洲	-9.74543
手足	-9.74742
領兵	-9.75004
之意	-9.75193
叅	-9.75208
悔	-9.75458
百餘人	-9.75506
呈	-9.75558
料敵	-9.75602
僕	-9.75614
健	-9.75622
千户	-9.75641
彌	-9.75643
氊	-9.75648
供	-9.75675
靡	-9.7569
淵	-9.75692
百四十	-9.75707
匠	-9.75725
令人	-9.75726
様	-9.75734
席	-9.75734
䑕	-9.75743
而上	-9.75759
基	-9.75765
西門	-9.7578
河東	-9.7579
嘉興	-9.75795
削	-9.75816
嘴	-9.75848
弓矢	-9.75886
屯田	-9.75898
萬物	-9.76072
四陣	-9.76074
靖江	-9.76089
為客	-9.76111
吾軍	-9.76136
取其	-9.76209
中間	-9.76237
之南	-9.76369
里西至	-9.76381
也此	-9.76394
六百	-9.76398
牛馬	-9.76438
盜賊	-9.77146
驍	-9.77155
衝兵	-9.77161
暇	-9.77202
是為	-9.77293
得之	-9.77322
在後	-9.77338
七月	-9.77344
金星	-9.77381
之戰	-9.77561
居前	-9.77651
丸	-9.77653
糞	-9.77706
不止	-9.77719
彦	-9.77724
不絶	-9.7773
麥	-9.77746
筏	-9.77766
之權	-9.77781
勉	-9.77781
殷	-9.77782
影	-9.77788
前軍	-9.77793
狄	-9.77798
蓬	-9.778
水草	-9.77808
閃	-9.77811
掣	-9.77811
者此	-9.77815
猪	-9.77839
纛	-9.77844
遥	-9.77857
厥	-9.77866
館	-9.77871
哭	-9.77878
帯	-9.77888
陛下	-9.7791
展	-9.77911
訓練	-9.77933
題	-9.77938
竇	-9.77938
其言	-9.78046
二寸	-9.78144
之形	-9.78176
百八十里	-9.78347
角聲	-9.78588
一半	-9.78684
副使	-9.78821
居之	-9.7888
交戰	-9.78883
一旦	-9.78918
出海	-9.78991
而不知	-9.79031
不復	-9.79152
説曰	-9.79173
堪	-9.79196
六里	-9.79212
子曰	-9.79238
太倉州	-9.79385
後魏	-9.79545
其餘	-9.79603
泖	-9.79617
之民	-9.7991
添	-9.79942
裕	-9.79945
痛	-9.79945
慕容	-9.79951
七百	-9.79956
税	-9.79965
愬	-9.7997
亦無	-9.79975
樵	-9.79988
剋	-9.79999
諜	-9.80001
餉	-9.80006
浚	-9.80009
仙	-9.80012
伊	-9.80012
芻	-9.80013
壅	-9.80028
豪	-9.80047
穰苴	-9.80052
韋	-9.80056
拜	-9.80057
方陣	-9.80067
捨	-9.80073
輩	-9.8008
歇	-9.8008
舖	-9.80085
懿	-9.80089
饒	-9.80092
一聲	-9.80093
肥	-9.80097
之徒	-9.80123
勾陳	-9.8013
掘	-9.80142
左右廂	-9.80143
月蝕	-9.80338
漆	-9.80343
也其	-9.804
縱火	-9.80427
有二	-9.80437
建徳	-9.80517
兩翼	-9.80625
三面	-9.80666
生擒	-9.80696
賊來	-9.80707
奮擊	-9.80879
凡戰	-9.8088
海洋	-9.80947
必由	-9.80978
備之	-9.81017
八人	-9.81166
行陣	-9.81244
為一隊	-9.81291
大江	-9.81314
對敵	-9.8139
第六	-9.81401
而退	-9.81509
或問	-9.81703
平時	-9.81785
而不可	-9.81836
乃可	-9.81982
陣也	-9.81991
后	-9.82102
弟	-9.82119
觀其	-9.82178
幷	-9.82218
科	-9.82276
地道	-9.82295
凉	-9.823
換	-9.82309
隄	-9.82317
閣	-9.82328
脩	-9.82339
而前	-9.82347
阿	-9.82349
灣	-9.82357
漕	-9.82367
洩	-9.82367
訪	-9.82378
邦	-9.82383
間諜	-9.8243
扣	-9.82431
三四	-9.82435
八寸	-9.82542
五色	-9.82657
强弱	-9.82695
觀之	-9.82769
之故	-9.82807
白虎	-9.82882
莫不	-9.8292
示之	-9.82952
一百七十	-9.82992
十步	-9.83015
答	-9.83027
為天	-9.83149
圍之	-9.83238
十里南至	-9.83299
潤	-9.83374
擊敗之	-9.83383
頭上	-9.83459
兩邊	-9.83491
乘勝	-9.83543
之力	-9.83572
遁去	-9.83576
使敵	-9.83595
八月	-9.83816
敵若	-9.83897
者謂之	-9.83979
之言	-9.84012
賊自	-9.84018
勇者	-9.84106
主客	-9.84277
錫	-9.84285
其兵	-9.84346
自是	-9.84347
國初	-9.84409
天道	-9.84409
翔	-9.84412
曠	-9.84449
减	-9.84464
蟲	-9.84498
鑚	-9.84523
莽	-9.84574
扎	-9.84579
講	-9.8458
亘	-9.84615
透	-9.84623
曺公	-9.84638
謙	-9.84653
豪傑	-9.84654
邇	-9.84656
掃	-9.84661
戰也	-9.84667
晦	-9.84699
荀	-9.847
渉	-9.847
昧	-9.84706
馭	-9.84725
侮	-9.84743
縮	-9.84763
言之	-9.84766
什	-9.8479
軫	-9.84828
等處	-9.84882
水路	-9.85036
曰天	-9.85061
兩端	-9.85078
十一月	-9.85109
四寸	-9.85112
天員	-9.85151
宜興	-9.85237
驍勇	-9.85238
火攻	-9.85405
海口	-9.85676
行則	-9.85692
發放	-9.85903
之説	-9.85904
進攻	-9.85944
其機	-9.85947
如前	-9.8595
五百里	-9.86
殺賊	-9.86212
公曰	-9.86294
山谷	-9.86349
無功	-9.86351
立功	-9.86366
㕘	-9.86376
哨長	-9.86405
遣人	-9.86413
若敵	-9.86429
也又	-9.86477
行列	-9.86556
五萬	-9.86605
開門	-9.8671
何如	-9.86721
地也	-9.86727
丙	-9.86803
帛	-9.86944
恱	-9.86954
鈀	-9.86955
研	-9.86956
一處	-9.86963
鄧	-9.8697
措	-9.87004
區	-9.87014
搭	-9.87026
矩	-9.87027
怪	-9.87034
得以	-9.87036
有司	-9.8704
一丈五尺	-9.87044
衍	-9.87046
杖	-9.8705
桶	-9.87051
廷	-9.87054
逹	-9.87063
蹙	-9.87066
斥	-9.87078
後周	-9.87101
綱	-9.87113
圏	-9.87118
叙	-9.87123
項羽	-9.87124
昴	-9.87132
崩	-9.87161
交鋒	-9.87364
之陣	-9.87411
大旗	-9.87425
弓箭	-9.87518
策應	-9.87603
北方	-9.87609
重兵	-9.87768
十二月	-9.87773
精騎	-9.87782
最為	-9.87813
起兵	-9.8782
互相	-9.8785
狀如	-9.87895
乎此	-9.87901
不堪	-9.88068
大風	-9.88077
於後	-9.88098
如是	-9.88114
用其	-9.8812
練兵	-9.88137
一百五十	-9.8828
有伏兵	-9.88285
九月	-9.88398
公孫	-9.88465
第十	-9.88526
鎮江	-9.88634
三十二	-9.88662
相接	-9.88674
放火	-9.88685
不進	-9.88721
入海	-9.88772
待之	-9.88783
炬	-9.88808
大抵	-9.88869
將領	-9.88903
可也	-9.88942
上城	-9.88966
其上	-9.89097
十八里	-9.89108
操練	-9.89225
協	-9.89227
上流	-9.89235
線	-9.89236
墨	-9.89288
矣故	-9.8929
姓	-9.89324
檢	-9.89358
驢	-9.89381
搶	-9.89393
祝	-9.89398
陸路	-9.894
叉	-9.89408
栅	-9.89429
牡	-9.89434
錦	-9.89444
脂	-9.89446
銜枚	-9.89451
轅	-9.89456
英	-9.89467
挿	-9.89469
産	-9.89469
逓	-9.89475
耆民	-9.8949
準	-9.89501
鷄	-9.8951
夕	-9.89511
旱	-9.89514
童	-9.89515
餌	-9.89516
宛	-9.89519
舶	-9.89532
倫	-9.89535
毋	-9.89559
閒	-9.89561
萬餘	-9.89563
蒺藜	-9.8958
嵩	-9.89581
介	-9.89596
風后	-9.8962
弩手	-9.89625
珥	-9.89637
洛陽	-9.89698
亦以	-9.89709
唵	-9.89714
我之	-9.89765
蘇州府	-9.89821
設險	-9.8983
奔走	-9.89913
一錢	-9.89916
曰此	-9.89951
城池	-9.89968
六曰	-9.90017
天衡	-9.90035
所向	-9.90048
以鐵	-9.90107
三寸	-9.90176
笑	-9.90204
勝者	-9.90208
雲如	-9.90233
舊制	-9.90325
七十二	-9.90378
孔明	-9.90413
首級	-9.9065
由此	-9.90655
皆以	-9.90712
長安	-9.90887
第七	-9.90934
南方	-9.90953
所部	-9.90966
八宫	-9.91008
不虞	-9.91142
勝也	-9.91145
而能	-9.91238
括	-9.91279
而走	-9.9135
追擊	-9.91497
本隊	-9.9153
髙下	-9.91552
崑山縣	-9.91581
相近	-9.91693
戰必	-9.91799
登城	-9.91803
院	-9.91889
之罪	-9.91891
白茆	-9.91895
坎	-9.91896
鄴	-9.91912
潭	-9.91923
揮	-9.91946
趕	-9.91956
蘆	-9.91962
踵	-9.91962
敗走	-9.91963
忻	-9.91965
貳	-9.9197
倦	-9.91972
兇	-9.91973
丹徒	-9.91976
塊	-9.91976
范	-9.91978
相救	-9.91991
葦	-9.91999
垣	-9.92006
攝	-9.92022
爪	-9.92027
其家	-9.92028
世充	-9.92032
搏	-9.92035
剃	-9.92037
綂	-9.92042
者謂	-9.92047
壽	-9.92056
街	-9.92071
五兩	-9.92124
快	-9.92137
淫	-9.92138
有四	-9.92153
堅壁	-9.92166
鬼神	-9.9221
不知其	-9.92329
筋	-9.92349
動則	-9.92351
或如	-9.92401
部伍	-9.92428
多寡	-9.92485
砦在	-9.92496
斬獲	-9.92499
主兵	-9.9278
來攻	-9.92936
旗鼓	-9.92987
四十五里	-9.9299
為末	-9.93049
甲長	-9.93092
分布	-9.93152
不容	-9.93192
步卒	-9.93212
六千	-9.93255
六花	-9.93351
相對	-9.93354
逐之	-9.93505
平日	-9.9358
黄河	-9.93737
涼	-9.93841
東魏	-9.93922
武徳	-9.9396
二十八	-9.94011
布陣	-9.94101
出竒	-9.94152
或用	-9.94242
於内	-9.94254
便於	-9.94267
一把	-9.94322
絞	-9.94335
杭	-9.94347
葛	-9.9439
列陣	-9.9444
漁	-9.94442
碗	-9.94457
彰	-9.94466
起火	-9.94466
朕	-9.94472
殃	-9.94484
閑	-9.94498
𤓰	-9.945
懈	-9.94515
曜	-9.94521
古者	-9.94527
促	-9.94532
斃	-9.94535
浩	-9.94536
可擊也	-9.94542
質	-9.94566
摩	-9.94594
㦸	-9.946
㫖	-9.94608
大吉	-9.9463
黄石公	-9.94647
嚮	-9.94665
捍禦	-9.9472
射之	-9.94726
陣圖	-9.94749
兵不	-9.94761
太原	-9.94845
六國	-9.94853
三宫	-9.94858
統領	-9.94896
掩襲	-9.94947
八日	-9.94949
客挾	-9.94956
之衝	-9.95153
將死	-9.95174
兆	-9.95211
客星	-9.95238
衝突	-9.95251
金皷	-9.95321
前鋒	-9.95321
或有	-9.95358
白旗	-9.95452
平原	-9.95512
人事	-9.95539
可謂	-9.95544
一層	-9.95587
進兵	-9.95588
古法	-9.95716
戰國	-9.95735
客勝	-9.95805
君臣	-9.95835
必以	-9.95848
衛所	-9.9593
未知	-9.96008
脚下	-9.96083
東方	-9.96175
以爲	-9.96186
如此則	-9.96278
諫	-9.96342
至城下	-9.96362
之禍	-9.96363
不行	-9.96452
城郭	-9.96485
向來	-9.96526
之路	-9.96575
二十六	-9.96667
一路	-9.96782
見其	-9.96809
望見	-9.96826
出師	-9.96921
魏將	-9.9694
桂	-9.96944
厰	-9.96945
為營	-9.96948
南滙	-9.96971
六宫	-9.97008
鳳	-9.97009
貞	-9.9706
汾	-9.97126
勝敗	-9.97139
買	-9.97139
毫	-9.97147
西界	-9.97151
寄	-9.97155
醫	-9.97157
顛	-9.97166
崔	-9.97173
俊	-9.97185
硬	-9.97185
表裏	-9.97188
貌	-9.97202
迅	-9.97206
熊	-9.97207
套	-9.97209
版	-9.97253
揺	-9.97261
踏	-9.97264
晟	-9.97271
脊	-9.97273
矛	-9.97275
檀	-9.97276
錐	-9.97292
教塲	-9.97316
書曰	-9.97317
八卦	-9.97321
豎	-9.97345
戰士	-9.97416
金山衛	-9.97416
江陰	-9.97494
虛實	-9.97508
之役	-9.97567
無常	-9.97616
防禦	-9.97653
府治	-9.97655
二十七	-9.97678
守備	-9.97791
二十步	-9.98013
州治	-9.98097
人所	-9.98111
因敵	-9.9823
徳安	-9.98233
安能	-9.98302
者多	-9.98351
者任	-9.9848
次第	-9.98497
地有	-9.98504
甚衆	-9.9854
我師	-9.98682
相連	-9.98763
於海	-9.98767
一由	-9.98795
拒馬	-9.98806
吳淞	-9.98843
六甲	-9.98889
一寸	-9.98909
縣境	-9.98911
藍	-9.98971
欲得	-9.99002
江海	-9.99009
死戰	-9.99032
内有	-9.99049
二日	-9.99288
不肯	-9.99296
兩頭	-9.99309
不整	-9.99394
長城	-9.99395
一二	-9.9941
四竒	-9.99418
天地之	-9.99476
漲	-9.99695
士衆	-9.99706
行師	-9.99728
此時	-9.99737
暉	-9.99771
遞	-9.99777
鉞	-9.998
馮	-9.99809
霜	-9.99813
絳	-9.99816
府城	-9.99818
讀	-9.99819
韶	-9.99832
縳	-9.99833
絲	-9.99834
舒	-9.99834
苗	-9.99835
帆	-9.99848
優	-9.9985
詰	-9.99863
緣	-9.99875
踈	-9.99883
女牆	-9.99911
忿	-9.99933
髪	-9.99935
姚	-9.99944
赦	-9.99944
漠	-9.99959
箕	-9.99983
軟	-10
璘	-10.0001
七宫	-10.0007
為賊所	-10.0009
相遇	-10.0019
門外	-10.0019
數十里	-10.0021
婦人	-10.0023
四隅	-10.0034
𤣥武	-10.0034
其功	-10.0038
刺史	-10.0039
赤氣	-10.0043
大呼	-10.005
二宫	-10.0052
長驅	-10.0057
太平	-10.0064
客兵	-10.0071
既而	-10.0073
可知	-10.0076
其制	-10.0078
於敵	-10.0083
百五十	-10.0091
之狀	-10.0091
及其	-10.0093
三者	-10.0098
吳縣	-10.0102
應變	-10.0114
引去	-10.0119
軍令	-10.0152
二斤	-10.016
故能	-10.0166
士不	-10.0178
圍城	-10.0178
以兵	-10.0179
陣中	-10.0187
自古	-10.0206
所當	-10.0207
鼓聲	-10.021
十年	-10.0213
一月	-10.0217
若不	-10.0224
酋	-10.0236
砲石	-10.0237
方可	-10.0237
者斬一	-10.0239
四分	-10.0242
節度使	-10.0242
濱	-10.0242
又於	-10.0251
獄	-10.0253
两	-10.0254
個	-10.0255
凢	-10.0257
燃	-10.0259
怖	-10.026
奸細	-10.0261
殺人	-10.0264
躡	-10.0265
後軍	-10.0266
窩	-10.0266
跪	-10.0266
庻	-10.0267
勲	-10.0267
蹈	-10.0268
舟楫	-10.0268
夜半	-10.0268
賊勢	-10.0269
偶	-10.0269
部署	-10.027
纂	-10.0272
躬	-10.0273
聨	-10.0273
金瘡	-10.0274
絡	-10.0276
醜	-10.0278
曰賊	-10.0279
牛皮	-10.0281
者斬之	-10.0284
鑒	-10.0285
囉	-10.0289
若此	-10.0296
松江府	-10.0298
諸隊	-10.0306
餘級	-10.031
六寸	-10.0312
仁義	-10.0312
接戰	-10.0318
其力	-10.0319
謂其	-10.0336
劉河	-10.0337
用命	-10.0339
首領	-10.0346
在縣	-10.035
之謂	-10.0351
西山	-10.0369
敵必	-10.0369
前行	-10.0372
者敗	-10.0375
置州	-10.0381
者不可	-10.0381
失其	-10.0398
數日	-10.0399
先以	-10.0409
遊兵	-10.041
降者	-10.0415
此法	-10.0431
之精	-10.0442
其城	-10.0448
引軍	-10.0451
良將	-10.0455
偏將	-10.0461
晉師	-10.0461
合戰	-10.0469
五六	-10.0471
溺	-10.0471
里西南至	-10.0473
勝之	-10.0479
正北	-10.0486
糧食	-10.0492
陣於	-10.05
則用	-10.0506
之前	-10.051
賊境	-10.0522
挨	-10.0527
桅	-10.0532
妻	-10.0536
舸	-10.0537
齎	-10.0538
㫁	-10.0543
栢	-10.0543
社	-10.0543
惰	-10.0546
煉	-10.0546
陞	-10.0548
叡	-10.0549
水軍	-10.0549
導	-10.0551
羸	-10.0551
踐	-10.0552
窄	-10.0554
撒	-10.0555
蘓	-10.0555
㐫	-10.0555
耀	-10.0556
三千人	-10.0557
兔	-10.0559
股	-10.056
鹿角	-10.0561
島寇	-10.0563
每隊	-10.0564
慶厯中	-10.0564
玩	-10.0566
偃月	-10.0569
余	-10.057
兩軍	-10.0573
膠	-10.0574
壯士	-10.0579
弰	-10.0581
楚子	-10.0587
哨探	-10.0588
衝鋒	-10.0595
也是以	-10.0607
呉淞江	-10.0609
乘其	-10.0627
林木	-10.0628
嘉定縣	-10.063
鳴金	-10.0639
豈有	-10.0659
周公	-10.0661
甲士	-10.0663
渡河	-10.0684
敵臺	-10.0686
而我	-10.0699
有賊	-10.0713
相與	-10.0715
之北	-10.0715
吳起	-10.0724
中置	-10.0729
所居	-10.074
入寇	-10.0746
破敵	-10.0746
無益	-10.0749
即是	-10.0754
敗也	-10.0758
進軍	-10.0765
無故	-10.0798
給與	-10.0799
為將	-10.0818
义	-10.0821
第八	-10.0826
磚	-10.0827
畆	-10.0829
牒	-10.083
釐	-10.0831
衙門	-10.0832
攸	-10.0839
飛鳥	-10.0839
戳	-10.0839
暢	-10.084
榖	-10.0841
則民	-10.0841
炒	-10.0842
晚	-10.0843
槳	-10.0844
敗之	-10.0845
仁厚	-10.0846
喧	-10.0846
撞	-10.0846
簿	-10.0847
行者	-10.0847
後手	-10.0847
胷	-10.0848
懦	-10.0848
嫌	-10.0848
台	-10.0848
侍	-10.0849
亢	-10.0849
迂	-10.0849
脫	-10.0851
五丈	-10.0851
筅	-10.0852
疆	-10.0852
繡	-10.0854
掉	-10.0854
劔	-10.0854
盪	-10.0855
洞庭	-10.0859
乖	-10.0859
鼓譟	-10.0859
灘	-10.0859
賂	-10.0859
虎翼	-10.0862
莫敢	-10.0864
仇	-10.0866
眉	-10.0867
備倭	-10.0867
淨	-10.0867
姓名	-10.0867
一字	-10.0868
為敵所	-10.0871
善戰者	-10.0873
動靜	-10.0875
垜口	-10.0875
道也	-10.0877
即時	-10.0884
川沙	-10.0885
利於	-10.0889
發兵	-10.089
敵國	-10.0905
黑氣	-10.0905
不聽	-10.0905
賊兵	-10.0905
兵少	-10.0906
麾下	-10.0911
河南	-10.0912
公子	-10.0921
大王	-10.0922
太陽	-10.0923
其人	-10.0925
至州	-10.0928
以拒	-10.093
受命	-10.0943
破賊	-10.0951
當其	-10.0953
者無	-10.0957
十分	-10.0961
千户所	-10.0962
險易	-10.0977
甚多	-10.0982
二錢	-10.0984
乃令	-10.099
結陣	-10.0997
此其	-10.1009
形如	-10.1013
歸路	-10.1031
南沙	-10.1035
軍至	-10.104
誤事	-10.1049
也故曰	-10.1049
堅守	-10.1067
天門	-10.1075
令其	-10.1076
毬	-10.1077
之費	-10.1079
中國之	-10.1087
矣而	-10.1101
豈不	-10.1108
或由	-10.1109
然則	-10.1115
蠱	-10.1116
堠	-10.1122
唱	-10.1126
勿令	-10.1129
翻	-10.1135
戰車	-10.1136
黔	-10.1136
療	-10.1139
梢	-10.114
堤	-10.114
應敵	-10.1141
猝	-10.1142
樊	-10.1142
焦	-10.1142
侃	-10.1143
遜	-10.1143
袤	-10.1144
疫	-10.1145
榆	-10.1146
霹靂	-10.1146
桃	-10.1148
七年	-10.1149
胃	-10.1149
禀	-10.1149
李筌	-10.115
一年	-10.1151
乍	-10.1151
濁	-10.1152
欵	-10.1152
滑	-10.1152
逰	-10.1156
臥	-10.1156
鑼	-10.1157
閭	-10.1157
紂	-10.1158
焰	-10.1159
孝寛	-10.116
桀	-10.116
諳	-10.1161
慈	-10.1162
半斤	-10.1162
黙	-10.1167
貼	-10.1169
兩軍相當	-10.1171
精鋭	-10.1175
不下	-10.1178
築堡	-10.1183
後有	-10.1186
其用	-10.1188
奪其	-10.1201
石灰	-10.1203
預備	-10.1212
中原	-10.1226
各一	-10.123
常山	-10.1233
可恃	-10.1244
擊大破之	-10.1249
自相	-10.125
使賊	-10.126
旌	-10.1267
八隊	-10.1267
主目	-10.127
數十人	-10.1273
彗	-10.1273
賊首	-10.1278
第九	-10.129
古今	-10.129
五代	-10.1292
莫能	-10.1294
其陣	-10.1296
國有	-10.1302
為正兵	-10.1303
軍旅	-10.1315
敵兵	-10.1316
一齊	-10.1327
江口	-10.1327
所用	-10.1332
方圓	-10.1342
人有	-10.1345
算短	-10.1363
其意	-10.1365
三隊	-10.1379
輕重	-10.1379
夜則	-10.1385
施行	-10.1387
此皆	-10.1393
三星	-10.1399
善用	-10.1414
可不	-10.1418
此則	-10.1421
當時	-10.1423
實用	-10.1425
衆心	-10.1425
儉	-10.1425
平地	-10.1436
勺	-10.144
兵器	-10.1443
鉛	-10.1445
祠	-10.1447
之謀	-10.1449
彬	-10.1451
四宫	-10.1452
夀	-10.1453
遣使	-10.1453
消	-10.1454
炊	-10.1454
以示	-10.1456
周圍	-10.1456
迄	-10.1456
部下	-10.1457
五人為伍	-10.1457
牝	-10.1458
現	-10.146
屏	-10.146
竅	-10.146
槽	-10.1461
霍	-10.1461
瓶	-10.1462
武王問太公曰	-10.1463
飯	-10.1463
鈍	-10.1463
矟	-10.1464
鎖	-10.1464
巽	-10.1465
殊不知	-10.1466
佚	-10.1466
而知	-10.1467
効	-10.1467
孟瀆	-10.1467
賊徒	-10.1468
呌	-10.1468
勅	-10.1468
磧	-10.1469
戚	-10.1469
前進	-10.1469
鎧	-10.147
慣	-10.1471
暑	-10.1473
氐	-10.1473
朱雀	-10.1474
至此	-10.1481
隊頭	-10.1483
單于	-10.1491
車之	-10.1494
不克	-10.1495
者充	-10.1502
世衡	-10.1502
九年	-10.1505
若曽	-10.1507
鳥翔	-10.1508
照前	-10.1512
府州	-10.1512
吳淞所	-10.1522
遣兵	-10.1533
違者	-10.154
不暇	-10.1547
指揮使	-10.1548
一哨	-10.155
為陣	-10.1558
所宜	-10.156
前衝	-10.1563
先行	-10.1575
設兵	-10.1575
若有	-10.1578
急攻	-10.1585
未定	-10.1595
夾攻	-10.1597
平望	-10.1597
幟	-10.1599
矣若	-10.1608
每人	-10.1614
其氣	-10.1615
陸行	-10.1616
子午	-10.1621
常州	-10.1622
守者	-10.1626
恐其	-10.1642
甲兵	-10.1654
將吏	-10.1661
不分	-10.1667
名將	-10.1671
絶其	-10.1703
制度	-10.172
全勝	-10.1728
之兆	-10.1735
其志	-10.1739
天文	-10.174
以禦	-10.1746
廂	-10.1746
舗	-10.1748
被賊	-10.175
擂	-10.1753
瞭	-10.1758
睡	-10.176
而西	-10.1761
敏	-10.1764
見敵	-10.1765
𣲖	-10.1769
二千五百	-10.1773
用車	-10.1774
允	-10.1776
誕	-10.1776
青邨	-10.1776
韜	-10.1778
僻	-10.1779
賣	-10.178
絹	-10.178
嗚呼	-10.178
厲	-10.1781
都督府	-10.1784
寵	-10.1785
錄	-10.1785
頻	-10.1786
俯	-10.1786
盆	-10.1787
譎	-10.1788
詞	-10.1789
浙直	-10.1789
磚石	-10.1789
那	-10.1789
眀	-10.179
析	-10.1791
他棍	-10.1794
二十八宿	-10.1795
舵工	-10.1796
倶	-10.1796
友	-10.1796
跳盪	-10.1797
萇	-10.1799
傔	-10.1801
吳越	-10.1802
選鋒	-10.1804
喝	-10.1804
遇警	-10.1807
直符	-10.181
更畨	-10.1811
放銃	-10.1813
流血	-10.1817
以制	-10.1817
六合	-10.1824
不居	-10.1826
不定	-10.1833
賊遂	-10.1833
殿後	-10.1835
彼此	-10.1841
子儀	-10.1848
出没	-10.185
故名	-10.1856
武王曰	-10.1856
江防	-10.1861
有憂	-10.1863
只是	-10.1872
輕兵	-10.1876
一城	-10.1877
孫子曰	-10.188
難以	-10.1887
家橋	-10.1892
地軸	-10.1892
歩騎	-10.1893
所見	-10.1898
四十里南至	-10.1905
此地	-10.1909
反間	-10.1912
楚師	-10.1915
每日	-10.1921
戰船	-10.1926
不畏	-10.193
麟	-10.1933
見之	-10.1934
率然	-10.1937
萬餘人	-10.1949
元帥	-10.195
八分	-10.196
屯兵	-10.1962
遇有	-10.1962
一部	-10.1963
諸將皆	-10.1973
諸營	-10.1974
一百二十里	-10.1974
行令	-10.1976
秦王	-10.1984
而立	-10.1994
攻圍	-10.2
起於	-10.2034
日夜	-10.2035
四隊	-10.2039
六十四	-10.2054
帥師	-10.2056
戰于	-10.2057
占曰	-10.2059
營寨	-10.2098
桄	-10.2101
昆	-10.2102
鋼	-10.2103
巾	-10.2106
租	-10.2106
同知	-10.2107
建為	-10.2108
蕃界	-10.2108
陶	-10.211
狂	-10.2111
冷	-10.2113
擡	-10.2113
陂	-10.2113
闢	-10.2113
大衆	-10.2114
棹	-10.2114
契	-10.2115
皷譟	-10.2116
兹	-10.2116
宇文	-10.2116
乳	-10.2118
悟	-10.2118
則不	-10.2119
星在	-10.212
下馬	-10.2122
品	-10.2122
嬰	-10.2122
其鋒	-10.2122
軍䜟曰	-10.2122
遶	-10.2122
孫權	-10.2123
裁	-10.2123
拱	-10.2123
乎曰	-10.2124
遙	-10.2125
天罡	-10.2125
詩	-10.2126
歌	-10.2127
屍	-10.2127
兵夫	-10.2128
趣	-10.2129
於前	-10.2129
奎	-10.213
呐喊	-10.2132
腦	-10.2133
勇怯	-10.2135
一十五	-10.2136
利而	-10.2136
亾	-10.2138
不成	-10.2139
約束	-10.2144
金壇	-10.2151
九尺	-10.2151
聲援	-10.2152
唐太宗	-10.2153
敵者	-10.2153
尚書	-10.2154
朔方	-10.2154
不服	-10.2165
二名	-10.2173
陰陽	-10.2176
攻具	-10.2176
長五尺	-10.2177
擒之	-10.2181
不若	-10.2185
四門	-10.2189
於城上	-10.2193
邀擊	-10.2203
樓船	-10.2205
火毬	-10.2206
亦然	-10.2207
不失	-10.221
令士卒	-10.2216
而易	-10.2217
賊人	-10.222
人人	-10.222
於人	-10.2232
五十步	-10.2234
先據	-10.2234
直陣	-10.2237
其民	-10.2246
而歸	-10.2257
員名	-10.2259
易於	-10.2261
在上	-10.2263
數百人	-10.2271
之法也	-10.2274
從此	-10.2279
不顧	-10.2283
八千	-10.2284
不來	-10.2288
一方	-10.2302
矣今	-10.2321
是時	-10.2326
獲其	-10.2329
矣此	-10.2331
文王	-10.2333
以應之	-10.2336
一座	-10.2336
三江	-10.2339
賊必	-10.2343
二哨	-10.2367
城上人	-10.2377
無定	-10.2396
海鹽	-10.2403
焚其	-10.2416
大驚	-10.242
其身	-10.2422
洲	-10.2438
然而	-10.2443
水中	-10.2446
一升	-10.2447
敵將	-10.2452
所臨	-10.2452
龍虎鳥蛇	-10.2454
采	-10.2454
岐	-10.2455
擬	-10.2455
捧	-10.2456
疊	-10.2457
揀	-10.2457
箱	-10.2458
溪洞	-10.2458
軍次	-10.2459
鍋	-10.2459
倖	-10.2461
滄	-10.2462
吞	-10.2462
鵝	-10.2463
鷹	-10.2463
寢	-10.2464
恒	-10.2464
燔	-10.2465
十里北至	-10.2465
慰	-10.2465
滋	-10.2465
柳	-10.2466
巫	-10.2466
藤牌	-10.2466
犒	-10.2466
尸	-10.2466
縫	-10.2468
礟	-10.2468
爲之奈何太公曰	-10.2468
觜	-10.2468
隣	-10.2468
飄	-10.247
稟	-10.2471
競	-10.2472
芒	-10.2472
光弼	-10.2477
皇帝	-10.2482
老弱	-10.2483
讒	-10.2483
大將囚	-10.2483
膝	-10.2489
為將者	-10.249
軍於	-10.2491
嵗星	-10.2497
東京	-10.2497
世忠	-10.2499
軍事	-10.2505
鎮撫	-10.2506
四維	-10.251
新城	-10.2512
而止	-10.2516
往往	-10.252
常熟縣	-10.252
陸戰	-10.252
五斤	-10.2528
用起	-10.2528
王者	-10.2531
州城	-10.2532
咒曰	-10.2533
一云	-10.2544
步軍	-10.2549
主挾	-10.2552
入營	-10.2553
民壯	-10.2559
安營	-10.256
相當	-10.2562
大砲	-10.2567
皆為	-10.2569
凡兵	-10.257
吳人	-10.257
江東	-10.2573
禦敵	-10.2574
際	-10.2579
不齊	-10.258
於中	-10.2582
水流	-10.2583
孰為	-10.2585
其實	-10.2585
中京	-10.2586
力戰	-10.2599
四十里北至	-10.26
救援	-10.2617
三才	-10.2624
不受	-10.2626
火光	-10.2627
大小將	-10.2634
其説	-10.2635
八里	-10.2653
於天下	-10.2674
月犯	-10.2676
其軍	-10.2688
白氣	-10.2694
一十八	-10.2696
正南	-10.2707
而南	-10.2714
官旗	-10.2716
赤雲	-10.2719
要路	-10.272
而用	-10.2725
一則	-10.2725
兵家之	-10.2726
退走	-10.273
習之	-10.2732
為號	-10.2746
紅旗	-10.2749
進步	-10.2753
戍守	-10.2754
也敵	-10.2757
九軍	-10.2762
俱在	-10.2763
其情	-10.2773
戰不	-10.2796
其所以	-10.2796
毘陵	-10.2802
乂	-10.2803
刅	-10.2806
篷	-10.2806
罔	-10.2807
丞	-10.2809
綑打	-10.2811
郢	-10.2813
晨	-10.2814
敷	-10.2814
敖	-10.2815
穆	-10.2815
悖	-10.2816
藩	-10.2816
飬	-10.2817
㨿	-10.2817
揣	-10.2817
槌	-10.2818
叱	-10.2818
鎚	-10.2818
醋	-10.2819
蠻夷	-10.2819
日入酉	-10.2819
巖	-10.2819
饋	-10.282
做	-10.2821
堆	-10.2821
暫	-10.2822
酌	-10.2822
旺	-10.2823
兵備道	-10.2823
哀	-10.2824
矯	-10.2824
啟	-10.2824
譙	-10.2826
繕	-10.2826
二十五里	-10.2827
蹄	-10.2828
城池考	-10.2828
廹	-10.2829
提督	-10.2829
囂	-10.2831
蚩尤	-10.2832
熾	-10.2832
郤	-10.2833
憤	-10.2833
勃	-10.2834
訣	-10.2843
鴛鴦陣	-10.2845
祖宗	-10.2846
右軍	-10.2846
攻擊	-10.285
藥線	-10.2855
軍吏	-10.2859
日風從	-10.2859
有所不	-10.2861
事宜	-10.287
其名	-10.2872
截殺	-10.2872
三十五里	-10.2881
以重	-10.2883
前手	-10.289
九十	-10.2891
筈	-10.2891
登明	-10.2893
不當	-10.2899
武進	-10.2901
徃來	-10.2906
揚州	-10.2911
西魏	-10.2915
亦不能	-10.2925
至是	-10.2933
前校	-10.2941
舟師	-10.2954
登髙	-10.297
衆人	-10.2977
不欲	-10.2978
以正	-10.2979
靈州	-10.2989
官府	-10.2993
城北	-10.2995
陣前	-10.3004
夾擊	-10.3008
今後	-10.3009
兵備	-10.3018
斬其	-10.3025
二隊	-10.3028
人持	-10.3036
故不	-10.3037
欲戰	-10.3041
諸郡	-10.3052
一刻	-10.306
襲之	-10.3066
定州	-10.3067
戰死	-10.3068
有備	-10.3073
城東	-10.3073
非有	-10.3085
人之所	-10.3086
七星	-10.3092
豈可	-10.3095
而致	-10.3099
令軍中	-10.3105
即便	-10.3105
馬步	-10.3118
五十里至	-10.312
則國	-10.3129
十七里	-10.313
利在	-10.3135
星者	-10.3141
戰鬭	-10.3142
也太宗曰	-10.3144
無敵	-10.3148
日中	-10.3153
出城	-10.3154
之物	-10.3155
鉄	-10.316
拐	-10.3163
為我	-10.3163
陜	-10.3164
東曰	-10.3173
村鋪	-10.3176
拏	-10.3177
出洋	-10.3178
恪	-10.3178
汗	-10.3178
宴	-10.3179
縣地	-10.318
河西	-10.318
鼎	-10.318
鄙	-10.3181
罐	-10.3182
澄	-10.3182
蜂	-10.3184
須臾	-10.3184
舵	-10.3184
謬	-10.3185
攘	-10.3185
畱	-10.3186
凝	-10.3187
幹	-10.3187
豹	-10.3188
甘草	-10.3189
筆	-10.319
日出卯	-10.319
禾	-10.319
覽	-10.3191
墮	-10.3191
讐	-10.3191
勘	-10.3191
枯	-10.3192
宏	-10.3193
弇	-10.3193
天地風雲	-10.3194
託	-10.3194
女真	-10.3195
圮	-10.3195
惶	-10.3195
瞭望	-10.3196
婦女	-10.3196
諸葛	-10.3196
渴	-10.3196
戰鋒隊	-10.3196
如之何	-10.3197
伸	-10.32
恨	-10.32
祿	-10.3201
炎	-10.3201
脇	-10.3202
春汛	-10.3202
髮	-10.3203
三十里北至	-10.3203
鵲	-10.3204
填星	-10.3206
消息	-10.3206
捺	-10.3206
裙	-10.3208
計也	-10.3208
尺寸	-10.3211
千四百	-10.3212
出而	-10.3212
玠	-10.3212
稜	-10.3212
一十五里	-10.3213
財物	-10.3214
腹心	-10.3214
軍馬	-10.3216
轉戰	-10.3216
立於	-10.3217
雌	-10.3218
動静	-10.3221
飲食	-10.3221
對樓	-10.3223
膊	-10.3225
晉侯	-10.323
圓陣	-10.3235
便利	-10.3235
烽火	-10.3236
積聚	-10.3238
䇿應	-10.3241
不惟	-10.3249
建德	-10.3254
六分	-10.3256
數里	-10.3259
士馬	-10.326
無遺	-10.3264
城週圍	-10.3264
二十二	-10.3266
黑旗	-10.3267
事機	-10.3267
左右前後	-10.3269
千九百	-10.3271
之妙	-10.3275
各營	-10.3276
軍器	-10.3287
之方	-10.3289
十五日	-10.3292
為第一	-10.3294
劉備	-10.3294
散而	-10.3299
利器	-10.3307
十五年	-10.331
部曲	-10.3311
東行	-10.3313
移營	-10.3318
敵樓	-10.3319
冬至	-10.3319
不聞	-10.3322
所長	-10.3326
方色	-10.3326
四時	-10.3327
不可攻	-10.333
城堡	-10.3333
長江	-10.334
水口	-10.3354
聲勢	-10.3357
所敗	-10.3372
之事也	-10.3378
陷陣	-10.3382
百一十里	-10.3384
而自	-10.3385
正東	-10.3391
大者	-10.3391
相生	-10.3395
無復	-10.3408
百歩	-10.3415
施於	-10.3423
以竒	-10.3431
難於	-10.3438
拒守	-10.3442
殺殺	-10.3448
之威	-10.3448
賊將	-10.345
而勿	-10.345
天橋	-10.345
士民	-10.3453
又云	-10.3455
彗星	-10.3459
軍餘	-10.3459
十五里北至	-10.3459
之屬	-10.346
一百三十	-10.3466
如山	-10.3466
未必	-10.3469
要衝	-10.3474
傳曰	-10.3484
如此者	-10.3485
在焉	-10.3493
蝕	-10.3495
鄉兵	-10.3501
不盡	-10.3508
分為二	-10.3514
左軍	-10.352
於上	-10.3521
五方旗	-10.3541
礦	-10.3541
珠	-10.355
九里	-10.3558
顔	-10.356
四百里	-10.3561
丙辰	-10.3563
桐	-10.3565
傑	-10.3566
犯之	-10.3566
鈔	-10.3568
絕	-10.3568
珍	-10.3568
倘	-10.3569
北至界首	-10.3572
澹	-10.3572
以軍法	-10.3572
劉裕	-10.3572
誡	-10.3573
渤海	-10.3574
伎	-10.3576
聰	-10.3576
熬	-10.3576
以木	-10.3576
幅	-10.3577
梗	-10.3578
犀	-10.358
破軍殺將	-10.3581
槩	-10.3581
奢	-10.3581
蠟	-10.3581
撲	-10.3581
夔	-10.3582
寓	-10.3582
洮	-10.3582
曳	-10.3582
簇	-10.3585
綂領	-10.3586
不可擊	-10.3587
紹興	-10.3588
兵防考	-10.3588
連珠	-10.3589
焚之	-10.359
偏禆	-10.3593
合而	-10.3594
總督	-10.3596
樁	-10.3596
匀	-10.3596
韓魏	-10.3597
勿與戰	-10.3601
精銳	-10.3601
隨時	-10.3606
妻子	-10.3607
來降	-10.3607
前有	-10.3609
三十人	-10.3614
號為	-10.3623
㑹哨	-10.3629
成敗	-10.3637
視之	-10.3641
吳子	-10.3646
十二里	-10.365
便宜	-10.3653
殺其	-10.366
安危	-10.3663
南岸	-10.3666
布列	-10.367
海上	-10.3672
宫外迫	-10.3672
也惟	-10.3673
羊山	-10.3674
不可得	-10.3674
先登	-10.3675
三五	-10.3676
擊賊	-10.3699
甕	-10.3699
一戰	-10.3703
左角	-10.3704
掩其	-10.3723
十兩	-10.3725
滅之	-10.374
必無	-10.3751
四夷	-10.3754
東下	-10.377
曲陣	-10.377
無疑	-10.3779
是日	-10.3789
自固	-10.3791
勒兵	-10.3801
之難	-10.3802
在此	-10.3802
可行	-10.3804
南曰	-10.3808
賊已	-10.3808
城邑	-10.381
為方陣	-10.382
小者	-10.3828
則止	-10.383
起而	-10.3849
狼兵	-10.3866
五方	-10.3869
一斗	-10.3871
逺來	-10.3879
速戰	-10.3882
武王	-10.3884
金鼔	-10.3893
悞	-10.3897
六年	-10.3899
先後	-10.3904
餘衆	-10.3906
不待	-10.3907
任之	-10.3908
軍政	-10.3911
不免	-10.3915
砦在縣東	-10.393
數人	-10.393
當先	-10.393
未得	-10.3932
保州	-10.3932
一條	-10.3936
設弓兵四十名往來巡邏	-10.3938
牙旗	-10.3939
之圖	-10.3944
即令	-10.3945
四正	-10.3949
腫	-10.3949
自守	-10.3954
狼筅	-10.3955
逐北	-10.3955
姜	-10.3958
覩	-10.396
而求	-10.396
苟	-10.3962
不救	-10.3963
拆	-10.3965
砍	-10.3967
苻堅	-10.3968
焚劫	-10.3969
拾	-10.3969
撰	-10.3969
拓	-10.3969
徼	-10.397
寫	-10.397
鶴	-10.397
阨	-10.397
泛	-10.3973
戲	-10.3973
瓊	-10.3974
縋	-10.3974
販	-10.3975
恥	-10.3975
濵	-10.3976
奄	-10.3976
河莊	-10.3977
潢	-10.3977
謁	-10.3978
𠞰	-10.3978
棘	-10.3978
巡撫	-10.3979
勦	-10.3979
轡	-10.3981
諸沙	-10.3982
三爿沙	-10.3983
罕	-10.3984
艱	-10.3984
涕	-10.3984
休息	-10.3986
倣此	-10.3987
晴	-10.3987
二十三	-10.3989
杵	-10.3989
震澤	-10.3992
當道	-10.3997
右廂	-10.3998
胸	-10.4
甲午	-10.4002
埋伏	-10.4005
不得輒	-10.4006
巡視	-10.4008
六七	-10.4014
或雲氣	-10.4014
持久	-10.4016
遊擊	-10.4016
文王曰	-10.4022
凡軍行	-10.4023
分遣	-10.4024
用間	-10.4024
用人	-10.403
待他	-10.4036
二州	-10.4036
束伍	-10.4037
弝	-10.4039
人多	-10.404
丈餘	-10.4045
被圍	-10.4045
將校	-10.4051
山口	-10.4055
務要	-10.4057
淮南	-10.406
法令	-10.4077
僧兵	-10.408
來援	-10.4085
地户	-10.4087
當敵	-10.4088
三百人	-10.4097
官塘	-10.4108
相拒	-10.4112
野利	-10.4113
之險	-10.4121
遊軍	-10.4132
而觀其	-10.4134
數千人	-10.4135
之䇿	-10.414
人情	-10.415
春秋時楚	-10.4153
文武	-10.4156
成都	-10.4168
利則	-10.4169
豈非	-10.417
復為	-10.4173
不可也	-10.4196
東路	-10.4203
放砲	-10.4207
大喜	-10.4207
參將	-10.4209
二十五人	-10.4221
地名	-10.4229
此是	-10.4229
而動	-10.423
火發	-10.4231
或作	-10.424
之家	-10.4243
舉火	-10.4249
大洋	-10.4258
若遇	-10.4262
見賊	-10.4265
水闗	-10.4271
决戰	-10.4274
天雨	-10.4274
之謂也	-10.4277
不應	-10.428
人力	-10.4281
則可以	-10.4292
勇而	-10.4293
不可使	-10.4302
一隻	-10.4302
土兵	-10.4332
江中	-10.4335
大約	-10.4337
亦多	-10.4342
加之	-10.4356
之利害	-10.4357
譬	-10.436
賢人	-10.4365
以利	-10.4369
弔	-10.4371
瀘	-10.4377
含	-10.4379
咽喉	-10.438
刄	-10.438
太白隂經	-10.4381
纒	-10.4381
騐	-10.4381
前隊	-10.4381
川州	-10.4382
闔	-10.4383
駐劄	-10.4385
煮	-10.4386
搆	-10.4387
雀	-10.4387
隰	-10.4387
兄	-10.4387
北至契丹界	-10.4388
佛	-10.4388
矜	-10.4388
琳	-10.4388
晏	-10.4389
填壕	-10.439
邏	-10.439
遁走	-10.439
耿	-10.4391
床	-10.4391
峙	-10.4391
夢	-10.4392
電	-10.4392
鮮卑	-10.4392
熙	-10.4393
㡬	-10.4393
植	-10.4394
範	-10.4394
秀	-10.4394
貸	-10.4395
羊馬城	-10.4395
鐸	-10.4395
殄	-10.4396
右為末	-10.4398
替	-10.4398
喊	-10.4398
千户一員	-10.4399
涿	-10.4399
愼	-10.4399
腸	-10.44
氷	-10.4401
六軍	-10.4401
渡水	-10.4401
上風	-10.4403
猫	-10.4404
秉	-10.4405
匝	-10.4407
驍騎	-10.441
汴	-10.4411
鄉導	-10.4412
察其	-10.4414
毒藥	-10.4415
王世充	-10.4416
神后	-10.4416
鴈行	-10.4419
無失	-10.4419
二十日	-10.4419
器具	-10.4422
班師	-10.4424
四角	-10.4425
兵大起	-10.4428
衣服	-10.4433
流矢	-10.4439
單騎	-10.4441
調度	-10.4449
則知	-10.4451
强弩	-10.4452
而遁	-10.4452
招善	-10.4453
等項	-10.4466
八錢	-10.4468
以守	-10.4471
子孫	-10.4474
餘皆	-10.4479
大事	-10.4494
晉人	-10.4495
言語	-10.4496
教習	-10.4498
打下	-10.4502
輕敵	-10.4508
下令	-10.4513
五錢	-10.4522
備禦	-10.4525
宫内迫	-10.4526
郡縣	-10.4534
相望	-10.4539
七曰	-10.454
半渡	-10.4543
領兵官	-10.4546
青旗	-10.4548
營内	-10.4548
官一員	-10.4551
伍法	-10.4552
學者	-10.4556
灌之	-10.4557
結營	-10.4562
分為三	-10.457
大而	-10.4574
將無	-10.4583
上海縣	-10.4585
精神	-10.4594
一尺五寸	-10.4598
旗色	-10.4602
二千人	-10.4602
夜間	-10.4606
水寨	-10.4609
算長和	-10.4614
竹木	-10.4625
誅之	-10.4626
分數	-10.463
縱兵	-10.4635
四丈	-10.4637
司馬法	-10.464
賊退	-10.464
二郡	-10.4641
不滿	-10.4644
以觀其	-10.4672
大臣	-10.4677
自此	-10.4679
止於	-10.4681
十二年	-10.4688
募兵	-10.4688
天上	-10.4703
戰敗	-10.4705
金城	-10.4705
化州	-10.4717
呼曰	-10.472
通計	-10.4721
已而	-10.4724
賊巢	-10.4739
不言	-10.475
三箇	-10.4752
而天下	-10.4754
諸國	-10.4761
唐置	-10.4763
迎敵	-10.4777
用火	-10.4781
無有	-10.4795
車上	-10.4802
敵衆	-10.4804
宮	-10.481
漿	-10.481
淤	-10.4814
坊	-10.4814
敦	-10.4815
脈	-10.4815
老鸛嘴	-10.4816
宰	-10.4818
椒	-10.4818
頑	-10.4818
麗	-10.4819
炮	-10.4819
天罡加	-10.4819
薦	-10.482
壇	-10.482
喉	-10.4821
店	-10.4821
改今名	-10.4821
陀	-10.4821
磕	-10.4822
稀	-10.4822
輛	-10.4823
竄	-10.4824
䘮	-10.4824
坡	-10.4825
許洞曰	-10.4825
燥	-10.4826
六百里	-10.4826
裴	-10.4826
不信	-10.4826
雉	-10.4827
禆	-10.4827
男	-10.4827
墟	-10.4827
湏	-10.4828
舌	-10.483
頼	-10.483
肘	-10.4831
茫	-10.4831
贅	-10.4831
迥	-10.4832
銜	-10.4832
襟	-10.4833
齋	-10.4833
伯升	-10.4834
葺	-10.4834
佩	-10.4835
渇	-10.4835
匱	-10.4835
不肖	-10.4836
壮	-10.4837
衂	-10.4838
百四十里	-10.4838
哨守	-10.4839
長和	-10.484
緒	-10.484
可容	-10.4843
六壬	-10.4844
撫按	-10.4845
擂皷	-10.4845
丙丁	-10.4845
襄陽	-10.4845
行法人手執	-10.4846
鳴鑼	-10.4847
郡守	-10.4848
樂毅	-10.485
賢者	-10.485
擊走之	-10.4851
壩	-10.4853
平安	-10.4854
夾浦	-10.4854
仲文	-10.4855
瑊	-10.4856
而已矣	-10.4856
羈	-10.4859
俄而	-10.4865
㸃皷	-10.4866
倭患	-10.4867
遠近	-10.4867
用木	-10.4867
管仲	-10.4869
經畧	-10.4874
逼近	-10.4878
長技	-10.4886
擊破之	-10.4889
京師	-10.4889
出沒	-10.4891
成化	-10.4895
四十里西至	-10.4895
張良	-10.4896
常鎮	-10.4903
二縣	-10.4909
數百里	-10.491
江陵	-10.4919
洞子	-10.4925
三百六十	-10.4925
左右各	-10.4927
雖然	-10.493
伏於	-10.493
亦曰	-10.4932
隂謀	-10.4933
船隻	-10.4935
招安	-10.4942
殺傷	-10.4946
逼城	-10.495
海岸	-10.4957
逺望	-10.496
大總管	-10.4962
執旗	-10.4962
萬二千	-10.4963
凡軍中	-10.4965
力不能	-10.497
秦人	-10.497
勇力	-10.4984
者可使	-10.4987
教師	-10.4988
綏州	-10.5008
悉衆	-10.501
鋭陣	-10.5014
以為然	-10.5016
策也	-10.5018
攻敵	-10.5028
四海	-10.5029
本縣	-10.5029
順風	-10.5034
前面	-10.5037
先令	-10.5039
矣夫	-10.505
與我	-10.5061
五年	-10.5062
見於	-10.5063
屯於	-10.5068
髙山	-10.5069
哨船	-10.507
有喜	-10.5075
修築	-10.5084
乃為	-10.5089
所由	-10.5097
勝光	-10.5109
羈縻	-10.5109
一本	-10.511
城樓	-10.5115
六花陣	-10.5119
衆軍	-10.5123
入境	-10.5157
論兵	-10.5161
四萬	-10.5169
不窮	-10.5174
有力	-10.5175
一營	-10.5178
無錫縣	-10.5184
突出	-10.5202
一丈二尺	-10.5215
赴之	-10.5219
諸将	-10.523
華亭縣	-10.5235
鍊	-10.5252
袍	-10.5255
莊宗	-10.526
之志	-10.5261
七百里	-10.5263
域	-10.5264
醉	-10.5266
㴱	-10.5267
鬚	-10.5268
祁	-10.527
仙芝	-10.5271
狥	-10.5271
士皆	-10.5272
貞觀中	-10.5273
氣勢	-10.5273
迺	-10.5273
溢	-10.5274
哄	-10.5274
邵	-10.5274
賛	-10.5275
随	-10.5276
楯	-10.5277
窘	-10.5277
禹	-10.5277
欠	-10.5278
翟	-10.5278
蒸	-10.5279
隍	-10.5279
不和主大將	-10.528
窟	-10.528
尋	-10.528
判官	-10.528
盾	-10.528
撤	-10.528
叫	-10.5281
七千五百	-10.5281
竹箔沙	-10.5281
奈何太公曰	-10.5281
潁	-10.5281
遭	-10.5282
従	-10.5282
英雄	-10.5282
莒	-10.5283
緝	-10.5283
毗	-10.5283
鈴	-10.5283
譽	-10.5283
瀕	-10.5284
璋	-10.5284
鼈	-10.5284
賞罸	-10.5284
禽獸	-10.5284
虐	-10.5284
父母	-10.5285
菱	-10.5285
熖	-10.5286
都御史	-10.5287
追至	-10.5287
綴	-10.5287
無形	-10.5288
潑	-10.5288
巢穴	-10.5289
脅	-10.529
戌亥	-10.529
雇	-10.529
鬱	-10.5291
摘	-10.5291
賔	-10.5292
三軍之衆	-10.5292
縦	-10.5292
三丈浦	-10.5293
溧陽	-10.5293
北至界首約	-10.5293
繪	-10.5293
入江	-10.5294
岑	-10.5297
湧	-10.5299
谿	-10.5299
吉凶	-10.5301
第二層	-10.5302
彩	-10.5303
賞賜	-10.5304
歩兵	-10.5307
𢎞治	-10.5308
南滙所	-10.5308
髙歡	-10.531
撚	-10.5315
日蝕	-10.5315
曠野	-10.5317
甲乙	-10.5318
天乙	-10.5322
太陰	-10.5325
其妙	-10.5325
可勝	-10.5327
旋風	-10.5328
存亡	-10.5333
羽林	-10.5333
百戸	-10.5335
統兵	-10.5339
馬隆	-10.534
行儉	-10.5341
出東方	-10.5343
日暮	-10.5344
賞銀	-10.5347
分守	-10.5356
萬里	-10.5357
十二辰	-10.5357
不敢近	-10.5362
四十八	-10.5368
萬全	-10.5369
風潮	-10.5369
甲辰	-10.5375
須用	-10.5378
渡江	-10.5383
吳郡	-10.5393
同罪	-10.54
興師	-10.5407
未嘗不	-10.541
亦難	-10.541
水火	-10.5419
八年	-10.5437
七十餘	-10.5442
而制	-10.5443
各該	-10.5453
趙王	-10.5454
一十里	-10.5455
雲中	-10.5478
千萬	-10.5482
車戰	-10.5493
生鐵	-10.5493
即今	-10.5495
遂大敗	-10.5496
提兵	-10.5498
長一尺	-10.5521
四十步	-10.5532
百里西至	-10.5532
哉故	-10.5541
持重	-10.5541
首尾相	-10.555
土河	-10.5553
仍令	-10.5553
相克	-10.5554
宋時	-10.5554
前哨	-10.5561
出竒兵	-10.5576
方營	-10.558
未易	-10.5583
宫格	-10.5588
石頭	-10.5592
天氣	-10.56
賊路	-10.5601
軍節度	-10.5611
莫若	-10.5613
笑曰	-10.562
所獲	-10.5628
率騎	-10.5632
城壘	-10.5632
赤色	-10.5635
成列	-10.564
十三日	-10.565
不覺	-10.5653
前竒	-10.5658
山路	-10.5664
既至	-10.5664
而趨	-10.5683
魏軍	-10.5696
用鐵	-10.5698
為盗	-10.5703
二百人	-10.571
火燒	-10.5715
相合	-10.5717
菜	-10.5719
衞所	-10.5722
八門	-10.5729
甫	-10.5729
剉	-10.5732
評	-10.5735
蜜	-10.5737
之象也	-10.574
趙軍	-10.574
袖	-10.5741
攀	-10.5741
冝	-10.5742
燈籠	-10.5744
粥	-10.5744
梓	-10.5744
磁	-10.5745
鹽州	-10.5745
絙	-10.5746
崗	-10.5746
天地風雲龍虎鳥蛇	-10.5747
以正合以竒勝	-10.5748
虧	-10.5749
凡遇	-10.5749
懈怠	-10.575
册	-10.575
棗	-10.5751
饗	-10.5751
甃	-10.5752
蔓	-10.5752
斧鉞	-10.5753
胄	-10.5753
為今之計	-10.5753
牀	-10.5753
彼衆我寡	-10.5754
徇	-10.5754
廉	-10.5755
遊奕	-10.5755
犇	-10.5755
處所	-10.5756
者使	-10.5756
𨗳	-10.5756
沸	-10.5756
武經總要後集卷	-10.5757
丙午	-10.5757
巡邏	-10.5758
社稷	-10.5758
楓橋	-10.5758
棲	-10.5759
鏢	-10.5759
太平興國中	-10.5759
劇	-10.576
裏壕	-10.576
交趾	-10.5761
昔者	-10.5761
捐	-10.5761
鹽盜	-10.5761
倡	-10.5761
腰刀	-10.5762
場	-10.5762
倭舶	-10.5763
酣	-10.5763
旱寨	-10.5763
宋許洞撰	-10.5764
厮	-10.5764
御史	-10.5764
礙	-10.5765
閱	-10.5765
圜	-10.5765
逮	-10.5765
小吉	-10.5766
渚	-10.5766
牙帳	-10.5766
風濤	-10.5767
捲	-10.5767
兎	-10.5767
噪	-10.5768
悲	-10.5768
宥	-10.5769
再拜	-10.5769
尼	-10.577
烏珠	-10.577
枉	-10.5771
浜	-10.5772
庚申	-10.5772
萌	-10.5772
渦	-10.5773
絆	-10.5774
嚙	-10.5774
礁	-10.5774
頸	-10.5774
奔潰	-10.5775
曲阿	-10.5775
該管	-10.5775
沿江	-10.5776
以誘之	-10.5778
永樂	-10.5779
明徹	-10.5779
漁船	-10.5784
蠻界	-10.5784
鳴鼓	-10.5786
左廂	-10.5787
西行	-10.5796
軍民	-10.58
吳淞江口	-10.5801
酋長	-10.5802
許浦	-10.5802
木柵	-10.581
中校	-10.5813
報兵馬事	-10.5817
土地	-10.5818
倉卒	-10.5822
得失	-10.5824
甲申	-10.5824
直抵	-10.5824
奇正	-10.5835
鎗刀	-10.5839
飛報	-10.5842
渭州	-10.5844
往年	-10.5847
違令	-10.5852
聚散	-10.5857
赤氣如	-10.586
興兵	-10.5864
每營	-10.5864
巳午	-10.5867
築土	-10.587
未見	-10.5884
原設	-10.589
引退	-10.5895
積石	-10.5897
方畧	-10.5899
遏賊	-10.59
延州	-10.5901
失利	-10.5901
大斧	-10.5914
賊寇	-10.5928
安西	-10.5938
深一丈	-10.5938
上京	-10.5942
一説	-10.5948
據險	-10.5954
率師	-10.5958
伏威	-10.5959
數萬人	-10.5968
賊掠	-10.5968
六十步	-10.5971
必不能	-10.5975
孔明之	-10.598
崇明縣	-10.5981
擊鼓	-10.5983
江淮	-10.5994
赴敵	-10.5996
否則	-10.6004
十三里	-10.6011
臨戰	-10.6011
雲氣如	-10.6019
居後	-10.6028
南郡	-10.6034
克敵	-10.6036
陳平	-10.6039
一切	-10.6048
長洲縣	-10.606
副將	-10.6071
戰守	-10.6075
南抵	-10.6082
之術也	-10.6083
數年	-10.6084
倭賊	-10.6099
已定	-10.6099
十隻	-10.6101
虎鈐經卷	-10.6107
夏州	-10.6108
使彼	-10.612
咸平中	-10.6125
齊人	-10.6127
星曰	-10.613
巡哨	-10.6157
堅固	-10.6162
一百八十	-10.6163
旗皷	-10.6177
二刻	-10.6179
夏至	-10.6183
雄州	-10.619
援兵	-10.6196
旗一面	-10.6199
勇敢	-10.6203
所屬	-10.6218
敢有	-10.6221
譟	-10.6225
江南經畧	-10.6229
噴筒	-10.6231
皆斬	-10.6233
夜遁	-10.6236
潘	-10.6237
禹貢	-10.6237
懲	-10.6239
牂牁	-10.624
徽	-10.624
湮	-10.6241
轤	-10.6242
佛狼機	-10.6243
湟	-10.6245
治以軍法	-10.6246
澧	-10.6246
挺	-10.6246
礬	-10.6246
鴨	-10.6247
融	-10.6248
宅	-10.6248
涪	-10.6248
數十萬	-10.6248
逕	-10.6248
襍	-10.6248
咒	-10.6248
弭	-10.6249
濤	-10.6249
杏	-10.625
鈐轄	-10.625
幣	-10.625
卒然	-10.6252
育	-10.6253
贊	-10.6253
懾	-10.6254
喻	-10.6255
淳	-10.6256
耐	-10.6256
鳴者	-10.6257
普	-10.6258
乙卯	-10.6259
兄弟	-10.626
坦	-10.626
灼	-10.6261
戰袍	-10.6261
硫	-10.6261
汚	-10.6262
麵	-10.6263
驚擾	-10.6264
家浜	-10.6264
杓	-10.6265
戊午	-10.6265
鼠	-10.6265
退縮	-10.6266
蹤	-10.6266
里界首北至契丹界無鋪	-10.6266
武王曰善哉	-10.6268
焚掠	-10.6268
别有	-10.6268
吐谷渾	-10.6268
召募	-10.6269
崖	-10.6269
髙麗	-10.6269
攅	-10.627
千戸所	-10.6271
挨牌	-10.6271
雖多	-10.6271
舉青旗	-10.6275
鴦	-10.6276
己酉	-10.6281
蕃部	-10.6281
呪	-10.6282
硫黄	-10.6284
弓箭手	-10.6285
呵	-10.6287
木城	-10.6288
石門	-10.629
函	-10.629
䕶塘	-10.6291
擒獲	-10.6292
周旋	-10.6293
疾病	-10.6293
壬癸	-10.6293
市舶	-10.6293
千百	-10.6294
擾亂	-10.6294
氣衰	-10.6295
樓櫓	-10.63
所指	-10.6301
分為四	-10.6303
安置	-10.6305
甲巳	-10.6308
斷絶	-10.6309
素書	-10.6328
生員	-10.6338
似宜	-10.6341
四季	-10.6343
去處	-10.6348
此所謂	-10.6349
戰棚	-10.6355
鎮江府	-10.6356
某處	-10.636
或雲氣如	-10.6362
夜五十	-10.6364
是夜	-10.6367
陽縣	-10.6376
諸部	-10.6377
相繼	-10.639
涼州	-10.6402
陷于	-10.6405
嚴警	-10.6406
長二丈	-10.6413
所臨之	-10.6419
欽定四庫全書虎鈐經卷	-10.6419
京城	-10.6426
唐初	-10.6434
亦須	-10.6434
為備	-10.6435
直衝	-10.6442
一枚	-10.6445
政令	-10.6446
諫曰	-10.6449
焉耳	-10.6449
死傷	-10.6454
十三年	-10.6455
令軍士	-10.6464
士心	-10.6467
無忌	-10.6467
各哨	-10.6469
石湖	-10.6473
来攻	-10.6476
齊發	-10.6478
恐賊	-10.6484
敵情	-10.6485
三錢	-10.6497
齊進	-10.6508
有警急	-10.6517
決勝	-10.6522
半兩	-10.6522
濟河	-10.6529
突入	-10.653
不用命	-10.6533
屯守	-10.6534
二百八十	-10.6552
總兵官	-10.6554
臣聞	-10.656
河陽	-10.6575
晝則	-10.6575
總論	-10.6583
色着	-10.6592
重賞	-10.6594
非常	-10.66
黑雲	-10.6601
横行	-10.6603
鎗手	-10.6611
同心	-10.6612
每遇	-10.6616
守禦人	-10.6618
遼東	-10.662
海塘	-10.6623
紀效新書卷	-10.6624
方面	-10.6629
戰不勝	-10.663
此書	-10.665
寇至	-10.6653
突至	-10.6654
民間	-10.6661
俟賊	-10.6681
白茒	-10.6692
不識	-10.67
未有不	-10.6708
風勢	-10.6709
勇士	-10.6727
煑	-10.6739
師次	-10.6748
乾壽	-10.6749
釵	-10.6764
嗟	-10.6766
橛	-10.6774
艇	-10.6775
祜	-10.6775
誦	-10.6775
鑑	-10.6775
仆	-10.6776
徧	-10.6777
祥符中	-10.6777
聘	-10.6777
龜兹	-10.6777
稅	-10.6777
鍬	-10.6778
癸丑	-10.6778
恣	-10.678
園	-10.678
沃	-10.678
粘	-10.678
客俱不利各宜固守主聞賊備	-10.6781
百戰百勝	-10.6781
謨	-10.6782
巡撫都御史	-10.6783
區區	-10.6783
他皆倣此	-10.6783
況	-10.6783
騷	-10.6783
鋸	-10.6784
主客俱不利各宜固守主聞賊備東	-10.6784
堯	-10.6784
爽	-10.6784
钁	-10.6784
雉堞	-10.6785
孝恭	-10.6785
明戚繼光撰	-10.6786
茶山	-10.6787
妨	-10.6787
羊馬墻	-10.6787
誣	-10.6787
閩	-10.6787
惇	-10.6788
濮	-10.6788
塵埃	-10.6789
膂	-10.679
猶未	-10.679
勑	-10.679
昻	-10.6791
竹筒	-10.6791
麪	-10.6793
蛟	-10.6793
收拾	-10.6793
烏桓	-10.6794
校尉	-10.6794
諒	-10.6794
繚	-10.6795
駒	-10.6796
北控	-10.6798
鬪	-10.6798
巡捕	-10.6798
鎻	-10.6798
彦章	-10.68
翎	-10.68
割耳	-10.6801
福建	-10.6803
摔鈸響	-10.6805
濃	-10.6806
也何也	-10.6806
伐木	-10.6809
盛衰	-10.6809
六畜	-10.681
勞苦	-10.681
添設	-10.6814
門戸	-10.6814
正道也	-10.6815
腕	-10.6817
戒嚴	-10.6818
即此地	-10.6821
胥口	-10.6822
即墨	-10.6822
安豐	-10.6825
不可測	-10.6833
忠義	-10.6833
兩傍	-10.6836
遊騎	-10.6838
行法人	-10.6844
本營	-10.6846
腹内	-10.6848
散地	-10.6849
左右翼	-10.6853
征伐	-10.6854
三百步	-10.6855
照依	-10.6857
一尺二寸	-10.6857
施放	-10.6865
倭船	-10.6871
所轄	-10.6882
建議	-10.6886
風起	-10.6887
三十步	-10.6893
狼山	-10.6896
七刻	-10.6901
裨將	-10.6901
督兵	-10.691
一件	-10.6911
老生	-10.6913
第二陣	-10.6947
郡漢	-10.6948
信義	-10.695
水泉	-10.695
欽定四庫全書紀效新書卷	-10.6951
險隘	-10.697
乘馬	-10.6974
相兼	-10.6982
上游	-10.7
隨身	-10.7009
也雖然	-10.7018
依次	-10.7029
色赤	-10.7035
去就	-10.7035
監軍	-10.7039
有雲如	-10.7039
麟州	-10.7048
所載	-10.7057
乎靖曰	-10.7058
鎮海	-10.7059
旗號	-10.7064
日久	-10.7066
十五里南至	-10.7083
勿使	-10.7084
三十餘	-10.7097
相交	-10.7103
蘭州	-10.7111
傳報	-10.7118
委官	-10.7118
賊大敗	-10.712
臨事	-10.7136
吳王	-10.7143
襲其	-10.7149
臣謂	-10.7162
武進縣	-10.7166
舊法	-10.7173
如何而	-10.7179
答曰	-10.7184
運河	-10.7191
而言之	-10.7195
四十餘	-10.7212
燕趙	-10.7222
三斤	-10.7232
覇	-10.7274
擒斬	-10.7282
一戰而	-10.7297
爐	-10.7302
谷口	-10.7312
他若使一	-10.7313
女墻	-10.7315
滙	-10.7316
朔州	-10.7316
俟其	-10.7317
逈	-10.732
肺	-10.7322
杆	-10.7323
不失其	-10.7324
喬	-10.7324
稻	-10.7324
聚劫	-10.7328
賓	-10.7329
沔	-10.7329
喫	-10.733
等謹案	-10.7331
嵐	-10.7331
欒	-10.7331
摶	-10.7332
案	-10.7332
邕	-10.7332
喚	-10.7332
顆	-10.7333
敬業	-10.7333
需	-10.7333
牲	-10.7335
播	-10.7335
稠	-10.7335
旂	-10.7335
滸墅	-10.7336
晩	-10.7337
忙	-10.7337
蝎	-10.7338
腰牌	-10.7338
扞	-10.7338
囬	-10.7338
軰	-10.7339
勃勃	-10.7339
餓	-10.7339
噐	-10.7339
鑄	-10.7339
琰	-10.734
巡按御史	-10.734
大小將迫	-10.7341
㸔	-10.7341
皋	-10.7341
率精騎	-10.7341
綠	-10.7341
宋曾公亮等撰	-10.7342
糠	-10.7342
梟	-10.7342
址	-10.7342
夷狄	-10.7342
攜	-10.7343
盤詰	-10.7343
皆其信地	-10.7343
滎陽	-10.7343
筭	-10.7343
祗	-10.7344
奕	-10.7344
脆	-10.7345
鏁	-10.7346
悅	-10.7346
後漢末	-10.7346
擄掠	-10.7346
鈐	-10.7347
武侯問曰	-10.7347
訛	-10.7347
艟	-10.7348
楊舍	-10.7349
揚帆	-10.7349
李勣	-10.7349
甲胄	-10.735
閶門	-10.7351
堵	-10.7352
哨隊長	-10.7352
住劄	-10.7352
濛	-10.7353
笠	-10.7353
劉家港	-10.7354
恕	-10.7354
掌印官	-10.7354
僉事	-10.7354
都指揮使	-10.7355
堂堂	-10.7355
鼙	-10.7356
砦在州西	-10.7356
錡	-10.7357
字圩	-10.7357
釣	-10.7357
偉	-10.7359
元昊	-10.736
靠	-10.7361
控扼	-10.7362
熈	-10.7363
黄色	-10.7363
二層	-10.7365
侯景	-10.7365
海濵	-10.7365
明堂	-10.7365
登陸	-10.7366
登泊	-10.7367
田單	-10.7367
加季	-10.7368
有限	-10.7371
仲逹	-10.7371
馳突	-10.7371
可汗	-10.7372
延陵	-10.7372
掌號	-10.7375
明白	-10.738
夜四十	-10.7381
相傳	-10.7384
簳	-10.7384
錢糧	-10.7387
字號	-10.7389
協守	-10.7392
三泖	-10.7395
追奔	-10.7397
莫知所	-10.7397
鳥雲	-10.7401
甚盛	-10.7402
十六隊	-10.7408
蒼山	-10.7409
從魁	-10.7411
烟火	-10.7412
根本	-10.7413
恐懼	-10.7413
太公所謂	-10.7419
長六尺	-10.7426
郡古	-10.7432
經云	-10.7433
文字	-10.7435
文帝	-10.7441
塘報	-10.7443
黄魚	-10.7445
數千里	-10.7448
追逐	-10.7449
飛龍	-10.7457
知節	-10.7469
悞事	-10.7475
四千人	-10.7484
七百五十	-10.7485
如是則	-10.7492
先驅	-10.7503
甚易	-10.7503
失機	-10.7512
善射	-10.7513
襲我	-10.7525
二萬人	-10.7547
戰鬬	-10.7565
戎馬	-10.7578
伺其	-10.758
壯勇	-10.7597
東晉	-10.7638
白雲	-10.7674
色青	-10.7681
三十六里	-10.7682
未决	-10.7693
久矣	-10.7704
莫知	-10.7718
遇有警	-10.7731
兩軍相	-10.7739
寛大	-10.7742
决勝	-10.7782
轄	-10.7814
週圍	-10.7831
日暈有	-10.7867
焙	-10.7882
五月賊	-10.7884
崑	-10.7894
閔行	-10.7902
宇	-10.7903
扁	-10.7907
駟	-10.7911
比較	-10.7912
潼	-10.7913
冗	-10.7914
阡能	-10.7914
銷	-10.7914
䭾	-10.7915
苑	-10.7915
雁	-10.7916
庄	-10.7916
兖	-10.7917
㳺	-10.7918
罸	-10.7918
軒轅	-10.7918
秣	-10.7918
栗	-10.7918
擎	-10.7918
餅	-10.7918
党項	-10.7918
歎	-10.7919
雅	-10.7919
幔	-10.792
蟠	-10.792
瑕	-10.7921
蔣	-10.7921
牟	-10.7921
斛	-10.7922
薊	-10.7923
一百三十里	-10.7923
潞	-10.7923
十分一萬二千五百	-10.7924
雋	-10.7924
井陘	-10.7925
舷	-10.7925
藁	-10.7926
擊客算	-10.7926
寒暑	-10.7927
袁紹	-10.7927
苻	-10.7928
佞	-10.7928
澱山湖	-10.7929
織	-10.7929
樞	-10.7929
繇	-10.793
粒	-10.7931
揭	-10.7931
潔	-10.7931
淮揚	-10.7931
翁	-10.7932
澱	-10.7932
賁	-10.7932
奠	-10.7932
脉	-10.7933
臆	-10.7933
階	-10.7935
如愚見	-10.7936
鄜	-10.7936
滯	-10.7937
球	-10.7937
縣境考	-10.7937
墅	-10.7939
張煜	-10.794
范蠡	-10.794
冐	-10.794
舉白旗	-10.7941
霆	-10.7941
營前沙	-10.7941
帖	-10.7941
蛇蟠	-10.7943
角聲絶	-10.7943
你們	-10.7943
雷霆	-10.7943
蹲	-10.7944
彎	-10.7944
穽	-10.7947
東西南北	-10.7949
驚潰	-10.7949
長八尺	-10.795
蔑	-10.7951
本港	-10.7953
之類是也	-10.7954
操演	-10.7954
神鎗	-10.7955
牛羊	-10.7955
或擊其	-10.7955
金帛	-10.7957
淮隂	-10.7959
矛㦸	-10.7962
青邨所	-10.7963
熟鐵	-10.7966
奏請	-10.7975
轉運	-10.7975
子弟	-10.798
廣狹	-10.7983
向裏	-10.7988
偃旗	-10.8003
嵗月	-10.8004
觀望	-10.8005
刑賞	-10.8007
智勇	-10.8017
女子	-10.8022
拒戰	-10.8026
逆順	-10.8026
常州府	-10.8032
鋭卒	-10.8033
羣臣	-10.8042
竒功	-10.8044
曲直	-10.8044
流突	-10.8063
擊賊於	-10.8072
良相	-10.8074
溺死	-10.8075
淮安	-10.8127
羈縻州	-10.813
巡檢司	-10.814
乘間	-10.8145
全隊	-10.8149
部隊	-10.815
登山	-10.816
掩擊	-10.8177
敎戰	-10.8182
威武	-10.8183
日旁	-10.8187
沙民	-10.8188
四刻	-10.8211
待敵	-10.8211
督戰	-10.828
靖曰臣	-10.8309
方許	-10.8333
發矢	-10.8339
二隻	-10.8348
蔚州	-10.8375
六千人	-10.839
戰不利	-10.8416
宜固守聞賊備西南第	-10.8423
八陣圖	-10.8433
翦	-10.8441
遇夜	-10.8474
禦寇	-10.8481
夜襲	-10.8491
竒伏	-10.8498
沛	-10.8511
敲	-10.8519
鑽	-10.8522
粤	-10.8527
倣	-10.8528
罡	-10.853
嗣源	-10.8531
椗	-10.8533
擔	-10.8536
註	-10.8537
綵	-10.8537
蠡	-10.8538
耆	-10.8539
祀	-10.8541
鴉	-10.8541
轂	-10.8542
批	-10.8543
陽城湖	-10.8543
㢲	-10.8543
鮎魚口	-10.8544
巡檢	-10.8544
纏	-10.8544
糾	-10.8545
僑	-10.8545
蒿	-10.8545
聫	-10.8546
䟽	-10.8546
耗	-10.8546
羗	-10.8546
貽	-10.8546
俞	-10.8547
隋開皇	-10.8547
殱	-10.8547
攙	-10.8547
秩	-10.8548
像	-10.8548
迤	-10.8548
穢	-10.8548
贖	-10.8548
家港	-10.8549
潼關	-10.855
壬午	-10.855
怕	-10.855
孫臏	-10.855
庇	-10.855
歳	-10.855
斥堠	-10.8551
北至契丹界無鋪	-10.8551
桔	-10.8551
瞰	-10.8551
圖原闕	-10.8552
僅以身免	-10.8552
翊	-10.8553
寳山寨	-10.8553
屑	-10.8553
曉諭	-10.8554
笛	-10.8554
逞	-10.8554
天禧中	-10.8554
瓢	-10.8555
奥	-10.8555
賜今名	-10.8555
烽堠	-10.8556
挈	-10.8556
謂諸將曰	-10.8556
新竈沙	-10.8556
孚	-10.8557
郵	-10.8557
澁	-10.8557
男女	-10.8557
腐	-10.8557
擂鼓	-10.8558
荷	-10.8558
犄角	-10.8558
窠	-10.8559
諠譁	-10.8559
豨	-10.856
者其南路也	-10.856
萊	-10.856
誑	-10.8561
拙	-10.8561
戀	-10.8562
壬辰	-10.8562
舜	-10.8562
擣	-10.8562
裴緒	-10.8563
骸	-10.8564
韃	-10.8564
泗	-10.8565
斾	-10.8565
善守者	-10.8566
春夏	-10.8567
之智而	-10.8567
砒	-10.8567
百萬之衆	-10.8568
蹶	-10.8568
羣盜	-10.8568
嗣昭	-10.857
葑門	-10.857
陡	-10.857
紀律	-10.8572
唇	-10.8572
財帛	-10.8574
庚辛	-10.8574
商英	-10.8575
挨次	-10.8575
刑罰	-10.8577
遊都	-10.8579
絞車	-10.858
肚	-10.8581
受其害	-10.8582
在縣治東	-10.8583
三十七	-10.8584
臨日辰	-10.8585
沛公	-10.8585
用兵之道	-10.8588
鈎連	-10.8588
敗賊於	-10.8591
軍上氣如	-10.8591
隴右	-10.8592
六丙	-10.8595
七鴉港	-10.8595
武牢	-10.8596
柘林賊	-10.8598
周浦	-10.8602
皂旗	-10.8602
八陣之法	-10.8604
本職	-10.8606
望樓	-10.8609
教練	-10.8612
車駕	-10.8614
應募	-10.862
孫士	-10.8624
王翦	-10.8624
一百六十里	-10.8627
夢見	-10.8627
約二十里	-10.8632
一般	-10.8632
後殿	-10.8636
愚謂	-10.8637
反覆	-10.8638
待彼	-10.8643
旬日	-10.8654
宣王	-10.866
每嵗	-10.8666
奔衝	-10.8672
德威	-10.8673
刀鎗	-10.8678
接應	-10.8679
父子	-10.8682
修復	-10.8682
一百名	-10.8687
胡騎	-10.8708
此五者	-10.8713
施設	-10.872
左竒	-10.872
散走	-10.8735
陳湖	-10.8739
女頭	-10.8762
屯戍	-10.8806
閉門	-10.8811
一百六十	-10.8819
五音	-10.8828
旛	-10.883
一千五百	-10.886
丈八尺	-10.8893
潤州	-10.8909
振武	-10.8919
二尺五寸	-10.8947
吳江縣	-10.9072
敗績	-10.9074
呉淞	-10.9077
尚未	-10.9081
般	-10.9156
主勝聞賊備	-10.9177
扒	-10.919
􁁜	-10.919
十八年	-10.9192
軍法示衆	-10.9194
軍上氣	-10.9195
僉	-10.9195
父母妻子	-10.9197
緯	-10.9197
糊	-10.9198
七鴉	-10.92
銑	-10.9201
阿保機	-10.9202
􁴖	-10.9203
瓮	-10.9204
鶻	-10.9205
鏜	-10.9205
淘	-10.9205
狃	-10.9206
諾	-10.9207
週	-10.9207
一萬二千五百	-10.9208
擢	-10.9208
新洋江	-10.9208
皁	-10.921
禱	-10.921
衆寡不敵	-10.921
鱗	-10.921
詢	-10.9211
淡	-10.9211
深入敵境	-10.9211
裘	-10.9212
駿馬	-10.9212
嘉靖甲寅	-10.9213
瓜	-10.9214
四竒四正	-10.9214
婆	-10.9214
扺	-10.9214
坂	-10.9214
險要說	-10.9215
譚	-10.9215
㳂	-10.9215
汰	-10.9215
何辯之葢	-10.9216
客聞賊備東北第	-10.9216
葱	-10.9216
洺	-10.9216
状	-10.9217
犂	-10.9217
欄	-10.9217
頒	-10.9218
慘	-10.9218
筌	-10.9218
儘	-10.9218
壑	-10.9218
每堠另設瞭守弓兵五名	-10.9218
戰大破之	-10.9218
踢	-10.9218
欽定四庫全書子部二	-10.9218
糜	-10.9219
騁	-10.922
籬	-10.922
穗	-10.9221
其道有三由	-10.9221
太乙助主	-10.9221
鞏	-10.9221
吟	-10.9221
瑱	-10.9221
涸	-10.9222
豫章	-10.9222
且戰且	-10.9222
鄢	-10.9222
司馬懿	-10.9222
鈞	-10.9222
宇文泰	-10.9222
跌	-10.9223
廩	-10.9223
颶風	-10.9223
昀	-10.9223
瞬	-10.9224
罩	-10.9224
顔色	-10.9224
昆陽	-10.9224
鎭	-10.9225
茲	-10.9225
戢	-10.9225
慕	-10.9225
庶幾	-10.9225
徭	-10.9225
張士誠	-10.9226
合而為一	-10.9226
莫大於	-10.9226
徤	-10.9226
麓	-10.9226
武經總要	-10.9226
航	-10.9226
岢嵐	-10.9226
竝	-10.9227
鵞	-10.9227
𢷬	-10.9228
懐恩	-10.9228
靖康	-10.9228
蔡公	-10.9228
繆	-10.9229
話	-10.9229
摩訶	-10.9229
錠	-10.9229
宫室	-10.923
一日一夜	-10.923
魚麗	-10.923
媯	-10.9231
角木蛟	-10.9231
馬蹟	-10.9232
鞋	-10.9233
羆	-10.9233
四兩八錢	-10.9233
廻	-10.9233
鐙	-10.9234
西域	-10.9235
嘶	-10.9235
抄掠	-10.9235
千餘里	-10.9236
匪	-10.9237
啖	-10.9237
羨	-10.9237
糧餉	-10.9237
仲達	-10.9237
遲速	-10.9238
百里北至	-10.9239
蠡口	-10.9239
漏泄	-10.924
十丈	-10.9241
彭越	-10.9242
團結	-10.9243
講武	-10.9243
協力	-10.9243
天文總論曰	-10.9245
互市	-10.9245
百瀆	-10.9246
真宗	-10.9246
包港	-10.9248
驚駭	-10.9249
一舉而	-10.925
軍如是者斬之	-10.9251
安亭	-10.9251
高祖	-10.9251
嚴肅	-10.9252
木驢	-10.9256
兩廂	-10.9256
彊弱	-10.9256
甲戌	-10.9257
楊素	-10.9257
六十里北至	-10.9258
禍福	-10.9258
牽制	-10.9262
漲天	-10.9263
白虹	-10.9268
譬如	-10.927
陳規	-10.9272
有暴兵	-10.9275
起對曰	-10.9276
相剋	-10.9278
登犯	-10.9287
覇州	-10.9289
被傷	-10.9296
性命	-10.93
靈武	-10.9305
偏師	-10.9305
長史	-10.9305
齊侯	-10.9307
衛青	-10.9315
吏卒	-10.9316
呉起	-10.9317
奔散	-10.9319
富貴	-10.9319
擊刺	-10.9319
辰巳	-10.9322
勿疑	-10.9323
白氣如	-10.9324
示弱	-10.9329
數倍	-10.9329
危急	-10.9333
歩卒	-10.9334
兩岸	-10.9338
練鄉兵	-10.9368
火炬	-10.9369
藍旗	-10.9442
孔明八陣	-10.9455
蘇常	-10.9557
運糧	-10.9559
懷逺	-10.9567
者亦斬	-10.9647
保甲	-10.9678
旗旛	-10.968
甕城	-10.97
内迫	-10.9756
警備	-10.9778
利為主見陣利後動出軍宜	-10.9891
捍海塘	-10.9894
掌印	-10.9899
泒	-10.9905
葑	-10.9912
除仰斜留	-10.9913
兌	-10.9914
辟	-10.9915
茶	-10.9915
菴	-10.9915
證	-10.9916
杜塞無門	-10.9917
蹂踐	-10.9917
秋糧米	-10.9918
刁	-10.9919
刈	-10.992
票	-10.9921
燎	-10.9921
兵備副使任公環	-10.9922
瘴	-10.9923
嘯	-10.9923
漂	-10.9924
瑋	-10.9925
燬	-10.9925
皓	-10.9926
潦	-10.9927
䖏	-10.9927
吳子問孫武曰	-10.9927
无	-10.9928
遮蔽	-10.9928
銕	-10.9928
寰	-10.9928
縻	-10.9929
弼	-10.9929
玊	-10.9929
堞	-10.9929
宫發主㕘將	-10.9929
叩	-10.9929
郷	-10.993
戶	-10.993
猷	-10.993
淄	-10.993
葫蘆	-10.9931
乾姜	-10.9931
撩	-10.9931
瀝	-10.9932
濫	-10.9933
朶	-10.9933
趙充國	-10.9933
詡	-10.9933
㢘	-10.9933
吁	-10.9934
月十六日	-10.9934
箭晝五十	-10.9935
卵	-10.9935
嶼	-10.9936
虢	-10.9936
惟通單騎	-10.9936
撃大破之	-10.9936
罵	-10.9936
淹	-10.9936
枹	-10.9936
鄯州	-10.9936
獅	-10.9936
七十五人	-10.9937
翳	-10.9937
艱難	-10.9937
圯	-10.9937
郭子儀	-10.9937
札	-10.9937
䕫	-10.9938
赫	-10.9938
綘	-10.9938
在縣治東南	-10.9938
㗖	-10.9938
煜	-10.9939
譁	-10.9939
尚饗	-10.994
鐘	-10.994
軍䜟有曰	-10.9941
穏	-10.9941
汜	-10.9941
峰	-10.9941
腋	-10.9941
鴻	-10.9942
當其衝	-10.9942
站	-10.9942
識認	-10.9942
蟻附	-10.9943
諌	-10.9944
孫呉	-10.9944
宋信嘴	-10.9944
姬	-10.9945
模	-10.9945
泖湖	-10.9946
疎虞	-10.9946
措置	-10.9946
月將加時	-10.9947
瓘	-10.9947
碍	-10.9948
濱海	-10.9948
遁出海	-10.9949
魚腹	-10.9949
嗟乎	-10.995
幢	-10.995
採探	-10.995
世祖	-10.995
吃	-10.9951
芻糧	-10.9952
網船	-10.9952
剌	-10.9953
靴	-10.9954
謂人樂	-10.9954
丙寅	-10.9954
四肢	-10.9955
握奇	-10.9955
肋	-10.9956
晙	-10.9957
轉輸	-10.9959
開闔	-10.9961
抹	-10.9962
荆州占曰	-10.9962
附郭	-10.9964
鬆	-10.9964
尤甚	-10.9964
牽牛	-10.9967
延伯	-10.9969
熟戸	-10.9969
鳴皷	-10.997
遣其將	-10.9974
七十里西至	-10.9975
伍隊長	-10.9976
取首級	-10.9977
口舌	-10.9978
建業	-10.9979
虹蜺	-10.998
奮勇	-10.9985
糧運	-10.9985
彊弩	-10.9988
平旦	-10.9991
浮橋	-10.9991
山之陽	-10.9994
六十四陣	-10.9995
虜掠	-10.9997
渭南	-11
戮力	-11.0005
槍刀	-11.001
空虚	-11.0012
幾何	-11.0013
審察	-11.0022
白茒港	-11.0055
圍繞	-11.0189
副總兵	-11.0309
一定之	-11.0309
二百七十里	-11.0394
裨	-11.0544
二百六十	-11.0579
召諸	-11.0644
諱	-11.0654
蹖	-11.0663
螺	-11.0665
觔	-11.0669
客勝聞賊備	-11.0676
陶宅	-11.0679
來打我	-11.068
袴	-11.068
茄	-11.0682
緑	-11.0684
閏	-11.0684
什物	-11.0684
隸	-11.0684
鐶	-11.0684
葉謝	-11.0687
棧	-11.0688
渺	-11.0688
罹	-11.0688
拗	-11.0688
搬運	-11.0688
四尺五寸	-11.0689
芟	-11.069
巴豆	-11.0691
敢死士	-11.0691
羡	-11.0692
安肅軍	-11.0692
躁	-11.0692
為細末	-11.0692
績	-11.0692
諺	-11.0693
豕	-11.0693
弄	-11.0693
分之一	-11.0693
長吳二縣	-11.0694
判	-11.0694
橫	-11.0695
聮	-11.0695
昇	-11.0695
糓	-11.0695
冒頓	-11.0695
項籍	-11.0696
不可不察也	-11.0696
炅	-11.0696
酸	-11.0696
讎	-11.0696
洳	-11.0696
飼	-11.0697
紿	-11.0697
八八六十四	-11.0697
啄	-11.0698
刷	-11.0698
夥	-11.0699
玉女	-11.0699
岩	-11.0699
郃	-11.07
陣間容陣隊間容隊	-11.07
淝水	-11.07
躱	-11.07
跟	-11.07
太乙雖助	-11.07
幄	-11.0701
廣信軍	-11.0701
六韜卷第	-11.0701
總兵俞大猷	-11.0701
七十里北至	-11.0702
輯	-11.0702
夏駕浦	-11.0702
煤	-11.0702
幼	-11.0702
啗	-11.0702
尉繚子	-11.0703
肌	-11.0703
疲倦	-11.0703
估	-11.0703
鶉	-11.0703
秋冬	-11.0703
諠	-11.0704
宵遁	-11.0704
檢校	-11.0704
扶胥	-11.0704
器仗	-11.0704
邱	-11.0704
西戰利正東利方陣舉白旗雲氣從西來	-11.0704
弁	-11.0705
歛	-11.0705
厨	-11.0705
瞻	-11.0706
酷	-11.0706
鬻	-11.0706
殪	-11.0706
裝束	-11.0706
叅將八宫	-11.0706
舁	-11.0706
以少擊衆	-11.0706
披靡	-11.0706
埤	-11.0706
串	-11.0707
撈	-11.0707
廵檢	-11.0707
武王問太公曰引兵深入諸侯之地	-11.0707
鼔譟	-11.0708
建炎	-11.0708
戾	-11.0708
客杜塞無門	-11.0708
臨淄	-11.0708
瑄	-11.0708
揆	-11.0708
座窩舖	-11.0709
豹尾	-11.0709
龎	-11.0709
擠	-11.0709
轍	-11.071
四面受敵	-11.071
蹂	-11.071
受降城	-11.071
戎馬來路	-11.071
杉	-11.0711
鎮海衞	-11.0711
頃刻	-11.0711
仕	-11.0711
噴	-11.0711
睨	-11.0711
駱	-11.0712
劫掠	-11.0712
破之必矣	-11.0712
遮隔	-11.0713
晒乾	-11.0713
一寸五分	-11.0713
州三百五十里	-11.0713
泚	-11.0713
舉赤旗	-11.0713
淖	-11.0713
廿	-11.0713
畝	-11.0714
塔	-11.0714
蠶	-11.0714
侍郎	-11.0716
曵	-11.0716
魴	-11.0716
盧循	-11.0716
嘆	-11.0717
盞口將軍	-11.0717
女頭墻	-11.0717
訶	-11.0717
長一丈二尺	-11.0717
繒	-11.0718
五行傳曰	-11.0718
詎	-11.0718
以生牛皮	-11.0719
排叉木	-11.072
鮑	-11.0721
延孝	-11.0723
匈	-11.0723
鼎足	-11.0723
陜西	-11.0724
飲酒	-11.0724
昂	-11.0726
採捕	-11.0726
芒角	-11.0728
愧	-11.0728
𦍑	-11.0729
殆盡	-11.0729
財貨	-11.0729
猶豫	-11.0729
望亭	-11.073
㸑	-11.0732
龍騰	-11.0733
剽掠	-11.0736
宫其神	-11.0737
井泉	-11.0738
吹長聲	-11.0738
右虞候	-11.0739
要害之地	-11.074
二十一日	-11.074
左右虞候	-11.0748
丞相	-11.0751
奔突	-11.0757
范陽	-11.0757
𦂳要	-11.0763
電擊	-11.0765
曰吾聞	-11.0771
十箇	-11.0777
乙庚	-11.0798
唱殺	-11.0817
增築	-11.0827
五陣之	-11.0892
福山港	-11.0905
百里西南至	-11.0917
趙括	-11.0925
十萬之衆	-11.0959
握竒經	-11.1184
都巡檢	-11.1239
)□(	-11.1466
婦	-11.1471
慶厯	-11.1491
簾	-11.1493
梭	-11.1504
財賦	-11.1504
暨	-11.1506
凍	-11.1512
飭	-11.1514
稼	-11.1517
瘥	-11.1518
朴	-11.1519
装	-11.1519
日日食兵起	-11.152
柏	-11.152
蓼	-11.152
寂	-11.152
蒐	-11.1522
潘美	-11.1524
順安軍	-11.1524
核	-11.1525
通判	-11.1525
戈矛	-11.1525
逵	-11.1525
丫	-11.1526
晡	-11.1526
揖	-11.1526
麋	-11.1526
二百六十里	-11.1526
竪	-11.1528
慨	-11.1528
蠲	-11.1528
未之有也	-11.1528
㑹稽郡	-11.1529
鍵	-11.1529
兵家類提要	-11.153
黄窪	-11.153
鴟	-11.153
知縣楊芷	-11.153
綜	-11.153
眷	-11.1531
杲	-11.1531
贍	-11.1531
苖	-11.1531
朋	-11.1531
茹	-11.1532
沂	-11.1532
蓆	-11.1532
淳化中	-11.1532
馘	-11.1532
邛	-11.1532
嵗月日時	-11.1532
蹟	-11.1532
宵	-11.1533
噫	-11.1533
賊首蕭顯	-11.1533
狠	-11.1533
梢砲	-11.1533
宋曽公亮等撰故事	-11.1533
邳	-11.1533
虞鼔動肅儀仗	-11.1534
斌	-11.1534
雷電	-11.1534
戎狄	-11.1534
臭	-11.1534
計神戌此局	-11.1535
傘	-11.1535
缶	-11.1535
砍刀	-11.1535
誇	-11.1535
壽春	-11.1535
冲	-11.1536
薩	-11.1536
兮	-11.1536
妃	-11.1536
鎮戎軍	-11.1536
畔	-11.1536
邢	-11.1536
歆	-11.1537
商賈	-11.1537
峭	-11.1537
峯	-11.1537
戯	-11.1537
憊	-11.1538
梨花	-11.1538
塜	-11.1538
洒	-11.1538
叚	-11.1538
冶	-11.1539
唐開元中	-11.1539
月天門在	-11.1539
拖	-11.154
青邨南滙	-11.154
險阨	-11.1541
鄧艾	-11.1541
恊	-11.1542
凋	-11.1542
碾	-11.1542
堵截	-11.1542
李繼隆	-11.1542
奔牛鎮	-11.1543
設弓兵四十名往來巡邏所屬烽堠	-11.1543
常川操練	-11.1543
以逸待勞	-11.1543
闇	-11.1543
放砲三箇	-11.1544
筮	-11.1544
孰與己	-11.1544
猾	-11.1544
貴賤	-11.1544
撿	-11.1544
禡	-11.1544
檑	-11.1544
川沙堡	-11.1545
裔	-11.1545
戊戌	-11.1545
闉	-11.1545
柝	-11.1545
櫃	-11.1546
抛入陣	-11.1546
陁	-11.1546
鴈門	-11.1546
虎豹	-11.1546
僞	-11.1546
態	-11.1547
真定府	-11.1548
嫉	-11.1548
寃	-11.1549
乙夘	-11.1549
軾	-11.1549
荻	-11.1549
太倉衞	-11.155
億萬	-11.155
攢	-11.155
環繞	-11.155
訟	-11.1551
保障	-11.1552
棓	-11.1552
聞鼓聲	-11.1552
文王問太公曰	-11.1552
彀	-11.1553
尾火虎	-11.1553
手把銃	-11.1553
符契	-11.1554
聳	-11.1555
黥布	-11.1555
呉子曰	-11.1556
鳥嘴銃	-11.1556
臨洮	-11.1556
查考	-11.1556
冐頓	-11.1557
陣令各軍	-11.1559
深溝髙壘	-11.1559
轉軸	-11.156
釡	-11.156
蜋	-11.156
丁壬	-11.156
擘	-11.1561
海滄	-11.1565
吊	-11.1565
莫測	-11.1566
者聚爲一卒	-11.157
𫝊送	-11.1574
砦二十五里	-11.1587
敵上氣	-11.1595
也吾則	-11.1619
大將發利為客見陣利先動出軍宜	-11.1707
丈二尺	-11.1722
先王之	-11.1738
師敗績	-11.1754
蔚	-11.178
千戸	-11.1903
縣總論	-11.1997
計神丑此局	-11.2057
十餘丈	-11.2091
里三十步	-11.2182
三千五百	-11.2188
無處不	-11.2237
叅將二宫	-11.2245
武經總要前集卷	-11.2319
欽定四庫全書武經總要前集卷	-11.2323
皂	-11.2336
欽定四庫全書武經總要後集卷	-11.2365
水調下	-11.2392
祈	-11.241
醫巫閭山	-11.2413
瘟	-11.2418
亭亭	-11.242
獐	-11.2421
狩	-11.2423
糴	-11.2423
㓕	-11.2424
篙	-11.2424
渝	-11.2424
些	-11.2426
滓	-11.2427
攩	-11.2427
匡	-11.2428
偹	-11.2429
曺	-11.2429
蔡廟	-11.243
瘧	-11.243
换	-11.243
頡利	-11.2431
痢	-11.2431
一枝令千户一員領泊	-11.2431
紋	-11.2431
丙申	-11.2431
蒜	-11.2432
氣律中	-11.2432
嚼	-11.2433
塡	-11.2434
窪	-11.2434
酬	-11.2435
甄	-11.2435
拯	-11.2436
放起火三枝	-11.2436
周而復始	-11.2436
顚	-11.2437
陲	-11.2437
撘	-11.2438
瀚	-11.2438
滴	-11.2438
宦	-11.2438
阪	-11.2439
犁	-11.2439
互為聲援	-11.2439
沖	-11.2439
舫	-11.244
罌	-11.244
複	-11.244
纜	-11.244
勾踐	-11.244
百死在	-11.244
晒	-11.244
刪	-11.244
攪	-11.244
闥	-11.244
溪澗	-11.2441
塼	-11.2442
主挾客㕘將	-11.2442
伏羲	-11.2442
䥥	-11.2442
肝	-11.2443
咨	-11.2443
堅壁清野	-11.2443
偵	-11.2443
梧	-11.2443
侔	-11.2443
淯井鹽	-11.2443
桞	-11.2443
芷	-11.2444
碑	-11.2444
㡌	-11.2444
閻	-11.2444
褒	-11.2444
甓	-11.2444
璹	-11.2444
腹背受敵	-11.2445
乾隆四十六年	-11.2445
叅將不出中宫	-11.2446
這	-11.2446
檻	-11.2446
睿	-11.2446
雕	-11.2447
䍐	-11.2447
晃	-11.2447
輻	-11.2447
斬首數千級	-11.2447
颺	-11.2448
鉅	-11.2448
漢髙帝	-11.2448
盔	-11.2448
回紇	-11.2448
胡公宗憲	-11.2449
貲	-11.2449
入敵境	-11.2449
公祏	-11.2449
壺	-11.2449
屈突通	-11.2449
縣水陸路考	-11.245
舂	-11.245
乍浦	-11.245
五龍橋	-11.245
藝文志	-11.245
兵行哨竒兵設伏輕兵出襲焉斯可矣	-11.245
隗	-11.245
享	-11.2451
泝	-11.2451
張掖	-11.2451
梆	-11.2451
人自為戰	-11.2452
宋曽公亮等撰	-11.2452
猴	-11.2452
恁	-11.2452
妾	-11.2453
薛仁貴	-11.2453
撮	-11.2453
李淳風曰	-11.2453
虗	-11.2454
廬舍	-11.2455
千户所營在	-11.2455
恢	-11.2455
禳	-11.2455
劣	-11.2455
砒霜	-11.2456
噬	-11.2456
撑	-11.2456
斛律	-11.2457
插	-11.2457
﨑	-11.2457
䖍	-11.2458
伊尹	-11.2458
戊癸	-11.2458
歸師勿遏	-11.2459
冰	-11.2459
映	-11.246
州在戎州南	-11.2461
第一百六十	-11.2461
丙辛	-11.2462
跑	-11.2462
倐忽	-11.2462
碇	-11.2463
殫	-11.2463
巡司弓兵	-11.2463
辛酉	-11.2464
撼	-11.2464
垠	-11.2464
為疑兵	-11.2464
為左翼	-11.2465
閫	-11.2468
唐公順之	-11.2469
頰	-11.2469
汎	-11.2469
聊	-11.2469
日時加	-11.247
河圖帝覽嬉曰	-11.2472
樺	-11.2472
宣慰	-11.2472
洶	-11.2474
攻城圍邑	-11.2481
雷公六律曰天一	-11.2483
濞	-11.2504
小將挾客	-11.2547
衡軸	-11.255
武經總要前集卷十	-11.2573
欽定四庫全書武經總要前集卷十	-11.2575
蘇州衞	-11.2621
百三十里南至	-11.2691
縣出賊	-11.2779
陸費墀	-11.3043
州為治所	-11.3289
俄	-11.3354
該工食銀	-11.337
擴	-11.3396
灋	-11.3402
崇韜	-11.3405
州五百六十里	-11.3405
度於辰在	-11.3406
缸	-11.3413
嵒	-11.3415
闌	-11.3416
搽	-11.3417
亨	-11.3419
月合宿	-11.342
軼	-11.342
總兵湯克寛	-11.3421
長二丈五尺	-11.3422
猿	-11.3423
冊	-11.3424
染	-11.3424
萃	-11.3424
鐮	-11.3425
柁	-11.3425
勣	-11.3426
袒	-11.3426
葭	-11.3427
漳	-11.3428
偘	-11.3428
涯	-11.3429
眠	-11.3429
剥	-11.343
滆	-11.343
明唐順之撰	-11.343
月節影長	-11.343
墳	-11.3431
揚子江	-11.3431
兕	-11.3432
兑	-11.3432
蘄	-11.3433
七浦塘	-11.3433
屹	-11.3433
搬	-11.3433
獨孤及	-11.3434
訊	-11.3435
則如之何武曰	-11.3435
縣倭患事蹟	-11.3435
兵備任公環	-11.3435
苛	-11.3436
爲之柰何太公曰	-11.3436
陴	-11.3436
墾	-11.3436
阮	-11.3437
霖	-11.3437
酈	-11.3438
澳	-11.3438
翁家港	-11.3439
莘	-11.3439
㪷	-11.344
輝	-11.344
餒	-11.344
金匱經	-11.344
幇	-11.3441
廐	-11.3441
唐天寳	-11.3441
銖	-11.3441
盲	-11.3441
棋	-11.3441
芝	-11.3441
狭	-11.3442
裡	-11.3442
諉	-11.3442
平肩滿射	-11.3442
聾	-11.3442
俸	-11.3443
一兩六錢	-11.3443
沽	-11.3443
詳見各圖説於後	-11.3443
鶚	-11.3443
東北竒兵東北伏兵利	-11.3443
鎔	-11.3444
淵藪	-11.3444
客目掩	-11.3444
宫天目陰徳	-11.3444
催	-11.3444
州至羅巖州	-11.3444
敢死之士	-11.3444
船旗心用色邊用色帶用色	-11.3444
竹箔	-11.3444
蝟	-11.3445
倍道兼行	-11.3445
東戰利正西利鋭陣舉赤旗雲氣從東來	-11.3445
天鵞聲	-11.3445
訴	-11.3445
瑜	-11.3446
璠	-11.3446
寐	-11.3446
羊馬牆	-11.3446
踴躍	-11.3446
肇	-11.3447
帝王之	-11.3447
喘	-11.3447
蓐	-11.3447
邈	-11.3447
它	-11.3447
塍	-11.3447
躡其後	-11.3448
繹	-11.3448
○	-11.3448
登陴	-11.3448
𦵏	-11.3448
遐	-11.3448
紹斌	-11.3448
醪	-11.3448
賈詡	-11.3449
簸	-11.3449
鹿園	-11.3449
彤	-11.3449
為一卒名曰	-11.3449
里去東京	-11.3449
鶯	-11.345
㝠	-11.345
吼	-11.345
計邑之險要有	-11.345
瘦	-11.345
鳩	-11.3451
僇	-11.3451
兠	-11.3451
蟬	-11.3451
耻	-11.3452
龎涓	-11.3452
眙	-11.3452
千仞	-11.3452
闔閭	-11.3453
中軍高處	-11.3453
丕	-11.3453
囘紇	-11.3453
鑰	-11.3454
殁	-11.3454
吸	-11.3454
朽	-11.3455
嶽	-11.3455
哲	-11.3455
翅	-11.3455
溫	-11.3455
圎	-11.3455
纓	-11.3455
蒭	-11.3455
陌刀	-11.3456
叠	-11.3456
曼	-11.3456
馴	-11.3456
单	-11.3456
氛	-11.3457
紊	-11.3457
堙	-11.3458
筯	-11.3458
之神惟神	-11.3458
勍	-11.3458
匣	-11.3459
感泣	-11.346
蓮	-11.3461
弧	-11.3462
烙	-11.3462
両	-11.3463
慄	-11.3464
濡	-11.3465
殽	-11.3465
平洋沙	-11.3466
抺	-11.3467
材士強弩	-11.3468
作虎聲	-11.3469
狡	-11.3469
魄	-11.347
穩	-11.3471
璚	-11.3474
出行法人念	-11.3476
巫咸曰	-11.3477
厄	-11.3478
檐	-11.3481
笋	-11.3488
欽定四庫全書武經總要後集卷十	-11.3535
十餘艘	-11.4086
鴈	-11.4477
鉗	-11.4512
歙	-11.4522
甑	-11.4527
㳟	-11.4528
個共重	-11.4529
厠	-11.4531
牛角尖	-11.4531
龕	-11.4531
黄山門	-11.4534
賄	-11.4534
慿	-11.4534
僉事董公邦政	-11.4535
爨	-11.4536
臧	-11.4536
折衝果毅	-11.4536
迨	-11.4536
晋	-11.4537
蔴	-11.4537
鵬	-11.4538
唐李筌撰	-11.4538
川沙窪	-11.4538
繳	-11.4538
香煙砦	-11.4538
趂	-11.4538
絃	-11.4538
舉黒旗	-11.4538
葬	-11.4538
弔敦	-11.4539
埃	-11.4539
狼牙釘	-11.4539
荳	-11.454
倪	-11.4541
株	-11.4542
數起於五而終於八	-11.4542
颶	-11.4542
柘	-11.4543
熏	-11.4543
瑞	-11.4543
紆	-11.4543
咬	-11.4543
府同知任環	-11.4543
贈	-11.4544
廆	-11.4545
千墪浦	-11.4545
雍熈中	-11.4545
猛將之氣	-11.4545
貶	-11.4545
蕭銑	-11.4545
脯	-11.4546
噐械	-11.4546
者杖一百	-11.4547
犢	-11.4547
秃	-11.4547
拂	-11.4548
梨	-11.4548
千八百七十	-11.4549
亥子丑時客	-11.4549
貝	-11.4549
柯	-11.4549
騾	-11.4549
浹	-11.4549
陘	-11.455
扯	-11.455
肘腋	-11.455
􁒀	-11.455
庾	-11.455
闘	-11.4551
擐	-11.4552
剖	-11.4552
軍法重治	-11.4553
兵備僉事任公環	-11.4553
麤	-11.4553
客叅將四宫	-11.4553
煨	-11.4553
三矢中二移逺五步又能不離左右即于	-11.4553
羅夫子	-11.4553
死地則戰	-11.4553
桴	-11.4554
渰	-11.4554
縶	-11.4554
尉遲迥	-11.4554
奈	-11.4554
筠	-11.4554
唐武徳中	-11.4554
劌曰未可	-11.4555
陰主客算	-11.4555
廓	-11.4555
掀	-11.4555
紛紛紜紜	-11.4555
黠	-11.4555
慝	-11.4555
鷙	-11.4555
琮	-11.4556
㓜	-11.4556
裳	-11.4557
狡猾	-11.4557
諸葛孔明	-11.4557
簞	-11.4557
恵	-11.4557
四頭八尾	-11.4557
曲間容曲	-11.4557
硃	-11.4557
晦㝠	-11.4558
蘆葦	-11.4558
畞	-11.4558
謗	-11.4558
李繼遷	-11.4558
軀	-11.4558
斟酌	-11.4558
檣	-11.4559
僨	-11.4559
崤	-11.4559
潮汐	-11.4559
鏖	-11.4559
秣馬蓐食	-11.456
甪	-11.456
掖	-11.456
尿	-11.456
摶霄	-11.456
賚	-11.456
杜佑	-11.456
謂左右曰	-11.456
何言乎	-11.4561
鞅	-11.4561
剽	-11.4561
想	-11.4561
沌	-11.4562
逾	-11.4563
觸處為首	-11.4563
㕔	-11.4563
舘	-11.4563
抜	-11.4563
掌號笛	-11.4563
者其北路也	-11.4563
睦	-11.4564
莫之敢	-11.4564
篤	-11.4564
㠶	-11.4564
箆籬	-11.4564
算外即	-11.4564
我可以往彼可以來	-11.4564
保安軍	-11.4564
藴	-11.4565
盧鏜	-11.4565
拐子馬	-11.4565
跋	-11.4565
鵰	-11.4566
儻	-11.4566
無患矣	-11.4566
芳	-11.4567
萬户府	-11.4567
洎	-11.4567
靨	-11.4568
發屋折木	-11.4568
國朝洪武初	-11.4568
咤	-11.4569
不知破法	-11.4569
隕	-11.4569
勇冠三軍	-11.457
淀	-11.457
日午時	-11.457
演武塲	-11.457
州在戎州西南	-11.457
膺	-11.4571
禦却之	-11.4571
綸	-11.4572
汪	-11.4572
碩	-11.4572
叔琮	-11.4573
陸涇壩	-11.4573
官兵知破	-11.4573
鸛	-11.4574
神樞經曰	-11.4574
欝	-11.4575
鑊	-11.4575
筞	-11.4578
熒	-11.458
絮	-11.4581
敗兆也	-11.4581
戚繼光	-11.4584
抛入彼陣	-11.4585
暈再重	-11.4591
吒吒	-11.4594
是要各兵	-11.4604
蓍	-11.4614
宜避自	-11.462
揲	-11.4639
内迫始擊將	-11.4655
州三百里西	-11.4735
百七十步	-11.5507
琦	-11.5758
州至㑹野州	-11.5766
師之屯致	-11.5767
輓	-11.5767
中軍座船	-11.5767
閶	-11.5769
烏泥涇	-11.5773
䜛	-11.5773
楷	-11.5776
椀	-11.5776
謙溥	-11.5776
遡	-11.5777
鼔則為之	-11.5777
猺	-11.5778
來逺砦	-11.5779
蟾	-11.578
騎之致敗	-11.5781
知彼知己	-11.5782
嚷	-11.5782
橘	-11.5783
縷	-11.5784
鄖	-11.5784
永寧砦	-11.5784
夏税小麥	-11.5785
峴	-11.5785
衙	-11.5786
禪	-11.5786
此堡之所當設	-11.5786
樟	-11.5788
身先士卒	-11.5788
確	-11.5789
明鄭若曾撰	-11.5789
知縣王鈇	-11.5789
四面諸州	-11.579
悶	-11.579
綵淘港	-11.579
撅	-11.579
菉	-11.5791
懽	-11.5791
疁	-11.5791
漊	-11.5792
莱	-11.5792
廪	-11.5792
湘	-11.5793
滸	-11.5793
鎌	-11.5794
在縣治南	-11.5794
史思明	-11.5795
安陸縣	-11.5795
麴	-11.5795
鏑	-11.5795
仔	-11.5795
笞	-11.5795
帽	-11.5796
翃	-11.5796
時八刻	-11.5796
藪	-11.5796
􁏄	-11.5796
也衆以我為	-11.5796
黷	-11.5797
繋	-11.5797
釗	-11.5797
歘	-11.5798
倩	-11.5799
靛	-11.5799
廨	-11.5799
篾	-11.5799
赴臺下	-11.5799
黍	-11.5799
陟	-11.5799
阿史那	-11.58
贏	-11.58
諭以禍福	-11.58
某官某	-11.58
人也是十	-11.58
粹	-11.5801
嘉靖三十二年	-11.5801
頴	-11.5801
孝感縣	-11.5801
凑	-11.5801
䋲	-11.5801
慟	-11.5801
賫	-11.5801
頴胄	-11.5802
嘉靖三十三年	-11.5802
三十四年乙卯	-11.5802
溜	-11.5802
徳順軍	-11.5802
畵	-11.5803
炙	-11.5803
湊	-11.5803
糟	-11.5804
扄	-11.5804
方圓曲直鋭	-11.5804
景徳中	-11.5804
設弓兵四十名徃來巡邏	-11.5804
旄	-11.5804
賠	-11.5804
墉	-11.5804
莖	-11.5805
曼頭山	-11.5805
晉文公	-11.5805
以寡擊衆	-11.5806
絡繹	-11.5806
翕	-11.5806
軍火器械	-11.5806
承平日久	-11.5806
刋	-11.5806
兵者詭道也	-11.5806
駢	-11.5806
𦙍	-11.5806
霞	-11.5806
潯	-11.5807
愿	-11.5807
戊辰己巳	-11.5807
頭人身長一丈面	-11.5807
齧	-11.5807
右水陸可通之道凡十有	-11.5807
庚子辛	-11.5808
𣺌	-11.5808
為邊患	-11.5808
憾	-11.5808
薳	-11.5808
祚	-11.5808
匐	-11.5809
嵌	-11.5809
畿	-11.5809
軍法責懲	-11.5809
刎	-11.5809
闡	-11.581
剝	-11.581
維某載歳次某甲某月朔某日某將軍某	-11.581
党	-11.5811
陸門四座	-11.5811
茸	-11.5811
誌	-11.5812
辯太乙統宗寳鑑	-11.5812
燼	-11.5812
秤	-11.5812
糧塘里長	-11.5812
愁	-11.5813
女土蝠	-11.5813
䜟	-11.5813
扳	-11.5813
策之上也	-11.5813
壍	-11.5813
四錢八分	-11.5813
恂	-11.5814
敕	-11.5814
相為犄角	-11.5814
羞	-11.5815
㐮	-11.5815
疇	-11.5816
奬	-11.5816
新市平林	-11.5816
讚	-11.5816
狸	-11.5816
陣於卦屬	-11.5816
笳	-11.5816
緡	-11.5817
敵衆我寡	-11.5817
主算二十五八門杜主大將	-11.5817
蟄	-11.5817
一區處	-11.5817
售	-11.5817
曷	-11.5817
譏	-11.5817
風伯雨師	-11.5817
醬	-11.5817
扈	-11.5818
輜	-11.5818
兊	-11.5819
迢迢	-11.5819
摯	-11.5819
圻	-11.5819
堕	-11.5819
挂	-11.5819
穹	-11.5819
更戰更息	-11.5819
州在州西	-11.582
鹵	-11.5821
煆	-11.5821
綽	-11.5822
縱布四	-11.5823
芥	-11.5824
婁金狗	-11.5824
淑	-11.5825
㗋	-11.5825
曩	-11.5825
佛郎機	-11.5826
傲	-11.5826
窻	-11.5826
駞	-11.5827
艨	-11.5827
爆	-11.5828
沐	-11.5828
口作犬聲	-11.5828
灑	-11.5828
矮	-11.5828
惻	-11.5829
鋤	-11.583
豁	-11.583
木葉山	-11.5831
色明客勝月	-11.5831
民壮弓兵	-11.5831
獺	-11.5831
蟻	-11.5831
武宻曰	-11.5832
錞	-11.5834
辰上神	-11.5837
擂皷吹天鵞聲	-11.5837
砦二十里西	-11.5841
篐	-11.5841
睛	-11.5844
月十二日	-11.5846
捻	-11.5847
天官書曰	-11.5856
珙	-11.5867
之日位應	-11.5884
一萬四千	-11.5923
客見陣利先動出軍宜	-11.6229
星入月	-11.6503
利為客見陣利先動出軍宜正	-11.6742
西南戰利東北利方陣舉白旗雲氣從西	-11.7145
豚	-11.7175
顱	-11.7181
捶	-11.7183
烏梅肉	-11.7188
豢	-11.7198
埭	-11.7198
閙	-11.7202
茭	-11.7203
毎箇重	-11.7205
癡	-11.7207
刹	-11.7208
龔	-11.721
鹹	-11.721
侯君集	-11.7211
韓都司	-11.7211
官吏軍民	-11.7212
溱	-11.7213
愎	-11.7214
雙河口	-11.7214
噙	-11.7215
清水窪	-11.7215
陷馬坑	-11.7216
甥	-11.7216
朐	-11.7217
紓	-11.7217
一枝令百户一員領泊	-11.7217
惠亮正通	-11.7217
麩	-11.7218
椎	-11.7219
漬	-11.722
覈	-11.722
章練塘	-11.722
衣甲器械	-11.722
汙	-11.722
佳	-11.722
禧	-11.7221
巡按御史周公如斗	-11.7221
零農桑絲折絹	-11.7221
合河津	-11.7221
墊	-11.7221
肢	-11.7222
踣	-11.7222
荘	-11.7222
甬	-11.7223
蔵	-11.7223
一鑚打開	-11.7223
何謂也靖曰	-11.7224
闖	-11.7224
髙家嘴	-11.7225
滌	-11.7225
賭	-11.7226
賃	-11.7226
菌	-11.7226
曾門經曰	-11.7226
嶴	-11.7226
帑	-11.7226
㤗	-11.7226
八槳船	-11.7227
湍	-11.7227
㤙	-11.7227
撇	-11.7228
嗜	-11.7228
曝	-11.7229
瑾	-11.7229
鏐	-11.7229
泡	-11.7229
八卦而轉居於	-11.7229
叅將雖發	-11.7229
箭三𤼵	-11.7229
縑	-11.723
饌	-11.723
唬	-11.723
北征録曰	-11.723
拊	-11.723
佻	-11.723
兢	-11.723
賊首徐海	-11.7231
开	-11.7231
栖	-11.7232
汞	-11.7232
舅	-11.7232
諛	-11.7232
昨	-11.7232
無能為也	-11.7232
圉	-11.7232
蝦	-11.7232
醒	-11.7232
塢	-11.7232
申酉戌時主	-11.7232
悮	-11.7233
矢下如雨	-11.7233
戊子己	-11.7234
疼	-11.7234
州在瀘州西南	-11.7234
宫囚客㕘將	-11.7234
㒺	-11.7235
疵	-11.7235
曄	-11.7235
西北戰利東南利曲陣舉黑旗雲氣從西	-11.7235
淪	-11.7235
惮	-11.7236
野無所掠	-11.7236
餱	-11.7236
壬寅癸卯	-11.7236
隐	-11.7236
𨽻中軍都督府	-11.7236
䜿	-11.7236
龍首經曰	-11.7236
滏	-11.7236
礨	-11.7237
蓊	-11.7237
嬖	-11.7237
柸	-11.7237
鐃	-11.7237
泓	-11.7237
麄	-11.7238
登舟沙	-11.7238
咄	-11.7238
溟	-11.7238
前秦苻堅	-11.7238
祕	-11.7238
兵貴神速	-11.7238
年月日具官某謹	-11.7238
抝	-11.7238
擊其惰歸	-11.7238
磊	-11.7238
兵不血刃	-11.7239
圭	-11.7239
躓	-11.7239
伴	-11.7239
軋	-11.724
霾	-11.724
不可舉事用兵	-11.724
肄	-11.724
徉	-11.7241
薛仁杲	-11.7241
琯	-11.7241
里半北至界首約二十	-11.7241
多方以誤之	-11.7241
彪	-11.7241
么	-11.7241
帷	-11.7241
駝	-11.7241
剿	-11.7241
耽	-11.7241
􁳆	-11.7242
袂	-11.7242
哥舒翰	-11.7242
彥	-11.7242
碧	-11.7242
乙巳火	-11.7243
壬子癸丑	-11.7243
眩	-11.7243
凱	-11.7244
戊己日	-11.7244
縣備寇水陸路考東	-11.7244
猊	-11.7244
望彼軍上	-11.7244
衫	-11.7245
篇則取為	-11.7245
剡	-11.7246
攬	-11.7246
礪	-11.7246
右以方陣為	-11.7246
圍漢王於滎陽	-11.7246
乾寧軍	-11.7247
胞	-11.7247
跣	-11.7247
彼兵臨我我兵	-11.7247
卬	-11.7247
償	-11.7247
府佐一員專督	-11.7247
魔	-11.7248
六十八步	-11.7248
擦	-11.7249
巻	-11.7249
貎	-11.7249
廊	-11.725
孛	-11.725
慚	-11.725
戰鋒等隊	-11.725
新塘橋	-11.7251
帙	-11.7251
招討使	-11.7251
隳	-11.7251
鋋	-11.7254
室火猪	-11.7254
頥	-11.7254
籖	-11.7254
欣	-11.7254
念呪曰	-11.7254
豺	-11.7255
島人能之沙民亦能之	-11.7255
冥	-11.7256
勝聞賊備西北竒兵西北伏兵利辰巳時	-11.7256
金木水火土	-11.7256
拴	-11.7257
摺	-11.7257
揷	-11.7259
淡水門	-11.7259
洪徳砦	-11.7259
心月狐	-11.7262
蜺	-11.7262
鈸	-11.7264
亢金龍	-11.7264
鞨	-11.7264
舩	-11.7264
筩	-11.7265
挹	-11.7265
覔	-11.7265
周世宗	-11.7266
奎木狼	-11.7267
槖	-11.7267
魂	-11.7268
紏	-11.7268
朗	-11.7271
桃花港	-11.7272
單擺開喇叭	-11.7281
蝗	-11.7288
瞎	-11.7307
宫本宫風	-11.7313
風應候軍民寧泰之兆也風自	-11.7314
本朝咸平	-11.7666
㕘將不出中宫始擊將	-11.8465
扁身中攔	-11.8831
旬天目在庚	-11.8834
耼	-11.8835
地耳在戊	-11.8836
桂陽監	-11.8843
三門具五將發	-11.8848
雄勇津	-11.8854
都司梁鳳	-11.8856
巡司在吳江縣東	-11.8856
被犯之營	-11.8858
鑲	-11.8858
砦在縣東三程	-11.886
夏后氏	-11.8861
丁字回	-11.8862
州至百坡州	-11.8862
巡司在縣治西	-11.8863
旬地兵在	-11.8866
旬六庚在	-11.8866
蚓	-11.8866
蠢	-11.8867
棠	-11.8867
莅	-11.887
楞	-11.8871
櫳	-11.8871
狎	-11.8872
趐	-11.8872
罨頭木	-11.8873
詘	-11.8873
黛	-11.8873
楔	-11.8874
冡	-11.8875
偪	-11.8875
十二子用麻	-11.8877
拌	-11.8878
緊	-11.8878
閃賺是花鎗	-11.8879
人何得而稱	-11.888
毘	-11.888
毖	-11.8881
詵	-11.8881
餽	-11.8882
韻	-11.8882
李抱真	-11.8883
蔑不勝矣	-11.8883
熲	-11.8883
砦太平興國中築	-11.8883
官兵擊却之	-11.8884
苓	-11.8884
翻身上小跳翻身下	-11.8884
卞	-11.8884
夜半生甲子	-11.8884
鑕	-11.8885
庚午辛	-11.8885
脰	-11.8885
迦	-11.8885
旍	-11.8885
欽定四庫全書武編前集卷	-11.8885
霄	-11.8886
疣	-11.8886
一尺九寸	-11.8886
僰	-11.8887
昶	-11.8887
圖篇第六十	-11.8887
寸小徑二寸八分	-11.8887
鈇	-11.8888
萬二千五百人為軍	-11.8888
將佐三員領	-11.8888
絺	-11.8888
姪	-11.8889
眯	-11.8889
皝	-11.8889
稷	-11.8889
閃賺花鎗上	-11.8889
㬋	-11.8889
晉王存朂	-11.889
鼂	-11.889
屠羊説	-11.889
暘	-11.889
釜	-11.889
浴	-11.8891
値	-11.8891
蛤	-11.8891
訾	-11.8891
先聲後實	-11.8891
荅	-11.8891
脾	-11.8892
平戎萬全陣	-11.8892
鉤	-11.8892
燦	-11.8892
軒	-11.8892
滔	-11.8893
呂	-11.8893
蝶	-11.8893
鐏	-11.8893
圖一首張煜之所演也	-11.8894
南戰利正北利圓陣舉黄旗雲氣從南來	-11.8894
佑	-11.8895
瀉	-11.8895
餙	-11.8895
磔	-11.8895
譲	-11.8896
餘竒為握竒	-11.8896
煌	-11.8896
尉遲敬徳	-11.8896
北客聞賊備東南第	-11.8896
宫天目地主主算	-11.8896
宫天目大武主算	-11.8896
躪	-11.8897
逋	-11.8897
也此一節言	-11.8897
二里半西北至軍約	-11.8897
燉	-11.8897
第二角聲動前行向左後行向右	-11.8897
衷	-11.8897
者其中路也由	-11.8897
杼	-11.8897
僚	-11.8897
按皇華四達記	-11.8897
將婁宇	-11.8897
鑛	-11.8897
斬首數百級	-11.8897
未申時主	-11.8897
臻	-11.8898
塚	-11.8898
瞳	-11.8898
穰	-11.8898
弋	-11.8898
悚	-11.8898
巂	-11.8898
蹻	-11.8898
籌陰誦	-11.8898
虎鈐經	-11.8899
孱	-11.8899
劑	-11.8899
嘔	-11.8899
紐	-11.8899
利則進不利則	-11.8899
踞	-11.8899
賀若弼	-11.8899
道自西京	-11.8899
寅此局太乙助客	-11.8899
攖	-11.89
璽	-11.89
歪	-11.89
一體坐罪	-11.89
氿	-11.89
癸未木時甲申乙酉水時丙戌丁亥土時	-11.8901
苴	-11.8901
鍤	-11.8901
知州熊桴	-11.8901
蘸	-11.8901
吭	-11.8901
李漢瓊	-11.8901
𤾉	-11.8901
客勝聞賊備西北奇兵西北伏兵	-11.8901
主客俱不利各宜固守主	-11.8901
何博士備論	-11.8902
膩	-11.8902
朝野僉	-11.8902
晁	-11.8902
吠	-11.8902
墌	-11.8902
天官時日	-11.8902
媚	-11.8902
腥	-11.8902
僕固懐恩	-11.8902
孺	-11.8902
重地則掠	-11.8902
火時庚寅	-11.8903
乙未金時丙申丁酉火時戊戌己亥木時	-11.8903
癘	-11.8903
汛畢無警	-11.8903
寅卯辰時	-11.8903
碣	-11.8904
軍各二千八百人	-11.8904
以前為後以後為前	-11.8904
己未火時庚申辛酉木時壬戌癸亥水時	-11.8904
净	-11.8904
液	-11.8904
栽	-11.8904
掠諸邨鎮	-11.8904
縵	-11.8905
僕固懷恩	-11.8905
燕尾炬	-11.8905
箠	-11.8905
睹	-11.8905
閤	-11.8905
三畧直解	-11.8905
謡	-11.8905
偕	-11.8906
北至界首嶽嶺路約	-11.8906
副都頭副兵馬使以上	-11.8906
蹕	-11.8907
丁未水時戊申己酉土時庚戌辛亥金時	-11.8907
瀦	-11.8907
壖	-11.8907
煅	-11.8907
俞大猷	-11.8907
憫	-11.8908
唧	-11.8908
軻	-11.8908
叟	-11.8908
應弦而倒	-11.8908
鄂	-11.8908
岷	-11.8908
捜	-11.8908
針四更船	-11.8909
甃以磚石	-11.8909
冕	-11.8909
簷	-11.8909
千變萬化	-11.8909
諂	-11.8909
爍	-11.891
遴	-11.891
眇	-11.891
槃	-11.891
隧	-11.8911
旬陰在丁	-11.8911
一窩蜂	-11.8911
客見陣利先動出軍宜東北戰利西南	-11.8912
月初四日	-11.8912
倐	-11.8912
俠	-11.8912
憩	-11.8912
驤	-11.8912
躬擐甲胄	-11.8913
杯	-11.8913
滛	-11.8913
匙	-11.8913
桕	-11.8913
廵捕官	-11.8913
昊	-11.8913
茆	-11.8914
罄	-11.8914
臍	-11.8914
娑	-11.8915
攷	-11.8915
如驅羣羊	-11.8915
恬	-11.8915
霑	-11.8915
揉	-11.8916
庖	-11.8916
澠	-11.8916
燄	-11.8916
窕	-11.8916
立効治馬	-11.8916
日丙子丁丑水時戊寅己	-11.8917
里至州四百七十	-11.8917
彘	-11.8917
戧	-11.8918
記之記之	-11.8918
鬛	-11.8918
挾主叅將	-11.8918
牕	-11.8919
周尉繚撰	-11.8919
夙	-11.8919
酪	-11.8919
攫	-11.8919
駑	-11.8919
褐	-11.892
麞	-11.892
孽	-11.892
种	-11.892
泊蔡洲	-11.892
廏	-11.8921
鯨	-11.8921
尙	-11.8921
誼	-11.8922
天覆地載	-11.8922
栁土獐	-11.8923
虵	-11.8924
百發百中	-11.8924
軫水蚓	-11.8925
邲	-11.8925
唃	-11.8925
昴日雞	-11.8926
恠	-11.8926
胃土雉	-11.8927
歧	-11.8927
璧水㺄	-11.8928
畀	-11.8929
迯	-11.893
看大總管處	-11.893
咽	-11.8931
參水猿	-11.8931
珮	-11.8931
兀	-11.8932
綰	-11.8932
氐土貉	-11.8933
雙嶼港	-11.8933
瘠	-11.8933
笮	-11.8934
臠	-11.8934
匾	-11.8934
陌	-11.8934
井木犴	-11.8935
蹬	-11.8938
匾擔沙	-11.8938
鰍	-11.8939
煴	-11.8939
巳酉丑	-11.894
北征錄曰	-11.8941
斗木獬	-11.8945
元甲子第	-11.8945
寅午戌	-11.8949
椽	-11.8949
休廢囚死	-11.895
瀾	-11.8966
覻	-11.8972
門起者軍民不利也	-11.8982
城之氣出而	-11.8994
人學戰敎成	-11.9149
始擊將吕申客算	-11.9366
一萬七千	-11.9572
鏨	-12.0838
屎	-12.0856
鎗來扎我	-12.0856
億	-12.0857
緋	-12.0859
祇	-12.0861
扛	-12.0863
州至羅巖州四十里至州四百四十里	-12.0863
一兩人大門對打	-12.0865
籌海圖編	-12.0865
椓	-12.0865
瘀	-12.0866
尉遲逈	-12.0866
喇	-12.0867
刧	-12.0868
楹	-12.087
摽	-12.087
中軍放砲一箇	-12.0872
夸	-12.0872
不利宜固守聞賊備東南第	-12.0873
總督尚書張公經	-12.0873
擕	-12.0873
楓	-12.0873
趋	-12.0874
菉葭浜	-12.0874
盂	-12.0874
汭	-12.0874
萍	-12.0875
㵼	-12.0876
虜魏王豹	-12.0876
憐	-12.0876
臉	-12.0876
五八門杜主大將㕘將不出中宫始擊將	-12.0877
鹿耳四夾軸	-12.0877
喋	-12.0877
钂	-12.0877
制形兵因敵	-12.0877
五千七百六十	-12.0877
褥	-12.0878
妓	-12.0878
忱	-12.0878
僱	-12.0879
輟	-12.0879
澀	-12.0879
涵	-12.0879
西南西北二隅	-12.0879
閬	-12.0879
蘇松常鎮四郡	-12.088
澇	-12.088
滕	-12.088
敘	-12.088
筐	-12.0881
响	-12.0881
脣	-12.0881
概	-12.0881
澆	-12.0881
秪	-12.0881
下明鄭若曽撰	-12.0882
月已蝕而	-12.0882
岌	-12.0883
李矩守滎陽	-12.0883
四通八達	-12.0883
我搖花鎗乃	-12.0883
以衆擊寡	-12.0884
煖	-12.0884
懋	-12.0884
鈕	-12.0884
蛛	-12.0884
陪	-12.0884
臾	-12.0884
鄆	-12.0885
騖	-12.0885
三十三年甲寅四月	-12.0885
篆	-12.0885
鼉	-12.0885
知縣萬思謙	-12.0885
卲	-12.0885
摇	-12.0885
歷	-12.0886
窰	-12.0886
床穰砦	-12.0886
錘	-12.0887
䖟	-12.0887
渤	-12.0887
疾雷不及掩耳	-12.0888
腹背受敵恐非萬全	-12.0888
鉢	-12.0888
殞	-12.0888
沾	-12.0888
罳	-12.0888
苧	-12.0888
嶠	-12.0888
詮	-12.0889
不利為客宜固守聞賊備正	-12.0889
膚	-12.089
州九日程	-12.089
蕘	-12.089
除仰斜留六尺五寸	-12.089
鞠	-12.089
犨	-12.089
鵶	-12.0891
脛	-12.0891
拄	-12.0891
爇	-12.0891
贓	-12.0891
詬	-12.0891
唤	-12.0891
勇者不得獨進怯者不得獨退	-12.0891
勒浪等族	-12.0891
殲	-12.0892
礫	-12.0892
窊	-12.0892
屛	-12.0892
燮	-12.0893
綺	-12.0893
綬	-12.0893
甎	-12.0893
賑	-12.0893
顙	-12.0893
一跪一揖	-12.0893
乾坤艮巽	-12.0893
琬	-12.0893
陬	-12.0893
霪	-12.0894
糗	-12.0894
盍	-12.0894
遹	-12.0894
貊	-12.0894
嫚	-12.0895
槊	-12.0895
淬	-12.0895
隷	-12.0895
剔	-12.0895
冼	-12.0895
榦	-12.0895
南戰利正北利圓陣舉黃旗雲氣從南來	-12.0896
駁	-12.0896
衮	-12.0896
􁀊	-12.0896
纎	-12.0896
暖	-12.0896
太宗圍王世充於東都	-12.0897
後漢更始初	-12.0897
秋分八月中	-12.0897
埀	-12.0897
癰	-12.0897
溯	-12.0897
州在瀘州東南	-12.0897
紬	-12.0897
仞	-12.0897
毳	-12.0898
髀	-12.0898
舛	-12.0898
五栁口鋪	-12.0898
神亥此局太乙助客	-12.0898
即投籌轉安	-12.0898
計神卯此局太乙助主	-12.0898
撾	-12.0899
皆曰非所及也	-12.0899
貺	-12.0899
叨	-12.0899
愆	-12.0899
攬英雄之心	-12.0899
穣	-12.0899
輅	-12.0899
𢃄	-12.0899
卭	-12.0899
蹷	-12.0899
較之兵船不如也	-12.0899
雖格叅將發依依利	-12.0899
始擊將大神客算	-12.09
挟	-12.09
北戰利正南利曲陣舉黑旗雲氣從北來	-12.09
匄	-12.09
爿	-12.09
顫	-12.09
五行置章于	-12.09
蜀將姜維	-12.09
瑀	-12.0901
非善之善者也	-12.0901
客聞賊備正西第	-12.0901
踊	-12.0901
酗	-12.0901
㙮	-12.0901
㴞	-12.0901
椿	-12.0901
誥	-12.0902
馭戎嚴整	-12.0902
稔	-12.0902
煞	-12.0903
諷	-12.0903
鼇	-12.0903
皎	-12.0903
致人而不致於人	-12.0903
大將迫主客俱不利各宜固守主聞賊備	-12.0903
尼雅滿	-12.0903
睺	-12.0903
舉赤旗雲氣從東南來客勝聞賊備	-12.0903
㕘將八宫發始擊將	-12.0903
宫天目大威	-12.0903
蟇	-12.0904
相顧失色	-12.0904
哺	-12.0904
蜆	-12.0904
賊將李歸仁	-12.0904
攻趙趙使	-12.0904
至道中五路出師	-12.0905
餘八千七百五十人	-12.0905
洽	-12.0905
見陣利後動	-12.0905
莾	-12.0906
能有其有者安貪人之有者殘	-12.0906
能一一而設備也惟當摘其中之尤要者	-12.0907
怛	-12.0907
鍛	-12.0907
驥	-12.0907
楫	-12.0907
瞽	-12.0908
熸	-12.0908
躔	-12.0908
彚	-12.0909
我衆彼寡	-12.0909
雹	-12.0909
刳	-12.0909
隊間容隊	-12.091
瑯	-12.091
茨	-12.091
主將臨陣黙念	-12.091
恡	-12.091
摺法也名	-12.091
謟	-12.091
鵠	-12.0911
部署以下兵官	-12.0911
卻	-12.0911
白土口鋪	-12.0911
竦	-12.0912
砥	-12.0912
顏	-12.0912
彼知破法	-12.0912
之令得行於	-12.0912
籲	-12.0913
炁	-12.0914
浄	-12.0914
玄	-12.0914
謫	-12.0914
昵	-12.0914
瑟	-12.0914
磯	-12.0915
校尉司馬部後居地如法	-12.0916
斑	-12.0917
鳴金大吹打	-12.0917
蹇	-12.0917
緜	-12.0918
炫	-12.0919
明何良臣撰	-12.0919
觜火猴	-12.0919
歉	-12.0919
僖	-12.0919
藎	-12.0919
陣令各軍作犬聲	-12.0919
儂	-12.0919
妬	-12.092
孑	-12.092
侈	-12.0921
姥	-12.0921
寖	-12.0922
陣被破賊首念咒作	-12.0922
牐	-12.0923
欽定四庫全書尉繚子卷	-12.0923
破陣作鴉聲	-12.0923
齕	-12.0924
主人杜塞無門不利宜固守聞賊備	-12.0924
石晉割賂	-12.0924
形人而我無形	-12.0924
漣	-12.0924
崎	-12.0924
遂解閼與之圍	-12.0924
朂	-12.0925
吻	-12.0925
哱囉各起身	-12.0926
聿	-12.0927
吉破陣用	-12.0927
旗黄邊一面	-12.0927
扵	-12.0928
除之不盡者命起	-12.0928
璧	-12.0928
漾	-12.0929
馲	-12.093
掇	-12.0931
襪	-12.0932
紫濛川	-12.0932
覬	-12.0932
仝	-12.0932
仭	-12.0932
羿	-12.0932
娯	-12.0932
皇甫嵩	-12.0933
鏡	-12.0934
戡	-12.0935
胯	-12.0935
樣	-12.0935
旗藍邊一面	-12.0935
摭	-12.0935
之所起起自	-12.0936
牌架手把銃	-12.0937
薰	-12.0938
手撚茅草	-12.0938
若知破法令	-12.0938
聼吹擺隊伍喇叭	-12.094
王者愼勿	-12.0941
寘	-12.0942
旗紅邊一面	-12.0943
時加申子鳴其上	-12.0944
烏鳴其上王相	-12.0945
蓋天下然後能	-12.0947
麽	-12.0953
拶	-12.0955
臼	-12.0957
頷	-12.0973
有干令犯禁者揭之免於罪知而弗揭	-12.0979
百八十步	-12.0984
陸費墀欽定四庫全書	-12.1819
本路置州兵及朝廷遣禁	-12.3018
農桑絲折絹一	-12.3291
艎	-12.3306
利直陣舉青旗雲氣從東北來	-12.3321
韭	-12.3323
頭人身長四尺五寸面	-12.3329
為主宜固守聞賊備西北第	-12.3329
却以左手打開右手打	-12.333
蝮	-12.3333
澌	-12.3338
皸	-12.3339
症	-12.3348
蔥	-12.3349
挼	-12.3349
瘃	-12.3352
每百斤銀三兩	-12.3354
蹴	-12.3354
府疆界考	-12.3354
薫	-12.3355
十里至州六百二十里	-12.3355
章猷按先師論著	-12.3356
噲	-12.3358
壳	-12.3359
一總訣歌	-12.3359
杪	-12.336
泠	-12.3362
劈	-12.3363
䑓	-12.3363
原繁洩駕以三軍軍其前使曼伯與子元	-12.3363
海防養兵之銀	-12.3363
軍軍其後燕人畏鄭三軍而不虞制人	-12.3364
剗	-12.3365
埒	-12.3365
愍	-12.3366
譜	-12.3366
嚇	-12.3366
卹	-12.3366
黜	-12.3367
艤	-12.3368
艌	-12.3368
卓起雙燈	-12.3369
冢	-12.3369
韉	-12.3369
勝不相讓敗不相救	-12.337
長五丈毎條	-12.337
酥	-12.337
涎	-12.3371
淝	-12.3371
蝠	-12.3372
烏油靴跨	-12.3372
邐	-12.3372
啜	-12.3372
伊實特穆爾	-12.3372
煦	-12.3372
枷	-12.3373
府屬六縣夏税小麥	-12.3373
溧	-12.3373
榜	-12.3374
甜	-12.3374
羯	-12.3374
抉	-12.3375
𣙜	-12.3376
擯	-12.3376
玘	-12.3376
奉牛酒詐降	-12.3377
馬超韓遂	-12.3377
艕	-12.3377
驀	-12.3377
暐	-12.3377
杆二百輛共	-12.3377
萬之衆侵伐之地不及五	-12.3377
萬之師矣降之不溢三	-12.3377
汶	-12.3379
皡	-12.3379
僣	-12.3379
與太乙合在王相之地	-12.3379
褚	-12.3379
饑飽勞逸	-12.3379
倍道旋師	-12.3379
旰	-12.338
你劄我我拏	-12.338
糶	-12.3381
鄞	-12.3381
鄉設弓兵三十名往來巡邏	-12.3381
欽定四庫全書武編後集卷	-12.3382
祏	-12.3383
婪	-12.3383
窑	-12.3383
上扇桄二	-12.3383
達奚長儒	-12.3383
里其鋪有蕃漢十人守把東南至保州約	-12.3383
紘	-12.3384
蕎	-12.3384
梃	-12.3384
森	-12.3384
徑一尺二寸仰斜三	-12.3384
觱栗頭至上扇桄	-12.3384
兗	-12.3384
聯	-12.3385
蜂蠆有毒	-12.3385
氓	-12.3386
刊	-12.3386
澶	-12.3386
帚	-12.3386
棼	-12.3386
砦在武崗縣界南至縣	-12.3386
鄯	-12.3386
鄗	-12.3386
􁐍	-12.3387
腎	-12.3387
者人有其一不可使	-12.3387
你拏鎗還鎗我拏鎗你劄我我	-12.3387
儼	-12.3387
嵗黄幡在	-12.3387
珉	-12.3387
碟	-12.3387
紇	-12.3387
胎	-12.3388
啞	-12.3388
銓	-12.3388
定訖以善弧矢者	-12.3388
樸	-12.3388
箸	-12.3388
部分其合圍地虞候先擇	-12.3388
零者大將握之	-12.3388
九局壬申甲申丙申戊申庚申太乙在	-12.3388
馗	-12.3388
分吾良卒密有所伏敵	-12.3389
十局癸酉乙酉丁酉己酉辛酉太乙在	-12.3389
藕	-12.339
摘其中之尤要者建寨柵剏團營	-12.339
構	-12.339
穡	-12.339
者人有其一皆可使之也	-12.339
彷	-12.339
總督侍郎胡公宗憲	-12.339
八局辛未癸未乙未丁未己未太乙在	-12.339
十步立標標眼如	-12.339
齊人三鼓劌曰可矣齊師敗績公	-12.339
黥	-12.339
旴	-12.339
唐朱泚之亂李	-12.339
張步據齊地	-12.339
晉末妖賊孫恩	-12.339
漢將耿弇討	-12.339
蒍	-12.339
揑	-12.3391
醮	-12.3391
犴	-12.3391
冩	-12.3391
濳	-12.3391
讙	-12.3391
長一尺八寸闊五寸厚三	-12.3391
山路闊處約一百步狹處約一十步	-12.3391
形者我先居之必	-12.3391
膁	-12.3391
蜃	-12.3391
不得不與我戰者攻其所必救也	-12.3392
李衛公問對	-12.3392
沅	-12.3392
𣅿	-12.3392
諍	-12.3392
駃	-12.3392
㳙	-12.3393
二十二三風二十七八風	-12.3393
汧	-12.3393
二寸闊五寸厚三	-12.3393
柩	-12.3393
樽	-12.3393
也軍擾者將不重也	-12.3393
旁縣詡因其兵散日夜	-12.3393
漢果數挑戰楚軍不出	-12.3393
縂	-12.3393
遨	-12.3393
牌三十六三分一更傳牌七餘一百七十	-12.3394
羙	-12.3394
䟦	-12.3394
絶其軍為二遂大敗之	-12.3394
攤	-12.3394
永樂二年甲申四月對馬岐倭寇海	-12.3394
淯	-12.3394
戰利西南利直陣舉青旗雲氣從東北來	-12.3394
剏	-12.3395
鐺	-12.3395
四頭八尾觸處為首敵衝其中兩頭皆救	-12.3395
宸	-12.3395
拇	-12.3395
古道口鋪約	-12.3395
諄諄翕翕徐與人言者失	-12.3395
十一局甲戌丙戌戊戌庚戌壬戌太乙在	-12.3395
溳	-12.3395
約二里西北至軍約	-12.3395
菽	-12.3395
調度守城内有選鋒軍餘土兵共三百名	-12.3395
葵	-12.3396
正東戰利正西利	-12.3396
申此局太乙助	-12.3396
結賛曰清水	-12.3396
自鄴以北列陣數十里	-12.3396
諜告曰楚幕有烏乃止	-12.3396
諸侯救鄭楚師夜遁鄭人將奔桐	-12.3396
驩	-12.3397
沫	-12.3397
其間港汊浩繁岐路錯雜不可勝	-12.3397
萬兵已上大角	-12.3397
諧	-12.3397
十二局乙亥丁亥己亥辛亥癸亥太乙在	-12.3397
先為不可勝以待敵之可勝	-12.3397
使賊不測多少又以人馬逼戰刀不如棒	-12.3397
依依利主見陣利後動出軍宜	-12.3397
叅將發依依利主見陣利後動出軍宜正	-12.3397
計神子此局太乙助客	-12.3397
頭人身長六尺五寸面	-12.3398
啼	-12.3398
酧	-12.3398
勇敢千人夜掩暢營	-12.3398
鋌	-12.3398
匏	-12.3398
欽定四庫全書守城録卷	-12.3398
醴	-12.3398
西魏將楊忠	-12.3398
不利宜固守聞賊備東北第	-12.3398
五名帶馬一匹住守瞭望	-12.3398
者一舟之人皆	-12.3398
鼓動肅儀仗	-12.3398
始擊將大武客算二十	-12.3398
駿	-12.3399
司馬懿征公孫淵	-12.3399
發計神巳此局	-12.3399
以月將加正時	-12.3399
誹	-12.3399
扉	-12.3399
覷	-12.3399
昱	-12.3399
脹	-12.3399
二年癸丑閏三月賊	-12.3399
前禦其前後禦其後左防其左右防其右	-12.3399
千户所營在衞治西	-12.3399
哥	-12.3399
桔柣之門	-12.3399
管山前夷人丁口	-12.3399
言善惡如其言	-12.3399
主勝聞賊備東南竒兵東南伏兵利	-12.34
罏	-12.3401
迍	-12.3401
蟹	-12.3401
不得使容一營	-12.3401
圃	-12.3401
蛇也擊其首則尾至擊其尾則首至	-12.3401
縈	-12.3401
畎	-12.3401
扠	-12.3401
二局乙丑丁丑己丑辛丑癸丑太乙在	-12.3401
劵	-12.3401
子儀之亂析公奔晉	-12.3401
局丙寅戊寅庚寅壬寅甲寅太乙在	-12.3401
楚師必遁晉人從之楚師宵	-12.3401
渙	-12.3401
爲之奈何起對曰	-12.3401
臘	-12.3401
部長一里二百七十	-12.3401
鈞聲以夜軍之	-12.3401
東南戰利西北利銳陣	-12.3401
曰今兵少不敵	-12.3402
此局主人杜塞無門客	-12.3402
罟	-12.3402
搥	-12.3402
愒	-12.3402
綻	-12.3402
如率然率然者常山	-12.3402
駐官兵以為守禦之計其餘亦惟以	-12.3402
几	-12.3402
來巡哨有警飛報總兵遊擊	-12.3402
十七長和客大將七宫發客㕘將一宫	-12.3402
嶮	-12.3402
步立標標眼大	-12.3402
計神辰此局主	-12.3402
悼	-12.3403
一局甲子丙子戊子庚子壬子太乙在	-12.3403
五局戊辰庚辰壬辰甲辰丙辰太乙在	-12.3403
六局己巳辛巳癸巳乙巳丁巳太乙在	-12.3403
南客聞賊備西南第	-12.3403
算和大將發利為主見陣利後動出軍宜	-12.3403
與之安與之危	-12.3403
視其轍登軾而望之曰可矣遂逐齊師既	-12.3403
客大小將挾主大將	-12.3403
處暑七月中	-12.3403
主勝聞賊備西南奇兵西南伏兵利	-12.3403
悠	-12.3404
殛	-12.3404
蓉	-12.3404
騎下臨平野使士卒目見旌旗耳聞	-12.3404
划	-12.3404
能而示之不能用而示之不用	-12.3404
鑵	-12.3404
太倉鎮海二衛	-12.3404
饉	-12.3404
廕	-12.3404
觴	-12.3404
天或圓而不動	-12.3404
明劉寅撰	-12.3404
廡	-12.3404
其衆可合而不可離可用而不可疲	-12.3404
嗚	-12.3405
豈能飛渡哉	-12.3405
訝	-12.3405
副佩刀八分一萬口陌刀二分	-12.3405
專恃隠伏邀擊	-12.3405
討叛羌羌	-12.3405
俎	-12.3405
營兵欲變動聽號令施行	-12.3405
管山後夷人丁口	-12.3405
能柔能剛	-12.3405
一角令其衆得奔歸鍾城	-12.3406
先擊祝阿自旦攻城未	-12.3406
治衆如治寡	-12.3406
翹	-12.3406
隊如偃月形為	-12.3406
僭	-12.3406
泯	-12.3406
𪠘	-12.3406
不可擊若在吾軍	-12.3406
主軍勝客軍	-12.3406
杳	-12.3406
琴	-12.3406
𥜗	-12.3406
瘁	-12.3407
殻	-12.3408
鯢	-12.3408
籓	-12.3408
敞	-12.3408
斲	-12.3408
醎	-12.3408
不習兵所謂擁市人而戰不足圖也	-12.3408
中千户所領軍一千名	-12.3408
司偃旗士衆皆跪又擊鼓	-12.3408
宫天目武徳主算	-12.3408
鑾	-12.3408
蓑	-12.3409
䂓	-12.3409
武備廢弛	-12.3409
邁	-12.3409
凰	-12.3409
懇	-12.3409
旃	-12.3409
郗	-12.3409
䦨	-12.3409
港汊浩繁	-12.3409
箒	-12.3409
􁇣	-12.3409
以應之次東軍鼓而舉	-12.3409
温酒調下	-12.3409
玦	-12.3409
褁	-12.3409
芮	-12.341
令軍中曰有以軍事諫者死秦軍	-12.341
漢王患之請割滎陽以西	-12.341
西軍亦鼓而舉	-12.341
畚	-12.341
欽定四庫全書陣紀卷	-12.341
隨六纛後在營亦	-12.3411
簒	-12.3411
跽	-12.3411
蹉	-12.3411
不得方軌騎不得成列	-12.3411
罅	-12.3411
膿	-12.3411
交趾蘇武州	-12.3411
綾	-12.3411
踏空版内	-12.3411
隋漢王諒作亂遣其	-12.3411
乾歸曰益州	-12.3411
喙	-12.3411
橶	-12.3411
設備之大畧也	-12.3411
悽	-12.3411
娶	-12.3411
譟勒兵武安屋瓦盡	-12.3411
􁌙	-12.3411
丐	-12.3412
寔	-12.3412
慌	-12.3412
臀	-12.3412
謐	-12.3412
貴制人不貴制於人	-12.3412
其卒自行自止其兵或縱或横其追	-12.3412
咸平中陷今為偽	-12.3412
恐不及見利恐不得	-12.3412
郝	-12.3413
澚	-12.3413
阸	-12.3413
悴	-12.3413
髙宗占曰月	-12.3413
琨	-12.3413
轝	-12.3413
檝	-12.3413
碓	-12.3413
陣圖黄帝五行之	-12.3413
聼吹哱囉起身	-12.3415
苪	-12.3415
曦	-12.3415
以武剛車自環為營	-12.3415
君命有所不受	-12.3415
乾隆四十五年	-12.3415
嗔	-12.3415
鬐	-12.3415
勔	-12.3415
窩舖二十座雉堞	-12.3416
惕	-12.3416
壹	-12.3416
鍜	-12.3416
搠	-12.3417
鮝	-12.3417
瑒	-12.3417
塟	-12.3417
安逺侯經畧海	-12.3417
大將軍中營建出	-12.3419
疽	-12.3419
分作二枝一枝	-12.3419
府守城官兵考	-12.3419
鄒	-12.3419
宫於五音屬	-12.3419
窩舖二十六座雉堞	-12.3419
綦	-12.3419
鮫	-12.3419
山用丑艮針	-12.342
木葉挿頭上	-12.342
慙	-12.3421
款	-12.3421
㸃睛深而	-12.3421
重賞之下必有勇夫	-12.3421
詳著各圖説於後	-12.3422
巔	-12.3422
年月日某謹禡于	-12.3422
撻	-12.3422
陣或數十人或百人	-12.3422
讋	-12.3422
蒯	-12.3423
譖	-12.3423
疤	-12.3423
娱	-12.3424
朦	-12.3424
丁字立當弩八字立髙揎手	-12.3424
鍪	-12.3424
阱	-12.3424
怏	-12.3424
瑩	-12.3425
奢既已遣秦間乃卷甲而趨之	-12.3425
罇	-12.3426
冉	-12.3426
爺	-12.3426
承撞右手迎上當心	-12.3426
鍼	-12.3426
哉王之問也	-12.3427
鞴	-12.3427
夲	-12.3427
鬃	-12.3427
更戍外又領鄉軍義勇	-12.3427
覊	-12.3428
儔	-12.3428
而膽不充則	-12.3429
道不神不聖不賢之人	-12.343
瘞	-12.343
臈	-12.343
購	-12.343
琪	-12.3431
兵備副使熊公桴	-12.3431
愾	-12.3431
葆	-12.3431
栒	-12.3431
凹	-12.3434
鍫	-12.3434
柄長七尺以上三百枚	-12.3434
衲	-12.3435
暝	-12.3437
埠	-12.3437
栿	-12.3439
杠	-12.3439
以廉隅二法	-12.344
京房易傳曰	-12.3441
頡	-12.3442
而無膽者臨敵	-12.3444
簽	-12.3445
阡	-12.3446
璃	-12.3447
湴	-12.3447
事時加辰未鳴其上	-12.3448
巍	-12.3448
處照腰牌紙内空處填	-12.3449
運斗樞曰	-12.3451
炸	-12.3455
榮衰安怨成壞	-12.3455
之精也居少陰之	-12.3458
長敎成合之	-12.3458
爻	-12.3462
耨	-12.3463
囑	-12.3478
聲應管當以	-12.3484
雖衆其將可走	-12.3501
上中下上中下	-12.3514
主見陣利後動出軍宜西南戰利東北	-12.356
客見陣利先動出軍宜西北戰利東南	-12.3759
州為治所本路置州兵及朝廷遣	-12.3826
五八門杜客大將叅將不出中宫計神	-12.41
五八門杜客大將㕘將不出中宫計神	-12.464
客算二十五八門杜客大將	-12.5227
爲客見陣利先動出軍	-12.5565
千人千人學戰	-12.6239
然後合陣否則畨軍即時掩殺	-12.6644
搧	-12.6666
把過船釘鎗	-12.6666
船應備器械數目大	-12.6666
詗	-12.6667
讓他先起穿	-12.6668
大篷一扇小篷一扇	-12.6669
㔢	-12.667
蠼	-12.6671
㧻	-12.6671
豉	-12.6673
蠣	-12.6673
鎈	-12.6673
軛	-12.6675
毡	-12.6675
繚後手索二根	-12.6675
擔各兵自備用篾盔一頂	-12.6675
襠	-12.6675
􁗒	-12.6677
扳舵索一根	-12.6677
莆	-12.6677
更皷一面小皷	-12.6679
在之面倂力動手無賊之面亦	-12.6681
每面二人防看	-12.6681
丢	-12.6681
興師之國務先隆	-12.6683
猥	-12.6683
菑	-12.6683
李謙溥知隰州	-12.6685
蔬	-12.6685
甸	-12.6685
鐪	-12.6685
垢	-12.6687
鏟	-12.6687
刮	-12.6687
老鸛銜食來	-12.6687
總督都御史楊公宜	-12.6687
螋	-12.6689
恍	-12.6689
秦隴鳯翔階成	-12.6689
膸	-12.6691
㸃過吹大角引第	-12.6691
䕶閃賺是花鎗名色呌做	-12.6691
駛	-12.6691
榛	-12.6693
界首赤嶺約五里	-12.6693
濾	-12.6695
爬	-12.6695
湛	-12.6695
迸	-12.6695
曙	-12.6696
殖	-12.6696
芭	-12.6696
進進而遇覆必速奔後者不救則無繼矣	-12.6697
無有就知在軍中有無	-12.6698
腑	-12.6698
婉	-12.6698
膀	-12.6698
為主將之位也牙帳	-12.6698
屨	-12.6698
玷	-12.6699
圩	-12.6699
鄣	-12.67
坯	-12.67
裀	-12.67
鄾	-12.67
日夜霖雨旬日不止	-12.67
農桑零絲	-12.67
而奪角音動而止得旗者勝失旗者負勝	-12.6701
陋	-12.6702
鄜延丹坊保安軍路	-12.6702
䖝	-12.6702
宋何去非撰	-12.6702
淋	-12.6702
矧	-12.6702
緩之則走不顧急之則還	-12.6702
苨	-12.6702
杆每杆每出藥八錢五十出共藥二斤半	-12.6702
者是虚其機以應	-12.6702
隋末楊𤣥感反攻東都刑部尚書	-12.6702
州舊田州管下	-12.6702
腔	-12.6702
百戰不殆不知彼而知己一勝一負不知	-12.6703
大呼曰官軍已得𤣥感矣官軍稍怠𤣥感	-12.6703
杞	-12.6704
渣	-12.6704
薺	-12.6704
永樂二年尚書夏公原吉	-12.6704
一將易戰之法五	-12.6704
夜從間道出人抱束薪所歴道有問者	-12.6704
惓	-12.6704
冬不服裘夏不操扇雨不張	-12.6705
者藏於九地之下善攻者動於九天之上	-12.6705
郄	-12.6706
峨	-12.6706
遇且攻其右右無良焉必敗偏敗衆乃攜	-12.6706
凈	-12.6706
皆自若既至圍屯大放火營中驚亂	-12.6706
一兩八錢三十出共藥三斤六兩	-12.6706
各照常年事規與各部兵船互相策應	-12.6706
杆每杆每出藥	-12.6706
瓉	-12.6706
車騎者軍之武兵也	-12.6706
茒	-12.6707
五分一更傳牌八餘一里	-12.6708
迢	-12.6708
悸	-12.6708
大將居中諸部連繞四頭八尾觸處為首	-12.6708
或絶敵糧道或邀	-12.6708
熕	-12.6708
砦在武崗縣界東至縣	-12.6708
至契丹蔚州界有谷路三通車騎	-12.6708
齩	-12.6708
白旗掉鼓音動左右	-12.6709
為縣舊境東西一百	-12.671
騎三萬討矩屯	-12.671
雲蒸鳥散彌川絡野然而不失部隊之	-12.671
莭	-12.671
噉	-12.671
之所以誓而欲辯者此其	-12.671
將者三軍之司命也	-12.671
峩	-12.671
炤	-12.671
眊	-12.671
鳶	-12.671
每一兩煎得銀	-12.671
闍	-12.671
既為不可勝且以示弱渡渭為堅壘	-12.6711
頌	-12.6712
壘相去七里遣使招矩時暢卒至矩未暇	-12.6712
榭	-12.6712
騎横擊契丹呼聲動天地契丹大敗而走	-12.6712
靳	-12.6712
大屈哉使操觚者而含糊焉則為欺朝廷	-12.6712
詆	-12.6712
十步自分壁嶺	-12.6712
夐	-12.6712
不為營壘而求割地吾順言許之所以縱	-12.6713
惹	-12.6714
先則弊後則懾	-12.6714
氣以作兵法文昌以命將	-12.6714
狙	-12.6714
舴	-12.6714
櫈	-12.6714
腰受一斗五升	-12.6714
勞馬常令有餘備敵覆我能明此者	-12.6714
哨探有警飛報總兵遊擊	-12.6714
笓	-12.6714
菴院寺觀	-12.6714
攔拿我我閃	-12.6714
泳	-12.6714
萼	-12.6714
𤾂	-12.6714
拔趙幟立漢幟	-12.6716
誨	-12.6716
敵無備出而勝之敵若有備出而不勝難	-12.6716
飾其表裏復置柴籠三所流	-12.6716
春秋時齊師宋師次于郎	-12.6716
步卒七十二人甲士三人	-12.6716
鬭亂而不可亂渾渾沌沌形圓而不可敗	-12.6716
吾逺之敵近之吾迎之敵背之軍	-12.6716
令長吳二縣動支公帑	-12.6716
哄殺去四五尺	-12.6716
廂擊鉦息鼓	-12.6716
應易㧞若我師至丹陽留停旬月進則公	-12.6716
攄	-12.6716
未平退則惠亮為患	-12.6716
欲不戰以老我師今若攻其城柵	-12.6716
汾水可以灌平陽	-12.6716
濺	-12.6716
皆是百戰餘賊必不憚於野戰止為公	-12.6716
纒拿我我閃	-12.6716
蟒	-12.6716
風小周九除之不盡者命起	-12.6716
引而去之令敵半出而擊之利	-12.6717
逝	-12.6718
郡乾元中復為	-12.6718
監住左手刺之他若使	-12.6718
上覆下棧屋上置突竈三所臺	-12.6718
亦置三所並以石灰	-12.6718
而勝人成功出於衆者先	-12.6718
志於衆故與衆	-12.6718
旌旗動者亂也吏怒者倦也	-12.6718
睂	-12.6718
蠧	-12.6718
袵	-12.6718
鑱	-12.6718
炬若餘㓂賊	-12.6718
鄭陳而不整蠻軍而不	-12.6719
以安衆心乃索白虎幡登西垣使	-12.6719
勝能與敵變化而取勝者謂之神則	-12.6719
匿衆若已遁	-12.6719
張守珪為𤓰州刺史	-12.6719
春秋時衛人以燕師伐鄭	-12.6719
開門使羸疾數人登城賊	-12.6719
墠	-12.6719
輾	-12.672
器長短相間分方面外而立如遇打賊隨	-12.672
巡司洪武三年建於	-12.672
捩	-12.672
公理使諜知之果屯兵於河陽内城以	-12.672
巡司洪武七年建於	-12.672
剰	-12.672
罨	-12.672
鐝	-12.672
鱉	-12.672
㐲	-12.672
卒未親附而罰之則不服	-12.672
赴休範投名者千數	-12.672
奪吳人之資石城以西盡為晉有自	-12.672
子服乃進據險要開建五城	-12.672
池間相去一尺五寸間有通水	-12.672
狶	-12.672
相隨任所居止於是羣情喜悦兵即四散	-12.672
道慶等浮舸與賊水戰大破之斬休	-12.672
䍡	-12.672
輈	-12.672
馮惠亮率舟師三萬屯當塗陳正通	-12.672
無差尺寸散則法天聚則法地如此	-12.672
麾乍合乍離	-12.6721
者不禁因夜開城門衆咸憚服莫有去者	-12.6721
十萬竈明日為五萬竈又明日為三萬竈	-12.6721
戰陣無圖明矣而庸將	-12.6721
柣	-12.6721
楚晨壓晉軍而陣	-12.6721
蜀諸葛亮出祁山魏	-12.6721
分為八陣陣有一千九十三人七分五銖	-12.6721
勝逐北不以為虞	-12.6721
大破之盡燔其糧	-12.6722
裭	-12.6722
下觀汝等名皆已焚除勿懼也	-12.6722
乃使宗之居守委以心腹率	-12.6722
嘉靖三十一年壬子七月	-12.6722
常年事規與各	-12.6722
旗為節制其初起圍張翼隨山林地勢無	-12.6722
蘭陵王長恭	-12.6722
遣衆軍擊平賊黨道成振旅凱入百姓	-12.6722
飃	-12.6722
壘未畢賊前軍已至道成方解衣	-12.6722
所欲以死報國耳乃單車白服至新亭築	-12.6722
攔鎗還鎗我攔鎗	-12.6722
漉	-12.6722
軍志曰止則為營行則為陣	-12.6722
不能還安危之機不及終日賊以軍無後	-12.6722
主大將七宫囚主叅將一宫	-12.6722
咍	-12.6722
左手監住右手一抹刀他若使一	-12.6722
檀道濟到彦之	-12.6722
給帳一口食幕	-12.6722
心者可共固守軍人見其誠信皆無異志	-12.6722
燒之登城北謂曰劉休範父子皆已	-12.6722
該把總仍往來督察	-12.6722
受敵而無敗者竒正是也	-12.6722
所謂先人以奪其心賊見吾兵必走	-12.6722
當破之必矣賊若不戰旬	-12.6722
炷	-12.6723
兵夫列船式平時在船四面擺	-12.6723
涘	-12.6723
憇	-12.6723
則鈍鈍則不濟	-12.6723
張良韓信序次兵法	-12.6723
犯太短則不及太輕則銳銳則易亂太	-12.6723
碁	-12.6723
魏王羆守華州	-12.6723
力所及置照板度竿	-12.6723
彿	-12.6723
徽中桂陽王休範舉兵於潯陽朝廷惶駭	-12.6723
據長安城所在莫有固志羆聞之乃大開	-12.6723
皆與謙書言城内	-12.6723
門召軍人謂之曰	-12.6723
頭其次左右將各主士伍為行列皆以金	-12.6723
典籖茅恬開東府納賊	-12.6723
嶸	-12.6723
欽定四庫全書李衛公問對卷	-12.6723
範首餘賊進至杜姥宅車騎	-12.6723
今地設弓兵七十名往來巡邏	-12.6723
來攻城城内兵力甚弱裕	-12.6723
勝聞賊備正東竒兵正東伏兵利	-12.6723
堡守備官一員軍兵四十名	-12.6723
待敵若敵先居之盈而勿從不盈而從之	-12.6723
甌	-12.6723
詧	-12.6723
進道兼行百餘里令吏士各作兩竈日	-12.6723
降軍各以郡人詣旗下皆罷遣軍人令歸	-12.6723
具將發利為客見陣利先動出軍	-12.6724
道聚觀曰全國家者此人也	-12.6724
孫千齡與休範有密契獨曰宜依舊遣軍	-12.6724
宫内傳新亭亦陷太后執蒼梧	-12.6724
梁山道成正色曰賊今已	-12.6724
若皆疑惑慶之請獨取之於是	-12.6724
主大將二宫格主叅將六宫發始擊將	-12.6724
始擊將高藂客算二十	-12.6724
宋晉安王子勛舉兵	-12.6724
掠於饒野三軍足食謹養而勿勞	-12.6724
璇	-12.6724
與客叅將關主叅將	-12.6724
里齊地悉平後魏末河北賊葛榮為魏將	-12.6724
趾	-12.6725
元元貞二年以户口計例	-12.6725
瓣	-12.6725
遂請與操相見	-12.6725
濰	-12.6725
至嶽嶺口鋪約	-12.6725
輦	-12.6725
儆	-12.6725
赴或謂宗之未可測道規乃	-12.6725
兵法曰以水佐攻者彊	-12.6725
叶	-12.6725
廢一善則衆善衰賞一惡則衆惡歸	-12.6725
待敵若敵先居之引而去之勿從也	-12.6725
柔有所設剛有所施弱有所用	-12.6725
棺	-12.6725
鏇	-12.6725
墀	-12.6726
不能穿魯縞也兵法忌之	-12.6726
已疲倦去我既逺必不見疑及其未集須	-12.6726
時雍州刺史魯宗之自	-12.6726
樂毅畏誅而不敢歸以伐齊為名實欲	-12.6726
流謀逆皆因淹緩以敗休範必逺懲前失	-12.6726
猋	-12.6726
等從石頭濟淮間道自承明門入衛宫闕	-12.6726
與衆同非國工也	-12.6726
莒城燕師長驅平齊	-12.6726
朱榮所擒餘衆悉降	-12.6726
衆若即分割恐其疑懼或	-12.6726
遯	-12.6726
鏽	-12.6726
信國公湯和	-12.6727
篩	-12.6727
錮	-12.6727
剔毛鬛謹	-12.6727
蚤	-12.6727
因晨夜倍道兼行二千餘里徑	-12.6727
武陽使精騎馳廣都去成都數	-12.6727
里勢若風雨所至	-12.6727
牂	-12.6727
初二三風初七八風十二三風十七八風	-12.6727
凜	-12.6727
南面而王齊齊人	-12.6727
涅	-12.6727
以左手監住右手刺	-12.6727
倂	-12.6727
圍定陽屠其外城	-12.6727
圓陣舉黄旗雲氣從南來客勝聞賊備	-12.6727
曰此城三面重澗並無走路惟慮東	-12.6727
索二分二千五百條馬軍用	-12.6727
菰	-12.6727
裼	-12.6727
褙	-12.6727
計神未此局太乙助主主	-12.6727
謗毁者數千章光武不省	-12.6727
馬皆有副倍道兼行東	-12.6727
主大將一宫發主叅將三宫	-12.6727
寥	-12.6728
不動如山難知如	-12.6728
姻	-12.6728
故其疾如風其徐如林	-12.6728
増倍之羌不敢逼	-12.6728
據武牢扼其襟要若賊恃勝	-12.6728
三軍之士思為致死者以滋味之	-12.6728
戰兵初合驅牛驢者疾進一時鳴	-12.6728
軍轉陣以後為前以前為後進無	-12.6728
勝聞賊備東北奇兵東北伏兵利	-12.6729
涓	-12.6729
莞	-12.6729
端末未見人莫能知	-12.6729
啣	-12.6729
篠	-12.6729
䧏	-12.6729
射書云邵陵	-12.6729
擋	-12.6729
缾	-12.6729
驢六分七千五百頭鞍	-12.6729
鹺	-12.6729
以待之無恃其不攻恃吾有所不可攻	-12.6729
伐晉取羈馬	-12.6729
假稱使者徑入國良壘中國良召使者入	-12.6729
國良何不速降一軍愕	-12.6729
後漢虞詡為武都太守	-12.6729
後漢誅王郎收文書得吏人與郎交	-12.6729
於姚襄城南更起城鎮	-12.6729
棓二分二千五百張馬軍及陌刀並以啄	-12.6729
權輕願得君之寵臣	-12.6729
欲攻其新城韶曰	-12.6729
瓚	-12.6729
軍中曰有人識曹王否	-12.6729
辮	-12.6729
㤀	-12.6729
來客勝聞賊備東南奇兵東南伏兵利	-12.6729
公曰不可既濟而未成列又以告公曰未	-12.6729
客算十孤陽客大將一宫	-12.6729
宫天目和徳主算二十五八門杜主大將	-12.6729
欷	-12.6729
歔	-12.6729
牛驢得數千頭復令兵數百人人持一	-12.6729
築為重複守禦之地	-12.6729
艦行船者悉在艦内泝渭而	-12.6729
衆我寡難與持乆	-12.6729
西北奇兵西北伏兵利寅卯辰時	-12.6729
挐	-12.673
子幹阻川為營賊軍不得水數日人馬	-12.673
可前可後此長㦸之地也劒楯三不當一	-12.673
所在此步兵之地也車騎二不當一土山	-12.673
曰國良軍中有變言降是詐也臯曰非爾	-12.673
正西竒兵正西伏兵利	-12.673
燕人聞之如其言城中人見齊諸降者	-12.673
臨下此弓弩之地也短兵百不當一兩	-12.673
代州總管李景	-12.673
客大將六宫發客叅將八宫格計神	-12.673
昔者良將之用兵有	-12.673
泓宋人既成列楚人未既濟	-12.673
而還傉檀追及䝉遜	-12.673
與客大將關主叅將	-12.673
鐙分為兩行前行配五十騎為一隊計	-12.673
鬬船力不鬬人力	-12.673
榴	-12.6731
呐	-12.6731
懌	-12.6731
勛	-12.6731
陣此東十里有渭曲可先據以待之遂進	-12.6731
之司命國家安危之主	-12.6731
春秋時齊師伐魯	-12.6731
泌	-12.6731
蜑	-12.6731
訓練汛時仍於	-12.6731
三升三合三勺	-12.6731
婚	-12.6731
斥澤之中必依水草而背衆樹	-12.6731
利方陣舉白旗雲氣從西	-12.6731
匍匐叩頭請罪臯執手約為兄弟盡焚攻	-12.6731
十不當一平陵相逺川谷居間仰	-12.6731
参	-12.6731
地險不可攻不如更作一城壅其要	-12.6731
將檀讓擁衆數萬	-12.6731
州管部落五十户去州	-12.6731
巡按御史尚公維持	-12.6731
敵所逼不及築城壘或因山河險	-12.6731
曹操與袁紹相持官渡	-12.6731
誅反側非所	-12.6731
賊首鄧文俊林碧川沈南山等分	-12.6731
逄	-12.6731
𠖇	-12.6731
䡴發則四風之	-12.6731
不利為主宜固守聞賊備正南第	-12.6731
主宜固守聞賊備東北第	-12.6731
以上賞而禮之名曰	-12.6731
安營不可犯也䝉遜曰傉檀謂吾逺來疲	-12.6731
客勝聞賊備東南竒兵東南伏兵	-12.6731
屈乃徐謂之曰我來自朝廷可西面受命	-12.6731
申酉戌時客	-12.6731
畤	-12.6731
薄間又遣人升山指麾若部分軍衆	-12.6731
曰仁賢之智聖明之慮負薪之言	-12.6732
以後為前以前為後進無奔迸退	-12.6732
不能下臯受命乃曰驅疲	-12.6732
禇	-12.6732
聚兵井陘口稱二十萬	-12.6732
郛	-12.6732
上三人為一處處有數百騎令所在揚塵	-12.6732
兵去之後賊猶致疑	-12.6732
劓皆怒堅守惟恐見得	-12.6732
嫻	-12.6732
子葢所殺窮無所歸今唐公與人無隔恩	-12.6732
師衆號百萬相州刺史李神雋閉門自守	-12.6732
枝葉茂接此矛鋋之地也長㦸	-12.6732
無逆心徒以政令嚴酷懼死為	-12.6732
畋	-12.6732
與主大將關客叅將	-12.6732
謹守成臯即漢	-12.6732
騎奄至謹以衆寡不敵退必不免乃散	-12.6732
臏	-12.6733
晝氣惰暮氣歸	-12.6733
戕	-12.6733
涗	-12.6733
粲	-12.6733
絲綿折絹一	-12.6733
危懼遂散財聚衆據縣以叛諸道同討連	-12.6733
又曰爾以吾言不誠今相去不逺數步爾	-12.6733
射我乃披襟示之	-12.6733
散倉庫給兵士令復農桑焉	-12.6733
數騎徑入城處之不疑莫不畏服	-12.6733
觀察使前使辛京杲貪殘有將王國良鎮	-12.6733
賊焦籬堡守將尉珪以兵二千因堡降燧	-12.6733
非止免禍富貴可圖也賊徒	-12.6733
一寸七分厚一分槽下	-12.6733
主算二十四長主大將四宫	-12.6733
以禮遣還吳將鄧香掠夏口祜募生縛香	-12.6733
使夜或左或右	-12.6733
僮	-12.6733
儋	-12.6733
勒軍士馬上各齎	-12.6733
危者安之懼者歡之叛者還	-12.6733
夔州銑以時屬秋潦江水汎漲三	-12.6733
宫天目大炅主算二十五八門杜主大將	-12.6733
尔	-12.6733
州管部落一百户去州	-12.6733
帳幕不疑軍退翌日始悟	-12.6733
弓手三百馬軍五百跳盪四百竒兵四百	-12.6733
役徒於山中楚人坐其北門而覆諸山下	-12.6733
懼燕軍之劓所得齊卒置之前行與我戰	-12.6733
方連船艦首尾相接可燒而走也乃	-12.6733
浙江提督都御史王公忬	-12.6733
煬帝令户部尚書樊子葢擊之子葢深溝	-12.6733
瑶	-12.6733
筵	-12.6733
至宥之香感其恩	-12.6733
蠆	-12.6733
賞得而聚之名曰	-12.6733
門百戰百敗當以計取之可令羸兵弱馬	-12.6733
曰秦人不意趙師至此其來氣盛	-12.6734
軍必厚集其陣以待之不然必敗	-12.6734
我按兵不出待彼氣衰陣久卒	-12.6734
則合營操練分畨哨至	-12.6734
弱之以位奪之以國	-12.6734
相生如循環之無端孰能窮之	-12.6734
迅雷不及掩耳	-12.6734
以誘之觀賊之勢必渡水交兵萬均請	-12.6734
先處戰地而待敵者	-12.6734
單又收民金得千鎰令即墨富豪	-12.6734
投之亡地然後存	-12.6734
相率歸前後至者數萬人餘賊散走他郡	-12.6734
葫	-12.6735
塾	-12.6735
莫知吾所以制勝之形	-12.6735
必傷於飽日暮道逺必數上下寧勞於人	-12.6735
馬不傷於末必傷於始不傷於	-12.6735
跂	-12.6735
邃	-12.6735
利而誘之亂而取之	-12.6735
地所以養人城所以守地	-12.6735
櫟	-12.6735
衞分撥指揮一員千户二員百户四員	-12.6735
三宿而逸曰庸師衆羣蠻聚焉不如	-12.6735
且起王卒合而後進	-12.6735
勝伐江陵聲言徐道覆	-12.6735
惴	-12.6735
瑗	-12.6735
皮吹氣令滿	-12.6735
磬	-12.6735
磽	-12.6735
與之遇以驕之彼驕我怒而後可克	-12.6735
貌不與中情相應者	-12.6735
風揚雲垂龍飛虎翼鳥翔蛇蟠	-12.6735
乃挺身至城下呼	-12.6735
乘勝至于姑臧夷夏降者萬數	-12.6735
其謀勇技藝孰為一	-12.6735
大敗之為城下之盟而還	-12.6735
子禦之笠澤夾水而陣越子為左右句卒	-12.6735
客大將九宫發客㕘將七宫	-12.6735
左右推赤心以待之人	-12.6735
師衆以順為武	-12.6735
張世李孝義	-12.6735
為吳人所傷而為晉兵所得者皆封還之	-12.6735
痒	-12.6735
祖父之勲力背君上為滅族之計耶從吾	-12.6735
自安願効死力其黨相謂曰我	-12.6735
莫親於間賞莫厚於間事莫宻於間	-12.6735
行數百里其勢糧食必在後願	-12.6735
諮	-12.6735
謂椿曰兵者詭道	-12.6735
險道狹路可擊	-12.6735
先至而得天下之衆者為衢地	-12.6736
欲還伍參言於	-12.6736
建業而桓謙自長安入蜀	-12.6736
為循黨荀林所破林	-12.6736
等赴援朝廷至潯陽	-12.6736
䘏	-12.6736
一客大將一宫發客叅將三宫	-12.6736
吾族家妻妾令安堵	-12.6736
囚主叅將三宫發始擊將	-12.6736
暱	-12.6736
神速機不可失今兵始集銑尚未知	-12.6736
西南客聞賊備東南第	-12.6736
賽	-12.6737
枲	-12.6737
謀何患乎不從哉	-12.6737
弓一萬二千五百張弦三萬七千五百條	-12.6737
懟	-12.6737
未能行令其佐先縠剛愎不仁未肯用命	-12.6737
熨	-12.6737
荼	-12.6737
哇	-12.6737
火一千二百五十火幕	-12.6737
珽	-12.6737
背固前隘者圍地也	-12.6737
舉闔廬之弟夫槩王晨請於闔廬曰楚	-12.6737
行船人北土素無舟楫莫不驚以為神	-12.6737
且不設備及羅羅與盧戎兩軍之	-12.6737
二曰火積三曰火輜四曰火庫五曰火隊	-12.6737
六千守宫城禦備甚嚴燧度長春不下則	-12.6737
洵	-12.6737
熟寢經宿而還上下遂服之	-12.6737
燕將大喜許之燕軍由此益懈	-12.6737
祜追斬之美其死節而	-12.6737
第二陣第三陣第四陣亦如之	-12.6737
絶其輜重足下深溝	-12.6737
調矣而無救於敗	-12.6737
賊步至之類是也然其患	-12.6737
退不得還吾竒兵絶其後野無	-12.6737
釀	-12.6737
隋山獠作逆以	-12.6737
隼	-12.6737
飲以醇酒使不得言	-12.6737
分為七軍中軍四千人	-12.6737
弑	-12.6738
輕兵擊之趙戰不利因築壁堅守以待救	-12.6738
我得亦利彼得亦利	-12.6738
作橋閣山髙谷深至為	-12.6738
冐險爭鋒吾	-12.6738
勢聚散之形勝負之理賞罰之信因是而	-12.6738
艾以氊自裹	-12.6738
使智使勇使貪使	-12.6738
和元振就其牙帳計	-12.6738
留二十八日不行復益増壘秦間	-12.6738
處各虚三十四步	-12.6738
謂羣獠曰我是刺史銜天子詔安養汝等	-12.6738
近矢石不能敗此不用大船務	-12.6738
驚諸賊莫敢動於是	-12.6738
溥	-12.6738
幙	-12.6739
䆳	-12.6739
齮	-12.6739
􁆫	-12.6739
之興也伊摰在夏周之興也吕牙在	-12.6739
数	-12.6739
糒	-12.6739
赭	-12.6739
鸞	-12.6739
中路潰散不敢歸屯	-12.6739
令狐楚為河陽節度使	-12.6739
劉道規為荆州刺史	-12.6739
境上時楚未至聞之即疾馳赴鎮潰卒亦	-12.6739
外壘一軍一萬二千五百人以十人為	-12.6739
天居兩端其次風其次雲	-12.6739
帋	-12.6739
庸人逐之囚子	-12.6739
建炎徳安守禦録	-12.6739
涌	-12.6739
絜	-12.6739
蜀將孟達降魏	-12.6739
譴	-12.6739
鑠	-12.6739
不可宻宻則難用	-12.6739
也經曰第一角聲動前行向左	-12.6739
元惡就擒蔡人即吾人也父老無不感泣	-12.6739
始擊將大族客算三十	-12.6739
安得不投死乎由是皆服	-12.6739
客聞賊備正東第	-12.6739
張儉前在朔州	-12.6739
從之絞人獲三十人	-12.6739
思結部落貧窮離散儉招慰安集之其不	-12.6739
所以優游恬淡	-12.6739
欽定四庫全書三畧直解卷	-12.6739
渠帥為列侯降者猶不自安光武知其意	-12.6739
璡	-12.6739
繩計其尺寸則髙下丈尺分寸可	-12.6739
莫敖屈瑕曰絞小而輕輕則寡謀請無扞	-12.6739
還謂其御曰莫敖必敗舉趾髙心不固矣	-12.6739
陣降者皆相語曰蕭王推赤心置人腹	-12.6739
左右四軍各二千六百人	-12.6739
請誘之子庚從之戰于庸浦	-12.674
蹔	-12.674
卒三千人為牙兵士卒不願	-12.674
壯而頑頓與許蔡疾楚政楚令尹死其師	-12.674
性至寛有部將符昭者人或告其謀變茂	-12.674
朱旗掉角音動左右各復本	-12.674
軍井未達將不言	-12.674
元琮當其北子儀率甲騎二千出	-12.674
其營田每年豐熟慮其私蓄富	-12.674
凍元振未嘗移足烏質勒年老不勝寒苦	-12.674
和主大將六宫發主叅將八宫	-12.674
或以酒食相過從者以軍法論度乃約法	-12.674
舊令途無偶語夜不	-12.674
門具將發利爲主見陣利後動出軍宜	-12.674
揚州府泰興縣	-12.6741
部侍郎徐公貫㑹同巡撫都御史何公鑑	-12.6741
以竒為正以正為竒	-12.6741
兵船僅可遏賊於北	-12.6741
大總管及副總管則立十旗以上	-12.6741
聰遣從弟暢	-12.6741
二宫天目大武宫迫主算三十八	-12.6741
俯伏曰願改事公行恭率其衆共謁太宗	-12.6741
司謂其將叛遽以奏聞朝廷議發兵進討	-12.6741
壻	-12.6741
多離散投行恭者千餘騎行恭遣其酋渠	-12.6741
子儀使李國臣拒其東魏楚玉當其南陳	-12.6741
忒	-12.6741
斬之謂其衆曰汝等並是好人	-12.6741
櫛	-12.6741
歴司經歴一員領所	-12.6741
淮西旣平裴度為節度招撫使蔡人大	-12.6741
率五百人皆負米麥持牛酒自詣賊營奴	-12.6741
菓	-12.6741
葛以元振故殺其父謀勒兵攻之副使解	-12.6741
嶷	-12.6742
不戰而屈人之兵善之善者也	-12.6742
以為犯軍令不可以鄉里故而廢法遂	-12.6742
者衆而皆小國也畏楚而不獲已是以來	-12.6742
聞之曰作事威克其愛雖小必濟	-12.6742
人物也夫兵者不祥之器	-12.6742
倍之衆今力固不敵且至誠感神	-12.6742
前後虜見而問曰此誰也報曰郭令公也	-12.6742
四局丁卯己卯辛卯癸卯乙卯太乙在	-12.6742
有生人之樂度以蔡卒為牙兵或以為反	-12.6742
生量量生數數生稱稱生勝	-12.6742
舊並懐異心道規乃	-12.6742
陿	-12.6743
大呼餘人悉持兵弩夾門而伏超	-12.6743
軍曰今日必無晉矣子西將左子上將右	-12.6743
鞦	-12.6743
攴	-12.6743
若新亭直上且	-12.6743
團兵勇建寨柵以守以禦其餘亦惟以遊	-12.6743
得地一里餘二百二十	-12.6743
月賊犯府城官兵	-12.6743
竿力所制人挽其端而投之其車推	-12.6743
首以窠盛石大小多少	-12.6743
㑹師于臨品	-12.6743
兵以詐立以利動	-12.6743
子儀曰適足以為害也乃傳呼曰令公	-12.6743
將出諸將諫曰戎狄之心不可信也請無	-12.6743
己而教人者逆正己而化人者順	-12.6743
後校一陣步兵二十一部	-12.6743
忩	-12.6743
為外壘天陣居乾為天門地陣居坤為地	-12.6743
瑁	-12.6743
用乙辰針出港口打水六七丈	-12.6743
穫	-12.6743
虜初疑持矢待之子儀以數十騎免胄	-12.6743
鱟	-12.6743
令公亡矣不然何以至此令公誠存	-12.6744
夫人衆一合而不可	-12.6744
將帥者必與士卒同	-12.6744
恩背主棄親於公等何有	-12.6744
明日親入虜帳哭之甚哀行弔贈之禮	-12.6744
死地吾將示之以不活	-12.6744
紇驚曰令公存乎僕固	-12.6744
舉旗士衆皆起騎	-12.6744
綁	-12.6744
始擊將大炅客算	-12.6745
違主將一時之令者斬	-12.6745
四十名徃來廵邏	-12.6745
羅嶼用丁未針	-12.6745
狐毛設二斾而退之	-12.6745
楚師馳之原軫郤溱以中軍公族横擊之	-12.6745
欒枝使輿曳柴而偽遁	-12.6745
鷟	-12.6745
卉	-12.6745
守地一千七百五十尺八陣積	-12.6745
張張有闊狹左䏶右	-12.6745
張翼以進蛇向敵而蟠飛龍翔鳥上下其	-12.6745
敵雖聖智莫之能識	-12.6745
甿	-12.6745
稽查各部下㑹哨兵船每十日一送	-12.6745
蘇州太倉鎮海三衛	-12.6745
里餘一百七十三步二尺以壘四面乘之	-12.6745
三浮木齒及照板以度竿上尺寸為髙下	-12.6745
之今一旦棄舊好助一叛臣何其愚也且	-12.6745
召其首領各飲之酒與之佳錦歡好如初	-12.6745
唦	-12.6745
大小七山一路打水六七	-12.6745
太宗敬徳躍馬大呼横刺雄信墜馬賊	-12.6745
子儀陣以待之預選	-12.6745
嶲	-12.6745
庸人曰楚不足與戰矣遂不設備楚子乘	-12.6745
懶	-12.6745
朞	-12.6745
棄四海令公亦謝世中國無主故我從其	-12.6745
皆逐天文氣候	-12.6745
硤	-12.6745
紇皆捨兵下馬齊	-12.6745
葛乃感其義復與元振通好郭子儀屯	-12.6745
麨	-12.6745
征之不一二年不可定也今	-12.6746
久不得濟祥謂軍吏曰	-12.6746
卒為上破卒次之	-12.6746
携	-12.6746
故人主深曉上畧則能任賢	-12.6746
極人臣之位以	-12.6746
用兵之法全國為上破國次之全	-12.6746
冺	-12.6746
騌	-12.6747
旨	-12.6747
劾	-12.6747
哮	-12.6747
娼	-12.6747
樂聞興師動衆	-12.6747
立狗脚木一條	-12.6747
􁆢	-12.6747
令趙奢將兵救之	-12.6747
吝	-12.6747
坌	-12.6747
曰至白帝乃開諸軍雖進未知處分至白	-12.6747
更圖進取醜奴聞之遂以為實分遣諸	-12.6747
滷	-12.6747
繡以精兵追退軍而	-12.6747
聽音望麾以出四	-12.6747
險而囂是軍無政令逼城而陣有輕我心	-12.6747
鳥翔突擊之義也龍居	-12.6747
之為愈也此其可慨	-12.6747
唑	-12.6747
子房用之嘗勸髙帝	-12.6747
槁	-12.6747
積數布算如方營法得	-12.6747
曰使勇而無剛者嘗冦而速去之	-12.6748
壘閼與非趙地也	-12.6748
從中水取廣漢使羸弱乘髙	-12.6748
危者則據天下之安能除	-12.6748
憂者則享天下之樂能救天下	-12.6748
戰世充驍將單雄信領騎直	-12.6748
攻戰都督造突門	-12.6748
闚	-12.6748
􁇠	-12.6748
艷	-12.6748
矦	-12.6748
肫	-12.6748
腮	-12.6748
裸	-12.6748
獒	-12.6748
禎	-12.6748
兾	-12.6748
將在軍君命有所不受茍能制吾豈千里	-12.6749
蹊	-12.6749
太倉港口開船用單乙針一更船平	-12.6749
平北將軍胡僧祐	-12.6749
次小於中箭其牙一發諸箭齊起及七百	-12.6749
水陸皆可行乃正道也	-12.6749
􁔷	-12.6749
侯之謀者不能豫交不知山林險阻沮澤	-12.6749
漲之勢倐忽至城下所謂疾雷不及掩耳	-12.6749
縣後匾擔二沙	-12.6749
翮	-12.6749
别有函封付齡石	-12.6749
士卒不盡飲不近水	-12.6749
擥	-12.6749
譛	-12.6749
嵬	-12.675
未土時壬申癸酉金時甲戌乙亥火時庚	-12.675
磴	-12.675
成擒耳尚果循西山	-12.675
鞌	-12.675
餵	-12.675
貔	-12.675
飜	-12.675
力疲怠賊乃乘間得入排城延伯軍大敗	-12.675
執紙葢而直衝	-12.675
憶	-12.675
琛	-12.675
麾下飲食與士卒共之	-12.675
因形用權則不勞而功舉	-12.675
夹	-12.675
州至羅巖州二里至州四百七十八里	-12.675
形者不能行軍不用鄉導者不能得地利	-12.675
箔	-12.6751
辛未土時壬申癸酉金時甲戌乙亥火時	-12.6752
有海港而無海塘	-12.6752
箭注射則前無立兵對無横陣	-12.6752
霰	-12.6752
􁴺	-12.6752
亂之勢達乎去就之理	-12.6752
公曰勿復白乃令	-12.6752
君子明於盛衰之道通乎成敗之數審乎	-12.6752
與戰鋒隊齊入奮擊	-12.6752
還復當心安箭髙舉	-12.6752
步餘四尺積步得一里	-12.6752
兵負而趨走號	-12.6752
兵馬軍等隊即須量抽人	-12.6752
口銜短刀兩手如	-12.6752
膞	-12.6752
若時至而行則能極人臣之位得機而	-12.6752
荗	-12.6752
兵備熊公桴	-12.6752
後魏万俟醜奴	-12.6752
瓢續之則樓櫓盡焚	-12.6752
竿竿上安轆轤以繩挽	-12.6752
香餌之下必有死魚	-12.6752
琕	-12.6753
晝不見日夜不見星月	-12.6754
慤	-12.6754
褫	-12.6754
闂	-12.6754
椹	-12.6754
簫	-12.6754
近而示之逺逺而示之近	-12.6754
但力勝其弓則容貌和	-12.6754
弓量其力無動容無作色和其	-12.6754
急則失威儀而	-12.6754
更戍外又領熟戸蕃	-12.6754
礶	-12.6754
體調其氣息一其心志謂之楷式	-12.6754
此罸典之當明	-12.6754
珎	-12.6754
萬之衆而天下莫當者誰曰	-12.6754
鳴金鼓扯行船旗起椗起篷	-12.6754
出黄虎無功而退賊	-12.6755
人臣深曉中畧則能全功	-12.6755
所謂樂者非金石絲竹	-12.6755
人弓手三百人馬軍五百人跳盪四百人	-12.6756
先學持滿須能制其弓定其體後乃射之	-12.6756
掏	-12.6756
魏人服叡威名望之不敢逼全軍而還	-12.6756
出破陣作犬聲	-12.6756
在盧山縣界南至縣	-12.6756
劉表遣劉備北侵至	-12.6757
政降人以體聖人之	-12.6757
槐	-12.6758
縞	-12.6758
杴	-12.6758
逥	-12.6758
驂	-12.6758
操江都御史蔡公克亷	-12.6758
熄	-12.6758
副使任公環知府林公懋舉	-12.6758
忸	-12.6758
籐	-12.6758
粱	-12.6758
汐	-12.6758
凸	-12.676
箬	-12.676
居抱道以待其時	-12.676
韁	-12.6762
今之論禦宼者	-12.6762
獷	-12.6762
秦姚萇與苻登相持	-12.6762
丁字不成八字不	-12.6762
卷甲而趨日夜不處倍道兼行百里而	-12.6762
鵒	-12.6762
熿	-12.6762
牌二分二千五百面馬	-12.6762
一二隊為右翼兵三四隊為右伏兵	-12.6762
哨一哨二哨為左翼三哨四哨為左伏	-12.6762
竹節之節節節而制之	-12.6764
譬如驕子不可用也	-12.6764
哨一哨二哨為右翼三哨四哨為右伏	-12.6764
哈	-12.6765
如其未潰可令首尾	-12.6765
碌	-12.6766
錙	-12.6766
纍	-12.6766
燁	-12.6766
卷幡舉槍簇隊	-12.6766
故聖王御世觀	-12.6766
總同前總數但用	-12.6766
長就是你的	-12.6766
曰天時不如地利地利不如人和	-12.6768
有海塘而無海港	-12.6768
杙	-12.6768
交之旗則一復散而為	-12.6768
順人之勢借人之力	-12.6768
兵備叅政任公環	-12.677
路闊處約一丈	-12.677
們	-12.6771
䙝	-12.6771
之精也居少陽之	-12.6772
稚	-12.6772
指壓大指頭指當弦直	-12.6773
嘿	-12.6773
廼	-12.6773
据	-12.6774
之而知得失之計作之而知動	-12.6774
椲	-12.6774
間可得而使也因是而知之故	-12.6775
而知死生之地角之而知有餘不足之處	-12.6775
可望而不可當可下	-12.6776
武王曰何以知之太公曰	-12.6776
耦	-12.6776
用生牛皮張裹	-12.6776
卸	-12.6776
搪	-12.6776
淚	-12.6776
憂則内外不相信	-12.6776
粕	-12.6777
呷	-12.6777
夭	-12.6779
厦	-12.6779
槎	-12.6779
膘	-12.6779
唾	-12.6781
撦	-12.6781
鮪	-12.6781
醇	-12.6785
鐔	-12.6785
羖	-12.6787
喏	-12.6787
見有二珥四珥而蝕有	-12.6787
子刑夘夘刑子	-12.6789
瓌	-12.6789
沱	-12.6791
事時加亥夘鳴其上有	-12.6791
砌	-12.6793
絞車連弩自副	-12.6795
努	-12.6799
䧟堅陳敗強敵	-12.6801
事時加丑戌鳴其上有	-12.6801
䧟堅陳敗歩騎	-12.6803
翬	-12.6806
埂	-12.6808
烘	-12.6808
祅	-12.6818
囚不利為主宜固守聞賊備西	-12.6831
時加占烏情第一百九十	-12.6835
前後三軍疾戰敵人	-12.6836
又㸃哨長旗第	-12.6849
鬢	-12.6855
方陣舉白旗雲氣從西南來主勝聞賊備	-12.6957
宫發計神酉此局	-12.7564
事時加寅午鳴其上	-12.8309
時加寅午鳴其上有	-12.9724
客㕘將三宫發計神	-13.0503
門弇傳步詣行在所勒兵入據其城樹十	-13.0932
饋糧士有飢色樵蘇後㸑師不宿飽	-13.1434
三軍疾戰敵人雖衆其將可	-13.1569
皮湯解鹽湯亦可	-13.1614
瀨	-13.1617
柑	-13.1617
刃連跨長二尺後有拐	-13.1621
沬	-13.163
每百斤出銀三十兩	-13.1633
劉項皆非將將之君	-13.1636
右旋至一周遭而止彼	-13.1636
右脚右手在前隂陽手使	-13.1636
來客勝聞賊備西北竒兵西北伏兵利	-13.1642
魘	-13.1643
絞椗索四根鐵鍋	-13.1643
以為貨徳威自率精騎擊其兩偏左馳右	-13.1646
盞木梆鐵鐸一副備用大小松杉木	-13.1646
乃辭而行軍中之事不聞君命皆由	-13.1646
將出臨敵决戰無有二心若此	-13.1646
無天於上無地於下無	-13.1646
御二心不可以事君疑志不可以應敵臣	-13.1649
曰臣聞國不可從外治軍不可從	-13.1649
兩共研極細𦂳築	-13.1649
威謂李存璋曰賊志在不戰欲以	-13.1652
救趙進軍栢鄉五里遣周徳威先以胡騎	-13.1652
是汴州天武健兒	-13.1652
耀威耳乃遣存璋諭諸軍曰爾	-13.1652
不拘左右以手打開却打他若使一	-13.1652
傳牌五十三三分一更傳	-13.1652
十七疋二丈一尺六寸一分六釐秋糧米	-13.1652
基廣五丈面濶三丈	-13.1652
照前條約比較賞罰畢仆旗各回原伍盖	-13.1652
炫燿晉人望之懼形於色	-13.1655
飛髙我小髙直當即小壓下他	-13.1655
三人以防損失此戰之之法也其在平日	-13.1658
牛皮裁成甲片用刀刮毛以破碗舂碎篩	-13.1658
米大屑調生漆傅上	-13.1658
鋑	-13.1658
酤	-13.1658
座碗口銃三箇鳥嘴銃	-13.1658
鉸	-13.1658
絲綿折絹六百九十七疋三丈	-13.1658
騪	-13.1658
㧓	-13.1661
三元經曰三竒遊于六甲	-13.1661
上半幅白下半幅	-13.1661
窟野河一帶賊路西北至麟州南至銀	-13.1661
水兵演而教之兵械火器如何而設施金	-13.1664
剪急變扁身中攔殺一兩人	-13.1665
假令正月登明為月將時加午	-13.1665
又砍一刀又復一刀	-13.1665
號行者敲弓一下坐者	-13.1668
丙午針三更船取孝順洋及亂礁洋打水	-13.1668
五六寸勿穿或於中夜	-13.1668
他直髙打來我將棍抽過	-13.1668
六戊也入地户六己也過太陰六丁也	-13.1668
兵之有上中下也是兵之有三權也	-13.1668
取草折半障人中半	-13.1668
桿長六尺前二尺施鐡	-13.1668
畏我者不畏敵畏敵者不畏我	-13.1668
遞相分付虞候及中軍官	-13.1671
悛	-13.1671
坍	-13.1671
於城中對敵營自鑿城内為暗門多少臨	-13.1671
有一缺萬人死其下兩軍	-13.1671
酆	-13.1671
鼓𫝊警訖鼓音即止	-13.1671
上半幅藍下半幅	-13.1671
遮矢石布幔以複布為幔	-13.1671
靁	-13.1674
丁夘己夘辛夘癸夘	-13.1674
云梭槍亦曰飛梭槍槌槍者木為圓首教	-13.1674
子賈豎易動以利願	-13.1674
不利先舉月初滿而蝕有軍必戰	-13.1674
日月有赤雲截之如大杵軍在外萬人	-13.1674
有伏兵後有赤氣後有伏兵左右亦如之	-13.1674
永嘉五年改為晉陵郡	-13.1674
㕘將羅帥舟師擊之沉	-13.1674
也咸平中廢慶厯中修復東	-13.1674
塞而不通凡太湖以南嘉	-13.1674
於敵初來營列未定精騎從突門躍出	-13.1674
用五灰水煉成五毒膏加	-13.1674
百隻每隻價銀二分	-13.1674
張旗幟諸山之上為疑兵令酈食其持重	-13.1676
之良曰此獨其將欲叛士卒恐不從	-13.1676
有刃欲刺人不能捉搦也以狀類筆故云	-13.1677
㗖秦將秦將果欲連和	-13.1677
不敢動謙溥遣敢死士百人短兵堅甲夜	-13.1677
其刃為四稜頗壯	-13.1677
騎來寇城時盛暑謙溥服絺綌揺羽扇引	-13.1677
後有伏兵謹候察之兩軍相當赤氣	-13.1677
於一邑者以一邑之力禦之	-13.1677
於一郡者以一郡之力禦之吳淞劉河七	-13.1677
明鄭若曽撰見行兵政	-13.1677
五騎一長十騎一吏百騎一	-13.1677
紗	-13.1677
門接一下只離一寸	-13.1677
之弊夫是之謂以一方之食	-13.1679
萬計本地之民曾足以充之乎曰利害之	-13.1679
有事方開見林木開青旗	-13.168
虺	-13.168
癩	-13.168
尺低打低掲連㡬下待他忙時	-13.168
渠彌以中軍奉鄭公為魚麗	-13.168
皆有刃植地輒立貫處以鐵為索更相勾	-13.168
筆槍首刃下數寸施小	-13.168
八府一州五十七縣之	-13.168
厘	-13.168
納耆民而止矣耆民任其勞官府執其權	-13.168
為吳地吳亡屬越越亡屬楚秦併天下為	-13.168
眼四處各穿藥線使	-13.168
官矣官府以其非召募之兵也不給工食	-13.168
於一方者以一方之力禦之	-13.168
欽定四庫全書江南經畧卷七	-13.168
苕	-13.168
内鉗手四分散匠三分算該銀一錢九分	-13.168
士之法取年四十巳下長七尺五寸巳上	-13.168
襄鄧隨郢州鎮撫使	-13.168
甲撥兵四名專管	-13.1683
閘板下第二甲撥兵四名專管兩水倉門	-13.1683
兵馬開白旗山險開黄旗煙火開紅旗	-13.1683
設之所以禦賊突騎使不得騁故曰拒馬	-13.1683
者以錫飾鐵嘴如烏項之白其小别有錐	-13.1683
鈎或桿上施環步兵則直用素木或鵶項	-13.1683
刺菱二三十枚地火䑕一二十	-13.1683
將還簡精騎一千夜發詰朝造靈助壘戰	-13.1683
武王封仲雍曽孫	-13.1683
𦂳糊其口每砲一枚	-13.1683
兵者凶器也爭者逆德也	-13.1683
非可禦以一方之力也然	-13.1683
去營十里外遊奕以備非常	-13.1683
多無名之費而不得樂其生	-13.1683
必須和雜殺氣森森然	-13.1683
愷	-13.1683
至正十一年兵起始詔	-13.1683
行各須披甲戴盔	-13.1683
訂	-13.1683
防㸃閘而不得佃其田	-13.1683
生於本地而不願為兵者但照常出海防	-13.1685
服不此之務而惟憂食之不足嚴刑以	-13.1685
擅利則釋旗迎而反之	-13.1687
頭低尾髙前大後小如鶻之	-13.1687
㳌	-13.1687
娥	-13.1687
言西歸靈助聞之必信而自寛	-13.1687
大敗之燬其巢賊遁至吳淞所	-13.1687
宋狄青征儂智髙	-13.1687
督舟師襲擊之斬獲大半餘	-13.1687
果赴水溺死者百數於是大破賊衆	-13.1687
陣募勇士得五千餘人分	-13.1687
以行歟曰奚而不可向來團結鄉兵之難	-13.1687
占星統論第一百四十二	-13.1687
將五方旗所指之方即是賊	-13.1687
應訖無賊之營即止	-13.1687
敵亂大衆者名曰武騎之士	-13.1687
會皷四十五聲六疊一間三間畢	-13.1687
有才力者常川領之	-13.1687
至百坡州二十五里至州三百五十五里	-13.1687
行者籍名於官則如僉一重役	-13.1687
貴知變動車貴知地形騎貴知	-13.1687
戮力致死與吾争勝負哉如吾計者正欲	-13.1688
因神不能為變化神不因敵不能為智謀	-13.1688
習之於平陸用之於江海此操之之法也	-13.169
鮎	-13.169
姤	-13.169
者當輕車突冒者當衝車	-13.169
士五十人奪旗左廂奪右廂	-13.169
惑矣不知三軍之權而同三軍之任	-13.169
硝醬竹甲鐵線	-13.169
位欲嚴政欲栗力欲窕	-13.169
欽定四庫全書何博士備論卷	-13.169
流血白氣如車入北斗中轉移者	-13.169
人怯蜀人懦楚人輕齊人	-13.169
否則損之益之兵之無田者現查應出人	-13.169
左廂陽向而旋右廂隂向而旋左右各復	-13.169
數與該地耆民自計之兵之有田者查其	-13.169
若干田若干海防銀若干	-13.169
也故自方而變圓自圓而變曲自曲	-13.169
掠泗涇北簳山	-13.169
擊將軍曹克新統川兵	-13.169
不善也周賞於朝戮	-13.169
其變延慶曰劉靈助庸人也天道深	-13.169
命工開鑿土人相傳稱	-13.169
與各部兵船互相策應一	-13.169
騎四萬人踰橋掩其後乘風縱火	-13.169
五十六聲六疊一間三間畢	-13.169
以善為惡以惡為善者姦人也善	-13.169
以犯嘉定或由黄浦以犯上洋而吳淞	-13.169
所犯之營非賊散鼓聲不得	-13.169
晝日有賊犯營被犯之	-13.169
止諸軍各著衣甲持仗看	-13.169
每杆每出鉛子二個每個重一兩五十出	-13.169
砰	-13.169
艋	-13.169
羲	-13.169
十獲八九此曉兵者所解	-13.1691
師夜出冒雨而進醜徒	-13.1691
著之民為主而用沙耆民沙船沙兵輔之	-13.1691
吹角皆留於後仍抱薪	-13.1691
渡焚其橋軍行十數里悦乃率淄青恒州	-13.1691
十根大索四根小索	-13.1693
千里饋糧士有飢色樵蘇後爨師不宿飽	-13.1693
四戰圖第一百十六孤虚第一百十七	-13.1693
橈	-13.1693
欽定四庫全書江南經畧卷六	-13.1693
經丑未者天下多兵赤者尤甚有雲如	-13.1693
明獨有赤雲赫然者所見之地	-13.1693
逭	-13.1693
秃龜來拆我脚面	-13.1693
人所不見謂之九地見所不及謂之九天	-13.1693
制木桿上刃下鐏騎兵則	-13.1693
怯在謀强弱在勢謀能勢成則怯者勇謀	-13.1693
愠而致戰合於利而動不合於利而止	-13.1693
耆民與土著之兵既給工食又蠲其海防	-13.1693
頭人身長九尺面紫	-13.1693
萬人欲邀燧燧乃令諸軍半夜皆	-13.1693
了心徹堂一峰真元	-13.1693
合八勺零税絲折絹一	-13.1693
檄而定而無錫以東咸入其彀中矣	-13.1693
洪武二年建設弓兵四十二名往來巡邏	-13.1693
無識人也臨事而懼者懦弱人也進退不	-13.1693
者無斷人也記一而忘二者神	-13.1693
色者臨大事而神氣自若者此謂神有餘	-13.1693
解結錐礪石各十分一十一萬	-13.1693
以殄滅為期而不再舉	-13.1693
出殺敵急復原伍次敵兵長鎗	-13.1693
十騎一吏縱横相去百	-13.1693
壒	-13.1693
戰陣有功兼有操守可托新委	-13.1693
溏	-13.1693
養民以寡勝衆者恩也以弱勝强者民也	-13.1694
討破之甘將百騎走投生	-13.1694
鞏廉王彌定遂得復位	-13.1694
法欲圓活若拘則方而不行矣且如白	-13.1694
痩	-13.1694
乃引軍合於悦悦謂燧明日復挑戰乃伏	-13.1694
縣倭患事蹟嘉靖三十五年丙辰四月賊	-13.1696
如是者以敗為勝也勝敗之術非勇	-13.1696
琇	-13.1696
鷗	-13.1696
左右置浮板形如鶻	-13.1696
居國惠以信在軍廣以武	-13.1696
飾以求和解覺其驕慢隂選精兵分道	-13.1696
南面鼓動八百人一時	-13.1696
埸	-13.1696
左右夾擊前抄其胷後掩其尾	-13.1696
此則應變之法出入如神攻取皆勝所	-13.1696
海岱之人壯崆峒之人武燕趙之人鋭	-13.1696
走而刺菱又傷其足	-13.1696
風雲八隊夾擊之是為虎翼陣勝	-13.1696
曰厚而正者堅當選勇力	-13.1696
捕盜自備用釘三十斤油	-13.1696
本部吏士營幕閲其	-13.1696
烹	-13.1696
詈	-13.1696
一兩八錢三十出共鉛子一百五十個	-13.1696
下營訖先令兩隊共掘一厠	-13.1696
不去其旗是以甚敗遂滅衛東晉末桓𤣥	-13.1696
乘壊垣坎牆趾而	-13.1696
五色花紙錢替代	-13.1696
人一堆如有警急易著衣甲車牛在	-13.1696
你鎗你劄我我攔下	-13.1696
兵無衆寡俱可藏納食息備禦如處城堡	-13.1696
前後左右上下周旋能縛束	-13.1696
外七尺櫳槍之外造土壕一重槍去幕七	-13.1696
戰魏舒曰彼徒我車所遇又隘	-13.1696
有九中心零者大將握之四面八向皆取	-13.1696
法晝夜嚴警縱逢雨雪	-13.1696
營則收兵無歸宿之地萬一	-13.1696
緉	-13.1696
角潛傍洹水徑趨魏州令曰聞賊至則止	-13.1696
軍下營訖司騎及佐分	-13.1696
還鎗我掤退救護拏	-13.1696
須防禦於營外去幕二十	-13.1696
人當一騎一車當六騎六騎當一	-13.1696
但有干犯軍令即便指實呈報	-13.1696
其法制精妙也昔衛青出塞以武剛自環	-13.1696
及因而需索詐騙者各依	-13.1696
地而帝智主法人而伯乘天之時因地之	-13.1696
福山東通大海北枕揚子江	-13.1696
鈍而不適用者愚人也利害章章而不能	-13.1696
來圍其城議者皆請速救	-13.1697
也偃旗卧鼔寂若無人形其弱也故曰兵	-13.1698
全勝澹之雖不居此舫取之則獲因縱兵	-13.1698
土鳬氏之冶金為方為圓或	-13.1698
無常勢因敵以為形故兵之極至於無形	-13.1698
絶即散五十人為一隊如此凡三度	-13.1699
前鋭後張延斜而行便	-13.1699
山諸軍力戰拒之是日纔行十餘里人馬	-13.1699
拽一人定放放五十步外石重	-13.1699
是夕東北風大起破屋折樹營中掘井方	-13.1699
果然强來掃我脚	-13.1699
鹿角為行寨契丹圍之數重竒兵出寨後	-13.1699
張良所學太公六韜三畧是也	-13.1699
蚯	-13.1699
悦慶言也死亡憂患貧賤苦辱刑戮誅	-13.1699
者為間者也其二曰獲敵生口以所謀漏	-13.1699
隅候敵來戰起而聚擊是為雲垂陣又有	-13.1699
中所藏刺菱自然布散	-13.1699
之是為蛇蟠陣如兩陣相當而敵未動者	-13.1699
亦遣兵數千合戰光武奔之斬首數十級	-13.1699
來敵傍撓之伺敵空	-13.1699
坐進前脚就他棍中滚入	-13.1699
廣狹一百步狀如街陌設詐挑戰引之令	-13.1699
得相援豈得不敗故廢陣形而用兵者敗	-13.1699
翦使人問軍中戯乎對曰方投石超距	-13.1699
言秦人勁申屠之子	-13.1699
步卒三千按八陣圖破樹機能數萬	-13.1699
滙寳山寨并上海以為聲援該堡為正兵	-13.1699
不得我便兵疲意沮計不復生掎角此	-13.1699
佯與交鋒於水之兩傍使其餘去敵差遠	-13.1699
別	-13.1699
則國富國不法地不足以成其	-13.1699
則武爵任武爵任則兵强按兵而勸農桑	-13.1699
劉裕將何無忌等次桑落洲澹之等率軍	-13.1699
哨後哨見有乏弱人馬不能前進或在路	-13.1699
富强乘天時者春植穀秋植麥夏長	-13.1699
師討之𤣥敗泝流奔荆州	-13.1699
戰澹之常所乘舫旌旗甚盛無忌謂	-13.1699
所在官司撥醫調治痊可即便	-13.1699
斤每杆火線十條共火線二千條每車	-13.1699
旗纛如遇應該迎候禀事人員及各處差	-13.1699
有詐病推避者治以軍法	-13.1699
欽定四庫全書江南經畧卷三	-13.1699
氣正赤恒山之北氣	-13.1699
沈其舟六十艘俘斬三百有竒	-13.1699
涉彼岸直衝敵軍之後與敵邀戰	-13.1699
等賜重者加一等一	-13.1699
縧	-13.1699
者國有沃野之饒而人不足於食	-13.1699
葛亮以石縱横布為八行方陣之法即此	-13.1699
諸將並曰攻備當在初	-13.1699
軍軍中擇善牧養者任	-13.1699
遜曰吾已曉破之之術	-13.1699
里南抵湖州府長興縣界垂脚嶺北抵	-13.1699
閎	-13.1699
陽子陰午生氣子死午刑禍	-13.1699
駚	-13.1699
𩥇	-13.1699
隰州壁壘甚固敵人掩至	-13.1701
通候其無備簡精甲夜襲之賊衆大潰	-13.1701
如轉木石木石之性	-13.1701
密欲圖之乃揚聲欲還甘聞之復招引叛	-13.1701
暉統兵討之時李守正叛於蒲趙思綰據	-13.1701
罰以督之因山川形勢之宜講	-13.1701
上至天者將軍制之復操	-13.1702
五旗交即十隊合為一隊	-13.1702
欽定四庫全書江南經畧卷四	-13.1702
三離三聚三散不如法者	-13.1702
九日内必覺備之吉	-13.1702
以其連接如秤衡也	-13.1702
六韜卷第五豹韜林戰	-13.1702
北十餘里契丹踰白溝而去晉軍結	-13.1702
如丹蛇赤氣隨之必	-13.1702
崩士卒取其泥帛絞而飲之人馬俱	-13.1702
踵之晉軍至陽城契丹大至晉軍與戰	-13.1702
昬	-13.1702
水兩軍相對公理未成列祥縱	-13.1702
簡監住右手刺之右邊以右手	-13.1702
也執陣形而求勝者愚將也其用	-13.1702
大散關勢不可遏暉數戰	-13.1702
敵衝其中兩頭皆救如兩手之捍頭目	-13.1702
漸漸逼城仍具皮笆傍牌以禦矢石	-13.1702
以求萬全之義也昔諸葛亮推	-13.1702
八陣以巴蜀弱卒數萬屯渭水伐魏司馬	-13.1702
各三分五千口皮囊袋亦得	-13.1702
晉天福中馬希範	-13.1702
而彼結營不進自挫其鋒吾知其不敢戰	-13.1702
賊自松江循澱山湖而北直搗於此	-13.1702
陣為殊不知用陣以束部伍用衆如用一	-13.1702
之鉅鹿宋之孟諸此地之良也	-13.1702
兵掠豫州留將桃豹守	-13.1702
其軍始集思慮精專未可干也今住已	-13.1702
凡軍不久駐可立槍為營槍頭間架令均	-13.1702
前易後險者車之困地	-13.1702
吳越之金錫此地之財也燕之涿	-13.1702
壓又進一足壓死又進一足	-13.1702
子各十分三萬七千五百事袴帑	-13.1702
左險右易上陵仰	-13.1702
已固守擊之必無利矣遜曰彼乃猾虜	-13.1702
往而無以還者車之死地	-13.1702
後有溝瀆左有深水右有	-13.1702
慮彼見老弱必輕進	-13.1702
或弱者理亂使然也茍有	-13.1702
栰	-13.1702
纖	-13.1702
者非儉則力同列而相臣妾者	-13.1702
而貧者非惰則奢世無	-13.1702
耕而王天下湯武戰伐而服諸侯	-13.1702
誠任不患無財人誠用不畏强禦故神農	-13.1702
越絶險阻乗敵逺行者車之竭地	-13.1702
軹	-13.1702
通貨財可積也夫有容身之地智者不言	-13.1702
金鼔旗角刀手鋭士	-13.1702
間犯天字號信垜城下該管臺上	-13.1702
韓之滎陽齊之臨淄陳之宛丘鄭之陽翟	-13.1702
領皮裘皮袴各三分七千五百領或	-13.1702
之懿因謂諸將曰所以不攻其營正欲	-13.1702
人配鹿角馬槍兩枝	-13.1702
國有山海之利而人不足於財	-13.1702
操柄審數以御人課農者術之事而富在	-13.1702
旅飭力以長地之財用資軍實謂之農夫	-13.1702
正在今日乃先攻一營不利	-13.1702
此不可失也乃縱兵逆擊大破之三戰皆	-13.1702
秋時晉中行穆子敗無終及羣狄於太原	-13.1702
送中軍招人認領失物得物之人	-13.1702
後唐李嗣源襲鄆	-13.1704
以安撫之以李靖為定襄道總管	-13.1704
於暢潛匿精勇見其老弱暢不以	-13.1704
罪請為藩臣太宗遣唐儉安修仁持節出	-13.1704
貞觀初突厥頡利可汗退保	-13.1704
勝必為敵人守險邀我歸路難以返矣一	-13.1704
以為應援暉設伏而待一	-13.1704
勝然後塹而圍之暉屢使人挑戰賊終不	-13.1704
强彼弱外無救援力足	-13.1704
暉乃潛使千餘人於城南一	-13.1704
盡殪之自是景崇膽破無復敢	-13.1704
者當羈縻守之以待其弊	-13.1704
見惡之乃謂晟曰將帥當持重豈宜自表	-13.1704
入吾術中當進兵擒之	-13.1704
懐光自河北赴難李晟每將合戰必自	-13.1704
楚晉大夫郤至曰楚有六間其二卿相惡	-13.1704
勢加人者止用勇敢疾速為務鮮能精謀	-13.1704
之道戰勝而敗者有五急難定謀狐疑不	-13.1704
戒之曰延陀負其兵力踰	-13.1704
旗幟金革依於形智	-13.1704
百萬六十七十八十九十萬之旗	-13.1704
計事依於神戰勝攻取形之事而用在神	-13.1704
柿	-13.1705
専駐官兵以為守禦之計其餘	-13.1705
戎人之前遇覆者奔	-13.1705
就擒曷若以身狥國乃與	-13.1705
晉開運中契丹擁衆南向約八萬餘騎晉	-13.1705
訥	-13.1705
取要用定著三十五家	-13.1705
夣	-13.1705
往攻敵敵若無備攻之必勝	-13.1705
次之監軍御史禆副左右衙官	-13.1705
絲步回撒花蓋頂收了出牌見	-13.1705
之外擐甲執兵偽為蜀兵旗幟循南山而	-13.1705
出賊後齊聲呼譟彊弩並發	-13.1705
娛	-13.1705
形陣有方圓曲直之勢錯綜八卦實河圖	-13.1705
敵歸路而取勝也故陣有八	-13.1705
於下流潛渡公理率衆拒之祥至濆	-13.1705
河南公理聚甲以當之祥乃簡精	-13.1705
而荷以走曰得華登矣遂敗華氏於新里	-13.1705
聲言川軍至矣景崇令數千人潰圍而	-13.1705
袁紹將許攸降曹操因説曰	-13.1705
阻相錯敵人已敗不能	-13.1705
齊烏枝鳴曰用少莫如齊致死齊致死莫	-13.1705
者隔隘可以相要截	-13.1705
人力可負以乾草為心濕草外傅候風勢	-13.1705
勇之與怯於人何有哉	-13.1705
揣兆嵗首必應㑹飲使將竇	-13.1705
故進軍逼悦所謂攻其所必救也彼茍	-13.1705
水則秦人何得而稱勁呉人怯	-13.1705
犒宇文大言於衆曰崔毖昨有使至於是	-13.1705
諸葛孔明撮巴蜀之衆窺兵中原身為	-13.1705
魏將則蜀人何得而稱懦楚人輕項羽破	-13.1705
魏曹操軍行失道三軍皆渴公令曰前	-13.1705
䏰	-13.1705
剛者賊也弱者人之所助强者人之所攻	-13.1705
已親附而罰不行則不可用	-13.1705
軍䜟曰柔能制剛弱能制强柔者	-13.1705
郾	-13.1705
黶	-13.1705
五千夜從間道出評營後	-13.1705
修葺磨礪如其棄失申上所由便為案記	-13.1705
候其困而搏之則不為其所傷	-13.1705
兵先至丹陽公祐大懼先遣	-13.1705
刃而誓之以致人意也	-13.1705
因便乘勢而躪蹙之	-13.1705
夏后氏誓衆於軍中欲人先	-13.1705
宋之斤魯之削吳越之劍燕之角荆之簳	-13.1705
屈古進曰陛下轉戰千里	-13.1705
屯白道川太宗遣李勣	-13.1705
後趙將石虎領兵救陳	-13.1705
敗也機巧萬端失於遲後二敗也機事不	-13.1705
日夜半行十三度少強即至	-13.1705
柹	-13.1705
湯浸去皮尖雙	-13.1705
漢韓王信反亡走匈奴與匈奴謀攻漢髙	-13.1705
為圍中騎其步卒槍幡守圍有漏禽	-13.1705
營及外營横排牛在當中拒馬槍在外仍	-13.1705
秦孝公行墾草之令使商不得	-13.1705
穂	-13.1705
而來經途數千里馬已疲	-13.1705
膓	-13.1705
與號令者必不溢四十萬矣餘皆疑兵	-13.1705
蚊	-13.1705
謊	-13.1705
進鎗他若使外把門等我我	-13.1705
酒肉之價重關市之賦使農逸而商勞行	-13.1705
雲夢之毛羽黔溪之丹	-13.1705
革角骨江衡之柟梓㑹稽之	-13.1705
駭散飛集襄營火發因其亂隨而	-13.1705
麗令江夏王道宗與李靖為前鋒濟遼水	-13.1705
地與敵地犬牙相錯動有挂礙	-13.1707
利彼出而不利曰支敵雖邀我我無出	-13.1707
支持故不利先出也兵法曰我出而	-13.1707
而且長出軍則不能成陣攻敵則自下禦	-13.1707
又麾其東偏曰梁軍走矣晉兵爭進梁兵	-13.1707
士卒勞倦必有退志當是時我以精	-13.1707
將帥自表異以奪敵心	-13.1707
晡梁軍未食士無鬭志景仁等引兵稍却	-13.1707
相驚怖遂大敗自鄗追至	-13.1707
與吾轉戰雖挾糗糧亦不暇食日昳之後	-13.1707
里汴宋之軍居西魏滑之軍居東晉王謂	-13.1707
馬為流矢所中死比副騎至歡已逸去矣	-13.1707
亦不利故言勢均然則如之何曰必欲	-13.1707
陣而囂合而加囂各顧其後莫有鬭心舊	-13.1707
勒薛延陀等合衆二十萬	-13.1707
十萬之國其衆來者有四萬五萬之旗	-13.1707
從百騎赴之繼遷前	-13.1707
李弼等率鐵騎横	-13.1707
歡軍六十餘里歡聞泰至引軍來㑹見泰	-13.1707
潯陽宋將殷孝祖討之時賊據赭圻孝祖	-13.1707
盖自隨軍中相謂曰殷統軍	-13.1707
競馳而進不為行列泰鳴	-13.1707
級降者二萬餘人歡夜遁棄鎧仗十有八	-13.1707
而神細形無物而不鑒神無物而不察形	-13.1707
賊兵大至軍中僉欲深溝保險待太宗	-13.1707
軍上軍在北中軍次之下軍在南東西相	-13.1707
輕也困獸猶鬭况乾歸乎今宜布陣而前	-13.1707
衷戎師前後擊之盡殪	-13.1708
阡能羅渾擎句胡僧	-13.1708
倬	-13.1709
弓兵四十名往來巡邏所屬烽堠十二座	-13.1709
霅	-13.1709
上小跳翻身下閃馬牌歌曰韯牌再韯牌	-13.1709
佚居者衆用力者寡	-13.1709
百五十人拽二人定放放五十歩外石重	-13.1709
鉼	-13.1709
長以衛短短以救長	-13.1709
十卒而殺其三者威振於敵國	-13.1709
如崩山李守真亦令歩兵盡㧞鹿角出鬭	-13.1709
挂形出不勝返亦難也兵法	-13.1709
燕尾炬縳葦草為炬	-13.1709
翟義坐不生得以見責今將百萬之衆遇	-13.1709
而燒之松明炬以松	-13.1709
若以力楚國方城以為城漢水以為池雖	-13.1709
陽候望向陽示生糧道便人	-13.1709
三國之中與吾有韓魏之謀者待其人情	-13.1709
不能復上皆委棄馬及鎧仗蔽地杜	-13.1709
之曰國亡君死二三子之	-13.1709
之落其計矣不若静以待之必	-13.1709
乘之必大捷於今未可也王乃止至	-13.1709
僊	-13.1709
儒以萬人屯永昌仲文詐移書州縣曰大	-13.1709
反遣周法尚討之軍將至賊棄州城走散	-13.1709
可以解渴士卒聞之口皆出水遂及前水	-13.1709
吾今破之必矣然彼軍初合其鋒甚	-13.1709
喜仲文簡精兵偽建逈旗幟倍道而進善	-13.1709
在河北拒命河南州縣多從	-13.1709
惑然後取之於是三國攻廆廆閉門不	-13.1709
抆	-13.1709
拒之前鋒始交翰已入其營縱火焚之衆	-13.1709
曬	-13.1709
有賊犯大營其外舗看賊與大營交戰即	-13.1709
服故欲令先識以奪其心耳懐光益不恱	-13.1709
欽定四庫全書江南經畧卷二	-13.1709
歡每揚聲云欲討	-13.1709
為間者也其三曰敵來間我詐為不知也	-13.1709
示之敵得偽事我則出不意而擊之此反	-13.1709
賊也晟曰晟久在涇原軍士頗	-13.1709
賊已破膽不宜更令成列遣精騎擊之皆	-13.1709
速戰兵法善於致人不致於人今田悦與	-13.1709
鑽子藥袋火石袋鹽袋	-13.1709
陣而進悉獨官自恃其衆不設備見廆軍	-13.1709
㙭	-13.1709
金鄉將宣蜀公令	-13.1709
三十里頓軍不進諸將咸曰	-13.1709
剜門未徹而追至敖曹奮頭	-13.1709
威曰我為公先公可繼進	-13.1709
建旗盖以凌陣周人盡銳擊之一軍皆	-13.1709
時糧儲寡少人懐恟懼州有空倉數十所	-13.1709
此以死報恩諸人若有異圖可来	-13.1709
火營外置約舗其外更著一人伏	-13.1709
王夫差兵無敵於天下敗齊於	-13.1709
立部曲度權謀先偏後伍彌縫其闕用以	-13.1709
覩大軍棄輜重欲渡湟水道阨狹充國徐	-13.1709
訖兵士更不得出白繩便斷	-13.1709
詐越人澆薄越王勾踐以殘亡之國恤孤	-13.1709
説王邑曰昆陽城小而堅今假號者在宛	-13.1709
變動無常因敵轉化不為事先動而	-13.1709
隂暗昏霧出其不意襲其懈怠可以有功	-13.1709
仙領兵守㑹稽以為應援公祐擁兵東走	-13.1709
先令自使㸔其身手歩法	-13.1709
光武留王鳳等守城與李軼等十餘騎夜	-13.1709
六百七十五斤一兩八錢每杆每出鉛子	-13.1709
力吾當以計破之乃取	-13.1709
十人當一車一騎當歩卒	-13.1709
反郭子儀李光弼率師下井陘	-13.1709
周天三百六十五度四分度之一	-13.1709
單席享以雞豚飲以釃酒	-13.1709
城既在要衝雉堞牢固逈已遣兵據之諸	-13.1709
士勇氣自倍彼徒我騎勢不相及	-13.1709
士數千騎直衝賊陣左右出入	-13.1709
弇不以賊遺君父我既職在前軍當	-13.1709
攔下還鎗我攔鎗你	-13.1709
數年而倉廪實人知禮義至於始皇	-13.1709
有人馬行三十里外東西南北皆	-13.1709
異物充於後宫騊駼駃騠實於外	-13.1709
立表一行凡立五行表間前後各容五十	-13.1709
竒兵二萬五千人絶趙軍後又一軍五	-13.1709
精兵偽示以老弱敵進攻則發伏	-13.1709
縱酒且遣使與漢平韓信渡平原襲破齊	-13.1709
者矣敵有恃氣勢而到者可以後	-13.1709
而圓事其内觀其形不見其神	-13.1709
與西魏大將宇文泰戰邙山其時泰見歡	-13.1709
説之與連和廣然之乃	-13.1709
謂之曰髙歡越山渡河逺來至此天亡之	-13.1709
路請先攻取孝寛曰城小而固若攻而不	-13.1709
造戰車可駕數牛上	-13.1709
逺來大兵實疲頓恃衆輕我一戰必摧昔	-13.1709
鋒而以羽儀自標異若善射者十人共射	-13.1709
門之外欲人先意以待事也周人將交	-13.1709
險戰之法車必循道十車	-13.1709
𫝊送𫝊送本位申上起	-13.1709
一月間也則吾城已固諸軍足辦吾	-13.1709
之者事有衆危而獨安之者事有難動而	-13.1709
令見費人執之以為囚俘冶區夫曰非也	-13.1709
反敗也戰勝而欲必勝者定謀貴	-13.1709
在戰捷聞孟獲者為夷漢所服募生致之	-13.1709
尫	-13.1709
布西境稱得浩亹將進軍黄谷歆聞而大	-13.1709
掘壕營凡掘壕立槍則白繩取定其壕底	-13.1709
敗也主將不一五敗也此五者皆戰勝而	-13.1709
方許進見倘有異言異服可疑之人送	-13.1709
東南七十里介於柘林金山之間	-13.1709
殺馬食肉者軍無糧也	-13.1709
繄	-13.1709
者上不制于天下不制于地中不制于人	-13.1709
若見費人寒者衣之	-13.1709
該縣佐貳官一員督同哨官一員	-13.1709
諸軍大集可一舉滅之延不從而戰敗北	-13.1709
進入都瀆澗䝉遜	-13.1709
隋軍死者五千餘人陳人盡取其鼻以	-13.1709
魚鱗布之則牢固矣	-13.1709
不肯朝覲請待草青馬肥將踰砂磧靖與	-13.171
節義之士修其道然後士可致而名可保	-13.171
也其五曰與敵人戰佯為小敗亟引兵深	-13.171
敖曹輕騎走河陽城仰呼求	-13.171
言語鄙鈍無智慮者使於敵令	-13.171
先居高陽利糧道以戰則	-13.171
土瘠賦重人民益	-13.171
揣山東當有變上黨且當兵衝是時乘戰	-13.171
機而佐勝由中古以	-13.171
與歡相遇時募士皆用短兵接戰乘勝逐	-13.171
隂養生而處實生為陽養	-13.171
兵剽銳未易當也孝恭不從留靖守營自	-13.171
其道四通我與敵相當而傍有他國所謂	-13.171
内攻危道也衛尉伊	-13.171
去虎牢三十里武疑有變欲	-13.171
廣廣曰必是匈奴射鵰者也	-13.171
彼有背叛我當共殺今已斬之故令	-13.171
昭公十三年魯叔弓帥師圍費弗克敗焉	-13.171
機巧貴速機事貴	-13.171
至期繼遷設伏止領十數人近城迎光實	-13.171
衆習戰若輕軍卒至出吾慮表大敵外逼	-13.171
造浮橋於渭令軍人齎三日糧輕騎渡渭	-13.171
霧風雨䝉遜軍大至傉檀大敗而還唐武	-13.171
非素立勢不能久不若且	-13.171
鞭伏兵盡起光實被害	-13.171
北戎侵鄭鄭伯禦之	-13.1711
備寇水陸路考東瀕大海其道有	-13.1712
抖	-13.1712
豈出於私智彊為哉	-13.1712
芘	-13.1712
密遣驍將乘險夜襲大破之	-13.1712
為不傷將得天后為重	-13.1712
鼓角心存號令乃命諸將分為左右皆	-13.1712
上者尊貪鄙者富雖有聖主不能致其治	-13.1712
之公弗許自雩門竊出䝉臯比而先犯之	-13.1712
其國盡衆逼城連營三十里廆簡精鋭士	-13.1712
占野地立營正宿第一百四十	-13.1712
柤	-13.1712
犯上者誅貪鄙者拘則化行而衆惡消	-13.1712
田業賈不離其肆宅士大夫不離其官府	-13.1712
白之士不可以爵祿得節義之士不可以	-13.1712
身故能使三軍如一心則其勝可全	-13.1712
道以䕶之又曰通地雖有	-13.1712
地士卒勇氣欲擊之法順而勿抗隂守其	-13.1712
公孫戮於上谷則燕趙之人何得而稱鋭	-13.1712
口與悦夾洹水而軍李抱真	-13.1712
唐馬燧討田悦軍中乏糧悦	-13.1712
埏	-13.1712
埴	-13.1712
壁不戰燧令諸軍持十日	-13.1712
將攻徐州其妻子在金鄉仲文遣人詐為	-13.1712
摸	-13.1712
擬停三五日即須去軍一二	-13.1712
昃	-13.1712
昔稱善師者不陣善陣者不戰此言	-13.1712
是遣使慰諭假以官號偽班	-13.1712
槌牛享士仲文知其怠選精騎襲之一日	-13.1712
此中粟皆滿足支二年但努力堅守衆心	-13.1712
羅使者謂金鄉城主徐善	-13.1712
至可多積粟讓謂仲文未能	-13.1712
賂之令反其言以間敵此反以來人為間	-13.1712
遁走茍利所在其擊之法利為伏兵相其	-13.1712
首尾計欲不戰以老我師若分	-13.1712
驅之或曰逐利行遲充國曰窮冦也不可	-13.1712
凳	-13.1712
則備蓬艾薪草萬束	-13.1712
募敢勇三千人令賀拔勝總之以犯其軍	-13.1712
守其城壘整其車騎或當吾前或擊吾後	-13.1712
小取大則越人何得而稱澆薄燕趙之人	-13.1712
檀道濟都督征討諸	-13.1712
疲極而息於道賊果逐之	-13.1712
皆其信地千百户所鎮撫司軍器局廣	-13.1712
盛土如米狀使千餘人運上臺又	-13.1712
眼等以水注之三池浮木齊起眇目視之	-13.1712
羅起兵之所當寛其妻子其	-13.1712
蚩尤敗於涿鹿燕丹死於易水王	-13.1712
遂取金鄉諸將多勸屠之仲文曰此地是	-13.1712
閏三月賊首鄧文俊等分掠縣境	-13.1712
陳將吳明徹進逼壽陽	-13.1712
不戰之計城柵既固卒不可攻請	-13.1712
不知虚實故敗今䝉賜觀營陣若	-13.1712
丙為月竒丁為星竒	-13.1712
主沮渠䝉遜伐西	-13.1712
之三日至行唐賊疲乃退我軍乘之又敗	-13.1712
之士三縱之肅乃遁走唐太宗討薛仁杲	-13.1712
之行伍厚薄出於臨時務於	-13.1712
乗之仁杲列陣城下太宗據涇水以臨賊	-13.1712
二斤半每營共該鉛子	-13.1712
令三軍曰魏人所以富庶而能通聖化者	-13.1712
以充軍用隋將楊素奮兵擊之四十餘戰	-13.1712
入齊境五百里前後三遣使報消難皆不	-13.1712
公也天子以其仁愛使治鎮州且田公出	-13.1712
兵有此三者未有不敗軍殺將者焉是故	-13.1712
則氣勝實為髙處於髙則逺絶卑濕	-13.1712
南為武進宜興無錫三合界之處	-13.1712
即易勝耳亮笑縱使更戰七縱七擒而亮	-13.1712
吳淞江入黄浦逼臨城下南滙反在其外	-13.1712
呉二千里聞吾舉事當表上天子比相反	-13.1712
培	-13.1712
大凡兵之體用好髙而惡下貴陽而	-13.1712
子儀堅壁自固賊來則守賊去則追獲晝	-13.1712
孤山套口蟛蜞港爛港口三處尤其要害	-13.1712
安王孝恭討蕭銑銑	-13.1712
官民船三十四隻水兵民	-13.1712
尺置連枷棒一具	-13.1712
嶽嶺路約五十里北至契丹界無鋪東至	-13.1712
帝令士皆持滿傅矢外	-13.1712
平陳禎明三年隋師濟江宜黄侯慧紀	-13.1712
往省括于度則釋	-13.1712
待當營卓幕訖方可立隊釋仗	-13.1712
意欲吾回師先定酒泉乃燒攻具而還次	-13.1712
慅	-13.1712
慰逺近之心降而籍之恐非救焚拯溺之	-13.1712
拿硬上一刴放鎗他	-13.1712
捧觴大將軍令於衆曰戰士某乙等	-13.1712
操艘出入波濤閑習如	-13.1712
攔下閃賺花鎗上你攔下還鎗我攔鎗	-13.1712
攻陳登於匡琦城	-13.1712
放噴筒一箇出招旗以報	-13.1712
新塲賊首陳東自燬其巢	-13.1712
方二百三十日而入入二十五日而復出	-13.1712
於本隊下安置若有警急隨方	-13.1712
曰賊怠矣可以戰戰于嘉山斬馘四百級	-13.1712
李靖隨河間王孝恭討蕭銑於江陵銑悉	-13.1712
柴營凡柴營其柴	-13.1712
業非智不戰非農不贍過此以徃而致富	-13.1712
殷浩北伐請江逌為諮議	-13.1712
殺傷及溺死者萬餘人惠亮奔走靖率輕	-13.1712
每出鉛子五個每個重	-13.1712
水平槽長二尺四寸兩頭	-13.1712
溪源口南至禄塘砦三十	-13.1712
炬火前烽應訖即滅火若	-13.1712
為正以正為竒竒正相生如循環之無窮	-13.1712
燕師後漢班超使西域至鄯善	-13.1712
營謂將校曰今兵非不精而衆少於羌且	-13.1712
燿	-13.1712
獲不去曰公天威也南人不復反矣遂至	-13.1712
獵見匈奴三人與戰被射傷中貴人走	-13.1712
率左右二千餘騎追奔直趣	-13.1712
留拒我或歸自守兵分勢弱我乘其懈而	-13.1712
破其大軍此亦何能為也於是引軍次	-13.1712
秦王聞趙食道絶自之河内	-13.1712
立木柵一重柵外更	-13.1712
絶水必逺水客絶水而來勿迎之	-13.1712
缷	-13.1712
置一戰樓五十步置旋風	-13.1712
羅恃衆來薄官軍仲文背城結陣	-13.1712
自歸如即屠之彼望絶矣衆皆稱善於是	-13.1712
致仕叅政錢泮	-13.1712
與大軍合冒頓引兵去後周大將	-13.1712
舗更板并架城内去	-13.1712
萬人踵其後我行亦行我止亦止子儀選	-13.1712
蠅	-13.1712
袁浦墪在柘林袁浦捍海塘	-13.1712
言匈奴可擊帝使劉敬復	-13.1712
語之曰袁公恐曹	-13.1712
諸鎮舊號富庶皆本所信地	-13.1712
賊遁遣人詣都城奏功	-13.1712
軍姚襄結營以逼浩浩令逌	-13.1712
進戰其驍將渾幹等數人臨陣	-13.1712
遣之於是各乘良馬須臾並至	-13.1712
里至分壁嶺山路闊處約一百步狹處約	-13.1712
野菱蕩歴大成橋太平九里邨華市新塘	-13.1712
錚	-13.1712
隨逐水草每數日各相遇已而皆	-13.1712
非計之善遂止江漢城邑聞之莫不爭下	-13.1712
須先設水平測度髙下始可用之也水平	-13.1712
領住守孤山套口一枝哨官一員	-13.1712
領住守蟛蜞港一枝該縣佐貳官一員	-13.1712
養生處實軍無百疾	-13.1712
騎二十四陣以繫八陣之後	-13.1712
騎絶趙壁間趙軍分	-13.1712
鰕	-13.1712
動勞人兵法曰入人之地而不深為輕地	-13.1713
塞要路輕兵進而誘之陣而勿戰敗謀之	-13.1713
奪敵人之心不待旗壘之相摩兵矢之相	-13.1713
令持縑者悉斬之無一人得脫	-13.1713
攻以侵伐為事其長兵則弓矢短兵則刀	-13.1713
威先屯趙州而自將㑹之梁兵馬鎧	-13.1713
彩炫熠晉人望之奪氣晉王欲速戰徳威	-13.1713
者由人也故兵法不可執而用之也明矣	-13.1713
趙告急于晉晉王存朂遣周	-13.1713
軍至輕地士卒未專以入為務無以戰為	-13.1713
三人在車上四人掌拒馬四小牌四槍四	-13.1713
之大獲舟艦李靖使孝恭盡散之江中諸	-13.1713
之節前一日將帥及士卒集於墠地所禁	-13.1713
四十地分戰車千四百四十乘地分兵	-13.1713
在死地賊必不敢渡水當吾鋒食畢齊師	-13.1713
士皆擐甲各為直陣以	-13.1713
夫誅豪者益其威戮强者	-13.1713
子使中貴人從李廣勒兵擊匈奴貴人將	-13.1713
張郃督諸軍拒亮將馬謖於街亭謖	-13.1713
必易我而不戒子為三覆以待我	-13.1713
掠軍資人皆負重靖見其衆亂縱兵奮	-13.1713
於表下而軍容肅魏絳戮揚干而諸侯服	-13.1713
日所司請講武遂申命將帥選閲軍士所	-13.1713
河東賊必引守諸津則西河未可渡也吾	-13.1713
相為用不竭人馬之力也若馬軍在前先	-13.1713
色建旗為和門於都墠之中四角皆建五	-13.1713
處得渡大事去矣果如其言帝西奔長安	-13.1713
財帛以餌消難及其屬先歸忠以三千騎	-13.1713
陣開四門騎兵居其中候出戰即開門放	-13.1713
以密情告化及大怒其食又盡乃渡	-13.1713
以弊其衆化及弗之悟大喜	-13.1713
其兵食冀密饋之㑹密	-13.1713
李歆於酒泉先攻浩亹	-13.1713
至平城匈奴果出竒兵圍髙帝	-13.1713
農桑絲折絹三	-13.1714
箆	-13.1715
受命專斧鉞之威臣不敢生還	-13.1715
備寇水陸路考東濱大海	-13.1715
有雲如坐人赤色所臨城邑有	-13.1715
稿	-13.1715
系	-13.1715
騎皆用袁氏旗幟銜枚	-13.1715
火繩三條在臺側近上下用屈膝梯上	-13.1715
其内或擊其外三軍疾戰	-13.1715
其後此是失道而求生故曰困而不謀者	-13.1715
則無止又曰輕地吾將使之屬	-13.1715
厨人濮曰吾小人可藉死	-13.1715
子曰若吾圍敵則如之何武曰山	-13.1715
糧十分一人一斗二升一軍一千五百石	-13.1715
辣	-13.1715
開其去道示其走路求生透出必無鬭意	-13.1715
魏有以遺之嗚呼豈亦天意者	-13.1715
丸如桐子大每服	-13.1715
亭以當其鋒因索筆下議餘皆注同中書	-13.1715
倉俱在城内演武塲在南門外千户	-13.1715
勇怯在乎法成敗在乎智怯人使之以刑	-13.1715
員内考選掌印一員城操一員	-13.1715
失人心及魏大武軍至乃奔退麾下散亡	-13.1715
官軍止數千𤣥兵甚盛而𤣥懼有敗衂常	-13.1715
數萬騎逆軍登白狼山卒與虜遇	-13.1715
水解散瘧痢藥金	-13.1715
洪武十九年滎陽侯鄭遇春	-13.1715
源通成敗之端審治亂之機知去就之節	-13.1715
無定國衆惑無治民疑定惑還國乃可安	-13.1715
莫有固志道濟夜唱籌量沙以所餘少米	-13.1715
衝人無拒者凡攻城邑旬日未	-13.1715
要在士卒訓練兵械堅良號令以申之賞	-13.1715
路量撥哨船數隻與瞭望墪軍一體哨報	-13.1715
逖軍開東門相守四旬逖以布	-13.1715
鄔	-13.1715
鬻水積錢絹如丘陵三軍莫有	-13.1715
䝉普㝷後當至䝉豫勑四將各選百人普	-13.1715
一地分用戰車一乘兵	-13.1715
之曰今日惟有死耳乃免胄下馬據胡牀	-13.1715
付任未專威信未著	-13.1715
伐西魏軍至許原西宇文泰至渭南	-13.1715
使匈奴還報曰兩國相	-13.1715
便入守城門須臾普出䝉迎執其手與	-13.1715
先人可為寒心燕軍盡掘	-13.1715
兵不戰紹亦難之各引兵歸	-13.1715
兵寡弱軍中大懼道濟乃命軍士悉去甲	-13.1715
其身左右承之妙絶無比見者無不恐懼	-13.1715
具絆二十分二萬五千條皮毛	-13.1715
則又以所得之財為樹藝之本而死守力	-13.1715
勢在敵我當有道反能擊之若夫敵有	-13.1715
勢而到者未可與戰堅壁	-13.1715
國雖大好戰必亡天下雖安忘戰必危	-13.1715
地疾戰則存不戰則亡	-13.1715
城營凡築城為營其城身髙五尺	-13.1715
安戰則有累卵之危業曰卿言是也乃按	-13.1715
將軍宜循法度察有功以自明	-13.1715
引至㕔凡經數重門	-13.1715
强有所加兼此四者而制其宜	-13.1715
惟在此舉孝恭然之靖乃	-13.1715
故充國伐西戎杜茂守北鄙創置屯田以	-13.1715
於豪强之身而不在於士卒之庸豪强有	-13.1715
明不預焉所謂亂軍者豪家權臣閽寺嬖	-13.1715
為之軍吏權軍之勢擅將之威公政私	-13.1715
為賊傷死人蔽野大將李光弼帥本鎮兵	-13.1715
無幕故以披氊代挿	-13.1715
留兵備公安南郡是也所謂强而避之者	-13.1715
糧神農書曰雖金城十仞湯池百步	-13.1715
者以有二將之軍也連車	-13.1715
而去常清至使院命左右	-13.1715
自將步騎五千人皆用袁	-13.1715
親酹其屍而哭之為賊幽閉者出之誓平	-13.1715
詮自後走馬突常	-13.1715
賊大衆在此巢窟虛矣我直指襄平必人	-13.1715
賊衆悉南守西河之備虛故徐晃等得	-13.1715
赴之乃泛舟潛濟以出其北傍水作長圍	-13.1715
軍營將下之時當營跳盪	-13.1715
重三十餘斤摧鋒破陣率以此勝	-13.1715
鎗你上劄我捉鎗你下劄我	-13.1715
離合無相奪倫營中有營謂部分次序有	-13.1715
鞲	-13.1715
魏博節度時幽鎮復亂田𢎞正遇害	-13.1715
鼓駐隊捺矟齊呌而前	-13.1715
􁤠	-13.1715
中求生正在今日乃縱反間稱乾歸東奔	-13.1715
乃申命士衆宿整兵器昧爽開南門引	-13.1715
仍著木壓之其車横排	-13.1715
令實勿至摧塌裏面削成其上通人行立	-13.1715
先正而後竒先仁義而後權譎	-13.1715
公恩者其何以報衆皆大哭	-13.1715
北戎遣使修貢賜宴便殿因出劍	-13.1715
安城詔王基引諸	-13.1715
廣有一卒卒偏之兩	-13.1715
征吕布至下邳布敗	-13.1715
急疾轉車便可為城	-13.1715
支米二升一月六斗一年七石二斗一軍	-13.1715
斷江路築却月城延袤十餘里與惠亮為	-13.1715
歆集兵欲攻張掖䝉遜曰入吾計矣但恐	-13.1715
武侯布石為陣縱横八行	-13.1715
燕將騎刼攻齊即墨齊將田單拒守	-13.1715
禦之至夜收軍憲欲待明更戰武欲還固	-13.1715
若進若止必從其道敵人若起必逐其跡	-13.1715
道敢兹殘害以魏無人也若父兄子弟受	-13.1715
門掘徹即權施浮橋急疾拆去當界二十	-13.1715
靖曰王者之師義存弔伐百姓旣受驅逼	-13.1715
騎二萬屯青林山仍於梁山連	-13.1715
奢曰請受令歴又曰	-13.1716
事洩昌裔密計斬之即召其麾下千餘人	-13.1716
日士卒亡者過半矣乃棄其步兵與其輕	-13.1716
曲環鎮許州劉昌裔為	-13.1716
淵等集中書省議莫有言者	-13.1716
至輕地始入敵境士卒思還難進易退未	-13.1716
則有所制馭而無跋扈劫奪之患	-13.1716
孫子度其行暮當至馬陵	-13.1716
擊孝恪自為前鋒力戰而入	-13.1716
者得其祐惡者受其誅則國安而衆善至	-13.1716
乘我䘮謂我不能師也	-13.1716
伐齊遣將尉遲迥圍洛陽	-13.1716
備大將以下各有統率如常	-13.1716
入敵境敵人固壘不戰士卒思歸欲退且	-13.1716
可推移剛柔遲速異齊器械異制衣服異	-13.1716
地當選驍兵伏要路我退敵追來則擊之	-13.1716
戰也紹乃引軍而南業將擊之其將沮渠	-13.1716
授成算於府州折御卿使	-13.1716
楊軌恃虜騎之强有窺伺之心紹纂兵	-13.1716
率兵來攻李密於黎陽密知化及糧且盡	-13.1716
矢令之曰農之隙則分曹角射嵗終吾當	-13.1716
立定吹大角三通中軍大將各以鞞合	-13.1716
習士衆為戰陣法是日未	-13.1716
人率百濮將以伐楚	-13.1716
以為匈奴不可擊也是時漢兵已踰句注	-13.1716
入敵已深國糧難應資給將	-13.1716
徒見羸胔老弱此必欲見	-13.1716
戰國秦師伐趙趙奢之子括代	-13.1716
曰夫國有亂軍者士卒怯弱器械	-13.1716
東擊荆荆王劉賈敗死	-13.1716
無跪起騎軍東西迭為	-13.1716
紀吕延信之引師輕進司馬耿	-13.1716
許我降乎因陳舅甥之禮期某日於葭蘆	-13.1716
諸國掎角震鼓齊攻敵人驚恐莫知所當	-13.1716
郡欲共髙麗交易勿言營中有隋使敢漏	-13.1716
慾	-13.1718
元至正十六年張士誠據	-13.1718
盛曰此必詐也召其使而詰之果驗盡滅	-13.1718
遣將李旱率騎討之師次建安召旱旋師	-13.1718
冨	-13.1718
多也未戰而廟算不勝者得算少也多算	-13.1718
時不疑失利後時反受其	-13.1718
治皸瘃第一百七	-13.1718
節人也言動而必及國家者忠孝人也言	-13.1718
舉二火見煙塵舉三火見賊燒	-13.1718
電不及瞑目赴之若驚用之若狂	-13.1718
二根以豹尾為刃榼出居紅旗	-13.1718
子敗績不知凶吉諸人相驚咸有異志王	-13.1718
實道規一皆焚燒衆乃大安江漢士	-13.1718
生慮將無餘謀士有死志於是砥甲勵刃	-13.1718
耘	-13.1718
軍師伐國若中路遇大城須下而過	-13.1718
閡	-13.1718
不相識之人人情事勢順逆難易何如也	-13.1718
二千五百口竿梁釘橛鎚自副鍋一分一	-13.1718
使其前敗後絶凡城内器械	-13.1718
使怨治怨是謂逆天使	-13.1718
前後梯桄各一前桄尤要壯大上	-13.1718
劉家河口剏水寨撥巡船專哨海洋	-13.1718
占度關梁探賊第一百四十一	-13.1718
庳	-13.1718
後此騎之敗地也追北踰險長驅不止敵	-13.1718
治民使平致平以清則民得其所而天下	-13.1718
馬氊引馬索各十分	-13.1718
不知我多少必大震怖可殄盡也滅此虜	-13.1718
之將不可敗也無制之兵有能之將不可	-13.1718
之法欲其左右救援不相奸亂卒有外	-13.1718
侵軼皆堅整全備莫得而動也茍非規	-13.1718
制無疆扶成天威康正八極宻定九夷	-13.1718
刼之趙軍遂勝追造秦壁	-13.1718
劄你你拏鎗還鎗我拏鎗	-13.1718
劉靈助以莊帝被爾朱兆所弑遂舉兵	-13.1718
命隨後閉之常清離席謂曰常清起自細	-13.1718
員内分委掌印一員陸路一員守	-13.1718
城中降胡與那利表裏	-13.1718
外圍魏軍懼有伏不敢	-13.1718
峐	-13.1718
性貪鄙障固山川賣	-13.1718
故伊吕之將子孫有國與	-13.1718
敵得其處慎勿攻之引而佯走建旗鳴鼓	-13.1718
數日而王廣禮貌即廢如	-13.1718
昩	-13.1718
曰今俱在絶域欲立大功以求富貴虜使	-13.1718
曰吾入圮地山川險阻難從之道行久	-13.1718
武牢而鄭人懼晏弱城東陽而	-13.1718
永王璘拒命肅宗	-13.1718
江都御史蔡公克亷遣蘇州府同知任環	-13.1718
營南與川沙官兵互相策應	-13.1718
營陣同制也法云陣中容陣謂隊伍布列	-13.1718
獨曰北豫逺在賊境髙歡又屯	-13.1718
率騎五千夜從間道起火於髙山因燒評	-13.1718
甚盛訪曰先人有奪人之	-13.1718
皮條三十分三萬七千五百條備	-13.1718
素定其孰能與於此乎故司馬宣王觀	-13.1718
絀	-13.1718
若外潛威形内整戎旅密勵將士	-13.1718
近梁山豈可得至新亭	-13.1718
道狹而旁多阻隘可伏兵乃斫大樹白	-13.1718
部下千餘人將入城而那利之徒已登城	-13.1718
雨城内土山崩賊乘之垂入苦戰不能禁	-13.1718
駐兵築壘鑿林刳木廣為舟航示以必濟	-13.1718
駝澗去渦陽四十里慶之	-13.1718
鳯陽府屬五州十三縣	-13.1718
七分麻七分黍七分	-13.1718
之兵亦皆勁勇惠亮等城柵尚不可攻公	-13.1718
二萬八千石六分支米九萬石以殊等屯	-13.1718
亡國破家失人也含氣之類咸願得其志	-13.1718
亮分兵屯田為久駐之	-13.1718
以待越逸而更移兵守險使	-13.1718
伉	-13.1718
伐虢假道於虞是也所謂利而誘之者赤	-13.1718
其餘聴差鎮撫一員共統官旗舍餘一千	-13.1718
勢多石少土不任板築乃建木為柵方圓	-13.1718
及他板木權造壕	-13.1718
取子一斗平量對屯田	-13.1718
各處娼優之家乃	-13.1718
嗣昭守潞州汴將李思安將兵十萬攻之	-13.1718
四百名分布四門與城内居民編甲防守	-13.1718
在應敵用兵俱稟成筭有先鋒陣䇿先鋒	-13.1718
在益陽慙恨入地	-13.1718
城西督諸將麾兵發機石攻城初帝選諸	-13.1718
墨未下齊將田單乃收城中得千餘牛為	-13.1718
大喜集百官曰雲起用突厥而平契丹	-13.1718
天井頓於地穴此騎之死地也所從入者	-13.1718
太宗時契丹與西賊相結窺邊上	-13.1718
如虎在殺氣中猛將欲行	-13.1718
官㕔鼓樓軍房七十餘間	-13.1718
寡可以擊我衆此騎之沒地也大澗深谷	-13.1718
我寡分其兵則人測	-13.1718
所部髙麗出城而戰據有土山攻之不能	-13.1718
拐子陣前陣拒後陣皆受節制	-13.1718
故不力戰遼欲挑與語儻可誘也乃使謂	-13.1718
教而導之如畜鷙鳥如養猛虎必節其	-13.1718
敵所敗周將達奚武與齊王憲	-13.1718
於事而令百歲老母戴白受誅豈不痛哉	-13.1718
是以知貌也者神之聚也言語也者神之	-13.1718
書示之因拊手大笑普見書知備在公安	-13.1718
木撲頭三停木羽者以木為	-13.1718
果下與遼語遼曰	-13.1718
欽定四庫全書江南經畧卷五	-13.1718
殆不可伐也孔子聞之曰善哉覘國乎	-13.1718
池横濶一寸八分縱濶一寸	-13.1718
洙	-13.1718
為百姓萬世慮者也故出下計果如薛公	-13.1718
無使仁者主財為其多施而附於下軍勢	-13.1718
無水旱災蝗滿四千石者屯	-13.1718
然後引軍北渡賊不能與吾	-13.1718
率則一屯斛斗可知等級殊等九	-13.1718
甚盛知非藩上便躍馬告毅令閉城	-13.1718
疾病情切歸還者仍量事優給放去	-13.1718
痊	-13.1718
發兵赴援時唐太宗年未弱冠召募從軍	-13.1718
白氣粉沸起如樓	-13.1718
皆泥塗之柵外掘壕一重	-13.1718
盈滿也言遇兩山之間中有通	-13.1718
目視遼又射矢更稀此必	-13.1718
矣况國之命將可不審於此乎	-13.1718
示衆也懿曰賊堅營髙壘欲以老吾兵也	-13.1718
繩營所以援馬若入敵境芻秣不給即須	-13.1718
者神之用也行事也者神之本也察其神	-13.1718
而渡夏陽是也所謂近而示之逺者	-13.1718
而餌鄧洪是也所謂亂而取之者李靖	-13.1718
胡是也所謂逺而示之近者韓信陳船臨	-13.1718
能進放胄又貫三矢衆失色請放突去放	-13.1718
自戰其所可親而忘其所可讎故也	-13.1718
草覆其上因以兵挑之梵	-13.1718
蒲沙等處與江隂縣并該把總兵船互相	-13.1718
蓄也亟戰將饑後為晉所滅	-13.1718
蝨	-13.1718
行陣也竒者無方以用變也竒不得正雖	-13.1718
襲之彼怠我奮一舉必克則安陸不攻自	-13.1718
設界限立藩蔽以	-13.1718
謂諸將曰今圍壘轉固兵馬向集但當精	-13.1718
賈人布板於簷端以矢石下擊殺賊頗衆	-13.1718
賊安慶緖遣嚴莊	-13.1718
輕舟而破蕭銑是也所謂實而備之者	-13.1718
輕舸於船側故其衆莫有鬭志官軍乘風	-13.1718
轉相驚駭軍遂亂方	-13.1718
一月七千五百石一年九萬石以六分支	-13.1718
三軍以將為主主衰則軍無奮意	-13.1718
之扣解操江衙門者	-13.1718
先命將朱超石戒嚴	-13.1718
公孫五樓曰宜進據川源晉	-13.1718
兵法曰入人之地深而難返背	-13.1718
右手監住左手一抹刀他若使一	-13.1718
咸欲引軍避之登乃閉門自守示弱不戰	-13.1718
嘷	-13.1718
廣福蒼沙等船水陸	-13.1718
曰五校乏食當退	-13.1718
曰吕布勇而無謀今三戰皆北	-13.1718
曰夫勝趙而三分其地今城	-13.1718
李師道下都知兵馬使夏侯澄等四十七	-13.1718
果驚奔衆因此潰亂慤率兵直渡渠奮擊	-13.1718
楚大饑戎伐其西南	-13.1718
淅	-13.1718
營五十里結陣而宿契丹弗之知也既明	-13.1718
監住右手一抺刀若	-13.1718
而前盤馬相擬而罷遂振旅徒還	-13.1718
陣八騎挑戰於兩陣之間五陣畢俱待擊	-13.1718
陰雨八風與天星合有大陰疾風日月	-13.1718
隂濕則停陽燥則起貴髙賤下馳其	-13.1718
騣	-13.1718
騶	-13.1718
麯	-13.1718
齎大弩百張一車益二十人設柵排於轅	-13.1718
獲俟其競進發伏以擊之必克若與之	-13.172
斬謙及荀林初謙至枝江江陵士	-13.172
所好而誘之因其所惡而攻之大抵北方	-13.172
則安失之則危也兵法曰諸侯之地三屬	-13.172
古法曰鳥起者伏也衆樹動者來也	-13.172
於帝曰突厥本淳易可離間但由其内多	-13.172
羣胡盡皆桀黠教導之耳臣聞史蜀胡悉	-13.172
令逆則百令失一惡施則百惡結故善施	-13.172
六隊餘二十人其兵士隊於陣内列行	-13.172
宗時為閬州節度董璋	-13.172
帝曰善矩因遣人告胡悉曰天子出珍物	-13.172
斧亂下孝恪旋顧所部	-13.172
殊死戰無不以一當百時東北風急毅軍	-13.172
火燭之讀書未畢齊軍	-13.172
火舉而俱發龎涓夜至斫樹下見白書乃	-13.172
率兇黨以攻其城仁矩召軍校謀守戰利	-13.172
疑也許洞曰料敵以事者多慮為	-13.172
賊必自退仁矩曰蜀兵懦安能當我精甲	-13.172
遁恐後人逐者設此	-13.172
部伍嚴整士有餘勇名譽所加	-13.172
里開城門獨將麾下百餘騎逐希徳欲生	-13.172
頗有去就之計吾東来文武足以濟事	-13.172
驅之出戰兵未交為賊所敗	-13.172
乎此筌之不足為凖也今取古今陣法繪	-13.172
也所謂絶澗者山水深大之地也天井者	-13.172
五里人相去一里東西占十七里每陣周	-13.172
侵楚養由基奔命子庚以師繼之	-13.172
六月鄭二公子以制人敗燕師于北制	-13.172
兵四集吾表裏受敵進退不獲雖有舟楫	-13.172
城南門及東門而襲破之	-13.172
安用之今棄舟艦使	-13.172
射彼三人殺其二人生得一人果射鵰者	-13.172
後凉吕光遣二子紹纂伐	-13.172
心兇氣方盛未可與戰宜堅壁以老之儻	-13.172
悟十觸類以長此又寄之明哲要之與孫	-13.172
掠無所得敵之衆心益以慢矣當於中夜	-13.172
未可知也兵法曰夫逺形勢均難以挑戰	-13.172
淆	-13.172
潛相傳告由是叛徒皆感朝	-13.172
簿而試之以示賞罰復命之如初比三年	-13.172
而立者饑也汲而先飲者渴也見利	-13.172
設疑兵以威突厥定興不納	-13.172
谷則須當山口為營與兩山口	-13.172
不如伐庸夫麇與百濮	-13.172
吕光遣將吕延伐西秦大	-13.172
曰乾歸雄勇過人權畧難測破王廣	-13.172
未復宫謀之未定進急攻之	-13.172
此局客算長和門具將發利	-13.172
百敗當以計取之可令羸	-13.172
聲武親來麾數百騎西去忠勒餘騎不動	-13.172
親南氏將焉入矣平子從之費人叛南氏	-13.172
誘之賊若渡水交兵請公	-13.172
門開而入馳遣召武齊	-13.172
麇	-13.172
竿以照板映之𦕈目視	-13.1721
七六分一更傳牌七餘一里一十四	-13.1721
氣為正雨水正月中夜	-13.1721
不二聽動無疑事則衆不二志	-13.1721
能握其機而善克其事者又在此際	-13.1721
銛	-13.1721
蔓連結部隊相逐須臾罷而復	-13.1721
後燕慕容盛據遼東遼西太守	-13.1721
得免有帳下督雷五安於戰處哭求思政	-13.1721
河橋之戰王思政下馬用長矟左右横擊	-13.1721
無困死人棍之法大抵	-13.1721
隂引後魏軍上表請發兵以拒	-13.1721
𣢾	-13.1721
中外不相信臨東方兵	-13.1721
或擊我前或擊我後	-13.1721
者壯直人也辭寡而意懇者	-13.1721
而能剖析是非者有智人也言迂	-13.1721
胄謂天虎曰天下之事	-13.1721
迃	-13.1721
門之旗出引將軍前列門槍	-13.1721
嘘	-13.1721
將二人首二千五百級築京觀而還	-13.1721
形變於外常以所見而觀其所	-13.1721
禺	-13.1721
窈	-13.1721
適其水草節其飢飽冬則温	-13.1721
一伏虎來打我頭畨身	-13.1721
一分餘並分給以此軍士感義皆思奮發	-13.1721
七尺前髙七尺後髙八尺以兩巨木為地	-13.1721
三軍之衆百萬之師張設輕重在於一人	-13.1721
不利必引水灌城我則壅塞諸門察視城	-13.1721
不得虎子當今之計獨有因夜以火攻虜	-13.1721
不通乃塹山堙谷五百餘里	-13.1721
亦云寒鵶箭言矢之紛散如鵶飛也三弩	-13.1721
以攻具未周不宜便進範曰輕軍	-13.1721
伐罪弔民正在今日皆釋而遣之於是戎	-13.1721
其箭皆可施火藥用之輕重以弩力為凖	-13.1721
其飾有黑漆黃白樺	-13.1721
加船以進或賊已覺則城上	-13.1721
團兵勇建寨柵以守以禦其餘	-13.1721
城門則以刀車塞之凡賊	-13.1721
太守時泰州人鄧定等二千餘家	-13.1721
如或敵人敗走我師未敢逐之者	-13.1721
引師厚兵就德倫共攻蓨縣始至縣西未	-13.1721
户所洪武二十年建即金山衛中	-13.1721
手泣曰天下事敗矣道成遣軍主陳顯	-13.1721
時休範典籖許公與詐稱休範在新亭士	-13.1721
淹留以失機候且纂必以我軍來速不	-13.1721
營門殺其門者縱火大呼俘斬而旋其芻	-13.1721
皆闕士卒以軍中為家至	-13.1721
設陷馬坑機橋於重牆曲巷内出	-13.1721
諸軍所至遇梁軍之樵芻者	-13.1721
軍勝重掠伏襲必敗	-13.1721
遂潛軍偽退示以不攻纂果不設備於是	-13.1721
選鋒而擊之其陣必破此非天殃將之	-13.1721
阜城自將一軍深入各命俘賊討芻	-13.1721
一一施行又練百日俟人成熟慣戰方	-13.1721
中丞過聽以常清為留後	-13.1721
之謂隨勢者也合戰之地便其干戈利其	-13.1721
乏耳三停者箭形至短羽	-13.1721
也又若累戰累北吏士畏於	-13.1721
也夫人讓事樂和愛親哀喪而後可用也	-13.1721
今論操法戰法皆詳於陸地而畧於江海	-13.1721
以子將一人幹當每日	-13.1721
但以精兵出其不意必敗矣或敵探我動	-13.1721
克鄭丘緩為右及戰郤克傷於矢流血及	-13.1721
兔入牛欄伏不起	-13.1721
其使者城中固守經年晉王率周德威等	-13.1721
内敢圍天子本疑國家倉卒無援忽見旗	-13.1721
凡當先者一甲被圍二甲不救一隊被圍	-13.1721
到四更人倦失更被賊掩襲	-13.1721
前後無有陷隠此之謂地勢者也用兵者	-13.1721
前烽應訖即赴軍若慮走不到	-13.1721
前秦苻堅遣王猛伐前燕慕容暐師次潞	-13.1721
剛毅而自用者可事也	-13.1721
劉敏王平鎮漢中拒之或謂但可守城不	-13.1721
劉裕所在曰夜已走矣賊信之乃率兵衆	-13.1721
十八宿交戰法行之此法訓練百日務要	-13.1721
卒三千案八陣圖轉戰千里破	-13.1721
南滙每處每日撥軍五十名不分晝夜	-13.1721
及將士家屬皆撫慰約令軍中不得干	-13.1721
取三等束對屯田官	-13.1721
取茅山用乙辰針	-13.1721
合二路為一置鈐轄以下兵官	-13.1721
器與口齊也如此則平易險阻皆制	-13.1721
嚴令後有大軍狀又分隊在後令燒江津	-13.1721
因叱之曰郎將須蹔死以肅軍容因令勒	-13.1721
坡坂可設伏也狹路險道	-13.1721
夜隂令精兵銜枚於他處舉筏而渡擊	-13.1721
夫人柔順安恕失於决斷可與循節難	-13.1721
失於狐疑可與樂成難	-13.1721
子言伐之何也胡君聞之以鄭為親已	-13.1721
守俟彼衆亂大兵筏而	-13.1721
將軍雲定興師將發太宗勸之多	-13.1721
尺許三矢中二為善射	-13.1721
州今謂二人為庸將可乎謂不為戰	-13.1721
工部侍郎趙文華	-13.1721
巨石擊壓以斷其入凡城中日給百用至	-13.1721
度使先是吐蕃欲成烏蘭橋每於河壖先	-13.1721
必矣遂整陣而過賊見兵出其後果邀	-13.1721
我用其勇也故太公曰不能推移不可語	-13.1721
或作長陣或作蛇陣皆以隊伍步騎相接	-13.1721
或賊圍久已怠潛出精騎銜枚擊之擊敗	-13.1721
所以休息人力務使精神有餘免致每	-13.1721
所謂能而示之不能者匈奴羸師以誘漢	-13.1721
把總之兵豈肯棄南滙而	-13.1721
援兵見之必謂江陵已破未敢輕進	-13.1721
放縱雖有智者不能善後矣遂守便宜上	-13.1721
曰公孤軍獨守外無救援	-13.1721
曰吾懼燕人掘吾城外	-13.1721
曰行山林阻險沮澤難行之道者為圮地	-13.1721
更鼓為備内外軍士各守本界不得過	-13.1721
有如果敢而不能者有悾悾而不信者有	-13.1721
有首無尾者偽人也先急而後慢者卒	-13.1721
木弩雖可施不能久邊兵不甚用其力之	-13.1721
李寳臣死其子惟岳謀襲父位	-13.1721
李晟邀擊之又襲破其	-13.1721
機能數萬騎之衆以復	-13.1721
欽定四庫全書江南經畧卷一	-13.1721
此不常用備翎羽之	-13.1721
此五勢未有不能追亡逐北以建大功	-13.1721
死地不可輕也慧景乃聽之過前秦苻堅	-13.1721
氣勢者也士卒寡少盛其	-13.1721
清介亷潔失於	-13.1721
清遂無一言常清亦不謝於是軍中股慄	-13.1721
湄	-13.1721
源髙於城本髙於末則可以遏而止可以	-13.1721
潰師之罪移過於下遂使驍勇小	-13.1721
為天陣遊奕或為人陣牙兵不拘常也或	-13.1721
為方陣即四面排布凡一指	-13.1721
牢席有差衆士咸知	-13.1721
猛虎耽耽來到巳	-13.1721
男女布野餘糧栖	-13.1721
當朝正色忠以盡節信以竭誠	-13.1721
百姓皆言劉藩實上	-13.1721
百餘人放從弟洵驍果有勇力	-13.1721
立於不敗之地而不失敵之敗	-13.1721
笴	-13.1721
置一都烽應接四山諸烽其都烽如見	-13.1721
羽咸平初軍校石歸宋上之箭中人雖	-13.1721
者其名不全進賢者福流子孫故君子急	-13.1721
者欲人之進也其所居易者利也	-13.1721
者石勒奉戴王浚是也所謂佚而勞之者	-13.1721
腰刀一把解首一把凡	-13.1721
臨海金山當其南南滙當其東	-13.1721
與張孝忠征之大破	-13.1721
舊法有九種大約軍不久駐則為立槍櫳	-13.1721
船鎮惡徑前襲城津	-13.1721
若前來者即得好物胡悉貪而信之	-13.1721
若萬一戰有利鈍則大事去矣未若還師	-13.1721
蔡歸重於越身歸長沙陛下	-13.1721
螣蛇宛轉歸申裏	-13.1721
規不揆至愚竊觀金人攻	-13.1721
語所留人曰計我將至城	-13.1721
豬	-13.1721
車營拒馬之類若兵久駐則用柴營掘	-13.1721
遺落器械什物見者許即收帶至止宿處	-13.1721
雖皆兵防之所當知然不能一一而	-13.1721
飛刀向前鎗在後或飛鎗在前藥	-13.1721
馬入龍泉飲甘水	-13.1721
騎擊刺屢折魏軍洵馬	-13.1721
髙大當又進一足大壓死	-13.1721
魏諸葛誕據夀春反魏將王基討之	-13.1721
一角聲動前行向左後行向右中行向前	-13.1721
七不和客大將七宫囚客叅將一宫	-13.1721
三十八步騎兵各虚六十八步厚薄同數	-13.1721
主將主將遣左右親信人促	-13.1721
乃召慎勉之令戰大破	-13.1721
五代周世宗伐江南大將張永	-13.1721
他若使老僧拖杖	-13.1721
使人辱之五六日曹咎怒渡兵	-13.1721
六粒其大麥八分小麥六分蕎麥四分大	-13.1721
兵怒而相迎久而不合又不相去	-13.1721
兵於垓下終滅羽後漢初河南賊董憲	-13.1721
千餘衆朝廷始信其不二	-13.1721
又曰凡為客之道入深則專主人不	-13.1721
合而矢貫余手及肘余折以御左輪朱殷	-13.1721
周章方結陣不得還船登縱兵乘之遂	-13.1721
坪	-13.1721
壘衆心皆定不可傾動此	-13.1721
夜偃旗示以羸弱觀其懈乃奮擊大破之	-13.1721
守而必固者守其所不攻	-13.1721
對敵當不動如山若遷移依險人心	-13.1721
師可前後相次數十里間連亘不絶晝則	-13.1721
師度峴超懼率卒四萬就	-13.1721
師弱馬阻水背城為陣	-13.1721
後生弩工皆不識其器珝創意理之弩矢	-13.1721
得二里餘二百八十步以壘四面乗之	-13.1721
承接霜鋒雪刃飛舞滿空戎使見之懼形	-13.1721
掩殺千餘人生擒都將孫漢筠	-13.1721
擊慤曰不然吾已屠其堅城破其銳衆	-13.1721
擊走之時雖連勝裕深慮衆寡不敵乃	-13.1721
攻而必取者攻其所不守	-13.1721
敇	-13.1721
時李從珂偽為梁幟奔入梁壘斧其望樓	-13.1721
晉人之覘宋者反報於晉侯曰陽門之介	-13.1721
有犯軍令者立斬之無所寛貸每將臨	-13.1721
李嗣源設伏於戚城令騎軍挑戰梁軍大	-13.1721
楝	-13.1721
死而子罕哭之哀而民	-13.1721
段暉等于臨朐謂	-13.1721
氣方勵彼已破膽一戰可定何疑焉慤以	-13.1721
洞貫三四人魏衆不能當遂奔潰	-13.1721
漴忠親自䧟陣擒仲禮悉俘其衆安陸及	-13.1721
火者斬杜姦人也或城内有火發只令本	-13.1721
為方為圓為曲為直為	-13.1721
百人伏於城側待其半渡而	-13.1721
盡乃乞兵於梁梁太祖與李克用皆自將	-13.1721
石一年一十二石一軍一年二十萬八千	-13.1721
者叢射之魏衆既多弩不能制超石初行	-13.1721
與之拒守建陽光武親征之去憲百里諸	-13.1721
舉黄旗則為圓陣此應敵之	-13.1721
蒯恩軍在前鎮惡次之舸留一	-13.1721
蕩於勢大損諸軍並據深溝	-13.1721
西南奇兵西南伏兵利未申時主人	-13.1721
見之為陳禍福𤣥之見普具宣䝉意普懼	-13.1721
諸城可傳檄而定也	-13.1721
軍大潰仲文乘之賊皆投洙水	-13.1721
逆戰薛萬均曰衆寡不敵今若出戰百	-13.1721
逓送軍前驅使如緣父母猶在賊中或羸	-13.1721
里南至床穰砦六十里北至邊壕	-13.1721
鎮惡去江陵城二十里舍	-13.1721
隂伏吾士與之中期内外相應其敗可知	-13.1721
韋放為明威將軍總兵㑹之魏大將費穆	-13.1721
騎二千銜枚夜進遇仲禮	-13.1721
騎常滿十萬人前陣騎士滿三萬人約	-13.1721
黄眉鄧羌等率步騎討姚襄	-13.1721
日暮敵亦收軍思政久經軍旅每戰惟	-13.1723
陣既深從者死盡思政被重創悶絶	-13.1723
在各伏其要以猛而不堅者	-13.1723
色者好勇人也言及細	-13.1723
方之戎其性相類士力能彎弓盡為甲騎	-13.1723
先之道若我先至而敵用此術則選吾	-13.1723
卒固守其所輕兵外伏於險阻敵人還	-13.1723
已奔遁多令老弱者動其衆樹及驚鳥	-13.1723
必出救人欲我與人棄我取此	-13.1723
思摩燒薙秋草延陀糧肉日盡野無所獲	-13.1723
書陳突厥强弱形勢高祖皆納用乃遣	-13.1723
瘦夫用兵之道先利速進不利速退吾	-13.1723
至設伏隠廬出其不意可以有功	-13.1723
䂎宜隘險然南逼洛水北阻	-13.1723
之此用畏之道也是五者反衆之	-13.1723
使羸弱登蔣山多張旗幟以油帔冠諸木	-13.1723
和者謀也半進半退者誘也此亦大兵已	-13.1723
始畢率其部盡驅六畜星馳	-13.1723
孫子曰善戰者其勢險其節短率謂異諸	-13.1723
所領與平據形勢多張旗幟	-13.1723
敵人以探來探我佯無備而設伏待之敵	-13.1723
為變城中之人頗有異志公其備之孝恪	-13.1723
聽而無上衆誰適從此行也晉師必敗	-13.1723
若先至據要保利簡兵練卒或出或守或	-13.1723
衝之欲和解則以利動之以	-13.1723
衣梁上鋪散子木為	-13.1723
諸州豪右咸相通結靈助進屯於定州之	-13.1723
軍而返齊人弗悟而不追若追之必克也	-13.1723
隆震聞者駭懼迴其勢而擊人者此之謂	-13.1723
隋髙熲獻取陳之	-13.1723
險者我用其利也衆以我為輕者我	-13.1723
㑹亮死僅能取勝馬隆以	-13.1723
三者人有其一可使之也其四曰行事有	-13.1723
之龎涓失計於馬陵而	-13.1723
也不可使之也行欲如大輅足動而身不	-13.1723
先己後人者好私人也事繁多而	-13.1723
况大衆乎嵩曰不然前吾不擊避其	-13.1723
動司馬宣王以十萬之衆抗之堅壁不敢	-13.1723
在後及至軍後不見藩又望	-13.1723
將朱顯之馳前問藩所在軍	-13.1723
後拒連戰大破之斬首萬餘級國走而死	-13.1723
忽有大風起賊疑有救兵相應狼狽夜遁	-13.1723
晉南中郎將周撫以	-13.1723
晉至夀春兵敗還長安慕容泓起兵	-13.1723
暮常之令伐木營中然火如	-13.1723
柴揚塵鼓譟助其勢梁軍不之測自相騰	-13.1723
然不疑將至城逢毅	-13.1723
紀時大雪平地五尺虜乏芻糧人馬斃踣	-13.1723
背水陣趙軍望見大笑平明信建大將旗	-13.1723
虜控弦鳴鏑弓馬是憑今雨連時弧矢俱	-13.1723
謂瑟無五音其愚而妄决矣昔諸葛亮推	-13.1723
走牢籠其心使馴吾之左右豪强無	-13.1723
道纍纍不絶乘勝追襲大破之	-13.1723
遥見匈奴有數千騎見廣以	-13.1723
降魏宇文泰以仲密所據遼逺難為應	-13.1723
𠡠	-13.1723
不然如以行陣未定四面可設伏也長道	-13.1723
乃使人辱之咎怒渡兵汜水半渡漢	-13.1723
之兵食益困遂休兵	-13.1723
五萬既深入輦運艱阻芻薪不繼諸軍分	-13.1723
令吾間憑其詐跡以輸	-13.1723
伐楚楚師敗及清發	-13.1723
侯安都居守齊軍乘虛入據石頭遊騎至	-13.1723
其後擊之賊衆驚擾赴水死者無算	-13.1723
出兵攻秦軍秦軍佯敗而走張二竒兵以	-13.1723
分明進退有節審地勢設陣形或排長陣	-13.1723
則敵人之間反為我用死間者外詐立事	-13.1723
可後於人也兵法曰險形我先居之必居	-13.1723
四民用虚國乃無儲四民用足國乃安樂	-13.1723
困獸猶鬭况人乎若知不免而致死必敗	-13.1723
在隘俱得地形勝敗在兵不在地形	-13.1723
壘示敵且久敵疑通途私除要害之道	-13.1723
壤險固卒難致力遂因其詐而還半濟賊	-13.1723
實選精騎襲之繼遷僅以身免獲其母妻	-13.1723
將立於旗鼓之南北靣西上以	-13.1723
平之必矣或稽浹旬恐賊鋒	-13.1723
從周詐揚言并人鄆人來救即引	-13.1723
必見懼望塵而退此計之上也不然	-13.1723
擊客算三十四長和客大將四宫發客	-13.1723
曰禁巫祝不得為吏士卜問軍之吉	-13.1723
未辛未癸未太乙在	-13.1723
樵採度支轉運車六百乘盡為	-13.1723
淖人馬不通之地也天郤者土多溝坑坎	-13.1723
滿之術非惟隘形獨能有口譬如平	-13.1723
營超石先以軟弓小箭射之魏軍四面俱	-13.1723
率龍驤將軍蒯恩領百舸前發鎮惡受命	-13.1723
相持嵗餘瑱不能制	-13.1723
繼遷復結婚於豪酋轉徙	-13.1723
耳建德新破孟海公將驕卒惰今我	-13.1723
行未息中可設伏也山	-13.1723
譟舉火士伍恐懼有終安坐櫛	-13.1723
賞士卒無歸意若欲還出即為戒備深溝	-13.1723
逆節久露兵勢漸成陛下宜速濟大河歴	-13.1723
難為力矣筠在澤州	-13.1723
非獨為城髙池深卒彊糧足而已必在乎	-13.1723
鼓之下左廂中軍大將立於旗鼓之東西	-13.1723
𤓰州王君㚟死河西	-13.1723
四分一更傳牌九餘一里一百七十三	-13.1724
寤	-13.1724
弓兵四十名往來巡邏所屬烽堠十一座	-13.1724
深三尺坑中埋鹿角	-13.1724
者言使君臣相疑自相殘害此	-13.1724
則以指南車子午針	-13.1724
及聞旱中路而還謂有内變不復為備留	-13.1724
無終斬之盛謂羣臣曰前以追旱還者	-13.1724
者有嗃嗃而反靜慤者有勢虚形劣而外	-13.1724
虎張翼以進蛇居兩旁向敵而蟠以應之	-13.1724
卷而藏之則為方陣圓陣而握機之數在	-13.1724
扶思政上馬夜久方得還軍	-13.1724
舒而張之則為曲陣直	-13.1724
軍吏之私者善拊恤人也言及陣敵喜動	-13.1724
邸	-13.1724
金芎藭當歸大黄升麻黄連細辛	-13.1724
䰟	-13.1724
一䑸為團長徐术等	-13.1724
屬之族師五卒為旅	-13.1724
屬之比長五伍為兩	-13.1724
屬之閭胥四兩為卒	-13.1724
心迎其意或慶或弔以惑其志情變於内	-13.1724
怠而入須於垜外蓋出浮棚	-13.1724
春秋時楚師傅於蕭還無社與司馬	-13.1724
洩水處十數步開一井井内各相通以洩	-13.1724
父母妻子各授弓弩短兵鍬钁遣暝夜從	-13.1724
箐	-13.1724
萬騎自蘭州入至於周盤破	-13.1724
軍更欲南入玷厥不從引兵而去	-13.1724
餘力不足者守力有餘者攻攻人之法先	-13.1724
令史張静犯令斬之軍中乃定	-13.1724
傚	-13.1724
凉州入自洪源谷將圍昌松縣唐休	-13.1724
則敵人不敢越此而他攻即有所攻亦無	-13.1724
將軍出黄龍道賫幣賜奚霫契丹等遣為	-13.1724
導得至處羅侯所深布心腹誘令内附	-13.1724
嶂	-13.1724
握度竿長二丈刻作二百寸二千分每寸	-13.1724
於水内令半渡而擊之利	-13.1724
此處斥澤之軍也平	-13.1724
死愛死怒死威死義死利	-13.1724
破賊營砦所選之士須預習水戰度力不	-13.1724
虎以示山陽山陽大喜至江津單車白服	-13.1724
處悉加傅築城内促圍望外水髙下别築	-13.1724
處練陸兵以便圖報事	-13.1724
飈	-13.1724
首元許洞之所演也	-13.1724
上今者大來兵未出郊賊顧謂吾	-13.1724
上騰神色自得者待下多卑恭而不實者	-13.1724
之測至皆令安堵如舊乃於要路數百處	-13.1724
凡賊登城多在下半夜	-13.1724
及成列泰乃縱兵擊破之斬泰傳首長安	-13.1724
受二石力勝一人甕	-13.1724
壘内外重複飛走路絶	-13.1724
宗嘉之詔度支出	-13.1724
左甄許朝督右甄訪自領中軍髙張旗幟	-13.1724
弟皆從之人馬雖精不習戰事吾為諸軍	-13.1724
心梁祖馳書説誘百端嗣昭焚其	-13.1724
把總於此然株守一城不能為海防輕重	-13.1724
敖曹適䧟洛州聞泰死焚輜重棄城	-13.1724
敵上氣如蛟蛇向人此猛將	-13.1724
早熟量彼收穫之際熲	-13.1724
是年十二月突厥從連谷入	-13.1724
有人逐者欲坐而頻四顧如有所駭者方	-13.1724
此皆心不誠實多蓄異	-13.1724
湓	-13.1724
神俱定也卧欲如覆舟神氣安詳也此皆	-13.1724
統軍一萬一千二百餘名	-13.1724
練亦用装敵人對壘交鋒如是方得精也	-13.1724
繫而非敵之所必欲取以為巢	-13.1724
臨戎對敵每作四面陣周	-13.1724
若塞井夷竈成陳以當之	-13.1724
莧	-13.1724
蛙	-13.1724
衣如此五更五輪輪完天明	-13.1724
襲之必克克泰則歡不戰而自走矣諸將	-13.1724
訪甚惡之自於陣後射雉以安衆心令	-13.1724
謂延慶曰靈助善卜筮百姓信惑所在	-13.1724
赤氣在前者將精悍不可當	-13.1724
軍東出晨興至小關竇	-13.1724
較然如斯可不務哉	-13.1724
退東晉末桓𤣥簒晉劉裕起義兵討之𤣥	-13.1724
遂率騎六千還長安聲言欲往隴右既而	-13.1724
錢五萬貫行賞還燧家財	-13.1724
餘人議者謂應戮以為	-13.1724
餘兵屬左甄力戰敗而復合	-13.1724
一字之種疑則百法之是廢故	-13.1724
三爿高家縣後以至三沙	-13.1724
上山陣廣所從百騎皆大恐欲	-13.1724
不可當况十萬乎其害甚矣今不如撤圍	-13.1724
之詔報始畢曰史蜀胡悉忽領部落走來	-13.1724
二十四棄探馬八閃畨十二短此	-13.1724
交雜即姦人無便以入	-13.1724
以為謀主彭城之役晉楚	-13.1724
先知之或以厚貺誘之反為我用之或佯	-13.1724
六步拳猴拳囮拳名	-13.1724
其聚城中稱慶若大軍到賊覩	-13.1724
勝敗之數未可知也出下計東取吳西取	-13.1724
勢如追風目如流電滿開弓	-13.1724
召太守此詐君欲為反耳頃者京師危迫	-13.1724
名弓兵八十名果足備禦乎	-13.1724
哨披髪斜行大斧直	-13.1724
多燒火人執兩炬以疑之隔江望者	-13.1724
夜舉火進軍賊望見恐懼未戰而走	-13.1724
夫聰明秀出謂之英膽	-13.1724
將欲驗田均派歟則	-13.1724
嵩進兵擊之董卓曰不可兵法窮冦勿	-13.1724
幽州四面州軍西京州軍十一雲州	-13.1724
彼不知解我兵先横跳而進之矣此謂之	-13.1724
後漢末袁尚據鄴率兵圍	-13.1724
志以整擊亂非窮冦也遂獨進擊之使卓	-13.1724
戎人最畏之風羽者謂當安羽處	-13.1724
敗申息之師於桑隧獲申麗而還	-13.1724
於是三令五申白旗㸃鼓音動則左右	-13.1724
有折逆旅之匕箸者斬	-13.1724
望之竟日始有懼色其夕銑	-13.1724
析公曰楚師輕窕易震蕩也若多	-13.1724
柘林南滙等處互為聲援該所為正兵	-13.1724
楚并韓取魏據敖倉之粟塞成	-13.1724
槨	-13.1724
沛公西入武關欲以二萬人擊秦嶢關	-13.1724
潰晉遂侵蔡襲沈獲其	-13.1724
為殷侯封陳恢千户引兵而西無不下者	-13.1724
無事矣上曰是計將安出對曰必出下計	-13.1724
營守備官一員軍兵四十名	-13.1724
玅	-13.1724
秦苻堅䧟襄陽晉將桓冲攻之堅	-13.1724
空兩邊以容風氣則射時不	-13.1724
竒兵破之直趨鄴下迥背城結陣大戰官	-13.1724
等夜渡蒲坂津據河西為營公自潼	-13.1724
者漢王慢楚使而疑范増是也所謂飽而	-13.1724
而流或引而絶路或堰以灌城或	-13.1724
與之遇七遇皆北惟禆	-13.1724
若不因夜速還明日欲歸不得武在軍旅	-13.1724
藿山用單午針入西後門用巽已針三更	-13.1724
西魏將宇文測行綏州事每嵗河	-13.1724
軍潰亂大為所敗魏曹公西征馬超與	-13.1724
連絆相續馬居營中布	-13.1724
金銀燕喜為之緩師定	-13.1724
鋒直衝之賊遂棄甲而散俄頃賊衆大至	-13.1724
長安趙犨為陳州刺史	-13.1724
開布大信降者欲去皆聽之吳石城守去	-13.1724
雄不能智謀故英得雄而行雄得英而成	-13.1724
靖江縣僻處江心四面受敵週圍港口	-13.1724
首鄧文俊等分掠縣境四月賊	-13.1724
馬斥山澤之險雖所不至必斾而疏陳之	-13.1724
㽔	-13.1724
䲭	-13.1724
一將行得水黒幡幟旗圖熊額	-13.1724
七百人車七百乘於河北岸上去水百餘	-13.1724
三千七百五十人為中壘守地六千尺積	-13.1724
三路重兵㑹合中軍陣	-13.1724
上氣如囷倉正白見日	-13.1724
不進而上書請兵羌聞之乃分	-13.1724
主勝聞賊備正南奇兵正南伏兵利	-13.1724
乃率衆數千遮詡於陳倉崤谷詡即停	-13.1724
之以入當其山處城上先有兩	-13.1724
之法以城中壯男為一軍壯女為一軍	-13.1724
之衝為途不同同於備	-13.1724
也天牢者林木隠蔽葭葦深廣之地也天	-13.1724
也襄性剛狠易以剛動若長驅鼓行	-13.1724
也觀賊衆羣輩相隨	-13.1724
乾更𢷬用絹羅之凡	-13.1724
五代梁將戴思逺攻	-13.1724
人營食食訖謂左右曰長安死此中死有	-13.1724
何如其巧耶如愚見莫若	-13.1724
作相尉遲逈拒命堅遣將于仲文率兵定	-13.1724
使千餘人出戰未及交鋒望風退走果以	-13.1724
俚	-13.1724
倭患事蹟洪武七年甲寅八月倭	-13.1724
兵左右翼擊之大敗讓軍進攻梁郡	-13.1724
其路口使敵不得進也諸可知之	-13.1724
凟	-13.1724
凡城中失火及非常警動	-13.1724
刖	-13.1724
到後校之末并虚在内共厚	-13.1724
前校四陣之中三處各虚三十	-13.1724
力少不能得致即賤賣之價	-13.1724
務而自屠其身漏吾軍事也故曰三軍之	-13.1724
勢均以一擊十曰走	-13.1724
十萬陳人舊有巨弩數百	-13.1724
千人還至遼東城惟二千七百人矣唐武	-13.1724
南皮留蘇由審配守	-13.1724
各有樓水闗二座南北各一敵臺	-13.1724
名不輯三軍之衆可使受敵而無敗非	-13.1724
吾引兵深入重地多所踰越糧道	-13.1724
命攻之連營數十里乃於城南起土山欲	-13.1724
四鎮北庭赴難中原	-13.1724
城中不得妄舉髙物如竿表之類及吹	-13.1724
壠	-13.1724
外邪臣内則賢臣斃内外失宜禍亂傳世	-13.1724
夜縱火牛壯士五千人隨其後牛尾熱怒	-13.1724
大半西魏將韋孝寛守玉壁時東魏大將	-13.1724
奔衝或利用燧馬燧牛如田單	-13.1724
始擊將大族客算十五八門	-13.1724
孫堅少時與父共載船至錢塘㑹海賊	-13.1724
守將劉子寛棄城遁走	-13.1724
宋師敗績公傷股門官殱焉	-13.1724
客大將與主叅將相關主	-13.1724
宫天目陽徳辰迫主算	-13.1724
岳統萬餘衆及田恱援兵	-13.1724
崞縣突厥候騎馳告始畢曰兵大至矣遂	-13.1724
左右有水前有大阜後有髙山三軍戰	-13.1724
布隊人馬披甲賊來即戰自保萬全	-13.1724
建寨柵剏屯營	-13.1724
式則勝負隨至故陳豨不守漳水而髙祖	-13.1724
張侯曰師之耳目在吾旗	-13.1724
彼所輕悉軍來戰公必不能支矣定興從	-13.1724
後軍於是大潰不可禁止將士	-13.1724
後馬璘奉詔徙鎮涇州其士衆	-13.1724
徐道覆欲自新亭焚舟而戰盧循多疑少	-13.1724
得地形之利也若平陸引水勞力費	-13.1724
從之齊侯見之畏其衆也乃	-13.1724
擊之皆披靡至夜惠引去歡	-13.1724
故下置陷穽鎗刺而上覆	-13.1724
故令之以文齊之以武是謂必取	-13.1724
故有天陣地陣人陣以象三才	-13.1724
數為兩絹袋各盛苗子一碗與屯田官者	-13.1724
斬獲俄而椿告齊衆稍逼憲又救之㑹被	-13.1724
方陣圓陣以法五行其體易明其習易成	-13.1724
於南康山云將下都貨之	-13.1724
旦暮使親近存恤耆老問所不足疾	-13.1724
明外愚形劣心壯嫻於鄙事能忍饑寒詬	-13.1724
昏君當臣處上下失序	-13.1724
春秋時魯莊公與齊師戰于長勺公	-13.1724
時齊主分軍萬人向千里徑	-13.1724
晉劉裕率兵伐後秦姚泓後魏遣將	-13.1724
暁	-13.1724
曹公引沂泗注下邳而克	-13.1724
月之間世充自潰終如其言穆宗用裴度	-13.1724
有討伐皆奮不顧死多致克	-13.1724
束鹿惟岳將王武俊以騎三	-13.1724
棒一枚置於馬側至戰時	-13.1724
椿對宇文盛馳告急憲自救之齊人遽退	-13.1724
樓孝寛更縛木接之令極	-13.1724
武帝謀討劉毅王鎮惡曰公若	-13.1724
死水為之不流獲檀讓	-13.1724
河水灌大梁洧水灌潁川韓信夾濰水	-13.1724
沿海墪臺掌印官選撥精壯軍餘	-13.1724
淺水原南出賊之右以先餌之	-13.1724
湫	-13.1724
熟讀痛心疾首不覺涕	-13.1724
畆零嵗徴本折色正糧	-13.1724
異乎乃建旗鳴角收敗軍徐還歡追騎	-13.1724
當今之可用且古者以言不相聞故為金	-13.1724
白雲青蛇大赤大黒	-13.1724
矣少師曰不當王非敵也弗	-13.1724
磨糜人之肉以為食陳人恐犨語其下曰	-13.1724
示以疲倦懈怠使知之敵必隨勢而來	-13.1724
秃龜來折我脚面以左手監住右手	-13.1724
積旬鄩倍道兼行皆腹疾足腫顛墜巖坂	-13.1724
積聚百萬之衆可使為魚害之輕者猶使	-13.1724
箝	-13.1724
粧	-13.1724
絶我糧道往而無以返此騎之困地也汙	-13.1724
者困也先暴而後畏其衆者不精之至也	-13.1724
者攻之至也力屈粟殫城	-13.1724
而市之贑石水急出船甚難皆儲之如是	-13.1724
胄親人參軍王天虎	-13.1724
舊驛前南行歴平望王江涇	-13.1724
茍有險余必下推車子豈識之然子病矣	-13.1724
虜進不相遜退不相救縱不盡擒必	-13.1724
血盈前言笑自若及其對陣先令一二百	-13.1724
衆十餘里結屯營多聚牛馬糞	-13.1724
西華西華有積粟巢恃以為餉	-13.1724
覆說其帥盧循曰今日之機萬不可失既	-13.1724
詣江陵聲云山陽西上并襲荆雍書與	-13.1724
謀人乃出師旬有五日百濮乃罷自廬以	-13.1724
謂先量間者之性誠實多	-13.1724
謂當敵以正陣决勝以竒兵前後左右	-13.1724
議伐陳諸將皆云大江闊逺兵不習水以	-13.1724
賊已疲復謂諸將曰彼氣將衰吾當取之	-13.1724
賊衆百萬百姓皆震恐士卒無鬭志不可	-13.1724
賞上光父母下及妻子其勉旃	-13.1724
進賢而美名彰焉	-13.1724
金陵之地王氣已見宜早應之兼有大江	-13.1724
銅器聲動天地燕軍	-13.1724
陳人皆踴躍巢柵城北三里為八仙營營	-13.1724
雖還無能為也循從之初道覆密欲裝舟	-13.1724
騎三千乘之梁軍大敗俘斬二萬計	-13.1724
驟移頗為勞怨刀斧將	-13.1724
髙元朝行在所述見士卒疲	-13.1724
齊奮呼聲動天地羅	-13.1724
􁯠	-13.1724
兵機也如唐儉等輩何足惜督軍疾進自	-13.1726
道襲之至隂山遇其斥	-13.1726
留守宛宛大都也連城數十人民衆積	-13.1726
地或叢林薈翳之處擇精兵利器千人為	-13.1726
之何武曰既我可以往彼可以來吾分卒	-13.1726
善納衆人也言徐徐而事備者性緩而有	-13.1726
敵令不得來必全吾邊城修其守備	-13.1726
行有狼顧者行與坐忽如驚恐者非時	-13.1726
賜以狼頭纛謬為欽敬禮甚優玷厥使	-13.1726
其三帥者專行不獲	-13.1726
度其糧食卜其强弱察其天地伺其空隙	-13.1726
畏也當有畏之用退縮則設伏而攻之出	-13.1726
苗賁皇曰楚師之良在其中軍王族而已	-13.1726
襲孝恪時營於城外有龜	-13.1726
賁皇奔晉晉人與之苗	-13.1726
馬燧請重立盟誓則蕃軍引去德宗不許	-13.1726
主挾客叅將一宫發計神	-13.1726
云背可汗請我容納突厥既是我臣	-13.1726
人及之奔食而從之敗諸雍澨	-13.1726
勇怯也勇者不可必勝怯者不可必敗率	-13.1726
吾入圍地前有强敵後有險阻隘路敵	-13.1726
因問信曰兵法右背山陵前左水澤今者	-13.1726
夫用兵之要在崇禮而重	-13.1726
奢之登北山秦兵雖强而莫上李弼之據	-13.1726
孤疾二人役歸一人簡兵蒐	-13.1726
慄有必死之心由是戰無不勝時稱名將	-13.1726
穴不得獸子若竒兵出其不意事或可濟	-13.1726
縣門不發楚言而出子元曰鄭有人焉	-13.1726
若使先濟者知免後者慕之蔑有鬭	-13.1726
角之谷晉將遁矣雍子發命於軍曰歸老	-13.1726
進退無從雖衆何用能為	-13.1726
邢伯曰有班馬之聲	-13.1726
陷建業髙州刺史李遷仕據大臯圖逆召	-13.1726
三十局癸巳乙巳丁巳己巳辛巳太乙在	-13.1726
三和客大將三宫發客㕘將九宫格計神	-13.1726
三通其衆呼譟而進瑊遽岀自幕後	-13.1726
且近即有急奈何廣曰	-13.1726
主算二十四長和主大將四宫發主	-13.1726
之所也故兵行途有所不攻	-13.1726
之無得匿者乃并裝之旬日而辦遂舉衆	-13.1726
也援果輕渡汾衆止之不從濟水未半	-13.1726
二局乙巳丁巳己巳辛巳癸巳太乙在	-13.1726
于泥濘死者十二三後唐契丹冦望都	-13.1726
以河為界河北岸有拂雲神祠突厥將入	-13.1726
候夜昏詐為號直奔衝敵師混服飾軍伍	-13.1726
偽降請述還師奉其	-13.1726
公子光喪其乘舟餘皇光請	-13.1726
兵襲蕭衍衍時為雍州刺史將起兵慮	-13.1726
到匈奴陣二里所止皆下馬	-13.1726
十四局丁酉己酉辛酉癸酉乙酉太乙在	-13.1726
又創痍之後不可以矢石相持須以權	-13.1726
四宫天目吕申辰迫主算一	-13.1726
四局丁未己未辛未癸未乙未太乙在	-13.1726
土覆之以米因召側近村人佯有所訪問	-13.1726
士奉咫尺之書暴所長於燕燕必不敢不	-13.1726
宇文述與九軍過鴨緑水	-13.1726
宋金剛屯於河東太宗	-13.1726
將士賊疑城中有備不敢攻城而退守珪	-13.1726
左軍趙貴等戰不利㑹日暮歡進兵攻惠	-13.1726
巳午未時主人杜塞不利宜固守聞賊備	-13.1726
得敵信若我進取與詐跡不同間者不能	-13.1726
必棄城走請以二百騎追之縛取李歸仁	-13.1726
恐晏嬰聞之曰君固無勇而又聞是弗能	-13.1726
掠為資意在速戰我堅壁畜	-13.1726
搭其背而喝之賊驚顧翰從而刺其	-13.1726
摠	-13.1726
於營外遥見遂即遣之瑱等聞以為實乃	-13.1726
既多方覺不便而止髙熲請所	-13.1726
東昏侯遣輔國將軍劉山陽	-13.1726
此機未宜速戰於是遣劉𢎞等絶其糧道	-13.1726
河隨晉軍進止時晉軍	-13.1726
無奈何上從之已事軍還吐蕃始	-13.1726
率精騎十餘萬而至素奮擊大破之	-13.1726
瑊等入幕次坦無他慮結賛伐	-13.1726
生葭葦山林翳薈者必謹覆索之此伏	-13.1726
矣故曰治衆如治寡非分數不能鬭衆	-13.1726
素蓄謀素合也故曰蓄恩不倦以一取萬	-13.1726
者太宗深納之果破定襄敗頡利五代梁	-13.1726
者尤不可致於人也險者山	-13.1726
肅然天性喜殺士卒少有違令必寘於法	-13.1726
臯比而先犯之公從之大敗宋師	-13.1726
蔽金剛雖衆内實空虛	-13.1726
衝其心腹彼糧盡計窮自當遁	-13.1726
赴敵陷陣而還者則已如不	-13.1726
軍壘瀕江三面立栅㑹夜隂晦賊衆奄至	-13.1726
退三十里伏兵悉起前後夾攻大敗之仁	-13.1726
退守宼若至則當併力出戰迴顧望城猶	-13.1726
退張仁愿為朔方軍總管先是朔方軍北	-13.1726
鄉入既許之矣若入君必失國子盍圖之	-13.1726
鎮惡既至令將士食畢便棄	-13.1726
門以備宼議者以此重仁愿而輕元楷焉	-13.1726
集聚臣當君尊上下	-13.1726
青州黄巾衆百萬入兖州界刺史劉岱欲	-13.1726
頃之五校果引去帝乃親臨四面攻	-13.1726
領餘衆方復築州城賊又暴至	-13.1726
驍將皆在於此武周自據太原專倚金剛	-13.1726
髙麗平壤城三十里因山為營髙麗國相	-13.1726
魏人所殺掠遣軍纔過岸即退軍還復來	-13.1726
分一更傳牌七大暑六月中夜	-13.1727
楊尚英州判張大倫	-13.1727
此以内嬖為間者也其七曰敵有謀臣則	-13.1727
八曰求敵所委信者副其所欲隂求其動	-13.1727
可卒平故非意而還以盈怠其志卒然掩	-13.1727
城攻之不可拔騰於城下多設聲樂及	-13.1727
示無戰心諸獠果棄其兵	-13.1727
臨城觀樂騰知其無備密令衆軍俱上	-13.1727
賊惶懼不知所為遂縱兵討擊盡	-13.1727
大驚以杖擊地曰是何神也	-13.1727
曰死未晚也乃踰城見沛公曰臣聞足下	-13.1727
黼	-13.1727
右一軍被駕右二軍捉馬	-13.1727
唐武徳初置都督府天寳	-13.1727
常州境去一䑸為耆民周瓚等所	-13.1727
引兵深入諸侯之地三軍卒有緩急	-13.1727
捉馬驢第二角聲絶即被駕右一軍捉馬	-13.1727
玭	-13.1727
髙家嘴龔家套下脚	-13.1727
之數也雖有先王之道聖智之術而無此	-13.1727
也言少而事詳者大度人也語氣和而神	-13.1727
所以然故使臣不待禮賞有功美而無害	-13.1727
故曰務廣地者荒務廣	-13.1727
楪	-13.1727
殘滅之政累世受患造作過制雖成必敗	-13.1727
赫連勃勃屯依力川後秦姚興	-13.1727
㩁	-13.1727
下昏飾躬正顔以獲髙官是謂盜端軍䜟	-13.1727
也大陣包小陣大營包小營隅落鈎連曲	-13.1727
也當有輕之用由窮地而闢生門反輕而	-13.1727
事北面南鄙之事付我等數人今西道無	-13.1727
以必死提寡少之兵突	-13.1727
來則裏教塲一枝為正兵外教塲一枝為	-13.1727
備以天命慰撫吏士外	-13.1727
八百急趣信都扼下博橋道存審令史建	-13.1727
圖因之故外畫之方内環之圓是成六花	-13.1727
弊於魏也田忌從之直走大梁魏	-13.1727
智者之慮必雜於利害	-13.1727
深恨晟及渾瑊馬燧欲隂計圖之乃卑	-13.1727
用輕之道也敵强攻急師人大震衆以為	-13.1727
相那利潛引西突厥之衆并其國	-13.1727
者有三焉一曰挫勢二曰支勢三曰輕勢	-13.1727
胄使劉孝慶等伏兵城内山陽入門即於	-13.1727
虛形格勢禁則自為	-13.1727
表兵合守險操軍前後受敵操乃夜鑿險	-13.1727
謂麾下曰自欽陵死	-13.1727
趙趙請救於齊田忌引兵救趙孫臏曰夫	-13.1727
遽自亂當有危之用嚴號	-13.1727
險二曰輕三曰危四曰愚五曰畏窮途	-13.1727
黒上二尺白濶三尺柄長一尺	-13.1727
上故守城之法須設兵一枝專司救火	-13.1728
乍前乍後乍左乍右	-13.1728
乎嘉靖甲寅賊據為巢與老鸛嘴柘林新	-13.1728
以謙為荆州刺史與其大將譙道福俱	-13.1728
佖黷貨邊上至今患焉	-13.1728
信曰此在兵法顧諸君不察耳兵法不曰	-13.1728
先進輕車去軍十里與敵相候接	-13.1728
出竒者無窮如天地不竭如江河	-13.1728
前校四陣步兵三十五部騎兵八部	-13.1728
圍一角者有伏也退圍數里者謀也示以	-13.1728
夫社稷之實禍在秦而	-13.1728
委棄雜畜及輜重不可勝數測徐率所部	-13.1728
子靈奔晉晉人與之邢	-13.1728
并役成橋仍築月城圍守之自是朔方禦	-13.1728
惚惚而反忠實者有詭激而有功	-13.1728
撫循士衆登城拒守嘗	-13.1728
敵在前而公傷卧衆心懼矣漢乃勃然裹	-13.1728
於急流終莫能成蕃人知佖貪而無謀先	-13.1728
有類夫王莽之盗漢也	-13.1728
然相去一百五十餘里又隔吳淞大江兵	-13.1728
牋	-13.1728
珝為將巢敗果東走先遣孟楷據	-13.1728
用出生入死誰與我敵哉若夫鳴一	-13.1728
登至垜口揮刀殺人守者驚散賊從此	-13.1728
而左或分而右大將四觀擇空而取皆㑹	-13.1728
萬人求輸馬五百疋假道慧景欲	-13.1728
輕動其木墜下又可擊之	-13.1728
過人謂之雄英者智也雄者力也英不	-13.1728
雲州觀察使郭進在石嶺	-13.1728
面面相向背背相承	-13.1728
一十一刻一十二分每㸃二刻一十四分	-13.1728
一左一右一向一背此	-13.1728
一重對舊城門更不作門却於新築城下	-13.1728
三將行得木青幡幟圖熊額	-13.1728
上曰楚兵剽輕難與	-13.1728
下任便常以三五為準臺	-13.1728
中多蒺藜懿使軍士二千人	-13.1728
乃築長圍朱异張綰議出擊之帝以問侃	-13.1728
之援兵復欲築壘於軍後諸將恐腹背受	-13.1728
之疑及道覆舉兵案賣	-13.1728
之虜非良計也太祖從之城遂降後魏末	-13.1728
乎此為未戰先自敗也援剛愎好勝必	-13.1728
九宫天目吕申主算五八門杜主大將	-13.1728
也敬業以為然乃自率兵四千人南	-13.1728
也雍子奔晉晉人與之鄐	-13.1728
二十七局庚寅壬寅甲寅丙寅戊寅	-13.1728
京城之難若非人事之失則天亦不得而	-13.1728
人多圍而勿攻力未屈粟未盡城尚固而	-13.1728
今千里襲人輜重多難以趨利不如輕	-13.1728
付任己專威信已著	-13.1728
以下不得專異指揮餘依行軍約束條件	-13.1728
以兵少為難孝寛曰計成此城十日即畢	-13.1728
以病敗君之大事也擐甲執兵固即死也	-13.1728
仲禮至則安陸難下請急攻之忠曰攻守	-13.1728
來委謝者欲休息也	-13.1728
傉檀至顯美徙數千	-13.1728
儕	-13.1728
先據北山此乃面陽而背	-13.1728
入則少壯勇健者在後則後殿之義也當	-13.1728
公謹副李靖經畧突厥因言突厥可取之	-13.1728
兵與車騎戰者必依丘	-13.1728
分深一寸三分三池各置浮木	-13.1728
則戰戰則無暇城矣今請	-13.1728
前鎗斧居次先斬執葢次斬先鋒	-13.1728
剛日從日上陽神順數	-13.1728
副招討使任圜至利州㑹康延孝叛據	-13.1728
勞師表裏受敵非計也南人多習水軍不	-13.1728
北攻燕東伐齊若何而有功對曰今將軍	-13.1728
十三局丙申戊申庚申壬申甲申太乙在	-13.1728
十嵗已上老馬令飼以平陳為名賊必懼	-13.1728
十步立標標眼比碟大	-13.1728
即奚契丹避暑之處	-13.1728
即戰許洞曰既圍即戰謀未備也圍久則	-13.1728
原李觀皆和善守信境外重之此時須令	-13.1728
又敵衆犯塞民相攜入城知節與之約有	-13.1728
取之必矣銑援兵見舟艦果疑不進銑降	-13.1728
取牛馬公乃得渡循河為甬道而南賊退	-13.1728
同㑹鄴南士馬精强號二十萬圍歡於	-13.1728
向城乘城將士皆援立牌以	-13.1728
善聽斷以鈎距得	-13.1728
喪先王之乘舟豈惟光之罪衆	-13.1728
四分之一長九十三尺六寸三分四毫四	-13.1728
四將行得金白幡幟旗圖狼額	-13.1728
城中家家致問或手書示信	-13.1728
堅行操刀上岸以手東西指麾若分部	-13.1728
壇之東西是時蕃軍精騎數萬列	-13.1728
外五百步内悉伐木斷橋焚棄宿草撤屋	-13.1728
多方以謀彼師或屢出以疲彼師或彼求	-13.1728
多積戰具以禦之歡使謂城中曰縱爾縛	-13.1728
大國難測也懼有伏焉吾視其轍亂望其	-13.1728
奸命司馬殺之以徇於諸侯使茅	-13.1728
好髙而惡下貴陽而賤隂	-13.1728
守忠等果遁朱泚之亂賊驍將張庭芝逼	-13.1728
守要險欲曠日老之敦又増	-13.1728
客大將二宫發客叅將六宫	-13.1728
客算二十六不和客大將六宫	-13.1728
宫天目大族主算七和主大將七宫發主	-13.1728
家三世陳將必能保此爾曹男子	-13.1728
射之中者人馬皆洞經十三日晉軍死傷	-13.1728
將發利為客見陣利後動出軍宜	-13.1728
將馬有麟奏曰土梨樹地多險阻恐蕃	-13.1728
小醜輕進易退常戒邊將勿與	-13.1728
尚書前驅東出泰率大軍	-13.1728
州掌書記張礪獻策	-13.1728
帝命將討之時朝廷器甲悉充南討故軍	-13.1728
庵	-13.1728
引其土山不能立賊又作登城樓	-13.1728
急請救亞夫引兵東北走昌邑深壁而守	-13.1728
患地也左有深溝右有坑阜髙下如平地	-13.1728
愚者不顧其死因其至情而用之此軍之	-13.1728
我猶赦汝郭進殺汝矣其為將嚴肅如此	-13.1728
或合而為一因離而為八各隨師之多	-13.1728
或曰武夫介士出於閭井非有明逹之姿	-13.1728
所以事君也獲一邑而教民怠將焉用邑	-13.1728
所敗銳氣衰矣今固壘不戰是窮	-13.1728
把總提調每船旗號色亦同之	-13.1728
持十炬火繫炬於木枝光照數十里冲懼	-13.1728
摧其牙落其角無使出吾之右徐以慶弔	-13.1728
據之必不可與爭則當引去	-13.1728
故耳若棄而去示之以弱所在之民誰非	-13.1728
故能全功尚人而下盡力	-13.1728
敏之性而令心存進退耳	-13.1728
春秋時子罕為宋司城	-13.1728
曠日糧竭而弱燕不服齊必拒境以自彊	-13.1728
曰以守待攻者彊以動待敵者亡	-13.1728
曰頡利縱欲肆情窮	-13.1728
有隙悉欵塞内附	-13.1728
本鎮兵從瑊瑊與結賛初約以兵三千列	-13.1728
楚師伐吳鍼尹固與王同舟	-13.1728
楫可乎今北土既未安加以馬超韓遂在	-13.1728
欲施放敵人在外先見必須以衆	-13.1728
歡傾山東之衆志圖西入以	-13.1728
歡起義兵於河北爾朱兆	-13.1728
歸師人自為戰不如避之操曰尚從大道	-13.1728
水軍自河入渭直至渭橋鎮惡所乘皆䝉	-13.1728
浮橋夜分兵結營於渭南賊夜攻營伏兵	-13.1728
渠置陣林邑王傾國來	-13.1728
漢景帝時吳楚反周亞夫將兵	-13.1728
漢王遣韓信破陳餘後信募	-13.1728
潛軍進討諸將皆言達與二賊交結宜審	-13.1728
營兵出鎮南夏開設庠序綏	-13.1728
王執燧象以奔吳師	-13.1728
甚衆焚營而退郡以獲全黄巢	-13.1728
當死盡終不為彼用陳	-13.1728
病未及死吾子勉之左并	-13.1728
痍	-13.1728
發襄頻為晉將桓温	-13.1728
百里之内牛酒日至以饗士大夫醳兵	-13.1728
竊童兒錢二百者即戮之自是無敢犯者	-13.1728
竒正若失一陣則斬一將形勢既就諸	-13.1728
箕張而進榮潛軍山谷為竒兵分	-13.1728
節影長一尺六寸九分	-13.1728
糖	-13.1728
網羅凡物未有不以先動而受制於人也	-13.1728
縯	-13.1728
總兵郭成參將田應山都司邵應奎	-13.1728
繕甲兵為戰具遂雄視山東天下稱昭義	-13.1728
繪帛為狻猊象使猛士百人䝉之	-13.1728
置死地使人人自為戰即與之生地皆走	-13.1728
者敵不知其所守善守者敵不知其所攻	-13.1728
而來晉軍大驚且疑有伏兵遂退據	-13.1728
而我不出或彼欲去而懼我	-13.1728
臣聞善用兵者不以短擊長而以長擊短	-13.1728
至逆來争取敦甲士出而擒之此後實有	-13.1728
若此者皆古人所以坐而役	-13.1728
號令嚴明將士同奮榮身自陷	-13.1728
蛇蟠月偃中權後勁疇能收萬全之勝哉	-13.1728
衆兵非貴多也乘機取勝而已咸平景徳	-13.1728
行獻子執而戮之衆咸曰韓厥必不	-13.1728
表裏合擊大破之於陣擒葛榮餘衆悉降	-13.1728
襄邑公賀若弼獻十	-13.1728
訊咸知家門無恙見待過於平時故	-13.1728
詔報以希全只在靈州李觀又已改官	-13.1728
譟奮馳賊馬驚亂	-13.1728
貞元中楊朝晟奏方渠合道	-13.1728
賊攀女牆則舉四表夜則加燭於表上虞	-13.1728
躭	-13.1728
車動果倒衆皆服焉賊既頻攻不	-13.1728
軍前後斷絶歸路豫乃進軍去	-13.1728
軍無使相遇壯男遇壯女則費力而奸生	-13.1728
輒離職掌民不得奔走街巷凡賊至城外	-13.1728
辰擊客算一客大將一宫發客㕘將三	-13.1728
迫主叅將六宫外迫始擊將大神客算三	-13.1728
追還率兵夜返齊人果謂栢	-13.1728
道路數使人與䝉相聞䝉輒厚遇其使周	-13.1728
遜率兵伐南涼秃	-13.1728
遣兵斷夾石諸將不知所出	-13.1728
遣燕討之定窘急偽乞降於燕并餽	-13.1728
遣臨川内史張淹自	-13.1728
遣衆救之燕退定遂進逼漢中	-13.1728
遵師長之命決勝負於一時	-13.1728
鄭司馬將中軍令尹將左右尹子辛將右	-13.1728
鄭鄭人聞有晉師使告於楚姚句耳與	-13.1728
重其勢可畏者莫甚於	-13.1728
野無水草軍乏資糧	-13.1728
鈔掠後軍遣兵以益備聞者信	-13.1728
鎮兵數萬人仁愿初建三城不置壅門及	-13.1728
長洲其道有三見長洲縣水陸路考	-13.1728
陽七百餘里每為邊害祜患之竟	-13.1728
靖康朝野僉言具載金人攻城始末	-13.1728
非得素拊循士大夫此所謂驅市人而戰	-13.1728
頃大獲其利祜之始至也軍無百日之	-13.1728
餘里一日創手二日偽境始知設令晉州	-13.1728
馬跨而奔馳追騎雲合流矢雨集崔漢衡	-13.1728
騎十萬屯河北常有數千騎	-13.1728
黄眉曰傷弓之鳥落於	-13.1728
齊師其遁叔向曰城上有烏齊師其遁	-13.1728
齊師敗績逐之三周華不注	-13.1728
囚不利為主宜固守聞賊備正	-13.1729
千餘帳皆俘以隨軍頡利見使者甚	-13.1729
此已試之效也其俗亦好為誘兵羸師	-13.1729
㑹卒見亮至衆皆駭愕亮乃麾兵斬定兒	-13.1729
一皷作氣再而衰三而竭	-13.1729
宇文泰令劉亮襲之定兒以義兵	-13.1729
嶺即馳入城定兒方	-13.1729
州門號令賊黨仍遥指城外纛命二騎曰	-13.1729
後魏幽州刺史孫定兒	-13.1729
以驕敵彼既不識隠之以變	-13.1729
固軍陣外若不整以誘敵内嚴部伍外若	-13.1729
衆我寡力殫糧絶勝勢在彼敗勢在我當	-13.1729
誓士嚴令厚賞進	-13.1729
谷死絶之地敗壘夷	-13.1729
入朝言之上令崔翰入蕃報結賛言還我	-13.1729
吳行人焉吳於是伐巢取駕克棘入州來	-13.1729
咸平中上出北面地圖曰	-13.1729
唐李靖陳圖蕭銑十策有詔拜行軍	-13.1729
圍張繡於穰劉表遣兵救繡以絶軍後操	-13.1729
地主客算二十四和客大將四宫發客	-13.1729
對壘欲圖竒變引重兵踊戰潛選精	-13.1729
憗	-13.1729
戰兵氣益倍文帝行其	-13.1729
敵示以閒暇者此必緩我而欲	-13.1729
數百封守素並焚之反側以定	-13.1729
李元平大言好論兵宰相	-13.1729
楚大夫子囊師于棠以伐	-13.1729
楚罷於奔命至今為患則子靈之為也	-13.1729
誘也可以急備者二敵攻其西謹備其東	-13.1729
諸將問其故答曰闗中長逺若賊各	-13.1729
謀主捍禦北狄通吳於晉教吳叛楚教之	-13.1729
速不在衆也若星馳電發出其不虞精騎	-13.1729
集兵彼必不信猶豫之頃我乃濟師登陸	-13.1729
一局甲午丙午戊午庚午壬午太乙在	-13.1729
三十里以戒不虞而今日且二百里何也	-13.1729
不可勝者守也可勝者攻也	-13.1729
不疑二人因雜其行間俄而伺隙各擒一	-13.1729
不許深入終日跨馬披甲結陣由是馬多	-13.1729
中匈奴單于作亂平陽繇	-13.1729
事旬餘而畢又於平	-13.1729
人少是以和好輕慢不成今蕃相及元帥	-13.1729
人思致命至尊遣兵相繼於道	-13.1729
使北土已安操無内憂能曠日持久來争	-13.1729
使有党項室韋交居川阜	-13.1729
僮使僅二百人每以自隨臨入敵	-13.1729
入荆州劉琮降得水軍	-13.1729
兵三萬餘人南擊秦豐	-13.1729
兵衆甚盛諸將議欲釋之去繇曰袁氏方	-13.1729
其歸路從而擊之必無遺類果如	-13.1729
到夷陵即交戰所殺過半	-13.1729
勝之方也於是悉除舊法令諸軍為騎陣	-13.1729
勵士卒令其奮怒陳伏良卒左右險阻擊	-13.1729
北拓地三百餘里於牛頭朝那山北置烽	-13.1729
北第四十七局庚戌壬戌甲戌	-13.1729
十五局戊寅庚寅壬寅甲寅丙寅太乙在	-13.1729
十六局己卯辛卯癸卯乙卯丁卯太乙在	-13.1729
去家萬里而舫乘衣	-13.1729
又湘羅之人乘輕船載米粟及籠	-13.1729
吏富人多與賊帥包漢陽交通	-13.1729
君懼汝不能也舉而不能黨孰大焉事君	-13.1729
命若不素練施設敢問何以	-13.1729
和客大將三宫格客叅將九宫發計神	-13.1729
四頭八尾觸䖏為首敵衝其中兩頭俱	-13.1729
在自專進退内御則功難成軍勢	-13.1729
地於河北築三受降城首尾相應以絶南	-13.1729
城下語云大軍已到太守何不出迎	-13.1729
堅其意胡騎遂不敢擊有白馬將	-13.1729
塵埃漲天鍾葵軍不知所	-13.1729
多賊必防礙更甚今南地無馬請付傍江	-13.1729
大服君子謂文公其能刑矣三罪而人服	-13.1729
太守劉延於白馬紹引兵至黎陽將渡河	-13.1729
太陽辰迫主算一主大將一宫格主	-13.1729
夫戰尚速何明日為子儀固止之令還營	-13.1729
如天如地乃可使人士卒用命乃可越境	-13.1729
如平原大野深林險道前丘後澤乘	-13.1729
子儀曰將軍戰亦疲矣且休迨明而圖之	-13.1729
守且城固而糧多攻之則	-13.1729
守城太宗以數騎詣其城下舉鞭指	-13.1729
宋曾公亮等撰占候四太乙定主客勝負	-13.1729
宗不許曰世充糧盡内外忿嫉當不勞攻	-13.1729
宫發計神辰此局太乙	-13.1729
宫與客叅將關始擊將天道客算	-13.1729
家萬人同心三軍齊力并炊數日無見火	-13.1729
將授以方略晨當攻城顧謂𤣥之曰郝子	-13.1729
將軍計莫如按甲休兵鎮撫	-13.1729
居隂而生疾也今若於	-13.1729
布陣不可限以常法東西拐子馬陣	-13.1729
廣上馬與十餘騎奔射殺之復還其騎中	-13.1729
後行配三十騎為一隊計	-13.1729
志定方謂知節曰本來討賊今乃	-13.1729
恐不知所為便出迎儼即執之一部遂定	-13.1729
愛財賞功不踰時則下力并敵國削夫用	-13.1729
成敗法耳何為此事自今正	-13.1729
戰雋因擊大破之忠等並降	-13.1729
所圍東魏召人赴救慕容儼應募赴之時	-13.1729
所言差强人意乃授	-13.1729
手知擊刺足趨坐作隨旗變陣	-13.1729
振旅凱以入於晉獻俘授馘飲至大賞	-13.1729
攻彭彭先為之備出兵逆	-13.1729
敵之情實但將虚詞以赴我約此非用心	-13.1729
敵在吾圍伏而深謀示我以利索我以旗	-13.1729
料兵而後渡河時突厥嘿啜盡衆西擊突	-13.1729
施葛娑仁愿請	-13.1729
日希朝於要害處置堡柵斥	-13.1729
易吾軍若渡汾為營及其未濟	-13.1729
晉人寘諸戎車之殿以為謀主	-13.1729
曰歸仁守忠天下驍賊也驟勝而敗此天	-13.1729
曰治兵入曰振旅所以辨等列順少長也	-13.1729
望樓八座每座望子十人計八十人凡陣	-13.1729
望虜陣不整乃以張遼為先鋒縱兵	-13.1729
横暴擾軍政約至夜	-13.1729
樹盟畢則歸二州翰歸備奏其事神	-13.1729
法殺敵致果兹誠一端之論不為無㫖然	-13.1729
渴軍幕未辦將不言倦軍竈未炊將不言	-13.1729
濟河舟之僑先歸士	-13.1729
為名造船倣水戰仍以賀若弼為	-13.1729
然後輕兵襲白馬掩其不備顔良可擒也	-13.1729
燕齊相持而不下劉項之權未有所分	-13.1729
率百許人縁廣陵城得入呌	-13.1729
盜日入慝作謂之刮城門居人懼駭鮮有	-13.1729
短不和不利為主宜固守聞賊備正東第	-13.1729
笞而遣之知節曰民避外虞而來反為内	-13.1729
缻	-13.1729
者令就襄陽縣牧馬於道	-13.1729
聞世有忠義事亦欲為之而不知時也	-13.1729
聞賊備東北客聞賊備西南第	-13.1729
能使敵人不得至者害之也	-13.1729
舟之小者則以吾大舟犂而	-13.1729
船馬以招瑱軍詐稱投附瑱便遣兵迎接	-13.1729
范希朝為振武節度	-13.1729
衆死者十六七奏至上召其使問狀	-13.1729
西别築胡谷堡名曰彰信平	-13.1729
西為操後患且捨鞍馬仗舟楫與吳越	-13.1729
言左右呼萬嵗因遣内	-13.1729
計神辰此局客算長大將發	-13.1729
謀叛儼乃帥騎出其不意	-13.1729
謂此也凡守之道敵來逼城靜黙而待無	-13.1729
走廣曰吾去大軍數十里今若走匈奴	-13.1729
趨下頓兵擁衆呼吸	-13.1729
軍朱雋與荆州刺史徐璆共討黄巾	-13.1729
長客大將八宫發客㕘將四宫	-13.1729
隨鞍躍上然後羈帶矛矢在手前無强敵	-13.1729
離三聚而三散不如法者吏士	-13.1729
馬知節徙知定逺軍時部民入堡卒有	-13.1729
鴨以餉瑱軍敦患之乃偽	-13.1729
鹿角為方陣騎在其内素謂人曰此	-13.1729
牌三十六二分一更傳牌	-13.173
利天下者天下啓之害天下者天下閉之	-13.1731
莫能用之故用間之道在乎	-13.1731
間者也是以知間者兵家之要妙也茍非	-13.1731
非一人之天下乃天下之天下也	-13.1731
夜引軍從他道還更	-13.1731
宛從後擊强秦在前此危道也於是沛公	-13.1731
幟黎明圍宛城三匝	-13.1731
龍張翼以進鳥翼兩旁向敵而翔以應之	-13.1731
其前騎擊其左右敵人必走敵人行	-13.1731
吾將以近通逺從中應外以給三軍之用	-13.1731
奢縱兵擊之大破秦軍	-13.1731
窨	-13.1731
食之厚賞格以激之馳射格鬭是其素所	-13.1731
據陽平關横山築城十	-13.1731
設之拒馬槍以木徑二尺長短	-13.1731
之所居則力為之救而其所不居者雖有	-13.1731
傳令不明道路擠塞言語	-13.1731
元平馳去既見希烈遺下	-13.1731
兩軍相當日有冠纓者和解抱	-13.1731
兵掩之懐恩不能救諸軍皆走景慈被傷	-13.1731
内吾等輕鋭倍道掩其未	-13.1731
北門裏教塲屯劄以為犄角之勢	-13.1731
即撲滅之矣仁貴遂率	-13.1731
多石少土不任板築	-13.1731
排比催督急過	-13.1731
數百騎突至其城先應募執役者應於内	-13.1731
斗加孟神在内宜止	-13.1731
版築凡入數百人元平不之覺希烈遣	-13.1731
蔡侯吳子唐侯伐楚	-13.1731
號召居民實粟城内	-13.1731
一刻每㸃二刻一十二分後六日改第	-13.1731
丈深二尺以細沙散土填平	-13.1731
三更船取灘山打水七八托用單丁	-13.1731
不從遂大戰赤眉佯敗棄輜重走車	-13.1731
不旬日楊師厚攻棗强賀德倫	-13.1731
不起頃之復定魏將張遼以荆	-13.1731
中行二郤必克二穆	-13.1731
之自是敵必不容矢石必倍守禦官若能	-13.1731
乎曰無有山鞠窮乎曰無	-13.1731
二土山以臨城城中震駭侃命為地道	-13.1731
令得逃亡則一亭長足以擒矣帝然之即	-13.1731
伏兵擊之大潰唐侯君集伐	-13.1731
使士以賞信衰則士疏賞虧則士不用命	-13.1731
來者營軍也辭卑而益備者進也辭强而	-13.1731
元豐五年以特奏名	-13.1731
其弊何以自安老賊既不下蓨城必西	-13.1731
則滋蔓難圖與公等輕騎而行觀其所向	-13.1731
前哨百户一員後哨百户一員	-13.1731
勇果輕敵不恤士衆泓聞其至也懼率衆	-13.1731
又縱反間曰吾懼燕人掘吾城外塚墓	-13.1731
喪列志失列喪將何以戰楚果敗	-13.1731
單提來打我膀不拘左右	-13.1731
嘉曰胡恃其逺必不設備因其無備卒然	-13.1731
堤吏曰我擊賊之日候賊半渡而	-13.1731
塑	-13.1731
士衆逺涉江湖不習水土必生疾病此數	-13.1731
士間出圍外縱火大呼城上舉燎應之	-13.1731
夷子辛死之則雍子之為也子反與子靈	-13.1731
奸細乃本地之民賊拘其家屬劫其内應	-13.1731
好遣精兵出大陣後斷我	-13.1731
如樂之和無所不諧	-13.1731
孝寛深患之而地入於齊無方誅剪欲當	-13.1731
宇文忻韋孝寛擊之迥	-13.1731
安四輪上建雙䏶䏶間横	-13.1731
山柘静等州詔嚴武收復武遣崔旰統兵	-13.1731
岸則外教塲一枝為正兵裏教塲一枝為	-13.1731
巡三軍撫而勉之三軍之士皆如挾纊	-13.1731
師伐齊齊侯畏衆齊師夜遁師曠曰	-13.1731
後十餘日權果再到合肥城下不克而還	-13.1731
復以陣中張陣外射畨次	-13.1731
戰預壅洛水上流謂	-13.1731
所度也國良且憂且喜遣使請降亦未決	-13.1731
抗抗曰羊祜豈酖人者	-13.1731
抛車飛石擊其城中其所當者無不糜碎	-13.1731
挑戰太宗堅壁不應以挫其鋒	-13.1731
擊破之執楷歸巢從後至聞楷被執大怒	-13.1731
斂數刑罰無極民相殘賊是謂亡國軍䜟	-13.1731
明日將戰行歸者而逸楚囚	-13.1731
是伏奸細於城中放火守城者奔救則敵	-13.1731
曰吾君死矣師譟而從之三國奔楚師大	-13.1731
曰鮮卑有思歸之心宜驅令	-13.1731
東北通婁江西南通呉淞江	-13.1731
東晉初石勒偽推奉晉幽州刺史王	-13.1731
棖	-13.1731
樓四座角樓四座	-13.1731
死命始次賊城周圍皆石礫攻具無所設	-13.1731
每更一十刻三十六分每㸃二刻七分	-13.1731
水列營以逼之分遣竒兵斷其	-13.1731
淺進凡軍前有水陷我則據髙以	-13.1731
片帆出浦即是葉謝	-13.1731
申公巫臣曰師人多寒	-13.1731
男女七十餘口仍進兵圍其都城代宗時	-13.1731
痰	-13.1731
白馬未至十餘里良大驚來逆戰使張遼	-13.1731
盈杯居之不以室宅守之不以城郭藏之	-13.1731
直上㕔事祗驚起出門將處分賊射之傷	-13.1731
相薄此劒楯之地也	-13.1731
祭當境神文第二百二	-13.1731
第一角聲動左行向左右行向右三行	-13.1731
縱使知我倉卒無以應敵此必成	-13.1731
者皆入城中選其子弟配以兵甲以其弟	-13.1731
而不得任使者有欲求展己之才能者有	-13.1731
而戒不求而得不約而親不令而信	-13.1731
聞天子詔帝使持節詔曰吾欲勞軍亞夫	-13.1731
胆	-13.1731
能使敵人自至者利之也	-13.1731
能勝衣至於野外馳逐能擒奔馬自執鞍	-13.1731
臨發軍中有謀反者夜驚亂起火一軍盡	-13.1731
至三爿沙總兵盧鏜與把總楊尚英迎擊	-13.1731
至營中為動容式車曰真將軍也魏平	-13.1731
致不肖其路近是以明君	-13.1731
與無錫為界其道有二由	-13.1731
范港石頭港二巡司弓兵一百七十名并	-13.1731
蔞	-13.1731
褊	-13.1731
襲之使人潛渡河告姚襄城中内外相應	-13.1731
西至常州府宜興縣界一百里南至	-13.1731
要處置一大城乃於河西	-13.1731
詰者多在城門内使賊假	-13.1731
謂張超曰吾知之矣賊今外圍周固内營	-13.1731
變詐常持兩端之心者如此之官皆可以	-13.1731
豫清約儉素賞賜皆散之將士每	-13.1731
路衝其方虛彼必釋趙而自救是我一舉	-13.1731
遁也悉軍來追乃縱竒兵	-13.1731
長五丈每條用麻二斤	-13.1731
長鎗一路迅速齊到勢不可止殺人最快	-13.1731
閂	-13.1731
關不可遏也叡弗從戰	-13.1731
隂將衝突也夫被圍者當先安其内而後	-13.1731
隨擊大破之惟岳焚營而遁	-13.1731
韋光裔懦弱以元平代之既至部募工徒	-13.1731
領於谷瀆港口外教塲屯劄一枝	-13.1731
馬軍為翼步軍後排營有利則前戰無利	-13.1731
黄昌涇新塘橋周市雙鳳	-13.1731
一十一刻二十四分每㸃二刻一十六分	-13.1731
一夕而成魏人自江西望	-13.1731
一宫天目和徳主算三十一主大將一宫	-13.1731
一日三石一月九十石六月	-13.1731
三尖刀一跳十數步横奔而來	-13.1731
上人直下臨敵何物不可施用正是敵	-13.1731
下據城郃絶其汲道大破之隋初突厥	-13.1731
不敏於君之行前不敢逃刑敢歸死遂自	-13.1731
不移日而城必破城破之後	-13.1731
不進宣言上書請兵須到乃發	-13.1731
主大將九宫囚主㕘將七宫	-13.1731
主算八不和主大將八宫囚主㕘將四宫	-13.1731
乃令築之齊人果至南首疑有大軍乃停	-13.1731
之兵頓之燕堅城之下欲戰恐	-13.1731
之寳也人之所庇也得原失信何以庇之	-13.1731
之甲詐為慎書行間焉德宗遣中使即軍	-13.1731
之連月不下曹仁言於操曰圍城必示之	-13.1731
也夫惟募兵一事執利權以囿民	-13.1731
也明矣假令當時於城裏脚下立	-13.1731
也而操皆冒行之瑜請得精兵三萬人進	-13.1731
事者一人定為頭領每日稽查某家接留	-13.1731
二方該五百九十七垜	-13.1731
二角音者全師進東加三角音者全師進	-13.1731
二革二金為天三革三金	-13.1731
亦在髙處自然招城外敵人用	-13.1731
仁曰兵勢宜合不可分今敬業不知并力	-13.1731
令後伏兵先出强弩射之	-13.1731
使廬戢黎侵庸	-13.1731
來牽馬馬既畏船不上敦發伏掩之盡	-13.1731
俶	-13.1731
倖因以所求中之次使使者致玉帛子女	-13.1731
候其矢石可及則以術破之若遇主將自	-13.1731
備夜半火發令於軍中曰救火者斬之童	-13.1731
備黎陽見垂向西津乃棄營西拒垂潛遣	-13.1731
六宫天目大炅主算十八主大將八宫	-13.1731
六局己亥辛亥癸亥乙亥丁亥太乙在	-13.1731
兵豐聞大驚馳歸救之彭依東山為營豐	-13.1731
其地非所用而必用反為所害順則善矣	-13.1731
其攻械勢恐難遏宜便於城裏脚下取土	-13.1731
凡一將佐一部隊一營壘	-13.1731
刀斫前奏案曰諸將吏敢復言	-13.1731
初日改第十八箭晝	-13.1731
前導各呈其技賊衆乘城望之破膽	-13.1731
功謂知節曰雖云破賊官軍亦有死傷盖	-13.1731
加五角音者全師進北鞉音不止者	-13.1731
加四角音者全師進	-13.1731
募吾材士與敵相當	-13.1731
十九局壬午甲午丙午戊午庚午太乙在	-13.1731
十五局戊戌庚戌壬戌甲戌丙戌太乙在	-13.1731
十里北至契丹朔州界有谷路一	-13.1731
十隊每路各浮圖子排列計百六十五騎	-13.1731
即委財物散走堅追斬得	-13.1731
叅將一宫格計神未此局太乙助客客	-13.1731
叅將三宫發始擊將大義客算十六	-13.1731
可以施其能若守城人能用則攻城人	-13.1731
各設四表賊來近則舉一表賊至城則舉	-13.1731
吕䝉西取長沙零桂三郡	-13.1731
吳將周瑜使甘寧據夷陵魏將曹	-13.1731
吾兵少徐行則易為所及速進則彼	-13.1731
唐儀鳯中開山洞置天寶	-13.1731
唐武德初劉武周據太原	-13.1731
問焉對曰其行速過險而不整速則失志	-13.1731
善用兵者必重天下之權而研諸侯之慮	-13.1731
四里為連故二百人為卒	-13.1731
國介子至樓蘭責其王教匈奴遮殺漢使	-13.1731
城相去各四百餘里皆據津濟	-13.1731
境乃賊之來路也設險守禦其重在	-13.1731
墓燒死人即墨人從城上	-13.1731
壕則為火藥鞭箭以射焚	-13.1731
壯吾氣故曰不善人者善人之資為將帥	-13.1731
外壕必不能填得裏壕	-13.1731
外迫始擊將陽徳客算	-13.1731
大小相轄上下相維元	-13.1731
大笑曰王世充文法吏何能為將吾當生	-13.1731
客算二十二客大將二宫發	-13.1731
宫天目大族囚主算六主大將六宫囚主	-13.1731
宫天目陰主辰迫主算	-13.1731
導以為亂或告其事且曰	-13.1731
居外營請入救火不許明日斬之	-13.1731
岔	-13.1731
弓騎暴集偏攻大陣一面捍禦不及則有	-13.1731
張時用十許人次者五七人一工凖所射	-13.1731
征討令封常清知留後事常清有才學果	-13.1731
後校之首去中校之末	-13.1731
悋	-13.1731
戮尤以督哨之人與舵工為重每船必設	-13.1731
戰不得攻又不能其勢必離散然後選精	-13.1731
戰之久市人之合或庶	-13.1731
投瑱瑱遂納之敦又别取一馬牽以	-13.1731
押領隨便安置咸得其宜擢其渠帥量才	-13.1731
拍手漸攀城則以連枷	-13.1731
故兵法曰城有不可攻又曰善守者藏	-13.1731
數月不得進彭夜勒兵馬申令軍中使明	-13.1731
方始入門若此則假使	-13.1731
既恃其衆不以為慮乃進軍逼謹謹	-13.1731
旬而三城俱就以拂雲祠為中城與東西	-13.1731
是軍營遂收兵自固版築克就卒如其言	-13.1731
時議者欲分兵屯守諸津	-13.1731
晟皆立斬之莫敢仰視士	-13.1731
晶	-13.1731
暪	-13.1731
曰崔旰神兵也將更前進以糧盡還武大	-13.1731
曰攻城為下然攻亦有道必在乎審彼之	-13.1731
更一十一刻三十六分每㸃二刻一十八	-13.1731
有食色姑修而城軍吏曰獲城而不取勤	-13.1731
杜塞無門不利宜固守聞賊備西北第	-13.1731
東西稍陣各用騎兵萬人	-13.1731
校備用之物各為部分使吏主當謹伺見	-13.1731
格主㕘將六宫發始擊將大	-13.1731
止即為營動即為陣逢賊告急	-13.1731
步有五長十步有十長百步有將别令虞	-13.1731
每更一十一刻四十八分每㸃二刻二十	-13.1731
每更九刻三十六分每㸃一刻五十五分	-13.1731
河南釗聞而奔還士衆疲	-13.1731
活門所以開其生路也今公告之必死	-13.1731
流涕逺方居人亦有經宿方知者	-13.1731
渭南相持百餘日亮卒於軍中及軍退	-13.1731
為約矣秀實乃召	-13.1731
犍	-13.1731
狼狽入白守忠言笑自若徐顧坐客曰此	-13.1731
率衆數千遮詡於陳倉崤谷詡停	-13.1731
生麾兵疾進先薄高祖而建成墜馬老生	-13.1731
用兵排陣之法中軍大陣之前别擇	-13.1731
疑城自石頭至於江乘架以木	-13.1731
登白狼山卒與虜遇左右皆懼操登	-13.1731
皆計所侵送絹償之每	-13.1731
盪騎兵也戰鋒隊步騎相半也駐隊兼車	-13.1731
知之以告旰晝夜穿地道以攻之再宿而	-13.1731
知其可擊令軍中夷竈撒幕設方陣四面	-13.1731
知留後時仙芝乳母子鄭	-13.1731
破此又寄之明哲見利而行不可羈以常	-13.1731
純柔純弱其國必削純剛純强其國必亡	-13.1731
絶人懐危懼敦於是分兵	-13.1731
縮夜漏數刻以差其期賊驚	-13.1731
繁多則心迷意倦勞而無暇安能	-13.1731
纔合伏兵俱發曳柴皷譟塵埃漲天毗羅	-13.1731
者焚之主將閲視守禦器械各令牢具又	-13.1731
而不服遇敵懟而自戰將不知其能曰崩	-13.1731
而不精也或曰唐人李筌號能言兵者其	-13.1731
而頓兵何以事君吳曰	-13.1731
聲一發陣即立成更不在	-13.1731
胡因問羣臣曰吾欲用兵誰可伐者大夫	-13.1731
能者亦難施設竊聞金人用	-13.1731
自知孤窮乃走麥城西至漳鄉衆皆委	-13.1731
至烏孫道過龜兹介子復責其王王亦	-13.1731
若由門入城須行新城脚下	-13.1731
莫不貪强鮮能守微若能守微乃保其生	-13.1731
莫難於悉舉事莫難於必成此三者聖人	-13.1731
薄我未可與戰堅壁觀之持久則衆心怠	-13.1731
藍棄西安而遁岑彭將	-13.1731
蘭州大將賀樓子幹率衆拒之至	-13.1731
虚實都厚一里一百一十六步	-13.1731
行而前此則退有所歸進無不利實為良	-13.1731
衝鬭艦千數操悉浮以	-13.1731
計謀其次用人事其下用戰伐用計謀者	-13.1731
軌為里故五十人為小戎	-13.1731
軍國之要察衆心施百務	-13.1731
軍背城而列陣高祖以中軍與建成合陣	-13.1731
軟材平底木履前行蒺藜悉	-13.1731
軸絞張之下施牀承弩其名有	-13.1731
轝迎旰入成都以誇士衆	-13.1731
連呉固蜀潛圖中國謀洩	-13.1731
連為鄉故二千人為旅	-13.1731
道項羽欲討越謂其將曹咎曰謹守成臯	-13.1731
邨川沙每處每日撥軍五十名不分晝夜	-13.1731
郡望風歸服惟零陵太守郝普城守不降	-13.1731
醳	-13.1731
鋒抗敵或兵勢不支則䇿先鋒陣為應援	-13.1731
鎮江西先是牙將伊慎討梁崇	-13.1731
開東西掖門與戰大敗之賊乃退不敢逼	-13.1731
雄樂業尚當横行天下為漢家除殘去穢	-13.1731
靈公以為司馬河曲之役趙孟使人以其	-13.1731
青色如牛頭觸人	-13.1731
領戰隊作雌雄契	-13.1731
類是也如止以死戰為期茍敵兵益壯我	-13.1731
馳電發俄頃之際事	-13.1731
城守宛沛公引兵過而西張良	-13.1732
之國庶免於難隨侯懼而脩政楚不敢伐	-13.1732
方授楚楚之羸其誘我也君何急焉君姑	-13.1732
㑹尚遣髙藩將兵屯河上絶水道典與諸	-13.1732
三年孫權揚聲欲向合肥征東將軍滿寵	-13.1732
不介意及戰酣圜發精兵擊之遂擒延孝	-13.1732
世充夜遣二百餘騎潛入北山伏谿谷中	-13.1732
亦以為然遂北渡河攻藩破之水道得通	-13.1732
人不用景言乘勝深入魏人以紹宗之言	-13.1732
令撤圍緩守賊衆分散遂	-13.1732
偽退以罷吾兵而倒還乘虛掩不備也表	-13.1732
兒使前汝可擊其背	-13.1732
兵三萬討之至河間城南營於七里井建	-13.1732
及陳大夫舍胡沈之囚使奔許與蔡	-13.1732
吳之罪人或奔或止三國亂吳師擊之	-13.1732
奔關東叡驅兵邀之姚萇	-13.1732
宋檀祗為廣陵相亡命司馬國	-13.1732
宵濟人奔馬馳遲明而薄密密出兵應之	-13.1732
左哨百户一員右哨千户一員	-13.1732
希烈見之曰盲宰相使汝當我何待我	-13.1732
戰勢不過竒正竒正之變不可勝窮	-13.1732
拒之者即入縱火軍大驚潰	-13.1732
時密新得志於化及有輕世充之心不設	-13.1732
曰藩軍少甲而恃水有懈怠之心擊之必	-13.1732
李密攻宇文化及還其勁兵良馬多死隋	-13.1732
毁譽並興壅塞主聰各阿所私令主失忠	-13.1732
痩夫用兵之道先利速進不利速退吾	-13.1732
與舟師泝江而上賊以老弱守	-13.1732
藁上又施皮笆所以禦	-13.1732
討之昭請以五千人行段永曰此賊無城	-13.1732
遺悉簿藏官不入家家常貧匱雖殊類咸	-13.1732
陳兵與世充相對東接月城西至石窟	-13.1732
䝉既定長沙當之零陵	-13.1732
一也掠城中貲以趨山林二也用此	-13.1732
三宫天目大炅主算三十三	-13.1732
三局丙午戊午庚午壬午甲午太乙在	-13.1732
三局丙辰戊辰庚辰壬辰甲辰太乙在	-13.1732
不戰且慮師老思欲旋斾	-13.1732
不誅豪强何以成軍之威	-13.1732
主大將二宫發主叅將六宫	-13.1732
乃於軍中選壯士二人深目虬鬚貌如沙	-13.1732
之勢第四第五為勝敗之形	-13.1732
之可破也岱不從遂與戰果為所殺	-13.1732
九局壬戌甲戌丙戌戊戌庚戌太乙在	-13.1732
亂不知所之奈何武曰千人操旗	-13.1732
二十局癸未乙未丁未己未辛未太乙在	-13.1732
二宫天目太陽主算十孤陽主大將一宫	-13.1732
五十人三萬六百五十人騎一萬五千人	-13.1732
人拒黄石彭乃多張疑兵使	-13.1732
今日拒之事更不順且將軍大勢可以拒	-13.1732
以信為欺以欺為信以忠為叛以叛為忠	-13.1732
以扼彈筝峽口昌命	-13.1732
作小旗數十枚有呼索即大書物名貼旗	-13.1732
入謁之皆膝行股戰莫敢仰視終立功焉	-13.1732
入邊以周亞夫軍細栁營帝至軍吏被甲	-13.1732
八局辛亥癸亥乙亥丁亥己亥太乙在	-13.1732
六局己丑辛丑癸丑乙丑丁丑太乙在	-13.1732
兵方憂逺地牧守不得其人今果有是當	-13.1732
兵法曰䇿之而知得失之計候之而知動	-13.1732
其實難用今將軍欲舉倦	-13.1732
兼仗父兄遺烈割	-13.1732
利以彊弩叢射飛石併擊斃之則軍聲阻	-13.1732
勝聞賊備東北竒兵東北伏兵利戌亥時	-13.1732
十一局甲申丙申戊申庚申壬申太乙在	-13.1732
十三局丙子戊子庚子壬子甲子太乙在	-13.1732
十里其君子休小人為食我行三十里	-13.1732
即悉其軍西邀彭彭乃潛兵渡沔水	-13.1732
叅將不出中宫計神巳此局主	-13.1732
召上將數人語其事時親	-13.1732
和徳客算十八客大將八宫與主叅將	-13.1732
四宫天目陰徳主算十二短主大將	-13.1732
壟	-13.1732
大將繕理舟師希烈懼慎為曹王所任乃	-13.1732
大軍之誘必不敢擊我廣令諸	-13.1732
太陽辰迫主算三十七長和主大將七宫	-13.1732
始至鍾陵大集將吏得慎而壯之	-13.1732
安得不敗此雖無罪違軍法也即斬之以	-13.1732
宗戒之曰北人嘗以西戎為小蕃必輕敵	-13.1732
將至相禁不復得走敬	-13.1732
山都乃縱所獲虜令得逃亡歸以告豐	-13.1732
幕可伐栢為菴示有處所	-13.1732
幟寂若無人彼若使人觀察則告之曰自	-13.1732
年吳公吮其父父戰不	-13.1732
征荆州劉琮降得其水軍及步	-13.1732
得入掩我不備但打五更賊懼曉必逸賊	-13.1732
必還請撃之公弗許自雩門竊出䝉	-13.1732
怪之卒不敢擊向夜半時胡兵以	-13.1732
慮腹背之患者須急攻之以速其利如我	-13.1732
所不測虜見吾竈日	-13.1732
掠以充資費恐瑱等知其	-13.1732
探馬數内騎軍及無地分兵士共四萬五	-13.1732
收軍還石頭安都夜令士卒密營禦敵之	-13.1732
攻城北城西諸營賊衆大潰於是奔散	-13.1732
未成可一鼔而滅進	-13.1732
杜客大將㕘將不出中宫計神午此局	-13.1732
東海王對曰妖巫相	-13.1732
柴薪兩束一聚相去十	-13.1732
此類也夫出師有主客用兵有	-13.1732
水用足下不近水而溝防省因天財就地	-13.1732
為竒兵謂之前陣按風后握竒圖曰	-13.1732
營田使躬率士衆力耕三年軍食豐	-13.1732
獵於長洲之苑將士聞之恐權	-13.1732
用也但臨時觀其用何如	-13.1732
繡使賤其菽粟令空其倉廪遺之美好使	-13.1732
義者不為不仁者死智者不為闇主謀	-13.1732
羸師誘之伏精兵以擊之必在吾掌中矣	-13.1732
習之法為戰敵之陣不亦謬乎是大不然	-13.1732
者長江也劉表治水軍	-13.1732
而出敵人若疾擊我則前鬭後拓左右	-13.1732
言當擊甚與孤合權	-13.1732
賊令姚海率勁兵二萬圍豐攻城甚急	-13.1732
賊先所識乃使二人各	-13.1732
質單騎而歸愬愬以客禮待之田進	-13.1732
走歸滑臺釗攜妻子率數百騎	-13.1732
軍楊翕與臧宫拒延岑自分兵浮	-13.1732
進兵至夷陵銑始懼召兵江南果不能至	-13.1732
道辰迫主算三十九主大將九宫内迫主	-13.1732
遺書孫權云今將水軍八十萬當與將軍	-13.1732
餘賊韓忠據宛乞降不許	-13.1732
間者也其六曰敵有内寵令心腹者以金	-13.1734
前後獵其左右翼而擊之敵人必懼敵人	-13.1734
吾騎翼而勿去或馳而往或馳而來	-13.1734
欽定四庫全書江南經畧卷八	-13.1734
頓以問羣臣皆曰千里馬國之	-13.1734
􁨓	-13.1734
古者以蠻夷攻蠻夷則强弱相當是以濵	-13.1734
握機制勝作為陣圖故八其陣所以定位	-13.1734
春申夏亥秋寅冬巳	-13.1734
為之受三升冬月可	-13.1734
煖食刀子錯子鉗子鑚子藥袋	-13.1734
積省縣官之費減轉餉之勞多	-13.1734
酋豪大姓使之攻擊比用華人其利十倍	-13.1734
䂎	-13.1734
出一戰隊令取虞候進止防有賊至便用	-13.1734
衡抗於外軸布於内風雲	-13.1734
隋將段文振征吐谷渾出伊吾	-13.1734
之謂禆將趙行實曰但得老賊在東别將	-13.1734
兵三千屯於趙州初梁	-13.1734
少師歸請追楚師隨侯將許之	-13.1734
按旗不伏舉旗不興開旗不接得令不	-13.1734
故主察異言乃覩其萌主聘儒賢奸雄乃	-13.1734
楚大饑庸人率羣蠻以	-13.1734
江隂圌山二把總兵船悉聽調度	-13.1734
汭自豫章與楚夾漢	-13.1734
洛屠陷塢壁所在為患孝武遣京畿都督	-13.1734
浮棚棚上壓以磚石天晴加	-13.1734
石灰數包於上其内用繩	-13.1734
祭毗沙門天王文第	-13.1734
籍以紙為之於是失其制矣	-13.1734
西來尚可從容畫	-13.1734
輜重併近前頭戰鋒隊相去十步下一隊	-13.1734
遇寇突擊諸堡互相應援	-13.1734
間有内間有反間有死間有生間	-13.1734
一人三合糯米三十七石五斗菜一人五	-13.1734
一十五石六斗二升五合餻	-13.1734
上下不親敵攻其外民盜其内是謂必潰	-13.1734
不可天子以髙昌驕慢無禮使吾恭行天	-13.1734
不能用間非仁義不能使間	-13.1734
不虞善之大者也莒恃其陋而不	-13.1734
人後三人彼此背後相靠見扇拍時一	-13.1734
以為然所備必緩即隂令輕捷者	-13.1734
來牧多為竒陣張左右翼擊之破殺匈奴	-13.1734
光東道既絶乃率衆出降燧	-13.1734
八百人自行酒飲之勅不得	-13.1734
則減竈合營則偃旗	-13.1734
城裏從下斜築向上至城	-13.1734
城郭浹辰之間而楚克其三都無備也夫	-13.1734
墓之間非問罪之師也於是	-13.1734
外垠向下陡峻次於城裏脚下取土	-13.1734
始擊將和徳宫擊客算三十	-13.1734
從來城守攻破者十	-13.1734
悉遣從軍君集遂刋木填隍推撞車撞其	-13.1734
戰是以知勝宋建武初魏圍鍾離張欣泰	-13.1734
抗嘗病祜饋之藥抗服之無疑	-13.1734
擾亂至於帳下亞夫堅	-13.1734
改為衞治軍器局在	-13.1734
故也君子曰恃陋而不備罪之大者也備	-13.1734
斤餜饠一人一枚一萬二千五百枚一斗	-13.1734
曽遂大潰殺千餘人遂定漢沔隋	-13.1734
未成列而兩軍合戰其伏兵蔽山而上	-13.1734
欲退數挑戰不出夜軍中驚内相攻	-13.1734
每更一十刻四十八分每㸃二刻九分	-13.1734
每隊給一旗行則引隊住則立於隊前	-13.1734
氊被用障抛石城上守陴者不復得立遂	-13.1734
氣盡於堅城士卒饑於半菽此下	-13.1734
洞子於闕樓子處兩頭連珠並進不終日	-13.1734
漢制有尺籍伍符後世	-13.1734
火可發於外無待於内以時發之	-13.1734
無位而尊威無不震葛藟相連種	-13.1734
無約而請和者謀也奔走而陳兵者期也	-13.1734
牝牡衝方罘罝車輪	-13.1734
瑤	-13.1734
疑其衆無依可震而走士輕其將而有歸	-13.1734
百騎出武牢東二十餘里	-13.1734
石雖愈倍於前亦必無害次於燒了城樓	-13.1734
立恩奪在位權侵侮下民國内	-13.1734
總管則立四旗以上行則前引	-13.1734
臨時分置無定數拒後陣	-13.1734
自率敢死二千人襲擊世雄㑹雲霧晝晦	-13.1734
軍以案其後列門具	-13.1734
軍次後軍步軍次左軍馬軍次左軍步軍	-13.1734
輕重與挑木相稱賊來攀援則其	-13.1734
進道易退道難可來而前	-13.1734
闥衆不得渡斬首萬餘級溺死者數千人	-13.1734
難為敵也進不能戰退無所資二萬餘人	-13.1734
騎夾攻大破之操謂荀彧曰虜遏吾歸師	-13.1734
㸃二刻後六日改第十二箭晝	-13.1734
一城一壕可不日而成假	-13.1734
一局甲辰丙辰戊辰庚辰壬辰太乙在	-13.1734
七局庚子壬子甲子丙子戊子太乙在	-13.1734
三宫天目和徳囚主算三	-13.1734
三萬三千六百三十六石七斗四升七合	-13.1734
下與眼等以水注之三池浮木齊起	-13.1734
不出中宫始擊將太陽客算三十四	-13.1734
不可與戰則必固守不出敵攻我城壘掠	-13.1734
不敢進又遣將縁河截其後秋軍乃退艾	-13.1734
不用箆籬只於近下留品字方	-13.1734
不足為慮若選募驍果立謀主	-13.1734
且約容一軍人馬如築於閒時須稍寛闊	-13.1734
中一處虚六十八步虚實都厚二百四步	-13.1734
之可以有功若欲野戰則必因勢依險設	-13.1734
之屬不煩兵服矣宣帝從之果如其	-13.1734
之恐不能傷害適使先零得施	-13.1734
之有若不去栢谷事同痼疾計彼	-13.1734
之私相過從者量城上一步置一甲士十	-13.1734
之者若彼我勢均外有	-13.1734
之間俗習水戰故吳人以舟檝為輿馬以	-13.1734
也一是海濱至内地必由小港出浦	-13.1734
事而舉其術有八焉其一曰兩國相拒兵	-13.1734
二不當一曲道相伏險	-13.1734
二宫天目吕申主算十四	-13.1734
二心不亦可乎鼓人告食竭力盡而後取	-13.1734
二里半北至界首二十里界首北至契丹	-13.1734
于仲文討之迥將檀讓屯成武	-13.1734
交而勿去此敗謀之法	-13.1734
人大小將挾客大將客大小將又挾主	-13.1734
人必至不如備之乃為陣	-13.1734
人至見荆有備而返左	-13.1734
介子因率其吏士共誅斬匈奴使者還奏	-13.1734
令士卒羣聚殺殺勇不可當	-13.1734
以數相持敵若執數我先動則	-13.1734
以為榮也楊干為戮何辱如之必殺魏	-13.1734
佐宴飲有軍校謀變	-13.1734
使一員斗級二名總儲本府各縣	-13.1734
保長社賊引大衆圍城嵩兵少軍中皆恐	-13.1734
信乃乘王車黄屋左纛曰食盡漢王降楚	-13.1734
倚相謂大將子期曰雨十日夜甲輯兵聚	-13.1734
傷未收而棄之不惠也不待期而薄人於	-13.1734
先令人登髙樹屋望之次四野伏殺	-13.1734
先零必助之今虜馬肥糧食方饒	-13.1734
光自固攻之曠日持乆所傷必	-13.1734
免於罪矣晉侯之弟楊干亂行於曲梁魏	-13.1734
八局辛酉癸酉乙酉丁酉己酉太乙在	-13.1734
公孫述述使其將延岑等悉兵拒廣漢及	-13.1734
六石一月一百八十七石五斗一年二千	-13.1734
兵法曰疾戰則存不戰則亡為死地	-13.1734
其城因拓地數百里下城寨數	-13.1734
其境詐為疲困畏懼	-13.1734
凌實者不可使不應機正者不可使不知	-13.1734
利用等發兵討之初奏	-13.1734
則併力偏攻凡料敵戰地若便利則守不	-13.1734
則有所顧戀而無退縮逃	-13.1734
前漢郅都為鴈門太守匈奴素聞郅都	-13.1734
前設伏伺望敵人打糧出兵多則退之少	-13.1734
副使王崇古僉事董邦政	-13.1734
力戰或生守隅則死	-13.1734
勒兵駐營南坂下使登壘視之曰可五六	-13.1734
勝聞賊備西南奇兵西南伏兵利辰巳時	-13.1734
十七局庚辰壬辰甲辰丙辰戊辰太乙在	-13.1734
十九局壬寅甲寅丙寅戊寅庚寅太乙在	-13.1734
十五局戊子庚子壬子甲子丙子太乙在	-13.1734
十八局辛丑癸丑乙丑丁丑己丑太乙在	-13.1734
十八局辛巳癸巳乙巳丁巳己巳太乙在	-13.1734
十六石一年四百三十二石牛	-13.1734
十四局丁巳己巳辛巳癸巳乙巳太乙在	-13.1734
卒一人居地廣縱各二步十人為	-13.1734
卒不滿三萬人兆等設圍不合歡	-13.1734
厚加殯斂景尚子弟迎	-13.1734
厚而不能使愛而不能令亂而不能	-13.1734
去一利百人乃慕澤去一利萬政乃不亂	-13.1734
又三月而後已恐傷人之	-13.1734
口説要如何也不許依從	-13.1734
可以即戰何謂必守許洞曰盡我力焉援	-13.1734
可守之利害凡守城之道有五敗一曰壯	-13.1734
吏曰兵有竒變不在衆寡今賊依草結營	-13.1734
周末荆人伐陳呉救之軍行三十里	-13.1734
和主大將二宫發主㕘將六宫格	-13.1734
因其勢而利導之兵法百里趨利者蹶	-13.1734
因别選良將領二萬人兵殿其後倚之捍	-13.1734
國初原屬甪頭巡司	-13.1734
圍原命三日之糧原不降命去之諜出	-13.1734
地之用矣大兵將動先料其强弱觀其雲	-13.1734
地之用矣致兵敵境凡屬守備者順	-13.1734
地深入敵境綿亘可布三五十里不知敵	-13.1734
城上開門使人入得大城直行不得須於	-13.1734
士三千戍陽劉城緣河數十里列柵相望	-13.1734
夏口保為將軍破之權曰	-13.1734
大將客大小將挾主㕘將主	-13.1734
大軍次大雷賊方江而下	-13.1734
女頭中掛搭箆籬惟可以	-13.1734
好惡不愆城可獲而民知義所	-13.1734
如常法江海之中戰船也	-13.1734
如飛鷗乗人之不及	-13.1734
始謀於軍者必有後機之困矣設能	-13.1734
子五頃麻種子五頃蕎	-13.1734
守地四千尺積尺得六百六十	-13.1734
安之否則夷之資食所獲必	-13.1734
宋將宗慤征林邑逕入象浦	-13.1734
客大將九宫囚客叅將七宫發計神	-13.1734
客大將九宫與主叅將關客叅將七宫	-13.1734
宫發計神酉此局太乙助客客算長和大	-13.1734
宫與主叅將闗計神	-13.1734
小功不賞則大功不立	-13.1734
小於池箱厚三分上建立齒髙八分	-13.1734
屯鷄棲原宇文盛守汾水	-13.1734
左右偏將軍居壘門禁出入外有遊軍	-13.1734
布帛芻草蘆葦茅荻石灰沙土	-13.1734
帝曰此不能離窟穴枉自棄耳不久遂平	-13.1734
師分以禦之越以三軍潛涉當吳中軍而	-13.1734
常川操練土客兵五百三員名戰馬二十	-13.1734
庭光復拜燧乃諭之曰公等皆朔方將士	-13.1734
彼若見之必不攻而自退俗諺云求人不	-13.1734
後周將賀若敦率騎六千渡江取陳	-13.1734
後漢光武初馮異與鄧禹率車騎	-13.1734
得為心之主長生安樂富貴尊榮聲色喜	-13.1734
得走馬三令五申之後擊	-13.1734
必以死從此則指日刻期天下必定敬業	-13.1734
怒失節且戒曰每更籌	-13.1734
戰則勝負未决欲攻則利害難知自非整	-13.1734
戰已還州矣于時敵騎塞	-13.1734
戰者三外無援兵一可戰也人勁馬壯	-13.1734
所欲殺必先知其守將左右謁者門者	-13.1734
手先絡膊將刀棒自	-13.1734
投之無所往死且不北	-13.1734
抵天狗犯弧矢將有千里之行使星出	-13.1734
振天下此將軍之所長也然而衆勞卒罷	-13.1734
揣知情狀有潛匿溪谷欲為間隙者果登	-13.1734
搃	-13.1734
摧鋒陷敵李希烈意欲	-13.1734
撫士春秋時楚師伐宋圍蕭蕭潰	-13.1734
操雖托名漢相其實漢賊將軍以神武雄	-13.1734
攻之晟遣李演孟華以精卒救之中軍	-13.1734
放猛火油賊雲梯倚城則引	-13.1734
新得志謂其衆可恃恃衆必驕且河北人	-13.1734
於城濮晉中軍風於澤亡大斾之左旃祁	-13.1734
明日悉陳其衆令從東郭門出北郭門入	-13.1734
易衣服迴轉數周羌不知其數	-13.1734
智興復擊敗之於賊壁獲	-13.1734
曰糧寡而人衆四曰蓄貨積於外五曰豪	-13.1734
更畨而出五畨而遍次	-13.1734
會諸將畢燒之曰令反側子自安	-13.1734
柔初附將帥有欲進譎詐之策者	-13.1734
欲臨射城中侃曰車髙塹虛彼來必倒可	-13.1734
歡勒兵南出以髙敖曹為前鋒稍逼京師	-13.1734
步兵一人占地兩步騎兵一人占地四步	-13.1734
每更九刻一十二分每㸃一刻五十分	-13.1734
每更九刻二十四分每㸃一刻五十二分	-13.1734
每更九刻每㸃一刻四十八分後六日改	-13.1734
求戰李晟謂諸將曰吾恐賊不出今	-13.1734
洒灼敵人颺石灰糠	-13.1734
流去豈復有求生之	-13.1734
海軍校陳進率所部	-13.1734
渠南來注浦宋師	-13.1734
漸漸入軍名曰天狗	-13.1734
潛襲絳州前軍不利晉軍恃勢而攻臨汾	-13.1734
潞車駕次滎陽西京留守向拱朝于行在	-13.1734
為一軍以供飲飼放牧樵採三軍無得相	-13.1734
為四正龍虎鳥蛇為四竒乾坤艮巽為	-13.1734
為虎翼天地後衝為飛龍風為蛇蟠雲為	-13.1734
焚子城南門元濟城上請罪進	-13.1734
無勇也乃止秦師夜遁晉	-13.1734
營四道俱引營相去各一里不得交雜聞	-13.1734
率由勢爾夫水之柔弱方圓任性而能蹶	-13.1734
率衆十萬來冦范陽萬均曰衆寡不敵今	-13.1734
玉山砦如昔帖浪等	-13.1734
用兵無益宜割三鎮以賂之殊不知勢之	-13.1734
用寡固用衆治寡利煩衆利正	-13.1734
田印徴糧貯倉候過	-13.1734
當㡬歩卒㡬歩卒當一	-13.1734
當人僖宗在蜀有賊首孫喜者聚徒數千	-13.1734
發箭弓手去賊六十步	-13.1734
發騎二萬受其處分雲起分為二十	-13.1734
百二十五隊每隊并隊眼占地五十歩	-13.1734
石則難以遮隔若改作平頭	-13.1734
種一屯六十丁一丁給米二升一	-13.1734
立其中必有悔欲亡者但外圍急不得	-13.1734
笆城中立望樓籍民中壯男為一軍以充	-13.1734
等議攻赤眉異曰賊餘衆尚多可稍	-13.1734
算和大將發利爲客見陣利先動出軍宜	-13.1734
管的兵無有世間有無	-13.1734
累繇十數年不二三嵗而已先誅先零則	-13.1734
絶敵所恃豈直深入然後用掠乎如是則	-13.1734
繩梯而下之乃檻送京師	-13.1734
繫每軍營令定一官專	-13.1734
者乃間道也右水陸可通之道凡	-13.1734
者若登者漸多則禦以狼牙	-13.1734
而敗南燕是也所謂出其不意者鄧艾由	-13.1734
聞當時敵在城外諸門多閉有以土	-13.1734
聲而行聞角聲而止自非公使	-13.1734
肢體相隨骨節相救天道自然其巧無間	-13.1734
能竭智用謀萬變不極則無死地之憂矣	-13.1734
自太行下河内隋將史祥討之軍於河	-13.1734
自率百騎殿於軍後令之曰聞	-13.1734
臺以竭其財役其力易其性使	-13.1734
舟側曰我呼餘皇則對	-13.1734
船分畨出哨無事則耕作操練遇警則一	-13.1734
艦南北與臯兵相去直蔡山三百餘里臯	-13.1734
萬今何其易也朝晟曰鹽州之役諸軍蕃	-13.1734
落十餘里先遣都支所親問其安否外示	-13.1734
葛榮遇衆寡非敵葛榮聞之喜乃令其衆	-13.1734
葵所圍詔義臣救之義臣自以兵少悉取	-13.1734
薄西岸岸上軍先備火具焚之大敗循	-13.1734
衆曰有病者殺而焚之三軍咸稱不病	-13.1734
衆許之使長鬛者三人	-13.1734
行必魚貫立必鴈行長以參短短以參長	-13.1734
行柘林之西獨有下横涇荒巖河	-13.1734
見利不可就之凡背山戰宜藏軍少誘之	-13.1734
觀望指言盖降盖放	-13.1734
解鞍放馬是時輜重就道諸將以為敵騎	-13.1734
計朱泚姚令言遁走其餘兇黨相率來降	-13.1734
計神申此局客算	-13.1734
諸堡僅可遏賊於南吳淞	-13.1734
諸將莫肯攻圍韶曰汾北河東世為國	-13.1734
謂田忌曰彼三晉之兵素皆悍勇而輕齊	-13.1734
軍中候有一人言急救武安	-13.1734
軍攻登於康琦城登使人求救於曹公而	-13.1734
辨隋軍大潰自相騰藉死者萬餘世雄以	-13.1734
逃死於四方而為之謀主以害楚國不可	-13.1734
逼棄營而走賊至競飲毒作王以輕騎縱	-13.1734
遽闔乎又或閉城太早止通一二門出入	-13.1734
郡克之進圍安陸仲禮聞	-13.1734
鈞神弩所至莫不摧陷裕自於中流蹙之	-13.1734
鋒願以梁委之絶其	-13.1734
開各門門外盤詰而兵衛設於門下方善	-13.1734
閣是也此十有六者皆前世已然之效也	-13.1734
閽	-13.1734
隋末稽胡五萬餘人掠宜春竇軌討之	-13.1734
隨處積檑木檑石鎗斧及他短兵外立弩	-13.1734
雖有救山道險阻非行兵之地	-13.1734
雙弓牀弩前後各施一弓以	-13.1734
難解處増字發明之耳	-13.1734
頭牛日給豆五升十月一日	-13.1734
風不敢進矣䇿先鋒陣置陣在先鋒陣後	-13.1734
馬歩軍都部署以下兵官以州為治	-13.1734
馹	-13.1734
騎有頃復白騎稍多	-13.1734
魏明帝自征蜀至長安	-13.1734
齊賢曰敵知美之來	-13.1734
𠂻	-13.1734
𦕈目視之三齒齊平則為天	-13.1734
閔	-13.1735
吾三軍而被吾甲兵以武臨之彼則懼而	-13.1735
敗軍之後兵甲寡弱燧乃悉召將吏	-13.1735
每半月一次輪畨更換哨守	-13.1735
汾水環城多為池沼植	-13.1735
福山江隂等處有警隨賊向往截殺	-13.1735
餘人直趨南門斷賊歸路遂入其壕内賊	-13.1735
馬燧鎮太原燧以晉陽王業所起	-13.1735
不保井陘終擒於韓信慕容超不固大	-13.1735
之罪崇文以康敗軍失守斬之	-13.1735
吳子以罪人三千先犯胡沈與陳	-13.1735
戰紹宗以梁人剽悍恐其衆不能支	-13.1735
澄歸梁圍彭城澄遣慕容紹宗討之	-13.1735
登北原乘髙而下馳壓之密營遂亂無	-13.1735
百姓死守凡三攻殘敵之衆萬人而竟不	-13.1735
節度使李康及崇文克梓州乃歸康求雪	-13.1735
七宫天目吕申主算十六	-13.1735
三敗勢攻之也以此言之是故多勝者非	-13.1735
不分兵鎮守得賊城近境者則固守以積	-13.1735
不利為主宜固守聞賊備東南第	-13.1735
不能以變用兵雖得地利無益也	-13.1735
主叅將九宫與客大將關始擊將大	-13.1735
之燕昭王卒惠王與樂毅有隙單聞之乃	-13.1735
之而主上以萬乘之重不能渡河決戰方	-13.1735
九局壬子甲子丙子戊子庚子太乙在	-13.1735
也令贇朝夕至金陵之圍	-13.1735
二十九局壬辰甲辰丙辰戊辰庚辰	-13.1735
二局乙酉丁酉己酉辛酉癸酉太乙在	-13.1735
二百騎馳下峻坂殺一賊將遂衝㫁其軍	-13.1735
五代黄文靖佐葛從周	-13.1735
五十五局戊午庚午壬午甲午丙午	-13.1735
五萬連大艦沿流而下將焚采石浮梁直	-13.1735
佚後處戰地而趨戰者勞	-13.1735
佯北俟逐兵過半則舉號發伏衝擊之反	-13.1735
使人趣召相見都支先	-13.1735
兵來迎衆多行速必憚追我孫	-13.1735
内迫客㕘將一宫外迫計神	-13.1735
利一人斬數百級獲馬千餘器甲甚衆	-13.1735
勝兵先勝而後求戰敗兵先戰而後求勝	-13.1735
十五局戊申庚申壬申甲申丙申太乙在	-13.1735
十八局辛卯癸卯乙卯丁卯己卯太乙在	-13.1735
十六局己酉辛酉癸酉乙酉丁酉太乙在	-13.1735
反間於燕宣言曰齊王已死城之不	-13.1735
合之此所謂量我之衆寡者也又城有所	-13.1735
君子在野小人在位急	-13.1735
命壯勇所當衝突榮身自	-13.1735
咸安時人服其處分	-13.1735
咸離陣而觀獨晃營齊整將士駐陣不動	-13.1735
四十局癸卯乙卯丁卯己卯辛卯太乙在	-13.1735
四面當選腹心勁勇者各將	-13.1735
堅兵衆欲留我師外援且至則表裏受敵	-13.1735
士卒拒之虜衆盛不敵㑹日暮令士各交	-13.1735
士卒死傷帝召公卿諸侯問方畧明帝時	-13.1735
夜奄至此烏合之衆以箠梃相	-13.1735
大將發利爲主見陣利後動出軍宜正	-13.1735
大神主算十六長和主大將六宫内迫主	-13.1735
奏至太宗嘉之優詔褒美	-13.1735
客勝聞賊備正西奇兵正西伏兵利	-13.1735
對楚人從而殺之楚師亂吳	-13.1735
少而人多則圍而勿攻	-13.1735
州總管將之任高祖問以備邊之策世讓	-13.1735
州視事纔數日偽軍校上官進嘯聚士卒	-13.1735
左右三軍别長史二人振鐸分循以警衆	-13.1735
師襲其後逗留不進移檄諸軍生擒令贇	-13.1735
弩勿發而潛發小弩羌以為矢	-13.1735
役與之禮食使佐新軍司馬穰苴田完之	-13.1735
後漢初張歩據齊地漢將耿弇	-13.1735
徙營就西津為牛皮船百餘艘載疑兵列	-13.1735
必無固志正可持重以鎮之待旦自潰矣	-13.1735
掩擊大敗之擒其北大王之子一人帳前	-13.1735
撃之何徃不克建德列陣自	-13.1735
擊鼓有司舉旗士衆皆起騎徒皆行及表	-13.1735
操者與此案同果有赤壁之	-13.1735
攻者故兵向城必先使諜者求知城中之	-13.1735
故居則營壘辦行則陣隊成此其大較也	-13.1735
數不中程即杖之雖甚風雨不停其役衆	-13.1735
數日行八九百里曉兵者所忌正須乘便	-13.1735
時烏重𦙍移鎮滄景以河陽	-13.1735
曰徐將軍可謂有周亞夫之風矣	-13.1735
有不勝其忿而蟻附之士卒被傷城終不	-13.1735
朔州總管煬帝即位漢王諒作亂	-13.1735
末戰馬蕃息賴其用焉	-13.1735
村民數萬人夜攻州城瓚曰賊	-13.1735
東南奇兵東南伏兵利申酉戌時	-13.1735
械三月而後成踊土距	-13.1735
此所謂或攻或圍者凡欲攻城備攻	-13.1735
步兵登舟順流東下不日	-13.1735
殊樓船上建樓三重列女牆戰格	-13.1735
水設伏候其走路虜果奔因掩擊大破之	-13.1735
河間南界澤中悉㧞諸城	-13.1735
漢王請和割滎陽以西者	-13.1735
火虜遥見火多謂漢救兵至待朝將退范	-13.1735
炎亘天而起者火之勢也薪木	-13.1735
為將軍捍晉燕之師苴曰臣素卑賤君擢	-13.1735
無猜間李光顔節制陳許賊悉以精	-13.1735
田忌率兵伐魏魏將龎涓聞之釋韓而歸	-13.1735
皆謂用謀以降敵必不得已始修車櫓具	-13.1735
盎	-13.1735
相恐動詡計賊當退乃潛遣五百餘人	-13.1735
第一陣步兵七部騎兵左右各二部	-13.1735
第三陣步兵七部騎兵左右各一部	-13.1735
第四陣與第二陣同法左右後校並同	-13.1735
簡羸馬驢數千置於軍後既而率衆東過	-13.1735
精騎伏於城側待其半渡	-13.1735
肴	-13.1735
與賊約期㑹戰使壯士變服與赤眉同伏	-13.1735
與離皆不離中央之地左廂陽	-13.1735
蔡山賊還救間一日方至大破之因進	-13.1735
衆廵城密令促其更籌未夜分擊五	-13.1735
賊以為謹也皆争逐之謹乃率餘軍擊追	-13.1735
賊大懼疑有伏兵自相殺者萬計	-13.1735
路王師衂於君子館有詔并之全軍不得	-13.1735
身先之衆有勇之用矣期應不到殺其所	-13.1735
軍散營農於岐山之北百里	-13.1735
道側明日赤眉使萬人攻異前部異	-13.1735
遺燕將曰即墨即降願無	-13.1735
銳陣舉赤旗雲氣從東來客勝聞賊備	-13.1735
鍾城人聞祝阿已潰大恐懼遂空壁	-13.1735
黨得千餘人並赦其罪令復業郡境以安	-13.1735
齊大夫析文子曰吾知子敢匿情乎魯人	-13.1735
一尺二寸霜降九月中夜	-13.1737
咳	-13.1737
煥	-13.1737
自消散此氣所發之方當有	-13.1737
前左右建立五方旗五面各具方色大將	-13.1737
纛以主之門旗二面色紅八幅大將軍牙	-13.1737
者本乎旗號風雲者本乎旛名龍虎鳥蛇	-13.1737
古有黄連百竹八擔雙	-13.1737
南方暑濕谿谷毒	-13.1737
反間出甘言重幣招致使來則入吾計中	-13.1737
堅惟用標槍旁牌飛刀環刀木弩以為兵	-13.1737
於霜雪沙磧不毛之地又其性不善攻攻	-13.1737
被繒纊北方殺氣早降手足皸瘃不能渡	-13.1737
因天時燥旱營舍茅竹積芻穗	-13.1737
存不攻以備攻備備存不攻釋實而攻虚	-13.1737
幕一萬人以六千人守地九千六百尺積	-13.1737
春寅夏巳秋申冬亥	-13.1737
營中間使容一營如地	-13.1737
三爿沙登舟沙營前沙劉家河許浦嘴下	-13.1737
乃密出盧龍塞直指單于	-13.1737
使敵欲登城縱令登城已登即死	-13.1737
嬪	-13.1737
小國離楚之利也少師侈請羸師以張之	-13.1737
巒	-13.1737
方陣正而厚圓陣隨而取正厚者力併故	-13.1737
於楚子曰吾不得志於漢東也我則使然	-13.1737
根重複彌縫其闕内	-13.1737
濬崑山縣東南夏駕浦掣吳淞	-13.1737
瓦不仁其臣莫有死志先伐之其卒必	-13.1737
百户二員領泊褚家沙更	-13.1737
而薄之大敗之後魏侯莫陳崇從賀	-13.1737
一則治力一則前拒一則束部伍	-13.1737
亦莫能及若能究心則二百七十	-13.1737
六纛從首足間過兵馬六軍從之而	-13.1737
兵伺隙而進卿以為何如鍾曰不然前揚	-13.1737
劉鍾曰天方暑熱賊今固險攻之難	-13.1737
坐守圍吏大獸公之小獸私之以觀進止	-13.1737
執雙刀如鳥翅飛開殺聲不住一躍前進	-13.1737
堊	-13.1737
大軍以應之其術三也兩陣	-13.1737
已破膽矣只可因其恐懼而攻之勢當必	-13.1737
平原廣野且行且戰	-13.1737
役不再籍糧不三載	-13.1737
從是而東超亦於此西歸可須夜鼓而發	-13.1737
懸若賊加梯棚上則棚軟不	-13.1737
捉敵一人立於六纛之前祝曰	-13.1737
於墓師遷焉曹人	-13.1737
於要路山谷間牧馬兩	-13.1737
晉侯圍曹門焉多死	-13.1737
為圍中騎其步卒槍幡守圍有漏獸	-13.1737
烽率知文書符牒	-13.1737
統頭亦别給異色旗擬臨	-13.1737
茍非連車以制之則何以禦其奔突	-13.1737
藻	-13.1737
該㕘將仍置立循環文簿	-13.1737
譙詵等屯彭模夾水為城以拒晉軍諸	-13.1737
首横路之左足横路之右取血以釁皷	-13.1737
􁦍	-13.1737
㑹戰先以輕兵挑之戰良久乃縱驍騎夾	-13.1737
一可守也人士勁勇芻粟豐備二可守也	-13.1737
一是各處海壖多灘塗閣淺	-13.1737
一絶一敗再絶再敗三絶三敗在東	-13.1737
七國同役而不同心帥賤而不	-13.1737
三千人馳擊之艾左右大擾或勸艾	-13.1737
不勝乃整軍將攻北城光弼以兵	-13.1737
不勝以數千人委之單于聞之大	-13.1737
不能兼利故晁錯曰丈五之溝漸車之水	-13.1737
不能至併兵急攻詡於是使	-13.1737
中軍三隊餘六軍各二隊通	-13.1737
主將即向前令兵兩手如飛鳥	-13.1737
主挾計神午此局太乙	-13.1737
之心必以懼勿以常探好財之心必以	-13.1737
之絶其糧道積月餘賊食盡夜遁	-13.1737
之重其責任優其事權隆其體貎嚴其賞	-13.1737
也子無重寡人之過敢以為請晉侯以魏	-13.1737
五全一曰城隍修二曰器械具三曰人少	-13.1737
亞父勸項王急攻滎陽漢王患之	-13.1737
仍定一虞侯果毅專巡諸	-13.1737
以及楊干無所逃罪不能致訓至於用鉞	-13.1737
以巡城所至與守隊勘同乃過	-13.1737
以所俘張士誠兵建衞命指揮	-13.1737
以木衝倒仆死者無數此亦	-13.1737
以段韶斛律光拒之行	-13.1737
以監軍乃可景公乃使莊賈	-13.1737
似張翼前進各執大刀呐喊殺來	-13.1737
何不速降我與將軍同為辛京杲所搆我	-13.1737
使布出於上計東取吳西取楚并齊取魯	-13.1737
便可使勢如金湯有不可犯之理兼京城	-13.1737
備解明道與六合知縣董邦政率兵迎擊	-13.1737
充國討之上書曰先零羌虜欲為背叛故	-13.1737
先左虞候馬軍次左虞候步軍次左	-13.1737
入軍非主司輒與語者斬	-13.1737
兩端其次地居中間兩地為	-13.1737
公曰可矣乃皆上馬時騎不滿六百遂	-13.1737
六局己未辛未癸未乙未丁未太乙在	-13.1737
六年定每千户所統軍一千一	-13.1737
兵士饑倦皆列坐又爭飲水太宗曰可	-13.1737
其尾而縱之奔入草中	-13.1737
其母曰子卒也而將自吮其疽何哭為母	-13.1737
具未足薪水不供雖有髙城宜棄勿守亦	-13.1737
凡火攻必因五火之變而應之火發於内	-13.1737
出曰寡人之言親愛也吾子之	-13.1737
則已若上城必自立不得	-13.1737
剉手斧斷之賊以衝車等進則穿以	-13.1737
前却轉其虞候軍職掌	-13.1737
劉勲理皖城恃兵	-13.1737
力未盡而退必國内有故	-13.1737
勝撲滅若俟其有備豈王師之利	-13.1737
勝逐北盡平其巢穴先是數郡大	-13.1737
北之師以應有交地之用矣頓泊之地	-13.1737
十四人㧞隊中小帥以代之勒兵復戰	-13.1737
卒為前鋒從西山下去城二里諸將咸欲	-13.1737
卽	-13.1737
去晉人怪鄩軍數日不	-13.1737
可談笑以待之又况京	-13.1737
右中行曲而向前其形如	-13.1737
各保其鄉調用之於他處不樂也故	-13.1737
合是謂易行有徳受慶	-13.1737
吏卒無常陳兵縱横曰亂	-13.1737
向陽以受生氣不飲死水	-13.1737
吕僧珍獨悟其	-13.1737
吳起之直陣諸葛亮之折衝	-13.1737
吾乃四萃於其王族必大敗之	-13.1737
吾要道待吾空虚而急攻則如之何	-13.1737
周家橋相對乃鎮江之咽喉留都之門户	-13.1737
哉酒一人二升二百五十石羊一口分為	-13.1737
唐將丘行恭大業末聚兵有衆二萬保	-13.1737
善食遣之間以報秦將	-13.1737
四十六石六斗七升蒸餅一人一	-13.1737
四局丁亥己亥辛亥癸亥乙亥太乙在	-13.1737
地之用矣道路相錯我可以	-13.1737
地方布風雲各在前後衝之前	-13.1737
堅以鬭則不勝當集人衆聚穀蓄帛保城	-13.1737
壕三五丈築月城圍之使敵	-13.1737
士死戰四面奮擊大破兆等	-13.1737
多而人少則攻而勿圍	-13.1737
大軍臨至使其將帥移易以成傾蕩之勢	-13.1737
大陣對大敵比塲中較藝擒捕小賊不同	-13.1737
天地以下八重以列或曰握機望敵即	-13.1737
太宗將數騎登髙而觀之謂諸將曰賊	-13.1737
夫運糧千里無一年之食二	-13.1737
奢暴驕恣賢人結舌莫肯匡助濫賞	-13.1737
如偏師出征或行隘	-13.1737
如身使臂如臂使指	-13.1737
姓金銀粟帛計以億兆之數亦莫能盡若	-13.1737
子弩最小數人就牀張訖一人手發之射	-13.1737
孫子之牝陣吳起之曲陣諸葛亮之龍騰	-13.1737
宅蔡吏告元濟曰城已陷矣元濟猶望董	-13.1737
宋劉道濟為益州刺史	-13.1737
寂無聲迹遣騎覘之無斥	-13.1737
寛復掘長塹截其地道仍簡戰士屯城外	-13.1737
實吳娃越姬充於後庭明珠	-13.1737
將不能料敵以少合衆以弱擊	-13.1737
對樓到城如不下對樓上城却	-13.1737
少主志在匡復兵貴神速	-13.1737
少便能盡害以二十將周圍行偏僻小路	-13.1737
居中勁悍者在後也詩曰伯也執殳為王	-13.1737
居離為鳥翔門蛇盤	-13.1737
屯澠池邀其東而異	-13.1737
峭壁之地則為懸梯竹索以陟	-13.1737
州其刺史侯長貴亦以城降醜奴乃棄平	-13.1737
師徒密之行也東北之圍不救而自	-13.1737
年梅山洞蠻叛命田紹	-13.1737
序殽席有差以激	-13.1737
引去蜀諸葛亮屯陽平遣魏延	-13.1737
待西軍至則左右夾攻晟曰賊既傷敗須	-13.1737
後九日改第十九箭晝	-13.1737
後九日改第十四箭晝	-13.1737
後以精兵伏之不施旗	-13.1737
徳客算十六長和客大將六宫發客	-13.1737
志輕敵吾兵在國安土	-13.1737
急擊也凡兵士當戰不得離隊獻功恐為	-13.1737
惟盜鬭殺外餘盡除	-13.1737
慮士卒心不固當擇左右前後	-13.1737
成列遽麾兵擊之虜衆大潰追奔數十里	-13.1737
所必救故城有宜急而取之者有宜緩而	-13.1737
所掠鹵不至十日兩	-13.1737
拜祐為散兵馬使令佩刀巡警出入帳中	-13.1737
挑戰勿即應久之則徐徐引退敵來薄陣	-13.1737
捭闔能移人之性奪人之心者	-13.1737
撓則自營陣中出精兵為應内外夾攻有	-13.1737
撫循之悉取將軍之資	-13.1737
擊居軍下濕水無所通霖雨數至可灌而	-13.1737
擊至邵州聞蠻酋包漢陽死去其居十里	-13.1737
政愛而與官無功而爵未勞而賞喜則赦	-13.1737
故雖用敗兵而戰必勝也繡大服	-13.1737
敗客勝見陣利先動出軍宜	-13.1737
散軍之氣如燔生草之烟前雖	-13.1737
整齊軍次使不交雜若	-13.1737
敵人深入吾都多背城邑士卒以軍為家	-13.1737
數人賊乃退有詔送金五	-13.1737
斷洄曲路橋又分五百人斷朗山路至	-13.1737
於檀溪積茅若山阜皆未之用	-13.1737
明出東門破賊三營斬首數萬級賊雖敗	-13.1737
是其所長春秋時吳以舟師伐楚又越軍	-13.1737
時天大雪元振立於帳前與烏質勒言議	-13.1737
晉大夫臾駢曰使者目動而言肆懼我也	-13.1737
晉師伐秦秦人毒涇上流師人多死	-13.1737
暒	-13.1737
曰得地助者昌失地助者亡故牡	-13.1737
曰目於眢井而拯之	-13.1737
有二一在寳山一在高橋鎮皆國初設	-13.1737
有傾側覆背上左右張生牛皮為城	-13.1737
有罪不逃刑其將來辭何辱命焉言終魏	-13.1737
木謂之奈何木木上錯綜釘以竹簽其木	-13.1737
果進兵窮討散其種落稽胡憚果勁勇趫	-13.1737
條錦帳十所白氊一百事	-13.1737
楚將子元以車六百乘伐鄭師	-13.1737
次左虞候馬軍次左虞候步軍其	-13.1737
此所以餌敵也如何去之紹騎將文醜與	-13.1737
歸其大軍曹操軍臨漢中蜀將趙雲將數	-13.1737
每更一十刻二十四分每㸃二刻四分	-13.1737
每更九刻四十八分每㸃一刻五十七分	-13.1737
每隊并隊眼占地六十五歩計四千	-13.1737
水口入海至交趾朝陽	-13.1737
澤則整隊而亟過居平陸則前死而後生	-13.1737
濟用或問何以備禦城外脚下自有馬面	-13.1737
炭松樺蒿艾膏油麻皮氊荆棘箆籬	-13.1737
[...]
