<unk>	0
<s>	0
</s>	0
之	-4.17609
以	-4.66133
/	-4.68084
(	-4.72354
為	-4.94631
)	-5.0054
而	-5.17518
其	-5.17534
於	-5.31911
者	-5.3225
有	-5.32442
一	-5.43798
人	-5.5292
上	-5.5368
官	-5.59518
不	-5.60384
及	-5.76065
則	-5.7726
王	-5.78846
曰	-5.80438
自	-5.81575
至	-5.90089
也	-5.90262
事	-5.91929
中	-5.95149
行	-5.95483
)(	-5.97672
與	-6.01167
大	-6.01701
用	-6.02964
等	-6.09223
二	-6.09237
無	-6.10894
/)	-6.11558
令	-6.12577
三	-6.12724
司	-6.13846
所	-6.13931
各	-6.17464
皆	-6.1971
正	-6.23722
文	-6.23887
時	-6.23909
于	-6.28095
在	-6.29048
凡	-6.29261
同	-6.30151
置	-6.34475
奏	-6.34811
臣	-6.35368
掌	-6.35756
州	-6.37356
書	-6.37675
又	-6.38309
言	-6.3845
如	-6.39533
四	-6.39718
亦	-6.41332
内	-6.43209
今	-6.43331
府	-6.43845
▁	-6.44453
下	-6.46457
名	-6.4853
出	-6.48737
明	-6.5155
道	-6.52521
五	-6.52941
使	-6.52969
進	-6.53217
後	-6.53794
命	-6.54079
故	-6.5429
定	-6.5486
禮	-6.54941
復	-6.55153
本	-6.55425
日	-6.56848
子	-6.58476
入	-6.59649
當	-6.60504
一人	-6.60866
前	-6.61139
知	-6.62461
惟	-6.62996
此	-6.63349
設	-6.64139
除	-6.67344
若	-6.67548
相	-6.67747
乃	-6.67755
六	-6.69114
公	-6.70886
是	-6.70954
請	-6.71326
從	-6.71683
國	-6.71732
初	-6.71739
分	-6.72003
天	-6.7232
兼	-6.7251
任	-6.73681
已	-6.74167
成	-6.74636
元	-6.75751
俱	-6.75915
立	-6.76008
安	-6.76123
學	-6.77439
或	-6.77804
改	-6.79732
年	-6.80139
即	-6.80258
得	-6.80513
見	-6.81345
門	-6.81345
主	-6.8188
長	-6.83135
詔	-6.83493
將	-6.84291
賜	-6.84646
非	-6.84751
外	-6.86529
張	-6.86735
諸	-6.86875
重	-6.87131
然	-6.8718
加	-6.88528
實	-6.88945
民	-6.89369
監	-6.90151
議	-6.90418
陳	-6.91234
矣	-6.91358
先	-6.91463
制	-6.92245
並	-6.93923
多	-6.94067
字	-6.94452
祭	-6.95055
二人	-6.95096
未	-6.95147
仍	-6.95307
生	-6.95392
既	-6.95426
作	-6.95944
宜	-6.96878
可	-6.97502
金	-6.98278
方	-6.98427
軍	-6.9918
稱	-7.00226
南	-7.00381
法	-7.00822
封	-7.01029
通	-7.01266
治	-7.01759
奉	-7.02645
罷	-7.02742
徳	-7.02783
職	-7.03102
西	-7.05075
始	-7.0525
朝	-7.05293
服	-7.05794
省	-7.06751
充	-7.0702
位	-7.07223
士	-7.07846
謂	-7.07906
馬	-7.08334
選	-7.0871
授	-7.08796
左	-7.09278
李	-7.09476
舉	-7.09503
居	-7.09622
焉	-7.1011
平	-7.10312
遂	-7.10881
次	-7.11473
兵	-7.1162
應	-7.12527
守	-7.13037
云	-7.13286
給	-7.13914
領	-7.1392
儀	-7.1415
九	-7.14177
考	-7.14703
經	-7.14765
周	-7.15577
東	-7.16227
取	-7.16634
例	-7.16823
八	-7.17052
兩	-7.17238
漢	-7.17322
合	-7.17521
并	-7.18089
親	-7.18413
史	-7.18907
典	-7.19019
節	-7.19658
因	-7.19843
禮部	-7.20029
師	-7.20053
直	-7.20076
政	-7.2028
樂	-7.2029
建	-7.20842
雖	-7.21173
何	-7.22509
陞	-7.22796
必	-7.22956
武	-7.23232
山	-7.23906
右	-7.23949
十	-7.2416
天下	-7.25353
欲	-7.25649
告	-7.25737
部	-7.26498
數	-7.2658
宗	-7.26639
興	-7.26972
小	-7.28035
和	-7.28587
止	-7.28821
廟	-7.29368
縣	-7.295
左右	-7.29547
都	-7.29845
世	-7.30169
受	-7.30315
章	-7.31193
引	-7.314
開	-7.31519
神	-7.31648
卿	-7.31768
黄	-7.31889
宋	-7.32667
論	-7.32841
家	-7.32858
朕	-7.33013
詣	-7.33502
尚	-7.33761
傳	-7.33774
拜	-7.33986
尚書	-7.34584
清	-7.34898
由	-7.35182
祀	-7.35219
聖	-7.35444
具	-7.3664
表	-7.36742
修	-7.36862
氏	-7.36901
常	-7.37028
爾	-7.3795
心	-7.38228
宫	-7.38384
御	-7.38463
送	-7.38847
歸	-7.39042
理	-7.39412
七	-7.39649
髙	-7.40652
舊	-7.41165
來	-7.41186
宣	-7.4162
殿	-7.41705
屬	-7.41961
吏	-7.42448
三年	-7.44209
案	-7.44335
新	-7.44423
去	-7.45008
遷	-7.45514
承	-7.45769
特	-7.4619
班	-7.46346
每	-7.46605
更	-7.47156
處	-7.47209
品	-7.47455
志	-7.47599
備	-7.47792
教	-7.47947
載	-7.48123
地	-7.48359
聞	-7.48545
衛	-7.48561
北	-7.48968
○	-7.49128
觀	-7.49395
務	-7.49584
率	-7.49665
劉	-7.49672
署	-7.49923
白	-7.50127
遣	-7.5042
永	-7.51209
且	-7.51265
列	-7.51312
爵	-7.51933
以為	-7.51957
古	-7.52056
二年	-7.52233
義	-7.52582
光	-7.52633
科	-7.53068
闕	-7.53194
發	-7.53245
堂	-7.53389
功	-7.53696
降	-7.53887
恩	-7.54019
代	-7.54065
過	-7.54373
城	-7.55077
夫	-7.55202
還	-7.55343
卷	-7.55579
賢	-7.55673
唐	-7.55963
益	-7.56518
逺	-7.56668
皇	-7.56787
思	-7.57252
㑹	-7.573
帝	-7.57329
廣	-7.5739
起	-7.58126
學士	-7.58811
保	-7.59048
畢	-7.59303
院	-7.59444
共	-7.59907
副	-7.59926
一員	-7.59997
坐	-7.60797
丞	-7.61003
意	-7.61064
近	-7.61151
乎	-7.61371
爲	-7.61611
禁	-7.61778
善	-7.61822
玉	-7.62198
忠	-7.62205
水	-7.62574
差	-7.62802
石	-7.63176
就	-7.63249
陵	-7.63548
食	-7.63614
郎	-7.63691
歴	-7.63876
壇	-7.64452
問	-7.64619
深	-7.64736
求	-7.64736
統	-7.65206
原	-7.65302
皇帝	-7.65409
視	-7.65567
能	-7.65703
四人	-7.65756
曹	-7.65786
嵗	-7.65918
龍	-7.66049
試	-7.66231
别	-7.66314
獻	-7.66563
物	-7.66573
恭	-7.66691
月	-7.66777
易	-7.67414
許	-7.67554
進士	-7.67565
寧	-7.67933
錢	-7.68024
少	-7.68218
孝	-7.68285
首	-7.68756
乞	-7.68886
盡	-7.69123
京	-7.69519
補	-7.69665
之事	-7.69853
不可	-7.7012
依	-7.70861
賛	-7.71138
衆	-7.71231
隨	-7.7163
間	-7.71706
著	-7.7181
録	-7.72092
圖	-7.723
齊	-7.72526
崇	-7.7273
盖	-7.7298
元年	-7.72991
異	-7.73056
孫	-7.73088
候	-7.7324
照	-7.7348
尊	-7.73908
員	-7.73911
某	-7.74101
造	-7.74129
甚	-7.74182
力	-7.74217
但	-7.74618
路	-7.74926
謹案	-7.75062
君	-7.75738
籍	-7.7587
伯	-7.75958
退	-7.75966
百	-7.7607
誠	-7.76127
春	-7.762
比	-7.76328
布	-7.76781
卒	-7.77119
致	-7.77491
鎮	-7.77573
庫	-7.77596
餘	-7.77626
納	-7.77635
華	-7.77726
再	-7.78378
敬	-7.7859
贊	-7.78743
萬	-7.78921
總	-7.78946
酒	-7.79105
嘗	-7.79171
辭	-7.792
梁	-7.79243
我	-7.79354
大臣	-7.7976
不得	-7.79807
對	-7.80057
祖	-7.80548
御史	-7.80815
留	-7.81098
望	-7.81138
該	-7.81234
失	-7.81461
罪	-7.81559
謹	-7.81637
風	-7.81648
嚴	-7.8177
題	-7.81798
營	-7.81876
難	-7.82064
工	-7.82125
申	-7.82329
色	-7.82378
報	-7.82697
端	-7.82868
繇	-7.82883
太	-7.83413
魏	-7.83599
昭	-7.83922
河	-7.84128
貢	-7.84156
臺	-7.84395
詳	-7.84464
仁	-7.84872
附	-7.85099
德	-7.85171
固	-7.8518
陽	-7.85309
冊	-7.85579
管	-7.85873
計	-7.85994
楊	-7.86258
簡	-7.86517
不許	-7.86587
海	-7.86838
車	-7.87328
江	-7.87391
將軍	-7.87393
侯	-7.87462
等官	-7.87676
化	-7.88114
要	-7.88356
妃	-7.88409
召	-7.88437
印	-7.88876
升	-7.88967
訖	-7.8944
號	-7.89712
秩	-7.89759
身	-7.90047
執	-7.90297
記	-7.90618
收	-7.90622
庶	-7.90808
朝廷	-7.91024
准	-7.91024
四年	-7.91153
寺	-7.91203
革	-7.9197
衣	-7.92508
集	-7.92635
冠	-7.92778
國子監	-7.92811
葢	-7.92861
田	-7.93008
詩	-7.93167
晉	-7.93236
趙	-7.93342
悉	-7.93365
良	-7.93468
全	-7.93493
雲	-7.94225
青	-7.9441
私	-7.94924
獨	-7.94986
聲	-7.95011
寳	-7.95038
遇	-7.95087
五年	-7.95208
局	-7.95342
體	-7.95357
猶	-7.95556
厚	-7.95708
諭	-7.95944
侍	-7.96032
各一人	-7.96238
資	-7.96272
跪	-7.96277
式	-7.96962
流	-7.97127
銀	-7.97186
條	-7.97241
專	-7.97367
三月	-7.97492
濟	-7.983
父	-7.98513
百官	-7.98564
中書	-7.98986
兮	-7.99075
福	-7.99281
登	-7.99476
隆	-7.99485
夏	-7.99628
度	-7.99642
十二	-7.9968
二員	-7.99817
吏部	-7.99922
大學士	-7.99928
權	-8.0001
係	-8.0006
倉	-8.00083
皇后	-8.00337
嘉	-8.00525
増	-8.00529
存	-8.00665
終	-8.00742
户	-8.01085
臨	-8.01491
以下	-8.01824
久	-8.02217
太子	-8.02306
親王	-8.0259
克	-8.02661
之制	-8.02701
按	-8.02864
慶	-8.03025
六年	-8.03088
土	-8.0316
業	-8.03233
里	-8.03309
參	-8.03529
講	-8.04324
序	-8.04413
郡	-8.0452
聽	-8.04568
秦	-8.04626
判	-8.04825
朱	-8.04859
皇太子	-8.05079
侍郎	-8.05149
林	-8.05218
以上	-8.05526
館	-8.05679
養	-8.05865
予	-8.05914
免	-8.06051
闗	-8.06075
房	-8.06172
器	-8.06275
行禮	-8.06286
不能	-8.06509
賞	-8.06634
期	-8.06681
才	-8.06689
交	-8.06983
繼	-8.07123
習	-8.07176
第	-8.07327
上曰	-8.077
木	-8.08016
所以	-8.08142
運	-8.08293
語	-8.08357
推	-8.09097
二十	-8.0934
三人	-8.0946
額	-8.09482
廢	-8.0952
老	-8.09552
甲	-8.09733
極	-8.09898
死	-8.10148
查	-8.10205
宴	-8.106
毎	-8.10707
之職	-8.11158
情	-8.1124
女	-8.11518
利	-8.11864
佐	-8.1193
鄉	-8.12671
便	-8.12817
訓	-8.12906
邊	-8.13089
限	-8.13336
編	-8.13653
優	-8.14048
疏	-8.14087
到	-8.14246
素	-8.14478
咸	-8.14628
唱	-8.14634
帶	-8.14647
十月	-8.15171
榮	-8.15348
郎中	-8.15464
信	-8.15552
階	-8.15598
順	-8.15649
詞	-8.15708
輔	-8.1626
役	-8.16314
斯	-8.16659
翰林	-8.17026
景	-8.17358
委	-8.17656
四月	-8.1766
移	-8.17756
校	-8.17803
捧	-8.18277
口	-8.18471
於是	-8.18727
調	-8.18944
精	-8.19286
待	-8.19303
回	-8.19347
薦	-8.19495
往	-8.19759
紀	-8.19798
容	-8.19856
允	-8.1994
南京	-8.19969
均	-8.20048
察	-8.20098
兹	-8.20232
本部	-8.20264
耳	-8.20351
縣人	-8.20399
享	-8.20555
七年	-8.20688
徐	-8.20857
刑	-8.20863
供	-8.211
勞	-8.21404
靈	-8.21669
旗	-8.21671
汝	-8.21952
九月	-8.21975
盛	-8.22035
支	-8.22079
蓋	-8.22178
羅	-8.22313
香	-8.22397
鼓	-8.227
花	-8.22737
牧	-8.22837
氣	-8.22926
七月	-8.23166
獄	-8.23173
陛下	-8.2323
天子	-8.23231
督	-8.23317
疑	-8.23339
導	-8.23454
轉	-8.23515
維	-8.23891
河南	-8.23961
注	-8.23983
延	-8.24043
襲	-8.24133
大夫	-8.24378
識	-8.24398
真	-8.24459
室	-8.24686
郡王	-8.24741
隋	-8.24813
讀	-8.25011
肅	-8.25029
勅	-8.25086
示	-8.25139
豈	-8.25151
責	-8.25169
配	-8.25281
欽此	-8.25347
嘉靖	-8.25488
八月	-8.25519
閣	-8.25711
有司	-8.25842
哉	-8.26057
直𨽻	-8.26192
駕	-8.26294
鄭	-8.26344
翰林院	-8.26486
吳	-8.26575
泰	-8.26583
宰相	-8.26585
虞	-8.26788
遺	-8.26834
藏	-8.26858
顯	-8.27256
達	-8.27325
顧	-8.27755
員外郎	-8.27771
變	-8.27809
恐	-8.27934
八年	-8.28
賦	-8.28314
謀	-8.28416
解	-8.2897
擬	-8.29039
十二月	-8.30062
協	-8.30126
謝	-8.30211
昌	-8.30399
音	-8.30473
𨽻	-8.30796
缺	-8.30981
二月	-8.31145
律	-8.31167
以後	-8.31304
預	-8.31623
赴	-8.31689
康	-8.32036
専	-8.32086
太祖	-8.32109
雜	-8.32222
十年	-8.32261
正月	-8.32266
十一月	-8.32348
山東	-8.32642
副使	-8.32677
切	-8.32743
莫	-8.32797
夷	-8.3302
内閣	-8.33133
而不	-8.33209
覆	-8.33214
據	-8.33223
仰	-8.33242
滿	-8.33351
被	-8.33408
類	-8.33526
樂作	-8.33674
廷	-8.33682
稍	-8.3374
他	-8.33868
戒	-8.34182
輕	-8.34628
羣	-8.34706
給事中	-8.34742
動	-8.34748
越	-8.34909
俾	-8.35104
彼	-8.3515
貴	-8.35391
徒	-8.35557
追	-8.3574
九年	-8.3584
威	-8.35849
違	-8.36023
呈	-8.36188
皇上	-8.36196
謂之	-8.36261
目	-8.37047
面	-8.37506
手	-8.3761
量	-8.37654
欽	-8.37695
市	-8.37837
格	-8.37958
象	-8.38011
博士	-8.3806
嗣	-8.38173
勲	-8.38266
懐	-8.38496
萬厯	-8.38677
将	-8.38755
吉	-8.38854
奏請	-8.39008
秋	-8.39016
遵	-8.39072
英	-8.3939
畫	-8.39515
六月	-8.39771
具官	-8.39787
五月	-8.39937
其後	-8.40233
輿	-8.40423
六人	-8.40731
願	-8.40753
祝	-8.4095
須	-8.41363
向	-8.41377
果	-8.41393
付	-8.41437
米	-8.41451
疾	-8.41559
擢	-8.41945
監生	-8.42148
頒	-8.42289
勤	-8.42372
符	-8.42791
祠	-8.42835
結	-8.42844
足	-8.42862
洪武	-8.42876
稽	-8.42958
勿	-8.42996
浙江	-8.43226
以來	-8.43382
江西	-8.43548
錫	-8.43631
安石	-8.43635
程	-8.43919
帛	-8.43925
𫝊	-8.44075
尤	-8.44096
尹	-8.44118
工部	-8.44219
頭	-8.44352
内外	-8.44413
從之	-8.44693
兵部	-8.44716
祭酒	-8.44968
尋	-8.45412
至是	-8.45476
孔	-8.45539
母	-8.45688
燕	-8.45759
㫖	-8.45778
啟	-8.4587
審	-8.4592
主事	-8.46217
阿	-8.464
儒	-8.46569
至元	-8.46584
高	-8.46701
憲	-8.4682
后	-8.46834
草	-8.46929
澤	-8.47095
幸	-8.4727
禄	-8.47576
紅	-8.47903
永樂	-8.48236
太常	-8.48243
三十	-8.48375
故事	-8.48386
厯	-8.48388
扵	-8.48403
衙門	-8.48409
持	-8.48885
胡	-8.48895
美	-8.48984
連	-8.49365
官員	-8.49993
末	-8.50062
五十	-8.50142
八人	-8.50204
宗室	-8.50297
貫	-8.50297
東西	-8.50449
春秋	-8.50486
垂	-8.50739
説	-8.50856
諡	-8.51089
之意	-8.51261
執政	-8.51826
念	-8.51926
列傳	-8.52043
祖宗	-8.52153
尉	-8.52457
博	-8.52626
又有	-8.52726
京師	-8.53458
王府	-8.53534
致仕	-8.53712
殊	-8.53771
儲	-8.5385
吕	-8.53872
弼	-8.53952
孟	-8.54196
鼎	-8.5449
惡	-8.5454
增	-8.54625
編修	-8.55023
叅	-8.55055
減	-8.5511
押	-8.55128
亭	-8.55539
寵	-8.55816
司馬	-8.55894
課	-8.55941
册	-8.55948
席	-8.55976
防	-8.56051
庭	-8.56076
五人	-8.5631
制曰	-8.56417
狀	-8.56427
散	-8.56516
併	-8.5654
夀	-8.56566
病	-8.56616
同知	-8.56673
為之	-8.56964
循	-8.57093
曽	-8.57108
陜西	-8.57198
帥	-8.57438
星	-8.57501
之後	-8.57558
仲	-8.57812
鹽	-8.57903
如此	-8.58327
假	-8.58386
男	-8.5856
季	-8.58659
禮部尚書	-8.58715
豐	-8.58798
費	-8.58893
辰	-8.59069
贈	-8.59151
俸	-8.59235
歌	-8.59339
折	-8.59355
子弟	-8.59383
國家	-8.5951
斷	-8.59613
巡	-8.59733
歲	-8.59749
指	-8.59793
户部	-8.59892
而已	-8.59958
邦	-8.5997
不敢	-8.60001
積	-8.60322
材	-8.60544
諸生	-8.60567
喜	-8.60658
質	-8.60663
魯	-8.60717
勝	-8.60787
迎	-8.60814
似	-8.60897
改為	-8.60968
門外	-8.61056
國公	-8.61167
勒	-8.61333
犯	-8.61333
孔子	-8.61358
裁	-8.61698
生員	-8.61713
賔	-8.61847
都督	-8.61887
之禮	-8.62
所謂	-8.62018
坊	-8.62121
丁	-8.62526
提舉	-8.6267
的	-8.62826
碑	-8.62879
東宫	-8.62937
樂止	-8.63052
昔	-8.63124
十五	-8.63134
倫	-8.63135
聴	-8.63155
遣官	-8.63299
湖廣	-8.633
十人	-8.63365
祭祀	-8.63367
衡	-8.63584
吾	-8.63706
厥	-8.63708
族	-8.63714
寛	-8.63751
商	-8.63756
湯	-8.63774
醫	-8.63947
雅	-8.64123
太學	-8.64248
好	-8.64335
乆	-8.64451
䝉	-8.64551
苑	-8.64566
紙	-8.64602
川	-8.64801
累	-8.64811
鈔	-8.64944
衞	-8.65057
洪	-8.65218
太常寺	-8.65282
䇿	-8.65335
㕔	-8.65348
賀	-8.65434
北齊	-8.65721
千	-8.65773
啓	-8.65793
屢	-8.65865
四十	-8.66054
幾	-8.66094
弟	-8.66211
射	-8.66214
勘	-8.66303
綱	-8.66335
說	-8.66378
滿洲	-8.66391
藩	-8.66449
揚	-8.66471
辨	-8.66546
座	-8.66603
之法	-8.66705
休	-8.66745
黨	-8.67017
江南	-8.67101
寶	-8.67382
䕶	-8.67404
半	-8.67416
□	-8.67427
勢	-8.67446
藥	-8.67475
銜	-8.67479
𤣥	-8.67543
當時	-8.67581
祥	-8.676
曾	-8.6761
機	-8.67615
慎	-8.67723
毋	-8.6773
秉	-8.67872
會	-8.68113
擇	-8.68152
刑部	-8.68199
韓	-8.6858
第一	-8.68653
肆	-8.68656
早	-8.68727
校尉	-8.68959
雨	-8.69454
不同	-8.69481
十三年	-8.69781
放	-8.70002
害	-8.70007
丞相	-8.70153
十六年	-8.70225
刻	-8.70275
其事	-8.70583
銅	-8.70624
撰	-8.7071
火	-8.70731
成化	-8.70803
出入	-8.70828
十二年	-8.70857
牛	-8.70932
雍	-8.70934
眀	-8.70943
亂	-8.70994
舉人	-8.71205
子孫	-8.71241
教習	-8.71313
在外	-8.71681
今後	-8.71774
弊	-8.71807
隂	-8.71886
宿	-8.71961
穆	-8.7201
康熙	-8.72412
叙	-8.72419
宏	-8.72442
来	-8.72493
奠	-8.72696
絶	-8.72727
四川	-8.7283
諸司	-8.72986
性	-8.73131
杜	-8.73152
奉聖㫖	-8.73197
眷	-8.73211
膳	-8.73331
躬	-8.7335
適	-8.73426
邑	-8.7353
篇	-8.73551
敢	-8.7356
沈	-8.73648
畧	-8.73862
福建	-8.73879
征	-8.74388
禮畢	-8.74492
乗	-8.74576
伏	-8.74582
曲	-8.74712
舞	-8.74737
三品	-8.74793
况	-8.74911
傅	-8.74991
山西	-8.75097
太宗	-8.75351
茂	-8.75352
牲	-8.75449
太廟	-8.75577
咨	-8.75597
主簿	-8.75685
執事	-8.75762
臣等	-8.75765
釋	-8.75892
辦	-8.75976
乾隆	-8.76043
之人	-8.76151
冬	-8.76257
先是	-8.76818
十五年	-8.76824
少卿	-8.7684
之神	-8.76914
規	-8.76987
簿	-8.77043
農	-8.7728
希	-8.77428
不必	-8.77563
不知	-8.7757
修撰	-8.77621
未有	-8.77626
各一	-8.77692
可以	-8.77934
糧	-8.78043
然後	-8.78224
之名	-8.78248
照例	-8.78289
鍾	-8.7832
文武	-8.78382
庶吉士	-8.78392
施行	-8.78733
事例	-8.78895
其餘	-8.78938
州縣	-8.79117
靖	-8.79128
在京	-8.79139
戎	-8.79247
/)(	-8.79259
三公	-8.7954
慮	-8.79569
避	-8.79574
一日	-8.79618
鳯	-8.79818
訪	-8.80019
勉	-8.80045
蔡	-8.80234
囘	-8.80338
四方	-8.80397
池	-8.80576
俟	-8.80795
甫	-8.80828
葬	-8.80974
蘇	-8.80983
於此	-8.81367
撫	-8.81397
舍	-8.81397
略	-8.81401
振	-8.8142
殺	-8.81621
齋	-8.81697
純	-8.81697
之所	-8.81699
撥	-8.81713
羊	-8.82059
宰	-8.82139
施	-8.82179
旦	-8.82202
伊	-8.82218
騎	-8.82228
監察御史	-8.82429
裏	-8.82641
姦	-8.83042
盤	-8.83181
宻	-8.83205
舊制	-8.83218
源	-8.83249
俊	-8.83312
考試	-8.83348
之類	-8.83515
叔	-8.83769
樞	-8.83819
助教	-8.83973
尺	-8.84247
諸王	-8.84282
縁	-8.84308
從祀	-8.84356
畨	-8.84481
干	-8.84511
檢	-8.84792
虚	-8.84832
一年	-8.85044
布政司	-8.85046
履	-8.85122
饌	-8.85148
十三	-8.85297
茶	-8.85471
其職	-8.85594
筆	-8.85618
誤	-8.85833
紹興	-8.86085
公主	-8.8633
竒	-8.86477
感	-8.86579
惇	-8.86601
惠	-8.8661
魚	-8.86622
瞻	-8.86775
董	-8.86899
濫	-8.86933
關	-8.87123
錄	-8.8714
十六	-8.87191
繫	-8.87232
至於	-8.87235
社	-8.87248
長史	-8.87553
陳設	-8.87678
十一年	-8.88043
采	-8.88161
最	-8.88351
俗	-8.88575
喪	-8.88581
息	-8.88586
愛	-8.8859
烏	-8.88594
角	-8.88606
者皆	-8.88627
韻	-8.88707
酌	-8.88822
鴻臚寺	-8.88859
十一	-8.89121
接	-8.89154
番	-8.89163
三日	-8.89364
竊	-8.89667
約	-8.89688
翼	-8.89764
獲	-8.90123
前代	-8.90213
天地	-8.90359
温	-8.90624
漢書	-8.90653
匠	-8.90681
諫	-8.90818
邉	-8.90865
敏	-8.90934
夜	-8.91127
䝉古	-8.91379
貞	-8.91513
衍	-8.91526
憂	-8.91546
决	-8.91597
指揮	-8.91721
絹	-8.91746
勸	-8.91785
之日	-8.91787
戸	-8.91798
頗	-8.91818
人等	-8.91858
具奏	-8.91867
是日	-8.91879
屯	-8.92139
赤	-8.92154
之任	-8.92655
爰	-8.92677
續	-8.92693
㸃	-8.92933
反	-8.93003
邪	-8.93015
庸	-8.93039
釋奠	-8.93075
刺史	-8.93175
雲南	-8.93228
檢討	-8.93245
瑞	-8.93297
以聞	-8.93306
羣臣	-8.93324
執事者	-8.93495
牌	-8.93726
場	-8.93782
遼	-8.93901
驗	-8.94149
郭	-8.94235
中大夫	-8.9425
顔	-8.94651
之地	-8.94811
皇太后	-8.94828
樹	-8.95154
令史	-8.95168
翰林學士	-8.95246
郊	-8.95271
述	-8.95322
三百	-8.95384
莊	-8.95423
父母	-8.95639
壽	-8.95702
繁	-8.95739
周禮	-8.95745
陸	-8.9598
通事	-8.96036
天下之	-8.96107
密	-8.96116
通典	-8.96287
術	-8.96629
珠	-8.96667
奏事	-8.96818
社稷	-8.96869
州人	-8.96961
富	-8.96988
妄	-8.96991
少府	-8.9709
不過	-8.9719
政事	-8.97235
園	-8.97312
罰	-8.97348
夫人	-8.97484
裕	-8.97574
畏	-8.97643
微	-8.9766
冠帶	-8.97709
輦	-8.97838
仕	-8.97854
本寺	-8.98024
釐	-8.98149
殿中	-8.98159
冠服	-8.98279
亡	-8.98287
膺	-8.98288
執事官	-8.98405
之心	-8.98436
漸	-8.98563
遣使	-8.98664
鄉試	-8.98761
職事	-8.98971
土官	-8.98974
筆帖式	-8.99167
後漢	-8.99221
朔	-8.99235
皆有	-8.99343
禮儀	-8.99358
逐	-8.99374
妻	-8.99533
呼	-8.99551
奪	-8.99629
令丞	-8.99639
各處	-8.99641
元祐	-8.99686
弗	-8.99867
效	-8.99885
紹	-9.00023
上下	-9.00023
仗	-9.00034
後世	-9.00045
今日	-9.00092
馮	-9.00129
基	-9.00152
仁宗	-9.002
停	-9.00475
中外	-9.00549
教授	-9.00652
凖	-9.00711
徃	-9.00768
飛	-9.00782
帳	-9.00856
吏部尚書	-9.00938
彦	-9.01052
陪	-9.01114
烈	-9.01121
侍講	-9.0113
即位	-9.01332
財	-9.01538
蕃	-9.01571
寢	-9.01732
漢人	-9.01838
褒	-9.01847
幣	-9.02462
各官	-9.0248
勵	-9.02496
秘書監	-9.02587
婦	-9.02687
了	-9.02754
貳	-9.02908
謁	-9.03024
地方	-9.03026
勑	-9.03042
台	-9.03098
漢軍	-9.03117
五品	-9.03125
㕘	-9.03129
使臣	-9.03199
姑	-9.03201
批	-9.03463
揖	-9.035
哲	-9.03512
其所	-9.0352
南北	-9.03601
段	-9.03732
樓	-9.03794
答	-9.03806
二百	-9.03948
神主	-9.04051
懷	-9.04149
傷	-9.04443
賊	-9.045
抑	-9.04509
已上	-9.04521
内侍	-9.047
淮	-9.04705
四品	-9.04762
廣東	-9.04945
等項	-9.04954
十四年	-9.04992
職掌	-9.05085
庻	-9.05107
一體	-9.05119
一百	-9.05128
御製	-9.05209
客	-9.05224
三司	-9.0527
以次	-9.05304
普	-9.05421
楚	-9.05519
敵	-9.05539
究	-9.05689
十八	-9.0613
黜	-9.06137
徽	-9.06324
愈	-9.06529
覽	-9.06831
各有	-9.06911
旋	-9.07146
寫	-9.07159
之官	-9.07164
徴	-9.07207
猷	-9.0724
䘮	-9.07245
文字	-9.07283
敦	-9.07561
井	-9.07569
乾	-9.07822
肇	-9.07891
武帝	-9.07955
否	-9.08077
淵	-9.08167
堅	-9.0823
葉	-9.08259
煩	-9.08293
者也	-9.08378
開元	-9.08384
賓	-9.08543
属	-9.08555
提督	-9.08636
正徳	-9.08652
助	-9.08695
辦事	-9.08746
謨	-9.08932
縱	-9.08962
復位	-9.09008
奏准	-9.09109
之數	-9.0914
未嘗	-9.09219
震	-9.09251
有所	-9.09261
落	-9.09289
聚	-9.09319
丹	-9.0943
國初	-9.09446
宗廟	-9.09457
十八年	-9.09505
患	-9.09639
從五品	-9.09707
宇	-9.09797
都察院	-9.10005
廵	-9.10016
擅	-9.10046
侍讀	-9.10092
隻	-9.10127
太師	-9.10157
同日	-9.10233
官吏	-9.1041
疋	-9.10844
亦有	-9.10902
慈	-9.10962
遽	-9.11108
太僕	-9.11134
一時	-9.11209
替	-9.1141
途	-9.11467
智	-9.11496
南向	-9.11505
詹事	-9.11509
之屬	-9.11636
急	-9.11772
形	-9.11835
陶	-9.11838
野	-9.11847
皆以	-9.11855
光禄寺	-9.12019
八十	-9.12066
飾	-9.1209
輅	-9.12127
松	-9.12145
細	-9.12148
太平	-9.12152
僅	-9.12152
者亦	-9.12197
禮樂	-9.12198
戰	-9.12203
襄	-9.12208
鳴	-9.12286
諸臣	-9.12311
元豐	-9.12315
先賢	-9.12443
八旗	-9.12481
一曰	-9.12523
軍民	-9.12544
鑒	-9.12579
如常儀	-9.12587
頌	-9.12863
虎	-9.12968
歳	-9.12983
世子	-9.1304
漕	-9.13083
沙	-9.13269
禍	-9.13313
堂上官	-9.13408
文武官	-9.13462
己	-9.13596
學校	-9.13663
典儀	-9.13687
順天府	-9.13783
脩	-9.1396
内官	-9.13979
皇朝	-9.14195
熟	-9.14365
三代	-9.14521
級	-9.14538
丈	-9.14651
文學	-9.14663
因之	-9.14732
侍從	-9.14911
板	-9.15499
强	-9.15517
第二	-9.15802
范	-9.15861
負	-9.1592
先帝	-9.16254
如有	-9.16267
徑	-9.16382
大小	-9.16388
敷	-9.1643
後周	-9.1663
徵	-9.1668
柄	-9.16697
御史中丞	-9.16808
後魏	-9.16894
懿	-9.1696
句	-9.17021
冬至	-9.17325
績	-9.17428
之道	-9.17466
參知政事	-9.17523
箇	-9.17587
三省	-9.17602
寄	-9.17635
而後	-9.17657
官制	-9.17792
頃	-9.17817
侍衛	-9.17906
帝王	-9.18127
錦	-9.18135
展	-9.1818
麻	-9.18224
亮	-9.18297
亦如之	-9.183
僧	-9.18352
紵絲	-9.18921
旁	-9.18929
鴻	-9.18964
較	-9.18981
承襲	-9.19059
唐六典	-9.19084
陞任	-9.19114
定制	-9.19226
樂舞生	-9.19306
祗	-9.19319
節度使	-9.19321
刀	-9.19355
六十	-9.19357
泉	-9.19362
敕	-9.19367
讀書	-9.19369
檜	-9.19376
各王府	-9.1939
侍中	-9.19604
經筵	-9.19619
育	-9.19702
嫡	-9.19779
茍	-9.19783
註	-9.19788
卜	-9.1979
無所	-9.19928
只	-9.20123
怒	-9.20146
逮	-9.20211
冩	-9.20247
紫	-9.2042
牒	-9.20422
索	-9.20531
倚	-9.2055
六部	-9.20551
製	-9.2077
住	-9.20851
長安	-9.20855
恒	-9.20878
司空	-9.20889
懋	-9.20929
斗	-9.21116
彌	-9.21291
損	-9.21305
賈	-9.21348
友	-9.21695
投	-9.21711
薄	-9.21743
復置	-9.21747
山川	-9.21826
所司	-9.22048
右僕射	-9.22112
蕭	-9.22162
閲	-9.22169
彭	-9.22238
祇	-9.22447
津	-9.22497
彰	-9.22574
七人	-9.22627
不復	-9.22776
枝	-9.22882
従	-9.22936
直隸	-9.22952
樞宻使	-9.23052
自是	-9.23094
沿	-9.23101
舍人	-9.23194
添	-9.23211
飲	-9.23219
熈	-9.23249
知制誥	-9.23299
罔	-9.23372
纂	-9.23528
做	-9.23652
齎	-9.2386
本監	-9.24118
離	-9.24136
皮	-9.24256
中書省	-9.24274
之上	-9.243
是也	-9.24303
丞一人	-9.2432
誥	-9.24435
貶	-9.24625
準	-9.24694
等處	-9.24839
秘書	-9.24887
祝文	-9.24909
熙	-9.24919
所屬	-9.24938
誦	-9.24958
擊	-9.25035
完	-9.25036
知縣	-9.25044
翰	-9.251
十七年	-9.25298
乘	-9.25338
翊	-9.25345
祈	-9.25373
忌	-9.25413
戴	-9.25416
宅	-9.2544
哭	-9.256
自今	-9.25633
擾	-9.25659
十九年	-9.2572
帖	-9.25728
順治	-9.25785
貨	-9.25807
懼	-9.2584
攻	-9.25845
足以	-9.26002
侍讀學士	-9.26089
鐘	-9.2619
實録	-9.26204
税	-9.26258
閏	-9.26336
之士	-9.26417
斤	-9.26422
司徒	-9.26511
却	-9.26637
不及	-9.26708
各二人	-9.26801
都尉	-9.26869
致祭	-9.27002
㑹試	-9.27027
僕	-9.2704
岳	-9.27089
儀仗	-9.2715
中丞	-9.27189
十四	-9.27339
長子	-9.2739
巡撫	-9.27397
宸	-9.27463
塞	-9.27547
靡	-9.27568
殷	-9.27596
各一員	-9.27823
步	-9.27835
司業	-9.27904
胥	-9.27938
僉	-9.2803
姓名	-9.28104
尚書省	-9.28154
一切	-9.28174
溥	-9.28286
戍	-9.28335
驛	-9.28386
㑹同	-9.28677
宮	-9.28698
謙	-9.2876
舊例	-9.28782
唯	-9.28805
巴	-9.2884
太和	-9.28873
所載	-9.28905
燭	-9.29097
拜相	-9.29136
萬世	-9.29219
各衙門	-9.29223
提	-9.29229
廕	-9.29259
慰	-9.2927
本院	-9.29344
空	-9.29425
之功	-9.29469
廣西	-9.29497
豫	-9.29646
囚	-9.29678
棄	-9.29693
其制	-9.29722
不足	-9.29727
表裏	-9.29759
内府	-9.3005
賴	-9.30077
十七	-9.30129
前後	-9.30141
怨	-9.30148
何以	-9.30222
再拜	-9.30257
正統	-9.30346
文書	-9.30432
使者	-9.30492
徹	-9.30509
横	-9.30511
招	-9.30543
冕	-9.30682
之曲	-9.30683
之初	-9.30924
巾	-9.30924
垣	-9.30956
奏樂	-9.31004
知府	-9.31061
者為	-9.31133
陛	-9.31161
雷	-9.31361
剛	-9.31425
君子	-9.31519
辟	-9.31586
禮官	-9.31666
亟	-9.31855
杖	-9.31886
暫	-9.3212
𢎞	-9.32131
立于	-9.32201
環	-9.32265
警	-9.32302
恤	-9.32329
荒	-9.32343
用之	-9.32352
旬	-9.32355
綬	-9.32474
門下	-9.32587
汪	-9.32675
逆	-9.32761
呉	-9.32764
判官	-9.32799
榜	-9.32929
紗	-9.33092
買	-9.33157
雄	-9.33203
頂	-9.33598
貴州	-9.33644
敗	-9.33653
㣲	-9.33653
織	-9.33946
銓	-9.3403
輸	-9.34107
歟	-9.34124
捕	-9.34153
之義	-9.34262
巡檢	-9.34369
三等	-9.34386
價	-9.34461
争	-9.34539
赴京	-9.34611
常服	-9.34641
駐	-9.3485
豆	-9.34889
底	-9.34939
晋	-9.34945
毛	-9.34987
催	-9.34989
採	-9.35005
厲	-9.35043
請封	-9.35178
踰	-9.35189
初置	-9.3519
叅知政事	-9.35287
藝	-9.35311
浚	-9.35316
橋	-9.35393
二十人	-9.35396
援	-9.35423
七十	-9.3543
以前	-9.35449
輒	-9.35488
二十年	-9.3553
確	-9.35573
正五品	-9.35575
忘	-9.35682
一等	-9.35742
先期	-9.35792
露	-9.35793
黎	-9.35834
中書舍人	-9.35866
旅	-9.35879
韋	-9.35883
閱	-9.35955
蜀	-9.35984
朝貢	-9.36094
劾	-9.36204
舟	-9.36337
肄業	-9.36343
哈	-9.36367
覺	-9.36405
攝	-9.36466
之子	-9.36666
料	-9.36672
榖	-9.36784
牙	-9.36796
奏聞	-9.36937
太史	-9.37299
侍御史	-9.37316
船	-9.37343
毁	-9.37348
諸侯	-9.37372
境	-9.37419
庶人	-9.37451
𢎞治	-9.37465
把	-9.37471
愚	-9.37562
如今	-9.37704
将軍	-9.37727
算	-9.37774
収	-9.37799
總督	-9.37944
二曰	-9.38062
盧	-9.38128
二品	-9.38151
翟	-9.38165
策	-9.38217
輪	-9.38233
旌	-9.38236
廩	-9.38291
錦衣衛	-9.38427
厨役	-9.38627
誕	-9.38637
漏	-9.38649
宗正	-9.38742
超	-9.38811
國朝	-9.38825
勾	-9.38842
屬官	-9.39068
兩京	-9.39096
淳	-9.3911
丕	-9.39184
就位	-9.39219
創	-9.39222
屋	-9.39231
鑄	-9.39232
孰	-9.39263
閑	-9.39303
神位前	-9.39406
之時	-9.39433
湏	-9.39573
五日	-9.39585
耆	-9.39599
麗	-9.39604
亦不	-9.39639
墨	-9.39641
逹	-9.39665
救	-9.39667
速	-9.39682
貯	-9.3969
個	-9.39735
各省	-9.39932
兄	-9.39944
訟	-9.40051
介	-9.40129
藉	-9.40149
始置	-9.40241
總管	-9.40385
冊寳	-9.40421
七品	-9.40471
鳳	-9.40581
珍	-9.40612
遊	-9.40643
皇子	-9.40672
古今	-9.40736
大徳	-9.40788
國學	-9.40811
看	-9.4089
本府	-9.40959
四拜	-9.41051
篤	-9.41116
璧	-9.41136
今改正	-9.41155
州刺史	-9.41156
謁者	-9.41325
通行	-9.4139
第三	-9.41449
羽	-9.41515
決	-9.41601
忽	-9.41633
以備	-9.41683
秦檜	-9.41709
丹墀	-9.41794
下士	-9.41876
圭	-9.41952
一品	-9.42036
藻	-9.42058
逸	-9.42077
游	-9.42089
等因	-9.42139
斥	-9.42154
學生	-9.42158
辟雍	-9.42174
左僕射	-9.42226
太傅	-9.4223
府州縣	-9.42335
出身	-9.42515
亨	-9.42536
蘭	-9.42554
佩	-9.4259
姓	-9.42592
文武百官	-9.4268
之言	-9.42963
洗	-9.42967
▁(	-9.4298
哀	-9.42991
浮	-9.4304
講讀	-9.43063
雙	-9.43101
壁	-9.43103
隠	-9.43108
者則	-9.43143
惠卿	-9.43258
二十三年	-9.43371
塲	-9.43524
瓶	-9.43532
國之	-9.43575
寒	-9.43577
鹿	-9.43587
仙	-9.43589
借	-9.43626
先師	-9.43627
侵	-9.43632
植	-9.43638
神宗	-9.43898
諸州	-9.43911
大將軍	-9.43922
睿	-9.43937
進貢	-9.4403
幹	-9.44122
六品	-9.44241
祭告	-9.44251
車駕	-9.44274
三曰	-9.44287
日月	-9.44292
之間	-9.44404
上香	-9.4441
若干	-9.4444
卿等	-9.44469
禮部侍郎	-9.44487
箴	-9.4453
版	-9.44574
侍班	-9.44574
種	-9.44637
承㫖	-9.44908
二十二年	-9.44939
題請	-9.4497
蒼	-9.45031
逢	-9.45118
誅	-9.45119
鄧	-9.45128
兩廡	-9.45136
契	-9.45137
起送	-9.45354
之重	-9.45479
十二人	-9.45508
余	-9.45523
占	-9.45532
皇朝因之	-9.45538
正七品	-9.45584
奸	-9.45609
天順	-9.45637
塗	-9.45655
周官	-9.45657
中書侍郎	-9.45765
次日	-9.45848
洛	-9.46003
圍	-9.46037
有差	-9.46041
對曰	-9.46055
刋	-9.4608
譽	-9.46109
薛	-9.46171
國王	-9.46212
兄弟	-9.46299
都水	-9.46321
拘	-9.46406
芳	-9.46469
行之	-9.46527
其名	-9.46536
一次	-9.46542
範	-9.46595
峻	-9.4664
險	-9.4666
趨	-9.46676
甘	-9.47059
夾	-9.47087
潘	-9.47121
君臣	-9.47132
輙	-9.47158
儒臣	-9.47163
誣	-9.47178
荆	-9.47293
序班	-9.47395
煬帝	-9.47602
之外	-9.47608
墳	-9.47613
疇	-9.47627
偏	-9.47633
堯	-9.47634
樞宻院	-9.47689
綏	-9.47697
事務	-9.4772
祐	-9.47771
毫	-9.47777
四員	-9.47996
一應	-9.48008
設官	-9.48074
耕	-9.4812
苦	-9.4819
鹵簿	-9.48193
孤	-9.48202
攸	-9.48224
妾	-9.48251
之南	-9.48304
知州	-9.48414
署令	-9.48474
綸	-9.48644
官同	-9.48813
一千	-9.48815
二十四	-9.48847
北京	-9.48929
人員	-9.48958
所掌	-9.49046
單	-9.49046
出納	-9.49081
隂陽	-9.49087
奉先殿	-9.49177
恪	-9.49232
絲	-9.49237
排	-9.49271
殿内	-9.49402
宿衛	-9.49492
窮	-9.49516
誰	-9.49732
侍講學士	-9.49732
獸	-9.49895
題准	-9.50037
而無	-9.50084
各置	-9.50158
潔	-9.50276
姪	-9.50324
奏稱	-9.50348
譯	-9.50362
子女	-9.50381
三員	-9.50389
不行	-9.50626
罷相	-9.50634
卓	-9.50763
淺	-9.50812
黒	-9.50813
根	-9.50817
叩頭	-9.50832
區	-9.50836
卑	-9.50842
馭	-9.50863
盈	-9.50875
管理	-9.50928
員外	-9.50955
謹按	-9.51087
通判	-9.51166
監丞	-9.51174
等物	-9.51187
順天	-9.51242
姚	-9.51353
無不	-9.51398
殆	-9.51412
蔵	-9.51459
大理	-9.51521
於戲	-9.51549
位於	-9.51584
明年	-9.51713
正三品	-9.51793
舜	-9.5188
崔	-9.51917
祔	-9.5193
墓	-9.51937
匪	-9.51962
司馬光	-9.5207
僧道	-9.52135
度支	-9.5225
匹	-9.52272
雖有	-9.5232
琦	-9.52442
廸	-9.52444
見於	-9.52449
圗	-9.5245
怠	-9.52463
澄	-9.52474
赦	-9.52485
宣徳	-9.52562
五百	-9.52761
領之	-9.52847
健	-9.52954
正德	-9.52957
孝宗	-9.52959
麟	-9.52971
秀	-9.52977
屏	-9.52987
抄	-9.52992
是年	-9.53023
託	-9.53026
薨	-9.53065
𦵏	-9.53089
上以	-9.53292
災	-9.53356
依前	-9.53368
不與	-9.53454
佑	-9.53521
飭	-9.53534
大事	-9.53537
孚	-9.53561
爭	-9.53581
舎	-9.5364
正六品	-9.53681
楹	-9.53759
廄	-9.53893
先儒	-9.53932
童	-9.54054
僚	-9.54062
婚	-9.54066
雍正	-9.54067
减	-9.54102
功臣	-9.54116
側	-9.54125
分為	-9.54194
不當	-9.54213
典簿	-9.54306
拜位	-9.54312
如故	-9.54488
廬	-9.54634
奚	-9.54666
又置	-9.54668
遲	-9.54683
璽	-9.54699
胄	-9.54804
轄	-9.54889
是以	-9.54978
輩	-9.55111
所在	-9.55146
絳	-9.55162
繳	-9.55189
西向	-9.552
肉	-9.55202
司農	-9.55207
欽天監	-9.55208
兒	-9.55227
上命	-9.55259
行人	-9.55334
疆	-9.55487
資政殿學士	-9.55493
二日	-9.55578
圜丘	-9.55729
門下侍郎	-9.55732
背	-9.55745
閒	-9.55753
黙	-9.55783
潤	-9.5581
檢校	-9.55835
之訓	-9.55964
糾	-9.56185
鴻臚寺官	-9.56234
舎人	-9.56249
危	-9.56294
操	-9.56308
旨	-9.56318
竟	-9.56401
徙	-9.56417
互	-9.56428
祖訓	-9.56479
未幾	-9.56598
一名	-9.56807
必有	-9.5683
齡	-9.56884
傑	-9.56898
核	-9.56929
産	-9.56929
偹	-9.5694
欺	-9.56959
官屬	-9.57138
讀祝	-9.57303
遜	-9.57374
焚	-9.57399
之盛	-9.57401
凡遇	-9.57445
邇	-9.57487
鑾	-9.57539
太皇太后	-9.57549
明日	-9.57656
衣服	-9.57807
於上	-9.58
我朝	-9.58021
詢	-9.58044
儒士	-9.58068
曠	-9.58098
慕	-9.58111
太后	-9.58121
午	-9.58133
王妃	-9.58143
往往	-9.58221
北向	-9.58243
太保	-9.58324
散官	-9.58325
等事	-9.58357
唐宋	-9.5839
跪進	-9.58424
人心	-9.58568
兵部尚書	-9.58585
鸞	-9.58587
之臣	-9.58614
紛	-9.58621
勇	-9.58691
郡縣	-9.58715
章惇	-9.58818
講官	-9.58887
正副使	-9.58967
則有	-9.58977
太監	-9.59169
桂	-9.59184
制度	-9.59213
另	-9.59229
儀注	-9.59306
蔡京	-9.59337
蠻	-9.59384
夷簡	-9.59398
典籍	-9.59451
總兵官	-9.59639
圓	-9.59727
扶	-9.59742
也今	-9.59796
鈞	-9.59819
給與	-9.59891
内使	-9.59973
獻爵	-9.60086
祀典	-9.60136
世襲	-9.60163
銘	-9.60299
耶	-9.60363
件	-9.60407
冒	-9.60418
艱	-9.60429
襲封	-9.60471
御前	-9.60554
同平章事	-9.60598
少監	-9.60686
明白	-9.60751
以示	-9.60785
書籍	-9.6079
病故	-9.60827
提學官	-9.6085
覈	-9.6089
進呈	-9.60919
讓	-9.60921
舉行	-9.60922
觧	-9.6097
翠	-9.60971
齒	-9.60978
罕	-9.6103
庶子	-9.61062
謝恩	-9.61177
以致	-9.61436
九卿	-9.61448
者許	-9.61476
古人	-9.61528
諧	-9.61559
伸	-9.61596
奎	-9.61596
壯	-9.61597
遞	-9.61612
者有	-9.61655
千户	-9.61719
右侍郎	-9.61757
堪	-9.6179
二十一年	-9.61839
言之	-9.6184
之政令	-9.61841
申明	-9.61864
奉安	-9.61957
之政	-9.61962
四百	-9.61984
禮部奏	-9.61985
不用	-9.62028
燎	-9.62054
軍節度使	-9.62071
學官	-9.62086
淑	-9.62109
穀	-9.62142
桑	-9.62169
事宜	-9.62178
其實	-9.62194
破	-9.62204
之際	-9.62213
樂章	-9.62444
從三品	-9.62451
女官	-9.62576
整	-9.62703
静	-9.62755
洽	-9.62772
龜	-9.62772
進退	-9.63041
兆	-9.6307
入監	-9.63086
都司	-9.63094
樞宻副使	-9.63163
四海	-9.63176
大理寺	-9.63202
踐	-9.63373
詹事府	-9.63409
士竒	-9.63567
稷	-9.6358
討	-9.63663
供奉	-9.63686
故男	-9.63747
九品	-9.63809
貽	-9.63986
尾	-9.63988
什	-9.6399
是時	-9.63999
懸	-9.6402
倍	-9.64031
貪	-9.64052
太常卿	-9.64235
繡	-9.64345
四曰	-9.64452
起居	-9.64482
僕射	-9.64502
二名	-9.64506
貢生	-9.64516
丞二人	-9.6452
䕫	-9.64592
司官	-9.64594
惜	-9.64606
歴代	-9.64606
裳	-9.64625
般	-9.64642
本年	-9.64743
寜	-9.6484
二人掌	-9.64861
還宫	-9.65062
束	-9.65101
滋	-9.65277
桌	-9.65284
留守	-9.65294
邵	-9.65303
英宗	-9.6531
城隍	-9.65321
慶賀	-9.65345
學士院	-9.65587
昇	-9.65751
輝	-9.65814
挾	-9.65856
禹	-9.65881
那	-9.65883
騐	-9.65884
髙祖	-9.65939
輔臣	-9.65965
主客	-9.66014
本朝	-9.66025
之東	-9.66132
州知州	-9.66165
有功	-9.66229
進講	-9.66327
皇考	-9.66328
廊	-9.66335
韶	-9.66431
錯	-9.66475
科舉	-9.66492
弓	-9.66518
駙馬	-9.66538
百姓	-9.66565
宫中	-9.66579
至正	-9.66589
禁中	-9.66909
籩豆	-9.66951
揆	-9.6697
河東	-9.67029
包	-9.67031
饗	-9.67063
効	-9.67111
二十五年	-9.67214
長官	-9.67278
城人	-9.67323
其子	-9.67328
復為	-9.67482
九十	-9.67494
文章	-9.67542
曰朕	-9.67561
大使	-9.67568
中允	-9.67571
燈	-9.67645
拱	-9.67651
蔣	-9.67678
禮部志稿卷	-9.67683
懲	-9.67732
迹	-9.67773
者以	-9.67794
二十六年	-9.67974
學者	-9.68046
䕶軍	-9.68052
大明	-9.68151
侍儀	-9.68252
練	-9.68289
官一員	-9.68293
金銀	-9.68299
竹	-9.683
迪	-9.68376
潛	-9.68382
欵	-9.68389
着	-9.68405
柔	-9.68445
按察司	-9.68463
内務府	-9.68475
諡文	-9.68504
為民	-9.68554
尚方	-9.68573
民間	-9.68628
綿	-9.68712
所言	-9.68753
聖祖	-9.68769
箋	-9.6887
祿	-9.68911
國子	-9.68957
吴	-9.68963
亷	-9.68993
十九	-9.69003
毅	-9.69016
頼	-9.69053
之典	-9.69056
暨	-9.69061
朔望	-9.691
待詔	-9.69123
古者	-9.69184
從四品	-9.6923
典禮	-9.69547
遠	-9.69611
托	-9.69641
以待	-9.69648
昨	-9.69651
主婚者	-9.69673
飯	-9.69674
傾	-9.69677
諱	-9.69845
僉事	-9.69873
相應	-9.69983
裔	-9.70043
之家	-9.70143
命婦	-9.70209
賣	-9.70323
析	-9.70348
貧	-9.70363
與今	-9.70391
二十四年	-9.70418
太尉	-9.70466
宋齊	-9.70617
者不	-9.70624
列聖	-9.70661
素服	-9.70711
簾	-9.70882
守備	-9.7091
先後	-9.7093
虛	-9.7096
阻	-9.70983
訴	-9.70987
削	-9.70987
為一	-9.71048
雪	-9.71126
者必	-9.71274
命禮部	-9.7134
莫不	-9.7136
詔書	-9.71428
銷	-9.71472
其有	-9.71491
懇	-9.71601
十日	-9.71605
夙夜	-9.71623
倣	-9.71631
偽	-9.7166
伍	-9.71683
王安石	-9.72024
佐領	-9.7203
之儀	-9.72046
公事	-9.7214
凢	-9.72196
來朝	-9.7224
也又	-9.72268
又曰	-9.72272
夙	-9.7232
咎	-9.72355
自後	-9.72366
已下	-9.72635
大祀	-9.72656
者即	-9.72836
衰	-9.72874
乏	-9.72914
之北	-9.72919
租	-9.72921
緑	-9.72961
宥	-9.72971
之例	-9.73033
尼	-9.73054
員額	-9.73124
訓導	-9.73146
奉㫖	-9.73246
制曰朕	-9.73273
管勾	-9.73297
正中	-9.73495
歆	-9.73507
筵	-9.73521
不為	-9.73537
兼領	-9.73541
依舊	-9.73588
䖍	-9.73612
冝	-9.73619
都統	-9.7364
隊	-9.73651
梓宫	-9.73652
聼	-9.73656
伐	-9.73657
印信	-9.7367
到部	-9.74079
曉	-9.74114
追封	-9.74122
本司	-9.74134
教官	-9.74266
派	-9.74343
巧	-9.74359
至今	-9.74383
儒學	-9.7443
直學士	-9.74447
先生	-9.74499
蕃王	-9.74523
公卿	-9.74545
品秩	-9.7462
殿前	-9.74634
十六人	-9.74657
兵馬	-9.74715
品級	-9.74724
夕	-9.74826
岑	-9.74865
儉	-9.74895
引禮引	-9.74975
史館	-9.74978
冲	-9.74997
街	-9.75042
郊祀	-9.75261
世宗	-9.75279
祭酒司業	-9.75367
乙	-9.75379
景泰	-9.7541
正旦	-9.75531
上親	-9.75532
纂修	-9.7555
袍	-9.75572
歡	-9.75586
東西相向	-9.75589
靜	-9.75616
提調	-9.75621
猪	-9.75648
鐵	-9.75653
佛	-9.75664
暴	-9.75665
賚	-9.75666
提㸃	-9.75675
衷	-9.75694
談	-9.75698
輯	-9.75704
觀文殿大學士	-9.75704
導引	-9.75751
溪	-9.75805
中郎將	-9.75865
三千	-9.75933
䟽	-9.75968
朝服	-9.76011
除授	-9.76137
獻官	-9.76175
俞	-9.7633
丁未	-9.76339
庠	-9.7634
悔	-9.76358
惑	-9.76364
又以	-9.76371
屈	-9.76376
俯伏興平身	-9.76467
從事	-9.76516
十五日	-9.76571
小人	-9.76601
各府	-9.76698
二等	-9.76849
辛	-9.76877
世祖	-9.76925
貞觀	-9.76937
人才	-9.76954
和之曲	-9.76974
醢	-9.77015
娶	-9.77081
先朝	-9.77179
鎮守	-9.77261
御名	-9.77287
二十五	-9.773
每日	-9.7732
官二員	-9.77354
出於	-9.77414
項	-9.77582
鐸	-9.77694
禮記	-9.77711
違者	-9.77776
封爵	-9.77788
内史	-9.7779
之文	-9.77916
二十九年	-9.77952
自古	-9.77974
中尉	-9.78018
四夷	-9.78032
門内	-9.78052
者俱	-9.78083
復命	-9.78258
匣	-9.78327
後漢書	-9.78394
玉堂	-9.78396
儀同	-9.78409
起居注	-9.78467
京城	-9.78496
湖	-9.78561
暇	-9.78577
都督府	-9.78656
傳贊	-9.7868
界	-9.78732
不拘	-9.78788
瀆	-9.78921
綾	-9.79025
換	-9.79063
分獻官	-9.79069
史記	-9.79088
冀	-9.79103
正四品	-9.79131
亞獻	-9.79137
随	-9.79172
祭一壇	-9.79196
方許	-9.79212
稅	-9.79215
愆	-9.79216
驅	-9.79236
東南	-9.79288
貢監生	-9.79302
著作	-9.79305
六堂	-9.79325
縣令	-9.79364
也至	-9.79593
唐制	-9.79743
以来	-9.79778
二十七年	-9.79808
荷	-9.79824
詐	-9.79829
鄒	-9.79844
夢	-9.79855
立於	-9.79864
恢	-9.79878
寓	-9.79894
𤼵	-9.79896
冶	-9.79907
給事	-9.79951
柱	-9.79952
御座	-9.7997
轉運使	-9.79992
寡	-9.80241
上言	-9.803
既而	-9.80412
朝賀	-9.8047
是用	-9.80485
以此	-9.80488
而下	-9.805
九人	-9.805
或有	-9.80544
貼	-9.80553
矧	-9.80589
喇	-9.80598
鉞	-9.80678
本州	-9.8083
二府	-9.80896
下大夫	-9.80962
丘	-9.80982
畿	-9.81002
城門	-9.81159
皇祖	-9.81185
行事	-9.81198
言者	-9.81244
填	-9.81304
繕	-9.81332
谷	-9.81363
風俗	-9.81408
少詹事	-9.81425
人數	-9.81432
中書門下	-9.81443
之風	-9.81629
真宗	-9.81629
五代	-9.81649
胙	-9.81669
戚	-9.81759
主之	-9.81796
純仁	-9.81831
洪武三年	-9.81881
每嵗	-9.81884
㡬	-9.81937
浩	-9.81944
特進	-9.81988
粟	-9.81989
鼓吹	-9.82004
架	-9.8203
瓊	-9.82038
状	-9.8204
陟	-9.82041
舘	-9.82053
熊	-9.82073
巖	-9.82075
東向	-9.82104
康熈	-9.82135
樂器	-9.82163
改正	-9.82166
經義	-9.82236
仍舊	-9.82302
持節	-9.8236
秦漢	-9.82367
由是	-9.82407
合用	-9.82495
之弊	-9.82541
録事	-9.82553
凡有	-9.82555
寅	-9.82566
其間	-9.82586
朝㑹	-9.8261
前期	-9.82621
敎	-9.82695
指揮使	-9.82727
蔽	-9.8274
彛	-9.82742
刺	-9.82752
)○	-9.82775
隸	-9.8278
之徒	-9.82794
疎	-9.8281
治之	-9.82819
少傅	-9.82943
典儀唱	-9.82974
嬪	-9.82982
槩	-9.83094
查得	-9.83096
州府	-9.83179
陞殿	-9.83291
勘合	-9.83338
京官	-9.83389
祧	-9.83436
鑑	-9.83438
域	-9.83443
俯伏興	-9.83453
應襲	-9.83458
濶	-9.83495
法度	-9.835
逃	-9.8352
蒲	-9.83522
洞	-9.83542
證	-9.83563
叛	-9.83573
帷	-9.83595
今之	-9.83602
屯田	-9.83639
曺	-9.83641
門下省	-9.83665
掾	-9.8389
廷尉	-9.83981
鴻臚	-9.83992
中士	-9.84014
聖人	-9.84059
嵗貢	-9.84144
考選	-9.84149
御書	-9.84174
鄰	-9.84185
昉	-9.84201
奮	-9.84275
齋戒	-9.84288
羽林	-9.8429
播	-9.843
中宫	-9.84312
欽定	-9.84329
引禮	-9.84362
館閣	-9.84455
諸路	-9.84466
御史大夫	-9.8447
西南	-9.84472
所奏	-9.84564
上士	-9.84644
陪祀	-9.8465
太府	-9.84699
之下	-9.84806
進封	-9.84809
奉祀	-9.8484
瓦	-9.84899
恕	-9.84958
鼔	-9.84976
儼	-9.84978
名及第出身題名碑	-9.84985
幄	-9.84999
㧞	-9.85022
竭	-9.8504
愧	-9.85044
幽	-9.85054
禀	-9.85068
朝夕	-9.85173
西域	-9.85253
王公	-9.85256
内贊	-9.85261
成祖	-9.85314
元史	-9.8536
衮	-9.85378
府事	-9.85437
幼	-9.85452
其言	-9.85506
官學生	-9.85535
天文	-9.85607
不置	-9.85614
鶴	-9.85746
序立	-9.85753
䑓	-9.85762
誼	-9.85778
遐	-9.8578
觔	-9.85781
秘	-9.85787
抗	-9.85791
牢	-9.85793
乖	-9.85808
漆	-9.85836
廪	-9.85844
概	-9.85882
從六品	-9.85882
官至	-9.86083
文廟	-9.86202
公侯	-9.86252
安南	-9.86274
云云	-9.86289
歩	-9.86489
古之	-9.86506
俯	-9.86513
癸未	-9.86532
值	-9.86554
困	-9.86575
囬	-9.86579
中興	-9.86584
則以	-9.86645
戸部	-9.86659
眞	-9.86685
陞座	-9.86704
襲職	-9.86815
臣僚	-9.86816
億	-9.86845
題名	-9.86878
太倉	-9.86948
一尺	-9.87018
洪武元年	-9.87152
南郊	-9.87196
流官	-9.8721
都御史	-9.87219
初獻	-9.87283
凌	-9.87291
強	-9.87308
教坊司	-9.87313
徧	-9.87324
裴	-9.87337
引見	-9.87439
庶幾	-9.8745
都官	-9.87616
衣冠	-9.87706
之節	-9.87729
岐	-9.87851
故也	-9.87872
綵	-9.87934
以時	-9.87942
融	-9.88019
亞	-9.88046
鄂	-9.88063
其人	-9.88085
繙譯	-9.88088
兼侍讀	-9.88093
務要	-9.88132
四合	-9.88187
二千	-9.88192
老成	-9.88341
跪奏	-9.88381
陽人	-9.88432
並同	-9.88442
遵守	-9.88581
宰臣	-9.88584
儀制司	-9.88602
之物	-9.88681
北面	-9.88713
搢笏	-9.88734
是月	-9.88741
科道	-9.88818
甞	-9.88895
拉	-9.88903
行在	-9.88909
分獻	-9.89043
洪武初	-9.89047
工尺	-9.8914
一件	-9.89277
不在	-9.89347
一十	-9.89366
不合	-9.89373
灾	-9.89421
有㫖	-9.89568
衍聖公	-9.89649
厰	-9.89676
短	-9.89692
五寸	-9.89709
蕩	-9.8971
笑	-9.89713
集賢	-9.89784
之舊	-9.89943
上帝	-9.89976
曰此	-9.89985
蒙	-9.90018
梁陳	-9.90047
之比	-9.90116
鮮	-9.90278
厨	-9.90341
晨	-9.90384
扇	-9.90395
滯	-9.90409
激	-9.90439
冗	-9.90443
厭	-9.90471
盜	-9.90478
臻	-9.90507
頭目	-9.90508
綜	-9.90533
議准	-9.90546
漕運	-9.90615
太常寺卿	-9.90783
該本部	-9.90792
乞要	-9.90822
中國	-9.90887
其中	-9.91035
祠部	-9.91042
年任	-9.91084
百户	-9.9115
告襲	-9.91169
若有	-9.91182
煥	-9.91212
待制	-9.91236
打	-9.9125
邁	-9.91252
恊	-9.91261
掩	-9.91268
文獻通考	-9.91276
壊	-9.91278
甘肅	-9.91308
公著	-9.91341
滿漢	-9.91474
上諭	-9.91551
三十六	-9.9164
别置	-9.91731
尚書左丞	-9.91782
賜宴	-9.91897
長官司	-9.919
合四一四	-9.91939
翔	-9.91966
經史	-9.92014
欣	-9.92016
七日	-9.92016
議者	-9.92034
痛	-9.92037
辱	-9.92062
以供	-9.92066
偶	-9.92069
割	-9.9207
恣	-9.92072
渥	-9.92072
驚	-9.92079
鞠躬	-9.92079
緒	-9.92088
混	-9.92091
騰	-9.92122
一人掌	-9.92199
光禄	-9.92485
聖㫖	-9.92571
其地	-9.92609
左右衛	-9.9276
然則	-9.92764
機務	-9.92772
炷	-9.92775
㓜	-9.92835
晩	-9.92848
謫	-9.92859
閤門	-9.92911
乗輿	-9.92955
河北	-9.93039
屬官有	-9.93042
寸	-9.93114
本官	-9.93128
嶽	-9.93362
兼管	-9.93377
我皇上	-9.93382
不宜	-9.93391
侍立	-9.93478
輕重	-9.93542
太守	-9.93544
所生	-9.9358
之内	-9.93594
奉聖㫖是欽此	-9.93598
武徳	-9.93642
嫌	-9.93678
畜	-9.93687
居中	-9.93705
左春坊	-9.93707
謬	-9.93707
王爵	-9.93752
生母	-9.93757
舒	-9.93761
鎮國將軍	-9.9377
人主	-9.93821
伯克	-9.93929
文移	-9.94012
年八月	-9.94092
議論	-9.94111
差人	-9.94174
欽定四庫全書	-9.94205
司禮監	-9.94224
御史臺	-9.94276
直省	-9.94278
前一日	-9.94445
國子學	-9.94447
不勝	-9.94456
跡	-9.9448
緩	-9.94489
幕	-9.94491
偉	-9.94503
傍	-9.94524
渠	-9.94525
為宰相	-9.94526
邱	-9.94541
滅	-9.94569
明史	-9.94572
有事	-9.94584
從八品	-9.94592
西京	-9.94672
張浚	-9.94724
大成	-9.94773
洪武中	-9.94775
中書令	-9.94838
少保	-9.94943
五官	-9.95059
送神	-9.95065
魏晉	-9.95096
先聖	-9.95111
錠	-9.9514
劄	-9.95219
凝	-9.95289
油	-9.95291
褥	-9.95306
某年月日	-9.95316
㢘	-9.95331
泥	-9.95397
以授	-9.95412
銷金	-9.95441
遂以	-9.95475
未經	-9.95556
武庫	-9.95572
欽若	-9.95582
嗣後	-9.956
父子	-9.95639
殿上	-9.9568
三十人	-9.9574
正位	-9.95746
聖賢	-9.95807
等奏	-9.95815
爾等	-9.95849
㑹議	-9.95857
典事	-9.95864
宣德	-9.95891
考滿	-9.95895
燾	-9.95929
簽	-9.9594
大禮	-9.95965
隆慶元年	-9.95996
厯代	-9.9602
辨其	-9.96028
巳	-9.96065
饒	-9.96125
難以	-9.9613
端明殿學士	-9.96133
悼	-9.9616
遭	-9.96172
奉天門	-9.96183
配享	-9.96191
倡	-9.96193
茲	-9.96208
四時	-9.96209
工部尚書	-9.96219
太中大夫	-9.96303
年正月	-9.96313
考官	-9.96338
沿革	-9.96358
之始	-9.96558
初制	-9.96583
上御	-9.96607
已有	-9.9661
之號	-9.96619
珪	-9.96688
知其	-9.96708
大都	-9.96715
二字	-9.96723
始終	-9.96862
功曹	-9.96949
軒	-9.96974
聨	-9.96975
鉅	-9.9698
明堂	-9.9702
劇	-9.97032
酬	-9.97049
盗	-9.97068
出笏	-9.97069
嚴加	-9.9707
職官	-9.97073
詩賦	-9.97097
桓	-9.97107
或以	-9.97107
光武	-9.97119
勾當	-9.97135
甸	-9.97176
南面	-9.9722
官捧	-9.97242
殿下	-9.97321
奉天	-9.97379
宣宗	-9.97388
國子監祭酒	-9.97389
多寡	-9.9739
永樂元年	-9.97511
輟	-9.97648
武官	-9.97695
者其	-9.97709
朕心	-9.97823
彈	-9.97823
赫	-9.97834
經厯	-9.97845
諒	-9.97864
馳	-9.97868
餅	-9.97868
受命	-9.97871
提學	-9.97879
篆	-9.97884
虎賁	-9.9789
籌	-9.97933
縉	-9.97941
豪	-9.97952
標	-9.97996
禮部言	-9.98031
洛陽	-9.98032
參軍	-9.98247
領軍	-9.98287
不可不	-9.98353
如今之	-9.98391
者多	-9.98409
走	-9.98417
視朝	-9.98417
知事	-9.98433
十五人	-9.98481
聰	-9.98494
參政	-9.98505
年六月	-9.98523
四書	-9.98529
扈	-9.98594
几	-9.98687
藴	-9.98717
摩	-9.98729
冐	-9.98735
更定	-9.98784
穿	-9.98787
甄	-9.98787
不見	-9.98877
上書	-9.98946
太僕寺	-9.98957
兼學士	-9.98961
視事	-9.9898
並無	-9.98981
正八品	-9.99004
居住	-9.9903
百官志	-9.99139
如是	-9.99231
民之	-9.99268
文華殿	-9.99287
滿洲漢人各一人	-9.99292
萬年	-9.99307
始以	-9.99319
壺	-9.99371
至日	-9.99411
臣下	-9.99449
一道	-9.9953
衫	-9.99554
綴	-9.99586
香案前	-9.99616
波	-9.99621
紳	-9.99627
築	-9.99645
終獻	-9.99652
執中	-9.99669
即今	-9.99815
應天府	-9.99935
年繇	-10.0005
之中	-10.0013
六百	-10.0016
知樞密院事	-10.0032
得以	-10.0032
簽書樞宻院事	-10.0044
原作	-10.0044
遍	-10.0045
纔	-10.0046
都䕶	-10.0046
碩	-10.0049
悦	-10.005
差官	-10.0051
逓	-10.0051
慢	-10.0053
雞	-10.0054
弱	-10.0054
正字	-10.0054
迨	-10.0057
沮	-10.0059
廷臣	-10.0061
遣人	-10.0064
也然	-10.0065
教之	-10.0067
錢糧	-10.007
他日	-10.0071
周公	-10.0088
嘉靖九年	-10.009
其屬	-10.0096
第四	-10.0101
代之	-10.0124
祭器	-10.0125
二千石	-10.0129
户部尚書	-10.0132
麥	-10.0134
鳴鞭	-10.0134
濓	-10.0135
尚書右丞	-10.0136
一百五十	-10.0136
行移	-10.0138
槐	-10.0141
蒙古	-10.0142
西北	-10.0143
未及	-10.0148
楊榮	-10.0159
尚書令	-10.0162
之命	-10.0167
節度	-10.0173
太原	-10.0175
之西	-10.0179
先年	-10.018
陜	-10.0197
二十八年	-10.0198
俎	-10.0201
列於	-10.0202
戊	-10.0202
大樂	-10.0204
冊封	-10.021
壻	-10.021
樞密院	-10.0213
移文	-10.0214
傳制	-10.0217
三十年	-10.0217
藍	-10.0218
粉	-10.0222
禎	-10.0223
含	-10.0225
陵寢	-10.0227
寕	-10.0227
粹	-10.0232
冊府元龜	-10.0233
觀文殿學士	-10.0237
史官	-10.0237
生徒	-10.0238
前導	-10.0249
十有二	-10.0252
宗社	-10.0253
扈從	-10.0259
考之	-10.0263
乾道	-10.0263
贊善	-10.0263
諫議大夫	-10.0264
諸軍	-10.028
所用	-10.0294
從九品	-10.0299
人情	-10.0299
禦	-10.03
爐	-10.03
稽古	-10.0302
犢	-10.0304
文帝	-10.0307
軸	-10.0309
聘	-10.0315
殿中侍御史	-10.0316
矢	-10.0318
寃	-10.032
旣	-10.0322
竄	-10.0323
巡按御史	-10.0326
需	-10.0326
宰執	-10.033
三品以上	-10.0333
同知樞密院事	-10.0334
承奉	-10.0345
皇城	-10.0347
右丞相	-10.0352
及諸	-10.0361
等衙門	-10.0367
三十一年	-10.0375
賞賜	-10.0384
已而	-10.039
遂為	-10.039
噐	-10.0402
文淵閣	-10.0402
東西向	-10.0405
袁	-10.0407
鳥	-10.0407
弩	-10.0408
謗	-10.0411
可知	-10.0412
像	-10.0413
鎮撫	-10.0417
樞宻	-10.042
郊廟	-10.0444
每年	-10.0457
督撫	-10.0458
方物	-10.0462
從七品	-10.0471
國史	-10.0472
覲	-10.0478
事者	-10.0482
各該	-10.0492
都監	-10.0492
内殿	-10.0495
呂	-10.0495
袖	-10.0496
旱	-10.0497
競	-10.0497
霍	-10.0498
蠶	-10.0499
躋	-10.0499
塔	-10.0499
竝	-10.0499
睦	-10.0501
祚	-10.0501
玩	-10.0504
帑	-10.0505
布政使	-10.0505
矜	-10.0506
治罪	-10.0507
該府	-10.0509
増設	-10.0518
職名	-10.0521
玉帛	-10.0528
二十六	-10.0528
所當	-10.0532
其官	-10.0535
之寄	-10.0552
諭禮部	-10.0552
樂舞	-10.0553
近侍	-10.0556
湖南	-10.0566
已經	-10.0568
配位	-10.0569
禄米	-10.0569
毋得	-10.0574
措	-10.058
牓	-10.0581
際	-10.0585
抱	-10.0586
卞	-10.0586
行四拜禮	-10.0588
沂	-10.059
況	-10.0596
軌	-10.0596
詰	-10.0597
等員	-10.0599
徹饌	-10.0606
同列	-10.0617
皆為	-10.0617
禮成	-10.0627
正二品	-10.0633
千里	-10.0649
刑名	-10.0651
合無	-10.0655
監官	-10.0662
士充	-10.0663
定奪	-10.0664
東北	-10.0665
二十七	-10.0666
分别	-10.067
宜令	-10.0674
禱	-10.0683
恵	-10.0683
徼	-10.0683
人君	-10.0685
憲宗	-10.0686
乂	-10.0686
憚	-10.0687
鋪	-10.0688
官軍	-10.0689
北魏	-10.0696
洗馬	-10.0696
年五月	-10.0697
户部侍郎	-10.0701
名數	-10.0707
酒尊	-10.0708
教職	-10.0713
該部	-10.0724
絹一疋	-10.0726
奬	-10.0727
有不	-10.0733
則又	-10.0744
不准	-10.0746
正官	-10.0748
更名	-10.0756
十三人	-10.0756
冦	-10.0761
神位	-10.0763
隱	-10.0772
邸	-10.0776
噶	-10.0779
黑	-10.078
年任陞	-10.078
考功	-10.0781
闡	-10.0781
消	-10.0782
旌表	-10.0789
賂	-10.079
從九品下	-10.0792
吏部侍郎	-10.0799
每歲	-10.08
内閣學士	-10.0802
遇有	-10.0804
入相	-10.0814
文王	-10.0834
京都	-10.0839
上表	-10.0841
東京	-10.0844
郡國	-10.0851
武臣	-10.0852
應天	-10.0855
腹	-10.0856
之故	-10.0859
迎神	-10.086
演	-10.0862
瘞	-10.0867
两	-10.0867
折衝	-10.0871
祝版	-10.0872
耀	-10.0873
訥	-10.0874
宋齊梁陳	-10.0875
骨	-10.0879
正議大夫	-10.0879
奏乞	-10.0883
等言	-10.0884
謹案宋	-10.0886
以上者	-10.0893
年間	-10.0894
六尺工尺	-10.0895
三國	-10.0903
二斤	-10.0909
諸子	-10.0913
于是	-10.0939
染	-10.0951
少師	-10.0953
永樂中	-10.0963
炳	-10.0966
洵	-10.0969
逰	-10.0969
葛	-10.0969
諫官	-10.097
閭	-10.0971
旂	-10.0972
平章事	-10.0973
之前	-10.0974
就拜位	-10.0976
於戱	-10.0977
繋	-10.098
知㑹	-10.098
渭	-10.098
賛引	-10.1
政和	-10.1005
總兵	-10.1007
百人	-10.102
也原作	-10.1025
東都	-10.1027
十八人	-10.1029
次第	-10.1032
建炎	-10.1033
弟子	-10.1036
𠡠	-10.1038
朝見	-10.1043
司樂	-10.1057
羞	-10.1061
片	-10.1064
陋	-10.1067
憑	-10.1067
沒	-10.1068
上謂	-10.1069
栁	-10.1071
照磨	-10.1072
陰	-10.1073
五曰	-10.1074
寺丞	-10.1074
乙未	-10.1086
太宰	-10.1088
位于	-10.1091
婦人	-10.1096
趙鼎	-10.1096
増置	-10.1103
朝覲	-10.1103
建康	-10.1106
人材	-10.1116
事故	-10.1119
之望	-10.1132
為相	-10.1138
承天	-10.1144
禧	-10.1147
駕部	-10.1153
皆不	-10.1159
之崇	-10.1163
緯	-10.1167
犀	-10.1168
隅	-10.1168
不係	-10.1168
輔國將軍	-10.1169
黼	-10.117
誥命	-10.1181
㑹典	-10.1182
左侍郎	-10.1183
織金	-10.1183
郎中員外郎	-10.1185
京畿	-10.1188
孟子	-10.119
知之	-10.1195
從二品	-10.1195
到京	-10.1199
篚	-10.1204
不以	-10.1205
之東西	-10.1217
常侍	-10.1221
亦無	-10.1221
分掌	-10.1222
封號	-10.1224
二十二	-10.1229
仍令	-10.123
宫人	-10.1233
荘	-10.1243
管事	-10.1254
經書	-10.1257
闈	-10.1261
寘	-10.1264
棟	-10.1265
曷	-10.1265
有餘	-10.1266
詠	-10.127
贓	-10.1271
恱	-10.1271
浸	-10.1271
不分	-10.1272
禆	-10.1274
隆慶	-10.1277
校勘	-10.1279
安人	-10.1288
等皆	-10.1292
落職	-10.1293
以下皆	-10.1297
授封	-10.1317
本寺官	-10.132
一分	-10.1323
條例	-10.1331
建言	-10.1334
司務	-10.1343
四兩	-10.135
天子之	-10.1352
得㫖	-10.1358
郷	-10.1359
鄙	-10.1359
嵩	-10.136
韓琦	-10.1361
弁	-10.1362
掃	-10.1364
帯	-10.1365
其在	-10.1366
書令史	-10.1367
梅	-10.1367
琳	-10.1369
熈寧	-10.1377
謚	-10.1379
而行	-10.1379
丹陛上	-10.138
六員	-10.1382
唐虞	-10.1385
其時	-10.1402
成均	-10.1408
山陵	-10.142
册立	-10.1424
視學	-10.1426
先師孔子	-10.1428
知樞宻院事	-10.1429
宫門	-10.143
直長	-10.1437
三分	-10.1441
甲辰	-10.1441
仲淹	-10.1443
轉運	-10.1447
復舊	-10.1449
儀賓	-10.145
使人	-10.1451
柴	-10.1456
鑰	-10.1463
磬	-10.1465
六尺	-10.1465
爽	-10.1465
誨	-10.1466
脚	-10.1469
轎	-10.1469
欽此故	-10.1472
如儀	-10.1479
飲食	-10.1483
廂	-10.1488
人皆	-10.1493
㕘政	-10.1493
股肱	-10.1498
宗伯	-10.1503
生民	-10.1505
平章	-10.1508
八日	-10.1521
圖書	-10.1523
丹陛	-10.1528
掌印	-10.1529
奏準	-10.1532
合行	-10.1534
聖諭	-10.1538
具本	-10.1539
豈可	-10.1539
不堪	-10.1543
四日	-10.1548
不相	-10.1548
抵	-10.1549
不可以	-10.1557
之位	-10.1558
監督	-10.1559
亦以	-10.156
契丹	-10.1563
僖	-10.1563
遥	-10.1571
披	-10.1572
緣	-10.1574
賫	-10.1574
每月	-10.1582
雕	-10.1583
考課	-10.1604
事情	-10.1607
建置	-10.1608
位前	-10.161
官及	-10.1613
不載	-10.1618
有無	-10.1619
初設	-10.1621
三師	-10.1625
字韻	-10.1631
在内	-10.1633
不便	-10.1634
錄事	-10.1639
㦸	-10.1643
正殿	-10.1649
迄	-10.1657
以禮	-10.1658
簫	-10.1659
五城	-10.1662
歛	-10.1667
繩	-10.1667
殘	-10.1671
楊士竒	-10.1672
隴	-10.1672
奴	-10.1672
巨	-10.1673
樂工	-10.1674
恃	-10.1674
趣	-10.1677
逵	-10.1678
函	-10.1678
貸	-10.168
考取	-10.168
斬	-10.1683
賓客	-10.169
四十人	-10.1694
奉御	-10.1695
擇日	-10.1695
大抵	-10.1696
著為令	-10.1696
江淮	-10.1698
調任	-10.1702
監事	-10.1714
謹案唐	-10.1717
止許	-10.1719
照舊	-10.1721
規制	-10.1727
班首	-10.1735
大學	-10.1735
五經	-10.1746
年月	-10.1747
辛未	-10.1751
者或	-10.1759
之長	-10.1763
從容	-10.1764
𤓰	-10.1766
昧	-10.1771
二十一	-10.1773
歎	-10.1774
聿	-10.1775
通政司	-10.1775
内臣	-10.1775
匿	-10.1776
戈	-10.1776
牲醴	-10.1776
隙	-10.1777
妙	-10.1778
常平	-10.1779
都省	-10.1779
蔚	-10.1781
防禦	-10.1783
送部	-10.1786
加封	-10.1788
龍朔	-10.179
光祿寺	-10.179
太醫院	-10.1791
累朝	-10.1792
又定	-10.1796
玉牒	-10.18
各二	-10.18
安國	-10.1804
案前	-10.1805
衛所	-10.1811
州郡	-10.1813
聖駕	-10.1813
近年	-10.1813
歐陽	-10.1814
王奏	-10.1819
洪武二年	-10.182
皇妃	-10.1821
定例	-10.1831
入朝	-10.1831
是為	-10.1841
案于	-10.1845
年月日	-10.1849
軍器	-10.1851
年老	-10.1855
同上	-10.1862
其家	-10.1862
也故	-10.1864
内贊奏	-10.1871
菜	-10.1877
笙	-10.1877
涵	-10.1878
渾	-10.1878
嫁	-10.1879
隔	-10.1879
牽	-10.188
簮	-10.188
溢	-10.1881
朋	-10.1882
三間	-10.1883
陣	-10.1884
探	-10.1884
出圭	-10.1885
廐	-10.1889
撫按	-10.1891
兵部侍郎	-10.1893
蔡確	-10.1896
可謂	-10.1899
一箇	-10.1902
實以	-10.1908
一斤	-10.1917
贊引	-10.1917
撰文	-10.193
校書郎	-10.1932
教化	-10.1933
之誠	-10.1936
奏搢圭	-10.1944
降為	-10.1945
乙丑	-10.1945
道路	-10.1947
帝后	-10.1952
這	-10.1957
掌院學士	-10.196
尚書侍郎	-10.196
寮	-10.1973
氷	-10.198
十名	-10.1982
瑪	-10.1983
妨	-10.1984
舄	-10.1985
套	-10.1987
壞	-10.1987
開府儀同三司	-10.1988
纓	-10.1988
札	-10.1993
捐	-10.1993
繪	-10.1994
百餘	-10.1996
元和	-10.1997
遼東	-10.1998
罄	-10.1998
永樂二年	-10.2007
損益	-10.2007
中官	-10.2007
賞罰	-10.2008
罷之	-10.201
前項	-10.202
戊戌	-10.203
原籍	-10.2032
刑獄	-10.2032
也原	-10.2033
學正	-10.2039
取士	-10.2048
一百二十	-10.2049
責授	-10.205
五季	-10.206
之祭	-10.2061
頒行	-10.2062
寨	-10.207
又言	-10.2074
帝本紀	-10.2076
祠祭署	-10.2084
仍兼	-10.2086
箱	-10.2089
崇禎	-10.2093
詭	-10.2093
團	-10.2093
通議大夫	-10.2096
沉	-10.2097
樞密使	-10.2098
逾	-10.2099
彩	-10.2101
上章	-10.2102
剌	-10.2104
總裁	-10.2104
不允	-10.2105
二兩	-10.2106
也其	-10.211
中道	-10.2112
選婚	-10.2114
革帶	-10.2119
將來	-10.2123
䝉古語	-10.2125
之左	-10.2132
二十八	-10.2138
無以	-10.2139
午門	-10.2149
十斤	-10.2158
上疏	-10.216
仲春	-10.2161
總理	-10.2166
把總	-10.2173
彦博	-10.2183
百司	-10.2183
現	-10.2186
議得	-10.2188
麾	-10.2191
祀事	-10.2191
時享	-10.2191
㸔	-10.2192
碧	-10.2196
炎	-10.2197
鑿	-10.22
得人	-10.2201
桃	-10.2205
表箋	-10.2205
職方	-10.2205
餉	-10.2206
卧	-10.2206
至于	-10.2208
前鋒	-10.2211
宣撫使	-10.2214
漢制	-10.2214
不如	-10.2218
驕	-10.2219
六百石	-10.2221
司郎中	-10.2226
延祐	-10.2227
寸五分	-10.2231
分司	-10.2234
稱賀	-10.224
太祖髙皇帝	-10.2241
其罪	-10.2242
令其	-10.2242
吏目	-10.2242
始於	-10.2246
樂止典儀唱	-10.2246
事體	-10.2246
第五	-10.2248
不肯	-10.2252
大官	-10.2254
儀賔	-10.2255
毎月	-10.2259
之罪	-10.226
無窮	-10.2262
以進	-10.2266
帝紀	-10.2271
兼權	-10.2271
奏禮畢	-10.2283
不然	-10.2284
丙辰	-10.229
節制	-10.2298
正九品	-10.2298
師生	-10.23
籩	-10.23
王子	-10.2301
靴	-10.231
己未	-10.2311
拂	-10.2313
晏	-10.2314
醉	-10.2314
蹈	-10.2314
潜	-10.2315
枉	-10.2315
募	-10.2317
奔	-10.2318
凟	-10.2318
觴	-10.2319
宫使	-10.2326
永平	-10.2327
回回	-10.2329
省牲	-10.2329
滿洲語	-10.2333
禁約	-10.2335
盛典	-10.2337
亦可	-10.2338
劄子	-10.2338
拔	-10.2342
具朝服	-10.2343
忍	-10.2349
人萬厯	-10.2355
太子少保	-10.236
有此	-10.2364
封為	-10.2365
月日	-10.2368
喪禮	-10.237
為國	-10.2377
革去	-10.2377
大政	-10.2378
西階	-10.2379
五品以上	-10.2383
豕	-10.2389
見在	-10.2395
尚食	-10.2397
行文	-10.2402
官職	-10.2408
應試	-10.2414
查照	-10.2414
八品	-10.2416
頓	-10.2417
受冊	-10.2417
几筵	-10.2418
貌	-10.2418
綵段	-10.2419
毎人	-10.242
相近	-10.242
豈不	-10.2421
鉶	-10.2422
侈	-10.2423
綽	-10.2423
哩	-10.2424
瑶	-10.2424
駁	-10.2425
脫	-10.2425
入貢	-10.2426
斟酌	-10.2427
奠帛	-10.2427
文理	-10.2428
靣	-10.2428
三尺	-10.2428
悟	-10.2431
祭服	-10.2433
賔客	-10.2433
五經博士	-10.2434
五分	-10.2435
陽王	-10.2437
臨雍	-10.2439
聖明	-10.2439
淳化	-10.2439
羌	-10.2444
本處	-10.2448
邦國	-10.2449
千總	-10.2456
刑部尚書	-10.2459
致詞	-10.246
魏書	-10.2462
又令	-10.2474
之説	-10.2486
玉海	-10.2487
縣丞	-10.2488
萬户	-10.2492
測	-10.2492
歸附	-10.2493
異數	-10.25
舊封	-10.2501
癸丑	-10.2513
沆	-10.2513
丑	-10.2519
復設	-10.252
簠簋	-10.2529
所由	-10.253
磨	-10.2534
嘆	-10.2535
壓	-10.2538
之情	-10.254
阜	-10.254
十餘年	-10.254
括	-10.254
富弼	-10.2541
無定員	-10.2543
覩	-10.2543
蚤	-10.2545
得失	-10.2547
巡按	-10.2553
是非	-10.2555
食糧	-10.2555
太祝	-10.2556
事件	-10.2558
一副	-10.2559
秘書省	-10.2562
從八品下	-10.2562
從九品上	-10.2564
諸道	-10.2573
使之	-10.2573
皆得	-10.2574
士子	-10.258
處分	-10.2583
捧帛	-10.2586
禮部右侍郎	-10.2594
長孫	-10.2603
位次	-10.2605
肯	-10.2606
名曰	-10.2607
十四人	-10.2608
謹案漢	-10.2622
二分	-10.2622
丙	-10.2623
奉聖㫖是	-10.2625
醴	-10.2633
春坊	-10.2636
一卷	-10.2637
與其	-10.2641
墜	-10.2642
隋置	-10.2644
掲	-10.2648
狩	-10.2649
粮	-10.265
膠	-10.265
姜	-10.2651
𣲖	-10.2652
零	-10.2653
候上	-10.2658
實為	-10.2663
十疋	-10.2663
蠻夷	-10.2664
起復	-10.2664
上意	-10.2671
著他	-10.2675
皆在	-10.2676
致齋	-10.2678
睿宗	-10.2678
行令	-10.2687
定為	-10.2692
自有	-10.2695
禁令	-10.2703
三獻	-10.2704
五員	-10.2706
禮物	-10.2707
伏乞	-10.2711
開國	-10.2715
主簿一人	-10.2721
禪	-10.2721
廡	-10.2729
嘉靖四十	-10.2731
實錄	-10.2734
逺近	-10.2734
庚	-10.274
天之	-10.274
貟	-10.2741
霞	-10.2751
彬	-10.2757
盞	-10.2761
鎬	-10.2764
箭	-10.2767
偃	-10.2768
没	-10.2769
闢	-10.2771
寺觀	-10.2776
冕服	-10.2782
正九品下	-10.2782
工部侍郎	-10.2785
請勅	-10.279
内賛奏	-10.2795
太常寺官	-10.2796
第三品	-10.28
翰林官	-10.2805
因循	-10.2808
軍事	-10.2809
院事	-10.281
相同	-10.2811
之學	-10.2816
五等	-10.282
元帥	-10.2826
供事	-10.2835
補闕	-10.2835
洪武二十	-10.2842
壬	-10.2848
軍務	-10.285
時有	-10.2854
乞罷	-10.2855
士大夫	-10.2857
之用	-10.286
推官	-10.2862
東階	-10.2864
家人	-10.2869
閤	-10.2872
奏曰	-10.2875
河道	-10.2877
軰	-10.2879
耗	-10.2879
想	-10.2879
泛	-10.2881
肩	-10.2881
嚮	-10.2884
徃徃	-10.2884
帷幄	-10.2885
牀	-10.2886
中間	-10.2886
隣	-10.2886
本院官	-10.2887
劄付	-10.2888
如何	-10.2888
宣慰司	-10.2888
體貌	-10.2892
相繼	-10.2893
神祇	-10.2901
左丞	-10.2901
爵三	-10.2903
戊辰	-10.2905
河西	-10.2907
乃以	-10.2911
備考	-10.2915
從官	-10.2918
柩	-10.2924
制置	-10.2927
未能	-10.2928
違例	-10.2928
大同	-10.2932
同知樞宻院事	-10.2934
酋	-10.2941
内侍官	-10.2946
禮部議	-10.2947
在樞府	-10.295
章奏	-10.2957
百七十	-10.2958
萬石	-10.2964
叅政	-10.2965
召對	-10.297
最為	-10.297
多有	-10.2972
講學	-10.2975
丁丑	-10.2982
開封府	-10.2983
戌	-10.2984
三司使	-10.2986
其他	-10.2989
長史司	-10.2991
飬	-10.2993
霄	-10.2993
彚	-10.2994
壬戌	-10.2997
此例	-10.2998
㳺	-10.3
誘	-10.3
馴	-10.3002
戾	-10.3002
中和	-10.3007
陪臣	-10.3007
緝	-10.3009
著作郎	-10.3011
可否	-10.3014
公侯伯	-10.3018
天官	-10.3019
士遜	-10.302
著於	-10.3021
金人	-10.303
聖節	-10.3032
𠫭軍	-10.3033
奉行	-10.3036
修省	-10.3045
將作	-10.3046
出使	-10.305
差遣	-10.3058
行取	-10.3069
未可	-10.3072
學士充	-10.3073
毎年	-10.3078
分理	-10.308
國有	-10.3081
一月	-10.3083
他官	-10.3083
不一	-10.3084
某氏	-10.3085
儀制	-10.3087
使相	-10.3106
忌辰	-10.3111
禮制	-10.3111
自此	-10.3114
村	-10.3117
秀才	-10.3118
忤	-10.3118
醇	-10.3118
必大	-10.3119
訛	-10.312
事理	-10.3121
利用	-10.3122
璁	-10.3122
患病	-10.3123
鞫	-10.3123
晦	-10.3123
數月	-10.3125
輔導	-10.3125
吹	-10.3125
照依	-10.3135
有成	-10.3137
二十七日	-10.3139
孟春	-10.314
有缺	-10.3141
而有	-10.3145
次之	-10.3145
詔曰	-10.3146
永樂間	-10.3149
太醫	-10.3161
期滿	-10.3161
臣民	-10.3164
尚享	-10.3166
選用	-10.3168
大紅	-10.3173
一代	-10.3174
送至	-10.3179
勝非	-10.3182
俱用	-10.3187
未置	-10.3187
知印	-10.3188
親郡王	-10.3188
春官	-10.32
六科	-10.3202
相與	-10.3203
羣牧	-10.3203
圜	-10.3203
崇寧	-10.3203
道士	-10.3207
磁	-10.3212
明代	-10.3213
江左	-10.3213
不至	-10.3215
之任也	-10.3215
仁祖	-10.3219
可也	-10.3221
金石	-10.3224
嶺	-10.3229
協律郎	-10.3232
濬	-10.3233
叨	-10.3233
所宜	-10.3236
撤	-10.3237
盟	-10.3238
四寸	-10.3239
謄録	-10.324
間有	-10.324
洎	-10.324
萊	-10.324
参	-10.3242
虧	-10.3247
通事舍人	-10.3247
涉	-10.3248
王國	-10.3249
艱難	-10.3249
旒	-10.3249
按察使	-10.325
史二人	-10.3258
始有	-10.3259
依前充	-10.326
禮部官	-10.3263
府知府	-10.3267
無事	-10.327
准襲	-10.3271
以俟	-10.3273
請㫖	-10.3274
伏惟	-10.3297
正使	-10.3299
學政	-10.33
崇文	-10.3313
贊禮	-10.3317
太樂	-10.3321
手本	-10.333
於外	-10.3331
武職	-10.3339
堂上	-10.3347
賡	-10.3355
暢	-10.3356
諾	-10.3357
貢舉	-10.3359
薪	-10.3359
荀	-10.3361
賤	-10.3361
之謀	-10.3362
衮冕	-10.3362
宛	-10.3363
渉	-10.3364
頓首	-10.3364
鈎	-10.3364
涇	-10.3364
昆	-10.3366
忱	-10.3366
㫁	-10.3368
典簿㕔	-10.3368
蠲	-10.3369
譏	-10.3369
一二	-10.3369
漠	-10.3372
監司	-10.3374
靖康	-10.3376
所為	-10.3378
副都統	-10.3381
鑄錢	-10.3386
者矣	-10.3386
徽宗	-10.3394
官生	-10.3396
文職	-10.3403
衛尉	-10.3409
而退	-10.3413
嵗終	-10.3413
公服	-10.3414
軍國	-10.3415
司主事	-10.3415
米一石	-10.3417
讀祝官	-10.3423
御筆	-10.3424
設香案	-10.3427
陞授	-10.3428
聖王	-10.3433
數十	-10.3433
朝參	-10.3434
紹聖	-10.3436
祫	-10.3438
奉天殿	-10.3439
一隻	-10.345
法司	-10.3451
庫部	-10.3453
以疾	-10.3462
稱為	-10.3463
如例	-10.3469
總領	-10.347
等第	-10.3473
燒	-10.3474
湖北	-10.3474
爼	-10.3475
便殿	-10.3477
蹇	-10.3479
劍	-10.3482
模	-10.3482
轍	-10.3482
牆	-10.3483
狥	-10.3484
之才	-10.3485
都指揮使	-10.3486
鉉	-10.3486
多士	-10.3487
窺	-10.3487
滌	-10.3487
以昭	-10.3488
提舉洞霄宫	-10.3488
奇	-10.3489
三十二年	-10.3489
溝	-10.349
瑛	-10.349
題準	-10.349
斂	-10.3494
朱子	-10.3495
營繕	-10.3496
中書舎人	-10.3497
亶	-10.3498
之隆	-10.3499
猛	-10.3502
紀綱	-10.3507
定議	-10.3509
録事一人	-10.3509
兩宫	-10.3515
降香	-10.3526
喪主	-10.3533
聖母	-10.3535
慶成	-10.3542
家令	-10.3548
石鼓	-10.3558
跪受	-10.3559
官司	-10.3561
進表	-10.3571
多不	-10.3572
無異	-10.3591
神龍	-10.3593
通州	-10.3595
承祭官	-10.3596
内有	-10.3597
梓	-10.36
秦王	-10.3602
試卷	-10.3603
耿	-10.3604
僭	-10.3606
瀛	-10.3607
正旦冬至	-10.3608
考校	-10.3608
泗	-10.3609
尚寳司	-10.3609
喬	-10.361
嗟	-10.361
長男	-10.3611
詆	-10.3612
汲	-10.3615
侮	-10.3615
控	-10.3615
故有是命	-10.3616
粤	-10.3617
狄	-10.3618
劉摯	-10.3619
巫	-10.3621
妾媵	-10.3622
四人掌	-10.3626
簽書	-10.3631
行省	-10.3635
停止	-10.3637
如舊	-10.3637
乃命	-10.3638
從七品下	-10.3638
舉哀	-10.3639
選擇	-10.3649
給賜	-10.3653
五十人	-10.3662
之右	-10.3666
職者	-10.3668
上從之	-10.3674
取其	-10.3675
詹	-10.3676
先農	-10.3681
無可	-10.3686
數日	-10.3689
大駕	-10.3692
之恩	-10.37
臨時	-10.3701
之權	-10.3704
四分	-10.3713
直院	-10.3715
官學	-10.3719
淨	-10.372
皂	-10.3723
漢人一人	-10.3723
大業	-10.3729
祕	-10.3731
逼	-10.3734
岷	-10.3735
范純仁	-10.3735
塟	-10.3737
陷	-10.3738
一事	-10.3738
處之	-10.3738
廏	-10.3742
凶	-10.3742
堯舜	-10.3743
訊	-10.3747
許之	-10.375
所得	-10.3754
兩拜	-10.3754
之語	-10.3765
大成殿	-10.3766
神明	-10.3773
挺	-10.3774
未必	-10.3775
存留	-10.3779
者乃	-10.378
嘉靖八年	-10.3781
奏四拜	-10.3785
辛丑進士	-10.379
詞臣	-10.379
成周	-10.3795
禮部覆	-10.38
革爵	-10.38
單于	-10.3803
樞密	-10.3807
以便	-10.3808
入學	-10.3818
撥置	-10.3822
六日	-10.3823
廷試	-10.3833
不容	-10.3834
其意	-10.3836
樂奏	-10.3842
等州	-10.3845
委官	-10.3848
十兩	-10.3851
三寸	-10.386
惕	-10.3862
汾	-10.3863
塵	-10.3867
兼翰林院學士	-10.3869
之分	-10.3873
所請	-10.3874
從九	-10.3879
類奏	-10.3884
筵宴	-10.3884
之稱	-10.3886
部落	-10.3889
長陵	-10.3894
安危	-10.3898
金吾	-10.3905
添設	-10.3908
步軍	-10.3918
三十三年	-10.3921
率府	-10.3921
吉服	-10.3922
教養	-10.393
于此	-10.3931
而止	-10.3931
衆官	-10.3932
其日	-10.3932
薦舉	-10.3934
令一人	-10.3938
學問	-10.394
者仍	-10.3945
官品	-10.3947
九日	-10.3949
掖	-10.3957
曰吾	-10.3961
開封	-10.3961
賜之	-10.3963
人臣	-10.3964
勅諭	-10.3966
服色	-10.3966
府學	-10.3969
於前	-10.3969
作樂	-10.3973
評	-10.3973
宫觀	-10.3979
二箇	-10.398
桐	-10.399
邢	-10.3991
就彼冠帶	-10.3991
呵	-10.3994
揺	-10.3996
咸亨	-10.3997
翁	-10.3998
河渠	-10.3998
醖	-10.3999
具題	-10.4003
國事	-10.401
之職也	-10.4013
諸儒	-10.4014
撫按官	-10.4016
天啟	-10.4018
白金	-10.402
六十人	-10.4021
從一品	-10.4024
以爲	-10.4024
諸官	-10.4027
曰臣	-10.4028
之私	-10.4037
萬邦	-10.404
五斗	-10.4048
盛京	-10.4057
本紀	-10.4072
仍行	-10.4073
永樂初	-10.4074
文宣	-10.4076
順治元年	-10.4079
諸將	-10.4084
府州	-10.4088
及其	-10.4092
汗	-10.4096
公論	-10.4103
兵曹	-10.4106
禮部覆奏	-10.4106
揚州	-10.4114
不盡	-10.4114
昊	-10.4116
擁	-10.4118
資政殿大學士	-10.4122
六分	-10.4122
昏	-10.4123
䕃	-10.4124
牘	-10.4126
尚有	-10.4126
獵	-10.4126
辯	-10.4126
帛一	-10.4127
匡	-10.4128
賄	-10.4129
拾遺	-10.4129
散騎常侍	-10.4129
凱	-10.4129
兇	-10.4129
幅	-10.413
㤗	-10.4131
儆	-10.4132
剏	-10.4132
禽	-10.4134
寢殿	-10.4135
敘	-10.4136
上林	-10.4149
勤勞	-10.4151
照得	-10.4152
六經	-10.4158
論語	-10.4161
世之	-10.4162
别駕	-10.4167
文臣	-10.4171
正五	-10.4177
獄訟	-10.418
品第	-10.418
雍正元年	-10.419
䕶衛	-10.4193
東閣	-10.4198
香案	-10.42
武王	-10.4204
導上至	-10.4215
得罪	-10.4219
相承	-10.4219
北向立	-10.4221
官一人	-10.4223
尺合四	-10.4227
特恩	-10.4228
轉行	-10.4229
成王	-10.4235
至治	-10.4236
羮	-10.4241
衙	-10.4242
之務	-10.4243
六曰	-10.4244
諸陵	-10.4244
東門	-10.4245
武宗	-10.4245
五色	-10.4247
徳祖	-10.4247
揭	-10.425
蓮	-10.4251
禋	-10.4254
臺諫	-10.4255
紏	-10.4256
今改	-10.4257
鞭	-10.4259
沐	-10.426
五品已上	-10.4261
悖	-10.4261
饋	-10.4262
仿	-10.4264
議處	-10.4264
䖏	-10.4264
徇	-10.4265
薩	-10.4266
杜佑通典	-10.4267
欽此故男	-10.4273
楪	-10.4274
大防	-10.4275
五代史	-10.428
欲以	-10.4284
一座	-10.429
龍亭	-10.4295
王氏	-10.4296
有大	-10.4298
統領	-10.4304
某人	-10.4305
守臣	-10.4306
一前期	-10.4312
風雨	-10.4318
大司農	-10.4319
髙下	-10.432
丞各一人	-10.4325
若不	-10.433
宣諭	-10.4331
然而	-10.4335
不欲	-10.4338
建文	-10.4342
奉使	-10.4348
授以	-10.4351
官皆	-10.4351
一寸	-10.4357
祖宗之	-10.436
品官	-10.4367
大鴻臚	-10.4367
參議	-10.4368
階下	-10.4369
殿庭	-10.4373
一疋	-10.4377
其任	-10.4378
枝一兩燭	-10.4378
漢唐	-10.438
等三百	-10.4383
暮	-10.4384
奏報	-10.4385
樸	-10.4385
旗纛	-10.439
佳	-10.4392
芝	-10.4394
秘閣	-10.4395
太平興國	-10.4397
葺	-10.4398
誌	-10.4399
大典	-10.44
狂	-10.44
綵幣	-10.4403
提舉司	-10.4404
是日早	-10.4408
起居郎	-10.4409
往來	-10.4411
置于案	-10.4413
尤為	-10.4415
文彦博	-10.4419
故不	-10.4432
災異	-10.4432
不易	-10.4432
成帝	-10.4435
特賜	-10.4441
出閣	-10.4442
如前	-10.4442
例該	-10.4443
冊立	-10.4445
毎嵗	-10.4448
十哲	-10.4452
之議	-10.4462
壬辰	-10.4464
參軍事	-10.4464
庚戌	-10.4465
文官	-10.4466
軍士	-10.4467
後改	-10.4472
之世	-10.4483
廟堂	-10.4483
主祭	-10.4488
黄門	-10.4492
大中	-10.4492
特命	-10.4493
伴	-10.4502
不問	-10.4504
兼理	-10.4507
綺	-10.4508
唐書	-10.4517
三楹	-10.4517
到任	-10.4518
風雲雷雨	-10.452
千人	-10.452
我皇	-10.4523
制誥	-10.4524
祁	-10.4524
昻	-10.4525
長丞	-10.4529
用金	-10.453
集賢院	-10.4531
大中祥符	-10.4531
皷	-10.4531
攷	-10.4532
驥	-10.4532
約束	-10.4534
礙	-10.4534
所有	-10.4534
莅	-10.4534
則曰	-10.4535
弄	-10.4536
魁	-10.4536
返	-10.4536
敞	-10.4537
鄭康成注	-10.4538
監肄業	-10.4539
庶㡬	-10.4539
元年正月	-10.4539
宣和	-10.454
增置	-10.4542
匈奴	-10.4544
賛禮	-10.455
止於	-10.4552
風憲	-10.4554
治平	-10.4564
五府	-10.4572
王珪	-10.4575
甚至	-10.4576
自此始	-10.4579
傳賛	-10.4583
孔氏	-10.4583
班次	-10.4587
古制	-10.4591
掌之	-10.4596
右諫議大夫	-10.4602
三十五	-10.4615
京兆	-10.4616
太子太保	-10.4616
嘉靖十年	-10.462
正祭	-10.4625
三斤	-10.4633
尊崇	-10.4633
各布政司	-10.4635
州牧	-10.464
景帝	-10.4641
曰某	-10.4642
行宫	-10.4647
具服	-10.4647
首領	-10.4647
枝二兩燭	-10.4654
列于	-10.4656
宣撫	-10.4658
影	-10.4662
畝	-10.4664
人掌固四人	-10.4664
迭	-10.4665
折鈔	-10.4669
鹽鐡	-10.4672
絹二疋	-10.4672
管理府事	-10.4673
偕	-10.4674
賜緋	-10.4675
㨗	-10.4676
俊秀	-10.4676
免朝	-10.4677
東廡	-10.4677
狼	-10.4678
副榜	-10.4679
搆	-10.468
財賦	-10.468
二年正月	-10.4681
嘉祐	-10.4681
不從	-10.4681
又改	-10.4681
但有	-10.4682
光禄大夫	-10.4682
甲子	-10.4682
本寺卿	-10.4686
侍臣	-10.4687
牙牌	-10.4696
祭畢	-10.4697
書院	-10.4698
州安置	-10.4699
不失	-10.4699
朕意	-10.4704
朔日	-10.4705
相見	-10.4714
康伯	-10.4715
保結	-10.4717
從七品上	-10.4719
案上	-10.472
終身	-10.4724
處置	-10.473
外國	-10.4735
門出	-10.474
二疋	-10.4741
詩書	-10.4743
自行	-10.4745
萬一	-10.4748
數目	-10.4749
尊號	-10.4752
金山	-10.4752
也若	-10.4753
何如	-10.4757
浙	-10.4763
為上	-10.4765
諸曹	-10.4769
如此則	-10.4784
補授	-10.4785
名實	-10.4786
敏中	-10.4786
不改	-10.4791
而復	-10.4798
矩	-10.4801
閉	-10.4802
汛	-10.4803
本等	-10.4804
百世	-10.4805
洲	-10.4806
通政使	-10.4807
屠	-10.4808
筭	-10.4808
千秋	-10.4809
旭	-10.4809
凉	-10.4809
坤	-10.481
崩	-10.481
壅	-10.481
賁	-10.4811
賢才	-10.4812
沔	-10.4812
得其	-10.4813
裝	-10.4813
踈	-10.4814
顓	-10.4814
宗人府	-10.4814
臘	-10.4816
奥	-10.4816
奄	-10.4816
覆奏	-10.4819
濳善	-10.4819
覃	-10.4819
周之	-10.482
新法	-10.482
後漢書百官志	-10.4821
其心	-10.4821
長史教授	-10.4823
私自	-10.4823
饑	-10.4824
於戯	-10.4825
利害	-10.4826
在西	-10.4826
之期	-10.4835
賛四拜	-10.4838
首領官	-10.4842
改元	-10.4844
河南尹	-10.4847
成婚	-10.4848
既有	-10.4848
漢之	-10.4848
甲申	-10.4849
王者	-10.4854
差役	-10.4855
如前儀	-10.4856
祭品	-10.4856
紅羅	-10.4863
亦皆	-10.4867
如初	-10.4868
萬物	-10.4875
舊典	-10.4875
萬歴	-10.4875
高祖	-10.4875
一官	-10.488
從六品上	-10.4886
兼掌	-10.4886
洪武十五年	-10.4888
宋制	-10.4889
卒贈	-10.4892
明初	-10.4895
五千	-10.4898
晉書	-10.4902
釐正	-10.4907
求去	-10.491
方平	-10.492
朝鮮國	-10.4925
封贈	-10.4928
充軍	-10.493
為之貳	-10.493
百石	-10.4941
右春坊	-10.4943
忻	-10.4944
䘏	-10.4944
清明	-10.4945
二十九	-10.4946
先師廟	-10.4947
北平	-10.4947
中式	-10.4949
漫	-10.4951
贍	-10.4951
蒸	-10.4952
叶	-10.4953
勛	-10.4953
巡檢司巡檢	-10.4953
贊禮唱	-10.4955
踵	-10.4955
浦	-10.4956
潞	-10.4958
不設	-10.4958
倖	-10.4958
蘓	-10.4959
閻	-10.496
翰苑	-10.4961
為人	-10.4963
四尺	-10.4967
算學	-10.4971
衞尉	-10.4973
者聽	-10.4975
院使	-10.4975
號為	-10.4976
安撫	-10.4977
考試官	-10.498
究治	-10.4984
搢圭	-10.4985
親征	-10.4986
某官	-10.4991
無聞	-10.4992
四部	-10.5008
進士萬厯	-10.5014
侯伯	-10.5014
竊惟	-10.5017
本色	-10.502
律令	-10.5021
奉聖㫖准他	-10.5023
天順元年	-10.5024
今制	-10.5026
亭長	-10.5027
則是	-10.5029
告成	-10.5034
初授	-10.5036
者悉	-10.5037
考其	-10.5037
四名	-10.5044
此事	-10.5046
遂罷	-10.5048
五斤	-10.5049
額數	-10.505
上請	-10.5053
始也	-10.5054
五間	-10.5058
儀衛	-10.506
館職	-10.507
琉球	-10.5072
經籍	-10.5073
十有一	-10.5076
堂官	-10.5081
大統	-10.5084
栢	-10.5087
縂	-10.5089
霜	-10.5092
歴代帝王	-10.5093
属官有	-10.5093
膏	-10.5093
臧	-10.5094
淫	-10.5094
嶽鎮海瀆	-10.5095
譜	-10.5097
元符	-10.5098
恥	-10.51
中門	-10.5101
於民	-10.5101
矯	-10.5102
丁亥	-10.5103
别有	-10.5103
用兵	-10.5103
使司	-10.5103
琴	-10.5104
不忘	-10.5104
嗚呼	-10.5104
僣	-10.5104
丁憂	-10.5105
竇	-10.5105
衰服	-10.5107
殫	-10.5109
蘭臺	-10.511
可見	-10.511
宣帝	-10.511
在位	-10.5111
無所不	-10.5113
簇	-10.5113
俱與	-10.5118
則為	-10.5119
杭州	-10.5121
十隻	-10.5121
登極	-10.5125
給賞	-10.5126
然考	-10.5128
其國	-10.513
隨時	-10.5136
者並	-10.5137
一節	-10.514
科目	-10.5145
聰明	-10.5147
李綱	-10.5154
四門	-10.5159
騎尉	-10.5166
嘉靖十一年	-10.5177
置於	-10.518
百里	-10.5181
都水監	-10.5183
入班	-10.5184
貞元	-10.5187
工尺一合	-10.5193
無疆	-10.5193
洪武十六年	-10.5194
主事二人	-10.5196
不世襲	-10.52
後唐	-10.5201
正統元年	-10.5202
二十三	-10.5202
擢用	-10.5204
安王	-10.5204
漢文	-10.5206
尚書郎	-10.521
供給	-10.5212
校書	-10.5212
世孫	-10.5214
中統	-10.5226
月初一日	-10.5226
者曰	-10.5228
近臣	-10.5232
各部	-10.5237
欠	-10.5238
潮	-10.5238
諸神	-10.524
椒	-10.5242
行叩頭禮	-10.5243
朋黨	-10.5245
韈	-10.5246
香燭	-10.5247
曩	-10.5248
宵	-10.5249
弭	-10.5249
汰	-10.525
庾	-10.5253
再三	-10.5256
灌	-10.5256
都事	-10.5257
閫	-10.5259
老疾	-10.5261
可為	-10.5262
於太廟	-10.5262
因事	-10.5272
置于	-10.5275
用事	-10.5275
實授	-10.5283
自然	-10.5284
輟朝	-10.5294
除參知政事	-10.5294
者如	-10.5295
鬼	-10.5297
祭葬	-10.5298
入見	-10.5302
神座	-10.5305
丙戌	-10.5306
部議	-10.5307
字子	-10.531
國子祭酒	-10.531
禮部左侍郎	-10.531
十一人	-10.5313
叅議	-10.5315
經歴	-10.5316
辛丑	-10.5317
執爵	-10.5325
行禮畢	-10.5327
互見	-10.5331
未盡	-10.5332
千餘	-10.5336
十五斤	-10.5338
一槩	-10.5339
奉勅	-10.5341
監門	-10.5342
大都督	-10.5345
黄帝	-10.5345
武備	-10.5349
稽考	-10.535
股肱之	-10.5354
後又	-10.5354
八兩	-10.5359
明帝	-10.5361
屬於	-10.5363
庚辰	-10.537
半年	-10.5374
都堂	-10.5377
太史令	-10.5378
聖徳	-10.5381
祠祭	-10.5382
映	-10.5386
正四	-10.5388
組	-10.5389
聞之	-10.5394
樞密副使	-10.5395
冉	-10.5397
惰	-10.5399
平定	-10.5399
書成	-10.5399
釁	-10.5399
喧	-10.54
系	-10.54
脱	-10.5401
奢	-10.5401
籩豆各	-10.5405
柏	-10.5407
某等	-10.5408
文武羣臣	-10.5409
常朝	-10.541
㑹同館	-10.541
天聖	-10.5412
輔弼	-10.5417
亦宜	-10.5418
年例	-10.5418
立法	-10.542
獻帛	-10.5425
財物	-10.5426
出則	-10.5428
稽察	-10.5428
我國家	-10.5429
龍朔二年改為	-10.5432
朝官	-10.5432
賜紫	-10.5437
重事	-10.544
請名	-10.5445
止用	-10.5451
告祭	-10.5458
大觀	-10.5462
於後	-10.5463
校理	-10.5463
奏擾	-10.5465
其數	-10.5466
齊賢	-10.5468
制帛	-10.547
副將	-10.5474
十四日	-10.5479
必先	-10.5483
御藥	-10.5488
十有五	-10.5489
之志	-10.5491
文明	-10.5492
神庫	-10.5494
以至	-10.5496
建議	-10.5496
妣	-10.5501
一萬	-10.5503
跪奏請	-10.5504
五帝	-10.5511
經術	-10.5511
郎將	-10.5515
故有	-10.5516
四箇	-10.5518
誥勅	-10.5522
瑄	-10.5523
四配	-10.5526
十有二人	-10.5527
不已	-10.5531
紋	-10.5531
月十一日	-10.5534
諮	-10.5535
賛跪	-10.5536
出院	-10.5536
馨	-10.5538
八旗官學	-10.5542
都城	-10.5542
佞	-10.5543
而去	-10.5543
籖	-10.5543
袱	-10.5544
籥	-10.5544
頻	-10.5547
該本部議得	-10.5547
倪	-10.5547
黃	-10.5548
迺	-10.5548
瑾	-10.5548
皁	-10.5548
顧問	-10.5549
五名	-10.555
不出	-10.555
汴	-10.555
闔	-10.5551
潭	-10.5552
苐	-10.5552
壤	-10.5553
絃	-10.5553
吕公著	-10.5553
憫	-10.5553
國朝官制	-10.5553
群	-10.5554
鈐	-10.5555
枚	-10.5557
見任	-10.5559
擒	-10.556
飲酒	-10.5563
之次	-10.5565
在東	-10.5567
看詳	-10.5569
欽遵	-10.557
所云	-10.5571
司勲	-10.5576
四百石	-10.5577
年任歴	-10.5589
以資	-10.5596
中有	-10.5599
夷人	-10.5601
來京	-10.5602
秘書郎	-10.5609
得之	-10.561
百五十	-10.5613
諸軍事	-10.5614
千石	-10.5617
之資	-10.5617
諭徳	-10.5618
甲戌	-10.5619
供祀	-10.5621
於朝	-10.5631
之計	-10.5632
先行	-10.5634
品物	-10.5645
衢	-10.5646
叩	-10.5648
典刑	-10.5651
正副	-10.5652
以安	-10.5652
有違	-10.5653
欽定厯代職官表卷	-10.5654
皇親	-10.5658
挺之	-10.5659
倉庫	-10.566
三十四年	-10.5663
之職掌	-10.5664
袋	-10.5667
文體	-10.5668
之規	-10.5671
下程	-10.5681
秋官	-10.5682
宦	-10.5683
仍以	-10.5684
様	-10.5687
祖考	-10.5689
罍	-10.5691
奏保	-10.5692
斛	-10.5693
墻	-10.5695
著他做	-10.5696
摯	-10.5696
粗	-10.5697
辛巳	-10.5697
蠧	-10.5699
鷹	-10.5699
炭	-10.57
解縉	-10.5701
蓬	-10.5701
之榮	-10.5702
李東陽	-10.5702
奕	-10.5703
衝	-10.5703
蔬	-10.5705
瓚	-10.5705
百僚	-10.5705
改曰	-10.5707
太常寺少卿	-10.5708
閔	-10.5708
稔	-10.5708
祝帛	-10.5708
盥手	-10.5709
皆由	-10.571
甚多	-10.5711
弔	-10.5712
景祐	-10.5713
幕次	-10.5713
技	-10.5715
故曰	-10.5719
右丞	-10.5719
司直	-10.5727
己丑	-10.5728
觀察使	-10.5732
二十名	-10.5733
之說	-10.5734
郡守	-10.5735
李氏	-10.574
不免	-10.5741
子為	-10.5742
至京	-10.5742
事畢	-10.5742
師傅	-10.5752
月十三日	-10.5753
典客	-10.5754
靈座	-10.5755
受其	-10.5758
簿書	-10.576
正一品	-10.5766
圖籍	-10.5772
小學	-10.5785
萬里	-10.5785
祠祭司	-10.5799
貢物	-10.5802
三館	-10.5807
諳	-10.5808
三十五年	-10.5817
俱照	-10.5817
本兵	-10.5821
博士助教	-10.5821
鬼神	-10.5822
又一	-10.5823
名號	-10.5824
乙未進士	-10.5825
比部	-10.5827
香帛	-10.5828
各二員	-10.5828
縣知縣	-10.5836
鵬	-10.5838
舉志	-10.584
郡主	-10.5843
敢告	-10.5845
州居住	-10.5847
鵝	-10.585
慿	-10.5854
腰	-10.5854
閎	-10.5854
訂	-10.5854
灼	-10.5855
豹	-10.5857
駭	-10.5857
浙江錢塘人	-10.5858
快	-10.5858
遷中大夫除	-10.5858
萃	-10.586
樞機	-10.5861
人多	-10.5861
夲	-10.5862
鐫	-10.5862
將軍中尉	-10.5863
傘	-10.5863
開府	-10.5864
閩	-10.5864
新唐書百官志	-10.5864
浙江仁和人	-10.5864
朗	-10.5864
俄	-10.5865
賑	-10.5866
之舞	-10.5871
之國	-10.5871
邀	-10.5873
四品以上	-10.5876
藝文	-10.5877
男女	-10.5881
不言	-10.5882
前來	-10.5883
受爵	-10.5884
宣徽院	-10.5886
正徳四年	-10.5886
八員	-10.5887
稽首	-10.5891
之業	-10.5895
評事	-10.5897
成都	-10.5899
盛事	-10.5904
班第	-10.5907
觀察	-10.591
營造	-10.5916
哲宗	-10.5922
所定	-10.5925
翰林院官	-10.5926
江寧	-10.5927
大興	-10.5929
藏之	-10.5929
而行之	-10.593
等因奉聖㫖	-10.5935
准他襲	-10.5936
逐一	-10.5937
其年	-10.5939
殿學士	-10.5943
女直	-10.5947
然其	-10.5949
尊諡	-10.5954
十餘	-10.5955
官民	-10.5956
正六	-10.596
兵器	-10.5966
故嫡長男	-10.597
成化二年	-10.5971
不得已	-10.5982
天人	-10.5984
開皇	-10.5984
百年	-10.5986
正如今	-10.5993
闕里	-10.5997
笏	-10.5997
贊四拜	-10.5997
考工	-10.6003
三十二	-10.6003
森	-10.6009
唐開元二十七年從祀封	-10.601
凛	-10.601
恨	-10.601
尚書胡濙	-10.6011
監修	-10.6011
沛	-10.6012
縫	-10.6013
𠫭將曰	-10.6014
西廡	-10.6014
暉	-10.6014
宋史職官志	-10.6015
丙午	-10.6015
拾	-10.6015
渙	-10.6016
祈榖	-10.6016
曲阜	-10.6016
蹟	-10.6018
貲	-10.6019
郵	-10.602
廼	-10.6022
荅	-10.6022
岸	-10.6022
不足以	-10.6023
事有	-10.6026
之美	-10.6026
馬端臨文獻通考	-10.6027
右正言	-10.603
太府寺	-10.6032
天命	-10.6035
著為	-10.6042
文綺	-10.6043
貢士	-10.6045
不通	-10.6046
萬夀	-10.6047
貢使	-10.6048
建安	-10.6048
楷	-10.6055
第四品	-10.606
不預	-10.6061
宗藩	-10.6062
三年二月	-10.6066
者惟	-10.6067
乞勅	-10.6068
典故	-10.6072
左右僕射	-10.6074
建儲	-10.6075
奉詔	-10.6081
方澤	-10.6081
朝鮮	-10.6083
后妃	-10.6089
安得	-10.6093
下禮部議	-10.6097
請給	-10.6099
因言	-10.6107
八百	-10.6118
所置	-10.612
歐陽修	-10.6122
親詣	-10.6124
以成	-10.6125
𠫭	-10.6127
一尺工尺	-10.6128
之處	-10.6131
奏祭祀	-10.6132
一心	-10.6136
金玉	-10.6137
近日	-10.6141
正七	-10.6142
之要	-10.6144
飾以	-10.6146
明㫖	-10.6152
毛血	-10.6152
孝經	-10.6159
猶未	-10.6163
簽書樞密院事	-10.6166
年嵗	-10.6167
塊	-10.6169
鑲	-10.6169
四斤	-10.617
因而	-10.6171
三兩	-10.6171
更不	-10.6172
受封	-10.6172
焦	-10.6172
岡	-10.6174
之實	-10.6174
鏞	-10.6174
懽	-10.6175
層	-10.6176
𣙜	-10.6179
洮	-10.618
瀚	-10.6182
漏刻	-10.6182
奉先	-10.6182
償	-10.6184
諷	-10.6185
闗防	-10.6186
乾坤	-10.6187
駐防	-10.6188
太子太傅	-10.6188
亢	-10.6191
器械	-10.6191
光禄勲	-10.6192
廵撫	-10.6192
制也	-10.6192
李賢	-10.6195
贊跪	-10.6199
曰陛下	-10.6199
提領	-10.62
俱同	-10.6201
亦當	-10.6202
通鑑	-10.6205
來貢	-10.6206
笞	-10.6208
三名	-10.6208
員數	-10.621
鳴贊	-10.621
疾病	-10.6211
查勘	-10.6212
經歴司	-10.6213
降輿	-10.6215
諫議	-10.6221
除叅知政事	-10.6224
用人	-10.6224
周制	-10.6225
部尚書	-10.6226
鎮駐	-10.6226
注意	-10.6229
明㑹典	-10.623
集議	-10.6238
拜位于	-10.6238
之事凡	-10.6239
行幸	-10.6241
委署	-10.6243
工六尺	-10.6251
専司	-10.6252
一陳設	-10.6252
如遇	-10.6261
昭文	-10.6266
五尺	-10.6268
逺人	-10.6268
者與	-10.6273
亦與	-10.6274
拜禮	-10.6279
增設	-10.6281
二年二月	-10.6288
數年	-10.629
部族	-10.6291
不忍	-10.6293
御奉天門	-10.6295
至聖	-10.6299
差來	-10.6301
𢎞治元年	-10.6307
仍前	-10.6307
者三	-10.6308
中庶子	-10.6308
終始	-10.631
詔令	-10.6311
與他	-10.6313
等曰	-10.6313
宋濓	-10.6319
後魏北齊	-10.6321
八分	-10.6322
臨御	-10.6327
司門	-10.6327
夘	-10.6329
撒	-10.6331
硃	-10.6331
譯史	-10.6333
奉聖旨	-10.6334
礪	-10.6334
躍	-10.6335
晝	-10.6335
崇聖祠	-10.6335
繹	-10.6336
駝	-10.6336
𦂳	-10.6336
明俞汝楫編	-10.6337
紊	-10.6337
次男	-10.6338
諤	-10.6338
籠	-10.6338
抹	-10.6339
味	-10.634
棨	-10.6341
上林苑	-10.6341
倒	-10.6341
聖人之	-10.6342
稿	-10.6343
其父	-10.6343
臣子	-10.6343
蘇轍	-10.6343
拒	-10.6344
恂	-10.6344
欽定四庫全書欽定國子監志卷	-10.6344
碍	-10.6344
緫	-10.6345
丙申	-10.6345
攬	-10.6346
謹以	-10.6346
至公	-10.6347
非所以	-10.6348
謹案元	-10.6349
本部查	-10.6349
兢	-10.6353
婦女	-10.6355
罷為	-10.6355
淳熙	-10.6356
不遵	-10.6358
已故	-10.6362
依親	-10.6368
裁革	-10.637
司𨽻	-10.6371
髙麗	-10.6371
立石	-10.6373
兼侍中	-10.6374
諭㫖	-10.6375
洪武四年	-10.6382
言事	-10.6383
大義	-10.6385
宣制	-10.6388
所據	-10.639
典膳	-10.6393
水衡	-10.6399
屬之	-10.6399
免其	-10.6399
前此	-10.6401
月十八日	-10.6404
太嵗	-10.6405
聖朝	-10.6409
師道	-10.641
出至	-10.6414
自翰林學士	-10.6418
興平身	-10.642
丁謂	-10.6422
元年二月	-10.6433
四十五	-10.6433
送吏部	-10.6435
三班	-10.6438
之職而	-10.6439
一旦	-10.6442
各三	-10.6443
署令丞	-10.6445
歴事	-10.645
不常	-10.6453
亦多	-10.6458
渡	-10.6463
公議	-10.6463
職銜	-10.6465
未見	-10.6468
者各	-10.6468
其一	-10.6471
二州	-10.6474
諸國	-10.6477
始定	-10.6479
財用	-10.6479
所見	-10.6481
召還	-10.6484
必以	-10.6486
又奏	-10.6487
禮生	-10.649
烝	-10.6493
龍圖閣	-10.6496
進御	-10.6499
侍書	-10.65
霖	-10.6501
忝	-10.6503
暹羅	-10.6504
廉	-10.6504
乙亥	-10.6505
恬	-10.6505
江西南昌	-10.6505
不應	-10.6506
望瘞	-10.6507
著作佐郎	-10.6507
怪	-10.6508
月二十八日	-10.6509
𥘉	-10.6509
彊	-10.651
吕惠卿	-10.651
泣	-10.651
晟	-10.6511
寖	-10.6511
欽定國子監志卷	-10.6512
涼	-10.6512
番僧	-10.6513
紵絲紗羅	-10.6513
髙宗	-10.6514
各色	-10.6516
故長男	-10.6516
習禮	-10.6517
尸	-10.6518
忿	-10.6518
戮	-10.6518
票	-10.6519
仇	-10.6521
者得	-10.6526
以防	-10.6527
毎名	-10.6529
有常	-10.6537
馬匹	-10.6538
儒林	-10.6539
議定	-10.654
前去	-10.654
伏望	-10.654
正八	-10.6543
加以	-10.6554
議擬	-10.6556
詳議	-10.6558
后土	-10.6562
咨部	-10.6563
丁未進士	-10.6569
合四一尺	-10.6571
大率	-10.6571
至期	-10.6571
成功	-10.6572
宰輔	-10.6574
二隻	-10.6579
詳定	-10.6579
縣主	-10.6583
二十四人	-10.6585
副都御史	-10.6587
皆如	-10.6588
百工	-10.6588
漢官	-10.6591
職守	-10.6591
風化	-10.6592
並置	-10.6594
東觀	-10.6594
提問	-10.6598
一部	-10.6606
尤重	-10.6609
精膳司	-10.661
四年四月	-10.6611
保定	-10.6611
親屬	-10.6612
大用	-10.6618
忠義	-10.662
大將	-10.6621
詔從之	-10.6621
夏至	-10.6624
入直	-10.6629
成憲	-10.6631
陳乞	-10.6632
兩制	-10.6635
察其	-10.6637
月初二日	-10.6637
不報	-10.6639
講章	-10.6642
各設	-10.6643
官皆跪	-10.6645
受之	-10.6645
成化元年	-10.6649
元年改	-10.6651
四隻	-10.6652
欽依	-10.6653
亦必	-10.6654
東平	-10.6654
各三人	-10.6658
流外	-10.6658
時政	-10.6659
萬民	-10.6659
諸書	-10.6663
章疏	-10.6666
帽	-10.6668
侑	-10.6672
耕耤	-10.6672
潢	-10.6672
頑	-10.6673
朦朧	-10.6673
葵	-10.6674
諭之曰	-10.6674
喻	-10.6675
晉王	-10.6676
坦	-10.6677
六典	-10.6677
緡	-10.6677
淹	-10.6677
繄	-10.6678
㓂	-10.6678
一方	-10.6678
黜陟	-10.6679
肥	-10.6681
顆	-10.6681
修葺	-10.6681
都水使者	-10.6682
盥	-10.6682
荐	-10.6682
皆用	-10.6682
蠟	-10.6684
屬國	-10.6685
器皿	-10.6685
髪	-10.6686
盜賊	-10.6686
讞	-10.6686
同心	-10.6687
安置	-10.6688
提刑	-10.6688
送監	-10.6688
戸部尚書	-10.6689
淮南	-10.6689
有犯	-10.669
洪武六年	-10.6691
趙普	-10.6691
潼	-10.6691
各具	-10.6692
紗羅	-10.6693
沿途	-10.6693
雖不	-10.6696
司香	-10.6697
孔目	-10.6699
十餘人	-10.67
明經	-10.6701
凡三	-10.6704
論道	-10.6704
十萬	-10.6705
掌供	-10.6711
延登	-10.6722
乙丑進士	-10.6724
為重	-10.6736
者止	-10.6737
又詔	-10.6737
主客司	-10.6737
給之	-10.6737
六曹	-10.674
請以	-10.6741
併入	-10.6742
視其	-10.6744
陪祭	-10.6749
聖廟	-10.675
後復	-10.6752
互相	-10.6756
典吏	-10.6759
萬嵗	-10.6759
宗支	-10.6762
教諭	-10.6768
並為	-10.6771
若此	-10.6773
退而	-10.6773
之變	-10.6777
曽子	-10.678
編修充	-10.6785
之選	-10.679
驍騎	-10.6791
查無	-10.6795
總管府	-10.6798
遵行	-10.6801
導駕官	-10.6802
二十斤	-10.6803
天監	-10.6804
左丞相	-10.6807
公亮	-10.6807
授職	-10.6807
導引官導上	-10.6808
治事	-10.6809
會議	-10.6809
博士一人	-10.681
朝堂	-10.6815
傳稱	-10.6816
去處	-10.6817
非常	-10.6818
置吏	-10.6821
文曰	-10.6823
都指揮	-10.6823
青衣	-10.6825
六品以下	-10.6826
一壇	-10.6828
五日一	-10.6829
議郎	-10.683
器用	-10.6833
一個	-10.6833
豈無	-10.6835
唐之	-10.6838
之責	-10.6838
鬱	-10.6843
惶	-10.6844
塘	-10.6845
舛	-10.6845
麪	-10.6846
穹	-10.6846
吐	-10.6847
行在禮部	-10.6847
仍命	-10.6847
軍馬	-10.6849
提調官	-10.6849
祕閣	-10.685
吟	-10.685
狹	-10.6852
芹	-10.6852
神帛	-10.6853
天章	-10.6853
覧	-10.6855
滿洲漢人	-10.6855
穎	-10.6856
挨	-10.6857
毒	-10.6859
守本官	-10.6859
鳳陽	-10.6865
丙子	-10.6867
舊規	-10.6869
多所	-10.6877
文武大臣	-10.688
長史司馬	-10.6881
講書	-10.6882
具祭服	-10.6883
府尹	-10.6884
敢不	-10.6884
以奉	-10.6886
左右丞	-10.6888
具瞻	-10.6889
曰卿	-10.6891
四司	-10.6891
月二十六日	-10.6893
胡廣	-10.6896
膳部	-10.6898
侍讀侍講	-10.6905
當如今	-10.6908
賜坐	-10.6909
三輔	-10.6909
康熙五十	-10.691
置左右	-10.6915
河間	-10.6925
世廟	-10.6925
矣然	-10.6927
開讀	-10.6932
令有司	-10.6939
司贊	-10.694
三年一	-10.6941
會試	-10.6944
為學士	-10.6944
見于	-10.6946
監國	-10.6947
即以	-10.6956
治道	-10.6957
等因本部	-10.696
廟庭	-10.6962
成服	-10.6966
清吏司	-10.6971
寧王	-10.6975
保勘	-10.698
於天下	-10.6985
嘉靖元年	-10.6988
伺	-10.6992
法駕	-10.6993
經過	-10.6994
七分	-10.7001
城王	-10.7002
烟	-10.7008
本堂	-10.7009
駮	-10.7016
㡌	-10.7016
司經局	-10.7017
頴	-10.7018
刷	-10.7018
彞	-10.702
磚	-10.702
笛	-10.7021
髦	-10.7022
𠂻	-10.7022
佚	-10.7023
之治	-10.7023
萌	-10.7023
拆	-10.7024
速香	-10.7025
特穆爾	-10.7025
之餘	-10.7026
禾	-10.7026
匱	-10.7027
遑	-10.7028
軼	-10.7028
龔	-10.7028
功徳	-10.7028
簪	-10.7029
隋文帝	-10.703
庻子	-10.7032
涖	-10.7032
濯	-10.7033
㝷	-10.7033
薨逝	-10.7034
弓矢	-10.7035
洪武五年	-10.7035
奈何	-10.7036
鬻	-10.7037
奉國將軍	-10.704
天禧	-10.7042
尊卑	-10.7043
睠	-10.7043
日為始	-10.7044
敢有	-10.7045
滿洲二人	-10.7046
曾布	-10.7047
惟演	-10.7048
器物	-10.7054
除樞宻副使	-10.7056
經綸	-10.7057
大體	-10.7058
齋宫	-10.7061
未免	-10.7067
四面	-10.7068
使持節	-10.7069
材官	-10.7074
中二千石	-10.7075
者聴	-10.7076
不經	-10.7077
典書	-10.7077
同前	-10.7078
所部	-10.7078
特㫖	-10.7084
員缺	-10.7084
矣至	-10.7091
又設	-10.7092
建武	-10.7093
統軍	-10.7098
臣愚	-10.71
應付	-10.7102
舊章	-10.7109
制書	-10.711
推恩	-10.7111
髙皇后	-10.7111
奉迎	-10.7113
崇儒	-10.7113
通贊	-10.7114
冠者	-10.7121
曹郎	-10.7121
無子	-10.7124
相合	-10.7126
皇朝置	-10.7127
庫使	-10.7133
嘉定	-10.7137
上前	-10.7142
貢獻	-10.7142
所轄	-10.7146
大帶	-10.7161
自唐	-10.7166
少府監	-10.7167
中都	-10.7167
果子	-10.7169
朝儀	-10.7169
固有	-10.7172
二萬	-10.7179
年轉左	-10.7182
宣徽	-10.7182
紅棗	-10.7191
未至	-10.7192
綰	-10.72
月十七日	-10.72
僉都御史	-10.7201
聖祖仁皇帝	-10.7202
弛	-10.7202
外其餘	-10.7202
琪	-10.7203
淡	-10.7203
應得	-10.7203
貂	-10.7203
僻	-10.7204
促	-10.7205
囊	-10.7205
坡	-10.7205
庚午	-10.7205
話	-10.7207
琉璃	-10.7207
之助	-10.7207
婿	-10.7208
驟	-10.7209
辜	-10.721
順天大興人	-10.721
正九	-10.7211
姦邪	-10.7212
滿洲䝉古	-10.7213
案牘	-10.7213
房屋	-10.7214
書寫	-10.7215
收貯	-10.7217
𢎞治四年	-10.7218
册寶	-10.7219
至此	-10.7219
殿門	-10.7219
忠彦	-10.7219
南渡	-10.722
以給	-10.7221
親戚	-10.7225
欽哉	-10.7225
未央	-10.7227
入院	-10.7232
之體	-10.7234
乾隆四	-10.7234
耳目	-10.7234
庻人	-10.7237
王旦	-10.7238
安撫使	-10.7243
大司馬	-10.7243
分𨽻	-10.7247
曹參軍事一人	-10.7251
通志	-10.7257
主婦	-10.7258
邦之	-10.7263
職在	-10.7265
署丞	-10.7265
朕惟	-10.7272
撓	-10.7273
與焉	-10.7274
俊卿	-10.7276
柱國	-10.7277
豈有	-10.7279
事君	-10.7279
月朔	-10.7284
奏復位	-10.7284
主考	-10.7285
國史院	-10.7287
數百	-10.7291
隋書	-10.7293
女史	-10.7313
又按	-10.7313
一百六十	-10.7314
下曰	-10.7314
依例	-10.7314
為名	-10.7316
東漢	-10.7317
舉案	-10.7324
冬官	-10.7326
在前	-10.7331
郎官	-10.7333
車騎	-10.7333
畨人	-10.7336
己丑進士	-10.7337
各廟	-10.7343
俱有	-10.7349
人役	-10.7356
題稱	-10.7357
丞四人	-10.7357
左門入	-10.7359
未安	-10.7361
月十九日	-10.7367
暦	-10.7368
祭物	-10.737
二次	-10.737
范仲淹	-10.7372
硯	-10.7374
稻	-10.7375
武英殿	-10.7376
嘉靖六年	-10.7376
矣今	-10.7377
后稷	-10.7377
疊	-10.7378
舊有	-10.7379
至元二十四年	-10.738
掣	-10.738
眼	-10.7381
兩浙	-10.7381
匭	-10.7381
僥倖	-10.7381
人民	-10.7382
暑	-10.7382
皮弁服	-10.7386
藁	-10.7387
苗	-10.7387
釋菜	-10.7387
諸公	-10.7387
乳	-10.7388
瑟	-10.7388
庖	-10.7388
天神	-10.7389
理藩院	-10.7389
嵗時	-10.7389
繆	-10.7391
壘	-10.7392
沁	-10.7393
上皇	-10.7393
星辰	-10.7395
賞賚	-10.7397
抃	-10.7398
都總管	-10.74
公私	-10.7401
魏晋	-10.7403
萬國	-10.7403
𨽻於	-10.7403
太常博士	-10.7404
伯叔	-10.7407
千載	-10.7408
權知	-10.741
詳衮	-10.741
雍正二年	-10.7411
水陸	-10.7413
専掌	-10.7414
酒饌	-10.7416
焉凡	-10.7418
五嶽	-10.7419
替職	-10.742
改設	-10.7423
奏差	-10.7428
擇其	-10.743
稱臣	-10.7432
日講	-10.7433
累遷	-10.7435
各就位	-10.7435
降詔	-10.7436
諸衛	-10.7438
享太廟	-10.7441
壝	-10.7443
西苑	-10.7443
正八品下	-10.7448
醫士	-10.7449
兩漢	-10.7449
學術	-10.7455
高宗	-10.7459
歸於	-10.746
門之外	-10.7461
每旗	-10.7463
萬厯四	-10.7464
安定	-10.7465
九等	-10.7469
聽其	-10.747
七百	-10.7485
宣訖	-10.7493
宣仁	-10.7494
當以	-10.7494
生事	-10.7499
大享	-10.7499
三十四	-10.7501
資政	-10.7503
三年任	-10.7507
成化四年	-10.7509
朕方	-10.751
祖父母	-10.7522
大将軍	-10.7529
每名	-10.7531
劉氏	-10.7535
相沿	-10.7536
折銀	-10.7538
東面	-10.754
右相	-10.7545
餘皆	-10.7546
看牲	-10.755
其次	-10.7551
果有	-10.7551
請令	-10.7556
刪	-10.7556
大定	-10.7557
菹	-10.7559
悅	-10.756
一雙	-10.756
題奉聖㫖	-10.7561
綵段一表裏	-10.7561
之良	-10.7562
滕	-10.7562
線	-10.7562
靄	-10.7562
摘	-10.7563
補用	-10.7563
俯伏	-10.7563
謄	-10.7564
武功	-10.7564
龕	-10.7565
拯	-10.7566
培	-10.7566
銀印	-10.7566
佃	-10.7566
響	-10.7569
朴	-10.7569
廓	-10.757
臚	-10.7571
掛	-10.7571
畀	-10.7572
扎	-10.7573
鋭	-10.7574
規模	-10.7574
蓄	-10.7575
之宜	-10.7575
詎	-10.7575
鏤	-10.7576
閒住	-10.7576
武衛	-10.7577
截	-10.7578
隘	-10.7578
鎧	-10.7578
册府元龜	-10.7579
溯	-10.7581
駿	-10.7582
繼妃	-10.7582
贖	-10.7585
大名府	-10.7586
蔡卞	-10.7587
有罪	-10.7589
二百五十	-10.7589
撥歴	-10.759
六工尺一	-10.7591
夏官	-10.7593
不由	-10.7594
周旋	-10.7606
之休	-10.7609
諸色	-10.7613
以正	-10.7615
由此	-10.7616
南京禮部	-10.762
樂止典儀	-10.7624
河陽	-10.7625
鍾山	-10.7626
東宮	-10.7628
十有六人	-10.763
二年四月	-10.763
爾其	-10.7634
交易	-10.7637
主簿二人	-10.7638
王室	-10.7654
忠厚	-10.7655
宣徳元年	-10.7658
陳循	-10.7659
補任	-10.766
右文	-10.7662
精神	-10.7663
於文華殿	-10.7668
罪人	-10.7668
所領	-10.7668
御奉天殿	-10.7669
自陳	-10.7672
詣太廟	-10.768
稱其	-10.7682
賛善	-10.7683
一百三十	-10.7683
左衛	-10.7685
七曰	-10.7686
必須	-10.7687
監修國史	-10.7692
天地之	-10.7698
清臣	-10.77
不安	-10.7703
可行	-10.7708
奏本	-10.7708
武選	-10.7719
主事一人	-10.7722
五兵	-10.7725
年深	-10.7725
嘉靖二年	-10.7727
委任	-10.7729
三部	-10.7729
合祭	-10.7731
孔廟	-10.7731
英廟	-10.7732
備查	-10.7732
不曽	-10.7734
萬餘	-10.7737
宦者	-10.7741
二尺	-10.7743
六卿	-10.7745
芒	-10.7747
二人位於	-10.7749
廟號	-10.7749
蘇州	-10.775
人言	-10.7751
裙	-10.7751
㪚	-10.7752
俘	-10.7753
滄	-10.7753
袴	-10.7753
枷	-10.7754
祕書省	-10.7755
莽	-10.7756
歇	-10.7756
紬	-10.7756
顒	-10.7757
根底	-10.7758
斡	-10.776
揆之	-10.7761
戊午	-10.7762
洪武二十六年定	-10.7762
剪	-10.7762
庚申	-10.7762
皇太子妃	-10.7765
太牢	-10.7765
所生子女	-10.7766
纛	-10.7766
金金史百官志	-10.7768
丐	-10.777
哭臨	-10.777
親男	-10.7771
山川壇	-10.7771
一百四十	-10.7772
漁	-10.7774
元元史百官志	-10.7776
地震	-10.778
左庶子	-10.7783
餘如	-10.7786
交通	-10.7787
盡心	-10.7787
治民	-10.7789
之設	-10.779
酒果	-10.7795
迄今	-10.7796
承應	-10.7797
多少	-10.7801
贊唱	-10.7801
今年	-10.7802
選補	-10.7802
軍旅	-10.7803
户口	-10.7803
顯陵	-10.7806
庶民	-10.7808
洪熙元年	-10.7809
四千	-10.7811
濟濟	-10.7815
㕘議	-10.782
奏跪	-10.7821
以紀	-10.7822
太公	-10.783
啓王	-10.7833
不時	-10.7835
主者	-10.7836
卿大夫	-10.7837
也唐	-10.7838
好生	-10.7838
三年四月	-10.7839
未聞	-10.784
告示	-10.7841
祭日	-10.7845
諸侯之	-10.7847
無復	-10.785
上丁	-10.787
九百	-10.7874
祔享	-10.7879
一百一十	-10.7879
不到	-10.7886
其情	-10.7888
孝子	-10.7889
兩省	-10.7893
九寸	-10.7896
戲	-10.7899
公同	-10.7904
各以	-10.7912
次妃	-10.7914
香盒	-10.7926
通經	-10.7927
字籍見下	-10.7928
未備	-10.7932
饈	-10.7938
栗	-10.7939
表文	-10.7942
豋	-10.7942
浙江鄞縣人	-10.7945
合祀	-10.7946
勘明白	-10.7946
貝	-10.7946
斧	-10.7947
鵠	-10.7948
虐	-10.7948
兼侍讀學士	-10.7948
簷	-10.7949
掖庭	-10.7949
鞏	-10.795
湛	-10.7951
鏡	-10.7951
沾	-10.7952
祉	-10.7952
谿	-10.7952
羲	-10.7952
攘	-10.7952
寔	-10.7952
樊	-10.7953
𢎞治九年	-10.7953
京兆尹	-10.7953
叢	-10.7953
聳	-10.7954
蟲	-10.7954
榻	-10.7954
旄	-10.7955
禘	-10.7955
諸部	-10.7956
神考	-10.7957
枕	-10.7957
吐蕃	-10.7958
韜	-10.796
十二兩	-10.7961
鈞衡	-10.7961
重道	-10.7961
迎接	-10.7966
司吏	-10.7966
一面	-10.7967
廩膳	-10.7967
隋開皇	-10.7967
度牒	-10.7969
十七年實授	-10.797
氊	-10.7973
反覆	-10.7976
𢎞治十五年	-10.7976
畨僧	-10.798
著述	-10.798
備身	-10.798
未敢	-10.7981
月俸	-10.7986
禮法	-10.7987
逺方	-10.7994
數多	-10.7996
十數	-10.7999
萬世之	-10.8004
諸物	-10.8005
嵗月	-10.8005
善惡	-10.8008
大朝㑹	-10.801
北門	-10.8013
俱係	-10.8015
北軍	-10.802
有子	-10.8021
日講官	-10.8022
永樂四年	-10.8023
固辭	-10.8029
具呈	-10.8029
出題	-10.8032
成命	-10.8034
三庫	-10.8036
見卿	-10.8038
十員	-10.8038
重修	-10.8039
喪主以下	-10.8042
嫡長男	-10.8044
改封	-10.8045
聖訓	-10.8046
三十八年	-10.8047
進膳	-10.8047
又云	-10.8048
又命	-10.8052
不詳	-10.8062
孝陵	-10.8064
至宋	-10.8066
直言	-10.8067
奠獻	-10.8068
天文生	-10.8073
海内	-10.8074
奏定	-10.808
金部	-10.8082
諸侯王	-10.8087
於奉天殿	-10.8096
出迎	-10.8098
禮義	-10.8099
二年九月	-10.81
名臣	-10.8104
葢即	-10.8105
異同	-10.8105
永寧	-10.8106
前期一日	-10.8109
郊社	-10.8111
奏俯伏興平身	-10.8112
日期	-10.8121
於丹陛	-10.8121
陪祀官	-10.8123
黍	-10.8127
下馬	-10.8138
瀾	-10.8139
行終獻禮	-10.8139
迥	-10.8141
沃	-10.8141
飲福受胙	-10.8141
諄	-10.8141
邦彦	-10.8142
餌	-10.8142
左順門	-10.8144
喇嘛	-10.8144
鈿	-10.8144
燦	-10.8145
噫	-10.8145
禮科給事中	-10.8145
遏	-10.8146
華葢殿	-10.8147
毗	-10.8147
道徳	-10.8147
岱	-10.8148
渝	-10.8148
泮	-10.8148
勳	-10.8148
慤	-10.8149
望燎	-10.8149
鑾儀衛	-10.815
你	-10.815
亳	-10.815
裂	-10.815
軫	-10.8152
揚雄	-10.8152
而為之	-10.8152
垂拱	-10.8153
莭	-10.8154
己巳	-10.8154
唐代	-10.8155
黄門侍郎	-10.8155
辟廱	-10.8156
彪	-10.8156
証	-10.8157
㝠	-10.8157
乘輿	-10.8159
兩府	-10.8161
贊禮郎	-10.8161
故絶	-10.8163
諭曰	-10.8163
大使一人	-10.8164
詣神位前	-10.8165
仲秋	-10.8166
拜罷	-10.8166
以為常	-10.8167
酒飯	-10.8168
驛丞	-10.8171
裕陵	-10.8172
翰林院學士	-10.8173
皆置	-10.8174
袍服	-10.8174
哭盡哀	-10.8176
地官	-10.8176
不惟	-10.8177
修國史	-10.8181
酌量	-10.8181
二十三日	-10.8189
亦非	-10.819
丞為之貳	-10.8193
洪武間	-10.8198
時維	-10.8199
平凖	-10.8201
踰年	-10.8202
黄鍾	-10.8209
王欽若	-10.8211
庚戌進士	-10.8212
皇朝因	-10.8215
十錠	-10.8216
宜加	-10.8216
無他	-10.8217
漢時	-10.8219
常例	-10.822
請罷	-10.8224
嫡子	-10.8226
禮部郎中	-10.823
附近	-10.8233
實封	-10.8233
或曰	-10.8238
造冊	-10.8239
守衛	-10.824
彭時	-10.824
方丘	-10.8244
者不許	-10.8248
江陵	-10.8248
吏典	-10.8249
也夫	-10.8253
十九人	-10.8258
升堂	-10.8258
周書	-10.8262
聴其	-10.8262
有志	-10.8267
文昌	-10.8269
午門外	-10.827
上曰朕	-10.8272
景徳	-10.8273
别無	-10.8277
者為之	-10.8279
言語	-10.8283
隆慶三年	-10.8291
髙一尺	-10.8299
數千	-10.8301
月給	-10.8301
地理	-10.8309
水部	-10.8321
一表裏	-10.8322
不暇	-10.8324
疏請	-10.8325
勲官	-10.8328
認	-10.8331
解見	-10.8334
雩	-10.8337
其弊	-10.8337
廖	-10.8339
倚毗	-10.8339
萬方	-10.834
抽	-10.8341
祈禱	-10.8342
用心	-10.8342
近者	-10.8343
不廢	-10.8343
珮	-10.8344
吕大防	-10.8344
蘆	-10.8345
世宗憲皇帝	-10.8345
洪熈元年	-10.8345
叟	-10.8346
勁	-10.8346
秩六百石	-10.8347
臯	-10.8349
棘	-10.8349
㤙	-10.835
歲貢	-10.835
宫殿	-10.835
東序	-10.8351
朶	-10.8351
三十七	-10.8351
外命婦	-10.8352
倘	-10.8352
靖江王	-10.8352
鞍轡	-10.8352
陲	-10.8354
商輅	-10.8354
兔	-10.8354
逞	-10.8355
五年二月	-10.8356
銳	-10.8356
廵按御史	-10.8357
優禮	-10.8358
王巖叟	-10.8358
鎻	-10.8358
霑	-10.8358
裘	-10.8359
酷	-10.8359
驊騮	-10.8359
太乙	-10.836
祿米	-10.836
端拱	-10.836
輔導官	-10.8361
太常少卿	-10.8362
伴送	-10.8365
揀選	-10.8368
上中下	-10.8369
再入相	-10.8371
經邦	-10.8372
天心	-10.8374
入試	-10.8376
哀帝	-10.8377
嵗貢生員	-10.8377
齋郎	-10.8378
庚子	-10.8379
臣某等	-10.838
淵聖	-10.8383
考定	-10.8383
少宰	-10.8384
承天門	-10.8384
隋初	-10.8384
掌院事	-10.8389
萬機	-10.8389
看得	-10.8395
千戸	-10.8397
奉命	-10.8398
内命婦	-10.84
琉球國	-10.8401
准令	-10.8401
監察	-10.8408
遂命	-10.8409
入閣	-10.8411
聖神	-10.8411
知政事	-10.8413
選取	-10.8414
經畧	-10.8416
水利	-10.8419
百度	-10.8422
分守	-10.8424
執金吾	-10.8426
在監	-10.8427
字號	-10.8434
建炎三年	-10.8437
廟祀	-10.8438
樞密院事	-10.8439
土人	-10.8439
原係	-10.8439
後省	-10.8441
顔子	-10.8441
賢者	-10.8441
右副都御史	-10.845
司庫	-10.8455
五采	-10.846
魏氏	-10.8461
亦不許	-10.8466
永樂七年	-10.8468
賢能	-10.8472
遣大臣	-10.8472
亦得	-10.8475
分置	-10.8487
于太廟	-10.8489
㑹要	-10.849
嫡長	-10.849
以為不可	-10.8491
朕躬	-10.8492
虚名	-10.85
仰惟	-10.8507
供應	-10.8517
地祇	-10.8522
人倫	-10.8523
後殿	-10.8527
陪拜	-10.8527
近來	-10.8529
宣召	-10.8531
醬	-10.8536
後來	-10.8537
一祝文維	-10.854
之勞	-10.854
櫃	-10.8542
簋	-10.8542
司調任	-10.8542
朂	-10.8543
諸職	-10.8545
昂	-10.8546
昭文館	-10.8547
香油	-10.8548
䙝	-10.8548
柯	-10.8548
斌	-10.8548
璋	-10.8549
敇	-10.8549
糴	-10.855
郁	-10.855
泊	-10.855
煌	-10.855
綠	-10.8551
茅	-10.8551
幫	-10.8551
水衡都尉	-10.8551
濠	-10.8551
見員外郎下	-10.8552
司𨽻校尉	-10.8553
同中書門下平章事	-10.8553
研	-10.8553
鄭康成	-10.8553
奉孝宗皇帝聖㫖	-10.8554
天順八年	-10.8554
宣表	-10.8554
誓	-10.8554
犧牲所	-10.8556
學正學録	-10.8556
機宻	-10.8557
戊寅	-10.8558
妖	-10.8559
集賽	-10.8559
報可	-10.856
受胙	-10.856
視牲	-10.8561
水旱	-10.8561
鎮國中尉	-10.8561
鈐轄	-10.8561
雋	-10.8561
左傳	-10.8563
霸	-10.8563
百辟	-10.8565
地理志	-10.8565
刼	-10.8568
朝臣	-10.8568
醫藥	-10.857
哈宻	-10.8572
孝穆	-10.8572
二年七月	-10.8574
儒者	-10.8576
千二百	-10.8578
定擬	-10.8578
子思	-10.8582
死者	-10.8582
茶鹽	-10.8582
䕶衞	-10.8583
等撰	-10.8585
嘉靖七年	-10.8592
聖慈	-10.8592
食邑	-10.8595
於奉天門	-10.8605
定式	-10.8606
記室	-10.8607
並依	-10.8609
正九品上	-10.8613
宫門外	-10.8615
殿東	-10.8621
祠堂	-10.8628
騎都尉	-10.8628
引疾	-10.8632
年幼	-10.8636
廷議	-10.8638
三疋	-10.8644
西面	-10.8646
吉日	-10.8647
威儀	-10.8647
東晉	-10.8647
四字	-10.8652
去位	-10.8657
本末	-10.8659
陳氏	-10.8663
方面	-10.8664
隨行	-10.867
名目	-10.8671
一尺一合	-10.8673
恩澤	-10.8674
奉表	-10.8675
長貳	-10.8676
貢方物	-10.8677
莫如	-10.8686
章京	-10.8694
千古	-10.8702
慎重	-10.8703
天寳	-10.8711
誠心	-10.8715
親軍	-10.8716
彼此	-10.8717
輔政	-10.8719
額外	-10.8722
禁止	-10.8726
中庸	-10.8727
從八品上	-10.8729
北郊	-10.8734
論列	-10.8738
月支	-10.8742
酉	-10.8744
儀物	-10.8747
内官監	-10.8748
隋書百官志	-10.8749
血	-10.8749
漳	-10.875
皇太孫	-10.8751
俎豆	-10.8753
藹	-10.8754
上聞	-10.8755
以下各	-10.8755
幢	-10.8755
按察	-10.8756
翼善冠	-10.8756
職任	-10.8756
迴避	-10.8757
國用	-10.8758
網	-10.8758
熹	-10.8759
修理	-10.8759
徭	-10.876
坎	-10.876
改定	-10.876
筮	-10.876
線羅	-10.876
食貨志	-10.8762
濮	-10.8762
隋書百官志梁	-10.8762
髮	-10.8762
具皮弁服	-10.8762
估	-10.8764
雜職	-10.8764
毎斤	-10.8764
貟外郎	-10.8765
弓箭	-10.8765
一品二品	-10.8767
第七品	-10.8769
萬厯四年	-10.8769
提學副使	-10.8769
遴選	-10.877
餼	-10.877
一百八十	-10.877
新唐書	-10.877
嘉靖十五年	-10.8773
鈐束	-10.8774
召見	-10.8774
孟冬	-10.8776
部院	-10.8778
盗賊	-10.8778
和議	-10.8779
坐監	-10.8779
職官志	-10.8783
一嵗	-10.8784
直史館	-10.8785
富貴	-10.8785
伴讀	-10.8786
四十八	-10.8786
祖母	-10.8786
嘉靖中	-10.8786
聖學	-10.8786
爰田	-10.8787
皇祐	-10.8787
左右春坊	-10.8788
皆再拜	-10.8793
爾禮部	-10.8794
講畢	-10.8795
四瀆	-10.8804
萬幾	-10.8805
古禮	-10.8805
年終	-10.8808
措置	-10.8808
大名	-10.8811
乗黄	-10.8816
第六	-10.8816
軍功	-10.8817
命有司	-10.882
賦詩	-10.8821
運使	-10.8821
儀禮司	-10.8827
右都御史	-10.8827
導引官導上至	-10.8828
物料	-10.8832
如常	-10.8832
欽定四庫全書欽定厯代職官表	-10.8833
乞賜	-10.8836
紀事	-10.8843
京留守	-10.8844
髙皇帝	-10.8845
行軍	-10.885
西戎	-10.8851
徐州	-10.8852
百二十	-10.8853
戊戌進士	-10.8859
知制誥拜	-10.8861
文階	-10.8861
再入	-10.8862
月二十四日	-10.8867
每遇	-10.8867
祀天地	-10.8878
殿試	-10.888
貢監	-10.8882
殿中監	-10.8885
嘉靖五年	-10.8893
闗領	-10.8896
三十八	-10.8898
聞喪	-10.8901
保送	-10.8902
兼侍講	-10.8903
三年五月	-10.8905
嫡庶	-10.8911
上問	-10.8913
年久	-10.8914
其職掌	-10.8922
三十九	-10.8923
土司	-10.8924
會同	-10.8924
本部尚書	-10.8925
典史	-10.8925
徑自	-10.8925
境内	-10.8927
本縣	-10.8931
録事參軍	-10.8932
中賀	-10.8933
西路	-10.8937
中原	-10.8938
車馬	-10.8941
謹案金	-10.8946
壩	-10.8946
賛引官賛	-10.8949
其身	-10.8949
用印	-10.895
見主事下	-10.8954
司天臺	-10.8955
兵馬司	-10.8958
銖	-10.896
大功	-10.8961
洋洋	-10.8961
爛	-10.8962
笋	-10.8963
棗	-10.8965
繞	-10.8966
斟酒	-10.8966
晚	-10.8967
砥	-10.8967
司員外郎陞任	-10.8969
宰牲	-10.897
芻	-10.897
十六日	-10.8971
元年十二月	-10.8971
以憑	-10.8971
長樂	-10.8972
媿	-10.8972
已久	-10.8972
謹身殿	-10.8973
鞋	-10.8974
竈	-10.8974
晝夜	-10.8974
餙	-10.8974
療	-10.8974
以侍講學	-10.8975
揑	-10.8975
尋改	-10.8975
漢書百官公卿表	-10.8976
公侯駙馬伯	-10.8976
迫	-10.8976
護	-10.8977
遁	-10.8979
吿	-10.898
麒麟	-10.898
資治通鑑	-10.8981
憐	-10.8981
摭	-10.8981
行四拜禮畢	-10.8981
散騎	-10.8982
舉麾	-10.8983
御馬	-10.8983
杜佑	-10.8983
複	-10.8984
蹕	-10.8984
鹽課	-10.8985
懿祖	-10.8985
囿	-10.8986
耆老	-10.8987
知道欽此	-10.8988
頥浩	-10.8989
兖	-10.8989
成化三年	-10.899
太子太師	-10.8995
左都御史	-10.8996
該衙門	-10.8997
漢官儀	-10.8999
光宅	-10.8999
問罪	-10.9001
嘉靖十七年	-10.9002
討論	-10.9004
口糧	-10.9009
奉欽依	-10.9011
始命	-10.9015
内侍省	-10.9016
㦸門	-10.9016
戊子	-10.9016
録事二人	-10.9017
分班	-10.9017
二十八人	-10.9018
賢良	-10.9022
軍器監	-10.9023
太極	-10.9024
法制	-10.9024
越闗	-10.9024
翰林記	-10.9027
王英	-10.9029
雜記	-10.9029
可汗	-10.903
辦理	-10.9032
皇太子親王	-10.9035
自備	-10.9036
民力	-10.9038
圜橋	-10.9039
尚未	-10.904
篚一	-10.9041
都䕶府	-10.9043
職事官	-10.9044
西東向	-10.9046
後堂	-10.905
男子	-10.905
三衛	-10.9055
重大	-10.906
分職	-10.9061
布政	-10.9064
十有八	-10.9067
欽承	-10.9067
儀禮	-10.9068
中式者	-10.9069
御府	-10.9072
土官巡檢	-10.9073
餘同	-10.9079
江蘇	-10.9082
將士	-10.9083
禁例	-10.909
叅奏	-10.9093
在朝	-10.9096
考察	-10.9104
第六品	-10.9117
權輿	-10.9122
虚文	-10.9125
蕃國	-10.913
無益	-10.9132
子男	-10.9135
士習	-10.9136
即日	-10.9142
記注	-10.9144
若夫	-10.9147
先王之	-10.9148
君師	-10.9148
量加	-10.915
兼權直院	-10.9153
去後	-10.9154
充吏	-10.9156
四年二月	-10.9159
論思	-10.9159
無私	-10.916
𠫭將	-10.9163
兖州	-10.9167
癸	-10.9169
言路	-10.917
故違	-10.9171
葱	-10.9174
副監	-10.9174
螭	-10.9177
侍御	-10.9178
翰林院侍讀學士	-10.9182
光祿	-10.9183
收買	-10.9186
蔽膝	-10.9187
巷	-10.9189
一員從七品	-10.919
摹	-10.919
己亥	-10.9191
鼐	-10.9192
郎中知制誥	-10.9192
墀	-10.9193
滑	-10.9194
庇	-10.9194
拓	-10.9194
諸郡	-10.9194
題名碑	-10.9194
讐	-10.9194
易服	-10.9195
華盖殿	-10.9196
達嚕噶齊	-10.9196
外任	-10.9197
通考	-10.9197
太子少傅	-10.9197
緩急	-10.9198
鑄印局	-10.9198
所致	-10.9198
握	-10.92
貴賤	-10.92
罹	-10.9201
哈喇	-10.9203
則服之	-10.9203
掠	-10.9204
守禦	-10.9205
綵輿	-10.9205
弦	-10.9207
東陽	-10.9208
納粟	-10.9211
嘉猷	-10.9212
癸丑進士	-10.9214
露臺	-10.9217
未知	-10.9218
不幸	-10.9218
壙	-10.9219
賢否	-10.922
製造	-10.9221
編類	-10.9222
黄淮	-10.9222
印綬	-10.9222
都指揮使司	-10.9224
以次出	-10.9227
庶政	-10.9232
慶厯	-10.9232
百揆	-10.9233
格式	-10.9239
置於案	-10.9239
手詔	-10.9239
謹案遼	-10.9245
彭年	-10.9247
合葬	-10.9249
三殿	-10.9249
本身	-10.9249
閣臣	-10.925
敷文	-10.9251
在廷	-10.9252
千牛	-10.9256
支給	-10.9256
進酒	-10.9258
司冦	-10.9263
遺意	-10.9263
乾元	-10.9263
銀臺	-10.9263
舞生	-10.9265
萬安	-10.9274
科貢	-10.9276
維新	-10.9277
師儒	-10.9279
昭穆	-10.928
金川	-10.9283
十二日	-10.9283
西漢	-10.9289
三十三	-10.9294
唐太宗	-10.9297
獻納	-10.9297
典制	-10.9299
王曽	-10.9301
禁革	-10.9302
前日	-10.9305
淮安	-10.9309
各四人	-10.931
建昌	-10.9312
庶務	-10.9313
習學	-10.9316
則如今之	-10.9322
張英	-10.9327
二百四十	-10.9331
左藏	-10.9331
倉部	-10.9339
天意	-10.9339
經傳	-10.9344
謹案明	-10.9346
千八百	-10.9348
宇文	-10.9358
郊壇	-10.9361
給假	-10.9362
發遣	-10.9365
季考	-10.9369
外夷	-10.9369
再行	-10.9381
訐	-10.9384
竦	-10.9387
是年正月	-10.9392
神樂觀	-10.9394
景泰元年	-10.9398
神宫監	-10.9399
襖	-10.9401
別	-10.9402
襪	-10.9403
璟	-10.9403
發引	-10.9403
皇極殿	-10.9405
悲	-10.9406
粢盛	-10.9407
萬夀聖節	-10.9407
癸酉	-10.9408
不願	-10.9408
瑜	-10.9408
彤	-10.9409
郡公	-10.9409
秦官	-10.941
翰詹	-10.9411
悞	-10.9412
鞍	-10.9413
㮚	-10.9414
龎	-10.9414
穴	-10.9415
郢	-10.9416
鷄	-10.9416
脯	-10.9416
遮	-10.9417
瞽	-10.9418
丁巳	-10.9418
至大四年	-10.9418
孺	-10.9418
迴	-10.9418
國子博士	-10.9419
辛酉	-10.9419
纘	-10.942
隳	-10.942
紐	-10.9421
湘	-10.9421
丙寅	-10.9421
𦙍	-10.9422
大祀殿	-10.9422
庫掌	-10.9422
左諭徳	-10.9423
肄	-10.9423
趾	-10.9424
宋史	-10.9424
滛	-10.9425
東嶽	-10.9426
彛倫堂	-10.9427
烏思藏	-10.9428
病故者	-10.9429
留守司	-10.943
奉祠	-10.9433
巡捕	-10.9434
公廨	-10.9434
佐貳	-10.9435
三十七年	-10.9436
首飾	-10.9439
禮志	-10.9439
繩愆㕔	-10.944
編檢	-10.9442
茂陵	-10.9444
西向立	-10.9444
綱紀	-10.9447
舉進士	-10.9453
金陵	-10.9454
大祫	-10.9455
解額	-10.9459
不常置	-10.946
各部院	-10.946
謁告	-10.9461
兩淮	-10.9461
太康	-10.9461
罷叅知政事	-10.9462
不為例	-10.9462
仲月	-10.9463
尤甚	-10.9464
驍騎校	-10.9468
服制	-10.9472
少尹	-10.9476
上京	-10.9476
郎中令	-10.949
兵仗	-10.9492
親弟	-10.9493
頒詔	-10.9494
訖奏出圭	-10.9495
立案	-10.9495
傳㫖	-10.9495
也謹案	-10.9504
右衛	-10.9506
司其事	-10.9507
倉曹	-10.9508
赴部	-10.9509
樞府	-10.9522
鎮逺	-10.9522
三旗	-10.9528
白色	-10.953
思退	-10.953
錢物	-10.9531
仁義	-10.9536
不中者	-10.9539
恭惟	-10.9539
支領	-10.9543
襲衣	-10.9551
荆州	-10.9566
公座	-10.9568
襲故	-10.9572
正八品上	-10.9574
享殿	-10.9581
召試	-10.9583
郎中員外郎掌	-10.9584
祭𦵏	-10.9585
公署	-10.9585
聖主	-10.959
二年十二月	-10.9591
次序	-10.9595
公輔	-10.96
碑文	-10.9601
長編	-10.9603
親祭	-10.9618
四兩燭	-10.9621
景神殿	-10.9623
木炭	-10.9626
出處	-10.9626
琮	-10.9627
織染	-10.9627
韓忠彦	-10.9627
同但	-10.9627
覿	-10.9628
穆宗	-10.963
教坊司跪奏	-10.963
孝烈皇后	-10.963
鎮國将軍	-10.9631
青苖	-10.9631
暗	-10.9632
幔	-10.9633
閽	-10.9634
醮	-10.9634
覬	-10.9635
躬行	-10.9635
竣	-10.9635
憤	-10.9636
乙酉	-10.9636
驃騎	-10.9636
脉	-10.9637
寝	-10.9637
鯉	-10.9637
挐	-10.9638
隄	-10.9638
楮	-10.9638
攄	-10.9639
藤	-10.9639
縹	-10.9639
扣	-10.964
戢	-10.964
盥洗	-10.9642
先農壇	-10.9643
應劭	-10.9643
鬯	-10.9643
緬	-10.9644
澹	-10.9644
光宗	-10.9644
諌	-10.9644
勤惰	-10.9645
日清晨	-10.9645
軾	-10.9645
宸翰	-10.9646
婆	-10.9647
三品已上	-10.9647
廐牧	-10.9648
隋隋書百官志	-10.9648
寇	-10.9648
責成	-10.965
癸卯	-10.965
布哈	-10.9651
廵檢	-10.9651
站	-10.9653
障	-10.9654
贄	-10.9654
甲寅	-10.9655
監臨	-10.9655
男楊	-10.9656
洋	-10.9657
師長	-10.9658
創業	-10.9659
一併	-10.9661
秩正三品	-10.9664
刑部侍郎	-10.9664
三百人	-10.9665
昌言	-10.9668
移咨	-10.9668
降授	-10.967
叅預	-10.9672
右庶子	-10.9673
具公服	-10.9679
神牌	-10.9681
同寅	-10.9682
熙寧	-10.9684
儀式	-10.9686
公差	-10.9686
膳夫	-10.9696
副尉	-10.9697
月二十日	-10.9698
夜明	-10.9699
市易	-10.97
司禮監官	-10.9701
莫能	-10.9702
親近	-10.9705
日久	-10.9706
四十九	-10.9713
驍	-10.9715
禮科	-10.972
百斤	-10.973
二丈	-10.973
過多	-10.9732
二年五月	-10.9732
宋儒	-10.9736
覆題奉武宗皇帝聖㫖	-10.9739
禁林	-10.974
妃王氏	-10.9742
各項	-10.975
雲龍	-10.9755
隆慶二年	-10.9762
毎日	-10.9785
中門出	-10.9786
元年十一月	-10.9788
保舉	-10.9788
舊名	-10.9795
日食	-10.9795
宣力	-10.9797
和氣	-10.9798
始立	-10.9803
左右丞相	-10.9805
百官表	-10.981
未嘗不	-10.9827
壬辰進士	-10.9832
臣工	-10.9836
其屬有	-10.9836
入翰林	-10.9837
三院	-10.9841
官員人等	-10.9842
行手本知㑹	-10.9847
元帝	-10.9848
五軍都督府	-10.9853
鐃	-10.9856
鐡	-10.9856
瓘	-10.9858
列侯	-10.9858
盆	-10.986
距	-10.986
一人六百石	-10.9861
佾	-10.9863
李時勉	-10.9866
蒞	-10.9867
煙	-10.9867
誇	-10.9867
壬午	-10.9867
茹	-10.9868
臂	-10.9868
錦衣衞	-10.9869
譴	-10.987
揮	-10.987
孳	-10.9871
周洪謨	-10.9872
溺	-10.9872
稱有制	-10.9873
冰	-10.9874
乙巳	-10.9874
辛亥	-10.9874
幷	-10.9875
𢎞治十年	-10.9876
遼遼史百官志	-10.9876
聯	-10.9877
玷	-10.9877
今據	-10.9877
中和韶樂	-10.9878
批答	-10.988
蔑	-10.988
前期三日	-10.9881
濂	-10.9882
是年二月	-10.9884
任右侍郎	-10.9885
商英	-10.9885
㸃檢	-10.9886
奮庸	-10.9887
勲戚	-10.9887
典儀唱奠帛行初獻禮	-10.9888
光禄卿	-10.9889
慝	-10.989
是年三月	-10.9892
廵按	-10.9894
二十五人	-10.9894
露布	-10.9894
除同知樞密院事	-10.9898
刪定	-10.9898
從重	-10.9898
車輅	-10.9899
管河	-10.99
從八	-10.9901
忠臣	-10.9903
遣官祭	-10.9904
祖父	-10.9904
隨朝	-10.9905
本注曰	-10.9906
稽查	-10.9914
永樂五年	-10.9916
銓選	-10.9917
神龍元年	-10.9928
復召	-10.9929
後周有	-10.993
籍貫	-10.9934
依擬	-10.9937
追復	-10.9938
所居	-10.9939
注云	-10.9939
講讀官	-10.994
臨期	-10.9942
永樂三年	-10.9944
色長	-10.9945
額設	-10.9946
某官某	-10.9947
草制	-10.9951
内廷	-10.9952
九廟	-10.9952
丞郎	-10.9965
欲乞	-10.9971
六年任	-10.9974
官四員	-10.9974
張氏	-10.9975
北方	-10.9979
宣讀	-10.9983
宗本紀	-11
南昌	-11.0002
十有四	-11.0005
上䟽	-11.0012
犯罪	-11.002
次子	-11.0021
三萬	-11.0024
休命	-11.0024
習儀	-11.0025
佐郎	-11.0027
刑法	-11.0033
戊辰進士	-11.004
把事	-11.0042
陵廟	-11.0043
乞恩	-11.005
從七	-11.0056
供御	-11.006
開坐	-11.0064
聖心	-11.0064
該寺	-11.0076
橋門	-11.0076
可乎	-11.0081
山隂	-11.0081
輔相	-11.0085
具載	-11.0089
械	-11.0089
兩月	-11.0092
鑪	-11.0094
合四上四	-11.0095
具儀	-11.0095
考補	-11.0097
閘	-11.0097
南陽	-11.01
躔	-11.0101
熱	-11.0102
濁	-11.0102
嘉靖三十二年	-11.0102
捧主官	-11.0102
鈒	-11.0102
䧏	-11.0102
苛	-11.0103
敝	-11.0103
廳	-11.0103
所能	-11.0104
皮弁	-11.0104
國子生	-11.0104
鎭	-11.0105
絡	-11.0105
縧	-11.0105
該本部查得	-11.0106
跟	-11.0106
承務郎	-11.0106
嚕	-11.0106
先是上	-11.0107
貝勒	-11.0107
䆒	-11.0107
搜	-11.0108
琬	-11.0108
寰	-11.0109
兎	-11.0109
姻	-11.0109
庶長男	-11.0111
以侍讀學	-11.0111
賽	-11.0111
起居舍人	-11.0112
羽翼	-11.0112
經筵講官	-11.0112
各有差	-11.0112
汚	-11.0113
装	-11.0113
鈴	-11.0113
蕪	-11.0115
雀	-11.0115
雉	-11.0115
潁	-11.0115
未入流	-11.0115
庵	-11.0116
卨	-11.0116
訃	-11.0116
雲騎尉	-11.0117
琰	-11.0118
纒	-11.0119
九重	-11.012
學生員	-11.012
宋書百官志	-11.012
嘉禾	-11.0121
圉	-11.0121
甬	-11.0121
販	-11.0122
宣徳五年	-11.0122
膝	-11.0123
殮	-11.0123
崖	-11.0125
朱勝非	-11.0125
曰惟神	-11.0126
甲午	-11.0127
詞訟	-11.0127
囉	-11.0127
韓維	-11.0131
職務	-11.0132
故無嗣	-11.0133
陰陽	-11.0133
被劾	-11.0135
僚屬	-11.0136
讀祝位	-11.0138
學録	-11.0138
召入	-11.0139
國體	-11.0141
膳羞	-11.0142
𢎞治三年	-11.0146
臣寮	-11.0146
北面立	-11.0148
三年六月	-11.0152
糾儀	-11.0153
伺候	-11.0154
現在	-11.0155
飲訖	-11.0155
轉運司	-11.0157
巡視	-11.0165
賜白金	-11.0166
各以其	-11.0169
而用之	-11.0171
戒諭	-11.0174
收支	-11.0174
遵照	-11.0178
待罪	-11.0181
號令	-11.0191
保甲	-11.0192
郡君	-11.0192
典樂	-11.0199
先一日	-11.0202
開具	-11.0204
切責	-11.0208
經理	-11.0211
國師	-11.0217
永嘉	-11.0218
北羊	-11.0219
羣小	-11.022
舊臣	-11.0224
更張	-11.0229
如果	-11.0229
三年九月	-11.0232
當世	-11.0237
文武官員	-11.0239
城侯	-11.0241
嗣位	-11.0241
書冩	-11.0244
治天下	-11.0252
無敢	-11.0253
供職	-11.0256
㑹稽	-11.0256
乞歸	-11.0265
頒賜	-11.0268
外藩	-11.0274
題奉欽依	-11.0279
隋唐	-11.0292
陳設同	-11.0303
隆慶六年	-11.0305
不絶	-11.0305
分左右	-11.0306
鉶二	-11.0308
鎮將	-11.0309
義理	-11.0309
正七品上	-11.0312
班齊	-11.0317
不逮	-11.032
謹案晉	-11.0321
太學生	-11.0324
犧牲	-11.0326
醴齊	-11.0329
簠簋各二	-11.0336
即便	-11.0337
精通	-11.0337
轉奏	-11.0339
所著	-11.034
内使監令	-11.0342
奉聖㫖准他襲欽此	-11.0343
蘄	-11.0345
木柴	-11.0345
楫	-11.0345
繇本司主事	-11.0346
埋	-11.0346
捉	-11.0347
帙	-11.0348
漢武帝	-11.0348
薊	-11.0348
眉	-11.0349
鱗	-11.035
張九齡	-11.035
工作	-11.0351
年任館	-11.0352
軍節度副使	-11.0353
晏殊	-11.0353
艾	-11.0355
大農	-11.0356
繇本司	-11.0356
淳熈	-11.0356
甘泉	-11.0357
𢎞治十八年	-11.0357
頥	-11.0359
輕車都尉	-11.036
阮	-11.036
棺	-11.0362
字仲	-11.0362
蟠	-11.0362
具服殿	-11.0362
蘇軾	-11.0362
佇	-11.0363
戊申	-11.0364
齋醮	-11.0364
廢弛	-11.0364
灑掃	-11.0365
率其屬	-11.0368
糾察	-11.037
征伐	-11.037
太子少師	-11.037
孝慈	-11.0373
御製詩	-11.0377
遷中書舍人	-11.0384
帶俸	-11.0387
生儒	-11.0388
女子	-11.0388
各掌其	-11.0389
萬户府	-11.0389
殺人	-11.0395
神祗	-11.0395
十三年任	-11.0398
工匠	-11.0398
造辦	-11.0405
女樂	-11.041
龍江	-11.0411
月初九日	-11.0413
内贊唱	-11.0419
學習	-11.0419
晉宋	-11.042
宦官	-11.042
同姓	-11.042
當如今之	-11.042
果品	-11.0421
渡江	-11.0424
圖任	-11.043
靈臺	-11.0431
邦家	-11.0432
民生	-11.0434
成化十四年	-11.0435
灾異	-11.0436
三百石	-11.0438
國語	-11.0439
喪服	-11.0444
隋氏	-11.0451
南宫	-11.0469
本職	-11.0469
四拜興	-11.0475
十有六	-11.0476
百餘人	-11.0478
陞轉	-11.0483
銀兩	-11.0492
丁祭	-11.0493
諭内閣	-11.0493
工食	-11.0493
大成門	-11.0495
尚衣	-11.0495
掌印官	-11.0498
翰林學士承㫖	-11.0505
婚禮	-11.0507
金帛	-11.0519
寜人	-11.052
副率	-11.0527
太社	-11.0559
並列	-11.0562
真定	-11.0568
執法	-11.0569
二表裏	-11.057
揀	-11.0572
四十四	-11.0576
婚配	-11.0576
年六十	-11.0577
一百人	-11.0579
紵絲衣一套	-11.0582
瑋	-11.0584
朽	-11.0588
犧	-11.0589
盂	-11.059
晁	-11.0591
貺	-11.0594
簠	-11.0594
鋪排	-11.0595
神靈	-11.0597
燒香	-11.0598
婚嫁	-11.0598
張廷玉	-11.0598
紵	-11.0598
䜛	-11.0599
不敷	-11.0599
工尺一四	-11.06
椿	-11.06
勺	-11.06
閠	-11.0601
泄	-11.0601
颺	-11.0602
鄆	-11.0602
成化二十三年	-11.0602
愷	-11.0602
㳂	-11.0603
奨	-11.0603
集賢校理	-11.0603
舅	-11.0603
浹	-11.0603
聊	-11.0603
學業	-11.0604
淪	-11.0604
攀	-11.0605
大畧	-11.0605
拿	-11.0605
跋	-11.0606
覆題奉孝宗皇帝聖㫖	-11.0606
梧	-11.0607
愍	-11.0607
糖	-11.0607
圎	-11.0609
檄	-11.0609
光祿大夫	-11.0609
倦	-11.061
政務	-11.061
南齊書百官志	-11.061
王應麟玉海	-11.0611
鍋	-11.0611
服闋	-11.0612
壬申	-11.0612
嫡母	-11.0612
狐	-11.0612
鐘鼓	-11.0613
李清臣	-11.0613
招討司	-11.0613
活	-11.0615
伊尹	-11.0615
思善門	-11.062
陸續	-11.0621
遣官祭告	-11.0623
關防	-11.0624
統轄	-11.0631
師氏	-11.0631
倉場	-11.0632
所𨽻	-11.0632
得其人	-11.0632
𨽻焉	-11.0633
倫序	-11.0636
通曉	-11.0636
坊局	-11.0646
白鹽	-11.0648
援例	-11.0654
願陛下	-11.0657
又改為	-11.0662
中門入	-11.0665
兩廣	-11.0665
早朝	-11.0672
應否	-11.0674
羊豕	-11.0675
景陵	-11.0689
欽奉	-11.0689
若盧	-11.0696
正統二年	-11.0698
落成	-11.0702
表賀	-11.0709
預告	-11.0714
内助	-11.0719
經費	-11.0719
太學博士	-11.0731
於是禮部	-11.0742
錦衣衛官	-11.0745
叅領	-11.0746
楊氏	-11.0751
月十二日	-11.0754
小民	-11.0766
降勅	-11.0767
建隆	-11.0767
寺監	-11.0768
名器	-11.0771
所犯	-11.0772
來朝貢	-11.0772
七寸	-11.0776
積分	-11.0781
一儀注	-11.0786
册封	-11.0787
升祔	-11.0787
牧監	-11.0791
大猷	-11.0793
嘉靖二十八年	-11.0795
令一人丞一人	-11.0798
咨送	-11.0803
牛羊	-11.0818
二百石	-11.0824
千五百	-11.0826
近世	-11.0829
赴闕	-11.083
牲匣	-11.0832
胄子	-11.0837
鋒	-11.0838
六工一尺	-11.084
廨	-11.0844
芡	-11.0845
菱米	-11.0848
芬	-11.0849
一斗	-11.0849
蜜	-11.085
寨曰	-11.0851
拏	-11.0851
行亞獻禮	-11.0852
悠	-11.0852
洙	-11.0853
霽	-11.0853
行初獻禮	-11.0853
圃	-11.0854
檢校太尉	-11.0854
脯醢	-11.0855
嘉靖四十四年	-11.0857
承制官	-11.0858
纁	-11.0858
堯叟	-11.0859
燮	-11.0859
訓練	-11.0859
璉	-11.086
靳	-11.086
兼管監事	-11.0862
正奉大夫	-11.0862
邕	-11.0863
𢎞治十七年	-11.0863
在政府	-11.0863
婚姻	-11.0863
江南長洲人	-11.0863
堡	-11.0864
璜	-11.0865
菁	-11.0865
軍民人等	-11.0865
奉國中尉	-11.0865
遣中使	-11.0865
捷	-11.0867
大學士楊士竒	-11.0867
鍼	-11.0868
愉	-11.0868
駙馬都尉	-11.0868
昊天上帝	-11.0868
侃	-11.0869
壬寅	-11.0869
嬰	-11.0869
童貫	-11.0869
祥瑞	-11.0869
疲	-11.087
絛	-11.087
備馬赴京	-11.0871
顥	-11.0871
貎	-11.0873
舊唐書	-11.0873
穰	-11.0874
𢎞治七年	-11.0874
羈縻	-11.0877
宋宋史職官志	-11.0877
鞍馬	-11.0878
遣官行禮	-11.0878
賛引引	-11.0879
埽	-11.088
一尺二寸	-11.0883
八旗官學生	-11.0885
樞庭	-11.0887
申飭	-11.0888
京朝官	-11.0888
郎中一人員外郎	-11.0892
正統三年	-11.0893
安撫司	-11.0893
具冕服	-11.0893
十二斤	-11.0895
庚辰進士	-11.0896
不可得	-11.0896
祫祭	-11.0896
鼓舞	-11.0898
六斤	-11.09
宫禁	-11.0902
詹同	-11.0904
進俎	-11.0904
雍正三年	-11.0906
成化十三年	-11.091
多矣	-11.0911
注疏	-11.0914
縁由	-11.0925
上柱國	-11.0928
乘馬	-11.0929
必欲	-11.0933
一千五百	-11.0935
配帝	-11.0936
講堂	-11.0936
母妃	-11.0939
順治元年定	-11.0939
行走	-11.0947
出榜	-11.0951
十有三	-11.0952
阿爾	-11.0954
不測	-11.0956
劾奏	-11.0958
㕘領	-11.0961
祔廟	-11.0964
罷參知政事	-11.0964
特設	-11.0966
肅清	-11.0967
左右廂	-11.0968
贈太師	-11.0968
於午門外	-11.0969
程文	-11.0969
五星	-11.0972
掾史	-11.0973
栗子	-11.0976
貞觀中	-11.0978
衣食	-11.0979
都給事中	-11.0981
昌朝	-11.0989
自資政殿學士	-11.0999
元嘉	-11.1003
祠祀	-11.1003
陳因之	-11.1007
公弼	-11.1011
聲教	-11.1015
首善	-11.1017
永陵	-11.1019
敬天	-11.1022
諸蕃	-11.1025
親臨	-11.1026
講論	-11.1031
一篇	-11.1031
是年六月	-11.1042
楷書	-11.1047
十有七	-11.1047
支米	-11.106
二座	-11.1067
尺四工合	-11.1067
東西各	-11.1084
永昌	-11.1093
重輕	-11.1094
二十五日	-11.1095
六寸	-11.1097
布衣	-11.1097
緋	-11.1098
十枝	-11.1106
十二月奉聖㫖	-11.1106
北嶽	-11.1108
鏘	-11.1108
綵段二表裏	-11.1109
煖	-11.1109
薫	-11.1111
九尺	-11.1111
奉令㫖	-11.1111
霞帔	-11.1112
摺	-11.1114
羃	-11.1114
舁	-11.1115
惻	-11.1115
上曰卿	-11.1116
軄	-11.1116
鉤	-11.1116
典儀唱迎神	-11.1117
糓	-11.1118
黍稷	-11.1118
遂有是命	-11.1119
皇貴妃	-11.1119
掲帖	-11.1119
鎮巡等官	-11.1119
婺	-11.1119
奭	-11.1119
轅	-11.1119
華蓋殿	-11.1119
盍	-11.112
筠	-11.112
日月星辰	-11.1121
宥宻	-11.1121
騷	-11.1121
蔬菜厨料	-11.1122
頤	-11.1122
鮑	-11.1122
字籍見主事下	-11.1123
癸亥	-11.1123
亞獻終獻	-11.1123
制詞	-11.1123
永樂二十二年	-11.1124
北齊隋書百官志後齊	-11.1124
癸巳	-11.1124
店	-11.1125
典儀唱樂舞生就位執事官各司其事	-11.1125
庚寅	-11.1126
瑁	-11.1126
琅	-11.1127
嶠	-11.1128
蘇易簡	-11.1128
百官箴	-11.1129
闐	-11.113
竢	-11.113
㒒	-11.113
篋	-11.1132
宫闈	-11.1133
讎	-11.1133
珠翠	-11.1134
撫按衙門	-11.1136
撃	-11.1137
駟	-11.1139
鹽鐵	-11.1139
明明史職官志	-11.114
祕殿	-11.1141
䕶軍校	-11.1143
餘慶	-11.1146
正統六年	-11.1147
司贊唱	-11.1148
為考試官取	-11.1148
織造	-11.1151
世子郡王	-11.1152
所自出	-11.1154
捧詔	-11.1154
二十九日	-11.1155
郎中一人	-11.1155
副總裁	-11.1158
祥符	-11.1159
官貟	-11.1166
孝武	-11.1166
萬壽	-11.1166
候駕	-11.1167
安燾	-11.1168
侍衞	-11.117
占城	-11.1171
覈實	-11.1171
第幾	-11.1171
泰和	-11.1172
羊酒	-11.1172
東西向立	-11.1173
秘府	-11.1175
候㫖	-11.1175
檢察	-11.1177
嘉靖十四年	-11.1183
親親之	-11.1183
勲臣	-11.1185
殿最	-11.1186
照㑹	-11.1186
辛未進士	-11.1187
問擬	-11.1189
考驗	-11.1193
學士宋濓	-11.1195
員外郎一人	-11.1198
土木	-11.12
天津	-11.1203
我祖宗	-11.1203
工役	-11.1205
劉向	-11.1214
滿日	-11.1215
嘉靖間	-11.1221
至拜位	-11.1221
甲辰進士	-11.1229
張俊	-11.1233
厥後	-11.1234
恭遇	-11.1237
詔㫖	-11.1242
力辭	-11.1244
賜鈔	-11.1244
鳴賛	-11.1245
至御前	-11.1251
六千	-11.1251
六箇	-11.1251
謁廟	-11.1253
丙戌進士	-11.1262
殿左門	-11.1264
給價	-11.1265
誠敬	-11.1277
朝因之	-11.1284
東海	-11.1288
二十一日	-11.129
山林	-11.1294
大誥	-11.1295
雨雪	-11.13
學規	-11.1305
洪武七年	-11.1309
文簿	-11.1319
誤國	-11.1325
屬車	-11.1326
四十六	-11.1329
乾隆元年	-11.1329
洪武十八年	-11.1329
千七百	-11.1333
聖意	-11.134
敢言	-11.1344
人驍騎校	-11.1345
紅絹	-11.1353
盛徳	-11.1362
匙	-11.1369
靠	-11.137
我太祖	-11.1371
裡	-11.1373
苖	-11.1384
脂	-11.1385
行八拜禮	-11.1385
雹	-11.1385
瑗	-11.1385
卯	-11.1386
奠玉帛	-11.1387
冢	-11.1388
暁	-11.1389
突	-11.1389
塤	-11.139
届	-11.1391
剥	-11.1391
瀋	-11.1391
舌	-11.1391
涕	-11.1393
叚	-11.1393
肴	-11.1394
梁冠	-11.1395
𢎞治十六年	-11.1395
齊職儀	-11.1395
躐	-11.1395
樞宻直學士	-11.1395
薛瑄	-11.1395
六品已下	-11.1396
䧟	-11.1396
聶	-11.1396
韓絳	-11.1396
苟	-11.1397
婁	-11.1398
鈎盾	-11.1398
皇慶元年	-11.1399
第九品	-11.1399
天夀山	-11.1399
疫	-11.14
煬帝改為	-11.14
狥私	-11.14
李沆	-11.14
甲乙	-11.14
裹	-11.14
分司南京	-11.1401
諮議	-11.1401
醜	-11.1402
紛紛	-11.1403
字様	-11.1403
逋	-11.1404
翌日	-11.1404
闥	-11.1404
冡宰	-11.1405
溫	-11.1406
陕西	-11.1407
頤浩	-11.1408
太宗皇帝	-11.1408
郕	-11.1409
紅緑	-11.1409
以他官兼	-11.141
二十八日	-11.141
胡椒	-11.141
司獄	-11.141
嶺南	-11.1412
追奪	-11.1412
米二石	-11.1412
神厨	-11.1414
比二千石	-11.1416
科塲	-11.1417
五楹	-11.1418
承旨	-11.1422
太卜	-11.1423
變亂	-11.1424
法曹	-11.1424
賛復位	-11.1425
御幄	-11.1426
李昉	-11.1426
襲爵	-11.1433
行勘	-11.1439
翊衛	-11.1442
第二品	-11.1446
位號	-11.1447
宣撫司	-11.145
巡察	-11.1454
俸米	-11.1458
印結	-11.1465
聖躬	-11.1466
從六品掌	-11.1467
比照	-11.1468
内贊贊	-11.1469
聖裁	-11.1471
序坐	-11.1473
署令一人丞	-11.1475
𠡠諭	-11.148
前輩	-11.1481
景泰四年	-11.1483
鹽法	-11.1485
豈能	-11.1486
憲廟	-11.1487
納銀	-11.1487
甲戌進士	-11.1496
殿閣	-11.1506
衛將軍	-11.1507
五十斤	-11.1514
虞部	-11.1521
文藝	-11.1526
賛禮畢	-11.1537
太子詹事	-11.1541
昌平	-11.1541
㑹計	-11.1543
億萬	-11.1552
下所司	-11.1562
飲福	-11.1568
廟諱	-11.1577
咸通	-11.158
三百六十	-11.159
遺詔	-11.1591
豈非	-11.1593
裁定	-11.1597
南北向	-11.1604
金吾衛	-11.1611
副使一人	-11.1613
師古曰	-11.1613
作養	-11.1615
不得過	-11.1639
部篇	-11.1648
丹墀内	-11.1651
明史職官志	-11.1654
永樂六年	-11.1654
鉦	-11.1657
絹四疋	-11.1658
驢	-11.1658
筐	-11.166
幘	-11.1661
韭	-11.1661
迤	-11.1661
白麫	-11.1661
刁	-11.1664
斤八兩	-11.1666
鴈	-11.1666
樣	-11.1666
蒋	-11.1667
行在禮部尚書胡濙	-11.1667
卦	-11.1668
遹	-11.1668
鏊	-11.1668
蹤	-11.1669
楊廷和	-11.1669
絰	-11.1669
忌辰前期十日本寺題	-11.1669
沐浴	-11.1669
株	-11.167
儻	-11.167
閹	-11.1671
濙	-11.1671
鋐	-11.1671
輔國将軍	-11.1672
右順門	-11.1672
隐	-11.1673
塑	-11.1673
纎	-11.1673
勃	-11.1673
毆	-11.1674
菲	-11.1674
年七十	-11.1674
共一壇	-11.1675
紹述	-11.1675
懈	-11.1676
孫嘉淦	-11.1677
鈕	-11.1677
江南武進人	-11.1678
需索	-11.1678
呂夷簡	-11.1678
猾	-11.1678
甘露	-11.168
哥	-11.168
周禮地官	-11.1681
殁	-11.1681
賛禮唱	-11.1681
鈔幣	-11.1681
直集賢院	-11.1685
戒飭	-11.1685
學士承㫖	-11.1685
北院	-11.1685
㳟	-11.1686
槖	-11.1687
珙	-11.1687
曉諭	-11.169
縝	-11.1691
成化十一年	-11.1694
吳敏	-11.1695
誕揚	-11.1696
正統七年	-11.1696
神御前	-11.1698
減半	-11.17
箇月	-11.17
奏省牲	-11.1704
𢎞治十三年	-11.1706
山東河南	-11.1712
折衣	-11.1718
禮部議准	-11.1718
父兄	-11.1721
非其人	-11.1724
免役	-11.1725
一前期一日	-11.1728
彌封	-11.1729
洪武十四年	-11.1729
茶食	-11.1732
岐陽	-11.1736
養老	-11.1738
合為一	-11.1745
畿内	-11.1747
醫師	-11.1757
禮部主事	-11.1765
回還	-11.1777
薦新	-11.1781
初即位	-11.1785
遷轉	-11.1786
取㫖	-11.1789
不諳	-11.179
正統五年	-11.1799
文翰	-11.18
鴻臚寺設	-11.1805
一尺四合	-11.1809
正五品上	-11.1815
獻訖	-11.1817
四郊	-11.1821
狀元	-11.1829
大辟	-11.1844
分東西	-11.1845
訖樂止	-11.1847
主事四人	-11.1847
皇陵	-11.1851
奉武宗皇帝聖㫖是欽此	-11.1858
典牧	-11.1866
太醫令	-11.1866
臨朝	-11.1884
刻石	-11.1891
百六十	-11.1909
洪武二十四年	-11.191
價銀	-11.1916
講筵	-11.1923
白咨紙	-11.194
槍	-11.194
浙江慈谿	-11.194
籀	-11.194
僊	-11.194
捧冊寳	-11.1941
牖	-11.1945
雁	-11.1947
覆勘	-11.1947
天眷	-11.1947
初獻夀和	-11.1948
漿	-11.1948
欽此正德	-11.1949
敢昭告於	-11.195
虗	-11.195
歲暮	-11.1951
致齋三日	-11.1951
陳升之	-11.1951
匪懈	-11.1951
穢	-11.1951
憾	-11.1951
浪	-11.1952
朝日夕月	-11.1952
皇極門	-11.1953
檀香	-11.1953
椀	-11.1954
丁酉	-11.1954
捨	-11.1954
譚	-11.1954
伯宋大中祥符二年加	-11.1955
諏	-11.1956
睢	-11.1956
伏覩	-11.1956
璘	-11.1957
正徳三年	-11.1958
蒐	-11.1958
取自上裁	-11.1958
舟楫	-11.1958
禕	-11.1959
謄寫	-11.1959
慨	-11.1959
舟檝	-11.196
嘉靖二十九年	-11.196
媒氏	-11.1961
掌邦國	-11.1961
錦繡	-11.1961
邈	-11.1963
史館修撰	-11.1964
灑	-11.1965
岳飛	-11.1966
㐮	-11.1966
擴	-11.1967
御案前	-11.1967
瓜	-11.1967
撰述	-11.1968
窄	-11.1968
郎中員外郎主事	-11.1968
臨軒	-11.1969
博學	-11.197
從其請	-11.1971
嘉靖十八年	-11.1972
宥密	-11.1972
内管領	-11.1973
編修檢討	-11.1973
出守本官	-11.1974
礮	-11.1974
宋齊梁陳宋書百官志	-11.1974
突厥	-11.1974
駒	-11.1975
是年九月	-11.1976
丁丑進士	-11.1976
中山王	-11.1976
廣運	-11.1977
互市	-11.1979
母后	-11.1979
是年十月	-11.198
三國魏志	-11.1983
大理寺卿	-11.1983
邊境	-11.1983
左布政使	-11.1985
扶風	-11.1987
翟衣	-11.1988
腹心	-11.1988
勸農	-11.1989
區處	-11.1991
叅究	-11.1991
團練使	-11.1994
黜退	-11.1994
姓氏	-11.1997
登庸	-11.1997
究問	-11.1999
采輿	-11.1999
史浩	-11.2001
飛龍	-11.2002
吏部左侍郎	-11.2007
非常之	-11.2014
軍節度	-11.2015
靖難	-11.2016
亭侯	-11.2017
進士舉人	-11.2017
柱下	-11.2018
一斤八兩	-11.202
嘉靖二十四年	-11.202
乞致仕	-11.202
𢎞治十四年	-11.2022
掖門	-11.2031
劉吉	-11.2038
月初七日	-11.2039
𤣥宗	-11.2049
鄉君	-11.2049
福胙	-11.2053
回籍	-11.2055
查考	-11.2058
辭免	-11.2061
管待	-11.2062
謁見	-11.2064
臨幸	-11.2065
蒙正	-11.2068
銀一兩	-11.2072
存問	-11.2075
暫免	-11.2085
事下禮部	-11.2086
中書省臣	-11.2092
昭陵	-11.2093
宣徳二年	-11.2095
右諭徳	-11.2095
社稷壇	-11.2102
該本部題	-11.2107
過期	-11.2114
乾隆二年	-11.2127
父祖	-11.2152
典寳	-11.2153
司農寺	-11.2162
龍朔二年改	-11.2171
纂修官	-11.2185
欽此嘉靖二十	-11.2189
尋陞	-11.2189
尺二寸	-11.2198
世襲土官	-11.22
是年四月罷	-11.2202
麻布	-11.2208
象牙	-11.2208
繇精膳司	-11.2212
一人正八品下	-11.2215
宣慰使	-11.2233
浙江餘姚人	-11.2234
内使監官	-11.2234
卡	-11.2237
粱	-11.2237
屬少府	-11.2238
翻	-11.2239
詮	-11.2239
某年某月某	-11.2239
司直郎	-11.2239
糺	-11.224
萬壽聖節	-11.2241
上諭禮部臣曰	-11.2243
涯	-11.2246
無常員	-11.2246
藺	-11.2247
灣	-11.2247
諛	-11.2247
樽	-11.2247
大學衍義	-11.2247
蟬	-11.2248
駞	-11.2248
讌	-11.2249
柴薪	-11.225
邃	-11.225
剖	-11.2251
懌	-11.2251
藎	-11.2251
尚膳監	-11.2251
祕書監	-11.2251
聫	-11.2252
稼	-11.2252
瑣	-11.2252
姆	-11.2252
喚	-11.2252
獅子	-11.2253
猥	-11.2253
乾清宫	-11.2253
床	-11.2253
慚	-11.2253
浙江海寜	-11.2253
祺	-11.2254
煌煌	-11.2254
妻妾	-11.2255
孔雀	-11.2255
慙	-11.2255
黔	-11.2255
太師太傅太保	-11.2256
集賢殿大學士	-11.2256
蛇	-11.2256
武英殿大學士	-11.2258
球	-11.2258
釀	-11.2258
狡	-11.2258
牐	-11.2258
己未進士	-11.2258
拊	-11.2258
遄	-11.2259
紗㡌	-11.2259
晷	-11.2259
己卯	-11.2259
晉晉書職官志	-11.226
青苗	-11.226
牋	-11.2261
江南吳縣	-11.2261
臨安府	-11.2261
張邦昌	-11.2261
濕	-11.2261
崇文院	-11.2262
両	-11.2262
哈密	-11.2265
堯佐	-11.2265
駐劄	-11.2266
魁柄	-11.2266
底簿	-11.2266
鵬舉	-11.2267
漢漢書百官公卿表	-11.2269
南蠻	-11.227
騎射	-11.227
藝祖	-11.227
勞逸	-11.227
錦衣	-11.2271
祧廟	-11.2272
謀謨	-11.2273
文武衙門	-11.2273
是年十一月	-11.2274
朝㕘	-11.2274
雒陽	-11.2274
徐溥	-11.2274
休戚	-11.2274
武弁	-11.2275
僅存	-11.2276
邦昌	-11.2279
汝愚	-11.2279
退復位	-11.2282
人丙辰進士	-11.2284
四方館	-11.2285
課程	-11.2288
之大者	-11.229
宿衞	-11.229
翰林院編修	-11.229
異姓	-11.2292
罷樞宻副使	-11.2293
徽號	-11.2295
二人位于	-11.2296
月初二日上	-11.2297
防禦使	-11.2298
發落	-11.2301
運判	-11.2309
記注官	-11.2311
對讀	-11.2314
御極	-11.2319
青羅	-11.232
紀録	-11.234
躬親	-11.2343
地面	-11.2343
宿直	-11.2353
天順二年	-11.2354
開元初	-11.2357
正四品上	-11.2358
青海	-11.236
孔子廟	-11.2362
于文華殿	-11.2366
左門出	-11.237
曽孫	-11.2373
謹案後漢	-11.2376
雅樂	-11.2376
本部覆題奉聖㫖	-11.238
月十六日	-11.2382
奏討	-11.2387
尺工	-11.2392
景泰二年	-11.2394
増廣	-11.2396
東廂	-11.2423
服衮冕	-11.2423
州界	-11.2444
昭文館大學士	-11.2446
六藝	-11.245
不撓	-11.246
酋長	-11.246
騎兵	-11.2474
題覆	-11.2484
𢎞治二年	-11.2485
景泰三年	-11.2492
未足	-11.2492
杭	-11.2499
諡號	-11.2507
八佾	-11.252
六十四	-11.2529
兩五錢	-11.2529
冊寳案	-11.2531
毎匹	-11.2531
其後又	-11.2532
江西吉水人	-11.2538
彝	-11.2539
行一拜三叩頭禮	-11.254
迓	-11.254
擡	-11.2541
衣一套	-11.2543
諂	-11.2544
杯	-11.2545
賛冠者	-11.2546
莖	-11.2547
金㓜孜	-11.2547
文思院	-11.2548
購	-11.2548
之訓洪武	-11.2548
襯	-11.2549
冦凖	-11.255
猗	-11.255
紘	-11.255
毓	-11.255
巻	-11.2551
忭	-11.2551
䑕	-11.2551
𦕈	-11.2551
浴	-11.2552
中奉大夫	-11.2552
朱熹	-11.2552
翕	-11.2552
朝議大夫	-11.2552
誓戒	-11.2553
泳	-11.2553
碣	-11.2553
衿	-11.2554
㒺	-11.2554
舊唐書職官志	-11.2555
棠	-11.2555
浄	-11.2555
優劣	-11.2555
趺	-11.2555
兊	-11.2556
郝	-11.2556
胸	-11.2556
布按二司	-11.2556
疵	-11.2557
瀛洲	-11.2557
闊	-11.2557
府一人史二人	-11.2557
数	-11.2557
勦	-11.2558
王與妃	-11.2558
濡	-11.2559
挈	-11.2559
醴泉觀使	-11.2559
喀爾喀	-11.2559
罵	-11.256
三十二人	-11.256
偷	-11.256
苑囿	-11.256
臯陶	-11.2561
綍	-11.2561
貴妃	-11.2561
尅	-11.2561
花様	-11.2561
四譯館	-11.2562
管鑰	-11.2562
刋刻	-11.2562
掄選	-11.2563
俳	-11.2563
賽瑪爾堪	-11.2564
樞筦	-11.2565
己酉	-11.2566
除簽書樞密院事	-11.2566
大學士李賢	-11.2566
蝗	-11.2566
汪伯彦	-11.2567
嫉	-11.2567
魂	-11.2568
騶	-11.2568
顔孟	-11.2569
筆墨	-11.2569
顔師古注	-11.2569
酒醴	-11.257
翰林儒臣	-11.2573
量給	-11.2575
邏	-11.2575
支俸	-11.2575
曲直	-11.2576
商賈	-11.2576
梁燾	-11.2577
峒	-11.2579
𢎞治五年	-11.2579
四合四一	-11.2579
查究	-11.2579
鑄造	-11.258
典儀唱徹饌	-11.2581
洪武十七年	-11.2587
干預	-11.2588
長沙	-11.2589
修起居注	-11.2589
成化二十二年	-11.2589
七十五	-11.2589
至元十年	-11.2589
九嬪	-11.2592
除尚書左丞	-11.2594
謀猷	-11.2596
翰林志	-11.2597
午門前	-11.2599
物件	-11.2599
貨物	-11.26
不肖	-11.2604
曽布	-11.2611
三法司	-11.2616
權衡	-11.2621
鄉里	-11.2622
顔師古	-11.2629
黄履	-11.2631
具啓	-11.2632
祭社稷	-11.2637
即如今	-11.2638
尺工尺	-11.2638
從六品下	-11.2645
品第三	-11.2652
正四品下	-11.2661
八座	-11.2661
尺六寸	-11.2669
惠帝	-11.2671
進士萬厯十	-11.2673
殿門外	-11.2677
十有四人	-11.2702
御文華殿	-11.2721
妃嬪	-11.2733
宋綬	-11.2735
成化五年	-11.2777
天順四年	-11.2791
襲替	-11.2804
紀載	-11.2805
正徳元年	-11.2808
導引官導	-11.2811
奠帛行初獻禮	-11.2813
僎	-11.2831
宻院	-11.2831
隻雞	-11.2845
砂糖	-11.2846
晴	-11.2847
羊一豕一	-11.2853
暘	-11.2854
從第五品	-11.2854
鎖	-11.2855
五品以下	-11.2855
旛	-11.2857
内院學士	-11.2858
濤	-11.2861
舅姑	-11.2861
鶻	-11.2861
鞠衣	-11.2862
朔朢	-11.2862
寂	-11.2862
真定府	-11.2863
耕藉	-11.2863
翼翼	-11.2863
址	-11.2864
嗜	-11.2864
牝	-11.2865
烹	-11.2865
收拾	-11.2865
平之章	-11.2866
歿	-11.2866
挑	-11.2866
隰	-11.2866
總兵官劄	-11.2866
僞	-11.2866
掄	-11.2867
碎	-11.2867
曽公亮	-11.2867
國子司業	-11.2867
章得象	-11.2868
通奉大夫	-11.2868
琛	-11.2869
拭	-11.2869
賜福胙	-11.2869
堤	-11.287
丁母憂	-11.2871
榆	-11.2871
彥	-11.2872
淵源	-11.2872
偁	-11.2873
祔葬	-11.2873
鎗	-11.2873
帶一條	-11.2873
養贍	-11.2873
陞座樂止	-11.2874
膚	-11.2874
景㤗	-11.2874
潰	-11.2875
飼	-11.2875
蘊	-11.2875
貿易	-11.2875
倂	-11.2875
攙	-11.2876
贇	-11.2876
文淵閣大學士	-11.2877
獻俘	-11.2878
帨	-11.2878
蔡攸	-11.2879
七月奉聖㫖	-11.288
遣使朝貢	-11.2881
适	-11.2881
髤	-11.2881
三年一貢	-11.2882
正綂	-11.2883
宣徳七年	-11.2883
萬厯十年議准	-11.2883
大徳十一年	-11.2884
粲	-11.2884
右司諫	-11.2886
啟閉	-11.2888
著做	-11.2892
遣官致祭	-11.2892
黄瓦	-11.2893
廊廟	-11.29
親蠶	-11.29
𢎞治十二年	-11.2906
宫殿門	-11.2906
宗正寺	-11.2907
年任右侍郎	-11.2907
排班	-11.291
兩廂	-11.2912
陪京	-11.2913
協律	-11.2914
律吕	-11.2922
奠酒	-11.2924
阿里	-11.2925
册寳	-11.2925
魏國公	-11.2933
大宗伯	-11.2935
乾隆三年	-11.294
永豐	-11.2945
幸甚	-11.2946
衢州	-11.2955
乾徳	-11.2957
十一年繇	-11.2962
莫敢	-11.2977
金飾	-11.2993
金繡	-11.2998
綿布	-11.3032
中士二人	-11.3047
昌隆	-11.3073
少保兼	-11.3089
正統四年	-11.313
知院事	-11.3135
曽祖	-11.3137
謹案隋	-11.3163
啇	-11.3173
陞本司郎中	-11.3173
府州縣學	-11.3174
者罪之	-11.3174
坫	-11.3175
孝𤣥孫嗣皇帝某	-11.3177
飄	-11.3178
繚	-11.3178
添註	-11.3179
旻	-11.3179
睿宗獻皇帝	-11.3179
丘濬	-11.3179
泌	-11.3179
酒盞	-11.318
京兆河南	-11.3181
薰	-11.3181
揭帖	-11.3181
罇	-11.3182
衘	-11.3182
登聞鼓	-11.3182
奴婢	-11.3183
峯	-11.3184
亥	-11.3184
六科給事中	-11.3184
襈	-11.3184
股	-11.3185
叠	-11.3185
撮	-11.3186
只不世襲	-11.3186
企	-11.3186
宣徽南院使	-11.3186
隨班行禮	-11.3186
驤	-11.3186
纉	-11.3187
倭	-11.3187
悃	-11.3187
花釵	-11.3187
虡	-11.3188
低	-11.3188
梯	-11.3188
囑	-11.3188
琢	-11.3188
端明殿學士簽書樞密院事	-11.319
至聖先師孔子	-11.319
將仕郎	-11.3191
鄴	-11.3191
闌	-11.3191
近年以來	-11.3192
韓世忠	-11.3192
貨賄	-11.3193
恭知政事	-11.3193
丁卯	-11.3193
苞	-11.3194
仲舒	-11.3194
夏原吉	-11.3194
晉書職官志	-11.3194
虢	-11.3194
奔走	-11.3194
燿	-11.3196
聮	-11.3196
傲	-11.3196
月初十日	-11.3197
牟	-11.3197
司爵官	-11.3197
伋	-11.3197
穆昆	-11.3198
珥	-11.3198
第八品	-11.3199
擅婚	-11.3199
懇辭	-11.32
千秋節	-11.32
秩千石	-11.32
劑	-11.32
周禮夏官	-11.3204
丸	-11.3206
侑食	-11.3207
竹木	-11.3207
封駮	-11.3208
𢎞治八年	-11.3208
承天門外	-11.3208
步軍統領	-11.3209
土官知府	-11.321
髙墻	-11.3212
戡	-11.3213
一前期二日	-11.3216
副總兵	-11.3217
張商英	-11.3217
二百八十	-11.3222
詣拜位	-11.3222
委曲	-11.3225
該本部尚書	-11.3225
孝惠	-11.3225
以侍讀充	-11.3226
郡太守	-11.3227
皇妣	-11.3228
昇平	-11.323
馬融	-11.3236
環衛	-11.3241
外戚	-11.3245
歴仕	-11.3248
東西序立	-11.325
誕敷	-11.3257
鹽鐡使	-11.326
被遇	-11.326
嘉靖十六年	-11.326
許衡	-11.3264
備顧問	-11.3275
郡邑	-11.3299
月初三日	-11.33
集賢殿	-11.3319
違禁	-11.332
福建晉江人	-11.3333
過犯	-11.3374
宫僚	-11.3405
司天監	-11.3407
樂止太常卿	-11.3409
土官知州	-11.3412
延祐元年	-11.3415
羊一隻	-11.3418
萬貫	-11.3419
陞禮部右侍郎	-11.3429
西廂	-11.344
樂作四拜樂止	-11.3449
罷樞宻使	-11.3458
十餘萬	-11.3467
西洋	-11.3479
洪武二十六年	-11.3483
嫡長子	-11.3492
桶	-11.3496
二百六十	-11.3506
亞獻豫和	-11.3509
襄陽	-11.3511
纂輯	-11.3511
奉慈殿	-11.3512
樂章迎神	-11.3513
豚	-11.3513
朝日壇	-11.3514
𢎞文館	-11.3514
甎	-11.3514
竿	-11.3515
祈穀	-11.3516
屛	-11.3516
鞠躬拜興拜興平身	-11.3517
駢	-11.3517
欽定四庫全書唐六典卷	-11.3517
珩	-11.3518
筆且齊	-11.3518
治書侍御史	-11.3518
絳朝服	-11.3519
緝熙	-11.3519
鳴鐘鼓	-11.352
臆	-11.352
倪岳	-11.352
大行皇帝	-11.3521
醋	-11.3521
拳	-11.3521
摧	-11.3521
埸	-11.3522
行五拜三叩頭禮	-11.3522
鳩	-11.3522
禮科都給事中	-11.3522
洩	-11.3523
奉朝請	-11.3523
犬	-11.3523
寒暑	-11.3524
峩	-11.3524
奔競	-11.3525
氏後裔	-11.3525
叩首	-11.3525
呼萬嵗	-11.3526
永樂大典	-11.3526
鏜	-11.3526
弓弩	-11.3526
霤	-11.3527
犧尊	-11.3528
龍圖閣學士	-11.3528
順天宛平人	-11.3528
胡儼	-11.3528
璿	-11.3528
雇	-11.3529
姬	-11.3529
灋	-11.3529
劣	-11.3529
蓬萊	-11.353
堰	-11.3531
阯	-11.3531
宫牆	-11.3531
佩綬	-11.3531
姊妹	-11.3532
袒	-11.3533
挽	-11.3533
瘠	-11.3533
疇咨	-11.3533
戸部侍郎	-11.3534
飲福位	-11.3534
夏竦	-11.3534
嘉靖三十年	-11.3534
錮	-11.3534
倬	-11.3535
吉凶	-11.3536
它	-11.3536
勸懲	-11.3537
孜	-11.3537
紙劄	-11.3537
秩二千石	-11.3537
訃聞	-11.3538
束帶	-11.3538
台吉	-11.3539
征討	-11.354
皂𨽻	-11.3544
几筵殿	-11.3544
加太子太保	-11.3544
配饗	-11.3545
洪範	-11.3546
宣徽使	-11.3548
租庸	-11.3548
機衡	-11.3551
覺羅	-11.3551
雍正五年	-11.3552
正統間	-11.3554
留邉	-11.3557
石刻	-11.3557
㸔得	-11.3561
鄭𤣥	-11.3563
訐奏	-11.3567
錢榖	-11.3567
進表箋	-11.3567
永樂八年	-11.3568
嵗貢生	-11.3568
除尚書右丞	-11.3568
各該衙門	-11.3569
丁度	-11.3571
教育	-11.3572
十兩重	-11.3573
四拜興平身樂止	-11.3576
程式	-11.3576
博士㕔	-11.3577
糾舉	-11.358
二千五百	-11.3581
寳鈔	-11.3581
廵河官	-11.3585
藩鎮	-11.359
御醫	-11.3593
筆帖式滿洲	-11.3616
尺一寸	-11.3621
擇吉	-11.3661
四拜樂止	-11.3719
二十二日	-11.3731
十四年任	-11.3731
紹聖元年	-11.3736
月二十五日	-11.3744
鑄印	-11.3759
閏二月	-11.3765
鴻臚卿	-11.3778
知貢舉	-11.3783
十六員	-11.3787
綂	-11.3839
元世祖	-11.3846
洪武九年	-11.3847
耒耜	-11.3847
杓	-11.3851
江西泰和人	-11.3851
遴	-11.3852
樂暫止	-11.3852
隲	-11.3856
曜	-11.3856
扎瑪里鼎	-11.3857
彥博	-11.3858
煒	-11.3858
程敏政	-11.3858
盾	-11.3859
襟	-11.3859
䂓	-11.386
榛	-11.3861
仝	-11.3861
紗中單	-11.3861
鎮江府	-11.3862
恁	-11.3863
隷	-11.3863
糊	-11.3863
奉武宗皇帝聖㫖	-11.3863
世祖章皇帝	-11.3864
繖	-11.3864
璲	-11.3864
燧	-11.3864
掌詹事府事	-11.3865
祕閣校理	-11.3865
俺	-11.3865
合行事宜	-11.3866
懦	-11.3866
辛卯	-11.3866
扛	-11.3866
帛一段	-11.3866
構	-11.3866
峪	-11.3866
詞林典故	-11.3867
杞	-11.3867
逆瑾	-11.3868
姿	-11.3869
伎	-11.3869
儐	-11.3869
訾	-11.3869
檢校太傅	-11.3869
招討使	-11.387
錢習禮	-11.387
福建閩縣人	-11.387
引班引	-11.387
艘	-11.387
航	-11.387
啟聖祠	-11.3871
葅	-11.3871
殤	-11.3871
迂	-11.3871
汙	-11.3871
舖	-11.3872
牲牢	-11.3873
釋褐	-11.3873
衆官皆跪	-11.3874
煎	-11.3874
太平御覽	-11.3874
大昕	-11.3875
衣一襲	-11.3875
光祿卿	-11.3876
讀卷官	-11.3876
整飭	-11.3876
譬	-11.3876
債	-11.3876
劵	-11.3877
品第七	-11.3877
孽	-11.3877
天地宗廟社稷	-11.3877
冡	-11.3878
芸	-11.3878
劉定之	-11.3879
舞蹈	-11.3879
額森	-11.388
澈	-11.388
由左門入	-11.3881
候命下	-11.3881
讀祝訖	-11.3881
周禮天官	-11.3882
楊億	-11.3882
僧尼	-11.3883
規矩	-11.3883
晰	-11.3884
山西陜西	-11.3884
上駟院	-11.3886
移駐	-11.3886
羨	-11.3887
宣慰使司	-11.3888
䕶軍統領	-11.3888
謹案五季	-11.3888
孔安國傳	-11.3889
整肅	-11.3891
耶律	-11.3893
左右監門	-11.3895
巴延	-11.3895
是年七月	-11.3895
捧神主	-11.3898
揆路	-11.3898
齋宿	-11.3901
不悛	-11.3903
繁簡	-11.3903
于午門外	-11.3905
嵗支禄米	-11.3906
正統十四年	-11.3906
迎駕	-11.3906
庶績	-11.3907
隆慶初	-11.3909
唐六典卷	-11.3914
壬子	-11.3914
兼樞密使	-11.3914
内外命婦	-11.3917
未㡬	-11.3918
源流	-11.3919
呈堂上官	-11.392
吏部篇	-11.3921
齊衰	-11.3924
草木	-11.3932
宣徳八年	-11.3944
吉林	-11.3955
是年五月	-11.3982
八寸	-11.3988
葢如今	-11.4015
聖裔	-11.4039
嘉靖三十一年	-11.4062
給誥命	-11.4067
祭先農	-11.4072
奬諭	-11.4089
武徳初	-11.4114
釋奠先師	-11.4134
沿襲	-11.4174
肖	-11.4189
前期十日本寺題	-11.42
翹	-11.4208
珊瑚	-11.421
蟒	-11.4211
司賓引	-11.4211
内贊奏陞壇導上	-11.4211
拖	-11.4211
璇	-11.4214
狗	-11.4215
捧祝帛饌	-11.4215
旺	-11.4215
陂	-11.4216
圻	-11.4216
讀祝讀訖	-11.4216
團練	-11.4216
酒盞三十	-11.4216
悚	-11.4218
布一疋	-11.4219
洙泗	-11.422
碉	-11.4222
沼	-11.4222
輔導等官	-11.4222
太宗文皇帝	-11.4222
在相位	-11.4222
稜	-11.4223
知陳州	-11.4223
駐蹕	-11.4224
見郎中下	-11.4224
涓	-11.4225
熺	-11.4225
圈	-11.4225
麓	-11.4225
臬	-11.4226
讜	-11.4226
庀	-11.4226
騷擾	-11.4226
遙	-11.4226
鍳	-11.4226
丗	-11.4227
皓	-11.4227
續文獻通考	-11.4228
豹尾	-11.4228
憶	-11.4228
悍	-11.4228
怙	-11.4229
愽	-11.4229
鬢	-11.4229
誡	-11.4229
騙	-11.4229
范祖禹	-11.423
劒	-11.423
河南洛陽	-11.4231
提調學校	-11.4231
陳廷敬	-11.4231
牡	-11.4231
冒濫	-11.4232
咨送吏部	-11.4232
紫宸	-11.4233
比千石	-11.4233
雍熈	-11.4233
訕	-11.4233
奸弊	-11.4233
黷	-11.4233
懸帶	-11.4234
嚢	-11.4234
戊戍	-11.4234
宣徳十年	-11.4234
檢校太師	-11.4235
殘疾	-11.4235
褾襈裾	-11.4235
撻	-11.4236
迷	-11.4237
慘	-11.4239
先期一日	-11.4239
氐	-11.4239
石渠	-11.424
闗内侯	-11.424
羗	-11.424
吝	-11.424
盒	-11.4241
啻	-11.4241
攜	-11.4242
發運使	-11.4242
吳澄	-11.4242
雲南貴州	-11.4242
焚香	-11.4244
正統十年	-11.4244
跪叩	-11.4245
教國子	-11.4245
清漢文	-11.4246
嚴嵩	-11.4246
江浙	-11.4246
採訪	-11.4248
住持	-11.4248
太僕寺卿	-11.4248
姑息	-11.425
理事官	-11.4251
太祖太宗	-11.4252
右諫議大夫除	-11.4252
歩兵	-11.4253
犂	-11.4253
禮部議覆	-11.4255
一百九十	-11.4255
陪敦	-11.4257
内三院	-11.4257
撥厯	-11.4257
輪流	-11.4259
永樂三年定	-11.4262
丕圖	-11.4263
考核	-11.4264
府二人史二人	-11.4267
䕶喪	-11.4271
尺八寸	-11.4279
隋煬帝	-11.4295
尺一四合	-11.4296
滁州	-11.4296
東華門	-11.4311
廂房	-11.433
指揮僉事	-11.4335
百戸	-11.435
復位樂止	-11.4362
經筵日講	-11.4401
任祠祭司	-11.4405
敢忘	-11.4411
斤栗子	-11.4429
宣徳三年	-11.4437
位於丹墀	-11.4478
隆慶四年	-11.451
弋	-11.4511
合尺一合	-11.4512
内贊奏就位	-11.4523
月三十日	-11.456
幸太學	-11.4563
靴韈各一雙	-11.4565
福建莆田人	-11.4569
十枝胡桃	-11.4572
鏗	-11.4575
斤荔枝圓眼各	-11.4576
巢	-11.458
犢一羊一豕一	-11.4581
奉議大夫	-11.4581
江西安福人	-11.4582
棗栗	-11.4583
點檢	-11.4583
瓷	-11.4583
觶	-11.4585
渤海	-11.4585
湜	-11.4585
暹	-11.4585
楨	-11.4586
㢤	-11.4586
灰	-11.4586
洶	-11.4587
電	-11.4588
譲	-11.4588
兀	-11.4588
瑩	-11.4588
糯	-11.4589
沽	-11.4589
丞掌判	-11.459
鷺	-11.459
不列於表	-11.459
翥	-11.4591
耤	-11.4591
耻	-11.4591
絨	-11.4592
正白旗	-11.4592
媒	-11.4592
浙江秀水人	-11.4592
詒	-11.4593
驛驛丞	-11.4594
元貞元年	-11.4594
燔	-11.4594
烽	-11.4595
捜	-11.4595
王圻續文獻通考	-11.4595
蔽膝隨裳色	-11.4595
磨勘司	-11.4595
麓川	-11.4595
八品九品	-11.4595
腦	-11.4596
搏	-11.4596
吏司郎中滿洲漢人各一人員外郎滿洲	-11.4596
盝	-11.4596
憲宗純皇帝	-11.4597
砌	-11.4597
飽	-11.4597
知亳州	-11.4597
濱	-11.4597
採桑	-11.4597
扆	-11.4598
所在官司	-11.4598
左司諫	-11.4598
寗	-11.4599
六品七品	-11.4599
自漢以來	-11.4601
提控案牘	-11.4601
簨	-11.4602
三輔黄圖	-11.4602
府四人史八人	-11.4602
至大元年	-11.4603
據此則	-11.4603
筋	-11.4604
藩邸	-11.4605
阿桂	-11.4605
菜四色	-11.4605
舂	-11.4605
都督同知	-11.4605
繕寫	-11.4606
觸	-11.4606
丕基	-11.4606
賈公彦疏	-11.4607
隋煬帝置	-11.4608
直祕閣	-11.4608
輟朝一日	-11.4609
招撫	-11.4609
疾苦	-11.4611
贊善大夫	-11.4612
皇地祇	-11.4613
搭	-11.4614
成化十八年	-11.4614
鳬	-11.4615
𢎞治十一年	-11.4616
逓減	-11.4616
巡狩	-11.4617
迤北	-11.4617
西門入	-11.4618
東西廡	-11.4619
知經筵事	-11.462
隴右	-11.4629
嗇	-11.4631
掾屬	-11.4639
宣徳四年	-11.4643
跪搢笏	-11.4656
别為一	-11.4659
陳因之後魏	-11.4663
將作監	-11.4671
弋陽	-11.4671
一員正八品	-11.4676
肄業諸生	-11.4694
月罷執政踰	-11.4707
進士嘉靖十	-11.4722
封禪	-11.4764
罷在樞府凡	-11.4791
一尺六尺	-11.4821
年繇主客司	-11.4863
拔貢	-11.4888
齎捧	-11.4888
𢎞治六年	-11.4939
嘉靖三十五年	-11.4955
歳暮	-11.4956
复	-11.4957
包香帛黄咨紙	-11.4959
遣内官行禮	-11.4961
二十七日而除	-11.4964
稼穡	-11.4965
榛仁	-11.4966
幃	-11.4966
扁	-11.4967
慈孝獻皇后	-11.4967
祝版一片	-11.4967
髻	-11.4968
内賛導上	-11.4969
三司㑹奏	-11.4969
薛居正	-11.4969
虹	-11.4969
兼翰林院侍讀	-11.497
芮	-11.497
浙江平湖	-11.4971
煦	-11.4972
監試官	-11.4972
棲	-11.4972
暖	-11.4973
敔	-11.4974
妥	-11.4974
愿	-11.4975
壹	-11.4975
香爐	-11.4975
朝散大夫	-11.4975
愁	-11.4976
守禦千户所	-11.4976
崇政殿	-11.4976
檀	-11.4977
怡	-11.4977
字籍見員外下	-11.4977
枯	-11.4978
柯潛	-11.4978
皇天上帝	-11.4978
元豐官制行	-11.4978
筦	-11.4978
宵旰	-11.4978
翺	-11.4979
輔國中尉	-11.4979
咸亨元年復舊	-11.4979
塋	-11.498
曙	-11.498
哷	-11.498
縠	-11.498
勾檢稽失	-11.498
夕月壇	-11.4981
逝	-11.4981
緝熈	-11.4981
沙木斯鼎	-11.4981
淄	-11.4981
𣣔	-11.4981
欝	-11.4981
禮部尚書夏言	-11.4981
璫	-11.4981
春秋左氏傳	-11.4982
馮拯	-11.4982
裒	-11.4983
郎中一人員外郎一人主事	-11.4983
仲尼	-11.4984
巽	-11.4984
瑀	-11.4984
調儀制司	-11.4985
城隍之神	-11.4985
柰	-11.4985
鈔二十錠	-11.4985
衾	-11.4985
架閣庫	-11.4985
垂簾	-11.4985
搢紳	-11.4985
河隄謁者	-11.4986
尚書蹇義	-11.4986
糶	-11.4986
世宗肅皇帝	-11.4987
墮	-11.4987
和羮	-11.4988
呂大防	-11.4988
熾	-11.4988
蔓	-11.4988
入監讀書	-11.4989
丞各二人	-11.4989
凰	-11.4989
宣奉大夫	-11.499
成化二十年	-11.499
逈	-11.4991
豁	-11.4991
李邦彦	-11.4991
憸	-11.4992
沈與求	-11.4992
中散大夫	-11.4992
卒年七十	-11.4993
銀青光禄大夫	-11.4993
葦	-11.4993
延祐七年	-11.4994
韓縝	-11.4994
譁	-11.4995
大業三年	-11.4995
靈臺郎	-11.4996
懲戒	-11.4996
昌黎	-11.4997
申棖	-11.4997
金紫光禄大夫	-11.4997
回紇	-11.4999
陳瓘	-11.4999
察哈爾	-11.5
正統九年	-11.5005
税課	-11.5008
拆毁	-11.5013
妣慈孝貞順仁敬誠一安天誕聖獻皇后	-11.5016
尺七寸	-11.5018
鮮卑	-11.502
御馬監	-11.5022
妃張氏	-11.5031
䘏典	-11.5059
隆慶五年	-11.5072
奉聖㫖這	-11.5076
本寺題	-11.5084
誥勑	-11.5099
浙江山隂人	-11.5134
受賞官	-11.5151
清吏司郎中滿洲	-11.5161
月二十二日	-11.5225
粳米	-11.5249
日加知制誥	-11.5256
魏文帝	-11.5301
洪熙	-11.5306
等因奉聖㫖是欽此	-11.5331
祝版本紙二張包版黄白榜紙各一張	-11.5354
搜檢	-11.5357
綵段四表裏	-11.5358
筯	-11.536
年繇儀制司主事陞任	-11.5365
耒	-11.5367
繖扇	-11.5368
掲帖知㑹司禮監	-11.5368
人掌固六人	-11.5369
沖	-11.5369
禮畢請還宫	-11.537
鳳翔	-11.5371
尚寶司	-11.5372
褘衣	-11.5372
瘴	-11.5372
麽	-11.5373
粒	-11.5373
秒	-11.5374
崑	-11.5374
炬	-11.5374
雱	-11.5374
戩	-11.5374
栱	-11.5374
庥	-11.5375
皇長孫	-11.5375
者麽道	-11.5376
鄭氏云	-11.5376
轡	-11.5376
鉛	-11.5376
廻	-11.5377
㨂	-11.5377
埒	-11.5377
奉都堂鈞㫖	-11.5377
欺罔	-11.5378
胡三省注	-11.5378
凍	-11.5378
肝	-11.5378
瘡	-11.5379
西平侯	-11.5379
蓆	-11.5379
即位之初	-11.5379
該本部看得	-11.5379
郴	-11.538
鎔	-11.538
胡瑗	-11.538
陳承梁	-11.538
頊	-11.538
趍	-11.538
冷	-11.5381
珍羞	-11.5381
厮	-11.5382
五府六部	-11.5382
祼	-11.5382
甌	-11.5383
晳	-11.5383
脅	-11.5383
知紹興府	-11.5384
腴	-11.5384
江南桐城人	-11.5384
湯思退	-11.5385
欄	-11.5385
豊	-11.5385
卭	-11.5386
謝鐸	-11.5386
翎	-11.5386
縷	-11.5386
冐濫	-11.5386
妓	-11.5387
餽	-11.5387
千牛備身	-11.5388
正徳十六年	-11.5389
殖	-11.5389
盡瘁	-11.539
列聖相承	-11.539
赴行在	-11.539
國子助教	-11.539
擠	-11.539
寰宇	-11.5391
壯猷	-11.5391
皿字號	-11.5392
大徳九年	-11.5393
嫌疑	-11.5393
蒙古語	-11.5393
碩輔	-11.5394
縀	-11.5394
禹錫	-11.5394
緞	-11.5394
成化十七年	-11.5395
驛遞	-11.5396
康熙三十八年省	-11.5396
不自安	-11.5397
賻	-11.5397
可考見	-11.54
綦	-11.5401
秘書少監	-11.5401
四品五品	-11.5403
穗	-11.5404
擯	-11.5406
李光地	-11.541
正統八年	-11.5417
一丈二尺	-11.5423
本標中左右三營分防	-11.5431
以副朕	-11.5434
太常卿跪奏	-11.5438
内侍官捧	-11.5544
洪武三十年	-11.5565
月二十一日	-11.5614
不守法度時換了欽此	-11.564
横吹	-11.5769
芹菜	-11.5773
麒	-11.5774
文徳之舞	-11.5779
點	-11.578
藪	-11.5781
澶	-11.5782
斟	-11.5782
嗣天子臣	-11.5782
行奉慰禮	-11.5782
憩	-11.5783
肘	-11.5783
博士捧祝版	-11.5784
沅	-11.5785
眇	-11.5785
之事丞為之貳凡	-11.5786
剡	-11.5786
仁祖淳皇帝	-11.5787
箸	-11.5787
寤	-11.5788
灝	-11.5788
太僕寺少卿	-11.5788
型	-11.5789
嘉議大夫	-11.5789
率更令	-11.579
芾	-11.579
文林郎	-11.5791
後周通典後周	-11.5791
苾	-11.5791
陞主客司員外郎	-11.5792
河隄	-11.5792
卹	-11.5792
崇儒重道	-11.5792
一統志	-11.5792
儀同初獻	-11.5793
繒	-11.5794
北魏魏書官氏志	-11.5794
塩	-11.5794
御西角門	-11.5794
中郎将	-11.5794
粘	-11.5794
孜孜	-11.5794
㓕	-11.5795
褶	-11.5795
孫抃	-11.5795
平巾幘	-11.5795
辛夘	-11.5795
飢	-11.5796
丁夘	-11.5796
擎執	-11.5796
李善長	-11.5797
耿南仲	-11.5797
提控	-11.5797
羅衣一套	-11.5797
太祖高皇帝	-11.5797
栻	-11.5798
鈔五十錠	-11.5798
行五拜三叩頭禮畢	-11.5798
爕	-11.5798
知諫院	-11.5798
蹙	-11.5798
銀青光祿大夫	-11.5798
拜位之北	-11.5798
摶	-11.5798
瀘	-11.5799
匝	-11.5799
渴	-11.5799
饔	-11.5799
五拜三叩頭	-11.5799
悌	-11.5799
彛倫	-11.5799
柘	-11.5799
侔	-11.5799
司經局洗馬	-11.5799
畆	-11.58
盤盞	-11.5801
江南無錫	-11.5801
導引官導皇帝	-11.5801
陞本司員外郎	-11.5801
緦麻	-11.5802
棫	-11.5802
翬	-11.5802
㫤	-11.5802
鵞	-11.5803
治以重罪	-11.5803
們	-11.5803
珂	-11.5804
土地祠	-11.5804
梗	-11.5804
緘	-11.5804
鶚	-11.5805
怯	-11.5805
糜	-11.5805
䕶軍㕘領	-11.5805
圓明園	-11.5806
在室者	-11.5806
莫先於	-11.5806
行慶賀禮	-11.5806
綘	-11.5806
閨	-11.5806
詹事府詹事	-11.5807
陳元龍	-11.5807
拙	-11.5807
廣東廣西	-11.5807
幞頭	-11.5807
月初四日	-11.5808
托克托	-11.5808
上覽之	-11.5808
丹陽尹	-11.5809
如淳曰	-11.5809
領侍衛内大臣	-11.5809
宄	-11.581
襄垣王	-11.581
縻	-11.5811
彌縫	-11.5812
曾公亮	-11.5812
弑	-11.5813
稟	-11.5814
亘	-11.5814
鎖院	-11.5816
至大三年	-11.5817
犒	-11.5818
京城内外	-11.5819
鄭康成註	-11.5821
設官分職	-11.5821
翣	-11.5826
有定額	-11.5828
萬斯年	-11.5832
鈔錠	-11.5834
寅亮	-11.5843
銀十兩	-11.5865
佾舞	-11.5867
萬五千	-11.5927
贈太子太保	-11.5946
唐㑹要	-11.5988
壇壝	-11.607
丈八尺	-11.6131
前期二日	-11.6167
麫	-11.6206
轝	-11.6213
鵲	-11.6216
敢昭告于	-11.6216
伏羲	-11.6217
見行事例	-11.6217
䏻	-11.6218
褐	-11.6218
内贊奏四拜	-11.6219
翀	-11.6219
大學士劉健	-11.6219
拱衛司	-11.622
綯	-11.6221
喉	-11.6222
陀	-11.6222
平章軍國事	-11.6222
儘	-11.6223
一執事樂舞生	-11.6223
元史百官志	-11.6223
垍	-11.6223
卺	-11.6224
椅	-11.6224
湮	-11.6224
央	-11.6224
扉	-11.6224
圏	-11.6225
樁	-11.6225
捍	-11.6225
端明殿	-11.6225
净	-11.6226
伏望皇上	-11.6226
单	-11.6226
焦芳	-11.6226
佗	-11.6227
夤縁	-11.6227
苴	-11.6227
浙江餘姚縣人	-11.6227
邠	-11.6228
歐	-11.6228
年繇主客司主事陞任	-11.6228
俠	-11.6228
頡	-11.6228
左正言	-11.6229
粧	-11.6229
麵	-11.6229
玘	-11.6229
燬	-11.623
明賛唱曰	-11.623
峙	-11.623
耄	-11.6231
盧多遜	-11.6231
謐	-11.6231
黝	-11.6232
鰲	-11.6232
上士正二命	-11.6232
禳	-11.6232
台浤	-11.6233
窰	-11.6233
公侯伯子男	-11.6233
僑	-11.6233
轂	-11.6234
四夷朝貢	-11.6234
閬	-11.6234
湛露	-11.6235
鈍	-11.6235
鍚爵	-11.6235
滿洲正黄旗人	-11.6235
展書官	-11.6236
肄業期滿	-11.6236
黻	-11.6237
亹	-11.6237
巖廊	-11.6237
廣儲司	-11.6239
阼階	-11.6239
啓沃	-11.6239
櫺星門	-11.624
禮部尚書吕震	-11.6241
液	-11.6241
肄習	-11.6241
絞	-11.6241
滿洲䝉古漢軍	-11.6241
緇	-11.6242
鄭樵通志	-11.6242
袞	-11.6243
楊一清	-11.6243
􁱈	-11.6244
戈盾	-11.6246
膏火	-11.6246
詹事府少詹事	-11.6247
簽書樞	-11.6248
孟庾	-11.6248
孔頴達	-11.6248
絲綸	-11.6252
對引官	-11.6252
漢舊儀	-11.6252
洊	-11.6253
𤣥纁	-11.6258
填寫	-11.6259
司封郎中	-11.6259
文華門	-11.6295
覆奉欽依	-11.6308
導駕官導上	-11.6319
奏出圭奏復位	-11.6327
祠祭司郎中	-11.6373
進士嘉靖三	-11.6385
國朝雍正	-11.6395
任調吏部	-11.6463
菁菜	-11.666
禮神制帛	-11.6662
徹饌雍和	-11.6662
尚寳卿	-11.6663
二人正七品掌	-11.6666
以承事郎上	-11.6667
甃	-11.6668
贅	-11.6668
分六釐	-11.6669
繇殿東門	-11.6671
二人正六品典	-11.6672
下第舉人	-11.6672
卓一張	-11.6673
絳紗袍	-11.6673
嵐	-11.6674
張元禎	-11.6674
箎	-11.6675
王堯臣	-11.6675
汀	-11.6675
栽	-11.6677
茫	-11.6677
涂	-11.6677
朝列大夫	-11.6678
霧	-11.6678
讀講學士	-11.6679
咸亨元年復故	-11.6679
禡	-11.668
赴京朝覲	-11.668
襲封衍聖公	-11.6681
嫓	-11.6681
州團練副使	-11.6681
吕蒙正	-11.6682
跨	-11.6682
鉄	-11.6682
稹	-11.6682
詣盥洗所	-11.6682
謡	-11.6682
上謂禮部臣曰	-11.6682
踐阼	-11.6683
馳驛	-11.6683
卽	-11.6683
誾	-11.6683
瑕	-11.6684
巍	-11.6684
爪	-11.6684
僱	-11.6685
桷	-11.6685
警蹕	-11.6685
朶甘	-11.6685
締	-11.6685
梨	-11.6685
三館祕閣	-11.6685
周禮春官	-11.6686
濃	-11.6686
内賛奏四拜	-11.6686
贑	-11.6686
軺	-11.6686
兔醢	-11.6686
盔	-11.6687
烏紗帽	-11.6687
亞聖孟子	-11.6687
赦宥	-11.6687
知青州	-11.6687
辨其名物	-11.6688
鬚	-11.6688
婢	-11.6688
滂	-11.6688
籲	-11.6689
六品至九品	-11.6689
㐫	-11.669
頽	-11.6691
媚	-11.6691
賈昌朝	-11.6692
洒掃	-11.6692
詐偽	-11.6692
鼇	-11.6692
續翰林志	-11.6692
司馬光資治通鑑	-11.6692
餐	-11.6693
畬	-11.6693
壼	-11.6693
瑑	-11.6694
陸費墀	-11.6694
丙戍	-11.6694
扃	-11.6694
請名請封	-11.6694
坑	-11.6695
堯俞	-11.6695
漢書百官表	-11.6695
眩	-11.6695
啟沃	-11.6696
廱	-11.6696
剔	-11.6697
憎	-11.6697
滎	-11.6698
嘉靖三十八年	-11.6698
光宅元年改為	-11.6699
屡	-11.67
帕	-11.6701
杏	-11.6701
溉	-11.6703
殄	-11.6703
三國吳志	-11.6703
瀝	-11.6704
彝倫堂	-11.6704
􁲵	-11.6707
涿	-11.6709
茶飯管待	-11.672
侍中中書令	-11.6734
工尺合四合	-11.6761
四拜平身	-11.6839
宗皇帝實録	-11.6841
工六工尺	-11.6921
復位樂止典儀	-11.6934
人壬辰進士萬厯	-11.6947
倉曹參軍事	-11.7023
庫大使	-11.703
滁	-11.7069
戯	-11.7117
㓗	-11.7132
儤	-11.7141
碗	-11.7143
努	-11.7145
千百戸	-11.7146
七品明伯克一人	-11.7146
驂	-11.7146
慧	-11.7149
种	-11.7149
宋大中祥符二年加	-11.715
資政殿學	-11.7151
行勘未報	-11.7151
顛	-11.7154
殃	-11.7154
隕	-11.7154
傅瀚	-11.7154
晶	-11.7154
濵	-11.7154
儷	-11.7155
幰	-11.7155
柷	-11.7155
羮牆	-11.7155
虞允文	-11.7156
鵷	-11.7156
䟦	-11.7156
驪	-11.7156
中順大夫	-11.7156
市舶	-11.7156
宣徽北院使	-11.7157
譎	-11.7157
漂	-11.7157
英宗睿皇帝	-11.7157
恠	-11.7157
黯	-11.7158
禁屠宰	-11.7158
直長正八品	-11.7158
弹	-11.7158
肺	-11.7158
洪武十五年歸附十六年	-11.7158
煜	-11.7158
聖主臨雍禮成	-11.7159
冨	-11.7159
鴛	-11.7159
案香燭果品等物	-11.7159
祜	-11.716
蓍龜	-11.716
瓌	-11.716
掇	-11.716
呵怎生	-11.716
在天之靈	-11.7161
乙卯	-11.7161
砂	-11.7161
𤨏	-11.7161
江南常熟	-11.7161
炫	-11.7161
素服烏紗帽黑角帶	-11.7162
匾	-11.7163
呂頤浩	-11.7163
膽	-11.7163
大小臣工	-11.7163
盪	-11.7163
珤	-11.7164
尚書李至剛	-11.7164
緝事衙門	-11.7164
焜	-11.7165
墾	-11.7165
蟄	-11.7165
衛喇特	-11.7165
巍巍	-11.7165
𤓰哇	-11.7166
紱	-11.7166
醴泉	-11.7166
麤	-11.7166
諍	-11.7166
麟趾	-11.7166
𨗳	-11.7166
殯	-11.7167
雝	-11.7167
至順二年	-11.7167
咨都察院轉行	-11.7167
金紫光祿大夫	-11.7167
黑角帶	-11.7168
奉禮郎	-11.7168
武帝太初元年	-11.7168
率性堂	-11.7168
冢宰	-11.7169
塌	-11.7169
范宗尹	-11.7172
廪餼	-11.7172
紀昀	-11.7172
陸錫熊	-11.7173
尙	-11.7173
釘	-11.7173
骨肉	-11.7174
不饒欽此	-11.7174
皋	-11.7174
稀	-11.7174
侍衛親軍	-11.7174
湧	-11.7175
乞勅該部	-11.7175
靈丘王	-11.7175
􁆚	-11.7175
虎鎗	-11.7175
斷事官	-11.7176
喫	-11.7176
三署郎	-11.7176
尚乗局	-11.7178
邢恕	-11.7178
菼	-11.7179
鄯	-11.718
璪	-11.718
挿	-11.718
歉	-11.7184
董仲舒	-11.7184
齊因之梁	-11.7193
箠	-11.7197
吐谷渾	-11.7211
絹袋	-11.7233
至大二年	-11.7237
年繇精膳	-11.7366
是年八月罷	-11.7391
奏復位上復位	-11.7472
至正二十	-11.7536
奉禮部某字幾號勘合	-11.7621
曹參軍事一人府一人史二人	-11.763
二尺五寸	-11.7631
金史百官志	-11.7633
直𨽻華亭人	-11.7635
門其内曰	-11.7635
中元冬至	-11.7638
毎斤五百文	-11.764
纍	-11.7642
進士天啓	-11.7642
葦把	-11.7643
縑	-11.7645
裱禙	-11.7645
卓二張	-11.7647
典儀唱執事官各司其事	-11.7647
郎中一人從五品上	-11.7647
陞精膳司郎中	-11.7648
降自西階	-11.7648
讒	-11.7649
亊	-11.7649
陞主客司郎中	-11.765
籩豆各十簠簋各二	-11.765
从	-11.7651
己夘	-11.7652
本寺卿同光禄寺卿	-11.7653
頋	-11.7653
庻吉士	-11.7653
汎	-11.7654
皇初祖	-11.7654
款	-11.7654
𫝊賛百	-11.7654
糗	-11.7654
嚴加禁約	-11.7654
鬷	-11.7655
讃	-11.7655
後周依周	-11.7655
愕	-11.7655
餓	-11.7655
譯字官	-11.7656
岩	-11.7656
寐	-11.7657
右僕射兼中書侍郎	-11.7657
假令問	-11.7658
中任終	-11.7658
茗	-11.7658
崧	-11.7659
樵	-11.7659
𥙷	-11.7659
𢡟	-11.7659
哨	-11.7659
睹	-11.766
三氏子孫	-11.766
騾	-11.766
浙江烏程人	-11.766
窺伺	-11.766
騏驥	-11.766
伊犁	-11.7661
夤緣	-11.7661
謝恩見辭	-11.7661
鐲	-11.7661
櫛	-11.7661
狎	-11.7661
復聖顔子	-11.7662
登仕郎	-11.7662
傚	-11.7662
彬彬	-11.7663
鳥鎗	-11.7663
禮部尚書崔亮	-11.7663
胞	-11.7663
島	-11.7663
郡縣主君	-11.7664
緊	-11.7664
儕	-11.7664
人掌固八人	-11.7664
桀	-11.7664
壑	-11.7665
箕	-11.7665
豬	-11.7665
診	-11.7666
猝	-11.7666
集書省	-11.7666
冥	-11.7666
凡大祭祀	-11.7666
竅	-11.7666
稚	-11.7666
豎	-11.7667
峽	-11.7667
騫	-11.7667
踏	-11.7668
行釋菜禮	-11.7668
柳	-11.7668
送發髙墻	-11.7668
黌	-11.7668
宷	-11.7669
鎡	-11.7669
萼	-11.7669
裨	-11.7669
躁	-11.7669
堵	-11.7669
浙江歸安人	-11.7669
祖考妣	-11.7669
橐	-11.7669
湟	-11.7669
遼史百官志	-11.767
拍	-11.767
土魯番	-11.767
徠	-11.767
斵	-11.7671
授主婚者主婚者受	-11.7671
敬一亭	-11.7671
黒角帶	-11.7671
挹	-11.7672
掞	-11.7673
經史子集	-11.7674
厯代建置三代	-11.7675
荃	-11.7675
檻	-11.7676
黠	-11.7676
健鋭營	-11.7676
滴	-11.7676
出笏俯伏興	-11.7679
伏乞勅下	-11.7679
覊	-11.768
瓉	-11.7682
夥	-11.7684
煉	-11.7686
右通政	-11.7689
厯代建置謹案	-11.7695
以掌院學	-11.7804
年任左侍郎	-11.7818
鞠躬四拜興平身	-11.8085
鐙	-11.8149
笳	-11.8151
尚藥局	-11.8165
奉訓大夫	-11.8165
餚	-11.8167
竪	-11.8168
速香一斤	-11.8171
厠	-11.8171
縵	-11.8171
以承務郎上	-11.8171
宇宙	-11.8172
觀文殿	-11.8174
趨蹌	-11.8174
尚享一樂章迎神	-11.8175
蕎	-11.8175
慈懿皇太后	-11.8176
幸其第	-11.8178
切皆曰	-11.8179
玉清昭應	-11.8179
絀	-11.8179
鎛鐘	-11.818
窩	-11.818
鹽運司	-11.818
豳	-11.818
内贊對引官導上至	-11.818
瘍	-11.818
吁	-11.818
蝕	-11.8181
粥	-11.8181
莱	-11.8181
擎	-11.8182
上具常服	-11.8182
賈黄中	-11.8182
濳	-11.8183
薪炭	-11.8183
成祖文皇帝	-11.8183
敖	-11.8183
酤	-11.8184
吏禮二部	-11.8184
徐元夢	-11.8184
莞	-11.8184
金幼孜	-11.8184
玳	-11.8185
都部署司	-11.8186
羔	-11.8186
魏書官氏志	-11.8187
墊	-11.8187
腐	-11.8187
乞要比照	-11.8187
樂作四拜平身樂止	-11.8187
褙	-11.8187
琴瑟	-11.8187
棒	-11.8187
行三獻禮	-11.8188
聖武神功純仁至孝文皇帝	-11.8188
鞶	-11.8189
中士正一命	-11.8189
陕	-11.8189
挫	-11.8189
皇明祖訓	-11.8189
捲簾	-11.819
具禮服	-11.819
熏	-11.819
山川等神	-11.819
脊	-11.819
欽定四庫全書翰林記卷	-11.819
知洪州	-11.819
痊	-11.819
唾	-11.8191
而有是命	-11.8191
撿	-11.8191
軟	-11.8191
聆	-11.8191
述聖子思子	-11.8191
鬭	-11.8192
鯨	-11.8192
黼黻	-11.8193
徂	-11.8194
猜	-11.8194
屹	-11.8194
有學行者	-11.8195
王應麟	-11.8195
鹵	-11.8195
搶	-11.8195
幟	-11.8195
奉中書省劄付	-11.8195
驀	-11.8195
滿洲鑲藍旗人	-11.8196
洞霄宫	-11.8196
侍即充	-11.8197
咫	-11.8197
剰	-11.8197
頫	-11.8197
欽定四庫全書欽定歴代職官表卷	-11.8197
侄	-11.8197
廹	-11.8197
秩從五品掌	-11.8198
天壽山	-11.8198
窟	-11.8199
賙	-11.8199
崈	-11.8199
昪	-11.8199
用紅緑羅銷金束子	-11.8199
總纂官	-11.82
冊東寳西	-11.82
朝請大夫	-11.82
梟	-11.82
磐	-11.8201
上嘉納之	-11.8201
中葉以後	-11.8204
揣	-11.8204
擺	-11.8204
殽	-11.8204
太上皇帝	-11.8205
狠	-11.8206
稠	-11.8206
札薩克	-11.8207
恩㧞副	-11.8207
告治朝	-11.8208
合回避	-11.821
三國三國蜀志	-11.8212
傔	-11.8214
行兩拜禮	-11.8217
諭輔臣曰	-11.8223
羸	-11.8226
㑹官議	-11.8253
良家子	-11.8261
正陽門	-11.8354
不做世襲若不守法度時換了	-11.8378
煬	-11.8617
人徒二十人掌	-11.8672
一四工合	-11.8694
鉤盾	-11.8707
葆	-11.8708
簴	-11.871
清紀郎	-11.871
作邑自箴卷第	-11.8713
客省使	-11.8715
擕	-11.8718
菱	-11.872
璞	-11.8723
白色禮神制帛	-11.8724
鹿一隻兔	-11.8724
訖樂復作奏俯伏興平身	-11.8724
樂作禮畢樂止	-11.8725
年繇南京吏部	-11.8726
承直郎	-11.8728
蹌	-11.8728
覘	-11.8728
清明霜降	-11.8728
二丈五尺	-11.8728
墉	-11.8728
員外郎一人從六品上	-11.8729
麴	-11.8729
嵇	-11.873
郅	-11.873
醯	-11.873
詁	-11.873
禮部尚書陶凱	-11.8732
樂暫止奏跪	-11.8732
行亞獻禮行終獻禮	-11.8732
讀祝官捧祝進帛官捧帛各詣燎位	-11.8733
舶	-11.8734
覇	-11.8734
邴	-11.8734
不守法度	-11.8734
陸宗楷	-11.8734
匀	-11.8734
天啓四年任	-11.8735
進奏院	-11.8735
餞	-11.8736
慷慨	-11.8736
㽞	-11.8736
幙	-11.8736
珝	-11.8736
珏	-11.8737
六科都給事中	-11.8737
佩水蒼玉	-11.8738
松江府	-11.8738
楞	-11.8738
氲	-11.8738
江南溧陽	-11.8739
孝潔皇后	-11.8739
䧺	-11.8739
浙江江西湖廣	-11.8739
奉車都尉	-11.8739
摠	-11.8739
呪	-11.8739
謳	-11.874
串	-11.8741
孝子順孫義夫節婦	-11.8741
銅印墨綬	-11.8741
鑲黄旗	-11.8742
璣	-11.8742
羅羅人	-11.8742
秉鈞之	-11.8742
紆	-11.8742
𤣥極寶殿	-11.8743
熒	-11.8743
撾	-11.8743
作君作師	-11.8744
瑪哈穆特	-11.8744
卿一人少卿二人	-11.8744
宣宗章皇帝	-11.8744
倐	-11.8744
兾	-11.8745
提舉太平興國宫	-11.8745
中兵外兵	-11.8745
䋲	-11.8745
混淆	-11.8745
郎中二人員外郎	-11.8745
左僕射兼門下侍郎	-11.8746
警巡院	-11.8746
矛	-11.8746
忒	-11.8746
䘵	-11.8746
譛	-11.8746
㲄	-11.8746
屑	-11.8747
正紅旗	-11.8747
􁑶	-11.8747
翰苑羣書	-11.8748
攽	-11.8748
張玉書	-11.8748
昶	-11.8748
滿洲鑲黄旗人	-11.8749
旃	-11.8749
月恭校上	-11.875
惴	-11.875
櫝	-11.875
二尺四寸	-11.875
潦	-11.8751
斁	-11.8751
澥	-11.8751
三佛齊	-11.8751
少師少傅少保	-11.8751
不可勝言	-11.8751
鯁	-11.8752
蠱	-11.8753
靈濟宫	-11.8753
獠	-11.8753
斿	-11.8754
桞	-11.8754
狃	-11.8755
城守尉	-11.8755
孫士毅總校官	-11.8755
歷	-11.8755
馘	-11.8756
􁰽	-11.8756
棍	-11.8756
畋	-11.8756
虜	-11.8756
闕里文獻考	-11.8757
莾	-11.8759
江南婁縣人	-11.8759
杆	-11.8759
罸	-11.876
顛倒	-11.8761
跳	-11.8762
四庫全書	-11.8763
烏魯木齊	-11.8763
著之於表	-11.8763
杲	-11.8764
分奠官	-11.8767
分七釐	-11.8769
斃	-11.877
眡	-11.8775
繭	-11.8775
䕶羌校尉	-11.8787
日加承㫖	-11.8795
平身樂止	-11.9291
枝八兩燭	-11.9305
江蘇安徽	-11.9309
奉直大夫	-11.9309
迎帝神	-11.9311
斤鰝魚	-11.9311
大長秋	-11.9311
蒔蘿	-11.9312
奈	-11.9312
咱	-11.9312
菊	-11.9312
芽	-11.9313
純徳山	-11.9313
蛟	-11.9314
従九品下	-11.9317
楊守陳	-11.9317
山東山西河南	-11.9318
叩三頭一揖一躬	-11.9318
崙	-11.9319
罩	-11.9319
某日午後沐浴更衣某日為始致齋	-11.9319
筍	-11.932
咏	-11.932
璨	-11.932
矛盾	-11.9321
脾	-11.9321
詣望燎位	-11.9322
窖	-11.9322
太社太稷	-11.9322
一祝文維皇帝遣致祭於	-11.9322
騏	-11.9323
禺	-11.9323
挈壺正	-11.9323
四川巴縣人	-11.9323
針	-11.9324
終獻寧和	-11.9324
酒二瓶	-11.9324
者麽道聖㫖了也欽此	-11.9324
乍	-11.9324
浙江嘉興	-11.9325
嬉	-11.9325
寥	-11.9325
文選司缺冊内查得成化	-11.9325
咒	-11.9325
廛	-11.9326
侁	-11.9326
内禮部題該	-11.9326
杰	-11.9326
孝𤣥孫嗣皇帝	-11.9327
訏	-11.9327
凜	-11.9327
兵馬指揮司	-11.9327
綉	-11.9328
禜	-11.9328
銀一百兩	-11.9328
摛	-11.9328
歙	-11.9328
斑	-11.9329
抒	-11.9329
豔	-11.9329
年繇精膳司主事陞任	-11.9329
謂侍臣曰	-11.9329
行祭告禮	-11.9329
户科給事中	-11.933
叱	-11.933
奉欽依准令冠帶就彼到任管事	-11.9331
方心曲領	-11.9331
澆	-11.9331
譙	-11.9332
㑹典云凡	-11.9332
冺	-11.9332
遘	-11.9332
祲	-11.9332
文東武西	-11.9332
金水橋南	-11.9332
天行道肇紀立極大聖至神仁文義武俊	-11.9332
霈	-11.9333
石林燕語	-11.9333
鉗	-11.9333
籙	-11.9333
卒年八十	-11.9333
燄	-11.9333
謂輔臣曰	-11.9334
匏	-11.9334
阿哈瑪特	-11.9335
江南宜興	-11.9335
南齊書	-11.9335
卉	-11.9335
殉	-11.9335
人掌固二人	-11.9335
判河南府	-11.9336
續文獻	-11.9336
執政凡二年	-11.9336
奐	-11.9336
娼	-11.9336
焕	-11.9336
曼	-11.9337
鴨	-11.9337
烏斯藏	-11.9338
堯舜禹湯文武	-11.9338
壮	-11.9338
帶領引見	-11.9339
厪	-11.934
碾	-11.934
邲	-11.934
中極殿	-11.934
芥	-11.9341
騤	-11.9341
窘	-11.9341
刃	-11.9341
明安穆昆	-11.9341
以京朝官充	-11.9341
珉	-11.9341
麝	-11.9341
雒	-11.9341
郯	-11.9342
張家灣	-11.9342
瞿	-11.9342
中士二人下士四人	-11.9342
滿剌加	-11.9343
縮	-11.9343
青韈舄	-11.9343
莊肅皇后	-11.9343
岀	-11.9344
嫂	-11.9344
斆	-11.9344
大興宛平	-11.9344
塾	-11.9345
殺賊有功	-11.9345
領隊大臣	-11.9345
淇	-11.9346
承運庫	-11.9346
冇	-11.9348
閶闔	-11.9348
佽	-11.9351
梲	-11.9351
檐	-11.9354
酢	-11.9355
夔	-11.9356
煮	-11.9356
知潭州	-11.9356
𢋫	-11.9357
坻	-11.9359
戊己校尉	-11.9363
繅	-11.9364
員每員	-11.9367
月初六日	-11.9476
紅生絹	-11.9599
福建晉江	-11.966
還不做世襲	-11.9723
天啓二年任	-11.9911
等處行中書省	-11.9923
孝恪皇太后	-11.9925
某月某日	-11.9932
毉	-11.9933
慟	-11.9937
奉政大夫	-11.9937
蔴	-11.9939
黄咨紙	-11.9939
顧鼎臣	-11.9939
輓	-11.9939
贊引引獻官	-11.994
無祀鬼神	-11.994
梁克家	-11.9942
八兩燭八枝四兩燭	-11.9942
爍	-11.9943
蜡	-11.9943
神其鑒知尚享	-11.9944
合四上尺	-11.9944
胷	-11.9944
氓	-11.9944
索諾木	-11.9945
畤	-11.9945
賜紫金魚袋	-11.9946
耘	-11.9946
薑	-11.9946
亞獻禮終獻禮	-11.9946
棣	-11.9947
崇徳報功	-11.9948
鄂爾泰	-11.9948
昩	-11.9948
三上香訖	-11.9949
竑	-11.9949
奉國将軍	-11.9949
焯	-11.9949
僮	-11.995
万俟卨	-11.995
周天星辰	-11.995
奉中書省判送	-11.995
陜西涇陽人	-11.995
樗	-11.9951
欽定四庫全書宋宰輔編年録卷	-11.9951
埴	-11.9952
酥	-11.9952
徤	-11.9952
澂	-11.9952
椽	-11.9952
祕書少監	-11.9952
黒介幘	-11.9952
捲	-11.9953
斜	-11.9953
襍	-11.9953
鑲白旗	-11.9953
鑲紅旗	-11.9953
麈	-11.9953
晾	-11.9953
絪	-11.9953
鄉飲酒禮	-11.9953
省署抄目	-11.9954
裾	-11.9954
厦	-11.9954
那般者欽此	-11.9954
秘書監志卷	-11.9954
剽	-11.9955
噬	-11.9956
踴	-11.9956
薈	-11.9956
汪由敦	-11.9956
舒庫爾齊	-11.9956
獅	-11.9956
牲醴庶品	-11.9956
氛	-11.9957
闇	-11.9957
乾興元年	-11.9957
從六品丞從七品掌	-11.9957
總兵官擬充	-11.9958
主事一人委署主事一人	-11.9958
鞠	-11.9959
得㫖允行	-11.9959
怕	-11.9959
璵	-11.9959
壎	-11.996
汧	-11.996
墩	-11.996
售	-11.9961
滿洲正白旗人	-11.9961
蠡	-11.9961
汶	-11.9961
浙江㑹稽人	-11.9962
膂	-11.9962
馬端臨	-11.9962
謟	-11.9962
至順元年	-11.9963
讚	-11.9963
伶	-11.9963
同堂異室	-11.9963
聖子神孫	-11.9964
凋	-11.9964
沸	-11.9964
用紅緑羅銷	-11.9964
楯	-11.9965
戕	-11.9965
訶	-11.9965
唆	-11.9965
方獻夫	-11.9966
賕	-11.9967
鄜	-11.9967
寀	-11.9967
三老五更	-11.9967
羡	-11.9967
展表官	-11.9968
腿	-11.9968
謇	-11.9968
盎	-11.9969
筒	-11.997
詣盥洗位	-11.997
制案節案	-11.9971
厄	-11.9971
遣官諭祭	-11.9971
扺	-11.9972
啟聖公	-11.9972
絁	-11.9974
成賢街	-11.9975
涪	-11.9975
紂	-11.9977
各王嵗支禄米初封二千石襲封一千石	-11.9978
禫	-11.9982
都虞司	-11.9982
葉方藹	-11.9983
學士陶安	-11.9992
贊拜樂作	-12.0049
工六工一	-12.029
密院事除	-12.0468
萬八千	-12.0483
天啓元年任	-12.0573
孝懿皇后	-12.059
尖	-12.0594
昱	-12.0596
觚	-12.0601
以從仕郎上	-12.0601
褾	-12.0603
二人正八品司	-12.0603
溷	-12.0605
釡	-12.0605
奉聖㫖是准他襲欽此	-12.0607
獬豸	-12.0607
秬	-12.0609
従八品下	-12.0609
廣東南海人	-12.0609
𤾉	-12.061
平章軍國重事	-12.061
緹	-12.061
吊	-12.061
秤	-12.0612
琥	-12.0612
愜	-12.0612
直隸無錫	-12.0612
莭度使	-12.0613
禩	-12.0613
觥	-12.0613
褚	-12.0613
棕	-12.0613
据	-12.0613
年繇主客調任	-12.0613
宋宰輔編年録	-12.0613
冄	-12.0613
遡	-12.0614
溶	-12.0614
杼	-12.0614
澗	-12.0614
土魯畨	-12.0614
大明集禮	-12.0614
宣勅戒	-12.0615
畯	-12.0615
櫺	-12.0616
茭	-12.0616
些	-12.0616
靼	-12.0616
撲	-12.0616
不獻帛讀祝	-12.0616
劔	-12.0616
共設酒尊三	-12.0616
洺	-12.0616
昺	-12.0617
䨇	-12.0617
斗五升	-12.0618
進賢一梁冠	-12.0618
李宗諤	-12.0618
蘋	-12.0618
咈	-12.0618
翰林院撰祭文	-12.0618
引馬側立	-12.0618
曦	-12.0618
鏁	-12.0619
尺工一合	-12.0619
簧	-12.0619
簒	-12.0619
扄	-12.0619
逄	-12.0619
神道碑	-12.062
年繇知縣陞任	-12.062
詬	-12.062
舡	-12.062
譯字生	-12.062
啓聖公	-12.062
駰	-12.0621
券	-12.0621
愠	-12.0621
毖	-12.0621
駑	-12.0621
等二百九十	-12.0621
鏃	-12.0622
銀章青綬	-12.0622
愼	-12.0622
珵	-12.0622
郤	-12.0622
姑宥之	-12.0622
酧	-12.0622
榮禄大夫	-12.0622
江西新建人	-12.0623
泯	-12.0623
鋌	-12.0623
州同州判	-12.0623
沈徳潛	-12.0623
以回天意	-12.0623
鞾	-12.0623
懇乞聖明	-12.0624
痛加修省	-12.0624
胡宗愈	-12.0624
酈	-12.0624
奏百戲承應	-12.0625
知建康府	-12.0625
東方朔	-12.0625
諉	-12.0625
章俊卿山堂考索	-12.0625
梁班第十	-12.0626
貝勒貝子	-12.0626
諌議大夫	-12.0626
軋	-12.0627
釧	-12.0627
絮	-12.0627
吳伯宗	-12.0627
謹天戒	-12.0628
建中靖國	-12.0628
太尉司徒司空	-12.0628
兠	-12.0628
覦	-12.0628
𠫭軍事一人	-12.0628
酣	-12.0628
棐	-12.0628
各照品級	-12.0629
熲	-12.063
嘏	-12.063
栐	-12.063
一時權宜	-12.063
聖帝明王	-12.063
啟心郎	-12.0631
婉	-12.0631
名山大川	-12.0631
賜祭𦵏如例	-12.0632
錞	-12.0632
潯	-12.0632
福建侯官人	-12.0632
輻	-12.0633
遶	-12.0633
英國公張懋	-12.0633
逹嚕噶齊	-12.0633
窻	-12.0633
朱光庭	-12.0633
鬰	-12.0633
四拜舉哀興哀止	-12.0633
曝	-12.0634
胡三省通鑑注	-12.0634
携	-12.0634
妹	-12.0634
紕	-12.0635
富大用事文類聚	-12.0635
欽定四庫全書史部十二	-12.0635
日講起居注官	-12.0635
妝	-12.0636
嫻	-12.0636
絺	-12.0637
夣	-12.0638
親勲翊	-12.0638
莪	-12.0638
三國蜀志	-12.0639
輛	-12.0639
晡	-12.0645
庋	-12.0647
噲	-12.0647
亾	-12.0647
儀鸞司	-12.0647
攅	-12.0651
諸葛亮	-12.0659
等因奉聖㫖是欽此嘉靖三十	-12.0714
考睿宗知天守道洪	-12.1302
昕	-12.1302
藜	-12.1305
各門燒香	-12.1308
騂	-12.1308
知鄆州	-12.131
督糧道	-12.1313
糝	-12.1315
鴉	-12.1315
皇帝遣致祭于	-12.1318
江西臨川人	-12.1318
陳設籩豆牲隻	-12.1319
直𨽻無錫人	-12.1319
韮	-12.1319
臼	-12.1321
宛大二縣	-12.1321
穜	-12.1321
縈	-12.1322
明俞汝楫編儀制司職掌	-12.1322
來說欽此	-12.1322
贏	-12.1322
襦	-12.1323
如其日不朝	-12.1323
陌	-12.1323
煇	-12.1324
幡	-12.1324
奏過事内一件	-12.1324
欹	-12.1325
臾	-12.1325
荔	-12.1325
銅青黄丹各	-12.1325
訣	-12.1325
缸	-12.1325
楠	-12.1326
嶷	-12.1327
煑	-12.1328
劭	-12.1328
張鵬翀	-12.1329
釣	-12.1329
珣	-12.1329
憇	-12.1329
虺	-12.1329
徐處仁	-12.1329
釗	-12.1329
穉	-12.1329
甯	-12.133
翳	-12.133
剃	-12.133
忠臣烈士	-12.133
炙	-12.133
武宗毅皇帝	-12.133
挂	-12.133
筑	-12.133
鑪一鐙二	-12.1331
礬	-12.1331
槀	-12.1331
鞓	-12.1331
罽	-12.1331
日月交食	-12.1332
獻官陪祭官	-12.1332
繙	-12.1332
蟻	-12.1332
鬬	-12.1333
宋大中祥符二年封	-12.1333
櫻	-12.1333
彷	-12.1333
願就教職者	-12.1334
蚩	-12.1334
㽅	-12.1334
罙	-12.1334
薛氏作	-12.1335
胄曹參軍事各一人	-12.1335
孝潔肅皇后	-12.1335
趙國麟	-12.1336
俄羅斯	-12.1336
聦	-12.1336
籩豆各四簠簋	-12.1336
進賢兩梁冠	-12.1336
山東歴城人	-12.1337
膴	-12.1337
窒	-12.1337
慾	-12.1337
史貽直	-12.1337
二帝三王	-12.1338
神霄玉清萬	-12.1338
耦	-12.1338
飫	-12.1338
浙江徳清人	-12.1339
儁	-12.1339
具實奏聞	-12.1339
堆	-12.134
埃	-12.134
挟	-12.134
誹	-12.134
梭	-12.134
邯	-12.134
驩	-12.1341
滿洲鑲白旗人	-12.1341
徳成功髙皇帝	-12.1341
文移闗白之事	-12.1341
菴	-12.1341
扼	-12.1341
劉昭後漢書志注	-12.1342
孩	-12.1343
怵	-12.1343
丁父憂	-12.1343
娛	-12.1344
瘁	-12.1344
監脩國史	-12.1344
彞倫堂	-12.1344
夐	-12.1344
如淳注	-12.1345
福建莆田縣人	-12.1345
捶	-12.1345
上士二人中士四人	-12.1346
英國公張輔	-12.1346
咸亨元年復為	-12.1346
敬天勤民	-12.1346
紓	-12.1346
畱	-12.1346
皥	-12.1346
侗	-12.1346
恙	-12.1347
漣	-12.1347
霾	-12.1347
兕	-12.1348
掘	-12.1348
江南太倉人	-12.1348
廚	-12.1349
胡惟庸	-12.1349
伽	-12.1349
仭	-12.135
􁁱	-12.1351
巵	-12.1352
敗倫傷化	-12.1352
瀕	-12.1353
帟	-12.1354
喝	-12.1355
緜	-12.1357
莎	-12.1359
囂	-12.136
逕	-12.1362
毳	-12.1363
羆	-12.1367
百官公卿表	-12.1367
璩	-12.1372
學士朱升	-12.1429
月初五日	-12.1449
陞祠祭司員外	-12.1529
七品密喇布伯克一人	-12.1724
服斬衰	-12.1813
徹饌奏樂樂止典儀	-12.1849
浙江仁和	-12.2024
悛	-12.2053
祾恩殿	-12.2066
竺	-12.2068
史闕其員	-12.2079
乞骸骨	-12.2084
泰昌元年	-12.2084
河南祥符人	-12.2085
賖	-12.2086
餈	-12.2087
豳風亭	-12.2087
八兩燭二枝四兩燭	-12.2087
直𨽻武進人	-12.2088
坐糧㕔	-12.2088
直隸崑山	-12.209
濛	-12.209
謹詣祖宗列聖帝后神位前恭預告知	-12.2091
集禧觀使	-12.2091
員外郎龍朔咸亨	-12.2091
祖宗列聖帝后	-12.2091
橘	-12.2091
禇	-12.2092
皇穹宇	-12.2092
年繇祠祭調任陞	-12.2093
犁	-12.2093
太和殿演禮樂畢詣犧牲所看牲	-12.2094
乾清宮	-12.2094
笵銅為之	-12.2095
楊士奇	-12.2095
垢	-12.2095
軍民利病	-12.2096
絢	-12.2096
諗	-12.2098
掯	-12.2098
仁宗昭皇帝	-12.2099
擔	-12.2099
贈太保諡文	-12.2099
董卜韓胡	-12.2099
兩六錢六分六厘	-12.2099
靺	-12.21
羈	-12.21
鉢	-12.21
彗	-12.21
旰	-12.2101
罏	-12.2101
鑲藍旗	-12.2101
殻	-12.2101
呵怎生奏呵奉聖㫖	-12.2101
酺	-12.2101
特哩衮	-12.2101
搢笏鞠躬三舞蹈	-12.2101
授編修三甲	-12.2101
文武百官各具朝服	-12.2102
江西安福縣人	-12.2103
醓	-12.2103
鑠	-12.2103
瘦	-12.2103
淚	-12.2103
少師兼太子太師	-12.2104
瑤	-12.2104
伏乞聖裁一	-12.2104
堦	-12.2104
荳	-12.2105
鼠	-12.2105
至昭亨門	-12.2105
緗	-12.2105
貿	-12.2105
闘	-12.2105
樂生七十二人	-12.2105
栖	-12.2105
芟	-12.2105
賭	-12.2106
縣人舉人嘉靖	-12.2106
淦	-12.2106
渤	-12.2106
陬	-12.2107
司禮監官捧進	-12.2107
鼉	-12.2107
賜進士及第	-12.2108
韎	-12.2108
仞	-12.2108
山東掖縣人	-12.2108
鰥	-12.2108
山西澤州人	-12.2108
都布按三司	-12.2108
腯	-12.2108
脈	-12.2108
謾	-12.211
魄	-12.211
慈貞化哲順仁徽成天育聖至徳髙皇后	-12.211
提舉萬壽觀	-12.211
斚	-12.211
江南崑山人	-12.211
澣	-12.211
搨	-12.2111
大社大稷	-12.2111
服通天冠絳紗袍	-12.2112
進賀表箋	-12.2112
合下仰照驗	-12.2112
孕	-12.2112
騁	-12.2112
㦂	-12.2112
径	-12.2113
粃	-12.2113
澧	-12.2113
㛰	-12.2114
脇	-12.2114
貊	-12.2114
佐二人史四人	-12.2114
司獄司司獄	-12.2114
瓛	-12.2115
夭	-12.2115
疚	-12.2116
依擬行欽此	-12.2116
冏	-12.2116
鞅	-12.2116
蕆	-12.2116
沴	-12.2116
昃	-12.2117
髀	-12.2117
瑯	-12.2117
軻	-12.2117
閟	-12.2117
府五人史十人	-12.2117
臭	-12.2117
猊	-12.2117
吞	-12.2118
錡	-12.2118
虔	-12.2118
侣	-12.2119
誑	-12.2119
柟	-12.2119
僦	-12.2119
玠	-12.2119
菽	-12.212
􁠙	-12.212
㳙	-12.212
大成至聖文宣王	-12.212
譔	-12.2121
賸	-12.2122
詡	-12.2122
淆	-12.2122
搬	-12.2123
櫍	-12.2123
莘	-12.2123
拜手稽首	-12.2123
戛	-12.2124
喇沙里	-12.2124
靈駕進發	-12.2124
駱	-12.2124
奉太祖皇帝聖㫖	-12.2126
甥	-12.2126
詘	-12.2127
豺	-12.2127
鍜	-12.2127
孫岳頒	-12.2127
檔子房	-12.2127
䋲愆㕔	-12.2128
棖	-12.213
噦	-12.2133
寧古塔	-12.2134
髠	-12.2137
令一人六百石本注曰	-12.2138
奉宸苑	-12.2139
年繇吏部左	-12.2398
孫嗣皇帝御名謹遣昭告于	-12.2905
承宣布政使司	-12.2911
猒	-12.2913
滚	-12.2914
翌	-12.2918
恭讓章皇后	-12.2918
金聲玉振	-12.2919
鍠	-12.292
籞	-12.2921
􁐉	-12.2921
苔	-12.2921
兼羣牧制置使	-12.2922
直𨽻歙縣	-12.2923
䭾	-12.2923
八兩燭十六枝四兩燭	-12.2923
軀	-12.2924
承丕緒	-12.2924
直𨽻崑山人	-12.2924
礶	-12.2924
戬	-12.2925
劫	-12.2926
福建福清人	-12.2926
敉	-12.2927
一儀注祭日子時	-12.2927
胎	-12.2928
樂止典儀唱行亞獻禮樂作	-12.2928
叡	-12.2928
㨿	-12.2929
右春坊右中允	-12.2929
筴	-12.2929
讀祝官捧祝掌祭官捧帛饌各詣瘞位	-12.2929
慊	-12.2929
四川廣東廣西雲南貴州	-12.2929
俛	-12.293
知頴昌府	-12.293
行三跪九叩禮	-12.293
山堂考索	-12.293
亭長二人掌固四人	-12.293
絜	-12.293
拗	-12.293
倅	-12.293
蜂	-12.293
紈	-12.2931
葉夢得石林燕語	-12.2931
日以承直郎上	-12.2931
牕	-12.2932
福建漳浦人	-12.2932
欽定四庫全書翰苑羣書卷	-12.2932
朞	-12.2932
覔	-12.2932
寬	-12.2933
穡	-12.2933
蘧	-12.2933
宋洪遵編	-12.2933
洛陽伽藍記	-12.2933
杵	-12.2934
備馬赴京進貢告襲永樂	-12.2934
進呈御覽	-12.2934
則具本題知	-12.2934
綑	-12.2934
宋宰輔編年錄	-12.2935
行安神禮	-12.2935
攢	-12.2936
直𨽻宜興人	-12.2936
蕉	-12.2936
北極佑聖真君	-12.2936
趕	-12.2936
柝	-12.2937
唱排班班齊	-12.2937
燫	-12.2937
滿洲正藍旗人	-12.2937
滔	-12.2937
糕	-12.2937
准行令就彼冠帶	-12.2938
叔梁紇	-12.2938
天𢎞道髙明肇運	-12.2938
聖駕親詣太學大禮慶成	-12.2939
噶匝納齊伯克	-12.2939
朢	-12.2939
胥十有二人徒百有二十人	-12.2939
今該前因	-12.294
朐	-12.294
浙江海鹽人	-12.294
性理大全	-12.294
大使一員副使一員	-12.2941
雲雨風雷	-12.2941
太液池	-12.2941
眠	-12.2941
埏	-12.2941
顏	-12.2942
年繇行人陞任	-12.2942
敭	-12.2943
肉飯酒五鍾	-12.2943
罷州置郡	-12.2944
袤	-12.2944
仆	-12.2944
儔	-12.2944
山西蒲州人	-12.2945
延康殿學士	-12.2945
祓	-12.2945
饎	-12.2945
乣	-12.2945
吕祖謙	-12.2945
剙	-12.2946
彘	-12.2946
無思不服	-12.2946
直隸歙縣人	-12.2946
屍	-12.2946
閥	-12.2947
柵	-12.2947
酸	-12.2947
躭	-12.2947
頺	-12.2947
恰	-12.2947
孫承澤春明夢餘録	-12.2948
紿	-12.2948
鄧洵武	-12.2949
珦	-12.2949
縞	-12.2949
胥八人徒八十人	-12.2949
博學宏詞	-12.295
禮部尚書鄒幹	-12.295
少傅兼太子太傅	-12.2951
煽	-12.2952
鑌	-12.2952
荀悦漢紀	-12.2952
枋	-12.2952
檔	-12.2952
蠎	-12.2953
姒	-12.2953
㕓	-12.2953
諠	-12.2953
欽定歴代職官表卷	-12.2954
文行兼優	-12.2954
酹	-12.2954
勣	-12.2954
導上至香案前奏	-12.2954
馥	-12.2955
大使副使各一人	-12.2955
葭	-12.2956
愬	-12.2956
艮	-12.2957
扞	-12.2957
賛鞠躬樂作賛四拜興平身樂止	-12.2958
巴里坤	-12.2959
璡	-12.296
孫逢吉職官分紀	-12.296
耕根車	-12.296
烜	-12.2961
篪	-12.2961
袝	-12.2961
榦	-12.2961
聖祖康熙十	-12.2963
㽔	-12.2963
上諭行在禮部臣曰	-12.2965
彜	-12.2966
沓	-12.2967
七月至十二月折布	-12.2967
軨	-12.2985
華陽國志	-12.2989
本標中左右	-12.2992
以日易月	-12.3025
文館大學士監修國史	-12.3262
樂舞生就位執事官各司其事	-12.3684
闋	-12.3803
彫	-12.3813
酇	-12.3816
月分薦新品物品物數	-12.3817
籩十豆十	-12.3821
迦	-12.3822
縗	-12.3825
𠫭將游擊	-12.3826
汁	-12.3829
日以奉訓大夫上	-12.3829
祝文維洪武某年	-12.3829
毬	-12.383
棚	-12.3831
忩	-12.3832
饜	-12.3832
欽定四庫全書禮部志稿卷八十	-12.3833
蚪	-12.3834
珀	-12.3835
琶	-12.3836
榭	-12.3836
醃	-12.3837
薇	-12.3837
直𨽻常熟人	-12.3837
候鳴鞭訖跪奏云太常寺卿臣某等謹奏	-12.3837
邳	-12.3837
蓉	-12.3838
熬	-12.3838
某月某朔某日	-12.3838
渺	-12.3839
麩	-12.3839
餳	-12.3839
褲	-12.3839
迎神太和之曲	-12.3839
俌	-12.3839
繇祠祭司主事陞任	-12.384
詛	-12.384
琤	-12.384
楶	-12.384
週	-12.3841
裀	-12.3841
羙	-12.3841
歧	-12.3841
梓宫在殯	-12.3841
公伯寮秦冉顔何	-12.3842
迯	-12.3842
湯三品雙下饅頭	-12.3842
浣	-12.3842
獮	-12.3843
杻	-12.3843
品塋地周圍	-12.3843
簟	-12.3843
夬	-12.3843
蕙	-12.3843
切一去聲	-12.3843
世襲罔替	-12.3843
元王士㸃撰	-12.3844
銅印方二寸	-12.3845
奏上香上三上香訖	-12.3845
湖廣麻城人	-12.3845
徐堅初學記	-12.3845
韍	-12.3845
以違制論	-12.3845
晞	-12.3846
関	-12.3846
搖	-12.3846
葷	-12.3846
陵遣官本前二日面奏奉先殿祭祀	-12.3846
平帝元始	-12.3846
玉振金聲	-12.3846
武舞生六十六人文舞生六十六人燒香	-12.3847
菌	-12.3847
諜	-12.3847
以緅為領縁	-12.3847
滇	-12.3847
垠	-12.3847
令史四人書令史九人掌固四人	-12.3847
拷	-12.3848
透	-12.3848
垜	-12.3848
弧	-12.3848
録事掌受事發辰	-12.3848
㓙	-12.3848
兵曹參軍事各一人	-12.3848
塼	-12.3849
杳	-12.3849
沭	-12.3849
渇	-12.3849
㠯	-12.3849
韞	-12.385
毀	-12.385
賜祭塟如例	-12.385
涘	-12.385
聪	-12.3851
笥	-12.3851
蘿	-12.3852
禰	-12.3852
唐古特語	-12.3852
孔顔孟三氏	-12.3852
紃	-12.3852
哈喇哈斯	-12.3852
惹	-12.3852
准中書禮部闗	-12.3852
仄	-12.3853
㝢	-12.3853
惲	-12.3853
浙江嘉善人	-12.3853
莫此為甚	-12.3853
圯	-12.3853
糠	-12.3855
嬖	-12.3855
籬	-12.3855
直隸華亭縣人	-12.3855
瑰	-12.3855
阿嚕台	-12.3856
甡	-12.3857
嘿	-12.3857
矇	-12.3857
三日下程一次羊	-12.3857
竚	-12.3857
造墳安葬	-12.3857
謔	-12.3858
殳	-12.3858
所属刑名兼	-12.3858
逭	-12.3858
跣	-12.3859
朌	-12.3859
閧	-12.3859
公車司馬令	-12.3859
佻	-12.386
奉太宗皇帝聖㫖	-12.386
青纊充耳	-12.386
麽道聖㫖了也	-12.3861
鼻	-12.3862
奉憲宗皇帝聖㫖	-12.3862
蹄	-12.3862
六部都察院通政司大理寺	-12.3863
李燾續資治通鑑長編	-12.3863
斾	-12.3864
讋	-12.3864
麋	-12.3865
贛	-12.3865
舉江州太平觀	-12.3865
譖	-12.3866
褫	-12.3866
鑊	-12.3867
恍	-12.3867
㕑	-12.3868
賜同進士出身	-12.3868
逖	-12.3869
鷩	-12.3869
妬	-12.3869
魅	-12.3872
㙺	-12.3872
羹	-12.3872
金印紫綬	-12.3872
倓	-12.3874
呶	-12.3874
窓	-12.3875
萇	-12.3876
選娶内助	-12.3877
祅	-12.3878
幇	-12.388
本標左右二營	-12.388
逡	-12.3881
賠	-12.3888
燱	-12.3896
郃	-12.3904
斬衰三年	-12.4207
詣讀祝位奏跪	-12.429
如遣官代祭	-12.4796
布毎段一貫	-12.4796
書令史二人書史四人	-12.4817
㪷	-12.4818
欽定四庫全書禮部志稿卷三十	-12.4819
品阿竒木伯克一人六品哈子伯克一人	-12.4819
昬	-12.4823
璀	-12.4823
直𨽻長洲人	-12.4826
娑	-12.4826
袂	-12.4827
壇陳設同帛一	-12.4827
泝	-12.4827
讀祝官捧祝掌祭官捧帛饌各詣燎位	-12.4828
愔	-12.4828
纚	-12.4829
坪	-12.4829
蟾	-12.4829
􁈭	-12.4829
誆	-12.483
掊	-12.4831
峘	-12.4831
驁	-12.4831
椘	-12.4832
毯	-12.4832
娣	-12.4832
祹	-12.4833
明俞汝楫編祠祭司職掌	-12.4833
鋟	-12.4833
軆	-12.4834
鏹	-12.4834
虞夏商周	-12.4834
釴	-12.4835
菑	-12.4835
塡	-12.4835
栲	-12.4835
蕚	-12.4835
躡	-12.4836
盱	-12.4836
肱	-12.4836
媵	-12.4837
灤	-12.4837
袪	-12.4837
一祝文維孝𤣥孫嗣皇帝某敢昭告於	-12.4837
墟	-12.4838
僃	-12.4838
典儀唱讀祝官捧祝	-12.4838
爻	-12.4838
攤	-12.4838
醑	-12.4839
价	-12.4839
襴	-12.4839
帥十人隊正二十人副隊正二十人	-12.484
三十枝胡桃栗子紅棗各	-12.484
艶	-12.484
觔果子四色蔬菜厨料	-12.484
猪五口北羊	-12.484
萱	-12.484
踪	-12.4841
上天示戒	-12.4841
為某事云云合行	-12.4842
删	-12.4842
阡	-12.4842
照驗施行須至	-12.4842
䢩	-12.4842
怛	-12.4842
珽	-12.4843
永孚于休	-12.4843
唐開元八年從祀二十七年封	-12.4843
𤯝	-12.4843
艧	-12.4844
五嶽五鎮四海四瀆	-12.4844
衎	-12.4844
後魏闕文北齊	-12.4844
楓	-12.4844
省牲請㫖承㫖不叩頭一躬退	-12.4844
緌	-12.4844
燼	-12.4844
炤	-12.4845
銅印墨綬進賢一梁冠絳朝服	-12.4846
矟	-12.4846
嬸	-12.4846
媛	-12.4847
翫	-12.4847
荼	-12.4847
捄	-12.4847
槽	-12.4847
賾	-12.4847
飪	-12.4847
棻	-12.4847
曵	-12.4847
廣西臨桂人	-12.4847
猖	-12.4848
疇若予采	-12.4848
翩	-12.4848
鈺	-12.4848
党	-12.4848
橫	-12.4849
碌	-12.4849
奏搢圭上受爵奏獻爵上獻訖奏出圭	-12.4849
衛大將軍各一人正三品	-12.4849
戀	-12.485
慄	-12.485
殛	-12.485
人龍朔咸亨光宅	-12.485
縳	-12.485
蓍	-12.485
趂	-12.485
悮	-12.4851
璠	-12.4851
秣	-12.4851
鋤	-12.4851
鍚	-12.4851
衂	-12.4851
礱	-12.4851
慣	-12.4852
夤	-12.4852
六品上中候各	-12.4852
葫	-12.4852
巂	-12.4853
蓼	-12.4853
愒	-12.4853
態	-12.4854
此其當行者	-12.4854
閙	-12.4854
縟	-12.4854
褘	-12.4855
擲	-12.4855
燻	-12.4855
蒿	-12.4855
屆	-12.4855
產	-12.4855
嘖	-12.4855
湔	-12.4855
哇	-12.4855
看詳到事理施行	-12.4856
恭呈御覽	-12.4856
涎	-12.4856
欽定四庫全書禮部志稿卷九十	-12.4856
藍翎侍衛	-12.4857
箔	-12.4857
抺	-12.4857
碁	-12.4857
皎	-12.4857
惮	-12.4857
㝎	-12.4857
隋隋書百官志髙祖受命置	-12.4857
窠	-12.4857
登聞檢院	-12.4857
銑	-12.4858
嵌	-12.4858
翦	-12.4858
髣	-12.4858
髴	-12.4858
拖沙喇哈番	-12.4858
詈	-12.4859
伊勒希巴	-12.4859
蘧瑗林放	-12.4859
愎	-12.4859
按酒五般果子五般	-12.4859
狁	-12.486
㤀	-12.4861
欽定四庫全書禮部志稿卷七十	-12.4861
暄	-12.4862
鄖	-12.4862
詿	-12.4862
褊	-12.4863
欒	-12.4863
漪	-12.4863
郎兼翰林院侍讀學士	-12.4864
瓏	-12.4864
傭	-12.4864
掦	-12.4864
澳	-12.4865
湖廣孝感人	-12.4866
螺	-12.4866
訝	-12.4866
頷	-12.4866
爰立作相	-12.4866
豢	-12.4867
燁	-12.4867
某年月日入府成婚	-12.4867
畔	-12.4867
蹶	-12.4867
進士改翰林院庶吉士授編修	-12.4868
恡	-12.4868
醒	-12.4869
袁宏後漢紀	-12.4869
長子長孫鎮輔奉國將軍中尉某	-12.487
晅	-12.487
溟	-12.4871
謝維新合璧事類	-12.4871
廆	-12.4871
皿	-12.4871
洱	-12.4872
見年若干嵗	-12.4873
駼	-12.4874
寺卿一人從三品	-12.4874
礦	-12.4874
宓	-12.4875
耐	-12.4875
𣺌	-12.4876
氂	-12.4876
副都統一人協領兼佐領	-12.4879
瞞	-12.4886
年繇祠祭司員	-12.524
漢人一人主事滿洲漢人各一人掌稽	-12.5509
𨼆	-12.5915
箇簠簋籩豆碟	-12.5917
升白麫蕎麥麫各	-12.592
鍧	-12.5928
朏	-12.593
銀絲紗一件	-12.5931
佶	-12.5931
蔥	-12.5933
拈	-12.5934
鄞	-12.5934
大樂鼓吹振作	-12.5937
左右清道率府	-12.5938
后土勾龍氏	-12.5939
茵	-12.5939
詫	-12.594
泓	-12.594
恭仁康定景皇帝	-12.594
饉	-12.594
勑中書門下省尚書省送到	-12.594
俵	-12.5941
太廟門西降輿	-12.5941
鎮本標五營	-12.5941
􁨹	-12.5941
面三門中曰	-12.5941
諺	-12.5941
衒	-12.5941
承流宣化	-12.5942
羾	-12.5944
藿	-12.5944
吸	-12.5946
某日午後沐浴更衣於本衙門宿歇某日	-12.5946
嘯	-12.5946
甕	-12.5946
悒	-12.5946
工尺工尺一四尺合四合	-12.5947
夑	-12.5947
淋	-12.5947
蕘	-12.5947
使從五品副使從六品掌	-12.5948
訥克布伯克	-12.5948
釋奠於先聖先師	-12.5948
阿竒木伯克一人四品伊什罕伯克一人	-12.5948
折靴韈鈔五十錠	-12.5949
殞	-12.5949
胡桃四斤栗子六斤紅棗五斤	-12.5949
闗請照驗	-12.595
戞	-12.595
郇	-12.595
且准他襲還行文書去覆勘	-12.595
額爾竒木	-12.5951
餕	-12.5951
碟	-12.5951
凑	-12.5951
殱	-12.5951
事無巨細	-12.5952
淶	-12.5952
南嶽衡山	-12.5952
卲	-12.5953
岳鎮海瀆	-12.5953
濩	-12.5953
漬	-12.5953
于太和殿朝夕演習禮樂	-12.5953
搃	-12.5953
河陽三城節度使	-12.5953
蠅	-12.5954
黍稷稻粱各	-12.5954
煤	-12.5954
提舉崇福宫	-12.5954
鄂爾根徹爾	-12.5954
防守尉一人防禦二人驍騎校一人	-12.5954
漢人各一人主事滿洲漢人各一人掌	-12.5955
鍵	-12.5955
鎰	-12.5955
都轉運鹽使司	-12.5955
漲	-12.5956
隮	-12.5956
鄉舉里選	-12.5956
曄	-12.5957
熄	-12.5957
縦	-12.5957
擗	-12.5958
葩	-12.5958
穏	-12.5958
虬	-12.5959
垓	-12.5959
曹參軍事二人正七品下	-12.5959
文官五品以上武官四品以上	-12.5959
牂	-12.596
骸	-12.596
陵遣官本不奏祭祀四案香燭果品等	-12.596
陵遣官本不奏祭祀	-12.596
抉	-12.596
槨	-12.5961
憺	-12.5961
地方贊理軍務一員巡撫	-12.5961
笈	-12.5961
㐲	-12.5961
魘	-12.5961
朘	-12.5962
瓣	-12.5962
偵	-12.5962
提舉亳州明道宫	-12.5962
宼	-12.5962
有辭於永世	-12.5962
長河西魚通寧逺	-12.5963
釜	-12.5963
靴襪各一雙	-12.5963
啼	-12.5963
娘	-12.5964
褻	-12.5964
揄	-12.5965
裴松之三國志注	-12.5965
霏	-12.5965
曳	-12.5965
穫	-12.5965
胖	-12.5966
咄	-12.5966
藕	-12.5966
茄	-12.5966
瑱	-12.5966
職名總目某	-12.5966
䜟	-12.5967
燥	-12.5967
長史掌判諸曹	-12.5968
嘱	-12.5968
櫈	-12.5969
厝	-12.5969
峰	-12.5969
澇	-12.597
授執事者執事者跪受置于北案	-12.597
䛕	-12.597
衕	-12.597
鵰	-12.597
光宅神龍並隨曹	-12.597
斫	-12.597
使斡里雅布	-12.597
譌	-12.5971
鍼取法於	-12.5972
槊	-12.5973
浡	-12.5973
爨	-12.5973
𦍑	-12.5974
倩	-12.5974
賃	-12.5974
鄢	-12.5974
宁	-12.5974
狸	-12.5974
疏禮部尚書沈鯉題為	-12.5975
卻	-12.5976
霆	-12.5976
丏	-12.5977
訢	-12.5977
春明夢餘録	-12.5977
蒔	-12.5977
烙	-12.5977
峕	-12.5977
遣使奉金葉表	-12.5977
蔭	-12.5978
榷	-12.5979
磑	-12.5979
鶉	-12.598
鱣	-12.5982
凾	-12.5983
冊繩愆㕔司之凡	-12.5983
茸	-12.5984
膊	-12.5985
縛	-12.5987
雯	-12.5988
椎	-12.5988
某府州縣某籍某人第幾女某	-12.5989
啖	-12.599
馹	-12.5995
洪适𨽻釋	-12.5996
禑	-12.5996
營同城一營	-12.6008
慈孝貞順仁敬誠一安天誕聖獻皇后	-12.7025
箇白磁爵	-12.7159
嬴	-12.7169
銼	-12.717
萍	-12.7177
躱	-12.7181
矍	-12.7185
溱	-12.7185
蕊	-12.7185
港	-12.7187
义	-12.7187
悳	-12.7189
鈇	-12.7189
庄	-12.719
岣	-12.719
䙏	-12.7191
宂	-12.7191
悽	-12.7191
褡	-12.7191
竽	-12.7192
擘	-12.7192
肫	-12.7192
嗽	-12.7192
頸	-12.7192
驄	-12.7192
鶒	-12.7192
橙	-12.7194
偰	-12.7196
飰	-12.7197
眚	-12.7198
酗	-12.7198
嶙	-12.7198
霓	-12.72
顗	-12.72
莠	-12.7202
俁	-12.7202
􁱵	-12.7202
跌	-12.7202
鞨	-12.7202
禠	-12.7202
耽	-12.7203
敺	-12.7203
燃	-12.7203
痕	-12.7203
渰	-12.7204
縡	-12.7204
嘻	-12.7204
璃	-12.7204
緼	-12.7204
紺	-12.7204
倥	-12.7204
墁	-12.7204
氈	-12.7205
燉	-12.7205
䍐	-12.7206
鄲	-12.7206
暎	-12.7207
唇	-12.7207
灘	-12.7208
杌	-12.7208
儋	-12.7208
擣	-12.7209
蘚	-12.7209
孥	-12.721
𬋩	-12.721
鍪	-12.721
份	-12.721
咳	-12.7211
韙	-12.7211
刮	-12.7211
伉	-12.7211
彍	-12.7211
遅	-12.7211
㒜	-12.7212
鄠	-12.7212
硬	-12.7213
鄕	-12.7213
瞭	-12.7214
凴	-12.7214
獗	-12.7214
皚	-12.7214
䜿	-12.7214
餒	-12.7215
睨	-12.7215
邜	-12.7215
觖	-12.7215
輈	-12.7215
俚	-12.7216
嗾	-12.7216
撼	-12.7216
毘	-12.7216
劬	-12.7216
㬰	-12.7217
峴	-12.7217
鍊	-12.7217
蠢	-12.7217
槌	-12.7218
絇	-12.7219
夸	-12.7219
沗	-12.722
熞	-12.722
㸑	-12.722
梳	-12.722
么	-12.722
錙	-12.7221
䩞	-12.7221
鑚	-12.7222
癘	-12.7222
鑽	-12.7223
畎	-12.7223
蜚	-12.7223
焰	-12.7224
茨	-12.7224
淂	-12.7224
楬	-12.7224
峨	-12.7224
痼	-12.7224
迅	-12.7225
叵	-12.7225
莆	-12.7225
畦	-12.7225
敡	-12.7226
刄	-12.7226
喏	-12.7226
戺	-12.7226
湑	-12.7226
汭	-12.7228
抜	-12.7229
楦	-12.7229
鉟	-12.723
縢	-12.723
埀	-12.7231
牣	-12.7231
蓽	-12.7231
儈	-12.7231
緻	-12.7231
柬	-12.7233
壌	-12.7233
紞	-12.7233
腑	-12.7234
痩	-12.7237
腊	-12.7241
磔	-12.7246
儺	-12.7248
砦	-12.7256
軏	-12.7265
瞎	-12.7285
攔	-12.7286
戱	-12.8586
呷	-12.8599
綳	-12.8599
显	-12.8599
溜	-12.8602
𬒳	-12.8602
芙	-12.8605
罐	-12.861
詵	-12.8611
剩	-12.8612
鋋	-12.8612
蔕	-12.8613
懃	-12.8614
跬	-12.8614
稌	-12.8614
鐄	-12.8614
剗	-12.8614
黛	-12.8614
漷	-12.8615
螳	-12.8615
鑣	-12.8616
臀	-12.8616
􁰖	-12.8616
檤	-12.8616
閶	-12.8616
峋	-12.8617
醤	-12.8617
櫜	-12.8617
悪	-12.8617
剝	-12.8618
甦	-12.862
莢	-12.862
黥	-12.862
笵	-12.8621
箬	-12.8622
慱	-12.8622
􁦣	-12.8622
𫀆	-12.8623
藳	-12.8623
熖	-12.8623
槃	-12.8624
橦	-12.8624
楣	-12.8624
剿	-12.8625
枲	-12.8625
墧	-12.8625
茁	-12.8626
鼂	-12.8626
涸	-12.8626
嶼	-12.8626
殪	-12.8626
禙	-12.8626
揔	-12.8626
酳	-12.8626
勰	-12.8626
洒	-12.8627
俶	-12.8627
窪	-12.8628
菓	-12.8629
甍	-12.8629
耨	-12.8629
拌	-12.8629
覯	-12.8629
佔	-12.863
昴	-12.8631
鐶	-12.8631
淩	-12.8631
盩	-12.8631
􁵽	-12.8632
吻	-12.8632
箧	-12.8632
窵	-12.8632
哄	-12.8633
盌	-12.8633
麞	-12.8633
蘖	-12.8634
珧	-12.8634
嶧	-12.8635
楙	-12.8635
澁	-12.8635
㦯	-12.8636
斨	-12.8636
袵	-12.8636
棊	-12.8636
髹	-12.8637
伾	-12.8638
蕡	-12.8638
遒	-12.8638
粢	-12.8639
璆	-12.864
倨	-12.864
翮	-12.8641
缶	-12.8641
飴	-12.8641
秃	-12.8641
赭	-12.8641
泐	-12.8642
賅	-12.8642
柚	-12.8642
嘲	-12.8642
柢	-12.8642
􁃻	-12.8642
炯	-12.8643
夹	-12.8643
踊	-12.8643
默	-12.8644
脞	-12.8644
塚	-12.8644
糙	-12.8644
拽	-12.8645
藐	-12.8646
杠	-12.8646
骳	-12.8646
嗤	-12.8646
与	-12.8646
槁	-12.8646
嫩	-12.8647
螣	-12.8647
羿	-12.8647
轢	-12.8647
卵	-12.8647
糟	-12.8647
讙	-12.8647
綢	-12.8648
龐	-12.8648
㺯	-12.8648
薺	-12.8649
蹂	-12.8649
瑚	-12.8649
蚕	-12.8649
烱	-12.8649
磧	-12.865
刹	-12.865
隗	-12.865
栅	-12.865
焞	-12.865
蒧	-12.865
廿	-12.865
旈	-12.865
眂	-12.865
禬	-12.8651
疽	-12.8651
刲	-12.8651
鏌	-12.8651
哺	-12.8652
瘳	-12.8652
戶	-12.8653
埭	-12.8653
腫	-12.8653
聾	-12.8654
鑼	-12.8655
鼗	-12.8655
桴	-12.8655
璐	-12.8656
鐍	-12.8656
翛	-12.8657
蕞	-12.8658
炊	-12.8658
茇	-12.8659
􁬀	-12.8659
湍	-12.8659
珎	-12.8659
姊	-12.8659
掉	-12.8659
孛	-12.866
趪	-12.8661
冤	-12.8661
􁂣	-12.8662
𥙿	-12.8663
搗	-12.8664
滙	-12.8665
胃	-12.8667
駔	-12.8668
忮	-12.8668
錬	-12.867
琨	-12.8671
郿	-12.8677
煃	-12.8679
澮	-12.868
紼	-12.8683
弇	-12.8685
囷	-13.0253
鶯	-13.0259
蹲	-13.0267
敲	-13.0268
懵	-13.027
齍	-13.0271
幵	-13.0273
酪	-13.0275
奩	-13.0276
揩	-13.0277
銃	-13.0279
巒	-13.0279
畸	-13.028
畵	-13.0281
惋	-13.0281
沱	-13.0281
淖	-13.0282
鷙	-13.0282
漓	-13.0283
矗	-13.0284
煨	-13.0284
麯	-13.0284
岌	-13.0285
􁈍	-13.0285
擿	-13.0285
您	-13.0285
柑	-13.0286
妍	-13.0286
邋	-13.0286
緦	-13.0289
攖	-13.0289
諝	-13.0289
献	-13.029
磴	-13.0291
貤	-13.0291
撝	-13.0291
甜	-13.0292
郛	-13.0292
祏	-13.0292
鞬	-13.0292
襠	-13.0292
繽	-13.0292
凂	-13.0293
糞	-13.0293
蓁	-13.0293
􁰋	-13.0293
楸	-13.0295
攫	-13.0295
棹	-13.0295
槧	-13.0295
蔞	-13.0296
禴	-13.0296
瓞	-13.0296
秸	-13.0297
鯈	-13.0297
葳	-13.0298
丼	-13.0298
塜	-13.0298
麂	-13.0299
杪	-13.0299
肌	-13.0299
腆	-13.0299
璹	-13.0299
艷	-13.0299
邍	-13.0299
勱	-13.03
泠	-13.03
臡	-13.03
攺	-13.03
麄	-13.03
䟎	-13.0301
儗	-13.0301
蓂	-13.0301
擦	-13.0301
紇	-13.0301
沌	-13.0301
鈁	-13.0301
楀	-13.0301
喘	-13.0302
爚	-13.0302
縊	-13.0302
搴	-13.0302
謭	-13.0302
湼	-13.0302
蒜	-13.0302
楎	-13.0303
媕	-13.0303
坏	-13.0303
揜	-13.0303
􁂻	-13.0304
摰	-13.0304
靑	-13.0304
玖	-13.0305
呻	-13.0305
擄	-13.0305
摸	-13.0305
糈	-13.0305
悝	-13.0306
阪	-13.0306
澍	-13.0306
綟	-13.0306
耜	-13.0307
飱	-13.0307
悶	-13.0307
駙	-13.0307
慥	-13.0307
㩀	-13.0308
瀼	-13.0308
耋	-13.0308
术	-13.0308
苻	-13.0308
湎	-13.0308
躅	-13.0309
亰	-13.031
蓐	-13.031
炮	-13.031
瞰	-13.0311
恚	-13.0311
滆	-13.0311
蕐	-13.0311
娯	-13.0312
壟	-13.0312
誚	-13.0312
賨	-13.0312
孀	-13.0312
澠	-13.0312
筩	-13.0313
矼	-13.0313
悵	-13.0313
袐	-13.0313
𬗟	-13.0313
鹻	-13.0313
蓀	-13.0314
坍	-13.0315
饟	-13.0315
軷	-13.0315
潑	-13.0315
崐	-13.0316
凳	-13.0316
斐	-13.0316
宕	-13.0316
諼	-13.0316
䌓	-13.0316
艦	-13.0316
褁	-13.0316
欖	-13.0316
怫	-13.0317
賒	-13.0317
鍉	-13.0317
懾	-13.0318
堧	-13.0318
昵	-13.0318
厘	-13.0318
澔	-13.0318
獐	-13.0319
娱	-13.0319
衺	-13.0319
鞮	-13.032
杉	-13.032
喙	-13.032
眎	-13.0321
蘂	-13.0323
琇	-13.0323
踣	-13.0323
酆	-13.0324
棧	-13.0324
梵	-13.0324
頖	-13.0326
匆	-13.0327
佟	-13.0327
䙆	-13.0327
剸	-13.0327
闍	-13.0328
曈	-13.0329
綖	-13.0329
箙	-13.0329
麀	-13.0329
虣	-13.0329
䍧	-13.0331
銕	-13.0331
頁	-13.0331
翅	-13.0332
値	-13.0332
捫	-13.0333
缷	-13.0334
瀟	-13.0335
頰	-13.0335
硝	-13.0336
瓮	-13.0339
箝	-13.0339
晃	-13.0343
犆	-13.0347
壷	-13.0349
琊	-13.0354
驌	-13.0367
煓	-13.0367
凹	-13.2253
灞	-13.2254
􁌁	-13.2256
媧	-13.2257
𤇺	-13.2259
龢	-13.2263
篩	-13.2263
卣	-13.2263
覷	-13.2264
棼	-13.2266
虯	-13.2267
臥	-13.2267
濼	-13.2271
秔	-13.2271
螗	-13.2271
插	-13.2275
鷖	-13.2275
鍇	-13.2275
摐	-13.2277
䄂	-13.2279
籹	-13.228
釵	-13.228
盼	-13.2282
𢷬	-13.2282
撑	-13.2282
騝	-13.2283
盭	-13.2284
瀣	-13.2285
鏑	-13.2285
踞	-13.2285
暏	-13.2286
抛	-13.2286
芑	-13.2286
醽	-13.2286
祾	-13.2287
旐	-13.2287
咮	-13.2288
挏	-13.2288
廙	-13.2289
鄣	-13.2289
珞	-13.2289
坰	-13.2289
糒	-13.2289
筞	-13.2289
嶸	-13.2289
霪	-13.229
堊	-13.229
鑛	-13.229
暐	-13.2291
酏	-13.2291
羯	-13.2291
􁋭	-13.2292
䥴	-13.2292
嚼	-13.2292
諴	-13.2292
磋	-13.2293
汔	-13.2293
瀉	-13.2293
燇	-13.2293
㝡	-13.2294
噪	-13.2294
㩁	-13.2295
揉	-13.2295
甿	-13.2295
轘	-13.2295
矚	-13.2295
鋏	-13.2295
玽	-13.2295
穣	-13.2296
䩺	-13.2296
浥	-13.2296
飶	-13.2296
飡	-13.2297
戅	-13.2297
禔	-13.2297
阨	-13.2297
儇	-13.2297
騮	-13.2297
悊	-13.2298
潄	-13.2298
濊	-13.2298
蔔	-13.2298
鮫	-13.2298
籛	-13.2299
纈	-13.2299
瞳	-13.2299
圅	-13.2299
祛	-13.2299
衊	-13.23
艫	-13.23
汩	-13.23
豉	-13.23
獬	-13.23
荏	-13.23
匄	-13.23
滏	-13.2301
玄	-13.2301
剉	-13.2301
彀	-13.2301
鄔	-13.2301
岫	-13.2302
瞑	-13.2302
諶	-13.2302
閃	-13.2302
皪	-13.2302
吃	-13.2303
懣	-13.2304
峭	-13.2304
洢	-13.2304
鐔	-13.2304
弨	-13.2304
幪	-13.2304
唘	-13.2305
鄊	-13.2305
緍	-13.2305
裊	-13.2305
􁜜	-13.2305
尢	-13.2305
噴	-13.2306
濰	-13.2306
埔	-13.2306
瑲	-13.2306
涌	-13.2306
迕	-13.2306
綻	-13.2307
琿	-13.2307
离	-13.2307
袛	-13.2307
瓠	-13.2307
坂	-13.2307
耉	-13.2308
仔	-13.2308
餻	-13.2308
䀋	-13.2308
埜	-13.2309
侫	-13.2309
跂	-13.2309
嫋	-13.2309
逌	-13.231
爇	-13.231
螽	-13.231
槎	-13.231
淅	-13.231
郾	-13.231
掎	-13.231
捃	-13.231
綈	-13.231
琉	-13.2311
妺	-13.2311
賍	-13.2311
咲	-13.2311
芘	-13.2311
睽	-13.2311
𢃄	-13.2312
体	-13.2312
碭	-13.2312
獞	-13.2313
䂎	-13.2313
万	-13.2313
桍	-13.2313
埶	-13.2313
榱	-13.2313
􁀐	-13.2313
莒	-13.2314
荻	-13.2314
騑	-13.2314
閼	-13.2314
氅	-13.2314
漾	-13.2314
趋	-13.2314
曖	-13.2314
笄	-13.2314
蜃	-13.2314
曁	-13.2315
翿	-13.2315
悰	-13.2315
湞	-13.2315
磷	-13.2315
旴	-13.2315
暱	-13.2315
樉	-13.2315
顚	-13.2315
㗖	-13.2316
昫	-13.2316
撞	-13.2317
虖	-13.2317
酎	-13.2317
􁧂	-13.2317
甓	-13.2318
鱻	-13.2318
諦	-13.2318
􁃽	-13.2318
溍	-13.2318
鹹	-13.2318
韡	-13.2318
􁦝	-13.2319
鳶	-13.2319
呌	-13.2319
徯	-13.2319
畛	-13.2319
鍛	-13.2319
髓	-13.2319
鏄	-13.2319
屩	-13.232
礫	-13.232
憊	-13.232
暠	-13.232
欬	-13.232
醪	-13.232
嚞	-13.232
佺	-13.2321
瑢	-13.2321
彂	-13.2322
洄	-13.2322
篦	-13.2322
弃	-13.2323
姨	-13.2323
鍔	-13.2323
瘝	-13.2323
隧	-13.2324
歹	-13.2324
淀	-13.2324
滓	-13.2325
湫	-13.2325
婪	-13.2325
䘙	-13.2325
嘶	-13.2325
搢	-13.2327
袠	-13.2327
𠞰	-13.2327
㡳	-13.2328
譟	-13.233
捱	-13.2331
剜	-13.2333
鶡	-13.2333
鬆	-13.2333
􁐔	-13.2333
彙	-13.2336
䃰	-13.2336
旜	-13.2338
窈	-13.2339
耑	-13.2339
狭	-13.2339
扑	-13.234
娠	-13.234
哆	-13.2341
柿	-13.2342
舩	-13.2345
扳	-13.2347
肜	-13.2347
懶	-13.2351
聃	-13.2352
猺	-13.2356
癉	-13.2356
粳	-13.2936
佘	-13.4715
䵼	-13.4717
迸	-13.4742
椓	-13.4746
芷	-13.4754
樟	-13.4754
筝	-13.4757
阼	-13.4758
犖	-13.4758
凄	-13.4758
晒	-13.476
欎	-13.4761
滬	-13.4761
􁲼	-13.4763
瓔	-13.4764
邙	-13.4765
苹	-13.4767
槱	-13.4769
胝	-13.4769
墺	-13.4769
殹	-13.477
磅	-13.4771
㸁	-13.4771
玭	-13.4771
賮	-13.4771
鬲	-13.4771
旼	-13.4772
轟	-13.4773
饍	-13.4773
襻	-13.4774
僇	-13.4774
庳	-13.4774
舫	-13.4774
楩	-13.4775
皴	-13.4775
菅	-13.4775
瀍	-13.4776
閆	-13.4776
霙	-13.4776
蜿	-13.4778
𥜗	-13.4778
篁	-13.4778
姫	-13.4779
贐	-13.4779
轆	-13.4779
澫	-13.4779
唫	-13.4781
喃	-13.4782
瓴	-13.4782
裱	-13.4783
剋	-13.4783
擷	-13.4783
辠	-13.4783
冑	-13.4783
瑺	-13.4783
辝	-13.4783
幬	-13.4783
􁞿	-13.4783
宙	-13.4784
脣	-13.4785
蹴	-13.4785
勔	-13.4785
娥	-13.4785
劓	-13.4786
檟	-13.4786
瞍	-13.4786
皃	-13.4786
柎	-13.4786
兑	-13.4787
褠	-13.4787
猳	-13.4788
褎	-13.4788
娟	-13.4788
旹	-13.4788
咽	-13.4788
螟	-13.4788
塹	-13.4789
鍭	-13.4789
彎	-13.4789
跛	-13.4789
嵓	-13.4789
攛	-13.4789
癡	-13.479
頹	-13.479
鎩	-13.4792
渚	-13.4792
嫚	-13.4792
眺	-13.4792
𡨕	-13.4792
杗	-13.4793
攣	-13.4793
疥	-13.4793
机	-13.4793
猴	-13.4793
髽	-13.4794
纖	-13.4794
檉	-13.4794
鏸	-13.4794
勩	-13.4794
灸	-13.4796
􁁷	-13.4796
凃	-13.4796
鎕	-13.4796
訇	-13.4797
颷	-13.4797
騄	-13.4797
墄	-13.4797
憬	-13.4797
餗	-13.4797
媮	-13.4797
僂	-13.4797
僵	-13.4799
炌	-13.4799
鞗	-13.4799
梡	-13.48
攴	-13.48
鋸	-13.48
廋	-13.48
曇	-13.48
漙	-13.48
慵	-13.4801
儹	-13.4801
刖	-13.4801
嬾	-13.4801
嶲	-13.4801
桎	-13.4801
弘	-13.4801
柭	-13.4801
汜	-13.4801
匯	-13.4802
檝	-13.4802
跽	-13.4803
厓	-13.4803
蘷	-13.4803
菉	-13.4803
逥	-13.4803
塏	-13.4803
􁁂	-13.4804
魴	-13.4804
襁	-13.4804
曍	-13.4804
淤	-13.4804
靉	-13.4804
寯	-13.4805
髫	-13.4805
禅	-13.4805
漶	-13.4806
䴡	-13.4806
隤	-13.4806
冓	-13.4807
釂	-13.4808
矮	-13.4808
堠	-13.4808
肸	-13.4808
遯	-13.4808
貰	-13.4808
喆	-13.4808
哮	-13.4808
騖	-13.4808
讟	-13.4808
鮒	-13.4808
鼈	-13.4808
佯	-13.481
惔	-13.481
怎	-13.481
咩	-13.481
琯	-13.481
䞇	-13.481
萭	-13.481
极	-13.481
璚	-13.4811
慫	-13.4811
炅	-13.4811
窳	-13.4811
楗	-13.4811
璂	-13.4812
鶱	-13.4812
勷	-13.4812
孱	-13.4814
曏	-13.4814
緄	-13.4814
栝	-13.4814
痺	-13.4814
梢	-13.4814
惨	-13.4815
攪	-13.4815
忙	-13.4815
􁇠	-13.4815
无	-13.4815
桄	-13.4815
麌	-13.4815
豸	-13.4816
恫	-13.4816
崗	-13.4816
蒯	-13.4817
哽	-13.4818
莩	-13.4818
玹	-13.4818
旉	-13.4818
畊	-13.4818
箆	-13.4818
啜	-13.4819
礎	-13.4821
䊸	-13.4821
偘	-13.4822
烖	-13.4822
瘢	-13.4822
撡	-13.4822
愾	-13.4822
醅	-13.4822
馡	-13.4822
猫	-13.4822
㵼	-13.4822
鄫	-13.4823
凊	-13.4823
磂	-13.4824
峡	-13.4824
腋	-13.4824
巇	-13.4825
巘	-13.4825
蜮	-13.4825
鑱	-13.4825
睡	-13.4826
郄	-13.4826
吒	-13.4826
囙	-13.4828
䆮	-13.4828
暌	-13.4828
榴	-13.4828
穽	-13.4829
卸	-13.4829
􁫼	-13.4829
􁱥	-13.4829
厩	-13.483
綷	-13.483
洸	-13.483
棌	-13.4831
暝	-13.4832
盲	-13.4832
坌	-13.4832
墅	-13.4833
坯	-13.4833
稗	-13.4833
换	-13.4833
􁝠	-13.4833
紒	-13.4833
褭	-13.4833
箐	-13.4835
虀	-13.4835
碞	-13.4835
裼	-13.4835
玲	-13.4835
刓	-13.4836
柅	-13.4836
榼	-13.4837
狙	-13.4837
貉	-13.4837
獺	-13.4837
濞	-13.4839
晤	-13.4839
纊	-13.4839
櫟	-13.484
烺	-13.484
簉	-13.484
蚡	-13.484
甑	-13.4842
瀦	-13.4842
靶	-13.4844
簭	-13.4844
􁀎	-13.4844
繢	-13.4846
誄	-13.4847
鄡	-13.4847
湊	-13.4847
貍	-13.4848
叭	-13.4849
轔	-13.485
瀑	-13.4851
雛	-13.4854
羖	-13.4854
桱	-13.4854
㶚	-13.4858
窆	-13.4862
謖	-13.4864
輜	-13.4872
畇	-13.4878
隍	-13.8046
睛	-13.8056
爝	-13.8057
哻	-13.806
螢	-13.8073
嫗	-13.8073
猩	-13.8077
曮	-13.8085
熳	-13.8085
酲	-13.8086
輀	-13.8087
嫠	-13.8088
疣	-13.8088
瀺	-13.809
淬	-13.8092
兌	-13.8092
鋩	-13.8092
􁕑	-13.8094
鷁	-13.8094
暵	-13.8094
肚	-13.8096
棡	-13.8096
慉	-13.8096
軛	-13.81
闖	-13.81
􁎦	-13.81
猿	-13.8102
窑	-13.8102
檦	-13.8102
惣	-13.8102
蕳	-13.8102
龡	-13.8104
燠	-13.8104
紉	-13.8104
胏	-13.8104
鄷	-13.8104
閌	-13.8104
笴	-13.8105
滉	-13.8106
徨	-13.8106
荇	-13.8106
䆃	-13.8106
􁧨	-13.8106
彯	-13.8108
盃	-13.8108
蝦	-13.8108
鐐	-13.811
奫	-13.811
綆	-13.8112
脆	-13.8112
堈	-13.8112
捎	-13.8112
卬	-13.8112
佖	-13.8113
甆	-13.8113
総	-13.8113
醸	-13.8114
㑭	-13.8114
茟	-13.8114
穠	-13.8115
腸	-13.8115
趩	-13.8115
苒	-13.8115
稂	-13.8117
䥥	-13.8117
孑	-13.8117
輗	-13.8117
穂	-13.8117
淞	-13.8117
􁎾	-13.8117
􁨺	-13.8117
犴	-13.8119
梏	-13.8119
幻	-13.8119
砍	-13.8119
霦	-13.812
剷	-13.8121
羇	-13.8121
踢	-13.8121
屇	-13.8121
臠	-13.8121
龠	-13.8121
缾	-13.8121
􁋆	-13.8121
䁥	-13.8121
䎖	-13.8121
䢱	-13.8121
噠	-13.8121
婣	-13.8121
嵫	-13.8121
瀹	-13.8121
鎚	-13.8123
薤	-13.8123
㥄	-13.8123
􁉭	-13.8123
􁒐	-13.8123
缿	-13.8125
鄹	-13.8125
鄺	-13.8125
甖	-13.8125
箾	-13.8125
詼	-13.8125
塒	-13.8125
獒	-13.8125
􁂎	-13.8125
澐	-13.8126
飜	-13.8127
㝅	-13.8127
噤	-13.8127
陥	-13.8127
筌	-13.8127
趯	-13.8127
踖	-13.8127
屨	-13.8127
栟	-13.8127
症	-13.8127
鋚	-13.8127
氍	-13.8129
埤	-13.8129
㳄	-13.8129
綃	-13.8129
豨	-13.8129
焄	-13.8129
砧	-13.8129
鶩	-13.8129
䂍	-13.8129
譊	-13.8129
砰	-13.8131
􁌫	-13.8131
娎	-13.8131
㻞	-13.8131
橡	-13.8133
䆫	-13.8133
彧	-13.8133
灧	-13.8133
萹	-13.8133
羶	-13.8133
毡	-13.8133
騣	-13.8133
矅	-13.8134
鷗	-13.8135
櫂	-13.8135
芄	-13.8135
刅	-13.8135
崛	-13.8135
悴	-13.8135
曔	-13.8135
獷	-13.8135
㳫	-13.8135
䆳	-13.8135
刳	-13.8135
嗷	-13.8135
棓	-13.8135
瀧	-13.8135
玒	-13.8135
疷	-13.8135
窯	-13.8135
灶	-13.8137
碓	-13.8137
囏	-13.8137
蒨	-13.8137
焌	-13.8137
偝	-13.8137
广	-13.8137
晬	-13.8137
芊	-13.8137
駪	-13.8137
齧	-13.8137
甈	-13.8137
薙	-13.8137
裭	-13.8137
鼊	-13.8137
䜴	-13.8138
睇	-13.8138
駛	-13.8138
閴	-13.8138
蚌	-13.8139
踧	-13.8139
􁋌	-13.8139
澨	-13.8139
㾗	-13.8139
裸	-13.8139
秪	-13.8139
硌	-13.8139
腎	-13.8139
营	-13.8139
匳	-13.8139
媺	-13.8139
朓	-13.8139
笲	-13.8139
雑	-13.814
咻	-13.814
暈	-13.814
矰	-13.814
侏	-13.814
䏈	-13.8141
郟	-13.8141
䓁	-13.8141
漎	-13.8141
稲	-13.8141
􁁄	-13.8141
沠	-13.8141
鈆	-13.8141
筤	-13.8141
珫	-13.8142
骩	-13.8142
児	-13.8142
胾	-13.8142
􁰢	-13.8142
酴	-13.8142
嶔	-13.8142
冋	-13.8142
櫬	-13.8142
肈	-13.8142
莋	-13.8142
蹔	-13.8142
殂	-13.8143
鬛	-13.8144
咤	-13.8144
遝	-13.8144
茀	-13.8144
釪	-13.8144
䆠	-13.8144
腥	-13.8144
􁅩	-13.8144
塢	-13.8144
蒂	-13.8144
眊	-13.8144
礽	-13.8144
襃	-13.8144
霝	-13.8144
嗚	-13.8145
厖	-13.8145
异	-13.8146
帗	-13.8146
鎸	-13.8146
鄼	-13.8146
鏵	-13.8146
鵔	-13.8146
橈	-13.8146
玅	-13.8146
腳	-13.8146
㓛	-13.8146
湄	-13.8146
鋄	-13.8146
鋜	-13.8146
櫿	-13.8147
帔	-13.8148
芋	-13.8148
樑	-13.8148
郜	-13.8148
曛	-13.8148
鶄	-13.8148
町	-13.8148
􁐍	-13.8148
苧	-13.8148
鬂	-13.8148
䆅	-13.8148
榘	-13.8148
啗	-13.8148
癰	-13.8148
􁄵	-13.8148
埈	-13.8149
贜	-13.815
殍	-13.815
糲	-13.815
剮	-13.815
睂	-13.815
璈	-13.815
脛	-13.815
顕	-13.815
餤	-13.815
矞	-13.815
齕	-13.815
祸	-13.8152
帆	-13.8152
咀	-13.8152
薶	-13.8152
餵	-13.8152
搉	-13.8152
晢	-13.8153
雊	-13.8154
詧	-13.8154
妒	-13.8154
儳	-13.8154
熨	-13.8154
鼙	-13.8154
塈	-13.8155
樾	-13.8155
闓	-13.8155
晹	-13.8156
闞	-13.8156
靸	-13.8156
傋	-13.8156
叫	-13.8156
綝	-13.8156
䓻	-13.8156
灃	-13.8156
褆	-13.8156
􁄧	-13.8156
珊	-13.8157
巔	-13.8158
扱	-13.8158
婀	-13.8158
媟	-13.8158
昐	-13.8158
瞬	-13.8158
徔	-13.8158
尓	-13.8158
慴	-13.8158
薌	-13.8158
驃	-13.8158
軿	-13.816
怍	-13.816
獎	-13.816
褂	-13.816
貙	-13.816
懟	-13.816
醞	-13.816
鑕	-13.8162
瑠	-13.8162
遨	-13.8162
栒	-13.8162
鋠	-13.8162
玕	-13.8164
僔	-13.8164
眦	-13.8164
鶬	-13.8164
偫	-13.8164
襗	-13.8164
榔	-13.8164
渑	-13.8164
薧	-13.8166
庒	-13.8166
鱉	-13.8166
㴻	-13.8166
迢	-13.8166
澡	-13.8166
毼	-13.8166
皦	-13.8166
劼	-13.8167
㘴	-13.8167
骲	-13.8167
灊	-13.8168
趲	-13.8169
謩	-13.8169
脤	-13.8169
葸	-13.8169
桁	-13.8171
狷	-13.8171
髯	-13.8171
嶢	-13.8171
膩	-13.8173
㢮	-13.8173
萐	-13.8174
聒	-13.8175
憝	-13.8175
罅	-13.8177
朧	-13.8177
廥	-13.8177
袓	-13.8179
劃	-13.8181
稳	-13.8181
肻	-13.8181
勻	-13.8183
飈	-13.8185
揷	-13.8185
􁫭	-13.8185
孶	-13.8187
銚	-13.8187
縶	-13.8187
穩	-13.8189
崤	-13.8189
醵	-13.8189
皜	-13.8191
芃	-13.8191
覓	-13.8192
戻	-13.8193
泫	-13.8193
疹	-13.8193
尃	-13.8194
橔	-13.8195
憒	-13.8198
籓	-13.82
嘴	-13.8202
楛	-13.821
旊	-13.8214
嘛	-13.8215
骰	-13.8229
珓	-13.8233
爉	-13.8245
熠	-14.2934
籯	-14.2974
蔌	-14.3015
忡	-14.3022
寏	-14.304
苕	-14.3043
赬	-14.305
媽	-14.3056
檣	-14.3056
峝	-14.3059
䲭	-14.3066
莧	-14.3066
斀	-14.3072
嶈	-14.3075
㡛	-14.3078
凈	-14.3078
弸	-14.3078
蠹	-14.3081
磯	-14.3081
嗔	-14.3081
蘅	-14.3081
薅	-14.3084
㞼	-14.3084
呫	-14.3084
罌	-14.3087
蜩	-14.3088
羢	-14.3088
潾	-14.3088
癭	-14.3091
舗	-14.3094
禊	-14.3097
釦	-14.3097
淊	-14.3097
洹	-14.3097
惬	-14.3097
歘	-14.3097
浃	-14.3097
玀	-14.3097
稭	-14.3097
蚊	-14.3097
璔	-14.31
渟	-14.31
諲	-14.31
秫	-14.31
瑝	-14.31
蚍	-14.31
琲	-14.31
蹻	-14.31
醿	-14.31
涴	-14.3103
舸	-14.3103
呴	-14.3103
襮	-14.3103
汕	-14.3103
跕	-14.3103
俻	-14.3106
蹋	-14.3106
蹉	-14.3106
偈	-14.3106
塍	-14.3106
弣	-14.3106
綄	-14.3106
纕	-14.3106
寭	-14.3106
㪍	-14.3106
捏	-14.3106
鈸	-14.3106
虫	-14.3109
䠞	-14.3109
媢	-14.3109
淙	-14.311
刈	-14.311
弥	-14.311
捋	-14.311
欿	-14.311
潺	-14.311
蛙	-14.311
棢	-14.3113
蘗	-14.3113
蹊	-14.3113
踝	-14.3113
琱	-14.3113
綀	-14.3113
嘔	-14.3113
噍	-14.3113
幞	-14.3114
鎛	-14.3115
哦	-14.3116
痍	-14.3116
皛	-14.3116
廽	-14.3116
腕	-14.3116
偓	-14.3116
姤	-14.3116
媪	-14.3116
撇	-14.3116
炸	-14.3116
籟	-14.3116
豲	-14.3119
扒	-14.3119
粻	-14.3119
塀	-14.3119
磊	-14.3119
揲	-14.3119
嵉	-14.3119
慗	-14.3119
溲	-14.3122
糉	-14.3122
荂	-14.3122
漭	-14.3122
㱕	-14.3122
橛	-14.3122
擱	-14.3122
沍	-14.3122
胗	-14.3122
䏠	-14.3122
勗	-14.3122
檎	-14.3122
羉	-14.3122
恧	-14.3123
㯋	-14.3125
傒	-14.3125
簍	-14.3125
銙	-14.3125
㟁	-14.3125
匵	-14.3125
愞	-14.3125
抝	-14.3125
昝	-14.3125
疉	-14.3125
誶	-14.3125
郗	-14.3125
臑	-14.3127
臮	-14.3128
訹	-14.3128
澉	-14.3128
笠	-14.3128
䢴	-14.3128
罨	-14.3128
蘉	-14.3128
蹐	-14.3128
䦌	-14.3128
丰	-14.3128
吮	-14.3128
椰	-14.3128
炱	-14.3128
确	-14.3128
粼	-14.3128
菆	-14.3128
贗	-14.3128
棋	-14.3131
壂	-14.3132
屣	-14.3132
痒	-14.3132
衜	-14.3132
眤	-14.3132
惱	-14.3132
栭	-14.3132
簀	-14.3132
㬌	-14.3132
㯱	-14.3132
廑	-14.3132
欶	-14.3132
痢	-14.3132
睟	-14.3132
胔	-14.3132
萋	-14.3132
逯	-14.3133
鷂	-14.3134
戣	-14.3135
硠	-14.3135
赧	-14.3135
嚙	-14.3135
很	-14.3135
縰	-14.3135
㩦	-14.3135
偪	-14.3135
嘅	-14.3135
泒	-14.3135
溘	-14.3135
溼	-14.3135
睫	-14.3135
硜	-14.3135
艇	-14.3135
蝶	-14.3135
鋹	-14.3135
曕	-14.3137
渫	-14.3138
熝	-14.3138
紖	-14.3138
嗛	-14.3138
枌	-14.3138
熇	-14.3138
篝	-14.3138
䔧	-14.3138
嘒	-14.3138
媠	-14.3138
怳	-14.3138
痾	-14.3138
虵	-14.3138
遫	-14.3139
䮯	-14.314
圴	-14.314
窕	-14.3141
㮣	-14.3141
玫	-14.3141
踉	-14.3141
鈏	-14.3141
劀	-14.3141
臟	-14.3141
蛾	-14.3141
䓿	-14.3141
姍	-14.3141
嬀	-14.3141
蝎	-14.3141
釅	-14.3141
孃	-14.3141
玢	-14.3141
籈	-14.3141
諐	-14.3141
辤	-14.3141
椶	-14.3142
纜	-14.3143
胳	-14.3143
衟	-14.3143
蝟	-14.3144
㴠	-14.3144
伱	-14.3144
嚥	-14.3144
肋	-14.3144
鉏	-14.3144
斕	-14.3144
柈	-14.3144
䮺	-14.3144
旵	-14.3144
瞶	-14.3144
佪	-14.3146
疃	-14.3146
癿	-14.3147
堕	-14.3147
攟	-14.3147
瘧	-14.3147
皐	-14.3147
䒪	-14.3147
兜	-14.3147
吼	-14.3147
懔	-14.3147
汹	-14.3147
浞	-14.3147
淯	-14.3147
瑈	-14.3147
詾	-14.3147
赳	-14.3147
鈛	-14.3147
嘘	-14.315
秖	-14.315
邅	-14.315
訌	-14.315
汸	-14.315
礲	-14.315
刎	-14.315
埱	-14.315
槅	-14.315
氶	-14.315
爌	-14.315
劻	-14.3151
喑	-14.3151
寍	-14.3151
弈	-14.3151
斸	-14.3151
旲	-14.3151
泟	-14.3151
叓	-14.3152
岔	-14.3154
蝸	-14.3154
瘵	-14.3154
懴	-14.3154
㮿	-14.3154
奶	-14.3154
嶇	-14.3154
扮	-14.3154
樲	-14.3154
䟏	-14.3154
柁	-14.3154
磤	-14.3154
輷	-14.3154
醺	-14.3154
濘	-14.3157
皱	-14.3157
裲	-14.3157
栺	-14.3157
泪	-14.3157
撘	-14.3157
?	-14.3157
洧	-14.3157
燙	-14.3157
漉	-14.316
旟	-14.316
枹	-14.316
谽	-14.316
幛	-14.316
擐	-14.316
隼	-14.316
罻	-14.316
諰	-14.316
蹡	-14.316
圩	-14.3163
樺	-14.3163
筏	-14.3163
簞	-14.3163
瓢	-14.3163
蚺	-14.3163
噂	-14.3163
旤	-14.3163
掬	-14.3163
怖	-14.3166
烘	-14.3166
傜	-14.3166
菟	-14.3166
藟	-14.3166
襺	-14.3166
慷	-14.3169
櫓	-14.3169
蛤	-14.3169
桮	-14.3169
聵	-14.3169
膾	-14.3169
墯	-14.3169
茆	-14.3169
痟	-14.3169
胊	-14.317
伙	-14.3172
埓	-14.3173
聁	-14.3173
䘚	-14.3173
开	-14.3173
蓺	-14.3173
媯	-14.3173
幎	-14.3173
怱	-14.3173
尔	-14.3176
躓	-14.3176
卝	-14.3176
舃	-14.3176
䙫	-14.3176
屺	-14.3176
丱	-14.3176
苓	-14.3176
熛	-14.3176
堙	-14.3176
錐	-14.3176
搒	-14.3179
朒	-14.3179
楧	-14.3179
蘸	-14.3179
竁	-14.3179
巗	-14.3179
旿	-14.3179
鉠	-14.3179
敚	-14.318
硎	-14.3182
㷀	-14.3182
祟	-14.3182
戟	-14.3185
咍	-14.3185
噉	-14.3185
穄	-14.3188
羝	-14.3188
埛	-14.3188
玦	-14.3191
蹏	-14.3191
䛇	-14.3191
枵	-14.3191
邨	-14.3191
廌	-14.3195
躊	-14.3195
萑	-14.3197
迾	-14.3198
觝	-14.3198
苪	-14.3198
畺	-14.3198
茯	-14.3198
綅	-14.3201
狉	-14.3201
挻	-14.3204
幨	-14.3207
暕	-14.3207
柙	-14.321
晧	-14.3214
篡	-14.3223
踆	-14.3223
冞	-14.3226
穸	-14.3229
喔	-14.3229
濺	-14.3232
窀	-14.3232
踽	-14.3232
罟	-14.3235
礥	-14.3236
萎	-14.3239
韗	-14.3245
䴊	-14.3264
嚬	-14.3273
鍑	-15.2599
錓	-15.26
鈵	-15.2601
醎	-15.2602
酅	-15.2603
酃	-15.2604
鄄	-15.2605
遛	-15.2606
迮	-15.2607
轤	-15.2608
轕	-15.2609
轇	-15.261
輾	-15.2611
輶	-15.2612
輭	-15.2613
輂	-15.2614
蹎	-15.2615
赩	-15.2616
贔	-15.2617
覼	-15.2618
襕	-15.2619
褓	-15.262
裯	-15.2621
袢	-15.2622
衽	-15.2623
蠺	-15.2624
蠙	-15.2625
蠆	-15.2626
蟣	-15.2627
蟋	-15.2628
蟀	-15.2629
蝨	-15.263
蝀	-15.2631
蜒	-15.2632
蜈	-15.2633
蛒	-15.2634
蚣	-15.2635
蚋	-15.2636
藨	-15.2637
薹	-15.2638
蔆	-15.2639
蒺	-15.264
葇	-15.2641
葄	-15.2642
荈	-15.2643
茌	-15.2644
膫	-15.2645
腠	-15.2646
脿	-15.2647
肹	-15.2648
聡	-15.2649
耔	-15.265
翃	-15.2651
罼	-15.2652
絣	-15.2653
糭	-15.2654
糨	-15.2655
糅	-15.2656
籰	-15.2657
篳	-15.2658
稾	-15.2659
禖	-15.266
碯	-15.2661
硼	-15.2662
睚	-15.2663
癢	-15.2664
瘐	-15.2665
畣	-15.2666
畒	-15.2667
琠	-15.2668
琔	-15.2669
珖	-15.267
玟	-15.2671
獼	-15.2672
獪	-15.2673
猻	-15.2674
猞	-15.2675
猇	-15.2676
猁	-15.2677
狴	-15.2678
牸	-15.2679
牯	-15.268
爆	-15.2681
燹	-15.2682
熿	-15.2683
熯	-15.2684
煝	-15.2685
烇	-15.2686
灔	-15.2687
瀷	-15.2688
濎	-15.2689
澢	-15.269
澘	-15.2691
澌	-15.2692
潡	-15.2693
潠	-15.2694
溽	-15.2695
渶	-15.2696
淟	-15.2697
淝	-15.2698
涑	-15.2699
涊	-15.27
浿	-15.2701
浰	-15.2702
泑	-15.2703
沲	-15.2704
沇	-15.2705
欓	-15.2706
櫏	-15.2707
檮	-15.2708
橒	-15.2709
樛	-15.271
榨	-15.2711
楑	-15.2712
椗	-15.2713
椋	-15.2714
椆	-15.2715
棃	-15.2716
梀	-15.2717
栩	-15.2718
枇	-15.2719
杷	-15.272
杬	-15.2721
杋	-15.2722
昷	-15.2723
旞	-15.2724
撟	-15.2725
搯	-15.2726
搠	-15.2727
捂	-15.2728
挰	-15.2729
抳	-15.273
扯	-15.2731
戄	-15.2732
憔	-15.2733
慜	-15.2734
慂	-15.2735
惺	-15.2736
惸	-15.2737
忬	-15.2738
徜	-15.2739
徉	-15.274
幧	-15.2741
巏	-15.2742
嶓	-15.2743
嵎	-15.2744
嵊	-15.2745
崦	-15.2746
崘	-15.2747
岨	-15.2748
屭	-15.2749
寠	-15.275
婭	-15.2751
婕	-15.2752
娙	-15.2753
壳	-15.2754
壠	-15.2755
壕	-15.2756
塠	-15.2757
塝	-15.2758
塛	-15.2759
堸	-15.276
埵	-15.2761
垙	-15.2762
垈	-15.2763
圮	-15.2764
囐	-15.2765
嚈	-15.2766
嘈	-15.2767
哂	-15.2768
咬	-15.2769
凙	-15.277
儛	-15.2771
偲	-15.2772
倕	-15.2773
倏	-15.2774
倆	-15.2775
佉	-15.2776
丫	-15.2777
个	-15.2778
䥍	-15.2779
䣕	-15.278
䢿	-15.2781
䑴	-15.2782
䑃	-15.2783
䌨	-15.2784
䊦	-15.2785
㸅	-15.2786
㶑	-15.2787
㲈	-15.2788
㭓	-15.2789
㭄	-15.279
㦕	-15.2791
㠓	-15.2792
㙕	-15.2793
􁇥	-15.2794
𨕖	-15.2795
𦍕	-15.2796
鷴	-15.2797
鷥	-15.2798
鵪	-15.2799
骼	-15.28
骫	-15.2801
驎	-15.2802
騼	-15.2803
騋	-15.2804
馧	-15.2805
颶	-15.2806
鑉	-15.2807
鏴	-15.2808
鍮	-15.2809
錍	-15.281
鉸	-15.2811
鉙	-15.2812
鉆	-15.2813
醍	-15.2814
邐	-15.2815
逶	-15.2816
轜	-15.2817
躪	-15.2818
贋	-15.2819
諟	-15.282
詄	-15.2821
螻	-15.2822
蘽	-15.2823
蓿	-15.2824
蓰	-15.2825
蓯	-15.2826
蓏	-15.2827
葠	-15.2828
菻	-15.2829
苜	-15.283
臉	-15.2831
罳	-15.2832
緱	-15.2833
絏	-15.2834
絍	-15.2835
紝	-15.2836
粕	-15.2837
粆	-15.2838
筲	-15.2839
窿	-15.284
窬	-15.2841
秕	-15.2842
祊	-15.2843
砫	-15.2844
瞅	-15.2845
睥	-15.2846
盬	-15.2847
癃	-15.2848
瘥	-15.2849
瘟	-15.285
疢	-15.2851
瓈	-15.2852
瑵	-15.2853
珅	-15.2854
濚	-15.2855
澀	-15.2856
潚	-15.2857
潓	-15.2858
漋	-15.2859
滹	-15.286
湂	-15.2861
淜	-15.2862
洅	-15.2863
沕	-15.2864
櫽	-15.2865
橇	-15.2866
槲	-15.2867
槣	-15.2868
榿	-15.2869
椇	-15.287
桗	-15.2871
朅	-15.2872
昖	-15.2873
旖	-15.2874
旎	-15.2875
摳	-15.2876
捭	-15.2877
愀	-15.2878
彖	-15.2879
嶍	-15.288
嵕	-15.2881
崞	-15.2882
峼	-15.2883
寞	-15.2884
墭	-15.2885
塎	-15.2886
瞠	-15.2887
垽	-15.2887
垉	-15.2888
坳	-15.2889
噌	-15.289
咆	-15.2891
吰	-15.2892
匍	-15.2893
刊	-15.2894
侲	-15.2895
仵	-15.2896
䯻	-15.2897
䮷	-15.2898
㙷	-15.2899
􁊚	-15.29
𣅿	-15.2901
齷	-15.2902
鹺	-15.2903
鱖	-15.2904
鱏	-15.2905
鰣	-15.2906
鰉	-15.2907
鯽	-15.2908
魌	-15.2909
頠	-15.291
韐	-15.2911
鞲	-15.2912
鞈	-15.2913
鞄	-15.2914
鑁	-15.2915
鐰	-15.2916
鍷	-15.2917
鋼	-15.2918
譸	-15.2919
觺	-15.292
褖	-15.2921
蛋	-15.2922
蘩	-15.2923
蒭	-15.2924
菠	-15.2925
舳	-15.2926
肢	-15.2927
翯	-15.2928
緲	-15.2929
綫	-15.293
粽	-15.2931
粛	-15.2932
禨	-15.2933
礴	-15.2934
礓	-15.2935
矻	-15.2936
矱	-15.2937
皤	-15.2938
狽	-15.2939
犍	-15.294
牱	-15.2941
爀	-15.2942
熡	-15.2943
烚	-15.2944
炩	-15.2945
滽	-15.2946
渢	-15.2947
渌	-15.2948
涙	-15.2949
涍	-15.295
氳	-15.2951
櫕	-15.2952
檴	-15.2953
梐	-15.2954
枑	-15.2955
曨	-15.2956
敱	-15.2957
攃	-15.2958
撕	-15.2959
憮	-15.296
惪	-15.2961
悻	-15.2962
怦	-15.2963
巋	-15.2964
巉	-15.2965
嶤	-15.2966
嵯	-15.2967
宬	-15.2968
娓	-15.2969
墱	-15.297
嚷	-15.2971
嚳	-15.2972
喟	-15.2973
喋	-15.2974
啐	-15.2975
劈	-15.2976
䥯	-15.2977
䥩	-15.2978
䤧	-15.2979
䙉	-15.298
㷿	-15.2981
㶷	-15.2982
㘭	-15.2983
黈	-15.2984
鯿	-15.2985
魫	-15.2986
魑	-15.2987
騠	-15.2988
駃	-15.2989
頏	-15.299
鋡	-15.2991
釳	-15.2992
譓	-15.2993
褕	-15.2994
蝻	-15.2995
蜷	-15.2996
臍	-15.2997
臁	-15.2998
糢	-15.2999
筸	-15.3
磾	-15.3001
癱	-15.3002
牾	-15.3003
牴	-15.3004
牁	-15.3005
爹	-15.3006
烶	-15.3007
滻	-15.3008
滸	-15.3009
橏	-15.301
椸	-15.3011
柞	-15.3012
柃	-15.3013
撈	-15.3014
扢	-15.3015
弆	-15.3016
帡	-15.3017
岧	-15.3018
嫄	-15.3019
堇	-15.302
唃	-15.3021
浤	-15.3021
厫	-15.3022
匐	-15.3023
僨	-15.3024
㫻	-15.3025
㙉	-15.3026
駉	-15.3027
闟	-15.3028
鋉	-15.3029
鉷	-15.303
鉍	-15.3031
逗	-15.3032
輊	-15.3033
蹬	-15.3034
跗	-15.3035
衖	-15.3036
蠁	-15.3037
罘	-15.3038
絘	-15.3039
紲	-15.304
瑫	-15.3041
玻	-15.3042
煡	-15.3043
焲	-15.3044
灂	-15.3045
渣	-15.3046
錚	-15.3047
泱	-15.3047
泙	-15.3048
樚	-15.3049
棉	-15.305
栘	-15.3051
搔	-15.3052
拶	-15.3053
嶪	-15.3054
崆	-15.3055
媫	-15.3056
嚀	-15.3057
嘽	-15.3058
叮	-15.3059
匃	-15.306
䥏	-15.3061
㶁	-15.3062
篷	-15.3063
𠻳	-15.3063
齪	-15.3064
齨	-15.3065
鼖	-15.3066
鸂	-15.3067
餮	-15.3068
韺	-15.3069
雘	-15.307
陝	-15.3071
陘	-15.3072
阽	-15.3073
鈃	-15.3074
逍	-15.3075
蹁	-15.3076
貔	-15.3077
蝌	-15.3078
薔	-15.3079
蕋	-15.308
蔲	-15.3081
蔗	-15.3082
羚	-15.3083
糍	-15.3084
禝	-15.3085
爁	-15.3086
僾	-15.3087
澯	-15.3087
滲	-15.3088
淸	-15.3089
櫸	-15.309
橚	-15.3091
嶁	-15.3092
岢	-15.3093
厔	-15.3094
匕	-15.3095
㮁	-15.3096
齬	-15.3097
齟	-15.3098
颯	-15.3099
霨	-15.31
邾	-15.3101
詖	-15.3102
襞	-15.3103
袈	-15.3104
芍	-15.3105
稑	-15.3106
璝	-15.3107
玎	-15.3108
犠	-15.3109
犛	-15.311
潣	-15.3111
漖	-15.3112
槏	-15.3113
曬	-15.3114
撙	-15.3115
墠	-15.3116
堉	-15.3117
嘩	-15.3118
㭿	-15.3119
鸚	-15.312
鵡	-15.3121
驘	-15.3122
顙	-15.3123
鞵	-15.3124
靨	-15.3125
鍨	-15.3126
輳	-15.3127
茜	-15.3128
臙	-15.3129
縲	-15.313
畹	-15.3131
珈	-15.3132
玁	-15.3133
炞	-15.3134
蟊	-15.3135
昀	-15.3135
檯	-15.3135
樻	-15.3136
摽	-15.3137
慇	-15.3138
愊	-15.3139
徘	-15.314
埢	-15.3141
垿	-15.3142
僥	-15.3143
嚇	-15.3143
倌	-15.3144
黽	-15.3145
觜	-15.3146
衚	-15.3147
苣	-15.3148
眙	-15.3149
琵	-15.315
琚	-15.3151
潩	-15.3152
榕	-15.3153
喁	-15.3154
騊	-15.3155
饕	-15.3156
雎	-15.3157
鎏	-15.3158
稡	-15.3159
躚	-15.3159
裟	-15.316
葡	-15.3161
焬	-15.3162
烊	-15.3163
彔	-15.3164
墡	-15.3165
鴦	-15.3166
闒	-15.3167
砲	-15.3168
瑭	-15.3169
曆	-15.317
妤	-15.3171
圄	-15.3172
囹	-15.3173
喤	-15.3174
剴	-15.3175
邽	-15.3176
脗	-15.3177
氁	-15.3178
掆	-15.3179
戧	-15.318
韃	-15.3181
緅	-15.3182
硫	-15.3183
烷	-15.3184
洫	-15.3185
愴	-15.3186
怏	-15.3187
胉	-15.3188
徊	-15.3189
儧	-15.319
鼕	-15.3191
瘼	-15.3192
彿	-15.3193
喂	-15.3194
輴	-15.3195
觱	-15.3196
萄	-15.3197
翡	-15.3198
煠	-15.3199
挲	-15.32
瑙	-15.3201
氌	-15.3202
氆	-15.3203
僰	-15.3204
鄱	-15.3205
腵	-15.3206
篥	-15.3207
堿	-15.3208
雌	-15.3209
蠕	-15.321
綼	-15.3211
儂	-15.3212
䚢	-15.3213
牷	-15.3214
鰝	-15.3215
埨	-15.3216
茴	-15.3217
紜	-15.3218
氤	-15.3219
梔	-15.322
鮓	-15.3221
溧	-15.3222
侂	-15.3223
鍍	-15.3224
描	-15.3225
惓	-15.3226
驊	-15.3227
朦	-15.3228
饅	-15.3229
匈	-15.323
侐	-15.3231
喀	-15.3231
