<unk>	0
<s>	0
</s>	0
。	-2.38734
,	-3.26725
、	-4.69111
者	-4.70646
故	-4.8561
▁	-4.89801
也	-4.9572
為	-5.24279
*	-5.25398
之	-5.33404
以	-5.36161
是	-5.41423
有	-5.41757
佛	-5.43361
無	-5.48583
二	-5.51921
於	-5.52386
(	-5.52769
)	-5.55221
不	-5.55431
法	-5.60123
此	-5.62499
;	-5.63249
如	-5.65162
即	-5.677
心	-5.68846
中	-5.68868
若	-5.71524
而	-5.72117
相	-5.75622
生	-5.76708
行	-5.80828
一	-5.81134
名	-5.88625
等	-5.8999
非	-5.91883
三	-5.9348
菩薩	-5.93813
!	-5.94598
謂	-5.97066
說	-5.98522
得	-5.98858
見	-6.00391
言	-6.02933
:「	-6.04696
人	-6.06255
其	-6.06393
彼	-6.09166
身	-6.13564
如是	-6.14697
則	-6.15636
明	-6.16909
一切	-6.20085
及	-6.2187
如來	-6.23222
?	-6.25008
時	-6.25193
諸	-6.28793
大	-6.2989
義	-6.31746
觀	-6.32621
眾生	-6.33555
我	-6.34576
四	-6.35642
經	-6.35982
下	-6.37734
所	-6.37745
因	-6.38394
皆	-6.39434
智	-6.39493
自	-6.42096
。」	-6.44133
云	-6.44729
▁南无	-6.46541
亦	-6.47387
從	-6.49545
至	-6.51713
意	-6.52435
入	-6.52623
空	-6.52674
上	-6.52831
起	-6.53484
與	-6.54083
。】「	-6.54496
處	-6.56395
已	-6.57715
常	-6.5781
知	-6.59512
作	-6.59872
事	-6.60431
離	-6.60942
今	-6.61792
能	-6.624
初	-6.62689
性	-6.64277
道	-6.64568
。「	-6.65931
又	-6.66064
問	-6.66079
後	-6.66744
世尊	-6.6741
成	-6.69938
在	-6.70189
善	-6.72375
欲	-6.73899
當	-6.75573
住	-6.7613
受	-6.76597
。」【	-6.77219
前	-6.77337
滅	-6.78162
修	-6.79399
依	-6.79995
分別	-6.80265
或	-6.82834
本	-6.83796
天	-6.8415
出	-6.84279
五	-6.84488
云何	-6.84525
應	-6.84833
令	-6.84951
現	-6.85003
眾	-6.85303
色	-6.87025
清淨	-6.87098
樂	-6.87517
多	-6.88076
覺	-6.88157
王	-6.88224
淨	-6.885
教	-6.88865
地	-6.8941
然	-6.89604
果	-6.89997
通	-6.90544
同	-6.9106
識	-6.91814
即是	-6.92823
緣	-6.93732
釋	-6.93842
􂏥	-6.9495
既	-6.96063
由	-6.9703
念	-6.97946
解	-6.98231
大慧	-6.98462
曰	-6.98588
隨	-7.008
正	-7.01422
復	-7.02339
勝	-7.03433
定	-7.03957
雖	-7.06353
但	-7.06737
用	-7.07346
體	-7.08281
苦	-7.08406
顯	-7.08775
種種	-7.09149
斷	-7.09196
盡	-7.1005
無量	-7.10148
具	-7.11083
證	-7.11295
涅槃	-7.1164
論	-7.11826
分	-7.12041
方便	-7.12046
名為	-7.12319
別	-7.12894
慧	-7.12974
耶	-7.13061
功德	-7.13115
次	-7.13508
可	-7.13565
理	-7.14017
聞	-7.14399
想	-7.14848
無有	-7.15065
答	-7.15094
解脫	-7.15273
巳	-7.15334
業	-7.15882
來	-7.16952
難	-7.17955
破	-7.18516
爾時	-7.18565
諸法	-7.19371
取	-7.19593
求	-7.22048
是故	-7.22088
唯	-7.22247
門	-7.22944
文	-7.22981
疏	-7.23732
惡	-7.24725
力	-7.2492
境界	-7.25988
妄想	-7.26222
生死	-7.26329
乃至	-7.26529
合	-7.27747
寶	-7.28206
六	-7.28445
過	-7.29035
實	-7.29622
世間	-7.29721
轉	-7.3042
?」	-7.30462
真	-7.30947
食	-7.32281
乃	-7.32541
善男子	-7.32816
菩	-7.33315
先	-7.3358
異	-7.33801
因緣	-7.34418
境	-7.34721
水	-7.35092
對	-7.35567
德	-7.35628
煩惱	-7.36094
示	-7.36116
喻	-7.36155
願	-7.36205
耳	-7.36364
俱	-7.3661
便	-7.36645
愛	-7.36821
七	-7.36847
佛南無	-7.3772
汝	-7.38467
】	-7.38712
聲	-7.38951
攝	-7.39033
何	-7.39036
約	-7.40545
故云	-7.40798
悉	-7.40895
化	-7.40939
南無	-7.41346
捨	-7.41662
:『	-7.42432
是名	-7.42701
施	-7.42925
世	-7.42934
持	-7.4309
發	-7.43296
無明	-7.43365
光	-7.43545
語	-7.44289
不能	-7.44759
戒	-7.45058
餘	-7.45646
除	-7.45984
數	-7.46169
諸佛	-7.46225
十	-7.47096
外	-7.48913
八	-7.49114
立	-7.49116
具足	-7.49344
妙	-7.49667
信	-7.49952
成就	-7.50248
智慧	-7.50489
句	-7.50852
不生	-7.51465
平等	-7.52353
內	-7.52663
未	-7.53523
華	-7.54393
根	-7.55457
去	-7.55762
法身	-7.56051
供養	-7.56112
他	-7.56649
廣	-7.57079
光明	-7.57441
病	-7.58199
小	-7.59222
修行	-7.59801
圓	-7.59821
不可	-7.60725
菩提	-7.614
所謂	-7.61604
著	-7.61747
方	-7.62056
執	-7.62496
位	-7.62662
利	-7.62674
報	-7.63002
矣	-7.63356
無常	-7.63957
重	-7.64457
師	-7.65443
:	-7.65834
記	-7.65867
度	-7.66189
世界	-7.66473
種	-7.66839
聲聞	-7.67564
不得	-7.67716
深	-7.6773
山	-7.68103
三昧	-7.68165
妄	-7.68291
藏	-7.68292
自性	-7.68693
火	-7.68958
物	-7.69187
聖	-7.69265
大乘	-7.69733
結	-7.69808
止	-7.69887
子	-7.70401
所以	-7.70524
外道	-7.71002
日	-7.71457
品	-7.71466
共	-7.71927
指	-7.72133
會	-7.72418
莊嚴	-7.72725
使	-7.72747
一切法	-7.73021
字	-7.73254
還	-7.73651
稱	-7.75162
比丘	-7.75164
宗	-7.75204
障	-7.75877
自在	-7.76035
譬如	-7.76041
照	-7.76541
邪	-7.76893
必	-7.7708
引	-7.77833
乎	-7.7845
香	-7.78878
說法	-7.79053
眼	-7.79661
各	-7.80164
辨	-7.80437
悟	-7.8046
死	-7.80587
佛言	-7.80713
亦不	-7.80751
總	-7.81016
一切眾生	-7.81079
不知	-7.81534
命	-7.81699
法性	-7.81838
第二	-7.82148
二乘	-7.82238
斯	-7.82664
極	-7.82668
安	-7.82676
法界	-7.8277
學	-7.83541
壞	-7.83815
向	-7.84059
舉	-7.84186
開	-7.84761
疑	-7.85201
迷	-7.85248
不同	-7.8563
第一	-7.8636
國	-7.87633
幻	-7.88472
動	-7.88615
更	-7.88964
集	-7.89234
無生	-7.89596
失	-7.89685
普	-7.89807
月	-7.89904
不見	-7.90237
復次	-7.90686
罪	-7.90709
凡夫	-7.91172
精進	-7.91415
計	-7.91871
趣	-7.92658
流	-7.92668
樹	-7.92814
順	-7.92968
墮	-7.93022
無所	-7.93089
須	-7.93339
界	-7.94045
風	-7.94422
就	-7.95382
第三	-7.95481
菩薩摩訶薩	-7.95673
等者	-7.96152
滿	-7.96199
惑	-7.96269
究竟	-7.96446
女	-7.96833
此經	-7.97076
劫	-7.97182
土	-7.97293
少	-7.97702
二者	-7.97718
。』	-7.97943
金	-7.97987
略	-7.981
習	-7.98318
形	-7.98324
乘	-7.98483
故名	-7.98536
之法	-7.98769
將	-7.99256
所說	-7.99617
尊	-8.00184
福	-8.00817
了	-8.01156
亦無	-8.01509
九	-8.01538
海	-8.01642
忍	-8.01819
真如	-8.01919
請	-8.02392
皆是	-8.02476
益	-8.02912
而不	-8.03185
坐	-8.03433
屬	-8.0345
神	-8.03539
舍利弗	-8.03541
一者	-8.03602
護	-8.03637
塵	-8.03896
家	-8.03969
差別	-8.04144
禪	-8.0464
類	-8.0515
歸	-8.05163
四大	-8.05227
真實	-8.05237
高	-8.05458
蓋	-8.05537
遍	-8.05693
無相	-8.05729
。【	-8.06414
長	-8.06443
思惟	-8.06634
遠離	-8.06682
兩	-8.06728
好	-8.07029
輪	-8.07403
主	-8.07585
之所	-8.07604
慈	-8.07714
音	-8.07882
往	-8.07998
假	-8.08042
讚	-8.08442
寂	-8.0955
復有	-8.09688
何以故	-8.10361
圓覺	-8.1041
一一	-8.1054
於此	-8.10603
寂滅	-8.10635
喜	-8.10993
次第	-8.11251
以為	-8.11468
三界	-8.11608
魔	-8.11767
猶	-8.1233
僧	-8.12598
是為	-8.12772
)。】「	-8.12785
觀察	-8.12892
猶如	-8.13185
歡喜	-8.13284
如來南無	-8.13551
相續	-8.13778
生滅	-8.13891
般若	-8.14095
達	-8.14512
▁初	-8.14597
言說	-8.14926
歎	-8.15473
足	-8.15518
造	-8.15946
縛	-8.16014
且	-8.1641
百	-8.16456
十方	-8.16813
無礙	-8.16922
不思議	-8.17224
法門	-8.17473
夫	-8.17519
若有	-8.17544
目	-8.17594
正法	-8.17598
表	-8.17614
直	-8.17857
所有	-8.18169
思	-8.18175
豈	-8.18687
諸天	-8.18833
凡	-8.18944
頭	-8.19412
要	-8.19496
阿難	-8.19864
遠	-8.20388
口	-8.20664
天子	-8.21201
所作	-8.21736
龍	-8.22721
親	-8.22944
。」【(	-8.22947
▁二	-8.22961
出家	-8.23095
無我	-8.23353
所以者何	-8.23484
建立	-8.23581
一心	-8.23675
實相	-8.2368
此是	-8.23726
羅	-8.23766
染	-8.23838
文殊師利	-8.2408
始	-8.24615
情	-8.24671
譬	-8.25212
故曰	-8.26001
量	-8.26291
相應	-8.26639
自然	-8.2672
白	-8.27051
到	-8.27513
當知	-8.27771
金剛	-8.27929
貪	-8.28324
寂靜	-8.28468
爾	-8.28751
母	-8.28895
經云	-8.29003
有無	-8.2909
因果	-8.2931
陰	-8.29315
尊者	-8.29968
和合	-8.29985
淨名	-8.3013
勸	-8.30352
亦復如是	-8.30376
像	-8.30685
三種	-8.30886
彌勒	-8.30979
味	-8.31206
那	-8.31914
地獄	-8.32031
。○	-8.32086
致	-8.32154
近	-8.3219
恒	-8.32828
聚	-8.32847
不動	-8.33057
疾	-8.33273
莫	-8.33416
父母	-8.33779
竟	-8.33995
息	-8.34114
有情	-8.35557
不可思議	-8.35687
似	-8.35813
如此	-8.35967
虛空	-8.36236
殺	-8.36361
變	-8.36445
計著	-8.36538
無為	-8.36578
終	-8.37072
二種	-8.3713
花	-8.37164
。△	-8.37484
反	-8.38534
贊曰	-8.38723
隨順	-8.39269
佛說	-8.39451
過去	-8.3955
何故	-8.40942
三者	-8.40959
不應	-8.41055
號	-8.41326
城	-8.41471
機	-8.41515
答曰	-8.41534
第四	-8.41548
決定	-8.4183
小乘	-8.41845
本無	-8.4209
標	-8.42116
禮	-8.42339
無邊	-8.42381
興	-8.42994
於彼	-8.43222
頓	-8.43305
故言	-8.4366
散	-8.43708
財	-8.43742
脫	-8.43857
諦	-8.43908
居	-8.44
我今	-8.44615
設	-8.44811
癡	-8.44865
觸	-8.45113
緣起	-8.45197
無上	-8.45228
沙門	-8.45608
俗	-8.45663
兼	-8.45805
五陰	-8.46121
獲	-8.46158
之相	-8.46339
弟子	-8.46363
三乘	-8.46533
而生	-8.46557
垢	-8.46614
佛法	-8.46824
獨	-8.46883
于	-8.47088
邊	-8.47159
伏	-8.47693
絕	-8.47999
四句	-8.48271
於是	-8.48557
千	-8.48636
名曰	-8.48733
摩	-8.48892
一切諸法	-8.49005
之人	-8.49051
增長	-8.49426
加	-8.49496
吾	-8.49681
存	-8.50315
不淨	-8.50436
況	-8.50466
治	-8.50535
雙	-8.50601
首	-8.51031
現在	-8.51111
手	-8.51299
利益	-8.51491
圓滿	-8.5164
敬	-8.51721
中道	-8.51851
林	-8.51883
成佛	-8.52146
增	-8.52149
王佛	-8.52152
皆悉	-8.52666
衣	-8.52673
進	-8.5269
神通	-8.52808
權	-8.52942
亦非	-8.53082
漸	-8.53152
身心	-8.53465
.	-8.53707
有二	-8.53725
之中	-8.53827
淨土	-8.54031
之義	-8.54106
發心	-8.54612
修習	-8.54647
顛倒	-8.54846
全	-8.55272
虗空	-8.55638
不離	-8.55666
大悲	-8.56071
不起	-8.56275
年	-8.5656
不可得	-8.56573
超	-8.5713
章	-8.57136
如幻	-8.57169
之心	-8.57222
肇曰	-8.57684
可知	-8.57736
善根	-8.57963
和	-8.57999
未來	-8.5814
此云	-8.58225
惟	-8.58354
雜	-8.58584
自心	-8.58724
文殊	-8.58875
諸菩薩	-8.5898
昔	-8.58997
志	-8.59233
國土	-8.59344
害	-8.5946
阿	-8.59555
而有	-8.5982
雲	-8.59846
雨	-8.59944
〕」【	-8.60045
文句	-8.60049
密	-8.60088
無漏	-8.60151
我等	-8.60496
告	-8.60639
持戒	-8.60731
佛告	-8.60759
蓮華	-8.60776
久	-8.60831
布施	-8.60909
邪見	-8.61078
聽	-8.61202
遮	-8.61228
述	-8.61268
眷屬	-8.61364
堅	-8.61747
器	-8.62157
唐云	-8.62596
最勝	-8.62688
不覺	-8.63259
波	-8.63278
其心	-8.63319
真諦	-8.63405
以此	-8.63428
支	-8.63638
遂	-8.63641
是人	-8.63658
並	-8.63749
悲	-8.63791
攝受	-8.63857
婆	-8.63945
於中	-8.64063
覆	-8.64112
甚	-8.64476
奉	-8.64558
不二	-8.64568
氣	-8.64682
不為	-8.65099
燒	-8.65325
冥	-8.65395
迦葉	-8.65481
嚴	-8.65601
遣	-8.65749
壽	-8.65756
尚	-8.65934
例	-8.65994
梵	-8.66092
亦如是	-8.66308
有三	-8.66448
。」【【	-8.66525
》	-8.66525
藥	-8.66579
易	-8.66765
一時	-8.66952
三世	-8.67017
被	-8.67106
四者	-8.67154
內外	-8.67164
百千	-8.67165
無盡	-8.67194
所見	-8.67322
鬼	-8.67972
放逸	-8.68023
尋	-8.68079
頌	-8.68133
四種	-8.68347
偏	-8.68397
脩	-8.68406
傳	-8.68634
。】「〔	-8.68705
十二	-8.69197
誰	-8.69258
陀	-8.6941
汝等	-8.69519
翻	-8.69554
婆羅門	-8.69642
行者	-8.69791
注	-8.70122
退	-8.70146
所生	-8.70249
不住	-8.70428
無所有	-8.70498
偈	-8.70795
此中	-8.70798
而為	-8.70983
智者	-8.71054
珠	-8.71232
萬	-8.71284
面	-8.71658
辯	-8.71659
所行	-8.7168
末	-8.72166
諸眾生	-8.72206
無性	-8.72272
亦名	-8.72861
答言	-8.73024
第一義	-8.73178
微	-8.73236
如來藏	-8.73298
恐	-8.73394
若人	-8.73469
愚癡	-8.73868
序	-8.73915
呵	-8.74024
種子	-8.7409
頂	-8.74244
三寶	-8.74257
果報	-8.74292
齊	-8.74306
畢竟	-8.74439
列	-8.74442
夢	-8.74449
故知	-8.747
華嚴	-8.74781
甚深	-8.74876
根本	-8.74966
熱	-8.74984
則無	-8.7511
舍	-8.75392
座	-8.75569
哉	-8.75613
細	-8.75667
毒	-8.75698
并	-8.76006
懺悔	-8.76146
亂	-8.76365
不壞	-8.76371
愚夫	-8.76626
音聲	-8.76696
如是等	-8.76756
「	-8.76783
靜	-8.7705
梵天	-8.77323
遊	-8.77412
大眾	-8.77496
半	-8.77591
長者	-8.77814
違	-8.77822
礙	-8.77884
示現	-8.78192
名字	-8.78198
何者	-8.78414
不斷	-8.78779
宜	-8.78792
如實	-8.78835
何謂	-8.78973
亦是	-8.79121
童子	-8.79195
禪定	-8.79259
亦爾	-8.79295
光佛	-8.79314
節	-8.79325
簡	-8.79769
最	-8.80192
象	-8.80208
無畏	-8.80557
了知	-8.80588
懷	-8.80665
又云	-8.80864
制	-8.80867
救	-8.81312
是則	-8.81415
餓鬼	-8.81582
若不	-8.81616
無間	-8.81761
沙	-8.8177
調伏	-8.81904
所依	-8.82128
印	-8.82135
愚	-8.82574
受持	-8.82645
飲食	-8.82656
彰	-8.82695
五百	-8.82794
比	-8.82899
法華	-8.82965
惱	-8.83038
備	-8.83092
一切智	-8.83092
非有	-8.83099
能生	-8.83379
——	-8.83462
常住	-8.84057
含	-8.84165
亡	-8.84187
提	-8.84353
釋曰	-8.84354
習氣	-8.84359
速	-8.84587
有為	-8.84826
迦	-8.84885
師子	-8.84947
堅固	-8.85507
間	-8.85529
善哉	-8.8587
安住	-8.85892
肉	-8.85904
患	-8.86278
種性	-8.86404
路	-8.86454
安樂	-8.86464
燈	-8.86467
己	-8.86728
父	-8.86733
剎那	-8.86854
夜	-8.86921
老	-8.86937
不異	-8.87045
宿	-8.87077
棄	-8.87254
云云	-8.87336
徧	-8.8742
聖人	-8.87463
畏	-8.87713
白佛言	-8.88024
望	-8.88139
經文	-8.88328
遇	-8.88384
可得	-8.88429
福德	-8.8854
忘	-8.88727
宮	-8.88814
▁後	-8.88869
却	-8.89084
積	-8.8912
感	-8.89157
一念	-8.89162
又復	-8.89372
鳥	-8.89381
犯	-8.89607
據	-8.8976
註	-8.89779
及諸	-8.89933
佛土	-8.89975
天女	-8.90057
消	-8.90383
不捨	-8.90405
覩	-8.90456
然後	-8.90901
沒	-8.91169
不生不滅	-8.91243
通達	-8.91329
推	-8.9144
不著	-8.91501
敘	-8.91565
懺	-8.91628
▁南無	-8.91796
壽命	-8.91825
所得	-8.91838
譯	-8.91951
而得	-8.92036
微妙	-8.92104
安隱	-8.92139
待	-8.92289
十六	-8.92473
畜生	-8.92585
者即	-8.92707
科	-8.92956
影	-8.93058
〕	-8.93167
四諦	-8.9351
文字	-8.93547
或有	-8.93683
三藏	-8.93695
怨	-8.93863
第五	-8.93996
圓教	-8.94077
謂之	-8.94116
周	-8.94272
迹	-8.94348
」	-8.94368
而起	-8.94391
視	-8.94414
無不	-8.94572
部	-8.94837
悉皆	-8.94897
若能	-8.94959
出世	-8.95031
悔	-8.95049
是時	-8.95064
十地	-8.95172
執著	-8.95176
詣	-8.95186
勿	-8.95197
亦有	-8.95384
法中	-8.95441
厭	-8.95463
瞋	-8.95488
永	-8.95495
不善	-8.956
輕	-8.96034
無異	-8.96377
憂	-8.96461
平	-8.96564
訶	-8.9705
對治	-8.97176
有所	-8.97183
骨	-8.97259
元	-8.97305
菩薩南無	-8.97398
切	-8.9753
此即	-8.97688
輪迴	-8.97689
助	-8.97713
見佛	-8.97747
窮	-8.97799
虗	-8.98049
廣大	-8.98051
佛性	-8.98214
帝	-8.98268
於諸	-8.9828
諸根	-8.98401
大海	-8.98647
恭敬	-8.98813
又問	-8.99053
強	-8.9906
段	-8.99132
▁南无寶	-8.99383
道場	-8.99528
不滅	-8.99536
之處	-8.99541
最上	-8.99911
古	-8.99917
現前	-8.99946
善法	-9.00194
佛告大慧	-9.00231
盛	-9.00354
慢	-9.00376
各各	-9.00543
橫	-9.00621
不退	-9.00698
何等	-9.01333
大士	-9.01347
焰	-9.01379
賢	-9.01402
無垢	-9.0209
而無	-9.0216
供	-9.02224
中有	-9.02234
放	-9.02295
無數	-9.02313
置	-9.02373
離諸	-9.02412
木	-9.02603
天王	-9.02655
此二	-9.02722
意識	-9.0276
人天	-9.02788
論云	-9.02821
日月	-9.02839
倒	-9.02958
非是	-9.03078
女人	-9.03093
如何	-9.03311
惡業	-9.03328
不了	-9.03462
濟	-9.03584
由此	-9.03656
逆	-9.038
有四	-9.03846
資	-9.03888
離於	-9.04197
互	-9.04346
判	-9.04509
威德	-9.04555
鏡	-9.04557
卷	-9.04657
破壞	-9.04856
王佛南無	-9.04973
不受	-9.05058
一句	-9.05114
都	-9.05135
河	-9.05289
容	-9.05425
藏識	-9.05425
《	-9.05499
許	-9.05528
恩	-9.05615
所證	-9.05784
守	-9.05932
?』	-9.05982
帝釋	-9.0616
之時	-9.06249
不取	-9.06607
飯	-9.06919
劣	-9.06961
前後	-9.07204
顯示	-9.07282
苦惱	-9.07719
鉢	-9.07925
亦然	-9.08098
釋迦	-9.08177
殊	-9.08365
十八	-9.08409
之理	-9.08601
功	-9.08654
宣	-9.08711
終不	-9.08716
牛	-9.0878
大小	-9.09049
室	-9.09058
應知	-9.09086
咸	-9.09103
展轉	-9.09142
流轉	-9.09302
能知	-9.09326
授	-9.09396
蟲	-9.09569
斥	-9.09605
何所	-9.09621
隱	-9.09673
熟	-9.09699
威儀	-9.09724
相似	-9.09739
及以	-9.09971
貪欲	-9.09973
慈悲	-9.10077
遊戲	-9.10077
應當	-9.10081
鐵	-9.10114
滿足	-9.10398
辭	-9.10481
為二	-9.10482
故名為	-9.10516
三觀	-9.10525
不定	-9.10531
八識	-9.10556
不實	-9.1063
捨離	-9.10689
爾時世尊	-9.10846
不以	-9.11099
十一	-9.11138
調	-9.11183
之事	-9.11206
假名	-9.11371
三身	-9.11469
無二	-9.11532
旨	-9.11582
縱	-9.11821
穢	-9.11987
南	-9.12027
其身	-9.12037
七寶	-9.12077
陀羅尼	-9.12096
不說	-9.1218
龍王	-9.12221
拔	-9.12226
勤	-9.12305
曾	-9.12536
各有	-9.12601
虛妄	-9.12808
熏	-9.12934
維摩	-9.13051
三德	-9.13067
名之為	-9.13149
阿羅漢	-9.13346
美	-9.13418
怖	-9.13569
我說	-9.13674
無因	-9.13687
行相	-9.13715
留	-9.14039
馬	-9.14166
陳	-9.14292
鼻	-9.14308
飲	-9.14323
轉變	-9.14364
相者	-9.14487
梵王	-9.14561
下明	-9.1457
五者	-9.14596
但是	-9.14742
而說	-9.14808
舊	-9.14853
無始	-9.14875
新	-9.15008
諸行	-9.15011
波羅蜜	-9.15035
炎	-9.15062
第六	-9.15138
尼	-9.15215
無作	-9.15345
虗妄	-9.15356
若無	-9.15382
神力	-9.15586
導	-9.15615
清	-9.15678
此法	-9.15796
變化	-9.159
勝佛南無	-9.15914
忍辱	-9.16056
法者	-9.16211
五欲	-9.16311
相故	-9.16604
一乘	-9.1667
不出	-9.1671
蘊	-9.1671
身子	-9.16728
六度	-9.16852
別教	-9.16863
如前	-9.16882
亦如	-9.17047
一法	-9.17058
億	-9.17098
亦復	-9.17161
故說	-9.17209
本來	-9.1733
降	-9.17404
雖有	-9.17453
者謂	-9.17486
法相	-9.17687
無分別	-9.17771
服	-9.17985
二明	-9.18072
善惡	-9.18205
誠	-9.18453
生於	-9.18575
怖畏	-9.18787
剎	-9.18941
東方	-9.19041
善業	-9.19067
總持	-9.19104
只	-9.19129
。〔	-9.19256
所知	-9.19268
若以	-9.1927
闇	-9.19351
不成	-9.19367
何況	-9.19438
微塵	-9.19483
舌	-9.19613
網	-9.19626
自相	-9.19691
瓔珞	-9.19835
度無極	-9.19873
一切諸	-9.20091
第八	-9.20171
今此	-9.20413
演說	-9.20553
瞋恚	-9.20613
葉	-9.20745
靈	-9.20759
則有	-9.21007
毘	-9.21094
初明	-9.21169
所言	-9.2118
天人	-9.21269
能所	-9.21454
信解	-9.21616
所緣	-9.21617
底	-9.21791
第七	-9.2194
辯才	-9.21964
觀心	-9.22005
金光明	-9.22025
寧	-9.22027
目連	-9.22033
損	-9.22038
決	-9.22138
增上	-9.22179
為說	-9.22291
歷	-9.22386
凡愚	-9.22411
律	-9.22697
有二種	-9.22703
則為	-9.22735
自他	-9.22768
玄	-9.22873
▁三	-9.22882
皆有	-9.22926
不復	-9.22949
孝	-9.23
復次大慧	-9.23028
之行	-9.23088
三諦	-9.23251
幢	-9.23284
收	-9.23297
善知	-9.23355
賊	-9.2337
能令	-9.2354
得道	-9.23619
親近	-9.23719
故有	-9.23739
緣覺	-9.23748
善知識	-9.23788
養	-9.23806
聞法	-9.23815
法師	-9.24032
如如	-9.24095
讚歎	-9.24213
焉	-9.24484
有漏	-9.24492
鬼神	-9.24506
須菩提	-9.24766
。』「	-9.24982
。」「	-9.25261
臣	-9.25284
弘	-9.25411
精	-9.25468
發菩提心	-9.25493
誦	-9.25737
皆得	-9.25805
廣說	-9.25918
何得	-9.26026
聖智	-9.26035
配	-9.26069
聲聞緣覺	-9.2609
自身	-9.26129
領	-9.26323
痛	-9.2634
初地	-9.2652
彌	-9.26641
毀	-9.26652
有一	-9.26694
降伏	-9.26715
運	-9.26771
石	-9.27007
中間	-9.27132
甘露	-9.2724
善女人	-9.27291
多聞	-9.27415
相好	-9.27416
際	-9.27579
此則	-9.27648
其所	-9.27775
乃是	-9.27785
力故	-9.27822
宣說	-9.27901
住於	-9.27957
唯有	-9.27968
蓮花	-9.28176
不作	-9.28351
之言	-9.2842
今日	-9.2844
佛道	-9.28553
車	-9.28556
妄計	-9.28948
詮	-9.28956
揀	-9.29008
蒙	-9.29009
是謂	-9.2914
!」	-9.29184
辟支佛	-9.29327
悅	-9.29334
攀緣	-9.29454
二諦	-9.29723
居士	-9.29753
濁	-9.29945
契	-9.30013
須彌	-9.30022
慈心	-9.30099
漸次	-9.30189
所攝	-9.30271
舍利	-9.30274
唯識	-9.30315
句非	-9.3044
草	-9.30571
心不	-9.30631
記曰	-9.30634
止觀	-9.30642
差	-9.30837
不可說	-9.30838
魚	-9.3091
性相	-9.31046
此義	-9.31157
修行者	-9.31221
潤	-9.31255
義也	-9.31261
覺性	-9.31431
發起	-9.31491
徹	-9.31724
此三	-9.31724
法故	-9.31732
四教	-9.31818
毛	-9.31936
我見	-9.32243
入於	-9.3227
在於	-9.32394
此明	-9.3245
殊勝	-9.32609
名相	-9.32672
不墮	-9.32851
非法	-9.32897
所成	-9.33098
端	-9.33341
融	-9.33398
令得	-9.33527
書	-9.33529
專	-9.33535
受用	-9.33585
七識	-9.33709
通教	-9.33966
謗	-9.34027
作是念	-9.3415
諸比丘	-9.3428
青	-9.34281
實有	-9.34297
亦云	-9.344
其義	-9.34448
星	-9.34489
背	-9.34607
威	-9.34768
我當	-9.34818
呪	-9.34986
▁南无大	-9.34991
池	-9.34998
色相	-9.35123
伽	-9.35413
巧	-9.35556
逮	-9.35628
阿修羅	-9.35715
人中	-9.36136
幾	-9.36193
姓	-9.36311
乖	-9.36314
繫	-9.36417
權實	-9.36502
一切皆	-9.36567
何以	-9.36771
無別	-9.36827
欲界	-9.37131
有人	-9.37147
談	-9.37221
不信	-9.37292
為因	-9.37303
諸惡	-9.37356
二邊	-9.37392
準	-9.374
及與	-9.37612
得名	-9.37626
何因	-9.37776
其中	-9.37914
公	-9.38017
賢聖	-9.38252
翳	-9.38319
純	-9.38361
是以	-9.38481
貪著	-9.38527
二釋	-9.38608
泥	-9.3878
然此	-9.38918
西	-9.38968
觀行	-9.39013
呼	-9.39257
訖	-9.39261
摩尼	-9.39433
勝佛	-9.39556
質	-9.39558
皆由	-9.3958
虛	-9.39606
有三種	-9.39662
正見	-9.39785
念念	-9.39813
三業	-9.39818
忽	-9.40144
十二因緣	-9.40195
是法	-9.4022
之性	-9.4027
拘	-9.40289
守護	-9.40314
徵	-9.40355
令其	-9.40369
畢	-9.40418
塔	-9.40419
其人	-9.40598
酒	-9.4085
布	-9.40891
他人	-9.40967
六根	-9.41054
憶念	-9.41077
演	-9.41097
之道	-9.41169
住持	-9.41181
儀	-9.41255
體性	-9.41432
可見	-9.41482
貴	-9.41566
不失	-9.41567
斷滅	-9.41638
男	-9.41742
髮	-9.41842
正明	-9.42091
微細	-9.42092
故也	-9.42118
永斷	-9.42181
但以	-9.42222
減	-9.42223
若見	-9.42234
哀	-9.42515
希有	-9.42609
問曰	-9.42714
彼人	-9.43093
依止	-9.43112
落	-9.43124
解釋	-9.43132
題	-9.43258
汝今	-9.43362
佛身	-9.43397
云何為	-9.43443
滅度	-9.43445
覺知	-9.43859
東	-9.44071
至於	-9.44095
刀	-9.44149
佛剎	-9.44232
無色	-9.44341
施設	-9.44349
七日	-9.44361
而言	-9.44402
勇	-9.44473
下文	-9.44545
唯心	-9.44607
自體	-9.44653
源	-9.44749
鼓	-9.4479
問答	-9.4493
命終	-9.45049
人民	-9.45085
麤	-9.45272
乾	-9.4536
寄	-9.4544
淺	-9.45442
懈怠	-9.45586
鈔	-9.45656
殿	-9.45657
承	-9.45688
我所	-9.45694
愛樂	-9.45735
緣生	-9.45912
如彼	-9.4596
。「『	-9.45971
維摩詰	-9.46029
貧	-9.46059
闕	-9.46073
倍	-9.46077
一向	-9.4608
奪	-9.46167
知見	-9.46662
宮殿	-9.46968
亦可	-9.46978
六者	-9.47019
未曾	-9.47022
光明佛	-9.47059
無自性	-9.47076
染淨	-9.47235
何處	-9.47253
則是	-9.4729
士	-9.47291
為本	-9.4731
大師	-9.47465
囉	-9.47503
不樂	-9.47578
不在	-9.47652
族姓子	-9.4768
夜叉	-9.47727
有五	-9.47742
大王	-9.47772
什曰	-9.47807
十力	-9.47828
轉法輪	-9.47934
三明	-9.47971
血	-9.47975
越	-9.47988
顯現	-9.48083
任	-9.48085
妄見	-9.48106
佛所	-9.48188
為一	-9.48202
心量	-9.48226
葢	-9.48269
文云	-9.48316
嘆	-9.48322
法也	-9.48483
默	-9.48493
亦應	-9.48589
累	-9.48676
之身	-9.48682
乳	-9.4871
仙	-9.48726
一切諸佛	-9.48742
正念	-9.48863
心無	-9.48937
天眾	-9.49073
譬喻	-9.49122
而能	-9.49192
漏	-9.49301
梵行	-9.49346
即得	-9.49356
步	-9.49405
義故	-9.49486
講	-9.49497
則不	-9.49501
角	-9.49612
所修	-9.49681
無量無邊	-9.49709
▁南无善	-9.49751
仁	-9.49783
不行	-9.49842
責	-9.49904
五蘊	-9.49979
勞	-9.49989
羅漢	-9.50058
黑	-9.50073
適	-9.50113
妙法	-9.50442
戲論	-9.50466
無能	-9.50559
神足	-9.50561
欲令	-9.50588
惠	-9.50603
為體	-9.50611
光明佛南無	-9.50834
一人	-9.50858
未得	-9.50921
現行	-9.50956
空中	-9.50984
得解脫	-9.50994
纏	-9.51043
接	-9.51082
若依	-9.5135
荊溪云	-9.51468
德佛	-9.51478
上來	-9.51487
垂	-9.51553
正觀	-9.51568
折	-9.51698
六識	-9.51742
非無	-9.51777
當得	-9.5178
化佛	-9.51923
三千大千世界	-9.51954
見有	-9.52035
不與	-9.52046
於法	-9.52119
文中	-9.52125
豈非	-9.52148
二初	-9.52332
教化	-9.52412
薄	-9.52494
改	-9.52575
瑜伽	-9.52615
吉祥	-9.52804
是也	-9.52861
心生	-9.53042
特	-9.53108
是經	-9.53156
迴	-9.53311
云何菩薩	-9.53324
笑	-9.53366
典	-9.53433
恒沙	-9.53583
以是	-9.53586
諸外道	-9.53684
畫	-9.53702
十種	-9.53752
無知	-9.53968
太	-9.54122
之意	-9.54131
是菩薩	-9.54157
田	-9.54267
天下	-9.54288
牒	-9.54354
兒	-9.54406
五種	-9.54694
無住	-9.54805
世論	-9.54815
三有	-9.54838
既無	-9.54842
苦樂	-9.54862
今現在	-9.5488
為人	-9.54918
世俗	-9.55057
金色	-9.55137
以其	-9.55155
黃	-9.55159
迴向	-9.55176
樓	-9.55282
飛	-9.55343
仰	-9.55421
此之	-9.55448
言語	-9.55506
十四	-9.55541
唐譯	-9.55561
福田	-9.55623
勢	-9.55639
不依	-9.55703
無差別	-9.55764
固	-9.55773
跡	-9.55812
佛地	-9.5588
此句	-9.55895
道理	-9.55977
欲得	-9.56054
即空	-9.56056
之本	-9.5606
赤	-9.56073
是名菩薩	-9.5609
王子	-9.56101
短	-9.56148
菩提心	-9.56187
自覺	-9.56273
該	-9.5635
二十	-9.56399
之境	-9.56409
自行	-9.56415
諸有情	-9.56427
夏	-9.56566
故不	-9.56649
塵勞	-9.56652
所問	-9.56657
不入	-9.56689
欣	-9.5669
實際	-9.56697
園	-9.56738
唐	-9.56745
授記	-9.56911
仍	-9.56945
從此	-9.5698
如實知	-9.56992
傷	-9.5715
語言	-9.57248
惑亂	-9.57257
竝	-9.57272
一切世間	-9.57353
衰	-9.57462
威神	-9.57465
佛國	-9.57476
世諦	-9.5753
天眼	-9.57536
方等	-9.57581
若約	-9.57582
臥	-9.57623
【	-9.57644
見者	-9.5767
泥洹	-9.5786
受樂	-9.57867
八萬四千	-9.57945
祖	-9.5795
此下	-9.57975
有餘	-9.58025
太子	-9.58191
三摩地	-9.5822
隨緣	-9.58275
之名	-9.58315
隨喜	-9.58352
正道	-9.58387
於一切	-9.58413
雖復	-9.58444
諸有	-9.58456
所起	-9.5849
正覺	-9.58495
般涅槃	-9.58527
諸地	-9.5864
寺	-9.58676
一切性	-9.58677
三毒	-9.58705
依此	-9.58891
北	-9.58901
勇猛	-9.58946
生起	-9.59026
修多羅	-9.59064
為欲	-9.59305
幢佛	-9.59392
諸經	-9.59417
詳	-9.59445
不如	-9.59489
瓶	-9.59521
民	-9.59591
行人	-9.59632
交	-9.59682
走	-9.59691
清涼	-9.59724
歲	-9.59842
不盡	-9.59873
不現	-9.60084
徒	-9.6009
代	-9.60096
群	-9.60115
而行	-9.6037
期	-9.60559
護持	-9.60574
稽首	-9.6059
審	-9.60639
受生	-9.6074
相違	-9.60782
憍慢	-9.61124
隨其	-9.61168
六塵	-9.6127
彼佛	-9.61318
無所得	-9.61353
諸煩惱	-9.61357
察	-9.6148
十三	-9.61572
誓	-9.61575
二法	-9.61628
二障	-9.6169
本覺	-9.61708
快	-9.61847
闍	-9.61963
總結	-9.61994
國王	-9.62027
婬	-9.62031
急	-9.62083
障礙	-9.6213
之因	-9.62192
至真	-9.62256
敷	-9.62454
一切有情	-9.62477
化身	-9.62505
正智	-9.62578
利他	-9.62612
閻浮提	-9.62742
出世間	-9.62782
男女	-9.62788
諸識	-9.62828
不共	-9.62848
富	-9.62929
勅	-9.62956
陰界入	-9.63001
佛語	-9.63019
此言	-9.63025
之體	-9.63065
自覺聖智	-9.63087
乞	-9.63112
經南無	-9.6312
暗	-9.63142
暫	-9.63204
智力	-9.63261
作是	-9.63283
受苦	-9.634
自共相	-9.63421
生曰	-9.63467
等正覺	-9.63501
此人	-9.63591
無著	-9.63636
經中	-9.63658
不空	-9.63792
醉	-9.63834
以彼	-9.63878
凡聖	-9.63936
善巧	-9.63972
懸	-9.64128
有異	-9.64174
○	-9.64244
分明	-9.64333
幻化	-9.64351
恚	-9.64364
熏習	-9.64436
所現	-9.64602
誡	-9.64694
成熟	-9.64719
原	-9.64727
二約	-9.64874
珍寶	-9.64955
應身	-9.64958
十五	-9.64972
未曾有	-9.64998
魏譯	-9.65019
人間	-9.65101
及餘	-9.65146
單	-9.65167
今明	-9.65233
惡道	-9.65244
堂	-9.65301
無餘	-9.65387
吼	-9.65405
發願	-9.6543
法輪	-9.65437
鹿	-9.65475
皆為	-9.65515
摩訶	-9.6565
次名	-9.65651
作意	-9.65691
光佛南無	-9.65783
污	-9.65826
▁南无普	-9.65926
衣服	-9.65946
非性	-9.65982
依於	-9.66028
第十	-9.6604
作如是言	-9.66124
招	-9.66132
曉	-9.66159
胎	-9.66169
以明	-9.6621
所詮	-9.66299
魏云	-9.66304
作佛	-9.66396
如上	-9.66403
之智	-9.66443
本性	-9.66508
臺	-9.66559
末世	-9.66584
諍	-9.66618
無智	-9.6663
災	-9.66762
則能	-9.6678
惡趣	-9.6681
若干	-9.66899
而說偈言	-9.66903
不自	-9.66971
薩	-9.67061
聖道	-9.67102
若於	-9.67126
俱生	-9.67169
法無我	-9.6727
諸如來	-9.67283
作者	-9.67331
下釋	-9.67511
妄語	-9.67575
盲	-9.67582
流通	-9.6769
妄想自性	-9.67726
正釋	-9.67737
是佛	-9.67743
四相	-9.67754
柔軟	-9.6783
普賢	-9.67837
修道	-9.67867
園林	-9.67882
投	-9.67883
正受	-9.6792
本有	-9.67946
此乃	-9.68025
十善	-9.68099
有四種	-9.68242
證得	-9.68245
讀誦	-9.68325
迷惑	-9.68419
於佛	-9.68481
說言	-9.685
􂛳	-9.68505
等覺	-9.68539
由是	-9.68552
出生	-9.68646
泯	-9.68687
即能	-9.68714
蘇	-9.68775
蛇	-9.68804
而巳	-9.68893
實無	-9.69048
第九	-9.6908
遺	-9.69165
不變	-9.69329
皮	-9.6944
值	-9.69442
大智	-9.6945
天上	-9.69558
互相	-9.69591
露	-9.69671
亦得	-9.69671
法施	-9.69704
故須	-9.69901
非真	-9.6994
此身	-9.69946
八十	-9.70039
異相	-9.70094
快樂	-9.7015
曲	-9.70202
於一切法	-9.70204
有世界名	-9.70253
七者	-9.70294
檀	-9.70371
飾	-9.70396
貧窮	-9.70414
三法	-9.70421
佛子	-9.70479
楞伽	-9.70544
假使	-9.7074
業障	-9.70904
至心	-9.7091
床	-9.71006
之文	-9.71077
修學	-9.71095
梨	-9.71121
多有	-9.71202
成道	-9.71254
陽	-9.71265
但有	-9.71429
一相	-9.71513
申	-9.71631
四門	-9.71632
八地	-9.71637
始終	-9.71669
能作	-9.71671
番	-9.71704
天地	-9.71724
五法	-9.72003
須陀洹	-9.72028
解云	-9.7205
逐	-9.72083
開示	-9.72218
而作	-9.72287
諸相	-9.72326
性自性	-9.72371
非我	-9.72468
出離	-9.72565
謬	-9.72579
無記	-9.72612
亦無所	-9.72626
七地	-9.72645
其有	-9.72682
讀	-9.72743
如人	-9.72791
故以	-9.72823
勝義	-9.72876
云云一句	-9.72888
常無常	-9.72909
▁「	-9.7299
奢摩他	-9.73011
住處	-9.73018
連	-9.73043
師子吼	-9.73101
大地	-9.73122
二合	-9.7318
寂然	-9.73253
真心	-9.73392
不退轉	-9.73473
諸佛如來	-9.73519
二義	-9.73771
臨	-9.73795
皆從	-9.73848
吉	-9.73887
墮於	-9.73889
唐譯云	-9.73935
說有	-9.7402
名稱	-9.74046
得聞	-9.7416
准	-9.74161
此文	-9.74202
不然	-9.74209
塗	-9.74237
造作	-9.74247
輩	-9.74257
樹下	-9.74292
圍遶	-9.74315
妙覺	-9.74318
歸依	-9.74376
有大	-9.74458
關	-9.74521
此品	-9.74679
竪	-9.74688
不念	-9.74757
色身	-9.74805
玅	-9.74821
疏曰	-9.7499
愛欲	-9.75003
又如	-9.75021
請問	-9.75066
是身	-9.75078
自有	-9.75107
不求	-9.75297
眼識	-9.75301
略說	-9.75388
所化	-9.75502
了達	-9.75539
以顯	-9.75581
端正	-9.75586
事理	-9.75635
堪	-9.75728
法體	-9.75729
二句	-9.75771
勢力	-9.75771
恐怖	-9.75821
常樂	-9.75823
若爾	-9.75911
侍	-9.75972
者即是	-9.75988
」【	-9.76097
非有非無	-9.76232
無實	-9.76271
今經	-9.76346
勝妙	-9.76347
於一	-9.76371
彼岸	-9.76426
侵	-9.76477
報身	-9.76486
是菩提	-9.76522
不識	-9.76686
續	-9.76719
離有無	-9.76771
影像	-9.7681
十九	-9.76818
分齊	-9.76881
饒益	-9.76895
我於	-9.7691
萬物	-9.76945
再	-9.76974
妻子	-9.77055
虎	-9.77178
法空	-9.77181
即以	-9.772
言之	-9.77203
自心現	-9.77254
銷	-9.77326
於我	-9.77336
無想	-9.77345
琉璃	-9.77376
官	-9.77459
能斷	-9.77526
索	-9.77528
世人	-9.77667
十七	-9.777
所造	-9.77784
即便	-9.77863
能得	-9.77876
名色	-9.77902
是名為	-9.77903
免	-9.77947
故得	-9.77953
如意	-9.77954
經曰	-9.78097
合掌	-9.78188
唯是	-9.78208
浮	-9.78354
未能	-9.78377
麁	-9.78389
財物	-9.78403
非不	-9.78445
妨	-9.78478
性空	-9.78605
彼處	-9.78644
菩薩曰	-9.78704
勤修	-9.78712
應供	-9.78738
活	-9.78839
任運	-9.7888
毗	-9.79004
此意	-9.79027
充滿	-9.79279
驚	-9.79342
可愛	-9.79402
得果	-9.79412
此等	-9.79477
釋云	-9.79478
往昔	-9.79512
之力	-9.79603
六道	-9.79643
或云	-9.79728
菩薩言	-9.79758
長短	-9.79837
聞此	-9.80054
誹謗	-9.80058
通別	-9.80112
羅剎	-9.80171
相也	-9.80225
不相	-9.80273
如夢	-9.80291
豈不	-9.80298
空無	-9.80328
有何	-9.80388
打	-9.80443
無非	-9.80454
究	-9.80455
心念	-9.80467
返	-9.80523
寶積	-9.80677
初中	-9.80849
過患	-9.80881
三十二	-9.80919
罪人	-9.81036
故非	-9.81044
晝夜	-9.81119
即時	-9.81157
不聞	-9.81206
所執	-9.8129
詞	-9.81354
立名	-9.81389
啟	-9.814
此土	-9.81435
更有	-9.81465
大涅槃	-9.81481
聚落	-9.81576
八者	-9.81647
即為	-9.81662
故能	-9.81774
若有眾生	-9.81792
慮	-9.8181
流注	-9.81856
三千	-9.81861
默然	-9.81867
若言	-9.8187
菩薩行	-9.81916
加行	-9.81966
處處	-9.81967
變易	-9.82057
身相	-9.8216
即無	-9.82191
善友	-9.8225
今云	-9.82347
疏云	-9.82365
往來	-9.82379
一異	-9.82385
聲佛南無	-9.82386
故無	-9.82411
▁南无智	-9.82451
如法	-9.82471
驚怖	-9.82498
長行	-9.82512
西方	-9.82577
喜樂	-9.82592
隨所	-9.82592
當來	-9.82645
大慈	-9.82653
慶	-9.82826
天台	-9.82845
昇	-9.82885
結成	-9.82887
頌曰	-9.82944
大德	-9.83043
皆名	-9.83086
三句	-9.83118
諸菩薩摩訶薩	-9.83236
十界	-9.83255
化他	-9.83278
驗	-9.83408
經論	-9.83445
為我	-9.83471
若欲	-9.83497
五根	-9.83542
善逝	-9.83589
屈	-9.8359
無緣	-9.836
界內	-9.83606
▁南无法	-9.83684
斷見	-9.83703
以是因緣	-9.83713
是其	-9.83908
靜慮	-9.83976
佛南無寶	-9.84064
何等為十	-9.84123
其意	-9.84128
聞是	-9.84195
了義	-9.84239
眾人	-9.84244
佗	-9.84348
非常	-9.84357
身中	-9.84367
議	-9.84426
妻	-9.84447
慚愧	-9.8448
獄	-9.84599
阿耨多羅三藐三菩提	-9.84635
盜	-9.8465
於其	-9.84696
所聞	-9.84888
而自	-9.84996
安立	-9.85048
自心現量	-9.85084
念處	-9.85086
無形	-9.85166
杖	-9.85184
永離	-9.85222
廢	-9.85385
繫縛	-9.85464
長者子	-9.85492
能證	-9.85543
載	-9.85549
空寂	-9.85576
欲求	-9.85625
惡見	-9.85706
託	-9.85756
當體	-9.85792
四德	-9.85795
皆空	-9.85806
初心	-9.85814
此四	-9.85834
明了	-9.85935
無障礙	-9.85974
剎土	-9.86055
懼	-9.86115
尊重	-9.8622
彼諸	-9.86236
濕	-9.86493
都無	-9.86549
義者	-9.86588
認	-9.8665
有知	-9.86722
乃能	-9.86849
見道	-9.86911
除滅	-9.86995
誤	-9.8702
今文	-9.87055
藉	-9.87219
茲	-9.87223
莫不	-9.87264
一切人	-9.87269
名號	-9.87446
亦同	-9.87481
我法	-9.87539
開二	-9.87576
有此	-9.87638
色界	-9.87653
起於	-9.87675
法王	-9.87689
生死涅槃	-9.87911
四禪	-9.8798
無量百千	-9.88048
錯	-9.8808
身見	-9.88128
非實	-9.88167
梵志	-9.8819
真空	-9.88199
不達	-9.88242
之教	-9.88269
深心	-9.88443
不從	-9.88466
。▲	-9.88529
老死	-9.88544
乞食	-9.88628
稟	-9.88708
說者	-9.88713
慕	-9.88718
歌	-9.88819
看	-9.8893
昧	-9.88942
誓願	-9.88946
離一切	-9.88951
經說	-9.88977
可以	-9.88998
是我	-9.89073
炬	-9.89086
前文	-9.89088
唱	-9.89183
九者	-9.89205
我我所	-9.89232
良	-9.89274
君	-9.89349
能破	-9.8938
彼天	-9.89413
涉	-9.8947
不解	-9.89634
隔	-9.89679
氏	-9.8971
實法	-9.89714
洲	-9.89837
導師	-9.89892
諸天眾	-9.89923
入涅槃	-9.89945
▁四	-9.89987
借	-9.90016
離欲	-9.90076
六十	-9.90089
遍滿	-9.90093
脚	-9.90118
化眾生	-9.90142
無上菩提	-9.90181
能為	-9.90198
則知	-9.90201
委	-9.90235
具如	-9.90267
善哉善哉	-9.90277
是諸	-9.9028
若菩薩	-9.90321
今以	-9.90342
自利	-9.90389
傍	-9.90402
貫	-9.90432
幢佛南無	-9.90442
道者	-9.90477
最後	-9.90486
白佛	-9.90523
滯	-9.90537
帶	-9.90604
是事	-9.9061
我身	-9.90764
林中	-9.90856
過失	-9.9092
曉了	-9.90927
限	-9.91035
貪愛	-9.91035
滅盡	-9.91043
登	-9.91053
憎愛	-9.91119
建	-9.91162
界外	-9.91172
知識	-9.91193
普照	-9.91239
生天	-9.91364
▁南无無邊	-9.91556
憎	-9.91562
牽	-9.9159
諦聽	-9.91693
一云	-9.91729
非一	-9.9174
而住	-9.9179
本末	-9.91861
奉行	-9.9193
厚	-9.91955
的	-9.91962
愛見	-9.91968
統	-9.91977
成正覺	-9.91979
今初	-9.9199
慳	-9.92006
萬行	-9.92008
復白佛言	-9.92088
如虛空	-9.92202
即此	-9.92256
苦行	-9.92295
心中	-9.92334
百億	-9.92379
兵	-9.92384
直心	-9.92399
同時	-9.92406
右	-9.92494
也若	-9.92532
沈	-9.92535
眾會	-9.92584
佛告阿難	-9.92622
一切煩惱	-9.92631
不可以	-9.92635
五道	-9.92732
一切外道	-9.92778
心者	-9.9282
若得	-9.92888
一味	-9.9298
而復	-9.93002
心意	-9.93005
如我	-9.93028
渴	-9.93059
各別	-9.93111
煩惱障	-9.93143
酬	-9.9315
一劫	-9.93166
斷煩惱	-9.9317
妄心	-9.93229
皆以	-9.93231
當為汝說	-9.93238
豈有	-9.93259
散亂	-9.93356
其實	-9.93378
但云	-9.93468
正說	-9.93479
蜜	-9.93486
修證	-9.9349
於空	-9.93494
聲佛	-9.93534
等也	-9.93586
禁	-9.93587
州	-9.93697
大道	-9.93713
問疾	-9.93731
正行	-9.93774
苾芻	-9.93833
所明	-9.93859
同名	-9.93974
行處	-9.93982
初釋	-9.94034
色等	-9.94263
思議	-9.94315
之類	-9.94319
移	-9.94391
眾苦	-9.9445
宿命	-9.94532
佛果	-9.94544
二字	-9.94582
明佛	-9.94592
即有	-9.94621
學者	-9.94704
無比	-9.9474
揚	-9.94743
歸命	-9.94751
能說	-9.94868
祇	-9.94907
諸見	-9.9491
初約	-9.94948
若在	-9.94977
寒	-9.95038
▁南无金剛	-9.95068
日光	-9.95083
憶	-9.95103
依正	-9.95109
問言	-9.95121
以無	-9.95199
諸天子	-9.95255
真性	-9.95265
故今	-9.95272
次釋	-9.95279
牙	-9.95325
夫人	-9.95329
臂	-9.9535
未盡	-9.95404
正遍知	-9.95419
法行	-9.95453
聞已	-9.95472
灌頂	-9.95506
俗諦	-9.95545
若諸菩薩	-9.95572
不堪	-9.9562
狂	-9.95667
錄	-9.95701
局	-9.95726
豈可	-9.95845
能見	-9.95967
同一	-9.96006
怒	-9.96054
覺了	-9.96111
悉檀	-9.96159
蔽	-9.96185
舍利子	-9.96329
開悟	-9.96357
眾僧	-9.96407
不忘	-9.96426
食肉	-9.96532
說之	-9.96554
意者	-9.96587
不言	-9.96626
無所著	-9.96654
醫	-9.96658
信心	-9.96699
說此	-9.967
更無	-9.96743
此名	-9.96868
聽受	-9.96882
。」【○	-9.96961
四天下	-9.96968
人法	-9.97006
是中有佛	-9.97052
不爾	-9.97055
大願	-9.97244
白言	-9.97244
希	-9.97254
取相	-9.97281
為眾生	-9.97362
為宗	-9.97365
必有	-9.97455
當知是人	-9.97486
▁南无無量	-9.97532
十方諸佛	-9.97567
三十	-9.97568
誑	-9.97649
若復	-9.97727
鳴	-9.97737
所應	-9.97799
二見	-9.97825
不須	-9.97859
說名	-9.97864
三教	-9.9792
定意	-9.97931
得見	-9.98001
相對	-9.9805
根塵	-9.98095
等法	-9.98193
無窮	-9.9822
二十五	-9.98314
敬禮	-9.98387
清淨故	-9.98438
舍利弗言	-9.98488
齒	-9.98566
避	-9.98573
經典	-9.98586
)。」【	-9.98712
途	-9.98717
身體	-9.9878
四明	-9.98803
覺心	-9.9881
何者是	-9.98812
入道	-9.98839
法寶	-9.98898
所求	-9.98968
▁南无一切	-9.99086
殺生	-9.99092
境智	-9.99141
岸	-9.99201
婦	-9.99242
梵語	-9.99262
孔	-9.99289
未有	-9.99297
而非	-9.99378
參	-9.99383
諸佛菩薩	-9.99434
每	-9.99448
附	-9.99495
非謂	-9.99497
此翻	-9.99505
逢	-9.99615
仙人	-9.9962
解說	-9.99625
不名	-9.99688
令彼	-9.99716
恨	-9.99791
不敢	-9.99818
滅故	-9.99883
良由	-10.0001
意佛	-10.0009
付	-10.0015
愈	-10.0016
流布	-10.0016
於諸法	-10.0029
教化眾生	-10.0039
朝	-10.0046
擁護	-10.0052
形相	-10.0057
復以	-10.0063
因緣故	-10.0066
□	-10.007
一生	-10.0071
得脫	-10.0071
謝	-10.0072
竭	-10.0073
鈍	-10.0084
四天王	-10.0089
見其	-10.009
▁南无勝	-10.009
卑	-10.0091
空華	-10.0092
已得	-10.0093
一分	-10.0104
得入	-10.0107
既云	-10.011
丹	-10.0112
灰	-10.0116
:「『	-10.0116
而現	-10.0119
生故	-10.0123
分段	-10.0124
復更	-10.0127
五十	-10.0128
無人	-10.0129
即知	-10.0129
二答	-10.014
後世	-10.0144
響	-10.015
擊	-10.0154
者是	-10.0171
或復	-10.0176
攝取	-10.0176
優婆塞	-10.018
既是	-10.018
在家	-10.0185
初標	-10.0185
正因	-10.0187
三道	-10.0192
唯願	-10.0193
十者	-10.0194
厭離	-10.0194
離垢	-10.0199
二相	-10.0202
之果	-10.0206
一身	-10.0209
人所	-10.0213
般	-10.0213
出入	-10.0218
見思	-10.0226
敗	-10.0236
而成	-10.0239
旋	-10.0242
割	-10.0243
持世	-10.0255
六入	-10.0259
餘如上說	-10.0272
無心	-10.0276
盧	-10.0277
不及	-10.028
如水	-10.0284
第一義諦	-10.0297
能詮	-10.0297
博	-10.0307
周遍	-10.0311
依他	-10.0312
之德	-10.0318
心性	-10.0318
大臣	-10.0329
次明	-10.0332
不思議解脫	-10.0332
故此	-10.0333
得生	-10.0337
知其	-10.0339
不染	-10.0339
增減	-10.0341
流水	-10.0342
上下	-10.0344
道品	-10.0345
繩	-10.0349
本願	-10.0353
波羅	-10.0355
地前	-10.036
頓教	-10.0362
王菩	-10.0365
戲	-10.0365
生處	-10.0366
別釋	-10.0367
說是	-10.0368
波浪	-10.0368
希望	-10.0371
枯	-10.0374
授無上道記	-10.0379
聞佛	-10.0381
圍繞	-10.0383
四方	-10.0383
高下	-10.0387
復問	-10.0394
擇	-10.0396
由旬	-10.0398
相見	-10.0408
於如來	-10.041
須臾	-10.0415
正是	-10.0415
般若波羅蜜	-10.0416
我相	-10.0428
無復	-10.0429
善不善	-10.0436
濫	-10.0438
自證	-10.0444
四王	-10.0446
隨意	-10.0451
左	-10.047
丈夫	-10.048
我為	-10.0483
負	-10.0484
定慧	-10.0488
注云	-10.0493
鬘	-10.0499
訓	-10.0503
追	-10.0505
三義	-10.051
異名	-10.051
御	-10.0511
二無我	-10.0516
愍	-10.0527
現身	-10.0528
善行	-10.0528
喪	-10.0529
佛教	-10.053
尸	-10.0532
不久	-10.0533
有相	-10.054
此約	-10.0543
仁者	-10.0544
九十	-10.0545
能除	-10.0551
內心	-10.0554
聲聞乘	-10.0554
前三	-10.0556
析	-10.0565
三結	-10.0567
邪正	-10.0587
利根	-10.0588
染著	-10.0593
心識	-10.0594
自下	-10.0596
宅	-10.06
斷除	-10.0601
諸功德	-10.0603
里	-10.0604
求法	-10.0608
令人	-10.0613
北方	-10.0618
一切菩薩	-10.0622
一名	-10.0622
窟	-10.0622
心常	-10.0625
利養	-10.0632
軍	-10.0634
於他	-10.0634
納	-10.0636
無得	-10.0636
是真	-10.0637
苟	-10.0637
娑	-10.065
亦能	-10.0652
少分	-10.0652
性非性	-10.0653
本際	-10.0656
洗	-10.0656
幽	-10.0659
儒	-10.066
以法	-10.0661
天中	-10.0668
得此	-10.0675
輪轉	-10.0693
即於	-10.0696
一切如來	-10.0702
履	-10.0705
聞說	-10.0705
何有	-10.0713
本空	-10.0718
枝	-10.0719
三十二相	-10.0721
化生	-10.0728
猛	-10.073
六波羅蜜	-10.0732
大種	-10.0736
況復	-10.0741
飢渴	-10.0742
處所	-10.0743
▁南无師子	-10.0745
見之	-10.0746
眾多	-10.0747
科竟	-10.0751
根性	-10.0757
法藏	-10.0762
云何名	-10.0766
而去	-10.0766
比丘尼	-10.0768
不具	-10.0772
信相	-10.0772
七種	-10.0775
若是	-10.0777
體相	-10.0779
貌	-10.0785
掌	-10.0788
不妨	-10.0789
一處	-10.0795
一切法不生	-10.08
諸聖	-10.0801
四十	-10.0804
為彼	-10.0806
聽法	-10.0808
生者	-10.0808
有幾種	-10.0814
遭	-10.0814
之後	-10.0815
符	-10.0819
一切種智	-10.0819
所受	-10.0842
度眾生	-10.0842
文二	-10.0849
文殊師利言	-10.085
慧眼	-10.0853
財寶	-10.0861
〔	-10.0865
無所畏	-10.0874
積集	-10.0878
常為	-10.0883
大慧白佛言	-10.0907
為正	-10.0909
頂禮佛足	-10.091
善解	-10.0921
漸漸	-10.0928
何不	-10.0929
虫	-10.0932
非但	-10.0935
自心所現	-10.0937
佛南無善	-10.0952
客	-10.0956
空觀	-10.0957
發阿耨多羅三藐三菩提心	-10.0958
覺悟	-10.0958
不隨	-10.096
心境	-10.0962
其相	-10.0962
而彼	-10.0964
大法	-10.0966
真理	-10.0967
見聞	-10.097
汝當	-10.0978
則非	-10.0984
▁二釋	-10.0984
超越	-10.0985
叉	-10.0991
之說	-10.0992
無量功德	-10.0993
如來法身	-10.0995
火燒	-10.0998
自下第二	-10.0999
如佛	-10.0999
亦無有	-10.1005
多少	-10.1007
慈氏	-10.1008
性故	-10.101
不殺	-10.101
三性	-10.1037
斷常	-10.1042
釋迦牟尼佛	-10.1049
成佛道	-10.1055
自知	-10.1056
以下	-10.1063
從是	-10.1067
欲樂	-10.1083
眾寶	-10.1083
充	-10.1084
阿僧祇	-10.1084
一往	-10.1099
所說法	-10.1108
大聖	-10.1109
壽量	-10.1111
同體	-10.1114
端嚴	-10.113
所為	-10.1133
釋義	-10.1149
淨穢	-10.1155
為緣	-10.1158
漏盡	-10.116
見已	-10.116
聖教	-10.1162
實性	-10.1165
觀於	-10.1165
油	-10.1167
增益	-10.1168
邊際	-10.1173
行於	-10.1174
不畏	-10.1188
臭	-10.119
無憂	-10.1205
相即	-10.1206
嚴飾	-10.1211
輪王	-10.1216
安居	-10.1217
神名	-10.1218
四法	-10.1222
為三	-10.1223
心意意識	-10.1224
八難	-10.1225
逮得	-10.1227
真俗	-10.1231
眾中	-10.1233
大品	-10.1236
無央數	-10.124
或以	-10.1248
飢	-10.1251
欺	-10.1263
前二	-10.1263
行道	-10.1264
共相	-10.1266
若知	-10.1271
功德佛	-10.1276
中無	-10.1276
一切佛法	-10.1282
暢	-10.1286
某	-10.1286
之者	-10.1292
亦當	-10.1293
為是	-10.1295
因此	-10.1306
記云	-10.1307
擬	-10.1308
謂於	-10.1319
所觀	-10.1327
六種	-10.1329
閉	-10.133
所引	-10.1331
號曰	-10.1338
是道場	-10.1341
一日	-10.1348
多羅	-10.1349
解曰	-10.1357
殃	-10.1358
宋	-10.1359
不生滅	-10.136
無極	-10.1364
獸	-10.1365
善能	-10.1382
染污	-10.1383
意樂	-10.1389
無念	-10.1391
言無	-10.1392
階	-10.1393
隨機	-10.1404
或時	-10.1405
入定	-10.1405
無染	-10.1405
意云	-10.1406
不放逸	-10.1407
八萬	-10.1408
不可見	-10.141
初問	-10.1411
人無我	-10.142
豐	-10.1426
捨身	-10.1429
淨心	-10.1429
脩行	-10.143
諸幻	-10.143
藏佛	-10.1431
獲得	-10.1435
諸世間	-10.1442
度脫	-10.1442
得涅槃	-10.1444
如是如是	-10.1444
同於	-10.1449
受記	-10.1451
無定	-10.1453
睡	-10.1455
妄執	-10.1464
人王	-10.1468
發意	-10.147
別有	-10.1472
珍	-10.1473
覺者	-10.1473
生法	-10.1474
種種相	-10.1475
恣	-10.1483
出現	-10.1489
種姓	-10.1491
場	-10.1492
之業	-10.1495
漢	-10.1498
烏	-10.1499
救護	-10.1508
應云	-10.1511
大鈔	-10.1515
此中間	-10.1524
保	-10.1526
爾時世尊欲重宣此義而說偈言	-10.1526
煩	-10.1528
觀之	-10.153
冷	-10.1535
空有	-10.1536
威力	-10.1536
事相	-10.1546
最初	-10.155
召	-10.1553
以何	-10.1557
空也	-10.1563
謂此	-10.1563
嫉妬	-10.1579
轉輪王	-10.1583
也又	-10.1584
於中有二	-10.1593
破戒	-10.1596
毫	-10.1599
裏	-10.1601
延	-10.1602
術	-10.1603
三事	-10.1605
便能	-10.1609
缺	-10.161
諸業	-10.1614
積聚	-10.1617
得無生法忍	-10.1621
無體	-10.1623
復言	-10.1631
腹	-10.1631
色心	-10.1639
為他	-10.164
今言	-10.1641
此釋	-10.1642
我是	-10.1643
剎至	-10.1644
『	-10.1644
心所	-10.1645
▁【	-10.1662
毛孔	-10.1662
放光	-10.1678
有生	-10.1679
事業	-10.1683
為實	-10.1684
譬如有人	-10.1687
栴檀	-10.169
名聞	-10.1695
釋名	-10.1698
時節	-10.1702
或可	-10.1717
三十三天	-10.1723
夢中	-10.1723
萬法	-10.1725
或見	-10.1736
二空	-10.1748
▁南无月	-10.1752
戰	-10.1755
外境	-10.1759
皆依	-10.1773
軌	-10.1778
能取	-10.1779
大經	-10.178
此心	-10.1785
諸大眾	-10.1786
草木	-10.1787
下二	-10.1793
棄捨	-10.1814
非道	-10.1835
業報	-10.184
天宮	-10.1846
能持	-10.1852
大迦葉	-10.1855
妄想不生	-10.1857
遷	-10.1859
身命	-10.1862
而白佛言	-10.1863
知是	-10.1877
藏佛南無	-10.1878
天人師	-10.1882
下結	-10.1887
無上道	-10.1888
淨信	-10.1892
如理	-10.1893
箇	-10.1906
諸大	-10.1918
彈	-10.1918
一百	-10.1926
】【	-10.1926
報恩	-10.1927
去來	-10.1929
弱	-10.1932
別圓	-10.1939
藏菩	-10.1939
佛名	-10.1941
弟	-10.1941
畜	-10.1942
思量	-10.1948
卿	-10.195
繁	-10.1954
既有	-10.1955
如是觀	-10.1955
所住	-10.1965
真金	-10.1975
得菩提	-10.1976
野	-10.1978
無垢稱	-10.1979
能現	-10.198
生住滅	-10.1982
柱	-10.1984
麼	-10.2003
何法	-10.2005
蘭	-10.2008
狀	-10.2011
若復有人	-10.2011
信受	-10.2014
未斷	-10.2015
辦	-10.2016
長養	-10.2017
他方	-10.2017
聞者	-10.2019
亦為	-10.2024
諦觀	-10.2026
淺深	-10.2026
庶	-10.2031
轉輪聖王	-10.2033
生身	-10.2037
因故	-10.2037
唯一	-10.2045
生時	-10.2045
無言	-10.2048
色像	-10.2051
不能知	-10.2054
王舍城	-10.2057
佛所說	-10.2057
之上	-10.2059
一明	-10.206
甚多	-10.206
有十	-10.2062
通相	-10.2065
始覺	-10.2068
我聞	-10.2069
若聞	-10.2069
三釋	-10.207
摧	-10.2074
世間解	-10.2081
磨	-10.2089
即名	-10.2097
▁南无妙	-10.2102
若離	-10.2104
尺	-10.2105
所在	-10.2116
謂有	-10.2121
難得	-10.2127
已下	-10.2129
大力	-10.2129
狗	-10.2137
有性	-10.2139
佛出世	-10.215
萬歲	-10.2153
江	-10.2153
可解	-10.2157
明其	-10.2157
悟入	-10.216
蕩	-10.216
馳	-10.2162
飲酒	-10.2167
熾	-10.2167
而入	-10.2171
於世間	-10.2172
覺觀	-10.2176
四眾	-10.2178
我執	-10.2179
吹	-10.2184
天帝	-10.2186
吐	-10.2188
罪福	-10.2191
雜染	-10.2205
修善	-10.2205
前云	-10.2209
諸聲聞	-10.221
禍	-10.221
私	-10.2211
徑	-10.2212
頃	-10.2214
夷	-10.2214
手足	-10.2221
化作	-10.2222
第	-10.2223
南方	-10.2224
如大	-10.2235
惡人	-10.2238
令他	-10.2244
通曰	-10.2244
澤	-10.2245
教法	-10.2247
無厭	-10.2254
深密	-10.2257
無學	-10.2261
塞	-10.2265
末世眾生	-10.2267
圓明	-10.2271
優婆夷	-10.2295
離相	-10.2295
是為菩薩	-10.2299
自見	-10.2307
熾然	-10.231
所取	-10.2315
眼佛	-10.2318
空故	-10.2321
寶蓋	-10.2331
深法	-10.2331
章句	-10.2333
寶藏	-10.2334
爛	-10.2339
友	-10.2343
張	-10.2347
熾盛	-10.2353
頓漸	-10.2354
不違	-10.2355
同居	-10.2355
愁	-10.236
施與	-10.2361
得大	-10.2369
菩薩得	-10.2369
諸苦	-10.237
不虛	-10.2371
祕密	-10.2374
此諸	-10.2378
氷	-10.2379
增上慢	-10.2382
起滅	-10.2383
起信	-10.2392
有為法	-10.2398
嫉	-10.24
諸佛世尊	-10.2403
上上	-10.2403
報應	-10.2404
皆云	-10.2412
諸法無	-10.2412
此亦	-10.2422
昏	-10.2427
二智	-10.2428
五戒	-10.2429
心行	-10.2434
一類	-10.2436
不令	-10.244
迷悟	-10.2443
上佛	-10.2446
拂	-10.2449
不絕	-10.2454
勝解	-10.2455
常在	-10.2464
密嚴	-10.2465
六通	-10.2466
若此	-10.2467
補	-10.2469
逼	-10.2473
男子	-10.2478
弊	-10.2478
殘	-10.2482
八種	-10.2484
樂說	-10.2486
便得	-10.2488
言教	-10.2489
為作	-10.2492
須彌山	-10.2492
本自	-10.2499
一切法無	-10.2499
難可	-10.2502
取著	-10.2505
正定	-10.2506
偽	-10.2519
金光明經	-10.2519
下劣	-10.2522
為名	-10.2523
自在佛	-10.2531
法無	-10.2531
由彼	-10.2531
護法	-10.2532
此事	-10.2535
種類	-10.2543
伎樂	-10.2549
香積	-10.2549
不能得	-10.2552
5	-10.2561
聖諦	-10.2562
澄	-10.2563
慳貪	-10.2566
者則	-10.2567
皆無	-10.2568
自在佛南無	-10.2568
法樂	-10.2572
計有	-10.2583
心淨	-10.2583
二俱	-10.2586
伴	-10.2588
嚴淨	-10.2595
耶答	-10.2597
秋	-10.26
有見	-10.2602
是為六	-10.2604
空者	-10.2604
如經	-10.2606
見此	-10.2607
一種	-10.2609
答云	-10.2613
防	-10.2616
墜	-10.2616
讚佛	-10.2617
既不	-10.2626
噉	-10.2644
身口意	-10.2652
如空	-10.2656
淨戒	-10.2661
如虗空	-10.2662
諸弟子	-10.2663
。《	-10.2667
觀佛	-10.2668
邪行	-10.2669
出於	-10.2674
所不能	-10.2679
春	-10.2681
道法	-10.2683
心意識	-10.2687
當有	-10.2689
非彼	-10.2689
變異	-10.2694
八千	-10.27
刺	-10.2702
結集	-10.2707
譏	-10.2708
良以	-10.2709
其餘	-10.2712
一行	-10.2715
吾我	-10.2715
十信	-10.2717
法眼	-10.2718
為大	-10.2722
三字	-10.2725
未來世	-10.2726
群生	-10.2727
曠野	-10.2728
敢	-10.2729
無諍	-10.2744
世世	-10.2746
三藏教	-10.2749
禮拜	-10.2754
稍	-10.2755
乾闥婆	-10.2756
芽	-10.2759
娛樂	-10.2762
說法者	-10.2768
長壽	-10.2769
廣釋	-10.277
往詣	-10.2772
髻	-10.2775
務	-10.2781
意在	-10.2783
是心	-10.2784
不貪	-10.2788
作如是	-10.2788
皆同	-10.2795
意謂	-10.2808
所以然者	-10.281
。』」「	-10.281
觀身	-10.2811
與彼	-10.2811
經言	-10.2814
十法	-10.2817
地中	-10.2822
銀	-10.2825
佛南無大	-10.283
所居	-10.2831
觀法	-10.2833
諸魔	-10.2838
上方	-10.2844
穀	-10.2848
病者	-10.2857
豈得	-10.2857
休	-10.2863
門中	-10.288
四事	-10.2886
自性相	-10.2887
震	-10.2887
亦不見	-10.2888
怪	-10.2889
供養佛	-10.2895
牟尼	-10.2896
三塗	-10.2909
如幻夢	-10.2917
6	-10.2921
音佛	-10.2922
料簡	-10.2922
以有	-10.2923
薪	-10.2923
檢	-10.2926
不善業	-10.2932
唯佛	-10.2934
中初	-10.2934
道中	-10.2937
能觀	-10.2942
妄想分別	-10.2945
無見	-10.2945
信樂	-10.2948
圓頓	-10.2949
胡	-10.2951
念佛	-10.2953
知足	-10.2959
星宿	-10.2964
之物	-10.2973
必須	-10.2974
預	-10.2975
流出	-10.2975
會中	-10.2977
羊	-10.298
於人	-10.2984
法忍	-10.2986
眾生心	-10.2988
寂光	-10.2992
但說	-10.3002
只是	-10.3006
異熟	-10.3008
圓融	-10.301
一約	-10.301
一闡提	-10.3012
阿僧祇劫	-10.3013
卒	-10.3015
無上士	-10.3023
如來所	-10.3024
電	-10.3028
神變	-10.304
方名	-10.3041
恒河沙	-10.3053
玉	-10.3053
之地	-10.3058
即真	-10.3062
墮地獄	-10.3065
得佛	-10.3066
相現	-10.3066
梵音	-10.3067
有我	-10.3071
無願	-10.3075
心故	-10.3086
生善	-10.3087
軟	-10.3087
愚癡凡夫	-10.3087
常樂我淨	-10.3088
遊行	-10.309
方得	-10.3094
佛為	-10.3095
惟願	-10.3099
之門	-10.31
分二	-10.3103
威德佛南無	-10.3108
生生	-10.3113
之樂	-10.3114
然則	-10.3118
悉能	-10.3119
兔角	-10.3119
麻	-10.312
功用	-10.312
跋	-10.3124
愚人	-10.3131
五識	-10.3131
廣明	-10.314
稱佛	-10.3142
自巳	-10.3144
宛然	-10.3152
但為	-10.3161
說一切法	-10.3162
之外	-10.3164
曜	-10.3167
初住	-10.3173
娑婆	-10.3175
嗔	-10.3175
謙	-10.3177
糞	-10.3178
不見有	-10.3178
而出	-10.3186
乏	-10.319
麤重	-10.3191
而來	-10.3194
意生身	-10.3195
動搖	-10.3197
波頭摩	-10.3203
今當	-10.3206
性無性	-10.3206
喚	-10.3216
凡有	-10.3219
禁戒	-10.3219
文義	-10.3224
三十六	-10.3224
不相應	-10.3227
本淨	-10.3229
哩	-10.3232
當於	-10.3234
誘	-10.3234
其體	-10.3236
瘡	-10.3237
自相共相	-10.3237
得阿耨多羅三藐三菩提	-10.3243
何等為四	-10.3244
圓成	-10.3244
無所不	-10.3246
中說	-10.3248
作用	-10.3252
應化	-10.3253
妄念	-10.3254
婦女	-10.3259
哀愍	-10.3261
無色界	-10.3263
偈云	-10.3264
王如來	-10.3265
洞	-10.3269
得成	-10.3272
利物	-10.3274
光照	-10.329
賢者	-10.3291
甘	-10.3291
是為四	-10.3294
有六	-10.3295
婬怒癡	-10.3296
受持讀誦	-10.3303
意菩	-10.3304
得自在	-10.3309
顏	-10.3314
隨心	-10.332
碎	-10.3324
法供養	-10.3325
自恣	-10.3325
以成	-10.3327
奮迅	-10.3327
常見	-10.333
有所得	-10.3336
不當	-10.3338
是一	-10.3341
來生	-10.3344
齋	-10.3346
若善男子	-10.3348
異者	-10.3348
合成	-10.3348
銅	-10.3352
睡眠	-10.3356
無為法	-10.3361
大論	-10.3373
所念	-10.3373
鈍根	-10.3378
皆能	-10.3379
於是頌曰	-10.3381
危	-10.3382
輒	-10.3383
思念	-10.3386
現見	-10.3387
忽然	-10.3388
觀也	-10.3389
我言	-10.3389
法執	-10.3392
智斷	-10.3392
能起	-10.3393
而修	-10.3414
梁	-10.3427
後二	-10.3429
無可	-10.3436
修行菩薩	-10.3442
非色	-10.3444
其性	-10.3445
如來所說	-10.3445
無諸	-10.3449
有兩	-10.3449
眾緣	-10.3456
侍者	-10.346
虗妄分別	-10.3463
不分別	-10.3465
顧	-10.3468
品云	-10.3476
以自	-10.3477
名義	-10.3478
摩訶衍	-10.3479
雖無	-10.348
一切功德	-10.3488
如是我聞	-10.3489
為其	-10.3491
何名	-10.3493
無動	-10.3494
身口	-10.3494
善吉	-10.35
頻	-10.3503
能入	-10.3504
苦諦	-10.3505
身者	-10.351
下方	-10.3512
契經	-10.3516
有其	-10.3519
或為	-10.3528
憂惱	-10.3531
禪那	-10.3537
求那	-10.3538
勇健	-10.354
執持	-10.354
是無常	-10.3542
別相	-10.3542
榮	-10.3544
不死	-10.3544
諸趣	-10.3551
依彼	-10.3552
贊	-10.3553
妙吉祥	-10.3555
佛國土	-10.3559
敵	-10.3559
何謂菩薩	-10.3561
扶	-10.3563
意業	-10.3564
所立	-10.3569
柔	-10.3571
所願	-10.3571
此方	-10.3584
瞿曇	-10.359
不必	-10.3591
復生	-10.3595
憐愍	-10.3595
惜	-10.3598
三時	-10.3599
性者	-10.3601
是菩薩行	-10.3603
因相	-10.3604
彌勒菩薩	-10.3613
所縛	-10.3616
頓悟	-10.3621
斷惑	-10.3622
慚	-10.3622
肉眼	-10.3624
護世	-10.3626
封	-10.3626
問也	-10.3626
如是說	-10.3629
離自性	-10.364
翻為	-10.3645
斷諸	-10.3646
佛眼	-10.3647
騰	-10.3651
此菩薩者	-10.3652
奉持	-10.366
婆沙	-10.366
依報	-10.3662
夜摩天	-10.3662
得失	-10.3673
疎	-10.3681
迎	-10.3683
嫌	-10.3684
說經	-10.3687
於意云何	-10.3688
常不思議	-10.3693
赴	-10.3699
▁南无功德	-10.3702
不待	-10.3709
歡	-10.3716
聞經	-10.3721
正答	-10.3721
下至	-10.3723
言說妄想	-10.3725
地上	-10.3726
十方世界	-10.373
思想	-10.3734
尊特	-10.3734
之過	-10.3738
即彼	-10.3741
伐	-10.3744
針	-10.3748
塵垢	-10.3752
不假	-10.3754
常得	-10.3755
常行	-10.3756
知諸法	-10.3758
暴	-10.3762
如斯	-10.3766
與諸	-10.3767
咎	-10.3769
佛智	-10.3771
奇	-10.3771
於生死	-10.3772
亦說	-10.3774
所持	-10.3775
穿	-10.3777
陀羅	-10.3781
肩	-10.3781
知一切法	-10.3785
冬	-10.3786
遵	-10.3788
即前	-10.3789
真常	-10.3801
罵	-10.3802
羣	-10.3805
無生忍	-10.3811
四念處	-10.3811
者荊溪云	-10.3819
開發	-10.3823
給	-10.3826
又曰	-10.3829
當為	-10.3831
己身	-10.3831
休息	-10.3836
見彼	-10.384
善思念之	-10.3843
佛世尊	-10.3843
不足	-10.3845
觀門	-10.3846
入空	-10.3846
方能	-10.3855
有疾	-10.3858
能滅	-10.3864
為首	-10.3867
隣	-10.3868
資生	-10.3874
諸人	-10.388
或說	-10.388
作此	-10.388
泉	-10.3889
輔	-10.3897
沉	-10.3898
雷	-10.3901
人也	-10.3903
度無極有六事	-10.3905
樹神	-10.3911
初發心	-10.3912
名為涅槃	-10.3913
述成	-10.3915
稱讚	-10.3925
船	-10.3931
甲	-10.3932
堅意	-10.3937
▁一	-10.3938
取證	-10.3938
上文	-10.394
樂欲	-10.3942
云何名為	-10.3944
解脫者	-10.3947
聖眾	-10.3947
論中	-10.3949
佛南無勝	-10.395
下三	-10.3952
五逆	-10.3957
鄙	-10.3961
更不	-10.3963
?」「	-10.3964
而見	-10.3964
滅除	-10.3966
稱佛南無	-10.3966
無量眾生	-10.3968
如海	-10.3968
隨入	-10.3969
五性	-10.397
楞嚴	-10.3973
天主	-10.3979
悲心	-10.3982
十住	-10.3984
能以	-10.3986
之曰	-10.3989
7	-10.399
潛	-10.3992
否	-10.3993
才	-10.3997
之用	-10.3999
皆令	-10.4005
消滅	-10.4006
作如是說	-10.4008
時彼	-10.4011
險	-10.4016
意也	-10.402
抱	-10.4024
開化	-10.4028
悕望	-10.403
種種諸	-10.4031
波羅蜜多	-10.4034
金銀	-10.4043
有七	-10.4044
幡	-10.4046
二教	-10.405
非異非不異	-10.4053
浪	-10.4057
阿那含	-10.4057
貪瞋癡	-10.4058
取捨	-10.4065
得益	-10.4066
三智	-10.4077
超過	-10.4078
回	-10.4081
縱廣	-10.4081
那羅延	-10.4085
點	-10.4086
吒	-10.4086
按	-10.4091
兩句	-10.4104
應以	-10.4104
是知	-10.4108
不來	-10.4111
族	-10.4112
踊	-10.4116
上妙	-10.4119
文為二初	-10.4119
若作	-10.412
擾	-10.4121
遙	-10.4131
孤	-10.4141
上首	-10.4143
無滅	-10.4144
後三	-10.4145
心數	-10.4146
有法	-10.4146
諂	-10.415
無生滅	-10.4156
觀眾生	-10.4161
問佛	-10.4163
初禪	-10.4166
疑惑	-10.4169
初文	-10.4171
久住	-10.4174
三約	-10.4174
潔	-10.4183
初二	-10.4183
劍	-10.4187
維摩詰言	-10.4187
金光	-10.4194
瑠璃	-10.42
真珠	-10.4208
巳上	-10.4211
有為無為	-10.4212
䟽	-10.4216
渡	-10.4217
童	-10.422
步佛	-10.4224
謂彼	-10.4227
過於	-10.4228
二名	-10.4232
滿中	-10.4233
法華經	-10.4234
作法	-10.4236
降魔	-10.4241
孰	-10.4247
諸教	-10.4248
□□	-10.4248
所顯	-10.4248
可說	-10.4255
相待	-10.4256
塵沙	-10.4259
真妄	-10.4261
聞佛所說	-10.4264
能於	-10.4266
令我	-10.4268
後一	-10.4268
勸請	-10.4278
溺	-10.4278
離我我所	-10.4279
聞之	-10.4279
誰為	-10.4292
行法	-10.4301
眾德	-10.4303
有八	-10.4303
從何	-10.4304
燈佛	-10.4307
詐	-10.4308
若彼	-10.4309
往生	-10.4313
漂	-10.4315
其名	-10.4317
音樂	-10.4322
云何得	-10.4325
我慢	-10.4327
密意	-10.4335
之異	-10.4338
復見	-10.4339
行也	-10.4344
從初	-10.4345
實智	-10.4349
毘琉璃	-10.436
十方佛	-10.4366
困	-10.4367
自念	-10.4367
所熏	-10.4367
至此	-10.4373
涅槃者	-10.4373
包	-10.4376
悉令	-10.4377
聲聞辟支佛	-10.4377
圍	-10.4378
差別相	-10.4381
便生	-10.4382
大經云	-10.439
無行	-10.4392
用心	-10.4392
如日	-10.4394
不亂	-10.4402
閻浮	-10.4406
所知障	-10.4407
爪	-10.441
中有二	-10.4411
受者	-10.4412
大千	-10.4421
實慧	-10.4424
衣食	-10.4424
今謂	-10.4429
實義	-10.4433
學道	-10.4434
滅者	-10.4438
善人	-10.444
又有	-10.4447
我者	-10.4455
不修	-10.4456
業相	-10.4462
欲見	-10.4467
遍知	-10.4468
錢	-10.4473
嬈	-10.4474
而為說法	-10.4475
植	-10.4476
勒	-10.4476
束	-10.4476
猗	-10.4477
形處	-10.4484
一品	-10.449
我亦	-10.4491
心也	-10.4499
菩薩如是	-10.45
狹	-10.4506
我所說	-10.4506
藥師	-10.4512
圓照	-10.4514
亦不得	-10.4526
不息	-10.4528
諸法實相	-10.4528
五句	-10.4534
省	-10.4537
域	-10.4538
曷	-10.4543
或作	-10.4544
有因	-10.4547
不有	-10.4554
神我	-10.4559
唯然	-10.456
時有	-10.4565
滅諦	-10.4569
素	-10.4571
猶有	-10.4571
▁初明	-10.4585
有差別	-10.459
初句	-10.4595
纔	-10.4603
劫中	-10.4607
一切佛	-10.4608
迦羅	-10.4609
猶未	-10.4609
轉識	-10.4609
便是	-10.4611
之間	-10.4616
何者為	-10.4619
五色	-10.4621
到彼岸	-10.4621
於三界	-10.4631
人身	-10.464
實語	-10.4646
不食	-10.4647
月佛	-10.4649
富貴	-10.4649
不疑	-10.4655
因緣生	-10.4662
數息	-10.4665
虛妄分別	-10.4668
殺害	-10.4669
諸佛所	-10.4671
是實	-10.4672
得清淨	-10.4678
釋也	-10.4682
三月	-10.4686
因地	-10.4687
出體	-10.4698
形色	-10.4699
文為二	-10.47
誨	-10.4705
淚	-10.4706
𦦨	-10.4707
利樂	-10.4711
稻	-10.4713
不轉	-10.4715
皆當	-10.4715
王如來南無	-10.472
女身	-10.4727
最為	-10.4729
能成	-10.473
何異	-10.4732
同異	-10.4738
深妙	-10.4739
因也	-10.4741
踰	-10.4742
因中	-10.4743
頂禮	-10.4744
為性	-10.4744
壁	-10.4747
眾魔	-10.475
熱惱	-10.4753
是為入不二法門	-10.4757
墮落	-10.476
與佛	-10.4767
十萬	-10.4776
彼法	-10.4777
相分	-10.4777
其福	-10.478
作是思惟	-10.4787
於諸眾生	-10.4788
即非	-10.4797
三品	-10.4808
化人	-10.481
抑	-10.4812
我心	-10.4813
無疑	-10.4816
厄	-10.4817
不可盡	-10.4826
釋成	-10.4827
得度	-10.4837
是非	-10.4837
聽聞	-10.4838
非作	-10.4845
法義	-10.4845
此問	-10.4851
分別說	-10.4853
作禮	-10.4857
大苦	-10.4861
風吹	-10.4861
▁二明	-10.4866
阿含	-10.4868
畢竟空	-10.4869
薰	-10.4876
四佛	-10.4877
崇	-10.4879
現世	-10.4879
於餘	-10.4881
佛事	-10.4882
如來身	-10.4883
紅	-10.4884
智也	-10.4885
三十七品	-10.4885
別明	-10.4889
能與	-10.4892
速疾	-10.4892
禪師	-10.4892
怛	-10.491
外性非性	-10.492
以是義故	-10.4921
勝劣	-10.4922
何等為	-10.4924
即成	-10.4927
從彼	-10.4927
鬪	-10.4929
與此	-10.493
唯除	-10.4931
眾行	-10.4931
瑞	-10.4936
則以	-10.4936
盆	-10.4946
不實妄想	-10.4946
4	-10.4947
為五	-10.4949
賴耶	-10.4953
我以	-10.4956
師子座	-10.4974
護念	-10.4976
餘人	-10.498
寬	-10.4983
或現	-10.4984
此說	-10.4986
士夫	-10.4986
游	-10.4988
律儀	-10.4989
為諸	-10.4989
□□□	-10.4991
勤苦	-10.5004
大慈悲	-10.5004
三世諸佛	-10.5009
逸	-10.5018
來者	-10.5018
亦以	-10.502
善心	-10.5021
停	-10.5021
而取	-10.5022
觀者	-10.5022
莖	-10.5024
芥子	-10.5024
無名	-10.5024
於前	-10.5026
無處	-10.5028
娑婆世界	-10.5028
具云	-10.5028
攝所攝	-10.5028
證入	-10.5029
十八界	-10.5038
即入	-10.5042
亦不可得	-10.5044
佛南無無邊	-10.5046
鑒	-10.5049
撿	-10.5051
秪	-10.5055
作所作	-10.506
當生	-10.506
三禪	-10.5061
世尊告	-10.5061
空義	-10.5066
非時	-10.5068
九地	-10.5071
丈	-10.5071
非人	-10.508
前白佛言	-10.5081
皆不	-10.5082
不用	-10.5085
象馬	-10.5088
其本	-10.5092
實叉云	-10.5094
未知	-10.5096
常以	-10.51
二十八	-10.5102
彼此	-10.5105
為涅槃	-10.5107
有無量	-10.5109
是智	-10.5112
正等覺	-10.5112
晝	-10.5115
聖者	-10.5119
觀此	-10.5125
乃為	-10.5125
聚集	-10.5133
閑	-10.5138
總別	-10.5141
如文	-10.5143
業果	-10.5147
耆	-10.5155
釋提桓因	-10.5157
瞻	-10.5157
彼土	-10.5158
三昧樂	-10.5158
慰喻	-10.516
不是	-10.5162
照明	-10.5163
隨逐	-10.5164
一一皆	-10.5177
聞如是	-10.5184
不可量	-10.5188
形像	-10.5192
分三	-10.5192
卷云	-10.5196
當以	-10.5198
即從座起	-10.52
佛之	-10.5201
賤	-10.5203
句義	-10.5203
怨家	-10.5203
若說	-10.5206
我人	-10.5209
不可得故	-10.5211
普眼	-10.5212
教授	-10.5212
其文	-10.5212
令諸眾生	-10.5214
妙音	-10.5216
南無寶	-10.5218
妄分別	-10.5219
婬欲	-10.5223
為義	-10.5226
巍巍	-10.5227
恥	-10.5228
貢高	-10.5228
惡心	-10.523
依他起	-10.5231
村	-10.5232
彼經	-10.5233
脈	-10.5235
又解	-10.5243
恃	-10.5243
性自性相	-10.5244
病苦	-10.5245
二人	-10.5248
善修	-10.525
眾生故	-10.5252
道人	-10.5254
其事	-10.5255
轉依	-10.5256
四果	-10.5256
總名	-10.5256
試	-10.5262
水中	-10.5262
箭	-10.5265
若有善男子	-10.5265
魔王	-10.5266
二別	-10.5273
後明	-10.5275
無差	-10.5278
長老	-10.5282
通於	-10.5283
大菩提	-10.5283
南無無量	-10.5283
八部	-10.5292
各異	-10.5296
正報	-10.5297
山中	-10.5297
陵	-10.5298
愧	-10.5298
癡愛	-10.5298
令諸	-10.5302
焦	-10.5304
佛答	-10.5307
體是	-10.5308
惡口	-10.5315
無所生	-10.5316
則生	-10.532
所趣	-10.5322
恭敬供養	-10.5322
所愛	-10.5323
五通	-10.5325
眠	-10.5325
盖	-10.5327
作業	-10.5331
旦	-10.5333
非常非無常	-10.5335
度生	-10.5335
無失	-10.5337
說為	-10.5337
是曰智慧	-10.5338
亦空	-10.534
四等	-10.5344
南無大	-10.5347
為說法	-10.5354
何緣	-10.5354
深入	-10.536
萬二千	-10.5363
彩	-10.5367
莫能	-10.5367
數數	-10.5368
緩	-10.5368
摩羅	-10.5368
今既	-10.537
五義	-10.537
肇公曰	-10.5371
妙香	-10.5371
計我	-10.5372
亦不能	-10.5374
狐疑	-10.5375
親友	-10.5377
▁初釋	-10.5377
雙非	-10.5378
無分別智	-10.5379
左右	-10.5381
何為	-10.5383
不能自	-10.5384
彼以聞慧或以天眼見	-10.5385
尋思	-10.5394
上明	-10.5396
受報	-10.5397
后	-10.5399
有佛	-10.5403
滋	-10.5406
燈明	-10.541
是曰布施	-10.541
自通	-10.5413
是如來	-10.5414
之與	-10.5415
▁南无日	-10.5416
七十	-10.5419
上中下	-10.5421
為我說	-10.5422
十千	-10.5422
兩舌	-10.5422
不顛倒	-10.5423
如火	-10.5431
頭陀	-10.5434
本迹	-10.5436
!』	-10.5436
是有	-10.544
競	-10.5444
升	-10.5446
以智慧	-10.5449
奇特	-10.5451
可取	-10.5456
文三	-10.5463
之有	-10.5467
善住	-10.5474
若有人	-10.5477
徵釋	-10.5477
抄	-10.5481
是曰精進	-10.5482
孔雀	-10.5482
精勤	-10.5488
捉	-10.549
來意	-10.549
之想	-10.5491
不也	-10.5501
山峯	-10.5501
和尚	-10.5502
是三昧	-10.5503
無主	-10.5504
為道	-10.5505
娑羅	-10.5505
不應食肉	-10.5511
結使	-10.5512
永滅	-10.5512
為有	-10.5514
考	-10.5515
測	-10.5515
諸波羅蜜	-10.5516
是曰一心	-10.5519
是曰持戒	-10.5519
釋之	-10.552
於世	-10.5526
三障	-10.5528
說偈	-10.5529
此皆	-10.5529
即當	-10.5531
前說	-10.5533
曼殊尸利	-10.5533
就此	-10.5533
作是言	-10.5539
鑛	-10.5548
圖	-10.5551
而此	-10.5553
智佛南無	-10.5553
斷德	-10.5555
天曰	-10.5555
不相違	-10.5558
智德	-10.5559
此初也	-10.5562
過故	-10.5569
有說	-10.5574
悉是	-10.5577
地獄中	-10.5579
工	-10.5586
作涅槃想	-10.5588
一體	-10.5589
於後	-10.5591
此初	-10.5592
淵	-10.5593
受大苦惱	-10.5593
緊那羅	-10.5596
具有	-10.5596
隨時	-10.5599
無病	-10.5602
也經言	-10.5604
二十四	-10.5609
能壞	-10.561
果也	-10.5615
妙色	-10.5616
生也	-10.5624
賜	-10.5627
為令	-10.5633
識滅	-10.5641
發明	-10.5646
故稱	-10.5649
識藏	-10.5652
起諸	-10.5656
華嚴云	-10.5657
生彼	-10.5657
健	-10.566
妄法	-10.5662
毒蛇	-10.5665
篇	-10.5666
是曰忍辱	-10.5666
功德佛南無	-10.5666
鎧	-10.567
眾惡	-10.5678
勝義諦	-10.5682
諍訟	-10.5684
受諸	-10.5685
覺想	-10.5685
無有異	-10.5698
寶珠	-10.5701
營	-10.5701
均	-10.5702
英	-10.5704
天竺	-10.5705
無減	-10.5708
未見	-10.5709
其地	-10.5717
莊嚴佛	-10.5722
惡行	-10.5723
五力	-10.5723
及諸菩薩	-10.5724
至于	-10.5728
婆羅	-10.5734
黎	-10.5737
率	-10.5738
唯說	-10.5739
坐禪	-10.574
後有	-10.5741
如是知	-10.5741
優波離	-10.5749
故問	-10.5752
因者	-10.5754
歸於	-10.5759
如下	-10.576
得樂	-10.5761
光菩	-10.5767
所入	-10.5769
為諸眾生	-10.5772
訛	-10.5774
是常	-10.5776
辛	-10.5778
願力	-10.5778
雄	-10.5778
是故我說	-10.5779
門也	-10.5779
斷絕	-10.5783
世界中	-10.5783
所覆	-10.5787
助道	-10.5788
此非	-10.5788
秦	-10.5791
弘誓	-10.5796
生天上	-10.5799
擔	-10.5802
論師	-10.5808
佛慧	-10.5811
無有是處	-10.582
常念	-10.5823
不肯	-10.5831
佛南無普	-10.5831
佛種	-10.5833
無限	-10.5834
入不二法門	-10.5835
薩婆若	-10.5836
見諦	-10.5844
憍	-10.5848
亦皆	-10.5849
價	-10.5849
此五	-10.5849
書寫	-10.585
大論云	-10.5854
經意	-10.5855
所歸	-10.5856
亦復然	-10.5859
何謂為	-10.5862
所斷	-10.5862
成就眾生	-10.5863
須知	-10.5864
二正	-10.5865
宗通	-10.5865
食之	-10.5866
如前所說	-10.5867
神呪	-10.5874
能解	-10.5874
於眾生	-10.5875
執有	-10.5877
闡提	-10.5879
言辭	-10.5881
無數劫	-10.5881
胸	-10.5885
資糧	-10.5888
諸菩薩等	-10.5889
攬	-10.589
勤精進	-10.589
三摩鉢提	-10.5891
斯陀含	-10.5892
皆大歡喜	-10.5892
無方	-10.5895
偷盜	-10.5897
不觀	-10.5901
雖行	-10.5905
心即	-10.5906
上品	-10.5908
千歲	-10.591
條	-10.5913
起行	-10.5914
自在王佛	-10.5914
所須	-10.5915
皆因	-10.592
灌	-10.5922
餘處	-10.5922
眼佛南無	-10.5925
稱為	-10.5929
天帝釋	-10.593
皆應	-10.5932
剋	-10.5933
身業	-10.5936
爾時世尊告	-10.5942
輕安	-10.5943
鏡像	-10.5945
依法	-10.5946
天神	-10.5952
▁南无無垢	-10.5953
復說	-10.5958
採	-10.596
三惡道	-10.5961
地水火風	-10.5964
中生	-10.5965
忿	-10.5965
聾	-10.5969
有種種	-10.5973
水火	-10.5974
優	-10.5975
理事	-10.5976
行菩薩	-10.5977
所覺	-10.5977
見諸	-10.5977
九種	-10.5981
▁南无淨	-10.5982
四土	-10.5985
能發	-10.5986
六地	-10.5987
魏	-10.5987
十惡	-10.5987
聖賢	-10.5991
在前	-10.5992
大城	-10.5995
若使	-10.5997
妄想相	-10.5997
遠離諸	-10.5997
經王	-10.6
真法	-10.6
寫	-10.6001
虗偽	-10.6003
城中	-10.6006
應時	-10.6011
不立	-10.602
之見	-10.6028
為四	-10.6029
生歡喜	-10.6031
異生	-10.6031
利鈍	-10.6032
於未來世	-10.6032
湯	-10.6035
生空	-10.6038
佛弟子	-10.6039
武	-10.6039
如來應供等正覺	-10.6039
彼云	-10.604
出家者	-10.6041
菩薩白佛言	-10.6042
亦滅	-10.6042
所出	-10.6043
百千萬億	-10.6045
未生	-10.6045
戀	-10.6045
汁	-10.6046
得阿羅漢	-10.6051
名言	-10.6052
緣故	-10.6053
終教	-10.6053
甞	-10.6058
註云	-10.6059
忉利天	-10.6062
涅槃經	-10.6064
當作	-10.6068
二門	-10.6068
▁五	-10.6072
等事	-10.6078
截	-10.608
是等	-10.6082
然燈	-10.6083
迦旃延	-10.6084
因生	-10.6085
二事	-10.6088
約教	-10.6089
淨覺	-10.6091
▁南无無	-10.6093
有緣	-10.6094
臥具	-10.6096
滅則	-10.6096
知此	-10.6106
宰	-10.6108
為求	-10.6112
寤	-10.6116
非唯	-10.6117
政	-10.6117
疏二	-10.6122
絕待	-10.6131
至誠	-10.6133
所照	-10.6135
被呵	-10.6135
總標	-10.6141
現量	-10.6144
彼等	-10.6145
勸修	-10.6149
峯	-10.6151
正宗	-10.6155
煙	-10.6156
能捨	-10.6161
諸師	-10.6168
能行	-10.6176
了別	-10.6184
有二義	-10.6188
佛南無智	-10.6188
箋	-10.6191
口業	-10.6191
什公	-10.6196
何能	-10.6197
香氣	-10.62
內身	-10.6204
下次	-10.621
行故	-10.6211
眾鳥	-10.6215
作諸	-10.6216
之旨	-10.6222
則得	-10.6225
那由他	-10.6226
舊云	-10.6227
所計	-10.6228
諸佛法	-10.6229
8	-10.6235
用之	-10.6236
財施	-10.6237
披	-10.6237
德本	-10.6241
諸緣	-10.6245
一部	-10.6245
然彼	-10.6246
聰明	-10.625
是即	-10.6251
尸羅	-10.6252
獨覺	-10.6253
住地	-10.6255
一事	-10.6259
雖是	-10.626
普遍	-10.6262
體用	-10.6263
業識	-10.6268
種種色	-10.6268
別名	-10.6268
灑	-10.6273
而作是言	-10.6273
髓	-10.6275
說也	-10.6275
智度論	-10.6275
羅網	-10.6275
之病	-10.6276
值佛	-10.628
而不能	-10.6283
施主	-10.6283
生相	-10.6284
今約	-10.6287
精舍	-10.6287
了因	-10.6289
是則名為	-10.6293
惱亂	-10.6294
但約	-10.6302
能了	-10.6304
伊	-10.631
屋	-10.6313
煖	-10.6314
所感	-10.6317
威德佛	-10.6318
而立	-10.632
至靜	-10.6321
如今	-10.6323
諸陰	-10.6324
而實	-10.6329
竹	-10.6329
子曰	-10.6345
發生	-10.6345
與之	-10.6347
勝法	-10.6352
能離	-10.6353
述曰	-10.6353
寶莊嚴	-10.6353
門者	-10.6361
恭	-10.6363
頗梨	-10.6364
如次	-10.6367
丈六	-10.6367
諸菩薩眾	-10.6368
是故大慧	-10.6368
諸禪	-10.6368
海水	-10.6369
應有	-10.6372
猶是	-10.6377
或言	-10.638
無障	-10.6381
知法	-10.6381
宴坐	-10.6381
空性	-10.6383
不過	-10.6387
無眾生	-10.6389
獻	-10.639
你	-10.6392
產	-10.6392
結示	-10.6393
藥叉	-10.6395
不可言	-10.6396
多所	-10.6399
及末世眾生	-10.6401
見相	-10.6401
玄義	-10.6403
湛然	-10.6406
稱歎	-10.6407
復為	-10.6408
顯理	-10.6411
是故名為	-10.6413
必定	-10.6415
未甞	-10.6417
悉知	-10.6421
無常者	-10.6422
如金	-10.6422
乃得	-10.6423
妄想生	-10.6424
月光	-10.643
深淺	-10.643
佉	-10.643
此即初也	-10.6432
悉得	-10.6433
曼殊室利	-10.6437
辨才	-10.6438
如來說	-10.6441
自覺聖	-10.6441
▁南无香	-10.6442
無起	-10.6446
自妄想	-10.6455
無生法忍	-10.6458
無等	-10.646
疾得	-10.6462
具三	-10.6463
後結	-10.6466
踊躍	-10.6469
西域	-10.6472
一切境界	-10.6473
穢土	-10.6475
外法	-10.6476
詰	-10.6477
修羅	-10.6477
婆伽婆	-10.6479
世界名	-10.6481
佛界	-10.6482
怨賊	-10.6484
為種	-10.6485
證涅槃	-10.6487
一切悉	-10.6494
剎利	-10.6494
由前	-10.6496
功能	-10.6496
法本	-10.6504
滅定	-10.6506
如月	-10.6507
上根	-10.6507
正士	-10.6508
造業	-10.6512
體也	-10.6514
不明	-10.6515
祭	-10.6518
摧伏	-10.6519
無受	-10.6524
眾香	-10.6526
復於	-10.6526
令知	-10.6529
五法自性	-10.6529
聚佛	-10.6531
還復	-10.6535
釋迦牟尼	-10.6541
總相	-10.6541
心相	-10.6543
自生	-10.6544
不由	-10.6546
溫	-10.6552
如是之人	-10.6557
▁○	-10.6558
饒	-10.6561
所施	-10.6562
禮敬	-10.657
之子	-10.6575
六十二見	-10.6578
遍計	-10.6579
非非	-10.6579
妄生	-10.6582
是空	-10.6585
通名	-10.6585
來去	-10.6585
千萬	-10.6592
貪恚癡	-10.6595
腸	-10.6595
諷誦	-10.6597
伸	-10.6598
問訊	-10.6601
應當修學	-10.6602
何等法	-10.6602
無際	-10.6603
空閑	-10.6605
不但	-10.6605
空空	-10.6607
廣如	-10.6609
即滅	-10.6615
為真	-10.6619
非想	-10.6622
無罪	-10.6623
道也	-10.6626
難思	-10.663
不曾	-10.6632
不別	-10.6632
而後	-10.6633
染法	-10.6637
大鈔云	-10.6637
殖	-10.6637
繞	-10.6638
逼迫	-10.6638
趣向	-10.664
事故	-10.664
位中	-10.664
大威德	-10.6644
離此	-10.6645
初總	-10.6646
止息	-10.6647
之功	-10.6649
諸大菩薩	-10.6652
異於	-10.6661
百千萬	-10.6664
亦名為	-10.6665
出生死	-10.6666
愚者	-10.6667
虛空中	-10.6668
之眾	-10.6669
所樂	-10.667
與其	-10.6673
滴	-10.6674
經者	-10.6675
憑	-10.6677
循	-10.6677
無法	-10.6678
冤	-10.6678
有生滅	-10.6679
不盡有為	-10.668
自謂	-10.6683
善巧方便	-10.6686
龍樹	-10.6688
從於	-10.6688
悉見	-10.669
一偈	-10.6691
頗	-10.6692
所由	-10.6697
地大	-10.67
請佛	-10.6702
五塵	-10.6704
緣因	-10.6707
彼時	-10.6713
盈	-10.6714
解者	-10.6715
輕重	-10.6717
入地獄	-10.6717
金剛藏	-10.6719
終不能	-10.672
國中	-10.6722
利益眾生	-10.6723
之苦	-10.6724
俱胝	-10.6725
皆具	-10.6725
妄想計著	-10.673
今者	-10.6732
故成	-10.6733
雖不	-10.6734
海中	-10.6735
香象	-10.6741
無所住	-10.6742
補處	-10.6744
後時	-10.6747
似有	-10.6748
不合	-10.6749
心起	-10.6751
也然	-10.6753
無礙智	-10.6757
囊	-10.6758
裂	-10.6758
壇	-10.6759
膝	-10.676
在此	-10.6767
生厭離	-10.6768
為難	-10.677
之宗	-10.6771
斷疑	-10.6772
其國	-10.6773
徧滿	-10.6774
之患	-10.6775
相隨	-10.678
聞慧	-10.6782
無益	-10.6782
隨其所	-10.6783
而知	-10.6789
作種種	-10.6789
道諦	-10.6792
即法身	-10.6794
遠離一切	-10.6794
法爾	-10.6798
所可	-10.6798
早	-10.6798
2	-10.68
無過	-10.68
侶	-10.6806
為證	-10.6809
別說	-10.6814
覓	-10.6814
愚夫妄想	-10.6815
觀智	-10.6815
佛陀	-10.6825
華佛	-10.6826
而常	-10.6827
不愛	-10.6832
雪	-10.6834
證真	-10.6837
奴	-10.684
初正明	-10.684
之辭	-10.6843
紛	-10.6844
周匝	-10.6845
疏中	-10.6846
非如	-10.6848
思之	-10.6849
變現	-10.6853
隨宜	-10.6853
二十一	-10.6857
性淨	-10.6859
如幻化	-10.6859
與眾生	-10.6859
便有	-10.6862
權智	-10.6863
大德須菩提	-10.6863
而坐	-10.6865
又以	-10.6867
五眼	-10.6869
俱是	-10.6871
皆非	-10.6873
人見	-10.6874
枝葉	-10.6875
稱性	-10.6877
是何	-10.688
自得	-10.6884
俱舍	-10.6884
槃	-10.6887
自作	-10.6889
種善根	-10.689
二分	-10.6892
今時	-10.6895
廣博	-10.6895
得無生忍	-10.6895
異也	-10.6897
解了	-10.69
生因	-10.6906
內證	-10.6907
證者	-10.6918
實非	-10.6919
此為	-10.6923
育	-10.6924
荷	-10.6926
百劫	-10.6927
偈頌	-10.693
弓	-10.6931
高廣	-10.6935
諸欲	-10.6939
與我	-10.6939
當說	-10.6941
冠	-10.6944
推求	-10.6946
不住無為	-10.6948
此一	-10.6953
是無	-10.6959
之位	-10.696
盧舍那	-10.6962
護國	-10.6962
倚	-10.6964
屠	-10.6965
清淨心	-10.6965
如實修行	-10.6968
豎	-10.6969
離幻	-10.6974
疾病	-10.6974
自說	-10.6979
欲知	-10.6984
苦集	-10.6984
得受記	-10.699
諸方	-10.6993
正使	-10.6994
百年	-10.6995
此喻	-10.6998
修梵行	-10.7002
校	-10.7006
即生	-10.7006
菩提涅槃	-10.7011
令心	-10.7015
性也	-10.7016
難陀	-10.7016
中之	-10.7017
愛著	-10.7021
上句	-10.7024
其數	-10.7031
四義	-10.7031
一千	-10.7033
自業	-10.7034
賢劫	-10.7035
生死之	-10.7036
雖知	-10.7037
山頂	-10.7042
佛南無師子	-10.7043
帝王	-10.7047
堪任	-10.7049
廟	-10.7049
無物	-10.705
式	-10.705
所治	-10.7052
映	-10.7052
生疑	-10.7052
自在王佛南無	-10.7052
諸苾芻	-10.7054
腦	-10.7054
王言	-10.7054
慎	-10.7055
四分	-10.7055
受想行識	-10.7056
丘	-10.7056
善分別	-10.7056
以諸	-10.7056
深廣	-10.7056
酥	-10.7057
對曰	-10.7057
筋	-10.7058
諦聽諦聽	-10.7058
兜率天	-10.7076
初正釋	-10.7078
。』」	-10.708
則成	-10.7081
孝順	-10.7082
何由	-10.7083
下約	-10.7084
除去	-10.7085
大地獄	-10.7086
恩愛	-10.7088
所能	-10.7088
外道說	-10.7089
一面	-10.709
執為	-10.709
正顯	-10.7091
前世	-10.7097
求佛	-10.7098
今欲	-10.7103
初分科	-10.7108
則墮	-10.7108
主宰	-10.7111
大疏	-10.7111
中尊	-10.7115
法華云	-10.7115
異故	-10.7123
眾生界	-10.713
兄弟	-10.7131
策	-10.7139
動轉	-10.714
世尊說	-10.714
爾時大慧菩薩摩訶薩	-10.7141
之語	-10.7141
側	-10.7142
空慧	-10.7142
翅	-10.7143
全體	-10.7146
之謂也	-10.7155
罪業	-10.7155
壞者	-10.7161
香華	-10.7163
力士	-10.7166
又言	-10.717
相生	-10.7172
百八	-10.7172
圭峯	-10.7173
下第二	-10.7174
得無	-10.7174
別異	-10.7174
以偈	-10.7177
弗	-10.718
新說云	-10.7181
黨	-10.7182
舒	-10.7184
攝一切	-10.7186
送	-10.7186
集諦	-10.7186
豆	-10.7187
佛乘	-10.7189
一音	-10.7194
應作	-10.7198
墮於地獄	-10.7199
憙	-10.7201
以上	-10.7202
定性	-10.7204
菩薩所行	-10.7207
成立	-10.721
覺自心現量	-10.721
隨類	-10.7211
二百	-10.7215
行佛	-10.7217
大意	-10.7219
瑜伽論	-10.7222
井	-10.7223
佛復告	-10.7226
莊	-10.7228
龜	-10.7228
首楞嚴三昧	-10.7235
麥	-10.724
願佛	-10.7241
能使	-10.7244
之一	-10.7248
二問	-10.725
餘三	-10.7255
令眾生	-10.7255
或在	-10.7257
無情	-10.726
者何	-10.7261
何用	-10.7263
更相	-10.7263
麗	-10.7267
中云	-10.7267
3	-10.727
釋論	-10.727
眉	-10.7273
業故	-10.7273
應是	-10.7275
佛菩提	-10.728
如實了知	-10.728
何須	-10.7281
繫念	-10.7282
救濟	-10.7285
永無	-10.7286
寂照	-10.7287
足下	-10.7287
我及	-10.7291
以神力	-10.7291
修福	-10.7293
現相	-10.7302
四智	-10.7305
大火	-10.7306
雜色	-10.7307
之別	-10.7309
幸	-10.7309
刑	-10.731
意生	-10.7311
一生補處	-10.7311
涌	-10.7312
之聲	-10.7317
辟支佛南無	-10.7317
一標	-10.7318
楞伽王	-10.7321
癡人	-10.7321
藏通	-10.7325
示其	-10.7326
七覺	-10.7328
於涅槃	-10.7329
顯揚	-10.7332
若能如是	-10.7338
殊妙	-10.7341
無取	-10.7347
承事	-10.735
揭	-10.735
彼論	-10.7351
二地	-10.7351
五無間	-10.7352
三門	-10.7352
斫	-10.7356
朽	-10.7357
三藐三佛陀	-10.7357
諂曲	-10.7361
賣	-10.7361
五事	-10.7363
六處	-10.7365
見一切法	-10.7365
眼見	-10.7366
善說	-10.737
維	-10.7373
而作佛事	-10.7373
遍照	-10.7373
或謂	-10.7374
正理	-10.7379
普現	-10.7381
然而	-10.7381
故先	-10.7382
算	-10.7387
徧計	-10.74
諸物	-10.7406
雖殊	-10.7409
今依	-10.7414
為樂	-10.7425
我已	-10.7428
遠離於	-10.7428
無功用	-10.743
既知	-10.7435
法說	-10.7437
這	-10.7444
但言	-10.7445
菩薩道	-10.7445
此菩薩	-10.7446
薄伽梵	-10.7447
化物	-10.7449
法合	-10.7451
纏縛	-10.7451
魏譯云	-10.7453
可畏	-10.7454
千由旬	-10.7454
▁初約	-10.7458
願我	-10.7459
彼國	-10.7461
可謂	-10.7462
君子	-10.7464
女言	-10.7464
又此	-10.7479
歌舞	-10.7484
如是名為	-10.7486
若心	-10.7486
勉	-10.7489
巳下	-10.749
儞	-10.7491
放光明	-10.7492
唯然受教	-10.7492
擲	-10.7493
無有生	-10.7494
品中	-10.7505
出世間上上	-10.7505
禮佛	-10.7507
福慧	-10.7508
若入	-10.7509
惑業	-10.7513
惠施	-10.7519
妙吉祥菩薩	-10.7522
悔過	-10.7523
曇	-10.7524
雞	-10.7526
療	-10.753
本行	-10.753
相貌	-10.7533
探	-10.7533
尊貴	-10.7534
是苦	-10.754
遊戲受樂	-10.7542
正解	-10.7544
淨行	-10.7544
現識	-10.7547
初生	-10.7547
眾善	-10.7547
一義	-10.7548
其光	-10.7548
九界	-10.755
藥王	-10.755
迷悶	-10.755
▁次	-10.7553
心體	-10.7557
見故	-10.7557
斯經	-10.756
諸過	-10.756
分為二	-10.7561
沒生	-10.7562
生死苦	-10.7563
為自	-10.7568
心生歡喜	-10.7569
雖現	-10.7572
善利	-10.7572
定者	-10.7573
及彼	-10.7575
婇女	-10.7576
大莊嚴	-10.7578
乃可	-10.7585
今我	-10.7586
性德	-10.7587
一佛	-10.7587
斷一切	-10.7593
諸論	-10.7595
惡法	-10.7596
有時	-10.7608
不欲	-10.7611
如風	-10.7612
作惡	-10.7613
當學	-10.7616
為眾	-10.7621
獲益	-10.7623
四明聰講師	-10.7623
不通	-10.7623
三解脫	-10.7623
掉	-10.7625
二身	-10.7627
自性清淨	-10.7627
除諸	-10.7628
僧伽	-10.7629
皆如	-10.7629
答中	-10.763
業道	-10.7633
作是說	-10.7635
過惡	-10.7642
一切時	-10.7643
了悟	-10.7648
報佛	-10.7648
安置	-10.7651
眼根	-10.7654
於心	-10.7655
此語	-10.7657
為之	-10.766
此上	-10.766
了了	-10.766
三相	-10.7661
以釋	-10.7663
諸乘	-10.7664
等故	-10.7665
是大	-10.7669
晉	-10.7671
誰能	-10.7671
彼宗	-10.7679
成一	-10.7679
大同	-10.7679
商主	-10.7679
而以	-10.7681
而求	-10.7683
隨眠	-10.7688
諸善	-10.77
既爾	-10.7705
手執	-10.7706
終無	-10.7707
就初	-10.7708
撰	-10.7708
疲	-10.7709
外有	-10.7711
曹	-10.7712
正思惟	-10.7714
久遠	-10.7722
本具	-10.7724
如鏡	-10.7724
有諸	-10.7725
瞋恨	-10.7725
是故如來	-10.7728
陀羅尼門	-10.773
何義	-10.7731
菩薩亦爾	-10.7736
能造	-10.7737
邪道	-10.774
末那	-10.7741
滅時	-10.7741
如是法	-10.7742
怯弱	-10.7743
師云	-10.7743
不可計	-10.7745
所欲	-10.7749
見非	-10.7755
不犯	-10.7757
。」《	-10.7758
酪	-10.7759
五體投地	-10.776
性自	-10.776
振	-10.7761
如水中月	-10.7761
兄	-10.7765
折伏	-10.7765
見如來	-10.7766
優劣	-10.7766
損減	-10.7767
此室	-10.7772
分析	-10.7779
光嚴	-10.7783
一切處	-10.7786
序分	-10.7787
犯戒	-10.7788
此理	-10.7789
等諸	-10.7789
生信	-10.7792
正論	-10.7792
後生	-10.7794
大弟子	-10.7796
令入	-10.7799
應受	-10.7802
懈	-10.7803
併	-10.7803
權教	-10.7804
因是	-10.7804
空室	-10.7805
臭穢	-10.7815
種種異	-10.7824
見色	-10.7826
之由	-10.783
▁初標	-10.7833
以大悲	-10.7836
變為	-10.7836
先明	-10.7837
妬	-10.7837
父王	-10.784
叉手	-10.784
天龍	-10.7841
初示	-10.7842
就中	-10.7844
余	-10.7847
疊	-10.7848
而受	-10.785
巳得	-10.7851
為淨	-10.7854
奔	-10.7854
佛像	-10.7854
而說頌曰	-10.7855
如是種種	-10.7857
震動	-10.7858
智論	-10.7862
射	-10.7863
寶華	-10.7868
此第二	-10.7868
下句	-10.7871
持此	-10.7872
結云	-10.7872
非因	-10.7873
令生	-10.7878
雖然	-10.7883
能照	-10.7887
無此	-10.7892
感應	-10.7892
戒行	-10.7894
如法華	-10.7895
何時	-10.7897
若諸眾生	-10.7897
史	-10.7898
頌云	-10.7901
修因	-10.7902
智度	-10.7904
離言說	-10.7906
衰惱	-10.7909
第八識	-10.7913
一經	-10.7916
善見	-10.7921
汝於	-10.7923
口中	-10.7925
成辦	-10.7928
久近	-10.7929
因陀羅	-10.7929
紫	-10.7935
講說	-10.7939
賓	-10.794
鞞	-10.7944
之殊	-10.7949
嘉	-10.7951
功德如來南無	-10.7952
覺支	-10.7954
離念	-10.7956
正教	-10.7963
若生人中	-10.7968
所云	-10.7969
能緣	-10.7972
習近	-10.7974
等心	-10.7978
邑	-10.7979
離苦	-10.798
畢竟無	-10.7983
性本	-10.7985
忘失	-10.7985
頂上	-10.7986
華香	-10.7987
為諸菩薩	-10.799
舟	-10.7993
實報	-10.7997
則無有	-10.8005
二別釋	-10.8006
令住	-10.8009
為佛	-10.8009
言我	-10.801
復能	-10.8012
一切眾	-10.8022
三初	-10.8023
山林	-10.8023
離文字	-10.8028
以為莊嚴	-10.8028
菩薩藏	-10.8028
豪	-10.8029
微塵數	-10.8029
中陰	-10.8032
筆	-10.8036
初果	-10.8036
楊	-10.8037
生佛	-10.8037
壯	-10.8039
有幾	-10.8039
篋	-10.804
於一切眾生	-10.8041
值遇	-10.8041
能覺	-10.8041
嬰兒	-10.8043
竊	-10.8044
水月	-10.8046
對待	-10.8047
無生無滅	-10.8049
搖	-10.805
江河	-10.8052
商	-10.8056
觀成	-10.8057
有作	-10.8058
一切大眾	-10.8065
四病	-10.8066
欲使	-10.807
見分	-10.807
華嚴經	-10.8071
有如是	-10.8072
為所	-10.808
善得	-10.8084
混	-10.8085
常寂	-10.8087
隨彼	-10.8087
三百	-10.8089
終日	-10.8092
四十九	-10.8095
上至	-10.8098
世法	-10.8101
尚不	-10.8101
而言之	-10.8104
開敷	-10.8104
空假	-10.8104
諸漏	-10.8107
六師	-10.8107
小兒	-10.8108
假說	-10.8108
業果報	-10.8117
譽	-10.812
佛號	-10.8122
離心	-10.8122
外緣	-10.8125
本是	-10.8127
占	-10.813
逈	-10.8133
練	-10.8135
便為	-10.8136
忻	-10.8136
姊	-10.8137
我從	-10.8138
卵	-10.8139
於自	-10.814
呪術	-10.814
妙智	-10.8144
二示	-10.8147
拔苦	-10.8147
▁南无梵	-10.8148
彼則	-10.8149
三土	-10.8149
亦復不	-10.8153
合掌恭敬	-10.8155
一切善法	-10.8157
如說	-10.8157
由於	-10.8162
權疾	-10.8164
四陰	-10.8164
智佛	-10.8174
初正	-10.8175
不還	-10.8177
白佛言世尊	-10.8177
知覺	-10.8178
捐	-10.818
正意	-10.8185
六事	-10.8186
怯	-10.8187
真實義	-10.8188
地神	-10.8194
為法	-10.8207
佛南無無垢	-10.8207
此法門	-10.8208
百千劫	-10.8214
淨佛國土	-10.8214
二隨釋	-10.8219
行願	-10.822
不容	-10.8221
若其	-10.8222
雙照	-10.8224
天魔	-10.8224
而不知	-10.8224
不覺知	-10.8227
眾色	-10.8227
驅	-10.8228
未悟	-10.8228
謀	-10.8229
故經云	-10.8229
豈能	-10.8229
刻	-10.823
禽獸	-10.8235
能治	-10.8235
此謂	-10.8238
等皆	-10.824
不厭	-10.8243
即說	-10.8245
當觀	-10.8246
僧寶	-10.8249
幻滅	-10.8251
教門	-10.8252
斯則	-10.8252
令離	-10.8252
體空	-10.8254
心懷	-10.8258
不至	-10.8259
作大	-10.8259
墮有無	-10.8262
慰	-10.8269
不許	-10.8269
於佛前	-10.8275
一切世界	-10.8276
境也	-10.8278
爭	-10.8279
三昧正受	-10.8281
生長	-10.8283
常有	-10.8285
苦果	-10.8285
惡知識	-10.8287
願為	-10.8287
心外	-10.8293
根本無明	-10.8298
是故菩薩	-10.8305
前明	-10.8306
分中	-10.8308
在彼	-10.8311
湛	-10.8312
五品	-10.8316
即見	-10.8319
諸佛國土	-10.8319
知之	-10.832
是法身	-10.8323
既得	-10.8324
浴	-10.8325
1	-10.8326
爾乃	-10.8327
摩睺羅伽	-10.8328
或因	-10.8328
道果	-10.8332
飯食	-10.8334
也次	-10.8335
恒常	-10.8337
即假	-10.8338
未嘗	-10.8339
善來	-10.8339
付囑	-10.834
勝進	-10.8343
淨妙	-10.8345
說一乘	-10.8347
若論	-10.8347
三十七	-10.8347
兜率	-10.8348
若諸	-10.8349
十億	-10.8352
威佛	-10.8353
坑	-10.8354
教人	-10.8354
徒眾	-10.8356
彼比丘	-10.836
無厭足	-10.836
為勝	-10.8363
難勝	-10.8364
永不	-10.8366
如是乃至	-10.8367
於其中	-10.8367
善思惟	-10.8368
羅睺	-10.8369
妄想者	-10.8369
蜂	-10.8369
示行	-10.837
飽	-10.8372
皇	-10.8372
鄉	-10.8373
陸	-10.8377
眼目	-10.8387
出現於世	-10.8388
於色	-10.8391
前四	-10.8395
此偈	-10.8395
又彼	-10.8396
為佛事	-10.8398
耀	-10.8398
三昧門	-10.84
未必	-10.8404
義理	-10.8407
又為二初	-10.8411
房	-10.8414
因緣和合	-10.8415
拏	-10.8419
三輪	-10.8419
斯等	-10.842
此門	-10.8421
研	-10.8423
創	-10.8424
克	-10.8425
於大眾中	-10.8426
刃	-10.8427
烟	-10.8429
城邑	-10.8431
逝	-10.8434
誑惑	-10.8434
顯真	-10.8436
出三界	-10.8436
今世	-10.8439
慧菩	-10.8441
三重	-10.8441
得成就	-10.8442
大乘法	-10.8443
舉一	-10.8444
長夜	-10.8447
能救	-10.8447
釋梵	-10.8447
諸病	-10.8449
猶如虗空	-10.8457
多人	-10.8458
遠近	-10.846
名大	-10.846
諸凡夫	-10.8461
能轉	-10.8464
融通	-10.8464
燃	-10.8467
若我	-10.8468
賴	-10.847
彼彼	-10.8471
焚燒	-10.8471
荒	-10.8474
身壞命終	-10.8474
虛偽	-10.8475
新學	-10.8476
幻夢	-10.8476
歡喜踊躍	-10.8482
室內	-10.8484
所因	-10.8485
餘經	-10.8485
▁南无華	-10.8486
義同	-10.8486
滅後	-10.8487
梵天言	-10.8488
二觀	-10.849
▁南无蓮花	-10.8496
信者	-10.8499
佛一百	-10.8499
以喻	-10.8503
老病死	-10.8504
意根	-10.8506
三識	-10.8506
來世	-10.8507
諸天人	-10.8507
旃	-10.8516
紙	-10.8517
不以為	-10.8517
尤	-10.8519
五趣	-10.8519
整	-10.852
撥	-10.8522
弟子等	-10.8523
大悲世尊	-10.8524
若生	-10.8525
所變	-10.8526
遶	-10.8527
及其	-10.8528
六句	-10.8531
善財	-10.8534
所著	-10.8536
文殊問	-10.854
滅也	-10.8542
行施	-10.8544
劫數	-10.8547
渴愛	-10.855
教中	-10.8551
所集	-10.8552
身佛	-10.8556
於身	-10.8557
什	-10.856
乃有	-10.8561
之義也	-10.8561
何故不	-10.8565
刼	-10.8565
而得解脫	-10.8571
見聞覺知	-10.8572
巖	-10.8582
愛心	-10.8582
深信	-10.8585
是名菩薩摩訶薩	-10.8588
善道	-10.8591
涅槃云	-10.8593
若諸有情	-10.8593
下品	-10.8594
證法	-10.8595
為喻	-10.8596
威光	-10.8597
今且	-10.8597
孫	-10.8598
彼諸菩薩	-10.86
神通力	-10.8601
四聖諦	-10.8604
圓覺性	-10.8605
三名	-10.8605
是處	-10.8606
莊嚴佛南無	-10.8608
右手	-10.861
皆成	-10.8612
非有無	-10.8613
醍醐	-10.8617
福報	-10.8618
淳	-10.8621
嗜	-10.8622
兔	-10.8625
不善法	-10.8636
遍計所執	-10.8636
二十七	-10.8637
池中	-10.8638
乃名	-10.8639
五時	-10.864
而可	-10.8641
喻如	-10.8643
四緣	-10.8646
不計	-10.8647
世親	-10.8648
用此	-10.8648
取其	-10.8651
醜	-10.8651
常當	-10.8653
菩薩住	-10.8653
已上	-10.8657
迷真	-10.8657
各自	-10.8658
必當	-10.866
諸色	-10.8664
如其	-10.8664
聞名	-10.8665
顯說	-10.8665
一門	-10.8667
電光	-10.8671
汎	-10.8673
右膝著地	-10.8674
亦通	-10.8675
死屍	-10.8676
見於	-10.8679
不聽	-10.8682
由斯	-10.8683
聞其	-10.8684
見是	-10.8684
正為	-10.869
餘皆	-10.8693
恒河	-10.8694
唎	-10.8695
靡不	-10.8697
通釋	-10.8698
空理	-10.87
若行	-10.8701
大富	-10.8702
大會	-10.8704
王曰	-10.8705
四魔	-10.8706
佛告文殊師利	-10.8708
他心	-10.8708
▁南无虛空	-10.871
數量	-10.8711
其德	-10.8716
幢菩	-10.8717
遲	-10.8718
迦樓羅	-10.8722
彌留	-10.8723
三萬二千	-10.8723
覺相	-10.8723
供養諸佛	-10.8725
為主	-10.8725
如世	-10.8728
壽者	-10.8729
謂諸菩薩	-10.8729
已來	-10.8731
以理	-10.8734
意佛南無	-10.8734
山曰	-10.8735
無量無數	-10.8739
正性	-10.8743
離妄想	-10.8747
阿鼻	-10.8748
釋經	-10.8753
大仙	-10.8759
四時	-10.8759
西北方	-10.8765
步佛南無	-10.8767
縷	-10.8769
得法眼淨	-10.8771
]	-10.8771
報障	-10.8773
調御	-10.8778
對法	-10.8782
結勸	-10.8782
勸助	-10.8785
阿賴耶識	-10.8786
一問	-10.8787
不懷	-10.8787
圓成實	-10.879
不盜	-10.8792
比丘僧	-10.8792
約觀心	-10.8797
不分	-10.8803
謂是	-10.8808
得勝	-10.881
非身	-10.8811
拜	-10.8811
輸	-10.8814
耽	-10.8815
百由旬	-10.8817
同事	-10.8817
之色	-10.8819
偏真	-10.8819
悉為	-10.882
佛前	-10.882
下生	-10.8822
冀	-10.8822
寸	-10.8823
翼	-10.8823
赫	-10.8825
虧	-10.8825
涼	-10.8829
八解脫	-10.8829
菴羅	-10.883
深遠	-10.8831
綺語	-10.8832
前五	-10.8832
乃以	-10.8834
若有菩薩	-10.8834
異見	-10.8837
淨國	-10.8837
二從	-10.8838
用也	-10.8844
無所依	-10.8845
身分	-10.885
天中天	-10.885
聖慧	-10.8853
加持	-10.8856
心得	-10.8857
有愛	-10.8859
佛在	-10.886
諍論	-10.8863
教他	-10.8863
從他	-10.8866
一實	-10.8874
若非	-10.8874
捺	-10.8875
冰	-10.8875
卷第三	-10.8875
五濁	-10.8879
是故說	-10.8879
受教	-10.8884
一切眾生皆	-10.8886
之罪	-10.8888
之藏	-10.8892
百歲	-10.8894
四生	-10.8894
滅罪	-10.8895
勝行	-10.8899
有多	-10.8901
眾相	-10.8901
無滯	-10.8901
德佛南無	-10.8903
黠慧	-10.8903
示之	-10.8907
十法界	-10.8907
不殊	-10.8911
幢幡	-10.8913
盡滅	-10.8913
不順	-10.8915
常修	-10.8918
之大	-10.892
長跪叉手	-10.8923
二十二	-10.8923
卷第四	-10.8925
閻魔羅人	-10.8927
行善	-10.8931
於外	-10.8931
月佛南無	-10.8933
本不生	-10.8934
世間法	-10.8934
文為三	-10.8934
堅牢	-10.8935
皆悉具足	-10.8937
大用	-10.8937
為身	-10.8938
欲顯	-10.8938
眾生來生其國	-10.8938
雖說	-10.894
摩尼珠	-10.8941
從佛	-10.8941
食者	-10.8941
自下第三	-10.8944
行佛南無	-10.8944
外無	-10.8946
破無明	-10.8946
色陰	-10.8949
妙行	-10.8951
若了	-10.896
諸善根	-10.8962
猶若	-10.8963
正當	-10.8963
無事	-10.8963
富樓那	-10.8964
六情	-10.8966
發行	-10.8968
未至	-10.8969
受身	-10.897
黃金	-10.8972
勝利	-10.8973
南無普	-10.8974
意趣	-10.8975
洗浴	-10.8975
奴婢	-10.8975
為佛作禮	-10.8976
祈	-10.8976
比丘𡰱	-10.8977
審諦	-10.8977
歇	-10.8978
津	-10.8978
二喻	-10.8981
自在力	-10.8984
此處	-10.8984
通明	-10.8989
悅樂	-10.8991
伽陀	-10.8993
之要	-10.8994
佛意	-10.8995
見法	-10.8996
以智	-10.8998
為王	-10.8999
之機	-10.9
非餘	-10.9001
首楞嚴	-10.9002
時眾	-10.9002
不證	-10.9003
約理	-10.9004
明義	-10.9009
無義	-10.9009
盡故	-10.901
衛	-10.9011
速得	-10.9014
而論	-10.9015
倦	-10.9016
將欲	-10.9017
精進佛	-10.9021
十事	-10.9022
縣	-10.9023
以是故	-10.9026
從本	-10.9027
正問	-10.9028
中有三	-10.9029
弄	-10.903
沙彌	-10.903
此以	-10.9031
未離	-10.9032
欺誑	-10.9033
意同	-10.9034
皆言	-10.9034
河沙	-10.9034
如華嚴	-10.9036
安慰	-10.9036
憂苦	-10.9037
檀波羅蜜	-10.9037
離四句	-10.9041
得不退轉	-10.9042
後際	-10.9045
我即	-10.9048
而今	-10.9052
所學	-10.9053
種種莊嚴	-10.9053
五分	-10.9058
在世	-10.9058
說此經	-10.906
對於	-10.9061
能修	-10.9067
喜王	-10.9067
此正	-10.907
辱	-10.907
假觀	-10.9073
阿賴耶	-10.9073
屍	-10.9074
開合	-10.9075
牢	-10.9076
胎藏	-10.9076
閒	-10.9078
掃	-10.9079
說名為	-10.9081
瑕	-10.9082
日出	-10.9083
袈裟	-10.9083
猶如虛空	-10.9083
怨敵	-10.9088
壞滅	-10.9088
視之	-10.9089
但見	-10.909
照耀	-10.9092
雪山	-10.9092
道德	-10.9093
雅	-10.9095
大雲	-10.9097
真相	-10.9097
生老病死	-10.9098
塗香	-10.9104
毀禁	-10.9105
與前	-10.9106
敷演	-10.9107
妙寶	-10.9109
智故	-10.9119
退轉	-10.9121
諦理	-10.9124
等四	-10.9126
拙	-10.9128
不可稱	-10.9129
厭足	-10.913
吞	-10.913
渠	-10.9133
四攝	-10.9135
樂著	-10.9137
經法	-10.9138
眼等	-10.9139
悞	-10.914
散華	-10.9143
二行	-10.9147
四重	-10.9148
聖果	-10.9148
三昧起	-10.9149
始教	-10.9152
下中上	-10.9153
佛南無法	-10.9155
學人	-10.9156
明淨	-10.9157
無有差別	-10.9159
不學	-10.9162
之流	-10.9162
來至	-10.9164
是識	-10.9164
之具	-10.9164
所發	-10.9167
百八句	-10.9168
薩埵	-10.9173
舉喻	-10.9173
顯其	-10.9175
汝見	-10.9176
疏文	-10.9178
尋伺	-10.9178
此識	-10.9178
九品	-10.9179
等持	-10.9179
此智	-10.9181
事者	-10.9182
為得	-10.9182
放大光明	-10.9184
傾	-10.9184
驢	-10.9184
牛角	-10.9184
觀音	-10.9186
今就	-10.9186
皆共	-10.9187
之慧	-10.9188
彼有	-10.9189
行布施	-10.9189
本起	-10.9192
微笑	-10.9194
願生	-10.9194
南無善	-10.9195
大覺	-10.9197
其子	-10.9197
明鏡	-10.92
或於	-10.92
供給	-10.92
四大種	-10.9202
斷故	-10.9203
不正	-10.9204
極微	-10.9208
說諸法	-10.9208
泡	-10.9209
離言	-10.9212
終始	-10.9217
以來	-10.9222
不遠	-10.9225
菩提分法	-10.9227
非異	-10.923
唯此	-10.9231
亦隨	-10.9232
倫	-10.9232
二乘人	-10.9233
伺	-10.9233
能護	-10.9236
無因生	-10.9236
羅睺羅	-10.9237
一剎那	-10.924
三一	-10.924
啼	-10.924
咽	-10.9241
之內	-10.9241
善思	-10.9242
菩薩以	-10.9243
彼見聞知	-10.9243
千佛	-10.9248
日夜	-10.9249
多種	-10.9251
次云	-10.9251
二禪	-10.9252
果故	-10.9252
與人	-10.9255
善男子善女人	-10.9255
分為	-10.9258
於理	-10.926
照曜	-10.9263
三會	-10.9263
聞正法	-10.9267
論者	-10.9268
有五種	-10.927
百萬	-10.928
低	-10.928
大智慧	-10.9282
入城	-10.9282
隨眾生	-10.9283
菩薩阿耨多羅三藐三菩提記	-10.9285
敬重	-10.9287
異不異	-10.9287
度人	-10.9288
彼外道	-10.9288
断	-10.9289
淫	-10.9291
佛南無妙	-10.9292
琴	-10.9292
遊步	-10.9292
魂	-10.9292
道行	-10.9292
繼	-10.9294
舞	-10.9295
佛告舍利弗	-10.9295
林樹	-10.9296
之報	-10.9301
本來成佛	-10.9301
燒香	-10.9302
總明	-10.9302
所讚	-10.9305
經行	-10.9309
所逼	-10.9309
一行半	-10.931
調順	-10.9315
不礙	-10.9317
擇滅	-10.9322
寶樹	-10.9323
外道見	-10.9324
淨名云	-10.9337
如來說法	-10.9343
五千	-10.9343
四大造色	-10.9343
毗尼	-10.9344
鳩	-10.9345
網明	-10.9348
化為	-10.9349
常生	-10.9352
內有	-10.9352
白衣	-10.9353
如來地	-10.9353
現在前	-10.9354
轉相	-10.9363
如說修行	-10.9365
以能	-10.9373
謂由	-10.9375
不攝	-10.9378
尚無	-10.9383
智光	-10.9386
巳還	-10.9389
外人	-10.9389
著於	-10.9391
於佛法中	-10.9391
於過去	-10.9393
非實有	-10.9396
忠	-10.9396
頑	-10.94
三摩提	-10.94
慧者	-10.9407
是義	-10.9408
眾生病	-10.9409
方為	-10.941
過去未來現在	-10.9411
佛說法	-10.9413
此觀	-10.9415
喻顯	-10.942
開導	-10.9422
佛滅後	-10.9424
文也	-10.9425
俱有	-10.9426
雖在	-10.943
十年	-10.9431
能令眾生	-10.9435
日日	-10.9436
此法門者	-10.944
巳來	-10.9442
此諸菩薩	-10.9444
餓	-10.9445
寶山	-10.9446
先世	-10.9447
德菩	-10.9451
悲智	-10.9456
即應	-10.9457
席	-10.9457
命根	-10.9458
證悟	-10.9458
先後	-10.9458
難解	-10.9459
膩	-10.9459
離過	-10.9461
爾𦦨	-10.9461
嗅	-10.9462
逆順	-10.9467
住世	-10.947
無以	-10.9473
復當	-10.9478
即同	-10.9479
不去	-10.948
如汝所說	-10.948
他受用	-10.9482
任持	-10.9483
又二	-10.9492
斷其	-10.9494
此頌	-10.9495
隨念	-10.9496
自性涅槃	-10.9496
實體	-10.9498
如何是	-10.9499
空相	-10.95
文殊師利菩薩	-10.95
聞聲	-10.95
促	-10.9505
莎訶	-10.9505
苦痛	-10.9506
如是思惟	-10.9508
悋	-10.9509
前七	-10.9509
如地	-10.951
然其	-10.9512
不安	-10.9514
補特伽羅	-10.9516
能顯	-10.952
為此	-10.9521
是菩薩淨土	-10.9522
滅惡	-10.9523
聽者	-10.9526
法想	-10.9527
設有	-10.9528
緣起自性	-10.953
註曰	-10.9531
受於	-10.9533
十二部經	-10.9533
魔事	-10.9534
有量	-10.9541
故使	-10.9541
悉無	-10.9545
中觀	-10.9546
地持	-10.9546
坐道場	-10.955
大悲心	-10.955
明行成	-10.9551
波旬	-10.9552
以一	-10.9554
圭峰	-10.9554
墮在	-10.9554
諸佛子	-10.9555
應物	-10.9555
川	-10.9557
乍	-10.9559
餘二	-10.956
有疾菩薩	-10.956
較	-10.9562
俱空	-10.9562
如是一切	-10.9563
罰	-10.9563
罔	-10.9563
若觀	-10.9563
決擇	-10.9564
紹	-10.9564
能善	-10.9566
疲厭	-10.957
菩薩及	-10.9571
幻師	-10.9573
一章	-10.9575
在大眾中	-10.9576
能度	-10.9581
藍	-10.9588
一頌	-10.9588
周徧	-10.9589
攝大乘	-10.959
經中說	-10.959
則曰	-10.9596
無說	-10.96
滿月	-10.9602
根緣	-10.9603
後釋	-10.9607
墮惡道	-10.9607
成等正覺	-10.9609
初二句	-10.961
不等	-10.961
米	-10.9614
香佛	-10.9617
並是	-10.9618
垂髮	-10.9619
當念	-10.9619
達磨	-10.962
正信	-10.9621
神王	-10.9622
從心	-10.9623
略示	-10.9625
放逸行	-10.9628
得安隱	-10.963
山佛南無	-10.9631
序品	-10.9631
▁後釋	-10.9634
如前說	-10.9636
執我	-10.9637
證理	-10.9639
於大乘	-10.9639
不能盡	-10.964
凡所	-10.964
不敬	-10.964
方便者	-10.9642
為苦	-10.9645
巨	-10.9646
卷第二	-10.9651
戶	-10.9653
照了	-10.9657
悲愍	-10.9658
寂定	-10.9659
有身	-10.966
醯	-10.9661
我之	-10.9662
不喜	-10.9664
係	-10.9666
諸餘	-10.9667
管	-10.9669
設使	-10.9669
觀解者	-10.967
羸	-10.967
法器	-10.9672
有病	-10.9674
彈呵	-10.968
理智	-10.9685
進退	-10.9686
諸佛所說	-10.9688
以示	-10.9691
心王	-10.9692
大段	-10.9692
不淨觀	-10.9693
甚難	-10.9695
而問	-10.97
別示	-10.9701
為無	-10.9704
「『	-10.9706
未成	-10.9707
▁初科	-10.9712
能依	-10.9713
戒定慧	-10.9714
同歸	-10.9716
祕	-10.9719
勸令	-10.9723
苦報	-10.9725
四無所畏	-10.9725
力佛	-10.9726
當知是	-10.9727
諸善男子	-10.9727
尾	-10.9727
能取所取	-10.9729
智障	-10.9729
螺	-10.9732
阿蘭若	-10.9733
疑悔	-10.9733
僧祇	-10.9735
觀世音	-10.9736
求之	-10.9736
』,	-10.9736
始得	-10.9738
現在說法	-10.9738
應如是	-10.974
▁南无須	-10.9743
之數	-10.9744
其母	-10.9746
皆屬	-10.9746
為果	-10.9748
三惑	-10.9749
欲心	-10.9751
行空	-10.9752
無違	-10.9754
而於	-10.9754
受此	-10.9756
自在王	-10.9756
所緣境	-10.9759
到此	-10.9759
應生	-10.9759
鬪諍	-10.9763
攝諸	-10.9764
菴	-10.9765
嘗	-10.9766
又說	-10.977
根境	-10.9772
輕慢	-10.9776
彼如來授名	-10.9776
曼	-10.978
於佛法	-10.9782
喜悅	-10.9782
深經	-10.9784
知彼	-10.9785
勝處	-10.9785
肥	-10.9788
能忍	-10.9789
音菩	-10.9792
不成就	-10.9793
陰陽	-10.9795
五行	-10.9798
天樂	-10.9798
邪婬	-10.98
消除	-10.9805
求菩提	-10.9806
如恒河沙	-10.9809
佛南無月	-10.9809
之下	-10.9811
重罪	-10.9814
億百千	-10.9818
分別諸法	-10.982
道意	-10.9822
如佛所說	-10.9824
一大	-10.9825
其理	-10.9827
當知此	-10.9827
光如來南無	-10.9828
真智	-10.9831
即指	-10.9834
劇	-10.9837
也問	-10.984
若不爾者	-10.9841
不思	-10.9843
絲	-10.9844
惟願為說	-10.9844
普光	-10.9845
二十三	-10.9846
業盡	-10.9847
▁南无德	-10.9847
世尊告曰	-10.985
引發	-10.9851
告言	-10.9852
無一	-10.9855
修於	-10.9855
捨於	-10.9856
甚深法	-10.9859
其形	-10.9859
須菩提言	-10.9861
集會	-10.9864
出過	-10.9867
有實	-10.9869
前合	-10.9869
垢淨	-10.987
廣分別	-10.9871
我常	-10.9874
諸善法	-10.9875
世間出世間	-10.9875
十二緣	-10.9879
來入	-10.988
金山	-10.988
自歸	-10.9882
大神通	-10.9882
或是	-10.9882
有苦	-10.9884
奏	-10.9887
言其	-10.9888
涅槃經云	-10.9888
之意也	-10.989
能攝	-10.9891
親屬	-10.9891
鵝	-10.9892
案	-10.9893
卜	-10.9893
一段	-10.9894
一切行	-10.9895
不二法門	-10.99
自受用	-10.99
貪等	-10.9901
方是	-10.9906
見諸法	-10.9907
古人	-10.9908
諸所	-10.9909
分之	-10.9912
為上首	-10.9914
行乞食	-10.9914
先問	-10.9915
自思惟	-10.9915
金鼓	-10.9917
增進	-10.9919
無有我	-10.992
諸法相	-10.992
問云	-10.993
必得	-10.9931
為善	-10.9932
二初明	-10.9935
隨情	-10.994
無所受	-10.9942
斷結	-10.9943
輪相	-10.9944
業力	-10.9945
無依	-10.9945
雖同	-10.9946
非剎那	-10.9946
真身	-10.9948
菓	-10.9948
楞嚴云	-10.995
即涅槃	-10.9951
環	-10.9951
哭	-10.9951
難知	-10.9955
文相	-10.9956
問如來	-10.9957
鑽	-10.9958
迦葉佛	-10.9958
珊瑚	-10.9959
尸棄	-10.9959
虛空界	-10.9961
▁初總	-10.9961
以何為	-10.9962
像法	-10.9963
則滅	-10.9964
中無有	-10.9965
且約	-10.9965
於十方	-10.9966
貪瞋	-10.9967
有色	-10.9969
則不能	-10.9969
讚嘆	-10.9973
實無有	-10.9973
初舉	-10.9975
一切法皆	-10.9977
化菩薩	-10.9978
得福	-10.9982
妄想故	-10.9984
顯發	-10.9984
百千億	-10.9986
遙見	-10.9987
然燈佛南無	-10.9993
此結	-10.9993
大小乘	-10.9999
過此	-11.0002
於道	-11.0003
樹木	-11.0005
伹	-11.0007
合為一	-11.0008
對前	-11.0009
無罣礙	-11.001
幼	-11.0011
覈	-11.0012
本心	-11.0015
能障	-11.0015
善權	-11.0017
樹林	-11.0018
增上緣	-11.0019
十行	-11.0025
發問	-11.0026
直指	-11.0027
若謂	-11.0027
從其	-11.0028
鮮	-11.0036
教令	-11.0036
後答	-11.0038
阿修羅王	-11.0038
既非	-11.004
過去世	-11.0041
八法	-11.0041
何必	-11.0042
假立	-11.0042
凡人	-11.0045
相續不斷	-11.0046
秘密	-11.0048
若就	-11.0048
證於	-11.0052
理無	-11.0053
引證	-11.0054
真我	-11.0055
人法無我	-11.0055
出假	-11.0058
谷	-11.0059
衍	-11.0061
荼	-11.0061
能了知	-11.0062
法御	-11.0062
今但	-11.0063
陁	-11.0064
三地	-11.0064
進止	-11.0065
頸	-11.0065
依教	-11.0069
恐懼	-11.007
偷	-11.007
一性	-11.0071
汝應	-11.0072
謂一切法	-11.0072
見我	-11.0075
無常性	-11.0078
三年	-11.0079
少欲	-11.0082
以求	-11.0083
重擔	-11.0084
以依	-11.009
大光明	-11.0091
柔和	-11.0092
得離	-11.0096
諸天女	-11.0099
第二明	-11.0101
一切聲聞	-11.0102
菩薩地	-11.0104
義釋	-11.0107
妙樂	-11.0111
其間	-11.0112
業因	-11.0118
破之	-11.012
四無量心	-11.012
唵	-11.0121
云何是	-11.0123
懃	-11.0124
理即	-11.0126
鈴	-11.0127
是身如	-11.0127
一字	-11.0128
夢見	-11.0128
略釋	-11.0129
眴	-11.0132
如是觀察	-11.0135
住此	-11.0139
因緣法	-11.0143
謂以	-11.0147
作佛事	-11.0147
資財	-11.0148
心地	-11.015
度世	-11.0151
□□□□	-11.0153
如實觀	-11.0156
將來	-11.0156
淨命	-11.0159
計度	-11.016
三脫	-11.0162
流入	-11.0167
破其	-11.0172
綺	-11.0173
祠	-11.0177
不增不減	-11.0179
阿難陀	-11.0179
貞	-11.0181
啼哭	-11.0181
修此	-11.0183
如電	-11.0183
瞻仰	-11.0184
肅	-11.0184
爾時世尊欲重宣此義	-11.0185
我時	-11.0186
以離	-11.0186
常自	-11.0187
二果	-11.0188
瞿那	-11.0189
除其	-11.0192
聽經	-11.0193
有三義	-11.0195
功德莊嚴	-11.0199
王所	-11.02
第十一	-11.0202
但取	-11.0203
合會	-11.0209
想念	-11.0216
在後	-11.0216
但名	-11.0217
深義	-11.0217
迴轉	-11.0218
上生	-11.0218
普覺	-11.0225
正等正覺	-11.0225
雷音	-11.0227
慧佛	-11.0229
我今當	-11.023
治病	-11.0237
瞿	-11.0237
怙	-11.0238
無貪	-11.0239
後得	-11.0239
勵	-11.0239
買	-11.024
帛	-11.024
勝鬘	-11.024
識陰	-11.0241
詩	-11.0242
無言說	-11.0243
弘經	-11.0246
一日一夜	-11.0246
摩訶迦葉	-11.0249
亦不可	-11.0249
樹王	-11.0254
天佛	-11.0255
奈	-11.0255
美妙	-11.0258
入三昧	-11.0262
不毀	-11.0262
所獲	-11.0265
出其	-11.0265
復何	-11.0266
於諸法中	-11.0266
見他	-11.0267
當云	-11.0273
觀空	-11.0275
下賤	-11.0275
即中	-11.0277
總釋	-11.0277
下地	-11.028
希求	-11.0285
朗	-11.0286
楞伽經	-11.0286
理性	-11.0287
身土	-11.0288
如雲	-11.0289
欲度	-11.0292
唯願世尊	-11.0294
枉	-11.0295
恒河沙等	-11.0298
大劫	-11.03
如汝所	-11.0302
餘天	-11.0303
茂	-11.0303
一塵	-11.0304
以是之故	-11.0305
二千	-11.0306
比丘知業果報	-11.0308
無二無別	-11.0308
力用	-11.0309
此三種	-11.0309
願求	-11.031
施戒	-11.031
躡	-11.0312
為斷	-11.0312
觀諸法	-11.0313
今釋	-11.0314
算數	-11.032
隨相	-11.0323
中邊	-11.0323
行業	-11.0324
從緣	-11.0325
除病	-11.0325
所染	-11.0326
修集	-11.033
聞此經	-11.0332
有能	-11.0332
德也	-11.0332
智人	-11.0332
以此為	-11.0334
性宗	-11.0338
猛火	-11.034
不免	-11.0344
入假	-11.0347
沫	-11.0347
性具	-11.0347
眾生相	-11.0348
論議	-11.0354
無量劫	-11.0354
疏然	-11.0355
彼我	-11.0356
能化	-11.0356
血肉	-11.0357
之始	-11.0357
十二年	-11.0358
南謨	-11.0359
某甲	-11.0359
佛南無波頭摩	-11.036
秖	-11.036
之所說	-11.036
道心	-11.0361
崖	-11.0361
大圓鏡智	-11.0361
鑑	-11.0362
偶	-11.0363
富樂	-11.0363
忌	-11.0364
最大	-11.0366
杜	-11.0366
進趣	-11.0371
證成	-11.0371
三細	-11.0377
起時	-11.0377
種種妄想	-11.0377
離分別	-11.038
斯由	-11.0381
思惑	-11.0381
智照	-11.0381
耳識	-11.0381
有九	-11.0384
之初	-11.0385
四倒	-11.0386
聖凡	-11.0387
現起	-11.0388
病人	-11.0388
諸法皆	-11.0388
之一字	-11.0389
妙用	-11.039
五蓋	-11.0393
真正	-11.0397
俱時	-11.0398
經卷	-11.0403
說如來藏	-11.0406
諸仁者	-11.0407
本非	-11.0408
空見	-11.041
因行	-11.0411
法味	-11.0413
指前	-11.0413
逗	-11.0417
隨煩惱	-11.0418
無始虗偽	-11.0419
脂	-11.0419
仗	-11.0419
曠	-11.042
偏袒右肩	-11.0421
何等四	-11.0421
祥	-11.0423
施者	-11.0424
如金剛	-11.0428
定心	-11.0428
聞佛說	-11.0432
堪能	-11.0432
果位	-11.0433
假實	-11.0438
福智	-11.0442
後後	-11.0442
法王子	-11.0448
今取	-11.0453
發露	-11.0458
卷上	-11.0461
之所以	-11.0463
諸女	-11.0465
此病	-11.0468
實教	-11.0469
樂住	-11.0471
光明照	-11.0472
嚕	-11.0472
洛	-11.0472
雖云	-11.0474
無餘涅槃	-11.0477
論曰	-11.0477
凡夫二乘	-11.0477
非一非異	-11.0478
空法	-11.0479
團	-11.0479
初會	-11.048
花佛	-11.0497
不造	-11.0498
之難	-11.0499
愛敬	-11.0499
第七識	-11.0501
求道	-11.0506
染心	-11.0506
諸禪定	-11.0511
三十四	-11.0515
由心	-11.0515
雜集	-11.0515
泣	-11.0518
剛	-11.0519
奮迅佛南無	-11.052
諸法性	-11.0522
二執	-11.0525
所用	-11.0527
淨除	-11.0528
無量種	-11.053
韻	-11.0532
無作者	-11.0533
司	-11.0536
為汝說	-11.0537
燄	-11.0538
更生	-11.0539
楚	-11.054
甚麼	-11.0542
我等今者	-11.0545
二空觀	-11.0545
觀見	-11.0545
彼惑亂	-11.0551
歎德	-11.0552
諸龍	-11.0553
毘尼	-11.0554
下文云	-11.0555
所誑	-11.0557
皆不可得	-11.0558
地處	-11.056
但於	-11.056
大乘經	-11.0565
同聞	-11.057
未證	-11.0573
良醫	-11.0577
法喻	-11.0577
痛痒	-11.058
不減	-11.058
論說	-11.0581
若樂	-11.0582
超出	-11.0585
末香	-11.0586
雲佛	-11.0592
瑞應	-11.0593
卦	-11.0594
各隨	-11.0597
依前	-11.0597
讖	-11.0598
彼說	-11.0601
四無量	-11.0603
亂意	-11.0605
兩行	-11.0605
不輕	-11.0605
汝今諦聽	-11.0606
即現	-11.0609
斷盡	-11.0619
行菩薩道	-11.0623
但依	-11.0625
行慈	-11.0632
文略	-11.0633
賢首	-11.0636
寶幢	-11.0636
列名	-11.0637
鉤	-11.0638
善本	-11.0639
通妨	-11.0641
見妄想	-11.0644
古今	-11.0645
失壞	-11.0646
淨法	-11.065
△	-11.0653
灾	-11.0653
外道計	-11.0653
二十五有	-11.0654
無起滅	-11.0655
▁南无光	-11.0656
慧佛南無	-11.0658
拳	-11.0659
攝論	-11.066
有義	-11.0662
功勳	-11.0662
繒	-11.0662
浴池	-11.0663
我無我	-11.0663
時維摩詰	-11.0664
見一	-11.0665
重釋	-11.0666
理故	-11.0667
益物	-11.067
一切種	-11.0672
若法	-11.0672
有形	-11.0676
山王	-11.0676
南無師子	-11.0676
孤山	-11.0677
屬於	-11.0677
利益安樂	-11.0678
雖得	-11.0678
聞持	-11.0679
皆見	-11.0679
說是法時	-11.0679
依因	-11.0679
此岸	-11.068
何因緣	-11.0683
不復更	-11.0685
莊嚴具	-11.0687
證知	-11.0694
果上	-11.0699
諸部	-11.07
醫藥	-11.07
為根本	-11.0702
有德	-11.0704
方便品	-11.0705
凝	-11.0706
別故	-11.0706
前之	-11.0707
栴檀香	-11.0711
依何	-11.0713
不可知	-11.0713
四卷	-11.0713
此第三	-11.0714
外塵	-11.0715
囑	-11.0716
豫	-11.0716
羯	-11.0716
頌上	-11.0716
一切法如幻	-11.0718
大菩薩	-11.0719
了義經	-11.0719
綿	-11.072
諸文	-11.0721
具四	-11.0732
不墮邪見	-11.0733
證果	-11.0734
為空	-11.0734
成阿耨多羅三藐三菩提	-11.0734
解脫門	-11.0735
非幻	-11.0735
此教	-11.0737
菩薩成佛時	-11.0737
其色	-11.074
無難	-11.074
得至	-11.0745
蓮	-11.0746
童真	-11.0747
山佛	-11.0747
識者	-11.0748
下二句	-11.075
得成佛	-11.0755
憶想	-11.0756
佛南無一切同名	-11.0761
分文	-11.0762
能分別	-11.077
遊於	-11.0772
天親	-11.0773
見惑	-11.0774
外性	-11.0774
平等心	-11.0776
除遣	-11.0778
飄	-11.0783
是故當知	-11.0784
方成	-11.0784
為惡	-11.0785
同彼	-11.0789
然燈佛	-11.0791
能受	-11.0791
慈愍	-11.0791
卷第一	-11.0791
』	-11.0794
大慈大悲	-11.0795
諸妄想	-11.0795
自宗	-11.0798
方所	-11.0798
聲聞眾	-11.0798
不妄	-11.0799
次下	-11.0799
大圓覺	-11.0802
苾芻當知	-11.0804
執取	-11.0805
八聖道	-11.0811
於阿耨多羅三藐三菩提	-11.0812
若據	-11.0814
有何等	-11.0815
宿世	-11.0815
實是	-11.0816
而云	-11.082
佛境界	-11.0821
堪忍	-11.0823
不般涅槃	-11.0827
福業	-11.083
所依止	-11.0835
引喻	-11.0835
以何因緣	-11.0837
佛名經	-11.0838
文殊師利白佛言	-11.0839
異處	-11.084
京	-11.0841
同類	-11.0841
未聞	-11.0843
優鉢羅	-11.0844
債	-11.0845
府	-11.0846
千億	-11.0847
非智	-11.0848
諭	-11.085
今之	-11.085
若取	-11.0852
魅	-11.0853
修行者內身循身觀	-11.0856
使人	-11.0857
大山	-11.0859
波若	-11.086
所食	-11.0863
翻譯	-11.0864
醫方	-11.0867
引導	-11.087
不應作	-11.087
恐畏	-11.087
焚	-11.0871
到已	-11.0871
歎未曾有	-11.0871
所表	-11.0873
雖見	-11.0873
二頌	-11.0878
眾罪	-11.0879
一切法空	-11.0881
佛塔	-11.0889
卷下	-11.0891
非為	-11.0893
而已	-11.0894
無增減	-11.0898
一切諸法皆	-11.0898
釋疑	-11.09
憐	-11.0901
地位	-11.0902
安得	-11.0903
明之	-11.0904
唾	-11.0905
閱	-11.0905
永盡	-11.0906
性惡	-11.0906
拈	-11.0908
至佛所	-11.0909
東方去此	-11.0911
晦	-11.0911
鷲	-11.0911
大精進	-11.0912
東西	-11.0912
青黃赤白	-11.0913
是涅槃	-11.0915
罪垢	-11.0916
受快樂	-11.0916
調御丈夫	-11.0916
所轉	-11.0918
如意珠	-11.0919
隨順覺性	-11.0921
王宮	-11.0924
八百	-11.0926
愛語	-11.0927
請說	-11.0934
作如是念	-11.0935
不因	-11.0936
分別心	-11.0941
登地	-11.0945
摩耶	-11.0946
巧方便	-11.0946
欲境	-11.0948
能伏	-11.0948
未入	-11.0952
王等	-11.0956
皆歸	-11.0957
客塵	-11.0963
智論云	-11.0963
問疾品	-11.0964
▁六	-11.0964
相宗	-11.0969
鎖	-11.0969
寢	-11.0969
猪	-11.0969
擎	-11.0969
淤泥	-11.097
三問	-11.0972
漿	-11.0972
格	-11.0973
茶	-11.0974
之恩	-11.0974
佛滅度後	-11.0975
疲倦	-11.0978
有十種	-11.0981
吾等	-11.0981
我能	-11.0985
四月	-11.0987
惟心	-11.0987
是經典	-11.0987
愁憂	-11.0992
境故	-11.0992
之徒	-11.1001
開解	-11.1001
無自性性	-11.1007
火輪	-11.1008
三菩提	-11.1009
離性非性	-11.101
今則	-11.101
三分	-11.1015
菩提之心	-11.1017
樂見	-11.1018
欲說	-11.102
不云	-11.1024
此十	-11.1027
▁南无天	-11.103
一切有為	-11.1031
諸子	-11.1032
洪	-11.1033
臍	-11.1033
慎勿	-11.1034
我昔	-11.1034
有佛性	-11.1035
三摩	-11.1036
拘留孫	-11.1036
分別事識	-11.1037
還來	-11.1038
若住	-11.1039
正位	-11.1039
而未	-11.104
嚴身	-11.104
二月	-11.1042
千子	-11.1044
歡喜奉行	-11.1044
名為解脫	-11.1045
所致	-11.1046
不懈	-11.1047
世出世間	-11.1048
一切相	-11.1049
以得	-11.1049
不近	-11.1053
可度	-11.1054
妙幢	-11.1056
離煩惱	-11.1057
捨此	-11.1058
隱覆	-11.106
修之	-11.106
從空	-11.106
釋中	-11.1062
▁二約	-11.1064
智度論云	-11.1065
滅相	-11.1065
緣慮	-11.1069
成於	-11.107
法報	-11.1075
限量	-11.1075
初門	-11.1079
為顯	-11.1081
所破	-11.1082
貪心	-11.1083
分為三	-11.1084
億劫	-11.1087
尚不能	-11.1089
或有眾生	-11.109
所度	-11.109
等觀	-11.1091
菩薩眾	-11.1093
業因緣	-11.1094
不相似	-11.1094
成佛時	-11.1094
頭面	-11.1094
虎狼	-11.1095
廁	-11.1096
之極	-11.1098
欝	-11.1098
個	-11.1098
今家	-11.1098
不生妄想	-11.1099
四十二	-11.11
淨業	-11.11
結前	-11.11
菩薩乘	-11.1101
善女天	-11.1105
傾動	-11.1107
當願眾生	-11.1107
卷第十	-11.1108
論文	-11.1108
轉生	-11.1108
通論	-11.1113
諸所有	-11.1114
亦不離	-11.1115
增損	-11.1117
信佛	-11.112
眾具	-11.112
從因緣生	-11.1123
有過	-11.1124
所釋	-11.1128
發真	-11.1128
令此	-11.1131
且如	-11.1131
能成就	-11.1132
受其	-11.1134
紺	-11.1137
伎	-11.114
爾所	-11.114
下別	-11.114
於時	-11.114
展	-11.1146
分證	-11.1148
鍠	-11.1151
毀謗	-11.1151
舉身	-11.1153
動念	-11.1156
無邊際	-11.1157
佐	-11.1157
故復	-11.1158
西蜀復庵暉禪師曰	-11.116
閣	-11.1161
一對	-11.1161
無本	-11.1161
一實諦	-11.1162
諸性	-11.1162
樓閣	-11.1165
有住	-11.1166
一子	-11.1167
建立誹謗	-11.117
肝	-11.117
捨諸	-11.117
地界	-11.1173
六七	-11.1176
師曰	-11.1176
及於	-11.1179
如上所說	-11.1182
慧命	-11.1182
與樂	-11.1186
實疾	-11.1186
准此	-11.1188
先當	-11.1189
三途	-11.119
偈言	-11.119
毛輪	-11.1192
靡	-11.1195
諸罪	-11.1203
提婆	-11.1203
此顯	-11.1203
之妙	-11.1205
此間	-11.1205
全同	-11.1206
相應故	-11.1207
以種種	-11.1207
當令	-11.1207
謂依	-11.1209
為除	-11.1211
一曰	-11.1212
昭	-11.1215
魔軍	-11.1215
私註	-11.1215
心法	-11.1215
兔無角	-11.1216
十二處	-11.1216
得安樂	-11.1216
修慧	-11.1218
區	-11.1221
常說	-11.1221
復有菩薩名曰	-11.1221
之益	-11.1222
相佛	-11.1222
漫	-11.1222
愚痴	-11.1223
添	-11.1224
暇	-11.1224
定力	-11.1225
覩見	-11.1225
牀	-11.1225
又前	-11.1226
複	-11.1227
幻觀	-11.1227
不能見	-11.1229
辭不堪	-11.1229
是誰	-11.123
自證聖智	-11.123
前際	-11.123
醫王	-11.1231
不調	-11.1231
是中	-11.1232
無所從來	-11.1234
萬億	-11.1235
大海水	-11.1237
非無性	-11.1239
未免	-11.1239
之實	-11.124
不生故	-11.1241
所住處	-11.1241
隨文	-11.1243
能自	-11.1246
化導	-11.1246
愛取	-11.1251
▁初正	-11.1251
▁初解	-11.1254
應同	-11.1254
菩提分	-11.1262
是諸菩薩	-11.1264
難也	-11.1266
攝心	-11.1273
已說	-11.1273
死時	-11.1274
三千大千	-11.1279
如燈	-11.1279
眾聖	-11.1281
不停	-11.1281
會通	-11.1281
此經云	-11.1282
利眾生	-11.1284
霧	-11.1285
四名	-11.1286
智慧者	-11.1286
別立	-11.1289
郡	-11.129
其水	-11.129
王者	-11.1293
養育	-11.1293
得記	-11.1295
炭	-11.1295
我欲	-11.1296
正智如如	-11.1298
傍生	-11.1298
界內外	-11.1299
出時	-11.13
縱橫	-11.1301
稱揚	-11.1305
而觀	-11.1305
以手	-11.1307
本來寂靜	-11.1308
▁南无光明	-11.1309
修觀	-11.1311
耳根	-11.1312
鈔云	-11.1314
大哀	-11.1314
不忍	-11.1315
譯人	-11.1319
一釋	-11.1322
叵得	-11.1323
言音	-11.1324
妄想習氣	-11.1327
滅壞	-11.1331
如上說	-11.1336
雜亂	-11.1338
垢穢	-11.1341
如是比丘	-11.1342
若起	-11.1343
獄卒	-11.1345
眾經	-11.1349
勝故	-11.135
諷	-11.135
哆	-11.1352
月上	-11.1353
丸	-11.1353
漚	-11.1354
逃	-11.1355
▁南无無㝵	-11.1356
泰	-11.1357
極果	-11.1357
正命	-11.1358
伯	-11.1358
醒	-11.136
成滿	-11.136
閻羅	-11.136
亦成	-11.1361
初總標	-11.1363
如影	-11.1363
從緣生	-11.1368
燈王	-11.1372
應須	-11.1372
舉體	-11.1372
不獨	-11.1374
十方界	-11.1377
色空	-11.138
唯在	-11.138
氣力	-11.1383
難見	-11.1385
疾得阿耨多羅三藐三菩提	-11.1388
波離	-11.1391
苦道	-11.1394
所行境界	-11.1399
今說	-11.1402
方便力	-11.1403
三空	-11.1405
受苦惱	-11.1407
大乘者	-11.1408
如實知身	-11.1411
繫屬	-11.1412
方廣	-11.1412
三自性	-11.1415
都無所	-11.1416
根量	-11.1417
填	-11.1418
奢	-11.1419
善哉世尊	-11.142
鈎	-11.142
若生若滅	-11.1421
怠	-11.1422
駕	-11.1423
見真	-11.1424
儀式	-11.1425
怛薩阿竭	-11.1426
分衛	-11.1426
俱無	-11.1427
削	-11.1427
沸	-11.1428
貝	-11.1428
欝單越	-11.143
莊嚴其身	-11.1431
盲者	-11.1431
覺智	-11.1433
二會	-11.1434
焰佛	-11.1437
皆可	-11.1438
如一	-11.1438
住在	-11.1438
作是念已	-11.1439
或計	-11.144
佛法僧	-11.1441
化佗	-11.1447
知我	-11.1453
南無德	-11.1454
何等為六	-11.1455
虛誑	-11.1456
不思議事	-11.146
四面	-11.1464
安處	-11.1466
等相	-11.1469
六萬	-11.1471
此答	-11.1471
下根	-11.1478
百二十	-11.1481
合文上科共成	-11.1482
啞	-11.1483
奉教歡喜	-11.1487
不惜身命	-11.1488
叫	-11.1488
夭	-11.149
=	-11.149
盂蘭盆	-11.1491
不能了	-11.1498
成自性	-11.1499
現種種	-11.15
國人	-11.1502
今疏	-11.1504
種種差別	-11.1504
說是經	-11.1506
判教	-11.1508
䟦	-11.1509
梵網	-11.151
同前	-11.1512
六即	-11.1513
餘文	-11.1515
出息	-11.1517
若天	-11.1517
覺意	-11.1518
應捨	-11.152
計著相續	-11.1521
諸山	-11.1523
復云	-11.1523
不一	-11.1529
也問曰	-11.1532
華果	-11.1537
應修	-11.1541
中疏	-11.1543
法緣	-11.1546
不瞋	-11.1547
吸	-11.1551
長跪	-11.1552
償	-11.1554
西蜀復菴暉禪師	-11.1556
不自在	-11.1557
瞖	-11.1557
拒	-11.1557
諸佛剎土	-11.1557
悟解	-11.1558
如如智	-11.1559
猶豫	-11.156
暖	-11.156
白淨	-11.156
斬	-11.1561
全是	-11.1562
受戒	-11.1563
評曰	-11.1563
外道惡見	-11.1564
一由旬	-11.1565
一切諸眾生	-11.1567
療治	-11.1568
福聚	-11.1568
當自	-11.1571
作證	-11.1575
念住	-11.1576
清淨法	-11.1577
六法	-11.1578
異因	-11.158
阿難言	-11.1582
大辯	-11.1583
如是大慧	-11.1584
如實見	-11.1585
彼地獄人	-11.1585
香飯	-11.1586
顏色	-11.1587
雖異	-11.1589
先以	-11.159
漸修	-11.1592
縛解	-11.1592
不屬	-11.1594
二十九	-11.1595
之相也	-11.1598
明見	-11.1608
梵云	-11.161
菩提樹	-11.1615
裹	-11.162
盤	-11.1621
巳斷	-11.1622
過去諸佛	-11.1622
而轉	-11.1622
規	-11.1624
師子奮迅	-11.1624
脣	-11.1625
父名	-11.1625
化現	-11.1626
平等性智	-11.1627
菩薩大士	-11.1627
東北方	-11.1628
聽許	-11.1629
世間人	-11.1631
人壽	-11.1631
多諸	-11.1637
心源	-11.1638
持經	-11.1639
如來南無善	-11.164
遍行	-11.1641
調達	-11.1642
伽羅	-11.1642
發無上	-11.1645
因成	-11.1646
五地	-11.1651
於一切處	-11.1653
了無	-11.1655
大將	-11.1659
行菩	-11.1659
四結	-11.1659
釋文	-11.1659
三七日	-11.1676
善現	-11.1678
何等為二	-11.1681
侯	-11.1683
跪	-11.1686
揵	-11.1688
粗	-11.169
從座而起	-11.169
如化	-11.1691
孛	-11.1692
已後	-11.1695
檀越	-11.1698
世出世	-11.1698
現疾	-11.1701
亦不生	-11.1703
依之	-11.1705
斯乃	-11.1706
妙喜	-11.1707
如來智	-11.1709
一卷	-11.1715
修治	-11.1717
西南方	-11.1717
黠	-11.1719
之失	-11.1728
難測	-11.1732
此定	-11.1733
自在天	-11.1734
三根	-11.1736
根識	-11.1736
法自在	-11.1737
秦言	-11.1739
不止	-11.1739
外道二乘	-11.1739
無所見	-11.1741
識心	-11.1741
性無常	-11.1741
精氣	-11.1742
尚有	-11.1742
但能	-11.1743
例前	-11.175
爾時大慧菩薩	-11.1751
將此	-11.1751
亦有亦無	-11.1753
鎮	-11.1755
品類	-11.1757
額	-11.1758
從空入假	-11.1758
華佛南無	-11.1761
法雲	-11.1762
大神	-11.1763
霜	-11.1763
弗沙	-11.1765
非究竟	-11.1765
苦哉	-11.1766
如云	-11.1768
起用	-11.1769
實諦	-11.177
從假入空	-11.177
十由旬	-11.177
互為	-11.1772
逼惱	-11.1774
前問	-11.1779
一切所作	-11.178
立宗	-11.1784
我愛	-11.1785
方便教	-11.1787
眾所	-11.1793
當行	-11.1796
顯出	-11.1796
眾病	-11.1798
名稱佛	-11.1799
叵	-11.1799
三處	-11.1801
阿閦佛	-11.1802
下示	-11.1804
城名	-11.1805
空無我	-11.1817
▁南无上	-11.1818
莎羅	-11.1819
妃	-11.1821
空門	-11.1822
之士	-11.1822
見佛性	-11.1823
排	-11.1826
籠	-11.1831
非滅	-11.1832
校量	-11.1833
諸受	-11.1835
魔怨	-11.1836
豈是	-11.1837
若從	-11.1837
說聽	-11.1837
箜篌	-11.1839
既見	-11.184
不斷絕	-11.1841
真陀羅	-11.1845
空聚	-11.1845
容受	-11.1846
將護	-11.1846
梵本	-11.1847
求涅槃	-11.1848
當復	-11.1848
無法可	-11.1849
圓鏡	-11.1855
質直	-11.1855
略明	-11.1855
尋求	-11.1856
百六十	-11.1859
▁南无無畏	-11.1859
頗有	-11.1867
普光明	-11.1869
不可壞	-11.1869
始從	-11.1869
發道心	-11.187
陀那	-11.187
結名	-11.1874
欣樂	-11.1877
以心	-11.1878
云何名菩薩	-11.1879
菩薩亦復如是	-11.1879
心如	-11.188
差別之相	-11.1885
四住	-11.1886
得未曾有	-11.1887
妄有	-11.1891
葛	-11.1892
綱	-11.1893
芥	-11.1894
欲重宣此義	-11.1894
挍	-11.1895
緒	-11.1896
饑	-11.1896
尅	-11.1897
魔業	-11.1897
云何菩薩得	-11.1898
俱離	-11.1899
是總	-11.1899
正法念處經	-11.1899
乃知	-11.19
亦須	-11.1902
唯心所現	-11.1902
鼻舌	-11.1904
自覺聖趣	-11.1904
持禁戒	-11.1905
天子復問	-11.1908
五識身	-11.1909
其聲	-11.1916
當何所	-11.1917
端坐	-11.1919
喻於	-11.1919
六趣	-11.1919
不可數	-11.1921
專心	-11.1925
變壞	-11.1928
二子	-11.1931
退失	-11.1933
一念心	-11.1933
聰	-11.1936
思益	-11.1936
果德	-11.1938
有無二見	-11.1943
彌樓	-11.1944
不了義	-11.1945
覆藏	-11.195
得解	-11.195
今略	-11.1952
識生	-11.1952
解脫知見	-11.1954
羅婆	-11.1955
久如	-11.1956
摶	-11.1957
一切凡夫	-11.1958
空處	-11.1961
慇懃	-11.1962
此會	-11.1962
壓	-11.1966
鼠	-11.1966
五明	-11.1967
眼色	-11.1967
皷	-11.1967
更無別	-11.1968
結業	-11.1968
苑	-11.1968
舍宅	-11.1969
泥犁	-11.1969
炙	-11.1969
憒閙	-11.197
八正道	-11.1972
隨轉	-11.1972
後得智	-11.1973
甜	-11.1974
佛地論	-11.1977
若干種	-11.1981
領受	-11.1983
四洲	-11.1983
無欲	-11.1985
諸寶	-11.1985
白銀	-11.1987
善權方便	-11.1988
不改	-11.1989
調伏其心	-11.1991
長時	-11.1991
幾種	-11.2001
無有能	-11.2001
彼諸外道	-11.2002
三十一	-11.2003
無所起	-11.2009
而悉	-11.2011
本無生	-11.2012
天華	-11.2015
疏主	-11.2015
後人	-11.2016
永寂	-11.2018
殊特	-11.202
即起	-11.2025
徐	-11.2027
進修	-11.2028
無彼	-11.203
諸佛世界	-11.2031
憍尸迦	-11.2034
詔	-11.2034
執受	-11.2034
展轉相	-11.2035
生法二空	-11.2035
楞伽阿䟦多羅寶經	-11.2035
義利	-11.2036
姟	-11.2036
為何等	-11.2036
毗盧遮那	-11.2036
斗	-11.2038
如世尊說	-11.2039
愛念	-11.2039
乃可取食	-11.2041
一境	-11.2045
等分	-11.2047
諸句	-11.2047
可樂	-11.2049
無處所	-11.2051
本生	-11.2051
俱非	-11.2055
其猶	-11.2057
一月	-11.2057
因彼	-11.2065
正義	-11.2067
實理	-11.207
非離	-11.207
方便善巧	-11.2077
肇	-11.2077
囑累	-11.2085
墮惡趣	-11.2086
甚可	-11.2089
去此	-11.2091
正以	-11.2091
三學	-11.2094
背捨	-11.2097
樂行	-11.2097
如須彌山	-11.2098
軌則	-11.2098
於內	-11.2099
邏	-11.21
亦知	-11.2102
是果	-11.2106
廣為	-11.2106
鋒	-11.2108
諫	-11.2108
好醜	-11.2109
妨礙	-11.211
樂行多作	-11.211
嶮	-11.211
乃成	-11.2111
欲入	-11.2111
採集	-11.2111
明行足	-11.2115
是故說言	-11.2116
三脫門	-11.2118
叢林	-11.2119
非所作	-11.2123
智境	-11.2124
依真	-11.2125
妙聲	-11.2125
次約	-11.2125
有七種	-11.2126
一家	-11.2132
如來種	-11.2135
決了	-11.2135
惡鬼	-11.2136
業者	-11.2136
是則為	-11.2137
如是如來	-11.2137
名句	-11.2139
當云何	-11.2143
云何知	-11.2144
外國	-11.2144
始知	-11.2145
因上	-11.2146
顯德	-11.2149
滿願	-11.2151
所有諸	-11.2152
得悟	-11.2152
出家人	-11.2155
繫心	-11.2156
牛王	-11.2159
有六種	-11.216
體同	-11.2162
一地	-11.2164
第八地	-11.2165
十地菩薩	-11.2166
阿羅漢果	-11.2169
其罪	-11.2169
中有四	-11.2169
庭	-11.2174
9	-11.2175
野干	-11.2175
荷負	-11.2177
時天帝釋	-11.2178
汝當知	-11.2178
孟	-11.218
穴	-11.2181
甘蔗	-11.2181
觀世音菩薩	-11.2183
不驚	-11.2184
攝持	-11.2185
拔濟	-11.2188
其道	-11.219
稱名	-11.2192
尊者阿難	-11.2193
去聲	-11.2194
中有一	-11.2196
多劫	-11.2196
不會	-11.2197
形狀	-11.2198
於斯	-11.2198
觀如來	-11.2198
在外	-11.22
三十五	-11.22
空宗	-11.2205
等無有異	-11.2211
言說者	-11.2211
他性	-11.2212
善惡業	-11.2213
正示	-11.2213
受決	-11.2215
方可	-11.2216
假有	-11.2217
華鬘	-11.2218
今復	-11.2223
故下文云	-11.2229
磨滅	-11.223
脇	-11.2234
之情	-11.2234
如空中	-11.2235
諸入	-11.2236
緣集	-11.2236
所牽	-11.2238
地地	-11.2239
是彼	-11.2239
聞是法	-11.2239
自致	-11.2239
第十地	-11.2239
出定	-11.2239
之前	-11.2241
破相	-11.2242
鷄	-11.2243
下云	-11.2244
承上	-11.2245
狼	-11.2245
供具	-11.2246
0	-11.2249
宗密	-11.2249
最尊	-11.2249
願行	-11.2249
畫師	-11.2249
陽焰	-11.2251
山河	-11.2254
無邊功德	-11.2254
汗	-11.2255
觀解	-11.2255
教誨	-11.2257
法海	-11.2259
無所分別	-11.2261
圓修	-11.2264
違順	-11.2275
所宜	-11.2276
伽藍	-11.2282
如是次第	-11.2285
寒熱	-11.2286
說偈言	-11.2291
俱名	-11.2292
欲明	-11.2293
極樂	-11.2293
無由	-11.2297
已見	-11.2298
觀世自在	-11.2298
大利	-11.2298
三番	-11.23
日輪	-11.2301
非聖	-11.2305
應斷	-11.2306
百味	-11.2308
嘿	-11.2313
大人	-11.2314
除斷	-11.2314
吾今	-11.2317
亂心	-11.2318
釋迦文佛	-11.2318
院	-11.2318
耆闍崛山	-11.232
從來	-11.232
從世尊聞如是	-11.232
膏	-11.2321
膿血	-11.2322
隆	-11.2324
鄰	-11.2324
巷	-11.2324
所迷	-11.2325
佛寶	-11.2329
正知見	-11.2329
麤細	-11.2329
應用	-11.2332
為他說	-11.2332
諸通慧	-11.2336
敗壞	-11.2338
身內	-11.234
彼諸眾生	-11.2342
還是	-11.2347
略舉	-11.2348
四釋	-11.2348
閻浮提人	-11.2348
菩提道	-11.235
上云	-11.2352
女色	-11.2356
今此經	-11.2361
破惡	-11.2368
識性	-11.2368
二種無我	-11.2371
成上	-11.2373
二曰	-11.2376
不除	-11.2378
與汝	-11.2378
復過	-11.2381
著我	-11.2384
涅	-11.2385
軀	-11.2387
若云	-11.2388
大般若	-11.2388
㲲	-11.2388
積佛	-11.239
汝行詣維摩詰問疾	-11.239
讓	-11.2391
僕	-11.2391
在其中	-11.2393
阿那律	-11.2393
對境	-11.2394
化成	-11.2395
無缺	-11.2396
橫竪	-11.2396
宣揚	-11.2397
羂	-11.2398
本處	-11.2398
眾生何業生於彼	-11.2398
於其中間	-11.24
然非	-11.2401
諮	-11.2402
座上	-11.2403
充足	-11.2403
何意	-11.2406
其言	-11.2406
所作業	-11.2407
毀犯	-11.2407
青色	-11.2408
便成	-11.2409
轉勝	-11.2414
此經典	-11.2417
為人說	-11.2418
一心三觀	-11.2418
則不生	-11.2419
滅盡定	-11.242
多生	-11.2422
音響	-11.2422
即用	-11.2426
重說	-11.2428
▁南无龍	-11.243
王及	-11.2431
彼世界	-11.2432
真修	-11.2432
此三千大千世界	-11.2433
大樹	-11.2434
亦未	-11.2436
彌陀	-11.2437
三因	-11.2438
二偈頌	-11.2438
成就如是	-11.2438
方有	-11.244
初後	-11.244
世尊所說	-11.2446
二就	-11.2448
躡前	-11.2448
妙華	-11.2449
塵境	-11.2453
陶	-11.246
義當	-11.2464
淪	-11.2465
謹	-11.2465
躭	-11.2466
惶	-11.2466
基	-11.2467
墨	-11.2467
於此經	-11.2469
醜陋	-11.247
貨	-11.2471
除蓋障菩薩	-11.2473
功成	-11.2474
輕賤	-11.2477
所問經	-11.2478
劫生死之罪	-11.2481
魔界	-11.2482
能通達	-11.2484
是諸眾生	-11.2486
▁南无常	-11.249
於正法	-11.2492
忉利	-11.2494
通達佛道	-11.2498
度人無量	-11.2498
緣覺乘	-11.2499
觀彼	-11.25
堅實	-11.2502
分真	-11.2505
當為汝	-11.2508
後二句	-11.2508
諸蘊	-11.2509
諸王	-11.251
取食	-11.2514
法佛	-11.2518
淨佛土	-11.2519
皆同一	-11.2521
為物	-11.2521
寧有	-11.2522
燈佛南無	-11.2523
解行	-11.2526
器界	-11.2526
其土	-11.2527
得意	-11.2527
瑟	-11.2529
當文二句	-11.2532
呵責	-11.2533
叔	-11.2535
項	-11.2535
屎	-11.2537
扇	-11.2539
人非人等	-11.2539
耗	-11.254
廣略	-11.2542
諸眾生等	-11.2542
此初文	-11.2543
自行化他	-11.2543
都不	-11.2546
大寶	-11.2548
當得作佛	-11.2549
正知	-11.255
獨處	-11.255
種智	-11.255
不乖	-11.2557
感動	-11.2558
幻事	-11.2559
在內	-11.2563
悉以	-11.2568
極苦	-11.2569
二十五輪	-11.2571
有二意	-11.2576
一總	-11.2577
十號	-11.2577
供養恭敬	-11.2578
百倍	-11.258
真識	-11.258
今何	-11.2582
三惡	-11.2582
而死	-11.2583
▁二示	-11.2584
高山	-11.2584
十度	-11.2585
不孝	-11.2591
有四句	-11.2594
月蓋	-11.2594
仁王	-11.2598
巳說	-11.2599
心心所	-11.2603
安心	-11.2604
離異不異	-11.2605
市	-11.2608
之念	-11.261
遞	-11.2611
我病	-11.2612
財利	-11.2613
蔭	-11.2613
杵	-11.2613
故法華云	-11.2615
棄捐	-11.2615
慳悋	-11.2617
說是語已	-11.2617
成所作智	-11.2617
寶蓮華	-11.2618
周旋	-11.2618
初牒	-11.2619
國名	-11.2623
諸事	-11.2623
從無始來	-11.2624
法要	-11.2624
以餘業故	-11.2624
但由	-11.2624
方丈	-11.2625
成唯識	-11.2625
名利	-11.2626
治之	-11.2627
須彌山王	-11.2629
▁南无清淨	-11.2634
異說	-11.2636
樂聞	-11.2637
毒藥	-11.2639
今鈔	-11.264
依經	-11.2644
何妨	-11.2644
所有眾生	-11.2644
釋經文	-11.2645
為第一	-11.2646
有千	-11.2649
聖法	-11.2653
法雨	-11.2653
識浪	-11.2655
譬若	-11.2656
有菩薩名	-11.2657
比量	-11.2657
成熟眾生	-11.2658
云何為四	-11.2659
三歸	-11.2663
不怖	-11.2667
利生	-11.2668
造立	-11.2669
遵修	-11.267
後說	-11.2671
末法	-11.2672
先有	-11.2672
常懷	-11.2675
名相妄想	-11.2677
具說	-11.2678
無所知	-11.2679
不稱	-11.268
自莊嚴	-11.2681
根本智	-11.2681
籍	-11.2683
沙門婆羅門	-11.2685
說是語時	-11.2687
逾	-11.2688
信受奉行	-11.2688
帳	-11.269
共住	-11.2691
直至	-11.2692
▁初舉經	-11.2692
僧問	-11.2693
入室	-11.2696
成前	-11.2702
應機	-11.2703
汝可	-11.2703
造色	-11.2703
意顯	-11.2704
雖未	-11.2705
稱量	-11.2706
和上	-11.2708
不得言	-11.2708
臨終	-11.2714
穢惡	-11.2716
今觀	-11.2722
七十二	-11.2724
意欲	-11.2725
譬如大海	-11.2726
甚大	-11.2727
巨海	-11.2728
推之	-11.2731
不散	-11.2735
而為上首	-11.2736
業用	-11.2737
可斷	-11.2739
無漏界	-11.2742
諸邪見	-11.2744
報言	-11.2749
一切身分	-11.275
何因緣故	-11.2755
句釋	-11.2756
六品	-11.2757
各以	-11.2759
文為三初	-11.276
瓦	-11.276
不如實	-11.2761
摩尼寶	-11.2761
何人	-11.2762
覽	-11.2763
城邑聚落	-11.2764
更互	-11.2764
鬚	-11.2764
摩竭	-11.2764
合掌向佛	-11.2765
散脂	-11.2765
)。(	-11.2766
毀壞	-11.2768
般泥洹	-11.2768
於緣起	-11.277
不易	-11.2772
白毫	-11.2773
諸境界	-11.2774
饒益眾生	-11.2775
一期	-11.2777
青黃	-11.2778
文為四	-11.2779
捨心	-11.2779
猛利	-11.2779
慧力	-11.2786
所得功德	-11.2786
墮二邊	-11.2787
梵世	-11.2789
味著	-11.279
觀照	-11.2793
軍眾	-11.2799
飛行	-11.2799
幻法	-11.2801
煮	-11.2802
奉事	-11.2803
說三乘	-11.2804
二初約	-11.2806
是有為	-11.2811
大菩薩眾	-11.2811
於一切時	-11.2812
普智	-11.2814
食噉	-11.2815
摩訶薩	-11.2818
不可取	-11.282
四地	-11.2822
如來名號	-11.2823
準此	-11.2826
撮	-11.2833
瑕穢	-11.2834
匿	-11.2834
瓦石	-11.2836
肘	-11.2837
受想	-11.2838
鍊	-11.284
發大心	-11.2841
苗	-11.2842
四神足	-11.2844
文四	-11.2844
二十六	-11.2846
能仁	-11.2846
引文	-11.2846
黑闇	-11.285
道教	-11.2851
無惱	-11.2851
佛國因果	-11.2851
內外法	-11.2852
無戲論	-11.2855
聖行	-11.2855
散壞	-11.2855
釋題	-11.2856
損害	-11.2856
如實處	-11.2863
』「	-11.2863
法財	-11.2864
光中	-11.2865
道路	-11.2866
領解	-11.2871
因何	-11.2871
我及諸佛	-11.2872
同分	-11.2874
惟願世尊	-11.2876
本意	-11.288
火所燒	-11.2881
魅鬼	-11.2881
顛	-11.2882
來會	-11.2884
品題	-11.2886
唯取	-11.2896
見諸佛	-11.2899
卷第五	-11.2901
不動地	-11.2901
報化	-11.2901
因地法行	-11.2903
一毛孔	-11.2903
過諸	-11.2907
乃云	-11.2907
有罪	-11.2908
初分文	-11.291
經題	-11.2914
趺	-11.2914
毗曇	-11.2914
作是語已	-11.2915
爾時大慧菩薩摩訶薩復白佛言	-11.2915
此即第二	-11.2915
鐵圍山	-11.2915
片	-11.2916
無明緣行	-11.2916
若遇	-11.2917
捕	-11.292
要當	-11.2923
亦令	-11.2927
苦海	-11.2928
離生滅	-11.2929
塚間	-11.2929
官屬	-11.293
經體	-11.293
祖師	-11.2932
皆無自性	-11.2933
十五日	-11.2935
絕言	-11.2941
悉滅	-11.2943
半偈	-11.2947
無漏法	-11.2954
生彼天	-11.2955
去來今	-11.2959
白象	-11.2961
而不捨	-11.2964
彼彼空	-11.2964
自心妄想	-11.2966
若有比丘	-11.2968
我子	-11.2969
勝功德	-11.2969
半頌	-11.2973
如前釋	-11.2976
為眾生故	-11.2977
財富	-11.2977
嚩	-11.2978
濡首	-11.2985
無身	-11.2985
泛	-11.2987
宗趣	-11.2989
求佛道	-11.299
崩	-11.299
蠱	-11.2991
最勝子	-11.2991
異熟果	-11.2992
選擇	-11.2993
旃陀羅	-11.2994
倒懸	-11.2997
告諸	-11.2997
常隨	-11.2999
妙理	-11.3
機緣	-11.3001
間錯	-11.3003
文意	-11.3006
邪法	-11.3008
巳滅	-11.3012
求其	-11.3012
宗旨	-11.3015
必具	-11.3021
正勤	-11.3022
流支	-11.3025
阿閦	-11.3025
所共	-11.3026
其國有佛	-11.3028
法華文句	-11.3031
獵	-11.3036
萬劫	-11.3038
正直	-11.3039
無數百千	-11.3041
例此	-11.3044
覺巳	-11.3048
謂若菩薩	-11.3049
奉上	-11.3051
之食	-11.3052
若有若無	-11.3052
此三昧	-11.3053
罪報	-11.3054
火大	-11.3055
餘義	-11.3056
莎	-11.3058
三千世界	-11.3059
曾聞	-11.306
一異俱不俱	-11.3065
筏	-11.3067
淨居	-11.3067
吳	-11.3069
自利利他	-11.307
惡世	-11.3072
善寂	-11.3077
於戒	-11.3082
𧗪	-11.3085
所疑	-11.309
難云	-11.309
怨親	-11.3092
出入息	-11.3097
今從	-11.3098
去取	-11.31
憂愁	-11.31
自覺境界	-11.3109
總攝	-11.3115
法界性	-11.3116
復還	-11.3116
▁南无樂	-11.3116
幡蓋	-11.3121
為眾生說	-11.3122
寶器	-11.3124
青蓮	-11.3125
妄起	-11.3127
亦曰	-11.3128
禪思	-11.3131
慈悲心	-11.3133
別顯	-11.3133
入滅	-11.3134
解義	-11.3135
膿	-11.3137
死人	-11.3138
獲大	-11.314
所護	-11.3141
圓通	-11.3142
但明	-11.3144
可意	-11.3144
莎呵	-11.3146
警	-11.3147
十二入	-11.3148
不說一字	-11.3148
掩	-11.315
初一行	-11.315
即真如	-11.3155
無所有處	-11.3156
聞是經	-11.3156
即是法身	-11.3157
先說	-11.3159
約義	-11.316
耽著	-11.316
河池	-11.3161
尚書	-11.3162
當受	-11.3176
之日	-11.3176
受諸苦惱	-11.3178
學處	-11.3178
章中	-11.3178
所不及	-11.3179
善觀察	-11.3182
變易生死	-11.3183
幻智	-11.3185
厭生死	-11.3185
千劫	-11.3186
▁南无大雲	-11.3186
自此	-11.3187
諸因緣	-11.3187
▁南无栴檀	-11.3189
非斷	-11.3191
汙	-11.3192
所被	-11.3195
之家	-11.3195
妙慧	-11.32
之所能	-11.32
普見	-11.32
圓妙	-11.3202
不得自在	-11.3203
度脫眾生	-11.3203
如幻三昧	-11.3205
生滅門	-11.3206
外境界	-11.3207
寶光	-11.3209
信根	-11.3209
不移	-11.3212
供養如來	-11.3212
竺	-11.3212
馱	-11.3214
億歲	-11.3219
不自生	-11.322
痴	-11.3225
製	-11.3225
其家	-11.3226
爾時世尊重說頌言	-11.3227
八十種好	-11.3228
欲聞	-11.3228
皎	-11.3229
辟支	-11.3229
復有二	-11.323
)。】「〔	-11.3231
床座	-11.3231
六年	-11.3231
群臣	-11.3231
不如法	-11.3234
第十二	-11.3237
阿彌陀	-11.3237
智識	-11.3237
傳云	-11.3238
會中有	-11.324
意念	-11.324
以辨	-11.3243
耆年	-11.3244
四悉	-11.3244
有餘土	-11.325
六十二	-11.3251
長大	-11.3252
童女	-11.3253
放捨	-11.326
水大	-11.326
東南方	-11.3261
流通分	-11.3262
還歸	-11.3263
淨名答	-11.3265
流轉生死	-11.3266
眼菩	-11.3266
三期	-11.3266
悟道	-11.3271
梨耶	-11.3272
空無所有	-11.3279
覺所覺	-11.3287
喜見	-11.3288
有其二	-11.3289
法相宗	-11.3289
兩種	-11.3291
堅住	-11.3293
三解脫門	-11.3293
聖默然	-11.3295
比丘白佛	-11.3296
頞	-11.3296
彼經云	-11.3296
骸	-11.3301
香花	-11.3301
顯勝	-11.3302
同業	-11.3303
康	-11.3303
欽	-11.3303
役	-11.3303
開章	-11.3306
南無月	-11.3307
耐	-11.3308
渴仰	-11.3309
於此中	-11.3311
違背	-11.3312
受陰	-11.3313
爾時佛告	-11.3313
更無餘	-11.3314
毘舍佉	-11.3315
自心現妄想	-11.3315
垢染	-11.3316
奉施	-11.3316
邪答	-11.3317
五住	-11.3318
。」【△	-11.3321
毘羅	-11.3323
據此	-11.3328
當機	-11.3329
三十三	-11.3333
次一行	-11.3334
花鬘	-11.3341
標名	-11.3342
以何等	-11.3343
高座	-11.3343
自他俱	-11.3344
無性故	-11.3345
天佛南無	-11.3346
如大海	-11.3346
無與等	-11.3349
外物	-11.335
方乃	-11.3352
禪波羅蜜	-11.3355
妙德	-11.3356
能信	-11.3356
證菩提	-11.3356
厭患	-11.3358
奮迅佛	-11.3359
雖多	-11.3359
相望	-11.3365
天冠	-11.3366
識知	-11.3366
▁二結	-11.3367
能到	-11.3367
勿令	-11.3372
受食	-11.3374
四約	-11.3375
初學	-11.3375
者是也	-11.3376
邪命	-11.3377
世尊所	-11.3379
其旨	-11.338
澡浴	-11.3381
如鏡中像	-11.3381
夢幻	-11.3382
阿耨達	-11.3385
捷	-11.3387
歌詠	-11.3388
羞	-11.3389
千二百五十	-11.3389
欲貪	-11.339
線	-11.3391
自分	-11.3392
佛南無香	-11.3392
羅云	-11.3399
譯經	-11.3399
舍衛國	-11.3403
秖是	-11.3404
之源	-11.3407
鈎鎻	-11.3407
置於	-11.3408
亦復無	-11.341
既盡	-11.3413
指示	-11.3414
▁初別	-11.3414
諸佛剎	-11.3418
五果	-11.3425
六凡	-11.3428
未明	-11.343
順法	-11.343
燒煮	-11.3435
本源	-11.3443
志求	-11.3446
迷亂	-11.3449
祇域	-11.345
不曉	-11.3454
無所有故	-11.3455
那得	-11.3456
三慧	-11.3461
不能入清淨覺	-11.3463
▁南无金	-11.3463
兆	-11.3464
非四大	-11.3465
泥團	-11.3466
纖	-11.3467
慈悲喜捨	-11.3467
世尊重攝此義而說	-11.3468
發誓	-11.3468
不受後有	-11.3469
藝	-11.3469
選	-11.3471
頒宣	-11.3471
辰	-11.3471
蠲除	-11.3472
一切所有	-11.3479
險難	-11.3486
已還	-11.3495
自稱	-11.3497
降伏魔	-11.3499
了不可得	-11.3499
斷障	-11.3499
當勤	-11.3502
化度	-11.3503
亦具	-11.3503
無量光	-11.3504
此即第一	-11.3505
三千界	-11.3505
其室	-11.3505
多分	-11.3511
得生天	-11.3512
厄難	-11.3515
種種方便	-11.3516
變成	-11.3524
即理	-11.3524
所建立	-11.3524
摩那	-11.3526
▁南无堅	-11.3531
」【(	-11.3534
動靜	-11.3535
依文	-11.3536
復作是念	-11.3537
真體	-11.354
妄識	-11.3541
艱	-11.3541
無常等	-11.3544
師資	-11.3544
魯	-11.3546
皆發阿耨多羅三藐三菩提心	-11.3547
虔	-11.3547
橋	-11.3547
楞	-11.3547
妙觀察智	-11.3548
勤行精進	-11.3548
入息	-11.3551
風大	-11.3552
首菩	-11.3553
法藥	-11.3554
一實境界	-11.3555
往彼	-11.3556
授決	-11.3556
但隨	-11.3556
止住	-11.3556
行步	-11.3558
有支	-11.3562
作沙門	-11.3567
巳前	-11.3572
)。】	-11.3573
如來南無寶	-11.3574
標指	-11.3576
偈曰	-11.3577
非定	-11.3584
身光	-11.3589
偈讚	-11.359
淨潔	-11.3594
那羅	-11.3595
據實	-11.3596
慈恩	-11.3596
聚佛南無	-11.3597
勝上	-11.3598
所有一切	-11.36
釋論云	-11.36
性不壞	-11.3605
幢王佛	-11.3605
宛	-11.3608
無有實	-11.361
自守	-11.3613
四字	-11.3615
聲聞人	-11.3616
標舉	-11.3616
述云	-11.3617
四百	-11.3618
造惡業	-11.3618
之異名	-11.3618
菩薩得此	-11.3619
阿彌陀佛	-11.362
修菩薩行	-11.3624
如空華	-11.3628
正語	-11.3628
之疾	-11.3629
兜率陀天	-11.363
資具	-11.3631
方法	-11.3631
如其所	-11.3631
燋	-11.3632
溢	-11.3633
命終之後	-11.3633
不悟	-11.3633
晃	-11.3634
緣了	-11.3635
靜慧	-11.3635
聞是語已	-11.3636
逕	-11.3636
即是涅槃	-11.3636
與外道	-11.3638
諸法自性	-11.3642
濟度	-11.3645
正真	-11.3645
文殊章	-11.3646
大品經	-11.3646
超度	-11.3647
救度	-11.3647
異道	-11.3649
器世間	-11.3652
未審	-11.3653
▁南无甘露	-11.3657
彼以聞慧見	-11.3659
八正	-11.3659
五百歲	-11.366
悲泣	-11.3661
白世尊	-11.3662
倒見	-11.3662
節節	-11.3663
世事	-11.3663
三際	-11.3664
成菩提	-11.3665
當來世	-11.3668
蓮花池	-11.3682
疑念	-11.3689
由是因緣	-11.369
窮盡	-11.369
故論云	-11.369
所宗	-11.369
骨人	-11.3697
本來無	-11.3697
如響	-11.37
祀	-11.3706
千里	-11.3707
來至此	-11.3707
毘鉢舍那	-11.371
戾	-11.3712
魔波旬	-11.3713
渾	-11.3714
腰	-11.3715
朋友	-11.3715
乞人	-11.3715
軸	-11.3716
有十二	-11.3716
無塵	-11.3723
及諸外道	-11.3727
十里	-11.3728
所得法	-11.373
樂音	-11.3734
難信	-11.3735
未忘	-11.374
初列	-11.374
善德	-11.3744
可證	-11.3744
耶解云	-11.3744
妄情	-11.3748
十八不共法	-11.3751
設教	-11.3753
離妄	-11.3761
能燒	-11.3762
偏圓	-11.3763
諸三昧	-11.3765
於虛空中	-11.3771
得人身	-11.3776
舍衛	-11.3777
皈	-11.3777
經家	-11.3778
佛神力	-11.3778
名如來藏	-11.378
顯體	-11.3781
演義	-11.3784
之頃	-11.3786
故說為	-11.3786
散動	-11.3787
文可見	-11.3788
所有功德	-11.3788
論義	-11.3789
懅	-11.379
得忍	-11.3792
峰	-11.3793
右繞三匝	-11.3793
準前	-11.3794
莂	-11.3795
稽首佛足	-11.3795
腐	-11.3796
燭	-11.3796
把	-11.3796
趨	-11.3797
不縱不橫	-11.3797
馳走	-11.3799
瑩	-11.3799
籤	-11.3799
說此法	-11.38
於境	-11.38
野馬	-11.3801
洋	-11.3801
無所罣礙	-11.3802
不復生	-11.3803
惱害	-11.3803
滅道	-11.3805
是故說名	-11.3807
齋戒	-11.3811
七八	-11.3812
持淨戒	-11.3812
已斷	-11.3813
此女	-11.3813
思慧	-11.3815
竹園	-11.3815
最極	-11.3815
於中有三	-11.3815
愍念	-11.3815
疏鈔	-11.3817
自體相	-11.382
為最	-11.3821
現瑞	-11.3822
美味	-11.3822
是第一義	-11.3827
復有異	-11.383
愛憎	-11.3832
道俗	-11.3835
肯	-11.3837
王位	-11.3838
四無畏	-11.384
長行中	-11.3841
遍覆	-11.3846
脩習	-11.3847
孝子	-11.3849
無住處	-11.3851
赤色	-11.3851
文殊師利童子	-11.3854
妙玄	-11.3854
七百	-11.3855
母胎	-11.3855
往復	-11.3856
腹中	-11.386
善趣	-11.386
大品云	-11.3865
毀戒	-11.3865
理實	-11.3867
對機	-11.3867
外現	-11.3868
之土	-11.3868
婁	-11.3868
耆婆	-11.387
後文	-11.387
入不二	-11.3871
圓人	-11.3872
踐	-11.3876
十方無量世界	-11.3877
鴿	-11.3878
隋	-11.3879
剛強	-11.388
贍部洲	-11.388
各說	-11.388
五百人	-11.3881
厥	-11.3881
夜摩	-11.3881
眉間	-11.3882
法性身	-11.3883
言語道斷	-11.3884
奢利弗	-11.3884
頓證	-11.3884
經書	-11.3885
陣	-11.3887
法雲地	-11.3893
六義	-11.3896
毘舍	-11.3898
於虛空	-11.3901
劫初	-11.3906
眾生之類	-11.3907
空品	-11.3907
歡樂	-11.3909
鵝王	-11.3909
白骨	-11.3909
初中二	-11.3912
無上正真之道	-11.3915
當教	-11.3916
究盡	-11.3925
小異	-11.3927
全無	-11.3929
苦因	-11.3933
唱言	-11.3933
不被	-11.3934
常寂光	-11.3934
通教菩薩	-11.3941
真如門	-11.3943
結縛	-11.3946
序云	-11.3946
共成	-11.395
勝性	-11.3953
此經文	-11.3953
非真實	-11.3955
犁	-11.3956
熱鐵	-11.3957
八十億	-11.396
澡	-11.3961
日月光	-11.3961
及諸大眾默然而聽	-11.3963
一雙	-11.3963
兜	-11.3964
凶	-11.3966
大般涅槃	-11.3966
雲集	-11.3966
所纏	-11.3966
兔馬	-11.3968
惣	-11.3968
懇	-11.3969
普賢菩薩	-11.3969
水精	-11.397
惡魔	-11.397
臘	-11.3972
毘婆舍那	-11.3973
殊勝功德	-11.3974
譯云	-11.3981
識界	-11.3983
如來南無無邊	-11.3984
明矣	-11.3986
空界	-11.3987
念念生滅	-11.3988
自性清淨心	-11.3993
勝王佛南無	-11.3993
身長	-11.3997
香佛南無	-11.4003
詳之	-11.4005
次二句	-11.4009
無量阿僧祇	-11.4009
文殊師利法王子	-11.401
來集	-11.4017
而得自在	-11.4018
千年	-11.4019
若準	-11.4026
無因論	-11.4027
菩提樹下	-11.4027
附文	-11.4031
國界	-11.4031
諸佛土	-11.4032
五乘	-11.4032
有四事	-11.4033
有無量種	-11.4034
阿難白佛言	-11.4034
時分	-11.4034
清白	-11.4035
相資	-11.4039
得神通	-11.404
不來不去	-11.4041
亦不知	-11.4043
吏	-11.4047
法幢	-11.4047
鞭	-11.4047
故我不任詣彼問疾	-11.4049
次復	-11.4049
阿須倫	-11.405
萎	-11.4052
依主釋	-11.4052
目前	-11.4053
奚	-11.4053
紀	-11.4053
除煩惱	-11.4054
他化自在天	-11.4054
李	-11.4055
無有二	-11.4056
姝	-11.4059
乏少	-11.406
非數	-11.4063
然後乃	-11.4066
方圓	-11.4068
間斷	-11.4069
智菩	-11.4069
八解	-11.4071
本文	-11.4074
人物	-11.4075
聚沫	-11.408
▁後別	-11.4081
本識	-11.4081
南無華	-11.4083
不增	-11.4083
不加	-11.4085
白法	-11.4086
如幻等	-11.4087
大方廣	-11.409
願樂	-11.4092
調伏心	-11.4093
▁南无波頭摩	-11.4095
受用身	-11.4099
三賢	-11.4099
疑網	-11.4101
妙好	-11.4104
從初發心	-11.4106
卷第六	-11.4111
一切聲聞緣覺	-11.4113
影現	-11.4116
右旋	-11.4117
退沒	-11.4118
一乘道	-11.4118
攀	-11.412
證圓覺	-11.412
顯了	-11.4121
雖通	-11.4123
無閡	-11.4124
狐	-11.4127
執着	-11.4128
求索	-11.4128
鸚鵡	-11.4128
不應說	-11.413
諸苦惱	-11.413
函	-11.4133
得值	-11.4133
斧	-11.4134
無等等	-11.4134
剛藏	-11.4135
夕	-11.4135
祿	-11.4136
從何所來	-11.4136
遠塵離垢	-11.4136
陋	-11.4138
問若爾	-11.4138
掘	-11.4139
毘耶離	-11.4139
搏	-11.4139
壤	-11.4141
▁初示	-11.4141
又彼比丘知業果報	-11.4142
二土	-11.4143
受五欲樂	-11.4144
何物	-11.4146
遍一切處	-11.4148
已去	-11.4149
圓淨	-11.4153
發言	-11.4156
一切天眾	-11.4159
各得	-11.4161
大梵天王	-11.4161
▁南无雲	-11.4163
)「	-11.4163
汝身	-11.4164
除愈	-11.4166
所遊	-11.4166
十劫	-11.4167
入初地	-11.4169
真實相	-11.4169
病本	-11.417
喜心	-11.4171
覺體	-11.4171
到彼	-11.4173
加被	-11.4174
真性解脫	-11.4174
功德海	-11.4174
阿耨菩提	-11.4176
不自知	-11.4177
普觀	-11.4178
造惡	-11.4179
五教	-11.4185
心想	-11.4188
毒害	-11.419
印定	-11.419
從佛聞	-11.4191
趣入	-11.4191
悟淨圓覺	-11.4193
是金光明	-11.4195
遷流	-11.4196
所不能及	-11.4202
曰眾祐	-11.4206
諸國	-11.4206
上二句	-11.4209
方知	-11.4209
種諸善根	-11.421
漸頓	-11.4211
發趣	-11.4214
地獄苦	-11.4215
樂受	-11.4215
有一人	-11.4216
經宗	-11.4218
溪	-11.4218
諾	-11.422
資粮	-11.422
梯	-11.422
嗟	-11.4221
隨從	-11.4221
大藏	-11.4222
壅	-11.4222
忽然不現	-11.4223
如來藏心	-11.4226
歟	-11.4226
勝菩	-11.4227
蹈	-11.4227
語業	-11.4234
無實體	-11.4236
天耳	-11.4237
甚可愛樂	-11.4238
八邪	-11.4242
行陰	-11.4244
其名曰	-11.4247
清淨無垢	-11.4247
志願	-11.4248
妄認	-11.4249
法喜	-11.4249
各具	-11.4251
無上正真道	-11.4252
異類	-11.4256
第四禪	-11.4259
承佛	-11.4261
染汙	-11.4262
貪求	-11.4263
順行	-11.4265
通序	-11.4266
三無性	-11.4267
有人言	-11.4269
終歸	-11.4269
稱理	-11.427
何謂為四	-11.4271
相傳	-11.4271
能引	-11.4277
所餘	-11.428
雜寶	-11.4281
風雨	-11.4282
三昧力	-11.4283
生愛樂	-11.4283
盛滿	-11.4284
無作相	-11.4287
▁南无持	-11.4288
集眾	-11.4289
頭上	-11.4297
法華經云	-11.4299
迭相	-11.4306
此章	-11.4306
猴	-11.4307
天衣	-11.4307
白色	-11.4308
如蓮華	-11.4308
巴	-11.4309
所作已辦	-11.431
闡	-11.4311
爾時世尊重說偈言	-11.4311
畔	-11.4311
惓	-11.4312
何別	-11.4312
不雜	-11.4312
疾疫	-11.4313
若不異者	-11.4314
祕藏	-11.4315
章安	-11.4316
藥草	-11.4316
利人	-11.4318
斤	-11.4318
但聞	-11.432
靜觀	-11.4321
厭惡	-11.4321
如來出世	-11.4323
邪因	-11.4323
舊經	-11.4323
教主	-11.4327
助成	-11.4329
施食	-11.4329
開顯	-11.4331
脩行者	-11.4332
智者所	-11.4334
今乃	-11.4335
活命	-11.4335
於生死中	-11.4336
盲人	-11.4337
居家	-11.4337
所生之處	-11.4338
梵天王	-11.434
宮室	-11.4341
寶勝	-11.4344
幾時	-11.4351
服藥	-11.4352
寧可	-11.4354
彼人如是	-11.4358
幻心	-11.4359
息滅	-11.4359
無量壽	-11.4362
隨其所應	-11.4363
離心意意識	-11.4364
普令	-11.4364
修禪	-11.4367
淨德	-11.4371
入理	-11.4373
大河	-11.4375
入正位	-11.4385
勤求	-11.4386
入五法	-11.4386
種種句味	-11.4392
來生其國	-11.4393
▁南无寂	-11.4394
藥師琉璃光如來	-11.4394
以神通力	-11.4394
調柔	-11.4395
青寶	-11.4395
圓覺妙心	-11.4396
憍陳如	-11.4397
法律	-11.4397
旃檀	-11.4397
縮	-11.4397
却住一面	-11.44
扣	-11.44
大利益	-11.4401
爐	-11.4402
瘦	-11.4404
假使有人	-11.4405
專精	-11.4405
咽喉	-11.4406
次一頌	-11.4407
常寂光土	-11.4408
疆	-11.441
實叉	-11.4411
有非有	-11.4412
自娛	-11.4412
無我所	-11.4412
隨俗	-11.4412
思益梵天	-11.4413
宛轉	-11.4413
成就佛南無	-11.4415
以善業故	-11.4416
祕密藏	-11.4419
問何故	-11.4419
眾華	-11.4419
當遠離	-11.4422
阿闍世王	-11.4424
所列	-11.4424
復有二種	-11.4426
四正勤	-11.4428
二引證	-11.4428
所行處	-11.4428
何等是	-11.4431
豐樂	-11.4441
壽終	-11.4443
▁初正釋	-11.4443
萬八千	-11.4448
勤行	-11.445
敘述	-11.4452
不能了知	-11.4453
大德舍利弗	-11.4456
是謂菩薩	-11.4459
魔外	-11.4459
所犯	-11.4463
假合	-11.4465
大丈夫	-11.4466
欲往	-11.4467
未度	-11.4468
寂寞	-11.4471
聲聞弟子	-11.4472
喇	-11.4472
行放逸	-11.4475
重頌	-11.4476
三日	-11.4478
粟	-11.4485
喧	-11.4485
躍	-11.4486
旁	-11.4487
福行	-11.4488
金翅鳥	-11.4488
飢饉	-11.4488
肺	-11.4489
貴賤	-11.4489
牛羊	-11.4489
恬	-11.449
筌	-11.449
功德智慧	-11.449
剝	-11.449
邪師	-11.4491
㝡	-11.4492
慇	-11.4493
本住法	-11.4494
伽他	-11.4498
我等四王	-11.4501
山谷	-11.4502
敬田	-11.4502
愍傷	-11.4506
速證	-11.4507
闇冥	-11.4507
流支云	-11.4507
紹隆	-11.4509
既巳	-11.4509
六百	-11.4513
二初分文	-11.4514
紫金	-11.4515
火焰	-11.4515
上味	-11.4516
靜處	-11.4517
漸生	-11.452
祐	-11.4529
少病	-11.4535
入如來地	-11.4536
鮮白	-11.4537
伽耶	-11.4538
下第三	-11.4538
作利益	-11.454
增勝	-11.4541
化城	-11.4547
皆爾	-11.4548
奈何	-11.4554
維摩經	-11.4555
不存	-11.4562
無明住地	-11.4564
須陀洹果	-11.4566
科攝屬	-11.4573
依於一異俱不俱有無非有非無常無常	-11.4575
陷	-11.4576
嬉戲	-11.4579
職	-11.4579
瞬	-11.458
羯磨	-11.4581
次句	-11.4581
骨髓	-11.4581
隙	-11.4581
賒	-11.4582
淨眼	-11.4582
發業	-11.4583
坌	-11.4584
殘害	-11.4585
外道亦說	-11.4589
蕉	-11.4589
色究竟天	-11.4591
漸教	-11.4591
何故說	-11.4592
?「	-11.4592
集註云	-11.4595
示現如是	-11.4599
諸經論	-11.46
月輪	-11.4601
熱病	-11.4602
題目	-11.4605
?』「	-11.4606
微塵等	-11.4606
受罪	-11.4609
即空假中	-11.4611
法花	-11.4611
別序	-11.4615
此陀羅尼	-11.4617
戲樂	-11.4618
別惑	-11.462
入一切法	-11.4622
得自覺聖智	-11.4624
分散	-11.4625
香味	-11.4625
山王佛	-11.4632
心得解脫	-11.4637
少時	-11.4641
先修	-11.4642
得其便	-11.4642
無所取	-11.4644
唯識云	-11.4647
諸沙門	-11.4649
平正	-11.4649
未詳	-11.465
只為	-11.4651
次文	-11.4651
長遠	-11.4653
無妨	-11.4654
印可	-11.4655
根力	-11.4656
眾像	-11.4659
那含	-11.4659
一切賢聖	-11.466
丁	-11.466
橋梁	-11.4662
憒	-11.4663
有殊	-11.4663
釋迦文	-11.4665
棃	-11.4665
蚊	-11.4666
猶在	-11.4666
四天王天	-11.4666
目揵連	-11.4667
下別釋	-11.4668
踏	-11.4669
溥首	-11.4669
茫	-11.467
結加趺坐	-11.467
末後	-11.4671
朱	-11.4671
賢善首	-11.4672
精進力	-11.4672
螺髻	-11.4672
討	-11.4673
四十二章	-11.4675
咄	-11.4676
食肉者	-11.4677
障道	-11.4679
阿那	-11.4679
虛假	-11.468
淨法界	-11.468
聞斯	-11.4681
以何義故	-11.4681
元是	-11.4683
一億	-11.4683
時長者子	-11.4684
其志	-11.4685
金色光	-11.4687
斷集	-11.4695
死生	-11.4697
惡事	-11.4701
二乘外道	-11.4703
人之所	-11.4704
如須彌	-11.4705
勝德	-11.4708
虛無	-11.4709
一切皆是	-11.4709
夜摩天王	-11.4709
外道邪見	-11.4711
當作佛	-11.4713
六十四	-11.4713
相所相	-11.4722
重重	-11.4723
不定性	-11.4727
見法無我	-11.4728
但用	-11.4729
無有障礙	-11.473
色蘊	-11.4731
舉手	-11.4731
不久當	-11.4734
授與	-11.4734
時無垢稱	-11.4737
宮中	-11.4738
其父	-11.474
無遺	-11.4742
還成	-11.4746
六度無極	-11.4746
眾祐	-11.4748
迫	-11.4757
勘	-11.4758
多緻他	-11.4759
喉	-11.476
俯	-11.4761
室中	-11.4763
緣而生	-11.4764
承佛威神	-11.4765
漸次生	-11.4766
浮雲	-11.4767
二萬	-11.4768
不及一	-11.477
垂迹	-11.477
毛竪	-11.477
犍	-11.4772
佛知見	-11.4772
一毛	-11.4777
此段	-11.4778
舌相	-11.4783
過咎	-11.4785
達摩	-11.4792
展轉因	-11.4793
四品	-11.4793
輪轉生死	-11.4802
尊長	-11.4802
訟	-11.4809
生人天	-11.4811
大導師	-11.4816
易見	-11.4817
上座	-11.4818
自立	-11.4823
男子女人	-11.4823
億那由他	-11.4826
兩字	-11.4826
色聲	-11.4827
何等為三	-11.4831
同學	-11.4834
螢火	-11.4836
無染著	-11.484
魔羅	-11.4842
勤修習	-11.4842
自覺聖智境界	-11.4843
𢙣	-11.4845
前章	-11.4847
細滑	-11.4847
綸	-11.4848
正徧知	-11.4849
鄭	-11.4854
能造所造	-11.4854
但當	-11.4855
倣	-11.4857
毗舍	-11.4857
錯謬	-11.4858
隱顯	-11.4859
金剛般若	-11.486
機宜	-11.4861
且置	-11.4862
蟻	-11.4862
今更	-11.4862
齊修	-11.4863
處非處	-11.4863
飛鳥	-11.4863
初徵	-11.4864
母字	-11.4865
其音	-11.4866
▁南无阿	-11.4869
我不說	-11.487
優波	-11.4871
四悉檀	-11.4873
七月	-11.4874
後方	-11.4875
度諸眾生	-11.4875
汝何	-11.4876
譬如恒沙	-11.488
即從坐起	-11.488
阿㝹	-11.488
室空	-11.4881
曼陀羅華	-11.4882
到佛所	-11.4885
未除	-11.4885
王三昧	-11.4886
演說法	-11.4886
為誰	-11.4886
勸化	-11.4886
無量億	-11.4887
巳盡	-11.4889
究竟涅槃	-11.4892
可食	-11.4893
外色	-11.4894
令一切眾生	-11.4896
十句	-11.4898
萬人	-11.4899
愛佛南無	-11.4903
不偏	-11.4903
所生處	-11.4904
所請	-11.4904
印度	-11.4908
十歲	-11.4911
此二種	-11.4911
於彼處	-11.4915
色無色	-11.4918
深密經云	-11.4924
說經法	-11.4924
昔有	-11.4927
曼陀羅	-11.4929
慢心	-11.4931
極惡	-11.4933
怛姪他	-11.4939
耕	-11.494
行住坐臥	-11.4943
澁	-11.4944
阿羅訶	-11.4944
有漏無漏	-11.4945
夙	-11.4945
臆	-11.4945
空無相無作	-11.4946
轍	-11.4947
與大比丘眾	-11.4948
憶念我昔	-11.4949
心心數法	-11.4949
未曾聞	-11.495
春秋	-11.4952
無始以來	-11.4952
佛南無甘露	-11.4952
出妙音聲	-11.4953
生酥	-11.4953
毘曇	-11.4955
能感	-11.4955
牛馬	-11.4955
阿鼻地獄	-11.4962
勿生	-11.4963
權方便	-11.4964
由昔	-11.4964
十二部	-11.4965
妄想自性計著	-11.4966
此四句	-11.4969
其有得聞	-11.4969
是故我今	-11.497
須達	-11.4971
注云云者	-11.4975
而退	-11.4975
求善知識	-11.4977
惡報	-11.4977
凡小	-11.4978
閡	-11.498
不消	-11.4983
刀杖	-11.4984
略疏	-11.4984
願令	-11.4985
▁南无花	-11.4989
無患	-11.4991
淨無垢	-11.4992
▁初問	-11.4995
邊地	-11.5002
復告	-11.5005
真淨	-11.5008
跋陀	-11.5011
無瞋	-11.5013
必由	-11.5016
有世界名曰	-11.5019
發無上正真道意	-11.5019
兩重	-11.5019
極重	-11.5022
無色定	-11.5025
習學	-11.5027
諸界	-11.5028
果實	-11.5033
評	-11.5034
菴園	-11.5037
頭面禮足	-11.5038
巳竟	-11.5038
予	-11.504
貢	-11.504
譚	-11.5041
羽	-11.5042
牟	-11.5042
安穩	-11.5043
第三句	-11.5043
建立及誹謗	-11.5043
犢子	-11.5044
獨步	-11.5045
起信論	-11.5046
貪嗔癡	-11.5047
季	-11.5047
斛	-11.5049
臨命終時	-11.5049
桃	-11.5051
羅什	-11.5053
摩訶般若	-11.5055
翫	-11.5056
貧人	-11.5056
▁南无稱	-11.5058
支分	-11.5059
發道意	-11.5061
化主	-11.5066
隨法行	-11.5069
巳去	-11.5071
順理	-11.5071
有二句	-11.5073
相狀	-11.5074
圓成實性	-11.5075
如是等無量	-11.508
入於涅槃	-11.5083
生滅四諦	-11.5101
報曰	-11.5104
雞兜	-11.5104
干	-11.5105
南山	-11.511
於來世	-11.5112
孔子	-11.5116
修三觀	-11.5116
得陀羅尼	-11.512
花池	-11.5123
所從來	-11.5126
無二相	-11.5128
無始來	-11.5132
亦不念	-11.5132
罪報懺悔	-11.5132
前境	-11.5133
自在神通	-11.5133
行乞	-11.5133
摩醯首羅	-11.5133
從本巳來	-11.5134
景	-11.5135
祗	-11.5135
生住異滅	-11.5135
甚為希有	-11.5136
吠	-11.5136
法施之會	-11.5136
天龍八部	-11.5137
說此偈已	-11.5139
梵眾	-11.5139
十二億	-11.5139
姿	-11.5139
好惡	-11.514
外道所計	-11.5141
朋	-11.5142
於未來	-11.5144
工巧	-11.5146
種種變化	-11.5147
十日	-11.5148
四十一	-11.5151
悲哀	-11.5152
萬六千	-11.5153
壽量品	-11.5156
道種智	-11.5159
科云	-11.516
九月	-11.5162
十月	-11.5162
困苦	-11.5166
口出	-11.5168
諸蟲	-11.5171
各各自	-11.5171
火坑	-11.5171
所聞法	-11.5174
俱舍云	-11.5174
第六識	-11.5176
園中	-11.5176
天尊	-11.5178
雙遮	-11.5179
文為二初釋	-11.5181
無殊	-11.5183
反覆	-11.5184
非器	-11.5184
師長	-11.5184
墮地	-11.5188
□□□□□□□□□□□□□□□□	-11.5191
經部	-11.5194
不覺不知	-11.5195
三佛性	-11.521
大梵	-11.5219
其量	-11.5223
圓光	-11.5226
速成	-11.5227
妖	-11.5227
諸賢聖	-11.5228
瓦礫	-11.5231
禱	-11.5231
緊	-11.5232
臣民	-11.5234
具說如彼	-11.5235
纂	-11.5235
罵詈	-11.5235
四大及造色	-11.5235
千世界	-11.5236
師子之座	-11.5236
模	-11.5237
傲	-11.5237
被服	-11.5237
犍闥婆	-11.5241
本宿命時	-11.5242
機關	-11.5243
自觀身	-11.5246
起大悲心	-11.5249
!」「	-11.525
狀如	-11.5252
徵起	-11.5258
身語意	-11.5258
次命	-11.5258
一切智智	-11.5263
色聲香味觸	-11.5264
深達	-11.5267
展轉相因	-11.5267
離染	-11.5281
于時	-11.5282
大象	-11.5286
蓮華池	-11.5286
簡異	-11.5288
第一義心	-11.5288
一時俱	-11.5289
教導	-11.5289
戒取	-11.5289
尊敬	-11.5295
識宿命	-11.5295
廣長	-11.53
不食肉	-11.5309
若如是者	-11.5311
分位	-11.5314
罣礙	-11.5317
演法	-11.5318
旬	-11.532
究竟覺	-11.5324
禽	-11.5324
惡友	-11.5324
昨	-11.5326
萬德	-11.5327
蘊界處	-11.5327
曩	-11.5328
攻	-11.5328
憫	-11.5328
彰其	-11.5329
話	-11.5329
堅濕煖動	-11.533
大喜	-11.5332
半月	-11.5333
剎帝利	-11.5334
寡	-11.5334
即其義也	-11.5334
本性清淨	-11.5336
十善業道	-11.5338
能所取	-11.5338
皆空不可思議	-11.534
憂悲	-11.5342
孰為本	-11.5344
輔行云	-11.5344
供養於佛	-11.5344
五百億	-11.5347
辭句	-11.5348
及諸大眾	-11.5349
度量	-11.5349
藏教	-11.535
形聲	-11.535
影響	-11.5356
吼聲	-11.5357
安詳	-11.5359
歌頌	-11.5361
戒定	-11.5363
讚許	-11.5365
持鉢	-11.5368
入海	-11.5376
諮問	-11.5388
從初地	-11.5391
水界	-11.5396
善神	-11.5396
文可知	-11.54
▁三結	-11.5403
四不可說	-11.5404
如來藏性	-11.5405
如幻如夢	-11.5406
傳法	-11.5409
剎那不住	-11.5411
廓	-11.5416
歡喜地	-11.5419
欲令眾生	-11.5419
牢獄	-11.5422
唯約	-11.5423
刪	-11.5424
煞	-11.5424
奢摩	-11.5424
矜	-11.5425
說法要	-11.5427
怡	-11.5427
相續不相續	-11.5428
更加	-11.5428
拾	-11.5429
▁初分文	-11.543
滅正受	-11.543
瞻視	-11.5433
我亦如是	-11.5434
阿逸多	-11.5436
八地菩薩	-11.544
真如理	-11.5442
能受持	-11.5443
生怖畏	-11.5444
瑜伽云	-11.5445
菩薩摩訶薩具足十法	-11.5446
▁南无不空	-11.5447
諸根不具	-11.5451
一切眾會	-11.5451
普眼章	-11.5454
諸法如幻	-11.5455
麁重	-11.5458
千二百	-11.5461
無上尊	-11.5468
相連	-11.547
火然	-11.5471
初正示	-11.5475
三科	-11.5477
供佛	-11.5477
以為涅槃	-11.5484
離障	-11.5487
乃爾	-11.5492
神仙	-11.5493
不害	-11.5497
四蘊	-11.5501
加護	-11.5501
還本	-11.5502
無去來	-11.5506
香味觸	-11.5512
命盡	-11.5515
▁南无善住	-11.5515
不缺	-11.5517
所說事	-11.5521
䇿	-11.5523
悅意	-11.5523
渧	-11.5523
戴	-11.5523
胃	-11.5525
三聚	-11.5526
候	-11.5527
要須	-11.5528
古云	-11.5528
循環	-11.5528
假入空	-11.5528
由此因緣	-11.5529
邦	-11.553
鹽	-11.553
阿脩羅	-11.553
彼人以是惡業因	-11.5531
鷹	-11.5531
繇	-11.5531
則曾不說	-11.5532
軟首	-11.5534
波羅密	-11.5535
本自不生	-11.5535
外別有	-11.5536
不可思議解脫	-11.5537
十二月	-11.5538
今淨名	-11.5538
百福	-11.554
積佛南無	-11.554
▁初敘	-11.5541
生人中	-11.5542
湯藥	-11.5543
玉女	-11.5545
燈光	-11.5546
說空法	-11.5554
金剛三昧	-11.5559
未曾見	-11.556
海浪	-11.5561
只此	-11.5561
二百五十	-11.5563
決斷	-11.5564
測量	-11.5565
理趣	-11.5568
遊戲神通	-11.5568
釋迦牟尼如來	-11.557
十二支	-11.5574
變化身	-11.5581
隨諸眾生	-11.5582
念力	-11.559
俱致	-11.5599
外道所說	-11.56
上界	-11.5606
懷疑	-11.5607
第四句	-11.5609
行菩薩行	-11.561
非我所	-11.561
出世間法	-11.561
生疑惑	-11.5612
樂器	-11.5618
革	-11.5619
監	-11.562
涕	-11.562
悕	-11.5621
輙	-11.5623
無漏智	-11.5623
就前	-11.5623
戮	-11.5624
非聖賢也	-11.5626
破外道	-11.5626
湧	-11.5627
塊	-11.5632
譬如虛空	-11.5632
黃檗	-11.5634
不可稱計	-11.5635
犬	-11.5636
不能壞	-11.5639
惡夢	-11.5641
單修	-11.5643
防護	-11.5643
不能動	-11.5645
三結成	-11.5646
生老死	-11.565
閻浮提中	-11.565
四十里	-11.5653
覆蔽	-11.5654
貪恚	-11.5654
出過一切	-11.5656
薩婆	-11.5657
昔日	-11.566
未滿	-11.5663
凡外	-11.5663
如說行	-11.5664
佛形像	-11.5665
是則名曰	-11.5665
五穀	-11.5669
持律	-11.5671
真如性	-11.5673
示現種種	-11.5676
我於爾時	-11.5677
金寶	-11.5679
勝如來南無	-11.5679
未滅	-11.5681
恩德	-11.5681
猶尚	-11.5681
心大歡喜	-11.5683
五重	-11.5688
釋迦如來	-11.569
五章	-11.5692
一時佛在	-11.5703
涅槃城	-11.5703
於空中	-11.5704
六衰	-11.5705
惡獸	-11.5707
迴心	-11.5709
專念	-11.5717
攝一切法	-11.572
右繞	-11.5722
透	-11.5723
暮	-11.5724
舜	-11.5724
轉增	-11.5724
諸眾生界	-11.5725
好樂	-11.5725
晚	-11.5726
荅	-11.5727
詠	-11.5727
秉	-11.5727
欠	-11.5728
正法存立	-11.5729
五法三自性	-11.5729
大旨	-11.5729
僻	-11.573
俾	-11.573
侍從	-11.5731
歿	-11.5731
第一義空	-11.5732
毘婆尸佛	-11.5733
膚	-11.5733
閻浮檀金	-11.5734
黑繩	-11.5735
鉤鎖	-11.5736
滑	-11.5737
魄	-11.5737
來詣佛所	-11.5739
普集	-11.5739
諸大菩薩摩訶薩	-11.5743
菩薩若修十種法者	-11.5745
歸依佛	-11.5747
河中	-11.5748
菩薩若修如是十種法者	-11.5748
預流	-11.5752
醫師	-11.5753
是為六種	-11.5755
無量甚深	-11.5758
罪過	-11.576
增廣	-11.5762
次辨	-11.5763
花果	-11.5764
諸佛國	-11.5768
令諸有情	-11.5769
形貌	-11.5771
彼有情	-11.5772
老子	-11.5772
分限	-11.5773
不知自心現量	-11.5776
堅強	-11.5777
千萬億	-11.5778
是為四事	-11.5783
不可譬喻	-11.5784
凡夫外道	-11.5786
不入涅槃	-11.5787
無若干	-11.5787
命問疾	-11.5788
因緣生法	-11.5792
得如幻三昧	-11.5794
之所由	-11.5799
淨不淨	-11.5799
堪受	-11.5811
得是三昧	-11.5815
為眾生說法	-11.5816
往到	-11.5818
所化眾生	-11.582
盡形	-11.5821
總舉	-11.5823
辟	-11.5824
嗣	-11.5824
菩薩摩訶薩復有六種	-11.5826
匠	-11.5827
怛薩阿竭署	-11.5828
鐘	-11.5828
盜賊	-11.5829
已曾	-11.5829
躬	-11.583
所生土地	-11.583
盡未來際	-11.5831
以偈頌曰	-11.5836
癈	-11.5836
枝末	-11.5839
尊特身	-11.5839
天竺三藏	-11.584
誦持	-11.584
正陳	-11.584
說如是言	-11.5843
菩薩成就十種法	-11.5844
經律	-11.5844
將軍	-11.5847
青赤	-11.5847
不知厭足	-11.5848
恐人	-11.5854
非世論	-11.5855
王城	-11.5855
最第一	-11.5857
多饒	-11.5857
何益	-11.5859
侍者曰	-11.5861
為令眾生	-11.5864
唯然世尊	-11.5869
尚不可得	-11.587
五味	-11.587
空理義	-11.5871
最正覺	-11.5879
氣未盡	-11.588
分段生死	-11.588
赴機	-11.5881
先舉	-11.5885
文有三	-11.5894
象王	-11.5895
瞋心	-11.5896
總指	-11.5897
七寶莊嚴	-11.5901
心心法	-11.5901
七千	-11.5901
□□□□□	-11.5908
佛南無金剛	-11.5908
莊子	-11.5912
二行半	-11.5916
菩薩摩訶薩亦復如是	-11.5917
彼以聞慧	-11.5918
申請	-11.5918
假施設	-11.592
俱蘇摩	-11.5924
儻	-11.5927
得天眼	-11.5928
有二種一	-11.5929
當文三句	-11.593
我法二執	-11.593
詣佛所	-11.5931
廣宣流布	-11.5931
匪	-11.5931
怕	-11.5933
万	-11.5934
補註	-11.5934
宇	-11.5935
憂喜	-11.5935
說伽陀曰	-11.5935
涅盤	-11.5936
應理義	-11.5936
開佛知見	-11.5937
不苦不樂	-11.5937
彊	-11.5939
鬪戰	-11.5947
四十八	-11.595
不隨他	-11.5957
聖位	-11.5957
於汝意云何	-11.5965
大疏云	-11.5966
風界	-11.5972
攝屬	-11.5973
超過一切	-11.5974
各有所	-11.5976
前世時	-11.5978
結習	-11.5985
生死海	-11.5985
貪婬	-11.5986
光明王佛	-11.599
二隨釋二	-11.5992
網明言	-11.5995
擇法	-11.5995
轉女身	-11.6007
其疾	-11.6008
捨身命	-11.6014
三段	-11.6016
堅持	-11.6022
初總示	-11.6022
四顛倒	-11.6023
未始	-11.6024
嬰	-11.6025
和會	-11.6026
來到	-11.6027
殞	-11.6029
易解	-11.603
文二初	-11.6031
如恒沙	-11.6033
石女兒	-11.6034
三點	-11.6034
面門	-11.6034
毗耶離	-11.6036
宴	-11.6036
願我來世得菩提時	-11.6037
肢	-11.6038
豪貴	-11.6039
陁羅	-11.604
剖	-11.604
如芭蕉	-11.6041
戟	-11.6042
顏貌	-11.6042
岳	-11.6044
十種三法	-11.6045
佛土淨	-11.6045
反顯	-11.6045
聞思修	-11.6046
七重	-11.6047
大樹緊那羅王	-11.6049
報佛恩	-11.6049
非求法也	-11.6049
妄想無性	-11.6052
無有一法	-11.6053
對辨	-11.6055
水流	-11.6055
順忍	-11.6056
相承	-11.6056
離於有無	-11.6058
▁後科	-11.6058
開演	-11.6059
未爛	-11.6061
愚癡人	-11.6062
曾無	-11.6062
奧	-11.6062
慶喜	-11.6064
支節	-11.6065
譬如大地	-11.6066
暴惡	-11.6067
十方無量	-11.6067
修禪定	-11.6068
初敘	-11.6071
本願功德	-11.6073
是謂菩薩摩訶薩	-11.6082
最為第一	-11.6083
唯識論	-11.6084
自心現境界	-11.6084
輪迴根本	-11.6091
法性土	-11.6091
幻垢	-11.6092
不妄語	-11.6103
珠寶	-11.6109
修禪那	-11.6111
巧便	-11.6112
大慧白佛言世尊	-11.6115
外道妄計	-11.6125
無有量	-11.6126
更無有	-11.6128
慳嫉	-11.6131
謗法	-11.6132
離言說相	-11.6136
當文一句	-11.6137
慤	-11.6138
離憂	-11.614
剃	-11.6141
圭山	-11.6143
大醫王	-11.6143
迭	-11.6146
叡	-11.6146
契理	-11.6147
栖	-11.6149
賞	-11.6149
脾	-11.6151
南無善住	-11.6151
籌量	-11.6152
五百比丘	-11.6152
五分法身	-11.6153
末代	-11.6153
出家學道	-11.6154
後修禪那	-11.6156
室外	-11.6157
不同二乘	-11.616
瞋怒	-11.6161
靈明	-11.6161
牒前	-11.6163
欲求圓覺	-11.6164
尸利	-11.6166
他物	-11.6166
五受陰	-11.6168
五無間業	-11.6171
寶網	-11.6175
入胎	-11.6177
永息	-11.6179
二種神力	-11.619
聞我名	-11.619
說是法	-11.6191
得免	-11.6193
心外無法	-11.6194
十地論	-11.6198
商人	-11.6199
於諸有情	-11.6204
彼圓覺性	-11.6204
不饒益	-11.6207
愁惱	-11.6208
善聽	-11.6213
非別有	-11.6217
被彈	-11.6227
無法不	-11.6227
光普照	-11.6228
星宿王	-11.6229
弟子品	-11.6229
年歲	-11.6235
如實法	-11.6237
人中尊	-11.6244
捶	-11.6244
十無盡句	-11.6245
不顧	-11.6246
無上正等菩提	-11.6246
下結示	-11.6247
棲	-11.6248
其佛光明照	-11.625
歷別	-11.6251
趣寂	-11.6251
亘	-11.6251
不同外道	-11.6251
牢固	-11.6252
葬	-11.6252
入楞伽云	-11.6253
揵闥婆	-11.6254
身壞命終墮於惡處	-11.6254
輝	-11.6255
嘴	-11.6256
譬如明鏡	-11.6257
悉無所有	-11.6257
歡悅	-11.6258
隱蔽	-11.6259
又如來光	-11.626
慰問	-11.626
無所從生	-11.6262
車𤦲	-11.6263
無盡燈	-11.6267
本自無	-11.6272
圓寂	-11.6276
光曜	-11.6278
經歷	-11.6278
三乘同	-11.628
憶持	-11.6281
佛國品	-11.6283
門戶	-11.6283
不住涅槃	-11.6287
約就	-11.6288
譬顯	-11.6289
吾當	-11.6297
愛別離	-11.6302
愚迷	-11.6304
未了	-11.6313
藥王如來	-11.6317
聲聞獨覺	-11.632
第十五	-11.6321
四輩	-11.6328
悲願	-11.6336
河流	-11.6338
真實性	-11.6344
問我言	-11.6347
第十三	-11.6349
旛	-11.635
四意止	-11.635
外計	-11.6354
勳	-11.6354
s	-11.6356
帖	-11.6357
餘習	-11.6357
釆	-11.6358
技	-11.6358
奕	-11.636
種種幻化	-11.6361
為他人說	-11.6362
鑊	-11.6363
懸談	-11.6365
皮肉	-11.6365
都盡	-11.6366
並皆	-11.6366
毀呰	-11.6366
神通自在	-11.6369
菩薩成就此十種法	-11.637
妓樂	-11.6371
歌舞戲笑	-11.6372
貧富	-11.6373
盖佛	-11.6378
花香	-11.6379
調適	-11.6381
皆發無上正真道意	-11.6382
須陀	-11.6385
先須	-11.6387
最妙	-11.6388
雙亡	-11.639
尊勝	-11.639
禮佛足	-11.639
八種識	-11.6402
故稱為	-11.6406
前五識	-11.6408
住家者	-11.6409
教所明	-11.6412
旨趣	-11.6418
總示	-11.6422
出沒	-11.6432
何等為五	-11.6433
悟理	-11.6434
異學	-11.6438
入滅定	-11.6441
不謗	-11.6447
不忘失	-11.6451
十二緣起	-11.6452
當勤修學	-11.6456
楔	-11.6457
然後乃消	-11.6458
造一切罪	-11.6459
賈	-11.6461
社	-11.6461
乃至微塵	-11.6463
王阿闍世	-11.6463
沾	-11.6464
􂛱	-11.6464
佛在世時人壽	-11.6466
皆得道證	-11.6467
眼耳鼻舌身	-11.6468
鹿苑	-11.6468
若惡業盡	-11.6468
漸次增進	-11.6468
計着	-11.6469
且舉	-11.647
伴侶	-11.6471
無常苦空無我	-11.6471
不得解脫	-11.6471
如車輪	-11.6472
幢如來南無	-11.6472
廣說如彼	-11.6472
大光明藏	-11.6473
具此十事是名菩薩	-11.6473
五樂音聲	-11.6474
伎術	-11.6474
疲極	-11.6474
拘翼	-11.6477
能熏	-11.6479
有大力	-11.6481
散滅	-11.6484
塔廟	-11.6486
雙遊	-11.6491
年少	-11.65
於欲界	-11.65
并餘	-11.65
閑居	-11.6502
侍衛	-11.6511
如來之藏	-11.6513
聖智三相	-11.6514
身口意業	-11.6515
此之三	-11.6515
初一頌	-11.6526
阿闍世	-11.653
歸敬	-11.6532
敬愛	-11.6533
不可往	-11.6535
以佛神力	-11.6535
甘露味	-11.6544
大人相	-11.6545
畢定	-11.6551
▁南无賢	-11.6551
求覓	-11.6551
父子	-11.6556
南北	-11.6556
歸趣	-11.656
荊溪	-11.6561
不退轉地	-11.6563
矩	-11.6566
幻境	-11.6566
赴緣	-11.6569
本無所有	-11.6571
方始	-11.6573
兩足	-11.6573
湏	-11.6573
牟修樓陀夜摩天王	-11.6574
跛	-11.6574
神足弟子曰	-11.6575
販	-11.6575
梁攝論	-11.6576
彼地獄處爾乃得脫	-11.6577
浩	-11.6578
於一切時與苦不止	-11.6578
坊	-11.6578
槌	-11.6578
不應立宗	-11.658
藥病	-11.6581
降伏眾魔	-11.6581
七世父母	-11.6582
憎嫉	-11.6586
擾亂	-11.659
嶽	-11.659
隱沒	-11.659
於我法中	-11.6595
得佛道	-11.6596
十方三世	-11.6599
真諦三藏	-11.6603
捨家	-11.6607
除却	-11.6609
互融	-11.6613
坐臥	-11.6615
作佛形像	-11.6618
修奢摩他	-11.6624
宜應	-11.6624
不二門	-11.6628
橫死	-11.663
取土	-11.6642
則不然	-11.6647
日月光明	-11.665
於無量劫	-11.6654
無窮盡	-11.6658
呬	-11.666
上半	-11.6673
誰當	-11.6673
俱泯	-11.6675
國內	-11.6676
範	-11.6683
綵	-11.6683
何罪所致	-11.6684
恱	-11.6685
貧賤	-11.6685
括	-11.6685
無增無減	-11.6686
自受用身	-11.6686
咒	-11.6687
裁	-11.6687
惛	-11.6688
羸瘦	-11.6689
天龍鬼神	-11.6689
往詣佛所	-11.6689
金色童子	-11.669
諸修行者	-11.6692
隨世間習俗而入	-11.6693
欄楯	-11.6694
不可思	-11.6698
消文	-11.6698
糞穢	-11.6699
不思議品	-11.67
用四悉檀	-11.6702
四攝法	-11.6704
大怖畏	-11.6708
薩婆多	-11.6709
火界	-11.6712
疑難	-11.6713
▁初辨	-11.6717
揀擇	-11.6719
於佛道	-11.6723
第七地	-11.6724
爾炎	-11.6724
是我所	-11.6726
永絕	-11.6728
消息	-11.6729
智慧力	-11.6731
本無生滅	-11.6736
調和	-11.6736
燒然	-11.674
誠諦	-11.6747
四恩	-11.6749
果報土	-11.6752
俱舍論	-11.6758
趣菩提	-11.6758
縛脫	-11.6761
以為實	-11.6768
能變	-11.6772
之所能知	-11.6773
彌留佛南無	-11.678
金剛藏菩薩	-11.6789
艾	-11.679
謨	-11.6793
枳	-11.6795
四威儀中	-11.6796
槩	-11.6796
占察	-11.6796
捨一切善根	-11.6796
慎莫	-11.6797
根身器界	-11.6798
慼	-11.6798
齎	-11.6799
馳騁	-11.6799
有生有滅	-11.6799
黑暗	-11.6802
四衢	-11.6802
一會說經	-11.6802
故彼論云	-11.6802
蹔	-11.6803
光影	-11.6804
阿陀那	-11.6804
少欲知足	-11.6805
柰	-11.6805
而取佛土	-11.6805
增上慢人	-11.6805
得羅漢	-11.6805
渚	-11.6807
爾時大慧菩薩白佛言	-11.6808
十號具足	-11.6809
三十心	-11.6809
現法樂住	-11.681
無為緣集	-11.6811
護戒	-11.6812
涯	-11.6818
復有四事	-11.6818
空不空	-11.682
大王當知	-11.6822
慈室	-11.6822
骨肉	-11.6822
那律	-11.6823
含容	-11.6825
肇云	-11.6826
何等人	-11.683
如世尊所說	-11.6831
勇猛精進	-11.6832
在纏	-11.6834
現在諸佛	-11.6839
炎佛南無	-11.6856
半滿	-11.6859
所未聞	-11.6861
依他起性	-11.6867
得聞如是	-11.6867
祖曰	-11.6869
億萬	-11.6875
乃至廣說	-11.6877
命終時	-11.6877
品第十	-11.6888
本願力	-11.6889
所游	-11.6891
手菩	-11.6899
不滯	-11.6901
正宗分	-11.6901
秘	-11.6902
莫不皆	-11.6904
引例	-11.6905
持五戒	-11.6906
煥	-11.6909
焰如來南無	-11.6911
級	-11.6911
托	-11.6911
鎻	-11.6911
掠	-11.6911
彌勒菩薩言	-11.6912
目犍連	-11.6912
宣暢	-11.6912
劉	-11.6912
訪	-11.6913
剌	-11.6913
駛	-11.6914
肇師	-11.6915
覲	-11.6916
署	-11.6918
諛諂	-11.6918
羼提波羅蜜	-11.6918
垣	-11.6919
飽滿	-11.692
二別明	-11.692
豁然	-11.6922
金華	-11.6922
永除	-11.6923
質礙	-11.6928
萬善	-11.6932
共諸天女	-11.6935
婬女	-11.6939
優婆	-11.6943
念念相續	-11.6947
鬼王	-11.6948
八萬四千諸	-11.695
得授記	-11.6952
噉食	-11.6952
現法樂	-11.6961
舌根	-11.697
根熟	-11.697
即說偈言	-11.6972
勝鬘經	-11.6973
善丈夫	-11.6978
聲王佛南無	-11.6985
呪願	-11.6986
不測	-11.6988
舍那	-11.6993
賢善	-11.6998
娛	-11.6999
去來現在	-11.7013
以為實有	-11.7014
賀	-11.7019
以淨覺心	-11.702
新本	-11.7021
悶	-11.7022
斡	-11.7023
踞	-11.7024
鑿	-11.7025
得不起法忍	-11.7025
㝵	-11.7026
肆	-11.7026
嗚呼	-11.7026
暑	-11.7029
淡	-11.7029
衡	-11.7029
敏	-11.7031
諦聽諦聽善思念之	-11.7031
奉辭不堪	-11.7032
沓	-11.7032
暉	-11.7033
尚爾	-11.7034
申日	-11.7035
作何等業	-11.7038
和悅	-11.7038
十善道	-11.704
尊重讚歎	-11.704
無量壽佛	-11.7041
測度	-11.7042
魔宮	-11.7044
無別體	-11.7047
彈指	-11.7048
衣鉢	-11.7056
仁和	-11.7063
入滅盡定	-11.7067
暫時	-11.7067
法之供養	-11.7072
啟請	-11.7074
歌音	-11.7083
例餘	-11.7086
作惡業	-11.7088
墮三惡道	-11.7089
現在世	-11.7089
龍神	-11.7089
悶絕	-11.7091
分為四	-11.7091
髻菩	-11.7091
融攝	-11.7096
注曰	-11.7097
此二法	-11.7101
夢中見	-11.7103
無取捨	-11.7105
從座起	-11.711
自恃	-11.7111
不相離	-11.7117
阿羅	-11.7119
層	-11.7135
騎	-11.7137
鶖子	-11.7139
鐵輪	-11.7139
此是第二	-11.714
非我所說	-11.7141
後修三摩鉢提	-11.7142
馬鳴	-11.7143
隷	-11.7143
何曾	-11.7143
秤	-11.7143
吉凶	-11.7144
〕-【	-11.7144
貶	-11.7146
異口同音	-11.7147
過去未來	-11.7147
無礙辯	-11.7147
大方廣圓覺	-11.7147
蠅	-11.715
闥	-11.715
奇哉	-11.7152
聞說是	-11.7152
所謂苦者	-11.7153
是如來異名	-11.7157
科文	-11.7165
成實論	-11.7167
庫藏	-11.7168
利刀	-11.7168
適悅	-11.7171
顛倒想	-11.7172
迦葉佛時	-11.7181
眾蜂	-11.7184
悲號	-11.7184
為如來種	-11.7186
那伽	-11.7187
生人間	-11.7194
十卷	-11.7194
悉不可得	-11.72
大自在天	-11.7202
以為眷屬	-11.7223
分布	-11.7228
▁南无離垢	-11.723
凡情	-11.7235
道士	-11.7238
德鎧	-11.7238
四枯	-11.7239
心外無	-11.7239
勃	-11.7241
願為我說	-11.7246
秪是	-11.7251
十二種	-11.7252
種種幻相	-11.7254
蝕	-11.7254
初發心住	-11.7256
晨	-11.7257
我不堪任詣彼問疾	-11.7259
燕	-11.7259
秀	-11.726
心自念言	-11.726
清信士	-11.726
如別卷	-11.726
蹄	-11.726
我時報言	-11.7261
雙照二諦	-11.7261
有如是過	-11.7262
領納	-11.7264
意在此也	-11.7264
濡	-11.7264
持業釋	-11.7264
薦	-11.7265
身壞命終生於善道	-11.7265
刀兵	-11.7265
殑伽沙	-11.7266
憂悲苦惱	-11.7267
享	-11.7267
牆	-11.7267
二隨文釋義	-11.7268
甘美	-11.7268
雞羅句	-11.7268
掉舉	-11.7271
勞慮	-11.7271
二乘之人	-11.7272
醎	-11.7273
唯是自心	-11.7275
龍象	-11.7276
後修奢摩他	-11.7279
悅豫	-11.7279
念念不住	-11.7281
同居土	-11.7281
一切法無我	-11.7282
善惡業報	-11.7283
若修行菩薩	-11.7284
文勢	-11.7284
日月星宿	-11.7286
躁動	-11.7286
以此因緣	-11.7288
迭共	-11.729
得為人	-11.7292
教誡	-11.7293
如是等種種	-11.7298
驚畏	-11.73
表發	-11.7309
眾圍繞	-11.7314
含藏	-11.7318
妄計性	-11.732
連合	-11.7329
少惱	-11.7332
有餘涅槃	-11.7334
覆障	-11.7336
不惜	-11.7339
貧苦	-11.7341
根鈍	-11.7342
網明菩薩	-11.7343
文別有	-11.7343
着	-11.7344
真際	-11.7347
无	-11.7359
處胎	-11.7363
喝	-11.7367
輔行	-11.7368
㮈	-11.7368
豁	-11.7373
叢	-11.7376
踰繕那	-11.7377
設供	-11.7377
牧	-11.7377
何以知之	-11.738
絃	-11.738
啼泣	-11.738
如來名者	-11.7381
弊惡	-11.7383
不一不異	-11.7383
未達	-11.7383
乾闥婆等	-11.7384
瓔	-11.7386
智輪童子	-11.7386
一真法界	-11.7387
光明遍照	-11.7387
孤獨	-11.7387
七匝	-11.7388
棺	-11.7389
舉足	-11.739
親族	-11.7392
錫	-11.7392
散花	-11.7392
暹	-11.7392
若不調順	-11.7394
饒益有情	-11.7394
昭然	-11.74
八地巳上	-11.7402
無作四諦	-11.7402
未足	-11.7406
如我所說	-11.741
翳目	-11.741
雲雨	-11.7411
不知足	-11.7413
三總結	-11.7417
損益	-11.7417
修觀行	-11.7428
不怯弱	-11.7431
稽首禮	-11.7432
根源	-11.7433
觀眾生品	-11.7442
治國	-11.7457
福利	-11.7457
言詞	-11.7458
燃燈	-11.7463
滅受想	-11.7471
閻	-11.7472
妓	-11.7482
緊那羅王	-11.7489
至七地	-11.749
驗知	-11.7493
廂	-11.7494
零	-11.7497
兮	-11.7498
寂而常照	-11.7499
權實二智	-11.7499
悴	-11.75
農	-11.75
地次第相續	-11.7501
胞胎	-11.7501
瞿陀尼	-11.7503
剩	-11.7504
別列	-11.7505
薗	-11.7505
莫測	-11.7505
不休息	-11.7506
復說偈言	-11.751
尊卑	-11.751
雞兜佛南無	-11.7517
傷害	-11.7518
熏修	-11.7524
諸鬼神	-11.7524
痰	-11.7525
聚會	-11.7533
諸惡趣	-11.7536
下次明	-11.7541
如夢幻	-11.7542
淨居天	-11.7542
治世	-11.7555
遣使	-11.7557
子孫	-11.7561
喚作	-11.7564
幾何	-11.7565
能解了	-11.7574
答前問	-11.7576
阿含經	-11.7577
云何是菩薩	-11.7578
中又二	-11.7581
黃色	-11.7603
陰界	-11.7608
中疏二一	-11.7609
短命	-11.7613
合部	-11.7615
劑	-11.7617
階級	-11.7617
煎	-11.7618
鶴	-11.7618
郎	-11.7619
愆	-11.762
寐	-11.7622
阿梨耶識	-11.7623
非因非果	-11.7623
號哭	-11.7624
在在處處	-11.7624
孩	-11.7625
矯	-11.7625
擯	-11.7628
甄	-11.7629
徧滿法界	-11.7631
多陀阿伽度	-11.7632
衣服飲食	-11.7633
弗婆提	-11.7634
如應說法	-11.7635
離二邊	-11.764
離一切相	-11.764
但有名字	-11.7641
約四教	-11.7642
心所念	-11.7643
是則為寶	-11.7644
損壞	-11.7654
橫計	-11.7657
種族	-11.7657
兩品	-11.7659
流泉	-11.766
牛頭	-11.7662
善調	-11.7663
諸愚夫	-11.7664
應當遠離	-11.7671
色無色界	-11.7674
決疑	-11.7675
樓至	-11.7681
有二意一	-11.7684
乞求	-11.7687
已復生	-11.7693
致敬	-11.7694
徧照	-11.7694
結歎	-11.7697
攝受正法	-11.7697
四榮	-11.7699
鬼趣	-11.7703
威勢	-11.7705
風火	-11.7709
無間斷	-11.7714
冥諦	-11.7717
無涯	-11.7729
尚未	-11.773
諸人等	-11.7738
薜	-11.774
從坐而起	-11.774
眷	-11.7741
劒	-11.7742
迦陵頻伽	-11.7742
戚	-11.7743
萌	-11.7743
激	-11.7743
鍾	-11.7744
搆	-11.7744
殆	-11.7744
煩𢙉	-11.7745
愜	-11.7746
作是語巳	-11.7746
霑	-11.7746
迭互	-11.7747
貪嫉	-11.7747
脊	-11.7748
蔑	-11.7748
呈	-11.7748
棒	-11.775
殷重	-11.7752
正助	-11.7752
善語義	-11.7756
訶責	-11.7756
窮源	-11.7756
灼	-11.7756
百千億那由他	-11.7757
篤信	-11.7758
回向	-11.7761
唯是一心	-11.7765
親近供養	-11.7767
初長行	-11.7776
告之曰	-11.7784
入其中	-11.779
念佛三昧	-11.779
往返	-11.7792
七覺支	-11.7796
資助	-11.7797
大慧復白佛言	-11.7805
空假中	-11.7816
水泡	-11.7817
樹枝	-11.7819
衛護	-11.7834
手捉	-11.7844
眾寶莊嚴	-11.7848
生地獄中	-11.7849
爾時大慧菩薩復白佛言	-11.7851
太虗	-11.7855
疫	-11.7855
迅	-11.786
海龍王	-11.7861
令彼眾生	-11.7862
抵	-11.7863
輿	-11.7865
喫	-11.7866
久習	-11.7868
退屈	-11.7868
班	-11.7869
散佛上	-11.7869
巡	-11.7869
灌其頂	-11.7869
拘那含牟尼	-11.7869
晨朝	-11.787
華池	-11.7871
饍	-11.7872
四部眾	-11.7872
泊	-11.7872
以偈答曰	-11.7874
酸	-11.7874
雜集論	-11.7875
願樂欲聞	-11.7878
庠	-11.7879
族姓女	-11.788
良藥	-11.7881
一念頃	-11.7881
鬚髮	-11.7882
自致正覺度脫一切	-11.7884
鳥獸	-11.7885
在何處	-11.7886
離生住滅見	-11.7886
盈滿	-11.7886
叫喚	-11.7887
嗔恚	-11.7888
非真非有	-11.789
自心所見	-11.7897
本無自性	-11.7899
思慮	-11.7901
癡惑	-11.7903
諸天人民	-11.7903
覺自心現	-11.7905
歲數	-11.7906
諸有情類	-11.7907
本自無生	-11.7912
藥樹	-11.7914
前三教	-11.7934
豈況	-11.7943
寶髻	-11.7948
無量百千萬億	-11.7969
庫	-11.7971
飢餓	-11.7978
他受用身	-11.798
而為莊嚴	-11.7981
逼切	-11.7982
光王佛	-11.7983
婢	-11.7983
違逆	-11.7984
鳳	-11.7989
空無相無願	-11.7989
有其三	-11.7991
池水	-11.7992
真天眼	-11.7993
長跪叉手而白佛言	-11.7994
六種震動	-11.7995
敕	-11.7995
藐	-11.7997
如向所說	-11.7998
諱	-11.7999
陽𦦨	-11.8003
斷常二見	-11.8004
惒	-11.8005
族姓	-11.8005
齊限	-11.8006
不出不入	-11.8007
腎	-11.8007
大名稱	-11.8011
不可稱量	-11.8013
初敘意	-11.802
度脫一切	-11.8022
主伴	-11.8025
化樂天	-11.8029
十一種	-11.8033
無明為因	-11.8041
分部	-11.8041
作此說	-11.8043
乃至老死	-11.8047
許可	-11.805
真偽	-11.806
我今當說	-11.8064
我今為汝	-11.8067
總歎	-11.8069
是為四種	-11.8073
黑白	-11.8073
猶存	-11.8075
富饒	-11.8076
賢者阿難	-11.8078
一異俱不俱有無非有非無常無常	-11.8079
又舍利子	-11.808
作師子吼	-11.8092
有佛號	-11.8096
擁	-11.8096
間雜	-11.81
玄文	-11.8101
月氏	-11.8106
春時	-11.8106
郭	-11.8121
吟	-11.8121
挽	-11.8123
倉	-11.8124
罽賓	-11.8124
肌	-11.8125
妹	-11.8125
匱	-11.8125
隨意所	-11.8127
名句形身	-11.8127
依倚	-11.8128
稚	-11.8128
自相同相	-11.8128
諸漏已盡	-11.8128
城郭	-11.8129
稍稍	-11.8129
右遶三匝	-11.813
百丈	-11.813
髀	-11.813
共相娛樂	-11.813
菩薩復有十法名	-11.8133
馳散	-11.8133
不可說不可說	-11.8134
事事無礙	-11.8134
月光童子	-11.8134
以惡業故	-11.8134
千輻	-11.8135
錯亂	-11.8136
純熟	-11.8138
尸波羅蜜	-11.8138
國邑	-11.8138
九十六種	-11.8139
調不調	-11.8139
悲田	-11.8142
猶如空華	-11.8146
起信論云	-11.8154
生死即涅槃	-11.8154
盡不盡	-11.8155
憎惡	-11.8158
有何差別	-11.8159
□□□□□□□	-11.8166
稱之為	-11.817
五百由旬	-11.817
稱譽	-11.8175
依他性	-11.8176
又彼比丘	-11.8184
賢劫中	-11.8186
六麤	-11.8187
縱使	-11.819
各各差別	-11.8194
月十五日	-11.821
善根力	-11.8215
患厭	-11.8218
展轉相生	-11.8219
憙樂	-11.8223
能招	-11.8224
有佛名曰	-11.8234
第十六	-11.824
雜穢	-11.8247
縣官	-11.8248
十方佛土	-11.8249
舊解	-11.8251
埋	-11.8251
錢財	-11.8253
普現色身	-11.8253
允	-11.8254
溈	-11.8254
危厄	-11.8255
躄	-11.8256
膽	-11.8256
伎兒	-11.8257
上首智慧弟子曰	-11.8257
挾	-11.8258
上二界	-11.8259
<	-11.8259
i	-11.8259
m	-11.826
g	-11.826
閙	-11.8261
俱不俱	-11.8263
唱喚	-11.8263
墮餓鬼	-11.8264
五性差別	-11.8265
伊字	-11.8267
僧佉	-11.8268
不可具說	-11.8273
得往生	-11.8278
無疑惑	-11.828
無緣慈	-11.8281
被燒	-11.8281
爾時大慧菩薩復白佛言世尊	-11.8284
神通變化	-11.8287
緣生無性	-11.8291
汝今當知	-11.8292
旋轉	-11.8293
恒河沙數	-11.8293
唯識論云	-11.8297
爾許	-11.8298
制伏	-11.8302
諸有為法	-11.8306
與諸天女	-11.8309
喜王菩薩	-11.8309
往古	-11.8312
吉祥菩	-11.8315
六祖	-11.8317
我及諸菩薩	-11.8317
所有福德	-11.8325
光明威德	-11.8328
莊嚴佛土	-11.8334
威如來南無	-11.8339
心心所法	-11.834
咸共	-11.835
說如是法	-11.836
阿僧祇界	-11.837
根塵識	-11.8374
在大眾中即從座起	-11.8381
稽	-11.8383
同於兔角	-11.8384
盂	-11.8385
時維摩詰來謂我言	-11.8386
咨	-11.8386
懊惱	-11.8386
乙	-11.8386
單複	-11.8387
修圓覺者	-11.8387
踈	-11.8388
鉢頭摩	-11.8389
埵	-11.8389
幹	-11.8391
鼈	-11.8391
愚夫所行禪	-11.8393
是彼地獄第	-11.8393
脩多羅	-11.8394
蔓	-11.8395
拂迹	-11.8395
是彼惡業餘殘果報	-11.8396
生希有心	-11.8396
潤澤	-11.8396
簡擇	-11.8397
十千天子	-11.8397
如師子王	-11.8398
託疾	-11.8399
貪嗔	-11.8399
下隨文釋義	-11.8401
豐足	-11.8402
無能勝	-11.8403
是為宴坐	-11.8405
有二義一	-11.8406
歸命懺悔	-11.8407
十方一切世界	-11.8407
宣布	-11.8407
目之為	-11.8412
天子天女	-11.8417
妙高山	-11.842
愚冥	-11.8423
精神	-11.8427
七十五	-11.8435
有多種	-11.8441
大千世界	-11.8457
戒律	-11.846
攝大乘論	-11.8461
火宅	-11.8464
牒釋	-11.8475
上生經	-11.8476
具四德	-11.848
退散	-11.8482
十迴向	-11.8488
古師	-11.8491
南無彌留	-11.8502
終頓	-11.8504
誥	-11.8505
眾圍遶	-11.8508
𡰱	-11.8515
蒲	-11.8516
蒼	-11.8517
藥師瑠璃光如來	-11.8518
編	-11.852
隨智慧行	-11.8521
觀察義禪	-11.8521
泥團微塵	-11.8521
遏	-11.8523
龜毛	-11.8523
毘盧遮那	-11.8524
暫停	-11.8524
惰	-11.8525
遇善知識	-11.8526
我說為心量	-11.8526
憂慼	-11.8527
祭祀	-11.8527
乃至惡業未	-11.8527
皇帝	-11.8528
峻	-11.853
清淨慧菩薩	-11.853
陀隣尼	-11.853
不可限量	-11.8533
摩睺	-11.8533
六十億	-11.8534
麁細	-11.8534
橛	-11.8538
長者維摩詰	-11.8538
塔寺	-11.8538
閉目	-11.8539
入佛慧	-11.8548
癡冥	-11.8548
瑠璃光	-11.8548
三匝	-11.855
其數無量	-11.855
□□□□□□	-11.8553
皈依	-11.8555
周易	-11.8555
歡喜信樂	-11.8556
以何為本	-11.8556
紺青	-11.8574
九十六	-11.8579
能摧	-11.8579
相謂言	-11.8585
兩手	-11.8589
脩羅	-11.859
汝等當知	-11.8596
琉璃光	-11.8597
博聞	-11.8598
衣被	-11.8598
觀行成就	-11.8616
機感	-11.8616
尚不見	-11.8619
遍計所執相	-11.862
幻術	-11.8621
星宿劫	-11.8625
匝	-11.8626
卷第七	-11.8629
墳	-11.864
呵責有為	-11.8646
雹	-11.8647
以譬擬法	-11.8648
涕泣	-11.865
風之所殺害	-11.865
凌	-11.8651
石蜜	-11.8654
無始時來	-11.8654
光明普照	-11.8655
腋	-11.8656
繒綵	-11.8658
迅速	-11.8658
態	-11.866
一百二十	-11.8661
庸	-11.8661
若有善男子善女人	-11.8662
歷劫	-11.8663
影略	-11.8663
妙喜世界	-11.8664
九十一劫	-11.8664
乞士	-11.8664
新發意	-11.8665
懈廢	-11.8666
嚴淨佛土	-11.8666
自有眾生樂觀如來	-11.8667
成最正覺	-11.8681
如乾闥婆城	-11.8683
應如是知	-11.8684
是生滅法	-11.869
海印	-11.8701
萬里	-11.8707
普賢章	-11.8709
如文可知	-11.8712
云何奉持	-11.8714
愚惑	-11.8721
山精	-11.8722
來集會	-11.8731
不思議熏	-11.8736
閻浮提內	-11.8737
成無上正真之道	-11.8741
惡星	-11.8751
深奧	-11.8752
梵音聲	-11.8755
嚧	-11.8761
聽是經	-11.8768
菩薩摩訶薩復有四種	-11.8774
頰	-11.8782
仲	-11.8786
提舍	-11.8787
程	-11.8789
維耶離	-11.879
即法作譬	-11.879
松	-11.879
隅	-11.8791
拶	-11.8791
汝及餘菩薩摩訶薩	-11.8792
祠祀	-11.8792
秘藏	-11.8793
動亂	-11.8793
我人眾生壽者	-11.8794
赤銅	-11.8796
炳然	-11.8796
眉間白毫	-11.8797
終而復始	-11.8797
棘	-11.8797
以偈問曰	-11.8798
界內界外	-11.8798
若諸菩薩以變化力	-11.8799
錦	-11.8799
當爾之時	-11.88
啄	-11.8801
波羅提木叉	-11.8801
根原	-11.8806
搖動	-11.8806
阿修羅軍	-11.8819
不定種性	-11.882
聰慧	-11.882
朗然	-11.8821
竹林	-11.8837
不觀色	-11.8839
難思議	-11.8844
獨存	-11.885
彌勒章	-11.8852
輕毀	-11.8855
一百五十	-11.8857
樹提	-11.886
迴施	-11.8868
化儀	-11.887
惡不善法	-11.8891
麁惡	-11.8893
肇公	-11.8898
為欲利益	-11.8898
成唯識論	-11.8899
色聲香味觸法	-11.8901
幾許	-11.8904
囇	-11.891
韋	-11.8911
親承	-11.8914
此等皆	-11.8914
羅閱祇	-11.8924
是即為寶	-11.8924
籌	-11.8924
毗鉢舍那	-11.8925
織	-11.8925
凍	-11.8926
如來自覺地	-11.8929
道非道	-11.8929
誣	-11.893
窺	-11.893
淨飯王	-11.8931
灌頂章句	-11.8931
雀	-11.8931
屏	-11.8935
如昨夢	-11.8935
給孤獨	-11.8936
齧	-11.8936
劬勞	-11.8936
料揀	-11.8939
精血	-11.894
世尊復告	-11.8942
譯如是我聞	-11.8942
菩提薩埵	-11.8943
借座	-11.8944
親里	-11.8947
末尼	-11.8948
一體三寶	-11.8951
兩足尊	-11.8955
前起後	-11.8958
離四病	-11.8959
殊不知	-11.8967
天魔外道	-11.8968
求大乘者	-11.8971
衰損	-11.8972
漏無漏	-11.8974
覆蓋	-11.8974
車乘	-11.8979
天子又問	-11.8981
醜惡	-11.8982
下引證	-11.8991
面目	-11.8996
無說無示	-11.8996
如實觀察	-11.9
但有言說	-11.9002
斯經典	-11.9006
比丘比丘尼	-11.9009
百千萬億那由他	-11.9011
現在未來	-11.9021
從坐起	-11.9043
以之為	-11.905
㝹	-11.9059
姦	-11.9065
此有故彼有	-11.9065
栗	-11.9065
鑄	-11.9067
從因生	-11.9069
因譬莊嚴	-11.9069
不鼓自鳴	-11.9069
忖	-11.907
汝今諦聽當為汝說	-11.907
曼陀	-11.907
板	-11.9071
無明愛業	-11.9071
嚮	-11.9071
刼一切諸佛諸	-11.9072
偃	-11.9072
諧	-11.9072
荷澤	-11.9073
趙	-11.9075
撾	-11.9075
虹	-11.9076
有為緣集	-11.9076
雷震	-11.9077
微玅	-11.9079
懶	-11.9079
完具	-11.908
竅	-11.908
諸天龍神	-11.908
綠	-11.9081
良久	-11.9083
阿羅呵	-11.9083
那術	-11.9084
佛所初發道心	-11.9085
無有窮盡	-11.9085
煩惱即菩提	-11.9086
韋陀	-11.9086
如夢所見	-11.9087
本起因地	-11.9087
當得阿耨多羅三藐三菩提	-11.9089
與其眷屬	-11.9092
善業熟	-11.9094
佛南無栴檀	-11.9095
狂亂	-11.9095
右脇	-11.9098
有無二邊	-11.9106
成唯識云	-11.9141
繫著	-11.9142
外道常不思議	-11.9147
初標示	-11.9148
兩間	-11.9158
華嚴經云	-11.916
迴向菩提	-11.9168
生如是心	-11.9171
冠菩	-11.9188
非彼所	-11.9192
羅大將	-11.9192
摧滅	-11.9193
讚歎品	-11.9198
巾	-11.9203
喘息	-11.9204
澄清	-11.9204
脉	-11.9209
大寂滅海	-11.921
闊	-11.921
亭	-11.921
十二分教	-11.921
褒	-11.9211
若諸菩薩以寂滅力	-11.9212
銜	-11.9213
栽	-11.9214
駝	-11.9216
四輩弟子	-11.9218
延促	-11.9219
王舍大城	-11.9219
恭敬禮拜	-11.9219
即其事也	-11.922
鹹	-11.922
怱	-11.922
換	-11.9221
當於何求	-11.9221
誘進	-11.9221
眾所知識	-11.9221
佛以一音演說法	-11.9222
受天快樂	-11.9222
不即不離	-11.9225
貢上其佛	-11.9226
摸	-11.9226
行於非道	-11.9227
賓主	-11.9229
空無生無二離自性相	-11.923
順正理	-11.9232
施作佛事	-11.9232
親疎	-11.9232
盲冥	-11.9234
第一義悉檀	-11.9241
第六意識	-11.9246
復有四法	-11.9248
次有一行	-11.926
名句文身	-11.9265
佛地論云	-11.9272
聞此語	-11.9272
功德王光明	-11.9281
如法修行	-11.9294
入無餘涅槃	-11.9309
塚	-11.9352
僮僕	-11.9353
缾	-11.9356
稠林	-11.9356
睛	-11.9357
突	-11.9357
鉤鏁	-11.9358
蹤	-11.9358
赦	-11.9359
义	-11.9359
雌	-11.9361
飡	-11.9361
雕	-11.9361
岐	-11.9362
中央	-11.9362
琦	-11.9363
漢書	-11.9363
礫	-11.9364
八相成道	-11.9366
牟修樓陀	-11.9366
下隨釋	-11.9368
發揮	-11.9368
柯	-11.937
樂說辯才	-11.9371
羸劣	-11.9372
不可窮盡	-11.9372
水中月	-11.9373
而興大悲心	-11.9374
不能測	-11.9376
是謂無行	-11.9376
理事無礙	-11.9378
何等為八	-11.9385
所觀境	-11.9391
枝條	-11.9396
破戒比丘	-11.9397
光耀	-11.9397
戲笑	-11.9402
十一品	-11.9406
赤白	-11.9409
徧十方	-11.9415
初總明	-11.9447
初總釋	-11.9453
在彼地獄	-11.9456
大集經	-11.9457
諸天女眾	-11.9472
乾闥婆城	-11.9491
弦	-11.9494
而度脫之	-11.9499
跳	-11.95
蠕動	-11.95
觀一念心	-11.95
傘	-11.9503
七日七夜	-11.9503
那庾多	-11.9504
挺	-11.9505
我及餘菩薩摩訶薩	-11.9505
遽	-11.9505
昌	-11.9506
無壞無雜	-11.9507
聞彼佛名	-11.9509
鮮潔	-11.9509
矛	-11.9509
釘	-11.9509
退坐一面	-11.9509
如意足	-11.951
即空即假即中	-11.9512
唯願為說	-11.9513
富伽羅	-11.9514
剃除鬚髮	-11.9514
貿	-11.9515
譬如幻師	-11.9517
有無等見	-11.9518
風住在身中	-11.952
奢摩他毗鉢舍那	-11.952
銖	-11.9522
身得度者	-11.9522
諮受	-11.9532
師友	-11.9534
軟語	-11.9537
肇公云	-11.9537
苦厄	-11.9543
四如意足	-11.9545
秘密藏	-11.9553
菩薩行品	-11.9554
千倍	-11.9559
琰魔	-11.9561
殷	-11.9586
億千	-11.9611
聞不聞	-11.9612
無上正真	-11.9635
甚深微妙	-11.9635
而起大悲	-11.9636
隻	-11.9649
央掘	-11.965
俟	-11.965
見此事已	-11.9653
爽	-11.9653
東西南北	-11.9654
忿怒	-11.9654
燧	-11.9655
粒	-11.9655
阿素洛	-11.9656
鄣	-11.9657
心行處滅	-11.9657
匹	-11.9657
阻	-11.9657
示教利喜	-11.9658
操	-11.9658
裸	-11.9658
三明六通	-11.9658
勝思惟梵天	-11.9659
得自覺聖智善樂	-11.9659
憚	-11.966
炷	-11.9661
成男子	-11.9661
藤	-11.9662
風所吹	-11.9662
引經證	-11.9663
拭	-11.9663
波羅奈	-11.9664
迴向阿耨多羅三藐三菩提	-11.9664
閉塞	-11.9664
石壁	-11.9665
拍	-11.9666
菩薩有四法	-11.9667
是謂有行	-11.967
沈沒	-11.9677
內心思惟	-11.968
善清淨慧	-11.968
說名為病	-11.968
檀度	-11.9696
思擇	-11.971
受天樂	-11.9712
梁論	-11.9715
微妙經典	-11.9717
障蔽	-11.9729
世俗諦	-11.9744
自在王菩	-11.9765
百千俱胝	-11.979
輕躁	-11.9798
不如飯一	-11.9798
賦	-11.98
髑髏	-11.98
吽	-11.9801
」】「	-11.9802
山河大地	-11.9802
椎	-11.9803
効	-11.9803
摽	-11.9804
五濁惡世	-11.9804
心之所念	-11.9805
如是無量百千年歲	-11.9805
慘	-11.9806
今正是時	-11.9806
得無所從生法忍	-11.9806
撫	-11.9806
涸	-11.9807
鬱	-11.9807
天王牟修樓陀	-11.9808
整衣服	-11.9808
爾雅云	-11.9808
瀑	-11.9809
夾	-11.9809
阿黎耶識	-11.9809
外種種義	-11.9809
措	-11.981
能正了知	-11.981
葱	-11.981
擊鼓	-11.981
村落	-11.9811
徃	-11.9812
如意寶珠	-11.9812
抂	-11.9813
以何業故	-11.9813
莊飾	-11.9815
佛之知覺	-11.9815
空無相願	-11.9815
災橫	-11.9818
賢劫千佛	-11.9819
中道第一義諦	-11.9823
衍門	-11.9827
仁王經	-11.9828
無量劫來	-11.9831
熾火	-11.9845
何等為七	-11.9845
乾城	-11.9848
佛語阿難	-11.9849
火焚	-11.9893
萬由旬	-11.9895
大千界	-11.9939
汝等應當	-11.9946
芬	-11.9952
曳	-11.9952
完	-11.9956
橫豎	-11.9957
傅	-11.9957
彼復問言	-11.9958
䭾	-11.9958
緣自得法	-11.9958
不有不無	-11.9958
唯心識觀	-11.9958
金光明最勝王經	-11.996
鴻	-11.996
詢	-11.9961
壞敗	-11.9961
碧	-11.9961
翹	-11.9962
疲勞	-11.9962
墓	-11.9962
頂戴	-11.9963
非想非非想處	-11.9964
坐於道場	-11.9965
嫁	-11.9965
朔	-11.9965
生餓鬼中	-11.9966
菜	-11.9966
鄔	-11.9966
臻	-11.9966
交徹	-11.9967
毀辱	-11.9967
柳	-11.9968
屋宅	-11.9969
波斯匿王	-11.997
無性攝論	-11.9971
與諸眷屬	-11.9971
祇陀	-11.9972
彈指頃	-11.9972
精勤修習	-11.9972
授阿耨多羅三藐三菩提記	-11.9973
侵奪	-11.9974
尼揵	-11.9974
如其次第	-11.9975
卑賤	-11.9978
自下第四	-11.9982
百萬億	-11.9986
貪惜	-11.9987
如是等無量無邊	-11.9989
▁南无普光	-11.9991
覆其上	-11.9993
乳母	-11.9994
淨土之行	-12.0009
鬼畜	-12.0011
初標章	-12.0014
入不二門	-12.0014
三行半	-12.0018
卷第二十	-12.0039
十八不共	-12.0071
坻	-12.0109
我證彼定得不還果	-12.011
內身證	-12.0111
蝶	-12.0111
晡	-12.0112
刊	-12.0113
穆	-12.0113
科共成	-12.0115
阿練若	-12.0115
燼	-12.0115
搜	-12.0116
讎	-12.0116
期限	-12.0118
第一義聖智大空	-12.0118
屈曲	-12.0118
造諸惡業	-12.0118
佛在世時	-12.0119
舉足下足	-12.0119
午	-12.012
崛	-12.0121
恢	-12.0121
諸說不同	-12.0122
恁麼	-12.0122
百分不及一	-12.0123
今悉懺悔	-12.0124
無始虗偽習氣	-12.0124
誼	-12.0124
聖智自性事	-12.0125
如來於此而起大悲	-12.0125
而來生此	-12.0126
蒸	-12.0126
寶冠	-12.0126
復有劫中	-12.0126
見是事已	-12.0127
低頭	-12.0127
福寧為多不	-12.0128
為何所作	-12.0128
無量甚深法性	-12.0129
如是等罪無量無邊	-12.013
臨濟	-12.0131
善法堂	-12.014
損惱	-12.0142
以明中道	-12.0143
爛壞	-12.0148
廣長舌	-12.015
凝然	-12.015
安隱快樂	-12.0159
靜室	-12.018
香潔	-12.0187
無明業識	-12.0193
夜夢	-12.0208
什麼	-12.0267
衣裳	-12.0271
帀	-12.0273
芻	-12.0274
在別卷	-12.0274
覔	-12.0274
造種種業	-12.0274
起菩薩根	-12.0275
涎	-12.0275
世尊欲重宣此義而說偈言	-12.0276
前後際斷	-12.0277
絡	-12.0277
名先修奢摩他	-12.0278
劈	-12.0278
一百八十	-12.0278
姊妹	-12.0278
毱多	-12.0279
闢	-12.0279
摘	-12.0279
佛在舍衛國祇樹給孤獨園	-12.0279
初長文	-12.028
饌	-12.0281
園苑	-12.0283
復有異處名	-12.0283
名句文	-12.0283
厨	-12.0284
荊棘	-12.0284
胞	-12.0284
八萬四千由旬	-12.0285
陰入界	-12.0285
修行者隨順觀外身	-12.0287
文字性離	-12.0288
跋陀婆羅	-12.0292
百川	-12.0292
羅睺阿修羅王	-12.0292
沃	-12.0296
熏成種	-12.0303
如來藏識藏	-12.0315
□□□□□□□□□	-12.032
肺病	-12.0324
印印	-12.0348
大段第二	-12.0359
真宴坐	-12.036
三種意生身	-12.0373
世親釋	-12.0379
。】【△	-12.0409
姪	-12.0429
弭	-12.0431
論語云	-12.0431
珂	-12.0432
企	-12.0434
誕	-12.0434
如蠶作繭	-12.0435
埿	-12.0435
二挈旨	-12.0436
祝	-12.0437
汝等乃能為諸菩薩及末世眾生	-12.0437
耨	-12.0438
生緣老死	-12.044
詣彼問疾	-12.044
皮膚	-12.0441
介	-12.0442
薩婆多宗	-12.0442
豈異人乎	-12.0443
錠	-12.0444
常與無常	-12.0444
裸形	-12.0445
袒	-12.0445
告大慧菩薩摩訶薩言	-12.0446
阿惟越致	-12.0447
奉獻	-12.0447
七月十五日	-12.0448
金剛藏菩薩摩訶薩	-12.0448
顧戀	-12.0449
癩	-12.0449
生於天上	-12.0456
不來相而來	-12.0457
佛所種諸善根	-12.0459
六欲天	-12.0467
曇摩	-12.0468
恒河沙劫	-12.0474
本性空寂	-12.0491
承事供養	-12.0504
階差	-12.0521
為有為無	-12.0551
鉢飯	-12.058
漸淨非頓	-12.0589
裔	-12.0589
如來淨除一切眾生自心現流	-12.059
坤	-12.0591
梅	-12.0592
眾生心中所念	-12.0592
今即第一	-12.0592
格箋	-12.0596
無常苦空	-12.0597
淨諸業障菩薩	-12.0598
叩	-12.0599
一挈旨	-12.0599
鉢囉	-12.0599
呻	-12.06
自覺之境界	-12.0601
庵	-12.0601
讐	-12.0601
木石	-12.0601
隨順正法觀察法行	-12.0602
攀緣如禪	-12.0603
作麼生	-12.0603
佇聽	-12.0604
住不可思議解脫菩薩	-12.0604
頭面著地	-12.0604
屎尿	-12.0604
晝夜六時	-12.0605
若於前世過去久遠	-12.0605
二述不堪之由	-12.0605
四弘誓願	-12.0607
今謂不然	-12.0607
爰	-12.0608
文為二初正釋	-12.0608
重重無盡	-12.0609
群萌	-12.0609
開示悟入	-12.061
晃耀	-12.0611
運載	-12.0612
根未熟	-12.0612
今則無滅	-12.0612
乃至愛善業盡	-12.0615
廓然	-12.0617
左手	-12.0617
所住之處	-12.0618
今日至誠	-12.0619
深坑	-12.0619
不相捨離	-12.0619
閑靜	-12.062
牛跡	-12.0622
汝等四王	-12.0628
豪富	-12.0631
修諸善	-12.0633
彈訶	-12.0636
百里	-12.0651
五行半	-12.0655
如之何	-12.066
愍哀	-12.0714
篤	-12.0737
嗟歎	-12.0739
樹提伽	-12.0746
無所發菩薩	-12.0753
竇	-12.0758
頻婆娑羅王	-12.0761
奮	-12.0762
絕百非	-12.0762
揣	-12.0763
纖毫	-12.0763
馬頭羅剎	-12.0764
如是三請終而復始	-12.0764
蟒	-12.0765
恕	-12.0766
滅惡生善	-12.0767
如來應正等覺	-12.0767
靣	-12.0768
庫曹官姓	-12.0768
安處徒眾	-12.0768
轉大法輪	-12.077
猫	-12.0771
砂	-12.0771
變怪	-12.0771
療眾病	-12.0771
乳哺	-12.0772
段經文	-12.0772
大目乾連	-12.0773
無取無捨	-12.0773
名先修三摩鉢提	-12.0774
四百四病	-12.0776
次半頌	-12.0777
無始虛偽	-12.0777
號叫	-12.0777
房舍	-12.0778
燿	-12.0778
悔恨	-12.0778
不顯示第一義	-12.0779
生於天中	-12.0781
陶師	-12.0782
穢濁	-12.0783
應如是學	-12.0784
無性釋云	-12.0785
萬端	-12.0786
酒肉	-12.0786
亦不作念	-12.0787
升進	-12.0787
持諷誦念	-12.079
悕求	-12.0793
色香味觸	-12.0804
百穀	-12.0807
善分別自心現	-12.0861
娜	-12.0904
胤	-12.0928
威德自在菩薩	-12.0932
喃	-12.0932
虞	-12.0932
毘毘產	-12.0933
熱時𦦨	-12.0935
飜	-12.0935
誅	-12.0936
甚多甚多	-12.0937
悋惜	-12.0937
哲	-12.0937
緯	-12.0937
筋脈	-12.0938
優曇鉢	-12.0938
稠	-12.0938
六親眷屬	-12.0939
葦	-12.0939
膳	-12.0939
决定	-12.0939
永嘉云	-12.094
行於非道通達佛道	-12.094
却坐一面	-12.094
湖	-12.0941
交絡	-12.0942
轉識成智	-12.0942
稷	-12.0942
洹	-12.0942
蘆	-12.0942
六根六塵	-12.0943
罷	-12.0943
麁獷	-12.0944
叫喚地獄	-12.0946
攝所攝計著	-12.0947
慧命舍利弗	-12.0947
承佛神力	-12.0948
意成身	-12.0949
是為忍辱不可極	-12.095
優陀	-12.095
肉髻	-12.0951
請觀音	-12.0952
怨憎	-12.0955
毀譽	-12.0957
六度萬行	-12.0957
法清淨瓔珞	-12.0959
止此室	-12.0963
福祐	-12.0965
毀傷	-12.0969
如幻如化	-12.097
卷第八	-12.0972
吼聲佛南無	-12.0973
讚佛品	-12.0977
萬五千	-12.0984
厭倦	-12.0984
所歸趣	-12.1011
焰燃	-12.1015
行菩提行	-12.1032
䟦陀	-12.1062
□□□□□□□□□□□□	-12.1097
揮	-12.1097
善思童子	-12.1098
餉	-12.1104
佛時頌曰	-12.1105
自覺覺他	-12.1106
綖	-12.1107
鱗	-12.1108
捧	-12.1108
世間言論	-12.1109
偏袒右肩右膝著地	-12.1109
奉詔譯	-12.111
拯	-12.1111
現眾色像	-12.1111
屢	-12.1111
睫	-12.1111
我人眾生壽命	-12.1112
與七識俱	-12.1112
鴛鴦	-12.1112
佛告觀自在菩薩曰	-12.1112
拘隣	-12.1112
坦然	-12.1112
名先修禪那	-12.1113
清潔	-12.1113
株	-12.1114
滋茂	-12.1114
徧一切處	-12.1114
費	-12.1115
受諸快樂	-12.1115
旃延	-12.1115
揣食	-12.1116
儉	-12.1117
瞻蔔	-12.1119
阿闍梨	-12.1119
父母兄弟	-12.112
遐	-12.1121
棗	-12.1124
幽冥	-12.1126
初地已上	-12.1128
驚懼	-12.1128
楚毒	-12.1129
寶印手	-12.1136
謗毀	-12.1139
分段變易	-12.1164
光遍照	-12.1211
渴乏	-12.1212
阿鼻獄	-12.1221
甚奇	-12.1251
大慧菩薩復白佛言	-12.1272
滌	-12.1277
求哀懺悔	-12.1278
蚖	-12.1278
食此飯者	-12.1279
膠	-12.1281
平坦	-12.1283
離心緣相	-12.1283
起惑造業	-12.1283
栴	-12.1284
時眾得益	-12.1284
以要言之	-12.1284
儼	-12.1285
恪	-12.1285
菴摩羅	-12.1285
螫	-12.1285
武帝	-12.1286
發大乘心	-12.1286
綴	-12.1287
驕	-12.1287
為若此也	-12.1288
阿耨多羅	-12.1288
枷	-12.1288
猿猴	-12.1288
媚	-12.1289
給侍	-12.1289
戈	-12.1289
樂小法者	-12.1289
沐浴	-12.129
二法說入不二法門	-12.129
砧	-12.129
瘂	-12.129
欻	-12.129
西晉	-12.129
恚怒	-12.1292
迦毘羅	-12.1292
沐	-12.1292
曠劫	-12.1292
汲	-12.1293
諂誑	-12.1295
貧乏	-12.1296
貫穿	-12.1296
徙	-12.1297
溉	-12.1298
智不得有無	-12.1301
勝義無自性性	-12.1303
嵐	-12.1304
顧視	-12.1305
諸天及人	-12.1329
河岸	-12.134
近惡友	-12.1351
如來藏自性清淨	-12.1356
觀自在菩薩	-12.1362
獵師	-12.1368
阿耨	-12.1387
□□□□□□□□	-12.1434
初標列	-12.1448
盧伽耶陀	-12.145
台	-12.1454
胝	-12.1455
右繞三帀	-12.1457
莫著言說	-12.1457
作止任滅	-12.146
了了分明	-12.1461
究竟斷彼	-12.1461
緣覺乘無間種性	-12.1462
邁	-12.1462
挫	-12.1462
拄	-12.1462
廣為我等	-12.1463
湊	-12.1463
三十二相八十種好	-12.1463
如優曇鉢華	-12.1463
派	-12.1463
嚙	-12.1464
白佛言世尊我不堪任詣彼問疾	-12.1464
無等倫	-12.1464
漏盡意解	-12.1465
摩伽陀國	-12.1465
割截	-12.1465
笛	-12.1465
芳	-12.1465
匃	-12.1466
伺察	-12.1466
不斷不常	-12.1467
枕	-12.1467
癰	-12.1467
狹劣	-12.1467
陌	-12.1467
膖脹	-12.1468
朋黨	-12.1469
有大威力	-12.1469
次復懺悔	-12.1469
狸	-12.147
旱	-12.147
五百長者子	-12.147
講堂	-12.1471
濃	-12.1473
森羅	-12.1474
多所饒益	-12.1474
各不相知	-12.1474
魏唐二譯	-12.1474
烈	-12.1474
我於今者	-12.1474
軀命	-12.1475
耆域	-12.1476
隨緣不變	-12.1478
鉢呵娑	-12.148
撮略	-12.1483
􂌴	-12.1484
頂髻	-12.1486
歌舞遊戲	-12.1518
文為二初標	-12.1626
謎	-12.1628
調戲	-12.1636
卓	-12.1638
來至我所	-12.1638
思量計常	-12.1641
無慮無察	-12.1642
娶	-12.1642
空病亦空	-12.1643
袪	-12.1643
維摩羅詰經文疏	-12.1643
一切菩薩及末世眾生	-12.1643
号	-12.1645
倡	-12.1645
寔	-12.1646
蠶	-12.1646
財產	-12.1648
婆藪	-12.1648
國王大臣	-12.1648
維摩詰所說經	-12.165
善觀外性非性	-12.165
右遶	-12.165
無來無去	-12.165
心行中求	-12.165
仲尼	-12.1651
是身為譬如	-12.1652
濤	-12.1652
羞恥	-12.1652
展轉無窮	-12.1653
鴦掘	-12.1653
尠	-12.1655
無上正等正覺	-12.1655
墮諸惡趣	-12.1656
發無上道心	-12.1656
沮壞	-12.1658
疫病	-12.1658
嶮岸	-12.166
孝養父母	-12.166
不望報	-12.1663
我作佛時	-12.1666
是妙經典	-12.1682
稽首作禮	-12.1686
閻摩	-12.1698
和雅	-12.1777
羅漢辟支	-12.1781
若能持彼佛名	-12.1791
汝意云何	-12.1797
輭	-12.1811
於大眾中唱如是言	-12.1819
欲重宣此義而說偈言	-12.182
眩	-12.1823
我滅度後	-12.1825
疇	-12.1826
缽	-12.1828
洄	-12.183
到於彼岸	-12.183
彼見聞知或天眼見	-12.183
跟	-12.1831
孕	-12.1831
姑	-12.1831
欠錢	-12.1832
襲	-12.1832
毘奈耶	-12.1832
豹	-12.1833
池沼	-12.1833
茅	-12.1834
沈淪	-12.1834
堯	-12.1834
三摩鉢底	-12.1835
毀訾	-12.1835
應病與藥	-12.1835
摩羅耶山	-12.1835
婉	-12.1836
撲	-12.1836
涕唾	-12.1836
釋梵四天王	-12.1837
舉要言之	-12.1837
良田	-12.1838
鬬	-12.1838
為他廣說	-12.1839
及其眷屬	-12.1839
身壞命終墮於惡道	-12.1839
鬲	-12.184
交露	-12.184
雄猛	-12.1841
不可思議解脫法門	-12.1843
從無始已來至于今日	-12.1843
八萬四千歲	-12.1844
二萬一千	-12.1846
是波羅蜜義	-12.1855
寶性論	-12.1861
作禮而去	-12.1892
解深密經	-12.1898
苾芻尼	-12.1917
一百三十	-12.1993
囚	-12.2007
鄣南	-12.2007
宗鏡云	-12.2013
攘	-12.2013
初進問威儀	-12.2013
肖	-12.2014
月面佛	-12.2015
央	-12.2015
杓	-12.2016
鎔	-12.2017
梵行已立	-12.2018
三賢十聖	-12.2018
呾	-12.2019
印所印	-12.2019
昆	-12.2019
為我等輩	-12.202
汝為人時	-12.202
初中後夜	-12.202
辜	-12.202
羨	-12.202
繕	-12.202
苦集滅道	-12.202
奘	-12.2021
金龍尊	-12.2021
轉妙法輪	-12.2021
從地獄出	-12.2022
慾	-12.2023
街	-12.2023
身受心法	-12.2024
是觀者名為正觀	-12.2024
沒溺	-12.2024
姚	-12.2024
餅	-12.2025
三緣和合	-12.2025
阿毘曇	-12.2026
荊	-12.2027
谷響	-12.2027
乳酪	-12.2027
億弟子集	-12.203
如是三請	-12.2031
不二而二	-12.2032
鉗	-12.2035
善家子	-12.2037
離二種死	-12.2048
四行半	-12.2052
佛種不斷	-12.2085
□□□□□□□□□□	-12.21
鐵鉤	-12.2101
佛告天帝	-12.211
文即有二	-12.2171
衢	-12.2189
稅	-12.2196
糓	-12.2197
食子肉	-12.2199
三觀諸輪	-12.2203
根有利鈍	-12.2205
矚	-12.2205
縈	-12.2206
禳	-12.2207
無方便慧縛	-12.2208
挑	-12.2209
闡揚	-12.221
呌	-12.2211
今受花報	-12.2211
無修無證	-12.2212
▁南无無障㝵	-12.2212
訥	-12.2212
兜術天	-12.2212
訂	-12.2213
何以知然	-12.2213
這裏	-12.2213
鴈	-12.2213
拄杖	-12.2214
揆	-12.2214
三十七道品	-12.2214
從無住本立一切法	-12.2215
彼一切苦此中具受	-12.2215
說文曰	-12.2215
憔悴	-12.2215
圓覺經大疏釋義鈔卷第	-12.2216
非空非有	-12.2216
映蔽	-12.2217
無去無來	-12.2217
四結成不堪	-12.2217
迅疾	-12.2217
淑	-12.2218
膜	-12.2218
助菩提法	-12.2218
宏	-12.2218
未得謂得	-12.2219
曆	-12.2219
澹泊	-12.2219
從本已來	-12.2219
即此意也	-12.222
糞掃衣	-12.222
右掌	-12.222
乾燥	-12.2224
故下經云	-12.2224
時我世尊	-12.2224
行緣識	-12.2225
無始已來	-12.2231
葛藤	-12.2234
解節經	-12.2239
大事因緣	-12.2248
不生亦不滅	-12.227
說微妙法	-12.23
娑羅王佛	-12.2303
無言無說	-12.2325
一百七十	-12.235
南方去此	-12.2371
嵗	-12.2386
作是觀者	-12.2388
閻魔	-12.24
讒	-12.2401
非性非非性	-12.2401
有方便慧解	-12.2401
彗	-12.2403
性自性第一義心	-12.2404
歸命如是等無量無邊	-12.2404
象馬車乘	-12.2404
文殊尸利	-12.2405
饑饉	-12.2405
惛沉	-12.2405
貯	-12.2405
三歸五戒	-12.2405
蛾	-12.2405
大方廣圓覺修多羅了義經	-12.2406
窠	-12.2407
潮	-12.2407
離幻即覺	-12.2407
▁67	-12.2407
智不得耶	-12.2407
疼	-12.2408
􂜠	-12.2408
釧	-12.2409
法喜禪悅	-12.241
不唐捐	-12.241
抽	-12.2411
結前生後	-12.2411
此想成已	-12.2412
心體離念	-12.2413
贍	-12.2413
毗婆尸	-12.2413
甕	-12.2413
嚼	-12.2413
轉正法輪	-12.2413
諸經之王	-12.2414
剪	-12.2414
住在身中	-12.2415
蘇油	-12.2416
阿耨多羅三耶三菩	-12.2416
苗稼	-12.2417
二十八部	-12.2418
託胎	-12.2418
皺	-12.242
能觀之智	-12.2424
毘摩質多	-12.2425
燈燭	-12.2425
以是緣故	-12.2426
天主牟修樓陀	-12.2428
生即無生	-12.2452
頭面作禮	-12.2507
泥呵嚧	-12.2574
名為邪問	-12.2593
日照商主	-12.2598
頗胝迦	-12.26
漚和拘舍羅	-12.2601
虐	-12.2601
掛	-12.2603
心意及與識	-12.2604
我生已盡	-12.2604
刀割	-12.2605
液	-12.2605
掣	-12.2605
大小便利	-12.2605
勝鬘夫人	-12.2606
奔走	-12.2606
援	-12.2606
全身舍利	-12.2607
靈鷲山	-12.2608
玩	-12.2608
無始世來	-12.2609
為聽法故	-12.2609
𦟛	-12.2609
效	-12.2609
大勢至	-12.261
種類俱生無行作意生身	-12.261
故云爾也	-12.261
枯榮	-12.261
未具佛法	-12.2611
脹	-12.2611
梓	-12.2612
汝及諸菩薩摩訶薩	-12.2612
尿	-12.2612
僅	-12.2613
別圓兩教	-12.2613
色即是空	-12.2614
業及果報如前所說	-12.2615
別題三字	-12.2616
唼	-12.2616
敦	-12.2618
爵	-12.2618
棘刺	-12.2618
昊	-12.2619
有佛無佛	-12.262
答第二問	-12.2622
鴨	-12.2623
靡所不	-12.2624
一百四十	-12.2625
萬四千	-12.2648
佛及僧	-12.2688
故注云云	-12.2744
盧迦耶陀	-12.2798
蜎	-12.28
虺	-12.2805
混沌	-12.2805
褥	-12.2806
四維上下	-12.2806
聞空中聲	-12.2806
道觀雙流	-12.2807
祚	-12.2807
溝	-12.2809
金銀珍寶	-12.2809
陛	-12.2809
優曇	-12.281
轉無上法輪	-12.281
車匿	-12.281
唇	-12.2811
善覺知自心現量	-12.2811
破和合僧	-12.2811
奄	-12.2811
瘖瘂	-12.2811
揑	-12.2811
體宗用	-12.2811
坎	-12.2812
恠	-12.2812
耻	-12.2813
枷鎖	-12.2813
握	-12.2813
罵辱	-12.2813
珂雪	-12.2813
翔	-12.2813
癹	-12.2814
不可為比	-12.2814
過世間望	-12.2815
鬪訟	-12.2815
鳩摩羅	-12.2815
苾蒭	-12.2815
邃	-12.2815
聊	-12.2817
藪	-12.2817
緇	-12.2817
長跪合掌	-12.2817
禦	-12.2817
字悞也	-12.2817
非有性建立	-12.2817
結跏趺坐	-12.2818
沙門釋子	-12.2819
何以得知	-12.282
蹴	-12.282
洲渚	-12.2823
不殺不盜	-12.2823
十小劫	-12.2824
隨業流轉	-12.2824
冲	-12.2825
吾當為汝分別解說	-12.2825
於後末世	-12.2826
共天女眾	-12.2827
初敘意分科	-12.2827
舅	-12.2828
柔輭	-12.2829
愛緣取	-12.2841
正法念經	-12.2853
【○	-12.2933
佛頂經	-12.2948
受無量苦	-12.2966
無盡意菩薩	-12.2997
誐	-12.3005
佩	-12.301
邈	-12.3012
擣	-12.3013
來詣我所	-12.3014
無在無不在	-12.3017
料	-12.3017
遶佛三匝	-12.3017
如來乘無間種性	-12.3018
摩訶薩埵	-12.3018
生老病死憂悲苦惱	-12.3018
嗢	-12.3019
心一境性	-12.302
蕭	-12.302
瞑	-12.302
積功累德	-12.302
c	-12.302
惡心出佛身血	-12.302
阿僧祗	-12.3021
准上應知	-12.3021
薝蔔	-12.3021
厲	-12.3021
飼	-12.3022
有無俱遣	-12.3022
紫磨金	-12.3023
蘊處界	-12.3023
晴	-12.3023
鑊湯	-12.3023
埃	-12.3023
即一而三	-12.3023
覺法自性性意生身	-12.3023
陁羅𡰱	-12.3023
閫	-12.3024
属	-12.3025
仇	-12.3025
三昧樂正受意生身	-12.3025
欲有所問	-12.3026
立量云	-12.3026
謹慎	-12.3027
教起因緣	-12.3027
斯則神力不共法	-12.3028
柔順忍	-12.3028
熙怡	-12.3028
二空所顯	-12.3028
復有勝者	-12.3029
非有因建立	-12.3029
復往詣於	-12.303
縵	-12.3031
十方盡虛空界一切	-12.3031
軌範	-12.3031
酢	-12.3033
取緣有	-12.3036
如是語已	-12.3039
諮嗟	-12.3055
受種種苦	-12.3056
雷電	-12.3056
善戒經	-12.3077
殷勤	-12.3106
淨圓覺心	-12.3218
作牛有角想	-12.3221
猒	-12.3222
采	-12.3225
娑伽羅	-12.3227
起佛乘種性	-12.3227
無慧方便縛	-12.3228
殫	-12.3229
剃髮	-12.3229
自見己身	-12.3229
嶺	-12.323
廬	-12.323
霹	-12.323
無得無證	-12.3231
曇無竭	-12.3231
四部弟子	-12.3231
百千俱胝那庾多	-12.3231
默然而聽	-12.3232
哩斡	-12.3232
f	-12.3233
𢝫	-12.3233
欄	-12.3233
隘	-12.3233
朕	-12.3236
滓	-12.3237
釁	-12.3238
抗	-12.3239
澍	-12.324
澆	-12.3241
倨	-12.3242
弩	-12.3243
檗	-12.3245
窓	-12.3248
馨	-12.325
膾	-12.3435
炳	-12.3437
悒	-12.3439
朴	-12.3445
撓	-12.3447
梟	-12.3448
璧	-12.3448
確	-12.345
闐	-12.345
糠	-12.345
溥	-12.345
屑	-12.345
播	-12.3452
惻	-12.3452
筭	-12.3453
㲉	-12.3455
跨	-12.3459
鐙	-12.3463
核	-12.3467
鋸	-12.3668
僚	-12.3669
踴	-12.3669
腫	-12.3669
蒜	-12.367
舐	-12.367
矧	-12.3671
遜	-12.3672
悠	-12.3672
璞	-12.3674
抖	-12.3674
材	-12.3675
疵	-12.3675
儔	-12.3676
慟	-12.3678
榻	-12.3679
獅	-12.3682
㩲	-12.3695
倘	-12.3888
𦘕	-12.3889
禰	-12.3892
忙	-12.3894
桓	-12.3895
迮	-12.3895
挂	-12.3896
樞	-12.3898
做	-12.3898
噬	-12.3902
癸	-12.3902
麟	-12.3903
咏	-12.3904
兇	-12.3909
藕	-12.3914
蠲	-12.4121
斂	-12.4127
裴	-12.4127
犀	-12.4129
艶	-12.4129
齗	-12.413
􂌞	-12.413
矢	-12.4131
豊	-12.4133
噫	-12.4133
銳	-12.4133
酷	-12.4134
纓	-12.4134
綜	-12.4134
軒	-12.4135
擅	-12.4136
釐	-12.4137
凉	-12.4137
瞥	-12.4137
塹	-12.4138
楷	-12.4138
䗍	-12.4139
詺	-12.414
錐	-12.4141
恡	-12.4363
窈	-12.4364
訣	-12.4365
収	-12.4366
紜	-12.4368
謁	-12.4368
妍	-12.4371
酉	-12.4371
捍	-12.4371
盾	-12.4371
鵄	-12.4371
粹	-12.4374
杌	-12.4375
睺	-12.4375
翠	-12.4376
俄	-12.4376
寓	-12.4377
陂	-12.4379
燸	-12.4383
妾	-12.4594
餝	-12.4603
菀	-12.4604
徤	-12.4606
督	-12.4608
㵎	-12.4609
課	-12.461
揖	-12.4612
迸	-12.4613
糜	-12.4613
衲	-12.4613
寅	-12.4614
馥	-12.4614
鍼	-12.4614
嬉	-12.4615
玻	-12.4615
僉	-12.4616
征	-12.4617
繡	-12.4617
駭	-12.4618
狄	-12.4618
瓜	-12.4619
竿	-12.462
械	-12.462
些	-12.4621
芝	-12.4621
詎	-12.4623
韓	-12.4856
釜	-12.4858
倐	-12.4858
蚋	-12.4859
墻	-12.486
啻	-12.4861
躁	-12.4861
惹	-12.4861
巢	-12.4862
栰	-12.4862
罄	-12.4862
禾	-12.4863
淮	-12.4864
臟	-12.4864
糧	-12.4864
悌	-12.4864
舶	-12.4868
虱	-12.4873
繪	-12.5109
輦	-12.5112
彫	-12.5115
桴	-12.5116
丑	-12.5116
菽	-12.5117
戌	-12.5119
牖	-12.512
苞	-12.5121
彥	-12.5122
殄	-12.5122
騃	-12.5124
翰	-12.5124
燥	-12.5125
衝	-12.5125
熈	-12.5125
踝	-12.5127
鏘	-12.5128
卉	-12.5128
蚤	-12.513
鑪	-12.5133
匡	-12.514
蟣	-12.514
咀	-12.5377
裝	-12.5379
粉	-12.5379
愕	-12.538
皓	-12.5382
隸	-12.5382
亞	-12.5383
獎	-12.5384
晏	-12.5386
燎	-12.5386
鍮	-12.5387
替	-12.5388
鏤	-12.5389
漬	-12.539
睒	-12.539
縫	-12.5392
揩	-12.5394
銘	-12.5636
霍	-12.565
仞	-12.565
叨	-12.565
𤘽	-12.5651
洽	-12.5651
悚	-12.5653
瑜	-12.5653
銕	-12.5653
錍	-12.5653
-	-12.5653
邠	-12.5654
羼	-12.5654
牝	-12.5655
廿	-12.5655
牲	-12.5656
憤	-12.5657
稀	-12.5657
紐	-12.5658
庚	-12.5658
妊	-12.5658
蠢	-12.5659
謦	-12.566
俛	-12.5661
䩕	-12.5661
欬	-12.5661
穌	-12.5927
壬	-12.593
卯	-12.5932
澓	-12.5933
押	-12.5933
攢	-12.5933
瘀	-12.5935
芙	-12.5935
豺	-12.5935
謚	-12.5936
呂	-12.5938
寥	-12.5938
耄	-12.5939
睦	-12.5941
皰	-12.5942
竄	-12.5943
努	-12.5943
冶	-12.5947
螢	-12.596
副	-12.6207
慨	-12.6208
暎	-12.621
瀉	-12.6211
丙	-12.6211
捲	-12.6212
筒	-12.6212
桂	-12.6213
迢	-12.6214
諒	-12.6214
絺	-12.6215
襄	-12.6215
偕	-12.6216
臼	-12.6217
袋	-12.6218
詶	-12.6218
叛	-12.6219
臚	-12.6219
驟	-12.622
脛	-12.6221
双	-12.6221
悖	-12.6222
禹	-12.6225
噵	-12.6225
沮	-12.6227
蹋	-12.6228
輞	-12.6231
黯	-12.6235
齅	-12.6502
鵲	-12.6503
賖	-12.6504
蹉	-12.6504
憩	-12.6504
攪	-12.6505
慣	-12.6505
潦	-12.6507
糟	-12.6508
莽	-12.6508
鹵	-12.6509
涓	-12.6509
廉	-12.651
羈	-12.6512
􂛽	-12.6512
佞	-12.6513
閭	-12.6515
佳	-12.6515
詭	-12.6515
謟	-12.6516
匐	-12.6517
煉	-12.6517
叱	-12.6519
邀	-12.6521
摭	-12.6524
祧	-12.6525
鼎	-12.6525
櫓	-12.6533
谿	-12.6801
叚	-12.6803
鴦	-12.6803
胷	-12.6807
嚬	-12.6807
雉	-12.6808
絆	-12.6808
堆	-12.681
哽	-12.6811
狎	-12.6812
愽	-12.6814
慙	-12.6814
鞠	-12.6814
坏	-12.6815
昂	-12.6816
樵	-12.6816
肚	-12.6817
幅	-12.6817
甫	-12.6818
肪	-12.682
憺	-12.682
諺	-12.682
翁	-12.682
疣	-12.6821
矟	-12.6823
慞	-12.6823
築	-12.6824
訴	-12.6824
駃	-12.6824
浣	-12.6824
鵠	-12.6826
辣	-12.6826
蓬	-12.6827
躰	-12.6829
枚	-12.7113
颰	-12.7115
磁	-12.7119
膺	-12.712
軫	-12.7121
柴	-12.7121
刈	-12.7122
兀	-12.7124
勗	-12.7124
蹙	-12.7124
爍	-12.7125
鏁	-12.7125
蝱	-12.7126
崙	-12.7126
誹	-12.7127
構	-12.7128
廐	-12.7128
餚	-12.7128
体	-12.713
諳	-12.713
勑	-12.7131
磬	-12.7132
鵰	-12.7132
桑	-12.7133
洎	-12.7133
瞢	-12.7133
漠	-12.7135
弃	-12.7136
寵	-12.7138
簫	-12.7139
紂	-12.714
漁	-12.7141
庖	-12.7143
惺	-12.7144
潰	-12.744
决	-12.744
仕	-12.7442
碑	-12.7444
駄	-12.7445
囂	-12.7445
机	-12.7446
屣	-12.7447
漱	-12.7448
孚	-12.7448
餐	-12.7449
罕	-12.745
􂛿	-12.745
昱	-12.745
蝦	-12.7451
暝	-12.7451
擘	-12.7452
曀	-12.7452
贖	-12.7452
幔	-12.7452
拱	-12.7454
褁	-12.7454
鐶	-12.7454
毋	-12.7454
龕	-12.7455
斜	-12.7457
吱	-12.7457
徇	-12.7458
殑	-12.746
菟	-12.7468
哢	-12.7766
亨	-12.777
眚	-12.7773
灯	-12.7775
蔬	-12.7777
躃	-12.7778
亮	-12.7778
顒	-12.7778
碼	-12.7778
腥	-12.7778
碯	-12.778
聳	-12.778
瀆	-12.7781
啖	-12.7782
俍	-12.7782
倩	-12.7782
窒	-12.7782
頤	-12.7782
鉀	-12.7782
濯	-12.7782
紋	-12.7782
歛	-12.7783
緘	-12.7783
幟	-12.7784
麵	-12.7785
塲	-12.7785
穩	-12.7785
嵩	-12.7786
稼	-12.7786
璫	-12.7786
駱	-12.7786
慠	-12.7787
亥	-12.7788
陪	-12.7788
繭	-12.7789
絓	-12.7789
郁	-12.779
婚	-12.7791
疽	-12.7791
匍	-12.7791
耎	-12.7791
挈	-12.7791
惙	-12.7806
驪	-12.8117
霄	-12.8118
瀾	-12.8119
騁	-12.8121
棟	-12.8124
航	-12.8125
几	-12.8126
霞	-12.8126
儲	-12.8126
董	-12.8127
荔	-12.8127
帥	-12.8129
毉	-12.8129
哺	-12.8129
簸	-12.813
麞	-12.813
恙	-12.813
悼	-12.813
繖	-12.8132
噎	-12.8132
迊	-12.8132
僂	-12.8133
蔡	-12.8134
蝮	-12.8135
嬾	-12.8135
跏	-12.8135
緻	-12.8136
俊	-12.8141
炤	-12.8144
縠	-12.8147
煗	-12.8152
癊	-12.8161
簧	-12.8459
嫡	-12.8471
潭	-12.8476
攸	-12.8478
廻	-12.8479
腨	-12.8479
蜀	-12.8481
喘	-12.8482
𧂐	-12.8482
弼	-12.8483
僥	-12.8483
捄	-12.8483
貽	-12.8483
痒	-12.8484
迂	-12.8484
壺	-12.8484
溷	-12.8484
礦	-12.8484
凋	-12.8485
股	-12.8485
樣	-12.8485
龐	-12.8486
壑	-12.8486
串	-12.8488
笈	-12.8488
舛	-12.8489
鈞	-12.8489
旅	-12.8489
輟	-12.8489
滄	-12.8491
蠻	-12.8491
溼	-12.8492
柄	-12.8493
眇	-12.8493
掬	-12.8493
傭	-12.8494
瑙	-12.8495
瑪	-12.8496
悷	-12.8499
瑣	-12.85
爻	-12.8502
墠	-12.8508
稈	-12.8533
驃	-12.8843
籥	-12.8844
攞	-12.8845
員	-12.8847
犢	-12.8847
洒	-12.885
雇	-12.8851
鸞	-12.8851
碩	-12.8852
澹	-12.8855
杳	-12.8856
熊	-12.8856
頡	-12.8857
惕	-12.8858
喬	-12.8858
奸	-12.8858
陟	-12.8859
詈	-12.886
黍	-12.886
漉	-12.8861
泮	-12.8861
黿	-12.8861
猿	-12.8861
淹	-12.8861
榍	-12.8863
熒	-12.8864
𢤱	-12.8865
溟	-12.8868
遁	-12.8869
䖍	-12.9225
羶	-12.9227
趂	-12.9228
憨	-12.9233
粕	-12.9233
鳧	-12.9234
饉	-12.9235
頴	-12.9235
㭊	-12.9235
拕	-12.9236
沖	-12.9236
瞪	-12.9237
拓	-12.9237
沼	-12.9238
慄	-12.9239
輻	-12.9239
煒	-12.9239
羝	-12.924
鐸	-12.924
𠮧	-12.924
柏	-12.9241
窄	-12.9242
聻	-12.9242
萄	-12.9243
吝	-12.9244
豕	-12.9245
鄴	-12.9245
㘁	-12.9246
吃	-12.9247
頷	-12.9248
浦	-12.9249
箱	-12.925
墯	-12.925
藻	-12.9252
鶉	-12.9253
蹇	-12.9253
控	-12.9254
罸	-12.9255
饗	-12.9256
撻	-12.9257
瘥	-12.9625
倪	-12.9627
洩	-12.9628
笙	-12.9631
架	-12.9631
咩	-12.9631
酧	-12.9633
伍	-12.9633
詛	-12.9634
撗	-12.9635
妷	-12.9635
僊	-12.9636
咃	-12.9636
寰	-12.9637
窹	-12.9638
臾	-12.9639
釣	-12.9639
郊	-12.9639
黏	-12.9639
邇	-12.9639
疱	-12.9641
帙	-12.9641
窣	-12.9642
憲	-12.9642
貼	-12.9642
鍛	-12.9643
瘖	-12.9643
騐	-12.9643
鍱	-12.9643
眄	-12.9644
尖	-12.9648
雍	-12.9648
娠	-12.9649
吁	-12.965
堤	-12.9651
璅	-12.9652
墟	-12.9653
殻	-12.9653
𤦲	-12.9657
穬	-12.9662
鏞	-13.0038
釵	-13.004
籬	-13.0041
嗚	-13.0044
踵	-13.0046
孱	-13.0048
軛	-13.0051
噓	-13.0051
珪	-13.0052
禿	-13.0052
蟇	-13.0052
寇	-13.0052
姻	-13.0053
恤	-13.0054
粥	-13.0054
岩	-13.0054
聯	-13.0055
繽	-13.0056
瓈	-13.0057
畵	-13.0059
泐	-13.0059
朦	-13.0059
睹	-13.006
迄	-13.006
迺	-13.006
㽵	-13.006
塘	-13.006
珊	-13.0061
衾	-13.0061
臗	-13.0061
杻	-13.0062
搥	-13.0062
軻	-13.0063
覿	-13.0063
吻	-13.0064
祛	-13.0064
硬	-13.0066
傴	-13.0067
顆	-13.0072
疥	-13.0076
醋	-13.0078
琰	-13.0334
搩	-13.046
鐄	-13.0463
蜚	-13.0474
募	-13.0477
亟	-13.0478
碓	-13.048
慜	-13.0481
湩	-13.0481
携	-13.0482
閇	-13.0483
闚	-13.0483
姨	-13.0485
怜	-13.0485
崑	-13.0485
韮	-13.0486
贈	-13.0486
尒	-13.0486
尉	-13.0488
頹	-13.0488
峙	-13.0489
徊	-13.0489
琢	-13.049
劬	-13.049
濬	-13.049
餌	-13.049
蒿	-13.0491
轢	-13.0492
靖	-13.0492
痢	-13.0493
瘧	-13.0493
篾	-13.0495
懲	-13.0495
淤	-13.0495
弈	-13.0496
粮	-13.0497
拷	-13.0498
紆	-13.0498
犂	-13.0498
悍	-13.0499
瞤	-13.0508
麾	-13.0508
礼	-13.0908
翱	-13.092
卅	-13.0925
舂	-13.0932
凰	-13.0933
颺	-13.0934
薨	-13.0934
亢	-13.0935
剜	-13.0937
姜	-13.0939
姥	-13.094
閤	-13.094
屯	-13.0941
廼	-13.0941
髖	-13.0942
戊	-13.0942
窶	-13.0943
恰	-13.0943
芒	-13.0943
催	-13.0944
髣	-13.0945
撞	-13.0945
謾	-13.0945
槁	-13.0946
煑	-13.0946
宵	-13.0946
恆	-13.0946
愴	-13.0947
凢	-13.0947
栢	-13.0947
旹	-13.0947
迥	-13.0947
諠	-13.0948
宦	-13.0949
碾	-13.0949
騫	-13.0949
擗	-13.095
旭	-13.095
轂	-13.095
娉	-13.095
稗	-13.095
泆	-13.095
彷	-13.0951
罣	-13.0951
哮	-13.0951
䨱	-13.0952
厝	-13.0952
嘻	-13.0952
瞽	-13.0953
館	-13.0953
烹	-13.0953
塼	-13.0955
黜	-13.0955
琶	-13.0955
贅	-13.0959
俠	-13.0963
抳	-13.0964
榜	-13.1407
棱	-13.141
覷	-13.141
叮	-13.141
舩	-13.1411
㨖	-13.1411
狩	-13.1412
瘳	-13.1414
禘	-13.1416
㹅	-13.1416
犧	-13.1417
喑	-13.1417
抹	-13.1417
痘	-13.1417
朵	-13.1418
尓	-13.1419
嚫	-13.1419
熖	-13.1419
腑	-13.142
殯	-13.142
叭	-13.142
苾	-13.1421
腴	-13.1421
銛	-13.1422
枸	-13.1422
曝	-13.1422
蓄	-13.1422
欵	-13.1423
痾	-13.1423
鋪	-13.1423
侮	-13.1424
估	-13.1424
蛆	-13.1424
旗	-13.1424
堦	-13.1424
蠡	-13.1425
它	-13.1426
遘	-13.1428
蔥	-13.1428
鍵	-13.1429
蚑	-13.143
㓨	-13.143
筮	-13.1431
戎	-13.1431
侫	-13.1431
蚩	-13.1433
淋	-13.1433
窻	-13.1433
撩	-13.1434
旌	-13.1439
羲	-13.1454
枹	-13.1891
𣸪	-13.1893
絞	-13.1907
脆	-13.1908
坦	-13.1911
巫	-13.1912
賺	-13.1912
姉	-13.1912
恍	-13.1913
勾	-13.1913
竈	-13.1913
冐	-13.1914
詡	-13.1917
騾	-13.1917
蚌	-13.1917
綩	-13.1918
笞	-13.1918
敝	-13.1919
暨	-13.1919
裨	-13.192
孺	-13.192
惔	-13.1921
漆	-13.1921
穰	-13.1921
萍	-13.1922
濱	-13.1923
葩	-13.1923
楗	-13.1923
粳	-13.1924
𢙢	-13.1924
鞔	-13.1925
舁	-13.1925
嘔	-13.1926
舡	-13.1927
樊	-13.1927
蟄	-13.1928
嬪	-13.1928
佷	-13.1928
薀	-13.193
蝎	-13.193
孽	-13.1931
磣	-13.1931
鷺	-13.1933
齶	-13.1934
銓	-13.1934
霅	-13.1936
聶	-13.1938
檐	-13.1938
斑	-13.1943
咬	-13.1944
忤	-13.2429
拋	-13.2431
箏	-13.2434
𡧱	-13.2435
頒	-13.2435
岑	-13.2436
衒	-13.2437
鄧	-13.2441
聦	-13.2441
魁	-13.2442
擿	-13.2442
煌	-13.2442
韶	-13.2442
嘖	-13.2442
罥	-13.2442
搗	-13.2443
蓼	-13.2444
橐	-13.2444
衫	-13.2444
釀	-13.2445
佯	-13.2446
鵬	-13.2446
卍	-13.2447
拊	-13.2448
憘	-13.2448
蛟	-13.2448
綮	-13.2449
󲊛	-13.2449
􂛴	-13.2449
紊	-13.2449
駟	-13.2449
逞	-13.245
觜	-13.245
貸	-13.245
腕	-13.245
髴	-13.245
􂎶	-13.2451
献	-13.2451
秩	-13.2453
粘	-13.2453
蝨	-13.2456
酌	-13.2457
阜	-13.2457
眸	-13.2457
櫃	-13.2457
傚	-13.2457
桎	-13.2458
嬌	-13.2459
􂌤	-13.2461
鷂	-13.2461
鼉	-13.2462
咤	-13.2462
劓	-13.2462
婿	-13.2464
椀	-13.2465
鋡	-13.2467
峪	-13.2477
况	-13.2983
脅	-13.2988
𤚲	-13.2988
觧	-13.299
森	-13.2991
嚀	-13.2994
尫	-13.2997
娘	-13.2997
蜺	-13.2997
蕃	-13.2997
駒	-13.2998
敞	-13.2998
凊	-13.2999
肋	-13.3
丐	-13.3001
癃	-13.3001
瞳	-13.3001
萊	-13.3001
忒	-13.3002
悽	-13.3002
菉	-13.3003
拽	-13.3004
蔚	-13.3004
嘯	-13.3005
癲	-13.3005
苫	-13.3006
筵	-13.3007
猥	-13.3008
璃	-13.3008
楯	-13.3009
桀	-13.3009
汰	-13.301
弑	-13.301
檄	-13.3013
彭	-13.3013
絹	-13.3013
紇	-13.3013
撒	-13.3014
牡	-13.3015
襪	-13.3016
掁	-13.3016
陞	-13.3019
蓐	-13.3021
臰	-13.3024
臧	-13.3026
炮	-13.3027
寮	-13.3571
𠺕	-13.3572
痊	-13.3581
糅	-13.3581
爇	-13.3584
姤	-13.3584
懵	-13.3585
岌	-13.3585
莪	-13.3585
痕	-13.3586
簾	-13.3586
媿	-13.3587
笋	-13.3587
崔	-13.3587
捩	-13.3587
揔	-13.3587
虵	-13.3588
洟	-13.3589
咲	-13.3589
臠	-13.3591
顫	-13.3591
瞞	-13.3592
迯	-13.3592
絳	-13.3593
箕	-13.3593
棚	-13.3593
礿	-13.3594
觚	-13.3594
冝	-13.3595
癭	-13.3595
塜	-13.3595
戍	-13.3596
攣	-13.3597
顓	-13.3598
瘵	-13.3598
柵	-13.3599
呀	-13.36
𨳝	-13.36
楹	-13.3601
厩	-13.3601
壃	-13.3601
膓	-13.3602
賄	-13.3602
椽	-13.3602
㗚	-13.3602
糩	-13.3603
協	-13.3604
甦	-13.3604
鉾	-13.3604
罝	-13.3607
畋	-13.3612
坼	-13.3612
蚡	-13.4143
瓢	-13.4193
嗽	-13.4195
抅	-13.42
盋	-13.4202
橙	-13.4203
倖	-13.4203
緜	-13.4205
矇	-13.4205
繚	-13.4206
囹	-13.4207
烝	-13.4207
冑	-13.4208
刳	-13.4209
壹	-13.4209
駐	-13.4209
个	-13.4209
艸	-13.4209
飭	-13.421
廩	-13.421
秊	-13.4211
鱉	-13.4212
裡	-13.4213
庾	-13.4213
訾	-13.4213
虜	-13.4214
罩	-13.4214
曚	-13.4215
鬧	-13.4215
唧	-13.4215
舘	-13.4216
媒	-13.4217
膊	-13.4217
偉	-13.4217
𦙆	-13.4218
歘	-13.4218
滲	-13.4218
咷	-13.422
圭	-13.422
蠍	-13.4221
霔	-13.4221
鶖	-13.4221
皂	-13.4222
觝	-13.4222
捫	-13.4222
駈	-13.4224
膀	-13.4224
哥	-13.4224
憣	-13.4225
笮	-13.4225
祁	-13.4225
灸	-13.4226
髭	-13.4226
雛	-13.4227
瞎	-13.4227
諄	-13.4227
槨	-13.4228
拿	-13.423
茹	-13.423
酤	-13.4231
叟	-13.4231
垓	-13.4232
壟	-13.4234
鴟	-13.4234
擒	-13.4235
墾	-13.4236
刷	-13.4236
蘋	-13.4245
𥎞	-13.4863
轡	-13.4867
炊	-13.487
誇	-13.4874
䥫	-13.4874
慌	-13.4874
魘	-13.4875
昴	-13.4876
潘	-13.4877
徉	-13.4877
瓠	-13.4877
氈	-13.4879
掖	-13.4879
槍	-13.488
裳	-13.488
倏	-13.488
湎	-13.488
傑	-13.4881
韭	-13.4881
𦿔	-13.4881
揬	-13.4882
勁	-13.4882
樑	-13.4883
埏	-13.4883
兢	-13.4884
𠃵	-13.4884
詁	-13.4884
愔	-13.4884
店	-13.4885
蟾	-13.4885
藩	-13.4885
瓮	-13.4885
遼	-13.4885
驀	-13.4886
謳	-13.4886
蛤	-13.4886
璣	-13.4887
姬	-13.4887
馭	-13.4887
件	-13.4887
㸌	-13.4888
丞	-13.4888
敲	-13.4888
闠	-13.4889
胥	-13.4889
凸	-13.4889
罽	-13.489
兌	-13.489
棹	-13.489
閏	-13.4891
冒	-13.4891
秫	-13.4891
剡	-13.4892
咳	-13.4893
冢	-13.4894
鉛	-13.4895
瘭	-13.4895
杯	-13.4895
巍	-13.4895
渺	-13.4896
睿	-13.4899
踪	-13.4899
𦰧	-13.4899
腭	-13.4902
惋	-13.4903
𢍉	-13.4906
𨷂	-13.4911
蘩	-13.4914
匙	-13.5561
攙	-13.5571
䑛	-13.5575
貰	-13.5581
隧	-13.5583
猩	-13.5585
颯	-13.5586
氐	-13.5586
槵	-13.5587
閹	-13.5587
澇	-13.5588
蜋	-13.5589
悳	-13.5589
斵	-13.5589
祜	-13.559
詫	-13.559
盥	-13.559
絜	-13.5591
歒	-13.5591
票	-13.5592
臯	-13.5592
蓏	-13.5592
呰	-13.5593
氛	-13.5593
寘	-13.5594
艮	-13.5594
斐	-13.5594
誌	-13.5595
簞	-13.5595
慪	-13.5595
嬭	-13.5595
疋	-13.5595
叅	-13.5596
馚	-13.5596
慊	-13.5596
鎚	-13.5597
緝	-13.5597
悸	-13.5597
豉	-13.5597
恊	-13.5598
𤬪	-13.5598
紈	-13.5598
斟	-13.5598
襟	-13.5599
闘	-13.5599
斍	-13.5599
績	-13.5599
頼	-13.56
碗	-13.56
煨	-13.56
殉	-13.56
稜	-13.5601
歐	-13.5602
輾	-13.5602
𢌞	-13.5603
邸	-13.5603
郍	-13.5604
碁	-13.5604
桁	-13.5605
懌	-13.5605
霆	-13.5606
抒	-13.5606
誚	-13.5606
浸	-13.5606
褻	-13.5606
臊	-13.5606
𦼇	-13.5607
毬	-13.5607
氎	-13.5607
燦	-13.5607
舫	-13.5608
薤	-13.5609
薑	-13.561
蝡	-13.561
趍	-13.5611
瑰	-13.5611
弁	-13.5611
隊	-13.5613
𠛴	-13.5613
蜯	-13.5613
堰	-13.5615
聘	-13.5615
鞋	-13.5616
廚	-13.5617
隍	-13.5621
獷	-13.5628
潁	-13.6342
寠	-13.6345
𠃔	-13.6346
惚	-13.6348
俳	-13.6351
瑤	-13.6352
蠆	-13.6354
駿	-13.6354
餮	-13.6355
蟠	-13.6355
堀	-13.6356
穽	-13.6357
碍	-13.6358
俸	-13.6359
闌	-13.6359
柁	-13.636
組	-13.636
癘	-13.6361
褚	-13.6362
葡	-13.6362
衷	-13.6362
悄	-13.6362
瞰	-13.6363
抆	-13.6363
賾	-13.6364
隕	-13.6364
澀	-13.6364
罹	-13.6364
貳	-13.6365
媸	-13.6365
閴	-13.6365
帽	-13.6366
犇	-13.6366
跓	-13.6366
齡	-13.6367
浙	-13.6367
佇	-13.6367
粧	-13.6368
恁	-13.6368
涪	-13.6368
剔	-13.6368
𦒿	-13.6368
痺	-13.6368
𠁅	-13.6368
􂜈	-13.6368
䏶	-13.6368
鵂	-13.6368
霓	-13.6369
盪	-13.6369
珥	-13.6369
嗤	-13.6371
梢	-13.6372
隴	-13.6373
尻	-13.6374
袍	-13.6374
伶	-13.6374
蕪	-13.6375
鑰	-13.6375
概	-13.6375
租	-13.6375
渟	-13.6375
耘	-13.6378
僮	-13.6378
眵	-13.6378
胑	-13.6378
毅	-13.6379
捔	-13.6379
贒	-13.638
鼷	-13.6384
澣	-13.6385
懣	-13.6387
荏	-13.6387
潑	-13.6391
埠	-13.6396
𢭃	-13.7163
䶩	-13.717
逄	-13.7171
玷	-13.7178
婀	-13.7179
髫	-13.7179
襍	-13.7181
戢	-13.7182
忩	-13.7182
弋	-13.7184
剗	-13.7185
盻	-13.7187
穗	-13.7188
叶	-13.7189
犖	-13.7189
琉	-13.719
樽	-13.719
掇	-13.7191
簪	-13.7191
獐	-13.7191
扈	-13.7193
濵	-13.7193
塑	-13.7194
凾	-13.7194
蚶	-13.7194
儛	-13.7194
氳	-13.7195
宥	-13.7195
絮	-13.7195
茯	-13.7195
喙	-13.7196
哿	-13.7197
䔧	-13.7197
臏	-13.7198
抓	-13.7199
侈	-13.7199
袖	-13.7199
砥	-13.7199
􂟐	-13.72
餼	-13.72
珞	-13.72
賷	-13.72
勺	-13.72
蔗	-13.72
訕	-13.7201
􂛻	-13.7201
􂛾	-13.7201
售	-13.7202
敻	-13.7202
坡	-13.7202
瓊	-13.7203
砌	-13.7203
蒺	-13.7204
冊	-13.7204
餧	-13.7205
裓	-13.7205
罐	-13.7205
拖	-13.7205
蕅	-13.7205
訝	-13.7205
恧	-13.7205
銐	-13.7206
𠍴	-13.7206
懿	-13.7206
鋌	-13.7206
騖	-13.7206
翦	-13.7207
頇	-13.7207
幕	-13.7207
嶄	-13.7208
圈	-13.7208
羆	-13.7208
榛	-13.7208
曄	-13.7208
麝	-13.7208
侗	-13.7209
俻	-13.7209
繹	-13.721
帷	-13.721
屆	-13.721
賚	-13.7211
孜	-13.7211
妒	-13.7212
㷿	-13.7212
閃	-13.7212
𨄔	-13.7212
猷	-13.7213
湍	-13.7213
唄	-13.7213
剉	-13.7215
𡃤	-13.7215
𥇒	-13.7215
萇	-13.7216
刮	-13.7218
搔	-13.7218
皤	-13.722
鵶	-13.722
迤	-13.722
椒	-13.7221
駁	-13.7241
啝	-13.8078
㘓	-13.808
媕	-13.8089
捻	-13.8089
杅	-13.8092
髦	-13.8092
瘤	-13.8094
跂	-13.8094
𠯗	-13.8095
篩	-13.8095
范	-13.8096
芸	-13.8096
煜	-13.8098
檠	-13.8098
壘	-13.8101
梗	-13.8101
黛	-13.8102
晞	-13.8102
杲	-13.8102
蘿	-13.8103
葺	-13.8103
杭	-13.8103
跌	-13.8104
虻	-13.8104
猜	-13.8105
羮	-13.8105
粖	-13.8105
𢙉	-13.8105
噤	-13.8106
〉	-13.8106
藹	-13.8106
魑	-13.8107
〈	-13.8107
闔	-13.8107
狥	-13.8107
聡	-13.8108
嘍	-13.8108
蒱	-13.8108
鞮	-13.8108
沽	-13.8109
仆	-13.811
蔕	-13.811
呢	-13.811
呫	-13.811
賔	-13.811
随	-13.811
㒵	-13.8111
遑	-13.8112
濩	-13.8112
簷	-13.8113
𥧌	-13.8113
巽	-13.8113
毳	-13.8113
衿	-13.8113
鋟	-13.8114
熙	-13.8114
麋	-13.8114
癢	-13.8114
彿	-13.8115
廷	-13.8116
疹	-13.8116
慍	-13.8116
撈	-13.8116
豔	-13.8117
賃	-13.8117
啗	-13.8118
沛	-13.8118
懽	-13.8119
殼	-13.8119
萠	-13.8121
隄	-13.8121
𩬊	-13.8122
轅	-13.8124
憾	-13.8126
憧	-13.8127
廝	-13.8129
醬	-13.813
廳	-13.8131
雒	-13.8131
􂜻	-13.8134
汾	-13.8134
􂌶	-13.8144
寞	-13.8319
殟	-13.907
嚟	-13.9076
韜	-13.9084
羙	-13.9084
匣	-13.9085
觴	-13.9088
泠	-13.9088
焬	-13.9088
鱍	-13.9089
𨒬	-13.9093
愷	-13.9094
馴	-13.9096
侜	-13.9096
扁	-13.9097
亶	-13.9097
冕	-13.9098
𤚼	-13.9099
齩	-13.9099
侘	-13.91
󰪠	-13.9101
湘	-13.9101
暄	-13.9102
璨	-13.9104
霖	-13.9104
帚	-13.9105
磑	-13.9105
斆	-13.9105
沿	-13.9106
䠆	-13.9106
宍	-13.9106
磓	-13.9107
褊	-13.9107
禎	-13.9107
萃	-13.9107
距	-13.9107
墀	-13.9108
緬	-13.9108
邕	-13.9108
跬	-13.9108
蹬	-13.9108
鶵	-13.9108
撤	-13.9108
𠿒	-13.9109
鞏	-13.911
擢	-13.911
庇	-13.911
􂜎	-13.911
矅	-13.911
𢿘	-13.9111
圃	-13.9111
睇	-13.9111
鬢	-13.9112
䎡	-13.9112
汪	-13.9112
涵	-13.9112
蓊	-13.9112
阤	-13.9112
僣	-13.9113
矬	-13.9113
騷	-13.9113
忪	-13.9113
浚	-13.9113
貲	-13.9114
瘠	-13.9115
捏	-13.9115
僭	-13.9115
蹲	-13.9115
惽	-13.9116
蚰	-13.9117
𦙘	-13.9117
儐	-13.9117
孃	-13.9118
綟	-13.9118
旡	-13.9118
蜆	-13.9118
淆	-13.9118
昰	-13.9118
壍	-13.912
啐	-13.912
盞	-13.912
穎	-13.912
晈	-13.912
煬	-13.912
忝	-13.912
嘲	-13.9121
峨	-13.9122
窘	-13.9124
搭	-13.9124
樔	-13.9124
羡	-13.9125
劄	-13.9125
薛	-13.9125
嫩	-13.9126
檻	-13.9126
喰	-13.9126
磐	-13.9126
繢	-13.9127
糖	-13.913
牸	-13.9133
詵	-13.9133
窯	-13.9133
暈	-13.9135
爆	-13.9136
拉	-13.9139
杏	-13.9143
噁	-13.9164
搶	-14.0182
蓍	-14.0188
軰	-14.0197
桐	-14.0197
舸	-14.0198
蘖	-14.0202
苓	-14.0203
儘	-14.0205
蠚	-14.0206
搪	-14.0207
噴	-14.0208
咫	-14.0209
諛	-14.0209
㘕	-14.0209
瑳	-14.0209
昵	-14.021
筯	-14.021
痿	-14.0211
蕳	-14.0211
饕	-14.0211
笠	-14.0212
篡	-14.0212
荄	-14.0212
鉞	-14.0213
霸	-14.0213
僵	-14.0213
仳	-14.0213
渤	-14.0215
港	-14.0215
蒭	-14.0215
駢	-14.0215
抉	-14.0216
郝	-14.0216
凖	-14.0216
攫	-14.0216
鴝	-14.0216
呿	-14.0216
蔣	-14.0217
泄	-14.0217
軾	-14.0218
蜍	-14.0219
􂎈	-14.0219
玼	-14.022
爚	-14.022
乱	-14.022
瘢	-14.022
羇	-14.022
鮑	-14.022
蔔	-14.0221
堙	-14.0221
羹	-14.0221
􂗆	-14.0221
􂜳	-14.0221
濶	-14.0222
肴	-14.0222
需	-14.0222
鑠	-14.0223
隳	-14.0223
版	-14.0223
簿	-14.0223
泓	-14.0223
顙	-14.0224
㘑	-14.0224
掀	-14.0225
培	-14.0225
凹	-14.0225
豸	-14.0225
􂌦	-14.0225
􂛬	-14.0225
𢢔	-14.0225
擡	-14.0226
蘂	-14.0226
插	-14.0227
毱	-14.0227
臈	-14.0227
荻	-14.0227
𡖉	-14.0227
璝	-14.0227
粲	-14.0227
滁	-14.0227
懋	-14.0228
系	-14.0228
囙	-14.023
滔	-14.023
踹	-14.0231
縶	-14.0231
耑	-14.0231
髆	-14.0232
瓫	-14.0232
綰	-14.0233
鋤	-14.0233
駮	-14.0233
黧	-14.0233
櫼	-14.0234
裕	-14.0234
週	-14.0234
閦	-14.0234
綏	-14.0235
罟	-14.0235
煦	-14.0236
穅	-14.0237
㜸	-14.0237
怗	-14.0237
袁	-14.0238
滂	-14.0239
曬	-14.0239
篅	-14.0239
蜘	-14.024
洶	-14.024
覊	-14.024
笐	-14.024
脯	-14.0241
苻	-14.0241
枲	-14.0242
𤺙	-14.0243
褫	-14.0243
惘	-14.0244
菁	-14.0246
鵞	-14.0248
咪	-14.1425
坋	-14.1432
鉸	-14.1436
耒	-14.144
擥	-14.1447
翩	-14.1451
甖	-14.1451
菑	-14.1452
藿	-14.1453
弛	-14.1453
䓗	-14.1453
旻	-14.1454
麑	-14.1454
詆	-14.1455
箴	-14.1455
鬣	-14.1456
鞍	-14.1456
豬	-14.1456
𣣋	-14.1456
簁	-14.1456
熬	-14.1458
妣	-14.1458
竚	-14.1458
獝	-14.1458
揲	-14.146
歧	-14.146
慴	-14.146
剏	-14.1461
雰	-14.1461
䆳	-14.1461
礪	-14.1462
躋	-14.1462
晶	-14.1462
𠽾	-14.1462
胄	-14.1463
𣅀	-14.1463
蹊	-14.1463
躔	-14.1464
昬	-14.1464
譖	-14.1464
蝴	-14.1464
麒	-14.1465
閩	-14.1466
槖	-14.1466
瀚	-14.1466
剕	-14.1467
苷	-14.1467
埜	-14.1467
伋	-14.1467
圜	-14.1467
埴	-14.1468
鴣	-14.1468
鈸	-14.1468
脬	-14.1468
𥢶	-14.1468
鈿	-14.1469
轤	-14.1469
泅	-14.1469
潟	-14.147
蜫	-14.147
轆	-14.147
倮	-14.147
漩	-14.147
坂	-14.1471
祟	-14.1471
痟	-14.1471
􂛺	-14.1471
稔	-14.1472
苔	-14.1472
揜	-14.1472
𥪰	-14.1472
襦	-14.1472
嗄	-14.1472
幰	-14.1472
牘	-14.1473
􂍧	-14.1473
懾	-14.1473
鰥	-14.1473
膖	-14.1473
揉	-14.1473
屐	-14.1473
潢	-14.1474
狡	-14.1474
踉	-14.1475
𪾼	-14.1475
蕀	-14.1475
菌	-14.1475
柝	-14.1475
槐	-14.1475
瑯	-14.1476
侔	-14.1476
𨪏	-14.1476
㗛	-14.1476
麴	-14.1476
覞	-14.1476
􂛗	-14.1477
佶	-14.1477
圅	-14.1477
􂎥	-14.1477
蠹	-14.1477
彪	-14.1478
𡱁	-14.1478
飴	-14.1478
澗	-14.1478
荳	-14.1479
怵	-14.1479
褐	-14.1479
醻	-14.1479
玫	-14.148
孳	-14.148
覃	-14.148
蛛	-14.148
嵬	-14.1481
島	-14.1482
庿	-14.1482
囓	-14.1482
奩	-14.1483
尹	-14.1483
鞅	-14.1484
蒔	-14.1484
踧	-14.1485
塢	-14.1486
睞	-14.1486
眶	-14.1487
蜒	-14.1487
郢	-14.1487
殮	-14.1488
茵	-14.1488
彝	-14.1488
跱	-14.1488
囿	-14.1488
彚	-14.1489
挹	-14.1489
凑	-14.1489
澌	-14.1489
蟬	-14.1489
謇	-14.149
渦	-14.149
紘	-14.1492
顇	-14.1493
苛	-14.1493
爼	-14.1493
楮	-14.1494
韛	-14.1495
鈷	-14.1496
臛	-14.1506
覇	-14.1513
綫	-14.1514
藂	-14.1527
奎	-14.2863
卌	-14.2863
蛻	-14.2866
撦	-14.2876
䬸	-14.2877
鎗	-14.2877
陜	-14.2877
B	-14.2879
斃	-14.2879
眥	-14.288
C	-14.288
覧	-14.288
俞	-14.2881
徼	-14.2881
㢡	-14.2882
殂	-14.2882
擴	-14.2883
篙	-14.2883
臉	-14.2884
戕	-14.2884
歆	-14.2885
蛭	-14.2885
翛	-14.2886
樁	-14.2886
蠟	-14.2887
聃	-14.2887
涷	-14.2887
蘄	-14.2888
愶	-14.2888
阮	-14.2889
閔	-14.289
稸	-14.289
斖	-14.289
幃	-14.289
㓟	-14.289
螮	-14.2891
襯	-14.2891
瑠	-14.2891
羚	-14.2892
觔	-14.2893
岡	-14.2894
燔	-14.2894
詬	-14.2894
葷	-14.2896
蠧	-14.2897
儆	-14.2897
鏗	-14.2898
蚓	-14.2899
巘	-14.2899
醇	-14.2899
藶	-14.2899
䠒	-14.29
聆	-14.29
扃	-14.29
葶	-14.29
瀝	-14.29
鍐	-14.29
搒	-14.2901
笇	-14.2901
另	-14.2901
捴	-14.2901
芿	-14.2902
蜥	-14.2902
帆	-14.2902
嬖	-14.2902
縗	-14.2902
哳	-14.2903
賽	-14.2904
絰	-14.2904
弔	-14.2904
躑	-14.2905
瘁	-14.2905
稿	-14.2905
灘	-14.2906
鴛	-14.2906
鎌	-14.2906
囀	-14.2906
瀨	-14.2908
渭	-14.2908
輅	-14.2908
閨	-14.2908
盟	-14.2908
狠	-14.2909
刖	-14.2909
皿	-14.2909
樗	-14.2909
遡	-14.2909
嵠	-14.291
涶	-14.291
㯹	-14.2911
躓	-14.2911
磚	-14.2911
㦜	-14.2911
纜	-14.2912
犛	-14.2913
咓	-14.2914
朧	-14.2914
埀	-14.2915
孥	-14.2916
嚚	-14.2916
悵	-14.2916
耿	-14.2916
沚	-14.2917
筐	-14.2918
懊	-14.2918
烱	-14.2918
瑛	-14.2919
縉	-14.2919
珀	-14.292
斲	-14.2921
笥	-14.2922
伇	-14.2922
烔	-14.2924
嘶	-14.2924
榔	-14.2924
迬	-14.2925
轝	-14.2932
确	-14.2935
榴	-14.2944
堵	-14.4566
顰	-14.4569
婇	-14.6548
猨	-14.6555
擕	-14.6556
磲	-14.657
袈	-14.6575
硨	-14.6589
忉	-14.9055
掐	-14.9083
蠕	-15.2336
諡	-15.234
魍	-15.2381
訊	-15.2388
篌	-15.24
沌	-15.2404
髏	-15.2406
顗	-15.2468
▲	-15.6415
鵡	-15.7387
憔	-15.739
薝	-15.7416
醍	-15.7422
裟	-15.7438
—	-16.7344
鸚	-16.7368
魎	-16.74
茘	-16.7402
逶	-16.7403
獯	-16.7404
犙	-16.7405
儱	-16.7406
鶹	-16.7407
虬	-16.7408
痍	-16.7409
煻	-16.741
洴	-16.7411
顢	-16.7412
衟	-16.7413
蜣	-16.7414
瞌	-16.7415
倆	-16.7416
𨤲	-16.7417
髑	-16.7418
鯢	-16.7418
蜈	-16.7419
蚣	-16.742
纛	-16.7421
戇	-16.7422
𠸪	-16.7423
琥	-16.7424
釯	-16.7424
蝠	-16.7425
蝙	-16.7426
癬	-16.7427
痆	-16.7428
󰃗	-16.7429
蓱	-16.743
胱	-16.7431
圄	-16.7432
芉	-16.7433
梏	-16.7434
蠰	-16.7435
牯	-16.7436
琵	-16.7437
徘	-16.7438
鑞	-16.7439
蓉	-16.744
㿇	-16.7441
鞕	-16.7442
逍	-16.7443
擻	-16.7444
靂	-16.7445
>	-16.7446
+	-16.7447
伅	-16.7448
獼	-16.7449
瑚	-16.745
芭	-16.7451
[	-16.7452
醐	-16.7453
|	-16.7454
o	-16.7455
N	-16.7456
箜	-16.7456
