<unk>	0
<s>	0
</s>	0
(	-3.34351
/	-3.40663
)	-3.50859
之	-4.91822
者	-4.981
也	-5.02719
以	-5.0963
而	-5.17055
兩	-5.22294
一	-5.24662
/)	-5.36136
用	-5.37564
治	-5.40349
為	-5.58925
則	-5.60788
不	-5.69005
或	-5.70355
其	-5.70518
如	-5.71024
)(	-5.7501
去	-5.7788
氣	-5.79254
有	-5.80661
生	-5.82486
下	-5.82679
大	-5.82905
中	-5.85613
熱	-5.92469
方	-5.92542
三	-5.93655
分	-5.95056
水	-5.98385
上	-6.01275
散	-6.04221
二	-6.06679
此	-6.07465
病	-6.08707
若	-6.09891
入	-6.11273
服	-6.13883
出	-6.14619
半	-6.16063
於	-6.16612
故	-6.18018
子	-6.21621
湯	-6.22199
内	-6.24103
▁	-6.24304
及	-6.25066
炒	-6.26928
甘草	-6.27986
無	-6.29041
藥	-6.31012
血	-6.32173
即	-6.32882
痛	-6.33528
至	-6.34928
錢	-6.35977
丸	-6.36296
五	-6.36889
人	-6.36934
一兩	-6.3828
風	-6.38935
在	-6.42348
心	-6.42512
與	-6.43654
寒	-6.46161
後	-6.46394
取	-6.46721
白	-6.47287
食	-6.48239
時	-6.48661
作	-6.50294
同	-6.51325
加	-6.51327
又	-6.53456
火	-6.54466
曰	-6.59101
皆	-6.59687
多	-6.60325
和	-6.60359
亦	-6.61072
皮	-6.61828
主	-6.62161
陽	-6.649
四	-6.66457
是	-6.6663
得	-6.67195
經	-6.68561
乃	-6.70099
云	-6.7034
隂	-6.71277
自	-6.71679
當	-6.72233
頭	-6.73047
令	-6.74305
宜	-6.75259
煎	-6.7536
合	-6.75381
見	-6.75732
黄	-6.76192
炙	-6.78748
矣	-6.79165
發	-6.79291
各一	-6.80122
脉	-6.80286
研	-6.80809
日	-6.81806
酒	-6.83735
人參	-6.86468
右	-6.86717
毒	-6.87628
飲	-6.88523
小	-6.88541
瘡	-6.89202
當歸	-6.89456
可	-6.89598
因	-6.90035
冷	-6.91174
温	-6.91234
末	-6.91797
行	-6.9228
各	-6.95707
外	-6.96475
必	-6.97112
少	-6.97576
根	-6.98526
虚	-6.99191
先	-6.99712
所	-6.99809
實	-6.99814
腫	-7.00016
肉	-7.01738
成	-7.01832
不能	-7.02138
法	-7.03041
乾	-7.03349
傷	-7.0353
能	-7.03654
石	-7.0553
通	-7.05693
木	-7.06596
草	-7.06857
骨	-7.07086
止	-7.07145
數	-7.07681
急	-7.08385
汁	-7.09025
非	-7.10384
已	-7.11176
從	-7.11245
二兩	-7.11564
赤	-7.1225
復	-7.14281
目	-7.14475
重	-7.14521
然	-7.15627
土	-7.16506
諸	-7.16555
言	-7.17324
凡	-7.17372
半兩	-7.17388
葉	-7.1803
邪	-7.18107
微	-7.18191
未	-7.19104
剉	-7.19209
脈	-7.21232
細	-7.21318
附子	-7.21908
傷寒	-7.22343
肝	-7.22548
脾	-7.22922
服之	-7.23097
濕	-7.23648
金	-7.2367
口	-7.24614
今	-7.24696
七	-7.24979
但	-7.25
本	-7.25328
欲	-7.26009
化	-7.26033
○	-7.26685
便	-7.26809
白术	-7.27198
更	-7.27661
甚	-7.2781
腎	-7.28066
證	-7.28185
不可	-7.28944
六	-7.29058
黄連	-7.29763
穴	-7.30187
療	-7.30663
解	-7.30876
清	-7.3088
神	-7.31104
為末	-7.31607
名	-7.31648
謂	-7.31826
大黄	-7.32466
耳	-7.32525
半夏	-7.32575
防風	-7.32926
利	-7.33064
長	-7.33584
正	-7.33837
平	-7.33906
一錢	-7.34496
結	-7.34574
明	-7.34857
切	-7.35262
前	-7.35282
身	-7.35592
愈	-7.36271
處	-7.37237
刺	-7.37512
胃	-7.37537
天	-7.37583
肺	-7.38056
足	-7.38173
木香	-7.38368
反	-7.38888
灸	-7.39
發熱	-7.39193
死	-7.39286
動	-7.39326
使	-7.39334
相	-7.39732
間	-7.39761
青	-7.40277
消	-7.40622
論	-7.41143
過	-7.41313
花	-7.41344
安	-7.41471
補	-7.41899
不得	-7.41948
于	-7.4209
盡	-7.42619
吐	-7.42805
乾薑	-7.42933
物	-7.43655
色	-7.4384
雖	-7.44078
膏	-7.44538
寒熱	-7.44959
藏	-7.46409
俱	-7.47261
盛	-7.47281
㣲	-7.47718
註	-7.4894
積	-7.49178
汗	-7.49241
並	-7.4928
疾	-7.49617
患	-7.49728
似	-7.4991
黄芩	-7.50159
燥	-7.50276
起	-7.5041
精	-7.50609
痰	-7.50637
生薑	-7.51098
升	-7.52278
常	-7.52745
香	-7.52825
别	-7.53387
苦	-7.53621
十	-7.53786
出聖	-7.54244
又方	-7.5457
小兒	-7.54688
并	-7.54856
難	-7.55037
洗	-7.55283
等	-7.55447
黒	-7.55452
兼	-7.55699
陰	-7.56071
茯苓	-7.56154
地	-7.56568
乳	-7.56663
炮	-7.57003
熟	-7.58246
去皮	-7.58639
再	-7.59536
煮	-7.59569
開	-7.61087
候	-7.61176
年	-7.61345
極	-7.61406
知	-7.617
三兩	-7.61826
二錢	-7.61949
爲	-7.61974
桂心	-7.62055
八	-7.6244
門	-7.62543
杏仁	-7.62739
柴胡	-7.62868
一名	-7.63202
手	-7.64073
蟲	-7.64427
屬	-7.64606
新	-7.64653
虛	-7.64836
醫	-7.64986
調	-7.65498
夫	-7.66016
焙	-7.66292
蜜	-7.66575
芍藥	-7.67411
不止	-7.67562
滿	-7.67655
破	-7.67687
丹	-7.68027
久	-7.68724
燒	-7.6895
山	-7.6913
麻黄	-7.69234
除	-7.69906
汗出	-7.70079
三分	-7.70495
麝香	-7.7058
一分	-7.70821
泄	-7.71278
各二	-7.71398
勞	-7.71917
忌	-7.72282
須	-7.72283
類	-7.72564
散治	-7.72849
九	-7.73049
形	-7.73583
細辛	-7.74504
浸	-7.74949
手足	-7.75093
紅	-7.75678
疼痛	-7.75783
驚	-7.76274
右為末	-7.76349
浮	-7.76775
節	-7.76866
易	-7.77135
胎	-7.77216
眼	-7.77562
塗	-7.77794
百	-7.785
益	-7.79042
婦人	-7.79056
連	-7.7923
定	-7.79533
惟	-7.79644
次	-7.79749
變	-7.80069
衇	-7.80216
按	-7.80705
小便	-7.80966
灰	-7.8113
各半	-7.81443
乎	-7.81973
腹	-7.82268
惡	-7.82315
麥門冬	-7.82366
面	-7.82624
將	-7.82768
飲食	-7.82858
真	-7.83044
每	-7.83106
應	-7.83196
勝	-7.83369
桂	-7.83941
川芎	-7.84072
隨	-7.84345
堅	-7.85005
何	-7.85382
逆	-7.85628
傳	-7.85672
各三	-7.85711
醋	-7.8579
筋	-7.858
引	-7.86717
家	-7.86806
兒	-7.86931
絶	-7.87272
枳殻	-7.88227
石膏	-7.88243
搗	-7.88335
來	-7.89164
表	-7.89461
厥	-7.89589
致	-7.8964
損	-7.89664
四肢	-7.90431
鼻	-7.90972
月	-7.91028
桔梗	-7.91951
陳皮	-7.91962
味	-7.91993
之氣	-7.9222
頭痛	-7.92352
厚朴	-7.92771
治之	-7.93006
劑	-7.93211
魚	-7.9343
失	-7.93693
指	-7.93916
症	-7.94134
暴	-7.9421
空心	-7.94259
州	-7.94397
立	-7.94656
腹痛	-7.9471
爛	-7.94993
緩	-7.95367
道	-7.95569
大便	-7.95591
裏	-7.95643
枚	-7.95699
附	-7.96037
惠方	-7.96148
餘	-7.96487
五錢	-7.97052
脾胃	-7.97194
令人	-7.97815
漸	-7.98153
初	-7.98344
四兩	-7.988
粉	-7.98892
既	-8.00286
針	-8.00358
瀉	-8.00497
痘	-8.00516
米	-8.00603
深	-8.00637
滑	-8.00694
黑	-8.00705
理	-8.00735
隂陽	-8.00859
湯治	-8.01004
伏	-8.01082
善	-8.01535
弱	-8.01898
一升	-8.02049
升麻	-8.02209
著	-8.02426
油	-8.02509
貼	-8.0281
蒸	-8.02903
閉	-8.02988
背	-8.02991
好	-8.03078
冬	-8.03326
陽明	-8.03373
少許	-8.03382
且	-8.03441
陽氣	-8.03517
每服	-8.03724
丸治	-8.03846
右為細末	-8.04158
主之	-8.04173
養	-8.04176
莖	-8.04262
五分	-8.04342
膿	-8.04368
轉	-8.04683
瘧	-8.05575
鹽	-8.05649
馬	-8.05941
受	-8.06135
夜	-8.06326
下之	-8.06593
太陽	-8.06699
許	-8.07333
痺	-8.07352
左	-8.07435
仁	-8.0805
體	-8.08053
喘	-8.08193
甘	-8.08266
固	-8.08348
遂	-8.08418
三錢	-8.08604
性	-8.08664
恐	-8.08767
始	-8.08822
㵼	-8.08825
獨	-8.09064
流	-8.09086
薑	-8.091
疳	-8.09331
煩	-8.09465
食之	-8.09904
疼	-8.10048
脹	-8.10257
白芷	-8.10322
所以	-8.10571
邪氣	-8.10796
熬	-8.11024
要	-8.11075
雄黄	-8.11599
仍	-8.11738
謂之	-8.11804
文	-8.12034
衣	-8.12082
强	-8.12085
酸	-8.12356
各一兩	-8.12701
氣血	-8.12849
交	-8.13193
元	-8.13203
注	-8.13273
而不	-8.13405
由	-8.13481
細研	-8.13673
乆	-8.13815
牛膝	-8.14128
煑	-8.14285
春	-8.14291
全	-8.14297
鍼	-8.14312
臍	-8.14364
㸃	-8.14821
良	-8.14943
毛	-8.15489
痢	-8.15561
中風	-8.15852
巴豆	-8.16096
盖	-8.16257
覺	-8.16354
五味子	-8.16604
不足	-8.16754
亦可	-8.16979
脚	-8.17065
字	-8.17758
黄耆	-8.17848
産	-8.18783
效	-8.1892
紫	-8.19425
腸	-8.19474
方見	-8.19593
酒浸	-8.19783
王	-8.19949
輕	-8.20045
桂枝	-8.20079
白茯苓	-8.20083
去蘆	-8.20204
舌	-8.20253
音	-8.20672
夏	-8.20797
而愈	-8.20834
差	-8.209
辛	-8.20915
不通	-8.2128
蛇	-8.21298
太	-8.21336
異	-8.2151
之劑	-8.22136
沉	-8.22173
攻	-8.2218
嘔吐	-8.22284
芎藭	-8.22375
製	-8.22475
用之	-8.22585
血氣	-8.2283
聲	-8.22932
圓	-8.23021
部	-8.23242
温服	-8.23245
湯下	-8.23499
名曰	-8.23896
海	-8.24332
歸	-8.24458
稍	-8.2448
嘔	-8.24847
直	-8.25124
片	-8.25282
滯	-8.25486
二十	-8.25727
治小兒	-8.25841
生地黄	-8.25903
之藥	-8.26324
壯	-8.26357
薄	-8.26443
膽	-8.26481
喜	-8.2657
去滓	-8.2692
齒	-8.26927
之類	-8.27103
溫	-8.27466
膀胱	-8.27672
勿	-8.28225
鬱	-8.2832
丁香	-8.2903
知母	-8.29179
書	-8.29632
留	-8.29858
母	-8.29982
條	-8.30206
陳	-8.30284
臟	-8.3029
澁	-8.30444
近	-8.30569
桃仁	-8.30719
髙	-8.30922
腹中	-8.31097
煨	-8.3112
度	-8.31147
卷	-8.31272
淋	-8.31944
事	-8.32162
腦	-8.32533
碎	-8.32814
秋	-8.3286
卧	-8.33104
退	-8.33115
意	-8.33488
進	-8.33676
角	-8.33703
津液	-8.33851
忽	-8.3405
少陽	-8.34279
收	-8.34876
枳實	-8.35116
居	-8.35313
寸	-8.35725
發汗	-8.3586
葢	-8.35961
木通	-8.36179
豆	-8.36224
傅	-8.36232
脂	-8.36528
濇	-8.36697
腫痛	-8.36805
絡	-8.36811
羌活	-8.37214
者為	-8.37339
癰	-8.37461
運	-8.37578
腹脹	-8.37886
麻	-8.37942
腰	-8.38112
也若	-8.38292
出聖濟	-8.38621
惡寒	-8.38949
胃氣	-8.39062
少隂	-8.39298
𦂳	-8.39523
身熱	-8.39816
烏	-8.40111
去心	-8.40242
蒼术	-8.40304
一切	-8.40757
乳香	-8.40808
禁	-8.40825
老	-8.40901
渇	-8.41303
一枚	-8.41426
弦	-8.4155
膈	-8.42159
厚	-8.42217
集	-8.42242
下利	-8.4236
走	-8.42531
卒	-8.42546
肥	-8.43097
只	-8.43209
力	-8.43242
蘆	-8.43326
宿	-8.436
者宜	-8.43684
蓋	-8.43743
阿膠	-8.43758
果	-8.44132
是也	-8.44241
潤	-8.44247
涎	-8.44447
食後	-8.44876
遲	-8.44885
軟	-8.45163
核	-8.45298
一方	-8.4542
減	-8.45673
黃	-8.45718
所謂	-8.45788
硃砂	-8.45882
嵗	-8.46055
三日	-8.46145
竹	-8.46157
詳	-8.46321
為度	-8.46493
淡	-8.46499
塞	-8.46556
獨活	-8.46698
誤	-8.46769
遇	-8.46774
却	-8.47008
布	-8.47047
張	-8.47414
命	-8.47687
两	-8.47735
故也	-8.47742
各五	-8.4785
効	-8.47865
産後	-8.47911
不知	-8.47941
棗	-8.47955
赤芍藥	-8.48227
南	-8.48362
舉	-8.48367
毎服	-8.48377
漿	-8.48472
犀角	-8.48647
玉	-8.48827
歌	-8.49056
制	-8.49743
向	-8.49886
榮	-8.49973
葱	-8.50194
亦有	-8.50208
聞	-8.50324
猶	-8.50333
㯽榔	-8.50464
等分	-8.50503
驗	-8.50729
食前	-8.51114
瘥	-8.51269
燒灰	-8.51475
投	-8.51524
十二	-8.51752
煩躁	-8.51798
尖	-8.51865
皮膚	-8.51867
女	-8.51964
羊	-8.51981
衰	-8.52108
元氣	-8.52297
肌肉	-8.52368
滑石	-8.52652
順	-8.5273
茶	-8.52972
杵	-8.53008
雞	-8.53045
氏	-8.53114
一日	-8.53171
息	-8.53292
種	-8.53301
大腸	-8.53524
不利	-8.536
李	-8.53712
甲	-8.53852
赤茯苓	-8.53945
感	-8.54009
腹滿	-8.54156
聚	-8.54241
風熱	-8.5426
仲景	-8.54592
痞	-8.54666
悶	-8.54909
苗	-8.55141
焦	-8.55154
五臟	-8.55327
暑	-8.55682
薄荷	-8.55724
最	-8.55936
總録	-8.56141
鬼	-8.56163
狀	-8.56573
欬	-8.56773
葛根	-8.56789
此方	-8.56832
項	-8.5711
黄茋	-8.57113
端	-8.57304
上下	-8.57312
共	-8.57374
濕熱	-8.57446
斤	-8.57453
沸	-8.57489
胸	-8.57501
原	-8.57504
龍	-8.57647
潰	-8.5767
斷	-8.57678
牛	-8.58021
落	-8.58127
坐	-8.58167
粥	-8.58391
右用	-8.58559
語	-8.5869
古	-8.58765
速	-8.59011
經絡	-8.59124
其人	-8.59251
胸中	-8.59298
循	-8.59401
尺	-8.59866
粒	-8.59868
畏	-8.59933
煎服	-8.60063
一服	-8.60233
焉	-8.60267
辨	-8.60318
此藥	-8.60355
三焦	-8.60564
心痛	-8.611
日三	-8.61151
連翹	-8.61156
志	-8.61184
太隂	-8.61395
君	-8.61503
偏	-8.61532
空	-8.61597
疽	-8.617
按之	-8.61793
痒	-8.61898
府	-8.62043
不用	-8.62079
悉	-8.62715
敗	-8.63002
妙	-8.63036
故曰	-8.63145
身體	-8.6317
之病	-8.633
參	-8.63643
飯	-8.64052
下血	-8.64141
大棗	-8.64154
帶	-8.64368
天麻	-8.64462
舊	-8.64653
各等	-8.64785
余	-8.64808
如此	-8.65054
爾	-8.65105
視	-8.65457
不同	-8.6554
風寒	-8.6559
梔子	-8.65707
菜	-8.65772
五藏	-8.65892
時珍曰	-8.65937
首	-8.6599
心腹	-8.66016
焙乾	-8.6606
牙	-8.66157
則為	-8.66169
臭	-8.6626
亂	-8.66408
㪚	-8.66689
飲之	-8.66819
猪	-8.67313
白礬	-8.67593
毎	-8.67648
然後	-8.68078
脱	-8.68443
青皮	-8.6848
東	-8.68892
飛	-8.68942
恵方	-8.6896
光	-8.68963
膝	-8.69154
泥	-8.69222
衝	-8.69471
還	-8.69544
得之	-8.69607
熱毒	-8.69743
半錢	-8.69775
逐	-8.69795
睡	-8.69838
器	-8.69846
前胡	-8.6997
北	-8.69973
液	-8.70084
渴	-8.70493
白芍藥	-8.70506
二分	-8.70525
殺	-8.7069
日三服	-8.70733
漏	-8.71031
經云	-8.71052
闗	-8.71076
覆	-8.71121
砂	-8.71208
生瘡	-8.71262
糞	-8.71286
枯	-8.71437
七日	-8.71605
狂	-8.71709
雜	-8.71744
宣	-8.72069
宜服	-8.72072
思	-8.72073
湯主之	-8.72179
千	-8.72211
主治	-8.72573
作痛	-8.72666
昏	-8.72686
予	-8.7277
倍	-8.72841
濁	-8.72918
牛黄	-8.72944
龍骨	-8.73021
一斤	-8.73064
者以	-8.73074
甚者	-8.73153
之所	-8.73157
救	-8.73453
又云	-8.7352
両	-8.73554
置	-8.73637
再服	-8.73727
俞	-8.73749
傅之	-8.73756
口乾	-8.7382
胞	-8.73886
竅	-8.73921
之證	-8.73982
葱白	-8.74094
透	-8.741
癎	-8.74173
旋	-8.74176
肉桂	-8.74232
病人	-8.74307
橘皮	-8.74466
小便不利	-8.7464
停	-8.74949
逺志	-8.74989
早	-8.75331
臟腑	-8.75348
人参	-8.75499
喫	-8.756
之間	-8.7561
也故	-8.75674
心下	-8.75842
以為	-8.75921
麩炒	-8.7601
孔	-8.76031
凉	-8.76194
脚氣	-8.76301
五味	-8.76399
唇	-8.76512
其氣	-8.76581
銀	-8.76729
箇	-8.76782
磨	-8.76788
蘇	-8.76945
枝	-8.7703
即愈	-8.7714
其病	-8.77299
為細末	-8.77301
自汗	-8.77343
小腸	-8.77397
華	-8.77487
殻	-8.77564
短	-8.77635
塗之	-8.77675
降	-8.77733
荆芥	-8.77813
地黄	-8.77863
疹	-8.7789
沈	-8.7792
咽	-8.78171
厥隂	-8.7824
腸胃	-8.78349
緊	-8.78491
之後	-8.78796
地骨皮	-8.78823
風邪	-8.78826
録	-8.7883
屎	-8.78866
㑹	-8.78888
取汁	-8.78988
尤	-8.78993
擣	-8.79063
霍亂	-8.79492
關	-8.7955
已上	-8.79587
硬	-8.79683
之法	-8.79817
臨	-8.79835
澀	-8.79854
麵	-8.79942
者死	-8.79987
臂	-8.80045
了	-8.80313
腰痛	-8.80322
咳𠻳	-8.80357
素	-8.80506
量	-8.8056
客	-8.80619
大小	-8.80776
灌	-8.8079
篇	-8.81001
肩	-8.81012
艾	-8.81102
髪	-8.81228
𫝊	-8.81509
澤	-8.81553
榖	-8.81709
喉	-8.81905
陷	-8.8195
治法	-8.82191
任	-8.82192
終	-8.82196
用藥	-8.82198
廣	-8.82207
可以	-8.82355
瘀血	-8.82415
尚	-8.82422
經曰	-8.8269
胃中	-8.82692
無力	-8.82957
右㕮咀	-8.82988
者是	-8.83074
麫	-8.83196
沉香	-8.83283
三十	-8.83417
鷄	-8.83455
勢	-8.83526
靈	-8.83569
水煎	-8.83572
公	-8.83645
壅	-8.83647
問	-8.83711
無汗	-8.83767
茯神	-8.83887
胡	-8.84025
論曰	-8.84207
硫黄	-8.84221
被	-8.84303
小腹	-8.84321
烏梅	-8.84342
病者	-8.84485
世	-8.84639
呼	-8.84661
佳	-8.84751
取出	-8.84898
凝	-8.84902
脫	-8.84922
萬	-8.84931
歲	-8.85049
水煎服	-8.85118
助	-8.85419
哉	-8.85421
羅	-8.85452
吐血	-8.85483
所致	-8.85485
犯	-8.85532
功	-8.85625
待	-8.85655
疝	-8.85796
遺	-8.85836
右以	-8.86009
酒服	-8.86029
綿	-8.86154
鳴	-8.86178
周	-8.86237
宜用	-8.86404
煩熱	-8.86563
薑汁	-8.86566
氣虚	-8.86569
臣	-8.86619
秘	-8.86904
熟地黄	-8.86946
貝母	-8.86995
銅	-8.8713
炒各	-8.87286
躁	-8.87449
露	-8.87845
椒	-8.87945
先以	-8.88092
本經	-8.88219
頓	-8.88449
依	-8.88614
尾	-8.88644
怒	-8.88654
斑	-8.88977
将	-8.88995
鬚	-8.89095
而為	-8.89102
乗	-8.89258
入藥	-8.897
朝	-8.89756
膜	-8.89801
盞	-8.89831
紙	-8.89929
煩悶	-8.8995
有餘	-8.89999
煆	-8.90157
具	-8.90187
咽喉	-8.90319
川	-8.9041
桑白皮	-8.90487
穀	-8.90671
陳橘皮	-8.90862
一丸	-8.90871
各半兩	-8.91083
折	-8.91114
無時	-8.91169
補之	-8.91205
都	-8.91364
對	-8.91516
有熱	-8.91516
兩半	-8.91627
龍腦	-8.91649
本草	-8.91654
筋骨	-8.91776
困	-8.91848
竭	-8.91888
先用	-8.91935
术	-8.9194
巳	-8.91943
肌	-8.92028
治婦人	-8.92043
痔	-8.92068
煖	-8.92097
𢷬	-8.92123
續	-8.92228
害	-8.92328
者有	-8.92349
錢半	-8.92561
桃	-8.92564
千金	-8.9263
麥	-8.92879
研細	-8.92886
者此	-8.92984
痿	-8.93021
活	-8.932
烏頭	-8.93368
出血	-8.93395
糯米	-8.93528
表裏	-8.93618
皮臍	-8.93623
唾	-8.93657
樹	-8.93885
不行	-8.93986
併	-8.94005
採	-8.94006
不出	-8.94026
炙各	-8.94133
癰疽	-8.94154
水銀	-8.94313
二升	-8.94368
上氣	-8.94587
米飲下	-8.94875
妄	-8.94903
甚則	-8.94995
診	-8.9504
聖	-8.95515
頻	-8.95528
脹滿	-8.95595
看	-8.95806
而成	-8.95813
絲	-8.95869
左右	-8.95876
蒜	-8.9597
惡瘡	-8.96255
又有	-8.96314
牡蠣	-8.96354
珍	-8.9642
不已	-8.9652
嗽	-8.96552
血虚	-8.96554
輕粉	-8.96645
榮衛	-8.96747
逺	-8.96825
以水	-8.96846
遍身	-8.96846
頂	-8.96869
疑	-8.96887
一兩半	-8.971
短氣	-8.9717
上焦	-8.97171
加減	-8.97416
含	-8.97487
洩	-8.97606
者皆	-8.97648
毒氣	-8.97654
保	-8.97675
餅	-8.97711
男子	-8.97762
治傷寒	-8.97809
亦得	-8.97953
十四	-8.98122
三升	-8.98297
氣逆	-8.98382
位	-8.98451
唐	-8.98572
㣲炒	-8.98579
不食	-8.98664
下焦	-8.98697
漬	-8.98884
减	-8.98956
曲	-8.9896
尿	-8.98983
虚實	-8.99012
溢	-8.99082
西	-8.99168
者用	-8.99333
鹹	-8.99363
五兩	-8.99381
危	-8.99479
象	-8.99512
横	-8.99553
屑	-8.99557
不及	-8.996
芒硝	-8.9979
鼈甲	-8.99851
求	-9.00043
鐵	-9.00237
義	-9.0032
睛	-9.00387
塊	-9.00613
出本	-9.00634
癖	-9.0074
之時	-9.00804
常服	-9.00858
代	-9.0101
𠻳	-9.01589
酒下	-9.01643
裹	-9.01727
乘	-9.01978
蠟	-9.0225
翳	-9.02444
以致	-9.02446
五十	-9.02463
他	-9.02969
腐	-9.02989
不安	-9.03025
積聚	-9.03143
脊	-9.03187
充	-9.03662
二味	-9.03688
總	-9.03951
心煩	-9.04198
珠	-9.04246
精神	-9.04373
濟	-9.04543
女子	-9.04595
口中	-9.04661
髮	-9.04703
説	-9.04706
雨	-9.04906
丹砂	-9.04939
嘔逆	-9.0496
歳	-9.0499
癢	-9.0507
齊	-9.052
三月	-9.05222
約	-9.0524
莫	-9.05263
也其	-9.05334
夾	-9.05336
沙	-9.05386
▁(	-9.05406
守	-9.05409
野	-9.0541
胸膈	-9.05413
藿香	-9.0546
糊	-9.05462
一合	-9.05528
咳嗽	-9.05547
治風	-9.06079
卷中	-9.06139
丁	-9.06276
不解	-9.06285
豉	-9.06479
以上	-9.06501
各四	-9.06673
存	-9.06699
膠	-9.0671
承	-9.06786
信	-9.06863
竹葉	-9.07065
微炒	-9.07097
属	-9.07106
勿令	-9.07154
為主	-9.07284
淫	-9.07551
内外	-9.07744
倒	-9.07812
隔	-9.07856
瘦	-9.07869
澤瀉	-9.07872
茴香	-9.08008
着	-9.08044
不過	-9.08165
潮熱	-9.08356
風濕	-9.08361
下痢	-9.085
越	-9.0854
淨	-9.08549
苦參	-9.08558
酥	-9.08626
車前子	-9.08781
導	-9.08844
期	-9.09035
婦	-9.091
推	-9.09171
刀	-9.0922
一二	-9.09342
患處	-9.0952
木𤓰	-9.09554
嚼	-9.09558
彼	-9.09594
肚	-9.0965
黄丹	-9.09684
赤石脂	-9.09693
壯熱	-9.09719
旦	-9.0977
之人	-9.09854
乍	-9.09882
者必	-9.09931
𤓰	-9.10003
各一錢	-9.10063
生地	-9.1013
遍	-9.10297
不治	-9.10329
杜仲	-9.10332
服藥	-9.10412
雲	-9.10458
湏	-9.10489
觀	-9.10571
来	-9.10665
白附子	-9.10687
所傷	-9.10708
解毒	-9.10801
惡風	-9.10933
此為	-9.11032
攪	-9.11118
殊	-9.11258
強	-9.11492
暖	-9.11558
膿血	-9.11687
耗	-9.11754
内熱	-9.11825
太過	-9.11924
亡	-9.12
摩	-9.1204
人之	-9.12333
中有	-9.12444
士	-9.12525
隂氣	-9.12557
神效	-9.12758
不能食	-9.12826
牡丹皮	-9.12868
不下	-9.13103
津	-9.13131
不宜	-9.13153
者也	-9.13223
星	-9.13377
離	-9.13726
就	-9.13745
衂	-9.1388
天南星	-9.1392
生用	-9.13985
涼	-9.14296
洪	-9.14499
納	-9.14541
煎湯	-9.14594
諸藥	-9.14633
去白	-9.14642
俗	-9.14727
浴	-9.14789
虚寒	-9.1488
不拘時候	-9.14941
專	-9.14953
或因	-9.15011
大熱	-9.15092
湯洗	-9.15103
吹	-9.15149
驚悸	-9.15218
檳榔	-9.15509
去粗皮	-9.15513
琥珀	-9.15526
例	-9.15621
井	-9.15755
濡	-9.15767
溺	-9.1582
大者	-9.15859
良方	-9.15927
瘡口	-9.16047
紅花	-9.16079
高	-9.16104
藤	-9.16144
即止	-9.16276
金方	-9.16288
石斛	-9.1632
延	-9.16541
比	-9.16594
說	-9.16667
不調	-9.16822
臓	-9.17057
十五	-9.17059
赤白	-9.17173
去皮尖	-9.17208
粗	-9.17234
熱病	-9.17235
自然	-9.17247
觧	-9.17247
懸	-9.17287
豈	-9.17331
寸口	-9.17338
病也	-9.17392
蠱	-9.1741
嘗	-9.17436
憂	-9.17545
縮	-9.17589
五苓散	-9.17697
熱則	-9.17712
施	-9.17767
縱	-9.17787
同煎	-9.17893
三寸	-9.17943
隂乾	-9.17958
去苗	-9.17973
不拘時	-9.1799
耳聾	-9.17994
附方	-9.18013
一盞	-9.18022
封	-9.18117
也然	-9.18359
青黛	-9.18361
水氣	-9.18411
空心服	-9.18531
四十	-9.18731
味苦	-9.18832
黄色	-9.18908
男	-9.18939
竹瀝	-9.18973
十日	-9.19232
炙甘草	-9.19352
其脉	-9.19392
証	-9.19442
味甘	-9.1947
稱	-9.19533
頸	-9.19535
移	-9.19542
疎	-9.19625
斯	-9.19888
又曰	-9.19939
益氣	-9.19941
羚羊角	-9.19998
一寸	-9.20116
者加	-9.20203
審	-9.20207
貫	-9.20218
取之	-9.20263
桂枝湯	-9.20353
滴	-9.20409
正氣	-9.20487
飲水	-9.205
四時	-9.2051
皂角	-9.20664
持	-9.20696
一箇	-9.20746
設	-9.20851
菖蒲	-9.20899
𤣥參	-9.21173
下部	-9.21323
出千	-9.21365
為散	-9.21423
湯調下	-9.2167
國	-9.21696
澤㵼	-9.21722
匕	-9.21725
適	-9.21786
脇	-9.21954
熱服	-9.21996
髓	-9.22071
内傷	-9.22119
山藥	-9.22174
桑	-9.22195
敷	-9.22264
衛	-9.22329
臍下	-9.22427
五日	-9.22459
狀如	-9.22508
衆	-9.22568
咳	-9.22654
耶	-9.22759
蒲黄	-9.22835
時時	-9.23024
快	-9.23076
半升	-9.23098
曰此	-9.23239
皂莢	-9.23527
車	-9.23574
稀	-9.23673
者亦	-9.24094
天門冬	-9.24126
辟	-9.24134
虚則	-9.24208
面赤	-9.24233
川大黄	-9.24283
冷氣	-9.24334
在内	-9.24444
治一切	-9.24609
病在	-9.24884
十丸	-9.24974
痰飲	-9.25101
膚	-9.2514
宻	-9.25156
痙	-9.25197
載	-9.25283
灸之	-9.2534
一劑	-9.25428
師	-9.25445
一宿	-9.25511
湯浸	-9.25543
已上各	-9.25555
肺氣	-9.25565
煎至	-9.25618
單	-9.25632
大抵	-9.25651
官	-9.25818
挾	-9.25825
備	-9.25866
雞子	-9.25869
湯方	-9.25888
霜	-9.25922
山梔	-9.26167
太陽病	-9.26259
泉	-9.26318
頭疼	-9.26418
腿	-9.26433
脾土	-9.26464
南星	-9.26466
是以	-9.26529
利小便	-9.266
識	-9.26664
孫	-9.26689
肘	-9.26727
别研	-9.26828
陰陽	-9.26839
熏	-9.26975
無所	-9.27107
虚弱	-9.27118
雄	-9.2729
扵	-9.27351
仙	-9.27418
美	-9.27461
記	-9.27463
疏	-9.27543
虎	-9.27643
數日	-9.27789
裂	-9.27936
脾氣	-9.2815
腎氣	-9.28152
搐	-9.28167
蜀	-9.28271
地榆	-9.28344
申	-9.2844
口噤	-9.28444
塩	-9.28449
少腹	-9.28545
不仁	-9.28571
之中	-9.28581
胷	-9.28644
吉	-9.28688
防己	-9.28748
等證	-9.2876
半斤	-9.28794
瘀	-9.28843
明目	-9.28845
散治小兒	-9.28861
煉	-9.28864
腑	-9.28932
百日	-9.28961
調下	-9.28984
支	-9.28996
觸	-9.28999
赤小豆	-9.29072
八分	-9.29078
肝經	-9.29129
苓	-9.29135
下氣	-9.29189
無毒	-9.29234
五六	-9.2926
麥冬	-9.29482
之脉	-9.29592
日二	-9.29664
五合	-9.2974
察	-9.29793
一人	-9.29821
為丸	-9.29828
不消	-9.29928
不痛	-9.30014
過多	-9.3009
二寸	-9.30115
香附	-9.3014
夢	-9.30143
虗	-9.30245
蜀椒	-9.30246
有所	-9.30342
之邪	-9.30354
隂虚	-9.30483
而後	-9.30626
紫蘇	-9.30652
營	-9.30656
分三服	-9.30675
碗	-9.30744
加味	-9.30753
穴也	-9.3084
泡	-9.30862
鼻中	-9.30896
足陽明	-9.30907
欽定四庫全書	-9.30935
寳	-9.31232
瘕	-9.31306
者乃	-9.31318
右二味	-9.31545
鹿茸	-9.31594
松	-9.31599
心中	-9.31619
楊	-9.31625
另	-9.31688
打	-9.31697
江	-9.31773
熱氣	-9.31779
頭面	-9.31944
痰涎	-9.32037
熨	-9.32073
礬	-9.32183
淺	-9.32397
拘急	-9.32528
圖	-9.32564
畧	-9.3264
四分	-9.32768
姙娠	-9.32777
冝	-9.32823
徐	-9.32843
眉	-9.32942
每用	-9.32962
東垣	-9.33089
滓	-9.3312
二劑	-9.33172
達	-9.33199
癰腫	-9.33201
墜	-9.33224
為病	-9.33254
三陽	-9.33311
三四	-9.33348
腎水	-9.33412
換	-9.33525
侵	-9.33663
柔	-9.33698
酸棗仁	-9.33733
頓服	-9.33854
七分	-9.33916
心火	-9.33958
黄蘗	-9.33986
此證	-9.34006
一方用	-9.34167
膩粉	-9.34171
梔子仁	-9.34252
機	-9.343
慎	-9.34334
墨	-9.34347
房	-9.34405
芫花	-9.3442
午	-9.3446
辰	-9.34525
一種	-9.34582
斗	-9.34591
采	-9.34652
百病	-9.34713
飲酒	-9.34794
而安	-9.34843
净	-9.34855
情	-9.35046
甘遂	-9.35062
實熱	-9.35236
去粗	-9.35316
側	-9.35344
奪	-9.35375
佐以	-9.35375
三味	-9.35418
四物湯	-9.35436
蠶	-9.35608
葛	-9.35681
宗	-9.35701
噦	-9.35804
至於	-9.35858
猪苓	-9.35859
食前服	-9.35894
住	-9.36011
方治	-9.36018
狗	-9.36146
不計時候	-9.36214
大如	-9.36266
白芍	-9.36328
健	-9.36473
各等分	-9.36494
粳米	-9.36621
寒邪	-9.36692
司	-9.36708
肌膚	-9.36794
朱	-9.36806
官桂	-9.3684
訖	-9.36862
不應	-9.37006
濃	-9.3708
一字	-9.37139
不和	-9.37155
増	-9.37363
實者	-9.37381
傷風	-9.37523
各二兩	-9.37663
放	-9.37769
二十丸	-9.37778
風冷	-9.37817
燈心	-9.37836
貴	-9.37964
不見	-9.38015
朴硝	-9.38025
戒	-9.38065
則愈	-9.38143
當以	-9.38174
方用	-9.38269
吞	-9.38347
惡血	-9.38668
料	-9.38673
河	-9.38676
溫服	-9.38783
集解	-9.39064
穢	-9.39082
也又	-9.3917
右三味	-9.39204
胸滿	-9.39225
每服三錢	-9.39282
脛	-9.3941
結胸	-9.39485
温酒下	-9.39839
肉蓯蓉	-9.39965
少氣	-9.40044
𤣥	-9.40062
竒	-9.40092
頰	-9.40136
靣	-9.40392
㕮咀	-9.40598
一婦人	-9.40631
腹内	-9.40661
個	-9.40689
相似	-9.40822
多少	-9.40854
尅	-9.40902
之則	-9.40961
水腫	-9.41039
水一盞	-9.41059
發於	-9.41179
噎	-9.41248
而生	-9.41404
羗活	-9.41482
也此	-9.41553
薛	-9.41634
者當	-9.4176
劇	-9.4176
臥	-9.41788
小柴胡湯	-9.41918
脉浮	-9.41937
起於	-9.41962
而反	-9.41976
虚熱	-9.42066
拌	-9.42132
研末	-9.42265
有毒	-9.42311
積熱	-9.42377
脇下	-9.42407
亁	-9.42448
吸	-9.42495
者謂	-9.42556
悲	-9.42645
去黒	-9.42706
為之	-9.42715
雀	-9.42811
包	-9.42887
底	-9.43025
騐	-9.43216
浮腫	-9.4332
殺人	-9.43384
林	-9.43471
釋名	-9.43536
細切	-9.43614
自愈	-9.43652
鼠	-9.43672
者則	-9.43819
百合	-9.43863
仲	-9.43919
生於	-9.43987
乙	-9.43992
在上	-9.44116
上行	-9.44126
銖	-9.44207
而已	-9.44262
大豆	-9.44269
疔	-9.44365
䧟	-9.44396
藁本	-9.44413
也用	-9.44425
荆	-9.44479
不瘥	-9.44497
豬	-9.44608
五升	-9.4462
鮮	-9.4465
調理	-9.44668
譫語	-9.44723
吐逆	-9.44749
宫	-9.44753
去皮臍	-9.44758
粟	-9.44781
悸	-9.45068
蕪荑	-9.45137
水中	-9.45256
亦不	-9.45446
不思飲食	-9.45447
與之	-9.45491
况	-9.45548
取其	-9.45702
皮毛	-9.45824
腠理	-9.45844
滋	-9.45877
淚	-9.45951
補中益氣湯	-9.45971
羸瘦	-9.45983
而死	-9.46028
治産後	-9.46142
而痛	-9.46159
川烏	-9.46222
特	-9.46246
臨卧	-9.46457
雪	-9.46501
蜈蚣	-9.46556
旺	-9.46582
静	-9.4662
細剉	-9.46749
三服	-9.468
傍	-9.46828
喘急	-9.46831
拭	-9.46923
管	-9.46937
䜴	-9.46946
偶	-9.46967
虚損	-9.47143
之以	-9.47197
今人	-9.47213
邊	-9.47276
又以	-9.47395
朱砂	-9.47397
眥	-9.47451
麩	-9.47461
蝕	-9.47474
重者	-9.47564
己	-9.47602
卵	-9.47617
苖	-9.47642
肢體	-9.47745
去穰	-9.478
也凡	-9.47849
一處	-9.4785
寒氣	-9.47866
蒼	-9.47869
蓄	-9.4787
又療	-9.47961
久服	-9.47969
囊	-9.48062
抑	-9.48173
另研	-9.48311
科	-9.48314
藥也	-9.48325
繫	-9.48341
和勻	-9.48369
紫苑	-9.48376
収	-9.4852
喉中	-9.48531
温酒調下	-9.48589
二三	-9.48648
在裏	-9.48724
浄	-9.48793
全蝎	-9.48866
邪熱	-9.48915
能食	-9.48936
五靈脂	-9.49023
唯	-9.49053
煅	-9.49113
癥	-9.4916
更以	-9.49172
以生	-9.49266
掌	-9.4935
厥逆	-9.49389
試	-9.49393
䑕	-9.49436
吐下	-9.49645
錄	-9.49667
中焦	-9.49713
續斷	-9.49759
梅	-9.49788
神麯	-9.49798
稠	-9.49802
去毛	-9.49811
扶	-9.49817
苦寒	-9.49861
生薑汁	-9.50023
虧	-9.50044
杏	-9.5012
辰砂	-9.50243
貼之	-9.50284
秤	-9.50373
二合	-9.50448
癬	-9.50487
五月	-9.50592
陸	-9.50664
每服二錢	-9.50704
發散	-9.50708
寒濕	-9.50919
一小兒	-9.50928
猪脂	-9.50936
陵	-9.50972
喉痺	-9.50982
發明	-9.51112
訶子	-9.51212
痂	-9.51283
眩	-9.51349
赤色	-9.51374
日夜	-9.51393
泄瀉	-9.51395
一两	-9.514
四錢	-9.51429
味辛	-9.51476
入於	-9.51501
徹	-9.51529
徳	-9.51563
屈	-9.51574
痩	-9.51607
麴	-9.51636
刮	-9.51637
純	-9.51672
之物	-9.51762
蠱毒	-9.51807
状	-9.51821
不定	-9.51899
可用	-9.519
旁	-9.52001
欝	-9.52081
射干	-9.52128
路	-9.52192
靨	-9.52205
室	-9.52313
也今	-9.52376
綿裹	-9.52468
十八	-9.52556
我	-9.52562
之症	-9.52578
春夏	-9.52643
紫草	-9.52714
後方	-9.52742
蜂	-9.5275
其證	-9.52763
菊花	-9.52772
學	-9.52812
咬	-9.52915
川椒	-9.53013
五丸	-9.53043
斂	-9.53062
醫者	-9.53069
三合	-9.53121
又名	-9.53191
六分	-9.53249
黄栢	-9.53257
金瘡	-9.53265
天雄	-9.53293
尸	-9.53326
吾	-9.53342
醉	-9.53364
虚勞	-9.53398
白蜜	-9.53421
吳	-9.53471
犀角屑	-9.53561
舍	-9.53568
之狀	-9.53581
月餘	-9.53689
艾葉	-9.53775
炮去	-9.53799
上攻	-9.5392
伸	-9.53958
脾虚	-9.54056
匙	-9.54062
二月	-9.54073
十六	-9.54087
灌之	-9.54177
為陽	-9.54208
胷中	-9.5428
右為散	-9.54302
而無	-9.54337
䕶	-9.54364
三稜	-9.54379
附論	-9.54404
容	-9.54428
一月	-9.54436
雙	-9.54445
寧	-9.54492
空腹	-9.54546
熟地	-9.54619
促	-9.54626
不愈	-9.54664
止痛	-9.54716
少陰	-9.54728
欬嗽	-9.54764
七枚	-9.54951
頗	-9.54953
寒水石	-9.55019
口瘡	-9.55081
夏月	-9.55181
水調	-9.55266
目赤	-9.55273
右件	-9.553
煩渴	-9.55326
也宜	-9.55393
二穴	-9.55432
砂仁	-9.55502
良久	-9.5555
初起	-9.55559
炒令	-9.55582
綱	-9.55586
藍	-9.55588
相搏	-9.55662
磁石	-9.55676
添	-9.557
小麥	-9.55785
瓦	-9.55803
天地	-9.55846
氣之	-9.55858
煎至六分去滓	-9.55913
在表	-9.55983
蘆頭	-9.56029
子大	-9.56084
防	-9.56126
橘	-9.5617
精氣	-9.56184
削	-9.56199
鳥	-9.56229
日再	-9.56337
入腹	-9.56363
不差	-9.56507
大寒	-9.56519
不效	-9.56585
冷水	-9.5666
氣不足	-9.56708
冷熱	-9.56735
丸服	-9.56736
垂	-9.56739
薏苡仁	-9.56801
羊肉	-9.5684
每日	-9.56946
永	-9.56977
肝木	-9.57009
不復	-9.57023
不化	-9.57056
鞕	-9.5717
古人	-9.57179
煩渇	-9.57269
加减	-9.57331
六兩	-9.57405
腕	-9.57445
壮	-9.5754
以其	-9.57541
粘	-9.57548
浸一宿	-9.57604
荆芥穗	-9.5762
五色	-9.57704
飽	-9.57706
乏	-9.57812
畢	-9.57895
橘紅	-9.57964
乾地黄	-9.57991
水浸	-9.58121
截	-9.58177
牽牛	-9.58191
數劑	-9.58198
嚥	-9.58199
足太陽	-9.5821
鎊	-9.58289
須臾	-9.58427
五十丸	-9.58429
第一	-9.58554
風毒	-9.58558
虚而	-9.58607
寒則	-9.5867
腎虚	-9.58727
疰	-9.58728
立效	-9.58783
之若	-9.58841
刻	-9.58877
溲	-9.58885
桑根白皮	-9.58939
受病	-9.59044
風氣	-9.59047
谷	-9.59091
中氣	-9.59172
佐	-9.59193
顧	-9.59319
瘰癧	-9.59359
腸鳴	-9.59416
去根	-9.59449
知其	-9.59463
酒調下	-9.59466
童便	-9.5951
氏方	-9.59524
堪	-9.59606
龜	-9.59662
傾	-9.59671
血脉	-9.59731
身重	-9.59798
吐之	-9.59826
七次	-9.5983
四五	-9.59856
眞	-9.59882
慢火	-9.59901
觔	-9.59905
不生	-9.5992
乳汁	-9.59934
干	-9.59944
切焙	-9.59995
恍惚	-9.6006
按此	-9.60061
去節	-9.60114
不散	-9.60216
一方無	-9.60222
蔵	-9.60256
葶藶	-9.6026
則氣	-9.60276
或用	-9.60443
白色	-9.60496
染	-9.60533
術	-9.60542
老人	-9.60595
欬逆	-9.60626
天行	-9.60713
泄㵼	-9.60828
益甚	-9.60838
笑	-9.60921
縫	-9.60979
熱甚	-9.61043
有汗	-9.61079
麻油	-9.61089
紫色	-9.61132
調和	-9.61162
成膏	-9.61252
去殻	-9.61282
剉碎	-9.61339
前後	-9.61361
暈	-9.61404
鹽湯	-9.61446
􁀙	-9.61479
一半	-9.61492
烟	-9.6151
寅	-9.61526
㣲黄	-9.61597
内經	-9.61614
兩手	-9.61715
欲死	-9.61735
十五丸	-9.61819
蘸	-9.61834
没藥	-9.61999
回	-9.62001
生乾地黄	-9.62031
以此	-9.62068
漿水	-9.6209
孕	-9.62131
線	-9.62161
吳茱茰	-9.62228
宋	-9.62372
擦	-9.62373
壅滯	-9.62411
去鬚	-9.62428
靜	-9.62486
羸	-9.62515
骨髓	-9.62582
煙	-9.62711
之下	-9.62744
食後服	-9.62811
屋	-9.62818
二丸	-9.62855
鐡	-9.6289
氣味	-9.62952
四味	-9.62998
消渴	-9.63014
香附子	-9.63045
工	-9.63211
雖有	-9.63264
三十丸	-9.63308
痛不可忍	-9.63327
品	-9.63372
半盞	-9.63405
决	-9.63428
葉似	-9.63441
硇砂	-9.63468
犬	-9.63546
十枚	-9.6355
股	-9.63563
乾葛	-9.63597
一百	-9.63603
脈浮	-9.63648
疫	-9.63659
此皆	-9.63674
真氣	-9.63736
右為末煉蜜	-9.63803
輕重	-9.63834
不欲	-9.6393
腧	-9.63949
煩滿	-9.63983
調服	-9.64013
脣	-9.6402
密	-9.6402
實則	-9.64022
嫩	-9.64039
心神	-9.64059
陷中	-9.64143
送	-9.64153
柴	-9.64172
三五	-9.64226
未盡	-9.64257
冒	-9.64283
丸治小兒	-9.64324
漢	-9.64341
面色	-9.6439
標	-9.64561
萆薢	-9.64617
心肺	-9.64762
假	-9.64769
閉塞	-9.64785
乾嘔	-9.64825
吐利	-9.64948
内經曰	-9.6498
攣	-9.65032
化痰	-9.65195
或有	-9.6521
米飲	-9.6523
法當	-9.65256
何以	-9.65322
等藥	-9.6537
炭	-9.65385
黄疸	-9.65461
難治	-9.6556
槐	-9.65562
如前	-9.65576
清熱	-9.65662
芎	-9.65669
惡心	-9.65697
尋	-9.65707
之功	-9.65737
到	-9.65798
接	-9.65856
不必	-9.65888
啼	-9.65959
帶下	-9.65976
丹參	-9.66011
氣滯	-9.66021
之候	-9.66024
過度	-9.6603
是謂	-9.66102
墮	-9.66194
瀝	-9.66205
理中湯	-9.66224
麄	-9.66237
謹	-9.66258
肝腎	-9.66392
膏治	-9.66512
為寒	-9.66543
黒色	-9.66576
熱而	-9.6661
洗之	-9.66645
解之	-9.66704
七錢	-9.66769
格	-9.66806
劉	-9.66871
生肌	-9.66878
瘡上	-9.66969
暴乾	-9.66978
白殭蠶	-9.67001
盆	-9.6701
温酒	-9.67018
亦治	-9.67066
禀	-9.67078
證也	-9.67097
計	-9.67199
煉蜜	-9.6726
胡粉	-9.67265
鬰	-9.67306
而復	-9.67327
疸	-9.67349
漆	-9.67357
飲子	-9.67367
瘤	-9.67396
勻	-9.67434
涕	-9.67462
三丸	-9.67483
垢	-9.67579
各七	-9.67585
虚者	-9.6759
郁李仁	-9.67691
去核	-9.67712
倦	-9.67715
轉筋	-9.67751
蔓荆子	-9.6781
飢	-9.67965
怯	-9.67994
增	-9.6802
輸	-9.68036
氣不	-9.68072
錫	-9.68139
去苖	-9.68167
隂中	-9.68169
水一盞半	-9.68171
瘡瘍	-9.68233
饑	-9.68347
痊	-9.68437
滲	-9.68478
其中	-9.68491
陽虚	-9.68511
一味	-9.68512
礬石	-9.68698
陶	-9.68712
經脉	-9.6873
乳食	-9.68753
多食	-9.68758
為君	-9.68834
者即	-9.68848
小便利	-9.6886
痓	-9.68881
梁	-9.68929
互	-9.68948
十全大補湯	-9.68972
每服一丸	-9.69059
民	-9.69069
攝	-9.69213
羽	-9.69247
目眩	-9.69274
痘瘡	-9.69295
序	-9.69319
之理	-9.69402
盤	-9.69403
赤腫	-9.69475
灸三壯	-9.6948
六月	-9.69557
酢	-9.69583
二枚	-9.69615
否	-9.6966
右四味	-9.69688
松脂	-9.69714
夕	-9.69769
煎至七分去滓	-9.69778
曽	-9.69842
帝曰	-9.69908
每服一錢	-9.69985
虧損	-9.69986
乾漆	-9.70034
韭	-9.7004
者是也	-9.70278
又用	-9.7028
晒乾	-9.7044
女人	-9.70464
驚癎	-9.70481
疥	-9.70521
血熱	-9.70525
濃煎	-9.7054
武	-9.70553
吐瀉	-9.70565
者名	-9.70566
立愈	-9.70631
心氣	-9.70689
秦芁	-9.70712
素問	-9.70738
骨節	-9.70744
麻黄湯	-9.70753
為熱	-9.70806
藥末	-9.70858
穿	-9.70916
蒲	-9.70996
在下	-9.71006
皆有	-9.7112
炒去	-9.71126
米醋	-9.7113
細末	-9.71132
執	-9.7115
秋冬	-9.71192
梗	-9.7122
生薑三片	-9.71225
頭眩	-9.7139
頭目	-9.71405
畜	-9.71408
褁	-9.71461
冬月	-9.71509
錯	-9.71511
白虎湯	-9.71565
米飲調下	-9.71632
酒炒	-9.71667
氷	-9.7172
二服	-9.71725
外感	-9.71741
熱者	-9.71798
鹿	-9.71815
色白	-9.7182
七情	-9.71851
炒黄	-9.71868
水二盞	-9.71872
澄	-9.71908
甜	-9.71929
小便不通	-9.71948
相和	-9.71958
呼吸	-9.72003
一大	-9.72009
前藥	-9.72222
免	-9.72231
芩	-9.72276
振	-9.72286
衛氣	-9.72302
誠	-9.72324
丸如	-9.72473
陽明病	-9.72489
丹皮	-9.72529
此乃	-9.72537
如是	-9.72545
瘻	-9.7262
擊	-9.72661
第二	-9.72731
二日	-9.7289
丹溪	-9.72938
避	-9.72993
獸	-9.73006
五行	-9.73037
晝	-9.73043
熟乾地黄	-9.73046
南方	-9.73066
故名	-9.73135
故令	-9.73155
其所	-9.73159
顆	-9.73172
五寸	-9.73319
政	-9.73335
晚	-9.73348
諸病	-9.73353
圖經曰	-9.73394
一片	-9.7342
自利	-9.73427
縁	-9.7346
泣	-9.73462
故以	-9.73514
初生	-9.73549
胡椒	-9.73617
夀	-9.73714
帛	-9.73734
第三	-9.73735
鼻塞	-9.73779
暗	-9.7378
驚風	-9.73859
姜	-9.73903
寛	-9.73904
隱	-9.73906
頭風	-9.7401
三隂	-9.74059
魂	-9.74134
源	-9.74134
足少隂	-9.74172
絹	-9.74192
剛	-9.74214
之屬	-9.7425
以手	-9.7453
預	-9.74531
一塊	-9.74537
枕	-9.74566
腰脚	-9.74584
晩	-9.746
古方	-9.74611
者其	-9.74616
釋	-9.74616
下後	-9.74792
慢	-9.74817
湯浸去	-9.74876
八月	-9.74885
不盡	-9.74892
十九	-9.74897
相摶	-9.75027
出於	-9.75062
慮	-9.75163
温中	-9.75183
鼓	-9.7525
此病	-9.75283
每服三錢水一盞	-9.75315
生姜	-9.75453
兩脇	-9.75457
研各	-9.7548
此是	-9.75506
肉豆蔲	-9.75538
硝	-9.75558
挺	-9.75724
不問	-9.75747
酉	-9.75776
其毒	-9.75807
里	-9.75848
之意	-9.75874
索	-9.75906
石灰	-9.75938
右除	-9.75958
吳茱萸	-9.76141
舒	-9.76245
貯	-9.76338
纒	-9.76341
吐㵼	-9.7636
日二服	-9.76418
於内	-9.76472
下行	-9.76476
汗之	-9.76527
微黄	-9.76529
於外	-9.76556
更加	-9.76565
者可	-9.76568
不時	-9.76604
右搗篩	-9.76614
暮	-9.76618
四物	-9.76719
診之	-9.76759
川升麻	-9.7676
教	-9.76812
用此	-9.76823
方寸匕	-9.76864
係	-9.76923
面目	-9.77006
煎取	-9.77021
麻子	-9.77022
癥瘕	-9.77024
敷之	-9.77034
外邪	-9.77052
藜蘆	-9.77096
胡黄連	-9.77127
鍾	-9.77145
搏	-9.77211
虚冷	-9.77217
僧	-9.773
噫	-9.77315
司天	-9.77323
煎七分	-9.77446
抱	-9.77447
梨	-9.77466
如無	-9.77505
而痊	-9.77508
竟	-9.77565
丸如梧桐子大	-9.7767
言語	-9.77723
御	-9.77779
不起	-9.77799
黒豆	-9.77835
溏	-9.77838
烏藥	-9.77846
萬物	-9.77872
五七	-9.77875
簡	-9.77917
號	-9.77975
傷脾	-9.77988
瞖	-9.78016
擇	-9.78096
出肘	-9.78157
額	-9.78249
四逆湯	-9.7829
以酒	-9.78311
列	-9.78333
食少	-9.78441
流注	-9.78444
注云	-9.78471
二百	-9.7853
若不	-9.78533
黄蠟	-9.7854
骨蒸	-9.78578
葵	-9.78624
者多	-9.78654
地龍	-9.78698
環	-9.78752
也夫	-9.78849
建	-9.78861
脉沉	-9.78975
惑	-9.78984
生者	-9.79036
治諸	-9.79074
箭	-9.79142
隠	-9.79144
榮衞	-9.79152
更服	-9.79193
色赤	-9.79202
以下	-9.79256
沒藥	-9.79283
蒿	-9.79334
延年	-9.79336
握	-9.79353
癩	-9.79368
繼	-9.79389
者由	-9.79408
六十	-9.79409
用補中益氣湯	-9.79431
人迎	-9.79439
秦艽	-9.79513
加至	-9.7953
晝夜	-9.79532
即瘥	-9.79591
脇痛	-9.7961
盗汗	-9.79611
臍腹	-9.79747
大㦸	-9.79769
親	-9.79775
茅	-9.79781
人參白术	-9.79795
拘	-9.79818
蔓	-9.79821
舌上	-9.80064
發黄	-9.80204
灼	-9.80207
據	-9.80213
第十	-9.80247
一斗	-9.80302
烈	-9.80422
蘭	-9.80425
脹痛	-9.80436
乆服	-9.80457
若因	-9.80508
相火	-9.80529
童子小便	-9.80599
聖濟	-9.80646
懐	-9.8068
一法	-9.80725
牢	-9.80753
金匱	-9.80762
累	-9.8077
服此	-9.80771
沫	-9.80799
四逆	-9.80816
徧	-9.8087
蜜和	-9.80912
壊	-9.80916
熱也	-9.80932
考	-9.80941
痛者	-9.8096
研勻	-9.81014
不得眠	-9.8103
色黄	-9.81043
亷	-9.81105
六味	-9.81156
請	-9.81193
黄蘖	-9.81228
喘息	-9.81405
粟米	-9.81419
讝語	-9.81523
編	-9.81615
酒調	-9.8163
甘菊花	-9.81646
户	-9.81696
足少陽	-9.81721
出汗	-9.81756
右五味	-9.81794
牽	-9.8183
謹按	-9.8188
鯉魚	-9.81915
受邪	-9.81929
之道	-9.81938
㫖	-9.81942
肺痿	-9.81955
搗碎	-9.81985
丑	-9.8207
每服五錢	-9.8219
之疾	-9.82218
顔色	-9.82252
後用	-9.82333
溼	-9.82355
病之	-9.8237
䖝	-9.82477
常山	-9.82529
假令	-9.82559
荳	-9.82567
所生	-9.8265
證治	-9.82682
腎經	-9.82731
千金方	-9.82732
地黄丸	-9.82739
肺金	-9.82768
景	-9.82817
形如	-9.82831
各二錢	-9.8289
或以	-9.82916
悶亂	-9.82934
細嚼	-9.8295
竹茹	-9.83015
可治	-9.83016
米泔	-9.83027
而出	-9.83068
薫	-9.83119
腫滿	-9.8313
肝火	-9.83141
之精	-9.83144
消渇	-9.83147
壹	-9.83152
小便數	-9.83194
薑三片	-9.83211
哭	-9.83213
九月	-9.83219
丙	-9.8323
休	-9.83249
田	-9.83282
束	-9.83287
必有	-9.83293
俟	-9.83313
和匀	-9.83387
腋	-9.83529
捻	-9.83558
托裏	-9.83587
刺痛	-9.83602
五臓	-9.83608
不拘多少	-9.83718
補腎	-9.83726
鱗	-9.83736
備急	-9.83737
煮取	-9.83749
日華子云	-9.83823
堅硬	-9.83874
山查	-9.83885
腥	-9.83912
其性	-9.83984
帝	-9.84014
五加皮	-9.84133
汗下	-9.8414
濾	-9.84163
勞役	-9.84216
心胸	-9.84223
漸漸	-9.84239
瘡疹	-9.84389
燒存性	-9.8442
蓯蓉	-9.84473
腰背	-9.84495
中之	-9.84497
傷於	-9.84563
芎歸	-9.84574
丈夫	-9.8458
白虎	-9.84594
有人	-9.84648
二斗	-9.84671
虚也	-9.84738
補脾	-9.84757
鴨	-9.84759
有力	-9.8477
酒洗	-9.84788
急痛	-9.84815
一條	-9.84882
小者	-9.84944
奔	-9.84984
又方用	-9.85013
胸脇	-9.85018
栢子仁	-9.85042
各六	-9.85132
符	-9.85166
瞿麥	-9.8523
陽也	-9.85234
海藻	-9.8528
攻之	-9.85338
使人	-9.854
酥炙	-9.85436
權	-9.85599
一兩去	-9.85634
拔	-9.85665
庚	-9.858
十一	-9.85885
随	-9.85907
十餘	-9.85953
匀	-9.85994
發背	-9.85998
堂	-9.86064
眠	-9.8624
峻	-9.86263
吐痰	-9.86286
篩	-9.86287
栁	-9.86315
缺	-9.86335
而有	-9.86357
其根	-9.86403
杜	-9.86453
冐	-9.86471
便血	-9.86501
有寒	-9.86574
吐出	-9.86613
青橘皮	-9.86657
大腹皮	-9.86673
少隂病	-9.8669
醒	-9.86831
半日	-9.86835
七壯	-9.86903
一方有	-9.86907
屢	-9.86961
漏蘆	-9.87058
攤	-9.87064
其脈	-9.87144
螫	-9.87169
肋	-9.87179
脾肺	-9.87197
煩燥	-9.87221
邪在	-9.87239
慢驚	-9.87249
淘	-9.87255
二穴在	-9.87259
氣虛	-9.87271
各有	-9.87288
耳中	-9.87312
辛熱	-9.87329
諸證	-9.87335
山谷	-9.87338
為隂	-9.87365
經水	-9.87372
水穀	-9.87377
牡	-9.87431
彈	-9.87467
炮薑	-9.87477
通草	-9.87547
即差	-9.87563
不堪	-9.87589
遊	-9.87606
甚多	-9.87645
仰	-9.87647
商	-9.87676
八兩	-9.87731
命門	-9.87759
昔	-9.87784
四月	-9.87802
何首烏	-9.87817
龍膽	-9.87832
次日	-9.87845
不禁	-9.87853
治中風	-9.87917
風痰	-9.87921
阿魏	-9.87924
瘍	-9.88067
大小便	-9.88079
問曰	-9.88157
去渣	-9.88187
梹榔	-9.88224
脉之	-9.88229
八珍湯	-9.88262
會	-9.8829
大青	-9.88295
醎	-9.88379
去土	-9.88382
瓶	-9.88389
瘴	-9.88499
謬	-9.88511
崩	-9.8855
洗去	-9.88557
椀	-9.88622
發熱惡寒	-9.8864
通利	-9.88778
三年	-9.88847
盜汗	-9.88872
也當	-9.88898
雷	-9.88926
於肺	-9.88952
心脾	-9.88967
爪	-9.89011
二經	-9.8905
鍋	-9.89066
結核	-9.8911
壁	-9.89162
中惡	-9.892
當用	-9.89215
京	-9.89262
大人	-9.89292
史	-9.89353
愚	-9.89357
白歛	-9.89397
缺盆	-9.89405
一婦	-9.8947
薤白	-9.89538
圍	-9.8958
廉	-9.89608
手太隂	-9.89628
三部	-9.8969
如常	-9.8969
三里	-9.89723
蛇床子	-9.89818
茱茰	-9.89819
石菖蒲	-9.89871
再用	-9.90042
牙齒	-9.90099
大便不通	-9.90153
和之	-9.90159
述	-9.90209
一男子	-9.90259
撰	-9.90278
於上	-9.90278
加人參	-9.90304
而致	-9.90342
等症	-9.9036
自出	-9.90409
纔	-9.90488
厭	-9.90507
蓼	-9.906
兼治	-9.90612
者不可	-9.90629
兎絲子	-9.90635
可知	-9.90635
庶	-9.90671
面黄	-9.9069
足厥隂	-9.90756
勞傷	-9.90842
加附子	-9.90843
癲	-9.90844
癭	-9.90852
腫毒	-9.90874
表證	-9.90887
欵冬花	-9.90956
滚	-9.90966
炊	-9.90978
變為	-9.90991
而喘	-9.91032
不去	-9.91038
闕	-9.91055
飲食少思	-9.91084
麪	-9.91119
繩	-9.91138
次用	-9.91178
芝	-9.91195
四劑	-9.9121
神効	-9.91221
毎服一錢	-9.91224
靈樞	-9.91282
壓	-9.9129
迎	-9.91307
十七	-9.91328
郡	-9.91574
藏府	-9.91577
入胃	-9.91615
造	-9.91646
中寒	-9.91671
棗肉	-9.91673
縣	-9.917
炮製	-9.91701
麵糊	-9.91838
皆由	-9.91855
局方	-9.91866
鼻衂	-9.91894
諸疾	-9.91907
猪肉	-9.91915
空心食前	-9.91938
稟	-9.91949
存性	-9.92016
麝	-9.92041
眀	-9.92064
血出	-9.92072
客於	-9.92086
而數	-9.92113
發之	-9.92161
言之	-9.92163
痛處	-9.92189
曝乾	-9.92257
突	-9.92302
水煮	-9.92394
樂	-9.92445
内有	-9.92523
崩中	-9.92625
沸湯	-9.92637
或時	-9.92646
各五錢	-9.92671
迺	-9.92697
阻	-9.92702
望	-9.92729
輕者	-9.92861
鎮	-9.92865
其色	-9.92877
受之	-9.92929
時氣	-9.92947
一匙	-9.92991
莖葉	-9.93058
六七日	-9.93096
總錄	-9.93173
岐伯曰	-9.93194
踈	-9.93239
丸如梧子大	-9.93279
易之	-9.93388
延胡索	-9.9339
七月	-9.93399
半两	-9.93448
不相	-9.93486
完	-9.93575
筆	-9.93621
壬	-9.93664
牛蒡子	-9.93675
衂血	-9.93708
不收	-9.93737
調中	-9.93786
温補	-9.9379
鷄子	-9.93814
白皮	-9.93907
之義	-9.94
别録	-9.94038
多用	-9.94039
一具	-9.94064
耳鳴	-9.94065
如神	-9.94084
其狀	-9.94106
伐	-9.94122
之火	-9.94215
右搗	-9.9442
鹿角	-9.94432
罷	-9.94451
杖	-9.94454
参	-9.94473
百壯	-9.94508
腰脊	-9.9451
大黃	-9.94521
紀	-9.94554
神仙	-9.9458
形氣	-9.9462
先生	-9.94621
圖經	-9.9466
水飛	-9.94726
聾	-9.94745
不可以	-9.94777
之令	-9.94789
肘後	-9.94812
均	-9.94819
壽	-9.94822
往	-9.94888
涌	-9.94949
為末以	-9.94955
不得卧	-9.94983
五倍子	-9.9503
狐	-9.9519
作渴	-9.95218
諸症	-9.95227
襲	-9.95236
湯送下	-9.95253
一物	-9.95364
旬	-9.95367
一握	-9.95419
改	-9.95485
义	-9.95511
妊娠	-9.95519
巴㦸	-9.95532
絞	-9.95533
民病	-9.95572
論云	-9.95601
之外	-9.9565
𥙷	-9.95675
六七	-9.9568
無不	-9.95706
輔	-9.95715
宿食	-9.95777
十三	-9.9579
蘆薈	-9.95803
亥	-9.95827
為衣	-9.95858
刺之	-9.95903
者非	-9.95981
生薑湯下	-9.96029
新汲水	-9.96126
絞取汁	-9.96178
鼈	-9.96232
填	-9.96244
參术	-9.9627
奉	-9.96292
痞滿	-9.96382
病後	-9.96396
草烏	-9.96404
一時	-9.96407
臼	-9.96417
父	-9.9647
方論	-9.9649
水服	-9.96587
涸	-9.96596
此疾	-9.96605
多服	-9.96643
坑	-9.96761
之上	-9.96794
左手	-9.96827
服此藥	-9.97006
筋脉	-9.97026
竈	-9.9703
肝脾	-9.97116
欲絶	-9.97146
少時	-9.97239
天氣	-9.97254
提	-9.97263
水下	-9.97312
又治	-9.9733
症也	-9.97333
寶	-9.97358
衍義曰	-9.97436
衞	-9.97449
山茱茰	-9.97471
栗	-9.97505
歧伯曰	-9.97534
一作	-9.97548
水調下	-9.97551
為使	-9.97558
月經	-9.97563
男女	-9.97575
頷	-9.97591
腸風	-9.97591
附子湯	-9.97622
多汗	-9.97801
不甚	-9.97804
投之	-9.97804
十二經	-9.97853
三次	-9.97854
三枚	-9.97876
令勻	-9.979
皂	-9.97902
補益	-9.97968
送下	-9.97983
毎服三錢	-9.98
嚏	-9.98023
質	-9.98074
揚	-9.98098
一粒	-9.98144
仍以	-9.98155
氣急	-9.98199
等分為末	-9.98227
不可下	-9.98241
専	-9.98288
塵	-9.98289
亡陽	-9.98315
不可用	-9.98315
飲冷	-9.98334
臣禹錫等謹按	-9.98356
之本	-9.98447
鱉甲	-9.9849
燈	-9.98532
㸔	-9.98565
陽盛	-9.98577
煮汁	-9.98584
揀	-9.98606
統	-9.98637
興	-9.98647
足太隂	-9.98715
也以	-9.98733
破血	-9.98817
眼目	-9.98882
可也	-9.98888
即是	-9.98926
搗羅為末	-9.9895
拘攣	-9.98958
輪	-9.98983
蓮	-9.98998
不能言	-9.99017
活血	-9.99044
皮肉	-9.99053
血分	-9.9911
痛甚	-9.99117
中央	-9.99126
所在	-9.99264
潔	-9.99277
有痰	-9.99317
咽痛	-9.99378
虫	-9.99495
面青	-9.99557
黍	-9.99574
去蘆頭	-9.9958
略	-9.9962
秦	-9.99632
乳母	-9.99769
右為末用	-9.99782
不敢	-9.99843
其血	-9.999
丈	-9.99968
心下痞	-9.99975
治肺	-9.99995
蛤粉	-10.0001
扁	-10.0007
育	-10.0013
發搐	-10.0013
臓腑	-10.0014
氣弱	-10.0019
硼砂	-10.0032
戊	-10.0033
瘈瘲	-10.0037
黄蓍	-10.004
實也	-10.0046
治卒	-10.0058
七丸	-10.006
履	-10.0062
逼	-10.0062
川烏頭	-10.0068
翅	-10.0075
人參甘草	-10.0079
破故紙	-10.0081
追	-10.0083
栢	-10.0083
嗜	-10.0087
盛則	-10.0088
紋	-10.0089
右剉散	-10.0089
皆可	-10.0091
腹大	-10.0094
分作	-10.0096
六日	-10.0097
茵陳	-10.0098
議	-10.0115
一両	-10.0119
法也	-10.0122
市	-10.0125
火燒	-10.013
亦能	-10.0137
廢	-10.0139
鍾乳	-10.0139
加大黄	-10.0142
燥熱	-10.0145
生地黄汁	-10.0148
食飲	-10.0148
射	-10.0152
於此	-10.0153
牀	-10.0155
表邪	-10.0156
某	-10.0158
瘧疾	-10.0161
熾	-10.0162
濕氣	-10.0173
羚羊角屑	-10.0173
此症	-10.0175
産婦	-10.0176
腫脹	-10.0178
其子	-10.0183
巨	-10.0184
句	-10.019
每服四錢	-10.0191
食積	-10.0195
各三分	-10.0196
視之	-10.0196
衇浮	-10.0196
研匀	-10.0197
抵	-10.02
不然	-10.0202
乾燥	-10.0213
中滿	-10.0214
去瓤	-10.0216
也如	-10.0223
去滓温服	-10.0227
地氣	-10.0232
呉	-10.0233
兎	-10.0239
授	-10.0242
徐徐	-10.0255
補氣	-10.0256
熱盛	-10.0263
枇杷葉	-10.0266
食前温服	-10.0271
山茱萸	-10.0273
蘗	-10.0283
去麄皮	-10.0283
之内	-10.0283
槐花	-10.0291
邉	-10.0295
因而	-10.0302
不救	-10.0303
相合	-10.0306
氣喘	-10.0306
出危	-10.0308
青鹽	-10.0313
之處	-10.0317
為佳	-10.0317
薰	-10.032
七八	-10.0328
鉛	-10.0329
人多	-10.033
炭火	-10.0334
味酸	-10.0337
凝滯	-10.0338
苦酒	-10.0339
讀	-10.0341
六氣	-10.0343
則病	-10.0348
虛實	-10.035
頌曰	-10.0351
發其汗	-10.0361
麸炒	-10.0364
不信	-10.0365
治姙娠	-10.0366
青木香	-10.0368
水榖	-10.0373
肝氣	-10.0378
倉	-10.0381
決	-10.0382
寐	-10.0391
鎔	-10.0407
右七味	-10.0415
故知	-10.042
藥力	-10.0421
葵子	-10.0421
傷人	-10.0422
十月	-10.0422
只用	-10.0424
以苦	-10.0425
瘡腫	-10.0432
甦	-10.0432
八十	-10.0434
内踝	-10.0437
肺癰	-10.044
剉各	-10.044
訶梨勒	-10.0445
勝則	-10.0445
是為	-10.0448
傷食	-10.045
上衝	-10.0461
鈎	-10.0462
仆	-10.0467
湧	-10.0468
隂也	-10.0473
餌	-10.0478
縮砂仁	-10.0478
結實	-10.0479
温病	-10.0481
緑	-10.0482
庭	-10.0483
糖	-10.049
生冷	-10.0493
目中	-10.0497
鋪	-10.0502
其熱	-10.0504
芤	-10.0505
幾	-10.051
芩連	-10.0514
有聲	-10.0519
不至	-10.0526
水一大盞	-10.0532
於心	-10.0534
亦名	-10.0536
補虚	-10.0536
殭蠶	-10.054
而不能	-10.0542
八味	-10.0545
伯	-10.0547
池	-10.0549
滅	-10.055
暢	-10.0552
顯	-10.0559
凶	-10.0562
口鼻	-10.0568
枸杞子	-10.0572
煎至七分去滓温服	-10.0575
名為	-10.0577
忍	-10.0578
中脘	-10.058
摻	-10.0584
戰	-10.0597
右件藥	-10.0603
癸	-10.0604
不渴	-10.0605
之經	-10.061
蝎	-10.0613
自止	-10.0617
禍	-10.0618
姑	-10.0623
不語	-10.0623
心腹脹滿	-10.0629
炎	-10.0629
已成	-10.063
而下	-10.0631
仍用	-10.0633
黄水	-10.0636
六君子湯	-10.0637
飲下	-10.0639
降火	-10.064
腋下	-10.064
夭	-10.0645
水道	-10.0645
不寧	-10.0646
沃	-10.0646
客熱	-10.0647
烏梅肉	-10.0647
升降	-10.0647
脾腎	-10.0651
無灰酒	-10.0651
心經	-10.0658
𤓰蔞	-10.0658
除熱	-10.0662
驢	-10.0663
八味丸	-10.067
告	-10.0675
右剉	-10.0677
倦怠	-10.0678
熨之	-10.0686
如膏	-10.0687
金銀花	-10.0691
良薑	-10.0693
搗篩	-10.0696
炮各	-10.0696
龍齒	-10.0709
穰	-10.0709
窠	-10.0713
飬	-10.0735
故能	-10.0738
二錢半	-10.0738
月水	-10.074
順氣	-10.0742
賊	-10.0742
摶	-10.0747
㫁	-10.0748
氣也	-10.0751
忘	-10.0754
雜病	-10.0754
剪	-10.0765
小豆	-10.0769
麫糊	-10.0771
血痢	-10.0774
不可忍	-10.0774
升麻湯	-10.0777
薑湯下	-10.0778
團	-10.078
木賊	-10.0785
𢎞景曰	-10.0786
青蒿	-10.0787
蟬	-10.0797
牡丹	-10.0797
城	-10.0802
日再服	-10.0802
磁	-10.0806
痃癖	-10.0808
心腹痛	-10.0826
徒	-10.0835
麻仁	-10.0837
翼	-10.084
胡麻	-10.0841
之變	-10.0843
五枚	-10.0844
負	-10.0844
含之	-10.0844
傷損	-10.0848
戴	-10.0849
吞下	-10.085
割	-10.0853
急用	-10.0856
喘促	-10.0857
化為	-10.0861
洞	-10.0865
𤼵	-10.0871
不明	-10.0872
同研	-10.0874
腰膝	-10.0874
丹毒	-10.0878
召	-10.0878
立止	-10.088
砭	-10.0883
羸痩	-10.0886
而病	-10.0886
揩	-10.0888
烙	-10.0889
三嵗	-10.0893
行於	-10.0893
右為末煉蜜和	-10.0897
配	-10.0897
消食	-10.0899
小便難	-10.0901
尤妙	-10.0904
四君子湯	-10.0904
毎用	-10.0905
糓	-10.0909
各八	-10.0922
脾經	-10.0923
鵝	-10.0923
桑螵蛸	-10.0924
千金翼	-10.0927
胡桃	-10.0931
壞	-10.0933
水一中盞	-10.0935
伏龍肝	-10.0937
必死	-10.0942
迫	-10.0946
草木	-10.0947
黄帝	-10.095
藏器曰	-10.0953
水蛭	-10.0957
詩	-10.096
右手	-10.096
察其	-10.0963
承氣湯	-10.0965
丹治	-10.0969
二種	-10.097
蟾酥	-10.0976
其候	-10.0976
曉	-10.0978
病源	-10.0984
妄行	-10.0989
胷膈	-10.0991
熱結	-10.0992
反胃	-10.0998
六腑	-10.1004
氣上	-10.1004
案	-10.1004
不惡寒	-10.1007
稍熱服	-10.1009
病則	-10.1013
十兩	-10.1022
而渴	-10.1024
外用	-10.1026
宜以	-10.1033
沈香	-10.1038
各三錢	-10.1038
真珠	-10.1042
晒	-10.1043
癲疾	-10.1046
怪	-10.1052
手陽明	-10.1052
之故	-10.1052
熱藥	-10.1054
悞	-10.1055
人有	-10.1058
右粗搗篩	-10.1066
所勝	-10.1068
脉弦	-10.1073
半分	-10.1077
葉如	-10.1099
内消	-10.11
搐搦	-10.1105
床	-10.1111
碾	-10.1112
圓治	-10.1115
穿山甲	-10.1116
潄	-10.1117
欬𠻳	-10.1118
血崩	-10.1122
照	-10.1123
系	-10.1124
結於	-10.1124
旋覆花	-10.1128
數服	-10.1129
孟	-10.1131
無子	-10.1132
各一分	-10.1139
諸瘡	-10.114
數十	-10.1142
淬	-10.1143
六味丸	-10.115
夜卧	-10.1151
利之	-10.1154
腹中痛	-10.1155
鍊	-10.1156
益智	-10.1156
煉蜜和	-10.116
入裏	-10.1162
餅子	-10.1163
形體	-10.1169
縮砂	-10.1172
產	-10.1175
解散	-10.1181
撲	-10.1182
炮製去	-10.1184
蒼耳	-10.1187
薯蕷	-10.1202
滿悶	-10.1207
太陰	-10.121
筋攣	-10.1212
亡血	-10.122
方取	-10.1224
汪	-10.1228
曾	-10.1229
方見本門	-10.1236
日乾	-10.1238
英	-10.1239
碧	-10.1241
責	-10.1242
除濕	-10.1245
京三稜	-10.1249
積滯	-10.125
口苦	-10.1257
半月	-10.1257
獲	-10.1258
逆氣	-10.1264
雙仁	-10.1273
可服	-10.1275
後人	-10.1275
日久	-10.1282
當歸川芎	-10.1284
得其	-10.1294
熬成膏	-10.1298
厥陰	-10.13
損傷	-10.1301
研為末	-10.1301
揉	-10.1304
酒調服	-10.1309
調塗	-10.1319
虛勞	-10.1326
下陷	-10.1328
氣短	-10.1329
麻木	-10.1332
㣲赤剉	-10.1349
不拘	-10.1358
斜	-10.1363
丸如桐子大	-10.1363
何也	-10.1364
即出	-10.1365
散方	-10.1365
本方	-10.138
右水煎服	-10.1381
搽	-10.1387
藴	-10.1392
大補	-10.1393
風癎	-10.1394
不勝	-10.1395
痛止	-10.1396
腮	-10.1397
日晡	-10.1397
搗爛	-10.1402
水洗	-10.1403
癍	-10.1406
龍膽草	-10.141
清水	-10.1419
作渇	-10.1421
肩背	-10.1429
㧞	-10.1429
平旦	-10.143
凈	-10.1432
二三日	-10.1433
迷	-10.1437
忽然	-10.1439
人身	-10.1439
狂言	-10.144
鬱金	-10.144
二七	-10.1445
髀	-10.1448
二斤	-10.1448
呉茱茰	-10.1457
耐	-10.1461
蜜丸	-10.1465
煎至一盞去滓	-10.1465
患此	-10.1469
手足厥冷	-10.147
棗三枚	-10.1471
錢氏	-10.1485
擾	-10.1486
頭上	-10.1487
温水下	-10.1494
窮	-10.1497
之患	-10.1498
去其	-10.1504
自然汁	-10.1512
黯	-10.1515
補骨脂	-10.1517
次下	-10.1521
水火	-10.1525
混	-10.1525
嘔噦	-10.1526
趙	-10.1527
第四	-10.1528
甘草湯	-10.1529
或作	-10.153
淹	-10.1531
溪	-10.1534
紫石英	-10.1534
空心温服	-10.1536
皮尖	-10.1537
輕身	-10.1537
潮	-10.1539
丸方	-10.1539
於隂	-10.154
板	-10.1541
血竭	-10.1542
白芨	-10.1542
言其	-10.1543
汗不出	-10.1551
在外	-10.1553
養血	-10.1558
者良	-10.1561
須用	-10.1561
桐	-10.1562
勞倦	-10.1566
煎至七分	-10.1572
丸如梧桐子大每服	-10.1575
色青	-10.1578
勿食	-10.1579
大承氣湯	-10.158
師曰	-10.1584
黄檗	-10.1585
多因	-10.1586
以水一斗	-10.1586
不死	-10.1589
不言	-10.1593
所出	-10.1594
前方	-10.1595
蟹	-10.1599
臘月	-10.1606
黃芩	-10.1608
發時	-10.1608
不快	-10.1609
肛門	-10.161
金銀	-10.161
之有	-10.1612
十粒	-10.1613
蜜陀僧	-10.1614
瘖	-10.1616
棘	-10.1622
七粒	-10.1624
挑	-10.1628
逢	-10.1629
拾	-10.1634
輩	-10.1634
榮氣	-10.1635
歛	-10.1636
不可食	-10.1641
甑	-10.1641
此則	-10.1643
穴在	-10.1643
煎至八分去滓	-10.1644
等物	-10.1646
聖人	-10.1646
砒	-10.1657
生甘草	-10.1659
肝膽	-10.1659
資	-10.1666
水和	-10.167
炙令	-10.1675
又方治	-10.1682
菌	-10.1683
少食	-10.1687
生葱	-10.1688
補中	-10.1689
従	-10.1692
綱目	-10.1693
如水	-10.1694
毋	-10.1695
煎至五分去滓	-10.1699
每服三十丸	-10.1703
其實	-10.1704
赤芍	-10.1705
其形	-10.1706
而長	-10.1708
乳癰	-10.1714
絞汁	-10.1716
二便	-10.1723
微赤剉	-10.1724
火上	-10.1724
無毒主	-10.1726
當先	-10.1743
啖	-10.1744
殺蟲	-10.1746
用生	-10.1746
鬲	-10.176
熬令	-10.1763
每服五錢水一盞半	-10.1769
肺熱	-10.1774
康	-10.1776
不開	-10.1785
胃熱	-10.1785
療之	-10.1786
諸風	-10.179
安胎	-10.1791
務	-10.1792
相去	-10.1793
外臺	-10.1798
發表	-10.18
托	-10.1802
眩暈	-10.1805
如泥	-10.1806
淡竹葉	-10.1806
爲末	-10.1807
八九	-10.1809
七十	-10.181
内障	-10.1814
亦佳	-10.1816
小便赤	-10.1821
膿水	-10.1824
尤佳	-10.1833
噤	-10.1838
神氣	-10.1838
寫	-10.1839
五勞七傷	-10.184
有病	-10.1847
矣故	-10.1849
面上	-10.1849
之分	-10.1855
□	-10.1858
死者	-10.1862
有一	-10.1865
不大便	-10.1866
喜怒	-10.1866
焼	-10.1869
故為	-10.187
皆因	-10.187
血脈	-10.1871
肢	-10.1872
上有	-10.1873
者生	-10.1875
便秘	-10.1876
不除	-10.188
令兒	-10.1884
椎	-10.1887
賢	-10.1888
祖	-10.1889
半合	-10.1892
蘆根	-10.1896
脚膝	-10.1897
夫人	-10.1898
童	-10.1908
薄荷湯下	-10.1917
維	-10.1917
温之	-10.1919
欲吐	-10.1924
生風	-10.1924
一觔	-10.1925
之熱	-10.1928
荷葉	-10.1934
不絶	-10.1937
数	-10.1938
而得	-10.1938
氣上衝	-10.1939
隂盛	-10.1941
敗血	-10.1942
四日	-10.1942
患者	-10.1943
未成	-10.1946
㸃之	-10.1947
普	-10.1949
博	-10.1949
兆	-10.1949
手少隂	-10.1959
潰爛	-10.1961
聽	-10.1963
則不	-10.1963
内服	-10.1965
黍米	-10.1966
天之	-10.1966
筒	-10.197
白者	-10.1972
第	-10.1972
湯泡	-10.1977
體重	-10.1982
七遍	-10.1983
入口	-10.1984
心熱	-10.1985
切片	-10.1991
右為末每服二錢	-10.1992
相類	-10.1996
搜	-10.1999
毎服五錢	-10.1999
咽乾	-10.2002
舌本	-10.2002
不渇	-10.201
血虛	-10.2013
俠	-10.2018
選	-10.2019
奈何	-10.2021
寒者	-10.2028
生薑五片	-10.2029
候冷	-10.203
鞭	-10.203
后	-10.2032
痘疹	-10.2035
以水五升	-10.2038
漫	-10.2046
冷痛	-10.2049
滴水	-10.205
鹽湯下	-10.2051
樞	-10.2051
帖	-10.2052
者不	-10.2052
煎八分	-10.2056
魄	-10.2058
嶺南	-10.207
日中	-10.2071
食後温服	-10.2074
牛蒡	-10.2074
不可治	-10.2076
再煎	-10.2076
大而	-10.2077
赤眼	-10.2081
之名	-10.2082
調之	-10.2087
方可	-10.2093
幸	-10.2097
頃	-10.2101
地黃	-10.2101
醋炙	-10.2106
胸腹	-10.2106
分二服	-10.2109
煎至六分去滓不計時候温服	-10.2111
障	-10.2118
脉數	-10.212
陽邪	-10.2122
智	-10.2122
巴	-10.2124
淚出	-10.2125
烏蛇	-10.2133
次入	-10.2135
之脈	-10.2135
故云	-10.2135
拾遺	-10.2136
動氣	-10.2136
七合	-10.2137
或云	-10.2137
喘滿	-10.2138
虎骨	-10.2141
黄芪	-10.2142
猛	-10.2147
妻	-10.2148
瘰	-10.2151
疝氣	-10.2152
硝石	-10.2158
止血	-10.2159
者佳	-10.2163
必先	-10.2163
右同	-10.2163
瓜	-10.2164
未解	-10.2165
變成	-10.2171
脆	-10.2175
酒煮	-10.2185
雅	-10.2186
炒一	-10.2187
取汗	-10.2188
不欲食	-10.2188
澤蘭	-10.2191
即吐	-10.2193
器中	-10.2198
則生	-10.2199
大風	-10.2203
省	-10.2207
塌	-10.2211
即以	-10.2217
枳	-10.2218
脉也	-10.222
有之	-10.2221
噉	-10.2225
服後	-10.223
頓服之	-10.2232
去黑	-10.2233
柱	-10.2233
消毒	-10.2236
昬	-10.2239
時行	-10.2241
好酒	-10.2241
嚴	-10.2242
之為病	-10.2252
卯	-10.2257
而發	-10.2259
湯調服	-10.226
枸杞	-10.2261
解肌	-10.2261
則無	-10.2266
則死	-10.2271
冲	-10.2274
席	-10.2274
多有	-10.2276
撮	-10.2277
如故	-10.228
初服	-10.228
量兒大小加減	-10.2281
虚煩	-10.2282
白薇	-10.2286
實而	-10.2289
麥蘖	-10.2291
惡氣	-10.2295
聖惠	-10.2296
陷者中	-10.23
汗多	-10.2301
聖惠方	-10.2304
爾雅	-10.2306
暫	-10.2307
冰	-10.2311
埋	-10.2311
皆能	-10.2312
發狂	-10.2316
漬之	-10.2319
去根節	-10.232
成瘡	-10.2321
者謂之	-10.2325
益精	-10.2327
生氣	-10.233
以藥	-10.2334
犀	-10.2337
腦子	-10.2339
於陽	-10.2341
剉炒	-10.2344
唐本	-10.2346
掃	-10.2348
氣盛	-10.2353
六錢	-10.236
地黄汁	-10.2361
慾	-10.2362
跌	-10.2362
𢷬篩	-10.2365
去之	-10.2367
澄清	-10.2372
外臺秘要	-10.2374
赤白痢	-10.2374
脈沈	-10.2377
不入	-10.2383
願	-10.2386
楚	-10.2389
汝	-10.239
水二鍾	-10.239
昌	-10.2393
腹脹滿	-10.2393
積年	-10.2395
腫硬	-10.2398
裏急	-10.24
黃連	-10.24
搖	-10.2405
中毒	-10.2408
登	-10.2409
筋急	-10.2416
以意	-10.2428
肉豆䓻	-10.2428
季	-10.2429
口舌生瘡	-10.243
根皮	-10.243
大蒜	-10.2435
加之	-10.2438
攣急	-10.2438
一小	-10.244
稻	-10.2441
呷	-10.2443
而愈一小兒	-10.2443
脾胃虚弱	-10.2446
筯	-10.245
步	-10.2455
右為細末每服二錢	-10.2462
治眼	-10.2473
少頃	-10.2475
妳	-10.2481
掣	-10.2484
研極細	-10.2485
咸	-10.2486
經言	-10.2487
築	-10.2489
平胃散	-10.2491
習	-10.2493
爪甲	-10.2493
午後	-10.2495
鵞	-10.2496
復作	-10.2496
見於	-10.2497
研一	-10.2498
四十九	-10.2505
白湯下	-10.2507
神驗	-10.2507
一方加	-10.2515
補血	-10.252
盧	-10.2524
呌	-10.2524
修	-10.2526
釡	-10.2533
故其	-10.2533
令黄	-10.2538
徧身	-10.2538
一嵗	-10.2539
二物	-10.254
脇肋	-10.2543
章	-10.2548
祕	-10.2558
中指	-10.256
元參	-10.2561
蒂	-10.2561
茸	-10.2563
温熱	-10.2571
嘉	-10.2573
一二日	-10.2575
白术散	-10.2577
其法	-10.2577
相得	-10.2577
頑	-10.258
昏憒	-10.2581
消痰	-10.2584
精血	-10.2585
歇	-10.2587
生薑自然汁	-10.2589
膩	-10.259
作一服	-10.2593
北方	-10.2594
淋瀝	-10.2598
而渇	-10.2601
用人參	-10.2603
吞酸	-10.2603
所主	-10.2607
不計時	-10.2609
輒	-10.2611
糜	-10.2613
夲	-10.2613
四五日	-10.2619
七八日	-10.2621
風痺	-10.2622
為佐	-10.263
腎主	-10.2633
右六味	-10.2634
解表	-10.2636
服方寸匕	-10.2637
右為粗末	-10.2639
余謂	-10.2641
答曰	-10.2641
搗汁	-10.2642
麯	-10.2645
不須	-10.2648
微寒	-10.2648
諸方	-10.2649
得所	-10.265
粥飲下	-10.2652
腹脇	-10.2653
山梔子	-10.2656
肘後方	-10.2661
濃汁	-10.2665
時有	-10.2666
自消	-10.2668
柏	-10.2669
散主之	-10.2675
辛温	-10.268
無熱	-10.2681
外踝	-10.2682
香薷	-10.2683
爽	-10.2684
結聚	-10.2685
酒浸一宿	-10.2687
卽	-10.269
擣篩	-10.2692
進食	-10.2696
右麄搗篩	-10.2699
桃花	-10.2704
白濁	-10.2704
修治	-10.2704
岐	-10.2706
可見	-10.2707
者爲	-10.2708
以補	-10.2708
醬	-10.2716
以前	-10.2721
者名曰	-10.2725
蜘蛛	-10.2726
屈伸	-10.2727
外證	-10.2732
有效	-10.2735
臘	-10.274
並出第	-10.274
十年	-10.2741
病有	-10.2742
全愈	-10.2748
癃	-10.2752
難産	-10.2754
治病	-10.2756
絹袋盛	-10.2758
篇曰	-10.2761
垣	-10.2766
補其	-10.2766
如有	-10.2769
𦍑活	-10.277
加半夏	-10.277
之方	-10.2773
吃	-10.2773
陶隱居云	-10.2777
擘	-10.2778
手太陽	-10.2779
麻黃	-10.2779
漏下	-10.278
其經	-10.2781
其邪	-10.2782
古今	-10.2784
薑附	-10.2785
癮疹	-10.2786
天竺黄	-10.2792
隨證	-10.2792
有形	-10.2794
陽明之	-10.2795
盈	-10.2796
不能飲食	-10.2808
視其	-10.2813
莽草	-10.2815
雌	-10.2815
牛乳	-10.2817
遂以	-10.2818
侮	-10.282
肺經	-10.2822
鯽魚	-10.2825
臑	-10.2827
蘿蔔	-10.283
白蒺藜	-10.2831
一云	-10.2831
此法	-10.2831
不過三	-10.2832
第五	-10.2834
拌勻	-10.2837
虛寒	-10.2839
飲治	-10.2839
弱者	-10.2842
五月五日	-10.2843
桑寄生	-10.2845
瀉之	-10.2846
各三兩	-10.2853
氣壅	-10.2855
崔氏	-10.2855
紫菀	-10.2857
湯調	-10.2857
鬱結	-10.2867
太陽經	-10.2868
而嘔	-10.2869
川芎當歸	-10.2877
揺	-10.2878
膓	-10.2888
之陽	-10.2891
戌	-10.2895
者因	-10.2898
寒也	-10.2899
鍋内	-10.29
消石	-10.29
治肝	-10.2901
禮	-10.2902
六十日	-10.2904
無度	-10.2907
若有	-10.2908
後以	-10.2909
五六日	-10.291
蒸餅	-10.2919
根本	-10.292
虚羸	-10.292
而用之	-10.2924
螺	-10.2928
歸脾湯	-10.2929
發寒熱	-10.2932
孔中	-10.2933
者此為	-10.2939
藿香葉	-10.294
鎮心	-10.2947
凢	-10.2948
此物	-10.2948
麥芽	-10.2951
下一寸	-10.2956
腎之	-10.2957
尿血	-10.2959
瘡疥	-10.296
也方	-10.2961
宣通	-10.2961
之説	-10.2961
蘓	-10.2961
之妙	-10.2962
胃虚	-10.2963
火煆	-10.2967
冬𤓰	-10.2967
疥癬	-10.2969
青龍	-10.297
乾蝎	-10.2971
煩心	-10.2971
煎至一盞	-10.2972
當下	-10.2976
皆以	-10.2979
於腎	-10.298
炙剉	-10.2982
大便秘	-10.2984
馬牙硝	-10.2984
奇	-10.2986
此因	-10.2987
也但	-10.2988
行氣	-10.2989
右先	-10.2992
右為末以	-10.2992
五更	-10.2995
恣	-10.2995
羮	-10.2997
令乾	-10.2997
氣衝	-10.3004
半兩炙	-10.3004
壮熱	-10.3006
偏枯	-10.3008
能治	-10.3015
噐	-10.3019
浮而	-10.3019
小便澁	-10.3023
代之	-10.3028
補中益氣	-10.3029
排	-10.3032
起居	-10.3033
燒令	-10.3033
髙良薑	-10.3038
攪勻	-10.3041
而止	-10.3043
其功	-10.3043
為妙	-10.3052
蓬	-10.3063
震	-10.3063
僕	-10.3064
麤	-10.3067
承氣	-10.3067
四寸	-10.3069
愛	-10.3073
芍	-10.3074
草豆蔲	-10.3075
歴	-10.3077
明日	-10.3079
軍	-10.3082
也經曰	-10.3084
欠	-10.3089
胃脘	-10.3091
搗末	-10.3093
俗名	-10.3093
泔	-10.3093
丸桐子大	-10.3096
或曰	-10.31
傷則	-10.3102
治下篩	-10.3104
㣲寒	-10.3105
不正	-10.3106
蘇子	-10.3107
君火	-10.3107
中暑	-10.3108
有時	-10.3111
亦無	-10.3113
火氣	-10.3113
結氣	-10.3116
微熱	-10.3118
立効	-10.313
前症	-10.313
乃止	-10.3135
大便難	-10.3136
去黒皮	-10.3136
桂枝加	-10.3138
硏	-10.3139
縛	-10.314
綠	-10.3142
為害	-10.3143
右將	-10.3146
大腹	-10.3151
熱在	-10.3153
般	-10.3157
錬	-10.3158
其上	-10.317
六經	-10.3172
相應	-10.3174
客忤	-10.3178
甚效	-10.3181
認	-10.3184
炙黄	-10.3184
同炒	-10.3186
寒疝	-10.3189
鄭	-10.3189
熱邪	-10.3191
相引	-10.3194
潰後	-10.3196
何謂	-10.3201
和中	-10.3202
當歸芍藥	-10.3206
次以	-10.3206
盛而	-10.3206
九竅	-10.321
虛而	-10.3221
欬而	-10.3222
者屬	-10.3225
者何也	-10.3226
薑棗	-10.3228
方云	-10.3232
火也	-10.3236
不潰	-10.3238
天地之	-10.324
誤矣	-10.3244
郭	-10.3244
茵蔯	-10.3245
故有	-10.3247
棗二枚	-10.325
痔漏	-10.3254
遺尿	-10.3269
俱虚	-10.3272
右等分	-10.3273
各五分	-10.3274
留飲	-10.3275
介	-10.3278
藥性論云	-10.3279
神麴	-10.3281
汁和	-10.3285
右細剉	-10.3285
出入	-10.3291
却用	-10.3296
泛	-10.3299
放冷	-10.33
鈆	-10.3304
每服一	-10.3305
味鹹	-10.3309
芥	-10.3312
理中	-10.3313
斑猫	-10.3328
或如	-10.3329
一隻	-10.3333
發為	-10.3334
咽中	-10.3336
盌	-10.3337
呉茱萸	-10.3342
以水七升	-10.3342
人以	-10.3346
鈎藤	-10.3347
督	-10.3348
久則	-10.3355
氣促	-10.3362
尤甚	-10.3366
則有	-10.3372
一尺	-10.3373
𩕄	-10.3377
流行	-10.3377
蘇木	-10.3378
之際	-10.3378
衝任	-10.3381
當風	-10.3382
痛引	-10.3383
失血	-10.3387
此名	-10.3389
呼為	-10.339
乃可	-10.339
才	-10.3391
夜啼	-10.3392
甫	-10.3393
十分	-10.3395
去裙襴	-10.3397
動而	-10.3399
朴	-10.34
平復	-10.3402
痰盛	-10.3402
)【	-10.3403
針刺	-10.3404
失音	-10.3404
血少	-10.3406
的	-10.341
以温	-10.3411
丸如梧桐子大每服三十丸	-10.3412
此由	-10.3413
經驗方	-10.3413
更用	-10.3414
以水三升	-10.3415
治心	-10.3415
乾者	-10.3418
參茋	-10.342
諸經	-10.3421
直視	-10.3425
當歸身	-10.3426
防風湯	-10.3432
齋	-10.3434
炙一	-10.3437
芒	-10.3441
往往	-10.3447
令匀	-10.3449
唾血	-10.3453
雲母	-10.3455
臍中	-10.3456
用水	-10.3457
江南	-10.3465
革	-10.3466
驚恐	-10.3467
而煩	-10.3467
皆屬	-10.3467
較	-10.3467
黄芩黄連	-10.3469
膈上	-10.347
太陽之	-10.3472
其餘	-10.3476
皺	-10.3483
矢	-10.3488
隨其	-10.3492
杯	-10.3493
之前	-10.3493
血不止	-10.3495
訣	-10.3499
頸項	-10.3501
平無毒主	-10.3502
大麥	-10.3505
次服	-10.3505
半身不遂	-10.3506
每服半錢	-10.351
一身	-10.3511
洗淨	-10.3517
瀉心湯	-10.352
二方	-10.3529
十餘日	-10.3533
不拘時服	-10.3539
餘毒	-10.3539
變化	-10.3543
明堂	-10.3546
惡露	-10.3546
不能行	-10.3547
得汗	-10.3548
寒而	-10.3551
之曰	-10.3552
疔瘡	-10.3553
把	-10.3554
徤	-10.3559
發動	-10.3559
厲	-10.356
則傷	-10.3562
唐本注云	-10.3562
一十	-10.3563
二陳	-10.3565
十箇	-10.3568
條下	-10.3568
房室	-10.3569
予曰	-10.357
氣實	-10.3572
五種	-10.3573
肅	-10.3574
自然銅	-10.3575
並宜服之	-10.3575
其陽	-10.3577
校正	-10.3578
不得息	-10.3579
則熱	-10.3582
毎服二錢	-10.3583
山中	-10.3584
之大	-10.3589
之良	-10.3589
手少陽	-10.3592
而作	-10.3596
下藥	-10.3598
之别	-10.3601
欬逆上氣	-10.3603
四十丸	-10.3609
弗	-10.3611
者取	-10.3614
炮裂	-10.3617
膈氣	-10.3618
故用	-10.3626
化下	-10.3628
豆大	-10.3629
天花粉	-10.3629
唇口	-10.3632
舟	-10.3636
廼	-10.3643
不識	-10.3643
洪大	-10.3643
易治	-10.3645
表裏俱	-10.3647
失其	-10.3647
不知人	-10.3651
毎服四錢	-10.3656
炷	-10.3657
愈甚	-10.3661
食療	-10.3665
齒痛	-10.3669
者先	-10.367
升陽	-10.3671
以清	-10.3673
井花水	-10.3679
渾身	-10.3679
件	-10.3679
商陸	-10.368
煮取一升	-10.368
死矣	-10.3682
燕	-10.3684
周身	-10.3686
瓤	-10.3688
以醋	-10.369
幼	-10.3695
此以	-10.3698
安息香	-10.3702
裏熱	-10.3709
水也	-10.371
芍藥甘草	-10.3716
手足逆冷	-10.3717
及諸	-10.3726
慈	-10.3728
瘢	-10.3734
去麄	-10.3735
墮胎	-10.3741
陽明經	-10.3742
遂成	-10.3743
寒暑	-10.3744
之如	-10.3744
茱萸	-10.3745
抽	-10.3748
清氣	-10.3749
小柴胡	-10.3749
之源	-10.3753
椎下	-10.3756
此條	-10.3757
兔絲子	-10.3757
則血	-10.3758
火邪	-10.3761
飱泄	-10.3763
錦	-10.3768
孕婦	-10.3773
收之	-10.3774
汗後	-10.3776
於中	-10.3782
遏	-10.3783
之化	-10.3785
同前	-10.3785
葛根湯	-10.3788
頭項	-10.3789
雌黄	-10.379
妨	-10.3791
煮取二升	-10.3791
秦皮	-10.3792
氣血虚	-10.3792
滛	-10.3792
蛀	-10.3797
月采	-10.3799
出者	-10.38
有蟲	-10.3809
際	-10.3809
諸毒	-10.381
和丸	-10.3811
癧	-10.382
醋煮	-10.382
已下	-10.3829
風水	-10.383
亦然	-10.3831
拳	-10.3833
因怒	-10.3834
繞	-10.3835
人參茯苓	-10.3836
川谷	-10.3839
驅	-10.384
凍	-10.3845
水飲	-10.3845
脯	-10.3847
柿	-10.3848
蚯蚓	-10.3848
東方	-10.385
水三升	-10.385
一錢匕	-10.3851
摇	-10.3851
右九味	-10.3856
黑豆	-10.3859
飲服	-10.386
發則	-10.386
宗奭曰	-10.3864
建中湯	-10.3865
顛	-10.3867
所宜	-10.3869
不樂	-10.387
不省人事	-10.387
無他	-10.3876
治腎	-10.3877
四升	-10.3877
坎	-10.388
以熱	-10.388
可與	-10.3881
撥	-10.3889
以候	-10.3893
白术茯苓	-10.3895
未出	-10.3896
蛤	-10.39
引飲	-10.3906
忌海藻菘菜	-10.3908
顱	-10.3922
傷肺	-10.3923
紙裹	-10.3924
不休	-10.3924
光明	-10.3926
穗	-10.3927
寒凉	-10.3929
盡為度	-10.3929
稍稍	-10.3935
腸中	-10.3938
鄉	-10.394
木瓜	-10.394
舎	-10.3942
知之	-10.3944
入蜜	-10.3944
並皆治之	-10.3952
補藥	-10.3952
石榴	-10.3955
黑色	-10.3955
方以	-10.3955
火盛	-10.3956
不能生	-10.3958
炮裂去	-10.3959
赤剉	-10.3964
叅	-10.3964
因其	-10.3964
兩足	-10.3966
凡此	-10.3966
温瘧	-10.3969
癉	-10.3974
正月	-10.3977
乖	-10.398
禽	-10.398
故主	-10.3981
蠍	-10.3984
排膿	-10.3985
口燥	-10.3991
作嘔	-10.3993
耳後	-10.3993
湯加	-10.3997
牽牛子	-10.3999
細細	-10.4
猪膏	-10.4003
草烏頭	-10.4004
自有	-10.4007
不合	-10.4007
而然	-10.4008
安神	-10.4009
二十日	-10.401
六味地黄丸	-10.4011
聖散	-10.4012
而上	-10.4012
而言	-10.4015
皆是	-10.402
良乆	-10.4022
後服	-10.4022
薄荷葉	-10.4022
即消	-10.4022
振寒	-10.4025
勞復	-10.4027
為末用	-10.403
減半	-10.4035
柳	-10.4042
即死	-10.4042
湯浸去皮尖	-10.4043
侯	-10.4043
踝	-10.4045
不計時候以	-10.4045
䘌	-10.4047
焮痛	-10.405
在足	-10.405
萎	-10.4055
爭	-10.4059
得病	-10.4062
哽	-10.4064
煎七分去滓	-10.4066
子母	-10.407
難以	-10.4074
亂髪	-10.4074
去滓内	-10.4074
二十四	-10.4076
難經	-10.4079
瘳	-10.4086
心主	-10.4088
治脚氣	-10.4089
湖	-10.4096
之異	-10.4097
人參湯	-10.4097
青色	-10.4098
地上	-10.4102
晨	-10.4102
浮大	-10.4102
挼	-10.4102
犀角地黄湯	-10.4105
長生	-10.4105
香油	-10.4107
之府	-10.4108
見之	-10.411
百餘	-10.4115
嘔者	-10.4115
不吐	-10.4115
調氣	-10.4117
禹	-10.4117
刑	-10.412
脅	-10.4125
乾姜	-10.4128
稜	-10.4128
去油	-10.4129
間有	-10.4133
為風	-10.4134
二十五	-10.4136
肛	-10.4139
藉	-10.4139
欲得	-10.414
八合	-10.4145
殆	-10.4153
之用	-10.4153
研如粉	-10.4158
去柤	-10.4164
失精	-10.4165
氣滿	-10.4166
西方	-10.4167
然而	-10.4168
酒服方寸匕	-10.4169
為臣	-10.417
避風	-10.4174
緩急	-10.4177
釀	-10.4177
虛弱	-10.4178
禹餘糧	-10.4181
一證	-10.4182
寒涼	-10.4186
委	-10.4186
薑黄	-10.4187
多致	-10.4192
隂寒	-10.4193
煎令	-10.4195
昧	-10.4198
咬牙	-10.4201
▁千金方	-10.4203
羊腎	-10.4211
共末	-10.4212
雷丸	-10.4215
弓	-10.4222
胃經	-10.4222
而實	-10.4228
於脾	-10.4228
矣若	-10.423
金箔	-10.4232
凉血	-10.4234
歟	-10.4235
不退	-10.4236
翁	-10.4239
痒痛	-10.4246
有膿	-10.425
上升	-10.4251
丸梧桐子大	-10.4253
熊膽	-10.4254
以養	-10.4254
寸許	-10.4257
復發	-10.4257
熱證	-10.4258
示	-10.4261
壅塞	-10.4262
輭	-10.4264
厚味	-10.4264
五淋	-10.4264
臨時	-10.4264
一碗	-10.4265
研為細末	-10.4267
三斤	-10.4272
與服	-10.4276
甘温	-10.4279
之衇	-10.4282
悟	-10.4282
顔	-10.4284
日月	-10.4285
學者	-10.4285
加茯苓	-10.4287
亡津液	-10.4288
虛則	-10.4288
芋	-10.429
合和	-10.4304
不動	-10.4305
小便頻數	-10.4306
去穣	-10.4308
隂陽俱	-10.4309
小便赤澁	-10.4309
於下	-10.431
率	-10.4313
之法也	-10.4317
棗一枚	-10.4321
灸法	-10.4322
浸酒	-10.4323
沙參	-10.4326
糊丸	-10.4331
施治	-10.4333
惡物	-10.4333
為邪	-10.4335
彌	-10.4339
小便自利	-10.4341
甕	-10.4344
没	-10.4345
絞去滓	-10.4347
菊	-10.4349
臺	-10.435
三百	-10.4353
無問	-10.4355
蹄	-10.436
耳内	-10.4364
所以然者	-10.4365
末一錢	-10.437
房勞	-10.437
漉出	-10.437
芒消	-10.4378
各十	-10.4379
豆豉	-10.4381
脚弱	-10.4382
經行	-10.4382
瑞	-10.4383
梢	-10.4384
蛾	-10.4385
虛熱	-10.4385
栁枝	-10.4385
治虚勞	-10.4385
隂血	-10.4386
何如	-10.4389
為膏	-10.4393
氣分	-10.4394
戴人	-10.4394
露蜂房	-10.4395
而兼	-10.4395
各一服	-10.4396
素有	-10.4398
不妨	-10.4402
炒研	-10.4404
時珍	-10.4413
日三四服	-10.4414
蝸牛	-10.4414
其間	-10.4416
栝蔞	-10.4417
氣結	-10.4418
名醫	-10.4428
不成	-10.443
昆布	-10.443
心悶	-10.4432
趺陽	-10.4435
不隨	-10.4435
亢	-10.4436
新校正云按	-10.4436
白花蛇	-10.4439
右為細末用	-10.444
熱極	-10.444
晉	-10.4442
無病	-10.4443
鍼灸	-10.4444
等疾	-10.4447
腫處	-10.4447
出直	-10.4456
張仲景	-10.4457
尻	-10.446
百部	-10.446
否則	-10.4466
訶梨勒皮	-10.4469
未嘗	-10.447
刷	-10.4471
院方	-10.4473
髎	-10.4474
令熟	-10.4478
再入	-10.4479
丸梧子大	-10.448
渠	-10.4482
痞悶	-10.4488
槩	-10.4488
思慮	-10.4493
調胃承氣湯	-10.4493
蜜炙	-10.4494
黄柏	-10.4495
内攻	-10.4498
室女	-10.4499
去心焙	-10.45
又方取	-10.45
翳膜	-10.4504
險	-10.4507
圎	-10.4507
降氣	-10.4508
大小便不通	-10.4511
其本	-10.4511
憂思	-10.4514
下元	-10.4515
不固	-10.4518
毫	-10.4519
扁鵲	-10.452
產後	-10.4525
奔豚	-10.4525
三分去	-10.4527
二十一	-10.4528
桂附	-10.4531
如梧子	-10.4532
半夏湯	-10.4532
藥中	-10.4537
熱多	-10.4539
德	-10.4541
指方	-10.4541
輙	-10.4548
隂證	-10.4549
末服	-10.4556
毎服三錢水一盞	-10.4557
㢘	-10.4561
肝之	-10.4561
衇沉	-10.4568
兔	-10.4569
臍上	-10.4569
肌體	-10.4571
㵼之	-10.4572
右一味	-10.4575
在泉	-10.4578
醋淬	-10.4579
者但	-10.4583
魏	-10.4584
神昏	-10.4585
入水	-10.4587
虛損	-10.4587
金石	-10.4588
之㑹	-10.4593
脉大	-10.4595
而熱	-10.4604
渾	-10.4607
之性	-10.4607
米泔浸	-10.4608
不當	-10.461
爍	-10.4611
香白芷	-10.4615
燔	-10.4619
為之使	-10.4619
隂毒	-10.462
六府	-10.4622
芽	-10.4624
羣	-10.4624
急驚	-10.4624
每服二十丸	-10.4629
支飲	-10.463
先服	-10.4633
不下食	-10.4635
剥	-10.4635
氏曰	-10.4638
以火	-10.464
必須	-10.4642
鬼疰	-10.4642
倍加	-10.4643
檀香	-10.4646
方在	-10.4649
蒙	-10.465
繁	-10.465
惕	-10.4651
風府	-10.4651
擂	-10.4655
賊風	-10.4658
之主	-10.4659
蓽撥	-10.466
傷暑	-10.4662
收斂	-10.4664
先煮	-10.4664
蚘	-10.4667
語言	-10.4669
報	-10.4669
醫家	-10.467
一曰	-10.4671
諸般	-10.4672
即下	-10.4675
頭重	-10.4678
大劑	-10.4679
肺之	-10.4679
汁飲之	-10.468
項强	-10.4681
每服四錢水一盞	-10.4689
此之謂也	-10.4689
逹	-10.469
莢	-10.4691
目痛	-10.4697
牙疼	-10.4697
火熱	-10.4699
一年	-10.4702
同上	-10.4707
四物湯加	-10.4709
紙上	-10.4709
凡人	-10.4711
所致也	-10.4712
陽毒	-10.4712
脈之	-10.4715
原文	-10.4717
每服二錢水一盞	-10.4718
在於	-10.4719
脾主	-10.4719
惡寒者	-10.4723
薑桂	-10.4725
然則	-10.4728
膏藥	-10.4732
此亦	-10.4733
領	-10.4733
王氏	-10.4737
硃	-10.4739
中熱	-10.474
皆有之	-10.4743
調補	-10.4747
温無毒主	-10.4748
勒	-10.4758
虞	-10.476
椿	-10.4761
巴㦸天	-10.4761
粉草	-10.4762
爾雅云	-10.4762
恭曰	-10.4772
甚妙	-10.4772
竊	-10.4776
右為末蜜	-10.4781
消息	-10.4783
茅根	-10.4784
矣然	-10.4785
菉豆	-10.4786
不爾	-10.4788
隂邪	-10.4789
熊	-10.479
拒	-10.4793
徑	-10.4794
起發	-10.4795
灸三壯主	-10.4796
黄白	-10.4801
二陳湯	-10.4803
氣口	-10.4804
海桐皮	-10.4805
健脾	-10.4806
丸如彈子大	-10.4806
一個	-10.4807
濾去滓	-10.4809
有此	-10.481
煑汁	-10.4812
毎日	-10.4813
巔	-10.4818
氣味甘	-10.4829
肢節	-10.483
七箇	-10.483
乳香没藥	-10.4832
子云	-10.4833
入麝香	-10.4836
摘	-10.484
氣衰	-10.484
灸五壯	-10.4841
轉側	-10.4841
依前	-10.4843
羅為散	-10.4843
癲癎	-10.4844
其有	-10.4844
水一斗	-10.4849
竹筒	-10.4851
瘙痒	-10.4853
氣海	-10.4856
薑製	-10.4857
丸主之	-10.4857
翻	-10.4862
用大	-10.4865
盲	-10.4873
催生	-10.4877
必用	-10.4884
傷寒論	-10.4885
膨脹	-10.4889
之使	-10.4896
騰	-10.4903
其母	-10.4912
文武火	-10.4912
些	-10.4913
頭旋	-10.4914
治傷寒後	-10.4916
車前	-10.4916
吻	-10.4922
劣	-10.4925
少陽之	-10.4926
以通	-10.4933
坤	-10.4935
下之則	-10.4941
盛之	-10.4943
散治婦人	-10.4947
痰壅	-10.4949
水一鍾	-10.4949
培	-10.4951
身痛	-10.4952
又方以	-10.4956
不覺	-10.4959
逆也	-10.4968
黄土	-10.4968
往來	-10.4969
漢防己	-10.4973
診其脉	-10.4974
覆盆子	-10.4976
陰虚	-10.4985
右切	-10.4987
患人	-10.4988
寒冷	-10.4988
經脈	-10.499
則是	-10.499
不能自	-10.4994
入耳	-10.4994
浮者	-10.4999
脈弦	-10.5001
若是	-10.5005
栝樓	-10.5007
尺中	-10.5008
孰	-10.5009
緩弱	-10.5016
右為細散	-10.502
皆屬於	-10.5025
愈後	-10.5026
空心温酒下	-10.5031
薑五片	-10.5032
三沸	-10.5036
小指	-10.5036
酒一升	-10.5037
封之	-10.5037
六合	-10.5039
史君子	-10.5041
用加味逍遥散	-10.5043
為末入	-10.5044
無常	-10.5049
受傷	-10.5052
餘藥	-10.5053
陽證	-10.5054
辭	-10.5054
究	-10.5059
班	-10.5059
頭暈	-10.5065
通身	-10.5068
右十味	-10.5072
或為	-10.5075
解毒湯	-10.5083
水煑	-10.5083
氣化	-10.5083
胷滿	-10.509
分温三服	-10.5092
卒然	-10.5093
色如	-10.5096
如法	-10.5099
熱湯	-10.5099
兹	-10.51
煨熟	-10.5101
加當歸	-10.5101
一夜	-10.5106
佐之	-10.5106
潤燥	-10.5109
憊	-10.5118
有三	-10.5119
入生薑半分	-10.5127
囘	-10.513
脉來	-10.5132
貫衆	-10.5134
辛甘	-10.5134
日漸	-10.5141
亁薑	-10.5143
未有	-10.5144
三種	-10.5145
斃	-10.5146
人家	-10.5147
棄	-10.5147
炙草	-10.5147
月採	-10.5149
誤下	-10.515
極細	-10.5151
發熱者	-10.5154
三物	-10.5156
害人	-10.5158
豈可	-10.5158
驟	-10.5162
凖	-10.5164
榆	-10.5171
脘	-10.5177
手指	-10.5179
而行	-10.5181
崑崙	-10.5184
進飲食	-10.519
遺精	-10.519
清酒	-10.519
不為	-10.5191
者宜用	-10.5192
腸澼	-10.5192
口眼喎斜	-10.5194
𫝊之	-10.5198
藥性	-10.5199
者何	-10.52
右取	-10.5209
不可不	-10.5212
天下	-10.5215
二盞	-10.5216
百節	-10.5216
不住	-10.5217
作餅	-10.5224
毒藥	-10.5224
亦不可	-10.5225
以綿	-10.5225
現	-10.5234
出楊氏	-10.5236
可下	-10.5237
嘔血	-10.5238
補肝	-10.5238
不遂	-10.5242
為虚	-10.5242
三度	-10.5243
作痒	-10.5243
恭	-10.5243
淺深	-10.5243
者不治	-10.5244
脾之	-10.5246
撚	-10.5248
沉細	-10.5249
集驗方	-10.5252
鏡	-10.5253
袋	-10.5254
寢	-10.5254
客氣	-10.5257
治其	-10.5262
陣	-10.5263
家藏方	-10.5263
如麻豆	-10.5265
服食	-10.527
鋭	-10.5273
卿	-10.5273
心之	-10.528
每服五十丸	-10.5284
大柴胡湯	-10.5285
結成	-10.5286
是故	-10.5287
温水	-10.5298
由是	-10.5298
作羮	-10.5298
陰氣	-10.5298
懷	-10.5299
盃	-10.53
奴	-10.5301
青白	-10.5302
潤之	-10.5304
明矣	-10.5304
裡	-10.531
有血	-10.5312
燥濕	-10.5315
蘿蔔子	-10.5319
體倦	-10.532
火毒	-10.5328
不熱	-10.5329
經年	-10.5333
敢	-10.5336
切作	-10.5337
搔	-10.5341
盛者	-10.5344
薤	-10.5344
七寸	-10.5345
赤痛	-10.5346
桑皮	-10.5349
小品	-10.5351
一兩剉	-10.5352
敗毒	-10.5355
為逆	-10.5367
拭乾	-10.5369
木香散	-10.537
實大	-10.537
上品	-10.537
枚擘	-10.5371
痘後	-10.5372
又主	-10.5376
益智仁	-10.5378
諸氣	-10.5382
泄痢	-10.5388
加生薑	-10.5389
酪	-10.539
自汗出	-10.5391
以後	-10.5393
用六君	-10.5399
和解	-10.5402
遷	-10.5405
岀	-10.5407
口内	-10.541
僻	-10.5411
而大	-10.5414
葦	-10.5415
之謂	-10.5417
鹿角膠	-10.5418
久不瘥	-10.542
研爛	-10.5422
裏實	-10.5424
丹石	-10.5427
寸口脉	-10.5428
審其	-10.5431
骨痛	-10.5432
婆	-10.5433
五斗	-10.5434
謝	-10.5435
寜	-10.5435
猪膽	-10.5436
槌	-10.5437
嗜卧	-10.544
不止者	-10.5444
醋浸	-10.5449
何以知	-10.5453
通用	-10.5454
貳	-10.5456
占	-10.5456
記云	-10.5459
瘟疫	-10.5463
初發	-10.5463
戎	-10.5463
一錢半	-10.5472
開胃	-10.5474
悪	-10.5475
表熱	-10.5476
無陽	-10.5477
此言	-10.5477
痰熱	-10.5478
念	-10.5479
防已	-10.5479
苟	-10.5481
不守	-10.549
不効	-10.5492
放温	-10.5494
文仲	-10.5495
辯	-10.5496
之為	-10.5497
氣息	-10.5498
滯氣	-10.5501
亟	-10.5501
狗脊	-10.5502
八錢	-10.5502
心腎	-10.5505
膿出	-10.5507
止渇	-10.5509
見其	-10.5511
余曰	-10.5515
汁服	-10.5517
簡誤	-10.5518
相反	-10.5522
以助	-10.5522
小承氣湯	-10.5522
值	-10.5525
汚	-10.5527
尺脉	-10.5533
多年	-10.5533
大凡	-10.5535
不欲飲食	-10.5539
食則	-10.5543
於肝	-10.5544
丸如麻子大	-10.5544
熱酒調下	-10.5544
脉洪大	-10.555
導赤散	-10.5552
溶	-10.5553
二次	-10.5554
食後臨卧	-10.5554
凉藥	-10.5557
熱痛	-10.5563
而滑	-10.5563
治霍亂	-10.5564
於胃	-10.5565
十斤	-10.5568
菴	-10.5573
微汗	-10.5574
為患	-10.5574
潔古	-10.5575
和平	-10.5576
汗出而	-10.5581
濕地	-10.5587
梔	-10.5588
用六味丸	-10.5588
任意	-10.5593
争	-10.5596
皆為	-10.56
樗	-10.5602
煮熟	-10.5604
停滯	-10.5609
貝	-10.5615
令熱	-10.5616
寡	-10.5618
雷公云	-10.5623
動則	-10.5626
亦用	-10.563
不致	-10.5631
㽲痛	-10.5632
而治之	-10.5633
三壯	-10.5636
青黄	-10.5637
拌匀	-10.5637
神明	-10.5641
餳	-10.5644
巻中	-10.5645
可作	-10.5646
灸七壯	-10.5646
取肉	-10.5647
分為三服	-10.5647
普濟方卷	-10.565
血海	-10.5651
感寒	-10.5652
其藥	-10.5652
二證	-10.5653
目睛	-10.5655
白頭翁	-10.5662
乗熱	-10.5662
▁聖惠方	-10.5662
毎服一丸	-10.5665
層	-10.5668
甚而	-10.5669
丹田	-10.5669
時發	-10.567
脈沉	-10.5672
或加	-10.5682
談	-10.5685
乃以	-10.5685
不能制	-10.5685
麺	-10.5685
遠	-10.5687
韓	-10.5687
膏粱	-10.5694
勁	-10.5701
曝	-10.5702
白豆蔲	-10.5705
賦	-10.5707
膨	-10.5711
氣有餘	-10.5714
反張	-10.5715
嗣	-10.5715
沙糖	-10.5716
蝦蟇	-10.5716
蝟皮	-10.5718
右為散毎服	-10.572
出火毒	-10.5721
砒霜	-10.5722
兼服	-10.5723
活人	-10.5723
糯	-10.5726
孫真人	-10.5728
瞳人	-10.5729
沉重	-10.5735
嬰兒	-10.5738
癤	-10.5741
再以	-10.5742
之言	-10.5745
掘	-10.5745
枯礬	-10.5746
如小豆	-10.5751
刼	-10.5752
莧	-10.5753
芳	-10.5754
粉霜	-10.5755
加黄連	-10.5755
展	-10.5758
之常	-10.5758
孝	-10.5761
乳石	-10.5762
赤白帶下	-10.5763
葳靈仙	-10.5764
升麻柴胡	-10.5768
但以	-10.5768
罐	-10.5769
取效	-10.5774
仲景云	-10.5778
不發	-10.578
選方	-10.578
腫上	-10.5787
第七	-10.5788
量兒大小加减	-10.579
漸加至	-10.579
狼毒	-10.5792
漉	-10.5794
喘𠻳	-10.58
昏暗	-10.5801
舌下	-10.5807
抄	-10.5808
煎湯下	-10.5808
猪肝	-10.5811
湯治小兒	-10.5813
治脾	-10.5815
腎臟	-10.5816
柴胡湯	-10.5819
糊為丸	-10.5819
並用	-10.582
使之	-10.5821
虚邪	-10.5823
瓣	-10.5827
氣絶	-10.5828
為水	-10.5829
草果	-10.583
瘡中	-10.5832
血淋	-10.5832
今之	-10.5833
風虚	-10.5834
消化	-10.5841
不可服	-10.5842
咽喉腫痛	-10.5843
食不下	-10.5844
開花	-10.585
以散	-10.5852
郎	-10.5855
不舉	-10.5855
諸陽	-10.5855
新補	-10.5856
有二	-10.5858
茯	-10.5861
蒺藜	-10.5864
瞼	-10.5864
功用	-10.5865
膂	-10.5869
調治	-10.587
脬	-10.5873
連進	-10.5875
滌	-10.5876
治宜	-10.5879
水三升煮取一升	-10.588
氣鬱	-10.5882
和血	-10.5887
七味	-10.5888
則知	-10.5889
研入	-10.589
自下	-10.589
腸癰	-10.5893
焮	-10.5894
旣	-10.5894
水五升	-10.5894
下注	-10.5895
時珍曰按	-10.5897
若無	-10.5897
為正	-10.5897
偏風	-10.5898
氣力	-10.59
福	-10.5901
斟酌	-10.5903
不識人	-10.5906
水飛過	-10.5912
海蛤	-10.5913
耎	-10.5915
一次	-10.5917
油膩	-10.5922
第二十	-10.5928
欲作	-10.5928
鼻内	-10.5929
有五	-10.5931
屬陽	-10.5931
半去滓	-10.5932
棗大	-10.5932
三陰	-10.5934
久不愈	-10.5937
茯苓白术	-10.5942
有瘡	-10.5942
臉	-10.5944
逍遥散	-10.5947
水六升	-10.5948
控	-10.5948
百草霜	-10.5949
不分	-10.5956
筋脈	-10.5956
淋洗	-10.5958
之氣也	-10.5962
理中丸	-10.5963
崔	-10.5964
痠	-10.5969
瀉痢	-10.5971
明周王朱橚撰	-10.5972
而濇	-10.5972
甲乙	-10.5973
𤣥胡索	-10.5973
發斑	-10.5986
積氣	-10.599
十數	-10.5991
胡荽	-10.5992
一對	-10.5993
癘	-10.5993
亮	-10.5995
黄帝曰	-10.5995
合病	-10.5998
困倦	-10.5998
三斗	-10.5999
白石脂	-10.6005
無形	-10.6007
其瘡	-10.6007
用十全大補湯	-10.6008
憎寒	-10.6008
丸如桐子大每服	-10.6014
其痛	-10.6015
煎至六分	-10.6016
敗毒散	-10.6021
个	-10.6025
勿用	-10.6027
營衛	-10.6032
珍珠	-10.6032
終身	-10.6035
齗	-10.6043
湯治産後	-10.6045
推之	-10.6047
濕紙	-10.6052
湯浸去皮	-10.6053
寒中	-10.606
别錄	-10.6061
温無毒	-10.6062
所用	-10.6063
尖雙仁	-10.6072
燒之	-10.6074
此即	-10.6076
治熱病	-10.6081
生菜	-10.6082
末以	-10.6084
茹	-10.6086
匈	-10.6086
跳	-10.6087
實邪	-10.6089
七十丸	-10.609
皰	-10.6091
出醫方	-10.6092
骨碎補	-10.6095
入心	-10.6098
炮去皮	-10.61
茺蔚子	-10.6102
其葉	-10.6108
取下	-10.6109
則邪	-10.611
生血	-10.6111
九日	-10.6112
不老	-10.6114
釐	-10.6116
黒牽牛	-10.6117
怔忡	-10.6118
惡熱	-10.6118
二尺	-10.612
瞳子	-10.6122
冠	-10.6123
發作	-10.6125
石上	-10.6125
幽	-10.6127
多者	-10.613
諸家	-10.6133
胎動	-10.6142
遽	-10.6142
醫以	-10.6144
泄之	-10.6146
第六	-10.6147
疼痛不可忍	-10.6147
下血不止	-10.6148
故謂之	-10.6149
寒水	-10.6157
燒末	-10.6159
朴消	-10.6163
㓜	-10.6164
陽起石	-10.6165
膿成	-10.6166
兩目	-10.6167
叉	-10.6167
小兒驚癎	-10.6168
額上	-10.6171
其義	-10.6171
蘹香子	-10.6173
滋隂	-10.6177
東南	-10.6181
稽	-10.6183
闗節	-10.6185
男左女右	-10.6188
猪膽汁	-10.6189
下篩	-10.619
甚良	-10.6191
五痔	-10.6192
凝結	-10.6196
少少	-10.6197
校	-10.6198
熱退	-10.6198
右為細末煉蜜	-10.6199
治時氣	-10.6204
水三盞	-10.6204
脉浮而	-10.6206
戸	-10.6206
鉛丹	-10.6207
遂愈	-10.621
以甘	-10.6213
膊	-10.6215
血凝	-10.6215
羊脂	-10.6216
動脉	-10.6216
不一	-10.6218
氣血俱虚	-10.622
酌	-10.6221
五苓	-10.6222
加五味子	-10.6223
已潰	-10.6228
膺	-10.6229
前證	-10.623
百藥	-10.6235
鑑	-10.6235
凌	-10.6236
可食	-10.6238
魚際	-10.6239
范汪	-10.624
之極	-10.624
仙方活命飲	-10.6242
右細末	-10.6244
井水	-10.6246
壅熱	-10.6246
栝樓根	-10.6246
小腹痛	-10.6247
甆	-10.6247
者難治	-10.6248
卑	-10.6251
午時	-10.6254
針灸	-10.6257
紅色	-10.6258
瘡毒	-10.6258
腎氣丸	-10.6261
醋湯下	-10.6264
有水氣	-10.6265
必致	-10.6269
陽道	-10.6271
漸加	-10.6273
治男子婦人	-10.6282
光澤	-10.6282
大效	-10.6283
補肺	-10.6284
指甲	-10.6285
猫	-10.6286
羌活防風	-10.6286
成膿	-10.6286
蒴藋	-10.6286
消散	-10.6287
漸愈	-10.6288
者或	-10.6289
歩	-10.6292
日服	-10.6294
出膿	-10.6296
遺溺	-10.6296
衞氣	-10.6297
俛仰	-10.6298
去滑	-10.6306
以利為度	-10.6312
乃是	-10.6314
不思	-10.6316
經所謂	-10.6318
白石英	-10.6319
其類	-10.6319
令盡	-10.632
地黄湯	-10.6325
濕痺	-10.6325
過於	-10.6327
而不行	-10.6328
皇	-10.6329
深師	-10.633
方有執曰	-10.6333
别録曰	-10.6335
虀	-10.6339
脈微	-10.634
裹煨	-10.6341
投以	-10.6342
托裡	-10.6344
遂致	-10.6344
一把	-10.6346
傷氣	-10.6347
去皮心	-10.6355
剋	-10.6356
胷脇	-10.6359
右藥	-10.636
白焙	-10.6361
茯苓半夏	-10.6369
方書	-10.6374
消腫	-10.6376
死生	-10.6377
甘松	-10.6379
炙微	-10.6386
黃耆	-10.6388
致令	-10.639
久病	-10.6393
無定	-10.6393
治療	-10.6395
通氣	-10.6395
强直	-10.6397
大汗	-10.6398
服至	-10.64
焙各	-10.6401
湯化下	-10.6402
驚搐	-10.6403
蒸之	-10.6404
衡	-10.6404
釣	-10.6408
弟	-10.6409
醤	-10.641
氏云	-10.641
熱入血室	-10.6412
不清	-10.6414
分别	-10.6423
失宜	-10.6425
不慎	-10.6431
毒物	-10.6432
羊肝	-10.6438
成塊	-10.6439
蟬蛻	-10.6439
當補	-10.644
氣少	-10.6442
浮數	-10.6444
大便秘結	-10.6447
之證也	-10.6449
無疑	-10.6455
百㑹	-10.6458
婦人産後	-10.646
心胷	-10.6462
支滿	-10.6464
紫金	-10.6467
嘴	-10.6469
用白	-10.647
百杵	-10.6471
骨下	-10.6472
顴	-10.6478
浙	-10.6484
衝心	-10.6485
徴	-10.6485
監	-10.6487
人皆	-10.6488
五臟六腑	-10.6489
久而	-10.6491
加柴胡	-10.6492
醋調	-10.6493
保元湯	-10.6496
異功散	-10.6497
去心各	-10.6499
其方	-10.65
膽礬	-10.6503
救急	-10.6504
瓷	-10.6505
裏急後重	-10.6511
莭	-10.6514
人中	-10.6514
一大盞	-10.6519
飛過	-10.652
嚥之	-10.6522
之要	-10.6524
水一升	-10.6525
斛	-10.6527
並見	-10.6529
嬰	-10.6532
惡肉	-10.6533
兵	-10.6533
洗浄	-10.6534
響	-10.6534
亦如	-10.6541
半觔	-10.6541
惡寒發熱	-10.6541
痹	-10.6544
半兩去	-10.6546
噎塞	-10.6549
臟氣	-10.6553
膕	-10.6554
卒中	-10.6556
卒死	-10.6558
有因	-10.6562
茄	-10.6563
以水四升	-10.6565
濟生	-10.6566
而無力	-10.6567
寒熱往來	-10.657
中品	-10.6571
益黄散	-10.6571
丸菉豆大	-10.6572
炙半	-10.6572
矣此	-10.6575
利水	-10.6578
多則	-10.6579
旬日	-10.6581
嗌	-10.6582
温酒送下	-10.6583
調傅	-10.6587
擁	-10.6587
見鬼	-10.6588
丸子	-10.6592
有小毒	-10.6597
後重	-10.6598
脫肛	-10.6599
猪肚	-10.66
上至	-10.66
去目	-10.6601
尤宜	-10.6602
加木香	-10.6603
六君	-10.6603
右各	-10.6603
十片	-10.6604
今附	-10.6605
扇	-10.6612
雞子白	-10.6615
掩	-10.6615
蜀漆	-10.6616
今反	-10.6619
搗為末	-10.662
形色	-10.662
又灸	-10.6621
煎六分去滓	-10.6622
衇也	-10.6625
牛膽	-10.6627
有白	-10.6628
血燥	-10.6629
標本	-10.6629
清油	-10.663
少隂之	-10.6632
空心米飲下	-10.6633
綿褁	-10.6637
炒焦	-10.6639
叔	-10.6641
傷處	-10.6646
應手	-10.6652
茂	-10.6653
調經	-10.6653
潰而	-10.6654
當是	-10.6656
尺寸	-10.6667
荆三稜	-10.667
復傷	-10.667
欲嘔	-10.6672
寒藥	-10.6674
即安	-10.6678
裏證	-10.6678
腨	-10.6683
丸如梧桐子大每服二十丸	-10.6686
而小	-10.6687
吮	-10.6692
蟾	-10.6694
百丸	-10.6699
用力	-10.6703
形似	-10.6703
酒三升	-10.6705
清凉	-10.6709
二十枚	-10.6712
肚腹	-10.6715
宛	-10.6715
作湯	-10.672
百粒	-10.6721
烏賊魚骨	-10.6723
陳氏	-10.6725
不順	-10.6726
八月採	-10.6727
狼	-10.673
之毒	-10.6732
和胃	-10.6732
水調服	-10.6734
也蓋	-10.6735
咯血	-10.6736
厯	-10.6737
以蜜	-10.6738
二字	-10.674
㕮咀以	-10.6742
右為末入	-10.6742
石韋	-10.6745
四物加	-10.6746
嘔而	-10.6747
也故曰	-10.6747
心虚	-10.6748
治痰	-10.6749
右末	-10.6754
五藏六府	-10.6754
懼	-10.6763
表虚	-10.6764
再加	-10.6767
礙	-10.6767
凡使	-10.6767
旋復花	-10.6767
定痛	-10.6771
白鮮皮	-10.6772
煎至八分	-10.6772
腠	-10.6774
進一服	-10.6774
疳瘡	-10.6775
栝蔞根	-10.6779
便利	-10.6784
久患	-10.6792
緣	-10.6794
二三服	-10.6794
水一鍾半	-10.6794
神農	-10.6796
平無毒	-10.6799
痢疾	-10.68
之至	-10.6803
未可	-10.6805
治風熱	-10.6807
栢葉	-10.6808
止渴	-10.6809
諸蟲	-10.6812
湯浸去白	-10.6814
湯治傷寒	-10.6815
沐	-10.6816
毒腫	-10.6818
散治産後	-10.6819
逰	-10.6819
之形	-10.6821
以知為度	-10.6822
病勢	-10.6823
炒令黄	-10.6825
切痛	-10.6831
三七	-10.6831
之官	-10.6831
在胃	-10.6837
色紫	-10.6837
羙	-10.6838
吞之	-10.6844
用酒	-10.6844
􁁊	-10.6848
亦宜	-10.6852
麻痺	-10.6852
胃寒	-10.6853
不飢	-10.6858
不嗜食	-10.6864
要藥	-10.6873
補隂	-10.6873
茵芋	-10.6878
鷹	-10.6878
石淋	-10.6879
丸如小豆大	-10.6882
洞泄	-10.6882
傷肝	-10.6884
攪匀	-10.6885
耳前	-10.6896
風藥	-10.69
艱難	-10.6902
酒煑	-10.6902
助陽	-10.6903
詳見	-10.6903
足心	-10.6909
法治之	-10.6916
用補中益氣加	-10.6917
外熱	-10.6919
慢火熬	-10.692
清涼	-10.692
徵	-10.6922
每日空心	-10.6922
返	-10.6924
木鼈子	-10.6928
外障	-10.6929
糝	-10.6929
防葵	-10.6929
赤爛	-10.6935
黄赤	-10.6935
傳之	-10.6937
伏熱	-10.6939
怯弱	-10.6941
服一丸	-10.6941
色黒	-10.6941
調其	-10.6944
寒無毒	-10.6945
太陽陽明	-10.6947
虚火	-10.6948
吐涎	-10.6948
不與	-10.6948
先煎	-10.6948
臀	-10.695
威靈仙	-10.6952
運氣	-10.6952
魘	-10.6954
之象	-10.6954
妨悶	-10.6955
土炒	-10.6959
口渴	-10.6963
可得	-10.6967
風木	-10.6968
生薑半分	-10.6969
和藥	-10.697
四肢無力	-10.6974
治金瘡	-10.6975
内虚	-10.6975
此爲	-10.6976
洗瘡	-10.6977
身冷	-10.6977
眼赤	-10.6977
諸醫	-10.6979
不可發汗	-10.6979
五積散	-10.698
土𤓰根	-10.6982
炙㣲	-10.6983
五斤	-10.6985
屍	-10.6985
辛夷	-10.6987
多睡	-10.6989
耆	-10.699
晡熱	-10.699
疝瘕	-10.699
夷	-10.6994
數升	-10.6994
隂火	-10.6997
徃來	-10.6998
甘寒	-10.6999
爐	-10.7004
煩疼	-10.7007
韮	-10.7008
鐺	-10.7009
童子	-10.7009
煎至六分去滓温服	-10.701
氣不和	-10.7013
飲食不下	-10.7013
入肺	-10.7017
薑湯	-10.7023
霧	-10.7023
小水	-10.7024
治熱	-10.7024
弩	-10.7029
不嘔	-10.7029
可愈	-10.7032
盒	-10.7035
接骨	-10.7035
則爲	-10.7035
忤	-10.7037
楮	-10.7044
一石	-10.7046
募	-10.7046
所因	-10.7048
羌活獨活	-10.705
糟	-10.7055
寒無毒主	-10.7056
開口	-10.7059
出痘	-10.706
未必	-10.7064
之類主之	-10.7069
徃	-10.7069
紅活	-10.7073
而入	-10.7073
吹鼻	-10.7075
蘿	-10.7077
畫	-10.7077
鼻乾	-10.7079
通經	-10.708
用此藥	-10.7081
蓬术	-10.7088
小續命湯	-10.7092
金丹	-10.7093
淵	-10.7094
脈數	-10.7095
代赭石	-10.7096
内側	-10.7105
亦主	-10.7106
脉皆	-10.7107
利為度	-10.7107
燭	-10.7108
啜	-10.7109
酒拌	-10.7112
八日	-10.7116
方中	-10.7117
尚未	-10.7119
脉沈	-10.7119
熱酒	-10.7119
南人	-10.7121
行血	-10.7123
宻封	-10.7124
棗子	-10.7124
之餘	-10.7129
蘖	-10.713
聰	-10.713
則不能	-10.713
畨	-10.7131
喘而	-10.7132
災	-10.7133
三四日	-10.7135
二箇	-10.7137
院	-10.7138
其時	-10.714
更有	-10.714
入鹽	-10.7142
人所	-10.7143
飲食無味	-10.7143
不斷	-10.7156
梅師方	-10.7156
淳	-10.7156
飽食	-10.7157
赤者	-10.7159
譬	-10.716
目昏	-10.716
色不變	-10.7163
已出	-10.7164
最為	-10.7167
草根	-10.7169
腎虛	-10.7171
泄利	-10.7171
上條	-10.7176
作餅子	-10.7176
煮取三升	-10.7177
滑者	-10.7177
受風	-10.7178
如大豆	-10.718
當有	-10.718
吴	-10.7184
桔	-10.7188
關元	-10.7189
白花	-10.7191
日午	-10.7192
鬢	-10.7193
禁忌	-10.7194
嗌乾	-10.7194
右為末每服一錢	-10.7195
胎氣	-10.7196
甄	-10.7197
心膈	-10.72
硃砂為衣	-10.7202
見風	-10.7203
用四物	-10.7206
冷則	-10.7209
河間	-10.7209
夜半	-10.7209
煑取	-10.721
𤓰蒂	-10.7211
炙乾	-10.7212
㡬	-10.7217
㸃眼	-10.722
􁥥	-10.722
立差	-10.722
少力	-10.7221
漱	-10.7222
紫蘇葉	-10.7222
脾氣虚	-10.7223
焙乾為末	-10.7225
浸淫	-10.7225
溜	-10.7228
慎之	-10.7232
其身	-10.7233
所為	-10.7235
蓮子	-10.724
䝉	-10.7243
刺入	-10.7244
消毒散	-10.7248
飲食不進	-10.7249
年餘	-10.7255
瞑	-10.7256
加黄芩	-10.7257
上逆	-10.7259
不可攻	-10.7259
郄	-10.7261
凡用	-10.7263
薺苨	-10.7263
不任	-10.7268
十味	-10.7268
冷物	-10.7268
先將	-10.727
多而	-10.7271
江東	-10.7272
有竒	-10.7273
資生	-10.7275
六寸	-10.7278
日三夜一	-10.7281
中間	-10.7281
代赭	-10.7286
銅人經云	-10.7286
數次	-10.7286
以來	-10.7294
腫消	-10.7294
未見	-10.7295
▁普濟方	-10.7297
脉㣲	-10.7298
尋常	-10.7298
吴茱茰	-10.7301
二年	-10.7303
又服	-10.7304
酒服方寸匕日三	-10.7304
以綿裹	-10.7309
者胃	-10.7309
吐食	-10.7309
入生薑	-10.731
傅瘡上	-10.7313
食前以	-10.7315
兩月	-10.7317
相連	-10.732
急以	-10.7325
􁣲	-10.7327
三因	-10.7328
九十	-10.7329
春秋	-10.7332
醋炒	-10.7332
生化	-10.7336
於是	-10.7337
酒煎	-10.7338
不肯	-10.7339
未發	-10.7345
沸去滓	-10.7346
粥飲	-10.7347
往來寒熱	-10.7349
内經云	-10.7351
慢火煎	-10.7352
又當	-10.7352
出衛生	-10.7352
為表裏	-10.7353
也與	-10.7357
茯苓甘草	-10.7357
無根	-10.7359
至夜	-10.7362
面腫	-10.7363
亂髮	-10.7367
酒一盞	-10.7377
去皮各	-10.7379
夘	-10.7379
禦	-10.738
悦	-10.7381
腰疼	-10.7382
不愈者	-10.7384
乃愈	-10.7385
不節	-10.7387
青黒	-10.7389
此屬	-10.7389
求其	-10.7391
磁器	-10.7395
而能	-10.7396
為難治	-10.7399
心下堅	-10.7399
二两	-10.74
即用	-10.7401
豚	-10.7404
疲	-10.7404
單用	-10.7405
角弓反張	-10.7407
氣上逆	-10.7411
次第	-10.7412
食頃	-10.7413
鬼神	-10.7413
曬乾	-10.7413
内托	-10.7415
蟬退	-10.7415
煑取二升	-10.7417
食不化	-10.7417
與前	-10.7417
鬼氣	-10.7419
攻其	-10.742
毎服三	-10.7424
以紙	-10.7425
更作	-10.7428
未能	-10.7429
貧	-10.7433
體熱	-10.7435
狸	-10.7444
鍾乳粉	-10.7445
之原	-10.7446
脉微	-10.7451
證候	-10.7456
加味逍遥散	-10.7458
絃	-10.7459
蔞	-10.7459
想	-10.7464
癰疽發背	-10.7465
産後血	-10.7465
各四兩	-10.7468
治一人	-10.747
積冷	-10.747
滯下	-10.747
楊梅	-10.7471
足大指	-10.7471
出御藥	-10.7473
心腹疼痛	-10.7477
胆	-10.7477
鼻孔	-10.7477
大小腸	-10.7478
破傷風	-10.7478
兩傍	-10.7482
熏之	-10.7482
川歸	-10.7484
兮	-10.7485
未知	-10.7486
隂痿	-10.7487
怕	-10.7493
有毒主	-10.7494
右各等分	-10.7495
如粉	-10.7495
以新	-10.7496
走馬	-10.7499
槐子	-10.75
同身寸之	-10.7503
别有	-10.7505
流水	-10.7509
宜補	-10.7512
神思	-10.7513
初得	-10.7513
魂魄	-10.7513
風池	-10.7514
三十六	-10.7516
宜服之	-10.7518
兩脚	-10.7518
烘	-10.7519
三五日	-10.7521
中見	-10.7523
身上	-10.7526
食逺服	-10.7527
針之	-10.7528
痰逆	-10.7529
仰卧	-10.7529
次之	-10.7536
隂囊	-10.7537
衣被	-10.7539
惜	-10.7544
喘嗽	-10.7544
違	-10.7544
程應旄曰	-10.7545
便膿血	-10.7549
復有	-10.7551
嚼下	-10.7553
在中	-10.7554
人參當歸	-10.7557
脉浮大	-10.7557
鬼臼	-10.7557
化源	-10.7558
雷公	-10.7558
半両	-10.7559
用六君子湯	-10.7566
焮腫	-10.757
吐涎沫	-10.7571
觀其	-10.7573
有燥屎	-10.7574
脉證	-10.7576
胞中	-10.7577
一錢五分	-10.7578
以水一升	-10.7581
太衝	-10.7582
托裏散	-10.7595
運行	-10.7596
俱見	-10.7596
貞	-10.7597
御纂醫宗金鑑卷	-10.7598
藥治之	-10.7599
油調	-10.76
救之	-10.7604
加桂	-10.7605
裏寒	-10.7606
一方治	-10.7607
汁出	-10.7609
詵	-10.7609
傳於	-10.761
壓之	-10.761
勞損	-10.7611
為末每服二錢	-10.7612
乳香沒藥	-10.7617
下品	-10.7618
坐卧	-10.7621
以冷水	-10.7622
霍	-10.7625
者病	-10.7629
痕	-10.763
詢	-10.7631
之病也	-10.7631
用生薑	-10.7634
此非	-10.7637
半年	-10.7638
早晨	-10.764
三箇	-10.7641
手足冷	-10.7644
腠理開	-10.7645
頻頻	-10.7647
外以	-10.7648
黄精	-10.7652
俾	-10.7656
白湯	-10.7657
微火	-10.7658
世人	-10.7658
加山梔	-10.766
以鹽	-10.7663
作聲	-10.7665
效方	-10.7666
父母	-10.7666
虛冷	-10.7667
嚥下	-10.7667
馬齒莧	-10.767
在手	-10.767
消導	-10.767
十全大補	-10.767
不可近	-10.767
甜葶藶	-10.7671
湯療	-10.7672
寒温	-10.7674
恒	-10.7675
以水一大盞	-10.7676
清心	-10.7679
廓	-10.768
藕	-10.7682
蔓菁	-10.7682
陽蹻	-10.7684
目黄	-10.7685
枝葉	-10.7688
礜石	-10.7688
出第十	-10.7688
大便不實	-10.7688
炒熟	-10.7689
桶	-10.769
豆蔲	-10.7693
消毒飲	-10.7693
名也	-10.7694
絮	-10.7694
謂其	-10.7695
蟬殻	-10.7695
十餘劑	-10.7701
産難	-10.7705
小而	-10.7708
鍼三分	-10.7708
身黄	-10.771
欎	-10.771
羌	-10.7711
大法	-10.7714
傷其	-10.7716
以成	-10.7717
之義也	-10.772
口舌	-10.7724
大麻仁	-10.7726
微温	-10.7728
常令	-10.7728
加白术	-10.7738
劇者	-10.7738
水半盞	-10.7741
鼔	-10.7741
除風	-10.7743
者以其	-10.7743
脱肛	-10.7746
緫録	-10.7748
足冷	-10.775
寒多	-10.775
搥碎	-10.7752
羞明	-10.7755
宜先	-10.7757
不可與	-10.7757
殊不知	-10.7758
含化	-10.7765
疳痢	-10.7767
醋糊	-10.777
姚	-10.777
倚	-10.7772
見效	-10.7781
退熱	-10.7782
漸至	-10.7785
胃口	-10.7785
潤澤	-10.7786
毒攻	-10.7786
花粉	-10.7787
不可輕	-10.7789
右搗羅為末	-10.7793
入腎	-10.7794
痎瘧	-10.7796
髪際	-10.7796
流入	-10.7798
僅	-10.7798
之說	-10.7798
不受	-10.7799
右爲末	-10.7799
雞頭	-10.78
荆防敗毒散	-10.7807
出十便	-10.7812
久痢	-10.7813
重舌	-10.7814
局	-10.7815
檀	-10.7818
而利	-10.7819
凡病	-10.782
分再服	-10.7826
骨肉	-10.7826
極熱	-10.7827
虱	-10.7828
平人	-10.7829
佛	-10.783
倘	-10.783
蓽澄茄	-10.7835
煎至八分去滓温服	-10.7836
及一切	-10.7836
箆	-10.7837
志云	-10.784
則易	-10.784
山芋	-10.7841
蜂房	-10.7841
油調塗	-10.7843
治瘧	-10.7851
經血	-10.7852
之地	-10.7852
不便	-10.7854
其意	-10.7859
稷	-10.7861
清胃散	-10.7863
為末每	-10.7868
寳鑑	-10.7868
宿食不消	-10.7875
補脾胃	-10.7877
内用	-10.7877
傷心	-10.7878
入于	-10.7881
括	-10.7885
葶	-10.7887
阿	-10.7889
寤	-10.7889
黄連黄芩	-10.7889
鑿	-10.789
當下之	-10.7891
末和	-10.7892
不足則	-10.7894
補氣血	-10.7896
如聖	-10.7902
毎服半錢	-10.7907
燒研	-10.7908
煮令	-10.7908
關節	-10.7909
亦當	-10.791
二兩半	-10.791
攪令	-10.7911
蕩	-10.7912
三尺	-10.7912
水病	-10.7914
小青龍湯	-10.7915
此謂	-10.7915
練	-10.7916
不斂	-10.7917
為丸如梧桐子大	-10.7918
丸如梧桐子大毎服	-10.7919
白龍骨	-10.7923
肝主	-10.7929
穴主治	-10.7931
遲者	-10.7931
畜血	-10.7936
赤痢	-10.7936
水一小盞	-10.7936
人乳	-10.7937
根節	-10.7943
常以	-10.7943
雖不	-10.7944
沬	-10.7945
伍	-10.7946
健忘	-10.7947
量兒大小	-10.7949
嶺	-10.7952
合谷	-10.7954
觀之	-10.7954
不以多少	-10.7954
調敷	-10.7954
加減八味丸	-10.7955
一寸半	-10.7956
熟艾	-10.7957
掌中	-10.7958
生肉	-10.796
十二月	-10.7963
下咽	-10.7965
律	-10.7971
留於	-10.7972
口臭	-10.7972
氣行	-10.7974
人參白茯苓	-10.7974
地膚子	-10.7977
腫起	-10.7978
至春	-10.798
酒蒸	-10.7981
縳	-10.7981
醇酒	-10.7981
鮑	-10.7982
注於	-10.7984
白痢	-10.7984
胸痺	-10.7986
不拘時温服	-10.7988
亦有之	-10.7988
丸麻子大	-10.799
悶絶	-10.7991
雞冠	-10.7991
甲乙經	-10.7991
芹	-10.7997
牛肉	-10.7998
使然	-10.7998
頥	-10.8
跟	-10.8
右㕮咀以	-10.8001
水送下	-10.8001
懶	-10.8002
一産婦	-10.8003
火炙	-10.8005
鮓	-10.8006
餘熱	-10.8008
止之	-10.8008
酒送下	-10.801
君子	-10.8011
寄	-10.8011
傷折	-10.8015
臨臥	-10.8015
誤也	-10.8016
將息	-10.8017
遂用	-10.8017
和氣	-10.8019
氣味辛	-10.8022
非時	-10.8025
則止	-10.8028
子芩	-10.8029
隔紙	-10.8041
蔴	-10.8042
養生	-10.8042
右八味	-10.8042
三劑	-10.8044
状如	-10.8044
濕痰	-10.8045
用補中益氣湯加	-10.8048
棗仁	-10.8048
經宿	-10.8056
八風	-10.8056
潛	-10.8058
飴	-10.8061
足脛	-10.8063
乘之	-10.8065
治發背	-10.8066
翹	-10.8069
冬葵子	-10.8069
猪蹄	-10.807
流於	-10.8071
湯中	-10.8071
更入	-10.8072
常用	-10.8072
白膠香	-10.8074
而又	-10.8078
督脉	-10.8078
視物	-10.808
加芍藥	-10.808
覈曰	-10.8081
哺	-10.809
竄	-10.809
點	-10.8093
治瘰癧	-10.8095
表實	-10.8096
問其	-10.8097
並宜	-10.8098
和丸如梧桐子大	-10.8109
五十壯	-10.811
蒸熟	-10.8114
酒中	-10.8117
偃	-10.812
多生	-10.8125
切不可	-10.8129
微利	-10.8129
小柴胡加	-10.813
食不消	-10.8131
清肺	-10.8134
慄	-10.8135
陳藏器	-10.8138
和塗	-10.8142
𢎞	-10.8144
結熱	-10.815
艾炷	-10.8152
梳	-10.8153
一伏時	-10.8154
薑三片棗一枚	-10.8154
後世	-10.8155
漸成	-10.8158
粥飲調下	-10.8162
暑月	-10.8162
種之	-10.8164
見血	-10.8165
咽喉不利	-10.8167
仲淳	-10.8167
至隂	-10.8167
三十日	-10.8171
劑而愈	-10.8175
蔲	-10.8178
炙令黄	-10.818
限	-10.8185
令病人	-10.8185
空虚	-10.8185
所患	-10.8186
釵	-10.8188
薄荷湯	-10.8188
頓愈	-10.8197
肺病	-10.8198
在人	-10.82
為效	-10.8202
㿗	-10.8203
借	-10.8204
苑	-10.8207
入酒	-10.821
以行	-10.821
或問	-10.8211
初覺	-10.8212
滋養	-10.8214
湯藥	-10.8215
頻服	-10.8215
屬隂	-10.8216
服一升	-10.8218
相傳	-10.8219
八九日	-10.822
則成	-10.8224
牙痛	-10.8224
十全	-10.8233
測	-10.8234
腎肝	-10.8236
探	-10.8236
髮際	-10.8236
陽經	-10.8236
從外	-10.824
鐵粉	-10.8243
切一	-10.8243
奪命丹	-10.8245
豬苓	-10.8245
出百一	-10.8246
循行	-10.8247
丸彈子大	-10.8248
第八	-10.8249
眼中	-10.8254
胸膈不利	-10.8257
右等分為末	-10.8258
蚘蟲	-10.8258
有子	-10.826
損人	-10.8263
界	-10.8266
氷片	-10.8266
脇下痛	-10.827
繆	-10.827
殘	-10.8271
頭骨	-10.8272
酒服之	-10.8272
洒	-10.8275
去滓入	-10.8275
奄	-10.8275
主之若	-10.8281
蜣蜋	-10.8281
久不	-10.8283
與氣	-10.8284
菘	-10.8285
病必	-10.8287
末二錢	-10.8288
面色青	-10.8288
研令匀	-10.8288
好者	-10.8291
求之	-10.8291
緩而	-10.8294
鼎	-10.8294
慎勿	-10.8297
賤	-10.8298
閒	-10.8299
牝	-10.83
五十粒	-10.8303
荆芥穂	-10.8309
當從	-10.831
打撲	-10.8311
委中	-10.8312
潰瘍	-10.8313
末之	-10.8315
入眼	-10.8315
只是	-10.8318
余曰此	-10.832
怫	-10.8321
虛者	-10.8324
銳	-10.8324
千金療	-10.8326
愁	-10.8327
噙	-10.8329
叙	-10.8329
擦之	-10.8329
之類是也	-10.833
寸半	-10.833
段	-10.8331
四肢逆冷	-10.8334
虎脛骨	-10.8335
小便淋	-10.8336
轉動	-10.8339
米湯下	-10.8339
氣寒	-10.8344
四枚	-10.8345
青皮陳皮	-10.835
黄芩湯	-10.8351
為丸如	-10.8356
則必	-10.8362
方三首	-10.8363
淸	-10.8363
搥	-10.8364
香豉	-10.8365
㗜	-10.8365
莪术	-10.8366
紅腫	-10.8366
沒	-10.8368
隔蒜灸	-10.837
渴者	-10.8372
空心日午	-10.8374
亦妙	-10.8374
穀氣	-10.8374
霍亂轉筋	-10.8375
外科	-10.8375
如豆	-10.8376
豬肉	-10.8376
疣	-10.8376
瘟	-10.8378
東流水	-10.8378
是知	-10.8379
纂	-10.8384
瘈	-10.8385
榖氣	-10.8386
行歩	-10.8386
訛	-10.8387
不令	-10.8388
方見二十四	-10.8389
五粒	-10.839
研令勻	-10.839
鈴	-10.8391
上壅	-10.8396
小便不利者	-10.8398
青葙子	-10.8398
又法	-10.8399
鱉	-10.8399
久而不	-10.84
用桂枝	-10.8401
中心	-10.8403
零陵香	-10.8404
心氣不足	-10.8406
便愈	-10.8408
丸如黍米大	-10.8409
呪	-10.8409
骨節疼痛	-10.8412
本草云	-10.8413
由此	-10.8416
欲飲水	-10.8419
息肉	-10.8422
後入	-10.8427
浮萍	-10.8428
大指	-10.8428
疱	-10.8428
暑熱	-10.843
也有	-10.8435
不可不知	-10.8437
神妙	-10.8443
第九	-10.8448
洛	-10.845
楊氏	-10.8453
歴節	-10.8455
身體疼痛	-10.8455
右剉如麻豆大	-10.8456
癱瘓	-10.8457
風化	-10.846
煎之	-10.8467
化開	-10.8467
日一服	-10.8467
受寒	-10.847
辨之	-10.847
色變	-10.8471
血不足	-10.8471
怒氣	-10.8476
誤服	-10.8478
慘	-10.8479
先後	-10.848
菰	-10.848
宛宛中	-10.848
半表半裏	-10.8482
其表	-10.8482
程知曰	-10.8482
虞曰	-10.8482
出經驗	-10.8485
皷	-10.8485
血結	-10.8486
白丁香	-10.8487
當吐	-10.8487
蕎麥	-10.8488
道人	-10.8492
發汗後	-10.8492
立瘥	-10.8493
能除	-10.8494
出海	-10.85
嚥津	-10.85
右㕮咀每服	-10.8501
二錢匕	-10.8501
頰赤	-10.8504
治脾胃	-10.8507
由於	-10.851
黄芩甘草	-10.8514
丸梧桐子大每服	-10.8514
而不知	-10.8517
土中	-10.8517
姜汁	-10.8517
無效	-10.8521
有風	-10.8522
桑葉	-10.8528
與此	-10.8529
芥子	-10.853
火動	-10.853
丸如菉豆大每服	-10.8532
五七丸	-10.8534
也盖	-10.8534
背痛	-10.8535
多是	-10.8538
其聲	-10.854
醫方	-10.8542
亭	-10.8542
欲死者	-10.8543
苔	-10.8547
攻心	-10.8548
石南	-10.8548
頌	-10.8551
萎蕤	-10.8552
造化	-10.856
一兩湯浸	-10.8561
不常	-10.8561
死人	-10.8562
糊丸桐子大	-10.8564
補心	-10.8565
新書	-10.8569
毎服三十丸	-10.8572
治風毒	-10.8575
蔕	-10.8575
遶	-10.8577
注下	-10.8583
其味	-10.8585
血暈	-10.8586
亦是	-10.8589
瞤	-10.8596
之品	-10.8596
集驗	-10.8596
苦参	-10.8598
蟻	-10.8602
豌豆	-10.8607
蓮肉	-10.8608
不傳	-10.8609
脊骨	-10.8611
服三丸	-10.8611
右十二味	-10.8612
罨	-10.8612
外有	-10.8618
祛風	-10.862
弱而	-10.8624
當作	-10.8625
其精	-10.8628
血瘕	-10.863
釅醋	-10.8631
長夏	-10.8633
也又曰	-10.8634
園	-10.8635
膻中	-10.8636
幹	-10.8636
内諸藥	-10.8637
低	-10.8637
供	-10.8637
況	-10.8637
無血	-10.8639
其症	-10.864
鶴	-10.8643
西北	-10.8646
不住手攪	-10.8651
毒熱	-10.8654
文具	-10.8654
喘咳	-10.8655
右為細末煉蜜和	-10.8656
任脉	-10.8658
六升	-10.8659
汗解	-10.866
勃	-10.8664
括蔞	-10.8665
輕則	-10.8665
克	-10.8668
清肝	-10.8669
去毒	-10.867
去查	-10.8671
烊	-10.8673
變蒸	-10.8673
小腸氣	-10.8674
痰喘	-10.8674
磚	-10.8674
隂經	-10.8676
六脉	-10.8676
常有	-10.8676
補劑	-10.8683
酸疼	-10.8688
睡卧	-10.8688
為末煉蜜	-10.869
薏苡	-10.8695
乗之	-10.8697
體虚	-10.8698
用地黄丸	-10.8703
𣪚	-10.8704
忌食	-10.8708
養之	-10.8708
月水不通	-10.871
不從	-10.871
胃火	-10.8715
二三十丸	-10.8715
胃實	-10.8717
風寒濕	-10.8721
如何	-10.8723
以救	-10.8724
太息	-10.8725
直上	-10.8726
巻	-10.8726
夜間	-10.8727
氣痛	-10.8728
涎潮	-10.8729
晦	-10.8729
籠	-10.873
富	-10.8731
業	-10.8732
竹葉石膏湯	-10.8736
愼	-10.8737
狂走	-10.8737
候乾	-10.8739
三五次	-10.8741
留滯	-10.8741
孤	-10.8741
地之	-10.8743
安神丸	-10.8744
用好	-10.8744
右件為細末	-10.8745
白帶	-10.8746
也又云	-10.8747
不寐	-10.8747
之色	-10.8749
損其	-10.8749
稍熱	-10.8753
一撮	-10.8754
㣲温	-10.8755
酢物	-10.8759
臨泣	-10.876
瑩	-10.8763
隂腫	-10.8763
病已	-10.8765
糠	-10.8766
痛痒	-10.8766
火煅	-10.8767
初出	-10.8767
白斂	-10.8767
熬膏	-10.8768
爛研	-10.8769
獨參湯	-10.877
遠志	-10.8772
有異	-10.8775
始於	-10.8784
酒食	-10.8785
溝	-10.8787
㵼痢	-10.8788
陽虛	-10.8791
不息	-10.8792
兩頭	-10.8795
少愈	-10.8797
痿弱	-10.8797
益母草	-10.8797
乍寒乍熱	-10.8798
折傷	-10.88
至秋	-10.8801
碙砂	-10.8802
少加	-10.8805
利不止	-10.8812
直者	-10.8813
而惡寒	-10.8815
微細	-10.8816
乘虚	-10.8817
其肉	-10.8819
踰	-10.8821
蔽	-10.8822
用六味地黄丸	-10.8823
大附子	-10.8824
兄	-10.8829
尅伐	-10.883
帯	-10.8833
骨間	-10.8839
兩旁	-10.8845
煎汁	-10.8849
肺虚	-10.8849
為順	-10.885
陽病	-10.8852
瞀	-10.8852
白馬	-10.8853
頑痺	-10.8855
判	-10.8858
背上	-10.8858
熱痢	-10.8859
皆可服	-10.886
痰火	-10.8862
四順	-10.8866
每服十丸	-10.8867
肌表	-10.8868
其外	-10.887
流氣飲	-10.8873
相對	-10.8878
柴胡升麻	-10.8878
益人	-10.8878
結痂	-10.8879
又與	-10.8881
但有	-10.8886
傳經	-10.8887
蘇葉	-10.8887
又能	-10.8887
血多	-10.8889
作粥	-10.8891
間服	-10.8895
鱠	-10.8896
未止	-10.8896
而厥	-10.8903
人呼為	-10.8905
痠疼	-10.8906
秃	-10.8906
脉洪數	-10.8911
翻胃	-10.8912
寒厥	-10.8914
重則	-10.8915
用異功散	-10.8916
煎至五分	-10.8916
風眩	-10.8919
抵當湯	-10.8921
閃	-10.8922
侍	-10.8923
屬肝	-10.8924
出大全	-10.8926
巢	-10.8932
陽脉	-10.8932
煎取一升	-10.8934
生死	-10.8935
邪在表	-10.8938
鹽水	-10.894
炒二	-10.8941
其衇	-10.8945
橘皮湯	-10.8946
調下二錢	-10.8947
窒	-10.8947
赤箭	-10.8947
柏葉	-10.8947
而動	-10.895
姙	-10.8954
巨闕	-10.8955
猪腎	-10.8955
馬蹄	-10.8955
反折	-10.8955
廹	-10.8956
薛立齋治	-10.8957
曲池	-10.8959
儒	-10.8959
抹	-10.8959
飲食不節	-10.8961
補養	-10.8962
脾虛	-10.8962
主氣	-10.8963
差後	-10.8964
隂陽相	-10.8965
他藥	-10.8966
而氣	-10.8966
期門	-10.8967
服盡	-10.8968
亦曰	-10.8969
通行	-10.897
外傷	-10.897
昏悶	-10.8972
祛	-10.8976
夏至	-10.8976
努	-10.8978
薄切	-10.8979
不足也	-10.8979
血滯	-10.898
千杵	-10.8982
滑泄	-10.8983
職	-10.8984
作痛或	-10.8987
流通	-10.8987
甘草節	-10.8988
印	-10.8988
新校正云詳	-10.8993
身疼	-10.8993
賁	-10.8997
髭	-10.9
痰氣	-10.9002
者可治	-10.9006
二者	-10.9006
十四枚	-10.9008
相生	-10.9017
銅器中	-10.9017
通赤	-10.9017
服二丸	-10.9019
右為細末煉蜜為	-10.902
劈	-10.902
茱	-10.902
燎	-10.9021
海藻菘菜	-10.9022
入肝	-10.9025
蠐螬	-10.9025
桑枝	-10.9032
右為散每服二錢	-10.9033
入房	-10.9034
䕡茹	-10.9034
部位	-10.9035
膏成	-10.904
冩	-10.9042
浸之	-10.9042
用補中益氣	-10.9044
丸藥	-10.9045
弦者	-10.9046
進退	-10.9051
激	-10.9052
妄言	-10.9052
蠧	-10.9052
槐枝	-10.9054
冷痢	-10.9055
心下悸	-10.9056
傷胃	-10.906
漫腫	-10.9063
論中	-10.9064
可下之	-10.9068
又加	-10.907
葫蘆巴	-10.9071
則陽氣	-10.9071
註云	-10.9073
飴糖	-10.9073
詩云	-10.9073
煑取一升	-10.9078
温酒下三十丸	-10.9078
汁調	-10.908
右先將	-10.9081
穏	-10.9083
治男子	-10.9083
衇微	-10.9088
小薊	-10.9088
不易	-10.9089
瓜蔞	-10.9091
下流	-10.9092
可謂	-10.9093
二両	-10.9095
洩痢	-10.9096
辛散	-10.9096
營氣	-10.9098
却入	-10.9099
宜服此	-10.9099
陽維	-10.9104
蟄	-10.9105
半匙	-10.9105
誤吞	-10.9107
銀箔	-10.911
郭璞	-10.9114
憑	-10.9115
攤貼	-10.9116
胻	-10.9116
如前法	-10.9117
掠	-10.9121
參蘇飲	-10.9121
裏虚	-10.9122
刃	-10.9123
始得	-10.9123
日進三服	-10.9125
牽引	-10.9131
之位	-10.9132
未潰	-10.9133
門冬	-10.9133
一切風	-10.9133
蟲出	-10.9139
麻子仁	-10.9139
宮	-10.9141
滎	-10.9142
手足温	-10.9146
孟詵云	-10.9148
榆白皮	-10.9153
面色痿黄	-10.9153
脹悶	-10.9153
汗岀	-10.9156
歸身	-10.9159
所至	-10.9168
鍼刺	-10.9169
大痛	-10.917
出朱氏	-10.9172
羊角	-10.9175
𨗳	-10.9177
末傅之	-10.9177
平和	-10.9178
腰脊痛	-10.918
絳	-10.9183
腹中有	-10.9184
霞	-10.9185
娠	-10.9186
蝦蟆	-10.9187
之絡	-10.9188
瘥後	-10.919
也葢	-10.9192
脾胃不和	-10.9193
洪數	-10.9193
丼	-10.9197
大椎	-10.9198
食鹽	-10.9203
在左	-10.9204
疾病	-10.9204
茗	-10.9207
清濁	-10.9209
隂虛	-10.9211
臛	-10.9215
枸把	-10.9219
腫瘍	-10.9221
茜根	-10.9223
掺	-10.9224
葶藶子	-10.9225
入麝香少許	-10.9227
不眠	-10.9234
馬刀	-10.9235
每服不計時候以	-10.9236
煎湯洗	-10.9238
炎上	-10.924
腐爛	-10.9244
如粟	-10.9245
衝脉	-10.9246
誤用	-10.9247
量大小	-10.9249
掛	-10.9251
却以	-10.9252
煎湯調下	-10.9259
清涕	-10.9259
亦同	-10.926
分四服	-10.9262
服餌	-10.9264
苦楝	-10.9265
楮實	-10.9265
空心食前服	-10.9266
五嵗	-10.9273
書云	-10.9279
生地黃	-10.9282
蛔	-10.9283
茶清	-10.9283
瘇	-10.9285
捲	-10.9286
白睛	-10.9287
暍	-10.9287
一兒	-10.9289
桃枝	-10.9289
能生	-10.929
惡毒	-10.9291
黄連解毒湯	-10.9293
痞塞	-10.9295
衍義	-10.9295
以滋	-10.9299
所作	-10.9306
善怒	-10.9306
一小盞	-10.9307
之初	-10.9308
最多	-10.9314
彭	-10.9314
巧	-10.9315
一身盡	-10.9321
摩之	-10.9322
引用	-10.9327
翎	-10.9329
方寸	-10.9335
濁氣	-10.9339
生津	-10.9343
水磨	-10.9343
化為水	-10.9344
脾病	-10.9346
不疼	-10.9347
天癸	-10.9347
以水一盞	-10.935
産母	-10.9351
停飲	-10.9352
抽搐	-10.9355
治一切風	-10.9355
治癰疽	-10.9356
九味	-10.9359
不轉	-10.9361
導之	-10.9361
愚按	-10.9361
青盲	-10.9362
兩尺	-10.9362
靣色	-10.9363
紫蘇子	-10.9363
瘡頭	-10.9366
元陽	-10.9366
以苦酒	-10.9367
四圍	-10.9368
微弱	-10.9369
傷於寒	-10.9369
一頭	-10.937
搶心	-10.9372
等劑	-10.9378
越人	-10.9381
巖	-10.9382
梓	-10.9383
惠	-10.9385
寒食	-10.9386
消榖	-10.9389
厥冷	-10.9391
文蛤	-10.9393
濟方	-10.9396
無妨	-10.9397
在下焦	-10.9398
痘毒	-10.9402
巢氏	-10.9403
痘出	-10.9406
但見	-10.9409
臣禹錫	-10.941
傷血	-10.9413
沈細	-10.9415
㑹於	-10.9415
鞋	-10.9416
五箇	-10.9416
各少許	-10.9416
豈有	-10.9416
材	-10.9417
蕤仁	-10.9422
藥毒	-10.9425
其化	-10.9427
舌强	-10.9429
竒方	-10.9431
澼	-10.9432
藿	-10.9432
每用少許	-10.9434
丹溪云	-10.9436
月事	-10.9442
痰實	-10.9444
啄	-10.9445
朽	-10.9446
牙疳	-10.945
方四首	-10.945
太白	-10.945
瘁	-10.9451
倒靨	-10.9454
側子	-10.9456
右剉如麻豆	-10.9456
絞痛	-10.9461
腸風下血	-10.9463
肓	-10.9463
食逺	-10.9466
草菓	-10.9466
萬病	-10.9466
㵼心湯	-10.9468
弦而	-10.947
拌和	-10.9472
肌熱	-10.9472
洗净	-10.9473
白术甘草	-10.9475
前湯	-10.9476
楓	-10.9476
炒乾	-10.9476
鹵	-10.948
㨗	-10.9481
風火	-10.9482
太谿	-10.9482
摻之	-10.9485
㣲熱	-10.9485
大都	-10.9486
從下	-10.9486
加乾薑	-10.9488
土人	-10.9488
挽	-10.9488
莫能	-10.9489
黄瘦	-10.9489
章門	-10.9492
升麻葛根湯	-10.9495
鐺中	-10.9496
豬脂	-10.9497
按之則	-10.9499
用四君	-10.95
加至三十丸	-10.95
通神	-10.9504
已後	-10.9509
而愈後	-10.9509
湯浸七	-10.9512
變生	-10.9512
游	-10.9513
丹溪治	-10.9514
吐痢	-10.9514
錠子	-10.9515
豆淋酒	-10.9515
大渴	-10.9517
脾胃虚寒	-10.9517
微痛	-10.952
煮麫糊	-10.9523
燒作灰	-10.9523
陳藏器云	-10.9524
敷貼	-10.9527
陳米	-10.9527
蚛	-10.953
拌炒	-10.953
立齋	-10.9532
消盡	-10.9534
恒山	-10.9535
芷	-10.9535
竹葉湯	-10.9535
鋒	-10.9542
於皮膚	-10.9545
新水	-10.9547
百藥煎	-10.9548
肆	-10.9548
自除	-10.955
煮粥	-10.955
肺中	-10.9551
鉄	-10.9556
研半	-10.9556
皂子大	-10.9556
祟	-10.9558
為本	-10.9559
各有所	-10.9563
涼血	-10.9567
臼中	-10.9567
用八珍湯	-10.957
俗呼	-10.957
驚熱	-10.9575
臘月猪脂	-10.9576
直指方	-10.9578
之苦	-10.9578
銚子	-10.9579
偽	-10.958
𤼵熱	-10.9581
死不治	-10.9583
能消	-10.9588
脾胃虚	-10.9588
數年	-10.9588
猶可	-10.9591
喉閉	-10.9592
往来	-10.9592
喘逆	-10.9598
消風散	-10.9602
氣塊	-10.9603
三歳	-10.9604
便是	-10.9605
定粉	-10.9606
荷	-10.961
四合	-10.9614
尊	-10.9615
痼疾	-10.9618
桂心甘草	-10.9618
週	-10.9624
𤓰蔕	-10.9624
同為細末	-10.9626
熱渴	-10.9627
飲子治	-10.9629
白扁豆	-10.9642
右為末每服	-10.9642
陰中	-10.9645
鮮血	-10.9647
麋	-10.9648
其勢	-10.965
威	-10.9652
修合	-10.9653
程	-10.9653
喚	-10.9654
灑	-10.9654
肪	-10.9655
黏	-10.9655
内實	-10.9663
十二日	-10.9663
命曰	-10.9664
開竅	-10.9665
魅	-10.9669
療産後	-10.9672
人參黄耆	-10.9672
牛馬	-10.9675
肝脉	-10.9675
宜大承氣湯	-10.968
之謂也	-10.9681
以水一斗煮	-10.9681
氣通於	-10.9683
目暗	-10.9688
醋煑	-10.9689
黙黙	-10.969
黧	-10.9691
隂脉	-10.9692
不流	-10.9695
人參黄茋	-10.9695
須㬰	-10.9695
噯	-10.9698
眼睛	-10.9701
瓠	-10.9702
盛衰	-10.9702
絶骨	-10.9702
停積	-10.9703
毎服五十丸	-10.9703
面白	-10.9705
其理	-10.9708
之味	-10.9709
淋漓	-10.9711
下一丸	-10.9713
蝎稍	-10.9715
腦疽	-10.9721
瘡痘	-10.9724
根白皮	-10.9725
心下滿	-10.9726
岐伯	-10.9726
分温二服	-10.973
長短	-10.9731
僵	-10.9732
逆冷	-10.9733
醋和	-10.9733
荔枝	-10.9735
二十餘	-10.9735
亦非	-10.9739
四肢浮腫	-10.9739
盆中	-10.9744
為丸如菉豆大	-10.9747
太早	-10.9747
薊	-10.9747
招	-10.9753
真陽	-10.976
三遍	-10.9761
其名	-10.9762
素問云	-10.9763
吏	-10.9765
勿服	-10.9774
礶	-10.9774
可知矣	-10.9774
川楝子	-10.9776
泰	-10.9779
䵟	-10.9779
氣之所	-10.978
而痛者	-10.9781
膿潰	-10.9781
脈浮而	-10.9781
子宫	-10.9783
外寒	-10.9784
字當是	-10.9785
而愈一婦人	-10.9788
濯	-10.979
酒五升	-10.9791
鉤	-10.9791
無所不	-10.9791
一大升	-10.9793
仍服	-10.9794
方二首	-10.9795
作末	-10.9797
勝濕	-10.9797
難得	-10.9797
出永類	-10.9799
衛生	-10.98
炮去皮臍	-10.9801
右為麄末	-10.9802
椒目	-10.9802
食之令人	-10.9802
包絡	-10.9802
薑汁炙	-10.9803
炒香	-10.9804
煎取三升	-10.9804
太素	-10.981
而取之	-10.9811
保命	-10.9812
州郡	-10.9813
四畔	-10.9813
如此者	-10.9813
然谷	-10.9816
不得汗	-10.982
摸	-10.9825
極則	-10.9827
叢	-10.9827
有熱者	-10.9828
壺	-10.9829
草豆䓻	-10.983
拜	-10.983
叚	-10.9831
氣攻	-10.9832
益元散	-10.9832
茶下	-10.9833
平澤	-10.9834
五味異功散	-10.9838
尚有	-10.9843
口喎	-10.9848
空腹服	-10.9856
桃李雀肉	-10.9856
失守	-10.9857
和塗之	-10.9857
隆	-10.9858
隂蹻	-10.986
活命飲	-10.9865
外側	-10.9866
厠	-10.9867
水一盞入	-10.9868
少商	-10.9868
及婦人	-10.9869
白梅	-10.987
覆取汗	-10.9871
形證	-10.9872
先取	-10.9882
余以為	-10.9886
乾摻	-10.9894
煎藥	-10.9895
銜	-10.9897
清利	-10.9897
睫	-10.9903
浮沉	-10.9904
生蟲	-10.9905
歸芍	-10.9909
肝病	-10.9909
在腹	-10.9914
用六君子加	-10.9915
味甘平無毒主	-10.9918
痼	-10.9919
温藥	-10.992
令香熟	-10.9921
續注	-10.9921
逺近	-10.9923
動摇	-10.9924
四季	-10.9924
未有不	-10.9926
熾盛	-10.9927
下惡物	-10.9927
導引	-10.9927
者蓋	-10.9929
趾	-10.9929
戾	-10.993
釀酒	-10.9933
炒黒	-10.9933
真隂	-10.9935
痰𠻳	-10.9936
行步	-10.9937
谿	-10.9939
風疾	-10.9941
北人	-10.9941
血溢	-10.9941
利止	-10.9942
涼藥	-10.9944
和滓	-10.9945
攻裏	-10.9945
而然也	-10.9951
藏精	-10.9952
塗醋炙	-10.9952
畔	-10.9954
緩則	-10.9954
小児	-10.9955
同研勻	-10.9959
黄耆湯	-10.9961
酒一斗	-10.9962
水二盞煎至一盞	-10.9963
少陽經	-10.9963
茍	-10.9966
傷冷	-10.9967
欲其	-10.9967
味苦辛	-10.9967
汞	-10.9969
診其	-10.997
鋸	-10.9971
雞子黄	-10.9972
猪牙皂角	-10.9981
冲和	-10.9984
寄生	-10.9984
不惟	-10.9985
不得小便	-10.9987
制之	-10.9988
去沫	-10.9988
當歸尾	-10.9994
即發	-10.9994
豁	-10.9995
片腦	-10.9996
聲音	-10.9996
色紅	-11
犯之	-11
菉豆大	-11.0001
升麻葛根	-11.0002
五疳	-11.0002
秀	-11.0003
而得之	-11.0003
樓	-11.0004
范	-11.0005
渗	-11.0006
口渇	-11.0007
夢遺	-11.0008
飲食減少	-11.001
煎至五分去滓不計時候温服	-11.001
渣	-11.001
闗格	-11.0011
如梧桐子大	-11.002
别錄曰	-11.0021
涎沫	-11.0027
妄語	-11.0032
若誤	-11.0032
不榮	-11.0034
咳逆	-11.0037
無益	-11.0038
日華子	-11.0038
縷	-11.0038
湧泉	-11.004
大小便不利	-11.0041
之候也	-11.0041
傷腎	-11.0042
漬一宿	-11.0042
查	-11.0043
捕	-11.0043
水一碗	-11.0043
丞	-11.0044
多飲	-11.0047
歸脾	-11.0047
贅	-11.0048
未除	-11.0049
溺血	-11.0049
衆醫	-11.0054
並無	-11.0055
二曰	-11.0055
血止	-11.0056
臂痛	-11.006
聚於	-11.0061
丸治婦人	-11.0062
小建中湯	-11.0064
酒二升	-11.0066
目視	-11.0068
日乆	-11.0068
一椀	-11.0069
血塊	-11.0071
五七日	-11.0076
瘡癤	-11.0076
紛	-11.0077
為善	-11.0077
婦人血氣	-11.0078
焚	-11.0079
喪	-11.0079
松香	-11.008
桞	-11.0082
日數	-11.0083
蛤蚧	-11.0084
狼牙	-11.0084
荅曰	-11.0084
始生	-11.0087
令焦	-11.0088
酒疸	-11.0088
恚怒	-11.0088
生翳	-11.0089
不滿	-11.0089
適寒温	-11.01
去滓分三服	-11.0101
以水二升	-11.0103
胕腫	-11.0105
絡脉	-11.0108
准	-11.0112
當歸補血湯	-11.0113
分温再服	-11.0114
恱	-11.0115
益氣力	-11.0115
芡	-11.0117
熱淋	-11.0119
㹠	-11.0119
肢體倦怠	-11.0121
釣藤	-11.0122
温水調下	-11.0127
右為末每服三錢	-11.0129
滿痛	-11.013
煩亂	-11.0132
手心	-11.0133
治大人小兒	-11.0135
觧毒	-11.0136
至于	-11.0141
加桂枝	-11.0141
田野	-11.0143
刮去	-11.0148
紫黒	-11.015
薪	-11.015
奏	-11.0151
諸陽之	-11.0153
丹溪曰	-11.0154
之力	-11.0162
四支	-11.0162
甲子	-11.0163
其説	-11.0167
下之後	-11.0168
糊為丸如梧桐子大	-11.0177
菓	-11.0179
生痰	-11.0179
趨	-11.018
好醋	-11.0184
準	-11.0185
外䑓秘要	-11.0185
内托散	-11.0187
茋	-11.0188
途	-11.0188
發作有時	-11.0188
千里	-11.0189
濶	-11.0189
病機	-11.0191
冄	-11.0193
羌活湯	-11.0196
駐顔	-11.0197
水九升	-11.0199
㓜㓜	-11.0199
寒慄	-11.02
肝虚	-11.02
覆之	-11.02
瓶内	-11.0201
研細末	-11.0201
炮製去皮	-11.0203
新熱	-11.0209
動風	-11.021
之類皆	-11.021
宜服此方	-11.0211
脉氣所發	-11.0216
袪	-11.0217
糊丸梧子大	-11.0218
他病	-11.0218
米飲調	-11.0218
外敷	-11.0219
微腫	-11.0219
邪正	-11.0219
不知其	-11.0222
也時珍曰	-11.0223
並主	-11.0223
純陽	-11.0223
溏泄	-11.0225
散治一切	-11.0225
空青	-11.0225
太醫	-11.0228
以水一斗煮取三升	-11.0229
勿使	-11.0229
益血	-11.023
食物	-11.023
忍冬	-11.0232
澁痛	-11.0233
二條	-11.0234
乾山藥	-11.0242
錠	-11.0245
蘇合香丸	-11.0247
白秃	-11.0247
其道	-11.025
水調塗	-11.0252
儀	-11.0252
毛髪	-11.0256
様	-11.026
専治	-11.026
榮血	-11.0261
協	-11.0263
衇證	-11.0264
頭目昏眩	-11.0265
即效	-11.0265
太甚	-11.0265
回陽	-11.0266
瘵	-11.0267
庸	-11.0267
八正散	-11.0267
丸梧子大每	-11.0268
水二鍾煎八分	-11.0269
蘇恭	-11.0271
不見火	-11.0273
治頭風	-11.0275
研如泥	-11.0281
屬火	-11.0281
古今録驗	-11.0283
二嵗	-11.0289
川牛膝	-11.0289
温酒調下二錢	-11.0289
神志	-11.0292
煮食	-11.0292
燒烟	-11.0293
所化	-11.0294
衰弱	-11.0298
麻黄根	-11.0299
右為㪚	-11.0299
一寸五分	-11.03
腰腹	-11.0301
琖	-11.0301
無所見	-11.0302
冷熱不調	-11.0303
頂上	-11.0306
崩漏	-11.031
二十八	-11.0312
云是	-11.0316
减半	-11.0318
十棗湯	-11.0321
無窮	-11.0322
薑棗水煎服	-11.0325
亦可用	-11.0325
在肺	-11.033
黎	-11.0331
慶	-11.0331
云凡	-11.0339
性寒	-11.034
忌生冷	-11.0341
酒飲	-11.0342
本事方	-11.0345
緑豆	-11.0345
其疾	-11.0346
不省	-11.0348
病證	-11.0348
滑數	-11.0349
新汲水調下	-11.035
丸如菉豆大	-11.0351
因勞	-11.0352
不離	-11.0355
擘破	-11.0356
叔和	-11.0358
净洗	-11.0359
員	-11.0359
不饑	-11.0363
内結	-11.0367
姙婦	-11.0367
一鍾	-11.0367
上膈	-11.0368
㮣	-11.0368
噴	-11.037
試之	-11.037
勤	-11.0371
弔	-11.0376
袋盛	-11.0377
得吐	-11.0381
乾枯	-11.0381
羸弱	-11.0385
傳裏	-11.0386
皮薄	-11.0386
膽汁	-11.0387
右為細末每服一錢	-11.0388
脈洪大	-11.0391
舌乾	-11.0392
寛中	-11.0394
風寒暑濕	-11.0395
三十粒	-11.0401
狹	-11.0406
傷寒頭痛	-11.0412
隨氣	-11.0414
拇指	-11.0416
而痊一小兒	-11.0416
瀉心	-11.0418
加肉桂	-11.042
出焉	-11.042
六畜	-11.0422
横骨	-11.0424
根葉	-11.0424
在經	-11.0425
蹻	-11.0426
痰嗽	-11.0427
半夏麯	-11.0428
所感	-11.0429
炙剉各	-11.043
一二升	-11.0431
者病在	-11.0433
煎三五沸	-11.0433
硫	-11.0434
虚人	-11.0434
先生云	-11.0435
宜桂枝湯	-11.0436
治痟渇	-11.044
輯	-11.0443
大人小兒	-11.0446
忌生葱	-11.0448
聴	-11.045
右十一味	-11.0451
拍碎	-11.0451
四種	-11.0451
烟盡	-11.0451
陀	-11.0452
長一尺	-11.0452
以瘥為度	-11.0453
搨	-11.0454
世俗	-11.0454
虚極	-11.0458
龍眼	-11.0461
隨手	-11.0462
如珠	-11.0463
渴而	-11.0464
涎出	-11.0468
雖然	-11.0469
永不	-11.0469
不移	-11.0471
五辛	-11.0472
喎	-11.0475
踡	-11.0476
赤脉	-11.0479
麸	-11.0479
十一月	-11.0479
全無	-11.0479
乗虚	-11.0484
膿水淋漓	-11.0484
療小兒	-11.0485
五心煩熱	-11.0487
即今	-11.0487
當汗	-11.0489
所言	-11.0491
産後中風	-11.0491
始發	-11.0492
尸厥	-11.0496
水二盞煎至一盞去滓	-11.0497
其蟲	-11.0501
雞屎	-11.0503
為丸如梧桐子大每服	-11.0503
二七枚	-11.0505
南木香	-11.0506
空心温酒	-11.0506
焦黄	-11.0508
蛇蛻	-11.0515
火丹	-11.0517
水八升	-11.0518
脩	-11.0519
右為散每服	-11.0521
宅	-11.0521
友	-11.0521
鴉	-11.0524
心忪	-11.0524
嚙	-11.0525
繞臍	-11.0527
天柱	-11.0528
搔之	-11.0533
十五日	-11.0536
薄荷湯化下	-11.0536
傅上	-11.0538
四肢拘急	-11.054
白芥子	-11.0548
表未解	-11.0548
野葛	-11.0553
温服一升	-11.0553
四體	-11.0556
蛆	-11.0558
炒出汗	-11.056
决明	-11.0561
防風通聖散	-11.0563
訶黎勒	-11.0565
䖟蟲	-11.0566
海螵蛸	-11.0566
之由	-11.0568
蛇蜕	-11.0568
搗三二百杵	-11.0569
未得	-11.0569
桑柴	-11.0569
少年	-11.0569
枯燥	-11.057
此等	-11.0573
桔梗甘草	-11.0576
地膽	-11.0577
有瘀血	-11.0581
水淘	-11.0582
心悸	-11.0586
鳩尾	-11.0588
淅	-11.0589
年深	-11.0591
足三隂	-11.0594
風疹	-11.0595
隨年壯	-11.0598
研令細	-11.0598
氣脹	-11.06
天樞	-11.0601
撒	-11.0601
多驚	-11.0604
釘	-11.0608
木鱉子	-11.0613
採根	-11.0615
稀粥	-11.0615
一兩五錢	-11.0618
利水道	-11.0621
不思食	-11.0622
湯洗七	-11.0626
乘熱	-11.0629
貪	-11.0629
蔡	-11.0632
研如膏	-11.0632
井中	-11.0632
拂	-11.0633
如錐	-11.0633
巾	-11.0633
痛不可忍者	-11.0634
則津液	-11.0634
膏子	-11.0634
上部	-11.0635
鹹寒	-11.0636
煎至一鍾	-11.0639
採得	-11.0641
癱	-11.0642
剌	-11.0644
大夫	-11.0645
撮口	-11.0651
三十枚	-11.0655
有毛	-11.0656
當時	-11.0659
熟水下	-11.0659
最宜	-11.066
有効	-11.066
過期	-11.066
風温	-11.0664
存方	-11.0665
自死	-11.0666
胛	-11.0667
植	-11.0669
求治	-11.0676
骨痿	-11.0677
蟬蜕	-11.0678
如醉	-11.0678
通口服	-11.0681
上文	-11.0683
股内	-11.0684
尺澤	-11.0685
非常	-11.0688
酸苦	-11.0688
失於	-11.0695
再研	-11.0697
片子	-11.0697
快利	-11.0702
兊	-11.0703
未愈	-11.0706
瓦上	-11.0706
酸棗	-11.0707
銚	-11.0708
小指次指	-11.0709
子死腹中	-11.0709
無大熱	-11.071
咀	-11.0712
雉	-11.0712
種種	-11.0716
虛煩	-11.0717
跗	-11.0717
火上炎	-11.0719
再作	-11.0719
薑汁炒	-11.0721
去蘆各	-11.0722
蛇毒	-11.0723
潄口	-11.0732
衍	-11.0734
出仁	-11.0735
脈氣所發	-11.0737
脉滑	-11.0739
治妊娠	-11.0741
咽燥	-11.0743
痿厥	-11.0744
十指	-11.0744
笋	-11.0745
頭尾	-11.0745
經閉	-11.0747
血瘀	-11.0748
家人	-11.075
咎	-11.0751
泥固濟	-11.0752
二陳湯加	-11.0754
甘菊	-11.0754
右為細末入	-11.0754
夜多	-11.0756
月水不調	-11.0756
身凉	-11.076
如人行	-11.076
交接	-11.0764
三十年	-11.0765
必效	-11.0767
齒齗	-11.0769
蜜和丸	-11.0771
味厚	-11.0773
臨産	-11.0776
服十丸	-11.0776
汲	-11.0776
丸桐子大每服	-11.0779
痔瘻	-11.0779
多痰	-11.078
必効	-11.078
弛	-11.0781
仙人	-11.0782
依法	-11.0783
平胃	-11.0787
靈丹	-11.0788
胃氣虚	-11.0788
不解者	-11.0789
惡風寒	-11.0789
樹皮	-11.079
末酒服	-11.079
氣盛則	-11.0792
利膈	-11.0794
嬰孩	-11.08
建中	-11.0806
咯	-11.0806
酒毒	-11.0807
自覺	-11.081
手足厥逆	-11.081
豆䜴	-11.0813
手心主	-11.0814
功效	-11.082
零	-11.082
總括	-11.0822
㗋	-11.0823
火鬱	-11.0823
䐜脹	-11.0828
吕	-11.0828
􁐍	-11.0829
仙靈脾	-11.0829
竹刀	-11.0829
量大小加減	-11.083
四肢不舉	-11.0833
白麵	-11.0834
豈不	-11.0835
豆許	-11.0836
白前	-11.0844
靈砂	-11.0844
雄雞	-11.0845
味辛温	-11.0848
淨洗	-11.0852
未效	-11.0853
右㕮咀每服四錢	-11.0857
問之	-11.0858
紫黑	-11.0859
鬼魅	-11.0859
剉微	-11.086
去皮尖雙仁	-11.086
哀	-11.0861
祐	-11.0862
無聲	-11.0863
梔子豉湯	-11.0864
發渇	-11.0871
堂方	-11.0872
火旺	-11.0872
白薑	-11.0874
甄權	-11.0875
二十餘劑	-11.0877
在皮膚	-11.0878
右搗羅為散	-11.0879
散治姙娠	-11.088
此憑	-11.088
諸藥不效	-11.0883
一息	-11.0885
内補	-11.0885
瘴瘧	-11.0887
色黑	-11.0888
以好酒	-11.0889
不容	-11.089
太陽證	-11.089
逆順	-11.0891
右搗羅	-11.0894
篤	-11.0896
銅青	-11.0896
動作	-11.0897
罕	-11.0899
中府	-11.0901
經文	-11.0902
悮	-11.0904
殁	-11.0906
銷	-11.0907
其效	-11.0907
傳變	-11.0908
煤	-11.0908
鴈	-11.0909
右闗	-11.0914
三十餘劑	-11.0914
大麻子	-11.0916
尺許	-11.0918
其支者	-11.092
沈重	-11.0922
下三寸	-11.0923
外腎	-11.0923
决明子	-11.0927
米粉	-11.0932
服之又方	-11.0933
賴	-11.0936
藥不效	-11.0937
析	-11.0938
為良	-11.094
治大風	-11.094
丁香木香	-11.0941
評	-11.0943
苦辛	-11.0943
水一盞煎	-11.0946
都作一服	-11.0947
煑粥	-11.0947
冷痺	-11.0949
罌粟殻	-11.095
浸蒸餅	-11.0954
口眼	-11.0957
豈非	-11.0958
所不勝	-11.0958
肺主	-11.0959
消瘦	-11.096
絡於	-11.0961
相雜	-11.0961
過經	-11.0962
梧子大	-11.0964
偏勝	-11.0965
欬唾	-11.0966
子母秘録	-11.097
能補	-11.097
令沸	-11.0975
唾膿血	-11.0975
服方寸匕日三	-11.0976
浮大而	-11.0979
不著	-11.098
漸退	-11.098
白茅根	-11.0981
莧菜	-11.0981
盆内	-11.0982
熱厥	-11.0983
時復	-11.0985
補虛	-11.0985
揑	-11.0989
廣濟療	-11.0992
陳皮甘草	-11.0994
重按	-11.0996
洗焙	-11.1
煑熟	-11.1001
脉遲	-11.1002
無比	-11.1003
續命湯	-11.1004
最良	-11.1004
水濕	-11.1005
勝復	-11.1008
十種	-11.101
吹入	-11.101
酒色	-11.1014
其源	-11.1018
丁曰	-11.1019
萎㽔	-11.1019
寓	-11.102
鉢	-11.1021
晴	-11.1021
石膽	-11.1021
迴	-11.1021
黑牽牛	-11.1022
囓	-11.1022
之機	-11.1024
吹之	-11.1025
王不留行	-11.1025
痔疾	-11.1025
淮南	-11.1027
韭子	-11.1032
宣明	-11.1034
薑七片	-11.1035
搗羅	-11.1041
灰白	-11.1045
明礬	-11.1046
之道也	-11.1048
莫不	-11.1049
有功	-11.105
狀似	-11.1054
燒赤	-11.1055
丘	-11.1056
猶有	-11.1057
宗筋	-11.1058
啞	-11.1058
藥下之	-11.1059
頭痛發熱	-11.1059
母子	-11.1062
乂	-11.1066
用紙	-11.1066
澹	-11.1068
遲則	-11.107
礞石	-11.1071
早晚	-11.1071
清汁	-11.1076
補中益氣湯加	-11.108
小腹滿	-11.1083
虎睛	-11.1084
所苦	-11.1088
脉訣	-11.1091
弦數	-11.1093
神功	-11.1094
複	-11.1095
蓐	-11.1098
飮	-11.1098
脉洪	-11.1098
不喜	-11.1101
峻補	-11.1102
瀉火	-11.1103
採無時	-11.1104
互相	-11.1106
加味逍遙散	-11.1107
急慢驚風	-11.111
惡食	-11.111
煑取三升	-11.1114
伏梁	-11.1115
臍腹疼痛	-11.1115
二三錢	-11.1115
温酒或	-11.1115
銅人	-11.1117
湯吞下	-11.1117
為粗末	-11.1123
於裏	-11.1123
煎成膏	-11.1125
客邪	-11.1133
龜甲	-11.1138
薺	-11.1139
弊	-11.114
概	-11.1142
起脹	-11.1142
加味歸脾湯	-11.1143
也又有	-11.1144
竝	-11.1147
寺	-11.1148
七錢半	-11.1152
内陷	-11.1153
卧不安	-11.1155
切忌	-11.1156
用歸脾湯	-11.1159
壅盛	-11.1164
傷元氣	-11.1165
姓	-11.1168
勞瘵	-11.1171
留七呼	-11.1172
秘方	-11.1174
兩邊	-11.1174
筋骨疼痛	-11.1175
氣交	-11.1175
白屑	-11.1177
珣	-11.1178
未破	-11.1179
䟽	-11.1179
影	-11.1182
如豆大	-11.1183
四時之	-11.1183
川黄連	-11.1183
入研了藥	-11.1185
甚至	-11.1186
者有因	-11.1186
䕡	-11.1186
甞	-11.1186
數月	-11.1188
血妄行	-11.1188
𤣥参	-11.119
久久	-11.119
有大毒	-11.119
棟	-11.1191
蘆薈丸	-11.1191
袪風	-11.1192
日進	-11.1193
煎一盞	-11.1194
感冒	-11.1194
同煮	-11.1196
汗不止	-11.1197
客于	-11.1198
瀉肝	-11.1202
一夕	-11.1203
自安	-11.1205
甚者加	-11.1207
所載	-11.1208
睡中	-11.1213
山豆根	-11.122
再發	-11.122
懊憹	-11.122
肺主氣	-11.1222
顛倒	-11.1223
頰車	-11.1223
邪客於	-11.1225
血閉	-11.1225
四肢厥冷	-11.1227
傷脾胃	-11.1227
馬藺	-11.1228
四君子湯加	-11.123
摶於	-11.124
三日後	-11.1241
乆則	-11.1244
未定	-11.1245
五里	-11.1247
雀目	-11.1248
近世	-11.1248
牙闗	-11.1251
噫氣	-11.1254
抱朴子	-11.1258
塗之又方	-11.1261
訪	-11.1261
溼熱	-11.1263
葡萄	-11.1263
劉寄奴	-11.1263
蔓生	-11.1264
肉荳蔲	-11.1266
用六君加	-11.1267
𢃄	-11.1267
藕汁	-11.1268
以差為度	-11.127
甘平	-11.1272
増寒	-11.1274
面黒	-11.1277
形狀	-11.1278
皂角刺	-11.128
銀石器内	-11.1281
薑三片棗二枚	-11.1281
一分炙	-11.1284
大便鞕	-11.1285
努肉	-11.1285
耳目	-11.1286
菽	-11.1287
訶	-11.1287
調養	-11.1288
湯浸去皮尖雙	-11.1292
無異	-11.1294
目録	-11.1296
窌	-11.1298
逸	-11.1299
倫	-11.13
出油	-11.13
可救	-11.1301
飼	-11.1302
毬	-11.1303
扁豆	-11.1304
東垣云	-11.1305
南海	-11.1305
沾	-11.1305
鷰	-11.1305
各異	-11.1308
蘸藥	-11.1309
多唾	-11.1311
攻毒	-11.1312
早晩	-11.1313
絍	-11.1314
桔梗湯	-11.1317
成珠	-11.1319
闗元	-11.1321
熱渇	-11.1323
服藥後	-11.1323
痺不仁	-11.1325
瓷器	-11.1325
塞耳	-11.1331
小便多	-11.1332
濡弱	-11.1333
腑臟	-11.1334
少腹痛	-11.1334
氣虚而	-11.1337
受濕	-11.1338
踵	-11.134
護	-11.1342
樟	-11.1342
謀	-11.1344
越婢	-11.1344
檢	-11.1345
痞鞕	-11.1348
紫河車	-11.1349
蓬莪茂	-11.1349
香熟	-11.1349
渉	-11.1349
因驚	-11.135
部分	-11.135
四味肥兒丸	-11.135
蜀葵	-11.1351
黄汗	-11.1352
倣此	-11.1353
刺期門	-11.1355
出不快	-11.1358
蒸蒸	-11.1365
賊邪	-11.1366
腥臭	-11.1368
人事	-11.1369
藴熱	-11.1371
蒺䔧	-11.1372
酒漬	-11.1373
鳩	-11.1373
相干	-11.1376
風雨	-11.1378
糟粕	-11.1381
手臂	-11.1383
者多矣	-11.1383
昭	-11.1383
遭	-11.1383
􁁜	-11.1386
罪	-11.1388
麥門五味	-11.1388
大青龍湯	-11.139
彊	-11.1392
而言之	-11.1392
煉蜜為丸如梧桐子大	-11.1394
踏	-11.1394
下膿血	-11.1395
五更初	-11.1407
益氣湯	-11.1408
太乙	-11.1411
巴豆霜	-11.1412
不載	-11.1412
蟲蝕	-11.1412
射香	-11.1412
彰	-11.1414
變白	-11.1415
無害	-11.1415
神門	-11.1417
木香㯽榔	-11.1417
室中	-11.1417
歌曰	-11.1418
貨	-11.1419
匱	-11.1419
身腫	-11.1421
誰	-11.1421
二十粒	-11.1425
拆	-11.1425
玩	-11.1427
怫鬱	-11.1428
皴	-11.1431
下降	-11.1432
抱龍丸	-11.1434
酒製	-11.1437
發熱頭痛	-11.1438
之紀	-11.144
伏暑	-11.1444
尚可	-11.1457
折之	-11.1458
以帛	-11.1461
䯒	-11.1462
頤	-11.1462
邑	-11.1464
掉	-11.1465
參苓	-11.1466
婢	-11.1471
遮	-11.1471
以水六升煮取二升	-11.1471
屬脾	-11.1472
廣州	-11.1475
病得之	-11.1475
不計時候温服	-11.1476
歸於	-11.1477
治婦人血風	-11.1481
每服一字	-11.1485
剉㣲	-11.1493
不待	-11.1494
煎至一盞去滓温服	-11.1495
心躁	-11.1498
叢生	-11.1499
閉目	-11.1499
熟為度	-11.15
惡阻	-11.1501
治牙齒	-11.1501
活人書	-11.1501
銚内	-11.1502
喘欬	-11.1504
心中懊憹	-11.1505
初病	-11.151
隂器	-11.1511
賁豚	-11.1512
血枯	-11.1514
月經不調	-11.1515
洗眼	-11.1516
夏枯草	-11.1517
胭脂	-11.1518
人中白	-11.1518
死胎	-11.1522
畏寒	-11.1524
如蟲行	-11.1528
農	-11.1529
三隂三陽	-11.1533
右寸	-11.1534
壯筋骨	-11.1535
不可妄	-11.1536
尤良	-11.1542
花實	-11.1543
陳皮半夏	-11.1548
服前藥	-11.1549
黄茋湯	-11.155
三五丸	-11.1551
肺腎	-11.1551
厥隂之	-11.1551
呻吟	-11.1551
亦效	-11.1552
經騐方	-11.1553
大者如	-11.1553
毎服五錢水一盞半	-11.1555
口齒	-11.1555
參耆	-11.1556
鬆	-11.1559
文義	-11.1559
川朴硝	-11.1562
飛尸	-11.1563
攪令勻	-11.1564
燒灰存性	-11.1569
易産	-11.1571
噙化	-11.1575
頭髪	-11.1575
癲狂	-11.1577
熱如火	-11.1583
山梔子仁	-11.1583
食令人	-11.1584
沉遲	-11.1584
腸間	-11.1587
荒	-11.1587
齧	-11.1589
棗肉和	-11.1589
胞絡	-11.1595
墻	-11.1596
凉膈散	-11.1597
六銖	-11.1597
竹木	-11.1598
搗羅為散	-11.1598
微火煎	-11.1601
含嚥	-11.1607
乳哺	-11.1607
疔腫	-11.161
無味	-11.1611
卒暴	-11.1612
附子理中湯	-11.162
答	-11.1621
石脂	-11.1621
别搗	-11.1623
各半錢	-11.1624
不以時	-11.1625
有宿食	-11.1626
茶清調下	-11.1628
杖瘡	-11.1628
喝	-11.1629
悍	-11.1629
關上	-11.1629
陰乾	-11.163
所能	-11.163
午前	-11.1633
奚	-11.1634
不醒	-11.1635
自退	-11.1636
敬	-11.1637
揭	-11.1637
許大	-11.164
薑水煎	-11.1641
裹之	-11.1642
胎動不安	-11.1643
皂角子	-11.1643
壅遏	-11.1646
二十七	-11.1648
用八味丸	-11.165
依此	-11.1651
荆芥防風	-11.1654
半分三服	-11.1657
四肢疼痛	-11.1659
毎服二十丸	-11.166
病家	-11.1661
辛苦	-11.1664
三五服	-11.1664
腦麝	-11.1665
瀆	-11.1672
枸	-11.1673
掲	-11.1676
未滿	-11.1676
右為末酒糊	-11.1677
丼草	-11.1678
馬兠鈴	-11.1678
蛇牀子	-11.1679
水盞半	-11.1679
柏子仁	-11.168
去翅足	-11.168
衇數	-11.1682
為末每服一錢	-11.1684
又何	-11.1687
塗酥	-11.1687
氣街	-11.169
中封	-11.1692
半載	-11.1695
治之而愈	-11.1698
真人	-11.1698
發于	-11.1704
丸小豆大	-11.1705
温煖	-11.1708
丁腫	-11.1709
蚊	-11.1711
䋲	-11.1713
闔	-11.1713
以水九升煮取三升	-11.1716
攻注	-11.1716
入前藥	-11.1719
伏火	-11.172
天符	-11.1724
澤漆	-11.1727
瞤動	-11.1727
衝陽	-11.1731
治小兒疳	-11.1733
如不應	-11.1733
右㕮咀每服五錢	-11.1734
粥方	-11.1738
居士	-11.1739
房事	-11.1741
胎毒	-11.1741
得效	-11.1743
日華	-11.1747
菀	-11.1748
上視	-11.1751
秘結	-11.1752
犬咬	-11.1755
枳术丸	-11.1756
紫參	-11.1756
逾	-11.1759
身疼痛	-11.1759
舶	-11.1761
絹袋	-11.1761
近道	-11.1764
保和丸	-11.1765
閣	-11.1765
河東	-11.1768
診其脈	-11.1774
呷之	-11.1775
六淫	-11.1776
味苦寒	-11.1782
以防	-11.1785
心主血	-11.1786
變證	-11.1793
味辛温無毒主	-11.1797
以水八升煮取三升	-11.18
確	-11.18
豐	-11.1801
黄芩芍藥	-11.1801
遣	-11.1801
佗	-11.1802
尸疰	-11.1804
瘠	-11.1804
沙石	-11.1805
梧桐	-11.181
桃葉	-11.1813
元氣虚	-11.1815
忌猪肉冷水	-11.1815
痼冷	-11.1823
所養	-11.1825
起于	-11.1826
三黄丸	-11.1832
聖恵方	-11.1833
去滓分温三服	-11.1834
五勞	-11.1835
食醫心鏡	-11.1837
銅器	-11.1838
但當	-11.184
汗自出	-11.184
萍	-11.1842
冝服	-11.1844
啓	-11.1848
婁	-11.185
涉	-11.1851
賜	-11.1855
四神丸	-11.1855
張文仲	-11.1856
四肢不收	-11.1856
下利不止	-11.1857
用前藥	-11.1857
桃仁承氣湯	-11.1858
未復	-11.186
調勻	-11.1864
瓶中	-11.1864
瀉其	-11.1871
南北	-11.1871
腰腿	-11.1874
最妙	-11.1876
乳頭	-11.1876
可攻	-11.1882
不落	-11.1883
依前法	-11.1884
喻	-11.1889
閩	-11.189
清陽	-11.1894
嚢	-11.1894
紅藍花	-11.1895
澡	-11.1896
塗酥炙	-11.1897
成片	-11.1898
稀稠得所	-11.1901
四君子加	-11.1903
脉緩	-11.1903
米飲送下	-11.1905
充實	-11.1905
間日	-11.1906
水一中盞入生薑半分	-11.1906
㣲汗	-11.1911
腎藏	-11.1914
上星	-11.1915
小便白濁	-11.1916
發熱作渴	-11.1917
入藥末	-11.1918
痬	-11.1925
獺	-11.1928
湯下二十丸	-11.193
毒盛	-11.1931
勇	-11.1933
川連	-11.1933
季夏	-11.1934
泠	-11.1934
去黑皮	-11.1934
差止	-11.1939
柴胡黄芩	-11.194
治其本	-11.1941
痞氣	-11.1942
陶云	-11.195
和丸如梧桐子大每服	-11.195
如氷	-11.1955
水泡	-11.1955
心包絡	-11.1955
附子一枚	-11.1956
風濕痺	-11.1957
發渴	-11.1959
麝香少許	-11.1965
刺可入同身寸之	-11.1966
酒半盞	-11.1968
小便不禁	-11.197
處處有之	-11.197
足少陰	-11.1975
惱	-11.1975
面目浮腫	-11.1976
丙丁	-11.1977
腰中	-11.1978
南星半夏	-11.1981
蚤	-11.1981
入鹽少許	-11.1981
即活	-11.1981
性温	-11.1981
嗔	-11.1982
石硫黄	-11.1985
列缺	-11.1985
右搗篩為散	-11.1986
打撲傷損	-11.1986
固濟	-11.1988
癥癖	-11.1988
收靨	-11.1989
萆	-11.199
消穀	-11.1993
走注	-11.1994
不得屈伸	-11.1995
胸背	-11.1999
醫學	-11.2007
杲	-11.2008
禾	-11.2011
網	-11.2018
去皮尖雙	-11.2018
痃	-11.2021
千金同	-11.2021
同出第	-11.2024
百脉	-11.2028
沸湯㸃服	-11.2029
身面	-11.2031
慎不可	-11.2031
心下痞鞕	-11.2031
續㫁	-11.2032
橘皮湯下	-11.2032
蒺藜子	-11.2036
止汗	-11.2037
大敦	-11.2038
脚腫	-11.2038
秫米	-11.204
温酒調服	-11.2041
補瀉	-11.2041
不能勝	-11.2045
之意也	-11.2047
雞蘇	-11.2049
調胃	-11.205
剛柔	-11.205
作瀉	-11.2053
搽之	-11.2054
方寸七	-11.2057
蘄	-11.2059
胃弱	-11.206
汗吐下	-11.2062
今處處有之	-11.2064
虺	-11.2065
爲病	-11.2066
待冷	-11.2067
出濟生	-11.2068
軰	-11.2069
顫	-11.207
甘露飲	-11.2075
三上三下	-11.2077
吐蚘	-11.2077
目瞑	-11.2079
惡候	-11.208
集成	-11.2081
有小毒主	-11.2081
流出	-11.2082
魚肉	-11.2083
槐角	-11.2084
八珍	-11.2088
於表	-11.2091
留三呼	-11.21
水煎五錢	-11.2101
陶隠居云	-11.2102
典	-11.2102
蕭	-11.2103
牙齦	-11.2107
鶴虱	-11.2111
饒	-11.2111
禹餘粮	-11.2112
戰慄	-11.2113
亦須	-11.2119
而行之	-11.2121
乆痢	-11.2126
臨卧服	-11.2131
于肺	-11.2136
右為末煉蜜為	-11.214
西南	-11.214
穴歌	-11.2141
忌猪肉	-11.2142
熱不退	-11.2144
不納	-11.2145
崖	-11.2146
櫻桃	-11.2147
射工	-11.2152
髄	-11.2154
挿	-11.2154
杞	-11.2154
浸三日	-11.2156
指頭	-11.2159
承漿	-11.2165
季脇	-11.2166
鹽泥固濟	-11.2169
稍緩	-11.2173
數百	-11.2177
辣	-11.2185
瘡疽	-11.2188
相近	-11.2192
分作三服	-11.2193
躁煩	-11.2194
相感	-11.2196
誦	-11.2197
冦	-11.2197
顋	-11.2202
希	-11.2202
手脚	-11.2202
蜒	-11.2204
香薷飲	-11.2206
𤓰蒂散	-11.2207
乆病	-11.2209
欝金	-11.221
家寳方	-11.2211
浄洗	-11.2212
治諸風	-11.2212
便溺	-11.2216
不觧	-11.2221
不減	-11.2225
瘦弱	-11.2225
患前症	-11.223
有驗	-11.2231
除煩	-11.2232
在膝	-11.2234
塗瘡上	-11.2237
淮	-11.2238
玄	-11.2242
右為粗散	-11.2245
砂石	-11.225
温疫	-11.225
研令極細	-11.2251
有孕	-11.2252
先煑	-11.2252
牡荆	-11.2252
扎	-11.2252
新瓦	-11.2254
用四物湯加	-11.2255
有此證	-11.2259
解利	-11.226
猶未	-11.2261
黄栢知母	-11.2262
癰膿	-11.2264
大効	-11.2267
生薑二片	-11.2269
本節後	-11.2275
不得臥	-11.2276
外感風寒	-11.2277
寫之	-11.2277
魯	-11.2278
訂	-11.2279
於腸胃	-11.2279
鵲	-11.2283
炒黄色	-11.2285
如彈丸	-11.2286
莊	-11.2286
皆可用	-11.2287
煮取三升去滓	-11.2288
繭	-11.2288
茵蔯蒿	-11.229
頓止	-11.2291
萃	-11.2293
不可屈伸	-11.2295
搗羅為細末	-11.2298
倉卒	-11.2298
為主佐以	-11.2299
右為末毎服二錢	-11.2303
選用	-11.2303
可汗	-11.2309
柳枝	-11.2309
蛇蛻皮	-11.2311
取二升	-11.2311
傷於風	-11.2313
補不足	-11.2315
迷悶	-11.2317
弦急	-11.2324
軀	-11.2324
小兒驚風	-11.2326
相兼	-11.2327
涕唾	-11.233
㕘	-11.233
兀	-11.233
假如	-11.2331
芙蓉	-11.2333
䗪蟲	-11.2333
臨睡	-11.2336
芎藭當歸	-11.2337
修事	-11.2337
臣禹錫等謹按蜀本	-11.2339
月事不	-11.2339
滿口	-11.234
闗上	-11.2342
年踰	-11.2344
腰以下	-11.2346
切碎	-11.2346
白豆䓻	-11.2348
右為散每服三錢	-11.2353
味甘温無毒主	-11.2355
飲食不消	-11.2357
白膿	-11.236
大腑	-11.2361
味甘平	-11.2363
蜜和丸如梧子	-11.2364
石門	-11.2366
攅	-11.237
診得	-11.237
▁千金	-11.2371
麗	-11.2371
一二服	-11.2372
炙焦	-11.2376
尹	-11.2379
跌撲	-11.2379
臘茶	-11.2381
燃	-11.2382
甘桔湯	-11.2382
衇浮而	-11.2382
凝水石	-11.2384
煉蜜為丸	-11.2384
抽掣	-11.2386
突出	-11.2387
肌瘦	-11.2389
喜忘	-11.239
衆藥	-11.2394
龜板	-11.2395
肯	-11.2396
性急	-11.2397
與小柴胡湯	-11.2398
粟殻	-11.24
疳蝕	-11.2401
認為	-11.241
不進飲食	-11.2414
傾入	-11.2416
上衝心	-11.2416
三錢以水一中盞	-11.2417
眵	-11.2418
顖	-11.2419
賣	-11.2419
草龍膽	-11.2419
廷	-11.242
腎氣虚	-11.2421
煎六分	-11.2423
逐日	-11.2423
船	-11.2426
肺俞	-11.2429
紅紫	-11.2433
唇青	-11.2433
本事	-11.2434
尺寸俱	-11.2436
冬時	-11.2438
多用之	-11.2439
水糓	-11.2439
夏秋	-11.244
久瘧	-11.2443
用參茋	-11.2445
桃李	-11.2446
其人必	-11.2447
每服三五十丸	-11.2448
吐舌	-11.2448
仙方	-11.2449
甘露	-11.2451
啼哭	-11.2459
人參敗毒散	-11.246
自落	-11.246
舉動	-11.2464
薦	-11.2464
尺脈	-11.2465
整	-11.2467
嬰方	-11.2467
貌	-11.2468
一杯	-11.2468
羖	-11.247
尉	-11.2471
吐血衂血	-11.2473
釜	-11.2475
桐子大	-11.2475
甘辛	-11.2478
紫蘓	-11.2479
少腹滿	-11.248
濕勝	-11.2485
防風羌活	-11.2486
作膿	-11.2487
大率	-11.2492
當歸白芍	-11.2496
甆器	-11.2497
通天	-11.2501
肺脹	-11.2502
式	-11.2506
遊風	-11.2506
膈間	-11.2511
鬱怒	-11.2513
祗	-11.2514
賔	-11.2515
訶棃勒	-11.2515
張子和	-11.2515
三五度	-11.2517
莪	-11.2519
煎取一盞	-11.252
鹽少許	-11.2521
悉主之	-11.2523
八銖	-11.2523
不可救	-11.2523
治喉痺	-11.2526
辛辣	-11.2528
太陽中風	-11.2531
川芒硝	-11.2534
分作二服	-11.2536
温酒服	-11.2539
防風荆芥	-11.2539
右同研	-11.2543
薑棗水煎	-11.2549
牡蠣粉	-11.2549
煮取四升	-11.2554
萬物之	-11.2559
琇按	-11.2562
魁	-11.2564
痟	-11.2566
毎服二錢水一盞	-11.2567
五蔵	-11.2567
旱	-11.2569
用寒凉	-11.2573
乏力	-11.2574
湯下三十丸	-11.2575
脉浮數	-11.2577
生葱生菜	-11.2578
最佳	-11.2582
風壅	-11.2585
十劑	-11.2591
結滯	-11.2592
艱	-11.2597
碎微炒	-11.2599
服一劑	-11.26
和丸如菉豆大	-11.2605
毒氣攻	-11.2605
覽	-11.2606
闊	-11.2607
恐懼	-11.2608
附骨疽	-11.2611
頌曰今	-11.2611
石決明	-11.2611
抝	-11.2612
小便赤黄	-11.2612
蓬莪术	-11.2612
蟾蜍	-11.2613
夜夢	-11.2613
空心酒下	-11.2614
煎八分去滓	-11.2625
灸五壯主	-11.2629
足太陰	-11.263
金牙	-11.2631
産後血暈	-11.2632
洗浴	-11.2639
根似	-11.2639
鍊蜜和	-11.2639
功專	-11.264
産後惡露	-11.2641
寒戰	-11.2642
失常	-11.2642
蕃	-11.2644
紙撚	-11.2644
无	-11.2647
慧	-11.2647
波	-11.2647
入於胃	-11.2648
村	-11.2648
川芎白芷	-11.2649
診脉	-11.2649
入府	-11.2649
昇	-11.2649
蒔	-11.265
台	-11.2651
華佗	-11.2654
龍骨牡蠣	-11.2655
仝	-11.2655
釣藤鈎	-11.2657
托裏消毒散	-11.2657
欵	-11.2657
盪	-11.2657
蚰	-11.2659
曰吾	-11.2659
訶子肉	-11.266
飲食勞倦	-11.266
牡礪	-11.266
蠶沙	-11.2661
長肌肉	-11.2664
寒熱徃來	-11.2665
詳審	-11.2666
神應	-11.2671
詵曰	-11.2673
通聖散	-11.2676
咽嗌	-11.2679
極效	-11.2684
出聖惠方	-11.2685
苦瓠	-11.2685
重墜	-11.2685
瘍門	-11.2686
三四次	-11.2686
葵根	-11.2688
陽陵泉	-11.2691
紙褁	-11.2693
蝨	-11.2693
亨	-11.2695
取一斗	-11.2696
目疾	-11.2697
馬鞭草	-11.2697
獻	-11.2698
龎	-11.2698
氣粗	-11.2698
去上沫	-11.27
瘢痕	-11.2702
右先以	-11.2704
日進二服	-11.2704
危殆	-11.2705
心腹刺痛	-11.2706
呃逆	-11.2706
大小便秘	-11.2707
鳯	-11.271
附骨	-11.271
胸膈痞悶	-11.2712
未發前	-11.2721
猪脂和	-11.2724
膏貼之	-11.2727
浮洪	-11.2729
通紅	-11.2729
苦梗	-11.2729
苧	-11.2731
腰脚疼痛	-11.2735
甚佳	-11.2736
氣上攻	-11.2736
白牽牛	-11.274
中風口噤	-11.2742
空心鹽湯下	-11.2743
其位	-11.2743
睪	-11.2744
捫	-11.2744
孩兒	-11.2745
虛羸	-11.2745
焰	-11.2747
剖	-11.2748
濾過	-11.2748
已破	-11.2749
庚辛	-11.2749
株	-11.2749
不聞香臭	-11.2752
蚕	-11.2752
聲啞	-11.2752
如食法	-11.2755
決明子	-11.2756
敦	-11.2756
脉𦂳	-11.2756
窩	-11.2756
蘘荷	-11.2756
鍊蜜	-11.276
益脾	-11.2762
右水煎	-11.2763
右都	-11.2766
丸如菉豆大毎服	-11.2768
動揺	-11.2768
痿痺	-11.2769
停食	-11.2773
洗面	-11.2774
秘澁	-11.2774
叅曰	-11.2775
脾胃氣虚	-11.2776
腿膝	-11.2777
腫潰	-11.2778
立已	-11.2778
髪灰	-11.278
屬肺	-11.2783
𢷬末	-11.2783
昔人	-11.2785
吐沫	-11.2786
襄	-11.2787
吐血不止	-11.2789
壬癸	-11.2789
京骨	-11.279
極妙	-11.279
金匱要畧	-11.2791
雍	-11.2793
茰	-11.2794
䨇	-11.2796
為之使惡	-11.2796
憤	-11.2796
叩	-11.2797
去白焙	-11.2799
莵絲子	-11.2801
瀉青丸	-11.2802
紗	-11.2803
手掌	-11.2806
塞耳中	-11.2808
年五十	-11.2808
汗出惡風	-11.2808
食後臨卧服	-11.281
瘹	-11.2811
入輕粉	-11.2813
仙經	-11.2813
獺肝	-11.2816
用八珍	-11.2817
清肝火	-11.282
漿水洗	-11.2823
診視	-11.2824
樹上	-11.283
胠	-11.283
右相和	-11.2832
昔有	-11.2834
膿已成	-11.2834
朔	-11.2837
但頭汗出	-11.2837
池澤	-11.284
水二升	-11.284
僵仆	-11.2841
唐本先附	-11.2841
苐	-11.2841
喫食	-11.2841
白虎加人參湯	-11.2842
腹疼	-11.2846
澆	-11.2846
痰涎壅盛	-11.2847
俗呼為	-11.2848
一日一夜	-11.2849
􁤹	-11.2851
身輕	-11.2852
臈	-11.2853
槲	-11.2853
左尺	-11.2875
瞳	-11.2877
穣	-11.2877
中暍	-11.2879
橋	-11.288
難經曰	-11.2881
恃	-11.2884
荏	-11.2884
鯁	-11.2885
湯液	-11.2888
徃徃	-11.2888
捜	-11.2889
煮取三升分三服	-11.289
要訣	-11.2893
揩齒	-11.2893
一百二十	-11.2895
稠粘	-11.2896
而有力	-11.2898
蓬莪荗	-11.2899
陽氣不足	-11.2903
小便淋瀝	-11.2909
荆防	-11.2911
死肌	-11.2912
方見前	-11.2913
牙硝	-11.2918
去渣温服	-11.2929
白湯調下	-11.2931
時疫	-11.2932
萸	-11.2937
蜜丸梧子大	-11.2939
捉	-11.2943
續隨子	-11.2943
一儒者	-11.2944
歿	-11.2945
燋	-11.2946
加至二十丸	-11.2947
昏迷	-11.295
久不差	-11.2954
無恙	-11.2956
收貯	-11.2956
生犀	-11.296
栁木	-11.2964
竹茹湯	-11.2965
瘀肉	-11.2965
水二大盞	-11.2966
歸尾	-11.2966
用五味異功散	-11.2966
性命	-11.2968
痰癖	-11.2971
多有之	-11.2974
萌	-11.2977
辟惡	-11.2977
獖猪	-11.2979
所乗	-11.298
半碗	-11.2982
分為二服	-11.2983
拍	-11.2984
遵	-11.2984
終始	-11.2986
囬	-11.2986
失音不語	-11.2988
不伸	-11.299
全蠍	-11.2991
參茋歸术	-11.2994
螻蛄	-11.2995
怖	-11.3001
米飲服	-11.3011
素問曰	-11.3012
白沫	-11.3017
痔瘡	-11.3018
嘔吐不止	-11.3018
五壯	-11.3019
楊曰	-11.3026
豹	-11.3028
良又方	-11.3028
宜速	-11.3028
靑	-11.3032
擬	-11.3032
罔	-11.3033
蝱蟲	-11.3033
㿀	-11.3036
熱多寒少	-11.3038
抓	-11.3039
䖏	-11.304
易愈	-11.3041
丸如梧桐子大每服五十丸	-11.3043
止痢	-11.3044
衄	-11.3045
汗出而解	-11.3048
仲景曰	-11.3053
驚啼	-11.3055
空腹食之	-11.3056
腦髓	-11.3056
雄黃	-11.3058
麺糊	-11.306
大便堅	-11.3063
棗湯下	-11.3068
一寸六分	-11.3068
結胷	-11.3068
醇	-11.307
隻	-11.3071
牛角	-11.3073
叄	-11.3074
急急如律令	-11.3076
上氣喘急	-11.3077
疫癘	-11.3078
初患	-11.3079
隂不足	-11.3079
蕩滌	-11.308
遍體	-11.3081
楸	-11.3082
青州	-11.3082
千金云	-11.3086
博濟方	-11.3086
鎻	-11.3087
以前藥	-11.3087
􁟡􁌸	-11.3087
飲食停滯	-11.3089
鬼箭羽	-11.3089
杉木	-11.3093
每於食前以	-11.3093
胎前	-11.3095
男婦	-11.3099
煎取二升	-11.3099
石决明	-11.3102
山谷及	-11.3102
陽眀	-11.3103
潤肺	-11.3105
脉弱	-11.3105
左脇	-11.3107
蛇咬	-11.3107
入耳中	-11.3109
空心食之	-11.311
左闗	-11.3113
脱落	-11.3118
以上各	-11.312
如常法	-11.3121
紫花	-11.3126
哲	-11.3126
幷	-11.3128
翠	-11.313
不可汗	-11.3133
沖	-11.3135
悴	-11.3136
真元	-11.3139
太多	-11.314
劑而安	-11.3144
老少	-11.3146
每服三錢匕水一盞	-11.3147
擦牙	-11.3148
搜和	-11.3152
青竹茹	-11.3153
垂死	-11.3154
足厥陰	-11.3162
無有不	-11.3163
隨意	-11.3165
粱	-11.3168
薟	-11.3174
屬陽明	-11.3178
見㸃	-11.3178
五片	-11.318
躄	-11.3181
躑躅	-11.3181
付	-11.3182
厥頭痛	-11.3188
田螺	-11.3188
癃閉	-11.3188
譫妄	-11.3189
粟米飯	-11.3193
次早	-11.3194
色黯	-11.3197
戎鹽	-11.3205
三四服	-11.3207
痏	-11.322
碎㣲炒	-11.3221
該	-11.3224
定喘	-11.3227
舂	-11.3228
苣	-11.323
劄	-11.3231
丸如彈子大每服一丸	-11.3235
曹	-11.3237
燒為灰	-11.3238
瓶口	-11.3239
𧖟	-11.324
漸消	-11.3241
瘴氣	-11.3242
者不可治	-11.3249
莨菪子	-11.325
如棗核大	-11.3251
不能轉側	-11.3251
吐膿血	-11.3253
飲冷水	-11.3253
浸七日	-11.3256
擣汁	-11.3257
乳鉢内	-11.3257
息賁	-11.326
停痰	-11.326
尺餘	-11.3264
漢中	-11.3268
蕪菁	-11.327
温酒調	-11.3271
脾約	-11.3272
臚	-11.3272
良醫	-11.3274
尤多	-11.3275
取五升	-11.3276
雞犬	-11.3278
有塊	-11.3279
發熱作渇	-11.3279
耑	-11.3281
浮滑	-11.3282
同煎服	-11.3283
巵子	-11.3286
齦	-11.3286
湯治姙娠	-11.3292
滋腎水	-11.3293
和傅之	-11.3295
舍於	-11.3295
功力	-11.3296
滋味	-11.3299
督衇	-11.33
白膠	-11.33
菉豆粉	-11.3301
天突	-11.3306
挾熱	-11.3307
項強	-11.3307
攻刺	-11.3314
神良	-11.3317
陳藏噐	-11.332
而愈一痘	-11.3321
手厥隂	-11.3321
右㕮咀每服三錢水一盞	-11.3323
年四十	-11.3326
所乘	-11.3327
搓	-11.3328
何由	-11.3328
戊巳	-11.3328
牙闗𦂳急	-11.333
膿汁	-11.3331
大指次指	-11.3331
􁟍	-11.3331
海金沙	-11.3332
粹	-11.3333
蝦	-11.3333
不受邪	-11.334
先煮麻黄	-11.334
藍葉	-11.3343
小便澀	-11.3346
糊為丸如桐子大	-11.3352
腎俞	-11.3353
風瘙	-11.3362
霧露	-11.3368
煉蜜和丸如梧桐子大	-11.3368
溉	-11.3375
石榴皮	-11.3375
恐傷	-11.3376
殞	-11.3376
凑	-11.3377
蹇	-11.338
口噤不開	-11.338
胗	-11.3381
結硬	-11.3382
敷藥	-11.3383
白蘚皮	-11.3384
癰癤	-11.3386
感冐	-11.3386
薄荷湯調下	-11.3387
班猫	-11.3388
大便不利	-11.3391
褐色	-11.3391
荆芥湯下	-11.3394
不降	-11.3394
十三日	-11.3394
不審	-11.3397
眼疾	-11.3397
斷絶	-11.3398
藍汁	-11.3401
補元氣	-11.3402
澤蘭葉	-11.3404
素弱	-11.3405
無不愈	-11.3409
河水	-11.3409
滲泄	-11.3413
普濟方卷一百	-11.3418
水煎三錢	-11.3419
煮取二升半	-11.3422
緑礬	-11.3423
胃中有	-11.3425
下諸藥	-11.3426
酷	-11.3428
緒	-11.3428
迅	-11.3428
腐肉	-11.343
隂維	-11.3431
嘔惡	-11.3431
秦芃	-11.3433
􁦝	-11.3433
枯槁	-11.3433
方論第十	-11.3438
下痢赤白	-11.3438
白蕪荑	-11.3439
服方寸匕日三服	-11.3439
失志	-11.3439
錯亂	-11.3442
將軍	-11.3443
飲食如常	-11.3447
腸痔	-11.3454
食生冷	-11.3455
愚按前症若	-11.3465
右為散每服五錢	-11.3468
糧	-11.3469
新瓦上	-11.3474
揮	-11.3476
癆	-11.3477
大黄芒硝	-11.348
蚌	-11.3481
狐惑	-11.3482
㪷	-11.3482
槽	-11.3482
十宣散	-11.3483
留結	-11.3485
烏豆	-11.3486
右爲細末	-11.3489
心包	-11.349
芫青	-11.349
白蠟	-11.3493
粟米大	-11.3499
痿黄	-11.35
渴欲飲水	-11.351
飲食不化	-11.3512
膏治一切	-11.3515
軟弱	-11.3518
刋	-11.3518
隂蝕	-11.3519
豫	-11.3519
不歛	-11.3521
彼人	-11.3523
黄帝問曰	-11.3526
翰	-11.3528
勉	-11.3528
未退	-11.3531
失笑散	-11.3531
海藏云	-11.3532
龍膽瀉肝湯	-11.3533
吹入鼻中	-11.3539
聤耳	-11.3539
用六君子湯加	-11.3555
松葉	-11.3557
傅之又方	-11.3557
淡滲	-11.3562
湯浸蒸餅	-11.3565
始終	-11.3566
頓退	-11.3566
對曰	-11.3567
生薑七片	-11.3573
赤豆	-11.3574
奥	-11.3575
有數種	-11.3577
菘菜	-11.3579
費	-11.3579
屏	-11.3581
煎數沸	-11.3582
怠惰	-11.3583
為細散	-11.3583
曲泉	-11.3587
㨂	-11.3587
川澤	-11.3587
夜明砂	-11.3591
右為細末毎服二錢	-11.3593
烏金散	-11.3594
瀉黄散	-11.3594
隂股	-11.3595
痛癢	-11.3597
運動	-11.3599
何也曰	-11.36
之象也	-11.3603
不下飲食	-11.3605
川當歸	-11.3606
寸闗	-11.3606
暑濕	-11.3614
麥冬五味	-11.3615
瀉肺	-11.3615
埃	-11.3619
翕	-11.3628
賈	-11.3629
腎氣不足	-11.363
乆患	-11.3631
脊强	-11.3631
罌	-11.3631
凹	-11.3632
萊菔	-11.3633
八寸	-11.3633
覩	-11.3634
蜚	-11.3634
襯	-11.3638
白殭蚕	-11.3649
不舒	-11.3649
便差	-11.365
括蔞根	-11.3651
百壮	-11.3654
不祥	-11.366
右為末每	-11.3662
五月採	-11.3662
各不同	-11.3669
松節	-11.3669
四聖散	-11.367
右四味切	-11.367
權曰	-11.367
噎膈	-11.3672
精髓	-11.3672
啟	-11.3677
無所忌	-11.3677
日三度	-11.3677
綿濾去滓	-11.3678
七遍去滑	-11.3678
厚薄	-11.3679
祝	-11.368
去血過多	-11.368
萆麻子	-11.3682
匝	-11.3685
流涎	-11.3686
斫	-11.3686
爲度	-11.3686
養胃湯	-11.3687
其效如神	-11.369
桑耳	-11.3693
一斗五升	-11.3694
甲錯	-11.3694
銅緑	-11.3699
葛氏	-11.3701
去黒心	-11.3702
飲水多	-11.3702
役	-11.3704
長流水	-11.3705
分五服	-11.3707
炮裂去皮	-11.371
精要	-11.3714
増損	-11.3716
斆曰	-11.3716
石燕	-11.3717
褐	-11.3718
十沸	-11.3724
發歇	-11.373
飲食失節	-11.3733
藥餌	-11.3734
浪	-11.3736
用此法	-11.3738
紫蘇莖葉	-11.3739
癘風	-11.3745
昏睡	-11.3746
或吐或	-11.3746
麒麟竭	-11.3746
下墜	-11.3752
鷄子白	-11.3753
頑麻	-11.3754
太山	-11.3761
膿清	-11.3761
普濟方卷三百	-11.3762
多怒	-11.3767
共為細末	-11.3768
果然	-11.3771
茶清下	-11.3771
掣痛	-11.3773
右㕮咀每服三錢	-11.3774
血出不止	-11.3776
停留	-11.3777
四邊	-11.3778
緋	-11.3779
深淺	-11.3786
靣赤	-11.3786
陽衰	-11.3787
其支者從	-11.3789
鼠粘子	-11.3791
禀賦	-11.3791
消痩	-11.3792
喻昌曰	-11.3792
駝	-11.3793
移熱於	-11.3793
七味白术散	-11.3793
鐵器	-11.3794
手足並冷	-11.3795
同研令勻	-11.3795
先寒後熱	-11.3795
温服一升日三服	-11.3797
入諸藥	-11.3802
囊縮	-11.3803
可愛	-11.3803
夢寐	-11.3803
榮養	-11.3805
終日	-11.3809
啼呌	-11.3813
紙封	-11.3817
雌雞	-11.3818
蜜丸如梧子	-11.3823
煉蜜丸桐子大	-11.3826
卦	-11.3831
嘉祐	-11.3831
䖟	-11.3832
澗	-11.3834
手大指	-11.3835
悔	-11.3836
捷	-11.3837
陳無擇	-11.3844
鼠瘻	-11.3845
苽	-11.3846
𬎼	-11.3846
雌雄	-11.3846
膏藥貼	-11.3848
鉛霜	-11.3853
佐使	-11.3855
蜂窠	-11.3856
治痘瘡	-11.3859
隂陽不和	-11.3865
目内眥	-11.3878
揩牙	-11.388
絕	-11.3882
每夜	-11.3883
曬	-11.3884
詞	-11.3888
牙關	-11.3888
脅下	-11.3889
嘈	-11.3889
岳	-11.3891
恍	-11.3892
酸臭	-11.3892
疿	-11.3892
枉	-11.3894
寸白蟲	-11.3895
涌泉	-11.3896
附治驗	-11.3897
赴	-11.3898
圊	-11.3898
如餳	-11.3898
肉荳䓻	-11.3909
丸如桐子大毎服	-11.3915
用好酒	-11.3919
生南海	-11.3923
宣露	-11.3924
煎一兩沸	-11.3925
傷寒六七日	-11.3926
脾肺氣虚	-11.3928
蔬	-11.3937
閉不通	-11.3938
滋補	-11.394
傳尸	-11.3942
族	-11.3943
操	-11.3943
串	-11.3944
殃	-11.3944
熖	-11.3945
莎	-11.3946
許學士	-11.3947
水煎温服	-11.3949
口燥咽乾	-11.395
雷鳴	-11.395
駛	-11.395
不限多少	-11.395
方五首	-11.3951
幽門	-11.3952
虎杖	-11.3953
䓤白	-11.3955
新汲水調	-11.3957
生堂	-11.3957
水一盞煎七分	-11.3964
癥結	-11.397
於瘡上	-11.3971
鹽湯送下	-11.3972
尋愈	-11.3972
麻黄桂枝	-11.3979
泥土	-11.398
水化下	-11.3986
緩緩	-11.3989
少陽相火	-11.399
􁞃􁞃	-11.399
荔	-11.3993
>	-11.3997
痱	-11.3998
汪琥曰	-11.3999
辟邪	-11.4001
呵	-11.4002
血室	-11.4004
羹	-11.4004
如雞子大	-11.4006
涼膈散	-11.4007
養榮湯	-11.4007
蕈	-11.4008
四肢煩疼	-11.4008
每服五丸	-11.4011
行履	-11.4017
脇脹	-11.4019
世醫	-11.4021
薑棗煎服	-11.4026
七壮	-11.4029
棗膏	-11.4037
虎口	-11.4038
味苦平無毒主	-11.4041
堇	-11.4047
潰膿	-11.4048
磁器内	-11.405
綴	-11.4051
茄子	-11.4051
鯉	-11.4052
頸項强	-11.4054
忠	-11.4054
日三五度	-11.4054
白湯送下	-11.4055
▁肘後方	-11.4055
水三斗	-11.4056
井華水	-11.4056
量兒大小以意加減	-11.4057
鶩	-11.4057
漆瘡	-11.4059
炙煿	-11.4064
食不消化	-11.4071
薑棗煎	-11.4074
沉𦂳	-11.4081
緑色	-11.4098
薔薇根	-11.41
為極細末	-11.4103
參苓白术散	-11.4107
酒水各	-11.411
右為麤末	-11.4111
小便赤澀	-11.4112
刪繁	-11.4113
漏瘡	-11.4116
足太陽膀胱	-11.4117
結塊	-11.4119
煎七分去滓温服	-11.4121
梧桐子大	-11.4122
煎一盞去滓	-11.4124
飲食如故	-11.4128
目系	-11.4136
易老	-11.4137
藴積	-11.4143
陽氣衰	-11.4143
溫酒下	-11.4145
支溝	-11.4147
去裙	-11.4155
巫	-11.4156
竇	-11.4156
副	-11.4156
臆	-11.4157
嫌	-11.4158
奈	-11.4159
急驚風	-11.416
胃管	-11.4161
聲嘶	-11.4162
妾	-11.4163
逺行	-11.4163
水一琖	-11.4163
用加味歸脾湯	-11.4164
七月七日	-11.4165
瓮	-11.4166
蚌粉	-11.4168
皯	-11.4169
痛楚	-11.417
經騐	-11.4172
砂糖	-11.4173
稍愈	-11.4175
治破傷風	-11.4179
右為細末每服三錢	-11.4181
不可多食	-11.4183
不凋	-11.4185
大便溏	-11.4185
撮痛	-11.4186
收歛	-11.4189
臁瘡	-11.4189
立春	-11.4195
加味四物湯	-11.4196
悲傷	-11.4197
陽谷	-11.4197
萬全	-11.4203
豕	-11.4203
如拳	-11.4204
二十丸至三十丸	-11.4204
足跟	-11.4206
上一寸	-11.4207
烏雞	-11.4209
車前草	-11.4209
腰背痛	-11.421
取四升	-11.4211
右為散每服五錢以水一大盞	-11.4212
磁瓶	-11.4213
嫰	-11.4213
朗	-11.4214
濃煮	-11.4214
薑十片	-11.4215
罐子	-11.4216
臨證	-11.4216
腹中雷鳴	-11.4217
韶	-11.4221
五香連翹湯	-11.4223
撞	-11.4226
濕痒	-11.4226
柚	-11.4227
逺視	-11.4232
灸百壯	-11.424
馬尾	-11.4242
不作膿	-11.4243
骨蒸勞	-11.4256
每服五七十丸	-11.4258
唇焦	-11.4262
域	-11.4264
斗門方	-11.4264
瘛瘲	-11.4266
狗膽	-11.4267
欽定四庫全書御纂醫宗金鑑卷	-11.4267
鳳	-11.4268
米糊	-11.4268
蓴	-11.4269
大明曰	-11.4269
呵欠	-11.4271
㯶	-11.4272
簇	-11.4273
診之曰	-11.4276
養胎	-11.4277
出王氏	-11.4277
秦椒	-11.4284
氣欲絶	-11.4288
驅風	-11.4289
足跗	-11.4293
冬夏	-11.43
強直	-11.4305
豈能	-11.4306
焮赤	-11.4319
環跳	-11.4321
頭靣	-11.4322
李彣曰	-11.4322
腫焮	-11.4324
命門火衰	-11.4325
躍	-11.4327
猴	-11.4327
真武湯	-11.4327
凸	-11.4329
芭蕉	-11.433
切焙各	-11.4331
荆瀝	-11.4331
大承氣	-11.4335
磁盒	-11.4336
鈐方	-11.4336
治赤白痢	-11.435
以水五升煮取二升	-11.4353
懸癰	-11.4358
雞卵	-11.4363
㿉	-11.4366
悽	-11.4372
㿗疝	-11.4373
駐	-11.4374
眩運	-11.4376
右剉細	-11.438
舌卷	-11.4382
柑	-11.4383
楠	-11.4385
摻藥	-11.4386
豆䓻	-11.4387
厚樸	-11.439
甚驗	-11.439
傷寒五六日	-11.4391
庶可	-11.4394
右㕮咀每服四錢水一盞半	-11.4394
霍亂吐瀉	-11.4398
寒熱如瘧	-11.44
膝脛	-11.4406
易簡	-11.4406
收功	-11.4407
虚乏	-11.4409
表不解	-11.4412
粥飲調下二錢	-11.4426
寒戰咬牙	-11.4427
循喉嚨	-11.443
刀圭	-11.4431
箕	-11.4436
雞舌香	-11.444
以温水	-11.4442
煎至五分去滓温服	-11.4443
水服方寸匕	-11.4443
湏臾	-11.4443
橡	-11.4444
無常處	-11.4444
打糊	-11.4444
惺惺散	-11.4444
水酒各	-11.445
苧根	-11.445
必待	-11.4452
内經謂	-11.4455
十餘行	-11.4467
背疽	-11.447
赤暈	-11.4472
羞	-11.4476
㣲弱	-11.4479
圗	-11.448
憒	-11.448
水一斗二升	-11.4481
瘂	-11.4484
音聲	-11.4488
癡	-11.4489
斑蝥	-11.4492
宰	-11.4494
去筋膜	-11.4497
朙	-11.4497
葛洪	-11.4498
剜	-11.4499
厯節	-11.4501
粗末	-11.4503
刺薊	-11.4505
羊蹄根	-11.4506
不可不察	-11.4509
日三次	-11.4509
酒下二十丸	-11.4513
調搽	-11.4516
目眥	-11.4517
沉伏	-11.4519
竒效	-11.4522
東海	-11.4526
嘔家	-11.4527
不過三服	-11.4529
譫	-11.453
冇	-11.4532
蔥	-11.4537
之才曰	-11.4538
枯白礬	-11.4539
滋潤	-11.454
璣	-11.4541
壅悶	-11.4541
所説	-11.4542
呃	-11.4544
女萎	-11.4544
疊	-11.4544
牆	-11.4545
繋	-11.4545
危急	-11.455
鎖	-11.455
頦	-11.4551
飛揚	-11.4553
每服五錢水二盞	-11.4553
歸宗湯	-11.4557
大腹子	-11.4557
偏墜	-11.4557
右剉散毎服	-11.456
毎服十丸	-11.4565
冷氣攻	-11.4569
最難	-11.457
桃李雀肉等	-11.4576
公孫	-11.4578
清肺飲	-11.4579
仲景傷寒論	-11.4583
四逆湯主之	-11.4585
入生薑半分棗三枚	-11.4586
翅足	-11.4586
日一換	-11.4589
山梔仁	-11.4589
掖	-11.4593
髀樞	-11.4597
臭穢	-11.46
温漿水	-11.46
脾臟	-11.4601
寔	-11.4601
不了了	-11.4601
乞	-11.4602
閲	-11.4603
噀	-11.4605
拽	-11.4606
忌生冷油膩	-11.4606
不能久立	-11.4606
俠脊	-11.4609
滋腎丸	-11.4609
芸薹	-11.4611
未成膿	-11.4614
善忘	-11.4614
孩子	-11.4616
瓦器	-11.4627
形容	-11.463
調匀	-11.4632
失度	-11.4633
面部	-11.4634
色蒼	-11.4637
每服二三錢	-11.4638
續命	-11.4641
香䜴	-11.4645
水七升	-11.4648
妊婦	-11.4654
油調傅	-11.4654
下利清穀	-11.4654
氣味鹹	-11.4656
晬	-11.4658
暇	-11.4658
鞕滿	-11.4658
所生病者	-11.466
籬	-11.466
之屬是也	-11.4661
襍	-11.4661
䘮	-11.4662
蔓荆實	-11.4663
内熱晡熱	-11.4663
頃刻	-11.4664
洒淅	-11.4666
箭鏃	-11.4668
復溜	-11.4669
根窠	-11.4672
右為細散每服	-11.4678
馬齒	-11.4681
犬肉	-11.4687
男子婦人	-11.4689
首尾	-11.469
枯竭	-11.4691
都研令勻	-11.4695
為末蜜丸	-11.4698
光潤	-11.4699
吐清水	-11.4705
𨼆	-11.4707
肖	-11.471
靡	-11.471
白肉際	-11.4711
彦	-11.4712
貓	-11.4712
董	-11.4713
貢	-11.4715
裁	-11.4716
生生子曰	-11.4717
累累	-11.4718
傳染	-11.4718
骨節煩疼	-11.472
私	-11.4721
疥瘡	-11.4726
藕節	-11.4728
眵淚	-11.4728
瞿麥穗	-11.4729
三四尺	-11.474
取二升去滓	-11.474
蓮花	-11.4744
毛髮	-11.4746
醒脾	-11.4751
一百丸	-11.4756
飲食不入	-11.4758
喉間	-11.4758
主治參互	-11.4763
脇滿	-11.4765
噦逆	-11.4765
鼓脹	-11.4768
脉沉細	-11.4768
卜	-11.4768
醫反下之	-11.4769
者為勝	-11.4769
匿	-11.477
技	-11.4773
照海	-11.4773
紅絲	-11.4774
麵糊為丸如梧桐子大	-11.4777
柴胡清肝散	-11.4779
渫	-11.478
每服三丸	-11.4781
逍遥	-11.4782
搭	-11.4783
如上法	-11.4786
輔骨	-11.4786
多食令人	-11.4786
麩炒微黄	-11.4788
漸愈又	-11.4791
通谷	-11.48
味甘平無毒	-11.48
積塊	-11.4801
味甘辛	-11.4807
束骨	-11.4819
三因方	-11.4821
年老	-11.4822
三十圓	-11.4822
胸脇滿	-11.4827
目録欽定四庫全書御纂醫宗金鑑卷	-11.483
藿香正氣散	-11.483
刪	-11.483
而愈後因	-11.483
岸	-11.4831
邱	-11.4833
赭	-11.4833
癜	-11.4835
𤣥精石	-11.4836
哮	-11.4837
痣	-11.4837
總論	-11.4837
夜臥	-11.4839
筯頭	-11.4841
稠宻	-11.4842
管吹	-11.4847
上中下	-11.4849
熨斗	-11.4849
諸惡瘡	-11.485
攻擊	-11.4853
忌海藻菘菜生葱	-11.4854
久服輕身	-11.4854
柴胡山梔	-11.4855
葱白三寸	-11.4855
麻油調	-11.4858
日一易	-11.4858
打碎	-11.4861
泥封	-11.487
大杼	-11.4878
手太陰	-11.4881
黨	-11.4881
此承上條	-11.4881
完骨	-11.4883
偹	-11.4884
十二種	-11.489
桑椹	-11.4891
成無已	-11.4891
右為細末每用	-11.4892
腰胯	-11.4892
體瘦	-11.4892
蔥白	-11.4893
臊	-11.4893
如人行十里	-11.4894
柘	-11.4894
鐘	-11.4897
唐本注云此	-11.4898
柰何	-11.4898
神聖	-11.4901
七八十丸	-11.4907
滳	-11.4909
出衞生	-11.4909
帝曰善	-11.4909
紫雪	-11.4914
醋拌	-11.4921
輕輕	-11.4921
半錢匕	-11.4929
霍亂吐㵼	-11.493
聖恵	-11.4931
弦𦂳	-11.4936
渚	-11.4936
是動則病	-11.4939
憂恚	-11.4939
䧟者中	-11.4939
指之端	-11.494
絹帛	-11.4943
脇下滿	-11.4945
多忘	-11.4946
感風寒	-11.4947
苺	-11.4948
紹	-11.4948
莖中痛	-11.4949
柴胡梔子散	-11.495
右粗搗篩每服三錢水一盞	-11.4951
沐浴	-11.4951
香連丸	-11.4951
鴿	-11.4952
綻	-11.4952
斬	-11.4953
黃茋	-11.4956
何如曰	-11.4957
腕骨	-11.496
槐白皮	-11.4962
廣茂	-11.4964
肩井	-11.4965
右為極細末	-11.4967
水一盞煎至七分	-11.4969
眼昏	-11.497
脾氣虚弱	-11.498
性味	-11.4981
痠痛	-11.4984
臁	-11.4984
而反下之	-11.4987
烏蛇肉	-11.4988
蘇合香	-11.4989
驚狂	-11.499
喙	-11.4996
囊盛	-11.4998
炳	-11.5001
憲	-11.5003
水一盞半生薑三片	-11.5004
融	-11.5006
浸滛	-11.5007
閟	-11.5007
水二升煮	-11.5008
搯	-11.5011
宇	-11.5011
茈胡	-11.5013
慢火熬成膏	-11.5015
换	-11.5016
筋脉拘急	-11.5017
紙包	-11.5039
勞宫	-11.5041
究其	-11.5042
浴兒	-11.505
葫	-11.5054
燈草	-11.5055
榖道	-11.5056
相接	-11.5059
隙	-11.5061
醴	-11.5063
韻	-11.5063
槁	-11.5063
騎	-11.5063
走注疼痛	-11.5063
水一小盞煎至五分去滓	-11.5064
䑓	-11.5065
黙	-11.5069
煎一鍾	-11.5069
包裹	-11.507
蜜丸桐子大	-11.5071
太淵	-11.5072
鸛	-11.5072
明耳目	-11.5072
日夜無度	-11.5072
纒喉風	-11.5073
量大小加减	-11.5073
慢脾風	-11.5074
搔痒	-11.5074
哯	-11.5076
去芍藥加	-11.5079
今醫家	-11.5079
邪干	-11.5083
使君子	-11.5086
黒陷	-11.5091
日三夜二	-11.51
治諸般	-11.5103
肘臂	-11.5109
粳	-11.5112
梧	-11.5114
牛黃	-11.5118
焦枯	-11.512
薛按	-11.512
葷	-11.5122
猪魚	-11.5123
啘	-11.5124
眶	-11.5126
夣	-11.5126
給	-11.5126
劫	-11.5126
挫	-11.5128
逍遙散	-11.5131
缾	-11.5133
自汗盜汗	-11.5136
舶上茴香	-11.5138
油塗	-11.5139
精神恍惚	-11.5139
年逾	-11.5147
帛裹	-11.5148
瘙	-11.5151
孫思邈	-11.5152
頭痛壯熱	-11.5156
瘙癢	-11.516
怠	-11.5167
泔浸	-11.5168
卷栢	-11.5173
肩髃	-11.5179
宂	-11.518
葫蘆	-11.5182
保昇曰	-11.5182
題	-11.5183
馳	-11.5185
目不明	-11.5187
買	-11.519
靣目	-11.5192
黑陷	-11.5194
寃	-11.5196
丈餘	-11.5197
圓如梧桐子大	-11.5198
溪毒	-11.5199
翌日	-11.52
前谷	-11.5219
味苦甘	-11.522
江淮	-11.5224
麪糊	-11.5228
止後服	-11.523
孟詵	-11.5232
强志	-11.5236
巨陽	-11.5238
畱	-11.5243
晏	-11.5244
元氣不足	-11.5245
開闔	-11.5245
吉凶	-11.5245
戴人曰	-11.5246
食少體倦	-11.5247
邀	-11.5248
撫	-11.5249
陷胸	-11.525
隂中之陽	-11.5254
茶酒任下	-11.5256
人參白术茯苓	-11.5262
未免	-11.5266
每服三錢以水一盞	-11.5268
喉咽	-11.5271
呪曰	-11.5271
而愈一人	-11.5271
又有一種	-11.5273
榆皮	-11.5281
後谿	-11.5282
搗取汁	-11.5283
十五丸至二十丸	-11.5286
狂亂	-11.5287
津液不足	-11.5288
瞳神	-11.529
布裹	-11.5297
駁	-11.5298
小便出血	-11.53
枸杞根	-11.5302
備急千金要方卷	-11.5304
愆	-11.5307
妊	-11.5309
訓	-11.5309
京師	-11.5311
硫黃	-11.5314
喉嚨	-11.5314
東北	-11.5316
利大小便	-11.5319
好顔色	-11.532
母丁香	-11.5323
蘇頌	-11.5326
燥渴	-11.5327
腐潰	-11.533
難忍	-11.5333
柰	-11.5357
軒	-11.5362
几	-11.5366
駭	-11.5366
區	-11.5366
蠲	-11.5368
瘲	-11.537
单	-11.5371
芭	-11.5379
􁜖	-11.5381
催	-11.5382
芫	-11.5415
伊	-11.5425
麞	-11.5427
觜	-11.5427
煠	-11.5438
芪	-11.5482
萹	-11.5484
措	-11.5491
芸	-11.5492
碁	-11.5498
斧	-11.55
函	-11.5544
濼	-11.5544
俚	-11.5549
旨	-11.5554
榔	-11.5556
藻	-11.5609
敵	-11.5617
粮	-11.5619
內	-11.5658
穂	-11.567
赫	-11.5671
䘐	-11.5671
聳	-11.5679
碍	-11.5679
蕚	-11.568
飡	-11.5683
瘭	-11.5691
艮	-11.573
湊	-11.5731
兑	-11.5734
蠻	-11.5735
烹	-11.5739
関	-11.5744
紥	-11.5747
勸	-11.5801
懈	-11.5801
飾	-11.5803
蠅	-11.5803
駮	-11.5805
頬	-11.5805
窘	-11.5807
兠	-11.5809
鱓	-11.5813
怔	-11.5814
遁	-11.5852
榴	-11.5864
墟	-11.5864
逮	-11.5867
剝	-11.5869
皶	-11.587
􁏣	-11.588
楝	-11.5919
藁	-11.5924
窻	-11.5924
圃	-11.5929
堆	-11.5935
撃	-11.5937
醸	-11.5938
棺	-11.5943
䐜	-11.5967
􁋄	-11.5993
遟	-11.5994
繇	-11.5997
荽	-11.5998
䰟	-11.5999
顙	-11.6001
庻	-11.6001
廬	-11.6059
苛	-11.606
慿	-11.6062
嘘	-11.6064
瞻	-11.6067
寮	-11.6069
煻	-11.607
筍	-11.6115
㳟	-11.6126
歡	-11.6129
雹	-11.6189
渙	-11.6197
襴	-11.6199
痧	-11.6208
祭	-11.6254
規	-11.626
隅	-11.6264
沿	-11.6265
杉	-11.6323
糕	-11.6336
嘿	-11.6337
蛭	-11.6364
趺	-11.6369
蔗	-11.6387
菔	-11.6388
廻	-11.6398
裩	-11.64
嗢	-11.64
堕	-11.6401
䓤	-11.6403
梟	-11.6404
珀	-11.641
萞	-11.6411
瘑	-11.6419
蔣	-11.6458
鄙	-11.6461
暄	-11.6461
攢	-11.6465
番	-11.6467
􁷙	-11.6468
崇	-11.6469
蠡	-11.6471
壳	-11.6472
郁	-11.6475
杓	-11.6475
頞	-11.6528
詔	-11.6528
戚	-11.6532
貽	-11.6534
顚	-11.6535
叫	-11.6536
忿	-11.6537
茨	-11.6538
裙	-11.6552
憎	-11.6565
黅	-11.6584
俛	-11.6597
飄	-11.6598
剔	-11.6599
棠	-11.6602
焠	-11.6602
玊	-11.6603
朶	-11.6606
毉	-11.6606
櫚	-11.6606
㝠	-11.6606
謌	-11.6651
壤	-11.6665
攷	-11.6665
迭	-11.6671
􁱫	-11.6674
漠	-11.6677
彩	-11.6679
蠏	-11.6681
妬	-11.6722
薏	-11.6742
殿	-11.6744
悅	-11.6744
椹	-11.6745
醖	-11.6748
秫	-11.676
檗	-11.6777
孺	-11.6807
滄	-11.6808
逃	-11.6813
䪿	-11.6814
荗	-11.6816
鎭	-11.6818
蝉	-11.6819
雚	-11.6822
㾗	-11.6829
冥	-11.6879
邵	-11.6881
峯	-11.6882
財	-11.6883
佩	-11.6884
隐	-11.6885
替	-11.6887
輟	-11.6887
祥	-11.6909
境	-11.695
樝	-11.6951
芬	-11.6952
欺	-11.6952
胯	-11.6952
鑠	-11.6957
􁳚	-11.6959
缸	-11.6959
薢	-11.6964
飱	-11.7013
諧	-11.7023
歎	-11.7024
冀	-11.7027
袐	-11.7028
允	-11.7028
膾	-11.7029
㬠	-11.7032
晡	-11.7037
麹	-11.7038
巽	-11.7083
菉	-11.7085
茜	-11.7092
堊	-11.7096
價	-11.7098
尫	-11.7102
譜	-11.7157
揣	-11.7163
隧	-11.7164
藜	-11.7165
諱	-11.7168
悒	-11.7168
瞪	-11.7172
縂	-11.7173
穩	-11.7174
寕	-11.7175
裝	-11.718
盜	-11.7195
創	-11.7244
俄	-11.7245
鳶	-11.7245
苞	-11.7246
披	-11.7248
黶	-11.7248
矧	-11.7249
榧	-11.7251
􁪷	-11.7314
磣	-11.7326
朮	-11.7374
艸	-11.7384
迹	-11.7388
韋	-11.7392
娩	-11.7394
墓	-11.7395
鼾	-11.7395
靛	-11.7398
攧	-11.7409
凋	-11.7411
億	-11.7463
奶	-11.7466
阜	-11.7469
㑊	-11.747
疵	-11.7473
蘂	-11.7475
葅	-11.7537
頼	-11.7547
萱	-11.7548
蕋	-11.7548
齆	-11.7549
嫁	-11.755
皁	-11.755
扣	-11.7552
􁚲	-11.7554
鰾	-11.756
搦	-11.7607
聶	-11.7613
𥘉	-11.7615
邈	-11.7617
逈	-11.762
恊	-11.762
甌	-11.7624
􁟖	-11.7626
版	-11.7627
斡	-11.7632
縊	-11.7632
氊	-11.7632
碌	-11.7636
遼	-11.7696
曷	-11.7698
樺	-11.7699
趂	-11.7701
棱	-11.7706
惺	-11.7707
話	-11.7771
涙	-11.7772
鰕	-11.7773
捨	-11.7775
蛻	-11.7776
謙	-11.7776
槿	-11.7777
瘛	-11.7778
嵐	-11.778
浆	-11.778
熛	-11.7784
茫	-11.779
䧺	-11.779
薇	-11.7826
􁨛	-11.7844
橫	-11.7845
窟	-11.7847
齁	-11.7851
嗆	-11.7852
恨	-11.7852
嵩	-11.7852
諦	-11.7853
餐	-11.7854
錘	-11.7855
迨	-11.7858
紐	-11.7924
閭	-11.7925
兌	-11.7928
鴻	-11.793
蕪	-11.793
優	-11.7931
貍	-11.7935
鳬	-11.7937
揾	-11.7939
鱧	-11.7941
蓽	-11.7942
㦸	-11.7982
骭	-11.7999
𬗋	-11.8005
毁	-11.8009
罯	-11.8011
闇	-11.8013
惶	-11.8015
潜	-11.8016
杭	-11.8016
浣	-11.8018
嬌	-11.8019
麦	-11.8021
爆	-11.8025
眯	-11.8028
贊	-11.8078
柹	-11.8084
羔	-11.8085
契	-11.8087
批	-11.8088
恚	-11.8091
瀾	-11.8091
趣	-11.8095
晶	-11.8099
桕	-11.8099
齲	-11.8158
竿	-11.8165
鼽	-11.8171
昨	-11.8174
矩	-11.8176
蟠	-11.8176
豶	-11.8178
睾	-11.8241
秉	-11.8245
惰	-11.8247
餹	-11.8252
濫	-11.8253
殭	-11.8257
樸	-11.8257
鑚	-11.8266
隋	-11.8333
籍	-11.8335
頴	-11.8336
恩	-11.8336
蒡	-11.8336
袖	-11.8337
跡	-11.8338
講	-11.8338
洲	-11.8339
獵	-11.8339
詣	-11.8345
虵	-11.8353
巵	-11.8394
淖	-11.8411
澈	-11.8415
膲	-11.8417
敏	-11.8418
踐	-11.8418
䴸	-11.8421
吁	-11.8422
辦	-11.8426
拈	-11.8427
䪼	-11.8497
陜	-11.8497
庫	-11.8503
蠆	-11.8504
鱔	-11.8505
蕊	-11.8507
櫟	-11.8513
熒	-11.8577
蛛	-11.8578
榻	-11.8584
圏	-11.8585
悖	-11.8588
潘	-11.8589
虢	-11.8591
覔	-11.8595
橙	-11.8596
緻	-11.8661
社	-11.8664
蝸	-11.8665
賓	-11.8666
挟	-11.8672
姪	-11.8674
鵶	-11.8682
櫻	-11.8689
鎚	-11.869
殷	-11.875
蘽	-11.8751
砧	-11.8753
尼	-11.8754
荻	-11.8756
巡	-11.8756
彚	-11.8757
蕉	-11.8757
嗟	-11.8763
塘	-11.8763
熁	-11.8775
拄	-11.8836
奭	-11.8837
袁	-11.884
怵	-11.884
靖	-11.8841
囚	-11.8841
壘	-11.8842
聼	-11.8842
洋	-11.8842
􁋜	-11.8845
範	-11.8916
鈹	-11.8918
劍	-11.892
寇	-11.8923
冶	-11.8925
蔚	-11.8931
隣	-11.8933
弹	-11.8933
􁑭	-11.8938
糵	-11.8987
扺	-11.9006
䧏	-11.9012
疴	-11.9013
燠	-11.9014
薜	-11.9015
馮	-11.9016
膳	-11.9018
廟	-11.902
拱	-11.9022
挹	-11.9025
蜆	-11.9026
茵	-11.9079
瓢	-11.9099
菱	-11.9101
莵	-11.9104
嘆	-11.9105
譚	-11.9108
粽	-11.9109
潑	-11.9113
莾	-11.9119
蓍	-11.912
禄	-11.9187
幕	-11.9187
閑	-11.919
劒	-11.9191
澱	-11.9191
蠕	-11.9194
柄	-11.9197
妖	-11.9199
柞	-11.9203
屠	-11.9206
荅	-11.9254
基	-11.9281
衘	-11.9282
衮	-11.9283
熇	-11.9283
渡	-11.9284
蓂	-11.9285
嶽	-11.9289
別	-11.929
櫸	-11.929
茛	-11.9294
覃	-11.9298
蹉	-11.9298
鵬	-11.9299
螢	-11.9372
骶	-11.9372
潞	-11.9372
攀	-11.9374
鄰	-11.9375
態	-11.9376
瞿	-11.9379
盂	-11.938
叟	-11.9386
秔	-11.9442
栽	-11.9461
璧	-11.9461
菟	-11.9464
篾	-11.9464
鄧	-11.9468
帳	-11.9468
陟	-11.947
簽	-11.9471
敲	-11.9473
擡	-11.9475
懊	-11.9476
熔	-11.948
㽲	-11.952
忪	-11.9543
誅	-11.9555
兪	-11.9556
蘊	-11.9558
鎰	-11.9559
鑒	-11.9559
倐	-11.9561
蝓	-11.9564
欒	-11.9565
拯	-11.9567
㓙	-11.9567
腭	-11.9567
蝟	-11.958
街	-11.9602
呻	-11.9643
嚮	-11.9648
骸	-11.9648
岩	-11.9649
䇿	-11.965
禱	-11.9653
蕤	-11.9654
慕	-11.9655
浥	-11.9655
捺	-11.9655
祈	-11.9655
軸	-11.9656
援	-11.9656
蛹	-11.9657
映	-11.9657
厄	-11.9657
鑽	-11.9662
蠣	-11.9663
隴	-11.9687
闢	-11.9745
穬	-11.9747
簿	-11.975
鴟	-11.9752
欹	-11.9755
呀	-11.9758
鞠	-11.976
孩	-11.9814
札	-11.9842
嗄	-11.9844
舞	-11.9845
薈	-11.9847
蒻	-11.9847
仔	-11.9848
胱	-11.985
㓕	-11.9851
菖	-11.9934
需	-11.9937
盗	-11.9937
籐	-11.9938
閱	-11.9939
坯	-11.994
徽	-11.9941
児	-11.9942
鶻	-11.9944
㬰	-11.9945
倪	-11.9946
硼	-11.9949
擔	-11.995
䔧	-11.995
錐	-11.9961
鴆	-12.002
汴	-12.0026
嗇	-12.0032
蹷	-12.0035
寂	-12.0037
駃	-12.0037
它	-12.0038
痍	-12.0044
褥	-12.0047
胖	-12.005
溽	-12.0116
灾	-12.0124
悗	-12.0125
像	-12.0129
坦	-12.0134
吼	-12.0135
迸	-12.0136
撩	-12.0137
贈	-12.0138
栀	-12.0139
蒟	-12.0143
窨	-12.0144
眴	-12.023
仕	-12.0231
耕	-12.0234
勺	-12.0234
濬	-12.0239
塜	-12.024
礦	-12.024
餒	-12.024
蜥	-12.0243
蛜	-12.0245
衃	-12.0327
椏	-12.0327
琴	-12.0329
摧	-12.0331
諄	-12.0331
黔	-12.0331
嗅	-12.0331
齡	-12.0332
喬	-12.0337
涓	-12.0337
醺	-12.0338
䆒	-12.0342
葯	-12.0344
戲	-12.043
揆	-12.0432
縦	-12.0432
僉	-12.0434
𬒳	-12.0434
遞	-12.0434
猬	-12.0436
痤	-12.0436
爬	-12.0438
髖	-12.0526
蜕	-12.0531
臠	-12.0535
䑛	-12.0536
誕	-12.0536
轄	-12.0539
謇	-12.0541
瓊	-12.0541
綂	-12.0543
煿	-12.0635
萊	-12.0636
瀕	-12.0638
祇	-12.0639
距	-12.064
􁋋	-12.064
蛙	-12.064
踠	-12.0642
䟦	-12.0643
叁	-12.0643
峰	-12.0643
霄	-12.0643
稳	-12.0644
汙	-12.0647
旅	-12.0647
咂	-12.065
鰻	-12.0657
膀	-12.0738
髆	-12.0738
藝	-12.0739
甖	-12.0741
亞	-12.0745
棉	-12.0745
匪	-12.0746
算	-12.0746
猝	-12.0748
箬	-12.075
僊	-12.0752
飥	-12.076
蕨	-12.0828
檎	-12.0841
詐	-12.0842
謨	-12.0844
孽	-12.0848
蓆	-12.0848
座	-12.085
惙	-12.0852
蚺	-12.0852
頽	-12.0853
緫	-12.0855
嫗	-12.0855
孚	-12.095
断	-12.0951
䡖	-12.0952
斟	-12.0955
聊	-12.0957
掬	-12.0958
【	-12.096
勾	-12.0961
醮	-12.0961
蕎	-12.0961
葈	-12.0962
糁	-12.0963
帕	-12.0965
做	-12.0966
亶	-12.0966
睥	-12.0968
嘶	-12.1053
疤	-12.1057
啇	-12.1059
肱	-12.106
階	-12.1062
戍	-12.1062
縈	-12.1063
伺	-12.1065
泊	-12.1067
愽	-12.1067
箱	-12.1069
蘝	-12.1073
竪	-12.1163
諭	-12.1171
㿠	-12.1175
筵	-12.1176
蝪	-12.118
瑣	-12.1181
臋	-12.1182
弄	-12.1279
廪	-12.1279
窺	-12.128
跪	-12.1282
㳺	-12.1283
廿	-12.1283
溷	-12.1283
叠	-12.1284
臯	-12.1284
曳	-12.1285
葙	-12.1285
㝷	-12.1286
凛	-12.1286
蕡	-12.138
髲	-12.1381
稼	-12.1383
倮	-12.1383
帚	-12.1387
踞	-12.1392
沮	-12.1393
踒	-12.1394
酘	-12.1397
蒌	-12.1397
帥	-12.1399
卓	-12.1399
菪	-12.1403
庠	-12.1404
膁	-12.1465
䕃	-12.1501
演	-12.1502
競	-12.1502
漚	-12.1504
胵	-12.1505
簷	-12.1505
􁫻	-12.1508
婚	-12.1508
仇	-12.1508
蒺	-12.1509
檉	-12.1511
揷	-12.1515
鬐	-12.152
羚	-12.1529
蘘	-12.1582
昀	-12.1607
㭍	-12.1613
禳	-12.1614
兖	-12.1615
豪	-12.1615
莬	-12.1616
飰	-12.1616
膞	-12.1616
掀	-12.1619
晋	-12.1619
欣	-12.1619
痾	-12.162
恬	-12.1621
煞	-12.1624
癮	-12.1626
蘩	-12.1728
荼	-12.1728
館	-12.173
柯	-12.173
璃	-12.1733
蕙	-12.1733
賀	-12.1733
戕	-12.1734
逓	-12.1734
磊	-12.1735
蛞	-12.1736
芦	-12.1737
塡	-12.1737
鑵	-12.1737
曠	-12.1738
簾	-12.1738
􁵂	-12.1739
罵	-12.1741
攘	-12.1743
螳	-12.1745
􁕲	-12.1828
蝱	-12.1837
岡	-12.1844
褚	-12.1846
構	-12.1847
黛	-12.185
裛	-12.185
稚	-12.185
躽	-12.1851
蒁	-12.1856
栝	-12.1858
燻	-12.1858
吊	-12.1862
恙	-12.1941
鶉	-12.195
鑱	-12.1957
俯	-12.1959
閏	-12.1959
踹	-12.1961
窄	-12.1961
瑟	-12.1961
諺	-12.1964
宦	-12.1966
􁪱	-12.1967
駱	-12.1967
娶	-12.197
怨	-12.197
菥	-12.1973
詰	-12.1974
拗	-12.1976
鍜	-12.1976
鮎	-12.1984
詀	-12.2076
茴	-12.2076
漂	-12.2081
謐	-12.2082
樵	-12.2084
稈	-12.2084
禪	-12.2086
躭	-12.2087
敎	-12.2089
􁗒	-12.2093
㿔	-12.2094
呑	-12.2094
翔	-12.2199
駒	-12.2201
篋	-12.2201
棃	-12.2205
葎	-12.2205
拙	-12.2207
塲	-12.2208
欽	-12.2209
蜞	-12.2209
匠	-12.221
餠	-12.221
葳	-12.2211
滾	-12.2212
蘧	-12.2213
詹	-12.2214
擲	-12.2215
鋌	-12.2215
棕	-12.2216
恵	-12.224
搶	-12.225
眚	-12.2317
鑄	-12.2318
佚	-12.2323
咒	-12.2323
潦	-12.2325
溻	-12.2326
霖	-12.2327
署	-12.233
筭	-12.2331
鉗	-12.2333
恪	-12.2333
妥	-12.2333
那	-12.2334
簮	-12.2338
捩	-12.2339
鮧	-12.234
勅	-12.2341
倣	-12.2412
茈	-12.2427
莽	-12.2439
誣	-12.2444
撓	-12.2446
饌	-12.2448
梂	-12.245
疕	-12.245
炅	-12.2451
征	-12.2452
迂	-12.2452
桓	-12.2452
䓁	-12.2453
淀	-12.2454
稿	-12.2455
捧	-12.2456
裳	-12.2457
寝	-12.2458
擅	-12.2459
櫨	-12.2459
蹙	-12.2459
蠊	-12.2462
􁫙	-12.2464
蜋	-12.2467
鎌	-12.2477
豨	-12.2567
愧	-12.2572
淆	-12.2573
爵	-12.2574
臻	-12.2576
鮫	-12.2576
鼉	-12.2576
舛	-12.258
磕	-12.2581
摺	-12.2581
矛	-12.2582
吟	-12.2584
徙	-12.2588
蠒	-12.2591
蟯	-12.2627
刈	-12.2695
冊	-12.2695
廩	-12.2697
藹	-12.2701
耽	-12.2701
湛	-12.2703
螻	-12.2704
毗	-12.2708
鞍	-12.2709
刄	-12.2714
扯	-12.2723
杮	-12.2819
􁔇	-12.2824
掇	-12.2826
績	-12.2826
埤	-12.2827
涇	-12.2827
纎	-12.2829
㯽	-12.2831
織	-12.2832
俊	-12.2832
餓	-12.2834
託	-12.2834
宏	-12.2834
愊	-12.2836
戀	-12.2838
螄	-12.2839
遙	-12.284
藋	-12.284
榛	-12.2843
磠	-12.2846
􁩍	-12.2852
蝶	-12.2941
齩	-12.2951
陋	-12.2952
髃	-12.2952
淄	-12.2952
罅	-12.2954
􁷚	-12.2954
蝮	-12.2955
嚲	-12.2956
肫	-12.2957
鄲	-12.2958
牧	-12.296
嵌	-12.2964
仗	-12.2965
簪	-12.2969
􁗀	-12.2969
叧	-12.2973
顀	-12.2975
盥	-12.2977
粢	-12.3075
誌	-12.3087
𣏌	-12.3088
輿	-12.3089
冽	-12.3089
腊	-12.309
蹶	-12.3091
憶	-12.3092
𤨏	-12.3093
靴	-12.3093
饅	-12.3093
歙	-12.3096
跛	-12.3096
膹	-12.3097
睂	-12.3099
昆	-12.3099
疞	-12.3102
厨	-12.3103
胰	-12.3105
簸	-12.3106
䗶	-12.3107
騾	-12.311
斆	-12.3204
呂	-12.3204
凥	-12.3215
翦	-12.3221
淤	-12.3225
茭	-12.3226
䏻	-12.3226
讝	-12.3226
𣣔	-12.3228
僣	-12.3228
堵	-12.3229
珎	-12.3229
樣	-12.3232
娘	-12.3232
臖	-12.3234
趐	-12.3237
撈	-12.324
怏	-12.3342
央	-12.3351
嵇	-12.3352
拉	-12.3357
炁	-12.3357
􁝥	-12.3359
槖	-12.3359
郤	-12.3359
璇	-12.336
謾	-12.3361
硇	-12.3363
葡	-12.3365
蚓	-12.3366
墳	-12.3366
蕺	-12.3367
篐	-12.3375
畦	-12.3491
綸	-12.3492
􁳌	-12.3493
羶	-12.3494
瘾	-12.3496
緜	-12.3496
詎	-12.35
炲	-12.3501
喧	-12.3501
愓	-12.3502
碩	-12.3503
燼	-12.3505
罩	-12.3505
逍	-12.3506
廵	-12.3509
頄	-12.3627
剃	-12.3631
騫	-12.3631
胚	-12.3632
彫	-12.3633
爇	-12.3634
茲	-12.3636
怱	-12.3637
薁	-12.3637
麢	-12.3638
駕	-12.3639
瘉	-12.364
燧	-12.3642
洽	-12.3642
策	-12.3643
鍛	-12.3644
勘	-12.3645
憐	-12.3645
漁	-12.3645
漓	-12.3692
濈	-12.373
醜	-12.377
涯	-12.3771
伽	-12.3773
剰	-12.3774
羗	-12.3776
􁏋	-12.3777
瀋	-12.3779
淪	-12.3779
挈	-12.3781
腳	-12.3787
攸	-12.3789
朋	-12.3792
髯	-12.3794
簒	-12.3906
賛	-12.3913
秩	-12.3915
􁈍	-12.3916
㬥	-12.3916
架	-12.3917
祀	-12.3918
梃	-12.3918
阮	-12.3919
裕	-12.3922
椅	-12.3926
亾	-12.3926
隊	-12.3927
龞	-12.3929
擺	-12.3934
餺	-12.3941
鈐	-12.4043
疆	-12.406
播	-12.406
討	-12.4061
郊	-12.4063
群	-12.4064
賞	-12.4065
堯	-12.4065
蓯	-12.4065
簳	-12.4065
擴	-12.4067
蝥	-12.4068
荑	-12.4073
垽	-12.4075
菇	-12.4076
惚	-12.4076
殗	-12.4078
褊	-12.4082
蜊	-12.4084
葒	-12.4193
煌	-12.4204
犍	-12.4206
冤	-12.4206
售	-12.4206
䐃	-12.4207
邕	-12.4208
湘	-12.4209
滁	-12.421
捋	-12.4211
詮	-12.4212
㓗	-12.4213
䈽	-12.4213
憫	-12.4214
摠	-12.4215
夙	-12.4216
掐	-12.4217
楫	-12.4217
娑	-12.4218
暝	-12.4219
漩	-12.422
䟱	-12.4221
隘	-12.4223
蹈	-12.4225
錍	-12.4234
穄	-12.4344
電	-12.4352
隕	-12.4352
諳	-12.4353
鴣	-12.4355
闡	-12.4357
躬	-12.4358
歪	-12.4361
凄	-12.4362
蜓	-12.4364
㒺	-12.4364
襠	-12.4365
庵	-12.4365
菵	-12.4366
昻	-12.4366
茘	-12.4367
鰂	-12.4367
矯	-12.4367
祁	-12.4369
砍	-12.4372
抜	-12.4372
挂	-12.4375
􁌕	-12.4381
㽔	-12.4507
蜃	-12.4509
套	-12.4509
蘡	-12.4511
􁫫	-12.4511
模	-12.4512
飜	-12.4513
棲	-12.4513
篁	-12.4513
彎	-12.4514
恠	-12.4515
佃	-12.4515
摭	-12.4516
琉	-12.4517
押	-12.4517
瞶	-12.4517
蚖	-12.452
櫛	-12.4521
棊	-12.4524
釅	-12.4576
蠵	-12.4649
嘯	-12.4657
鯽	-12.4661
迄	-12.4662
籥	-12.4662
䤵	-12.4663
熈	-12.4664
獄	-12.4669
菁	-12.467
衢	-12.467
荘	-12.4672
懣	-12.4674
㓂	-12.4674
懇	-12.4677
秬	-12.4805
葍	-12.481
鬬	-12.4813
緛	-12.4815
鷓	-12.4816
牖	-12.4819
匹	-12.482
椶	-12.4822
皸	-12.4824
悵	-12.4825
䭇	-12.4829
惹	-12.483
瞥	-12.483
僭	-12.4831
芰	-12.4831
焞	-12.4833
壇	-12.4833
塼	-12.4835
䀋	-12.4838
蠃	-12.4971
犢	-12.4976
莞	-12.4978
驕	-12.4978
梵	-12.4984
轅	-12.4984
㡳	-12.4985
猥	-12.4988
枋	-12.4989
雛	-12.4989
眇	-12.4991
訝	-12.4993
冗	-12.4993
螉	-12.5126
苴	-12.5136
貎	-12.5138
誥	-12.5139
泌	-12.5139
邁	-12.514
槎	-12.514
虜	-12.5141
雁	-12.5141
桴	-12.5142
魃	-12.5144
憚	-12.5144
歧	-12.515
醃	-12.515
􁤥	-12.5151
蘋	-12.5152
筎	-12.5152
匾	-12.5153
坩	-12.5154
殠	-12.5164
稗	-12.5294
苕	-12.5299
侔	-12.53
穎	-12.53
邯	-12.5301
蛟	-12.5301
謁	-12.5301
獅	-12.5301
殂	-12.5302
莱	-12.5304
誘	-12.5305
禇	-12.5305
麟	-12.5306
坼	-12.5307
牕	-12.5307
慰	-12.5308
骾	-12.5308
裴	-12.5308
荀	-12.5309
欄	-12.5309
歠	-12.5309
紊	-12.5312
綜	-12.5313
燖	-12.5315
恰	-12.5316
芮	-12.5316
浦	-12.5316
懆	-12.5317
媪	-12.5323
瑕	-12.5326
箔	-12.5403
柤	-12.5447
愠	-12.546
怡	-12.5465
派	-12.5466
􁷫	-12.5466
傴	-12.5467
痎	-12.5468
彷	-12.5469
彿	-12.547
䐴	-12.5471
瞭	-12.5471
􁋰	-12.5472
汨	-12.5474
狄	-12.5474
灶	-12.5474
潭	-12.5474
橄	-12.5475
岑	-12.5475
歐	-12.5476
燄	-12.5477
册	-12.5477
鸎	-12.5477
妃	-12.5483
櫃	-12.5485
茺	-12.5489
鮀	-12.5494
杴	-12.5626
􁁬	-12.563
閇	-12.5633
椰	-12.5635
矇	-12.5637
缽	-12.5639
罰	-12.5639
耀	-12.5639
綽	-12.5642
囑	-12.5643
鹼	-12.5644
嬭	-12.5645
䏶	-12.5647
揖	-12.5647
帙	-12.5649
燙	-12.5651
蔔	-12.5651
纍	-12.5653
酣	-12.5653
厘	-12.5663
鎗	-12.5666
枲	-12.5801
倂	-12.5804
慱	-12.581
蛉	-12.5812
牯	-12.5814
蜩	-12.5815
虐	-12.5816
霑	-12.5816
纏	-12.5817
滔	-12.5818
跋	-12.5819
疙	-12.5819
酬	-12.5819
誡	-12.5821
伴	-12.5821
埀	-12.5823
繳	-12.5823
閻	-12.5824
黴	-12.5825
殜	-12.583
蛋	-12.5831
瑁	-12.5832
銘	-12.5842
稌	-12.5961
拓	-12.5989
幃	-12.5989
癊	-12.5992
豭	-12.5992
喑	-12.5992
邦	-12.5992
衾	-12.5994
藳	-12.5995
浩	-12.5995
叱	-12.5996
蕒	-12.5997
猻	-12.5997
偉	-12.5998
猢	-12.5998
捍	-12.5999
帋	-12.6002
枣	-12.6004
􁴖	-12.6004
啑	-12.6006
瑇	-12.6009
䏚	-12.615
蟕	-12.6152
曜	-12.6152
陕	-12.6166
島	-12.6166
悠	-12.6166
秪	-12.6167
朞	-12.6169
嗞	-12.6169
㕔	-12.6171
呴	-12.6172
瞽	-12.6172
禿	-12.6172
撏	-12.6173
浹	-12.6173
鱖	-12.6173
闌	-12.6174
苒	-12.6174
删	-12.6176
㐫	-12.6177
沭	-12.6178
値	-12.6179
炕	-12.6179
痴	-12.6179
熳	-12.618
涵	-12.6181
娥	-12.6181
烝	-12.6182
碓	-12.6186
沛	-12.6335
迢	-12.6337
峽	-12.634
䓻	-12.6343
焫	-12.6343
僂	-12.6344
葇	-12.6345
鈍	-12.6349
蹲	-12.6351
軺	-12.6351
矮	-12.6351
彘	-12.6353
窓	-12.6353
偕	-12.6353
瘓	-12.6353
胳	-12.6353
饋	-12.6354
撤	-12.6354
騷	-12.6355
肇	-12.6355
鼷	-12.6356
軫	-12.6357
眊	-12.6358
欓	-12.6358
鋼	-12.6359
皃	-12.6359
􁨇	-12.636
叮	-12.636
忙	-12.6361
鏽	-12.6361
棒	-12.6365
覈	-12.6515
螯	-12.652
啻	-12.6528
鵒	-12.6529
嘻	-12.6529
鄂	-12.653
熄	-12.6533
鴦	-12.6535
脽	-12.6536
椑	-12.6536
戯	-12.6536
㦯	-12.6537
檳	-12.6537
姬	-12.6538
隄	-12.6539
鼃	-12.6541
歷	-12.6542
籮	-12.6542
蟇	-12.6543
逄	-12.6544
轍	-12.6544
貟	-12.6546
噬	-12.6548
蚵	-12.6549
炖	-12.6558
駿	-12.6711
妹	-12.6715
忩	-12.6718
𩔖	-12.6719
慓	-12.672
塚	-12.6722
蓉	-12.6723
懵	-12.6724
軌	-12.6724
啾	-12.6724
嬾	-12.6725
警	-12.6725
忡	-12.6726
䓗	-12.6726
􁁄	-12.6726
膍	-12.6728
鍚	-12.6728
爰	-12.673
朕	-12.6733
装	-12.6734
婺	-12.6734
舁	-12.6735
箸	-12.6735
默	-12.6735
皎	-12.6736
紺	-12.6736
綘	-12.6739
韌	-12.6904
庖	-12.6911
邇	-12.6912
蝌	-12.6913
菠	-12.6914
擒	-12.6914
兢	-12.6915
瑿	-12.6918
媾	-12.6919
帷	-12.6919
享	-12.6921
坡	-12.6922
匏	-12.6922
龔	-12.6922
裸	-12.6923
絆	-12.6923
愴	-12.6924
諒	-12.6927
椇	-12.6928
䪺	-12.6928
頏	-12.6929
鐶	-12.6933
啣	-12.6935
鱺	-12.6939
胕	-12.7091
芻	-12.7099
熙	-12.7107
樊	-12.7109
暨	-12.711
儻	-12.7111
蜻	-12.7112
搆	-12.7113
徇	-12.7114
枮	-12.7115
崗	-12.7115
􁳂	-12.7116
穆	-12.7117
超	-12.7117
昜	-12.7119
蔻	-12.7119
雕	-12.7119
惻	-12.712
匡	-12.7121
蕳	-12.7294
䅽	-12.7295
宕	-12.7306
虆	-12.7308
瘋	-12.7308
遐	-12.7309
鴞	-12.731
遜	-12.731
璞	-12.7311
繡	-12.7312
韞	-12.7312
呈	-12.7312
繹	-12.7313
插	-12.7313
藘	-12.7315
馴	-12.7315
場	-12.7316
撼	-12.7316
殼	-12.7317
覧	-12.7318
錮	-12.7318
敕	-12.7318
鋤	-12.7318
舅	-12.7319
凰	-12.732
鑰	-12.7321
熻	-12.7321
篆	-12.7322
袍	-12.7322
筴	-12.7323
蚶	-12.7327
艷	-12.7329
嗍	-12.7334
麂	-12.7336
獖	-12.7392
膻	-12.7489
媚	-12.7505
痁	-12.7508
簟	-12.7511
淑	-12.7512
肬	-12.7512
鍵	-12.7513
汎	-12.7514
斥	-12.7514
黿	-12.7515
瞋	-12.7516
擠	-12.7519
㰖	-12.7519
球	-12.752
眸	-12.7521
癈	-12.7521
喃	-12.7521
祠	-12.7522
薯	-12.7523
潼	-12.7523
寵	-12.7524
􁶘	-12.7524
轆	-12.7525
肭	-12.7526
朦	-12.7526
聨	-12.7527
鬛	-12.7528
劃	-12.7532
臾	-12.7711
衊	-12.7715
漑	-12.772
齀	-12.7721
醪	-12.7722
榦	-12.7722
庾	-12.7724
棣	-12.7724
圭	-12.7724
汩	-12.7725
䒽	-12.7726
㽞	-12.7726
諫	-12.7727
鴛	-12.7727
驪	-12.7727
魔	-12.7728
敝	-12.7729
陂	-12.7729
釭	-12.7729
詠	-12.7729
鏵	-12.773
双	-12.7731
㨶	-12.7732
忒	-12.7732
骰	-12.7733
郷	-12.7736
屡	-12.7737
夹	-12.7738
籌	-12.7738
蛄	-12.774
螂	-12.774
款	-12.774
籜	-12.7741
蜉	-12.7742
驛	-12.7742
覷	-12.7742
鏃	-12.7744
偈	-12.7929
㨿	-12.7931
㶸	-12.7931
旡	-12.7932
鯸	-12.7933
謗	-12.7933
胂	-12.7936
恂	-12.7939
艶	-12.794
偷	-12.7942
泗	-12.7943
笮	-12.7944
齘	-12.7944
饙	-12.7945
螽	-12.7945
澒	-12.7946
甥	-12.7947
棋	-12.7947
礪	-12.7949
嫂	-12.7951
慨	-12.7953
噓	-12.7955
鷺	-12.7957
髁	-12.8139
臧	-12.8145
唏	-12.815
奠	-12.815
惋	-12.8152
尢	-12.8155
覓	-12.8156
宵	-12.8156
埜	-12.8157
墊	-12.8158
桄	-12.8158
蒴	-12.8158
豇	-12.8161
褓	-12.8162
鷂	-12.8165
慌	-12.8165
蕧	-12.8166
繪	-12.8167
刅	-12.8167
撅	-12.817
糱	-12.8362
􁳑	-12.8375
藩	-12.8375
嶼	-12.8376
禎	-12.8376
䖍	-12.8376
􁟓	-12.8377
攜	-12.8378
窖	-12.8378
矜	-12.8379
郝	-12.8381
爁	-12.8383
癔	-12.8383
蝗	-12.8384
醯	-12.8384
𨽻	-12.8384
銓	-12.8386
萼	-12.8386
襁	-12.8387
蓑	-12.8399
鯇	-12.8402
瀹	-12.8584
琢	-12.8595
儲	-12.86
筩	-12.8602
晰	-12.8602
逝	-12.8602
侠	-12.8603
戞	-12.8605
訟	-12.8605
堝	-12.8606
儼	-12.8607
餉	-12.8607
菅	-12.8609
楞	-12.861
陡	-12.861
佑	-12.8611
芺	-12.8612
柸	-12.8612
耿	-12.8612
儉	-12.8612
総	-12.8613
盫	-12.8613
臌	-12.8614
蚾	-12.8615
踊	-12.8615
裘	-12.8616
斵	-12.8617
鬂	-12.8618
􁟡	-12.8618
倅	-12.8619
骫	-12.8637
藭	-12.8669
嚨	-12.8793
翌	-12.8818
鬭	-12.8821
縞	-12.8825
逕	-12.8825
惵	-12.8826
缶	-12.8826
緯	-12.8829
你	-12.8831
惨	-12.8834
坊	-12.8834
笄	-12.8835
𣲖	-12.8835
劔	-12.8836
騣	-12.8837
嚇	-12.8837
靳	-12.8837
碑	-12.8838
戈	-12.8838
迦	-12.8838
㢮	-12.8838
拿	-12.8839
迥	-12.8839
傑	-12.8839
璆	-12.884
舩	-12.884
􁇨	-12.8841
䁾	-12.8842
腴	-12.8843
懿	-12.8845
􁢔	-12.8845
耦	-12.8846
閙	-12.8847
㩉	-12.8848
壜	-12.8849
噏	-12.8851
劳	-12.8852
鰍	-12.8856
臰	-12.8857
痄	-12.8862
棧	-12.9047
㤀	-12.9067
昩	-12.9068
㽵	-12.9069
猯	-12.9071
奮	-12.9072
馨	-12.9073
綫	-12.9073
蜖	-12.9074
莨	-12.9074
氐	-12.9076
箄	-12.9076
栘	-12.9077
奕	-12.9077
桲	-12.9078
店	-12.9078
儘	-12.9078
豎	-12.9079
莝	-12.9079
森	-12.908
濵	-12.9083
㳄	-12.9084
蓏	-12.9086
掞	-12.9087
鬻	-12.9092
㾦	-12.9093
峒	-12.9308
渭	-12.9309
㢲	-12.931
跨	-12.9311
鼹	-12.9313
粤	-12.9313
廽	-12.9314
圈	-12.9315
葑	-12.9315
􁉣	-12.9316
响	-12.9316
𤯝	-12.9317
湍	-12.9318
眷	-12.9318
寗	-12.9319
馥	-12.9319
荇	-12.932
辱	-12.932
鈔	-12.932
轂	-12.9321
麨	-12.9321
瀘	-12.9325
稂	-12.9325
栻	-12.9327
糾	-12.9328
蛸	-12.9328
蝘	-12.9328
􁰖	-12.9329
翟	-12.933
灣	-12.9331
捐	-12.9331
慝	-12.9335
鮠	-12.9336
粧	-12.9337
胍	-12.9338
蔆	-12.9354
級	-12.9361
藷	-12.9545
狶	-12.9551
擷	-12.9552
纓	-12.9553
糗	-12.9554
杼	-12.9557
筌	-12.9561
蠐	-12.9564
惛	-12.9565
鯪	-12.9566
詭	-12.9566
瞎	-12.9567
薹	-12.9568
槀	-12.9568
芐	-12.9569
勑	-12.9569
敘	-12.9569
蕘	-12.9569
袒	-12.957
瀛	-12.9571
鏤	-12.9571
綬	-12.9572
孀	-12.9572
顏	-12.9573
滷	-12.9574
繒	-12.9574
佀	-12.9575
抗	-12.9576
砥	-12.9577
襪	-12.9578
鮝	-12.9578
鑛	-12.9578
丐	-12.9578
􁌸	-12.9578
溱	-12.9579
瘃	-12.9582
轤	-12.9582
􁖉	-12.9584
緡	-12.9585
罈	-12.9585
蚱	-12.959
茖	-12.98
漯	-12.9808
猩	-12.9813
䶎	-12.9816
譽	-12.9816
氲	-12.9817
濺	-12.9818
嗚	-12.9819
弃	-12.982
憺	-12.9823
鵠	-12.9823
蚪	-12.9823
嬴	-12.9824
鬾	-12.9825
闐	-12.9826
䗪	-12.9827
兜	-12.9828
濳	-12.9828
唱	-12.9828
𦙍	-12.9828
胬	-12.983
鄆	-12.9831
寘	-12.9831
芙	-12.9831
榠	-12.9831
腓	-12.9832
惽	-12.9832
銕	-12.9833
瞞	-12.9833
拖	-12.9835
蜇	-12.9836
蟮	-12.9837
醶	-12.9837
伎	-12.9841
衫	-12.9841
撿	-12.9843
蚍	-12.9845
鱣	-12.9859
鸚	-13.0073
臏	-13.0075
澧	-13.0078
厓	-13.0083
㬷	-13.0085
揔	-13.0086
誑	-13.0087
虙	-13.0087
戢	-13.0088
鵰	-13.0088
沓	-13.0089
蔤	-13.009
鱟	-13.009
蚝	-13.009
蝤	-13.009
呆	-13.0091
壻	-13.0091
課	-13.0091
愕	-13.0092
刳	-13.0092
猜	-13.0092
藶	-13.0093
汀	-13.0095
鹻	-13.0097
􁐭	-13.0097
抺	-13.0099
栲	-13.0099
㡌	-13.0101
舜	-13.0102
餞	-13.0103
拴	-13.0104
慣	-13.0105
捏	-13.0108
􁚾	-13.0116
泯	-13.0347
邜	-13.0348
氤	-13.0351
潁	-13.0351
駢	-13.0356
鈞	-13.0357
荄	-13.036
肶	-13.036
癇	-13.036
嘲	-13.0361
髦	-13.0362
翣	-13.0362
拊	-13.0362
毆	-13.0364
憹	-13.0365
郵	-13.0365
什	-13.0367
祿	-13.0368
漲	-13.0369
捶	-13.0377
蘚	-13.0378
俳	-13.0378
􁏘	-13.0379
舖	-13.038
穹	-13.0619
悌	-13.0621
汶	-13.0628
巷	-13.0629
湮	-13.0631
筠	-13.0631
靭	-13.0632
琅	-13.0633
从	-13.0633
鱸	-13.0634
妓	-13.0636
麕	-13.0637
蠮	-13.0638
滇	-13.0639
耘	-13.0639
茆	-13.0639
酲	-13.064
媒	-13.064
誇	-13.0641
匣	-13.0641
禺	-13.0643
盾	-13.0643
邸	-13.0643
苄	-13.0645
聦	-13.0646
呬	-13.0647
宴	-13.0649
曼	-13.0651
垍	-13.0651
捣	-13.0653
碟	-13.0655
榰	-13.0657
劆	-13.067
鍉	-13.0908
窑	-13.0912
泆	-13.0913
坂	-13.0914
牟	-13.0915
奎	-13.0917
泪	-13.0917
藦	-13.0918
騁	-13.0918
剩	-13.0918
翮	-13.092
隰	-13.0921
皓	-13.0921
挨	-13.0925
抉	-13.0926
毅	-13.0926
疢	-13.0927
猳	-13.0927
嫉	-13.0927
嚀	-13.0928
蜴	-13.0928
緘	-13.0928
犛	-13.0929
倨	-13.0929
晃	-13.093
倖	-13.0931
􁷛	-13.0931
禆	-13.0931
擎	-13.0932
䲭	-13.0932
煽	-13.0933
拏	-13.0934
癕	-13.0935
䑃	-13.0935
笠	-13.0936
埿	-13.0937
珂	-13.0938
蟷	-13.0941
綳	-13.0941
秠	-13.1188
鷃	-13.1203
薴	-13.1203
磧	-13.1203
楗	-13.1204
虹	-13.1206
蕕	-13.1209
組	-13.1209
𡵨	-13.121
鸞	-13.1214
狭	-13.1214
邢	-13.1216
牌	-13.1216
蒐	-13.1217
輝	-13.1217
歉	-13.1217
凳	-13.1217
髻	-13.1217
攔	-13.1217
吝	-13.1218
殫	-13.1218
鼢	-13.1219
濤	-13.122
梯	-13.122
疪	-13.1221
卻	-13.1222
猖	-13.1223
軃	-13.1224
嚾	-13.1224
𥚹	-13.1225
姻	-13.1225
腌	-13.1225
恥	-13.1226
噪	-13.1226
莕	-13.1227
銹	-13.1228
莉	-13.1229
颼	-13.1236
棍	-13.1238
鯷	-13.1244
鶡	-13.1498
頒	-13.1511
悁	-13.1511
礜	-13.1512
陛	-13.1514
帆	-13.1515
崑	-13.1516
銲	-13.1517
綏	-13.1518
羆	-13.1518
恤	-13.1518
尔	-13.1519
籃	-13.1519
砌	-13.1519
㗖	-13.1521
㾓	-13.1521
𦍑	-13.1521
􁳪	-13.1521
鉅	-13.1522
箋	-13.1523
莘	-13.1523
昉	-13.1523
稭	-13.1524
幅	-13.1524
茒	-13.1524
磬	-13.1524
弼	-13.1525
潠	-13.1525
鄒	-13.1527
聵	-13.153
撙	-13.1531
魍	-13.1531
热	-13.1532
蚋	-13.1533
獐	-13.1534
蓁	-13.1534
豺	-13.1535
皿	-13.1538
鰌	-13.1539
条	-13.1541
逗	-13.1545
礠	-13.155
鴽	-13.1806
螟	-13.1813
闘	-13.1818
曩	-13.1822
霿	-13.1823
𦵔	-13.1824
攖	-13.1827
閔	-13.1828
槃	-13.1829
􁩊	-13.1831
稔	-13.1832
僞	-13.1832
懦	-13.1832
芣	-13.1832
遥	-13.1833
閨	-13.1834
閤	-13.1834
弁	-13.1835
譌	-13.1835
唧	-13.1836
捌	-13.1836
撻	-13.1836
盅	-13.1837
攬	-13.1838
歹	-13.1838
蕷	-13.1838
蜈	-13.1839
萄	-13.184
濛	-13.1841
䔉	-13.1842
糢	-13.1842
郢	-13.1842
濠	-13.1842
刦	-13.1842
鑷	-13.1843
滕	-13.1843
鋥	-13.1843
訊	-13.1844
挖	-13.1845
螋	-13.1845
貘	-13.1845
曵	-13.185
姥	-13.1852
漳	-13.2137
秈	-13.2142
扑	-13.2144
獠	-13.2145
蛣	-13.2148
哥	-13.215
蚑	-13.215
弥	-13.215
燾	-13.2151
燉	-13.2153
猗	-13.2153
酵	-13.2154
旗	-13.2154
宙	-13.2154
奸	-13.2155
䦨	-13.2155
廊	-13.2155
塹	-13.2155
筐	-13.2156
鰓	-13.2156
徼	-13.2157
匐	-13.2157
楷	-13.2159
牒	-13.2159
㯃	-13.216
􁷜	-13.2161
韜	-13.2162
媳	-13.2162
輾	-13.2163
咨	-13.2164
彤	-13.2164
痳	-13.2165
讐	-13.2165
衙	-13.2165
枹	-13.2168
睦	-13.2171
菝	-13.2171
廱	-13.2175
蝍	-13.2177
蜯	-13.2179
餙	-13.2461
譔	-13.2462
鷸	-13.2467
褌	-13.2475
沔	-13.2478
陥	-13.248
蟈	-13.248
綮	-13.2481
沂	-13.2482
嵓	-13.2482
鮭	-13.2483
蟣	-13.2483
聯	-13.2483
稸	-13.2484
猨	-13.2484
屐	-13.2484
昝	-13.2484
衷	-13.2485
忻	-13.2486
脗	-13.2486
杪	-13.2489
賾	-13.2489
餻	-13.2489
企	-13.249
淒	-13.249
赦	-13.249
囂	-13.2491
繰	-13.2492
䕫	-13.2492
蹤	-13.2493
瓘	-13.2494
㐲	-13.2494
鞘	-13.2494
哈	-13.2494
讓	-13.2495
藺	-13.2496
迤	-13.2496
肐	-13.2498
􁇖	-13.25
饍	-13.25
堦	-13.2502
軆	-13.2502
瞬	-13.2503
龐	-13.2508
􁴙	-13.2513
靤	-13.2521
鵙	-13.2803
爻	-13.2815
燮	-13.2818
譴	-13.2823
栖	-13.2825
蔑	-13.2826
羲	-13.2827
竺	-13.2828
剽	-13.2829
晞	-13.2829
葠	-13.2829
笥	-13.2831
髏	-13.2832
瑙	-13.2832
閧	-13.2832
泮	-13.2832
誨	-13.2833
亘	-13.2834
橛	-13.2834
鶚	-13.2836
箒	-13.2836
譏	-13.2837
狎	-13.2838
艽	-13.2838
鏁	-13.2839
煇	-13.2839
攙	-13.2839
窗	-13.284
㕁	-13.2842
蜣	-13.2843
骩	-13.2844
沼	-13.2845
挐	-13.2846
揜	-13.2847
荚	-13.2848
􁋑	-13.285
鈕	-13.2854
腲	-13.2858
楔	-13.2858
氂	-13.3146
琇	-13.3154
􁪎	-13.3164
䐈	-13.317
姤	-13.3171
涪	-13.3172
虋	-13.3173
鼄	-13.3174
庇	-13.3179
汾	-13.318
扛	-13.3183
檐	-13.3183
雒	-13.3184
瑠	-13.3186
屁	-13.3186
阯	-13.3186
爼	-13.3187
繖	-13.3187
嬉	-13.3188
鄜	-13.3189
蕐	-13.3189
鯹	-13.319
𥿄	-13.3191
煥	-13.3191
紆	-13.3192
騖	-13.3192
跖	-13.3193
藎	-13.3194
沴	-13.3194
胘	-13.3194
砑	-13.3194
榨	-13.3194
遡	-13.3194
喊	-13.3195
醢	-13.3195
渤	-13.3195
玅	-13.3195
琳	-13.3195
顒	-13.3196
璫	-13.3196
渝	-13.3196
捄	-13.3196
脝	-13.3196
窈	-13.3197
撾	-13.3197
蒳	-13.3198
懾	-13.3198
狥	-13.3199
諾	-13.3199
屯	-13.32
趕	-13.3201
讎	-13.3201
魎	-13.3202
㷔	-13.3204
鳧	-13.3204
兕	-13.3205
獾	-13.3205
蜱	-13.3206
鑊	-13.3207
拇	-13.3453
蚨	-13.354
盼	-13.3547
犁	-13.3548
鬯	-13.3549
軾	-13.3551
凾	-13.3552
粃	-13.3553
瘼	-13.3554
鶯	-13.3555
馭	-13.3555
鵜	-13.3555
蘺	-13.3556
婉	-13.3557
躋	-13.3557
叶	-13.3557
羡	-13.3557
懽	-13.3557
薐	-13.3558
藨	-13.3559
鷙	-13.3559
瑪	-13.356
鉉	-13.3561
姿	-13.3561
菾	-13.3561
洎	-13.3561
綺	-13.3562
膋	-13.3562
􁊨	-13.3562
霏	-13.3563
輻	-13.3564
甸	-13.3564
殢	-13.3566
􁓝	-13.3566
昂	-13.3566
霎	-13.3568
溥	-13.3568
幻	-13.3569
瀁	-13.3571
癗	-13.3571
縐	-13.3571
蚣	-13.3572
蔾	-13.3573
峭	-13.3573
􁁙	-13.3573
畵	-13.3574
閼	-13.3575
蕂	-13.3575
稨	-13.3577
磥	-13.3581
瓏	-13.3582
聹	-13.3583
玲	-13.3583
蹋	-13.3584
耵	-13.3585
鯢	-13.3586
黝	-13.3592
蓖	-13.3756
粇	-13.3908
䖸	-13.3934
幔	-13.3937
嶠	-13.3938
孜	-13.3938
姊	-13.394
壟	-13.394
􁒡	-13.394
蟱	-13.394
衒	-13.3941
頁	-13.3943
僮	-13.3943
羈	-13.3943
聘	-13.3943
䁎	-13.3944
㺯	-13.3945
擢	-13.3946
葭	-13.3946
葺	-13.3946
筮	-13.3946
眨	-13.3947
攄	-13.3947
螃	-13.3947
陁	-13.3947
㓨	-13.3947
豢	-13.3949
齶	-13.3951
臞	-13.3951
舄	-13.3952
櫬	-13.3952
驀	-13.3952
􁷗	-13.3952
葧	-13.3953
芁	-13.3954
駞	-13.3954
罄	-13.3954
𬞞	-13.3956
楂	-13.3957
磈	-13.3958
䵴	-13.3959
漀	-13.3959
帽	-13.3959
楪	-13.3961
騏	-13.3962
莄	-13.3963
懨	-13.3965
悚	-13.397
猘	-13.4122
蒚	-13.4305
緼	-13.4316
蜾	-13.4322
芨	-13.4323
羱	-13.4327
蜘	-13.4328
晁	-13.433
沌	-13.433
蠹	-13.433
竦	-13.4334
栟	-13.4334
㐮	-13.4336
狠	-13.4336
漐	-13.4339
􁬼	-13.434
貺	-13.434
憾	-13.4342
閬	-13.4344
瘄	-13.4345
墯	-13.4345
䖦	-13.4345
栳	-13.4346
啗	-13.4346
琊	-13.4346
趁	-13.4346
鰒	-13.4346
湫	-13.4347
紝	-13.4347
躡	-13.4347
蛩	-13.4347
荣	-13.4347
𡨕	-13.4348
毘	-13.4348
咋	-13.4349
畝	-13.4349
鋟	-13.4349
孿	-13.4349
􁒓	-13.4351
緝	-13.4351
甎	-13.4352
螵	-13.4352
担	-13.4353
檽	-13.4353
琥	-13.4353
蘼	-13.4353
逥	-13.4354
鷥	-13.4355
頺	-13.4355
靠	-13.4355
搧	-13.4355
俎	-13.4355
𨫼	-13.4355
稞	-13.4356
勣	-13.4358
硵	-13.4358
睢	-13.4358
榜	-13.436
櫞	-13.436
咄	-13.4361
䥥	-13.4363
櫧	-13.4388
苨	-13.4742
稬	-13.4746
珪	-13.4749
償	-13.475
㚷	-13.4752
慚	-13.4752
泝	-13.4752
攴	-13.4753
篡	-13.4755
冺	-13.4755
恢	-13.4756
䎡	-13.4758
梫	-13.4758
戮	-13.4759
梭	-13.4759
炬	-13.4759
恕	-13.476
販	-13.476
疇	-13.476
濮	-13.4761
胥	-13.4762
洮	-13.4763
朐	-13.4763
䏆	-13.4763
絨	-13.4764
訥	-13.4765
􁁻	-13.4765
擫	-13.4767
擗	-13.4767
蟪	-13.4767
仿	-13.4768
撇	-13.4768
掾	-13.4769
䳡	-13.477
呿	-13.477
裨	-13.477
蠷	-13.4771
凜	-13.4771
鼺	-13.4771
哂	-13.4772
㳂	-13.4772
蔦	-13.4772
扭	-13.4772
囱	-13.4773
抛	-13.4774
飩	-13.4774
􁋴	-13.4774
盍	-13.4776
􁶄	-13.4777
煴	-13.4777
沍	-13.4779
桌	-13.4782
􁃛	-13.4783
廧	-13.5164
貸	-13.5178
􁨌	-13.5178
滂	-13.5181
祼	-13.5182
霆	-13.5183
蛓	-13.5183
芄	-13.5186
鵪	-13.5187
螖	-13.519
讃	-13.519
縉	-13.519
薔	-13.5191
瑶	-13.5191
遯	-13.5191
玻	-13.5192
宼	-13.5192
顑	-13.5193
戶	-13.5193
煦	-13.5193
杳	-13.5194
冢	-13.5195
尠	-13.5196
跣	-13.5196
勲	-13.5196
􁷮	-13.5196
蠜	-13.5196
誓	-13.5197
㝡	-13.5197
摟	-13.5197
澣	-13.5197
莙	-13.5197
鶘	-13.5198
黽	-13.5198
涅	-13.5198
罹	-13.5199
翫	-13.5199
霽	-13.52
丰	-13.52
盻	-13.52
曄	-13.52
縻	-13.52
蛕	-13.5201
洟	-13.5202
􁁓	-13.5202
鶵	-13.5202
夥	-13.5203
荸	-13.5205
糙	-13.5206
弭	-13.5206
葬	-13.5206
硯	-13.5206
􁊼	-13.5207
堤	-13.5207
藪	-13.5207
丫	-13.5208
虬	-13.5208
朧	-13.521
弋	-13.521
琨	-13.5212
礱	-13.5214
齝	-13.5216
囟	-13.5216
菂	-13.5222
矃	-13.5224
萇	-13.5623
􁨠	-13.5623
稃	-13.5624
脖	-13.5636
柟	-13.5638
瞢	-13.5639
逞	-13.5641
鷩	-13.5642
貉	-13.5644
䆫	-13.5645
实	-13.5646
檻	-13.5646
薷	-13.5646
胝	-13.5647
􁱀	-13.5648
汰	-13.5648
鸂	-13.5648
苡	-13.5649
狡	-13.5649
縑	-13.5649
綵	-13.565
旻	-13.565
糅	-13.565
沁	-13.5652
諉	-13.5652
堥	-13.5652
藙	-13.5652
蠋	-13.5652
蓳	-13.5652
塔	-13.5653
吠	-13.5653
䏎	-13.5654
紳	-13.5655
覊	-13.5655
㕮	-13.5655
銑	-13.5657
璋	-13.5657
瘘	-13.5658
菡	-13.5658
剡	-13.5659
榼	-13.566
澇	-13.566
瘅	-13.5661
狽	-13.5661
樑	-13.5662
鱅	-13.5662
鉑	-13.5662
蹠	-13.5662
仄	-13.5662
賖	-13.5663
牲	-13.5664
陪	-13.5664
葜	-13.5665
蹴	-13.5665
徊	-13.5666
􁂭	-13.5666
倭	-13.5667
厦	-13.5668
鱘	-13.5669
朏	-13.567
菩	-13.567
离	-13.567
佈	-13.5672
晾	-13.5672
喂	-13.5673
􁣝	-13.5673
檞	-13.5675
鳸	-13.6075
絪	-13.6086
芑	-13.6095
胑	-13.6099
􁐦	-13.6105
薞	-13.6109
鴂	-13.611
嚶	-13.6116
洄	-13.6117
炤	-13.6119
薩	-13.6119
髕	-13.612
狒	-13.6121
􁈛	-13.6122
鏟	-13.6122
􁮅	-13.6122
幙	-13.6123
苪	-13.6123
裔	-13.6123
粲	-13.6125
膛	-13.6125
畿	-13.6126
齎	-13.6127
盎	-13.6128
礧	-13.6128
屧	-13.6128
芼	-13.6128
皛	-13.6128
樽	-13.6128
冉	-13.6128
疋	-13.6128
蒭	-13.6128
恇	-13.6129
寥	-13.6129
萑	-13.6129
梣	-13.6129
葩	-13.6129
昳	-13.6129
茳	-13.613
凟	-13.613
卬	-13.613
篦	-13.613
欖	-13.613
媼	-13.613
􁀧	-13.6131
届	-13.6131
跂	-13.6131
蓀	-13.6132
机	-13.6134
購	-13.6134
貒	-13.6134
坵	-13.6136
魴	-13.6136
瑰	-13.6136
裒	-13.6136
鄞	-13.6137
寖	-13.6137
醨	-13.6137
冼	-13.6138
醅	-13.6139
髣	-13.614
傘	-13.614
圡	-13.614
挪	-13.6141
髴	-13.6141
寨	-13.6141
埂	-13.6143
巓	-13.6143
晌	-13.6144
鐮	-13.6144
㳙	-13.6145
焱	-13.6146
鬃	-13.6146
桷	-13.6149
蝰	-13.6149
訴	-13.6152
嚐	-13.6153
桿	-13.6154
鑼	-13.6155
轎	-13.6155
蟺	-13.6171
乱	-13.6595
凭	-13.6603
遘	-13.6604
蓷	-13.6609
茢	-13.661
犂	-13.6611
姦	-13.6613
豳	-13.6613
􁓨	-13.6616
鵩	-13.6616
疚	-13.6617
兾	-13.6619
檟	-13.662
餵	-13.6622
飪	-13.6624
蟛	-13.6625
昡	-13.6625
摽	-13.6625
懲	-13.6626
鸀	-13.6626
箠	-13.6627
鐸	-13.6627
䂓	-13.6628
袴	-13.6629
罏	-13.6629
漕	-13.6629
蒨	-13.663
睘	-13.6631
戱	-13.6631
瘜	-13.6632
携	-13.6633
刴	-13.6634
􁷯	-13.6634
癯	-13.6635
㾏	-13.6635
𢾗	-13.6635
洵	-13.6636
燦	-13.6638
犲	-13.6638
􁄄	-13.6638
搃	-13.6639
碱	-13.6639
齄	-13.6639
䘀	-13.664
驥	-13.664
隍	-13.664
湿	-13.6641
襟	-13.6642
絙	-13.6642
遅	-13.6642
僚	-13.6643
綰	-13.6644
􁷧	-13.6648
鱯	-13.6648
罽	-13.6648
捽	-13.6656
綉	-13.6657
􁀋	-13.6667
毓	-13.7122
櫐	-13.7124
􁘙	-13.713
蠢	-13.7133
穫	-13.7134
踢	-13.7139
謳	-13.7142
睹	-13.7142
鸜	-13.7143
桒	-13.7144
据	-13.7144
眦	-13.7144
誼	-13.7145
紿	-13.7146
劾	-13.7147
癨	-13.7148
鸊	-13.7148
贖	-13.7148
瓈	-13.7149
熯	-13.7149
舡	-13.715
臗	-13.715
霪	-13.715
佯	-13.7151
愍	-13.7151
呢	-13.7151
撘	-13.7152
遑	-13.7152
撁	-13.7153
霾	-13.7153
吤	-13.7153
豊	-13.7153
蒋	-13.7153
殤	-13.7154
紉	-13.7155
榕	-13.7157
㪍	-13.7157
鳿	-13.7157
榝	-13.7157
瘐	-13.7158
䐐	-13.716
蔟	-13.716
鵓	-13.7161
誚	-13.7162
彬	-13.7162
税	-13.7162
髑	-13.7162
紡	-13.7163
蟶	-13.7163
踪	-13.7164
汛	-13.7164
敖	-13.7164
莠	-13.7165
觴	-13.7165
憧	-13.7165
峨	-13.7167
嘬	-13.717
箍	-13.7171
渥	-13.7172
􁧍	-13.7178
碪	-13.7178
睜	-13.7179
䱉	-13.7193
鉚	-13.7197
羯	-13.7501
嶲	-13.7679
龠	-13.7682
􁉄	-13.769
䲰	-13.769
敊	-13.7692
鵡	-13.7693
愉	-13.7694
葚	-13.7694
邃	-13.7694
咮	-13.7697
蟦	-13.7697
苻	-13.7697
旄	-13.7698
詬	-13.7698
暘	-13.7699
枌	-13.7699
嶁	-13.7699
岌	-13.7699
䪥	-13.7699
憨	-13.77
軋	-13.7701
絜	-13.7702
鄴	-13.7702
儔	-13.7702
汋	-13.7703
貂	-13.7703
菼	-13.7703
飭	-13.7704
糺	-13.7704
餔	-13.7705
駸	-13.7705
紵	-13.7706
茇	-13.7707
埽	-13.7709
酈	-13.7709
桎	-13.7709
蔛	-13.771
瑯	-13.771
蹔	-13.771
蟢	-13.771
菣	-13.7711
厴	-13.7711
璽	-13.7711
􁷵	-13.7712
棖	-13.7712
閫	-13.7712
􁏩	-13.7713
凊	-13.7714
椽	-13.7715
襕	-13.7715
㤗	-13.7715
倡	-13.7715
婬	-13.7716
秖	-13.7716
橐	-13.7717
豸	-13.7718
謔	-13.7718
笙	-13.7718
螿	-13.7719
獱	-13.772
橊	-13.7721
笛	-13.7721
胙	-13.7722
搕	-13.7722
鱡	-13.7722
殮	-13.7724
咫	-13.7724
皀	-13.7724
涏	-13.7725
颯	-13.7725
麓	-13.7725
蜮	-13.7726
垜	-13.7726
觝	-13.7728
搘	-13.7728
癌	-13.7731
礐	-13.7732
蘃	-13.7737
驎	-13.7737
􁖊	-13.7749
􁃉	-13.8275
迵	-13.8278
卭	-13.828
龕	-13.8281
豌	-13.8283
〇	-13.8283
葴	-13.8286
耄	-13.8286
扈	-13.8287
雋	-13.8287
鵂	-13.8289
葖	-13.8289
羝	-13.829
牸	-13.829
郗	-13.8291
欀	-13.8292
撬	-13.8292
摯	-13.8292
幞	-13.8292
伶	-13.8293
饘	-13.8293
牶	-13.8294
悼	-13.8294
䔋	-13.8294
骼	-13.8295
洳	-13.8295
㗁	-13.8295
猾	-13.8295
枇	-13.8295
尓	-13.8295
楼	-13.8295
蛅	-13.8295
璚	-13.8296
慼	-13.8296
杌	-13.8296
馗	-13.8297
櫈	-13.8297
諌	-13.8297
癓	-13.8297
縠	-13.8298
扞	-13.8298
篛	-13.8299
枷	-13.8299
糍	-13.83
㘅	-13.83
擿	-13.8302
烺	-13.8302
鞾	-13.8303
殽	-13.8303
螈	-13.8303
灘	-13.8303
腔	-13.8303
饉	-13.8304
痝	-13.8304
蘑	-13.8304
騙	-13.8304
懋	-13.8305
莃	-13.8306
輳	-13.8306
囙	-13.8307
嗉	-13.8308
䳄	-13.8309
刧	-13.831
笈	-13.831
􁩱	-13.8311
旌	-13.8312
鰥	-13.8312
膶	-13.8312
灯	-13.8313
賽	-13.8313
鼅	-13.8313
妍	-13.8314
揵	-13.8316
魮	-13.8316
撑	-13.832
狨	-13.8324
蛑	-13.8324
稅	-13.8331
㩌	-13.8354
麰	-13.8891
窹	-13.8896
曙	-13.8898
丗	-13.89
牂	-13.8901
饀	-13.8901
胦	-13.8906
蓫	-13.891
覡	-13.8911
轡	-13.8912
鉏	-13.8913
􁕳	-13.8914
菷	-13.8914
衲	-13.8914
躇	-13.8915
躊	-13.8915
隹	-13.8915
耻	-13.8916
纈	-13.8916
屨	-13.8917
庄	-13.8917
鼊	-13.8917
蝭	-13.8918
窅	-13.8919
潯	-13.8919
魫	-13.892
紕	-13.892
蘵	-13.892
廕	-13.892
裠	-13.8921
􁁑	-13.8922
菲	-13.8922
鏇	-13.8924
苢	-13.8924
箘	-13.8925
豔	-13.8925
綟	-13.8925
迮	-13.8925
笏	-13.8925
蝣	-13.8925
傚	-13.8926
圜	-13.8926
螬	-13.8926
沽	-13.8927
稲	-13.8928
愡	-13.8928
蠑	-13.8928
𦦨	-13.8928
畀	-13.8928
楯	-13.8929
葞	-13.8929
蘠	-13.893
壌	-13.893
鶬	-13.8931
櫓	-13.8932
鮪	-13.8933
磷	-13.8933
兇	-13.8933
霸	-13.8934
賂	-13.8934
砲	-13.8934
䐬	-13.8935
裀	-13.8935
羃	-13.8935
螌	-13.8936
喇	-13.8936
攛	-13.8936
􁷝	-13.8937
聫	-13.8938
瀼	-13.8939
簁	-13.8939
籖	-13.8941
𥪡	-13.8941
蔭	-13.8943
皻	-13.8944
鑪	-13.8944
栩	-13.8953
慙	-13.8957
雰	-13.9563
鮐	-13.9568
贄	-13.9569
浚	-13.9569
糸	-13.9572
濓	-13.9573
髩	-13.9575
傖	-13.9576
􁓿	-13.9576
蒯	-13.9577
䔖	-13.9577
鬈	-13.9577
􁎊	-13.9577
湼	-13.9577
絺	-13.9577
癅	-13.9578
㾬	-13.9579
磔	-13.9579
槍	-13.958
荈	-13.958
斸	-13.9581
啡	-13.9581
僦	-13.9582
莒	-13.9582
陌	-13.9583
鏬	-13.9583
蟖	-13.9583
樳	-13.9584
扼	-13.9585
鍘	-13.9585
毳	-13.9585
仞	-13.9586
籙	-13.9586
䖳	-13.9586
蜢	-13.9586
蕁	-13.9586
詆	-13.9587
檜	-13.9587
鏐	-13.9587
櫰	-13.9587
縋	-13.9588
銗	-13.9588
􁊽	-13.9589
盟	-13.9589
瘨	-13.9589
孳	-13.9589
斳	-13.959
􁡠	-13.959
倩	-13.959
貛	-13.9591
餽	-13.9591
暁	-13.9591
謫	-13.9591
鵑	-13.9592
硭	-13.9593
玠	-13.9593
娯	-13.9593
餫	-13.9594
紬	-13.9594
脰	-13.9594
玃	-13.9594
岱	-13.9595
餧	-13.9595
麁	-13.9595
蒾	-13.9595
柩	-13.9596
諷	-13.9596
耒	-13.9596
抬	-13.9596
扒	-13.9596
絀	-13.9596
􁅳	-13.9597
婿	-13.9597
樲	-13.9597
讚	-13.9597
偎	-13.9597
鄱	-13.9598
䕯	-13.9598
氈	-13.9599
徘	-13.9599
曛	-13.9599
礫	-13.96
纊	-13.9601
柀	-13.9601
冡	-13.9601
􁀶	-13.9603
拐	-13.9604
楙	-13.9604
蜍	-13.9605
穉	-13.9607
螗	-13.9608
䲙	-13.9608
瘮	-13.9609
筲	-13.961
塟	-13.9612
罡	-13.9612
棓	-13.9618
麽	-13.9618
蠳	-13.9622
䗯	-13.9624
㬽	-13.963
齅	-13.964
蘢	-14.0259
昴	-14.0275
壑	-14.0279
仭	-14.0281
䳇	-14.0281
蹏	-14.0284
煏	-14.0284
箴	-14.0284
尰	-14.0286
巒	-14.0286
螁	-14.0289
訮	-14.0289
柢	-14.029
摹	-14.029
変	-14.0293
㹀	-14.0294
藊	-14.0294
懔	-14.0295
洶	-14.0295
愐	-14.0295
辜	-14.0296
蠭	-14.0296
箐	-14.0297
鏨	-14.0297
痸	-14.0297
蜟	-14.0297
臃	-14.0298
槵	-14.0298
縹	-14.0298
枵	-14.0299
漾	-14.0299
蜎	-14.0299
顓	-14.03
勰	-14.03
侄	-14.03
圑	-14.03
皤	-14.03
霤	-14.03
椵	-14.03
殖	-14.0301
􁗁	-14.0301
矞	-14.0301
漣	-14.0301
頲	-14.0302
刁	-14.0303
箧	-14.0303
螘	-14.0303
阪	-14.0303
夯	-14.0305
萵	-14.0305
怳	-14.0305
殯	-14.0305
迪	-14.0306
齕	-14.0306
迯	-14.0306
饗	-14.0306
畋	-14.0307
涶	-14.0307
淩	-14.0307
尙	-14.0307
戟	-14.0308
胄	-14.0308
猿	-14.0308
蔯	-14.0309
碙	-14.0309
葀	-14.0309
茩	-14.0309
靱	-14.031
黮	-14.031
陞	-14.031
菑	-14.031
殄	-14.031
磺	-14.0311
棚	-14.0311
翡	-14.0311
鞦	-14.0311
胴	-14.0312
𦵏	-14.0312
鷉	-14.0313
藫	-14.0313
戻	-14.0313
鬄	-14.0314
􁛾	-14.0314
這	-14.0315
蕖	-14.0315
冨	-14.0315
輦	-14.0315
繚	-14.0316
䙀	-14.0317
樛	-14.0319
螣	-14.032
毡	-14.032
曺	-14.032
潎	-14.0321
韈	-14.0321
舐	-14.0321
㧓	-14.0324
鱁	-14.0326
蝇	-14.0327
䬪	-14.0328
鯔	-14.0328
睟	-14.033
糨	-14.0331
穌	-14.0333
莆	-14.0336
㰦	-14.0348
􁓾	-14.1022
窿	-14.1041
汜	-14.1047
鄕	-14.1052
葝	-14.1052
檿	-14.1052
鷴	-14.1053
翥	-14.1053
芟	-14.1055
礴	-14.1055
徨	-14.1056
􁁺	-14.1056
煬	-14.1057
綖	-14.1058
蕇	-14.1059
釁	-14.1059
暉	-14.1059
趍	-14.1059
囿	-14.106
峙	-14.1061
褒	-14.1063
廂	-14.1063
蚳	-14.1063
擕	-14.1063
䊀	-14.1063
耨	-14.1064
􁅋	-14.1064
佞	-14.1065
昶	-14.1065
暹	-14.1065
㺅	-14.1066
愿	-14.1066
䐗	-14.1066
裊	-14.1066
蜼	-14.1066
頳	-14.1067
﨑	-14.1067
卉	-14.1068
歆	-14.1069
覘	-14.1069
飋	-14.1069
蝠	-14.1069
剗	-14.1069
涿	-14.1069
亊	-14.107
橉	-14.107
鍮	-14.107
躰	-14.1071
譙	-14.1071
鸐	-14.1072
椋	-14.1072
毖	-14.1072
璺	-14.1072
萋	-14.1073
羨	-14.1073
祚	-14.1074
壼	-14.1075
糭	-14.1075
𫾣	-14.1075
碜	-14.1075
棑	-14.1075
娼	-14.1076
孑	-14.1076
䓆	-14.1077
詈	-14.1077
掜	-14.1077
鶹	-14.1077
畆	-14.1077
柈	-14.1077
慳	-14.1077
泳	-14.1078
􁟦	-14.1078
牦	-14.1079
眎	-14.108
嗝	-14.108
滀	-14.1081
螲	-14.1081
糲	-14.1082
嚵	-14.1082
笞	-14.1082
噍	-14.1082
㝛	-14.1082
朹	-14.1082
壷	-14.1083
醲	-14.1083
鍳	-14.1083
繕	-14.1083
濱	-14.1084
戛	-14.1084
柵	-14.1084
坌	-14.1085
徂	-14.1085
芉	-14.1086
蹹	-14.1087
䱒	-14.1087
飫	-14.1088
琪	-14.1088
躑	-14.1089
􁣎	-14.1089
怛	-14.1089
秣	-14.109
鴇	-14.109
磐	-14.1091
墩	-14.1092
叵	-14.1092
蛐	-14.1092
揄	-14.1093
檾	-14.1093
蟆	-14.1095
硐	-14.1099
啀	-14.11
唤	-14.1113
棎	-14.1113
淇	-14.1874
壠	-14.1875
稉	-14.1876
昊	-14.1879
䍽	-14.188
㿂	-14.188
酋	-14.1888
蘹	-14.1888
薍	-14.189
戡	-14.1891
劭	-14.1891
􁋣	-14.1892
翺	-14.1893
侈	-14.1893
塸	-14.1894
磑	-14.1896
壍	-14.1896
劙	-14.1897
櫪	-14.1898
卞	-14.1898
囀	-14.1898
宸	-14.1899
丕	-14.1899
臝	-14.19
㫰	-14.19
孛	-14.19
彖	-14.19
吺	-14.19
鸇	-14.19
舘	-14.1901
骻	-14.1901
橚	-14.1901
蓞	-14.1901
澑	-14.1901
抒	-14.1902
蟀	-14.1902
跎	-14.1903
䭔	-14.1903
譁	-14.1903
聮	-14.1904
䰅	-14.1904
蹟	-14.1904
渺	-14.1905
㕓	-14.1905
肻	-14.1905
䌫	-14.1906
剷	-14.1906
搬	-14.1906
遄	-14.1906
猒	-14.1906
䳱	-14.1907
翊	-14.1907
㤙	-14.1908
㝃	-14.1908
檄	-14.1909
徭	-14.1909
黼	-14.1909
幘	-14.191
𠫭	-14.1911
呦	-14.1911
航	-14.1911
餬	-14.1911
凴	-14.1912
抖	-14.1912
恡	-14.1912
晛	-14.1912
满	-14.1912
褰	-14.1912
歘	-14.1912
㗸	-14.1912
踿	-14.1912
䝁	-14.1912
熠	-14.1913
屆	-14.1913
痜	-14.1913
􁞷	-14.1913
牗	-14.1913
逅	-14.1913
邂	-14.1913
鮒	-14.1913
肴	-14.1914
挲	-14.1915
鷟	-14.1915
鷗	-14.1915
茁	-14.1915
韲	-14.1915
搊	-14.1916
黜	-14.1916
荴	-14.1916
蠓	-14.1917
蝢	-14.1918
侏	-14.1919
綃	-14.1919
蘦	-14.192
􁆛	-14.192
笴	-14.192
瘊	-14.1921
㵕	-14.1921
拚	-14.1922
斕	-14.1922
􁍹	-14.1924
訾	-14.1925
腆	-14.1925
􁥄	-14.1926
惆	-14.1928
顗	-14.1928
录	-14.1929
柂	-14.193
鯆	-14.1933
㿍	-14.1933
蠔	-14.1934
号	-14.1937
琦	-14.194
鵅	-14.1954
綦	-14.2776
貙	-14.2777
􁊕	-14.278
荎	-14.2783
窳	-14.2784
伹	-14.2789
蚡	-14.2791
薚	-14.2793
䖅	-14.2794
鐙	-14.2798
笓	-14.28
贏	-14.28
昕	-14.28
嵎	-14.28
燬	-14.2801
鳲	-14.2801
縵	-14.2802
朢	-14.2802
煼	-14.2803
巍	-14.2805
霓	-14.2805
寰	-14.2805
筝	-14.2805
黟	-14.2806
窽	-14.2806
妒	-14.2806
械	-14.2806
赶	-14.2806
篠	-14.2806
牾	-14.2807
㿅	-14.2808
蛈	-14.2808
膃	-14.2809
氛	-14.2809
魨	-14.281
昃	-14.2811
餾	-14.2811
姧	-14.2811
卸	-14.2812
蚯	-14.2812
墼	-14.2813
廸	-14.2813
偪	-14.2813
􁔁	-14.2813
賺	-14.2813
鏗	-14.2813
燿	-14.2814
穭	-14.2814
𣺌	-14.2814
竣	-14.2814
惓	-14.2814
眈	-14.2814
瑤	-14.2814
硤	-14.2814
㵪	-14.2814
驉	-14.2814
琰	-14.2815
䱱	-14.2815
洙	-14.2816
蕹	-14.2816
瑛	-14.2816
淂	-14.2816
蒒	-14.2817
傲	-14.2817
迕	-14.2818
姨	-14.2818
劬	-14.2819
苜	-14.2819
鱒	-14.2819
懌	-14.2819
朘	-14.2819
鷘	-14.2819
鉞	-14.2819
脑	-14.2819
挻	-14.2819
媵	-14.2819
䳌	-14.282
瀧	-14.282
廋	-14.282
薃	-14.282
汐	-14.282
鶗	-14.2821
輞	-14.2821
侣	-14.2821
棹	-14.2821
吒	-14.2821
荍	-14.2822
慟	-14.2822
隼	-14.2822
艌	-14.2823
緗	-14.2823
疒	-14.2823
幣	-14.2824
溯	-14.2824
揠	-14.2824
腽	-14.2825
憔	-14.2825
蜺	-14.2825
跼	-14.2825
薾	-14.2825
闍	-14.2825
擱	-14.2826
樃	-14.2826
鏭	-14.2826
絫	-14.2826
雇	-14.2826
嫡	-14.2827
碢	-14.2829
终	-14.2829
襆	-14.2829
㪯	-14.2829
廡	-14.283
㱔	-14.283
凓	-14.2831
餂	-14.2831
匆	-14.2831
薬	-14.2832
􁁟	-14.2833
圻	-14.2833
颺	-14.2836
氍	-14.2838
痪	-14.2839
刹	-14.284
􁇚	-14.284
逵	-14.284
笱	-14.2841
蓧	-14.2842
骹	-14.2842
膇	-14.2843
鯮	-14.2844
蟊	-14.2845
鶂	-14.2845
翩	-14.2846
鰋	-14.2849
肧	-14.2849
皋	-14.2854
凔	-14.2855
􁠴	-14.2866
犧	-14.3772
䵖	-14.3774
蔜	-14.3784
䐢	-14.3786
坏	-14.3788
唼	-14.379
秧	-14.379
􁮓	-14.3791
釃	-14.3791
筤	-14.3793
饞	-14.3794
瘞	-14.3794
蚦	-14.3794
纖	-14.3795
䕲	-14.3796
晤	-14.3796
喩	-14.3798
磅	-14.3799
烽	-14.38
鈿	-14.3801
鐫	-14.3801
歔	-14.3801
蓿	-14.3801
𠖇	-14.3802
垤	-14.3802
餲	-14.3803
檰	-14.3803
咻	-14.3803
􁇷	-14.3803
􁘥	-14.3804
彪	-14.3804
聆	-14.3805
睿	-14.3805
柜	-14.3805
㙡	-14.3805
苹	-14.3805
緌	-14.3805
䈥	-14.3807
蔊	-14.3807
餿	-14.3808
爹	-14.3808
誖	-14.3808
贍	-14.3808
牴	-14.3808
㸑	-14.3809
峡	-14.3809
牁	-14.3809
篲	-14.3809
晳	-14.381
蟋	-14.381
簀	-14.3811
鱢	-14.3811
萡	-14.3812
鰣	-14.3813
瀑	-14.3813
鼫	-14.3813
聤	-14.3813
榲	-14.3813
萉	-14.3813
槪	-14.3814
貿	-14.3814
珧	-14.3814
幪	-14.3814
䀯	-14.3814
䀽	-14.3814
醙	-14.3814
揲	-14.3814
?	-14.3814
㶏	-14.3814
扳	-14.3815
穵	-14.3815
栨	-14.3815
駏	-14.3815
茞	-14.3815
冕	-14.3816
幡	-14.3816
鏑	-14.3817
紂	-14.3817
怎	-14.3817
驤	-14.3817
膸	-14.3818
茼	-14.3818
􁅪	-14.3818
倓	-14.3818
㽷	-14.3818
甯	-14.3818
􁨸	-14.3818
闈	-14.3819
腄	-14.3819
劊	-14.3819
牋	-14.382
睒	-14.382
踧	-14.382
䕋	-14.382
礞	-14.382
檓	-14.3821
肄	-14.3821
蚿	-14.3822
珮	-14.3823
貲	-14.3823
鶖	-14.3823
禧	-14.3823
忝	-14.3823
琬	-14.3823
黳	-14.3824
鑞	-14.3824
􁱺	-14.3824
炯	-14.3825
紓	-14.3825
彛	-14.3825
蜿	-14.3825
槨	-14.3826
􁋶	-14.3826
篨	-14.3826
􁠽	-14.3826
皏	-14.3826
鱤	-14.3826
唅	-14.3827
㿏	-14.3827
􁊦	-14.3827
騌	-14.3827
楛	-14.3827
猱	-14.3828
塤	-14.3828
涣	-14.3829
藐	-14.3829
􁕆	-14.383
樁	-14.383
咤	-14.383
嫋	-14.383
噼	-14.383
擰	-14.3831
礵	-14.3831
尽	-14.3831
蜰	-14.3831
薕	-14.3831
撕	-14.3832
桺	-14.3833
韆	-14.3833
獮	-14.3834
􁷭	-14.3835
㧺	-14.3835
堿	-14.3835
杷	-14.3836
籧	-14.3836
墅	-14.3838
蚧	-14.3839
墡	-14.3839
磞	-14.384
􁠆	-14.384
盯	-14.3841
鮆	-14.3841
惏	-14.3842
缻	-14.3842
厮	-14.3843
膒	-14.3844
􁷶	-14.3847
􁐑	-14.3848
鞏	-14.3853
謄	-14.3853
鱭	-14.3856
駚	-14.3859
鰲	-14.386
檔	-14.3883
麳	-14.488
摙	-14.4885
㦎	-14.4885
曆	-14.4886
鶾	-14.4892
憟	-14.4893
杠	-14.4893
莐	-14.4895
􁚌	-14.4899
夔	-14.49
閹	-14.4901
孹	-14.4903
諼	-14.4904
徬	-14.4905
諟	-14.4907
欶	-14.4907
竽	-14.4909
浡	-14.4909
䭾	-14.4913
䙝	-14.4913
𦕈	-14.4913
咏	-14.4914
廖	-14.4914
鯖	-14.4914
勔	-14.4914
夤	-14.4914
腂	-14.4915
扃	-14.4916
誹	-14.4916
刖	-14.4916
嘵	-14.4916
柬	-14.4916
畛	-14.4917
岣	-14.4917
丄	-14.4917
媱	-14.4917
慊	-14.4918
嶇	-14.4918
䘓	-14.4919
㸺	-14.4919
黤	-14.4919
躃	-14.4919
瘚	-14.4919
􁖌	-14.4919
扉	-14.492
沱	-14.4921
佉	-14.4923
聪	-14.4923
趼	-14.4923
禈	-14.4924
隳	-14.4924
邠	-14.4924
栱	-14.4924
郛	-14.4924
窣	-14.4924
嶷	-14.4924
嵸	-14.4925
叛	-14.4925
鼬	-14.4925
舵	-14.4925
晢	-14.4925
韙	-14.4925
蛵	-14.4926
簫	-14.4927
薠	-14.4927
蚩	-14.4927
蕸	-14.4928
頮	-14.4928
磰	-14.4928
袠	-14.4928
鍇	-14.4929
暌	-14.493
爕	-14.493
茟	-14.493
秭	-14.493
蠚	-14.493
梹	-14.4931
㩀	-14.4931
渦	-14.4931
𠢐	-14.4931
銃	-14.4931
囃	-14.4931
媧	-14.4932
㬌	-14.4932
曈	-14.4932
罟	-14.4932
釧	-14.4932
揪	-14.4933
䘖	-14.4933
与	-14.4934
籩	-14.4934
酙	-14.4935
鵽	-14.4936
蜡	-14.4936
搌	-14.4936
顳	-14.4937
䜿	-14.4937
鈚	-14.4937
瘺	-14.4937
鰎	-14.4937
曇	-14.4938
叨	-14.4938
蟟	-14.4938
鬡	-14.4938
蕓	-14.4938
帬	-14.4938
袵	-14.4938
倶	-14.4938
营	-14.4938
蘀	-14.4938
旃	-14.4938
幄	-14.4939
蓎	-14.4939
筀	-14.494
胊	-14.494
㿋	-14.494
骽	-14.4941
摳	-14.4941
篳	-14.4941
㬾	-14.4942
㾾	-14.4942
炫	-14.4942
蚹	-14.4942
􁄪	-14.4942
慽	-14.4943
􁱔	-14.4943
撡	-14.4944
賫	-14.4946
庥	-14.4946
鮅	-14.4947
鰩	-14.4947
䍧	-14.4947
淦	-14.4948
址	-14.4948
邏	-14.4948
牱	-14.4948
襖	-14.4948
掏	-14.4949
党	-14.4949
抿	-14.495
㓛	-14.4951
獷	-14.4951
莔	-14.4951
蝏	-14.4951
勌	-14.4952
踴	-14.4952
􁉺	-14.4952
􁁐	-14.4952
芃	-14.4952
蟒	-14.4953
彄	-14.4954
􁄺	-14.4955
螔	-14.4955
褫	-14.4956
蠰	-14.4957
䘒	-14.4957
牘	-14.4964
蕏	-14.6118
淊	-14.6137
蘬	-14.6137
忱	-14.6139
帘	-14.614
䶊	-14.6146
体	-14.6146
慇	-14.6149
懃	-14.6149
租	-14.6149
蕍	-14.6153
菧	-14.6154
狃	-14.6156
蚼	-14.6156
穅	-14.6157
欷	-14.6158
䵹	-14.6158
蘅	-14.6159
荊	-14.6159
桵	-14.616
俸	-14.6162
楹	-14.6163
薓	-14.6163
葹	-14.6164
藚	-14.6164
挣	-14.6165
栭	-14.6165
楨	-14.6165
憩	-14.6165
瓌	-14.6165
葆	-14.6166
沅	-14.6166
眛	-14.6166
瀟	-14.6167
偻	-14.6167
岷	-14.6168
崧	-14.6168
圉	-14.6169
窰	-14.6169
梠	-14.6169
苃	-14.617
巃	-14.617
巂	-14.617
羿	-14.617
獗	-14.617
㒹	-14.617
檵	-14.6171
胼	-14.6171
唳	-14.6171
湎	-14.6171
孱	-14.6171
篷	-14.6172
媍	-14.6172
楤	-14.6172
湔	-14.6173
茝	-14.6173
醍	-14.6173
狤	-14.6173
僑	-14.6174
哇	-14.6174
穾	-14.6174
搰	-14.6174
䄂	-14.6174
炸	-14.6174
盱	-14.6174
娱	-14.6174
藾	-14.6174
犡	-14.6174
櫅	-14.6175
斐	-14.6176
梖	-14.6176
疉	-14.6176
艻	-14.6177
喀	-14.6177
蕽	-14.6177
挍	-14.6177
粿	-14.6178
瞧	-14.6179
忖	-14.6179
嶄	-14.6179
㳛	-14.6179
坈	-14.6179
哆	-14.618
惘	-14.618
脡	-14.618
㙠	-14.6181
檑	-14.6181
虻	-14.6181
杇	-14.6181
葓	-14.6181
䃋	-14.6182
岕	-14.6182
㙜	-14.6182
爿	-14.6182
膘	-14.6182
栒	-14.6182
睨	-14.6183
蔱	-14.6183
揫	-14.6183
蛁	-14.6183
藠	-14.6183
蒹	-14.6184
囷	-14.6184
蓲	-14.6184
㳿	-14.6185
䴷	-14.6185
皈	-14.6185
嶮	-14.6186
瀰	-14.6187
怜	-14.6187
㟁	-14.6188
􁞃	-14.6188
罾	-14.6188
䒻	-14.6188
楬	-14.6189
緍	-14.6189
眺	-14.6189
矴	-14.6189
煔	-14.6189
孥	-14.619
狖	-14.619
㵸	-14.619
䰲	-14.619
廅	-14.619
牓	-14.6191
䔾	-14.6191
儕	-14.6191
胭	-14.6191
撐	-14.6192
庳	-14.6193
紏	-14.6194
擀	-14.6194
綣	-14.6194
繙	-14.6194
菹	-14.6194
嘱	-14.6195
躅	-14.6195
溧	-14.6195
脤	-14.6196
傀	-14.6196
穤	-14.6196
䭷	-14.6196
爨	-14.6197
棬	-14.6197
勵	-14.6198
僃	-14.6199
莜	-14.6201
蕢	-14.6201
晟	-14.6202
旭	-14.6205
萏	-14.6206
纜	-14.6207
烜	-14.6208
䥶	-14.6209
顬	-14.6211
懴	-14.6219
䰿	-14.624
崙	-14.758
蘞	-14.7601
䚡	-14.7609
餛	-14.7609
鷀	-14.7613
譆	-14.7684
粕	-14.9252
蝙	-14.9271
譩	-14.9272
䗫	-15.1269
臙	-15.127
䀮	-15.1276
墀	-15.1318
玳	-15.374
鸕	-15.3762
蠼	-15.3765
瑚	-15.3774
玕	-15.3777
珊	-15.7075
醐	-15.7078
璐	-15.7175
霹	-16.2161
瘩	-17.2096
怢	-17.2131
僥	-17.2132
珤	-17.2133
薘	-17.2134
鶄	-17.2135
鵁	-17.2136
駙	-17.2137
匍	-17.2138
邐	-17.2139
蝴	-17.214
睍	-17.2141
彧	-17.2142
鴝	-17.2143
矂	-17.2144
榅	-17.2145
獼	-17.2146
曦	-17.2147
紜	-17.2148
穡	-17.2149
逡	-17.215
彣	-17.2151
靂	-17.2152
麒	-17.2152
