<unk>	0
<s>	0
</s>	0
,	-1.93238
。	-3.42534
、	-3.43216
:「	-4.52134
!	-4.54966
者	-4.872
。」	-4.92741
?	-5.0783
不	-5.21152
有	-5.2322
時	-5.28742
彼	-5.35837
為	-5.43514
;	-5.46414
爾時	-5.47753
:『	-5.48197
如是	-5.5087
已	-5.52339
我	-5.55929
。「	-5.73595
行	-5.73943
世尊	-5.74405
於	-5.76578
法	-5.77212
若	-5.8109
生	-5.81997
此	-5.82546
是	-5.83434
比丘	-5.84128
言	-5.884
以	-5.89282
?」	-5.90761
曰	-5.91537
故	-5.92098
。』	-5.93335
無	-5.94989
之	-5.96672
:	-5.9916
諸比丘	-5.99166
人	-5.99261
得	-6.02191
身	-6.04515
心	-6.1034
見	-6.10516
而	-6.13653
其	-6.16126
所	-6.16747
如	-6.17397
中	-6.19237
受	-6.19482
當	-6.27895
也	-6.28398
欲	-6.29014
便	-6.30627
說	-6.31961
王	-6.34402
及	-6.36562
諸	-6.3971
汝	-6.39981
耶	-6.40806
如來	-6.43513
云何	-6.43513
阿難	-6.43519
▁	-6.44051
知	-6.44221
亦	-6.46416
謂	-6.47013
從	-6.47767
佛	-6.48204
自	-6.48403
一時	-6.50176
即	-6.50823
意	-6.51822
一	-6.53226
復	-6.54515
大	-6.55474
善	-6.55799
何	-6.59706
作	-6.59799
樂	-6.60055
苦	-6.60226
至	-6.61166
是時	-6.61614
非	-6.6201
色	-6.63004
道	-6.63965
與	-6.64939
在	-6.65944
想	-6.67032
住	-6.67255
食	-6.68816
天	-6.69608
盡	-6.70707
或	-6.7132
念	-6.71967
名	-6.72113
處	-6.74389
婆羅門	-6.78316
出	-6.78703
聞佛所說	-6.8168
相	-6.82124
令	-6.82518
上	-6.82599
來	-6.8339
皆	-6.83549
能	-6.83716
滅	-6.86367
觀	-6.87305
等	-6.87777
眾	-6.8802
無有	-6.89232
梵志	-6.90094
起	-6.90495
乃至	-6.91839
復次	-6.92068
識	-6.92095
語	-6.933
歡喜奉行	-6.94216
入	-6.95718
一切	-6.95999
聞	-6.96117
四	-6.9665
三	-6.96779
問	-6.96965
如是我聞	-6.97134
斷	-6.98295
施	-6.99169
今	-6.99392
事	-6.99416
多	-7.02954
應	-7.05698
取	-7.05733
世間	-7.06686
則	-7.08956
常	-7.0945
捨	-7.0977
因	-7.09799
二	-7.09844
離	-7.10665
可	-7.1166
眾生	-7.12027
是故	-7.12353
使	-7.12357
本	-7.12755
沙門	-7.14422
持	-7.15171
求	-7.15756
水	-7.16207
是謂	-7.16724
死	-7.16849
著	-7.17035
地	-7.17529
白	-7.17995
惡	-7.18476
答曰	-7.21159
於是	-7.21687
修	-7.22632
經	-7.22972
?』	-7.25231
白佛言	-7.25388
我今	-7.25474
解脫	-7.26123
止	-7.26169
戒	-7.26355
所以者	-7.28265
覺	-7.28681
子	-7.29847
清淨	-7.30217
愛	-7.30977
義	-7.32197
隨	-7.32408
坐	-7.33021
去	-7.34925
世尊告諸比丘	-7.35131
長者	-7.35824
所謂	-7.36135
極	-7.36744
報	-7.37109
向	-7.37984
供養	-7.38216
後	-7.39348
五	-7.39968
定	-7.40285
下	-7.40808
是名	-7.41131
前	-7.41316
瞿曇	-7.41887
習	-7.41924
勝	-7.42087
正	-7.42637
俱	-7.43338
亦不	-7.446
火	-7.45724
七	-7.46779
六	-7.47452
業	-7.4751
耳	-7.47556
淨	-7.48072
成就	-7.48714
又	-7.49158
成	-7.49548
病	-7.49986
具足	-7.50108
善哉	-7.50736
內	-7.51335
智	-7.51338
教	-7.52157
具	-7.52225
利	-7.52648
力	-7.5275
他	-7.52976
明	-7.53725
答	-7.53758
(	-7.53886
我等	-7.54033
共	-7.5435
少	-7.54482
過	-7.54757
汝等	-7.55022
思惟	-7.55208
信	-7.55548
還	-7.56771
無量	-7.57422
弟子	-7.57455
然	-7.57772
若有	-7.57934
諸賢	-7.58031
喜	-7.58729
大王	-7.59094
學	-7.59497
師	-7.60373
緣	-7.60899
口	-7.62797
依	-7.63428
不得	-7.63571
因緣	-7.6415
種種	-7.64691
各	-7.64949
尊者	-7.65102
好	-7.65151
論	-7.65169
空	-7.65243
衣	-7.65483
當知	-7.65637
國	-7.66434
先	-7.66719
!」	-7.67664
眼	-7.67729
現	-7.67765
家	-7.67808
難	-7.6784
諸天	-7.68009
命	-7.69699
慧	-7.69896
猶如	-7.69996
除	-7.70239
悉	-7.70507
種	-7.70514
願	-7.7113
味	-7.71241
重	-7.71572
但	-7.71655
不知	-7.71689
佛言	-7.72664
歡喜	-7.72787
世	-7.73191
香	-7.73485
說法	-7.73784
佛說此經已	-7.73811
是為	-7.73881
度	-7.74256
不能	-7.74378
智慧	-7.74595
佛住舍衛國祇樹給孤獨園	-7.74679
聲	-7.74872
不可	-7.75203
沙門瞿曇	-7.75341
瞋恚	-7.75617
未	-7.7592
出家	-7.76389
更	-7.76599
餘	-7.76787
集	-7.78423
往	-7.78424
。」「	-7.78872
譬如	-7.80213
八	-7.80616
必	-7.80752
尊	-7.80791
世尊告曰	-7.80992
尊者阿難	-7.81453
所說	-7.82045
亦復如是	-7.82273
解	-7.82856
觸	-7.83382
痛	-7.83496
莫	-7.83794
外	-7.84199
第一	-7.85176
異	-7.85624
答言	-7.85793
樹	-7.85962
由	-7.86176
頭	-7.86321
足	-7.87692
轉	-7.87972
果	-7.8808
妙	-7.88179
將	-7.88191
用	-7.88395
迦葉	-7.88537
息	-7.88575
小	-7.88978
日	-7.89808
父母	-7.89879
福	-7.90223
)	-7.90356
分	-7.90568
護	-7.91188
居士	-7.91343
憂	-7.91646
生死	-7.91874
實	-7.91926
流	-7.92248
佛在舍衛國祇樹給孤獨園	-7.92567
女	-7.9269
界	-7.92732
風	-7.92771
山	-7.9299
數	-7.93017
作是念	-7.9355
趣	-7.93834
門	-7.94222
無常	-7.94438
地獄	-7.94574
佛告	-7.95379
賢者	-7.95907
涅槃	-7.96016
高	-7.9692
老	-7.96921
等正覺	-7.96963
城	-7.97024
》	-7.97298
癡	-7.98085
彼人	-7.98686
初	-7.9887
同	-7.99419
殺	-7.99419
飲食	-7.99559
壞	-7.99728
吾	-7.99769
聞如是	-7.9999
次	-8.00022
告	-8.00392
設	-8.00706
母	-8.01245
摩	-8.01396
唯	-8.01433
貪	-8.0155
精進	-8.01572
立	-8.01673
金	-8.01882
功德	-8.02032
象	-8.02343
於彼	-8.02668
乃	-8.02991
梵行	-8.0317
惱	-8.04443
舍利弗	-8.04553
方便	-8.04572
.	-8.04807
命終	-8.05389
根	-8.05682
乎	-8.06015
廣	-8.06302
聚	-8.06348
名為	-8.06884
寶	-8.07108
分別	-8.07436
身壞命終	-8.0751
恚	-8.07598
。』」	-8.07769
恒	-8.07944
羅	-8.07967
長	-8.08139
乘	-8.08159
名曰	-8.08379
何等為	-8.08852
壽	-8.09339
一者	-8.09853
所以然者	-8.10186
十	-8.10957
舍	-8.1114
滿	-8.11223
結	-8.11847
車	-8.11995
斯	-8.12448
既	-8.12701
愚癡	-8.13036
汝今	-8.13167
人民	-8.13187
華	-8.13256
神	-8.1386
詣	-8.13935
。』「	-8.14123
此是	-8.14342
或有	-8.14359
墮	-8.1495
觀察	-8.15191
牛	-8.15251
二者	-8.15343
到	-8.16372
比丘尼	-8.16379
猶	-8.16591
安	-8.17853
復有	-8.18114
梵天	-8.18339
方	-8.18421
失	-8.18592
修習	-8.18693
九	-8.19009
千	-8.19457
梵	-8.19466
形	-8.19709
所有	-8.19765
光明	-8.19773
律	-8.20315
魔	-8.21135
鼻	-8.21229
彼比丘	-8.21415
化	-8.21556
聽	-8.22206
發	-8.22588
於此	-8.22612
光	-8.22855
思	-8.23185
之法	-8.23421
罪	-8.23717
那	-8.23763
不樂	-8.23792
主	-8.24075
邪見	-8.24235
三昧	-8.24356
請	-8.24723
對	-8.2475
增	-8.24836
不善	-8.24845
稽首佛足	-8.25127
何等	-8.25288
獲	-8.25701
迦	-8.266
婆	-8.26772
陀	-8.26789
問曰	-8.26818
三者	-8.27137
亦有	-8.27869
舉	-8.28109
雖	-8.28157
不見	-8.28364
沒	-8.28614
布施	-8.28708
舌	-8.29782
花	-8.29943
稱	-8.3018
如實知	-8.30286
善法	-8.30397
見已	-8.30687
三十三天	-8.30929
造	-8.31187
亦復	-8.31257
今日	-8.3203
害	-8.32256
深	-8.32361
甚	-8.3251
遠離	-8.32575
安隱	-8.32611
百	-8.3269
此人	-8.32796
有一	-8.32856
月	-8.32907
邪	-8.32926
會	-8.33003
治	-8.33033
林	-8.33472
馬	-8.33636
婬	-8.33743
正法	-8.34124
第二	-8.34147
恭敬	-8.34462
過去	-8.34968
患	-8.35183
親	-8.35503
忍	-8.35603
帝釋	-8.36076
久	-8.36641
阿	-8.37171
疑	-8.37319
守	-8.37704
復問	-8.37882
竟	-8.37891
無所著	-8.38035
亦無	-8.38083
修行	-8.38147
於中	-8.38443
五百	-8.3876
勿	-8.38953
皆悉	-8.39093
雨	-8.39266
聞已	-8.39322
敬	-8.39324
自然	-8.39454
燒	-8.39495
夫	-8.39558
德	-8.39655
邊	-8.39791
速	-8.40594
要	-8.40753
夜	-8.41167
往詣	-8.41229
聖	-8.41899
棄	-8.41967
致	-8.42091
縛	-8.42685
之所	-8.42753
計	-8.42959
我當	-8.43203
自在	-8.43456
龍	-8.43514
頭面禮足	-8.4376
照	-8.43992
所作	-8.4413
婦	-8.44228
劫	-8.44606
誰	-8.44779
年	-8.45013
不應	-8.45238
財	-8.45327
宜	-8.45432
離欲	-8.4545
佛告比丘	-8.46062
證	-8.46365
當作是學	-8.4657
諦	-8.46773
而不	-8.46802
無明	-8.46976
手	-8.47242
如此	-8.47308
天王	-8.47963
相應	-8.48255
不復	-8.48311
覆	-8.4843
女人	-8.48565
禪	-8.48947
歎	-8.49116
退坐一面	-8.49166
合	-8.49417
佛說	-8.49578
般涅槃	-8.50162
正見	-8.50447
無所	-8.50755
優婆塞	-8.50785
太子	-8.51063
悲	-8.51093
園	-8.51177
:「『	-8.52126
若比丘	-8.52379
正念	-8.52691
物	-8.52831
僧	-8.53208
又復	-8.54063
獨	-8.54312
奉	-8.54651
不淨	-8.54827
真實	-8.54933
持戒	-8.5506
天子	-8.55104
不生	-8.55182
來詣佛所	-8.55707
第三	-8.55757
即便	-8.5585
終	-8.56132
父	-8.5615
意云何	-8.56655
轉輪聖王	-8.56823
以此	-8.56931
己	-8.57031
飲	-8.57173
知如真	-8.5722
宮	-8.57373
草	-8.57481
四者	-8.57602
熱	-8.5766
須	-8.5814
梵行已立	-8.58266
宮殿	-8.58404
而說偈言	-8.58713
直	-8.58809
遊	-8.58811
爾	-8.58982
尊者舍梨子	-8.59239
黑	-8.59439
出家學道	-8.59576
疾	-8.59633
慢	-8.59658
散	-8.59955
終不	-8.6006
別	-8.60672
貪欲	-8.60869
此法	-8.61256
不也	-8.61667
歡喜隨喜	-8.61786
破	-8.61901
臥	-8.62199
摩納	-8.62273
便作是念	-8.62456
攝	-8.62467
歸	-8.62676
在一面坐	-8.62976
善逝	-8.62987
無欲	-8.63161
非法	-8.63291
居	-8.63343
唯然	-8.63354
真	-8.63389
後世	-8.64035
如法	-8.64412
普	-8.64616
尊者舍利弗	-8.65031
何以故	-8.65523
各各	-8.65536
諦聽	-8.66012
乞食	-8.66246
我所	-8.66279
輩	-8.66794
賢聖	-8.66979
我亦	-8.67066
自知	-8.67893
視	-8.68204
云何為	-8.68327
放逸	-8.68478
之中	-8.68623
釋	-8.69029
煩惱	-8.69135
往詣佛所	-8.69288
波	-8.69435
復作是念	-8.69981
厭	-8.70033
是我	-8.70159
默然	-8.70431
若有比丘	-8.70615
然後	-8.70662
不著	-8.70883
銀	-8.70984
座	-8.71058
受持	-8.71201
瞋	-8.7147
今當	-8.71554
亦如是	-8.71691
波斯匿王	-8.71819
。』」「	-8.72321
畜生	-8.72338
苾芻	-8.72375
提	-8.7268
之人	-8.7296
神足	-8.73136
阿羅漢	-8.73242
我於	-8.73433
禮	-8.73702
剎利	-8.7398
海	-8.74067
No	-8.74077
佛說如是	-8.74166
池	-8.74259
中有	-8.74378
遠	-8.74471
床	-8.7483
目連	-8.75047
天下	-8.75228
親近	-8.7523
開	-8.75276
無上	-8.75605
却坐一面	-8.75899
藏	-8.76114
而去	-8.76176
大臣	-8.76205
往至	-8.76305
恐怖	-8.76526
《	-8.76647
)。	-8.76788
七寶	-8.76881
其心	-8.77035
面	-8.77065
尼	-8.77113
近	-8.7721
釋提桓因	-8.77226
進	-8.77464
財物	-8.77815
未來	-8.77859
如是說	-8.77897
長夜	-8.77954
兩	-8.77995
童子	-8.78258
諍	-8.78278
脫	-8.78682
執	-8.78811
器	-8.78889
賢	-8.78962
被	-8.79183
村	-8.79192
興	-8.79301
身體	-8.79384
不如	-8.79426
眷屬	-8.79706
不為	-8.79753
捨離	-8.80568
犯	-8.80606
尋	-8.808
現在	-8.81211
喻	-8.81216
不起	-8.81226
類	-8.81251
順	-8.81333
壽命	-8.8203
出要	-8.82102
說偈言	-8.82337
何謂	-8.82375
最上	-8.8239
北	-8.82581
滅盡	-8.82921
土	-8.83127
刺	-8.83179
師子	-8.8332
記	-8.83326
剃除鬚髮	-8.83734
鉢	-8.84105
莊嚴	-8.84167
有漏	-8.84265
亦當	-8.84311
偈	-8.84332
遙見	-8.84335
雜	-8.84466
即從坐起	-8.84625
云	-8.84633
欲得	-8.84768
最	-8.848
奉事	-8.84972
究竟	-8.85126
熟	-8.85395
和	-8.85397
懷	-8.85535
天帝釋	-8.86223
葉	-8.86454
及諸	-8.86935
河	-8.86992
柔軟	-8.87141
聖弟子	-8.87178
佛告諸比丘	-8.87183
雲	-8.87259
通	-8.87511
何故	-8.87727
施設	-8.87764
姓	-8.87852
調	-8.87873
宿	-8.87896
加	-8.87899
比	-8.88155
是名為	-8.88319
動	-8.88336
汝當	-8.88388
到已	-8.88392
有大	-8.88529
覺知	-8.88661
於我	-8.88721
更樂	-8.88739
置	-8.88789
夫人	-8.88823
兒	-8.88913
快樂	-8.88962
白世尊	-8.89004
天上	-8.89066
睡眠	-8.89122
變	-8.89309
肉	-8.89426
勅	-8.89428
拔	-8.89447
我說	-8.89487
水精	-8.8975
盛	-8.89776
遍	-8.89955
可得	-8.901
菩薩	-8.90276
難陀	-8.9032
染	-8.90404
多聞	-8.90468
轉輪王	-8.90731
陰	-8.90791
調伏	-8.90817
不放逸	-8.9084
衣被	-8.90855
不受	-8.909
拘	-8.91057
境界	-8.91101
一人	-8.91101
人間	-8.9126
虛妄	-8.91415
無恚	-8.91496
漏	-8.9153
聚落	-8.91571
增長	-8.91593
堅固	-8.918
作是說	-8.91853
字	-8.91944
并	-8.92125
極為	-8.92152
不離	-8.9227
性	-8.92313
畏	-8.92417
阿修羅	-8.92428
之處	-8.92486
𧗪	-8.92486
寧	-8.92494
其中	-8.92803
悉皆	-8.92854
神通	-8.92936
却	-8.93151
彼時	-8.93205
端正	-8.93214
誦	-8.93348
有此	-8.93707
齋	-8.93962
五者	-8.93979
志	-8.9398
盜	-8.94393
殺生	-8.94434
鐵	-8.9446
隨時	-8.94606
天人	-8.94685
諸根	-8.94775
走	-8.94933
其身	-8.95092
伽	-8.95093
士	-8.95267
反	-8.95417
著衣持鉢	-8.95452
從是	-8.9548
所作已辦	-8.95614
惡不善法	-8.95647
他人	-8.95723
訖	-8.95931
石	-8.95937
于	-8.95959
慈	-8.96267
沙	-8.96346
二十	-8.96575
樓	-8.96607
憶	-8.96687
樹下	-8.967
一心	-8.96731
如真	-8.97017
心不	-8.97034
示	-8.97121
諸法	-8.9726
安樂	-8.97265
多聞聖弟子	-8.97268
無為	-8.9743
蓋	-8.97551
滿足	-8.97551
八萬四千	-8.97559
即說偈言	-8.97616
有人	-8.9764
次第	-8.97718
教授	-8.97828
了	-8.97991
其人	-8.97998
服	-8.98096
漸	-8.98153
彼天子	-8.98205
作是言	-8.98405
苦行	-8.98408
白世尊言	-8.98477
正智	-8.98552
心解脫	-8.98577
正受	-8.98735
永	-8.98917
於色	-8.98946
世尊告	-8.99002
不信	-8.99339
所行	-8.99422
繫	-8.99515
節	-8.99575
最勝	-8.99606
罪人	-8.99607
退	-8.99657
名色	-8.99768
穢	-8.99792
唯願世尊	-8.99948
老死	-9.00062
苦痛	-9.00064
遊行	-9.00114
十二	-9.00181
放	-9.00201
骨	-9.0022
令我	-9.00624
堂	-9.00957
無餘	-9.01012
伏	-9.01026
世界	-9.01064
大師	-9.01084
鳥	-9.01999
毒	-9.02008
今此	-9.02227
吹	-9.02272
我不	-9.02559
惠施	-9.02578
若干	-9.02632
皮	-9.02667
眾中	-9.02909
稅	-9.02956
國王	-9.03469
思想	-9.03559
守護	-9.03613
體	-9.03659
捨家	-9.03709
如是見	-9.03792
我聞如是	-9.03821
飯	-9.04031
一切眾生	-9.04091
於法	-9.04218
亦非	-9.04368
達	-9.04488
慳	-9.04679
七重	-9.04782
何所	-9.0498
半	-9.05053
輪	-9.05124
間	-9.05147
學道	-9.05383
毘	-9.05539
四大	-9.05673
以為	-9.05863
妄言	-9.05997
林中	-9.0621
嚴	-9.06281
怨	-9.06322
隨意	-9.06415
得解脫	-9.06687
大眾	-9.0673
有所	-9.07043
告曰	-9.07045
聚落主	-9.07203
精勤	-9.07235
髮	-9.07357
愚	-9.07406
適	-9.07467
為是	-9.07499
木	-9.0767
制	-9.07815
減	-9.07842
一向	-9.07989
四方	-9.08077
果報	-9.08397
智者	-9.08737
白言	-9.08792
不住	-9.08915
渴	-9.08975
寂滅	-9.09169
聞法	-9.09335
御	-9.09472
縱廣	-9.09479
微妙	-9.09582
恐	-9.09648
乳	-9.09677
「	-9.0973
平等	-9.09755
損	-9.09833
五欲	-9.09853
而得	-9.0989
唯願	-9.10426
若復	-9.1085
修妬路	-9.11032
作如是	-9.11213
妄語	-9.11224
鬼	-9.11335
梨	-9.11375
新	-9.11423
大海	-9.11708
阿那律陀	-9.11753
畢	-9.11776
首	-9.11821
遇	-9.11962
里	-9.11992
捉	-9.12205
便有	-9.12304
養	-9.12328
讚歎	-9.12389
路	-9.12518
昔	-9.12528
四天王	-9.1281
毀	-9.12856
青	-9.13308
諸有	-9.13362
住處	-9.13374
饒益	-9.13412
阿須倫	-9.13577
告諸比丘	-9.13599
二人	-9.13604
便得	-9.13894
佛告阿難	-9.14167
懈怠	-9.1437
善知識	-9.14389
量	-9.14432
第四	-9.14486
經行	-9.14517
若彼	-9.14555
南	-9.14618
勤	-9.14693
刀	-9.14745
東	-9.14855
隨順	-9.1491
打	-9.14945
染著	-9.15044
所見	-9.15177
苦惱	-9.15336
理	-9.15672
彼等	-9.15783
在家	-9.16053
遂	-9.16118
有四	-9.16216
目	-9.16226
無復	-9.16244
不解	-9.16406
愛樂	-9.16532
諸佛	-9.16678
際	-9.16907
憍慢	-9.17046
四種	-9.17389
西	-9.17501
復以	-9.17723
一處	-9.17833
而生	-9.17844
無想	-9.17894
諸弟子	-9.18156
其義	-9.18181
能令	-9.18198
珍寶	-9.1831
纏	-9.18326
無畏	-9.18333
而行	-9.18486
亂	-9.18537
族	-9.1857
毛	-9.18571
眾人	-9.18895
呼	-9.18968
悔	-9.19133
王言	-9.19196
舍梨子	-9.19208
舍利	-9.19523
虛空	-9.19633
說此偈已	-9.19773
不苦不樂	-9.1995
積	-9.20162
輕	-9.20557
無數	-9.20563
止息	-9.20563
鬼神	-9.20689
我是	-9.20887
不善法	-9.21017
即是	-9.21098
聖眾	-9.21194
臣	-9.21294
應當	-9.21517
趣向	-9.21552
愛欲	-9.21599
無家	-9.21625
亦爾	-9.21656
日月	-9.21756
或復	-9.21803
強	-9.21843
眾多	-9.2189
疑惑	-9.22149
至信	-9.22321
微	-9.22349
!』	-9.22401
棄捨	-9.22541
得道	-9.22578
若人	-9.22625
至真	-9.22692
至世尊所	-9.22767
......」	-9.2299
矣	-9.23096
支	-9.23106
萬	-9.23162
訶	-9.23197
眠	-9.23315
決定	-9.23549
為我	-9.23661
法者	-9.23856
摩訶男	-9.23931
或以	-9.24064
今者	-9.24073
頌	-9.24204
我已	-9.24224
殿	-9.2429
布	-9.24315
恩	-9.24347
因此	-9.24449
世人	-9.24451
句	-9.24509
外道	-9.24535
短	-9.24538
垢	-9.2466
一一	-9.24691
億	-9.24807
無我	-9.24851
似	-9.25071
遮	-9.2508
妻	-9.25089
違	-9.25365
譬	-9.25506
聲聞	-9.25595
戲	-9.25666
輸汝	-9.25682
佛住王舍城迦蘭陀竹園	-9.25749
收	-9.26018
怒	-9.26077
比丘當知	-9.261
生天	-9.26395
尊者阿那律陀	-9.26406
麤	-9.26408
卿	-9.26754
之時	-9.26821
稽首禮足	-9.26854
望	-9.2724
人中	-9.27444
消	-9.27495
慧解脫	-9.27504
心穢	-9.27512
瘡	-9.27524
彼天	-9.27603
若無	-9.27635
始	-9.27762
有三	-9.27779
飯食	-9.27917
如是比丘	-9.27925
我為	-9.27976
提婆達兜	-9.2803
尊重	-9.28192
教誡	-9.28239
餓鬼	-9.28439
講堂	-9.28586
易	-9.28614
邪婬	-9.28682
報言	-9.28812
真諦	-9.29
昇	-9.29027
賊	-9.29102
男	-9.29175
留	-9.29184
慈心	-9.2931
寂靜	-9.29341
唯有	-9.29397
況復	-9.29478
熾然	-9.29501
赤	-9.29512
問訊	-9.29696
憂慼	-9.29768
中間	-9.29864
!」「	-9.29967
此事	-9.30218
說偈	-9.30256
晝夜	-9.3038
氣	-9.30415
兩舌	-9.30428
男女	-9.30704
清	-9.30871
著袈裟衣	-9.30901
白佛	-9.31037
修梵行	-9.31367
洗	-9.31516
十六	-9.31649
魔波旬	-9.31729
我見	-9.31904
正定	-9.31989
是則	-9.32012
降	-9.32013
阿那律	-9.32039
即沒不現	-9.32149
尚	-9.32515
鬪諍	-9.32599
所問	-9.32603
生地獄中	-9.32612
羅云	-9.32699
辟支佛	-9.32837
田	-9.32912
心意	-9.32921
作禮而去	-9.32928
多有	-9.33017
堅	-9.33065
當為	-9.3313
如上說	-9.33176
滅度	-9.33177
見佛	-9.33251
甚深	-9.33356
犯戒	-9.33386
敷	-9.3339
衣服	-9.33415
眾多比丘	-9.335
曾	-9.33548
一法	-9.33617
如彼	-9.33651
知法	-9.33737
避	-9.3399
就	-9.34144
倒	-9.34153
東方	-9.34161
鬪	-9.34205
欲求	-9.34223
像	-9.34284
是等正覺	-9.34313
婆羅	-9.34329
善男子	-9.34545
仰	-9.34598
語言	-9.34715
行者	-9.34935
文	-9.35026
且	-9.35095
存	-9.35129
活	-9.35161
嫉妬	-9.35192
若見	-9.35374
塵	-9.35391
授	-9.35463
何等為四	-9.35584
天女	-9.35593
有何	-9.3576
金銀	-9.35823
覩	-9.35857
此處	-9.35953
已生	-9.35969
甚奇	-9.36127
降伏	-9.36194
波旬	-9.36245
忉利天	-9.36298
受教	-9.36476
之心	-9.36617
離諸	-9.36931
不念	-9.36948
逆	-9.37017
平	-9.37026
辯	-9.37055
美	-9.37067
又問	-9.37086
瓔珞	-9.37087
善思念之	-9.37092
熾盛	-9.37102
當為汝說	-9.37192
施與	-9.37325
益	-9.37344
民	-9.37401
三種	-9.37436
羅漢	-9.37484
辦	-9.37523
云何為四	-9.37558
未得	-9.37628
於佛	-9.37628
此比丘	-9.37698
財寶	-9.37725
所作已作	-9.37782
為人	-9.37818
虛	-9.38065
跡	-9.38086
絕	-9.38177
有二	-9.38226
豈	-9.38245
在前	-9.38326
稱譽	-9.38389
而住	-9.3841
是苦	-9.38493
作是	-9.38501
端	-9.386
富	-9.38643
末	-9.38644
細	-9.38725
脚	-9.38971
珠	-9.38979
歡悅	-9.39065
數數	-9.39143
即時	-9.39192
若不	-9.39368
勸	-9.39387
五陰	-9.39434
舍利弗言	-9.39441
不以	-9.39584
顏色	-9.39685
長老	-9.39695
冥	-9.39706
白衣	-9.39721
我有	-9.39857
得阿羅漢	-9.3998
士夫	-9.40205
閻浮提	-9.40356
枝	-9.40365
恩愛	-9.40386
破壞	-9.40408
七日	-9.40522
軍	-9.40564
淨戒	-9.40636
愛念	-9.40758
亦如是說	-9.40803
造作	-9.40866
優婆夷	-9.40965
當來	-9.40966
俗	-9.40997
有是	-9.41008
正思惟	-9.41437
讚	-9.41504
彌	-9.41555
稱說	-9.41601
第五	-9.41664
都	-9.4173
名字	-9.41789
如是知	-9.41986
遣	-9.42019
惡行	-9.42062
不與	-9.42087
為彼	-9.42092
生於	-9.42124
於諸	-9.42135
和合	-9.42152
愁	-9.422
地獄中	-9.42207
奴婢	-9.4222
亦如	-9.42245
飛	-9.4235
薄	-9.42359
利益	-9.4236
往來	-9.42449
室	-9.42762
何等為三	-9.4289
增上	-9.42906
所知	-9.42937
無事	-9.42938
密	-9.42965
勇猛	-9.42984
隨所	-9.43003
非常	-9.43138
貴	-9.43195
彼眾生	-9.43385
苦樂	-9.43454
當以	-9.43486
藥	-9.43632
▁[	-9.43721
眾僧	-9.43805
非我	-9.4388
步	-9.439
百千	-9.43918
作是念已	-9.44072
伺	-9.44207
不喜	-9.44258
七重欄楯	-9.44278
迴	-9.44297
幢	-9.44317
不可稱計	-9.44328
侵	-9.44336
天人師	-9.44369
內外	-9.44372
仙人	-9.44373
欲令	-9.44436
須彌山	-9.44542
歲	-9.44705
以其	-9.44766
比丘僧	-9.44776
品	-9.44847
無上士	-9.44966
優	-9.44992
呵	-9.45028
泥	-9.45043
威儀	-9.4509
世尊說偈答	-9.45163
未曾	-9.45192
佛在	-9.45222
身心	-9.45244
皆是	-9.45298
增益	-9.45313
化作	-9.45434
若有人	-9.45529
帝	-9.45715
廣說	-9.45746
稽首	-9.4577
福德	-9.45853
三十	-9.45874
彼一切	-9.45997
善惡	-9.46097
侍	-9.46112
世尊即說偈言	-9.46243
情	-9.46317
截	-9.46342
周那	-9.46354
羊	-9.46363
其有	-9.46473
所以	-9.46584
為第一	-9.46672
憶念	-9.46692
四諦	-9.46713
周匝	-9.46984
無食	-9.4705
罵	-9.47079
之道	-9.47183
血	-9.47202
妻子	-9.47208
獄卒	-9.47275
雜色	-9.47305
精舍	-9.47369
阿難言	-9.47419
正覺	-9.4742
知見	-9.47437
若我	-9.47552
黃	-9.47578
多人	-9.47718
越	-9.47722
侍者	-9.47726
音	-9.47779
君	-9.4784
牟尼	-9.47846
有餘	-9.479
亦然	-9.47904
身行	-9.47992
辭	-9.4809
城中	-9.48196
側	-9.48266
為首	-9.48299
已知	-9.48299
大仙人	-9.48704
不久	-9.48759
磨	-9.48768
何者	-9.48814
能得	-9.48827
我欲	-9.48835
幾	-9.48937
禁戒	-9.49085
坐禪	-9.49122
底	-9.49211
知足	-9.49229
云何知	-9.49279
正命	-9.49411
怖	-9.49437
泥犁中	-9.49471
作如是言	-9.49657
作如是說	-9.4973
若能	-9.49843
憂苦	-9.49893
濟	-9.49989
哀	-9.50021
無漏	-9.50045
云何比丘	-9.50206
手足	-9.50306
十一	-9.50319
我生已盡	-9.50325
屬	-9.50347
世間解	-9.50355
手執	-9.50408
六者	-9.5053
凡	-9.50552
嫉	-9.50605
勸發渴仰	-9.50629
蛇	-9.50664
漸漸	-9.50668
北方	-9.50828
所為	-9.50828
佛世尊	-9.50972
不如實知	-9.51104
闍	-9.51394
飢	-9.51405
蟲	-9.51418
承事	-9.51443
苦滅	-9.51492
無間等	-9.51583
調御	-9.516
共相	-9.51602
何法	-9.51684
龍王	-9.5193
故曰	-9.5194
傷	-9.5196
必得	-9.52038
利養	-9.52106
王舍城	-9.52113
快	-9.52118
餘如上說	-9.52123
惡業	-9.52149
上下	-9.52167
意行	-9.52329
極大	-9.52375
如前	-9.52581
非為	-9.52596
出生	-9.52618
焰	-9.52707
惡法	-9.52829
供	-9.53184
顛倒	-9.53332
五蓋	-9.53363
祇樹給孤獨園	-9.53589
瓶	-9.53603
四十	-9.53701
了知	-9.53772
入於	-9.53881
不失	-9.54099
岸	-9.54147
非是	-9.54148
以手	-9.54181
晝	-9.54296
諸眾生	-9.543
。《	-9.54336
西方	-9.54458
何因	-9.54462
云何為五	-9.54609
左右	-9.54652
善說	-9.5471
承	-9.54863
三界	-9.55018
可愛	-9.55088
笑	-9.55122
垂	-9.55141
呪	-9.55141
心生	-9.5519
猗	-9.55232
洲	-9.55408
咸	-9.55411
塔	-9.55416
不行	-9.55482
負	-9.55808
幻	-9.5586
不用	-9.55883
......	-9.55953
未曾有法	-9.56144
而作是念	-9.56192
上座	-9.56201
慚愧	-9.56419
默	-9.56471
心念	-9.56485
拘薩羅王波斯匿	-9.56545
此三	-9.56617
愁憂	-9.56631
鹿	-9.56653
所言	-9.56671
頂禮佛足	-9.56682
即從座起	-9.56889
善來	-9.56922
在此	-9.56962
群	-9.56992
備	-9.57168
悅	-9.57176
即以	-9.5733
最後	-9.57362
▁「	-9.5741
闇	-9.57421
差	-9.57443
馬瑙	-9.57446
歡喜踊躍	-9.57489
央掘魔	-9.57492
獄	-9.57659
齊	-9.57777
有信	-9.5783
魔王	-9.5788
不與取	-9.58002
園中	-9.58133
當有	-9.58148
見之	-9.58162
王所	-9.58181
彌勒	-9.5828
正使	-9.58414
欲使	-9.58498
許	-9.58522
兵	-9.58563
知識	-9.58603
貧窮	-9.58634
善行	-9.5875
曉	-9.58764
漏盡	-9.58817
諸人	-9.58852
作沙門	-9.58889
急	-9.58979
啼哭	-9.59019
食已	-9.59054
若有沙門	-9.59058
慧者	-9.59172
無色	-9.59347
是也	-9.5948
或有一人	-9.59609
導	-9.59614
除去	-9.59633
自念	-9.59654
以是因緣	-9.59704
不自	-9.59709
住住	-9.59775
餘人	-9.59817
吐	-9.59856
倍	-9.59926
所生	-9.59943
是以	-9.60217
當念	-9.60233
彼諸	-9.60251
惟	-9.60279
諸沙門	-9.60392
不作	-9.60411
三法	-9.60439
王子	-9.60452
惡趣	-9.60478
弊	-9.60494
問言	-9.60499
作證	-9.60549
共相問訊	-9.60731
正語	-9.60756
根本	-9.60769
更有	-9.60833
入處	-9.61269
濁	-9.61291
央掘魔羅	-9.61291
渡	-9.61353
則不	-9.61374
教化	-9.61387
佛遊舍衛國	-9.61414
中阿含經	-9.61419
寒	-9.61444
專	-9.61446
不愛	-9.61665
波羅	-9.61672
如實	-9.61681
還歸	-9.61791
給	-9.61807
夜叉	-9.61828
綺語	-9.6184
所得	-9.62043
莫令	-9.62045
己身	-9.62054
住於	-9.62077
救	-9.62134
六入	-9.62222
腹	-9.62308
其上	-9.62355
演	-9.6242
天神	-9.62432
十五日	-9.62541
值	-9.627
人所	-9.62773
四面	-9.62935
自知不受後有	-9.62996
不能自勝	-9.63051
諸苾芻	-9.63361
佛名	-9.63402
亦知	-9.63412
夢	-9.63551
作惡	-9.63575
名稱	-9.63616
衰	-9.63725
障	-9.63842
欺誑	-9.6388
雞	-9.6393
生已盡	-9.64042
頗有	-9.6406
無不	-9.6409
杖	-9.64121
必當	-9.64324
種子	-9.6434
烟	-9.64473
錢財	-9.64576
蜜	-9.64689
冷	-9.64692
今正是時	-9.64695
有愛	-9.64698
舍衛國	-9.64768
四禪	-9.64773
無學	-9.64839
不動	-9.64885
空中	-9.64985
當學	-9.64993
若欲	-9.65142
無所有	-9.65142
不捨	-9.65286
正業	-9.65286
便生	-9.65299
然彼	-9.65306
奉行	-9.65313
此義	-9.65362
所欲	-9.65384
索	-9.65457
湯藥	-9.65507
此身	-9.65543
從彼	-9.65549
苦滅聖諦	-9.65551
投	-9.65565
今我	-9.65595
為食	-9.65619
異我	-9.65666
是佛所說	-9.65757
右	-9.65776
乞	-9.65946
六入處	-9.65965
有五	-9.66027
壁	-9.66062
彼岸	-9.66095
念言	-9.66105
云何名為	-9.66142
箭	-9.66254
所應	-9.66303
沸	-9.66322
眼識	-9.66348
油	-9.66353
共論	-9.66353
安隱快樂	-9.66379
信心	-9.66384
指	-9.66407
細滑	-9.66421
惡知識	-9.66438
所造	-9.6644
明日	-9.66584
房	-9.66687
而有	-9.66721
稱歎	-9.66758
諸惡	-9.66963
意識	-9.67047
麁	-9.67154
未生	-9.67169
沐浴	-9.67228
何處	-9.67334
明行成	-9.67559
喜樂	-9.67566
此名	-9.67689
因緣故	-9.67856
位	-9.67933
七寶所成	-9.67997
筋	-9.68012
奪	-9.68076
部	-9.68148
得度	-9.68168
不更受	-9.68189
容色	-9.68211
如是如是	-9.68353
其所	-9.6841
斷除	-9.68423
離於	-9.68442
暫	-9.68534
純	-9.68675
悔過	-9.68727
不能得	-9.68821
軟	-9.6897
供給	-9.68971
?』」	-9.69047
猶如有人	-9.6906
閉	-9.6906
法中	-9.69097
於正法	-9.69174
須彌山王	-9.69277
當復	-9.69293
力士	-9.69345
貪著	-9.69362
常當	-9.6938
大人	-9.69403
生天上	-9.69436
見此	-9.69456
聞佛	-9.69566
彼亦	-9.69722
善思	-9.69725
星	-9.69779
助	-9.69818
十八	-9.69858
安住	-9.7
甚難	-9.70041
能知	-9.70134
況	-9.70179
彼諸比丘	-9.70206
此諸	-9.70282
穀	-9.70713
得法眼淨	-9.7072
由旬	-9.70731
遊戲	-9.70739
敗壞	-9.70777
異學	-9.70803
六十	-9.70828
不遠	-9.70863
休息	-9.70875
是事	-9.70907
比丘白佛	-9.70959
無邊	-9.71118
比丘是	-9.71195
已盡	-9.71359
莖	-9.71504
狗	-9.71527
眾祐	-9.7159
割	-9.71599
尊者大目揵連	-9.71616
礙	-9.71618
比丘者	-9.71642
在勝林給孤獨園	-9.71651
種姓	-9.71711
廣大	-9.71734
說言	-9.71776
佛語	-9.71791
復言	-9.71792
而自	-9.71804
不殺	-9.71992
寂	-9.72031
見法	-9.7204
忽	-9.72099
記說	-9.72268
各自	-9.72299
二為	-9.723
?」「	-9.72316
法御	-9.72334
浮	-9.72338
空處	-9.7235
已斷	-9.72363
工師	-9.72373
靜	-9.72412
心得解脫	-9.72415
舊	-9.72452
淨除其心	-9.72482
斫	-9.72534
抱	-9.72555
與我	-9.72565
卑	-9.72586
威德	-9.72659
得須陀洹	-9.72679
及以	-9.72682
七者	-9.72815
而來	-9.72816
善根	-9.72827
並	-9.7288
已說	-9.73045
不聞	-9.73158
變易	-9.73169
號	-9.73353
鞞	-9.73406
玉女	-9.73427
甚特	-9.73433
却住一面	-9.7344
以是	-9.73454
南方	-9.73456
苦集聖諦	-9.73458
城郭	-9.73484
在於	-9.73606
不食	-9.73657
三事	-9.73685
佛說是	-9.73695
甘露	-9.73701
愛敬	-9.73703
行道	-9.73723
污	-9.73826
見我	-9.73888
使人	-9.73913
水中	-9.73965
刀杖	-9.74006
風吹	-9.74066
為身	-9.7407
自覺	-9.74215
自歸	-9.74249
戰	-9.74255
賢者阿難	-9.74317
天宮	-9.7432
朝	-9.74369
東晉罽賓三藏瞿曇僧伽提婆譯	-9.74371
道人	-9.74446
比丘眾	-9.74466
世尊以偈答	-9.74519
長壽	-9.74719
則無	-9.74789
何為	-9.74806
而作是說	-9.74832
▁No	-9.74868
非人	-9.74915
律中	-9.7492
繫著	-9.74938
某	-9.74989
第七	-9.75021
諛諂	-9.75237
當知是	-9.75259
第六	-9.75265
遺	-9.75305
屈	-9.75329
受生	-9.75361
出現於世	-9.75445
頗	-9.75539
是法	-9.75641
往昔	-9.75655
與汝	-9.75732
皆有	-9.75761
再三	-9.75816
乏	-9.75914
精	-9.75979
彼便	-9.76134
網	-9.76157
魚	-9.7627
之事	-9.76304
我今欲	-9.76346
何以	-9.76382
福田	-9.76406
現法	-9.76447
此天	-9.76455
作如是念	-9.76492
正方便	-9.76604
若於	-9.76703
尸	-9.76784
善處	-9.76803
優陀夷	-9.76979
欄楯	-9.77014
欲界	-9.77081
不欲	-9.77096
作是語	-9.7711
曲	-9.77142
暴	-9.77158
曠野	-9.77163
背	-9.77167
草木	-9.77183
宿命	-9.77196
轉增	-9.772
號佛	-9.77232
善見	-9.77362
思念	-9.77391
浴池	-9.77395
御者	-9.774
貧	-9.77565
生彼	-9.77685
光色	-9.77717
意惡行	-9.77757
有如是	-9.77788
是故名為	-9.77812
汝可	-9.77817
取滅度	-9.77847
釋種	-9.77944
決	-9.77981
丈夫	-9.77989
暮	-9.78087
馳走	-9.78088
修習多修習	-9.78124
絕妙	-9.7816
沙彌	-9.78163
潤	-9.78174
今世	-9.78178
及餘	-9.78265
展轉	-9.78344
仁	-9.7836
云何名	-9.78438
」	-9.785
樂受	-9.78522
受法	-9.78539
銅	-9.78656
云何為三	-9.78661
來至	-9.78669
復更	-9.78673
難得	-9.78675
歸依	-9.78706
差別	-9.78754
摩訶	-9.78768
議	-9.78837
如我	-9.7885
無異	-9.78887
粳米	-9.78911
野	-9.78918
頂	-9.78935
以此因緣	-9.78965
大地	-9.79034
博聞	-9.79058
眾苦	-9.79058
圍遶	-9.79065
四念處	-9.79067
於世間	-9.79086
多所饒益	-9.79146
流布	-9.79186
乾	-9.79187
與彼	-9.79222
合會	-9.79276
神力	-9.79696
有國名	-9.79908
知之	-9.79981
烏	-9.79999
於後夜時	-9.80007
一為	-9.80028
泉	-9.80032
須臾	-9.80069
雜阿含經	-9.8008
怨家	-9.80136
五欲功德	-9.8015
如人	-9.80221
此世	-9.80311
忘	-9.80331
沙門婆羅門	-9.80339
言語	-9.80534
知已	-9.80622
一日	-9.80784
八十	-9.80818
人身	-9.80865
恒河沙剎	-9.80889
書	-9.80928
落	-9.80941
悟	-9.80948
阿羅訶	-9.81014
禪定	-9.81031
增壹阿含經	-9.81043
酒	-9.81072
世尊為	-9.81092
)《	-9.81118
正志	-9.81177
車𤦲	-9.81187
世尊便說此偈	-9.81285
凡夫	-9.8133
馬寶	-9.81405
已得	-9.81511
或時	-9.81542
酥	-9.81592
謂之	-9.81612
光音天	-9.81827
甘	-9.81894
年少	-9.82067
禪思	-9.82077
尊者阿那律	-9.82105
族姓子	-9.82181
周	-9.82194
是人	-9.82259
意念	-9.82267
園林	-9.82288
逼	-9.82312
不知如真	-9.82333
我聞	-9.8234
不斷	-9.82357
阿那含	-9.82401
設有	-9.82409
皆由	-9.82523
彼於	-9.8255
何緣	-9.8255
此間	-9.82574
食之	-9.82615
燈	-9.82754
諸行	-9.82754
隨其	-9.82775
教人	-9.82782
長者子	-9.82816
無病	-9.82899
逐	-9.82946
羅睺羅	-9.82986
我今寧可	-9.83019
虫	-9.83073
有七	-9.8311
相見	-9.8313
須陀洹	-9.83147
小兒	-9.8324
則為	-9.83308
邊際	-9.83311
諍訟	-9.83353
何者為	-9.83494
大海水	-9.83685
獸	-9.83768
亦復不	-9.83818
或有人	-9.83845
災患	-9.83852
百歲	-9.8392
罰	-9.83931
惡不善之法	-9.83932
領	-9.84003
船	-9.84003
厚	-9.84005
碎	-9.84006
瞿	-9.84021
揵	-9.84035
入城乞食	-9.84044
究竟苦邊	-9.84044
晨朝著衣持鉢	-9.84049
得涅槃	-9.84089
金剛	-9.84107
受苦	-9.84147
一切世間	-9.8423
瞻	-9.84315
略說	-9.84487
典	-9.84564
不敢	-9.84587
演說	-9.8484
不貪	-9.84948
清涼	-9.85017
此實餘虛	-9.85041
我知	-9.85106
辯才	-9.85131
不忘	-9.85151
十四	-9.85332
滅法	-9.85422
詣佛所	-9.85528
隨喜	-9.85556
彼為	-9.85605
尊者大目犍連	-9.85668
徹	-9.85727
愧	-9.85742
而為	-9.85747
惡口	-9.8586
出世	-9.85872
熱惱	-9.85902
著衣	-9.85908
若干種	-9.8593
薪	-9.8607
屋	-9.8607
】	-9.86072
諸方	-9.86077
待	-9.86094
送	-9.86094
白王言	-9.86146
兄弟	-9.86165
『	-9.86274
疾病	-9.86361
此二	-9.86366
彼因	-9.86545
所須	-9.86591
形體	-9.86629
他化自在天	-9.86678
彼不	-9.86693
正念正智	-9.86741
塗	-9.86749
為有	-9.86801
群臣	-9.86942
彼若	-9.86955
若有眾生	-9.86968
至誠	-9.86987
善知	-9.86994
死者	-9.87016
見者	-9.87024
盲	-9.87076
煮	-9.87092
1	-9.87134
七法	-9.87163
已過	-9.87251
不同	-9.87287
鬘	-9.87331
當得	-9.8739
聖王	-9.87399
殺害	-9.87413
至彼	-9.87425
則有	-9.87436
千由旬	-9.87454
無厭足	-9.87474
當求方便	-9.87519
有諸	-9.87744
有一人	-9.87852
卷第十	-9.87968
實爾	-9.88
鼓	-9.88087
糞	-9.88102
不盜	-9.88139
慚	-9.88151
遭	-9.88185
引	-9.88205
猪	-9.88205
象寶	-9.88207
傳	-9.88208
驢	-9.88267
宣說	-9.88335
在彼	-9.88477
蜱肆	-9.88624
無所有處	-9.88648
禮事	-9.88651
連	-9.89019
答我	-9.89065
合掌	-9.89085
自稱	-9.89173
令得	-9.89195
生時	-9.89224
逮	-9.89237
永除	-9.89274
是三	-9.89521
知時	-9.89595
邑	-9.89644
無智	-9.89653
於如來	-9.89686
信根	-9.89739
此中	-9.89775
二名	-9.89889
大德	-9.89993
妙法	-9.90114
目乾連	-9.90234
柱	-9.90257
術	-9.90261
嚴駕	-9.90266
歌舞	-9.9028
無量善修	-9.90313
勞	-9.90336
喚	-9.90361
麻	-9.90368
a	-9.90389
最妙	-9.90389
父王	-9.90405
奇	-9.90437
佛法	-9.90483
顧	-9.90589
有異比丘	-9.90633
生滅	-9.90664
至於	-9.90694
我今當	-9.90695
園觀	-9.90695
依無欲	-9.90735
慳貪	-9.90756
不忍	-9.90811
影	-9.90912
男子	-9.90931
困	-9.90942
聞之	-9.9097
餘者	-9.90986
哀愍	-9.91014
三為	-9.91021
便為	-9.91082
有四種	-9.91132
宣	-9.91187
豐	-9.91253
作如是見	-9.91265
婢	-9.91301
而告之	-9.91342
鳴	-9.91378
寤	-9.91419
懺悔	-9.91434
建立	-9.91464
牀	-9.91472
汝央掘魔羅	-9.91529
為佛	-9.91648
天使	-9.9181
為習	-9.91878
若汝	-9.91989
商人	-9.92027
若好	-9.92094
在中	-9.92223
生者	-9.92228
露	-9.92257
國界	-9.92367
博	-9.92378
尼拘陀	-9.92409
澤	-9.92412
炎	-9.92455
羅網	-9.92457
十種	-9.92479
驚	-9.92491
未久	-9.92524
極妙	-9.92543
親族	-9.92552
而坐	-9.92774
有一比丘	-9.92778
不說	-9.92859
曾見	-9.92881
當自	-9.92897
汝當住	-9.92905
而無	-9.92917
此非	-9.92956
猶若	-9.93096
輕慢	-9.93153
作禮	-9.93207
迎	-9.93229
如意足	-9.93259
獵師	-9.93301
塵垢	-9.9337
海水	-9.93413
能自	-9.93423
戰鬪	-9.93486
汝今當速	-9.93508
臭	-9.93509
四聖諦	-9.93516
無惡	-9.93518
慧劍	-9.93552
呵責	-9.93568
知彼	-9.9358
而汝不	-9.93585
無結無怨	-9.93603
都無	-9.93612
欲貪	-9.93624
修行精勤	-9.93627
為說	-9.93694
而言	-9.93719
出離	-9.93728
律儀	-9.93772
我自	-9.93871
生此	-9.93908
無穢	-9.93916
惡見	-9.93993
責	-9.94028
實有	-9.9406
無知	-9.94086
身惡行	-9.94245
彼云何名為	-9.94253
長養	-9.94322
受樂	-9.94348
不犯	-9.94357
識處	-9.94373
貢高	-9.9446
隱	-9.94509
窮	-9.94512
我身	-9.94543
復生	-9.94551
亡	-9.94686
結跏趺坐	-9.94687
嚴飾	-9.94699
無上善法	-9.9472
臨	-9.94731
無恚無諍	-9.94741
交	-9.94756
擔	-9.94758
欺	-9.94775
常行	-9.94808
態	-9.94827
何因緣	-9.9496
當觀	-9.94995
祀	-9.95169
真正	-9.95193
身見	-9.95236
有為	-9.9546
容	-9.95526
四法	-9.95527
處處	-9.95573
而起	-9.95635
說之	-9.95694
樂於	-9.95712
佛為	-9.95718
往至世尊所	-9.95746
欝單曰	-9.95746
從坐起	-9.95754
識住	-9.95768
識滅	-9.95788
夏	-9.95803
知有	-9.95818
諸臣	-9.95839
臥具	-9.95848
顯	-9.95862
迷	-9.95866
惡不善	-9.95886
歌	-9.95897
齒	-9.95901
舉衣鉢	-9.95904
拘絺羅	-9.95904
有大威德	-9.95998
忍辱	-9.95999
不取	-9.96002
受者	-9.96064
若醜	-9.96137
法眼	-9.96148
移	-9.96201
國土	-9.96211
行梵行	-9.96269
彼處	-9.96321
羅陀	-9.96362
不飲酒	-9.96497
浴	-9.96603
盡形壽	-9.96725
國中	-9.96808
因緣生	-9.96902
繩	-9.96915
愍	-9.96915
賴吒惒羅	-9.96952
桄	-9.96984
極廣甚大	-9.96984
淚	-9.97028
諸漏已盡	-9.97067
胎	-9.97099
故名	-9.97132
寂然	-9.97163
是謂比丘	-9.97208
得清淨	-9.97212
如實知之	-9.97216
然復	-9.97217
聖所	-9.97218
謂此	-9.97327
無有是處	-9.97342
不可得	-9.97379
亦無有	-9.97392
夢見	-9.97398
於其	-9.9743
洗足	-9.97521
而作	-9.97554
居士子	-9.97585
憎	-9.97621
此則	-9.9764
輪寶	-9.97663
意業	-9.97688
迦葉如來	-9.97788
度世	-9.97842
目揵連	-9.97898
輸	-9.98048
跋耆	-9.98124
懊惱	-9.98154
竭	-9.98154
牆	-9.98183
睡	-9.98212
日中	-9.98228
整衣服	-9.9823
闇冥	-9.98233
應供	-9.98246
塚間	-9.98261
堪任	-9.98285
由此	-9.98294
五根	-9.98311
苦滅道跡聖諦	-9.98313
非梵行	-9.98365
變化	-9.98428
何況	-9.98437
諸尊	-9.9856
一面	-9.98619
周遍	-9.98836
諸王	-9.98836
還宮	-9.98845
八者	-9.99007
此沙門	-9.99043
賢善	-9.99053
蒙	-9.99055
一比丘	-9.99057
識亦復如是	-9.99071
泥洹	-9.99249
佛住	-9.99251
王即	-9.99307
二種	-9.99333
憍	-9.99351
結加趺坐	-9.99352
食訖	-9.99361
所可	-9.99389
此亦如是	-9.99467
佛遊	-9.99482
共諍	-9.99483
聞此語已	-9.99493
持此	-9.99508
天眼	-9.99523
依於	-9.99571
天地	-9.99578
恒河沙	-9.99584
希有	-9.99602
常念	-9.99617
察	-9.99655
身口意	-9.99661
煩	-9.99695
常住	-9.99841
彼彼	-9.99934
奉持	-9.99966
如今	-9.99967
往彼	-9.99975
更不	-9.99996
飲酒	-10.0001
何等為五	-10.0007
見世尊	-10.0007
於欲	-10.0017
意不	-10.002
燃	-10.0023
至心	-10.0033
差別者	-10.0033
如是等	-10.0047
來至此	-10.0047
遍滿一切世間成就遊	-10.0051
洗浴	-10.0052
敬重	-10.0052
憎嫉	-10.0059
損減	-10.006
一切皆	-10.0062
第八	-10.0064
此等	-10.0066
阿闍世王	-10.007
或有一	-10.007
亦能	-10.007
叉手	-10.0081
故有	-10.0085
即得	-10.0087
有異	-10.0092
皆當	-10.0094
自思惟	-10.0104
緣起	-10.0106
堪能	-10.0112
行慈	-10.0112
金翅鳥	-10.0129
叉	-10.0131
二俱	-10.014
令其	-10.0153
若得	-10.0154
一名	-10.0156
求方便	-10.0162
四天下	-10.0163
亦說	-10.0165
最尊	-10.0169
犢子	-10.0169
四為	-10.017
射	-10.0171
左	-10.0174
謗	-10.0176
便退而去	-10.0177
受行	-10.018
彼沙門	-10.0187
不須	-10.0188
陀羅	-10.0196
即於	-10.0198
為何等	-10.0203
說戒	-10.0207
餘比丘	-10.0207
華鬘	-10.0216
則便	-10.0221
不隨	-10.0232
結使	-10.0234
我住	-10.0239
於一切	-10.0247
斷絕	-10.0249
當共	-10.0254
巧	-10.026
我本	-10.0262
為一	-10.0273
如是受	-10.0277
已滅	-10.0277
當作	-10.0283
烏陀夷	-10.0291
迦旃延	-10.0292
燋	-10.0292
無過	-10.0293
以法	-10.0293
彼已	-10.0295
得自在	-10.0297
產	-10.0298
囉	-10.0298
載	-10.03
其福	-10.0309
於現法中	-10.031
求索	-10.0318
威神	-10.0324
可知	-10.0327
非時	-10.0327
論議	-10.033
擲	-10.0335
意欲	-10.0337
六情	-10.0338
我以	-10.0339
來詣	-10.0361
五百人	-10.0364
則知	-10.0367
不令	-10.0373
樹木	-10.0382
或有眾生	-10.0397
大天王	-10.0397
勝妙	-10.0398
交露	-10.04
來下	-10.04
若近	-10.0405
鈴	-10.0407
延	-10.041
髓	-10.0411
不能令	-10.0415
飾	-10.0417
祠	-10.0421
心與慈俱	-10.0423
枯	-10.0423
或復有	-10.0425
四部之眾	-10.0426
心無放逸	-10.0426
吒	-10.0433
世尊說	-10.0433
婇女	-10.0435
相在	-10.0441
來者	-10.0445
穢污	-10.0449
啟	-10.0456
山中	-10.047
此說	-10.0474
無諍	-10.0483
不壞	-10.049
恣	-10.0498
說是	-10.05
試	-10.05
色相	-10.0503
限	-10.0506
心中	-10.0507
乃能	-10.0513
普照	-10.0518
厭離	-10.052
不移動	-10.0524
五法	-10.0524
以自	-10.0525
依止	-10.0531
尊者摩訶迦旃延	-10.0543
尾	-10.0544
有覺	-10.0547
蓮華	-10.0551
羅剎	-10.0552
憙	-10.0555
作是思惟	-10.0557
有時	-10.0564
攝受	-10.0565
有三種	-10.057
灰	-10.0575
妄	-10.0576
及與	-10.0583
不求	-10.0585
語彼	-10.0587
為說法	-10.0588
苦聖諦	-10.0592
亦是	-10.0603
名聞	-10.061
佛告婆羅門	-10.0611
不敬	-10.0612
若遠	-10.0619
住者	-10.0619
若當	-10.0634
各有	-10.0653
樂痛	-10.0653
未曾有	-10.0655
3	-10.0659
駕	-10.0667
盧	-10.0669
在一面立	-10.0675
入舍衛城乞食	-10.0675
障礙	-10.0676
所食	-10.0678
漬	-10.0681
地界	-10.0693
娛樂	-10.0699
當求	-10.0713
汝於	-10.0724
是謂名為	-10.073
沙門婆羅門等	-10.0733
於苦	-10.0737
說頌	-10.0741
奢	-10.0744
汝等當知	-10.0745
六處	-10.0748
為佛作禮	-10.0748
愚者	-10.0756
靜處	-10.0764
還至	-10.0766
說經	-10.0767
之所說	-10.0778
婆羅門言	-10.0779
牙	-10.0795
境	-10.0795
汁	-10.0796
端嚴	-10.08
熾燃	-10.08
覲	-10.0802
退住一面	-10.0803
妹	-10.0804
其水	-10.081
壞敗	-10.081
免	-10.081
。「『	-10.0814
牽	-10.0818
復有聲聞	-10.0838
是身	-10.0856
祇	-10.087
氣力	-10.0875
不退	-10.0875
學道者	-10.0882
為作	-10.0887
正行	-10.0889
雙	-10.0892
廣布	-10.0902
說此	-10.0904
此諸賢	-10.0909
詣世尊所	-10.0911
村邑	-10.0921
維	-10.0923
我心	-10.0926
靖	-10.0927
伽彌尼	-10.0927
善生	-10.0929
大樹	-10.0929
善趣	-10.093
誹謗	-10.093
病瘦醫藥	-10.093
酪	-10.0931
祇洹	-10.0931
飢渴	-10.0935
生死已盡	-10.0936
不妄語	-10.0938
世間有	-10.0943
卿等	-10.0944
能斷	-10.0947
當於	-10.0951
賢聖弟子	-10.0954
不息	-10.0954
如來所說	-10.0958
梵王	-10.0958
雖復	-10.0959
人皆	-10.0969
衣鉢	-10.0975
當修	-10.0979
大地獄	-10.0985
天眾	-10.0988
得見	-10.099
信樂	-10.0993
自作證成就遊	-10.0993
地味	-10.0993
觀此	-10.1015
雖有	-10.1016
愚人	-10.1018
以不	-10.1023
道跡	-10.103
有二種	-10.1041
若樂	-10.1044
狐疑	-10.1044
寺	-10.1049
五種	-10.105
口中	-10.1055
膝	-10.1056
假	-10.1057
毘沙門天王	-10.1059
狂	-10.106
不異	-10.1062
功	-10.1063
聰明	-10.1064
佉	-10.1066
度世間愛	-10.1067
婆私吒	-10.1067
遠塵離垢	-10.1068
大目揵連	-10.1068
天王釋	-10.1068
發露	-10.1073
愚癡人	-10.1076
出現世間	-10.1083
之德	-10.111
競	-10.1111
正盡苦	-10.1114
為欲	-10.1114
彼作是念	-10.1115
大迦葉	-10.1115
出現	-10.1122
受此	-10.1128
衣食	-10.1146
第十	-10.1149
便知	-10.1161
佛所	-10.1161
黠	-10.1177
惡道	-10.1177
無疑	-10.1182
永超世	-10.1192
所聞	-10.1197
檀	-10.1198
出息	-10.12
苦受	-10.1202
欲有所問	-10.1203
三明	-10.1204
剎利種	-10.1209
五十	-10.1213
下賤	-10.1219
謂三	-10.1222
禮拜	-10.1228
過去世時	-10.1231
得此	-10.1231
不害	-10.1235
無有量	-10.1237
為優婆塞	-10.1239
牢	-10.1241
口行	-10.1247
集會	-10.1249
獨一靜處	-10.126
審	-10.1267
即往	-10.1278
看	-10.1282
怖畏	-10.1282
不婬	-10.1283
醜	-10.1295
坐臥	-10.13
切	-10.1304
舍衛城	-10.1304
甚為	-10.1311
宗	-10.1315
周匝圍遶	-10.1319
便說此偈	-10.1321
在遠離獨住	-10.1327
親友	-10.1329
懸	-10.1329
前後圍遶	-10.133
所在	-10.1337
親屬	-10.1337
經歷	-10.1337
我弟子	-10.1337
充滿	-10.1339
殃	-10.1342
倍常	-10.1346
從此	-10.1349
錢	-10.1356
若內	-10.1356
聽法	-10.1374
善住	-10.1377
當生	-10.1377
但當	-10.1377
現世	-10.1381
日出	-10.1385
惑	-10.1398
消滅	-10.1399
諸比丘尼	-10.1405
十法	-10.1405
有六	-10.1408
八萬	-10.1408
之上	-10.1409
得脫	-10.1411
苦盡	-10.1414
見有	-10.1416
誠	-10.143
出入	-10.143
當云何	-10.1431
汝所	-10.1433
惡欲	-10.1436
治化	-10.1437
豆	-10.1444
比丘所	-10.1451
耆	-10.1454
聞此	-10.1457
斷於	-10.1457
於受	-10.1457
相隨	-10.146
遙見世尊	-10.1461
臂	-10.1466
逮得般涅槃	-10.1467
七重垣牆	-10.1469
如是次第	-10.1469
若復有人	-10.1469
殊勝	-10.1472
不殺生	-10.1472
閑居	-10.1472
叉手向佛	-10.148
有常	-10.1482
龍象	-10.1484
善解	-10.1491
斯陀含	-10.1492
我於無量阿僧祇劫	-10.1493
語已	-10.1494
心善解脫	-10.1508
令人	-10.151
亦如上說	-10.1511
欲想	-10.1512
即為	-10.1551
其意	-10.1552
不定	-10.1557
迦羅	-10.1562
我即	-10.1563
千世界	-10.1566
九者	-10.1578
若苦	-10.1583
不可意	-10.1585
我慢	-10.1586
我寧可	-10.1591
劍	-10.1595
色界	-10.1595
日夜	-10.1597
良	-10.16
不修	-10.1601
醫	-10.1602
勒	-10.1602
音聲	-10.1603
如是行	-10.1604
裂	-10.1604
終無是處	-10.1605
一切怖	-10.1606
雜色可觀	-10.1607
四寶	-10.1608
其後	-10.1608
安慰	-10.1608
虎	-10.1609
奴	-10.1612
緣生	-10.1613
4	-10.1613
當如是學	-10.1614
得解	-10.1617
於他	-10.1618
珠寶	-10.1622
禮敬	-10.1622
是為三	-10.1623
樂著	-10.1628
得勝	-10.1632
宜應	-10.1632
善念	-10.1637
解脫知見	-10.1639
受具足	-10.1641
靡不	-10.1644
一劫	-10.1645
又有	-10.1646
是名比丘	-10.1649
善能	-10.1651
富貴	-10.1664
梵行者	-10.1665
我今當說	-10.167
別離	-10.1672
護諸根	-10.1682
為善	-10.1684
便當	-10.1686
善女人	-10.169
為最	-10.1692
。」』	-10.1694
聖法	-10.1694
住止	-10.1698
有言	-10.1698
釜	-10.1705
久見	-10.171
有因緣	-10.1711
昔日	-10.1715
得生	-10.1723
得定	-10.173
仙	-10.173
因是	-10.1736
栴檀	-10.1739
伽羅	-10.1739
歸命	-10.1741
爛	-10.1744
穿	-10.1746
全	-10.1747
罵詈	-10.1748
非一	-10.1749
此眾生	-10.1749
如來所	-10.175
譏	-10.175
圓滿	-10.1752
遙	-10.1754
不相	-10.1755
s	-10.1755
滅道跡	-10.1755
於此法	-10.1779
若使	-10.1784
十二因緣	-10.179
我先	-10.1792
自作	-10.1793
色味	-10.1793
)(	-10.1798
斷滅	-10.1807
大會	-10.1808
在世	-10.181
於世	-10.1811
苦習	-10.1816
即自	-10.1822
諸天子	-10.1828
後夜	-10.1828
卷	-10.1829
生子	-10.1832
我所說	-10.1839
非我所	-10.1848
二法	-10.1849
為苦	-10.1856
善業	-10.1863
無也	-10.1867
哉	-10.1872
付	-10.1878
七重行樹	-10.1884
橫	-10.1885
娑	-10.1887
與大比丘眾五百人俱	-10.1889
欝	-10.189
表	-10.189
譯	-10.1891
饒	-10.1891
古	-10.1891
不正思惟	-10.1892
客	-10.1892
遍滿	-10.1892
宋	-10.1893
無能	-10.1893
澡浴	-10.1893
懃	-10.1894
悲泣	-10.1894
非無習	-10.1896
佛在舍衛國	-10.1897
鬚閑提	-10.1899
阿毘曇	-10.1899
作福	-10.1902
然我	-10.1904
出城	-10.1905
愚癡無聞凡夫	-10.1905
繫縛	-10.1909
受報	-10.1921
泥犁	-10.1924
無比	-10.1929
惡人	-10.1935
畜	-10.194
而說	-10.1947
當於爾時	-10.1948
得安樂	-10.1953
離殺	-10.1973
十方	-10.1973
此四	-10.1974
以鐵	-10.1978
多羅	-10.1993
聽我	-10.1996
時節	-10.1998
少有	-10.2
善心	-10.2003
所念	-10.2004
彼國	-10.2007
兜率天	-10.2008
可意	-10.2015
八千	-10.2021
無明者	-10.2021
寧可	-10.2023
敗	-10.2023
非不	-10.2024
槃	-10.2024
於汝	-10.2029
潤澤	-10.203
灑	-10.2035
四維上下	-10.2035
毀呰	-10.2036
惡色	-10.2037
要當	-10.2037
圍	-10.2038
晨朝	-10.2038
猶豫	-10.2039
掘	-10.2039
喪	-10.2041
伴	-10.2041
弊惡	-10.2045
速疾	-10.205
導師	-10.2051
生老病死	-10.2052
娑羅	-10.2055
還復	-10.2058
問佛	-10.2063
知是	-10.2063
言說	-10.2065
身觸	-10.2066
成就歡喜已	-10.2069
今已	-10.2076
道者	-10.2079
於地	-10.2087
之行	-10.2089
枝葉	-10.209
佛教	-10.2091
汝等當	-10.2091
墮惡趣	-10.2093
則生	-10.2104
壯	-10.2125
哭	-10.2127
長大	-10.213
得生天上	-10.2133
色滅	-10.2135
千歲	-10.2137
踊躍	-10.2138
意法	-10.2152
所受	-10.2163
長跪	-10.2169
息寂	-10.2169
真人	-10.2172
欲愛	-10.2173
』	-10.2174
無垢	-10.2174
康強	-10.2175
禁	-10.2177
有大威神	-10.2179
三百	-10.218
溫	-10.218
儀	-10.2181
偷盜	-10.2181
繞	-10.2183
禮佛	-10.2185
我實	-10.2185
翅	-10.2186
雷	-10.2187
不染	-10.2187
積聚	-10.2187
諷誦	-10.2188
慈愍	-10.2189
無量空處	-10.219
人間遊行	-10.219
譬如有人	-10.2192
尊者賴吒惒羅	-10.2193
宮中	-10.2193
略說乃至	-10.2194
無覺	-10.2195
尊者難陀	-10.2196
譬喻	-10.2196
貪伺	-10.22
能使	-10.2202
五事	-10.2203
刀劍	-10.2209
吾今	-10.2213
難可	-10.2218
所縛	-10.222
毘舍	-10.2221
於大眾中	-10.2222
一切諸	-10.2225
生苦	-10.2226
四神足	-10.2227
寧有	-10.223
久遠	-10.2235
精勤方便	-10.2242
亦為	-10.2247
為惡	-10.2252
是非	-10.2257
福報	-10.2257
白淨	-10.2264
樂住	-10.2264
聚會	-10.227
改	-10.227
火燒	-10.2275
資	-10.228
是比丘	-10.2282
復告	-10.2285
拜	-10.2292
之福	-10.2302
2	-10.2306
未盡	-10.2309
不現	-10.2318
劣	-10.2326
早	-10.2326
諸外道	-10.2327
沙門梵志	-10.2329
於其中間	-10.2329
動搖	-10.233
緩	-10.2331
牢固	-10.2332
於其中	-10.2332
人民熾盛	-10.2335
專精思惟	-10.2335
伎樂	-10.2336
經戒	-10.2337
來至我所	-10.2338
身如身	-10.2339
如來弟子	-10.2344
瞻視	-10.2346
燒炙	-10.2348
告言	-10.2352
坐已	-10.2352
便不	-10.2355
色集	-10.2357
成就歡喜	-10.2357
佛說是經	-10.2357
十者	-10.236
一由旬	-10.2361
得法	-10.2365
若沙門	-10.2366
面前	-10.2373
喜已	-10.2377
繫念	-10.2382
令彼	-10.2382
諸婆羅門	-10.2384
我於爾時	-10.2384
勝者	-10.2387
有八萬四千	-10.2391
於眾	-10.2399
而彼	-10.2404
往昔已	-10.2404
金輪	-10.2405
衣裳	-10.2409
於人	-10.2415
難提	-10.2417
家中	-10.2427
尼揵	-10.2433
何等為十	-10.2451
仁者	-10.2454
佛即	-10.2455
已訖	-10.2456
諸天眾	-10.2458
作此	-10.2463
無煩	-10.2474
遶	-10.2477
圍繞	-10.2479
觸嬈	-10.2479
在上	-10.248
返	-10.248
白狗	-10.2481
住彼	-10.2482
自護	-10.2483
無礙	-10.2484
姊妹	-10.2485
接	-10.2485
灌	-10.2485
心中所念	-10.2485
尊者舍黎子	-10.2486
母胎	-10.2486
嫌	-10.2488
尊者摩訶迦葉	-10.2491
弗于逮	-10.2493
若有異道人	-10.2504
有生	-10.2508
住此	-10.2513
有力	-10.2515
出已	-10.252
從座起而去	-10.2522
?「	-10.2523
為我說	-10.253
我昔	-10.2532
如是觀	-10.2536
薩	-10.2546
是沙門	-10.255
定意	-10.2551
無願	-10.2551
三藏	-10.2559
厭患	-10.256
長老比丘	-10.2562
與人	-10.2562
為大	-10.2565
三月	-10.2573
將來	-10.2574
眾寶	-10.2574
正等正覺	-10.2575
亦不見	-10.2575
我此	-10.2577
自見	-10.2598
門外	-10.2602
第四禪	-10.2603
斷諸	-10.2603
汝實	-10.2612
有色	-10.2614
汝等比丘	-10.2615
夜半	-10.2618
恒水	-10.2618
不正	-10.2618
諸龍	-10.2625
由是	-10.2625
營	-10.2625
夷	-10.2627
汝自	-10.2629
占	-10.2631
故說	-10.2631
琴	-10.2632
畫	-10.2635
一日一夜	-10.2636
任	-10.2636
封	-10.2637
東西	-10.2637
復語	-10.2638
知此	-10.2639
鷄	-10.2641
而復	-10.2642
及比丘僧	-10.2644
掉	-10.2646
漏盡阿羅漢	-10.2649
相續	-10.2651
我今問汝	-10.2653
不可思議	-10.2653
化生	-10.2654
使我	-10.2656
須深	-10.2656
妙行	-10.2656
成阿羅漢	-10.2658
已復	-10.2665
念佛	-10.2669
人民之類	-10.2671
城門	-10.2671
婆羅門種	-10.2679
彼於後時	-10.2687
不盡	-10.2693
皆以	-10.2699
不復生	-10.2702
若細	-10.2712
池水	-10.2716
大苦	-10.2719
我亦如是	-10.272
知其	-10.2724
猛	-10.2737
十五	-10.2738
四兵	-10.2739
一切處	-10.274
行此	-10.2746
大山	-10.275
大祀	-10.2751
身中	-10.2752
是義	-10.2754
不變易	-10.276
從座起	-10.2763
不還	-10.2764
前世	-10.2768
聰明智慧	-10.2791
慶	-10.2791
化樂天	-10.2792
健	-10.2793
逮得	-10.2794
流離王	-10.2794
玉女寶	-10.2794
出家修道	-10.2795
救護	-10.2797
私	-10.2798
不成	-10.2799
必有是處	-10.2799
頓	-10.2802
逼迫	-10.2803
說偈問佛	-10.2804
四事	-10.281
說者	-10.2811
四千	-10.2816
當如	-10.2817
思量	-10.2817
黃金	-10.2818
如是廣說	-10.2822
但為	-10.2825
我復	-10.2835
喜心	-10.2839
閻浮	-10.2843
護國	-10.2844
心無	-10.2851
有何因緣	-10.2852
常樂	-10.2858
本末	-10.2859
卷第二十	-10.286
所願	-10.2861
甚多	-10.2866
當受	-10.2867
大神	-10.2869
愛盡	-10.288
福業	-10.2881
形色	-10.2892
若過去	-10.2893
諸梵志	-10.2894
多少	-10.2907
攝持	-10.2907
教令	-10.2914
世尊歎	-10.2918
停	-10.2918
便滅	-10.2922
不覺	-10.2928
正道	-10.293
釋氏	-10.293
為行道	-10.2938
念法	-10.2939
易不難得	-10.2942
質	-10.2949
行滅	-10.2949
折	-10.2953
醉	-10.2953
菩提	-10.2954
擾	-10.2957
孝	-10.2957
大目乾連	-10.2963
邪命	-10.2967
之後	-10.2969
受罪	-10.2975
教勅	-10.2975
若外	-10.2981
居士寶	-10.2983
懼	-10.2986
賤	-10.2987
而能	-10.2998
以是故	-10.3006
大福祐	-10.3009
我至誠	-10.3012
無著	-10.3021
為人說	-10.3022
忽然	-10.3024
如斯	-10.3028
智慧者	-10.303
不實	-10.3032
之想	-10.3032
諸人民	-10.3033
五為	-10.3034
萬歲	-10.3037
蜱肆王	-10.3038
所說法	-10.3042
奇特	-10.3043
受身	-10.305
初禪	-10.3051
閑靜	-10.3052
法依	-10.3053
為最勝	-10.3054
其地	-10.3058
踰闍那	-10.3062
成就遊	-10.3063
久住	-10.3065
隋言	-10.3071
天下人	-10.3074
慧羸	-10.3077
摩尼	-10.3081
令有	-10.3083
其事	-10.3086
我不見	-10.3087
彼有	-10.3089
伎	-10.3091
往見	-10.3094
大人之相	-10.3094
見彼	-10.3097
是我所	-10.3097
諸梵行	-10.3101
斧	-10.3103
感	-10.3111
追	-10.3112
炙	-10.3112
爪	-10.3113
有情	-10.3114
時有一天	-10.3114
一切行無常	-10.3114
賜	-10.3115
阿脩羅	-10.3115
嗚呼	-10.3115
弟	-10.3115
房舍	-10.3117
村落	-10.3119
名譽	-10.3121
默然而住	-10.3123
世有	-10.3123
長短	-10.3124
危	-10.3126
當知此	-10.3127
噉	-10.3132
聞者	-10.3134
有邊	-10.3141
侍從	-10.3151
喜悅	-10.3155
我曹	-10.3158
五受陰	-10.3158
色無常	-10.3158
自害	-10.3158
惡魔	-10.3168
閻浮洲	-10.3172
此見	-10.3183
不然	-10.3183
至竟	-10.319
當斷	-10.319
苦集	-10.3201
日日	-10.3205
成神通	-10.3208
受之	-10.3208
便自	-10.3209
行施	-10.3209
不具	-10.3211
出世間	-10.323
誦習	-10.3232
彼女	-10.3236
已解	-10.3239
為王	-10.3254
友	-10.3254
正知	-10.3254
耆闍崛山	-10.3255
多諸	-10.3263
我今當往	-10.3264
長者家	-10.3266
鞭	-10.3268
充	-10.3268
廁	-10.327
叉手向	-10.3272
圓	-10.3273
稽首作禮	-10.3274
何因何緣	-10.3275
如汝所言	-10.3277
曜	-10.3279
傍	-10.3279
元	-10.3279
務	-10.3281
撿	-10.3283
熏	-10.3287
給孤獨長者	-10.3292
若生	-10.3294
瞿曇彌	-10.3295
生厭	-10.3297
而今	-10.3302
自恣	-10.3309
不可計	-10.3309
為汝說	-10.331
不虛	-10.3311
不肯	-10.3318
自守	-10.3323
金輪寶	-10.3327
有此四	-10.3328
人乎	-10.3332
般泥洹	-10.3333
非義	-10.3334
受於	-10.3334
種種說法	-10.3345
汝莫	-10.3346
施行	-10.3346
自身	-10.335
樹間	-10.3356
得福	-10.3357
沫	-10.3358
結縛	-10.3363
之言	-10.3369
缺	-10.338
入城	-10.3389
汝是	-10.3396
如汝	-10.3407
欲者	-10.3408
七百	-10.3408
隨其所	-10.3418
低	-10.3425
何等法	-10.3428
欲心	-10.3429
師子吼	-10.3434
身諸光明遍照	-10.3436
鴦掘魔	-10.3436
徒	-10.3438
市	-10.344
讚嘆	-10.3441
彼王	-10.3443
文殊師利	-10.3443
嬈	-10.3444
自今已後	-10.3444
尸婆羅	-10.3446
十事	-10.3447
嚩	-10.3447
龜	-10.3451
利刀	-10.3455
於後時	-10.3456
質多羅長者	-10.3458
居士婦	-10.3461
道法	-10.3467
不用處	-10.3474
能為	-10.3479
所趣	-10.3485
有子	-10.349
三惡道	-10.349
明達	-10.3493
善宿	-10.3495
亦莫	-10.3499
諸門	-10.3502
從是因緣	-10.3512
大將	-10.3519
供養父母	-10.3519
若現在	-10.3528
莫不	-10.3534
得阿那含	-10.3536
行法	-10.3538
持鉢	-10.354
治生	-10.3548
阿難比丘	-10.3552
出種種	-10.3554
世間人	-10.3556
皮肉	-10.3563
出於	-10.3568
往問	-10.3571
亦不知	-10.3583
其子	-10.3583
禮佛足	-10.3584
擊	-10.3589
上坐	-10.3589
有種種	-10.359
復作	-10.3593
熾	-10.3593
譽	-10.3598
道德	-10.3602
便可	-10.3603
諸生活具	-10.3606
繞三匝而去	-10.3606
其餘者為癡	-10.3607
床褥	-10.3608
有大如意足	-10.361
遲	-10.361
威力	-10.3611
昇進	-10.3612
塗香	-10.3613
向者	-10.3614
偏袒	-10.3615
尊者大迦旃延	-10.3618
增伺	-10.3625
每	-10.3625
弓	-10.3628
殊妙	-10.3629
如來說	-10.3629
無熱	-10.3631
諸上座	-10.3632
尊者大目乾連	-10.3633
齋戒	-10.3637
向佛	-10.3639
百年	-10.3649
寶藏	-10.3651
無愧	-10.3651
佛告迦葉	-10.3654
羅婆	-10.3666
不習	-10.3668
或作	-10.3672
居家	-10.3674
不從	-10.3674
欲見	-10.3676
奉上	-10.3679
為上	-10.3684
之義	-10.3686
特	-10.3689
天子復	-10.369
到佛所	-10.369
卷第三十	-10.3696
不苦不樂受	-10.3701
頂生王	-10.3707
分布	-10.3708
已來	-10.3709
二事	-10.371
昔時	-10.3714
摩竭	-10.3717
法已	-10.3718
非沙門	-10.3724
彼梵志	-10.3728
有想	-10.373
群生	-10.373
堪	-10.3731
然後乃	-10.3735
卒	-10.3736
尊者阿難白	-10.3737
命根	-10.3741
我說彼	-10.3748
示現	-10.3748
唱	-10.3752
種族	-10.3756
眼見色	-10.3759
苑	-10.3761
窟	-10.3761
若未來	-10.3762
我言	-10.3764
所依	-10.3764
遍淨天	-10.3765
世無	-10.3767
不計	-10.3769
聞其	-10.377
赤真珠	-10.3772
可往	-10.3775
遺餘	-10.3777
金色	-10.378
跋	-10.3782
孔	-10.3785
支節	-10.3786
天復以偈讚	-10.3786
縱	-10.3788
右膝著地	-10.3789
履	-10.3789
七覺意	-10.379
智者所	-10.3791
雨勢	-10.3792
便起	-10.3794
悉知	-10.3797
所求	-10.3801
眼觸	-10.3803
苦諦	-10.3803
如是為	-10.3806
執持	-10.3814
佛復告	-10.3818
善護	-10.3819
聚集	-10.3827
王波斯匿	-10.3828
得漏盡	-10.3828
好色	-10.383
通達	-10.3835
摩竭國	-10.3856
斯等	-10.3858
正觀	-10.3869
大王當知	-10.3869
所成	-10.3872
伊	-10.3883
此事實	-10.3883
象馬	-10.3887
彼所	-10.3895
置於	-10.3896
多羅樹	-10.3898
王聞	-10.3898
行非法	-10.3903
諸結	-10.3914
色愛	-10.3917
互相	-10.3918
我及世間	-10.3931
躬	-10.3935
當往	-10.3942
殊	-10.3944
憂悲	-10.3945
師長	-10.3945
彼諸眾生	-10.3947
九十	-10.3948
優多羅	-10.3951
跋陀和利	-10.3952
嫁	-10.3952
國人	-10.3953
而取	-10.3954
須跋陀羅	-10.3954
必至惡處	-10.3957
剎帝利	-10.3957
甚可愛樂	-10.3957
解說	-10.396
拭	-10.3961
陵	-10.3962
錯亂	-10.3963
震動	-10.3963
旃陀羅	-10.3963
啼泣	-10.3964
勇	-10.3964
宜知是時	-10.3964
奇哉	-10.3965
獼猴	-10.3965
斷此	-10.3965
羅睺羅阿修羅王	-10.3966
童女	-10.3967
云何為六	-10.3968
巖	-10.3972
而自娛樂	-10.3977
共和合	-10.3984
優婆離居士	-10.3985
無量識處	-10.3988
於未來世	-10.3988
法服	-10.3995
及其	-10.4007
六法	-10.4014
病人	-10.4016
天帝	-10.4019
從何	-10.403
覺意	-10.4031
色具足	-10.4036
我從	-10.4037
內心	-10.4041
癡人	-10.4041
即生	-10.4046
卷第四十	-10.405
是何	-10.405
略	-10.4054
女寶	-10.4054
有天子	-10.4054
教已	-10.4055
未起	-10.4059
同一	-10.4061
香華	-10.4064
何義	-10.4065
義者	-10.4069
憂惱	-10.4069
施主	-10.4071
處所	-10.4074
大天	-10.4075
諸世間	-10.4077
自行	-10.4079
比丘尼是	-10.4083
有熱	-10.4083
諸善法	-10.4085
此地	-10.4086
沙門道人	-10.4089
人天	-10.4092
摩羅	-10.4099
孫	-10.4104
求欲	-10.4113
之眾	-10.4114
丘	-10.412
須菩提	-10.412
為本	-10.4121
超	-10.4122
電	-10.4126
念處	-10.4127
天及人	-10.4131
崩	-10.4134
諫	-10.4134
嶮	-10.4136
時到	-10.4136
含	-10.4136
麥	-10.4137
角	-10.4137
惡心	-10.414
掃	-10.414
檀越	-10.414
安樂住	-10.414
登	-10.4141
貫	-10.4141
斛	-10.4141
作善	-10.4144
諸尼乾	-10.4144
顯示	-10.4147
尊者婆耆舍	-10.4148
榮	-10.415
食者	-10.4151
共相娛樂	-10.4154
往至彼	-10.4157
大梵天王	-10.4157
亦不能	-10.4157
得無	-10.4162
羸	-10.4162
佛告王	-10.4163
為樂	-10.4166
生諸	-10.4171
少欲	-10.4172
不畏	-10.419
不墮	-10.419
色想	-10.4193
法如法	-10.4197
得利	-10.4199
或生	-10.4204
福利	-10.4205
尊師	-10.4206
所覆	-10.4207
惡念	-10.4207
至佛所	-10.4208
盛滿	-10.4209
高下	-10.4213
有罪	-10.4223
▁爾時	-10.4223
懈	-10.4224
毘舍離	-10.4228
車乘	-10.4237
寶車	-10.424
以何	-10.4243
咎	-10.4243
不厭	-10.4246
入息	-10.4248
若有一人	-10.4251
便往至	-10.4266
專心	-10.4278
於如來所	-10.4279
逝	-10.4283
欲知	-10.4287
勤修	-10.4289
成就此	-10.429
無限	-10.429
或食	-10.4295
以彼	-10.4295
還自	-10.4296
亦名	-10.4306
彼不應來	-10.4309
從佛聞	-10.4312
三尊	-10.4312
所因	-10.4312
自手	-10.4312
逢	-10.4313
我師	-10.4313
意解	-10.4314
說此法	-10.4315
休	-10.4317
誓	-10.4318
捷疾	-10.4318
死此生彼	-10.4319
變易法	-10.4321
江	-10.4321
得大果報	-10.4321
錄	-10.4322
宋天竺三藏求那跋陀羅譯	-10.4322
咽	-10.4323
尼健子	-10.4324
厄	-10.4325
顯現	-10.4326
若以	-10.4327
從今日始	-10.4327
人命	-10.433
捨覺分	-10.4331
正等覺	-10.4334
醯	-10.4335
倚	-10.4336
世尊知	-10.4338
滅道跡如實知	-10.4342
栽	-10.4343
不識	-10.4344
水上	-10.4346
死後	-10.4353
萬二千	-10.4358
邪業	-10.4372
無色界	-10.4375
必有	-10.4376
恨	-10.4377
苦陰	-10.4378
十力	-10.4378
離貪	-10.4382
得正見	-10.4389
於佛前	-10.439
釘	-10.44
過度	-10.44
當與	-10.4408
百由旬	-10.4411
然此	-10.4413
禮世尊足	-10.4416
華香	-10.4429
彼色	-10.4432
苦覺	-10.4438
防	-10.4441
毘羅	-10.4442
謂聖弟子	-10.4443
用是故	-10.4444
欲樂	-10.4448
已後	-10.4449
觀法	-10.4453
行布施	-10.4453
欲斷	-10.4458
阿那含果	-10.4462
如上	-10.447
白王	-10.4476
共同	-10.4478
亦應	-10.4484
髻	-10.4493
馳	-10.4495
汝應	-10.4496
5	-10.4496
般	-10.4497
受極重苦	-10.4498
稻	-10.4499
七覺分	-10.4499
湯	-10.45
然不	-10.45
哆	-10.4501
波羅㮈	-10.4501
得定心	-10.4502
雪山	-10.4502
質直	-10.4504
尼揵親子	-10.4505
買	-10.4505
略說如前	-10.4506
淳	-10.4506
自致涅槃	-10.4507
赫然大明	-10.4507
灌頂	-10.4507
逸	-10.4507
漿	-10.4508
阿那邠邸長者	-10.4508
示教利喜	-10.4508
聖戒成就	-10.4509
見是	-10.4509
命盡	-10.451
唾	-10.451
頗梨	-10.4511
則於	-10.4514
婬欲	-10.4516
憂愁	-10.4525
安般	-10.4526
我正法	-10.4527
應詣彼	-10.4527
不及	-10.4533
意亦復如是	-10.4535
佛便告	-10.4536
火然	-10.4537
出現世	-10.4538
此摩牢	-10.454
而作是語	-10.4542
得出	-10.4545
可久	-10.4549
無量百千	-10.4555
不善根	-10.4564
彼婆羅門	-10.4566
精進力	-10.4569
非身	-10.458
又告	-10.4586
獨處	-10.4586
佛告之	-10.4586
此經	-10.4587
唯願世尊受我	-10.4588
是故我	-10.4596
縱廣五十由旬	-10.4599
諸有沙門	-10.4601
當受持	-10.4609
戒取	-10.461
世尊即	-10.4613
戒律	-10.4615
不在	-10.4617
若世尊	-10.4618
悉能	-10.4619
亂想	-10.4625
學戒	-10.4627
專精	-10.4629
佛告梵志	-10.463
增減	-10.4632
及諸比丘	-10.4632
婦女	-10.4654
彼沙門瞿曇	-10.4655
忘失	-10.4659
成道	-10.466
心懷	-10.4661
於後	-10.4662
有疑	-10.4665
坑	-10.4676
最為第一	-10.4678
八百	-10.4682
9	-10.4684
是聖	-10.4686
則能	-10.4687
死苦	-10.4688
謗毀	-10.4689
妙色	-10.4689
毘摩質多羅阿修羅王	-10.469
徑	-10.4694
均頭	-10.4695
蘊	-10.4695
正信非家	-10.4695
慰勞	-10.4695
亦得	-10.4696
正盡覺	-10.4696
無相	-10.4697
蘇	-10.4698
慕	-10.4699
世尊聞已	-10.47
須達	-10.4701
]	-10.4703
謂四	-10.4705
有想無想處	-10.4705
七覺支	-10.4707
求安隱快樂	-10.4711
之物	-10.4713
二日	-10.4726
自有	-10.4727
開解	-10.4728
如有	-10.4729
不如施一	-10.4732
無罪	-10.4733
香氣	-10.4739
陀然	-10.4739
能分別	-10.4742
止觀	-10.4743
經法	-10.4743
能忍	-10.4744
諸佛世尊	-10.4744
由此因緣	-10.4744
若此	-10.4745
無窮	-10.4745
謂有	-10.4748
如似	-10.4765
如來藏	-10.4765
此為	-10.4771
何者是	-10.4776
從佛	-10.4776
虛空中	-10.4782
不足	-10.4782
欲生	-10.4785
因此故	-10.4788
磨滅	-10.479
當行	-10.4792
阿難白佛言	-10.4796
行惡	-10.4798
前後	-10.481
受其	-10.481
汝若	-10.4811
令不	-10.4818
爾所	-10.4819
有觀	-10.4819
來入	-10.482
洗足已	-10.4822
見也	-10.4822
不能知	-10.4827
上天	-10.4834
不具足	-10.4839
尼乾	-10.4847
無央數	-10.4848
如世尊說	-10.4856
第二禪	-10.4858
阿難白佛	-10.486
說如是	-10.4864
大雨	-10.4865
前坐	-10.4866
常為	-10.4866
斷欲	-10.487
大典尊	-10.4877
螺	-10.488
㷿	-10.488
曇彌	-10.4882
顏貌端正	-10.4883
偽	-10.4884
之力	-10.4885
【	-10.4885
鈎	-10.4886
渧	-10.4886
原	-10.4886
?』「	-10.4886
往詣彼	-10.4886
邏	-10.4886
於其夜	-10.4887
僧不壞淨	-10.4891
正見乃至正定	-10.4892
星宿	-10.4892
三十二	-10.4892
剝	-10.4892
彼一切非我	-10.4892
無諸	-10.4894
復有三法	-10.4895
阿練若	-10.4896
病苦	-10.4898
入地獄	-10.49
尊者摩訶拘絺羅	-10.49
之身	-10.4901
得樂	-10.4901
露地	-10.4903
是無常	-10.4904
契經	-10.4906
清白	-10.4909
須拔	-10.491
閻羅王	-10.4913
幾法	-10.4927
正思	-10.4932
之曰	-10.4932
會中	-10.4933
風界	-10.4935
優鉢羅	-10.4936
床榻	-10.4943
海中	-10.4943
千子	-10.4945
所居	-10.4948
應與	-10.495
為我說法	-10.4951
不過	-10.4954
云何為二	-10.4956
人有	-10.4956
施者	-10.4962
極廣	-10.4963
四意止	-10.4966
如此之	-10.4973
我所見	-10.4977
戶	-10.4977
不依	-10.4982
法律	-10.4982
乃至邪見	-10.4984
彼言	-10.4985
生此念	-10.4986
我常	-10.4992
色是我	-10.4999
不相在	-10.5002
之具	-10.5006
迦葉佛	-10.5008
大沙門	-10.501
復有四	-10.501
世尊與	-10.5021
大力	-10.5027
擇	-10.5032
是則為	-10.5036
諸梵行者	-10.5037
殘	-10.5044
不悔	-10.5045
說此偈	-10.5046
有十	-10.5047
不亂	-10.505
大歡喜	-10.505
行於	-10.5052
標	-10.5056
歎說	-10.5057
隨從	-10.5057
無量眾生	-10.5058
彼女人	-10.5072
在虛空中	-10.5074
疲	-10.5075
闊	-10.5076
辱	-10.5078
善修	-10.5078
入村乞食	-10.5081
跋迦梨	-10.5081
蔭	-10.5081
諸漏	-10.5082
注	-10.5082
怪	-10.5082
張	-10.5082
清苦行苦行	-10.5082
朽	-10.5083
鞞摩質多羅阿修羅王	-10.5084
米	-10.5085
異學箭毛	-10.5085
驚怖	-10.5085
慧力	-10.5085
涕	-10.5086
繫念在前	-10.5086
狀	-10.5086
兄	-10.5088
尊者大拘絺羅	-10.509
當說	-10.5091
聞是語	-10.5091
惡不善業	-10.5093
諸餘	-10.5094
玉耶	-10.5099
不壞淨	-10.5107
為諸比丘說	-10.5109
淨信	-10.5109
所起	-10.511
向彼	-10.5113
不聽	-10.5113
初夜	-10.5113
是為四	-10.5116
不煩熱	-10.5121
善友	-10.5122
多所	-10.5122
即入	-10.5123
頭陀	-10.5125
誰能	-10.5134
法行	-10.5141
而出	-10.5142
三禪	-10.5146
若色	-10.515
不欺	-10.5151
此世間	-10.5154
覺法	-10.5159
為非	-10.5163
月天子	-10.5172
三十二相	-10.5175
如實觀察	-10.5175
止宿	-10.5184
得大	-10.5185
伽藍	-10.5186
盡已	-10.5188
三寶	-10.5192
過去世	-10.5197
欲往	-10.5205
陳	-10.5206
更相	-10.5208
諸受	-10.5212
邪念	-10.5214
迹	-10.5216
無令	-10.5224
或有沙門	-10.5227
捨此	-10.523
飛行	-10.5241
光照	-10.5244
顧念	-10.525
出水	-10.5252
還詣	-10.5253
之業	-10.5255
不死	-10.526
尺	-10.5267
瘦	-10.527
欣	-10.5271
惠	-10.5273
第三禪	-10.5273
身命	-10.5273
吾當	-10.5277
顏	-10.528
鳩	-10.5281
忉利諸天	-10.5282
清旦	-10.5282
斬	-10.5282
梵志梵摩	-10.5282
膿血	-10.5283
以何等故	-10.5283
剋	-10.5283
大智	-10.5283
床臥具	-10.5286
耆舊	-10.5286
氣力如常	-10.5286
以是義故	-10.5287
依滅	-10.5288
拘樓	-10.5289
命終之後	-10.5289
誓願	-10.529
公	-10.5291
臭穢	-10.5291
樂住遠離	-10.5292
而聽	-10.5293
孝順父母	-10.5293
末利	-10.5297
從坐起去	-10.53
我今已	-10.53
是處	-10.5301
問汝	-10.5302
樂報	-10.5302
法及比丘眾	-10.5303
大海中	-10.5303
因此故說	-10.5305
還精舍	-10.5305
二曰	-10.5307
惡言	-10.5307
我法	-10.5309
彼尊者	-10.531
合掌白佛	-10.531
相違	-10.5321
人言	-10.5323
彼長者	-10.5325
昔者	-10.5336
為不	-10.5338
歸佛	-10.5339
不堪	-10.5342
意止	-10.5344
此婆羅門	-10.5354
諦觀	-10.5355
欲取	-10.5355
當捨	-10.5361
不語	-10.5366
答我言	-10.5367
長壽王	-10.5368
最為	-10.5372
便以	-10.5379
自知自覺	-10.5384
諸比丘白佛	-10.5385
信力	-10.539
有結	-10.5395
此三法	-10.5396
一月	-10.5409
坐具	-10.5412
詣彼	-10.542
此苦	-10.5431
云何見	-10.5434
即還	-10.5435
三日	-10.5435
若無常	-10.5436
緣覺	-10.5447
六萬	-10.5451
復於	-10.5452
肥	-10.5459
我問	-10.547
修善	-10.5472
色患	-10.5473
鉤	-10.5479
豪	-10.5484
疲勞	-10.5486
闕	-10.5489
而後	-10.5489
從佛受教	-10.5489
焉	-10.549
事者	-10.5491
麁澁	-10.5491
使者	-10.5492
減損	-10.5492
持戒者	-10.5492
行在祇樹給孤獨園	-10.5493
坐一樹下	-10.5493
修學	-10.5498
半月	-10.5499
毘尼	-10.55
即詣	-10.55
長跪叉手	-10.55
作不善業	-10.5503
逆風	-10.5503
二禪	-10.5506
止住	-10.5511
心樂	-10.5513
得知	-10.5517
害心	-10.5518
向於	-10.5518
善調	-10.5519
所以稱	-10.5521
名阿	-10.5522
傷害	-10.5528
何等人	-10.5528
多聞聖弟子於	-10.5529
王阿闍世	-10.5534
鼻香	-10.5535
次復	-10.5537
此是實	-10.5538
音樂	-10.554
復念	-10.5541
流轉	-10.5544
汝本	-10.5552
癰	-10.5553
墮地獄	-10.5555
苦者	-10.5555
閑	-10.5557
之明	-10.5572
覺悟	-10.5572
心之所念	-10.5576
如是再三	-10.5582
麤言	-10.5584
有所說	-10.5597
有眾多比丘	-10.56
學者	-10.5606
受諸	-10.5606
增廣	-10.5606
後有	-10.5608
起增上	-10.5608
自說	-10.5613
五比丘	-10.562
即與	-10.562
諸苦	-10.5623
亦可	-10.5625
見如實	-10.563
不墮惡趣	-10.5631
何物	-10.5631
高廣	-10.5635
所住	-10.5642
諸阿修羅	-10.5651
空閑	-10.5654
道弟子	-10.5654
如月	-10.5655
已見	-10.5656
手長者	-10.5658
佛經	-10.5662
濕	-10.5663
過是	-10.5664
餘處	-10.567
第一義	-10.5672
淨修梵行	-10.5674
或說	-10.5677
頻	-10.5677
道中	-10.5678
不護	-10.5679
身長	-10.5679
優婆私	-10.5681
腸	-10.5684
太	-10.5685
賴吒和羅	-10.5685
歷	-10.5691
騎	-10.5692
耗	-10.5692
求義及饒益	-10.5693
識止處	-10.5693
耕	-10.5696
因此清苦行苦行	-10.5696
搏	-10.5697
齊是不過	-10.5698
現身	-10.5698
炬	-10.5698
微細	-10.5699
想滅	-10.5699
】【	-10.5699
如是耳	-10.5699
敷座	-10.57
池中	-10.5701
毒蛇	-10.5701
閻浮利	-10.5703
等覺	-10.5704
問我	-10.5704
安快	-10.5704
眼根	-10.5706
為汝	-10.5706
得究竟智	-10.5707
煙	-10.5709
火焰	-10.571
不滅	-10.5711
兼	-10.5711
當勤方便	-10.5713
種種諸	-10.5714
無憂	-10.5715
三十七品	-10.5717
取此	-10.5719
唱言	-10.5723
還入	-10.5724
疑蓋	-10.5728
即出	-10.5729
問世尊	-10.5732
]《	-10.5735
其法	-10.5735
觀已	-10.5737
非有	-10.5739
教法	-10.5744
慧根	-10.5744
何由	-10.575
或言	-10.5752
善現	-10.5753
但有	-10.576
多行	-10.576
沙門果	-10.5773
色像	-10.5777
皆得	-10.5787
花果	-10.5787
舉身	-10.5788
地獄眾生	-10.5788
威光	-10.579
十三	-10.5795
毘婆尸佛	-10.5796
於今	-10.5797
竹	-10.58
所纏	-10.5806
彼佛	-10.5806
我得	-10.5807
緣眼	-10.5808
無結	-10.5814
之間	-10.5814
由何	-10.5815
心定	-10.582
是說	-10.5823
若知	-10.5826
羅閱城	-10.5829
聽受	-10.5836
更生	-10.5836
諸天人	-10.5837
為知	-10.5848
設復	-10.585
作佛	-10.5857
識集	-10.5863
不淨行	-10.5873
豫	-10.5874
災	-10.588
身業	-10.5881
不可愛	-10.5881
修四念處	-10.5882
物主	-10.5883
設當	-10.5885
見聞	-10.5887
講	-10.5893
毒痛不可忍	-10.5895
剎	-10.5896
驅	-10.5897
總	-10.5897
燕坐	-10.5899
樵	-10.59
閻摩王	-10.59
今在	-10.5901
然今	-10.5901
盡其形壽	-10.5902
樂覺	-10.5902
捕	-10.5903
孔雀	-10.5905
鮮	-10.5906
迷惑	-10.5909
盡諸有漏	-10.591
期	-10.5911
大小	-10.5911
彼行禪者	-10.5911
累	-10.5911
亦不得	-10.5911
踊	-10.5911
不起諸漏	-10.5912
茶	-10.5912
男子女人	-10.5912
杵	-10.5913
柔	-10.5914
世尊是法根	-10.5914
稱讚	-10.5914
摶食	-10.5915
盛陰	-10.5915
擣	-10.5915
疊	-10.5917
當如是答	-10.5919
十由旬	-10.5923
釋迦	-10.5927
所有眾生	-10.5931
貪愛	-10.5933
我不說	-10.5934
廢	-10.5936
身口	-10.5938
彼以	-10.5947
一曰	-10.5947
汝等諦聽	-10.5948
作業	-10.5949
若生人中	-10.5951
無生	-10.5953
議已	-10.5956
發心	-10.5966
若干想	-10.5974
得歡喜	-10.5981
白色	-10.5981
不放逸住	-10.5981
他世	-10.5988
法故	-10.5994
阿育	-10.6009
以何為	-10.6021
是亦	-10.6021
當思惟	-10.6028
復入	-10.603
為他	-10.6031
有一天子	-10.6034
一分	-10.6041
汝見	-10.6044
王復	-10.6046
誡	-10.6046
棺	-10.6047
正說	-10.6048
獲得	-10.6049
遊化	-10.6062
那羅	-10.6065
識無常	-10.6065
良馬	-10.6066
復有眾生	-10.6072
為他所	-10.6072
耳聲	-10.6073
光焰	-10.6076
寶物	-10.6078
其頭	-10.6082
佛前	-10.6087
得信	-10.609
佛告舍利弗	-10.6093
即問	-10.6094
當滅	-10.6106
受戒	-10.6106
信施	-10.611
竪	-10.6111
行故	-10.6113
嗜	-10.6113
非道	-10.6115
賢聖法	-10.6117
至此	-10.6118
過夜平旦	-10.6119
自然粳米	-10.612
罪未畢	-10.6121
奔	-10.6121
惜	-10.6122
朋友	-10.6123
證法	-10.6123
聖人	-10.6123
臺	-10.6124
有覺有觀	-10.6125
可樂	-10.6126
分陀利	-10.6126
得第一	-10.6127
毗	-10.6128
脇	-10.613
相娛樂	-10.613
淵	-10.613
掉悔	-10.6131
毒箭	-10.6132
椎	-10.6132
翳	-10.6133
飛鳥	-10.6133
死屍	-10.6135
比丘亦復如是	-10.6137
苦患	-10.6137
氏	-10.6137
乃至命盡	-10.6137
無慙	-10.6138
愚惑	-10.6139
六為	-10.614
之本	-10.6141
地肥	-10.6141
五力	-10.6145
是真	-10.6147
洞然	-10.6147
尚不	-10.615
大象	-10.6151
其行	-10.6161
為道	-10.6162
。『	-10.6165
外道異學	-10.6166
共會	-10.6167
亦各	-10.617
應如是	-10.6173
兜率陀天	-10.6174
修行梵行	-10.6178
青色	-10.6181
而立	-10.6187
故生	-10.619
取其	-10.6193
何事	-10.6198
不稱	-10.6203
便能	-10.6203
若麁	-10.6206
推	-10.6211
分明	-10.6214
之樂	-10.6218
不了	-10.6219
多修習	-10.6222
一身	-10.6227
諸比丘白	-10.6227
如是比	-10.6233
敢	-10.6235
心住	-10.6239
便得滅	-10.624
我無	-10.624
頂禮	-10.625
已起	-10.6251
右手	-10.6251
補特伽羅	-10.6254
此五	-10.6266
世中	-10.627
從今	-10.627
聽許	-10.6274
謂為	-10.6274
還家	-10.6275
聞世尊	-10.6287
愛著	-10.6287
歡	-10.6287
大力士	-10.6294
心結	-10.6294
水界	-10.6297
他作	-10.6298
心清淨	-10.6309
大火	-10.6313
佛弟子	-10.6315
吾欲	-10.6324
厭惡	-10.6329
貌	-10.6334
庶幾	-10.6337
僧伽梨	-10.6338
不受後有	-10.6338
廬	-10.6339
淨行	-10.634
輿	-10.634
婆悉咤	-10.6342
醜陋	-10.6344
婆蹉種出家	-10.6345
於佛不壞淨	-10.6345
㲲	-10.6346
彈琴	-10.6348
顏貌	-10.6348
冬	-10.6348
崇	-10.6349
中夜	-10.6352
頸	-10.6353
長阿含經	-10.6355
如上廣說	-10.6356
光澤	-10.6357
轉法輪	-10.6357
剎利頂生王	-10.6357
天耳	-10.6361
或在	-10.6362
帝釋天王	-10.6364
佛住王舍城	-10.6364
山林	-10.6365
生已	-10.6365
尼拘陀梵志	-10.6367
乞求	-10.6371
白髮	-10.6376
耆闍崛山中	-10.6377
眾惡	-10.6377
怨憎	-10.6378
年少比丘	-10.6381
如汝所說	-10.6381
不精進	-10.6387
熱鐵	-10.6387
更無	-10.6389
阿須倫王	-10.639
未知	-10.6391
舌味	-10.6397
意知法	-10.6397
而命終	-10.6402
互	-10.6406
想生	-10.6407
使不死	-10.6408
化自在天	-10.6408
得安隱	-10.6421
不審	-10.6423
受滅	-10.6426
真珠	-10.643
當知彼	-10.6434
有八	-10.6436
舍衛	-10.644
趣涅槃	-10.6447
敬禮	-10.6448
五樂	-10.6453
到時	-10.6453
乃得	-10.6461
名德	-10.6462
戒德	-10.6464
皆來	-10.6472
八法	-10.6473
所施	-10.6473
道士	-10.6475
如實知見	-10.6475
不能自	-10.6478
諸商人	-10.6492
燒其	-10.6492
即告	-10.6492
其餘	-10.6498
取著	-10.6501
得離	-10.6505
入此	-10.6507
所獲	-10.651
樓觀	-10.6513
無害	-10.6517
若有一	-10.6519
五百比丘	-10.6524
能解	-10.6531
斷五下分結	-10.6532
起於	-10.6539
與諸比丘	-10.655
所止	-10.6557
迦旃	-10.6558
6	-10.656
栰	-10.6567
枕	-10.6567
再	-10.6567
拘翼	-10.6571
跪	-10.6572
慎	-10.6573
蘭	-10.6573
尊者鳩摩羅迦葉	-10.6573
我時	-10.6574
香稻	-10.6575
經書	-10.6577
羅閱祇	-10.6577
拂	-10.658
詐	-10.6581
盜賊	-10.6581
誐	-10.6582
二正士共論	-10.6582
像類	-10.6582
不久當	-10.6583
非有想非無想處	-10.6584
三法衣	-10.6585
衰退	-10.6585
劇	-10.6587
或為行道	-10.6591
諸煩惱	-10.6595
拘薩羅國	-10.6598
復為	-10.6601
四部眾	-10.6601
見一	-10.6601
殺之	-10.6602
知佛	-10.6603
過失	-10.6606
是為二	-10.6611
王位	-10.6611
嫌怖久	-10.6612
生善處	-10.6613
五百弟子	-10.6616
十善	-10.6616
還本	-10.6617
釋種子	-10.6621
我今日	-10.6623
貪嫉	-10.6624
極苦	-10.6626
願佛	-10.6631
是佛	-10.6632
知者	-10.6637
所疑	-10.6637
何以不	-10.664
邪定	-10.6641
即勅	-10.665
摩那	-10.6657
理家	-10.6658
轉減	-10.6664
我悉	-10.6666
我父	-10.6678
不相應	-10.6682
無厭	-10.6684
遊於	-10.6689
為勝	-10.669
八解脫	-10.6693
此岸	-10.6695
精進沙門	-10.6696
使不	-10.6697
獲福	-10.6709
得其便	-10.6712
有勝	-10.6714
須陀	-10.6716
見他	-10.6717
并及	-10.6717
亦不為	-10.6723
四種兵	-10.6725
肩	-10.6726
知漏	-10.6729
定心	-10.6731
彼罪人	-10.6738
普周	-10.6739
減少	-10.674
道從	-10.6741
以見	-10.6743
若聖弟子	-10.6758
有身	-10.676
子孫相承	-10.6761
還生	-10.6762
瓦	-10.6762
或能	-10.6764
此女	-10.6766
故名為	-10.6766
之報	-10.6777
皆為	-10.6778
外道出家	-10.6782
於外	-10.6783
與五百	-10.6784
入彼	-10.6786
器仗	-10.679
責數	-10.6795
餘眾生	-10.6798
欲來	-10.6798
諸塵垢盡	-10.6799
起居輕	-10.6801
大善見王	-10.6802
相師	-10.6803
敷尼師檀	-10.6804
無事比丘行於無事	-10.6805
成就此法者	-10.6805
鉢頭摩	-10.6805
刃	-10.6806
旦	-10.6806
吉	-10.6807
春	-10.6808
少欲知足	-10.6808
端政	-10.6808
鄙	-10.6811
周旋	-10.6812
輒	-10.6812
=	-10.6812
見如來	-10.6813
賣	-10.6813
彼斷	-10.6814
毀辱	-10.6816
床臥	-10.6817
偏	-10.6819
擲置	-10.6821
殿上	-10.6822
輔相婆羅門	-10.6822
以偈問	-10.6823
梵天王	-10.6823
餅	-10.6824
獨一	-10.6825
彼等於中	-10.6825
解了	-10.6829
此五受陰	-10.683
婦人	-10.6835
四種軍	-10.6838
若曹	-10.6842
重擔	-10.6844
漏盡智	-10.685
離車	-10.685
不如法	-10.6851
若如是者	-10.6852
新學	-10.6855
世尊所說	-10.6855
語我言	-10.686
剎利王	-10.6865
眾生之類	-10.6872
前進	-10.6873
愛滅	-10.6876
能除	-10.6879
純一	-10.6879
為大患	-10.6879
樹者	-10.6884
有智	-10.6885
八種	-10.6887
難提波羅陶師	-10.689
令滅	-10.6893
諸善	-10.6896
火界	-10.69
勿復	-10.6904
念身	-10.6904
為人所	-10.6912
大家	-10.6914
本無	-10.6918
中央	-10.6919
七種	-10.6924
身光	-10.6925
婆羅門長者	-10.6926
南無	-10.6931
以此為	-10.6932
是為七	-10.6937
不悅	-10.6938
珍	-10.6941
正直	-10.6942
音響	-10.6955
愛生	-10.6956
無怨	-10.6957
阿修羅王	-10.6958
有緣	-10.6963
一人言	-10.6963
語我	-10.697
召	-10.6972
帝王	-10.6976
如意	-10.6977
為無常	-10.698
終不得	-10.6985
灰河	-10.699
一方	-10.6991
天中	-10.6994
數千萬	-10.7002
徐	-10.7015
百二十	-10.7021
地動	-10.7025
謂眼	-10.7029
泥犁旁	-10.7032
信解	-10.7038
即起	-10.7039
七重鈴網	-10.704
云何得	-10.704
能度	-10.7041
郁伽長者	-10.7041
以是之故	-10.7042
肆	-10.7042
優婆斯	-10.7043
有知有見	-10.7043
與大比丘眾俱	-10.7044
最大	-10.7045
遍滿一方成就遊	-10.7045
屋舍	-10.7047
炭	-10.7048
至無為處	-10.7048
暖	-10.7048
針	-10.7049
尊者薄拘羅	-10.7049
床座	-10.7051
柔和	-10.7052
採	-10.7053
薩遮尼犍子	-10.7054
右脇	-10.7057
諾	-10.706
求出家	-10.7061
石室	-10.7061
觀外	-10.7061
諸釋	-10.7062
覆蓋	-10.7063
所樂	-10.707
威	-10.7071
展轉相	-10.7075
便習	-10.7086
且止	-10.7088
黠慧	-10.7089
隨汝所	-10.709
汝師	-10.7091
成佛	-10.7092
請佛	-10.7095
作如是語	-10.7096
死時	-10.7097
諸比丘聞已	-10.7099
千二百	-10.7103
城邑	-10.7105
便成	-10.7107
子孫	-10.7107
好惡	-10.7108
一千	-10.7111
又沙門瞿曇	-10.7117
收攝	-10.7118
若時如來出	-10.712
梵天上	-10.7121
得滅	-10.7124
凡人	-10.7125
教示	-10.7129
欲為	-10.7135
於虛空中	-10.7136
生處	-10.7138
不入	-10.7147
為諸	-10.7149
遊觀	-10.7159
是故說	-10.7169
是常	-10.7172
彼於爾時	-10.7173
緣此	-10.718
或持	-10.7182
遍受	-10.7183
彼法	-10.7188
不疑	-10.7191
種類	-10.7197
無力	-10.7203
為轉輪王	-10.7205
舍那	-10.7205
為從	-10.7207
天主	-10.7209
行步	-10.7212
其間	-10.7213
分別其義	-10.7218
可以	-10.7221
常懷	-10.7225
為他說	-10.7227
無常想	-10.7228
一意	-10.723
斷殺	-10.7231
佛問	-10.7235
戒者	-10.7239
有眾生	-10.724
我能	-10.7241
因欲	-10.7243
不瞋	-10.7244
輪王	-10.7245
阿含	-10.7248
無求	-10.725
彼則	-10.725
為誰	-10.7251
大富	-10.7254
淨潔	-10.7255
是二	-10.7255
流出	-10.7259
段	-10.7262
念欲	-10.7267
兩邊	-10.7272
離生喜	-10.7274
令汝	-10.7275
豐饒	-10.7281
丈	-10.7283
繒	-10.7284
沈	-10.7285
周匝校飾	-10.7285
我生此法	-10.7286
蚊虻	-10.7287
何用	-10.7289
屠	-10.7289
小土城	-10.7289
最極	-10.729
大愛道	-10.729
七為	-10.7291
算	-10.7291
隣	-10.7291
塞	-10.7291
毘摩質多羅	-10.7292
踰	-10.7292
須摩提女	-10.7293
鋸	-10.7293
壽命延長	-10.7294
瞋恨	-10.7294
善無毒女	-10.7296
滯	-10.7297
變悔	-10.7297
省	-10.7298
商主	-10.7299
六觸入處	-10.7299
知義	-10.73
得大果	-10.7301
無明漏	-10.7303
豪貴	-10.7304
無事處	-10.7308
四見中	-10.731
滿願子	-10.7311
盡苦際	-10.7312
帝釋天主	-10.7312
意妙行	-10.7312
安置	-10.7312
若作	-10.7315
是勝	-10.7318
欲相應	-10.7319
汝為	-10.7325
說偈答	-10.7325
無極	-10.7326
是三種	-10.7327
則於晡時	-10.7327
一切悉	-10.7328
正士	-10.7329
無得	-10.7329
若行	-10.7329
尊敬	-10.7333
識知	-10.7335
有道有	-10.7337
皆共	-10.7343
緣欲	-10.7344
十萬	-10.7344
七由旬	-10.7345
知苦	-10.7346
遍覺	-10.7348
六年	-10.7351
真金	-10.7353
不安	-10.7358
退轉	-10.7359
道路	-10.7364
於識	-10.7365
大姓	-10.7377
定根	-10.7383
將欲	-10.7386
見色	-10.7388
默然住	-10.7389
我若	-10.7393
滅已	-10.7394
一指	-10.7395
復重	-10.7398
之論	-10.7399
終無	-10.7403
人眾	-10.7404
受請	-10.7408
女曰	-10.7421
所有諸	-10.7425
意觸	-10.7426
我非	-10.7426
若比丘於	-10.7429
如是三	-10.7431
得無上	-10.7433
行乞食	-10.7433
彼云何	-10.7433
阿耨達	-10.7434
大水	-10.7435
形相	-10.7442
大河	-10.7443
此賢	-10.7445
於此處	-10.7445
已捨	-10.7446
無間	-10.7451
吾等	-10.7455
三世	-10.7461
為多	-10.7464
今現在	-10.7476
貪婬	-10.7484
坐起	-10.7489
戒行	-10.7492
數千	-10.7492
曇	-10.7496
若天	-10.7497
有七寶	-10.7501
甘露法	-10.7502
誨	-10.7503
身自歸	-10.7504
國人民	-10.7505
大乘	-10.7512
下至	-10.7514
冠	-10.752
有著	-10.7522
彼眾	-10.7523
誑	-10.7523
所致	-10.7523
鑽	-10.7524
鬪戰	-10.7525
7	-10.7526
佛時	-10.7526
長苦行尼揵	-10.7527
涌	-10.7532
優婆離	-10.7533
未來世	-10.7533
多羅行樹	-10.7534
伐	-10.7535
彼應	-10.7536
鹹	-10.7537
念覺分	-10.7538
永盡無餘	-10.7538
源	-10.7539
戀	-10.7539
運	-10.754
就座而坐	-10.754
脂	-10.754
震	-10.754
或至	-10.7541
遍于祇洹	-10.7541
婚	-10.7542
偏袒右肩	-10.7542
八萬四千歲	-10.7543
懷妊	-10.7545
十惡	-10.7546
舍利弗比丘	-10.7546
以水	-10.7546
委	-10.7546
荒	-10.7546
摩訶迦葉	-10.7546
歡喜頂禮	-10.7547
習近	-10.7547
披	-10.7548
▁26(1	-10.7549
正解脫	-10.7549
念此相	-10.755
扶	-10.7551
從其	-10.7553
更不復受	-10.7553
白㲲	-10.7555
篤信	-10.7555
歡樂	-10.7556
世尊在	-10.7556
慈悲	-10.7558
往至佛所	-10.7559
究竟梵行	-10.756
隨逐	-10.756
月宮殿	-10.756
假使	-10.7561
宿命智	-10.7562
至涅槃	-10.7562
無因	-10.7562
大施	-10.7563
阿羅漢果	-10.7567
本處	-10.7569
生欲	-10.757
大小便	-10.7571
未終	-10.7573
於一面坐	-10.7575
惡鬼	-10.7575
樹林	-10.7577
乃爾	-10.7577
晡時從禪	-10.7578
愛喜	-10.7578
日天子	-10.7579
令我得	-10.7584
如來出世	-10.7592
一切法	-10.7599
作已	-10.7602
已辦	-10.7603
精進根	-10.7605
應說	-10.7609
在內	-10.7613
道品	-10.7614
奉施	-10.7614
於世尊	-10.7617
取食之	-10.7617
而還	-10.7618
以一	-10.7624
四月	-10.7627
說伽陀	-10.7629
其處	-10.7633
增多	-10.7635
即復	-10.7635
其色	-10.7637
故來	-10.7639
修身	-10.7641
或為	-10.7643
得羅漢	-10.7645
是誰	-10.7647
謂因	-10.7647
致此	-10.7658
以偈	-10.766
不恭敬	-10.7661
捨身	-10.7662
三業	-10.7664
著地	-10.7675
共議	-10.7677
又彼	-10.7678
度彼岸	-10.7678
至彼岸	-10.7684
淨心	-10.769
至于	-10.7701
便害	-10.7705
來此	-10.7713
佛亦	-10.7713
以偈答	-10.7713
復自念	-10.7717
墮惡道	-10.7718
生喜	-10.7719
馬車	-10.772
謂六	-10.7721
三曰	-10.7722
是為五	-10.7722
解脫已	-10.7726
將諸	-10.7727
無觀	-10.7735
念根	-10.7735
獨住	-10.7736
獨坐	-10.7737
身作證	-10.7741
卵	-10.7749
從坐起而去	-10.775
如說	-10.7751
於眼	-10.7752
生恐怖	-10.7752
受奉行	-10.7752
又不	-10.7767
蔽	-10.7769
有過	-10.777
黑繩	-10.7771
盡當	-10.7774
色陰	-10.7774
各異	-10.7776
陛	-10.7778
共坐	-10.7778
光明照耀	-10.7783
究	-10.7784
不善業	-10.7784
8	-10.7785
賓	-10.7786
諸眾生輩	-10.7786
不得解脫	-10.7786
彼見色光明尋復滅	-10.7788
印	-10.7791
滿財長者	-10.7791
天及魔	-10.7793
守獄者	-10.7793
惡意	-10.7793
不兩舌	-10.7793
阿攝惒邏延多那摩納	-10.7795
阿夷	-10.7797
挽	-10.7797
整	-10.7797
新歲	-10.7797
旨	-10.7797
謙	-10.7798
素	-10.7798
鴦崛髻	-10.7798
映	-10.7799
不如一	-10.7799
膏	-10.7799
超越	-10.7801
恃	-10.7801
保	-10.7801
此事不然	-10.7802
扇	-10.7803
虛偽	-10.7803
捨去	-10.7803
不復更	-10.7803
生善處天上	-10.7804
溝	-10.7804
然其	-10.7806
聖道	-10.7807
阿颰	-10.7807
第九	-10.7808
提婆達多	-10.7809
如應	-10.781
敬順	-10.7811
而食	-10.7812
受無量苦	-10.7815
呪願	-10.7815
法樂比丘尼	-10.7816
園苑	-10.7816
尊者阿難語	-10.7819
氣味	-10.782
乃至自知不受後有	-10.7828
田家	-10.783
即知	-10.7831
躬自	-10.7832
四衢道	-10.7832
於上	-10.7838
不增	-10.784
其國	-10.7841
花實	-10.7841
沙門義	-10.7845
有大功德	-10.7846
成此法	-10.7847
有欲	-10.785
安立	-10.7854
後復	-10.7854
八聖道	-10.7855
不善行	-10.7859
諸國	-10.7859
今有	-10.7868
我等當	-10.7869
五百比丘尼	-10.7872
說是法	-10.7876
兵眾	-10.7878
永盡	-10.7879
床上	-10.7884
開示	-10.7891
天雨	-10.7894
來到	-10.7898
解脫處	-10.7902
善法堂	-10.7904
三千	-10.7906
七處	-10.7906
精勤不懈	-10.791
意生	-10.791
生活	-10.7911
遠來	-10.7912
此亦	-10.7913
聞法已	-10.7919
宮內	-10.7921
梵志種	-10.7936
作此念	-10.7939
穢惡	-10.794
地主	-10.7948
將詣	-10.795
得至	-10.7952
汝言	-10.7953
有差別	-10.7953
是為一	-10.7958
依法	-10.796
彼雖	-10.7962
水火	-10.7968
岸上	-10.797
諸小王	-10.7971
世尊弟子	-10.7972
默然受請	-10.7983
於眾生	-10.7986
如我今日	-10.8003
我於彼	-10.8005
沙門法	-10.8005
不欲令	-10.8009
明了	-10.801
聞聲	-10.8012
於長夜	-10.8013
八字	-10.8015
死人	-10.8017
十善業	-10.8019
自歸佛	-10.8026
谷	-10.8028
無有我	-10.8029
識是我	-10.8029
又如	-10.803
愛法	-10.8037
相好	-10.8037
勢	-10.8038
飢餓	-10.8042
行澡水	-10.8047
電光	-10.8048
群鹿	-10.8051
得光明而見色	-10.8051
尊者浮彌	-10.8053
世之希有	-10.8053
菩薩摩訶薩	-10.8054
赤珠	-10.8054
從人至	-10.8055
偷	-10.8056
關	-10.8056
正身正意	-10.8056
談論	-10.8057
廣長各二千里	-10.8058
童	-10.8058
青蓮華	-10.8058
四大洲	-10.8059
雙樹間	-10.8059
㝹	-10.8059
咄	-10.806
從更復更	-10.806
漸次	-10.8061
迦毘羅衛	-10.8061
敷座而坐	-10.8062
羅雲	-10.8063
瞿耶尼	-10.8063
縮	-10.8064
煩勞	-10.8065
四門	-10.8065
三摩竭	-10.8067
毀謗	-10.8067
摸	-10.8067
濡	-10.8068
過去久遠	-10.8068
辟	-10.8068
十歲	-10.8069
無與等	-10.807
輪迴	-10.8071
田業	-10.8076
如是二三四	-10.8076
以義饒益	-10.8078
調戲	-10.8078
發起	-10.808
於王	-10.808
月八日	-10.808
今以	-10.8083
謂八正道	-10.8083
或一	-10.8084
壽終	-10.8085
墮落	-10.8085
堪忍	-10.8086
娑羅林	-10.8089
自當	-10.809
佛道	-10.8094
無貪	-10.8096
如來正法	-10.8096
夫主	-10.81
無漏心解脫	-10.8103
河水	-10.8103
解義	-10.8103
六師	-10.8103
審諦	-10.8105
昇上	-10.8108
世尊告阿難	-10.8108
其形	-10.811
得大福	-10.8115
空無	-10.8118
不宜	-10.8122
過去事	-10.8122
有幾	-10.8125
邊有	-10.8129
唯除	-10.813
謂四念處	-10.8132
是變易法	-10.8134
共論議	-10.8134
盡知	-10.8138
是汝師	-10.8141
終後	-10.8141
有取	-10.8142
諸小	-10.8143
不至	-10.8146
作大	-10.8149
與之	-10.8151
果證	-10.8152
命終時	-10.8155
無所畏	-10.816
有此三	-10.816
謂我	-10.8161
受歲	-10.8166
頭面	-10.8172
自覺知	-10.8173
此大地	-10.8176
來生此	-10.8177
問訊已	-10.8184
豈非	-10.8188
可行	-10.819
樹枝	-10.819
佛出世	-10.8191
若其	-10.8191
一種	-10.8193
十四日	-10.8198
便得解脫	-10.82
作王	-10.82
一切智	-10.82
娑羅樹	-10.8212
王前	-10.8213
白象	-10.8213
我所說者	-10.8215
無患	-10.8218
惡聲	-10.822
聞世尊所說	-10.822
斷受	-10.8223
有法	-10.8225
如所說	-10.8236
其本	-10.8238
復有餘	-10.8239
除諸亂	-10.824
難陀比丘	-10.8243
於此正法	-10.8243
出家學道者	-10.8244
常在	-10.8253
可見	-10.8254
迦花	-10.8257
訖已	-10.8264
三毒	-10.8267
二三	-10.8282
以此緣	-10.8289
知色	-10.829
或有業能令眾生	-10.8293
腹中	-10.8294
最第一	-10.8296
作諸	-10.8296
能行	-10.8298
三字	-10.8301
莫作	-10.8302
目犍連	-10.8304
日宮殿	-10.8305
識味	-10.8306
生歡喜	-10.8308
萬由旬	-10.8308
天身	-10.8308
拘薩羅	-10.8309
續	-10.8312
誰為	-10.8315
是彼	-10.8316
頃	-10.8317
是為八	-10.8317
深義	-10.8318
如是生	-10.832
清淨心	-10.832
以七寶成	-10.8321
乃有	-10.8323
憍慠	-10.8323
衛	-10.8324
戾	-10.8324
阿奇	-10.8325
宅	-10.8326
於現法中自知自覺	-10.8326
吉凶	-10.8326
鼠	-10.8326
澄	-10.8327
無量方便為彼說法	-10.8327
寐	-10.8328
略說如上	-10.8328
各各自鳴	-10.8328
腦	-10.8329
劫貝	-10.8329
賢者迦旃延	-10.8329
弱	-10.833
案	-10.833
無能及者	-10.833
犁	-10.8331
官	-10.8332
以法治化	-10.8332
菴	-10.8332
因此緣此	-10.8333
舍宅	-10.8333
戱	-10.8333
諂	-10.8333
與大比丘眾千二百五十人俱	-10.8335
撰	-10.8335
我今亦	-10.8335
優波離	-10.8337
迦尸	-10.8338
見諸	-10.8338
墜	-10.8339
真淨王	-10.8339
是已	-10.8339
自相謂言	-10.8339
著三法衣	-10.8342
譯聞如是	-10.8343
籌	-10.8345
淫	-10.8347
斷不與取	-10.835
火坑	-10.8352
因陀羅	-10.8353
所標	-10.8353
孤	-10.8355
畢竟	-10.8355
就坐	-10.8356
生恚	-10.8357
頞波羅延	-10.8358
剎利女	-10.8362
長久	-10.8364
次有	-10.8371
染污	-10.8371
得至涅槃	-10.8375
六界	-10.8377
於佛法中	-10.8377
是故當知	-10.8382
不復受	-10.8382
不出	-10.8385
之子	-10.8395
日光	-10.84
不可行	-10.8401
以何因緣	-10.8402
之衣	-10.8403
常以	-10.8406
將護	-10.8409
千一百	-10.8415
具受	-10.8421
勤苦	-10.8423
緣故	-10.8431
云何為十	-10.8431
縱廣五百由旬	-10.8434
因緣此	-10.8435
苦因	-10.8439
三衣	-10.8439
懷歡喜	-10.8443
族姓	-10.8448
戒具足	-10.8449
一子	-10.8452
身分	-10.8454
須跋	-10.8454
國事	-10.8461
我聞世尊	-10.8462
三名	-10.8465
此是我	-10.8467
有五百	-10.8468
而問	-10.8472
佛身	-10.8474
惡者	-10.8475
地獄苦	-10.8476
神變	-10.8481
謂彼	-10.8483
如是觀者	-10.8485
難提波羅陶師離	-10.8486
心法	-10.8487
身死	-10.8493
共鬪	-10.8497
種種飲食	-10.8502
墮於	-10.8504
盡諸漏	-10.851
從座起去	-10.8512
為弟子	-10.8512
甚善	-10.8513
行盡	-10.852
前行	-10.8521
無二	-10.8523
不堪任	-10.8523
一生	-10.8528
無人	-10.854
愁慼	-10.8545
應當知	-10.8549
作是念言	-10.8555
即是我	-10.856
不得自在	-10.8563
禮足	-10.8566
相謂言	-10.8567
五盛陰	-10.8567
不退轉	-10.8572
叫喚	-10.8572
善者	-10.8574
云何為一	-10.8575
阿難曰	-10.8575
乃至大	-10.8579
其母	-10.8579
安處	-10.858
道行	-10.858
裹	-10.8581
依住	-10.8585
地大動	-10.8593
統	-10.8593
啄	-10.8596
樂行	-10.8598
身上	-10.8598
無為無求	-10.8599
不絕	-10.86
旋	-10.8601
忿	-10.8603
慰	-10.8604
蚊蚋	-10.8604
敵	-10.8604
沙門鳩摩羅迦葉	-10.8604
鬚	-10.8605
𧂐	-10.8605
雜阿含	-10.8606
嗟	-10.8607
趣至惡處	-10.8607
賴	-10.8608
壓	-10.8608
平正	-10.8608
式	-10.8608
謀	-10.8609
吉祥	-10.8609
調御丈夫	-10.8609
有兩	-10.861
捐	-10.861
0	-10.861
談	-10.8611
比丘修習念身	-10.8611
斯人	-10.8612
慎莫	-10.8613
純一滿淨	-10.8614
快哉	-10.8614
王有	-10.8617
跋提	-10.8618
圖	-10.8619
寒熱	-10.8619
聞其所說	-10.8619
即彼	-10.8619
橋	-10.8621
我當為汝	-10.8622
須陀洹果	-10.8623
弊魔	-10.8624
在大眾中	-10.8628
無餘涅槃	-10.8629
敗劫	-10.863
賢者大拘絺羅	-10.863
亦自	-10.8631
言論	-10.8633
親親	-10.8636
清明	-10.8637
作頌	-10.8638
害他	-10.8644
恣意	-10.8645
滅無餘	-10.8647
城內	-10.8647
諸所有色	-10.8648
造立	-10.8648
不苦不樂痛	-10.865
極精勤	-10.8651
入定	-10.8657
若在	-10.8658
頭那	-10.8658
進止	-10.8663
令不生	-10.8666
度一切	-10.8666
授與	-10.867
大聖	-10.8672
大龍	-10.8675
如上所說	-10.8675
得無所畏	-10.8677
最小	-10.8679
念天	-10.8679
於正法中	-10.8679
手中	-10.8682
無福	-10.8684
不清淨	-10.8685
是謂第三	-10.869
欲食	-10.8694
智慧解脫	-10.8697
有自然	-10.8699
從本	-10.8701
身證	-10.8702
」《	-10.8704
與其	-10.8707
空地	-10.8709
守門	-10.8711
習行	-10.8711
地獄諸眾生輩	-10.8711
梵摩	-10.8712
口意	-10.8714
,『	-10.8715
在後	-10.8715
道迹	-10.8719
彼如是知	-10.8724
世尊復說偈	-10.8727
何所起	-10.8728
有何義	-10.8729
邪語	-10.8731
王者	-10.8736
所覺	-10.8741
得道者	-10.8742
智慧成就	-10.8744
來問	-10.8745
欲聞	-10.8749
利根	-10.875
於空	-10.8751
重法	-10.8758
護戒	-10.8758
問訊世尊	-10.876
受快樂	-10.8762
其樹	-10.8763
三惡行	-10.8764
論說	-10.8768
聽汝	-10.8771
靜室	-10.8773
依此	-10.8775
便得安隱	-10.8783
永離	-10.8784
豈不	-10.8785
為己	-10.8788
增上慢	-10.8788
一切諸法	-10.8792
善攝	-10.8795
至得第四禪成就遊	-10.8796
之類	-10.8796
別知	-10.8798
覺想	-10.8799
有明	-10.8801
說此義	-10.881
釋迦文	-10.8813
頂上	-10.8814
所出	-10.8814
不為惡	-10.8814
過患	-10.8814
婆提	-10.8815
義理	-10.8821
現前	-10.8822
有天	-10.8822
復有十	-10.8827
永滅	-10.8827
迦葉比丘	-10.8838
觀視	-10.8843
當遠離	-10.8848
汝欲	-10.885
僧伽	-10.8852
娶	-10.8855
上妙	-10.8856
謂比丘	-10.8858
相似	-10.8861
識界	-10.8864
不別	-10.8865
隨行	-10.8872
其口	-10.8872
阿耨達龍王	-10.8873
九法	-10.8873
玉	-10.8875
愍傷	-10.8884
彼苦行者	-10.8888
聞如來	-10.8888
比丘觀身如身	-10.8888
擎	-10.8892
棘	-10.8892
地中	-10.8892
不孝父母	-10.8892
捫摸	-10.8893
堪耐	-10.8893
婆羅邏	-10.8893
輸屢那	-10.8893
低頭	-10.8895
代	-10.8895
讀	-10.8896
赫	-10.8897
暗	-10.8897
前後圍繞	-10.8897
殖	-10.8899
還來	-10.89
鬪訟	-10.8901
化作五百	-10.8901
禽獸	-10.8902
盡諸有結	-10.8902
著意	-10.8903
護持	-10.8903
今世後世	-10.8903
恭敬供養	-10.8907
往返	-10.8907
滿中	-10.8908
弊魔波旬	-10.8909
來至佛所	-10.891
及比丘眾	-10.891
他信施	-10.8911
中有一	-10.8912
無有猶豫	-10.8913
四海	-10.8915
眼觸因緣生	-10.8915
便生此念	-10.8916
早起	-10.892
豐樂	-10.8922
欝單越人	-10.8924
覺樂	-10.8929
如斯之	-10.8929
食時	-10.8929
不廣分別	-10.8932
三痛	-10.8933
天樂	-10.8936
盡滅	-10.8939
生喜樂	-10.8942
五道	-10.8942
昔有	-10.8943
乞食已	-10.8943
不獲	-10.8944
意根	-10.8946
如有知	-10.8946
作是觀	-10.8946
此沙門瞿曇	-10.8948
當問	-10.8949
內覺	-10.895
二百五十	-10.8954
在一處	-10.8955
於諸善法	-10.8955
阿修羅眾	-10.8955
摩尼寶	-10.8957
赤色	-10.8958
事業	-10.8959
三結	-10.8961
禮佛足已	-10.8963
而為說法	-10.8964
亦復然	-10.8966
緣愛	-10.8968
後生	-10.8973
淨天	-10.8979
緣斯	-10.8979
釋迦文佛	-10.8979
。』『	-10.8981
欲念	-10.8982
竹林	-10.8984
獄中	-10.8987
身行善	-10.8989
行口	-10.8991
是謂第二	-10.8994
繫心	-10.8998
欲漏	-10.8999
能修	-10.9007
得斯陀含	-10.901
無癡	-10.9017
不顛倒	-10.9018
受此行	-10.902
正信	-10.9021
復問言	-10.9025
汝能	-10.9033
不違	-10.9034
復至	-10.9034
具大	-10.9035
法也	-10.9037
我向	-10.9038
不淨想	-10.904
在世間	-10.9041
梵世	-10.9044
斷愛	-10.9044
世尊而說	-10.9045
座上	-10.9047
沙門瞿曇所說	-10.9047
如理	-10.905
乘車	-10.905
苦報	-10.9057
生天之	-10.9062
已度	-10.9066
得入	-10.9072
滅訖	-10.9078
此言	-10.908
彼比丘應	-10.9083
劫中	-10.9083
說斯偈	-10.9084
明淨	-10.9084
斷一切	-10.9086
具足清淨	-10.9086
流水	-10.9095
我本所	-10.91
道諦	-10.9101
於法得	-10.9102
以智慧	-10.9103
受陰	-10.9105
毘婆尸如來	-10.9112
其數	-10.9114
四天王天	-10.9126
而般涅槃	-10.9134
葬	-10.9137
今可	-10.9137
謂八聖道	-10.9141
是等	-10.9143
㮈	-10.9147
持衣鉢	-10.9147
二字	-10.9149
高大	-10.9157
七十	-10.9157
誣謗	-10.9157
贖命	-10.9158
中道	-10.9158
火中	-10.9165
奈	-10.917
力故	-10.9171
一坐食	-10.9172
掌	-10.9173
意善行	-10.9175
極大富樂	-10.9175
馬王	-10.9176
生不善念	-10.9177
依此林住	-10.9177
瑞	-10.9177
周匝圍繞	-10.9179
惒	-10.918
各各相	-10.9181
修無上梵行	-10.9181
兜	-10.9181
建	-10.9181
四十里	-10.9182
捨於	-10.9182
加赦國王梵摩達哆	-10.9182
頻毘娑羅王	-10.9183
肘	-10.9184
綖	-10.9185
慙愧	-10.9185
拔絕	-10.9186
擯	-10.9186
殊特	-10.9187
增其	-10.9187
優陀耶	-10.9187
鹽	-10.9188
罵辱	-10.9188
聞我	-10.9188
鏡	-10.9189
阿羅呵	-10.9189
斂	-10.9189
津	-10.9189
爾許	-10.9189
考	-10.919
呪術	-10.919
樓閣	-10.919
復有叢樹名	-10.919
得甘露味	-10.9191
尊者大迦葉	-10.9191
脊	-10.9191
恥	-10.9191
洗鉢	-10.9192
清徹	-10.9192
欣悅	-10.9192
鑊	-10.9192
長夜安樂	-10.9194
乾闥婆	-10.9194
而可	-10.9194
疲極	-10.9195
別譯	-10.9196
祭祀	-10.9198
說微妙法	-10.9199
共集	-10.92
自證	-10.92
踊躍歡喜	-10.9201
澆	-10.9201
汝知	-10.9202
受是	-10.9203
沙門釋子	-10.9204
摩納磨	-10.9204
所愛	-10.9204
墮三惡趣	-10.9204
所從來	-10.9207
已住	-10.9207
以教	-10.9208
色受陰	-10.9209
堂上	-10.9213
指鬘	-10.9214
覆藏	-10.9216
提婆	-10.9217
退減	-10.9222
如是此	-10.9223
作嬈亂	-10.9223
住王舍城	-10.9226
長遠	-10.9226
還于	-10.9228
自娛樂	-10.923
正向	-10.9235
聞說	-10.9237
求利	-10.9238
月十五日	-10.9239
我心中	-10.9247
為沙門	-10.9248
生人中	-10.9249
諸惡業	-10.925
當取	-10.9251
我等今日	-10.9262
賢劫	-10.9268
無缺	-10.9269
六種	-10.9283
消盡	-10.9286
明智	-10.9287
自生	-10.929
異見	-10.9291
如實法	-10.9291
二分	-10.9291
無色愛	-10.9294
有病	-10.9296
聽我說	-10.9298
日一食	-10.9308
一切苦	-10.9308
法師	-10.931
取之	-10.9313
之意	-10.9314
大目連	-10.9321
便作是說	-10.9323
不止	-10.9323
之食	-10.9324
好喜	-10.9326
未離	-10.933
梵摩達王	-10.9332
若善男子	-10.9339
有疑惑	-10.934
觀身	-10.9342
藍	-10.9343
智慧人	-10.9346
有眾多	-10.9346
初生	-10.9349
彼轉輪王	-10.9351
比丘所行	-10.9356
起瞋恚	-10.9356
隨心	-10.9358
修習於	-10.9359
共居	-10.936
不脫	-10.936
都不	-10.936
受用	-10.9363
住世	-10.9365
縛著	-10.9367
汝云何	-10.9374
懷愁憂	-10.9379
兩手	-10.9379
平旦	-10.938
實是	-10.938
已知我心	-10.9384
唯佛	-10.9385
自往	-10.9388
有也	-10.939
我曾	-10.939
千六百	-10.9392
我在	-10.9395
當盡	-10.9402
法教	-10.9404
我於此	-10.9405
大仙	-10.9408
來世	-10.9412
諸經	-10.9412
汝今可	-10.9412
畏怖	-10.9413
惡慧	-10.9414
或依	-10.9414
離愛	-10.9416
自當知	-10.9424
自樂	-10.9425
其命	-10.9427
苾芻眾	-10.943
在眾中	-10.9431
信解脫	-10.9433
復還	-10.9439
詣向	-10.9444
三惡	-10.9447
為緣	-10.9458
商	-10.9461
為天	-10.9471
以欲為本	-10.9474
得十種功德	-10.9476
無後死	-10.9477
屎	-10.9477
才	-10.9478
其家	-10.948
鞞陀提	-10.948
糞掃衣	-10.9481
叫	-10.9482
定生喜	-10.9482
主兵臣寶	-10.9483
長生太子	-10.9484
馬師	-10.9484
金銀珍寶	-10.9486
生盲	-10.9486
優鉢	-10.9487
羯	-10.9489
饒財多寶	-10.9489
即於座上	-10.9489
舍衛城中	-10.9489
是故汝等	-10.9489
飽	-10.9489
束	-10.9489
憐愍	-10.949
應時	-10.949
各各和鳴	-10.949
雹	-10.949
弘	-10.949
威儀禮節	-10.9491
煑	-10.9491
其身光明遍照	-10.9491
上中下	-10.9492
淳陀	-10.9492
及法	-10.9492
非有邊非無邊	-10.9492
庶	-10.9492
此色	-10.9493
無有厭足	-10.9493
悔恨	-10.9493
絃	-10.9493
入晝正受	-10.9493
若不爾者	-10.9493
八正道	-10.9494
在閑靜之處	-10.9495
以是緣故	-10.9495
屍	-10.9496
有義有	-10.9496
以信堅固	-10.9496
夜摩天	-10.9496
得力得	-10.9496
役	-10.9496
命即是身	-10.9497
甞	-10.9497
快得善利	-10.9498
髏	-10.9498
未至	-10.9498
四正斷	-10.9499
彌醯	-10.9499
駛流	-10.9499
佛在王舍城迦蘭陀竹林	-10.9499
尼揵子	-10.95
當修行一法	-10.9501
恐畏	-10.9501
分衛	-10.9501
從癡	-10.9501
有種種樹	-10.9503
騎乘	-10.9505
如是一切善法	-10.9506
我便	-10.9507
親近善知識	-10.9509
空閑處	-10.9511
集講堂	-10.9512
便問	-10.9514
潔	-10.9516
百阿那含	-10.9523
有此法	-10.9523
百正見人	-10.9526
終身行	-10.9527
得無為	-10.9529
二萬	-10.953
所相	-10.9533
具戒	-10.9534
竟亦	-10.9539
諸末羅	-10.9543
尊長	-10.9545
不苦不樂覺	-10.9547
熏修	-10.9548
復有一	-10.9549
教誨	-10.9549
向上	-10.955
有王名	-10.9558
四名	-10.9558
象舍利弗	-10.9562
觀覺	-10.9564
為癡	-10.9568
復有諸	-10.9569
諸離車	-10.957
最初	-10.9571
實為	-10.9572
觀內	-10.9578
在地	-10.9588
天文	-10.9592
釜中	-10.9592
惶	-10.9593
何等為七	-10.96
口惡行	-10.9601
之聲	-10.9602
惡名	-10.9611
成佛道	-10.9611
口出	-10.962
敷床	-10.9621
頭上	-10.9623
詣尊者阿難所	-10.9623
光明照	-10.9624
以刀	-10.9626
不順	-10.963
向涅槃	-10.9633
諦受	-10.9635
經典	-10.9636
無益	-10.9638
極有	-10.9638
學力	-10.964
彼知此	-10.9642
種種界	-10.9643
見人	-10.9643
牧	-10.9646
耳鼻	-10.9654
共行	-10.9656
所犯	-10.9656
王有子	-10.9657
不惑	-10.9658
以天眼	-10.9664
依離	-10.9665
以此義	-10.9665
此即是	-10.9669
黑白	-10.9677
若有問	-10.9679
口業	-10.9684
斷者	-10.9686
此食	-10.9689
至再三	-10.969
七子	-10.969
尊貴	-10.9692
云何為七	-10.9697
入已	-10.9701
於內	-10.9703
相與	-10.9704
亦當知	-10.9707
生長	-10.971
其土	-10.9711
鉗	-10.9726
此名為	-10.9726
從是致	-10.9728
山頂	-10.973
觸生	-10.9731
顧視	-10.9733
晡時	-10.9737
佛所說	-10.9738
無義	-10.9738
見其	-10.9739
一食	-10.974
法說	-10.9749
現神足	-10.9753
彼天神	-10.9753
伽陀	-10.9754
異道	-10.9754
是謂第一	-10.9756
令斷	-10.9757
常有	-10.9759
迴轉	-10.976
又言	-10.9763
▁2	-10.9768
乾陀	-10.977
納	-10.9774
如佛所說	-10.9779
兵仗	-10.978
其罪	-10.9783
幡	-10.9784
作意	-10.9785
捨心	-10.9786
竊	-10.9787
羞	-10.9787
成無上	-10.9788
欲問	-10.9788
事火	-10.979
犢	-10.9793
遍照	-10.9793
雄	-10.9793
獵師眷屬	-10.9794
俱致年	-10.9797
族姓女	-10.9797
蠅	-10.9799
成敗	-10.9799
迦蘭陀竹園	-10.9801
手自斟酌	-10.9801
不異我	-10.9801
米穀	-10.9802
垢穢	-10.9803
儉	-10.9803
高百由旬	-10.9804
僧伽羅摩	-10.9804
成大果報	-10.9805
復白	-10.9805
坐於	-10.9805
尼師壇	-10.9805
調笑	-10.9805
明行足	-10.9806
稟	-10.9806
東面	-10.9806
汗	-10.9807
我從今日	-10.9807
得修梵行	-10.9807
泡	-10.9807
i	-10.9807
朋	-10.9808
謝	-10.9808
八萬四千由旬	-10.9808
良福田	-10.9808
從受復受	-10.9808
宗親	-10.9809
遷	-10.9809
財貨	-10.9809
樹神	-10.981
淺	-10.9811
長夜輪轉	-10.9811
腐敗	-10.9812
今欲	-10.9813
何所見我	-10.9813
擇法覺分	-10.9813
我於今者	-10.9814
掠	-10.9814
隱覆	-10.9815
我等寧可	-10.9815
財產	-10.9816
悅澤	-10.9816
修諸善法	-10.9816
川	-10.9816
地神	-10.9816
差摩比丘	-10.9817
敷演	-10.9817
幻化	-10.9817
捷疾具足	-10.9817
遍覆	-10.9817
千三百	-10.982
萬物	-10.9821
識受陰	-10.9821
可憙	-10.9822
他心智	-10.9823
若無常者	-10.9825
兩足	-10.9825
令歡喜	-10.9826
和順	-10.9826
宜速	-10.9828
如餘沙門	-10.9833
五百乘車	-10.9834
沙門瞿曇弟子	-10.9834
使令	-10.9836
已竟	-10.9837
東向	-10.9839
所住處	-10.9842
唯願世尊聽	-10.9843
念已	-10.9845
眾生生	-10.985
能起	-10.9851
國中有	-10.9852
即前	-10.9852
受佛	-10.9853
可忍	-10.9856
雷電	-10.9861
以此方便	-10.9863
稍	-10.9864
善覺	-10.9865
斷生死	-10.9865
亦不說	-10.9867
罪故	-10.9869
我家	-10.9876
不習近	-10.9876
用作	-10.9878
入地獄中	-10.9878
毘舍離城	-10.9878
相連	-10.9879
愍念	-10.9882
若說	-10.9883
得無漏	-10.9884
別有	-10.9885
清淨行	-10.9888
閻浮地	-10.9891
風雨	-10.9891
諸力士	-10.9892
和上	-10.9896
羅陀比丘	-10.9902
報之	-10.9903
諸大眾	-10.9903
來還	-10.9906
諸鬼神	-10.9909
此五法	-10.9911
能降伏	-10.9923
家家	-10.9928
大國	-10.9933
所生處	-10.9933
四字	-10.9936
入于	-10.9937
便入	-10.9937
不可樂	-10.994
得證	-10.9942
彼當	-10.9944
或著	-10.9944
五戒	-10.9947
諸比丘僧	-10.9947
若魔	-10.9949
五日	-10.9951
身善行	-10.9953
俱解脫	-10.9953
次第而	-10.9958
輪轉	-10.9959
閻浮提人	-10.9963
入水	-10.9973
種種供養	-10.9974
佛告長者	-10.9977
若有此	-10.9978
自安	-10.9982
及後世	-10.9984
歡喜心	-10.9985
邪行	-10.9988
應奉事	-10.9988
若因	-10.9989
意在	-10.9991
得果	-10.9992
修心	-10.9993
口生	-11.0002
皆歡喜	-11.0002
常法	-11.0002
以知	-11.0006
一切諸行	-11.0014
欲何所	-11.0019
遣使	-11.0022
勤方便	-11.0023
廣長	-11.0025
善解脫	-11.0038
之日	-11.004
心常	-11.0041
供養沙門	-11.0048
證知	-11.005
王女	-11.0053
施食	-11.0056
之相	-11.0058
極惡	-11.006
不好	-11.0061
既見	-11.0061
得生天	-11.0075
求道	-11.0079
毘婆尸	-11.0081
王宮	-11.0082
瞿曇沙門	-11.0083
諸家	-11.0089
彼樹	-11.0094
慙	-11.0094
入涅槃	-11.0096
蹈	-11.0099
勝法	-11.01
染著心	-11.0101
便捨而去	-11.0103
中後	-11.0109
甲	-11.0109
巷	-11.0111
與佛	-11.0112
汝當為諸年少比丘說	-11.0115
亦皆	-11.0118
波羅奈	-11.0119
〔	-11.012
乃至無數眾鳥相和而鳴	-11.0122
羞恥	-11.0122
露地經行	-11.0123
弗	-11.0123
有邊無邊	-11.0123
和雅	-11.0123
姦	-11.0123
世尊說此頌	-11.0124
此識身及外境界一切相	-11.0124
所生之處	-11.0125
當廣布一法	-11.0125
項	-11.0125
身身觀念住	-11.0125
野干	-11.0126
默然不答	-11.0126
顯現梵行	-11.0126
幸	-11.0126
荼	-11.0126
不作是念	-11.0126
清信士	-11.0126
固	-11.0127
嚕	-11.0127
揚	-11.0127
檀越施主	-11.0128
夫婿	-11.0129
章	-11.0129
良醫	-11.013
寬	-11.013
錯	-11.0131
舞	-11.0131
塔寺	-11.0131
何所有故	-11.0131
晚	-11.0131
四萬二千由旬	-11.0132
促	-11.0132
入王舍城乞食	-11.0132
輕賤	-11.0133
慮	-11.0133
拘牢婆王	-11.0133
不知苦之本際	-11.0133
毛竪	-11.0134
形像	-11.0135
梯	-11.0136
醫藥	-11.0136
誹謗賢聖	-11.0137
莊嚴其身	-11.0137
于時	-11.0138
禍	-11.0138
四部兵	-11.014
形貌	-11.0141
唯有一	-11.0142
香美	-11.0142
修多羅	-11.0145
犬	-11.0145
皆大歡喜	-11.0145
邪志	-11.0146
貪欲蓋	-11.0148
不得久住	-11.0149
一向記	-11.0152
恒伽	-11.0152
大聲聞	-11.0156
卷上	-11.0157
堅實	-11.0158
正理	-11.0158
則滅	-11.0159
食後	-11.0161
為賊	-11.0162
如之何	-11.0163
散壞	-11.0166
神德	-11.0167
持禁戒	-11.0169
諸比丘聞	-11.0171
兇惡	-11.0172
邪方便	-11.0174
美色	-11.0175
劫數	-11.0176
復能	-11.0177
四王天	-11.0177
往到	-11.0179
有勝如	-11.018
倍復	-11.0186
可說	-11.0187
三十六	-11.0193
居止	-11.0195
依遠離	-11.0196
有五種	-11.02
眼滅	-11.0201
停住	-11.0202
何等為八	-11.0205
六百由旬	-11.0206
成劫	-11.0206
愛緣	-11.0207
所害	-11.0207
樹下坐	-11.0208
不空	-11.0208
哀愍故	-11.0209
說此語	-11.0209
斯陀含果	-11.0209
取命終	-11.0214
難解	-11.0215
更無餘	-11.0223
白銀	-11.0225
一向樂	-11.0228
二月	-11.0228
行身惡行	-11.0228
。」《	-11.0229
世尊默然受請	-11.0229
尸婆	-11.0233
放捨	-11.0235
曉了	-11.0236
富樂	-11.0238
二處	-11.024
餘罪	-11.0246
防護	-11.0255
有煩	-11.0255
如是展轉	-11.0261
或復有時	-11.0262
大患	-11.0264
不語結	-11.0267
在王舍城	-11.0267
專一	-11.0269
尋時	-11.0272
不傾動	-11.0276
於中起	-11.0278
欲入	-11.0284
求於	-11.0285
無緣	-11.0288
亦善	-11.0288
此兒	-11.0293
大梵	-11.0294
為妙	-11.0298
諸神	-11.0302
持是	-11.0303
應知	-11.0305
不乎	-11.0307
無有人民	-11.0308
昔所	-11.0308
村中	-11.0314
有四事	-11.0316
樂滅	-11.0321
受我請	-11.0325
得度世	-11.0328
所更	-11.0329
想念	-11.0334
念過去	-11.0335
欲詣	-11.0339
聞此語	-11.034
在人間	-11.034
隨意所	-11.0345
如日	-11.0354
所持	-11.0355
五十由旬	-11.036
不觀	-11.0361
婆蹉	-11.0362
是智	-11.0364
若比丘眾	-11.0366
政	-11.038
那伽	-11.0381
城外	-11.0384
久久	-11.0385
法句	-11.0388
駕乘	-11.0392
可喜	-11.0395
受我	-11.0395
汝先	-11.0396
無所受	-11.0397
轉相	-11.0399
莊	-11.0412
滅之	-11.0416
敬待	-11.0416
宮門	-11.0419
已除	-11.042
何謂為	-11.042
是央掘魔	-11.0421
即從	-11.0424
於己	-11.0424
香花	-11.0425
若行者	-11.0428
輔相	-11.0429
謂言	-11.0432
彼命終	-11.0434
汝頗	-11.0439
匝	-11.044
恐懼	-11.044
比丘起發牛角娑羅林	-11.0445
阿濕貝	-11.0446
若族姓子	-11.0447
后	-11.0447
胸	-11.0447
那提迦	-11.0447
識神	-11.0448
身體輕便	-11.0449
饌	-11.0449
彌薩羅	-11.0449
辨	-11.0449
今得	-11.045
地上	-11.045
現法樂居	-11.0451
能捨惡	-11.0451
山巖	-11.0452
諸智梵行者	-11.0452
炷	-11.0452
漸損	-11.0453
三千大千世界	-11.0453
〕-【	-11.0454
自有財物	-11.0454
婆悉吒	-11.0455
燋爛	-11.0455
燥	-11.0455
他家	-11.0455
大樂	-11.0455
澡洗	-11.0456
難詰	-11.0456
騰	-11.0458
優鉢羅花	-11.0458
藕根	-11.0458
輦	-11.0458
浣	-11.0458
念戒	-11.0458
斷疑度惑	-11.0459
麻油	-11.0459
軀	-11.0459
詰	-11.046
靜默	-11.046
繁茂	-11.046
涉	-11.046
賀	-11.046
選擇	-11.0461
法法觀念住	-11.0461
如律業	-11.0461
阿梨吒	-11.0462
明旦	-11.0463
澡	-11.0463
汝所修行	-11.0464
尼乾子	-11.0464
裟	-11.0465
且置	-11.0465
耨	-11.0465
輙	-11.0465
ā	-11.0465
寂無音	-11.0466
可敬	-11.0466
啼	-11.0466
幼	-11.0467
若汝等	-11.0469
諸根寂靜	-11.0469
剃頭	-11.0469
流注	-11.047
瓜	-11.047
佛告摩訶男	-11.0471
悉入	-11.0471
利劍	-11.0472
外觀色	-11.0472
好醜	-11.0472
亦知彼天如是	-11.0472
不可恃怙	-11.0474
響	-11.0475
百種	-11.0475
痛痒	-11.0476
稱量	-11.0476
就座	-11.0476
卷下	-11.0477
鞞舍	-11.0478
不毀	-11.0481
納受	-11.0482
周匝無量	-11.0482
不作惡業	-11.0483
低舍	-11.0485
彼愚癡人	-11.0486
象力	-11.0488
無有餘	-11.049
苦哉	-11.049
華實	-11.049
作師子吼	-11.0491
夫婦	-11.0492
窟中	-11.0493
變異	-11.0494
恒河	-11.0495
妙好	-11.0495
設我	-11.0496
通利	-11.05
是謂第五	-11.0502
見王	-11.0506
此念	-11.0507
分散	-11.0508
甘美	-11.051
如故	-11.0513
是謂第四	-11.0515
於諸天	-11.0517
或於	-11.0517
老死滅	-11.0517
無他	-11.0518
更求	-11.0518
諸漏盡	-11.052
有名色	-11.0523
王及	-11.0523
念者	-11.0524
專念	-11.0526
害念	-11.0526
並皆	-11.0527
給使	-11.0529
無數百千	-11.0531
有恐怖	-11.0532
念力	-11.0533
起大	-11.0533
淨居	-11.0534
不可量	-11.0534
舉聲	-11.0535
身妙行	-11.0542
即取	-11.0543
比丘尼成就	-11.0546
田作	-11.0547
出種種香	-11.0547
餘沙門	-11.0548
此二法	-11.055
名曰善	-11.0552
承受	-11.0555
可畏	-11.0559
諸比丘眾	-11.0559
除諸	-11.056
欲意	-11.0562
說是語	-11.0568
大熱	-11.0569
無有能	-11.0574
下車	-11.0577
求自	-11.0581
舍羅	-11.0584
離此	-11.0597
二邊	-11.06
無有異	-11.06
命過	-11.0604
少壯	-11.0606
不恚	-11.0609
可念	-11.0611
畏懼	-11.0611
不染著	-11.0612
入室	-11.0613
此閻浮提	-11.0615
住立	-11.0616
身更	-11.0626
不近	-11.0626
住舍衛國	-11.0629
得成	-11.0631
岸邊	-11.0631
除滅	-11.0633
意所念	-11.0634
無信	-11.0635
上尊	-11.0637
所思	-11.0639
告苾芻眾	-11.064
鸚鵡摩納	-11.0641
昨日	-11.0642
不可見	-11.0657
邪道	-11.0657
三人	-11.067
曾聞	-11.0677
八日	-11.068
墮地	-11.0685
清淨梵行	-11.0685
上虛空中	-11.0685
名色滅	-11.0686
受福	-11.0687
下意	-11.069
有慧	-11.069
老母	-11.0691
訶責	-11.0692
退法	-11.0709
勤精進	-11.0722
是名如來	-11.0722
異道人	-11.0723
劍樹	-11.073
可修	-11.0732
但以	-11.0742
緣觸	-11.0751
如法說	-11.0753
老病死	-11.0761
後誦	-11.0765
其最後王	-11.0766
而歸	-11.0769
非智	-11.0773
欲還	-11.0775
廟	-11.0776
不爾	-11.0781
非聖	-11.0784
列	-11.0785
洞	-11.0787
則法不衰	-11.0789
膚	-11.079
不離欲	-11.0791
刈	-11.0791
若為諸年少比丘說教此	-11.0792
有限	-11.0794
我本為汝說	-11.0794
欲起	-11.0794
聾	-11.0796
欝多囉究留人輩	-11.0796
相應念想	-11.0796
斯惒提	-11.0797
獻	-11.0798
秋	-11.0798
摩訶迦旃延	-11.0798
裏	-11.0798
萎	-11.0798
闍維	-11.0799
憍尸迦	-11.0799
研	-11.0799
在一面住	-11.08
基	-11.0801
從燕坐起	-11.0801
街巷	-11.0801
十號具足	-11.0802
補	-11.0802
憐念	-11.0802
八千里	-11.0803
浮彌	-11.0803
間錯	-11.0803
剃髮	-11.0803
樹葉	-11.0804
狹	-11.0804
卑賤	-11.0804
有憂慼邪行	-11.0804
寡	-11.0804
捨覺支	-11.0804
嬉戲	-11.0805
亦二岐道	-11.0805
裸形	-11.0805
憍陳如	-11.0806
佛住波羅㮈國仙人住處鹿野苑中	-11.0806
抄	-11.0807
俱盧奢	-11.0807
覓	-11.0807
合掌向佛	-11.0807
坌	-11.0807
如上三經	-11.0808
匿	-11.0808
寢	-11.0808
步兵	-11.0808
來詣我所	-11.081
晨	-11.081
宛轉	-11.081
宮殿住處	-11.0811
玄	-11.0811
板	-11.0811
三藐三佛陀	-11.0811
菴婆羅	-11.0811
為弟子說法	-11.0812
閻浮車問舍利弗	-11.0812
摩訶卑耶和題俱曇彌	-11.0812
頻婆娑羅王	-11.0813
隨使死	-11.0813
高樓上	-11.0814
憂悲苦惱	-11.0814
有三事勝	-11.0815
愍傷世間	-11.0815
斯事	-11.0815
生死長遠	-11.0817
無濁	-11.0817
孤獨	-11.0818
誤	-11.0818
總持	-11.0818
葢	-11.0818
令心	-11.0819
正謂此	-11.082
帶	-11.0822
祠祀	-11.0822
熱鐵丸	-11.0824
此三種	-11.0825
夏坐	-11.0825
可厭患	-11.0826
消息	-11.0826
尊者烏陀夷	-11.0826
三菩提	-11.0827
增進	-11.0829
如是思惟	-11.0829
佛法僧	-11.083
徒眾	-11.083
叢林	-11.0831
奈何	-11.0833
憎愛	-11.0834
修諸梵行	-11.0834
離生喜樂	-11.0836
善說法	-11.0837
眾具	-11.0837
慈悲心	-11.0838
不能答	-11.084
為彼說法	-11.0841
時王	-11.0842
於汝等	-11.0844
入三摩地	-11.0845
憎惡	-11.0846
隨所欲	-11.0847
樂聞	-11.0848
離越	-11.085
生三十三天	-11.0853
入定意	-11.0856
不顧	-11.086
忉利天上	-11.0863
老苦	-11.0864
不向	-11.0866
此五盛陰	-11.0867
深法	-11.0869
移動	-11.0873
二千	-11.0875
釋子	-11.0878
如是眾生	-11.0878
諸比丘等	-11.0879
斷知	-11.0879
瓦石	-11.088
於世尊所	-11.088
十九	-11.088
令坐	-11.0884
中所有	-11.0884
謂八支聖道	-11.0884
財利	-11.0894
自然生	-11.0903
之罪	-11.0905
修羅	-11.0907
大風起	-11.0912
受集	-11.0913
惡馬	-11.0918
如來說法	-11.092
至究竟	-11.0927
汝勿	-11.0927
諸阿須倫	-11.0927
諸年少	-11.093
王告	-11.0932
人輩	-11.0932
所記	-11.0934
是謂此人	-11.094
有異道人	-11.0942
是耳	-11.0944
十七字	-11.0944
亂心	-11.0951
心自念	-11.0951
大士	-11.0951
攝心	-11.0954
邪智	-11.0964
之數	-11.0965
悅樂	-11.0969
八為	-11.0971
念誦	-11.0974
成等正覺	-11.098
還去	-11.0983
具說	-11.0986
若坐	-11.0992
世世	-11.0994
或見	-11.0994
汝父	-11.0994
無苦	-11.0995
無主	-11.0998
當善受持	-11.0999
猶故	-11.1005
此非我	-11.1011
火災	-11.1013
有是法	-11.1014
極淨	-11.1015
薩羅	-11.1016
樂欲	-11.1016
光天	-11.1017
二十一	-11.1029
歸法	-11.103
其宮	-11.1032
根門	-11.1033
我因	-11.1037
過去諸佛	-11.1039
諸山	-11.1039
二比丘	-11.1045
所化	-11.1046
王意	-11.1052
善戒	-11.1054
緣彼	-11.1064
即將	-11.1073
無念	-11.1074
四姓	-11.1077
此身中	-11.1084
其聲	-11.1088
作如是論	-11.1093
共語	-11.1095
同學	-11.1098
從愛	-11.1109
定力	-11.1109
能滅	-11.112
其味	-11.112
修道	-11.1121
宜可	-11.1122
妙音	-11.1126
一面坐	-11.113
有禪	-11.1133
城名	-11.1139
是故我今	-11.114
願王	-11.114
車馬	-11.1143
受人信施	-11.1143
所用	-11.1144
琉璃及水精	-11.1144
鐵丸	-11.1146
若多聞聖弟子	-11.1146
弗那婆修	-11.1146
猶如王及大臣有	-11.1148
耀	-11.1148
二十億耳	-11.115
顏貌端政	-11.115
戴	-11.1151
巨	-11.1151
瞿陀尼洲	-11.1153
葉華實	-11.1154
食噉含消	-11.1155
無惱	-11.1155
剃	-11.1155
能壞	-11.1155
向法次法	-11.1155
拘娑羅國王長壽	-11.1156
摩竭提	-11.1156
勇健	-11.1158
斗	-11.1159
集在一處	-11.1159
麤細	-11.1159
法相應	-11.1159
八十種好	-11.116
訓誨	-11.116
仙餘財主	-11.116
陂	-11.116
我慢繫著使	-11.116
煩惱隨增	-11.116
瞿曇彌大愛	-11.116
脈	-11.1161
姿	-11.1161
默然不對	-11.1161
隨使使	-11.1161
諸善普至	-11.1161
賞	-11.1161
壽命極長	-11.1162
作倡伎樂	-11.1162
梵身天	-11.1163
受夏坐	-11.1163
菓	-11.1163
受持學戒	-11.1163
強耆	-11.1164
受命	-11.1164
拏	-11.1164
香潔	-11.1164
若諸梵行來問	-11.1164
割截	-11.1165
講論	-11.1165
絡	-11.1165
四意斷	-11.1165
曼	-11.1166
古昔	-11.1166
賓頭盧	-11.1166
支提	-11.1167
階道	-11.1167
侶	-11.1168
來生人間	-11.1168
儻	-11.1168
銜	-11.1168
飄	-11.1168
煩熱	-11.1168
招	-11.1169
戲笑	-11.1169
旬	-11.1171
蓮花	-11.1172
屠牛	-11.1173
衰老	-11.1173
熟視	-11.1173
貪嗜	-11.1174
迫	-11.1174
約	-11.1176
心生歡喜	-11.1177
皆是阿羅漢	-11.1178
羹	-11.1178
中阿含	-11.1178
佛告犢子	-11.118
中夭	-11.118
諸仙	-11.1181
婬怒癡	-11.1182
惡露	-11.1183
恒在	-11.1185
無放逸	-11.1187
得大利	-11.1188
無有空缺	-11.1188
乃可	-11.1189
塔廟	-11.119
石山	-11.1191
不擇	-11.1192
死亡	-11.1192
作方便	-11.1193
唯世尊	-11.1195
卵生	-11.1195
之頃	-11.1197
正勤	-11.1198
頭髮	-11.1198
願未來	-11.12
露坐	-11.1203
欲度	-11.1206
賴吒和羅言	-11.1208
斷三結	-11.1209
四人	-11.1209
其面	-11.1214
此跡	-11.1219
離垢	-11.1219
若有惡	-11.1222
入第四禪	-11.1223
之家	-11.1225
諍事	-11.1226
厭足	-11.1231
我憶	-11.1232
清淨法	-11.1234
告阿難	-11.1236
為最上	-11.1237
五日出	-11.1238
作此說	-11.1248
言教	-11.1249
十二種	-11.1254
意故	-11.1257
有大智慧	-11.1257
已畢	-11.1258
他受	-11.1261
象師	-11.1264
破戒	-11.1264
則以	-11.1266
識陰	-11.1267
說是偈	-11.1269
周行	-11.1274
妄想	-11.1283
諸聲聞	-11.1286
四百	-11.1288
往語	-11.1289
得免	-11.1294
并諸	-11.1296
起想	-11.1297
奉侍	-11.1298
此二人	-11.1301
至後世	-11.1303
常安隱	-11.1306
道也	-11.1307
斯由	-11.1308
池側	-11.1309
相觸	-11.1309
聞佛說	-11.1316
歸依佛	-11.1318
我與世	-11.132
或從	-11.1322
入般涅槃	-11.1325
解知	-11.1335
盡壽	-11.1337
息止	-11.1337
梵摩達	-11.1344
如是悲	-11.1348
有苾芻	-11.1349
正慧	-11.1352
此山	-11.1353
隨彼	-11.1354
身行惡	-11.1354
不隨時	-11.1368
上首	-11.1368
入內	-11.1368
大明	-11.1376
何集	-11.1393
到彼	-11.1394
諸童子	-11.1397
為有我	-11.1403
悉共	-11.1405
婆羅門食	-11.141
若異	-11.1415
勝前	-11.1415
胎生	-11.1416
復有一種沙門婆羅門	-11.1419
度脫	-11.1428
善聽	-11.143
現在世	-11.1444
十一字	-11.1447
患故	-11.1448
慧眼	-11.145
諮	-11.1451
所患	-11.1451
得一心	-11.1455
不明	-11.146
舒	-11.146
一毛	-11.1463
不廢	-11.147
諸婇女	-11.147
而不能	-11.1487
於彼處	-11.1488
不妄	-11.1491
恭	-11.1493
所治	-11.1495
火種	-11.1495
比丘對	-11.1498
彼比丘應如是	-11.15
相習近	-11.1501
利故	-11.1503
給孤獨	-11.1503
莫念	-11.1508
其有人	-11.1508
去地	-11.1512
汝從何來	-11.1513
闡陀	-11.1515
地種	-11.1515
當令	-11.1517
塹	-11.1518
末羅	-11.1518
過惡未解故不死	-11.1518
柱栿	-11.152
賢聖八品道	-11.152
園觀浴池	-11.152
漢	-11.1521
舌知味	-11.1522
彼亦如是	-11.1523
煎	-11.1524
麗	-11.1524
不憙	-11.1525
睒	-11.1525
無覺無觀	-11.1525
陸	-11.1525
過中食	-11.1526
念覺支	-11.1526
善受善持	-11.1526
官屬	-11.1528
奔茶梨迦	-11.1528
若在家者	-11.1529
遵	-11.1529
穴	-11.1529
蕩	-11.1529
良田	-11.153
欄	-11.153
洪	-11.153
屏處	-11.153
波頭摩	-11.1531
七日七夜	-11.1531
捨戒罷道	-11.1531
願樂欲聞	-11.1531
傾	-11.1531
乃至車𤦲馬瑙等寶	-11.1531
綵	-11.1531
復起	-11.1532
瑪瑙	-11.1532
貨	-11.1533
楞	-11.1533
有流	-11.1533
唐	-11.1533
牟	-11.1533
摩訶拘絺羅	-11.1534
往詣長者家	-11.1534
獲沙門果	-11.1534
少食	-11.1534
生聞梵志	-11.1534
升	-11.1535
羽	-11.1535
申	-11.1535
拘隣	-11.1535
掩	-11.1535
兜術天	-11.1536
饍	-11.1536
肉段	-11.1536
見是相已	-11.1536
練	-11.1537
大風	-11.1537
多有人民	-11.1537
大鐵	-11.1537
悲號	-11.1537
起居輕利	-11.1538
愈	-11.1538
復云何業	-11.1538
均	-11.1538
三耶三佛	-11.1538
鬘童子	-11.1539
皆悉知之	-11.1539
神通力	-11.154
開悟	-11.154
自娛	-11.1541
問之	-11.1542
東西南北	-11.1543
故稱	-11.1543
聖體	-11.1543
日天宮殿	-11.1543
完具	-11.1543
入滅盡定	-11.1545
紹	-11.1546
長幼	-11.1546
誠實	-11.1546
究羅檀頭	-11.1546
臣佐	-11.1547
得善利	-11.1549
毗舍佉優婆夷	-11.155
轉向苦邊	-11.155
定覺分	-11.155
露遮	-11.1551
晝日	-11.1552
梵童子	-11.1553
無量惡不善之法	-11.1553
盡無餘	-11.1554
無數方便	-11.1555
於善法	-11.1555
出遊	-11.1555
牧牛人	-11.1556
則無有	-11.1557
名之為	-11.1559
第一也	-11.1559
我受持	-11.156
能伏	-11.1567
陣	-11.1568
足蹈	-11.1569
明燈	-11.157
謂正見	-11.157
國中人民	-11.1571
舉手	-11.1573
梵志陀然	-11.1575
散亂	-11.1577
人中尊	-11.1579
為不善	-11.158
臭處	-11.1581
七千	-11.1581
於父母	-11.1585
穢濁	-11.1587
去未久	-11.1589
有穢	-11.159
覺觀	-11.1591
見色是我	-11.1592
於人間	-11.1594
若眼見色	-11.1597
同時	-11.1602
而行布施	-11.1603
未解	-11.1603
既生	-11.1613
往詣佛	-11.1613
或二	-11.1615
女人不得	-11.1616
其有眾生	-11.1617
修善行	-11.1618
善觀	-11.1618
竹園	-11.162
轉壞	-11.1623
善法轉增	-11.1623
多聞者	-11.1624
命既	-11.1627
能制	-11.1631
雙樹	-11.1632
六月	-11.1632
所識	-11.1638
我今可	-11.164
「『	-11.1645
於彼命終	-11.1645
金棺	-11.1647
無上正真	-11.1649
適意	-11.1653
諸尼揵	-11.1656
種種葉	-11.1667
聖諦	-11.1667
備具	-11.1668
五結	-11.1668
十九字	-11.1673
憂畏	-11.1675
堅住	-11.1677
世間有常	-11.1678
其婦	-11.1681
語長者	-11.1682
百千萬	-11.1686
何功德	-11.1689
以是言	-11.169
得天眼	-11.1691
增上心	-11.1693
一向說	-11.1693
句義	-11.1701
或墮	-11.1709
散華	-11.172
不善處	-11.172
解其義	-11.172
能了知	-11.1721
災變	-11.1725
有如是等	-11.1726
阿育王	-11.1727
去離	-11.1728
四大天王	-11.1734
其池	-11.1734
取水	-11.1735
以指	-11.1736
於我所	-11.1745
八難	-11.1746
舍梨子比丘	-11.1748
向須陀洹	-11.1748
鉢中	-11.1751
手捉	-11.1752
與他	-11.1752
持齋	-11.1752
小王	-11.1756
命終生天	-11.1756
現於世間	-11.1759
不得食	-11.1761
禮事彼	-11.1762
更有餘	-11.1762
五百由旬	-11.1768
世尊復問	-11.1775
▁9	-11.1778
深妙	-11.1778
今汝	-11.1778
生死智	-11.178
等事	-11.1782
百六十	-11.1785
名號	-11.1786
南行	-11.1788
堪能離	-11.1795
五下分結	-11.1796
以天眼觀	-11.1816
淨信心	-11.1817
歸比丘僧	-11.182
於大眾	-11.1822
後世人	-11.1827
清淨道	-11.1831
內身	-11.1833
正真	-11.1834
中妙	-11.1835
惱亂	-11.1838
此五事	-11.1841
命異身異	-11.1844
邊見	-11.1849
大悲	-11.1852
淨水	-11.1857
七事	-11.1858
未曾見	-11.1861
纏縛	-11.1862
請問	-11.1864
世尊遙見	-11.1866
終不能	-11.1871
無有人	-11.1872
汝何故	-11.1876
彼婦人	-11.1877
嬈亂	-11.1877
比丘尼以	-11.1882
十一法	-11.1884
夭	-11.1891
溺	-11.1894
非有想非無想	-11.1896
我以此	-11.1897
受王教	-11.1898
成正覺	-11.1904
糧	-11.1904
匠	-11.1904
胞	-11.1905
酥油	-11.1905
整御天下	-11.1905
淨解脫	-11.1905
額	-11.1905
陀驃摩羅子	-11.1905
鎧	-11.1906
迦梨	-11.1907
若此眾生成就身	-11.1908
所謂論者	-11.1908
者之所行	-11.1908
機	-11.1908
粮	-11.1908
汙	-11.1909
三摩地	-11.1909
婆耆奢	-11.191
彼最後王	-11.191
清泉	-11.1911
統領	-11.1911
卵生龍	-11.1911
俱耶尼	-11.1912
喚呼	-11.1913
從東方來	-11.1913
如是受苦樂	-11.1913
耆婆伽	-11.1913
此世彼世	-11.1914
侍衛	-11.1914
寒氷地獄	-11.1914
致比丘訶數詰責	-11.1914
身猗息	-11.1914
惓	-11.1914
苗	-11.1914
諂曲	-11.1915
囑累	-11.1915
惋	-11.1915
鎖	-11.1915
重生令增廣	-11.1916
金毘羅	-11.1916
我今自歸於	-11.1917
忠	-11.1917
內懷憂慼	-11.1917
妓樂	-11.1917
豪族	-11.1918
乃至眾鳥	-11.1918
彈	-11.1918
為作留難	-11.1919
哥	-11.1919
眼知色	-11.1919
佛在羅閱城迦蘭陀竹園所	-11.192
在一樹下	-11.192
正念正知	-11.192
僕從	-11.192
孝順	-11.1921
疾病困篤	-11.1921
迦毘羅越	-11.1921
繞佛三匝	-11.1922
鴦	-11.1922
有大神力	-11.1923
癩	-11.1923
祇洹精舍	-11.1924
騾	-11.1925
棄捐	-11.1926
惹	-11.1926
尊師阿蘭那為弟子說法	-11.1926
惒破	-11.1926
自身作證	-11.1926
嘗	-11.1926
讓	-11.1927
如其像定	-11.1927
北首	-11.1927
攝衣持鉢	-11.1928
諸眾生等	-11.1928
世間眼滅	-11.1929
相累	-11.193
怯弱	-11.193
莫作是觀	-11.193
清淨無穢	-11.193
願無願	-11.193
精進覺分	-11.193
師言	-11.1931
六千由旬	-11.1931
佛遊王舍城	-11.1931
向於捨	-11.1932
赤馬	-11.1934
塵土	-11.1934
凡夫之人	-11.1935
中路	-11.1936
聖賢	-11.1936
不傷	-11.1937
盜竊	-11.1938
次第乞食	-11.1938
白蓮華	-11.1938
在無事處	-11.1939
自他作	-11.1942
甚大	-11.1942
有想無想	-11.1942
三明婆羅門	-11.1945
奉敬	-11.1949
果實	-11.195
修習滿足	-11.195
有一大樹	-11.1952
見諦	-11.1953
五穀	-11.1959
足下	-11.1961
唯願大王	-11.1962
空三昧	-11.1962
牧牛者	-11.1962
共戰	-11.1967
如病	-11.1968
作何等	-11.1968
諸患	-11.1968
而不知	-11.1969
對治	-11.197
五功德	-11.1971
勝負	-11.1971
聞正法	-11.1971
於眾中	-11.1972
現在無常	-11.1972
四分	-11.1973
之難	-11.1973
止諍	-11.1975
一偈	-11.1977
諸外道出家	-11.1979
淨想	-11.1985
白骨	-11.1988
出舍衛城	-11.1994
臣民	-11.1995
發往	-11.2007
可捨	-11.2009
遠離於	-11.2014
光音	-11.2018
入胎	-11.2021
於現法	-11.2025
常與	-11.2026
百由延	-11.203
千光明	-11.203
三昧成就	-11.2031
大功德	-11.2032
給與	-11.2032
侍人	-11.204
設使	-11.2042
而食之	-11.2043
九為	-11.2045
猛熱	-11.2045
人之所	-11.205
此正法	-11.2066
即自念	-11.2067
不沒	-11.2069
軍眾	-11.2075
善色	-11.2079
」「	-11.2081
攝諸根	-11.2081
還出	-11.2082
戒成就	-11.2091
伊羅	-11.2091
寧當	-11.2091
遍觀	-11.2094
其邊	-11.2094
之寶	-11.2098
相類	-11.2098
有漏盡	-11.2099
識患	-11.21
為是誰	-11.2101
修正見	-11.2101
嚴身	-11.2102
婆羅婆	-11.2104
既得	-11.2107
十二由旬	-11.2112
善賢	-11.2114
行跡	-11.2115
果樹	-11.2116
活命	-11.2116
具足住	-11.212
行慈心	-11.2131
自由	-11.2131
一切人民	-11.2131
離散	-11.2134
已樂中	-11.2138
天金	-11.2139
除斷	-11.2142
堪受	-11.2142
自憶	-11.2143
八經	-11.2149
眾事	-11.2149
大叫喚	-11.2149
各共	-11.2153
不免	-11.2156
正欲	-11.2156
聖慧	-11.2157
二三四五六七	-11.216
修福	-11.2164
六百	-11.2166
惡處	-11.2166
善勝	-11.2167
華果	-11.2172
心淨	-11.2175
於王舍城	-11.2179
生梵天	-11.2185
取般涅槃	-11.2186
齊是	-11.2187
斷截	-11.2191
告我	-11.2194
食飲	-11.2195
何由而	-11.2198
消化	-11.2199
安隱處	-11.2205
未聞	-11.2205
由延	-11.2206
相可	-11.2206
苾芻尼	-11.2206
其果	-11.2212
實如	-11.2213
不應作	-11.2214
令從是	-11.2215
梵迦夷天	-11.2217
令起	-11.2219
乃為	-11.2223
離一切	-11.2224
更說	-11.2226
▁6	-11.2231
種種異	-11.2235
彼必	-11.2239
兇	-11.2242
悉見	-11.2243
是為六	-11.2244
即持	-11.2246
無始生死	-11.2252
業報	-11.2256
希	-11.2258
稽首禮	-11.2263
向如來	-11.2263
▁7	-11.2267
得甘露	-11.2268
餘事	-11.2269
齊是為	-11.2272
有禪三昧	-11.2274
長生	-11.2276
欝單越	-11.2276
將至	-11.2278
還活	-11.2279
閻羅	-11.2281
食噉	-11.2282
入地	-11.2284
垂珞	-11.2286
價	-11.2287
他國	-11.2289
未曾聞	-11.229
尊者舍梨子復	-11.2294
於虛空	-11.2295
所有法	-11.2296
不改	-11.2298
無所取	-11.2299
蹋	-11.2301
般遮翼	-11.2303
賴吒惒羅居士子	-11.2303
酸	-11.2304
欝多羅	-11.2304
善住象王	-11.2306
人非人身	-11.2306
右旋	-11.2306
氍	-11.2307
汝等可	-11.2307
於肩上	-11.2307
涼	-11.2308
鋒	-11.2309
如來死後	-11.2309
誹謗聖人	-11.2309
集坐講堂	-11.231
吞	-11.2311
療	-11.2311
步軍	-11.2312
剌	-11.2312
閣	-11.2313
苦出要諦	-11.2313
債	-11.2313
嘆	-11.2314
匹	-11.2315
夏安居	-11.2315
弄	-11.2315
三摩耶	-11.2315
廣長各	-11.2316
恭敬圍繞	-11.2316
酷	-11.2316
尊者金毘羅	-11.2316
土地	-11.2317
兜羅	-11.2317
茂盛	-11.2317
兇暴	-11.2317
塜間	-11.2317
有大名稱	-11.2318
周利槃特	-11.2318
長吏	-11.2318
摧伏	-11.2318
賈	-11.2318
僧迦摩	-11.2319
修慧	-11.2319
逮得己利	-11.2319
▁14	-11.2319
三十六萬里	-11.232
溢	-11.232
暢	-11.232
擾亂	-11.232
仰臥	-11.2321
貧乏	-11.2321
等正覺所知所見	-11.2321
增上慧學	-11.2322
生憂	-11.2322
綿	-11.2322
阿鼻地獄	-11.2322
摩竭提國	-11.2322
汝往	-11.2323
與白衣共	-11.2323
洹	-11.2323
知此漏	-11.2323
摩伽陀國	-11.2324
續受斯	-11.2324
竹林加蘭哆園	-11.2324
如是純大苦聚滅	-11.2324
化作年少	-11.2324
當用	-11.2324
分別法	-11.2324
芥子	-11.2325
西面	-11.2325
今得此身	-11.2325
越祇	-11.2325
阿那毘羅大風	-11.2326
黑雲	-11.2326
攀緣	-11.2326
耳聞聲	-11.2327
大女人瞿曇彌	-11.2328
餘者虛妄	-11.2328
城壁	-11.2328
南面	-11.2329
親厚	-11.2329
須達多	-11.2331
尊者阿難及諸比丘	-11.2331
其次	-11.2331
純大苦聚	-11.2332
法法成就	-11.2333
百須陀洹	-11.2333
尊者尸婆羅	-11.2334
千倍	-11.2335
流淚	-11.2336
初始	-11.2339
別異	-11.2341
燈明	-11.2344
詣此	-11.2344
欣樂	-11.2344
仙尼	-11.2345
度世解脫	-11.2345
拘舍	-11.2347
如來終	-11.2348
刀分	-11.235
存命	-11.2352
俱熾	-11.2352
便自覺知	-11.2355
卷第五十	-11.2359
求學	-11.236
與諸天	-11.2361
若有人來	-11.2363
心大歡喜	-11.2364
高座	-11.2366
世有常	-11.2367
惡友	-11.2368
不妄言	-11.2369
瞋恚蓋	-11.2371
語汝	-11.2371
自饒益	-11.2376
未能	-11.2377
莫怖	-11.2377
云何為八	-11.2378
法法相	-11.2379
是謂比丘成就	-11.2388
身形	-11.2392
往詣世尊所	-11.2394
黃色	-11.2395
恩愛別離	-11.2396
諮問	-11.2401
彼頂生王	-11.2401
去來	-11.2406
大丈夫	-11.2409
我今問	-11.2414
共往	-11.2415
如是久住	-11.2416
稱善	-11.2416
諸仙人	-11.2417
為諸聲聞	-11.2417
護世	-11.2418
四日	-11.2419
自貢高	-11.2423
名何等	-11.2423
如前說	-11.243
現在前	-11.2432
興起	-11.2436
種種方便	-11.2439
資生	-11.2439
行此法	-11.244
離不與取	-11.2441
唯願尊者	-11.2442
行無放逸	-11.2442
遍淨	-11.2443
千踰闍那	-11.2451
世間無常	-11.2451
滅除	-11.2452
十為	-11.2453
如來聖眾	-11.2454
尊者迦葉	-11.2461
他方	-11.2462
善學	-11.2463
須彌	-11.2463
大泥犁	-11.2467
界俱	-11.2469
以何緣	-11.2469
轉成	-11.2473
欲試	-11.248
怨結	-11.2487
成熟	-11.2488
諸所有	-11.2491
汝今云何	-11.2492
諸比丘受教	-11.2492
即復問	-11.2494
亦有二	-11.2498
地平正	-11.2501
不退法	-11.2501
二百	-11.2503
諸善業	-11.251
欲有所說	-11.2517
最為勝	-11.2517
燒然	-11.2519
大池	-11.2522
即往至	-11.2522
大目犍連所見	-11.2524
族姓男	-11.253
阿練若行	-11.2532
亦當如是	-11.2538
必能	-11.254
來問我	-11.2546
風起	-11.2553
為刺	-11.2554
持來	-11.2557
北面	-11.2565
彼比丘聞佛所說	-11.257
以尼師檀著	-11.2572
所逼	-11.2573
梵志報	-11.2574
二龍王	-11.2575
水種	-11.2576
或有比丘	-11.2584
斷邪見	-11.2588
頗更有	-11.2589
彼土	-11.2589
如此事	-11.259
乃至七	-11.2599
竟日	-11.2603
四千里	-11.2605
如我所	-11.2611
即共	-11.2612
法輪	-11.2614
恚念	-11.2616
計我	-11.2618
心生欲	-11.2622
還白	-11.2622
不懷	-11.2642
於一切眾生	-11.2642
息滅	-11.2645
優鉢羅華	-11.2647
在眾	-11.265
不可念	-11.2653
善法轉減	-11.266
行禪者	-11.267
前立	-11.2671
乃從	-11.2672
能堪任	-11.2675
所牽	-11.2676
志求	-11.2682
向下	-11.2685
瞿迦梨	-11.2687
其德	-11.2689
乘虛	-11.2689
正為	-11.2693
詣佛	-11.2693
不復見	-11.2701
此偈	-11.2703
內受	-11.2704
搖	-11.2707
十七	-11.2707
滿度摩	-11.271
誦經	-11.2712
僧中	-11.2714
穢污心命終	-11.2714
典尊	-11.2716
樹上	-11.2719
牛角娑羅林	-11.2719
無有病痛	-11.2719
何足	-11.2721
持用	-11.2721
階	-11.2722
摩牢	-11.2723
說微妙之法	-11.2724
觸緣	-11.2724
脂粉	-11.2724
從何而生	-11.2725
人壽八萬歲時	-11.2726
正念正智而身覺樂	-11.2726
搔揵提迦	-11.2726
謂聖所說	-11.2726
更不復受胎	-11.2727
精勤舉心	-11.2727
忽然不現	-11.2727
砌	-11.2727
有大威力	-11.2727
有五事	-11.2727
我等應共	-11.2728
觸因緣生受	-11.2728
種德	-11.2728
欝鞞羅	-11.2728
超術梵志	-11.2729
生何處	-11.2729
佛告婆蹉	-11.2729
祿	-11.2729
勿令	-11.2729
儲	-11.273
衰耗	-11.273
盈	-11.273
貧賤	-11.273
我已知	-11.2731
乾竭	-11.2731
年耆	-11.2731
了達	-11.2731
須彌留山王	-11.2732
屈伸臂頃	-11.2732
勉	-11.2732
巢	-11.2732
於其晨朝	-11.2732
牆壁	-11.2732
容貌	-11.2732
即自莊嚴	-11.2732
初一日誦	-11.2734
我為多行	-11.2734
閉塞	-11.2734
耶若達	-11.2734
共相問訊慰勞	-11.2734
曠	-11.2734
經第四竟	-11.2735
七有天人往	-11.2735
主兵寶	-11.2735
井	-11.2735
拘尸城	-11.2736
得阿耨多羅三藐三菩提	-11.2736
彼鬼	-11.2736
沈沒	-11.2736
行苦行者	-11.2736
苦痛辛酸	-11.2736
縣官	-11.2736
博聞誦習	-11.2736
摩呵男	-11.2736
眾多比丘集於食堂	-11.2736
附	-11.2737
結所繫	-11.2737
鍮蘆吒	-11.2738
我盡恭敬	-11.2738
適悅	-11.2738
養育	-11.2738
如是字	-11.2738
見法得法	-11.2739
六識身	-11.2739
諸法法眼生	-11.274
彷	-11.274
卒暴	-11.2741
閡	-11.2741
所有穢污	-11.2741
容貌端正	-11.2742
繼	-11.2742
合掌恭敬	-11.2743
羸瘦	-11.2744
思議	-11.2744
懺	-11.2744
五髻乾闥婆王子	-11.2744
賈客	-11.2744
迦羅越	-11.2745
澁	-11.2745
尋復	-11.2745
棄家學道	-11.2746
朽壞	-11.2746
受持五戒	-11.2747
姓字	-11.2747
不放逸為其根本	-11.2747
正坐	-11.2747
百倍	-11.2747
出家為道	-11.2748
年歲	-11.2748
向斯陀含	-11.2748
貝	-11.2748
清淨無瑕穢	-11.2748
扼	-11.2749
內無色想	-11.2749
復有六	-11.2749
正見乃至正定為八	-11.275
恕	-11.275
起偷婆	-11.2751
然我今日	-11.2751
調伏欲貪	-11.2752
樹提迦	-11.2752
已生善法	-11.2753
變易之法	-11.2753
修念覺分	-11.2754
降雨	-11.2755
首陀	-11.2755
陰蓋	-11.2756
向阿那含	-11.2756
入第二禪	-11.2757
復以偈報	-11.2757
繩床	-11.2757
天輪寶	-11.2758
觸而生	-11.2764
中劫	-11.2766
得大功德	-11.2767
譬如士夫	-11.2768
此眾生類	-11.2768
寂定	-11.277
其異道人	-11.277
香塗身	-11.2771
天冠	-11.2771
供養禮事	-11.2771
非義饒益	-11.2772
不轉	-11.2772
三塗	-11.2774
四德	-11.2775
▁丘	-11.2775
齋日	-11.2776
人於世間	-11.2778
出入息	-11.2778
害覺	-11.278
自稱說	-11.2783
尸棄佛	-11.2785
反復	-11.2786
其主	-11.2791
手長者有	-11.2793
佛法中	-11.2795
尊者優陀夷	-11.2797
七寶具足	-11.2801
彼作是說	-11.2802
無反復	-11.2802
尋即	-11.2805
和合者	-11.2808
乃至大海	-11.2809
斷妄言	-11.2809
汝等頗見	-11.281
?」』	-11.2812
六日	-11.2812
三昧定	-11.2815
諸上座比丘	-11.2816
當般涅槃	-11.2818
四如意足	-11.2819
斷壞	-11.2819
利樂	-11.2822
尊師法	-11.2827
財業	-11.283
為從是	-11.2834
世間集	-11.2839
廣說如上	-11.2841
教訓	-11.2842
不讚歎	-11.2844
若有問者	-11.2849
執事	-11.285
七反	-11.285
以熱鐵	-11.2852
2)	-11.2854
不近食	-11.2856
著鐵	-11.286
行十善	-11.286
百踰闍那	-11.286
生老死	-11.2864
美食	-11.2866
何等為六	-11.287
在其中	-11.287
果實天	-11.2871
有過失	-11.288
此女人	-11.288
不以為	-11.2887
善教	-11.289
之屬	-11.2895
退失	-11.2898
五通	-11.2899
集一處	-11.2903
有山名	-11.2904
與大比丘	-11.2905
不恐怖	-11.2916
善受持誦	-11.2918
作是語已	-11.2923
是無常法	-11.2926
何須	-11.2931
思惟分別	-11.2942
麁惡	-11.2944
為人時	-11.2947
可共	-11.2955
母名	-11.2957
是名世間	-11.2975
水沫	-11.2976
懷恐怖	-11.2977
行路	-11.2978
義說	-11.2982
有三十二相	-11.2985
以此法	-11.2988
猶尚	-11.3001
鐵城	-11.3002
入正法	-11.3009
便告	-11.3016
佛足	-11.3019
上頭	-11.3019
今且	-11.303
記之	-11.3038
魔軍	-11.3046
是偈已	-11.3049
能具	-11.3049
於舍衛國	-11.305
所依住	-11.3053
諸行無常	-11.3058
是為第一	-11.3058
寂止	-11.306
視之	-11.3061
長者婦	-11.3064
真說	-11.3069
毘舍佉優婆夷	-11.307
見到	-11.3075
後善	-11.308
正治	-11.3081
婆羅門居士	-11.3082
。」』」	-11.3083
以己	-11.3087
觸集	-11.3093
默然而	-11.3093
受胎	-11.3095
作轉輪聖王	-11.3099
復詣	-11.3101
若比丘觀	-11.3103
當歸	-11.3103
工	-11.3107
梵志女	-11.311
器樹	-11.3111
當語彼	-11.3111
喜覺分	-11.3113
華樹	-11.3113
多聞比丘	-11.312
生善趣	-11.3122
食竟	-11.3123
火滅	-11.3127
大智慧	-11.3131
得錢財	-11.3131
左手	-11.3133
金翅鳥王	-11.314
於佛法	-11.3142
器盛	-11.3143
集在	-11.3143
蓮	-11.3145
併	-11.3146
頰鞞王	-11.3149
持去	-11.3149
波梨子	-11.3151
一伏婬	-11.3151
相去	-11.3153
金錢	-11.3153
蹬	-11.3154
報我	-11.3154
隨所解答	-11.3155
周聞十方	-11.3157
度一切色想	-11.3157
燈光如來	-11.3159
異學無恚	-11.3159
身毛皆竪	-11.3159
以七寶作	-11.316
褥	-11.316
》、《	-11.316
槨	-11.3161
耐	-11.3161
心開意解	-11.3162
提舍	-11.3162
駈	-11.3162
恒自	-11.3162
此是無記	-11.3162
種種談譁	-11.3162
現法自知作證	-11.3162
七重壁	-11.3163
埀	-11.3163
一歲	-11.3163
不以刀杖	-11.3163
即我身是	-11.3163
飽滿	-11.3164
拘那含	-11.3165
大善利	-11.3165
此不應詣彼	-11.3166
域	-11.3166
彼亦得滅	-11.3166
共論此事	-11.3166
高廣正等	-11.3166
往詣彼城	-11.3167
涕泣	-11.3167
究竟梵行訖	-11.3167
欺詐	-11.3167
有滅則生滅	-11.3167
提頭賴吒天王	-11.3167
狼	-11.3167
久受苦	-11.3167
慳嫉	-11.3168
滋	-11.3168
拍	-11.3168
藥叉女	-11.3168
瞋怒	-11.3168
如來不終	-11.3168
剃鬚髮	-11.3169
多耆奢	-11.3169
究竟白淨	-11.3169
經第二竟	-11.3169
香湯	-11.3169
都邑	-11.317
猛焰	-11.317
世尊復告諸比丘	-11.317
莊飾	-11.317
伸	-11.317
於四聖諦未無間等	-11.3171
立念在	-11.3171
鏁	-11.3171
齊限	-11.3171
亦有此	-11.3171
怨憎會苦	-11.3171
於我法中	-11.3172
畜牧	-11.3172
丹本	-11.3172
生畜生中	-11.3172
增上意學	-11.3172
生者有者乃至住者	-11.3172
非想非非想處	-11.3172
不色無有量	-11.3172
高才	-11.3173
正身端坐	-11.3173
如是比丘觀內	-11.3173
供辦	-11.3174
令諸眾生作如是	-11.3174
沒溺	-11.3174
蟻	-11.3174
瞎	-11.3175
翼從	-11.3175
遙見佛來	-11.3175
憶念不忘	-11.3175
爭	-11.3175
栴檀香	-11.3176
技術	-11.3176
知止足	-11.3176
已生惡不善法	-11.3176
縷	-11.3176
瞋纏	-11.3176
服飾	-11.3177
是故彼等作如是	-11.3177
摧	-11.3177
却後七日	-11.3178
無明漏心解脫	-11.3178
凶	-11.3179
入安陀林	-11.3179
尊者賓頭盧	-11.3179
下劣	-11.318
車軍	-11.318
逝心理家	-11.318
得眼林	-11.3181
若魔天	-11.3183
諸佛常法	-11.3183
無疑難	-11.3183
原本	-11.3183
逼切	-11.3184
真實不異	-11.3184
打破	-11.3184
復以何因緣	-11.3185
火燒頭	-11.3185
知是處	-11.3185
聰慧	-11.3186
充足	-11.3186
毒痛	-11.3186
舉體	-11.3188
渧水	-11.3188
最下	-11.3189
相貌	-11.3189
善伴黨	-11.3192
如實顯現	-11.3192
作倡	-11.3192
起想著	-11.3192
先祖	-11.3192
於異時	-11.3193
歎譽	-11.3193
懷恐懼	-11.3193
遮羅	-11.3194
劫波	-11.3195
五欲之中	-11.3195
白帝釋	-11.3195
卒起	-11.3195
而語之	-11.3196
一百由旬	-11.3196
朱利槃特比丘	-11.3196
三結盡	-11.3196
非不如法	-11.3197
乃往	-11.3197
焰天	-11.3198
女即	-11.3198
律出家	-11.32
我聲聞中第一比丘	-11.32
工師種	-11.3201
雜華	-11.3202
有三事	-11.3204
白象寶	-11.3204
財主	-11.3205
無眾生生	-11.3205
坐處	-11.3215
過於人	-11.322
而行乞食	-11.3221
即詣佛所	-11.3223
及身口	-11.3226
成就七寶	-11.3226
可貴	-11.3226
千二百五十	-11.3228
八種道	-11.3232
世俗	-11.3232
如說說	-11.3235
千年	-11.3236
我聞法已	-11.3237
生是念	-11.3238
不待時	-11.3239
過七日	-11.3239
擇法	-11.324
佛為說法	-11.3244
墮地獄中	-11.3245
世尊復告	-11.3248
是為第三	-11.325
諸人等	-11.3255
等無有異	-11.3257
與無央數	-11.3258
有四種軍	-11.3259
明照	-11.3259
昨夜	-11.3264
此三是	-11.3266
覺道	-11.3267
自思念	-11.3267
7)	-11.3268
婆蹉白佛	-11.3274
此四法	-11.3275
血流	-11.3277
天上天下	-11.3279
彼士夫	-11.3282
盡力	-11.3283
實語	-11.3283
入大海	-11.3285
焰摩天	-11.3285
我等今者	-11.3286
汝且	-11.3286
諸梵行人	-11.3287
於此命終	-11.3289
成阿那含	-11.329
謂善男子	-11.3294
無他世	-11.3301
不可稱	-11.3306
恒喜	-11.3307
音響王	-11.3309
有事因此事	-11.3309
臥起	-11.3321
念僧	-11.3324
經第	-11.3324
十六字	-11.3325
呼阿難	-11.3325
麁言	-11.3328
以是因緣故	-11.333
端心	-11.3331
有一類	-11.3335
梵行具足	-11.3338
閻浮樹	-11.3339
車兵	-11.3342
此何因	-11.3344
清淨戒	-11.3344
愚夫	-11.3346
水災	-11.3349
生酥	-11.335
大城	-11.3354
佛塔	-11.3355
修治	-11.3365
國內	-11.3374
我等意	-11.3376
漏盡比丘	-11.3383
入初禪	-11.3384
出聲	-11.3386
永斷	-11.3395
其有比丘	-11.3396
六通	-11.3397
立正念	-11.3401
是故我說	-11.3403
婆羅門女	-11.3403
真為	-11.3412
種種果	-11.3417
何故不	-11.3419
當來世	-11.342
馬兵	-11.3437
石上	-11.3442
近在	-11.3445
當與我	-11.3445
王童子	-11.3446
何因緣故	-11.3446
人所敬	-11.3447
梵志施設	-11.3452
執杖	-11.3452
修梵行者	-11.3456
尚不能	-11.346
直見	-11.346
而問之	-11.3464
自歸命	-11.3464
相離	-11.3469
能勝	-11.3474
不移	-11.3475
義饒益	-11.3485
諸優婆塞	-11.3486
歸命佛	-11.349
率	-11.349
無雜	-11.3493
然火	-11.35
解脫成就	-11.3512
於東方	-11.3512
應真	-11.3514
汝等莫	-11.3517
我為汝說	-11.3526
亦不應	-11.3531
雲集	-11.3531
百阿羅漢	-11.354
入海	-11.3541
更苦	-11.3543
無有智慧	-11.3544
不憎惡	-11.3545
阿波	-11.3552
於五欲	-11.3563
是間	-11.3573
䏶	-11.3576
未成	-11.3579
塗身	-11.3582
丸	-11.3591
破裂	-11.3593
佐	-11.3595
從如來聞	-11.3595
當來有	-11.3598
制外怨敵	-11.3602
婆陀	-11.3602
吼	-11.3602
其根	-11.3604
有一行欲人	-11.3604
峯	-11.3604
由己自在	-11.3606
昧	-11.3606
紺	-11.3607
群黨	-11.3608
摩竭陀	-11.3609
得真實	-11.3609
參	-11.361
非有非無後死	-11.3611
在拘薩羅人間	-11.3611
鵄鵂	-11.3611
姉妹	-11.3613
形色轉好	-11.3614
逕	-11.3614
照明	-11.3614
行住坐臥	-11.3615
二足尊	-11.3615
縫	-11.3615
無上正真之道	-11.3616
溉灌	-11.3616
釋氏摩訶男	-11.3616
柔濡	-11.3617
焚燒	-11.3617
謂女人不	-11.3618
癡薄	-11.3618
枉	-11.3618
寶羽之車	-11.3618
諸小阿修羅王	-11.3619
城廓	-11.3619
三結已盡	-11.3619
高廣大床	-11.3619
經第六竟	-11.3619
先苦而後樂	-11.362
王莫恐	-11.362
填	-11.362
融消	-11.362
女人奉持	-11.3621
肌	-11.3621
小腸	-11.3621
默然而許	-11.3621
朱	-11.3621
富隣尼	-11.3621
修戒	-11.3621
穀米	-11.3621
如來終不終	-11.3622
妨	-11.3622
遶佛三匝	-11.3622
寄	-11.3622
錦	-11.3622
獲大利	-11.3622
孰	-11.3623
𠻬帝比丘	-11.3623
耕田	-11.3623
幽	-11.3623
悉皆大明	-11.3623
驅馳	-11.3623
葦	-11.3624
經第一竟	-11.3624
十五日月滿時	-11.3624
波婁沙	-11.3624
一梵行而遊人間	-11.3624
彼地獄中諸眾生	-11.3624
魔身天	-11.3624
重閣	-11.3625
里巷	-11.3625
緣日光	-11.3625
起世因本經	-11.3625
振	-11.3625
千輻	-11.3626
屣	-11.3626
尊者三彌提	-11.3626
毘沙	-11.3626
於一面立	-11.3626
悶	-11.3627
諸天天道	-11.3627
南西北方	-11.3628
恬	-11.3628
渚	-11.3628
材	-11.3628
禮佛而退	-11.3628
光耀	-11.3628
篋	-11.3628
無明滅則行滅	-11.3629
尊者難提	-11.3629
已生者重生令增廣	-11.3629
突	-11.3629
黑闇	-11.3629
更不復	-11.3629
迸	-11.363
尊者跋陀和利	-11.363
皺	-11.363
晉	-11.363
具白世尊	-11.363
後秦弘始年佛陀耶舍共竺佛念譯	-11.363
籌量	-11.363
觀此義已	-11.363
技	-11.363
不壞信	-11.3631
秦言	-11.3631
廣長舌	-11.3631
獨靜思惟	-11.3631
江河	-11.3632
廣解其義	-11.3632
生聞婆羅門	-11.3632
讀誦	-11.3632
梵行清白	-11.3633
財富	-11.3633
西晉	-11.3633
鈍	-11.3635
絞	-11.3635
復有說言	-11.3635
0)	-11.3636
穌息	-11.3637
未生善法	-11.3637
著糞掃衣	-11.3637
隥	-11.3637
和悅	-11.3638
復有二法	-11.3638
便懷恐怖	-11.364
甚為難得	-11.3641
身身念	-11.3641
槃頭	-11.3642
不由他	-11.3644
根莖	-11.3645
印可	-11.3649
教訶	-11.3649
入第三禪	-11.3649
預	-11.365
而令或一若男若女	-11.3653
終亡	-11.3654
當捨離	-11.3656
婆梨	-11.3658
不知恩	-11.3659
無如此事	-11.366
佛在王舍城	-11.3661
守門人	-11.3662
於天上	-11.3663
復從他	-11.3663
辦具	-11.3663
唯然世尊	-11.3663
即於彼	-11.3664
受佛教已	-11.3665
瑪瑙等七寶所成	-11.3666
不能捨離	-11.3668
微妙第一	-11.3669
修安那般那念	-11.3672
滅度後	-11.3673
六千梵志	-11.3674
㮈林	-11.3677
覆護	-11.3679
令淨	-11.3683
八支	-11.3685
未來無常	-11.3691
於此世	-11.3696
誰有	-11.3701
彼眾生等	-11.3701
為命異身異	-11.3706
無量諸	-11.3708
毛髮	-11.3711
不離於	-11.3712
燒燃	-11.3713
生愁慼	-11.3714
𧗪家	-11.3716
善見王	-11.3717
愛生已	-11.3717
阿須倫眾	-11.3719
盡形壽不殺	-11.3724
大眾中	-11.3727
有此二法	-11.3728
於此眾中	-11.3731
集聚	-11.3734
意亦如是說	-11.3735
善巧	-11.3735
入舍衛城	-11.3737
在於此	-11.3745
來至世尊所	-11.3746
昨	-11.3747
問訊佛	-11.3753
受患	-11.3755
汝今當知	-11.376
諸人輩	-11.3761
得第四禪成就遊	-11.3764
為諸比丘說法	-11.3765
於四聖諦	-11.3766
有他世	-11.3766
王復告	-11.3766
獲安隱	-11.377
受其教	-11.377
當勤	-11.377
修禪	-11.377
如是廣布	-11.3773
尊者阿難所說	-11.3775
於四念處	-11.3781
其根本	-11.3783
以供	-11.3783
唯願如來	-11.3785
餓鬼中	-11.3791
與善知識	-11.3793
最好	-11.3799
安隱涅槃	-11.3804
即尋	-11.381
如師子	-11.3812
在外	-11.3814
開意	-11.3822
趣覺	-11.3824
南北	-11.3841
相聚	-11.3843
他化自在	-11.3844
卷第四	-11.3856
五欲自娛	-11.3857
汝速	-11.3857
當犯	-11.386
婆羅門白佛	-11.3861
!』」	-11.3865
不綺語	-11.3868
覺分	-11.3869
歸趣	-11.3871
云何有人	-11.3872
能轉	-11.3872
而走	-11.3875
終不能得	-11.3889
生厭離	-11.3895
聲聞眾	-11.3898
彼受此	-11.3899
不污	-11.3902
世間貪	-11.3904
有一婆羅門	-11.3914
各各自	-11.3922
不知不見	-11.3923
福祐	-11.3924
今夜	-11.3929
諸群臣	-11.3929
無想天	-11.3929
其體	-11.3929
七識住	-11.3932
失念	-11.3934
猶人	-11.3939
有一梵志	-11.3943
久存	-11.3944
勅左右	-11.3949
說法要	-11.3955
今沙門瞿曇	-11.3965
非真	-11.3966
去後	-11.3972
靡	-11.3972
從是本	-11.3975
以兩手	-11.3977
學問	-11.3981
有是處	-11.3981
教他	-11.3982
然後乃出	-11.3987
▁8	-11.3989
三歸	-11.3996
明月珠	-11.3996
祐	-11.3998
生怖畏	-11.4002
調順	-11.4005
離喜	-11.4012
於五受陰	-11.4014
長者白佛	-11.4023
擲著	-11.4025
所趣向	-11.4025
耶舍	-11.4033
不樂著	-11.4039
世界邊	-11.4047
持律	-11.4048
二百由旬	-11.4048
少分	-11.4053
髀	-11.4058
聖戒	-11.4059
入泥犁	-11.4059
美味	-11.406
眾會	-11.4061
儀容	-11.4065
四增上心	-11.4065
沙門瞿曇宗本	-11.4068
天壽	-11.4069
盛壯	-11.4069
駛	-11.4072
虎魄	-11.4074
育	-11.4078
如王邊城	-11.4079
搥	-11.4079
過惡	-11.4079
野象	-11.4082
閻浮利天下人	-11.4082
策	-11.4082
慧觀	-11.4084
渠	-11.4084
紹王位	-11.4084
欲害	-11.4084
捶杖	-11.4085
佛說經	-11.4085
吠	-11.4086
如法法王成就七寶	-11.4086
獵	-11.4086
得初禪成就遊	-11.4088
輪有千輻	-11.4088
普遍充滿	-11.4088
羂	-11.4088
哩	-11.4089
鼻嗅香	-11.4089
命亦未終	-11.409
墻	-11.409
離於喜欲	-11.409
波吒羅	-11.4091
未曾有之法	-11.4091
欝低迦	-11.4092
埋	-11.4093
隨此眾生之所作業	-11.4093
靈	-11.4093
仗	-11.4093
無處不遍	-11.4094
圓寂	-11.4094
得不動心	-11.4095
富樓那	-11.4095
見其如真	-11.4095
阿濕波誓	-11.4095
來迦毘羅林	-11.4095
命終之後生	-11.4095
煩熱苦報	-11.4096
涅盤	-11.4096
拾	-11.4096
縱廣正等	-11.4096
踈	-11.4097
單	-11.4097
瞑	-11.4098
壍	-11.4098
鹿野苑中	-11.4098
暉	-11.4098
放大光明	-11.4098
把	-11.4098
如桃華色	-11.4099
蘆	-11.4099
三事和合觸	-11.4099
悋	-11.4099
究牟陀	-11.4099
往來善處	-11.41
均頭沙彌	-11.41
浚輸	-11.41
受世尊教	-11.4101
當以五事	-11.4101
閑暇	-11.4102
凡諸有為甚	-11.4102
寫	-11.4102
倦	-11.4102
前後導從	-11.4102
博戲	-11.4102
毗舍	-11.4103
過三月已	-11.4103
優頭槃	-11.4103
愚癡凡夫	-11.4103
正智正繫念	-11.4103
筋骨	-11.4103
骸骨	-11.4103
弓箭	-11.4103
齎	-11.4104
百千兩金	-11.4104
有因有緣	-11.4104
拘夷	-11.4105
諸根寂定	-11.4105
隨汝意	-11.4105
滿其中	-11.4105
冤	-11.4106
庭	-11.4106
法次法向	-11.4106
不遠有	-11.4106
以三昧心	-11.4106
捐棄	-11.4106
無事處山林樹下	-11.4106
盡於苦際	-11.4106
波羅提木叉	-11.4106
矛	-11.4107
尼乾陀	-11.4107
吏	-11.4107
斤	-11.4107
復有七法	-11.4108
生斯念	-11.4108
諸大臣	-11.4108
菩提樹下	-11.4108
七日之中	-11.4109
利益安樂	-11.4109
宗族	-11.4109
悒	-11.4109
尊者勒叉那	-11.411
有何差別	-11.4111
拘樓孫如來	-11.4111
見是事已	-11.4111
正向涅槃	-11.4112
耆年	-11.4113
他化樂天	-11.4114
而問此義	-11.4115
降神	-11.4115
流轉生死	-11.4115
九眾生居	-11.4116
睡眠蓋	-11.4116
勸請	-11.4117
?』」「	-11.4117
乃至正見	-11.4117
薪草	-11.4118
四事供養	-11.4118
林木	-11.4119
形容	-11.4121
世尊說此	-11.4121
有身集	-11.4122
慎勿	-11.4123
睹	-11.4123
空寂	-11.4124
鼓聲	-11.4124
應如是答	-11.4124
想知滅	-11.4124
娑多耆利	-11.4126
天中天	-11.4127
風輪	-11.4127
質多	-11.4127
起塔	-11.4127
彼城中	-11.413
語尊者阿難	-11.4132
常住不變	-11.4135
形類	-11.4136
空入處	-11.4137
汝今諦聽	-11.4138
恒沙	-11.4139
尚能	-11.414
那羅陀	-11.414
不成男	-11.4141
安居	-11.4142
四不壞淨	-11.4144
知苦滅	-11.4146
饒益他	-11.4146
十二月	-11.4149
毘沙門王	-11.4149
汝等見	-11.415
此是真實	-11.4153
雪山王	-11.4157
而說此偈	-11.416
斯須	-11.4161
脫衣	-11.4166
今悉	-11.4167
長者遙見	-11.4176
正趣	-11.4177
磨滅法	-11.4177
能堪忍	-11.4181
不斷絕	-11.4184
周迴	-11.4187
於現世	-11.419
我等今	-11.4196
衣廣	-11.4202
惱害	-11.4205
告苾芻	-11.4208
少多	-11.4213
正見成就	-11.4216
經第五	-11.4218
足足	-11.4223
汝等頗	-11.4226
未離欲	-11.4227
惡性	-11.4228
從口	-11.423
國政	-11.423
自觀身	-11.423
佛舍利	-11.4231
經第三	-11.4232
即召	-11.4233
得心解脫	-11.4234
是名第二	-11.4237
衣長	-11.424
諸國王	-11.4245
趣智	-11.4248
持淨戒	-11.4251
眾人所	-11.4252
最後身	-11.4254
在樹下	-11.4255
此林	-11.4258
非有非無	-11.4261
共往詣	-11.4261
觀看	-11.4263
離妄言	-11.4266
不懈	-11.4267
生眼識	-11.4275
受法現樂	-11.4281
現在色	-11.4284
得三明	-11.4286
自制	-11.4286
面色	-11.429
共俱	-11.4291
作惡業	-11.4295
離貪欲	-11.4297
師云	-11.4298
從坐而	-11.4305
云何比丘知	-11.431
如是行者	-11.4312
聞此已	-11.432
問此義	-11.4327
見如真	-11.4328
天上諸天	-11.4336
9)	-11.434
治國	-11.4345
信戒	-11.4346
無目	-11.4346
復有聲聞於	-11.4348
有天神	-11.435
汝亦如是	-11.4355
五百童子	-11.4361
後必	-11.4362
卷第二	-11.4366
己利	-11.4371
神識	-11.4373
爾乃	-11.4373
卷第三	-11.4374
愁憂苦惱	-11.4378
善哉善哉	-11.4381
甚為難	-11.4385
結恨	-11.4387
我當云何	-11.4404
著好衣	-11.4407
火光	-11.4411
首陀羅	-11.4411
若復比丘	-11.4418
鼻識	-11.4418
長老上尊比丘	-11.4419
大威德	-11.4425
王太子	-11.443
罪業	-11.4435
以此偈	-11.4442
如癰	-11.4447
一萬	-11.4449
隱形	-11.4449
瞻波	-11.445
於後世	-11.4452
言辭	-11.4454
即受教	-11.4458
如是等法	-11.4462
欺餘	-11.4462
修善法	-11.4466
空無所有	-11.447
沙門不得	-11.4471
有此見	-11.4478
彼地獄諸眾生	-11.448
隨後	-11.4482
此五根	-11.449
此四事	-11.4493
八支聖道	-11.4494
性行	-11.4501
叫喚地獄	-11.4501
國土人民	-11.4507
其夜	-11.4512
十五字	-11.4512
彼族姓子	-11.4514
或有一人心	-11.4515
房中	-11.4526
不久住	-11.453
佛經戒	-11.4533
惡邪見	-11.4533
貪取	-11.4544
聞尊者	-11.4544
護己	-11.4546
遂至	-11.4547
莫令餘比丘	-11.4549
象跡	-11.4552
受此苦	-11.4555
菩提樹	-11.4562
終無此	-11.4568
鞞留羅大將	-11.4573
大正殿	-11.4574
鷹	-11.4575
梵主天	-11.4575
恭敬禮事	-11.4576
七不衰法	-11.4577
而退	-11.4578
閻	-11.4579
加陵伽波惒邏	-11.4579
摶	-11.458
欲有所行但有	-11.458
南方去此過	-11.4583
藏臣	-11.4583
􂌞	-11.4585
眴	-11.4585
受持跋地羅帝偈	-11.4586
𤦲	-11.4586
鑿	-11.4586
峻	-11.4586
以是十業得	-11.4586
能伏他眾	-11.4586
宮牆七重	-11.4586
鷲	-11.4587
兜婆	-11.4587
腐	-11.4587
荷	-11.4588
摩得梨	-11.4588
校飾	-11.4589
以偈報	-11.4589
閑靜之處	-11.459
二萬一千由旬	-11.459
車聲	-11.459
欲別知	-11.4591
更增行善	-11.4591
丹	-11.4591
不蘭迦葉	-11.4591
得第三禪成就遊	-11.4591
攀	-11.4592
是謂欲別知	-11.4593
淨滅枝	-11.4593
鸚鵡摩牢兜羅子	-11.4593
栴	-11.4593
如其像	-11.4593
普會講堂	-11.4594
眾生生受	-11.4594
優填王	-11.4594
敗壞無餘	-11.4594
蹲	-11.4594
憒閙	-11.4594
獲者獲	-11.4594
庠序	-11.4594
障閡	-11.4595
是生滅法	-11.4595
自方便斷燕坐	-11.4595
胡麻	-11.4595
邪盛大會	-11.4595
四部	-11.4596
洞燃俱熾	-11.4596
現在苦	-11.4596
測	-11.4596
相繼之法	-11.4597
生善處天中	-11.4597
為多行無	-11.4597
貢	-11.4597
跋地羅帝偈及其義	-11.4597
淫泆	-11.4597
我非彼有	-11.4597
併取	-11.4597
楚	-11.4597
彼必得果	-11.4597
須摩提	-11.4597
勑	-11.4598
多諸珍寶	-11.4598
齒落	-11.4598
禁制	-11.4598
如來亦非終亦非不終	-11.4598
式詰如來	-11.4598
護念清淨	-11.4598
其諸獄卒	-11.4598
尸利掘	-11.4598
藝	-11.4599
知捨如真	-11.4599
為慈愍故	-11.4599
共相慰勞	-11.4599
云何欲別知	-11.46
欝單越洲	-11.46
以偈歎	-11.46
為從何來	-11.46
監	-11.46
閻浮里地	-11.46
周圍	-11.46
富蘭那	-11.46
校	-11.4601
從空下	-11.4601
住一林中	-11.4601
腰	-11.4601
青黃赤白	-11.4601
充實	-11.4601
後受苦報	-11.4601
後受樂報	-11.4601
鬪亂彼此	-11.4601
布薩	-11.4602
乾沓和	-11.4602
入長者舍	-11.4602
如是純大苦聚集	-11.4602
刑	-11.4602
亦復不知	-11.4602
彌羅摩	-11.4602
現法自知作證具足住	-11.4602
叔	-11.4603
婆羅豆婆遮婆羅門	-11.4603
陷	-11.4603
經第九竟	-11.4603
或時行者	-11.4603
赴	-11.4603
修多羅廣說	-11.4604
徑路	-11.4604
莫恐	-11.4604
是謂欲斷	-11.4604
兩岸	-11.4605
四寸	-11.4605
摩竭陀大臣雨勢	-11.4605
東門	-11.4605
徧	-11.4605
住已而觀	-11.4606
頭面著佛足	-11.4606
增上戒學	-11.4606
工巧	-11.4606
與世尊面相問訊慰勞	-11.4606
阿耨達多龍王	-11.4607
生可意不可意	-11.4607
攻伐	-11.4607
何等為二	-11.4607
釋摩男	-11.4607
三摩提	-11.4608
僕使	-11.4608
。」』「	-11.4609
滿富城中	-11.4609
猗覺分	-11.461
法次法說	-11.461
獨住遠離	-11.461
生惡處地獄中	-11.461
所有光明	-11.461
野馬	-11.4611
堂閣	-11.4611
算數	-11.4612
耆婆	-11.4612
發欲求方	-11.4613
佛所說法	-11.4614
愚闇	-11.4615
遊行人間	-11.4615
毛孔	-11.4615
無所有入處	-11.4617
婬亂	-11.4618
牛糞	-11.4618
寒冷	-11.4618
是名丈夫	-11.4621
五欲悉虛	-11.4621
3)	-11.4622
甘露門	-11.4622
復有叢林名	-11.4624
拳扠	-11.4624
親里	-11.4624
當般泥洹	-11.4624
如大地土	-11.4624
欲不淨想	-11.4625
拘耶尼	-11.4625
𤺙	-11.4627
正智正念	-11.4628
山谷	-11.4629
是則名為	-11.4629
何以故名為	-11.463
云何欲斷	-11.4631
阿浮陀	-11.4633
牢獄	-11.4633
王頂生	-11.4634
汝曹	-11.4634
意疾止	-11.4635
不復還	-11.4635
寶蓋	-11.4635
毀壞	-11.4637
即於佛前	-11.4641
彼水聚	-11.4641
濕生	-11.4644
復有五法	-11.4644
聽我問	-11.4647
汝等當學	-11.4648
𦼇	-11.4649
誣謗世尊	-11.4649
惡不善業盡	-11.465
是為第四	-11.4654
下方	-11.4656
種種香熏	-11.4656
身所作	-11.4659
於佛所	-11.466
彼天輪寶	-11.4662
滿財	-11.4666
默自	-11.4673
取涅槃	-11.4675
有漏心解脫	-11.4675
恒常	-11.4675
皆悉無常	-11.4677
城治化	-11.4683
波利	-11.4684
年老	-11.4684
五百歲	-11.4686
擊之	-11.469
斷彼法	-11.4692
汝今當	-11.4693
從是習	-11.4694
生緣老	-11.4696
正爾	-11.4697
至七日	-11.4697
目連報	-11.4698
不惡口	-11.4699
隨意所欲	-11.4701
可斷法	-11.4702
出於世間	-11.4702
梵志族	-11.4703
不可輕	-11.4708
精進方便	-11.471
西天譯經三藏朝奉大夫試	-11.4712
調和	-11.4713
意不忘	-11.4714
生可意	-11.4716
是為第二	-11.4716
安隱眠	-11.4717
亂念	-11.472
生於天上	-11.4721
我等聞已	-11.4729
怠	-11.4731
離殺生	-11.4735
五下分結盡	-11.4746
愛憎	-11.4749
甚難得	-11.4751
怨親	-11.4752
是真諦	-11.4754
好衣	-11.4757
內外身	-11.476
望得	-11.4762
羅閱城中	-11.477
五欲樂	-11.4772
復有一種	-11.4773
始有	-11.4773
大堅固	-11.4777
恭敬問訊	-11.4781
肉血	-11.4786
其身上	-11.4793
以他心智	-11.4794
善修梵行	-11.4799
三惡趣	-11.4806
何等名為	-11.481
歡喜園	-11.4816
共詣	-11.4824
自活	-11.4826
眾生類	-11.4832
隱沒	-11.4832
惱觸	-11.484
何所求	-11.4842
世間人民	-11.4843
樂覺者	-11.4852
梵音	-11.4865
有比丘名	-11.4875
與諸大眾	-11.4877
其轉輪王	-11.4877
廣分別	-11.4879
有緣生	-11.4882
寶珠	-11.4883
長者當知	-11.4888
現在樂	-11.4888
倍增	-11.4889
本為人	-11.4897
此苦聖諦	-11.4899
五支	-11.4903
白尊者阿難	-11.4913
從剎利	-11.4918
界異	-11.4919
不怖	-11.4919
家業	-11.4921
推求	-11.4926
彼處已	-11.4938
有所犯	-11.4955
次復入	-11.4958
增益諸天	-11.4959
如實見	-11.496
佛般泥洹	-11.4963
阿闍世	-11.4963
在人中	-11.4965
於此法中	-11.4992
共集會	-11.4999
眾多比丘聞	-11.5014
受佛教	-11.5018
苦聖諦如實知	-11.5027
苦治	-11.5033
知領群特	-11.5034
大恐怖	-11.5035
常存	-11.5037
卷第五	-11.5038
苦際	-11.5041
漂	-11.5043
聚落中	-11.5045
一邊	-11.5048
八部	-11.505
意行惡	-11.5061
所說偈	-11.5065
色出要	-11.5068
阿那邠邸	-11.5087
飛鳥相和而鳴	-11.509
於何處	-11.5091
有神足	-11.5094
五千	-11.5097
片	-11.5099
贖	-11.5099
猶未	-11.5101
長壽博士	-11.5101
婬女	-11.5103
在其中甚	-11.5107
常無常	-11.5108
以鑽鑽	-11.5109
毾𣰆	-11.5109
阿吒吒	-11.511
鍑	-11.5111
為無有本	-11.5112
姝	-11.5112
外身身觀	-11.5113
晝度樹	-11.5113
姝好	-11.5114
枝葉華實	-11.5114
經無量時	-11.5114
紅	-11.5114
腸胃	-11.5115
澡罐	-11.5115
不癡律	-11.5115
屏	-11.5116
得第二禪成就遊	-11.5116
鬚髮	-11.5116
𦟛	-11.5117
四萬里	-11.5117
滅有對想	-11.5117
經第八竟	-11.5117
繞三匝	-11.5118
諸佛世尊常所說法	-11.5118
墨	-11.5118
妙與不妙	-11.5118
口言善	-11.5119
如實而知	-11.5119
種種眾鳥	-11.5119
祇桓	-11.5119
轡	-11.512
筆	-11.512
亦有中夭者	-11.5121
威勢	-11.5121
懶惰	-11.5121
泥犁勤苦	-11.5121
八千象	-11.5123
奮	-11.5123
受諸苦惱	-11.5123
入室燕坐	-11.5123
堅牢	-11.5124
齊整	-11.5124
蠅蚤	-11.5124
心不生惡	-11.5124
為直念	-11.5124
團	-11.5124
受想行識	-11.5125
婆伽婆在舍衛城祇樹給孤獨園	-11.5125
祕	-11.5125
梵梵所化	-11.5125
崖	-11.5125
從頭至足	-11.5125
今為所在	-11.5125
宴坐思惟	-11.5125
拄杖	-11.5125
以偈頌	-11.5125
俱薩羅國	-11.5127
萬毒並至	-11.5127
隨順燕坐	-11.5127
刻	-11.5127
執扇扇佛	-11.5127
胞胎	-11.5127
衣毛皆竪	-11.5127
奉迎	-11.5128
端正姝好	-11.5128
多薩阿竭	-11.5129
茂	-11.5129
於末劫末見	-11.5129
宜當	-11.5129
攻	-11.5129
草蓐	-11.513
調貢高	-11.513
凾	-11.513
濕生龍	-11.513
是此尊者	-11.5131
喘息	-11.5131
鈍根	-11.5131
三繞彼城	-11.5132
抆	-11.5132
毘舍佉	-11.5132
鉢器	-11.5133
生漏梵志	-11.5133
歡喜而樂	-11.5133
告群臣	-11.5133
彈指	-11.5133
合為一	-11.5133
僮僕	-11.5134
華氏	-11.5134
調悔	-11.5134
宗奉	-11.5134
至舍衛國祇樹給孤獨園	-11.5134
瑞應	-11.5134
鴿	-11.5134
粗	-11.5135
所得果報	-11.5135
七匝	-11.5136
一切皆是	-11.5136
悴	-11.5137
獲福無量	-11.5137
脅	-11.5138
行如是大施	-11.5138
奧	-11.5138
庫藏	-11.5138
盡有漏成無漏	-11.5139
則解其義	-11.5139
鬪亂	-11.514
諸天得勝	-11.514
婬泆	-11.514
亡失	-11.514
無所乏	-11.514
宗重	-11.514
神寺	-11.514
惡伴黨	-11.514
岳	-11.5141
白衣聖弟子	-11.5141
未得欲得	-11.5142
從何所來	-11.5144
相承用	-11.5144
轉移	-11.5145
守護諸根	-11.5145
曩	-11.5145
非形體具足	-11.5145
不得久存	-11.5146
魂神	-11.5148
遠近	-11.5148
愛惜	-11.5149
黑業	-11.515
佛住舍衛國	-11.5151
佛告央掘魔羅	-11.5153
醯魔波低	-11.5153
焰摩迦比丘	-11.5153
盲子	-11.5154
山澤	-11.5154
令得安隱	-11.5156
般咃	-11.5156
受五戒	-11.5157
禮事於彼	-11.5159
彼於受	-11.5165
兩頭	-11.5166
無放逸行	-11.5169
復以偈答	-11.5171
宣令	-11.5172
卑下	-11.5173
又且	-11.5174
?』『	-11.5175
舉足	-11.5176
此是汝師	-11.5176
犢子梵志	-11.5176
廣普	-11.5179
王子孫相承	-11.5182
佛告摩納	-11.5183
難國王	-11.5184
從口出	-11.5187
犯禁戒	-11.5192
求願	-11.5193
皆生天上	-11.5194
第四沙門	-11.5196
諸天及人	-11.5203
識入處	-11.5204
諸法之本	-11.5209
家屬	-11.5211
斷五蓋	-11.5211
七百由旬	-11.5213
即於彼處	-11.5213
諸苾芻眾	-11.5229
曇摩	-11.5232
得盡諸漏	-11.5239
退沒	-11.524
白淨法	-11.5241
善法增長	-11.5245
發願	-11.5246
心所念	-11.5248
則知我	-11.525
謂苦聖諦	-11.527
緣生法	-11.5276
為人說法	-11.5277
號曰	-11.5282
復有沙門	-11.5285
不畜	-11.5286
四沙門果	-11.5288
於我前	-11.5289
金師	-11.5292
斷貪欲	-11.5293
今此所來	-11.5293
觀眾生類	-11.5293
記念	-11.5301
與眾多比丘	-11.5304
無量種	-11.5306
歸依法	-11.5308
世尊便說斯	-11.531
若見沙門	-11.5311
花鬘	-11.5315
得利養	-11.5318
著水中	-11.5327
并餘	-11.5333
罪人入	-11.5334
賢者諦	-11.5339
或臥	-11.5351
自陳	-11.5356
亦復不能	-11.536
第十五	-11.537
無增減	-11.5377
群牛	-11.5379
無是處	-11.5379
佛如是說	-11.5384
無咎	-11.5384
以此句	-11.5385
斷絕離	-11.5392
燒脣	-11.5396
承事供養	-11.5396
諸夜叉	-11.5404
意行善	-11.5409
八見中	-11.541
來此間	-11.5416
世尊與諸大眾	-11.5416
財施	-11.5418
作此言	-11.5419
四遠	-11.5422
在何所	-11.5422
奉事剎利	-11.5423
覺觸	-11.5428
我今已得	-11.5431
門戶	-11.5432
世尊知已	-11.5436
知我心	-11.544
無牢	-11.5446
即告之	-11.546
所熏	-11.5467
諸有眾生	-11.5468
有求欲	-11.5477
無數劫	-11.5485
如車輪	-11.5488
母難陀	-11.5493
心生惡	-11.5499
七竟	-11.55
啟白	-11.551
純白	-11.5513
曹	-11.5525
經第十	-11.5528
向惡趣	-11.553
發遣	-11.5541
當為說	-11.5545
離塵	-11.5565
惡龍	-11.5572
善丈夫	-11.5583
願聞	-11.559
為我作	-11.5591
三十三	-11.5598
隨轉	-11.5605
叢	-11.5609
吾今當	-11.5609
撲	-11.561
外道梵志	-11.5618
將五百比丘	-11.5632
北方天下	-11.5636
晡	-11.5636
諸重擔	-11.5641
退還	-11.5642
瑕穢	-11.5649
以法教	-11.5654
舍羅步	-11.5654
紺青色	-11.5656
扇大海	-11.566
得具足戒	-11.5662
無愁憂慼	-11.5662
無病無上安隱涅槃	-11.5662
以氍氀	-11.5663
斷此諍	-11.5668
此法有諍	-11.5668
一意得定	-11.5669
男女大小	-11.5669
五結樂子	-11.567
若行者向念	-11.5671
我作剎利頂生王	-11.5671
山石	-11.5671
㮈女	-11.5671
在閑靜處	-11.5671
七重交露	-11.5671
却敵	-11.5672
鳩尸那城	-11.5673
見此眾生死時	-11.5673
惰	-11.5674
第四分別誦	-11.5674
歸家	-11.5674
摩多離	-11.5674
必受苦果地獄之報	-11.5674
日初出	-11.5675
必受苦果現法之報	-11.5675
陶	-11.5675
泣	-11.5675
不為他人之所輕毀	-11.5675
須臾之間	-11.5675
竝	-11.5676
增一阿含	-11.5676
知上如真	-11.5676
餘則虛妄	-11.5677
阿難邠坻	-11.5677
水澆頭種	-11.5677
歡娛	-11.5677
長生童子	-11.5677
分散破壞	-11.5677
色白如	-11.5677
來生此間	-11.5678
拘牟陀	-11.5678
於七日中	-11.5678
強健	-11.5678
心靖得喜	-11.5678
悲鳴	-11.5678
緣生有老死	-11.5678
胎生龍	-11.5678
不可稱量	-11.5678
善惡業報	-11.5679
不牢要	-11.5679
非沙門稱沙門	-11.5679
枚	-11.5679
專念不忘	-11.5679
從後說絕	-11.5679
隸	-11.5679
阿臈鬼	-11.568
毗婆尸	-11.568
鞞摩質多囉阿修囉王	-11.568
膿血流出	-11.5681
修增上慈	-11.5681
蹹	-11.5681
慧者聞喻	-11.5681
床敷臥具	-11.5681
普熏	-11.5681
拼度	-11.5681
僂	-11.5681
非有願非無願行	-11.5681
瑕	-11.5681
烏鳥	-11.5682
金幢二婆羅門	-11.5682
佛住摩拘羅山	-11.5682
所以族姓子	-11.5682
胡	-11.5682
穌	-11.5682
然燈	-11.5682
神止處	-11.5682
猛盛	-11.5682
阿闍梨	-11.5683
放牛人	-11.5683
熱惱大地獄	-11.5683
卷第一	-11.5683
心中不生	-11.5684
富蘭那迦葉	-11.5684
曇摩留支	-11.5684
最在其	-11.5684
一切世間不可樂想	-11.5684
頭面禮世尊足	-11.5684
一正見人	-11.5684
不如有人以	-11.5685
准	-11.5685
阿須輪	-11.5685
嫌責	-11.5685
意之所念	-11.5685
軛	-11.5686
按	-11.5686
融銅	-11.5686
慘	-11.5686
輸迦長者	-11.5687
亦知是所樂	-11.5687
亦知從是沒	-11.5687
亦知是更苦	-11.5687
▁11	-11.5687
蜂	-11.5688
語亦善	-11.5688
中後彷徉	-11.5688
與如來等	-11.5688
尼民陀羅	-11.5688
歸依三寶	-11.5689
憑	-11.5689
街	-11.5689
七肘	-11.5689
婆耆舍	-11.5689
剎那	-11.5689
乖	-11.569
是佛弟子名	-11.569
則知上如真	-11.569
▁12	-11.569
無有遺餘	-11.569
色為常	-11.569
阿僧祇劫	-11.5691
乘虛而行	-11.5691
善男子捷疾具足	-11.5691
莫知所	-11.5691
央掘魔羅以偈答	-11.5691
水為之開	-11.5691
十二部經	-11.5691
觀興衰法	-11.5691
希望	-11.5691
無行般涅槃	-11.5692
悅豫	-11.5692
四輩弟子	-11.5692
義味具足	-11.5692
綜	-11.5693
淪	-11.5693
劒	-11.5693
無慚無愧	-11.5694
用是因緣	-11.5694
五納	-11.5694
禮佛而去	-11.5694
怛	-11.5695
讖	-11.5695
意思食	-11.5695
尊者婆耆奢	-11.5696
如截多羅樹頭	-11.5696
此為何義	-11.5696
無上福田	-11.5696
憂慼不樂	-11.5696
為他人說	-11.5697
內寂其心	-11.5697
長者給孤獨	-11.5697
具足而受	-11.5698
結相隨	-11.5699
念如來事	-11.5699
黎	-11.5699
虧	-11.57
是故稽首禮	-11.57
耕種	-11.57
遮迦越羅王	-11.5701
啼哭號呼	-11.5702
畫師	-11.5703
於佛不壞淨成就	-11.5703
或一若男若女	-11.5703
普遍	-11.5704
象首	-11.5705
不捨方便	-11.5705
閻王	-11.5705
形體具足	-11.5705
火種居士	-11.5706
象兵	-11.5706
佛告玉耶	-11.5707
斯有是處	-11.5707
光顏	-11.5708
差降	-11.5708
受具足戒	-11.5708
尸羅	-11.571
劫盜	-11.5711
而受夏坐	-11.5711
見此比丘	-11.5712
驅出	-11.5712
深入	-11.5713
受其報	-11.5713
無如是事	-11.5713
溪㵎	-11.5714
萬四千	-11.5714
寂默	-11.5714
阿那邠祁長者	-11.5714
入他家	-11.5716
亦在眾中	-11.5717
一一門	-11.5718
定生喜樂	-11.5719
壽千歲	-11.572
覺受樂	-11.572
根熟	-11.5722
當生何處	-11.5722
精勤修習	-11.5723
第二第三	-11.5724
最為上	-11.5725
身口意業	-11.5726
苦滅道跡聖諦如實知	-11.5726
有身滅	-11.5728
覺寤	-11.5729
四阿含	-11.573
纏裹	-11.5731
月光長者	-11.5731
經營	-11.5732
子曹	-11.5732
超出	-11.5736
廣遠	-11.5737
復走	-11.5737
▁5	-11.5742
佛說此人	-11.5742
母胎事	-11.5744
可聞法	-11.5745
開門	-11.5747
平地	-11.575
四無所畏	-11.5751
名某	-11.5752
以火燒	-11.5753
獵師食	-11.5754
佛告帝釋	-11.5754
世間出生	-11.5758
諸根具足	-11.5762
踊躍無量	-11.5764
烟出	-11.5766
樓上	-11.5767
彼等眾生	-11.5772
硨𤦲瑪瑙等	-11.5772
豫知	-11.5773
因苦行	-11.5775
疑結	-11.5775
入我法	-11.5783
觀法如法	-11.5783
得斯陀含果	-11.5785
龍神	-11.5785
取泥洹	-11.5785
不見一法	-11.5787
妄說	-11.579
持五戒	-11.5792
諸法本	-11.5793
開覺	-11.5794
在閑居	-11.5794
是謂三種	-11.5797
應當學	-11.5798
導從	-11.5803
心不解脫	-11.5806
無上尊	-11.5809
所染	-11.5811
諸年少比丘	-11.5811
於中所有	-11.5817
當何所	-11.5817
截耳	-11.5818
為變易法	-11.5818
與比丘眾	-11.5819
皆悉具足	-11.5822
便成阿羅漢	-11.5825
其音	-11.5827
七千由旬	-11.5827
與無數	-11.5833
以慧觀	-11.5834
求財物	-11.5838
為最第一	-11.584
持不忘	-11.5841
失利	-11.5841
是有為	-11.5846
精勤修	-11.5847
起迎	-11.5857
無乏	-11.5862
成須陀洹	-11.5862
漏心解脫	-11.5863
牧牛	-11.5867
風種	-11.587
隨順法	-11.5877
長老上尊	-11.5878
斷諸煩惱	-11.588
鐵釘	-11.589
起世經	-11.5897
斷欲貪	-11.5904
著肩上	-11.5908
欲見世尊	-11.5908
我已解	-11.5908
無明使	-11.5911
遙聞	-11.5911
毒藥	-11.5919
從世尊聞	-11.5922
我不堪任	-11.5927
並作是	-11.5934
恚怒	-11.5935
四句	-11.594
閻浮洲中	-11.5951
尊者舍利弗語	-11.5954
善見天	-11.5956
實不可	-11.5966
何謂四	-11.5969
持八關齋	-11.5986
有補特伽羅	-11.5987
所知見	-11.5988
當獨一靜處	-11.599
相近	-11.5991
祇樹	-11.5992
彼壽轉	-11.6004
都無所	-11.6007
咽喉	-11.6036
若干百	-11.604
觀察非我	-11.605
無過於	-11.6051
藥草	-11.6055
如來不久	-11.6056
咸共	-11.6064
事因此事	-11.6076
在彼住	-11.608
恭敬承事	-11.6084
於聖法	-11.6094
訟	-11.6095
為欲何	-11.6108
受信施食	-11.6132
是我師	-11.6144
金寶	-11.6148
乘象	-11.6167
知者當	-11.618
歲數	-11.6204
正見人不如施	-11.6213
阿那邠祁	-11.6214
起慈心	-11.6218
尸棄	-11.6222
不腐	-11.6224
柯	-11.6227
此等名為	-11.623
聰	-11.624
當奉行	-11.6241
於空靜處	-11.6245
伴黨	-11.6246
梵志國師	-11.6248
便走欲求解脫	-11.625
呼呼婆	-11.625
嘿然	-11.6251
常隨不離	-11.6251
無穢污無上安隱涅槃	-11.6251
跋地羅帝偈	-11.6252
主兵臣	-11.6253
城三匝	-11.6253
求歸依處	-11.6256
頞浮陀	-11.6257
倉庫	-11.6259
熱沸	-11.626
自然變成	-11.626
俟	-11.6261
諸小國王	-11.6261
覺礫拘荀大	-11.6261
甜	-11.6262
是即名為	-11.6262
力士屈申臂頃	-11.6262
善然可	-11.6263
帛	-11.6263
棘刺	-11.6263
是即名為佛最勝法	-11.6263
內無求欲	-11.6263
拘樓秦佛	-11.6264
善眼大師	-11.6264
問訊聖體	-11.6264
函	-11.6264
去後不久	-11.6264
廣布無常想	-11.6264
六思身	-11.6264
聞佛此語	-11.6264
波浪	-11.6264
撮	-11.6264
言有我	-11.6264
捺	-11.6265
日大城郭	-11.6265
汝亦當復	-11.6265
祭祀儀禮	-11.6265
咨嗟稱歎	-11.6265
將來之世	-11.6265
經第十竟	-11.6265
若男若女	-11.6265
是無所有處成就遊	-11.6266
勤加精進	-11.6266
是說苦邊	-11.6266
善住尼拘類樹王	-11.6266
應懃修集	-11.6266
間廁	-11.6266
為當來有本	-11.6266
佛住迦毘羅衛國尼拘律園	-11.6266
筏	-11.6266
有所論說	-11.6266
碧	-11.6266
瘦弱	-11.6266
路側	-11.6267
作身業	-11.6267
典兵寶	-11.6267
緣有有生	-11.6267
城中治化	-11.6267
紺馬寶	-11.6267
紅蓮華	-11.6267
懸繒幡蓋	-11.6267
困篤	-11.6268
明日清旦	-11.6268
席	-11.6268
弗婆提洲	-11.6268
墮負處	-11.6269
苦盡諦	-11.6269
無憂慼正行	-11.6269
驚懼	-11.6269
紫磨金	-11.6269
夜闇中	-11.6269
於一日中	-11.6269
爐	-11.627
受惡報	-11.627
陰馬藏	-11.627
不無恩	-11.627
此是何人	-11.627
如是比丘隨其身行	-11.627
三十一劫	-11.627
拘睒彌	-11.627
細軟	-11.6271
鵡	-11.6271
麤澁	-11.6271
後漢安息國三藏安世高譯	-11.6271
調伏世間貪憂	-11.6271
隔	-11.6272
徐徐	-11.6272
佛住拘睒彌國瞿師羅園	-11.6272
槍	-11.6272
善義善	-11.6272
或至樹下空安靜處	-11.6272
半由旬	-11.6272
巨富	-11.6272
波羅蜜	-11.6272
十五日說從解脫時	-11.6272
從宴坐起	-11.6272
清潔	-11.6273
普四方面各有	-11.6273
鬚閑提異學	-11.6273
逃	-11.6273
迦蘭陀	-11.6273
被袈裟	-11.6273
賢良	-11.6273
賢者目揵連	-11.6273
從三昧起	-11.6273
如來之藏	-11.6273
懸繒	-11.6274
修於梵行	-11.6274
箭毛	-11.6274
以五繫縛	-11.6274
各還本處	-11.6274
最為上首	-11.6274
專念不亂	-11.6274
幢幡	-11.6275
乃至於斯	-11.6275
!』「	-11.6275
▁10	-11.6275
大苦災患	-11.6275
為其說法	-11.6275
肝	-11.6275
駱駝	-11.6275
身作證具足住	-11.6276
聲聞緣覺	-11.6276
籍	-11.6276
卷第六	-11.6276
r	-11.6276
序	-11.6276
令不行惡	-11.6276
種種經書	-11.6276
商佉	-11.6277
集會聽法	-11.6277
梵及餘世間	-11.6277
毀罵	-11.6277
九十一劫	-11.6277
寒暑	-11.6277
不饒益苦	-11.6278
獲如斯	-11.6278
句味	-11.6278
瑟	-11.6278
魔王眷屬	-11.6278
膽	-11.6279
神珠寶	-11.6279
大如車輪	-11.6279
完	-11.6279
今我此身	-11.6279
眾寶瓔珞	-11.6279
不還此世	-11.628
偃	-11.628
更互相	-11.628
織成	-11.6281
乘船	-11.6281
有六牙	-11.6281
謬	-11.6281
石蜜	-11.6282
毘沙門大天王	-11.6282
所以善男子	-11.6282
著僧伽梨	-11.6282
聞此正法	-11.6283
道場	-11.6283
無相心三昧	-11.6283
幹	-11.6283
初生之時	-11.6283
臼	-11.6284
唯願天王	-11.6284
初生時	-11.6284
田宅	-11.6285
殘害	-11.6285
抂	-11.6286
撾打	-11.6286
雅	-11.6286
真偽	-11.6286
調達	-11.6286
嚴備	-11.6287
紺色	-11.6287
極懷歡喜	-11.6287
如甲上土	-11.6288
婆伽婆在	-11.6288
萬端	-11.6288
姊	-11.6288
當念修行	-11.6288
眾多異學	-11.6288
輕毀	-11.6289
近遠	-11.629
曩昔	-11.6291
尊者跋陀羅	-11.6291
机	-11.6291
尊者二十億耳	-11.6292
賢士	-11.6292
不自譽	-11.6292
口言惡	-11.6292
徹聽	-11.6293
工師女	-11.6294
乃至未盡	-11.6294
深嶮	-11.6295
佛在拘薩羅人間	-11.6296
天地大動	-11.6296
陸地	-11.6297
九十日	-11.6298
聽我所說	-11.63
執手	-11.63
沙門及婆羅門	-11.63
當以此方便	-11.6301
所制	-11.6301
觸緣受	-11.6302
微劣	-11.6302
迭相	-11.6303
如前所說	-11.6303
聲聞弟子	-11.6303
尊者羅睺羅	-11.6303
火燃	-11.6306
鹹苦	-11.6308
緣覺不如施	-11.631
力勢	-11.631
而無有異	-11.631
無價	-11.631
有水生	-11.6311
作是學	-11.6311
共戰鬪	-11.6311
非無因緣	-11.6313
馭者	-11.6314
渡水	-11.6315
開發	-11.6316
供具	-11.6318
毘沙門	-11.6318
天及人民	-11.6319
相揩	-11.6319
萬二千里	-11.6319
毘富羅山	-11.632
受王教已	-11.632
如至誠知	-11.632
聞某	-11.6321
汝等今者	-11.6323
而取命終	-11.6324
飛在虛空	-11.6325
缺減	-11.6326
超度	-11.6327
有此功德	-11.6327
滅盡定	-11.6327
此經名	-11.6331
四指	-11.6331
即於其夜	-11.6336
未熟	-11.6339
尊者舍梨子歎	-11.634
迦遮延	-11.6341
我住無	-11.6342
如來之所說	-11.6343
得大福祐	-11.6346
獸王	-11.6346
四辯	-11.6349
身出火	-11.6351
增上戒	-11.6352
如來死後有	-11.6355
出於世	-11.6355
若干種想	-11.6359
不見不知	-11.6361
住一劫	-11.6363
修無常想	-11.6365
斷邪婬	-11.6366
云何為二法	-11.6367
前為佛作禮	-11.6368
便往至世尊所	-11.6372
容受	-11.6372
禪室	-11.6377
成無漏	-11.6378
被燒	-11.6381
此閻浮洲	-11.6381
八萬人	-11.6381
眾生無始生死	-11.6382
虛空之中	-11.6382
稍減	-11.6383
憶本	-11.6385
向阿羅漢	-11.6385
律亦復如是	-11.6389
色最勝	-11.6391
是謂有人	-11.6392
麤食	-11.6392
四大海水	-11.6394
四體	-11.6395
賢死	-11.6398
有明月	-11.6398
觀察無常	-11.6399
山間	-11.6399
共聚集	-11.64
坐樹下	-11.6401
勤加	-11.6401
第	-11.6405
至王所	-11.641
可法滅	-11.641
可愛樂	-11.6411
既到	-11.6417
豈當	-11.6421
是故當知是	-11.6424
阿浮	-11.6441
月光	-11.647
十速證	-11.6473
諍鬪	-11.6475
復再三	-11.6479
還所止	-11.6481
說梵世法	-11.6488
民眾	-11.6498
世尊知彼	-11.6499
郡國	-11.6503
此五百比丘	-11.6508
受極苦	-11.651
亂風	-11.652
罪人報	-11.6525
鸚鵡摩納白	-11.653
四洲	-11.6538
尊重恭敬	-11.6544
輕慢於	-11.6544
眼識色	-11.6551
惡語言	-11.6563
有諸門	-11.657
河岸	-11.658
歸依僧	-11.6582
如世尊所說	-11.6583
在前住	-11.6591
離熾然	-11.661
不能動	-11.6612
其處縱廣	-11.6625
生梵天上	-11.6631
捶	-11.6631
漏失	-11.6641
於諸世間	-11.6643
可法生	-11.6644
各縱廣五十由旬	-11.6647
何所繫	-11.6651
供養舍利	-11.6653
知苦如真	-11.6665
所污	-11.6667
諸尊長	-11.6672
遊王舍城	-11.6677
入識處	-11.6692
得定意	-11.6694
二十二	-11.6701
復教他人使	-11.6709
訓	-11.6718
離邪婬	-11.6728
脫一切苦	-11.6728
便生惡	-11.6753
稍稍	-11.6764
河流	-11.6796
嫌怖久捨	-11.6797
說偈問	-11.6818
護眼根	-11.6833
此四諦	-11.6839
釋女	-11.684
聚沫	-11.6864
深遠	-11.6865
梵行之人	-11.6866
獄亦廣五百由旬	-11.6867
顯照	-11.6868
縱廣二萬里	-11.687
膿	-11.6871
膩	-11.6871
已遠離此	-11.6871
有泥犁名	-11.6871
覆以錦綺羅	-11.6871
種金翅鳥	-11.6872
瘂	-11.6872
趣非品	-11.6872
脣舌	-11.6873
為王者所識	-11.6873
不可療治	-11.6874
稻穀	-11.6874
生火長養	-11.6875
彼依此處	-11.6876
離本相	-11.6876
勝林給孤獨園	-11.6876
萬二千由旬	-11.6878
是故此法則	-11.6878
復以何故名為	-11.6879
陶屋	-11.6879
難提波羅	-11.688
耻	-11.688
是我常所	-11.6881
篤	-11.6881
鬱	-11.6881
習行不斷	-11.6881
車𤦲馬瑙等	-11.6882
轂	-11.6882
殊低沙迦利迦	-11.6882
而有差降安樂住止	-11.6882
世尊默然受	-11.6882
臨命終時	-11.6882
膠	-11.6883
婆利師迦	-11.6883
有二岐道	-11.6883
三十三天晝度樹	-11.6883
蘇摩那	-11.6883
行施修福	-11.6883
餘皆虛妄	-11.6883
優多羅童子	-11.6883
及諸智梵行人	-11.6884
得出離清淨	-11.6884
所謂阿提目多迦	-11.6884
自以為樂	-11.6884
畔	-11.6884
敷妙	-11.6884
二十四萬里	-11.6885
遊提迦	-11.6885
閃電	-11.6885
生天長壽	-11.6885
級	-11.6885
洋	-11.6886
阿迦尼吒	-11.6886
鉾	-11.6886
屠殺	-11.6886
滅盡無餘	-11.6886
夜將向旦	-11.6886
拘尸那竭	-11.6887
抑	-11.6888
無明緣行	-11.6888
懷姙	-11.6888
嗣	-11.6888
慈地比丘	-11.6888
號咷	-11.6888
婆伽婆	-11.6888
少病少惱	-11.6888
嫁娶	-11.6888
彼黑繩大地獄中	-11.6888
毘耶離	-11.6888
有所答對	-11.6888
瞻仰	-11.6889
以淨天耳	-11.6889
說如來常恒不變如來之藏	-11.6889
枯竭	-11.6889
指髻	-11.6889
身知細滑	-11.6889
拘那含牟尼佛	-11.6889
一水乳	-11.689
芭	-11.689
授決	-11.689
田主	-11.6891
得清澄	-11.6891
驗	-11.6891
我悉知之	-11.6892
而自遊戲	-11.6892
屈申臂頃	-11.6892
捷	-11.6892
俱毘陀羅	-11.6892
共俱定	-11.6892
桓	-11.6892
怕	-11.6892
多有錢財	-11.6893
我慢使繫著	-11.6893
疫	-11.6893
日大宮殿	-11.6893
故此補特伽羅	-11.6893
阿修囉	-11.6893
守護眼根	-11.6893
必有此處	-11.6893
善觀分別	-11.6894
壽二萬歲	-11.6894
我念往昔	-11.6894
發歡喜心	-11.6894
幼小	-11.6894
去佛不遠	-11.6894
精懃	-11.6894
天龍鬼神	-11.6895
引導	-11.6895
焦	-11.6895
無餘涅槃界	-11.6895
縈	-11.6895
彼此定樂欲住	-11.6895
予	-11.6895
有侍者比丘名曰羅陀	-11.6896
革屣	-11.6896
藪	-11.6896
詳	-11.6896
那優羅	-11.6896
自以為得脫	-11.6896
頗梨赤珠	-11.6896
殼自	-11.6896
世尊漸與	-11.6896
不寒不熱	-11.6897
隆	-11.6897
彼作願行行	-11.6897
得大果大福利	-11.6897
眉	-11.6897
必不得果	-11.6897
漏盡心解脫	-11.6897
恣汝所問	-11.6898
舉罪比丘	-11.6898
瓶沙王	-11.6898
掃灑	-11.6898
摩利迦	-11.6898
阿毘脂	-11.6898
婆羅門於本劫本見	-11.6899
文字	-11.6899
哲	-11.6899
分別曉了	-11.6899
從今已後	-11.69
糠	-11.69
效	-11.69
捨於重擔	-11.69
此一補特伽羅	-11.69
輕慢自有財物	-11.69
莫以非法	-11.69
宗敬	-11.69
5)]	-11.69
假借	-11.69
阿難對言	-11.6901
王園比丘尼眾中	-11.6901
昇虛空	-11.6901
取緣有	-11.6901
鄰	-11.6901
來至此間	-11.6901
善惡之報	-11.6902
塵勞	-11.6902
n	-11.6902
辛苦	-11.6902
十肘	-11.6902
墮淚	-11.6902
瞢瞢	-11.6902
不真人法	-11.6903
況欲出其上	-11.6903
更不受有	-11.6903
為從何生	-11.6903
色轉惡	-11.6903
豐熟	-11.6903
無義相應	-11.6903
顧戀	-11.6904
闍尼沙	-11.6904
解脫見慧成就	-11.6904
六想身	-11.6904
戀慕	-11.6904
則不然	-11.6904
挍	-11.6904
彼意恚	-11.6904
非想非非想入處	-11.6904
翫習	-11.6905
四雙八輩	-11.6905
八關	-11.6905
如前廣說	-11.6905
八萬小洲	-11.6905
慈仁	-11.6905
遏	-11.6905
欣然微笑	-11.6905
佳	-11.6905
斷除諸有	-11.6906
修行一法	-11.6907
優劣	-11.6907
遜	-11.6907
蠕動之類	-11.6907
轉向善趣	-11.6907
矜	-11.6908
皆在是	-11.6908
赤石	-11.6908
甖	-11.6908
律尊師	-11.6908
所從起	-11.6908
堆壓	-11.6909
恚恨	-11.6909
最勝最妙	-11.6909
怨敵	-11.6909
若使一切眾生無有	-11.6909
著種種具莊	-11.691
尊者阿難叉手向佛	-11.691
約勅	-11.691
缺漏	-11.691
現在泥洹	-11.6911
婁	-11.6911
工師族	-11.6911
人獲安	-11.6911
阿㝹羅度	-11.6911
乃生天上	-11.6912
劫奪	-11.6912
飛行皇帝	-11.6913
身心熱	-11.6913
屈伸	-11.6913
二十一結	-11.6914
隱藏	-11.6914
嚫	-11.6915
為父母所	-11.6915
病瘦	-11.6915
或為他	-11.6915
除愈	-11.6915
最後邊	-11.6916
有所益	-11.6916
調適	-11.6917
愁憂不樂	-11.6918
拔刀	-11.6918
年二十	-11.6919
二十億	-11.692
尊者須菩提	-11.6922
善法講堂	-11.6922
俱相類相聚相應相可	-11.6923
不煩熱命終	-11.6923
降魔	-11.6923
大目犍連	-11.6924
流血	-11.6925
當來有愛	-11.6925
不能污王	-11.6925
母腹中	-11.6925
鬱單曰	-11.6925
有長者名	-11.6926
復有叢林名曰	-11.6926
無母子畏	-11.6927
慙愧羞厭	-11.6928
救頭	-11.6929
如是等名為	-11.6929
是一義	-11.693
增長善法	-11.6932
阿梨	-11.6933
是為九	-11.6934
壞亂	-11.6935
誠心	-11.6935
威光顯	-11.6936
遣信	-11.6937
照耀	-11.6937
離慳貪	-11.6939
世尊告彼比丘	-11.694
覆面	-11.694
皆同一	-11.6942
尊者闡陀	-11.6943
無有狐疑	-11.6944
瞿迦梨比丘	-11.6945
入正法耶	-11.6946
相逢	-11.6948
正赤	-11.6949
為法本	-11.6949
狐疑斷	-11.695
是謂第七	-11.6952
六衰	-11.6952
三千由旬	-11.6953
以神通力	-11.6953
一踰闍那	-11.6954
梵釋	-11.6955
諸娑羅樹	-11.6958
是謂第六	-11.6959
修七覺分	-11.696
牛羊	-11.696
逝心	-11.6961
譬如國王	-11.6963
即入三昧	-11.6966
得生梵天	-11.6966
可習法	-11.6972
所漂	-11.6974
族姓子所為	-11.6977
腐壞	-11.6977
神足第一	-11.6978
汝愚癡人	-11.6981
變成	-11.6981
徐行	-11.6982
千二百五十人	-11.6986
葬法	-11.6987
真知識	-11.699
所從生	-11.6991
娶婦	-11.7
諸釋氏	-11.7005
中最為第一	-11.7005
千二百由旬	-11.7011
主藏	-11.7013
小豆	-11.7019
當來事	-11.7019
動轉	-11.7019
兜率	-11.7024
斷除一切	-11.7025
增損	-11.7027
見災患	-11.7031
何故名為	-11.7032
法及比丘僧	-11.7038
以天耳聞	-11.7041
速嚴駕	-11.7043
所知法	-11.7049
盡苦邊	-11.705
眾生因欲	-11.7052
莫作是說	-11.7055
汝今何故	-11.7065
與相見	-11.7078
設使離	-11.7095
御車	-11.7097
聲聞乘	-11.7107
蒙佛	-11.7108
前已說	-11.7112
首陀羅種	-11.7126
何等類	-11.7142
斷欲愛	-11.7158
乘馬	-11.7167
謂有比丘知	-11.7177
生彼天	-11.7185
八萬四千車	-11.7192
此三族姓子	-11.7198
面訶	-11.7206
三族姓子	-11.7212
聲聞中第一	-11.7239
金樓	-11.7245
持三衣	-11.7261
得應真	-11.7265
我今亦當	-11.7296
百千億	-11.7296
惶怖	-11.7313
深信	-11.7314
貴賤	-11.7328
風災	-11.7328
凡愚	-11.7332
外有山	-11.7333
命存	-11.7348
自覺悟	-11.7354
施設斷	-11.7358
恭敬禮拜	-11.7358
從禪覺	-11.7359
結不斷	-11.738
諸天女	-11.7386
視瞻	-11.7391
入房	-11.7409
五百優婆塞	-11.7422
石擲	-11.7432
久存於世	-11.7444
硨𤦲	-11.7446
尊者優婆離	-11.7454
林間	-11.7473
四衢	-11.7483
娛	-11.7489
二千里	-11.7495
鐵圍山	-11.7498
知他心	-11.7498
主藏聖臣	-11.751
具大神通	-11.7528
山側	-11.753
安那般那念	-11.7532
佛皆離是	-11.7534
尼彌王	-11.7536
菴羅園	-11.7537
香熏	-11.7538
山林樹下	-11.7539
為諸比丘所	-11.7539
優波崛	-11.754
過惡未盡故不死	-11.754
諳	-11.7541
受苦無量	-11.7541
著鎧	-11.7542
麁手釋	-11.7542
異學鞞摩那修	-11.7542
怙	-11.7543
色香味	-11.7543
阿羅羅	-11.7543
橋梁	-11.7544
襯體	-11.7544
中何因何緣	-11.7544
如來有後死	-11.7544
誦習典經	-11.7544
不覺忽至	-11.7545
矟	-11.7545
至善處	-11.7545
彼必統領此一切地	-11.7545
三千大千剎土	-11.7546
不是不非	-11.7546
有十種業	-11.7546
身知觸	-11.7546
或心願效如是如是	-11.7547
捨之而去	-11.7547
易染為色	-11.7548
拘牟陀花	-11.7548
盜他物	-11.7548
得人上之法	-11.7548
作諸惡行	-11.7549
尊者盧夷強耆	-11.7549
羅網懸	-11.755
癡惑	-11.755
羽寶之車	-11.7551
狐	-11.7551
飯佛及比丘僧	-11.7552
放牛兒	-11.7552
離殺斷殺	-11.7552
迅	-11.7552
卜	-11.7552
我今真為轉輪聖王	-11.7552
猫	-11.7553
所謂金銀琉璃	-11.7553
請佛及比丘僧	-11.7553
奔走	-11.7553
巴連弗邑	-11.7553
欝瘦歌邏梵志	-11.7553
還歸其家	-11.7554
征	-11.7554
踝	-11.7554
迦維羅衛	-11.7555
誡勅	-11.7555
寸	-11.7555
長生博士	-11.7555
掬	-11.7555
轉還不得舒張	-11.7555
恭順	-11.7555
佯	-11.7555
植	-11.7556
汝等共來	-11.7556
則有憂慼苦不樂	-11.7556
摩那婆	-11.7556
尼連禪河側	-11.7557
搔揵地	-11.7557
乃至七世父母	-11.7557
唯無上梵行訖	-11.7557
凝	-11.7557
從此安隱度至閻浮洲	-11.7557
優波先那	-11.7557
拳	-11.7557
於閑靜處	-11.7557
稗	-11.7557
俠	-11.7557
孝養父母	-11.7558
隷	-11.7558
最在後	-11.7558
帳	-11.7558
廣演其義	-11.7558
種種豐饒	-11.7559
成阿耨多羅三藐三菩提	-11.7559
與晝無異	-11.7559
鞞摩肅	-11.7559
招提僧	-11.7559
一一諸門	-11.7559
樂少苦多	-11.7559
必至善處	-11.7559
羸劣	-11.7559
湧	-11.7559
高四千里	-11.7559
塵土坌	-11.7559
浪	-11.756
絺	-11.756
端正無雙	-11.756
傾臥	-11.756
執拂侍佛	-11.756
巾	-11.756
悉備	-11.756
八萬四千夫人及女寶	-11.756
巡	-11.756
四三二	-11.756
彼等諸門	-11.7561
旃	-11.7561
條	-11.7561
是無量識處成就遊	-11.7561
生於天中	-11.7561
淡	-11.7561
弗婆提人	-11.7561
不失時節	-11.7561
失定而滅	-11.7562
漏盡智通作證	-11.7562
白珂	-11.7562
愕	-11.7562
築	-11.7562
甚深微妙大	-11.7562
寧有閑暇見答	-11.7562
釋迦牟尼佛	-11.7562
令從是致墮	-11.7562
愛滅則取滅	-11.7562
躍	-11.7563
釋氏難提	-11.7563
波羅㮈㮈	-11.7563
苦習諦	-11.7563
還顧	-11.7563
至舍衛城	-11.7563
以此事故	-11.7563
妻子奴婢	-11.7563
星中月	-11.7564
戮	-11.7564
知出要如真	-11.7564
一須陀洹不如施百須陀	-11.7564
-	-11.7564
歡喜信受	-11.7564
菜	-11.7564
敷坐具	-11.7564
知其如真	-11.7564
輪圓山	-11.7565
枰	-11.7565
從初禪起	-11.7565
相為何等為	-11.7565
質多羅	-11.7565
世尊為法主	-11.7565
+(	-11.7565
舐	-11.7566
燃燈	-11.7566
苦習盡道	-11.7566
五百由旬小地獄中	-11.7566
駿疾	-11.7566
腎	-11.7566
鐵刺	-11.7566
狂惑	-11.7566
家中居	-11.7566
作是論	-11.7566
聰明黠慧	-11.7566
觀已而渡	-11.7566
染汙	-11.7567
編	-11.7567
無瑕穢	-11.7567
有人出已而住	-11.7567
將諸比丘眾	-11.7567
沃	-11.7567
皮膚	-11.7567
阿若拘隣	-11.7567
冷暖	-11.7568
安隱樂住	-11.7568
四百八十里	-11.7568
黑冥	-11.7568
瞋忿	-11.7568
唯願說之	-11.7568
補治衣	-11.7568
萌	-11.7568
最在前	-11.7569
於路中見一大身	-11.7569
鏤	-11.7569
阿摩勒	-11.7569
十不善業	-11.7569
籠	-11.757
妓女	-11.757
字某	-11.757
生滅則老	-11.757
蝕	-11.757
謂緣無明行	-11.757
伺察	-11.757
屎尿	-11.7571
著右肩上	-11.7572
縈髻	-11.7572
當念奉行	-11.7572
六十二見	-11.7572
往見如來時	-11.7572
鍼	-11.7572
世尊呼汝	-11.7572
婆迦梨	-11.7573
我今歸依佛	-11.7573
乃至純大苦聚集	-11.7573
肅	-11.7573
景	-11.7573
墮負門	-11.7573
獲大果報	-11.7573
黑婢	-11.7574
勸進	-11.7574
無有瑕穢	-11.7574
我及世間是常	-11.7574
經無量時長遠道中	-11.7574
殊異	-11.7575
瞿師羅長者	-11.7575
天竺	-11.7575
滓	-11.7575
未生有漏	-11.7575
餘者不如	-11.7575
絲	-11.7576
貿	-11.7576
垢膩	-11.7576
)【	-11.7577
面目	-11.7577
之所稱譽	-11.7578
說從解脫	-11.7578
開導	-11.7578
漫	-11.7579
拔箭	-11.7579
唯願為說	-11.758
骨肉	-11.758
見四真諦	-11.7581
按摩	-11.7581
佛告文殊師利	-11.7581
神足之力	-11.7581
姑	-11.7581
縈髮目揵連	-11.7582
須陀味	-11.7583
成道果	-11.7584
庫藏盈溢	-11.7585
志性	-11.7585
即於現法	-11.7586
空野	-11.7586
能自記說	-11.7588
苑中	-11.759
尊者那伽達多	-11.759
終始	-11.7591
惟願	-11.7591
壽百歲	-11.7592
有所照	-11.7593
隨藍	-11.7595
滿度摩城	-11.7595
行報故	-11.7596
取兵仗	-11.7596
長存	-11.7598
日誦	-11.7599
默然而坐	-11.7599
駿疾具足	-11.7599
七重寶	-11.76
說是經	-11.76
非賢者法	-11.76
坐已定	-11.7601
戒定慧	-11.7602
菴羅園中	-11.7602
四念處修習多修習	-11.7602
長衰	-11.7603
以手摩	-11.7603
高樓	-11.7604
舉動	-11.7604
修摩提女	-11.7605
尊者目揵連	-11.7606
身身觀念處	-11.7607
諸清信士	-11.7608
自相娛樂	-11.7609
四維	-11.761
廣演法	-11.761
看視	-11.7614
無量百千歲	-11.7614
瞿陀尼人	-11.7614
塵穢	-11.7615
立字	-11.7616
內外俱	-11.7616
垂下	-11.7616
雖爾	-11.7616
復還入	-11.762
往佛所	-11.7622
出要界	-11.7624
有如是報	-11.7625
供養眾僧	-11.7625
頻來	-11.7625
悉來集	-11.7626
無量無邊	-11.7626
上尊長老	-11.7632
長夜受苦	-11.7637
至無有命終	-11.7639
悉達	-11.764
大梵王	-11.7644
稱怨	-11.7663
縛結	-11.7664
餘殘	-11.7668
八大地獄	-11.7671
自然而有	-11.7678
我此定	-11.768
長夜之中	-11.7686
至沙門瞿曇所	-11.7695
毘舍婆	-11.7697
心念惡	-11.7704
天眼第一	-11.774
臣白王	-11.7746
世尊便說偈	-11.7754
復教他人使不	-11.7763
通證	-11.7763
瞻波迦	-11.7772
六受身	-11.7776
相率	-11.7784
天神復說偈	-11.7786
害界	-11.7803
有三因緣	-11.7803
猶不能	-11.7811
我昔曾	-11.7822
鹿野園中	-11.7829
領群特	-11.783
樹影	-11.7838
國邑	-11.7841
勸他	-11.7857
窮困	-11.7862
難值	-11.7875
阿練	-11.788
沒不現	-11.7915
後久久	-11.7916
八關齋法	-11.792
跋陀	-11.7959
至長者家	-11.7966
郡	-11.7983
不墮惡	-11.7988
第十六	-11.8011
諍競	-11.8018
叫喚大地獄	-11.8022
可愛念	-11.8036
人出現於世	-11.8039
以他心智觀	-11.807
侍臣	-11.8074
孫陀利	-11.8077
都不見	-11.8083
知出入	-11.8089
得須陀洹果	-11.8123
愛別離苦	-11.8133
兜率陀	-11.8138
仙聖	-11.8161
揩	-11.8201
一心聽	-11.8209
皰	-11.8226
雪	-11.8236
彼因餘比丘	-11.8237
便失定	-11.8239
不善與苦果受於苦報	-11.8246
!』『	-11.8248
聖眾善趣	-11.8248
6)	-11.8248
得增上心	-11.8249
尊者沙門二十億	-11.825
覺彼心而	-11.8254
波遮悉多羅那	-11.8254
􂌶	-11.8255
澡豆	-11.8256
輔	-11.8257
長身婆羅門	-11.8257
四十億眾	-11.8257
藕	-11.8258
難陀浴池	-11.826
七寶之所成就	-11.826
在舍衛國祇樹給孤獨園	-11.826
差降安樂住止	-11.826
段段	-11.826
憒亂	-11.8261
胝	-11.8262
滑	-11.8262
遠來乞者	-11.8263
三彌提	-11.8263
是無量空處成就遊	-11.8264
融	-11.8264
禘婆達兜	-11.8264
或自見彼	-11.8264
獵師眷屬境界	-11.8264
求救護處	-11.8264
潛	-11.8265
得清淨真實中住	-11.8265
眼觸生受	-11.8265
是謂聖弟子得	-11.8265
習白衣行	-11.8265
得最上潔白	-11.8265
大德大力	-11.8265
第一澡水	-11.8266
綺	-11.8266
彼色最上	-11.8266
定光如來	-11.8266
苦毒辛酸	-11.8266
塼	-11.8267
心不捨瞋恚	-11.8267
摩竭國王頻毘娑羅	-11.8267
苦滅道聖諦	-11.8267
努	-11.8267
沐	-11.8267
嗅	-11.8268
迮	-11.8268
鹿紐	-11.8268
不敬長老	-11.8268
如實無我	-11.8268
或有餘比丘	-11.8268
塊	-11.8269
詩	-11.8269
怯	-11.8269
卑劣	-11.8269
炎摩天	-11.8269
為自在王	-11.8269
穢汙	-11.827
伏藏	-11.827
如偈所說	-11.827
晃	-11.827
剛	-11.827
司	-11.827
猶去村不遠	-11.827
我生此法能令我	-11.827
日大城郭之光明	-11.827
餓	-11.8271
飲食知節	-11.8271
翻	-11.8271
能善於大人相法	-11.8271
不染不著	-11.8271
僧坊	-11.8271
各各自相謂言	-11.8271
此梵天所說	-11.8271
資財無量	-11.8271
叉手合掌	-11.8272
捫	-11.8272
唯願聽許	-11.8272
院	-11.8272
拘牟陀華	-11.8272
拘牟頭	-11.8272
給恤	-11.8272
盈溢	-11.8272
為四眾	-11.8273
往詣沙門瞿曇所	-11.8273
遍滿成就遊	-11.8273
瑩	-11.8273
諸小天王	-11.8273
牙齒	-11.8273
摩訶衍	-11.8273
衣毛為竪	-11.8273
尊者盧耶強耆	-11.8273
復有階道至	-11.8273
蜜丸	-11.8273
瓮	-11.8273
價直	-11.8273
牸	-11.8274
案行天下	-11.8274
何緣男子女人	-11.8274
艱	-11.8274
成最正覺	-11.8274
決所疑	-11.8274
受三自歸	-11.8274
生生無惡	-11.8274
憂悲惱苦	-11.8274
鴈	-11.8275
般闍羅	-11.8275
壽四萬歲	-11.8275
生惡趣泥犁中	-11.8275
取一芥子	-11.8275
與衣鉢俱	-11.8275
受夏坐訖	-11.8275
出入想知滅定	-11.8275
俱薩羅	-11.8275
名稱遠聞	-11.8275
織	-11.8275
題	-11.8276
如愚如	-11.8276
由旬一倍有	-11.8276
權	-11.8276
若有婆羅門道人	-11.8276
大臣雨勢	-11.8276
即於坐上	-11.8276
東枝	-11.8276
熟酥	-11.8276
繖	-11.8276
下鬚髮	-11.8277
縱橫	-11.8277
如是修習念身	-11.8277
行於無事	-11.8277
槽	-11.8277
捕魚	-11.8277
卷第九	-11.8277
脾	-11.8277
極大久遠	-11.8277
􂍃	-11.8277
敬事師長	-11.8277
於如來法中	-11.8278
今附秦錄	-11.8278
沐浴澡洗	-11.8278
默然不語	-11.8278
勿造斯觀	-11.8278
蚖	-11.8278
下車步進	-11.8278
入室坐禪	-11.8279
鮮潔	-11.8279
外見色	-11.8279
自今以後	-11.8279
大弟子等	-11.8279
奏	-11.8279
隨三昧心	-11.8279
渴乏	-11.8279
繁	-11.8279
滋甚	-11.8279
復有業能令眾生	-11.8279
能轉趣涅槃	-11.828
惡魔波旬欲	-11.828
竺法護譯	-11.828
於一面住	-11.828
稽首足下	-11.828
販	-11.828
一身一想	-11.828
知此苦習	-11.828
知此苦滅道如真	-11.8281
▁13	-11.8281
忌	-11.8281
李	-11.8281
夕	-11.8281
觸滅則受滅	-11.8281
說種種法	-11.8281
幻偽	-11.8281
破骨	-11.8282
地為大動	-11.8282
宿舊	-11.8282
鍱	-11.8282
二因二緣	-11.8282
所至到	-11.8282
知苦滅道如真	-11.8282
默然可之	-11.8282
之所致也	-11.8283
能令得沙門	-11.8283
謨尸羅長者	-11.8283
簡	-11.8283
卷第八	-11.8283
恭奉	-11.8283
馳散	-11.8283
從是本從是習從是因緣	-11.8283
最為妙	-11.8284
意觸生受	-11.8284
讎	-11.8284
為水所漂	-11.8284
博叉	-11.8284
正智心善解脫	-11.8284
搆	-11.8284
頰	-11.8285
無數劫事	-11.8285
晃昱天	-11.8285
知此苦滅	-11.8285
其本縱廣	-11.8285
二山中間	-11.8285
時已到	-11.8285
無因無緣	-11.8285
化生龍	-11.8285
高聲唱	-11.8285
根原	-11.8286
從滅盡定起	-11.8286
我今稽首禮	-11.8286
負債	-11.8286
流馳	-11.8286
閻王復問	-11.8286
壽命長短	-11.8286
鉢頭摩華	-11.8287
我是彼所	-11.8287
諸河流行	-11.8287
環	-11.8288
吹彼水沫	-11.8288
誘	-11.8288
同梵行者	-11.8288
以刀自殺	-11.8288
嫌恨	-11.8289
收攝衣鉢	-11.8289
彼於此間	-11.8289
交通	-11.829
生聞梵志復問	-11.8291
多聞聖弟子作如是	-11.8291
持此功德	-11.8291
讒	-11.8291
緒	-11.8291
我今為汝說	-11.8292
癰本	-11.8292
手脚	-11.8292
今此眾中	-11.8292
得內止	-11.8293
如是不久當得	-11.8293
光所照	-11.8294
王舍國	-11.8294
遊步	-11.8295
為斷無常	-11.8296
此道受	-11.8297
大眾之中	-11.8298
行不慢	-11.8299
到彼岸	-11.8299
極重甚苦	-11.83
罽	-11.8301
文殊	-11.8301
善男子難陀	-11.8301
唯此為	-11.8303
於學地	-11.8303
少出多減	-11.8304
緣眾生清淨	-11.8305
於近處	-11.8305
長爪	-11.8305
乃至不受後有	-11.8306
諦觀思惟分別	-11.8307
依怙	-11.8307
泊	-11.8308
深達	-11.8313
因彼故	-11.8314
外六入處	-11.8315
如實不知	-11.8315
種德婆羅門	-11.8316
溪水	-11.8317
乘不具足	-11.8318
三百由旬	-11.8318
山野	-11.832
能斷貪欲	-11.8326
▁1(1	-11.8329
故稱第一	-11.8332
現法苦	-11.8338
善能分別	-11.834
摩尼珠	-11.8344
怨恨	-11.8346
紫金	-11.8346
撲著	-11.8349
銀粟	-11.835
黑繩地獄	-11.8351
欲為不淨	-11.8365
現法後世	-11.8368
往世尊所	-11.8369
隨法行	-11.8382
化生金翅鳥	-11.8407
修七覺意	-11.8408
石壁	-11.8419
正法治化	-11.8422
河兩岸	-11.8428
舒手	-11.8429
觸生愛	-11.8449
是處不	-11.8455
鐵鉗	-11.8458
告御者	-11.8464
毘舍佉優婆夷聞	-11.8496
悲哭	-11.8512
無常者是苦	-11.8532
得供養恭敬	-11.8544
阿耨達池	-11.8547
美妙	-11.8551
怖懼	-11.8564
純金	-11.8565
八萬四千馬	-11.8591
銅器	-11.8601
命自活	-11.8602
有念有	-11.8606
1)	-11.8647
脣口	-11.8658
傾動	-11.8707
解此義	-11.8722
有四輩	-11.8726
說三受	-11.8757
佛住毘舍離	-11.8758
毘舍離國	-11.8775
第一之德	-11.882
亦非沙門	-11.8851
頭面禮	-11.8855
雲雷	-11.8924
被服	-11.8949
嚴四兵	-11.8964
受我教	-11.8998
天光明不如	-11.9002
阿那含不如施	-11.9003
朱利槃特	-11.9007
四十四見	-11.901
栖	-11.9015
卷第七	-11.9015
下有園觀浴池	-11.9017
或截其	-11.902
循	-11.9022
須摩竭陀池側	-11.9022
七日出時	-11.9023
有欲界人身四大諸根	-11.9023
得人四種如意之德	-11.9024
乃至蜫蟲	-11.9024
非想非非想	-11.9024
鼻知香	-11.9025
為善得善	-11.9026
狐狼	-11.9027
如其正受	-11.9027
不長不短	-11.9029
大天㮈林	-11.9029
悶絕	-11.9029
伺求其便	-11.903
欝多囉究留洲	-11.9031
掣	-11.9032
無知無見	-11.9032
其水涼冷	-11.9032
俱而受	-11.9032
意無憂慼	-11.9032
初夜後夜	-11.9032
擒	-11.9033
尼羅浮	-11.9033
緣受有有	-11.9033
優毘迦葉	-11.9033
不了可憎行	-11.9033
六五四三二	-11.9034
乃至無數眾鳥相和	-11.9034
紀	-11.9034
其後亂風吹大	-11.9034
不增不減	-11.9034
善住大龍象王	-11.9034
於處得心淨	-11.9034
肌肉	-11.9035
宰	-11.9035
陸生花	-11.9035
賢者離越哆	-11.9035
師子吼而吼	-11.9035
瀉	-11.9035
婆羅門長者居士	-11.9035
世尊弟子眾善趣向	-11.9035
心終不著	-11.9036
耆域	-11.9036
大人八念	-11.9036
騫	-11.9036
歌詠	-11.9036
涌沸	-11.9036
敘	-11.9036
甚姝好	-11.9036
我佛世尊有最	-11.9037
家家乞食	-11.9037
除去五飾	-11.9037
賢善偈及以義	-11.9037
鉢陀摩	-11.9037
揈	-11.9038
獺	-11.9038
於某處	-11.9038
諷誦讀	-11.9038
兜率哆天	-11.9038
後悔無益	-11.9038
剛強	-11.9038
搥胸	-11.9039
在如來前坐	-11.9039
優多羅摩納	-11.9039
憔悴	-11.9039
於大眾前敷座而坐	-11.9039
省察	-11.9039
梨犀達多	-11.9039
糞屎	-11.904
十六分中	-11.904
安詳	-11.904
千兩金	-11.904
枝條	-11.904
於世尊法得無所畏	-11.904
輔相大堅固婆羅門	-11.904
恤	-11.904
軸	-11.904
毘摩質多	-11.9041
淨天眼出過於	-11.9041
聖八支齋	-11.9041
豪姓	-11.9041
非自非他無因作	-11.9041
亦煎亦	-11.9042
隨魔自在	-11.9042
求免脫	-11.9042
廣為眾生	-11.9042
此法無諍	-11.9042
菴羅女	-11.9042
減損阿須倫眾	-11.9042
右脇而臥	-11.9042
劫波育	-11.9042
主藏臣寶	-11.9043
儞	-11.9043
自放恣	-11.9043
尸利沙	-11.9043
慳悋	-11.9043
佛悲愍	-11.9043
思惟死想	-11.9043
唯佛能知	-11.9043
從我學梵行	-11.9043
法法觀念處	-11.9043
撫	-11.9043
夜摩諸天	-11.9043
忻	-11.9044
非人所造	-11.9044
衝	-11.9044
尠	-11.9044
何其速哉	-11.9044
盈滿	-11.9044
選	-11.9045
蚊	-11.9045
亦常讚歎	-11.9045
迷亂	-11.9045
久不來此	-11.9045
大如車軸	-11.9045
復以此偈報	-11.9045
轉輪王欲試	-11.9045
觸之猶如迦旃隣提衣	-11.9045
靈鷲山	-11.9045
入羅閱城乞食	-11.9045
明行具足	-11.9045
一坐而食	-11.9045
乃至最後寒氷地獄	-11.9045
屋宅	-11.9045
魚鼈	-11.9046
獼猴池側重閣講堂	-11.9046
出興于世	-11.9046
不由於他	-11.9046
聞斯語	-11.9046
療治	-11.9046
剖	-11.9046
幻術	-11.9046
不賤他	-11.9046
佛遊拘樓瘦	-11.9046
猗覺意	-11.9047
捨世貪憂	-11.9047
斬截	-11.9047
吾當為汝分別	-11.9047
那羅聚落	-11.9047
攀緣識住	-11.9047
內所攝	-11.9047
世間諦如有	-11.9047
肺	-11.9047
我般涅槃後	-11.9047
著袈裟	-11.9048
紅色	-11.9048
以何事故	-11.9048
有色無色	-11.9048
娑婆世界主梵天王	-11.9048
瑟曇	-11.9048
取滅則有滅	-11.9048
默然受已	-11.9048
從法化生	-11.9048
識滅則名色滅	-11.9048
於我略說法中	-11.9048
竊盜	-11.9048
拄	-11.9048
毘紐迦旃延氏婆羅門尼	-11.9048
多銅釜	-11.9049
相和而鳴	-11.9049
我實見之	-11.9049
▁100(	-11.9049
幡蓋	-11.9049
善現苑	-11.9049
姨	-11.9049
巴	-11.9049
茲	-11.9049
淨光天	-11.9049
夜過晨朝	-11.905
澡手	-11.905
脩	-11.905
尊者滿慈子	-11.905
行滅則識滅	-11.905
跋陀羅	-11.905
辜	-11.905
u	-11.905
現得報	-11.9051
歸命比丘僧	-11.9051
躁	-11.9051
此大沙門不能消食	-11.9051
失譯人名今附	-11.9051
放蕩	-11.9051
脹	-11.9051
賢聖八道	-11.9051
峰	-11.9052
頂生聖王	-11.9052
具受眾苦	-11.9052
有一種人	-11.9052
著五納衣	-11.9052
充滿其中	-11.9052
勤修齋戒	-11.9052
於諸法中	-11.9053
碯	-11.9053
為人演說	-11.9053
波羅牢伽彌尼	-11.9053
喙	-11.9053
謨	-11.9053
耽	-11.9053
疲倦	-11.9053
ha	-11.9053
施佛及隨佛大苾芻眾	-11.9053
兜瑟哆天	-11.9053
危脆	-11.9053
從座而起	-11.9053
西壁	-11.9053
是為垢穢	-11.9054
叵	-11.9054
呵罵	-11.9054
運集	-11.9054
牛師子園	-11.9054
猶如有人欲得	-11.9054
金鈴	-11.9054
皮囊	-11.9054
釋迦文佛弟子	-11.9054
汝等應當如是	-11.9055
若能爾者	-11.9055
近著行	-11.9055
作諸功德	-11.9055
墮於惡趣	-11.9055
智者之所	-11.9055
於色生厭	-11.9056
於此法律信樂出家	-11.9056
m	-11.9057
調亂	-11.9057
慳貪嫉妬	-11.9057
未生惡不善法	-11.9057
彫	-11.9057
小千世界	-11.9057
身至梵天	-11.9057
阿蘭若	-11.9057
臨終	-11.9058
圓光	-11.9058
考掠處	-11.9058
撓	-11.9058
縣	-11.9059
嫁女	-11.9059
於如來所出家修梵行	-11.9059
潔淨	-11.9059
世尊告一比丘	-11.9059
過去未來現在	-11.9059
障蔽	-11.906
良藥	-11.906
尊祐	-11.906
違背	-11.906
住無動	-11.906
敷床座	-11.906
針毛鬼	-11.9061
清信女	-11.9061
除鬚髮	-11.9061
在彼眾中	-11.9062
旋轉	-11.9062
緣自覺知	-11.9062
神足飛	-11.9063
生彼間	-11.9063
安徐	-11.9063
廣博	-11.9063
莫令增長	-11.9063
為原首	-11.9063
城邑聚落	-11.9063
弊宿	-11.9063
不食肉	-11.9063
可得久住	-11.9064
炎熱	-11.9064
聖法印	-11.9064
護覺意	-11.9064
憎嫉惱	-11.9065
色離如實知	-11.9065
婆耆	-11.9065
可敬可	-11.9066
導首	-11.9066
大火聚	-11.9066
鉢囉	-11.9068
同伴	-11.9069
終不能捨	-11.9069
提婆達兜愚人	-11.907
壯熱	-11.907
多聞聖弟子如是觀者	-11.9071
其數無量	-11.9072
螺聲	-11.9072
精神	-11.9073
來白我	-11.9073
緣種種界生種種觸	-11.9073
而白我	-11.9074
骨節	-11.9076
衰減	-11.9076
摩羅迦舅	-11.9077
巨海	-11.9077
世人所不	-11.9078
拘摩羅	-11.9078
可憎惡	-11.9082
矛刺	-11.9084
逆順	-11.9084
六愛身	-11.9085
閻浮提洲	-11.9085
濕生金翅鳥	-11.9091
毘羅比丘尼	-11.9093
虛誑	-11.9093
有賊來	-11.9096
有如無	-11.9099
懈慢	-11.91
從想有終	-11.9106
大鐵圍山	-11.9106
付授	-11.9108
胎生金翅鳥	-11.9109
惡露不淨	-11.9111
教人不殺	-11.9125
土石	-11.9188
故彼起	-11.9204
血塗	-11.9227
通徹	-11.9283
受如是苦	-11.9301
無學正見	-11.9339
開敷	-11.9339
祖	-11.9356
得道真	-11.9365
杖捶	-11.9401
若有來問	-11.941
改悔	-11.9433
自知自覺自作證	-11.9443
限量	-11.9473
口及意	-11.9492
二萬里	-11.9524
非常非無常	-11.9607
波斯匿	-11.9623
漏盡意解	-11.9645
斯由精勤	-11.9716
聖諦未無間等	-11.9718
紫	-11.9767
度一切無量識	-11.9779
瞿陀尼	-11.9801
無覺少觀定	-11.9825
▁1(	-11.9826
族姓子剃除鬚髮	-11.9835
佉提羅迦	-11.9836
焰摩迦	-11.9836
當修五力	-11.9838
偷婆	-11.9839
昇進得止息處	-11.9841
觀覺興衰	-11.9842
亦當知受何行令	-11.9843
干	-11.9844
當來受苦報	-11.9845
當修七覺支	-11.9845
憹	-11.985
稱一處知	-11.985
當來受樂報	-11.9851
稱一處見	-11.9852
有想無想處天身	-11.9852
阿僧祇	-11.9854
四色蓮華	-11.9855
鵠	-11.9855
㵎	-11.9855
趣向滅戲道跡	-11.9856
辛	-11.9857
亦知彼天	-11.9857
整御	-11.9857
當來亦受樂報	-11.9857
雞頭梵志	-11.9857
頭生白髮	-11.9858
倡妓及往觀聽	-11.9859
當修五根	-11.9859
依一林	-11.9859
趣於涅槃	-11.9859
償	-11.9859
欝多羅究留	-11.986
從黑雲沙	-11.986
不白不黑	-11.9861
梵摩渝	-11.9861
沸伽羅娑羅婆羅門	-11.9861
當修四如意足	-11.9862
鸚鵡摩納都提子	-11.9862
不得無上安隱涅槃	-11.9862
因色勝如	-11.9863
蜇	-11.9863
閾	-11.9863
禿	-11.9864
人生子壽	-11.9864
伊沙陀羅	-11.9864
若干種木	-11.9864
黃蓮華	-11.9864
龍及金翅鳥	-11.9865
恡	-11.9865
諸漏不盡	-11.9865
燒胃	-11.9866
其邊無際	-11.9866
當修十無學法	-11.9866
與諸眷屬	-11.9866
婆迦梵	-11.9866
緣愛有受	-11.9866
塚	-11.9866
點	-11.9866
作光明想	-11.9866
此人善法滅	-11.9866
鍾	-11.9867
守護從解脫	-11.9867
當修十一切處	-11.9867
有樓櫓却敵臺閣	-11.9867
捨此住止	-11.9867
頗羅墮	-11.9867
二十五年	-11.9867
作衣竟	-11.9868
迦栴延	-11.9868
蒲	-11.9868
維耶離	-11.9868
閻浮里內	-11.9869
帝穌嚕	-11.9869
朽邁	-11.9869
當修四正斷	-11.9869
自稱姓名	-11.9869
若慧弟子	-11.9869
涎	-11.9869
銅釜中	-11.9869
捨此惡見	-11.987
映障	-11.987
膊	-11.987
現法樂住	-11.987
有目之士	-11.987
野狐	-11.987
王子須菩提	-11.987
罽賓	-11.987
善知識共和合	-11.9871
陶師	-11.9871
婬妷	-11.9871
已得如是定心	-11.9871
厥	-11.9871
著鎧持仗	-11.9871
諸業盡	-11.9871
屈伸低	-11.9872
凶暴	-11.9872
辰	-11.9872
忿恨	-11.9872
聖人所習	-11.9872
尻亦食	-11.9872
吾當為汝廣分別	-11.9872
無常苦想	-11.9872
當修八支聖道	-11.9872
於四城門	-11.9872
識緣名色	-11.9873
沼	-11.9873
重一迦利沙	-11.9873
守護意根	-11.9873
棒	-11.9873
誰當信	-11.9873
鞍	-11.9874
窓	-11.9874
剎利大姓	-11.9874
黎努王	-11.9874
顛	-11.9874
妾	-11.9874
為我略說法要	-11.9874
念不錯亂	-11.9874
娛樂其中	-11.9874
黨	-11.9874
椎胸	-11.9874
莊挍	-11.9874
閉口姓	-11.9874
高七十里	-11.9874
對所牽	-11.9875
右脇著地	-11.9875
伊沙陀羅山	-11.9875
與自發露律	-11.9875
即其日	-11.9875
緣無明有行	-11.9875
興四種軍	-11.9875
靡所不	-11.9876
其心不定	-11.9876
決定正向	-11.9876
悔過此說	-11.9876
無量色是神施設而施設	-11.9876
欲令熟者	-11.9876
三事和合生	-11.9876
恭恪	-11.9876
牖	-11.9876
當修四禪	-11.9876
內有色想	-11.9877
如說修行	-11.9877
佛在釋翅	-11.9877
佛在羅閱城	-11.9877
尸舍婆林	-11.9877
則我身是	-11.9877
稚	-11.9877
當鑿山	-11.9877
見法自知作證	-11.9877
異學哺羅陀子	-11.9878
魯醯遮婆羅門	-11.9878
而世尊今教我斷	-11.9878
是阿難或為行道	-11.9878
到世尊所	-11.9878
控	-11.9878
戰慄	-11.9878
兵將寶	-11.9878
如實而不知	-11.9878
形體不具足	-11.9878
斷一切欲愛	-11.9878
從何處來	-11.9878
擗	-11.9878
無苦無樂	-11.9879
忍不令退	-11.9879
拔祇國	-11.9879
緣識有名色	-11.9879
販賣	-11.9879
彼若欲得	-11.9879
從根本治	-11.9879
跳	-11.9879
𦝩	-11.9879
未生欲漏而	-11.9879
裁	-11.9879
彼第二人	-11.9879
參議	-11.9879
如來知一人意之所念	-11.988
成就十一法	-11.988
藤	-11.988
外敵	-11.988
l	-11.988
磧	-11.988
佛住毘舍離獼猴池側重閣講堂	-11.988
霧	-11.988
無有窮盡	-11.988
肪	-11.988
我弟子中第一	-11.988
芻	-11.988
不樂故解脫	-11.9881
於所聞法	-11.9881
犍	-11.9881
阿夷羅婆提	-11.9881
擘	-11.9881
以邪求	-11.9881
佃	-11.9881
發歡喜之心	-11.9881
兔	-11.9881
在學地	-11.9881
心驚毛竪	-11.9881
蔓	-11.9881
所求不得苦	-11.9881
其最小者	-11.9881
多陀阿伽度	-11.9882
以正求	-11.9882
惟舍利國	-11.9882
以譬喻得解	-11.9882
無恨心	-11.9883
芬	-11.9883
意觸入處	-11.9883
猥多	-11.9883
費	-11.9883
有人來問	-11.9883
其食少者	-11.9883
檢	-11.9883
在世尊後	-11.9883
若他說	-11.9883
精氣	-11.9883
不來此世	-11.9883
係	-11.9883
萬民	-11.9883
生極快樂	-11.9883
亦不有想亦不無想	-11.9883
而闍維之	-11.9883
堅強	-11.9883
昇正殿	-11.9884
亦是識止處從是習	-11.9884
妬	-11.9884
於沙門瞿曇所出家修梵行	-11.9884
鉢曇摩	-11.9884
乃至純大苦聚滅	-11.9884
朗	-11.9884
竪立	-11.9884
閻浮洲一智慧商人	-11.9884
眼觸入處	-11.9884
七世以來父母	-11.9884
彼一切從愚癡	-11.9884
魔王眷屬所不至處	-11.9885
毘舍羅婆如來	-11.9885
彼有智者作	-11.9885
雪山夜叉復	-11.9885
倉	-11.9885
懷忿	-11.9885
聽乃敢陳	-11.9885
險	-11.9886
其林縱廣	-11.9886
等長夜輪轉生死	-11.9886
如力士屈伸臂頃	-11.9886
與善知識從事	-11.9886
詵陀迦旃延	-11.9886
彈指頃	-11.9886
破碎	-11.9886
於諸世間都無所取	-11.9886
自貴賤他	-11.9886
和上尼	-11.9886
拘屢孫如來	-11.9886
受極嚴苦	-11.9886
從遠而來	-11.9887
所以族姓子剃除鬚髮	-11.9887
未滅未	-11.9887
見風塵	-11.9887
骨髓	-11.9887
低沙	-11.9887
兵杖	-11.9887
興兵	-11.9887
擬	-11.9887
倮	-11.9887
今為鉢和蘭	-11.9887
此義於我	-11.9887
有身滅道跡	-11.9887
出要為樂	-11.9888
詰責	-11.9888
膖脹	-11.9888
究竟邊際	-11.9888
閙	-11.9888
弗迦娑	-11.9888
有八未曾有法	-11.9888
提惒達哆	-11.9888
泥羅浮陀	-11.9888
流惱熱憂	-11.9888
行已則受	-11.9888
稱揚	-11.9889
教人令行	-11.9889
聽我於正法中為優婆塞	-11.9889
阿耆毘	-11.9889
尼拘留	-11.9889
久住於世	-11.989
彼此定	-11.989
乾沓惒	-11.989
南枝	-11.989
y	-11.989
世雄	-11.989
導引	-11.989
富留那	-11.9891
策慮	-11.9891
餉	-11.9891
鹿住優婆夷	-11.9892
否	-11.9892
諷	-11.9893
得上人法	-11.9893
萬倍	-11.9893
到已禮世尊足	-11.9893
腳	-11.9893
禾	-11.9894
精進覺意	-11.9894
伎兒	-11.9894
女妓	-11.9894
緣取有	-11.9895
交接	-11.9895
寂寞	-11.9896
調柔	-11.9896
燒齗	-11.9896
知此漏習	-11.9896
陀那林	-11.9897
祇夜	-11.9898
大眾圍遶	-11.9898
九孔	-11.9898
未曾憶	-11.9898
歎未曾有	-11.9898
族姓之子	-11.9898
生長增廣	-11.9899
八大人念	-11.99
以何方便	-11.9901
狂亂	-11.9901
所居之處	-11.9901
稠林	-11.9903
一會說	-11.9905
漂沒	-11.9905
汝聞越祇	-11.9905
行法知如真	-11.9907
是佛性	-11.9907
豔天	-11.9908
成陰陽	-11.9908
皆由前世	-11.991
自出意治國	-11.9911
行已足	-11.9912
我離受	-11.9914
在世尊前	-11.9916
跛	-11.9921
能廣分別世尊向所略說義	-11.9921
痛不可言	-11.9921
摩竭陀國	-11.9923
吒鵂	-11.9925
色轉好	-11.9935
頭向下	-11.9946
若本有	-11.9963
墮於地獄	-11.9966
為麤段	-11.9967
覆蔽	-11.9971
125(3	-12.0002
慈哀	-12.0009
眼耳鼻舌身	-12.0019
工師受信施	-12.0049
為欲愛所	-12.0087
法滅故	-12.0093
轉更增	-12.0122
懷慚愧	-12.0142
8)	-12.0161
於四方面	-12.018
禮拜問訊	-12.0187
養活	-12.0199
拘盧奢	-12.0208
尼師檀	-12.022
百千年	-12.022
十二萬里	-12.0243
我聲聞中	-12.0277
1)]	-12.0315
頗曾	-12.0339
暫忘	-12.0359
十踰闍那	-12.0363
央	-12.0365
聞世尊遊	-12.0465
至命欲	-12.047
百千萬歲	-12.0486
有梵志名	-12.0529
所來處	-12.0635
色究竟天	-12.0642
尊者摩訶迦	-12.0695
二千五百	-12.0696
馭	-12.07
覺苦覺者	-12.0717
緣行識	-12.0735
燭	-12.0735
阿羅漢不如施	-12.0737
壁火焰至	-12.075
驅逐	-12.0752
人壽十歲時	-12.0754
腭	-12.0755
六百四十里	-12.0757
婆句梵天	-12.0758
犲	-12.0759
當來亦受苦報	-12.0759
於國於身妻子皆無他	-12.076
非汝所應	-12.0761
厨	-12.0761
自給活	-12.0762
尊者婆拘盧	-12.0762
媚	-12.0762
默自思	-12.0764
傷歌邏摩納	-12.0764
實意居士	-12.0765
當願我	-12.0765
耳知聲	-12.0765
色界天身	-12.0765
不望其報	-12.0765
貸	-12.0767
則得苦邊	-12.0767
曼陀吉尼池	-12.0768
齧	-12.0768
摩頭揵	-12.0769
他化自轉天	-12.0769
必有二處真諦不虛	-12.0769
為世尊縫衣	-12.0769
諸等心天	-12.0769
欲界天身	-12.0769
住平等見	-12.077
者作如是觀	-12.077
諸長老輩	-12.077
蛆	-12.077
猶若天華	-12.0771
梯陛	-12.0771
還捨法服	-12.0771
糩	-12.0772
壽命極短	-12.0774
輕躁	-12.0774
去來現在	-12.0774
戟	-12.0774
尊者弗迦邏娑利	-12.0775
撾捶	-12.0775
如優曇鉢花	-12.0775
施諸窮乏	-12.0775
閑房	-12.0775
熱鐵地上	-12.0775
水精欄琉璃	-12.0775
金欄銀	-12.0775
強梁	-12.0775
在如來前	-12.0775
焚	-12.0775
不轉趣涅槃	-12.0776
羊主食繩	-12.0776
不可稱記	-12.0776
屑	-12.0776
嚙	-12.0776
積至于膝	-12.0776
等正覺得先佛最勝處	-12.0777
見聞疑罪	-12.0777
證者證	-12.0777
珂	-12.0777
凍	-12.0778
懊憹	-12.0778
藥叉	-12.0778
桃	-12.0778
燼	-12.0778
空安靜處	-12.0778
眠寤語默	-12.0778
一道跡一向作世證	-12.0779
皆正知之	-12.0779
欠拏太子	-12.0779
壽八萬歲	-12.0779
一為直見	-12.0779
一銅釜	-12.0779
令我失定而滅	-12.0779
珓	-12.0779
無有所乏	-12.0779
頂戴	-12.0779
謂忿諍故	-12.0779
我不但有是法	-12.078
我心中不生疑患	-12.078
迦旃隣提迦衣	-12.078
尊者真迦旃延	-12.078
貯	-12.078
修念覺意	-12.078
如來非終非不終	-12.078
有形之類	-12.078
屋舍牆壁皆崩壞盡	-12.078
阿支羅迦葉	-12.078
涼冷	-12.0781
故不如我	-12.0781
究羅帝	-12.0781
金師精舍	-12.0781
獲大果	-12.0781
優樓頻螺迦葉	-12.0781
貧匱	-12.0781
成佛未久	-12.0781
可應望	-12.0781
執刀自殺	-12.0782
難可救	-12.0782
若不依二三	-12.0782
瑁	-12.0782
偏露右肩	-12.0782
散如來上	-12.0782
金粟	-12.0782
我曾生彼	-12.0782
摩訶波闍波提比丘尼	-12.0782
百六十八萬里	-12.0782
可應求	-12.0782
師子大將	-12.0782
各次第坐	-12.0782
陋	-12.0783
欽	-12.0783
轉於梵輪	-12.0783
苦無我想	-12.0783
受生色像寶	-12.0783
坋	-12.0783
七重牆壁	-12.0783
亦不有限亦不無限	-12.0783
法者應如是答	-12.0783
居吒奢摩	-12.0783
飲食知量	-12.0783
色緣生眼識	-12.0783
煖	-12.0784
􂌤	-12.0784
化樂諸天	-12.0784
雄猛	-12.0784
咄哉	-12.0784
飛騰虛空	-12.0784
生滅則老死滅	-12.0784
維耶梨國	-12.0784
阿㝹樓駄	-12.0784
齊此不過	-12.0784
翫	-12.0784
住於天住	-12.0784
法成就須陀洹	-12.0784
遊鞞舍離	-12.0784
遶三匝而去	-12.0785
挍飾	-12.0785
此五言道	-12.0785
弗于逮天下人	-12.0785
正遍知	-12.0785
瓫	-12.0785
銖	-12.0785
無慙無愧	-12.0785
得最上慧觀法	-12.0785
比丘眾前敷座而坐	-12.0785
枝葉四布五十由旬	-12.0785
滿呼王子	-12.0785
專注	-12.0785
我為其說	-12.0786
未度者	-12.0786
今在何處	-12.0786
異學三部諷誦	-12.0786
汲	-12.0786
壤	-12.0786
命終得生晃昱天中	-12.0786
現如是相入此舍者	-12.0786
喧閙	-12.0786
從冥入冥	-12.0786
郁	-12.0786
騃	-12.0786
乃至五四三二一拘盧	-12.0786
此外更無	-12.0786
長衰永失	-12.0786
生餘意生天中	-12.0787
賴吒	-12.0787
金鬘女	-12.0787
雜色車園	-12.0787
呻吟	-12.0787
六內入處	-12.0787
種種淨美飲食	-12.0787
聞沙門瞿曇釋種子	-12.0787
當自得之	-12.0787
失譯人名	-12.0787
提頭賴吒	-12.0787
糜	-12.0787
韋提希子	-12.0787
汝亦應爾	-12.0787
萬比丘皆得阿羅漢	-12.0788
彼眾合大地獄中	-12.0788
某甲	-12.0788
邦土	-12.0788
捨心住正念正智	-12.0788
屈申	-12.0788
諱	-12.0788
時有天子名曰	-12.0788
一乘道淨	-12.0788
生無不死	-12.0788
或居高巖	-12.0788
生死之海	-12.0788
㷿摩天	-12.0788
作此語已	-12.0788
縱廣一由旬	-12.0788
入滅正受	-12.0788
當廣演布	-12.0788
可敬可貴	-12.0788
梵志瞿默目揵連	-12.0789
己身壞死	-12.0789
修習安那般那念	-12.0789
已生者令退	-12.0789
是識所住	-12.0789
封戶	-12.0789
從第四禪起	-12.0789
陀娑比丘	-12.079
嚮	-12.079
娑婆世界	-12.079
如實了知	-12.079
施持戒人	-12.079
飛在空中	-12.079
五體投地	-12.079
怡	-12.079
乃至受於極嚴重苦	-12.079
其人平生	-12.079
囊	-12.079
四者識食	-12.0791
即成沙門	-12.0791
息心靜默	-12.0791
如理宣說	-12.0791
拘麗瘦	-12.0791
人在其上結加趺坐	-12.0791
改往修來	-12.0791
有慚有愧	-12.0791
輦輿	-12.0791
貪瞋癡	-12.0791
壽五百歲	-12.0791
往詣尊者舍梨子所	-12.0792
而令眾生	-12.0792
猥	-12.0792
欠	-12.0792
誅	-12.0792
澡浴遊戲	-12.0792
此諸善功德	-12.0792
知此漏滅道如真	-12.0793
不移動心解脫	-12.0793
鶴	-12.0793
月大城郭	-12.0793
披羅門迦羅越	-12.0793
S	-12.0793
敷尼師壇	-12.0793
其食多者	-12.0793
翅甯梵志	-12.0793
從此世至	-12.0793
ka	-12.0794
慈孝	-12.0794
掉悔蓋	-12.0794
東園鹿子母講堂	-12.0794
鼉	-12.0794
破群那	-12.0794
不謗如來	-12.0794
市買	-12.0794
垂覆五十由旬	-12.0795
我不見於過去及今現在而有別異	-12.0795
群盲	-12.0795
非生彼非非生彼	-12.0795
是識止處已知	-12.0795
瞿波離比丘	-12.0795
般泥曰	-12.0795
盲無目	-12.0795
薰	-12.0795
欝多羅僧	-12.0795
費迦沙	-12.0795
擔負	-12.0795
摩睺羅伽	-12.0796
合掌問訊	-12.0796
行澡水畢	-12.0796
甚可畏	-12.0796
五道大神	-12.0796
擿	-12.0796
郡國縣邑	-12.0796
䟽	-12.0797
蔑	-12.0797
多聞聖弟子寧於中見我	-12.0797
施四方一切持鉢僧食	-12.0797
嫌怖	-12.0797
皮緩	-12.0797
計挍	-12.0797
僮	-12.0798
躃	-12.0798
石主釋氏聚落	-12.0798
縛束	-12.0798
不近境界	-12.0798
拘物頭	-12.0799
為天為人	-12.0799
僉	-12.0799
向於善趣	-12.08
於世尊略說法中	-12.08
執杖釋	-12.08
於現法中自身作證	-12.08
荔	-12.08
與慈俱	-12.0801
亦為有本	-12.0801
寧可更增	-12.0801
誦法句	-12.0801
施滿閻浮場凡夫	-12.0801
毗婆尸菩薩	-12.0801
冬夏	-12.0802
除世貪憂	-12.0802
樂寂靜之處	-12.0803
慇懃方便時救令滅	-12.0803
此於彼施	-12.0803
冀	-12.0803
住已解脫	-12.0804
救濟	-12.0804
眠睡	-12.0804
鳥獸	-12.0804
若干好法	-12.0805
不羞不	-12.0805
廣果天	-12.0805
作斯念	-12.0805
黎民	-12.0806
如是過去無常	-12.0807
罷	-12.0808
向涅槃之道	-12.0808
於過去劫	-12.0808
不多聞愚癡凡夫	-12.0809
即如其像三昧	-12.0809
雀	-12.0809
未來現在無常	-12.0809
悲憹	-12.0809
破群比丘	-12.0809
如是正心解脫	-12.081
主藏臣	-12.081
彌多羅比丘尼	-12.0813
祝	-12.0813
若干弊惡	-12.0814
過去未來現在無常	-12.0814
不調者	-12.0814
裸	-12.0815
世已來父	-12.0816
隨護斷	-12.0817
頭衣燒	-12.0819
宣傳	-12.0822
緣種種受生種種	-12.0824
三十六物	-12.0824
為不衰	-12.0826
𤻀	-12.0826
何緣所生	-12.0831
須毘羅	-12.0833
啻	-12.0838
象形如	-12.084
佉提羅迦山	-12.0846
小復前	-12.0852
調馬師	-12.0852
重於戒	-12.0865
樹王下	-12.087
有瞋恚心	-12.0876
是謂成就第	-12.088
以此因緣具白	-12.0892
了叫喚	-12.0954
言象如	-12.0957
孫陀利河	-12.1063
6)]	-12.1138
以翅搏	-12.1144
祖父	-12.1357
速證涅槃	-12.141
為諸弟子說	-12.1434
快說此	-12.1544
二千四百	-12.1574
瑙桄	-12.1659
稠	-12.1734
衢	-12.1738
茅	-12.1741
陰陽	-12.1748
東方去此過	-12.175
刀兵劫	-12.1753
或有人無求欲生	-12.1754
徐庠	-12.1756
生地諸優婆塞	-12.1757
億波提	-12.176
受嚴切苦	-12.1761
逋沙他	-12.1762
犲狼	-12.1762
毘闍延	-12.1763
曀	-12.1763
如法以道求	-12.1764
以七寶作七重壁	-12.1764
天復說偈	-12.1764
斑	-12.1765
海水兩披	-12.1767
作十八變	-12.1767
算數目揵連	-12.1768
那利鴦伽	-12.1768
弗婆提	-12.1769
陌	-12.1769
有益無益	-12.1769
復以此偈問	-12.177
猴	-12.1771
鐵臼	-12.1771
上方去此過	-12.1771
是謂我於佛而有法靖	-12.1772
要當使罪	-12.1772
出家為要	-12.1772
他方世界	-12.1773
五支物主	-12.1773
於王國於太子於夫人皆無他	-12.1773
商主外道出家	-12.1773
在彼居止	-12.1773
西方去此過	-12.1773
維衛佛	-12.1774
東南方去此過	-12.1774
隨葉佛	-12.1774
履水如地	-12.1774
琉璃欄水精	-12.1774
銀欄金	-12.1774
往取香稻	-12.1774
竟為所在	-12.1774
至一樹下	-12.1775
當來之世	-12.1775
與面前律	-12.1775
已後乃從	-12.1775
六為直方便	-12.1775
世人所應供養	-12.1775
皆歸於	-12.1775
悚	-12.1775
後世亦無化生	-12.1775
廣演流布	-12.1775
捫象得	-12.1775
行禪者衰退則知衰退如真	-12.1776
塼壘	-12.1776
㯓	-12.1776
杻	-12.1776
當爾之時	-12.1776
東北方去此過	-12.1776
求乞財物	-12.1777
相善相應	-12.1777
滅諸無明闇	-12.1777
妓	-12.1777
梟	-12.1777
釿	-12.1777
不轉增急	-12.1777
優婆離居士受沙門瞿曇化	-12.1777
沓	-12.1777
求覆求	-12.1777
號咷叫喚	-12.1778
肌膚	-12.1778
奔茶利迦華等	-12.1778
四部之兵	-12.1778
十惡業道	-12.1778
算計而	-12.1778
若干百千俱致年	-12.1778
不復學直	-12.1778
受滅則有滅	-12.1778
嘖	-12.1778
不生無念患	-12.1778
乃至離邪見	-12.1778
娉	-12.1778
飼	-12.1778
恠	-12.1778
即於座上得法眼淨	-12.1779
編髮	-12.1779
如佛者也	-12.1779
嗔	-12.1779
宿毘梨天子	-12.1779
娠	-12.1779
四交道	-12.1779
一闡提	-12.1779
柔弱	-12.1779
第四群鹿	-12.1779
度一切無所有處	-12.1779
駄	-12.1779
彼因極重善觀	-12.1779
以金鉢盛	-12.178
挺	-12.178
某生某處	-12.178
拒	-12.178
無有糠糩	-12.178
心便不向	-12.178
彼作如是憶念	-12.178
斷種無子	-12.178
月盛滿時	-12.1781
彩	-12.1781
旃檀	-12.1781
烏鵄	-12.1781
時時乃出	-12.1781
寇	-12.1781
摩利夫人	-12.1781
為諸善本	-12.1781
無虫水中	-12.1781
五百由旬小地獄出	-12.1782
躭	-12.1782
不學具戒及世尊境界諸微妙法	-12.1782
鹿子母	-12.1782
問已不知	-12.1782
械	-12.1782
一切種智	-12.1782
芬馥	-12.1782
少色行為身	-12.1782
持澡豆至水	-12.1782
偶	-12.1782
甚可怖畏	-12.1782
世後際	-12.1783
善住龍象	-12.1783
鼉山怖林鹿野園中	-12.1783
三彌離提	-12.1783
未得者得	-12.1783
鍊	-12.1783
諂偽	-12.1783
不作證欲作證	-12.1783
央掘魔羅以偈問	-12.1783
旋珠	-12.1783
一男兒	-12.1783
若提子	-12.1783
可應住處	-12.1783
意亦不在	-12.1783
削	-12.1783
於無餘涅槃界而般涅槃	-12.1783
唯願世尊為諸比丘說此妙	-12.1783
穢惡厭患	-12.1783
炎赫	-12.1784
鎮	-12.1784
燒舌已	-12.1784
如諸佛法	-12.1784
欲如火坑	-12.1784
何由永滅	-12.1784
去垢極淨	-12.1784
應學如是	-12.1784
以五繫	-12.1784
陰持入	-12.1784
專精一意	-12.1784
尊者橋㷿鉢帝	-12.1784
祀場	-12.1784
如來於後時知	-12.1784
奢羅浮	-12.1784
舉足還復	-12.1785
金銀琉璃水精赤真珠車𤦲馬瑙	-12.1785
繞城三匝	-12.1785
我色勝	-12.1785
手所擥及	-12.1785
及餘比丘善護	-12.1785
又大婆羅門	-12.1785
空無邊處	-12.1785
文章	-12.1785
不謗賢聖	-12.1785
集在講堂	-12.1785
鞞舍離麗掣	-12.1785
儒	-12.1786
平整	-12.1786
慧力羸	-12.1786
瀑	-12.1786
開元錄	-12.1786
相繼法	-12.1786
六外入處	-12.1786
如王所夢	-12.1786
害意瞋	-12.1786
沾	-12.1786
依彼而住	-12.1786
修持梵行	-12.1786
身下出火	-12.1786
比丘不放逸慧	-12.1787
狸	-12.1787
記天必雨而	-12.1787
鞭杖	-12.1787
顧眄	-12.1787
少無色是神施設而施設	-12.1787
比丘方便所應	-12.1787
跋祇	-12.1787
便自安住	-12.1787
善教善訶	-12.1787
在竹林迦蘭哆園	-12.1787
煒	-12.1787
西天譯經三藏朝散大夫試	-12.1787
檻	-12.1787
澡浴遊戲受樂	-12.1787
作苦邊	-12.1787
郡縣	-12.1787
其樹亦高六拘盧	-12.1787
柴	-12.1788
k	-12.1788
行緣識	-12.1788
暉赫	-12.1788
大人根智	-12.1788
頭面著地	-12.1788
不愚不癡	-12.1788
富那婆藪	-12.1788
施與閻浮提凡夫人	-12.1788
欝陀羅羅摩子	-12.1788
流聞天下	-12.1788
習是習	-12.1788
西北方去此過	-12.1788
尊師阿蘭那	-12.1788
尊者舍利子	-12.1788
仍	-12.1788
優鉢蓮華	-12.1788
奕	-12.1788
瞿師羅園	-12.1788
迦絺那法	-12.1788
威容	-12.1789
刪	-12.1789
得多可噉食	-12.1789
我知世尊如是說法	-12.1789
隋天竺沙門達摩笈多譯	-12.1789
鏡面王	-12.1789
副	-12.1789
皆悉除盡	-12.1789
貞	-12.1789
默然許之	-12.179
數千萬歲乃竟	-12.179
於勝處	-12.179
邁	-12.179
眾多上座比丘	-12.179
賓伽羅	-12.179
前受水	-12.179
地水火風	-12.179
如影隨形	-12.179
東園鹿子母堂	-12.179
良友	-12.179
駏	-12.179
涕零	-12.179
東晉錄	-12.179
枝葉華果	-12.179
身諸苦痛	-12.179
渡已至彼岸	-12.179
五下分結已斷	-12.1791
釧	-12.1791
生無熱天	-12.1791
無所觸犯	-12.1791
質多羅象子比丘	-12.1791
亦有十六諸小地獄	-12.1791
月天宮殿	-12.1791
叩	-12.1791
那拘羅長者	-12.1791
能生眼智明覺	-12.1791
七黑山	-12.1792
大燒炙地獄	-12.1792
瞿低迦	-12.1792
閱叉	-12.1792
平復如故	-12.1792
補納衣	-12.1792
為魔所縛	-12.1792
趺	-12.1792
遍淨光天	-12.1792
中央濁四邊清	-12.1793
受人中福	-12.1793
喜覺支	-12.1793
邦	-12.1793
薄餅	-12.1793
得大廣報	-12.1793
當念戒德具足	-12.1793
ṭ	-12.1793
▁(2	-12.1793
受集道跡	-12.1793
既出家已	-12.1793
毘那耶迦	-12.1793
身上出火	-12.1793
劣弱	-12.1793
攝受心住	-12.1793
約誓	-12.1793
自為世間人說	-12.1794
便得久存	-12.1794
多聞比丘明達智慧	-12.1794
如來在大眾中勇捍	-12.1794
鑷	-12.1794
悋惜	-12.1794
其邊無限	-12.1794
還為白衣	-12.1794
便自消滅	-12.1794
王童子耆婆先那	-12.1794
受滅則愛滅	-12.1794
侯	-12.1795
晃曜	-12.1795
瓔	-12.1795
佐助	-12.1795
云何修行念	-12.1795
愛繫其	-12.1795
過是已有	-12.1795
棺斂	-12.1795
光祿卿明教大師臣法賢奉詔譯	-12.1795
薄賤故	-12.1795
芭蕉樹	-12.1796
譬如力士屈伸臂頃	-12.1796
末佉梨	-12.1796
阿摩晝	-12.1796
若不依一	-12.1796
度疑彼岸	-12.1796
撥	-12.1796
觝	-12.1797
十支居士八城人	-12.1797
所謂此有故	-12.1797
腐爛	-12.1797
敷好坐具	-12.1797
鞞蘭若	-12.1797
因施主淨	-12.1797
見已自比	-12.1797
我所愛者	-12.1797
住至一劫不可救濟	-12.1797
因四事故	-12.1798
於無央數道	-12.1798
蓋不足言	-12.1798
尼犍若提子	-12.1798
為三十三天王	-12.1798
出入行來	-12.1798
謁	-12.1798
得上穌息	-12.1799
從四方來	-12.1799
彌絺羅	-12.1799
麤堅園觀	-12.1799
彼行不棄	-12.1799
深奧深照	-12.1799
卑陋	-12.18
與阿難俱	-12.18
裝	-12.1801
彼非我有	-12.1801
佛弟子婆離	-12.1801
瓠	-12.1801
自觀己	-12.1801
跓	-12.1801
上漏為	-12.1801
尸蔔	-12.1801
此世他世	-12.1801
五下結	-12.1802
或心變易	-12.1802
貪恚癡	-12.1803
前後相違	-12.1803
晡利多居士	-12.1803
維摩質阿須倫	-12.1804
緣名色故	-12.1804
令我長夜得	-12.1804
余	-12.1804
痰	-12.1805
身壞死時生惡趣泥犁中	-12.1805
百千萬倍	-12.1805
嗚	-12.1805
法鏡經	-12.1805
趣泥犁之路	-12.1805
牟犁破群那	-12.1806
刀劒	-12.1806
村北尸攝惒林	-12.1806
斯非摩訶衍	-12.1807
飛往居吒奢摩離大樹	-12.1807
鋡	-12.1808
長夜得義饒益	-12.1809
柄	-12.1809
則又不及	-12.1811
先樂而後樂	-12.1812
彼因此行	-12.1814
囚	-12.1814
阿私羅仙人提鞞邏	-12.1816
百一十	-12.1817
姑嫜	-12.1817
輭	-12.1817
我恒歎說	-12.182
則為歎說我	-12.182
彼如是考治	-12.1821
爪上土	-12.1822
色是神	-12.1822
依彼住	-12.1823
我為此比丘說行無放逸	-12.1824
莫觸嬈如來	-12.1825
設有此言	-12.1826
正身正念	-12.1827
聖輔臣	-12.1829
生中國	-12.1831
􂌡	-12.1834
萬六千里	-12.1835
燈燭	-12.1837
卵生金翅鳥	-12.1863
不守根	-12.1892
各相謂	-12.1911
愛有求	-12.1933
以翅搏海	-12.2433
肯	-12.2631
以正法治	-12.2687
此受法現	-12.2708
無後生死	-12.2825
上有曲箱蓋	-12.2853
金銀水精琉璃赤真珠車𤦲馬瑙	-12.2855
煎熬消盡	-12.2856
生樂生喜	-12.2856
異學沙門文祁子	-12.2861
下方去此過	-12.2862
廣學多聞	-12.2862
或有摸象得其	-12.2863
弗袈裟裟羅	-12.2864
及王大臣	-12.2866
周遍其四體	-12.2866
惡業果故	-12.2867
善調象師	-12.2868
發掘者	-12.2871
氷	-12.2872
若凡夫人	-12.2874
行禪者熾盛而謂衰退	-12.2874
郎	-12.2874
劈	-12.2875
行禪者衰退而謂熾盛	-12.2876
須彌留山	-12.2876
奔茶利迦花	-12.2877
踐	-12.2877
稼	-12.2879
盡見盡知	-12.2879
小地獄出	-12.288
於居士意云何	-12.288
芥	-12.288
僕	-12.288
作福得善	-12.2881
懷毒害	-12.2881
於殺生淨除其心	-12.2882
而廣說之	-12.2882
五為直業	-12.2882
萠	-12.2882
壘	-12.2882
諸妙香	-12.2882
郭	-12.2883
拘尸王城	-12.2883
我今為汝轉	-12.2883
亦逆順風香	-12.2883
𢷏置熾燃熱鐵地上	-12.2883
便從句梨睒大樹	-12.2883
蔭世尊身	-12.2883
忽沒不現	-12.2884
求死不得	-12.2884
神法能覺	-12.2884
幼稚	-12.2884
警	-12.2884
其苑縱廣	-12.2885
廓	-12.2885
畜牧產業不可稱計	-12.2885
自捨己	-12.2885
壽未幾	-12.2885
隨國俗法	-12.2885
起慈愍心	-12.2886
獨有見者	-12.2886
復云何業獲報	-12.2886
與阿須倫共鬪	-12.2886
耳鼻口身意	-12.2886
持斧入	-12.2887
眾皆奉學戒及世尊境界諸微妙法	-12.2887
蓊	-12.2887
翔	-12.2887
嬾	-12.2887
愛滅則受滅	-12.2887
入波羅㮈城乞食	-12.2887
迦摩天子	-12.2887
松	-12.2887
風日所逼	-12.2887
坻	-12.2888
無貢高天	-12.2888
六百八十萬由旬	-12.2888
說此經已	-12.2888
黑沙地獄	-12.2888
其處縱廣八萬	-12.2888
亂風從四面	-12.2888
不缺不	-12.2888
若現世色	-12.2888
婆羅門因此於本劫本見起論	-12.2888
此集此因此生此緣	-12.2888
偏露右	-12.2888
欲自試	-12.2889
俱披犁	-12.2889
是為苦行離垢法也	-12.2889
為在行者比丘為	-12.2889
邪見成就邪見	-12.2889
禿頭沙門	-12.2889
不生身病想患	-12.2889
知我如是說法	-12.2889
比丘語已不	-12.289
若現世欲	-12.289
鑒	-12.289
借	-12.289
斧在口中	-12.289
光明昱爍	-12.289
猶如鴈王	-12.289
優曇鉢	-12.289
呻	-12.289
八為直定	-12.289
世尊迴顧	-12.289
刷	-12.289
䩭	-12.2891
行欲者無障礙	-12.2891
企	-12.2891
即彼處沒	-12.2891
取他女	-12.2891
玷牟留外道出家	-12.2891
名色緣六入	-12.2891
藉	-12.2891
竹叢	-12.2891
見覺是神	-12.2891
可就此坐	-12.2892
少於睡眠	-12.2892
無上愛盡解脫	-12.2892
以扇扇佛	-12.2892
塢	-12.2892
長夜當得不饒益苦	-12.2892
其味如蜜	-12.2892
猶如今人	-12.2893
外有七重多	-12.2893
樓櫓却敵	-12.2893
蹄	-12.2893
鐵槨中	-12.2893
已習已行已多作	-12.2893
法宜速除斷	-12.2893
餘則虛名	-12.2893
應與起偷婆	-12.2893
威顏	-12.2893
無眾苦患	-12.2893
康	-12.2893
梵身諸天	-12.2893
盡向佛說	-12.2893
豹	-12.2893
農	-12.2893
場	-12.2894
鉞	-12.2894
虛空雲中	-12.2894
乃至馬瑙七寶所成	-12.2894
欝茂	-12.2894
無空缺處	-12.2894
祭	-12.2894
欝多囉究留	-12.2894
遊步康強	-12.2894
見極明淨	-12.2894
弩	-12.2894
象馬牛羊	-12.2894
墟	-12.2895
諸比丘於中食後	-12.2895
三轉十二行	-12.2895
熙	-12.2895
吸	-12.2895
殷	-12.2895
坐高標下	-12.2895
我與世有常	-12.2895
舒展	-12.2895
有一非少色是神施設而施設	-12.2895
義有若干	-12.2895
當患厭	-12.2895
從我行梵行	-12.2895
求於牢要	-12.2895
鞞藍大富婆羅門	-12.2895
疾疫劫	-12.2895
蹶	-12.2895
西方輸盧那	-12.2895
敦	-12.2895
久為資養	-12.2895
鞘	-12.2895
提頭賴	-12.2896
平治道路	-12.2896
畵	-12.2896
隋天竺三藏闍那崛多等譯	-12.2896
速求解脫	-12.2896
由食而存	-12.2896
苦集滅道	-12.2896
卑盧異學	-12.2896
縻	-12.2896
金翅之鳥	-12.2896
頻隣曇花	-12.2896
鵄	-12.2896
初禪具足住	-12.2896
是眾生居	-12.2896
王舍城迦蘭陀竹林	-12.2896
彩畫姝好	-12.2897
從第二禪起	-12.2897
倡伎及往觀聽	-12.2897
明審如有	-12.2897
甚愛敬念	-12.2897
亦生彼亦不生彼	-12.2897
何時當復	-12.2897
道跡斷智淨	-12.2897
欲共天鬪	-12.2897
泡沫	-12.2897
受福無窮	-12.2897
是非有想非無想處成就遊	-12.2897
緣行有識	-12.2897
盡其壽命	-12.2897
圍二百八十里	-12.2898
頻鞞娑羅王	-12.2898
在意所欲	-12.2898
在目前	-12.2898
釋羇瘦	-12.2898
彼以清淨天眼出過於	-12.2898
有風輪來	-12.2898
此身中餘在	-12.2898
行七步	-12.2898
從無想定起	-12.2898
住壽一劫若減一劫	-12.2898
婆羅突邏闍	-12.2898
雨舍公	-12.2898
十六見中	-12.2898
曝	-12.2898
蹴	-12.2898
布吒婆樓	-12.2899
大醫王	-12.2899
面相問訊慰勞	-12.2899
二萬四千里	-12.2899
刀師氏聚落主	-12.2899
現是神通從空而來	-12.2899
悵	-12.2899
粉	-12.2899
反縛兩手	-12.2899
萬苾芻得阿羅漢果	-12.2899
摩鳩羅	-12.29
有勇猛意	-12.29
如我解佛所說	-12.29
唼	-12.29
占候	-12.29
鬚髮自落	-12.29
在舍衛城祇樹給孤獨園	-12.29
不加刀杖	-12.29
知此人成就	-12.29
𤛓	-12.29
賒	-12.2901
有外道出家名	-12.2901
身體爛熟	-12.2901
轅	-12.2901
心猗息	-12.2901
疹	-12.2901
夜夢見十事	-12.2901
脂膏	-12.2901
探	-12.2901
我及世間半常半無常	-12.2901
革	-12.2901
入火光三昧	-12.2901
晨旦	-12.2901
青紅黃白蓮	-12.2901
磔	-12.2901
尤	-12.2901
佛住拘留搜調	-12.2901
色為是常	-12.2902
蠕	-12.2902
有恨心	-12.2902
鄣	-12.2902
乃至第四禪具足住	-12.2902
其守獄卒	-12.2902
殯	-12.2902
嗽	-12.2902
心無有諍	-12.2902
眾名香	-12.2902
佛住巴連弗邑鷄林	-12.2902
婆四吒優婆夷	-12.2902
翠	-12.2903
自悔責	-12.2903
傴	-12.2903
溷	-12.2903
為汝引喻	-12.2903
善人所往至處	-12.2903
信家非家	-12.2903
身上出水	-12.2903
析	-12.2903
杅	-12.2903
候	-12.2903
從佛口生	-12.2903
優陀延	-12.2903
臥鐵床	-12.2903
婆素跋陀	-12.2903
地獄壽與一	-12.2903
擇法覺支	-12.2903
枝葉分布二千里	-12.2903
滅則觸滅	-12.2904
去世尊不遠	-12.2904
從今以後	-12.2904
與千二百五十比丘	-12.2904
一切諸行皆悉無常	-12.2904
c	-12.2904
身遭苦患	-12.2904
當合未合不知牛處	-12.2904
身下出水	-12.2904
精進覺支	-12.2904
失譯人名今附秦錄	-12.2904
沛	-12.2905
鄉	-12.2905
何其駛哉	-12.2905
弓矢	-12.2905
工匠	-12.2905
未出家時	-12.2905
誹	-12.2905
苗稼	-12.2905
大人根相	-12.2905
眾生所受苦樂皆因	-12.2905
水喻人	-12.2905
若復比丘意欲求	-12.2905
効	-12.2905
歡樂如王	-12.2905
𨫼	-12.2905
亂想之念	-12.2905
毘舍浮佛	-12.2905
補縷低迦	-12.2905
貞潔	-12.2905
善人得意	-12.2905
獨步無	-12.2906
揭	-12.2906
色繫眼	-12.2906
駃	-12.2906
壇	-12.2907
婆拘羅	-12.2907
pa	-12.2907
轉無上法輪	-12.2907
世典幽微	-12.2907
尊者大周那	-12.2907
弗波育帝	-12.2907
晃若金山	-12.2907
王頻浮婆	-12.2907
眼繫色	-12.2907
吟	-12.2907
亦為七寶之所成就	-12.2907
阿練茹	-12.2907
烏晡沙他	-12.2907
發微笑	-12.2907
𡁠	-12.2908
在佛後	-12.2908
婆羅門及尊長者	-12.2908
此非其宜	-12.2908
亦有邊亦無邊	-12.2908
諸上尊比丘	-12.2908
問異答	-12.2908
渾	-12.2908
虱	-12.2908
從此岸至彼岸	-12.2908
更不造新	-12.2908
漚	-12.2909
意繫法	-12.2909
爪甲	-12.2909
梁	-12.2909
怛囉	-12.2909
禱	-12.2909
前後圍繞而為說法	-12.2909
獲無量福	-12.2909
施四方一切僧園林	-12.2909
璫	-12.291
吳月支	-12.291
g	-12.291
瞻婆城	-12.291
從舍衛國至婆雞帝	-12.291
乃知是習因緣	-12.291
神妙天	-12.2911
舅	-12.2911
優陀那偈	-12.2911
劫成敗時	-12.2911
四徼道	-12.2912
度說竟	-12.2912
那提伽	-12.2912
飡	-12.2912
當沒一一	-12.2912
有何等異	-12.2913
光明遠照	-12.2913
4)]	-12.2913
給孤長者	-12.2913
汝是何人	-12.2913
俯	-12.2914
押栰	-12.2914
識離如實知	-12.2914
本有妙色	-12.2914
如是睡眠便可	-12.2915
婆羅門及諸尊長	-12.2915
覺意治之	-12.2915
沙門今定	-12.2915
計著住彼	-12.2915
此比丘寧可樂彼	-12.2915
姧	-12.2915
貞良	-12.2915
鎧甲	-12.2916
經數日	-12.2916
傘蓋覆燈	-12.2917
祇陀王子	-12.2917
其福難量	-12.2917
駒	-12.2917
螫	-12.2917
諸知識比丘	-12.2917
從東方出	-12.2917
掃帚	-12.2918
非異非不異	-12.2918
規	-12.2918
乘白馬	-12.2921
觀自義	-12.2921
途	-12.2921
詔	-12.2922
央瞿利摩羅	-12.2922
一切諸佛極方便求如來之藏	-12.2923
非常苦空非身	-12.2923
廣五十踰闍那	-12.2924
駐	-12.2925
尊者叵求那	-12.2926
付囑	-12.2927
大快見	-12.2928
彌多求比丘	-12.2928
生故有老死	-12.2928
火與婆羅門	-12.2929
當共撰集	-12.2935
法繫意	-12.2939
身作證而自遊戲	-12.2941
是亦為著	-12.2945
萬六千歲	-12.2951
覺如覺	-12.2952
上下及四	-12.3
婆羅門於苦聖諦	-12.3008
禪正受時	-12.306
觸之猶	-12.3129
下分結	-12.3196
喉	-12.3321
食不消	-12.3332
法非法求	-12.3375
半拘盧	-12.3625
坐其床	-12.3728
榻	-12.3728
世尊以天耳	-12.3844
軍陣	-12.3974
者大迦旃延能廣分別世尊向所略說義	-12.4064
數數念利鋸刀喻沙門教	-12.41
有天宮廣長	-12.4101
國中人民所知重	-12.4105
比丘內身身觀	-12.4106
溪	-12.4107
極御治	-12.4108
食吐鳥	-12.4109
想年少吉祥子	-12.411
我爾時行此住止行	-12.4111
中有樹圍	-12.4113
金陛銀	-12.4114
琉璃陛水精	-12.4114
金樹者金	-12.4115
冷風來吹	-12.4115
若我弟子因	-12.4115
汝於內外見	-12.4117
優婆私所敬重	-12.4118
離欲斷婬	-12.412
未盡未滅	-12.4123
非法無道求	-12.4123
跟	-12.4124
行禪者熾盛則知熾盛如真	-12.4125
逮初禪成就遊	-12.4126
大灌頂輪王出	-12.4126
惡求與惡求俱	-12.4127
洟	-12.4127
阿羅訶真人盡形壽離	-12.4127
以四寶作	-12.4127
陀奴沙迦膩迦花	-12.4127
或應某時見	-12.4127
我為女人施設此第	-12.4128
舌甞味	-12.4128
金縷織成	-12.4129
中前遊行	-12.4129
后妃	-12.413
優槃難陀龍王	-12.413
三為直語	-12.4131
太白星	-12.4131
婬愚行	-12.4131
羅行樹	-12.4131
憐	-12.4131
蹉	-12.4131
眾流海為	-12.4131
幻偽不真	-12.4131
又沙門瞿曇所至	-12.4131
契	-12.4131
或拔鬚髮	-12.4131
亦自有知見	-12.4131
作長圍罝	-12.4131
有命有身	-12.4132
髦	-12.4132
捧	-12.4132
秦	-12.4132
不可以刀杖避	-12.4132
善發顯現	-12.4133
雨錢金銀七日七夜	-12.4133
剃鬚人	-12.4133
多聞聖弟子亦復作是思惟	-12.4133
館	-12.4133
即於坐中見四聖諦	-12.4134
守林人	-12.4134
隨彼諸賢心	-12.4134
故當創厭	-12.4134
嵐	-12.4134
已成就此聖戒聚	-12.4134
心出外灑散	-12.4134
未除未	-12.4134
祠祀火為上	-12.4134
憚	-12.4134
燒心已燒	-12.4135
其香普熏	-12.4135
或無正念便	-12.4135
賢及月姉妹	-12.4135
去惡就善	-12.4135
苦陰因婬故至增上婬故	-12.4135
眉間白毫	-12.4135
姤	-12.4135
洄澓	-12.4135
事不宜爾	-12.4136
萬兩金	-12.4136
經勞諸梵行	-12.4136
伽婆鉢帝	-12.4136
彼一切總說	-12.4136
眼視色	-12.4136
未曾離目	-12.4136
便興瞋恚	-12.4136
坼	-12.4136
以鐵杵擣	-12.4136
從是生惱	-12.4136
是亦自舉	-12.4136
薄拘羅	-12.4137
西晉沙門法炬譯	-12.4137
二山之間	-12.4137
六日出時	-12.4137
莂	-12.4137
瓔珞嚴飾其	-12.4137
皆能作火事	-12.4137
謦	-12.4137
修精進定	-12.4137
知彼生如是無量	-12.4137
光明所照	-12.4138
虛妄法而不究竟	-12.4138
態者聞說經	-12.4138
嬉	-12.4138
羈	-12.4138
以杖撾	-12.4138
念十善業道	-12.4138
軻	-12.4138
燒香散華	-12.4138
託	-12.4138
覺無上正盡覺	-12.4138
護由眼耳所知法	-12.4138
人壽轉減	-12.4138
如車軸	-12.4139
世尊為女人施設此第	-12.4139
彼阿修羅七頭會處	-12.4139
見央掘魔羅心生隨喜	-12.4139
取彼罪人擲	-12.4139
顛倒受解	-12.4139
白衣聖弟子善護行	-12.4139
吾說此喻	-12.4139
梳	-12.4139
綴	-12.4139
喜依著	-12.4139
熱湯涌沸	-12.4139
應與憶律	-12.4139
其間純生	-12.4139
滅故行滅	-12.414
成此大德神力	-12.414
樂獨閑居	-12.414
王園精舍	-12.414
色少行為身	-12.414
阿夷哆雞舍劍婆利	-12.414
施佛及僧	-12.414
勿有懈怠	-12.414
霜	-12.414
便下過去	-12.414
櫨	-12.414
不生睡眠患	-12.414
踐蹈	-12.414
門上有曲箱蓋交露	-12.414
不度者度	-12.414
捨依著	-12.414
護眼耳意法	-12.414
因其光明而見形色	-12.4141
彼齊限是心解脫不過是	-12.4141
堆	-12.4141
粥	-12.4141
咤	-12.4141
同本異譯	-12.4141
善因緣所致	-12.4141
律中學道已來八十年	-12.4141
𪏭	-12.4141
趍	-12.4141
伊羅婆那大龍象王	-12.4141
壽命甚短	-12.4141
燃大木積火	-12.4141
迦毘延多苑中	-12.4142
毘樓勒天王	-12.4142
今我作釋迦文尼佛	-12.4142
作伽茶伽茶	-12.4142
我等若見比丘極	-12.4142
易可開	-12.4142
識無邊處	-12.4142
興居輕利	-12.4142
身遇諸疾	-12.4142
眾共和集	-12.4142
幘	-12.4142
以喜為食	-12.4142
門復閉	-12.4142
得一往來天上	-12.4142
須食與食	-12.4142
娑羅邏巖山	-12.4142
四十萬里	-12.4143
二十八萬里	-12.4143
而覆其上	-12.4143
失辯無言	-12.4143
騰空而行	-12.4143
疎	-12.4143
𣃆	-12.4143
朋耆奢	-12.4143
此說即為三明典中	-12.4143
二百八十里	-12.4143
􂌦	-12.4143
挑	-12.4143
以心淨故	-12.4143
斟酌	-12.4144
為主所縛	-12.4144
從第三禪起	-12.4144
有精麤	-12.4144
璧	-12.4144
脉	-12.4144
糠糟	-12.4144
身毛為竪	-12.4144
則彼智趣	-12.4144
戲具來	-12.4144
此禿沙門	-12.4144
譬天名為	-12.4144
五穀豐熟	-12.4145
如是壽訖	-12.4145
明見深達	-12.4145
邃	-12.4145
如是此淳大苦陰	-12.4145
無等倫	-12.4145
肢	-12.4145
稽	-12.4145
滴	-12.4145
判	-12.4145
割之汁	-12.4145
憍薩羅國	-12.4145
摩頭揵提迦	-12.4145
舘	-12.4145
內無色想觀外色	-12.4145
施設更觸	-12.4145
亦非是神	-12.4145
善處而得長壽	-12.4145
皆七寶成	-12.4145
從世尊自盡形壽	-12.4145
鷲巖山	-12.4145
三肘半	-12.4146
無量璝異	-12.4146
是彼遺法中有諸	-12.4146
當知世尊略說此	-12.4146
人及非人	-12.4146
哽	-12.4146
若愚癡凡夫因	-12.4146
彼八千諸龍象	-12.4146
槌	-12.4146
事火編髮梵志	-12.4146
味甘如蜜	-12.4146
復有階道趣	-12.4146
生餘下賤妓樂神中	-12.4146
十大海水灌	-12.4146
颺	-12.4146
亦不教人使	-12.4147
彌婁離	-12.4147
用世間癡人為貪欲所泆	-12.4147
四天下及八萬天下	-12.4147
舟	-12.4147
與涅槃相應	-12.4147
飛向彼居吒奢摩離大樹	-12.4147
勅己眾	-12.4147
大集法門	-12.4147
生於彼間	-12.4147
十千天子	-12.4147
無喜生樂	-12.4147
識不欲染著	-12.4147
那梨鴦伽	-12.4147
馥	-12.4147
取滅故有滅	-12.4147
有滅故生滅	-12.4147
挓	-12.4147
膜	-12.4147
流離太子	-12.4148
訶梨聚落主長者	-12.4148
非生非不生	-12.4148
用現世不得脫諸	-12.4148
知而故問	-12.4148
緣更樂有覺	-12.4148
宇	-12.4148
往生不更異	-12.4148
亦不墮身計	-12.4148
詠	-12.4148
其音哀雅	-12.4148
以諸不善業果報故	-12.4149
旱	-12.4149
鐶	-12.4149
犯人婦女	-12.4149
錐	-12.4149
唐自疲勞	-12.4149
泥囉浮陀	-12.4149
無量無色是神施設而施設	-12.4149
胎種龍	-12.4149
腫	-12.4149
見著而著	-12.4149
隨心而出種種	-12.4149
租	-12.4149
定覺支	-12.4149
未生善法令生	-12.4149
蘇摩比丘尼	-12.4149
非有願非無願人欲得	-12.4149
彼阿修羅王七頭會處	-12.4149
若更有如是比	-12.4149
評	-12.4149
色者是常	-12.4149
北方去此過	-12.415
三十七道品之	-12.415
內之所受	-12.415
受畜金銀寶物	-12.415
澡漱	-12.415
若百若千	-12.415
我之教勅	-12.415
於未來世成不生法	-12.4151
𠼝	-12.4151
不善不辯	-12.4151
蠲	-12.4151
諦審實	-12.4151
倒懸向下	-12.4151
復取計挍	-12.4151
當有我見及世間見	-12.4151
聰明比丘黠慧廣慧	-12.4151
馬半頭	-12.4151
人以為東方	-12.4151
行四等心	-12.4151
名色有六入	-12.4151
鑰	-12.4151
頗求那	-12.4151
菴羅林中	-12.4152
押	-12.4152
夜後分	-12.4152
作以不作	-12.4152
奢摩梨林	-12.4152
戈	-12.4152
過去久遠世時	-12.4152
蠟	-12.4152
於疑惑淨除其心	-12.4152
世間智者言	-12.4152
眼之所見	-12.4152
殞	-12.4153
安日道中	-12.4153
略五盛陰苦	-12.4153
比丘從滅盡定起時	-12.4153
鐵鍱林大地獄	-12.4153
從空處起	-12.4153
冑	-12.4153
拘迦那娑天女	-12.4153
殯葬	-12.4153
催	-12.4153
復更有惡	-12.4153
排	-12.4153
何其疾哉	-12.4153
玩	-12.4153
那梨迦聚落	-12.4153
自今之後	-12.4154
從靜室起	-12.4154
浚	-12.4154
隨宜住已	-12.4154
Mahā	-12.4154
o	-12.4154
已生便增廣	-12.4154
波婆城	-12.4155
去此不遠	-12.4155
此人不善法滅	-12.4155
薑	-12.4155
身行善口言善心念善	-12.4155
青草彌覆	-12.4155
櫪	-12.4155
青草遍	-12.4155
宗本不可作	-12.4155
阿耨達多池	-12.4155
是則名為轉輪聖王第	-12.4155
耶陀迦羅越	-12.4155
從不用處起	-12.4156
日後分	-12.4156
婆羅門因此於本劫本見	-12.4156
為蟲所食	-12.4156
呰	-12.4156
面半腹	-12.4156
例	-12.4156
昏	-12.4157
佛住菴羅聚落菴羅林	-12.4157
如本見息道	-12.4157
為道作穢	-12.4157
不復還生此世	-12.4157
秤	-12.4157
若有賢者弟子聞知	-12.4157
禮尊者阿難足	-12.4157
可患厭	-12.4157
已百千歲墮地獄中受	-12.4157
尊者金剛子	-12.4157
此女所事之師	-12.4157
烏波薩吉	-12.4158
所見聞從他疑	-12.4158
緣識名色	-12.4158
瑇	-12.4159
彼有目士	-12.4159
供佛及僧	-12.4159
有四食資益	-12.4159
閻摩世	-12.4159
枳	-12.4159
若於自己	-12.4159
被服法衣	-12.4159
𠎝	-12.4159
種雜花	-12.416
身行惡口言惡心念	-12.416
以此文而廣說之	-12.416
於此王舍城為	-12.416
儗	-12.416
九十六種道	-12.416
倫	-12.416
湊	-12.416
俱那含牟尼佛	-12.416
拘那含牟尼如來	-12.416
為欲熱所熱	-12.4161
聞尊者舍梨子所說	-12.4161
不得道行精進	-12.4161
唧	-12.4162
從空而來	-12.4162
光三昧起	-12.4162
著其口中	-12.4162
今沙門瞿曇住舍衛國祇樹給孤獨園	-12.4162
不令他人難問詰責墮負處	-12.4162
輻	-12.4162
踞	-12.4162
隨修內身身觀住	-12.4162
騷	-12.4162
牒	-12.4163
著白淨衣	-12.4163
七走七行	-12.4163
若阿難為行道	-12.4163
孫陀利河側婆羅門	-12.4163
入白衣舍	-12.4163
北身恕林中	-12.4163
栗	-12.4164
不可沮壞	-12.4164
共出耆闍崛山	-12.4165
甚可愛敬	-12.4165
具生不信	-12.4165
具聞善法	-12.4165
齅	-12.4165
舉他罪	-12.4165
本所思願	-12.4165
與大眾俱	-12.4165
尊者茂師羅	-12.4165
陰界入	-12.4166
具聞惡法	-12.4166
我不見一法修	-12.4166
於一切眾生所無量相好清淨莊嚴	-12.4166
具親近惡知識	-12.4166
無常盛火當盡斷	-12.4166
棟	-12.4166
鴦掘摩	-12.4167
我施設女人	-12.4167
▁150	-12.4167
故致斯	-12.4168
證聖果	-12.4168
𨽁	-12.4168
摩羅鳩摩羅	-12.4169
慧者同學者	-12.4169
荏	-12.4169
苦而後苦	-12.4169
佛及比丘眾集坐	-12.417
身壞死時生善處天上	-12.4171
恐亡我	-12.4171
淨飯王	-12.4173
為爾所苦	-12.4173
捨諸俗事	-12.4174
具三妙行	-12.4174
屯	-12.4174
如金聚	-12.4174
囑	-12.4175
善修善具	-12.4175
無色眾生度一切	-12.4179
高六拘盧	-12.4179
穀貴劫時	-12.4179
天及世人	-12.418
阿梨瑟吒	-12.418
有母子畏	-12.4181
是本行所	-12.4182
刀劒劫時	-12.4184
大川滿	-12.4186
小川滿	-12.4186
平澤水滿	-12.4187
有奇特眾生生	-12.4187
當以四事知	-12.4188
於一切眾生修習慈心	-12.4193
知覺滅道	-12.4196
具威儀法	-12.4197
知漏滅道	-12.4198
石擲及刀杖加	-12.4198
緣眼觸生眼	-12.4208
從三十三天沒	-12.4209
年在盛	-12.4211
䐗	-12.4214
增無損	-12.4215
度諸流	-12.4223
彼心緣界住	-12.4228
作眾伎	-12.4236
者有何對	-12.4251
是為世間正	-12.4278
禮我足	-12.4298
我今要當作	-12.4377
尊者優波摩	-12.4381
梵迦夷	-12.4483
以利刀鋸	-12.4487
節節解我身者	-12.4488
是名良馬第	-12.457
生受身四	-12.5044
四方面各有	-12.5072
無如是他死	-12.5147
車𤦲瑪瑙等	-12.5178
耳鼻舌身意	-12.5337
粟	-12.5398
生滅故老	-12.5411
摩訶三摩多	-12.5466
給諸孤	-12.5521
從天來下生	-12.5523
觀興衰	-12.5532
厭患於欲而命終者	-12.5536
俱迦那外道	-12.5538
銀陛金	-12.5538
有本從致	-12.5541
集於食堂	-12.5541
麤衣知足	-12.5541
若見彼姝	-12.5543
攢	-12.5544
亦為人說不可作法	-12.5545
是謂大天王成就如是	-12.5546
銀樹者銀	-12.5547
思餘小想	-12.5547
酢	-12.5547
扣	-12.555
波梨梵志	-12.555
寧可思厭相應想入	-12.5551
愛習苦習聖諦	-12.5551
其人手取種種	-12.5551
不應思餘小想入	-12.5551
王夢見小樹生	-12.5552
以淳灰	-12.5553
其樹各有種種葉	-12.5553
繳	-12.5553
𩣺	-12.5553
水底皆金沙	-12.5553
至木聚邊憂慼愁臥	-12.5553
以淨天眼	-12.5554
若復有時父母	-12.5554
不聽諸尼揵入	-12.5555
不穿不壞	-12.5555
為諸梵行者愛敬尊重	-12.5555
鞞婆陵耆村	-12.5557
受三歸五戒	-12.5557
跋迦利	-12.5557
清淨鮮白	-12.5557
迦匹那	-12.5557
掃地之人	-12.5557
不令有乏	-12.5558
其善現池	-12.5558
蜜多羅比丘尼	-12.5558
於繩床上	-12.5558
末劫末見	-12.5559
軟若天衣	-12.556
施設如是大施	-12.556
或著鐵釜中	-12.556
諸隷車	-12.556
無作亦無憂	-12.5561
羇靽	-12.5561
光明最勝上妙好	-12.5561
驕	-12.5561
遐	-12.5562
翫誦法	-12.5562
以他相占他意	-12.5562
毘婁博叉	-12.5562
汝於此義應如是觀	-12.5562
舁	-12.5562
頗聞跋耆	-12.5563
𣰆	-12.5563
牛頭栴檀	-12.5563
身得輕安	-12.5563
紐	-12.5563
凌	-12.5563
乃至求於救護之處	-12.5563
我今從佛了知此義	-12.5563
善制善定善息	-12.5563
鑪	-12.5563
珞	-12.5564
園苑諸池	-12.5564
起諸亂想	-12.5564
得非有想非無想處成就遊	-12.5564
未曾有法及說義	-12.5564
取一小床	-12.5564
莫令後悔	-12.5565
迦陵伽	-12.5565
化種龍	-12.5565
於所取法	-12.5565
戍	-12.5565
此沙門極有神	-12.5565
覺滅則愛滅	-12.5565
熬	-12.5566
各各縱廣六	-12.5566
不造新者	-12.5566
世典婆羅門	-12.5566
極苦甚重苦	-12.5566
饑	-12.5566
知善內思惟	-12.5566
覩者歡悅	-12.5566
久久數千萬歲	-12.5566
淖	-12.5566
泆	-12.5567
瘖	-12.5567
迺	-12.5568
枷	-12.5568
滂	-12.5568
漆	-12.5569
弈	-12.5569
舡	-12.5569
倩	-12.5569
縵	-12.557
姟	-12.557
𢷏	-12.5571
挾	-12.5571
耄	-12.5571
虜	-12.5571
甌	-12.5571
竺	-12.5572
胃	-12.5572
捻	-12.5572
㑺	-12.5572
昵	-12.5572
武	-12.5573
庫	-12.5573
歔	-12.5574
撾	-12.5574
闡	-12.5574
祥	-12.5575
激	-12.5575
簸	-12.5575
潰	-12.5575
跱	-12.5576
俛	-12.5577
柘	-12.5577
抵	-12.5578
攪	-12.5578
硬	-12.5578
h	-12.5579
泰	-12.5579
據	-12.558
誣	-12.558
ī	-12.558
鍛	-12.5581
沮	-12.5582
虐	-12.5582
p	-12.5582
狎	-12.5583
荻	-12.5583
呬	-12.5583
轢	-12.5583
懌	-12.5584
鵲	-12.5584
募	-12.5584
攬	-12.5585
盤	-12.5585
妖	-12.5586
較	-12.5586
鞅	-12.5586
e	-12.5586
阜	-12.5586
K	-12.5587
符	-12.5587
虺	-12.5587
墼	-12.5587
崛	-12.5588
兀	-12.5588
胷	-12.5588
駭	-12.5588
炊	-12.5588
㨹	-12.5588
懅	-12.5589
纔	-12.5589
輞	-12.559
奚	-12.559
怱	-12.5591
暑	-12.5591
赦	-12.5592
祁	-12.5592
椽	-12.5592
虞	-12.5592
詶	-12.5599
芸	-12.5602
潮	-12.5603
懣	-12.5604
攎	-12.5619
慼	-12.6942
倡	-12.7123
曷	-12.7186
回	-12.7201
袍	-12.7219
澹	-12.722
隻	-12.722
旗	-12.722
玳	-12.7221
僻	-12.7222
臍	-12.7223
捲	-12.7223
疏	-12.7224
慠	-12.7225
瀨	-12.7227
陽	-12.7227
簏	-12.7228
拯	-12.7228
桁	-12.7228
欬	-12.7229
晴	-12.723
揮	-12.7231
隊	-12.7231
渝	-12.7231
酤	-12.7231
麵	-12.7232
奄	-12.7232
翼	-12.7233
閱	-12.7233
艶	-12.7233
州	-12.7234
箱	-12.7234
雕	-12.7235
楯	-12.7236
㵱	-12.7236
仞	-12.7236
祛	-12.7236
局	-12.7237
牕	-12.7238
蚤	-12.7238
尖	-12.7239
匱	-12.7239
鈇	-12.7239
紙	-12.724
酬	-12.724
錠	-12.724
􂌝	-12.724
竿	-12.724
訾	-12.724
克	-12.724
尅	-12.7242
𠽮	-12.7242
亭	-12.7242
絣	-12.7242
脣	-12.7243
廚	-12.7243
軒	-12.7243
濃	-12.7243
旁	-12.7243
英	-12.7243
敏	-12.7243
述	-12.7243
凹	-12.7244
遑	-12.7244
𣫍	-12.7244
禽	-12.7244
捔	-12.7244
株	-12.7245
蟆	-12.7245
巳	-12.7245
紛	-12.7245
幟	-12.7245
虵	-12.7245
雇	-12.7246
搣	-12.7247
聟	-12.7247
芳	-12.7247
豎	-12.7247
尿	-12.7248
浸	-12.7248
馨	-12.7248
褻	-12.7249
b	-12.7249
汎	-12.725
𠻬	-12.7251
鴻	-12.7251
魂	-12.7251
層	-12.7251
濫	-12.7252
嘉	-12.7253
叡	-12.7253
韋	-12.7253
皎	-12.7253
輝	-12.7253
範	-12.7254
腋	-12.7254
惛	-12.7254
皓	-12.7254
匐	-12.7255
鵰	-12.7255
唄	-12.7255
黜	-12.7255
悷	-12.7255
嚥	-12.7256
包	-12.7256
朴	-12.7256
厲	-12.7257
ṇ	-12.7257
駝	-12.7258
姉	-12.726
桴	-12.7263
訴	-12.7263
虔	-12.7263
討	-12.7264
覽	-12.7264
盪	-12.7265
褺	-12.7265
抗	-12.7266
烈	-12.7273
篲	-12.7277
展	-12.7694
榛	-12.92
㓟	-12.9203
莽	-12.9208
拖	-12.9208
坦	-12.9209
熇	-12.9209
咃	-12.9216
徵	-12.9218
羡	-12.9219
曚	-12.922
拙	-12.922
崑	-12.9221
氈	-12.9221
兆	-12.9223
𤛆	-12.9223
噭	-12.9223
矚	-12.9224
頷	-12.9225
毅	-12.9227
穽	-12.9228
蛾	-12.9228
鐘	-12.9229
齶	-12.9229
蒸	-12.923
掖	-12.9231
岐	-12.9232
叛	-12.9232
鋤	-12.9232
壃	-12.9233
壅	-12.9233
綠	-12.9233
楣	-12.9234
葛	-12.9234
職	-12.9234
滲	-12.9234
魁	-12.9235
憒	-12.9235
壑	-12.9235
粃	-12.9235
韛	-12.9235
沽	-12.9236
淋	-12.9236
躶	-12.9237
觜	-12.9237
麾	-12.9237
嚇	-12.9237
〈	-12.9238
勵	-12.9238
餌	-12.9238
樑	-12.9238
〉	-12.9238
伍	-12.9238
曳	-12.9238
仇	-12.9239
坊	-12.9239
妃	-12.924
誼	-12.9241
凉	-12.9241
怏	-12.9241
吳	-12.9241
茹	-12.9242
膞	-12.9242
髂	-12.9242
𣸪	-12.9242
堓	-12.9243
俞	-12.9243
液	-12.9243
𨄔	-12.9243
苟	-12.9243
傅	-12.9243
措	-12.9244
份	-12.9244
軌	-12.9244
炤	-12.9245
碍	-12.9245
秘	-12.9245
矇	-12.9245
醇	-12.9245
丁	-12.9246
汪	-12.9246
堊	-12.9246
靽	-12.9246
盂	-12.9246
唌	-12.9246
䩕	-12.9246
摽	-12.9246
煉	-12.9247
郊	-12.9247
鍮	-12.9248
歿	-12.9248
晦	-12.9248
莠	-12.9248
󰪠	-12.9248
埿	-12.9249
噬	-12.9249
P	-12.9249
班	-12.9249
f	-12.9249
癭	-12.9249
豁	-12.925
擥	-12.925
韻	-12.9251
疽	-12.9251
諄	-12.9252
莎	-12.9252
蝎	-12.9252
𡱁	-12.9253
跣	-12.9253
勳	-12.9254
菩	-12.9254
熅	-12.9255
傭	-12.9255
佞	-12.9256
􂌟	-12.9257
逈	-12.9257
兢	-12.9258
璅	-12.9259
芽	-12.9259
拕	-12.926
閨	-12.9261
殆	-12.9262
認	-12.9262
柞	-12.9265
𧓲	-12.9265
尉	-12.9269
訪	-12.9273
眩	-12.9274
替	-12.9276
禰	-12.9276
柰	-12.928
估	-12.9281
臗	-12.9287
帚	-12.9288
􂌯	-13.1684
醎	-13.1689
椑	-13.1693
𤋲	-13.1706
媒	-13.171
夾	-13.1712
䂎	-13.1715
絆	-13.1716
鋌	-13.1716
痕	-13.1717
磉	-13.1717
儭	-13.1719
格	-13.172
諧	-13.172
蒱	-13.1722
𠿘	-13.1722
忖	-13.1724
寔	-13.1724
剪	-13.1724
餐	-13.1726
呿	-13.1726
曒	-13.1726
銷	-13.1726
卉	-13.1727
版	-13.1727
鐺	-13.1728
暝	-13.1728
昂	-13.1729
埃	-13.173
府	-13.173
穬	-13.173
燕	-13.173
揣	-13.1731
㷔	-13.1731
洛	-13.1731
舶	-13.1731
+	-13.1731
𣯾	-13.1732
拼	-13.1732
𤦛	-13.1733
鳳	-13.1733
䍧	-13.1733
毱	-13.1733
疇	-13.1734
轟	-13.1734
剬	-13.1734
奸	-13.1734
顫	-13.1734
涯	-13.1735
詵	-13.1735
弼	-13.1735
况	-13.1735
絹	-13.1735
椀	-13.1736
膺	-13.1737
篾	-13.1737
繪	-13.1737
只	-13.1737
憘	-13.1737
漉	-13.1737
痍	-13.1737
T	-13.1738
泄	-13.1738
皷	-13.1739
𣟁	-13.1739
臘	-13.1739
抴	-13.174
僥	-13.174
撻	-13.174
刮	-13.1741
罔	-13.1741
埵	-13.1741
添	-13.1741
罐	-13.1742
刎	-13.1742
屢	-13.1742
滌	-13.1742
􂌿	-13.1742
骸	-13.1742
佩	-13.1744
拷	-13.1744
橛	-13.1744
浩	-13.1744
翮	-13.1744
喘	-13.1744
蓐	-13.1745
疥	-13.1745
徙	-13.1745
􂌸	-13.1745
藐	-13.1745
懇	-13.1745
廕	-13.1745
篅	-13.1745
魅	-13.1746
噫	-13.1746
鬧	-13.1746
礼	-13.1746
操	-13.1746
蟹	-13.1746
􂍊	-13.1746
炳	-13.1747
稈	-13.1748
鵒	-13.1748
棗	-13.1748
京	-13.1748
洽	-13.1748
謔	-13.1748
𡂡	-13.1748
餾	-13.1748
懲	-13.1749
冒	-13.1749
勌	-13.1749
署	-13.1749
躡	-13.1749
裘	-13.175
茄	-13.175
𤥭	-13.1751
餧	-13.1751
涸	-13.1751
森	-13.1751
胤	-13.1751
邈	-13.1751
笞	-13.1751
甫	-13.1751
㲉	-13.1751
誇	-13.1752
澓	-13.1752
蠢	-13.1752
鎗	-13.1753
剔	-13.1753
盥	-13.1753
甯	-13.1754
堤	-13.1755
鎔	-13.1755
舂	-13.1756
譚	-13.1756
遼	-13.1756
亮	-13.1758
混	-13.1758
甕	-13.1758
虬	-13.1759
游	-13.1759
懵	-13.176
麼	-13.1762
瞪	-13.1762
􂍝	-13.1762
惣	-13.1763
鱗	-13.1766
餮	-13.1767
窗	-13.1767
讐	-13.1767
凞	-13.1767
梓	-13.1769
樟	-13.1769
A	-13.177
杓	-13.1771
彊	-13.1771
嫡	-13.1771
膳	-13.1773
耎	-13.1773
歛	-13.1777
匕	-13.1779
穫	-13.1781
豸	-13.1784
腥	-13.1784
㭼	-13.1785
釣	-13.1787
坏	-13.1791
脛	-13.499
爵	-13.5023
簁	-13.5027
閭	-13.5029
妷	-13.5031
鈹	-13.5034
垛	-13.5038
拪	-13.504
万	-13.5042
糖	-13.5044
蹤	-13.5044
隋	-13.5045
呧	-13.5046
崙	-13.5048
褐	-13.5048
斜	-13.5048
筒	-13.5048
航	-13.505
繕	-13.505
曆	-13.5052
埴	-13.5052
吮	-13.5052
怗	-13.5053
瞬	-13.5053
喟	-13.5054
杌	-13.5054
磐	-13.5054
嘿	-13.5056
縹	-13.5057
硨	-13.5057
㘁	-13.5057
虻	-13.5057
碼	-13.5058
聊	-13.5059
瘳	-13.5059
眄	-13.5059
貳	-13.5059
敞	-13.506
携	-13.5061
杜	-13.5061
盖	-13.5061
砂	-13.5061
祈	-13.5061
瑙	-13.5062
嘯	-13.5063
介	-13.5063
雌	-13.5063
羣	-13.5064
瑪	-13.5065
窈	-13.5065
犀	-13.5065
咳	-13.5066
噏	-13.5066
竦	-13.5067
婉	-13.5067
獎	-13.5067
糺	-13.5067
轍	-13.5067
盎	-13.5068
氛	-13.5068
扠	-13.5069
秏	-13.5069
禳	-13.5069
魯	-13.5069
鵂	-13.507
B	-13.5071
憧	-13.5071
儜	-13.5071
綾	-13.5071
溉	-13.5072
零	-13.5072
脯	-13.5072
蔔	-13.5072
摘	-13.5073
溜	-13.5073
妊	-13.5073
咨	-13.5074
昆	-13.5075
几	-13.5075
泯	-13.5075
茵	-13.5075
旅	-13.5076
舫	-13.5077
冶	-13.5077
咬	-13.5077
勃	-13.5077
遽	-13.5077
尻	-13.5079
譖	-13.5079
刊	-13.5081
塜	-13.5081
冰	-13.5083
踣	-13.5083
X	-13.5083
瓨	-13.5083
瞽	-13.5083
肚	-13.5083
釵	-13.5083
廂	-13.5083
觚	-13.5083
詢	-13.5083
/	-13.5083
L	-13.5083
㲪	-13.5084
萄	-13.5084
彰	-13.5084
竈	-13.5084
蹙	-13.5084
纊	-13.5085
拱	-13.5085
眷	-13.5086
僵	-13.5086
隙	-13.5086
享	-13.5086
叱	-13.5086
抽	-13.5086
澇	-13.5086
鎻	-13.5086
踴	-13.5087
蒭	-13.5087
盆	-13.5088
采	-13.5088
呞	-13.5088
禂	-13.5088
弭	-13.5089
暇	-13.5089
窖	-13.509
仕	-13.509
俊	-13.509
擭	-13.5091
閤	-13.5091
綏	-13.5092
豕	-13.5092
燎	-13.5093
絮	-13.5094
熹	-13.5094
㕮	-13.5094
嫗	-13.5094
柟	-13.5094
燧	-13.5094
筵	-13.5094
裕	-13.5095
銳	-13.5095
瞢	-13.5096
蕭	-13.5097
慄	-13.5097
嗤	-13.5098
糟	-13.51
尫	-13.51
晞	-13.51
躇	-13.5104
插	-13.5106
社	-13.5106
鏟	-13.5106
淹	-13.5108
蹌	-13.5108
伯	-13.5108
褒	-13.511
獦	-13.511
䴏	-13.511
悼	-13.5112
揜	-13.5117
遘	-13.5131
埻	-13.5144
毳	-13.5156
裳	-13.7085
迭	-13.9542
豔	-13.9829
艾	-14.0007
羇	-14.0035
庠	-14.004
矢	-14.0041
脆	-14.0044
宛	-14.0057
酌	-14.0068
襯	-14.0069
蔡	-14.007
帆	-14.0073
搔	-14.0073
邸	-14.0075
搜	-14.0075
逋	-14.0076
柏	-14.0076
駿	-14.0078
駱	-14.0079
婇	-14.0079
喧	-14.0083
M	-14.0083
涅	-14.0084
閃	-14.0089
齗	-14.0093
苾	-14.0093
恪	-14.0101
撈	-14.0101
懶	-14.0111
痒	-14.012
靴	-14.9841
霍	-14.9842
鏵	-14.9843
鍬	-14.9844
鋑	-14.9845
邇	-14.9846
諭	-14.9847
褊	-14.9848
衡	-14.9849
蛭	-14.985
蕪	-14.9851
腴	-14.9852
肖	-14.9853
肋	-14.9854
翹	-14.9855
紜	-14.9856
糴	-14.9857
糅	-14.9858
穆	-14.9859
稀	-14.986
秔	-14.9861
睦	-14.9862
瘢	-14.9863
痆	-14.9864
疅	-14.9865
琶	-14.9866
琵	-14.9867
爬	-14.9868
漁	-14.9869
湎	-14.987
殑	-14.9871
摾	-14.9872
摴	-14.9873
搦	-14.9874
揉	-14.9875
挼	-14.9876
拗	-14.9877
忸	-14.9878
弦	-14.9879
庵	-14.988
崗	-14.9881
嬪	-14.9882
壻	-14.9883
哦	-14.9884
僊	-14.9885
倐	-14.9886
俄	-14.9887
丞	-14.9888
㸌	-14.9889
㨑	-14.989
ṣ	-14.9891
􂍋	-14.9892
𨍉	-14.9893
𦋺	-14.9894
𥯤	-14.9895
𥈐	-14.9896
𣽈	-14.9897
𢤱	-14.9898
鼾	-14.9899
黈	-14.99
鸛	-14.9901
鷺	-14.9902
鱉	-14.9903
韑	-14.9904
隈	-14.9905
鍵	-14.9906
豌	-14.9907
蝮	-14.9908
蝗	-14.9909
藿	-14.991
股	-14.9911
籮	-14.9912
篌	-14.9913
箜	-14.9914
笮	-14.9915
稊	-14.9916
碾	-14.9917
砧	-14.9918
皿	-14.9919
疵	-14.992
甄	-14.9921
璣	-14.9922
烹	-14.9923
沉	-14.9924
歐	-14.9925
榴	-14.9926
楊	-14.9927
搨	-14.9928
挈	-14.9929
抒	-14.993
惻	-14.9931
帥	-14.9932
嚧	-14.9933
匍	-14.9934
匂	-14.9935
亢	-14.9936
䛕	-14.9937
Ā	-14.9938
V	-14.9939
D	-14.994
殼	-14.994
騁	-14.9941
餔	-14.9942
隍	-14.9943
蘅	-14.9944
萍	-14.9945
芒	-14.9946
舋	-14.9947
臟	-14.9948
粧	-14.9949
穰	-14.995
琁	-14.9951
燸	-14.9952
熢	-14.9953
榵	-14.9954
敲	-14.9955
挃	-14.9956
拮	-14.9957
戢	-14.9958
憺	-14.9959
惔	-14.996
廉	-14.9961
幖	-14.9962
嶔	-14.9963
峨	-14.9964
夙	-14.9965
圊	-14.9966
哪	-14.9967
㶿	-14.9968
㚘	-14.9969
ṅ	-14.997
ñ	-14.9971
黿	-14.9972
麋	-14.9973
鷂	-14.9974
鏃	-14.9975
贈	-14.9976
蜚	-14.9977
蚑	-14.9978
禹	-14.9979
礓	-14.998
瘀	-14.9981
爴	-14.9982
煌	-14.9983
洫	-14.9984
氂	-14.9985
欷	-14.9986
捃	-14.9987
悍	-14.9988
孜	-14.9989
妐	-14.999
佷	-14.9991
膾	-14.9992
箕	-14.9993
疣	-14.9994
墓	-14.9995
儔	-14.9996
什	-14.9997
j	-14.9998
疋	-14.9999
戚	-15
廩	-15.0001
壠	-15.0002
墎	-15.0003
俸	-15.0004
v	-15.0005
鼎	-15.0006
驉	-15.0007
蟇	-15.0008
蒺	-15.0009
紩	-15.001
猨	-15.0011
揖	-15.0012
徘	-15.0013
徊	-15.0014
寮	-15.0015
剉	-15.0016
䔧	-15.0017
寞	-15.0018
*	-15.0018
遬	-15.0019
谿	-15.002
薜	-15.0021
葆	-15.0022
窒	-15.0023
濯	-15.0024
湛	-15.0025
料	-15.0026
毾	-15.0026
擻	-15.0027
抖	-15.0028
慾	-15.0029
坎	-15.003
儼	-15.0031
仿	-15.0032
㥲	-15.0033
𩞚	-15.0034
蠻	-15.0035
蓏	-15.0036
耑	-15.0037
繡	-15.0038
〕	-15.0038
粒	-15.0039
簿	-15.004
磑	-15.0041
疼	-15.0042
衍	-15.0042
廐	-15.0043
劖	-15.0044
麑	-15.0045
阨	-15.0046
醒	-15.0047
罝	-15.0048
笈	-15.0049
琦	-15.005
頞	-15.005
淤	-15.0051
暐	-15.0052
抨	-15.0053
悕	-15.0054
凋	-15.0055
鵝	-15.0056
罠	-15.0057
襞	-15.0058
氳	-15.0059
爍	-15.0059
蝦	-15.0059
蜎	-15.006
臚	-15.0061
彗	-15.0062
縠	-15.0063
狡	-15.0064
槁	-15.0065
陟	-15.0066
膖	-15.0066
洄	-15.0067
倪	-15.0067
蠰	-15.0067
狌	-15.0068
嶷	-15.0069
匃	-15.007
釐	-15.0071
謫	-15.0072
荀	-15.0073
羖	-15.0074
咷	-15.0074
鼈	-15.0074
徼	-15.0074
禘	-15.0075
慟	-15.0075
𨋐	-15.0076
璝	-15.0077
曄	-15.0077
嘩	-15.0078
琥	-15.0079
獷	-15.008
婿	-15.008
䭷	-15.0081
螢	-15.0082
噎	-15.0083
蜫	-15.0083
濤	-15.0084
港	-15.0085
捍	-15.0086
孩	-15.0087
懊	-15.0088
店	-15.0088
t	-15.0089
湖	-15.009
栿	-15.009
漱	-15.009
斟	-15.0091
姻	-15.0091
颰	-15.0091
d	-15.0092
謹	-15.0093
蔗	-15.0094
荊	-15.0095
臈	-15.0096
綩	-15.0097
鹵	-15.0098
蚋	-15.0099
蕉	-15.0099
姙	-15.01
慞	-15.01
傘	-15.0101
譁	-15.0102
罣	-15.0103
瑠	-15.0104
醐	-15.0105
醍	-15.0106
蜱	-15.0106
創	-15.0107
靂	-15.0107
霹	-15.0108
臠	-15.0109
孾	-15.011
髑	-15.0111
瑜	-15.0112
餚	-15.0113
皇	-15.0114
釀	-15.0115
毫	-15.0115
珀	-15.0116
氀	-15.0117
昱	-15.0118
緊	-15.0119
纖	-15.012
礫	-15.0121
徉	-15.0122
瑚	-15.0123
珊	-15.0124
哺	-15.0125
嬰	-15.0126
驃	-15.0127
癢	-15.0128
擁	-15.0129
饉	-15.013
魄	-15.013
嫜	-15.0131
啾	-15.0131
慇	-15.0131
闥	-15.0132
櫓	-15.0133
詈	-15.0134
宴	-15.0135
獼	-15.0136
跏	-15.0137
鸚	-15.0138
袒	-15.0139
玷	-15.0139
垣	-15.014
巍	-15.0141
壹	-15.0142
諛	-15.0143
臾	-15.0144
[	-15.0145
粳	-15.0146
邠	-15.0147
睺	-15.0148
袈	-15.0149
忉	-15.015
—	-15.0151
N	-15.0152
琉	-15.0153
璃	-15.0154
憔	-15.0155
訊	-15.0155
