<unk>	0
<s>	0
</s>	0
/	-3.75908
(	-4.26116
)	-4.27976
之	-4.29531
)(	-4.62256
也	-4.85069
而	-5.01704
以	-5.02564
有	-5.17382
其	-5.297
為	-5.31529
不	-5.34413
於	-5.45749
人	-5.48033
曰	-5.54553
者	-5.56294
▁	-5.6523
無	-5.67054
作	-5.69434
一	-5.70311
自	-5.88762
在	-5.89614
公	-5.93051
言	-5.95286
上	-5.95842
與	-5.96182
詩	-5.96412
中	-5.9899
則	-6.00966
行	-6.01527
時	-6.02872
大	-6.03228
山	-6.05309
如	-6.05956
此	-6.06856
子	-6.08477
天	-6.10783
見	-6.11083
爲	-6.15258
下	-6.18039
生	-6.1973
書	-6.21578
王	-6.23095
水	-6.24088
所	-6.25613
字	-6.25741
日	-6.27117
事	-6.27775
云	-6.28029
道	-6.29753
是	-6.3216
得	-6.33609
故	-6.35319
至	-6.37216
三	-6.39002
文	-6.39371
君	-6.4074
出	-6.41541
長	-6.43296
相	-6.43544
名	-6.43772
心	-6.46008
今	-6.4601
于	-6.48056
去	-6.48134
歸	-6.48574
皆	-6.49658
來	-6.49659
又	-6.49749
風	-6.50585
傳	-6.51911
非	-6.52436
多	-6.52669
同	-6.52757
乃	-6.5364
亦	-6.56302
謂	-6.56496
矣	-6.58738
州	-6.59357
雲	-6.59416
知	-6.59791
我	-6.6068
入	-6.60736
何	-6.60963
然	-6.61071
未	-6.63314
若	-6.63784
後	-6.65988
春	-6.66059
方	-6.66537
成	-6.67512
可	-6.67636
切	-6.68244
一作	-6.6825
使	-6.68698
明	-6.69415
將	-6.7006
乎	-6.7061
當	-6.70855
二	-6.70938
欲	-6.71278
音	-6.72283
前	-6.74104
官	-6.74435
白	-6.75163
用	-6.75319
地	-6.75899
聲	-6.76057
南	-6.77408
髙	-6.7749
月	-6.77838
或	-6.78061
聞	-6.79851
門	-6.80188
家	-6.80641
從	-6.81192
復	-6.81763
清	-6.83023
石	-6.83557
居	-6.83916
東	-6.85023
及	-6.85055
朝	-6.85578
馬	-6.85961
兮	-6.86289
年	-6.86862
臣	-6.86987
逺	-6.87115
思	-6.88138
能	-6.88843
花	-6.88991
漢	-6.90513
重	-6.90761
因	-6.908
西	-6.90973
本	-6.91155
李	-6.91455
國	-6.91527
洙曰	-6.91612
城	-6.91676
安	-6.9184
已	-6.92592
金	-6.92917
平	-6.9339
秋	-6.93549
令	-6.94041
四	-6.94449
江	-6.94678
意	-6.94737
客	-6.95684
焉	-6.9626
望	-6.96686
五	-6.97709
正	-6.97948
新	-6.98009
命	-6.98047
流	-6.98553
古	-6.98574
盡	-6.9935
神	-6.99754
身	-7.00246
空	-7.01223
過	-7.01775
深	-7.01825
玉	-7.025
注	-7.03132
老	-7.03667
元	-7.03905
夜	-7.04213
飛	-7.05571
賦	-7.05928
即	-7.06237
吾	-7.06619
光	-7.06946
氣	-7.07212
猶	-7.08204
雖	-7.08403
酒	-7.08552
張	-7.09268
還	-7.10374
先	-7.10542
且	-7.11672
舊	-7.11775
小	-7.11955
開	-7.12653
分	-7.12918
起	-7.13053
歌	-7.13496
難	-7.14404
應	-7.14456
語	-7.14761
問	-7.14761
常	-7.15098
死	-7.15213
世	-7.15437
士	-7.1589
龍	-7.16152
經	-7.16277
物	-7.16726
師	-7.16753
立	-7.16918
遂	-7.17454
兵	-7.18099
獨	-7.18189
北	-7.18891
寄	-7.18958
送	-7.19312
巳	-7.19468
外	-7.19496
始	-7.19644
必	-7.19724
初	-7.20185
通	-7.20195
帝	-7.20547
樂	-7.21682
寒	-7.22205
華	-7.22522
處	-7.23238
周	-7.23744
雨	-7.24538
色	-7.24871
别	-7.25017
遊	-7.25031
莫	-7.25344
陽	-7.25422
路	-7.25734
九	-7.25999
樹	-7.26146
合	-7.26391
和	-7.27282
實	-7.27547
兩	-7.28027
義	-7.28542
好	-7.29187
情	-7.29843
少	-7.29948
志	-7.29957
唐	-7.30328
六	-7.30486
善	-7.30869
興	-7.31068
耳	-7.31343
夫	-7.31472
軍	-7.3172
更	-7.32158
黄	-7.32816
萬	-7.33313
發	-7.33868
取	-7.33873
惟	-7.34097
論	-7.34417
數	-7.35482
百	-7.3549
觀	-7.35706
郡	-7.36065
海	-7.36274
食	-7.36315
贈	-7.3663
終	-7.36735
氏	-7.3703
陳	-7.37115
守	-7.37133
異	-7.37728
禮	-7.37811
草	-7.37967
落	-7.38643
法	-7.38759
高	-7.39113
武	-7.39291
舉	-7.39367
間	-7.39403
似	-7.39904
衣	-7.40081
林	-7.40275
既	-7.40838
諸	-7.41273
青	-7.41423
謝	-7.42788
秦	-7.42869
縣	-7.42942
近	-7.44012
豈	-7.44023
賢	-7.44525
或作	-7.44535
向	-7.44619
曲	-7.45263
稱	-7.45553
等	-7.4591
易	-7.46239
理	-7.46824
宫	-7.47007
楚	-7.47349
信	-7.4823
女	-7.48301
鳥	-7.48304
求	-7.48549
靈	-7.48653
表	-7.48689
首	-7.48735
坐	-7.49066
絶	-7.49399
直	-7.50233
動	-7.51272
力	-7.51328
竹	-7.51672
臨	-7.52132
登	-7.52282
齊	-7.52308
府	-7.52532
不可	-7.52607
辭	-7.52931
記	-7.53268
亂	-7.53645
○	-7.54078
尚	-7.54198
内	-7.54325
學	-7.54379
七	-7.54422
雪	-7.55527
章	-7.56054
進	-7.56117
節	-7.56128
景	-7.56201
封	-7.56599
天下	-7.5669
宜	-7.57087
對	-7.57129
主	-7.57154
車	-7.57556
八	-7.58661
都	-7.58814
請	-7.58826
集	-7.5889
才	-7.5893
題	-7.59332
田	-7.59467
載	-7.59585
聖	-7.60294
頭	-7.60302
衆	-7.60361
池	-7.60443
河	-7.60718
野	-7.60884
魚	-7.61216
悲	-7.61379
仙	-7.61449
木	-7.61536
臺	-7.61577
甚	-7.61712
足	-7.61825
親	-7.61864
星	-7.62304
爾	-7.62372
香	-7.62638
感	-7.62648
滿	-7.62663
徳	-7.63027
病	-7.63279
十	-7.63674
愁	-7.63768
篇	-7.64048
幽	-7.64652
誰	-7.64935
千	-7.65044
期	-7.65204
連	-7.6582
葉	-7.66011
留	-7.66074
隨	-7.66238
㑹	-7.66253
定	-7.66452
德	-7.66576
指	-7.66956
劉	-7.67053
孫曰	-7.6755
代	-7.67554
失	-7.6773
引	-7.67775
服	-7.67949
史	-7.68229
固	-7.68327
交	-7.68466
梁	-7.68638
晉	-7.68848
餘	-7.69002
到	-7.69104
陵	-7.69338
喜	-7.69798
屬	-7.69819
不能	-7.69972
苦	-7.69979
民	-7.70263
誠	-7.70784
鳴	-7.70798
奉	-7.70895
蜀	-7.70975
憂	-7.71768
徒	-7.72763
泉	-7.72843
制	-7.73032
化	-7.7322
夏	-7.73459
吏	-7.73501
真	-7.73605
度	-7.73647
胡	-7.73804
輕	-7.73844
兼	-7.74038
共	-7.74485
功	-7.74507
詔	-7.74548
醉	-7.7458
土	-7.74677
趙	-7.74765
承	-7.75314
愛	-7.7564
傷	-7.75801
窮	-7.75841
孤	-7.76182
凡	-7.76197
次	-7.76207
寺	-7.76349
樓	-7.76362
按	-7.7643
垂	-7.76545
恩	-7.77726
受	-7.77759
宗	-7.78088
皇	-7.78215
容	-7.78324
驚	-7.78467
任	-7.78527
極	-7.78931
宿	-7.78946
序	-7.79066
目	-7.79178
松	-7.7927
離	-7.7937
楊	-7.79373
加	-7.79387
隂	-7.79387
口	-7.79508
哀	-7.79544
羣	-7.79553
里	-7.79665
永	-7.7982
句	-7.80238
列	-7.80692
右	-7.80885
疑	-7.81101
致	-7.81154
良	-7.81483
廣	-7.815
彼	-7.81551
塵	-7.81781
哉	-7.81866
休	-7.82101
貴	-7.82444
侯	-7.82959
卒	-7.83355
遺	-7.83384
比	-7.83814
勝	-7.83934
懐	-7.84198
火	-7.843
嘗	-7.84823
願	-7.84965
拜	-7.8529
解	-7.85603
溪	-7.85759
太	-7.85786
以為	-7.8579
賜	-7.85847
詞	-7.85925
結	-7.85939
降	-7.85957
昔	-7.86208
政	-7.8655
亭	-7.86677
素	-7.87108
俗	-7.87283
散	-7.87396
幸	-7.87421
懷	-7.8757
號	-7.87958
越	-7.88013
趙曰	-7.88085
利	-7.88105
許	-7.88485
紅	-7.88532
轉	-7.88534
手	-7.8897
美	-7.89025
吟	-7.89084
▁(	-7.89254
照	-7.89379
鄭	-7.89422
庭	-7.89479
畫	-7.89784
而不	-7.89965
余	-7.9012
顧	-7.90123
置	-7.90253
遷	-7.90468
舟	-7.90585
祖	-7.90932
露	-7.91002
微	-7.911
孫	-7.91404
圖	-7.91516
伯	-7.91565
榮	-7.9197
父	-7.92188
斯	-7.92356
益	-7.92425
但	-7.92474
反	-7.92828
授	-7.93004
疾	-7.93111
往	-7.93317
止	-7.93319
便	-7.93523
變	-7.9373
天子	-7.93822
笑	-7.94094
各	-7.94216
朱	-7.9423
仁	-7.94235
卿	-7.94451
半	-7.94624
閣	-7.94632
精	-7.94982
邊	-7.95046
乗	-7.95279
教	-7.95742
燕	-7.96132
嚴	-7.96324
唯	-7.9652
左	-7.96569
修	-7.96663
波	-7.96673
夢	-7.96734
魏	-7.9682
忽	-7.96833
不得	-7.97158
待	-7.97366
位	-7.97663
並	-7.97747
著	-7.97808
除	-7.97956
伏	-7.98093
獻	-7.98143
杜	-7.98272
奏	-7.98293
註	-7.98556
戰	-7.98677
念	-7.98784
改	-7.98806
遇	-7.98998
晚	-7.99532
飲	-7.9961
室	-7.99869
宋	-8.00409
盛	-8.00625
恐	-8.00962
移	-8.00979
歲	-8.01054
就	-8.01076
不知	-8.01134
所以	-8.01245
川	-8.01445
再	-8.01521
堂	-8.01849
看	-8.01929
盖	-8.02239
體	-8.02565
紀	-8.02741
蓋	-8.02924
原	-8.03001
俱	-8.03167
汝	-8.03248
勞	-8.03298
全	-8.03438
由	-8.03756
形	-8.03826
謂之	-8.04534
紫	-8.04642
報	-8.04721
早	-8.04942
却	-8.05225
計	-8.06433
亡	-8.06448
建	-8.06466
筆	-8.06526
霜	-8.06596
治	-8.06602
持	-8.06684
郎	-8.06755
視	-8.06989
孝	-8.06996
谷	-8.07147
適	-8.07263
薄	-8.07396
存	-8.07477
久	-8.07789
司	-8.07823
枝	-8.07911
聽	-8.07924
識	-8.0793
浮	-8.0809
崔	-8.0832
韓	-8.08369
尋	-8.08384
沙	-8.08562
趙云	-8.08601
暮	-8.09019
巻	-8.09108
嵗	-8.09138
昭	-8.09692
説	-8.09783
破	-8.09932
澤	-8.09946
殺	-8.10008
嘉	-8.10097
舞	-8.10492
丹	-8.11037
扵	-8.11052
所謂	-8.11192
省	-8.11354
𤣥	-8.11443
乆	-8.11469
雄	-8.11486
鶴	-8.11633
廟	-8.11672
類	-8.11764
依	-8.12297
尚書	-8.12326
殿	-8.12421
謀	-8.12506
予	-8.12506
烏	-8.12682
雙	-8.12692
狀	-8.12701
業	-8.12719
塞	-8.13032
况	-8.13241
負	-8.13598
忠	-8.1369
宣	-8.13788
說	-8.13892
竒	-8.13898
吳	-8.14014
羅	-8.14056
藏	-8.14201
虚	-8.14212
性	-8.14243
象	-8.14416
閑	-8.14778
惡	-8.14862
考	-8.15198
憶	-8.15455
碧	-8.15462
選	-8.15603
州刺史	-8.15802
旣	-8.15878
威	-8.15909
斷	-8.16013
愈	-8.16032
赤	-8.16152
某	-8.16458
揚	-8.16468
曹	-8.16539
丘	-8.16591
濟	-8.16608
罷	-8.16641
葢	-8.16862
将	-8.16912
關	-8.1728
珠	-8.17406
衰	-8.17411
議	-8.1745
要	-8.17509
補注	-8.1785
寧	-8.17895
顔	-8.18561
忘	-8.18728
殊	-8.18849
備	-8.18903
敬	-8.19201
闕	-8.19332
恨	-8.19468
末	-8.19512
韋	-8.19662
虎	-8.19748
逢	-8.19853
敢	-8.19855
魯	-8.19893
積	-8.19942
果	-8.19978
荒	-8.20174
逐	-8.202
僧	-8.20325
閒	-8.20331
簡	-8.20664
推	-8.20832
賊	-8.2091
尊	-8.21056
夷	-8.213
告	-8.21391
每	-8.21622
職	-8.21626
具	-8.22221
折	-8.22222
隱	-8.22307
冠	-8.22604
影	-8.23108
須	-8.23224
延	-8.23236
母	-8.23341
咸	-8.23392
井	-8.23713
錢	-8.2374
急	-8.23947
追	-8.23949
投	-8.24336
厚	-8.24362
息	-8.24383
煙	-8.24533
騎	-8.24596
可以	-8.24742
長安	-8.25032
御	-8.25071
園	-8.25136
宴	-8.25217
韻	-8.25302
耶	-8.25489
接	-8.2553
横	-8.25617
湖	-8.25735
覺	-8.26019
含	-8.26072
徐	-8.26202
詠	-8.26383
京	-8.26417
仍	-8.26497
来	-8.26572
冬	-8.26722
雜	-8.27062
罪	-8.27459
儒	-8.27468
陸	-8.27585
宅	-8.27732
惠	-8.27905
如此	-8.27974
緑	-8.28228
殘	-8.2912
典	-8.2918
放	-8.2978
兹	-8.29839
遣	-8.29904
倚	-8.30073
羽	-8.30159
芳	-8.30398
工	-8.30434
裏	-8.3061
邑	-8.3075
讀	-8.30786
傾	-8.3082
曉	-8.30852
角	-8.30966
收	-8.31044
賞	-8.3111
滅	-8.31282
權	-8.31533
盧	-8.31544
呉	-8.31633
戎	-8.31645
施	-8.3178
祭	-8.31795
衛	-8.3204
牛	-8.3207
呼	-8.32497
累	-8.32507
碑	-8.32645
游	-8.32746
歡	-8.32864
器	-8.32913
端	-8.32937
千里	-8.32994
執	-8.33025
跡	-8.33076
征	-8.3317
骨	-8.33197
赴	-8.33235
崇	-8.33414
懸	-8.33487
蕭	-8.33712
鎮	-8.33815
岸	-8.33898
琴	-8.33978
走	-8.34045
運	-8.34072
召	-8.34095
友	-8.34326
蘇	-8.34564
英	-8.34723
之所	-8.34776
律	-8.35107
勢	-8.35115
淚	-8.35359
蘭	-8.35419
漢書	-8.35649
幾	-8.35691
養	-8.35749
翠	-8.36137
順	-8.36168
賀	-8.3619
細	-8.36407
帶	-8.36555
充	-8.36669
根	-8.3682
弟	-8.37131
危	-8.3724
君子	-8.37326
退	-8.37335
最	-8.37787
藥	-8.38707
隠	-8.38773
歎	-8.38903
回	-8.39167
貧	-8.39174
錦	-8.39781
兒	-8.39918
特	-8.39921
校	-8.40032
栁	-8.40238
符	-8.40298
萬里	-8.40467
種	-8.40474
裴	-8.40558
此詩	-8.40558
鄉	-8.40754
隔	-8.41172
詩云	-8.41186
郊	-8.41299
面	-8.41333
甫	-8.4137
迴	-8.41572
陛下	-8.4172
福	-8.41803
房	-8.41844
儀	-8.42096
市	-8.42145
獲	-8.4216
佛	-8.42432
勤	-8.42712
郭	-8.42717
棄	-8.42737
虞	-8.42837
慶	-8.43036
沈	-8.4305
迎	-8.43397
佐	-8.43405
闗	-8.43677
先生	-8.43695
鴻	-8.44295
壁	-8.44416
仰	-8.44429
商	-8.44462
夕	-8.44561
誤	-8.44616
船	-8.44692
邪	-8.44753
苑	-8.44989
尤	-8.45451
逸	-8.45484
毛	-8.45494
薦	-8.45494
吹	-8.4557
率	-8.4559
寳	-8.45608
叔	-8.45804
秀	-8.45936
補	-8.45939
夫人	-8.45971
季	-8.4598
被	-8.45994
布	-8.4601
不敢	-8.46154
源	-8.46236
橋	-8.46262
附	-8.46342
浪	-8.46572
怨	-8.46733
仲	-8.46763
卷	-8.46766
試	-8.46974
烟	-8.47091
軒	-8.47139
奔	-8.4745
雞	-8.47482
峯	-8.48063
委	-8.48071
柳	-8.48229
避	-8.48329
眼	-8.48333
卧	-8.48465
申	-8.48884
丗	-8.4908
廢	-8.49165
調	-8.49199
巖	-8.4931
嶺	-8.49363
達	-8.49392
禁	-8.49505
鼓	-8.49612
愚	-8.4993
維	-8.50237
克	-8.50481
射	-8.50749
三年	-8.50874
天地	-8.50991
歳	-8.51183
示	-8.51343
敗	-8.51386
桂	-8.51414
籍	-8.51541
哭	-8.51775
繼	-8.51948
駕	-8.52084
刻	-8.52215
資	-8.5231
覆	-8.52625
爭	-8.52635
貌	-8.52693
想	-8.52729
短	-8.52923
漸	-8.52936
曾	-8.53022
銘	-8.53067
曽	-8.53608
振	-8.53731
惜	-8.53797
録	-8.53835
鳯	-8.53853
遠	-8.54022
盤	-8.54071
韓曰	-8.54359
據	-8.54364
雅	-8.54366
大夫	-8.54381
寵	-8.54403
竟	-8.54409
險	-8.54443
歩	-8.54446
務	-8.54794
族	-8.54822
太白	-8.54952
機	-8.55075
逰	-8.55472
絲	-8.55492
昌	-8.55614
屈	-8.55652
刑	-8.55778
洞	-8.55869
領	-8.56119
衡	-8.56123
暗	-8.56234
管	-8.56362
造	-8.56424
陶	-8.56463
齊賢曰	-8.56493
酬	-8.56759
甲	-8.56833
后	-8.56971
釋	-8.57105
史記	-8.57268
劒	-8.57516
將軍	-8.57544
謹	-8.57699
部	-8.57729
遥	-8.57765
質	-8.57925
私	-8.58057
鏡	-8.5815
康	-8.58708
丁	-8.58804
智	-8.59314
孔	-8.5938
妙	-8.59394
於是	-8.59406
保	-8.59462
旅	-8.59493
抱	-8.59711
狂	-8.59912
貞	-8.59963
玄	-8.60542
左傳	-8.60668
遲	-8.60701
無所	-8.60863
懼	-8.60885
殷	-8.60962
怒	-8.61024
不見	-8.61149
孟	-8.61246
盈	-8.61252
翻	-8.61437
蒼	-8.61439
誅	-8.61486
縱	-8.61913
非是	-8.61953
免	-8.6196
第	-8.62173
洛	-8.62371
二年	-8.62477
託	-8.62526
十二	-8.62609
條	-8.62694
招	-8.62748
縁	-8.63112
掌	-8.6316
頗	-8.63276
刺	-8.63314
兄	-8.63353
并	-8.63417
屋	-8.63468
文章	-8.63548
拂	-8.63955
僕	-8.63967
席	-8.64287
今日	-8.64295
伐	-8.64459
材	-8.64637
博	-8.6474
鍾	-8.64797
勿	-8.64829
慮	-8.65038
洪	-8.65275
䇿	-8.65438
麗	-8.65495
妻	-8.65701
設	-8.65746
侍	-8.65792
泥	-8.65892
只	-8.65922
堪	-8.65932
害	-8.65993
以爲	-8.66017
徴	-8.66194
翼	-8.66331
静	-8.66461
聚	-8.66466
鴈	-8.66502
訪	-8.66544
境	-8.66721
他	-8.66788
墓	-8.66804
歴	-8.66879
者也	-8.66896
偶	-8.66906
沉	-8.66924
馳	-8.67095
畢	-8.67115
假	-8.67162
畏	-8.67418
壯	-8.67626
詳	-8.67672
干	-8.67977
牧	-8.68053
龜	-8.68185
參	-8.68248
撫	-8.68268
不足	-8.688
昏	-8.68919
靜	-8.68921
齋	-8.68979
劍	-8.69313
營	-8.69414
映	-8.69638
逹	-8.69656
候	-8.69667
没	-8.69725
晴	-8.69748
背	-8.70071
院	-8.70119
侵	-8.70193
蔡	-8.70395
館	-8.70488
士贇曰	-8.70531
述	-8.70702
甘	-8.70876
徃	-8.70906
刀	-8.70917
巴	-8.71242
姓	-8.71441
庶	-8.71503
春秋	-8.71504
晨	-8.71589
厥	-8.7164
輔	-8.71926
悉	-8.72117
黃	-8.72134
賈	-8.72211
尉	-8.72225
升	-8.72261
專	-8.72271
温	-8.7233
納	-8.72937
擊	-8.72943
舍	-8.72979
偏	-8.73233
二首	-8.73258
側	-8.73534
嗟	-8.73606
猿	-8.73651
㣲	-8.73967
茂	-8.74115
別	-8.74154
廻	-8.74283
京師	-8.74465
答	-8.74475
顯	-8.74496
泣	-8.74691
嗣	-8.74822
驅	-8.74974
祠	-8.74985
違	-8.75078
隋	-8.7519
峽	-8.75224
勸	-8.75299
人之	-8.75312
披	-8.75415
階	-8.75419
雷	-8.75525
婦	-8.75578
禪	-8.75872
棲	-8.75873
鼎	-8.75878
味	-8.75929
頌	-8.7596
公之	-8.75999
訓	-8.76068
凝	-8.763
凌	-8.76659
宰	-8.76778
豪	-8.76827
之意	-8.76963
履	-8.77187
是也	-8.77475
尹	-8.77847
繫	-8.78083
蕩	-8.78085
太子	-8.78122
朔	-8.78174
翁	-8.78265
習	-8.78388
户	-8.78457
鳳	-8.78689
蒙	-8.78693
步	-8.78856
諸侯	-8.78918
荷	-8.79046
乾	-8.791
泛	-8.7953
村	-8.7957
䝉	-8.79613
徑	-8.79614
敵	-8.79649
之間	-8.79963
貢	-8.8001
約	-8.80048
故曰	-8.80203
堅	-8.80279
日月	-8.80302
慙	-8.80333
莊子	-8.80353
魂	-8.80434
憐	-8.80598
救	-8.80734
葬	-8.80783
住	-8.80844
掩	-8.80873
竊	-8.80888
採	-8.80916
司馬	-8.81012
莊	-8.81016
頻	-8.81019
迷	-8.81076
燈	-8.81135
旁	-8.81175
戲	-8.81187
霞	-8.81193
左右	-8.81248
當時	-8.81478
乘	-8.815
湘	-8.81537
熟	-8.81593
采	-8.81905
薛	-8.82044
索	-8.82148
旗	-8.82288
无	-8.8231
津	-8.82416
冷	-8.82429
童	-8.82871
啓	-8.82934
支	-8.83057
怪	-8.83095
驛	-8.83202
堯	-8.83287
耕	-8.83289
厯	-8.83334
燭	-8.83334
謁	-8.83584
河南	-8.83599
禍	-8.83642
豐	-8.84168
途	-8.84178
激	-8.84197
節度	-8.84413
啼	-8.84638
農	-8.84648
梅	-8.84712
察	-8.84738
慕	-8.84842
鮮	-8.85004
蘇曰	-8.85012
翰	-8.85076
祀	-8.85116
貶	-8.85118
湯	-8.85215
邦	-8.85378
旋	-8.85432
故云	-8.85992
踈	-8.8601
荆	-8.86036
喻	-8.86104
洛陽	-8.86159
飾	-8.86242
扶	-8.8638
或無	-8.86439
輪	-8.86495
禹	-8.86495
程	-8.86597
仕	-8.86838
皇帝	-8.86946
淸	-8.87032
銀	-8.87086
夀	-8.87327
斜	-8.8765
潭	-8.87678
繁	-8.87807
蒲	-8.8786
眠	-8.87929
血	-8.88008
辨	-8.88155
鬼	-8.88213
戒	-8.88289
賔	-8.8834
廬	-8.88384
孰	-8.88389
均	-8.88442
宰相	-8.88477
希	-8.88478
倒	-8.885
朝廷	-8.88509
擬	-8.88527
虛	-8.88576
班	-8.88577
卑	-8.8864
煩	-8.88656
借	-8.88828
太守	-8.88885
後漢	-8.88947
傍	-8.89094
曠	-8.89214
低	-8.89375
朕	-8.89479
蓬	-8.89566
釣	-8.89686
讓	-8.89742
斗	-8.898
富	-8.89922
刺史	-8.90004
勇	-8.90039
毎	-8.90257
故人	-8.9039
壽	-8.90398
𥘉	-8.90497
品	-8.90504
操	-8.90556
之地	-8.90568
浦	-8.90644
恭	-8.90782
羊	-8.90816
桑	-8.90818
之道	-8.91062
節度使	-8.91108
巢	-8.91168
齒	-8.91255
不如	-8.91337
然後	-8.91421
寛	-8.91471
又云	-8.91483
尾	-8.91646
舒	-8.91655
暴	-8.9169
啟	-8.9218
宇	-8.92264
寶	-8.92354
稀	-8.9236
賤	-8.92384
渡	-8.92615
界	-8.92736
慈	-8.92786
冝	-8.92893
逆	-8.92917
攀	-8.93046
弱	-8.93048
眞	-8.93102
佳	-8.93147
何處	-8.93179
嗚呼	-8.93252
助	-8.93362
苟	-8.93504
其所	-8.93699
漏	-8.9378
寫	-8.93781
編	-8.93944
略	-8.94042
禄	-8.94125
攻	-8.94218
墨	-8.94306
乞	-8.94315
尺	-8.94356
銷	-8.94443
總	-8.94519
監	-8.94687
戴	-8.9472
强	-8.94733
吕	-8.94794
侍御	-8.94986
談	-8.94988
叙	-8.95105
暫	-8.95181
恒	-8.95321
阻	-8.95454
錫	-8.95488
髪	-8.95649
辱	-8.95798
彌	-8.95813
趨	-8.95831
元年	-8.95964
幕	-8.96028
崖	-8.96332
吐蕃	-8.96411
疎	-8.96526
宮	-8.96696
痛	-8.96731
晝	-8.96907
孔子	-8.96986
古詩	-8.97017
役	-8.9704
震	-8.97333
環	-8.97394
牙	-8.97547
㡬	-8.97551
洗	-8.9757
圍	-8.97724
叢	-8.97755
鄰	-8.978
姑	-8.97833
討	-8.97837
淮	-8.97914
責	-8.97925
荅	-8.97996
使君	-8.98091
患	-8.98115
凉	-8.98125
岳	-8.98218
俾	-8.98248
伊	-8.98319
之後	-8.98505
杯	-8.9856
十年	-8.98672
炎	-8.9877
愧	-8.98853
肅	-8.98902
頃	-8.98926
量	-8.9902
於此	-8.9906
㫖	-8.99092
術	-8.99155
聊	-8.99187
辰	-8.99188
喪	-8.99339
格	-8.99393
烈	-8.99406
吴	-8.99426
輿	-8.9946
郷	-8.99765
困	-8.99792
牽	-8.99795
吉	-8.99975
貫	-9.00059
古人	-9.00166
辟	-9.0018
一日	-9.00245
枯	-9.00289
奪	-9.00311
阿	-9.00408
郎中	-9.0041
蕃	-9.00482
人也	-9.00653
邉	-9.0071
杖	-9.00802
旌	-9.00816
黒	-9.00823
摧	-9.00887
桃	-9.01063
宻	-9.01241
綺	-9.01252
銜	-9.01363
掃	-9.0151
給	-9.01606
禽	-9.01645
穴	-9.01652
當是	-9.01697
丈	-9.01728
峰	-9.01804
祥	-9.01885
斬	-9.01999
防	-9.02036
超	-9.02101
霧	-9.02306
淺	-9.02515
諱	-9.02573
江南	-9.027
撰	-9.02756
成都	-9.02793
吐	-9.02929
遭	-9.03025
眉	-9.03049
祝曰	-9.03089
柱	-9.03176
晩	-9.03583
暖	-9.03586
屏	-9.03989
迹	-9.04051
舜	-9.04254
師曰	-9.04336
不及	-9.04383
聖人	-9.04428
擁	-9.04463
之以	-9.0449
弄	-9.04553
絃	-9.04609
植	-9.04715
筵	-9.04718
増	-9.04763
二十	-9.0479
陰	-9.0487
有所	-9.0487
穿	-9.04967
歟	-9.05115
柔	-9.05247
擇	-9.05335
牀	-9.05373
佩	-9.05382
畧	-9.05758
巧	-9.05921
屢	-9.05935
鶴曰	-9.05946
中有	-9.0601
窺	-9.06011
束	-9.06051
底	-9.06168
御史	-9.06206
潮	-9.06356
群	-9.06381
白雲	-9.06445
洲	-9.06497
銅	-9.06545
飢	-9.06557
羞	-9.06657
二字	-9.06745
犯	-9.06789
之事	-9.06804
鄭曰	-9.06854
展	-9.07031
勲	-9.07222
騰	-9.07596
籠	-9.07786
介	-9.07936
疏	-9.08088
巨	-9.08165
弓	-9.08256
十五	-9.08263
停	-9.08537
壇	-9.0872
秩	-9.0914
差	-9.09279
妃	-9.09374
至於	-9.09414
鸞	-9.09468
閉	-9.09785
三十	-9.09799
飄	-9.09809
肉	-9.09856
費	-9.09878
虜	-9.09958
帥	-9.10033
酌	-9.10052
白日	-9.1013
何以	-9.10162
蟲	-9.10232
蟬	-9.10264
徙	-9.10304
鹿	-9.10361
觸	-9.10565
錯	-9.10579
圓	-9.10653
座	-9.10732
戀	-9.10748
蓮	-9.10842
帳	-9.10859
覩	-9.10899
三月	-9.10948
卜	-9.11115
寢	-9.11191
曰吾	-9.11192
方云	-9.11352
瞻	-9.11585
明月	-9.11798
巾	-9.11804
中丞	-9.12014
脩	-9.12105
瑞	-9.12266
強	-9.12308
泰	-9.12371
是以	-9.12412
墜	-9.1258
諫	-9.12611
式	-9.12623
稍	-9.12799
署	-9.13016
躬	-9.13036
□	-9.13053
樊曰	-9.13115
濕	-9.13308
憲	-9.13321
鐘	-9.13348
響	-9.13546
䘮	-9.13554
否	-9.13992
范	-9.14408
築	-9.14469
網	-9.14504
珍	-9.14508
開元	-9.14515
戸	-9.14536
爵	-9.146
今按	-9.14814
言其	-9.14818
鱗	-9.14849
澄	-9.14856
主人	-9.1492
潤	-9.14926
倫	-9.1493
俯	-9.1499
寓	-9.15044
優	-9.15189
庸	-9.15298
財	-9.1531
彈	-9.15445
循	-9.15446
效	-9.15779
隴	-9.15798
英華	-9.15922
寂	-9.16143
熱	-9.16415
覽	-9.16418
續	-9.16531
密	-9.16591
印	-9.1671
妾	-9.16892
陪	-9.16965
會	-9.17129
平生	-9.17239
繞	-9.17357
融	-9.1739
上人	-9.1751
毒	-9.17604
藝	-9.17691
舎	-9.17699
鞭	-9.18094
塗	-9.1832
貪	-9.18343
相公	-9.18354
𢎞	-9.18427
十一	-9.18563
燒	-9.18706
瓊	-9.18742
雁	-9.18786
奮	-9.18822
詣	-9.18826
獵	-9.18845
統	-9.18893
一人	-9.18905
抑	-9.18961
紛	-9.19115
峻	-9.19116
渚	-9.19183
穆	-9.19281
捨	-9.19366
勉	-9.19459
耀	-9.19565
契	-9.19676
如何	-9.19681
喧	-9.19702
焚	-9.19727
排	-9.19786
科	-9.199
策	-9.20049
澗	-9.20051
春風	-9.20135
丞相	-9.20211
徵	-9.20232
晏	-9.20315
貞元	-9.20325
不復	-9.20327
沒	-9.20358
枕	-9.20457
与	-9.20487
竇	-9.20536
鑿	-9.20589
杭	-9.20662
漁	-9.20758
鹽	-9.20789
百姓	-9.20813
嘆	-9.20872
把	-9.20872
賛	-9.21077
忍	-9.2113
人間	-9.21139
宏	-9.21448
少年	-9.21518
隅	-9.21522
冀	-9.21614
惑	-9.21767
旦	-9.21871
嶽	-9.21885
獸	-9.21904
蔽	-9.21976
扇	-9.22024
贊	-9.22061
屯	-9.22141
粉	-9.22151
爰	-9.22205
速	-9.22258
李白	-9.22322
厭	-9.22343
之士	-9.22346
際	-9.22487
晦	-9.2253
弔	-9.22551
元和	-9.22614
輝	-9.22652
伴	-9.2268
兄弟	-9.2269
帆	-9.22781
十八	-9.22892
江陵	-9.23008
渾	-9.23037
之心	-9.23161
靡	-9.23244
氷	-9.23258
渠	-9.23285
肆	-9.23433
皮	-9.23483
足下	-9.23698
草木	-9.23791
彩	-9.23846
洞庭	-9.23847
藩	-9.23866
缺	-9.2407
茅	-9.24098
飯	-9.24123
甞	-9.24135
輒	-9.24214
拔	-9.24322
輩	-9.2439
隣	-9.24427
米	-9.24427
并序	-9.24474
唱	-9.24491
辛	-9.24569
昇	-9.2463
供	-9.248
促	-9.24819
災	-9.24843
靑	-9.25012
慰	-9.25468
争	-9.25534
規	-9.25539
提	-9.25583
俊	-9.25619
樊	-9.25679
簾	-9.25928
辯	-9.26004
侍郎	-9.26038
革	-9.26132
决	-9.26181
當作	-9.26218
弘	-9.26366
允	-9.26385
有餘	-9.26487
謬	-9.26603
蛇	-9.26618
而已	-9.2663
進士	-9.27016
脫	-9.27141
風吹	-9.27255
諷	-9.27321
揺	-9.27373
黨	-9.27441
不同	-9.27449
返	-9.27453
東南	-9.27525
聴	-9.27565
況	-9.27712
男	-9.27799
藻	-9.27838
襟	-9.27884
揮	-9.27919
副	-9.2797
催	-9.27987
冰	-9.28164
無人	-9.28184
弊	-9.28402
憑	-9.28445
古今	-9.28477
嫌	-9.28578
而後	-9.28865
層	-9.28898
觴	-9.29059
東都	-9.29084
腹	-9.29331
妄	-9.29376
涼	-9.29421
判官	-9.29649
其後	-9.29717
粟	-9.29738
段	-9.29742
箭	-9.29822
四海	-9.29893
竭	-9.29987
欺	-9.30032
未嘗	-9.30121
亦有	-9.30143
慎	-9.3017
姿	-9.30178
襲	-9.30207
之人	-9.30213
菊	-9.30225
悟	-9.30302
饒	-9.30371
昧	-9.3053
董	-9.30592
鬢	-9.30605
競	-9.30771
寡	-9.30855
謫	-9.30956
壺	-9.31163
憤	-9.31396
秋風	-9.31418
一名	-9.31434
草堂	-9.31483
雍	-9.31562
逃	-9.3182
鬱	-9.31822
鷹	-9.31825
四方	-9.31989
為之	-9.32013
飽	-9.32043
本作	-9.32069
頓	-9.32083
毫	-9.32148
社	-9.3234
腰	-9.32369
㸃	-9.32373
知其	-9.32412
消	-9.32424
獄	-9.32437
削	-9.3245
之言	-9.32541
脱	-9.32574
冥	-9.32629
袁	-9.32745
黄金	-9.32785
祝	-9.32804
遐	-9.33181
傅	-9.33262
泊	-9.33325
忝	-9.33392
丞	-9.33432
偃	-9.33463
那	-9.33543
子美	-9.33581
從事	-9.33758
漫	-9.34084
臯	-9.34188
四十	-9.34208
墮	-9.34221
價	-9.34265
涕	-9.34282
肥	-9.34642
五月	-9.34683
繡	-9.34791
腸	-9.34806
彰	-9.3481
而無	-9.34872
滯	-9.3501
滋	-9.35079
享	-9.35365
鄙	-9.35528
晉書	-9.35535
逾	-9.3569
墳	-9.35742
徹	-9.3575
寸	-9.35801
肯	-9.3582
拘	-9.35961
潛	-9.36055
一本	-9.36175
禮記	-9.36208
衝	-9.36258
翔	-9.36306
買	-9.36405
審	-9.36618
藉	-9.36621
厲	-9.36628
遽	-9.36705
風雨	-9.36705
悠悠	-9.36773
鑒	-9.36783
爾雅	-9.36791
四年	-9.36815
相如	-9.36816
又曰	-9.36833
勒	-9.36859
崩	-9.36951
蠻	-9.37033
講	-9.37394
錄	-9.37492
織	-9.37504
十六	-9.37554
踐	-9.37847
奴	-9.38008
裁	-9.38069
雕	-9.3852
茍	-9.38559
導	-9.38624
趣	-9.38655
䖍	-9.38664
儉	-9.38726
匪	-9.38734
必有	-9.38747
潜	-9.38863
倍	-9.39078
擢	-9.39178
增	-9.39182
由是	-9.39189
纔	-9.39208
雉	-9.39269
南山	-9.39297
援	-9.39329
明年	-9.39359
懇	-9.39378
唐書	-9.39384
稽	-9.39421
宵	-9.39484
績	-9.3951
公子	-9.3956
練	-9.39588
五年	-9.39664
河東	-9.39703
八月	-9.39713
誓	-9.39765
踰	-9.40017
▁趙云	-9.40193
天下之	-9.40449
之下	-9.40457
朗	-9.40491
淵	-9.40507
戍	-9.4051
岑	-9.40536
呈	-9.40689
莫不	-9.40855
馮	-9.40862
洙曰一	-9.40876
髮	-9.40878
冦	-9.40959
前漢	-9.41107
湏	-9.41196
灑	-9.41228
其人	-9.41294
員外	-9.41372
百里	-9.41399
頂	-9.41526
樂府	-9.41569
兆	-9.41613
赦	-9.41876
十四	-9.41894
蕪	-9.41909
相思	-9.41929
亮	-9.42019
了	-9.42039
京兆	-9.42111
説文	-9.42119
五十	-9.4219
秉	-9.4226
之義	-9.42322
楚辭	-9.4235
忌	-9.4239
匹	-9.42417
雀	-9.42419
彦	-9.42499
鼔	-9.42526
道士	-9.42548
疊	-9.42626
配	-9.42692
寜	-9.42726
陣	-9.42739
凶	-9.42833
上有	-9.42927
黙	-9.43066
淮南子	-9.43162
悔	-9.43219
周禮	-9.43228
叛	-9.43337
嵩	-9.43474
之中	-9.43489
輸	-9.43685
岀	-9.43697
晋	-9.43821
矜	-9.43932
磨	-9.43935
蜀本	-9.43961
態	-9.44178
驕	-9.44189
駐	-9.44199
檢校	-9.44267
何如	-9.44288
學士	-9.44339
姦	-9.44535
台	-9.44586
葛	-9.44645
仗	-9.44803
遵	-9.44874
躍	-9.44893
桓	-9.44921
安得	-9.45039
話	-9.45144
付	-9.45242
奚	-9.45247
戚	-9.45327
武帝	-9.45406
裘	-9.45627
西南	-9.45637
添	-9.45716
誌	-9.45859
太原	-9.45986
方作	-9.46001
賓	-9.46047
貽	-9.46376
迫	-9.46497
浩	-9.46529
然而	-9.46869
霑	-9.47019
不以	-9.47028
旱	-9.47042
注云	-9.47045
拙	-9.47103
舌	-9.47158
旬	-9.47168
肅宗	-9.47255
誦	-9.47355
絳	-9.47363
子孫	-9.47413
像	-9.47548
古之	-9.47581
鈎	-9.47622
猛	-9.47721
䟽	-9.4774
至今	-9.47814
年作	-9.47848
綵	-9.47883
有司	-9.48216
夫子	-9.4822
樵	-9.48238
之不	-9.48331
陷	-9.48361
吞	-9.48381
艱	-9.48401
勑	-9.4843
譏	-9.48495
足以	-9.48626
秀才	-9.48641
山水	-9.48803
樽	-9.48803
敏	-9.48829
之際	-9.48846
拾遺	-9.48857
枉	-9.48882
抵	-9.49016
東西	-9.49076
未有	-9.49085
淪	-9.49148
宋玉	-9.49195
壑	-9.49216
属	-9.49257
諭	-9.49348
恥	-9.49357
第一	-9.49368
膏	-9.49393
小人	-9.49407
十月	-9.49463
疲	-9.4953
公主	-9.49533
殆	-9.49637
綠	-9.49785
占	-9.49898
夾	-9.50039
逝	-9.50155
染	-9.50156
㸔	-9.50165
倉	-9.50232
簷	-9.50299
棹	-9.50306
以其	-9.5031
襄	-9.50502
乖	-9.50513
歇	-9.50552
祈	-9.50572
減	-9.50635
少府	-9.50657
駭	-9.50798
百年	-9.50802
麟	-9.50837
子曰	-9.50938
苔	-9.50986
正月	-9.51097
洙	-9.5112
育	-9.51129
損	-9.5126
而巳	-9.51263
灰	-9.51306
随	-9.51419
神仙	-9.51432
標	-9.51445
山川	-9.5149
宛	-9.51573
之上	-9.51582
衢	-9.51582
滑	-9.51724
四句	-9.51739
魄	-9.51798
嫁	-9.51839
寂寞	-9.51851
出入	-9.51854
太宗	-9.51886
一時	-9.51921
璧	-9.51956
栖	-9.52344
陟	-9.52345
三千	-9.52429
何人	-9.5243
攝	-9.52583
然則	-9.52638
濤	-9.5273
者皆	-9.52773
區	-9.52845
國家	-9.5294
天寳	-9.52971
隆	-9.5311
牢	-9.53205
乏	-9.53248
孟子	-9.53289
圗	-9.5329
濁	-9.533
譽	-9.53368
不為	-9.53484
敦	-9.5351
退之	-9.53511
之子	-9.53518
諌	-9.53537
混	-9.53668
司空	-9.53705
江上	-9.53823
郢	-9.53836
云云	-9.53867
何時	-9.53876
巡	-9.5392
祗	-9.53934
活	-9.53972
囊	-9.54088
綿	-9.54148
巫	-9.54197
可謂	-9.54282
浮雲	-9.54436
睡	-9.54507
健	-9.54601
廉	-9.54723
惆悵	-9.54758
叟	-9.54881
限	-9.5489
裂	-9.54901
囘	-9.55006
下或	-9.55007
碎	-9.55015
斥	-9.55028
上下	-9.55109
麥	-9.55159
㫁	-9.55163
讀書	-9.55194
剪	-9.55288
芙蓉	-9.55293
爽	-9.55453
單	-9.55475
預	-9.55526
貨	-9.55542
汗	-9.55556
戈	-9.55568
匈奴	-9.5566
五言	-9.55665
㝷	-9.55672
潔	-9.55808
賣	-9.55967
逼	-9.56068
渭	-9.5617
緒	-9.562
之時	-9.56211
塘	-9.56305
敘	-9.56375
瓦	-9.56389
凋	-9.56391
山在	-9.56437
西北	-9.56447
鋒	-9.56467
闢	-9.56573
案	-9.56629
不相	-9.56705
乙	-9.56711
桐	-9.56716
叶	-9.5672
宦	-9.56772
二月	-9.5685
下有	-9.56868
也今	-9.56991
長沙	-9.57209
羙	-9.57276
得其	-9.57333
敎	-9.57412
鄧	-9.57605
庾	-9.57689
茶	-9.57729
至于	-9.5782
弟子	-9.581
儲	-9.58133
瑶	-9.58252
哲	-9.58252
純	-9.58279
相見	-9.58282
匡	-9.58312
下或有	-9.58316
膺	-9.58319
人皆	-9.58374
剛	-9.58428
換	-9.58561
鐵	-9.58564
翰林	-9.58575
徽	-9.58584
俟	-9.58678
暉	-9.58712
前後	-9.58766
暢	-9.58818
𨽻	-9.58822
妖	-9.58824
二句	-9.59019
犬	-9.59118
羡	-9.59122
岐	-9.59195
〇趙曰	-9.59246
言之	-9.59258
袖	-9.5928
襄陽	-9.59355
挂	-9.59371
捧	-9.5938
禄山	-9.5942
㑹稽	-9.59459
嬰	-9.59525
曲江	-9.59583
醒	-9.5963
以此	-9.59716
栢	-9.59784
又有	-9.599
荆州	-9.59902
曜	-9.59951
突	-9.59957
弗	-9.60224
用之	-9.6035
握	-9.60372
邁	-9.60395
霽	-9.60401
効	-9.60466
榖	-9.60504
如是	-9.60513
姬	-9.60537
芝	-9.60538
妓	-9.60546
決	-9.60566
懿	-9.6061
卓	-9.6069
證	-9.60779
亦不	-9.60843
盗	-9.60932
毁	-9.60937
播	-9.61071
抗	-9.61096
尸	-9.61108
例	-9.61201
其事	-9.61285
基	-9.61359
䧟	-9.61396
熊	-9.61409
之外	-9.61441
眷	-9.615
徘徊	-9.61544
夭	-9.61547
江湖	-9.61654
埋	-9.61666
蒸	-9.61667
十三	-9.6174
希曰	-9.61773
黄帝	-9.61775
曰此	-9.61813
誇	-9.61813
壤	-9.6194
嘯	-9.61962
靖	-9.62259
䕫	-9.62333
笛	-9.62335
所居	-9.62344
青雲	-9.62364
㦸	-9.62397
山中	-9.62492
淫	-9.62548
渉	-9.62557
紹	-9.62672
幹	-9.62674
帛	-9.62688
訛	-9.62694
不然	-9.62847
緣	-9.62955
檻	-9.63011
歷	-9.6311
臂	-9.63119
恃	-9.63131
老子	-9.63161
片	-9.63194
囚	-9.63261
之至	-9.63316
冊	-9.63506
三首	-9.63656
島	-9.63678
料	-9.63696
灌	-9.63735
青山	-9.6386
值	-9.63864
蓄	-9.63866
劇	-9.63966
探	-9.63992
牆	-9.64041
黎	-9.64108
電	-9.64136
綴	-9.64294
白馬	-9.64404
彭	-9.64411
産	-9.64425
處士	-9.64516
昨	-9.64524
不勝	-9.6453
僚	-9.64622
伏以	-9.64678
麻	-9.64695
垣	-9.64744
邕	-9.64789
遶	-9.64904
相逢	-9.64944
霸	-9.65057
摩	-9.65157
遍	-9.65197
公卿	-9.65276
盃	-9.65469
列子	-9.65487
羈	-9.65521
褒	-9.65583
奇	-9.65606
紙	-9.65658
罔	-9.65674
太平	-9.65726
鮑	-9.65734
其中	-9.65763
畔	-9.66103
衞	-9.66104
邀	-9.66247
何所	-9.66251
蘿	-9.66359
矢	-9.66546
陋	-9.66663
鶯	-9.66707
萬物	-9.66716
午	-9.66722
杜詩	-9.66779
無事	-9.66798
皆有	-9.66928
伏惟	-9.66953
揚雄	-9.66984
壓	-9.66984
七十	-9.67002
君之	-9.67171
司徒	-9.67206
洽	-9.67258
繩	-9.67265
窟	-9.67298
状	-9.67395
㝠	-9.67435
劔	-9.67473
豈不	-9.67485
乾坤	-9.67582
虹	-9.67582
䕶	-9.67612
淑	-9.67737
是時	-9.67766
一云	-9.67779
淡	-9.67933
陂	-9.67936
九月	-9.67938
金陵	-9.67993
桃花	-9.68036
包	-9.68052
後漢書	-9.68219
綱	-9.68331
割	-9.68369
壘	-9.68403
狐	-9.6842
潘	-9.68512
刃	-9.68684
乳	-9.68707
朋	-9.68749
淮南	-9.68764
㓜	-9.68812
苗	-9.68835
谿	-9.6884
暑	-9.68915
謙	-9.68967
澹	-9.68982
見其	-9.69009
拾	-9.69148
風塵	-9.69174
欽	-9.69265
慘	-9.69269
太尉	-9.69373
敷	-9.69379
攜	-9.6944
歸來	-9.69729
十七	-9.69745
緩	-9.6976
䖏	-9.69765
淳	-9.69883
場	-9.69911
裳	-9.69914
衍	-9.69921
淨	-9.69947
也又	-9.70042
纓	-9.70233
鈞	-9.70372
娥	-9.70405
此言	-9.7044
公以	-9.70565
咎	-9.70669
〇	-9.70679
涯	-9.70707
将軍	-9.70829
頽	-9.70893
二人	-9.71104
之徒	-9.7115
欽定四庫全書	-9.71179
此時	-9.71273
讒	-9.71335
昆	-9.71348
髙祖	-9.71421
橘	-9.71506
仙人	-9.71532
富貴	-9.71595
曷	-9.71611
縣令	-9.7163
也故	-9.71655
不自	-9.71712
縈	-9.71802
䏻	-9.71876
警	-9.71955
慿	-9.71971
祐	-9.71986
暇	-9.72071
涉	-9.72132
五色	-9.72325
周公	-9.7254
羸	-9.72937
溟	-9.7307
文武	-9.73111
瑟	-9.73162
庻	-9.73195
樂天	-9.73224
之句	-9.73255
落日	-9.73378
不忍	-9.73387
黜	-9.73394
鳬	-9.73463
三日	-9.73484
而有	-9.73548
舊注	-9.73601
域	-9.73738
十九	-9.73747
以自	-9.73774
博士	-9.73783
曙	-9.73798
流水	-9.73886
龍門	-9.7395
戯	-9.74034
終日	-9.74047
乍	-9.74109
囯	-9.74141
柄	-9.74202
撃	-9.74213
傑	-9.74213
而去	-9.74289
整	-9.74383
赫	-9.74559
胥	-9.74777
詩曰	-9.74786
稅	-9.74828
普	-9.74839
不用	-9.74857
几	-9.74872
明皇	-9.74894
悼	-9.74902
君臣	-9.74917
鑄	-9.75034
脚	-9.75075
臣等	-9.7512
鬼神	-9.75173
恣	-9.75232
銘曰	-9.75238
戮	-9.7529
項	-9.7534
七月	-9.75354
梓	-9.75374
日暮	-9.75483
諸本	-9.7551
数	-9.75601
崑崙	-9.75623
竿	-9.7572
誰能	-9.75838
醜	-9.75853
六月	-9.75857
殁	-9.76
鎭	-9.76011
伸	-9.76179
翳	-9.76367
帷	-9.76383
無窮	-9.76392
鵲	-9.76516
竄	-9.76526
蓬萊	-9.76546
籬	-9.76559
街	-9.76686
𬒳	-9.76727
楚詞	-9.76794
塔	-9.76815
人生	-9.76983
讎	-9.77009
恤	-9.77014
邈	-9.77021
道路	-9.7703
韓愈	-9.77035
之文	-9.77091
僕射	-9.77109
清風	-9.77152
父母	-9.77218
聨	-9.77315
諧	-9.77348
使人	-9.77385
偷	-9.7739
杜臆	-9.7742
者不	-9.77459
禦	-9.77497
姚	-9.77505
儻	-9.77512
坊	-9.77517
輦	-9.77526
軸	-9.77541
逕	-9.77568
踏	-9.77601
欣	-9.77646
矯	-9.77669
墻	-9.77689
亞	-9.77702
吏部	-9.77716
靣	-9.7772
爐	-9.77823
湛	-9.77835
媚	-9.77855
山東	-9.77898
拒	-9.78018
阮	-9.78182
東海	-9.78193
柏	-9.78196
豁	-9.78255
卽	-9.78321
酣	-9.78387
之類	-9.78422
少陵	-9.78424
霍	-9.7846
其間	-9.78513
歛	-9.78569
敕	-9.78715
謝靈運	-9.78855
牒	-9.78873
梓州	-9.78941
南陽	-9.79029
棘	-9.79069
聞之	-9.79207
𦵏	-9.79254
無任	-9.79272
與之	-9.79291
子之	-9.79331
國之	-9.79518
從此	-9.79614
藤	-9.79757
自然	-9.7978
師古曰	-9.79805
河北	-9.79897
謡	-9.80024
蹈	-9.80053
廷	-9.80079
製	-9.80091
滴	-9.80138
是非	-9.8015
之則	-9.80173
南史	-9.80192
左氏	-9.8044
下句	-9.80442
犀	-9.80493
一百	-9.80572
輙	-9.80578
誕	-9.80582
遁	-9.80595
巫山	-9.80638
中書	-9.80862
長史	-9.80926
無以	-9.81044
樞	-9.81102
詎	-9.81126
見寄	-9.81159
黑	-9.81166
春日	-9.81196
其言	-9.81211
巷	-9.81281
姪	-9.81305
碩	-9.81314
漲	-9.81342
䑓	-9.81468
恵	-9.81477
繆本	-9.81516
収	-9.81523
灘	-9.81534
觀察使	-9.81567
臣聞	-9.81573
顔色	-9.81614
抽	-9.81659
之志	-9.81715
霄	-9.81802
圭	-9.81805
徧	-9.81829
茫茫	-9.81862
顛	-9.82023
九年	-9.82023
雖有	-9.82098
醫	-9.82197
岡	-9.82211
三百	-9.82324
鷗	-9.8237
擲	-9.8238
屈原	-9.82514
森	-9.82525
勵	-9.82647
可憐	-9.8265
不可以	-9.82665
故事	-9.82831
究	-9.82876
溢	-9.82911
不肯	-9.82918
祿	-9.82961
之功	-9.83157
濯	-9.83201
恱	-9.83217
美人	-9.83268
快	-9.83289
倦	-9.83405
株	-9.83461
主簿	-9.83475
盜	-9.83519
之名	-9.83581
名曰	-9.83584
後人	-9.83689
擒	-9.83801
蘆	-9.83812
弦	-9.83849
九日	-9.83921
天寶	-9.83921
文王	-9.83974
濃	-9.83975
友人	-9.84006
一首	-9.84021
纎	-9.84126
槐	-9.84143
謗	-9.84147
弃	-9.8417
此篇	-9.84188
稻	-9.84212
冕	-9.8425
桃李	-9.84404
綬	-9.84441
而言	-9.84468
携	-9.84491
傲	-9.84711
故有	-9.84806
萍	-9.84851
屠	-9.84862
河陽	-9.85004
何必	-9.85008
不過	-9.85009
與君	-9.85013
莽	-9.8513
涇	-9.85164
遮	-9.85299
太常	-9.85321
一朝	-9.85359
裔	-9.85383
府君	-9.85387
畜	-9.85426
翅	-9.85438
互	-9.85561
佇	-9.85571
咸陽	-9.85572
薨	-9.85635
兎	-9.85663
己	-9.85685
得之	-9.85737
妻子	-9.8581
堤	-9.85815
爛	-9.8595
駒	-9.85993
石本	-9.86003
嬌	-9.86031
朽	-9.86178
絶句	-9.86213
無不	-9.86222
未知	-9.86241
其文	-9.86299
誘	-9.86309
攸	-9.86324
饑	-9.86361
堯舜	-9.86445
遙	-9.86558
諒	-9.86676
悦	-9.86686
秘	-9.86825
聳	-9.86875
堆	-9.86903
俄	-9.86945
廬山	-9.87028
斂	-9.8707
勁	-9.87075
判	-9.87111
其道	-9.87119
者以	-9.87129
驥	-9.87252
猷	-9.87392
虧	-9.87413
賴	-9.87431
蟠	-9.87438
風流	-9.87446
冩	-9.87446
溺	-9.87453
明府	-9.87649
掖	-9.87749
閤	-9.87776
自古	-9.87792
僻	-9.87866
狼	-9.8797
溝	-9.87992
寇	-9.88025
併	-9.88174
不必	-9.88205
明日	-9.88493
山下	-9.88494
蹇	-9.88556
糧	-9.88559
凍	-9.88587
潘岳	-9.88618
閭	-9.88626
謨	-9.88754
何事	-9.89009
楓	-9.89121
𤣥宗	-9.89179
擾	-9.89278
禱	-9.89289
頼	-9.89294
對曰	-9.8934
千載	-9.89352
東山	-9.89377
今之	-9.89391
為人	-9.89555
庾信	-9.89605
公自	-9.89608
亷	-9.89688
白頭	-9.89694
使者	-9.8973
門下	-9.89746
荀	-9.89844
漂	-9.89897
則有	-9.89921
皓	-9.90023
豹	-9.90038
餞	-9.90095
賔客	-9.90097
組	-9.90109
挺	-9.90268
汚	-9.90273
不成	-9.90278
二子	-9.90348
今朝	-9.90389
疆	-9.90421
障	-9.90467
各有	-9.90506
麾	-9.90594
人心	-9.90639
仲尼	-9.90679
軌	-9.90845
朱注	-9.90853
截	-9.90883
慧	-9.90973
局	-9.91018
以來	-9.91044
伍	-9.91051
圃	-9.91074
浸	-9.91075
觧	-9.91226
西山	-9.9123
咽	-9.91269
父子	-9.91277
相國	-9.91286
書曰	-9.91393
漿	-9.91402
範	-9.91402
是年	-9.91457
叅	-9.91472
江漢	-9.91479
眺	-9.91588
蒼蒼	-9.91646
鳯凰	-9.91659
皆以	-9.91784
鋪	-9.91807
湖南	-9.91836
千年	-9.91926
眀	-9.91961
十里	-9.91996
狗	-9.92048
肩	-9.92143
貟外	-9.92147
汲	-9.92167
尼	-9.92192
今年	-9.92196
幼	-9.922
析	-9.9221
六年	-9.92237
其心	-9.92253
咨	-9.92355
刋	-9.92381
着	-9.92412
夲	-9.9243
声	-9.92456
出於	-9.92467
罕	-9.92579
扉	-9.92599
墟	-9.92614
天上	-9.92723
庚	-9.92733
淹	-9.92854
蕭條	-9.92924
㳺	-9.92988
媿	-9.93014
菜	-9.93043
十餘	-9.93057
逮	-9.93161
南海	-9.93165
墓誌	-9.93203
於人	-9.93345
臘	-9.93608
四時	-9.93641
仁義	-9.93724
擅	-9.93726
傳云	-9.93768
侣	-9.93791
𤓰	-9.938
文苑	-9.93819
所作	-9.93902
雛	-9.93958
驗	-9.93971
関	-9.93996
訖	-9.94119
檢	-9.94144
簫	-9.94167
時作	-9.94176
噫	-9.94185
摘	-9.94217
翫	-9.94249
别離	-9.9425
罰	-9.94351
貞觀	-9.94456
蹤	-9.94515
陜	-9.94535
㪚	-9.94584
欵	-9.94964
七年	-9.94972
壞	-9.94973
沃	-9.94973
粲	-9.94992
衣冠	-9.9509
舅	-9.95101
課	-9.95134
時人	-9.95141
冶	-9.9519
蝶	-9.95199
䕫州	-9.95203
从	-9.95259
金石	-9.9533
趙曰言	-9.95356
閣本	-9.95362
粹	-9.95402
寕	-9.95403
不覺	-9.95422
珪	-9.95424
汴	-9.9555
豆	-9.95594
闊	-9.95607
濶	-9.95615
四月	-9.95682
娶	-9.95797
齊賢	-9.95829
氏之	-9.95877
蹄	-9.95905
穀	-9.95994
掛	-9.96
蛟龍	-9.96
鯨	-9.96021
不在	-9.96061
不聞	-9.96068
瑕	-9.96133
之故	-9.96138
奥	-9.96167
抛	-9.96216
零	-9.963
江水	-9.96304
其名	-9.96369
薪	-9.96374
謝靈運詩	-9.96425
賦詩	-9.96521
其身	-9.96538
洎	-9.96571
或有	-9.96612
南北	-9.96641
舊史	-9.96657
或无	-9.96786
以下	-9.96795
/○	-9.96796
簪	-9.96804
毅	-9.96901
未能	-9.96912
僅	-9.96972
戾	-9.9699
或曰	-9.97065
東方	-9.97129
千金	-9.97182
偉	-9.97211
諸公	-9.9731
去年	-9.97316
天之	-9.97332
兇	-9.97409
柯	-9.9741
夙	-9.97523
數十	-9.97661
咏	-9.97809
之語	-9.97821
箕	-9.97831
冒	-9.97832
蒼梧	-9.97846
而行	-9.97922
弼	-9.97952
往往	-9.97959
盟	-9.97992
公詩	-9.97993
百官	-9.97994
惶	-9.98017
宗元	-9.98063
一本作	-9.98215
世説	-9.98328
化為	-9.98386
阜	-9.98432
恢	-9.98455
韶	-9.98559
偽	-9.98608
匠	-9.9864
慢	-9.98649
羌	-9.98657
其地	-9.98668
絡	-9.98674
悽	-9.98692
未必	-9.98696
不至	-9.98779
杳	-9.98789
莖	-9.98794
春草	-9.988
幕府	-9.98839
誣	-9.98857
篆	-9.98863
侍中	-9.98887
千萬	-9.98981
監察御史	-9.99045
馭	-9.99055
白首	-9.99078
廵	-9.99145
狄	-9.99157
之日	-9.99165
豫	-9.99225
上四	-9.99529
鶴曰詩云	-9.99646
往來	-9.9968
嶠	-9.99714
搜	-9.99714
鬚	-9.99722
說文	-9.99793
學者	-9.99847
旨	-9.99868
輟	-9.99891
㓂	-9.99891
舍人	-9.99914
唐人	-10.0001
山之	-10.0009
籌	-10.0013
芒	-10.0015
西京	-10.0016
二十四	-10.0016
再拜	-10.0018
執事	-10.002
考之	-10.0039
秋日	-10.0049
睿	-10.007
城南	-10.0071
完	-10.0076
鼻	-10.0079
律詩	-10.0085
文字	-10.0095
協	-10.0096
臧	-10.01
叨	-10.0112
蕭蕭	-10.0116
勃	-10.0119
者必	-10.0123
汾	-10.0128
額	-10.0139
狎	-10.0139
懶	-10.0141
論語	-10.0143
中國	-10.0144
栽	-10.0144
賈誼	-10.0149
齡	-10.015
宸	-10.0153
煥	-10.0155
藍田	-10.0167
中興	-10.0168
者其	-10.0184
轡	-10.0185
修可曰	-10.0193
南方	-10.0197
褐	-10.0201
箋	-10.0206
中原	-10.0206
常侍	-10.0213
騷	-10.0217
構	-10.022
拱	-10.0221
頴	-10.0224
蔓	-10.0225
兔	-10.0225
胄	-10.0226
紛紛	-10.0232
羣臣	-10.0237
婦人	-10.0243
創	-10.0244
部郎中	-10.0248
自是	-10.025
床	-10.0251
有一	-10.0261
濫	-10.0286
従	-10.0294
滄海	-10.0309
帖	-10.0311
焦	-10.0312
裝	-10.0313
臥	-10.0314
椒	-10.0315
耿	-10.0315
干戈	-10.0319
參差	-10.0321
人事	-10.0321
第二	-10.0324
知之	-10.0324
沐	-10.0332
測	-10.0338
之内	-10.0345
梟	-10.0357
捕	-10.0359
東北	-10.0365
風俗	-10.037
廊	-10.0371
陌	-10.0373
挾	-10.0377
杭本	-10.038
揚州	-10.0381
造化	-10.0388
姻	-10.0398
札	-10.0399
隂陽	-10.0402
單于	-10.041
文帝	-10.041
海上	-10.041
此地	-10.0413
嗜	-10.0414
穹	-10.0419
徂	-10.0419
斤	-10.0421
陸機	-10.0422
沛	-10.0422
自有	-10.0423
變化	-10.0423
玩	-10.0424
王粲	-10.0429
不言	-10.0445
液	-10.0446
簟	-10.045
二百	-10.0451
子厚	-10.0457
隴西	-10.0461
漢武	-10.0467
距	-10.0468
江海	-10.0468
翮	-10.047
縷	-10.0472
駿	-10.0475
代宗	-10.0478
其子	-10.0484
函	-10.0485
奈	-10.0485
寒食	-10.0491
武陵	-10.0495
嶺南	-10.0507
餐	-10.0514
葵	-10.0517
閬	-10.0528
點	-10.0529
餌	-10.0532
纒	-10.0534
瓜	-10.0538
▁詩	-10.0539
梧	-10.0553
員	-10.0572
之亂	-10.0573
寃	-10.0573
行人	-10.0581
十萬	-10.0584
時有	-10.059
奠	-10.0593
貝	-10.06
烹	-10.0601
大將軍	-10.0606
取其	-10.0615
受命	-10.0615
江山	-10.0616
控	-10.0617
相與	-10.0617
蟻	-10.0623
禮樂	-10.0632
不應	-10.0639
之美	-10.064
頸	-10.0646
茫	-10.065
不死	-10.0651
之謂	-10.0654
藍	-10.0664
替	-10.0665
詶	-10.0667
其志	-10.067
而作	-10.0682
丕	-10.0685
訴	-10.0689
板	-10.069
闈	-10.0691
大厯	-10.0696
仇	-10.0707
㧞	-10.071
脂	-10.0716
郭璞	-10.0716
隙	-10.0732
鵬	-10.0734
欄	-10.0736
邵	-10.0737
子弟	-10.0747
江東	-10.0753
後世	-10.0753
偕	-10.0759
浴	-10.0761
嚴武	-10.0766
鉤	-10.0767
綸	-10.0777
有時	-10.0781
八年	-10.0787
鞍	-10.0793
他日	-10.0793
啄	-10.0799
膳	-10.0802
萬古	-10.081
青天	-10.0814
東坡	-10.0814
艶	-10.0825
氛	-10.0826
未得	-10.0826
之禮	-10.0833
文選	-10.0847
磬	-10.0849
不爲	-10.086
奔走	-10.0864
丙	-10.0867
逈	-10.0871
萬人	-10.0875
禪師	-10.0884
賢者	-10.0885
冲	-10.0891
其二	-10.0891
瀟湘	-10.0897
篤	-10.0897
填	-10.0901
螢	-10.0917
佞	-10.0918
珮	-10.092
門外	-10.0925
參軍	-10.093
而死	-10.0931
琳	-10.0934
者亦	-10.094
濡	-10.0941
頑	-10.0944
之情	-10.0945
汎	-10.0949
之法	-10.0951
唐故	-10.0954
沾	-10.0955
濵	-10.0962
鍊	-10.0962
掾	-10.0964
什	-10.0964
王洙曰	-10.0972
轅	-10.0974
枚	-10.0987
非也	-10.1001
之盛	-10.1007
飲酒	-10.1011
匣	-10.1012
詭	-10.1012
何由	-10.102
庫	-10.1029
朴	-10.1034
皃	-10.1042
車馬	-10.1047
不識	-10.1048
滌	-10.1054
軰	-10.1056
捷	-10.1058
十三年	-10.1059
紆	-10.1059
撥	-10.106
北斗	-10.1061
斑	-10.1063
粧	-10.1081
山海經	-10.1086
其餘	-10.1086
栗	-10.1086
而下	-10.1099
檄	-10.1104
第三	-10.1114
寅	-10.1122
㤙	-10.1124
膝	-10.1127
叚	-10.1128
怠	-10.1147
綏	-10.115
驟	-10.1151
武王	-10.1153
膠	-10.1154
㱕	-10.1154
䑕	-10.1156
衣裳	-10.1156
皇甫	-10.1157
揖	-10.1157
一曰	-10.1165
愆	-10.117
懲	-10.1172
公孫	-10.1173
汙	-10.1177
風雲	-10.1186
至此	-10.1187
不忘	-10.1189
牋	-10.1196
見前	-10.1199
微之	-10.1208
文集	-10.1208
覲	-10.1218
蘂	-10.1226
何足	-10.1231
年年	-10.1231
刪	-10.1235
十二月	-10.1242
鉞	-10.1242
潁	-10.1244
孽	-10.1247
佳人	-10.1261
垢	-10.1268
訟	-10.1268
入朝	-10.1269
之大	-10.1288
嚮	-10.1292
詐	-10.1292
十一月	-10.1294
婉	-10.1296
翦	-10.1299
古樂府	-10.13
禮部	-10.1303
其意	-10.1304
昭王	-10.1304
州司馬	-10.1319
殺之	-10.1325
五百	-10.1331
所在	-10.1333
斧	-10.1339
廓	-10.1342
人以	-10.1349
出門	-10.1355
禀	-10.1361
天台	-10.1363
塲	-10.1367
君王	-10.1371
詩人	-10.1383
舘	-10.1386
者非	-10.141
社稷	-10.1414
百餘	-10.1423
蠶	-10.1424
不合	-10.1435
故園	-10.144
不當	-10.1444
也夫	-10.1455
大師	-10.1457
而為	-10.1458
記云	-10.1459
疇	-10.1459
督	-10.1462
辜	-10.1463
鸚鵡	-10.1464
悶	-10.1466
漢武帝	-10.1466
遏	-10.1466
寂寥	-10.1472
數百	-10.1479
送李	-10.1487
瘴	-10.1487
之氣	-10.1488
王孫	-10.149
亦無	-10.1498
舎人	-10.1506
藴	-10.1508
白髪	-10.1511
鳩	-10.1516
水中	-10.1517
曹植	-10.1519
昨日	-10.1522
指言	-10.1523
所見	-10.1529
専	-10.1533
女子	-10.1536
屑	-10.1539
五六	-10.1547
巫峽	-10.1549
即位	-10.1554
祚	-10.1556
聘	-10.156
毗	-10.1562
漆	-10.1564
堦	-10.1564
黔	-10.1574
上柱國	-10.158
袍	-10.1581
臻	-10.1582
感激	-10.1582
鄕	-10.1584
無復	-10.1584
天涯	-10.1586
妍	-10.1587
飜	-10.1587
蹙	-10.1592
儔	-10.1593
終不	-10.1593
豈無	-10.1593
童曰	-10.1594
菱	-10.1595
故以	-10.1597
校書	-10.1604
邱	-10.1609
吾子	-10.1612
砌	-10.1613
者乎	-10.1614
欹	-10.1622
蘇州	-10.1627
曰我	-10.1627
山谷	-10.1627
不堪	-10.1631
榛	-10.164
不幸	-10.1643
進退	-10.1653
括	-10.166
怡	-10.1662
丈夫	-10.1662
者為	-10.1662
白帝	-10.1664
乾元	-10.167
有三	-10.1674
聖人之	-10.1674
文學	-10.1675
集作	-10.1688
十日	-10.169
菩薩	-10.1699
祔	-10.1708
月明	-10.1716
呌	-10.1717
御史中丞	-10.1718
不足以	-10.1724
軫	-10.1736
邇	-10.1737
一無	-10.1738
乂	-10.1757
名也	-10.176
馴	-10.176
𥙷	-10.1763
歌曰	-10.1765
沸	-10.1766
畿	-10.1768
新史	-10.1773
緯	-10.1777
徼	-10.1787
令人	-10.1791
䆫	-10.1792
爲之	-10.1797
誥	-10.1802
天子之	-10.1804
措	-10.1806
蒼生	-10.1807
黄河	-10.181
貳	-10.181
耻	-10.1811
諾	-10.1811
古者	-10.1814
恠	-10.1833
架	-10.1837
未及	-10.1837
春色	-10.1837
或云	-10.1838
大臣	-10.1838
姜	-10.1839
之才	-10.184
花落	-10.1853
永州	-10.1855
者有	-10.1858
夢得	-10.1859
刼	-10.186
有此	-10.1862
亦可	-10.1863
七言	-10.1863
沼	-10.1865
慵	-10.1865
渴	-10.1865
靄	-10.1865
鄴	-10.1867
因以	-10.1877
奬	-10.1882
圎	-10.1885
處處	-10.1886
奕	-10.1889
九州	-10.1897
三峽	-10.1906
他人	-10.1915
匿	-10.1915
涵	-10.1916
奈何	-10.1916
洒	-10.1916
秪	-10.1916
鳯翔	-10.1926
也言	-10.1936
筠	-10.1936
㓕	-10.1939
簮	-10.1941
壯士	-10.1955
分明	-10.1957
系	-10.1961
虗	-10.1963
誡	-10.1963
衮	-10.1964
訣	-10.1969
其家	-10.1973
生於	-10.1977
廣陵	-10.1988
轍	-10.1989
上元	-10.1992
婚	-10.1993
雲雨	-10.1995
三字	-10.1998
童子	-10.2001
千古	-10.201
艱難	-10.2011
一篇	-10.2014
旌旗	-10.2023
▁今按	-10.203
歐陽	-10.2032
宥	-10.2038
觀其	-10.204
而歸	-10.2043
桞	-10.2045
跳	-10.2048
光武	-10.2051
六十	-10.2055
人情	-10.2057
幽州	-10.2063
王之	-10.2067
翟	-10.2071
布衣	-10.2071
魏文帝	-10.2077
相望	-10.2077
韜	-10.209
剖	-10.2091
豈有	-10.2095
峭	-10.2095
宣城	-10.2096
憲宗	-10.2096
蕙	-10.2097
驂	-10.2098
泗	-10.2116
慚	-10.2119
鴛鴦	-10.2123
吁	-10.2128
公為	-10.2132
雌	-10.2145
從容	-10.2148
縛	-10.2149
歐	-10.2154
漠	-10.2168
不遇	-10.2169
喬	-10.217
護	-10.2171
湧	-10.2175
軀	-10.2176
自此	-10.2188
落花	-10.2188
閔	-10.2196
級	-10.2197
鬬	-10.2197
其上	-10.2202
傳曰	-10.2221
鮑照詩	-10.2223
絹	-10.2225
暝	-10.2226
岫	-10.2226
瓶	-10.2227
華山	-10.2227
掉	-10.2229
湍	-10.2229
可知	-10.223
怯	-10.2232
夕陽	-10.2234
丹青	-10.2235
以言	-10.2237
亦曰	-10.2238
鶴注	-10.2238
下文	-10.2248
榆	-10.2251
秦州	-10.2254
蜂	-10.2256
嵇康	-10.2257
詩有	-10.2258
人所	-10.2263
詩序	-10.2271
有大	-10.2274
一字	-10.2275
虬	-10.2281
憚	-10.2281
縣有	-10.2288
三十六	-10.229
之辭	-10.2296
亟	-10.23
聮	-10.2302
叩	-10.2303
妨	-10.2308
詳見	-10.231
姓名	-10.231
觀察	-10.2314
猶未	-10.2321
十四年	-10.2323
故也	-10.2327
纂	-10.2327
海内	-10.2328
秋水	-10.2329
愼	-10.233
不歸	-10.2331
潰	-10.2331
朔方	-10.2333
狩	-10.2334
畦	-10.2336
之恩	-10.2341
皎	-10.235
轂	-10.2354
版	-10.2356
租	-10.2358
王母	-10.2359
之說	-10.2361
神明	-10.238
苞	-10.2386
塵埃	-10.2392
不盡	-10.2401
坦	-10.2405
袂	-10.2413
两	-10.2414
噴	-10.2414
扁舟	-10.2414
東方朔	-10.2415
譬	-10.2416
二千石	-10.2419
唯有	-10.2425
山人	-10.2425
文粹	-10.2428
杜陵	-10.2433
秋月	-10.2436
粗	-10.2437
捐	-10.2438
豕	-10.2439
闔	-10.2442
若是	-10.2447
不易	-10.2447
故鄉	-10.2451
東流	-10.2461
憫	-10.2462
楹	-10.2467
王者	-10.2473
新書	-10.2485
演	-10.2488
彫	-10.2496
獨立	-10.2497
丹陽	-10.2498
平原	-10.2503
不出	-10.2506
方無	-10.2511
一年	-10.2514
穢	-10.2516
老人	-10.2517
億	-10.2519
通鑑	-10.2528
萬國	-10.2531
巻註	-10.2537
諡	-10.2548
蔚	-10.2548
炙	-10.255
貂	-10.2551
帝王	-10.2554
閨	-10.2558
即事	-10.2566
誰家	-10.2569
如今	-10.2573
窓	-10.2573
媒	-10.2574
北海	-10.2581
壊	-10.2598
艾	-10.2599
甸	-10.2599
榻	-10.2602
跪	-10.2625
躡	-10.2627
斾	-10.2629
洙曰見	-10.2631
覔	-10.2632
礼	-10.2633
從之	-10.264
閱	-10.2647
莫能	-10.2647
之詞	-10.265
兵馬	-10.2651
其一	-10.2652
沮	-10.2655
瘦	-10.2659
二十年	-10.2659
蔡曰	-10.266
衫	-10.266
豔	-10.2661
鸎	-10.2661
見之	-10.2667
其下	-10.2678
千秋	-10.268
阮籍	-10.268
壮	-10.2683
池上	-10.2701
知音	-10.2705
萌	-10.2706
東川	-10.2707
徇	-10.2707
坂	-10.271
貯	-10.2711
揔	-10.2711
借問	-10.2717
三軍	-10.2722
郞	-10.2735
兾	-10.2736
闇	-10.274
之誠	-10.2742
京兆尹	-10.2745
耆	-10.2746
零落	-10.2748
王子	-10.2755
鷺	-10.2756
不任	-10.2764
棺	-10.2765
跨	-10.2767
魁	-10.2767
太夫人	-10.2767
囂	-10.2769
可見	-10.277
蛟	-10.277
諸將	-10.2773
羲	-10.2779
日夜	-10.2781
遼	-10.2787
人不	-10.2788
棟	-10.2789
之靈	-10.2789
誼	-10.2789
罹	-10.2794
箴	-10.2796
記曰	-10.2801
三本	-10.281
抃	-10.2814
白雪	-10.2817
瑣	-10.2819
戢	-10.2821
甲子	-10.2823
橫	-10.2824
的	-10.2825
㠶	-10.2825
摇	-10.2825
滄浪	-10.2826
登樓	-10.2851
司馬相如	-10.2853
曹子建	-10.2855
九江	-10.2863
灼	-10.2878
猜	-10.288
紂	-10.288
稜	-10.2883
三四	-10.2885
九重	-10.2889
朝夕	-10.2894
恬	-10.2904
飡	-10.2907
眇	-10.291
評	-10.2916
字非是	-10.2923
杏	-10.2931
淮西	-10.2945
不與	-10.2947
山河	-10.295
虐	-10.2963
以聞	-10.2965
膽	-10.2966
鷄	-10.2966
楚王	-10.2976
獨孤	-10.2982
侍御史	-10.2983
望之	-10.2988
塟	-10.2991
汴州	-10.2993
騁	-10.2993
國語	-10.3001
縱横	-10.3007
寮	-10.3009
未詳	-10.3014
者曰	-10.3019
嬴	-10.302
宗廟	-10.3021
本傳	-10.3023
憎	-10.3027
失其	-10.3034
書云	-10.3035
制勑	-10.3041
之説	-10.3043
江西	-10.3043
穎	-10.305
万	-10.3051
有功	-10.3056
王公	-10.3066
白玉	-10.3069
邸	-10.3076
斈	-10.3077
逍遥	-10.3079
酸	-10.3079
也然	-10.308
萊	-10.308
一旦	-10.3081
璋	-10.3081
骨肉	-10.3087
日出	-10.3088
此章	-10.309
睦	-10.3091
諸生	-10.3092
梵	-10.31
滔	-10.31
挽	-10.3101
惕	-10.3103
可汗	-10.3103
坎	-10.3107
􁀙	-10.3111
駢	-10.3131
無由	-10.3132
二十八	-10.3135
繇	-10.3135
鬭	-10.3136
西方	-10.3137
未可	-10.3138
蓮花	-10.3151
猶有	-10.3152
俸	-10.3159
扣	-10.316
殿中侍御史	-10.3161
儼	-10.3161
鵝	-10.3165
絮	-10.3165
孺	-10.3167
梯	-10.317
以文	-10.3171
譜	-10.3179
一言	-10.3181
之矣	-10.3183
萬年	-10.3185
皇后	-10.319
荆南	-10.319
一切	-10.3191
蔣	-10.3192
自謂	-10.3192
遜	-10.3195
安可	-10.32
之任	-10.3201
上書	-10.3202
之南	-10.3203
衡山	-10.3211
此句	-10.3214
國公	-10.3217
鏤	-10.322
耗	-10.3221
嗚呼哀哉	-10.3222
地名	-10.3223
狹	-10.3223
扶風	-10.3233
芳草	-10.3242
事見	-10.3242
十二年	-10.3243
而能	-10.3244
瀆	-10.3244
有感	-10.3246
煎	-10.3251
蔬	-10.3253
牟	-10.3256
喚	-10.3257
副使	-10.3259
文公	-10.3261
夔	-10.3263
五湖	-10.3268
寰	-10.3274
渥	-10.3275
檀	-10.3275
坤	-10.3276
芻	-10.3279
攘	-10.3307
又以	-10.3308
亦云	-10.3324
泰山	-10.3327
叅軍	-10.3327
臆	-10.3335
撓	-10.3336
牲	-10.3337
給事中	-10.3339
黍	-10.3341
豈可	-10.3345
羽林	-10.3347
上句	-10.3352
不是	-10.3354
傷心	-10.3355
都督	-10.3364
即此	-10.3364
饋	-10.3371
號曰	-10.3372
痕	-10.3373
五首	-10.3376
四字	-10.3379
賢人	-10.3389
奢	-10.3395
衙	-10.3396
地理志	-10.3398
三公	-10.34
閤下	-10.3401
生死	-10.3402
太學	-10.3404
本草	-10.3412
君子之	-10.3425
豈非	-10.3425
旄	-10.3426
天地之	-10.3428
賁	-10.343
之理	-10.3431
忙	-10.3432
蕭本	-10.3433
也公	-10.3442
我心	-10.3442
有神	-10.3444
對酒	-10.3448
柴	-10.3448
凄	-10.3451
歸去	-10.3454
山林	-10.3455
卦	-10.346
起居	-10.3482
戊	-10.3484
係	-10.3488
縮	-10.3488
箇	-10.3491
幾時	-10.3493
螭	-10.3497
終身	-10.3501
十五年	-10.3503
補闕	-10.3503
謝安	-10.3506
殷勤	-10.3508
徐州	-10.351
少卿	-10.3511
祇	-10.3516
較	-10.3517
鏗	-10.3519
巒	-10.352
梗	-10.352
年少	-10.3522
内外	-10.3536
之狀	-10.3545
衷	-10.3545
炳	-10.3548
礙	-10.3549
鐡	-10.355
宇宙	-10.3552
聖賢	-10.3555
今則	-10.356
以成	-10.3566
覧	-10.3574
某官	-10.3576
冨	-10.3577
笳	-10.3578
歌行	-10.3584
從軍	-10.3595
中使	-10.3598
饗	-10.3602
無一	-10.3603
詢	-10.3604
耳目	-10.3605
聞道	-10.3605
俠	-10.3606
减	-10.3608
昬	-10.361
本無	-10.3615
西川	-10.3621
百萬	-10.3635
少尹	-10.3637
翹	-10.3638
團	-10.3638
黛	-10.3645
道也	-10.3654
河西	-10.3655
而又	-10.3658
道之	-10.3664
華州	-10.3664
部員外郎	-10.3667
恕	-10.3668
甥	-10.3669
羨	-10.3669
薫	-10.367
斯文	-10.3671
檣	-10.3674
丸	-10.3675
明主	-10.3681
潭州	-10.3684
之臣	-10.3688
同時	-10.3691
㢤	-10.3695
誨	-10.3698
嵐	-10.3698
公曰	-10.37
老夫	-10.3704
遣使	-10.3706
則知	-10.371
茲	-10.3725
師云	-10.3729
帯	-10.3729
掠	-10.373
曩	-10.373
紳	-10.373
滄洲	-10.3732
棊	-10.3734
闘	-10.3734
至是	-10.3735
西京雜記	-10.3735
視之	-10.3738
詩話	-10.3739
一枝	-10.3741
家貧	-10.3753
宫中	-10.3753
濬	-10.3758
渇	-10.3761
畝	-10.3761
嶂	-10.3762
挈	-10.3765
有二	-10.3766
罇	-10.3767
其實	-10.3768
當在	-10.3771
道者	-10.3772
州縣	-10.3783
緇	-10.3785
二十五	-10.3785
秘書	-10.3787
油	-10.3788
拳	-10.3791
蛾	-10.3794
晝夜	-10.3794
搖	-10.3795
亦何	-10.381
於時	-10.3812
第五	-10.3815
考功	-10.3815
琢	-10.3819
經過	-10.382
不失	-10.3825
漳	-10.3827
黯	-10.3827
石門	-10.3835
羽翼	-10.3839
門前	-10.3839
棠	-10.3851
弩	-10.3853
青青	-10.3856
者則	-10.3857
宣州	-10.3862
城中	-10.3863
閩	-10.3875
多病	-10.3875
山上	-10.3877
相去	-10.388
不知其	-10.3883
之命	-10.3885
銳	-10.3885
鷰	-10.3886
厨	-10.3888
菰	-10.389
彊	-10.389
形容	-10.3892
死者	-10.3892
六合	-10.3895
謂其	-10.3908
上天	-10.3908
太公	-10.3911
惻	-10.3913
塊	-10.3913
殺人	-10.3921
復何	-10.3923
漠漠	-10.3924
大道	-10.3927
郎官	-10.394
蘇武	-10.394
斛	-10.3943
雲臺	-10.3943
鶻	-10.3945
蹉跎	-10.3946
蜀本作	-10.3948
勅	-10.3948
梢	-10.3948
南國	-10.395
其時	-10.3952
江淹	-10.3964
明堂	-10.3971
揆	-10.3975
瑩	-10.3979
御史大夫	-10.3993
白露	-10.3995
知已	-10.3996
渝	-10.3999
吾道	-10.4002
寔	-10.4003
於斯	-10.4008
河中	-10.4008
侈	-10.4009
棧	-10.4014
乃知	-10.4018
成功	-10.4018
丈人	-10.4019
也若	-10.4027
時時	-10.4027
湘水	-10.4028
貺	-10.4031
無限	-10.4034
始知	-10.4035
則是	-10.4036
兩句	-10.4056
相對	-10.4058
舊唐書	-10.4066
侔	-10.4069
鋤	-10.4075
稼	-10.4075
不暇	-10.4078
顔延年	-10.408
蜀都賦	-10.4082
未盡	-10.4082
金吾	-10.4084
妹	-10.4087
君不見	-10.4096
肇	-10.4098
之師	-10.41
覇	-10.4102
祁	-10.4102
長者	-10.4105
奉和	-10.411
是為	-10.4117
其字	-10.412
裕	-10.4128
囬	-10.4134
置酒	-10.4137
在此	-10.414
扈	-10.4148
一身	-10.4154
霜雪	-10.4156
黷	-10.4165
桀	-10.4169
敞	-10.417
肝	-10.417
麓	-10.4172
見上	-10.4181
猶在	-10.4181
江淮	-10.4195
消息	-10.4196
緜	-10.4199
簿	-10.4205
蔡邕	-10.4205
之難	-10.4208
其先	-10.4208
三人	-10.421
陽山	-10.4218
而不能	-10.4218
不通	-10.4219
閬州	-10.4221
現	-10.4222
鵠	-10.4224
東風	-10.4225
坡	-10.4226
張衡	-10.4227
蟄	-10.4231
裾	-10.4235
王維	-10.4238
而自	-10.4239
功名	-10.4255
准	-10.4259
皷	-10.4262
安能	-10.4268
邯鄲	-10.4269
何為	-10.4272
離騷	-10.4272
詩書	-10.4273
悵望	-10.4275
為我	-10.4277
隴右	-10.4283
緘	-10.4287
班固	-10.4288
稚	-10.4289
莭	-10.4295
亘	-10.4296
禾	-10.4297
愴	-10.4298
衾	-10.4299
竦	-10.43
八句	-10.43
暄	-10.4303
不顧	-10.4307
潯陽	-10.4308
昌黎	-10.4308
秦王	-10.431
盡日	-10.4318
驪	-10.4325
麒麟	-10.4328
畱	-10.4329
五日	-10.433
渙	-10.4332
黄鶴	-10.4334
煖	-10.4335
神女	-10.4336
李陵	-10.4336
又何	-10.434
與人	-10.4341
回首	-10.4345
白水	-10.4352
厄	-10.4353
下四	-10.4354
綽	-10.4358
鑪	-10.4358
死生	-10.4361
膚	-10.4362
闌	-10.4364
舊本	-10.4368
將士	-10.4375
朋友	-10.4385
城西	-10.4385
飲食	-10.4387
盆	-10.4398
敝	-10.44
范陽	-10.4413
軍中	-10.4414
雲安	-10.4416
作詩	-10.4417
峙	-10.4421
不朽	-10.4423
不待	-10.4424
胸	-10.4424
甕	-10.4426
稷	-10.4427
集中	-10.443
乱	-10.4431
複	-10.4433
腥	-10.4434
飈	-10.4434
新詩	-10.4443
度支	-10.4444
風起	-10.445
劫	-10.4455
冤	-10.4457
蠧	-10.4459
航	-10.4462
紗	-10.4464
七日	-10.4471
給事	-10.4474
不動	-10.4475
之門	-10.4483
無心	-10.4483
是故	-10.4485
癸	-10.4489
酷	-10.4492
濱	-10.4493
旭	-10.4495
功成	-10.4495
城東	-10.45
江夏	-10.4509
上或	-10.451
陀	-10.4513
英華作	-10.4514
昨夜	-10.4525
颯	-10.4526
冡	-10.4529
若有	-10.4534
沈約	-10.4542
不獲	-10.4543
問之	-10.4552
帝紀	-10.4557
牖	-10.4559
廽	-10.4559
搏	-10.4559
癡	-10.4561
琯	-10.4562
于是	-10.4568
一生	-10.4574
觀之	-10.4576
秋夜	-10.4576
西京賦	-10.4589
洙曰言	-10.4589
叱	-10.4592
絕	-10.4593
釐	-10.4595
㪯	-10.4598
牕	-10.4598
之術	-10.4604
高祖	-10.4606
代之	-10.4607
聖朝	-10.4607
若干	-10.461
自知	-10.461
李公	-10.4611
而出	-10.4626
漾	-10.463
心不	-10.4632
得失	-10.4633
三代	-10.4636
野人	-10.4642
三十里	-10.4644
月令	-10.4645
衣食	-10.4646
騫	-10.4649
埃	-10.4651
公與	-10.4653
詰	-10.4657
剡	-10.4657
咫尺	-10.4658
者謂	-10.466
光輝	-10.466
之徳	-10.4663
沂	-10.4664
第四	-10.4674
山有	-10.4674
五行	-10.4674
雨露	-10.4684
萃	-10.4693
牡丹	-10.4694
妬	-10.4697
縣南	-10.4704
杜甫	-10.4712
者如	-10.4716
而得	-10.4719
日日	-10.472
謾	-10.4724
之餘	-10.4724
流落	-10.4726
逺近	-10.4728
丹砂	-10.4732
誄	-10.4732
甘泉	-10.4741
之位	-10.4743
所知	-10.4758
猥	-10.4759
䰟	-10.4763
飬	-10.4764
幢	-10.4764
不食	-10.4766
之西	-10.4771
陛	-10.4774
舉進士	-10.4774
出為	-10.4785
之精	-10.479
歌詩	-10.479
之處	-10.479
矧	-10.4793
昂	-10.4795
慷慨	-10.4796
汀	-10.4799
陽縣	-10.4803
般	-10.4814
楚人	-10.4823
奸	-10.4826
無情	-10.4829
鹵	-10.4834
英雄	-10.4856
千餘	-10.4858
天門	-10.4861
掘	-10.4862
邢	-10.4863
断	-10.4867
翡翠	-10.4868
次第	-10.4875
若此	-10.4875
漁父	-10.4878
舟中	-10.4882
鮑照	-10.4882
笙	-10.4887
天人	-10.4889
愬	-10.4894
如故	-10.4895
粒	-10.4896
之德	-10.4898
嬉	-10.4899
多少	-10.49
脉	-10.4901
衘	-10.4901
猛虎	-10.4904
王師	-10.4907
太傅	-10.4914
三尺	-10.4916
知我	-10.4923
醴	-10.4931
姊	-10.4937
衆人	-10.4939
相識	-10.4939
豫章	-10.4943
李杜	-10.4944
寒暑	-10.4949
意氣	-10.4952
相似	-10.4954
可得	-10.4955
頒	-10.4963
小兒	-10.4965
呂	-10.4967
籟	-10.4968
打	-10.4969
敖	-10.497
凖	-10.4971
軟	-10.4972
題詩	-10.4975
唐志	-10.4982
出處	-10.4987
歌舞	-10.4988
之制	-10.4988
工部	-10.5
駱	-10.5002
郁	-10.5002
釵	-10.5004
荘子	-10.5005
之女	-10.5006
怕	-10.5006
名山	-10.5008
離别	-10.5012
其義	-10.5013
蜜	-10.5014
萬事	-10.5023
夔州	-10.5025
礪	-10.5034
荆門	-10.5035
樸	-10.5036
壻	-10.5037
逄	-10.5038
廣韻	-10.5041
方從	-10.5043
世間	-10.5043
者何	-10.5047
之勢	-10.5048
天馬	-10.5051
東京	-10.5055
星辰	-10.5059
搆	-10.5065
所云	-10.5069
閶闔	-10.5074
它	-10.5074
昻	-10.5076
二公	-10.5079
桃源	-10.5083
世之	-10.5086
以示	-10.5095
浄	-10.5095
之罪	-10.5102
驪山	-10.5105
嘶	-10.5106
一統志	-10.5107
隕	-10.5109
勾	-10.5109
耽	-10.511
稠	-10.5111
四人	-10.5115
人有	-10.5116
白髮	-10.5118
無可	-10.5127
劉向	-10.5134
所得	-10.5135
笋	-10.5137
而成	-10.5141
脅	-10.5142
珊瑚	-10.5142
上或有	-10.5143
扶桑	-10.5144
彭城	-10.515
白帝城	-10.5157
梨	-10.5158
慨	-10.5161
武功	-10.5162
正義	-10.5167
集序	-10.5169
元氣	-10.5171
瑤	-10.5177
五里	-10.5184
亦以	-10.5188
一二	-10.5188
一巻	-10.519
居易	-10.5193
太史	-10.5199
詔書	-10.5201
宣王	-10.5203
浩浩	-10.5207
卯	-10.5208
邠	-10.5209
丑	-10.5211
譲	-10.5215
師古	-10.5216
窗	-10.5217
肌	-10.5217
棗	-10.5219
虢	-10.5224
諸道	-10.5228
其才	-10.5239
庇	-10.5243
何日	-10.5247
一曲	-10.5247
篋	-10.5248
凱	-10.5248
税	-10.525
迥	-10.525
䕃	-10.525
曵	-10.5251
為君	-10.5252
西域	-10.5255
公在	-10.5256
同年	-10.5256
艸	-10.5259
若不	-10.5263
山南	-10.5266
鄭公	-10.5268
士卒	-10.5274
內	-10.5277
為一	-10.5279
懽	-10.5279
踵	-10.5281
亊	-10.5281
此乃	-10.5282
龎	-10.5284
臣某	-10.5285
槎	-10.5286
得以	-10.5286
於天下	-10.5291
留守	-10.5294
郡王	-10.5301
以求	-10.5305
集巻	-10.5312
筭	-10.5315
腐	-10.5318
之風	-10.5318
胎	-10.5318
拆	-10.532
莎	-10.532
不絶	-10.532
剥	-10.532
汩	-10.5323
乾元二年	-10.5327
北風	-10.5331
滄	-10.5337
縣尉	-10.5337
何不	-10.5339
留别	-10.5341
中外	-10.5344
蠲	-10.5344
醇	-10.5352
迭	-10.5352
沿	-10.5355
李善註	-10.5356
著書	-10.5358
潺湲	-10.536
以上	-10.536
童云	-10.5364
之力	-10.5364
水經注	-10.5364
呀	-10.5365
乎其	-10.537
於上	-10.537
故名	-10.5371
羲和	-10.5372
中夜	-10.5378
方从	-10.5384
賓客	-10.5385
熙	-10.5386
太行	-10.5387
悖	-10.5391
顚	-10.5393
遂以	-10.5396
盪	-10.5396
大雅	-10.5398
禹貢	-10.5401
去聲	-10.5406
詹	-10.5406
在長安	-10.541
杭州	-10.5419
太和	-10.542
白石	-10.5426
弭	-10.5427
壷	-10.543
撲	-10.5434
▁杜臆	-10.5436
二十二	-10.5438
尚書郎	-10.5442
孔明	-10.5443
斯人	-10.5449
其可	-10.5454
為大	-10.5457
終南	-10.5458
噐	-10.5459
張籍	-10.5463
由來	-10.5464
繪	-10.5465
王褒	-10.5467
京兆府	-10.5477
大理	-10.548
以喻	-10.5485
水出	-10.5493
未足	-10.5493
老病	-10.5495
大抵	-10.5496
甄	-10.5497
明朝	-10.5497
藪	-10.55
技	-10.5506
食之	-10.5507
五千	-10.551
同心	-10.551
上皇	-10.5519
末句	-10.552
時為	-10.5527
眼前	-10.5533
寂寂	-10.5538
隘	-10.5541
砧	-10.5543
不免	-10.5545
鄂	-10.5547
無遺	-10.5556
歎息	-10.5561
公諱	-10.5565
評事	-10.5568
擕	-10.5576
逶迤	-10.5578
褰	-10.558
十餘年	-10.5582
誰知	-10.5582
改為	-10.5586
諸葛	-10.5595
此意	-10.5595
籙	-10.5595
知君	-10.5596
未至	-10.5598
大江	-10.5598
建中	-10.5599
櫻桃	-10.56
蘋	-10.5602
水流	-10.5603
毀	-10.5609
芬	-10.561
字子	-10.561
緬	-10.561
之樂	-10.561
椎	-10.5611
之東	-10.5612
尙書	-10.5614
羮	-10.5616
鑠	-10.5616
故其	-10.5624
之可	-10.5624
上方	-10.5628
碣	-10.5633
于此	-10.5638
時事	-10.5638
萬方	-10.564
昔者	-10.5644
汪	-10.5645
㓗	-10.5647
暁	-10.565
不受	-10.5654
序云	-10.5658
天寒	-10.5661
張華	-10.5664
奉天	-10.5666
太清	-10.5666
聖主	-10.5675
二三	-10.5676
鼇	-10.568
入蜀	-10.5683
謚	-10.5683
天意	-10.5685
賖	-10.5688
竈	-10.569
渭水	-10.5695
政事	-10.5699
得一	-10.5702
成王	-10.5704
王逸	-10.5711
荘	-10.5717
中書舍人	-10.572
昭君	-10.5731
叔文	-10.5731
不入	-10.5734
瀼西	-10.5735
有道	-10.5735
居士	-10.5736
淹留	-10.5739
德宗	-10.5741
見為	-10.5743
曰子	-10.5751
皇太子	-10.5756
玄宗	-10.5758
曰臣	-10.5758
跋	-10.5759
伺	-10.576
巔	-10.5762
穰	-10.5763
語曰	-10.5764
而生	-10.5765
稽首	-10.577
唐史	-10.577
庾信詩	-10.5776
州長史	-10.578
鳥獸	-10.5781
兵戈	-10.5792
㤗	-10.5797
挹	-10.5798
鑾	-10.5799
涸	-10.58
翩	-10.5801
楽	-10.5804
卷之	-10.5805
使我	-10.5812
永嘉	-10.5814
送客	-10.5822
雲中	-10.5824
鄒	-10.5824
馨	-10.5833
一片	-10.5838
功曹	-10.5842
行在	-10.5847
寰宇記	-10.5849
東野	-10.586
冐	-10.5867
槩	-10.5869
杜公	-10.5871
嶷	-10.5872
閲	-10.5873
嘲	-10.5874
風景	-10.5878
貎	-10.5878
思歸	-10.5878
其年	-10.5879
裙	-10.5879
京城	-10.5888
之北	-10.5891
花開	-10.5899
明經	-10.59
稚子	-10.5904
硯	-10.5907
罄	-10.5908
殄	-10.5909
篁	-10.5913
潦	-10.5916
歘	-10.5916
鉅	-10.5917
江州	-10.592
千人	-10.5937
故國	-10.5939
不容	-10.5943
凢	-10.5946
奄	-10.5946
亥	-10.5947
雷霆	-10.595
澁	-10.5951
年五十	-10.5952
未甞	-10.5953
神道碑	-10.5953
迅	-10.5954
山居	-10.5956
綃	-10.5956
太師	-10.5959
以待	-10.5971
方无	-10.5976
用兵	-10.5979
殿中	-10.5979
人多	-10.5981
桓公	-10.5982
竹林	-10.5982
才子	-10.5983
蒿	-10.5984
在今	-10.5988
鏁	-10.5989
莫知	-10.599
其聲	-10.5992
李太白	-10.5995
行營	-10.5995
曼	-10.5998
皇天	-10.6
大小	-10.6001
玉樹	-10.6001
圖經	-10.601
餓	-10.6017
之神	-10.602
自言	-10.6023
隷	-10.6023
酉	-10.6023
慟	-10.6024
太山	-10.6024
十一年	-10.6025
逋	-10.6025
譚	-10.6026
婢	-10.6026
髻	-10.6029
廐	-10.6031
摶	-10.6031
禁中	-10.6038
西都賦	-10.6042
令狐	-10.6045
臣之	-10.6045
飛鳥	-10.605
相隨	-10.6051
鑑	-10.606
璞	-10.6062
廣州	-10.6063
歆	-10.6063
通典	-10.6064
躋	-10.6065
而未	-10.6065
窄	-10.6066
鬛	-10.6067
舄	-10.6068
不若	-10.6068
以比	-10.6069
驢	-10.6072
為文	-10.6077
右丞	-10.6081
一句	-10.6084
曳	-10.6102
霓	-10.6103
準	-10.6104
飄颻	-10.6109
賦云	-10.6113
之初	-10.6114
自得	-10.6117
山寺	-10.6119
浩蕩	-10.6121
漢陽	-10.6128
五馬	-10.6132
正字	-10.6132
諸軍	-10.6138
稔	-10.6138
東門	-10.6139
嫉	-10.614
縣北	-10.6143
及其	-10.6144
之業	-10.6145
婁	-10.6145
趙次公曰	-10.6145
鳳凰	-10.6145
亢	-10.6146
葦	-10.6147
上帝	-10.6148
辝	-10.6148
左思	-10.6153
石上	-10.6162
雖不	-10.6163
有異	-10.6171
河南府	-10.6176
忤	-10.6177
舂	-10.6178
至徳	-10.6179
頋	-10.618
忩	-10.6183
晁	-10.6185
愜	-10.6185
庖	-10.6186
回鶻	-10.6187
醪	-10.6187
江淹詩	-10.6191
八十	-10.6193
則不	-10.6196
而來	-10.6197
青春	-10.6198
祕書	-10.6201
謝朓詩	-10.6205
孤舟	-10.621
疋	-10.6217
伎	-10.6221
嵇	-10.6224
饌	-10.6224
坼	-10.6225
終始	-10.6226
攅	-10.6228
世人	-10.6231
連山	-10.6238
祕	-10.6239
謝公	-10.6239
談笑	-10.6241
韓信	-10.6253
悅	-10.6255
孚	-10.6255
用事	-10.6255
薰	-10.6261
肺	-10.6263
磧	-10.6263
區區	-10.6263
杜鵑	-10.6264
兩本	-10.6269
一家	-10.6271
寥	-10.6286
其辭	-10.6288
陽春	-10.629
獨坐	-10.6292
迨	-10.6295
澆	-10.6296
逵	-10.6298
戌	-10.6298
相憶	-10.63
捉	-10.6301
聯	-10.6301
匝	-10.6301
梳	-10.6302
杜補遺	-10.6305
今古	-10.6306
聮句	-10.631
梅花	-10.6316
所宜	-10.6316
夏日	-10.632
山隂	-10.6324
洋	-10.6332
月中	-10.6334
研	-10.6336
濠	-10.6339
兼御史大夫	-10.634
迢迢	-10.634
継	-10.6342
琵琶	-10.6347
回紇	-10.6351
亦作	-10.6355
松栢	-10.6357
大者	-10.6359
和尚	-10.636
得罪	-10.6361
風波	-10.6364
從來	-10.6365
十巻	-10.6368
至尊	-10.6368
兢	-10.6369
謳	-10.6371
騎馬	-10.6377
掇	-10.638
閫	-10.638
訝	-10.6381
鋭	-10.6381
献	-10.6381
帽	-10.6385
朱門	-10.6388
大人	-10.6389
之能	-10.6395
聰	-10.6399
不能自	-10.6408
之屬	-10.6412
鍳	-10.6415
覊	-10.6417
東歸	-10.6419
二千	-10.642
林下	-10.6421
見贈	-10.6422
幽人	-10.6423
士之	-10.6426
嚴公	-10.6438
登髙	-10.6443
城上	-10.6445
月夜	-10.6449
太祖	-10.645
揭	-10.6456
溫	-10.6457
瀾	-10.6459
功臣	-10.646
噪	-10.6461
遞	-10.6462
時節	-10.6463
之聲	-10.6465
蒼茫	-10.6465
崆峒	-10.6466
煙霞	-10.647
夜深	-10.6475
蜀人	-10.6477
亦未	-10.6479
在天	-10.6487
南宫	-10.6494
熈	-10.6496
愽	-10.6497
裹	-10.6497
翕	-10.6498
矣故	-10.6498
泯	-10.65
攬	-10.6501
㳂	-10.6501
曛	-10.6502
建安	-10.6506
清河	-10.651
安西	-10.6516
玉女	-10.6523
於天	-10.6525
舊書	-10.6536
新添	-10.6536
婆	-10.6537
顒	-10.6538
翊	-10.6541
碁	-10.6542
周旋	-10.6543
校書郎	-10.6543
之前	-10.6548
暮春	-10.6548
皆作	-10.6554
等州	-10.6561
諸子	-10.6563
欲以	-10.6564
平章事	-10.6564
之至謹	-10.6568
者多	-10.657
之所以	-10.6575
殯	-10.658
弧	-10.658
滛	-10.6582
蹊	-10.6582
杉	-10.6585
今本	-10.6587
而爲	-10.6592
歸路	-10.6593
男兒	-10.6597
知名	-10.6599
生涯	-10.66
老翁	-10.66
新安	-10.6602
山名	-10.6605
或以	-10.6608
元帝	-10.6611
於外	-10.6612
行狀	-10.6615
霖	-10.6618
幣	-10.6619
簇	-10.6621
郵	-10.6621
漣	-10.6622
覓	-10.6623
閏	-10.6624
滂	-10.6624
豈知	-10.6624
茸	-10.6625
蘓	-10.6625
夸	-10.6627
不行	-10.6632
行行	-10.6636
亂離	-10.6644
王氏	-10.6645
取之	-10.6649
縣西	-10.6649
流涕	-10.6656
中間	-10.6658
寘	-10.6662
隐	-10.6663
以致	-10.6665
迸	-10.6667
叔父	-10.6669
漢中	-10.6678
曹植詩	-10.6679
繆	-10.6683
此語	-10.6685
不可得	-10.6688
都尉	-10.6689
事見前	-10.669
祉	-10.6699
戦	-10.67
狡	-10.6703
錬	-10.6705
漢水	-10.6705
跼	-10.6707
直道	-10.6709
墓誌銘	-10.6712
李斯	-10.6714
祿山	-10.6716
波濤	-10.6719
先主	-10.6734
亨	-10.674
甿	-10.6742
啇	-10.6748
有五	-10.6749
號為	-10.6759
不樂	-10.6761
五字	-10.6765
尋常	-10.6772
孔子曰	-10.6774
詩意	-10.6781
灞	-10.6785
禆	-10.6785
唐時	-10.6785
䄂	-10.6785
鷁	-10.6788
以詩	-10.6789
於朝	-10.679
冗	-10.6792
薇	-10.6793
兒童	-10.6796
四首	-10.6796
早春	-10.6796
途中	-10.68
趙曰公	-10.6802
紫微	-10.6803
不解	-10.6819
彤	-10.6822
趍	-10.6825
同谷	-10.6827
希烈	-10.6828
茹	-10.6829
髯	-10.6829
伏惟陛下	-10.6829
艷	-10.683
鎻	-10.683
彪	-10.683
精神	-10.6831
樓上	-10.6833
明矣	-10.6834
魏志	-10.6834
之患	-10.6836
此則	-10.6838
韻㑹	-10.684
方本	-10.684
之妙	-10.684
海賦	-10.6841
二十一	-10.6848
即今	-10.6856
小子	-10.6856
算	-10.6864
瓢	-10.6868
塋	-10.6869
侮	-10.687
藜	-10.6873
掲	-10.6874
其父	-10.6876
道州	-10.688
空山	-10.688
上林	-10.6882
胷	-10.6883
功德	-10.6883
之數	-10.6884
兵馬使	-10.6894
太后	-10.6899
靈武	-10.69
聞其	-10.6903
曰天	-10.6904
濳	-10.6908
此皆	-10.6908
憶昔	-10.6909
蔵	-10.6913
線	-10.6916
隄	-10.6917
水上	-10.6917
畆	-10.6917
駟	-10.6918
昊	-10.6929
求之	-10.693
四皓	-10.6935
此云	-10.6936
竟不	-10.6937
所思	-10.6941
沴	-10.6947
其能	-10.6949
緝	-10.6949
經云	-10.6949
鎬	-10.6953
年正月	-10.6955
沖	-10.6955
槍	-10.6955
用此	-10.6955
彦輔曰	-10.6955
炊	-10.6955
闐	-10.6956
箱	-10.6958
轄	-10.696
衆生	-10.6969
呼為	-10.698
貴人	-10.6982
又作	-10.6989
鞠	-10.6991
帙	-10.6991
卭	-10.6992
華陽	-10.6993
然也	-10.6997
濛	-10.6998
誰與	-10.6999
飮	-10.6999
知制誥	-10.7
杜預	-10.7002
雞鳴	-10.7003
章句	-10.7004
九天	-10.7005
飛燕	-10.7008
是謂	-10.7009
柰	-10.7009
先王	-10.7011
姑蘇	-10.7012
不欲	-10.7013
留後	-10.7015
如來	-10.7015
武昌	-10.7016
至公	-10.7026
堵	-10.7036
洩	-10.7037
則曰	-10.7037
挿	-10.7041
摩詰	-10.7041
僖	-10.7044
北方	-10.705
盜賊	-10.7052
供奉	-10.7053
嗣立案	-10.7054
所為	-10.7055
悵	-10.7059
敢不	-10.7059
輕重	-10.7059
見於	-10.7061
戎馬	-10.7062
泛舟	-10.7063
之職	-10.7068
延年	-10.7071
大和	-10.7076
自稱	-10.7077
之重	-10.7077
武侯	-10.7082
忠孝	-10.7083
頷	-10.7083
竝	-10.7084
則又	-10.7085
禽獸	-10.7086
葱	-10.7086
歎曰	-10.7092
清秋	-10.7095
先後	-10.7096
貴賤	-10.7099
正直	-10.7102
相親	-10.7117
父老	-10.7118
閟	-10.7122
煦	-10.7123
豺狼	-10.7124
慄	-10.7126
王室	-10.7139
士大夫	-10.7146
月日	-10.7146
也此	-10.7149
以是	-10.7155
江邊	-10.7158
滎陽	-10.716
疵	-10.7163
士贇	-10.7164
城郭	-10.7165
㕔	-10.7166
忿	-10.7167
𦙍	-10.7168
屐	-10.7168
筮	-10.7168
拓	-10.717
茅屋	-10.7173
乾元元年	-10.7174
鮑明逺	-10.7176
誤矣	-10.7177
前有	-10.7183
不到	-10.7184
無私	-10.7189
貴妃	-10.7194
恊	-10.7201
醉後	-10.7202
言語	-10.7208
雲夢	-10.7211
豎	-10.7215
不亦	-10.7216
陸士衡	-10.7217
嵩山	-10.7221
閉門	-10.7222
河南尹	-10.7222
零陵	-10.7223
及第	-10.723
送張	-10.7246
聿	-10.725
粤	-10.7251
贍	-10.7251
墉	-10.7252
拭	-10.7256
喉	-10.7257
弛	-10.7257
如雲	-10.7259
蹋	-10.7261
寐	-10.7262
工部尚書	-10.7264
天命	-10.7272
開元二十	-10.728
别有	-10.7284
從弟	-10.7288
中宗	-10.7289
鯉	-10.7295
曺	-10.7297
䦨	-10.7297
殞	-10.7298
相傳	-10.7301
泝	-10.7302
兩京	-10.7305
公時	-10.7307
波瀾	-10.7308
有情	-10.731
之政	-10.7313
商山	-10.7318
馬蹄	-10.7319
瑜	-10.7331
竟何	-10.7334
員外郎	-10.7335
讃	-10.7336
浹	-10.7337
不起	-10.7338
挫	-10.7339
沔	-10.7342
僮	-10.7342
虵	-10.7344
挑	-10.7349
舊居	-10.7349
不克	-10.735
人家	-10.7353
日夕	-10.7355
東平	-10.7358
始終	-10.7358
五陵	-10.7359
深山	-10.7361
三十年	-10.7372
利害	-10.7372
我有	-10.7373
矣而	-10.7378
長生	-10.7378
春水	-10.7378
其説	-10.738
禎	-10.7381
蠻夷	-10.7382
譯	-10.7382
汶	-10.7383
夢中	-10.7383
劣	-10.7385
針	-10.7387
送别	-10.7387
惟有	-10.7388
潁川	-10.7389
鴉	-10.7389
鴛	-10.7389
炯	-10.7392
與其	-10.7393
隻	-10.7396
飄飄	-10.7398
悠	-10.7407
周之	-10.7409
蜀中	-10.7415
常有	-10.7418
雲山	-10.7419
冥冥	-10.7419
〇師曰	-10.742
石壁	-10.7421
封禪	-10.7424
髙宗	-10.7427
杵	-10.743
韓公	-10.743
三品	-10.7431
鬰	-10.7431
舊遊	-10.7431
僊	-10.7432
些	-10.7437
梧桐	-10.7438
尚有	-10.744
景物	-10.7441
虎豹	-10.7445
管仲	-10.7447
九疑	-10.7449
草書	-10.7457
貧賤	-10.7462
拯	-10.7467
譴	-10.7467
安知	-10.7469
於後	-10.7469
沓	-10.7472
澧	-10.7477
巴蜀	-10.7479
冢	-10.7479
筒	-10.7479
羿	-10.748
馬援	-10.748
楊柳	-10.7483
始皇	-10.7485
左拾遺	-10.7486
揚子	-10.7487
不知所	-10.7487
三載	-10.7488
或謂	-10.749
而致	-10.7495
霜露	-10.7497
力士	-10.7498
詩注	-10.7506
嗟乎	-10.7509
茂陵	-10.7514
不宜	-10.7514
輯	-10.7515
不肖	-10.7515
趾	-10.7516
殃	-10.7517
毋	-10.7518
認	-10.7518
茗	-10.7519
貸	-10.752
人者	-10.7521
李廣	-10.7522
爪	-10.7523
虺	-10.7525
之始	-10.7549
補註	-10.7553
陸機詩	-10.7556
故得	-10.7558
忠臣	-10.7559
名為	-10.756
襃	-10.7562
十載	-10.7563
壅	-10.7565
不許	-10.7565
爲人	-10.7565
將何	-10.7566
某月日	-10.7567
於今	-10.757
不改	-10.757
吾將	-10.7571
相知	-10.7571
河間	-10.7572
之物	-10.7576
矣然	-10.758
教化	-10.7586
一杯	-10.7587
于時	-10.7588
流沙	-10.7594
稱其	-10.7597
墀	-10.7599
贖	-10.7605
真人	-10.7607
甌	-10.7608
兀	-10.7611
琅玕	-10.7612
押	-10.7614
魚龍	-10.7617
祝融	-10.7618
堞	-10.7618
伊尹	-10.7628
偶然	-10.7633
甘露	-10.7634
都賦	-10.7638
越王	-10.7639
國史	-10.7639
不獨	-10.7642
詩中	-10.7644
多矣	-10.7648
及此	-10.7649
反覆	-10.7651
牓	-10.7654
透	-10.7655
無因	-10.7655
月下	-10.7657
搔	-10.7658
猗	-10.7658
吾聞	-10.7659
惲	-10.766
臨江	-10.7663
酒酣	-10.7663
有名	-10.7665
百川	-10.7665
三川	-10.7667
清明	-10.7667
註云	-10.7667
數日	-10.7674
潘云	-10.7676
送君	-10.7678
有意	-10.768
二十六	-10.7685
白鶴	-10.7688
之景	-10.769
道德	-10.7694
悍	-10.7695
今者	-10.7696
賜紫金魚袋	-10.7698
炭	-10.77
行路難	-10.77
兵部	-10.77
隳	-10.7701
憔悴	-10.7701
曄	-10.7702
世界	-10.7704
之衆	-10.7704
斫	-10.7705
性命	-10.7714
一物	-10.7718
為是	-10.7718
可也	-10.7722
風月	-10.7723
皆是	-10.7725
於世	-10.7726
清光	-10.773
十九年	-10.7732
首尾	-10.7732
衡州	-10.7736
長江	-10.7738
瀛	-10.7738
數千	-10.774
序送	-10.7743
杭蜀本	-10.7745
司直	-10.7746
湫	-10.7746
查	-10.7747
溜	-10.7748
倩	-10.7749
睂	-10.7756
原注	-10.7759
聰明	-10.7766
大將	-10.7769
㑹昌	-10.7772
走馬	-10.7775
瀝	-10.7782
之利	-10.7784
其形	-10.7788
曾祖	-10.7789
玊	-10.779
迁	-10.779
録事	-10.7792
公嘗	-10.7794
㳟	-10.7794
樓臺	-10.7794
峩	-10.7796
讌	-10.7796
紈	-10.7796
江流	-10.7796
未見	-10.7799
刻石	-10.7803
子規	-10.7811
與我	-10.7812
卜居	-10.7815
既而	-10.7815
風霜	-10.7817
數年	-10.7818
辛苦	-10.7819
陶潛詩	-10.7829
骸	-10.7833
所載	-10.7834
涪	-10.7836
娘	-10.7839
慟哭	-10.784
熾	-10.784
臭	-10.7842
犢	-10.7844
長嘯	-10.7851
秋色	-10.7852
袁州	-10.7858
睢	-10.7862
服之	-10.7868
不息	-10.7873
馬上	-10.7876
吸	-10.788
俛	-10.7881
讚	-10.7881
卉	-10.7881
緫	-10.7882
而食	-10.7883
蟾	-10.7883
藹	-10.7884
燎	-10.7884
筍	-10.7886
岷	-10.7887
是用	-10.7893
當以	-10.7895
得意	-10.7895
死而	-10.7897
之末	-10.79
賢良	-10.7903
此事	-10.791
薊	-10.7911
一何	-10.7912
之節	-10.7912
長卿	-10.7915
楊子	-10.7917
胡為	-10.7918
平聲	-10.792
巴陵	-10.792
沽	-10.7922
處分	-10.7928
頥	-10.7928
齎	-10.793
弁	-10.793
蓬蒿	-10.7934
杲	-10.7937
南征	-10.7939
唐詩	-10.7941
長慶	-10.7946
衣服	-10.7952
雨中	-10.7953
自傷	-10.7955
十五里	-10.7958
登臨	-10.7959
必以	-10.7959
未聞	-10.796
浩然	-10.7964
相繼	-10.7964
孕	-10.797
偈	-10.797
古來	-10.7971
相遇	-10.7972
筋	-10.7974
樓船	-10.7975
摭	-10.7976
髣髴	-10.7979
浣花	-10.7981
尽	-10.7982
筐	-10.7983
衰老	-10.7983
嶼	-10.7984
元和元年	-10.7985
氣象	-10.7985
集有	-10.7986
閒居	-10.7986
柴門	-10.7986
何當	-10.7986
何用	-10.7989
不信	-10.7994
更無	-10.7995
者矣	-10.7999
李氏	-10.8
萬壑	-10.8005
為名	-10.8006
城下	-10.8007
忠信	-10.8011
同遊	-10.8012
先輩	-10.8014
四面	-10.8015
與公	-10.8015
閻	-10.8016
巴東	-10.802
杞	-10.8021
矩	-10.8022
題云	-10.8023
灾	-10.8024
愉	-10.8026
興元	-10.8026
皆在	-10.8026
榜	-10.8028
飱	-10.8028
當年	-10.8028
軒轅	-10.803
益州	-10.8031
門人	-10.8037
乃是	-10.8041
中人	-10.8044
使持節	-10.8049
幾何	-10.8049
家語	-10.8051
陶潛	-10.8054
相顧	-10.8056
杭蜀	-10.8059
之孫	-10.806
屏風	-10.8065
闕下	-10.8067
軻	-10.8068
棣	-10.8069
公侯	-10.807
齧	-10.807
民之	-10.8071
渤海	-10.8071
楊栁	-10.8072
光明	-10.8073
繒	-10.8074
夣	-10.8074
云爾	-10.8074
桂州	-10.8075
▁漢	-10.8079
車駕	-10.808
者又	-10.808
書記	-10.8083
曰昔	-10.8083
孤城	-10.8088
西王母	-10.809
百代	-10.809
賈生	-10.8091
雪山	-10.8098
無定	-10.81
中書令	-10.81
不疑	-10.8106
狀如	-10.8111
塩	-10.8115
都䕶	-10.8115
泄	-10.812
匱	-10.812
鳶	-10.8121
羗	-10.8121
幅	-10.8122
嗤	-10.8122
其大	-10.8123
橈	-10.8124
中郎	-10.8125
芽	-10.8125
者乃	-10.8129
但見	-10.813
在位	-10.8134
月某日	-10.8135
喬木	-10.8135
西江	-10.8138
在乎	-10.8139
浙	-10.8141
靈運	-10.8141
故謂之	-10.8151
之遺	-10.8163
禅	-10.8164
佳句	-10.8165
可惜	-10.8166
蕭何	-10.8166
碧雲	-10.8167
穩	-10.8167
一聲	-10.8167
麋鹿	-10.8168
顥	-10.817
翩翩	-10.817
何有	-10.8171
房琯	-10.8174
無聲	-10.8175
二十三	-10.8176
閣下	-10.8178
城縣	-10.8181
綿州	-10.8183
諱某	-10.8186
醮	-10.8191
集賢	-10.8191
北闕	-10.8193
王命	-10.8198
知巳	-10.8199
而復	-10.82
待詔	-10.8201
順宗	-10.8201
緋	-10.8209
持節	-10.8209
燧	-10.8212
以禮	-10.8213
杼	-10.8213
無乃	-10.8214
彛	-10.8214
憩	-10.8214
嬪	-10.8215
峨	-10.8216
鈿	-10.8216
旻	-10.8216
起於	-10.8216
卵	-10.8218
霰	-10.8218
斉	-10.8222
其所以	-10.8234
風雅	-10.824
故山	-10.8241
道徳	-10.8245
二十里	-10.8247
藂	-10.8255
聞而	-10.8255
矛	-10.8261
扃	-10.8261
綰	-10.8261
蔑	-10.8262
㨗	-10.8263
部貟外郎	-10.8265
弋	-10.8267
相訪	-10.8267
艇	-10.8268
徳宗	-10.8271
欒	-10.8271
年六十	-10.8274
孰能	-10.8281
我來	-10.8284
招魂	-10.8288
秋浦	-10.8289
依舊	-10.8297
佑	-10.8303
模	-10.8305
覃	-10.8305
鬻	-10.8308
囿	-10.8309
派	-10.831
江頭	-10.831
頡	-10.8311
岩	-10.8311
瓌	-10.8314
田家	-10.8314
實録	-10.8315
崢嶸	-10.8315
鴟	-10.8316
潼闗	-10.8316
羇	-10.8316
乎哉	-10.8317
紇	-10.8317
改元	-10.8318
㐮	-10.8319
莫敢	-10.8321
劍南	-10.8325
笙歌	-10.8329
其書	-10.8329
新豐	-10.8331
四夷	-10.8342
端公	-10.8345
漁陽	-10.8349
字某	-10.8353
曰今	-10.8354
壬	-10.8356
所用	-10.8358
豈能	-10.8358
縫	-10.8359
張公	-10.8359
孩	-10.8361
奉詔	-10.8363
邨	-10.8363
抱朴子	-10.8364
哺	-10.8366
唐虞	-10.8369
閣老	-10.8372
編在	-10.8372
其功	-10.8372
洪曰	-10.8374
閑居	-10.8383
公爲	-10.8386
又音	-10.8392
帝曰	-10.8396
今來	-10.8398
此又	-10.84
某等	-10.8401
薤	-10.8401
頭白	-10.8402
軼	-10.8405
洄	-10.8407
廹	-10.8408
恪	-10.841
幡	-10.841
三輔	-10.841
乆矣	-10.8411
形骸	-10.8411
倡	-10.8412
眄	-10.8413
宫殿	-10.8414
與此	-10.8417
於道	-10.8421
更有	-10.8421
一方	-10.8421
雲氣	-10.8421
先帝	-10.8422
八九	-10.8429
相應	-10.8432
南極	-10.8437
雖然	-10.844
復為	-10.8441
相近	-10.8443
致仕	-10.8447
朙	-10.8449
瀑	-10.8451
朝散大夫	-10.8452
鈴	-10.8457
金玉	-10.8458
拖	-10.8458
涙	-10.8459
該	-10.8459
玉堂	-10.8467
碑銘	-10.847
復有	-10.8472
隱居	-10.8478
元戎	-10.848
翺	-10.8487
百丈	-10.8493
名利	-10.8498
太陽	-10.8499
墅	-10.8501
軍事	-10.8502
讐	-10.8502
贄	-10.8503
蹔	-10.8503
龍蛇	-10.8504
鞅	-10.8505
牘	-10.8506
功業	-10.8507
闥	-10.8508
陁	-10.8509
趙王	-10.8509
眩	-10.851
所由	-10.851
瘡	-10.8511
志云	-10.8513
上元二年	-10.8513
羣公	-10.8518
帝子	-10.8525
注見	-10.8532
切又	-10.8541
浙江	-10.8545
亭亭	-10.8547
以俟	-10.8547
兖州	-10.8554
烝	-10.8555
太平寰宇記	-10.8556
訊	-10.8556
蘄	-10.8557
須臾	-10.8558
元帥	-10.8559
瀑布	-10.856
諳	-10.856
永泰元年	-10.8564
生人	-10.8564
嘆曰	-10.857
是詩	-10.857
十首	-10.8572
行者	-10.8578
事業	-10.8579
無疑	-10.8582
所能	-10.8593
谷口	-10.8593
方言	-10.8594
若無	-10.8597
十七年	-10.8598
知者	-10.8602
萬象	-10.8602
托	-10.8604
噬	-10.8605
當世	-10.8605
躅	-10.8606
則其	-10.8608
濺	-10.8608
誚	-10.8608
倘	-10.8608
上文	-10.861
縞	-10.861
公有	-10.8611
平王	-10.8611
軋	-10.8611
峴山	-10.8613
鼠	-10.8613
盗賊	-10.8618
濮	-10.8621
當其	-10.8626
為正	-10.8628
三山	-10.8629
織女	-10.8634
金城	-10.8635
季子	-10.8637
後來	-10.8638
金華	-10.8641
疑是	-10.8649
天官	-10.865
於前	-10.8652
雲霧	-10.8653
店	-10.8654
無處	-10.8655
騶	-10.8658
止於	-10.8658
唳	-10.866
甚矣	-10.8661
菊花	-10.8668
獨有	-10.8672
行役	-10.8672
岱	-10.8673
伏奉	-10.8685
并州	-10.8688
西施	-10.8689
六經	-10.8689
青草	-10.8692
不離	-10.8692
一夜	-10.8694
晉陽	-10.8694
歸心	-10.8695
未央	-10.8699
長風	-10.8699
而上	-10.8701
斵	-10.8702
清晨	-10.8702
蘚	-10.8704
葺	-10.8705
矣今	-10.8705
嘗為	-10.8706
之奠	-10.8706
擺	-10.8707
年四十	-10.8707
旃	-10.8707
遂使	-10.8707
於我	-10.8708
兼御史中丞	-10.871
譙	-10.871
舡	-10.8717
黃金	-10.8721
之本	-10.8722
依依	-10.8723
渡河	-10.8723
焚香	-10.8723
陽公	-10.8725
三千里	-10.8726
香爐	-10.8726
作者	-10.8729
流離	-10.8734
落葉	-10.8735
可依前件	-10.8737
之使	-10.8738
江左	-10.8738
之化	-10.8739
衡陽	-10.874
不違	-10.8741
月照	-10.8742
四五	-10.8743
璘	-10.8744
以前	-10.8747
春來	-10.8751
髙堂	-10.8753
翠微	-10.8753
罵	-10.8755
旂	-10.8755
鈍	-10.8757
綜	-10.8758
以告	-10.8759
踟蹰	-10.8759
輅	-10.8761
鵰	-10.8762
范蠡	-10.8763
謫仙	-10.8769
錦繡	-10.8769
也吾	-10.8769
輕薄	-10.8781
天河	-10.8784
以至	-10.8787
稹	-10.8787
求其	-10.8788
餘慶	-10.8788
侍從	-10.8791
詩集	-10.8792
鄉里	-10.8796
宋書	-10.8797
陽臺	-10.8798
聆	-10.88
鞏	-10.8806
惱	-10.8806
此中	-10.8807
窅	-10.8807
江城	-10.8809
非一	-10.8811
非所	-10.8812
窻	-10.8815
與李	-10.8816
蹶	-10.8816
鵩	-10.8816
兖	-10.882
陳琳	-10.8826
於是乎	-10.883
之性	-10.8835
其說	-10.8835
寒山	-10.8835
今以	-10.8837
不逮	-10.8843
而已矣	-10.885
椘	-10.8853
成帝	-10.8854
股肱	-10.8855
涓	-10.8857
下音	-10.8857
盞	-10.886
上言	-10.8862
好學	-10.8863
大明	-10.8865
左僕射	-10.8866
人之所	-10.8866
遊子	-10.8866
百尺	-10.8868
此身	-10.8872
老杜	-10.8874
雨雪	-10.8879
浙東	-10.8883
由此	-10.8883
胡馬	-10.8888
是何	-10.8888
子雲	-10.8889
北史	-10.8891
進士第	-10.8892
始以	-10.8893
蜀郡	-10.8895
漢家	-10.8896
人倫	-10.89
存乎	-10.8905
迄	-10.8905
一笑	-10.8909
還家	-10.8909
眸	-10.8909
砥	-10.891
拍	-10.891
暨	-10.8911
巉	-10.8911
嘻	-10.8912
枝葉	-10.8913
明帝	-10.8914
牽牛	-10.8915
瞿塘	-10.8916
有才	-10.8917
不載	-10.8917
六句	-10.8922
張良	-10.894
秋草	-10.8947
分司	-10.8949
笑曰	-10.895
吟詩	-10.8954
壚	-10.8954
俞	-10.8955
烽	-10.8958
老去	-10.8959
尔	-10.8959
精誠	-10.8959
蝕	-10.8961
馮翊	-10.8962
鉛	-10.8963
隼	-10.8963
縑	-10.8964
仄	-10.8965
唐制	-10.8968
蠟	-10.8969
愔	-10.8972
郡縣	-10.8978
日落	-10.8979
校尉	-10.8979
唐本	-10.8983
而不知	-10.8991
重陽	-10.8996
郴	-10.8996
出自	-10.8998
陽城	-10.8998
登山	-10.9003
獨酌	-10.9009
苛	-10.901
茵	-10.9011
釁	-10.9013
穏	-10.9015
夘	-10.9016
吾師	-10.9018
王逸曰	-10.9018
燃	-10.9018
驊騮	-10.902
曰某	-10.9022
宫闕	-10.9023
在於	-10.9025
神農	-10.9031
天道	-10.9033
中流	-10.9037
夷狄	-10.9037
何能	-10.904
則必	-10.9041
無極	-10.9043
以後	-10.9046
祖宗	-10.9054
字或	-10.9058
久矣	-10.9059
長城	-10.906
廟碑	-10.9061
何遜詩	-10.9062
未息	-10.9062
扄	-10.9063
懋	-10.9065
翰林學士	-10.9065
椽	-10.9067
金谷	-10.9078
吳王	-10.908
未歸	-10.908
孔融	-10.9081
開元中	-10.9082
送王	-10.9083
郡守	-10.9084
之陽	-10.9087
上林賦	-10.909
右僕射	-10.9091
節制	-10.9092
死於	-10.9094
之貌	-10.9095
男女	-10.9095
聖明	-10.9102
海水	-10.9103
同歸	-10.9103
立功	-10.9104
行樂	-10.9105
飛龍	-10.9108
夜郎	-10.9113
戡	-10.9113
驍	-10.9114
巘	-10.9116
聼	-10.9117
隊	-10.9118
泓	-10.9121
逺遊	-10.9123
豺虎	-10.9126
上音	-10.913
華隂	-10.913
鏡中	-10.913
家有	-10.9134
南風	-10.9135
夙夜	-10.9137
湖上	-10.914
車騎	-10.9142
十八年	-10.915
從而	-10.9158
古文	-10.916
年七十	-10.916
官軍	-10.9161
雪中	-10.9162
人物	-10.9164
蠅	-10.9164
悪	-10.9167
岳陽	-10.9167
■	-10.9168
九域志	-10.9171
渺	-10.9171
楼	-10.9172
之官	-10.9172
皂	-10.9172
渌	-10.9173
吼	-10.9174
蠱	-10.9174
縻	-10.9175
塢	-10.9177
此亦	-10.9177
駿馬	-10.9179
夜半	-10.918
鄒陽	-10.9182
今人	-10.9183
劒南	-10.9184
比之	-10.9189
不止	-10.9193
存者	-10.9196
神龍	-10.9205
誤也	-10.9205
謂此	-10.9206
在成都	-10.9215
之誤	-10.9217
歧	-10.9219
如玉	-10.9219
嬾	-10.922
尚未	-10.9222
寤	-10.9224
穫	-10.9225
趂	-10.9225
怳	-10.9227
隨風	-10.9228
聞君	-10.923
彭澤	-10.9233
龍虎	-10.9234
承恩	-10.9246
將以	-10.9247
不從	-10.9249
洛下	-10.925
幸蜀	-10.9251
西戎	-10.9251
深入	-10.9252
浮生	-10.9253
而卒	-10.9255
柰何	-10.9257
威儀	-10.9259
南浦	-10.9259
常以	-10.926
河漢	-10.9261
亦是	-10.9261
玉山	-10.9271
愍	-10.9272
楫	-10.9273
羶	-10.9274
飢寒	-10.9274
幻	-10.9275
燼	-10.9275
春光	-10.9275
先是	-10.9275
熖	-10.9275
青門	-10.9276
售	-10.9277
蚩尤	-10.9281
楸	-10.9283
霄漢	-10.9285
項羽	-10.9286
親友	-10.9286
尚在	-10.9287
非吾	-10.9288
中書門下	-10.9289
王父	-10.9291
北極	-10.9292
别後	-10.9295
七里	-10.9297
羽毛	-10.9302
親戚	-10.9304
歸去來	-10.9308
不去	-10.9309
梁王	-10.931
者豈	-10.931
劉氏	-10.9312
此日	-10.932
腸斷	-10.9321
在焉	-10.9322
司馬遷	-10.9322
翠華	-10.9323
瀼	-10.9324
蛾眉	-10.9327
擔	-10.9327
癘	-10.9327
趙云此	-10.9328
贏	-10.9329
坑	-10.9329
雋	-10.933
窮途	-10.9331
吏部侍郎	-10.9331
掣	-10.9335
後代	-10.9337
讙	-10.9337
廣徳元年	-10.9338
為誰	-10.9339
珠玉	-10.9339
非常	-10.934
八分	-10.934
應制	-10.934
奉先	-10.9341
倐忽	-10.9341
徃來	-10.935
五帝	-10.9354
青松	-10.9358
宫室	-10.936
卿大夫	-10.9361
法師	-10.9362
問曰	-10.9367
洙曰詩	-10.9369
二十九	-10.9376
寡人	-10.9377
刹	-10.9378
批	-10.9381
襄王	-10.9381
浚	-10.9381
安危	-10.9385
奉使	-10.9385
肘	-10.9386
窈窕	-10.9388
碧海	-10.9389
恰	-10.939
至矣	-10.9391
其他	-10.9392
鱠	-10.9392
其三	-10.9392
秦始皇	-10.9393
桂林	-10.9398
二女	-10.9399
風光	-10.9401
觀者	-10.9403
碣石	-10.9403
之野	-10.9405
不知何	-10.9405
鞍馬	-10.941
毛詩	-10.9417
志在	-10.9419
不得其	-10.9422
忻	-10.9429
方丈	-10.943
諦	-10.9432
凛	-10.9433
其母	-10.9435
滻	-10.9436
瀘	-10.9436
五品	-10.9437
釀	-10.9439
禮部尚書	-10.9441
煑	-10.9441
馨香	-10.9442
覿	-10.9442
峽中	-10.9444
縣東	-10.9454
管絃	-10.9457
平地	-10.946
巢父	-10.9461
于今	-10.9462
豈獨	-10.9466
不返	-10.9467
臨水	-10.9469
病中	-10.9469
中央	-10.9473
桂樹	-10.9474
韶州	-10.9475
中和	-10.9476
渡江	-10.9478
趙曰此	-10.9478
中山	-10.9479
六龍	-10.9485
者謂之	-10.9485
大中	-10.9488
羅浮	-10.949
錐	-10.9493
霾	-10.9493
白羽	-10.9493
餉	-10.9494
皆非是	-10.9497
慣	-10.9497
博物志	-10.9498
以奉	-10.9501
不安	-10.9502
之㫖	-10.9507
吉甫	-10.9508
句法	-10.9508
登第	-10.9516
世家	-10.9518
入海	-10.9523
先生之	-10.9525
同州	-10.9529
下第	-10.953
識者	-10.953
無異	-10.9533
岳州	-10.9536
潮州	-10.9538
焉其	-10.954
確	-10.9541
後魏	-10.9542
孝友	-10.9543
先王之	-10.9545
淂	-10.9546
讀之	-10.9546
糴	-10.9547
大厯元年	-10.9547
謔	-10.9548
菁	-10.9548
叫	-10.9549
猒	-10.9549
芸	-10.9551
駮	-10.9551
帰	-10.9554
亦自	-10.9555
亦非	-10.9557
貞元十	-10.9557
出師	-10.956
魏闕	-10.9561
碑文	-10.9563
應是	-10.9567
之儀	-10.9569
庶幾	-10.9573
滄江	-10.9578
漢王	-10.9578
議論	-10.958
相看	-10.9581
一行	-10.9584
未成	-10.959
王莽	-10.959
異於	-10.9592
宿昔	-10.9594
兵曹	-10.9595
而至	-10.9596
汝南	-10.9596
猴	-10.9599
顧注	-10.9599
隗	-10.9602
葭	-10.9602
壠	-10.9602
霏	-10.9602
四門	-10.9603
陶淵明	-10.9603
楷	-10.9604
曝	-10.9605
牎	-10.9605
紀綱	-10.9606
刮	-10.9607
入門	-10.961
十卷	-10.961
君墓誌銘	-10.9611
𬞞	-10.9613
猶存	-10.9615
所聞	-10.9616
暇日	-10.9617
物也	-10.9625
長樂	-10.9625
將來	-10.9626
加以	-10.9627
方寸	-10.9639
佳期	-10.9641
亦足	-10.9645
洙曰一云	-10.9645
州府	-10.9646
峨眉	-10.9647
宰臣	-10.9648
寸心	-10.965
旒	-10.965
歿	-10.9651
欝	-10.9653
筌	-10.9657
膩	-10.9657
笠	-10.9659
倣	-10.9659
哂	-10.9659
天帝	-10.966
捫	-10.966
磴	-10.966
不勞	-10.966
封侯	-10.9663
麝	-10.9666
蕭瑟	-10.9668
明珠	-10.9672
二切	-10.9672
謝校	-10.9673
松柏	-10.9673
白居易	-10.9678
白鷺	-10.9685
關中	-10.9686
苦寒	-10.9689
生靈	-10.9693
美酒	-10.9698
自從	-10.9698
張儀	-10.9707
册	-10.9708
盍	-10.9708
劾	-10.9709
償	-10.9709
壹	-10.9709
秖	-10.971
青蓮	-10.9712
櫪	-10.9714
之象	-10.9714
矣又	-10.9715
裴度	-10.9718
汝州	-10.9718
逞	-10.9719
飛去	-10.972
北山	-10.9724
不下	-10.9725
且曰	-10.9726
之域	-10.9729
難得	-10.973
鮑昭	-10.973
王屋	-10.975
其詞	-10.9763
紱	-10.9764
揣	-10.9764
穆公	-10.9764
羯	-10.9764
闡	-10.9764
僞	-10.9765
幽居	-10.9766
駑	-10.9767
巽	-10.9767
縶	-10.9768
参	-10.9768
躁	-10.9769
相接	-10.977
厠	-10.9771
麤	-10.9771
前年	-10.9771
大如	-10.9771
議者	-10.9773
珂	-10.9773
未敢	-10.9774
亦猶	-10.9775
潘安仁	-10.9775
自比	-10.9779
左丞	-10.9781
之期	-10.9782
𢎞農	-10.9783
宛轉	-10.9786
西極	-10.9789
俄而	-10.9791
白蘋	-10.9794
承明	-10.9794
更名	-10.9795
奉宣	-10.9797
而不得	-10.9799
法度	-10.9803
雖無	-10.9804
其本	-10.9812
謝本	-10.9817
官至	-10.9818
萬乗	-10.982
但以	-10.9822
昔日	-10.9823
髦	-10.9823
股	-10.9824
臨風	-10.9825
粮	-10.9826
八極	-10.9826
呵	-10.9826
國子	-10.9828
諸葛亮	-10.9829
二州	-10.9831
秣	-10.9832
金門	-10.9843
一見	-10.9844
舊注引	-10.9847
亂後	-10.9848
容易	-10.9849
曰汝	-10.9851
新舊史	-10.9852
家人	-10.9852
田園	-10.9854
雨後	-10.9855
一一	-10.9864
安史	-10.9865
紫氣	-10.9869
鮑曰	-10.9878
械	-10.9879
中書舎人	-10.9881
唾	-10.9882
國有	-10.9883
故公	-10.9883
立名按	-10.9884
孟軻	-10.9884
荆棘	-10.9885
舟楫	-10.9888
瞰	-10.9888
逺矣	-10.9898
寓居	-10.9898
亦然	-10.99
乗興	-10.9903
仲宣	-10.9912
鄜	-10.9913
堂上	-10.9915
魯連	-10.9919
趙云言	-10.992
飄然	-10.9921
繡衣	-10.9922
無他	-10.9925
積雪	-10.9927
歙	-10.9928
文昌	-10.993
丹丘	-10.9932
僉	-10.9933
可用	-10.9935
攷	-10.9938
敲	-10.9939
㶚	-10.9941
鴨	-10.9942
事君	-10.9944
此生	-10.9944
狖	-10.9947
雙闕	-10.9947
千門	-10.9949
長歌	-10.995
終南山	-10.9952
清溪	-10.9957
沉沉	-10.9958
徃徃	-10.9962
思明	-10.9964
杜子美	-10.9964
而反	-10.9968
大聖	-10.9968
則以	-10.997
也〇	-10.9974
海中	-10.9982
後生	-10.9985
貟	-10.9985
譬如	-10.9988
别駕	-10.9989
大業	-10.9989
師道	-10.9991
鷓鴣	-10.9991
青龍	-10.9992
蹕	-10.9994
璩	-10.9994
之威	-10.9995
䜛	-10.9997
晞	-10.9998
萋萋	-10.9998
任昉	-11
蕚	-11
木蘭	-11.0004
得無	-11.0004
居之	-11.0007
此物	-11.0008
我獨	-11.001
宗室	-11.0015
鳳翔	-11.0016
依然	-11.0025
陰陽	-11.0035
殺氣	-11.0036
二十七	-11.0044
手足	-11.0047
城北	-11.0048
文士	-11.0049
踞	-11.005
寥廓	-11.0051
嗚	-11.0052
大厯二年	-11.0052
寳應元年	-11.0055
處置	-11.0056
郡國	-11.0056
禰衡	-11.0056
笏	-11.0056
州都督	-11.0057
荔枝	-11.0059
蹲	-11.006
鄆	-11.0061
至德	-11.0062
光照	-11.0062
百寮	-11.0063
梁元帝	-11.0064
韋氏	-11.0065
燕趙	-11.0066
可為	-11.007
相送	-11.0072
並見	-11.0072
男子	-11.0074
蔡州	-11.0074
頓首	-11.0076
他鄉	-11.0081
上客	-11.0083
三十二	-11.0086
俱作	-11.0088
知人	-11.0088
太僕	-11.0091
建章	-11.0097
東屯	-11.0102
殫	-11.0103
龕	-11.0104
欠	-11.0106
顏	-11.0108
豊	-11.0108
廩	-11.0108
南岳	-11.0109
遺愛	-11.0109
而退	-11.011
苖	-11.0111
縦	-11.0112
江賦	-11.0113
簸	-11.0114
鬟	-11.0114
黠	-11.0114
而進	-11.0115
摹	-11.0115
軾	-11.0116
寥落	-11.0118
北齊	-11.0119
尓	-11.0122
魏晉	-11.0122
飄零	-11.0122
如此則	-11.0123
赤城	-11.0124
遲遲	-11.0138
之㑹	-11.0139
雲間	-11.0141
謝朓	-11.0145
直言	-11.0145
豈惟	-11.0151
為客	-11.0156
風動	-11.0158
爍	-11.0166
人謂之	-11.0166
叠	-11.017
焉得	-11.0171
俎	-11.0171
喙	-11.0173
文辭	-11.0173
爾其	-11.0177
洛水	-11.0178
聖人之道	-11.018
而止	-11.0183
扶又	-11.0185
之榮	-11.0187
贈别	-11.0189
髙樓	-11.0189
太史公	-11.0197
世說	-11.0198
無有	-11.0202
榭	-11.0202
元濟	-11.0205
贈李	-11.021
將相	-11.0215
宫人	-11.0215
逺山	-11.0218
者誰	-11.0218
猶言	-11.0223
瘞	-11.0226
剽	-11.0226
乃命	-11.0228
阡	-11.0228
彗	-11.0228
藁	-11.0228
皋	-11.0229
泫	-11.0229
不稱	-11.023
謝𤣥暉	-11.0231
槖	-11.0234
浮圖	-11.0235
早晚	-11.0237
有鳥	-11.0238
青海	-11.0239
早秋	-11.0239
攜手	-11.0241
河朔	-11.0243
推官	-11.0248
宣帝	-11.0253
雖欲	-11.0258
陳留	-11.0259
伏惟皇帝陛下	-11.0278
天竺	-11.0279
菲	-11.0281
郄	-11.0281
㟁	-11.0282
即是	-11.0284
搴	-11.0285
怛	-11.0286
聲聞	-11.0286
磷	-11.0286
抉	-11.0287
沈約詩	-11.0287
嵗月	-11.0287
琅	-11.0288
冇	-11.0288
刈	-11.0289
醖	-11.029
<	-11.029
="33"/>	-11.029
t	-11.029
哥舒翰	-11.029
葩	-11.0291
安定	-11.0291
林泉	-11.0292
農夫	-11.0293
清夜	-11.0293
卧病	-11.0295
只作	-11.0297
之交	-11.0297
突厥	-11.0298
武后	-11.0298
特進	-11.03
德音	-11.03
上都	-11.03
迴首	-11.0306
其神	-11.0307
未免	-11.0313
一夕	-11.0315
此書	-11.0319
冬日	-11.0319
相從	-11.0323
有遺	-11.0329
水旱	-11.0335
伽	-11.0338
綘	-11.0341
交情	-11.0341
窘	-11.0342
琉璃	-11.0343
君侯	-11.0344
猾	-11.0344
龔	-11.0345
訾	-11.0345
殖	-11.0345
瀨	-11.0345
百家	-11.0345
麴	-11.0346
懦	-11.0346
漕	-11.0346
不須	-11.0346
蛙	-11.0347
河水	-11.0347
北征	-11.0347
和氣	-11.0348
金闕	-11.0348
鎖	-11.0349
朱紱	-11.0349
瀬	-11.035
荆山	-11.0351
洛中	-11.0351
縣名	-11.0353
長子	-11.0355
何者	-11.0355
揺落	-11.0359
留連	-11.0362
長短	-11.0363
潤州	-11.0367
雷雨	-11.0371
留滯	-11.0375
繇是	-11.0389
風騷	-11.0396
失之	-11.0396
忽然	-11.0396
儋	-11.0398
瓠	-11.04
杓	-11.0402
縣屬	-11.0403
廼	-11.0403
冉	-11.0404
嫩	-11.0404
神功	-11.0405
佚	-11.0405
五十里	-11.0405
脊	-11.0406
夫人之	-11.0407
屨	-11.0407
本紀	-11.0408
鬪	-11.0408
紫宸	-11.0409
通用	-11.041
有客	-11.0411
鯤	-11.0413
兒女	-11.0415
武徳	-11.0416
陶潜	-11.0417
上疏	-11.0418
臺上	-11.0418
之姿	-11.0427
宗即位	-11.0429
不惜	-11.0434
歲月	-11.0436
况乃	-11.0437
天台賦	-11.0438
神仙傳	-11.044
魏武	-11.0441
相和	-11.0444
何哉	-11.0448
功徳	-11.0449
瓊樹	-11.0455
灣	-11.046
幄	-11.0461
閎	-11.0462
捜	-11.0464
虫	-11.0466
蛻	-11.0466
莓苔	-11.0468
隈	-11.0468
鬱鬱	-11.0469
遘	-11.0469
老成	-11.0469
伯夷	-11.047
使之	-11.047
舸	-11.047
萬年縣	-11.0479
塞上	-11.048
青絲	-11.0483
月色	-11.0487
視其	-11.0492
楚國	-11.0493
四韻	-11.0494
百花	-11.0496
元宗	-11.0497
内史	-11.0499
應劭曰	-11.0499
四百	-11.0501
巳來	-11.0506
遼東	-11.051
狀右	-11.051
使臣	-11.0513
也史記	-11.0515
夏侯	-11.0515
廣德	-11.0517
拊	-11.052
趙云上句	-11.0521
恂	-11.0523
暦	-11.0523
縳	-11.0524
腦	-11.0524
郭子儀	-11.0529
蓴	-11.0529
劉琨	-11.0529
尊師	-11.0534
浮屠	-11.0535
湘中	-11.0535
文祭	-11.0536
山北	-11.0539
次曰	-11.054
存亡	-11.0542
世事	-11.0546
不明	-11.0547
月五日	-11.0547
公墓誌銘	-11.0554
長老	-11.0559
者得	-11.0562
莫若	-11.0566
蘇秦	-11.0567
不來	-11.0571
斷腸	-11.0574
國風	-11.0576
致君	-11.0577
鏘	-11.0578
七八	-11.0578
勘	-11.0579
大厯元	-11.0579
駟馬	-11.0582
泌	-11.0584
所引	-11.0584
臼	-11.0585
觜	-11.0586
晶	-11.0586
宼	-11.0587
風濤	-11.0588
賂	-11.0589
太廟	-11.059
今按此	-11.059
脆	-11.059
甲乙	-11.0591
晷	-11.0592
崔嵬	-11.0593
之典	-11.0594
年譜	-11.0596
而求	-11.0597
元和十年	-11.0598
連州	-11.0604
崑	-11.0604
以備	-11.0605
再三	-11.0607
池塘	-11.0608
闗中	-11.0609
府中	-11.0609
元日	-11.061
秋天	-11.0611
年老	-11.0613
甲兵	-11.0616
日照	-11.0619
雲霄	-11.0619
㕘	-11.0627
吾君	-11.0628
六七	-11.063
出塞	-11.063
有聲	-11.0634
仁者	-11.0636
子産	-11.0638
天外	-11.0638
疫	-11.0641
擘	-11.0641
在兹	-11.0645
朝野	-11.0647
劉禹錫	-11.0649
羃	-11.0649
熊羆	-11.0651
石室	-11.0651
不由	-11.0653
年冬	-11.0654
張翰	-11.0654
萼	-11.0657
盛德	-11.066
韓退之	-11.066
南越	-11.0672
天寶十	-11.0673
是日	-11.0673
開口	-11.0674
斯言	-11.0675
鄭氏	-11.0678
京華	-11.0678
去國	-11.068
單父	-11.0684
太保	-11.0687
自憐	-11.0688
唱和	-11.0688
之用	-11.0689
近者	-11.069
親故	-11.0695
召見	-11.0697
秦人	-11.0697
糞	-11.0698
盼	-11.0701
慝	-11.0701
眞卿	-11.0702
誰謂	-11.0702
第十	-11.0705
諍	-11.0705
神武	-11.0707
槿	-11.0707
劃	-11.0708
交趾	-11.071
筯	-11.0711
汜	-11.0711
豈是	-11.0712
蚤	-11.0712
其徒	-11.0712
嗔	-11.0713
閃	-11.0713
魑魅	-11.0713
陬	-11.0714
駞	-11.0715
諸州	-11.0716
禹錫	-11.0716
幾人	-11.0716
一舉	-11.0716
銅柱	-11.0719
公私	-11.0721
釋氏	-11.0723
前事	-11.0727
經營	-11.0731
中道	-11.0739
鳥雀	-11.0743
朝朝	-11.0744
物色	-11.075
倪	-11.0754
之資	-11.0757
者哉	-11.0764
倐	-11.0765
矦	-11.0766
屍	-11.0767
摛	-11.0767
之仁	-11.0767
山陽	-11.0768
吏部尚書	-11.077
騖	-11.077
廣徳	-11.077
颺	-11.0771
可與	-11.0775
若夫	-11.0775
天柱	-11.0777
躑躅	-11.0778
元稹	-11.0778
以獻	-11.078
優游	-11.0784
至若	-11.079
惟公	-11.0793
非我	-11.0795
九霄	-11.0797
此文	-11.0797
弟兄	-11.0797
紫芝	-11.0799
鄜州	-11.0804
凌本	-11.0805
九歌	-11.0809
孤雲	-11.0812
正是	-11.0812
去去	-11.0813
含情	-11.0821
謹奏	-11.0826
多士	-11.0826
秦地	-11.0827
悚	-11.0827
行軍司馬	-11.0828
斐	-11.0829
畨	-11.0831
子儀	-11.0834
雖云	-11.0835
漫漫	-11.0837
筝	-11.0838
芳菲	-11.084
瀧	-11.084
敬亭	-11.0841
先君	-11.0841
上元元年	-11.0844
冬至	-11.0851
西征賦	-11.0852
詹事	-11.086
件	-11.086
新亭	-11.0861
大梁	-11.0863
文苑英華	-11.0869
曽祖	-11.0875
刑部	-11.0875
殊未	-11.0877
魏博	-11.088
崔公	-11.0881
大賢	-11.0884
玠	-11.0888
已來	-11.0888
思君	-11.0888
赭	-11.089
太湖	-11.089
旰	-11.0891
蓍	-11.0891
畋	-11.0893
諸侯之	-11.0894
糟	-11.0894
玲瓏	-11.0895
不逺	-11.0897
畬	-11.0898
袒	-11.0899
何年	-11.0901
黄生曰	-11.0903
烽火	-11.0903
賽	-11.0903
常山	-11.0904
月出	-11.0905
故能	-11.0905
官吏	-11.0913
經綸	-11.0915
水火	-11.0916
耒	-11.0916
將帥	-11.0918
洙曰古詩	-11.0921
盛徳	-11.0927
晏子	-11.0928
〇蘇曰	-11.0929
凉風	-11.0931
扈從	-11.094
江樓	-11.0944
西陵	-11.0944
凄凉	-11.0947
琛	-11.0951
彬	-11.0953
萇	-11.0956
番	-11.0956
侍郞	-11.0956
攄	-11.0956
羔	-11.0957
貞元十九年	-11.0958
縹	-11.0959
漉	-11.096
聾	-11.0961
西望	-11.0961
卒於	-11.0965
咨嗟	-11.0965
犬戎	-11.0966
臣竊	-11.0975
數月	-11.0976
徐陵	-11.0977
當今	-11.0979
鳥飛	-11.098
下車	-11.0981
張騫	-11.0983
蜀道	-11.0983
終於	-11.0986
當塗	-11.0989
其妻	-11.0992
猶可	-11.0992
送人	-11.0994
睢陽	-11.0994
古風	-11.1002
交親	-11.1013
四十里	-11.1013
國忠	-11.1014
宣慰	-11.1015
斃	-11.1015
司業	-11.1017
𥿄	-11.1018
地理	-11.1018
娛	-11.1019
文宗	-11.102
瞽	-11.102
泳	-11.102
避亂	-11.1023
文理	-11.1024
善惡	-11.1025
光禄	-11.1025
五雲	-11.1026
冉冉	-11.1026
麋	-11.1026
顛倒	-11.1027
物情	-11.1029
兕	-11.103
我今	-11.103
錦江	-11.1035
許之	-11.1036
經年	-11.1043
白虎	-11.1045
歌聲	-11.1046
黄牛	-11.1049
量移	-11.1051
三五	-11.1053
青苔	-11.1055
子胥	-11.1058
又聞	-11.1058
避地	-11.1059
語意	-11.1066
菩提	-11.1067
淮海	-11.1068
不測	-11.1069
關山	-11.1072
韓子	-11.1075
廪	-11.1081
砂	-11.1081
户部	-11.1081
繋	-11.1082
藝文志	-11.1084
沈休文	-11.1084
踣	-11.1085
捍	-11.1086
豈徒	-11.1086
拈	-11.1086
閽	-11.1086
至誠	-11.1087
煌煌	-11.1087
謝惠連	-11.1087
崔氏	-11.1089
焉能	-11.1089
清江	-11.109
好事者	-11.109
拄	-11.109
侶	-11.1092
肅肅	-11.1093
别業	-11.1095
長吏	-11.1097
丐	-11.1098
未幾	-11.1101
者耶	-11.1102
其位	-11.1102
法曹	-11.1105
嗜酒	-11.1109
庭前	-11.1114
早朝	-11.1117
朱顔	-11.1118
一月	-11.1121
楚山	-11.1121
孝子	-11.1126
長句	-11.1126
可知矣	-11.1133
松風	-11.1135
舛	-11.1139
迺	-11.1142
白鷗	-11.1142
賄	-11.1142
平陽	-11.1143
本此	-11.1145
㢘	-11.1146
亳	-11.1147
巵	-11.1147
牛羊	-11.1148
蓼	-11.1148
秋毫	-11.1148
檐	-11.1148
元和郡縣志	-11.1148
郞中	-11.1149
忠義	-11.115
騮	-11.115
絺	-11.1151
鵷	-11.1151
囀	-11.1152
盲	-11.1152
王侯	-11.1157
之役	-11.1157
夢符曰右按	-11.1158
玉壺	-11.116
錢塘	-11.1161
垠	-11.1175
為政	-11.1178
墨子	-11.1178
寄書	-11.1181
康樂	-11.1183
龍泉	-11.1186
昔年	-11.1194
矣夫	-11.1195
花下	-11.1198
方知	-11.1202
縉	-11.1202
磯	-11.1203
公自言	-11.1208
廟堂	-11.1208
集注	-11.1208
迂	-11.121
証	-11.121
窆	-11.1211
刳	-11.1212
蟋蟀	-11.1214
躭	-11.1216
送韋	-11.1216
癖	-11.1216
㡌	-11.1216
璫	-11.1217
撞	-11.1217
三分	-11.1217
濆	-11.122
顦顇	-11.122
道源注	-11.1221
史思明	-11.1224
陳平	-11.1241
落落	-11.1243
六國	-11.1249
明鏡	-11.1254
途窮	-11.1257
四望	-11.1258
靈臺	-11.1258
磊	-11.1262
白樂天	-11.1262
營田	-11.1268
尅	-11.1269
孺子	-11.1269
瘁	-11.1269
夫婦	-11.1273
憾	-11.1274
赫赫	-11.1274
幘	-11.1276
王府	-11.1277
刷	-11.1278
森森	-11.1279
相連	-11.1279
幃	-11.128
▁史記	-11.128
竪	-11.1281
頰	-11.1281
縹緲	-11.1281
熏	-11.1283
荆公	-11.1284
其力	-11.1287
用心	-11.1304
無功	-11.1305
年八月	-11.1309
祭文	-11.1309
雍州	-11.131
夫子之	-11.131
琴瑟	-11.1311
圖畫	-11.1314
著作	-11.1317
齊梁	-11.1317
旣而	-11.1326
張氏	-11.1331
窮愁	-11.1334
可觀	-11.1338
覈	-11.1339
州剌史	-11.1339
隠居	-11.134
穗	-11.134
朂	-11.1342
後宫	-11.1342
炬	-11.1346
因循	-11.1346
諸家	-11.1346
河内	-11.1346
潼關	-11.1347
昔在	-11.1348
金銀	-11.135
寳應	-11.1351
羅敷	-11.1352
安石	-11.1352
嫂	-11.1352
崔旰	-11.1356
但恐	-11.1358
賦得	-11.136
來朝	-11.1363
幽明	-11.1363
絶域	-11.1366
首陽	-11.1369
之境	-11.1371
蕭索	-11.1372
元九	-11.1376
不仕	-11.1381
翠羽	-11.1385
魯曰	-11.139
尊號	-11.1395
南望	-11.1396
欲使	-11.1396
臨川	-11.1397
債	-11.1398
之道也	-11.1398
光彩	-11.1398
荆楚	-11.14
買臣	-11.1403
療	-11.1404
僣	-11.1405
年二月	-11.1405
疚	-11.1406
化爲	-11.1406
東道	-11.1409
抜	-11.141
遯	-11.141
璣	-11.1411
髓	-11.1411
騏驥	-11.1413
宋之問	-11.1413
珥	-11.1413
西來	-11.1415
黄鵠	-11.1418
白蓮	-11.142
筋力	-11.142
毬	-11.1422
文苑英	-11.1424
憐君	-11.1427
太一	-11.1428
即日	-11.1429
所以為	-11.1431
堯之	-11.1432
東林	-11.1434
昔時	-11.1435
郴州	-11.1435
卿等	-11.1436
青溪	-11.1442
轉蓬	-11.1449
前日	-11.1452
秋雨	-11.1452
之禍	-11.1455
上黨	-11.1458
古木	-11.1465
曹公	-11.1468
繕	-11.1469
蚩	-11.1471
何須	-11.1471
竅	-11.1472
酈	-11.1474
東漢	-11.1474
雜詩	-11.1475
至徳二載	-11.1475
垍	-11.1475
舫	-11.1476
跌	-11.1476
捲	-11.1478
苕	-11.1478
豚	-11.1478
桴	-11.1478
藕	-11.1478
漢官儀	-11.1478
躓	-11.1479
繭	-11.1479
鯨鯢	-11.148
嚼	-11.1481
鯉魚	-11.1482
鼓吹	-11.1483
前件	-11.1486
青城	-11.1489
風煙	-11.149
挽歌	-11.1493
和平	-11.1497
赤松	-11.1503
少時	-11.1511
荷花	-11.1512
紅塵	-11.1516
入秦	-11.1525
齊人	-11.1528
嫗	-11.1532
峴	-11.1534
岷山	-11.1535
少監	-11.1536
辦	-11.1537
刑部侍郎	-11.1537
沙門	-11.1538
貔	-11.1538
吝	-11.1541
大宛	-11.1542
駙馬	-11.1543
吊	-11.1544
纖	-11.1544
十六年	-11.1546
不䏻	-11.1546
萎	-11.1547
水陸	-11.1551
戎狄	-11.1552
損益	-11.1555
烏鵲	-11.1555
盧注	-11.156
弱冠	-11.1562
感恩	-11.1565
志氣	-11.157
便是	-11.1572
錦城	-11.1573
三巻	-11.1574
緑水	-11.1584
依前	-11.1584
風雷	-11.1588
形如	-11.159
釣魚	-11.1592
隍	-11.1595
栁州	-11.1595
仞	-11.1597
無端	-11.1598
尋陽	-11.1598
顆	-11.1603
估	-11.1604
瘠	-11.1604
澈	-11.1604
雲霞	-11.1605
衿	-11.1605
庠	-11.1605
長松	-11.1606
馥	-11.1607
小臣	-11.1607
沫	-11.1609
珉	-11.161
茅茨	-11.161
䨇	-11.161
悴	-11.161
芥	-11.161
初學記	-11.1612
伏見	-11.1614
元和四年	-11.1615
杏花	-11.1616
芹	-11.1616
変	-11.1616
蕨	-11.1617
在蜀	-11.1618
從史	-11.1618
越州	-11.1618
函谷	-11.1618
延齡	-11.1619
元和五年	-11.162
涎	-11.1623
半夜	-11.1624
青瑣	-11.1627
湖州	-11.1631
困於	-11.1633
伏望	-11.1636
林中	-11.1638
家家	-11.1644
豈得	-11.1647
青冥	-11.1647
色如	-11.1653
之家	-11.1655
幕中	-11.1665
稟	-11.1665
萬户	-11.1666
菌	-11.1667
䟦	-11.1669
燕雀	-11.167
鐫	-11.1672
僑	-11.1672
同中書門下平章事	-11.1673
峡	-11.1675
詆	-11.1675
舩	-11.1676
霓裳	-11.1676
募	-11.1676
遑	-11.1677
娃	-11.1678
驩	-11.1681
畒	-11.1681
因寄	-11.1681
鵶	-11.1681
襦	-11.1682
恐非	-11.1682
玉京	-11.1684
顗	-11.1685
豈敢	-11.1685
山僧	-11.1685
遟	-11.1685
嫋嫋	-11.1687
醉中	-11.1688
聲名	-11.169
悲風	-11.1697
指揮	-11.1697
空餘	-11.1697
失所	-11.1698
開成	-11.1708
瑶池	-11.1711
音義	-11.1717
恐懼	-11.1722
岐路	-11.1724
塵土	-11.1724
檝	-11.1727
五更	-11.1727
白衣	-11.1734
韵	-11.1736
時危	-11.1738
可考	-11.1739
廡	-11.1739
鼙	-11.174
拂衣	-11.1741
三百里	-11.1742
西園	-11.1742
璜	-11.1743
漬	-11.1744
盻	-11.1746
紘	-11.1749
細雨	-11.175
經術	-11.1751
太華	-11.1752
永貞元年	-11.1752
泣血	-11.1756
大厯三年	-11.176
光弼	-11.1763
鹿門	-11.1765
伯樂	-11.1766
白鹿	-11.1767
涼風	-11.1769
皆非	-11.1769
薄暮	-11.1782
晉侯	-11.1785
平明	-11.1787
六十里	-11.1791
五嶺	-11.1792
髙適	-11.1796
頓首頓首	-11.1803
瞑	-11.1806
還京	-11.1806
魅	-11.181
瓘	-11.1811
悄	-11.1812
埸	-11.1812
燠	-11.1813
枯槁	-11.1814
其性	-11.1815
僵	-11.1815
朶	-11.1815
風飄	-11.1816
睨	-11.1816
袴	-11.1816
鶚	-11.1817
霏霏	-11.1817
燥	-11.1817
多難	-11.1817
近臣	-11.1817
幔	-11.1818
常恐	-11.1823
杖藜	-11.1824
俯仰	-11.1825
九齡	-11.1831
德輿	-11.1837
磊落	-11.1838
奏事	-11.184
蘭若	-11.1841
詩句	-11.1842
榮枯	-11.1846
永泰	-11.1846
以慰	-11.1847
光景	-11.1856
疾病	-11.1863
必先	-11.1866
四十年	-11.1872
率土	-11.1873
贇	-11.1874
燿	-11.1876
號令	-11.1876
余曰	-11.1879
䘏	-11.1879
痩	-11.1881
君看	-11.1881
滕	-11.1882
年九月	-11.1882
謌	-11.1883
彈琴	-11.1883
執誼	-11.1886
湄	-11.1888
箏	-11.1888
命駕	-11.189
白紵	-11.1895
首句	-11.1896
文詞	-11.1896
者歟	-11.1901
忽見	-11.1902
樹下	-11.1903
方士	-11.1904
阮籍詩	-11.1906
契丹	-11.1908
雲端	-11.1919
紫泥	-11.192
遲暮	-11.1923
世孫	-11.1925
亞之	-11.1929
前賢	-11.1933
荀子	-11.194
詠懷	-11.1944
京邑	-11.1944
鉢	-11.1944
憇	-11.1948
琦	-11.1949
巍	-11.195
𥙿	-11.1952
送崔	-11.1953
瑰	-11.1953
糾	-11.1953
紋	-11.1953
吕氏春秋	-11.1953
世系表	-11.1954
形勢	-11.1956
柘	-11.1956
鵾	-11.1957
梁權道編在	-11.1958
孟浩然	-11.1959
西郊	-11.1959
雲卿	-11.1961
江亭	-11.1966
上國	-11.1969
聖德	-11.1973
安南	-11.1978
牢落	-11.1984
孟郊	-11.1984
登高	-11.1987
三台	-11.199
杜牧	-11.1992
飛揚	-11.1993
看花	-11.1993
所稱	-11.1994
凡三	-11.1995
宇文	-11.1996
樽酒	-11.1998
諸本作	-11.1999
二十餘	-11.2001
花枝	-11.2009
中宵	-11.2014
鐸	-11.2014
愷	-11.2015
頭上	-11.2016
酤	-11.2017
秋來	-11.2018
企	-11.202
十韻	-11.2021
杪	-11.2022
贅	-11.2023
瘵	-11.2023
海隅	-11.2026
晤	-11.2026
氊	-11.2027
不得不	-11.2037
不厭	-11.2048
不利	-11.2048
兼呈	-11.2048
杜甫詩	-11.2052
也莊子	-11.2056
城門	-11.206
河源	-11.2066
直上	-11.2066
玉壘	-11.2067
大功	-11.2068
八百	-11.2068
大父	-11.2069
書勑	-11.207
答曰	-11.2072
苦辛	-11.2073
勤勞	-11.2073
遣興	-11.2074
太古	-11.208
七夕	-11.208
巍巍	-11.2083
懐古	-11.2086
台州	-11.2086
擎	-11.2087
蛩	-11.209
無疆	-11.2092
忠州	-11.2092
佗	-11.2093
漪	-11.2094
列仙傳	-11.2095
櫓	-11.2095
撼	-11.2096
拏	-11.2097
郡齋	-11.2097
不可見	-11.2099
相待	-11.2102
來往	-11.2103
年十月	-11.2107
夫何	-11.2108
禍福	-11.2113
制度	-11.2114
子夏	-11.2117
元元	-11.2118
滿堂	-11.2121
戸部	-11.2125
軍旅	-11.213
遺跡	-11.2134
平原君	-11.2135
韓氏	-11.214
西河	-11.2143
禄山反	-11.2146
花發	-11.2147
矣哉	-11.2147
▁左傳	-11.2153
其罪	-11.2156
墊	-11.2157
樗	-11.2159
賜緋魚袋	-11.216
牡	-11.216
願得	-11.2162
嚬	-11.2162
唐六典	-11.2165
脈	-11.2167
喘	-11.2167
努力	-11.2169
代祖	-11.2173
螢火	-11.2174
山頭	-11.2175
鴟夷	-11.2179
武威	-11.2182
無益	-11.2184
各自	-11.2187
李膺	-11.2194
祭酒	-11.2195
易水	-11.2197
通志	-11.22
良馬	-11.2201
師曰甫	-11.2203
詞賦	-11.2204
往事	-11.221
吾廬	-11.2211
主客	-11.2211
戰伐	-11.2215
盧氏	-11.2217
智者	-11.2218
泠	-11.2218
雪霜	-11.2219
身後	-11.222
廣雅	-11.2224
曹參軍	-11.2226
凌雲	-11.2227
鳥道	-11.2227
逗	-11.2229
牛馬	-11.223
脣	-11.223
白楊	-11.2231
潼	-11.2233
滄溟	-11.2234
萬姓	-11.2235
攫	-11.2235
泠泠	-11.2236
槃	-11.2236
綦	-11.2237
潄	-11.2238
耐	-11.2238
閣本作	-11.2239
張平子	-11.2239
皎皎	-11.2239
貼	-11.2239
自由	-11.2243
孔雀	-11.2244
葛洪	-11.2246
戲贈	-11.2248
賢愚	-11.2248
黄昏	-11.225
廣成	-11.2251
東陽	-11.2256
廣大	-11.2257
流血	-11.226
烟霞	-11.2261
幽獨	-11.2268
施於	-11.2278
桂枝	-11.2283
東宫	-11.2294
睿宗	-11.2296
熒	-11.2296
愛人	-11.2296
孱	-11.2299
薛云	-11.23
逖	-11.2303
徤	-11.2304
輞川	-11.2305
処	-11.2306
湓	-11.2307
牝	-11.2307
不妨	-11.2307
在䕫州	-11.2308
耿耿	-11.2312
翺翔	-11.2313
偃蹇	-11.2314
纜	-11.2315
常州	-11.2316
顧我	-11.2316
悲歌	-11.232
徴君	-11.2321
本朝	-11.2325
縣丞	-11.233
少室	-11.2331
必能	-11.2335
萬丈	-11.2336
驤	-11.2336
百餘里	-11.2337
如絲	-11.2338
報國	-11.2339
食邑	-11.234
黄庭	-11.2348
楊氏	-11.2351
梁州	-11.2352
思量	-11.2354
宜春	-11.2357
竹杖	-11.2357
滿眼	-11.2358
也然則	-11.236
秦川	-11.2365
銀青光禄大夫	-11.2371
岌	-11.2371
寝	-11.2372
萱	-11.2374
孔安國	-11.2375
鏃	-11.2377
胤	-11.2377
中書侍郎	-11.2377
聫	-11.2379
蜃	-11.238
蔕	-11.2381
尚饗祭	-11.2381
南樓	-11.2382
肴	-11.2382
芟	-11.2382
擣	-11.2383
對雪	-11.2385
承天	-11.2386
崒	-11.2386
九首	-11.2388
舊宅	-11.2389
孫綽	-11.2389
洪濤	-11.239
芋	-11.239
北望	-11.2392
安禄山	-11.2395
秋霜	-11.2398
南嶽	-11.24
前篇	-11.2401
席上	-11.2402
年間	-11.2412
延陵	-11.2417
耒陽	-11.2426
才名	-11.2429
惜别	-11.2433
出守	-11.2435
風雪	-11.2435
連天	-11.2438
河洛	-11.2446
諫議大夫	-11.2446
玷	-11.2447
尖	-11.2449
燔	-11.2449
倖	-11.245
棃	-11.245
晳	-11.2451
緡	-11.2452
烱	-11.2452
南陵	-11.2453
伶	-11.2454
子貢	-11.2455
絆	-11.2456
四載	-11.2457
囷	-11.2458
沽酒	-11.246
瘡痍	-11.246
柝	-11.2461
鄭𤣥	-11.2461
月十五日	-11.2468
紅顔	-11.2472
無罪	-11.2472
謝眺	-11.2475
九華	-11.2477
往復	-11.2477
移居	-11.2486
也〇趙曰	-11.249
八荒	-11.2491
鳥鳴	-11.2494
天下之人	-11.2497
思禮	-11.2499
忘機	-11.2505
兵革	-11.2507
逸人	-11.2509
其弟	-11.251
后土	-11.2512
彂	-11.2514
濟南	-11.2516
愁思	-11.2517
崗	-11.2519
亰	-11.252
摽	-11.252
傭	-11.2523
螺	-11.2523
扼	-11.2524
暎	-11.2524
繹	-11.2524
瀛洲	-11.2524
盂	-11.2524
武德	-11.2525
吉凶	-11.2525
頔	-11.2528
友生	-11.2528
茨	-11.2529
玉泉	-11.253
頤	-11.253
涿	-11.2532
爱	-11.2534
周穆王	-11.2536
馬融	-11.2538
秦皇	-11.254
封疆	-11.254
城闕	-11.2542
鄠	-11.2545
洙曰莊子	-11.2547
陸渾	-11.2549
他時	-11.2551
某官某	-11.2552
逆旅	-11.2554
鏡湖	-11.2554
顔子	-11.256
乗輿	-11.2562
耆舊	-11.2563
歲時	-11.2565
池中	-11.2566
不祥	-11.2569
天寳十	-11.257
茫然	-11.2572
故里	-11.2572
鄂州	-11.2577
天機	-11.2584
木葉	-11.2584
周易	-11.2586
西漢	-11.2591
娱	-11.2591
讜	-11.2594
怜	-11.2595
扆	-11.2596
鶉	-11.2596
白骨	-11.2596
登封	-11.2597
殱	-11.2597
尚可	-11.2597
唇	-11.2598
坻	-11.26
佯	-11.26
聖君	-11.26
慊	-11.2601
薬	-11.2601
貟外郎	-11.2602
譁	-11.2603
令狐相公	-11.2603
顔延之	-11.2604
纍纍	-11.2604
供養	-11.2607
杳杳	-11.2611
離憂	-11.2615
維年月日	-11.2615
何遜	-11.2621
庶子	-11.2632
恩澤	-11.2633
二妃	-11.2633
石頭	-11.2644
隴頭	-11.2644
八首	-11.2645
邊城	-11.2648
八駿	-11.2651
其勢	-11.2657
不廢	-11.2658
八尺	-11.2664
魚復	-11.2667
徭	-11.2669
菽	-11.2671
愿	-11.2672
飭	-11.2672
百憂	-11.2674
陲	-11.2675
王喬	-11.2676
沈佺期	-11.2677
瘳	-11.2677
瘧	-11.2678
酩酊	-11.2678
元和十四年	-11.2679
氛氲	-11.268
浙西	-11.2681
纛	-11.2682
彭蠡	-11.2683
氓	-11.2686
杏園	-11.2686
紫綬	-11.2686
郊祀	-11.2695
所著	-11.2695
叔向	-11.2697
蜀州	-11.2699
報恩	-11.2701
可愛	-11.2714
東郊	-11.2716
蜀志	-11.2716
曆	-11.272
見示	-11.2721
月滿	-11.2721
軍節度使	-11.2722
第六	-11.2725
崇文	-11.2728
林寺	-11.2729
明星	-11.2731
黄門	-11.2731
漢魏	-11.2734
雲雷	-11.2736
外集	-11.2737
奨	-11.2739
淄	-11.2739
仐	-11.274
魔	-11.274
鄭康成	-11.2741
寞	-11.2741
踴躍	-11.2742
中庸	-11.2742
舊國	-11.2742
畤	-11.2743
昴	-11.2745
塹	-11.2746
一種	-11.2746
桷	-11.2746
酋	-11.2747
眼中	-11.2749
啜	-11.2749
烜	-11.275
翥	-11.275
掌書記	-11.2751
昆弟	-11.2751
㤀	-11.2753
諺	-11.2753
獠	-11.2755
寥寥	-11.2755
定功曰	-11.2755
辤	-11.2756
猱	-11.2757
葬于	-11.2757
終當	-11.276
送僧	-11.2762
只是	-11.2767
臨淮	-11.2769
其類	-11.2776
山澤	-11.2779
伏乞	-11.278
服䖍	-11.2782
羽儀	-11.2787
野老	-11.279
穆王	-11.2794
十數	-11.2796
清淨	-11.2797
烈士	-11.2807
榴	-11.2809
稼穡	-11.2812
瀟	-11.2816
荆軻	-11.2816
法華經	-11.2818
殤	-11.2818
覬	-11.2819
脯	-11.2819
松竹	-11.2819
長安志	-11.282
柩	-11.2821
称	-11.2823
嗷嗷	-11.2823
聶	-11.2824
跖	-11.2825
膓	-11.2825
𥙷闕	-11.2825
据	-11.2826
羆	-11.2827
長吉	-11.2829
相呼	-11.283
之義也	-11.283
廣德二年	-11.2831
魴	-11.2831
秃	-11.2833
三章	-11.2834
避暑	-11.2836
孫權	-11.2836
鮑叔	-11.2842
各一	-11.2848
積水	-11.2853
神靈	-11.2854
嵗時	-11.2855
養生	-11.2862
杭本作	-11.2867
草色	-11.2871
存焉	-11.2873
昊天	-11.2873
北堂	-11.2879
未嘗不	-11.2885
蠢	-11.2889
憂國	-11.2891
彚	-11.2894
怖	-11.2895
莅	-11.2897
汲汲	-11.2898
翎	-11.2898
删	-11.2902
圯	-11.2902
丹墀	-11.2902
飫	-11.2903
蚊	-11.2903
仆	-11.2903
椀	-11.2903
不假	-11.2905
廊廟	-11.291
青鳥	-11.291
仲舒	-11.2922
石榴	-11.2925
率府	-11.2926
可知也	-11.2933
開府	-11.2935
司農	-11.2937
聖慈	-11.2945
百草	-11.2949
殊方	-11.2951
園中	-11.2954
永安	-11.2954
制誥	-11.2958
劉表	-11.2958
所適	-11.2961
葬於	-11.2964
本末	-11.2964
對月	-11.2967
收復	-11.2967
可否	-11.2967
長洲	-11.2971
凭	-11.2973
九原	-11.2974
諤	-11.2975
霈	-11.2975
塚	-11.2975
驃騎	-11.2975
刑部尚書	-11.2976
都邑	-11.2976
迢遞	-11.2978
畎	-11.298
王羲之	-11.298
棟宇	-11.2981
天文志	-11.2981
圜	-11.2982
啖	-11.2984
蒯	-11.2985
淼	-11.2985
豪傑	-11.2986
朝宗	-11.2987
白屋	-11.299
故宅	-11.2991
胡笳	-11.2992
疇昔	-11.3
首章	-11.3
鄉人	-11.3001
非常之	-11.3011
漢文帝	-11.3012
終古	-11.3021
長驅	-11.3024
西閣	-11.3027
宋本	-11.3027
虚空	-11.3029
璽	-11.303
光隂	-11.3032
應劭	-11.3034
欣然	-11.3042
隴西李	-11.3045
都統	-11.3048
㐫	-11.3049
泚	-11.305
抄	-11.3051
掬	-11.3051
莒	-11.3053
臉	-11.3054
赴任	-11.3054
圻	-11.3056
蠡	-11.3057
礫	-11.3058
瞿唐	-11.3067
後主	-11.307
仰天	-11.307
嘆息	-11.3071
戰國	-11.3073
唐書地理志	-11.3076
勸君	-11.3079
縣西北	-11.3081
驅馳	-11.3082
清廟	-11.3082
李相公	-11.3085
呉王	-11.3087
表裏	-11.309
甘泉賦	-11.3091
龍鱗	-11.3091
今夕	-11.3093
十有二	-11.3098
西蜀	-11.31
登科	-11.3104
大厯二	-11.3105
支離	-11.3112
縣界	-11.3112
聦	-11.3118
莊周	-11.312
梁簡文帝	-11.3121
弈	-11.3122
文雅	-11.3124
闗山	-11.3124
顔師古註	-11.3125
榮華	-11.3126
糓	-11.3126
湮	-11.3128
或問	-11.3128
欎	-11.3129
是歲	-11.3129
輈	-11.313
曇	-11.3131
笞	-11.3132
今兹	-11.3132
篠	-11.3132
蹟	-11.3133
礎	-11.3134
䧏	-11.3134
襪	-11.3134
兼侍御史	-11.3134
洛城	-11.3134
濩	-11.3135
綾	-11.3136
廻首	-11.3137
喫	-11.3137
轟	-11.3137
螻蟻	-11.3137
攢	-11.3138
盌	-11.3138
秦漢	-11.3142
鴞	-11.3143
蒼苔	-11.3143
夢寐	-11.3145
石鏡	-11.3146
斗酒	-11.3146
負薪	-11.3146
三湘	-11.3147
誰復	-11.3148
髙枕	-11.3151
三十五	-11.3151
卿相	-11.3154
夜宿	-11.3165
暮雨	-11.3168
梁武帝	-11.3169
冀州	-11.3172
殿前	-11.3173
前輩	-11.3183
都官	-11.3188
不得已	-11.3193
原野	-11.3201
微臣	-11.3202
重疊	-11.3204
驄馬	-11.3205
五侯	-11.3206
懈	-11.3208
鄊	-11.3208
鋩	-11.3212
而為之	-11.3213
甍	-11.3213
史官	-11.3214
盎	-11.3214
雩	-11.3214
鐃	-11.3214
廣德元年	-11.3216
毳	-11.3217
芝蘭	-11.322
元和九年	-11.3221
宣室	-11.3222
蛟螭	-11.3223
賜臣	-11.3225
總管	-11.3226
泥塗	-11.3227
狂歌	-11.3232
雙飛	-11.3232
漢宫	-11.3235
麟閣	-11.3236
風俗通	-11.3236
吹笙	-11.3239
前代	-11.3243
寒泉	-11.3243
曹操	-11.3247
悠然	-11.3249
羅衣	-11.3251
悲夫	-11.3257
太平之	-11.3258
句句	-11.3259
獨往	-11.3269
絲竹	-11.3274
源明	-11.3276
漢祖	-11.3277
入室	-11.3277
監軍	-11.3278
劭	-11.328
荐	-11.3285
嘗聞	-11.3287
性情	-11.3287
窈	-11.3289
扞	-11.3291
蜿	-11.3291
㾗	-11.3291
左散騎常侍	-11.3292
啞	-11.3292
阡陌	-11.3292
綂	-11.3293
缾	-11.3294
臠	-11.3294
縣東南	-11.3295
籖	-11.3296
文維	-11.3296
汀洲	-11.3298
蒹葭	-11.3298
珊	-11.33
雷電	-11.3309
勺	-11.3312
潞	-11.3315
▁此章	-11.3318
庶人	-11.3319
太常卿	-11.332
西海	-11.332
清涼	-11.3323
暮年	-11.3323
鼎湖	-11.3326
滎	-11.3336
送友人	-11.334
▁莊子	-11.3341
金紫	-11.3347
馮唐	-11.3347
文苑作	-11.335
卿士	-11.3351
喪亂	-11.3355
鶴注此	-11.3363
璿	-11.3363
犧	-11.3363
白璧	-11.3364
洪州	-11.3365
億兆	-11.3366
僭	-11.3369
塜	-11.3369
俶	-11.337
净	-11.337
漱	-11.337
娯	-11.3372
醴泉	-11.3373
斸	-11.3373
五代	-11.3374
賀知章	-11.3374
侃	-11.3375
李尚書	-11.3375
瑶臺	-11.3378
軒冕	-11.3378
盥	-11.3379
垂拱	-11.3382
淵明	-11.3384
振武	-11.3384
禹穴	-11.3385
昇平	-11.3387
年月日	-11.3389
南都賦	-11.34
天地間	-11.3401
伊闕	-11.3404
慶雲	-11.341
㡬時	-11.341
通籍	-11.342
佛寺	-11.3431
故郷	-11.3434
何曾	-11.3435
結交	-11.3436
造次	-11.3436
祧	-11.3436
豳	-11.3439
外物	-11.3439
其詞曰	-11.344
東征	-11.3441
紅葉	-11.3442
湘江	-11.3442
痊	-11.3444
▁朱注	-11.3444
牛渚	-11.3445
轉運	-11.3445
謩	-11.3448
平叔	-11.3448
婆娑	-11.3449
腴	-11.345
纊	-11.3452
俘	-11.3454
腕	-11.3456
塡	-11.3456
逓	-11.3456
霹靂	-11.3457
近世	-11.3457
鼉	-11.3458
粘	-11.3459
孔氏	-11.3462
洋洋	-11.3463
劉楨	-11.3464
招討	-11.3465
吹簫	-11.3466
翰墨	-11.347
雞犬	-11.347
梁園	-11.347
日斜	-11.3471
昭昭	-11.3474
櫻	-11.3474
禮儀	-11.3487
逢迎	-11.349
無消息	-11.349
垂釣	-11.35
獻納	-11.3502
陌上	-11.3507
聖徳	-11.3507
貞元中	-11.3512
泉石	-11.3521
邦國	-11.3525
垂楊	-11.3526
櫟	-11.3527
燄	-11.3529
澣	-11.3531
縠	-11.3531
斟	-11.3531
衒	-11.3532
謠	-11.3533
嗣子	-11.3533
舷	-11.3534
京口	-11.3535
突兀	-11.3537
尚饗	-11.3539
好惡	-11.3539
鎩	-11.3541
短褐	-11.3542
暍	-11.3542
誰憐	-11.3543
協律	-11.3544
見招	-11.3544
妝	-11.3545
旦夕	-11.3546
汗血	-11.3547
許由	-11.3552
伏波	-11.3552
都督府	-11.3556
不啻	-11.3559
州别駕	-11.3565
離離	-11.3566
尚存	-11.3567
曽子	-11.3567
髙卧	-11.3572
睦州	-11.3574
南郊	-11.3578
精舍	-11.3579
千百	-11.3581
泥沙	-11.3583
流俗	-11.3586
五載	-11.3587
百辟	-11.3597
天際	-11.3597
數萬	-11.36
錡	-11.3603
在京師	-11.3604
橐	-11.3608
考異	-11.3611
鴛鷺	-11.3612
蝗	-11.3613
慼	-11.3613
滔滔	-11.3614
視聽	-11.3617
藿	-11.3617
▁楚辭	-11.3619
麄	-11.3619
攪	-11.3619
五百里	-11.3619
㴱	-11.3619
大鵬	-11.362
櫛	-11.3621
鸞鳯	-11.3622
啾啾	-11.3622
貿	-11.3623
年四月	-11.3623
秋夕	-11.3625
駝	-11.3625
頭陀	-11.3628
釋名	-11.363
舉手	-11.3634
聞奏	-11.3643
四鄰	-11.3644
侍臣	-11.3645
淮隂	-11.3651
黔中	-11.3657
西域傳	-11.3669
大怒	-11.367
閭里	-11.3678
温泉	-11.368
客愁	-11.3682
不寐	-11.3685
國子祭酒	-11.369
顓	-11.3691
矚	-11.3691
煙波	-11.3691
遥望	-11.3693
逥	-11.3695
址	-11.3696
諠	-11.3696
繳	-11.3696
彎	-11.3697
鴻臚	-11.3697
㵼	-11.3698
兠	-11.3699
厥後	-11.37
汧	-11.37
琰	-11.3701
詮	-11.3702
瀉	-11.3702
波浪	-11.3702
㒷	-11.3702
荼	-11.3702
幌	-11.3703
偪	-11.3703
汨	-11.3704
㝠㝠	-11.3704
刘	-11.3705
蒲萄	-11.3707
皇極	-11.371
李賀	-11.3711
石橋	-11.3712
聦明	-11.3714
舊本作	-11.3718
髙僧	-11.3719
淺深	-11.3725
凄凄	-11.3726
金閨	-11.3727
司勲	-11.3737
吹笛	-11.3738
紫雲	-11.3746
和親	-11.3747
世亂	-11.3748
參謀	-11.3749
金剛	-11.3754
罍	-11.3755
數千里	-11.3756
職方	-11.3759
唐興	-11.3761
照耀	-11.3765
籥	-11.3769
苐	-11.3772
騐	-11.3773
肱	-11.3778
甘心	-11.3778
兵部侍郎	-11.3779
拳拳	-11.3779
贓	-11.378
極目	-11.378
箔	-11.3781
戶	-11.3781
皐	-11.3782
蹀	-11.3782
鱣	-11.3783
集賢院	-11.3783
菴	-11.3784
屹	-11.3784
狙	-11.3784
會稽	-11.3786
揜	-11.3787
絃歌	-11.3788
戞	-11.3788
元和六年	-11.3791
嵓	-11.3792
印綬	-11.3792
霖雨	-11.3795
開封	-11.3802
五尺	-11.3804
亭午	-11.3804
蔓草	-11.3807
經濟	-11.3809
七首	-11.381
祭祀	-11.3811
偶題	-11.3812
堂前	-11.3816
送鄭	-11.3818
他年	-11.3818
掃地	-11.3818
展轉	-11.3818
國夫人	-11.3819
十三載	-11.3823
赤壁	-11.3824
顔師古	-11.383
建封	-11.3836
父兄	-11.3838
南面	-11.384
可畏	-11.3841
陽侯	-11.385
不得巳	-11.3851
北渚	-11.3852
堙	-11.3858
園林	-11.3859
㳙	-11.386
鬂	-11.3861
摯	-11.3861
元氏長慶集卷第	-11.3862
銓	-11.3863
表臣某言	-11.3863
昨者	-11.3863
暈	-11.3864
粥	-11.3866
挐	-11.3866
出峽	-11.3867
攣	-11.3868
怱	-11.3868
甘棠	-11.3869
惹	-11.387
里閭	-11.3871
何曽	-11.3871
暾	-11.3871
篙	-11.3872
聖恩	-11.3874
桓温	-11.388
鷗鳥	-11.3882
碧樹	-11.3883
部落	-11.3885
匡山	-11.3888
年七月	-11.389
險阻	-11.3893
精靈	-11.3894
吾兄	-11.3899
助教	-11.3902
邵注	-11.3902
少壯	-11.3903
八十里	-11.3905
西樓	-11.3906
金波	-11.3914
客星	-11.3922
形勝	-11.3926
奉寄	-11.3927
庭樹	-11.3934
龍池	-11.3934
忘情	-11.3941
防禦	-11.3942
賚	-11.3943
謟	-11.3944
王者之	-11.3945
戰國䇿	-11.3948
哥舒	-11.3948
華夷	-11.3949
戣	-11.395
擯	-11.395
嫖姚	-11.395
嬖	-11.3951
甃	-11.3953
蒐	-11.3953
吠	-11.3954
櫂	-11.3954
愕	-11.3955
号	-11.3955
戚戚	-11.3956
琥珀	-11.3956
銀河	-11.3956
咿	-11.3957
櫬	-11.3958
禇	-11.3959
耘	-11.396
漂泊	-11.3962
昆明池	-11.3962
州牧	-11.3968
不可勝	-11.3969
衡門	-11.3976
夷陵	-11.3976
郡國志	-11.3991
如之何	-11.3995
陳許	-11.4
側身	-11.4005
太真	-11.4007
小吏	-11.401
巴西	-11.4011
府君諱	-11.4012
差池	-11.4014
文翁	-11.4021
萬夫	-11.4024
南斗	-11.4027
紏	-11.4033
仭	-11.4033
刖	-11.4033
鶡	-11.4033
五嶽	-11.4033
鹽鐵	-11.4034
橘柚	-11.4034
賑	-11.4034
匍匐	-11.4035
熠	-11.4035
忽憶	-11.4036
郤	-11.4036
天台山	-11.4036
鈆	-11.4037
膾	-11.4039
桑榆	-11.404
鍔	-11.4041
稍稍	-11.4041
蔡琰	-11.4042
鴻鵠	-11.4043
㕘軍	-11.4044
左太冲	-11.4046
栁子厚	-11.4048
元和二年	-11.4048
憶昨	-11.405
土木	-11.4053
不可得而	-11.4058
林亭	-11.4059
夢符曰	-11.406
涕淚	-11.4062
商州	-11.4066
餓死	-11.4067
諸佛	-11.4068
最髙	-11.4069
靡不	-11.4069
玉盤	-11.407
白頭吟	-11.4072
梨花	-11.4073
伏枕	-11.4073
洞房	-11.4079
豐年	-11.4084
惜哉	-11.4084
洞天	-11.4085
闕庭	-11.4086
應須	-11.4089
二毛	-11.4093
窮通	-11.4096
犬馬	-11.4097
桂陽	-11.4098
西征	-11.41
開襟	-11.4106
同姓	-11.4106
睹	-11.4111
銑	-11.4113
伐木	-11.4113
沛公	-11.4113
比興	-11.4114
赤縣	-11.4115
淒	-11.4115
銀臺	-11.4117
咸通	-11.4117
氏文集卷第	-11.4118
麻姑	-11.4118
禺	-11.4119
瑀	-11.412
暘	-11.412
𫀆	-11.412
繚	-11.4121
璀	-11.4121
斗牛	-11.4121
庾肩吾	-11.4122
殻	-11.4122
君諱	-11.4125
奉和聖製	-11.4125
嵌	-11.4125
裛	-11.4125
爛熳	-11.4125
剗	-11.4126
闋	-11.4126
孫楚	-11.4127
餅	-11.4127
慘澹	-11.4131
黙黙	-11.4132
洙曰前漢	-11.4132
那堪	-11.4133
輝光	-11.4134
景龍	-11.4135
楊國忠	-11.4136
竽	-11.414
誅求	-11.4148
上尊號	-11.4148
茅山	-11.4153
百鳥	-11.4158
童謡	-11.4159
王仲宣	-11.4161
殘月	-11.4181
尙	-11.4186
升堂	-11.419
幽棲	-11.419
孰云	-11.4191
胷中	-11.4197
陵陽	-11.42
夏后	-11.4201
屯田	-11.4202
其弊	-11.4205
倜儻	-11.4206
爼	-11.4207
蘭亭	-11.4209
送楊	-11.421
騃	-11.421
爪牙	-11.4212
爇	-11.4213
斡	-11.4215
顓頊	-11.4216
漁樵	-11.4217
▁唐書	-11.4219
嬋娟	-11.4219
班超	-11.422
棟梁	-11.4223
山鬼	-11.4224
早發	-11.4226
干將	-11.4234
萬嵗	-11.4234
吟詠	-11.4241
懷古	-11.4242
儒術	-11.4244
杭蜀同	-11.4247
原憲	-11.4247
陸賈	-11.425
莫愁	-11.4255
真卿	-11.4259
築城	-11.4261
建康	-11.4261
千仞	-11.4264
郡邑	-11.4264
爽氣	-11.4267
厦	-11.427
敢忘	-11.4271
京洛	-11.4271
臣某言	-11.4275
一盃	-11.4277
宗族	-11.4285
大理評事	-11.429
颷	-11.4292
侑	-11.4293
徊	-11.4293
曦	-11.4295
駈	-11.4295
湊	-11.4295
姒	-11.4296
薜	-11.4297
兵部尚書	-11.4297
霆	-11.4298
义	-11.4299
旟	-11.4301
沙漠	-11.4301
肖	-11.4304
休息	-11.4304
廣徳二年	-11.4304
檀弓	-11.4305
郝	-11.4306
紫閣	-11.4312
五溪	-11.4324
縣西南	-11.4328
汾陽	-11.4331
把酒	-11.4338
知己	-11.4341
高宗	-11.4342
簿書	-11.4347
新唐書	-11.4354
分司東都	-11.4358
糶	-11.4358
而巳矣	-11.4362
洞庭湖	-11.4366
殺身	-11.4369
都護	-11.4377
龍鍾	-11.4379
蹭蹬	-11.438
獨宿	-11.438
譛	-11.438
愠	-11.4381
凰	-11.4381
悄悄	-11.4382
謐	-11.4382
芰	-11.4382
王勃	-11.4383
煩惱	-11.4384
悸	-11.4385
擾擾	-11.4386
朞	-11.4386
涌	-11.4387
山南東道	-11.4388
隸	-11.4389
汰	-11.439
伾	-11.439
貙	-11.439
駁	-11.439
芮	-11.4391
弓矢	-11.4392
猨	-11.4392
堡	-11.4393
罩	-11.4393
良工	-11.4395
超然	-11.4397
昱	-11.4397
秉燭	-11.4398
支遁	-11.4399
南昌	-11.4402
枕上	-11.4403
不倦	-11.4408
大曆	-11.441
往還	-11.4413
左遷	-11.4414
掃除	-11.4423
虞舜	-11.443
邦家	-11.4431
片雲	-11.4432
世俗	-11.4433
斯須	-11.4435
征伐	-11.4438
江村	-11.4439
鳴琴	-11.445
交河	-11.4454
長鯨	-11.4455
空虚	-11.4456
何妨	-11.4457
李邕	-11.4458
晟	-11.4462
無涯	-11.4463
萬邦	-11.4465
惰	-11.4466
醢	-11.4469
楨	-11.4469
薔薇	-11.4471
芍藥	-11.4472
扁	-11.4472
笄	-11.4474
慤	-11.4474
粱	-11.4474
祓	-11.4474
鶩	-11.4474
圉	-11.4475
痼	-11.4476
年十一月	-11.4476
大丈夫	-11.4476
蕉	-11.4477
甑	-11.4477
寶應元年	-11.4478
閼	-11.4478
迤	-11.4478
躰	-11.4481
東西南北	-11.4482
路傍	-11.4487
東郭	-11.4487
捩	-11.4488
庚子	-11.449
陜州	-11.4491
别墅	-11.4492
吳郡	-11.4502
琴操	-11.4506
臣愚	-11.4508
舅氏	-11.4509
伊洛	-11.4511
有所思	-11.4512
石渠	-11.4515
二十韻	-11.4516
柳州	-11.452
諸本皆	-11.4523
朱輪	-11.4524
諸弟	-11.4526
黎元	-11.4528
千丈	-11.4543
浣	-11.4547
潯	-11.455
北庭	-11.4551
佛法	-11.4556
累遷	-11.4557
宣武	-11.4557
邃	-11.4558
開府儀同三司	-11.456
𤣥元	-11.456
蚌	-11.4561
鍜	-11.4561
鼈	-11.4561
遨	-11.4562
䋲	-11.4562
葆	-11.4563
榼	-11.4563
廣武	-11.4565
恍	-11.4565
遒	-11.4566
鄴城	-11.4567
鏑	-11.4567
廂	-11.4567
盱	-11.4568
管子	-11.4568
三輔黄圖	-11.4569
插	-11.4569
綻	-11.4569
鑣	-11.457
猛獸	-11.457
柴扉	-11.457
驄	-11.4574
州司户	-11.4577
宗閔	-11.4578
四座	-11.4579
杯酒	-11.458
哀哀	-11.4588
五岳	-11.459
般若	-11.4592
耆老	-11.4595
異域	-11.4599
樂毅	-11.46
只應	-11.4602
平盧	-11.4608
山岳	-11.4612
甲科	-11.4614
玉帛	-11.462
渭北	-11.4628
其辭曰	-11.4631
不惑	-11.4636
列宿	-11.4636
記室	-11.4641
崧	-11.4646
匏	-11.465
三國志	-11.4652
諂	-11.4652
勛	-11.4653
奏請	-11.4654
刄	-11.4654
壬寅	-11.4657
様	-11.4658
埀	-11.4658
鷦鷯	-11.4659
汁	-11.4659
迢	-11.466
悽愴	-11.466
黄鸝	-11.4662
咄	-11.4663
冨貴	-11.4663
壯心	-11.4663
御溝	-11.4666
根本	-11.4667
郡治	-11.4668
麾下	-11.4678
維舟	-11.4686
追隨	-11.4687
七十二	-11.4693
鴻鴈	-11.4693
東京賦	-11.471
放逐	-11.4717
太極	-11.4718
帝鄉	-11.472
悲鳴	-11.472
祠堂	-11.472
渭南	-11.4723
昆明	-11.4725
金印	-11.4737
西岳	-11.4737
䜟	-11.4737
襄州	-11.474
國子博士	-11.4745
儷	-11.4746
㝢	-11.4746
穉	-11.4747
詡	-11.4748
磔	-11.4748
元和十二年	-11.4748
𡨕	-11.4749
肝膽	-11.4749
大旱	-11.475
仾	-11.4751
淇	-11.4751
嗚咽	-11.4753
䡖	-11.4754
贈崔	-11.4754
泱	-11.4755
耦	-11.4756
沅湘	-11.4758
解嘲	-11.476
想像	-11.4765
忽忽	-11.4769
猿啼	-11.4769
伏願	-11.477
黄鶴樓	-11.4771
武庫	-11.4771
携手	-11.4772
盤石	-11.4773
絶壁	-11.4775
口號	-11.4778
甲第	-11.4779
至京師	-11.4784
歌詠	-11.4785
黄雀	-11.4802
雲梯	-11.4816
聚散	-11.4816
七十里	-11.4819
四十餘	-11.4821
第七	-11.4821
竹枝	-11.4824
酬樂天	-11.4828
朝議郎	-11.483
倉曹	-11.483
從兄	-11.4832
閩中	-11.4833
匹夫	-11.4834
踊躍	-11.4834
愷悌	-11.4836
薜蘿	-11.4836
搗	-11.4836
冬十月	-11.4836
洪譜	-11.4838
罘罳	-11.4839
留侯	-11.4839
譎	-11.484
長慶元年	-11.4841
璟	-11.4841
王嗣奭曰	-11.4844
婿	-11.4844
掎	-11.4845
鉏	-11.4845
洙曰後漢	-11.4849
馬嘶	-11.4852
部曲	-11.4853
太上皇	-11.4856
寡婦	-11.4856
洲渚	-11.4858
芳樹	-11.4861
哀哉	-11.4864
元和三年	-11.4867
門户	-11.4871
李使君	-11.4874
石刻	-11.4876
轅門	-11.4879
女蘿	-11.4884
雜著	-11.4886
童稚	-11.4887
良辰	-11.4891
無垠	-11.4898
不可以不	-11.4906
成都記	-11.4914
虞卿	-11.4916
何䖏	-11.4918
苴	-11.4923
屈平	-11.4927
蓊	-11.4928
犂	-11.4929
貲	-11.493
汲黯	-11.493
蒭	-11.4931
沅	-11.4931
儆	-11.4931
淬	-11.4932
済	-11.4932
仰視	-11.4932
簞	-11.4933
堰	-11.4934
秋興賦	-11.4934
賞罰	-11.4934
悒	-11.4934
􁆁	-11.4935
畵	-11.4936
荻	-11.4936
醅	-11.4938
蟾蜍	-11.4938
穽	-11.4939
鄭餘慶	-11.4939
齊魯	-11.4941
聒	-11.4941
林園	-11.4942
𢎞正	-11.4948
煙塵	-11.4948
纍	-11.4953
諫議	-11.4955
胡騎	-11.4957
大厦	-11.4963
天寳中	-11.4966
曲折	-11.4995
嵗暮	-11.4998
臺閣	-11.5003
郡太守	-11.5007
元和初	-11.5008
智伯	-11.501
綺羅	-11.5011
討論	-11.5012
聖代	-11.5018
奉酬	-11.5019
宓	-11.5022
枻	-11.5024
金粟	-11.5024
經畧	-11.5024
瞳	-11.5025
溉	-11.5025
鷃	-11.5025
怙	-11.5025
闻	-11.5026
鶬	-11.5026
槁	-11.5027
邅	-11.5028
訐	-11.5029
綖	-11.5029
穠	-11.5029
䆳	-11.503
韓詩外傳	-11.503
經略	-11.503
可見矣	-11.5031
煮	-11.5032
子虚賦	-11.5032
戰國策	-11.5032
蘓曰	-11.5033
渝州	-11.5036
布帛	-11.5041
涇渭	-11.5042
旅食	-11.5042
悠哉	-11.5043
逆賊	-11.5046
佳麗	-11.5055
碧落	-11.5056
遺恨	-11.5056
南渡	-11.5057
騷人	-11.5062
繁華	-11.5065
集韻	-11.5071
衛將軍	-11.5072
嚴陵	-11.5094
永貞	-11.5096
臣某言伏奉	-11.5097
愛惜	-11.5103
謹按	-11.5105
妣	-11.5113
㕥	-11.5114
姧	-11.5117
銖	-11.512
江南西道	-11.512
弹	-11.5121
熬	-11.5121
筑	-11.5122
﨑嶇	-11.5123
涔	-11.5123
灃	-11.5124
湜	-11.5124
絲綸	-11.5124
北辰	-11.5125
綢繆	-11.5125
潢	-11.5127
呻	-11.5129
駛	-11.513
渭橋	-11.513
羇旅	-11.513
浣花溪	-11.5131
搢紳	-11.5131
轝	-11.5132
洛神賦	-11.5132
張九齡	-11.5134
澄清	-11.5135
壯觀	-11.5143
太子賔客	-11.5148
羅列	-11.515
採藥	-11.5152
鯨魚	-11.5154
閨門	-11.5154
揚子雲	-11.5155
禮樂志	-11.516
霍光	-11.5175
借用	-11.5178
長安城	-11.5183
呼兒	-11.5187
幽燕	-11.5197
文館	-11.5206
軺	-11.5208
紫塞	-11.521
箜篌	-11.5211
餒	-11.5214
諜	-11.5214
咤	-11.5215
簧	-11.5216
瀚	-11.5216
裨	-11.5217
両	-11.5217
綉	-11.5217
児	-11.5217
崑崙山	-11.5218
徠	-11.5218
爻	-11.5219
紐	-11.5219
魂魄	-11.522
莢	-11.5221
棋	-11.5221
鬐	-11.5221
藐	-11.5222
揀	-11.5222
詬	-11.5223
雌雄	-11.5226
鼯	-11.5227
張景陽	-11.5227
陶侃	-11.5229
珍重	-11.5231
比肩	-11.5233
汗漫	-11.5234
杜預註	-11.5236
慨然	-11.5238
突騎	-11.5239
東都留守	-11.5245
委曲	-11.5246
互相	-11.5252
此之謂	-11.5253
畫圖	-11.5256
餘力	-11.5258
銀漢	-11.5258
溧陽	-11.5258
紫霞	-11.5264
平津	-11.5264
賀蘭	-11.5269
鮫人	-11.5272
切又音	-11.5277
比干	-11.5284
礼記	-11.5284
沙苑	-11.5294
陳蕃	-11.5297
桃林	-11.5307
離羣	-11.5308
悃	-11.5309
狥	-11.5309
丁酉	-11.5311
妖氛	-11.5311
躔	-11.5312
貰	-11.5312
敺	-11.5313
柟	-11.5313
惋	-11.5313
瑯琊	-11.5315
雎	-11.5316
末章	-11.5316
十洲記	-11.5316
集賢殿	-11.5316
罘	-11.5317
肌膚	-11.5317
蝸	-11.5317
灔澦	-11.5319
飛騰	-11.5319
庚申	-11.5319
糠	-11.532
弑	-11.5321
梨園	-11.5322
御批	-11.5322
拗	-11.5323
洶	-11.5324
安慶緒	-11.5325
魏都賦	-11.5326
言之則	-11.5326
鄧州	-11.5326
汨羅	-11.5327
鑿齒	-11.5328
轔	-11.5329
羲皇	-11.533
劉稹	-11.5331
漢郊祀志	-11.5331
前件官	-11.5331
舂陵	-11.5332
旄頭	-11.5333
臨卭	-11.5334
感傷	-11.5335
寶應	-11.5335
劉夢得	-11.5337
李謝校	-11.5339
罔極	-11.534
酒肉	-11.5352
火燒	-11.536
紅粉	-11.536
忠貞	-11.5362
旬日	-11.5366
鼓角	-11.5371
諸儒	-11.5373
餘杭	-11.5377
酒醒	-11.5379
彭州	-11.5386
嘘	-11.5393
主恩	-11.5395
道塲	-11.5396
販	-11.5406
廳	-11.5406
煉	-11.5408
𨳩	-11.5409
譔	-11.541
輓	-11.5412
隟	-11.5413
黽	-11.5414
胝	-11.5414
酹	-11.5414
琮	-11.5418
湥	-11.5422
默	-11.5503
歉	-11.5508
謇	-11.5508
睠	-11.5511
鎔	-11.5511
溥	-11.5512
坰	-11.5512
蹴	-11.5513
壌	-11.5514
伉	-11.5514
核	-11.5515
荇	-11.5517
咆	-11.5517
菑	-11.5519
蝉	-11.5519
跂	-11.5521
匕	-11.5521
撑	-11.5525
恙	-11.5556
瞿	-11.5599
炫	-11.5607
髀	-11.5608
禋	-11.5608
洮	-11.5608
朧	-11.5611
囑	-11.5612
䓁	-11.5613
柵	-11.5613
嚚	-11.5616
襜	-11.5619
蔗	-11.5627
酺	-11.5628
㒺	-11.5702
鶱	-11.5703
朅	-11.5708
撿	-11.5708
门	-11.5709
㨿	-11.5709
銛	-11.571
姝	-11.571
髠	-11.571
壖	-11.571
壕	-11.5711
廖	-11.5712
啾	-11.5713
紺	-11.5713
崤	-11.5713
夐	-11.5714
禊	-11.5715
焰	-11.5715
舶	-11.5717
鮪	-11.5717
潏	-11.5719
閙	-11.5719
柂	-11.5719
顙	-11.5721
錮	-11.5809
祛	-11.581
紓	-11.5812
𣣔	-11.5813
冽	-11.5814
嶲	-11.5814
儕	-11.5815
盾	-11.5815
沱	-11.5816
掀	-11.5817
稗	-11.5817
懵	-11.5818
莘	-11.5818
頺	-11.5818
剰	-11.5819
罽	-11.582
氐	-11.5821
幟	-11.5823
硎	-11.5827
䞇	-11.5901
韞	-11.5904
嗇	-11.5905
曁	-11.5906
款	-11.5915
淩	-11.5915
抒	-11.5916
煌	-11.5917
諮	-11.5918
奐	-11.5918
祲	-11.5919
缶	-11.5919
笥	-11.5919
寖	-11.5921
澀	-11.5922
屡	-11.5922
薙	-11.5922
廿	-11.5924
鸛	-11.5927
捎	-11.5928
諶	-11.5928
晃	-11.593
丱	-11.6017
鯁	-11.6019
㸑	-11.602
咀	-11.602
窒	-11.6021
孑	-11.6021
弇	-11.6022
阨	-11.6022
瞬	-11.6022
埤	-11.6023
笻	-11.6024
恡	-11.6027
槌	-11.6028
霤	-11.6028
罝	-11.603
嶔	-11.603
雒	-11.603
籜	-11.6031
鈔	-11.6122
訂	-11.6122
衲	-11.6122
蝦	-11.6123
剋	-11.6124
鷙	-11.6125
瞥	-11.6127
纏	-11.6128
勣	-11.6129
酲	-11.613
歊	-11.613
騄	-11.6131
隤	-11.6131
裡	-11.6131
蓀	-11.6132
鞋	-11.6132
哮	-11.6133
鞚	-11.614
檠	-11.6142
隰	-11.6222
䂓	-11.6223
訥	-11.6224
渤	-11.6227
葷	-11.6233
櫳	-11.6234
滓	-11.6235
藺	-11.6236
蓐	-11.6236
轢	-11.6238
俚	-11.6239
㯶	-11.624
鶵	-11.6246
溷	-11.6247
梔	-11.6248
撮	-11.6333
僃	-11.6335
腫	-11.6335
莱	-11.6335
鰥	-11.6338
卻	-11.634
醺	-11.6341
裋	-11.6342
勍	-11.6342
鈐	-11.6342
另	-11.6343
螫	-11.6343
輻	-11.6344
檜	-11.6345
鉗	-11.6346
褚	-11.6346
奭	-11.6346
㺯	-11.6347
踊	-11.6349
肓	-11.6441
購	-11.6443
囙	-11.6443
𣑽	-11.6443
禰	-11.6444
蝨	-11.6445
綆	-11.6446
琪	-11.6449
碭	-11.6449
崛	-11.645
晡	-11.645
郾	-11.6451
虱	-11.6452
摠	-11.6452
孛	-11.6455
箸	-11.6456
艮	-11.6457
觥	-11.6458
蕤	-11.6459
嵒	-11.6461
菅	-11.6464
閈	-11.6552
嶧	-11.6553
殛	-11.6556
翌	-11.6556
閥	-11.6556
滸	-11.6559
闲	-11.656
枿	-11.656
耄	-11.656
泮	-11.656
夤	-11.6561
塤	-11.6562
瑾	-11.6564
豺	-11.6564
鑱	-11.6564
鍼	-11.6566
槽	-11.6566
螟	-11.6567
斍	-11.6567
满	-11.657
㽔	-11.6572
諼	-11.6659
䬃	-11.6666
韝	-11.6667
閶	-11.6668
眥	-11.6668
蟹	-11.667
𧺫	-11.667
冏	-11.6674
湟	-11.6674
飼	-11.6675
褥	-11.6675
蛮	-11.6676
儂	-11.6676
弥	-11.6677
劬	-11.6677
糺	-11.6677
梭	-11.6679
撇	-11.668
硉	-11.6682
橡	-11.6684
滉	-11.6685
䛕	-11.6781
繄	-11.6781
􁁊	-11.6781
尭	-11.6782
釡	-11.6785
装	-11.6785
緹	-11.6785
皤	-11.6786
芷	-11.6787
踪	-11.6787
黿	-11.6787
𣺌	-11.6787
罟	-11.6788
覉	-11.6789
耨	-11.679
曖	-11.679
沬	-11.6791
捶	-11.6792
鸂	-11.6792
毘	-11.6882
櫜	-11.6889
喑	-11.6889
庵	-11.689
毓	-11.6892
玆	-11.6893
卞	-11.6893
凜	-11.6894
絜	-11.6894
竢	-11.6895
𥚑	-11.6896
璨	-11.6896
窠	-11.6898
胃	-11.6899
𤨏	-11.6899
堕	-11.6902
鞮	-11.6902
姢	-11.6902
棨	-11.6906
䌫	-11.6907
迪	-11.7002
酎	-11.7005
暠	-11.7006
榦	-11.7007
懾	-11.7012
鑚	-11.7012
睫	-11.7012
餙	-11.7013
狸	-11.7014
吻	-11.7014
涘	-11.7015
緗	-11.7017
皁	-11.7017
淘	-11.7018
劈	-11.7019
琨	-11.7021
摵	-11.7024
嶢	-11.7028
嵬	-11.7122
縲	-11.7125
懌	-11.7127
攺	-11.7127
縟	-11.7129
鍵	-11.713
綯	-11.713
鑰	-11.713
猪	-11.7131
洸	-11.7131
蓑	-11.7133
訏	-11.7135
褭	-11.7138
苣	-11.7139
嚶	-11.714
懴	-11.722
婺	-11.7239
隧	-11.724
鰲	-11.7241
蘖	-11.7244
琚	-11.7245
剔	-11.7247
鷲	-11.7247
腑	-11.7248
滁	-11.725
痺	-11.725
鄖	-11.7251
諄	-11.7252
噉	-11.7258
瀰	-11.7261
瑱	-11.7262
甯	-11.7356
苾	-11.7356
粢	-11.7357
珣	-11.736
礱	-11.7361
蜺	-11.7362
膂	-11.7362
椿	-11.7364
璠	-11.7365
莞	-11.7367
豸	-11.7367
墾	-11.7368
汭	-11.7368
鮒	-11.7369
妥	-11.7371
淅	-11.7371
輶	-11.7376
媪	-11.7377
央	-11.7392
鮫	-11.7431
榷	-11.7479
赩	-11.7483
齪	-11.7483
唧	-11.7484
蛛	-11.7484
崟	-11.7485
顰	-11.7486
賻	-11.7486
篲	-11.7487
罥	-11.7487
鵜	-11.7489
实	-11.7489
蹐	-11.749
嘔	-11.749
坌	-11.7493
締	-11.7598
邽	-11.7599
㝎	-11.76
鮌	-11.76
𣏌	-11.7601
墖	-11.7603
糲	-11.7605
羹	-11.7606
𧖟	-11.7606
瀍	-11.7608
袋	-11.7608
擠	-11.7609
笮	-11.7609
鉉	-11.761
翾	-11.761
苫	-11.7611
緊	-11.7613
賃	-11.7613
昶	-11.7614
佺	-11.7619
紵	-11.7721
荃	-11.7724
溶	-11.7724
悞	-11.7726
耋	-11.7726
煜	-11.7732
禳	-11.7732
筏	-11.7732
炅	-11.7732
臾	-11.7733
肢	-11.7734
珎	-11.7735
亾	-11.7735
宕	-11.7736
邐	-11.7737
沲	-11.7737
窶	-11.7738
鋸	-11.774
枳	-11.7741
糜	-11.7742
郫	-11.7848
紿	-11.7848
睇	-11.7852
燋	-11.7854
諛	-11.7854
瑗	-11.7855
劘	-11.7856
曬	-11.7856
誑	-11.7856
緼	-11.7856
噎	-11.7857
疹	-11.7858
燦	-11.7858
艘	-11.7859
脛	-11.7861
甜	-11.7863
纈	-11.7866
竺	-11.7956
艦	-11.7966
茟	-11.7974
埏	-11.7974
笈	-11.7975
屣	-11.7978
𬒮	-11.798
邴	-11.798
鴆	-11.798
籩	-11.7981
紊	-11.7982
艫	-11.7983
郇	-11.7984
褊	-11.7985
忡	-11.7985
㐲	-11.7986
恧	-11.7986
龐	-11.7986
爨	-11.7987
鵞	-11.7988
淋	-11.7988
詵	-11.7988
舲	-11.7989
䲭	-11.7993
徯	-11.7997
坱	-11.8001
溧	-11.8062
撩	-11.8107
靴	-11.8108
蒨	-11.8108
揄	-11.8108
焯	-11.8109
勦	-11.8111
蕘	-11.8111
擷	-11.8112
机	-11.8113
茭	-11.8113
糗	-11.8113
陘	-11.8114
昵	-11.8114
驃	-11.8116
尨	-11.8117
畹	-11.8117
睛	-11.8117
㢮	-11.8117
剌	-11.8117
槳	-11.812
邏	-11.8122
踔	-11.8133
球	-11.8232
玅	-11.8234
髩	-11.8234
頎	-11.8234
洧	-11.8236
㓙	-11.8236
蒞	-11.8237
詁	-11.824
蝎	-11.824
跣	-11.824
瞋	-11.8242
鎗	-11.8242
祜	-11.8242
裊	-11.8243
𣲖	-11.8243
莠	-11.8246
皚	-11.8249
垤	-11.825
鞞	-11.8252
鏌	-11.8252
姨	-11.8256
僂	-11.8364
裒	-11.8364
惸	-11.8366
㓛	-11.8367
撤	-11.8367
爕	-11.8368
痾	-11.8368
訶	-11.8368
訃	-11.837
餽	-11.8371
俻	-11.8371
頲	-11.8371
跛	-11.8372
饕	-11.8373
遡	-11.8374
椹	-11.8377
勻	-11.8378
㽞	-11.8378
絪	-11.8378
澠	-11.8378
芡	-11.8379
絢	-11.8498
纉	-11.8501
沗	-11.8502
欷	-11.8503
彞	-11.8504
䌓	-11.8505
畚	-11.8505
暌	-11.8506
樛	-11.8507
鑷	-11.8507
廨	-11.8507
絛	-11.8508
峘	-11.8509
幷	-11.8509
酪	-11.851
匈	-11.851
邂	-11.8513
喔	-11.8515
槊	-11.8531
鬲	-11.8628
鞬	-11.8633
悛	-11.8634
炷	-11.8634
㳒	-11.8636
旐	-11.8637
潨	-11.8637
賭	-11.8639
釭	-11.864
賫	-11.864
餼	-11.864
偁	-11.8641
邛	-11.8642
儗	-11.8643
翶	-11.8644
皦	-11.8644
玦	-11.8644
粛	-11.8645
揷	-11.8645
訇	-11.8647
喈	-11.8649
鸚	-11.8649
撻	-11.865
僇	-11.8651
悌	-11.8767
鯀	-11.877
萹	-11.8771
覯	-11.8771
鸇	-11.8772
黼	-11.8774
楠	-11.8774
彀	-11.8775
嶮	-11.8775
壼	-11.8776
傪	-11.8777
訕	-11.8778
啁	-11.878
犖	-11.8783
埽	-11.8784
獷	-11.8784
髭	-11.8784
戱	-11.8784
𢷬	-11.8785
酆	-11.8787
阯	-11.8787
翛	-11.8908
庳	-11.891
殂	-11.891
陴	-11.8912
骼	-11.8914
縵	-11.8914
􁈍	-11.8915
碾	-11.8916
憊	-11.8916
頳	-11.8916
淥	-11.8918
蠖	-11.8918
矗	-11.8919
柢	-11.8919
咍	-11.892
奩	-11.892
踴	-11.8921
褷	-11.8922
桔	-11.8922
騑	-11.8926
跕	-11.893
獰	-11.8932
匭	-11.9051
洺	-11.9053
斁	-11.9053
翬	-11.9053
体	-11.9054
慱	-11.9056
趺	-11.9058
玫	-11.9059
譖	-11.906
厓	-11.906
蛤	-11.906
䴡	-11.9062
鋏	-11.9062
籃	-11.9064
韁	-11.9066
郿	-11.9067
颶	-11.9067
匙	-11.9069
漭	-11.9072
橙	-11.9074
莆	-11.9183
𪷟	-11.9195
豢	-11.9196
苧	-11.9197
刎	-11.9197
靦	-11.92
嫡	-11.92
莾	-11.92
賡	-11.9201
澡	-11.9201
醯	-11.9202
戛	-11.9203
產	-11.9204
孀	-11.9204
曈	-11.9205
簴	-11.9206
獺	-11.9208
䔥	-11.9209
睽	-11.9209
惧	-11.9341
嶪	-11.9341
鍛	-11.9342
䖝	-11.9343
嚢	-11.9343
檉	-11.9344
鸖	-11.9344
渦	-11.9344
晢	-11.9345
硤	-11.9346
瓴	-11.9346
璡	-11.9347
嘏	-11.9347
澶	-11.9347
澘	-11.9347
嵆	-11.9349
廏	-11.9353
嶇	-11.9354
璇	-11.9355
喝	-11.9356
崦	-11.9357
嚇	-11.9366
宙	-11.9482
邙	-11.9482
憧	-11.9483
㩀	-11.9487
繢	-11.9487
腋	-11.9487
袤	-11.9489
寗	-11.9489
瓚	-11.949
凾	-11.9492
媯	-11.9492
豋	-11.9492
樟	-11.9492
栱	-11.9493
鼃	-11.9494
騂	-11.9495
閿	-11.9495
踆	-11.9495
娑	-11.9496
堠	-11.9498
芙	-11.95
瑒	-11.95
幰	-11.9501
舁	-11.9503
郯	-11.9503
饔	-11.9505
娜	-11.9506
澒	-11.9507
剏	-11.963
【	-11.9631
矍	-11.9633
琱	-11.9633
殳	-11.9633
璆	-11.9636
遄	-11.9638
巇	-11.9641
鹹	-11.9642
撝	-11.9642
眙	-11.9643
輾	-11.9643
鄢	-11.9644
廸	-11.9644
荑	-11.9644
餧	-11.9645
駰	-11.9646
袵	-11.9647
蹻	-11.9649
躄	-11.9649
厝	-11.9651
宝	-11.9652
姥	-11.977
迦	-11.9774
侏	-11.9774
犒	-11.9784
蘧	-11.9785
劳	-11.9787
騘	-11.9787
隲	-11.9788
罅	-11.979
澮	-11.979
惨	-11.9791
觚	-11.9791
倬	-11.9792
脾	-11.9792
悰	-11.9794
煞	-11.9795
𬗟	-11.9796
黥	-11.9796
喁	-11.9797
瘼	-11.9798
堇	-11.98
飇	-11.98
闞	-11.9802
呶	-11.9807
㘴	-11.9934
鴰	-11.9936
甓	-11.9939
𣢾	-11.9939
楯	-11.9942
俳	-11.9942
駃	-11.9943
迍	-11.9945
疣	-11.9945
櫨	-11.9946
掄	-11.9947
仝	-11.9947
厮	-11.9947
媛	-11.9948
淤	-11.9951
殽	-11.9951
漚	-11.9951
惴	-11.9952
惘	-11.9952
賸	-11.9953
鎰	-11.9954
轓	-11.9954
遅	-11.9955
匀	-11.9956
粳	-11.9962
鷇	-11.9963
緱	-12.0088
璃	-12.009
伋	-12.0095
需	-12.0097
箠	-12.0098
妲	-12.0099
狺	-12.0099
蓂	-12.0101
䘚	-12.0101
蜉	-12.0102
齓	-12.0102
躞	-12.0103
彥	-12.0103
帀	-12.0104
薈	-12.0104
昉	-12.0106
珩	-12.0106
彘	-12.0106
湔	-12.0108
錚	-12.0108
纇	-12.0111
旛	-12.0111
扺	-12.0112
雊	-12.0112
靳	-12.0115
舋	-12.0254
穸	-12.0256
挍	-12.0261
皥	-12.0261
萋	-12.0264
嫰	-12.0264
蠹	-12.0265
㮣	-12.0265
貊	-12.0265
鴿	-12.0265
𫾣	-12.0266
霅	-12.0267
磵	-12.0267
甖	-12.0268
虖	-12.0269
醨	-12.027
鵉	-12.027
捽	-12.0271
豗	-12.0272
柚	-12.0273
苹	-12.0274
酥	-12.0277
缸	-12.0415
琬	-12.0416
蠆	-12.0417
陞	-12.0422
燮	-12.0422
帕	-12.0424
淙	-12.0425
洵	-12.0425
睒	-12.0425
篚	-12.0425
邯	-12.0425
鍤	-12.0426
灝	-12.0426
柑	-12.0427
蜒	-12.0427
帔	-12.0428
勗	-12.0428
扎	-12.0429
壙	-12.0432
灔	-12.0434
蘅	-12.0438
煬	-12.0571
騅	-12.0577
卬	-12.0577
舠	-12.058
鮐	-12.0581
瑊	-12.0582
棼	-12.0582
愀	-12.0584
憬	-12.0585
噲	-12.0587
賒	-12.0588
凈	-12.0589
葳	-12.0589
沍	-12.059
贔	-12.059
蚓	-12.0592
鄯	-12.0593
醬	-12.0593
燾	-12.0593
窣	-12.0593
玼	-12.0594
繐	-12.0594
喣	-12.0594
輊	-12.0597
踉	-12.0598
黧	-12.0618
筦	-12.0742
蜩	-12.0748
擐	-12.0748
雹	-12.0749
剃	-12.0751
獎	-12.0751
鏞	-12.0752
茘	-12.0752
虽	-12.0753
諲	-12.0753
埒	-12.0753
榱	-12.0753
迕	-12.0753
壍	-12.0753
欻	-12.0754
箆	-12.0754
惓	-12.0754
皺	-12.0757
惬	-12.0759
溱	-12.0759
郍	-12.0759
緍	-12.076
鷴	-12.076
趁	-12.076
揉	-12.0761
瞪	-12.0762
蝥	-12.0762
掞	-12.0763
麽	-12.077
澥	-12.0911
罏	-12.0911
㩁	-12.0913
忭	-12.0914
嶓	-12.0918
蔟	-12.092
壟	-12.0921
熹	-12.0923
洟	-12.0923
懔	-12.0924
㒹	-12.0924
概	-12.0925
寨	-12.0925
劎	-12.0925
抹	-12.0926
鱉	-12.0927
芊	-12.0928
絞	-12.0928
懣	-12.0929
袐	-12.0929
玳	-12.0929
韡	-12.093
醑	-12.093
熨	-12.0934
滇	-12.0935
搶	-12.0939
嗅	-12.1092
鞲	-12.1093
术	-12.1094
彝	-12.1094
詘	-12.1095
尢	-12.1095
槧	-12.1096
媵	-12.1096
撾	-12.1096
紲	-12.1097
吿	-12.1099
繻	-12.1099
鎛	-12.1099
奎	-12.11
葑	-12.11
鐙	-12.1101
剸	-12.1103
徨	-12.1103
晰	-12.1103
蒺	-12.1104
譟	-12.1106
鬯	-12.1262
癭	-12.1264
睆	-12.1264
瀕	-12.1266
鱸	-12.1267
偵	-12.1267
呪	-12.1269
聃	-12.127
瓮	-12.127
訔	-12.127
朐	-12.127
殉	-12.1272
旴	-12.1272
傴	-12.1273
纆	-12.1274
莧	-12.1274
雇	-12.1274
綫	-12.1275
妒	-12.1275
逶	-12.1277
惚	-12.1278
綈	-12.128
墠	-12.1439
襁	-12.1442
秔	-12.1443
哦	-12.1444
郪	-12.1447
嗢	-12.1448
惣	-12.1448
趄	-12.1448
嫓	-12.1449
趫	-12.1449
荣	-12.145
蚕	-12.1451
桉	-12.1451
郃	-12.1453
齕	-12.1453
㪅	-12.1454
鯢	-12.1455
皴	-12.1458
髫	-12.1458
鑊	-12.1459
鈇	-12.146
筴	-12.1461
颭	-12.1465
鯿	-12.1468
麏	-12.1471
闍	-12.1612
溘	-12.1619
梏	-12.1625
鞘	-12.1627
粃	-12.1627
傚	-12.1628
榔	-12.1629
迓	-12.1629
楣	-12.163
蔭	-12.163
噤	-12.163
杇	-12.1632
値	-12.1632
崿	-12.1632
輜	-12.1634
檟	-12.1634
妤	-12.1635
摐	-12.1635
湎	-12.1635
培	-12.1635
鏟	-12.1635
悱	-12.1636
娟	-12.1637
嶙	-12.1637
偘	-12.1637
縊	-12.1637
裵	-12.1637
瀁	-12.1638
赬	-12.1638
斚	-12.1639
纚	-12.1639
嬙	-12.164
蓁	-12.1641
袪	-12.1642
綌	-12.1642
轕	-12.1646
倀	-12.1654
斌	-12.1808
薺	-12.1809
搦	-12.1811
鼕	-12.1811
犍	-12.1812
瑁	-12.1812
螽	-12.1813
膻	-12.1814
瞀	-12.1814
欃	-12.1814
氅	-12.1815
馹	-12.1815
㢠	-12.1815
衽	-12.1816
褁	-12.1817
忖	-12.1817
娣	-12.1818
窳	-12.1818
毉	-12.1819
枹	-12.1819
聀	-12.1822
讋	-12.1823
祟	-12.1823
塌	-12.1826
犁	-12.1827
騧	-12.1827
厺	-12.1828
离	-12.1829
坳	-12.1829
㝛	-12.1831
篥	-12.1831
簣	-12.1981
纁	-12.1998
个	-12.1998
孳	-12.2004
倨	-12.2005
郛	-12.2005
荔	-12.2005
臬	-12.2006
茆	-12.2006
栝	-12.2008
㣧	-12.2008
狠	-12.2009
涅	-12.2009
搥	-12.2009
壃	-12.201
呦	-12.2011
緌	-12.2014
阪	-12.2019
婭	-12.202
炁	-12.2185
軿	-12.2191
碓	-12.2192
韭	-12.2193
恚	-12.2193
磐	-12.2193
凑	-12.2193
豬	-12.2193
昩	-12.2194
嶄	-12.2195
僦	-12.2195
賙	-12.2197
滲	-12.2197
驁	-12.2197
蜚	-12.2197
嫋	-12.2198
蝟	-12.2198
襯	-12.2198
憝	-12.2199
靚	-12.2199
噓	-12.2199
蓉	-12.22
杌	-12.22
葅	-12.2201
沚	-12.2201
㩦	-12.2202
忱	-12.2202
靨	-12.2203
匼	-12.2203
鞶	-12.2204
噭	-12.2204
硬	-12.2204
沁	-12.2204
綍	-12.2204
劌	-12.2205
竸	-12.2376
嶁	-12.2382
闉	-12.2383
𦦨	-12.2384
赧	-12.2388
腆	-12.2388
㙜	-12.2388
厎	-12.2388
楩	-12.239
𫝊	-12.2391
畯	-12.2392
棻	-12.2392
渟	-12.2393
鄣	-12.2394
倔	-12.2395
琖	-12.2395
崙	-12.2395
䙝	-12.2395
磁	-12.2396
傖	-12.2396
劵	-12.2396
譊	-12.2396
爬	-12.2397
歈	-12.2397
餔	-12.2398
汸	-12.2398
醻	-12.2398
枸	-12.2399
町	-12.24
秭	-12.24
撐	-12.2401
窕	-12.2402
溼	-12.2402
縢	-12.2402
炮	-12.2402
勳	-12.2402
篡	-12.2402
燀	-12.2403
閴	-12.2403
黏	-12.2404
畀	-12.2405
仡	-12.2406
崪	-12.2409
嚳	-12.2411
糝	-12.2411
啻	-12.2521
廕	-12.2579
焜	-12.2584
纘	-12.2585
苓	-12.2587
𫐠	-12.2588
擿	-12.2589
徔	-12.259
矉	-12.2591
朓	-12.2591
隩	-12.2591
剝	-12.2592
糊	-12.2592
桺	-12.2593
换	-12.2593
灕	-12.2594
慺	-12.2594
畊	-12.2594
郅	-12.2596
彖	-12.2597
么	-12.2598
蟊	-12.2598
𦂳	-12.2598
𥜗	-12.2598
賾	-12.2599
蔥	-12.26
虯	-12.2601
璉	-12.2602
霊	-12.2602
偓	-12.2603
炰	-12.2608
眎	-12.2608
洿	-12.2781
崐	-12.2788
恟	-12.2788
誹	-12.2789
卨	-12.279
侁	-12.2792
塾	-12.2794
埭	-12.2794
緦	-12.2795
酔	-12.2795
䧺	-12.2796
势	-12.2796
酢	-12.2797
蒂	-12.2799
闚	-12.28
腮	-12.2801
泬	-12.2801
埜	-12.2801
滹	-12.2802
唶	-12.2802
听	-12.2802
屧	-12.2803
鴂	-12.2804
呱	-12.2804
宂	-12.2804
釘	-12.2805
烘	-12.2805
鑽	-12.2806
𬋩	-12.2807
恋	-12.2808
菼	-12.2813
倕	-12.2991
觝	-12.2999
惇	-12.2999
阼	-12.3001
衎	-12.3002
睍	-12.3002
祅	-12.3003
餬	-12.3004
刓	-12.3005
双	-12.3006
獮	-12.3006
𦕈	-12.3007
嚙	-12.3007
餗	-12.3008
欤	-12.3008
麞	-12.301
瑯	-12.301
昕	-12.3011
嫣	-12.3012
渫	-12.3012
餳	-12.3013
坏	-12.3013
郗	-12.3013
濘	-12.3013
皖	-12.3015
䳵	-12.3015
脰	-12.3016
糅	-12.3018
沆	-12.302
磕	-12.3021
柞	-12.3021
蚡	-12.3023
噀	-12.3024
雘	-12.3196
饉	-12.3209
酡	-12.3211
犇	-12.3214
繰	-12.3216
墐	-12.3218
狴	-12.3218
嫠	-12.3218
倅	-12.3219
黻	-12.3219
覷	-12.322
濊	-12.322
堊	-12.3221
蹂	-12.3221
扳	-12.3222
箎	-12.3223
薏	-12.3224
掊	-12.3225
苡	-12.3225
詼	-12.3225
薑	-12.3225
紡	-12.3227
輭	-12.3228
玃	-12.3229
啅	-12.3233
皛	-12.3239
贙	-12.3239
竁	-12.324
鉦	-12.3422
应	-12.3424
岣	-12.3424
瘖	-12.3427
輤	-12.3427
䆒	-12.3428
昀	-12.3429
鷂	-12.343
届	-12.3431
翣	-12.3431
嘹	-12.3434
膜	-12.3434
譌	-12.3436
㪷	-12.3436
肫	-12.3436
匆	-12.3436
蕞	-12.3437
鐺	-12.3437
粕	-12.3437
臍	-12.3437
塍	-12.3438
颿	-12.3438
𢾗	-12.344
猖	-12.3441
巋	-12.3441
嘈	-12.3441
峒	-12.3441
鬒	-12.3442
軛	-12.3442
筞	-12.3444
唁	-12.3445
稲	-12.3445
瓷	-12.3446
貍	-12.3447
噩	-12.3452
簒	-12.3645
䘖	-12.3648
垓	-12.3649
軄	-12.3649
间	-12.3649
磾	-12.3651
䆠	-12.3651
枲	-12.3652
橰	-12.3653
蜡	-12.3654
蓽	-12.3656
㝡	-12.3657
獅	-12.3658
戇	-12.3659
汍	-12.3659
媫	-12.3659
暐	-12.3659
噍	-12.366
淝	-12.366
飴	-12.366
匐	-12.3661
稳	-12.3661
牂	-12.3662
亶	-12.3663
婪	-12.3663
椅	-12.3663
頏	-12.3664
㦯	-12.3664
瀏	-12.3664
虔	-12.3665
莩	-12.3669
觱	-12.367
籹	-12.367
儁	-12.3672
慷	-12.3673
琤	-12.3673
僨	-12.3674
圠	-12.3685
齗	-12.3686
甬	-12.3868
乹	-12.3874
冺	-12.3878
很	-12.3881
韙	-12.3881
薩	-12.3882
􁒏	-12.3882
袞	-12.3883
犴	-12.3885
恓	-12.3885
𡵨	-12.3885
瓉	-12.3886
紼	-12.3886
㫄	-12.3887
蹉	-12.3888
疽	-12.3888
狷	-12.3888
橦	-12.389
嗷	-12.389
澌	-12.389
忉	-12.3891
馘	-12.3891
崎	-12.3891
貉	-12.3892
吒	-12.3893
屓	-12.3893
詒	-12.3893
悁	-12.3893
釗	-12.3894
搨	-12.3895
嶸	-12.3895
痔	-12.3896
跬	-12.3898
礧	-12.3899
詈	-12.3899
脇	-12.4101
柬	-12.4105
頊	-12.411
酧	-12.411
璅	-12.4111
苻	-12.4113
戕	-12.4113
鸝	-12.4114
儵	-12.4115
蚪	-12.4115
疉	-12.4116
鎚	-12.4116
㕑	-12.4116
癢	-12.4117
涬	-12.412
咬	-12.412
巗	-12.4121
鶒	-12.4122
单	-12.4122
拉	-12.4122
氂	-12.4123
㨂	-12.4124
畛	-12.4124
啚	-12.4124
胼	-12.4125
雰	-12.4127
媧	-12.4128
奫	-12.413
腎	-12.4132
砰	-12.4132
嵲	-12.4133
窀	-12.4349
蜻	-12.4352
邾	-12.4352
颸	-12.4354
槨	-12.4354
欸	-12.4354
釧	-12.4354
佶	-12.4355
嘿	-12.4355
凮	-12.4355
潑	-12.4356
禘	-12.4356
帚	-12.4357
蕋	-12.4357
仿	-12.4358
秬	-12.4358
矰	-12.4358
柿	-12.4359
𦍑	-12.4359
覘	-12.4359
菟	-12.436
黮	-12.4361
礦	-12.4362
浥	-12.4362
茀	-12.4362
宄	-12.4363
訢	-12.4363
焕	-12.4364
洹	-12.4365
囓	-12.4365
䄡	-12.4368
问	-12.4369
痁	-12.4371
眊	-12.4372
溆	-12.4372
羾	-12.4375
亱	-12.4578
膴	-12.4588
縗	-12.4591
稊	-12.4592
㲲	-12.4593
鼐	-12.4594
咈	-12.4594
蔔	-12.4596
掦	-12.4596
頟	-12.4598
騾	-12.4598
􁗠	-12.4598
蜕	-12.4599
個	-12.4599
賵	-12.4599
箑	-12.4599
幙	-12.4599
窪	-12.4601
臏	-12.4601
齠	-12.4601
踠	-12.4602
氲	-12.4602
㽵	-12.4603
燬	-12.4603
豨	-12.4604
禜	-12.4604
碪	-12.4605
鎧	-12.4605
轇	-12.4605
栅	-12.4606
讟	-12.4606
嵎	-12.4606
臲	-12.4606
㗖	-12.4606
砢	-12.4607
圬	-12.4607
􁁚	-12.4609
靃	-12.461
闖	-12.461
翽	-12.461
懟	-12.4611
狃	-12.4615
胾	-12.4615
惔	-12.4619
釃	-12.462
癯	-12.4828
瑠	-12.4831
慾	-12.4839
穡	-12.4841
叡	-12.4842
庥	-12.4842
薾	-12.4844
敡	-12.4844
灸	-12.4845
瑙	-12.4845
禕	-12.4845
籓	-12.4845
擴	-12.4846
怊	-12.4846
磻	-12.4847
裯	-12.4848
慳	-12.4848
朦	-12.4848
𬗋	-12.4849
塼	-12.4849
菉	-12.4849
箒	-12.485
炤	-12.485
虀	-12.4851
鄘	-12.4852
麑	-12.4852
撒	-12.4853
杠	-12.4853
娠	-12.4853
瞢	-12.4853
穂	-12.4854
嘐	-12.4855
嘒	-12.4855
篔	-12.4855
鶗	-12.4855
􁁜	-12.4856
峋	-12.4856
竆	-12.4857
㠋	-12.4858
摻	-12.486
厖	-12.4861
彧	-12.4863
蕊	-12.4863
吭	-12.4865
陔	-12.5087
擻	-12.5087
夛	-12.5088
盭	-12.5095
佻	-12.5095
崕	-12.5097
瓔	-12.5097
嘖	-12.5098
凟	-12.5098
醲	-12.5098
佽	-12.51
蛸	-12.5102
塏	-12.5103
埴	-12.5103
莵	-12.5105
䑛	-12.5105
㛰	-12.5105
蘼	-12.5105
沭	-12.5106
棚	-12.5106
丼	-12.5107
㡳	-12.5107
蕕	-12.5108
閡	-12.5109
洑	-12.5109
哥	-12.511
漑	-12.511
䈥	-12.511
㠀	-12.511
忒	-12.5111
票	-12.5111
箬	-12.5111
昜	-12.5111
餮	-12.5111
䙰	-12.5112
蹌	-12.5114
摸	-12.5116
濞	-12.5117
穊	-12.5118
淖	-12.5119
鏝	-12.512
呷	-12.5123
鍠	-12.5341
庀	-12.5361
阽	-12.5361
祫	-12.5364
蒔	-12.5364
拽	-12.5366
瘥	-12.5367
栩	-12.5368
浼	-12.5368
昺	-12.537
惺	-12.537
鞫	-12.5371
𬈑	-12.5372
喋	-12.5372
哇	-12.5373
獍	-12.5374
罌	-12.5375
㕓	-12.5375
閹	-12.5376
逭	-12.5377
蘢	-12.5378
徬	-12.5378
姫	-12.5378
籀	-12.5378
禠	-12.5379
癰	-12.5379
曨	-12.5379
榿	-12.538
晻	-12.538
咋	-12.5382
慌	-12.5382
异	-12.5383
凊	-12.5385
螿	-12.5391
潗	-12.542
抖	-12.5619
胙	-12.5625
肄	-12.5627
蒱	-12.5628
疴	-12.563
瑪	-12.563
磽	-12.5633
鐏	-12.5636
挟	-12.5636
圮	-12.5637
韉	-12.5639
桁	-12.5639
甔	-12.564
侫	-12.5642
鉄	-12.5642
搰	-12.5643
蝣	-12.5644
鰓	-12.5644
簋	-12.5645
櫺	-12.5645
鑕	-12.5645
尫	-12.5645
勰	-12.5646
䭾	-12.5647
硠	-12.5648
簹	-12.5648
蘺	-12.5648
鋋	-12.5648
雝	-12.5649
斖	-12.5649
醆	-12.5649
羑	-12.5649
匌	-12.5649
鰭	-12.565
簉	-12.5651
㶑	-12.5653
猫	-12.5655
膊	-12.5655
垞	-12.5656
跟	-12.5658
鎁	-12.5659
荏	-12.566
喤	-12.5669
偹	-12.5894
㟧	-12.5902
歕	-12.5908
櫝	-12.5908
闤	-12.5909
䫫	-12.591
屭	-12.5911
楛	-12.5912
鄼	-12.5912
眚	-12.5912
賨	-12.5912
罸	-12.5913
宁	-12.5913
螳	-12.5914
蝀	-12.5914
圄	-12.5914
囹	-12.5914
壈	-12.5915
嵳	-12.5915
䄍	-12.5915
杙	-12.5916
籝	-12.5916
兜	-12.5917
顕	-12.5918
簀	-12.5918
菓	-12.5918
𥚹	-12.5918
瓏	-12.5918
狁	-12.5918
稿	-12.5919
呑	-12.5919
䢵	-12.592
駘	-12.592
抶	-12.592
鐶	-12.5921
睎	-12.5921
愎	-12.5921
噱	-12.5921
娩	-12.5921
蛬	-12.5921
墩	-12.5922
薝	-12.5922
睞	-12.5922
醥	-12.5922
躑	-12.5923
殪	-12.5923
鸊	-12.5924
媾	-12.5926
棖	-12.5926
麕	-12.5926
旎	-12.5927
簁	-12.5927
掁	-12.5929
櫚	-12.5932
噦	-12.5934
矮	-12.5936
飊	-12.6189
楮	-12.619
愓	-12.6191
褓	-12.6193
煢	-12.6193
筲	-12.6194
鄷	-12.6196
醸	-12.6196
袷	-12.6197
袝	-12.6197
煇	-12.6198
涖	-12.6198
瀦	-12.62
腊	-12.6201
詖	-12.6201
璵	-12.6204
蝇	-12.6204
鴦	-12.6204
罾	-12.6205
崷	-12.6206
牌	-12.6206
㧾	-12.6207
醁	-12.6208
滏	-12.6208
丰	-12.6208
儘	-12.6209
刦	-12.621
屼	-12.6212
孃	-12.6212
覡	-12.6213
撚	-12.6213
骭	-12.6214
橜	-12.6215
趼	-12.6215
痍	-12.6215
跧	-12.6217
嘵	-12.6217
鵕	-12.6217
蓏	-12.6217
瑛	-12.6218
婀	-12.622
帑	-12.6481
湼	-12.6481
㗸	-12.6485
怫	-12.6488
賮	-12.6488
孥	-12.6488
祏	-12.6489
􁔾	-12.6489
㜸	-12.6491
媮	-12.6492
怵	-12.6492
蝮	-12.6493
㸦	-12.6493
刁	-12.6493
倏	-12.6494
揵	-12.6494
幬	-12.6495
閾	-12.6495
秊	-12.6495
㾕	-12.6496
顱	-12.6497
匄	-12.6497
詛	-12.6498
懍	-12.6498
獫	-12.6498
矹	-12.6499
适	-12.6499
熲	-12.6499
殍	-12.6499
䯻	-12.6499
浞	-12.65
輳	-12.65
剞	-12.6501
蠨	-12.6501
㳫	-12.6501
糈	-12.6502
昈	-12.6503
叵	-12.6503
萑	-12.6504
譸	-12.6505
羝	-12.6506
軔	-12.6506
𨗳	-12.6506
棕	-12.6508
駉	-12.6508
踶	-12.6509
粻	-12.6509
懊	-12.6511
慠	-12.6511
榾	-12.6512
匯	-12.6514
帨	-12.6516
牣	-12.6517
漰	-12.6521
漼	-12.6522
蠭	-12.6781
蠁	-12.6787
营	-12.6787
甎	-12.679
瑇	-12.679
籞	-12.679
盩	-12.679
讞	-12.679
鄱	-12.6792
諴	-12.6794
剉	-12.6794
硜	-12.6795
閠	-12.6795
箧	-12.6795
漦	-12.6796
瘍	-12.6796
怍	-12.6796
魋	-12.6798
葹	-12.6798
哆	-12.6799
蕝	-12.6799
韈	-12.6799
鰕	-12.68
嵽	-12.68
饞	-12.6801
嚘	-12.6801
鴒	-12.6801
骯	-12.6801
吃	-12.6802
憀	-12.6802
錘	-12.6802
岨	-12.6803
蟣	-12.6803
攤	-12.6803
笱	-12.6805
跗	-12.6805
紉	-12.6805
齅	-12.6805
鉶	-12.6806
挼	-12.6806
揃	-12.6806
嘷	-12.6806
剜	-12.6806
䥫	-12.6807
唅	-12.6807
鵂	-12.6808
鼂	-12.6808
獯	-12.6809
瞭	-12.681
䴊	-12.681
茝	-12.6811
旖	-12.6811
韲	-12.6811
禖	-12.6812
怏	-12.6813
噂	-12.6823
㲉	-12.6826
拲	-12.7093
厶	-12.7097
窱	-12.7102
廋	-12.7103
輞	-12.7104
謪	-12.7105
玻	-12.7107
簦	-12.7107
壒	-12.7108
抨	-12.7108
迃	-12.7108
鋌	-12.7109
㴩	-12.711
憒	-12.7111
蒋	-12.7111
鷫	-12.7111
枘	-12.7112
髒	-12.7113
嗛	-12.7113
煒	-12.7113
衺	-12.7114
瞠	-12.7115
溲	-12.7116
帟	-12.7116
串	-12.7116
遝	-12.7117
􁀊	-12.7118
诗	-12.712
煽	-12.7121
樅	-12.7121
芃	-12.7121
窽	-12.7121
咷	-12.7122
鯽	-12.7122
鞾	-12.7122
僰	-12.7123
黝	-12.7124
痏	-12.7124
姱	-12.7124
蟇	-12.7125
羖	-12.7126
狻	-12.7128
嵂	-12.713
蜮	-12.7131
褫	-12.7132
逌	-12.7416
厩	-12.7421
彜	-12.7421
晬	-12.7422
寍	-12.7422
㒒	-12.7423
枌	-12.7424
砮	-12.7424
踦	-12.7425
窹	-12.7426
蛭	-12.7427
􁊨	-12.7427
淛	-12.7428
茄	-12.7429
㦄	-12.7429
亀	-12.7429
痡	-12.743
絏	-12.7431
釜	-12.7431
蕖	-12.7431
屩	-12.7433
䃘	-12.7434
苽	-12.7434
芾	-12.7434
秤	-12.7435
笴	-12.7435
隑	-12.7435
斮	-12.7435
艤	-12.7436
妺	-12.7436
廙	-12.7436
鳧	-12.7436
煨	-12.7436
汞	-12.7437
檮	-12.7438
昃	-12.7438
蠒	-12.7438
嬈	-12.7438
挲	-12.7438
潩	-12.7439
蠕	-12.744
䄈	-12.744
型	-12.7441
残	-12.7442
劂	-12.7442
琇	-12.7442
騣	-12.7442
焼	-12.7442
筩	-12.7443
剄	-12.7445
騏	-12.7445
騭	-12.7446
􁘌	-12.7446
咲	-12.7447
巂	-12.7447
蕣	-12.7447
麛	-12.7447
皪	-12.7447
栟	-12.745
鞿	-12.7451
攙	-12.7452
努	-12.7456
渢	-12.7459
鯖	-12.746
灋	-12.7756
厔	-12.776
𧹞	-12.776
忸	-12.7761
茜	-12.7761
薌	-12.7762
觖	-12.7763
轜	-12.7764
竚	-12.7764
螮	-12.7764
矟	-12.7765
簜	-12.7765
玭	-12.7765
徉	-12.7765
灧	-12.7766
髏	-12.7766
詫	-12.7767
髑	-12.7767
鬧	-12.7768
諗	-12.7768
爺	-12.7769
衂	-12.7769
捋	-12.777
卸	-12.777
慜	-12.7771
跱	-12.7771
牁	-12.7772
燻	-12.7772
曀	-12.7772
兊	-12.7773
螾	-12.7773
泪	-12.7773
蓺	-12.7774
郱	-12.7774
嚥	-12.7774
葪	-12.7775
拚	-12.7776
爆	-12.7777
揲	-12.7777
鶂	-12.7777
㠝	-12.7777
柸	-12.7778
幪	-12.7779
倛	-12.7779
跽	-12.778
猊	-12.778
蹷	-12.7781
磋	-12.7782
搒	-12.7782
歠	-12.7782
鳲	-12.7785
澍	-12.7787
廌	-12.7789
鶖	-12.7793
蟉	-12.7799
灯	-12.7806
塑	-12.809
盬	-12.8094
磑	-12.8095
莪	-12.8099
刅	-12.8101
珞	-12.8102
縂	-12.8104
疥	-12.8104
贋	-12.8105
邰	-12.8106
辮	-12.8106
摳	-12.8106
倭	-12.8108
蚍	-12.8108
你	-12.8109
渊	-12.8109
噏	-12.811
兗	-12.811
螗	-12.811
舳	-12.8111
谁	-12.8111
鸘	-12.8111
糚	-12.8112
㓪	-12.8112
楂	-12.8112
荊	-12.8112
剩	-12.8113
鐔	-12.8113
扛	-12.8113
姁	-12.8113
鷦	-12.8113
捃	-12.8115
毆	-12.8115
蚋	-12.8115
庄	-12.8115
欂	-12.8115
摰	-12.8116
漓	-12.8116
絙	-12.8117
陕	-12.8117
饜	-12.8117
騋	-12.8117
吮	-12.8118
楞	-12.8118
蘊	-12.8118
踟	-12.8118
麯	-12.8119
䠞	-12.8119
鼬	-12.8119
溽	-12.8119
櫩	-12.8119
擥	-12.8119
噞	-12.812
痒	-12.812
褕	-12.8121
𣸪	-12.8121
虓	-12.8121
螯	-12.8121
鯈	-12.8122
斆	-12.8122
肻	-12.8122
画	-12.8122
嚲	-12.8123
傒	-12.8123
蠓	-12.8125
蠛	-12.8125
鵑	-12.8125
肚	-12.8126
䏑	-12.8126
潬	-12.8127
猝	-12.8127
搘	-12.8128
碯	-12.8128
熛	-12.8129
禡	-12.8129
摋	-12.813
晼	-12.8141
侗	-12.815
喟	-12.8445
𠖇	-12.8457
驊	-12.8457
睱	-12.8462
湞	-12.8462
鐍	-12.8465
黤	-12.8465
佷	-12.8465
嘴	-12.8465
陊	-12.8466
紕	-12.8466
臟	-12.8466
牗	-12.8467
㸌	-12.8467
哢	-12.8468
牾	-12.8468
媟	-12.8469
艋	-12.8471
眡	-12.8471
驔	-12.8471
㫺	-12.8471
秫	-12.8472
柅	-12.8472
顇	-12.8473
夹	-12.8473
戺	-12.8474
陡	-12.8475
觕	-12.8476
悮	-12.8476
韔	-12.8477
涴	-12.8478
砯	-12.8478
穟	-12.8478
臮	-12.8478
趋	-12.8479
㷀	-12.8479
靺	-12.8479
劑	-12.8481
粔	-12.8481
娼	-12.8482
姹	-12.8484
澨	-12.8485
宐	-12.8485
戅	-12.8485
􁀱	-12.8486
嬋	-12.8486
嘬	-12.8487
篷	-12.8488
罃	-12.8489
稂	-12.8489
溵	-12.8491
櫐	-12.8492
肪	-12.851
蹮	-12.8512
浟	-12.8524
貅	-12.8822
藎	-12.8827
覦	-12.883
晙	-12.8831
籲	-12.8831
刜	-12.8834
髽	-12.8834
蜯	-12.8835
鄽	-12.8835
唫	-12.8836
緻	-12.8836
鈷	-12.8838
聱	-12.8839
屛	-12.8839
䜿	-12.8839
啗	-12.884
􁩂	-12.884
还	-12.8841
毯	-12.8841
蔦	-12.8841
洳	-12.8843
猘	-12.8843
軆	-12.8843
捭	-12.8843
篪	-12.8843
荳	-12.8844
扢	-12.8844
淊	-12.8844
舴	-12.8844
趑	-12.8845
蘸	-12.8845
晣	-12.8845
臚	-12.8846
娭	-12.8846
倜	-12.8847
溍	-12.8847
袚	-12.8847
魍	-12.8847
診	-12.8848
葯	-12.8848
崆	-12.8849
裌	-12.8849
闒	-12.8849
臑	-12.885
熇	-12.885
麫	-12.885
蚴	-12.885
貐	-12.885
袿	-12.8851
摚	-12.8853
趯	-12.8857
碼	-12.8857
咢	-12.8857
嵫	-12.8859
鎌	-12.886
芧	-12.8862
挶	-12.8863
櫃	-12.8867
彍	-12.8868
鰌	-12.9205
㰱	-12.9211
蜓	-12.9213
嫫	-12.9213
蟯	-12.9215
莓	-12.9215
駪	-12.9216
凴	-12.9216
擡	-12.9217
􁃵	-12.9218
珦	-12.9218
䏰	-12.9219
弢	-12.922
鎪	-12.9221
甪	-12.9221
疢	-12.9221
臙	-12.9222
攲	-12.9222
嘽	-12.9223
溔	-12.9224
䓗	-12.9224
芲	-12.9225
慥	-12.9227
􁐻	-12.9227
佃	-12.9229
耇	-12.9229
焄	-12.923
螂	-12.923
郜	-12.923
恇	-12.9232
筳	-12.9232
窖	-12.9232
糵	-12.9232
忮	-12.9232
敇	-12.9233
輵	-12.9233
澷	-12.9234
鍪	-12.9234
簳	-12.9234
籺	-12.9234
籕	-12.9235
犲	-12.9235
抔	-12.9235
斿	-12.9236
搪	-12.9237
勷	-12.9238
洌	-12.924
䝟	-12.924
㔩	-12.9241
梠	-12.9242
闟	-12.9244
剠	-12.9245
􁘡	-12.9248
摎	-12.9252
湲	-12.9611
敓	-12.9614
詿	-12.9615
蜋	-12.9616
迯	-12.9617
蟨	-12.9618
暹	-12.9618
蘗	-12.9619
枵	-12.9621
姉	-12.9621
嘨	-12.9621
氍	-12.9622
㕙	-12.9623
襖	-12.9623
碍	-12.9623
稌	-12.9623
讖	-12.9623
欬	-12.9624
港	-12.9624
蜑	-12.9625
㴠	-12.9626
蝝	-12.9627
甈	-12.9627
刲	-12.9627
攴	-12.9627
澇	-12.9628
窬	-12.9629
枋	-12.963
﨑	-12.9631
艓	-12.9631
芼	-12.9631
窫	-12.9632
确	-12.9633
琹	-12.9634
鍧	-12.9634
滚	-12.9634
窙	-12.9634
霣	-12.9634
蘩	-12.9634
軷	-12.9635
櫸	-12.9635
襞	-12.9635
綢	-12.9635
谽	-12.9636
豉	-12.9636
戟	-12.9636
姆	-12.9636
漩	-12.9636
瑘	-12.9637
痿	-12.9637
𤇺	-12.9638
㺑	-12.9638
独	-12.9638
䋣	-12.9639
爝	-12.9639
漵	-12.9641
塈	-12.9641
歜	-12.9642
誾	-12.9643
鱍	-12.9643
澎	-12.9643
时	-12.9646
摺	-12.9653
漻	-13.0017
硩	-13.0022
䨴	-13.0026
􁡾	-13.0026
峕	-13.0028
祼	-13.0028
􁃜	-13.0028
􁧑	-13.0029
搉	-13.0029
彯	-13.0029
灊	-13.003
靸	-13.003
唼	-13.0031
瘻	-13.0032
怩	-13.0033
矝	-13.0034
傃	-13.0034
軹	-13.0034
翆	-13.0034
阁	-13.0034
霮	-13.0035
徜	-13.0036
腔	-13.0036
霶	-13.0037
语	-13.0037
肎	-13.0037
縋	-13.0038
枰	-13.0038
㪍	-13.0038
昫	-13.0039
戻	-13.0041
俙	-13.0041
頞	-13.0041
蜥	-13.0041
奧	-13.0042
繅	-13.0042
咫	-13.0042
脗	-13.0042
筥	-13.0043
麵	-13.0045
歔	-13.0046
畸	-13.0046
眘	-13.0046
珽	-13.0047
傜	-13.0047
哤	-13.0048
偲	-13.0048
砭	-13.0049
爚	-13.0049
灵	-13.0049
荗	-13.0051
靷	-13.0052
旓	-13.0053
亹	-13.0053
魃	-13.0053
騕	-13.0054
狶	-13.0054
獬	-13.0055
鶹	-13.0056
氶	-13.0058
愾	-13.0058
鵒	-13.0063
湃	-13.0064
槲	-13.0066
珏	-13.0462
闠	-13.0464
㬰	-13.0466
􁋊	-13.0467
矌	-13.0467
䥴	-13.0468
龢	-13.0468
綣	-13.0469
瞩	-13.047
岵	-13.0471
洫	-13.0471
圏	-13.0471
庿	-13.0471
枒	-13.0472
楗	-13.0472
䕭	-13.0472
絀	-13.0473
斲	-13.0473
芭	-13.0473
肹	-13.0473
敭	-13.0473
癃	-13.0473
鉧	-13.0474
廚	-13.0474
胚	-13.0474
縝	-13.0474
籯	-13.0474
茒	-13.0475
懃	-13.0476
麒	-13.0477
卼	-13.0477
惆	-13.0477
酇	-13.0478
搤	-13.0478
惛	-13.0479
仳	-13.0479
篸	-13.0479
煤	-13.0479
躪	-13.0479
腓	-13.0479
魑	-13.0479
执	-13.0479
遰	-13.048
燖	-13.048
飃	-13.0481
萄	-13.0481
惙	-13.0481
轘	-13.0482
篾	-13.0482
髳	-13.0483
飰	-13.0483
鱮	-13.0484
醱	-13.0484
淰	-13.0485
洊	-13.0486
衱	-13.0486
迩	-13.0486
鵡	-13.0486
螻	-13.0486
蹰	-13.0486
襍	-13.0487
曅	-13.0487
䏶	-13.0488
鯪	-13.0488
瑚	-13.0489
奰	-13.0489
秧	-13.0489
罫	-13.049
齩	-13.049
櫧	-13.049
藋	-13.049
鷟	-13.049
砉	-13.049
墯	-13.0491
嚄	-13.0491
汊	-13.0492
䍧	-13.0493
跐	-13.0496
憗	-13.0498
薅	-13.0498
虡	-13.0876
䆮	-13.0901
罛	-13.091
􁀿	-13.0915
栴	-13.0918
紖	-13.0919
絣	-13.0919
臊	-13.092
睟	-13.0922
墢	-13.0922
氾	-13.0923
􁊥	-13.0923
扑	-13.0924
睅	-13.0925
眦	-13.0925
捄	-13.0926
􁊫	-13.0926
胏	-13.0926
繙	-13.0927
騞	-13.0927
綷	-13.0928
嗾	-13.0928
嬀	-13.0929
斕	-13.0929
檛	-13.0929
腠	-13.0929
堮	-13.0929
櫽	-13.093
痗	-13.093
沌	-13.0931
嶰	-13.0932
描	-13.0932
滳	-13.0933
槱	-13.0934
耴	-13.0934
嚻	-13.0934
禫	-13.0934
竱	-13.0934
捺	-13.0934
燁	-13.0935
牴	-13.0936
慇	-13.0936
惷	-13.0936
謷	-13.0936
郟	-13.0936
勩	-13.0936
眯	-13.0937
唏	-13.0937
鍚	-13.0937
茁	-13.0937
姣	-13.0938
咳	-13.0938
憕	-13.0938
啣	-13.0938
驀	-13.094
􁑭	-13.0941
燐	-13.0941
顉	-13.0941
涣	-13.0943
嬃	-13.0944
嚌	-13.0944
蜴	-13.0944
跏	-13.0945
夬	-13.0948
崢	-13.0948
褉	-13.0948
􁈡	-13.0951
麩	-13.0954
媌	-13.0956
惝	-13.0958
勠	-13.0962
邳	-13.1377
簨	-13.1379
嫪	-13.1385
頖	-13.1387
淆	-13.1393
鉟	-13.1394
漶	-13.1394
蹠	-13.1395
梲	-13.1396
穣	-13.1396
覼	-13.1398
叉	-13.1398
寀	-13.14
猩	-13.1401
滙	-13.1401
𧦬	-13.1401
襚	-13.1401
珈	-13.1401
抆	-13.1402
饘	-13.1404
䄖	-13.1405
悢	-13.1406
媸	-13.1406
䘵	-13.1407
潺	-13.1408
攟	-13.1408
倈	-13.1409
鮭	-13.141
耜	-13.141
炉	-13.141
蒻	-13.141
𠂻	-13.141
諏	-13.141
翡	-13.1411
擉	-13.1411
蛉	-13.1411
癈	-13.1412
磎	-13.1412
皿	-13.1412
鬷	-13.1412
揶	-13.1413
樠	-13.1413
慴	-13.1414
瘤	-13.1414
橑	-13.1414
碨	-13.1415
詄	-13.1415
髹	-13.1415
秕	-13.1415
鮓	-13.1415
鋟	-13.1416
􁀾	-13.1417
喃	-13.1417
岏	-13.1417
靁	-13.1418
佀	-13.1418
仔	-13.1418
瀯	-13.1419
屝	-13.1419
吺	-13.1419
嚵	-13.142
䔧	-13.142
僴	-13.142
躊	-13.142
砅	-13.142
𤏡	-13.1421
靮	-13.1421
狽	-13.1422
蟆	-13.1423
澦	-13.1424
兟	-13.1425
􁑬	-13.1427
犗	-13.1429
帓	-13.1429
迾	-13.143
霂	-13.143
謖	-13.1436
侹	-13.1436
劼	-13.1437
鬤	-13.1441
蠍	-13.1887
褏	-13.1889
鬘	-13.1891
崘	-13.1895
㵎	-13.1896
憮	-13.1896
魈	-13.1898
􁐍	-13.1898
伹	-13.1901
玲	-13.1901
侠	-13.1901
觔	-13.1901
襌	-13.1902
褎	-13.1902
劚	-13.1903
抝	-13.1903
蹡	-13.1904
枅	-13.1904
㯽	-13.1904
澑	-13.1905
㛹	-13.1905
篩	-13.1906
瓣	-13.1906
蠋	-13.1907
辞	-13.1907
禂	-13.1908
墁	-13.1908
螣	-13.1908
儜	-13.1908
萵	-13.1908
騀	-13.1909
噣	-13.1909
瀹	-13.1909
耉	-13.191
跜	-13.191
鈕	-13.191
躨	-13.1911
􁈯	-13.1911
麚	-13.1912
焮	-13.1912
迮	-13.1913
踡	-13.1913
鶼	-13.1913
惮	-13.1913
鏇	-13.1913
佁	-13.1913
箘	-13.1913
飧	-13.1913
韮	-13.1914
荄	-13.1914
槭	-13.1914
絍	-13.1914
蟺	-13.1915
跲	-13.1916
樾	-13.1916
驎	-13.1916
徘	-13.1916
䓤	-13.1917
娖	-13.1917
鍇	-13.1917
瘢	-13.1917
畣	-13.1918
鵙	-13.1918
漘	-13.1919
玕	-13.1919
耰	-13.1919
揠	-13.1921
欱	-13.1921
鱟	-13.1921
倥	-13.1922
灎	-13.1922
憙	-13.1925
薖	-13.1927
崚	-13.1928
阹	-13.1929
榞	-13.193
㬥	-13.1932
麂	-13.1932
娙	-13.1933
僎	-13.1936
㑥	-13.2386
卅	-13.2416
泆	-13.2419
􁀫	-13.242
筓	-13.2421
孜	-13.2422
鬖	-13.2423
洏	-13.2423
瓈	-13.2424
爀	-13.2424
輘	-13.2425
蘃	-13.2425
黟	-13.2426
麰	-13.2427
僥	-13.2428
竞	-13.2428
椁	-13.2428
圑	-13.2429
裸	-13.2429
窞	-13.243
挻	-13.243
汹	-13.243
飀	-13.2431
撗	-13.2432
桎	-13.2432
醤	-13.2432
嚱	-13.2432
襆	-13.2433
恆	-13.2433
糇	-13.2434
憃	-13.2434
柁	-13.2434
澳	-13.2434
銕	-13.2434
咺	-13.2435
惄	-13.2435
闃	-13.2435
嗈	-13.2435
駏	-13.2436
駼	-13.2436
嚅	-13.2437
瞍	-13.2437
憸	-13.2437
慁	-13.2438
闑	-13.2438
璲	-13.2438
贛	-13.2438
萁	-13.2439
虙	-13.2439
臞	-13.2439
薿	-13.2439
晱	-13.2439
緐	-13.244
􁐾	-13.244
􁃔	-13.244
屮	-13.244
蠔	-13.244
芣	-13.2441
踧	-13.2442
芉	-13.2442
躕	-13.2442
泡	-13.2442
鰋	-13.2443
巓	-13.2443
柹	-13.2443
骰	-13.2444
党	-13.2444
遌	-13.2444
􁍇	-13.2445
􁁅	-13.2445
呴	-13.2445
脹	-13.2446
洱	-13.2446
橛	-13.2446
劻	-13.2447
攏	-13.2448
􁂦	-13.2448
􁩩	-13.2448
縆	-13.2449
娉	-13.2449
㭊	-13.245
嶒	-13.245
􁀳	-13.245
苒	-13.245
鄄	-13.2451
薯	-13.2451
檗	-13.2451
蕷	-13.2451
抺	-13.2453
䍡	-13.2455
牷	-13.2457
筰	-13.2457
銼	-13.2461
桅	-13.2462
䖟	-13.247
樝	-13.2962
圡	-13.2965
埇	-13.297
藟	-13.2971
偎	-13.2973
嶫	-13.2974
鷔	-13.2975
蝘	-13.2977
䗫	-13.2978
禭	-13.2978
秸	-13.2978
頵	-13.2979
梃	-13.2979
餖	-13.2979
㷔	-13.298
碕	-13.2981
𣆀	-13.2982
喆	-13.2983
掔	-13.2983
斝	-13.2983
簑	-13.2984
媢	-13.2985
桒	-13.2985
戩	-13.2985
褘	-13.2985
寬	-13.2986
簔	-13.2986
侄	-13.2986
獪	-13.2986
沇	-13.2986
頹	-13.2986
騊	-13.2987
蟜	-13.2987
緖	-13.2987
偫	-13.2987
脤	-13.2987
嫚	-13.2989
醽	-13.2989
䒠	-13.299
誎	-13.299
謏	-13.299
􁁪	-13.299
嫖	-13.299
佾	-13.2991
胯	-13.2991
胔	-13.2991
瘉	-13.2992
旡	-13.2992
絓	-13.2992
薍	-13.2992
郸	-13.2992
枮	-13.2992
橤	-13.2993
嵯	-13.2993
盹	-13.2994
懹	-13.2994
㨾	-13.2994
觿	-13.2994
逡	-13.2995
撜	-13.2995
拇	-13.2995
殲	-13.2995
奊	-13.2996
灂	-13.2996
繣	-13.2997
颻	-13.2997
麈	-13.2997
酗	-13.2997
挨	-13.2997
擩	-13.2998
鄲	-13.2998
悻	-13.2998
毖	-13.2999
稺	-13.2999
皡	-13.3
楬	-13.3001
槀	-13.3001
苜	-13.3001
桹	-13.3001
㟙	-13.3002
攔	-13.3002
矇	-13.3003
堋	-13.3003
崱	-13.3003
伃	-13.3004
裼	-13.3005
蒜	-13.3006
罨	-13.3006
􁆬	-13.3007
犛	-13.3007
鴇	-13.3008
纕	-13.3008
泙	-13.3008
狨	-13.3009
珀	-13.3009
畞	-13.3011
縏	-13.3011
琶	-13.3011
罻	-13.3016
奡	-13.3019
刊	-13.3019
茢	-13.302
鼛	-13.3021
痞	-13.3026
􁠣	-13.352
擗	-13.3556
笭	-13.3557
变	-13.3557
􁰈	-13.3559
寱	-13.3562
朘	-13.3565
􁂗	-13.3565
􁀍	-13.3567
襮	-13.3569
蔇	-13.3569
𣙜	-13.357
玖	-13.3571
誶	-13.3572
磝	-13.3572
脞	-13.3572
蕳	-13.3573
絰	-13.3573
鄮	-13.3574
勔	-13.3574
䬝	-13.3574
蠙	-13.3575
瞞	-13.3575
薋	-13.3575
駊	-13.3575
醋	-13.3575
㟼	-13.3576
膞	-13.3576
􁑼	-13.3576
瞶	-13.3576
臈	-13.3577
卲	-13.3577
硫	-13.3578
氈	-13.3578
鬿	-13.3578
夥	-13.3578
逍	-13.3579
蓆	-13.3579
腷	-13.3579
繍	-13.358
蓞	-13.358
瑋	-13.3581
圈	-13.3581
耼	-13.3581
珙	-13.3581
孌	-13.3581
緅	-13.3581
鶊	-13.3582
㛐	-13.3582
銚	-13.3582
毿	-13.3582
凘	-13.3584
曕	-13.3584
鏄	-13.3584
柙	-13.3584
憔	-13.3585
踖	-13.3585
眈	-13.3585
縭	-13.3585
佪	-13.3585
鋣	-13.3586
揬	-13.3586
潸	-13.3586
㴞	-13.3587
憺	-13.3587
灩	-13.3587
銮	-13.3587
胆	-13.3587
楢	-13.3587
􁒝	-13.3587
眢	-13.3587
倳	-13.3587
鑴	-13.3588
繿	-13.3588
鄶	-13.3588
悝	-13.3588
蕐	-13.3588
熺	-13.3589
蹬	-13.3589
醎	-13.3589
鸕	-13.3589
飣	-13.3589
㦲	-13.3589
蕡	-13.3589
躃	-13.359
淜	-13.3591
㹠	-13.3592
禧	-13.3592
輠	-13.3592
痟	-13.3592
􁯡	-13.3594
㓨	-13.3597
瀲	-13.36
蠏	-13.36
捁	-13.3601
𦵔	-13.3603
莝	-13.3604
拮	-13.3604
凥	-13.3604
黴	-13.3623
榎	-13.4158
紜	-13.4163
􁇨	-13.4178
懺	-13.418
黕	-13.4181
𣪚	-13.4182
腵	-13.4184
呫	-13.4188
拠	-13.419
檿	-13.4191
屺	-13.4191
鸒	-13.4193
輴	-13.4193
嵕	-13.4193
痤	-13.4193
糖	-13.4194
种	-13.4195
􁓓	-13.4195
桶	-13.4196
蹩	-13.4196
捻	-13.4196
蜨	-13.4197
鱷	-13.4197
貃	-13.4198
鬃	-13.4198
𬎼	-13.4198
儇	-13.4198
柈	-13.4198
縚	-13.4199
紬	-13.4199
咒	-13.42
騠	-13.42
魘	-13.42
覻	-13.42
豞	-13.42
哳	-13.4201
䥥	-13.4201
瀅	-13.4201
􁶁	-13.4202
鲁	-13.4202
髣	-13.4203
酘	-13.4203
菩	-13.4203
遹	-13.4203
葚	-13.4203
祸	-13.4203
漙	-13.4204
痝	-13.4204
堧	-13.4204
蟒	-13.4205
竣	-13.4205
玢	-13.4205
朏	-13.4205
泂	-13.4206
禨	-13.4206
攉	-13.4206
擄	-13.4206
勌	-13.4207
祊	-13.4207
莛	-13.4207
黈	-13.4208
倮	-13.4208
胞	-13.4209
做	-13.421
䳟	-13.421
傄	-13.421
芍	-13.421
蚳	-13.421
潾	-13.4211
沜	-13.4211
娓	-13.4211
淦	-13.4212
惎	-13.4212
焙	-13.4213
愡	-13.4213
洼	-13.4213
簽	-13.4213
痢	-13.4214
蓧	-13.4214
䫻	-13.4214
鄗	-13.4214
睥	-13.4214
嵼	-13.4214
㚄	-13.4215
膋	-13.4215
扤	-13.4215
駬	-13.4215
踳	-13.4215
剚	-13.4216
箙	-13.4216
栾	-13.4216
箝	-13.4217
㢲	-13.4217
鄫	-13.4217
嫜	-13.4218
棒	-13.4218
齔	-13.422
汕	-13.422
蚿	-13.422
䡾	-13.422
轤	-13.4221
噢	-13.4221
唬	-13.4222
笁	-13.4223
瞎	-13.4224
𠢐	-13.4224
湑	-13.4225
諑	-13.4226
豽	-13.4226
鉥	-13.4226
曶	-13.4227
搢	-13.4228
庐	-13.423
顑	-13.423
疈	-13.4237
趠	-13.4242
醵	-13.4244
踸	-13.4246
窌	-13.4846
陿	-13.4846
貜	-13.4847
桄	-13.4851
滆	-13.4852
鏦	-13.4852
􁒭	-13.4854
䝤	-13.4854
捴	-13.4855
飋	-13.4856
暵	-13.4857
刧	-13.4857
玘	-13.4857
𥅆	-13.4857
􁀌	-13.4857
国	-13.4858
猲	-13.4858
閞	-13.4859
銊	-13.4859
囏	-13.486
蠃	-13.486
岊	-13.486
泞	-13.486
饎	-13.4861
嫈	-13.4861
欧	-13.4862
廞	-13.4862
芘	-13.4863
颼	-13.4863
蛆	-13.4863
􁰽	-13.4864
􁂍	-13.4864
礴	-13.4864
嚭	-13.4864
悤	-13.4865
璹	-13.4865
呐	-13.4865
睚	-13.4865
嘱	-13.4865
餫	-13.4866
䀌	-13.4866
㘭	-13.4866
㹀	-13.4867
麦	-13.4868
撡	-13.4868
阑	-13.4868
遴	-13.4868
􁀨	-13.4869
􁊓	-13.4869
幗	-13.4869
􁒓	-13.487
􁅭	-13.487
矕	-13.4871
襻	-13.4871
􁇁	-13.4871
埛	-13.4871
埓	-13.4871
匍	-13.4871
鴐	-13.4871
鐎	-13.4872
㨖	-13.4872
嫵	-13.4872
韎	-13.4872
饍	-13.4872
礲	-13.4872
嗽	-13.4873
蝌	-13.4873
矅	-13.4873
杷	-13.4874
怗	-13.4874
鏜	-13.4876
廜	-13.4876
雚	-13.4877
呃	-13.4877
魉	-13.4878
恫	-13.4878
獱	-13.4878
熂	-13.4878
椰	-13.4879
曏	-13.488
貓	-13.488
楥	-13.488
䏈	-13.488
尠	-13.488
嘑	-13.488
晜	-13.488
㫪	-13.4881
髴	-13.4881
搭	-13.4883
咻	-13.4883
勮	-13.4883
樁	-13.4883
坲	-13.4883
鷖	-13.4884
崍	-13.4885
倢	-13.4886
倂	-13.4887
轞	-13.4887
􁢬	-13.4887
琵	-13.4888
樑	-13.4888
椸	-13.4889
霡	-13.489
矻	-13.489
汃	-13.4891
鞂	-13.4891
痎	-13.4892
篳	-13.4893
稭	-13.4895
薮	-13.4895
诸	-13.4895
酃	-13.4898
畮	-13.49
齚	-13.49
岈	-13.4901
􁑴	-13.4903
薔	-13.554
潓	-13.5549
􁃀	-13.5557
簙	-13.5558
窃	-13.5558
酖	-13.5558
拶	-13.5559
􁊭	-13.5565
嫮	-13.5567
鐓	-13.5567
枽	-13.5567
椔	-13.5567
鱻	-13.5568
媍	-13.5568
楔	-13.5569
驒	-13.5569
駣	-13.5569
妷	-13.5572
煴	-13.5573
鄔	-13.5574
珓	-13.5575
馗	-13.5576
㮄	-13.5576
紝	-13.5576
茰	-13.5576
疪	-13.5576
靘	-13.5576
蜇	-13.5576
痰	-13.5577
秌	-13.5577
腳	-13.5578
㕍	-13.5578
蝪	-13.5578
涷	-13.5579
浯	-13.558
䨲	-13.558
窊	-13.558
愳	-13.5581
黌	-13.5581
䬖	-13.5581
趐	-13.5581
氳	-13.5581
霪	-13.5581
􁒽	-13.5581
婐	-13.5581
蝱	-13.5582
佼	-13.5582
犨	-13.5582
􁁃	-13.5582
髐	-13.5583
楝	-13.5584
暱	-13.5584
溠	-13.5584
咂	-13.5584
碇	-13.5584
嘼	-13.5584
􁈮	-13.5584
灺	-13.5584
嶱	-13.5584
唘	-13.5585
􁈔	-13.5585
慓	-13.5585
霹	-13.5585
褻	-13.5585
棐	-13.5585
躧	-13.5586
抚	-13.5587
殢	-13.5587
坁	-13.5588
縯	-13.5588
􁇔	-13.5588
耑	-13.5588
躠	-13.5588
躚	-13.5588
傘	-13.5588
螘	-13.5589
鮎	-13.5589
蓲	-13.5589
氤	-13.5589
茯	-13.559
璁	-13.559
裓	-13.559
茞	-13.559
鼾	-13.559
醼	-13.5591
膈	-13.5591
觰	-13.5591
鵅	-13.5591
磈	-13.5591
搯	-13.5592
嵸	-13.5592
簠	-13.5592
芑	-13.5593
遛	-13.5593
眶	-13.5594
莬	-13.5594
巃	-13.5594
傀	-13.5594
臰	-13.5594
焱	-13.5594
蓿	-13.5594
墝	-13.5595
嬛	-13.5595
姤	-13.5596
咮	-13.5596
蒟	-13.5596
韍	-13.5598
犄	-13.5598
瀴	-13.5598
􁌣	-13.5598
粺	-13.5599
鬋	-13.5599
窸	-13.56
骹	-13.5601
噆	-13.5601
柎	-13.5601
螖	-13.5601
儌	-13.5602
蒹	-13.5602
皭	-13.5603
彠	-13.5605
䜴	-13.5607
䈉	-13.5607
眹	-13.5609
昼	-13.561
苰	-13.5611
釂	-13.5614
炖	-13.5617
檥	-13.5618
齶	-13.562
猰	-13.5622
黭	-13.5624
廥	-13.5625
􁑛	-13.5625
㶁	-13.6309
啽	-13.632
􁢤	-13.6325
􁅃	-13.6328
􁋎	-13.6332
磚	-13.6333
圅	-13.6333
靉	-13.6334
驘	-13.6335
艛	-13.6336
紃	-13.6337
毺	-13.6338
馯	-13.634
囁	-13.634
罳	-13.6341
艎	-13.6341
旧	-13.6341
赱	-13.6341
鳿	-13.6341
惽	-13.6342
蚘	-13.6342
墙	-13.6342
䭀	-13.6342
橊	-13.6342
蛹	-13.6342
麀	-13.6343
券	-13.6343
觳	-13.6343
幀	-13.6344
䊋	-13.6345
袠	-13.6345
磢	-13.6345
菀	-13.6345
尰	-13.6345
晒	-13.6345
竑	-13.6346
凹	-13.6346
緺	-13.6346
伈	-13.6346
銍	-13.6347
隮	-13.6347
聵	-13.6347
丧	-13.6347
𤦺	-13.6347
劓	-13.6347
穪	-13.6347
缷	-13.6347
脔	-13.6348
緄	-13.6348
籛	-13.6348
踘	-13.6348
阬	-13.6348
匑	-13.6348
䟱	-13.6348
嗒	-13.6349
猚	-13.635
􁁓	-13.635
㩥	-13.635
佋	-13.635
褌	-13.635
窿	-13.635
蠐	-13.6351
廛	-13.6351
汛	-13.6352
润	-13.6352
􁇾	-13.6352
􁆭	-13.6352
滫	-13.6352
瀄	-13.6353
鏬	-13.6354
涂	-13.6354
墋	-13.6354
岝	-13.6354
礿	-13.6354
鈚	-13.6354
响	-13.6355
稡	-13.6355
瑑	-13.6355
䝨	-13.6355
濾	-13.6355
㠾	-13.6355
銭	-13.6355
棰	-13.6356
翃	-13.6357
獒	-13.6357
頩	-13.6358
艣	-13.6358
揩	-13.6358
枤	-13.6358
􁄄	-13.6358
淯	-13.6358
鸑	-13.6359
肈	-13.6359
這	-13.6359
斄	-13.6359
頫	-13.6359
沄	-13.6359
拕	-13.6359
鋼	-13.636
痴	-13.636
誗	-13.636
鳸	-13.636
蘷	-13.636
􁤠	-13.636
棆	-13.636
筤	-13.636
癲	-13.636
蜼	-13.636
瓞	-13.6361
膰	-13.6361
毹	-13.6361
簏	-13.6361
拋	-13.6361
卹	-13.6361
瞫	-13.6361
瀺	-13.6361
鶿	-13.6361
捿	-13.6362
狒	-13.6362
馺	-13.6362
瓿	-13.6362
犫	-13.6363
臀	-13.6363
硏	-13.6363
脽	-13.6364
鄞	-13.6365
陑	-13.6365
岧	-13.6365
郈	-13.6366
詧	-13.6366
旞	-13.6366
螓	-13.6366
蹢	-13.6366
傋	-13.6367
蓇	-13.6368
厉	-13.6369
甗	-13.637
坷	-13.637
苢	-13.6371
􁧥	-13.6371
靶	-13.6372
􁟐	-13.6373
􁃦	-13.6376
襧	-13.6376
蘘	-13.6377
藑	-13.6377
饙	-13.6378
湣	-13.638
湁	-13.6384
尻	-13.6385
冄	-13.6386
蟭	-13.6386
雺	-13.6403
靫	-13.6404
屇	-13.7142
殑	-13.7147
􁐨	-13.7153
髖	-13.7159
愒	-13.716
􁆒	-13.7161
塉	-13.7161
鼗	-13.7162
􁂣	-13.7163
綮	-13.7165
髄	-13.7168
髿	-13.7169
畇	-13.7171
杈	-13.7171
菹	-13.7172
跫	-13.7173
僝	-13.7175
报	-13.7176
罡	-13.7176
挛	-13.7176
糒	-13.7177
欙	-13.7177
㟅	-13.7178
侖	-13.7178
攖	-13.7179
贐	-13.7179
茇	-13.7179
獑	-13.718
慍	-13.718
鉠	-13.718
搃	-13.7181
􁂋	-13.7181
㪺	-13.7181
􁂜	-13.7181
􁧐	-13.7181
肸	-13.7181
祍	-13.7181
縰	-13.7181
炕	-13.7182
墍	-13.7182
樕	-13.7183
駚	-13.7183
幨	-13.7184
疐	-13.7184
􁄜	-13.7184
暕	-13.7184
呾	-13.7184
􁪻	-13.7185
疼	-13.7185
􁂒	-13.7185
撅	-13.7185
焠	-13.7185
褧	-13.7186
攕	-13.7186
终	-13.7186
駔	-13.7186
丏	-13.7186
躶	-13.7187
齖	-13.7187
䞉	-13.7187
髲	-13.7187
餋	-13.7188
哽	-13.7188
剴	-13.7188
棉	-13.7189
髇	-13.7189
儡	-13.7189
躐	-13.7189
蠚	-13.7189
藳	-13.7189
焬	-13.719
䦱	-13.719
磅	-13.719
嵑	-13.719
齱	-13.7191
沕	-13.7191
膇	-13.7191
􁛲	-13.7191
釤	-13.7191
􁈼	-13.7192
晀	-13.7192
娀	-13.7192
􁀼	-13.7192
渰	-13.7193
幞	-13.7193
篿	-13.7193
峞	-13.7193
𡵻	-13.7194
􁇋	-13.7194
憖	-13.7194
㕠	-13.7194
壥	-13.7194
䮍	-13.7194
諵	-13.7195
臛	-13.7195
渼	-13.7195
塠	-13.7195
䁑	-13.7195
鈌	-13.7195
輣	-13.7195
蝂	-13.7195
蝜	-13.7195
螬	-13.7196
愊	-13.7196
菂	-13.7197
吷	-13.7197
䬙	-13.7197
胉	-13.7198
􁣏	-13.7198
彷	-13.7198
䡴	-13.7198
鏖	-13.7199
爥	-13.7199
嚏	-13.7199
熄	-13.7199
馲	-13.72
庨	-13.72
醍	-13.7201
袜	-13.7201
涾	-13.7202
䊸	-13.7202
崴	-13.7202
襤	-13.7204
屴	-13.7204
浡	-13.7204
泅	-13.7204
綀	-13.7204
蕅	-13.7206
煆	-13.7206
揳	-13.7208
頦	-13.7208
􁘓	-13.7208
凬	-13.7208
鶺	-13.7208
􁌜	-13.7209
怦	-13.7209
憯	-13.7209
鴅	-13.721
澉	-13.721
逤	-13.7212
碏	-13.7212
樷	-13.7213
籤	-13.7217
䫇	-13.7219
􁑾	-13.7226
䴥	-13.7227
􁖇	-13.7228
罶	-13.7229
狉	-13.7239
轠	-13.7248
繽	-13.8016
栒	-13.804
璪	-13.8069
巠	-13.807
氄	-13.8071
歃	-13.8072
磳	-13.8073
婬	-13.8074
􁒐	-13.8075
欀	-13.8076
䀋	-13.8077
鷢	-13.8077
狘	-13.8077
姙	-13.808
餕	-13.808
踽	-13.808
冔	-13.8081
緤	-13.8081
胛	-13.8081
􁭋	-13.8082
菎	-13.8082
鞴	-13.8083
㲚	-13.8083
凂	-13.8083
佖	-13.8083
錞	-13.8084
剺	-13.8086
蟛	-13.8086
鴣	-13.8086
伇	-13.8086
榕	-13.8086
柷	-13.8086
隖	-13.8086
葫	-13.8087
巣	-13.8087
􁤱	-13.8087
禝	-13.8087
袟	-13.8087
俜	-13.8088
𢋫	-13.8088
峦	-13.8088
蚶	-13.8089
说	-13.8089
眤	-13.809
鷸	-13.809
霔	-13.809
杗	-13.8091
臄	-13.8091
癉	-13.8091
艧	-13.8091
琁	-13.8091
寉	-13.8091
鶾	-13.8091
髵	-13.8091
􁓈	-13.8091
湿	-13.8092
箄	-13.8092
㰹	-13.8092
硃	-13.8093
𠻳	-13.8093
凸	-13.8093
􁒍	-13.8093
㷱	-13.8093
鎡	-13.8093
狭	-13.8094
蟧	-13.8094
躒	-13.8094
筧	-13.8094
胈	-13.8094
郕	-13.8094
駜	-13.8094
貭	-13.8095
鯷	-13.8095
汔	-13.8095
鋗	-13.8095
黶	-13.8095
埶	-13.8096
邶	-13.8096
焭	-13.8096
矱	-13.8096
餚	-13.8096
贑	-13.8096
㗀	-13.8097
㟪	-13.8097
吚	-13.8097
磶	-13.8098
􁏉	-13.8098
㗋	-13.8098
诚	-13.8098
艑	-13.8099
䟃	-13.8099
澂	-13.8099
𧽼	-13.8099
湾	-13.81
旹	-13.81
漎	-13.81
抏	-13.81
䢴	-13.8101
傯	-13.8101
㘅	-13.8101
冑	-13.8101
紞	-13.8101
塓	-13.8102
旺	-13.8102
鮞	-13.8102
煼	-13.8102
闓	-13.8103
趦	-13.8103
􁐸	-13.8103
藇	-13.8103
虥	-13.8103
寠	-13.8104
蹜	-13.8105
婵	-13.8105
萦	-13.8106
靽	-13.8107
蝙	-13.8107
赳	-13.8107
稯	-13.8107
滈	-13.8107
縓	-13.8107
㔻	-13.8107
菡	-13.8107
捂	-13.8108
欶	-13.8108
鱒	-13.8109
妸	-13.8109
殣	-13.8109
􁠬	-13.8109
鷕	-13.811
鼍	-13.811
㑻	-13.811
枷	-13.8111
剷	-13.8113
䲧	-13.8113
䱜	-13.8113
醳	-13.8113
庬	-13.8114
湋	-13.8115
忲	-13.8115
藷	-13.8116
􁑈	-13.8118
鞣	-13.8121
凔	-13.8121
罣	-13.8122
隹	-13.8122
􁇴	-13.8122
槹	-13.8125
駹	-13.8126
旍	-13.8126
糯	-13.8127
嵞	-13.8127
峥	-13.8127
呞	-13.8127
賝	-13.8129
扠	-13.8129
􁪬	-13.813
鱨	-13.8133
鬝	-13.8138
紭	-13.8147
秳	-13.815
螝	-13.9052
酳	-13.9053
劄	-13.9063
摴	-13.9063
癬	-13.9064
騤	-13.9064
裦	-13.9065
麁	-13.9066
噁	-13.9066
囐	-13.907
爞	-13.907
樺	-13.9072
晹	-13.9075
慬	-13.9075
𣅿	-13.9076
蝹	-13.9077
䍐	-13.9079
蔫	-13.9079
曡	-13.9079
姐	-13.9079
稇	-13.9079
暏	-13.908
裧	-13.908
觫	-13.908
􁀈	-13.9082
霛	-13.9083
㪣	-13.9083
䤈	-13.9083
鸀	-13.9084
硾	-13.9084
泜	-13.9084
蝛	-13.9084
絼	-13.9085
蛜	-13.9085
􁓒	-13.9086
輷	-13.9086
邜	-13.9086
眴	-13.9086
肋	-13.9086
瀠	-13.9087
駵	-13.9087
􁆙	-13.9087
鯫	-13.9087
􁂴	-13.9088
輗	-13.9089
鄏	-13.909
惏	-13.909
砑	-13.909
鴝	-13.909
憿	-13.909
朣	-13.909
􁗀	-13.909
闭	-13.909
礨	-13.9091
筈	-13.9091
顋	-13.9091
蔌	-13.9091
冮	-13.9091
獝	-13.9092
觽	-13.9092
輀	-13.9092
􁞘	-13.9093
軏	-13.9093
籧	-13.9093
蕺	-13.9094
䱷	-13.9094
􁦛	-13.9095
㹱	-13.9095
鬆	-13.9095
琉	-13.9095
穾	-13.9095
璺	-13.9096
趟	-13.9096
朁	-13.9096
鐻	-13.9097
兑	-13.9097
价	-13.9097
轊	-13.9097
边	-13.9097
殮	-13.9097
枑	-13.9098
蔾	-13.9098
珧	-13.9098
爊	-13.9098
雏	-13.9099
窰	-13.9099
禿	-13.9099
鶄	-13.9099
礭	-13.91
淶	-13.91
姖	-13.91
热	-13.9101
娵	-13.9101
騒	-13.9101
􁆤	-13.9101
椶	-13.9101
鼷	-13.9101
腭	-13.9101
􁱈	-13.9102
蟀	-13.9102
蛑	-13.9102
灜	-13.9103
辠	-13.9103
瑳	-13.9103
􁃅	-13.9104
䛏	-13.9104
莋	-13.9104
磓	-13.9104
髂	-13.9104
緲	-13.9105
釦	-13.9105
酊	-13.9105
歯	-13.9105
琥	-13.9105
椑	-13.9105
坘	-13.9106
珝	-13.9106
蟋	-13.9106
䑳	-13.9106
敧	-13.9106
籐	-13.9107
鍋	-13.9107
旆	-13.9107
鳦	-13.9107
瓖	-13.9107
䓈	-13.9108
㬉	-13.9108
坈	-13.9108
􁄨	-13.9108
湩	-13.9108
稉	-13.9109
瘐	-13.9109
􁵝	-13.911
刌	-13.911
􁗉	-13.911
湌	-13.911
逑	-13.9111
鏹	-13.9111
曎	-13.9112
杆	-13.9112
喊	-13.9112
韅	-13.9112
潎	-13.9112
䪨	-13.9112
頁	-13.9112
鼖	-13.9113
牸	-13.9113
姮	-13.9113
頠	-13.9113
岬	-13.9114
􁑵	-13.9114
儛	-13.9114
谺	-13.9115
䔿	-13.9116
櫕	-13.9116
汯	-13.9117
滃	-13.9117
甝	-13.9117
穱	-13.9118
桮	-13.9119
餾	-13.9119
剿	-13.9121
昞	-13.9122
滮	-13.9122
鏺	-13.9122
椌	-13.9128
􁊁	-13.9128
瀋	-13.9129
嵁	-13.9129
硿	-13.9131
薳	-13.9134
飁	-13.9144
鬡	-13.9147
泐	-14.0162
覚	-14.0165
􁃩	-14.0171
䀨	-14.0176
𨼆	-14.0178
蠑	-14.0179
怤	-14.0181
蜧	-14.0182
霿	-14.0184
毚	-14.0185
戃	-14.0186
哻	-14.0186
釴	-14.0188
堀	-14.0189
劙	-14.019
弯	-14.019
􁂫	-14.0191
􁱝	-14.0192
誷	-14.0192
謼	-14.0193
褵	-14.0194
溦	-14.0194
囈	-14.0194
瘈	-14.0195
㠯	-14.0196
􁈓	-14.0196
樣	-14.0196
裎	-14.0197
访	-14.0197
䘲	-14.0198
菭	-14.0198
帋	-14.0198
蟢	-14.0198
艅	-14.0199
藭	-14.02
駙	-14.02
􁌒	-14.02
开	-14.0201
㼚	-14.0201
屦	-14.0201
􁬾	-14.0201
卄	-14.0202
堌	-14.0202
蹵	-14.0202
皸	-14.0202
狌	-14.0203
繖	-14.0203
綝	-14.0204
􁅳	-14.0204
縕	-14.0204
蔞	-14.0204
蕈	-14.0204
耡	-14.0204
耤	-14.0205
磲	-14.0205
篘	-14.0205
鑛	-14.0205
絁	-14.0206
饁	-14.0206
禴	-14.0206
撦	-14.0206
蜍	-14.0206
蹁	-14.0206
揾	-14.0207
试	-14.0207
瘃	-14.0207
怐	-14.0207
驉	-14.0207
阙	-14.0208
狢	-14.0208
舚	-14.0208
穭	-14.0208
躘	-14.0208
烻	-14.0208
螀	-14.0208
噽	-14.0208
絫	-14.0208
芦	-14.0208
魎	-14.0209
唄	-14.0209
瀐	-14.0209
蠯	-14.0209
兌	-14.0209
悊	-14.0209
週	-14.0209
僶	-14.0209
蓻	-14.021
硨	-14.021
顴	-14.021
贜	-14.021
儐	-14.0211
坯	-14.0211
弮	-14.0211
虩	-14.0211
蚨	-14.0211
黲	-14.0211
毐	-14.0211
㘖	-14.0212
㖡	-14.0212
䒭	-14.0212
旊	-14.0213
逴	-14.0213
𡑞	-14.0213
裠	-14.0213
儺	-14.0213
酩	-14.0213
􁞒	-14.0213
蔯	-14.0214
岉	-14.0214
愞	-14.0214
駷	-14.0214
𥻘	-14.0214
侐	-14.0215
撏	-14.0215
癕	-14.0216
裞	-14.0216
珵	-14.0216
􁱘	-14.0216
匒	-14.0216
髆	-14.0216
箾	-14.0216
諉	-14.0216
踢	-14.0216
狿	-14.0216
􁊯	-14.0217
䥈	-14.0217
厈	-14.0217
擭	-14.0217
倞	-14.0217
􁣉	-14.0217
矘	-14.0217
㬠	-14.0217
抅	-14.0218
㠢	-14.0218
陥	-14.0218
嗸	-14.0219
稛	-14.0219
耵	-14.0219
讁	-14.0219
梀	-14.022
鵊	-14.022
仵	-14.022
垜	-14.022
砆	-14.022
耔	-14.0221
躩	-14.0221
醞	-14.0221
莨	-14.0221
芎	-14.0222
蹏	-14.0222
藨	-14.0222
樀	-14.0222
曍	-14.0222
臓	-14.0223
霎	-14.0223
韀	-14.0224
嶨	-14.0224
蒀	-14.0224
齷	-14.0224
皰	-14.0224
婕	-14.0225
躇	-14.0225
鞵	-14.0225
塿	-14.0225
沏	-14.0225
偬	-14.0225
婠	-14.0225
拌	-14.0225
狛	-14.0226
蔿	-14.0227
奼	-14.0227
迆	-14.0227
奅	-14.0228
偟	-14.0228
◍	-14.0228
茷	-14.0229
眛	-14.0229
裭	-14.0229
􁢡	-14.0229
􁆢	-14.023
嵋	-14.023
魦	-14.0231
轥	-14.0232
􁋚	-14.0233
鐮	-14.0233
窋	-14.0235
瑄	-14.0235
摟	-14.0237
馡	-14.024
剟	-14.024
誖	-14.024
栧	-14.0249
鬇	-14.0252
麖	-14.0255
􁇆	-14.0256
齰	-14.0261
毶	-14.0264
鰩	-14.1401
蛕	-14.1406
儳	-14.1417
蚣	-14.1425
祑	-14.1428
渻	-14.1428
褅	-14.1428
欖	-14.1429
甆	-14.1431
蛷	-14.1432
櫑	-14.1434
蕢	-14.1434
蚝	-14.1435
吰	-14.1435
馽	-14.1435
殗	-14.1436
弆	-14.1436
貘	-14.1437
䎀	-14.1437
旼	-14.1437
祺	-14.1438
棫	-14.1439
湻	-14.1439
肬	-14.1439
羵	-14.1441
嵺	-14.1442
菘	-14.1442
竉	-14.1442
饟	-14.1443
􁁬	-14.1443
苶	-14.1443
躳	-14.1443
嘍	-14.1444
囅	-14.1444
礰	-14.1444
贒	-14.1445
籊	-14.1445
鎸	-14.1445
许	-14.1445
蘤	-14.1445
赼	-14.1445
肧	-14.1446
蕆	-14.1446
溯	-14.1447
䳱	-14.1447
􁎘	-14.1447
媕	-14.1448
餱	-14.1448
甋	-14.1448
涧	-14.1448
㢩	-14.1448
檽	-14.1449
脸	-14.1449
窴	-14.1449
悺	-14.1449
艨	-14.1449
奘	-14.145
檎	-14.145
卝	-14.145
瀩	-14.145
鷩	-14.145
臃	-14.1451
舖	-14.1451
賺	-14.1451
鶢	-14.1452
􁈈	-14.1452
庙	-14.1452
盰	-14.1452
鶋	-14.1452
餁	-14.1452
􁅗	-14.1452
􁇷	-14.1452
戵	-14.1452
词	-14.1452
澴	-14.1452
薎	-14.1452
㬂	-14.1453
䂊	-14.1453
繦	-14.1454
嬎	-14.1454
嚨	-14.1454
硋	-14.1454
騝	-14.1454
堛	-14.1455
烋	-14.1455
玗	-14.1455
椇	-14.1455
痌	-14.1455
纑	-14.1456
􁈋	-14.1456
蓨	-14.1456
鞦	-14.1456
枣	-14.1456
􁦚	-14.1456
璚	-14.1456
柤	-14.1457
儦	-14.1457
礐	-14.1457
􁁑	-14.1457
菢	-14.1457
嫇	-14.1457
?	-14.1458
愐	-14.1458
㫋	-14.1458
䳒	-14.1458
聪	-14.1458
㴶	-14.1459
斎	-14.1459
㤪	-14.1459
􁛙	-14.1459
匳	-14.146
䯗	-14.146
臝	-14.146
慽	-14.146
孶	-14.146
㞯	-14.146
濴	-14.1461
轗	-14.1461
諓	-14.1461
毊	-14.1461
渑	-14.1461
屖	-14.1461
萆	-14.1462
諝	-14.1462
秅	-14.1462
薧	-14.1462
謦	-14.1462
瓤	-14.1463
􁊖	-14.1463
觶	-14.1463
䨥	-14.1463
􁀜	-14.1463
蟈	-14.1463
䀻	-14.1464
栭	-14.1464
􁊾	-14.1464
嶤	-14.1464
曒	-14.1464
蛄	-14.1464
􁤮	-14.1465
倓	-14.1465
鉷	-14.1465
欐	-14.1465
嘮	-14.1465
􁅾	-14.1465
昳	-14.1466
鬣	-14.1466
踼	-14.1466
宷	-14.1466
蜎	-14.1466
塒	-14.1466
唤	-14.1466
觡	-14.1467
蜲	-14.1467
簵	-14.1468
匊	-14.1468
齟	-14.1468
篨	-14.1469
箜	-14.1469
嗄	-14.1469
蕰	-14.147
㻛	-14.147
鱖	-14.147
睗	-14.1471
燉	-14.1471
忼	-14.1471
跀	-14.1471
撈	-14.1472
㬢	-14.1472
黐	-14.1472
眭	-14.1473
耎	-14.1473
犠	-14.1473
喓	-14.1474
笆	-14.1474
砲	-14.1474
贗	-14.1474
葐	-14.1476
蓰	-14.1476
轎	-14.1476
逷	-14.1476
溳	-14.1478
妠	-14.1478
豻	-14.1478
夌	-14.1478
棱	-14.1478
熀	-14.1478
慆	-14.1479
穜	-14.148
䑋	-14.1481
􁏢	-14.1481
嵤	-14.1482
旤	-14.1482
萏	-14.1482
􁉽	-14.1482
渗	-14.1483
痆	-14.1484
硞	-14.1484
娄	-14.1486
漴	-14.1486
駴	-14.1486
爹	-14.1487
􁝓	-14.1488
馤	-14.1493
粼	-14.1493
套	-14.1494
繃	-14.1495
䁔	-14.1495
鱧	-14.1495
虒	-14.1496
磹	-14.1499
菔	-14.1499
䰃	-14.151
􁋯	-14.1525
齴	-14.1542
䝢	-14.2837
􁪄	-14.2849
􁁍	-14.2852
虇	-14.2855
閇	-14.2855
橇	-14.2857
􁆍	-14.2859
噌	-14.286
鏐	-14.2861
嗏	-14.2862
悋	-14.2862
䦘	-14.2866
坫	-14.2866
篝	-14.2866
巑	-14.2867
㮰	-14.2867
岠	-14.2867
跒	-14.2867
劖	-14.2868
䖶	-14.2868
祴	-14.2869
黁	-14.2869
瀡	-14.2869
侜	-14.287
䳽	-14.287
萟	-14.287
鷓	-14.287
橄	-14.2871
胖	-14.2871
茩	-14.2871
蛒	-14.2871
秠	-14.2871
飂	-14.2871
蹯	-14.2872
䇲	-14.2873
䳇	-14.2873
鵯	-14.2873
憓	-14.2874
磟	-14.2874
􁈎	-14.2874
腯	-14.2875
祋	-14.2876
阤	-14.2876
碔	-14.2876
鍍	-14.2877
􁢚	-14.2877
㘘	-14.2877
呿	-14.2877
鍮	-14.2877
㹅	-14.2877
䯱	-14.2877
垌	-14.2878
学	-14.2878
􁇥	-14.2878
晲	-14.2878
蹺	-14.2879
鱏	-14.2879
嗁	-14.2879
繘	-14.2879
􁒷	-14.2879
𡋯	-14.2879
䊵	-14.2879
浃	-14.288
槪	-14.288
禛	-14.288
戔	-14.288
輼	-14.288
鼹	-14.288
谢	-14.288
圌	-14.2881
碌	-14.2881
䓻	-14.2882
厰	-14.2882
忪	-14.2882
濔	-14.2883
熳	-14.2883
􁦺	-14.2883
扂	-14.2883
椳	-14.2883
茙	-14.2883
僿	-14.2883
􁇂	-14.2884
􁍆	-14.2884
靍	-14.2884
􁩉	-14.2884
懥	-14.2884
􁋆	-14.2884
艚	-14.2884
盯	-14.2885
䍦	-14.2885
㑪	-14.2885
飪	-14.2885
􁁄	-14.2885
壐	-14.2885
囧	-14.2885
繾	-14.2885
哿	-14.2886
􁣛	-14.2886
礩	-14.2886
姞	-14.2886
􁃻	-14.2886
堁	-14.2886
㒵	-14.2886
㫮	-14.2886
衊	-14.2886
媲	-14.2886
稾	-14.2887
驣	-14.2887
珤	-14.2887
䳌	-14.2887
􁽘	-14.2887
嬿	-14.2887
􁆝	-14.2887
翯	-14.2887
鰐	-14.2887
攵	-14.2887
窑	-14.2887
潕	-14.2887
簺	-14.2888
􁏙	-14.2888
齾	-14.2888
撕	-14.2888
㫤	-14.2889
髥	-14.2889
脝	-14.2889
膨	-14.2889
鑮	-14.2889
麌	-14.289
嶻	-14.289
昝	-14.289
㚃	-14.289
崫	-14.289
蝠	-14.289
傺	-14.2891
薲	-14.2891
􁗤	-14.2891
蹭	-14.2891
瞵	-14.2891
楶	-14.2891
殚	-14.2892
计	-14.2892
凙	-14.2892
瑲	-14.2892
丄	-14.2892
洴	-14.2893
梐	-14.2894
弝	-14.2894
泔	-14.2894
醭	-14.2894
㭬	-14.2895
妮	-14.2895
廆	-14.2895
榰	-14.2895
煚	-14.2895
糿	-14.2895
訩	-14.2895
􁳩	-14.2895
􁪅	-14.2896
帡	-14.2896
萸	-14.2896
淟	-14.2896
髢	-14.2896
曭	-14.2897
􁈷	-14.2897
􁊞	-14.2897
曯	-14.2897
皠	-14.2898
疃	-14.2898
佉	-14.2898
􁥽	-14.2899
喩	-14.2899
呢	-14.2899
艟	-14.2899
潿	-14.2899
鋜	-14.29
賕	-14.29
􁍟	-14.29
褸	-14.29
􁆉	-14.2901
鈹	-14.2901
舐	-14.2901
凼	-14.2901
珬	-14.2901
壝	-14.2901
濰	-14.2902
􁈊	-14.2902
􁄂	-14.2902
趿	-14.2902
􁆘	-14.2902
杕	-14.2903
堘	-14.2903
跑	-14.2903
䠥	-14.2903
饛	-14.2904
嗗	-14.2904
齵	-14.2904
窡	-14.2904
澱	-14.2904
记	-14.2904
帬	-14.2905
􁵥	-14.2905
禬	-14.2905
嵘	-14.2906
䃔	-14.2906
阸	-14.2906
䃧	-14.2907
鸜	-14.2907
涏	-14.2907
妳	-14.2907
翱	-14.2907
傔	-14.2908
􁇀	-14.2909
嗑	-14.2909
婞	-14.2909
唲	-14.2909
鼽	-14.291
籗	-14.291
匜	-14.291
􁥆	-14.291
鑁	-14.2911
䶪	-14.2911
齦	-14.2911
噑	-14.2912
冱	-14.2912
𨫼	-14.2913
稑	-14.2914
慅	-14.2915
伭	-14.2915
揫	-14.2918
􁂚	-14.2919
呥	-14.2923
蕸	-14.2923
㯐	-14.2924
撙	-14.2925
彴	-14.2927
獌	-14.2929
扴	-14.293
粇	-14.2941
耏	-14.2943
礬	-14.2943
􁄪	-14.2958
㱥	-14.449
檋	-14.4504
諆	-14.4512
葜	-14.4514
䎖	-14.4517
邘	-14.4518
禩	-14.4518
箟	-14.4519
􁞋	-14.4519
儓	-14.4521
衩	-14.4523
䝡	-14.4524
蝑	-14.4524
鷞	-14.4526
舔	-14.4526
舕	-14.4526
䔍	-14.4526
豰	-14.4527
颴	-14.4529
􁞡	-14.4529
􁦹	-14.4531
穷	-14.4532
㦤	-14.4532
濅	-14.4532
瞱	-14.4533
鶠	-14.4535
胭	-14.4536
嶛	-14.4536
蛚	-14.4537
瘏	-14.4537
敻	-14.4537
猳	-14.4537
骾	-14.4537
齬	-14.4537
猢	-14.4539
䯰	-14.4539
嗴	-14.4539
顫	-14.4539
芈	-14.4539
蝤	-14.4539
韤	-14.454
匵	-14.454
遫	-14.454
伷	-14.454
熸	-14.454
㚟	-14.454
璐	-14.4541
腒	-14.4541
奓	-14.4541
皈	-14.4541
简	-14.4541
匃	-14.4541
媱	-14.4542
涽	-14.4542
灮	-14.4542
㛂	-14.4542
毌	-14.4542
杻	-14.4543
靆	-14.4543
􁌘	-14.4543
鍭	-14.4543
蝄	-14.4543
难	-14.4543
姸	-14.4544
泲	-14.4544
剱	-14.4544
􁒪	-14.4544
衖	-14.4545
﨣	-14.4545
稙	-14.4545
权	-14.4545
憭	-14.4546
鷯	-14.4546
􁭘	-14.4546
㷊	-14.4546
蔀	-14.4546
磥	-14.4546
夑	-14.4546
甽	-14.4547
晧	-14.4548
􁆐	-14.4548
緥	-14.4548
愗	-14.4548
圴	-14.4548
鱄	-14.4548
袛	-14.4548
矃	-14.4548
跙	-14.4549
惪	-14.4549
蠈	-14.4549
辴	-14.455
皜	-14.455
頮	-14.455
􁚠	-14.455
呺	-14.455
􁳟	-14.455
幺	-14.455
叮	-14.455
韂	-14.4551
潠	-14.4551
閺	-14.4551
亍	-14.4551
𥪡	-14.4551
为	-14.4551
罭	-14.4551
𩔖	-14.4551
􁣓	-14.4552
弨	-14.4552
䌨	-14.4552
􁎠	-14.4552
厀	-14.4552
话	-14.4552
􁃰	-14.4553
嚂	-14.4553
芿	-14.4553
􁉊	-14.4553
蒍	-14.4553
秒	-14.4554
衉	-14.4554
硝	-14.4554
邡	-14.4554
疄	-14.4554
䪺	-14.4555
􁨘	-14.4555
靂	-14.4555
􁏁	-14.4555
儈	-14.4555
厪	-14.4555
冋	-14.4555
䴢	-14.4555
襠	-14.4555
􁱎	-14.4555
韄	-14.4556
愰	-14.4556
檞	-14.4556
鈲	-14.4556
㩗	-14.4556
鷤	-14.4556
鈃	-14.4556
骴	-14.4556
迡	-14.4556
􁞂	-14.4556
􁌲	-14.4556
瞤	-14.4556
􁜎	-14.4557
䰅	-14.4557
蝯	-14.4557
揕	-14.4557
黦	-14.4557
􁊬	-14.4557
愸	-14.4557
殭	-14.4557
嚀	-14.4557
梈	-14.4558
鳷	-14.4558
橕	-14.4558
燂	-14.4558
鏕	-14.4558
􁒬	-14.4558
藓	-14.4558
竫	-14.4558
蘙	-14.4558
膟	-14.4558
􁗟	-14.4559
槮	-14.4559
嶅	-14.4559
偼	-14.4559
宧	-14.4559
燹	-14.4559
䑃	-14.4559
斒	-14.4559
礌	-14.4559
縧	-14.456
轆	-14.456
􁉅	-14.456
􁎙	-14.456
􁐟	-14.456
俁	-14.456
澾	-14.4561
譆	-14.4561
㞐	-14.4561
蝃	-14.4561
嶟	-14.4561
呤	-14.4561
寑	-14.4562
霠	-14.4562
釅	-14.4562
㹈	-14.4562
蓷	-14.4563
喀	-14.4563
箊	-14.4563
蕎	-14.4563
亙	-14.4563
罙	-14.4563
嶝	-14.4563
眂	-14.4564
䨱	-14.4564
芜	-14.4564
蠵	-14.4564
襶	-14.4564
褦	-14.4564
淈	-14.4564
㕐	-14.4565
涊	-14.4565
蝼	-14.4565
㽜	-14.4565
佹	-14.4565
菸	-14.4565
酭	-14.4566
矐	-14.4566
􁮺	-14.4566
媼	-14.4566
罿	-14.4567
愻	-14.4567
朎	-14.4567
卾	-14.4568
瞷	-14.4568
湽	-14.4568
鞙	-14.4568
􁀡	-14.4568
墆	-14.4568
抓	-14.4569
篹	-14.4569
踒	-14.4569
襴	-14.457
蓱	-14.457
扸	-14.457
瑨	-14.457
㹞	-14.457
𤾉	-14.457
䕓	-14.457
簝	-14.4571
疕	-14.4571
乕	-14.4571
烺	-14.4571
㹪	-14.4572
熯	-14.4572
圩	-14.4572
蕍	-14.4572
苪	-14.4573
錙	-14.4573
䎵	-14.4573
粽	-14.4573
傶	-14.4573
蠥	-14.4573
􁩑	-14.4574
豌	-14.4574
煕	-14.4574
嫦	-14.4575
􁛮	-14.4576
调	-14.4576
蓝	-14.4576
杰	-14.4577
􁪫	-14.4577
蹳	-14.4577
猯	-14.4577
㗘	-14.4578
榘	-14.4578
䛠	-14.4578
譳	-14.4578
瞼	-14.4579
慞	-14.4579
圿	-14.4579
􁸲	-14.458
茱	-14.458
摏	-14.458
瓅	-14.4581
鈋	-14.4582
黳	-14.4582
玓	-14.4583
儹	-14.4584
䶗	-14.4585
􁁱	-14.4585
􁄾	-14.4586
邲	-14.4587
䦪	-14.4587
濇	-14.4588
㧕	-14.4588
峓	-14.4589
㬋	-14.4594
㩎	-14.4594
􁂳	-14.46
墌	-14.4605
丨	-14.4609
􁊣	-14.4611
軑	-14.4626
岭	-14.6471
鶆	-14.6486
閧	-14.6489
齯	-14.65
捔	-14.6505
忳	-14.651
曋	-14.6512
􁅯	-14.6512
驑	-14.6513
􁐘	-14.6513
琫	-14.6514
檚	-14.6518
䁨	-14.652
嚦	-14.652
􁑞	-14.6522
􁏋	-14.6522
㬅	-14.6522
戹	-14.6523
爟	-14.6523
堲	-14.6523
趗	-14.6523
趢	-14.6524
险	-14.6524
䝘	-14.6526
觹	-14.6526
徛	-14.6526
爣	-14.6527
擽	-14.6527
圪	-14.6527
姽	-14.6527
芩	-14.6527
􁍱	-14.6528
蜷	-14.6528
薢	-14.6529
􁇲	-14.6529
鄎	-14.6529
􁃍	-14.653
􁀞	-14.6531
㥄	-14.6531
鑲	-14.6531
师	-14.6532
糉	-14.6532
嵪	-14.6532
㩲	-14.6532
墄	-14.6533
䫙	-14.6533
敛	-14.6533
砦	-14.6533
咼	-14.6533
浰	-14.6533
䆁	-14.6533
鮥	-14.6534
􁫁	-14.6534
㜑	-14.6535
􁂪	-14.6535
濉	-14.6535
岍	-14.6535
梪	-14.6536
幈	-14.6536
錏	-14.6536
憍	-14.6536
枊	-14.6537
彳	-14.6537
賷	-14.6537
􁈂	-14.6537
驌	-14.6537
垡	-14.6538
儭	-14.6538
􁍺	-14.6538
㩜	-14.6539
幖	-14.6539
􁐠	-14.654
箵	-14.654
􁏏	-14.654
塪	-14.6541
􁒞	-14.6541
淀	-14.6541
􁅘	-14.6541
甦	-14.6542
儿	-14.6542
霫	-14.6542
戓	-14.6542
岕	-14.6542
濓	-14.6542
杮	-14.6542
㲄	-14.6542
鈛	-14.6542
緃	-14.6543
坵	-14.6543
陏	-14.6543
棡	-14.6543
瀎	-14.6543
埳	-14.6543
愫	-14.6544
璈	-14.6544
餵	-14.6544
䝖	-14.6544
麪	-14.6544
䐉	-14.6545
胘	-14.6545
𪠘	-14.6545
𢥠	-14.6545
砺	-14.6545
㮋	-14.6546
㠊	-14.6546
菖	-14.6546
倆	-14.6546
鸅	-14.6546
鴮	-14.6546
崌	-14.6547
窔	-14.6547
椓	-14.6547
繮	-14.6547
脟	-14.6547
啑	-14.6547
牯	-14.6548
溈	-14.6548
㘽	-14.6548
帘	-14.6548
􁀋	-14.6548
㷌	-14.6548
􁪣	-14.6548
􁁣	-14.6548
䮂	-14.6548
彿	-14.6549
䃯	-14.6549
焞	-14.6549
逬	-14.6549
蛦	-14.6549
㻫	-14.655
絭	-14.655
丳	-14.655
茎	-14.655
媦	-14.655
鼘	-14.655
禚	-14.655
汐	-14.655
灨	-14.655
􁎓	-14.655
卺	-14.655
杶	-14.655
俲	-14.6551
湸	-14.6551
梱	-14.6551
荈	-14.6551
㩧	-14.6551
梫	-14.6551
醝	-14.6551
罯	-14.6551
経	-14.6551
跎	-14.6551
广	-14.6552
倰	-14.6552
禔	-14.6552
㔾	-14.6552
傕	-14.6552
潇	-14.6552
酟	-14.6553
蠼	-14.6553
䵝	-14.6553
瓬	-14.6553
靧	-14.6553
扜	-14.6553
観	-14.6553
囦	-14.6553
訑	-14.6553
􁅿	-14.6553
猋	-14.6554
晥	-14.6554
癏	-14.6554
蟁	-14.6554
屆	-14.6554
误	-14.6554
囋	-14.6554
絇	-14.6554
瘝	-14.6554
鵹	-14.6554
嘩	-14.6555
絿	-14.6555
􁁸	-14.6555
䙀	-14.6555
􁗩	-14.6555
咥	-14.6555
􁪸	-14.6555
旿	-14.6555
㙮	-14.6556
醡	-14.6556
躆	-14.6556
鯋	-14.6556
酅	-14.6556
䡄	-14.6556
淠	-14.6556
矞	-14.6556
詀	-14.6556
帢	-14.6557
噳	-14.6557
敤	-14.6557
鵃	-14.6557
掐	-14.6557
􁈻	-14.6557
㦧	-14.6557
墇	-14.6557
𠞰	-14.6558
嵊	-14.6558
􁰓	-14.6558
綳	-14.6558
􁃇	-14.6558
怔	-14.6558
瓛	-14.6558
陻	-14.6559
楺	-14.6559
敳	-14.6559
挴	-14.6559
譍	-14.6559
篌	-14.6559
䳄	-14.6559
軮	-14.6559
㟵	-14.656
儧	-14.656
寋	-14.656
鎘	-14.656
滀	-14.656
堄	-14.656
嶜	-14.656
隉	-14.6561
嶶	-14.6561
妊	-14.6562
倿	-14.6562
頬	-14.6562
眵	-14.6562
蚑	-14.6562
刴	-14.6562
畡	-14.6563
䄠	-14.6563
瓀	-14.6563
棁	-14.6563
渀	-14.6563
柜	-14.6563
蘥	-14.6564
㫌	-14.6564
蠀	-14.6564
􁈘	-14.6564
褶	-14.6564
碗	-14.6564
聎	-14.6564
嶃	-14.6565
㽅	-14.6565
侘	-14.6565
袗	-14.6565
溤	-14.6565
呰	-14.6565
搬	-14.6565
旙	-14.6565
炱	-14.6565
脁	-14.6565
繤	-14.6566
瀵	-14.6566
菆	-14.6566
弰	-14.6566
烙	-14.6566
􁓨	-14.6566
痱	-14.6566
鞌	-14.6566
丫	-14.6567
􁈠	-14.6567
晊	-14.6567
䐁	-14.6567
孴	-14.6568
䫈	-14.6568
慗	-14.6568
挃	-14.6568
瘕	-14.6568
璬	-14.6568
聹	-14.6569
录	-14.6569
抬	-14.6569
栻	-14.6569
憨	-14.6569
楪	-14.6569
􁙆	-14.657
鵋	-14.657
葍	-14.6571
􁠄	-14.6571
蜘	-14.6571
烬	-14.6572
􁰉	-14.6572
􁎿	-14.6573
鈒	-14.6573
寪	-14.6573
䒱	-14.6573
㵸	-14.6573
縐	-14.6573
䗶	-14.6573
􁤋	-14.6574
烖	-14.6574
红	-14.6575
瞜	-14.6575
囉	-14.6575
謎	-14.6575
狵	-14.6576
䀎	-14.6576
埿	-14.6576
喏	-14.6577
鶘	-14.6577
􁎗	-14.6577
彄	-14.6577
􁡯	-14.6577
㩻	-14.6577
裀	-14.6577
訹	-14.6577
􁃊	-14.6577
蜾	-14.6577
滬	-14.6578
鍥	-14.6578
苃	-14.6578
僄	-14.6578
􁁺	-14.6578
瀣	-14.6579
簘	-14.6579
罋	-14.658
捾	-14.6581
蹛	-14.6581
侻	-14.6582
䀜	-14.6582
硊	-14.6583
􁞀	-14.6584
嶭	-14.6584
􁘬	-14.6585
㧓	-14.6586
􁶎	-14.6587
霢	-14.6589
篱	-14.6589
􁓳	-14.6589
䲻	-14.659
騵	-14.6591
㓤	-14.6592
鐐	-14.6594
滍	-14.6596
鍰	-14.6596
蚖	-14.6597
虣	-14.6598
杚	-14.66
媬	-14.6604
㿃	-14.6605
鱞	-14.6609
麇	-14.6629
䰇	-14.8998
揑	-14.9001
㳽	-14.9002
敚	-14.9003
渲	-14.9004
篴	-14.9005
嚫	-14.9008
簎	-14.9013
恶	-14.9014
孁	-14.9016
悳	-14.9016
墣	-14.9017
籣	-14.9018
簌	-14.902
䄜	-14.902
梦	-14.902
笯	-14.902
䐽	-14.9021
洭	-14.9021
煗	-14.9021
塸	-14.9021
棑	-14.9023
炟	-14.9023
礋	-14.9023
屎	-14.9024
礠	-14.9024
眒	-14.9024
构	-14.9025
撽	-14.9026
碡	-14.9026
楳	-14.9027
硱	-14.9027
眧	-14.9027
穅	-14.9028
䔩	-14.9028
猕	-14.9028
㳤	-14.903
㫿	-14.903
兪	-14.903
淞	-14.9031
梮	-14.9031
癥	-14.9031
汋	-14.9031
僾	-14.9031
仚	-14.9032
站	-14.9032
籮	-14.9032
喞	-14.9033
戄	-14.9034
冣	-14.9034
禓	-14.9034
駸	-14.9035
䋫	-14.9035
玞	-14.9035
媺	-14.9035
娿	-14.9036
囗	-14.9036
㒞	-14.9037
朢	-14.9037
烮	-14.9037
岅	-14.9038
皱	-14.9039
䁱	-14.9039
灤	-14.9039
䍥	-14.9039
偭	-14.9039
䁀	-14.9041
撢	-14.9041
掺	-14.9041
极	-14.9042
姍	-14.9042
唉	-14.9042
涍	-14.9042
瓽	-14.9042
焂	-14.9043
媻	-14.9044
䄇	-14.9044
啍	-14.9044
爮	-14.9044
栮	-14.9045
攊	-14.9045
睐	-14.9045
囤	-14.9045
䣛	-14.9045
炲	-14.9045
㬣	-14.9045
狋	-14.9045
桯	-14.9046
竂	-14.9046
嬻	-14.9046
懘	-14.9046
澐	-14.9046
㺐	-14.9047
濙	-14.9047
玺	-14.9048
圁	-14.9048
䄛	-14.9048
䬴	-14.9048
犦	-14.9048
槯	-14.9048
槙	-14.9048
䮧	-14.9048
甒	-14.9049
濜	-14.9049
箖	-14.9049
濈	-14.9049
穨	-14.9049
慦	-14.9049
围	-14.9049
䔫	-14.9049
檅	-14.905
濼	-14.905
惉	-14.9051
庤	-14.9051
㠘	-14.9051
㵳	-14.9051
恌	-14.9051
棅	-14.9051
稃	-14.9051
嘅	-14.9051
㴻	-14.9051
䏎	-14.9051
矑	-14.9052
唽	-14.9052
㿈	-14.9052
㕁	-14.9052
孾	-14.9052
泖	-14.9052
涑	-14.9052
籔	-14.9052
䳺	-14.9053
彃	-14.9053
敉	-14.9053
搽	-14.9054
团	-14.9054
恞	-14.9054
㰖	-14.9055
埆	-14.9055
鷀	-14.9055
矸	-14.9055
筊	-14.9055
蛺	-14.9056
朮	-14.9056
睃	-14.9056
厫	-14.9056
亝	-14.9056
俅	-14.9056
涫	-14.9056
䆗	-14.9056
㡊	-14.9056
䳡	-14.9056
墱	-14.9056
笔	-14.9056
扯	-14.9057
瞟	-14.9057
屫	-14.9057
䦧	-14.9057
磍	-14.9057
抳	-14.9057
杀	-14.9057
睪	-14.9059
㡡	-14.9059
戭	-14.9059
眨	-14.9059
拪	-14.9059
睲	-14.906
俌	-14.906
眾	-14.906
偑	-14.906
䃸	-14.906
瀇	-14.9061
烕	-14.9062
洓	-14.9062
獽	-14.9062
㲪	-14.9062
毾	-14.9062
壎	-14.9062
彙	-14.9063
䕷	-14.9063
䬸	-14.9063
嗥	-14.9063
喌	-14.9064
洨	-14.9064
俫	-14.9064
浅	-14.9066
澟	-14.9066
眆	-14.9066
偒	-14.9067
瑝	-14.9067
澬	-14.9067
檇	-14.9067
亜	-14.9067
恼	-14.9067
珢	-14.9067
俋	-14.9068
卮	-14.9069
垻	-14.9069
癗	-14.9069
撆	-14.907
沠	-14.907
嫻	-14.907
勱	-14.9071
涗	-14.9071
污	-14.9071
氎	-14.9071
夗	-14.9071
焫	-14.9071
泒	-14.9073
搌	-14.9073
璮	-14.9074
蟪	-14.9074
瓐	-14.9074
坋	-14.9076
溰	-14.9076
敔	-14.9077
㦖	-14.9077
檪	-14.9077
瘀	-14.9078
昡	-14.9078
㮏	-14.9078
瓟	-14.9079
㠔	-14.9079
䭿	-14.908
渹	-14.908
撠	-14.908
犺	-14.9081
佂	-14.9082
䡍	-14.9082
噰	-14.9082
揥	-14.9083
气	-14.9083
盒	-14.9084
栘	-14.9084
樴	-14.9088
矒	-14.9088
㟏	-14.9088
䵩	-14.9088
曚	-14.9088
帴	-14.9089
媖	-14.9091
婷	-14.9092
岺	-14.9092
俺	-14.9093
沵	-14.9093
㗁	-14.9096
䰉	-14.9096
㗫	-14.9104
粵	-14.9106
妆	-14.9109
笲	-14.911
挚	-14.9116
㬌	-14.9127
䃱	-14.9131
韆	-15.2348
琊	-15.2362
袈	-15.2368
顦	-15.2375
醐	-15.239
蝴	-15.239
㺄	-15.7353
葡	-15.7369
驦	-15.7394
鵁	-15.7412
熣	-16.736
毼	-16.7361
庉	-16.7362
䵷	-16.7363
蝭	-16.7364
䂬	-16.7365
颾	-16.7366
彲	-16.7367
㢝	-16.7368
礜	-16.7369
玁	-16.737
毸	-16.7371
毰	-16.7372
鷘	-16.7373
鞨	-16.7374
嫄	-16.7375
祢	-16.7376
牱	-16.7377
袨	-16.7378
糢	-16.7379
獗	-16.738
傞	-16.7381
蚯	-16.7382
獼	-16.7383
裟	-16.7383
鷥	-16.7384
逅	-16.7385
>	-16.7386
=	-16.7387
3	-16.7388
"	-16.7389
枇	-16.7389
