<unk>	0
<s>	0
</s>	0
。	-1.9999
之	-5.06322
不	-5.26152
曰	-5.36098
有	-5.42327
一	-5.42624
云	-5.43972
,	-5.45832
也	-5.46157
無	-5.49431
為	-5.56994
者	-5.57804
人	-5.6305
師	-5.66427
師云	-5.6921
師曰	-5.73461
是	-5.75324
問	-5.77518
而	-5.7867
以	-5.81488
道	-5.84326
得	-5.8568
如	-5.91201
見	-5.94226
來	-5.95397
心	-5.95688
(	-5.97716
於	-6.03488
中	-6.05909
大	-6.06427
自	-6.06777
在	-6.0838
)	-6.1112
其	-6.11124
生	-6.15123
▁	-6.16602
此	-6.16791
時	-6.177
行	-6.18346
則	-6.19983
山	-6.21625
我	-6.22783
即	-6.25456
上	-6.28034
若	-6.30182
處	-6.30185
與	-6.30244
出	-6.33621
佛	-6.35591
禪師	-6.3571
子	-6.35809
非	-6.37614
法	-6.37799
去	-6.42133
三	-6.42554
作	-6.4375
又	-6.44272
事	-6.44377
天	-6.44876
相	-6.45118
說	-6.48035
明	-6.50097
下	-6.52639
入	-6.52843
後	-6.53095
上堂	-6.5318
頭	-6.56459
」「	-6.56855
故	-6.57105
知	-6.58079
水	-6.59543
和尚	-6.61256
至	-6.63067
日	-6.65564
空	-6.67735
成	-6.67795
言	-6.69584
舉	-6.70224
同	-6.71526
僧	-6.72237
汝	-6.72463
盡	-6.7317
所	-6.73853
未	-6.74359
乃	-6.75145
地	-6.75338
然	-6.75492
亦	-6.75499
真	-6.7563
可	-6.77642
因	-6.78004
雲	-6.7846
身	-6.79018
當	-6.79472
前	-6.79858
便	-6.80359
名	-6.8196
聞	-6.82046
風	-6.82237
過	-6.83101
何	-6.83167
難	-6.83445
向	-6.84706
能	-6.87287
不得	-6.87374
語	-6.87875
月	-6.88235
公	-6.89117
著	-6.91464
二	-6.91477
開	-6.92349
歸	-6.9253
將	-6.92584
到	-6.93564
起	-6.9393
看	-6.94471
他	-6.9593
巳	-6.96024
光	-6.96589
從	-6.99695
裏	-7.00849
門	-7.01923
世	-7.02064
了	-7.02167
底	-7.02892
還	-7.02994
眼	-7.03273
正	-7.03933
莫	-7.04306
你	-7.04475
皆	-7.04505
多	-7.0454
會	-7.04608
矣	-7.04964
高	-7.05083
復	-7.05582
要	-7.05584
如何是	-7.05925
參	-7.06304
諸	-7.07156
教	-7.07806
▁*	-7.07844
本	-7.08276
今	-7.08379
長	-7.08532
用	-7.08808
更	-7.09174
四	-7.09178
意	-7.10497
聲	-7.10917
方	-7.11301
家	-7.11335
却	-7.11875
老	-7.13785
深	-7.13813
遂	-7.14047
住	-7.14231
今日	-7.14739
重	-7.15971
眾	-7.16063
好	-7.16122
解	-7.16492
常	-7.16698
欲	-7.16946
打	-7.16969
轉	-7.17279
五	-7.1772
坐	-7.18201
分	-7.19274
且	-7.19531
悟	-7.1967
安	-7.21108
經	-7.21478
智	-7.21944
進云	-7.22118
或	-7.22528
既	-7.22795
謂	-7.23674
禪	-7.23926
王	-7.24663
金	-7.2487
吾	-7.2536
求	-7.25433
通	-7.25547
山僧	-7.25773
覺	-7.26275
請	-7.26354
僧問	-7.26367
白	-7.27173
性	-7.27294
善	-7.27597
花	-7.27705
口	-7.28313
宗	-7.28874
先	-7.29026
石	-7.2946
祖	-7.29787
觀	-7.30636
應	-7.31338
麼	-7.3135
破	-7.31866
信	-7.32039
乎	-7.32089
不知	-7.32453
且道	-7.32915
書	-7.32926
外	-7.33034
清	-7.33175
兩	-7.33188
識	-7.33246
雖	-7.34146
實	-7.34334
令	-7.34474
主	-7.34602
別	-7.35133
定	-7.35273
念	-7.35273
:「	-7.35545
妙	-7.35888
立	-7.36455
及	-7.36459
于	-7.36973
化	-7.37265
路	-7.37361
傳	-7.37599
發	-7.37745
香	-7.38084
火	-7.38158
年	-7.38763
取	-7.38924
不是	-7.40379
離	-7.40504
物	-7.4064
理	-7.4085
春	-7.40969
機	-7.41313
手	-7.41866
絕	-7.42001
如何	-7.4253
緣	-7.42606
色	-7.42762
義	-7.42772
初	-7.42832
等	-7.43243
海	-7.43376
文	-7.4408
耳	-7.44086
但	-7.44098
似	-7.44575
死	-7.44715
學	-7.44733
隨	-7.45009
萬	-7.45285
居	-7.453
須	-7.45797
古	-7.45988
受	-7.46379
照	-7.46627
流	-7.46669
體	-7.46699
。」【	-7.46723
落	-7.46733
藏	-7.46759
聖	-7.46916
親	-7.47075
遠	-7.48062
千	-7.48235
一切	-7.49026
龍	-7.49998
不可	-7.50371
力	-7.50423
現	-7.50886
南	-7.50901
神	-7.51195
德	-7.51275
合	-7.52032
僧云	-7.52769
寶	-7.53048
誰	-7.53198
寒	-7.53967
雪	-7.54001
耶	-7.54028
寺	-7.54451
六	-7.55469
使	-7.55524
堂	-7.55668
一日	-7.55793
州	-7.55817
只	-7.561
東	-7.56385
笑	-7.56731
病	-7.57398
。】「	-7.58009
大眾	-7.58711
修	-7.59422
爾	-7.59439
被	-7.59978
直	-7.59983
衣	-7.6017
境	-7.60238
不能	-7.60326
雨	-7.60432
指	-7.60623
動	-7.61308
夜	-7.61523
斷	-7.62255
次	-7.62274
情	-7.62897
華	-7.63422
國	-7.64001
新	-7.64125
靈	-7.64376
老僧	-7.64955
苦	-7.65018
卻	-7.65108
小	-7.65647
所以	-7.65894
元	-7.66009
玉	-7.66143
西	-7.66264
全	-7.66643
度	-7.66794
業	-7.67216
命	-7.68027
俱	-7.68533
猶	-7.68771
林	-7.69122
滿	-7.69395
居士	-7.69922
回	-7.6998
漢	-7.70213
依	-7.70359
論	-7.70372
果	-7.7046
如是	-7.70856
豈	-7.70866
句	-7.71
淨	-7.71098
九	-7.71232
已	-7.7194
足	-7.72099
異	-7.7258
八	-7.72806
百	-7.72887
具	-7.73103
必	-7.73355
總	-7.73931
禮	-7.74172
箇	-7.74547
思	-7.74808
往	-7.75037
眾生	-7.7513
圓	-7.75727
始	-7.76036
共	-7.76451
佛法	-7.76452
和	-7.76638
十	-7.76716
放	-7.7704
慧	-7.77166
持	-7.7747
塵	-7.78201
秋	-7.78564
內	-7.78811
彼	-7.78955
對	-7.79215
七	-7.79812
菴	-7.79883
哉	-7.80293
證	-7.80424
生死	-7.80439
飛	-7.805
關	-7.80824
面	-7.80899
數	-7.81106
平	-7.8131
答	-7.82324
獨	-7.82494
迷	-7.82801
不見	-7.84293
惟	-7.84647
草	-7.84761
報	-7.85091
氣	-7.85267
話	-7.85428
樹	-7.86234
待	-7.86827
久	-7.86963
歲	-7.87118
君	-7.87337
廣	-7.87368
滅	-7.87789
願	-7.87905
。」	-7.8816
那	-7.88208
曾	-7.88518
少	-7.88567
夢	-7.88642
聽	-7.88746
雲門	-7.88978
玄	-7.89009
諸人	-7.89016
露	-7.89286
木	-7.89675
易	-7.9007
目	-7.90115
休	-7.90185
一句	-7.90216
疑	-7.90291
樂	-7.90581
終	-7.91244
脫	-7.91466
興	-7.91652
稱	-7.92531
利	-7.9314
凡	-7.932
閒	-7.93244
趙州	-7.93272
就	-7.93532
尋	-7.9388
失	-7.93888
食	-7.93888
福	-7.94129
忽	-7.94143
江	-7.94148
半	-7.9416
峰	-7.94166
邊	-7.94743
間	-7.94821
戒	-7.94956
客	-7.94984
城	-7.95134
太	-7.95137
根	-7.95169
位	-7.95633
卷	-7.9586
示	-7.96793
遇	-7.96808
夫	-7.96994
影	-7.97009
甚	-7.97371
勝	-7.97797
各	-7.97849
倒	-7.98077
菩薩	-7.9819
望	-7.9874
馬	-7.98987
拈	-7.99167
如來	-7.99656
唯	-7.99786
時如何	-7.99856
燈	-7.99894
喜	-8.00888
遊	-8.00954
許	-8.00956
恁麼	-8.01275
尚	-8.01381
字	-8.01735
臨濟	-8.02177
牛	-8.02944
惡	-8.03521
沒	-8.03575
忘	-8.03576
種	-8.0376
古人	-8.038
妄	-8.04201
志	-8.04336
嗣	-8.04411
印	-8.04838
的	-8.04913
頌	-8.05044
止	-8.05128
分明	-8.05992
鐵	-8.06147
隱	-8.06336
結	-8.06655
首	-8.07187
黃	-8.07272
普	-8.07655
如此	-8.07746
松	-8.0782
亂	-8.07871
把	-8.07957
士	-8.08012
這	-8.08143
由	-8.08432
收	-8.08569
任	-8.08634
兮	-8.08832
源	-8.08899
焉	-8.08984
執	-8.09154
也無	-8.09935
齊	-8.10157
窮	-8.10183
纔	-8.10367
佛祖	-8.10421
走	-8.10454
顯	-8.10661
不會	-8.10917
極	-8.11197
超	-8.11227
朝	-8.11291
巖	-8.11576
珠	-8.11609
功	-8.11907
世尊	-8.12469
橫	-8.1257
靜	-8.12607
切	-8.12777
」	-8.12835
上座	-8.12878
形	-8.12959
施	-8.12999
點	-8.13058
喫	-8.13291
殺	-8.1348
變	-8.13826
音	-8.13845
否	-8.14204
幾	-8.14741
遍	-8.14818
院	-8.15271
密	-8.15462
諸佛	-8.15535
骨	-8.1656
愛	-8.16596
作麼生	-8.16836
斯	-8.16905
某甲	-8.1693
兒	-8.17037
即是	-8.1723
寂	-8.18077
接	-8.18177
下座	-8.18386
余	-8.18423
再	-8.18428
達	-8.18661
垂	-8.18662
蓋	-8.18689
頓	-8.18844
永	-8.19077
侍者	-8.19425
說法	-8.19535
慈	-8.19686
辭	-8.19854
臨	-8.19923
予	-8.20024
祇	-8.20153
溪	-8.20245
端	-8.20348
辨	-8.20511
雙	-8.20758
舊	-8.2108
塔	-8.21183
陽	-8.21304
除	-8.21602
送	-8.21862
一時	-8.21935
飯	-8.21987
都	-8.22048
天下	-8.22086
虛	-8.23241
記	-8.23285
濟	-8.23358
青	-8.23475
留	-8.23496
集	-8.23586
了也	-8.23609
致	-8.23859
洞山	-8.23943
登	-8.24386
諸方	-8.24626
輕	-8.24632
紅	-8.24697
消	-8.24896
?」	-8.24957
散	-8.25042
奉	-8.25179
寧	-8.25357
徹	-8.25415
波	-8.25656
節	-8.25688
賢	-8.25735
宜	-8.25745
懷	-8.26354
若是	-8.26366
母	-8.26502
壽	-8.26792
白雲	-8.26848
造	-8.27049
守	-8.271
還有	-8.27128
鼓	-8.27684
學人	-8.27767
邪	-8.27782
謝	-8.28042
頌曰	-8.2822
代	-8.28286
號	-8.28413
覓	-8.28509
餘	-8.28816
劫	-8.28935
尊	-8.29149
浪	-8.29422
峯	-8.29442
煙	-8.29919
僧曰	-8.30073
北	-8.30168
進	-8.30314
土	-8.30348
想	-8.30737
承	-8.31131
步	-8.31309
提	-8.31427
存	-8.31887
泉	-8.32198
期	-8.32223
禮拜	-8.3223
貴	-8.32439
去也	-8.32554
早	-8.32557
近	-8.32682
庵	-8.32739
息	-8.32792
喚	-8.33036
交	-8.33048
奇	-8.33347
容	-8.33389
老人	-8.33914
建	-8.34088
出家	-8.34113
曉	-8.34232
益	-8.34306
孤	-8.34348
幻	-8.34483
嚴	-8.34786
恩	-8.34914
逢	-8.35379
喚作	-8.35568
錯	-8.3565
曲	-8.35942
齋	-8.35983
乃云	-8.36038
爭	-8.36084
微	-8.36414
虎	-8.36422
擬	-8.36514
冷	-8.36847
相見	-8.37015
鼻孔	-8.37058
驚	-8.37104
退	-8.37317
錄	-8.37521
般若	-8.37595
藥	-8.37767
引	-8.37968
角	-8.38079
文殊	-8.38323
座	-8.38406
霜	-8.38589
畫	-8.38796
旨	-8.38816
宿	-8.38844
而不	-8.38994
個	-8.39048
夏	-8.39136
自然	-8.39301
誠	-8.39532
量	-8.39715
喝	-8.39777
慶	-8.39792
雖然	-8.39846
某	-8.39864
虛空	-8.40211
周	-8.4032
載	-8.40395
法界	-8.40452
最	-8.40594
問如何是	-8.40961
鳴	-8.40989
未審	-8.41019
透	-8.41026
象	-8.4134
叢林	-8.41358
羅	-8.41361
茶	-8.41385
始得	-8.41519
昔	-8.41613
出世	-8.41643
法身	-8.41712
.	-8.41755
示眾	-8.4179
大師	-8.42237
伊	-8.42334
所謂	-8.42372
父	-8.42477
竹	-8.4291
堪	-8.43122
原	-8.43376
順	-8.43577
拄杖	-8.43637
衲僧	-8.43906
界	-8.44411
領	-8.44501
一念	-8.44504
南泉	-8.44525
暗	-8.44657
虗	-8.44757
乾坤	-8.44804
張	-8.44935
碧	-8.44945
連	-8.45554
像	-8.4557
徒	-8.4573
因緣	-8.45854
三昧	-8.45935
氏	-8.46069
供養	-8.4608
野	-8.46243
痛	-8.46408
精	-8.46427
弟子	-8.46456
首座	-8.46613
帶	-8.46849
假	-8.47157
恐	-8.47186
唱	-8.47334
魔	-8.47427
如今	-8.47529
帝	-8.47545
有時	-8.47897
展	-8.47985
推	-8.48447
十方	-8.48486
星	-8.4858
墮	-8.48589
一人	-8.48721
祖師	-8.49472
設	-8.49627
契	-8.49662
請師	-8.49905
方便	-8.49985
魚	-8.50065
詩	-8.50236
田	-8.50251
活	-8.5054
愚	-8.50647
亦不	-8.50737
翁	-8.51008
。「	-8.51101
畢竟	-8.51121
臺	-8.51243
做	-8.51527
捨	-8.51594
室	-8.51747
何故	-8.5181
乘	-8.5182
拂	-8.51823
賊	-8.51855
特	-8.51947
女	-8.52115
官	-8.52227
舟	-8.52445
勞	-8.52512
顧	-8.52608
勢	-8.52639
固	-8.52857
聚	-8.52998
頂	-8.53118
幸	-8.53126
不識	-8.53213
急	-8.53361
疏	-8.53403
虗空	-8.53453
法門	-8.53632
世界	-8.53913
與麼	-8.53942
幽	-8.54084
枝	-8.54673
良	-8.54739
弄	-8.5487
肯	-8.54945
舌	-8.55171
畢	-8.55516
閑	-8.55555
偈	-8.55597
翻	-8.55677
擊	-8.5568
付	-8.55685
談	-8.55745
當時	-8.55749
秀	-8.55901
渠	-8.56191
逐	-8.56249
陳	-8.5628
住持	-8.56331
圖	-8.56338
脚	-8.56454
鳥	-8.56499
歌	-8.56655
供	-8.56729
每	-8.56783
又作麼生	-8.56946
清淨	-8.57107
溈山	-8.57325
泥	-8.57339
今朝	-8.57497
跡	-8.57595
德山	-8.57624
小參	-8.57721
良久云	-8.57851
陰	-8.58172
眉	-8.58382
遺	-8.58434
穿	-8.58698
筆	-8.58762
涅槃	-8.58794
觸	-8.58966
李	-8.59058
仰	-8.59119
宣	-8.59261
?	-8.59483
殿	-8.5974
試	-8.59844
若不	-8.59882
以為	-8.59899
燒	-8.60036
世間	-8.60081
運	-8.60388
便是	-8.60399
錢	-8.60476
感	-8.60669
河	-8.60717
鏡	-8.60731
○	-8.60787
金剛	-8.60791
習	-8.60824
菩提	-8.60871
沙	-8.60892
臥	-8.60898
謁	-8.61195
於此	-8.61243
百丈	-8.61325
天童	-8.61463
熱	-8.61655
背	-8.61692
布	-8.61694
況	-8.61727
盛	-8.61804
歷	-8.61966
據	-8.61974
俗	-8.623
乾	-8.62404
光明	-8.62502
敢	-8.62502
遮	-8.62624
移	-8.62781
冬	-8.63041
壁	-8.63125
輪	-8.63197
不肯	-8.63341
胡	-8.63536
呈	-8.63987
折	-8.64034
釋	-8.64173
計	-8.64193
殊	-8.6422
天地	-8.64275
)」「	-8.64316
葉	-8.64394
含	-8.64553
徑山	-8.64758
為人	-8.64814
竟	-8.65161
府	-8.65239
投	-8.65384
洞	-8.65417
亡	-8.65541
悉	-8.65687
罪	-8.65948
先師	-8.6637
細	-8.66618
刀	-8.66705
亦無	-8.66748
解脫	-8.66812
因甚	-8.66853
:	-8.6705
未免	-8.67101
何處	-8.67112
索	-8.67183
遷	-8.67415
磨	-8.67441
末	-8.67529
無生	-8.67665
覆	-8.67674
舍	-8.67738
省	-8.68234
鳳	-8.68395
奪	-8.68442
隔	-8.68502
古今	-8.6867
境界	-8.68719
揚	-8.69008
強	-8.69171
不動	-8.69497
負	-8.69507
偏	-8.6978
商量	-8.70207
不在	-8.70354
臣	-8.70456
拜	-8.70459
雪峰	-8.70578
棒	-8.70604
紫	-8.70624
自在	-8.70664
不曾	-8.70963
謂之	-8.71058
浮	-8.71253
蒙	-8.71292
不覺	-8.71445
又云	-8.71661
掌	-8.71756
皇	-8.71762
比	-8.71791
增	-8.72213
味	-8.72453
無所	-8.72458
吹	-8.72473
不出	-8.72569
人天	-8.72642
晚	-8.72707
際	-8.7316
表	-8.73189
無心	-8.73237
勿	-8.73406
雪竇	-8.7353
敬	-8.73616
無人	-8.73638
略	-8.73644
即今	-8.73706
群	-8.73834
直得	-8.73861
祖曰	-8.74239
屬	-8.74296
黃檗	-8.74323
資	-8.7436
杖	-8.74449
護	-8.74461
呼	-8.74533
視	-8.74752
嘗	-8.74879
只是	-8.74993
此是	-8.75139
弘	-8.75162
這箇	-8.75292
縱	-8.75303
器	-8.75428
民	-8.75505
樓	-8.75597
免	-8.75611
攝	-8.75655
啟	-8.75722
唐	-8.75765
尊者	-8.75835
不用	-8.75862
達磨	-8.75929
毛	-8.75937
可謂	-8.75977
日月	-8.76303
返	-8.76409
治	-8.76465
師便打	-8.76486
辯	-8.76505
乃至	-8.76837
加	-8.77042
疾	-8.77172
告	-8.77331
代云	-8.77447
侍	-8.77478
並	-8.77484
谷	-8.7764
吞	-8.77652
也是	-8.77703
禪師法嗣	-8.77795
甚麼	-8.77868
養	-8.779
尋常	-8.78017
湖	-8.78146
謾	-8.78148
類	-8.78232
不妨	-8.78284
默	-8.78363
仁	-8.78446
鼻	-8.78491
鐘	-8.78719
披	-8.78981
直下	-8.79215
只如	-8.79275
越	-8.79426
氏子	-8.79451
寄	-8.79529
何不	-8.79754
第一	-8.79848
拄杖子	-8.79919
咸	-8.79964
山云	-8.7999
池	-8.80263
瑞	-8.80351
悲	-8.80387
眠	-8.80466
一箇	-8.80611
作麼	-8.80732
是非	-8.81018
雷	-8.81329
堅	-8.81528
「	-8.81533
放下	-8.81585
伏	-8.81673
之所	-8.81778
煩惱	-8.81911
不如	-8.81919
阿	-8.82031
鬼	-8.82155
不敢	-8.82213
頌云	-8.82225
赤	-8.82459
鄉	-8.8252
示眾云	-8.82818
一一	-8.82856
種種	-8.82905
涉	-8.82992
才	-8.83038
長老	-8.83065
直饒	-8.83251
遭	-8.83277
不同	-8.83288
玄沙	-8.83578
徑	-8.83701
喪	-8.8372
延	-8.83982
無有	-8.84072
問曰	-8.84085
良久	-8.84114
劍	-8.8417
備	-8.84318
仰山	-8.84336
途	-8.84338
學者	-8.84466
反	-8.84473
馬祖	-8.84511
響	-8.84584
消息	-8.84625
鶴	-8.84703
枯	-8.84735
決	-8.84763
血	-8.84923
須是	-8.85002
不離	-8.8503
珍重	-8.853
父母	-8.85564
分別	-8.85766
拈云	-8.85774
救	-8.85997
壞	-8.86023
振	-8.86199
相似	-8.86268
現前	-8.8635
續	-8.86383
萬里	-8.86456
可以	-8.86461
此事	-8.86467
道理	-8.86602
章	-8.86642
借	-8.8668
喝一喝	-8.86764
短	-8.86798
倚	-8.86878
山曰	-8.86934
釋迦	-8.86942
茲	-8.8695
棄	-8.86969
勤	-8.86981
適	-8.86995
怪	-8.87149
鑑	-8.87154
大地	-8.87452
置	-8.87481
演	-8.87569
公案	-8.87573
搖	-8.8761
盤	-8.87659
讀	-8.87715
添	-8.87735
卓	-8.87798
管	-8.87803
多少	-8.87857
摩	-8.87968
驀	-8.88087
狂	-8.88104
法眼	-8.88198
梅	-8.88281
黑	-8.88612
葢	-8.88633
貪	-8.88813
講	-8.89096
洗	-8.8921
相逢	-8.8955
徧	-8.89697
迎	-8.89746
孝	-8.89953
貧	-8.90125
權	-8.90239
屈	-8.903
青山	-8.90301
皮	-8.90388
川	-8.90491
睡	-8.90621
威	-8.90625
降	-8.90627
刻	-8.90696
己	-8.90746
素	-8.90819
姓	-8.9085
遣	-8.90938
罷	-8.90943
便打	-8.91062
出來	-8.91087
偶	-8.91173
本無	-8.91273
村	-8.91294
席	-8.91304
并	-8.91365
條	-8.91374
、	-8.91381
戶	-8.91466
本來	-8.91555
米	-8.91579
儒	-8.91674
驢	-8.92002
翠	-8.92054
者箇	-8.92085
裡	-8.92104
識得	-8.92227
究	-8.92263
船	-8.92293
人人	-8.92386
誦	-8.92393
為甚麼	-8.92416
一喝	-8.92533
傷	-8.9269
尾	-8.92764
授	-8.92797
獲	-8.92919
驗	-8.92955
岸	-8.93018
快	-8.93149
會得	-8.93239
乞	-8.93317
無事	-8.93368
第二	-8.9341
功德	-8.93477
比丘	-8.93484
無量	-8.93546
從來	-8.93589
三界	-8.9366
一片	-8.93771
真實	-8.93802
縣	-8.93813
累	-8.93846
真如	-8.93915
愈	-8.93984
障	-8.9423
敲	-8.94247
無明	-8.94264
熟	-8.94286
時節	-8.94301
約	-8.94393
不著	-8.94526
上堂云	-8.94859
惑	-8.94932
嶺	-8.95064
孫	-8.95191
蛇	-8.95246
處處	-8.95376
吳	-8.95413
屋	-8.9549
迦葉	-8.95493
明月	-8.95554
擔	-8.95635
律	-8.95636
拳	-8.95643
又問	-8.95651
挂	-8.95659
柳	-8.95757
艸	-8.95796
腳	-8.95813
賣	-8.96084
值	-8.96267
佛性	-8.96527
更有	-8.96532
忽然	-8.96742
擲	-8.96802
酬	-8.96808
若也	-8.96826
繼	-8.9685
道人	-8.9692
冰	-8.97049
須彌	-8.9709
有人	-8.97114
友	-8.9719
踏	-8.97327
毒	-8.97342
傾	-8.97356
楚	-8.97528
玅	-8.97595
承當	-8.97696
園	-8.98051
吐	-8.98085
染	-8.98105
老漢	-8.98125
兄	-8.98257
酒	-8.98342
紙	-8.98683
愁	-8.98709
差	-8.98805
游	-8.98819
梁	-8.99269
撥	-8.99298
癡	-8.99498
訪	-8.99564
是甚麼	-8.99629
積	-8.99681
雜	-8.99921
婆	-8.99943
三十	-9.00036
掃	-9.00093
忍	-9.00243
有一	-9.00269
召	-9.00419
拋	-9.0051
春風	-9.00515
賓	-9.00581
烏	-9.00779
融	-9.00889
秪	-9.00894
大似	-9.00955
服	-9.01044
扶	-9.01071
一聲	-9.01108
拔	-9.01168
庭	-9.01179
殘	-9.01299
品	-9.01341
向上	-9.0152
顏	-9.01584
絲	-9.01928
喻	-9.02038
崇	-9.02043
暮	-9.02153
仙	-9.02187
調	-9.02376
聖人	-9.02442
輝	-9.02449
陞座	-9.02507
闍黎	-9.02591
身心	-9.02612
漸	-9.0265
速	-9.0267
甘	-9.02829
一心	-9.02887
直須	-9.02965
補	-9.03209
憶	-9.03261
網	-9.03374
箇甚麼	-9.03487
題	-9.03506
懸	-9.03697
請上堂	-9.03822
車	-9.03866
景	-9.0389
不為	-9.03982
甞	-9.04047
】	-9.0422
維那	-9.04511
美	-9.0461
楊	-9.04625
自心	-9.04714
趣	-9.04751
咄	-9.04759
師問	-9.04838
兒孫	-9.04911
將來	-9.04927
慮	-9.04949
拂子	-9.05001
兼	-9.0508
單	-9.05086
以此	-9.0512
乃曰	-9.05146
封	-9.05149
儀	-9.05328
飽	-9.0534
若有	-9.05344
念佛	-9.05632
會麼	-9.05652
曰如何是	-9.05665
礙	-9.05676
受用	-9.05772
華嚴	-9.05818
所以道	-9.05839
縱橫	-9.05844
恁麼則	-9.05912
參禪	-9.0601
大士	-9.06105
道場	-9.06118
渡	-9.06183
經云	-9.06371
澄	-9.06429
抱	-9.06539
方丈	-9.06594
招	-9.06863
討	-9.06937
綠	-9.06939
板	-9.07193
片	-9.07404
渾	-9.07458
石頭	-9.07535
洪	-9.07536
者麼	-9.07715
眼睛	-9.07727
騰	-9.07732
爐	-9.07744
箭	-9.07755
認	-9.07799
閱	-9.08019
囑	-9.08212
別有	-9.08282
千古	-9.08307
僧禮拜	-9.08578
劒	-9.0863
之心	-9.0863
彌勒	-9.08681
沉	-9.08844
千里	-9.08916
輩	-9.09037
銀	-9.09058
舞	-9.09069
妄想	-9.09362
者裏	-9.09429
凡聖	-9.09643
擬議	-9.09699
名為	-9.09898
修行	-9.10074
荒	-9.10085
孰	-9.10146
肉	-9.1017
牽	-9.10201
無礙	-9.10216
全身	-9.10265
旋	-9.10268
列	-9.10306
助	-9.10432
醉	-9.10459
有箇	-9.10495
追	-9.10504
蓮	-9.10535
目前	-9.10672
塞	-9.10821
納	-9.11064
仍	-9.11197
未曾	-9.11253
十二	-9.11262
然後	-9.11343
錦	-9.11362
符	-9.11477
簡	-9.11494
師子	-9.11549
賴	-9.11561
無為	-9.11596
序	-9.11663
適來	-9.11684
祝	-9.11734
不然	-9.11977
成佛	-9.12194
昏	-9.12283
不生	-9.12355
英	-9.12468
開口	-9.12631
衲子	-9.12649
棲	-9.12711
生滅	-9.12772
揮	-9.12774
贊	-9.1281
山中	-9.12837
歇	-9.1289
犯	-9.12938
悅	-9.13006
賜	-9.13014
憑	-9.13063
剎	-9.13381
有省	-9.13418
曹溪	-9.13456
傍	-9.13491
善知識	-9.13504
弗	-9.13619
意旨如何	-9.13641
行脚	-9.13663
作家	-9.1367
一點	-9.13708
天台	-9.13715
便下座	-9.13729
瞞	-9.13755
自已	-9.13802
床	-9.13838
遙	-9.13848
宮	-9.13874
家風	-9.13874
薦	-9.14011
不及	-9.14055
師乃	-9.14162
雖然如是	-9.14194
霞	-9.14224
右	-9.14431
葛藤	-9.14529
汝等	-9.14572
逆	-9.14631
得麼	-9.14632
良久曰	-9.1469
至今	-9.14848
而今	-9.14853
橋	-9.15148
大小	-9.15221
二十	-9.1526
左	-9.15304
於是	-9.15304
趨	-9.15475
童	-9.15759
入室	-9.15857
一任	-9.15894
外道	-9.16124
究竟	-9.1629
巧	-9.16304
雲居	-9.16394
日用	-9.16471
宋	-9.16488
問僧	-9.16548
鋒	-9.16641
底人	-9.16652
遲	-9.16755
隆	-9.16812
彰	-9.16974
切忌	-9.17113
昨日	-9.17122
忠	-9.17163
捉	-9.172
碎	-9.17312
昌	-9.17316
潛	-9.1757
話頭	-9.1764
部	-9.17729
讚	-9.17765
嶽	-9.17875
人也	-9.18163
這裏	-9.1825
富	-9.18614
不住	-9.18646
沈	-9.18646
換	-9.18669
十八	-9.18706
里	-9.18715
錫	-9.18732
惠	-9.18769
舉似	-9.18793
恁麼道	-9.18821
皆是	-9.18835
三世諸佛	-9.18935
忙	-9.18976
坐斷	-9.19046
毫	-9.19057
無相	-9.19158
三年	-9.19381
神通	-9.19386
鉢	-9.19569
人間	-9.19582
萬物	-9.19674
釣	-9.19735
作麼生是	-9.19768
拈出	-9.20005
赴	-9.20061
觀音	-9.20088
崖	-9.20144
狀	-9.2025
亦非	-9.20362
常住	-9.20521
薄	-9.20545
寫	-9.20681
;	-9.2081
者也	-9.20903
在甚麼處	-9.2091
豎	-9.2109
閣	-9.21112
雪峯	-9.2117
宗旨	-9.21329
猶是	-9.21548
無端	-9.21625
震	-9.2163
思量	-9.21657
知音	-9.21753
云何	-9.21848
何曾	-9.21889
支	-9.21901
譬如	-9.21924
寬	-9.21945
辦	-9.22057
無盡	-9.22079
諸法	-9.22222
自性	-9.22253
大家	-9.22385
地獄	-9.22388
恒	-9.22427
爛	-9.22487
不落	-9.22549
窟	-9.22626
務	-9.22648
改	-9.22689
什麼	-9.22726
一切眾生	-9.22755
清風	-9.22906
斗	-9.22914
司	-9.22969
黃龍	-9.23189
掛	-9.23198
為什麼	-9.23281
弟	-9.23408
質	-9.23451
太平	-9.23491
萬法	-9.23503
蹤	-9.23601
憂	-9.23816
縛	-9.23832
剛	-9.23849
拍	-9.23907
是故	-9.24088
芳	-9.24125
淺	-9.24214
正是	-9.24246
凡夫	-9.24352
圓通	-9.24368
指示	-9.24412
奇特	-9.24429
寸	-9.24478
終日	-9.24506
諦	-9.24525
殊不知	-9.24565
工夫	-9.24646
柴	-9.24668
相應	-9.24712
風吹	-9.24789
具足	-9.24815
通身	-9.24964
道者	-9.25159
昧	-9.25189
淡	-9.25233
井	-9.25435
郎	-9.25639
中有	-9.25756
患	-9.25791
騎	-9.25919
陵	-9.25925
偈曰	-9.25933
今時	-9.26031
武	-9.26091
興化	-9.261
場	-9.26116
泰	-9.26136
也未	-9.26252
勸	-9.2628
釋迦老子	-9.26308
珍	-9.26381
道得	-9.26418
這僧	-9.26424
標	-9.2655
許多	-9.26703
拈起	-9.2689
終不	-9.26964
藥山	-9.27018
澤	-9.27021
一言	-9.27028
斬	-9.27313
即不問	-9.27434
若無	-9.27556
伯	-9.27582
自有	-9.27584
希	-9.27627
須知	-9.27665
梵	-9.2775
鑒	-9.27851
大悟	-9.27947
瞎	-9.28157
齒	-9.28176
為甚	-9.28324
總是	-9.28421
榮	-9.28486
孔	-9.2849
詣	-9.28588
履	-9.286
四海	-9.28645
從此	-9.28716
厚	-9.28728
六祖	-9.28752
無語	-9.28845
迴	-9.28905
者僧	-9.28919
工	-9.28921
門下	-9.28996
彌	-9.2902
文字	-9.2904
方知	-9.29111
依舊	-9.29164
寮	-9.29258
制	-9.29273
不相	-9.29321
知有	-9.29432
繩	-9.29567
之道	-9.29609
肩	-9.29629
繫	-9.29742
亭	-9.29902
覿面	-9.29944
飲	-9.30022
欺	-9.30045
典	-9.30112
大事	-9.30222
打破	-9.30473
吟	-9.3049
晴	-9.30668
買	-9.307
聲色	-9.30762
髮	-9.3079
莊	-9.30834
謹	-9.30895
報恩	-9.30917
顛	-9.30966
阿難	-9.31034
荷	-9.31034
昔日	-9.31057
避	-9.31151
面目	-9.31156
一切法	-9.31157
淨土	-9.31256
拙	-9.31418
饑	-9.3143
左右	-9.31549
不須	-9.31592
知見	-9.31757
謗	-9.31769
將謂	-9.31805
淵	-9.31948
曹山	-9.32002
不免	-9.32013
險	-9.32073
慕	-9.32179
害	-9.32301
慈悲	-9.32357
君子	-9.32547
苟	-9.32547
盧	-9.32587
平生	-9.32737
國師	-9.32739
舒	-9.32748
廢	-9.32821
以拄杖	-9.32889
見得	-9.32894
儞	-9.329
私	-9.32909
伴	-9.32956
狗	-9.33008
兵	-9.33084
違	-9.33207
州云	-9.33223
醒	-9.33292
何以	-9.33405
谿	-9.33424
恨	-9.33503
朗	-9.33604
無不	-9.33681
編	-9.33695
瞻	-9.33714
既是	-9.33739
程	-9.34006
不可得	-9.34007
分付	-9.34007
禪人	-9.34033
爭奈	-9.34038
饒	-9.34061
馳	-9.34197
行者	-9.3422
不成	-9.34244
專	-9.34264
韻	-9.34271
互	-9.34311
嘉	-9.34444
莊嚴	-9.34487
耀	-9.34496
充	-9.34527
般	-9.3464
是以	-9.35011
到此	-9.35209
各各	-9.35275
附	-9.35314
滯	-9.35341
頭上	-9.35341
知識	-9.35383
去來	-9.35581
與汝	-9.35752
衲	-9.35759
念念	-9.35991
是什麼	-9.36008
正眼	-9.36073
潭	-9.36102
不受	-9.36187
些	-9.36231
老和尚	-9.36326
平等	-9.36337
保	-9.36342
讓	-9.36462
怒	-9.36508
獻	-9.36575
露柱	-9.36689
罵	-9.36709
述	-9.36733
稍	-9.36763
▁「	-9.36818
純	-9.3684
伸	-9.36874
明明	-9.37015
博	-9.37066
眉毛	-9.37201
祇如	-9.37246
莫是	-9.3726
夾山	-9.37319
轉身	-9.3748
躬	-9.37638
詔	-9.37667
秖	-9.3767
與人	-9.37796
有何	-9.37822
午	-9.37854
紹	-9.37935
昭	-9.38085
尤	-9.38124
而巳	-9.38147
委	-9.38208
石霜	-9.38266
阿誰	-9.38288
一生	-9.38292
西天	-9.38319
舌頭	-9.38375
護法	-9.38482
巖頭	-9.38637
貫	-9.38676
顛倒	-9.38701
未有	-9.38826
湯	-9.39005
扣	-9.39045
要且	-9.39381
亦是	-9.39481
冠	-9.39553
雄	-9.39561
在什麼處	-9.39656
也須	-9.39676
誰知	-9.39747
末後	-9.39835
掩	-9.39843
又曰	-9.39868
啼	-9.40004
尼	-9.40084
錐	-9.40302
御	-9.40407
隨緣	-9.40409
畔	-9.40473
政	-9.40548
蒼	-9.40569
一字	-9.40623
規	-9.40664
頭頭	-9.40689
五百	-9.40724
面前	-9.40856
山河大地	-9.40863
無邊	-9.40887
詞	-9.40936
射	-9.40972
祥	-9.41156
一法	-9.4126
四大	-9.41266
盡是	-9.41294
冥	-9.41346
潤	-9.41386
不解	-9.41442
灰	-9.41493
案	-9.41508
按	-9.41612
當陽	-9.4171
普賢	-9.41725
大慧	-9.41753
晚參	-9.4185
今古	-9.41863
便喝	-9.41995
舍利	-9.42032
從上	-9.42225
哀	-9.42242
欽	-9.4227
佛殿	-9.42335
妙喜	-9.42372
到來	-9.42374
十五	-9.42454
候	-9.42478
作禮	-9.42548
厭	-9.42561
僧無語	-9.42569
不起	-9.42625
丈	-9.42681
千聖	-9.4283
克	-9.42981
萬象	-9.43011
競	-9.43148
穴	-9.43156
荅	-9.43203
田地	-9.43219
一般	-9.43362
困	-9.43421
還會麼	-9.43448
丹	-9.43449
古佛	-9.43482
哭	-9.43563
至於	-9.43584
鼎	-9.43611
無非	-9.43614
大道	-9.4362
:『	-9.43732
智慧	-9.43896
獅子	-9.43905
聊	-9.43908
墨	-9.43999
因僧問	-9.44006
浴	-9.44141
秦	-9.44162
朱	-9.44164
費	-9.44227
鎖	-9.4423
頻	-9.44279
卒	-9.44291
較	-9.44308
問訊	-9.44317
令人	-9.44451
自巳	-9.44471
復舉	-9.44509
危	-9.44547
放過	-9.44547
沙門	-9.44735
覷	-9.45159
靈山	-9.45261
禍	-9.45429
投子	-9.45521
包	-9.45575
黃金	-9.45768
麤	-9.45794
其中	-9.45822
有無	-9.4586
無可	-9.45874
大悲	-9.45926
無對	-9.45949
三十年	-9.45976
耕	-9.46023
握	-9.46102
賓主	-9.46139
不許	-9.46176
後如何	-9.46247
往來	-9.46263
丈夫	-9.46442
財	-9.46451
吉	-9.4648
津	-9.46582
幼	-9.46617
抑	-9.46752
如何是佛	-9.46769
之人	-9.46772
京	-9.46849
喫飯	-9.46956
龜	-9.46987
大海	-9.47024
大千	-9.47033
廓	-9.4705
逼	-9.47069
風流	-9.47142
房	-9.47208
不盡	-9.47224
徵	-9.47296
辰	-9.47358
乳	-9.47552
托	-9.47734
不到	-9.48017
彩	-9.4818
飄	-9.48216
干	-9.48221
圓明	-9.48229
漏	-9.48425
南嶽	-9.48485
薦得	-9.48512
牙	-9.48568
市	-9.48598
覩	-9.48622
映	-9.48719
歸宗	-9.48726
之中	-9.48737
箇什麼	-9.48744
操	-9.4878
混	-9.48985
駕	-9.48997
到這裏	-9.49035
額	-9.49141
咬	-9.49162
若道	-9.49212
老宿	-9.49233
蹋	-9.49275
明日	-9.49291
賞	-9.49372
垢	-9.49394
不顧	-9.49454
衰	-9.4952
沙彌	-9.49542
羊	-9.49574
而去	-9.49725
燭	-9.4973
歎	-9.49793
因果	-9.49978
擇	-9.50026
語錄	-9.5011
差別	-9.50186
膽	-9.50208
不入	-9.5024
內外	-9.50243
籠	-9.50263
奔	-9.50435
鞭	-9.50578
答曰	-9.50598
法華	-9.50653
迥	-9.50692
故曰	-9.50771
若能	-9.50931
嫌	-9.50947
羣	-9.50972
截	-9.51121
學道	-9.51123
戰	-9.51197
烟	-9.51229
蘇	-9.51267
暖	-9.51279
是誰	-9.51334
煩	-9.51372
鎮	-9.51449
流水	-9.51496
請益	-9.51536
探	-9.51679
巨	-9.51693
甲	-9.51716
窗	-9.51785
臂	-9.51913
嗟	-9.5192
侯	-9.52001
預	-9.52034
殺人	-9.5204
成就	-9.52067
蕩	-9.5207
二十年	-9.52086
議	-9.52105
軍	-9.52146
窺	-9.52163
之法	-9.52189
第	-9.52323
有所	-9.52514
簾	-9.52609
猛	-9.52878
是何	-9.5289
西來	-9.52905
毀	-9.52911
時如何師云	-9.52935
埋	-9.52954
惜	-9.52964
兄弟	-9.53107
從前	-9.53287
一棒	-9.53383
楊岐	-9.53488
門外	-9.5349
懶	-9.53562
忌	-9.53664
三千	-9.53672
維	-9.53809
注	-9.53837
徐	-9.53858
闊	-9.53898
奏	-9.53992
禪師語錄	-9.54142
牧	-9.5415
莫道	-9.54188
自己	-9.54358
此心	-9.54392
價	-9.54482
無言	-9.54535
不信	-9.54671
尊宿	-9.54679
󲊛	-9.54683
不聞	-9.5475
霧	-9.5492
大乘	-9.54994
冤	-9.5504
燕	-9.55048
盲	-9.55104
岩	-9.55187
檀越	-9.55204
枯木	-9.55272
詳	-9.55363
元來	-9.55677
拽	-9.5571
菜	-9.55727
到者裏	-9.55729
悔	-9.55767
喝一喝云	-9.55767
實相	-9.55797
恭	-9.55827
鉤	-9.55918
睹	-9.55925
無異	-9.55942
不必	-9.55945
閩	-9.56053
彼此	-9.56058
畏	-9.56079
不昧	-9.56156
測	-9.56161
猶如	-9.56219
枕	-9.56267
未嘗	-9.56273
瓶	-9.56417
損	-9.56519
十年	-9.56528
麻	-9.56589
南山	-9.56703
尺	-9.56762
魂	-9.56775
是箇	-9.56879
凝	-9.56891
公曰	-9.56906
不明	-9.56935
柄	-9.56958
何必	-9.57001
佛事	-9.57018
該	-9.57035
扇	-9.57069
畢竟如何	-9.57092
一塵	-9.57096
逸	-9.57132
。○	-9.57254
聻	-9.5729
見聞	-9.57368
不立	-9.5741
愧	-9.57556
一句作麼生道	-9.57594
聖凡	-9.57598
油	-9.57841
遵	-9.57913
暫	-9.57914
豐	-9.57918
何人	-9.5802
無私	-9.58073
其所	-9.58117
翻身	-9.58163
時人	-9.58272
統	-9.58344
雞	-9.58353
丘	-9.58373
何如	-9.58539
伎倆	-9.58603
抵	-9.58706
一段	-9.58715
陸	-9.58761
自是	-9.58845
豈不是	-9.58937
拈拄杖	-9.59003
古人道	-9.59163
袈裟	-9.59189
乖	-9.59209
迹	-9.59244
三月	-9.59278
言語	-9.59321
亦有	-9.59509
率	-9.59529
雲巖	-9.59581
本分	-9.59589
丁	-9.59788
一下	-9.59985
旦	-9.60018
草鞋	-9.60119
不見道	-9.60178
宗門	-9.60344
人之	-9.60432
過去	-9.6051
智者	-9.60539
自家	-9.60543
寂滅	-9.60565
何事	-9.6061
龍門	-9.60651
宇	-9.60785
古德	-9.60806
蘊	-9.60932
誤	-9.61125
仲	-9.61128
樣	-9.61145
撲	-9.61147
桂	-9.61242
排	-9.61245
不涉	-9.61251
涼	-9.61298
開堂	-9.61312
纏	-9.61326
瓦	-9.61348
髑髏	-9.61381
線	-9.61445
敵	-9.61466
龕	-9.61706
昇	-9.6178
怕	-9.61786
維摩	-9.61827
敗	-9.6184
繇	-9.61896
不假	-9.6202
自知	-9.62044
範	-9.62059
特地	-9.62081
正好	-9.62206
大法	-9.62292
用心	-9.62323
開示	-9.62396
等閒	-9.62425
卓拄杖云	-9.62505
腹	-9.62573
與你	-9.62616
入門	-9.62659
電	-9.62675
旁	-9.62733
大德	-9.62786
熏	-9.62844
五祖	-9.62908
戲	-9.62936
東山	-9.62979
缽	-9.63009
大覺	-9.63142
父子	-9.63179
禁	-9.63228
把住	-9.63246
只得	-9.63343
擎	-9.63391
貌	-9.63446
無二	-9.63461
不作	-9.63519
請和尚	-9.6356
為之	-9.63622
花開	-9.63703
見解	-9.63779
端的	-9.63824
之間	-9.63867
建立	-9.63931
三十棒	-9.64272
枉	-9.64275
銕	-9.64365
還知	-9.64375
之時	-9.6451
蜀	-9.64641
一枝	-9.64675
呵呵大笑	-9.64688
夕	-9.64692
宗師	-9.64757
鈍	-9.64819
此語	-9.64874
吼	-9.64875
塵勞	-9.649
抽	-9.65061
胎	-9.65107
宗風	-9.65172
箇箇	-9.65245
合掌	-9.65253
其人	-9.65305
來也	-9.65313
袖	-9.65396
邑	-9.6549
更無	-9.65534
底事	-9.65555
我今	-9.65614
諱	-9.65641
倫	-9.65662
醫	-9.65686
不壞	-9.65703
道吾	-9.65724
善財	-9.65991
長安	-9.66037
柱	-9.66109
天子	-9.66121
腸	-9.66127
檀	-9.66218
挑	-9.66263
只為	-9.66306
囊	-9.66308
茅	-9.66336
豈有	-9.66344
郡	-9.6635
昨夜	-9.66427
脩	-9.66427
清涼	-9.66455
夙	-9.66456
第三	-9.6652
繁	-9.66552
童子	-9.666
少林	-9.66628
一著	-9.66707
跳	-9.6674
停	-9.66744
山河	-9.66751
奴	-9.66765
粥	-9.66809
不易	-9.66878
三世	-9.66909
靈隱	-9.67158
法師	-9.67219
不少	-9.67258
巢	-9.67404
中間	-9.67444
升	-9.67461
舉揚	-9.67499
刃	-9.67514
婦	-9.6752
蘭	-9.67523
重重	-9.67528
灑	-9.67537
圓悟	-9.67584
史	-9.67586
晦	-9.6759
陀	-9.67599
何所	-9.67614
頂門	-9.67628
漫	-9.67678
賤	-9.67707
不通	-9.67751
胸	-9.68032
豈不	-9.6806
未來	-9.6807
穩	-9.68117
汝等諸人	-9.68123
當下	-9.68168
誰是	-9.68299
而無	-9.68333
是名	-9.68338
一路	-9.68362
無別	-9.68388
無限	-9.6839
盈	-9.68455
性命	-9.68484
直指	-9.68515
婆子	-9.68561
當人	-9.68605
低	-9.68625
而逝	-9.68629
何得	-9.68727
祖云	-9.68781
藉	-9.68912
其或未然	-9.68983
千年	-9.69104
竊	-9.6913
不足	-9.69136
後來	-9.69139
香嚴	-9.69212
峻	-9.69228
一場	-9.6923
針	-9.69236
歡喜	-9.69294
栽	-9.693
註	-9.6931
提起	-9.69345
側	-9.69367
肅	-9.6939
屏	-9.69398
頗	-9.69429
叫	-9.6948
宇宙	-9.69637
東西	-9.6964
兔	-9.6966
衝	-9.69783
而為	-9.69795
揭	-9.69833
不了	-9.69848
缺	-9.69877
長慶	-9.69898
徹底	-9.70045
慈明	-9.70062
以手	-9.70096
倦	-9.70102
之曰	-9.70188
疎	-9.70286
臘	-9.70291
佳	-9.70391
趙	-9.7043
準	-9.70465
僧擬議	-9.70486
便見	-9.70525
現在	-9.70604
覔	-9.70756
三日	-9.70823
綱	-9.70859
法嗣	-9.70908
決定	-9.70967
發明	-9.71
七日	-9.71016
室中	-9.71134
之後	-9.7116
鮮	-9.71174
楞嚴	-9.71212
無常	-9.71255
湛	-9.71294
鍾	-9.71309
怨	-9.7137
舉僧問	-9.71375
壑	-9.71405
一向	-9.7146
那邊	-9.71517
有甚麼	-9.71557
劉	-9.71559
誓	-9.71674
閉	-9.71737
即得	-9.71749
泯	-9.7176
大笑	-9.71786
上來	-9.71805
拶	-9.71846
師便喝	-9.71856
頃	-9.71875
三聖	-9.71897
十四	-9.719
一味	-9.71951
有餘	-9.71999
進云如何是	-9.72013
空中	-9.72023
心地	-9.72064
門人	-9.72086
營	-9.72103
些子	-9.72185
那箇	-9.72233
證明	-9.7228
門云	-9.72342
羅漢	-9.72445
遶	-9.72551
有僧	-9.72559
機緣	-9.72605
憐	-9.72609
何須	-9.72617
繞	-9.72652
江西	-9.72684
撞	-9.72719
腰	-9.72734
歸來	-9.72762
凍	-9.72805
逢人	-9.72812
不問	-9.72936
慣	-9.73008
導	-9.73017
欣	-9.7307
六十	-9.73247
三寶	-9.73309
一回	-9.73319
圍	-9.73341
炤	-9.73444
二人	-9.73472
以拂子	-9.7357
不容	-9.73587
出入	-9.73684
得一	-9.73721
安樂	-9.73806
不過	-9.73815
到處	-9.73864
當機	-9.73866
格	-9.73899
彈指	-9.73957
晝	-9.73999
十九	-9.74023
博山	-9.74084
臭	-9.74098
琴	-9.74111
插	-9.74157
法堂	-9.74161
者是	-9.74277
無窮	-9.74389
聰	-9.74393
說話	-9.74454
如何是祖師西來意	-9.74518
罔	-9.74524
全提	-9.74554
季	-9.74567
上人	-9.74688
杜	-9.74689
溫	-9.7471
燄	-9.7473
氷	-9.74787
大用	-9.74797
示寂	-9.74865
一條	-9.7487
岳	-9.74927
霄	-9.74967
倘	-9.75017
麗	-9.7523
國土	-9.75265
洲	-9.75269
撒	-9.7528
如斯	-9.75325
敘	-9.75336
察	-9.75384
高峰	-9.75391
濁	-9.75395
彈	-9.7542
根本	-9.75467
者個	-9.75486
濕	-9.75488
結制	-9.75508
只要	-9.75557
堆	-9.75653
。』	-9.75733
之旨	-9.75751
動靜	-9.75996
奚	-9.76005
拘	-9.76139
未能	-9.76202
銘	-9.76274
跨	-9.76282
瞿曇	-9.76305
焚	-9.76336
語言	-9.76344
是佛	-9.76401
三下	-9.76409
座主	-9.76538
若人	-9.76575
鹿	-9.76608
山門	-9.7668
隊	-9.76698
竪	-9.76699
裂	-9.76741
墜	-9.76814
欠	-9.76828
有甚	-9.76858
正法	-9.76869
佗	-9.76875
猿	-9.77106
長者	-9.77106
皷	-9.77187
彌陀	-9.77292
為法	-9.77306
普請	-9.77315
天寧	-9.77318
叅	-9.77374
無上	-9.77396
藏身	-9.77505
西方	-9.77527
侵	-9.77556
睦州	-9.77559
一個	-9.77588
湧	-9.77621
播	-9.77671
老子	-9.7774
與他	-9.77768
基	-9.77772
慎	-9.77776
見處	-9.77921
十六	-9.78001
同一	-9.78028
汾陽	-9.78046
偈云	-9.78138
參學	-9.78151
焰	-9.78185
其僧	-9.78305
善惡	-9.78401
問云	-9.78401
精進	-9.78454
不從	-9.78454
復云	-9.78486
布袋	-9.78573
商	-9.78586
斜	-9.78594
派	-9.78607
銅	-9.78748
不斷	-9.78803
泛	-9.78857
個甚麼	-9.78892
江南	-9.78899
泥牛	-9.79047
微塵	-9.79054
軒	-9.79059
南方	-9.79142
無處	-9.79191
篇	-9.79213
塗	-9.79249
猶未	-9.79331
始知	-9.79339
箇中	-9.79344
勘破	-9.79347
言句	-9.79364
僧問如何是	-9.79385
眼裏	-9.79464
用處	-9.79523
本來面目	-9.79642
壯	-9.79658
上下	-9.79665
策	-9.79678
不疑	-9.79699
之言	-9.79757
時時	-9.79949
面壁	-9.7995
晝夜	-9.79972
笠	-9.79994
」】「	-9.80024
然則	-9.80038
十三	-9.80074
與我	-9.80083
曇	-9.80126
豈可	-9.80134
俊	-9.80168
拈拄杖云	-9.80492
當年	-9.80665
是同是別	-9.80679
謀	-9.80718
辜負	-9.80727
燒香	-9.80769
攀	-9.80799
行人	-9.80819
何也	-9.80861
丹霞	-9.80884
一毫	-9.80934
作甚麼	-9.80949
疊	-9.80954
便行	-9.80967
百千	-9.80983
門庭	-9.80985
劈	-9.81043
故云	-9.81056
而出	-9.81099
陣	-9.81177
則不然	-9.81183
雅	-9.81286
甘露	-9.81321
淚	-9.81323
之士	-9.81339
烹	-9.81359
陶	-9.81377
百年	-9.81396
尖	-9.81489
點頭	-9.81528
誇	-9.8158
一步	-9.81662
竭	-9.81683
何用	-9.81736
而後	-9.81756
廣大	-9.81769
如何得	-9.81807
不可以	-9.81829
晨	-9.81872
五十	-9.81892
然雖如是	-9.81926
桃花	-9.8195
之事	-9.82029
椎	-9.82059
責	-9.82084
不二	-9.82125
汗	-9.82135
出門	-9.82141
坑	-9.82142
金粟	-9.82258
思惟	-9.82291
驅	-9.824
果然	-9.82409
看看	-9.82438
歡	-9.82457
壇	-9.82696
門前	-9.82811
流通	-9.82815
剖	-9.82921
俾	-9.82978
六月	-9.8303
郤	-9.83038
近前	-9.83046
不說	-9.83117
不堪	-9.83175
之機	-9.83208
蟲	-9.83237
有人問	-9.83274
少室	-9.83292
此一	-9.83352
祇是	-9.83375
由是	-9.83463
祗	-9.83527
勘	-9.83591
這個	-9.83592
富貴	-9.83649
街	-9.83762
頑	-9.83832
聾	-9.83843
撫	-9.83843
澗	-9.83849
淨慈	-9.83879
所見	-9.83897
如意	-9.83945
勉	-9.84126
激	-9.84197
他人	-9.84217
先生	-9.8424
祈	-9.84264
兩頭	-9.84291
呵	-9.84406
風穴	-9.84501
緊	-9.84517
整	-9.84592
即此	-9.8461
稟	-9.84738
夷	-9.84818
淳	-9.84848
院主	-9.84916
各自	-9.84985
潮	-9.85002
現成	-9.85004
天然	-9.85102
殺活	-9.85119
審	-9.8514
若論	-9.85151
浩浩	-9.85161
鹽	-9.85191
蹉過	-9.85275
十七	-9.85287
未得	-9.85342
緩	-9.85345
兩箇	-9.85356
聞之	-9.85379
親見	-9.85423
歸方丈	-9.85477
占	-9.85485
見性	-9.85519
叟	-9.85555
一切處	-9.85585
潔	-9.85588
桃	-9.85594
遽	-9.85618
不自	-9.85643
為汝	-9.85704
柔	-9.85739
幢	-9.85746
秪如	-9.85765
全彰	-9.85809
堂中	-9.85896
入山	-9.85907
截斷	-9.85919
有一人	-9.85962
示之	-9.85964
豁	-9.85991
回首	-9.86015
乍	-9.86017
前後	-9.86023
回頭	-9.86059
未是	-9.86095
誕	-9.86106
失却	-9.86118
既無	-9.86224
野狐	-9.86228
劣	-9.86276
此間	-9.86278
不來	-9.86325
夜半	-9.86449
付囑	-9.86505
得箇	-9.86522
措	-9.86578
正恁麼時	-9.86651
法王	-9.86695
對曰	-9.86701
福州	-9.86752
剎那	-9.86767
趁	-9.86882
豁然	-9.86996
髓	-9.87002
正法眼藏	-9.87121
人情	-9.87139
謬	-9.87148
一則	-9.87215
喫茶	-9.87243
藍	-9.87312
盆	-9.87334
邦	-9.87392
將軍	-9.87401
環	-9.87424
又道	-9.87434
有什麼	-9.87461
糞	-9.87484
邊事	-9.8761
而有	-9.87673
不勞	-9.87682
柏	-9.87752
揀	-9.87826
還見麼	-9.87865
平地	-9.87874
辱	-9.87908
堂堂	-9.87914
法法	-9.88062
拄	-9.88094
得失	-9.8814
傑	-9.88196
庶	-9.88241
雖則	-9.88242
宗乘	-9.88292
緇素	-9.8832
更不	-9.88335
宅	-9.88437
圓相	-9.88591
行腳	-9.88679
判	-9.88683
不異	-9.88718
限	-9.8872
生平	-9.8875
孟	-9.88836
稽首	-9.88866
八十	-9.8889
且置	-9.88915
拈香	-9.88928
莫能	-9.88982
不思議	-9.89
墻	-9.89036
惺惺	-9.89055
休去	-9.89079
敷	-9.89131
韓	-9.89238
躍	-9.89252
無法	-9.89302
陷	-9.89318
一僧	-9.8933
育	-9.8933
士曰	-9.89349
層	-9.89369
咦	-9.89456
冀	-9.89493
捧	-9.89504
着	-9.89531
一齊	-9.89559
闕	-9.8956
四眾	-9.89562
芝	-9.89568
泣	-9.89582
悉皆	-9.89645
銷	-9.89657
訓	-9.8969
唯有	-9.89712
貞	-9.89743
羽	-9.89753
手裏	-9.89774
段	-9.89777
直是	-9.89814
坐具	-9.8986
魯	-9.89898
澹	-9.89913
甚處	-9.89937
便禮拜	-9.89962
逃	-9.89976
真心	-9.89992
無位真人	-9.90041
鴻	-9.90063
叩	-9.90063
割	-9.90066
廬山	-9.9013
拖	-9.9014
申	-9.90142
祐	-9.90145
之門	-9.90145
與諸人	-9.90171
函	-9.90177
岐	-9.90186
聖賢	-9.90187
所說	-9.9024
社	-9.9029
奈	-9.903
梅花	-9.90318
鼓山	-9.90324
掀翻	-9.90385
不以	-9.90398
夢中	-9.90425
喫棒	-9.90461
圓覺	-9.90493
碑	-9.90523
茂	-9.90574
將何	-9.90586
往往	-9.90634
可憐	-9.90638
謙	-9.90648
全體	-9.90722
親切	-9.90742
廬	-9.90874
僧無對	-9.90913
四句	-9.90938
當頭	-9.9094
知其	-9.90941
笑曰	-9.90991
之意	-9.91016
偷	-9.911
僧堂	-9.91148
還見	-9.91202
例	-9.91286
蕭	-9.91287
進云恁麼則	-9.91343
向道	-9.91372
樵	-9.91516
採	-9.91582
記得	-9.91609
痕	-9.91657
渴	-9.91671
弱	-9.91741
憨	-9.9177
籬	-9.91825
無依	-9.91862
然而	-9.91922
叔	-9.92108
分上	-9.92205
不忘	-9.92226
台	-9.92237
雖有	-9.92287
同參	-9.92289
安排	-9.92377
有言	-9.9238
恰	-9.92413
築	-9.92414
階	-9.92443
叢	-9.92506
戀	-9.9253
拈來	-9.92535
應諾	-9.92574
鄰	-9.92583
餐	-9.92622
戴	-9.92624
沾	-9.92642
旬	-9.92664
師打云	-9.92665
所有	-9.92685
荊	-9.92696
迷悟	-9.92779
闢	-9.92789
一語	-9.9279
昨	-9.928
默然	-9.92802
看他	-9.9288
伏願	-9.92928
三人	-9.92954
凌	-9.92979
奈何	-9.93013
搭	-9.93119
那裏	-9.93161
鑽	-9.93165
選	-9.9325
莫不	-9.93255
藤	-9.93274
三藏	-9.93305
即不然	-9.93344
苔	-9.93367
喧	-9.934
未明	-9.934
帆	-9.93479
有情	-9.93513
看來	-9.93559
懼	-9.93575
誑	-9.93612
潑	-9.93641
慢	-9.93651
只在	-9.93709
無門	-9.93818
鍼	-9.93861
得出	-9.93865
也不	-9.93896
諾	-9.93916
翼	-9.93952
斤	-9.9396
算	-9.94002
便問	-9.94004
之際	-9.94004
始終	-9.94051
鴈	-9.94051
所得	-9.94104
寓	-9.94111
卿	-9.94157
二年	-9.942
竿	-9.94272
束	-9.9428
牀	-9.94286
大丈夫	-9.94289
夜來	-9.94331
贈	-9.94336
剌	-9.94349
見之	-9.94356
天王	-9.94388
隨處	-9.94392
無知	-9.94494
那箇是	-9.94543
啞	-9.94609
煉	-9.9461
防	-9.94642
泊	-9.94671
底麼	-9.94675
死生	-9.94683
了無	-9.94732
有分	-9.94745
懺	-9.94757
粟	-9.94829
湘	-9.94891
脈	-9.94901
斧	-9.9508
蘆	-9.9509
鋪	-9.95101
蘿	-9.95173
住山	-9.9523
今年	-9.95318
警	-9.95501
屎	-9.95506
優	-9.95511
劄	-9.95522
曹	-9.95574
輸	-9.95662
法性	-9.95679
賺	-9.9568
坦	-9.95703
發心	-9.95769
摸	-9.95784
堂前	-9.95855
或有	-9.95907
可惜	-9.95918
膝	-9.95923
千峰	-9.95944
侶	-9.95992
怎	-9.96023
裁	-9.96035
減	-9.96129
獨露	-9.96144
你諸人	-9.96204
鼠	-9.9622
六根	-9.96224
不與	-9.96291
漁	-9.96317
之地	-9.96331
族	-9.96354
纖毫	-9.96364
士云	-9.96437
卜	-9.96457
必有	-9.96567
撞著	-9.96778
未見	-9.96803
依然	-9.9685
一半	-9.96852
辛	-9.96886
以來	-9.96917
何妨	-9.96941
神光	-9.97035
奮	-9.97052
浦	-9.97079
時有	-9.97083
可得	-9.97117
詮	-9.97201
何以故	-9.97228
手中	-9.97245
且喜	-9.97289
惟有	-9.9737
明白	-9.97386
醜	-9.97413
飢	-9.97479
豈非	-9.97507
作麼生會	-9.97536
之下	-9.9757
東土	-9.97593
斫	-9.9761
一番	-9.97618
哲	-9.97635
孤負	-9.97716
悟道	-9.97733
諸仁者	-9.97786
宰	-9.9779
狐	-9.97826
甚處來	-9.97892
寒暑	-9.97944
料	-9.97947
說得	-9.97951
保福	-9.98021
鬧	-9.98125
坐禪	-9.98126
既不	-9.98139
妙用	-9.98207
絲毫	-9.98228
它	-9.98244
示眾曰	-9.98251
秉	-9.98261
式	-9.9839
蒲團	-9.98435
搆	-9.985
汝諸人	-9.98595
北斗	-9.98612
便出	-9.98615
浙	-9.98623
又如何	-9.98632
瞋	-9.98676
一見	-9.987
考	-9.98714
歟	-9.98765
無我	-9.98839
三乘	-9.98865
慚	-9.98881
聲聞	-9.98996
萬古	-9.99039
烈	-9.9908
嵩	-9.99133
苑	-9.99213
衡	-9.99241
叱	-9.9925
詰	-9.99286
南北	-9.99315
頂上	-9.99316
於中	-9.9934
其心	-9.99361
六年	-9.99364
提持	-9.994
在此	-9.9941
效	-9.99487
敏	-9.99492
千山	-9.99501
真淨	-9.99504
逝	-9.99536
產	-9.99562
訣	-9.99579
嗚呼	-9.99638
屢	-9.99679
他日	-9.99781
從教	-9.99797
攜	-9.99906
馬大師	-9.99926
未幾	-9.99936
燈籠	-9.9995
嵒	-9.99988
本師	-10.0002
歷歷	-10.0003
青天	-10.0003
育王	-10.0014
宏	-10.0016
黃梅	-10.0017
便道	-10.0018
五臺	-10.002
不契	-10.0021
牢	-10.0025
舜	-10.0027
不待	-10.0029
龍象	-10.003
摧	-10.0032
匪	-10.0037
迦	-10.005
男	-10.0051
噫	-10.0053
笛	-10.0054
剩	-10.0055
羞	-10.0057
个	-10.0059
師乃云	-10.0061
焦	-10.0064
毋	-10.0069
經行	-10.0069
此時	-10.0072
術	-10.0072
知解	-10.008
學云	-10.0086
頭角	-10.0092
巳前	-10.0096
職	-10.0102
石女	-10.0111
竺	-10.0117
蓬	-10.012
旗	-10.0122
盜	-10.0123
事作麼生	-10.0125
山僧今日	-10.0126
萬年	-10.0131
三尺	-10.0138
捲	-10.0139
作什麼	-10.0143
鐵牛	-10.0144
尊貴	-10.0149
是則	-10.0152
向甚麼處	-10.0155
康	-10.0168
杲	-10.0175
不去	-10.018
擁	-10.0181
隻	-10.0182
稀	-10.019
無間	-10.0198
薦取	-10.0209
竅	-10.0214
禪客	-10.0219
不合	-10.0225
歸去	-10.0227
你若	-10.0227
濃	-10.0239
華藏	-10.0243
撒手	-10.0246
世人	-10.0249
譚	-10.025
意作麼生	-10.025
當知	-10.0251
銜	-10.0255
給	-10.0268
槌	-10.0272
還委悉麼	-10.0275
草木	-10.0276
勇	-10.028
盞	-10.0287
籌	-10.0297
鬼神	-10.0304
亦如是	-10.0307
此人	-10.031
堯	-10.0313
忽遇	-10.0314
之理	-10.0317
慰	-10.0319
曰恁麼則	-10.0323
地藏	-10.0323
主人	-10.0323
你道	-10.0333
不被	-10.0335
八月	-10.0336
出頭	-10.0338
要知	-10.0341
棹	-10.0349
格外	-10.0354
拾	-10.0356
明珠	-10.0359
須彌山	-10.036
天下人	-10.0364
為一	-10.0368
突出	-10.0377
庫	-10.0382
石門	-10.0393
一物	-10.0393
無住	-10.0394
第一義	-10.0394
一滴	-10.0402
安居	-10.0409
要識	-10.0413
釘	-10.0414
罰	-10.0414
足下	-10.0416
正當	-10.0416
鑿	-10.0421
答云	-10.0425
到家	-10.0425
未了	-10.0427
本自	-10.0436
次第	-10.0439
紀	-10.0443
非是	-10.0454
班	-10.0457
一轉語	-10.046
要見	-10.0461
絃	-10.0473
任運	-10.0477
不應	-10.0479
眼目	-10.0481
陞堂	-10.0487
僧便喝	-10.0493
大溈	-10.0497
四方	-10.0499
麥	-10.0502
四十	-10.052
風雨	-10.0524
自由	-10.0525
欄	-10.0526
浸	-10.0529
薪	-10.0531
秘	-10.0531
諸禪德	-10.0533
頓悟	-10.0535
㵎	-10.0535
問答	-10.0544
植	-10.055
後人	-10.0553
蓮花	-10.0557
二祖	-10.0561
次日	-10.0581
是真	-10.0582
二月	-10.0582
乃問	-10.0588
翳	-10.0592
教人	-10.0594
具眼	-10.0597
毗盧	-10.0603
一笑	-10.0604
眾中	-10.0604
弊	-10.061
久之	-10.0615
)」】「	-10.0617
西堂	-10.0625
風光	-10.0641
乞師	-10.0647
未知	-10.0648
拾得	-10.065
蒲	-10.0651
精神	-10.0653
不肖	-10.066
得法	-10.0672
禪者	-10.0675
嚼	-10.0677
種子	-10.0678
併	-10.0682
論云	-10.0686
黃蘗	-10.0687
託	-10.0689
是也	-10.069
故知	-10.0692
林下	-10.0696
途中	-10.0699
是為	-10.07
介	-10.0727
一身	-10.0728
轍	-10.073
光陰	-10.0733
十二時中	-10.0735
疑情	-10.0739
透得	-10.0745
二十五	-10.0753
孔子	-10.0754
明得	-10.076
濤	-10.0763
言說	-10.0764
埋沒	-10.0768
物物	-10.0772
翠巖	-10.0772
闡	-10.0774
杳	-10.0777
臘月	-10.0778
不變	-10.0782
等閑	-10.0784
大智	-10.0794
徒勞	-10.0798
一問	-10.0799
炎	-10.0802
活計	-10.0803
揖	-10.0815
賦	-10.082
豪	-10.0821
賀	-10.0824
𦦨	-10.0824
未甞	-10.0827
新羅	-10.0828
紅爐	-10.0837
不分	-10.084
兜率	-10.084
四月	-10.0841
瞌睡	-10.0846
唾	-10.085
參究	-10.0851
難得	-10.0851
見佛	-10.0851
弓	-10.0854
稜	-10.0859
又何	-10.086
本有	-10.0866
為我	-10.0873
近日	-10.0873
鑄	-10.0874
得其	-10.0877
一年	-10.088
有二	-10.0888
榻	-10.0892
漆桶	-10.0893
罪過	-10.0895
役	-10.0897
道德	-10.09
瘦	-10.0901
不恁麼	-10.0908
窠臼	-10.0916
)。【	-10.0917
或云	-10.0917
佛心	-10.092
與麼道	-10.0927
大慈	-10.0928
踞	-10.0937
將去	-10.0943
魏	-10.0949
是否	-10.095
紛	-10.0952
亦名	-10.0953
悠悠	-10.0959
拈花	-10.0963
言下	-10.0964
最初	-10.0967
諸聖	-10.0968
為眾	-10.0975
長空	-10.0976
十五日	-10.098
祖道	-10.0988
一曲	-10.0992
庭前	-10.0999
敕	-10.1003
莫有	-10.1006
全無	-10.1014
若向	-10.1015
同時	-10.1016
竹篦	-10.1017
落處	-10.1018
削	-10.1028
切莫	-10.1028
二三	-10.1032
瓦礫	-10.1035
師便	-10.104
輒	-10.1043
逈	-10.1045
還他	-10.1046
與麼則	-10.1046
流出	-10.1047
無情	-10.1049
輪迴	-10.1061
倍	-10.1064
此中	-10.1066
卷之	-10.1073
茫茫	-10.1075
放行	-10.1078
如人	-10.109
覰	-10.1091
豈不見	-10.1092
檗	-10.11
靠	-10.1102
怖	-10.1106
開眼	-10.1107
捏	-10.1108
非但	-10.1109
盖	-10.1113
誰能	-10.1115
鬚	-10.1119
佛日	-10.1119
海底	-10.1126
無著	-10.1136
上堂舉	-10.1136
不消	-10.1137
無始	-10.1144
逍遙	-10.1145
軀	-10.1147
生涯	-10.115
抹	-10.116
何似	-10.1164
衫	-10.117
溺	-10.117
胸中	-10.1172
十字街頭	-10.1175
還識	-10.1186
了知	-10.119
金陵	-10.1193
靈雲	-10.1198
又是	-10.1201
永嘉	-10.1203
便歸方丈	-10.1208
罕	-10.1215
循	-10.1219
滄海	-10.1221
十月	-10.1221
便休	-10.1222
立地	-10.123
而退	-10.1235
受具	-10.1237
七十	-10.1238
懺悔	-10.1242
寢	-10.1248
餅	-10.1248
師拈云	-10.1253
不犯	-10.1254
完	-10.1255
佛果	-10.1264
伽	-10.1264
晉	-10.1271
總不	-10.1272
妻	-10.1272
員	-10.1284
均	-10.1287
女子	-10.1289
先聖	-10.129
若要	-10.1294
故名	-10.1295
不開	-10.1305
若言	-10.1306
裝	-10.1308
鋤	-10.1311
撐	-10.1314
泉云	-10.1317
以至	-10.1325
出氣	-10.1337
以何為	-10.134
不負	-10.1345
一色	-10.1346
日日	-10.1346
唇	-10.1353
好箇	-10.1355
遷化	-10.1357
炭	-10.1357
奧	-10.1359
紅塵	-10.1372
曠	-10.1375
步步	-10.1375
蓮華	-10.1383
桑	-10.1384
則無	-10.1396
作麼生道	-10.1398
之功	-10.1398
涌	-10.1401
捐	-10.1407
何物	-10.141
頭陀	-10.1411
山下	-10.1416
水中	-10.1423
百億	-10.1423
開法	-10.1426
債	-10.1427
誰敢	-10.1428
呌	-10.1429
天上	-10.1433
之外	-10.1434
師翁	-10.1436
正覺	-10.1437
鄭	-10.1437
副	-10.1439
五位	-10.1445
佛眼	-10.1448
獅	-10.1449
剪	-10.1454
凋	-10.1457
一百	-10.1457
正令	-10.1462
!	-10.1465
域	-10.1473
所作	-10.1473
雖是	-10.1478
䇿	-10.1486
催	-10.1488
幾人	-10.1492
不屬	-10.1498
正當恁麼時	-10.1504
什	-10.1506
硬	-10.1511
向甚麼處去	-10.1518
三玄	-10.152
師云你	-10.1525
容易	-10.1528
闍梨	-10.153
不要	-10.1532
鈎	-10.1532
夫人	-10.1535
嘯	-10.1538
不露	-10.1543
為師	-10.1544
若以	-10.155
何為	-10.1551
路上	-10.1552
揑	-10.1572
蔽	-10.1577
鈍置	-10.1577
毬	-10.1581
莫教	-10.1584
眼中	-10.1589
貼	-10.1591
即心即佛	-10.1591
五月	-10.1596
見其	-10.1601
仗	-10.1604
山前	-10.1607
五色	-10.1608
唯識	-10.1609
帝釋	-10.1609
一朝	-10.161
伹	-10.1611
暑	-10.1612
棺	-10.1622
架	-10.1626
圓滿	-10.1627
二乘	-10.1629
伽藍	-10.1636
龍潭	-10.1637
解制	-10.1639
若非	-10.1645
菊	-10.1648
看經	-10.1652
未到	-10.1654
末後句	-10.1664
恣	-10.1665
綿	-10.168
透脫	-10.1685
遍界	-10.1688
踏著	-10.1688
聯	-10.1688
牌	-10.1689
輔	-10.169
巾	-10.1695
春色	-10.1702
手眼	-10.1703
歲月	-10.1703
聰明	-10.1707
碗	-10.1718
棒頭	-10.172
儼然	-10.172
𨁝跳	-10.1721
緇	-10.1723
委悉	-10.1726
挽	-10.1728
之則	-10.173
根塵	-10.1734
三十年後	-10.1735
嗔	-10.1737
覽	-10.1737
脚下	-10.1737
叉手	-10.1742
其間	-10.175
九年	-10.1753
三句	-10.1755
禪宗	-10.1756
阿師	-10.1756
此經	-10.1762
向上事	-10.1766
心心	-10.1766
名字	-10.1774
雪竇云	-10.1774
春秋	-10.178
根源	-10.1781
漚	-10.1785
無數	-10.1792
而能	-10.1793
高聲	-10.1803
作用	-10.1806
不道	-10.1808
理事	-10.1811
芙蓉	-10.1824
滴	-10.1828
匠	-10.183
師兄	-10.1831
明年	-10.1834
殃	-10.1838
正月	-10.1841
成道	-10.1844
未必	-10.1846
施設	-10.1846
初參	-10.1848
一偈	-10.1851
杯	-10.1852
之者	-10.1852
禽	-10.1859
譽	-10.1862
厥	-10.1862
相續	-10.1868
自此	-10.1868
無形	-10.1869
言之	-10.1871
而生	-10.1875
事如何	-10.1886
木人	-10.1891
是知	-10.1897
大愚	-10.1897
非有	-10.1904
逞	-10.1905
擒	-10.1908
陞	-10.191
咨	-10.1916
曰和尚	-10.1923
知事	-10.1936
月明	-10.1938
巴	-10.1941
也要	-10.1947
姑	-10.1949
梓	-10.1952
壺	-10.1955
太子	-10.1956
問取	-10.1956
擔荷	-10.1961
暴	-10.1961
底是	-10.1976
是汝	-10.1983
兆	-10.1983
穢	-10.1984
說破	-10.1985
各有	-10.1985
撰	-10.1986
及乎	-10.1987
科	-10.1995
如幻	-10.1995
今夜	-10.1997
秋風	-10.2006
描	-10.2008
一事	-10.2009
暢	-10.2017
鎻	-10.2022
東林	-10.2024
之以	-10.2029
洎	-10.2031
落在	-10.2034
蹈	-10.2041
作佛	-10.2046
暇	-10.2051
道不得	-10.2056
九月	-10.2058
打鼓	-10.2062
得之	-10.2063
鎚	-10.2066
堪笑	-10.2072
此日	-10.2075
卦	-10.2077
荊棘	-10.2078
儻	-10.2078
行履	-10.2081
因甚麼	-10.2083
沒交涉	-10.2091
師以	-10.2095
壽昌	-10.2096
寒山	-10.2096
且道是	-10.21
師舉	-10.2102
俄	-10.2107
零	-10.211
首山	-10.2114
材	-10.2116
一旦	-10.2137
意氣	-10.214
十分	-10.2144
進前	-10.2145
逾	-10.2145
平常	-10.2146
獸	-10.2146
向者裏	-10.2148
鱗	-10.2152
普化	-10.2153
底句	-10.2153
窠	-10.2156
紛紛	-10.2157
廟	-10.216
得來	-10.2166
爺	-10.217
長沙	-10.2173
番	-10.2173
之義	-10.2174
樞	-10.2182
變化	-10.2183
剝	-10.2184
卓拄杖下座	-10.2189
今人	-10.2191
禪和	-10.2196
世之	-10.2209
施主	-10.2212
便與	-10.2215
無漏	-10.2217
莖	-10.2219
菴主	-10.2223
如如	-10.2223
葉落	-10.2223
卓拄杖	-10.2228
個個	-10.2228
到底	-10.2229
深山	-10.2229
出沒	-10.2231
大王	-10.2231
什摩	-10.2237
呪	-10.2245
經論	-10.2245
諭	-10.2247
佛言	-10.2253
祭	-10.2257
偃	-10.2267
別云	-10.2278
璧	-10.229
研	-10.2296
朕	-10.2298
而行	-10.2298
琉璃	-10.2301
芥	-10.2301
若見	-10.2303
葬	-10.2303
浩	-10.2304
衛	-10.2306
簷	-10.2313
放出	-10.2318
早是	-10.2322
向他道	-10.2323
什麼處	-10.2337
一種	-10.2341
法語	-10.2341
畵	-10.2347
輥	-10.235
不勝	-10.2351
七月	-10.2351
萬壽	-10.2352
虞	-10.2355
當時若	-10.2355
郭	-10.2356
山頭	-10.2366
訶	-10.2367
法席	-10.2368
聳	-10.237
明暗	-10.2373
衢	-10.2378
不惟	-10.2379
和合	-10.2384
年來	-10.2385
大夫	-10.239
猶在	-10.239
後學	-10.2405
出身	-10.2406
著力	-10.2407
師僧	-10.241
落花	-10.2412
鏡清	-10.2413
全機	-10.2415
)。」【	-10.2421
見麼	-10.2425
不求	-10.2426
猛虎	-10.2431
被人	-10.2437
親近	-10.2443
模	-10.2443
錯過	-10.2445
性空	-10.2447
知是	-10.2448
峭	-10.2451
趂	-10.2453
虧	-10.2455
陰陽	-10.2458
天下老和尚	-10.2459
團	-10.2464
一掌	-10.2466
何異	-10.2469
誨	-10.247
粉碎	-10.2471
局	-10.2477
捷	-10.2477
威儀	-10.2478
利益	-10.2478
貧道	-10.248
做工夫	-10.2482
慚愧	-10.2486
千載	-10.2486
有眼	-10.2489
師遂	-10.2491
正法眼	-10.2492
說偈曰	-10.2492
快活	-10.2494
命根	-10.2495
酸	-10.2495
座下	-10.2495
創	-10.2498
苗	-10.2508
厲	-10.2511
擲下	-10.2513
天目	-10.2517
向前	-10.2525
理會	-10.2528
此土	-10.253
萬仞	-10.2542
瓜	-10.2542
低頭	-10.2544
習氣	-10.2545
放光	-10.2545
何有	-10.2546
寂寂	-10.2546
與師	-10.2551
有個	-10.2551
黃葉	-10.2553
嘴	-10.2558
作者	-10.2564
唯心	-10.2566
老師	-10.2567
悟去	-10.2568
事若何	-10.2579
不惜	-10.2585
不向	-10.2585
自古	-10.2585
膺	-10.259
峰頭	-10.2591
淮	-10.2598
本分事	-10.2601
底道理	-10.2601
煎	-10.2611
有大	-10.2615
攪	-10.2615
入院	-10.2622
億	-10.2627
久矣	-10.2628
嘆	-10.2629
堅固	-10.263
一體	-10.2631
樓閣	-10.2632
信心	-10.2633
光中	-10.2634
別人	-10.2636
不因	-10.2638
無念	-10.2641
方可	-10.2642
亦可	-10.2644
一機	-10.2646
互相	-10.2647
幾時	-10.265
皎	-10.2654
向這裏	-10.2662
在甚處	-10.267
山川	-10.267
龐居士	-10.2671
煖	-10.268
寡	-10.2684
偉	-10.2685
爭得	-10.2692
帽	-10.2693
真空	-10.2697
嗣法門人	-10.27
觀之	-10.2702
縮	-10.2704
靡	-10.2704
哮吼	-10.2706
雪山	-10.2706
印可	-10.2706
不留	-10.2707
蘆花	-10.2712
靈源	-10.272
掉	-10.272
在目前	-10.2725
祖意	-10.2726
何謂	-10.2728
回互	-10.2731
若作	-10.2737
增收	-10.2742
猶有	-10.2747
見聞覺知	-10.2758
深處	-10.2761
杭州	-10.2761
來者	-10.2763
師問僧	-10.2765
了了	-10.2766
法輪	-10.2768
無餘	-10.2779
臨機	-10.2781
殆	-10.2782
韶	-10.2784
太虗	-10.2786
更須	-10.2786
萬劫	-10.279
新到	-10.279
▁|	-10.2791
三門	-10.2793
芽	-10.2804
縫	-10.2805
太虛	-10.2806
入道	-10.281
評	-10.2811
地上	-10.2815
定慧	-10.282
五年	-10.2825
甫	-10.2825
帳	-10.2826
峰頂	-10.2833
路頭	-10.2836
之說	-10.284
不失	-10.284
再來	-10.2845
寥寥	-10.2855
及至	-10.2859
何況	-10.286
從他	-10.286
國王	-10.2861
庵主	-10.287
吸	-10.2872
謂眾曰	-10.2875
俟	-10.2877
萌	-10.2882
塘	-10.2886
多年	-10.289
則有	-10.2891
洋	-10.2894
心性	-10.2894
願力	-10.2895
龍池	-10.2896
二俱	-10.2899
湖南	-10.2902
幾箇	-10.2915
四十九年	-10.2924
動著	-10.2927
法幢	-10.2931
端坐	-10.2935
濫	-10.2937
梢	-10.2938
心不	-10.2943
半夜	-10.2945
諸上座	-10.2949
屠	-10.2951
之語	-10.2951
得恁麼	-10.2952
不到處	-10.2954
被他	-10.2955
退後	-10.2956
巴鼻	-10.2956
慧命	-10.2962
下語	-10.2965
舉起	-10.2966
同安	-10.2966
一大藏教	-10.2972
又有	-10.2975
舊時	-10.2981
腦後	-10.2985
棒喝	-10.2987
殷勤	-10.2988
康熙	-10.2989
楔	-10.299
日出	-10.299
得度	-10.299
三種	-10.2993
青原	-10.2994
艱	-10.2994
畜	-10.2997
偽	-10.2998
而自	-10.2998
甕	-10.2999
十一	-10.3
八萬四千	-10.3005
通身是	-10.3005
有異	-10.3009
呵呵	-10.301
汝若	-10.3012
替	-10.3016
色身	-10.3018
欲識	-10.3021
天真	-10.3022
安心	-10.3023
今之	-10.3026
禾	-10.3026
王老師	-10.3028
一線	-10.3029
以杖	-10.3029
對眾	-10.3031
古德云	-10.3031
為諸人	-10.3033
行住坐臥	-10.3033
不下	-10.3035
出眾	-10.3035
不言	-10.3036
不悟	-10.3036
麟	-10.3038
當面	-10.3038
生也	-10.3042
泐潭	-10.3045
嵩山	-10.3048
從頭	-10.3049
上堂僧問	-10.305
腳下	-10.3052
門戶	-10.3054
六道	-10.3055
刺	-10.3058
監	-10.3062
逮	-10.3067
凡有	-10.3069
悟入	-10.3073
有此	-10.3074
年年	-10.3075
擡	-10.3076
眾人	-10.3087
須臾	-10.3094
傳燈	-10.3095
西山	-10.3099
千差	-10.3103
収	-10.3106
迸	-10.3107
是你	-10.3107
之性	-10.3109
灌	-10.3115
惱	-10.3117
頹	-10.3119
脉	-10.3123
無字	-10.3125
問道	-10.3125
滋	-10.3127
法華經	-10.3127
鷄	-10.3129
特為	-10.313
此意	-10.3134
在這裏	-10.3136
還是	-10.3137
諸祖	-10.314
免得	-10.3143
樹下	-10.3155
努力	-10.3155
不可思議	-10.3156
縱有	-10.3158
岑	-10.3159
風動	-10.316
古鏡	-10.3161
而來	-10.3163
憤	-10.3163
栢	-10.3165
朽	-10.3167
說甚	-10.3169
蹤跡	-10.3175
活人	-10.3179
峰云	-10.3181
三更	-10.3182
文章	-10.3186
綱宗	-10.3187
吾師	-10.3189
船子	-10.3189
看取	-10.3189
受戒	-10.319
巡	-10.3195
鉗鎚	-10.3196
突	-10.3204
几	-10.3206
囉	-10.321
滲漏	-10.3215
而成	-10.3216
廿	-10.3216
第六	-10.3217
雁	-10.3218
巳上	-10.3222
祿	-10.3223
臻	-10.3226
作主	-10.3228
且莫	-10.3229
仁者	-10.3229
壓	-10.3238
庸	-10.324
好與	-10.3244
不墮	-10.3244
自從	-10.325
衲僧家	-10.3252
說甚麼	-10.3253
試問	-10.3255
僧參	-10.3258
一隻	-10.3259
毗	-10.3265
臨終	-10.327
識取	-10.327
邁	-10.3273
心法	-10.3274
五蘊	-10.3278
幾度	-10.328
石上	-10.3281
我有	-10.3285
二字	-10.3286
水月	-10.3299
這一	-10.33
獨步	-10.3313
道無	-10.3317
瑞巖	-10.3321
繡	-10.3322
矢	-10.3327
南無	-10.3333
祖佛	-10.3335
白日	-10.3346
鞋	-10.3349
常在	-10.3352
堂上	-10.3353
答話	-10.3355
而立	-10.3359
爆	-10.3361
本色	-10.3364
篤	-10.3365
所在	-10.3368
向汝道	-10.337
喝一喝下座	-10.3373
晏	-10.3377
五湖	-10.3389
爽	-10.3391
水流	-10.3391
撫掌	-10.3403
雀	-10.3404
崑崙	-10.3407
集眾	-10.3415
之有	-10.3417
華嚴經	-10.3418
詠	-10.342
本覺	-10.3421
欲得	-10.3422
白椎	-10.3423
向上一路	-10.3425
無疑	-10.3426
却問	-10.3427
雲棲	-10.3428
道著	-10.343
子孫	-10.3431
灼然	-10.3432
如何是道	-10.3439
沖	-10.344
曾到	-10.3451
師因	-10.3453
意旨	-10.3457
娑婆	-10.3458
挈	-10.3459
訛	-10.346
依前	-10.3463
僅	-10.3464
昭覺	-10.3474
人心	-10.3478
橫身	-10.3479
不見有	-10.3487
潭州	-10.3488
翅	-10.349
四生	-10.3492
一乘	-10.3493
大事因緣	-10.3495
有僧問	-10.3503
子細	-10.3505
何在	-10.3506
眷屬	-10.3506
曰我	-10.3507
妖	-10.3507
州曰	-10.3509
黃河	-10.351
襟	-10.351
斑	-10.3512
軌	-10.3515
二老	-10.3515
布施	-10.3522
每日	-10.3524
靈光	-10.3525
男女	-10.3527
肇	-10.3532
夜深	-10.3536
起來	-10.3537
而得	-10.3538
牛頭	-10.3538
必須	-10.3544
音聲	-10.3547
瞥	-10.3548
本心	-10.3549
門中	-10.3549
狼	-10.3555
管取	-10.3559
詎	-10.3564
一輪	-10.3565
殊勝	-10.3567
便知	-10.3568
何時	-10.3572
在手	-10.3573
鵬	-10.3579
未出	-10.3579
禪定	-10.3581
師之	-10.3582
得力	-10.3583
飜	-10.3584
師於	-10.3586
橛	-10.3588
歷代祖師	-10.3596
吾宗	-10.3601
磚	-10.3602
歸家	-10.3606
之相	-10.3609
門頭	-10.3612
無佛	-10.3614
腳跟	-10.3618
心印	-10.3621
遊戲	-10.3629
水牯牛	-10.3629
師打	-10.3631
為君	-10.3637
疲	-10.3641
挺	-10.3641
來日	-10.3645
隨機	-10.3649
如何是佛法大意	-10.365
綸	-10.3661
擘	-10.3664
心外	-10.3664
蹄	-10.3667
世法	-10.3674
極樂	-10.3674
鄙	-10.3677
安身立命	-10.3679
不知有	-10.3679
實無	-10.368
是我	-10.3681
密密	-10.3681
驀拈拄杖	-10.3683
久立	-10.3685
示現	-10.3687
為甚麼不	-10.3694
去年	-10.3699
無一	-10.3702
孚	-10.3702
許你	-10.3708
塊	-10.3716
閙	-10.372
廝	-10.3721
鶯	-10.3724
雲水	-10.3729
在者裏	-10.3731
月落	-10.3735
好手	-10.3739
撼	-10.3741
滑	-10.3745
禪床	-10.3746
纖	-10.3749
犬	-10.375
湛然	-10.3754
冬至	-10.3754
畜生	-10.3754
琅	-10.3756
晤	-10.3757
主人公	-10.3759
寶壽	-10.3759
災	-10.3762
一如	-10.3764
脚跟下	-10.3764
峰曰	-10.3766
咎	-10.3767
直截	-10.3771
喚甚麼作	-10.3776
也有	-10.3781
寶藏	-10.3785
說偈	-10.3786
煞	-10.3787
豆	-10.3788
粗	-10.3796
人來	-10.3797
陛下	-10.3807
翰	-10.381
肥	-10.3812
瑩	-10.3814
曷	-10.3816
獄	-10.3817
眸	-10.3818
問著	-10.382
無性	-10.3822
機鋒	-10.3823
安得	-10.3825
舉前話	-10.3825
知之	-10.3829
饒舌	-10.3831
一期	-10.3836
天人	-10.3837
塵塵	-10.3852
僊	-10.3853
故有	-10.3856
炬	-10.3856
山水	-10.3856
此道	-10.3858
第十	-10.3866
誘	-10.3871
掣	-10.3871
元年	-10.3871
譬	-10.3875
蕩蕩	-10.3876
却是	-10.3878
傲	-10.3879
有為	-10.3879
一莖	-10.3882
這般	-10.3894
確	-10.3894
粒	-10.3901
只管	-10.3903
痛棒	-10.3904
天龍	-10.3907
他家	-10.391
可知	-10.3914
拈拄杖曰	-10.3915
師一日	-10.3919
如來藏	-10.3923
直教	-10.3925
豈是	-10.3927
尚書	-10.3928
析	-10.393
渺	-10.3932
觸著	-10.3933
灘	-10.3934
拱	-10.3937
乏	-10.3939
父母未生前	-10.3944
粉	-10.3944
後世	-10.3944
投機	-10.3947
出去	-10.3949
從何	-10.3952
翫	-10.396
空花	-10.3963
蜜	-10.3964
虎丘	-10.3965
不取	-10.397
進步	-10.3971
下手	-10.3975
還知麼	-10.398
鈴	-10.3986
峯云	-10.3988
恰似	-10.399
何法	-10.3992
且作麼生	-10.3997
得此	-10.4003
干戈	-10.4004
舉唱	-10.4004
天明	-10.4008
只有	-10.4013
善根	-10.4025
西來意	-10.4032
腦	-10.4033
白雲端	-10.4034
區區	-10.4035
大蟲	-10.4036
圜	-10.4038
踢	-10.4045
能知	-10.4046
昂	-10.4046
項	-10.4046
惺	-10.4049
喝一喝曰	-10.4049
無差	-10.405
尸	-10.4054
宛	-10.4058
而化	-10.4059
涕	-10.4069
諸公	-10.407
蔣山	-10.4077
設齋	-10.4082
筋	-10.4085
幾多	-10.4085
鬥	-10.4089
火裏	-10.4092
住後	-10.4092
拍手	-10.4094
諸兄弟	-10.41
天涯	-10.4102
無一法	-10.4103
於心	-10.4103
侍郎	-10.4111
擺	-10.4118
一頓	-10.4121
中秋	-10.4125
第七	-10.4128
真性	-10.413
允	-10.4136
可見	-10.4139
膠	-10.4139
意識	-10.4153
使人	-10.4159
不行	-10.4163
龍牙	-10.4163
龜毛	-10.4166
風月	-10.4169
如何是和尚家風	-10.417
辨得	-10.4172
豁開	-10.4177
亦復如是	-10.4179
四年	-10.418
N	-10.418
爻	-10.4182
蔭	-10.4185
屑	-10.4185
真正	-10.4187
缾	-10.4187
茆	-10.4189
死心	-10.4189
微笑	-10.419
爾時	-10.4193
歎曰	-10.4194
威音	-10.4195
枷	-10.4202
猜	-10.4203
不善	-10.4207
法道	-10.4212
諳	-10.4212
非真	-10.4214
汝今	-10.422
懇	-10.4221
有三	-10.4232
本源	-10.4234
若謂	-10.4238
復何	-10.425
未在	-10.4252
心中	-10.4253
人皆	-10.4256
燦	-10.4256
恁麼會	-10.426
上樹	-10.4261
糧	-10.4264
伐	-10.427
觜	-10.427
臨時	-10.4271
磬	-10.4271
皆有	-10.4274
元是	-10.4276
籃	-10.4278
的的	-10.4278
觸處	-10.4278
十地	-10.4281
眾僧	-10.4284
領眾	-10.4286
玲瓏	-10.4287
亦然	-10.4288
小乘	-10.4294
一夜	-10.4295
龍華	-10.4299
家家	-10.43
一夕	-10.43
無能	-10.4303
於斯	-10.4304
歸依	-10.4307
之志	-10.4308
巳是	-10.4311
牆	-10.4313
修證	-10.4325
污	-10.4325
極則	-10.4328
哩	-10.4332
住處	-10.4332
三拜	-10.4337
睛	-10.4339
携	-10.4342
監院	-10.4345
曰汝	-10.4346
取捨	-10.4347
摘	-10.435
請問	-10.4351
甜	-10.4351
桶	-10.4352
龐公	-10.4353
讚歎	-10.4354
衲衣	-10.4363
斥	-10.4363
坐臥	-10.4364
即便	-10.4366
亮	-10.4371
夾	-10.4373
時有僧出	-10.4373
自謂	-10.4374
不復	-10.4376
禪寺	-10.4385
護國	-10.4386
本性	-10.4391
練	-10.4396
垂手	-10.4401
大人	-10.4402
不定	-10.4405
毘盧	-10.4405
炙	-10.4406
飾	-10.4407
仔細	-10.4407
來時	-10.4407
不是佛	-10.441
如何是境中人	-10.4411
)○	-10.4411
波斯	-10.4413
我也	-10.4413
禾山	-10.4415
若知	-10.4418
末法	-10.4419
滋味	-10.4421
無說	-10.4423
憲	-10.4424
勒	-10.4425
廊	-10.4429
諸緣	-10.4431
上堂曰	-10.4432
撈	-10.4433
萬象森羅	-10.4434
又如	-10.4436
一處	-10.4439
踈	-10.444
設有	-10.4441
人事	-10.4444
瞎漢	-10.4444
更問	-10.4445
歸堂	-10.4446
跪	-10.4448
處麼	-10.4451
凉	-10.4454
鐘聲	-10.4454
玄妙	-10.4459
不管	-10.4459
毘	-10.4462
未可	-10.4465
挨	-10.4466
普說	-10.4469
休歇	-10.4471
歛	-10.4474
之謂	-10.4475
秉拂	-10.4477
大方	-10.448
如水	-10.4481
老胡	-10.4484
芭蕉	-10.4486
出得	-10.449
如是則	-10.449
琦	-10.4491
訖	-10.4493
一隊	-10.4493
不欲	-10.4493
一句子	-10.4497
蘇州	-10.4497
亦如	-10.4509
扇子	-10.451
劫外	-10.4513
林泉	-10.4517
師在	-10.4517
光輝	-10.4517
重關	-10.4519
其事	-10.4525
一拶	-10.4536
不礙	-10.4537
話會	-10.4539
無一物	-10.4539
籍	-10.4541
而已	-10.4542
出現	-10.4545
卜度	-10.4547
玩	-10.4548
正宗	-10.4558
享	-10.4559
是心	-10.4562
和尚道	-10.4563
掀	-10.4563
匡	-10.4567
百萬	-10.4568
諍	-10.4569
誡	-10.457
偕	-10.457
施為	-10.4571
昆	-10.4572
為他	-10.4573
典座	-10.4576
於人	-10.4581
爪	-10.4581
推倒	-10.4583
雲峰	-10.4586
也得	-10.4592
係	-10.4594
促	-10.4594
超然	-10.4595
狗子	-10.4598
相傳	-10.4604
以前	-10.4607
肚	-10.4608
老婆	-10.4613
只知	-10.4618
便乃	-10.4623
阿呵呵	-10.4625
不借	-10.4626
之句	-10.4627
來問	-10.4629
彥	-10.4631
瓊	-10.4632
聞聲	-10.4632
焚香	-10.4634
還我	-10.4634
教外別傳	-10.4636
恰好	-10.4637
山色	-10.4638
錯會	-10.4641
圓融	-10.4641
沙云	-10.4644
諸天	-10.4644
而至	-10.4646
則知	-10.4648
踰	-10.465
和尚云	-10.4651
便宜	-10.4652
獵	-10.4653
之妙	-10.4658
芒	-10.4659
獨坐	-10.4659
手段	-10.4659
拈香云	-10.4667
太白	-10.4668
近離甚處	-10.4671
巳後	-10.4681
原來	-10.4681
達磨大師	-10.4682
我若	-10.4682
三寸	-10.4684
不打	-10.4687
非心非佛	-10.4687
靄	-10.4688
埽	-10.4688
以其	-10.4688
岫	-10.4691
便去	-10.4694
無物	-10.4696
氣息	-10.4696
不存	-10.4697
者多	-10.4697
便能	-10.4698
者裡	-10.4699
業識	-10.4707
面門	-10.4711
乾屎橛	-10.4715
茫然	-10.4716
即不無	-10.4722
。【	-10.4722
昔年	-10.4724
鴉	-10.4726
劃	-10.4726
叉	-10.4727
卓拄杖曰	-10.4729
師亦	-10.4731
祖師意	-10.4738
勵	-10.4744
於世	-10.475
時有僧問	-10.4753
罔措	-10.4758
朋	-10.4764
搜	-10.4768
佩	-10.4777
文殊普賢	-10.4781
分身	-10.4784
不遷	-10.4787
滿目	-10.4787
之力	-10.479
驟	-10.4792
剎竿	-10.4796
法中	-10.4796
之流	-10.4799
拂袖	-10.48
榜	-10.4801
萬峰	-10.4806
猷	-10.481
高低	-10.4816
盡情	-10.4818
書記	-10.482
當處	-10.4822
刑	-10.4825
雲山	-10.4826
阻	-10.4826
此身	-10.483
擊碎	-10.4831
禱	-10.4832
不破	-10.4833
真常	-10.4848
曰某甲	-10.4849
脚跟	-10.4849
洒	-10.4855
作舞	-10.4855
門曰	-10.4857
1	-10.4862
襲	-10.4867
好惡	-10.4867
秤	-10.487
觸目	-10.4871
識者	-10.4877
穀	-10.4877
豈能	-10.4877
東海	-10.4882
來參	-10.4886
吹毛	-10.4887
靈利	-10.4888
悶	-10.4889
為僧	-10.4889
佛說	-10.4894
是甚麼人	-10.4895
屙	-10.4898
云我	-10.4899
指出	-10.4901
邈	-10.4903
事理	-10.4915
恢	-10.4916
有法	-10.4921
主賓	-10.4925
碓	-10.4931
淨名	-10.4932
鯨	-10.4934
闔	-10.4934
檢點將來	-10.4938
恃	-10.4943
巖前	-10.4944
甚麼處	-10.4947
未盡	-10.495
名相	-10.4951
圈	-10.4951
機關	-10.4956
有心	-10.4958
禮謝	-10.4958
認得	-10.4958
分外	-10.4964
四時	-10.4967
者乎	-10.4968
先德	-10.497
明眼	-10.4971
思之	-10.4971
夢見	-10.4972
薰	-10.4973
單傳	-10.4974
霹靂	-10.4974
不辨	-10.4977
所知	-10.4978
象王	-10.4979
萬事	-10.498
喝云	-10.4981
空寂	-10.4982
在我	-10.4988
如夢	-10.4988
希有	-10.4988
大雄	-10.499
赫	-10.4991
緣起	-10.4992
向後	-10.4992
能所	-10.4996
孤峰	-10.4997
恒沙	-10.4997
不滅	-10.4999
金烏	-10.5
問話	-10.5001
金山	-10.5002
名曰	-10.5007
第五	-10.5007
把定	-10.5007
踏破	-10.5007
方外	-10.5011
去住	-10.5013
驚起	-10.5014
盡力	-10.5017
肆	-10.5019
瞎驢	-10.502
教中	-10.5021
五日	-10.5024
應須	-10.5024
畫一畫	-10.5026
裹	-10.5028
寂寥	-10.503
不隔	-10.503
幹	-10.5031
盂	-10.5037
薩	-10.5039
喪身失命	-10.5039
禪道	-10.5041
不空	-10.5041
圓成	-10.5042
以偈	-10.5042
瀉	-10.5044
之徒	-10.5048
驀然	-10.5049
師與	-10.505
𦘕	-10.505
示人	-10.5055
呂	-10.5059
早巳	-10.506
薦福	-10.5065
之為	-10.5066
喫茶去	-10.5067
宵	-10.5067
坊	-10.5071
噓	-10.5072
這裡	-10.5076
河沙	-10.5077
亦能	-10.5077
明心	-10.5079
爪牙	-10.5082
駭	-10.5083
餌	-10.5083
不捨	-10.509
火燒	-10.509
就中	-10.5092
衣鉢	-10.5093
明星	-10.5096
愍	-10.5098
龍蛇	-10.5101
第一座	-10.5102
無路	-10.5102
語話	-10.5103
莫將	-10.5103
初心	-10.5103
珊瑚	-10.5105
一指	-10.5107
小人	-10.5112
曹洞	-10.5112
法者	-10.5112
第四	-10.5112
巒	-10.5115
但有	-10.5116
知得	-10.5116
吉祥	-10.5117
驢年	-10.512
便請	-10.512
那堪	-10.5121
中道	-10.5123
與佛	-10.5126
廓然	-10.5128
流轉	-10.513
忻	-10.5131
吏	-10.5131
為復	-10.5131
自肯	-10.5132
日輪	-10.5133
一口	-10.5137
心境	-10.5138
寰中	-10.5139
天界	-10.5146
遠近	-10.515
桐	-10.515
七佛	-10.5151
他道	-10.5155
盡道	-10.5156
小兒	-10.5156
若欲	-10.5156
梯	-10.516
中人	-10.5163
奇哉	-10.5172
物外	-10.5174
體用	-10.5175
贓	-10.5182
遮裏	-10.5188
明眼人	-10.5194
龍王	-10.5197
在裏許	-10.5204
咒	-10.5206
教伊	-10.5207
洪州	-10.5214
疑著	-10.5214
農	-10.522
却來	-10.5224
千萬	-10.523
我亦	-10.5231
了不可得	-10.5231
古人云	-10.5233
齡	-10.5233
萬機	-10.5239
0	-10.5239
大機	-10.524
生緣	-10.5242
塵中	-10.5243
三百	-10.525
逆順	-10.5252
聞者	-10.5252
烏龜	-10.5255
丈室	-10.5261
予曰	-10.5261
鉢盂	-10.5262
作何	-10.5264
道我	-10.5268
汝道	-10.5268
溈	-10.5269
瘡	-10.5271
一邊	-10.5273
曹谿	-10.5274
便有	-10.5279
都是	-10.5279
第八	-10.5279
回向	-10.5283
戈	-10.5284
二六時中	-10.529
笻	-10.5291
這箇是	-10.5298
南院	-10.5299
千佛	-10.53
噴	-10.5302
仙人	-10.5304
浮山	-10.5305
巍巍	-10.531
)(	-10.5311
山林	-10.5313
陋	-10.5318
祖庭	-10.5319
汲	-10.5319
至此	-10.532
一道	-10.5326
森羅萬象	-10.5328
誰家	-10.5328
娘	-10.5335
僧喝	-10.5335
卷舒	-10.5337
霽	-10.5338
石人	-10.534
而不知	-10.5342
看破	-10.5344
心如	-10.5346
這老漢	-10.5348
承天	-10.5348
出來道	-10.5351
二者	-10.5353
十里	-10.5356
兔角	-10.5356
趺坐	-10.5357
信得及	-10.5358
有道	-10.5359
江上	-10.5361
雕	-10.5361
未徹	-10.5363
意在	-10.5369
婬	-10.5369
款	-10.5371
忞	-10.5376
舍利弗	-10.5379
山野	-10.5382
轟	-10.5382
詢	-10.5384
十方世界	-10.5384
恠	-10.5385
嗣法	-10.5386
滅度	-10.5389
王子	-10.5393
晦堂	-10.5394
說夢	-10.5394
入塔	-10.5399
暉	-10.5408
洛浦	-10.5408
莫怪	-10.5411
又喝	-10.5415
濟云	-10.5415
信手拈來	-10.5419
誰人	-10.5422
與之	-10.5423
恭惟	-10.5425
其或	-10.5428
緒	-10.5429
而非	-10.5431
大藏	-10.5436
祝聖	-10.5437
缽盂	-10.5439
一分	-10.5446
道流	-10.545
好與三十棒	-10.5452
縷	-10.5455
株	-10.5455
纖塵	-10.5459
纔見	-10.5462
筵	-10.5467
革	-10.5468
相看	-10.5468
開悟	-10.5469
觀心	-10.5474
切音	-10.5475
神力	-10.5478
之本	-10.5479
皆為	-10.5482
羨	-10.5483
蝶	-10.5485
知客	-10.5498
卑	-10.5499
言訖	-10.55
亘	-10.55
盡大地	-10.5502
禪院	-10.5503
所生	-10.5504
於言下	-10.5504
不遠	-10.5506
為你	-10.5511
海門	-10.5512
行處	-10.5514
眼見	-10.5514
坤	-10.5516
邀	-10.5517
衍	-10.5517
崩	-10.5518
一眾	-10.5526
誕日	-10.5531
出山	-10.5533
徹骨	-10.5535
狼藉	-10.5536
歷劫	-10.554
帖	-10.5545
性相	-10.5545
古之	-10.5545
颺	-10.5546
顧視	-10.5548
凜凜	-10.555
犁	-10.555
臨行	-10.5553
隨後	-10.5557
:>	-10.5558
i	-10.5558
g	-10.5558
<	-10.5558
m	-10.5558
蒸	-10.5558
卓一卓	-10.5563
相公	-10.5566
波濤	-10.5568
了然	-10.557
鸞	-10.5589
隨時	-10.5601
不停	-10.5606
朔	-10.5608
行道	-10.5612
此法	-10.5613
進曰	-10.5614
覺禪師	-10.5616
本山	-10.5616
照用	-10.5627
宰官	-10.5627
扶起	-10.5628
百尺竿頭	-10.5631
殷	-10.5634
事事	-10.5637
云如何是	-10.5643
峨	-10.5643
綻	-10.5645
之恩	-10.5646
其道	-10.5647
敗闕	-10.5652
煥	-10.5653
閻浮	-10.5654
檢點	-10.5662
無錄	-10.5662
刊	-10.5668
見僧	-10.5669
一卷	-10.567
莫測	-10.5676
此乃	-10.5677
不論	-10.5677
醍醐	-10.5681
聖僧	-10.5688
金輪	-10.5691
豎起	-10.5692
概	-10.5692
一粒	-10.5694
得入	-10.5694
葛	-10.5698
暨	-10.5705
三玄三要	-10.5715
問和尚	-10.5715
之內	-10.5715
髻	-10.5719
二十四	-10.572
在何處	-10.5726
韜	-10.5731
但以	-10.5734
只這	-10.5739
師指	-10.574
放開	-10.5742
借問	-10.5742
文彩	-10.5743
到頭	-10.5746
護持	-10.5747
長短	-10.5747
于此	-10.5749
英雄	-10.5751
腮	-10.5752
此一瓣香	-10.5757
根器	-10.5757
抖擻	-10.5762
自得	-10.5766
見一	-10.5767
師至	-10.5768
接得	-10.577
靈巖	-10.5771
藏主	-10.5772
夫子	-10.5777
栴檀	-10.5777
海水	-10.5779
同行	-10.578
也不得	-10.5788
筭	-10.5788
資福	-10.5796
有問	-10.5799
子曰	-10.5801
括	-10.5802
魄	-10.5802
天寒	-10.5802
啄	-10.5804
夢幻	-10.5804
隣	-10.5809
當初	-10.5815
裴	-10.5816
禮三拜	-10.5816
無聞	-10.5822
六塵	-10.5827
十餘	-10.5827
一二	-10.583
鱉	-10.5832
本是	-10.5838
姪	-10.5841
霖	-10.5849
眷	-10.5855
洛	-10.5856
九峰	-10.5856
入堂	-10.5859
正因	-10.5864
契悟	-10.5866
作活計	-10.5866
召大眾云	-10.5866
將心	-10.5869
鹽官	-10.587
培	-10.5873
收拾	-10.5875
雙林	-10.5875
大好	-10.5876
其餘	-10.5876
面皮	-10.5884
儔	-10.5886
春光	-10.5888
若到	-10.5894
方能	-10.5896
兩手	-10.5898
鷹	-10.5898
皇帝	-10.5898
擊拂子	-10.5898
不休	-10.5898
少年	-10.5899
俱胝	-10.59
無過	-10.5902
金剛經	-10.5905
佛鑑	-10.5908
三箇	-10.5909
諸子	-10.591
齩	-10.5912
贊曰	-10.5917
箇事	-10.5918
馬師	-10.5919
課	-10.5921
杭	-10.5923
軸	-10.5923
冊	-10.5924
空劫	-10.5926
把手	-10.5927
一切人	-10.5927
提撕	-10.5927
相對	-10.5931
打失	-10.5931
轉大法輪	-10.5933
三載	-10.5933
冤家	-10.5938
者漢	-10.594
已上	-10.594
粥飯	-10.5941
五更	-10.5945
不似	-10.5947
若干	-10.5948
挾	-10.5953
渾身	-10.5953
飲食	-10.5956
嶮	-10.596
綴	-10.5967
筍	-10.5971
臺山	-10.5975
償	-10.5975
俯	-10.5976
會取	-10.5978
織	-10.598
滿地	-10.5982
曆	-10.5985
於法	-10.5985
古路	-10.5986
公之	-10.5986
不死	-10.5986
脫體	-10.5987
羹	-10.5987
實有	-10.5989
《	-10.5992
》	-10.5992
驀地	-10.5995
吞却	-10.5998
師資	-10.6
太陽	-10.6002
說禪	-10.6003
任他	-10.6004
鳥道	-10.6008
煙霞	-10.6015
還曾	-10.6015
月下	-10.6018
不安	-10.6024
塔于	-10.6025
剔	-10.6025
方始	-10.6025
攻	-10.6029
堯舜	-10.603
持戒	-10.6031
征	-10.6033
一莖草	-10.6033
撩	-10.6041
天童覺	-10.6046
不列章次	-10.6049
炊	-10.6049
嫡	-10.605
勇猛	-10.6051
師於言下	-10.6058
傳法	-10.6061
證據	-10.6063
應機	-10.6065
翹	-10.6065
徽	-10.6065
瑤	-10.6067
穎	-10.6069
若論此事	-10.6075
栖	-10.6077
攔	-10.6081
兩序	-10.6082
祕	-10.6083
慨	-10.6085
不得巳	-10.6085
其實	-10.6086
煮	-10.6087
奉為	-10.6093
隨流	-10.6099
紹興	-10.61
入處	-10.6102
落落	-10.6105
山高	-10.6106
透過	-10.6111
遁	-10.6116
直至	-10.6118
檢	-10.612
頂𩕳	-10.6124
諸山	-10.6126
靈骨	-10.6127
東風	-10.6128
野老	-10.6137
旅	-10.6142
言詮	-10.6143
豎拂子云	-10.6145
明州	-10.6148
鄧	-10.615
青州	-10.6151
一下云	-10.6154
澆	-10.6163
巷	-10.6163
覷破	-10.6163
遞相	-10.6166
柰	-10.6166
輿	-10.6172
而不能	-10.6177
法座	-10.6177
這漢	-10.6178
萬行	-10.6181
千江	-10.6182
隅	-10.6186
拏	-10.6188
正偏	-10.619
不傳	-10.619
蜂	-10.6193
翻成	-10.6194
翠竹	-10.6197
屋裏	-10.6198
知歸	-10.6199
波瀾	-10.6205
來去	-10.6207
擲下拄杖	-10.6209
老鼠	-10.621
合作麼生	-10.6214
但能	-10.6216
撥轉	-10.6218
此去	-10.6219
無他	-10.6221
提唱	-10.6222
圭	-10.6224
黨	-10.6229
恁麼去	-10.6229
蒼天蒼天	-10.6229
世出世間	-10.623
態	-10.6234
轉法輪	-10.624
丞相	-10.6241
件	-10.6242
沸	-10.6245
摩尼	-10.6251
自生	-10.6255
無以	-10.6256
也無師云	-10.6257
君臣	-10.626
即有	-10.6263
禿	-10.6265
大眾且道	-10.6269
佛道	-10.6269
不辭	-10.6277
腳跟下	-10.628
太守	-10.6281
佛國	-10.6281
起滅	-10.6289
棟	-10.6289
坡	-10.6289
有何言句	-10.6289
清光	-10.6291
后	-10.6292
儉	-10.6293
何能	-10.6294
玉泉	-10.6294
版	-10.6294
紅日	-10.6299
方得	-10.63
三千里外	-10.6303
卓一下	-10.6306
欣然	-10.6309
江湖	-10.631
為什麼不	-10.6313
著眼	-10.6317
爇	-10.6322
非常	-10.6322
卷第十	-10.6324
椀	-10.6324
卸	-10.6325
日夜	-10.6328
等編	-10.633
羅山	-10.6331
忽有	-10.6333
昔有	-10.6337
溢	-10.635
死人	-10.635
製	-10.6353
爇向爐中	-10.6359
三際	-10.6359
尿	-10.6364
獨立	-10.6373
向你道	-10.6375
僻	-10.6376
熙	-10.6376
山谷	-10.6377
入海	-10.6378
不退	-10.6378
遐	-10.6378
諸人還	-10.6381
別無	-10.6381
陽春	-10.6386
餓	-10.6387
解制上堂	-10.6388
一拳	-10.6389
甚麼人	-10.6389
魚龍	-10.6389
寶劍	-10.6389
是個	-10.6395
千秋	-10.6399
直至如今	-10.64
跏趺	-10.6401
風清	-10.6403
裔	-10.6403
熾然	-10.6403
玄關	-10.6404
未足	-10.6405
設使	-10.641
垂示	-10.6413
吝	-10.6414
只見	-10.6415
健	-10.6418
向甚處	-10.6418
師子吼	-10.642
不巳	-10.642
毛孔	-10.642
未悟	-10.6424
何勞	-10.6426
師復	-10.6427
猶自	-10.6431
大梅	-10.6431
道將一句來	-10.6431
對面	-10.6432
語句	-10.6434
杖頭	-10.6435
不審	-10.6435
玉兔	-10.6435
苦行	-10.6439
得見	-10.6444
葫蘆	-10.6452
宗鏡	-10.6452
執事	-10.6454
二十八	-10.6456
去也師云	-10.6457
跋	-10.6466
功勳	-10.6467
蟾	-10.6468
安能	-10.6471
視之	-10.6471
秋月	-10.6472
男兒	-10.6475
永明	-10.6477
帀	-10.6478
七年	-10.6481
亦云	-10.6489
造化	-10.6494
玄旨	-10.6495
問師	-10.6495
庶幾	-10.65
黎	-10.65
向火	-10.6502
即無	-10.6503
鍊	-10.6504
入定	-10.6506
能仁	-10.6506
禪林	-10.6509
未聞	-10.6512
有口	-10.6513
受業	-10.6515
余曰	-10.6517
官人	-10.6518
一顆	-10.6519
世諦	-10.6525
福田	-10.6525
從今	-10.6527
一度	-10.6528
見者	-10.6528
翔	-10.653
誰為	-10.6531
浮雲	-10.6531
邪正	-10.6532
綿綿	-10.6532
撮	-10.6533
韋	-10.6534
同條	-10.6535
梨	-10.6538
匝	-10.654
翠微	-10.6541
狹	-10.6544
△	-10.6544
攢	-10.655
鎔	-10.655
□□	-10.655
同歸	-10.655
主云	-10.6551
十餘年	-10.6553
爭似	-10.6557
震旦	-10.6562
綠水	-10.6565
云和尚	-10.6565
隱顯	-10.6568
而知	-10.6568
無差別	-10.6571
奢	-10.6572
直入	-10.6572
神鼎	-10.6575
剗	-10.6576
福嚴	-10.6578
瓢	-10.6586
皆從	-10.6587
九十日	-10.659
校	-10.6591
虎頭	-10.6593
保寧	-10.6597
保寧勇	-10.6597
訥	-10.6598
特來	-10.6599
顢頇	-10.6599
記取	-10.6601
復有	-10.6602
恍	-10.6605
寂照	-10.6609
授記	-10.661
未分	-10.6616
王曰	-10.6617
多少人	-10.6618
不移	-10.662
白槌	-10.6621
師聞	-10.6621
機用	-10.6621
若不是	-10.6624
聽法	-10.6624
生生	-10.6627
身命	-10.6631
初住	-10.6633
片片	-10.6633
擾	-10.6633
無縫塔	-10.6636
女人	-10.6638
杲日	-10.6642
客來	-10.6644
鳳凰	-10.6645
踐	-10.6646
拋向	-10.6648
教化	-10.6653
影裏	-10.666
泉曰	-10.6661
不是心不是佛不是物	-10.6661
竝	-10.6662
五祖演	-10.6662
巖曰	-10.6663
通玄	-10.6666
人前	-10.6671
我見	-10.6675
打出	-10.6678
閻	-10.6679
語默	-10.668
恁麼來	-10.668
磬山	-10.6681
之至	-10.6682
大地山河	-10.6682
為大	-10.6686
口裏	-10.6687
無定	-10.6688
慧日	-10.6691
第二句	-10.6691
秖如	-10.6695
主丈	-10.6697
衲僧門下	-10.67
何處不	-10.6701
爍	-10.6709
最後	-10.6716
頷之	-10.6721
咲	-10.6723
曰不會	-10.6725
上方	-10.6732
背後	-10.6735
揚眉	-10.6735
萬曆	-10.6735
錯認	-10.6736
掃地	-10.6737
騰騰	-10.6738
譯	-10.6739
往生	-10.6739
喝曰	-10.674
故也	-10.6743
遊方	-10.6745
邪見	-10.6745
且如	-10.6746
龐	-10.6753
亦乃	-10.6755
是時	-10.6758
不減	-10.6759
霑	-10.6761
下去	-10.6761
向什麼處	-10.6765
無聲	-10.6767
麻谷	-10.6771
五陰	-10.6772
所能	-10.6775
火爐	-10.6776
開爐	-10.6782
還有人	-10.6788
此等	-10.679
天竺	-10.6791
僧便	-10.6793
中之	-10.6795
袋	-10.6795
水上	-10.6797
掇	-10.6797
為甚麼却	-10.6797
群生	-10.6806
向外	-10.6808
峰前	-10.6811
拳頭	-10.6815
無所得	-10.6816
貶	-10.6817
雲門大師	-10.6818
一丈	-10.6819
屍	-10.6821
陌	-10.6821
帶累	-10.6824
之名	-10.6832
善男子	-10.6833
松風	-10.6834
慈雲	-10.6834
斷臂	-10.6838
者般	-10.6839
憎	-10.6841
百雜碎	-10.6844
填	-10.6846
當軒	-10.6847
胷	-10.685
枝上	-10.6851
無作	-10.6852
虔	-10.6852
嬾	-10.6855
十日	-10.6855
誣	-10.6857
佐	-10.686
隨眾	-10.6861
如是如是	-10.6863
雲外	-10.6864
達磨西來	-10.6864
為道	-10.6866
展轉	-10.6866
砂	-10.6867
道箇	-10.6868
恬	-10.6874
王宮	-10.6875
本來人	-10.6876
盤山	-10.6876
覲	-10.6878
接引	-10.6881
拄杖云	-10.6881
有漏	-10.6883
儘	-10.6883
眾皆	-10.6884
寶鏡	-10.6885
莫向	-10.6885
拓	-10.6889
出格	-10.6892
旃檀	-10.6893
個中	-10.6899
吐舌	-10.6899
航	-10.6899
於今	-10.6903
忠國師	-10.6906
袍	-10.6908
聲前	-10.6912
百餘	-10.6912
迫	-10.6915
之日	-10.6915
不依	-10.6916
中興	-10.6916
生於	-10.6919
心空	-10.6922
妄心	-10.6923
尚未	-10.6924
本來無	-10.6925
我心	-10.6926
履踐	-10.6927
蝦	-10.6927
貨	-10.6936
如鏡	-10.6937
打開	-10.6939
其言	-10.6941
會中	-10.6944
萬緣	-10.6946
虛妄	-10.6948
未審和尚	-10.6949
證得	-10.6951
作箇	-10.6951
淹	-10.6952
向伊道	-10.6955
話墮	-10.6955
苦海	-10.6956
之用	-10.6959
未生	-10.6961
只恐	-10.6964
上首	-10.6966
交參	-10.697
天下之	-10.697
劈面	-10.6971
幾回	-10.6972
師即	-10.6973
普照	-10.6974
欲求	-10.6976
觀察	-10.6981
展兩手	-10.6981
涵	-10.6984
復問	-10.6987
那裏是	-10.6992
疎山	-10.6994
淪	-10.6997
會下	-10.7
何等	-10.7001
切須	-10.7002
弦	-10.7004
有四	-10.7012
雲門云	-10.7015
沐	-10.7017
儂	-10.7019
見人	-10.702
一著子	-10.702
若問	-10.7023
捕	-10.703
來處	-10.7031
湊泊	-10.7034
咽喉	-10.7039
親到	-10.704
漆	-10.704
真金	-10.7042
憫	-10.7042
佛子	-10.7042
無際	-10.7043
若此	-10.7047
店	-10.7048
佛身	-10.7052
和上	-10.7053
在家	-10.7055
不遇	-10.7059
森	-10.7061
真機	-10.7062
禹	-10.7063
敦	-10.7064
丈云	-10.7065
濛	-10.7066
天下衲僧	-10.7067
離此	-10.707
大意	-10.7075
既有	-10.708
開元	-10.7083
接人	-10.7085
初祖	-10.7086
金色	-10.7086
一擊	-10.7089
付法	-10.7095
此二	-10.7095
森羅	-10.7098
亦得	-10.7101
邇	-10.7104
學士	-10.7105
東南	-10.711
之與	-10.7111
辟	-10.7116
枝頭	-10.7116
所言	-10.7117
草草	-10.7123
性海	-10.7126
氣力	-10.7131
一隻眼	-10.7131
笑殺	-10.7133
規矩	-10.7136
頌古	-10.7136
推出	-10.7137
天堂	-10.7139
滄溟	-10.7143
僧便問	-10.7145
天曉	-10.7159
儼	-10.716
和尚語錄	-10.7163
苦樂	-10.7165
羅籠	-10.7169
數年	-10.7172
回顧	-10.7172
倉	-10.7173
拈却	-10.7174
不怕	-10.7174
羈	-10.7175
鉗錘	-10.7177
旛	-10.7178
熈	-10.7179
自覺	-10.7183
喚什麼作	-10.7186
多羅	-10.7186
則是	-10.7187
漏泄	-10.719
鴛鴦	-10.7192
沿	-10.7192
東西南北	-10.7193
此意如何	-10.72
旭	-10.7203
海上	-10.7204
梁山	-10.7208
指頭	-10.7209
不徹	-10.7211
示眾舉	-10.7214
再三	-10.7216
壁上	-10.7217
卓一卓云	-10.7218
裕	-10.7223
化為	-10.7226
塔於	-10.7228
崇禎	-10.723
計較	-10.7231
三十二	-10.7231
虫	-10.7232
范	-10.7233
莫錯	-10.7238
別處	-10.7251
白雪	-10.7251
一陣	-10.7252
花落	-10.7252
須菩提	-10.7253
涯	-10.7255
第一句	-10.7257
故鄉	-10.7259
軟	-10.7265
擬開口	-10.7266
露布	-10.7266
祇為	-10.7268
迢迢	-10.7269
雍	-10.727
傅大士	-10.7271
幾乎	-10.7271
之體	-10.7272
嶂	-10.7273
風雲	-10.7275
正念	-10.7275
揀擇	-10.7277
解會	-10.7278
拭	-10.7278
終身	-10.7284
雲中	-10.7285
人見錄	-10.729
開山	-10.7294
自悟	-10.7296
惹	-10.7303
徑山杲云	-10.7304
禪門	-10.7305
高僧	-10.7306
果能	-10.7307
歸眾	-10.7312
竪起拂子	-10.7312
旻	-10.7315
一夏	-10.7323
利生	-10.7323
不知其	-10.7324
辛苦	-10.7326
讀書	-10.7326
聆	-10.7328
偶然	-10.7329
人生	-10.7331
誵訛	-10.7332
普天	-10.7332
向人	-10.7333
有年	-10.7335
娘生	-10.7335
躲	-10.7337
至理	-10.7337
󵊮	-10.7338
士大夫	-10.734
保任	-10.7352
相隨	-10.7353
十載	-10.7356
異類	-10.7356
傳授	-10.736
深入	-10.736
云某甲	-10.7362
秀才	-10.7363
鋒鋩	-10.7364
嵐	-10.7364
誌公	-10.7367
踪	-10.7367
蝦蟆	-10.7369
闇	-10.737
區	-10.737
馮	-10.7371
塵埃	-10.7372
滴水	-10.7372
遊山	-10.7372
遠離	-10.7373
朵	-10.7376
實法	-10.738
洞明	-10.7381
五戒	-10.7382
八面	-10.7382
應用	-10.7383
蟻	-10.7387
勉之	-10.7392
擯	-10.7394
何不道	-10.7395
二僧	-10.7396
假名	-10.7397
棗	-10.7397
窄	-10.7398
凡情	-10.7403
高下	-10.7403
名山	-10.7404
彭	-10.741
震威一喝	-10.7414
試道看	-10.7419
高山	-10.7421
得去	-10.7421
於諸	-10.7428
栗棘蓬	-10.7429
穿鑿	-10.7432
指南	-10.7432
却被	-10.7434
棒下	-10.7434
衷	-10.7436
八年	-10.744
窓	-10.745
頴	-10.7452
冲	-10.7452
驀拈拄杖云	-10.7452
曾見	-10.7452
墮在	-10.7453
吒	-10.7454
真佛	-10.7458
溈云	-10.7458
不別	-10.746
五宗	-10.7467
仁義	-10.7467
隋	-10.7469
英靈	-10.7475
鍋	-10.7476
學得	-10.7478
者老漢	-10.7481
敢保	-10.7485
人多	-10.7489
至于	-10.7492
酌	-10.7492
身中	-10.7492
恁麼說話	-10.7495
對云	-10.7496
亨	-10.7499
動念	-10.7499
京師	-10.7499
迴避	-10.75
國清	-10.7501
耽	-10.7501
麒麟	-10.7507
稱尊	-10.7509
西風	-10.751
忘却	-10.7515
君不見	-10.7516
若為	-10.7516
未發	-10.7517
放過一著	-10.7518
中峰	-10.7521
淺深	-10.7524
不食	-10.7524
總在	-10.7524
而起	-10.7526
門風	-10.7526
麻三斤	-10.7527
殿上	-10.7529
結夏	-10.7531
婆心	-10.7531
卓一下云	-10.7533
東坡	-10.7536
之大	-10.7539
為宗	-10.7539
梵天	-10.7542
僕	-10.7542
可也	-10.7542
報慈	-10.7544
毒藥	-10.7544
灼	-10.7546
梵語	-10.7546
四面	-10.7546
無方	-10.7546
穆	-10.7549
百川	-10.7553
林間	-10.7553
闍	-10.7554
譏	-10.7557
曠劫	-10.7558
南陽	-10.756
空華	-10.7561
跳出	-10.7569
得意	-10.7569
十字	-10.757
不忍	-10.757
便作	-10.7571
賣弄	-10.7572
木馬	-10.7577
向什麼處去	-10.7579
鐸	-10.7583
亦復	-10.7585
其志	-10.7587
一切諸法	-10.7587
有路	-10.7588
▁(	-10.7588
建塔	-10.759
二大老	-10.7595
淆訛	-10.7595
頭云	-10.7596
大聖	-10.7598
當作	-10.7598
除夕	-10.7598
不虛	-10.7598
千般	-10.76
協	-10.7603
祀	-10.7606
又打	-10.7607
不思	-10.7608
大唐	-10.7614
舉手	-10.7616
掩耳	-10.7617
三十六	-10.7623
無用	-10.7624
天上人間	-10.7626
止觀	-10.7627
夜月	-10.763
一團	-10.7634
南堂	-10.7638
萬法歸一	-10.764
溼	-10.7641
花香	-10.7641
但得	-10.7642
牢關	-10.7642
你作麼生	-10.7644
真箇	-10.7649
個什麼	-10.7649
那個	-10.7652
螺	-10.7652
輕輕	-10.7657
□	-10.7659
待他	-10.7661
一句又作麼生	-10.7665
三教	-10.7668
足以	-10.7669
只此	-10.7676
一家	-10.7677
盡十方世界	-10.7678
盟	-10.7679
後生	-10.768
利害	-10.7681
心意識	-10.7681
帥	-10.7681
新年	-10.7682
此則	-10.7682
我這裏	-10.7683
顯露	-10.7685
峽	-10.7685
鷺	-10.7687
妨	-10.7689
悟得	-10.7689
只今	-10.7691
彼岸	-10.7693
為伊	-10.7694
萬世	-10.7696
其身	-10.7696
九重	-10.77
寂然	-10.77
而言	-10.7701
其名	-10.7701
學佛	-10.7702
深深	-10.7707
蒼天	-10.7708
世緣	-10.7713
如無	-10.772
有志	-10.7721
荒草	-10.7725
若何	-10.7733
未夢見在	-10.7734
還同	-10.7734
或曰	-10.7735
一葉	-10.7736
璉	-10.7736
優曇	-10.7737
無瑕	-10.7738
法器	-10.7738
洪武	-10.7738
人我	-10.7746
他方	-10.7747
居士問	-10.7752
天外	-10.7753
不干	-10.7756
不拘	-10.7759
固是	-10.7759
安身	-10.7761
波羅蜜	-10.7764
要會	-10.7768
意旨如何師云	-10.7768
臼	-10.777
闍維	-10.7771
解脫門	-10.7784
位中	-10.7788
法兄	-10.7789
炷	-10.7789
不挂	-10.7796
恥	-10.7798
祝髮	-10.7807
勅	-10.7812
相違	-10.7816
岡	-10.7818
優游	-10.7819
扭	-10.782
君王	-10.782
隨分	-10.7824
嚮	-10.7826
州人	-10.7829
然燈	-10.783
覺云	-10.783
千七百	-10.7833
萬松	-10.7835
總持	-10.7836
盡大地人	-10.7837
吾今	-10.7839
名利	-10.784
仝	-10.784
喚作甚麼	-10.7853
金剛圈	-10.7858
無分	-10.7859
霄漢	-10.7859
凶	-10.786
情識	-10.7864
不染	-10.7864
耳目	-10.7865
乞師指示	-10.7868
鵝	-10.787
傍觀	-10.7872
老古錐	-10.7872
二十七	-10.7875
不由	-10.7878
蚊	-10.7882
爰	-10.7888
閻羅	-10.7889
渠儂	-10.789
聲聲	-10.7892
海內	-10.7896
遮箇	-10.7897
及諸	-10.7897
正位	-10.7898
如何是西來意	-10.7902
縱奪	-10.7904
所證	-10.7913
眾曰	-10.7913
本空	-10.7914
說箇	-10.7919
不平	-10.7921
較些子	-10.7922
禮佛	-10.7923
溈仰	-10.7924
覿體	-10.7925
野狐精	-10.7929
觧	-10.7931
揣	-10.7932
東方	-10.7941
石橋	-10.7942
來時如何	-10.7944
汙	-10.7947
相去多少	-10.7947
恕	-10.7949
芥子	-10.7949
道眼	-10.7951
放生	-10.7951
祇對	-10.7956
相承	-10.7957
僧堂前	-10.7957
踵	-10.7961
溈曰	-10.7965
是法	-10.7967
片雲	-10.7968
諸昆仲	-10.797
圍繞	-10.7972
又且如何	-10.7977
二種	-10.7981
是箇甚麼	-10.7981
琇	-10.7982
出頭來	-10.7983
顯現	-10.7985
髭	-10.7987
壤	-10.7996
直下承當	-10.7997
慳	-10.7998
都無	-10.7998
則不無	-10.8001
莫作	-10.8002
始信	-10.8005
領略	-10.8005
漏逗	-10.8006
造作	-10.8007
嶺上	-10.8008
摸索	-10.8011
功名	-10.8013
朴	-10.8015
兩個	-10.8015
阜	-10.8016
不甘	-10.8017
數十	-10.8017
甌	-10.8019
將此	-10.802
沼	-10.8021
階級	-10.8022
灣	-10.8023
禪師上堂	-10.8025
不難	-10.8026
猢猻	-10.8027
溪山	-10.8031
句中	-10.8031
閉門	-10.8041
情與無情	-10.8042
非心	-10.8047
入滅	-10.8048
匹	-10.8049
怛	-10.8049
拈棒	-10.805
楷	-10.8051
不當	-10.8054
檀那	-10.8054
知落處	-10.8061
之類	-10.8062
遯	-10.8063
太煞	-10.8064
頭曰	-10.8065
點破	-10.8069
路絕	-10.8069
道甚麼	-10.8069
絆	-10.8072
鼻頭	-10.8073
從容	-10.8074
方來	-10.8075
決擇	-10.8075
兩片皮	-10.8076
之處	-10.8077
煑	-10.8078
儲	-10.8078
死漢	-10.8084
媿	-10.8084
販	-10.8085
此處	-10.8093
三度	-10.8094
長蘆	-10.8096
微細	-10.8097
焉知	-10.8097
祖翁	-10.8098
之上	-10.8098
人不識	-10.81
竇	-10.81
者少	-10.8101
香爐	-10.8102
萬丈	-10.8103
堦	-10.8105
央	-10.8105
踏翻	-10.8106
金鱗	-10.8106
喃喃	-10.8109
起身	-10.811
泥水	-10.8111
也大奇	-10.8112
朝夕	-10.8113
]	-10.8113
得聞	-10.8114
欲知	-10.8115
立雪	-10.8119
之德	-10.812
恁	-10.8121
太史	-10.8125
便好	-10.8127
窠窟	-10.8128
昔人	-10.8133
分曉	-10.8133
去處	-10.8142
匝地	-10.8143
一等	-10.8143
埜	-10.8146
帝曰	-10.8147
遠來	-10.8151
且止	-10.8155
溈山云	-10.8158
杏	-10.816
刮	-10.8161
一絲毫	-10.8161
棒打	-10.8162
大凡	-10.8163
濶	-10.8164
福德	-10.8166
南來	-10.8169
千尺	-10.8169
明鏡	-10.817
百草頭	-10.8172
枝葉	-10.8175
奇特事	-10.8176
淨瓶	-10.8176
兩處	-10.8176
盡大地是	-10.8178
請山僧	-10.8181
龍吟	-10.8184
鎗	-10.8193
十萬	-10.8195
炷香	-10.8199
碩	-10.8204
之一字	-10.8204
無功	-10.8207
駐	-10.8208
洞然	-10.8209
意如何	-10.8209
經中	-10.8209
吃	-10.8211
雲集	-10.8212
原是	-10.8212
蔓	-10.8213
洞庭	-10.8218
高明	-10.822
癡人	-10.822
剎海	-10.8221
且無	-10.8228
津梁	-10.8229
靈山會上	-10.8229
喚侍者	-10.823
非我	-10.8233
則為	-10.8236
華開	-10.8238
稽	-10.824
去在	-10.8243
五葉	-10.8243
千餘	-10.8244
怠	-10.8247
不生不滅	-10.8248
露出	-10.8248
半月	-10.8254
三峰	-10.8258
淫	-10.8261
掉臂	-10.8262
逗	-10.8263
幻化	-10.8265
後住	-10.8265
縱使	-10.8265
孰能	-10.827
宛然	-10.8275
教中道	-10.8276
驀頭	-10.8278
作此	-10.8279
說什麼	-10.828
本郡	-10.8285
坐在	-10.8288
忝	-10.829
既而	-10.8292
黃花	-10.8293
孝子	-10.8293
火宅	-10.8293
寂寞	-10.8296
毫端	-10.8297
猫兒	-10.83
瞥地	-10.8301
依稀	-10.8303
此老	-10.8306
如雷	-10.8306
眾無對	-10.8307
不虗	-10.8309
造次	-10.831
作略	-10.8314
速道速道	-10.8315
只因	-10.8316
兩人	-10.8322
橈	-10.8328
贏得	-10.8331
匙	-10.8332
間斷	-10.8335
參差	-10.8337
臨濟宗	-10.8337
且道如何是	-10.8342
伶俐	-10.835
洞上	-10.8351
乃是	-10.8356
落葉	-10.8356
坦然	-10.8358
用之	-10.8359
起處	-10.836
掘	-10.8362
百花	-10.8362
奕	-10.8363
若在	-10.8364
是阿誰	-10.8365
斂	-10.8365
讖	-10.8366
叨	-10.8367
一上	-10.8368
明朝	-10.8369
一微塵	-10.8371
青青	-10.8375
掣電	-10.8377
我者裏	-10.8378
豹	-10.8381
示疾	-10.8383
莫謂	-10.8384
偷心	-10.8385
多聞	-10.8389
分座	-10.8389
以手指	-10.8391
悟曰	-10.8397
禹門	-10.8402
瀾	-10.8403
教你	-10.8403
拊掌	-10.8407
只解	-10.8408
不可說	-10.8412
青松	-10.8412
冶	-10.8413
從何處	-10.8414
衣缽	-10.8415
獨尊	-10.8416
此生	-10.8417
雨過	-10.842
茗	-10.842
蟬	-10.842
事畢	-10.8421
百千萬億	-10.8422
外求	-10.8423
我說	-10.8425
十方諸佛	-10.8425
不改	-10.8425
援	-10.8426
茶毗	-10.8426
空空	-10.8427
由來	-10.8427
入方丈	-10.8428
攀緣	-10.8429
相分	-10.8432
跛	-10.8434
眼前	-10.8441
舉趙州	-10.8441
元宵	-10.8443
成都	-10.8444
終是	-10.8447
照顧	-10.845
不相識	-10.8451
柯	-10.8455
佛出世	-10.8456
從心	-10.8457
佛海	-10.8457
落地	-10.8459
秋水	-10.8462
欵	-10.8464
便恁麼去	-10.8465
腥	-10.8467
【	-10.8469
麵	-10.847
多時	-10.8472
蒿	-10.8473
都來	-10.8474
具大	-10.8474
枕子	-10.8475
師又打	-10.8476
歸位	-10.8476
受持	-10.8477
皆以	-10.8479
得旨	-10.848
名言	-10.8489
橫行	-10.8491
了義	-10.8491
過在甚麼處	-10.8493
坐次	-10.8496
多生	-10.8496
便成	-10.8497
宴坐	-10.8498
迅	-10.85
豎起拂子	-10.8501
爐鞴	-10.8503
藏經	-10.8509
玄機	-10.8513
管教	-10.8514
用不著	-10.8514
不唯	-10.8516
膏	-10.8518
是什麼人	-10.8519
脫空	-10.8521
之餘	-10.8521
欽山	-10.8523
筠	-10.8523
乙	-10.8524
通達	-10.8526
是謂	-10.8527
黑白	-10.853
豫	-10.8531
爭柰	-10.8531
旱	-10.8535
為人處	-10.8536
僧問趙州	-10.8537
罔明	-10.8538
展手	-10.854
耳聾	-10.854
憎愛	-10.8541
平日	-10.8541
不獨	-10.8541
幅	-10.8542
禪堂	-10.8544
糊	-10.8544
無垢	-10.8545
杖人	-10.8553
由此	-10.8553
揚州	-10.856
怡	-10.8561
魯祖	-10.8564
弁山	-10.8564
捉敗	-10.8565
清云	-10.8566
湛堂	-10.8569
瑯琊	-10.8579
矜	-10.8589
雪巖	-10.859
吾道	-10.8591
令行	-10.8591
所至	-10.8593
妄語	-10.8596
梭	-10.8598
本地風光	-10.86
入地獄	-10.8601
廣慧	-10.8602
長年	-10.8603
異日	-10.8603
莫便是	-10.8603
成正覺	-10.8605
殺人刀	-10.8611
渡江	-10.8615
獨自	-10.8618
忽有人問	-10.8619
超越	-10.8624
將甚麼	-10.8624
靡不	-10.8625
靖	-10.8628
柱杖	-10.8632
I	-10.8633
嶺南	-10.8634
者哉	-10.8635
普明	-10.8636
百歲	-10.8636
豬	-10.8637
皈	-10.8641
藝	-10.8645
雙徑	-10.8645
不立文字	-10.8648
山上	-10.8649
E	-10.8651
不放	-10.8654
病僧	-10.866
鬬	-10.8661
配	-10.8661
仰山云	-10.8671
在其中	-10.8672
芳草	-10.8676
初機	-10.8681
祖師門下	-10.8681
萬歲	-10.8681
曳	-10.8683
王公	-10.8684
紳	-10.8686
璞	-10.8687
門開	-10.8688
甚處去	-10.8688
漫漫	-10.8694
祠	-10.8695
?』	-10.8695
異之	-10.8702
張公	-10.8703
晴空	-10.8703
若據	-10.8704
落髮	-10.8706
風規	-10.8707
老兄	-10.8713
短長	-10.8716
栗	-10.8721
座云	-10.8724
諸菩薩	-10.8725
未會	-10.8726
恁麼即	-10.8731
無影	-10.8733
驚人	-10.8733
天上天下	-10.8737
盡在	-10.8738
蚤	-10.8738
揆	-10.8738
無地	-10.874
渚	-10.8742
廉	-10.8743
光孝	-10.8744
楞伽	-10.8744
崔	-10.8745
因僧問如何是	-10.8749
用得	-10.875
彷彿	-10.8757
麓	-10.8758
書偈	-10.8759
南嶽下	-10.8759
無緣	-10.8761
上根	-10.8762
滔滔	-10.8763
亟	-10.8764
采	-10.8765
可觀	-10.8765
修道	-10.877
無底	-10.8779
閃電	-10.8779
會去	-10.878
風雷	-10.878
還得	-10.8783
夕陽	-10.8787
賢聖	-10.8789
三身	-10.8791
此箇	-10.8791
無意	-10.8792
姿	-10.8792
甚深	-10.8794
亦須	-10.8795
土地	-10.8796
祖師禪	-10.8796
其徒	-10.8797
心要	-10.8797
和尚莫	-10.8799
諦當	-10.88
此話	-10.8801
嗜	-10.8803
寵	-10.8804
從茲	-10.8809
物我	-10.8811
選佛	-10.8811
脊	-10.8815
江山	-10.8815
覺範	-10.8815
盃	-10.8816
春來	-10.8818
師代云	-10.882
誅	-10.8824
而坐	-10.8827
緘	-10.8829
我是	-10.8829
見性成佛	-10.8832
還鄉	-10.8832
道俗	-10.8833
之子	-10.8836
八識	-10.8838
今生	-10.8841
顆	-10.8841
若將	-10.8843
長江	-10.8844
而入	-10.8848
陪	-10.885
貯	-10.885
禪師法嗣一人	-10.8854
登山	-10.8857
無分別	-10.8858
嘉興	-10.8863
源流	-10.8867
觀其	-10.8867
不是心	-10.8868
三毒	-10.8869
老婆心	-10.8869
蠅	-10.8871
海中	-10.8874
雪竇顯	-10.8874
什麼處來	-10.8874
趁出	-10.8874
隨順	-10.8877
光影	-10.888
四明	-10.8883
闡提	-10.8888
化主	-10.889
杜撰	-10.8891
何日	-10.8891
豎拂	-10.8892
兩般	-10.8892
著衣喫飯	-10.8896
無見	-10.8897
九十	-10.8898
大用現前	-10.8898
蔬	-10.8905
稠	-10.8906
琢	-10.8908
微妙	-10.8909
獨脫	-10.891
虵	-10.8913
華亭	-10.8914
豈容	-10.8914
有疑	-10.8915
更要	-10.8915
進退	-10.8916
開門	-10.8919
我聞	-10.892
數日	-10.8925
卯	-10.8927
便出去	-10.8928
結制上堂	-10.8929
乃知	-10.8933
韶陽	-10.8934
之境	-10.8937
出世間	-10.8937
道什麼	-10.8943
需	-10.8944
此理	-10.8947
蔡	-10.8948
大陽	-10.8953
未肯	-10.8954
直待	-10.8955
月照	-10.8958
障礙	-10.8958
豁然大悟	-10.8964
皓	-10.8965
篆	-10.8966
金針	-10.8968
度人	-10.8969
兩岸	-10.8979
拈起拄杖云	-10.898
冒	-10.8982
麈	-10.8983
大和尚	-10.8986
問處	-10.8987
不具	-10.8995
樣子	-10.8998
諒	-10.8998
歸去來	-10.8998
喬	-10.8999
千峯	-10.9001
人家	-10.9006
回避	-10.9009
董	-10.9009
之風	-10.9009
遞	-10.9011
謂曰	-10.9013
青霄	-10.9015
祚	-10.9019
鰲	-10.902
眾請	-10.9027
師承	-10.9028
大徹	-10.9029
僧舉似	-10.903
一念不生	-10.9033
騎牛	-10.9036
禪牀	-10.9041
法要	-10.9044
開堂日	-10.9044
芒鞋	-10.9045
之行	-10.9047
目視	-10.9047
耆	-10.9049
諫	-10.9049
但見	-10.9064
我道	-10.9065
自他	-10.9071
長生	-10.9072
凜	-10.9072
粘	-10.9076
不止	-10.9076
一貫	-10.9077
捺	-10.9077
實際	-10.9078
癢	-10.9078
魔王	-10.9081
變易	-10.9083
其意	-10.9084
青蓮	-10.9084
久久	-10.9085
引得	-10.9093
無量劫來	-10.9095
丙	-10.9096
趕	-10.9099
巔	-10.91
又作麼生師云	-10.9101
法雨	-10.9103
之談	-10.9103
郊	-10.9109
熾	-10.911
留心	-10.9111
妄念	-10.9113
致使	-10.9117
瓣香	-10.9119
若恁麼	-10.912
謚	-10.9121
律師	-10.9124
草堂	-10.9124
須要	-10.9128
久參	-10.913
識心	-10.9131
三祖	-10.9131
談玄	-10.9131
蹟	-10.9131
只者	-10.9132
世事	-10.9135
一門	-10.9137
聞得	-10.9138
東家	-10.9138
壁立萬仞	-10.9138
別傳	-10.9138
香積	-10.9139
重新	-10.9142
順治	-10.9151
儱侗	-10.9154
靴	-10.9154
千巖	-10.9154
宗教	-10.9155
傳語	-10.9157
總不恁麼	-10.916
雲散	-10.9162
瞻仰	-10.9162
問如何是佛	-10.9163
酉	-10.9168
扉	-10.9173
色空	-10.9174
已前	-10.9175
詐	-10.9177
上士	-10.9179
繩床	-10.9185
鵲	-10.9186
下禪床	-10.9186
發願	-10.9187
其奈	-10.9188
寂靜	-10.919
汝當	-10.9192
菩提心	-10.9193
壁立千仞	-10.9195
入水	-10.9196
之物	-10.9202
法海	-10.9207
隻眼	-10.9211
染淨	-10.9212
相投	-10.9214
杉	-10.9217
不達	-10.9221
所依	-10.9221
斷橋	-10.9221
即心	-10.9228
呈偈曰	-10.9235
且問	-10.9236
忙忙	-10.9237
作佛事	-10.9237
愚癡	-10.9238
湏	-10.9238
濟公	-10.9243
空山	-10.9247
同門	-10.9248
于今	-10.925
翛然	-10.9251
寐	-10.9253
縱饒	-10.9256
克賓	-10.9257
而復	-10.9259
東禪	-10.9265
塵沙	-10.9267
一月	-10.927
水底	-10.927
皈依	-10.9272
將錯就錯	-10.9272
清規	-10.9273
暗中	-10.9277
鬱	-10.9284
明招	-10.9284
為誰	-10.9287
甲子	-10.9287
一雙	-10.9287
眾生心	-10.9288
趯	-10.9288
纔有	-10.9291
獅子吼	-10.9292
懸崖	-10.9293
寒灰	-10.9293
此猶是	-10.9294
不淨	-10.9297
不息	-10.9298
阿彌陀佛	-10.93
乞食	-10.93
三要	-10.9301
摩竭	-10.9304
遍地	-10.9307
忍俊不禁	-10.9311
失卻	-10.9312
度眾生	-10.9314
第三句	-10.9315
近前來	-10.9319
獨有	-10.9321
勳	-10.9321
不違	-10.9322
過夏	-10.9331
方寸	-10.9331
貓兒	-10.9333
不薦	-10.9334
聞舉	-10.9334
師諱	-10.9336
廁	-10.9338
擬對	-10.9341
與摩	-10.9341
獼猴	-10.9342
怎奈	-10.9343
卓拄杖一下	-10.9344
好事	-10.9348
這邊	-10.9348
摩訶	-10.935
北山	-10.935
丈六金身	-10.935
尚有	-10.9351
激揚	-10.9351
人身	-10.9353
故能	-10.9356
弔	-10.9357
冷地	-10.9368
令侍者	-10.9369
相與	-10.9372
啐啄同時	-10.9373
不識好惡	-10.9376
付與	-10.9379
事如何師云	-10.938
龍山	-10.9383
穿過	-10.9384
砌	-10.9384
救得	-10.9385
輙	-10.9388
寶所	-10.9389
出生死	-10.9389
熊	-10.939
布衫	-10.9392
妙明	-10.9392
而求	-10.9395
一宗	-10.9397
流傳	-10.9397
月上	-10.9398
退步	-10.9408
相見了也	-10.9408
拂袖便出	-10.9409
變異	-10.941
澄潭	-10.9411
餬餅	-10.9412
此非	-10.9413
共相	-10.9415
碧潭	-10.9417
鳩	-10.9419
奠	-10.942
法雲	-10.9422
鬧市	-10.9423
彎	-10.9426
倩	-10.9426
且向	-10.9427
諦聽	-10.9429
武帝	-10.9429
無論	-10.9431
單提	-10.9435
亦爾	-10.9437
緣生	-10.9444
萬壑	-10.9444
嶺頭	-10.9444
大顛	-10.9446
鐵壁	-10.9447
落處麼	-10.9448
從何來	-10.9449
羡	-10.9451
獰	-10.9456
若道是	-10.9457
訝	-10.946
孃	-10.9462
照破	-10.9462
隻履	-10.9463
試看	-10.9464
有緣	-10.9465
難為	-10.9466
箇裏	-10.9467
死屍	-10.9468
學人不會	-10.947
隙	-10.947
何曾有	-10.947
抬	-10.9471
龍頭蛇尾	-10.9471
辭去	-10.9473
石室	-10.9474
提綱	-10.9475
溟	-10.9477
成佛道	-10.9478
嘶	-10.948
汀	-10.9482
漢月	-10.9484
龍泉	-10.9486
文武	-10.9488
那知	-10.9493
讎	-10.95
光照	-10.9503
頭首	-10.951
萬福	-10.9514
悚	-10.9516
再問	-10.9516
亞	-10.9516
震動	-10.9518
記莂	-10.952
。」【「	-10.952
塔銘	-10.9522
毫髮	-10.9523
閙市	-10.9524
鑪	-10.9524
之宗	-10.9525
鷗	-10.9525
竈	-10.9528
玄要	-10.9528
請上堂僧問	-10.9529
饅頭	-10.953
四天下	-10.953
便掌	-10.9531
三乘十二分教	-10.9533
有力	-10.9535
辜	-10.9536
樓臺	-10.954
寺裏	-10.954
活句	-10.9546
帛	-10.9549
楞嚴經	-10.9549
汝作麼生	-10.955
都盧	-10.9559
醋	-10.9562
西東	-10.9563
週	-10.9563
嬰	-10.9563
黑漆	-10.9563
七歲	-10.9564
皎潔	-10.9568
六識	-10.9569
碧落	-10.9569
家珍	-10.957
若能如是	-10.9571
顧左右云	-10.9572
磕	-10.9572
之矣	-10.9576
心力	-10.9576
輯	-10.9578
古云	-10.9578
八字	-10.9579
湊	-10.9579
筏	-10.9579
价	-10.9581
妍	-10.9583
我等	-10.9584
飲水	-10.9588
一陽	-10.9589
樹上	-10.9589
風前	-10.9589
白牛	-10.9592
療	-10.9592
惡業	-10.9593
猶較些子	-10.9594
喫了	-10.9601
不無	-10.9611
竹林	-10.9612
無量壽	-10.9613
淘	-10.9614
丑	-10.9614
莫待	-10.9617
他不得	-10.9621
婆羅門	-10.9624
楊柳	-10.9624
灶	-10.9631
召眾云	-10.9631
是何物	-10.9632
卻是	-10.9636
破山	-10.9638
嵓	-10.9641
機先	-10.9641
威光	-10.9642
島	-10.9643
刈	-10.9643
專使	-10.9643
有偈曰	-10.9644
能生	-10.9648
風生	-10.9649
迨	-10.965
印證	-10.9651
募	-10.9652
不朽	-10.9653
遜	-10.9658
本體	-10.9662
箸	-10.9663
擬欲	-10.9663
一方	-10.9671
丹青	-10.9674
煌	-10.9678
明了	-10.9682
掠	-10.9687
好看	-10.9689
出院	-10.969
萬派	-10.9691
不語	-10.9695
塢	-10.9695
雖然如此	-10.9695
丸	-10.9696
一歸何處	-10.9698
欠少	-10.9699
鶻	-10.97
二十棒	-10.9705
善能	-10.9705
宗皇帝	-10.9707
隨人	-10.9709
八百	-10.9709
嘆曰	-10.971
畢竟作麼生	-10.971
鏡中	-10.9711
點檢	-10.9712
竪起	-10.9716
汾陽昭	-10.9722
南北東西	-10.9723
相識	-10.9723
四祖	-10.9723
賒	-10.9724
天皇	-10.9724
你看	-10.9726
便恁麼	-10.9727
皆由	-10.9729
香林	-10.973
會佛法	-10.973
頸	-10.9732
殞	-10.9733
鬢	-10.9733
山主	-10.9733
達摩	-10.9734
虎穴	-10.9742
璣	-10.9743
與麼去	-10.9744
座前	-10.9748
清凉	-10.9748
祖師西來	-10.975
棘	-10.9756
垂慈	-10.9757
無涯	-10.9759
褒	-10.9759
艾	-10.976
云會麼	-10.976
聖壽	-10.9762
搬	-10.9763
其旨	-10.9764
襄州	-10.9765
小師	-10.9765
繼席	-10.9766
數珠	-10.9767
青龍	-10.9772
蓄	-10.9776
見僧來	-10.9776
瀑	-10.9778
林中	-10.9779
西江	-10.978
泉州	-10.9786
誓願	-10.9786
法燈	-10.9787
釆	-10.9789
便可	-10.979
斷絕	-10.979
鼈	-10.9793
悟處	-10.9795
寒巖	-10.9796
蠻	-10.9797
T	-10.9798
肝膽	-10.9803
六合	-10.981
僧近前	-10.9811
須向	-10.9813
餓鬼	-10.9816
應菴	-10.9817
勾	-10.9817
D	-10.9818
伏惟	-10.9818
J	-10.9818
S	-10.9818
爐中	-10.9819
心體	-10.9821
示微疾	-10.9827
得自由	-10.9833
PER	-10.9839
威音那畔	-10.9847
即同	-10.9847
通一線	-10.9848
故經云	-10.9848
龍樹	-10.985
影像	-10.9853
執著	-10.9854
夢裏	-10.9859
無你	-10.9861
耆舊	-10.9862
菩提涅槃	-10.9863
仰曰	-10.9869
修羅	-10.987
脫去	-10.987
是何人	-10.9871
什麼人	-10.9874
與君	-10.9879
自欺	-10.9882
臘月三十日	-10.9885
達觀	-10.9893
皆空	-10.9893
鳥啼	-10.9895
庫司	-10.9895
懷胎	-10.9899
顒	-10.99
九年面壁	-10.9906
即且置	-10.9908
眾無語	-10.9909
愆	-10.991
徙	-10.991
以致	-10.9914
三關	-10.9916
去就	-10.9917
廣長舌	-10.9918
須具	-10.9919
須知有	-10.9921
與眾	-10.9921
至晚	-10.9922
一踏	-10.9922
石虎	-10.9923
活路	-10.9926
普門	-10.9929
茫	-10.993
鷂	-10.993
覿面相呈	-10.9931
西湖	-10.9933
無外	-10.9936
之情	-10.9938
接待	-10.9938
隨身	-10.994
仰云	-10.9941
馳求	-10.9941
空王	-10.9942
雲開	-10.9942
臥龍	-10.9944
級	-10.9944
叮嚀	-10.9946
定當	-10.9947
五家	-10.995
鐘鼓	-10.9951
胡餅	-10.9954
杵	-10.9954
起居	-10.9956
漂	-10.9957
山居	-10.996
透出	-10.9961
者箇是	-10.9964
碧天	-10.9964
入涅槃	-10.9965
首楞嚴	-10.997
打殺	-10.9971
指月	-10.9971
十二年	-10.9972
出離	-10.9973
不避	-10.9974
和尚如何	-10.9975
金襴	-10.9978
公子	-10.998
道士	-10.998
請陞座	-10.998
漁父	-10.998
寰	-10.998
趣向	-10.9982
戎	-10.9983
圜悟	-10.9985
俱是	-10.9985
生死事大	-10.9986
滿口	-10.9986
釣魚	-10.9988
黔	-10.9989
胸襟	-10.9993
無畏	-10.9996
白頭	-10.9997
駒	-10.9998
敝	-10.9999
方圓	-11.0003
涅槃經	-11.0005
始見	-11.0007
闌	-11.0007
椿	-11.0008
監寺	-11.0012
為生死	-11.0012
從上諸聖	-11.0014
化城	-11.0017
拊	-11.0018
尉	-11.0019
除却	-11.0019
一僧云	-11.0023
僧俗	-11.0023
假使	-11.0024
佛告	-11.0024
那個是	-11.0025
海會	-11.0027
丈曰	-11.0027
蕭蕭	-11.0027
天魔	-11.0028
即向汝道	-11.003
脇	-11.0033
石火	-11.0035
句句	-11.0036
稱為	-11.0037
何處去	-11.0037
一箭	-11.0038
師子兒	-11.0038
稻	-11.0046
但是	-11.0046
父母未生	-11.005
因地	-11.0055
數載	-11.0056
瞬	-11.0056
和尚作麼生	-11.006
侍立	-11.0065
始覺	-11.0071
脣	-11.0072
徘徊	-11.0072
昨夜三更	-11.0073
兩眼	-11.0073
師良久	-11.0078
待伊	-11.0078
一橛	-11.0081
惶	-11.0082
具一隻眼	-11.0083
觀世音	-11.0084
蓋覆	-11.0086
巍	-11.0087
正與麼時	-11.0087
巖云	-11.0088
同體	-11.0089
廼	-11.0092
說不得	-11.0093
十二月	-11.0096
孤峯	-11.0098
)」	-11.0098
為汝說	-11.01
閭	-11.0102
豎拂云	-11.0103
廚	-11.0107
即心是佛	-11.0107
揩	-11.011
高著眼	-11.011
埃	-11.0117
提不起	-11.0122
濯	-11.0126
與老僧	-11.0126
若向這裏	-11.0129
嘉禾	-11.013
萬國	-11.0132
春日	-11.0137
因什麼	-11.0137
無蹤	-11.0139
無向背	-11.0139
宗匠	-11.0144
若向者裏	-11.0147
未識	-11.0147
搏	-11.0149
耐	-11.0149
阿羅漢	-11.0149
筯	-11.0152
豈無	-11.0157
十二時	-11.0157
待汝	-11.0157
後代兒孫	-11.0158
有麼有麼	-11.016
亦不得	-11.0164
𢹂	-11.0165
是甚	-11.0166
李公	-11.0166
繪	-11.0168
太極	-11.0169
獎	-11.0174
海印	-11.0174
痒	-11.0177
三千大千世界	-11.0177
且作麼生是	-11.0177
瑟	-11.0178
攸	-11.0181
惑亂	-11.0181
劇	-11.0184
裘	-11.019
泡	-11.0191
與伊	-11.0192
動地	-11.0192
其義	-11.0193
幡	-11.0193
金毛	-11.0194
攛	-11.0195
波浪	-11.0198
國裏	-11.0199
忽見	-11.0199
僚	-11.0211
訃	-11.0211
影響	-11.0214
鯉	-11.0216
一匝	-11.0218
大都	-11.0221
忽聞	-11.0221
祇要	-11.0225
日久	-11.0226
圓照	-11.023
卵	-11.0231
化身	-11.0231
厨	-11.0232
依他	-11.0232
堂頭	-11.0232
百鳥	-11.0234
其體	-11.0235
柰何	-11.0236
狐疑	-11.0238
無價	-11.0243
融通	-11.0243
豎拳	-11.0247
瑕	-11.0249
作得主	-11.0251
掩關	-11.0252
法衣	-11.0254
崢嶸	-11.0254
掬	-11.0257
和尚慈悲	-11.0261
却向	-11.0263
貴賤	-11.0265
杓	-11.0272
四十年	-11.0281
云云	-11.0284
钁	-11.0284
暫時	-11.0285
祖宗	-11.0287
孩	-11.0288
佇	-11.0289
臨濟大師	-11.0291
隱隱	-11.0291
底漢	-11.0293
最上	-11.0295
應物	-11.0296
萬億	-11.0298
呈似	-11.0301
相契	-11.0303
馨香	-11.0309
萬有	-11.0309
毗耶	-11.031
來往	-11.0311
近來	-11.0312
無上菩提	-11.0312
別求	-11.0313
燃	-11.0315
金明	-11.0316
豈知	-11.0318
媚	-11.0318
擬向	-11.032
側耳	-11.0321
籟	-11.0321
且去	-11.0322
榜樣	-11.0324
倏	-11.0325
鶯啼	-11.0325
兩忘	-11.0327
第一義諦	-11.0329
不獲	-11.0331
大有人	-11.0338
僧擬	-11.0338
不二法門	-11.0338
嫁	-11.0339
館	-11.0339
莽	-11.0341
拄杖頭上	-11.0342
更有一	-11.0344
開先	-11.0344
見後如何	-11.0344
肘	-11.0344
發菩提心	-11.0347
真風	-11.0347
攢眉	-11.0348
疆	-11.035
得個	-11.0354
唵	-11.0355
人境	-11.0361
藻	-11.0362
剜	-11.0365
過在什麼處	-11.0368
不奈何	-11.0369
一毫端	-11.0369
卻被	-11.0372
汁	-11.0384
僧作禮	-11.0385
黯	-11.0387
城東	-11.0388
出塵	-11.0389
陂	-11.039
教他	-11.0392
還聞麼	-11.0396
遇知音	-11.0397
則且置	-11.0398
萃	-11.0398
幸有	-11.0407
和尚示眾云	-11.0409
終始	-11.0411
無根	-11.0416
達本	-11.0419
既然	-11.0426
至正	-11.043
錢塘	-11.043
團團	-11.0431
佛語	-11.0434
眾集	-11.0435
雨露	-11.0444
蟭螟	-11.0448
斛	-11.045
或時	-11.0451
無憂	-11.0452
檻	-11.0452
枚	-11.0453
貓	-11.0454
裂破	-11.0454
偏正	-11.0455
絕頂	-11.0457
二途	-11.046
閫	-11.0461
猿啼	-11.0461
心源	-11.0469
現身	-11.0472
藏鋒	-11.0472
應緣	-11.0474
流注	-11.0476
白雲萬里	-11.0481
麁	-11.0481
墓	-11.0486
智門	-11.0488
钁頭	-11.049
金湯	-11.049
吾人	-11.0495
有如是	-11.0495
十一月	-11.0496
紋	-11.0497
圓悟勤	-11.0497
瞎却	-11.0502
智海	-11.0504
聚雲	-11.0506
傳衣	-11.0506
摸著	-11.0508
大隨	-11.0508
惟心	-11.0509
佛智	-11.0511
優劣	-11.0512
躡	-11.0514
須信	-11.0515
古寺	-11.0515
僧伽	-11.0518
授受	-11.0519
截流	-11.0522
頓超	-11.0525
作偈	-11.0529
非色	-11.053
北禪	-11.0533
諧	-11.0534
疇	-11.0535
鏃	-11.0535
選佛場	-11.0538
一燈	-11.0541
衲僧分上	-11.0543
坎	-11.0545
四種	-11.0545
莊子	-11.0549
雪竇顯云	-11.0551
末世	-11.0551
憩	-11.0553
椽	-11.0555
座上	-11.0555
百年後	-11.0558
不墜	-11.0559
忒	-11.056
謝和尚	-11.056
悟了	-11.0561
山頂	-11.0562
凄	-11.0564
莽鹵	-11.0564
喝下	-11.0565
寒潭	-11.057
此義	-11.0572
不答話	-11.0574
空過	-11.0574
鎮州	-11.0575
因何	-11.0579
眾中還有	-11.0579
漲	-11.058
寶峰	-11.0585
體究	-11.0587
祖父	-11.0587
五十三	-11.0589
越州	-11.0589
老病	-11.059
應知	-11.0594
經卷	-11.0596
天地之	-11.0599
牟尼	-11.0602
既知	-11.0603
橫按	-11.0605
三家村裏	-11.0611
不逢	-11.0613
西北	-11.0616
槩	-11.0617
脊梁	-11.0619
象曰	-11.062
批判	-11.0629
鍬	-11.0631
權衡	-11.0634
台州	-11.0635
風高	-11.0635
指點	-11.0636
本寺	-11.0638
歿	-11.0641
芻	-11.0641
佇思	-11.0643
嶠	-11.0644
彼中	-11.0644
甚麼處去	-11.0645
早晚	-11.0646
辣	-11.0647
隴	-11.0647
樹頭	-11.0648
無咎	-11.0648
通消息	-11.0651
徑山杲	-11.0651
第九	-11.0652
致令	-11.0658
那得	-11.0658
拱手	-11.0659
寶座	-11.0661
白衣	-11.0664
白髮	-11.0667
拈得	-11.067
慶快	-11.067
懽	-11.0672
艸鞋	-11.068
世尊拈花	-11.0684
稿	-11.0686
伎	-11.0689
誼	-11.0692
而終	-11.07
印印	-11.07
衲僧巴鼻	-11.0701
摩尼珠	-11.0702
上元	-11.0706
瑠璃	-11.0706
向何處	-11.0708
南岳	-11.0713
破沙盆	-11.0717
祗對	-11.072
休休	-11.0721
大冶	-11.0722
天宮	-11.0722
那吒	-11.0723
降生	-11.0724
好笑	-11.0728
半邊	-11.0729
要會麼	-11.073
吐露	-11.0733
墳	-11.0734
文殊師利	-11.0735
安國	-11.0739
路逢	-11.0739
罏	-11.074
曲彔	-11.0742
氣象	-11.0743
大解脫	-11.0743
拍禪床	-11.0744
念誦	-11.0746
悠	-11.0747
平田	-11.0747
佛陀	-11.0748
請住	-11.0754
電光	-11.0754
行履處	-11.0756
慵	-11.0758
三頓棒	-11.0759
流布	-11.0759
猶存	-11.0761
信手	-11.0764
肝	-11.0766
多少時	-11.0766
殼	-11.0766
普濟	-11.0766
舉世尊	-11.0767
精金	-11.0768
生鐵	-11.0774
擅	-11.0775
書偈曰	-11.0776
教意	-11.0781
學道人	-11.0781
摩醯	-11.0782
無所不	-11.0782
虀	-11.0784
功成	-11.0788
手脚	-11.0789
黃昏	-11.079
萬人	-11.0793
太原	-11.0794
其源	-11.0796
登座	-11.0798
恁麼事	-11.0799
一槌	-11.0799
正中偏	-11.0799
未及	-11.0802
思議	-11.0803
滄	-11.0806
參堂去	-11.081
笑倒	-11.081
剃髮	-11.0811
妄生	-11.0812
但知	-11.0812
長松	-11.0813
靈苗	-11.0819
鬪	-11.082
肚皮	-11.082
曜	-11.0821
卷第二	-11.0823
九峯	-11.0826
著衣	-11.0826
拈提	-11.0829
嫩	-11.0829
法昌	-11.083
真宗	-11.0832
三日耳聾	-11.0832
郎當	-11.0833
庭前柏樹子	-11.0836
爭如	-11.0837
禦	-11.084
遣使	-11.0841
華山	-11.0842
何處有	-11.0843
炳	-11.0845
旌	-11.0846
滿面	-11.0858
青嶂	-11.086
蓋為	-11.0863
滌	-11.0864
亡僧	-11.0864
是汝諸人	-11.0865
佛知見	-11.0866
晃	-11.0867
舒州	-11.0868
新豐	-11.0871
當日	-11.0872
皓月	-11.0872
非唯	-11.0875
梧	-11.0875
汝但	-11.0877
豈得	-11.0885
且要	-11.0885
忘卻	-11.0886
悞	-11.0887
舉拂子云	-11.0889
迺	-11.089
葦	-11.0899
西院	-11.0899
句下	-11.0905
現成公案	-11.0907
三千里	-11.0909
鞏	-11.0911
踞地	-11.0912
戲論	-11.0913
嗅	-11.0915
十成	-11.0918
扁舟	-11.0919
初生	-11.0925
祖印	-11.0928
過患	-11.0928
二尊宿	-11.0929
七寶	-11.0932
海嶽	-11.0934
跌	-11.094
惹得	-11.0941
鸚鵡	-11.0941
檐	-11.0943
西禪	-11.0943
拂袖便行	-11.0943
空手	-11.0944
人天眼目	-11.0948
場中	-11.095
肘後	-11.0956
躋	-11.0958
璨	-11.0958
無消息	-11.0961
老祖	-11.0961
乃能	-11.0964
知恩	-11.0969
隨喜	-11.0973
秊	-11.0977
飡	-11.0978
投子青	-11.0982
蠶	-11.0982
盌	-11.0984
兩句	-11.0984
超方	-11.0985
福慧	-11.0988
三業	-11.0988
隨宜	-11.099
燦爛	-11.0992
杜口	-11.0994
保壽	-11.0994
種草	-11.0997
秪是	-11.0998
拋下	-11.0999
新舊	-11.1
驕	-11.1001
勑	-11.1001
獃	-11.1005
舉著	-11.1005
汗流	-11.1006
諸仁	-11.1011
力量	-11.1013
觔	-11.1014
觀世音菩薩	-11.1016
司馬	-11.102
座曰	-11.102
匿	-11.102
頤	-11.1026
任是	-11.1027
默默	-11.1031
宴	-11.1032
入地獄如箭射	-11.1039
元旦上堂	-11.104
神通妙用	-11.104
耳根	-11.1042
擊禪床	-11.1044
的人	-11.1045
增長	-11.1046
牧牛	-11.1046
具眼者	-11.1053
煨	-11.1054
師以手	-11.1055
梵剎	-11.1058
鷲嶺	-11.1058
一樣	-11.106
殻	-11.1067
茶話	-11.1068
九旬	-11.1069
裳	-11.1072
古聖	-11.1073
簇	-11.1076
滴滴	-11.1077
倒騎	-11.1077
無遺	-11.1078
盤桓	-11.1078
煆	-11.108
事業	-11.108
直指人心	-11.1081
游戲	-11.1082
截斷眾流	-11.1082
情知	-11.1083
箕	-11.1093
具戒	-11.1094
問如何是祖師西來意	-11.1098
權實	-11.1101
歲寒	-11.1102
脫落	-11.1102
洩	-11.1104
不啻	-11.1107
淂	-11.1111
從緣	-11.1111
貢	-11.1114
銳	-11.1115
玄微	-11.1115
從上佛祖	-11.1116
拈華	-11.1117
鴨	-11.1118
徒自	-11.112
邵	-11.112
不覆藏	-11.112
有佛性	-11.1121
無滯	-11.1124
搥	-11.1126
領旨	-11.1129
老老大大	-11.113
慘	-11.1135
鼓聲	-11.1136
抗	-11.1138
現量	-11.114
拒	-11.114
二邊	-11.1142
顏色	-11.1145
得否	-11.1156
也不識	-11.1158
招慶	-11.1158
藕	-11.1158
二十九	-11.116
不錯	-11.1161
請師直指	-11.1162
徇	-11.1163
仲尼	-11.1165
省力	-11.1166
靈明	-11.117
放下著	-11.1171
大善知識	-11.1173
唯是	-11.1174
穿却	-11.1179
塵劫	-11.118
請師道	-11.118
徧界	-11.1185
技	-11.1186
陀羅尼	-11.1188
不讓	-11.1189
輪轉	-11.1191
不是物	-11.1191
婆曰	-11.1191
譬喻	-11.1192
粧	-11.1195
靈機	-11.1196
南海	-11.12
聖人之	-11.1201
一摑	-11.1201
侍立次	-11.1202
窩	-11.1203
賈	-11.1204
德山臨濟	-11.1204
沙界	-11.1207
男子	-11.1208
無影樹	-11.1215
皎皎	-11.1216
天地懸隔	-11.1223
無孔笛	-11.1225
依依	-11.1231
吉州	-11.1232
洞徹	-11.1233
西域	-11.1235
撑	-11.1237
文學	-11.1237
恒河沙	-11.1242
不宜	-11.1244
往參	-11.1245
何嘗	-11.1247
赤灑灑	-11.1249
虗妄	-11.1249
法王法如是	-11.125
寶珠	-11.1251
梵行	-11.1252
趂出	-11.1255
請和尚道	-11.1256
俊哉	-11.1258
貽	-11.1258
鞠	-11.1258
虎尾	-11.1259
潘	-11.126
提婆	-11.1261
瞳	-11.1261
三途	-11.1262
十五年	-11.1265
丹霞淳	-11.1265
㘞	-11.1267
冬瓜	-11.1267
今上皇帝	-11.1267
往還	-11.127
坐道場	-11.1276
睹明星	-11.1276
俗人	-11.1278
為復是	-11.1284
亙	-11.1285
姚	-11.1285
註腳	-11.1287
左邊	-11.1291
辭眾	-11.1292
諸老	-11.1292
言教	-11.1292
吳越	-11.1294
非惟	-11.1303
有一物	-11.1305
翻轉	-11.1308
刪	-11.131
寰宇	-11.1312
茄	-11.1313
況復	-11.1322
果報	-11.133
若夫	-11.1333
珪	-11.1333
鉏	-11.1335
金牛	-11.1335
摶	-11.1335
太尉	-11.1336
僧一喝	-11.1337
全真	-11.1337
死句	-11.1339
慈氏	-11.1345
鳥飛	-11.1345
襄	-11.1347
遏	-11.1351
踏倒	-11.1351
還須	-11.1353
寶華	-11.1354
舖	-11.1356
峯頂	-11.1358
饒你	-11.136
八字打開	-11.1361
蠟	-11.1361
忽爾	-11.1365
本末	-11.1366
寶林	-11.1367
點出	-11.1368
拈拂子	-11.1368
不是不是	-11.137
舉火	-11.1372
不厭	-11.1374
鈔	-11.1375
刻舟	-11.1378
當今	-11.1381
三十拄杖	-11.1383
蚌	-11.1384
業識茫茫	-11.1386
有幾人	-11.1386
露地白牛	-11.1389
寥	-11.139
色相	-11.1391
墖	-11.1392
活埋	-11.1393
仕	-11.1393
窻	-11.1395
骸	-11.1396
2	-11.1399
吁	-11.1399
為什麼却	-11.1403
急須	-11.1404
大涅槃	-11.1405
稚	-11.1405
婆云	-11.1408
列祖	-11.1408
罪福	-11.1411
染污	-11.1411
背上	-11.1416
石鞏	-11.1417
傅	-11.142
月輪	-11.142
頒	-11.142
教乘	-11.1422
惡道	-11.1425
偏中正	-11.1425
漾	-11.1426
師召	-11.1426
不足以	-11.1433
插香	-11.1434
白玉	-11.1435
度生	-11.1435
法印	-11.1439
請小參	-11.144
』	-11.1443
卓卓	-11.1444
古廟	-11.1447
禪寺語錄	-11.1447
骨髓	-11.1448
駿	-11.145
瑞氣	-11.1452
作務	-11.1452
連天	-11.1455
收得	-11.1458
果子	-11.1459
蝦蟇	-11.1459
乾坤大地	-11.1461
講經	-11.1463
至道無難	-11.1464
受請	-11.1464
千里萬里	-11.1467
不費	-11.1467
龍宮	-11.1472
寶塔	-11.1473
如來禪	-11.1473
䟦	-11.1473
年老	-11.1475
無人識	-11.1475
蛙	-11.1476
狼籍	-11.1478
嬰兒	-11.148
木杓	-11.1485
明眼衲僧	-11.1486
鐵船	-11.1488
輟	-11.1491
牖	-11.1501
堤	-11.1501
住住	-11.1501
庚	-11.1505
舡	-11.1507
途路	-11.151
訴	-11.1512
木石	-11.1513
禪流	-11.1514
善巧	-11.1516
罄	-11.1518
雲蓋	-11.1519
嘻	-11.1519
帙	-11.1521
則不問	-11.1524
千尋	-11.1524
郁	-11.1525
鐙	-11.1526
未休	-11.1528
魔外	-11.1529
先須	-11.1531
▁示	-11.1534
忽若	-11.1535
無益	-11.1537
擲拂子	-11.1541
藩	-11.1541
只向他道	-11.1544
得與麼	-11.1546
壽六十	-11.1549
濂	-11.155
扶桑	-11.1553
一切諸佛	-11.1554
卓主丈	-11.1554
導師	-11.1556
萬境	-11.1561
殺天下人	-11.1561
雲收	-11.1562
牯	-11.1568
逕	-11.157
有錄	-11.1573
密雲	-11.1578
踢倒	-11.1578
末後一句	-11.1579
呵呵笑	-11.1583
忿	-11.1586
設供	-11.1586
東京	-11.1588
誦經	-11.1592
有僧出	-11.1592
婢	-11.1594
岐路	-11.1595
羲	-11.1595
竿頭	-11.1598
隨波逐浪	-11.1603
何足	-11.1606
更無別	-11.1606
遼天	-11.1608
為佛事	-11.1608
圓頓	-11.1614
痴	-11.1619
捫	-11.1619
汪	-11.1619
駢	-11.1619
猴	-11.1621
功夫	-11.1624
真妄	-11.1625
猶欠	-11.1625
畝	-11.1626
相國	-11.1628
壓良為賤	-11.1629
烏藤	-11.1635
何者是	-11.1639
恆	-11.164
報身	-11.1647
與古人	-11.1652
打圓相云	-11.1652
未忘	-11.1659
祖祖相傳	-11.1659
讀之	-11.166
通方	-11.166
忽有箇	-11.1661
迭	-11.1662
住世	-11.1663
隨方	-11.1664
祖塔	-11.1664
高峯	-11.1666
五欲	-11.1667
喆	-11.1673
彌天	-11.1678
一粒米	-11.1678
陳氏子	-11.168
師以拄杖	-11.1681
白馬	-11.1682
僧問雲門	-11.1683
腐	-11.1685
綿密	-11.1694
永劫	-11.1694
塚	-11.1695
乾峰	-11.1696
一尺	-11.1697
善哉	-11.1698
透徹	-11.1704
亦不可得	-11.1704
諸眾生	-11.1707
法乳	-11.1709
諸佛出世	-11.1712
威音王	-11.1712
燎	-11.1716
向諸人	-11.1719
那畔	-11.1721
一塊	-11.1723
善權	-11.1723
妄想執著	-11.1727
光彩	-11.1727
二十二	-11.1731
吾家	-11.1738
頑石	-11.1745
馬駒	-11.1747
不惜眉毛	-11.1754
六度	-11.1755
一念心	-11.1756
桃李	-11.1757
起舞	-11.1758
剋	-11.1762
袁	-11.1762
徧參	-11.1766
僧寶	-11.1772
作摩生	-11.1774
團圞	-11.1776
甚多	-11.1777
春雨	-11.1778
焉能	-11.1778
日午	-11.1779
爭知	-11.178
萬戶	-11.1785
變作	-11.1791
裙	-11.1793
溪邊	-11.1794
正中來	-11.1795
互換	-11.1806
皮袋	-11.1806
振錫	-11.1808
龍翔	-11.1808
空谷	-11.1808
曩	-11.1811
牒	-11.1812
嗟乎	-11.1814
瞻禮	-11.1816
顯示	-11.1824
腔	-11.1824
佛法無多子	-11.1824
日月星辰	-11.1825
茱萸	-11.1828
一切諸	-11.1831
旁觀	-11.1831
難逃	-11.1831
舂	-11.1835
虹	-11.1838
堆裏	-11.184
檀信	-11.184
佛土	-11.1841
靈驗	-11.1843
布衲	-11.1843
猊	-11.1844
妙悟	-11.1845
妙覺	-11.1845
犬吠	-11.1846
苟能	-11.1847
楖栗	-11.1849
蚯蚓	-11.185
便棒	-11.185
大抵	-11.185
不風流處也風流	-11.1852
道得即	-11.1852
魁	-11.1858
亥	-11.186
祖燈	-11.1861
帝王	-11.1862
猪	-11.1862
大人相	-11.1865
俱忘	-11.187
照用同時	-11.1879
和泥合水	-11.188
精勤	-11.1882
馬鳴	-11.1883
真諦	-11.1884
銘曰	-11.1886
寐語	-11.1886
諸佛菩薩	-11.1886
七尺	-11.1888
同異	-11.1889
曲調	-11.1891
之辰	-11.1893
寔	-11.1893
夜叉	-11.1894
年二十	-11.1895
是作家	-11.1897
起龕	-11.1898
有一句子	-11.1899
颯颯	-11.1899
禪和子	-11.19
萬像	-11.19
作偈曰	-11.1901
決不	-11.1901
七縱八橫	-11.1902
百里	-11.1902
迦葉微笑	-11.1903
請上堂問	-11.1907
雙桂	-11.1909
三冬	-11.1909
閏	-11.1911
絡	-11.1911
撾	-11.1911
兢	-11.1913
貲	-11.1917
陟	-11.1917
卓杖	-11.1918
睿	-11.192
圓寂	-11.192
弁	-11.1922
六通	-11.1928
街頭	-11.1929
飲光	-11.193
殺生	-11.1933
古者道	-11.1934
禪德	-11.1936
正脈	-11.194
脅	-11.1941
黃鸝	-11.1945
吠	-11.1946
肰	-11.1949
覧	-11.1951
字字	-11.1964
井底	-11.1965
歸何處	-11.1965
絲綸	-11.1965
合眼	-11.1966
明歷歷	-11.1966
撿	-11.197
墮地	-11.1971
藜	-11.1976
將什麼	-11.1977
人天眾前	-11.1978
住此山	-11.1982
信施	-11.1988
楮	-11.1989
垣	-11.1991
自代云	-11.1993
清淨法身	-11.1994
我與你	-11.1997
誰識	-11.1998
良由	-11.2002
潦倒	-11.2003
五峰	-11.2003
苟非	-11.2006
木上座	-11.2006
如何是諸佛出身處	-11.2008
嶼	-11.2008
師唱誰家曲	-11.2011
不赴	-11.2018
是則是	-11.2018
恩愛	-11.2019
眾兄弟	-11.202
逢渠	-11.202
卉	-11.2022
渾無	-11.2024
相救	-11.2024
骨董	-11.2025
後昆	-11.2026
未易	-11.2026
仞	-11.2032
黃龍南	-11.2034
賔	-11.2035
二句	-11.2037
擊拂子云	-11.2042
旨趣	-11.2045
覆藏	-11.2047
傳持	-11.2051
咄哉	-11.2052
朝宗	-11.2054
自救不了	-11.2054
當體	-11.2054
戒定慧	-11.2055
隨他	-11.2062
神仙	-11.2065
風塵	-11.2065
戚	-11.2066
鋸	-11.2067
皆悉	-11.2068
高懸	-11.2071
慇懃	-11.2073
盡未來際	-11.2073
重陽	-11.2074
簡點	-11.2075
一言半句	-11.2076
破戒	-11.2076
無處不	-11.2077
心肝	-11.2079
老婆心切	-11.208
孩兒	-11.208
尹	-11.2084
頌出	-11.2086
發揮	-11.2087
實性	-11.2088
扶持	-11.2089
棲賢	-11.2095
靜坐	-11.2096
恭敬	-11.2098
荷擔	-11.2101
對靈小參	-11.2102
前話	-11.2104
情塵	-11.2105
開爐上堂	-11.2106
賓主歷然	-11.2106
侍僧	-11.2117
涎	-11.2119
廉纖	-11.2122
佛乘	-11.2122
檀護	-11.2122
賺殺	-11.2123
每見	-11.2124
鞍	-11.2125
輥毬	-11.2126
瀛	-11.2129
囊藏	-11.213
錦繡	-11.2131
周旋	-11.2135
我慢	-11.2143
保社	-11.2153
巴陵	-11.2157
若也不會	-11.216
荷葉	-11.2162
山青	-11.2163
午夜	-11.2166
鼇	-11.2176
破草鞋	-11.2177
梵王	-11.2178
俗漢	-11.2179
指天指地	-11.218
諦觀法王法	-11.2183
意根	-11.2183
中丞	-11.2184
未生時	-11.219
惡水	-11.2191
釋氏	-11.2192
久住	-11.2194
匡廬	-11.2194
桌	-11.2195
眾中有	-11.2195
六載	-11.2196
褁	-11.2198
卍	-11.2198
元旦	-11.2199
五識	-11.2206
任意	-11.221
膚	-11.221
赤肉團上	-11.2212
古殿	-11.2213
鑰	-11.2213
宗風嗣阿誰	-11.2217
塑	-11.2221
誌	-11.2222
鐺	-11.2225
祖意教意	-11.2233
輪王	-11.2236
阿那	-11.2242
肚裏	-11.2243
甦	-11.225
瞽	-11.225
敢問諸人	-11.2251
世俗	-11.2253
有來由	-11.2254
何益	-11.2258
人家男女	-11.2258
不禁	-11.2261
景德	-11.2261
廛	-11.2266
難瞞	-11.2267
姑蘇	-11.2269
寂子	-11.2271
燥	-11.2274
規模	-11.2278
金鎖	-11.2279
祖堂	-11.2281
一念萬年	-11.2288
跳不出	-11.229
伍	-11.2292
攬	-11.2293
點額	-11.2297
拈主丈	-11.2305
愜	-11.2306
信口	-11.2306
脚踏	-11.2307
拖泥帶水	-11.2307
顯聖	-11.2307
乘時	-11.2308
所不能	-11.2309
縱然	-11.2309
迸出	-11.2309
信不及	-11.231
吉凶	-11.2311
蘭若	-11.2313
撥開	-11.2323
子湖	-11.2323
娑	-11.2324
程途	-11.2327
膏肓	-11.2329
武林	-11.2335
語言文字	-11.2335
杓柄	-11.2339
抂	-11.2339
且喜沒交涉	-11.2339
只恁麼	-11.2342
箭射	-11.2342
脫生死	-11.2343
惜乎	-11.2347
咽	-11.2348
勘過	-11.235
二義	-11.2351
親承	-11.2352
婁	-11.2358
噇	-11.2358
萬頃	-11.2361
眀	-11.2361
一口吸盡西江水	-11.2362
靈山一會	-11.2363
了生死	-11.2368
大振	-11.237
清平	-11.2377
樸	-11.2381
譜	-11.2381
淋	-11.2387
壁立	-11.2393
矯	-11.2394
示滅	-11.2396
成褫	-11.2397
傍人	-11.2398
黃面老子	-11.2399
拯	-11.24
返照	-11.2402
頷	-11.2405
慎勿	-11.2406
摝	-11.2408
鑊湯	-11.2409
幕	-11.2409
敢問大眾	-11.2413
遲疑	-11.2421
叢中	-11.2422
剃度	-11.2423
僧又喝	-11.2426
苦哉	-11.2428
金雞	-11.2429
甎	-11.2431
炯	-11.2433
精舍	-11.245
假饒	-11.2451
洛陽	-11.2453
檗曰	-11.2455
上藍	-11.2459
要津	-11.2459
誰解	-11.2459
盍	-11.246
跟	-11.2463
錦鱗	-11.2463
白浪	-11.2466
正所謂	-11.2476
掩室	-11.2478
屆	-11.2481
縈	-11.2481
磵	-11.2482
▁【	-11.2483
拆	-11.2484
頂禮	-11.2485
郡之	-11.2485
笏	-11.2489
妙喜曰	-11.2495
清香	-11.2496
隨聲	-11.2499
進一步	-11.25
因循	-11.25
查	-11.251
親證	-11.2511
蘗	-11.2512
和氣	-11.2513
唧	-11.2514
打成一片	-11.2514
今時人	-11.2516
機輪	-11.2522
數百	-11.2525
過量	-11.2527
兩班	-11.253
洽	-11.2532
宸	-11.2534
大圓鏡	-11.2537
帚	-11.2537
佛鑑懃	-11.2539
靈峰	-11.2539
浮生	-11.254
法堂前	-11.2541
丕	-11.2541
蠡	-11.2542
四諦	-11.2542
蔚	-11.2544
不與萬法為侶	-11.2546
佞	-11.2548
如何是主中主	-11.2556
擊鼓	-11.2556
戴角	-11.2561
眉間	-11.2562
硯	-11.2566
鳥語	-11.2568
枯樁	-11.2569
摵	-11.2569
更須知有	-11.2571
宮商	-11.2572
通箇消息	-11.2572
精明	-11.2573
吽	-11.2575
曹源	-11.2576
大機大用	-11.2576
蟠	-11.2577
無奈	-11.2578
披剃	-11.2586
懈怠	-11.2587
斬新	-11.2587
臨濟德山	-11.2587
蠢	-11.2588
楹	-11.2589
系	-11.2592
泠	-11.2592
未生前	-11.2598
酬價	-11.26
正當十五日	-11.26
千聖不傳	-11.2601
祖師心印	-11.2604
猛省	-11.2606
是好手	-11.261
竹杖	-11.2617
如何即是	-11.2618
驥	-11.2618
種智	-11.2619
簿	-11.2619
無虧	-11.2621
法筵	-11.2621
瀟灑	-11.2624
殃崛	-11.2624
捋虎鬚	-11.2624
把火	-11.2625
歷代	-11.2626
奯	-11.2626
普應	-11.263
千丈	-11.2631
鹿門	-11.2631
兩字	-11.2635
釋迦彌勒	-11.2635
波羅	-11.2637
堂奧	-11.2646
豐干	-11.2651
打睡	-11.2656
室內	-11.2657
塗毒鼓	-11.2658
牧童	-11.266
薙染	-11.2661
一堆	-11.2662
兼帶	-11.2664
荊棘林	-11.2674
九夏	-11.2675
料揀	-11.2676
可惜許	-11.2677
橫拈	-11.2677
昭覺勤云	-11.2678
耑	-11.2678
個事	-11.268
一口吞	-11.2681
一句作麼生	-11.2681
便休去	-11.2681
散亂	-11.2681
兀	-11.2687
煙水	-11.2687
桃華	-11.2689
拂子頭上	-11.2691
家私	-11.2692
臨筵	-11.2692
竭力	-11.2695
獰龍	-11.2695
倡	-11.2696
誕生	-11.2697
蟄	-11.2699
勁	-11.2701
!」	-11.2702
靠拄杖	-11.2702
崔嵬	-11.2704
梧桐	-11.2704
點茶	-11.2704
鹽醬	-11.2705
圓具	-11.2708
泰山	-11.271
勝負	-11.271
疑團	-11.2711
猶隔	-11.2712
隨類	-11.2715
壽山	-11.2715
註脚	-11.2716
火炬	-11.2721
澡	-11.2721
遍參	-11.2722
萬德	-11.2723
釋然	-11.2725
出身處	-11.2725
寶殿	-11.2725
贅	-11.2726
瞠	-11.273
驪珠	-11.273
以偈曰	-11.2732
毫釐	-11.2732
畫一圓相	-11.2737
下禪牀	-11.2737
放汝三十棒	-11.2737
二十餘年	-11.2742
法鼓	-11.2744
爍破	-11.2744
憚	-11.2745
壘	-11.2749
惟願	-11.275
了達	-11.2752
布毛	-11.2752
一株	-11.2755
馥	-11.2756
舁	-11.2757
雷轟	-11.2759
無所住	-11.276
金沙	-11.2761
斫額	-11.2762
一喝不作一喝用	-11.2764
佛法僧	-11.2764
可憐生	-11.2765
不滯	-11.2766
敗壞	-11.2767
一僧出	-11.2772
壽量	-11.2772
至尊	-11.2774
若約	-11.2776
追風	-11.278
歷然	-11.2781
忍辱	-11.2781
衙	-11.2783
匾	-11.2783
七十二	-11.2784
著眼看	-11.2785
靈鷲	-11.2788
右手	-11.2788
至誠	-11.2789
無面目	-11.2795
若道不得	-11.2797
婺州	-11.2798
失利	-11.2798
幾年	-11.2798
沐浴	-11.2803
督	-11.2803
生死海	-11.2809
成等正覺	-11.281
韶州	-11.2813
無餘事	-11.2815
大千沙界	-11.2816
萬法歸一一歸何處	-11.2817
梵音	-11.282
眾中莫有	-11.2821
劈脊	-11.2823
二十六	-11.2823
色界	-11.2825
屈指	-11.2828
仔細看	-11.2829
淑	-11.2835
溥	-11.2838
香水海	-11.284
無拘	-11.2842
掘地	-11.2844
觀自在	-11.2846
蒼龍	-11.2846
楚石	-11.2847
認著	-11.2848
取證	-11.2849
活人劍	-11.285
遇著	-11.2856
委曲	-11.2858
費力	-11.286
居士請上堂	-11.2861
維摩詰	-11.2866
有一僧	-11.2868
鳥窠	-11.287
摑	-11.2871
夜靜	-11.2871
畬	-11.2872
無回互	-11.2875
東山水上行	-11.2876
莫謗	-11.2878
朝廷	-11.2879
再參	-11.2882
斷滅	-11.2883
諡	-11.2884
大悅	-11.2884
矩	-11.2885
槁	-11.2887
得力處	-11.2887
延壽	-11.2892
雙眼	-11.2892
漿	-11.2893
另	-11.2893
簇簇	-11.2898
揚眉瞬目	-11.2898
青天白日	-11.2898
幾個	-11.2899
啣	-11.29
趙州茶	-11.2902
三塗	-11.2903
魔軍	-11.2904
無縫	-11.2905
風波	-11.2906
兼中到	-11.2916
水陸	-11.2916
抄	-11.2917
東邊	-11.2919
懡㦬	-11.2919
今日失利	-11.2922
涅槃妙心	-11.2923
淨業	-11.2923
重興	-11.2925
塵剎	-11.2926
百千諸佛	-11.2927
沉吟	-11.2934
漸次	-11.2934
沃	-11.2939
能有幾	-11.2944
真消息	-11.2945
笋	-11.2948
嬌	-11.2948
園林	-11.295
徒眾	-11.2951
純熟	-11.2953
頻頻	-11.2959
勦絕	-11.2959
匡山	-11.296
年多少	-11.2963
不著便	-11.2963
形骸	-11.2966
怙	-11.2967
收放	-11.2967
雪嶺	-11.2967
巡堂	-11.297
泉石	-11.2971
單單	-11.2973
孟子	-11.2974
寶劒	-11.2974
相訪	-11.2976
右邊	-11.2979
一派	-11.2979
氣宇	-11.298
師復打	-11.2982
六代祖師	-11.2983
徃	-11.2989
出匣	-11.299
汩	-11.2996
沛	-11.2997
覷著	-11.2997
胤	-11.3001
鑊湯爐炭	-11.3005
月八日	-11.3007
龍女	-11.3009
成佛作祖	-11.301
時節因緣	-11.3011
底時節	-11.3019
鐵鑄	-11.3019
幾何	-11.3023
艸木	-11.3023
此際	-11.3025
號令	-11.3031
苕	-11.3031
天晴	-11.3032
嚇	-11.3032
未敢	-11.3041
穿雲	-11.3042
點首	-11.3049
懿	-11.3052
署	-11.3052
筌	-11.3052
江河	-11.3055
札	-11.3056
笑呵呵	-11.3056
翌日	-11.3058
無量劫	-11.3058
琳	-11.3063
慚惶	-11.3065
湖州	-11.3069
蒼蒼	-11.3069
百千三昧	-11.3071
飯錢	-11.3072
梵志	-11.3079
之謂也	-11.3082
即今在甚麼處	-11.3084
偈頌	-11.3084
階前	-11.3085
功用	-11.3087
韶山	-11.3089
手足	-11.3091
演說	-11.3093
伴侶	-11.3095
平實	-11.3104
豈肯	-11.3105
薰風	-11.3105
元來是	-11.311
折合	-11.3112
此段	-11.3116
增減	-11.3118
掃除	-11.312
錘	-11.3121
感應	-11.3121
谷口	-11.3121
萍	-11.3123
離四句絕百非	-11.3123
抽身	-11.3124
瞬目	-11.3128
須彌頂上	-11.3133
剃	-11.3136
腕	-11.3137
目擊	-11.3138
個漢	-11.3139
安置	-11.3139
聽取	-11.3139
蹴	-11.3144
迢	-11.3149
萬別千差	-11.3149
涓	-11.3149
沒量	-11.315
香象	-11.3153
千百	-11.3157
上方丈	-11.3158
好個	-11.3158
從何而	-11.3162
宛轉	-11.3162
股	-11.3168
顰	-11.3171
凌霄	-11.3171
鍛	-11.3172
混沌	-11.3173
蹲	-11.3174
鷂子	-11.3174
火炬云	-11.3177
異類中行	-11.318
與一掌	-11.318
觸忤	-11.318
超佛越祖	-11.3183
一杓	-11.3187
綠楊	-11.319
真俗	-11.3194
如何是向上事	-11.3197
肌	-11.32
藹	-11.3201
耆宿	-11.3201
攙	-11.3202
楓	-11.3204
黑漫漫	-11.3206
清淨本然	-11.3208
青黃	-11.3208
壽命	-11.3209
展坐具	-11.3215
恚	-11.3218
放曠	-11.3221
夭	-11.3222
沽	-11.3222
樁	-11.3227
章敬	-11.3227
寒山子	-11.3229
訂	-11.323
千鈞	-11.323
牙齒	-11.3231
一箇半箇	-11.3234
掀倒禪床	-11.3239
有長處	-11.3242
薙髮	-11.3247
稔	-11.3249
綺	-11.3249
毅	-11.3253
宦	-11.3255
豎拂子曰	-11.3257
穩密	-11.3262
說道理	-11.3269
遼	-11.3269
淨裸裸	-11.327
毒蛇	-11.3276
毗尼	-11.3277
勘破了也	-11.3279
恰是	-11.3283
香几	-11.3284
七八	-11.3285
咫尺	-11.3288
銀山鐵壁	-11.3289
秘密	-11.329
飄飄	-11.3294
打一棒	-11.3294
根性	-11.3295
白蓮	-11.3295
擔板	-11.3297
訊	-11.33
就座	-11.33
冷灰	-11.3303
周遍	-11.3303
喚作什麼	-11.3303
西河	-11.3305
瞑	-11.3306
以兩手	-11.3308
世尊初生	-11.331
旃	-11.3311
孤危	-11.3315
江陵	-11.332
甚麼處來	-11.3321
恁麼不恁麼	-11.3322
世諦流布	-11.3322
攝受	-11.3322
即不問如何是	-11.3323
無舌人	-11.3326
香臺	-11.3326
茶湯	-11.333
舉步	-11.3331
生死大事	-11.3332
兩邊	-11.3334
燼	-11.3335
無情說法	-11.3336
魅	-11.3341
蕪	-11.3343
臉	-11.3344
靈根	-11.3344
鬚髮	-11.3344
穩坐	-11.3345
充滿	-11.3347
渭	-11.3352
依止	-11.3353
擒住	-11.3353
孕	-11.3358
煅	-11.3365
徒然	-11.3366
禮樂	-11.3371
向上一著	-11.3372
噪	-11.3374
瀟湘	-11.3376
棚	-11.3376
杷	-11.3376
罅	-11.3378
此篇	-11.338
琛	-11.3383
眾生界	-11.3383
快樂	-11.3388
自恣	-11.3391
諦觀	-11.3394
臘八	-11.3397
虎嘯	-11.3401
別峰	-11.3403
夜夜	-11.3403
牛頭未見四祖時如何	-11.3405
出家兒	-11.3405
楞伽經	-11.3406
搊	-11.3408
卓一下曰	-11.3408
些些	-11.341
妙旨	-11.3411
未離兜率	-11.3411
黑豆	-11.3411
青原下	-11.3411
若識得	-11.342
峩	-11.3421
扁	-11.3422
某等	-11.3426
安身立命處	-11.3429
和南	-11.3429
俞	-11.3432
脂	-11.3433
十世古今	-11.3434
霍	-11.3434
蓼	-11.3434
合轍	-11.3435
是那一	-11.3436
茸	-11.3436
車馬	-11.3442
溝	-11.3459
拓開	-11.3459
落第二	-11.3459
臨濟喝	-11.3461
門弟子	-11.3463
熊耳	-11.3471
我輩	-11.3471
深坑	-11.3474
對治	-11.3475
殿閣	-11.3477
猫	-11.3485
犀	-11.3485
汰	-11.3487
如何若何	-11.3491
蓑	-11.3493
單刀直入	-11.3498
唇吻	-11.35
叢裏	-11.3502
汝作麼生會	-11.3502
湛湛	-11.3505
四十九	-11.3508
四方八面	-11.3512
鞭影	-11.3517
阿耨多羅三藐三菩提	-11.352
汗下	-11.3522
騷	-11.3522
有句無句	-11.3523
賽	-11.3523
持鉢	-11.3525
兩段	-11.3525
𡎺	-11.3526
贏	-11.3526
菩薩戒	-11.3529
劈脊便棒	-11.353
搬柴	-11.353
孤峰頂上	-11.3531
相繼	-11.3532
寥廓	-11.3532
主中主	-11.3534
赤手	-11.3536
耽源	-11.3536
遑	-11.3543
『	-11.3544
卷第三	-11.3549
潼	-11.3551
柴頭	-11.3555
十五日巳前	-11.3557
孝廉	-11.3559
密菴	-11.3559
蕊	-11.356
尋思	-11.3562
甚處得來	-11.3568
此理如何	-11.3569
擊竹	-11.3573
擲拄杖	-11.3573
犢	-11.3575
槐	-11.3577
開田	-11.3577
金峰	-11.3579
盲龜	-11.3584
罔測	-11.3586
拗折	-11.3587
靣	-11.3588
狗子還有佛性也無	-11.3589
燈籠露柱	-11.359
戒律	-11.3592
舉僧問雲門	-11.3594
心空及第歸	-11.3601
鈍根	-11.3603
醬	-11.3607
進士	-11.3607
驪龍	-11.3616
鍾山	-11.3618
托缽	-11.3622
肖	-11.3623
址	-11.3627
厄	-11.3631
亂統	-11.3636
擾擾	-11.3638
什麼處去	-11.364
叢席	-11.364
鵠	-11.3642
甚分明	-11.3644
勘驗	-11.3646
追尋	-11.3646
諷	-11.3646
淵源	-11.3649
換却	-11.3654
既然如是	-11.3655
隄	-11.3661
寤	-11.3663
矧	-11.3664
歐	-11.3665
牕	-11.3666
汎	-11.3667
峙	-11.3667
過量人	-11.3668
葵	-11.367
隈	-11.3671
箭鋒	-11.3674
塗毒	-11.3675
紛紜	-11.3676
曰學人不會	-11.3676
胸次	-11.3676
竹篦子	-11.3679
契合	-11.368
普願	-11.3702
紹隆	-11.3703
佛法的的大意	-11.3704
乾矢橛	-11.3705
雲霄	-11.371
不暇	-11.3713
僧罔措	-11.3714
吞吐	-11.3716
憨山	-11.3716
噉	-11.3717
菩薩摩訶薩	-11.3723
的旨	-11.3728
河北	-11.3729
擲下拂子	-11.3735
煆煉	-11.3738
久嚮	-11.3741
悲願	-11.3744
幾番	-11.3745
淨戒	-11.3745
奮迅	-11.3753
孜孜	-11.3754
宮殿	-11.3754
鞵	-11.3759
波旬	-11.3759
不憚	-11.3761
外護	-11.3761
檢點得出	-11.3762
告眾曰	-11.3762
叉手而立	-11.3763
我當時若見	-11.3773
菩提樹	-11.3773
向上宗乘	-11.3776
頓漸	-11.3778
土木	-11.3789
舉似大眾	-11.3789
閻浮提	-11.3794
非他物	-11.3794
有二種	-11.3795
金剛王寶劍	-11.3797
穿衣喫飯	-11.3797
頭上安頭	-11.3797
今夏	-11.3798
万	-11.3803
西來大意	-11.3805
臘五十	-11.3806
佛剎	-11.3809
直捷	-11.381
白棒	-11.3811
潑天	-11.3813
露堂堂	-11.3813
都寺	-11.3817
瞿	-11.3818
夥	-11.3821
豈止	-11.3821
馱	-11.3825
薑	-11.3825
遇緣	-11.3825
濱	-11.3827
未出母胎	-11.3828
磕著	-11.384
唱和	-11.3841
祇這	-11.3841
粵	-11.3842
毘耶	-11.3842
西蜀	-11.3844
前輩	-11.3846
蹊	-11.3849
荊山	-11.3851
幽谷	-11.3859
一頭水牯牛	-11.3859
雲臻	-11.3859
不恁麼也不得	-11.386
流俗	-11.3863
毛端	-11.3867
玷	-11.3875
浣	-11.3877
老翁	-11.3878
德山棒	-11.3878
十五日巳後	-11.3887
恁麼也不得	-11.3889
李氏子	-11.3893
睫	-11.3895
含靈	-11.3898
若會得	-11.3901
東塔	-11.3904
忘機	-11.3906
報佛恩	-11.3907
蘋	-11.3907
絹	-11.3907
暄	-11.3908
形容	-11.3909
捋	-11.391
浴佛	-11.3913
崑	-11.3914
示徒	-11.3922
晚年	-11.3922
逼塞	-11.3924
把斷	-11.3924
徹證	-11.3925
張無盡	-11.3925
百城	-11.3927
羣生	-11.3927
耳朵	-11.3929
面孔	-11.3929
凝然	-11.3932
剎塵	-11.3932
心是佛	-11.3934
泄	-11.3938
漏洩	-11.3947
契證	-11.3947
得大自在	-11.3948
赤脚	-11.3951
適纔	-11.3956
霜雪	-11.3963
陜	-11.397
平地上	-11.3971
鼓山珪	-11.3972
逐物	-11.3972
扯	-11.3973
哂	-11.3976
鹹	-11.3976
三十三天	-11.3979
本來無一物	-11.398
一場懡㦬	-11.3981
大地眾生	-11.3984
修習	-11.3984
果熟	-11.3988
松源	-11.3992
戊	-11.3994
愛憎	-11.3996
情忘	-11.3996
獨許	-11.4004
皂	-11.4004
霏	-11.4006
劫火洞然	-11.4008
歬	-11.4012
著語云	-11.4016
亙古	-11.4024
只貴	-11.4026
婚	-11.4027
野鴨	-11.4033
平等性智	-11.4035
咳	-11.4036
天下太平	-11.4037
危坐	-11.4039
直指人心見性成佛	-11.4039
錢買	-11.4043
善友	-11.4043
同途	-11.4046
忽然大悟	-11.405
泗	-11.4054
左手	-11.4055
支離	-11.4056
分上事	-11.4057
蠱	-11.4058
矛	-11.4059
堆頭	-11.4059
無有是處	-11.4062
雨滴	-11.4067
謳歌	-11.4068
爛熳	-11.4069
梳	-11.407
釋迦如來	-11.4073
荊南	-11.4074
主張	-11.4076
灌溪	-11.408
茅屋	-11.4094
瀝	-11.4094
忉利	-11.4095
彊	-11.4097
翩翩	-11.4098
楫	-11.4098
鐘鳴	-11.4098
鐫	-11.4098
吾徒	-11.4098
嚗	-11.4098
判斷	-11.4101
死蛇	-11.4103
試舉看	-11.4104
法爾如然	-11.4105
有意氣時添意氣	-11.4106
退居	-11.411
掦	-11.4122
五燈全書	-11.4125
兀兀	-11.4133
作女人拜	-11.4133
拗	-11.4134
拈拄杖卓一下	-11.4136
探竿影草	-11.4136
比丘尼	-11.4141
十三年	-11.4143
玅用	-11.4143
罕遇	-11.4151
勃	-11.4154
縉紳	-11.4154
更加	-11.4157
突兀	-11.4158
若然者	-11.416
郡守	-11.4162
楊州	-11.4162
獅子兒	-11.4163
錯用心	-11.4169
臨濟正宗	-11.4174
一路涅槃門	-11.4174
珍寶	-11.4175
絮	-11.4182
復是何物	-11.4184
磐	-11.4185
又爭得	-11.4189
未在更道	-11.419
萬松道	-11.4192
幽鳥	-11.4196
端倪	-11.4197
有出身之路	-11.4197
違背	-11.4198
揚家醜	-11.4199
巳蒙師指示	-11.42
兩手分付	-11.42
賓主句	-11.42
兀坐	-11.4202
撥著	-11.421
透關	-11.4214
寇	-11.4215
稅	-11.4215
匣	-11.4215
努	-11.4216
幟	-11.4221
談笑	-11.4221
告眾	-11.4222
模樣	-11.4223
悵	-11.4226
頭戴	-11.4227
樹倒藤枯	-11.4229
以何為驗	-11.423
幡動	-11.4231
腦裂	-11.4231
手把	-11.4233
陰界	-11.4236
奄	-11.4239
標格	-11.424
吳江	-11.4243
塞斷	-11.4245
齎	-11.4248
洎合	-11.4248
述偈曰	-11.4249
告報	-11.425
鯤	-11.4254
溫州	-11.4256
甚麼處是	-11.4257
鬍	-11.4257
伏惟珍重	-11.426
闡揚	-11.426
無孔鐵鎚	-11.4261
堂頭和尚	-11.4262
漸漸	-11.4262
鼻孔遼天	-11.4264
人間天上	-11.4264
臘四十	-11.4265
茶飯	-11.4267
慾	-11.4271
怡然	-11.4273
卓拄杖一下云	-11.4276
蹉	-11.4277
最勝	-11.4278
非有非無	-11.4279
撲落	-11.4281
留不住	-11.4282
崇寧	-11.4283
綽	-11.4285
天地間	-11.4285
那裏來	-11.4292
三界唯心	-11.4295
蒙師指	-11.4298
憶昔	-11.4299
如何是主中賓	-11.4301
第三十	-11.4305
張氏子	-11.4306
悼	-11.4306
密印	-11.431
羯磨	-11.4311
烘	-11.4316
荊州	-11.4318
有情無情	-11.432
向甚處去	-11.4322
喫粥	-11.4325
撿點	-11.4326
般若波羅蜜	-11.4338
慍	-11.4338
朝朝	-11.4338
中庸	-11.4339
王氏子	-11.4341
塞却	-11.4344
揭示	-11.4349
槃	-11.435
上大人	-11.435
如何是奪人不奪境	-11.435
白拈賊	-11.4353
擿	-11.4354
走馬	-11.4354
塲	-11.4357
無多子	-11.4361
也大難	-11.4367
窣堵	-11.4375
主宰	-11.4377
瞪	-11.4379
饌	-11.438
呆	-11.4382
閨	-11.4383
癩	-11.4384
婆婆	-11.4385
珊	-11.4386
牡丹	-11.4386
放逸	-11.4386
京兆	-11.4396
無疆	-11.4398
盡大地是箇	-11.4399
o	-11.4399
骨肉	-11.4404
怯	-11.4409
寅	-11.4411
剎土	-11.4417
雙眉	-11.4418
見色明心	-11.442
庚子	-11.4422
撒沙	-11.443
丐	-11.4431
草木叢林	-11.4432
洪波	-11.4434
顧視大眾	-11.4434
谷隱	-11.4435
攘	-11.4442
囂	-11.4445
墮落	-11.4446
蘿蔔	-11.4446
三十餘年	-11.4448
維摩經	-11.4449
塹	-11.4451
牙爪	-11.4451
如喪考妣	-11.4451
少人知	-11.4451
苗稼	-11.4452
犀牛	-11.4455
荷負	-11.4455
頂門眼	-11.4457
劃一劃	-11.4458
孚上座	-11.4459
如何是奪境不奪人	-11.4462
_	-11.4464
落在第二	-11.4465
第八識	-11.4466
舌根	-11.4467
直透	-11.4474
全體現	-11.4475
隨例	-11.4477
如何是人境俱不奪	-11.448
翰林	-11.4481
切切	-11.4481
聯芳	-11.4483
昭昭	-11.4484
不相干	-11.4487
賁	-11.4506
光景	-11.451
曹洞宗	-11.4511
啐啄	-11.4517
還許學人	-11.4525
謝師答話	-11.4526
阿那箇是	-11.4526
一等是	-11.4528
禪師法嗣二人	-11.4529
不得動著	-11.4529
是第幾	-11.453
何須更	-11.4533
迂	-11.4536
十方三世	-11.4536
毒手	-11.4538
槎	-11.4541
禁足	-11.4542
超群	-11.4542
箬	-11.4543
諷經	-11.4544
子細看	-11.4545
懸崖撒手	-11.4547
橘	-11.4549
向上一竅	-11.4555
賜紫	-11.4558
一條拄杖	-11.4559
汾州	-11.4559
無障礙	-11.4567
南詢	-11.4568
鏤	-11.4573
無妨	-11.4574
茨	-11.4574
筋斗	-11.4578
芋	-11.4579
召大眾曰	-11.4581
師意如何	-11.4582
波波	-11.4582
朔風	-11.4584
漁翁	-11.4585
狸奴白牯	-11.4587
爆竹	-11.4589
爭敢	-11.4592
僉	-11.46
騎驢	-11.4603
一人見錄	-11.4606
梁武帝	-11.4608
皮膚	-11.461
沒絃琴	-11.4613
眨	-11.4614
接物利生	-11.4615
唯嫌揀擇	-11.4621
在半途	-11.4621
昏沉	-11.4623
搆得	-11.4625
瞥爾	-11.4626
罰錢	-11.4626
蹇	-11.4627
與麼說話	-11.463
懈	-11.463
設利	-11.4635
貪欲	-11.4636
篾	-11.4636
落在甚麼處	-11.4637
本命元辰	-11.4643
躊躇	-11.4645
從東過西	-11.4645
弄巧成拙	-11.4647
疊疊	-11.4651
周遮	-11.4652
𠊳	-11.4653
華頂	-11.4655
魔宮	-11.4656
只是箇	-11.4663
具威儀	-11.4665
砥	-11.4667
憑何	-11.4668
堂司	-11.467
煙波	-11.4671
棋	-11.4672
潭吉	-11.4673
磊	-11.4676
無本可據	-11.4677
腦門	-11.4679
大慧杲	-11.468
向外馳求	-11.468
省覲	-11.4681
三日後	-11.4682
劈頭	-11.4684
廬陵	-11.4688
鬼窟裏	-11.469
近代	-11.4693
太阿	-11.4694
臆	-11.4696
有時一喝	-11.4708
嬴	-11.471
碌碌	-11.4712
秤鎚	-11.4714
雪上加霜	-11.4714
聞聲悟道	-11.4716
草賊大敗	-11.4717
用酬法乳之恩	-11.4719
家鄉	-11.4731
雲霧	-11.4735
圓覺經	-11.4737
眨眼	-11.4739
衣服	-11.474
控	-11.474
岌	-11.4741
逢場作戲	-11.4745
撫州	-11.4746
曬	-11.4747
據室	-11.4748
倒卓	-11.4749
蔣	-11.4753
湛寂	-11.4754
咬著	-11.4754
向人前	-11.4757
業障	-11.476
南康	-11.4762
手握	-11.4767
奇怪	-11.4772
形影	-11.4774
雙忘	-11.4776
鬼窟	-11.4777
瀟	-11.4777
法社	-11.4778
何啻	-11.4778
孺人	-11.478
無覓處	-11.478
傀儡	-11.4784
孤舟	-11.4789
悄然	-11.479
萬般	-11.4794
赦	-11.4797
那裡	-11.4797
金蓮	-11.4801
娛	-11.4802
酣	-11.4803
大眾會麼	-11.4808
矮	-11.481
異熟	-11.4811
笙歌	-11.4813
斬釘截鐵	-11.4815
壽七十	-11.4816
浮漚	-11.4817
瞥然	-11.4817
猶較	-11.4819
無佛處急走過	-11.482
兒戲	-11.4822
點燈	-11.4823
祥雲	-11.4824
越格	-11.4833
謨	-11.4836
事事無礙	-11.4836
慙	-11.4837
狗子無佛性話	-11.4838
誾	-11.4838
忽有省	-11.4839
周沙界	-11.4843
浩然	-11.4844
擊禪牀	-11.4845
雲從龍	-11.4846
把斷要津	-11.4848
不從人得	-11.4848
白牯	-11.485
十萬八千	-11.4851
會末後句	-11.4853
豎拄杖云	-11.4855
仍舊	-11.4855
如何是賓中主	-11.4859
如何是道中人	-11.486
伺	-11.4864
蛻	-11.4865
當恁麼時	-11.4865
愽	-11.4868
黏	-11.4869
些兒	-11.4869
舉僧問趙州	-11.4871
戟	-11.4872
宣揚	-11.4876
祕密	-11.4877
豈不聞	-11.4877
封疆	-11.4879
臭氣	-11.488
日午打三更	-11.4881
慶忠	-11.4889
降伏	-11.4895
伸手	-11.4897
惰	-11.4899
躅	-11.4901
粹	-11.4901
結夏上堂	-11.4902
踊躍	-11.4905
構	-11.4905
八十四	-11.4907
諲	-11.4908
圃	-11.4909
續收	-11.491
黃鶴樓	-11.4913
滯貨	-11.4913
絡索	-11.4914
鏟	-11.4915
這个	-11.4916
新長老	-11.4916
官不容針	-11.492
卷第四	-11.4922
星斗	-11.4928
海闊	-11.4934
屯	-11.4935
廩	-11.4937
嬉	-11.4937
樊	-11.4937
胥	-11.4938
芬	-11.4941
馨	-11.4942
歧	-11.4942
酬恩	-11.4942
簸	-11.4944
籮	-11.4945
執侍	-11.4945
嚬呻	-11.4947
敗缺	-11.4948
去此二途	-11.4952
湖海	-11.4954
此瓣香	-11.4961
効	-11.4962
平昔	-11.4967
第二座	-11.4968
庇	-11.497
西川	-11.4975
城市	-11.4975
透網金鱗	-11.4977
結茅	-11.498
觀音大士	-11.4983
智慧德相	-11.4984
禪板	-11.4986
私通車馬	-11.4986
一棒打殺	-11.4987
無繩自縛	-11.4988
般涅槃	-11.4993
鈞	-11.4994
嫉	-11.5
現前大眾	-11.5
講肆	-11.5004
無生法忍	-11.5012
修多羅	-11.5013
黑暗	-11.5015
梵網	-11.5015
烜赫	-11.5017
密室	-11.5019
不見一法	-11.5019
蓮池	-11.502
目前無法	-11.5022
驚群	-11.5022
不二門	-11.5023
無量無邊	-11.5027
郢州	-11.5034
裨	-11.5035
十七年	-11.5036
瘴	-11.5037
偏枯	-11.5041
鵞	-11.5043
頓息	-11.5045
踏斷	-11.5045
吽吽	-11.505
正恁麼時如何	-11.505
不許夜行	-11.505
千古萬古	-11.505
㘞地一聲	-11.5051
僧回舉似	-11.5052
勤苦	-11.5052
木馬嘶	-11.5054
尾巴	-11.5054
甘贄	-11.5056
臺山路	-11.5059
三十二相	-11.5061
寒梅	-11.5065
三十年前	-11.5065
六趣	-11.5066
竄	-11.5067
痛快	-11.5069
趺	-11.5071
地水火風	-11.5071
是何言歟	-11.5082
當觀時節因緣	-11.5082
歸何所	-11.5083
紗	-11.5083
壽八十	-11.5086
叶	-11.5105
全憑	-11.5105
熱惱	-11.5109
孽	-11.511
雞足	-11.5111
螢	-11.5111
任縱橫	-11.5117
啐	-11.5117
貧窮	-11.5117
再拜	-11.5118
弄精魂	-11.5122
山僧則不然	-11.5124
淨穢	-11.5128
提掇	-11.5128
栽松	-11.5135
羅剎	-11.5139
俗諦	-11.5139
完全	-11.514
吐氣	-11.5144
臘八上堂	-11.5147
枝枝	-11.5148
啾啾	-11.5149
操履	-11.515
繫驢橛	-11.5153
拍禪牀	-11.5156
提刑	-11.5158
有佛處不得住	-11.5162
件事	-11.5162
利養	-11.5164
豎起拳	-11.5167
三千界	-11.5169
訟	-11.517
過新羅	-11.5171
白巖符云	-11.5181
退院	-11.5182
賞罰	-11.5186
如水中月	-11.5189
雪屈	-11.5191
率眾	-11.5195
金剛般若	-11.5195
田園	-11.5209
佛與眾生	-11.521
告之曰	-11.5211
袴	-11.5213
晶	-11.5213
前後際斷	-11.5216
鷺鷥	-11.5217
啼鳥	-11.5218
笊籬	-11.5219
五濁	-11.522
著精彩	-11.5221
石火電光	-11.5223
無根樹	-11.5227
自家底	-11.5234
宗猷	-11.5247
睦	-11.5248
聒	-11.5253
服勤	-11.5257
謠	-11.5259
事不獲巳	-11.5262
直下便	-11.5262
煎茶	-11.5264
風幡	-11.5265
護惜	-11.5265
浮圖	-11.5274
擕	-11.5274
少頃	-11.5275
隘	-11.5284
漪	-11.5287
篙	-11.5287
哥	-11.5288
百千萬	-11.5288
心外無法	-11.5289
儒釋	-11.5289
無恙	-11.5292
濟北	-11.5294
伽陀	-11.5294
森森	-11.5295
牓	-11.5295
面門出入	-11.5296
春風吹	-11.5296
醫王	-11.5297
陀羅	-11.5297
張弓	-11.53
手腳	-11.53
淨潔	-11.5302
若也會得	-11.5316
法林音	-11.5316
漠	-11.5317
循環	-11.5317
菓	-11.5322
涇	-11.5325
恰恰	-11.5325
孟八郎	-11.5325
披毛戴角	-11.5326
無縫罅	-11.5327
伽黎	-11.5328
勸君	-11.5328
無交涉	-11.5328
風從虎	-11.5329
搔	-11.5329
針鋒	-11.5332
乙巳	-11.5341
百姓	-11.5342
戾	-11.5344
雷霆	-11.5345
何故聻	-11.5346
文字語言	-11.5347
瓔珞	-11.5347
郢	-11.5349
大鑑下	-11.5353
苴	-11.5355
蘚	-11.5357
苕帚	-11.5359
鑼	-11.5361
滹沱	-11.5363
儕	-11.5363
是凡是聖	-11.5364
四月八日	-11.5365
無法可說	-11.5366
上頭關	-11.5366
橫按拄杖	-11.5368
如何是第一句	-11.5371
謝師指示	-11.5373
應喏	-11.5374
䭾	-11.5379
招提	-11.5379
拽拄杖	-11.5381
躭	-11.5383
兩浙	-11.5389
善自護持	-11.539
肱	-11.5391
築著磕著	-11.5396
透頂透底	-11.5398
秤錘	-11.5398
三生六十劫	-11.5402
迥絕	-11.541
反覆	-11.541
舉起拂子	-11.5411
荅話	-11.5413
視聽	-11.5414
藕絲	-11.5415
戍	-11.5421
豫章	-11.5421
慟	-11.5423
劑	-11.5426
懵	-11.5427
肺	-11.5427
鵶	-11.5427
摟	-11.543
為甚如此	-11.543
摘楊花	-11.5437
廊下	-11.5437
白晝	-11.5437
芬芳	-11.5438
普天匝地	-11.5438
以拂子擊禪床	-11.5441
彩鳳	-11.5443
拽杖	-11.5443
提起坐具	-11.5444
八面玲瓏	-11.5451
詬	-11.5453
礪	-11.5454
逗到	-11.5458
渝	-11.5459
雕琢	-11.547
錯錯	-11.5473
克家	-11.5476
還信得及麼	-11.5476
巨海	-11.5479
龐老	-11.548
久立珍重	-11.5485
破衲	-11.549
兼中至	-11.5495
喏	-11.5502
漳	-11.5503
祖師西來意	-11.5506
剔起眉毛	-11.5506
東去西去	-11.5508
大庾嶺頭	-11.5513
赤骨	-11.5514
艷	-11.5515
禍福	-11.5518
三匝	-11.5521
侮	-11.5523
悉達	-11.5524
你問我	-11.5528
及第	-11.5531
五祖戒	-11.5531
鏗	-11.5532
敲唱	-11.5532
黍	-11.5535
十一世	-11.5535
昭昭靈靈	-11.5538
繫縛	-11.5541
面南看北斗	-11.5544
解夏上堂	-11.5544
爭怪得	-11.5549
蘄州	-11.5559
順逆	-11.5567
簫	-11.557
尊卑	-11.5572
峰巒	-11.5573
交加	-11.5575
殃及兒孫	-11.5578
丹霄	-11.558
懃	-11.5581
如麻似粟	-11.5582
因齋慶讚	-11.5585
內翰	-11.559
松柏	-11.5596
未兆	-11.5597
棃	-11.5605
迄	-11.5605
粲	-11.5606
企	-11.5606
砧	-11.5607
鈯斧	-11.5611
展演	-11.5612
一見便	-11.5613
放光動地	-11.5614
遲遲	-11.5616
褲	-11.5616
如或未然	-11.5618
肇法師	-11.5626
熱瞞	-11.5631
倐	-11.5632
慈航	-11.5632
爵	-11.5633
拶著	-11.5633
憍	-11.5634
豪傑	-11.5636
浹	-11.5638
百尺	-11.564
廷	-11.564
腳踏	-11.5642
愕然	-11.5646
闌干	-11.5647
慈受深	-11.5647
活鱍鱍	-11.5648
化導	-11.5649
天寧琦	-11.5649
雞鳴	-11.565
驀直去	-11.5652
也不消得	-11.5653
千里同風	-11.5655
所以古人道	-11.5655
喫粥喫飯	-11.5657
波羅提	-11.5663
覆船	-11.5663
豎指	-11.5666
澧州	-11.5672
剃染	-11.5673
庚申	-11.5674
忤	-11.5676
溯	-11.568
真偽	-11.5682
巍巍堂堂	-11.5684
廓然無聖	-11.5686
生死根本	-11.5686
陜府鐵牛	-11.5687
撩起便行	-11.5688
我手何似佛手	-11.5688
主人翁	-11.5688
奔走	-11.5689
冰霜	-11.569
朝打三千	-11.5697
知端的	-11.5697
還有過也無	-11.5699
途轍	-11.5699
犂	-11.5713
羸	-11.5713
芟	-11.5716
蟹	-11.5719
串	-11.5719
湫	-11.5719
詣方丈	-11.5723
重七斤	-11.5725
衡陽	-11.5727
諸佛諸祖	-11.5734
垂語云	-11.5735
渴飲	-11.5735
水潦	-11.5736
向上機	-11.5739
普陀	-11.574
藤條	-11.575
頰	-11.5756
襯	-11.5756
惆悵	-11.5757
出來道看	-11.5758
俏	-11.5758
近傍	-11.5758
老婆禪	-11.5758
荊棘林中	-11.5759
懺罪	-11.5762
周行七步	-11.5764
擎拳	-11.5767
堪作甚麼	-11.5775
呈偈	-11.5779
僧擬進語	-11.5782
璋	-11.5782
倪	-11.5786
玉線	-11.5788
駝	-11.5791
好醜	-11.5791
乞兒	-11.5795
丈六	-11.5797
風行草偃	-11.5799
溈山問仰山	-11.5801
海印信	-11.5802
断	-11.5804
巽	-11.5808
甲申	-11.5818
酷	-11.5821
電掣	-11.5824
階梯	-11.5829
鶖子	-11.5831
嘿	-11.5831
敷揚	-11.5834
妙訣	-11.5834
飲酒	-11.5834
鷓鴣	-11.5835
從西過東	-11.5836
摩訶迦葉	-11.5836
會稽	-11.5838
格物	-11.5845
毒氣	-11.5845
隨他去	-11.5858
閃	-11.5862
釜	-11.5862
疏鈔	-11.5865
滇	-11.5869
一刀兩段	-11.5869
嗄	-11.5872
調伏	-11.5875
疑惑	-11.5876
新年頭佛法	-11.5876
3	-11.5885
從上宗乘	-11.5888
讀誦	-11.5892
崛	-11.5893
關捩子	-11.5894
憾	-11.5895
醇	-11.5899
銕牛	-11.59
持缽	-11.5904
塞北	-11.5904
颼	-11.5905
緯	-11.5905
放大光明	-11.5906
簣	-11.5906
籠罩	-11.5907
鹿苑	-11.591
如何是賓中賓	-11.592
耿	-11.5935
大丈夫漢	-11.5935
閬	-11.5936
隍	-11.5936
迄今	-11.5939
無罣礙	-11.5942
銖	-11.5942
觴	-11.5944
餧	-11.5945
釘橛	-11.5946
空劫巳前	-11.5946
沉沉	-11.5947
能為萬象主	-11.595
毘尼	-11.595
法筵龍象眾當觀第一義	-11.5955
是一是二	-11.5956
拈起拂子	-11.5963
你們	-11.5968
壬子	-11.5974
滔天	-11.5975
闐	-11.5975
急著眼	-11.5982
癸未	-11.5987
十方同聚會	-11.5993
孤峻	-11.5997
頂戴	-11.6002
悠然	-11.6006
參禪學道	-11.6007
讚嘆	-11.6009
設齋請上堂	-11.6021
一狀領過	-11.6025
還知落處麼	-11.6029
鵝湖	-11.6033
准	-11.6048
鷲	-11.6048
奸	-11.6048
踪跡	-11.6051
彌勒下生	-11.6056
出常情	-11.6057
蒂	-11.6058
家醜	-11.606
降誕	-11.6062
不逐四時凋	-11.6063
放不下	-11.6075
丞	-11.6076
半斤	-11.6079
訢	-11.6079
氈	-11.6091
巫	-11.6091
套	-11.6096
地軸	-11.6096
撥草瞻風	-11.6098
咬嚼	-11.6099
荳	-11.6099
柏樹子	-11.6099
耀古騰今	-11.6101
良醫	-11.6102
噓一聲	-11.6107
辯才	-11.6111
雲門偃	-11.6113
涓滴	-11.612
鬻	-11.6121
瑣	-11.6128
如大火聚	-11.6129
猒	-11.613
蒼苔	-11.6134
竪拂子	-11.6138
錯認定盤星	-11.6139
皋	-11.614
不為分外	-11.6145
英靈漢	-11.6148
端坐而逝	-11.6155
贖	-11.6155
悖	-11.6157
雌	-11.6158
潺潺	-11.6169
釣竿	-11.6173
彙	-11.6173
紫柏	-11.6175
剎剎	-11.6175
澂	-11.6175
賊過後張弓	-11.6175
恁麼不恁麼總不得	-11.6176
烈燄	-11.6177
攃	-11.6177
𥁞	-11.6181
濡	-11.6198
汾	-11.62
榮辱	-11.6202
迅雷	-11.6204
轆轆	-11.621
赤條條	-11.6211
蹉跎	-11.6211
洗鉢盂	-11.6213
惡辣	-11.6216
都尉	-11.6216
積翠	-11.6218
勞而無功	-11.6218
拈香云此一瓣香	-11.6218
武陵	-11.6219
師亦打	-11.6221
潛蹤	-11.6222
一片田地	-11.6226
斜陽	-11.6228
隔礙	-11.6241
攫	-11.6242
咄咄	-11.6243
野鶴	-11.6246
金毛獅子	-11.6248
勉強	-11.6249
葉落歸根	-11.625
無夢無想	-11.6251
忌諱	-11.6251
苦惱	-11.6252
實際理地	-11.6254
一絲頭	-11.6255
萬里無雲	-11.6257
修山主	-11.6268
翕	-11.6276
嗚	-11.6277
抉	-11.6279
壅	-11.6279
哀哉	-11.6279
琊	-11.6281
盻	-11.6282
少分相應	-11.6289
蕉	-11.6289
酒肆	-11.6289
黃面瞿曇	-11.6289
复	-11.6296
白椎竟	-11.6296
喫粥了也	-11.6298
仙陀	-11.6303
丁亥	-11.6313
作主宰	-11.6314
剃頭	-11.6314
紺	-11.6319
徹困	-11.6319
勛	-11.6322
鵰	-11.6324
蒺藜	-11.6326
無陰陽地	-11.6326
决	-11.6329
混融	-11.6332
千人萬人	-11.6332
入頭處	-11.6332
長連床上	-11.6334
調御	-11.6336
泗州	-11.6339
漳州	-11.6342
廓徹	-11.6346
浙江	-11.6348
猛利	-11.6349
筋骨	-11.6354
百億須彌	-11.6358
茹	-11.6363
𨤲	-11.6363
無去無來	-11.6363
十餘載	-11.6364
未夢見	-11.6365
鈍漢	-11.6368
層層	-11.6368
瘂	-11.637
夔	-11.637
冥冥	-11.637
驢鳴	-11.638
丙丁	-11.6386
𩯭	-11.639
來時路	-11.639
洗脚	-11.639
空王殿	-11.6391
酬唱	-11.6395
仇	-11.6395
霈	-11.6397
藂林	-11.6402
忉忉	-11.6403
挂搭	-11.6404
君臣道合	-11.6405
天堂地獄	-11.6406
年七十	-11.6407
不是目前法	-11.641
薜	-11.641
浴佛上堂	-11.6411
直至而今	-11.6411
能殺能活	-11.6412
剎剎塵塵	-11.6414
馴	-11.6433
鑾	-11.6434
今宵	-11.6439
袞	-11.6441
嘔	-11.6441
絕後再甦	-11.6445
呵佛罵祖	-11.6446
南山起雲	-11.6454
弟兄	-11.6454
廡	-11.6473
最上乘	-11.6483
無常迅速	-11.6484
掀倒禪牀	-11.6484
亘古亘今	-11.6485
衡嶽	-11.6486
彬	-11.6489
是法住法位	-11.6492
野干	-11.6495
魚躍	-11.6495
暮打八百	-11.6497
道一句看	-11.6499
忠孝	-11.6499
A	-11.6499
僧纔出	-11.6503
俗姓	-11.6504
屨	-11.6513
丁酉	-11.6514
炎炎	-11.6518
筒	-11.6519
齒牙	-11.6521
鐵壁銀山	-11.6524
佛成道日	-11.6524
紳衿	-11.653
眾纔集	-11.6532
乳峰	-11.6537
十方坐斷	-11.655
釵	-11.6554
䖍	-11.6555
幞頭	-11.6558
槍	-11.6559
翰墨	-11.656
鹵	-11.6561
皺	-11.6562
聲未絕	-11.6563
妒	-11.6563
曙	-11.6567
恁麼告報	-11.6575
且坐喫茶	-11.6577
娥	-11.6596
薇	-11.6599
蝸	-11.66
一代時教	-11.6601
糝	-11.6601
邃	-11.6606
隹	-11.6606
水到渠成	-11.6606
遇緣即宗	-11.6608
踢翻	-11.6609
樓閣門開	-11.661
士庶	-11.6615
草鞋錢	-11.6617
懸河	-11.6629
眩	-11.6631
雷奔	-11.6632
濺	-11.6642
烈焰	-11.6643
又且不然	-11.6647
饑來喫飯	-11.6648
入泥入水	-11.6648
吾有正法眼藏	-11.6649
竪起拳	-11.6654
過去諸佛	-11.6656
指法座云	-11.6658
艮	-11.6662
黃面老	-11.6675
顓	-11.6676
綵	-11.6677
西竺	-11.6679
悽	-11.6683
寢食	-11.6686
年窮歲盡	-11.6687
萬里無寸草	-11.6689
世間相常住	-11.6692
兩重公案	-11.6699
旛動	-11.67
惻	-11.6707
囚	-11.6714
皋亭	-11.6715
襪	-11.6719
臧	-11.6721
摩訶衍	-11.6722
棠	-11.6722
氛	-11.6723
抽釘拔楔	-11.6725
善財童子	-11.6725
傳燈錄	-11.6726
薰風自南來	-11.6732
掃蕩	-11.6735
恙	-11.6738
U	-11.674
Z	-11.674
O	-11.674
蛟龍	-11.6741
世壽七十	-11.6757
鏘	-11.6765
沉淪	-11.6765
月朔	-11.6766
明暗色空	-11.6769
四大五蘊	-11.6771
白浪滔天	-11.6772
元正啟祚	-11.6773
庭前栢樹子	-11.6773
升座	-11.6777
閫外	-11.6778
P	-11.678
R	-11.678
京都	-11.6784
撞倒	-11.6786
堵	-11.6799
裩	-11.6799
簪	-11.68
航海	-11.68
袂	-11.6805
應物現形	-11.6807
水逆流	-11.6807
閃爍	-11.6811
一切時中	-11.6812
先照後用	-11.6817
寶坊	-11.6818
捩	-11.682
閉目	-11.6823
罹	-11.6825
豈無方便	-11.6825
我會也	-11.6827
亢	-11.683
甲寅	-11.6836
丁丑	-11.6838
抝	-11.6839
甑	-11.6844
核	-11.6844
鼻孔撩天	-11.6846
唎	-11.6848
眨上眉毛	-11.6849
頭出頭沒	-11.685
腰包	-11.6853
為眾竭力	-11.6858
絲髮	-11.6861
熏習	-11.6868
誥	-11.6876
窒	-11.6878
翥	-11.6883
五位君臣	-11.6884
深深海底行	-11.6888
誕辰	-11.689
渤	-11.689
一串穿	-11.6891
泥牛吼	-11.6894
露柱燈籠	-11.6894
瑯瑘	-11.6896
紙墨	-11.6896
波羅密	-11.6896
先用後照	-11.6898
聽吾偈曰	-11.6908
點胸	-11.691
綫	-11.6913
笙	-11.6921
蹙	-11.6923
身口意	-11.6924
天竺國	-11.6925
疋	-11.693
鷓鴣啼	-11.6931
莫言不道	-11.6931
知恩報恩	-11.6932
杲日當空	-11.6936
棲泊	-11.6936
蓮社	-11.6937
是何意旨	-11.6937
掌握	-11.6947
法身邊事	-11.695
歸堂喫茶	-11.6961
撓	-11.6962
限量	-11.6963
謐	-11.6969
翻筋斗	-11.6971
鬆	-11.6971
鼈鼻	-11.6971
千差萬別	-11.6974
自何來	-11.6975
侍御	-11.6977
海晏河清	-11.6978
有句無句如藤倚樹	-11.6979
擔板漢	-11.698
照用不同時	-11.698
驀豎拂子云	-11.6981
佛未出世時如何	-11.6984
召眾曰	-11.6988
蒞	-11.6995
百獸	-11.6997
垂語曰	-11.7008
夜明簾外	-11.701
一口氣不來	-11.7014
鬱鬱	-11.7014
囫圇	-11.7016
恩大難酬	-11.7016
烏臼	-11.7022
顧視左右云	-11.7023
貴圖天下太平	-11.7024
心不負人	-11.7024
示誨	-11.7034
挫	-11.7037
瓊樓	-11.7039
菽	-11.7042
批	-11.7044
庄	-11.7048
心空及第	-11.7048
顱	-11.7049
蓆	-11.705
磯	-11.7053
蜆	-11.7054
俯仰	-11.7055
跛鱉	-11.7056
無風起浪	-11.7058
萬象之中獨露身	-11.7058
撾鼓	-11.7059
氣宇如王	-11.706
掖	-11.7081
衒	-11.7086
庾	-11.7091
鎧	-11.7092
弼	-11.7093
漱	-11.7096
脫或未然	-11.7098
鳧	-11.7098
狗子佛性	-11.7099
膊	-11.7099
溶	-11.71
驢胎馬腹	-11.7101
把手共行	-11.7101
傘	-11.7102
菱	-11.7103
雪嶠	-11.7103
浪滔天	-11.7105
金毛師子	-11.7111
心地法門	-11.7112
知去處	-11.7122
剌史	-11.7122
酧	-11.7126
丙辰	-11.7127
顧左右曰	-11.7128
摩訶般若	-11.7137
拈起拄杖曰	-11.7139
灸	-11.714
􂋧	-11.7143
韶國師	-11.7143
問僧甚處來	-11.7145
圈繢	-11.7148
是恁麼人	-11.7152
稷	-11.7165
泐	-11.7165
壬午	-11.7168
貪瞋癡	-11.7171
邏	-11.7177
篩	-11.7179
貝葉	-11.7179
璽	-11.7182
莓苔	-11.7182
除夜小參	-11.7183
西來祖意	-11.7183
無二無別	-11.7184
青黃赤白	-11.7184
諗	-11.7184
依而行之	-11.7186
無間歇	-11.7186
一二三四五	-11.7188
拈掇	-11.7189
目顧四方	-11.7189
十方薄伽梵	-11.7195
有問有答	-11.7195
桃源	-11.7199
祥符	-11.7199
羮	-11.7201
不妨奇特	-11.7206
孺	-11.7211
詆	-11.7213
娑羅	-11.7215
透長安	-11.7216
痾	-11.7219
汪洋	-11.722
垛	-11.7221
朕兆	-11.7223
櫓	-11.7223
現寶王剎	-11.7225
鷂子過新羅	-11.7227
禪寺住持	-11.7227
如何是人境兩俱奪	-11.7227
曳杖	-11.7229
別是一	-11.723
甚奇怪	-11.7232
德山入門便棒	-11.7232
劈脊便打	-11.7235
百千法門	-11.7236
4	-11.7237
龜毛拂	-11.7249
繹	-11.7256
遐邇	-11.7257
瀆	-11.7258
喉	-11.7258
耘	-11.7262
峨嵋	-11.7265
䭔	-11.7267
逢人不得錯舉	-11.727
翠巖芝云	-11.727
相去幾何	-11.7271
正令全提	-11.7272
功不浪施	-11.7273
人人盡有	-11.7274
放過即不可	-11.7278
此是選佛場	-11.7279
根株	-11.728
眼睫	-11.7281
戮	-11.729
讐	-11.7294
康熈	-11.73
怖畏	-11.7303
吻	-11.7303
搦	-11.7304
好事不如無	-11.731
萼	-11.7313
雷震	-11.7318
土塊	-11.7322
僧擬議師便打	-11.7334
糠	-11.7344
剃落	-11.735
冽	-11.735
縵	-11.735
簸箕	-11.7353
妥	-11.7353
拂袖而出	-11.7356
一生參學事畢	-11.7357
料掉沒交涉	-11.7357
猛烈	-11.7358
點鐵成金	-11.736
雞啼	-11.7361
放一線道	-11.7362
暹	-11.7365
患聾	-11.7368
澄澄	-11.7369
碧眼胡僧	-11.7372
彈指一下	-11.7373
戊戌	-11.7385
驛	-11.7388
弩	-11.7388
瓣	-11.7388
阿育王	-11.7391
貪嗔癡	-11.7395
加鞭	-11.7395
可知禮也	-11.7396
蓋天蓋地	-11.7399
峭巍巍	-11.74
朵朵	-11.74
彫	-11.7402
揮拂子云	-11.7403
昱	-11.7406
戊申	-11.7426
忖	-11.7428
腑	-11.7433
兜	-11.7434
箋	-11.7436
踴躍	-11.7436
甄別	-11.7437
六度萬行	-11.7437
當斷不斷	-11.7441
有頭無尾	-11.7442
天地懸殊	-11.7445
吹毛劍	-11.7447
作佛法商量	-11.7447
圍爐	-11.7447
銅頭鐵額	-11.7447
雙眸	-11.7464
棱	-11.7466
自利利他	-11.7474
橐	-11.7479
女子出定	-11.748
胞胎	-11.7483
和盤托出	-11.7485
無背面	-11.7485
大地無寸土	-11.7488
轉凡成聖	-11.7488
話作兩橛	-11.7488
直截根源	-11.749
堆堆	-11.7492
三世諸佛不知有	-11.7492
耆婆	-11.7497
艶	-11.7509
如何是清淨法身	-11.7511
佑	-11.7514
馭	-11.7517
屹	-11.7518
鴆	-11.7518
賸	-11.7518
祁	-11.752
作麼生說箇	-11.7523
蘸	-11.7523
門庭施設	-11.7526
投明須到	-11.7527
依俙	-11.7528
行棒行喝	-11.7528
逼人寒	-11.7529
折旋俯仰	-11.7529
丫	-11.753
瓠	-11.753
萬古碧潭空界月	-11.7533
沒量大人	-11.7533
行此令	-11.7538
倣	-11.7558
鉅	-11.7559
霸	-11.7567
馬蹄	-11.7568
裸	-11.7571
七穿八穴	-11.7573
掃帚	-11.7573
咳嗽	-11.7574
椅	-11.7574
噎	-11.7574
眉鬚墮落	-11.7575
漁歌	-11.7575
望州亭	-11.7576
賀太平	-11.7579
龍蟠	-11.7581
臨濟入門便喝	-11.7581
北山下雨	-11.7582
玄覺云	-11.7585
袁州	-11.7593
苾	-11.7599
鑠	-11.7606
從甚麼處	-11.7607
膿	-11.7608
墀	-11.761
滓	-11.7611
廻	-11.7612
郵	-11.7613
卞	-11.7614
苦瓠連根苦	-11.7615
智不是道	-11.7619
自由自在	-11.7622
5	-11.7631
𢬵	-11.7645
纍	-11.7648
諄諄	-11.765
碍	-11.7651
貧賤	-11.7653
複	-11.7655
嚧	-11.7658
中有一寶	-11.7661
歸家穩坐	-11.7664
填溝塞壑	-11.7664
不可說不可說	-11.7664
榆	-11.7665
以手掩	-11.7666
太傅	-11.7671
古佛家風	-11.7681
㗭	-11.7697
毳	-11.7701
赫赫	-11.7702
狹路相逢	-11.7702
欲識佛性義	-11.7705
更待何時	-11.7709
七顛八倒	-11.771
英俊	-11.7712
超佛越祖之談	-11.7719
箇入路	-11.7728
辛亥	-11.7735
謫	-11.7736
塵塵剎剎	-11.7738
湮	-11.7744
油餈	-11.7745
青州布衫	-11.7749
撇	-11.775
撿點將來	-11.775
􂐔	-11.7754
不得錯舉	-11.7756
貶剝	-11.7758
話頭也不識	-11.7758
關棙子	-11.7758
血脈	-11.7759
苐	-11.7759
有事在	-11.7774
蛤	-11.7778
轅	-11.7782
丙寅	-11.7782
裰	-11.7785
涸	-11.7787
狸奴	-11.7789
九垓	-11.7792
椒	-11.7792
鰕	-11.7792
出門便是草	-11.7797
十智同真	-11.78
日日是好日	-11.78
泥團	-11.78
逐塊	-11.7802
鉢囊	-11.7804
總不與麼	-11.7815
百草頭邊	-11.7818
輻	-11.7826
疼	-11.7831
榛	-11.7832
蛾	-11.7836
襄陽	-11.784
破顏微笑	-11.784
况	-11.7843
污染	-11.7845
能縱能奪	-11.7846
烏石嶺	-11.7846
惱亂春風卒未休	-11.7847
伶俐衲僧	-11.7852
狗子無佛性	-11.7879
勗	-11.788
蓬萊	-11.7883
睜	-11.7888
粉骨碎身	-11.789
眺	-11.7891
人境俱奪	-11.7896
誰是知音	-11.7896
摘茶	-11.7899
罽賓	-11.7908
癸卯	-11.7916
葺	-11.7919
纓	-11.7922
翠峰顯	-11.7923
劬勞	-11.7924
肋	-11.7926
狸	-11.7927
崙	-11.793
窖	-11.7931
古南門	-11.7931
動容揚古路	-11.7933
非耳目之所到	-11.7937
西天四七	-11.7938
邱	-11.7942
如何領會	-11.7951
悄	-11.7966
婆娑	-11.797
膩	-11.7976
休去歇去	-11.7979
九九八十一	-11.798
快便難逢	-11.7982
大通智勝佛	-11.7982
萬法唯識	-11.7982
奔馳	-11.7983
僧禮拜師乃云	-11.8001
癸丑	-11.8005
癸亥	-11.8008
泮	-11.801
禧	-11.8012
纂	-11.8014
菲	-11.8017
喘	-11.8018
頭正尾正	-11.8024
瀑布	-11.8024
據令而行	-11.8024
當晚小參	-11.8028
當為何事	-11.8029
針錐	-11.803
喪我兒孫	-11.803
還有為人處也無	-11.8031
桓	-11.8048
擬進語	-11.8048
惕	-11.8055
皖	-11.8056
献	-11.8059
鳶	-11.806
淛	-11.8062
吾無隱乎爾	-11.8064
閉却門	-11.8066
新婦騎驢阿家牽	-11.8072
承誰恩力	-11.8073
四大本空	-11.8074
體露金風	-11.8074
是則名為報佛恩	-11.8076
語默動靜	-11.8076
丹霞燒木佛	-11.8076
結夏小參	-11.8076
金屑雖貴	-11.8077
自領出去	-11.808
肢	-11.8097
竣	-11.8105
襖	-11.8109
柁	-11.8109
天衣懷	-11.8114
琵琶	-11.8115
無欠無餘	-11.8116
眼耳鼻舌身意	-11.812
櫂	-11.812
是甚麼所在	-11.8125
如何是透法身句	-11.8126
仆	-11.8144
猩	-11.8158
起佛見法見	-11.8163
傳心印	-11.8164
帶水拖泥	-11.8166
簡點將來	-11.817
得箇入處	-11.8171
恤	-11.8191
莾	-11.8198
姊	-11.8202
磁	-11.8202
翱翔	-11.8202
梗	-11.8202
貪嗔	-11.8208
寒山拾得	-11.821
兩莖眉	-11.8214
北鬱單越	-11.8215
向上還有事也無	-11.8216
忌拈香	-11.8234
娶	-11.8236
妃	-11.8242
葷	-11.8243
諂	-11.8245
宕	-11.825
啜	-11.8252
服膺	-11.8253
涕唾	-11.8255
艇	-11.826
遞代	-11.8261
一物不將來	-11.8264
紀綱	-11.8266
重說偈言	-11.8266
蟠桃	-11.828
壬辰	-11.8289
壬申	-11.8291
牘	-11.8294
怜	-11.8296
戊午	-11.8296
姜	-11.8297
叮	-11.8302
披緇	-11.8303
大唐國裏	-11.8303
囀	-11.8304
無量妙義	-11.8305
自他不隔於毫端	-11.8305
頇	-11.8306
鋼	-11.8307
度人巳畢	-11.831
擲拄杖下座	-11.8311
啇	-11.8311
萬物咸新	-11.8311
丹桂	-11.8311
淥	-11.8312
毫釐有差	-11.8312
浩蕩	-11.832
鄂州	-11.8322
妾	-11.8332
覿	-11.8338
打一拂子	-11.835
駁	-11.835
棒喝交馳	-11.8351
晨昏	-11.8353
土曠人稀	-11.8354
無邊剎境	-11.8354
還有優劣也無	-11.8359
亙古亙今	-11.8364
爐韝	-11.8372
剏	-11.8377
由是觀之	-11.8383
刱	-11.839
昺	-11.8393
泳	-11.8394
屐	-11.8397
榾柮	-11.84
晟	-11.84
如龍得水	-11.8402
路見不平	-11.8402
祖禰不了	-11.8403
云何忽生山河大地	-11.8403
出現於世	-11.8405
插鍬	-11.8408
挨拶	-11.8409
杈	-11.8438
貝	-11.8439
辛丑	-11.8441
萎	-11.8441
覩明星	-11.8442
戽	-11.8444
幃	-11.8445
回光返照	-11.8448
不墮悄然機	-11.8449
榴	-11.8449
巾瓶	-11.845
橫說豎說	-11.8451
宗門中事	-11.8451
如藤倚樹	-11.8451
向上一路千聖不傳	-11.8453
立下風	-11.8454
相隨來也	-11.8454
大鑒下	-11.8458
然雖如此	-11.8459
關捩	-11.8461
一切智智清淨	-11.8463
南嶽下第	-11.8474
拘束	-11.8479
媒	-11.848
丙申	-11.8486
沫	-11.8489
毓	-11.8493
恍惚	-11.8494
知痛癢	-11.8495
掠虗	-11.8496
簑	-11.8498
摸索不著	-11.8506
證義曰	-11.8521
鏁	-11.8533
平常心是道	-11.8539
塗糊	-11.8541
瑘	-11.8541
鶴唳	-11.8545
三百餘會	-11.8546
鵲噪	-11.8547
歲旦上堂	-11.8547
不唧溜	-11.855
國師三喚侍者	-11.8553
野干鳴	-11.8554
9	-11.8559
壬寅	-11.8578
殫	-11.8579
辛酉	-11.8581
碁	-11.8582
戊辰	-11.8586
模範	-11.8587
刁	-11.8588
朦朧	-11.8588
我宗無語句	-11.8593
洞庭湖	-11.8597
參學事畢	-11.8597
瓦解冰消	-11.8597
應時及節	-11.8599
𣗳	-11.8601
無形本寂寥	-11.8601
你無拄杖子	-11.8602
有何祥瑞	-11.8603
鄮	-11.8624
步步踏	-11.8624
躁	-11.8627
雉	-11.8635
妍醜	-11.8636
洵	-11.8638
瘥	-11.8638
深肯之	-11.8639
拍一拍	-11.864
攤	-11.8642
抓	-11.8642
始終不離於當念	-11.8642
出一隻手	-11.8643
打一圓相	-11.8644
活潑潑	-11.8644
肝腸	-11.8646
本分草料	-11.8648
有權有實	-11.8649
雨似盆傾	-11.865
一輪明月	-11.865
居何國土	-11.8651
咄咄咄	-11.8655
承古有言	-11.8666
廈	-11.868
罩	-11.8684
鍵	-11.8685
躑	-11.8687
嫂	-11.8688
裴相國	-11.8689
迅速	-11.8689
淨躶躶	-11.869
一動一靜	-11.869
四威儀中	-11.8692
漠漠	-11.8692
拿	-11.8693
祥麟	-11.8693
喚作竹篦則觸	-11.8695
攔胸	-11.8695
錯下名言	-11.8697
人境俱不奪	-11.8724
阿賴耶識	-11.8725
距	-11.8727
漓	-11.8731
歉	-11.8732
輦	-11.8734
扃	-11.8736
甜瓜徹蒂甜	-11.8742
瞎驢邊滅	-11.8743
丰	-11.8745
誚	-11.8779
付法偈曰	-11.878
泓	-11.8782
佯	-11.8782
篋	-11.8784
鍮	-11.8784
譌	-11.8784
珠走盤	-11.8788
湍	-11.879
斟酌	-11.8791
說心說性	-11.8793
皺眉	-11.8794
莎	-11.8827
唄	-11.8828
薛	-11.8833
篁	-11.8836
砥柱	-11.8836
遨遊	-11.8838
慶快平生	-11.884
無為之化	-11.8841
叵耐	-11.8843
墮坑落塹	-11.8843
魔魅	-11.8843
有照有用	-11.8849
向下文長	-11.8849
讒	-11.8869
餉	-11.8875
遘	-11.8876
袒	-11.8883
涅	-11.8884
珙	-11.8887
三條椽下	-11.889
舞三臺	-11.8893
明甚麼邊事	-11.8894
眼光落地	-11.8895
有過無過	-11.8896
拈香祝聖畢	-11.8897
全提正令	-11.8898
有物先天地	-11.8899
癸	-11.8915
瑜伽	-11.8916
身而為說法	-11.8923
庖	-11.893
檜	-11.8931
醻	-11.8931
曝	-11.8934
不顧危亡	-11.8938
懵懂	-11.894
豔	-11.8941
灑灑落落	-11.8941
當面蹉過	-11.8945
攪長河為酥酪	-11.8945
黑似漆	-11.8946
葩	-11.8946
三種病人	-11.8947
再三撈摝始應知	-11.8947
嵗	-11.8949
南泉斬貓	-11.895
向上向下	-11.895
長慶稜	-11.895
那一通	-11.8972
沐浴更衣	-11.8973
聘	-11.8976
阿僧祇	-11.8981
胃	-11.8984
拕	-11.8988
正覺逸	-11.8991
滾	-11.8993
隨分納些些	-11.8994
不較多	-11.8995
摹	-11.8997
悴	-11.9029
旵	-11.903
擴	-11.9033
趍	-11.9036
迪	-11.9036
站	-11.904
巡寮	-11.9042
明鏡當臺	-11.9042
喜怒哀樂	-11.9043
鴛湖	-11.9043
白日青天	-11.9044
滴水滴凍	-11.9045
不喚作竹篦則背	-11.9046
倜儻分明	-11.9046
徹骨徹髓	-11.9048
大悲千手眼	-11.905
贍	-11.9086
槽	-11.9087
萬兩黃金	-11.909
哆	-11.9095
有甚長處	-11.9097
踐履	-11.9133
萊	-11.9135
俛	-11.914
常寂光	-11.9142
冗	-11.9143
廬陵米價	-11.9143
冉冉	-11.9144
滄洲	-11.9145
笳	-11.9145
無邊剎海	-11.9147
人人本具	-11.9147
久雨不晴	-11.9148
虎嘯風生	-11.9149
大地撮來	-11.9149
孟春猶寒	-11.915
鼾	-11.9151
雲居錫云	-11.9151
蠢動含靈	-11.9153
塗污	-11.9155
丁卯	-11.9161
娠	-11.9173
叛	-11.9175
濵	-11.9179
轡	-11.9186
乙酉	-11.9187
彚	-11.9188
優婆塞	-11.9188
臈	-11.9192
脾	-11.9193
型	-11.9195
觸禮一拜	-11.9196
不唧𠺕	-11.9196
堂司行者	-11.9196
合取狗口	-11.9203
天邊月	-11.9203
柳絮	-11.9214
釐	-11.9238
寤寐	-11.9241
鄱	-11.9241
乙丑	-11.9242
煇	-11.925
函蓋乾坤	-11.9251
苟或未然	-11.9251
有般漢	-11.9253
呼喚不回	-11.9255
東海鯉魚打一棒	-11.9258
還有人道得麼	-11.9261
毘盧頂上	-11.9264
穽	-11.9289
聦	-11.9292
砒	-11.9296
松源岳	-11.9298
曼殊	-11.9298
佛燈珣	-11.9298
九旬禁足	-11.9301
畣	-11.9303
崎嶇	-11.9303
生死岸頭	-11.9303
匆匆	-11.9304
孤迥迥	-11.9308
恁般	-11.9308
明心見性	-11.9331
嘉靖	-11.9335
邸	-11.9336
饗	-11.9336
蠲	-11.9347
抖	-11.9351
具擇法眼	-11.9355
優婆夷	-11.9355
大地平沉	-11.9358
十二分教	-11.9358
止止不須說	-11.9359
霛	-11.936
出則不為人	-11.9367
庚辰	-11.9392
獠	-11.9396
聵	-11.9401
雛	-11.9405
脛	-11.9406
震聲一喝	-11.9408
七尺單前	-11.9408
烽	-11.9409
似地普擎	-11.941
言語道斷	-11.941
珣	-11.941
緫	-11.9411
奪人不奪境	-11.944
乙卯	-11.9447
姦	-11.9449
蕃	-11.945
癸酉	-11.9454
詶	-11.9454
栗棘	-11.9455
娑婆訶	-11.9458
怱	-11.9458
嵯峨	-11.946
煦	-11.946
三百六十	-11.9462
謌	-11.9464
年月日	-11.9465
拼	-11.9465
憐兒不覺醜	-11.9465
轉身吐氣	-11.9465
劍刃上	-11.9466
歛衣就座	-11.9471
退身三步	-11.9471
出水後如何	-11.9475
耻	-11.9494
乙亥	-11.9503
賓中主	-11.9507
隻履西歸	-11.951
穹	-11.951
蝴蝶	-11.9511
侄	-11.9511
踞地獅子	-11.9512
多子塔前	-11.9513
輔弼	-11.9513
八十翁翁	-11.9513
以拂子擊禪牀	-11.9513
好大哥	-11.9515
摩訶般若波羅蜜	-11.9516
有甚交涉	-11.9518
具有如來智慧德相	-11.9518
無下手處	-11.9519
一手指天	-11.9519
冰消瓦解	-11.9519
趾	-11.9557
噁	-11.956
齧	-11.956
攧	-11.9561
聿	-11.9561
靈雲見桃花	-11.9567
俊鶻	-11.9567
礱	-11.9568
瓊樓玉殿	-11.9568
舶	-11.9568
還有佛法也無	-11.9576
㕘	-11.9577
糶	-11.9577
無二無二分	-11.9577
出則便為人	-11.9581
庠	-11.9602
狎	-11.9605
瘳	-11.9605
行解相應	-11.9607
鑊	-11.9609
增上慢	-11.9614
漉漉	-11.9616
柘	-11.9617
解粘去縛	-11.9625
竿木隨身	-11.9625
不是好心	-11.9626
一千五百人善知識	-11.9627
若見諸相非相	-11.9628
亡僧遷化	-11.9632
不存軌則	-11.9633
髫	-11.9659
庚戌	-11.966
稼	-11.9662
熒	-11.9662
廠	-11.9663
尅	-11.9663
詭	-11.9665
迤	-11.9667
繆	-11.9667
獘	-11.9669
窈	-11.967
澀	-11.9671
崗	-11.9674
本自圓成	-11.9675
糍	-11.9677
豈不快哉	-11.9678
鵓鳩	-11.9679
摺	-11.9679
信受奉行	-11.968
事無一向	-11.9681
六六三十六	-11.9681
㱕	-11.9681
硬似鐵	-11.9682
市廛	-11.97
禎	-11.9715
蹶	-11.9718
翱	-11.9723
折脚鐺	-11.9723
箱	-11.9724
悟須實悟	-11.9727
釀	-11.9727
捻	-11.9728
寨	-11.9729
愚菴盂云	-11.9729
杪	-11.973
一棒一條痕	-11.9731
押	-11.9732
堅密身	-11.9733
益州馬腹脹	-11.9734
兩彩一賽	-11.9735
遍界不曾藏	-11.9735
哄	-11.9735
主賓互換	-11.9737
西瞿耶尼	-11.9739
隕	-11.9775
庚午	-11.9777
劵	-11.9777
無令斷絕	-11.9777
詈	-11.9777
䟽	-11.978
樂昇平	-11.9781
瀰	-11.9784
哮	-11.9786
通個消息	-11.979
露箇消息	-11.9792
沒可把	-11.9792
又恁麼去也	-11.9793
知恩者少	-11.9794
廚庫	-11.9805
如何是古佛心	-11.9812
藪	-11.9823
邂逅	-11.9835
怗	-11.9835
絳	-11.9838
三藏十二部	-11.9839
蕨	-11.9839
從朝至暮	-11.984
金色頭陀	-11.9842
覓心了不可得	-11.9842
傾湫倒嶽	-11.9843
舉一不得舉二	-11.9844
一手指地	-11.9847
飲者如何	-11.9848
箇箇學無為	-11.985
8	-11.9857
滂	-11.9885
眎	-11.9887
毗盧遮那	-11.9887
液	-11.9888
辛卯	-11.9889
五燈會元	-11.989
背覺合塵	-11.9892
碌	-11.9895
光吞萬象	-11.9895
坐斷天下人舌頭	-11.9897
無別無斷故	-11.9905
与	-11.9912
兌	-11.9926
吾滅後	-11.9937
薙	-11.994
電光石火	-11.9947
耿耿	-11.9948
是有是無	-11.9951
㖿	-11.9954
幣	-11.9991
瞖	-11.9992
酥	-11.9994
緬	-11.9999
籜	-12.0002
菌	-12.0004
煤	-12.0012
戌	-12.0022
埀	-12.0049
矚	-12.0053
藐	-12.0055
蚋	-12.0056
勺	-12.0057
挹	-12.0062
蔥	-12.0064
欹	-12.0065
刼	-12.0067
銚	-12.0069
弃	-12.0106
翊	-12.0114
檇	-12.0121
6	-12.0139
塟	-12.015
漕	-12.0164
鴛	-12.0168
膳	-12.0168
啖	-12.0168
嶷	-12.0169
捶	-12.017
䞋	-12.0171
荼	-12.0174
樽	-12.0176
〕	-12.0179
〔	-12.0179
愿	-12.0181
嚙	-12.022
駑	-12.0231
翮	-12.0231
淤	-12.0232
閤	-12.0237
萸	-12.0237
潰	-12.0279
妹	-12.0332
蝕	-12.0341
腋	-12.0348
孳	-12.0352
渙	-12.039
俸	-12.0397
糾	-12.0404
刳	-12.0452
徤	-12.0458
緝	-12.0459
繭	-12.046
翦	-12.0462
墟	-12.0463
鉗	-12.0464
萋	-12.0468
阬	-12.0473
廳	-12.0478
噬	-12.0504
緜	-12.0517
嘲	-12.0518
髼	-12.053
蓉	-12.0532
倔	-12.058
柬	-12.0581
拌	-12.0581
紆	-12.0588
櫺	-12.0589
顥	-12.0594
愕	-12.0625
礫	-12.0632
狄	-12.0635
倖	-12.0635
鴟	-12.064
鶚	-12.0642
黠	-12.0642
俠	-12.0645
逄	-12.0661
7	-12.0663
眇	-12.0697
屣	-12.0697
鄞	-12.0698
苞	-12.07
倮	-12.0707
淈	-12.0709
茘	-12.0753
蕅	-12.0759
撤	-12.0759
娟	-12.0764
撚	-12.0766
甸	-12.0769
膓	-12.0813
凱	-12.0825
疣	-12.0827
癖	-12.0828
丱	-12.0876
攖	-12.0881
鉄	-12.0885
汞	-12.0887
溷	-12.0888
緉	-12.0892
渥	-12.0938
喟	-12.0939
嚕	-12.0944
闈	-12.0946
臯	-12.0947
裊	-12.0953
叵	-12.0999
轂	-12.1001
駟	-12.1008
聃	-12.1011
紐	-12.1011
軻	-12.1011
醭	-12.1013
潦	-12.1058
臟	-12.1062
棙	-12.1068
跣	-12.1068
髯	-12.1068
綉	-12.1069
懲	-12.1069
晒	-12.1073
衾	-12.1076
磋	-12.1077
逴	-12.108
灮	-12.1081
碣	-12.1081
盾	-12.1124
紜	-12.1127
袪	-12.1127
矍	-12.113
耗	-12.113
碾	-12.1132
㝡	-12.1133
捱	-12.1136
瘢	-12.1137
塌	-12.1137
漉	-12.114
塼	-12.1141
擉	-12.1142
襍	-12.1187
績	-12.1195
綜	-12.1196
耨	-12.1198
耄	-12.1199
濬	-12.12
糟	-12.1201
鬨	-12.1206
𠔃	-12.1209
怤	-12.1218
踊	-12.1249
蔑	-12.1253
鬣	-12.1259
楞	-12.1264
䙡	-12.1264
畦	-12.1265
榦	-12.1269
擂	-12.1269
㪅	-12.1271
珂	-12.1275
杻	-12.1275
妬	-12.1322
襴	-12.1324
戢	-12.1327
黛	-12.1328
貍	-12.1329
贄	-12.133
嚫	-12.1331
繚	-12.1331
搕	-12.1332
関	-12.1341
舅	-12.1369
彝	-12.1388
竦	-12.139
搗	-12.1392
譁	-12.1394
侈	-12.1439
桀	-12.1441
蒭	-12.1443
䳌	-12.1445
惓	-12.1452
澧	-12.1453
盥	-12.1455
簧	-12.1455
凹	-12.1456
伶	-12.1459
跑	-12.1461
燬	-12.1508
妣	-12.1516
銛	-12.1517
羶	-12.1518
鄒	-12.152
啗	-12.152
蛛	-12.1523
刖	-12.1525
黜	-12.1574
悱	-12.1579
龔	-12.1582
擦	-12.1594
彖	-12.1621
捄	-12.1641
諮	-12.1647
陁	-12.1651
藞	-12.1654
帔	-12.166
芊	-12.1661
矻	-12.1713
鴿	-12.1716
囓	-12.1716
苣	-12.1718
拉	-12.1719
釧	-12.172
宥	-12.172
崚	-12.1728
隳	-12.1777
弛	-12.1778
醯	-12.178
曼	-12.1783
賑	-12.1783
纜	-12.1789
膜	-12.1789
属	-12.1792
磉	-12.1796
蛟	-12.1816
貳	-12.1854
莆	-12.1856
繽	-12.1858
㳂	-12.1858
胝	-12.1858
犴	-12.186
𣸩	-12.186
炒	-12.1862
揔	-12.1867
悃	-12.1904
覊	-12.1916
窕	-12.1921
梆	-12.1924
貂	-12.1925
溜	-12.1928
荔	-12.193
彴	-12.1933
糲	-12.1982
擢	-12.1983
蘖	-12.1986
氳	-12.1991
礦	-12.1991
巋	-12.1994
嘹	-12.1998
眹	-12.1999
眚	-12.2043
嫗	-12.2051
瘞	-12.2051
獦	-12.2055
蘄	-12.2056
蔕	-12.2058
廖	-12.2061
磴	-12.2063
箴	-12.2064
樗	-12.2066
鞴	-12.2085
躳	-12.2123
凸	-12.213
蜓	-12.2134
陡	-12.2135
翩	-12.2137
𦗟	-12.2144
𥨊	-12.2188
葱	-12.219
恪	-12.22
閡	-12.2201
駙	-12.2202
糢	-12.2203
瑫	-12.2205
毿	-12.2208
邨	-12.2211
券	-12.2265
摭	-12.2266
燁	-12.2269
舀	-12.2269
洹	-12.2271
秧	-12.2276
囙	-12.2285
岷	-12.2332
𢌞	-12.2334
租	-12.2335
呻	-12.2336
閧	-12.2337
笈	-12.2337
晷	-12.2337
爨	-12.2337
邢	-12.2337
盪	-12.234
紊	-12.2341
飫	-12.2341
驤	-12.2343
拚	-12.2344
欝	-12.2345
漣	-12.2346
瑛	-12.2355
豕	-12.2401
愴	-12.2403
亹	-12.2403
螃	-12.2411
麋	-12.2412
墼	-12.2414
呢	-12.2423
疫	-12.2464
舘	-12.2467
冐	-12.247
虜	-12.2473
󰢍	-12.2474
頔	-12.2476
姬	-12.248
犍	-12.2482
罣	-12.2482
跂	-12.2485
阮	-12.2485
蘧	-12.2485
剷	-12.2486
嚏	-12.249
霆	-12.2497
鄴	-12.2544
哺	-12.2546
賾	-12.2551
貸	-12.2553
賡	-12.2555
瓮	-12.2558
剡	-12.2558
阱	-12.2565
餡	-12.2565
漝	-12.2571
覈	-12.2616
酪	-12.2619
浚	-12.2624
晡	-12.2625
估	-12.2627
鞔	-12.2635
糓	-12.2692
譔	-12.2702
瑾	-12.2704
𦏰	-12.2705
樨	-12.2708
扳	-12.2709
摠	-12.2709
嘮	-12.2711
蜻	-12.2712
搓	-12.2712
壙	-12.2765
窘	-12.2771
僭	-12.2771
爬	-12.2773
闖	-12.2782
萱	-12.2784
旺	-12.2787
芸	-12.2788
仄	-12.2792
胄	-12.2843
呀	-12.2851
覃	-12.2852
褐	-12.2853
鸎	-12.2857
𢶍	-12.2861
欒	-12.2865
葭	-12.2871
殄	-12.2923
鮑	-12.2926
謔	-12.2926
巘	-12.2927
氤	-12.293
灾	-12.298
汨	-12.2999
猥	-12.2999
禺	-12.3007
璘	-12.3016
璿	-12.3017
疵	-12.3067
沮	-12.3071
汴	-12.3075
泞	-12.3077
錮	-12.308
軫	-12.3084
饡	-12.3084
嗤	-12.3085
餿	-12.3085
穗	-12.3087
羃	-12.3088
蟒	-12.3126
睨	-12.3145
琰	-12.3147
檄	-12.3149
喇	-12.3153
巉	-12.3159
幔	-12.3161
搽	-12.3165
紂	-12.3204
陛	-12.3213
狥	-12.3217
帷	-12.3229
騫	-12.323
潯	-12.3232
臊	-12.3233
𩖼	-12.3236
錙	-12.3236
岱	-12.3237
齅	-12.3238
闘	-12.3239
义	-12.3242
𥠖	-12.3244
甄	-12.3307
粮	-12.3307
栲	-12.3308
忱	-12.3308
聱	-12.3309
舛	-12.3309
隸	-12.3312
徼	-12.3312
搶	-12.3313
軋	-12.3313
缸	-12.3316
齁	-12.3316
凳	-12.3316
擣	-12.3317
鶩	-12.3317
斌	-12.3317
柑	-12.332
肎	-12.3383
蔗	-12.3388
譊	-12.3395
猱	-12.3397
烱	-12.3463
嚥	-12.3466
懋	-12.3467
褊	-12.3469
篷	-12.3471
凖	-12.3472
􂙠	-12.3472
髏	-12.3475
乂	-12.3478
謳	-12.3479
詗	-12.348
􂔘	-12.3481
夤	-12.3541
墅	-12.3546
淅	-12.3547
狡	-12.355
曦	-12.355
垠	-12.355
悋	-12.3552
綣	-12.3553
褌	-12.3555
霓	-12.3555
嶒	-12.3556
鄂	-12.3625
誹	-12.3626
旹	-12.3628
棧	-12.3628
闥	-12.363
蛩	-12.3633
砍	-12.3634
翀	-12.3639
驪	-12.3695
攷	-12.3704
臍	-12.3706
魍	-12.3709
瓚	-12.3712
芍	-12.3713
祛	-12.3713
褫	-12.3757
扼	-12.3782
饉	-12.3784
矗	-12.3789
笥	-12.3794
齪	-12.3795
皤	-12.3797
挲	-12.3797
呱	-12.3798
臏	-12.3799
球	-12.3803
薶	-12.3806
斟	-12.3806
飆	-12.3809
締	-12.3868
恂	-12.3878
揄	-12.3881
逡	-12.3882
牟	-12.3886
禳	-12.3948
囌	-12.3955
忉	-12.3956
猗	-12.3957
貺	-12.3958
喙	-12.3958
鯢	-12.3963
翡	-12.3966
呷	-12.3966
彀	-12.3967
蛺	-12.3967
匇	-12.4033
溽	-12.4034
倜	-12.4035
梏	-12.4036
兕	-12.4036
桎	-12.4036
輳	-12.4041
魎	-12.4041
輓	-12.4042
吊	-12.4045
絛	-12.4045
蒺	-12.4046
祟	-12.4046
琮	-12.4048
鎌	-12.405
逵	-12.4052
斡	-12.4078
謟	-12.4111
双	-12.4116
貿	-12.4117
佚	-12.4119
糜	-12.4121
酢	-12.4122
豸	-12.4126
縳	-12.4132
銓	-12.4133
刷	-12.4133
剿	-12.4136
蠏	-12.4204
壹	-12.4206
孑	-12.421
跬	-12.4211
咀	-12.4212
韛	-12.4213
缶	-12.4213
澁	-12.4217
籓	-12.4217
旂	-12.4219
躕	-12.4228
毱	-12.4276
們	-12.4281
鬘	-12.4283
誵	-12.43
芹	-12.4304
裒	-12.4304
彤	-12.4304
症	-12.4309
朢	-12.4311
淒	-12.4312
飭	-12.4374
窆	-12.4378
櫃	-12.438
栳	-12.4385
閴	-12.4386
覯	-12.439
瀚	-12.439
𣦸	-12.4396
捴	-12.4398
丟	-12.44
顙	-12.4461
縠	-12.4461
奎	-12.4467
鑛	-12.4468
賚	-12.447
髣	-12.4471
筐	-12.4472
梟	-12.4472
畿	-12.4474
藿	-12.4478
騁	-12.4478
糖	-12.4479
劂	-12.4481
潞	-12.4487
萄	-12.4487
巇	-12.4488
揜	-12.4547
囿	-12.4555
〡	-12.4557
慞	-12.4558
髴	-12.456
暘	-12.4561
轎	-12.4561
俚	-12.4562
珮	-12.4562
攣	-12.4567
謼	-12.4573
乱	-12.458
婺	-12.4623
炫	-12.4645
棊	-12.4646
惘	-12.4647
奘	-12.4651
籥	-12.4654
霅	-12.4655
墾	-12.4656
溉	-12.4656
舫	-12.4658
叚	-12.4661
凢	-12.4668
扄	-12.4728
售	-12.4733
匐	-12.4739
沱	-12.4739
諺	-12.474
冢	-12.474
弋	-12.4744
軾	-12.4744
澍	-12.4747
蟟	-12.4747
㘽	-12.4748
耙	-12.4752
港	-12.4822
蚩	-12.4825
弒	-12.4825
騐	-12.4826
瘁	-12.4828
䑛	-12.4829
侖	-12.4831
鶿	-12.4836
摳	-12.4837
濼	-12.4837
壟	-12.484
躰	-12.484
阤	-12.4847
虯	-12.4854
宼	-12.4901
虐	-12.4905
餒	-12.4915
駸	-12.4916
詵	-12.4919
痊	-12.4919
徉	-12.4922
餞	-12.4923
勦	-12.4924
阡	-12.4926
迓	-12.4926
尟	-12.4929
饈	-12.493
硃	-12.493
剞	-12.4932
俵	-12.4935
瀏	-12.4937
胞	-12.5008
慄	-12.5008
骼	-12.5012
菟	-12.5013
􂌯	-12.5014
匍	-12.5014
侔	-12.5016
潸	-12.5018
燹	-12.502
畐	-12.5021
躊	-12.5021
俍	-12.5023
閦	-12.5024
杆	-12.5025
踟	-12.5026
撕	-12.5026
孜	-12.5043
埵	-12.5106
㨾	-12.5108
菖	-12.5112
柩	-12.5113
冕	-12.5113
饀	-12.5114
捎	-12.5114
瑄	-12.5115
炮	-12.5116
璇	-12.5117
崎	-12.5119
骰	-12.5125
廕	-12.5199
佈	-12.5204
蜘	-12.5205
袱	-12.5206
舷	-12.5208
栩	-12.5212
哦	-12.5219
牸	-12.5219
蝎	-12.5297
齠	-12.5297
咿	-12.5298
蜍	-12.5299
婉	-12.53
脹	-12.5301
駛	-12.5301
閔	-12.5302
裓	-12.5302
綾	-12.5304
湄	-12.5305
鉛	-12.5306
涂	-12.531
洌	-12.5315
傚	-12.5393
駱	-12.5396
錠	-12.5397
斵	-12.5476
笞	-12.5487
歙	-12.5488
匱	-12.5489
褥	-12.5492
惚	-12.5492
􂸍	-12.5492
韞	-12.5493
姐	-12.5495
昬	-12.5496
綢	-12.5498
騮	-12.55
盼	-12.5501
諛	-12.5575
瘠	-12.558
祉	-12.5586
皴	-12.5587
歆	-12.5591
瑜	-12.5591
淩	-12.5592
敞	-12.5593
筈	-12.5595
椑	-12.5599
拴	-12.5601
琪	-12.5603
僼	-12.561
咏	-12.5674
漬	-12.5675
隷	-12.5676
戕	-12.5678
繕	-12.5679
雒	-12.5682
傭	-12.5683
械	-12.5684
畊	-12.5684
鷟	-12.5688
嘖	-12.5692
沂	-12.5693
扛	-12.5697
豊	-12.5699
芲	-12.5707
桉	-12.5775
蠧	-12.5785
柝	-12.5785
瘖	-12.5786
喃	-12.5787
蹔	-12.5788
脆	-12.5788
雹	-12.579
礎	-12.5793
𠻳	-12.5793
霾	-12.5794
躂	-12.5796
滲	-12.5797
簟	-12.5797
荻	-12.5797
刦	-12.5801
𢱢	-12.5802
莭	-12.5807
泝	-12.5877
佃	-12.588
㖃	-12.5891
淆	-12.5891
燿	-12.5892
熬	-12.5893
濾	-12.5894
咂	-12.5896
椰	-12.5896
繢	-12.5896
靸	-12.5898
暜	-12.5904
曛	-12.5906
牲	-12.5975
稗	-12.5985
筴	-12.5989
纘	-12.5989
縻	-12.5991
匯	-12.5994
昊	-12.5995
杼	-12.5995
禰	-12.5995
黧	-12.5998
麝	-12.5998
疥	-12.6002
臞	-12.6003
凈	-12.6008
頺	-12.6083
飼	-12.6086
拇	-12.6087
腫	-12.6088
堀	-12.6091
壍	-12.6093
繳	-12.6094
淬	-12.6094
颻	-12.6095
沓	-12.6096
秩	-12.6097
猖	-12.6098
躶	-12.6099
皐	-12.61
玕	-12.6101
暈	-12.6102
珏	-12.6108
灯	-12.6185
癘	-12.6187
纇	-12.6194
喋	-12.6195
涔	-12.6197
蔟	-12.6198
圝	-12.6199
霎	-12.6199
綰	-12.62
駘	-12.62
診	-12.6202
㗸	-12.6203
頫	-12.6205
柿	-12.6206
霰	-12.6206
苓	-12.6206
撦	-12.6207
榭	-12.621
韁	-12.6213
滁	-12.6215
𢙣	-12.6216
翌	-12.6263
饋	-12.629
斃	-12.6299
虱	-12.6302
豺	-12.6303
墯	-12.6304
嫋	-12.6304
搯	-12.6304
鋟	-12.6311
穫	-12.6391
杌	-12.6398
寘	-12.6399
寞	-12.6402
鬮	-12.6403
僥	-12.6407
󰑁	-12.6408
賭	-12.641
鸑	-12.6411
媸	-12.6413
螄	-12.6415
輾	-12.6418
舐	-12.6421
磷	-12.6421
諕	-12.6422
戛	-12.6423
馿	-12.6424
􂖪	-12.6425
麄	-12.6433
賷	-12.6493
懌	-12.6511
涪	-12.6516
瑯	-12.6517
槖	-12.6518
嫰	-12.6519
䔧	-12.6523
諠	-12.6524
笤	-12.6525
闃	-12.6525
肻	-12.6526
邐	-12.6527
葡	-12.653
㫰	-12.653
𩬊	-12.6619
暌	-12.6623
狠	-12.6623
荏	-12.6624
𥧌	-12.6626
霶	-12.6627
薔	-12.663
沔	-12.6631
姥	-12.6632
慌	-12.6632
樷	-12.6637
擗	-12.6639
悍	-12.6724
篦	-12.673
甓	-12.6732
暎	-12.6733
玠	-12.6735
詹	-12.6737
蹬	-12.6737
羯	-12.674
徂	-12.6741
竮	-12.6741
昉	-12.6742
篐	-12.6742
㴱	-12.6745
舵	-12.675
牝	-12.6826
遡	-12.6827
綬	-12.6836
侃	-12.684
瀋	-12.6843
蜎	-12.6843
逋	-12.6845
簽	-12.685
橡	-12.6851
姻	-12.6947
飈	-12.695
訾	-12.6951
苒	-12.6955
狌	-12.6958
洶	-12.696
蜃	-12.6961
嶙	-12.6964
眵	-12.6964
螳	-12.6965
妝	-12.6967
寱	-12.6969
鼷	-12.697
餵	-12.6971
啻	-12.699
憔	-12.7067
兇	-12.7068
涘	-12.7068
漩	-12.7068
鈸	-12.7069
轆	-12.7071
﨟	-12.7071
賃	-12.7072
熠	-12.7075
甥	-12.7076
矇	-12.7076
塋	-12.7077
訕	-12.7078
燋	-12.7082
㘅	-12.7083
氂	-12.7084
气	-12.7086
盰	-12.7088
粳	-12.7091
冝	-12.7091
薨	-12.7179
覇	-12.7187
凭	-12.7188
僵	-12.719
茵	-12.7191
竛	-12.7193
弧	-12.7194
裾	-12.7194
箎	-12.7195
泖	-12.7204
灝	-12.7205
挃	-12.7206
慊	-12.7292
帑	-12.7294
璫	-12.7305
彷	-12.7306
澓	-12.7306
鼯	-12.7307
䥫	-12.7308
嗁	-12.7309
艣	-12.7314
釅	-12.7315
迻	-12.7316
頼	-12.732
斈	-12.7327
琬	-12.7413
𤨏	-12.7414
抒	-12.7419
睺	-12.7421
鼉	-12.7424
淙	-12.7425
唼	-12.7428
藂	-12.7428
玿	-12.7428
橙	-12.7441
𤼵	-12.7442
瀕	-12.753
猨	-12.7534
訐	-12.7536
蹰	-12.7541
澈	-12.7542
臠	-12.7544
媳	-12.7545
衿	-12.7549
烝	-12.755
櫚	-12.7551
朦	-12.7551
懂	-12.7551
蠕	-12.7552
渣	-12.7552
嬭	-12.7552
馗	-12.7554
蠹	-12.7556
p	-12.7574
燧	-12.7658
萠	-12.7661
螘	-12.7662
扎	-12.7665
臀	-12.7666
彪	-12.7667
狻	-12.7671
羌	-12.7671
楪	-12.7672
掐	-12.7675
畧	-12.7676
痼	-12.7777
麾	-12.7778
鄽	-12.7779
暝	-12.778
椶	-12.7783
娩	-12.7785
蘂	-12.7786
斲	-12.7788
鎞	-12.7789
犖	-12.779
驊	-12.779
𡾟	-12.7792
𣗥	-12.7794
朿	-12.7795
諶	-12.7799
贇	-12.7801
筮	-12.7891
殖	-12.7897
僖	-12.7899
冑	-12.7902
撻	-12.7906
葆	-12.7907
哽	-12.7907
樑	-12.7907
邡	-12.7909
屇	-12.791
洙	-12.7913
鏴	-12.7915
洄	-12.7916
咐	-12.7917
厙	-12.7918
滕	-12.7918
鬟	-12.7918
縑	-12.8018
毆	-12.8025
渟	-12.8027
塤	-12.8027
巗	-12.8034
坪	-12.8035
愷	-12.8037
𣽘	-12.8038
觱	-12.804
蜨	-12.8042
豚	-12.8146
饕	-12.8151
燉	-12.8159
甬	-12.8159
篱	-12.816
觚	-12.8162
絞	-12.8162
昳	-12.8162
秕	-12.8164
㗖	-12.8164
惛	-12.8165
峋	-12.8166
箜	-12.8174
㐫	-12.8268
弭	-12.8276
䂐	-12.8276
絢	-12.828
熹	-12.8283
赧	-12.8285
偵	-12.8286
蚖	-12.8287
牚	-12.8287
怏	-12.8287
窅	-12.8289
劬	-12.8291
齷	-12.8291
顋	-12.8292
箍	-12.8293
樅	-12.8293
贒	-12.8293
詫	-12.8295
嘵	-12.8297
綏	-12.8301
惲	-12.8302
汶	-12.8305
尓	-12.8306
刢	-12.8306
荀	-12.84
殑	-12.8407
眴	-12.8408
砭	-12.8411
捍	-12.8411
嘈	-12.8414
殉	-12.8414
閟	-12.8415
蜚	-12.8416
騙	-12.8416
盒	-12.8419
懦	-12.8421
餈	-12.8421
拮	-12.8424
桮	-12.8431
灩	-12.8432
飣	-12.8434
杞	-12.8435
莪	-12.8542
軼	-12.8545
腴	-12.8548
蜋	-12.8549
摐	-12.8549
羗	-12.855
鐶	-12.8551
綮	-12.8554
膈	-12.8556
骷	-12.8558
陬	-12.8559
賠	-12.856
堰	-12.8564
恡	-12.8667
㸑	-12.8671
俎	-12.8675
爝	-12.8684
攄	-12.8684
籤	-12.8685
槨	-12.8686
襤	-12.8688
据	-12.869
熨	-12.8693
扺	-12.8697
鶉	-12.8701
𣆶	-12.8807
𠃔	-12.881
顗	-12.881
噩	-12.8811
隰	-12.8812
媽	-12.8813
氅	-12.8814
堞	-12.8815
爹	-12.8816
埏	-12.8816
幪	-12.882
顫	-12.8822
麩	-12.8822
坵	-12.8823
騃	-12.8823
啀	-12.8823
匏	-12.8823
胭	-12.8824
莞	-12.8825
噐	-12.8825
邗	-12.8826
徨	-12.8828
圇	-12.883
㒵	-12.8931
扈	-12.8941
桷	-12.8941
𣯶	-12.8946
頟	-12.8952
庥	-12.8954
颯	-12.8954
煒	-12.8954
呾	-12.8959
侗	-12.8959
竚	-12.8959
罥	-12.896
旆	-12.8964
腿	-12.8965
抴	-12.8968
吩	-12.897
喊	-12.8971
䰂	-12.9076
挐	-12.908
繒	-12.9083
幄	-12.9085
醴	-12.9086
􂏖	-12.9089
皁	-12.9091
澥	-12.9092
凑	-12.9093
瘧	-12.9094
咆	-12.9098
䦨	-12.9218
譴	-12.922
蜉	-12.9228
奐	-12.9229
楗	-12.923
証	-12.9231
懾	-12.9232
卭	-12.9232
鋩	-12.9239
淄	-12.9242
柂	-12.9244
尒	-12.9245
𡱰	-12.9246
粼	-12.9251
􂜉	-12.926
佉	-12.935
膾	-12.9361
鯁	-12.9362
癯	-12.9362
玻	-12.9369
坼	-12.9372
厓	-12.9373
敺	-12.9374
蛆	-12.9374
虺	-12.9374
覻	-12.9379
齏	-12.9379
儱	-12.9381
穌	-12.9381
礡	-12.9382
徜	-12.9383
嚶	-12.9385
翎	-12.9386
灋	-12.9386
騅	-12.9388
𡬾	-12.9388
齶	-12.9389
歪	-12.9393
屺	-12.9399
覬	-12.9512
潢	-12.9515
莧	-12.9515
猾	-12.9516
購	-12.9521
祩	-12.9521
朅	-12.9521
苧	-12.9522
蔴	-12.9524
閶	-12.9525
紏	-12.9525
鍜	-12.9525
啾	-12.9527
鋀	-12.9528
顢	-12.9532
偪	-12.9533
榼	-12.9535
筧	-12.9539
B	-12.9546
蓍	-12.9641
蝗	-12.9659
唳	-12.9664
逶	-12.9664
滸	-12.9665
緡	-12.9666
㲉	-12.9667
鐮	-12.967
黼	-12.9671
頡	-12.9671
荐	-12.9671
崱	-12.9671
螫	-12.9672
棕	-12.9675
懊	-12.9675
駞	-12.9676
懞	-12.9676
剉	-12.9677
蒐	-12.9679
濠	-12.9684
撝	-12.9686
紘	-12.9799
廸	-12.9806
頎	-12.9812
檝	-12.9812
桴	-12.9815
躔	-12.9815
蚕	-12.9816
笊	-12.9816
衘	-12.9816
歹	-12.9816
菷	-12.9817
魑	-12.9817
幙	-12.9817
慇	-12.9818
湻	-12.9818
屁	-12.982
螂	-12.9821
襆	-12.9822
沌	-12.9824
忭	-12.9826
濮	-12.9826
賖	-12.9829
屼	-12.983
体	-12.9833
愬	-12.9942
輭	-12.9958
肄	-12.996
拷	-12.9962
紡	-12.9964
黿	-12.9965
䆳	-12.9967
醪	-12.9968
鐃	-12.997
儺	-12.997
鷯	-12.9972
柈	-12.9973
擠	-12.9973
屴	-12.9974
瞰	-12.9981
邙	-12.9986
+	-12.9995
殯	-13.0106
穰	-13.0106
刎	-13.0108
噤	-13.0112
瀹	-13.0115
愀	-13.012
痰	-13.012
勷	-13.0122
坌	-13.0125
盎	-13.0126
飰	-13.0126
蓁	-13.0126
騖	-13.0127
峴	-13.0128
瑋	-13.0131
晞	-13.0131
猢	-13.0133
墩	-13.0135
𤓰	-13.0138
円	-13.0141
飧	-13.0143
袛	-13.0143
淦	-13.0265
殤	-13.0272
孥	-13.0273
褻	-13.0275
灔	-13.0276
窬	-13.0277
莘	-13.028
媼	-13.0281
珀	-13.0281
媧	-13.0282
嶄	-13.0283
轢	-13.0285
軃	-13.0286
哪	-13.0287
湥	-13.0289
芰	-13.0291
沅	-13.0292
澣	-13.0292
𠬧	-13.0294
乹	-13.0306
跏	-13.0399
譖	-13.0412
虬	-13.0415
褰	-13.0423
嚩	-13.0428
羿	-13.0434
欻	-13.0435
驂	-13.0436
嚚	-13.0443
嵌	-13.0443
鷦	-13.0444
粽	-13.0447
轄	-13.0448
穠	-13.0449
蛀	-13.0454
昜	-13.046
筦	-13.0579
泪	-13.0582
嬈	-13.0582
悌	-13.0584
倨	-13.0585
塾	-13.0588
厘	-13.0588
揵	-13.0589
𤠔	-13.0592
嗒	-13.0593
夸	-13.0595
巵	-13.0596
斾	-13.0597
埶	-13.0598
㲲	-13.0599
楯	-13.06
譫	-13.0601
牋	-13.0604
譙	-13.0604
离	-13.0605
鰍	-13.0605
邠	-13.0607
哈	-13.0608
榑	-13.0616
鱍	-13.0618
G	-13.0626
#	-13.0626
侫	-13.0742
牡	-13.075
穡	-13.0752
饍	-13.0755
蜒	-13.0756
泚	-13.0758
罟	-13.0758
筞	-13.0759
勻	-13.076
涴	-13.076
嗇	-13.0763
瞢	-13.0763
醺	-13.0763
醞	-13.0764
臬	-13.0764
燮	-13.0766
遄	-13.0766
衽	-13.0767
鞅	-13.0768
酤	-13.0771
輞	-13.0771
嚬	-13.0771
啊	-13.0771
舠	-13.0777
齖	-13.0778
桼	-13.078
縉	-13.0786
粤	-13.0907
叡	-13.0921
枳	-13.0929
嶾	-13.0931
薤	-13.0933
煢	-13.0934
虻	-13.0934
賄	-13.0934
􂸨	-13.0937
甯	-13.0937
莢	-13.0938
蕙	-13.094
餕	-13.0941
圯	-13.0942
􂗘	-13.0943
踣	-13.0944
幀	-13.0946
殂	-13.1085
邴	-13.1087
蕚	-13.1088
薌	-13.1088
恊	-13.1095
箏	-13.1096
糅	-13.1097
瞶	-13.1097
𠰒	-13.1098
苫	-13.1098
罐	-13.1102
諄	-13.1103
垓	-13.1103
煬	-13.1104
蠓	-13.1105
慼	-13.1105
圚	-13.1107
崧	-13.1107
徭	-13.1108
鞲	-13.1108
啝	-13.1115
聶	-13.1115
󷕕	-13.1117
从	-13.1233
▲	-13.124
鞫	-13.1256
𡨥	-13.1258
𤺊	-13.1262
厖	-13.1266
崒	-13.127
粱	-13.1272
樺	-13.1272
槵	-13.1273
焙	-13.1274
酩	-13.1275
跼	-13.128
𣔻	-13.1281
袟	-13.1283
咍	-13.1283
猻	-13.1285
襠	-13.1288
𢋫	-13.1289
鼐	-13.129
挖	-13.129
卮	-13.1292
㪯	-13.1296
螟	-13.1435
黐	-13.1435
憒	-13.1435
駮	-13.1436
崕	-13.1442
冉	-13.1442
櫟	-13.1443
愉	-13.1443
藁	-13.1445
戞	-13.1446
鴦	-13.1447
枵	-13.1447
厝	-13.1448
睢	-13.1448
蕘	-13.145
磻	-13.145
欬	-13.1452
黻	-13.1453
瀲	-13.1454
窯	-13.1459
枋	-13.1468
恱	-13.1468
弇	-13.1478
姤	-13.1599
棍	-13.161
菁	-13.1612
僮	-13.1617
蓽	-13.1617
饘	-13.1618
疽	-13.1618
醎	-13.1621
鉞	-13.1622
狙	-13.1622
堠	-13.1623
疚	-13.1624
洸	-13.1629
錍	-13.1629
贛	-13.163
酊	-13.1631
噲	-13.1632
𩪸	-13.1635
檣	-13.1636
竆	-13.1636
糕	-13.1637
圅	-13.1637
瞚	-13.1641
湜	-13.1643
銑	-13.1655
葊	-13.179
鉉	-13.1798
孱	-13.1801
驩	-13.1802
熄	-13.1804
楠	-13.1805
蹌	-13.1808
癭	-13.1808
飥	-13.1809
虡	-13.1809
󳌤	-13.181
蓊	-13.181
鬀	-13.1812
耋	-13.1812
霹	-13.1814
箔	-13.1816
䒢	-13.1817
擷	-13.182
搘	-13.1821
𣲖	-13.1822
佀	-13.1823
篝	-13.1824
蔀	-13.1961
郝	-13.1984
脗	-13.1986
錚	-13.1988
磅	-13.1991
紈	-13.1994
簞	-13.1995
琈	-13.1998
捃	-13.1998
瓞	-13.2
黲	-13.2
喨	-13.2
瓌	-13.2001
嬋	-13.2001
赶	-13.2003
簉	-13.201
昶	-13.202
燾	-13.2137
悳	-13.2162
洊	-13.2165
鐔	-13.2169
飴	-13.2169
憊	-13.2169
潄	-13.2173
揕	-13.2174
帋	-13.2175
頋	-13.2178
荄	-13.2179
昃	-13.2179
緋	-13.218
㲯	-13.2184
鸚	-13.2184
鷰	-13.2185
皜	-13.2186
菸	-13.2189
廄	-13.2193
玨	-13.2193
鏌	-13.2193
茯	-13.2194
𡚶	-13.2195
烜	-13.2196
靉	-13.2197
斐	-13.2198
蕺	-13.22
塩	-13.22
熖	-13.2201
菩	-13.2202
壬	-13.2354
𥻘	-13.2355
窪	-13.2362
韈	-13.2365
叠	-13.2368
瘟	-13.2371
騾	-13.2372
漭	-13.2372
簦	-13.2373
蝡	-13.2374
綃	-13.2375
蹭	-13.2375
璀	-13.2379
黽	-13.2379
𠁼	-13.238
瓏	-13.238
餚	-13.2383
鈐	-13.2386
棬	-13.2387
徬	-13.2387
㦬	-13.2388
墊	-13.2388
郴	-13.2389
軄	-13.2546
瘵	-13.2556
澇	-13.2565
悸	-13.2565
歃	-13.2566
榔	-13.2567
酆	-13.2568
帕	-13.2569
蜩	-13.2571
捿	-13.2572
閘	-13.2573
樾	-13.2573
𤥎	-13.2574
纛	-13.2577
夯	-13.2579
奶	-13.2579
罸	-13.258
膨	-13.2582
諉	-13.2582
饆	-13.2583
囷	-13.2583
㗶	-13.2586
犇	-13.2752
籲	-13.2763
圾	-13.2764
硜	-13.2767
痿	-13.2768
𠕋	-13.2768
喎	-13.2768
悰	-13.277
妓	-13.2771
羆	-13.2771
圊	-13.2773
惴	-13.2774
蜣	-13.2775
溧	-13.2777
崦	-13.2777
詡	-13.2779
雋	-13.278
褚	-13.2961
逭	-13.2963
畆	-13.2965
茁	-13.2965
犧	-13.2965
綆	-13.2966
閽	-13.2967
煽	-13.297
俶	-13.297
跖	-13.2971
臚	-13.2972
歔	-13.2972
靳	-13.2972
釁	-13.2974
糴	-13.2975
菔	-13.2975
堊	-13.2976
榕	-13.2976
璚	-13.2976
糙	-13.2977
輅	-13.2977
椘	-13.2979
鐼	-13.2979
獹	-13.298
迁	-13.298
鷸	-13.2981
鍚	-13.2981
斸	-13.2982
趲	-13.2984
摽	-13.2986
縝	-13.2987
禠	-13.2989
𤇆	-13.2992
峇	-13.2992
鋌	-13.2992
碟	-13.2993
淊	-13.2994
韝	-13.3132
疴	-13.3168
艤	-13.3175
髦	-13.3176
岧	-13.3179
莠	-13.3179
淼	-13.3179
蹺	-13.318
奩	-13.3181
躄	-13.3183
檎	-13.3183
􃂁	-13.3184
僣	-13.3184
嘷	-13.3186
掜	-13.3188
􂸺	-13.3189
𥉌	-13.319
昕	-13.3191
沁	-13.3192
皚	-13.3193
砫	-13.3194
夬	-13.3362
殮	-13.3374
𡉏	-13.3376
癰	-13.3379
腎	-13.3381
匕	-13.3381
廨	-13.3383
苛	-13.3384
囦	-13.3385
嘛	-13.3387
剽	-13.3387
揲	-13.3388
嵋	-13.3393
姮	-13.3393
嵬	-13.3394
鍪	-13.3395
睽	-13.3395
郍	-13.3395
嚲	-13.3396
斕	-13.3397
晳	-13.3398
𠾑	-13.3399
躚	-13.34
灜	-13.3404
鎡	-13.3404
泒	-13.3409
瀘	-13.3413
瀨	-13.3602
廐	-13.3604
欖	-13.3604
婿	-13.3607
𦏪	-13.3607
搴	-13.3608
馵	-13.3609
犒	-13.3609
慥	-13.361
瓴	-13.3611
喍	-13.3611
坷	-13.3613
唆	-13.3613
祜	-13.3613
狷	-13.3614
槊	-13.3615
鍔	-13.3616
斁	-13.3617
紱	-13.362
碔	-13.362
揶	-13.362
攂	-13.362
稊	-13.3621
傝	-13.3622
椹	-13.3623
掙	-13.3623
屩	-13.3623
䂓	-13.3624
囪	-13.3625
嗥	-13.3628
睇	-13.3633
睒	-13.3805
凟	-13.3807
翟	-13.3825
娓	-13.3827
●	-13.3828
葑	-13.3829
俻	-13.3829
迃	-13.3831
糚	-13.3831
沆	-13.3833
鷃	-13.3836
懆	-13.3837
鞦	-13.3838
謎	-13.3839
舸	-13.384
痢	-13.3841
砆	-13.3842
嚷	-13.3844
躐	-13.3845
嶢	-13.3845
蒹	-13.385
冏	-13.4029
蕋	-13.4045
滔	-13.4049
燔	-13.405
軔	-13.4053
杰	-13.4054
紿	-13.4054
蓂	-13.4055
蝣	-13.4055
喁	-13.4056
𢆯	-13.406
麇	-13.406
畚	-13.4062
楨	-13.4062
㭊	-13.4063
噀	-13.4064
鸕	-13.4066
騏	-13.4066
吵	-13.4067
澦	-13.407
珽	-13.4072
响	-13.4073
恓	-13.4076
嶪	-13.4076
澱	-13.4076
媲	-13.4076
璠	-13.4077
惇	-13.4276
𨽻	-13.428
坏	-13.4283
曄	-13.4284
窣	-13.4286
遴	-13.4287
橄	-13.4287
鏖	-13.429
𢁈	-13.429
踴	-13.4292
羇	-13.4296
祺	-13.4296
喑	-13.4297
皦	-13.4297
盇	-13.4297
琉	-13.4297
辤	-13.4298
殢	-13.4299
扆	-13.4299
組	-13.43
諟	-13.43
揉	-13.4301
謖	-13.4302
岵	-13.4303
遝	-13.4303
耍	-13.4304
柵	-13.4305
楂	-13.4305
槳	-13.4306
撅	-13.4307
謊	-13.4308
麫	-13.431
𢼿	-13.4314
慜	-13.4316
蠒	-13.4513
齓	-13.4515
竽	-13.4517
獺	-13.4521
氓	-13.4522
倭	-13.4522
怍	-13.4522
睥	-13.4523
飱	-13.4524
哇	-13.4525
肫	-13.4526
迯	-13.4528
蜿	-13.4529
沄	-13.453
韙	-13.453
牗	-13.4531
􂎫	-13.4532
帡	-13.4532
䘖	-13.4533
腆	-13.4533
担	-13.4533
笆	-13.4533
玲	-13.4537
蠆	-13.4537
櫱	-13.4537
䆿	-13.4538
芷	-13.4539
㨗	-13.4544
謦	-13.4544
羖	-13.4546
淇	-13.4546
縶	-13.455
𢖍	-13.4551
唫	-13.4553
芙	-13.4564
邛	-13.4569
鬯	-13.4751
翛	-13.4758
閎	-13.4759
刲	-13.4761
礴	-13.4764
覘	-13.4766
僦	-13.477
舄	-13.477
𩥇	-13.4773
睠	-13.4773
殽	-13.4773
窶	-13.4774
蹐	-13.4774
炟	-13.4775
籙	-13.4775
浥	-13.4777
蔾	-13.4778
斆	-13.4778
票	-13.4778
緻	-13.4779
摻	-13.4779
㗋	-13.4779
珵	-13.478
嗽	-13.4781
㪍	-13.4782
𨚗	-13.4782
豏	-13.4783
嘍	-13.4784
玟	-13.4785
䨓	-13.4786
饠	-13.4786
瞇	-13.4786
脝	-13.4788
剳	-13.4788
齔	-13.4789
蝟	-13.4789
浯	-13.4789
綦	-13.4789
扠	-13.479
菰	-13.479
踽	-13.4792
壄	-13.4794
暐	-13.4797
𥟖	-13.4811
閈	-13.4997
閼	-13.5008
咤	-13.5012
鞞	-13.5013
鑱	-13.5015
𩍁	-13.5017
憮	-13.5018
䖃	-13.5018
悒	-13.502
䫫	-13.502
棣	-13.5021
𪂶	-13.5021
儆	-13.5022
榱	-13.5026
嗷	-13.5026
埒	-13.5029
泬	-13.5029
蒔	-13.503
鮫	-13.503
耒	-13.5031
儗	-13.5031
詖	-13.5033
齬	-13.5034
弢	-13.5034
餽	-13.5034
匋	-13.5035
抃	-13.5036
亾	-13.5037
爕	-13.5037
磧	-13.5038
穵	-13.5041
􂗆	-13.5041
櫳	-13.5042
䧟	-13.5042
軰	-13.5043
㽞	-13.5045
嚦	-13.5048
璟	-13.5054
隼	-13.5267
枿	-13.5269
尠	-13.5272
闋	-13.5274
耦	-13.5275
鄣	-13.5276
雘	-13.5277
贜	-13.5277
眯	-13.5279
姹	-13.5279
闚	-13.528
妳	-13.528
韵	-13.5282
宙	-13.5283
晰	-13.5285
韆	-13.5285
瘋	-13.5286
饅	-13.5286
篥	-13.5286
盋	-13.5287
謇	-13.5288
蠛	-13.5288
膞	-13.5288
俐	-13.5289
𢿨	-13.5293
羺	-13.5296
玼	-13.5296
鬲	-13.5297
孛	-13.53
􂔓	-13.5302
鵑	-13.5304
訒	-13.5306
弌	-13.5493
怳	-13.5526
穉	-13.5527
縞	-13.5533
圄	-13.5534
鱔	-13.5538
甍	-13.5541
瑰	-13.5541
甃	-13.5541
𢌿	-13.5543
忡	-13.5544
肓	-13.5546
頏	-13.5547
蝨	-13.5547
燠	-13.5548
豢	-13.5549
𣯧	-13.5549
珉	-13.5549
櫛	-13.555
仔	-13.5551
𦊱	-13.5555
鶤	-13.5556
襦	-13.5556
櫻	-13.5556
􂺗	-13.5557
鑌	-13.5561
羙	-13.5562
嵕	-13.5565
詒	-13.5794
鄔	-13.5794
囹	-13.5806
㒹	-13.5806
吮	-13.5808
敻	-13.5809
憬	-13.5809
蠃	-13.5811
姨	-13.5811
駈	-13.5812
檮	-13.5812
迍	-13.5813
膴	-13.5813
歘	-13.5815
詁	-13.5815
泌	-13.5816
頞	-13.5816
喂	-13.5818
閥	-13.582
僑	-13.5821
傋	-13.5822
薊	-13.5822
埠	-13.5823
魈	-13.5823
蟋	-13.5823
桔	-13.5825
鼙	-13.5827
崢	-13.5827
掄	-13.5828
綟	-13.5829
壎	-13.5831
螿	-13.5831
莂	-13.5994
荎	-13.6063
趄	-13.6072
珥	-13.6077
􂎶	-13.6078
栴	-13.6078
蘩	-13.608
菑	-13.6081
隤	-13.6082
贐	-13.6085
韲	-13.6086
澎	-13.6087
鑣	-13.6089
沗	-13.6089
醮	-13.6091
餮	-13.6092
櫬	-13.6092
埴	-13.6093
矦	-13.6093
唔	-13.6094
坂	-13.6095
浼	-13.6095
簋	-13.6095
蹏	-13.6095
寉	-13.6096
鴒	-13.6096
齟	-13.6098
􂱻	-13.6098
濆	-13.6099
躘	-13.6099
釰	-13.61
蹁	-13.6101
眄	-13.6101
篛	-13.6103
畎	-13.6104
臾	-13.6105
螭	-13.6105
𧺆	-13.6106
陝	-13.6107
涽	-13.611
獮	-13.611
焯	-13.6113
胔	-13.6114
臝	-13.6115
笨	-13.6116
堡	-13.612
𦙆	-13.6131
皿	-13.6364
劓	-13.6364
篪	-13.6371
稾	-13.6371
轝	-13.6371
幘	-13.6372
𡋯	-13.6372
贗	-13.6373
搢	-13.6374
趼	-13.6376
狖	-13.6379
儿	-13.6379
僂	-13.638
弈	-13.638
⊙	-13.638
蹂	-13.638
麴	-13.638
瑳	-13.6381
皃	-13.6381
獐	-13.6382
𧬊	-13.6384
𡾓	-13.6388
絺	-13.6388
朞	-13.6388
諤	-13.6389
㼾	-13.6391
𡒁	-13.6393
笟	-13.6397
榍	-13.6401
鉸	-13.6402
鄆	-13.6405
􃄠	-13.6647
恧	-13.665
髠	-13.6652
篲	-13.6658
纊	-13.666
咷	-13.6663
鏑	-13.6664
繙	-13.6664
魃	-13.6665
繾	-13.6668
譎	-13.6668
躓	-13.6669
鍠	-13.6669
垃	-13.667
􃅄	-13.6671
溲	-13.6672
𠎝	-13.6673
蹕	-13.6673
嵂	-13.6674
酋	-13.6674
憧	-13.6674
劊	-13.6675
禋	-13.6676
䬪	-13.6678
悛	-13.6679
朮	-13.6679
倀	-13.6679
紬	-13.6679
藺	-13.6679
嶔	-13.668
鑷	-13.6681
舩	-13.6681
淖	-13.6681
肴	-13.6682
怫	-13.6683
戳	-13.6684
彗	-13.6686
璵	-13.6686
芭	-13.6687
暾	-13.6687
䶥	-13.6689
驄	-13.669
辝	-13.6691
𣜂	-13.6692
猙	-13.6695
噠	-13.6696
筑	-13.6696
惣	-13.6696
㹅	-13.6696
皙	-13.6697
黌	-13.6962
摯	-13.6965
痺	-13.6966
姉	-13.6969
惋	-13.6971
𤀹	-13.6972
摛	-13.6972
膻	-13.6974
鸛	-13.6974
汐	-13.6975
娼	-13.6975
詼	-13.6976
尪	-13.6976
儋	-13.6978
渦	-13.698
町	-13.6982
碪	-13.6982
囤	-13.6984
榾	-13.6984
朧	-13.6985
噦	-13.6986
嶁	-13.6986
箑	-13.6986
獬	-13.6987
㶿	-13.6987
窑	-13.6988
蹣	-13.6988
櫪	-13.6989
磔	-13.6989
敖	-13.6992
薀	-13.7005
姁	-13.7265
骯	-13.7274
彘	-13.7277
櫝	-13.7281
湃	-13.7281
跽	-13.7281
旄	-13.7282
厂	-13.7284
瑚	-13.7284
毉	-13.7286
褪	-13.7287
婪	-13.7287
䬃	-13.7288
􂗷	-13.7288
妊	-13.7289
嵲	-13.7289
嬪	-13.729
譾	-13.729
棼	-13.7292
酡	-13.7293
媟	-13.7294
畀	-13.7295
𨍏	-13.7297
𦉑	-13.7298
跺	-13.7299
斍	-13.73
昰	-13.7301
癹	-13.7302
廋	-13.7303
号	-13.7304
燐	-13.7304
匈	-13.7304
璜	-13.7306
謄	-13.7308
蕤	-13.7311
雰	-13.7319
洱	-13.733
潺	-13.7377
袵	-13.7585
箠	-13.7592
嗑	-13.7593
芘	-13.7596
闞	-13.7596
恫	-13.7599
∴	-13.76
鬅	-13.7603
熚	-13.7604
孀	-13.7607
𡏖	-13.761
煜	-13.7611
愔	-13.7612
豌	-13.7613
幬	-13.7613
郯	-13.7614
誐	-13.7614
么	-13.7615
髑	-13.7615
蔔	-13.7615
劋	-13.7615
奼	-13.7615
𤇅	-13.7616
𣵠	-13.7617
揎	-13.7618
褱	-13.762
枇	-13.7621
阪	-13.7621
卅	-13.7623
聡	-13.7624
辞	-13.7624
畋	-13.7624
槲	-13.7625
緲	-13.7626
𢷾	-13.763
淞	-13.7632
􂨊	-13.7639
虩	-13.7888
齦	-13.7923
搐	-13.7924
粃	-13.7924
覦	-13.7926
麒	-13.793
溍	-13.7934
蛉	-13.7935
窹	-13.7936
狩	-13.7936
氐	-13.7938
咭	-13.7939
榷	-13.7939
听	-13.7941
簀	-13.7941
𣏌	-13.7942
愨	-13.7943
鶵	-13.7943
繖	-13.7943
蕖	-13.7944
􂌞	-13.7944
彿	-13.7945
𨦵	-13.7946
檛	-13.7949
廂	-13.7949
蚓	-13.795
𦚾	-13.7951
⊕	-13.7951
嶸	-13.7951
懡	-13.7952
袾	-13.7953
鮓	-13.7953
鶺	-13.7954
嵎	-13.7954
咱	-13.7954
䁀	-13.7956
慱	-13.7956
喈	-13.7956
鵷	-13.7959
趠	-13.796
𢤱	-13.7963
弥	-13.7963
𠯗	-13.7964
蒨	-13.826
慤	-13.8268
圉	-13.8273
澌	-13.8273
捂	-13.8273
痘	-13.8275
礲	-13.8276
掗	-13.8279
櫩	-13.828
凰	-13.8284
䢴	-13.8285
赭	-13.8285
羔	-13.8288
㗻	-13.8289
髀	-13.8289
苻	-13.8289
瓷	-13.829
遒	-13.8291
㑃	-13.8293
蓴	-13.8296
匼	-13.8296
柢	-13.8297
𨗉	-13.8297
擸	-13.8297
讌	-13.8297
蕕	-13.8298
泫	-13.8298
楣	-13.8298
坳	-13.8301
唬	-13.8302
拐	-13.8305
𢈔	-13.8305
吧	-13.8306
嵆	-13.8306
夌	-13.8307
㪷	-13.8308
𠫵	-13.8309
㱃	-13.8311
髡	-13.8311
蕳	-13.8315
竢	-13.8623
禴	-13.8626
媾	-13.8629
儷	-13.8629
縊	-13.8634
嶤	-13.8636
蔌	-13.8637
硎	-13.8638
筀	-13.8638
􃄞	-13.8639
鑐	-13.864
誄	-13.8642
罽	-13.8642
楩	-13.8642
条	-13.8643
仃	-13.8644
尫	-13.8645
瞭	-13.8645
悻	-13.8646
辠	-13.8646
鴞	-13.8647
欷	-13.8647
呿	-13.8648
樟	-13.8648
壠	-13.8649
枰	-13.865
槿	-13.8651
减	-13.8651
瓔	-13.8652
挍	-13.8652
鏞	-13.8653
蠖	-13.8653
爀	-13.8655
踼	-13.8655
勍	-13.8656
娜	-13.8658
柸	-13.8658
澷	-13.8658
帘	-13.8658
霪	-13.8658
涿	-13.866
臰	-13.8664
隗	-13.8989
牾	-13.8994
焜	-13.9001
􃄝	-13.9002
詺	-13.9002
褶	-13.9005
凂	-13.9007
𡟎	-13.9007
崐	-13.9008
沍	-13.9008
掊	-13.9011
𠒎	-13.9012
囅	-13.9012
狽	-13.9013
俑	-13.9014
蝀	-13.9014
皞	-13.9015
湎	-13.9016
侑	-13.9017
砰	-13.9017
怵	-13.9018
鈆	-13.9018
􂏬	-13.9019
啑	-13.902
邕	-13.902
鵾	-13.9021
柺	-13.9022
巑	-13.9022
𣯛	-13.9024
踄	-13.9024
竉	-13.9026
蚪	-13.9026
𣤩	-13.9027
桺	-13.9027
憺	-13.9027
壒	-13.9029
𠃵	-13.9029
煠	-13.903
愓	-13.9031
総	-13.9031
岣	-13.9033
劻	-13.9036
胾	-13.9036
曖	-13.9036
䥘	-13.9037
瞌	-13.9037
幫	-13.9038
耜	-13.9045
􂂋	-13.9049
𩔗	-13.905
璲	-13.905
弍	-13.9358
栝	-13.938
豳	-13.938
墉	-13.9382
搉	-13.9383
牴	-13.9383
黷	-13.9385
畒	-13.9386
沚	-13.9386
髒	-13.9393
狚	-13.9393
覉	-13.9394
鬂	-13.9395
胚	-13.9398
癲	-13.9399
胼	-13.9399
汜	-13.94
忩	-13.94
佔	-13.9401
嫫	-13.9402
𢷤	-13.9402
羼	-13.9402
陲	-13.9403
睍	-13.9403
􂨘	-13.9403
堙	-13.9403
賬	-13.9403
砲	-13.9405
鎰	-13.9405
秣	-13.9406
媱	-13.9406
􂿃	-13.9406
檠	-13.9407
嫚	-13.9408
划	-13.9409
㬠	-13.9411
氊	-13.9411
篳	-13.9411
鰻	-13.9413
鑯	-13.9414
𧘂	-13.9414
翬	-13.9416
猝	-13.9416
匆	-13.9418
—	-13.9419
𠂤	-13.9425
𥳽	-13.9427
瑃	-13.9446
繰	-13.977
枘	-13.9772
魘	-13.9777
洼	-13.9779
扞	-13.978
峪	-13.9783
𢌅	-13.9787
盔	-13.9791
脯	-13.9792
󳲳	-13.9792
跫	-13.9793
滉	-13.9794
圻	-13.9794
祲	-13.9794
旒	-13.9795
瓛	-13.9796
盱	-13.9797
賍	-13.9798
刧	-13.9798
畛	-13.9799
蚍	-13.98
斝	-13.98
滏	-13.9801
梔	-13.9801
徊	-13.9801
𥗋	-13.9802
眶	-13.9802
鍧	-13.9802
睚	-13.9803
灊	-13.9804
縕	-13.9804
帒	-13.9804
觕	-13.9806
諜	-13.9807
叭	-13.9807
揞	-13.9809
嚝	-13.9809
􃇠	-13.981
巃	-13.981
犙	-13.9813
𡰱	-13.9814
趒	-13.9815
渫	-13.9816
薯	-13.9817
𩗺	-13.9817
鋏	-13.9819
蚨	-13.982
䪺	-13.982
蝴	-13.9821
颿	-13.9822
扮	-13.9824
姙	-14.0187
蜾	-14.019
祔	-14.0192
䕢	-14.0198
珞	-14.0198
􂔮	-14.0199
蓏	-14.02
篡	-14.0201
洟	-14.0202
昵	-14.0203
縲	-14.0203
阨	-14.0204
痂	-14.0206
虢	-14.0206
戇	-14.0211
晢	-14.0211
姝	-14.0212
薺	-14.0213
崘	-14.0213
坍	-14.0213
很	-14.0216
壩	-14.0217
坯	-14.0217
𢬟	-14.0217
貊	-14.0218
闉	-14.0219
旖	-14.0221
𠎥	-14.0221
晁	-14.0221
扒	-14.0221
髿	-14.0221
茭	-14.0222
緱	-14.0222
焞	-14.0223
弑	-14.0224
硿	-14.0224
赳	-14.0224
逍	-14.0225
寖	-14.0227
肐	-14.0227
岏	-14.0227
剮	-14.0228
鍤	-14.0228
讙	-14.023
嗹	-14.023
皪	-14.0232
硤	-14.0235
崟	-14.0237
珎	-14.0243
嚤	-14.0245
炅	-14.0608
沴	-14.0619
羝	-14.063
飇	-14.0634
蝮	-14.0635
喔	-14.0635
譍	-14.0636
琯	-14.0637
閾	-14.0639
潁	-14.0639
雇	-14.064
紉	-14.0641
鱸	-14.0644
黥	-14.0645
飩	-14.0645
玳	-14.0648
螣	-14.0648
螽	-14.0649
芾	-14.0651
粢	-14.0651
襂	-14.0651
賂	-14.0651
擄	-14.0651
瀼	-14.0652
枌	-14.0652
兗	-14.0653
縹	-14.0653
􂨿	-14.0653
鷇	-14.0653
汛	-14.0653
旎	-14.0653
㶑	-14.0655
椉	-14.0655
曈	-14.0655
槔	-14.0656
榖	-14.0656
靘	-14.0657
㟮	-14.0657
慴	-14.0658
呶	-14.0658
还	-14.0658
諵	-14.0659
嗌	-14.0659
菀	-14.066
渧	-14.0661
􂨭	-14.0661
熳	-14.0662
鍥	-14.0662
赬	-14.0662
􃅓	-14.0664
穸	-14.0665
蜺	-14.0665
奭	-14.0665
蔆	-14.0666
垜	-14.0667
蛄	-14.0669
欞	-14.067
砑	-14.067
瀠	-14.067
蝌	-14.0672
鵡	-14.0675
膱	-14.0677
𧏙	-14.108
饞	-14.1088
繄	-14.1091
囁	-14.1095
膂	-14.1097
圮	-14.1098
鈕	-14.11
飃	-14.1101
楸	-14.1102
漈	-14.1103
踖	-14.1103
忪	-14.1105
乩	-14.1106
酖	-14.1106
楖	-14.1107
佟	-14.1108
暠	-14.1109
獍	-14.111
涬	-14.111
紲	-14.1111
蟭	-14.1111
揠	-14.1111
鏹	-14.1112
欛	-14.1113
螻	-14.1113
謴	-14.1114
柚	-14.1115
捬	-14.1115
鱷	-14.1116
机	-14.1116
鎬	-14.1116
鵒	-14.1116
軆	-14.1117
鋣	-14.1118
挪	-14.1118
欸	-14.1119
鴝	-14.1119
崿	-14.1121
帩	-14.1124
遢	-14.1126
懨	-14.1126
灃	-14.1128
舲	-14.1128
𥋾	-14.1131
鳬	-14.1134
灤	-14.1138
宂	-14.114
泱	-14.1144
遨	-14.1525
嚆	-14.1558
瘤	-14.156
撙	-14.1562
甆	-14.1564
壖	-14.1568
磽	-14.157
涖	-14.1571
濘	-14.1573
靶	-14.1573
剺	-14.1574
袤	-14.1575
塿	-14.1575
籐	-14.1575
駄	-14.1578
癈	-14.1578
𨓍	-14.1578
衮	-14.1578
罌	-14.1579
眥	-14.1579
娉	-14.1579
晌	-14.158
坭	-14.1581
鬐	-14.1581
󱢴	-14.1582
袈	-14.1582
溘	-14.1583
颶	-14.1583
擐	-14.1583
讟	-14.1584
顇	-14.1584
庀	-14.1584
騭	-14.1585
跚	-14.1585
擭	-14.1586
綑	-14.1586
傴	-14.1587
􂨰	-14.1587
澳	-14.1587
饜	-14.1588
誶	-14.1588
懣	-14.1589
蒯	-14.159
腪	-14.159
薉	-14.159
偲	-14.1592
菉	-14.1593
踔	-14.1593
𥿄	-14.1593
讋	-14.1594
欃	-14.1594
塍	-14.1595
㓟	-14.1595
祧	-14.1595
継	-14.1597
瀫	-14.1597
窀	-14.1597
穨	-14.1597
䖝	-14.1597
邋	-14.16
菅	-14.1601
𠺕	-14.1602
点	-14.1603
惆	-14.1604
蠎	-14.2035
竑	-14.2062
咥	-14.2063
詛	-14.2065
掾	-14.2066
偁	-14.2067
鸜	-14.2068
檳	-14.2069
痍	-14.207
獪	-14.2072
蟊	-14.2074
抅	-14.2075
确	-14.2076
臽	-14.2077
𠷣	-14.2078
餛	-14.2078
騶	-14.2079
堋	-14.208
圞	-14.208
慝	-14.2081
􂆐	-14.2082
踉	-14.2082
潬	-14.2083
跧	-14.2083
雩	-14.2083
㝹	-14.2083
蚰	-14.2083
棉	-14.2085
矱	-14.2085
殳	-14.2085
玖	-14.2086
剸	-14.2086
笄	-14.2087
胍	-14.2087
綈	-14.2087
貔	-14.2087
蹱	-14.2088
𠴨	-14.2088
饔	-14.2088
觳	-14.209
􃌯	-14.209
倥	-14.209
鈿	-14.209
讜	-14.209
霔	-14.2091
罍	-14.2091
篴	-14.2091
岠	-14.2091
矬	-14.2091
𩨘	-14.2092
蹀	-14.2093
傜	-14.2093
礵	-14.2093
齣	-14.2093
􃄴	-14.2094
焂	-14.2094
搨	-14.2095
瀇	-14.2096
󲣅	-14.2096
霂	-14.2097
鵽	-14.2097
儵	-14.2097
倆	-14.2098
􂸖	-14.2099
网	-14.21
隩	-14.21
噥	-14.2102
襵	-14.2103
佘	-14.2105
衹	-14.2106
擈	-14.2107
葚	-14.2109
僜	-14.2112
𢗅	-14.2113
袚	-14.2119
餤	-14.2121
琭	-14.2561
趦	-14.2569
蟣	-14.2574
鵂	-14.2577
圌	-14.2579
絜	-14.2583
穟	-14.2585
呰	-14.2586
疹	-14.2587
􂸝	-14.2594
詿	-14.2594
雱	-14.2594
嚅	-14.2594
瓘	-14.2595
獒	-14.2596
驍	-14.2597
鱠	-14.2599
紕	-14.2599
鬖	-14.2599
緗	-14.2599
湢	-14.2601
𠢐	-14.2601
䬸	-14.2602
瘼	-14.2602
侁	-14.2603
姧	-14.2604
滙	-14.2604
坻	-14.2604
鬙	-14.2605
逖	-14.2605
宷	-14.2605
氀	-14.2608
洫	-14.2608
垕	-14.2608
刓	-14.2609
殲	-14.2609
檉	-14.261
鞘	-14.2611
鈷	-14.2611
禫	-14.2612
鋾	-14.2612
挕	-14.2613
沬	-14.2613
壼	-14.2613
枻	-14.2614
螮	-14.2616
貅	-14.2617
訇	-14.2619
卬	-14.2619
瞍	-14.2619
术	-14.2619
敔	-14.2621
箄	-14.2621
芎	-14.2622
䰟	-14.2625
𢣾	-14.2625
箝	-14.2626
蟪	-14.2628
韭	-14.2629
玹	-14.263
灞	-14.2631
嶧	-14.2632
寀	-14.2634
恝	-14.2635
倧	-14.2637
璡	-14.2641
玡	-14.2647
靛	-14.3141
殛	-14.3141
斋	-14.3143
暀	-14.3146
唶	-14.3147
諏	-14.3147
劾	-14.3153
𠇾	-14.3153
𨓦	-14.3153
餺	-14.3154
腊	-14.3156
醃	-14.3158
鵓	-14.3159
鬔	-14.316
勣	-14.3161
唁	-14.3161
劭	-14.3161
艨	-14.3162
浡	-14.3163
衩	-14.3164
胖	-14.3164
歠	-14.3165
颷	-14.3165
忮	-14.3166
櫜	-14.3167
槧	-14.3168
鍍	-14.3169
屾	-14.3171
褦	-14.3171
搪	-14.3172
緞	-14.3173
𡁠	-14.3173
醨	-14.3174
琚	-14.3175
觝	-14.3175
簥	-14.3175
唏	-14.3175
裱	-14.3176
嵊	-14.3176
鴣	-14.3176
尢	-14.3177
諼	-14.3177
琶	-14.3177
澮	-14.3177
靨	-14.3178
岊	-14.3178
凾	-14.3179
𣰦	-14.3179
壚	-14.318
粜	-14.318
㞧	-14.3182
酹	-14.3182
琖	-14.3182
鷁	-14.3182
疄	-14.3184
嵷	-14.3186
􃌛	-14.3186
杇	-14.3186
簍	-14.3187
䠶	-14.3187
䥴	-14.3188
誧	-14.3189
㯶	-14.3189
罡	-14.3191
鞾	-14.3194
譒	-14.3197
𡨢	-14.3199
罾	-14.3211
礨	-14.3713
褭	-14.373
欏	-14.3733
旟	-14.3733
郟	-14.3733
鶖	-14.3734
䖟	-14.3736
麂	-14.3739
絏	-14.374
襃	-14.3743
蜢	-14.3743
悕	-14.3743
莅	-14.3743
兖	-14.3744
艘	-14.3744
諓	-14.3745
旰	-14.3748
衺	-14.3749
勌	-14.3749
蠍	-14.3749
◎	-14.375
嫠	-14.3751
鐍	-14.3751
壻	-14.3751
戡	-14.3751
攏	-14.3751
趑	-14.3752
殍	-14.3752
䨥	-14.3752
嶴	-14.3753
輶	-14.3753
醆	-14.3754
豉	-14.3754
墁	-14.3755
劖	-14.3756
鋐	-14.3756
倬	-14.3758
哨	-14.3758
伙	-14.3758
呦	-14.3759
轕	-14.3759
𨜶	-14.3759
鉼	-14.3761
餖	-14.3761
􂉼	-14.3761
棓	-14.3761
姆	-14.3761
璸	-14.3763
瀣	-14.3763
艫	-14.3763
觥	-14.3763
􂺆	-14.3764
𢡽	-14.3765
菠	-14.3767
秫	-14.3767
裷	-14.3768
葫	-14.3769
奫	-14.3769
棐	-14.3773
荃	-14.3774
鯰	-14.3774
璃	-14.3774
𧆞	-14.3774
綌	-14.3775
轔	-14.3775
鼕	-14.3776
洮	-14.3777
􃅟	-14.3778
呴	-14.378
釗	-14.3781
佢	-14.3782
呸	-14.3785
瑀	-14.3786
罤	-14.4347
酎	-14.4351
侏	-14.4354
蟥	-14.4354
籧	-14.4356
僨	-14.4357
迕	-14.4358
􂗰	-14.4359
凴	-14.4359
峒	-14.4361
詘	-14.4365
瘍	-14.4366
靻	-14.4366
鮎	-14.4367
歒	-14.4367
瑁	-14.4369
澶	-14.4369
𡨔	-14.437
厪	-14.437
汭	-14.4371
憋	-14.4371
汋	-14.4371
烙	-14.4373
㳷	-14.4373
煗	-14.4373
隲	-14.4374
啍	-14.4374
䩫	-14.4374
篨	-14.4375
亶	-14.4376
鋋	-14.4376
俘	-14.4377
柎	-14.4377
紵	-14.4377
粖	-14.4378
榸	-14.438
𨔝	-14.438
􂑓	-14.4381
㡧	-14.4381
鉆	-14.4381
埭	-14.4382
􂂈	-14.4382
畸	-14.4382
炕	-14.4382
􂁭	-14.4382
偎	-14.4384
輊	-14.4384
彔	-14.4385
湔	-14.4387
舳	-14.4388
罳	-14.4389
棰	-14.4391
濩	-14.4391
𥅄	-14.4393
咻	-14.4393
蕞	-14.4394
璁	-14.4395
􂸽	-14.4395
銼	-14.4396
𣍘	-14.4396
硐	-14.4398
礚	-14.44
荇	-14.4401
梩	-14.4403
柤	-14.4404
𡶨	-14.4406
冪	-14.4407
澬	-14.4407
炉	-14.441
鮦	-14.4413
􃅜	-14.4419
韡	-14.4427
鄖	-14.4462
匃	-14.501
郛	-14.5023
伉	-14.5023
煐	-14.5024
慽	-14.5027
𦝫	-14.5027
闠	-14.5029
耔	-14.5029
譸	-14.503
皡	-14.503
愎	-14.5031
鱣	-14.5031
揪	-14.5035
蕢	-14.5035
犗	-14.5035
戩	-14.5037
蝙	-14.5038
囮	-14.5039
蹩	-14.5039
閹	-14.5039
軿	-14.504
抨	-14.5041
矌	-14.5042
呫	-14.5042
陏	-14.5043
酲	-14.5043
爼	-14.5044
腠	-14.5044
䑳	-14.5045
菘	-14.5046
滹	-14.5046
𠠢	-14.5047
燖	-14.5047
蘺	-14.5048
軛	-14.5048
簁	-14.5048
𪅎	-14.5048
㽄	-14.5049
𡱁	-14.5049
嚎	-14.5049
耎	-14.505
茙	-14.505
湞	-14.505
鈯	-14.5054
筇	-14.5054
勱	-14.5054
􂘒	-14.5055
蚿	-14.5056
狺	-14.5056
徠	-14.5057
仿	-14.5057
枸	-14.5058
㴾	-14.5058
轗	-14.5059
𠇲	-14.506
薅	-14.506
惷	-14.5061
旴	-14.5061
矒	-14.5061
䆫	-14.5061
􂔞	-14.5061
糗	-14.5062
璩	-14.5062
鏬	-14.5063
𦒿	-14.5063
噱	-14.5064
噹	-14.5065
萇	-14.5065
謷	-14.5067
嵇	-14.5067
礭	-14.507
玭	-14.5071
漻	-14.5077
蒜	-14.5085
啉	-14.5086
紇	-14.5708
悝	-14.5724
頊	-14.5728
􃄜	-14.5729
庿	-14.5732
崫	-14.5732
鸇	-14.5733
𢮁	-14.5736
眙	-14.5737
罨	-14.5737
鬭	-14.5737
枹	-14.5738
惄	-14.5738
曏	-14.5738
䘏	-14.5739
婇	-14.5739
鄠	-14.5739
綍	-14.574
栻	-14.574
鷙	-14.5742
僇	-14.5743
恛	-14.5744
憃	-14.5744
醅	-14.5744
獼	-14.5746
羂	-14.5748
閗	-14.5748
厰	-14.575
玦	-14.575
狴	-14.575
紓	-14.575
鼗	-14.5752
瓿	-14.5753
玎	-14.5754
碙	-14.5754
椏	-14.5755
𨫼	-14.5755
垤	-14.5756
稂	-14.5756
篠	-14.5757
狤	-14.5757
澒	-14.5757
𨷖	-14.5757
㒒	-14.5757
螗	-14.5758
㜑	-14.5759
𨦣	-14.5759
釃	-14.5759
亳	-14.5759
嵫	-14.576
坰	-14.576
矓	-14.576
簏	-14.576
痁	-14.576
磈	-14.5761
矰	-14.5761
盹	-14.5761
掁	-14.5761
磲	-14.5761
􃆘	-14.5761
弰	-14.5761
跕	-14.5761
晬	-14.5762
𦬆	-14.5763
髽	-14.5763
芡	-14.5763
賻	-14.5763
嗶	-14.5764
尔	-14.5764
籹	-14.5764
媛	-14.5765
璐	-14.5766
絣	-14.5766
菡	-14.5767
躇	-14.5767
俳	-14.5767
贔	-14.5768
餔	-14.5768
朣	-14.5769
曀	-14.577
孾	-14.5771
嘅	-14.5772
幌	-14.5772
躃	-14.5772
󳵥	-14.5774
艟	-14.5774
㘭	-14.5774
詨	-14.5775
𥻿	-14.5776
𠬛	-14.5776
􂍊	-14.5776
𡨋	-14.5777
芦	-14.5777
犛	-14.5777
礄	-14.5778
枮	-14.5778
=	-14.5779
窰	-14.5779
􃏧	-14.578
搵	-14.578
磎	-14.5781
獷	-14.5782
罘	-14.5783
􂞺	-14.5784
頵	-14.5784
瀧	-14.5784
徣	-14.5785
嶇	-14.5786
蟺	-14.5787
焭	-14.5788
璝	-14.58
娣	-14.6425
欿	-14.6462
繘	-14.6468
姒	-14.6473
伫	-14.6474
閿	-14.649
揬	-14.6503
洣	-14.6503
邅	-14.6504
麞	-14.6506
惽	-14.6507
尻	-14.6507
黮	-14.6508
飂	-14.6508
蝠	-14.651
塏	-14.651
抔	-14.651
猋	-14.6511
悾	-14.6512
繂	-14.6512
蹻	-14.6516
嫖	-14.6516
􃄟	-14.6517
譟	-14.6518
貉	-14.6518
𠙥	-14.6519
睟	-14.6519
枒	-14.652
耬	-14.652
嵳	-14.652
鞀	-14.652
靚	-14.652
胆	-14.6521
挼	-14.6521
𤾣	-14.6521
眈	-14.6521
𡽗	-14.6522
愫	-14.6522
酇	-14.6523
茜	-14.6523
摗	-14.6524
僃	-14.6525
颭	-14.6526
篔	-14.6526
㦸	-14.6526
盵	-14.6526
瑠	-14.6526
蛣	-14.6527
鄷	-14.6527
殀	-14.6527
糉	-14.6528
勠	-14.6528
轇	-14.6529
◇	-14.6529
󱨊	-14.6529
赩	-14.653
虓	-14.653
𧉮	-14.6531
腲	-14.6531
巟	-14.6531
蹡	-14.6532
陔	-14.6533
惔	-14.6533
紼	-14.6533
硨	-14.6533
藎	-14.6533
嚭	-14.6534
𠺗	-14.6534
扙	-14.6534
儓	-14.6534
毸	-14.6534
鮒	-14.6534
芮	-14.6536
湓	-14.6536
𦿆	-14.6536
傀	-14.6536
憙	-14.6537
喿	-14.6537
堇	-14.6537
纚	-14.6537
厶	-14.6537
滃	-14.6538
趐	-14.6538
迮	-14.6538
挅	-14.6538
畞	-14.6538
𩕳	-14.654
㠟	-14.654
麢	-14.654
𣽅	-14.654
􂚋	-14.6541
𩃱	-14.6541
瀞	-14.6542
幗	-14.6543
𥈅	-14.6543
撗	-14.6543
卹	-14.6543
氾	-14.6543
葳	-14.6543
𦭘	-14.6544
覤	-14.6545
茱	-14.6546
揳	-14.6547
珩	-14.6547
囈	-14.6548
踹	-14.6548
蘷	-14.6549
敶	-14.6549
幖	-14.655
𢙢	-14.655
莓	-14.6551
雯	-14.6553
鳺	-14.6555
飋	-14.6556
霙	-14.6556
撘	-14.656
找	-14.6562
㕍	-14.6564
渢	-14.6567
滀	-14.7304
輜	-14.7314
咋	-14.7316
帮	-14.7324
鄏	-14.7329
蹢	-14.733
狶	-14.7332
昴	-14.7336
闒	-14.7337
脰	-14.7338
洑	-14.734
莩	-14.7343
佺	-14.7343
瑗	-14.7347
咈	-14.7348
耡	-14.7348
旐	-14.735
慷	-14.735
摣	-14.7351
戱	-14.7353
餗	-14.7353
揍	-14.7354
絰	-14.7355
陊	-14.7356
癆	-14.7356
痞	-14.7357
隖	-14.7357
磑	-14.7357
㶚	-14.7359
㭰	-14.7359
湼	-14.7359
琤	-14.7359
郗	-14.736
熇	-14.736
虙	-14.736
氎	-14.7361
匊	-14.7361
蠋	-14.7361
烯	-14.7363
仐	-14.7363
愾	-14.7364
杴	-14.7364
焠	-14.7364
􂺈	-14.7364
饙	-14.7364
鵮	-14.7365
㲣	-14.7365
㧓	-14.7365
礽	-14.7366
愒	-14.7367
嵯	-14.7367
澉	-14.7368
昫	-14.7368
𤄃	-14.7368
潟	-14.7368
慫	-14.7368
僰	-14.7369
驃	-14.7372
𧫡	-14.7372
疁	-14.7374
褎	-14.7374
隧	-14.7376
𧩙	-14.7376
𡄦	-14.7378
頁	-14.7378
攞	-14.7378
楄	-14.738
䌛	-14.7381
聮	-14.7381
糯	-14.7382
𨦟	-14.7382
㵣	-14.7382
燻	-14.7383
嗢	-14.7384
澠	-14.7384
哿	-14.7385
届	-14.7389
痠	-14.739
厀	-14.7391
暪	-14.7392
丆	-14.7393
涷	-14.7398
垸	-14.7403
鏊	-14.7407
蓀	-14.7408
𠾐	-14.7409
𧦬	-14.7426
傒	-14.8246
㖀	-14.8255
䓗	-14.8264
柮	-14.8265
䆮	-14.8266
嚀	-14.8273
勔	-14.8276
䦹	-14.8277
傯	-14.8278
䘳	-14.8281
佾	-14.8282
跎	-14.8284
傖	-14.8286
䤬	-14.8286
䗶	-14.8288
㨿	-14.8298
〇	-14.8308
窿	-14.9223
逅	-14.9265
咫	-14.9283
蟆	-14.9287
鸝	-14.9289
裟	-14.929
襁	-15.0357
蚯	-15.039
囫	-15.0391
儡	-15.0402
崆	-15.1635
湲	-15.2715
擻	-15.3043
俙	-15.3056
靂	-15.3067
蟇	-15.3073
羚	-15.3085
闤	-15.3087
徘	-15.309
幞	-15.4659
褓	-15.4702
瑪	-15.4719
瑙	-15.4734
邂	-15.4766
醐	-15.6696
餬	-15.67
粕	-15.6717
薝	-15.6728
俜	-15.6732
𣗖	-15.6737
𨁝	-15.6743
琵	-15.6747
尀	-15.6758
鷓	-15.6775
鄲	-15.9209
萏	-15.9213
邯	-15.922
鎁	-16.2552
靆	-16.2578
>	-16.2595
醍	-16.7604
茴	-17.7549
|	-17.755
踧	-17.755
襶	-17.7551
齈	-17.7552
烊	-17.7553
𦆆	-17.7554
遛	-17.7555
羑	-17.7556
栯	-17.7557
臙	-17.7558
栓	-17.7559
珈	-17.756
嚨	-17.7561
􃄤	-17.7562
盝	-17.7563
萵	-17.7564
蟀	-17.7565
嫦	-17.7566
蜊	-17.7567
瓈	-17.7568
琥	-17.7569
蜈	-17.757
蚣	-17.7571
V	-17.7572
轤	-17.7573
篌	-17.7574
蝍	-17.7575
䗫	-17.7576
*	-17.7577
鷥	-17.7577
