<unk>	0
<s>	0
</s>	0
之	-4.16322
也	-4.83726
爲	-4.99027
以	-5.10272
者	-5.11304
而	-5.17911
有	-5.2521
/	-5.2656
)	-5.26963
(	-5.28239
於	-5.30759
一	-5.35378
不	-5.39539
中	-5.51477
神	-5.51588
天	-5.55179
其	-5.55483
生	-5.57343
人	-5.59324
上	-5.6137
無	-5.70967
則	-5.71156
道	-5.73479
心	-5.85248
自	-5.86666
大	-5.87122
眞	-5.89038
三	-5.93104
此	-5.9485
曰	-5.95362
得	-5.96959
明	-6.00602
行	-6.01555
至	-6.04643
如	-6.07888
靈	-6.07943
日	-6.10969
下	-6.11458
在	-6.11832
是	-6.13129
玄	-6.16581
氣	-6.16939
見	-6.18582
乃	-6.21984
子	-6.22086
)(	-6.23392
法	-6.24283
入	-6.24414
所	-6.25647
山	-6.28698
故	-6.29681
與	-6.3008
時	-6.30394
身	-6.30972
炁	-6.31222
元	-6.31684
即	-6.31819
水	-6.31915
成	-6.32447
金	-6.32533
五	-6.35678
言	-6.36573
火	-6.3742
九	-6.37692
名	-6.38075
皆	-6.38883
相	-6.39126
出	-6.40887
陽	-6.42187
矣	-6.42258
玉	-6.42395
非	-6.42458
二	-6.4321
地	-6.44615
君	-6.44788
化	-6.46216
精	-6.46239
經	-6.46591
四	-6.46959
仙	-6.47275
來	-6.48208
文	-6.50898
符	-6.51318
光	-6.52602
合	-6.53076
帝	-6.54986
若	-6.55341
我	-6.55636
用	-6.56276
命	-6.56837
書	-6.57581
當	-6.58656
无	-6.59062
雲	-6.59276
同	-6.60219
主	-6.6044
後	-6.61248
正	-6.62316
可	-6.63328
▁	-6.63512
常	-6.63929
通	-6.63989
宫	-6.64497
師	-6.65766
又	-6.66525
或	-6.67279
方	-6.6755
事	-6.6763
令	-6.67757
形	-6.67906
音	-6.68316
王	-6.68382
能	-6.68428
龍	-6.68774
妙	-6.68941
六	-6.69606
度	-6.69913
諸	-6.71322
作	-6.71765
應	-6.72285
今	-6.73053
内	-6.7315
受	-6.73332
復	-6.73561
知	-6.73832
丹	-6.74272
及	-6.75618
臣	-6.78792
云	-6.78806
空	-6.78905
風	-6.79178
長	-6.79466
前	-6.80701
亦	-6.80904
居	-6.83137
乎	-6.83625
欲	-6.83737
從	-6.83866
天地	-6.83937
開	-6.84309
真	-6.84429
月	-6.84478
分	-6.85375
去	-6.85896
運	-6.86148
觀	-6.86238
眞人	-6.8632
飛	-6.87183
年	-6.87284
使	-6.8793
然	-6.88199
華	-6.88387
降	-6.89275
因	-6.89293
未	-6.89468
萬	-6.89636
八	-6.8997
善	-6.90268
世	-6.90741
陰	-6.92063
清	-6.93768
本	-6.95351
吾	-6.95499
聞	-6.95553
歸	-6.96248
傳	-6.96432
字	-6.9652
右	-6.96618
自然	-6.97044
門	-6.97086
數	-6.97129
體	-6.97586
洞	-6.9772
將	-6.98524
景	-6.99279
立	-6.99373
安	-7.00072
七	-7.00491
何	-7.01127
性	-7.01764
流	-7.02305
天帝	-7.02738
已	-7.02988
處	-7.03183
先	-7.03443
死	-7.03832
白	-7.0435
物	-7.04893
定	-7.07047
寳	-7.07071
土	-7.0765
外	-7.07968
修	-7.08512
德	-7.08517
存	-7.10069
過	-7.10649
隂	-7.10946
虚	-7.1145
盡	-7.11595
聖	-7.11696
青	-7.12061
星	-7.12562
始	-7.13266
離	-7.14236
凡	-7.1428
召	-7.14799
多	-7.14805
念	-7.14871
十	-7.16007
取	-7.16066
意	-7.16248
變	-7.1718
重	-7.17225
先生	-7.17238
色	-7.17258
功	-7.18511
初	-7.18733
和	-7.1931
象	-7.19609
起	-7.1974
家	-7.19956
章	-7.20002
鬼	-7.2061
木	-7.20876
位	-7.21384
公	-7.21802
難	-7.21858
黄	-7.22869
守	-7.23358
散	-7.23627
遂	-7.23874
結	-7.24574
極	-7.25095
隨	-7.25502
發	-7.25864
還	-7.25908
衆	-7.26442
治	-7.27145
次	-7.27289
于	-7.27898
官	-7.28091
謂	-7.28402
動	-7.28474
天尊	-7.2852
石	-7.28678
聲	-7.28999
東	-7.29971
各	-7.30928
交	-7.31019
樂	-7.31277
南	-7.31458
求	-7.31749
焉	-7.3354
小	-7.33851
都	-7.33876
元始	-7.34025
朝	-7.34093
惡	-7.34653
雷	-7.35066
說	-7.35154
遊	-7.35175
福	-7.3518
靜	-7.35326
兩	-7.35378
會	-7.35497
解	-7.35544
魂	-7.35664
理	-7.36087
隱	-7.36349
根	-7.37503
滅	-7.37615
不可	-7.37873
藥	-7.38332
必	-7.38481
教	-7.38716
邪	-7.38833
號	-7.39152
國	-7.39218
西	-7.393
女	-7.40135
服	-7.40252
奉	-7.40381
保	-7.41056
既	-7.41148
目	-7.41694
雖	-7.41847
日月	-7.42951
等	-7.42958
紫	-7.43137
周	-7.43323
諸天	-7.43827
食	-7.43867
易	-7.43987
口	-7.44021
思	-7.44402
夫	-7.4449
府	-7.44509
一切	-7.44524
赤	-7.44956
願	-7.45201
深	-7.45224
幽	-7.45379
並	-7.45764
實	-7.46055
香	-7.46412
藏	-7.46854
問	-7.47019
平	-7.4784
宗	-7.48084
耳	-7.48237
北	-7.48247
惟	-7.48472
登	-7.48946
向	-7.49162
百	-7.49348
左	-7.4941
上清	-7.49511
絶	-7.49644
致	-7.50092
司	-7.50767
遇	-7.50928
高	-7.51048
罪	-7.51809
須	-7.51854
張	-7.51939
圖	-7.52144
蓋	-7.52909
信	-7.5321
除	-7.53276
終	-7.53514
俱	-7.53939
轉	-7.53965
之中	-7.54001
千	-7.54162
攝	-7.54228
母	-7.54599
乾	-7.54652
關	-7.55426
告	-7.55804
呪	-7.55825
全	-7.56591
坐	-7.56778
異	-7.57139
照	-7.57806
力	-7.57823
請	-7.57976
老	-7.58079
苦	-7.58868
廣	-7.59292
太	-7.5939
便	-7.59401
太上	-7.59562
不得	-7.59576
微	-7.59662
頭	-7.59986
中有	-7.60026
回	-7.60248
學	-7.603
鍊	-7.61137
持	-7.61569
海	-7.61628
陰陽	-7.61668
夜	-7.61793
制	-7.61821
病	-7.62112
伏	-7.62136
不能	-7.62212
執	-7.63436
但	-7.64356
感	-7.64481
汝	-7.64551
劫	-7.64808
息	-7.65515
識	-7.65573
少	-7.6569
止	-7.65973
舉	-7.66086
永	-7.66211
宜	-7.66407
巳	-7.66794
禮	-7.66836
爾	-7.66974
養	-7.67099
語	-7.67101
間	-7.67158
胎	-7.67268
衣	-7.67292
失	-7.67315
集	-7.67658
莫	-7.68049
壇	-7.68084
之道	-7.68609
授	-7.69088
往	-7.69311
更	-7.69501
首	-7.69585
足	-7.70449
羅	-7.70454
魔	-7.70931
節	-7.71146
畢	-7.71173
十方	-7.71444
九天	-7.71517
要	-7.71534
臨	-7.71646
塵	-7.71844
積	-7.72073
尊	-7.72155
衆生	-7.72484
著	-7.72599
機	-7.72928
顯	-7.73084
斗	-7.73667
素	-7.7367
訣	-7.73705
奏	-7.73817
三界	-7.74496
神仙	-7.74589
指	-7.75069
面	-7.75122
萬物	-7.75131
皇	-7.7518
果	-7.7544
五行	-7.76274
業	-7.76407
由	-7.7685
直	-7.77057
雨	-7.77146
室	-7.77364
民	-7.77552
謂之	-7.77736
戒	-7.77927
依	-7.77929
宿	-7.78034
滿	-7.7813
黑	-7.787
之炁	-7.78943
太一	-7.79158
覺	-7.79378
馬	-7.79425
情	-7.79686
坤	-7.80665
到	-7.80848
好	-7.80918
固	-7.81293
甚	-7.81374
普	-7.81613
朱	-7.81719
别	-7.81994
威	-7.82217
哉	-7.82464
乘	-7.82833
縁	-7.82953
故曰	-7.82969
玉女	-7.83306
壽	-7.83373
所以	-7.83424
遠	-7.83575
志	-7.83673
延	-7.83716
聽	-7.83737
施	-7.83747
稱	-7.83883
啓	-7.83923
靈寳	-7.83962
且	-7.83997
列	-7.84141
屬	-7.84142
留	-7.85146
凝	-7.85664
境	-7.85821
建	-7.86265
升	-7.864
咸	-7.86418
加	-7.86685
長生	-7.86691
達	-7.86954
造	-7.87143
齊	-7.87226
仰	-7.87227
虎	-7.87269
總	-7.87769
興	-7.87817
乗	-7.88039
親	-7.88223
花	-7.88334
害	-7.88433
輪	-7.88644
進	-7.8892
對	-7.88967
品	-7.89052
望	-7.89214
兵	-7.89247
具	-7.89478
反	-7.89634
源	-7.89726
鉛	-7.8978
落	-7.89797
宣	-7.90206
卷	-7.90212
返	-7.90433
玉清	-7.90472
林	-7.90779
州	-7.90821
却	-7.9101
旣	-7.91109
濟	-7.91319
順	-7.91359
義	-7.916
共	-7.91786
歲	-7.91867
消	-7.91991
不知	-7.92021
變化	-7.92128
臺	-7.92163
悟	-7.92173
冥	-7.92199
災	-7.92455
震	-7.92674
録	-7.93472
利	-7.93634
期	-7.93694
誦	-7.94274
卦	-7.94503
庭	-7.94805
垂	-7.94988
疾	-7.95001
引	-7.95105
混	-7.95476
城	-7.95691
可以	-7.95716
獨	-7.95942
兆	-7.95983
珠	-7.96193
髙	-7.96216
某	-7.96242
恩	-7.96393
車	-7.96395
尋	-7.96405
賜	-7.9669
淨	-7.97087
了	-7.97098
手	-7.97381
備	-7.97545
古	-7.97668
悉	-7.98447
天下	-7.98672
天尊志心朝禮	-7.98679
寒	-7.98717
陳	-7.98929
昇	-7.98984
祖	-7.99282
水火	-7.99366
就	-7.99725
忽	-7.99822
速	-7.99907
育	-8.00252
布	-8.00316
晨	-8.00324
辭	-8.00699
視	-8.00827
汞	-8.00928
容	-8.00939
歌	-8.01179
大道	-8.01331
昔	-8.01342
生死	-8.01453
路	-8.01498
帝君	-8.0172
太極	-8.0179
眞君	-8.01839
破	-8.01871
己	-8.01924
猶	-8.01939
部	-8.01987
齋	-8.02082
超	-8.02403
傷	-8.02454
而不	-8.02456
亡	-8.02507
論	-8.02559
春	-8.02668
謹	-8.02742
御	-8.03065
再	-8.03134
辰	-8.03141
慶	-8.03551
誠	-8.03968
慈	-8.04036
妄	-8.04187
父	-8.04458
許	-8.04546
泉	-8.04607
輕	-8.04735
士	-8.04769
昌	-8.05107
十二	-8.05202
駕	-8.05234
羽	-8.0548
○	-8.05556
造化	-8.05562
記	-8.05913
勿	-8.06111
隂陽	-8.06172
氏	-8.06506
一日	-8.06625
霞	-8.06659
煉	-8.06671
浮	-8.06707
諱	-8.06941
煙	-8.06947
益	-8.0699
呼	-8.07298
所謂	-8.07361
每	-8.07458
簡	-8.07607
乆	-8.07704
童	-8.079
祕	-8.08187
斷	-8.08219
承	-8.08242
道士	-8.08392
弟子	-8.0862
餘	-8.08869
寧	-8.08873
愛	-8.08898
質	-8.09008
謝	-8.09041
亂	-8.09135
使者	-8.09173
坎	-8.09326
瓊	-8.09372
聚	-8.09721
骨	-8.1012
酒	-8.10152
勝	-8.10401
之所	-8.10441
盛	-8.10509
曲	-8.10585
報	-8.10588
獲	-8.10683
表	-8.11204
忘	-8.11618
血	-8.11619
住	-8.11647
注	-8.12141
於是	-8.12308
侍	-8.12383
殺	-8.12733
上帝	-8.12747
大神	-8.12778
如此	-8.12966
智	-8.13037
封	-8.13133
豈	-8.13366
姓	-8.13833
河	-8.14408
乾坤	-8.14478
篇	-8.14609
被	-8.1462
李	-8.14653
金丹	-8.147
敬	-8.15013
敕	-8.15067
魄	-8.1513
是也	-8.15174
窮	-8.15194
印	-8.15376
漢	-8.15899
貴	-8.16084
如是	-8.16164
眼	-8.16362
切	-8.16619
急	-8.16673
圓	-8.16744
房	-8.16768
證	-8.16856
示	-8.16903
尚	-8.16959
籍	-8.17234
犯	-8.17332
穢	-8.1762
予	-8.17849
迷	-8.18513
崇	-8.18766
并	-8.19148
考	-8.19261
碧	-8.19628
現	-8.19693
紀	-8.19721
勑	-8.19764
黃	-8.19996
三元	-8.20378
闕	-8.20477
拜	-8.20483
昭	-8.20633
之上	-8.20691
毒	-8.20707
冠	-8.20938
萬神	-8.21421
想	-8.21642
鬼神	-8.21677
以爲	-8.21925
載	-8.22246
然後	-8.22363
含	-8.22485
收	-8.22664
斯	-8.22907
澤	-8.2295
露	-8.22977
休	-8.23056
童子	-8.23215
江	-8.23236
似	-8.23255
喜	-8.23521
元君	-8.23679
吉	-8.23753
賢	-8.23755
吏	-8.24125
累	-8.2416
禁	-8.24268
按	-8.24439
堂	-8.24814
秋	-8.24853
英	-8.25138
鼎	-8.25459
得道	-8.25506
五帝	-8.25794
左右	-8.25873
鳳	-8.26374
卿	-8.26377
他	-8.26448
宮	-8.26708
候	-8.26972
彼	-8.27078
端	-8.27344
腎	-8.27497
類	-8.27589
遣	-8.27775
聖人	-8.27893
疑	-8.28061
契	-8.28122
近	-8.28192
急急如律令	-8.28464
良	-8.2893
慧	-8.2903
歷	-8.29245
光明	-8.29346
宅	-8.29534
禍	-8.29571
逆	-8.29833
飲	-8.29873
遍	-8.2989
淵	-8.29922
夢	-8.30068
種	-8.30106
唯	-8.30153
勤	-8.3029
遺	-8.30363
谷	-8.30389
尸	-8.3071
曜	-8.30711
連	-8.30736
付	-8.30745
肺	-8.30982
仁	-8.31029
序	-8.31083
救	-8.31128
徒	-8.31132
獄	-8.31492
嘗	-8.3154
緑	-8.3154
客	-8.31664
比	-8.3171
之後	-8.31862
而爲	-8.31922
護	-8.31961
凶	-8.32084
監	-8.32152
劉	-8.32252
蒙	-8.32403
呪曰	-8.32573
鎮	-8.3258
科	-8.33177
寂	-8.33202
放	-8.33328
梵	-8.34247
液	-8.34324
殿	-8.34373
驚	-8.34925
釋	-8.34978
鶴	-8.35166
惠	-8.35237
清淨	-8.35286
榮	-8.35443
耀	-8.35452
詩	-8.35681
武	-8.35688
嚴	-8.36002
徹	-8.36308
炎	-8.3662
代	-8.36725
甲	-8.36874
田	-8.37
衛	-8.3717
充	-8.37226
功德	-8.37318
掌	-8.3733
俗	-8.37433
映	-8.37465
天人	-8.37715
草	-8.37756
紅	-8.38031
伯	-8.38185
之法	-8.38477
申	-8.38624
肝	-8.38667
密	-8.38933
接	-8.39169
北方	-8.39302
宇	-8.39422
任	-8.39469
地獄	-8.39501
父母	-8.3967
領	-8.39752
愚	-8.39801
詔	-8.39887
之氣	-8.40098
覆	-8.40309
只	-8.40872
㑹	-8.40924
无量	-8.41006
推	-8.4152
裏	-8.41631
三天	-8.41669
招	-8.41692
奔	-8.41847
迎	-8.4213
懷	-8.4247
半	-8.42481
遷	-8.42489
移	-8.42653
界	-8.4273
而成	-8.42895
詣	-8.42906
真人	-8.42954
堅	-8.42956
魔王	-8.43123
履	-8.43142
夫人	-8.43221
假	-8.43438
儀	-8.43451
停	-8.43453
池	-8.43686
頂	-8.43815
之内	-8.43968
徧	-8.44049
畫	-8.44254
術	-8.44265
恐	-8.44266
無爲	-8.44359
負	-8.44434
焚	-8.44711
人也	-8.44736
人之	-8.45086
舊	-8.45225
採	-8.45245
游	-8.45279
味	-8.45425
祥	-8.45552
丘	-8.4559
太玄	-8.45685
龍虎	-8.45897
妖	-8.45949
道君	-8.46214
賊	-8.4623
參	-8.46299
津	-8.46399
幾	-8.46492
世人	-8.46628
投	-8.46646
貪	-8.46731
騰	-8.46733
洪	-8.46831
輔	-8.47129
漸	-8.4713
調	-8.4713
筆	-8.47256
南方	-8.47467
舍	-8.47683
燈	-8.47743
鳴	-8.47832
抱	-8.48106
秀	-8.48151
曹	-8.48157
潜	-8.48172
而生	-8.48232
朗	-8.48413
佩	-8.48858
縣	-8.4886
愈	-8.48874
察	-8.48885
沉	-8.49008
盈	-8.49076
霄	-8.4923
違	-8.49248
損	-8.49621
演	-8.49659
之時	-8.49662
末	-8.4991
唐	-8.50121
康	-8.5036
待	-8.50383
退	-8.50552
憂	-8.5073
䰟	-8.50794
刑	-8.51114
新	-8.5127
井	-8.51741
之間	-8.51878
神王	-8.52413
夏	-8.52492
律	-8.5252
置	-8.5272
器	-8.52893
巽	-8.52907
稽首	-8.53464
午	-8.53704
逐	-8.53712
天尊至心歸命信禮	-8.5376
笑	-8.53826
司命	-8.53961
專	-8.54087
送	-8.54143
户	-8.54193
乞	-8.54241
原	-8.543
澄	-8.54311
松	-8.54393
剛	-8.54591
不見	-8.54663
兊	-8.54742
此經	-8.5477
上下	-8.54856
泥丸	-8.54999
納	-8.55161
閉	-8.55251
東方	-8.55282
㫖	-8.55319
鐵	-8.55348
丹田	-8.55371
迹	-8.55495
計	-8.55512
五嶽	-8.55632
飛天	-8.55688
瑞	-8.55698
孫	-8.55809
敷	-8.55843
輝	-8.56057
鼓	-8.56074
典	-8.56171
牛	-8.56293
三年	-8.56402
兮	-8.56429
恭	-8.56592
傾	-8.56662
迴	-8.56684
强	-8.56745
人間	-8.56962
劍	-8.56997
泰	-8.57081
服之	-8.57238
太清	-8.57278
揚	-8.57295
辛	-8.57513
像	-8.57583
阿	-8.57605
勞	-8.5768
梁	-8.57742
冲	-8.57881
波	-8.57997
統	-8.58003
籙	-8.58156
蒼	-8.58224
役	-8.58308
扶	-8.5869
座	-8.58703
曾	-8.58904
看	-8.59095
艮	-8.59299
雪	-8.59398
耶	-8.59407
度人	-8.59677
群	-8.59768
設	-8.60114
殊	-8.60241
之人	-8.60262
無窮	-8.60298
三官	-8.60354
金闕	-8.60417
之神	-8.60456
驅	-8.60474
樹	-8.60503
否	-8.60645
棄	-8.60684
今日	-8.60715
五色	-8.60747
之精	-8.61193
爽	-8.61196
五方	-8.61358
追	-8.61383
逺	-8.61478
黄帝	-8.61485
鎭	-8.6153
美	-8.61652
經云	-8.61664
怪	-8.61827
將軍	-8.61831
孝	-8.61879
是以	-8.6237
披	-8.62432
旋	-8.62662
條	-8.62719
西方	-8.62785
火候	-8.62937
還丹	-8.62952
敢	-8.62953
巨	-8.62969
魚	-8.63026
角	-8.63232
絳	-8.63352
生於	-8.63516
无極	-8.63541
步	-8.6358
天中	-8.63708
吐	-8.63895
鬱	-8.64086
虛	-8.64392
北斗	-8.64602
患	-8.64631
仍	-8.64655
純	-8.64798
資	-8.64926
里	-8.64976
職	-8.65013
刻	-8.6511
館	-8.65125
玉帝	-8.65155
奇	-8.65252
雙	-8.65456
天地之	-8.65543
二十四	-8.66123
特	-8.66673
盜	-8.66747
干	-8.6703
顧	-8.67125
習	-8.67684
走	-8.67691
名曰	-8.67928
省	-8.67965
久	-8.67981
世界	-8.68059
燒	-8.68117
蕩	-8.68198
盟	-8.682
錬	-8.68255
竹	-8.68333
試	-8.68502
詞	-8.68624
陵	-8.6867
葉	-8.68793
拔	-8.68898
三十六	-8.69044
閑	-8.69047
野	-8.69114
爐	-8.69188
内外	-8.69367
者也	-8.69388
又曰	-8.69495
捨	-8.6958
男	-8.69601
驗	-8.69648
越	-8.69832
出入	-8.6992
鼻	-8.70135
雷霆	-8.70165
營	-8.70196
量	-8.70424
爻	-8.70432
八卦	-8.70483
市	-8.70498
脾	-8.70586
尺	-8.70701
之士	-8.70875
兼	-8.70942
殃	-8.71049
太陽	-8.71078
酉	-8.71294
第一	-8.71313
仲	-8.71405
樓	-8.71462
中央	-8.7179
權	-8.71803
寶	-8.71845
七祖	-8.71846
昏	-8.72029
三十	-8.72336
龜	-8.72427
適	-8.72471
狀	-8.72472
侯	-8.72648
宋	-8.7269
格	-8.72726
元始天尊	-8.72894
帶	-8.73072
烈	-8.73129
祈	-8.73185
答	-8.73262
無極	-8.73393
嶽	-8.73461
免	-8.73668
若有	-8.7369
詳	-8.73802
曉	-8.73806
慮	-8.73977
無量	-8.741
而去	-8.74254
改	-8.74295
篆	-8.74342
男女	-8.74524
朱書	-8.74686
盖	-8.74699
祝	-8.74718
丁	-8.74779
吞	-8.75061
太微	-8.75097
三清	-8.7512
廟	-8.75126
横	-8.75153
鳥	-8.75159
第二	-8.75217
學者	-8.75566
髮	-8.75603
而已	-8.76034
暉	-8.76037
貫	-8.76378
嘉	-8.76408
句	-8.76517
禀	-8.76588
智慧	-8.76641
註	-8.76671
暗	-8.77214
背	-8.77265
煥	-8.77546
亥	-8.77554
悲	-8.77872
響	-8.77878
仙人	-8.77988
曰吾	-8.77993
之日	-8.78083
㝠	-8.78102
輿	-8.78155
大洞	-8.7843
逍遥	-8.78524
八景	-8.78826
謁	-8.7898
雜	-8.79131
逢	-8.79373
銀	-8.79577
太虚	-8.79595
修行	-8.79704
於此	-8.79863
天子	-8.79897
騎	-8.80058
縱	-8.80231
訪	-8.80431
樞	-8.80449
溪	-8.80517
寅	-8.8066
功曹	-8.80837
卧	-8.80889
滯	-8.80941
錢	-8.80987
也故	-8.81108
吹	-8.81139
道德	-8.81237
冬	-8.81265
邊	-8.81345
身中	-8.81442
一身	-8.81502
禳	-8.81535
學道	-8.8156
羣	-8.81563
一時	-8.81586
補	-8.81669
老君	-8.8195
紫微	-8.81956
一炁	-8.82089
第三	-8.82236
染	-8.82313
之妙	-8.8233
默	-8.82335
無所	-8.82365
泄	-8.82391
史	-8.82427
校	-8.82562
洞章	-8.82607
兒	-8.82998
至道	-8.83045
灌	-8.83108
玄都	-8.83135
化爲	-8.83158
蜀	-8.83398
京	-8.83449
種種	-8.83461
云何	-8.83463
之理	-8.83507
誰	-8.83574
峰	-8.83604
蟲	-8.83663
卯	-8.83854
醉	-8.83879
化生	-8.83971
賔	-8.8401
世間	-8.84033
産	-8.8413
紙	-8.84296
鄉	-8.84386
友	-8.845
喻	-8.8462
題	-8.84888
玉京	-8.8496
罡	-8.85107
兹	-8.85109
希	-8.85277
之事	-8.85317
敗	-8.85426
喪	-8.85605
川	-8.85634
□	-8.85683
徳	-8.86014
綱	-8.86128
逸	-8.86362
吿	-8.86382
毛	-8.86644
四時	-8.86974
萬里	-8.87042
眞炁	-8.87089
混沌	-8.87322
助	-8.87409
咽	-8.87456
鉛汞	-8.87466
沙	-8.87534
純陽	-8.87551
不死	-8.87581
務	-8.87666
索	-8.87684
略	-8.87874
幸	-8.879
夷	-8.88169
天眞	-8.8817
因縁	-8.88201
述	-8.88395
芝	-8.88417
隆	-8.88493
軒	-8.885
導	-8.88523
無有	-8.88547
吴	-8.88668
庵	-8.88694
穴	-8.88965
奪	-8.88965
萬劫	-8.89042
危	-8.89175
歳	-8.89183
基	-8.89242
至於	-8.89247
財	-8.894
範	-8.89451
屋	-8.89465
四方	-8.8949
爾時	-8.89691
天門	-8.89734
之數	-8.89745
翁	-8.89878
十月	-8.89951
坎離	-8.89952
晝夜	-8.9006
其中	-8.90071
陶	-8.90189
爭	-8.90247
差	-8.90453
鏡	-8.90477
廼	-8.90479
不敢	-8.90501
霹靂	-8.90594
吸	-8.90743
是謂	-8.90788
長存	-8.90967
管	-8.91048
趙	-8.91075
白虎	-8.91076
巖	-8.91334
善男子	-8.91335
孤	-8.91336
无上	-8.91353
際	-8.91486
濁	-8.91497
哀	-8.91522
玉皇大天尊玄穹髙上帝	-8.9178
誦經	-8.91817
錫	-8.91833
式	-8.91876
不動	-8.9198
愆	-8.92077
珍	-8.92092
影	-8.92198
慾	-8.92229
壁	-8.9231
混合	-8.92337
砂	-8.92404
嗣	-8.92615
泥	-8.92673
下降	-8.92748
大聖	-8.92798
竟	-8.92863
潔	-8.92882
符命	-8.92963
政	-8.92986
枯	-8.93146
各有	-8.93231
之下	-8.93342
甘	-8.93392
一名	-8.93666
煩惱	-8.93676
頌	-8.93695
係	-8.93715
至眞	-8.93825
電	-8.9392
庶	-8.93932
策	-8.94006
烏	-8.9409
大帝	-8.94178
上昇	-8.9432
三炁	-8.94377
早	-8.94553
克	-8.94579
祐	-8.94753
遵	-8.94853
約	-8.95078
師曰	-8.95268
億	-8.95409
郡	-8.95438
黙	-8.95454
禄	-8.95535
貌	-8.956
繫	-8.95603
天君	-8.95623
環	-8.95661
先天	-8.95673
細	-8.957
懸	-8.95932
斬	-8.96034
贈	-8.96179
上元	-8.96286
夕	-8.96422
顔	-8.96514
徑	-8.97054
軍	-8.97232
鍾	-8.97279
蕭	-8.97319
沐浴	-8.97319
熱	-8.97321
衰	-8.97337
燿	-8.97342
虚空	-8.97418
伐	-8.97579
塞	-8.97882
太空	-8.98017
限	-8.98096
嬰	-8.98383
融	-8.98407
最	-8.98472
腹	-8.98554
妻	-8.9876
竒	-8.98763
馳	-8.98788
三光	-8.98832
温	-8.98951
九幽	-8.99295
戰	-8.99342
厚	-8.99614
墮	-8.99881
灾	-8.99955
再拜	-9.00037
筭	-9.00147
柔	-9.00173
舌	-9.00314
豐	-9.00511
天機	-9.00551
才	-9.00729
醮	-9.00801
岀	-9.01012
黄庭	-9.01084
摧	-9.01121
微妙	-9.01193
經曰	-9.01297
上眞	-9.01334
棲	-9.01359
薄	-9.01387
莫不	-9.01421
上天	-9.01587
尤	-9.01615
性命	-9.01807
癸	-9.01887
貞	-9.01905
自在	-9.01915
黒	-9.02034
玉皇	-9.02097
私	-9.02108
三五	-9.02155
那	-9.02212
俾	-9.02223
怒	-9.02248
更生	-9.02389
之功	-9.024
潤	-9.02493
惑	-9.02524
擊	-9.02548
是時	-9.02674
四象	-9.02751
辟	-9.02753
十五	-9.02779
靖	-9.02822
茅山	-9.02844
旛	-9.03132
丈人	-9.03137
委	-9.03138
檢	-9.03388
底	-9.03452
煞	-9.03475
茅	-9.03477
一人	-9.03522
誓	-9.03617
忠	-9.03729
厭	-9.03822
生成	-9.03976
熟	-9.04006
寄	-9.0402
之象	-9.04161
西北	-9.04223
亦不	-9.04245
徐	-9.04283
晋	-9.0434
卒	-9.04352
畏	-9.04363
衝	-9.04374
庚	-9.04539
勸	-9.04603
狂	-9.04636
東南	-9.04751
青龍	-9.04942
跡	-9.04949
三日	-9.05096
髙上	-9.0513
魁	-9.05135
包	-9.05163
偶	-9.05189
往來	-9.05237
二年	-9.05282
漏	-9.05362
之門	-9.05416
保命	-9.05706
繼	-9.05797
彌	-9.05809
上聖	-9.05945
汝等	-9.05975
一切衆生	-9.06056
翼	-9.06169
祠	-9.06173
善惡	-9.06253
誅	-9.06278
把	-9.06342
等志心歸命禮願	-9.06392
雄	-9.06473
弘	-9.06484
沖	-9.0662
慕	-9.0664
如何	-9.06681
障	-9.0676
峯	-9.07147
答曰	-9.07194
是爲	-9.07323
四十	-9.07362
開度	-9.07397
秘	-9.07655
摩	-9.07708
海空	-9.07783
清微	-9.07825
天師	-9.07833
帥	-9.07834
提	-9.08027
箇	-9.0803
獻	-9.08038
茂	-9.08085
三寳	-9.08277
究	-9.08299
霜	-9.08329
芒	-9.08424
修眞	-9.08545
恒	-9.08634
供養	-9.08719
神靈	-9.08783
麗	-9.08958
階	-9.09013
蘭	-9.09017
萬靈	-9.09152
俯	-9.09153
脱	-9.0917
讀	-9.09358
身心	-9.09459
赴	-9.09483
靈官	-9.09556
解脫	-9.09596
暮	-9.09609
道人	-9.09642
不生	-9.0967
頓	-9.09782
翠	-9.09832
歩	-9.10002
説	-9.10033
九宫	-9.10055
二十	-9.10104
東華	-9.10217
脩	-9.10227
叔	-9.10237
寸	-9.10254
苟	-9.10262
附	-9.10294
效	-9.10309
慈悲	-9.10355
宴	-9.10518
緫	-9.10555
曰此	-9.1058
無不	-9.10667
孔	-9.10674
得其	-9.10696
没	-9.10737
趣	-9.1074
透	-9.10887
眞氣	-9.10957
人身	-9.11071
號曰	-9.11077
郭	-9.11163
增	-9.11201
以此	-9.11237
之術	-9.11336
吕	-9.11473
獸	-9.11531
眉	-9.11571
楊	-9.11587
胡	-9.11637
佛	-9.11885
霧	-9.11955
金剛	-9.12019
儒	-9.12178
無形	-9.123
妙道	-9.12324
蛇	-9.12337
議	-9.12481
鸞	-9.12488
飛昇	-9.1254
盤	-9.12548
丑	-9.12657
五十	-9.12686
分明	-9.12742
吟	-9.1279
輒	-9.1281
沈	-9.12884
遥	-9.12887
見之	-9.12907
上有	-9.12989
有所	-9.13001
肅	-9.13053
覩	-9.13152
院	-9.13159
▲	-9.13177
肉	-9.13186
太平	-9.13295
祖師	-9.13307
旦	-9.13308
日中	-9.13393
眞一	-9.1344
五臟	-9.13561
元氣	-9.13575
宛	-9.1358
華陽	-9.13654
況	-9.13679
彰	-9.13837
腦	-9.13865
振	-9.14139
晝	-9.14157
壯	-9.14196
七寳	-9.14233
大法	-9.14284
廻	-9.1446
崑崙	-9.14474
着	-9.14529
僧	-9.14791
之則	-9.14813
激	-9.14825
竅	-9.14868
維	-9.14882
工	-9.15086
博	-9.15154
齒	-9.15164
之宫	-9.15239
眞仙	-9.15437
桃	-9.15485
郎	-9.15549
厄	-9.15622
第四	-9.15671
水銀	-9.15802
梵炁	-9.15811
神明	-9.15953
嬰兒	-9.16018
故云	-9.16098
彩	-9.16103
天道	-9.16162
佐	-9.16201
秦	-9.1625
一年	-9.1632
空洞	-9.16348
長夜	-9.1642
瑶	-9.16499
晦	-9.1653
而後	-9.16603
誥	-9.16721
酆都	-9.16815
撰	-9.16849
侵	-9.16912
湯	-9.16965
龍漢	-9.17217
拘	-9.17354
脫	-9.17585
占	-9.1764
不復	-9.17774
是故	-9.17992
金液	-9.18021
壞	-9.18194
幻	-9.18213
瞻	-9.18227
爲一	-9.18232
滋	-9.18254
玉符	-9.18286
三才	-9.18305
精神	-9.18557
談	-9.18665
旨	-9.18905
貧	-9.18922
避	-9.18949
預	-9.19011
續	-9.19033
山中	-9.19082
配	-9.19119
凌	-9.19315
太乙	-9.19445
太素	-9.19508
席	-9.19707
眞王	-9.19774
道者	-9.20025
廬	-9.20091
浩	-9.2013
也若	-9.2017
而有	-9.2025
無上	-9.2035
鮮	-9.20386
杖	-9.2041
宻	-9.2071
痛	-9.2076
毋	-9.20776
一氣	-9.20776
大梵	-9.20906
不同	-9.20965
戊	-9.2103
神虎	-9.2107
觸	-9.21072
給	-9.21088
眞文	-9.21199
西南	-9.21258
韓	-9.21353
十八	-9.21366
翳	-9.21408
巾	-9.21463
責	-9.21504
捉	-9.2152
六甲	-9.21695
夭	-9.21791
第	-9.21825
陸	-9.21863
皆得	-9.22012
錦	-9.22028
者即	-9.22181
赦	-9.22255
中宫	-9.22391
傍	-9.22439
九轉	-9.22579
五星	-9.22597
奉行	-9.22642
之機	-9.22647
大羅	-9.227
昇天	-9.2298
燒香	-9.2312
植	-9.23149
虚無	-9.23223
法師	-9.2324
欽	-9.23248
輩	-9.23264
誤	-9.23295
十六	-9.23312
神氣	-9.23419
不離	-9.23644
毎	-9.23658
髓	-9.23697
有一	-9.23708
晶	-9.23812
亦有	-9.23918
暫	-9.23958
昧	-9.23998
率	-9.24001
舞	-9.24007
五老	-9.2405
雷公	-9.24122
也此	-9.2421
漠	-9.24311
飛仙	-9.24517
剋	-9.2459
此道	-9.24708
水中	-9.24832
墨	-9.24844
三十二天	-9.2488
燭	-9.2489
胞	-9.25022
冰	-9.25046
唱	-9.25087
羊	-9.2511
洗	-9.25113
寫	-9.25126
甲子	-9.25153
三千	-9.25329
清靜	-9.25343
名山	-9.25384
禱	-9.25493
混元	-9.25748
動靜	-9.25762
枝	-9.25841
之以	-9.2594
曆	-9.26071
即是	-9.2612
元年	-9.26192
而無	-9.26265
淫	-9.26341
此言	-9.26466
北極	-9.26502
途	-9.26619
皓	-9.26652
之本	-9.26756
乙	-9.2676
金光	-9.26915
東北	-9.26936
辨	-9.27008
九炁	-9.2705
廓	-9.27132
浪	-9.27398
祭	-9.27413
八方	-9.27482
辯	-9.27757
洞天	-9.27799
神霄	-9.27814
得之	-9.27826
訖	-9.2784
律令	-9.28003
錯	-9.28116
神通	-9.28118
謀	-9.28157
五雷	-9.28216
郷	-9.28275
不信	-9.28346
此乃	-9.28413
鑒	-9.28431
廢	-9.28467
君子	-9.28468
倒	-9.28522
伸	-9.28539
壬	-9.28552
所居	-9.28586
之初	-9.28627
五藏	-9.2864
飛行	-9.28692
方便	-9.28848
舟	-9.28894
幽棲曰	-9.289
射	-9.28901
束	-9.29076
我今	-9.29109
勢	-9.29258
葬	-9.29287
名爲	-9.29406
風雨	-9.29461
妃	-9.29569
遐	-9.29606
衞	-9.29688
脉	-9.30001
戌	-9.3003
淳	-9.30044
幼	-9.30077
赤帝	-9.30146
六天	-9.30202
玄元	-9.3028
若能	-9.30318
名也	-9.30331
點	-9.30345
黄芽	-9.30456
標	-9.30524
功徳	-9.30695
携	-9.30838
嶺	-9.30839
邑	-9.3084
享	-9.30859
自有	-9.30946
六合	-9.30973
國土	-9.30992
子孫	-9.31059
睡	-9.31207
仗	-9.3124
翔	-9.31249
烟	-9.31263
大神無鞅之衆浮空而至	-9.31271
亭	-9.31276
之物	-9.3136
塗	-9.31433
富	-9.3162
灰	-9.31654
之根	-9.31688
其所	-9.318
洞陽	-9.31861
孕	-9.32029
魂魄	-9.32096
則爲	-9.32158
焚香	-9.32207
清虚	-9.32308
毫	-9.32313
猛	-9.3242
冀	-9.32446
悔	-9.32483
七日	-9.32652
行之	-9.32733
旬	-9.32834
魏	-9.32849
戸	-9.32915
之地	-9.32941
催	-9.32981
南宫	-9.33142
仙道	-9.33202
盗	-9.3324
牢	-9.33271
逹	-9.3328
神光	-9.33414
天之	-9.33416
三洞	-9.33423
側	-9.33633
者是	-9.33647
冷	-9.33651
祅	-9.3367
朱陵	-9.33712
北帝	-9.33729
十三	-9.33811
域	-9.33892
十一	-9.33909
鹿	-9.34019
琴	-9.34031
偏	-9.34058
舒	-9.34088
衡	-9.34091
巧	-9.34092
第五	-9.34125
刀	-9.34164
五炁	-9.34191
而得	-9.34292
大丹	-9.34303
折	-9.34494
捧	-9.34559
輪轉	-9.34654
東曰	-9.34906
知其	-9.35002
虚皇	-9.3503
下元	-9.35155
忌	-9.35259
學人	-9.35394
千里	-9.35541
天上	-9.35613
瑩	-9.35655
之名	-9.35739
二人	-9.35814
救苦	-9.35885
歎	-9.35887
之心	-9.35949
須臾	-9.36081
者乃	-9.36187
大夫	-9.3635
絡	-9.3646
炁吹	-9.36517
奥	-9.36724
慢	-9.36798
朔	-9.36814
蘇	-9.36935
成就	-9.36952
絳宫	-9.37032
受度	-9.37046
天罡	-9.3706
之義	-9.37095
正一	-9.3714
七星	-9.37213
寢	-9.37387
懼	-9.37402
人能	-9.37576
互	-9.37785
橋	-9.37825
杜	-9.37859
二字	-9.37906
三月	-9.37966
内音	-9.37968
何以	-9.38013
未嘗	-9.38101
鑑	-9.38243
也夫	-9.38247
完	-9.3826
菴	-9.38268
婦	-9.38326
審	-9.38417
行道	-9.38513
令人	-9.38515
活	-9.38599
竭	-9.38624
咎	-9.38633
循	-9.38655
蓬萊	-9.38659
覽	-9.38688
僊	-9.38905
雞	-9.39062
誕	-9.39071
紫陽	-9.39087
罷	-9.39095
佑	-9.39138
玉字	-9.39164
宸	-9.39226
為	-9.39434
老子	-9.39448
憑	-9.39497
丈	-9.39502
班	-9.39589
醜	-9.39739
金華	-9.39867
族	-9.39917
恍惚	-9.39956
臻	-9.39964
元炁	-9.39971
太和	-9.39981
一月	-9.40019
南極	-9.40247
層	-9.40262
之音	-9.40329
燕	-9.40377
行持	-9.40399
人有	-9.40428
其人	-9.40704
結成	-9.40755
肇	-9.40773
飢	-9.40821
殘	-9.40852
工夫	-9.40875
誦之	-9.40903
十四	-9.41059
尅	-9.4126
是名	-9.41533
淪	-9.41623
支	-9.41641
爲人	-9.41646
寒暑	-9.41692
誡	-9.41737
尸解	-9.41912
王母	-9.41919
草木	-9.41921
磨	-9.42096
閣	-9.42097
无窮	-9.4217
薦	-9.42171
急急如	-9.42173
竊	-9.42549
赫	-9.4257
局	-9.42583
之外	-9.42584
頌曰	-9.42602
洞玄	-9.4264
隔	-9.42901
之要	-9.4326
季	-9.43324
言之	-9.43333
宰	-9.4338
戲	-9.43399
余	-9.43401
修鍊	-9.43419
溢	-9.43471
仙官	-9.43494
視之	-9.43549
抽添	-9.43883
擇	-9.43931
脚	-9.43975
大小	-9.441
我身	-9.4438
萬象	-9.44417
口訣	-9.44421
是經	-9.44551
入室	-9.44675
芽	-9.44678
以成	-9.44771
隱居	-9.44798
罪福	-9.44864
戊己	-9.44901
三塗	-9.45135
俄	-9.45216
歡	-9.45216
四海	-9.45299
三十二	-9.4549
正月	-9.45491
拂	-9.45685
葛	-9.45694
青帝	-9.45722
暴	-9.46158
遭	-9.46175
决	-9.46194
邈	-9.46539
不出	-9.46571
諸法	-9.46581
商	-9.46621
託	-9.46622
二物	-9.46643
翻	-9.46651
遁	-9.46651
輦	-9.46668
牙	-9.46696
嘯	-9.4673
生人	-9.46803
彭	-9.46878
纒	-9.47042
尾	-9.47047
困	-9.47081
額	-9.4709
赤明	-9.47124
值	-9.47145
盧	-9.47197
瘟	-9.47229
不爲	-9.47245
南嶽	-9.4725
天寳	-9.4735
眞經	-9.47377
人民	-9.4738
四字	-9.474
之位	-9.47423
穀	-9.47428
膽	-9.47445
第十	-9.47507
醫	-9.47537
者皆	-9.47559
併	-9.47568
之曰	-9.47641
神人	-9.47647
南斗	-9.47999
穿	-9.48031
懇	-9.48047
逃	-9.48084
第六	-9.48215
弦	-9.48266
判	-9.48285
丹陽	-9.48372
出於	-9.48401
之境	-9.48418
窺	-9.48539
曰我	-9.48593
升降	-9.48608
分别	-9.48632
之謂	-9.48718
掃	-9.48757
俟	-9.48928
兔	-9.48932
禪	-9.48965
希夷	-9.49008
由是	-9.49047
般	-9.491
眇	-9.49127
訓	-9.49181
開明	-9.49234
百神	-9.49381
暢	-9.49393
規	-9.49401
神炁	-9.49421
呈	-9.49465
弟	-9.49497
之際	-9.49582
大乗	-9.49583
人皆	-9.49697
八月	-9.49738
六十	-9.49764
亡魂	-9.49776
山川	-9.49799
則有	-9.49807
之始	-9.49831
慎	-9.49947
丙	-9.49982
冬至	-9.49998
歡喜	-9.50003
九年	-9.50015
七月	-9.50082
中元	-9.50089
十七	-9.50098
元神	-9.50184
三田	-9.50283
纔	-9.50391
皆是	-9.50469
无爲	-9.50625
超度	-9.50683
仙公	-9.50857
軀	-9.50867
不祥	-9.50915
神呪	-9.50989
姦	-9.50996
測	-9.51019
大慈	-9.51046
供	-9.51073
度世	-9.51102
功成	-9.51191
周天	-9.51196
姑	-9.51218
白帝	-9.51288
握	-9.51309
惜	-9.51336
荒	-9.51379
胃	-9.51381
躍	-9.51407
天王	-9.51517
認	-9.51796
萬炁	-9.51797
桑	-9.51813
百年	-9.51818
防	-9.51869
用之	-9.51966
膺	-9.51974
眞道	-9.51998
延生	-9.52017
靈文	-9.52094
天一	-9.52149
簿	-9.52279
眷	-9.52297
均	-9.52325
怨	-9.5233
墓	-9.52338
溟	-9.52366
罔	-9.52366
真君	-9.52439
知之	-9.52556
平等	-9.52644
當以	-9.52653
詠	-9.52712
屍	-9.52798
逮	-9.52842
亦復如是	-9.52849
朕	-9.52855
虞	-9.52878
玉虚	-9.53192
泛	-9.53198
伏願	-9.53239
芳	-9.53241
躬	-9.53288
藴	-9.53304
栢	-9.53333
網	-9.5336
虧	-9.53385
虚无	-9.53524
神君	-9.53666
金精	-9.53681
金木	-9.53764
短	-9.53774
墜	-9.53778
繞	-9.53829
奚	-9.5383
一一	-9.5387
爰	-9.53905
百日	-9.54029
飲食	-9.54053
通靈	-9.54121
具足	-9.54122
正氣	-9.54277
頗	-9.54327
攻	-9.5433
遲	-9.54337
眞鉛	-9.5435
姓名	-9.54426
玄武	-9.54546
豈非	-9.54595
旺	-9.54801
九色	-9.54805
而行	-9.54849
允	-9.54851
道之	-9.5496
成道	-9.54986
一百	-9.55105
何以故	-9.55163
七十	-9.55286
寓	-9.55316
鑪	-9.55337
利益	-9.55461
飄	-9.55489
即得	-9.55649
然而	-9.55711
亦如	-9.55742
削	-9.55749
稽	-9.5575
圍	-9.55774
堪	-9.55788
拱	-9.55811
二炁	-9.5614
函	-9.56288
禽	-9.56317
編	-9.56329
眞人曰	-9.56342
疏	-9.56353
牽	-9.56392
叩	-9.56712
空中	-9.56784
祝曰	-9.56797
報應	-9.56893
本命	-9.56954
豈不	-9.56999
元陽	-9.57192
神化	-9.57202
夙	-9.57254
叩齒	-9.5732
洞明	-9.57378
呼吸	-9.57414
主人	-9.57419
三一	-9.57456
三宫	-9.57491
仙翁	-9.57564
白雲	-9.57674
一云	-9.5772
廉	-9.57885
潭	-9.5792
丸	-9.57925
正道	-9.5795
縛	-9.57955
諸衆生	-9.57962
若不	-9.58049
上生	-9.58162
后	-9.58185
齎	-9.58255
正炁	-9.58264
靈書	-9.58285
无有	-9.58289
之意	-9.58305
賦	-9.58321
陽神	-9.58324
繒	-9.58327
使人	-9.58329
齡	-9.58355
戀	-9.58391
穹	-9.58415
所在	-9.58444
妙用	-9.58528
山林	-9.58532
司馬	-9.58657
濟度	-9.58683
人心	-9.58724
稍	-9.58899
自己	-9.58909
挺	-9.58946
闡	-9.58994
欺	-9.58999
萬物之	-9.59131
弱	-9.59196
明堂	-9.59339
成眞	-9.59365
䇿	-9.59371
戴	-9.59392
仕	-9.59409
度命	-9.5942
纏	-9.59423
鎖	-9.59435
副	-9.59446
祀	-9.59448
之府	-9.59529
復有	-9.59564
前後	-9.59568
火鈴	-9.59856
鍊形	-9.59957
皆有	-9.59959
寡	-9.60021
修之	-9.60142
其心	-9.60143
其身	-9.60147
常以	-9.60302
太陰	-9.60319
靈光	-9.60341
疾病	-9.60379
撫	-9.60489
甘露	-9.60495
弗	-9.60589
吉凶	-9.60601
八十一	-9.60665
故能	-9.60705
又以	-9.60764
搯	-9.60846
宫中	-9.6085
厥	-9.60991
者爲	-9.61118
毀	-9.61158
二月	-9.61269
不在	-9.61303
丹砂	-9.61304
烹	-9.61442
陀	-9.61534
尊神	-9.61536
晴	-9.61552
扶桑	-9.61553
渾	-9.61557
荷	-9.61594
授以	-9.61642
賤	-9.61667
莫能	-9.61708
也又	-9.61749
不成	-9.61761
藥物	-9.61803
萬化	-9.61865
此是	-9.61902
劫運	-9.61907
罰	-9.62007
韻	-9.62029
奕	-9.62074
旗	-9.62084
其道	-9.62158
妙行	-9.62192
告下	-9.62229
太清樂	-9.62253
大將軍	-9.62285
開化	-9.62333
餌	-9.62345
我等	-9.62355
生神	-9.62425
垢	-9.62543
牒	-9.62564
徘徊	-9.62576
礙	-9.62607
洞房	-9.62662
囚	-9.62685
船	-9.62704
天仙	-9.62756
河車	-9.62772
丹成	-9.62884
之章	-9.62927
其文	-9.63048
謙	-9.63137
圎	-9.63163
聖胎	-9.63281
玉文	-9.63309
一曰	-9.63333
世之	-9.63369
之體	-9.63444
三素	-9.63472
不足	-9.63508
一點	-9.63566
八字	-9.63598
太隂	-9.63663
岸	-9.63691
缺	-9.63714
腰	-9.63758
旱	-9.63861
莊	-9.63999
華池	-9.64015
孟	-9.64038
十餘	-9.64172
巍巍	-9.64254
増	-9.64257
萌	-9.64265
擲	-9.64277
卜	-9.64301
亦無	-9.64377
皇帝	-9.64431
玉晨	-9.64509
悉皆	-9.64549
又云	-9.64557
蓮	-9.64637
無所不	-9.64662
兄	-9.64719
大魔	-9.64725
軿	-9.64781
孰	-9.64824
不可思議	-9.64887
至人	-9.65053
安鎮	-9.65138
上仙	-9.65199
一心	-9.65212
五年	-9.65213
頃	-9.65257
受持	-9.65295
程	-9.653
勉	-9.65357
囊	-9.65373
埋	-9.65378
據	-9.65403
朱雀	-9.65419
少微曰	-9.65445
之用	-9.65505
洛	-9.65555
自生	-9.6558
六丁	-9.65677
世世	-9.65735
斧	-9.65773
不知其	-9.65887
驛	-9.65907
呵	-9.65975
延年	-9.65985
唵	-9.66086
第八	-9.66141
一念	-9.66143
神也	-9.66146
神水	-9.66287
衆眞	-9.66438
棺	-9.66446
左手	-9.66455
劒	-9.66584
一粒	-9.66712
讃	-9.66762
鄭	-9.67047
十過	-9.67069
綿綿	-9.67083
皮	-9.67089
几	-9.67115
元皇	-9.67134
億劫	-9.67165
玄牝	-9.67172
假令	-9.67193
兇	-9.67209
太元	-9.67351
玉童	-9.67425
有三	-9.67464
眞火	-9.67514
扇	-9.67591
寳珠	-9.67597
女子	-9.67615
繁	-9.67617
紛	-9.67657
又有	-9.67663
鴻	-9.6767
焰	-9.677
三百	-9.67759
上皇	-9.67998
曰汝	-9.68114
天關	-9.68159
東海	-9.68159
无形	-9.6819
僕	-9.682
帝王	-9.68209
鋒	-9.68222
曽	-9.68233
僞	-9.68246
直符	-9.6825
畜	-9.68425
肆	-9.68493
碑	-9.68721
之類	-9.68723
賓	-9.68752
采	-9.68765
第七	-9.68769
睹	-9.68785
亦可	-9.68857
三百六十	-9.68959
不識	-9.68985
者以	-9.69058
相生	-9.69126
之尊	-9.69267
訟	-9.69298
滌	-9.69317
箕	-9.69343
屈	-9.69345
大有	-9.69352
咽液	-9.6936
曠	-9.6936
姹女	-9.69365
鳯	-9.69376
二氣	-9.69429
下方	-9.69496
嚥	-9.69574
和合	-9.69614
便是	-9.6984
整	-9.69846
銅	-9.69924
區	-9.69946
上升	-9.70017
道成	-9.70038
青華	-9.70192
五日	-9.70303
紫雲	-9.70317
神將	-9.70342
徃	-9.70361
禹	-9.70367
道經	-9.70385
其神	-9.70463
以來	-9.70469
柱	-9.705
玄珠	-9.70518
魯	-9.7052
人道	-9.70561
五月	-9.7073
古今	-9.70759
得一	-9.70936
天元	-9.70993
天尊曰	-9.71002
添	-9.71063
柳	-9.71067
富貴	-9.71068
健	-9.71082
普度	-9.71106
好生	-9.71139
案	-9.71142
探	-9.71177
精氣	-9.71204
赤書	-9.71233
子曰	-9.71329
朝元	-9.71399
金甲	-9.71475
曰子	-9.71529
騫	-9.71602
灑	-9.71641
憐	-9.71673
旁	-9.71677
猷	-9.71688
朴	-9.7169
靈符	-9.71691
隸	-9.71698
婁	-9.71704
煩	-9.71751
白鶴	-9.71919
日用	-9.71959
天宫	-9.72201
時人	-9.72229
崖	-9.72267
屢	-9.7229
擒	-9.72337
之處	-9.72352
妙經	-9.72405
法輪	-9.72413
各一	-9.72431
侍衛	-9.72514
帝一	-9.72518
學士	-9.72562
此天	-9.72577
不覺	-9.72692
安寧	-9.72837
掠	-9.72856
秉	-9.72924
齋戒	-9.73074
日月之	-9.73202
歌曰	-9.73219
琅	-9.73411
以其	-9.73428
郁	-9.73507
恨	-9.73509
溺	-9.73528
施行	-9.73538
而出	-9.73589
元精	-9.73728
於人	-9.7373
玄妙	-9.73734
惱	-9.73831
不用	-9.73851
星君	-9.73914
湖	-9.73919
雷神	-9.73962
天官	-9.73977
魂神	-9.74005
九霄	-9.74101
遏	-9.74132
臍	-9.74187
者謂	-9.7453
三尸	-9.74618
焕	-9.74636
操	-9.74664
猿	-9.7469
蹤	-9.74694
淡	-9.74701
循環	-9.74715
十二月	-9.74931
九月	-9.74949
九靈	-9.75066
修道	-9.7507
守一	-9.75073
寃	-9.75247
紹	-9.75294
楚	-9.75311
綿	-9.75315
傅	-9.7532
虔	-9.75323
揮	-9.75375
壺	-9.75559
五苦	-9.7562
夫婦	-9.75772
月中	-9.75821
淺	-9.75835
黎	-9.75874
治病	-9.75951
屏	-9.75954
選	-9.75954
玉光	-9.75975
赤子	-9.76109
幽魂	-9.76191
之前	-9.76244
爾時天尊	-9.76316
無礙	-9.76392
犬	-9.76568
桂	-9.76594
及諸	-9.76602
眠	-9.76605
裂	-9.7663
運度	-9.76636
洞神	-9.76702
全眞	-9.76873
正法	-9.76945
中黄	-9.76959
億萬	-9.76971
七年	-9.77024
玄師曰	-9.77079
一物	-9.77091
顛倒	-9.77122
大藥	-9.77136
之文	-9.77137
自然之	-9.77151
篤	-9.77156
尹	-9.77177
園	-9.77189
膏	-9.77203
征	-9.7721
躡	-9.77211
良乆	-9.77283
後世	-9.77318
之宗	-9.77368
不相	-9.77373
在人	-9.77546
一旦	-9.77616
此法	-9.77638
文昌	-9.77684
牧	-9.77735
疫	-9.7776
𩲸	-9.77773
乖	-9.77815
茶	-9.77816
抑	-9.77819
亨	-9.77833
牀	-9.7784
之天	-9.77902
元帥	-9.77926
大衆	-9.77963
碧落	-9.77966
或有	-9.78077
運用	-9.78094
心不	-9.78179
九陽	-9.78342
藉	-9.78381
熙	-9.78429
競	-9.78444
而來	-9.78461
勒	-9.78462
流行	-9.78491
敎	-9.78552
某人	-9.78635
至于	-9.78822
死魂	-9.78843
五氣	-9.78922
陽精	-9.78967
靄	-9.79054
右符	-9.79145
恣	-9.79156
湛然	-9.79187
欣	-9.79232
不及	-9.79311
八極	-9.79611
真符	-9.79699
馭	-9.79703
凝神	-9.7974
邦	-9.79749
覓	-9.79759
麻	-9.79766
蔽	-9.79794
祗	-9.79842
不聞	-9.79854
無名	-9.79874
門人	-9.79909
有二	-9.79995
能生	-9.80126
聞之	-9.80146
保舉	-9.80213
杳	-9.80269
魅	-9.8031
促	-9.80369
悦	-9.80394
斗中	-9.80395
絲	-9.80433
哭	-9.80444
書符	-9.80445
皂	-9.80467
吾今	-9.8048
譬如	-9.80558
見其	-9.8056
壘	-9.80677
星在	-9.80791
當知	-9.80913
運行	-9.8093
祖炁	-9.80937
研	-9.80988
泣	-9.81
卑	-9.81001
偉	-9.81047
亦名	-9.81084
進退	-9.81197
詩云	-9.8122
五行之	-9.81223
一陽	-9.81277
功過	-9.81282
大劫	-9.81374
此文	-9.81468
重陽	-9.81573
陰符	-9.81627
姤	-9.81643
神丹	-9.81651
煇	-9.81668
練	-9.81674
險	-9.81682
闊	-9.81698
徴	-9.81709
未能	-9.81717
伏以	-9.81882
閉目	-9.81903
者則	-9.82
詩曰	-9.82108
内有	-9.82211
日辰	-9.8226
黑帝	-9.82282
圓明	-9.82318
爛	-9.82319
巴	-9.82377
武帝	-9.82428
三景	-9.82475
金石	-9.82603
遊行	-9.82762
形神	-9.8281
之身	-9.82814
緯	-9.8284
手執	-9.82869
其事	-9.82871
憫	-9.82889
天炁	-9.82962
沐	-9.82979
飾	-9.83002
誦詠	-9.83018
遽	-9.83018
謬	-9.83038
大吉	-9.8305
頻	-9.83052
臭	-9.83053
消除	-9.83061
至此	-9.83113
故有	-9.83137
▲▲	-9.83155
陛下	-9.8316
片	-9.83197
在天	-9.83351
上朝	-9.83368
天丁	-9.83411
玄關	-9.83505
况	-9.83632
一卷	-9.83664
六根	-9.83677
倫	-9.83757
贊	-9.83991
二八	-9.84172
眞符	-9.8418
森	-9.8423
鑿	-9.84313
湘	-9.8432
鑄	-9.84354
北方八天	-9.84366
天皇	-9.84394
九玄	-9.84504
蓬	-9.84556
符呪曰	-9.84613
消滅	-9.84686
旌	-9.84791
焦	-9.84877
終不	-9.84893
色界	-9.84901
彈	-9.84912
數十	-9.84946
道言	-9.84954
恬	-9.84971
南方八天	-9.84985
内義曰	-9.8499
經法	-9.85003
蔚	-9.85024
頼	-9.85029
辱	-9.85039
婆	-9.85054
庸	-9.85114
吒	-9.85142
六月	-9.85251
無復	-9.85254
元始上帝	-9.85298
白日	-9.85421
百里	-9.8543
也今	-9.85483
人以	-9.85613
飛天神王	-9.85614
三寸	-9.85619
鐘	-9.8562
無邊	-9.8562
鄰	-9.85672
垣	-9.85708
陷	-9.85711
崔	-9.85802
上品	-9.85919
丹書	-9.86032
之道也	-9.86056
帛	-9.86107
苦惱	-9.86155
之光	-9.86178
死生	-9.86281
華蓋	-9.86281
神變	-9.86293
倚	-9.8636
與之	-9.86362
誘	-9.86381
一寸	-9.86388
减	-9.864
先生曰	-9.86418
進火	-9.8655
主者	-9.86567
道也	-9.86586
眞形	-9.86589
雷電	-9.86719
下有	-9.8691
一道	-9.86925
警	-9.8702
九十	-9.87049
諭	-9.87058
西方八天	-9.87072
暑	-9.87076
安樂	-9.87097
地仙	-9.87156
十五日	-9.87192
生身	-9.87317
仙姑	-9.87367
修齋	-9.87426
陰陽之	-9.87577
丞	-9.8761
愼	-9.87653
髙眞	-9.87686
无量度人	-9.87718
功行	-9.87722
掩	-9.87722
學仙	-9.87725
馘	-9.87728
金水	-9.87729
儲	-9.87737
𡨚	-9.87747
擾	-9.87749
璧	-9.87752
蟾	-9.87775
毁	-9.87777
威神	-9.87808
阜	-9.87858
七元	-9.87862
雌	-9.8791
主宰	-9.88012
之性	-9.88079
凡人	-9.88202
之源	-9.88254
哲	-9.88416
飽	-9.8844
革	-9.88471
導引	-9.88608
自是	-9.88613
所有	-9.88749
上道	-9.88765
南昌	-9.88836
偃	-9.89004
雅	-9.89133
耳目	-9.89142
忍	-9.89161
姿	-9.8918
飈	-9.89183
八百	-9.89219
上宫	-9.89236
托	-9.89246
眷屬	-9.89277
華山	-9.89281
三關	-9.89321
帝諱	-9.89381
風雷	-9.89381
威儀	-9.89385
妙化	-9.89511
上相	-9.89514
周流	-9.89523
天文	-9.8964
東西	-9.89651
台	-9.89727
晃	-9.89904
巡	-9.89922
爲主	-9.89957
亦非	-9.9001
抱一	-9.90086
其間	-9.90105
敢有	-9.90152
幽冥	-9.90163
不失	-9.90295
所說	-9.90367
交合	-9.90405
法身	-9.90479
西山	-9.90506
斤	-9.90519
婬	-9.90534
氛	-9.90547
五神	-9.90547
甫	-9.90556
於物	-9.9056
朽	-9.90569
銜	-9.90578
裙	-9.90578
勃	-9.90594
緒	-9.90595
駐	-9.90598
農	-9.90598
臣某	-9.90601
刃	-9.90601
水府	-9.90607
借	-9.90611
口中	-9.90631
東向	-9.90643
癡	-9.90668
長跪	-9.90706
内丹	-9.9082
太上道君	-9.90823
其形	-9.90827
骸	-9.90962
天蓬	-9.91085
胎息	-9.91097
之先	-9.91195
生化	-9.91203
餐	-9.91289
擬	-9.91316
跨	-9.91318
何處	-9.91334
迅	-9.91337
鄧	-9.9135
范	-9.91352
莫測	-9.91381
玄玄	-9.91405
猶如	-9.91447
與道	-9.91491
黄籙	-9.91598
如意	-9.91607
消息	-9.91647
不行	-9.91717
有形	-9.91736
說經	-9.91802
始生	-9.91831
有道	-9.91885
與天	-9.91893
玉音	-9.91914
殆	-9.91974
講	-9.91978
濯	-9.91985
幡	-9.92019
自此	-9.9202
逼	-9.9202
太眞	-9.9202
太守	-9.92054
介	-9.92062
碎	-9.92063
揺	-9.92067
築	-9.92072
漱	-9.92078
丕	-9.92131
米	-9.92136
叱	-9.92205
梵行	-9.92342
之至	-9.92385
各各	-9.92461
之符	-9.92468
以至	-9.9249
心中	-9.92602
煉度	-9.92621
流光	-9.92631
粉	-9.92693
役使	-9.92694
肩	-9.92714
打	-9.92728
皈	-9.92764
句曲	-9.92811
得見	-9.92838
丙丁	-9.92974
受生	-9.93124
百靈	-9.93134
居之	-9.9315
有人	-9.93183
能知	-9.93253
玉堂	-9.93362
奴	-9.93466
隠	-9.93467
卓	-9.93469
叙	-9.93487
道法	-9.93516
玉華	-9.93674
星辰	-9.93682
不息	-9.93689
成仙	-9.93862
凡有	-9.9389
九日	-9.94025
好道	-9.94076
也其	-9.94094
四月	-9.94176
賴	-9.94187
趨	-9.94191
急急	-9.94193
拯	-9.94237
袍	-9.94282
嘆	-9.94352
非有	-9.94398
說法	-9.94408
兩儀	-9.94495
三台	-9.945
不絶	-9.94571
一十二	-9.94578
入於	-9.94665
法界	-9.94679
化身	-9.94761
剥	-9.94885
冶	-9.94945
内諱	-9.94965
暎	-9.94977
於天	-9.94989
幢	-9.9499
枉	-9.94997
得仙	-9.95015
風火	-9.95016
相交	-9.95059
内名	-9.95061
勵	-9.95069
枚	-9.95327
朱砂	-9.95356
萬法	-9.95395
南北	-9.95429
何謂	-9.95512
神室	-9.95516
靈章	-9.95517
精思	-9.95605
天尊歸命信禮	-9.95605
怠	-9.95653
擁	-9.95716
身形	-9.95717
項	-9.95717
乳	-9.95718
謫	-9.95737
泯	-9.95766
煎	-9.95778
八難	-9.95781
金液還丹	-9.95789
與我	-9.95824
伺	-9.95881
玉章	-9.96065
十年	-9.96148
不受	-9.96225
成形	-9.96266
九眞	-9.96286
與天地	-9.96338
方可	-9.9635
其色	-9.96404
愁	-9.96455
刀圭	-9.96459
戮	-9.96482
掛	-9.96501
岳	-9.96521
抽	-9.96533
敵	-9.96541
生生	-9.96555
謗	-9.96569
不可以	-9.96614
出家	-9.96615
捷	-9.96645
宏	-9.96648
得聞	-9.96674
此符	-9.96675
有大	-9.96719
无所	-9.96734
四年	-9.96757
不食	-9.96775
三陽	-9.96792
甲乙	-9.96878
定録	-9.96883
可謂	-9.96951
採藥	-9.97045
竈	-9.97172
妙法	-9.9719
金門	-9.97206
衍	-9.97215
嗟	-9.97255
雖有	-9.97261
究竟	-9.97268
佩之	-9.97286
法門	-9.97308
四衆	-9.97361
紫虚	-9.97371
内觀	-9.97401
生天	-9.97536
未來	-9.97584
夏至	-9.97773
▁(	-9.97789
福德	-9.97872
太華	-9.97898
社	-9.97912
之狀	-9.97929
符使	-9.97936
通玄	-9.97984
風雲	-9.98021
麟	-9.98022
獅子	-9.98033
涉	-9.98035
云云	-9.98048
四肢	-9.9805
筌	-9.98057
演說	-9.98062
皇君	-9.98065
熾	-9.98071
佳	-9.98075
喬	-9.98096
恊	-9.98121
必有	-9.98209
五賊	-9.98225
相見	-9.98273
或爲	-9.98355
八威	-9.98564
青衣	-9.98666
之方	-9.98686
皆由	-9.98718
耗	-9.98749
三魂	-9.98752
静	-9.98753
蔡	-9.98774
三境	-9.98778
劵	-9.98787
寵	-9.98789
枕	-9.98818
愍	-9.98824
剛柔	-9.98851
之言	-9.98859
制伏	-9.98898
老人	-9.98956
十餘年	-9.98992
三人	-9.99062
常存	-9.99067
太子	-9.99103
若人	-9.99236
善功	-9.99288
受命	-9.9934
九竅	-9.99376
金鼎	-9.99386
兆身	-9.99411
入山	-9.99414
思惟	-9.9957
筋	-9.99594
冒	-9.99608
有餘	-9.9961
百餘	-9.99624
至真	-9.99632
排	-9.99632
聾	-9.99638
上方	-9.9969
太霄	-9.9974
萬人	-9.99864
諸仙	-9.9988
解釋	-9.99898
白雪	-9.9991
之難	-9.99928
剪	-9.99936
无不	-9.99947
此時	-9.9997
子時	-9.99999
過去	-10.0003
飲酒	-10.0013
轟	-10.0025
次第	-10.0027
夜半	-10.003
減	-10.003
單	-10.0031
怡	-10.0033
構	-10.0037
鷄	-10.0039
二十五	-10.0044
六十四卦	-10.0045
二儀	-10.0046
山下	-10.0068
成丹	-10.0072
月華	-10.0078
洲	-10.0078
百姓	-10.008
道備	-10.0081
寥	-10.0092
聰	-10.0094
隅	-10.0097
眞靈	-10.0101
杳冥	-10.0106
服食	-10.0108
歟	-10.0114
叅	-10.0115
窗	-10.0116
截	-10.0117
橘	-10.0117
未有	-10.0123
後天	-10.0124
從官	-10.0133
恭敬	-10.0136
玉眞	-10.0139
時有	-10.0156
玄中	-10.0157
文字	-10.0158
而言	-10.017
欲界	-10.0173
展	-10.0175
食之	-10.0193
九光	-10.0195
恃	-10.0195
黨	-10.0197
大洞經	-10.0198
上陽子曰	-10.0198
天真	-10.0199
模	-10.0199
盲	-10.02
明日	-10.0219
神風	-10.025
四大	-10.0251
存思	-10.0253
繩	-10.0272
詰	-10.0273
金籙	-10.0273
延壽	-10.0275
攀	-10.028
二十八宿	-10.0282
不言	-10.0284
低	-10.0284
魁罡	-10.0285
古人	-10.0285
之災	-10.0309
金書	-10.0319
在乎	-10.0337
天台	-10.0341
具位	-10.0343
變爲	-10.0346
命門	-10.0347
邀	-10.0356
虹	-10.0358
這	-10.036
頒	-10.036
叟	-10.0361
準	-10.0364
琳	-10.0365
祈禱	-10.0371
泉曲	-10.0379
飛雲	-10.0383
從此	-10.0389
其言	-10.0397
又問	-10.0411
問曰	-10.0416
數百	-10.043
洞眞	-10.0435
渺	-10.0436
話	-10.0437
梅	-10.0439
決	-10.0441
旅	-10.0444
匪	-10.0445
煮	-10.0447
昨	-10.0453
温養	-10.0459
生炁	-10.0475
道場	-10.0493
如前	-10.05
飛神	-10.0506
大王	-10.0506
終日	-10.0511
乆之	-10.0513
邵	-10.0515
念念	-10.0517
浴	-10.0521
紫清	-10.0521
饑	-10.0523
宗師	-10.0524
蒸	-10.0524
矜	-10.0524
村	-10.0524
棗	-10.0525
弄	-10.0528
一聲	-10.0528
茅君	-10.0537
腸	-10.054
不悟	-10.0541
之徒	-10.0543
裳	-10.0567
法象	-10.0574
爲用	-10.0575
入道	-10.0579
無方	-10.0583
生萬物	-10.0585
清明	-10.059
眞水	-10.059
出離	-10.0593
是非	-10.0596
逾	-10.0599
易曰	-10.0603
北都	-10.0605
堯	-10.0606
費	-10.0606
渡	-10.0609
不可得	-10.061
陣	-10.0613
郊	-10.0616
膝	-10.0617
平叔	-10.0618
飛空	-10.0619
此章	-10.0621
光照	-10.0629
堅固	-10.0629
也故曰	-10.0647
流精	-10.0649
抵	-10.0659
生而	-10.067
也乃	-10.0673
受鍊	-10.0675
漿	-10.0677
神符	-10.0678
後學	-10.068
之臺	-10.0681
賞	-10.0682
斷絶	-10.0684
丹經	-10.0684
恍	-10.0685
飯	-10.0687
優	-10.0688
括	-10.0689
桓	-10.0689
盻	-10.069
汗	-10.0691
馥	-10.0694
之說	-10.0696
龍王	-10.0696
禦	-10.0697
岡	-10.0698
之號	-10.0708
運轉	-10.0708
八十	-10.0711
種民	-10.0714
者亦	-10.0716
逝	-10.073
感應	-10.0738
追魂	-10.0743
千年	-10.0746
而下	-10.0754
人生	-10.0756
寳經	-10.0759
五道	-10.0762
九州	-10.0765
帀	-10.0772
揖	-10.0772
本來	-10.0774
宥	-10.0774
汲	-10.0777
浄	-10.0778
金玉	-10.0787
兩手	-10.0787
希有	-10.0796
藏於	-10.0799
也是	-10.0806
如法	-10.0806
冥冥	-10.0806
以應	-10.0817
拔度	-10.0818
造化之	-10.082
難可	-10.0824
太白	-10.0828
九壘	-10.083
有五	-10.0838
酆	-10.0842
與人	-10.0848
津液	-10.085
寺	-10.0851
曷	-10.0857
上登	-10.086
紫府	-10.086
顚倒	-10.086
衢	-10.086
漂	-10.0865
蘂	-10.0866
紐	-10.0866
蠲	-10.0868
鈴	-10.0868
黄金	-10.0877
上奏	-10.0878
人知	-10.088
不壞	-10.0882
赤炁	-10.0888
真王	-10.09
巳上	-10.0904
乃至	-10.0918
眇眇	-10.0918
五千	-10.0921
大定	-10.0928
發生	-10.0929
蛟	-10.0931
將吏	-10.0931
生氣	-10.0932
可不	-10.0935
傳授	-10.0942
快	-10.0943
兄弟	-10.0946
氤氲	-10.0948
帔	-10.0948
濛	-10.0949
遶	-10.095
元元	-10.0953
灼	-10.0953
収	-10.0954
良久	-10.0958
浩劫	-10.096
黃帝	-10.0967
之祖	-10.0975
太无	-10.0992
一本	-10.1004
家人	-10.1015
作用	-10.1019
倍	-10.1021
轅	-10.1024
罏	-10.1024
不欲	-10.1026
璞	-10.1028
歸於	-10.1029
翊	-10.103
濕	-10.1031
分形	-10.1032
不過	-10.1034
膀胱	-10.1037
海空智藏	-10.1038
快樂	-10.1042
飛玄	-10.1053
不散	-10.1058
念呪	-10.1059
二者	-10.1062
而至	-10.1063
神神	-10.1065
忽然	-10.1067
仙眞	-10.107
一千	-10.1074
不肯	-10.1076
生滅	-10.1086
自得	-10.1087
消災	-10.1088
廣大	-10.1092
合道	-10.1093
小人	-10.1094
於道	-10.1105
變成	-10.1107
福堂	-10.1114
卵	-10.1116
胎仙	-10.1117
九地	-10.1121
對曰	-10.1121
綵	-10.1122
軌	-10.1122
三十日	-10.1122
飛騰	-10.1123
酬	-10.1124
顛	-10.1124
陽明	-10.1125
鞭	-10.1131
澗	-10.1133
不起	-10.1136
玉闕	-10.1139
不已	-10.114
延康	-10.114
啼	-10.1141
寳籙	-10.1148
東井	-10.1153
水旱	-10.116
狀如	-10.1162
之力	-10.1167
鍊丹	-10.117
異之	-10.1171
无色	-10.1176
清齋	-10.1186
應化	-10.119
還元	-10.119
則神	-10.1191
受之	-10.1194
跪	-10.1197
之鬼	-10.1198
㧞	-10.1203
餓鬼	-10.1205
湧	-10.1207
闢	-10.1207
徵	-10.121
去來	-10.121
燥	-10.121
拒	-10.121
奈何	-10.1212
媒	-10.1216
麤	-10.1218
眞元	-10.1241
於心	-10.1241
兆民	-10.1245
修煉	-10.126
交媾	-10.1262
眞空	-10.1262
故得	-10.1269
侍衞	-10.1274
不是	-10.1275
或以	-10.1277
其下	-10.1278
存想	-10.128
祚	-10.1288
晩	-10.1295
葉士表曰	-10.1296
樵	-10.1296
人天	-10.1298
荆	-10.1299
泊	-10.13
宇宙	-10.1301
此爲	-10.1302
雍	-10.1304
宿命	-10.1304
梯	-10.1306
熏	-10.1307
大千	-10.1309
萬天	-10.1313
不然	-10.1315
長生不死	-10.1321
攝召	-10.1323
大乘	-10.1325
不明	-10.1327
靈童	-10.1328
在心	-10.1331
至尊	-10.1341
北酆	-10.1345
天眞皇人	-10.1346
死者	-10.1347
之聲	-10.1348
不測	-10.1349
五靈	-10.135
二百	-10.1365
下手	-10.1377
別	-10.1377
數也	-10.138
栖	-10.138
二十八	-10.1382
冝	-10.1389
臂	-10.1391
邁	-10.1391
靡	-10.1392
疊	-10.1392
崩	-10.1396
玉液	-10.1397
飛升	-10.1399
二景	-10.1401
中指	-10.1402
昇仙	-10.1412
公曰	-10.1416
子午	-10.1417
作禮	-10.1425
動而	-10.1432
大將	-10.1436
後人	-10.1438
陽氣	-10.1454
傳送	-10.1456
而入	-10.1456
湛	-10.1459
九龍	-10.1463
天堂	-10.1465
玉簡	-10.1466
凝結	-10.1467
穆	-10.1471
觀之	-10.1472
终	-10.1476
之象也	-10.1477
有無	-10.1478
翰	-10.1479
北向	-10.1481
册	-10.1482
儻	-10.1483
常行	-10.1483
簫	-10.1484
十九	-10.1485
韶	-10.1485
勾	-10.1487
衣服	-10.149
丹元	-10.1492
之色	-10.1494
洞靈	-10.1513
其功	-10.1515
黄素	-10.1517
紫房	-10.1518
禍福	-10.1521
度人經	-10.153
力士	-10.1536
之謂也	-10.1539
皆爲	-10.1539
之靈	-10.1547
精炁	-10.1551
師云	-10.1552
瀆	-10.1556
之節	-10.1566
日夜	-10.1566
捕	-10.1568
一乘	-10.1568
諸惡	-10.157
苗	-10.1571
璇璣	-10.1571
罩	-10.1574
度厄	-10.1581
褒	-10.1583
道炁	-10.1596
生靈	-10.1606
不傳	-10.1607
輪迴	-10.1608
嗔	-10.1609
河海	-10.1611
至今	-10.1615
石室	-10.1621
既濟	-10.1629
之義也	-10.1634
有時	-10.1638
神公	-10.1646
赤文	-10.1647
憎	-10.1662
五味	-10.1663
已上	-10.1663
屯	-10.1664
遼	-10.1664
殻	-10.1665
恢	-10.1666
不解	-10.1672
霐	-10.1673
闇	-10.1676
鼎器	-10.1679
洞淵	-10.1681
碧霞	-10.1684
入水	-10.1685
其後	-10.1699
之㫖	-10.1709
人物	-10.1716
陽生	-10.1716
在世	-10.1724
七魄	-10.1733
得此	-10.1733
春秋	-10.1739
聖母	-10.1739
非人	-10.174
三茅	-10.1741
六年	-10.1744
正音	-10.1749
雀	-10.1751
六府	-10.1751
歛	-10.1754
叩齒九通	-10.1755
玉宸	-10.1755
例	-10.1755
鱗	-10.1757
暖	-10.1759
胸	-10.1761
懴	-10.1762
憶	-10.1762
洒	-10.1764
所得	-10.1764
大神无鞅之衆浮空而至	-10.1765
太歲	-10.1766
中生	-10.1777
威靈	-10.1786
十一月	-10.1787
學之士	-10.18
之母	-10.1807
五百	-10.1811
子母	-10.1817
紫光	-10.1817
之主	-10.1821
亦曰	-10.1823
眞陽	-10.1833
非常	-10.1833
此皆	-10.1833
天下之	-10.1848
鄙	-10.1848
綺	-10.1851
奸	-10.1852
躋	-10.1853
橫	-10.1853
晚	-10.1856
眞精	-10.1856
袖	-10.1856
豁落	-10.1857
劔	-10.1859
玄微	-10.1862
泰山	-10.1863
群生	-10.1863
四極	-10.187
太上老君	-10.187
於外	-10.1883
布施	-10.189
普告	-10.1897
三皇	-10.1899
一者	-10.1904
經典	-10.1906
陽炁	-10.1912
萬年	-10.192
玄眞	-10.192
陽光	-10.1922
豫	-10.1928
門下	-10.1943
銘	-10.1944
歷世眞仙體道通鑑卷之	-10.1946
殷	-10.1947
駭	-10.1948
沸	-10.1948
傲	-10.1948
亶	-10.1953
三者	-10.1955
祟	-10.1964
者非	-10.1967
至誠	-10.1977
存焉	-10.1991
不以	-10.1993
所生	-10.2004
誦此經	-10.2011
爲陽	-10.2016
若是	-10.2018
或問	-10.2022
廬山	-10.2027
而復	-10.2031
亦是	-10.2035
笈	-10.2038
聲色	-10.2039
吁	-10.2041
妾	-10.2044
粹	-10.2049
搜	-10.2049
百骸	-10.2049
侣	-10.205
割	-10.205
禧	-10.2051
鉞	-10.2051
粗	-10.2051
成數	-10.2052
太初	-10.2052
玉清樂	-10.2062
成功	-10.2063
道性	-10.2063
昇入	-10.2066
相合	-10.2066
眞土	-10.2068
也蓋	-10.2074
安鎭	-10.2081
偈	-10.2083
七十二	-10.209
羣生	-10.2093
慶雲	-10.211
化成	-10.2115
流珠	-10.2127
元洞	-10.2128
賣	-10.2136
不須	-10.2136
三萬六千	-10.2137
窟	-10.2139
算	-10.2139
的	-10.214
离	-10.2142
饒	-10.2144
諒	-10.2145
扣	-10.2145
朋	-10.2146
也然	-10.2147
尚書	-10.2151
公子	-10.2156
瓶	-10.2156
八節	-10.2166
復還	-10.2167
凡夫	-10.2173
河圖	-10.2175
衆妙	-10.2179
尊師	-10.218
京師	-10.219
青童	-10.2191
萬事	-10.2195
换	-10.2208
仙都	-10.2208
壬癸	-10.2209
明年	-10.2211
各三十二人	-10.222
所受	-10.2225
耽	-10.223
洞照	-10.2235
闔	-10.2236
朱宫	-10.2237
得度	-10.2238
扉	-10.224
板	-10.2242
懴悔	-10.2244
西王母	-10.2246
敦	-10.2247
昆	-10.2248
以是因縁	-10.2249
勤行	-10.2257
於中	-10.2262
无礙	-10.2262
紫霄	-10.2272
玄明	-10.228
端坐	-10.2283
至神	-10.2286
在於	-10.2289
使之	-10.229
仙君	-10.2292
微塵	-10.2305
功滿	-10.2315
明月	-10.2316
授之	-10.2319
三華	-10.2322
之首	-10.2327
若非	-10.2333
謾	-10.2334
匡	-10.2335
翹	-10.2336
靈風	-10.2338
艱	-10.2338
逕	-10.2338
尉	-10.2339
九重	-10.2339
日精	-10.2341
弊	-10.2343
賈	-10.2343
皈依	-10.2344
床	-10.2345
道光曰	-10.2347
白炁	-10.235
遊宴	-10.2355
丞相	-10.2358
癘	-10.2364
至聖	-10.2367
吏兵	-10.2367
言曰	-10.2369
是我	-10.2373
鬼官	-10.2391
中間	-10.2393
登眞	-10.2394
衆聖	-10.2398
是知	-10.2405
精血	-10.2411
通神	-10.2414
之子	-10.2417
不必	-10.2422
洞府	-10.2428
狼	-10.2428
丹靈	-10.2428
是一病	-10.2429
中斗	-10.2429
歸一	-10.2431
丹天	-10.2433
倉	-10.2434
館主	-10.2434
仇	-10.2436
秩	-10.2436
阻	-10.2437
踐	-10.2438
憲	-10.2439
伊	-10.2439
五臓	-10.244
耕	-10.2442
玉童玉女	-10.2442
段	-10.2445
蕩蕩	-10.2446
撓	-10.2448
武夷	-10.2448
吽	-10.245
而化	-10.2456
聰明	-10.2463
高眞	-10.2465
而行之	-10.2471
谷神	-10.2473
所見	-10.2476
身爲	-10.2476
此則	-10.2476
薛	-10.2479
不應	-10.2497
九華	-10.2497
其上	-10.2501
乃得	-10.2508
上真	-10.2509
洞中	-10.2511
下丹田	-10.2517
復命	-10.2517
法相	-10.2519
仙王	-10.2521
水官	-10.2521
星宿	-10.2525
玄一	-10.2525
大明	-10.2527
札	-10.2527
少陽	-10.2528
聞其	-10.2528
教化	-10.2529
襲	-10.2534
匿	-10.2535
溟涬	-10.2537
崑	-10.2538
騫林	-10.2538
詐	-10.254
千二百	-10.2541
轡	-10.2541
亢	-10.2543
爵	-10.2545
黄婆	-10.2552
第九	-10.2557
未知	-10.2557
鍾離	-10.2561
以示	-10.2564
己身	-10.2567
若以	-10.2572
爲我	-10.2578
合於	-10.258
人世	-10.2584
人鬼	-10.2585
玄冥	-10.2594
而歸	-10.2597
終始	-10.2602
爲一藥	-10.2609
不勝	-10.2625
之山	-10.2625
仞	-10.2629
頑	-10.263
上玄	-10.263
謡	-10.2633
五符	-10.2636
寬	-10.2637
浸	-10.2637
數日	-10.2639
筵	-10.2639
淸	-10.2641
控	-10.2645
所言	-10.2646
做	-10.2649
勘	-10.265
奉道	-10.2651
中嶽	-10.2658
釋氏	-10.2663
殊不知	-10.2666
千萬	-10.2666
離宫	-10.2678
於世	-10.2679
者蓋	-10.2681
靈根	-10.2683
之書	-10.2684
始於	-10.2695
地官	-10.2697
長安	-10.27
不通	-10.2701
寂然	-10.2716
精進	-10.2721
飛龍	-10.2721
運火	-10.2722
惡業	-10.2725
青玄	-10.2727
戈	-10.2729
記名	-10.2736
嗜	-10.2739
一字	-10.274
七返	-10.2741
裝	-10.2742
塊	-10.2743
啖	-10.2744
白日昇天	-10.2746
換	-10.2746
拙	-10.2746
渴	-10.2748
頃刻	-10.2749
釣	-10.2749
圭	-10.2749
縱横	-10.2749
庚辛	-10.2751
愚癡	-10.2755
弼	-10.2755
當時	-10.2759
心心	-10.2763
千餘	-10.2766
始青	-10.2766
流通	-10.2768
其氣	-10.2777
十天	-10.2781
遠近	-10.2785
一百二十	-10.2787
此人	-10.279
知此	-10.2793
經上清	-10.2798
求之	-10.2809
以道	-10.2813
譬	-10.2813
一二	-10.2816
之魂	-10.2823
王君	-10.2826
尼	-10.2847
寜	-10.2847
攸	-10.2849
奮	-10.2852
右手	-10.2852
見一	-10.2854
鬚	-10.2855
年月日時	-10.2856
浮黎	-10.2856
霑	-10.2859
爍	-10.2868
以致	-10.2872
天光	-10.2873
精華	-10.2873
洞觀	-10.2873
名字	-10.2874
卷下	-10.2881
有情	-10.2881
東極	-10.2886
異香	-10.2887
青城	-10.2891
愚人	-10.2895
此山	-10.2896
肯	-10.2897
豈知	-10.2901
金童	-10.2903
之辰	-10.2904
豈有	-10.2906
生民	-10.2907
位爲	-10.2909
萬聖	-10.2915
只是	-10.2916
洞視	-10.2918
忽有	-10.2923
洞清	-10.293
禮拜	-10.2934
山嶽	-10.2937
材	-10.2938
天魔	-10.2939
若見	-10.2941
降眞	-10.2943
他人	-10.2943
子良	-10.2944
斡	-10.2946
諦	-10.2948
奎	-10.2949
呪畢	-10.2949
髪	-10.295
乍	-10.2952
貨	-10.2953
室中	-10.2954
譴	-10.2956
漫	-10.2957
四十九	-10.2958
銷	-10.2962
峻	-10.2966
有異	-10.2968
玉札	-10.2972
也言	-10.2973
天尊言	-10.2976
不容	-10.2976
可見	-10.2977
未盡	-10.2983
皆以	-10.2984
通眞	-10.2987
此三	-10.2992
到此	-10.2993
二十七	-10.2993
安得	-10.2993
方寸	-10.3003
七炁	-10.3012
天中之	-10.3014
聖衆	-10.3017
涯	-10.3023
西華	-10.3024
萬鬼	-10.3025
萬丈	-10.3027
歸根	-10.3029
故以	-10.3033
䝉	-10.3039
而能	-10.304
其理	-10.3045
長春	-10.3047
無人	-10.3048
教人	-10.3048
三塗五苦	-10.3049
醒	-10.3056
療	-10.3056
凉	-10.3057
顏	-10.3061
子野曰	-10.3061
腥	-10.3062
析	-10.3064
神眞	-10.3069
異名	-10.307
洽	-10.3072
四天	-10.3078
訣曰	-10.308
笑曰	-10.3081
及其	-10.3089
人所	-10.3095
羽蓋	-10.3102
可得	-10.311
物之	-10.3112
邪精	-10.3114
日月星辰	-10.3119
入口	-10.3122
柄	-10.3131
開通	-10.3132
衣冠	-10.3132
歸依	-10.314
光華	-10.3145
有九	-10.3145
不變	-10.315
臣等	-10.3152
身體	-10.3154
長年	-10.3158
可知	-10.316
亮	-10.3161
寳藏	-10.3162
狐	-10.3163
䟽	-10.3163
內	-10.3164
蔭	-10.3165
買	-10.3167
梓	-10.3169
熒	-10.3169
轄	-10.317
有此	-10.317
一十	-10.3171
蠱	-10.3172
歴	-10.3173
杯	-10.3174
九祖	-10.3177
唎	-10.318
無色	-10.3182
一斤	-10.3185
元始符命	-10.3187
書云	-10.3188
萬變	-10.3189
殄	-10.3191
夫妻	-10.3193
六十四	-10.3195
爲道	-10.3197
四百	-10.3197
八天	-10.3207
清濁	-10.3208
玉曆	-10.3212
制魔	-10.3217
俱入	-10.3218
九皇	-10.3218
未生	-10.3232
吾身	-10.3233
者不	-10.3239
形容	-10.3253
靈飛	-10.3254
皆從	-10.3257
鍊神	-10.3257
之官	-10.3258
淮	-10.3266
鈞	-10.3272
勇	-10.3273
飬	-10.3274
見於	-10.3275
自稱	-10.3277
吕曰	-10.3278
壑	-10.3278
馮	-10.328
靣	-10.3281
渠	-10.3283
訶	-10.3287
白素	-10.3291
午時	-10.3293
真炁	-10.3297
口舌	-10.3297
天有	-10.3299
八年	-10.3299
在此	-10.3299
以明	-10.3305
異人	-10.3306
三尺	-10.331
持符	-10.331
勿令	-10.3314
養生	-10.3317
不易	-10.3322
隱諱	-10.334
莽	-10.3347
孔子	-10.3348
徊	-10.3351
交會	-10.3352
隱語	-10.3357
復歸	-10.3363
故名	-10.3374
混洞	-10.3375
陞	-10.3376
火輪	-10.3381
縷	-10.3382
賛	-10.3383
至妙	-10.3383
鬰	-10.3383
喉	-10.3384
黍米	-10.3385
債	-10.3389
玉府	-10.3391
本無	-10.3393
踏	-10.3393
聳	-10.3397
輕泄	-10.34
神兵	-10.34
爲水	-10.3403
泓	-10.3404
十二時	-10.3407
眞常	-10.3411
人事	-10.3416
間隔	-10.3416
上通	-10.3418
也且	-10.3421
玉訣	-10.3422
吉祥	-10.3425
紫炁	-10.3427
下鬼	-10.343
圓滿	-10.3432
人得	-10.3434
生殺	-10.344
陰德	-10.3441
最上	-10.3442
无復	-10.3442
還山	-10.3444
眞誥	-10.3447
運化	-10.3449
地上	-10.3449
開悟	-10.3455
皇人	-10.3469
言訖	-10.3469
大師	-10.3473
國王	-10.3474
修持	-10.3478
坦	-10.3482
无常	-10.3485
皆當	-10.3488
罕	-10.349
迸	-10.3491
抗	-10.3494
而作	-10.3496
㝷	-10.3496
炳	-10.3496
巢	-10.3497
剖	-10.3497
級	-10.3498
縳	-10.3499
纓	-10.35
匠	-10.3501
系	-10.3502
涵	-10.3507
骨肉	-10.351
峙	-10.3511
言其	-10.3512
用心	-10.3512
黒帝	-10.3513
畜生	-10.3513
永無	-10.3514
離合	-10.3515
以生	-10.3515
反覆	-10.3516
自非	-10.3517
妄想	-10.3518
得遇	-10.3524
門户	-10.353
五斗	-10.3535
衆人	-10.3538
照耀	-10.3547
高士	-10.3548
方外	-10.3551
三惡	-10.3552
而不知	-10.3552
其本	-10.3554
十萬	-10.3555
於内	-10.3556
孚	-10.3564
使我	-10.3564
求道	-10.358
黄炁	-10.3586
三要	-10.359
元始天王	-10.3594
眞官	-10.3596
其性	-10.36
太皇	-10.3601
拳	-10.3602
徙	-10.3603
藹	-10.3606
陋	-10.3606
感通	-10.3606
髻	-10.3608
褐	-10.3609
乘雲	-10.3609
畔	-10.361
調和	-10.361
董	-10.361
始終	-10.3612
縮	-10.3614
言語	-10.3617
擲火	-10.3617
雹	-10.3619
隱韻	-10.3621
閱	-10.3624
流火	-10.3632
若無	-10.3634
一徧	-10.3634
爲陰	-10.3642
妙理	-10.3654
蓮花	-10.3661
無非	-10.3673
人爲	-10.3677
靈臺	-10.3678
之堂	-10.3679
三辰	-10.3681
而自	-10.3683
鍊度	-10.3685
無生	-10.3689
金母	-10.369
雖然	-10.3693
生門	-10.3695
三業	-10.3697
未聞	-10.3698
外藥	-10.3699
八門	-10.3701
太宗	-10.3701
於地	-10.3703
在上	-10.3703
眞藏	-10.3704
玄臺	-10.3706
無間	-10.3707
雷火	-10.3707
天曹	-10.3711
苦爽	-10.3714
得長生	-10.3715
羲	-10.3716
五雲	-10.3718
玩	-10.3722
怖	-10.3723
足以	-10.3723
稚	-10.3724
愧	-10.3724
汙	-10.3726
芬	-10.3726
潮	-10.3726
滓	-10.3727
塚	-10.373
稼	-10.3731
軫	-10.3736
火車	-10.374
一體	-10.3755
常住	-10.3755
生根	-10.3756
人人	-10.3757
沖和	-10.376
神功	-10.3762
之罪	-10.3762
黄老	-10.3762
曰夫	-10.3764
洞徹	-10.3764
養氣	-10.3769
少年	-10.3769
二十一	-10.3773
天地萬物	-10.3776
相傳	-10.3776
眞實	-10.3776
敕命	-10.3781
福地	-10.3786
受苦	-10.3788
未幾	-10.379
昊	-10.3793
寳章	-10.3796
而退	-10.3801
未見	-10.3802
七曜	-10.3807
乃是	-10.3811
之形	-10.3815
三氣	-10.3816
不求	-10.3817
若夫	-10.3819
悟道	-10.382
救度	-10.382
妻子	-10.3822
列言	-10.3829
或曰	-10.3831
眞性	-10.3832
法籙	-10.3835
薰	-10.3835
悟眞篇	-10.3836
娥	-10.3836
葆	-10.3837
綂	-10.3837
狗	-10.3837
伴	-10.3839
彦	-10.3839
團	-10.384
摇	-10.3842
帳	-10.3842
邇	-10.3842
曇	-10.3843
聦	-10.3844
萬道	-10.3848
鍊成	-10.3848
貴人	-10.3849
中來	-10.3885
莫知其	-10.3887
邪魔	-10.3892
速降	-10.3895
他日	-10.3898
心爲	-10.3898
說是	-10.3908
月之	-10.3914
存亡	-10.3916
炁合	-10.3917
之志	-10.3922
二千	-10.3924
挹	-10.3941
二音	-10.3944
鼠	-10.3947
以象	-10.3949
或云	-10.3949
籟	-10.3949
妨	-10.3951
心神	-10.3952
藍	-10.3952
郞	-10.3954
墳	-10.3955
酸	-10.3956
渺渺	-10.3957
俯仰	-10.3958
唤	-10.3959
柯	-10.3959
潰	-10.3963
無常	-10.3966
軒轅	-10.3969
昇遷	-10.398
動則	-10.3986
衣食	-10.3995
天樞	-10.4002
九過	-10.4006
空玄	-10.4008
妙行眞人	-10.4009
六畜	-10.401
隱書	-10.4011
仙籍	-10.4012
從來	-10.4017
冲和	-10.4018
形體	-10.4025
不至	-10.403
道術	-10.4033
四司	-10.404
少女	-10.4042
白元	-10.4045
聖師	-10.4049
紋	-10.4052
水之	-10.4055
陽火	-10.4058
貺	-10.4062
譚	-10.4065
十里	-10.4071
方諸	-10.4071
正眞	-10.4072
蹈	-10.4072
术	-10.4073
壤	-10.4073
酌	-10.4074
摶	-10.4074
懿	-10.4074
長生久視	-10.4075
匝	-10.4075
遊於	-10.4075
矣故	-10.4077
扃	-10.4077
火光	-10.408
熒惑	-10.4082
迷惑	-10.4083
號爲	-10.4084
多少	-10.4088
起死	-10.4088
師道	-10.4096
今以	-10.4098
火龍	-10.4099
忽見	-10.41
祝云	-10.4101
无色界	-10.4107
通達	-10.4127
白玉	-10.4127
之圖	-10.4131
洞元	-10.4136
其炁	-10.4143
而求	-10.4148
鬼道	-10.4149
依法	-10.4164
過度	-10.418
之極	-10.4185
是諸	-10.4185
寰	-10.4188
戎	-10.4189
厲	-10.419
零	-10.4192
朱履	-10.4192
遞	-10.4192
頥	-10.4192
猛獸	-10.4192
衷	-10.4193
晏	-10.4194
該	-10.4195
執法	-10.4196
永離	-10.4197
故知	-10.4198
蝕	-10.4198
煉丹	-10.4199
流鈴	-10.4205
玄門	-10.4205
謝以聞	-10.4207
眄	-10.4216
來迎	-10.4228
通天	-10.4233
修丹	-10.4237
不退	-10.4239
五穀	-10.4241
一身之	-10.4244
于天	-10.425
萬民	-10.4251
流傳	-10.4252
之庭	-10.4253
返本	-10.4258
和氣	-10.4269
黄房	-10.4269
金龍	-10.4279
西斗	-10.4285
合明	-10.4286
書名	-10.4289
佩服	-10.4291
月光	-10.4293
物外	-10.4295
幅	-10.4296
其精	-10.4298
也凡	-10.4304
舘	-10.4305
乏	-10.4306
遯	-10.4308
蒲	-10.4308
乃曰	-10.4308
鈎	-10.431
豪	-10.431
皎	-10.431
䕃	-10.4311
開圖	-10.4311
諧	-10.4312
墟	-10.4313
至眞大神無鞅之衆浮空而至	-10.4313
陟	-10.4314
受煉	-10.4314
准	-10.4315
修身	-10.4316
亦當	-10.4317
僚	-10.4318
叢	-10.4318
太帝	-10.432
檄	-10.4322
百歲	-10.4323
壽命	-10.4327
隱於	-10.433
又見	-10.4331
但見	-10.4335
則無	-10.4337
欻火	-10.4342
頓首	-10.4344
上聞	-10.4352
已身	-10.4354
青炁	-10.4354
進士	-10.4356
群魔	-10.4364
二章	-10.4366
粒	-10.4367
殺害	-10.4367
其家	-10.4368
神后	-10.4376
豈能	-10.4386
書之	-10.4387
化形	-10.4389
紫金	-10.439
始青天	-10.4391
何爲	-10.4398
白簡	-10.4404
頂門	-10.4406
顔色	-10.441
鍊氣	-10.441
明皇	-10.4415
一國	-10.4417
挑	-10.4421
之衆	-10.4422
眀	-10.4423
二十二	-10.4425
以制	-10.4425
出世	-10.4428
夀	-10.4428
冤	-10.4431
見在	-10.4431
梨	-10.4431
瓜	-10.4432
踰	-10.4433
纖	-10.4434
淑	-10.4435
霆	-10.4435
叩齒三通	-10.4436
濫	-10.4436
踈	-10.4436
是道	-10.4437
互相	-10.4438
翫	-10.4438
薪	-10.4441
遮	-10.4441
窈	-10.4443
蹟	-10.4443
播	-10.4443
萬福	-10.4447
至寳	-10.445
至精	-10.4452
終於	-10.4453
隱名	-10.4458
聖賢	-10.4461
其數	-10.4464
不作	-10.4467
九宮	-10.4468
玄虚	-10.4468
安能	-10.448
大赤	-10.448
不與	-10.4483
觀其	-10.4488
羅列	-10.4493
其實	-10.4494
日光	-10.4496
更無	-10.4497
未可	-10.4499
青宫	-10.4504
境界	-10.4505
服氣	-10.4508
運動	-10.4509
金公	-10.4512
島	-10.4517
玉樞	-10.4517
别有	-10.4522
參同契	-10.4523
歸命	-10.4523
隱顯	-10.4528
身命	-10.4528
無英	-10.453
度生	-10.4533
其時	-10.4535
有數	-10.4536
將來	-10.4537
爲天	-10.4538
男子	-10.4538
仙靈	-10.4538
戍	-10.4542
往往	-10.4542
價	-10.4549
襟	-10.4553
凖	-10.4554
讃歎	-10.4554
炭	-10.4555
祛	-10.4555
捐	-10.4556
驂	-10.4556
姬	-10.4558
永保	-10.4558
裹	-10.4559
庫	-10.4559
冕	-10.4562
韋	-10.4562
肌	-10.4563
次存	-10.4563
號令	-10.4565
道妙	-10.4568
漸漸	-10.4572
陽之炁	-10.4573
沓	-10.4575
而立	-10.4576
靈音	-10.4577
表裏	-10.4579
數年	-10.4583
然則	-10.4585
名書	-10.4593
山水	-10.4595
西嶽	-10.4595
求仙	-10.4596
虬	-10.4599
非非	-10.4599
修習	-10.4599
東嶽	-10.46
眞汞	-10.4601
金丹之	-10.4615
以求	-10.4615
贊曰	-10.4616
坎中	-10.4619
君臣	-10.4622
師事	-10.4624
紫庭	-10.4626
斬邪	-10.4627
三字	-10.4635
時刻	-10.4637
當有	-10.4638
明眞	-10.465
現形	-10.465
亦當修齋行香誦經	-10.4651
幽夜	-10.4654
中出	-10.4654
病者	-10.4658
經教	-10.4659
故言	-10.4664
玉蟾	-10.4664
分爲	-10.467
押	-10.4674
十日	-10.468
袁公輔曰	-10.468
徽	-10.4682
滴	-10.4683
紛紛	-10.4683
銖	-10.4684
玄英曰	-10.4684
昩	-10.4686
戾	-10.4686
赫奕	-10.4687
眞人志心朝禮	-10.4687
一夕	-10.4688
脂	-10.4689
赫赫	-10.4689
何所	-10.4691
劄	-10.4691
桃康	-10.4691
五常	-10.4693
混融	-10.4693
激切之至謹奉表	-10.4695
而死	-10.47
吐納	-10.47
上詣	-10.4702
未分	-10.4708
符吏	-10.4709
也人之	-10.471
金眞	-10.4718
登仙	-10.4718
視聽	-10.4726
轉輪	-10.473
皇天	-10.4732
火也	-10.4734
在地	-10.4734
長齋	-10.4734
不從	-10.474
分野	-10.4745
疾速	-10.4749
伏藏	-10.475
不遠	-10.4762
諸侯	-10.4772
物物	-10.4774
所治	-10.478
勝先	-10.4781
五寸	-10.4785
孽	-10.479
諸神	-10.4798
暇	-10.4802
矯	-10.4802
詢	-10.4803
糧	-10.4807
噴	-10.4807
龜蛇	-10.4808
汝今	-10.481
嫌	-10.481
寂滅	-10.481
歇	-10.4811
絹	-10.4814
下入	-10.4814
玄壇	-10.4814
稟	-10.4814
塵世	-10.4817
一息	-10.4819
内景	-10.4821
天命	-10.4823
庚申	-10.4825
洞虚	-10.4826
氣爲	-10.4828
入聖	-10.4828
輕舉	-10.483
魔鬼	-10.483
禹餘	-10.483
屬陰	-10.4833
不如	-10.4833
昇度	-10.4833
參同契曰	-10.484
心生	-10.4847
風刀	-10.4849
二君	-10.4849
情性	-10.485
以手	-10.486
七世	-10.4862
二十三	-10.4889
聞道	-10.4892
不免	-10.4907
香火	-10.4907
小吉	-10.4913
之路	-10.4919
朝禮	-10.4919
清風	-10.4926
群仙	-10.4926
廷	-10.4929
存神	-10.4929
醴	-10.493
油	-10.4931
合景	-10.4931
踵	-10.4931
大臣	-10.4931
無差	-10.4932
繡	-10.4933
斥	-10.4935
沉淪	-10.494
儉	-10.4941
驕	-10.4943
裕	-10.4944
嘘	-10.4946
道本	-10.4949
善男子譬如	-10.4951
地祇	-10.4953
甲申	-10.4955
侍郎	-10.4956
聖境	-10.4956
森羅	-10.4959
内藥	-10.4968
賜號	-10.4976
其機	-10.4978
樞機	-10.4984
孰能	-10.4986
太霞	-10.4992
採取	-10.4996
本性	-10.4998
自成	-10.5016
輕重	-10.5016
行於世	-10.502
則是	-10.5029
萬類	-10.5032
説經	-10.5033
者言	-10.5039
嵩	-10.5039
豈可	-10.5043
其義	-10.5044
仙聖	-10.5045
成都	-10.5045
節度	-10.5051
閭	-10.5056
欻	-10.5056
誨	-10.5061
神名	-10.5064
合成	-10.5065
伍	-10.5065
高上	-10.5065
麾	-10.5066
自知	-10.5066
生數	-10.5066
宵	-10.5067
丹光	-10.5068
燦	-10.5069
鳥獸	-10.5071
繪	-10.5075
有象	-10.5077
朱衣	-10.5078
諦聽	-10.5079
囉	-10.5082
弓	-10.5082
故也	-10.5084
乃可	-10.5085
婦人	-10.5087
一如	-10.5088
接引	-10.5092
周易	-10.5092
洛書	-10.51
心無	-10.5102
要知	-10.5105
化作	-10.5106
天書	-10.5106
九江	-10.5114
不思	-10.5119
之苦	-10.5124
腹中	-10.5131
太始	-10.5132
仙品	-10.5134
離坎	-10.5136
青陽	-10.5137
官吏	-10.5138
侍女	-10.5138
七人	-10.514
則知	-10.5145
二曰	-10.5146
玄機	-10.5147
煥明	-10.515
急急如律令召	-10.5156
浮空	-10.5165
不住	-10.5165
不窮	-10.5171
不滅	-10.5173
軸	-10.5176
其意	-10.5176
無鞅之衆	-10.518
件	-10.5183
上極	-10.5187
豁	-10.5189
形神俱妙	-10.5192
隻	-10.5193
蠢	-10.5194
涕	-10.5195
一如告命	-10.5195
之患	-10.5196
員	-10.5197
南昌上宫	-10.5199
緣	-10.5199
玊	-10.5202
俞	-10.5202
貼	-10.5203
罄	-10.5203
舜	-10.5204
根本	-10.5205
榜	-10.5207
日月星宿	-10.5211
祉	-10.5211
懶	-10.5214
有物	-10.5215
神僊	-10.5219
歡樂	-10.5222
此身	-10.5225
威光	-10.5234
依科	-10.5239
萬國	-10.5241
此之謂也	-10.5241
一本作	-10.5243
財物	-10.5246
者必	-10.5256
當得	-10.526
六道	-10.5261
土地	-10.5273
圓象	-10.5274
百千萬	-10.5274
文章	-10.5282
二十九	-10.5283
平坐	-10.5284
養神	-10.5287
歷劫	-10.5287
而不能	-10.5288
之鄉	-10.529
靈寶	-10.529
皇上	-10.5292
黄道	-10.5296
平生	-10.5297
上士	-10.5301
道化	-10.5302
九九	-10.5302
護持	-10.5304
經中	-10.5311
老子曰	-10.5311
所行	-10.5316
一眞	-10.5317
身得	-10.5317
酷	-10.5322
之期	-10.5323
遣使	-10.5325
簇	-10.5326
降伏	-10.5326
陁	-10.5327
抛	-10.5328
形質	-10.5329
偕	-10.5329
屠	-10.5331
較	-10.5331
以養	-10.5332
讚	-10.5332
呪詛	-10.5333
緩	-10.5334
唾	-10.5334
蜕	-10.5335
噫	-10.5336
討	-10.5338
縈	-10.5339
到處	-10.5339
汞鉛	-10.5341
洎	-10.5341
亟	-10.5341
場	-10.5348
晉	-10.535
眞境	-10.5351
風吹	-10.5351
故爲	-10.5352
上香	-10.5355
下世	-10.5357
三教	-10.5363
仙去	-10.5366
道用	-10.5368
形如	-10.5371
世上	-10.5372
爲仙	-10.538
方知	-10.5381
紫微宫	-10.5381
休息	-10.5383
神仙之	-10.5384
卯酉	-10.5388
正陽	-10.5389
黄書	-10.5393
罪魂	-10.5396
之教	-10.5398
金簡	-10.5401
萬魔	-10.5411
等衆	-10.5426
髙明	-10.5427
服符	-10.5448
師子	-10.545
直至	-10.5457
問道	-10.546
吞之	-10.5462
籠	-10.5462
通明	-10.5464
閒	-10.5464
緬	-10.5465
永斷	-10.5466
寂寂	-10.5466
叉	-10.5466
迫	-10.5467
巫	-10.5469
噀	-10.547
賁	-10.5471
欲求	-10.5472
圓光	-10.5474
字子	-10.5481
不干	-10.5482
與道合眞	-10.5483
非眞	-10.5484
善哉	-10.5487
功夫	-10.5488
服餌	-10.5491
七轉	-10.5491
不許	-10.5494
慧光	-10.5494
胞胎	-10.5497
居中	-10.55
含眞	-10.5503
而坐	-10.5505
玉池	-10.5528
其德	-10.5531
升入	-10.5536
玄炁	-10.5537
召靈	-10.5538
玉經	-10.5538
刀山	-10.5539
其餘	-10.5544
順行	-10.5547
如玉	-10.5555
之時也	-10.5558
存心	-10.5559
其法	-10.556
腎爲	-10.5562
用事	-10.5562
其日	-10.5563
也如	-10.5563
道果	-10.5564
霍	-10.557
品訣在	-10.557
生育	-10.5573
玄天	-10.5574
一片	-10.5575
牝	-10.5576
宣和	-10.5586
孩	-10.5596
萃	-10.5598
仙經	-10.5598
右法	-10.56
地府	-10.5601
柏	-10.5601
茍	-10.5601
夾	-10.5602
遜	-10.5602
鼔	-10.5603
寇	-10.5603
懽	-10.5605
素靈	-10.5606
挾	-10.5606
起於	-10.5609
沾	-10.561
裔	-10.561
鑊湯	-10.5611
劣	-10.5612
三世	-10.5614
濃	-10.5617
浮沉	-10.5628
帝尊	-10.5629
不遇	-10.5637
總領	-10.564
煙霞	-10.5646
其地	-10.5649
要在	-10.5656
上音	-10.5667
一丈	-10.5668
二十年	-10.5669
上法	-10.5683
所求	-10.5685
之師	-10.5688
來往	-10.569
未得	-10.5693
相應	-10.5693
戒者	-10.5697
丹藥	-10.5703
下觀	-10.5708
一句	-10.5712
金陵	-10.5715
皇后	-10.5719
皆可	-10.572
氣氣	-10.5721
甚多	-10.5729
倦	-10.573
詮	-10.5736
囑	-10.5738
幹	-10.5738
一遍	-10.5738
熈	-10.5739
讎	-10.5739
閬	-10.574
瑛	-10.574
城隍	-10.5741
菩	-10.5741
蝗	-10.5744
長生大君	-10.5744
廕	-10.5744
手足	-10.5745
填	-10.5746
不忘	-10.5746
無知	-10.5747
守之	-10.5747
衮	-10.575
僅	-10.5751
蠶	-10.5752
妹	-10.5753
九元	-10.5755
焚之	-10.5755
南上	-10.576
天之道	-10.5761
得爲	-10.5764
眉間	-10.5769
復生	-10.5772
不染	-10.5774
言我	-10.5779
百二十	-10.5782
學道者	-10.5785
黄華	-10.5788
先須	-10.5789
圓成	-10.5793
碧玉	-10.5794
二日	-10.5797
應時	-10.5801
靈應	-10.5808
亦復	-10.5809
金晶	-10.5812
生道	-10.5814
誦呪	-10.5817
五篇	-10.582
仙童	-10.582
此理	-10.582
州人	-10.5823
由此	-10.5827
以度	-10.5829
惡根	-10.5829
也頌曰	-10.5829
黄紙	-10.5834
然如	-10.5848
昇玄	-10.5851
天氣	-10.5851
鼎中	-10.5855
而上	-10.5856
火火	-10.5857
消魔	-10.586
保生	-10.5864
三十九	-10.5864
之變	-10.5867
青天	-10.5871
不正	-10.5872
心腎	-10.5876
創	-10.5877
痊	-10.5878
悟解	-10.588
芥	-10.5881
澆	-10.5881
擔	-10.5882
斑	-10.5884
溥	-10.5885
派	-10.5885
贖	-10.5885
十月長齋誦詠是經	-10.5886
掾	-10.5887
靈寳大法	-10.5887
槁	-10.5888
帝敕	-10.5888
瓦	-10.5888
脊	-10.589
撼	-10.5891
墻	-10.5891
閏	-10.5892
臘	-10.5898
叩頭	-10.5899
滅形	-10.5902
唯有	-10.5903
藏之	-10.5912
隨其	-10.5912
赤龍	-10.5917
天雷	-10.5917
傳曰	-10.5917
崇寧	-10.5921
亦无	-10.5922
不入	-10.5922
女青	-10.5923
地下	-10.5925
玄宗	-10.5926
終南	-10.5939
羽衣	-10.594
受其	-10.5943
以授	-10.5943
天心	-10.5945
雲霞	-10.5946
七玄	-10.5948
陰也	-10.5949
玄黄	-10.5951
澄清	-10.5959
歎曰	-10.5963
赤城	-10.597
四人	-10.5971
山遇	-10.5976
地户	-10.5976
四明	-10.5977
甚深	-10.5977
元靈	-10.5983
自古	-10.5984
大海	-10.5985
帝庭	-10.5988
止於	-10.599
流布	-10.6003
高宗	-10.601
後聖	-10.6016
黍	-10.6018
態	-10.602
訝	-10.6022
煉形	-10.6022
志心	-10.6022
閻	-10.6023
旙	-10.6026
獵	-10.6027
蔣	-10.6027
濤	-10.6028
囘	-10.6028
顆	-10.6029
雌雄	-10.6029
倘	-10.603
神鬼	-10.6031
在前	-10.6031
發明	-10.6032
十方无極	-10.6032
大哀天尊	-10.6033
頤	-10.6034
貢	-10.6036
穎	-10.6036
無任感幸	-10.6037
七宿	-10.6038
普度天人	-10.6038
飄飄	-10.6045
妙炁	-10.6047
分度	-10.6048
善人	-10.6051
歲月	-10.6052
心拜	-10.6052
甲午	-10.6052
外道	-10.6055
此心	-10.6055
不善	-10.6058
景霄	-10.6064
亘	-10.6066
不昧	-10.6067
筆書	-10.607
慈尊	-10.6072
一百八十	-10.6073
普天	-10.6074
玄洲	-10.6077
真文	-10.608
之德	-10.6081
性命之	-10.6082
之數也	-10.6084
結爲	-10.6084
玉清訣	-10.6089
存念	-10.6093
常在	-10.6093
中指中	-10.6095
媾	-10.6095
而曰	-10.6096
欲得	-10.61
不審	-10.6104
雲篆	-10.6108
小童	-10.6111
世法	-10.6111
有功	-10.6121
者當	-10.6125
行者	-10.6141
十二人	-10.6144
志心朝禮	-10.615
人多	-10.6153
養炁	-10.6153
重陽祖師	-10.6153
之餘	-10.6157
皇人曰	-10.616
三十六天	-10.6164
聖人之	-10.6166
忙	-10.6167
辦	-10.6167
當此之時	-10.6167
勲	-10.6167
協	-10.6169
肥	-10.617
也人能	-10.617
搏	-10.6171
簾	-10.6171
猪	-10.6173
之訣	-10.6173
瞳	-10.6175
一國男女	-10.6176
漆	-10.6176
與諸	-10.6176
鹽	-10.6177
忿	-10.6177
咄	-10.6179
山海	-10.6181
春分	-10.6182
救苦天尊	-10.6186
月餘	-10.619
玄上	-10.6191
矣夫	-10.6191
二星	-10.6198
頭戴	-10.6199
之東	-10.6199
元命	-10.62
紫極	-10.6201
神祇	-10.6214
根源	-10.6216
經緯	-10.6217
五人	-10.6219
若得	-10.6222
有何	-10.6223
天界	-10.6225
主之	-10.6227
四者	-10.623
時時	-10.6234
在下	-10.6235
白天尊言	-10.6236
飛歩	-10.6237
河源	-10.6241
四維	-10.6241
受事	-10.6245
常人	-10.6246
空空	-10.6247
降臨	-10.6249
下弦	-10.6254
火急	-10.6256
玉隆	-10.626
大德	-10.6263
之西	-10.6266
陽也	-10.6266
見世	-10.6273
握固	-10.6275
室内	-10.6275
之恩	-10.6282
至矣	-10.6282
度脫	-10.6284
无所不	-10.6284
八會	-10.6285
散花	-10.6287
滅度	-10.6288
眞宰	-10.6289
東斗	-10.6291
交感	-10.6294
無象	-10.6303
官將	-10.6304
其次	-10.6304
菜	-10.6306
榖	-10.6306
萬氣	-10.6309
捲	-10.6313
跛	-10.6313
歘	-10.6313
匹	-10.6314
不可得而	-10.6315
無量度人上品妙經	-10.6315
岩	-10.6316
誣	-10.6317
無心	-10.6317
奠	-10.6318
撥	-10.6318
厨	-10.6318
攺	-10.6319
諷	-10.632
翅	-10.6321
慘	-10.6321
大如	-10.6322
聊	-10.6326
䖍	-10.6327
長樂	-10.6333
俠	-10.634
仙家	-10.6344
不差	-10.6348
而言之	-10.6349
八維	-10.6354
讀誦	-10.6356
日魂	-10.6356
元始天王曰	-10.6358
王相	-10.6364
不去	-10.6366
帝命	-10.6368
魔試	-10.6373
旣濟	-10.6375
長生大帝	-10.6379
在我	-10.6379
蟠	-10.6386
不能自	-10.6388
直事	-10.6398
署	-10.6399
種子	-10.6403
祇	-10.6406
去後	-10.6408
乾元	-10.6409
六陽	-10.6414
不老	-10.6415
玉臺	-10.6415
記云	-10.6417
不妄	-10.6423
其年	-10.6427
九還	-10.6428
无極飛天神王長生大聖无量度人	-10.6429
圃	-10.643
數足	-10.6433
何不	-10.6435
若欲	-10.6436
至理	-10.6437
必先	-10.6446
說此	-10.6447
上弦	-10.6448
天尊說	-10.6449
金銀	-10.646
争	-10.6461
奢	-10.6464
叨	-10.6466
月十五日	-10.6467
針	-10.6469
沃	-10.6469
得道者	-10.6469
韜	-10.647
寔	-10.647
橐籥	-10.647
攬	-10.6471
竇	-10.6473
替	-10.6473
躔	-10.6474
至真大神無鞅之衆浮空而至	-10.6475
悶	-10.6476
祕宻	-10.6479
閉塞	-10.648
悅	-10.6481
氐	-10.6482
金蓮	-10.6483
名號	-10.6485
一家	-10.6486
甲寅	-10.6486
青面	-10.6487
幘	-10.6488
相隨	-10.6498
以聞	-10.65
白鹿	-10.6506
君子以	-10.6512
元化	-10.6515
其方	-10.6519
細塵	-10.652
玉書	-10.6521
四季	-10.6523
之役	-10.6524
天根	-10.6527
靜而	-10.6533
南宮	-10.6542
符呪	-10.6544
侍經	-10.6547
果報	-10.6554
寳光	-10.6556
升仙	-10.6557
天河	-10.6565
大羅天	-10.6566
三眞	-10.6567
无邊	-10.6568
時年	-10.6568
傳言	-10.6572
起火	-10.6573
萬物生	-10.6574
衆中	-10.6575
石上	-10.6576
無事	-10.658
上啓	-10.6586
羅酆	-10.6589
三昧	-10.659
莫知	-10.6592
高下	-10.6598
天地之間	-10.6603
護命	-10.6605
靡不	-10.6607
何必	-10.6611
瓢	-10.6611
諸經	-10.6612
瘡	-10.6614
製	-10.6614
大梵隱語	-10.6614
陽魂	-10.6615
諫	-10.6616
翌日	-10.6616
葷	-10.6616
疲	-10.6617
鬢	-10.6618
金丹之道	-10.6618
襌	-10.6618
蟬	-10.6619
倏	-10.6619
須是	-10.6622
罹	-10.6622
海蟾	-10.6623
周而復始	-10.6623
戹	-10.6624
麥	-10.6624
賀	-10.6626
吼	-10.6626
黃芽	-10.6631
或見	-10.6633
宫殿	-10.6636
含光	-10.6636
謂曰	-10.6639
脱胎	-10.664
大力	-10.664
十轉	-10.6643
符召	-10.6643
空无	-10.6645
治在	-10.6648
天經	-10.6653
斬馘	-10.6655
徃來	-10.6655
外丹	-10.6656
日月五星	-10.6657
洞微	-10.666
重樓	-10.667
光映	-10.6674
丹臺	-10.6674
唯願	-10.6678
點化	-10.6681
謹請	-10.6685
紫氣	-10.669
相連	-10.6691
流金	-10.6697
形魂	-10.67
地戸	-10.6701
九氣	-10.6701
女人	-10.6702
伏望	-10.6702
古之	-10.6703
不拘	-10.6703
玉房	-10.6706
中有一	-10.6712
雷震	-10.6717
同前	-10.6718
一箇	-10.6725
空歌	-10.6726
之格	-10.6727
虚靜	-10.673
兩腎	-10.6732
其用	-10.6734
法事	-10.6736
父子	-10.674
精誠	-10.6742
魔精	-10.6743
四十五	-10.6745
六洞	-10.6745
傳之	-10.6748
明師	-10.6754
仙傳	-10.6758
漁	-10.6758
岐	-10.6762
慰	-10.6765
疇	-10.6766
爲道士	-10.6767
不顧	-10.6767
三千六百	-10.6769
百萬	-10.6769
援	-10.677
更有	-10.677
茅山志卷之	-10.6771
王子	-10.6772
谿	-10.6772
勅	-10.6772
𩔖	-10.6773
鎔	-10.6774
舊註曰	-10.6775
是時一國是男是女莫不傾心	-10.6776
需	-10.6777
嫁	-10.6778
惶	-10.6778
誑	-10.6779
苑	-10.678
鐡	-10.6782
㸃	-10.6782
默默	-10.6782
庶幾	-10.6783
襄	-10.6783
髯	-10.6787
戟	-10.6789
薩	-10.679
頂上	-10.6793
生神章	-10.6794
是何	-10.6796
薈	-10.6799
掃蕩	-10.6803
宣揚	-10.6803
不宜	-10.6805
萬二千	-10.6807
上靈	-10.6809
解脱	-10.681
妖魔	-10.681
飲之	-10.6813
六日	-10.6817
曰爾	-10.6818
宫主	-10.6821
妖精	-10.6828
昊天	-10.6835
虎嘯	-10.6835
靜坐	-10.6838
敢不	-10.6852
無私	-10.6859
六爻	-10.686
符火	-10.6863
强名	-10.6865
二十三日	-10.6866
吞服	-10.6866
丹霞	-10.6873
大道君	-10.6874
我以	-10.6878
三曰	-10.6879
精光	-10.6881
所願	-10.6885
爲民	-10.689
宫室	-10.689
於我	-10.6892
九府	-10.6903
華陽洞	-10.6903
四面	-10.6904
生焉	-10.6904
不敬	-10.6908
注云	-10.691
幽關	-10.6911
祕訣	-10.6913
電光	-10.6915
拭	-10.6918
失其	-10.6919
婚	-10.6919
兌	-10.6921
斂	-10.6925
禳災	-10.6927
訛	-10.6927
隴	-10.6927
建立	-10.6927
莖	-10.6927
少君	-10.6928
瀉	-10.6928
汎	-10.693
立春	-10.6931
肖	-10.6931
裴	-10.6931
徂	-10.6932
讓	-10.6932
合符	-10.6932
你	-10.6933
誹謗	-10.6934
忻	-10.6935
矢	-10.6937
拈	-10.6938
妬	-10.6938
徼	-10.694
次以	-10.6943
之儀	-10.6943
妙有	-10.6944
豆	-10.6945
何物	-10.6946
鄉里	-10.6946
與道合	-10.6952
滿室	-10.6956
太歳	-10.6956
燈儀	-10.6959
百餘年	-10.6959
亦能	-10.6961
一通	-10.6963
内視	-10.6966
七竅	-10.6968
常樂	-10.6968
所欲	-10.6969
靜室	-10.6969
傳道	-10.6971
在其中	-10.6975
光景	-10.6977
超昇	-10.6982
或作	-10.6983
主領	-10.6983
九醜	-10.6986
悟眞	-10.6991
之祕	-10.6991
長史	-10.6995
金色	-10.6996
千日	-10.6998
金虎	-10.7
爲害	-10.7002
北辰	-10.7009
方能	-10.701
若此	-10.701
無上道	-10.7014
則能	-10.7019
八素	-10.7021
之車	-10.7029
止止	-10.7029
其志	-10.703
空洞之	-10.7043
明珠	-10.7044
萬遍	-10.7045
列仙	-10.7048
杳㝠	-10.7054
百六	-10.7054
陰符經	-10.7055
百關	-10.7058
流水	-10.7059
臟	-10.7067
十六日	-10.7072
差别	-10.7075
秋分	-10.7075
上經	-10.7076
匱	-10.7076
竿	-10.7079
浙	-10.708
喫	-10.708
羣仙	-10.7081
痾	-10.7082
洞庭	-10.7082
无英	-10.7083
萊	-10.7084
浮雲山聖壽萬年宮道士趙道一編修	-10.7084
殁	-10.7085
碧落空歌	-10.7085
憩	-10.7087
一紀	-10.7088
見形	-10.7088
正音云	-10.7089
恕	-10.7089
尾閭	-10.7089
道言行道之日皆當香湯沐浴齋戒入室	-10.7089
踊	-10.7091
而巳	-10.7091
供飬	-10.7092
壓	-10.7093
保護	-10.7094
粟	-10.7094
無鞅數衆	-10.7095
咀	-10.7096
璣	-10.7096
莊嚴	-10.7096
綬	-10.7097
箭	-10.7099
臍下	-10.7101
隊	-10.7102
星斗	-10.7105
而起	-10.7106
刀兵	-10.7106
登明	-10.7107
考校	-10.7108
伽	-10.7108
則无	-10.711
一切諸法	-10.7113
統御	-10.7115
火鍊	-10.7115
平旦	-10.7116
紫宸	-10.7117
吉日	-10.7122
春夏	-10.7123
復卦	-10.7123
度魂	-10.713
上應	-10.7133
禁戒	-10.7137
下田	-10.7143
三品	-10.7146
洛陽	-10.7146
之甚	-10.7149
輕慢	-10.7151
故聖人	-10.7153
向上	-10.7156
聖功	-10.716
直指	-10.7166
太明	-10.7167
流演	-10.7169
一度	-10.7177
事畢	-10.7181
眞宗	-10.7185
不安	-10.7187
清都	-10.7187
告行	-10.7188
則不能	-10.7193
所修	-10.7194
不異	-10.7196
兵起	-10.7203
直入	-10.7207
身入	-10.7211
又何	-10.7211
之語	-10.7212
二分	-10.7216
玄奥	-10.7223
文帝	-10.7226
其徒	-10.7227
無聲	-10.7231
浮空而至	-10.7233
口鼻	-10.7234
色如	-10.7234
爲物	-10.7236
既得	-10.7237
興隆	-10.7237
防危	-10.7238
普濟	-10.724
奈	-10.7243
貽	-10.7246
飮	-10.7246
因果	-10.7246
笙	-10.7247
始皇	-10.7248
株	-10.7248
寐	-10.7249
虎豹	-10.7249
虐	-10.725
渉	-10.725
擎	-10.7253
譜	-10.7253
濡	-10.7253
馨	-10.7254
𨽻	-10.7254
今人	-10.7256
怕	-10.7257
廣成子	-10.7258
疑惑	-10.7259
淮南	-10.7259
國祚	-10.726
冠帶	-10.7262
三分	-10.7265
包含	-10.7266
炎炎	-10.7267
同類	-10.7268
枯骨	-10.727
真仙	-10.7271
孝道	-10.7272
有生	-10.7274
萬仙	-10.7274
四聖	-10.7278
閉息	-10.7283
元符	-10.7286
實相	-10.7286
人不知	-10.729
甲辰	-10.7298
七政	-10.7301
政和	-10.7302
丈夫	-10.7302
無異	-10.7303
青紙	-10.7305
二陽	-10.7307
和平	-10.731
或在	-10.7311
易遷	-10.7323
非可	-10.7334
飛度	-10.7337
飛符	-10.7341
之室	-10.7342
安靜	-10.7351
太無	-10.7351
皆非	-10.7352
聖君	-10.7358
致雨	-10.736
各以	-10.7363
心印	-10.7364
陛	-10.7373
仙師	-10.7379
陰氣	-10.739
周遊	-10.739
律曰	-10.7391
腑	-10.7397
也但	-10.7399
茫	-10.7405
嵗	-10.7405
耿	-10.7406
玉京山	-10.7407
司命君	-10.7407
絃	-10.7408
敏	-10.7409
宦	-10.7409
產	-10.741
十華	-10.7411
超凡入聖	-10.7411
閲	-10.7412
寥廓	-10.7412
黄帝陰符經	-10.7412
磬	-10.7412
懈	-10.7412
救人	-10.7412
震動	-10.7413
光輝	-10.7413
筮	-10.7414
揭	-10.7415
𠃔	-10.7416
桐	-10.7416
罵	-10.7417
属	-10.7417
七月長齋誦詠是經	-10.7417
賣藥	-10.7417
瞑目	-10.7417
氷	-10.7418
膜	-10.7418
淩	-10.7423
無餘	-10.7423
驢	-10.7424
某誠感誠慶頓首頓首再拜謹言	-10.7425
聿	-10.7425
兩目	-10.7425
阮	-10.7428
校録	-10.7429
會稽	-10.7431
蛟龍	-10.7432
州刺史	-10.7432
大哉	-10.7435
忠孝	-10.7436
蕩除	-10.7436
青童君	-10.744
三島	-10.7441
經籙	-10.7443
之卦	-10.7446
太衝	-10.7446
敷落	-10.7446
腎中	-10.7447
救護	-10.7448
鬱羅	-10.745
瓊文	-10.746
洞賔	-10.7471
下界	-10.7475
羽化	-10.7476
建壇	-10.7478
妙音	-10.7479
及至	-10.7479
何有	-10.7488
紫煙	-10.7493
十極	-10.7498
呼爲	-10.7503
閉氣	-10.7504
九清	-10.7505
紫霞	-10.7508
不可勝	-10.7509
善根	-10.751
忘形	-10.7516
千載	-10.7519
央	-10.7522
罪業	-10.7534
眞神	-10.7537
無情	-10.7537
江河	-10.7538
亦得	-10.754
不定	-10.754
混成	-10.754
洞煥	-10.755
在内	-10.7554
年正月	-10.7556
太極眞人	-10.7557
在外	-10.7558
上聖髙尊	-10.7561
胥	-10.7565
悮	-10.7567
天府	-10.7567
黄衣	-10.7568
鼻引	-10.7569
揲	-10.757
成真	-10.7572
善哉善哉	-10.7572
竺	-10.7572
天兵	-10.7572
刊	-10.7573
些	-10.7574
烏兔	-10.7574
鴈	-10.7575
俓	-10.7575
跳	-10.7576
毫髮	-10.7577
出臣身中三五功曹左右官使者侍香	-10.7577
世俗	-10.7578
曇誓天	-10.7579
滄	-10.7579
鄷	-10.7579
頁	-10.7579
腐	-10.758
暘谷	-10.7581
悖	-10.7582
蘿	-10.7582
長生乆視	-10.7582
俊	-10.7583
潘	-10.7583
諾	-10.7584
長乆	-10.7585
雷雨	-10.7585
鬱鬱	-10.7586
澡	-10.7587
赤松子	-10.7587
沛	-10.7589
勾陳	-10.7589
帷	-10.759
謡歌	-10.7591
荐	-10.7591
㝠㝠	-10.7591
貧窮	-10.7591
周行	-10.7596
之基	-10.7598
佩帶	-10.7599
鄉人	-10.7602
仙卿	-10.7607
宫觀	-10.7607
大地	-10.7612
二子	-10.7613
㧞度	-10.7619
六氣	-10.7624
小兒	-10.7624
徹視	-10.7624
並是	-10.7627
青書	-10.7629
泥丸宫	-10.7635
加封	-10.7637
本是	-10.7641
三焦	-10.7645
方得	-10.7648
龍蛇	-10.765
山澤	-10.765
福田	-10.7651
青城山	-10.7652
廣寒	-10.7656
從魁	-10.7657
不可見	-10.7658
明道	-10.7658
清靈	-10.766
秋冬	-10.7662
與物	-10.7666
中和	-10.7668
洞真	-10.7672
相逢	-10.7672
行事	-10.7674
福慶	-10.7679
紫皇	-10.768
不足以	-10.7681
萬萬	-10.7699
貴賤	-10.7701
登壇	-10.7701
王亦保舉爾身得道者乃當洞明至言也	-10.7703
變易	-10.771
功圓	-10.7711
參同	-10.7713
丹訣	-10.7717
圓通	-10.772
未悟	-10.7724
萬有	-10.7724
一切法	-10.7727
品卷第	-10.773
體用	-10.7734
太丹	-10.7735
鄕	-10.7735
鴉	-10.7736
金火	-10.7736
街	-10.774
修誦	-10.774
枷	-10.7742
鍊之	-10.7742
戚	-10.7743
麻姑	-10.7745
夾脊	-10.7746
姚	-10.7747
樸	-10.7748
東方八天	-10.7748
瀝	-10.7748
玉童傳言玉女五帝直符直日香官	-10.7749
者是也	-10.775
轂	-10.775
故謂之	-10.7751
木爲	-10.7751
措	-10.7751
之月	-10.7751
大洞眞經	-10.7752
朝廷	-10.7753
䘮	-10.7754
喧	-10.7755
蹇	-10.7755
侍宸	-10.7756
璽	-10.7756
無遺	-10.7758
雲營	-10.7758
結璘	-10.7758
浹	-10.776
梵天	-10.7761
北海	-10.7762
萬生	-10.7767
億千	-10.7768
不止	-10.7769
漏泄	-10.7771
糞	-10.7771
不堪	-10.7773
玉明	-10.7774
六通	-10.7776
玄功	-10.7779
大齋	-10.7786
持誦	-10.7788
處士	-10.779
不淨	-10.7797
東方青	-10.7799
朝夕	-10.7799
苦海	-10.7808
玄科	-10.7814
也所謂	-10.783
天冠	-10.7831
純陰	-10.7835
混化	-10.7838
天庭	-10.7838
明了	-10.7839
兵馬	-10.784
隨意	-10.7845
品道言昔於	-10.7846
出没	-10.785
隨時	-10.7855
爲一過	-10.7858
紫素	-10.7866
已成	-10.7869
大慧	-10.7874
空寂	-10.7877
色塵	-10.7879
不問	-10.7879
之疾	-10.7881
大魔王	-10.7882
爲災	-10.7886
之戸	-10.7887
自然之道	-10.7892
殺人	-10.7893
皓靈	-10.7897
大茅	-10.7898
珮	-10.79
嗚	-10.7906
偷	-10.7911
當願一切	-10.7911
善能	-10.7911
償	-10.7916
半斤	-10.7917
夫子	-10.7917
俄頃	-10.7917
靈篇	-10.7917
片餉	-10.7918
揆	-10.7918
玉篇	-10.7919
瘟鬼	-10.792
勳	-10.792
綸	-10.7921
須㬰	-10.7921
劫劫	-10.7921
禾	-10.7921
詎	-10.7922
光芒	-10.7924
誇	-10.7926
咒	-10.7926
茹	-10.7929
裘	-10.793
遘	-10.7933
中國	-10.7934
玄化	-10.7934
批	-10.7936
不知所在	-10.7936
年月日	-10.7936
邪鬼	-10.7937
江南	-10.7941
某等	-10.7941
定位	-10.7944
天地日月	-10.7947
玄通	-10.7949
死亡	-10.795
開光	-10.7957
經書	-10.7959
浮雲	-10.796
旌陽	-10.7961
獨立	-10.7963
二十六	-10.7969
肅清	-10.7977
虚心	-10.7977
之域	-10.7982
流轉	-10.7982
要妙	-10.7986
斗柄	-10.7993
持戒	-10.7994
餌之	-10.7994
中央黄	-10.7995
小腸	-10.7996
口吐	-10.8
召呪	-10.8006
當來	-10.8006
度數	-10.8008
告盟	-10.8014
元老	-10.8019
只在	-10.8026
鼎内	-10.8031
香花	-10.8033
疆	-10.8046
十遍	-10.8049
天帝君	-10.8054
百病	-10.8055
腎氣	-10.8063
隨心	-10.8064
此等	-10.8069
如斯	-10.807
應感	-10.8071
害人	-10.8076
不見其	-10.8079
料	-10.8087
榻	-10.8087
酣	-10.8087
歸根復命	-10.8091
鋪	-10.8093
十六字	-10.8094
矩	-10.8095
蒂	-10.8095
睿	-10.8095
剔	-10.8096
隋	-10.8097
土釜	-10.8097
降下定三䰟安七𩲸保胎護命	-10.8097
亰	-10.8097
催生	-10.8097
冢	-10.8097
儔	-10.8098
佇	-10.8101
斛	-10.8102
頸	-10.8102
海水	-10.8104
玄之又玄	-10.8104
此謂	-10.8104
嫉	-10.8104
鈆	-10.8105
無任懇倒之至謹詞	-10.8111
歸來	-10.8112
箱	-10.8112
一竅	-10.8113
稽首再拜	-10.8114
匀	-10.8114
有一人	-10.812
龍吟	-10.812
鬱儀	-10.812
句容	-10.8123
夢中	-10.8126
御史	-10.8129
陽爻	-10.8131
十徧	-10.8134
依前	-10.8139
道家	-10.814
符籙	-10.8142
韓司	-10.8145
統攝	-10.8145
又如	-10.8149
黄老君	-10.8157
今在	-10.8161
指示	-10.8163
之理也	-10.817
何故	-10.8184
位登	-10.8189
若遇	-10.819
神威	-10.8197
不知何	-10.8203
景雲	-10.8209
謹召	-10.8212
解義	-10.8214
丹霄	-10.8217
録籍	-10.822
雌一	-10.8228
無終	-10.8233
道人曰	-10.8234
太易	-10.8248
願得	-10.8249
元和	-10.826
無由	-10.8261
何時	-10.8261
緘	-10.8261
惟願	-10.8263
容易	-10.8265
恱	-10.8265
瘞	-10.8266
保度	-10.8267
七日七夜	-10.8271
焼	-10.8271
膚	-10.8271
濱	-10.8273
積金	-10.8273
盪	-10.8274
肌膚	-10.8276
盞	-10.8276
丐	-10.8277
鴻濛	-10.8277
架	-10.8279
玃	-10.8281
瞽	-10.8282
弭	-10.8283
貟	-10.8284
慄	-10.8285
名利	-10.8286
殞	-10.8286
檀	-10.8287
辟穀	-10.8287
髙真	-10.8287
喜怒	-10.8288
汨	-10.8293
前驅	-10.8297
修仙	-10.8298
旻	-10.8299
冲虚	-10.8301
幞頭	-10.8302
一味	-10.8302
山河	-10.8303
天威	-10.8308
祈雨	-10.8308
細微	-10.831
長短	-10.8315
思慮	-10.8321
代諱	-10.8326
道要	-10.8329
恩愛	-10.8337
萬邪	-10.8338
天眞皇人曰	-10.8338
落落	-10.8341
驅除	-10.8346
烈火	-10.8351
超出	-10.8365
寧海	-10.8366
紫文	-10.8374
之罪或	-10.8376
所以爲	-10.8377
黙念	-10.8387
執著	-10.8388
萬徧	-10.8392
教主	-10.8392
三災	-10.8403
幽顯	-10.8409
住於	-10.8414
幽微	-10.8416
斷除	-10.8418
寳華	-10.8423
所由	-10.8429
不孝	-10.843
三十年	-10.8432
光玄曰	-10.8437
齋醮	-10.8438
區區	-10.8451
彊	-10.8453
炬	-10.8453
耆	-10.8454
無物	-10.8454
貯	-10.8455
字皆廣長一丈	-10.8455
代宗師	-10.8456
引炁三十二過東向誦經元始	-10.8457
羸	-10.8458
纎	-10.8458
瑠璃	-10.8458
不生不滅	-10.8459
栽	-10.8459
下臨	-10.846
七月七日	-10.846
斜	-10.8461
涓	-10.8461
混洞赤文	-10.8461
眸	-10.8462
葺	-10.8462
嫗	-10.8462
諮	-10.8463
牖	-10.8463
恪	-10.8463
禎	-10.8465
眞一之水	-10.8465
之郷	-10.8466
藪	-10.8466
方丈	-10.8469
豫章	-10.8474
下士	-10.8475
嗣天子	-10.8475
四十二	-10.8475
忱	-10.848
三傳	-10.8483
華房	-10.8483
頭上	-10.8486
火燒	-10.8487
永嘉	-10.849
未判	-10.8492
若有衆生	-10.8493
諸苦	-10.8493
歸去	-10.8494
亦然	-10.8496
信心	-10.8498
夢見	-10.85
第三十	-10.85
總監	-10.8502
卷之五	-10.8503
三界之上	-10.8508
朝謁	-10.851
召龍	-10.8511
彼此	-10.8512
祖先	-10.8512
更相	-10.8519
不著	-10.8522
相對	-10.8534
配合	-10.8535
不待	-10.8543
在人身	-10.8544
天理	-10.8545
夜光	-10.8547
周回	-10.855
又能	-10.8556
于此	-10.8561
執符	-10.8571
飛走	-10.8571
還返	-10.8593
靈寳天尊	-10.8596
鬼兵	-10.8597
皆因	-10.8599
不傾	-10.8604
二尺	-10.8606
四指	-10.8609
侍者	-10.861
養性	-10.8611
月朔	-10.8613
七百	-10.8617
數千	-10.8625
亡人	-10.8631
澹	-10.8631
凱	-10.8634
除邪	-10.8635
吾奉	-10.8635
峨	-10.8636
囂	-10.8638
艾	-10.8639
緋	-10.8639
珏	-10.864
潛	-10.8641
臼	-10.8642
数	-10.8642
袋	-10.8642
粲	-10.8642
太上大道君	-10.8643
純粹	-10.8643
駢	-10.8644
化天帝	-10.8644
冉冉	-10.8645
洋	-10.8645
裁	-10.8645
緊	-10.8646
屯蒙	-10.8647
譬喻	-10.8647
玄牝之門	-10.8647
五劫	-10.8647
蕃	-10.8648
䕶	-10.8648
恬淡	-10.8648
飊	-10.8648
袁	-10.8648
鉛中	-10.8648
幕	-10.8648
仙伯	-10.8649
墉	-10.865
璇	-10.865
掣	-10.8651
杓	-10.8653
姜	-10.8654
如何是	-10.8656
孺	-10.8656
合和	-10.8657
白馬	-10.8664
三府	-10.8664
社令	-10.8668
隨機	-10.8668
之法也	-10.8675
無任	-10.8679
月魄	-10.8683
至藥	-10.8684
坐卧	-10.8684
輕清	-10.8685
傍門	-10.8688
九鼎	-10.8692
定光	-10.8693
黃庭	-10.8694
不停	-10.8694
閉炁	-10.8695
對齋	-10.8696
隂符	-10.8697
又名	-10.8699
土皇	-10.8706
隨方	-10.8706
七千	-10.8706
四十年	-10.8709
司徒	-10.8711
精䰟	-10.8712
紫陽眞人	-10.8717
最爲	-10.8719
收攝	-10.8721
六情	-10.8726
二卦	-10.8732
皇極	-10.8737
者何也	-10.8737
衆仙	-10.8738
仙曹	-10.8754
樓觀	-10.8755
停輪	-10.8768
亡過某	-10.8772
上白天尊	-10.8772
十九日	-10.8772
於斯	-10.8778
我說	-10.8781
十二年	-10.8782
衆靈	-10.8795
解化	-10.8797
屬陽	-10.88
風澤	-10.88
還家	-10.8804
終身	-10.8804
龜山	-10.8806
少隂	-10.8809
金花	-10.8817
流火之庭	-10.882
百千	-10.882
擕	-10.8822
翟	-10.8823
最靈	-10.8823
靈壇	-10.8823
至靜	-10.8826
辜	-10.8827
侮	-10.8827
奄	-10.8829
浩浩	-10.883
昴	-10.8831
赤書玉字	-10.8831
蛻	-10.8832
顚	-10.8832
迥	-10.8833
一乘海空	-10.8833
凋	-10.8834
纂	-10.8834
琪	-10.8834
柰	-10.8835
音聲	-10.8836
拆	-10.8836
有知其音能齋而誦之者諸天皆遣	-10.8838
紹興	-10.8842
設醮	-10.8842
彖	-10.8842
官屬	-10.8843
綽	-10.8843
兢	-10.8843
涸	-10.8843
六腑	-10.8844
絶粒	-10.8844
凛	-10.8844
玉眸	-10.8844
十洲	-10.8845
突	-10.8846
神吏	-10.8847
與天齊	-10.8847
心識	-10.8847
否泰	-10.8849
陰功	-10.885
爐鼎	-10.8852
文武	-10.8853
白石	-10.8853
祖宗	-10.8854
二十七日	-10.8857
棘	-10.8861
髙下	-10.8861
入腹	-10.8869
之旨	-10.887
日新	-10.8877
謹按	-10.8881
歩虚	-10.8884
一般	-10.8888
臨軒	-10.8889
開皇	-10.8891
頓悟	-10.8891
周迴	-10.8895
相剋	-10.8899
)▲(	-10.8901
五福	-10.8906
應物	-10.8907
時加	-10.8909
修奉	-10.8912
齊到	-10.8919
四寸	-10.8924
山谷	-10.8925
引炁	-10.8925
九載	-10.8926
道言夫	-10.8942
金星	-10.8946
江海	-10.8946
起居	-10.8951
然燈	-10.8951
門外	-10.8953
龍駕	-10.8956
卦象	-10.8958
執節	-10.8959
三卷	-10.8969
惡鬼	-10.9002
淚	-10.9011
迪	-10.9012
璫	-10.9014
凍	-10.9015
績	-10.9015
伏魔	-10.9016
蟻	-10.9016
飢渴	-10.9016
槩	-10.9017
雲霧	-10.9017
寳符	-10.9017
身輕	-10.9018
𥘉	-10.9019
偽	-10.902
威德	-10.902
藻	-10.9021
踴躍	-10.9023
柴	-10.9023
曳	-10.9024
唇	-10.9024
金木水火土	-10.9024
苔	-10.9024
鬥	-10.9024
道德經曰	-10.9025
嘯詠	-10.9026
鬱勃	-10.9026
版	-10.9027
飛空之音	-10.9028
每日	-10.9029
流金火鈴	-10.9029
姥	-10.903
鵲	-10.903
金丹大藥	-10.903
臆	-10.9032
陪	-10.9032
蔕	-10.9032
虎狼	-10.9032
暈	-10.9033
九品	-10.9033
禽獸	-10.9033
年七十	-10.9034
爾時元始天尊	-10.9034
葩	-10.9034
三十五分	-10.9037
亦同	-10.9039
超脱	-10.9042
尊重	-10.9042
差殊	-10.9042
妙哉	-10.9044
上元夫人	-10.9044
妖氛	-10.9044
不假	-10.9049
次思	-10.905
至眞大神	-10.9052
長春眞人	-10.9054
黄白	-10.9064
周旋	-10.9066
仁義	-10.9068
之場	-10.9069
猶未	-10.907
嵩山	-10.907
乙未	-10.9076
主録	-10.9082
歸于	-10.909
鍊精	-10.9095
其㫖	-10.9098
教法	-10.9104
丙子	-10.9104
拔出	-10.9116
玉樓	-10.9116
九天之上	-10.9118
死䰟	-10.9119
同歸	-10.9128
殺機	-10.9131
壺中	-10.9134
宫闕	-10.9135
無益	-10.9143
冨	-10.9144
靈威	-10.9146
知識	-10.9149
龍章	-10.9149
而用之	-10.9163
方圓	-10.9169
眞人童子	-10.9174
隨縁	-10.918
三途	-10.9186
羅浮	-10.9189
正坐	-10.9203
太真	-10.9205
稀	-10.9205
上南宫	-10.9206
黄紙朱書	-10.921
楅	-10.9212
釜	-10.9213
鍾曰	-10.9215
娑	-10.9216
岱	-10.9218
竦	-10.9219
縫	-10.9219
猜	-10.9219
笥	-10.922
迨	-10.9221
嚮	-10.9223
皆悉	-10.9225
告命	-10.9226
燮	-10.9226
刺	-10.9226
懐	-10.9226
彤	-10.9227
筠	-10.9227
鳳凰	-10.9228
箋	-10.9228
左宫	-10.9229
銅柱	-10.9229
庇	-10.923
鎚	-10.9231
彼岸	-10.9231
雕	-10.9232
稽首歸依虔誠讃詠	-10.9234
方一丈	-10.9235
超凌	-10.9237
三十五	-10.9239
不忍	-10.924
萬縁	-10.924
靚	-10.9242
榮衛	-10.9252
萬物皆	-10.9254
貪愛	-10.9256
火府	-10.9256
寒池	-10.9259
今古	-10.9261
换骨	-10.9261
聖號	-10.9266
騰空	-10.9267
衆真	-10.9269
赦罪	-10.9271
須知	-10.9274
無疆	-10.9279
超然	-10.9288
仙骨	-10.929
但能	-10.9291
取捨	-10.9295
梵氣	-10.9306
下布	-10.931
道之人	-10.9313
掌握	-10.9313
十四年	-10.9316
而逝	-10.932
先生姓	-10.9337
年上神	-10.9337
物我	-10.9347
榮華	-10.9359
復次	-10.9359
二十日	-10.9377
敢問	-10.938
▲(	-10.938
莊子	-10.9381
吉祥檀熾鈞	-10.9381
祖考	-10.9386
會合	-10.9386
靈芝	-10.9387
覺悟	-10.9399
金房	-10.9399
三百日	-10.9401
左目	-10.9402
大帥	-10.9403
岑	-10.9405
紏	-10.9409
抜	-10.941
林木	-10.9411
霽	-10.9412
無量度人	-10.9412
魔王保舉	-10.9412
洞達	-10.9412
无量度人上品妙經卷之	-10.9414
塘	-10.9415
迦	-10.9415
茲	-10.9416
仭	-10.9416
受報	-10.9417
姓某	-10.9418
靑	-10.9418
廵	-10.9418
噉	-10.9419
巒	-10.9419
三十九章	-10.942
刋	-10.942
邃	-10.942
芙	-10.9421
螣蛇	-10.9421
爪	-10.9421
沒	-10.9421
剌	-10.9422
棟	-10.9422
無名子曰	-10.9423
黜	-10.9423
娶	-10.9424
婢	-10.9425
瑕	-10.9425
蟄	-10.9426
挈	-10.9426
徇	-10.9427
暨	-10.9428
如是等	-10.9428
煒	-10.9429
晦朔	-10.9429
受錬	-10.943
租	-10.9432
三峰	-10.9433
鮑	-10.9433
同志	-10.9434
也黄帝曰	-10.9438
問曰何謂	-10.9438
肘後	-10.9439
眞武	-10.9439
救拔	-10.9442
不可測	-10.9443
彌羅	-10.9444
二十四人	-10.9445
無鞅	-10.9446
百脉	-10.9448
京兆	-10.9452
朗徹	-10.9454
山福地仙官聖衆	-10.9458
注生	-10.946
炁凝	-10.946
遠遊	-10.9467
萬歲	-10.9472
立教	-10.9473
長壽	-10.9478
元素	-10.9484
一陽生	-10.9485
入泥丸	-10.9486
無他	-10.9492
大驚	-10.9498
或問曰	-10.9501
外物	-10.9506
天后	-10.9508
祈禳	-10.952
不貪	-10.9536
無憂	-10.9541
黄寧	-10.9546
一周天	-10.955
靜定	-10.9552
語言	-10.9553
南方赤	-10.9561
無虧	-10.9571
消散	-10.9575
神凝	-10.9577
大壯	-10.9586
四十八	-10.9592
不調	-10.9613
啄	-10.9614
鳩	-10.9616
樣	-10.9617
瞬	-10.9618
刻書	-10.9618
栗	-10.9619
鹹	-10.962
羡	-10.9621
掘	-10.9622
攪	-10.9623
釘	-10.9623
奴婢	-10.9623
擢	-10.9624
倣	-10.9625
蔵	-10.9625
三部八景	-10.9625
位居	-10.9625
殖	-10.9626
汁	-10.9626
闌	-10.9626
乾卦	-10.9627
牌	-10.9628
驪	-10.963
修眞之士	-10.9631
翕	-10.9631
若復有人	-10.9632
熊	-10.9636
勃勃	-10.964
眞一之精	-10.964
徒勞	-10.9641
滋味	-10.9644
萬億	-10.9646
清浄	-10.9646
殺鬼	-10.9646
眞誥云	-10.9648
咸使	-10.9648
卷之四	-10.9651
壬辰	-10.9652
包羅	-10.9655
辟邪	-10.967
䰟神	-10.9671
道君諱	-10.9679
亡過某人	-10.9684
與道同	-10.9685
鍊化	-10.9685
虎龍	-10.9686
解悟	-10.9693
住持	-10.9706
金碧	-10.9707
洞浮	-10.9711
清微天	-10.9713
疫癘	-10.9714
髙尊	-10.9715
髙仙	-10.9716
十方三界	-10.9735
墨書	-10.9747
在人爲	-10.975
於是天尊	-10.9754
堂堂	-10.9758
不改	-10.9762
之奥	-10.9763
太古	-10.9766
黑鉛	-10.9766
蒼龍	-10.9768
證果	-10.977
拜章	-10.9771
眞士	-10.9771
莫知所	-10.9778
百八十	-10.9783
交泰	-10.9784
衝天	-10.979
流霞	-10.9794
所授	-10.9794
所臨	-10.9798
紫蓋	-10.9799
請問	-10.9801
朱陽	-10.9805
七歲	-10.9807
自然之理	-10.9809
髙上神霄	-10.9816
賢人	-10.9818
玉霄	-10.982
慨	-10.982
侍從	-10.9823
詩彖	-10.9825
行香誦經	-10.9827
嗜慾	-10.9828
驟	-10.9828
謚	-10.9829
夬	-10.9829
篇東方八天	-10.983
輻	-10.983
崑崙山	-10.983
葫蘆	-10.983
硯	-10.9831
嫉妬	-10.9832
血食	-10.9833
温温	-10.9833
蜜	-10.9833
皆即受度	-10.9833
哺	-10.9834
譔	-10.9834
說經十遍	-10.9835
屠割	-10.9836
核	-10.9839
誰能	-10.984
音吉祥檀熾鈞	-10.9841
祭祀	-10.9843
指揮	-10.9847
丁亥	-10.9848
血脉	-10.9849
確	-10.9855
金甲朱衣	-10.9859
卷之二	-10.9861
開闢	-10.9864
玉珮	-10.9866
歷代	-10.9866
九拜	-10.9866
昇降	-10.9868
殺伐	-10.9871
年八十	-10.9874
大洞仙經	-10.9876
稱揚	-10.9877
白衣	-10.9886
展轉	-10.9886
大抵	-10.9889
海嶽	-10.9893
混然	-10.9899
追攝	-10.9901
累劫	-10.9903
苦趣	-10.9911
浩然	-10.9911
手把	-10.9916
子細	-10.9917
何況	-10.9917
奉命	-10.9919
遥唱	-10.992
變通	-10.9937
住世	-10.9939
福報	-10.9945
玉宸大道	-10.9946
十二河源	-10.995
師友	-10.9951
王侯	-10.9956
八㑹	-10.9957
西城	-10.996
昭昭	-10.996
五彩	-10.9968
朗然	-10.997
善種	-10.9979
紫微上宫	-10.9984
天尊志心朝禮妙	-10.9987
保胎	-10.999
可得而	-10.9998
所載	-10.9999
幽寥	-11.0003
小劫	-11.0004
道俗	-11.0007
相推	-11.0009
災殃	-11.0013
者即是	-11.0014
上帝敕	-11.0023
謹爲上請	-11.0024
某處	-11.0025
不衰	-11.0027
飛霞	-11.0027
餓	-11.0029
疾疫	-11.003
太常	-11.003
随	-11.0031
摘	-11.0036
麽	-11.0037
天一生水	-11.0042
忍辱	-11.0043
越衡天	-11.0044
盆	-11.0044
巍	-11.0044
貸	-11.0044
甕	-11.0045
無所不辟無所不禳無所不度無所不成	-11.0046
滑	-11.0046
巿	-11.0047
淘	-11.0047
妙義	-11.0048
安穩	-11.0051
迭	-11.0052
悠悠	-11.0052
爓	-11.0052
渥	-11.0054
恠	-11.0054
无上玄元三天玉堂大法卷之	-11.0055
學仙之人	-11.0056
桐栢	-11.0057
顙	-11.0063
通玄究微	-11.0066
飴	-11.0068
覬	-11.0069
所奏	-11.0069
洞天仙官	-11.0069
大梵之炁	-11.007
天真皇人	-11.0071
修行之人	-11.0076
解厄	-11.0079
統領	-11.0081
叶	-11.0084
群品	-11.0086
氣候	-11.0093
北嶽	-11.0093
帝王子	-11.0097
石壁	-11.0102
無文不	-11.0105
朗朗	-11.0107
照徹	-11.0108
返形	-11.0114
形骸	-11.0116
勤苦	-11.0122
金帛	-11.0125
保鎮	-11.0125
錬度	-11.0132
天眞大神	-11.0146
某甲	-11.0151
坤宫	-11.0153
千古	-11.0167
聖德	-11.0174
如嬰兒	-11.0177
金烏	-11.0182
七遍	-11.0184
五濁	-11.0185
西方白	-11.0191
丈餘	-11.0192
布炁	-11.0195
章奏	-11.0198
腎水	-11.0216
說經八遍	-11.0219
七曲	-11.022
升度	-11.0234
說經九遍	-11.0235
養素	-11.0235
是夕	-11.0235
虚无自然	-11.024
玉泉	-11.0241
隨吾	-11.0242
天醫	-11.0242
所不能	-11.0245
凈	-11.0249
遨	-11.025
溝	-11.0255
藝	-11.0255
承禎	-11.0257
欠	-11.0258
寮	-11.0258
笛	-11.0258
烹煎	-11.0259
三十二天三十二帝諸天隱諱諸天隱名	-11.0261
炁一口	-11.0262
擘	-11.0263
涼	-11.0264
睛	-11.0264
貧賤	-11.0264
紺	-11.0266
邸	-11.0266
棋	-11.0266
熖	-11.0267
扁	-11.0269
閤	-11.0269
拍	-11.0269
菩提	-11.0269
蠢動	-11.027
撞	-11.027
憚	-11.0271
北斗七星	-11.0271
倪	-11.0272
之根本	-11.0276
繡衣	-11.0276
玉匱	-11.0278
月圓	-11.0281
僻	-11.0282
滯魄	-11.0283
二弟	-11.0285
首尾	-11.0288
童顔	-11.0295
無限	-11.0299
焚符	-11.0299
學道之人	-11.0306
在其中矣	-11.0307
混沌之中	-11.0312
雷聲	-11.0316
紫陽曰	-11.0321
五色雲	-11.0325
急急如律令敕	-11.0327
不得已	-11.0329
相承	-11.033
修證	-11.0334
家國	-11.0335
不相剋	-11.0339
冠衣	-11.0341
數十年	-11.0343
步虚	-11.0349
月十八日	-11.035
太祖	-11.0366
朝拜	-11.0374
返照	-11.0381
汝當	-11.0384
長久	-11.0386
庚子	-11.0387
之用也	-11.0392
雲雨	-11.0393
玉芝	-11.0393
子訓	-11.0398
郡人	-11.0402
瘟疫	-11.0421
死籍	-11.0425
神霄玉清	-11.0429
嘆曰	-11.043
司空	-11.0432
禮敬	-11.0442
不雜	-11.0442
各隨	-11.0468
錦衣	-11.0472
怎	-11.0475
本始	-11.0475
叫	-11.0477
蓄	-11.0479
𩀱	-11.0479
崆峒	-11.0479
紂	-11.048
說經十徧	-11.0482
五臟六腑	-11.0483
悃	-11.0484
飡	-11.0484
蓊	-11.0485
恚	-11.0485
死户	-11.0485
說經七遍	-11.0486
饌	-11.0487
沌	-11.0487
尺二寸	-11.0487
霖	-11.0487
刹	-11.0488
璘	-11.0488
塵寰	-11.0489
隙	-11.0489
檢校	-11.0489
而說偈曰	-11.049
血湖	-11.0491
捻	-11.0491
鈍	-11.0491
盃	-11.0491
渚	-11.0492
湛寂	-11.0492
拷	-11.0492
煌	-11.0492
蹄	-11.0493
岫	-11.0493
九天應元雷聲普化天尊	-11.0494
丁丑	-11.0494
甦	-11.0495
總括	-11.0495
輙	-11.0495
杵	-11.0495
嘿	-11.0495
距	-11.0496
普告三界	-11.0496
樊	-11.0496
削落	-11.0496
去奢	-11.0498
慎勿	-11.05
籥	-11.0501
五老上帝	-11.0502
何由	-11.0503
猛吏	-11.0504
赴闕	-11.0505
養命	-11.0515
騎吏	-11.0519
畢竟	-11.052
眞一之炁	-11.052
絳闕	-11.0521
火池	-11.0529
太虛	-11.0542
霍山	-11.0545
具載	-11.0554
註解	-11.0555
得解脫	-11.0557
束形	-11.0561
驅邪	-11.0565
慕道	-11.0568
讀書	-11.0576
卦爻	-11.0589
青牛	-11.059
木液	-11.0595
稱慶	-11.0599
守護	-11.0601
皇老	-11.0602
備足	-11.0602
三界十方	-11.0604
孟子	-11.0607
志士	-11.0614
黒炁	-11.0622
孰爲	-11.0628
護身	-11.0633
了了	-11.0634
東方九炁	-11.0641
盈虚	-11.0644
要識	-11.0645
遍滿	-11.065
九煉	-11.0654
玉籙	-11.0679
一千二百	-11.0685
百億	-11.0692
形狀	-11.0696
未甞	-11.0698
儼	-11.07
浦	-11.0701
元綱	-11.0702
龍鳳	-11.0703
說經四徧	-11.0704
說經六徧	-11.0705
御前	-11.0705
說經七徧	-11.0706
神水華池	-11.0707
八威龍文	-11.0707
賚	-11.0708
八角垂芒	-11.0708
精氣神	-11.0709
詭	-11.0709
七十二候	-11.071
譽	-11.0711
擅	-11.0712
伎	-11.0713
净	-11.0713
身外有身	-11.0714
脇	-11.0714
說經二遍	-11.0714
袐	-11.0715
說經五遍	-11.0715
說經三遍	-11.0715
昂	-11.0716
㖟	-11.0716
侈	-11.0717
祺	-11.0718
竪	-11.0718
逰	-11.0719
煅鍊	-11.0719
倏忽	-11.0719
劾	-11.072
障礙	-11.072
燼	-11.072
上宰	-11.0721
胄	-11.0721
効	-11.0722
稔	-11.0724
旂	-11.0726
燎	-11.0728
掖	-11.0728
亦不能	-11.0729
祥光	-11.0731
羙	-11.0732
單衣	-11.0732
太漠	-11.0736
杪	-11.074
秘訣	-11.074
烹鍊	-11.0749
翠虚	-11.076
玄圃	-11.076
太史	-11.0766
偃月	-11.0768
愛河	-11.0775
牧童	-11.0786
泉源	-11.0789
仰視	-11.079
超升	-11.0791
終南山	-11.0806
布衣	-11.0808
大腸	-11.0813
老父	-11.0827
大旱	-11.0831
任意	-11.0834
精舍	-11.0837
昭然	-11.0842
玉英	-11.085
智藏	-11.0858
永劫	-11.0858
无上道	-11.0861
丁卯	-11.0864
便宜	-11.0868
誓願	-11.087
玄都玉京	-11.0891
郎君	-11.0896
大慈悲	-11.09
鞅	-11.0917
丹基	-11.0919
列聖	-11.0923
玄都四極明科曰	-11.0926
恰	-11.0931
鍛	-11.0932
社稷	-11.0932
說經三徧	-11.0934
巷	-11.0935
扄	-11.0936
篋	-11.0936
綿綿若存	-11.0936
說經八徧	-11.0937
北都羅酆	-11.0938
摹	-11.094
道徳	-11.094
從容	-11.094
泝	-11.0941
滔	-11.0942
斃	-11.0942
炙	-11.0943
分布	-11.0943
輸	-11.0944
玉宸道君	-11.0944
衘	-11.0945
鑽	-11.0945
端的	-11.0945
宋徽宗	-11.0945
須延	-11.0945
孝芒天	-11.0946
鑰	-11.0946
惚	-11.0946
杏	-11.0946
江湖	-11.0947
懺	-11.0947
佞	-11.0947
司録	-11.0948
說經六遍	-11.0948
冩	-11.0948
吟詠	-11.0949
說經四遍	-11.0949
堆	-11.095
矧	-11.095
肘	-11.0951
虧盈	-11.0951
大悲大願大聖大慈	-11.0951
屈伸	-11.0951
窒	-11.0953
未濟	-11.0953
匹配	-11.0954
瘦	-11.0955
魈	-11.0955
逞	-11.0956
唵吽吽	-11.0956
青龍白虎朱雀玄武	-11.0957
漢武帝	-11.0958
葛洪	-11.0959
眞一之氣	-11.096
丙午	-11.096
麄	-11.0961
本命之日	-11.0962
呬	-11.0965
儼然	-11.0966
猛火	-11.0966
祝融	-11.0967
覃	-11.0971
瞻仰	-11.0975
墮地獄	-11.0977
和暢	-11.0977
大法師	-11.0984
斡運	-11.0986
五帝大魔	-11.099
州縣	-11.0995
災厄	-11.0995
斬絶	-11.0996
升遷	-11.0996
樓臺	-11.0996
七百年	-11.0999
甲戌	-11.1001
黄庭經	-11.1002
說偈	-11.1006
幽爽	-11.1016
等閑	-11.102
以兩手	-11.1042
百邪	-11.1044
敬禮	-11.105
無漏	-11.105
三十三	-11.1055
一枚	-11.1055
關啓	-11.1071
修養	-11.1079
上清大洞	-11.108
形影	-11.1081
遇至人	-11.1104
者此也	-11.1106
不失其	-11.1111
臨目	-11.1113
百魔	-11.1117
欣然	-11.112
百六十	-11.1122
胎根	-11.1123
根基	-11.1134
虚寂	-11.1156
利物	-11.1165
繇	-11.117
髙清	-11.117
金書祕于天之	-11.1175
簪	-11.1175
賫	-11.1176
鵠	-11.1176
說經五徧	-11.1176
甜	-11.1176
門弟子	-11.1176
兵馬各九億萬騎太玄	-11.1177
說經九徧	-11.1178
土受元始度人	-11.1179
婉	-11.1179
劑	-11.118
鸞鶴	-11.1181
峩	-11.1181
陶鑄	-11.1181
樞紐	-11.1181
耦	-11.1182
睦	-11.1183
槐	-11.1183
欹	-11.1184
躁	-11.1184
攢簇	-11.1184
收拾	-11.1184
聘	-11.1184
无量无邊	-11.1184
乃昇此天	-11.1185
苴	-11.1185
當此之時喜慶難言法事粗悉諸天復位	-11.1187
七尺	-11.1187
昬	-11.1187
琳琅	-11.1188
財寳	-11.1188
宗祖	-11.1188
影響	-11.1189
嵎	-11.1189
嚼	-11.119
茯苓	-11.119
蹠	-11.1191
沼	-11.1192
恭慶天	-11.1194
鄒	-11.1194
神仙之道	-11.1194
吕公	-11.1195
擺	-11.1197
昏昏	-11.1198
塵埃	-11.1198
阿那	-11.1198
竹杖	-11.1199
長生度世	-11.1201
惒	-11.1202
不可輕	-11.1204
微祝曰	-11.1206
寳臺	-11.1206
誰知	-11.1208
掣電	-11.1212
灌注	-11.1213
天上天下	-11.1215
拘制	-11.1216
亦猶	-11.1217
陰陽升降	-11.1219
吐毒	-11.1221
動植	-11.1225
斬滅	-11.1227
思邈	-11.1227
高祖	-11.1235
諸天大聖	-11.1239
本源	-11.1246
不知何許人也	-11.1249
無涯	-11.1256
沖虚	-11.1259
厄難	-11.1259
重濁	-11.1269
執斧	-11.1275
甲庚	-11.1277
奉迎	-11.1278
立冬	-11.128
斗牛	-11.1288
丁未	-11.1289
奉勑	-11.129
誦持	-11.13
鍊就	-11.1306
讃曰	-11.1312
龍蟠	-11.1312
光彩	-11.1313
結而成	-11.1326
師資	-11.1332
以心爲	-11.1348
金錢	-11.137
仙階	-11.1375
人倫	-11.1386
先亡	-11.1388
𠔃	-11.1398
穩	-11.1408
拾	-11.1411
曹仙官太玄女青下元	-11.1412
薰蒸	-11.1412
迄	-11.1418
畿	-11.1418
壅	-11.1419
券	-11.1419
眞鉛眞汞	-11.1419
筌蹄	-11.142
坐忘	-11.1421
萬劫一傳	-11.1421
形神俱妙與道合眞	-11.1421
囿	-11.1421
彌綸	-11.1422
鏗	-11.1423
凡有此災	-11.1423
迂	-11.1424
嘻	-11.1424
輅	-11.1425
鉤	-11.1425
椎	-11.1426
袂	-11.1426
未有不	-11.1426
暁	-11.1426
豹	-11.1426
挽	-11.1427
酥	-11.1427
籌	-11.1427
皇曽天	-11.1427
懈怠	-11.1428
這箇	-11.1428
監生大神	-11.1428
返本還元	-11.1428
茫茫	-11.1429
恤	-11.1429
萬彚	-11.1429
蝶	-11.1429
觴	-11.1429
之君中有	-11.1429
滄海	-11.1429
瞋	-11.1429
毗	-11.143
掐	-11.143
尖	-11.143
至心皈命禮	-11.1431
千千	-11.1433
闘	-11.1433
身有光明	-11.1436
巧拙	-11.1436
勑劉混康	-11.1437
垠	-11.1437
繿	-11.1437
慙	-11.1437
決定	-11.144
陂	-11.144
菌	-11.144
特賜	-11.144
荀	-11.1441
學道之士	-11.1442
徐徐	-11.1443
航	-11.1447
瓊輪	-11.1448
頑空	-11.1449
瘵	-11.1449
金璫	-11.145
邅	-11.145
泰定	-11.1453
遊戲	-11.1454
右件	-11.1454
利貞	-11.1456
分別	-11.1458
皇甫	-11.146
干犯	-11.1461
南海	-11.147
金闕帝君	-11.147
右手執	-11.1475
長生之道	-11.1476
長嘯	-11.1483
九層	-11.1485
方隅	-11.1485
后土	-11.1486
人不識	-11.1499
報對	-11.1503
中孚	-11.1539
養育	-11.1542
舉手	-11.1544
祕要	-11.1548
一百五十	-11.1548
賜紫	-11.1559
宣告	-11.1561
風伯	-11.1579
聚散	-11.1581
酒色	-11.1584
白元君	-11.1602
追度	-11.1605
禀受	-11.1608
度南宫	-11.1615
蓮華	-11.1624
中庸	-11.1625
十一年	-11.1635
相續	-11.1635
骨髓	-11.1637
洗心	-11.1645
拓	-11.1646
木郎	-11.1647
雲輿	-11.1651
邢	-11.1659
恁	-11.166
說經二徧	-11.1665
鎻	-11.1666
閃	-11.1667
督	-11.1668
蹊	-11.1669
鬱單	-11.1669
地上外音	-11.167
霏	-11.1671
天柱	-11.1672
衫	-11.1672
敢忘	-11.1673
頽	-11.1674
届	-11.1674
毓	-11.1675
謨	-11.1675
𥙷	-11.1675
喝	-11.1675
混合百神	-11.1676
曩	-11.1676
朵	-11.1676
斡旋	-11.1676
仙童玉女	-11.1676
峭	-11.1676
孝悌	-11.1677
西江月	-11.1677
司命司録	-11.1677
煥爛	-11.1677
三官九府	-11.1678
凑	-11.1679
溟泠	-11.168
盂	-11.168
嶷	-11.168
評	-11.1681
鬭	-11.1681
疵	-11.1681
脾胃	-11.1682
燄	-11.1682
皆受護度咸得長生道言是時	-11.1682
娠	-11.1684
椿	-11.1685
自然而然	-11.1686
斟	-11.1687
唯願天尊	-11.1687
㦸	-11.1691
飛天神人	-11.1691
磚	-11.1692
蚩尤	-11.1692
擣	-11.1692
芟邪	-11.1692
少頃	-11.1694
沴	-11.1694
戊辰	-11.1694
百餘歲	-11.1694
輔翼	-11.1696
駿	-11.1697
魏夫人	-11.1698
少好道	-11.1698
湧泉	-11.1701
二十四獄	-11.1703
五苦八難	-11.1708
捷疾	-11.1709
钁	-11.1709
五榖	-11.1711
四象五行	-11.1712
燔	-11.1713
密呪曰	-11.1714
四瀆	-11.1722
死戸	-11.1724
河伯	-11.1725
破獄	-11.1731
史崇	-11.1736
丹竈	-11.1738
无上玄元太上道君召	-11.1743
救濟	-11.1743
塵勞	-11.1746
經營	-11.1748
紫户	-11.1749
開導	-11.1754
恭惟	-11.1755
五十五	-11.1756
降鑒	-11.1757
瓊臺	-11.1759
靈書中篇	-11.1764
微呪曰	-11.1767
弱水	-11.1769
水中金	-11.1774
九十日	-11.1785
鬼賊	-11.1795
法師曰	-11.1801
九寸	-11.1804
無色界	-11.181
安泰	-11.1813
返老	-11.1819
此八字	-11.1834
關節	-11.1844
九芒	-11.1853
亘古	-11.1853
莫能知	-11.1862
道本無	-11.1884
貪嗔	-11.189
夜夢	-11.1898
十八年	-11.1899
人官將各一百二十人	-11.1915
錢塘	-11.1917
寤	-11.1923
婦女	-11.1925
涌	-11.1925
㣲	-11.1926
從兆泥丸中入兆乃口吸神雲咽津	-11.1927
古歌曰	-11.1927
辰上神	-11.1928
太微天帝君	-11.1929
悴	-11.1929
太乙元精	-11.1929
元亨利貞	-11.1931
汴	-11.1932
無色之境梵行東方八天	-11.1933
烜赫	-11.1934
廊	-11.1934
線	-11.1936
諸天諸地	-11.1936
能悉其章誦之十過	-11.1936
齊同慈愛異骨成親國安民豐欣樂太平	-11.1936
髣髴	-11.1937
塡	-11.1937
普掃不祥	-11.1937
遨遊	-11.1937
污	-11.1939
弩	-11.1939
無極無量品	-11.194
昉	-11.1942
御製	-11.1942
冑	-11.1943
衲	-11.1943
瑶池	-11.1947
媚	-11.195
徽宗	-11.1951
醖	-11.1952
狄	-11.1952
清凉	-11.1953
旦夕	-11.1953
塵垢	-11.1954
不知所之	-11.1955
元始祖炁	-11.196
不怠	-11.1964
夭傷	-11.1964
豁然	-11.1967
削除	-11.1967
刀利	-11.1968
丁巳	-11.1971
變化無窮	-11.1975
泛景	-11.1979
此三界之上飛空之中	-11.1991
考罰	-11.2
二十八日	-11.2008
元始一炁	-11.2011
得道之人	-11.2014
九炁青天	-11.2016
染著	-11.202
驅雷	-11.2044
交接	-11.2048
長沙	-11.2063
汞汞	-11.2064
數里	-11.2079
啓請	-11.2088
天地之根	-11.2089
只要	-11.2094
道言正月長齋誦詠是經	-11.2127
必獲	-11.2131
羣魔	-11.2138
除殃	-11.216
灌溉	-11.2184
曹仙官太玄女青中元	-11.2185
浣	-11.2189
五靈玄老	-11.219
畢乃口微祝曰天上内音	-11.219
无鞅之衆	-11.219
眞陰眞陽	-11.2191
杳杳冥冥	-11.2191
東西南北	-11.2192
織	-11.2193
揣	-11.2195
五月五日	-11.2196
綴	-11.2197
在目前	-11.2197
匣	-11.2198
爲國王帝主君臣父子安	-11.2198
呂	-11.2198
說經都竟衆眞監度以授於我	-11.2199
麒麟	-11.2199
運應滅度身經太隂臨過之時同學至人	-11.22
觀天之道執天之行盡矣	-11.2202
坑	-11.2202
韞	-11.2202
枝葉	-11.2202
簷	-11.2202
汩	-11.2203
猖	-11.2203
瘥	-11.2203
勤而行之	-11.2203
圍繞	-11.2203
法輪之門	-11.2203
祖禰	-11.2204
邪怪	-11.2205
呌	-11.2205
綏	-11.2206
眩	-11.2206
霓	-11.2207
粤	-11.2207
坡	-11.2208
藥材	-11.2209
玉晨道君	-11.221
汪	-11.221
咸臻	-11.2213
兵革	-11.2215
夔	-11.2215
緫領	-11.2217
鐸	-11.222
愼勿	-11.222
漬	-11.2221
紫戸	-11.2224
慈憫	-11.2225
甘泉	-11.2226
七祖父母	-11.2226
坤卦	-11.2226
大羅玉清	-11.2227
耗散	-11.2229
砂汞	-11.223
輪廻	-11.2231
流芳	-11.2236
判官	-11.2236
震兊	-11.2243
兩箇	-11.2243
哀尊	-11.2244
總統	-11.2246
碧霄	-11.2247
祝畢	-11.225
毫分	-11.2264
兵戈	-11.2279
天地之數	-11.228
五湖	-11.2281
雲錦	-11.229
白紙	-11.2292
不得妄	-11.2327
驚異	-11.2345
設教	-11.2353
王屋山	-11.2452
稻	-11.2452
茭	-11.2453
攢	-11.2457
絕	-11.2459
幽㝠	-11.2459
寂寞	-11.246
富國安民	-11.246
過結作	-11.246
聯	-11.2461
帖	-11.2461
徑御无上三十二天元始上帝至尊几前	-11.2462
款	-11.2462
束首鬼精自亡琳琅振響十方肅清河海	-11.2462
上品妙首	-11.2463
元洞玉曆	-11.2463
堂修行至經无量度人願所啓上徹	-11.2464
肢體	-11.2464
忤	-11.2464
保胎護命	-11.2465
千變萬化	-11.2466
叩齒三十六通	-11.2466
脯	-11.2467
勇猛	-11.247
痕	-11.247
姻	-11.247
頰	-11.2471
胷	-11.2471
懲	-11.2471
何童天	-11.2472
魒	-11.2473
周回十方	-11.2473
杏林	-11.2473
軟	-11.2474
燧	-11.2474
洪崖	-11.2475
麓	-11.2476
章謹請	-11.2478
鼓舞	-11.2478
祈晴	-11.2478
鯨	-11.2479
綱維	-11.248
龍虎交媾	-11.248
輔弼	-11.248
敞	-11.2481
瑩徹	-11.2481
讃詠	-11.2481
遙	-11.2482
熠	-11.2484
降眞延壽	-11.2485
破壞	-11.2485
釁	-11.2486
景貺	-11.2487
華胥	-11.2488
圎滿	-11.249
庚寅	-11.2492
仗劔	-11.2492
久久	-11.2492
瑶臺	-11.2495
盜賊	-11.2495
開八門	-11.2497
士庶	-11.2497
脫胎	-11.25
六十四字	-11.2505
鬼魅	-11.2506
吾不知其	-11.2509
與天地同	-11.2518
无量大神	-11.252
萬般	-11.2521
玉漿	-11.2523
廣陵	-11.2525
妙成天	-11.2527
紫芝	-11.2528
震巽	-11.2528
建康	-11.2529
化生諸天	-11.254
然後可以	-11.2545
司迎	-11.2563
伏尸	-11.2569
周徧	-11.2571
之神中有	-11.2578
斬妖	-11.2587
偈頌	-11.2591
衣裳	-11.2591
十二辰	-11.2612
至眞大神无鞅之衆浮空而至	-11.2626
照燭	-11.2643
了悟	-11.2675
盟誓	-11.2698
娱	-11.2729
歩斗	-11.2733
圜	-11.2733
秪	-11.2734
侔	-11.2734
藩	-11.2735
闈	-11.2736
所以者何	-11.2737
綜	-11.2737
間斷	-11.2737
喚	-11.2737
八萬四千	-11.2738
棄殻	-11.2739
鐺	-11.2739
大如黍米	-11.2739
𣗳	-11.2739
艷	-11.274
翮	-11.274
内諱名字鎭我	-11.274
濳	-11.274
一如告命風火驛傳	-11.2741
詵詵	-11.2742
七寳林中	-11.2743
瑟	-11.2744
塲	-11.2744
泳	-11.2744
火生於木	-11.2745
榆	-11.2746
咨	-11.2746
跣足	-11.2746
咫尺	-11.2747
等志心歸命禮願稽首讃嘆	-11.2747
叛	-11.2749
颺	-11.2749
鷹	-11.2749
天中空洞自然靈章諸天隱韻	-11.2749
拜謝	-11.2749
甄	-11.2749
萬神咸聽	-11.275
渙	-11.2751
亞	-11.2752
睽	-11.2752
侍郞	-11.2752
琚	-11.2753
隱祕之音	-11.2753
晷	-11.2753
燃	-11.2753
沈淪	-11.2754
恐懼	-11.2754
汧	-11.2754
四極明科	-11.2755
廚	-11.2755
禁忌	-11.2756
紫虚元君	-11.2758
五嶽四瀆	-11.2758
尹喜	-11.2758
劫仞	-11.2759
揚州	-11.276
汾	-11.276
振響	-11.2762
不倦	-11.2763
薑	-11.2763
庚辰	-11.2763
戊戌	-11.2764
最勝	-11.2765
惡趣	-11.2766
營衛	-11.2766
蕩穢	-11.2768
敷演	-11.2769
元始无量度人上品妙經卷之	-11.2769
掇	-11.277
騰騰	-11.2771
六十卦	-11.2771
着靴	-11.2771
仗劒	-11.2773
坦然	-11.2777
炯	-11.2779
己酉	-11.2787
不輟	-11.2788
賢愚	-11.2791
芝草	-11.2808
延陵	-11.281
感格	-11.2816
老子云	-11.2824
辛苦	-11.2827
半夜	-11.2833
飄然	-11.284
監舉	-11.2845
衣朱履	-11.2851
斬鬼	-11.2874
異類	-11.2887
莊子曰	-11.2899
回旋	-11.2909
不知何許人	-11.2934
咽津	-11.2957
昨夜	-11.2993
走失	-11.3011
来	-11.3013
曹仙官太玄女青上元	-11.3017
艶	-11.3018
縉	-11.3019
𡨋	-11.3022
掬	-11.3022
五帝直符各三十二人	-11.3022
偃月爐	-11.3023
文昌大洞玉章第	-11.3024
九還七返	-11.3024
三百八十四爻	-11.3024
元始洞玄靈寳本章	-11.3025
無鞅數衆乗空而來	-11.3025
五炁玄天	-11.3025
劃	-11.3027
仙化成人	-11.3027
膠	-11.3027
黄天魔王	-11.3027
無窮萬神咸聽三界五帝列言上清	-11.3028
璇璣玉衡	-11.3029
堯舜	-11.3029
堵	-11.3029
惺惺	-11.3031
盥	-11.3031
餅	-11.3031
廛	-11.3031
踞	-11.3032
嗽	-11.3032
鉢	-11.3033
瀟	-11.3033
顒	-11.3033
逍遙	-11.3034
蓍	-11.3034
訥	-11.3035
迓	-11.3035
檜	-11.3035
捷徑	-11.3036
𡜍	-11.3036
遊行太空	-11.3037
牢獄	-11.3037
傑	-11.3037
摩夷天	-11.3038
陶隱居	-11.3038
湮	-11.3038
筋骨	-11.3039
某誠感誠慶頓首頓首再拜上言	-11.3039
矛	-11.3039
惕	-11.3041
查	-11.3041
廨	-11.3042
尾閭穴	-11.3042
哥	-11.3042
織女	-11.3045
殯	-11.3045
洞玄靈寳	-11.3045
清涼	-11.3046
舂	-11.3046
純熟	-11.3046
太倉	-11.3048
尊卑	-11.3051
鼓琴	-11.3052
益筭	-11.3052
太后	-11.3053
狀貌	-11.3053
講說	-11.3053
劈	-11.3053
潤澤	-11.3054
夐	-11.3056
鬱秀	-11.3058
之至謹	-11.3062
朗耀	-11.3065
禁上天	-11.3071
舌根	-11.3077
地軸	-11.3083
仁慈	-11.3091
皛	-11.3092
福禄	-11.3094
此經微妙普度無窮一切天人莫不受慶	-11.3096
示現	-11.3097
羅浮山	-11.31
赴壇	-11.3112
掃除	-11.3113
曲江	-11.3113
左腎	-11.3119
孛	-11.324
一國地土山川林木	-11.3241
十有八	-11.3245
本起録云	-11.3282
圖籙	-11.3293
然後而付焉道言夫	-11.3296
呪唵	-11.3297
瞿	-11.3308
弈	-11.331
給玉童玉女各	-11.3313
强兵戰勝	-11.3313
巵	-11.3314
股	-11.3314
鬻	-11.3314
勁	-11.3314
惻	-11.3316
倩	-11.3316
壷	-11.3317
駡	-11.3318
聃	-11.3318
強	-11.332
上解祖考億劫種親	-11.332
清泠	-11.332
暘	-11.3321
七炁素天	-11.3321
訴	-11.3321
寂然不動	-11.3321
薫	-11.3323
蕩滌	-11.3323
格皆九年受化更生得爲貴人	-11.3323
啞	-11.3323
放大光明	-11.3323
瘴癘	-11.3323
毫釐	-11.3324
東向叩齒三十二通上聞三十二	-11.3324
道言夫末學道淺或仙品未充	-11.3324
羈	-11.3325
憤	-11.3325
韓君丈人	-11.3325
龔	-11.3325
醴泉	-11.3325
鵬	-11.3325
彚	-11.3325
煅煉	-11.3327
玄中太皇	-11.3327
剡	-11.3327
叩齒二十四通	-11.3327
善男子若有衆生	-11.3327
三炁丹天	-11.3327
莭	-11.3328
周迴十方	-11.3328
蹤跡	-11.3329
鐶	-11.3329
若亡若存	-11.3329
八節之日誦詠是經	-11.3329
𨇠	-11.333
九玄七祖	-11.333
奉道之士	-11.3331
吝	-11.3331
嶽瀆	-11.3332
喘	-11.3332
哀愍	-11.3334
墀	-11.3334
翛然	-11.3334
玄明洞淵	-11.3335
腰帶	-11.3335
埏	-11.3335
爲其行香誦經十過以度屍形如法	-11.3336
媪	-11.3336
鑚	-11.3336
天丁力士	-11.3337
霜雪	-11.3342
橐	-11.3343
沉滯	-11.3344
淺深	-11.3345
啓途	-11.3347
芝英	-11.3347
咤	-11.3352
消禳	-11.3353
萬事畢	-11.3354
涂	-11.3359
是以聖人	-11.3362
羅絡	-11.3363
穆王	-11.337
各三十二人關啓所言今日吉慶長齋	-11.3376
覆載	-11.3378
龜臺	-11.338
部領	-11.339
遊行三界	-11.3392
空不空	-11.3409
彭祖	-11.345
癸亥	-11.3456
乙丑	-11.3517
百丈	-11.3533
諸大衆	-11.3542
棹	-11.3608
去地五丈	-11.3612
光玉皇大天尊聖父天尊聖母元君	-11.3616
皆是大梵之言非世上常辭	-11.3617
順時吐息誦玉經大洞玉經曰	-11.3618
常鎭我	-11.3619
慈仁	-11.362
若人非人	-11.362
址	-11.3621
兀	-11.3622
疋	-11.3622
恥	-11.3623
八字之音	-11.3623
𨓜	-11.3623
貝	-11.3624
縱橫	-11.3624
㓜	-11.3624
丁酉	-11.3624
虜	-11.3624
中合五方飛玄之炁以和八字自然之音	-11.3624
皮膚	-11.3625
琢	-11.3625
扈	-11.3626
妓	-11.3626
迢	-11.3626
番	-11.3626
地二生火	-11.3627
常融天	-11.3627
丗	-11.3627
埃	-11.3627
旡	-11.3627
馴	-11.3627
亳	-11.3628
人發殺機	-11.3628
菩薩	-11.3628
默菴曰	-11.3628
閬苑	-11.3628
穢濁	-11.3628
厠	-11.3629
頡	-11.3629
嗚呼	-11.363
×	-11.363
犢	-11.3631
醇	-11.3631
生身受度劫劫長存隨劫輪轉與天齊年	-11.3631
燁	-11.3631
培	-11.3631
吹嘘	-11.3632
有祕上天文諸天共所崇泄慢墮地獄	-11.3634
蔓	-11.3634
名列太玄	-11.3635
不經地獄	-11.3635
愔	-11.3636
幣	-11.3637
蜃	-11.3638
胎嬰	-11.3638
江由天	-11.3638
黒簿	-11.3639
遇眞師	-11.3639
役使鬼神	-11.3639
拊	-11.3639
霸	-11.364
度去北辰	-11.364
璿	-11.364
漑	-11.3642
菊	-11.3643
迮	-11.3643
讃揚	-11.3643
吳	-11.3644
休咎	-11.3644
太尉	-11.3645
釡	-11.3647
深淺	-11.3648
蠻雷	-11.3648
機緘	-11.365
鸞鳳	-11.365
戊午	-11.3651
怖畏	-11.3652
太玄都四極明科曰凡	-11.3653
隳	-11.3654
宜甫	-11.3655
激切	-11.3655
彈指	-11.3656
丙申	-11.3656
天中人壽	-11.3657
乾祐	-11.3658
十倍	-11.366
𧵥	-11.3663
長生大聖	-11.3666
採訪	-11.3667
禍患	-11.3677
宅舍	-11.3678
吕眞人	-11.3684
黑暗	-11.3696
輪驂駕	-11.3697
徊風	-11.37
一時同至一國男女傾心歸仰	-11.3733
失所在	-11.3747
俯伏	-11.3766
三元八節	-11.3824
齎金寳	-11.3828
世人受誦則	-11.3864
蠻	-11.3908
老翁	-11.3913
榛	-11.3924
誌	-11.3924
中部洞玄八景自然靈寳神僊	-11.3924
搬	-11.3926
羞	-11.3929
隗	-11.3929
大量玄玄	-11.3929
罪消滅玉皇大天尊玄穹髙上帝	-11.3929
豕	-11.393
黄籙院	-11.393
繡衣玉女三十二人	-11.3931
五色玉童三十二人	-11.3931
轍	-11.3931
上部洞天八景自然靈寳神僊	-11.3932
下部洞靈八景自然靈寳神僊	-11.3933
蓬瀛	-11.3933
球	-11.3933
塔	-11.3934
鼈	-11.3935
暝	-11.3936
曰无量洞章	-11.3936
七返九還	-11.3937
諸天記人功過毫分無失天中	-11.3937
燦爛	-11.3937
峩峩	-11.3938
北都除殃	-11.3938
寘	-11.3939
中大梵隱語无量之音以付道君使教	-11.3939
而好學至經功滿德就皆得神仙飛	-11.3939
寛	-11.3939
遑	-11.3939
總監衆靈	-11.394
猒	-11.3941
具法位	-11.3941
刻漏	-11.3941
飛行鼓從	-11.3941
疫毒流行兆民死傷師友命過	-11.3942
萬神朝禮名書上天功滿德就飛昇上清	-11.3942
械	-11.3942
瓊漿	-11.3942
忝	-11.3942
痼	-11.3943
青黄白	-11.3943
綾	-11.3944
至學之士誦之十過則	-11.3944
胤	-11.3944
畀	-11.3944
粥	-11.3945
夤	-11.3946
峨嵋山	-11.3947
金生水	-11.3947
延夀	-11.3947
劉蔣	-11.3947
觜	-11.3949
擁護	-11.3949
舅	-11.395
繕	-11.395
五賊在心	-11.3951
魎	-11.3952
知之修鍊謂之聖人	-11.3952
北方五炁	-11.3952
衰老	-11.3954
鋤	-11.3954
魑	-11.3954
洩	-11.3955
紫光丹靈	-11.3959
之雲文	-11.3959
癰	-11.3959
笞	-11.396
太玄都四極明科曰	-11.3961
城郭	-11.3962
努	-11.3962
參差	-11.3962
輔佐	-11.3963
鏘	-11.3965
梟	-11.3966
罪消滅	-11.3973
推遷	-11.3977
夙夜	-11.398
□□	-11.3981
欽承	-11.3981
容貌	-11.3983
黃籙	-11.3991
兩般	-11.3992
祈恩	-11.3992
桃康合延	-11.3992
浩蕩	-11.4043
情慾	-11.4051
災癘	-11.4052
冨貴	-11.4073
八節之日	-11.4075
酒肆	-11.4117
獅子白鶴羅列左右日月照明洞煥室内	-11.4121
莫不由	-11.4127
敢有干試拒遏	-11.4136
題詩	-11.4214
二炁交	-11.4234
元始无量度人上品妙經	-11.4236
文昌大洞	-11.4243
鈕	-11.4244
此則元始以鎮	-11.4245
不得拘留	-11.4246
閩	-11.4248
四時失度隂陽不調	-11.4253
隷	-11.4253
蘆	-11.4255
瓦礫	-11.4255
挂	-11.4255
渭	-11.4255
神王長生大聖无量度人東南无極	-11.4256
斫	-11.4256
神王長生大聖无量度人西南无極	-11.4257
道言凡誦是經十過諸天齊到	-11.4257
少微曰此八字	-11.4257
啜	-11.4258
若男若女	-11.4259
狹	-11.4259
蟲蝗	-11.426
陰中之陽	-11.426
化應聲天	-11.426
姊	-11.4261
玄關一竅	-11.4261
妍	-11.4261
中宿有仙名者度應得道人也	-11.4261
彙	-11.4261
雷平山	-11.4261
中有自然之書八字文曰	-11.4262
眞藏童子	-11.4262
洗滌	-11.4262
明八方元始下教使撰其字解其音合成	-11.4262
天心拜三十二過閉目靜思身坐	-11.4262
朱陵火府	-11.4264
淹	-11.4265
霈	-11.4265
一陰一陽	-11.4265
白天魔王	-11.4265
大行梵炁	-11.4266
一陽來復	-11.4266
皇笳天	-11.4266
伏羲	-11.4267
撮	-11.4268
課	-11.4268
雷師皓翁	-11.4268
回風混合	-11.4268
肚	-11.4269
趾	-11.4269
黍珠	-11.427
東方朔	-11.427
正陽之氣	-11.427
胚	-11.427
月十四日	-11.427
光普照	-11.427
束送	-11.4271
甚麽	-11.4271
眞中有神	-11.4272
覲	-11.4272
桑田	-11.4272
丙寅	-11.4273
盤旋	-11.4273
䧟	-11.4274
白鵠	-11.4274
裸	-11.4275
錦帔	-11.4275
刳	-11.4276
囬	-11.4276
嬉	-11.4276
長九寸	-11.4279
毒蛇	-11.4281
梗	-11.4282
愆尤	-11.4283
吹笙	-11.4284
洞陽之宫	-11.4287
楊許	-11.4287
閟	-11.4287
戊寅	-11.4287
觸犯	-11.4288
自子至	-11.4288
靴	-11.4289
嘉祥	-11.4289
歌詠	-11.429
昭彰	-11.429
杞	-11.4291
謐	-11.4293
螭	-11.4293
九幽地獄	-11.4295
河魁	-11.4298
盛衰	-11.4301
盗萬物	-11.4341
萬八千	-11.4342
百二十曹	-11.4347
神王長生大聖无量度人東北无極	-11.4393
年四月	-11.44
原赦	-11.4412
驂駕	-11.4521
无極无量品	-11.4552
縹	-11.4577
蒼胡頡	-11.458
抄	-11.458
楷	-11.4581
敲	-11.4581
謹爲拜章一通上聞三天伏望	-11.4582
一隂一陽	-11.4586
陰符陽火	-11.4587
安期生	-11.4587
䆫	-11.4587
元符萬寧宫	-11.4587
盱	-11.4587
赤明和陽天	-11.4588
大慈大悲	-11.4588
陽九百六	-11.4589
𥿄	-11.4589
神王長生大聖无量度人上方无極	-11.459
柩	-11.4591
硃砂	-11.4591
執符把籙	-11.4591
神王長生大聖无量度人南方无極	-11.4591
許長史	-11.4591
槎	-11.4593
一乘海空智藏	-11.4593
儛	-11.4593
作是念	-11.4594
闔闢	-11.4594
立天之道以定人也	-11.4594
常守兆	-11.4594
姨	-11.4594
天眞皇人曰其章以	-11.4594
梵度天	-11.4594
金闕玉房	-11.4594
慚	-11.4595
度厄尊神	-11.4595
啗	-11.4595
姪	-11.4595
出有入無	-11.4596
秦始皇	-11.4597
其八字飛玄自然之書字方一丈文彩煥	-11.4597
魂神暫滅不經地獄即得返形遊行太空	-11.4597
死炁之門使	-11.4597
中斗大魁	-11.4598
隱韻之音亦是	-11.4598
孳	-11.4598
眇眇億劫	-11.4598
泗	-11.4598
壊	-11.4598
幃	-11.46
天有五賊見之者昌	-11.46
閼伯	-11.4601
㳙	-11.4601
一呼一吸	-11.4602
驛吏	-11.4602
冐	-11.4602
裾	-11.4602
海南白玉蟾著	-11.4602
捍	-11.4602
涎	-11.4602
无量度人上品妙經元始洞玄靈寳本章	-11.4603
騁	-11.4604
晡	-11.4604
蘂珠	-11.4604
捫	-11.4604
跛痾	-11.4604
癩	-11.4604
宗飄天	-11.4605
禎祥	-11.4606
笏	-11.4606
風伯雨師	-11.4606
鐵笛	-11.4607
壼	-11.4608
嘯歌	-11.4608
恙	-11.4609
躭	-11.4609
野戰	-11.4609
琅玕	-11.4609
牟	-11.461
咭	-11.4611
絢	-11.4612
嬪	-11.4613
腫	-11.4614
平育天	-11.4617
虔誠	-11.4618
先天一炁	-11.4619
吴越	-11.462
萬神之宗	-11.462
病癘	-11.4621
閼	-11.4622
嗣宗	-11.4623
寅卯	-11.4624
壬寅	-11.4624
橋梁	-11.4624
五行顛倒	-11.4625
當修齋行香誦經夫齋戒誦經功德甚重	-11.4681
雷轟	-11.4705
有聞靈音	-11.4753
嚥津	-11.4779
此經微妙普度	-11.4866
炁所化	-11.4895
刺史	-11.4899
神王長生大聖无量度人西方无極	-11.4915
玄靜先生	-11.4917
神王長生大聖无量度人十方	-11.4917
甸	-11.4919
梳	-11.4924
澮	-11.4925
煆	-11.4926
圗	-11.4926
辤	-11.4926
𥋋	-11.4929
諄	-11.493
從座而起	-11.4932
惶懼	-11.4932
齋主某人	-11.4932
歆	-11.4933
忒	-11.4934
白元尊神	-11.4934
𠑽	-11.4934
在空玄之中	-11.4935
翦	-11.4935
神王長生大聖无量度人西北无極	-11.4935
直符從官十	-11.4936
收捕	-11.4936
翥	-11.4938
郁馥	-11.4938
六十甲子	-11.4938
紊	-11.4939
肱	-11.4939
功滿德就	-11.494
鬱羅蕭臺	-11.494
悵	-11.494
所以爾者	-11.4941
抹	-11.4941
儵	-11.4941
里域	-11.4942
仲尼	-11.4942
高上玉皇	-11.4942
恍恍惚惚	-11.4942
鯉	-11.4942
𥟵首	-11.4942
昇金闕遊宴玉京也上學之士修誦是經	-11.4943
蜂	-11.4943
赤天魔王	-11.4943
綉	-11.4944
上世亡䰟	-11.4944
舄	-11.4944
瀛洲	-11.4944
抱元守一	-11.4944
坐在立亡	-11.4944
晤	-11.4945
搬運	-11.4945
帙	-11.4946
壇場	-11.4947
天師志心朝禮	-11.4947
太一救苦天尊	-11.4948
濟生度死	-11.4949
打破	-11.495
凾	-11.4951
撲	-11.4951
臣衆等志心皈命	-11.4953
夢寐	-11.4953
肌肉	-11.4953
粮	-11.4953
哀憫	-11.4953
有道之士	-11.4955
仗劍	-11.4956
言善哉善哉善男子	-11.4956
瓌	-11.4956
汚	-11.4957
饋	-11.4958
嶼	-11.4958
縻	-11.4958
坼	-11.4959
晋陵	-11.496
正日時	-11.4961
乙卯	-11.4961
男兒	-11.4968
玉暦	-11.4969
疼	-11.4973
𦍙	-11.4981
寥寥	-11.5011
妖孽	-11.5031
護受經者身道言正月長齋誦詠是經	-11.5041
杳杳	-11.5179
誅斬	-11.5202
神王長生大聖无量度人北方无極	-11.522
者死入	-11.5245
身得受生上聞諸天諸天之上各有生門	-11.5256
玊札	-11.5267
氲	-11.5269
栖巖	-11.5269
賈奕天	-11.5275
鈺	-11.5281
急急如玉清上帝律令	-11.5281
子午卯酉	-11.5284
云何有衆生	-11.5286
八字雲篆鎮	-11.5286
太歲年月日具位	-11.5289
无鞅數衆	-11.5289
讖	-11.5289
藜	-11.529
叩齒十二通	-11.529
蕪	-11.5291
叩齒七通	-11.5292
神王長生大聖无量度人下方无極	-11.5293
開明三景	-11.5294
黔	-11.5294
侍衛送迎	-11.5294
塗炭	-11.5294
蒼梧	-11.5294
拄	-11.5295
鞋	-11.5295
髭	-11.5295
湛湛	-11.5296
承誥奉行	-11.5296
疽	-11.5296
普受開度	-11.5296
葱	-11.5297
疰	-11.5297
澄正萬氣長存不經	-11.5297
宙	-11.5297
中有空洞謡歌之章	-11.5298
耐	-11.5299
迍	-11.5299
趁	-11.5299
籬	-11.5299
黎庶	-11.53
月華隂景	-11.53
𩲃	-11.5301
葛仙翁	-11.5301
闓	-11.5302
紏察	-11.5302
欄	-11.5302
聶	-11.5302
臣衆等志心歸命	-11.5302
紅杏	-11.5302
崐崘	-11.5302
咳	-11.5302
彫	-11.5302
娘	-11.5302
並是諸天上帝内名隱韻之音亦是	-11.5303
怙	-11.5303
鄂	-11.5303
茨	-11.5303
上品妙經	-11.5303
荼	-11.5303
哩	-11.5303
倐忽	-11.5305
技	-11.5305
雷公電母	-11.5305
宇宙在乎手萬化生乎身	-11.5305
趺	-11.5305
垓	-11.5305
善男子眞人童子	-11.5306
炷香	-11.5306
咦	-11.5306
都督	-11.5306
棠	-11.5307
牘	-11.5307
撻	-11.5307
唐明皇	-11.5308
六甲六丁	-11.5309
廓奕	-11.5309
駟	-11.5311
滌蕩	-11.5311
弱冠	-11.5311
歩罡	-11.5312
喉嚨	-11.5313
某誠感誠慶頓首頓首再拜上言伏以	-11.5314
衡嶽	-11.5314
死入地獄	-11.5314
嗇	-11.5316
宿天華	-11.5316
欣慶	-11.5318
策杖	-11.5331
灝	-11.5342
慳貪	-11.5365
當爲汝	-11.5374
今日日辰	-11.5404
一百四十	-11.5429
今日欣慶受度	-11.5435
月孛	-11.545
戸興隆世世昌熾與善因縁萬災不干	-11.5492
朔旦	-11.5525
煅	-11.5642
畝	-11.5644
昺	-11.565
瀛	-11.5654
監眞度生	-11.5654
饑渴	-11.5655
宫參校曰别本註云帝主	-11.5657
蓊鬱	-11.5657
内外蓊冥有青龍白虎朱雀玄武	-11.5657
聴	-11.5659
開明三景是爲天根	-11.5659
漲	-11.566
嬰孩	-11.566
合而爲一	-11.5661
干戈	-11.5661
下剋上	-11.5661
炁入玄玄	-11.5662
藤	-11.5662
五十有五	-11.5662
六道四生	-11.5663
大浮黎土	-11.5663
舛	-11.5663
漕	-11.5664
三官九署	-11.5664
地四生金	-11.5665
道言此諸天中大梵隱語无量之音舊文	-11.5665
岷	-11.5665
煖	-11.5666
瘴	-11.5666
笳	-11.5667
搗	-11.5667
腸胃	-11.5667
星宿錯度日月失昏	-11.5667
靈寳无量度人上經	-11.5668
隨其學功計日而得更生	-11.5668
天人合發	-11.5668
麾幢鼓節	-11.5668
十徧周竟十方无極	-11.5669
鵲橋	-11.5669
巔	-11.5669
天尊答言	-11.567
緼	-11.567
蜺	-11.5671
蠡	-11.5671
夏禹	-11.5671
欵	-11.5671
僕射	-11.5671
塑	-11.5672
壬午	-11.5672
洞天福地	-11.5672
屑	-11.5672
括蒼	-11.5672
斲	-11.5673
訾	-11.5673
琅函	-11.5673
青天魔王	-11.5674
臟腑	-11.5674
愕	-11.5674
摸	-11.5675
义	-11.5675
皇崖天	-11.5675
元載孔昇天	-11.5675
暄	-11.5676
雉	-11.5676
白日飛昇	-11.5676
蕤	-11.5676
枯朽	-11.5677
牝牡	-11.5677
脣	-11.5677
琅琅	-11.5678
把握	-11.5678
飛行太空	-11.5678
狩	-11.5678
戢	-11.5679
紱	-11.568
蹙	-11.568
儲祥	-11.5681
項負	-11.5682
諶姆	-11.5682
偷盜	-11.5685
誡者不得	-11.5688
懴謝	-11.5688
廡	-11.5689
无文不	-11.5691
殺戮	-11.5692
袪	-11.5692
讃嘆	-11.5695
淑眞曰	-11.5695
湊	-11.5696
神王長生大聖無量度人	-11.5698
荅	-11.5699
覔	-11.5717
筒	-11.5717
謂人曰	-11.5728
后妃	-11.5816
薛幽棲	-11.5894
今日欣慶受度歷關諸天	-11.5903
大神一時同至一國男女傾心歸仰來者	-11.5922
一切神仙諸靈官	-11.5925
衛神文保護受經者身	-11.5942
上奏諸天萬神朝禮地祇侍門大	-11.5961
輟	-11.5983
礬	-11.601
臓	-11.6029
乾坤爲鼎	-11.603
三色雲炁	-11.6031
什	-11.6032
甞	-11.6033
鞠	-11.6037
生身受度劫劫長存	-11.6037
鉅	-11.6037
玄元始三炁	-11.6038
元綱流演	-11.6039
告盟而傳	-11.6041
菖蒲	-11.6042
懃	-11.6042
𡨚仇	-11.6042
腴	-11.6042
紗	-11.6043
張子房	-11.6044
淋	-11.6046
梧桐	-11.6046
鬱單无量天	-11.6046
輕泄漏慢	-11.6046
歷世眞仙體道通鑑	-11.6046
煌煌	-11.6047
无英公子	-11.6047
臧	-11.6047
衾	-11.6048
刄	-11.6048
魏伯陽	-11.6048
師友命過	-11.6049
蔬	-11.6049
削死上生	-11.6049
召制十方	-11.6049
赤明開圖運度自然	-11.605
臉	-11.605
脱胎神化	-11.6051
合八字皆方一丈八角煥明	-11.6051
東向叩齒三十二通上聞三十二天心拜	-11.6051
庠	-11.6051
千和萬合	-11.6051
輕誦此章身則被殃供養尊禮門	-11.6051
各三十六人關啓所言今日吉慶長齋清	-11.6051
這裏	-11.6051
嬌	-11.6052
梏	-11.6052
塜	-11.6053
巓	-11.6053
左右官使者	-11.6054
濬	-11.6054
驥	-11.6054
爲上世亡魂斷地逮役度上南宫	-11.6054
賾	-11.6054
碩	-11.6055
太𡻕	-11.6055
畧	-11.6056
軰	-11.6056
倏歘之間寂無遺響是時天人遇值經法	-11.6056
麈	-11.6056
踪	-11.6056
天上地下	-11.6057
些兒	-11.6057
搆	-11.6058
拾遺	-11.6058
恩生於害害生於恩	-11.6058
鏤	-11.6058
釀	-11.6059
崇禧觀	-11.606
火急奉行	-11.6061
覿	-11.6061
卉	-11.6061
吁員	-11.6062
梓潼帝君	-11.6062
嵐	-11.6062
宋眞宗	-11.6063
無量無邊	-11.6063
祁	-11.6063
聖祖天尊大帝	-11.6064
躅	-11.6064
貧乏	-11.6064
黄帝陰符經注	-11.6065
潢	-11.6066
圈	-11.6066
東方甲乙	-11.6066
萬神朝禮	-11.6067
蓐	-11.6067
墠	-11.6068
唐玄宗	-11.6068
勦	-11.6068
梵炁彌羅	-11.6069
茗	-11.6069
極瑶天	-11.6071
嶮	-11.6071
娑訶	-11.6072
煑	-11.6077
熬	-11.6081
摽	-11.6081
趙丞	-11.6084
沆	-11.6091
眇莽	-11.6182
生死受頼其福難勝故曰	-11.6195
帝主兆民行是功德有災之日發心修齋	-11.622
金鉞前戮	-11.629
噬嗑	-11.6425
封一通於	-11.6438
售	-11.644
謹據齋意	-11.644
霄度天	-11.644
登眞隱訣	-11.644
貳	-11.6441
麋	-11.6441
上清之天天帝	-11.6442
曦	-11.6443
峨峨	-11.6443
鍳	-11.6444
悚	-11.6445
一陰一陽之謂道	-11.6445
保制劫運使天長存	-11.6445
地藏發泄金玉露形	-11.6446
彷彿	-11.6446
萬壽宫	-11.6446
体	-11.6447
霎	-11.6447
保制劫運	-11.6447
薊	-11.6447
轉輪不惑便得神仙	-11.6448
陽中之陰	-11.6448
珪	-11.6448
無中生有	-11.6448
砌	-11.6448
元明文舉天	-11.6449
時物文理	-11.6449
劉大彬	-11.6449
黄帝中主	-11.6449
三日三夜	-11.6449
鍼	-11.6449
徉	-11.645
灰燼	-11.645
機在目	-11.645
性有巧拙可以伏藏	-11.645
能悉其章誦之十過諸天遥唱萬帝設禮	-11.645
喜怒哀樂	-11.6451
章第二十	-11.6451
涕唾	-11.6451
斌	-11.6451
大修行人	-11.6451
三皇内文	-11.6451
陜	-11.6452
誦之千徧	-11.6452
稷	-11.6452
朽骸	-11.6452
舟楫	-11.6452
所以爾者學士	-11.6452
噬	-11.6453
歐	-11.6454
無量普度天人道言凡有是經能爲	-11.6454
傾土歸仰咸行善心	-11.6454
坊	-11.6454
者何也鍾曰	-11.6454
經始出教一國以道預有至心宗奉禮敬	-11.6454
峽	-11.6454
玉山上京	-11.6454
廽	-11.6455
猫	-11.6455
拽	-11.6455
曄	-11.6455
瑋	-11.6455
馳騁	-11.6456
訊	-11.6456
乂	-11.6457
帽	-11.6457
鳧	-11.6457
生者死之根死者生之根	-11.6457
内諱百靈之隱名也	-11.6458
碍	-11.6458
厄大聖北斗七元君能解	-11.6458
脅	-11.6458
繳	-11.6458
本命之日誦詠是經	-11.6459
尋聲救苦	-11.646
販	-11.646
猴	-11.646
滂	-11.646
天性人也人心機也	-11.646
太安皇崖天	-11.6461
劉海蟾	-11.6461
弛	-11.6461
紆	-11.6461
元始即於	-11.6461
纒綿	-11.6462
神仙抱一之道	-11.6462
汝等當知	-11.6462
毗陵	-11.6462
騶	-11.6463
善明童子	-11.6463
誠惶誠恐	-11.6464
纏綿	-11.6465
天發殺機	-11.6466
殂	-11.6467
誠惶誠恐稽首頓首	-11.6467
弔	-11.6469
隕	-11.647
如彈丸	-11.647
陰中陽	-11.6471
拉	-11.6472
傘	-11.6474
逵	-11.6474
極風天	-11.6474
蠟	-11.6475
湍	-11.6485
道言此二章並是諸天上帝及至靈	-11.6495
洙	-11.6495
姝	-11.6513
鶴唳	-11.6521
卷之六	-11.6564
風火無停	-11.6612
仙道貴生无量度人	-11.6742
侍經五帝玉童玉女各二十四人營	-11.6747
快活	-11.6821
齊到帝前	-11.6855
恢漠	-11.6856
琰	-11.6856
甯	-11.6857
潯	-11.6858
玲瓏	-11.6858
臣道一曰	-11.6859
㖿	-11.6859
窅	-11.6859
彬	-11.686
譏	-11.686
一點眞陽	-11.6861
中有度人不死之神	-11.6862
炊	-11.6862
龍變梵度天	-11.6862
槃	-11.6862
提挈	-11.6863
舫	-11.6863
末學之夫亦有疾傷	-11.6863
倐	-11.6864
栁	-11.6864
霓裳	-11.6865
毅	-11.6865
帆	-11.6865
幄	-11.6865
卞	-11.6865
崐	-11.6866
梢	-11.6866
瀑	-11.6866
刀山食火	-11.6866
氛穢地無祅塵冥慧洞清大量玄玄也	-11.6866
嘯歌噰噰	-11.6866
疫毒流行兆民死傷	-11.6866
虚室生白	-11.6867
上世亡魂	-11.6867
鵝	-11.6867
吟詠洞章	-11.6867
張道陵	-11.6867
旋斗歷箕	-11.6868
襪	-11.6868
齊唱後吹	-11.6868
㓂	-11.6868
蛙	-11.6868
瑤	-11.6869
大衍之數	-11.6869
東嶽上卿	-11.6869
遊觀太空	-11.6869
恡	-11.687
弁	-11.687
全其本年	-11.687
元始祖劫化生諸天	-11.687
元始登引天眞大神上聖髙尊妙行眞人	-11.687
汝等徒衆	-11.687
腭	-11.6871
天之至私用之至公	-11.6871
眼耳鼻舌	-11.6871
贍	-11.6871
硫	-11.6872
說經八徧西北无極无量品	-11.6872
騾	-11.6872
西山記曰	-11.6872
鍊炁變仙	-11.6872
趍	-11.6872
厖	-11.6872
繚繞	-11.6872
卿直符從官十	-11.6873
說經三徧西方无極无量品	-11.6873
潼	-11.6873
旋斗歷箕回度五常	-11.6873
端靖天	-11.6873
吞火食炭	-11.6874
灘	-11.6874
轆	-11.6874
說經二徧南方无極无量品	-11.6874
贅	-11.6874
蟬蜕	-11.6874
聮	-11.6874
參校曰	-11.6874
孜孜	-11.6875
啻	-11.6875
兕	-11.6875
笪	-11.6876
龕	-11.6876
黑天魔王	-11.6876
承誥奉行列師銜	-11.6877
檐	-11.6877
顓頊	-11.6877
玉完天	-11.6878
一乘海空寳藏	-11.6878
窆	-11.6878
崿	-11.6878
賄	-11.6879
診	-11.6879
遼廓	-11.688
兎	-11.6881
和不可思議功德	-11.6884
繆	-11.6886
𠂻	-11.6887
頷	-11.6888
效心盟天而傳輕泄漏慢殃及九祖長役	-11.6888
璈	-11.6889
赭	-11.689
鞍	-11.6892
哆	-11.6893
道言夫天地運終	-11.6893
莫大於	-11.6894
諶	-11.6905
瀹	-11.6907
飛天神王下觀其身書其功勤上奏諸天	-11.6915
瑰	-11.6916
五帝玉童玉女各二十四人營衛神文保	-11.699
諸靈官臣聞	-11.6998
言無韻麗曲無華宛	-11.7046
輕誦此章身則被殃	-11.7051
神霄玉府	-11.7139
飛天上僊官各十	-11.7277
門攝之若	-11.7279
搯中指中	-11.728
非世之常辭上聖已成眞人通玄究微	-11.7282
乹	-11.7285
下宫女青律文受者明愼奉行太	-11.7286
錯綜	-11.7288
萬靈振伏	-11.7289
昔書其文以爲正音	-11.7291
欒	-11.7292
眞龍眞虎	-11.7292
五篇眞文	-11.7292
溜	-11.7292
杭	-11.7293
之神龍宫官屬	-11.7294
負石塡河之役	-11.7294
廻十過以召十方始當詣座	-11.7294
亢旱	-11.7295
悼	-11.7295
樽	-11.7295
覧	-11.7295
殽	-11.7296
奧	-11.7297
皷	-11.7297
碌	-11.7297
嵒	-11.7297
畋	-11.7298
懋	-11.7298
插	-11.7299
笠	-11.7299
傭	-11.7299
僣	-11.7299
戶	-11.7299
腋	-11.73
中天真皇人曰凡修飛仙之道當以	-11.73
刼	-11.73
瞽者善聽聾者善視	-11.73
皆受護度咸得長生	-11.7301
天三生木	-11.7301
不驕樂天	-11.7301
中天眞皇人曰修飛仙之道當以	-11.7302
這些	-11.7302
阮樂天	-11.7302
玄明恭華天	-11.7302
涕泣	-11.7302
錄	-11.7302
是爲大梵天中之天	-11.7302
殫	-11.7302
道備剋得遊行三界昇入金門此音	-11.7302
攜	-11.7303
炷	-11.7303
洋洋	-11.7303
一生二二生三	-11.7303
降眞召靈	-11.7304
燒香誦經十過皆諸天記名萬神侍衛	-11.7304
訂	-11.7305
既入珠口不知所在	-11.7305
差忒	-11.7305
億乗萬騎浮空而來	-11.7305
膳	-11.7306
劇	-11.7306
翩翩	-11.7306
北酆明檢鬼營不得容隱金馬驛呈普告	-11.7307
耳目聰明	-11.7307
說經四徧北方无極无量品	-11.7307
本來面目	-11.7307
滛	-11.7307
釗	-11.7308
留形住世	-11.7308
絶利一源	-11.7308
蘊	-11.7308
歷關諸天	-11.7308
貪嗔癡	-11.7308
冊	-11.7309
倡	-11.7309
違科犯	-11.7309
淵通元洞天	-11.7309
九州社令	-11.731
睠	-11.731
澇	-11.731
天中之音天中之尊天中之神	-11.7311
璨	-11.7311
不忠不孝	-11.7312
彗孛	-11.7312
牲	-11.7312
汗漫	-11.7313
渇	-11.7313
渤	-11.7314
風澤洞虚	-11.7314
叔火王	-11.7314
宋徽宗政和	-11.7314
昻	-11.7315
彗	-11.7315
穰	-11.7315
天生天殺道之理也	-11.7316
嬴	-11.7317
嶠	-11.7317
緱	-11.7319
蛾	-11.7319
浚	-11.7319
何也廣成子曰	-11.732
隱祕之音皆是大梵之言非世上常辭	-11.7321
二百四十	-11.7321
玄都中宫女青律文受者明慎奉行	-11.7321
矚	-11.7322
蓬島	-11.7323
賞罰	-11.7323
犯者過去受	-11.7324
持是經人名	-11.7324
拖	-11.7324
噏	-11.7327
僑	-11.733
酢	-11.7357
敕制地祇	-11.7584
皆得度世道言元始天尊說經中所言	-11.7632
福地仙官聖衆	-11.7679
泠	-11.7721
畞	-11.7728
府眞神道	-11.773
悠	-11.7739
崢嶸	-11.7744
碁	-11.7745
衿	-11.7747
一如吿命	-11.7747
禍及七祖翁道言此二章並是諸天上帝	-11.7748
執籙把籍齊到帝前隨所應度嚴校諸天	-11.7748
𡻕	-11.7748
𢖍	-11.7749
太平興國	-11.7749
霓旌	-11.775
臥	-11.775
爍爍	-11.775
龍蹻經	-11.7751
迤邐	-11.7751
兀兀	-11.7751
儕	-11.7751
閫	-11.7751
沿	-11.7752
兜	-11.7752
涅	-11.7752
魂神澄正萬炁長存不經苦惱身有光明	-11.7753
渝	-11.7754
萎	-11.7754
隱顯莫測	-11.7754
鷗	-11.7754
天人仰看	-11.7755
膿	-11.7755
杖屨	-11.7755
四字祕天之	-11.7756
瘖	-11.7756
坂	-11.7756
西城王君	-11.7756
四象生八卦	-11.7756
信受奉行	-11.7757
搯玉清訣	-11.7757
涬	-11.7757
中有南上司命司録延壽益筭度厄尊神	-11.7757
蚌	-11.7757
苞	-11.7758
之罪懴悔弟子或	-11.7758
涣	-11.7759
貲	-11.7759
隱韻離合自然	-11.7759
飼	-11.7759
槌	-11.7759
玉珮金璫	-11.776
緜	-11.776
専	-11.776
說經都竟衆真監度以授於我當此之時	-11.776
泮	-11.7761
翱翔	-11.7761
飱	-11.7762
磻	-11.7762
善種大王	-11.7762
也此四字書	-11.7762
上揲阮樂天	-11.7762
說經七徧西南无極无量品	-11.7762
迅雷烈風莫不蠢然	-11.7762
說經十徧下方无極无量品	-11.7762
銳	-11.7763
掀翻	-11.7763
譬諭	-11.7763
鋸	-11.7763
君臣父子	-11.7764
星宿錯度日月	-11.7764
顯定極風天	-11.7765
普受開度死魂生身	-11.7765
用師萬倍	-11.7765
懀	-11.7765
舐	-11.7765
九竅之邪在乎三要可以動靜	-11.7766
籛	-11.7766
鄞鄂	-11.7766
无量爲萬道之宗巍巍大範德難可勝	-11.7766
寤寐	-11.7766
閽	-11.7766
竄	-11.7766
羶	-11.7766
獰	-11.7766
鑊	-11.7766
蠅	-11.7767
萍	-11.7768
南宮延生	-11.7768
跋	-11.7768
閡	-11.7768
晞	-11.7768
年月朔日時告行	-11.7768
玉笥山	-11.7769
賑	-11.7769
天尊告曰	-11.7769
溉	-11.7773
娉	-11.7773
濛濛	-11.7773
恭華天	-11.7774
壟	-11.7776
无上洞清混沌自然	-11.7776
裒	-11.7777
婺	-11.7777
勃勃從珠口中入	-11.7777
蒿	-11.7778
以是之故	-11.7778
禍及七祖翁	-11.7785
始當詣座	-11.7795
腠	-11.7806
曵	-11.7806
眞大神上聖髙尊妙行眞人	-11.7806
琯	-11.7809
文舉天	-11.782
得度世道言元始天尊說經中所言並是	-11.7904
神明護門	-11.81
延壽長年後皆得作尸解之道	-11.8113
神王長生大聖无量度人	-11.8178
魁𩲃𩵄䰢魓𩳐魒	-11.8208
以爲效信	-11.8216
盍	-11.8219
嶂	-11.8221
磁	-11.8222
落滅惡根	-11.8223
上下兩弦	-11.8223
凰	-11.8223
九嶷山	-11.8224
粧	-11.8224
愉	-11.8224
等志心歸命禮	-11.8225
敷落五篇	-11.8226
我位上王	-11.8226
玄都左宫女青律文受者明愼奉行太	-11.8226
隣	-11.8227
犀	-11.8227
千和萬合自然成眞	-11.8227
鑾	-11.8227
陰中有陽	-11.8227
沮	-11.8227
青腰玉女	-11.8227
太玄道父	-11.8227
朦	-11.8228
十轉回靈	-11.8229
嫩	-11.8229
呉	-11.823
庻	-11.823
芸芸	-11.823
惰	-11.823
玄都右宫女青律文受者明慎奉行	-11.823
混而爲一	-11.823
非空非有	-11.823
蚪	-11.8231
嵇	-11.8231
杳杳㝠㝠	-11.8232
姆	-11.8232
繹	-11.8232
靉	-11.8232
天神地祇	-11.8232
中有南極長生之君	-11.8232
中理五炁混合百神	-11.8232
無生無滅	-11.8233
杲	-11.8233
兖	-11.8233
慚愧	-11.8233
崗	-11.8233
嵯	-11.8233
天中大魔天中之靈	-11.8234
醺	-11.8234
縊	-11.8234
魔王敬形	-11.8234
隘	-11.8234
日魂月魄	-11.8234
九和十合變化上清	-11.8234
苦惱身有光明三界侍衛五帝司迎	-11.8234
禆	-11.8235
三界侍衛五帝司迎	-11.8235
詈	-11.8235
漚	-11.8235
髙上玉皇滿願寳懴	-11.8236
抽鉛添汞	-11.8236
逓	-11.8236
彎	-11.8236
櫛	-11.8236
皓庭霄度天	-11.8236
鉉	-11.8236
殃及九祖	-11.8236
昊天玉皇上帝	-11.8236
身得神仙諸天書名黄籙白簡削死上生	-11.8236
瀾	-11.8237
珞	-11.8237
珎	-11.8237
綿綿若存用之不勤	-11.8237
說經九徧上方无極无量品	-11.8237
登道岸	-11.8237
幨	-11.8238
說經五徧東北无極无量品	-11.8238
攷	-11.8238
三界侍衞五帝司迎	-11.8238
延壽益筭	-11.8239
當知是人	-11.824
堂修行至經無量度人願所啓上徹	-11.824
十遍周竟十方無極	-11.824
同氣皆當齊心修齋六時行香十遍轉經	-11.824
譯	-11.824
燠	-11.824
佺	-11.8241
國安民	-11.8241
泠泠	-11.8241
榦	-11.8242
撒	-11.8242
上消天災保鎭帝王下禳毒害以度兆民	-11.8242
濵	-11.8243
殟	-11.8243
𡖖	-11.8243
吉凶悔吝	-11.8244
慵	-11.8244
以是義故	-11.8244
萬範開張	-11.8245
閃爍	-11.8245
殗	-11.8245
三千三百度	-11.8246
觀妙先生	-11.8246
葵	-11.8247
霹	-11.8248
餞	-11.8249
翺翔	-11.8251
婪	-11.8251
滚	-11.8253
螟	-11.8255
睫	-11.8257
地獄罪第	-11.8259
狸	-11.826
郝	-11.826
隄防	-11.8262
天眞皇人昔書其文以爲正音	-11.8264
蜒	-11.8269
遒	-11.8275
漾	-11.8279
巘	-11.8287
罙	-11.8289
剉	-11.8292
遄	-11.8303
勑制地祇	-11.8378
萬神朝禮三界侍軒	-11.8431
十過以召十方	-11.8447
犧	-11.8699
幔亭	-11.8714
若有至人齎金寳質心依舊格告盟	-11.8717
執符把籙保命生根	-11.8717
亡故某人	-11.8718
受化更生	-11.8722
轝	-11.8724
稽首皈依虔誠讃詠	-11.8724
僉	-11.8724
億曽萬祖	-11.8724
疾除罪簿落滅惡根不得拘留逼合鬼群	-11.8724
餒	-11.8724
愡	-11.8725
萇	-11.8725
惹	-11.8726
石景水母	-11.8727
輻輳	-11.8727
口口相傳	-11.8727
奉聖㫖	-11.8727
礴	-11.8728
威未制天政	-11.8728
金魚玉龍各一枚	-11.8728
萬劫不原	-11.8728
森羅淨霐	-11.8728
瀟瀟	-11.8728
兜術天	-11.8728
𢍆	-11.8729
牋	-11.8729
覷	-11.8729
信禮無上大羅天	-11.8729
四炁朗清	-11.8729
亶婁阿薈	-11.873
能令衆生	-11.873
龍從火裏出	-11.873
硬	-11.873
赤書玉篇眞文	-11.873
大有妙庭	-11.8731
衆眞侍座	-11.8731
靈寳无量度人上經大法卷之五十	-11.8731
九和十合	-11.8732
靜黙山嶽吞煙萬靈振伏招集群仙天	-11.8732
三界五帝列言上清	-11.8732
五帝大魔萬神之宗	-11.8732
秤	-11.8732
總炁上元	-11.8732
回骸起死	-11.8732
烜	-11.8732
雷也三乃	-11.8733
紳	-11.8733
瑜	-11.8733
雷也四乃	-11.8733
半箇時	-11.8733
嘔	-11.8733
太釋玉隆騰勝天	-11.8734
雷也五乃	-11.8734
雷也二乃	-11.8734
楓	-11.8734
旃	-11.8734
牡	-11.8734
右别至人剋得爲聖君金闕之臣	-11.8735
三十二天三十二帝	-11.8735
百姓日用而不知	-11.8735
善男女等	-11.8735
黑帝通血	-11.8736
玉清无極總眞文昌大洞仙經	-11.8736
鎮其方民稱太平八節之日誦詠是經	-11.8736
之雷書曰一乃	-11.8736
侍香金童	-11.8736
億曾萬祖	-11.8736
僖	-11.8737
稜	-11.8737
說經六徧東南无極无量品	-11.8737
嚙	-11.8737
兩儀生四象	-11.8737
蚊	-11.8737
上開八門飛天法輪罪福禁戒宿命因縁	-11.8738
翁重天	-11.8738
春夏秋冬	-11.8738
佯	-11.8738
末學道淺	-11.8739
騭	-11.8739
珊瑚	-11.8739
太煥極瑶天	-11.8739
痢	-11.8739
福德立降消諸不祥无量之文普度	-11.8739
椒	-11.8739
殤	-11.874
如經故難遇設使	-11.874
元始即於寳珠之内	-11.874
志心皈命	-11.8741
下有强兵戰勝之術	-11.8741
清微元降大法	-11.8741
咬	-11.8741
週	-11.8741
撑	-11.8741
横天擔力	-11.8741
一陽初動	-11.8741
徤	-11.8742
緇	-11.8742
貞白先生	-11.8743
閔	-11.8743
道言凡誦是經十過	-11.8743
鋟	-11.8744
𦤺	-11.8744
磕	-11.8744
錐	-11.8745
屨	-11.8745
絆	-11.8746
劬	-11.8746
諂	-11.8747
殼	-11.8747
兠	-11.8747
歃	-11.8747
抉	-11.8749
敖	-11.875
詵	-11.8751
涿	-11.8751
濮	-11.8751
嚩	-11.8752
𡵯	-11.8752
棺槨	-11.8753
表一道玉皇嗣	-11.8755
如見不得認是	-11.8757
虫	-11.8761
砥	-11.8761
渟	-11.8761
禺	-11.8764
何也天眞皇人曰	-11.8769
无量品至眞大神无鞅之衆浮空而至	-11.8771
鶉	-11.8771
汶	-11.8782
鱠	-11.8825
來者有如	-11.8909
獅子白鶴羅列左右	-11.8956
保迎萬徧道備	-11.9001
神王長生度世无量大神並乗	-11.9113
下觀其身書其功勤	-11.9176
可加贈	-11.9242
沫	-11.9247
是男是女	-11.9248
無去無來	-11.9248
嗅	-11.9248
脘	-11.9248
當爾之時	-11.925
詹	-11.9251
氈	-11.9251
饑饉	-11.9251
讒	-11.9251
傾光回駕	-11.9251
河上公	-11.9252
損之又損	-11.9252
峨嵋	-11.9252
稠	-11.9252
先天先地	-11.9252
江寧府	-11.9252
沽	-11.9253
猗	-11.9253
太明玉完天	-11.9253
翛	-11.9254
譙	-11.9254
㔶	-11.9254
右篆是前	-11.9255
泒	-11.9255
滕	-11.9255
秖	-11.9255
蕙	-11.9256
東斗主筭	-11.9256
驀	-11.9256
愚人以天地文理聖我以時物文理哲	-11.9256
湫	-11.9257
天地運度亦有否終	-11.9257
倖	-11.9257
其詞略曰以爾	-11.9257
饗	-11.9258
翶	-11.9258
母隱子胎	-11.9259
再告左右侍眞曰	-11.9259
大梵隱語无量之音	-11.9259
玉符服符微祝曰	-11.9259
至簡至易	-11.926
觀明端靖天	-11.926
至尊几前	-11.926
蝦	-11.926
四千三百二十	-11.9261
无量之奥深不可詳	-11.9261
之隱名也非世之常辭	-11.9261
嵳	-11.9261
道言此諸天中	-11.9261
耄	-11.9261
縑	-11.9261
諫議大夫	-11.9262
𤔵	-11.9262
億曽萬祖幽魂苦爽皆即受度上	-11.9262
一如吿命風火驛傳	-11.9262
臈	-11.9262
芻	-11.9262
廻骸起死	-11.9262
出死入生	-11.9263
鎭國祚保天長存世世不絶常爲人君安	-11.9263
普得濟度全其本年無有中傷傾土歸仰	-11.9263
靈寳无量度人上經大法卷之六十	-11.9263
潦	-11.9264
羹	-11.9264
敢有干試	-11.9264
明檢鬼營	-11.9264
狎	-11.9264
青靈始老	-11.9265
穹窿	-11.9266
學之士修誦是經	-11.9266
已上正文	-11.9266
聞是說巳	-11.9266
天五生土	-11.9266
喜慶難言法事粗悉諸天復位	-11.9266
螻	-11.9267
下鎮人身	-11.9267
楮	-11.9267
天地運度否終日月五星虧盈至聖	-11.9267
迅雷烈風	-11.9267
正心誠意	-11.9267
入藥鏡	-11.9268
䑓	-11.9268
蘄	-11.9268
五行順治	-11.9269
功成行滿	-11.9269
神明護門斯經尊妙獨歩玉京度人	-11.9269
是謂無量普度無窮	-11.927
甌	-11.927
歉	-11.9271
潄	-11.9271
蔑	-11.9272
迯	-11.9273
旭	-11.9274
可特封	-11.9275
鼉	-11.9275
抺	-11.9276
窠	-11.9276
乙未年六月	-11.9278
生老病死	-11.928
謂弟子曰	-11.928
魘	-11.9281
魃	-11.9281
亹	-11.9281
鄱	-11.9282
君度南極	-11.9285
夫行初品宗旨	-11.9286
憊	-11.9292
杰	-11.9294
獬	-11.9294
韁	-11.9297
供養尊禮	-11.9668
夫齋戒誦經功德甚重	-11.9674
慳	-11.9711
爲丹田者此是	-11.9753
有祕上天文諸天共所崇泄慢	-11.9789
靈寳无量度人上經大法卷之三十	-11.9795
朧	-11.9797
鞏	-11.9797
窈窕	-11.9801
左右中三府	-11.9801
踴	-11.9801
叠	-11.9801
億乘萬騎浮空而來	-11.9802
无上内祕眞藏經卷之	-11.9802
魂精祕音内諱玉	-11.9802
揀	-11.9803
特降玉清道炁靈寳妙光	-11.9804
刁	-11.9805
象帝之先	-11.9806
嵩高山	-11.9806
朱陵度命天尊	-11.9806
颯	-11.9807
今月某日	-11.9807
三百八十四銖	-11.9808
具位臣姓	-11.9808
掀	-11.9808
天發殺機龍蛇起陸	-11.9808
脆	-11.9809
中有度世司馬大神中有好生韓君丈人	-11.9809
虎之弦氣	-11.9809
慇	-11.981
不知所終	-11.981
榭	-11.981
五文開廓普植神靈	-11.981
璚	-11.981
鍵	-11.981
下禳毒害以度兆民	-11.9811
朱書上二字向	-11.9811
梧	-11.9811
感而遂通	-11.9811
刮	-11.9811
制魔保舉度品南宫	-11.9812
歙	-11.9812
我命在我	-11.9812
仝	-11.9813
日月五星亦有虧盈至聖神人亦有休否	-11.9813
骨肉同飛	-11.9813
道言此諸天中大梵隱語無量之音舊文	-11.9813
旒	-11.9813
𦋇於頂上乃黙呪曰	-11.9813
執籙把籍齊到帝前	-11.9813
膩	-11.9814
三華離便	-11.9814
上聖高尊	-11.9814
謄	-11.9814
倏歘之間寂無	-11.9814
諸天中大梵隱語无量音	-11.9815
一乘海空祕宻寳藏	-11.9815
太素秀樂禁上天	-11.9815
返老還童	-11.9815
靈寳无量度人上經大法卷之十	-11.9816
上消天災保鎮帝王下禳毒害以度兆民	-11.9816
同氣皆當齊心修齋六時行香十徧轉經	-11.9816
山嶽藏雲	-11.9816
刀山食火二十四獄三塗五苦	-11.9816
鎮國祚保天長存世世不絶常爲人君安	-11.9816
泡	-11.9816
其第七第八二字	-11.9816
蹔	-11.9817
非長非短	-11.9817
請滅三惡斬絶地根	-11.9817
得爲九宫眞人本命之日誦詠是經	-11.9817
仰觀俯察	-11.9817
寂然不動感而遂通	-11.9817
向本命服	-11.9818
斷地逮役	-11.9818
一動一靜	-11.9819
窮理盡性	-11.9819
聖君金闕之臣諸天記人功過毫分無失	-11.9819
妊	-11.9819
萬帝設禮	-11.982
闠	-11.982
菲	-11.982
𥨸	-11.9821
倶	-11.9821
笄	-11.9821
林靈素	-11.9821
侖	-11.9821
組	-11.9821
悸	-11.9821
五金八石	-11.9821
傾土歸仰	-11.9821
膈	-11.9821
螺	-11.9821
旤	-11.9822
如雞子	-11.9822
皁	-11.9822
鷃	-11.9822
軻	-11.9822
太上靈寳朝天謝罪大懴卷之	-11.9823
笙簧	-11.9823
捩	-11.9824
蟆	-11.9824
擲火萬里流鈴八衝	-11.9825
兑	-11.9826
蟒	-11.9827
煬	-11.9827
矅	-11.9828
溷	-11.9828
勺	-11.9828
諠	-11.9828
太上一乘海空智藏經卷之	-11.9829
𩵄䰢	-11.9831
玉符羽章呪曰	-11.9832
慿	-11.9833
醪	-11.9833
清微元降大法卷之十	-11.9833
𤑔	-11.9834
埴	-11.9834
小人得之輕命	-11.9835
嚳	-11.9835
縞	-11.9836
梭	-11.9836
棒	-11.9837
潺	-11.9839
猥	-11.9841
蒨	-11.9842
蟹	-11.9843
月初三日	-11.9843
神仙兵馬無鞅數衆悉令下降	-11.9843
湄	-11.9844
䙱	-11.9846
慜	-11.9847
過閉目靜思身坐青黄白三色雲氣之中	-11.9849
六百萬歳	-11.9852
輳	-11.9856
顓	-11.9856
蹶	-11.9857
滉	-11.9862
愬	-11.9878
各有生門中有	-11.989
萬災不干	-11.9942
一國地土山川林木緬平一等無復髙下	-11.9976
道言凡有是經能爲天地	-12.0064
十轉回靈萬炁齊仙	-12.0268
使者眞形符	-12.0355
洫	-12.0371
靈寳无量度人上經大法卷之四十	-12.0383
糠	-12.0383
瑣	-12.0383
悞	-12.0384
善信男子女人	-12.0387
梵監須延天	-12.0388
箴	-12.039
白帝侍魄	-12.039
褥	-12.0392
邕邕	-12.0392
劉混康	-12.0392
礪	-12.0392
充左右二官	-12.0393
號志心歸命禮	-12.0393
廳	-12.0395
九老仙都君	-12.0395
今辰弟子	-12.0395
税	-12.0396
鷺	-12.0396
鏁	-12.0397
光玉皇天尊欽惟玉帝	-12.0397
消魔玉符訣曰當	-12.0398
本命生辰	-12.0398
執天之行	-12.0398
巴元醜伯	-12.0398
犯伐功斷事	-12.0398
鬧	-12.0398
鰲	-12.0398
左日右月	-12.0398
緡	-12.0399
飜	-12.0399
無量度人上品妙經卷之三十	-12.0399
瑯	-12.04
風刀之考	-12.04
奉辭而退	-12.04
伏御地祇束縳魔靈	-12.0401
𢹂	-12.0401
光無文不明無文不立無文不成無文不	-12.0401
北斗落死	-12.0401
同時稱善	-12.0401
鍚	-12.0402
詛	-12.0402
昱	-12.0402
雛	-12.0402
玷	-12.0402
鱉	-12.0402
青帝護魂	-12.0402
諸徒衆	-12.0402
紫虚鬱秀輔翼萬仙	-12.0402
盲者目明	-12.0402
瞑	-12.0402
曖	-12.0403
僮	-12.0403
臣謹言曰	-12.0403
葉文叔	-12.0403
磐	-12.0404
道言是時元始天尊說經一徧東方	-12.0404
生死受賴其福難勝故曰无量普度天人	-12.0404
積功累行	-12.0404
威未制天政德可伏御地祇	-12.0405
吊	-12.0406
攄	-12.0406
餉	-12.0406
肘後飛金精	-12.0406
說經三遍西方無極無量品	-12.0406
說經四遍北方無極無量品	-12.0406
齊同慈愛異骨成親	-12.0406
恩生於害	-12.0406
蓼	-12.0406
羌	-12.0407
說經二遍南方無極無量品	-12.0407
行住坐卧	-12.0407
弋	-12.0407
缾	-12.0407
十回度人	-12.0407
楫	-12.0407
釐	-12.0407
疫毒流行	-12.0407
宂	-12.0408
上天度人嚴攝北酆	-12.0408
恍恍惚惚其中有物	-12.0409
禽之制在炁	-12.0409
囗	-12.0409
噓	-12.0409
凭	-12.0409
砭	-12.0409
濟度垂死絶而得生所以爾者學士	-12.041
難思議	-12.041
㝢	-12.041
之臣良謹言	-12.041
楝	-12.041
狠	-12.0411
他效此占	-12.0411
鈐	-12.0412
俛	-12.0412
蹉跎	-12.0412
斬絶地根	-12.0412
糜	-12.0412
颼	-12.0412
罌	-12.0412
䂓	-12.0412
磧	-12.0413
哪	-12.0413
卭	-12.0413
琉璃	-12.0413
嘹	-12.0413
蓬萊都水	-12.0413
精神魂魄意	-12.0414
騎九億萬衆九天玄元太空洞虚自然	-12.0414
小陽九小百六	-12.0414
莱	-12.0414
牓	-12.0415
叮	-12.0415
蓑	-12.0415
楹	-12.0416
愷	-12.0416
瘧	-12.0416
鎗	-12.0418
彌羅無上天妙有玄	-12.0419
奬	-12.0419
禬	-12.042
脗	-12.0421
直日香官	-12.0422
拏	-12.0423
霾	-12.0424
天王之内名	-12.0425
聻	-12.0426
鑠	-12.0428
炫	-12.043
扆	-12.0432
燾	-12.0433
摳	-12.0434
九真妙戒	-12.0435
爕	-12.0437
嫂	-12.0438
眚	-12.0438
驤	-12.0447
學之士誦之十過則五帝侍衛三界稽首	-12.0488
屠割鬼爽	-12.0653
項生圓象光映十方如此分明宻呪曰	-12.076
寳不傳下世至士齎金寳效心盟天而傳	-12.0989
骨以受我	-12.0994
扐	-12.0999
溶溶	-12.1004
蒞	-12.1009
溫	-12.1009
急急如靈寳大法律令	-12.1012
因藉而生與之起滅不得相離是則皆空	-12.1013
是則爲空云何	-12.1014
空起滅同故以是因縁	-12.1014
飭	-12.1015
螢	-12.1015
靈化梵輔天	-12.1015
誼	-12.1015
庾	-12.1015
鼇	-12.1015
衆等志心皈命大	-12.1016
終而復始	-12.1016
憾	-12.1017
玄胎平育天	-12.1017
國主有災兵革四興	-12.1017
蘚	-12.1017
庖	-12.1017
屐	-12.1017
潁	-12.1017
硤	-12.1017
筏	-12.1018
蘇幕遮	-12.1018
怱	-12.1019
招集群仙	-12.1019
七八九六	-12.1019
潑	-12.102
遡	-12.102
无所不辟无所不禳无所不度无所不成	-12.102
裊	-12.102
盼	-12.102
細雨密霧	-12.102
瓔	-12.1021
靈風聚煙	-12.1021
五文開廓	-12.1022
永度三塗五苦八難超凌三界逍遥上清	-12.1022
與天地合德	-12.1023
具法位臣姓某	-12.1023
屣	-12.1023
無質生質	-12.1023
枯骨更生皆起成人	-12.1023
二寸四分	-12.1024
說經九遍上方無極無量品	-12.1024
眹	-12.1024
四千六百	-12.1024
琥	-12.1025
之上說經一徧諸天大聖同時稱善是時	-12.1025
遺響是時天人遇值經法普得濟度	-12.1025
靈篇辭參髙眞第一	-12.1025
天上天下無幽無㝠無形無影無極無窮	-12.1025
灣	-12.1025
碓	-12.1026
叚	-12.1026
魓	-12.1026
炅	-12.1026
中部八景洞玄飛行自然靈寳神僊	-12.1026
滲	-12.1027
靈寳无量度人上經大法卷之二十	-12.1027
羽林監	-12.1027
說經六遍東南無極無量品	-12.1027
升太空過度三界位登	-12.1027
魔精喪眼鬼祅滅爽	-12.1027
牎	-12.1028
穢氣未消體未洞眞	-12.1028
褻	-12.1028
犁	-12.1029
恵	-12.1029
億劫種親	-12.1029
蚤	-12.1029
善男子善女人	-12.1029
辭參髙真第一	-12.1029
上部八景洞天飛行自然靈寳神僊	-12.103
臯	-12.103
饉	-12.103
不得久停	-12.103
噪	-12.1031
度人百魔隱韻離合自然	-12.1031
涪	-12.1031
本行集經	-12.1031
三色雲氣之中内外蓊冥	-12.1031
下部八景洞靈飛行自然靈寳神僊	-12.1031
濠	-12.1031
刀利禪猷	-12.1031
無量之福生死蒙惠上天所	-12.1031
至仁至孝至聖至慈聖	-12.1032
中部三十二天洞玄	-12.1032
太皇翁重浮容天	-12.1032
非内非外	-12.1032
入闇獄	-12.1032
國人廓散地還平正	-12.1032
竺落皇笳天	-12.1032
叩齒三十二通	-12.1032
满	-12.1033
萬劫還生不人之道	-12.1033
一撞三關	-12.1033
斿	-12.1033
郴	-12.1033
窻	-12.1033
将	-12.1034
貶	-12.1034
璜	-12.1034
蕊	-12.1034
虵	-12.1034
八十七萬二千	-12.1035
心生於物死於物機在目	-12.1035
陶弘景	-12.1035
杻	-12.1036
斐	-12.1036
聞吾呼召	-12.1036
太素三元君	-12.1036
徑御無上三十二天元始上帝至尊几前	-12.1036
神人休否末學之夫疾傷凡有此災	-12.1036
勛	-12.1037
綻	-12.1037
禍發必剋	-12.1037
聒	-12.1037
櫃	-12.1038
醎	-12.1038
驅雷役電	-12.1038
糾	-12.1038
䑕	-12.1039
監醜朗馥	-12.1039
千千截首萬萬剪形	-12.1039
錮	-12.1039
闍	-12.1039
仆	-12.1039
戕	-12.1039
之上說經一遍諸天大聖同時稱善是時	-12.1039
深根固蒂	-12.1041
修眞十書上清集卷	-12.1042
漙	-12.1042
蠁	-12.1043
某領録奉大道弟子某	-12.1043
𩵄	-12.1043
神霄玉清王府	-12.1043
綃	-12.1044
嗷	-12.1046
有諸罪人	-12.1046
寨	-12.1046
澍	-12.1046
柱下史	-12.1047
觚	-12.1048
飆	-12.1048
莾	-12.1048
悛	-12.1048
焴	-12.1049
搦	-12.105
謟	-12.105
𣲖	-12.1051
沔	-12.1052
懾	-12.1052
是持經人	-12.1052
穆天子傳	-12.1054
𨚧	-12.1056
毬	-12.1058
脛	-12.106
吻	-12.1062
蜿	-12.1063
兟	-12.1069
蕆	-12.1085
今日校録諸天臨軒	-12.1098
寳不傳下世至士齎金寳	-12.1169
歷關諸天請滅	-12.1276
上天所寳祕於玄都紫微	-12.1425
如前吸咽吹水鏡	-12.1628
輕泄漏慢殃及九祖長役鬼官侍經	-12.1654
冽	-12.1669
藁	-12.1674
旄	-12.1674
君一人官將一百二十人	-12.1676
繋	-12.1676
千乘萬騎	-12.1677
神王長生大聖無量度人南方無極	-12.1677
逼合鬼群	-12.1677
神王長生大聖無量度人西方無極	-12.1677
法自生是知	-12.1678
得道之後昇入無形	-12.168
神王長生大聖無量度人東北無極	-12.168
皆當修齋行香誦經	-12.168
神王長生大聖無量度人東南無極	-12.1681
神王長生大聖無量度人西南無極	-12.1681
神王長生大聖無量度人西北無極	-12.1681
名爲恬愉我說	-12.1682
神王長生大聖無量度人上方無極	-12.1682
元始符命時刻升遷	-12.1683
瓮	-12.1684
荘	-12.1684
店	-12.1684
髏	-12.1684
九萬九千	-12.1685
冥慧洞清	-12.1685
黄華蕩形	-12.1686
普吿三界	-12.1686
視之不見聽之不聞	-12.1686
龍之弦氣	-12.1687
漉	-12.1687
蠧	-12.1687
桂香内殿文昌輔宫	-12.1688
鬬	-12.1688
施肩吾	-12.1688
蹉	-12.1689
蒜	-12.1689
曜明宗飄天	-12.1689
五嶽眞形圖	-12.169
淳祐九年	-12.169
憍	-12.169
攴	-12.1691
褚	-12.1691
精津氣血液	-12.1691
誚	-12.1691
高虚清明天	-12.1691
說是語巳	-12.1692
圓陀陀	-12.1692
孑	-12.1692
色衆真侍座元始天尊玄坐空浮	-12.1692
檀熾鈞	-12.1693
姧	-12.1693
𩳐	-12.1693
賞善罰惡	-12.1693
髙虚清明天	-12.1694
太極平育賈奕天	-12.1694
喑	-12.1694
噠	-12.1694
匡御衆魔	-12.1694
憔	-12.1694
伶	-12.1694
魔無干犯鬼無祅精	-12.1694
硃	-12.1695
罪福禁戒宿命因縁普受開度	-12.1695
攘	-12.1695
凄	-12.1695
眇眇劫仞若亡若存	-12.1695
串	-12.1695
東方安寳華林青靈始老	-12.1696
𦋇	-12.1696
嘯命風雷	-12.1696
怏	-12.1696
某月某日	-12.1696
甃	-12.1696
痰	-12.1696
故曰食其時百骸理動其機萬化安	-12.1697
靜黙山嶽吞煙萬靈振伏	-12.1697
鎬	-12.1698
陰盡陽純	-12.1698
說經五遍東北無極無量品	-12.1698
身得神仙諸天書名黃籙白簡削死上生	-12.1698
元始上帝告左右侍眞曰	-12.1698
負天擔石	-12.1698
鶯	-12.1698
嚴攝北酆	-12.1699
嚀	-12.17
澈	-12.17
西方七寳金門皓靈皇老	-12.1701
玉音攝氣靈風聚	-12.1701
剩	-12.1701
淆	-12.1701
上天眷命皇帝聖㫖	-12.1701
摭	-12.1701
鉗	-12.1702
甥	-12.1702
等志心稽首禮謝无上	-12.1702
粘	-12.1702
說經七遍西南無極無量品	-12.1703
郢	-12.1703
不得又仙五犯	-12.1703
動其機萬化安	-12.1703
桀	-12.1704
慟	-12.1704
沁園春	-12.1704
宇宙在乎手	-12.1704
縶	-12.1704
素奏丹符	-12.1704
聞是語巳	-12.1705
冗	-12.1705
㓕	-12.1705
說經十遍下方無極無量品	-12.1706
様	-12.1706
芋	-12.1706
惋	-12.1707
日月有數大小有定聖功生焉神明出焉	-12.1707
氅	-12.1708
用師十倍	-12.1709
盟天而傳輕泄漏慢殃及九祖長役鬼官	-12.171
逋	-12.171
正謂此也	-12.1711
珊	-12.1711
亢倉子	-12.1712
畦	-12.1712
眞境渺渺紫金闕太微玉清宫	-12.1712
駁	-12.1712
無任精虔激切之至謹奉表奏告以聞	-12.1713
沂	-12.1714
嘶	-12.1717
廩	-12.1717
三天扶教輔元大法	-12.1717
堕	-12.1718
邏	-12.1719
負石填河	-12.1719
逗	-12.172
槍	-12.1721
撚	-12.1722
殳	-12.1723
匏	-12.1723
四百萬歳	-12.1725
纛	-12.1726
嵬	-12.1727
萼	-12.1729
顫	-12.1731
絛	-12.1732
莎	-12.1741
琛	-12.1791
天真自然之音也故誦之致飛天下觀	-12.1857
蟉	-12.1866
無上玄元太上道君召	-12.1913
无量上品元始天尊當說是經周	-12.1921
千千截首	-12.1987
昇太空過度三界位登仙公有聞靈音	-12.2063
上宫依玄科四萬劫一傳若有至人齎	-12.2313
害命坐人	-12.236
謠	-12.2365
著諸小兒	-12.2377
符師曰凡人	-12.2381
彝	-12.2381
佚	-12.2383
翽	-12.2385
揉	-12.2386
刅	-12.2388
乾道成男坤道成女	-12.2389
五行生成之數	-12.239
純陽帝君神化妙通紀卷之	-12.2391
甓	-12.2392
瀘	-12.2393
盎	-12.2393
光透簾幃	-12.2394
解禳山谷瘴癘	-12.2394
掉	-12.2395
㗸	-12.2395
鋭	-12.2395
神王長生大聖無量度人下方無極	-12.2395
舊科七千年	-12.2395
糺	-12.2396
逭	-12.2396
賒	-12.2397
簧	-12.2398
攅	-12.2398
茆	-12.2398
狡	-12.2398
運應滅度身經太隂	-12.24
熳	-12.24
日月停景璇璣不行	-12.24
翩	-12.24
喑者能言	-12.2401
闋	-12.2401
无文不光无文不明无文不立无文不	-12.2401
覈	-12.2401
侶	-12.2401
涇	-12.2401
匕	-12.2402
愜	-12.2402
我以時物文理哲	-12.2402
自午至亥	-12.2402
南方梵寳昌陽丹靈眞老	-12.2402
跛痾積逮皆能起行	-12.2402
承天效法	-12.2403
成无文不度无文不生	-12.2403
山嶽吞煙	-12.2403
衒	-12.2403
喜慶難言	-12.2403
膻	-12.2404
襃	-12.2404
疥	-12.2404
蕉	-12.2404
鄭思遠	-12.2405
濟度垂死絶而得生	-12.2406
天人合發萬變定基	-12.2406
耘	-12.2406
汰	-12.2406
司徒師坦	-12.2406
說經八遍西北無極無量品	-12.2407
傚	-12.2407
左街道録	-12.2407
魂度朱陵受鍊更生是謂无量普度	-12.2407
虚明堂曜天	-12.2407
從劫至劫	-12.2407
知白守黑	-12.2407
鹵	-12.2407
中上二字書	-12.2408
吠	-12.2408
溟涬大梵遼廓無光	-12.2408
㝠慧洞清大量玄玄也元始	-12.2408
岀臣身中三五功曹左右官使者侍香	-12.2408
壙	-12.2408
萬神朝禮名書上天功滿徳就飛昇上清	-12.2409
三十六部尊經	-12.2409
升此天釋云	-12.2409
魂神徑上南宫隨其學功計日而得更生	-12.2409
一之炁而成天境	-12.2409
逈	-12.241
髙上神霄玉清王祝曰	-12.241
順行虎向水中生	-12.241
一得永得	-12.241
飛度五戸	-12.241
善男善女	-12.241
北都寒池部衛形魂	-12.2411
到靈解山	-12.2411
上件亡魂	-12.2411
轉禮經懴	-12.2411
日朱書第五第六二字	-12.2411
而好學至經功滿	-12.2412
隲	-12.2412
晻	-12.2412
椽	-12.2412
一三五七九	-12.2412
應夢儲祥	-12.2412
皺	-12.2412
回屍起死白骨成人	-12.2412
明炁四騫	-12.2412
負石之役	-12.2412
猛馬四張	-12.2412
今日吉慶	-12.2413
絮	-12.2413
泆	-12.2413
難可思議	-12.2413
薨	-12.2413
元始天尊說經一徧東方无極无量品	-12.2414
箸	-12.2414
檻	-12.2414
邛	-12.2414
魔王監舉無拘天門	-12.2414
華都曲麗	-12.2414
太虚无上常融天	-12.2414
懌	-12.2415
憧	-12.2415
凹	-12.2415
鶩	-12.2415
陌	-12.2415
搖	-12.2415
音參洞章誦之百遍名度南宮誦之千遍	-12.2415
國人廓散地還平正無復欹陷元始即於	-12.2416
鬟	-12.2416
河海靜黙山嶽藏雲	-12.2416
三盜既宜三才既安	-12.2416
頫	-12.2416
保迎萬遍道備飛	-12.2416
迮國一半土皆偏䧟非可禁止於是元始	-12.2416
貪累苦形	-12.2417
無拘天門東斗	-12.2418
黯	-12.2419
爇	-12.2419
哂	-12.242
睨	-12.242
揈	-12.242
移星易宿	-12.2421
君子得之固躬小人得之輕命	-12.2422
鬛	-12.2422
定録君㖟言	-12.2423
无思江由天	-12.2423
皿	-12.2424
妥	-12.2424
滸	-12.2424
匆	-12.2424
喗	-12.2424
霪	-12.2424
十方湛寂眞常道恢漠大神	-12.2425
蹻	-12.2426
流鈴八衝	-12.2426
恭準元降	-12.2427
憲宗元和	-12.2427
迮國一半土皆偏陷非可禁止於是元始	-12.2428
衙	-12.2428
賺	-12.243
罟	-12.243
怛	-12.2431
睟	-12.2431
九千九百度	-12.2431
宋高宗紹興	-12.2432
虺	-12.2432
漪	-12.2433
吉凶法第	-12.2434
天眞自然之音也	-12.2434
縟	-12.2435
謳	-12.2435
之難所以爲大不易者	-12.2435
閶	-12.2436
迤	-12.2437
渦	-12.2437
腕	-12.2437
執鴈翎刀	-12.244
金龍驛傳	-12.2443
滇	-12.2443
頴	-12.245
摙	-12.245
紇	-12.2456
澒	-12.2459
繖	-12.2467
璉	-12.2468
軺	-12.2471
企	-12.2476
生身身得受生上聞諸天諸天之上	-12.2499
萬神朝禮地祇侍門	-12.2553
量之福生死䝉惠上天	-12.2576
帝遥唱萬神朝禮三界侍軒群祅	-12.2588
言無韻麗曲無華宛故謂玄奥難可尋詳	-12.2868
生死受頼其福難勝故曰无量普度天人	-12.2896
天真自然之音也故誦之致	-12.2986
金寳質心依舊格告盟十天然後而付焉	-12.3005
唳	-12.3082
詧	-12.3114
畊	-12.3155
肢	-12.3159
丞相南昌上宫韓司主録監生大神	-12.3159
泬	-12.3162
三家相見結嬰兒	-12.3162
東三南二同成五	-12.3162
普告三界无極神郷	-12.3164
拜表上章	-12.3164
粱	-12.3165
北一西方四共之	-12.3165
皆諸天記名萬神侍衛	-12.3165
神王長生大聖無量度人北方無極	-12.3166
泰玄都省	-12.3166
妙品元始天尊當說是經周	-12.3168
藂	-12.3168
阿人歌洞章以攝北羅酆	-12.3168
翼轅億乗萬騎浮空而來傾光回駕	-12.3168
帬	-12.3168
化屍受形	-12.3169
婿	-12.317
其福難勝	-12.317
五萬五千五百	-12.317
郵	-12.3171
螫	-12.3171
莢	-12.3171
懵	-12.3172
六七八九	-12.3173
七情六慾	-12.3173
至樂性餘至靜則廉	-12.3173
虎之弦炁也	-12.3173
㨿	-12.3174
愴	-12.3174
霹靂轟轟	-12.3174
襯	-12.3174
豚	-12.3174
普植神靈	-12.3175
束縳魔靈但却死而已不能更生	-12.3175
束縛魔靈	-12.3175
神王長生度世無量大神並乗	-12.3175
摺	-12.3176
誦之百徧名度南宫誦之千徧	-12.3176
尋聲赴感	-12.3176
保制劫運使天長存梵炁彌羅萬範開張	-12.3176
襁	-12.3176
洗心滌慮	-12.3176
日月照明洞煥室内	-12.3176
眥	-12.3176
嚞	-12.3176
攣	-12.3176
天无浮翳	-12.3176
撿	-12.3176
瀨	-12.3177
篡	-12.3177
薬	-12.3178
謌	-12.3178
甑	-12.3178
捜	-12.3178
挫	-12.3179
冡	-12.3179
黿	-12.3179
道言夫末學道淺或	-12.3179
久病痼疾	-12.318
汎景太霞嘯詠洞章	-12.318
沱	-12.318
反山六目	-12.318
大陽九大百六	-12.318
吐故納新	-12.318
雁	-12.318
悌	-12.318
竚	-12.3181
嘏	-12.3181
鎭其方民稱太平八節之日誦詠是經	-12.3181
天中空洞自然靈章	-12.3181
麝	-12.3181
惡口兩舌	-12.3181
天眞自然之音也故誦之致	-12.3182
抃	-12.3182
帑	-12.3182
後皆得作尸解之道	-12.3182
懊	-12.3182
項生圓象光映十方如此分明	-12.3182
上無復祖惟道爲身	-12.3182
衞神文保護受經者身	-12.3182
呢	-12.3183
蠹	-12.3183
朝屯暮蒙	-12.3183
罐	-12.3183
仁義禮智	-12.3183
䘵	-12.3183
五萬五千九百	-12.3183
天中第一第二二字	-12.3184
騷	-12.3184
有物混成先天地生	-12.3184
流羅梵萌	-12.3185
鑛	-12.3185
漳	-12.3185
帝玉司君	-12.3185
種罪報一者	-12.3186
朂	-12.3186
個	-12.3186
常應常靜	-12.3187
鄲	-12.3187
敭	-12.3187
鄴	-12.3187
元始天尊說經一遍東方無極無量品	-12.3187
紿	-12.3187
迺	-12.3188
普得濟度全其本年無有中傷	-12.3188
鴛	-12.3188
罅	-12.3188
厢	-12.3188
种	-12.3189
丘劉譚馬	-12.3189
懿宗咸通	-12.3189
闐	-12.319
卿比平安好遣書指不多及	-12.319
臨過之時同學至人	-12.3193
碭	-12.3193
磴	-12.3194
閴	-12.3197
散騎常侍	-12.3198
著想尊容	-12.3199
痺	-12.32
鮓	-12.3201
膂	-12.3202
閔巴狂	-12.3202
嗤	-12.3202
幟	-12.3204
㠯	-12.3204
涘	-12.3207
估	-12.3207
闃	-12.3207
萬神朝禮地祇侍門大勲魔王保舉	-12.3208
鍪	-12.3208
茱	-12.3212
敇	-12.3213
邕	-12.3215
珂	-12.3215
屹	-12.3215
煜	-12.322
賂	-12.322
擯	-12.3223
騤	-12.3225
慝	-12.3228
無量度人今日校録諸天臨軒東方無極	-12.3231
𤤠	-12.3258
蛆	-12.3259
言凡有是經能爲天地帝主兆民行是功	-12.3339
故謂玄奥難可尋詳上天所寳祕於玄都	-12.3512
斯經尊妙	-12.3646
下觀上帝遥唱萬神朝禮三界侍軒群祅	-12.3722
无量上品元始天尊當說是經周回十過	-12.3735
緬平一等無復髙下土皆	-12.3781
无量度人今日校録諸天臨軒東方无極	-12.3846
以召十方始當詣座天眞大神	-12.3921
墮地獄禍及七祖翁道言此二章並是	-12.3965
是謂无量普度无窮	-12.3979
嫰	-12.3981
宓	-12.3982
霶	-12.3986
敘	-12.3989
僝	-12.399
豺	-12.399
暦	-12.3991
玉誕長桑栢空度仙	-12.3991
金童傳言玉女五帝直符直日香官	-12.3991
斁	-12.3992
韵	-12.3993
變化助吾真靈攝召生炁爲亡過某化生	-12.3993
茸	-12.3995
緝	-12.3996
帯	-12.3996
獅	-12.3996
有災之日發心修齋焼香誦經十過	-12.3998
貰	-12.4
棊	-12.4
投胎奪舍	-12.4
隨所應度嚴校諸天	-12.4
易有太極是生兩儀	-12.4
蘋	-12.4
嶓	-12.4001
无想无結无愛天	-12.4002
筯	-12.4002
可不慎歟	-12.4003
弑	-12.4003
蝸	-12.4003
童玉女各二十四人	-12.4003
堤	-12.4003
太文翰寵妙成天	-12.4003
禽之制在氣	-12.4003
能聞是此香者	-12.4004
爨	-12.4004
芷	-12.4004
攔	-12.4004
瓣	-12.4004
攖	-12.4004
俻	-12.4005
蒙惠上天所寳不傳下世至士	-12.4005
歧	-12.4005
弦望晦朔	-12.4006
茟	-12.4006
青天魔王巴元醜伯赤天魔王負天	-12.4006
煦	-12.4007
拘魂制魄	-12.4008
中天星主紫微	-12.4008
安爐立鼎	-12.4008
寖	-12.4008
瘁	-12.4008
轉輪不滅便得神仙	-12.4008
上昇朱宫格皆九年受化更生得爲貴人	-12.4008
恂	-12.4009
心肝脾肺腎	-12.4009
攬姿運容	-12.4009
上上禪善无量壽天	-12.4009
羨	-12.4009
萬物皆備於我	-12.4009
糵	-12.4009
二四六八十	-12.4009
元始登引天真大神上聖髙尊妙行真人	-12.4009
崙	-12.4009
睢	-12.4009
右别至人尅得爲	-12.4009
制魔保舉度品南宫死魂受鍊仙化成人	-12.401
異骨成親	-12.401
玄坐空浮	-12.401
丰	-12.401
金蓮正宗記	-12.401
角亢氐房心尾箕	-12.4011
烝	-12.4011
人誦此章即	-12.4011
女虚危室壁	-12.4012
天之无恩而大恩生	-12.4012
凊	-12.4012
言无韻麗曲无華宛故謂玄奥難可尋詳	-12.4012
:	-12.4012
洄	-12.4012
炤	-12.4012
元始符命時刻昇遷北都寒池部衛形	-12.4012
冥慧洞清大量玄玄也	-12.4013
捨身受身	-12.4013
榼	-12.4013
無量之奥深不可詳	-12.4013
千和萬合自然成真真中有神	-12.4013
删	-12.4014
髽	-12.4014
福徳立降消諸不祥無量之文普度無窮	-12.4014
胎卵濕化	-12.4015
珀	-12.4015
可得聞乎鍾曰	-12.4015
豢	-12.4015
勾婁吉利	-12.4015
來者有如細雨宻霧	-12.4015
婆泥咎通	-12.4016
皆即受度飛昇南宫世人受誦	-12.4016
諳	-12.4016
龐	-12.4016
色聲香味觸	-12.4016
奎婁胃昴畢觜參	-12.4017
乃膜拜而受	-12.4017
芹	-12.4017
消魔玉符訣曰當朱書黄繒佩之存呼	-12.4017
素景燿靈	-12.4017
𩲙	-12.4017
顱	-12.4018
徳難可勝道言凡誦是經十過	-12.4018
黛	-12.4018
說經十遍下方无極无量品	-12.4018
帝主兆民行是功徳有災之日發心修齋	-12.4019
天騶甲卒	-12.4019
經靈符上清境	-12.4019
尪	-12.4019
輪轉不惑便得神仙道言夫天地運終	-12.4019
元始安鎮敷落五篇赤書玉字八威龍文	-12.4019
三花聚頂	-12.4019
喃	-12.4019
隥	-12.4019
窘	-12.4019
瞞	-12.402
塋	-12.402
永度三途五苦八難	-12.4021
嚧	-12.4021
甍	-12.4021
西斗記名北斗落死南斗上生中斗大魁	-12.4021
聖功生焉神明出焉	-12.4021
孰能與於此哉	-12.4022
聆	-12.4023
殢	-12.4023
迴十過以召十方始當詣座天	-12.4023
澀	-12.4023
鮮菩育臻	-12.4024
郄	-12.4025
辰戌丑未	-12.4026
㗶	-12.4026
酩	-12.4026
吾爲汝說	-12.4027
瀰	-12.4027
火生於木禍發必尅	-12.4028
還精補腦	-12.4029
鸚	-12.4029
呑	-12.403
在日辰陰陽中	-12.403
武宗皇帝加封	-12.4031
吞魔食鬼	-12.4032
元綱流演三十二天輪轉無色周	-12.4032
之報此乃深可畏	-12.4032
獄考鬼靈官酆都山	-12.4032
廖	-12.4033
蜚	-12.4034
波梨答惒天	-12.4034
畛	-12.4034
修眞十書雜著捷徑卷之二十	-12.4035
翬	-12.4035
躶	-12.4035
楠	-12.4036
嚤	-12.4037
筍	-12.4038
蚖	-12.4038
笻	-12.4038
崎	-12.4039
子後午前	-12.4039
邙	-12.404
徯	-12.4041
曼	-12.4041
鍔	-12.4041
崛	-12.4042
律曰男官女官主者	-12.4044
圯	-12.4045
葦	-12.4045
朶	-12.4046
嶇	-12.4046
釵	-12.4048
瘕	-12.4048
跼	-12.4049
玻	-12.405
喙	-12.4051
諸天共所崇泄慢墮地獄禍及七祖翁	-12.4054
顥	-12.4055
脹	-12.4058
祓	-12.4058
覆護受持是此經者敕命	-12.4072
呱	-12.4091
太清樂太清樂右十	-12.4097
中理五氣混合百神	-12.4758
檏	-12.4839
送迎拔出地戸五苦八難七祖升遷永離	-12.4851
萬有一千五百二十	-12.4891
癸生須急採	-12.4891
薤	-12.4895
世界无極國土解禳山谷瘴癘大神	-12.4895
醋	-12.4895
儘	-12.4895
娟	-12.4897
專氣致柔	-12.4897
糊	-12.4902
下觀其身書其功勤上奏諸天	-12.4903
六天洞淵大帝伏魔上上太一天尊六波	-12.4903
欀	-12.4903
墮地獄長劫受苦苦盡復生	-12.4903
宫太一大天帝保制劫運天尊	-12.4904
隨劫輪轉與天齊年	-12.4904
仔	-12.4904
缸	-12.4905
元梵恢漠幽寂度人	-12.4905
波羅尼密不驕樂天	-12.4905
瞎	-12.4905
金逢望遠	-12.4906
九天採訪使應元保運妙化	-12.4906
犯廢功斷事不得又仙	-12.4906
蝎	-12.4907
溪真仙官聖衆	-12.4907
靈寳天尊太清仙境	-12.4907
坤母東覆形攝上玄	-12.4907
幪	-12.4907
𧕏	-12.4907
磑	-12.4907
碧落浮黎空歌保珍	-12.4908
疾除罪簿落滅惡根	-12.4908
袒	-12.4908
欲界色界无色界	-12.491
烱	-12.491
上无復色下无復淵	-12.491
沉水入火自取滅亡	-12.491
聾病耳皆開聰	-12.4911
褁	-12.4911
俸	-12.4911
威靈恢廓	-12.4911
熛	-12.4912
二百一十有六坤之	-12.4913
哽	-12.4913
尫	-12.4913
清微元降大法卷之二十	-12.4913
玲	-12.4913
昃	-12.4914
有箇烏飛	-12.4914
之日朱書第三第四二字向	-12.4914
爲其行香誦經十過以度尸形如法	-12.4914
金樓玉殿	-12.4915
壻	-12.4915
無量上品元始天尊當說是經周	-12.4915
飛砂走石	-12.4916
淄	-12.4916
蕚	-12.4917
稼那阿奕忽訶流吟	-12.4917
一寒一暑	-12.4917
艤	-12.4917
拔出地户五苦八難	-12.4917
撤	-12.4918
爾不樂仙道三界那得過	-12.4918
姹	-12.4918
厥懿朕命惟允其鑒于兹可特封	-12.4919
舁	-12.4919
耻	-12.4919
聵	-12.4919
幢鼓節遊觀太空自號赫奕諸天齊功	-12.4919
急急如眞科律令	-12.4919
𣣱	-12.4919
修眞十書金丹大成集卷之	-12.492
无量之文普度无窮	-12.492
項生圎象光映十方如此分明宻呪曰	-12.492
七十二相八十一好	-12.492
榴	-12.492
雲上九都飛生自騫	-12.492
無量爲萬道之宗巍巍大範德難可勝	-12.492
皆方一丈八角煥明	-12.492
複	-12.4921
不得容隱金馬驛呈	-12.4921
八百一十丈	-12.4921
興隆世世昌熾與善因縁萬	-12.4921
青帝護魂白帝侍魄赤帝	-12.4922
自然之道靜故天地萬物生	-12.4922
𩴑	-12.4922
礦	-12.4922
犂	-12.4922
道言元始天尊說經中所言	-12.4923
驎	-12.4923
覆護受持是此經者我敕	-12.4923
群祅束首鬼精自亡琳琅振響十方肅清	-12.4923
荄	-12.4923
舉隨方救苦天尊	-12.4923
紫英玉惠元君	-12.4923
凡禱輒應吾民是依錫之新封用彰	-12.4923
戯	-12.4924
宗靈七非天宫	-12.4924
𧇊	-12.4924
馥朗廓奕神纓自宫	-12.4924
急急如律令太上三洞神呪卷之	-12.4924
玄憲仙格	-12.4924
廐	-12.4925
祿	-12.4925
明護門斯經尊妙獨歩玉亰度人	-12.4925
修眞十書卷之五十	-12.4925
黷	-12.4925
無有異色衆眞侍座元始天尊玄坐空浮	-12.4925
潜深淵浮游守規中	-12.4926
曝	-12.4926
埀	-12.4926
閥	-12.4926
但却死而已不能更生	-12.4926
韭	-12.4926
人知其神而神不知不神而所以神	-12.4926
非世上常辭	-12.4926
窮理盡性以至於命	-12.4927
寗	-12.4927
修眞十書雜著指玄篇卷之	-12.4927
奭	-12.4927
矍	-12.4927
焼香誦經十過皆諸天記名萬神侍衛	-12.4927
飛灑玉都明魔上門	-12.4927
生慳貪心或見	-12.4928
嚇	-12.4928
經靈符太清境	-12.4928
說經六遍東南无極无量品	-12.4929
天之無恩而大恩生	-12.4929
相吞相啖	-12.4929
華競苦精門	-12.4929
千三百九十二萬	-12.4929
說經七遍西南无極无量品	-12.4929
斬滅五行邪怪	-12.4929
趕	-12.4929
食其時百骸理	-12.4929
說經五遍東北无極无量品	-12.4929
二千一十五萬五	-12.4929
黄帝中主萬神无越	-12.493
說經三遍西方无極无量品	-12.493
說經四遍北方无極无量品	-12.493
國安民豐欣樂太平經始出教一國	-12.493
梵形落空九靈推前	-12.493
說經八遍西北无極无量品	-12.493
天羅地網	-12.4931
鈃	-12.4931
灸	-12.4931
捏	-12.4931
唐太宗貞觀	-12.4931
搶	-12.4931
嶸	-12.4931
天地運終星宿錯度日月失昏四時失度	-12.4931
忖	-12.4932
酹	-12.4932
定録君受言	-12.4932
纘	-12.4932
糟	-12.4933
洞煥太空七日七夜諸天	-12.4933
色累苦心門	-12.4933
朞	-12.4933
無極無上聖廓落發光明寂寂浩	-12.4934
愛累苦神門	-12.4934
千經萬論	-12.4934
翦形魔無干犯鬼無祅精三官	-12.4934
𧷤	-12.4934
擎羊陀羅	-12.4935
幷	-12.4935
斸	-12.4935
彷	-12.4935
諺	-12.4936
閨	-12.4936
沍	-12.4936
慷	-12.4937
風雲雷雨電	-12.4937
洞魔王聖衆酆都山	-12.4937
元世祖皇帝封號	-12.4939
𠮷	-12.4939
孱	-12.494
枸	-12.4941
帝父帝母至聖至眞三寳三界一切眞靈	-12.4941
傀	-12.4942
瑾	-12.4942
眞人濟生度死眞人萬福護身眞人	-12.4942
竽	-12.4942
踖	-12.4942
瞰	-12.4942
膊	-12.4943
有嘆莫能窮	-12.4944
恭望天慈	-12.4946
懸一寳珠大如黍米在空玄之中去地	-12.4946
祖先見存眷屬塵寰品彚長夜幽	-12.4947
袴	-12.4947
譎	-12.4947
慊	-12.4948
癃	-12.4948
闥	-12.4948
讁	-12.4949
鵰	-12.495
魓𩳐魒	-12.4951
磊	-12.4951
違律罰筭	-12.4953
象馬車乘	-12.4953
扎	-12.4955
袠	-12.4956
淙	-12.4957
攫	-12.4961
无鞅數衆俱入寳珠之中天人仰看	-12.4963
狻	-12.4965
隈	-12.4966
窄	-12.4966
靂	-12.497
璟	-12.4973
後刑屠割鬼爽風火無停千千截首萬萬	-12.4981
璖	-12.4983
贏	-12.4984
詡	-12.499
莘	-12.5032
歌音音參洞章誦之百	-12.5116
仙道貴生無量度人	-12.5168
旣入珠口不知所在	-12.5333
保迎萬徧道備飛昇太空過度三界位登	-12.5394
屠割鬼爽風火無停千千截首萬萬剪形	-12.5451
一切天人莫不受慶無量之福生死	-12.5697
上天所寳不傳下世至士齎金寳效心	-12.5771
荣	-12.5838
三界之上飛空之中魔王歌音音參洞章	-12.5839
是故海空亦非非	-12.5851
无極消禳災厄神王長生大聖无量度人	-12.5887
方城勝因童子	-12.5891
凙	-12.5892
元始符命金籙白簡長生靈符	-12.5895
鞅之衆升空而至	-12.5895
鷰	-12.5896
悉是空法一切	-12.5898
悄	-12.59
始天尊說經中所言並是諸天上帝内名	-12.5901
翌	-12.5901
以度屍形如法	-12.5902
曲之府北都羅酆三官九府十二河源	-12.5903
是故燒香歸身	-12.5903
两	-12.5903
帝消魔王呪曰	-12.5904
鎸	-12.5904
乘雲駕龍白日昇天	-12.5904
鎰	-12.5905
飛天保延世劫神王長生大聖无量度人	-12.5905
道德天尊太上昊天至尊金闕玉皇上帝	-12.5905
藕	-12.5905
職惟領教理難抑違謹㳙今月某日	-12.5906
笋	-12.5906
天三地四天五地六天七地八天九地十	-12.5906
捶	-12.5906
勗	-12.5906
南極星主紫微上宫天皇	-12.5906
厚德光大后土皇地祇南極長生大帝	-12.5906
明大聖九天應元雷聲普化天尊九天雷	-12.5906
青靈始老洞空天尊南方三炁天中丹靈	-12.5907
銀青光禄大夫	-12.5907
金馬驛程	-12.5907
勻	-12.5907
君各五人官將各一百二十人主	-12.5908
紵	-12.5908
㗭	-12.5909
太霄琅書瓊文帝章	-12.5909
簑	-12.5909
天尊中央一炁天中玄靈元老洞眞天尊	-12.5909
正陽開悟傳道	-12.5909
右件玉章天篆一百	-12.5909
狙	-12.5909
五仙中靈之炁	-12.5909
瘢	-12.591
跌	-12.591
柘	-12.591
邴	-12.591
卻	-12.591
嶽神仙芝草不死之藥	-12.591
飛天大醜總監上天	-12.5911
統天元聖天尊東極青華大帝太	-12.5911
駝	-12.5912
瞭	-12.5912
嶽仙官至長齋百日精思靈寳尊神則	-12.5912
五老啓途群仙翼轅	-12.5913
人志心朝禮慈悲救度	-12.5913
欝	-12.5913
㳺	-12.5913
蘧	-12.5913
躇	-12.5914
如法持念是此眞經	-12.5914
上大光明圓滿大神呪	-12.5915
迴骸起死无量度人今日校録諸天臨軒	-12.5915
湎	-12.5915
𤓁	-12.5916
殮	-12.5916
寂兮寥兮	-12.5916
龍之弦炁也	-12.5916
天一地二天三地四	-12.5916
須延明首法攬菩曇	-12.5916
秣	-12.5916
業者見在世中	-12.5916
躓	-12.5917
道言是時元始天尊說經一遍東方	-12.5917
右玉皇誥命以錫	-12.5917
炁天君令統御	-12.5917
梵摩迦夷天	-12.5917
彪	-12.5918
弃	-12.5918
言無韻麗曲無華宛故謂玄奥難可	-12.5918
髫	-12.5918
疹	-12.5918
三十二字祕文書于	-12.5918
寞	-12.5919
玉明運度至眞大神無鞅之衆浮空而至	-12.5919
肸	-12.5919
眞帝皇鍊炁洞	-12.5919
萬神朝禮名書上天功滿德就飛升上清	-12.5919
龍王水旱二司无鞅之衆浮空而至	-12.5919
九開自辯阿那品首	-12.5919
禳災解厄洞神至眞	-12.5919
鴨	-12.592
不肯布施或見	-12.592
嶢	-12.592
成變化而行鬼神	-12.592
非可禁止於是元始	-12.592
眞香滿瓊樓玉京遍周天法界	-12.592
僭	-12.5921
䜛	-12.5921
募	-12.5921
冀肸蠁以潜通馨香感神仗氤氲而上達	-12.5921
愠	-12.5921
杉	-12.5921
衆眞侍座元始天尊玄坐空浮	-12.5921
自然香妙洞眞香超三界香三境	-12.5922
腮	-12.5922
无鞅數衆乗空而來	-12.5923
鴆	-12.5923
那育郁馥摩羅法輪	-12.5923
十遍周竟十方无極	-12.5923
巻	-12.5923
𦋇於頂上黙呪曰	-12.5924
嘈	-12.5924
氓	-12.5924
飛天玉明主運	-12.5924
燋	-12.5924
桉	-12.5924
敢司連宛	-12.5924
鎮國祚保天長存世世	-12.5924
梵氣彌羅萬範開張	-12.5924
沬	-12.5924
夸	-12.5925
至眞大聖無鞅之衆浮空而至	-12.5925
說經九遍上方无極无量品	-12.5925
屛	-12.5925
鎮人身泥丸絳宫中理五炁混合百神	-12.5925
瘳	-12.5925
訕	-12.5925
无惒觀音	-12.5925
延劫保世至真大神無鞅之衆浮空而至	-12.5925
瑗	-12.5926
罰功墮事	-12.5926
東蜀蓬萊山中陽子衛琪	-12.5926
絞	-12.5926
眞皇人曰修飛仙之道	-12.5926
𦕈	-12.5926
歌音音參洞章誦之百遍名度南	-12.5927
飛天神符除難神王長生大聖無量度人	-12.5927
度朱陵受鍊更生是謂無量普度	-12.5927
薜	-12.5928
闚	-12.5928
三盗既宜三才既安	-12.5928
徭	-12.5929
碣	-12.5929
詫	-12.5929
魂神徑上南宮隨其學功計日而得更生	-12.5929
麵	-12.5929
天上天下无幽无冥无形无影无極无窮	-12.5929
疾除罪簿落滅惡根不得拘留逼合鬼羣	-12.5929
自從無始以來	-12.593
土皆作碧玉無有異色	-12.593
痒	-12.593
道備克得遊行三界升入金門此音	-12.593
長生眞人年四十	-12.593
是大惡業非真人行	-12.5931
答落大梵散煙慶雲	-12.5931
帝父光嚴妙樂國王帝母寳月光皇后清	-12.5931
忮	-12.5931
佪	-12.5931
無極飛光騰燿神王長生大聖無量度人	-12.5931
霳	-12.5931
剗	-12.5931
立降消諸不祥無量之文普度無窮	-12.5931
饒君聰慧過顔閔不遇	-12.5931
瀣	-12.5932
薄由我恩	-12.5932
修眞十書武夷集卷之五十	-12.5932
𦍒	-12.5932
度符神王至真大神無鞅之衆浮空而至	-12.5932
無極鍊氣變仙長生大聖無量度人	-12.5932
說經二遍南方无極无量品	-12.5932
夙生慶幸	-12.5932
柝	-12.5932
惡業罪消滅天尊言弟子受真戒者不得	-12.5932
其盜機也天下莫能見莫能知	-12.5932
蠱毒鬼名	-12.5932
無極靈威神王長生大聖無量度人	-12.5933
叡	-12.5933
巇	-12.5933
碽	-12.5933
烘	-12.5934
褰	-12.5934
分梨十化	-12.5934
三級紅樓	-12.5934
劫輪轉與天齊年永度三塗五苦八難超	-12.5934
金眞朗郁流響雲營	-12.5934
凌三界逍遥上清上清之天天帝	-12.5936
七祖昇遷永離鬼官魂度朱陵受鍊更生	-12.5936
群魔束形鬼精滅爽	-12.5936
餚	-12.5936
泪	-12.5936
軄	-12.5937
𠷈	-12.5937
襦	-12.5937
淼	-12.5937
溶	-12.5938
婆婁阿貪	-12.5938
饒他爲主我爲賓	-12.5938
蚓	-12.5939
隤	-12.5939
神仙抱一演道章	-12.5939
生諸瞋怒或見	-12.5939
漭	-12.5939
珉	-12.594
僥	-12.594
濩	-12.594
叵	-12.5941
譁	-12.5941
仙衆雷霆諸司天將法籙	-12.5942
祼	-12.5942
三世金仙大乗菩薩十方至聖無量帝君	-12.5942
道場衆等人各運心長跪禮懴如法具籙	-12.5942
澳	-12.5943
无極飛天主律神王長生大聖无量度人	-12.5943
旦式展芻忱香花羅列以	-12.5943
三元三官大帝北極四聖眞君	-12.5944
恭望暫離帝闕欵駐凡筵俯察精䖍鑒蘋	-12.5944
警化純陽孚佑帝君	-12.5944
逥	-12.5945
冦	-12.5945
椀	-12.5945
大聖大慈大悲大願昔未	-12.5945
等下情無任懇祝讃揚之至普與過	-12.5945
䰢	-12.5945
峪	-12.5945
故誦之致飛天下觀上帝遥唱	-12.5946
若有善信男女	-12.5946
豸	-12.5948
茄	-12.5949
窪	-12.5953
𡣕	-12.5957
搢	-12.5958
焜	-12.5961
三元九宫太一真皇長生大聖无量度人	-12.5962
隂陽不調國境有災	-12.5963
腆	-12.5964
縝	-12.5965
戞	-12.5967
憇	-12.5976
變化上清无量之奥深不可詳敷落神眞	-12.5982
旍	-12.5987
鉏	-12.599
埤	-12.6005
无極洞神禳災神王長生大聖无量度人	-12.6084
十方至眞飛天神王長生度世无量大神	-12.6175
質心依舊格告盟十天然後而付焉道言	-12.623
无量普度天人道言凡有是經能爲	-12.6305
養尊禮門戸興隆世世昌熾與善因	-12.6435
縁萬災不干神明護門斯經尊妙獨	-12.6435
之日發心修齋燒香誦經十過	-12.6553
白骨成人至學之士誦之十過則	-12.6861
霄明烈真君	-12.693
無極飛天正氣神王長生大聖無量度人	-12.6944
斯經尊妙獨步玉京	-12.6951
弇	-12.6956
个	-12.6967
遊上清出入華房八冥之内細微之中下	-12.6972
昔書其文以爲正音有知其音能齋而誦	-12.6976
矻	-12.6993
元始懸一寳珠大如黍米在空玄之中	-12.6996
巵神燈施	-12.7
次焚符旋遶誦	-12.7
簟	-12.7003
矇	-12.7006
譌	-12.7006
懦	-12.7007
氤	-12.7009
主管教門公事	-12.701
憨	-12.701
芭	-12.7012
蔌	-12.7013
犠	-12.7014
歸命五體投地志心朝禮玉清聖境	-12.7014
人能常清靜天地悉皆歸	-12.7015
寝	-12.7015
活潑潑	-12.7016
老洞清天尊西方七炁天中皓靈皇老洞	-12.7016
慱	-12.7016
吮	-12.7016
前嘯九鳳齊唱後吹八鸞同鳴	-12.7016
花珍果淨水名香	-12.7016
銓	-12.7016
寂然兠術天	-12.7016
苐	-12.7017
驄	-12.7018
丧	-12.7018
火裏栽蓮	-12.7019
衹	-12.7019
髮白返黑齒落更生	-12.7019
而海空者實非	-12.7019
竸	-12.702
嗄	-12.702
悽	-12.702
惡獸毒螫皆不生害心反善仁	-12.702
欷	-12.702
撈	-12.702
一切天人莫不受慶无量之福生死蒙惠	-12.7021
髼	-12.7021
帝君從吏神兵无鞅之衆浮空而至說經	-12.7021
惺	-12.7021
妣	-12.7022
七星金劔垂白玉環珮宜圖形供養以異	-12.7022
蟾光終日照西川	-12.7022
悒	-12.7022
絶利一源用師十倍三反晝夜用師萬倍	-12.7022
賙	-12.7022
箠	-12.7022
祖大帝除災濟物天尊紫微碧玉	-12.7022
十徧周竟十方	-12.7022
保眞者少迷惑者多	-12.7023
三華離便大有妙庭金闕玉房森羅淨霐	-12.7023
躊	-12.7023
刀山火郷二十四獄三塗五苦	-12.7023
尅得爲聖君金闕之臣	-12.7023
稅	-12.7024
立人之道曰仁與義	-12.7024
如世人運炁逢遇多有	-12.7024
宜弘善以迎之其眞君戴星冠躡朱履衣	-12.7024
中央玉寳元靈元老	-12.7024
撩	-12.7025
譖	-12.7025
厮	-12.7025
惔	-12.7026
楙	-12.7026
鸛	-12.7026
地土皇君玄契曰	-12.7026
暐	-12.7026
攢簇五行合和四象	-12.7026
壠	-12.7027
蹕	-12.7027
頺	-12.7027
淤	-12.7027
他准此第	-12.7027
眞仙聖衆一切威靈符命所臨如誥奉行	-12.7027
舋	-12.7027
郤	-12.7027
尋詳上天所寳祕於神霄玉清	-12.7027
白絹四十尺	-12.7027
觀覺鬱繿	-12.7028
娛	-12.7028
肴	-12.7028
周氏玄通記	-12.7028
貴實人道貴華	-12.7028
瘂	-12.7028
太上昇玄消災護命妙經	-12.7028
⬤	-12.7028
元始安鎭敷落五篇赤書玉字	-12.7028
生神寳章衆和宣章	-12.7028
飦	-12.7028
佩身又書白紙本命八節日服之内思	-12.7028
曈	-12.7029
芊	-12.7029
璋	-12.7029
糴	-12.703
所受神呪誥命	-12.703
㐲	-12.703
㓗	-12.703
桶	-12.703
第二色界魔王之章	-12.703
色雲氣之中内外蓊㝠有	-12.7031
宋神宗熙寧	-12.7031
某人備嚴醮典首謝眞靈謹依科式建立	-12.7031
芟	-12.7031
昶	-12.7031
真皇人曰凡修飛仙之道	-12.7031
道備尅得遊行三界昇入金門此音	-12.7032
宕	-12.7032
玦	-12.7033
漣汲溟波	-12.7033
故謂玄奥難可尋詳上天所寶	-12.7033
仙道貴度鬼道相連	-12.7033
僵	-12.7033
邳	-12.7033
櫟	-12.7033
怯	-12.7033
度上南宮七月長齋誦詠是經	-12.7033
俓御无上三十二天元始上帝至尊几前	-12.7033
天中大梵隱語无量音道君撰元始靈書	-12.7034
普伸供養說經教主元始天尊抱送玉帝	-12.7034
洲上真得道一切神仙	-12.7034
長生大君無英公子白元尊神	-12.7034
效心盟天而傳輕泄漏慢殃	-12.7034
揜	-12.7035
瘠	-12.7035
明晨耐犯武城天宫	-12.7035
𥝠	-12.7035
東華南極西靈北	-12.7035
燌	-12.7035
等志心皈神皈身皈命	-12.7035
而好學至經功滿徳就皆得神仙飛	-12.7036
綦	-12.7036
籃	-12.7036
𡵨	-12.7037
鳶	-12.7037
國安民豐欣樂太平	-12.7037
上帝遥唱萬神朝禮三界侍軒羣祅	-12.7037
异	-12.7037
咏	-12.7037
無鞅數衆俱入寳珠之中天人仰看惟見	-12.7037
我界難度故作洞文變化飛空以試爾身	-12.7038
華陽眞人施肩吾希聖	-12.7038
上无復祖唯道爲身	-12.7038
无極飛天日中神王長生大聖无量度人	-12.7038
自號赫奕諸天齊功	-12.7038
魔王監舉无拘天門	-12.7038
癖	-12.7039
泱	-12.7039
鬼道樂兮當人生門	-12.7039
忉	-12.704
帝龍羅覺長	-12.704
師子白鶴羅列左右日月照明洞煥室内	-12.704
姒	-12.704
齁	-12.704
涖	-12.704
升遷永離鬼官魂度朱陵受鍊更生	-12.704
元始說先天道德經註解卷之	-12.7041
甖	-12.7041
身累苦魂門	-12.7041
𡨕	-12.7041
帝眞文篇以安	-12.7041
紫陽眞人悟眞篇三註卷之	-12.7041
擦	-12.7041
靳	-12.7041
下部三十二天洞靈八景	-12.7041
景蔚蕭嵎	-12.7041
清堂修行至經	-12.7042
批答李含光表	-12.7042
丿	-12.7042
使其幽扄輝耀地獄澄清㧞度	-12.7042
裨	-12.7042
胖	-12.7043
爲上世亡䰟斷地逮役度上南	-12.7043
火生於木禍發必尅姦生於國時動必潰	-12.7043
汀	-12.7043
跂	-12.7043
𦂶	-12.7043
夢幻泡影	-12.7043
格然燈威儀科式至重今齋官某人修建	-12.7043
雲從龍風從虎	-12.7044
摧山倒嶽	-12.7045
鋩	-12.7045
名爲恬愉能行	-12.7045
諌	-12.7045
㕑	-12.7045
千和萬合自然成眞眞中有神長生大君	-12.7045
欬	-12.7045
悋	-12.7046
嘷	-12.7046
竢	-12.7046
匍	-12.7046
嶔	-12.7046
禫	-12.7046
匐	-12.7047
琁	-12.7047
經筵啓問玉虚上帝昊天上帝五老上帝	-12.7048
分野社令正神	-12.7048
无窮一切天人莫不受慶无量之福生	-12.7048
賽	-12.7049
縲	-12.7049
扛	-12.705
依玄科四萬劫一	-12.705
骼	-12.705
碾	-12.7051
蛤	-12.7051
焚香供養冥府第	-12.7052
纊	-12.7052
奏爲入意願冀感通曲從所禱以今恭逢	-12.7052
腿	-12.7053
印令官君十方飛天神王	-12.7053
輯	-12.7054
姙	-12.7054
皦	-12.7054
閎	-12.7054
腔	-12.7054
妙行眞人夜光玉女靈妃玉女一切元君	-12.7055
俎	-12.7055
錠	-12.7055
㦎	-12.7055
魂傾倒䖍恭皈依敬禮稱揚名號	-12.7055
和願薦此亡靈往生極樂國	-12.7055
保仙元君靈寳道德正一全眞諸	-12.7057
狴	-12.7057
桴	-12.7057
太霄琅書瓊文一徧則	-12.7057
卿比平安好遺書指不多及	-12.7058
天師眞君九天開化司禄宏仁帝君演	-12.7058
急勑律令元始天尊說下元衆生	-12.7058
咈	-12.7059
熄	-12.7059
侁	-12.7059
囹	-12.706
璃	-12.706
軾	-12.7062
頏	-12.7062
佃	-12.7062
樗	-12.7063
鉦	-12.7063
鏹	-12.7063
名誠惶誠懼頓首頓首謹言	-12.7065
撇	-12.7066
蒭	-12.7066
跟	-12.7066
莅	-12.7067
睇	-12.7067
澌	-12.7068
儆	-12.7069
沅	-12.7069
蠲化水火災癘	-12.7071
岨	-12.7071
生化胎根斷除邪穢	-12.7071
澶	-12.7074
㐫	-12.7074
洊	-12.7077
軋	-12.708
箒	-12.7084
攙	-12.7084
黼	-12.7085
苓	-12.7091
撃	-12.7095
紫皇太乙神捷	-12.7096
浥	-12.7097
偁	-12.7102
傞	-12.7111
暾	-12.712
岵	-12.712
嶪	-12.7123
宫女青律文受者明慎奉行	-12.715
執符把籙保命生根上遊上清出入	-12.7299
人受誦則延壽長年後皆得作尸解之道	-12.7326
亦保舉爾身得道者乃當洞明至言也	-12.7343
泉曲之府北都羅酆三官九署十二河源	-12.7612
應運下傳若有至人齎金寳質心依舊格	-12.7726
不知所在國人廓散	-12.7731
不能更生輕誦此章身則被殃供養尊禮	-12.774
敬形勑制地祇侍衛送迎	-12.7836
三界之上飛空之中眞王歌音音參洞章	-12.8118
律文受者明慎奉行太玄都四極明科曰	-12.8172
无量之奥深不可詳敷落神眞普度天人	-12.8207
三爻皆變而之	-12.824
庥	-12.8241
駸	-12.8243
𠰢	-12.8248
臨過之時同學至人爲其行香誦經十過	-12.825
淇	-12.8252
无極飛天護世神王長生大聖无量度人	-12.8254
三五一都三箇	-12.8254
天眞自然之音也故誦之致飛天下觀上	-12.8255
下部八景洞靈飛行三五直靈神僊	-12.8256
帝鬱繿玉明	-12.8256
奩	-12.8259
佩之永消殃患	-12.826
其大無外其小無内	-12.826
朱書文向王叩齒	-12.8262
修行八年勿失一節	-12.8263
諸天發瑞靈應自然玉字煥爛障蔽天光	-12.8263
剽	-12.8264
𢡖	-12.8264
屇	-12.8264
祥物阜時康學道之士以時服之三年之	-12.8265
炮	-12.8266
匈	-12.8266
乾道變化各正性命	-12.8266
无量扶蓋浮羅合神	-12.8266
一如告命准靈寳大法律令	-12.8266
蝣	-12.8266
羆	-12.8267
躄	-12.8267
輔元開化文昌司禄宏仁帝君	-12.8268
藿	-12.8268
麴	-12.8268
碭尸冥演由之炁	-12.8268
跣	-12.8269
二十四年身得神仙但佩此文亦得尸解	-12.8269
中部八景洞玄飛行三五直靈神僊	-12.8269
天主帝君普施法潤天尊九天	-12.827
厦	-12.827
怳	-12.827
靜黙山嶽吞烟萬靈振伏招集群仙天無	-12.827
金闕昭凝妙道保仙元君祖	-12.827
燈燭清醴䖍心瞻敬至心而呪曰	-12.827
葭	-12.8271
饕	-12.8271
𢌞	-12.8271
姓黑節諱靈	-12.8271
老者反壯少者皆强	-12.8272
饍	-12.8272
鴟	-12.8272
下觀上帝遙唱萬神朝禮三界侍軒	-12.8272
無量之奥深不可詳敷落神真普度天人	-12.8273
撝	-12.8273
受元始度人无量上品	-12.8274
玉光㑹中眞靈眞宰伏願	-12.8274
稊	-12.8275
斾	-12.8275
𢇁	-12.8275
玉谿子丹經指要	-12.8275
悍	-12.8275
蛛	-12.8275
荔	-12.8275
湟	-12.8275
九萬九千九百九十九	-12.8275
嫡	-12.8275
羗	-12.8276
遅	-12.8276
阿繿郁竺	-12.8276
闕之臣諸天記人功過毫分无失天中	-12.8276
唐德宗貞元	-12.8276
瓠	-12.8276
彘	-12.8276
𠗂	-12.8276
玉光會中眞靈眞宰伏願	-12.8276
紬	-12.8277
俚	-12.8277
戸五苦八難七祖昇遷永離	-12.8277
得爲九宫真人本命之日誦詠是經	-12.8277
胜	-12.8277
装	-12.8278
天地之道浸故陰陽勝	-12.8278
見之不可用用之不可見	-12.8278
修眞十書悟眞篇卷之二十	-12.8278
難固鬼道易邪人道者心諒不由他仙道	-12.8278
擔石白天魔王反山六目黑天魔王監	-12.8278
篩	-12.8278
殺諒事宗天宫	-12.8279
皋	-12.8279
篙	-12.8279
䘙	-12.8279
大千世界之内十方國土之中一切	-12.8279
櫬	-12.828
霰	-12.828
暠	-12.828
空洞謡歌之章真王靈篇辭參髙真第一	-12.828
髦	-12.828
與弟子某等下情無任懇祝之至	-12.828
閙	-12.828
生圓象光暎十方如此分明	-12.828
崦	-12.828
䑛	-12.8281
碗	-12.8281
曙	-12.8281
䆒	-12.8282
坎戊月精離己日光	-12.8282
𠻗	-12.8282
鍜	-12.8282
癎	-12.8282
時一百二十五眞人誦詠法契八會之音	-12.8282
弧	-12.8282
欎	-12.8282
疣	-12.8282
苖	-12.8282
五老大聖諸天眞人導引三光	-12.8283
穽	-12.8283
舸	-12.8283
國人廓散地還平正无復欹陷	-12.8283
得爲九宮真人本命之日誦詠是經	-12.8283
不見可欲使心不亂	-12.8284
要得谷神長不死須憑玄牝立根基	-12.8284
啇	-12.8284
吃	-12.8284
壘仙王土皇神君无鞅之衆浮空而至	-12.8284
烽	-12.8284
龢	-12.8285
齧	-12.8285
瑀	-12.8285
敢有小鬼欲來	-12.8285
繭	-12.8285
魔之所試也當	-12.8285
太極平育賈奕天帝大擇法門	-12.8285
流精玉光五色鬱勃洞煥太空	-12.8285
𠎝	-12.8286
胯	-12.8286
儂	-12.8286
娼	-12.8286
圄	-12.8286
金闕遊宴玉亰也上學之士修誦是經	-12.8287
苾	-12.8287
蠕	-12.8287
誦之百遍名度南宫誦之千遍魔王保迎	-12.8287
飛僊上眞各三千二百人	-12.8287
仿	-12.8288
尸起死白骨成人	-12.8288
五帝六甲左右靈飛之	-12.8288
耜	-12.8288
歌音音參洞章誦之百徧名度南	-12.8288
空洞謡歌之章眞王靈篇辭參髙眞第一	-12.8288
之日朱書第七第八二字向	-12.8288
閈	-12.8288
諸天隱諱諸天隱名	-12.8289
卹	-12.8289
紉	-12.8289
玉音攝炁靈風聚煙紫虚鬱秀輔翼萬仙	-12.8289
丫	-12.829
塢	-12.829
魂早超明境謹懴	-12.829
魔无干犯鬼无	-12.829
慼	-12.829
灧	-12.829
簉	-12.829
繄	-12.829
齓	-12.829
成敗懈退度者幾人笑爾不度故爲歌音	-12.8291
覡	-12.8291
駑	-12.8291
菑	-12.8291
爰有奇器是生萬象八卦甲子神機鬼藏	-12.8291
魂神俓上南宮隨其學功計日而得更生	-12.8291
天上天下無幽無冥無形無影無極無窮	-12.8291
賖	-12.8292
酪	-12.8292
陰陽相勝之術昭昭乎進乎象矣	-12.8292
寳齋兼㸃九幽神燈奉用追薦亡過某人	-12.8292
嶧	-12.8292
癱	-12.8293
匙	-12.8293
四萬劫一開道士命屬	-12.8293
搐	-12.8293
之難所有符命謹當告下舉	-12.8293
纁	-12.8294
天地萬物之盜萬物人之盜人萬物之盜	-12.8294
一時辰内管丹成	-12.8294
諷經宣䟽	-12.8295
一萬三千五百息	-12.8295
磅	-12.8295
不疾而速不行而至	-12.8295
上部三十二天洞天八景	-12.8295
跽	-12.8295
北方洞隂朔單鬱絶五靈玄老	-12.8296
之隱名也非世之常辭上聖已成真人	-12.8296
元始天尊說經一遍東方无極无量品	-12.8297
櫝	-12.8298
毳	-12.8298
汜	-12.8298
哦	-12.8299
大聖衆至眞尊神无極大道	-12.8299
應感一切眞仙悉仗眞香普同供養恭望	-12.8299
呷	-12.8299
琬	-12.83
穗	-12.83
四司所糾考屬左右三官至	-12.83
摛	-12.83
硝	-12.8301
瞀	-12.8301
懲忿窒慾	-12.8301
諸仙兵馬五嶽眞君地水聖衆城隍瘟火	-12.8302
臾	-12.8302
嫣	-12.8302
酎	-12.8302
咖	-12.8304
蘩之報謝洞矜懇禱副草芥之微	-12.8304
慤	-12.8305
和不可思議功德爾時眞人聞是頌巳	-12.8306
喏	-12.8306
輾	-12.8307
騮	-12.8307
睥	-12.8308
苛	-12.8308
窩	-12.8309
餔	-12.8311
錞	-12.8311
鋉	-12.8313
鬲	-12.8314
馹	-12.8315
楯	-12.8316
峴	-12.8317
霔	-12.8319
騖	-12.8319
行而行行之一相衆生一相	-12.832
璠	-12.8326
漯	-12.8326
璀	-12.8328
柞	-12.833
蚩	-12.8332
醯	-12.8333
琤	-12.8333
蓀	-12.8334
遹	-12.8334
嗒	-12.8339
洚	-12.8341
糅	-12.8346
犇	-12.8355
氊	-12.8363
璆	-12.8381
犍	-12.8402
人身泥丸絳宫中理五氣混合百神十轉	-12.8519
大神无鞅之衆浮空而至幽棲曰此初說	-12.8774
天地帝主兆民行是功德	-12.8776
敢有干試拒遏上眞金鉞前戮巨天後刑	-12.8835
日月照明洞煥室内項生圓象光映十方	-12.8877
碧落空歌大浮黎土受元始度人	-12.9111
如此分明宻呪曰无上玄元太上道君召	-12.929
太一司命桃康合延執符把籙保命生根	-12.9438
之術百數其要在	-12.9634
旣空法相亦空法相之興由於	-12.9646
有聞靈音魔王敬形敕制地祇侍衛送迎	-12.9649
坯	-12.9675
瘍	-12.9679
皥	-12.968
陽將軍符到奉行不得留停急急如律令	-12.9683
𨶒	-12.9685
嬖	-12.9685
烕	-12.9685
外想不入内想不出	-12.9686
玄門苗善時校正編次詩彖	-12.9687
𡪹	-12.9688
酈	-12.9688
岧	-12.9689
描	-12.969
疴	-12.969
惡奕无品洞妙自眞	-12.969
諸行道求仙思神存眞謝罪解過上希	-12.969
燻	-12.9691
取將坎位中心實點化離宫腹裏陰	-12.9691
箓	-12.9691
蹷	-12.9691
墾	-12.9691
髮白反黑齒落更生	-12.9692
惡根地根魔籍鬼帳常以	-12.9693
盾	-12.9694
秃	-12.9694
蜉	-12.9694
妝	-12.9695
蜋	-12.9696
飫	-12.9696
顗	-12.9697
踢	-12.9697
拔度六道四生孤魂滯魄等衆解除	-12.9697
痣	-12.9697
功過儀典上眞緫領	-12.9697
襖	-12.9697
簣	-12.9697
爲始就某處肅建玄壇依按	-12.9698
八方捷疾使者天神地祇萬靈同歸合天	-12.9698
追二炁於黄道會三性於	-12.9698
洹	-12.9698
天尊於赤明世界栢陵	-12.9699
畨	-12.9699
而覩天尊稽首无上尊稽首无上法	-12.9699
詬	-12.97
絶利一源用師十倍三返晝夜用師萬倍	-12.97
上清之天天帝玉眞无色之境梵行	-12.97
昇金闕遊宴玉京也	-12.97
獅子白鶴嘯歌邕邕	-12.97
空中萬變穢氣紛葩	-12.97
殍	-12.97
無量之文普度無窮道言夫末學道淺或	-12.9701
玃无自育九日導乾	-12.9701
蜎	-12.9701
劎	-12.9701
上遊上清出入華房八㝠之内細微之中	-12.9701
締	-12.9702
爱	-12.9702
終劫說之亦不能盡	-12.9702
生我之門死我户	-12.9702
至樂性餘至靜性廉	-12.9702
▁至心歸命信禮	-12.9702
絓	-12.9703
謹遵科法崇建寳燈供養大	-12.9703
九幽拔罪天尊志心朝禮隨願	-12.9703
莽九醜韶謡縁邅	-12.9703
運應滅度身經太陰	-12.9704
茵	-12.9704
志心皈身皈神皈命	-12.9704
𦤀	-12.9704
曁	-12.9704
飇	-12.9705
神文聖武孝德忠仁	-12.9705
紫陽眞人悟眞篇請義卷之	-12.9705
上无復祖惟道爲身	-12.9705
愚人以天地文理聖	-12.9706
圉	-12.9706
它	-12.9706
參校曰此青元註經條分八事之	-12.9706
疢	-12.9706
招集羣仙天無氛穢地無祅塵	-12.9706
誦契畢服三符	-12.9706
曰復其見天地之心乎	-12.9706
蓂	-12.9706
𣑽	-12.9706
七夜諸天日月星宿璇璣玉衡一時停輪	-12.9706
土皆作碧玉无有異色	-12.9706
𠒋	-12.9707
无量度人上品妙經元始洞玄靈寶本章	-12.9707
太上靈寳諸天内音自然玉字卷之	-12.9707
入大乗證成功徳	-12.9707
貿	-12.9708
肓	-12.9708
運容者玄和玉女	-12.9708
鬱羅蕭臺玉山上京上極无上大羅玉清	-12.9708
䜟	-12.9708
邠	-12.9708
諸天齊到億曾萬祖幽魂苦爽皆即受度	-12.9708
齗	-12.9708
五色玄龍建九色之節十絶靈	-12.9708
髙上消魔玉清王祝曰	-12.9709
啾	-12.9709
犴	-12.9709
拂拂從珠口中入既入珠口不知所在	-12.9709
宄	-12.9709
侑	-12.9709
紫陽眞人悟眞篇講義卷之	-12.9709
日中入室夜半露身	-12.9709
天中空洞自然靈章諸天隠韻	-12.971
栰	-12.971
上清嗣宗師劉大彬造錄金石篇	-12.971
此變成乾健體潜藏飛躍盡由心	-12.971
入地獄無由出離今對聖前咸悉懴悔	-12.971
藎	-12.971
第五第六第七第八四字	-12.971
唯有元始浩劫之家部制我界統	-12.9711
傴	-12.9711
不因師指此事難知	-12.9711
元炁上應天關天關轉地	-12.9711
魔精䘮眼鬼祅滅爽	-12.9711
鏐	-12.9711
精斬馘六鬼鋒諸天炁蕩蕩我道日興隆	-12.9711
糲	-12.9712
魔精喪眼鬼妖滅爽	-12.9712
蛭	-12.9712
經始出敎一國以道預有至心	-12.9712
缘	-12.9712
六時行香十遍轉經福德立降消諸不祥	-12.9712
緬平一等無復高下	-12.9712
魔束形鬼精滅爽廻屍起死白骨成人	-12.9712
同炁皆當齊心修齋六時行香十徧轉經	-12.9712
升金闕遊宴玉京也上學之士修誦是經	-12.9712
觥	-12.9712
奂	-12.9712
迎之不見其首隨之不見其後	-12.9712
莓	-12.9713
澣	-12.9713
屩	-12.9713
致虚極守靜篤萬物並作吾以觀其復	-12.9713
槲	-12.9713
六十七萬一千八	-12.9713
群魔束形鬼精滅爽回屍起死	-12.9714
桔	-12.9714
老者返壯少者皆强	-12.9714
佗	-12.9714
凢	-12.9714
言無華綺口無惡聲	-12.9714
南上司命司録延壽益	-12.9714
眺	-12.9714
燒香誦經十過皆諸天記名萬神侍衞	-12.9714
爲女坎配蟾宫却是男	-12.9714
請滅三惡斬絶地根飛度五户名列太玄	-12.9714
輭	-12.9715
蛸	-12.9715
枳	-12.9715
諛	-12.9715
醜以輔三官數極九九八十一萬度天炁	-12.9715
三界樂兮過之長存身度我界體入自然	-12.9715
潞	-12.9715
井鬼柳星張翼軫	-12.9715
以道預有至心宗奉禮敬皆得度世道言	-12.9715
芘	-12.9715
烙	-12.9715
寶不傳下世至士齎金寶	-12.9716
右件玉章天篆八十字上鎮	-12.9716
大神一時同至一國男女	-12.9716
四萬一千一百二十萬	-12.9716
百四十六萬四千	-12.9716
章並已參校略無舛誤臣謹言曰	-12.9716
嶤	-12.9716
歩玉京度人無量爲萬道之宗巍巍大範	-12.9717
斯經尊妙獨歩玉京度人	-12.9717
窬	-12.9717
是故聖人知自然之道不可違因而制之	-12.9717
𦆵	-12.9717
貴生鬼道貴終仙道常自吉鬼道常自凶	-12.9717
𥠖	-12.9718
開不死之路流長生之炁	-12.9718
刷	-12.9718
天帝丈人九老仙都君九炁丈人百千萬	-12.9718
上眞各三千二百人下部三十二天洞靈	-12.9718
木性愛金順義金情戀木慈仁	-12.9718
火生於木禍發必剋姦生於國時動必潰	-12.9718
下手速修猶太遲	-12.9718
太上洞玄靈寳无量度人上品妙經	-12.9718
疚	-12.9719
赬	-12.9719
猱	-12.9719
國人廓散地還平正無復欹䧟元始即於	-12.972
上眞各三千二百人上部三十二天洞天	-12.972
㟪	-12.972
愊	-12.972
摯	-12.972
地獄一切冥官廣賜慈悲普垂開度伏願	-12.972
諤	-12.972
邡	-12.972
七炁金靈八天尊神白虎	-12.972
倏歘之間寂无遺響是時天人	-12.972
知其雄守其雌	-12.9721
咥	-12.9721
菁	-12.9721
嚚	-12.9721
木生火火生土土生金	-12.9721
籲	-12.9721
得爲九宮眞人本命之日誦詠是經	-12.9721
經始出教一國以道預有	-12.9722
埳	-12.9722
蕖	-12.9722
羿	-12.9722
夫齋戒誦經功徳甚重上消天災保鎮帝	-12.9722
帕	-12.9722
煨	-12.9722
人道眇眇仙道莽莽	-12.9723
度品南宮死魂受鍊	-12.9723
唯願仙道成不欲人道窮	-12.9723
天地萬物之盗萬物人之盗人萬物之盗	-12.9724
篇辭參高眞第一	-12.9724
澤洛菩臺緑羅大千	-12.9724
颷	-12.9725
經始岀教一國以道預有至心宗奉禮敬	-12.9726
耨	-12.9726
蘸	-12.9726
筇	-12.9726
極星辰之象備香花燈供之儀志心皈命	-12.9726
杼	-12.9726
𦆑	-12.9727
洺	-12.9727
墅	-12.9727
縠	-12.9727
蹲	-12.9727
𤤽	-12.9728
尭	-12.9728
膾	-12.9728
鯤	-12.9729
檝	-12.9729
畸	-12.9729
夘	-12.973
搔	-12.973
章並已詳校略無舛誤	-12.973
鷙	-12.973
上聖髙尊妙行眞人無鞅數衆乘空而來	-12.973
蜩	-12.973
褶	-12.973
爟	-12.973
遇值經法普得濟度	-12.9731
谷神不死是謂玄牝玄牝之門是	-12.9731
旆	-12.9731
等神功曹符使里域靈官三界萬靈十方	-12.9731
黠	-12.9731
桒	-12.9732
漣	-12.9732
阼	-12.9733
𠆸	-12.9733
蹴	-12.9733
南辰北斗周天列曜拱極群眞	-12.9733
䙝	-12.9733
藐	-12.9733
幙	-12.9733
洞玄惠世玉蟾白眞人清微啓教紫	-12.9733
騏	-12.9734
㮣	-12.9734
觔	-12.9734
九年得乗太霄瓊輪上昇	-12.9735
敝	-12.9735
臰	-12.9735
熨	-12.9736
孥	-12.9738
壮	-12.9739
㗖	-12.9739
蝮	-12.974
倨	-12.974
暵	-12.974
紈	-12.9741
除禳水火漂焚	-12.9741
灊	-12.9745
霙	-12.9745
囷	-12.9747
溏	-12.9748
呆	-12.9748
淬	-12.975
堲	-12.9753
禋	-12.9754
翾	-12.9755
邾	-12.9755
鄼	-12.9755
誾	-12.9757
葳	-12.9758
鈇	-12.9758
哿	-12.9762
徠	-12.9766
繽	-12.9767
贄	-12.9767
珥	-12.977
淀	-12.977
俁	-12.977
洮	-12.9774
是謂无量普度无窮有祕上天文	-12.9777
磔	-12.9778
謦	-12.9781
萬劫受苦不捨晝夜又見	-12.9783
厩	-12.9786
悆	-12.9788
瓘	-12.979
莞	-12.9794
适	-12.9797
賡	-12.9799
礫	-12.98
華房八冥之内細微之中下	-12.9802
諸天皆遣飛天神王下觀其身書其功勤	-12.9808
鏜	-12.981
十轉回靈萬氣齊仙仙道貴生	-12.9819
掲	-12.9823
依玄科四萬劫一傳若有至人齎金寳	-12.9907
道言昔於始青天中碧落空歌大浮黎土	-13.0396
無極神郷泉曲之府北都羅酆三官九	-13.0526
飛天下觀上帝遥唱萬神	-13.0819
如此分明宻呪曰無上玄元太上道君召	-13.0858
世世昌熾與善因縁萬災不干神明護門	-13.1014
關啓所言今日吉慶長齋清	-13.1064
天中大梵隱語無量音道君撰元始靈書	-13.1264
非世之常辭上聖已成真人通玄究微	-13.1317
迮國一半土皆偏陷非可禁止	-13.1323
无邊諸法或善或惡以不定因生於惡果	-13.1326
丱	-13.1334
琵	-13.1337
善才又言如是所說	-13.134
粛	-13.134
夜生反此東出配之	-13.134
塼	-13.1344
彌羅萬範開張元綱流演三十二天輪轉	-13.1345
芡	-13.1347
俣	-13.1347
鯀	-13.1347
太上太玄女青三元品誡㧞罪妙經卷	-13.1349
蜍	-13.1349
古今明者實然稀	-13.135
稗	-13.135
符靈寳符命拔度亡過某出離	-13.1351
說經一遍諸天大聖同時稱善是時一國	-13.1351
妒	-13.1352
瓿	-13.1352
晋穆帝永和元年	-13.1352
上部八景洞天飛行三五直靈神僊	-13.1352
駒	-13.1353
九重奉爲亡過某人纒其	-13.1353
郍	-13.1353
簽	-13.1354
並乘飛雲丹輿緑輦羽蓋瓊輪驂駕朱鳳	-13.1355
列言靈寳玄都上宫太玄上宫	-13.1355
上上禪善无量夀天	-13.1356
搧	-13.1358
紲	-13.1358
呻	-13.1358
易邈无寂宛首少都	-13.1358
儋	-13.1358
孾	-13.1358
扵	-13.136
四拜三叩齒長跪啓曰	-13.136
牒至準勑故牒	-13.136
玉清上極梵炁氤氲分靈布炁降注	-13.136
蕘	-13.136
之座說經一徧諸天大聖同時稱善是時	-13.136
立天之道曰陰與陽	-13.1361
籜	-13.1361
缶	-13.1361
渌	-13.1361
綘	-13.1361
天尊地卑乾坤定矣	-13.1361
霅	-13.1362
正一陽初動中宵漏永	-13.1362
有如細雨宻霧無鞅之衆	-13.1363
沙陁劫量龍漢瑛鮮	-13.1363
強兵戰勝演術章	-13.1363
太明玉完天帝須阿那田	-13.1363
芍	-13.1364
在雲嶺之上抱月而明	-13.1364
清明何童天帝元育齊京	-13.1364
朱書上四字向王服之百日	-13.1364
前行諸綺言或於	-13.1364
䨱	-13.1365
見存眷屬塵寰品彚長夜幽魂傾倒䖍誠	-13.1365
𢘆	-13.1366
玄胎平育天帝劉度内鮮	-13.1366
蔔	-13.1366
断	-13.1366
上明七曜摩夷天帝恬懀延	-13.1366
太極濛翳天帝曲育九昌	-13.1366
顴	-13.1367
其欲轉五道我當復奈何	-13.1367
髀	-13.1367
竺落皇笳天帝摩夷妙辯	-13.1367
驃	-13.1367
眞人志心朝禮慈悲大惠眞人志心朝禮	-13.1367
星壇備香花供養之儀志心歸命	-13.1368
蜣	-13.1368
魔無干犯鬼無妖精	-13.1369
戽	-13.1369
陽寥出示靈寳篇福德由是招洞玄隱	-13.1369
隰	-13.1369
廂	-13.1369
方无極自然神王玉宸大道无量度人	-13.1369
嚴玉音泛雲璈无量匪得思道海生波濤	-13.137
莧	-13.137
黅	-13.137
都梁清菴瑩蟾子李道純元素撰	-13.137
門弟子損菴寳蟾子蔡志頤編	-13.137
淦	-13.137
羅屯碧霄元始九龍駕皇人按青軺靈光	-13.137
槿	-13.1371
羣魔束形鬼精滅爽	-13.1371
宛藪滌色太眇之堂	-13.1371
戛	-13.1371
諜	-13.1371
芮	-13.1372
長春演道主教眞人	-13.1372
唤來歸舍養配將姹女作親情	-13.1372
高上清靈爽悲歌朗太空	-13.1372
崟	-13.1372
踣	-13.1372
薾	-13.1372
一炁化分三因成九若龍若蜒蟠曲九道	-13.1372
登引天眞大神上聖高尊妙行眞人十方	-13.1372
等恭運道香德香慧香無爲香清	-13.1372
但欲遏人筭斷絶人命門	-13.1373
臚	-13.1373
萬神朝禮地祇侍門大勳魔王保舉上仙	-13.1373
果生枝上終期熟	-13.1373
袤	-13.1373
在天成象在地成形	-13.1374
哨	-13.1374
蜘	-13.1374
麞	-13.1374
綿灌我身形冠帶北單受	-13.1374
噐	-13.1374
鱸	-13.1374
姓洞浮諱極炎字赤熛弩	-13.1374
妟	-13.1374
天人仰看惟見拂拂從	-13.1374
承玄都有過我界身入玉	-13.1375
子在胞中豈有殊	-13.1375
拶	-13.1375
煴	-13.1375
齋行香誦經四時失度陰陽不調亦當	-13.1375
不用尋冬至身中自有一陽生	-13.1375
夫齋戒誦經功德甚重上消天災保鎭帝	-13.1375
昕	-13.1375
群仙天無氛穢地無祅塵	-13.1375
概	-13.1376
祕文書于玄都玉臺	-13.1376
餽	-13.1376
又以七月七日朱書第七第八二字向	-13.1376
之香流五雲之華以	-13.1376
蝨	-13.1376
灤	-13.1376
囦	-13.1377
天徘徊流景上清大有啓運八字	-13.1377
冉	-13.1377
淩三界逍遥上清上清之天天帝洞	-13.1377
三十二天三十二帝諸天隠諱諸天隱名	-13.1377
尿	-13.1377
弟子五雷三司判官知北極驅邪院事	-13.1377
獨立而不改周行而不殆	-13.1377
穄	-13.1377
誦是經皆即受度飛昇南宫	-13.1377
中朝帝尊壽億年太平滅兵刀稽首望玉	-13.1377
J	-13.1377
掯	-13.1377
蒺	-13.1377
萬遍道備飛昇太空過度三界位登仙公	-13.1377
鞾	-13.1377
濟度埀死絶而得生所以爾者學士	-13.1377
禇	-13.1378
神公受命普掃不祥八威吐毒猛馬四張	-13.1378
齋六時行香十徧轉經福德立降	-13.1378
U	-13.1378
若彈丸色同朱橘	-13.1378
玉女五帝直符直日香官各三十六人出	-13.1378
青天魔王姓斌諱齒成	-13.1378
三萬七千年應運下傳若有至人齎金	-13.1378
A	-13.1378
N	-13.1378
内外蓊㝠有青龍白虎朱雀玄武	-13.1379
褫	-13.1379
嶽府命元自然玄照之炁	-13.1379
𩴮	-13.1379
夊	-13.1379
金真朗郁流響雲	-13.1379
剃	-13.1379
无量爲萬道之宗巍巍大梵德難可勝	-13.138
箔	-13.138
二物會時情性合五行全處虎龍蟠	-13.138
仰嚥九過止行此道八年	-13.138
尢	-13.138
陲	-13.138
仄	-13.138
箬	-13.138
亷	-13.138
見有帝王國主文武大臣	-13.138
鱔	-13.138
无上玄元三天玉堂大法宗旨卷之二十	-13.138
籖	-13.1381
鵑	-13.1381
不絶常爲人君安鎮其方民稱太平	-13.1381
玄明恭慶天帝龍羅菩	-13.1381
眊	-13.1381
近取諸身遠取諸物	-13.1381
蟜	-13.1381
玕	-13.1381
捺	-13.1382
梯周旋八天七祖相隨	-13.1382
玞	-13.1382
茅山上清三十八代宗師蔣宗瑛校勘	-13.1382
菓	-13.1382
𠜍	-13.1382
无量大神皆由我身我有洞章萬徧成仙	-13.1383
僂	-13.1383
剜	-13.1383
杇	-13.1383
延壽長年後皆得作屍解之道	-13.1383
貪不欲不憎不𡜍言無華綺口無惡聲	-13.1383
誠感誠慶頓首頓首再拜謹言	-13.1383
天丁前驅大帥仗旛擲火萬里流鈴八衝	-13.1383
右別至人克得爲聖君金	-13.1384
堦	-13.1384
上詣三天金闕玉陛下請降	-13.1384
嵓	-13.1384
吏罡風騎置吏驛馬上章吏飛龍騎吏等	-13.1384
毆	-13.1384
六萬四千七百四萬	-13.1384
枲	-13.1384
羯	-13.1384
嶒	-13.1384
鼐	-13.1384
賃	-13.1385
天中大梵隱語无量音道君譔元始靈書	-13.1385
混洞赤文无无上眞元始祖劫化生	-13.1385
纍	-13.1385
淨自然覺王如來髙虚清明天主帝	-13.1385
翎	-13.1385
諍	-13.1385
棚	-13.1386
要知産藥川源處只在西南是本鄉	-13.1386
豔	-13.1386
七十二萬五千五百九十	-13.1386
某誠惶誠懼頓首頓首再拜謹言	-13.1386
懸坐空浮五色獅子	-13.1387
眞人曰五行顛倒術龍從火裏出五行不	-13.1387
皤	-13.1387
躃	-13.1387
億重道炁千二百官君太清玉陛下	-13.1387
擗	-13.1387
方无極飛神召靈長生大聖无量度人	-13.1387
邉	-13.1387
不殺不害不嫉不妬不淫不	-13.1387
外變化昇入洞門七祖出夜九幽	-13.1388
确	-13.1388
櫺	-13.1388
斗中神仙諸靈官伏聞	-13.1388
轉經受生願所啓上徹	-13.1388
三天大聖都天大法天師	-13.1388
天關十轉則十方大聖上朝玉	-13.1388
再拜以聞太清玄元太上无極大道	-13.1388
大仁大孝大聖大慈	-13.1388
楂	-13.1388
櫳	-13.1388
菡	-13.1388
凌三界逍遙上清上清之天天	-13.1389
睎	-13.1389
俵	-13.1389
𩲕	-13.1389
天尊禮足至心懴悔	-13.1389
千六百一十六萬	-13.1389
方无極碧落空歌玉音神王之音	-13.1389
趄	-13.1389
百錢爲一過貫錢爲十過	-13.1389
懣	-13.139
状	-13.139
諷經向來回向	-13.139
元綱流演三十二天輪轉无色周回十方	-13.139
韮	-13.139
蚣	-13.1391
𨤲	-13.1391
跏	-13.1391
鄔	-13.1391
伹	-13.1392
祈求嗣續慶延門閥	-13.1392
袱	-13.1392
檮	-13.1393
謔	-13.1393
雩	-13.1393
惷	-13.1394
皓庭霄度天帝慧覺昏	-13.1394
太文翰寵妙成天帝那育醜	-13.1394
𣸉	-13.1395
扳	-13.1396
簞	-13.1396
侃	-13.1396
洼	-13.1396
鎧	-13.1396
以今吉辰伏地貢章一通上詣三天曹	-13.1397
駮	-13.1397
非禮勿視非禮勿聽非禮勿言	-13.1398
琮	-13.1398
飪	-13.1398
晋郭璞注古文	-13.1398
蠆	-13.1398
焚香然燈供養本音東廚司命竈君	-13.1399
號者今須至心歸命信禮至心歸命信禮	-13.1399
悰	-13.1399
之座說經一遍諸天大聖同時稱善是時	-13.14
栱	-13.14
驍	-13.14
瀦	-13.14
蒯	-13.14
氣无極世界之中應身乃有	-13.14
𦤎	-13.14
搭	-13.1401
蚋	-13.1402
清江後學張理仲純述	-13.1403
耒	-13.1404
嚕	-13.1405
伋	-13.1405
劓	-13.1405
擴	-13.1406
至心皈命禮桂香内殿文昌内宫	-13.1406
醻	-13.1407
嘙	-13.1407
奣	-13.1407
賵	-13.1408
呴	-13.1408
巑	-13.1408
菹	-13.141
穏	-13.1411
痿	-13.1411
英公子白元尊神太一司命桃康合延	-13.1411
遣仙官下迎授書爲	-13.1412
不足以名道故亦無無	-13.1412
邐	-13.1412
坌	-13.1413
酋	-13.1413
蟊	-13.1413
洸	-13.1414
槨	-13.1415
闉	-13.1415
𦆯	-13.1416
蔀	-13.1417
俶	-13.1417
㳂	-13.1418
祧	-13.1418
旼	-13.1419
陬	-13.142
晣	-13.1427
嵌	-13.1428
咆	-13.1428
唆	-13.1428
懟	-13.1429
彥	-13.143
駞	-13.1431
於未來世必當得果	-13.1431
𩲲	-13.1434
痴	-13.1436
忸	-13.1436
幔	-13.1436
璐	-13.1442
汭	-13.1443
怍	-13.1447
醅	-13.1447
呇	-13.1453
錚	-13.1462
齅	-13.1463
𢷤	-13.1465
蚿	-13.1466
璲	-13.1467
鐫	-13.147
𧓍	-13.1471
頳	-13.1477
狢	-13.1479
桁	-13.1496
群祅束首鬼精自亡	-13.1572
供養尊禮門户興隆世世昌熾與善因	-13.1764
北酆明檢鬼營不得容隱金馬驛程普告	-13.1981
誠感誠慶頓首頓首謹言謝	-13.2782
珠之中天人仰看惟見勃勃從珠口中入	-13.3292
揩	-13.3313
諸天上帝及至靈眞王隱祕之音	-13.332
衽	-13.3328
兹符命解釋寃仇時刻昇遷一如告命度	-13.3329
面到平地路三里	-13.3329
諸天上帝及至靈魔王隱祕之音	-13.3331
従	-13.3332
纈	-13.3339
䏶	-13.3339
菽	-13.3342
鶱	-13.3343
速降急速現形吾奉帝命與吾速降速	-13.3346
囓	-13.3347
裀	-13.3347
篁	-13.3347
道入口相交連訣吹彈符中	-13.3347
歩玉京度人无量爲萬道之宗巍巍大	-13.3349
日月三旬一遇逢以時易日法神功	-13.3351
鏌	-13.3353
方以類聚物以羣分	-13.3353
𣢾	-13.3353
蝱	-13.3353
卛	-13.3353
靈根赤精純道成號威尊利雲	-13.3354
棣	-13.3355
嘲	-13.3355
䋲	-13.3356
齋戒禮誦萬過飛仙无上	-13.3356
蓆	-13.3356
未鍊還丹須急鍊鍊了	-13.3356
厝	-13.3356
章炎通泛堅敷澄宗	-13.3356
之人七百年内聽得三傳盟	-13.3357
濶	-13.3357
踝	-13.3357
瓴	-13.3357
雇	-13.3357
白首面皺皆得化度	-13.3357
渰	-13.3358
今對聖前咸悉懴悔	-13.3358
二十四獄三塗五苦之中萬劫得還長充	-13.3358
異名同出少人知兩者玄玄是要機	-13.3359
滎	-13.3359
湩	-13.336
紫虚了眞子蕭廷芝元瑞述	-13.336
但將地魄擒朱汞	-13.336
枰	-13.336
蚯	-13.336
菱	-13.3361
休妻謾遣陰陽隔絶粒徒教腸胃空	-13.3361
天中大梵隱語無量音道君譔元始靈書	-13.3361
挨	-13.3361
北方洞隂朔單鬰絶五靈玄老黑帝	-13.3361
煩惱爲結學業爲習	-13.3361
形類而得受潤見此神變尋光而來不動	-13.3361
亶渾都戟芸荼炫井欺持蒲掌維迮儀奕	-13.3362
覀	-13.3362
消除災障道炁長存臣衆等志心歸命	-13.3362
亦當面北存神靜慮至心禮念自然	-13.3362
南上司命司録延夀益筭度厄尊神	-13.3363
嵋	-13.3363
䰟神澄正萬炁長存不經苦惱身有光明	-13.3363
變化自然元始混炁玄中之玄上干有	-13.3363
萬神綿綿心中心呪重復宣傳貪羅洞	-13.3363
謹依科式建立星壇備香花燈燭之儀	-13.3363
畚	-13.3364
伐功斷事萬不得仙三犯	-13.3364
般若波羅蜜多	-13.3364
廿	-13.3365
躐	-13.3365
𠋣	-13.3365
淖	-13.3365
黽	-13.3365
命酒鼎中收取返魂漿	-13.3365
婦人懷妊鳥獸含胎已生未生皆得生成	-13.3365
施巧僞爲功力認取他家不死方	-13.3365
穫	-13.3365
魁靜夷損光混元覺縁道守岑遥綿	-13.3365
先把乾坤爲鼎器次搏烏兔藥來烹	-13.3365
太上三五都功職籙弟子陳椿榮集註	-13.3365
倅	-13.3365
東方八天森角儲雲九	-13.3365
盧隨哲京常華墟咸堅沙栗鐸黜株會衍	-13.3366
人以虞愚我以不虞	-13.3366
帝云大劫交周當刻書金札以佩身	-13.3366
幽夜之魂受眞人開度謂之浮	-13.3366
此文以度學者人身其文九千年一出	-13.3366
嶰	-13.3367
揄	-13.3367
氳	-13.3368
鼾	-13.3368
抬	-13.3368
鉛不知火候也如閑大都全藉	-13.3368
制九天炁以度學者其三元符命保固	-13.3368
北方得五炁以分天境劫號開皇	-13.3368
西方得七炁以分天境劫號延康	-13.3368
膓	-13.3369
鬒	-13.3369
芸	-13.3369
丹術著明莫大乎金火	-13.3369
䖏	-13.3369
犮	-13.3369
𤩹	-13.3369
十二炁以分天境劫號上皇	-13.3369
群魔束形鬼精滅爽迴屍起死白骨成人	-13.3369
同契曰金來歸性初乃得稱還丹	-13.3369
婦人懷姙鳥獸含胎已生未生皆得生成	-13.3369
六害七傷八難九厄	-13.337
𥞫	-13.337
天下歌謡欣國太平	-13.337
諸天記人功過亳分無失天中	-13.337
愚謹因二官直使正一功曹左右官	-13.337
林間羽客樗櫟道人編	-13.337
隱名也非世上之常辭上聖已成	-13.337
道言行道之日皆當香湯	-13.337
鍍	-13.337
縢	-13.337
宴紫庭七祖同慶歡樂劫齡七寳林中	-13.3371
既見仙官各禮而受之即服覺其味	-13.3371
𡖥	-13.3371
用鉛不得用凡鉛用了眞鉛也棄捐	-13.3371
㨂	-13.3371
南方得三炁以分天境劫號赤明	-13.3371
即當修齋禮懴讀誦此經以	-13.3371
廪	-13.3371
煤	-13.3372
書白紙上存思訖而頓服之	-13.3372
鋼	-13.3372
鈔	-13.3372
也身長九尺玄毛被體皆長尺餘	-13.3372
萬神朝禮地祗侍門大勲魔王保舉上	-13.3372
帝煉質亡魂飛昇極頂一如	-13.3372
東方得九炁以分天境劫號龍漢	-13.3372
硏	-13.3373
涔	-13.3373
億曾萬祖幽䰟苦爽皆即受度上昇朱宫	-13.3373
貍	-13.3373
三十五分緫氣上元八景㝠合氣入玄玄	-13.3373
橡	-13.3373
港	-13.3373
凡起火識五行生尅也	-13.3374
嗶	-13.3374
踧	-13.3374
浸故陰陽勝陰陽相推而變化順矣	-13.3374
特賜洞微先生右街鑒義主管教門	-13.3374
白虎性猖狂東海青龍不可當兩手捉來	-13.3374
縁彼此懷眞土遂使金丹有返還	-13.3374
其盗機也天下莫能見莫能知	-13.3374
坰	-13.3375
寳自然八合之音主治世會地壘洪澤	-13.3375
櫓	-13.3375
一犯伐功斷事不得又仙三犯	-13.3375
从	-13.3375
錯度日月失明四時失度隂陽不調國境	-13.3375
數衆乘空而來飛雲丹霄緑輿瓊輪羽蓋	-13.3376
沭	-13.3376
鉛見癸生須急採金逢望遠不堪嘗	-13.3376
鍋	-13.3376
一霎火焰飛眞人自出現	-13.3376
後召復到一如故事	-13.3376
鵶	-13.3376
分而有九層之臺處乎玉京之	-13.3376
即得化生始分之中刻書金札以佩身	-13.3376
如此等輩直置自生无量苦惱	-13.3376
曨	-13.3376
輪流煙九萬重髙上洞清	-13.3376
雚	-13.3377
佩明驗施之於至學不宣於下俗也太極	-13.3377
𥘞	-13.3377
唧	-13.3377
扑	-13.3377
消魔玉符訣曰當朱書青繒佩之存呼	-13.3377
育者天關空輪之名郁馥	-13.3377
赧	-13.3377
髑	-13.3377
舎	-13.3377
孜	-13.3378
不寧也地官奉書百靈	-13.3378
砒	-13.3378
砧	-13.3378
法侈宜廣帝理生衛肇宏人	-13.3378
河出圖洛出書聖人則之	-13.3378
朱髮巨翅雙目	-13.3378
饒君了悟眞如性未免抛身却入身	-13.3378
十轉迴靈萬炁齊仙	-13.3378
堇	-13.3378
擡	-13.3378
日魂月魄庚虎甲龍水銀朱	-13.3378
珠之中天人仰看惟見拂拂從珠口中入	-13.3378
蒐	-13.3378
蓽	-13.3378
離坎若還無戊己雖含四象不成丹	-13.3378
炁上元八景冥合炁入玄玄玄中太皇	-13.3378
若不恒得生種種求種種計度或見人善	-13.3378
趎	-13.3378
迮國一半土皆徧陷非可禁止於是元始	-13.3378
轅飛軿九萬重髙上洞清紫虚空洞	-13.3379
貎	-13.3379
鸇	-13.3379
𥬇	-13.3379
朱外向内塗後墨内向外塗	-13.3379
河車不敢暫留停運入崑崙峰頂	-13.3379
願得除臣七祖以來下逮臣身	-13.3379
瀼	-13.3379
靈寳旡量度人上經大法卷之	-13.3379
𠯐	-13.3379
北都泉曲府中有萬鬼羣但欲遏人筭斷	-13.3379
瞻之在前忽焉在後	-13.3379
郿	-13.338
迕	-13.338
筞	-13.338
頽雲三角髻餘髮	-13.338
万	-13.338
讌	-13.338
灌以水母之精導以太和之炁	-13.338
簡學仙之人生死録籍開度九幽之魂	-13.338
讟	-13.338
本是東家子送在西鄰寄體生認得	-13.338
蕞	-13.338
墊	-13.338
所以爾者學士穢氣未消體未洞真	-13.338
竝	-13.338
自然有鼎烹龍虎何必擔家戀子妻	-13.338
靶	-13.338
鬼精自亡琳琅振響十方肅清河海	-13.338
滁	-13.3381
英命靈旛攝召長夜府開	-13.3382
兾	-13.3382
其運之極又經一劫九炁各生	-13.3382
仙公有聞靈音眞王敬形敕制地祇侍	-13.3382
阿陀龍羅四象吁員	-13.3382
䤈	-13.3383
燬	-13.3383
𨊧	-13.3383
鉸	-13.3383
五日爲一候三候爲一	-13.3383
西東四象交加戊己中復	-13.3383
唏	-13.3384
筐	-13.3384
㸔	-13.3384
九江冰湖埜人薛季昭	-13.3384
桷	-13.3384
陡	-13.3384
太歲年月日吉時告下具法位	-13.3384
宫誦之千遍眞王保迎萬遍道備飛	-13.3384
呤	-13.3385
棧	-13.3385
若要眞鉛留汞親中不離家臣	-13.3385
慈光燭三界眞聖妙道師天人依仗師大	-13.3385
九天炁始生荐无英扶陽通攝御丹林合	-13.3385
某州郡縣郷里	-13.3385
某誠惶誠懼頓首頓首再拜上言	-13.3385
醑	-13.3386
然骨四明破骸天猷滅	-13.3386
觧	-13.3386
倏欻之間寂無遺響是時天人遇值經法	-13.3386
各隨人心生種種想假使恒得則	-13.3386
見有帝王后妃將相大臣	-13.3386
天無浮翳四氣朗清	-13.3386
衞送迎拔出地戸五苦八難七祖	-13.3387
肋	-13.3387
鬃	-13.3387
範德難可勝道言凡誦是經	-13.3387
媅	-13.3387
㘽	-13.3387
幌	-13.3387
㫁	-13.3387
戴九履一左三右七二四爲肩六八爲足	-13.3387
箎	-13.3387
鈸	-13.3387
亊	-13.3388
篷	-13.3388
唫	-13.3388
愿	-13.3388
斵	-13.3388
本因戊己爲媒娉遂使夫妻鎮合歡	-13.3388
靨	-13.3388
泛景太霞嘯詠洞章金眞朗郁流響	-13.3388
䡩	-13.3388
瓏	-13.3389
憮	-13.3389
緗	-13.3389
癤	-13.3389
鑱	-13.3389
始皇孝芒天帝薩羅婁	-13.3389
上消天災下禳毒害	-13.3389
七祖昇遷永離鬼官䰟度朱陵受鍊更生	-13.3389
之炁盤旋勃勃入壇叩齒	-13.3389
以道預有志心宗奉禮敬皆得度世道言	-13.3389
賢薛道光子野陸墅上陽子陳致虚註	-13.3389
山嶽吞煙萬靈振伏招集羣仙	-13.339
荊	-13.339
䈁	-13.339
黧	-13.339
南閻洞浮玉眸詵詵	-13.339
大魔萬神之宗飛行鼓從總領鬼兵麾	-13.339
瀚	-13.339
楪	-13.339
緾	-13.339
是行邪道亦名謗法不名迴向	-13.339
跖	-13.3391
驩	-13.3391
龍不在東溟虎不在西	-13.3391
䦨	-13.3391
呼則接天根吸則接地根	-13.3391
䡠	-13.3391
纉	-13.3391
天眞大聖妙行眞人靈妃玉女	-13.3391
諗	-13.3392
在人先須鍊己待時	-13.3392
参	-13.3392
薇	-13.3392
果生枝上子在胞中	-13.3392
至靜之道律曆所不能契	-13.3392
殛	-13.3393
寀	-13.3393
莠	-13.3393
齕	-13.3393
虯	-13.3393
慥	-13.3393
至心歸命信禮无上天尊重復懴悔	-13.3393
此時樂兮薄由我恩龍漢蕩蕩何能别	-13.3394
剙	-13.3395
鍤	-13.3395
岌	-13.3395
小兆臣薛季昭	-13.3395
誹	-13.3395
荃	-13.3395
拋	-13.3396
蝡	-13.3396
霤	-13.3396
淒	-13.3396
人之位有犯科違禁	-13.3396
尺盟天登修之日書	-13.3396
飢來喫飯困來眠	-13.3397
獺	-13.3397
焱	-13.3397
𠪨	-13.3397
鑣	-13.3397
購	-13.3398
在迷津似恁欺心安忍	-13.3398
變隂合而生水火木金土	-13.3398
搓	-13.3398
𨌩	-13.3398
𨎿	-13.3399
輹	-13.34
瞢	-13.34
橈	-13.34
腪	-13.34
執鑚鎚背雷車	-13.3401
姫	-13.3401
否泰交則陰陽或升或降	-13.3401
鐃	-13.3401
母呼亦呼母吸亦吸	-13.3402
大哉至道無宗上眞上度諸天下濟幽	-13.3402
惟道爲身丹臺紫府金闕玉京祕此妙法	-13.3402
府定罪𡨋官酆都山	-13.3402
衆等志心皈身皈神皈命神霄投誠玉府	-13.3402
昪	-13.3403
㪍	-13.3403
地發殺機龍蛇起陸人發殺機天地反覆	-13.3403
𪃋	-13.3403
鰥	-13.3404
𥹋	-13.3404
蔗	-13.3404
屯蒙作則動靜在朝在昏	-13.3404
軨	-13.3404
澠	-13.3405
惲	-13.3405
繒佩之九年玉司削兆死過度兆生宫遣	-13.3405
沲	-13.3406
絳雲三重覆匝身形	-13.3406
袷	-13.3407
𡬶	-13.3407
鷇	-13.3407
善男子眞人童子復作是願寧以	-13.3408
輜	-13.3408
易象圖說外篇卷	-13.3408
趯	-13.3409
宬	-13.341
𤼣	-13.3411
鄠	-13.3412
箚	-13.3412
晁	-13.3413
畺	-13.3414
貙	-13.3415
媛	-13.3416
消禳國君王侯世土災祥	-13.3416
澥	-13.3417
㛗	-13.3417
蔞	-13.3418
莛	-13.3418
壌	-13.3418
善男子眞人童子復作是願寜以	-13.3418
怫	-13.342
昵	-13.342
套	-13.342
鎪	-13.3421
禰	-13.3422
酇	-13.3422
鄞	-13.3422
畤	-13.3427
鬯	-13.3428
塾	-13.3429
蚑	-13.343
蜞	-13.343
螣	-13.343
湏	-13.3431
胙	-13.3432
炁至真大聖無鞅之衆浮空而至說經	-13.3433
傒	-13.3434
郯	-13.3434
玗	-13.3434
偎	-13.3436
歩綱畢正身入魁中	-13.3438
桅	-13.3439
名誠感誠慶頓首頓首謹言	-13.3439
噩	-13.3439
鄽	-13.344
塤	-13.3442
嵫	-13.3442
蝟	-13.3442
蕣	-13.3443
靦	-13.3443
閧	-13.3444
棐	-13.3445
㽔	-13.3451
錘	-13.3452
喭	-13.3452
窿	-13.3453
黄白三色雲炁之中内外蓊	-13.3454
衎	-13.3459
簮	-13.3459
泫	-13.346
柢	-13.3463
儺	-13.3464
黳	-13.3481
扭	-13.3482
轣	-13.3483
墩	-13.3484
汹	-13.3488
橙	-13.349
胼	-13.3516
澱	-13.3517
羃	-13.3524
仙公有聞靈音魔王敬形勑制地祇侍	-13.3524
𣰉	-13.353
戸五苦八難七祖升遷永	-13.3538
閉目靜思身坐青黄白三色雲炁之中	-13.5364
寶質心依舊格告盟	-13.5712
龠	-13.5772
如前吸咽及吹水鏡	-13.578
百千萬劫報盡復還生于兹世以前業故	-13.5816
㤙	-13.582
時以待小運日生元炁傳送在	-13.5822
憣	-13.5823
雰	-13.583
窶	-13.5831
栴檀神王座下一十五種鬼	-13.5835
根感激幽微挺生大神攝召萬炁齊	-13.5835
華房消蕩百魔與道俱昌保度却	-13.5835
儷	-13.5837
至度道岸無使災侵	-13.5837
五嶽四瀆及諸名山洞玄洞虚洞空洞仙	-13.5838
覯	-13.5838
仐	-13.584
隽	-13.584
翇	-13.5841
導引服氣不得其理可先服	-13.5841
𥬒	-13.5841
咂	-13.5842
溽	-13.5842
三千六百之正炁回七十二候之要津	-13.5846
鏨	-13.5846
八上始遭逢口訣傳來便有功	-13.5846
甎	-13.5846
不識眞鉛正祖宗萬般作用枉施功	-13.5846
醬	-13.5846
勍	-13.5848
守城野戰知凶吉增得靈砂滿鼎紅	-13.5848
緃	-13.5849
痾自痊鍊魂育魄眞陽自全	-13.5849
調和鉛汞要成丹大小無傷兩國全	-13.5849
鶻	-13.5849
山山中内外盡非鉛此般至	-13.5851
佀	-13.5851
么	-13.5852
嘯命河源運役隂陽召神使仙此至眞之	-13.5852
椅	-13.5852
叄	-13.5853
夾脊雙關至頂門修行徑路此爲根	-13.5853
縚	-13.5853
紫素左元君翳鬱仞字安來上	-13.5855
筆玉妃拂筵鑄金爲簡刻書玉篇五老掌	-13.5855
攧落地萬象森羅總不知	-13.5855
䄂	-13.5855
三寳善功徹天或供養師寳爲三官所稱	-13.5855
北斗運天宫遊擊文曲星皇君北斗帝席	-13.5855
簀	-13.5856
與斗連歷度四七入金門	-13.5856
簦	-13.5856
上清嗣宗師劉大彬造誥副墨	-13.5856
成天立地開張萬眞安神鎭靈	-13.5856
煥紫庭八芒朗映魂	-13.5856
兔雞之月及其時刑德臨門	-13.5856
曲注蔭潤蒼生冠帶金門華根鮮明服御	-13.5856
宫上帝破軍星皇君洞陽宫	-13.5856
琅璀扁縷益但幽微畢雷涓湟	-13.5856
銍	-13.5857
隹	-13.5857
洳	-13.5857
麕	-13.5858
可謂道高龍虎伏堪言德重鬼神欽	-13.5858
講至眞不將火候著於文要知口訣	-13.5858
蜄	-13.5858
誰知報言學道諸君子不識陰陽莫强嗤	-13.5858
北斗綱極宫太尉貪狼星皇君北斗靈關	-13.5858
岭	-13.5859
㕘	-13.5859
消息始知機由來庚甲申明令殺盡	-13.5859
肌膚若冰雪綽約若處子	-13.5859
向家園下種栽不假吹	-13.5859
鷂	-13.5859
年命無幾復受死壞魂	-13.5859
象之到此金砂宜沐浴若還加火必傾危	-13.586
金寳質心依舊格吿盟十天然後而付焉	-13.586
隅歷遐薦漪周扃加圖披	-13.586
麒	-13.586
羅衛百關豁落滅魔試凶	-13.586
舉事禍將不乆若還武昌則壽未可量也	-13.586
櫻	-13.586
三萬六千關節根源本始一時生神	-13.586
師弟子對齋百日告盟而傳給玉	-13.586
本乎天者親上本乎地者親下	-13.586
館受九仙之籙登大聖之號	-13.586
捄	-13.586
躚	-13.586
天炁頓啓冥暗豁消五色光明洞照十方	-13.5861
臄	-13.5861
詒	-13.5862
洌	-13.5862
結津固百骸瓊耀擁胎仙晨暉注明景魔	-13.5862
雲峰散人永嘉夏宗禹著	-13.5862
彀	-13.5862
阯	-13.5862
此是用鉛眞妙訣用鉛不用是誠言	-13.5862
阨	-13.5862
六腑使胃管生津以納和	-13.5862
龎	-13.5862
消魔玉符訣曰當朱書黃繒佩之存呼	-13.5863
町	-13.5863
尻	-13.5863
炒	-13.5863
一陽纔動作丹時鉛鼎温温照幌	-13.5863
臓六腑九宫金樓玉室十二重門紫戸玉	-13.5863
袢	-13.5863
繰	-13.5863
所應度嚴校諸天普告三界無極神郷泉	-13.5864
瞖	-13.5864
鄜	-13.5864
掌教凝和持正明素眞人苗道一收執	-13.5864
軹	-13.5864
上者坤母上詣帝君申劫	-13.5864
束制妖鬼魔凛落霄風寒	-13.5864
醨	-13.5864
雘	-13.5864
怵	-13.5864
簁	-13.5864
元府命元髙仙洞笈之炁	-13.5864
鎮人身泥丸絳宮中理五	-13.5864
下元符固天炁禳此災度陽九百六之㑹	-13.5864
歕	-13.5866
蹰	-13.5866
左青龍右白虎前朱雀後玄武	-13.5866
為始就某處肅建玄壇	-13.5866
我無爲而民自化我好靜而民自正	-13.5866
詆	-13.5866
諸天元福田大千用賢世界西南	-13.5866
金尅木木尅土土尅水水尅火火尅金	-13.5866
圮	-13.5866
天有八字合六十四音皆天中大梵隱語	-13.5866
德天后北斗九皇大道君斗宫	-13.5866
赤明始開其八天之炁分度並屬	-13.5866
同氣皆當齊心修齋六時行	-13.5866
領人生死圖録總主神仙	-13.5866
諸天福集都大千長安世界東南	-13.5867
蚕	-13.5867
堪聽若言九載三年者盡是推延款日程	-13.5867
埵	-13.5867
景雲流精紫闕帶金軒瓊	-13.5867
萬靈無幽不察無願不成劫終劫始剪伐	-13.5867
懹	-13.5867
栩	-13.5867
造化敷靈綱下統虚危精寳育天元房	-13.5867
右别至人剋得爲聖君金	-13.5867
更饒吐納並存想總與金丹事不同	-13.5867
玉眞上聖於是而回明首者元始之都候	-13.5867
羅梵萌景蔚蕭嵎易邈無寂宛首少都阿	-13.5867
名君上皇開運號元始丈人梵炁	-13.5867
天數五地數五五位相得而各有合	-13.5867
金輪以開冥玉女揚華旛以披	-13.5867
猨	-13.5869
紫霄之上遊觀玉京之山羅者月女之諱	-13.5869
蘖	-13.5869
太上元極緫眞文昌大洞仙經卷之	-13.5869
刈	-13.5869
太上元始天尊說消殄蟲蝗經	-13.5869
己身並充左右二官之考罰以刀山	-13.5869
沙陀劫量龍漢瑛鮮	-13.5869
靈寳玉篇眞文合一百二十字皆太上	-13.5869
制魔保舉度品南宮死䰟受鍊仙化成人	-13.5869
右件玉章天篆九十字上鎮	-13.5869
伍以變錯綜其數通其變遂成天地之文	-13.587
金水方火發崑崙陰與陽二物若還	-13.587
産陰陽陰陽再合生三體三體重生萬物	-13.587
神王常使匡御三界簡人	-13.587
𢬵	-13.587
㡬	-13.587
元始符命金籙白簡九龍真符告下	-13.587
命信禮拔苦度厄眞人弟子某式憑眞誥	-13.587
苕	-13.587
右上元大劫交周天地改易金玉山海人	-13.587
地獄乘此陽光得生人道中	-13.587
嬰兒是一含眞炁十月胎圓入聖基	-13.587
立降消諸不祥无量之文普度	-13.587
上消天灾保鎮帝王下禳毒害以度兆民	-13.5871
冋	-13.5871
娃	-13.5871
修眞十書武夷集卷之四十八	-13.5871
圠	-13.5871
郷諸靈官無鞅數衆一時同㑹	-13.5871
後海潮陵谷任遷移	-13.5871
梵眇眇遊元六變運量馘絶惡愆恢	-13.5871
死鬥化成一塊紫金霜	-13.5871
鬆	-13.5871
熹	-13.5871
蠓	-13.5871
飣	-13.5871
元始肇形五劫初化乃命梵元祖晨道君	-13.5871
者知四時之炁十轉之關則入法輪之門	-13.5871
觀飛天眞人臺上有太眞玉郎一日三	-13.5871
録天元運乘五劫故元洞者以	-13.5871
招集群仙天无氛穢地无祅塵	-13.5872
滃	-13.5873
晳	-13.5873
濺	-13.5873
井鬼栁星張翼軫	-13.5873
無上九霄玉清大梵紫微玄都雷霆玉經	-13.5873
風火驛傳太歲年月日吉時告下	-13.5873
黄中通理正位居體美在其中	-13.5873
睚	-13.5873
阿豁落洞玄文誰測此幽遐一入大	-13.5873
今齋官某人㧞度亡過某人形魂往	-13.5873
刖	-13.5873
更兼修大藥頓超無漏作眞人	-13.5873
劫終之後三界空壞萬物精爽長	-13.5873
之存威忿即霜秋和	-13.5873
列言於南斗南斗即度三界之	-13.5873
堙	-13.5873
糺制星宿魂非帝道不運有方	-13.5873
恢宣正化敷揚神功	-13.5873
育物布元春雲龍轡嚴駕玉	-13.5874
路孰計年劫多不生亦不滅欲生因蓮	-13.5874
道委曲戒天人心根迷自固拱跽戴洪仁	-13.5874
於水火天地不能逾鬼神不能惑行人	-13.5874
蓬萊路仗三千行滿獨步雲歸	-13.5874
不殺不害不嫉不妬不婬不盗不	-13.5874
九微太眞玉保王金闕上相大司命	-13.5874
八威禁龍制虎飛英太白玉化	-13.5874
喎	-13.5874
寳房名曲麗明璫神所居飛遊豁	-13.5874
月纔天際半輪明早有龍吟虎嘯聲	-13.5874
根翹機貫億曆洞朗闢四門大有混皇	-13.5874
爆	-13.5874
玉樞洞堂啓金除騫林廕瑶砌丹鸞踏瓊	-13.5874
翳而不彰眇眇然也莽者	-13.5874
上清嗣宗師劉大彬造金薤編	-13.5874
以禁戒之儀遜謝不逮	-13.5874
敷自然之書立天地之根也九都者三象	-13.5874
方炁吹符吞佩各一道忌	-13.5874
无氛穢地无妖塵冥慧洞清大量玄玄也	-13.5874
玘	-13.5874
簜	-13.5874
鬨	-13.5874
瀕	-13.5875
反胎更生長夜出離南宫記名	-13.5875
蛺	-13.5875
人發殺機天地反覆天人合發萬變定機	-13.5876
踟	-13.5876
敲竹唤龜吞玉芝鼓琴招鳳飲刀圭	-13.5876
王下禳毒害以度兆民生死受賴其福難	-13.5876
㽞	-13.5876
帝皇太一重冥空字幽寥	-13.5876
諸天上帝齊其聖功後因龍漢開圖乃服	-13.5876
逄	-13.5876
坱	-13.5876
枋	-13.5876
罍	-13.5876
西靈眞人常誦洞章以遊其上廓奕	-13.5876
可以爲天下母吾不知其名字之曰道	-13.5876
故知上善利源深不比尋常藥品	-13.5876
曛	-13.5876
矰	-13.5876
人知其神之神不知不神之所以神神	-13.5876
噍	-13.5876
天君侍眞靈官上朝金闕于時	-13.5876
小千數至千爲中千中千數至千爲大千	-13.5876
德致昌熒惑消禍太白辟兵	-13.5876
行太極之上爽靈風之炁歌洞章之曲	-13.5876
觀九玄之中那者那邪飛天神人	-13.5876
飛景雲之輿降三素之軿度身三界之上	-13.5876
帝飛瓊羽蓋九萬重髙上洞清紫虚空洞	-13.5876
迮國一半土皆偏䧟非可禁止	-13.5877
修逾八百陰功積滿三千均齊物我與親	-13.5877
始合神仙本願虎兕刀兵不害	-13.5877
東望重拜手蒼帝玉皇君靈風鼓	-13.5877
䘏	-13.5877
元始洞真慈善孝子報恩成道經	-13.5877
剿	-13.5877
嘯詠洞章金眞明郁流響雲	-13.5877
靈書八會字無正形其趣宛奥難可尋詳	-13.5877
精爲西斗丹元爲南斗北極爲北斗天關	-13.5877
䌝	-13.5877
至也育帝常乘八景之輪	-13.5877
始玄奥演大法以度人少都者日中靈童	-13.5878
流飛華以拂塵學人知八字之音	-13.5878
諸天記名萬神侍衞右别至人剋得爲	-13.5878
雷主律令大神炎帝天君鄧爕	-13.5878
口鼻妄施爲饒君吐納經千載	-13.5878
某誠感誠慶頓首頓首再拜	-13.5878
彿	-13.5878
泉曲之府北都羅鄷三官九府十二河源	-13.5878
錦飛裙口衘月光下入兆身	-13.5878
徧諸天大聖同時稱善是時一國男女	-13.5878
開長夜之府拔九幽之魂以度三界	-13.5878
主回九天之關萌者元始天神	-13.5878
九者育王乘象輪之車	-13.5878
畆	-13.5878
初天地未判輪轉三炁開爲九分九度	-13.5878
是魔王之神主常試學道之人正與不正	-13.5878
珠大如𥞫米在空玄之中去地	-13.5878
曆也學人通八字之音則飛天眞人降	-13.5879
洞之化結自然之章坦然廣大開度萬生	-13.5879
琦	-13.588
止足若也持盈未已心不免一朝遭殆辱	-13.588
賭	-13.588
黏	-13.588
敺	-13.588
眎	-13.588
兵行便宜事管天地水三界獄事	-13.588
一獸以害惡民其劫既開	-13.588
作謡歌以亂人心心固者王即保舉	-13.588
嗌	-13.588
底日紅陰怪滅山頭月白藥苗新	-13.588
永度三徒五苦八難超凌三界逍遥上清	-13.588
江淮荆襄等處道教	-13.588
泩	-13.588
運之初皆放大赦謂之大宥	-13.588
隨風巽君子以申命行事	-13.588
繚	-13.588
解五老上白天尊曰今日侍座所未曾見	-13.588
飤	-13.588
修眞十書武夷集卷之四十九	-13.5881
明堂曜天帝阿𨚧婁生	-13.5881
口吐陽精陽精赤以灌兆形從内帀外	-13.5881
羅言山勢相交日月明於	-13.5881
九層之臺處玉樓之上唱洞章以伏	-13.5881
憙	-13.5881
象輦遊行三界校人生死罪録開度學	-13.5881
總氣上元八景冥合氣入玄玄玄中太	-13.5881
道備尅得遊行三界升入金門此音	-13.5881
渢	-13.5881
惙	-13.5882
禔	-13.5882
圏	-13.5882
鼙	-13.5882
凳	-13.5882
檠	-13.5883
逍	-13.5883
訃	-13.5884
駱	-13.5884
㕓	-13.5884
币	-13.5884
籀	-13.5884
擿	-13.5884
豊	-13.5885
躩	-13.5885
嘟	-13.5885
蟪	-13.5885
匃	-13.5885
皐	-13.5885
苽	-13.5885
緉	-13.5887
済	-13.5887
窴	-13.5887
虗	-13.5887
搉	-13.5887
繍	-13.5887
敔	-13.5888
孃	-13.5888
𤪽	-13.5888
𥩈	-13.5888
歿	-13.5889
峒	-13.5889
穪	-13.5889
囁	-13.5889
瞶	-13.5891
湃	-13.5891
窑	-13.5891
仵	-13.5891
浼	-13.5891
澁	-13.5891
畎	-13.5891
荻	-13.5892
蟇	-13.5892
刪	-13.5892
綖	-13.5892
椉	-13.5892
罽	-13.5894
玎	-13.5894
軓	-13.5894
倞	-13.5895
媿	-13.5895
髣	-13.5895
毐	-13.5895
瘤	-13.5895
逯	-13.5895
䡇	-13.5895
筝	-13.5896
䝟	-13.5896
祔	-13.5896
絜	-13.5898
癲	-13.5898
𠾬	-13.5898
淝	-13.5899
滬	-13.5899
硋	-13.5899
茁	-13.59
垕	-13.59
薯	-13.5901
郪	-13.5901
洟	-13.5901
犒	-13.5901
佽	-13.5902
賸	-13.5902
礱	-13.5902
蕕	-13.5903
尨	-13.5903
𠋫	-13.5903
殈	-13.5905
筦	-13.5905
漈	-13.5905
柬	-13.5905
蹁	-13.5906
騑	-13.5906
茀	-13.5906
櫨	-13.5906
琩	-13.5907
峕	-13.5909
𢈔	-13.5909
羔	-13.5909
熔	-13.591
灨	-13.591
抒	-13.591
埒	-13.5911
曡	-13.5911
闻	-13.5911
媵	-13.5912
崧	-13.5913
𩴹	-13.5913
艦	-13.5916
咁	-13.5917
泌	-13.5918
䣙	-13.5919
擷	-13.592
猊	-13.592
瓓	-13.592
䔉	-13.592
訐	-13.5921
銛	-13.5923
岏	-13.5923
琨	-13.5923
綆	-13.5924
甆	-13.5924
臠	-13.5925
虢	-13.5925
呶	-13.5925
屧	-13.5929
癭	-13.593
机	-13.593
洑	-13.5931
阪	-13.5931
畐	-13.5931
黥	-13.5931
鋌	-13.5932
瓉	-13.5933
鞴	-13.5934
喊	-13.5937
輗	-13.5937
猋	-13.5938
沄	-13.5939
剸	-13.5942
圩	-13.5943
柷	-13.5944
豬	-13.5945
瀋	-13.5945
諴	-13.5946
秫	-13.5947
肫	-13.5948
糶	-13.5949
槽	-13.5949
篨	-13.595
䟦	-13.595
娣	-13.5951
鬐	-13.5952
璺	-13.5953
礎	-13.5955
瓖	-13.5956
皜	-13.5957
濆	-13.5958
栝	-13.5959
憒	-13.596
埛	-13.596
黮	-13.5961
㠗	-13.5968
焮	-13.5969
馗	-13.5971
祸	-13.5972
鋹	-13.5974
嚲	-13.5975
臒	-13.5976
伾	-13.5983
蘤	-13.5984
愎	-13.5986
窊	-13.599
遝	-13.5997
洴	-13.6001
甡	-13.6004
喁	-13.6019
𦈢	-13.6027
瑑	-13.6029
檉	-13.6031
菟	-13.6034
愐	-13.6036
礔	-13.6043
隄	-13.9054
爹	-13.9117
淛	-13.9146
禩	-13.9152
𣏌	-13.9154
楼	-13.9154
誷	-13.9154
辣	-13.9156
呦	-13.9156
搥	-13.9159
劊	-13.916
馤	-13.9161
軴	-13.9161
淊	-13.9161
秕	-13.9162
寕	-13.9167
拐	-13.9167
蕳	-13.9167
釆	-13.9171
扼	-13.9171
覊	-13.9171
砰	-13.9171
槧	-13.9173
緻	-13.9173
臊	-13.9173
諏	-13.9173
睞	-13.9173
蠍	-13.9175
鮒	-13.9177
梘	-13.9177
凸	-13.9177
柙	-13.9177
羾	-13.9179
𤇍	-13.9179
麩	-13.9179
祲	-13.9179
䨥	-13.9179
絫	-13.9181
榱	-13.9181
壹	-13.9181
㡳	-13.9181
鄺	-13.9181
咍	-13.9181
牗	-13.9181
鷟	-13.9181
尠	-13.9183
鷁	-13.9183
尔	-13.9183
薌	-13.9185
趂	-13.9185
嫖	-13.9185
襞	-13.9185
孀	-13.9185
瑝	-13.9185
厪	-13.9185
𡖉	-13.9185
覦	-13.9186
㢤	-13.9187
溲	-13.9187
纜	-13.9187
酤	-13.9187
賻	-13.9187
𨄔	-13.9187
鳬	-13.9187
薙	-13.9187
絺	-13.9188
綍	-13.9189
阡	-13.9189
眙	-13.9189
贓	-13.9189
詘	-13.919
艘	-13.919
聼	-13.919
摐	-13.9191
嘧	-13.9194
襆	-13.9194
𥼶	-13.9194
赐	-13.9194
囟	-13.9194
昝	-13.9194
苣	-13.9194
闆	-13.9194
㫰	-13.9196
棃	-13.9196
盩	-13.9196
伉	-13.9196
醲	-13.9196
鞲	-13.9196
沠	-13.9197
瘼	-13.9198
鬅	-13.9198
諉	-13.9198
逑	-13.9198
顢	-13.9198
䢖	-13.9198
莒	-13.9198
拚	-13.92
窱	-13.92
餗	-13.92
俘	-13.92
嗼	-13.92
𧙓	-13.92
篚	-13.92
甿	-13.92
皖	-13.92
鈜	-13.92
梃	-13.9202
苫	-13.9202
紓	-13.9202
臞	-13.9202
啍	-13.9202
椷	-13.9202
䘖	-13.9202
噂	-13.9202
襴	-13.9202
讐	-13.9202
螘	-13.9202
胴	-13.9203
挿	-13.9204
黝	-13.9204
髠	-13.9204
灃	-13.9204
癢	-13.9204
瞠	-13.9204
釿	-13.9204
𡨥	-13.9204
焯	-13.9206
戇	-13.9206
虱	-13.9206
贇	-13.9206
棓	-13.9208
礲	-13.9208
箑	-13.9208
埦	-13.9208
咯	-13.9208
殉	-13.9208
獐	-13.9208
苻	-13.921
錀	-13.921
喇	-13.921
鵷	-13.921
㲄	-13.921
厓	-13.921
宼	-13.921
旴	-13.921
碪	-13.921
蘷	-13.921
𨕞	-13.921
柤	-13.9211
菰	-13.9212
瑚	-13.9212
穉	-13.9212
牕	-13.9212
栴	-13.9212
蛀	-13.9212
譟	-13.9212
妷	-13.9212
銲	-13.9212
𣿼	-13.9212
𤥨	-13.9212
矝	-13.9213
鏟	-13.9214
蛄	-13.9214
𡏖	-13.9214
𦣱	-13.9214
煕	-13.9214
嬾	-13.9214
篛	-13.9214
鶡	-13.9214
丄	-13.9214
惴	-13.9214
柚	-13.9215
虀	-13.9215
莬	-13.9215
瑱	-13.9215
暌	-13.9215
禊	-13.9215
瑄	-13.9216
籯	-13.9216
哼	-13.9216
据	-13.9216
苧	-13.9216
霂	-13.9216
𡃳	-13.9216
屡	-13.9217
䦦	-13.9217
貉	-13.9217
嶚	-13.9217
彜	-13.9217
㵼	-13.9217
嘖	-13.9217
辠	-13.9217
徘	-13.9219
潴	-13.9219
胝	-13.9219
擄	-13.9219
啵	-13.9219
国	-13.9219
扺	-13.9219
譛	-13.922
醢	-13.9221
隼	-13.9221
餳	-13.9221
卽	-13.9222
噎	-13.9223
萱	-13.9223
鱨	-13.9223
繂	-13.9223
鄊	-13.9223
𥘵	-13.9223
澧	-13.9223
㬢	-13.9223
曀	-13.9223
曶	-13.9223
𨋔	-13.9223
欸	-13.9225
黻	-13.9225
熇	-13.9225
髄	-13.9227
𣋎	-13.9227
鋏	-13.9227
惛	-13.9227
癯	-13.9227
嚏	-13.9227
籧	-13.9227
嗛	-13.9229
䧏	-13.9229
刓	-13.9229
獃	-13.9229
禭	-13.9229
檳	-13.9229
蕋	-13.9229
嘰	-13.9229
帗	-13.9229
褘	-13.9229
𪉹	-13.9229
跑	-13.9231
孶	-13.9231
睪	-13.9231
𡾗	-13.9231
粢	-13.9231
鸑	-13.9233
肧	-13.9233
囌	-13.9233
冪	-13.9233
墎	-13.9233
飧	-13.9233
䳱	-13.9233
经	-13.9233
襈	-13.9234
姐	-13.9235
閾	-13.9235
荇	-13.9235
扅	-13.9235
蘅	-13.9235
吚	-13.9235
掄	-13.9235
●	-13.9235
嘀	-13.9235
岺	-13.9236
騃	-13.9237
䫙	-13.9237
齟	-13.9237
畒	-13.9237
褭	-13.9237
馱	-13.9239
昫	-13.9239
揫	-13.9239
秔	-13.9239
橛	-13.9239
嵉	-13.9239
矗	-13.9239
圡	-13.924
駛	-13.924
醼	-13.9241
篠	-13.9241
蹌	-13.9241
㖂	-13.9242
夑	-13.9242
襍	-13.9242
跫	-13.9243
璵	-13.9243
癥	-13.9243
喯	-13.9243
噲	-13.9243
罨	-13.9243
蒹	-13.9243
驘	-13.9244
餵	-13.9244
崒	-13.9244
慞	-13.9244
瞹	-13.9244
嬀	-13.9244
紡	-13.9244
濔	-13.9244
儈	-13.9246
𨾏	-13.9246
鷲	-13.9246
洶	-13.9246
虖	-13.9246
弹	-13.9247
譍	-13.9248
璹	-13.925
綠	-13.925
翱	-13.9251
崘	-13.9252
彧	-13.9252
糗	-13.9252
垛	-13.9252
煽	-13.9252
塪	-13.9252
隃	-13.9252
菂	-13.9254
㢘	-13.9254
𠕋	-13.9254
听	-13.9254
麫	-13.9256
糖	-13.9256
咇	-13.9256
灞	-13.9258
剱	-13.9258
惇	-13.926
哈	-13.926
矴	-13.9261
眏	-13.9262
蹋	-13.9262
凟	-13.9262
曬	-13.9262
烋	-13.9262
俅	-13.9264
蓁	-13.9264
湜	-13.9264
洔	-13.9264
玪	-13.9264
篥	-13.9267
罥	-13.9267
莆	-13.9267
軼	-13.9268
礜	-13.9269
禂	-13.9269
𡄦	-13.927
臬	-13.9271
癉	-13.9272
腊	-13.9273
𠾳	-13.9275
啟	-13.9276
綩	-13.9279
岍	-13.9281
嵠	-13.9282
痞	-13.9282
舲	-13.9283
驆	-13.9284
㳄	-13.9285
稉	-13.9286
𣙗	-13.9287
滻	-13.9289
𨵈	-13.9292
玟	-13.9294
烠	-13.9296
崪	-13.9296
瑘	-13.9297
鑲	-13.9298
畹	-13.9298
屭	-13.93
荑	-13.9302
狨	-13.9302
珌	-13.9302
菅	-13.9302
痤	-13.9304
銚	-13.9306
妮	-13.9308
窕	-13.9309
穟	-13.9311
棖	-13.9311
𨴋	-13.9312
郗	-13.9315
𢘍	-13.9316
翣	-13.9318
璩	-13.9319
瓷	-13.9327
𥿈	-13.9341
𨳕	-13.9347
朏	-13.9348
詗	-13.9348
啊	-13.9355
彯	-13.9358
𦬼	-13.937
濊	-13.9371
摑	-13.9382
纇	-13.9386
捾	-13.941
灹	-13.9418
𧵣	-13.9451
栥	-14.4067
懂	-14.4098
俳	-14.4105
䦕	-14.4127
墌	-14.4127
喓	-14.413
㵆	-14.413
涆	-14.4133
肪	-14.4133
卅	-14.4136
舩	-14.4136
柮	-14.4142
掊	-14.4142
㑺	-14.4146
緍	-14.4146
蒔	-14.4146
琲	-14.4146
吱	-14.4149
榷	-14.4149
燉	-14.4149
膴	-14.4149
蹩	-14.4149
廠	-14.4152
舷	-14.4152
晬	-14.4152
挟	-14.4155
䨔	-14.4155
湔	-14.4155
輶	-14.4155
唬	-14.4155
焙	-14.4155
皪	-14.4155
葫	-14.4158
拁	-14.4161
撙	-14.4161
秭	-14.4161
娌	-14.4161
旎	-14.4161
枮	-14.4161
阤	-14.4161
犖	-14.4164
鏺	-14.4164
垚	-14.4167
詇	-14.4168
胦	-14.4168
臗	-14.4168
塌	-14.417
蜓	-14.4171
釧	-14.4171
帨	-14.4171
菀	-14.4171
衂	-14.4171
诸	-14.4171
閗	-14.4171
廁	-14.4174
咿	-14.4174
怜	-14.4174
㿇	-14.4174
剻	-14.4174
庬	-14.4174
繙	-14.4174
菘	-14.4177
僽	-14.4177
堰	-14.418
蘢	-14.418
仡	-14.418
俺	-14.418
吭	-14.418
忪	-14.418
珽	-14.418
腷	-14.418
㓛	-14.4182
誄	-14.4183
莩	-14.4183
喈	-14.4183
痁	-14.4183
顖	-14.4183
唈	-14.4183
毘	-14.4183
鏑	-14.4183
媱	-14.4183
斆	-14.4183
贛	-14.4183
掦	-14.4186
傖	-14.4186
昜	-14.4186
㠊	-14.4186
蠏	-14.4186
揓	-14.4186
䬠	-14.4186
丌	-14.4186
刦	-14.4186
啿	-14.4186
噭	-14.4186
岊	-14.4186
揵	-14.4186
撆	-14.4186
晒	-14.4186
熌	-14.4186
禕	-14.4186
荗	-14.4186
軔	-14.4186
逌	-14.4189
爼	-14.419
堞	-14.419
賷	-14.419
踔	-14.419
揍	-14.419
阖	-14.419
憭	-14.419
鐐	-14.419
閹	-14.419
唌	-14.419
埇	-14.419
秬	-14.4192
僦	-14.4193
堠	-14.4193
衄	-14.4193
酴	-14.4193
坻	-14.4193
殰	-14.4193
㢁	-14.4193
澟	-14.4193
輞	-14.4194
咢	-14.4195
䋿	-14.4196
熺	-14.4196
輥	-14.4196
緌	-14.4196
輛	-14.4196
惨	-14.4196
㳟	-14.4196
橰	-14.4196
沁	-14.4199
㖵	-14.4199
縦	-14.4199
葢	-14.4199
昞	-14.4199
繅	-14.4199
㡌	-14.4199
孌	-14.4199
毖	-14.4199
毿	-14.4199
窨	-14.4199
繢	-14.4199
釂	-14.4199
燖	-14.4201
幰	-14.4202
溆	-14.4202
繾	-14.4202
殲	-14.4202
痩	-14.4202
斕	-14.4202
酲	-14.4202
冼	-14.4202
哇	-14.4202
媲	-14.4202
慴	-14.4202
牯	-14.4202
疱	-14.4202
竉	-14.4202
郛	-14.4202
鍧	-14.4202
覇	-14.4204
胇	-14.4204
拗	-14.4205
髴	-14.4205
儐	-14.4205
㝏	-14.4205
抶	-14.4205
坵	-14.4205
薿	-14.4205
呰	-14.4205
疎	-14.4205
礕	-14.4205
趐	-14.4205
摝	-14.4205
瘉	-14.4205
磶	-14.4205
稹	-14.4205
耎	-14.4205
荽	-14.4205
詁	-14.4205
獎	-14.4208
咪	-14.4208
眯	-14.4208
嘍	-14.4208
慣	-14.4208
臀	-14.4208
塈	-14.4208
忐	-14.4208
琉	-14.4208
遆	-14.4208
猾	-14.4209
燀	-14.4209
则	-14.4209
剏	-14.4209
嗗	-14.4209
噤	-14.4209
坏	-14.4209
姢	-14.4209
栲	-14.4209
籤	-14.4209
糚	-14.4209
酕	-14.4209
翺	-14.4211
紕	-14.4212
醁	-14.4212
挼	-14.4212
殭	-14.4212
榾	-14.4212
蒮	-14.4212
裎	-14.4212
劭	-14.4212
奐	-14.4212
珙	-14.4212
痔	-14.4212
磋	-14.4212
筳	-14.4212
鑕	-14.4212
䥴	-14.4214
隍	-14.4214
檛	-14.4215
胱	-14.4215
襜	-14.4215
伫	-14.4215
堊	-14.4215
禅	-14.4215
聇	-14.4215
篘	-14.4215
酧	-14.4215
嚌	-14.4215
幬	-14.4215
扯	-14.4215
䙧	-14.4215
佉	-14.4215
屎	-14.4215
砦	-14.4215
糝	-14.4215
綫	-14.4215
葅	-14.4215
蜮	-14.4215
䌓	-14.4215
另	-14.4215
牸	-14.4215
盬	-14.4215
踳	-14.4215
葯	-14.4217
癆	-14.4218
鎌	-14.4218
樅	-14.4218
樿	-14.4218
謢	-14.4218
轢	-14.4218
侅	-14.4218
啹	-14.4218
擠	-14.4218
猳	-14.4218
貓	-14.4218
佶	-14.4218
擉	-14.4218
睱	-14.4218
喋	-14.4218
广	-14.4218
檣	-14.4218
㢰	-14.4218
䲴	-14.4218
厯	-14.4218
桄	-14.4218
焊	-14.4218
睆	-14.4218
篦	-14.4218
腻	-14.4218
醸	-14.4218
鑼	-14.4218
菖	-14.4221
辿	-14.4221
硎	-14.4221
庳	-14.4221
蔾	-14.4221
棕	-14.4221
眦	-14.4221
鐙	-14.4221
僶	-14.4221
墯	-14.4221
庋	-14.4221
鏳	-14.4221
毣	-14.4221
熯	-14.4221
攤	-14.4224
礼	-14.4224
㽵	-14.4224
㛹	-14.4224
螯	-14.4224
踡	-14.4224
軏	-14.4224
庣	-14.4224
搰	-14.4224
摉	-14.4224
浡	-14.4224
烗	-14.4224
癈	-14.4224
秷	-14.4224
赳	-14.4224
蹝	-14.4224
軚	-14.4224
鄣	-14.4224
间	-14.4224
埭	-14.4227
楨	-14.4227
嚦	-14.4227
.	-14.4227
嘽	-14.4227
䆳	-14.4227
灭	-14.4227
玖	-14.4227
筲	-14.4227
輲	-14.4227
为	-14.4227
嘵	-14.4227
闞	-14.4227
愽	-14.4229
胾	-14.423
軆	-14.423
頊	-14.423
耍	-14.423
憺	-14.4231
晰	-14.4231
汋	-14.4231
䡄	-14.4231
拌	-14.4231
盌	-14.4231
竂	-14.4231
耋	-14.4231
芫	-14.4231
醃	-14.4231
𡒄	-14.4231
們	-14.4231
嚘	-14.4231
焭	-14.4231
趫	-14.4231
幂	-14.4233
妺	-14.4234
疉	-14.4234
鏃	-14.4234
弸	-14.4234
样	-14.4234
眤	-14.4234
穌	-14.4234
葽	-14.4234
悪	-14.4235
塹	-14.4237
戻	-14.4237
㤗	-14.4237
蝙	-14.4237
〇	-14.4237
㴠	-14.4237
侫	-14.4237
渧	-14.4237
腧	-14.4237
尓	-14.4237
煿	-14.4237
箁	-14.4237
珩	-14.4237
牾	-14.4237
訢	-14.4237
酘	-14.4237
詖	-14.4238
丏	-14.424
忭	-14.424
劖	-14.424
嘸	-14.424
搂	-14.424
䕫	-14.424
啨	-14.424
笁	-14.424
橑	-14.4243
鈌	-14.4243
閠	-14.4243
爬	-14.4243
偵	-14.4243
桮	-14.4243
濼	-14.4243
蠒	-14.4243
宁	-14.4243
蝠	-14.4243
嘬	-14.4243
堀	-14.4243
祑	-14.4243
咕	-14.4243
朒	-14.4246
櫩	-14.4246
邱	-14.4246
踱	-14.4249
礡	-14.4249
蠖	-14.4249
见	-14.4249
篲	-14.4249
䬃	-14.4249
弢	-14.4249
浢	-14.4249
玼	-14.4249
脰	-14.4249
萯	-14.4249
貚	-14.4249
䗁	-14.4253
伙	-14.4253
佘	-14.4253
甁	-14.4253
迊	-14.4256
栅	-14.4256
沇	-14.4256
剝	-14.4256
枹	-14.4256
嗢	-14.4256
讙	-14.4256
踘	-14.4256
糿	-14.4259
㸑	-14.4259
絙	-14.4262
炓	-14.4262
壕	-14.4262
晄	-14.4262
咮	-14.4262
哄	-14.4262
楔	-14.4262
醤	-14.4265
薢	-14.4265
扊	-14.4265
㠌	-14.4265
娀	-14.4265
噁	-14.4265
晢	-14.4267
悁	-14.4268
窾	-14.4268
秧	-14.4275
?	-14.4275
顇	-14.4275
鑴	-14.4278
磎	-14.4278
灔	-14.4281
咜	-14.4284
拿	-14.4284
爺	-14.4284
叻	-14.429
帟	-14.429
联	-14.4293
㒒	-14.4294
崷	-14.4294
瓛	-14.4296
瞵	-14.4297
穾	-14.4297
柂	-14.43
椸	-14.43
㮏	-14.43
嘮	-14.4302
冏	-14.4303
吙	-14.4303
摻	-14.4306
噇	-14.4306
崵	-14.4306
篝	-14.4306
䚃	-14.4306
䐈	-14.4311
鐏	-14.4312
蚹	-14.4319
瀏	-14.4322
琡	-14.4324
蒻	-14.4325
閘	-14.4325
拴	-14.4325
匭	-14.4327
稌	-14.4331
漻	-14.4334
倮	-14.4337
螋	-14.434
錂	-14.4344
鎞	-14.4344
棼	-14.4347
抨	-14.435
喂	-14.435
鈀	-14.4353
螾	-14.4355
盅	-14.4356
芤	-14.4356
胔	-14.4356
蟯	-14.4356
垍	-14.4358
昈	-14.4362
懤	-14.4363
摜	-14.4365
塩	-14.4366
啥	-14.4369
罶	-14.4371
焞	-14.4372
苶	-14.4372
鐀	-14.4381
澨	-14.4387
芾	-14.439
瀁	-14.4396
崢	-14.4397
矬	-14.4401
㠓	-14.4403
紞	-14.4403
闒	-15.3908
鍇	-15.3909
銙	-15.391
鉼	-15.3911
鉟	-15.3912
鈼	-15.3913
醶	-15.3914
郜	-15.3915
轞	-15.3916
輁	-15.3917
赩	-15.3918
贐	-15.3919
豌	-15.392
谽	-15.3921
谺	-15.3922
觖	-15.3923
褊	-15.3924
袝	-15.3925
蠛	-15.3926
蟮	-15.3927
螚	-15.3928
蝢	-15.3929
蝖	-15.393
蜰	-15.3931
蜟	-15.3932
蜅	-15.3933
蛑	-15.3934
蚡	-15.3935
虰	-15.3936
蕷	-15.3937
芰	-15.3938
艫	-15.3939
嗑	-15.394
脈	-15.394
胭	-15.3941
胠	-15.3942
肹	-15.3943
羝	-15.3944
緦	-15.3945
糛	-15.3946
糓	-15.3947
篾	-15.3948
筥	-15.3949
穖	-15.395
禖	-15.3951
磲	-15.3952
硨	-15.3953
硇	-15.3954
眂	-15.3955
皴	-15.3956
瘗	-15.3957
瘓	-15.3958
瑳	-15.3959
瑪	-15.396
瑙	-15.3961
珷	-15.3962
獹	-15.3963
獯	-15.3964
牥	-15.3965
爝	-15.3966
爏	-15.3967
煼	-15.3968
焄	-15.3969
焂	-15.397
濜	-15.3971
潙	-15.3972
溱	-15.3973
溈	-15.3974
淞	-15.3975
淅	-15.3976
涶	-15.3977
汵	-15.3978
毸	-15.3979
毰	-15.398
欖	-15.3981
橄	-15.3982
槫	-15.3983
楩	-15.3984
椁	-15.3985
棫	-15.3986
栀	-15.3987
枿	-15.3988
枻	-15.3989
斠	-15.399
撾	-15.3991
怩	-15.3992
巋	-15.3993
岢	-15.3994
嫜	-15.3995
婥	-15.3996
奫	-15.3997
壝	-15.3998
壚	-15.3999
埼	-15.4
垤	-15.4001
嘩	-15.4002
唦	-15.4003
吧	-15.4004
叭	-15.4005
厙	-15.4006
厘	-15.4007
厔	-15.4008
卮	-15.4009
劂	-15.401
刲	-15.4011
䭫	-15.4012
䗫	-15.4013
䏁	-15.4014
䆴	-15.4015
㪷	-15.4016
㨀	-15.4017
㒺	-15.4018
𩖿	-15.4019
𨓦	-15.402
𨋫	-15.4021
𧤩	-15.4022
𧃍	-15.4023
𥚑	-15.4024
𤇨	-15.4025
𢧐	-15.4026
𡾊	-15.4027
𡸍	-15.4028
𠮀	-15.4029
齠	-15.403
鼷	-15.4031
駙	-15.4032
饘	-15.4033
韉	-15.4034
雒	-15.4035
雎	-15.4036
隖	-15.4037
鎁	-15.4038
錙	-15.4039
趑	-15.404
覼	-15.4041
蠣	-15.4042
蚰	-15.4043
虒	-15.4044
葡	-15.4045
菉	-15.4046
茴	-15.4047
粳	-15.4048
簋	-15.4049
笊	-15.405
盭	-15.4051
痪	-15.4052
獼	-15.4053
猧	-15.4054
犲	-15.4055
熀	-15.4056
澎	-15.4057
洧	-15.4058
暹	-15.4059
昀	-15.406
揶	-15.4061
彛	-15.4062
巂	-15.4063
崳	-15.4064
妁	-15.4065
塏	-15.4066
埪	-15.4067
坷	-15.4068
剰	-15.4069
偊	-15.407
倥	-15.4071
仃	-15.4072
䔥	-15.4073
䀎	-15.4074
𪖙	-15.4075
𩃱	-15.4076
𧥶	-15.4077
𤳗	-15.4078
𤢟	-15.4079
𠷢	-15.408
饅	-15.4081
鐍	-15.4082
鈿	-15.4083
裵	-15.4084
螮	-15.4085
蜴	-15.4086
蜥	-15.4087
蓞	-15.4088
萋	-15.4089
萄	-15.409
芃	-15.4091
舳	-15.4092
簌	-15.4093
筤	-15.4094
矞	-15.4095
瞪	-15.4096
癀	-15.4097
甪	-15.4098
獪	-15.4099
獗	-15.41
狽	-15.4101
瀧	-15.4102
湲	-15.4103
汆	-15.4104
樟	-15.4105
槔	-15.4106
撕	-15.4107
捎	-15.4108
扮	-15.4109
惘	-15.411
惓	-15.4111
徬	-15.4112
崚	-15.4113
劌	-15.4114
䡾	-15.4115
㤜	-15.4116
㕮	-15.4117
𩕄	-15.4118
𨀛	-15.4119
𡅵	-15.412
鸝	-15.4121
鯢	-15.4122
魉	-15.4123
鞶	-15.4124
鏞	-15.4125
鋋	-15.4126
跬	-15.4127
貂	-15.4128
蝀	-15.4129
蜈	-15.413
蛉	-15.4131
靸	-15.4131
藟	-15.4132
葪	-15.4133
肄	-15.4134
羑	-15.4135
痍	-15.4136
琶	-15.4137
濾	-15.4138
潧	-15.4139
跎	-15.4139
噆	-15.4139
脢	-15.4139
歔	-15.414
榔	-15.4141
椹	-15.4142
杌	-15.4143
旰	-15.4144
挲	-15.4145
拇	-15.4146
嫫	-15.4147
娩	-15.4148
剞	-15.4149
冱	-15.415
俏	-15.4151
䭀	-15.4152
㰱	-15.4153
魴	-15.4154
顰	-15.4155
膀	-15.4155
繟	-15.4156
頵	-15.4156
虩	-15.4157
薺	-15.4158
荏	-15.4159
碼	-15.416
碯	-15.4161
瀲	-15.4162
濓	-15.4163
濂	-15.4164
楸	-15.4165
帢	-15.4166
嫘	-15.4167
婇	-15.4168
嗊	-15.4169
嗃	-15.417
倜	-15.4171
窖	-15.4172
鼕	-15.4172
蹐	-15.4173
粃	-15.4174
箏	-15.4175
祊	-15.4176
碏	-15.4177
瓈	-15.4178
槖	-15.4179
嵛	-15.418
埜	-15.4181
喨	-15.4182
㖮	-15.4183
骷	-15.4184
躑	-15.4185
蘁	-15.4186
綢	-15.4187
崆	-15.4188
璝	-15.4188
檎	-15.4189
昳	-15.419
惆	-15.4191
徜	-15.4192
嬋	-15.4193
嫦	-15.4194
倆	-15.4195
侏	-15.4196
鴦	-15.4197
轗	-15.4198
覘	-15.4199
萸	-15.42
翡	-15.4201
篌	-15.4202
箜	-15.4203
筩	-15.4204
筑	-15.4204
睺	-15.4205
枵	-15.4206
徨	-15.4207
幞	-15.4207
帡	-15.4208
峥	-15.4209
媧	-15.421
偓	-15.4211
垜	-15.4212
㬋	-15.4212
靊	-15.4213
蘩	-15.4214
腓	-15.4215
粕	-15.4216
牆	-15.4217
侗	-15.4218
鵡	-15.4219
闤	-15.422
酊	-15.4221
邯	-15.4222
諟	-15.4223
艇	-15.4224
箍	-15.4225
垞	-15.4226
咫	-15.4226
儡	-15.4227
鴿	-15.4228
邗	-15.4229
譊	-15.423
褓	-15.4231
猩	-15.4232
楞	-15.4233
擻	-15.4234
抖	-15.4235
姮	-15.4236
㾮	-15.4237
颻	-15.4238
喟	-15.4239
𥟵	-15.424
靆	-15.424
穡	-15.4241
溧	-15.4242
邂	-15.4243
逅	-15.4244
轤	-15.4245
絨	-15.4246
㬰	-15.4247
苒	-15.4247
瞥	-15.4248
紘	-15.4249
桎	-15.425
蝴	-15.4251
榑	-15.4252
嗈	-15.4253
哮	-15.4254
琊	-15.4255
漓	-15.4256
絪	-15.4257
醐	-15.4258
醍	-15.4259
嚨	-15.426
夥	-15.426
緲	-15.426
罣	-15.4261
紜	-15.4262
逡	-15.4263
魍	-15.4264
蓉	-15.4265
茯	-15.4266
瑠	-15.4267
噰	-15.4268
攧	-15.4268
