<unk>	0
<s>	0
</s>	0
之	-3.76764
/	-4.50644
也	-4.73481
以	-4.77858
而	-4.81782
者	-4.83034
(	-4.84466
)	-4.92178
其	-4.96817
有	-5.00157
不	-5.012
為	-5.11662
則	-5.16121
一	-5.17586
水	-5.29455
於	-5.44672
中	-5.47608
種	-5.48702
大	-5.48947
曰	-5.50595
生	-5.5157
用	-5.52279
子	-5.55513
)(	-5.59768
如	-5.62041
人	-5.70152
又	-5.72869
上	-5.75388
地	-5.76638
作	-5.7848
無	-5.79056
田	-5.80201
時	-5.81017
下	-5.8299
可	-5.84039
葉	-5.8595
土	-5.89883
長	-5.92528
多	-5.92577
三	-5.93084
此	-5.94966
白	-5.95045
日	-6.01231
亦	-6.01593
令	-6.08349
或	-6.08462
至	-6.09106
出	-6.09411
小	-6.09548
宜	-6.13052
即	-6.13757
食	-6.1458
得	-6.16551
成	-6.20089
所	-6.20166
法	-6.20337
二	-6.22165
皆	-6.23027
民	-6.26006
與	-6.26226
草	-6.26678
▁	-6.2698
實	-6.28608
四	-6.29795
根	-6.29876
黄	-6.30191
熟	-6.30437
故	-6.31184
自	-6.31393
若	-6.3527
于	-6.35399
取	-6.35735
去	-6.37111
今	-6.37542
方	-6.38227
及	-6.38849
後	-6.39006
木	-6.40078
一名	-6.41291
行	-6.41735
矣	-6.4343
花	-6.43434
五	-6.44792
在	-6.45178
米	-6.4847
收	-6.48674
入	-6.49081
蠶	-6.49692
樹	-6.4992
氣	-6.51836
山	-6.53542
内	-6.54739
是	-6.5477
凡	-6.56399
欲	-6.57554
耕	-6.58147
豆	-6.58639
數	-6.61051
相	-6.61372
麥	-6.6385
云	-6.65385
兩	-6.656
必	-6.66249
名	-6.66279
分	-6.66316
稻	-6.66683
風	-6.66965
乃	-6.67606
細	-6.69428
雨	-6.70219
青	-6.72266
天	-6.73078
州	-6.73204
然	-6.73462
開	-6.74182
先	-6.74582
春	-6.74649
平	-6.75958
髙	-6.76154
處	-6.76698
使	-6.77221
事	-6.77276
頭	-6.78313
本	-6.78828
當	-6.78967
言	-6.79268
謂	-6.79735
未	-6.80568
同	-6.80765
間	-6.8087
桑	-6.8092
官	-6.8188
苗	-6.83174
治	-6.83291
色	-6.83919
菜	-6.84359
糯	-6.84736
各	-6.85856
深	-6.86266
河	-6.87363
易	-6.87815
見	-6.88046
少	-6.88084
榖	-6.8877
穀	-6.88812
秋	-6.89066
似	-6.89189
便	-6.91614
乾	-6.91739
石	-6.91957
等	-6.9207
牛	-6.93141
前	-6.93362
赤	-6.93491
莖	-6.94228
通	-6.94358
年	-6.94494
常	-6.95049
早	-6.95596
既	-6.9563
和	-6.96188
火	-6.9711
百	-6.97236
農	-6.97484
過	-6.97752
物	-6.98419
須	-6.98939
初	-6.99332
竹	-6.99378
紅	-6.99545
合	-7.00093
非	-7.00794
禾	-7.0142
冬	-7.01472
家	-7.01637
利	-7.02862
嵗	-7.03078
味	-7.03171
馬	-7.03258
南	-7.03359
縣	-7.0382
復	-7.04404
力	-7.04577
香	-7.05121
十	-7.05457
糞	-7.06525
甚	-7.06641
諸	-7.07258
粟	-7.07868
置	-7.08353
焉	-7.08464
麻	-7.08479
經	-7.08522
將	-7.09533
皮	-7.1018
著	-7.10784
能	-7.11337
已	-7.11425
每	-7.11476
惟	-7.11846
耳	-7.12146
寒	-7.12615
盡	-7.13441
夏	-7.1379
熱	-7.14233
謂之	-7.15072
條	-7.16228
從	-7.16299
重	-7.16354
高	-7.17147
厚	-7.17335
夫	-7.17479
半	-7.17501
爲	-7.17589
來	-7.17798
雖	-7.1798
陽	-7.17999
布	-7.18127
口	-7.18292
切	-7.18644
廣	-7.1877
足	-7.18854
性	-7.18879
正	-7.19312
起	-7.19424
外	-7.21183
枝	-7.22045
節	-7.2263
鋤	-7.23232
但	-7.23383
近	-7.23807
明	-7.23871
加	-7.23883
/)	-7.24049
安	-7.24184
葉似	-7.24378
六	-7.24975
始	-7.25139
心	-7.25224
萬	-7.25344
東	-7.25589
何	-7.26697
功	-7.26973
直	-7.27332
車	-7.27337
主	-7.27734
餘	-7.27997
盛	-7.28145
黍	-7.28165
澤	-7.28321
知	-7.28868
别	-7.2894
海	-7.29374
七	-7.29713
肥	-7.3004
流	-7.30065
蓋	-7.30099
不可	-7.30309
次	-7.30424
書	-7.30459
千	-7.3053
九	-7.31199
積	-7.31308
更	-7.31625
薄	-7.32538
微	-7.32694
月	-7.32874
國	-7.33302
立	-7.34553
道	-7.34959
止	-7.34966
定	-7.36044
西	-7.36131
文	-7.36191
因	-7.36424
度	-7.36637
新	-7.37098
轉	-7.37475
難	-7.38988
接	-7.39496
濕	-7.40128
隨	-7.40202
音	-7.40947
絲	-7.41514
北	-7.41895
古	-7.41966
酒	-7.42502
王	-7.42544
泥	-7.42554
勞	-7.42596
美	-7.42784
畝	-7.43358
桃	-7.43482
野	-7.43816
留	-7.44276
發	-7.44298
倉	-7.4437
最	-7.4483
金	-7.44887
八	-7.45194
果	-7.45238
旱	-7.4634
稍	-7.46464
苦	-7.46833
魚	-7.46887
傳	-7.47243
手	-7.47892
老	-7.4804
棗	-7.48139
江	-7.48307
理	-7.48403
紫	-7.48406
養	-7.48464
角	-7.48486
好	-7.48625
器	-7.49279
極	-7.49633
鹽	-7.50452
再	-7.51207
要	-7.51239
計	-7.51298
死	-7.51426
俱	-7.51816
甘	-7.52072
黑	-7.52145
居	-7.52469
肉	-7.5305
久	-7.53056
乎	-7.53072
疏	-7.53138
李	-7.5348
黏	-7.53721
附	-7.53881
圓	-7.53901
歲	-7.53933
類	-7.53987
井	-7.55303
候	-7.55389
公	-7.55834
比	-7.56084
齊	-7.56302
隂	-7.56378
科	-7.5712
栽	-7.57858
堅	-7.57964
元	-7.58736
周	-7.58931
工	-7.59504
且	-7.59759
蒸	-7.59772
湖	-7.60089
清	-7.6015
黒	-7.60263
臣	-7.60312
収	-7.60357
可以	-7.60713
毛	-7.61285
注	-7.61442
不得	-7.61558
省	-7.61898
斗	-7.62477
末	-7.6251
散	-7.62852
連	-7.62876
𤓰	-7.63027
結	-7.63167
門	-7.63415
之法	-7.64153
形	-7.64457
食之	-7.6461
給	-7.65013
羊	-7.65109
油	-7.65412
底	-7.65436
勝	-7.65777
益	-7.6702
不能	-7.67765
瓜	-7.67773
以為	-7.6816
尺	-7.6845
煑	-7.68608
制	-7.68788
異	-7.68793
世	-7.68819
並	-7.69532
粒	-7.696
量	-7.69745
灰	-7.69766
修	-7.70286
藏	-7.70354
受	-7.70742
就	-7.70768
傷	-7.70788
畆	-7.70802
病	-7.71014
雞	-7.71129
倍	-7.71348
良	-7.71394
泉	-7.71516
務	-7.71773
興	-7.71965
汁	-7.72084
鄉	-7.72252
命	-7.72343
亦可	-7.72544
應	-7.73835
損	-7.74306
蟲	-7.74913
衣	-7.7498
仍	-7.75081
落	-7.75342
具	-7.75396
待	-7.75551
夜	-7.75864
二月	-7.76018
採	-7.76096
均	-7.76391
雜	-7.76411
二十	-7.76596
烏	-7.76707
原	-7.768
晚	-7.76964
種之	-7.77095
浸	-7.77121
雲	-7.77577
除	-7.77757
身	-7.78266
冷	-7.78391
屋	-7.78422
急	-7.78542
輪	-7.78685
沙	-7.79052
聲	-7.79328
尤	-7.80372
遂	-7.8047
太	-7.80717
禮	-7.80777
短	-7.80958
府	-7.81766
滿	-7.818
五月	-7.82028
燥	-7.82099
變	-7.82358
而不	-7.82449
尖	-7.82917
勤	-7.82991
面	-7.8318
卷	-7.83283
荒	-7.83675
覆	-7.83734
備	-7.83865
豐	-7.84038
載	-7.84067
化	-7.84254
㣲	-7.84256
逺	-7.84521
所以	-7.84787
築	-7.8515
漸	-7.86019
池	-7.86068
移	-7.86528
兒	-7.86993
龍	-7.87177
許	-7.87284
任	-7.87454
論	-7.87477
漢	-7.87615
穂	-7.8773
骨	-7.87826
梅	-7.87979
邊	-7.8807
意	-7.88253
反	-7.88359
葉而	-7.88596
秫	-7.88673
露	-7.88972
溝	-7.8957
陳	-7.89888
八月	-7.89889
饑	-7.90455
盖	-7.90529
然後	-7.90737
神	-7.90792
業	-7.90797
三月	-7.91061
城	-7.9108
繭	-7.91179
圖	-7.91334
畦	-7.91374
稱	-7.91387
向	-7.9163
失	-7.91716
致	-7.91746
遇	-7.9197
岸	-7.92327
解	-7.92337
猶	-7.92975
視	-7.93
錢	-7.93182
飯	-7.93353
輕	-7.93775
獨	-7.93861
帶	-7.93866
他	-7.93988
葵	-7.94094
聞	-7.9422
引	-7.94221
志	-7.95069
户	-7.95166
水利	-7.95278
全	-7.95458
舊	-7.95758
里	-7.95869
樂	-7.95938
葢	-7.96416
還	-7.9676
刈	-7.9701
磨	-7.97027
味甘	-7.97188
造	-7.97367
歸	-7.97386
祭	-7.97782
正月	-7.97884
之地	-7.98228
升	-7.98457
核	-7.98605
體	-7.98715
服	-7.98719
善	-7.99017
殺	-7.99364
由	-7.9966
放	-7.99666
永	-7.99681
七月	-7.9973
齊民要術	-7.99743
圍	-8.00223
齒	-8.00276
軍	-8.0029
光	-8.00303
詩	-8.00523
悉	-8.00662
天下	-8.00866
按	-8.0167
梨	-8.01677
目	-8.0201
横	-8.02025
差	-8.0203
湯	-8.02032
糓	-8.02297
麴	-8.02591
擇	-8.02691
首	-8.02725
脚	-8.02734
求	-8.02757
屬	-8.0296
字	-8.02984
司	-8.03129
氏	-8.0332
動	-8.03394
簇	-8.03401
貴	-8.03414
舉	-8.0367
絶	-8.03737
旋	-8.04066
衆	-8.04088
區	-8.04234
六月	-8.04685
頗	-8.04778
茶	-8.05042
俗	-8.05447
冝	-8.05518
調	-8.05707
淨	-8.05722
稼	-8.05786
惡	-8.05835
蒿	-8.06093
朕	-8.06128
十月	-8.06439
指	-8.06773
渠	-8.06857
終	-8.06937
勿	-8.07282
毎	-8.07542
川	-8.07801
丈	-8.08028
奏	-8.08118
費	-8.08321
空	-8.09031
尾	-8.09054
依	-8.09213
杏	-8.09313
九月	-8.09488
畢	-8.09496
可食	-8.09556
粉	-8.09739
大小	-8.10114
藥	-8.10187
都	-8.10442
朝	-8.10523
破	-8.10551
率	-8.10584
哉	-8.10934
害	-8.111
三年	-8.1153
軸	-8.11571
遍	-8.11979
政	-8.11998
賦	-8.1206
辛	-8.12206
又似	-8.12311
乆	-8.1235
社	-8.12657
芽	-8.12855
大如	-8.13084
蜜	-8.1312
報	-8.1313
徧	-8.13197
四月	-8.13328
説	-8.13484
宻	-8.13539
速	-8.13541
稷	-8.13659
雪	-8.137
尚	-8.1414
刀	-8.1426
也又	-8.14415
晴	-8.14467
甲	-8.14637
孔	-8.14664
嘗	-8.14857
爾	-8.15089
代	-8.15213
固	-8.15434
其葉	-8.15492
約	-8.15824
共	-8.15834
胡	-8.15837
盆	-8.15886
穗	-8.16217
義	-8.16502
鐵	-8.16635
亦有	-8.1695
燒	-8.17279
爛	-8.17404
寸	-8.17416
刺	-8.17432
煮	-8.17566
蜀	-8.17736
資	-8.17803
𤣥扈先生曰	-8.17823
芋	-8.18149
匀	-8.18189
打	-8.18564
濶	-8.18595
納	-8.18598
唐	-8.18601
交	-8.18994
議	-8.19076
潤	-8.1924
産	-8.19298
洗	-8.19344
遲	-8.19415
如此	-8.19538
恐	-8.19811
密	-8.19812
星	-8.19817
栗	-8.19821
畜	-8.20137
精	-8.20167
息	-8.20197
房	-8.202
照	-8.20205
聚	-8.20213
廢	-8.20249
所謂	-8.2029
望	-8.20292
觀	-8.20296
勸	-8.20439
茂	-8.2055
免	-8.20657
我	-8.20707
植	-8.21009
濟	-8.21061
殻	-8.21091
部	-8.21281
園	-8.21426
忌	-8.21427
減	-8.21443
曲	-8.21466
設	-8.2147
飲	-8.21615
彼	-8.2185
災	-8.21868
塞	-8.21874
歳	-8.22578
容	-8.22683
郡	-8.22855
女	-8.23094
粱	-8.23178
縣物産	-8.23397
丁	-8.23447
者為	-8.23541
犂	-8.23579
旁	-8.23804
之後	-8.2381
徑	-8.23905
飢	-8.23929
并	-8.23948
又有	-8.24093
淡	-8.242
嘉	-8.24256
浮	-8.24321
兮	-8.24354
却	-8.24374
總	-8.2475
請	-8.24801
兼	-8.24871
霜	-8.25075
順	-8.25282
華	-8.2563
充	-8.2567
箔	-8.25731
藍	-8.25986
凍	-8.26038
􁀙	-8.26089
富	-8.26126
建	-8.26566
本草	-8.27009
甕	-8.27076
餅	-8.27254
耘	-8.27284
是也	-8.27344
虚	-8.27377
斷	-8.27438
親	-8.27454
椒	-8.27461
存	-8.27808
供	-8.27841
梁	-8.28244
封	-8.28252
寧	-8.2827
遺	-8.28279
役	-8.28722
糧	-8.2918
特	-8.29193
莫	-8.29332
佳	-8.29523
温	-8.29532
背	-8.29579
之間	-8.29599
登	-8.29613
掘	-8.29724
塗	-8.29821
占	-8.30086
芒	-8.30286
豈	-8.30323
湏	-8.30356
稀	-8.30505
詩云	-8.30603
嫩	-8.31124
帝	-8.3151
考	-8.31766
宗	-8.3185
庶	-8.31891
林	-8.32182
韭	-8.32269
停	-8.32368
澆	-8.32382
列	-8.32804
管	-8.32867
灌	-8.32939
大者	-8.32998
飼	-8.3349
淘	-8.33625
種者	-8.33639
暑	-8.337
張	-8.33718
仁	-8.3374
摘	-8.33795
期	-8.3381
不知	-8.3392
註	-8.34581
眼	-8.34655
織	-8.34909
强	-8.35121
陵	-8.35137
葱	-8.35292
硬	-8.3562
篇	-8.35622
思	-8.35636
綿	-8.35686
穫	-8.35875
秈	-8.35902
保	-8.36052
守	-8.36292
呼	-8.36403
橘	-8.36667
淺	-8.36812
對	-8.37313
蘇	-8.37417
蔓	-8.3746
壤	-8.3788
苖	-8.37888
截	-8.38012
頃	-8.38029
記	-8.38047
一種	-8.38119
亦不	-8.38146
松	-8.38426
訖	-8.39021
味苦	-8.39148
以上	-8.39276
板	-8.3942
碎	-8.39466
施	-8.39522
南方	-8.39781
繁	-8.39962
室	-8.39993
士	-8.40052
貯	-8.40327
支	-8.40453
架	-8.40474
塘	-8.40477
玉	-8.40513
三十	-8.40708
壅	-8.4101
栁	-8.41395
路	-8.41472
運	-8.41481
十二	-8.41827
吳	-8.41978
銀	-8.4198
斛	-8.41984
仰	-8.42011
降	-8.42461
補	-8.42466
秧	-8.42469
活	-8.42487
枯	-8.42955
将	-8.43012
炊	-8.43118
勿令	-8.43265
一日	-8.43374
鄭	-8.43456
緑	-8.43473
暖	-8.43512
步	-8.4353
教	-8.43616
昔	-8.44013
限	-8.44073
軟	-8.44508
膏	-8.44554
籠	-8.4459
蒜	-8.44951
陸	-8.45054
薑	-8.45234
菽	-8.45484
職	-8.45541
臨	-8.45608
剪	-8.46037
之利	-8.46041
眠	-8.46054
繩	-8.46111
看	-8.46135
曬	-8.46511
一尺	-8.46567
京	-8.46649
逐	-8.46653
頻	-8.46655
荆	-8.46914
脂	-8.4705
折	-8.47124
采	-8.4713
寛	-8.47153
蒲	-8.4719
消	-8.47213
舂	-8.47665
勢	-8.47674
集	-8.47695
患	-8.4793
斫	-8.48005
又名	-8.48116
晩	-8.48237
裏	-8.48247
滋	-8.48745
吏	-8.49095
墻	-8.49238
號	-8.49252
束	-8.493
盤	-8.49362
梢	-8.49758
離	-8.49878
耬	-8.4988
酸	-8.50074
蓄	-8.50381
弱	-8.50427
狀	-8.50493
武	-8.50988
凉	-8.51005
牧	-8.51042
北方	-8.51057
牆	-8.51493
吾	-8.51578
又曰	-8.51581
皆可	-8.52043
闊	-8.52043
疾	-8.5207
壓	-8.52094
之屬	-8.52326
榆	-8.52597
蛾	-8.52646
喜	-8.52648
母	-8.52659
被	-8.52687
大麥	-8.52687
史	-8.53059
問	-8.53172
第	-8.53179
而已	-8.53194
盈	-8.53215
推	-8.53277
邑	-8.53363
宿	-8.53486
二年	-8.53728
詳	-8.53799
誠	-8.53856
酢	-8.53875
之所	-8.54157
水浸	-8.54234
品	-8.54344
鑿	-8.54347
孟	-8.54369
穿	-8.54378
授	-8.54379
諭	-8.54382
編	-8.54383
了	-8.54412
賣	-8.54874
章	-8.55142
濬	-8.55398
宋	-8.55467
績	-8.55487
信	-8.55539
用之	-8.55543
爾雅曰	-8.55832
紙	-8.56136
七日	-8.56195
堪	-8.56414
一斗	-8.5646
柔	-8.56689
告	-8.56775
救	-8.56836
結實	-8.56891
蔬	-8.57222
頓	-8.57245
麵	-8.5725
煎	-8.57289
州縣	-8.57341
農事	-8.57358
墾	-8.57402
貧	-8.5769
徒	-8.57892
委	-8.57903
水旱	-8.58383
線	-8.59008
婦	-8.59023
柴	-8.59024
有司	-8.59036
疎	-8.59056
例	-8.59076
蝗	-8.59139
江南	-8.59222
鹹	-8.59589
柱	-8.59592
糠	-8.59601
小麥	-8.59604
羅	-8.59606
價	-8.59608
延	-8.5963
查	-8.59633
愈	-8.60056
申	-8.60199
插	-8.60247
壠	-8.60252
戸	-8.60294
三日	-8.60295
唯	-8.60305
端	-8.6069
陰	-8.60814
農家	-8.6129
諺云	-8.61399
狹	-8.61436
割	-8.61489
棄	-8.61516
食法採	-8.61617
二尺	-8.61738
上下	-8.61758
祈	-8.61858
輸	-8.62062
蘆	-8.62075
承	-8.62091
郊	-8.62125
腹	-8.62134
君	-8.62384
真	-8.627
煖	-8.62724
粳	-8.62724
辰	-8.62847
詔	-8.62927
不宜	-8.63286
助	-8.63372
典	-8.63402
裹	-8.63942
耙	-8.6395
只	-8.63961
猪	-8.63979
垂	-8.64002
瓠	-8.64019
圖說	-8.64021
草木	-8.64087
朱	-8.64569
之田	-8.64607
源	-8.64616
東南	-8.64755
皆有	-8.64883
為之	-8.64964
甜	-8.65098
柿	-8.65105
一升	-8.65107
厥	-8.65294
瓦	-8.65303
祖	-8.65369
移栽	-8.6543
則不	-8.65506
欲得	-8.65775
不用	-8.65854
越	-8.6589
說	-8.66423
芥	-8.66492
毋	-8.66516
至於	-8.66523
粥	-8.66562
宣	-8.66576
緩	-8.6715
情	-8.67193
秦	-8.67224
扵	-8.67249
謹	-8.67251
之時	-8.67302
御	-8.67317
毒	-8.67371
防	-8.67417
楊	-8.67458
救飢採	-8.67711
掌	-8.67753
禁	-8.67859
杜	-8.67865
亦得	-8.68396
五榖	-8.6842
預	-8.68479
材	-8.68498
督	-8.68503
小豆	-8.68509
糴	-8.69063
懸	-8.69123
案	-8.69195
名曰	-8.69197
村	-8.6976
鳥	-8.69813
伏	-8.69818
取其	-8.69842
歩	-8.69846
窮	-8.70152
二種	-8.70341
暴	-8.70453
之水	-8.70468
殊	-8.70469
憂	-8.70481
魏	-8.70496
犁	-8.70509
燕	-8.70516
虎	-8.70524
陂	-8.7053
叉	-8.70959
綠	-8.71116
潮	-8.71126
開花	-8.71267
皇	-8.713
獻	-8.71317
者名	-8.71649
五十	-8.71757
繫	-8.7184
雷	-8.7187
願	-8.71875
斑	-8.71904
柄	-8.7191
糶	-8.72464
徐	-8.72505
邉	-8.72505
葛	-8.72517
筒	-8.72531
漬	-8.72584
熟時	-8.7272
之處	-8.72919
徳	-8.73176
機	-8.73185
畧	-8.7322
營	-8.73226
索	-8.73278
春秋	-8.73398
斯	-8.73591
莢	-8.73846
效	-8.73883
虞	-8.73914
虛	-8.73914
闕	-8.73931
慮	-8.73951
醋	-8.73955
黃	-8.73989
大豆	-8.74004
之中	-8.74202
其利	-8.74302
又云	-8.7434
卵	-8.74552
壟	-8.7456
午	-8.7457
穰	-8.74587
藤	-8.7459
財	-8.74642
揚	-8.75238
染	-8.75259
衡	-8.75304
某	-8.75304
遠	-8.75312
牙	-8.75316
兵	-8.75345
歴	-8.75351
十日	-8.75372
爾雅	-8.75437
換	-8.75688
瓣	-8.75725
不同	-8.75806
沃	-8.75852
秀	-8.75877
雙	-8.7589
低	-8.75976
税	-8.76066
今處處有之	-8.76077
愛	-8.76471
可作	-8.76588
滑	-8.76674
漫	-8.76728
下種	-8.76904
三四	-8.76969
聖	-8.77196
初生	-8.7721
麤	-8.77441
鳴	-8.77488
不足	-8.77559
生者	-8.77966
傍	-8.78069
义	-8.78116
捲	-8.78135
杷	-8.78161
槐	-8.78164
察	-8.78173
祀	-8.78177
畏	-8.78189
羣	-8.78202
大而	-8.78539
辨	-8.78872
課	-8.78877
浥	-8.78879
團	-8.78887
結子	-8.78902
顆	-8.78931
該	-8.78934
芟	-8.78934
象	-8.78934
左	-8.78935
一人	-8.7896
也其	-8.79099
其根	-8.79346
買	-8.79606
㑹	-8.79625
茅	-8.79658
之事	-8.79874
坑	-8.79946
其實	-8.80029
恒	-8.80377
農政全書	-8.80682
棉	-8.80992
三尺	-8.81009
不過	-8.81034
租	-8.81108
蹄	-8.81121
洩	-8.81131
窖	-8.81146
適	-8.81162
挿	-8.81174
是以	-8.81249
試	-8.81855
来	-8.81886
撥	-8.81887
麻子	-8.8193
右	-8.8194
之類	-8.8227
分野	-8.82447
耨	-8.82565
回	-8.82612
籍	-8.82663
倒	-8.82668
獲	-8.82677
進	-8.82688
可種	-8.82894
南北	-8.8312
漿	-8.83193
之制	-8.83205
増	-8.83325
有餘	-8.83334
隔	-8.83406
師	-8.83409
拔	-8.83454
三升	-8.83496
屯	-8.83957
乏	-8.84153
坐	-8.84157
槽	-8.84171
踏	-8.84184
砧	-8.84198
專	-8.84208
其子	-8.8429
莖葉	-8.8435
一莖	-8.84368
夏至	-8.84481
幾	-8.84934
到	-8.84952
學	-8.84957
遣	-8.85041
味甜	-8.85635
刻	-8.85775
俗名	-8.86123
埋	-8.86187
明年	-8.86196
者也	-8.86385
三寸	-8.86959
株	-8.86977
晉	-8.87285
閉	-8.87305
浄	-8.87308
脆	-8.87309
浦	-8.87324
葦	-8.87328
闗	-8.87332
序	-8.87342
灌溉	-8.87435
而後	-8.87863
界	-8.8798
伐	-8.88042
壯	-8.88088
蠟	-8.88094
亂	-8.88117
西北	-8.88134
避	-8.88135
福	-8.88164
地方	-8.88181
執	-8.88224
不及	-8.88391
不生	-8.88827
十八	-8.88908
堰	-8.88914
隴	-8.8892
碾	-8.88933
送	-8.88959
臘月	-8.88964
百姓	-8.88991
鬚	-8.89004
山谷	-8.89018
二寸	-8.89497
乳	-8.8969
撒	-8.89717
環	-8.89725
飛	-8.89739
珠	-8.89784
曝	-8.8979
蓮	-8.9018
油鹽調食	-8.90226
為上	-8.90385
饒	-8.90555
商	-8.90569
豬	-8.90607
胡麻	-8.90773
故也	-8.90841
而生	-8.90844
擊	-8.91347
舌	-8.91348
剝	-8.91352
李時珍曰	-8.91353
雄	-8.91375
拌	-8.91394
景	-8.914
藉	-8.91403
借	-8.91407
舍	-8.91414
假	-8.91432
十年	-8.91641
不如	-8.91775
炙	-8.91804
人力	-8.91986
故名	-8.92123
飽	-8.92187
鋪	-8.92202
救飢	-8.92211
壁	-8.92215
畫	-8.92234
筐	-8.92241
粗	-8.92251
蟻	-8.92254
壞	-8.92266
絹	-8.92282
稈	-8.92337
▁(	-8.92666
一年	-8.92844
語	-8.92929
驗	-8.93003
賑	-8.93006
白色	-8.93013
脉	-8.9303
澁	-8.93035
鼻	-8.93084
乘	-8.93106
導	-8.93125
枚	-8.93141
稼穡	-8.93146
單	-8.9384
塊	-8.93881
者皆	-8.93908
慶	-8.93965
中有	-8.94376
注曰	-8.94541
扶	-8.94648
鎮	-8.94732
𤣥	-8.9474
培	-8.9475
純	-8.94772
達	-8.94811
黄色	-8.95431
市	-8.95553
柳	-8.95558
茹	-8.9556
鹿	-8.95575
圩	-8.95586
旦	-8.95623
筋	-8.95645
二百	-8.95676
鼓	-8.95676
紀	-8.95828
搗	-8.96468
姑	-8.96473
稗	-8.96485
淤	-8.96497
增	-8.96525
習	-8.96552
漏	-8.96554
第一	-8.96667
斤	-8.96883
幹	-8.97238
扁	-8.97298
谷	-8.97304
提	-8.97328
含	-8.97338
帛	-8.97339
穴	-8.97358
場	-8.97364
據	-8.97381
閘	-8.974
掃	-8.97403
䟽	-8.9742
焦	-8.97436
德	-8.97443
所在	-8.97486
笋	-8.9821
係	-8.98221
暮	-8.98282
咸	-8.98315
髙下	-8.98473
所宜	-8.98834
尺餘	-8.99007
俟	-8.99041
雅	-8.991
瘦	-8.99106
刃	-8.99138
排	-8.99154
決	-8.99159
製	-8.9916
纒	-8.99164
十六	-8.99179
令人	-8.9918
溝洫	-8.99216
嘉禾	-8.99242
酘	-8.99382
齊民要術曰	-8.99386
炒	-8.99445
累	-9.00047
故曰	-9.00204
黍稷	-9.00213
之患	-9.00568
無毒	-9.00597
様	-9.00887
録	-9.00889
卧	-9.00908
桐	-9.00918
趙	-9.00923
斜	-9.00926
負	-9.00931
蔥	-9.00934
稠	-9.00946
忽	-9.00947
蒼	-9.00963
醤	-9.01003
疆	-9.01008
歌	-9.01045
元年	-9.01312
多種	-9.01734
十餘	-9.01744
溪	-9.01824
棠	-9.01824
杖	-9.01828
㸃	-9.01836
血	-9.01861
楚	-9.01864
舒	-9.01878
鐡	-9.0188
予	-9.01886
併	-9.01889
着	-9.01923
以備	-9.01925
奉	-9.01967
者不	-9.02047
周禮	-9.02094
煩	-9.0213
五六	-9.02237
四五	-9.02303
有三	-9.02325
也今	-9.02377
削	-9.02655
𦂳	-9.02757
己	-9.0278
四時	-9.02781
辣	-9.0279
丹	-9.02793
􁁊	-9.02798
劉	-9.02832
芹	-9.02834
稽	-9.02839
敬	-9.0287
境	-9.03657
翻	-9.03669
責	-9.03712
康	-9.03755
各有	-9.03756
十五	-9.03769
惰	-9.03779
攤	-9.03788
釡	-9.03812
覆之	-9.03864
農夫	-9.03907
苗葉	-9.0417
今人	-9.04229
至春	-9.04237
多少	-9.0428
五寸	-9.04316
片	-9.04608
苧	-9.04624
參	-9.04665
走	-9.04676
堤	-9.04685
料	-9.04706
休	-9.04709
趨	-9.04715
淮	-9.04938
奠	-9.05028
以水	-9.05266
自然	-9.05569
辟	-9.05593
往	-9.05599
臼	-9.056
治馬	-9.05616
潦	-9.05637
鴨	-9.05645
巧	-9.05685
攪	-9.05739
瓮	-9.06229
狀如	-9.06248
二升	-9.06357
莧	-9.06434
巳	-9.06488
碓	-9.06499
投	-9.06526
印	-9.06549
側	-9.06565
杵	-9.06572
包	-9.06581
釋	-9.06591
改	-9.06597
育	-9.06681
念	-9.06723
筩	-9.06921
以此	-9.07028
旬	-9.07093
水田	-9.0722
冷水	-9.07307
股	-9.07498
㝷	-9.07579
雀	-9.07597
擘	-9.07612
貢	-9.07638
七十	-9.0785
五升	-9.08095
稜	-9.08492
藷	-9.08492
持	-9.08514
嚴	-9.0853
貫	-9.08535
腐	-9.08541
二三	-9.08683
苗高	-9.08743
詩曰	-9.08783
一石	-9.08816
淘淨油鹽調食	-9.08869
之功	-9.09002
之民	-9.09039
小而	-9.09109
循	-9.09548
昌	-9.09549
英	-9.09554
閒	-9.09579
庚	-9.1048
紫色	-9.10485
蓼	-9.10496
退	-9.10501
耗	-9.10508
領	-9.10515
麄	-9.10518
值	-9.10523
剥	-9.10534
溢	-9.10548
鮮	-9.1055
一二	-9.10551
圃	-9.10551
况	-9.10585
冬月	-9.10816
不復	-9.11302
臘	-9.11454
縱	-9.11466
仙	-9.115
臭	-9.11518
港	-9.11534
竪	-9.11536
窠	-9.11553
俾	-9.1158
兹	-9.1159
夷	-9.11596
貨	-9.11596
䑕	-9.11621
糟	-9.11621
准	-9.11622
四年	-9.12047
注云	-9.12112
之家	-9.12338
罪	-9.12511
添	-9.12522
㧞	-9.12543
羮	-9.12569
抑	-9.12576
穢	-9.1258
朔	-9.12583
耜	-9.12595
殷	-9.12595
曝乾	-9.12599
素	-9.12621
諺曰	-9.12626
躬	-9.12627
位	-9.12685
擣	-9.12722
清明	-9.12912
五尺	-9.12974
者以	-9.1345
客	-9.13516
牽	-9.13561
透	-9.13576
遷	-9.13596
靣	-9.13623
溉	-9.13686
曬乾	-9.13744
小者	-9.13863
十二月	-9.14131
也凡	-9.14186
五日	-9.14295
於是	-9.14501
奪	-9.1457
夾	-9.14572
誤	-9.1459
淘浄油鹽調食	-9.1464
津	-9.14643
縁	-9.14644
瑞	-9.14648
崇	-9.14651
簡	-9.14651
選	-9.14669
圖説	-9.14785
條下	-9.14881
一本	-9.1512
圏	-9.15569
鋸齒	-9.15663
蓬	-9.15681
秔	-9.15694
窗	-9.15718
觧	-9.15721
其上	-9.15789
一丈	-9.15921
味辛	-9.15947
風雨	-9.15966
國家	-9.16279
十三	-9.16398
丘	-9.16641
菉豆	-9.16704
岐	-9.16704
召	-9.16716
掩	-9.16753
輒	-9.16756
完	-9.16764
煙	-9.16792
惠	-9.16794
續	-9.16797
釀	-9.16813
崔寔曰	-9.16821
厯	-9.16853
監	-9.16864
五年	-9.16871
隂陽	-9.17109
葉如	-9.17511
葉微	-9.17664
椹	-9.17692
柑	-9.17714
籬	-9.17756
斂	-9.1776
賤	-9.17767
漆	-9.17799
柰	-9.17805
竿	-9.17814
擾	-9.17861
戒	-9.17882
薦	-9.17886
之上	-9.18103
其中	-9.18332
一云	-9.18385
古人	-9.18447
次之	-9.18475
農桑通訣	-9.18488
來年	-9.18644
質	-9.18864
把	-9.18866
溫	-9.1888
腰	-9.18892
茭	-9.18908
薅	-9.18925
驅	-9.18926
随	-9.18929
游	-9.1893
壺	-9.18935
禹	-9.18955
寅	-9.18957
瀦	-9.18961
疑	-9.18972
賜	-9.18979
耒耜	-9.19031
天子	-9.19142
也若	-9.19407
成熟	-9.19555
必須	-9.19768
處處有之	-9.19795
用水	-9.19853
季	-9.19859
示	-9.19894
扇	-9.19908
箕	-9.19951
戊	-9.19979
式	-9.20029
若干	-9.20041
博	-9.2006
堆	-9.20064
擬	-9.20078
汲	-9.20083
會	-9.20097
徃	-9.201
叢	-9.20582
則無	-9.20864
卒	-9.2107
蘿蔔	-9.21086
句	-9.2111
竇	-9.2115
格	-9.21173
棘	-9.21173
研	-9.21226
甕中	-9.21309
而小	-9.21471
黄白	-9.21511
茄	-9.21838
井田	-9.21906
苗髙	-9.22119
妙	-9.22124
窄	-9.22184
荏	-9.22212
段	-9.22228
腸	-9.22237
决	-9.22274
没	-9.22275
䕶	-9.22278
茍	-9.22297
竊	-9.22325
㫖	-9.22343
冬至	-9.22864
尺許	-9.22977
二三尺	-9.23145
弊	-9.23301
者亦	-9.23315
涸	-9.23337
衛	-9.23353
槩	-9.23375
規	-9.23385
羙	-9.23388
殖	-9.23394
沸	-9.23405
豉	-9.23407
梗	-9.23419
廬	-9.23437
廣志曰	-9.23505
衣食	-9.23966
上有	-9.24154
小民	-9.24169
溉田	-9.24388
魯	-9.24421
楮	-9.24458
􁎈	-9.24485
狗	-9.24488
侵	-9.24489
衝	-9.24496
隄	-9.245
項	-9.245
黎	-9.24523
竟	-9.24524
算	-9.24529
審	-9.2453
不必	-9.24548
額	-9.24549
較	-9.24557
卯	-9.24565
繼	-9.24583
佃	-9.24598
裂	-9.24617
屑	-9.24671
多寡	-9.2478
而無	-9.24957
耕種	-9.2524
者謂之	-9.25288
西南	-9.25379
儲	-9.25422
歛	-9.25479
耐	-9.25534
田野	-9.25546
榦	-9.25608
數十	-9.25619
侯	-9.25657
一曰	-9.25665
僅	-9.25677
畦種	-9.25684
徴	-9.25729
薤	-9.25736
彌	-9.25759
五穀	-9.2576
稅	-9.25767
㫁	-9.25774
十一月	-9.25845
甚多	-9.26083
次年	-9.26388
第三	-9.2639
春夏	-9.26395
一寸	-9.26654
種植	-9.26743
賈	-9.26767
珍	-9.26781
河南	-9.26825
浴	-9.26836
瘡	-9.26848
維	-9.26868
繰	-9.26886
紡	-9.26902
十一	-9.27031
十七	-9.2719
之物	-9.27195
十九	-9.27216
勸農	-9.27525
於此	-9.28012
頂	-9.28017
赤色	-9.28017
亢	-9.28046
壬	-9.28047
陶	-9.28063
舟	-9.2807
旺	-9.28078
壇	-9.28294
皇帝	-9.28448
一畝	-9.2846
子如	-9.28482
下水	-9.285
十四	-9.28588
萬物	-9.28748
農政全書卷	-9.28823
百里	-9.29042
農桑	-9.29164
酪	-9.29168
圜	-9.29191
篩	-9.29195
洛	-9.29228
曾	-9.29265
鋒	-9.29265
農桑輯要	-9.29274
荷	-9.29274
擡	-9.2928
相去	-9.29291
鍾	-9.29292
惜	-9.293
汗	-9.29302
幸	-9.29304
矮	-9.29324
無所	-9.29344
宫	-9.29374
耶	-9.29386
山東	-9.29432
不成	-9.2972
播	-9.29763
其所	-9.30142
漉	-9.3017
煮食	-9.30241
閩	-9.3029
去其	-9.30403
澀	-9.30404
莊	-9.30417
鹵	-9.30459
激	-9.30462
識	-9.3048
艱	-9.30484
駕	-9.30484
氷	-9.30524
迎	-9.30543
黄花	-9.3092
畒	-9.31057
農書	-9.31239
民之	-9.31298
術	-9.31311
百日	-9.31455
四尺	-9.31532
蕪菁	-9.31634
私	-9.31687
若不	-9.31693
斧	-9.31697
權	-9.31698
鬼	-9.31704
鬱	-9.31728
顧	-9.31735
楸	-9.31761
臺	-9.31789
畿	-9.31859
兩端	-9.31888
八十	-9.31917
儀	-9.31933
菜生	-9.32021
浙	-9.32024
良田	-9.32323
六十	-9.32654
晝	-9.32886
豌豆	-9.32896
墳	-9.32909
凝	-9.32929
衍	-9.32933
缺	-9.32952
輔	-9.3296
以供	-9.32981
緣	-9.33003
扈	-9.33088
必有	-9.33383
之本	-9.33488
入藥	-9.33504
前後	-9.33533
色白	-9.33663
譜	-9.33665
和之	-9.33701
紫花	-9.3385
瘠	-9.34128
橋	-9.34136
勃	-9.34146
磚	-9.34165
鉤	-9.34177
聽	-9.34181
豫	-9.34209
者有	-9.34211
庻	-9.34211
敗	-9.34219
辭	-9.3423
搭	-9.34231
菌	-9.34235
艾	-9.34236
庭	-9.34264
蔵	-9.34275
錫	-9.34297
蔽	-9.34305
鵝	-9.34316
白花	-9.34318
后稷	-9.34339
澮	-9.34366
救飢採嫩	-9.34501
月令	-9.34673
豐年	-9.34727
上旬	-9.34743
其種	-9.35056
仲	-9.3536
礱	-9.35373
凶	-9.35414
三種	-9.35415
遵	-9.35463
百畝	-9.35466
剛	-9.35495
欽定授時通考卷	-9.35508
欽定四庫全書欽定授時通考卷	-9.35509
蕃	-9.35516
乗	-9.35523
驢	-9.35525
簸	-9.35553
栽之	-9.35591
感	-9.35594
净	-9.35599
箭	-9.35622
律	-9.35625
耆	-9.35631
儉	-9.35649
枝葉	-9.35971
記曰	-9.36142
形如	-9.36239
熟食	-9.3631
其餘	-9.3666
葅	-9.36706
蔓菁	-9.36756
罷	-9.36757
擲	-9.36797
槌	-9.36829
輭	-9.3685
烟	-9.36854
薪	-9.36883
際	-9.37001
府古	-9.37069
塗之	-9.37311
之意	-9.37457
三斗	-9.37478
土地	-9.37591
收子	-9.37601
墾田	-9.37606
人家	-9.37608
可為	-9.37683
状	-9.3772
父	-9.38066
爪	-9.38079
貸	-9.38082
突	-9.38087
募	-9.38091
犬	-9.38093
揀	-9.38093
表	-9.38132
斸	-9.38144
竅	-9.38148
寄	-9.38155
略	-9.38157
祥	-9.38242
堂	-9.38243
流民	-9.38341
灌之	-9.38355
大率	-9.38364
木棉	-9.38452
種子	-9.3879
之人	-9.38852
之令	-9.38905
十里	-9.39011
為末	-9.39077
穄	-9.39224
樞	-9.3932
水澆	-9.39349
弦	-9.39368
壊	-9.39369
多則	-9.39373
昏	-9.3939
樁	-9.39398
困	-9.39449
塵	-9.39457
涼	-9.39457
邪	-9.3946
刄	-9.39462
痛	-9.39466
雍	-9.39467
豪	-9.39482
竒	-9.39495
員	-9.39499
履	-9.39522
阜	-9.39554
徹	-9.39583
菹	-9.39599
殿	-9.39717
不然	-9.399
者即	-9.39927
江淮	-9.40167
歉	-9.40261
丈餘	-9.40292
多食	-9.40526
六百	-9.40533
關	-9.40732
丙	-9.40737
塲	-9.40784
余	-9.40803
逆	-9.40807
席	-9.40853
萌	-9.40859
泰	-9.40859
泊	-9.40863
爾雅云	-9.40874
恤	-9.40896
縣土産	-9.40921
傳曰	-9.40983
三百	-9.41212
有白	-9.41273
之月	-9.41611
中間	-9.41618
藝	-9.41645
民間	-9.41672
務本新書	-9.41772
其地	-9.41838
以其	-9.41939
者曰	-9.42019
戎	-9.42075
葡萄	-9.42093
竈	-9.4211
芸	-9.42121
繳	-9.42149
坎	-9.42176
菱	-9.42187
貼	-9.42189
絡	-9.4219
抽	-9.42201
障	-9.42204
撻	-9.4221
師古曰	-9.42218
醬	-9.42231
菘	-9.42231
取子	-9.42248
靈	-9.42275
箱	-9.42315
如前法	-9.42336
千里	-9.42447
百餘	-9.42497
水中	-9.42618
可用	-9.43132
薺	-9.43294
寡	-9.43324
為一	-9.43497
六尺	-9.43501
卑	-9.43516
聴	-9.43532
鵞	-9.43543
鑱	-9.43543
傾	-9.43547
左右	-9.43577
揉	-9.43587
竭	-9.43589
潔	-9.43594
讀	-9.43616
銅	-9.43633
後世	-9.43815
味甜救飢採	-9.43839
澆之	-9.44121
澆灌	-9.44173
千石	-9.44343
民田	-9.44491
慎	-9.4472
筍	-9.44903
葶	-9.44946
藁	-9.44951
畔	-9.44955
住	-9.44969
為佳	-9.44976
縷	-9.44991
寳	-9.44994
違	-9.44999
瓶	-9.45004
二日	-9.45007
苑	-9.45038
以來	-9.45042
吴	-9.45043
踈	-9.45047
枲	-9.45071
凡種	-9.45282
相似	-9.45292
日中	-9.45344
有所	-9.45446
不致	-9.45528
六十日	-9.45763
地勢	-9.45869
第二	-9.45987
雞子	-9.46025
下田	-9.46082
先生	-9.4609
播種	-9.4612
不敢	-9.46135
踐	-9.46327
另	-9.46334
羣芳譜	-9.46367
互	-9.46368
藕	-9.46369
萊	-9.46385
巡	-9.46408
慢	-9.4641
騐	-9.46428
偏	-9.46441
徙	-9.46444
古者	-9.46449
屈	-9.46461
摩	-9.46463
脈	-9.46472
鉏	-9.46512
蕎麥	-9.46585
梢間	-9.4663
不須	-9.46851
蒔	-9.47009
之道	-9.47122
早稻	-9.47315
無不	-9.47325
旱則	-9.47457
葉煠熟水浸淘浄油鹽調食	-9.47534
山野	-9.47582
地利	-9.47646
寸許	-9.4767
之際	-9.47698
沿	-9.47761
之數	-9.4778
闢	-9.478
零	-9.47817
丑	-9.4784
汝	-9.47862
苫	-9.47867
淳	-9.47906
勘	-9.47939
庫	-9.47961
肅	-9.4798
渾	-9.47988
田家	-9.48319
地氣	-9.48377
土宜	-9.48715
孫	-9.4877
古之	-9.48876
天地	-9.49102
摘取	-9.49125
晒	-9.4916
釘	-9.49267
層	-9.49286
専	-9.49291
紋	-9.49311
撫	-9.49321
填	-9.49336
懐	-9.49349
芳	-9.49369
伊	-9.4938
漲	-9.49389
晒乾	-9.49403
恭	-9.49456
多者	-9.49537
微苦	-9.49775
兩頭	-9.4982
又方	-9.49949
地中	-9.5007
以後	-9.50187
取汁	-9.5041
生於	-9.50435
逸	-9.50606
乂	-9.50799
瀉	-9.50827
翼	-9.50852
不食	-9.5086
熏	-9.5088
如前	-9.50883
一宿	-9.50896
砂	-9.50906
曽	-9.50917
釜	-9.50943
甑	-9.50974
合穂	-9.51021
阡陌	-9.51078
大抵	-9.51114
六年	-9.51211
牛羊	-9.51265
熟則	-9.51347
高下	-9.51361
妨	-9.51581
四寸	-9.51642
者必	-9.51662
一百	-9.51935
去苦味	-9.52008
葉頗	-9.52094
生食	-9.52193
其味	-9.52206
啖	-9.52251
煠	-9.52253
郭璞	-9.52255
配	-9.52325
熙	-9.52344
苞	-9.52364
稔	-9.52374
浚	-9.52374
斬	-9.52378
騰	-9.52412
釐	-9.52448
泥封	-9.52597
七年	-9.52687
此法	-9.53078
其莖	-9.53124
數年	-9.53353
滯	-9.53801
佐	-9.53806
鷄	-9.5382
燈	-9.53826
棚	-9.53828
刮	-9.5384
挈	-9.53862
拾	-9.53866
校	-9.5387
蠧	-9.53871
蕩	-9.53877
挑	-9.53877
夕	-9.53903
霧	-9.53904
鼎	-9.53909
伯	-9.53915
官員	-9.53931
忘	-9.53945
至秋	-9.54246
治之	-9.5432
為上時	-9.54581
天氣	-9.54774
禦	-9.54927
淘洗	-9.5514
以土	-9.55153
乙	-9.55326
六七	-9.55348
椿	-9.55379
榮	-9.55405
洪	-9.55441
智	-9.55443
麪	-9.5545
宅	-9.55457
細切	-9.55459
郭	-9.55462
泄	-9.55464
臥	-9.55468
旣	-9.55468
曠	-9.55468
爭	-9.55484
壩	-9.5549
痩	-9.5549
烝	-9.55496
融	-9.55499
毫	-9.55506
灑	-9.55564
匪	-9.55572
勸課	-9.55577
荒政	-9.55599
昭	-9.55637
下流	-9.5565
七八	-9.55732
煠熟油鹽調食	-9.55742
開墾	-9.55761
不堪	-9.55781
神農	-9.56098
生田野中	-9.564
器也	-9.56788
亦無	-9.5685
其法	-9.56856
八尺	-9.56857
柘	-9.5688
䥥	-9.56885
勒	-9.5691
巨	-9.5696
柚	-9.56978
牕	-9.56981
穊	-9.56983
蔕	-9.56994
快	-9.56994
抱	-9.56996
統	-9.57004
錦	-9.57013
澇	-9.57013
粘	-9.5703
征	-9.57041
脊	-9.57049
栢	-9.57056
漕	-9.57097
孝	-9.571
享	-9.57156
熬	-9.57183
之名	-9.57284
廪	-9.57292
牛糞	-9.57487
勿使	-9.57613
得其	-9.57618
其下	-9.57892
為良	-9.58191
管子	-9.5838
肥地	-9.58442
白露	-9.5847
箔上	-9.58541
蕪	-9.58547
司農	-9.58553
阬	-9.5856
輙	-9.5858
廟	-9.58584
䇿	-9.58588
洞	-9.586
凖	-9.58605
顔	-9.58629
婆	-9.58633
曉	-9.58637
揺	-9.5864
脱	-9.58642
渴	-9.58651
雌	-9.58654
菰	-9.58668
班	-9.58669
栽種	-9.58673
作一	-9.58685
雩	-9.58701
鈎	-9.5871
糊	-9.58719
創	-9.58722
億	-9.58725
恩	-9.58801
種法	-9.5881
亭	-9.58814
十石	-9.5886
青白	-9.58877
州禾	-9.58948
敢	-9.59035
已上	-9.59212
九年	-9.59231
樹枝	-9.59241
今年	-9.59398
一切	-9.60031
壽	-9.6018
勾	-9.6023
基	-9.6026
炎	-9.60263
澄	-9.60281
擁	-9.60291
弗	-9.60327
霜降	-9.60333
呉	-9.60374
襄	-9.60376
飬	-9.60399
去皮	-9.60626
味酸	-9.60728
火燒	-9.60738
收穫	-9.6084
葉煠熟水浸	-9.60843
第四	-9.60945
石灰	-9.60958
田畝	-9.60983
一兩	-9.61121
萬石	-9.61327
一分	-9.61468
菊	-9.61567
夏秋	-9.61598
蓄積	-9.61608
力田	-9.61615
天時	-9.61699
熟者	-9.61722
逢	-9.61852
四時類要	-9.61877
膚	-9.61902
晨	-9.6191
賴	-9.61931
衰	-9.61941
敷	-9.61946
吐	-9.61948
𢎞	-9.61957
淹	-9.61968
桂	-9.61968
槃	-9.6197
漚	-9.61988
遊	-9.61991
覺	-9.62021
拖	-9.62053
揚州	-9.62092
本草云	-9.62325
也夫	-9.62359
今之	-9.62478
生田野中苗	-9.62541
三分	-9.62684
又可	-9.62819
一根	-9.62887
為民	-9.62908
寒無毒	-9.62922
粒大	-9.63407
冀	-9.63527
牟	-9.63575
捐	-9.63604
不許	-9.6362
噉	-9.6363
轅	-9.63665
招	-9.6367
愚	-9.63681
蜂	-9.63684
圗	-9.63727
减	-9.63729
秥	-9.63875
也故	-9.6407
縣物産稻	-9.64327
雨水	-9.64537
聖人	-9.64557
以防	-9.64629
九州	-9.64944
收藏	-9.65055
秬	-9.65172
橙	-9.65251
藜	-9.65257
麫	-9.65269
凈油鹽調食	-9.6532
芡	-9.65332
椽	-9.65335
番	-9.65337
后	-9.65341
腳	-9.65351
欽定四庫全書	-9.6536
普	-9.65364
滓	-9.65371
山中	-9.65377
沈	-9.65387
亡	-9.65404
液	-9.65413
淮南子	-9.65611
人以	-9.65694
早晚	-9.65719
秋冬	-9.65948
之害	-9.65953
叢生	-9.66053
或作	-9.66092
令熟	-9.66118
救飢採苗葉煠熟水浸	-9.66152
太平	-9.66175
不妨	-9.6628
中心	-9.66505
十畝	-9.66563
紅花	-9.66602
一嵗	-9.66629
詔曰	-9.66901
得所	-9.66943
河東	-9.66988
卿	-9.67001
秕	-9.67038
簿	-9.67082
樓	-9.67082
纔	-9.671
辦	-9.67107
掛	-9.67109
揷	-9.67114
是月也	-9.67128
溲	-9.67137
耦	-9.67145
褐色	-9.67148
奴	-9.67149
賞	-9.67155
吉	-9.67171
烈	-9.67177
郎	-9.67187
入於	-9.67196
驚	-9.67209
則易	-9.67211
八九	-9.67223
蠲	-9.67228
種麥	-9.6723
隆	-9.6726
樹藝	-9.67314
耕地	-9.67331
而出	-9.67335
二曰	-9.6738
太湖	-9.67504
二尺許	-9.67609
不厭	-9.67721
而為	-9.67781
以爲	-9.6789
立秋	-9.68132
之氣	-9.68294
先王	-9.68391
木𤓰	-9.68587
天下之	-9.68682
常平	-9.6871
九穂	-9.68765
尋	-9.68826
酉	-9.68845
豎	-9.6886
跡	-9.68866
裁	-9.68885
疥	-9.68891
苜蓿	-9.68893
誰	-9.68896
啟	-9.68898
説文曰	-9.6893
集韻	-9.68936
赴	-9.68994
頒	-9.68996
懷	-9.69009
石榴	-9.69018
古今	-9.69028
御史	-9.69053
夀	-9.69057
取出	-9.69087
釀酒	-9.69157
社倉	-9.69163
數日	-9.69403
北人	-9.69451
北土	-9.69555
桑葉	-9.69576
肥大	-9.69581
而長	-9.69637
為田	-9.69641
色黄	-9.69725
以致	-9.69781
皆以	-9.70016
以手	-9.70023
嵗嵗	-9.70141
抵	-9.70268
葉味甘	-9.70471
眉	-9.70613
波	-9.70628
豇豆	-9.70633
挾	-9.70654
欲其	-9.70666
燭	-9.70689
澱	-9.70692
濃	-9.70703
練	-9.70704
男	-9.70726
匹	-9.70732
括	-9.70745
穡	-9.70757
酌	-9.70774
箋	-9.70784
一畆	-9.70799
屢	-9.70812
軖	-9.70818
糝	-9.70844
宜用	-9.70939
法用	-9.71429
有黄	-9.71708
則有	-9.71971
至冬	-9.72014
以時	-9.72026
五六月	-9.72156
有小	-9.72337
而成	-9.72418
大夫	-9.72418
東西	-9.72426
令極	-9.72453
錄	-9.72465
不盡	-9.72478
雖有	-9.72499
夏月	-9.725
忍	-9.72514
膩	-9.72521
沒	-9.72524
革	-9.72559
春分	-9.72571
蕈	-9.72574
獸	-9.72587
犯	-9.72589
寫	-9.72595
雁	-9.72612
牀	-9.72612
講	-9.72615
耕耤	-9.72616
疋	-9.72639
蝦	-9.72643
櫻桃	-9.72645
幾何	-9.72679
膠	-9.72699
尤佳	-9.72726
禱	-9.72734
類也	-9.7274
之力	-9.73062
否	-9.73159
開五瓣	-9.73168
無雨	-9.73189
草一名	-9.73257
如是	-9.73363
二十四	-9.7338
江河	-9.73457
一時	-9.7348
二十五	-9.73585
三穂	-9.73615
其色	-9.73727
一二尺	-9.73801
漢書	-9.73804
者則	-9.73853
俗呼	-9.74056
或用	-9.74207
晚稻	-9.74284
常平倉	-9.74315
耩	-9.74336
其木	-9.74398
癸	-9.74402
蓐	-9.74406
滅	-9.74422
院	-9.74433
溺	-9.74435
盧	-9.74454
穎	-9.74468
展	-9.74473
蓴	-9.74484
蓑	-9.74487
禹貢	-9.74517
冠	-9.74518
堯	-9.74518
抄	-9.74544
纂	-9.74546
鱗	-9.74579
之義	-9.74783
粟米	-9.74896
取之	-9.7493
本草名	-9.74947
一月	-9.7516
中國	-9.75292
平地	-9.75412
區種	-9.75628
種稻	-9.75692
二丈	-9.75835
淨油鹽調食	-9.75844
士農必用	-9.76001
粢	-9.76221
蘭	-9.76231
皇帝御製	-9.76273
色青	-9.76309
乞	-9.7632
符	-9.7633
戌	-9.76332
者宜	-9.7634
争	-9.76343
那	-9.7635
搨地生	-9.76355
焚	-9.76369
療	-9.76383
藿	-9.76386
茱萸	-9.76398
廵	-9.76404
催	-9.76427
髪	-9.76431
副	-9.76433
浪	-9.76448
震	-9.76459
䝉	-9.76482
等處	-9.76498
二分	-9.76499
祝	-9.76503
出於	-9.76511
不任	-9.76514
州物産	-9.76542
耒	-9.76542
開黄花	-9.76587
蔓生	-9.76606
尺五寸	-9.76667
地桑	-9.76717
也詩云	-9.76802
所出	-9.76842
早熟	-9.77065
樹高	-9.77197
救飢採嫩葉煠熟	-9.77842
春種	-9.77979
藏之	-9.7807
芒種	-9.78182
有二種	-9.78244
性寒	-9.78259
奸	-9.78282
輾	-9.7829
碧	-9.78298
矢	-9.78299
𢷬	-9.78301
虹	-9.78313
韻	-9.78317
做	-9.78346
戴	-9.78348
遮	-9.78354
控	-9.78354
泛	-9.78363
兖	-9.78382
隠	-9.78384
攻	-9.78385
臂	-9.78386
糖	-9.78406
豕	-9.78408
述	-9.78434
靖	-9.78446
座	-9.78498
級	-9.78525
魯桑	-9.78574
之間謂之	-9.78699
平無毒	-9.78734
蒸食	-9.78872
使之	-9.78912
三十六	-9.78997
開小	-9.79062
二三月	-9.79242
而上	-9.79277
十倍	-9.79821
比之	-9.79831
有力	-9.79915
吹	-9.79979
生蟲	-9.80138
薹	-9.80225
榛	-9.80244
疊	-9.80273
戍	-9.80295
萵苣	-9.80298
贍	-9.80304
坊	-9.80362
淋	-9.80374
以下	-9.80379
枸杞	-9.8039
啓	-9.80397
纎	-9.80407
囷	-9.80427
粮	-9.80435
甸	-9.80456
賢	-9.80474
器中	-9.80511
易生	-9.80518
沃之	-9.80619
性温	-9.80631
王禎曰	-9.80809
作餅	-9.81077
農桑通訣曰	-9.81146
民生	-9.81234
下地	-9.81241
黒色	-9.81267
香美	-9.81277
者其	-9.81384
田疇	-9.81442
每一	-9.81449
橘皮	-9.8154
或謂之	-9.81555
不齊	-9.81559
莫不	-9.81716
蕨	-9.81909
土中	-9.81961
救飢採葉煠熟水浸	-9.82098
川谷	-9.8216
枝條	-9.82174
一夫	-9.82181
自生	-9.82211
縫	-9.82257
姓	-9.82276
所生	-9.82279
蔗	-9.82317
阻	-9.82328
也然	-9.82329
墨	-9.82336
遼	-9.8234
捕	-9.82353
鳬	-9.82353
杉	-9.82368
分為	-9.8237
脯	-9.82371
針	-9.82376
皺	-9.82377
㡬	-9.82378
梓	-9.82384
膝	-9.82389
童	-9.824
鬻	-9.82401
響	-9.82414
冀州	-9.82419
孰	-9.82423
沛	-9.82451
陽氣	-9.82451
兆	-9.82453
八年	-9.8246
頌	-9.82466
樝	-9.82485
秉	-9.82548
龍眼	-9.82565
次第	-9.82697
流水	-9.82726
後五日	-9.82826
太守	-9.82833
皮薄	-9.83036
之外	-9.83067
蠶桑	-9.83068
上用	-9.83469
曝之	-9.83518
種蒔	-9.83593
出入	-9.83595
潤澤	-9.83679
江東	-9.83895
則死	-9.84053
上流	-9.84213
紅色	-9.84252
呼為	-9.84256
嶺	-9.84302
聖祖仁皇帝御製	-9.84358
蛇	-9.84391
巴	-9.84395
盜	-9.84404
鴉	-9.84418
杓	-9.84419
匾	-9.84426
曳	-9.84432
鴈	-9.84435
匠	-9.84467
摻	-9.84468
勉	-9.84469
椎	-9.84495
陜西	-9.84497
族	-9.84502
以助	-9.84513
囊	-9.84529
寺	-9.84529
禽	-9.8453
糜	-9.84533
霑	-9.84538
蕡	-9.84564
灾	-9.84571
義倉	-9.84574
芻	-9.84595
暫	-9.84596
餾	-9.84655
煠食	-9.84799
之異	-9.84824
皆得	-9.84963
糯稻	-9.85119
救飢採苗葉煠熟	-9.85184
人謂之	-9.85231
貧民	-9.85278
其本	-9.85512
性平	-9.85594
掘地	-9.85946
即今	-9.8597
江浙	-9.8601
在上	-9.86084
五分	-9.8615
四方	-9.86185
荔支	-9.86287
倣	-9.86358
世宗憲皇帝御製	-9.86484
簷	-9.86513
強	-9.86537
倚	-9.86565
輩	-9.86569
挼	-9.86575
餓	-9.86576
往往	-9.86577
繅	-9.86587
謀	-9.86591
題	-9.86592
距	-9.86596
徵	-9.86601
汚	-9.86603
掉	-9.86611
涇	-9.86617
振	-9.8662
拳	-9.86657
岡	-9.86665
抛	-9.86671
榴	-9.86675
庸	-9.86682
晝夜	-9.86683
爵	-9.8669
而細	-9.867
炭	-9.86705
耐旱	-9.86706
東方	-9.86708
救荒本草	-9.86711
豳風	-9.86728
武帝	-9.86753
直𨽻	-9.8676
春月	-9.86901
開白花結	-9.87045
六七月	-9.87081
百五十	-9.87253
如此則	-9.87719
其力	-9.87766
内有	-9.87836
蠶事	-9.879
於民	-9.87992
葱白	-9.88025
則難	-9.88156
牛馬	-9.88284
王禎	-9.88345
東北	-9.88647
青州	-9.88675
船	-9.8868
需	-9.88711
霖	-9.8873
稃	-9.88731
東作	-9.88734
䕃	-9.8874
廣雅曰	-9.8874
牡	-9.88755
汙	-9.88774
究	-9.88784
盪	-9.88796
雛	-9.88804
洫	-9.88805
寜	-9.88813
準	-9.88818
具也	-9.88831
網	-9.88834
莽	-9.88836
羽	-9.88854
梔子	-9.88857
耰	-9.88894
凶年	-9.88898
裕	-9.88917
使民	-9.88939
凍死	-9.89064
有毛	-9.89082
以待	-9.89226
書云	-9.8949
有益	-9.89559
可以為	-9.89572
可愛	-9.89694
其皮	-9.8974
務本	-9.89878
矣又	-9.89967
各省	-9.89971
黑豆	-9.90016
實如	-9.90051
至于	-9.90086
七尺	-9.902
十五日	-9.90204
黍米	-9.90349
老農	-9.90369
如法	-9.90381
乃止	-9.9041
以木	-9.9048
何以	-9.90746
陜	-9.90901
杴	-9.90929
賊	-9.90938
檾	-9.90969
豚	-9.90969
健	-9.9097
刋	-9.90971
緊	-9.90981
囘	-9.90987
偶	-9.90989
鄰	-9.90991
卽	-9.91015
従	-9.91016
陂塘	-9.91017
㸔	-9.91019
胎	-9.91021
葚	-9.91025
蔓延	-9.91033
瓤	-9.9104
縱横	-9.91045
訓	-9.91047
稭	-9.91065
趣	-9.9109
肌	-9.91092
有毒	-9.91094
淘洗浄油鹽調食	-9.91115
匏	-9.91126
故有	-9.9117
千頃	-9.91281
主水	-9.91378
三月種	-9.91544
救飢採嫩苗葉煠熟	-9.91564
為之使	-9.9162
制度	-9.91716
豉汁	-9.91742
生子	-9.91751
早種	-9.9181
是故	-9.91964
周官	-9.92085
黑色	-9.92122
又法	-9.92206
飼蠶	-9.92211
其事	-9.92218
未有	-9.92294
然則	-9.92356
而止	-9.92495
南人	-9.92601
生山野中	-9.92702
大水	-9.92915
百穀	-9.93029
高宗純皇帝御製恭和聖祖仁皇帝原韻	-9.93137
廉	-9.93157
鎌	-9.93174
丞	-9.932
彊	-9.93204
重農	-9.93217
錯	-9.93236
弓	-9.9324
隋	-9.93244
縛	-9.9325
生青熟	-9.9325
橛	-9.93253
京師	-9.93258
羔	-9.93269
梯	-9.93274
擔	-9.93277
□	-9.9328
危	-9.93305
沐	-9.93311
靡	-9.93313
犢	-9.93326
飭	-9.93337
敎	-9.93339
行之	-9.93348
暇	-9.93353
嘴	-9.93363
忠	-9.93363
鞭	-9.9343
鎛	-9.93494
先用	-9.93761
民食	-9.93782
六寸	-9.9384
復以	-9.9386
二十日	-9.93891
復生	-9.94006
八寸	-9.94037
白楊	-9.94076
二人	-9.9413
芥菜	-9.94169
矣今	-9.94171
黄帝	-9.94297
秋耕	-9.94347
無窮	-9.94535
民力	-9.94537
苗長	-9.94604
或云	-9.94778
蠶豆	-9.95219
教民	-9.95257
厫	-9.9527
西方	-9.95415
脾	-9.95418
庾	-9.95528
鉅	-9.95533
彈	-9.95541
頸	-9.95549
兎	-9.9555
食者	-9.95551
羸	-9.95552
㵼	-9.95566
其樹	-9.95566
宛	-9.95567
虫	-9.95571
餌	-9.95574
酥	-9.95581
垣	-9.95583
紛	-9.95583
即成	-9.95598
氊	-9.9561
餳	-9.95614
㡳	-9.95615
隰	-9.95622
刷	-9.95623
闔	-9.95629
頼	-9.95641
鐮	-9.95644
追	-9.95646
尹	-9.95655
戽	-9.95658
酌量	-9.95659
歟	-9.95666
蔡	-9.95667
派	-9.95675
披	-9.95686
拜	-9.95686
椀	-9.95709
甫	-9.95715
為中時	-9.95733
賑濟	-9.9574
味苦救飢採	-9.95744
白米	-9.96244
旱稻	-9.96483
瓮中	-9.9695
四五尺	-9.97082
去之	-9.97227
五斗	-9.97287
人户	-9.97379
花葉	-9.97481
一科	-9.97662
幽	-9.97782
分栽	-9.97859
地上	-9.97878
收之	-9.97914
孤	-9.97915
宰	-9.97927
袋	-9.97941
爽	-9.97953
整	-9.9796
韌	-9.97962
種樹書	-9.97978
峻	-9.97993
臛	-9.97995
颺	-9.98004
挽	-9.98013
殆	-9.98036
什	-9.98046
督撫	-9.9809
懼	-9.98094
協	-9.98106
叙	-9.98115
尺寸	-9.98284
氏曰	-9.98398
亦如之	-9.98499
雨後	-9.98519
其田	-9.98575
必先	-9.98657
即愈	-9.9885
不可得	-9.9894
考之	-9.98988
立夏	-9.99063
之心	-9.99079
者良	-9.99118
亦名	-9.99122
酒法	-9.99138
飲食	-9.99492
煮熟	-9.99596
而大	-9.99723
種麻	-9.99902
堅實	-10.0005
人所	-10.0024
皆可食	-10.0026
亦多	-10.0028
柏	-10.003
其間	-10.0032
憲	-10.0034
翠	-10.0035
治病文具本草草部條下	-10.0035
冬青	-10.0036
静	-10.0036
民事	-10.0036
貪	-10.0038
此言	-10.0038
保甲	-10.0039
濁	-10.0039
者非	-10.004
梧桐	-10.004
輝	-10.0041
蒂	-10.0042
測	-10.0042
匝	-10.0042
吉貝	-10.0042
畮	-10.0042
燠	-10.0042
亷	-10.0043
斟酌	-10.0043
冊	-10.0043
洋	-10.0044
觸	-10.0044
寶	-10.0045
指揮	-10.0045
薉	-10.0046
凌	-10.0046
迴	-10.0047
民有	-10.0047
丸	-10.0047
皇后	-10.0049
優	-10.0049
妄	-10.005
俯	-10.005
此時	-10.005
絞	-10.0052
向上	-10.0052
旗	-10.0054
檢	-10.0056
有六	-10.0057
廣志	-10.0058
水勢	-10.0063
芽出	-10.0067
錢糧	-10.0073
茂盛	-10.0089
輕重	-10.0091
此皆	-10.0099
樹木	-10.0103
雨澤	-10.0129
屯田	-10.0138
農器	-10.014
春耕	-10.0145
埋之	-10.0155
數尺	-10.0179
一尺許	-10.0185
日月	-10.0194
此物	-10.0194
川澤	-10.0234
不佳	-10.0256
農人	-10.0258
聼	-10.0275
枳	-10.0276
褐	-10.0276
薰	-10.0277
不一	-10.0278
隙	-10.0278
覆土	-10.0281
胃	-10.0281
蘿	-10.0282
則生	-10.0282
倘	-10.0287
䖏	-10.0288
付	-10.0289
餉	-10.0289
箇	-10.0289
冨	-10.029
禮記月令	-10.0291
纑	-10.0291
鋸	-10.0292
遶	-10.0293
麗	-10.0293
驟	-10.0293
穬麥	-10.0295
帚	-10.0295
韋	-10.0295
拐	-10.0296
逼	-10.0296
飼之	-10.0296
阿	-10.0297
䖍	-10.0298
淀	-10.0299
曵	-10.0299
尊	-10.0299
覽	-10.03
藪	-10.0302
絮	-10.0305
亞	-10.0307
彚	-10.0307
十分	-10.0312
次五日	-10.0313
繰絲	-10.0314
修築	-10.0329
熟糞	-10.0332
荆州	-10.0344
人掌	-10.0346
開濬	-10.0347
無實	-10.035
山西	-10.0369
上帝	-10.0371
開白花	-10.0372
於上	-10.0378
知其	-10.0381
齊民要術云	-10.0388
千餘	-10.0389
尚書	-10.0394
一畒	-10.0408
第五	-10.041
一頃	-10.0418
下濕	-10.0418
筩之	-10.0429
五種	-10.0431
雨雪	-10.0437
隂雨	-10.0444
君子	-10.0446
二三寸	-10.0452
而為之	-10.0453
方言	-10.0474
議者	-10.049
荒田	-10.0492
九十	-10.0516
秠	-10.0531
農器圖譜	-10.0532
擺	-10.0532
貞	-10.0533
言之	-10.0534
轂	-10.0534
冰	-10.0538
碗	-10.0542
輻	-10.0542
魁	-10.0543
虀	-10.0544
萎	-10.0544
射	-10.0544
槿	-10.0545
瀆	-10.0546
忙	-10.0547
祐	-10.0547
鳳	-10.0548
繞	-10.055
荼	-10.055
翁	-10.055
挂	-10.055
訪	-10.0551
簾	-10.0551
范	-10.0551
踰	-10.0551
返	-10.0551
件	-10.0552
蕭	-10.0553
鳩	-10.0553
洲	-10.0554
麰	-10.0554
塍	-10.0556
剉	-10.0558
閑	-10.0558
鮓	-10.0559
荔枝	-10.0561
敦	-10.0562
占城	-10.0569
翻車	-10.0571
苧麻	-10.0572
倣此	-10.0578
預備	-10.0583
淨洗	-10.0586
眠起	-10.0587
人呼為	-10.0605
者佳	-10.0607
逺近	-10.0607
多用	-10.0616
二斗	-10.0619
淡黄	-10.0632
山藥	-10.0637
時雨	-10.0656
甚美	-10.0666
地形	-10.0666
隂乾	-10.0667
亦可食	-10.068
生芽	-10.0696
則不生	-10.071
為利	-10.0725
不煩	-10.0727
之計	-10.0752
三四月	-10.0752
養蠶	-10.076
不可食	-10.0765
來春	-10.0779
則為	-10.078
淮南	-10.0781
說文	-10.0788
常食	-10.0791
異物志曰	-10.0792
桶	-10.0799
綴	-10.0801
籌	-10.0801
稌	-10.0802
城郭	-10.0802
樗	-10.0802
怕	-10.0803
胥	-10.0805
鬆	-10.0807
影	-10.0807
躡	-10.0807
軫	-10.0808
暵	-10.0808
鼠	-10.0809
綽	-10.081
林檎	-10.0811
濱	-10.0812
葑	-10.0812
鈞	-10.0812
紹興	-10.0812
逹	-10.0812
埴	-10.0815
趂	-10.0815
蜡	-10.0815
畨	-10.0817
効	-10.0817
腴	-10.082
盗	-10.0823
為下時	-10.0824
脫	-10.0824
遥	-10.0826
說文云	-10.0828
雍州	-10.083
州郡	-10.0843
田間	-10.0851
花叉	-10.087
如指	-10.087
竹木	-10.0903
四種	-10.0906
百榖	-10.0908
斫去	-10.0922
無芒	-10.0924
其制	-10.0927
得雨	-10.0929
豈不	-10.0948
稻米	-10.0992
立春	-10.1008
經年	-10.1009
小兒	-10.1016
每日	-10.1025
之言	-10.1043
菜一名	-10.1054
的	-10.1071
握	-10.1072
欄	-10.1073
緯	-10.1073
肯	-10.1075
鴻	-10.1076
脩	-10.1076
葫蘆	-10.1076
農民	-10.1076
烹	-10.1076
狼	-10.1076
杮	-10.1077
牢	-10.1077
生荒野中	-10.1078
帑	-10.1078
有刺	-10.1079
策	-10.1079
奔	-10.1079
翦	-10.108
醃	-10.108
苣	-10.1082
八日	-10.1083
縮	-10.1083
亥	-10.1084
欵	-10.1084
朽	-10.1085
緒	-10.1085
湮	-10.1086
攸	-10.1086
沾	-10.1087
䪥	-10.1087
菑	-10.1088
銜	-10.1089
蓆	-10.109
瘥	-10.109
詣	-10.1091
妃	-10.1091
旱澇	-10.1097
牲	-10.1103
色赤	-10.1112
作小	-10.1117
惟在	-10.1128
㣲苦	-10.113
黍有	-10.1132
郡縣	-10.114
不蛀	-10.1147
化為	-10.1157
務本新書曰	-10.1164
種藝	-10.1165
深耕	-10.1166
江西	-10.117
皮厚	-10.1182
糞土	-10.1192
故謂之	-10.121
用力	-10.1217
蓮子	-10.1218
祈榖	-10.1226
坑中	-10.124
芥子	-10.125
每嵗	-10.125
不勝	-10.1251
嫩時	-10.1258
米一石	-10.1262
拘	-10.1272
十數	-10.1289
葉可食	-10.1289
二物	-10.1298
欖	-10.1327
山川	-10.1334
極細	-10.134
救飢採葉煠熟	-10.1343
枸	-10.1347
兠	-10.1348
坡	-10.1351
鏵	-10.1352
趾	-10.1353
郭璞注曰	-10.1355
磽	-10.1356
壚	-10.1356
薥	-10.1356
暢	-10.1357
人家園圃中	-10.1357
榆莢	-10.1359
虧	-10.1359
園圃	-10.136
杵臼	-10.136
豳	-10.136
甃	-10.136
才	-10.1362
隅	-10.1363
傅	-10.1363
𫝊	-10.1364
嗟	-10.1365
愆	-10.1366
玉衡	-10.1366
祠	-10.1368
牝	-10.137
現	-10.1372
駒	-10.1374
繀	-10.1374
山野間	-10.138
太祖	-10.1381
桑椹	-10.1383
以示	-10.1388
大都	-10.1394
美者	-10.1404
八九月	-10.1409
務農	-10.1427
少許	-10.1449
日曝	-10.1475
每年	-10.1562
濕潤	-10.1585
不失	-10.1587
四角	-10.1593
搯	-10.1608
芽生	-10.1614
芝	-10.1631
蒴	-10.1632
治田	-10.1633
肺	-10.1633
冬春	-10.1633
瓢	-10.1635
輝縣太行山	-10.1635
水陸	-10.1636
猫	-10.1637
絳	-10.1637
一步	-10.1637
肩	-10.1637
刑	-10.1638
鐺	-10.1639
柯	-10.164
盡力	-10.164
曹	-10.1641
帯	-10.1642
慈	-10.1642
柞	-10.1643
陌	-10.1643
滴	-10.1643
判	-10.1645
率多	-10.1646
萁	-10.1646
閣	-10.1647
圭	-10.1647
荻	-10.1647
剗	-10.1648
紐	-10.1648
膏腴	-10.1649
禄	-10.1649
輿	-10.1651
幼	-10.1652
燃	-10.1652
憫	-10.1652
卜	-10.1653
熊	-10.1654
叔	-10.1654
倉廪	-10.1655
托	-10.1665
當時	-10.1665
収貯	-10.1671
酸棗	-10.168
最佳	-10.1681
户部	-10.1686
秔稻	-10.1693
漉出	-10.1723
四升	-10.1725
胡豆	-10.1731
湖水	-10.1733
不為	-10.176
糯米	-10.1767
宜稻	-10.1792
備荒	-10.1792
他方	-10.1808
花結實	-10.1841
味美	-10.1844
三代	-10.1853
否則	-10.1856
未盡	-10.1881
田制	-10.1893
無力	-10.1898
入海	-10.1923
偃	-10.1931
早糯	-10.1932
玄	-10.1933
咨	-10.1934
碪	-10.1934
脹	-10.1935
挹	-10.1935
逃	-10.1936
覈	-10.1937
此月	-10.1937
桔橰	-10.1938
罰	-10.1938
犍	-10.1938
荽	-10.1939
滌	-10.1939
迤	-10.1939
榨	-10.194
壘	-10.194
臍	-10.194
蟹	-10.1941
性温無毒	-10.1941
捍	-10.1941
龜	-10.1942
閭	-10.1942
產	-10.1944
衞	-10.1944
芬	-10.1946
撰	-10.1946
雉	-10.1947
雨諺云	-10.1948
嗇	-10.1948
批	-10.1948
沸湯	-10.1949
水灌	-10.1949
西域	-10.1951
鑄	-10.1952
籰	-10.1953
任意	-10.1971
本縣	-10.1976
說文曰	-10.198
兩傍	-10.1983
光澤	-10.1994
也故曰	-10.2012
青色	-10.2022
耤田	-10.2047
疇	-10.2066
以禦	-10.2067
平原	-10.2077
半月	-10.2077
蒸熟	-10.2153
若夫	-10.2171
芒稻	-10.2191
北風	-10.2195
諸州	-10.2195
榖雨	-10.2225
搖	-10.2229
崖	-10.2231
臙脂	-10.2235
隱	-10.2236
爰	-10.2236
腫	-10.2237
穉	-10.2238
濵	-10.2238
㟁	-10.2238
冐	-10.2239
崔	-10.2239
凋	-10.2239
岳	-10.224
勁	-10.224
迫	-10.2241
篾	-10.2241
箬	-10.2241
撲	-10.2241
淵	-10.2242
遭	-10.2242
爾雅翼	-10.2243
轆轤	-10.2243
簟	-10.2244
沮	-10.2245
钁	-10.2246
幽州	-10.2247
雹	-10.2247
熈	-10.2248
怠	-10.2249
漳	-10.225
介	-10.2252
寓	-10.2252
歡	-10.2253
醴	-10.2253
髮	-10.2253
戾	-10.2253
漁	-10.2256
又有一種	-10.2257
栽培	-10.2259
允	-10.2259
為率	-10.2263
宮	-10.2264
諸侯	-10.2268
胡桃	-10.228
六畜	-10.2289
狀似	-10.229
士農必用曰	-10.2307
受田	-10.231
一斤	-10.2311
蘇州	-10.2319
乃佳	-10.2332
天晴	-10.2336
油麻	-10.2342
術曰	-10.2352
子孫	-10.2352
耕耘	-10.2353
史記	-10.236
千畝	-10.2363
斯民	-10.2385
三江	-10.2423
疏云	-10.2428
生薑	-10.2429
開荒	-10.2472
浄油鹽調食	-10.2484
無異	-10.2498
償	-10.2532
長短	-10.2541
疫	-10.2542
膽	-10.2546
窪	-10.2546
澗	-10.2547
歇	-10.2547
暗	-10.2548
楝	-10.2548
治病文具本草草部	-10.2549
劣	-10.2549
張騫	-10.2552
皂莢	-10.2552
翹	-10.2552
當年	-10.2552
圎	-10.2552
墟	-10.2553
柵	-10.2554
操	-10.2554
匱	-10.2555
胡荽	-10.2555
韓氏直説	-10.2555
遽	-10.2555
構	-10.2555
緜	-10.2555
喉	-10.2555
頴	-10.2556
兔	-10.2556
週	-10.2556
詢	-10.2557
蓏	-10.2557
皂角	-10.2558
藻	-10.2558
陷	-10.2559
祗	-10.256
噐	-10.256
畎	-10.256
萬五千	-10.2562
薄荷	-10.2562
躍	-10.2564
呈	-10.2565
朴	-10.2565
拭	-10.2567
貽	-10.2567
屎	-10.2568
饌	-10.257
荒蕪	-10.2572
野生	-10.2573
欽	-10.2574
秩	-10.2574
輪軸	-10.2585
農功	-10.2586
往來	-10.259
松江	-10.2593
婦人	-10.2595
嘉定	-10.2612
荆桑	-10.2623
朕心	-10.2625
状如	-10.2636
開細	-10.2646
其勢	-10.2651
五六寸	-10.2663
根株	-10.2687
草部	-10.2701
葉煠熟換水浸	-10.273
厭	-10.2775
薇	-10.286
鍋	-10.2864
醫	-10.2866
訛	-10.2867
個	-10.2871
攢	-10.2871
昴	-10.2872
威	-10.2872
饋	-10.2872
螺	-10.2873
薊	-10.2873
憑	-10.2875
僕	-10.2875
繪	-10.2875
胡蘿蔔	-10.2875
答	-10.2875
裛	-10.2876
筆	-10.2876
劑	-10.2876
蘓	-10.2876
牐	-10.2876
蟄	-10.2878
两	-10.2878
簨	-10.2879
淞	-10.2879
芍	-10.2879
枇杷	-10.288
篚	-10.288
紗	-10.2881
蠻	-10.2881
諸般	-10.2881
邦	-10.2882
書食貨志	-10.2884
昆	-10.2885
明徐光啓撰	-10.2885
祭祀	-10.2886
四五寸	-10.2887
齋	-10.2888
護	-10.2888
幕	-10.2889
几	-10.2891
畛	-10.2891
叅	-10.2892
欣	-10.2892
簁	-10.2893
缶	-10.2894
騎	-10.2895
二候	-10.2899
宇	-10.2903
江湖	-10.2904
池塘	-10.2906
九卿	-10.2907
各處	-10.2917
季春	-10.2919
風吹	-10.2934
語云	-10.2937
註云	-10.2937
糞壅	-10.2938
相對	-10.2965
禾稼	-10.2972
雲南	-10.2984
兩旁	-10.2995
必湏	-10.3022
俗謂	-10.3024
食法採葉煠熟	-10.3031
舉行	-10.3045
從來	-10.3051
千百	-10.3058
屋内	-10.3058
亦佳	-10.3067
合和	-10.3081
救荒	-10.3104
域	-10.3151
汜勝之書	-10.3187
居民	-10.3187
徭	-10.3202
劚	-10.3204
黨	-10.3205
缸	-10.3205
齧	-10.3206
檜	-10.3206
撮	-10.3206
勻	-10.3206
粃	-10.3207
槁	-10.3208
樸	-10.3208
朶	-10.3208
鏺	-10.3208
僧	-10.3209
壌	-10.3209
崑	-10.321
繋	-10.321
朝廷	-10.321
冶	-10.321
滲	-10.321
輓	-10.321
䅖	-10.3211
鶴	-10.3211
甽	-10.3211
明徐光啟撰	-10.3212
莠	-10.3212
膳	-10.3212
薙	-10.3212
婁	-10.3213
杭	-10.3213
泗	-10.3214
顯	-10.3215
軒	-10.3216
眀	-10.3216
舜	-10.3216
鍬	-10.3217
冩	-10.3217
餵	-10.3217
鼔	-10.3218
韓	-10.3218
鉸	-10.3218
懶	-10.3219
舎	-10.3219
茇	-10.3222
遏	-10.3222
嗣	-10.3222
劈	-10.3226
認	-10.3227
爐	-10.3228
農隙	-10.3229
浙西	-10.323
社稷	-10.3248
汜勝之書曰	-10.325
脂麻	-10.3255
先農	-10.3257
周圍	-10.3258
收歛	-10.327
削去	-10.3273
經宿	-10.328
洗淨	-10.3289
調和	-10.3328
茄子	-10.3331
江海	-10.3336
守令	-10.3337
廣西	-10.334
嫩苗	-10.3362
南畝	-10.3387
土壅	-10.3439
苦菜	-10.3449
經冬	-10.3463
相類	-10.35
肆	-10.3543
床	-10.3545
巖	-10.3549
矩	-10.355
氐	-10.3551
陣	-10.3551
恃	-10.3552
般	-10.3553
杞	-10.3553
二百四十	-10.3553
嵌	-10.3553
肚	-10.3553
叚	-10.3554
剶	-10.3555
鋭	-10.3555
捋	-10.3555
罅	-10.3556
嫩芽	-10.3556
概	-10.3557
翅	-10.3557
確	-10.3557
葖	-10.3557
穹	-10.3558
襲	-10.3559
沃壤	-10.356
甘蔗	-10.3562
欺	-10.3562
厨	-10.3562
夙	-10.3563
髓	-10.3566
鍤	-10.3566
紵	-10.3567
圖譜	-10.3568
濡	-10.3568
拂	-10.3569
閩廣	-10.3573
培壅	-10.3575
臠	-10.3576
滋茂	-10.3577
味甘性平	-10.3581
移植	-10.3586
桑柘	-10.359
祈報	-10.3591
塗泥	-10.3597
仲秋	-10.3602
諸郡	-10.3624
苖髙	-10.3632
失所	-10.3633
興工	-10.3635
開小白花	-10.3638
煠熟水浸	-10.3643
向陽	-10.3643
七八月	-10.3647
嘗見	-10.3649
不拘	-10.3656
俗呼為	-10.3668
百六十	-10.3678
千萬	-10.3709
依法	-10.3757
炒食	-10.378
稍間開	-10.3795
巨勝	-10.3893
㸑	-10.3899
芰	-10.39
桔	-10.3902
册	-10.3903
堈	-10.3904
渡	-10.3904
迹	-10.3904
便民圖	-10.3905
腦	-10.3906
狐	-10.3908
沉	-10.3908
淫	-10.3909
攝	-10.391
坤	-10.391
觜	-10.3911
匙	-10.3911
値	-10.3911
墢	-10.3911
􁓰􁥯	-10.3912
荘	-10.3912
抪	-10.3912
蘖	-10.3912
邱	-10.3913
彘	-10.3913
臿	-10.3913
茸	-10.3913
跳	-10.3914
隣	-10.3914
販	-10.3914
隄防	-10.3914
緝	-10.3915
鏡	-10.3915
磑	-10.3915
瑩	-10.3915
窊	-10.3915
旅	-10.3916
帥	-10.3917
説文云	-10.3917
蒙	-10.3918
儋	-10.3918
漑	-10.3918
醉	-10.3919
吕氏春秋	-10.3919
秤	-10.3919
飾	-10.3919
吕	-10.392
賞罰	-10.3922
逓	-10.3923
侈	-10.3923
肝	-10.3924
沫	-10.3926
麥䴷	-10.3926
白茆	-10.3926
諭内閣	-10.3927
豐稔	-10.3929
新添	-10.3931
蘇松	-10.3932
侍郎	-10.3933
鶉	-10.3937
江東呼	-10.3947
豫州	-10.3948
淘去苦味油鹽調食	-10.395
仲春	-10.3953
總論	-10.3953
不堪食	-10.3959
丈尺	-10.3959
子弟	-10.3965
麥秀	-10.3966
經霜	-10.3984
深淺	-10.3992
百頃	-10.4002
正二月	-10.401
未嘗	-10.4022
宿根	-10.4023
山林	-10.4032
灰糞	-10.4043
主旱	-10.4056
皮肉	-10.4058
荒歉	-10.4061
十斤	-10.408
務使	-10.4083
欝	-10.4257
卻	-10.427
肋	-10.4272
干	-10.4273
鬯	-10.4273
援	-10.4275
疲	-10.4275
尿	-10.4275
榜	-10.4275
汾	-10.4276
鴟	-10.4276
嵩	-10.4277
櫻	-10.4279
掐	-10.4279
趁	-10.4279
稉	-10.428
勅	-10.428
楂	-10.428
誘	-10.4281
貲	-10.4281
渭	-10.4282
程	-10.4282
晦	-10.4282
栝	-10.4283
孕	-10.4283
窩	-10.4283
喫	-10.4284
畬	-10.4284
冗	-10.4285
怪	-10.4285
苡	-10.4286
陟	-10.4287
劐	-10.4287
罨	-10.4287
提柱	-10.4287
壮	-10.4288
聊	-10.4288
洽	-10.4288
險	-10.4288
笑	-10.4289
暈	-10.4289
弭	-10.429
標	-10.429
婢	-10.429
剔	-10.4291
釋名曰	-10.4292
包裹	-10.4292
棠梨	-10.4292
府古揚州斗分野	-10.4292
茗	-10.4293
籃	-10.4293
裨	-10.4295
臾	-10.4296
豁	-10.4298
押	-10.4304
霖雨	-10.4311
味甘酸	-10.4312
虎皮糯	-10.4314
經界	-10.4317
積貯	-10.4318
形勢	-10.4321
布帛	-10.4323
物産	-10.4341
慎勿	-10.436
淺深	-10.4365
早晩	-10.4365
苦酒	-10.4408
官吏	-10.4412
江北	-10.4416
文帝	-10.4435
卷四十	-10.448
畝用子	-10.4528
異畝同穎	-10.4639
鹽豉	-10.4647
椑	-10.4647
虱	-10.4651
本草綱目李時珍曰	-10.4655
偽	-10.4656
棃	-10.4657
溼	-10.4658
筥	-10.4658
磁	-10.4658
談	-10.466
內	-10.466
𨽻	-10.4661
墊	-10.4661
腎	-10.4662
氾勝之	-10.4662
䋲	-10.4662
嫌	-10.4662
亟	-10.4663
壑	-10.4663
抨	-10.4664
玩	-10.4664
㕔	-10.4664
喙	-10.4665
自之得積	-10.4665
濫	-10.4666
柑橘	-10.4666
玊	-10.4666
巢	-10.4667
滇	-10.4667
鄧	-10.4667
蘇頌曰	-10.4667
撈	-10.4668
龍爪	-10.4668
芑	-10.4668
鼈	-10.4669
潰	-10.4669
析	-10.4669
隻	-10.467
稞	-10.4671
洪武	-10.4672
稂莠	-10.4672
倦	-10.4673
墾闢	-10.4674
挺	-10.4675
厰	-10.4676
場圃	-10.4676
映	-10.4676
温無毒	-10.4677
微寒無毒	-10.4678
帖	-10.468
董	-10.468
地方官	-10.4681
鄙	-10.4682
跨	-10.4682
圩岸	-10.4687
詞	-10.469
緩急	-10.4693
陞	-10.4694
缹	-10.4699
雙筩	-10.4704
赤小豆	-10.4727
糞壤	-10.4733
利害	-10.475
耕耨	-10.475
太倉	-10.4752
斗門	-10.4755
無逸	-10.476
蠅	-10.5045
怒	-10.505
岀	-10.5055
戯	-10.5056
縳	-10.5057
羣芳譜種植	-10.5057
痰	-10.5057
瀕	-10.5058
揮	-10.5058
唇	-10.506
本草原有	-10.5061
克	-10.5062
姚	-10.5062
娘	-10.5063
羡	-10.5063
文獻通考	-10.5063
埂	-10.5063
礪	-10.5063
攀	-10.5063
墜	-10.5064
腥	-10.5064
桞	-10.5064
爬	-10.5064
廩	-10.5064
术	-10.5065
袴	-10.5065
裳	-10.5066
罕	-10.5066
㳺	-10.5066
棲	-10.5066
笠	-10.5066
痕	-10.5067
穋	-10.5068
嚼	-10.5068
欽定四庫全書農書卷	-10.5068
味苦性平無毒	-10.5068
敵	-10.5068
綺	-10.5069
男女	-10.5069
藩	-10.507
灼	-10.5071
宗紀	-10.5071
春分前後	-10.5072
櫟	-10.5072
䔧	-10.5072
賔	-10.5073
腊	-10.5073
叠	-10.5073
寢	-10.5073
鯉魚	-10.5074
搥	-10.5074
饗	-10.5074
檀	-10.5074
膜	-10.5076
麩	-10.5076
潘	-10.5076
捉	-10.5076
奮	-10.5076
茨	-10.5077
卧輪	-10.5077
靜	-10.5078
耬耩	-10.5079
卦	-10.508
高一二尺莖	-10.508
蘭香	-10.508
農書卷	-10.5081
饙	-10.5081
父母	-10.5081
呂	-10.5083
燎	-10.5085
抒	-10.5085
廷	-10.5088
黍穄	-10.5091
勸諭	-10.5096
霜露	-10.5108
微酸	-10.5111
菊花	-10.514
羊脂	-10.518
儲蓄	-10.519
葉煠熟水浸淘去苦味油鹽調食	-10.5276
紅芒	-10.5384
幷	-10.5458
廣州記曰	-10.5459
湧	-10.5467
濯	-10.5467
浙江	-10.5468
薔	-10.5472
亮	-10.5472
耖	-10.5472
獵	-10.5473
柤	-10.5475
蔞	-10.5477
銍	-10.5477
蕎	-10.5477
欒	-10.5477
麨	-10.5478
􁲼	-10.5479
京東	-10.5479
扦	-10.5479
汎	-10.548
競	-10.548
猛	-10.548
敇	-10.5481
鳯	-10.5481
五七寸	-10.5481
掲	-10.5481
贖	-10.5481
郁	-10.5482
鄴	-10.5482
陶𢎞景曰	-10.5482
盞	-10.5483
冒	-10.5483
邀	-10.5483
妻	-10.5483
橫	-10.5483
瀝	-10.5483
治病文具本草木部	-10.5484
攅	-10.5484
女貞	-10.5484
孝弟	-10.5484
㬠	-10.5484
不利人	-10.5485
揩	-10.5485
祇	-10.5485
閲	-10.5486
蕢	-10.5486
署	-10.5486
取其榦可作骨	-10.5486
猴	-10.5487
原隰	-10.5487
蔴	-10.5487
貝	-10.5487
不耐寒	-10.5487
褁	-10.5488
畚	-10.5488
勵	-10.5488
搦	-10.5489
生山谷中	-10.5489
丼	-10.5491
蒲萄	-10.5491
鳥獸	-10.5492
筭	-10.5493
甿	-10.5493
敕	-10.5493
渰	-10.5493
嶺南	-10.5493
浥鬱	-10.5494
戰	-10.5494
零落	-10.5495
齊魯	-10.5497
箒	-10.5498
鑒	-10.5499
偹	-10.5501
而設之	-10.5502
贊	-10.5503
父老	-10.5509
總督	-10.551
沿河	-10.5512
公私	-10.5514
羊鬚糯	-10.5516
粢盛	-10.5516
搯去	-10.5525
細剉	-10.5527
幹河	-10.5532
豬肉	-10.5542
食法採嫩苗葉煠熟	-10.5613
帝紀	-10.5796
苴	-10.5841
耤	-10.588
榔	-10.5885
交阯	-10.5891
堇	-10.5894
嫩葉煠熟	-10.5905
飴	-10.5905
𤣥扈先生曰嘗過	-10.5907
礙	-10.591
四民月令	-10.591
怨	-10.591
霞	-10.591
斥鹵	-10.591
島	-10.591
襯	-10.5911
無定度	-10.5911
潭	-10.5911
喬	-10.5912
萍	-10.5912
硫黄	-10.5913
迷	-10.5913
蘂	-10.5913
撓	-10.5915
棟	-10.5915
揆	-10.5915
黲	-10.5915
慰	-10.5915
徽	-10.5916
㓙	-10.5916
斥	-10.5916
廵撫	-10.5917
砥	-10.5917
鷹	-10.5918
幅	-10.5918
崗	-10.5918
契	-10.5918
樊	-10.5919
梧	-10.592
拒	-10.592
匡	-10.592
拯	-10.592
渇	-10.5921
揭	-10.5923
曉諭	-10.5923
聳	-10.5923
弛	-10.5923
途	-10.5925
篅	-10.5925
福建	-10.5926
宋史	-10.5926
食經曰	-10.5926
㨗	-10.5927
肥瘠	-10.5927
綏	-10.5928
厲	-10.5928
飄	-10.5928
促	-10.5929
劄	-10.5929
溥	-10.5929
􁋁	-10.593
渝	-10.593
綆	-10.593
耐久	-10.593
逮	-10.593
搜	-10.5931
複	-10.5931
𥘉	-10.5933
廻	-10.5933
尤妙	-10.5939
該督撫	-10.594
救公饑	-10.5944
戸部	-10.5957
溝渠	-10.5974
荔	-10.6344
椰	-10.6349
飜	-10.6349
杬	-10.6355
塡	-10.6357
殘	-10.6363
嫁	-10.6363
昨	-10.6364
荅	-10.6365
渫	-10.6367
瀕海	-10.6368
擅	-10.6368
徃徃	-10.6368
檻	-10.6369
煉	-10.6369
螟	-10.6369
兢	-10.6369
珍珠	-10.6369
楔	-10.637
栅	-10.6371
釤	-10.6371
佛	-10.6372
芝蔴	-10.6372
械	-10.6372
彰	-10.6372
蕉	-10.6372
臬	-10.6372
遞	-10.6374
禍	-10.6374
麋	-10.6374
彭	-10.6374
便民圖纂曰	-10.6374
矜	-10.6375
蹂	-10.6375
絺	-10.6375
宵	-10.6375
儻	-10.6375
蓧	-10.6375
生密縣山野中	-10.6376
奈何	-10.6377
㓜	-10.6377
卓	-10.6377
巡撫	-10.6377
葉對生	-10.6377
撘	-10.6377
麝	-10.6377
馳	-10.6377
後十五日斗柄指	-10.6378
刳	-10.6378
萑	-10.6378
蓺	-10.6379
舞	-10.6379
籖	-10.638
綱	-10.638
鏟	-10.638
繇	-10.6381
汪	-10.6381
絃	-10.6382
愁	-10.6382
詠	-10.6383
蟬	-10.6383
東坡	-10.6383
垢	-10.6384
躬親	-10.6384
齏	-10.6385
坍	-10.6385
貴賤	-10.6386
倉廩	-10.6386
也一候	-10.6387
卉	-10.6387
侍	-10.6387
蟄蟲	-10.6388
攷	-10.6388
觔	-10.639
偷	-10.639
霍	-10.6394
楊梅	-10.6395
碩	-10.6397
畯	-10.6397
芝麻	-10.6397
織第	-10.6586
用子三升	-10.661
二年詔	-10.667
洳	-10.6831
酷	-10.6836
溪澗	-10.6838
薯蕷	-10.6838
葉攅生一處	-10.684
○	-10.6841
作成黄色換水淘	-10.6841
博物志	-10.6842
桓	-10.6842
蘄	-10.6842
徐光啓曰	-10.6843
彎	-10.6843
儒	-10.6844
昬	-10.6844
仕	-10.6844
杼	-10.6844
輥	-10.6844
郤	-10.6844
㽟	-10.6845
臻	-10.6845
賽	-10.6846
謝	-10.6846
喘	-10.6846
鱉	-10.6846
茈	-10.6847
售	-10.6847
掣	-10.6847
顛	-10.6847
葷	-10.6847
樵	-10.6848
祁	-10.6848
皴	-10.6849
塼	-10.6849
混	-10.6849
電	-10.6849
儘	-10.685
殍	-10.685
􁋕	-10.6851
果蓏	-10.6851
敝	-10.6851
模	-10.6851
蔚	-10.6851
腹脹	-10.6852
蕓薹	-10.6852
餒	-10.6852
浩	-10.6853
贏	-10.6853
髙三四尺	-10.6854
慿	-10.6855
碢	-10.6856
工程	-10.6857
佩	-10.6857
輦	-10.6858
涂	-10.6859
齋戒	-10.6859
潁	-10.6859
􁗮	-10.6859
撫按	-10.6859
苕	-10.6859
飱	-10.686
僉	-10.686
傚	-10.686
梂	-10.6861
惑	-10.6861
毁	-10.6862
耕織圖	-10.6863
茘枝	-10.6863
都尉	-10.6865
閭閻	-10.6865
金釵	-10.6869
畎澮	-10.6869
安石榴	-10.687
範	-10.6872
下馬看	-10.6878
蛀	-10.7195
藋	-10.7308
汜勝之	-10.7313
梭	-10.7322
劍	-10.7325
硝	-10.7332
夘	-10.7335
朳	-10.7337
晏	-10.7338
警	-10.7339
山海經曰	-10.7339
蛤	-10.7339
㾗	-10.7341
洒	-10.7341
煨	-10.7341
歙	-10.7342
坼	-10.7342
軌	-10.7343
閏	-10.7343
葫	-10.7344
摶	-10.7345
倡	-10.7346
菠菜	-10.7346
枕	-10.7347
毳	-10.7347
櫐	-10.7347
貌	-10.7348
蟠	-10.7348
窘	-10.7349
烙	-10.7349
吴淞江	-10.7349
潛	-10.735
焙	-10.735
墮	-10.7351
厦	-10.7351
秸	-10.7351
滎	-10.7351
奚	-10.7352
眞	-10.7352
陳藏器	-10.7352
葍	-10.7352
稙	-10.7353
高三四尺	-10.7353
菓	-10.7354
版	-10.7354
竝	-10.7355
䜴	-10.7355
莩	-10.7355
況	-10.7355
禪	-10.7356
所在有之	-10.7356
晶	-10.7356
鄂	-10.7356
串	-10.7356
𣲖	-10.7356
簞	-10.7357
渤	-10.7357
齎	-10.7357
土之次曰五	-10.7358
戚	-10.7358
牌	-10.7358
茰	-10.7359
郷	-10.736
肫	-10.7361
潔淨	-10.7362
駁	-10.7363
驕	-10.7363
奢	-10.7364
胼	-10.7364
粤	-10.7365
悦	-10.7367
鵝鴨	-10.7367
建閘	-10.737
第六十	-10.7371
古雍州井鬼分野	-10.7372
𦵔	-10.7373
陛	-10.7373
蘘荷	-10.7374
州刺史	-10.7389
苴麻	-10.7448
器譜	-10.7535
麥秀兩岐	-10.7848
鄒	-10.7857
府古梁州井鬼分野	-10.7859
倶	-10.7862
伍	-10.7863
夢	-10.7864
軋	-10.7865
棣	-10.7866
萬八千	-10.7866
溜	-10.7867
裴	-10.7867
搓	-10.7868
牡丹	-10.7869
苐	-10.787
剖	-10.787
台	-10.7871
孝經援神契	-10.7871
皁	-10.7871
府古揚州牛女分野	-10.7871
杯	-10.7871
皂	-10.7871
詰	-10.7872
蝗蝻	-10.7872
樣	-10.7872
泰西水法	-10.7873
湘	-10.7873
孫炎	-10.7874
苓	-10.7874
糕	-10.7875
狸	-10.7875
汰	-10.7875
㕘	-10.7876
夭	-10.7876
櫧	-10.7877
煆	-10.7877
考工記	-10.7877
雌雄	-10.7878
荀	-10.7878
西京雜記曰	-10.7879
續文獻通考	-10.7879
荑	-10.7879
銍艾	-10.788
鬰	-10.788
筠	-10.7881
町	-10.7881
龔	-10.7881
纍纍	-10.7881
滙	-10.7882
希	-10.7882
捻	-10.7882
何也曰	-10.7882
逋	-10.7882
戈	-10.7882
織絍	-10.7882
泠	-10.7883
阡	-10.7884
檐	-10.7884
佑	-10.7885
邵	-10.7885
啟閉	-10.7886
繡	-10.7888
髙一二尺莖	-10.7889
悞	-10.789
閃	-10.7891
措	-10.7891
屨	-10.7897
輯	-10.7897
煌	-10.7898
以副朕	-10.7907
水浸去苦味淘浄油鹽調食	-10.7986
葉煠熟換水浸淘去苦味油鹽調食	-10.8021
換水浸去	-10.8029
鍼	-10.8409
夏小正	-10.8416
天工開物	-10.8417
兗	-10.8419
碌碡	-10.842
舊不載所出州土	-10.8423
埤	-10.8423
臟	-10.8423
蘆菔	-10.8423
面青背	-10.8424
奇	-10.8424
膿	-10.8424
沂	-10.8425
翰	-10.8425
訟	-10.8425
喚	-10.8426
甌	-10.8426
有赤白二種	-10.8426
槖	-10.8426
㨊	-10.8427
黂	-10.8428
暘	-10.8428
兜	-10.8428
荳	-10.8428
帳	-10.8428
勸課農桑	-10.8428
涉	-10.8428
䥷	-10.8429
挖	-10.8429
萟	-10.8429
迅	-10.8429
誅	-10.843
歧	-10.843
本草綱目	-10.843
漂	-10.8431
弇	-10.8431
咽	-10.8431
治病今人	-10.8431
喪	-10.8431
雇	-10.8432
掠	-10.8432
瞿	-10.8432
旨	-10.8432
莱	-10.8432
邇	-10.8433
渚	-10.8433
􁥬	-10.8433
藴	-10.8433
腸胃	-10.8433
凈	-10.8434
撤	-10.8434
宏	-10.8434
尸	-10.8435
脣	-10.8435
䋔	-10.8435
呌	-10.8436
璧	-10.8436
晋	-10.8436
軠	-10.8436
軫念	-10.8437
雕	-10.8437
戲	-10.8438
中氣初五日	-10.8438
􁁜	-10.8438
沱	-10.8438
苽	-10.8438
逕	-10.8439
蚤	-10.8439
罌	-10.8439
􁐡	-10.8439
滹	-10.8439
逾	-10.8443
甞	-10.8444
霏	-10.8445
羌	-10.8448
砘	-10.8448
瀰	-10.8448
驪	-10.8451
西陵氏	-10.8456
箸	-10.8457
􁣮	-10.8458
祈禱	-10.8459
衙門	-10.8466
諺	-10.8966
靑	-10.8988
灤	-10.899
呂氏春秋	-10.8991
砌	-10.8993
崔寔	-10.8995
茆	-10.8996
汴	-10.9001
鹻	-10.9003
衢	-10.9003
穬	-10.9004
鐴	-10.9004
抹	-10.9006
腕	-10.9006
咎	-10.9008
裙	-10.9009
秃	-10.9009
􁟓	-10.901
博聞録	-10.901
顛倒	-10.901
陳旉農書	-10.9011
嗜	-10.9011
寇	-10.9012
菁	-10.9012
拆	-10.9012
殃	-10.9013
菖蒲	-10.9013
笐	-10.9013
藊	-10.9014
風土記曰	-10.9014
味苦性寒無毒	-10.9014
姜	-10.9015
俞	-10.9015
灣	-10.9016
妥	-10.9016
葈	-10.9016
覩	-10.9016
治病文具本草果部	-10.9016
孚	-10.9017
脾胃	-10.9017
拽	-10.9017
脇	-10.9017
寇宗奭曰	-10.9017
㒺	-10.9018
周而復始	-10.9018
醎	-10.9018
枘	-10.9019
薫	-10.9019
爆	-10.9019
餧	-10.9019
眷	-10.902
崙	-10.902
吸	-10.902
奬	-10.902
替	-10.902
館	-10.902
攜	-10.902
三分之一	-10.9021
櫃	-10.9021
迄	-10.9022
僮	-10.9022
坻	-10.9022
啼	-10.9022
辱	-10.9022
萬餘頃	-10.9023
證	-10.9023
謬	-10.9023
想	-10.9024
套	-10.9024
鈴	-10.9025
昧	-10.9025
銷	-10.9025
謙	-10.9025
啻	-10.9026
大學士	-10.9026
韵	-10.9026
倫	-10.9027
籌畫	-10.9027
僻	-10.9027
䉛	-10.9028
機杼	-10.9028
瘢	-10.9029
欠	-10.9029
宕	-10.9029
靠	-10.9031
蠡	-10.9031
纊	-10.9031
驛	-10.9032
瞻	-10.9033
翔	-10.9033
笨	-10.9034
淅	-10.9034
愧	-10.9034
譬	-10.9034
順治十	-10.9034
冲	-10.9035
函	-10.9035
稑	-10.9036
錐	-10.9037
巷	-10.9037
瘞	-10.9039
姦	-10.904
府古荆州翼軫分野	-10.9043
宵旰	-10.9044
獺	-10.9045
月下旬	-10.9055
禜	-10.9062
薑橘	-10.918
弟	-10.9574
􁭼	-10.9588
燼	-10.9602
酵	-10.9613
鑽	-10.9617
墩	-10.9619
寃	-10.9622
黑白二種	-10.9623
菠	-10.9624
生熟皆可食	-10.9627
薿	-10.9628
痢	-10.9628
閱	-10.9629
芎	-10.963
估	-10.9632
治病文具本草菜部	-10.9632
笆	-10.9633
毬	-10.9634
如彈丸	-10.9635
暄	-10.9635
懲	-10.9636
哀	-10.9636
淄	-10.9636
㕓	-10.9637
穏	-10.9637
䝁	-10.9637
萬六千	-10.9637
蔔	-10.9638
吞	-10.964
舊不著所出州土	-10.964
乍	-10.964
蝻	-10.964
輟	-10.9641
𨗳	-10.9641
璣	-10.9641
篠	-10.9641
藶	-10.9641
袁	-10.9641
纍	-10.9642
換水浸淘浄油鹽調食	-10.9642
蒡	-10.9642
胸	-10.9642
莙薘	-10.9643
摧	-10.9643
輳	-10.9643
擗	-10.9643
莎	-10.9643
季秋之月	-10.9643
蜃	-10.9644
榧	-10.9644
曷	-10.9645
大司徒	-10.9645
萱	-10.9646
羞	-10.9646
楫	-10.9647
依前法	-10.9647
荇	-10.9647
疫癘	-10.9647
夲	-10.9648
膾	-10.9648
抖	-10.9648
砍	-10.9648
稚	-10.965
探	-10.965
師曠占	-10.965
盫	-10.965
棧	-10.965
穩	-10.9651
見農器譜	-10.9651
碡	-10.9651
奄	-10.9651
厪	-10.9652
臯	-10.9652
金裹銀	-10.9652
訣	-10.9652
亨	-10.9653
刅	-10.9653
劒	-10.9653
懇	-10.9654
隸	-10.9654
孳	-10.9654
扞	-10.9655
馨	-10.9655
駢	-10.9655
浹	-10.9655
鵲	-10.9655
黔	-10.9655
司馬法	-10.9656
靨	-10.9657
踵	-10.9657
􁣒	-10.9659
梳	-10.966
駟	-10.9662
坵	-10.9665
渥	-10.9665
匕	-10.9666
柅	-10.9667
知稼穡之艱難	-10.9669
幣	-10.967
硃	-10.967
曝令乾	-10.9671
箄	-10.9677
肕	-10.9678
趕陳糯	-10.9679
山野中苗高	-10.97
救飢採嫩苗葉煠熟換水	-11.0195
硫	-11.0253
紉	-11.0285
枿	-11.0292
蘇恭曰	-11.0292
帆	-11.0294
㯶	-11.0295
癰	-11.0297
鍫	-11.0298
蔆	-11.0299
航	-11.0299
爼	-11.0299
結子如豌豆大	-11.03
慕	-11.03
擦	-11.03
庛	-11.03
涎	-11.0301
㽞	-11.0301
葉味㣲苦	-11.0301
憚	-11.0302
森	-11.0302
陡	-11.0302
仔	-11.0303
桿	-11.0304
鑚	-11.0305
旉	-11.0305
款	-11.0305
籮	-11.0305
歎	-11.0306
扺	-11.0306
縈	-11.0306
縹	-11.0306
汐	-11.0306
埀	-11.0307
眶	-11.0307
喻	-11.0307
沁	-11.0308
菅	-11.0309
韶	-11.0309
巾	-11.031
賈思勰	-11.031
吳淞江	-11.031
琴	-11.031
紓	-11.031
誦	-11.031
銳	-11.0311
哺	-11.0311
所以然者	-11.0311
軛	-11.0311
埽	-11.0311
篤	-11.0311
恥	-11.0312
蕚	-11.0312
汜	-11.0312
􁷕	-11.0312
滁	-11.0312
籩	-11.0312
伸	-11.0312
潞	-11.0312
墐	-11.0313
軰	-11.0313
賓	-11.0313
换	-11.0314
搆	-11.0314
挨	-11.0314
茜	-11.0314
鍊	-11.0315
鄭司農云	-11.0315
牒	-11.0315
衷	-11.0316
迨	-11.0316
薁	-11.0316
鏤	-11.0316
田家五行	-11.0316
袤	-11.0317
羃	-11.0318
醸	-11.0318
篝	-11.0318
阪	-11.0318
廧	-11.0318
耞	-11.0318
兄	-11.0319
噴	-11.032
岱	-11.032
瑟	-11.032
櫌	-11.032
巫	-11.0322
漠	-11.0322
敞	-11.0323
狭	-11.0323
鈔	-11.0323
家給人足	-11.0323
俊	-11.0323
𥫱	-11.0324
撩	-11.0325
峙	-11.0326
趕	-11.0327
釅	-11.0327
繒	-11.033
霸	-11.033
鐙	-11.0331
昻	-11.0333
綵	-11.0339
討	-11.0341
俎	-11.0343
聖祖仁皇帝	-11.0348
胡芹小蒜	-11.0362
梔	-11.0982
詭	-11.0988
憐	-11.0991
擠	-11.0992
瀹	-11.1008
傭	-11.1008
菉	-11.101
寥	-11.101
西王母	-11.1011
劙	-11.1012
獄	-11.1012
醜	-11.1012
詩小雅	-11.1014
敲	-11.1015
泡	-11.1015
薍	-11.1016
恵	-11.1018
鮑	-11.1018
迥	-11.1018
淖	-11.1018
垎	-11.1018
盎	-11.1018
椏	-11.1019
正義曰	-11.1019
芼	-11.1019
暨	-11.1019
狂	-11.1019
厎	-11.102
盂	-11.102
葉似獨掃葉	-11.102
蘘	-11.102
局	-11.1021
敖	-11.1022
葭	-11.1022
緡	-11.1022
評	-11.1022
䨇	-11.1022
楱	-11.1022
滄	-11.1023
芙蓉	-11.1023
撃	-11.1023
唱	-11.1023
櫨	-11.1023
壍	-11.1023
刪	-11.1024
携	-11.1024
柹	-11.1024
芭蕉	-11.1024
蹙	-11.1025
諫	-11.1025
弔	-11.1025
蓄殖果木不如三土以十分之	-11.1025
滂	-11.1026
悝	-11.1026
愼	-11.1026
潑	-11.1026
禀	-11.1027
糾	-11.1027
彩	-11.1027
諳	-11.1027
窺	-11.1028
裘	-11.1029
各等分	-11.1029
瓴	-11.1029
僂	-11.103
託	-11.103
穜	-11.103
礋	-11.1031
拙	-11.1031
貿	-11.1031
金包銀	-11.1032
濾	-11.1032
閼	-11.1033
忱	-11.1034
技	-11.1035
燉	-11.1035
谿	-11.1036
㽔	-11.1037
肘	-11.1037
廼	-11.1038
董仲舒	-11.1041
殫	-11.1041
萬餘石	-11.1042
躋	-11.1042
詳見樹藝果部救飢	-11.1045
鞅	-11.1045
臧	-11.1049
羲	-11.1049
籥	-11.1055
犧	-11.1056
捧	-11.1057
之宜篇第	-11.1059
𥿄	-11.1059
州之域	-11.1144
南方草物狀曰	-11.1754
蘩	-11.176
庇	-11.1767
詩義䟽曰	-11.177
徼	-11.1777
輞	-11.1778
坂	-11.1782
籸	-11.1783
滛	-11.1783
茫	-11.1784
翎	-11.1784
徤	-11.1785
濛	-11.1786
一統志	-11.1786
峯	-11.1787
鈐	-11.1787
汛	-11.1787
汶	-11.1788
宼	-11.1788
螘	-11.1788
孟康曰	-11.1788
泆	-11.1789
淑	-11.1789
穭	-11.1789
札	-11.1789
隘	-11.1789
耿	-11.1789
貍	-11.1789
幡	-11.1789
稲	-11.1789
坯	-11.179
菲	-11.179
庄	-11.179
塌	-11.179
隐	-11.179
迂	-11.179
窑	-11.179
痺	-11.1791
芙	-11.1791
纖	-11.1791
弄	-11.1792
糙	-11.1792
徐光啟曰	-11.1792
恣	-11.1792
擕	-11.1792
彫	-11.1792
􁓰	-11.1792
㨂	-11.1793
霽	-11.1793
䕸	-11.1793
枋	-11.1793
屏	-11.1793
寔	-11.1793
蚯蚓	-11.1793
駞	-11.1794
曝令燥	-11.1794
農桑直説	-11.1794
潼	-11.1794
朹	-11.1794
酉陽雜俎	-11.1794
剌	-11.1795
菼	-11.1795
盍	-11.1795
囤	-11.1795
笮	-11.1795
𢃄	-11.1795
棒	-11.1795
水轉翻車	-11.1796
傘	-11.1796
脅	-11.1796
籭	-11.1796
荚	-11.1796
猗	-11.1797
磊	-11.1797
萬不失一	-11.1797
弁	-11.1797
鞠	-11.1797
𩥇	-11.1797
陸璣詩疏	-11.1798
埸	-11.1798
朋	-11.1799
礰	-11.1799
㢘	-11.18
枵	-11.18
捨	-11.18
紹	-11.18
賠	-11.1801
䜿	-11.1801
店	-11.1802
周禮地官	-11.1802
悠	-11.1803
貓	-11.1803
群	-11.1803
綸	-11.1804
覃	-11.1805
迮	-11.1805
痂	-11.1805
睡	-11.1805
箆	-11.1806
墼	-11.1807
攘	-11.1807
邢	-11.1807
袍	-11.1809
攔	-11.1809
徐廣曰	-11.1811
傑	-11.1811
嘆	-11.1813
楷	-11.1814
糲	-11.1815
鑊	-11.1815
芃	-11.1816
瀋	-11.1818
恪	-11.1822
筵	-11.1832
肇	-11.1839
翰林院編修	-11.1893
鉢	-11.2576
溶	-11.2599
虋	-11.2599
靛	-11.2609
蛆	-11.2609
蹲	-11.261
芭	-11.261
埃	-11.2611
糵	-11.2613
一稃二米	-11.2615
脃	-11.2615
蝕	-11.2616
稂	-11.2616
忻	-11.2616
嫰	-11.2617
恨	-11.2617
嫩葉煠熟換水浸去苦味	-11.2618
湊	-11.2618
篘	-11.2618
耡	-11.2619
萹	-11.2619
上中央四齒	-11.2619
蘸	-11.262
鬭	-11.262
嬾	-11.262
葺	-11.2621
扼	-11.2621
缾	-11.2622
菭	-11.2622
油鹽調食生醃食亦可	-11.2622
凢	-11.2622
醢	-11.2622
䘮	-11.2622
龠	-11.2622
聰	-11.2622
鞋	-11.2623
劖	-11.2623
蝶	-11.2623
竄	-11.2623
啄	-11.2623
朗	-11.2624
峪	-11.2624
舁	-11.2624
開淡粉紫花	-11.2624
酬	-11.2624
粲	-11.2624
琥	-11.2625
餻	-11.2625
惻	-11.2625
肖	-11.2625
陶隠居	-11.2625
羨	-11.2626
雚	-11.2626
小司徒	-11.2626
稿	-11.2626
悅	-11.2626
畊	-11.2626
葉煠熟水浸去苦味油鹽調食	-11.2626
礬	-11.2626
孛	-11.2627
友	-11.2627
尅	-11.2627
騾	-11.2627
羝	-11.2627
鉛	-11.2627
蒻	-11.2627
䖟	-11.2627
郭璞註曰	-11.2628
剰	-11.2628
新鄭縣山野中	-11.2628
糗	-11.2628
鎡	-11.2629
叫	-11.2629
􁆵	-11.2629
届	-11.2629
䃺	-11.2629
剽	-11.263
磟	-11.263
陳澔曰此記	-11.263
黜	-11.2631
菔	-11.2631
徇	-11.2631
𤾉	-11.2632
銎	-11.2632
壖	-11.2632
妾	-11.2633
鐘	-11.2633
餐	-11.2633
取其刺可却姦取其	-11.2633
濤	-11.2633
斵	-11.2633
确	-11.2633
下樞之末	-11.2633
賛	-11.2633
誇	-11.2634
肪	-11.2634
氓	-11.2634
冉	-11.2634
而終無出也	-11.2635
葉及實皆可食	-11.2635
節氣初五日	-11.2635
豊	-11.2635
蘋	-11.2635
楓	-11.2635
葧	-11.2636
墉	-11.2636
祓	-11.2636
糯柳條糯	-11.2637
陋	-11.2638
階	-11.2639
敏	-11.2639
㕑	-11.264
爨	-11.2641
悟	-11.2641
喧	-11.2641
釣	-11.2641
潟	-11.2641
鏃	-11.2641
􁣑	-11.2643
窟	-11.2643
櫛	-11.2644
瓊	-11.2644
廂	-11.2645
聨	-11.2646
駝	-11.2648
冦	-11.2648
祿	-11.2651
鬃	-11.2652
誕	-11.2655
槧	-11.2657
潢	-11.2659
世宗憲皇帝	-11.2661
跪	-11.2676
浸去苦味淘	-11.3299
餔	-11.3495
擒	-11.3506
嵐	-11.3509
百糓譜	-11.351
銘	-11.3515
熾	-11.3517
搏	-11.3519
盔	-11.3519
遙	-11.352
夥	-11.352
廿	-11.352
嘉禾一莖九穂	-11.3521
烘	-11.3521
矧	-11.3522
月而種九月而熟	-11.3522
猒	-11.3523
丫	-11.3523
枷	-11.3523
罩	-11.3524
蘺	-11.3525
匿	-11.3525
甖	-11.3527
墝	-11.3528
懋	-11.3528
拱	-11.3528
捃	-11.3529
仆	-11.3529
耀	-11.353
馥	-11.353
瘁	-11.353
元王禎撰農器圖譜	-11.353
氣味甘平無毒	-11.3531
黙	-11.3531
恰	-11.3531
舶	-11.3532
剡	-11.3532
揜	-11.3532
縑	-11.3533
窳	-11.3533
悴	-11.3533
紺	-11.3534
就地拖秧而生	-11.3534
礧	-11.3534
襍	-11.3534
騂	-11.3534
葉皆對生	-11.3534
鷰	-11.3535
徠	-11.3535
曩	-11.3535
擐	-11.3535
票	-11.3535
舄	-11.3536
綌	-11.3536
𠻳	-11.3537
博聞錄	-11.3537
軀	-11.3538
螻	-11.3538
鎖	-11.3538
膈	-11.3538
藂	-11.3538
坏	-11.3538
悪	-11.3538
採周憲王救荒本	-11.3538
撚	-11.3538
焯	-11.3539
薯	-11.3539
勺	-11.3539
犀	-11.3539
桯	-11.3539
蹉	-11.354
陶朱公書	-11.354
占驗禮記月令	-11.354
虐	-11.354
超	-11.354
仲夏之月	-11.354
慣	-11.354
咬	-11.3541
妖	-11.3541
惕	-11.3541
鸛	-11.3541
牸	-11.3542
詐	-11.3542
摜	-11.3542
龍魚河圖	-11.3543
醇	-11.3543
罹	-11.3543
楹	-11.3544
寝	-11.3544
梅聖俞詩云	-11.3544
斃	-11.3544
券	-11.3546
埒	-11.3546
旄	-11.3546
匣	-11.3546
甎	-11.3546
撁	-11.3547
彦	-11.3547
鉄	-11.3547
鯶	-11.3547
巵	-11.3548
迭	-11.3548
欽定四庫全書子部四	-11.3549
洮	-11.3549
冡	-11.3549
蔣	-11.355
法第七十	-11.3551
騷	-11.3551
樲	-11.3551
蠱	-11.3552
薈	-11.3552
媚	-11.3553
䈰	-11.3554
湛	-11.3556
懿	-11.3556
蕛	-11.3556
数	-11.3559
禳	-11.356
饁	-11.3562
鬴	-11.3568
燋	-11.3573
醪	-11.3573
翰林院	-11.3595
苗高一二尺葉似	-11.3681
花結小角	-11.3816
菥	-11.4494
哈	-11.4497
翩	-11.4502
釵	-11.4507
薌	-11.4508
滚	-11.4508
裡	-11.4512
腔	-11.4513
㮕	-11.4514
汀	-11.4518
滔	-11.4518
尉	-11.4518
覧	-11.4521
苛	-11.4521
萄	-11.4521
猾	-11.4521
宋史食貨志	-11.4521
驘	-11.4522
睛	-11.4522
保正副	-11.4522
救飢採葉煠熟換水浸去苦味	-11.4522
梜	-11.4523
参	-11.4525
裔	-11.4526
頽	-11.4526
毇	-11.4526
芷	-11.4526
浣	-11.4527
吟	-11.4527
訴	-11.4527
罄	-11.4527
諱	-11.4527
昊	-11.4528
宦	-11.4528
晾	-11.4528
腋	-11.4529
又食貨志	-11.4529
蔫	-11.4529
禎	-11.453
菀	-11.4531
緗	-11.4531
䤅	-11.4531
􁍩	-11.4531
圈	-11.4532
崩	-11.4532
􁗿	-11.4533
駑	-11.4533
詹	-11.4534
肢	-11.4534
狄	-11.4534
通志康熙	-11.4534
㯺	-11.4534
以草覆上	-11.4535
𦙍	-11.4535
欽定四庫全書農政全書卷五十	-11.4535
柺	-11.4535
麓	-11.4535
苹	-11.4535
食法採苗葉煠熟水浸淘浄油鹽調食	-11.4535
黼	-11.4535
㙷	-11.4536
掬	-11.4536
南陽府馬鞍山	-11.4536
穟	-11.4536
麯	-11.4536
棺	-11.4536
寕	-11.4536
尻	-11.4536
撅	-11.4537
吝	-11.4537
樛	-11.4538
峭	-11.4538
塔	-11.4538
捷	-11.4538
𣙗	-11.4539
飰	-11.4539
孟夏之月	-11.4539
諧	-11.454
稊	-11.454
農桑要㫖	-11.454
笛	-11.454
簍	-11.454
物類相感志	-11.4541
堙	-11.4541
嬰	-11.4541
㝠	-11.4541
欽定四庫全書農政全書卷二十	-11.4541
縦	-11.4541
龕	-11.4541
仞	-11.4541
襫	-11.4542
窓	-11.4542
跗	-11.4542
絟	-11.4542
褒	-11.4543
榠	-11.4543
撞	-11.4543
齍	-11.4544
僑	-11.4545
剸	-11.4545
晰	-11.4545
据	-11.4545
禹平水土	-11.4545
址	-11.4545
鰱	-11.4545
捄	-11.4545
檟	-11.4545
楙	-11.4545
㝡	-11.4546
斟	-11.4546
涯	-11.4547
裝	-11.4547
旌	-11.4547
懈	-11.4548
陸龜䝉	-11.4548
莓	-11.4548
鯉	-11.4549
顏	-11.4549
􁆴	-11.4549
淪	-11.455
無毒食法採嫩葉煠熟油鹽調食	-11.455
扣	-11.455
拈	-11.455
欽定四庫全書農政全書卷三十	-11.455
榎	-11.455
昂	-11.455
儼	-11.4551
膺	-11.4551
譽	-11.4552
屝	-11.4552
謁	-11.4552
謨	-11.4553
賀	-11.4553
鈍	-11.4553
晳	-11.4553
陪	-11.4554
俸	-11.4555
齡	-11.4556
繕	-11.4558
怡	-11.4558
王荆公詩云	-11.4559
辮	-11.4559
坌	-11.4559
宴	-11.456
貳	-11.4561
佚	-11.4561
寰	-11.4561
瓞	-11.4561
雍正二年	-11.4562
蛹	-11.4567
歆	-11.458
琢	-11.459
苗葉煠熟換水	-11.4888
藄	-11.5603
府古百粤地	-11.5608
倭	-11.5617
人車之接輪齒	-11.5617
昇	-11.562
紳	-11.5623
蚊	-11.5624
癩	-11.5624
𤨏	-11.5625
車則有卧軸也卧軸之	-11.5625
峽	-11.5625
蔠	-11.5627
檉	-11.5627
頑	-11.5627
膓	-11.5629
蒹	-11.5629
蒭	-11.5629
蝨	-11.563
扛	-11.563
穈	-11.563
話	-11.563
鶵	-11.5631
茘	-11.5631
簜	-11.5632
紬	-11.5633
嘯	-11.5633
購	-11.5633
纁	-11.5634
妳	-11.5634
㦸	-11.5634
榼	-11.5634
葡	-11.5635
祲	-11.5635
瑣	-11.5635
觝	-11.5636
竦	-11.5636
縞	-11.5636
絆	-11.5636
薙氏掌殺草	-11.5637
􁉩	-11.5637
稳	-11.5638
隈	-11.5638
黻	-11.5638
鉗	-11.5638
稀稠得所	-11.5638
蛟	-11.5639
食貨志云	-11.564
夔	-11.564
胞	-11.564
棊	-11.564
葉味甜救飢採嫩苗葉煠熟水浸淘	-11.564
撼	-11.564
渉	-11.5641
葉抪莖而生	-11.5641
拊	-11.5641
杈	-11.5641
螢	-11.5641
羖	-11.5642
頰	-11.5642
粹	-11.5642
明周王朱橚撰	-11.5642
芮	-11.5642
斟酌焉而為之度	-11.5642
柂	-11.5642
葉攢生一處	-11.5643
臈	-11.5644
膂	-11.5644
篥	-11.5644
轍	-11.5644
迸	-11.5644
菖	-11.5644
栲	-11.5645
凄	-11.5645
冽	-11.5645
靳	-11.5645
多留宿土	-11.5645
煏	-11.5646
淚	-11.5646
堘	-11.5646
從風飛去	-11.5646
藙	-11.5647
殭	-11.5647
鶩	-11.5647
抬	-11.5647
櫳	-11.5648
讓	-11.5648
橐	-11.5648
陸費墀	-11.5648
縵	-11.5648
轆	-11.5649
眩	-11.5649
栞	-11.5649
骹	-11.5649
泖	-11.5649
縟	-11.5649
昀	-11.5649
勲	-11.565
紆	-11.565
倖	-11.565
孫士毅	-11.565
蚌	-11.565
澣	-11.5651
莞	-11.5651
逰	-11.5651
㹀	-11.5652
上樞之末	-11.5652
淘去澁味油鹽調食	-11.5652
瘟	-11.5653
湍	-11.5653
捜	-11.5654
愽	-11.5654
拍	-11.5654
荄	-11.5654
鴿	-11.5654
冥	-11.5654
薕	-11.5654
装	-11.5655
柎	-11.5655
喂	-11.5655
圉	-11.5656
菂	-11.5656
有紅白二種	-11.5656
雋	-11.5656
韮	-11.5657
毯	-11.5657
覔	-11.5657
枌	-11.5657
秣	-11.5657
剏	-11.5658
岷	-11.5658
攬	-11.5658
欎	-11.5658
鷺	-11.5658
茵	-11.5658
聿	-11.566
甄	-11.566
鞏	-11.566
浜	-11.5661
徂	-11.5662
鑑	-11.5662
湅	-11.5662
禆	-11.5663
誼	-11.5663
糯紅殻糯	-11.5663
艮	-11.5664
豹	-11.5664
芊	-11.5664
蓻	-11.5665
進瑞麥一莖	-11.5665
禋	-11.5666
樽	-11.5666
楊泉物理論	-11.5666
麞	-11.5666
馭	-11.5666
穆	-11.5668
俶	-11.5668
䟎	-11.5668
丕	-11.5669
噫	-11.567
龡	-11.5674
鴽	-11.5676
瀼	-11.5676
畱	-11.5678
馮	-11.5679
廹	-11.5679
瓷	-11.568
鱧	-11.5693
王以下各官	-11.5693
叩	-11.57
授時通考	-11.5716
葉煠熟水淘去苦味油鹽調食	-11.5755
花色仍連著實	-11.6864
莪	-11.6866
划	-11.6866
元史食貨志	-11.6868
黧	-11.6869
蹶	-11.6871
膁	-11.6872
睫	-11.6873
瀘	-11.6874
簣	-11.6875
茖	-11.6875
棍	-11.6876
漾	-11.6879
􁗳	-11.6879
圻	-11.6879
哲	-11.6881
明年正月初附地芟殺	-11.6882
藭	-11.6882
赫	-11.6882
骼	-11.6883
褊	-11.6884
奈	-11.6884
鎔	-11.6884
哨	-11.6884
綾	-11.6885
疄	-11.6885
繹	-11.6886
翳	-11.6886
庖	-11.6887
皷	-11.6887
濰	-11.6887
娛	-11.6888
便民圗曰	-11.6888
忩	-11.6889
拏	-11.6889
馴	-11.6889
本篇一圖之	-11.6889
紈	-11.689
熹	-11.689
敘	-11.689
虗	-11.689
摯	-11.689
緹	-11.689
晁	-11.689
埆	-11.6891
椵	-11.6891
諉	-11.6891
籜	-11.6891
隊	-11.6891
茒	-11.6891
苔	-11.6892
嶼	-11.6892
又似金銀花葉	-11.6892
尚書考靈曜	-11.6893
灘	-11.6893
荈	-11.6893
肱	-11.6893
迓	-11.6894
濇	-11.6894
槎	-11.6894
釁	-11.6894
駭	-11.6894
蕖	-11.6894
別	-11.6895
菟	-11.6895
悍	-11.6895
一勞永逸	-11.6895
鰕	-11.6895
捺	-11.6895
睢	-11.6895
肄	-11.6896
尔	-11.6896
窒	-11.6896
澡	-11.6896
藳	-11.6896
窶	-11.6896
鮐	-11.6896
垜	-11.6896
炮	-11.6896
蓘	-11.6897
襟	-11.6897
籧	-11.6897
滷	-11.6897
糁	-11.6897
簪	-11.6898
荍	-11.6898
􁆤	-11.6898
蹤	-11.6898
絨	-11.6898
秋耕待白背勞	-11.6898
石焉或瓴甋焉	-11.6898
誌	-11.6899
不耕者出屋粟	-11.6899
豺	-11.6899
䥛	-11.6899
櫈	-11.6899
碁	-11.6899
鱟	-11.6901
穇	-11.6901
渗	-11.6901
欹	-11.6902
慙	-11.6902
棬	-11.6902
篣	-11.6902
澧	-11.6903
甦	-11.6903
堵	-11.6903
涿	-11.6903
閨	-11.6903
譚	-11.6903
㼐	-11.6903
篛	-11.6903
蘊	-11.6904
櫄	-11.6905
牂	-11.6905
垡	-11.6906
潜	-11.6906
茲	-11.6906
逗	-11.6906
堡	-11.6906
怸	-11.6907
吁	-11.6907
阨	-11.6907
兌	-11.6908
弩	-11.6908
莭	-11.6908
楗	-11.6908
諮	-11.6908
筯	-11.6909
禧	-11.6909
債	-11.6909
涕	-11.691
㓂	-11.691
蔀	-11.691
莾	-11.691
擢	-11.691
隩	-11.691
彷	-11.691
橇	-11.6911
僚	-11.6911
康熈四十	-11.6912
蚢	-11.6912
演	-11.6912
萃	-11.6913
鄘	-11.6913
疙	-11.6913
灋	-11.6914
乖	-11.6915
組	-11.6915
韜	-11.6916
􁣌	-11.6916
吃	-11.6916
賄	-11.6916
醅	-11.6917
聒	-11.6917
熨	-11.6917
爻	-11.6917
癘	-11.6918
麟	-11.6918
雨暘時若	-11.6918
𧖟	-11.6919
爇	-11.6919
墓	-11.692
絍	-11.692
㓗	-11.6921
觴	-11.6926
蘧	-11.6928
邈	-11.6928
臆	-11.693
鑾	-11.6936
鍜	-11.694
駵	-11.6948
瓚	-11.6953
糯馬鬃糯	-11.6955
煠熟換水浸淘	-11.7029
扒	-11.8279
箘	-11.8287
春秋說題辭	-11.8293
圯	-11.8293
霾	-11.8293
顚	-11.8295
蒳	-11.8297
卭	-11.8297
碑	-11.8298
潄	-11.8303
辯	-11.8305
鏇	-11.8307
泣	-11.8308
水浸去苦味換水淘	-11.8308
大學衍義補	-11.8308
桁	-11.8308
韲	-11.8309
囿	-11.8309
涓	-11.8309
顱	-11.8309
覓	-11.8309
珎	-11.8309
杆	-11.8311
土潤溽暑	-11.8311
蓫	-11.8311
怯	-11.8311
棕	-11.8311
卹	-11.8312
伺	-11.8313
綜	-11.8313
寐	-11.8313
雜五行書曰	-11.8314
倪	-11.8314
生水邊下濕地	-11.8314
糺	-11.8314
蓰	-11.8314
䧟	-11.8314
藐	-11.8314
搨	-11.8314
蔑	-11.8315
詎	-11.8315
弧	-11.8315
饅	-11.8315
剩	-11.8315
蘹	-11.8316
咀	-11.8316
悶	-11.8316
舘	-11.8317
瘴	-11.8317
醒	-11.8318
枉	-11.8318
疸	-11.8319
刁	-11.8319
莘	-11.832
毅	-11.832
赦	-11.832
竣	-11.832
野菜博録	-11.832
𣙜	-11.832
弹	-11.8321
燔	-11.8321
螣	-11.8321
蘥	-11.8321
秪	-11.8322
弘	-11.8322
蕘	-11.8322
炕	-11.8322
炳	-11.8323
褥	-11.8323
鍥	-11.8323
濩	-11.8324
蹋	-11.8324
澈	-11.8324
街	-11.8324
熇	-11.8324
像	-11.8324
沴	-11.8324
耕荒畢以鐡齒	-11.8324
候棗葉始生	-11.8325
睹	-11.8325
㳂	-11.8325
篲	-11.8325
寖	-11.8326
祛	-11.8326
黯	-11.8326
全繳細絲中等繭可繰	-11.8326
贓	-11.8327
元司農司撰	-11.8327
范文正公	-11.8327
二月為中時三月為下時	-11.8327
妍	-11.8327
撿	-11.8327
斁	-11.8327
盲	-11.8327
尼	-11.8328
溽	-11.8329
毓	-11.8329
龎	-11.8329
梃	-11.8329
塥	-11.833
思患預防	-11.833
佈	-11.833
諭總理事務王大臣	-11.833
曜	-11.833
蒚	-11.833
萬九千六百	-11.8331
磐	-11.8331
咏	-11.8331
後雖濕亦無嫌	-11.8331
它	-11.8331
曼	-11.8332
廽	-11.8332
啌	-11.8332
㗖	-11.8333
餽	-11.8333
􁍢	-11.8333
鞍	-11.8333
㢤	-11.8333
橰	-11.8334
廓	-11.8334
邠	-11.8334
青黄不接之時	-11.8334
㙲	-11.8334
甸甸方八里	-11.8334
以避水溢之患	-11.8335
栖	-11.8336
醭	-11.8336
耕必有一年之食九年耕必有三年之食	-11.8336
蛛	-11.8336
叟	-11.8336
搬	-11.8337
凸	-11.8337
味微苦救飢採嫩苗葉煠熟水浸	-11.8337
跛	-11.8338
虡	-11.8338
其人與千户侯等	-11.8338
饔	-11.8339
縻	-11.8339
焰	-11.8339
祺	-11.834
䗣	-11.834
掊	-11.8341
瀛	-11.8342
婺	-11.8342
殄	-11.8342
箅	-11.8342
蹯	-11.8342
卸	-11.8342
嬴	-11.8342
篋	-11.8343
萋	-11.8343
霤	-11.8343
許縣考童生	-11.8343
勸課本朝重農	-11.8344
顙	-11.8344
儗	-11.8345
杪	-11.8345
踊	-11.8346
篆	-11.8346
孶	-11.8347
掾	-11.8347
洵	-11.8348
不易一易再易之	-11.8348
塾	-11.8349
姙	-11.835
涌	-11.835
閤	-11.8351
疐	-11.8351
抝	-11.8356
鷃	-11.8357
㩥	-11.8359
醖	-11.8361
淶	-11.8364
日講官起居注	-11.8366
蒯	-11.8366
豘	-11.8416
栘	-11.9942
愍	-11.9944
柜	-11.9944
鰻	-11.9953
椋	-11.9954
騸	-11.9956
腿	-11.9957
䆘	-11.9959
是拐木一轉而得	-11.9962
烽	-11.9962
樞輪之齒八而	-11.9962
癃	-11.9965
粽	-11.9965
棹	-11.9966
歴城縣方産	-11.9966
燻	-11.9967
䔖	-11.9967
囚	-11.9967
虜	-11.9968
任置一輪焉如置在軸之	-11.9968
緫	-11.9968
而轉之接輪與乙輪相發也若	-11.9968
隳	-11.9969
魅	-11.9969
一端有接輪卧軸之上有	-11.9969
脛	-11.9972
邕	-11.9972
褫	-11.9972
罈	-11.9972
莒	-11.9974
踞	-11.9975
農桑衣食撮要	-11.9975
明熊三拔撰	-11.9975
金史食貨志	-11.9975
䐑	-11.9976
樞者所以為利轉也	-11.9976
燄	-11.9976
戀	-11.9977
坦	-11.9977
盝	-11.9977
遐	-11.9978
磬	-11.9978
亳	-11.9978
慵	-11.9978
食法採苗葉煠熟水淘浄油鹽調食	-11.9978
劬	-11.9978
熟速刈乾速積	-11.9979
寸以上不嫌長	-11.9979
搘	-11.9979
搶	-11.9979
圍者外體也所以為固抱也	-11.9979
柫	-11.9979
鏁	-11.9979
旰	-11.998
孱	-11.998
礦	-11.998
􁪾	-11.998
豌	-11.998
佇	-11.9981
凛	-11.9981
琅	-11.9981
貎	-11.9981
戢	-11.9981
晞	-11.9981
每幾何丈尺而下一尺	-11.9981
軸者轉之主也水所由以下而為上也	-11.9981
朂	-11.9982
菴	-11.9982
醍	-11.9982
馗	-11.9982
擷	-11.9983
䳱	-11.9983
雙提者水所由代升也	-11.9983
欲其密而無漏也	-11.9983
捩	-11.9983
苻	-11.9983
逵	-11.9983
生鈞州風谷頂山	-11.9984
髻	-11.9984
七日更酘用米	-11.9984
水浸去邪味油鹽調食	-11.9984
嶽	-11.9984
治畦下水一同葵法	-11.9984
鎻	-11.9984
石灰瓦灰塗之	-11.9984
癡	-11.9985
其密切而無滯也展轉之上下之猶是也	-11.9985
塩	-11.9985
皓	-11.9985
羹	-11.9985
驒	-11.9985
戧	-11.9985
驄	-11.9985
尺開濶尺堆土離河丈尺月日起至日止	-11.9985
蘟	-11.9985
簮	-11.9986
􁏱	-11.9986
鄞	-11.9986
􁝐	-11.9986
僞	-11.9986
腹廣而上下弇	-11.9987
塢	-11.9987
勑	-11.9987
䓁	-11.9987
痔	-11.9987
睦	-11.9987
僵	-11.9987
駱	-11.9988
悲	-11.9988
蹏	-11.9988
淛	-11.9988
壺者水之總也水所由續而不絶也	-11.9988
筩者水所由入也所以束水而上也	-11.9988
旭	-11.9989
潯	-11.9989
周圍自成環池	-11.9989
星應車動以過添梯	-11.9989
雙筩者水所由代入也	-11.9989
芘	-11.9989
和泥渥漉深埋禾苗根下漚罨既	-11.9989
天子諸侯必有公桑蠶室	-11.9989
盾	-11.999
倐	-11.999
䎪	-11.999
桀	-11.999
穅	-11.999
其美與蠶矢熟糞同	-11.999
紝	-11.999
洿	-11.999
盤者中筩之水所由出也	-11.999
嗤	-11.9991
今宻縣梁家衝山谷	-11.9991
檖	-11.9991
罐	-11.9991
苃	-11.9991
虌	-11.9991
煤	-11.9991
綯	-11.9991
籺	-11.9991
萼	-11.9991
苒	-11.9992
峰	-11.9992
霹	-11.9992
必謹察之而加功焉	-11.9992
蓍	-11.9992
藲	-11.9992
曰衡軸衡軸者所以挈	-11.9992
諤	-11.9992
衡衡也軸縱也鑿枘而合之欲其固也軸	-11.9992
􁊽	-11.9992
黍心未生雨灌其心心傷無實	-11.9993
飥	-11.9993
繟	-11.9993
鄢	-11.9993
緻	-11.9993
勇	-11.9993
旃	-11.9993
䆊	-11.9993
深痛過鋤力三倍所辦之田日不啻二十	-11.9994
物者備斯成器矣更為之機	-11.9994
丢	-11.9994
丘城上皆可為區田	-11.9994
柟	-11.9994
茁	-11.9994
踠	-11.9994
銚	-11.9994
為衡衡之長無	-11.9995
莍	-11.9995
錮	-11.9995
廊	-11.9995
飡	-11.9995
㔯	-11.9995
不能折其出勢	-11.9995
憎	-11.9995
摭	-11.9995
㤗	-11.9995
先薦寢廟	-11.9995
滸	-11.9995
漊	-11.9995
用畜力輓行	-11.9995
盻	-11.9995
倂	-11.9995
摟	-11.9995
若少遲慢一值隂雨即為災傷	-11.9995
縠	-11.9996
貆	-11.9996
帙	-11.9996
軺	-11.9996
分八釐四毫	-11.9996
苗其弱也欲孤	-11.9996
掖	-11.9996
以滚水湯三五次	-11.9996
昉	-11.9996
踣	-11.9997
黄馬白喙不利人	-11.9997
晡	-11.9997
載芟載柞其耕澤澤	-11.9997
再碾如此可一日一	-11.9997
檓	-11.9997
宋臣范仲淹	-11.9997
車者井泉挈水之器也	-11.9997
龍首渠河内有史起十二渠	-11.9997
篷	-11.9998
鍔	-11.9998
彗	-11.9998
中筩者壺水所由上也	-11.9998
元王禎撰農桑通訣	-11.9998
睂	-11.9998
以溝蕩水以遂均水以列舍水	-11.9998
娜	-11.9998
數條俱生留一根	-11.9998
角亢氐房	-11.9998
贅	-11.9998
縉	-11.9998
嫗	-11.9998
瘤	-11.9998
謡	-11.9998
哭	-11.9999
亶	-11.9999
提柱者水所由恒升也	-11.9999
欇	-11.9999
以上者以達於大	-11.9999
考工記匠人為溝洫耜廣五寸二耜為耦	-11.9999
疵	-11.9999
苟	-11.9999
䔛	-11.9999
蹴	-11.9999
佀	-11.9999
覆土約厚三四指	-11.9999
公私之積猶可哀痛	-12
暍	-12
因隤其土以附苗根	-12.0001
廨	-12.0001
恬	-12.0001
刊	-12.0001
撥車頭竪輪	-12.0002
耕耙欲受種之地非勞不可	-12.0002
要術云採桑必須	-12.0002
蹟	-12.0002
蹇	-12.0002
乾隆四十六年	-12.0002
緬	-12.0002
薜	-12.0002
南北簇法俱未得中	-12.0003
合累牛騰馬	-12.0003
酣	-12.0003
儆	-12.0003
秘	-12.0003
豵	-12.0003
䆧	-12.0004
嘔	-12.0004
霆	-12.0004
壏	-12.0004
夏官職方氏	-12.0005
鎭	-12.0005
柸	-12.0005
孩	-12.0006
萉	-12.0006
欬	-12.0006
儔	-12.0007
咮	-12.0007
冕	-12.0007
孺	-12.0007
覇	-12.0008
寘	-12.0008
苵	-12.0008
明史食貨志	-12.0009
檄	-12.0009
纂文曰養苗之道鋤不	-12.0009
戕	-12.001
椇	-12.0011
羶	-12.0011
帷	-12.0012
臓	-12.0012
州古揚州斗分野	-12.0012
瓏	-12.0013
其有失時行罪無疑	-12.0013
塹	-12.0014
鞘	-12.0014
繘	-12.0014
酤	-12.0014
鞮	-12.0016
􁉢	-12.0016
窻	-12.0017
楛	-12.0017
櫺	-12.0018
恕	-12.0018
偫	-12.0019
繄	-12.0019
揔	-12.0019
瓝	-12.0019
欓	-12.002
靴	-12.0021
菇	-12.0021
訾	-12.0021
璇	-12.0022
哥	-12.0022
糒	-12.0023
頥	-12.0023
䑔	-12.0024
飪	-12.0025
鬛	-12.0026
衮	-12.0026
㙡	-12.0029
澍	-12.0029
檽	-12.0031
侔	-12.0032
奥	-12.0036
盌	-12.0049
茀	-12.0059
丳	-12.0105
邑千樹棗燕秦千樹栗蜀漢江陵千樹橘	-12.152
蛋	-12.1942
幔	-12.1944
贄	-12.1949
鑠	-12.1951
無毒孫思邈曰	-12.1952
䕩	-12.1952
直省志書宛平縣物産	-12.1953
稬	-12.1953
皤	-12.1953
繆	-12.1956
豇	-12.1956
聘	-12.1959
舖	-12.1961
蟣	-12.1962
揖	-12.1962
濮	-12.1963
櫸	-12.1963
舛	-12.1965
幢	-12.1965
復一轉至春種稻萬不失一	-12.1966
纜	-12.1967
閙	-12.1967
餘法悉與下田同	-12.1967
芨	-12.1968
胏	-12.1968
蛙	-12.1968
釃	-12.1969
壷	-12.1969
夹	-12.1969
棪	-12.1969
胷	-12.197
科大如穊者五六月中霖雨時	-12.197
唧	-12.197
蒟	-12.1971
二月半種稻為上時三月為中時四月	-12.1972
及半為下時漬種如法裛令開口耬耩	-12.1972
属	-12.1972
縋	-12.1973
之漫散即勞勞訖引水停之至秋	-12.1973
九月中子熟刈之候	-12.1973
若未放勃去雄	-12.1973
􁵡	-12.1973
矯	-12.1974
鎗	-12.1974
聚十莖一處以布纒之五寸許	-12.1974
牋	-12.1974
鶻	-12.1974
無流水曝井水殺其寒氣以澆之	-12.1974
蘢	-12.1974
落時可種藍五月可刈藍六月	-12.1974
悌	-12.1975
殳	-12.1975
躭	-12.1976
抉	-12.1976
近山阜尤是所	-12.1976
鎪	-12.1977
取根者用大小麥底六月中種十月	-12.1977
一夜置霜露中即舂	-12.1977
蕹	-12.1977
薢	-12.1977
凑	-12.1977
豔	-12.1978
諍	-12.1978
噎	-12.1978
斲	-12.1978
駔	-12.1978
洪十字大頭向	-12.1978
引根并莖芟去葉於園内東北角種之令	-12.1978
遁	-12.1978
後魏高陽太守賈思勰撰	-12.1979
珣	-12.1979
蜚	-12.1979
邸	-12.1979
両	-12.1979
皆令草失色其利勝藍若欲	-12.1979
綉	-12.1979
紘	-12.198
豆生布葉鋤之生五六葉又鋤之	-12.198
洶	-12.198
駐	-12.198
袪	-12.198
棧上其棚下勿使驢馬糞及人溺又忌	-12.198
𫀆	-12.198
而芟之冬日至而耜之	-12.1981
煥	-12.1981
牖	-12.1981
刈穄欲早刈黍欲晚	-12.1981
奶	-12.1981
皡	-12.1981
蘗	-12.1981
搧	-12.1981
良三徧細耕三月中浸子令芽生乃畦	-12.1981
栽一切樹木欲記其隂陽不令轉易	-12.1981
有膏盡治之則傷膏傷則不成而	-12.1982
鏉	-12.1982
滾	-12.1982
嬌	-12.1982
後魏髙陽太守賈思勰撰	-12.1982
漚欲清水生熟合	-12.1982
洱	-12.1982
伴	-12.1983
屠	-12.1983
薛	-12.1983
十年之後魁椀瓶榼器皿無所不任	-12.1983
榆性扇地其隂下五	-12.1983
蔭	-12.1983
幪	-12.1984
甀	-12.1984
蓁	-12.1984
令乍寒乍熱	-12.1984
十五年後中為車轂及蒲桃	-12.1984
芐	-12.1985
倕	-12.1986
勞之榆生共草俱長	-12.1986
娥	-12.1986
杌	-12.1986
簽	-12.1986
蓷	-12.1986
俛	-12.1986
聶	-12.1986
誰謂爾無牛九十其犉	-12.1986
耬耩者炒沙令燥中	-12.1986
罔	-12.1987
竑	-12.1987
桌	-12.1987
䴸	-12.1987
倌	-12.1987
導引太湖之水散入	-12.1987
抜	-12.1987
橢	-12.1987
用子二升漫種者先以耬耩然後	-12.1987
底為下地必欲熟	-12.1987
慘	-12.1988
瘃	-12.1988
卬	-12.1988
一而當五名曰膏澤皆得時功	-12.1988
土一和解夏至天氣始暑隂氣始盛土復	-12.1988
筌	-12.1988
俞貞木種樹書曰	-12.1988
凡耕桑田不用近樹	-12.1988
羊一千口者三四月中種大豆一頃雜	-12.1988
者長而細又多瘢	-12.1988
良之地青沙地亦善開荒黍穄下	-12.1988
楤	-12.1988
立秋前後皆十日内種之	-12.1988
蒨	-12.1988
見其為八磨嘉其有濟時用	-12.1988
磈	-12.1988
落乃伐薪為炭	-12.1988
恂	-12.1988
瑪	-12.1989
中種者以陳屋草布壍	-12.1989
初生三年不用採葉尤忌	-12.1989
聾	-12.1989
還叢之三日一打四五遍乃盡耳	-12.1989
崔亮在雍州讀杜	-12.1989
種無期因地為時	-12.1989
陲	-12.199
魃	-12.199
治畦下水糞覆悉與葵同	-12.199
雌鴨無令雜雄足其粟豆常令肥飽一鴨	-12.199
也十月號陽月又曰小春木	-12.199
無陳草者用糞糞之	-12.199
雖曰愛之其實害之雖曰憂之其實	-12.199
供食豚乳下者佳簡取别飼之	-12.199
大小麥皆須五月六月暵地	-12.199
晹	-12.199
桑十二月為上時正月次之二月為下	-12.199
纏	-12.199
酋	-12.199
種取桑落時生者良	-12.199
陀	-12.199
近必須與人居相連開	-12.199
穣	-12.1991
蜆	-12.1991
日以外子鴨六七十日佳過此肉硬大率	-12.1991
順天時量地利則用力少而成功多任	-12.1991
所包土上條芽長出	-12.1991
梜榆刺榆凡榆三種色	-12.1991
鐸	-12.1991
悠悠之論率以風土不宜為	-12.1991
鮆	-12.1991
是故三以為族乃多粟	-12.1992
骸	-12.1992
黄帝堯舜氏作	-12.1992
漫散之即勞秋冬仍留麻勿刈為楮作	-12.1992
黛	-12.1992
量其力能寒温飲飼適其天性如不肥充	-12.1992
􁄾	-12.1992
蜿	-12.1992
孫叔均始作牛耕	-12.1992
審其時月又合地方之宜使之不失其中	-12.1992
萆	-12.1992
亦須小厰以避雨雪春夏	-12.1992
貤	-12.1993
單繳者雙繳	-12.1993
小鋤者非直省功	-12.1993
絕	-12.1993
婀	-12.1993
或曲生亦不佳也	-12.1993
子三月葉青便出之	-12.1993
為上小豆胡麻次之悉皆五六月	-12.1993
堆食數口以馬踐過為種無虸	-12.1993
竺	-12.1993
之草生有雨澤耕重	-12.1993
有小雨復耕和之勿令有塊以待時所謂	-12.1993
種非連雨不生所以不同春月要求濕	-12.1993
糞種騂剛用牛赤緹用羊墳	-12.1993
者草根繁茂用功多而	-12.1993
多亦得雨少則生不盡但根細科小不同	-12.1993
非良地則不須種	-12.1993
爍	-12.1993
証	-12.1993
俵	-12.1994
五木者五榖之先欲知五榖但視五木	-12.1994
三月種者為上時四月上旬	-12.1994
每子一升可種二十畦	-12.1994
䒩	-12.1994
慚	-12.1994
榻	-12.1994
熖	-12.1994
陂潁川有鴻隙陂廣陵有雷陂	-12.1994
大如臂許正月中移之	-12.1994
州古冀州參井分野	-12.1994
須使老樹肌肉與接頭肌肉相對著	-12.1995
壝	-12.1995
無度數但要第一日	-12.1995
煗	-12.1995
候口開乘車詣田	-12.1995
如本篇二圖之甲乙	-12.1995
蓲	-12.1995
食以清水與之濁則	-12.1995
八月末九月初為下時	-12.1995
醮	-12.1995
捎	-12.1996
末後出者名末蛾	-12.1996
斨	-12.1996
拄	-12.1996
嗉	-12.1996
之家度視地形築土作	-12.1996
於旦暮潤時以耬耩作壟以手	-12.1996
一耦之伐廣尺深尺謂之	-12.1996
瘝	-12.1996
若寒熱不均後必眠起不齊	-12.1996
榝	-12.1997
處薄攤蛾自遲出免使抽繰相逼	-12.1997
逞	-12.1997
田中不得有樹用妨五	-12.1997
作籠籠之先以粳米為粥	-12.1997
惹	-12.1997
欲速此良農之務也	-12.1997
痤	-12.1997
鏹	-12.1997
靄	-12.1997
敺	-12.1997
豶	-12.1997
過使教田太常三輔	-12.1997
侮	-12.1997
粟楚漢相拒滎陽民不得耕	-12.1997
用子四升三月上旬種者	-12.1998
紇	-12.1998
諺曰耕而不勞不如	-12.1998
觚	-12.1998
彤	-12.1998
酳	-12.1998
漓	-12.1998
踪	-12.1998
麺	-12.1998
田然大率欲早早田倍多於	-12.1999
一煖處以柔細草覆	-12.1999
嚙	-12.1999
屐	-12.1999
生時㝷即收取别	-12.1999
區田以糞氣為美非必	-12.1999
濕至可種時以餘汁溲而種之則禾稼不	-12.1999
埓	-12.1999
千枚作種所餘皆	-12.1999
羝無角者更佳	-12.1999
諒	-12.1999
葉味苦救飢採葉煠熟水浸去苦味淘洗	-12.1999
鸞	-12.2
泲	-12.2
善相丘陵阪險原隰土地所	-12.2
宓	-12.2
晷	-12.2
續添一扇在上	-12.2
瀚	-12.2
藨	-12.2
鴛	-12.2
蓿	-12.2
候至明年不可勝計	-12.2
不要蒸得過了過	-12.2
令洞洞如稠粥先種二十日	-12.2
之三沸漉去滓以汁漬附子五枚	-12.2
即攤一二車薄則易乾碾過一	-12.2
地内苫積天晴乘夜載上	-12.2
葝	-12.2
瑰	-12.2001
㤙	-12.2001
力耕數耘收穫如	-12.2001
碣	-12.2001
撥動如箔上繭滿打起更攤一箔候	-12.2001
率多人者田日三十	-12.2001
宰以九職任萬民一曰三農生九	-12.2001
告民出五種命農計耦耕事	-12.2001
筲	-12.2001
紐草稕如臂大	-12.2001
閹	-12.2002
臚	-12.2002
軼	-12.2002
有精神而又堅韌	-12.2002
不禁熱恰得合宜	-12.2002
時不下連及縁上連背	-12.2002
槨	-12.2002
田種弱苗以求華實	-12.2002
腤	-12.2002
𥻘	-12.2002
寸以熟糞及土相和正月晦日種	-12.2002
撏	-12.2002
十蠶九老方可	-12.2002
狃	-12.2003
冬民既入婦人同巷相	-12.2003
夜績女工一月得四十五日	-12.2003
去其兄而養其弟不收其粟而收其	-12.2003
池中令水無聲魚必生至四月	-12.2003
裊	-12.2003
弋	-12.2003
新芽一發便長寸餘	-12.2003
梨既生杜旁有葉	-12.2003
皎	-12.2004
昵	-12.2004
瀏	-12.2004
蘡	-12.2004
鶯	-12.2004
欲開莩為下時先作麻紉	-12.2004
賫	-12.2005
嵇	-12.2005
蕺	-12.2005
蠏	-12.2005
翕	-12.2005
不畜者祭無牲不耕者祭無盛不	-12.2005
啚	-12.2005
趙過為捜粟都尉	-12.2005
髦	-12.2005
頤	-12.2005
拗	-12.2006
纘	-12.2006
賃	-12.2006
槀	-12.2006
幇	-12.2006
下或漫散種或耬下一如種麻法亦有鋤	-12.2006
數起者不任為種	-12.2006
花地欲得良熟二	-12.2006
區田不耕旁地庶盡地力	-12.2006
闋	-12.2007
肴	-12.2007
浭	-12.2007
慱	-12.2007
啗	-12.2007
姬	-12.2007
恍	-12.2007
􁎐	-12.2007
區上為堆潤澤肥好乃勝春種	-12.2007
民無職事者出夫家之征	-12.2007
恢	-12.2008
實有多少質性有	-12.2008
賙	-12.2008
㳟	-12.2008
伏不起者須五六日一與食起之令洗浴	-12.2008
慈母不能保其子君	-12.2008
水至冬葉落附地刈	-12.2008
紖	-12.2008
姿	-12.2008
弱米味有美惡粒實有息耗	-12.2009
誥	-12.2009
莅	-12.2009
孽	-12.2009
行内相去四步一樹	-12.2009
史記禹乘四載泥行	-12.2009
蓃	-12.2009
吻	-12.201
仗	-12.2011
螂	-12.2011
輅	-12.2011
七月中摘深色鮮	-12.2011
毨	-12.2011
菢	-12.2011
笞	-12.2012
獠	-12.2013
䈒	-12.2013
霂	-12.2013
玲	-12.2013
驎	-12.2013
抳	-12.2013
䳺	-12.2013
後魏裴延雋為幽州刺史	-12.2013
冢	-12.2013
熄	-12.2014
人摘以一家手力十不充一但駕車地頭	-12.2014
屆	-12.2014
當有小兒僮女	-12.2014
穵	-12.2014
􁀋	-12.2014
使熟以水淘布袋絞去黄汁更	-12.2015
埧	-12.2015
𥙷	-12.2016
斯趙以薅荼蓼	-12.2016
站	-12.2017
蓄曰急無三年之蓄曰國非其國	-12.2017
奕	-12.2017
瀾	-12.2017
弃	-12.2018
饘	-12.2019
睿	-12.202
緋	-12.2021
洨	-12.2021
蒐	-12.2022
塸	-12.2022
涵	-12.2022
纓	-12.2022
猷	-12.2023
庳	-12.2023
洙	-12.2023
昩	-12.2023
憶	-12.2024
澼	-12.2024
塉	-12.2024
庤	-12.2027
洴	-12.2027
笙	-12.2027
邁	-12.2028
蜇	-12.2029
鮎	-12.2029
烖	-12.2029
瘙	-12.203
埏	-12.2031
􁔁	-12.2033
酈	-12.2034
嶠	-12.2035
鎬	-12.2035
䑓	-12.2037
㱕	-12.204
蒢	-12.2042
龡豳雅擊土鼓以樂田畯	-12.2042
倩	-12.2042
煼	-12.2043
祉	-12.2044
坰	-12.2072
蚶	-12.2075
駉	-12.2079
㪚	-12.4386
尢	-12.4422
蕣	-12.4428
間者中三間兩傍各	-12.4429
䅽	-12.4433
莉	-12.444
霰	-12.4443
邍	-12.4446
簵	-12.4449
區不欲大大則水深淺不	-12.445
郝	-12.4451
畀	-12.4451
疃	-12.4454
䔅	-12.4454
鱖	-12.4455
戩	-12.4457
擿	-12.4457
田欲稀薄田欲稠	-12.4458
稻既生猶欲令人踐	-12.4458
稹	-12.4459
黍或三四實實二米得黍三斛八斗	-12.446
婚	-12.4461
耑	-12.4461
恚	-12.4461
嶲	-12.4462
梣	-12.4462
月華色仍連著實	-12.4462
艷	-12.4462
深掘以熟糞對半和土覆其上令厚一寸	-12.4462
䒒	-12.4464
和土覆其上令厚一寸	-12.4464
蒋	-12.4465
箠	-12.4465
世無窮比之農夫勞逸萬倍去山逺者實	-12.4465
亦善樹一升天旱以流水澆之	-12.4465
麥麥時水澇不得納種者九月	-12.4465
麻子地間散蕪菁子而鋤之擬收其根	-12.4465
周禮天官食醫凡㑹膳食之宜	-12.4467
峒	-12.4467
䓤	-12.4467
黠	-12.4467
㨿	-12.4467
以萬夫耕者授以萬夫之田為萬夫之長	-12.4467
凡下田停水處燥則堅垎	-12.4467
為中時五月初為下時大率二尺留一	-12.4467
賂	-12.4468
廡	-12.4468
之處水盡乾時熟耕數	-12.4468
其春耕者殺種尤甚故宜五六月	-12.4468
早種者必秋耕十月末地將凍散子勞之	-12.4468
榱	-12.4468
䏶	-12.4468
多種千根以上所求必備	-12.4468
霜下實成速斫之其樹大者以鋸鋸之	-12.4468
如欲出種留食不盡者八月收子	-12.4469
砲	-12.4469
寗	-12.4469
誣	-12.4469
為良遭雨則損草也	-12.447
騫	-12.447
寵	-12.4471
逡	-12.4471
讟	-12.4471
水道相直夏至後大熱令水道錯	-12.4471
為秋菜如欲出種春菜食不盡者可為子	-12.4471
而直下者聚而不科	-12.4471
㵸	-12.4471
䅞	-12.4471
其日丙丁其帝炎帝其神祝融	-12.4471
千樹則足柴十年以後髠一樹得一載	-12.4471
抗	-12.4471
秋必須燥濕得所為佳若水旱不調寧燥	-12.4471
迦	-12.4471
救飢採嫩葉煠熟水浸去邪味淘	-12.4472
滿乾則色黄而皮皺	-12.4472
蓀	-12.4472
顓	-12.4472
黶	-12.4472
䅘	-12.4473
隂之地開坎圓三尺深一尺熟斸著糞	-12.4473
燧	-12.4473
瀑	-12.4474
與人膝等莖葉皆美科雖不	-12.4474
五年任為屋椽十年堪為棟	-12.4474
四千三百二十株三年中為蠶	-12.4474
氣未寒將陽和之氣掩在地中其苗易榮	-12.4474
記曰種而不耨耨而不穫譏其不能圖功	-12.4474
簌	-12.4474
苗葉似豇豆葉肥大開淡粉紅花結角	-12.4474
聯	-12.4474
魄	-12.4474
内區中足踐之厚	-12.4474
半夏為之使惡皁莢畏	-12.4474
菠薐作畦下種如蘿蔔法春正月二月	-12.4474
縓	-12.4475
蕙	-12.4475
畔周匝小渠子深四五寸以水停之令其	-12.4475
羗	-12.4475
劉欣期交州記	-12.4475
用泥泥之不過數日纒處便合為一莖留	-12.4475
羔小未食常飲熱乳所以亦惡	-12.4475
小蒜六月七月可種小蒜八月可種大蒜	-12.4475
璫	-12.4475
秋天氣寒冷有霜時必待日	-12.4475
二寸以水澆之足踐令保澤取五芋子	-12.4475
以土壓上令兩頭出土向上直	-12.4475
為農者可不趨時致力以成其終而自廢	-12.4475
絮製新浣故及韋履賤好預買以備冬寒	-12.4475
䉡	-12.4475
獐	-12.4475
雒	-12.4476
㐫	-12.4476
狡	-12.4476
即下瓠子十顆復以前糞覆之既生長二	-12.4476
彼牽牛不以服箱	-12.4476
渣	-12.4476
三日太史謁之天子曰某日立	-12.4476
兩三宿竪頭著日中曝之令浥浥然	-12.4476
白麻子為雄麻顔色	-12.4476
笥	-12.4476
取區上濕土與糞和之内區中萁上令厚	-12.4476
結小青子小如粟粒	-12.4476
三年内每到十月常須草裹至二月	-12.4477
掌療獸病凡療獸病灌而行之以發其惡	-12.4477
大豆小豆不可盡治也古所	-12.4477
必薄布隂乾勿令浥	-12.4477
莜	-12.4477
瞭	-12.4478
穧	-12.4478
嚮	-12.4478
躁	-12.4478
中間白色味甜性微寒本草有沙參苗葉	-12.4478
耕者除種粟地外其餘黍豆等地春耕亦	-12.4478
菅茅之地宜縱牛羊踐之	-12.4478
謳	-12.4478
一根上必十數條俱生	-12.4478
樹訖以水沃之著土令如薄泥東西南北	-12.4478
既生數年不用掌近	-12.4478
蓯	-12.4478
茂而實不堅磽确之土	-12.4478
凡栽樹訖皆不用手捉及六畜	-12.4478
一石受一石者得收十石先掘地作坑方	-12.4479
竿稍大者截去近根三尺許通其節以糞	-12.4479
常留臘月正月生羔	-12.4479
叶	-12.4479
浙西諸郡蘇松最居下流太湖綿亘數百	-12.4479
細又實立根在細實土中又碾過根土相	-12.4479
􁲑	-12.4479
椈	-12.448
三兩日即生又法畦中下爛糞取	-12.448
二十日尚可種戴甲而生不用深耕大豆	-12.448
待白背者麻生肥	-12.448
而稀豆花憎見日見日則黄爛而根焦也	-12.448
炷	-12.448
􁐍	-12.448
䟦	-12.448
今輝縣山野中亦有	-12.448
早出者皮赤科堅	-12.448
死花結實如稗謂之竹米一竿如此	-12.448
耬種後惟用砘車碾之然執耬種者亦須	-12.448
揠	-12.4481
洑	-12.4481
自有乾葉在地足得	-12.4481
伶	-12.4481
六月命女工織縑練	-12.4481
大佳性不耐水必須	-12.4481
種他州子一年亦變	-12.4481
蹼	-12.4481
閬	-12.4481
餈	-12.4481
二月種之可為常食秋社前一二日種者	-12.4481
摙	-12.4481
蕦	-12.4481
徊	-12.4482
酓	-12.4482
㰅	-12.4482
淆	-12.4482
堦	-12.4482
抃	-12.4482
既至冬寒多饒風霜或春初雨落	-12.4482
草未生時則須飼不宜出放	-12.4482
葐	-12.4482
蚕	-12.4482
州古冀州昴畢分野	-12.4482
八月初天晴時摘葉薄布曬令乾可以染	-12.4482
再轉乃佳若春夏耕	-12.4483
爾牛來思其耳濕濕	-12.4483
跌	-12.4483
篁	-12.4483
桴	-12.4483
毗	-12.4483
巔	-12.4483
蕾	-12.4483
䓈	-12.4483
收條中子種者一年為獨瓣	-12.4483
槲	-12.4483
湖又開吳淞江并大石趙屯等浦洩澱山	-12.4483
并草留之不須鋤治八九月	-12.4483
擯	-12.4483
朦	-12.4483
朧	-12.4483
澤少者暫浸即出不得待	-12.4483
者初草實成時收刈雜草薄鋪使乾勿令	-12.4483
菵	-12.4483
阞	-12.4483
儈	-12.4483
媮	-12.4483
季終赴縣逓改行従善結	-12.4483
涪	-12.4483
璞	-12.4484
節後十日封生薑至四月立夏後蠶大食	-12.4484
之南方人畜耐暑其耕四時皆以中	-12.4484
槭	-12.4484
糞和土覆之生後數澆令	-12.4484
耕地至春又轉耕之三月種之耬耩地逐	-12.4484
㯠	-12.4484
薤實諸醯以柔之	-12.4484
醲	-12.4485
梵	-12.4485
駛	-12.4485
將種前二十許日開出水	-12.4485
苗長二尺餘葉似胡豆葉稍大	-12.4485
蟊	-12.4485
騧	-12.4485
巍	-12.4485
荆州厥土惟塗泥厥田惟下中	-12.4485
詘	-12.4485
囬	-12.4485
此號内十丈河身中共該起土幾何方數	-12.4485
復板閘以防淤澱	-12.4485
牘	-12.4485
蔎	-12.4485
鐵為管施之柱首迤而	-12.4485
鑵	-12.4485
䕫	-12.4485
皮對皮骨對骨	-12.4485
令起斫去浮根以蠶矢糞之	-12.4485
十五日草爛得轉并種耕三	-12.4485
樹生宻縣梁家衝山谷中樹髙	-12.4485
種柘法耕地令熟耬耩作	-12.4485
春始生而萌之夏日至而夷之秋繩	-12.4485
芴	-12.4486
逈	-12.4486
傷苗如此令地熟軟易鋤省力	-12.4486
䬃	-12.4486
埭	-12.4486
尺半亦打去心葉葉不空開花結實直待	-12.4486
摥	-12.4486
治畦下水一如葵法五寸下一子少與熟	-12.4486
湫	-12.4486
第一次曰撮苗第二次曰布第三次曰	-12.4486
墊之而灌之如法作之	-12.4486
撣	-12.4486
欲旦起避熱時良地三	-12.4486
羝少則不孕羝多則亂羣不	-12.4486
蠐	-12.4486
裁截碎木中作錐刀靶	-12.4486
良地三轉乃佳二月三月種	-12.4486
种	-12.4487
間令滿外復以草圍之以葛	-12.4487
穄踐訖即蒸而裛	-12.4487
夏至後二十日漚枲枲和如絲	-12.4487
生宻縣韶華山山野中	-12.4487
讐	-12.4487
埋之欲深勿令撓動	-12.4487
天地之間悉無空際	-12.4487
春種小小供食者自可畦種	-12.4487
百五十四萬五千三百四十四尺	-12.4487
慨	-12.4487
杠	-12.4487
駒初生忌灰氣遇新	-12.4487
種法與蕪菁同既生亦不鋤之	-12.4487
凱	-12.4487
泮	-12.4487
狥	-12.4487
種五石其種還用三月中掘取者逐犁後	-12.4487
綻	-12.4487
􁟧	-12.4487
即編其種榆莢者一同酸棗如其栽榆與	-12.4487
寸一莢稀穊得中	-12.4487
悵	-12.4487
㓕	-12.4487
地為上兩和地為次園圃内種之如無園	-12.4487
循行積聚無有不歛	-12.4487
茼	-12.4487
樑	-12.4487
炙曝天寒於火上熬過拌菜食之味頗辛	-12.4487
自餘雜香菜不列	-12.4487
嫁李法正月一日或十五日以	-12.4488
櫠	-12.4488
二十年好作犢車材	-12.4488
啖以菽粟矣衣以	-12.4488
圏中作臺開竇無令停水二日一除	-12.4488
柞氏掌攻草木及林麓夏日至令	-12.4488
濶六百十二尺自之得積一百一十	-12.4488
為等差故養牧得宜	-12.4488
燒馬蹄羊角成灰春散著濕地羅勒乃生	-12.4488
當年之中即與麻齊麻熟刈去獨留槐槐	-12.4488
菽粟古人豈重畜如此哉以此為衣食之	-12.4488
里開方計之八八六十四	-12.4488
雜木唯有果實者及望而止	-12.4488
殽	-12.4489
鼉	-12.4489
胠	-12.4489
覷	-12.4489
啞	-12.4489
梁州厥土青黎厥田惟下上	-12.4489
耻	-12.4489
亦可但不如冷盆所繰	-12.4489
伎	-12.4489
共相蹙迫交柯錯葉特	-12.4489
務令稻根之傍液液然而後已	-12.4489
廠	-12.4489
訝	-12.4489
霪	-12.4489
其日壬癸其帝顓頊其神𤣥㝠	-12.4489
地中令曲如橋十年之後便是渾成柘橋	-12.4489
斫後復生不勞更種所	-12.4489
豆豌豆留豆也胡豆䜶	-12.4489
悮	-12.4489
刈甫畢無以餬口者其能給終嵗之用乎	-12.4489
舂米則聚礱簸	-12.449
十五年任為弓材	-12.449
時雨降可種大小豆美田欲稀薄田欲稠	-12.449
桃性皮急四年以上	-12.449
榖根未成不耐旱耬鋤	-12.449
耕耬下以為良澤多者耬耩漫擲而勞之	-12.449
萬一千九百八十四尺	-12.449
生即去箔常令足水六月連雨	-12.449
聖祖御製幾暇格物編	-12.449
濺	-12.449
匪直盪汰不生兼與草薉俱出凡田欲早	-12.449
年三月取之為種計一	-12.449
為種者即在地中勿掘之待	-12.449
痿	-12.449
檁	-12.449
然後以粟飯切苦菜蕪菁英	-12.449
磴	-12.449
菜生二三寸鋤去穊者供食	-12.449
銃	-12.449
之月故宜栽培以養元氣	-12.449
凡伐木四月七月則不蟲而堅	-12.449
白地種二三月為上時四月上旬為中	-12.449
豝	-12.449
㹠	-12.449
之五年之後便堪作椽不梜者即可斫賣	-12.449
以黍椹子各三升合種之	-12.449
四十六萬七千九百零四尺	-12.449
季夏之月樹木方盛乃命虞人入山行木	-12.449
搐	-12.449
杙	-12.449
某項應用若干該價若干	-12.449
硏	-12.449
者非能耕而食之織而衣之	-12.449
觀宣王考牧之詩可	-12.449
隨節早晏勿失其適	-12.449
熯	-12.4491
蟆	-12.4491
生苗訖至八月盡九月初根成中染若須	-12.4491
不喘以發散藥投之熱結即鼻汗而喘以	-12.4491
參夕杏花盛桑椹赤可種大豆謂之上時	-12.4491
薥稭籬以禦北風畦内亂撒麥糠覆樹令	-12.4491
觸傷胎所由也	-12.4491
仲冬之月日短至則伐木取竹箭	-12.4491
挟	-12.4492
逺一年豐稔沛然自足	-12.4492
韌必待其朽腐易為牛力	-12.4492
􁖩	-12.4492
埋大甕地上甕中先鋪竹	-12.4492
者令人牽之起從後笞之起而已皮勞者	-12.4492
豨	-12.4492
軹	-12.4492
過者無病不能過者入瀆中行過便别之	-12.4492
遷延過時秋苗亦誤鋤治	-12.4492
鏟柄長二尺刄廣二寸以剗地除草此	-12.4492
􁈱	-12.4492
亦如此二年之後三月中帶土移	-12.4492
日支飯米一斗約半	-12.4492
沖	-12.4492
登非不利也然王者法禁之為其殘桑也	-12.4492
矍	-12.4492
窈	-12.4492
粔	-12.4492
輛	-12.4492
住宅上及園畔	-12.4492
鸎	-12.4492
凡欲識雌雄當自根上第一枝觀之有	-12.4492
厚五寸竹忌手把及洗手面脂水澆	-12.4492
取墐土作熟泥封之如三指大長二寸使	-12.4492
之仍即下水十日塊既散液持木斫平之	-12.4492
已成畦畛連澆三	-12.4492
春夏早起與雞俱興秋冬晏起必	-12.4492
水盡燥濕得所時急耕則	-12.4492
至焉時雨降焉始之耕田終之簠簋惰者	-12.4492
農者見小近而不慮	-12.4493
宋魏之間謂之鏵或謂之鍏	-12.4493
轡	-12.4493
根三十石有草鋤不限徧數鋤時	-12.4493
不登令所傷郡國皆種	-12.4493
呪	-12.4493
弱耕地多少其耕皆有定法	-12.4493
必用兩牛三牛或四牛以一人執之量牛	-12.4493
漢桓帝詔曰横水為災五	-12.4493
之後根交當隔一尺許斸一钁即滋旺矣	-12.4493
人掌土化之法以物地相其宜而為之種	-12.4493
春若遇旱秋耕之地得仰壟待	-12.4493
杳	-12.4493
可作骨取其實可食可作藥	-12.4493
春夏畦種供食者與畦葵法同	-12.4493
禮記吕氏月令季冬出土牛示農耕早晚	-12.4493
積腐藁敗葉剗	-12.4493
筴	-12.4493
耕地欲熟七月初種之一	-12.4493
耽	-12.4493
三老力田及里父老善田者受田器學耕	-12.4493
北地不見此種若於附近	-12.4493
於山阜之曲三徧熟耕漫散橡子即	-12.4493
譏	-12.4493
面訪學栽植甚得濟用	-12.4493
三分其底之徑以其一為	-12.4494
夢溪云種竹但林外取向陽者向北而栽	-12.4494
同時非夏者大率以椹赤為候	-12.4494
救飢苗葉嫩時採取煠	-12.4494
時即出其不磨者皮	-12.4494
有西風則不可花木亦然諺云栽竹無時	-12.4494
根無不向南必用雨下遇	-12.4494
觳	-12.4494
三年正月移而植之亭亭條	-12.4494
之至明年四月又耕熟勿令有塊即作	-12.4494
仭	-12.4494
六十五萬七千八百五十六尺	-12.4494
冬之間必致癬疥七月	-12.4494
禮記月令孟春之月禁止伐木	-12.4494
冬初梓角熟時摘取曝乾打取子耕地作	-12.4494
翟	-12.4494
鋤勿使細土覆心今秋	-12.4494
之則生氣勞氣勞者	-12.4494
汗不乾則生皮勞皮勞者𩥇而不振汗未	-12.4494
法宜旋切細葉微篩	-12.4494
區用種六升收二十八石一日作二百區	-12.4494
區用糞土相合内區中水調成稀泥植栽	-12.4494
厥土惟塗泥厥田惟下下	-12.4494
溧	-12.4494
燒之則依前茂矣	-12.4494
種榖必雜五種以備災害	-12.4494
笳	-12.4494
州古冀州觜參分野	-12.4494
既生不鋤九月末收葉	-12.4494
照田起夫量工給	-12.4494
石至數萬而豪傑金玉盡歸任氏任氏以	-12.4494
等並須收貯一處每日布牛	-12.4494
凡稼澤夏以水殄草而芟夷之	-12.4495
次日有裂縫處以	-12.4495
毋使露樹至春去土次年不	-12.4495
記取南枝志林云竹有雌雄雌者多	-12.4495
一升收粟五十一石一日作三百區下	-12.4495
慣熟不用人止一人輕扶	-12.4495
咼	-12.4495
寸以上栽宜稠密常澆令潤澤上	-12.4495
栽松春社前帶土栽培百株百活	-12.4495
繭宜併手忙擇	-12.4495
齊明與我犧羊以社以方我田既臧農夫	-12.4496
犇	-12.4496
畵	-12.4496
蓄藏節用御欲則	-12.4496
卞	-12.4496
種梓法秋耕地令熟秋	-12.4496
目録農家類卷一	-12.4496
即生筋勞筋勞則	-12.4496
广	-12.4496
用種二升秋收區别三升粟	-12.4496
糅	-12.4496
者骨勞也起而不振者皮勞也振而不噴	-12.4496
鄜	-12.4496
黍心初生畏天露令兩人對持長索	-12.4496
上又以桐葉平鋪如此重重隔之以至滿	-12.4496
不若三土以十分之二是謂	-12.4496
四月五月種者為穉禾二月上旬及麻菩	-12.4496
樆	-12.4496
種桑法五月取椹著水中即以手漬之以	-12.4496
稰	-12.4496
衙	-12.4496
下剸去枝三二層樹記南北運至區	-12.4496
櫾	-12.4496
水芟之草悉膿死稻苗漸長復須薅	-12.4496
不以成繭不成繭翻	-12.4496
如小指檜枝長一尺五寸許下削成馬耳	-12.4496
莵	-12.4496
簫	-12.4497
觱	-12.4497
煴	-12.4497
藺之土甚輕者以牛羊踐之如此則土	-12.4497
其地爽潤上有油土四指許春雖	-12.4497
廣二㝷深二仞	-12.4497
成好葦十月後刈之一法二月熟耕地作	-12.4497
羊膿鼻眼不淨者皆以	-12.4497
三千七百區一日作千區區種粟二十粒	-12.4497
元王禎撰百榖譜	-12.4497
古稱澤國其西南翕受太湖陽城諸水	-12.4497
夫區方深各六寸間相去九寸一	-12.4497
生血勞血勞則發强行何以察五勞終日	-12.4497
田常以五月耕六月再耕七月勿耕	-12.4497
衲	-12.4497
譴	-12.4497
酇	-12.4497
麥禾不成則書之以此見聖人	-12.4497
之槩之次日以後皆如之候其乾十分之	-12.4497
仲冬斬陽木仲夏斬隂木	-12.4497
作田秫粥灑之刈生	-12.4497
劵	-12.4497
用線長綴通作一連	-12.4497
碶	-12.4497
魯桑種之俱可若地連山	-12.4497
䴽	-12.4497
去牢欄中積滯蓐糞	-12.4497
正月二月中取弱栁枝大如臂長一	-12.4497
正月種春大麥二三月種山藥芋子三四	-12.4497
穛	-12.4497
至來春春分時甜水浸子十日治畦下水	-12.4497
艽	-12.4497
楟	-12.4497
此物長生種者一勞永逸都邑負郭所	-12.4498
燥曝挼去莩餘切	-12.4498
鬢	-12.4499
一時辰約飼四頓一晝夜通飼四十	-12.4499
氣勞也噴而不溺者血勞也筋勞者兩絆	-12.4499
瞞	-12.4499
豱	-12.4499
伏時大鵝一十子大鴨二十子小者	-12.4499
四日去附子以汁和蠶矢羊矢各等分撓	-12.4499
太稠稠者鋤而稀之	-12.4499
扳	-12.4499
縐	-12.4499
鏊	-12.4499
上曰伐伐之言發也	-12.4499
以杉木解枋長六尺	-12.4499
壓下枝令著地條葉生	-12.4499
藁草細剉之和以麥麩	-12.4499
陽木生山南者隂木生山北者冬	-12.4499
鵠	-12.4499
筤	-12.4499
良熟七月種之畦種水澆一如韭法	-12.4499
繰為上如人手不及殺	-12.4499
钃	-12.4499
􁊼	-12.4499
簇背鋪以蘆箔而	-12.4499
其十字破杜者十不	-12.45
或能合羣致死羊疥先著口者難治多死	-12.45
園中築作小屋覆雞得養子烏不得就	-12.45
故田多墾闢過試以離宫卒田其宫壖地	-12.45
長也欲相與居其熟也欲相	-12.45
乃擇元辰天子親載耒耜	-12.45
之側必置糞屋低為簷楹以避風雨飄浸	-12.45
乾明日復溲天隂雨則勿溲六七溲而止	-12.45
匯	-12.45
奨	-12.45
春種欲深夏種欲淺	-12.45
眠後十五六頓即老得絲多少全在此數	-12.45
積穰於溝間相去亦一	-12.45
者皆魯之類也荆之類根固而心實能	-12.45
胊	-12.45
蹷	-12.45
閷	-12.45
􁁙	-12.45
粱者黍稷之總名稻者	-12.45
䖝	-12.4501
之則禾不蟲又取馬骨剉一石以水三石	-12.4501
醯	-12.4501
盃	-12.4501
二尺打去衝天心	-12.4501
此時二十日以後和氣去即土剛以	-12.4501
犉	-12.4501
鶤	-12.4501
三四次出以糞苧因以肥桑愈	-12.4501
形勢尤卑而東北際海岡隴之地	-12.4501
籓	-12.4501
羊有疥者間别之不别相染	-12.4501
銖	-12.4501
合聚萬物而索饗之也	-12.4501
痟	-12.4501
窠中令煖先刻白木為卵形窠别	-12.4501
厚而多津者魯桑也凡枝	-12.4501
天旱燥時溲之立乾薄布數撓令	-12.4501
脞	-12.4501
酲	-12.4501
今三輔猶賴其利	-12.4501
六釐六毫六絲六忽零	-12.4501
剉草糠麩以飼之	-12.4501
洺	-12.4501
盛其精者精粗各適所受不可易也	-12.4501
節其作息以養其血氣	-12.4501
苘	-12.4501
二月七月種種法以升盞合地為處布子	-12.4502
無子可於大樹四面掘	-12.4502
候實開便收之挂著屋裏壁上	-12.4502
亦籮屬比籮稍匾而	-12.4502
小竅使通出入另開一小門泥封時時開	-12.4502
就連上令覆養三五日	-12.4502
燖	-12.4503
滕	-12.4503
鋸截杜令去地五六寸	-12.4503
少加厚變青則正食宜益加厚	-12.4503
礲	-12.4503
蠶必寒便添熟火	-12.4503
傳曰人生在勤勤則不匱	-12.4503
底為上麻黍胡麻次之蕪菁大豆為下	-12.4503
隧	-12.4503
鴨六年以上老不復生伏矣宜去之少者	-12.4503
竹及名國萬家之城帶郭千	-12.4503
治病文具本草米穀部	-12.4503
荽子一日三度以水沃之二三	-12.4503
􁆜	-12.4503
曙	-12.4504
衿	-12.4504
水面以葑泥附木架上而種	-12.4504
皮木之際令深一寸許折取其	-12.4504
三日後漸變白則向食	-12.4504
内一神守六月内二	-12.4504
格柯打出作蒿	-12.4504
者下根即燒三四寸	-12.4504
壤之地信美矣然肥沃之過	-12.4504
廕	-12.4504
此其人皆與千户侯等	-12.4504
決九川距四海	-12.4504
候實口開便速收之天	-12.4504
懊	-12.4504
白露俱下酢漿令麥耐旱蠶矢令麥忍寒	-12.4504
秋花彫盡留冬月	-12.4504
農三輔太常民皆便代田用力少而得	-12.4504
節可種薄田秋分種中田後十日種美田	-12.4504
土上旱輒澆之常令潤澤生	-12.4505
寸一子篩土覆之令厚寸許復篩熟糞以	-12.4505
數寸夏連雨時可移之移法先作小	-12.4505
澤草所生種之芒種是也芒種有二義鄭	-12.4505
謂有芒之種若今黄	-12.4505
區種不先治地便荒地為之以	-12.4505
宸	-12.4505
豢	-12.4505
圓深三寸以刀子圓	-12.4505
闓	-12.4505
莆	-12.4505
沬	-12.4505
癤	-12.4505
若移大栽者二月三月中移之先作熟	-12.4505
得入窖夏還出之但不濕亦得五六年停	-12.4505
麛	-12.4505
麧	-12.4505
之前末曰槃言可轉也左右繫以樫乎軛	-12.4505
恠	-12.4505
扎	-12.4505
汧	-12.4505
自能造紙其利又多種三十	-12.4505
貉	-12.4505
􁁟	-12.4505
之地長十八丈廣四丈八	-12.4505
四釐五毫七絲六忽	-12.4505
時調其宜適卜式云牧民何異於是	-12.4505
檆	-12.4506
土壤氣脉其類不一肥沃磽	-12.4506
簀	-12.4506
者五萬枚長四尺者四萬枚留長二尺者	-12.4506
五町町間分為十四道以通人行道廣一	-12.4506
簞盛種竹器也其量可容數斗形如	-12.4506
裒	-12.4507
時何謂也一曰惡芻二曰中芻三曰善芻	-12.4507
小枝樹形可喜五年方結子	-12.4507
慝	-12.4507
豚狗彘毋失其時女	-12.4507
螳	-12.4507
倅	-12.4507
其實亦滅裂而報予	-12.4507
其實亦鹵莽而報予芸而滅裂之	-12.4507
堕	-12.4507
幃	-12.4507
樹不結鑿一大孔入生	-12.4507
盅	-12.4507
萬物因時受氣因氣發生	-12.4507
其日甲乙其帝太皥其神勾芒	-12.4507
荵	-12.4507
夫區方九寸深六寸相去二尺一畝	-12.4508
比及月望數連一卷桑皮索繫定	-12.4508
􁱦	-12.4508
邏	-12.4508
幄	-12.4508
秀為禾三變而粲	-12.4508
線具機杼敬經絡	-12.4508
蓽	-12.4508
􁇊	-12.4508
匆	-12.4508
寠	-12.4508
散蠶訖又薄以薪覆之一槌得安十箔	-12.4508
籔	-12.4508
摺	-12.451
溯	-12.451
㾑	-12.451
系	-12.451
菀窳婦人寓氏公主	-12.451
頭牡鯉魚長三尺者四頭以二月上庚日	-12.451
𬞞	-12.451
􁋲	-12.451
另為一段假如通河	-12.451
後五十日發取量之息最多者	-12.451
歷	-12.451
湯有旱災伊尹作為區田教民糞種	-12.451
霈	-12.451
為中時中旬為下時先放水十日後曳	-12.451
石為俸餘半納官	-12.451
二子生梨餘皆生杜	-12.451
杇	-12.4511
鄭國在前白渠起後舉	-12.4511
鴨皆一月雛出量雛欲出	-12.4511
巽	-12.4511
柁	-12.4512
偉	-12.4512
堯命羲和厯象日月星辰	-12.4512
挫	-12.4512
腑	-12.4512
五千枚二尺者萬枚	-12.4512
稀豁之處鋤而補之凡五榖	-12.4513
沅	-12.4514
且溉且糞長我禾黍衣食京師億萬之口	-12.4514
濓	-12.4514
偕	-12.4514
陕	-12.4514
擔負髙几遶樹	-12.4514
繁茂而甜脆勝野生者	-12.4514
窐	-12.4515
接博其法有六一曰身接	-12.4515
曺	-12.4515
倮	-12.4515
秒	-12.4515
攴	-12.4515
旻	-12.4515
蔨	-12.4515
蹊	-12.4515
擇其木盛者來年多種之萬不	-12.4515
田旱稻自種至收不過五六月其間	-12.4515
蓊	-12.4515
勛	-12.4515
餱	-12.4516
劾	-12.4517
姤	-12.4517
謐	-12.4517
鵙	-12.4517
翺	-12.4517
四五次此可力致其常稔也	-12.4517
點	-12.4518
歐	-12.4518
廐	-12.4518
脿	-12.4518
撡	-12.4519
酎	-12.4519
槍	-12.4519
及其蟊賊無害我田穉田祖有神秉畀	-12.4519
飫	-12.4519
灃	-12.4519
分摘正須平量中半分取是以單夫隻	-12.4519
梮	-12.452
袖	-12.4521
餞	-12.4521
碎炊作飱甚滑細磨下絹簁作餅亦滑美	-12.4522
孔用木釘釘之泥封竅即結	-12.4522
北朝鮮冽水之間謂之	-12.4522
行耕耤禮親祭先農壇	-12.4522
十夫有溝溝上有畛百夫有洫洫上有涂	-12.4523
持刀劍者使賣劍買牛賣刀買犢	-12.4525
詳見樹藝蓏部救飢採	-12.4526
涖	-12.4526
艘	-12.4526
霄	-12.4528
瞽	-12.4528
䩕	-12.4528
賚	-12.4529
矇	-12.4529
墁	-12.4529
㑭	-12.4535
抌	-12.4537
府古兖豫二州角亢分野	-12.454
霓	-12.4541
鬲	-12.4541
萪	-12.4546
撇	-12.4548
蠢	-12.4551
􁣊	-12.4611
雨後為佳遇小雨宜接濕種遇大雨待薉	-12.6849
蝗蟲無馬骨亦可用雪汁雪汁者五	-12.7315
為粃是故其耨也長其兄而去其弟	-12.7696
綫	-12.7734
䴷	-12.774
糭	-12.7741
梆	-12.7751
髙則開渠卑則築圍急則激取緩則疏引	-12.7757
遘	-12.7759
砌脚三層上用地伏磚扁砌	-12.7762
月盡無雨則來月初必有風雨	-12.7764
匈	-12.7764
帽	-12.7768
菣	-12.777
痼	-12.7772
蔟	-12.7774
州里有千頭木奴不責汝衣食嵗上一	-12.7777
穠	-12.7778
初向黄時宜暖眠定宜微暖起齊宜温	-12.7778
菺	-12.7779
出五泉合流入桃林河又三里橋湧泉流	-12.778
耙耬之令熟足蹋使堅平	-12.778
後榆莢盛時納種以次種大豆油麻等田	-12.778
譁	-12.778
厠	-12.7782
啜	-12.7782
郢	-12.7782
棗大而鋭上者為壺壺	-12.7783
燕河營湧泉成河及營東五泉	-12.7784
鑲	-12.7784
叄	-12.7785
而無毒供食之餘可為葅腊	-12.7785
得時之麻必芒以長疎節而色	-12.7786
相去一指布蠶一箇取臘月所藏菉豆水	-12.7786
六月六日種葵中伏以後可種冬葵	-12.7786
大眠起燠宜頻除蠶宜頻飼或	-12.7787
􁋵	-12.7788
圮	-12.7789
燮	-12.7789
簇子若根則能療疾咸無棄材誠蔬	-12.7789
庣	-12.7789
了先耕蕎麥地次耕餘地務遣深細不得	-12.7789
米之精者斯古舂之制自杵臼始也	-12.7789
蠶欲老飼之宜細薄宜頻	-12.7789
五駑騮馬驪肩鹿毛	-12.7789
桷	-12.7789
氈	-12.7789
皆善馬也馬生墮地無毛行千里溺舉一	-12.7789
頰欲開赤長膺下欲廣一	-12.7789
而有細鋸齒開五瓣淡紫花如蒺	-12.779
地不厭良薄即糞之鋤不厭	-12.779
則無蟲以刀斧班駁敲打樹身則結實此	-12.7791
冬至後一百一十日可種稻稻地美用種	-12.7791
剨	-12.7791
一駑長頸不折二駑短上長下三駑大髂	-12.7791
下齒欲鋸鋸則怒頷下欲深下	-12.7791
之小筋馬也望之小就之大肉馬也皆可	-12.7791
任為簸箕五條一錢	-12.7791
口中欲得紅而有光此馬千里馬上齒欲	-12.7791
輪相發也疾徐之數與他輪相視者如乙	-12.7791
馬頭為王欲得方目為丞相欲得光脊為	-12.7791
箑而卧軸為之轉接輪與	-12.7792
回豆又名那合豆生田野中莖青葉似蒺	-12.7793
坨	-12.7793
㮚	-12.7793
著切見世人耕了仰著土塊並待孟春	-12.7793
每經一雨輒欲杷勞苗	-12.7793
苗長三寸杷勞而鋤之鋤	-12.7793
撒之隨撒隨行約行三	-12.7793
衂	-12.7793
起齊投食一復時可三頓第一頓宜薄	-12.7793
靭	-12.7793
得大目大則心大心大則猛利不驚目四	-12.7793
江南地下多雨上霖下潦劖刈之際則必	-12.7793
百里牙劒鋒則千里嗣骨欲廉如織杼而	-12.7793
相其餘大頭小頸一羸弱脊大腹二羸小	-12.7793
繵	-12.7793
藏法肝欲得小耳小則肝小肝小	-12.7793
乾者易之灰不復濕乃止然後削去四畔	-12.7794
則㸃種其餘粟豆麻小麥之類亦用漫種	-12.7794
㱿	-12.7794
許即再料取務要布種均匀則	-12.7794
擬人客作餅及作香粉以供粧摩身體	-12.7795
文杏實大而甜核無文采	-12.7795
仄	-12.7795
瓨	-12.7795
縭	-12.7795
溉田數頃此一水輪可供數事其利甚博	-12.7795
為米六斗大半斗曰粲又曰糲	-12.7795
秋夏候水盡地白背時速耕杷勞	-12.7795
作香粉法唯多著丁香於粉合中自然	-12.7796
三四尺莖方窊面四楞對節分生枝	-12.7796
隨掩過覆土既深雖暴雨不至	-12.7796
之開圍板之下端而水入之開上端之圓	-12.7796
以杵築之令可居澤相去一	-12.7796
則用之是者暑日架之則以苫蓋之水入	-12.7796
圍也既其出則在卯寅辰午之間矣一法	-12.7796
者孔在環之内軸之外四柱之中	-12.7796
則至八月九月詩云十月穫稻齊民要術	-12.7796
南方水地多種稻秫早禾則宜早	-12.7796
霜降穫之此皆言晚禾大稻也故稻有早	-12.7796
癖	-12.7797
與土糞合澆之水二升所乾處復澆之著	-12.7797
以作燭致明一本三實一區十二實一	-12.7797
秖	-12.7797
亢之間是也雖下向必入者以迤故水趨	-12.7797
利中未有此制今特造立庶臨流之家以	-12.7797
暑日也為下而欲速成則用之欲解而時	-12.7797
淤為沃壤用浙人之法築堤捍水為田	-12.7797
瀕海數千里北極遼海南濱青齊萑葦之	-12.7797
窰	-12.7797
置輪軸以水激之一如水磨日夜所破	-12.7797
者餘悉搯去引蔓結子子外之條亦	-12.7797
三月上旬傍雨種之麻生布葉鋤之率九	-12.7797
初向黄時宜微暖眠定宜温	-12.7797
樹三升無蠶矢以溷中熟糞糞之	-12.7797
立輪立輪之外有受水之箑也今	-12.7797
絜	-12.7797
拿	-12.7797
周禮曰㮚氏為量改煎金錫則不耗	-12.7798
而窄小微尖開淡粉紫花結小角其豆似	-12.7798
隴底欲土實種易生也今人製造砘車	-12.7798
澗谷間種之地欲極良秋上楮子熟時多	-12.7798
薄窄又似花楸樹葉却少花	-12.7798
賖	-12.7799
如葉少去秋所收桑葉再	-12.7799
平旦收聚堆積之還依前布之	-12.7799
食宜薄一復時可四頓次日可漸加葉	-12.7799
文用蠶矢二百石牛耕功力直二萬六千	-12.7799
開花紫碧色頗似牽牛花秋後結子	-12.7799
葉黄鋒出則辮於屋下風	-12.7799
壟作訖又以鍬掘底一坑作小塹	-12.7799
熟至正月二月中以犁作壟一壟之中以	-12.7799
風戒寒趣練縑帛染綵色	-12.7799
後循隴碾過使根土相	-12.78
耐旱且便於撮鋤今燕趙間多用之	-12.78
是也若兩中環者則在尾與箕也或不用	-12.78
環以繩約之而塗之齊與劑同合以塗	-12.78
有赤黍米黄而黏可蒸食白黍釀酒亞於	-12.7801
槅	-12.7801
琪	-12.7801
左腋間右手料取而	-12.7801
拌葉匀飼解蠶熱毒絲多易繰堅韌有色	-12.7801
不復長且厚八月微霜下收取掘地深一	-12.7801
五年有積蓄命以官就所儲給以	-12.7801
去之取第四五六區留三子即足旱時	-12.7801
擡大眠分如折二錢大布滿二十五箔	-12.7801
畸	-12.7801
萸	-12.7801
之端或居外或居内為刻而受之如為溝	-12.7801
十日出黄色好破以為瓢其中白膚以養	-12.7801
檩	-12.7801
環之束在兩端者與木環相抵卯午也	-12.7801
葹	-12.7801
薟	-12.7801
儂	-12.7801
磨木齒此磨既轉其齒復傍打帶齒二磨	-12.7801
雖枯亦不羸瘦母乳適盡即得	-12.7801
之以夏至前十日下子亦鋤兩	-12.7801
利後世加巧因借身重以踐碓而利十倍	-12.7801
次之髻欲桎而厚且折季毛欲長多覆肝	-12.7801
紏	-12.7801
縢	-12.7801
連根取出就地鋪穧頗乾輕振其土以茅	-12.7801
兩端皆有接輪今以其一交	-12.7801
亦遶大樹掘坑取栽移	-12.7802
以實置孔中令底下向瓠一行覆上土厚	-12.7802
便是先將生苧麻折作二尺五寸長不斷	-12.7802
資欲善其事先利其器	-12.7803
下澤車田間任載車也古	-12.7803
大車考工記曰大車牝服二柯鄭	-12.7803
調習器械務令快利秣飼牛畜	-12.7803
喁	-12.7803
喝	-12.7803
禾稼春生人必加功焉故五	-12.7803
凍稍甦乃用此器剗土而耕草根既斷土	-12.7803
同按圖視譜當自考索羅因水力互擊	-12.7803
竹笋八月生盡九月成都有之	-12.7803
羅隨水磨用之其機與水排	-12.7803
賅	-12.7803
則徒勞無益矣凡地除種麥外並宜秋耕	-12.7803
則澆比及蠶生可澆三次其葉自然早生	-12.7803
有不同有用耙而不知用勞有用勞而不	-12.7803
欺地則所種不失其時人欺苗則省力易	-12.7803
磨具七日遂作麴及曝經書與衣	-12.7803
絁	-12.7803
脢	-12.7803
之俗居常積榖儉以足用雖間有	-12.7803
其髙田種者不求極良惟須廢地	-12.7803
懦	-12.7803
種訖拖瓶擺之或以輕鈍碾過秋深子熟	-12.7803
粕	-12.7803
乙輪即以卧軸之接輪交	-12.7803
以餓又必待後者動起而飼之多病少絲	-12.7803
央足踐之旱數澆之萁爛芋生子皆長三	-12.7803
岔	-12.7803
得少食以接氣血也以後者方眠勒其食	-12.7803
譲	-12.7803
有漫種耬種瓠種區種之别漫種者用斗	-12.7804
勢量物力相大小而制徐疾焉今圖樞輪	-12.7804
木甑中蒸過趂濕剥下	-12.7804
桑具也用木礩上仰置叉股髙可二三尺	-12.7804
皮如常法水潤緝搓如前麻	-12.7804
二日不得揉搓再蘸濕了於乾灰内周徧	-12.7804
侈費妄用以快一時之適所	-12.7804
榖粟耗竭無餘一遇小歉則舉貸出息	-12.7804
二三尺莖方窊面四楞對分莖叉葉	-12.7804
治令淨五月中新雨後即接濕耬耩拔栽	-12.7804
綈	-12.7805
佞	-12.7805
三日抒出之粉黍米作粥清	-12.7805
今俗謂之板轂車其輪用厚	-12.7805
暹	-12.7805
相嵌斵成圓様就留短轂無有輻也泥淖	-12.7805
箱即此車也周禮車人行澤者反	-12.7805
瀧	-12.7805
田家小渡舟也或謂之舴艋	-12.7805
維以竹草之索各倍其長過者掣索	-12.7805
麂	-12.7805
宜撻之打令土實也今當耕種用之故附	-12.7805
之下即移羸速鋒之也	-12.7805
割則不長加火煮之以水淘浸或炒爁或	-12.7805
宜中列三輪各打大磨一槃磨	-12.7805
暑中向秋節浣故製新作	-12.7805
栽如桃李法林檎樹以正月二月中	-12.7805
耙勞之末然南人未嘗識此	-12.7805
腄	-12.7805
黴	-12.7805
各庚心也以八平分之一為度者謂以甲	-12.7805
含重膚軀充儲草	-12.7805
嚥	-12.7805
如簾即將機軸掉轉搧之糠粞既去乃得	-12.7805
拓	-12.7805
樞之頂心者即樞直也如將自轉者	-12.7805
罐盛貯標記名號	-12.7805
而方尾欲減本欲大脅肋欲大而	-12.7805
薄板或糊竹為之復有立扇卧扇之别各	-12.7805
間結小青子比灰菜子	-12.7805
二實足供美燭之費也	-12.7805
兩斛日省二工以嵗月積之知非小利	-12.7805
名角蒿一名莪蒿一名蘿蒿	-12.7805
春多風旱非畦不得且畦者	-12.7805
汋	-12.7805
端為可惜故蠶經云眠起	-12.7805
良故墟彌善薄即糞之不	-12.7805
芁	-12.7805
関	-12.7805
菡	-12.7805
碌	-12.7806
啇	-12.7806
枯則食如欲出子留食不盡者地凍時出	-12.7806
者軸與樞當受轂之處也辰入樞之空也	-12.7806
辛味五月園枯此菜獨茂故又曰主園菜	-12.7806
几或用夾南方蠶無大小切桑俱用碪也	-12.7806
凶年也謹計家口數種大豆率人五	-12.7806
如前不計次數惟以潔白為度灰	-12.7806
深開溝壠洩水水浸根必死三年後收茶	-12.7806
蠶沙澆擁之又不可太多恐根嫩故也大	-12.7806
金稜銀線素根紫稭莖	-12.7806
别作小坑貯藍澱著坑中候如强粥還出	-12.7806
樞之頂心為度次去乙	-12.7806
方寸許内鹽於其中一夕子皆自落	-12.7807
擬種之地必須春種菉豆五月	-12.7807
杏多實不蟲者來年秋禾	-12.7807
鹽水中洗菜即内甕中若先用淡水洗者	-12.7807
氷雪連夏亢陽徒道秋耕不堪下種	-12.7807
莛	-12.7807
下欲平有八字腹下毛欲前向腹欲大而	-12.7807
布菜一行以䴷末薄坌之即下熱粥清重	-12.7807
撐	-12.7807
齒多則其出水也必疾矣故曰輪者所以	-12.7807
損米或人或畜轉之謂之礱磨復有畜力	-12.7807
生莖細弱葉像女人指甲又似初生棗葉	-12.7807
走龍趐欲廣而長升肉欲大而	-12.7807
之木為四弧弧各加	-12.7807
五十石及百石薄田尚三十石	-12.7807
八分者平分度也軸之兩端卧其軸各作	-12.7807
其本身無銖兩之重且交纒相發可以	-12.7807
忌食濕葉忌食熱葉蠶初生	-12.7807
扇集韻云颺風飛也揚	-12.7807
文百樹得柴一載合柴六百四十八載	-12.7807
棋	-12.7807
法作螺旋線也若作四槽者又平分庚午	-12.7807
瀉一名芒芋一名鵠瀉	-12.7807
焉今立一試法視一圖軸兩端諸分線以	-12.7807
甲過心線依法分之即上下合也次	-12.7807
種欲牛遲緩行種人令促步以足躡	-12.7807
線俱為一直線也求正尚有軸端諸線可	-12.7807
至子外纒之至丑至寅至卯至辰斜纒軸	-12.7807
花如菊結實頗似鶴蝨科苗味苦性寒有	-12.7807
葉間開花深黄色又有一種苗葉似芥葉	-12.7807
蓌	-12.7807
觤	-12.7807
雙溝者則平分庚丑線得午從午外上向	-12.7807
一切草木根科新栽之後皆惡	-12.7807
忽泥青衝天棒雉子青鴟脚	-12.7807
檠	-12.7807
田築為堤塍而出之計日可盡是不憂潦	-12.7807
竟軸而止則得一螺旋線也單線則為單	-12.7807
結嘴不食而眠如人之大病周身之	-12.7807
虇	-12.7807
隴様梢出細葶開小黲白花結小青蓇葖	-12.7807
蓉	-12.7808
炤	-12.7808
生田野間其苗初搨地生後分莖	-12.7808
者當在甲乙丙矣用水力當在戊	-12.7808
堪緝為度水潤緝績紡作纑生	-12.7808
如本篇三圖之卯寅辰午等是也環以堅	-12.7808
從石榩從木即木碪也碪截木為碢圓形	-12.7808
煩用力少而得水多其大者一器所出若	-12.7808
皆平行皆相等也墨為之弦者從庚向癸	-12.7808
覷要識灰性及火候𦂳慢次用	-12.7808
軸之上因各螺旋之繩而立之	-12.7808
錢六萬四千八百文都合	-12.7808
之儲莫不各節其用以濟凶乏此固知堯	-12.7808
小肉紅花結蒴有子似小桃紅子苗葉味	-12.7808
擺故用土壁遮禦北風迎合日色	-12.7808
極大五花叉鋸齒尖其後葉中分生莖叉	-12.7808
渠焉累接而上可使在山是不憂	-12.7808
獨行菜又名麥稭菜生田野中科苗	-12.7808
線附木皆平直是為八平分軸之周如立	-12.7808
葰	-12.7808
衾	-12.7809
又一種謂之天花桑樹上生者呼為桑莪	-12.7809
妬	-12.7809
十五日薄滋味勿多食肥醲距立秋無食	-12.7809
毖	-12.7809
七置者因地勢也量物力也相大小而制	-12.7809
兩端者丙與戊是也在軸之兩端者乙與	-12.7809
挐	-12.7809
穯	-12.7809
䘏	-12.7809
揫	-12.7809
然後可視梯檻長廣得所制雖不等道路	-12.7809
移連入蠶房就地一箔上單鋪少間	-12.7809
藥苗謂之山猪其肉為上江北陸地可種	-12.7809
見於書傳至今不替其用為不負紀錄矣	-12.7809
九槽者先分軸為九平分欲作五槽十槽	-12.7809
先分軸為十平分依法作之二曰	-12.7809
六約畧作之非定率也趣欲使兩輪之交	-12.7809
即兹器所在不為無功已獨其人終	-12.7809
大澤平曠而用風此不勞人力自轉矣枝	-12.7809
天氣濕潤時不透風處或地窨子中	-12.7809
夾之小者若蠶多之家乃用長椽二莖駢	-12.7809
常得數人之功又向所言風與水能敗龍	-12.7809
經織為佳若風日髙燥則纑縷乾脆難織	-12.7809
織必先以油水潤苧及潤纑經織成生布	-12.7809
繖	-12.7809
者無鶴膝無斗板器居水中環轉而已湍	-12.7809
而南土水田支分櫛比國計民生于焉是	-12.7809
長以兩環約之圍之版其相合也與其合	-12.7809
之圓外面者圍既合而削之當	-12.7809
之用餘多者倉箱之富餘少者儋	-12.7809
之間成螺旋之溝水從溝行而	-12.7809
二尺餘就地叢生葉似酸漿子葉	-12.7809
五徧為良七月中作坑令受百許	-12.7809
以樞之短長稱之八分其軸長以其一為	-12.7809
凡五榖地畔近道者多為六畜所犯	-12.7809
凡黍黏者收薄穄味美者亦收薄難舂	-12.7809
則後輕而前落即為一舂如此晝夜不止	-12.7809
又似白芷葉亦細又如園荽葉	-12.7809
叨	-12.7809
可選低處置碓一區一如常碓之制但前	-12.7809
大也為蛹為蛾則變之尤大而至	-12.7809
嫩葉煠熟換水浸去辣氣作成黄色淘洗	-12.7809
宜於園地北畔秋耕令熟至春榆莢落時	-12.7809
小色青味極辛辣其葉味甜	-12.7809
廣而合之則角見也其内面稍刳之以就	-12.7809
時移栽小桑微帶根鬚上無寸土但經路	-12.7809
栽後難活縱活亦不榮旺	-12.7809
槽水滿則後重而前起水	-12.7809
泥難治而易荒墝埆而殺種	-12.7809
煙熏黄樂婢青平夀黄鹿橛白鹺折	-12.7809
菜生田野中莖葉俱深萵苣色葉似大藍	-12.7809
隂地種之陽中則少實足霜色殷然	-12.781
在不搓揉了麻之骨力好灰水蘸	-12.781
多比之南布或有價髙數倍者真良法也	-12.781
孔等孔之上為之舌以掩之舌之制如筩	-12.781
密相等焉長短相入焉相	-12.781
有草鋤之不厭數多治芋如此其收常倍	-12.781
無用輪方其樞之末别為衡衡之一端入	-12.781
銅以為砧圜者中規方者中矩砧之大入	-12.781
之善也八分之一者如軸長八尺則	-12.781
以受雨露也圍其合也欲無罅圍之合	-12.781
似王不留行子味辛苦性	-12.781
其廣一寸以上視圍徑之小大	-12.781
功出水當五分之一今省十九焉是不憂	-12.781
如軸長一丈則徑八寸如本篇第一軸立	-12.781
寅盤足也若欲為雙升之車則雙筩焉如	-12.781
熟時收取子和濕沙土拌筐籠盛之穰草	-12.781
爾即凍不生至二月中出種之於樹下或	-12.781
田一頃能自染青者其利又倍矣	-12.781
種芋區方深皆三尺取豆	-12.781
等名目皆是葉生形容之所象似以此時	-12.781
者軸之長當一丈五尺也凡作軸皆度岸	-12.781
琦	-12.7811
猝	-12.7811
二百里十二者千里過十三者天馬萬乃	-12.7811
砢	-12.7811
餦	-12.7811
餭	-12.7811
滿善走名曰下渠日三百里陽肉欲上而	-12.7811
月晦日復打之亦足子也	-12.7811
餲	-12.7811
者甲與庚是也若車大而軸長出水之地	-12.7811
星主倉史記天官書胃為天倉此名著	-12.7811
濠	-12.7811
豆胡麻糴穬大小麥收弊絮及布帛至後	-12.7811
􁗰	-12.7811
又可湯泡以配茶茗實菜中之有異味者	-12.7811
大如杯盂溝上通尾本者蹹殺人馬有雙	-12.7811
弓弩繕理檠鋤正	-12.7811
方孔也庚辛壬癸方筩也壬癸其	-12.7811
朝之杷朳正人國之埽篲秉杷執篲除	-12.7811
欲促而大其間纔容靽烏頭欲	-12.7811
欲曲而立臂欲大而短骸欲小而長	-12.7811
熟時少有人馬傷踐以此校之甚宜多種	-12.7811
眺	-12.7811
長二百四十步為畝百畝為頃	-12.7811
三月既績出蛾取卵七八	-12.7811
不實下種後雖見苗立根在	-12.7811
偏廢然後治田之法可得論其全功也	-12.7811
其蟲羽其音徵律中	-12.7811
凡輪皆以他輪之齒發之其疾徐之數	-12.7811
方可耕地恐掩寒氣在内令地薄不	-12.7811
楥	-12.7811
之八平分長線為直角如立柱	-12.7811
之間謂之溝溝水道也水行溝中而	-12.7811
也其編之也欲密而平也其塗之也欲	-12.7811
以相民宅而知其利害以阜人民以	-12.7811
入可以倍多財計可以倍足方	-12.7811
其長酌全體之重輕而制厚薄焉其長竟	-12.7811
北土處處有之其木堅勁皮紋細	-12.7811
和麻籸糟糠之類飼之半日後當大	-12.7811
子打油燃燈甚明或熬油以油諸物	-12.7811
待瘡口乾平復後取巴豆兩粒去殻爛	-12.7811
打水土成泥就碾草禾	-12.7811
柱依螺旋之線而立之每立一柱即與軸	-12.7811
水調灌隔時再服結	-12.7811
濁水則麻黒水少則麻脆生	-12.7811
玂	-12.7811
畔近道者亦可另種蘇子以遮六畜傷踐	-12.7811
者周禮樹八尺之臬縣八繩下垂皆附	-12.7811
藑	-12.7811
頻飼以督其後者使之相及而各取其齊	-12.7811
一復時可六頓次日可漸漸加葉可開捲	-12.7811
周禮倉人掌粟入之藏此名著於公府者	-12.7812
天象者禮月令曰孟冬	-12.7812
焉如本篇一圖甲乙丙丁圓筩也丙丁其	-12.7812
凡秋耕欲深春夏欲淺犂欲亷	-12.7812
取之柱實取之柱其砧入	-12.7812
水而升降焉其長之度下及	-12.7812
辛卯管也辰午未申之屬環也環之多寡	-12.7812
長一用短用長者為實取之柱用短者為	-12.7812
一色白苧麻水潤分成縷	-12.7812
勿熟漚只經生纑論帖穿苧如常法以發	-12.7812
布子潔白而已雖曰蘸	-12.7812
用之竊計人力可以半省天災可以半免	-12.7812
細任意旋緝旋搓本俗	-12.7812
之外削版而圍之版欲無厚	-12.7812
之灰簸揚之糠粃斷藁落葉	-12.7812
也恒升者一升一降而得水一也架法見	-12.7812
令没熱時一宿冷時再宿漉去荄内汁於	-12.7812
圍故水入螺旋之孔而不絶無罅故水行	-12.7812
地槐菜一名小蟲兒麥生荒野中苗	-12.7812
如葵其根獨而直其樹不貴乎髙長其枝	-12.7812
曰力一水二者一升一降各得水一焉無	-12.7812
為環而約之長者中分圍之長以	-12.7812
箕是也三曰壺鍊銅以為壺壺之容半加	-12.7812
赭	-12.7812
酉亥之間為正方之空夾筩而	-12.7812
量水淺深者下文言句四股三弦五則岸	-12.7812
􁂶	-12.7812
蔾	-12.7812
赤白紫烏堅鬆香否	-12.7812
燦	-12.7812
洛山谷今鈞州鄭州山野中亦有之	-12.7812
艋	-12.7813
髀欲廣厚汗溝欲深明直肉欲方能	-12.7813
塗盤上或盆中盛暑日曝	-12.7813
每耕一徧蓋兩徧最後	-12.7813
雖膏潤根復細小七月初種根葉俱得	-12.7813
些	-12.7813
仲夏之月遊牝别羣則縶騰駒	-12.7813
颯	-12.7813
到夏五月則任啖故俗五六月則烹食之	-12.7813
洎	-12.7813
生葉莖端開金黄色盞子様花其葉味酸	-12.7813
粞	-12.7813
不一耕水田曰瓦繳曰髙脚耕陸田曰鏡	-12.7813
今並載之使南北通知隨宜而用	-12.7813
便剖卵蠶生多養之是為	-12.7813
其數七其味苦其臭焦其祀竈祭先肺	-12.7813
大蹄欲得厚而大踠欲得細而促	-12.7813
存問九族孤寡老病不能自存者分厚	-12.7813
水之淺深常令塊墢半	-12.7813
皆得長八九寸長澤民家盡養黄苦竹永	-12.7813
窖繕五兵習戰射以備寒凍窮厄之	-12.7813
而不種坐致泯滅悲夫	-12.7813
遄	-12.7813
之掉枝而首為圓孔焉以掉枝之圓孔入	-12.7813
以來盛資龍骨龍骨之制日灌水田二十	-12.7813
以離舊地另作一行子既不損又速	-12.7813
作神而化之使民宜之故謂之神農典語	-12.7813
其直如弦循此布秧了無欹斜猶梓匠之	-12.7813
具也用堅大四木各圍可五尺長可丈餘	-12.7813
度視廣之度殺其十之二當其弇而設之	-12.7813
形稍深且大旁有木柄長可三尺上置釤	-12.7813
撮苗後用一驢帶籠觜挽	-12.7813
此升則彼降用力一而得水二也是倍利	-12.7813
江南地下易於得泥故用輥軸	-12.7813
漚之爛去青皮取其麻片潔白如雪耐水	-12.7813
煠熟水浸作成黄色淘去涎沫油鹽調食	-12.7813
爛可織為毯被及作汲綆牛索或	-12.7813
用則執柄就地推去禾莖既斷上以蛾眉	-12.7813
茶褐色對分莖叉葉亦對生葉似	-12.7813
近上則水竭故柱之短長宜量水深與井	-12.7813
間攛葶開紫花結三瓣蒴兒中有子如芥	-12.7813
頭出牆者虎狼不敢踰	-12.7813
一女不織民有寒者古謂庶士以下各衣	-12.7813
具也凡稻皆下地沮濕或遇雨潦不無渰	-12.7813
出焉治水之法淺涸則挈水而入方舟焉	-12.7813
初向黄時宜極暖眠定宜暖起齊宜微暖	-12.7813
地法不宜此係拙謬今後應栽小樹若路	-12.7813
平隔宿用水飲畦明旦細齒	-12.7813
愆則有辟是也凡紡絡經緯之有數梭	-12.7813
濬則挈水而出畚鍤焉不有水之器不	-12.7813
相和於葫蘆内㸃種過處用箒掃	-12.7813
箝禾具也揉木為之通長五尺上作	-12.7813
而至日夜精思不致差	-12.7813
股長可二尺上一股微短皆形如彎角以	-12.7813
花生荒野中紫莖葉似初生桃葉光俊色	-12.7813
閨閫之屬務之不惟防閑驕逸又使知其	-12.7813
預於栽所掘區下糞樹到之時	-12.7813
餘樹通為一束於根鬚上蘸沃稀泥泥上	-12.7813
騁	-12.7813
髂	-12.7813
餡	-12.7813
也左傳樂喜陳畚梮注云畚簣籠集韻作	-12.7814
或負土或盛物通用器也	-12.7814
晉書王猛少貧賤嘗鬻畚為事	-12.7814
房前有簷楹謂之明厦倉為總名	-12.7814
一人足供百家之聚矣且不	-12.7814
一尺許莖梗細弱葉似牡丹葉	-12.7814
上之兩足後踏屋壁以胸前向壓住兩手	-12.7814
五葉排生一莖開白花結子大如豌豆熟	-12.7814
山野中小科苗就地叢生苗	-12.7814
徑以其四為孔之徑若方筩而圜孔七分	-12.7814
麻大豆並鋤兩徧止亦不厭早鋤	-12.7814
搨地布葉葉似野天茄兒葉	-12.7814
撒種而生所種之子初収者未實近霜者	-12.7814
此樹條直異於常材十年之後無所不任	-12.7814
法春月先於熟地内東西成行匀稀種	-12.7814
為大積積之視農功稍隙解束以旋旋鑱	-12.7814
盡其變不盡方來或者無煩覼縷焉龍尾	-12.7814
紋皺梢間開粉紅花結子如小粟粒	-12.7814
而薄翻覆可使老農云開墾生地宜用鑱	-12.7814
輪輪者所以受轉也六曰架架者所以制	-12.7814
鏵與鑱頗異鑱狹而厚惟可正用鏵	-12.7814
之召田主勞以酒食有蠶麥善	-12.7814
鋤治自相率領樂事趨功無有偷惰間有	-12.7814
䓗	-12.7814
僱	-12.7814
得平而廣能負重背欲得平而方鞍下有	-12.7814
洚	-12.7814
淹一沸即漉出盆研之生布絞取濃汁	-12.7814
種瓠法收種子須大者若先受一斗者得	-12.7814
撑	-12.7814
箔上已後節節病生多因此弊今後比及	-12.7814
軛相為本末不與犂為一體故復表出之	-12.7814
繭館皇后親蠶之所古公桑蠶室也	-12.7814
豫州厥土惟壤下土墳壚厥田惟中上	-12.7814
軏	-12.7814
髭	-12.7814
晝合夜開者名守宫槐葉細	-12.7814
艾草菅注艾讀曰刈古艾從草今刈從刀	-12.7814
鎧	-12.7814
鮦	-12.7814
黄花結實似豆角狀味苦酸鹹性寒無毒	-12.7814
令大旱能救一夫之田數家共井亦可無	-12.7815
剜土既多其鋒必秃還可鑄接貧農利之	-12.7815
口微低又相去七八尺外安一臺髙五尺	-12.7815
大抵秋耕宜早春耕宜遲秋耕宜早者	-12.7815
孔孔之方圜反其筩若圜筩而方孔七分	-12.7815
易鏵耕熟地見功多然北方多用鏵南方	-12.7815
澤蒜可以香食呉人調鼎率多用此根	-12.7815
煿	-12.7815
竈比圓壘低一半揜火透	-12.7815
筩短長斟酌焉而為之數筩之下端為之	-12.7815
與揜火相對圓壘匝近上開	-12.7815
一區收三石又種芋法	-12.7815
不截尾則前大後小犍者骨細肉	-12.7815
之孔之徑盤之下為鼎足而置之井	-12.7815
以右手執之復於釤旁以繩牽短軸	-12.7815
則不匀非匀則偏食然葉	-12.7815
又名浙碓今多於津要	-12.7815
山野中細莖就地叢生葉似豇豆葉而	-12.7815
復時可至四十九頓第二日飼至三十頓	-12.7815
抺	-12.7815
擱	-12.7815
文曰耒手耕曲木從木	-12.7815
曰神農氏作斵木為耜揉木為耒	-12.7815
木約二尺許兩端各穿小輪圓轉中嵌	-12.7815
為成人遂好耕農相地之宜宜榖者稼穡	-12.7815
疼	-12.7815
石壓之或兩竹竿刺定	-12.7815
篘内堈既圓滑米自翻倒	-12.7815
紅色結小細子根如蒿根苗葉味苦性平	-12.7815
若大者而欲無用輪則以兩掉枝同加	-12.7815
蠒	-12.7815
賣縑帛弊絮糴粟豆麻子	-12.7815
軸而得一螺旋之墨因螺旋之墨而立之	-12.7815
輾世呼曰海青輾喻其速也但比常輾	-12.7815
辟霧氣或用稭稈於樹上四散絟縛亦得	-12.7815
近水處和柔糞之二月注雨可種芋率二	-12.7815
雜飼之特為省力易得肥腯前後分别	-12.7815
黄張蟻白耿虎黄都	-12.7815
二月三月四月五月時雨降可種之	-12.7815
作槽其下用厚板嵌作底槃槃上圓鑿小	-12.7815
狀仍隨鄉約㑹聴講夫	-12.7815
緒一綜之交各有倫叙皆須積勤而得累	-12.7815
至春凍釋於山陂河坎之旁刈取箕	-12.7815
莃	-12.7815
鼕	-12.7815
癥	-12.7815
李性耐久樹得三十年老雖	-12.7815
揚雄以為蒲器然南方以蒲竹北方用荆	-12.7815
控於耬之下桄其金入地三寸許	-12.7815
之生者均熟不畏嚴霜從本至末全無秕	-12.7815
火災木又不蠧可為永法	-12.7815
積所在内外材木露者悉宜灰泥塗飾以	-12.7815
上端為之管管外出而下迤也本廣而末	-12.7815
井量井淺深筩長短而置之近上	-12.7815
其圜中規其方中矩而上下等筩之周以	-12.7815
玉衡之雙筩與中筩為二此則合之筩入	-12.7815
餓流亡之患若資飲食則童	-12.7815
之而轉之水則自螺旋之孔入也水之入	-12.7815
人參苦參可作沐藥不入湯	-12.7815
向下裁切此桑夾之大者南方切	-12.7815
榖殻朽腐最宜秧田	-12.7815
水得一道焉或二之或三之四之以上同	-12.7815
生刺䕷花葉而小枝梗色紅有刺似棘針	-12.7815
生物不如古之多人之謀事不如古之智	-12.7815
百步平治路上車轍務要平坦不令車輪	-12.7815
藁爛積晚則耗損連雨則生耳	-12.7815
螺溝螺溝者水道也軸得一墨焉則得一	-12.7815
一年可為深惜古人云木奴千無	-12.7815
去堪為渾心扶老杖	-12.7815
名鬭牛兒苗生田野中就地拖秧	-12.7815
坭	-12.7815
待地白背耬耩漫擲子空	-12.7815
本篇一圖酉戌亥角是也其	-12.7815
用江河之水為器一種龍尾車記	-12.7815
粿	-12.7815
藍非獨可染青絞其汁飲之	-12.7815
檎	-12.7816
球	-12.7816
每天雨時即觸雨折取春生少枝長	-12.7816
䐊	-12.7816
重頷欲折胸欲出臆欲廣頸項欲厚而强	-12.7816
椌	-12.7816
个	-12.7816
屬雖不經夏用六七月中各須一曝使乾	-12.7816
朱本和油性潤耐日故盛夏連雨土氣蒸	-12.7816
火内燒棗一二枚先將蠶	-12.7816
制稍短駕一牛或二牛故與犂相連今各	-12.7816
或三牛四牛其槃以直木長可五尺中置	-12.7816
盱	-12.7816
稀連必頻移生盡之後再秤空連便知蠶	-12.7816
下上之也七曰架架者所以居庶物也七	-12.7816
赤削驢蹄令出漏孔以蹄頓著磚孔中	-12.7816
鑿厚磚石令容驢蹄深二寸許熱燒磚令	-12.7816
閈	-12.7816
髙平曰陸大陸曰阜大阜曰陵大陵曰阿	-12.7816
䔩	-12.7816
䕺	-12.7816
之本故也若為民牧者當先知愛重祈報	-12.7816
也嘗見北地芟取蕎麥亦用此具但中加	-12.7816
來生也其居東北角者老竹種不生	-12.7816
凜	-12.7816
勿用麥稭一日一擡失擡多生白醭	-12.7816
好直枝如大母指長五	-12.7816
孔融論水碓之巧勝於聖人	-12.7816
宻泥勿使風入漏氣過立秋然後開	-12.7816
嵗之後自當滿園諺云東家種竹西家治	-12.7816
形如偃月用木柄長可七尺首	-12.7816
徑相盆之大小當中壘一小臺	-12.7816
恒潤澤而不堅硬乃至冬初	-12.7816
患枯旱若牛力少者但九月十月一勞之	-12.7816
截其疄洩利其水謂之腰	-12.7816
機碓水搗器也通俗文云水碓曰翻車碓	-12.7816
水深一寸餘便止以盆合頭良久水盡	-12.7816
江鄉櫃田内平而廣農人	-12.7816
生既齊取新葉用快利刀切極細	-12.7816
甬	-12.7816
相半桐油或漆和之取燥濕得宜而止累	-12.7816
箭頭草生田野中苗初搨地生葉似鈹	-12.7816
而糶之不使之傷民唐之義倉計墾田頃	-12.7816
豐年納榖而藏之凶年出榖以賙貧乏官	-12.7816
食經曰種名果法三月上旬斫	-12.7816
䡄	-12.7816
分其軸之長以其二為之徑木之圜必中	-12.7816
則貪生費力細則貪熟少功	-12.7816
可生若諸色種子年年揀	-12.7816
少則用喬扦雖大小有差然其用相類故	-12.7816
張公不喜聲伎見之未嘗笑獨見佳麥良	-12.7816
得米較之碢輾疾過數倍故比	-12.7816
滑石朴硝木通車前子	-12.7816
犒勞名為鋤社甚可效也今採摭南北耘	-12.7816
相等量水淺深每以三莖為數近上用篾	-12.7816
矣砧又下焉水將安之則由筩之管而升	-12.7816
粒蕃息也諺云坐賈行商不如開荒言其	-12.7816
細淺則務盡草根深則不至塞墢	-12.7816
縁新開地内草根既死無	-12.7816
舂或輾碾令爛上甑蒸過理草為衣貯之	-12.7816
菜子難生者皆水沃令芽生無不即生矣	-12.7816
陽物大惡水故蠶食而不飲	-12.7816
雨後又要調停犂道淺深	-12.7816
菜茹有畦𤓰瓠果蓏殖於疆	-12.7817
李衡於武陵龍陽洲上種柑	-12.7817
一同葵法及水散子訖水盡簁熟糞僅得	-12.7817
凡瀝青加蠟與桐油取和澤而止石	-12.7817
勸以致生不滋盛價失	-12.7817
收以水淘汰令淨曝乾散訖勞之草生拔	-12.7817
欲落時為熟旋熟旋摘隨即攤	-12.7817
此制故官民異屬復有圩田謂疊為圩岸	-12.7817
水與此相類雖有水旱皆可救禦凡一熟	-12.7817
率種數既多不可一一備舉凡不見者栽	-12.7817
近世利民之法如漢之常平倉榖賤則	-12.7817
霜降捩其葉使收液以美其實	-12.7817
丑卯辰筩上端也午管也餘見	-12.7817
本篇三圖之甲乙衡也丙丁兩石重也戊	-12.7817
滋茂繁盛與本土無異種之則深荷其利	-12.7817
瀝青和蠟依螺旋之線層層塗而積之累	-12.7817
為木杖如拐子兩手倚之以用力以趾塌	-12.7817
焉氣盡而水繼之故曰衡者所以挈提柱	-12.7817
田無荒穢嵗皆豐熟秋成之後豚蹄盂酒	-12.7817
疎而直葉豐而厚春蠶食之其絲以冷水	-12.7817
結實有三種形小者為猪牙皂	-12.7817
􁢖	-12.7817
愷	-12.7818
崎	-12.7818
謫	-12.7818
纚	-12.7818
但依此法除蟲災外小	-12.7818
㺯	-12.7818
分為度以度八繩之墨皆平	-12.7818
可當數人若以灌畦約省夫力五分之四	-12.7818
採筍之法視其叢中斜	-12.7818
有酥酪之饒毛堪酒袋兼	-12.7818
不若劖刀之輕且順也若南人	-12.7818
以油單覆之勿令見風風吹則堅筍味甘	-12.7818
佟	-12.7818
八月燥耕而熯之以種二麥其法	-12.7818
嬰兒小時失乳後必羸弱病生	-12.7818
性甚勁直堪為屋材折則折	-12.7818
日出後掘深土取之半折取鞭根旋得投	-12.7818
然木杵既輕動防狂迸須	-12.7818
牧潔其欄牢則無不字育蕃息	-12.7818
盆中研之生布絞取濃汁	-12.7818
紅花菜本草名紅藍花一名黄藍	-12.7818
能變惡為美種少收多諺云糞田勝如買	-12.7818
解布蠶蠶生至老大忌	-12.7818
訖即編為巴籬隨宜夾	-12.7818
説文曰榛似梓實如小栗衛詩	-12.7818
諏	-12.7818
跋	-12.7818
踐便溺成糞平旦收聚除置院内堆積之	-12.7818
野艾蒿生田野中苗葉類艾而細又多花	-12.7818
食品之中最為珍貴故禮云加豆之實筍	-12.7818
三江既入震澤底定是	-12.7818
中生隨時放牧糟糠之屬當日别與	-12.7818
以土宜之法辨十有二土之名物	-12.7818
凡北方種粟秋熟當速刈之	-12.7818
利澇則閉閘拒江水之害旱澇不及為農	-12.7818
包内另用淳泥固塞仍	-12.7818
器皆有便巧率十二夫為田一井一屋故	-12.7818
大者葉似槐葉瘦長而尖枝間多刺	-12.7818
婆婆枕頭生鈞州	-12.7818
惟所為之既畢以瀝青和蠟或和熟桐油	-12.7818
或擲日以萬數速於手挈可謂智勝力也	-12.7818
故堯禹有九年之水湯有七年之旱而國	-12.7818
末漿水煎沸候冷調灌應	-12.7818
柱之植欲堅以固也下柱居水中以	-12.7818
核初成時摘取夜以鹽汁漬之晝則日曝	-12.7818
栽枝記南北根深土逺寛掘	-12.7818
梢間開淡紫花似刺薊花苗葉味辣	-12.7818
正月以終季夏不可伐木必生蠧蟲或曰	-12.7818
水棘針苗又名山油子生田野中苗	-12.7818
澤漆本草一名漆莖大㦸	-12.7818
用之當以肥厚者為佳味辛鹹性	-12.7818
畆今燕趙多用之名曰劐子	-12.7818
稭穗隨擁積之有一杷畢功得麥十餘斛	-12.7818
罙	-12.7818
耬重耩竅瓠下之以批契	-12.7818
苗根之下則泥沃而苗興其功與芸	-12.7818
荆揚厥土塗泥農家皆用此法又有足	-12.7818
調放火燒之常逆風起火桑至春生一	-12.7818
貯泥土狀如小磨仍以竹木排為密齒破	-12.7818
開小青黄花結小細角似葶藶角兒葉味	-12.7818
開黄花結子如豆粒大色青白葉味苦	-12.7818
餘不惟本境足食又可	-12.7818
餹	-12.7818
霜雪十月内以水沃之以備冬食	-12.7819
一則束篠為之擁掃庭院制則叢長謂之	-12.7819
甚速凡汲於井上取其俯仰則桔橰取其	-12.7819
九月中候近地葉有黄落者速刈之	-12.7819
圍田築土作圍以繞田也	-12.7819
如槖籥之舌以樞合紐令丑卯之板恒加	-12.7819
欲深細第一徧鋤未可全深	-12.7819
江淮之間地多藪澤或瀕水不時渰没妨	-12.7819
中管之轉以車下直錢眼謂之鏁星	-12.7819
之費給無窮無怪乎有餘不足之不同也	-12.7819
也凡桑者欲得逺揚枝葉引近就摘故用	-12.7819
也庚辛壬癸山口之木也寅提柱也綴之	-12.7819
也迤南地分十月埋栽河朔地	-12.7819
其苗就地拖蔓節間生葉如指頂大葉	-12.7819
利累倍大凡陸地平田别無溪澗井泉以	-12.7819
北方村落之間多結為鋤社	-12.7819
又可以易換諸物若能多廣栽種不惟無	-12.7819
年中即髙一丈餘其旁生枝葉即搯去令	-12.7819
望海之桑種之術與白桑同	-12.7819
次用水淘過子粒堆於濕地上	-12.7819
正月自朔暨晦可移諸樹竹漆桐梓松	-12.7819
目桑蝦蟇眼榆負瘤散自餘雜木	-12.7819
相其土宜擇而用之以盡鋤治之功也	-12.7819
結子如菉豆大熟則黄茶褐色其葉味甜	-12.7819
置布於上以灰飲汁如作米粉法汁盡	-12.7819
蓼藍但可染碧不堪作澱藍一	-12.7819
陂野池也塘猶堰也陂必有塘故曰陂塘	-12.7819
夬	-12.782
篸	-12.782
年後根相交根交則不旺春時	-12.782
大將壓成栽子圍别園如前法栽	-12.782
舌之開闔而止以其聚合	-12.782
云引竹法隔籬埋貍或猫於	-12.782
人見漆器暫在日中恐其	-12.782
拴	-12.782
籟	-12.782
開花白色結實黄白色作細筒子蒴兒	-12.782
也井上立架置軸貫以長轂其頂嵌以曲	-12.782
卵卵七日又剖成蠶多養之此則愛蠶也	-12.782
帚今作箒又謂之篲集韻云少康作箕	-12.782
愛珍亦呼愛子績成繭出蛾	-12.782
暖知時開掯得法使之莫有先後	-12.782
氣折其出勢得三七日然後剖生養之謂	-12.782
洗者鹽醋浸潤氣徹則皺器便壞矣其朱	-12.782
竇泄水器也又名函管以瓦筒兩端牙鍔	-12.782
朘	-12.782
正月可種豍豆二月可種大豆又曰三月	-12.782
用斫而劖之故曰釤用如鏺也亦曰鏺其	-12.782
磔	-12.782
須待白背濕撻令地堅硬故也	-12.782
不敢慢易絶其妄殺憫其羸瘠豐其	-12.782
亦其時也然則凡木有子實者候其子實	-12.782
其上久雨之際比於積垜不致鬱	-12.782
其數九其味辛其臭腥其祀門祭先肝	-12.782
南方水田泥耕其田髙下濶狹不等以一	-12.782
夐	-12.782
就畦内將已種出荆桑隔年芽條去地	-12.782
平田野小民嵗多租賃以	-12.782
房屋椽箔人力柴薪俱各不給因而兩失	-12.782
泥了其所貼之靨多少可量其樹之大小	-12.782
注之池沼及庖湢之間如	-12.782
熱湯潑灰忌産婦孝子入家忌燒皮毛亂	-12.782
畦蔬圃亦可供用杜詩所謂連筒灌小園	-12.782
種不失足致豐盈此誠善政務本之意也	-12.782
腐朽之物人視之而輕忽田得之為膏潤	-12.782
赬	-12.782
跑	-12.782
閣置蟲亦不生如其不爾無不生蟲	-12.782
隨手指大小截之長可逾寸削去一	-12.782
一二尺莖梗繁多葉似水芥菜葉頗大花	-12.782
一邊皆同此法泥訖仍以紙裹頭麻	-12.782
九頓或三十六頓懶者頗疑煩冗予曰新	-12.782
令樹知區宜寛深以水攪土成泥	-12.782
似風花菜葉却比短小葉中攛葶分生莖	-12.782
入泥内再宿之後禾乃復出草則不起又	-12.782
匡斬翅荆樓土窠一	-12.782
十日半月一澆至十月後用牛驢馬生糞	-12.782
取藏接頭側近有接頭者	-12.782
地别作畦移栽臨移時隔宿先	-12.782
塍内開耕畢便撒稻種直至成熟不須薅	-12.782
少者止可用一小甑水須熱宜旋旋下繭	-12.782
尺餘至春桃始動時徐徐撥去糞土皆	-12.782
山田利於水源在上間有流泉飛下多經	-12.782
後左右足白不利人白馬四足	-12.782
得洫涂溝畛遂徑共	-12.782
擁培其芽條出土可留一二芽至秋長如	-12.782
於正月地氣透時深耕三遍擺	-12.782
曰枌榆先生葉却著莢	-12.782
杶	-12.782
欲作鞍橋者生枝長三	-12.782
物産婦蓐中及疾病未愈	-12.782
田野中延蔓而生葉似小藍葉短小軟薄	-12.782
相和匀撒子一合可種六七畦撒畢不用	-12.782
矍矍然此籰之義也然必竅貫以軸乃適	-12.782
穩易肥又免狐狸之患若任之樹	-12.782
維持多便至蠶可替時先布網於上然後	-12.782
縣山坡中科條髙三四尺葉似櫻	-12.782
而不乏省而有要誠便民之活法造物之	-12.782
胚	-12.782
與禾釋名曰擔任也力所勝任也凡山路	-12.782
螺溝之下孔而止也上者居岸以	-12.782
覲	-12.782
譙子曰朝發而夕異宿勤則菜盈傾筐且	-12.782
踆	-12.782
隨之也提柱之降也實取者挹水而升	-12.782
飲水後啖之不過三兩度即	-12.782
厚地不見日故雖濕亦無害	-12.7821
柀	-12.7821
簑	-12.7821
十月收蕪菁訖時收蜀芥	-12.7821
帚一科可作一帚謂之獨	-12.7821
柱之下端合之欲其固也砧之厚以其枝	-12.7821
謂之蹠鏵今謂之踏犂亦耒耜之遺制也	-12.7821
槮	-12.7821
然桔橰綆短而汲淺獨轆轤深淺俱適其	-12.7821
熟耕如麻地不厭熟縱横七	-12.7821
纒綆於轂引取汲器或用雙綆而	-12.7821
半其筩之長以為之徑下有	-12.7821
形類桃様極小有子似蘿蔔子取之易迸	-12.7821
架槽木架水槽也間有聚落去水既	-12.7821
桑果以接博為妙一年後便可獲利昔	-12.7821
其餘以濟不足雖遇儉嵗而不憂	-12.7821
皮肉之貲今勸農有官牛為農本而不加	-12.7821
積少成多施之種藝稼穡倍收桑果愈茂	-12.7821
舂米堅香氣經夏不歇	-12.7821
莖更不得留多每科相去一尺	-12.7821
中種桑柘者隨坑深淺或一丈	-12.7821
以為利今人有能别度地形亦效此制足	-12.7821
作田圍特省工費又可畜育魚	-12.7821
本云伯益作井堯民鑿井而飲湯旱伊尹	-12.7821
泉食甃之以石則潔而不泥汲之以器則	-12.7821
濕横積蒸熱速乾雖	-12.7821
而勝麻子脂膏麻子脂膏並有腥氣然荏	-12.7821
蕎麥立秋前後漫撒種即以灰糞葢之	-12.7821
蘆管管長四寸樞以圓木建	-12.7821
里為同同間廣二㝷深二仞謂之澮	-12.7821
陽木而火之冬日至令剥隂木而水之	-12.7821
雖丈許之木可活仍須芟去繁枝	-12.7821
三月選沙白地斸畦區深一尺全去舊土	-12.7822
區下種稠密如種茄法細土薄糝上	-12.7822
十月選成熟梔子取子淘淨曬乾至	-12.7822
氣也材知多白骨氣也材多	-12.7822
閉其罅而噏之凡井淺者實取焉井深者	-12.7822
墢也在園圃區田皆可代耕	-12.7822
壞合著隂潤之地雖欲愛慎朽敗更速矣	-12.7822
柄長三尺餘後偃而曲上有横木如	-12.7822
梟	-12.7822
足踏其鑱柄後跟其鋒入土乃捩柄以起	-12.7822
隅足也可無厚既合而入	-12.7822
散垂結實作莢子極薄細味甘性平無毒	-12.7822
民傷則離散農傷則國貧故甚	-12.7822
為始向外繳耕終此一	-12.7822
离	-12.7822
窨	-12.7822
上帶圓銎穿之食指	-12.7822
也管之容其圜中規管之下端抒之以合	-12.7822
子者取其速肖之義也凡接枝條必擇其	-12.7822
港并鮎魚口等處洩昆承之水以注	-12.7822
諦	-12.7822
銎以受直柄柄長四尺南方農家或	-12.7822
鴨靡不食矣水稗實成時尤是所便	-12.7822
黍生荒野中科苗皆類家黍而莖葉細弱	-12.7822
下則易濁上端所至出井之上度及	-12.7822
之平地或架越澗谷引水而至又能激而	-12.7822
也麥禾既熟或收刈不時莖穗狼籍不能	-12.7822
匝地芟之柄頭仍用掠草杖以聚所芟之	-12.7822
可割大麻既割其小芽榮長	-12.7822
宙	-12.7822
庛柔地欲句庛直庛則利推句庛則利發	-12.7822
梁家衝山谷中葉似楮葉	-12.7822
洌	-12.7822
皆有所洩則下流之地治而澇無所憂矣	-12.7822
蹕	-12.7822
軰生子十餘鴨生數十後軰皆漸少矣	-12.7822
農人兩手執之遇草萊或麥禾等稼折	-12.7822
長木柄内牢以逆楔	-12.7822
䬇	-12.7822
一丈亦無嫌任羊遶柵	-12.7822
上作屋方廣丈五於屋下懸簀令雞宿上	-12.7822
上雨下水用此甚宜北方或遇霖潦亦可	-12.7822
之如魚網之制其長短廣狹視蠶	-12.7822
亦細開小黄花結細短小角兒葉味	-12.7822
似茴香開細白花結實似胡荽子	-12.7822
六萬四千八百根根直八錢合	-12.7822
其枝莖生樵爇燭明而無煙	-12.7822
其蟲介其音羽律中	-12.7822
具也以細枋四莖竪之	-12.7822
務撒種却於軸間交穿板木謂之	-12.7822
即内牛糞中頭向上取好爛	-12.7822
只留兩苗稠則不結實苗長	-12.7822
噭	-12.7822
四月種豆五月中旬種晚麻七夕以後種	-12.7822
小竹開花如牽牛花青碧色似小鈴形様	-12.7822
尺五寸剡匾木為之者謂之輭	-12.7822
岡隴支河湮塞不治者皆濬之深廣使復	-12.7822
得洫涂溝畛遂逕共	-12.7822
接口添水至甑中八分滿甑中用一板攔	-12.7822
故平都令光教過以人輓	-12.7822
散粟豆於内小豚足食出入自由則肥速	-12.7822
春雨得所尤易活其實内子相類者林檎	-12.7822
本篇五圖之甲乙是也下柱者丙丁是也	-12.7822
柱之上端為之方枘而入	-12.7822
柱之短長無定度以水之深也井之	-12.7822
榆皮去上皺澁乾枯者	-12.7822
欲作快弓材者宜於山石之間北隂	-12.7822
民之蓄積當粒米狼戾之年計一嵗一家	-12.7822
渇澤用鹿鹹瀉用貆	-12.7822
溟	-12.7822
為區田收粟三十六石然則一	-12.7822
相半舟車莫及之處如有所負非擔不可	-12.7822
細背頗白開紅白花亦有千葉者味甜淡	-12.7822
臍注磨曰眼轉磨曰榦承磨曰槃載磨曰	-12.7822
與衡在上樞之末者則中樞而設之頸以	-12.7822
舊則上流之地亦治而旱無所憂矣此三	-12.7822
若遇大寒屢撥熟火不能勝其寒則外燒	-12.7822
菔菘芥八月社前即可種麥	-12.7822
覆上自生白蟲便買黄雌雞	-12.7822
鏤鏉器也方言云宋魏間謂之渠	-12.7822
開黄花結子如菉豆大生則青熟紅色味	-12.7822
隨長短掘壍停之經年	-12.7822
機今創此制幸識者述焉	-12.7822
去皮蔬食又可糟藏謂之萵笋	-12.7822
脚躡合常澆令濕至十月祛倒以土覆	-12.7823
覆之時用泔澆灌越數時則以槌棒擊樹	-12.7823
五分其筩之徑以其一為柱之徑砧之合	-12.7823
草一名蜀脂一名百本一名王孫	-12.7823
土如搭是名鐵搭就	-12.7823
下引水而至如泉源頗	-12.7823
博碩肥腯不疾瘯蠡	-12.7823
又燉煌俗婦女作裙	-12.7823
或藉桔橰似為便矣乃俛仰盡日潤不終	-12.7823
水性趨下則易引也或在窪	-12.7823
注曰趵突泉水上出也一曰雙筩	-12.7823
穫尤當及時江南上雨下水收稻必用喬	-12.7823
聞三晉最勤汲井灌田旱熯之	-12.7823
五指許掩於濕土地中亦生	-12.7823
即下樹栽樹大者須以木扶架若根不動	-12.7823
取樹本大如斧柯及臂者皆堪接謂之	-12.7823
四五尺枝梗灰白色葉似皂莢葉	-12.7823
多柰家以為脯數十百斛以為蓄積如	-12.7823
景帝末年太倉之粟陳陳相因而民亦富	-12.7823
曷知其中規而上下等也砧之大入	-12.7823
然北俗伐桑而少採南人採桑而少伐嵗	-12.7823
用一牛挽之作止回旋惟人所便	-12.7823
瘡口恐雨水入纒訖即以	-12.7823
窮汲而不竭此天然之井也皆可灌溉田	-12.7823
蔽日旱則頻澆常須濕潤至秋後去棚長	-12.7823
零落而損收又恐為風雨損壊此九月築	-12.7823
露晞解然後放之不爾則逢毒氣令羊口	-12.7823
取葉者皆七月半種地欲糞熟	-12.7824
可一尺旱時一二日用水於棚上頻頻澆	-12.7824
攙	-12.7824
却視有態畏物喜驚馬耳欲得相近而前	-12.7824
名曰承泣不利人目中五采盡具五百里	-12.7824
僖	-12.7824
勿令六畜入園二月食淡竹	-12.7824
剋	-12.7824
常以馬覆驢所生騾者形容	-12.7824
生卵七日不復剖生至明年方生耳欲得	-12.7824
許柄盈二握江淮之間恒用之方言云自	-12.7824
一而當四和氣去耕四不當一杏始華榮	-12.7824
上旬為上時中旬為中時下旬為下時一	-12.7824
成葦又壓栽法其葦長時掘地成渠將莖	-12.7824
無味是故科斫為蠶事之先務	-12.7824
甓	-12.7824
鐵搭四齒或六齒其齒	-12.7824
久之則舉林皆然其治之	-12.7824
倍省有樹桑兼地桑之家樹	-12.7824
列鑿方竅以齒為節夫畦畛之間鎪剔塊	-12.7824
初肥時宜賣易之不爾後	-12.7824
太湖諸水源多而勢盛二江不足以洩	-12.7824
布機釋名曰布列諸縷淮南子曰伯	-12.7824
旱宜澆十月刈燒加糞如前冬春擁雪	-12.7824
時與惡芻飽時與善芻	-12.7824
梜榆莢葉味苦凡榆莢味甘	-12.7824
櫪	-12.7824
水輪轉碾也後魏書崔亮教民為	-12.7824
田器養耕牛選任田者以俟農事之起去	-12.7824
皆七月芟艾之草乾即放火至春而開墾	-12.7824
赶	-12.7824
開七浦鹽鐵等塘洩陽	-12.7824
麥底地亦得種止須急耕調熟	-12.7824
不茹則子凍春夏秋三時則不須直置	-12.7824
之弦弦五焉則句四焉股三焉過偃則不	-12.7824
也初則置立水磨變麥作	-12.7824
也然知資其力而不知養其力力既竭矣	-12.7824
作也義亦與庸賃同	-12.7824
便採用則無事不成尤宜作	-12.7824
其數六其味鹹其臭朽其祀行祭先腎	-12.7824
十月納稼工夫次第不可失也	-12.7824
吊	-12.7824
大小制之沃以漆油則光	-12.7824
平因以利鎌摩地刈之曝令燥後有風	-12.7824
廣三寸則甲丁長六寸也半徑為孔者	-12.7824
收韭子種韭第一番割棄	-12.7824
斸黄土地成畦下水飲畦一	-12.7824
書謂湯有七年之旱伊尹作為區田	-12.7824
木棉法擇兩和不下濕肥地	-12.7824
架樞其上出其樞之末以受輪與衡也制	-12.7824
淒	-12.7824
營田須量己力寧可少好不可多惡	-12.7824
甾	-12.7824
異故皆以人力器用所成者書之各有科	-12.7824
疫癘之救藥有冬鬻春租冀免芻豆之費	-12.7824
瞿麥白芷牽牛子右件	-12.7824
科條青色莖上多刺葉似椒葉	-12.7824
紂	-12.7824
而為歉嵗之憂是故國有國之蓄積民有	-12.7824
色葉似牛耳朶形而小葉間分攛葶	-12.7824
蓑薛簦笠今總謂之蓑雨具中最為輕便	-12.7824
薄小色青莖方節節開小白花結子	-12.7824
重然後可行日夜不息絶勝人牛所轉	-12.7824
雖强牛利器鮮不困敗故	-12.7824
頭出穗開粉紫花結蒴	-12.7824
養之用刀尖依濕痕四圍刻	-12.7824
不乏尤為上也然用斧有法必須轉腕回	-12.7824
中則不須栽其春種不作畦直如種凡	-12.7824
伐逺揚士農必用云轉身運斧條葉偃落	-12.7824
夫禹别九州其田壤之法固多不同而稷	-12.7824
嬭	-12.7824
山陵林麓川澤溝瀆城郭宫室	-12.7824
挈古樂府云羅敷善採桑	-12.7824
昶	-12.7824
枝了别取本色樹皮一片長尺餘濶	-12.7824
津脉不出則葉必復茂故農語云斧頭自	-12.7824
用驚蟄前後五日斬新枝	-12.7824
磑也世本曰公輸班作磑方言或謂之䃀	-12.7824
祊	-12.7824
種子人功之費不慮水旱風蟲之災比之	-12.7824
窠依上掘渠埋壓六月不宜全壓	-12.7824
與樵斧不同詩謂蠶月條桑取彼斧	-12.7824
蹈	-12.7824
遇枯枝勁節不能拒遏又為上如剛而不	-12.7824
鐏	-12.7824
陽氣不應急則力大夾煞全在細意酌度	-12.7824
蠶滋多必須分之沙燠	-12.7824
農家尤宜種之以備場圃間用也	-12.7825
次包土成田又有山勢峻極不可展足播	-12.7825
一升一降是水恒入而不出也	-12.7825
不知木棉之為用夫木棉産自海南諸種	-12.7825
既入之水而砧降焉則無復之也則上衝	-12.7825
時旋打旋揚與蠶沙相和辟蟲傷資地力	-12.7825
淮川蜀既獲其利至南北混一之後商販	-12.7825
管管之上端亦抒之既樹之則與筩之	-12.7825
不實者曬令水脉才乾種乃易生	-12.7825
丙至庚也抒者斜削之如戊至丙	-12.7825
之制但於下輪軸端别作	-12.7825
使透風氣早夜或隂雨變寒	-12.7825
信惡矣然糞壤滋培則苗蕃秀而實堅栗	-12.7825
壬一寸五分也上迤者斜迤而上如戊至	-12.7825
掄	-12.7825
梢間開紫花結彎角兒中有子如黍米大	-12.7825
此南方淹繭法用甕頗多	-12.7825
省力過倍南蠶多用此法北方蠶小時亦	-12.7825
短葉莖亦窄葉頭稍團形	-12.7825
而上餘如前例又須水力相稱如打	-12.7825
葉與豇豆同但結角色紫長尺許味微甜	-12.7825
九川距四海濬畎澮距川然後播奏	-12.7825
作琴瑟等絃清鳴響徹勝於凡絲逺矣	-12.7825
冷故用火糞種麥種蔬尤佳	-12.7825
凡耘苗之法亦有可鋤不可鋤者旱耕塊	-12.7825
同孔出不可鋤治此耕者之失難責鋤也	-12.7825
外即謂以伐逺揚也凡斧所	-12.7825
常以洗魚水澆之則香而茂溝泥水米泔	-12.7825
平衍率多洿下一有數日之雨即便淹	-12.7825
日一覆十日除一次牛一具三隻	-12.7825
處慣煖冬月入田尤不耐寒	-12.7825
車之左端置環繩其前尺有五寸當	-12.7825
之接去清水貯出淳汁著大盆中以	-12.7826
得端正骨欲得成三角睛欲得如懸鈴紫	-12.7826
者善奔傷人目下有横毛不利人目	-12.7826
上下徹者千里目中白縷者老馬子目赤	-12.7826
厚一寸三百里三寸千里耳欲得小而前	-12.7826
良植者駑小而長者亦駑耳欲得小而促	-12.7826
顒	-12.7826
山色此必收之種也若頂平焦乾及蒼黄	-12.7826
農書云無鐴而耕曰耩既鋒矣固不必耩	-12.7826
鋒與耩相類今耩多用	-12.7826
之如此得四年不要種之皆餘根自出矣	-12.7826
選好葦連根栽成土墩如椀口大於下	-12.7826
兩徧至來春地氣透時待日	-12.7826
或失時命司徒循行縣鄙命農勉作毋休	-12.7826
生衣厚潤徹膠便皺動處起發颯然破矣	-12.7826
人可敵數人之功條不可冗冗	-12.7826
兩手持之但用前進攛之剗去	-12.7826
制之以曲木竅其兩旁通貫耕索仍下	-12.7826
印作餅子製様任巧候乾仍以香膏油潤	-12.7826
夾脊摩之熱而已氣勞者緩繫之櫪	-12.7826
如平原草萊深者至春燒荒	-12.7826
層兩邊側立上復平	-12.7826
擂	-12.7826
突也須與竈口相背謂如竈口向南	-12.7826
笐今湖湘間收禾並用笐架懸之以竹木	-12.7826
鞅板用控牛項軛乃穏順了無軒側	-12.7826
之法多從綆缶饔飱朝夕未覺其煩所見	-12.7826
似甜𤓰瓣而色紅味甜酸	-12.7826
十月内並為上時春分前後以及發生	-12.7826
尖開黄白花結果如杏大	-12.7826
惡者其一株上有七八根生者悉皆斫去	-12.7826
時注雨止候土白背復鋤如此則收必倍	-12.7826
殺之葉死不扇便任耕種三	-12.7826
而青自青復白自白而黄又一眠也	-12.7826
蟠車纒纑具也又謂之撥車南人謂撥	-12.7826
蠶欲老可簇地盤燒令極乾除	-12.7826
越加箭可弛張焉轅之上又有如槽形亦	-12.7826
食謂之正眠眠起自黄而白自白	-12.7826
上皆用漏斗盛麥下之眼中則利齒旋轉	-12.7826
之美種江淮以南直徹海外皆宜此稼	-12.7826
之舌者方版方版之旁為之樞	-12.7826
九夫為井井間廣四尺深四尺謂之溝	-12.7826
从	-12.7826
以舞魚魚振添梯故絲不過偏	-12.7826
似花苦苣葉甚大開淡棠褐花表	-12.7826
制中置巨輪輪軸上貫架木下承鐏臼復	-12.7826
太后幸繭館率皇后及列	-12.7826
尺留一根必須稀穊均調行五條直相	-12.7826
峴	-12.7826
工得禦寒之益可謂不麻而布不繭而絮	-12.7826
攪淘去醋氣多與徧數氣盡乃止稍	-12.7826
春大豆次植榖之後二月中旬為上時	-12.7826
晴則暴暖浥以水日三數遇隂寒則浥以	-12.7826
有二種水稗生水田邊旱稗生田野中今	-12.7826
桑花桑中間一截其子堅栗則枝榦堅	-12.7826
母猪取短喙無柔毛者良	-12.7826
湯淨洗以布拭水令盡取黍米一升作	-12.7826
為窠亦去地一尺惟冬天	-12.7826
牛耳朶菜一名野芥菜生田野中苗	-12.7826
礓	-12.7826
約四五尺兩端俱作轉簨挽索用牛拽之	-12.7826
細短深茶褐色故名拐棗味甜	-12.7826
者分田之制必有萊牧之地稱田	-12.7826
者約留四五條鋤治添糞條有定數葉不	-12.7826
耘畢放水熇之欲秀復用水浸之	-12.7826
謂水轉輪軸可兼三事磨礱	-12.7826
逶	-12.7826
銅鐺中攪令黄白相雜細擘	-12.7826
開通溝瀆起水門提閼凡數十處以廣溉	-12.7826
隷	-12.7826
青橘皮當歸桂心大黄芍藥木通郁李仁	-12.7826
麥種别名異而世人以為一物	-12.7826
㠯聲徐鉉等曰今作耜	-12.7826
㭉	-12.7826
之制雖不可行而溝洫之制則不可廢	-12.7826
之心在乙丙線之上也二孔㨊圓者如酉	-12.7826
之為器豈不簡易而利用哉	-12.7826
云古者耜一金兩人併發之	-12.7826
再耕曰轉生者欲深而猛熟者欲淺而	-12.7826
出草色不異若經夏在棚棧上草便變	-12.7826
升通米得堅燥免蹈前弊實濟物之良法	-12.7826
原再也天文辰為馬蠶書蠶為龍精	-12.7826
土肥美也江南三月草長則刈以踏稻田	-12.7826
州府古徐兖二州奎婁分野	-12.7826
或墊溺盤曲其頃畝多少不等上有鹹草	-12.7826
或大或小皆頂隆而口圓可	-12.7826
拖脚車也以脚木二莖長可四尺前頭微	-12.7826
據地為籠籠内著棧雖鳴聲不朗而安	-12.7826
服一兩酒一大升同煎温灌隔	-12.7826
水輪軸首易磨置礱既得糲米則去礱置	-12.7826
泥然瀕海之地復有此等田法其潮水所	-12.7826
漢靈帝使畢嵐作翻車設機引水	-12.7826
烏藥芍藥當歸𤣥參山茵蔯白芷山藥杏	-12.7826
竇似窖月令曰穿竇窖	-12.7826
耕地之法未耕曰生已耕曰熟初耕曰塌	-12.7826
膢	-12.7826
莖方葉似荏子葉小頗細長	-12.7826
輪輻俱轉用力少而見功多後魏	-12.7826
餵養牛法農隙時入暖屋用	-12.7826
𠂻	-12.7826
其子作米可食餘及牛馬又可濟荒其	-12.7827
厓	-12.7827
勰	-12.7827
收訖至來年更不須種自旅生也	-12.7827
亦可遏止如遇隈岸盤曲尤宜周折以禦	-12.7827
又謂之卧牛判竹或用藤蘿或木條編作	-12.7827
浪併作洄流不致衝	-12.7827
為中時五月上旬為下時夏種黍穄與植	-12.7827
猥	-12.7827
饀	-12.7827
地宜隂濕時時澆之若全	-12.7827
大而且甘為旱稻種甚佳北方水源頗少	-12.7827
插枝者二三月檜芽蘖動時先熟	-12.7827
栽者已後逐旋添土芽條長	-12.7827
法秋冬間收子淨洗日乾春耕熟地作町	-12.7827
熟山提小麥至粘弱以貢御有半夏小麥	-12.7827
牛糞火比翻簇之法又為妙也又一法槌	-12.7827
盤甑接口添水至甑中八分滿可容	-12.7827
矣按世有落麥者秃芒是也又	-12.7827
蠶蟻時用小刀蠶漸大時用大刀或用漫	-12.7827
調熟然後作成畦畛每畦長八	-12.7827
之逼之也則上衝而壺之舌為之開以入	-12.7827
于未申孔之上向丙而開闔之也辰午加	-12.7827
人下掘或旁穿出土轉	-12.7827
六十六石今人學種可減半計	-12.7827
别窖北地土厚皆宜作此江淮	-12.7827
半焉如雙筩共容四升則壺容六升也弇	-12.7827
即去地七八寸截之若砧小而	-12.7827
即損其砧皮取快刀子於砧	-12.7827
圖之乙丙是也二孔者未申也酉	-12.7827
壺水勢盡而彼舌開則此闔矣是代入	-12.7827
如本篇二圖甲乙丙丁形是也	-12.7827
小滿芒種之間分而蒔之旬日髙下皆遍	-12.7827
撥作土盆旱宜頻澆如無元樹止就桑下	-12.7827
效也其所用之器自撮苗後可用以代耰	-12.7827
曬簇上蠶後第三日辰	-12.7827
根經冬不死至春發苗味辛苦性温無毒	-12.7827
澹	-12.7827
牛糞其上次日又覆糠穰	-12.7827
狀先以杖刺泥成孔插檜枝於孔中深五	-12.7827
生可種之九月藏茈薑蘘荷其	-12.7827
田甚美北方農家亦宜效此利可十倍又	-12.7827
者所以變薄田為良田化磽土為肥土也	-12.7827
而上溢其終無出也而有筩之容以俟其	-12.7827
角狀而長其形似屠刀様故以名之味甜	-12.7827
輪之制但去下輪置於車傍岸上用牛拽	-12.7827
遂人匠人之治夫間有遂十	-12.7827
長圓也欲與戊丙之孔合也融錫合之小	-12.7827
防風一名銅芸一名茴草一名	-12.7827
頭不時跂足閃去所擁草木根	-12.7827
騰遷移别簇封苫如前小雨則不須但可	-12.7827
魚半出鼓其出之中建柄半寸上承添梯	-12.7827
鯫	-12.7827
堅垎四十餘日芽方出土薅治澆	-12.7828
人目下而多白畏驚瞳子前後肉不滿皆	-12.7828
寸硬如石下欲深而明其後開如鷂翼能	-12.7828
目中縷貫瞳子者五百里下上徹者千里	-12.7828
架田架猶筏也亦名葑田集韻云葑	-12.7828
率一尺一本葉生即鋤鋤不厭數	-12.7828
先注湯調極匀又添注入	-12.7828
則雲脚散湯少茶多則粥面聚鈔茶一錢	-12.7828
羅為末先口含鹽漿水洗淨用藥	-12.7828
中重頭沈下自然周正皮薄易生	-12.7828
人亦云芟曰鏺葢體用互名皆此器也	-12.7828
三七日亦有成者雜五行書	-12.7828
之後桑與黍稭同時刈倒順風燒之仍	-12.7828
之累接之法亦以接輪交而相發也	-12.7828
之鏟也今鏟與古制不同柄長數尺首廣	-12.7828
周禮大司徒以土㑹之法辨五地之物生	-12.7828
土性所宜因隨氣化所以	-12.7828
場圃同地自物生之時耕治	-12.7828
夏漿水加蜜秋冬小便調療膈痛低頭	-12.7828
小光澤四五葉攅生一處結𤓰如肥	-12.7828
摇	-12.7828
收百斛丁男長女治十	-12.7828
治簇之方惟在乾暖使内無寒濕	-12.7828
活白藥甜𤓰子當歸没藥芍藥為末春	-12.7828
突口向北是也繰盆居中火衝盆	-12.7828
而地地盡而山山鄉細民必求墾佃猶勝	-12.7828
草就覆其根特號敏	-12.7828
葉中心出花頭如紅藍花	-12.7828
葉似山小菜葉頗長抪梗對生葉	-12.7828
蕤	-12.7828
間有他造者色香味俱不及蠟茶珍	-12.7828
驟數百步亦佳十日一放令	-12.7828
㫄	-12.7828
一窠栽如前法或於蘿蔔内穿過一枝假	-12.7828
三條女尚書跪曰可止執筐者以桑授蠶	-12.7828
上端穿其碢榦水激則碢隨輪轉循槽轢	-12.7828
候黍粟苗未與壠齊即鋤一	-12.7828
傍枝三年可以成樹或就作地桑栽桑梢	-12.7828
儕	-12.7828
六日可種葵中伏後可種冬葵九月作葵	-12.7828
又有所謂撻者與勞相類齊民要術云春	-12.7828
后親桑循晉禮也北齊置蠶宫皇后躬桑	-12.7828
土另封條尖已後芽生	-12.7828
埋頭栽桑斫下桑梢相連	-12.7828
壠種桑條秋耕熟地二月再擺匀東西起	-12.7828
大小隨人所欲將園内地耕	-12.7828
尖三二寸覆土宜厚尺餘俱當堅築仍以	-12.7828
幣帛竹器今用育蠶其名亦同	-12.7828
後殺時犉牡有捄其角以為社稷之報若	-12.7828
拾取禾茇東倒西倒者若東西横地取南	-12.7828
撥周圍木齒一磨既引水注槽激動水輪	-12.7828
撮之待其苗長又撒以壅之何	-12.7828
擊禾器國語曰權節其用耒耜耞	-12.7828
擡飼之間皆可移之上下農桑直説云	-12.7828
攫	-12.7828
是水恒入而不出也兩入而不出則溢	-12.7828
服景帝詔后親桑	-12.7828
杓作勺量器也周禮勺容一升所以㪺	-12.7828
祕	-12.7828
者一壟取七科三壟凡取二十一科淨洗	-12.7828
胯之異此品惟充貢獻民間罕見之	-12.7828
黍桑當俱生鋤之桑令稀疏調適黍熟	-12.7828
一如常法復於磨之外周造	-12.7828
世間餅餌自此始矣	-12.7828
之其根即死而易朽又有經暑雨後用牛	-12.7828
今江南農家所種如種葵法俟成	-12.7828
作田非器不成周禮遂人凡治野以土宜	-12.7828
兩頭以木箄貫之後用手執為柄前用作	-12.7828
八月種二麥豌豆節次為之不可貪多夫	-12.7828
八磨之重竊謂此雖並載前史然世罕有	-12.7828
冬藏濕又分減栽時併忙區方深各二尺	-12.7828
分如小錢大布滿三箔	-12.7828
力不給而貪多務得未免茍簡	-12.7828
十株比至嫁娶悉任車轂一樹三具一具	-12.7828
因井田溝洫以去水也後井田之法大備	-12.7828
室聞之老農云牛室内外必事塗塈以備	-12.7828
封繫之固擁包之厚使不	-12.7828
小口而大腹竇小孔穴也故名竇	-12.7828
常薅令淨明年正月移而栽之	-12.7828
引水而至若别無隔礙則當踏視地形用	-12.7828
擡停眠分如小錢微大布滿六箔	-12.7828
收起雖未淨直待所收麥都碾	-12.7828
料南北之間去短就長制此良法	-12.7828
日為中時然取其條眼襯青	-12.7828
朴為末清米泔調灌若	-12.7828
枝梗亦似枸杞有小刺開黄花狀類	-12.7828
架木立軸置二卧輪其上	-12.7828
榘	-12.7828
歌曰髙田種小麥稴穇不成	-12.7828
毛者老馬也四蹄欲厚且大四蹄顛倒若	-12.7828
淡緑莖有線楞結實如蒼耳實	-12.7828
添梯故車運以牽環繩繩簇	-12.7828
熒	-12.7828
獸既氄毛率多穴處獨牛依人	-12.7828
獸毛羽親肌之物最為肥澤積之為糞勝	-12.7828
砧厚者稍剡其周之上下如鼓木當其剡	-12.7828
破麥作麩然後收之篩羅乃得成	-12.7828
稍弱其砧之徑以氊罽之屬皮革之屬附	-12.7828
笠詩所謂臺笠緇撮今之為笠編竹作殻	-12.7828
絶又可蓄為魚塘蓮蕩其利亦博或貫穿	-12.7828
緇	-12.7828
葉中攛葶上開紅白花根苗味苦	-12.7828
蛇葡萄生荒野中拖蔓而生葉似菊葉	-12.7828
蠶沙乾桑葉水三桶浸之牛下餉噍透刷	-12.7828
西川唐鄧多有栽種成就懷州亦有舊日	-12.7828
説文曰檟楸也然則楸梓二木相類者	-12.7828
費此不朽之功豈可同年而語也	-12.7828
車於内車之踏軸外端作一竪輪竪輪之	-12.7828
長梯梯不長則髙枝折正謂此也	-12.7828
間草薉未除者亦須用鋤理撥一	-12.7828
青子如梧桐子大葉味酸澁實味甘酸	-12.7828
草即鋤之旱即灌之冬芥經春長心	-12.7828
蕋	-12.7829
又淮東二廣皆有之東坡請開杭之西湖	-12.7829
湗	-12.7829
苗隂厚地不見日故雖濕亦無	-12.7829
或限以籬塹負郭之間但得十	-12.7829
俱若梯磴故總曰梯田上有水源則可種	-12.7829
不及時去草必為草所蠧耗	-12.7829
二落簇三遊走四變赤蛹五變	-12.7829
井為邑邑方二里三十六夫	-12.7829
十粒將條盤曲以草索繫定	-12.7829
取之法焉氣法也凡砧之入	-12.7829
口羊亦不得飽羣羊踐	-12.7829
為良醫又曰亡羊治牢未為晚也	-12.7829
而過若遇平地則引渠相接又左右可移	-12.7829
聚於一葉其葉自大即是地桑栽地桑法	-12.7829
葉就地叢生葉長三四寸四散分垂	-12.7829
試之如手不禁熱可取去底扇	-12.7829
速大横行必得從行必術正其行通其風	-12.7829
頭平重磨處尖鋭泥乾時擲於	-12.7829
一枝弱者所接樹選其向陽細嫩枝如筯	-12.7829
作甃穴上覆元土亦是一法如灌	-12.7829
匾開粉紅花結碗子蒴兒葉味甜	-12.7829
又用苫將簇從下繳至上苫相接日出	-12.7829
思患而預防之如嚮年壬辰戊戌	-12.7829
或捲作𥫱誠為多便南方農種之家率皆	-12.7829
截則地氣難應須以細齒鋸截鋸齒	-12.7829
故區畦種葉作菜食子根入藥	-12.7829
既盡可為稼田所謂瀉斥鹵兮生稻	-12.7829
時被雨霑濕雨纔止纔晴即選一簇地盤	-12.7829
枝者出露土上其餘條樹以土全覆樹根	-12.7829
歉之際但依此法種之皆免	-12.7829
每區深一尺用熟糞一升與區土相和布	-12.7829
決無生理也斫松木須五更初便削去皮	-12.7829
為二此則合之又玉衡之水皆實取此有	-12.7829
為雙環而交纒束之當其合而錮之	-12.7829
生就地叢生長則四散分垂葉似萱草葉	-12.7829
皆三四月種地不宜肥有草則削去種	-12.7829
石恐本用石也然北方多以石南人用木	-12.7829
砧可無厚無厚則輕餘見玉衡篇三曰衡	-12.7829
秬黍中者千二百實其龠以井水凖其	-12.7829
種之土敝氣衰生物不遂為農	-12.7829
稼不蕃後世井田之法變强弱多寡不均	-12.7829
積之栗栗其崇如墉其比如櫛以開百室	-12.7829
花條其上多刺葉似牛尾菜葉	-12.7829
苗多近水傍初生大如紅花葉	-12.7829
處令入五分其入須兩邊批所接枝皮處	-12.7829
行内隔一區種一區除隔空外可種六百	-12.7829
覆以防雨作如搬載不及即	-12.7829
邑巷陌及注之園囿池沼悉周於用雖	-12.7829
金剛刺又名老君鬚生	-12.7829
髙可三尺許廣可四尺上有横柄下有列	-12.7829
宜頻冬月用土深擁根株其枝梢用草包	-12.7829
寒第四年開花結實十月收摘甑内微蒸	-12.7829
市大兇馬也馬眼欲得	-12.783
白從額上入口名俞膺一名的顱奴	-12.783
雝	-12.783
擇治淨洗沸湯煠即出於水中淨洗	-12.783
左捲每日交換捲那捲罷依前	-12.783
逭	-12.783
堀	-12.783
本輕而末重前緩而後急稼欲熟	-12.783
謂水涸草生漸成葑田	-12.783
向木皮還近皮插訖以	-12.783
秋宜日髙耕中原地皆平曠旱田陸地一	-12.783
任園地註曰圃樹果蓏之屬其田繚以垣	-12.783
信未風先雨謂之料信雨	-12.783
刺薊菜本草名小薊俗名	-12.783
濊	-12.783
環擊拂視其色鮮白	-12.783
用以斸荒凡田園山野之間用之者又有	-12.783
之效得置田之活法水鄉無地者宜傚之	-12.783
古法也后稷始甽田以二耜為耦	-12.783
堅厚倉卒不能生也種藕法春初掘藕根	-12.783
尺餘葉似苦苣葉莖葉俱有刺	-12.783
荁	-12.783
開黄花結實如橡斗而極小味澁	-12.783
頭著魚池泥中種之當年即有蓮花	-12.783
偶控於槌上以架蠶箔須直而輕者	-12.783
六尺深可二尺載以木座座帶四碢用轉	-12.783
凡耕作三壟中間相去各二	-12.783
卯亥也辰乾也柱也當辰卯為山口者	-12.783
四五尺莖上有小刺葉似大葉胡枝子葉	-12.783
多斫萌條若是少處又慮斫伐太過次年	-12.783
家政法曰養雞法二月先耕一	-12.783
放之桃林之野乎故周禮祭牛之外以享	-12.783
斡	-12.783
柄長五尺餘耘田之際農人執之推盪禾	-12.783
桑適金室前漢文帝紀詔皇后親桑以奉	-12.783
此車之制凡麻苧之鄉在在有之	-12.783
歴代后妃親蠶之事采之史編昭然可見	-12.783
法三月初取枝大如手大指者斬令長一	-12.783
法有五水畜第一水畜所謂魚池也以六	-12.783
灌下咽喉便效次以黄連末大	-12.783
為木也無味水不受之變梁在其下	-12.783
然耙勞之功非但施於納種之前	-12.783
煻	-12.783
生延津縣郊野中在處	-12.783
畼	-12.783
約量頓火隨寒熱添	-12.783
能獨食水草㝷亦俱死非直不滋息或	-12.783
舁之積處往返不已一籠日可收麥數	-12.783
蠶箔木也或用竹長一丈二尺皆以二莖	-12.783
間草泥使之溷溺則田可精熟既勝	-12.783
三嵗而一周也先王之制如此非獨以	-12.783
下徹棧底就作卧輪以水激之磨隨輪轉	-12.783
世以為起於三代愚謂不然牛若常在畎	-12.783
之萬不失一其餘以熟糞糞之則益桃味	-12.783
人既省力蠶亦無損又按南方蠶書云簇	-12.783
今數千年遂人匠人所營之	-12.783
以小衡為弦句股之交立之柄持其柄而	-12.783
以硬木貼樹身去地半指一斧截	-12.783
以禾茇汁熱塗之一上即愈	-12.783
何哉夫南簇蠶少規制狹小殆若	-12.783
使之微濕槽盛而飽飼之	-12.783
兒秋間埋頭深栽更疾得力	-12.783
其枝須兩節兼須是二年枝方可接接時	-12.783
出芽條旱則頻澆立夏之後不宜此法	-12.783
劈接法先附地平鋸去身榦於砧盤	-12.783
劉景宣作磨竒巧	-12.783
北郊遵周典也晉武帝太康中立蠶	-12.783
半少加料第三草比第二又	-12.783
即日以水淘取子曬燥仍畦種	-12.783
器也又謂之氣籠編竹作圍徑可一尺	-12.783
孔欲利而無罅樞紐之動也欲不滯凡水	-12.783
彼此論之若南蠶大時用箔北蠶小時用	-12.783
必兩習熟者能用不然則有矛盾之差矣	-12.783
我疆我理南東其畝	-12.783
採嫩笋葉煠熟水浸去邪味淘	-12.783
擇美田耕治令熟泥沃而水清以既芽之	-12.783
故布廣三四寸長七八寸以粥糊布上厚	-12.783
故獲利亦薄北簇雖大其弊頗多蒿薪積	-12.783
方蠶簇法也嘗見南方蠶簇止就屋内蠶	-12.783
明年四五月出氊時更買新者此	-12.783
春毛秋毛中半和用秋毛	-12.783
晉劉毅家無儋石之儲應劭曰齊人名甖	-12.783
溝以注雨潦旱則灌溉謂之甜水溝其稼	-12.783
生者至秋水涸芟之明年乃稼	-12.783
相繼以生成相資以利用種無虚日收無	-12.783
移上輪其餘措置當自忖度不能悉	-12.783
稕	-12.783
種漸鋤取賣供生菜也外舍無市之處一	-12.783
竹架易於擡飼梅聖俞前蠶箔詩云相與	-12.783
粟之為言續也粟五變一變而以陽生為	-12.783
糝土封其樹瘢樹南種黍五七粒十餘日	-12.783
縛定隨索列次絡於上下二輪復於二輪	-12.783
舌之樞悉係焉而開闔之左右相禪也當	-12.783
苗生田野中苗搨地生葉似垂盆草葉而	-12.783
菕	-12.783
蕊	-12.783
行占地一尺五寸該分五十行長一十六	-12.783
錛	-12.783
除大寒時分不能移栽其餘月分皆可	-12.783
雓	-12.783
類以養之亦作小槽以貯水荆藩為	-12.783
風蟲水旱十年之内儉居五六安可不預	-12.783
齊短兩兩對生開淡紫花結小角兒其豆	-12.783
秋蠶初生時去三伏猶近暑氣仍存蠶	-12.7831
水度地制器者以此計之若水過深岸過	-12.7831
合三四五之句股法也凡圍板長一丈水	-12.7831
同不毛其餘所在土山下自横麓上至危	-12.7831
始則蟹眼中則魚目纍然如珠終則泉湧	-12.7831
火氣茶性畏濕故宜篛	-12.7831
用活水活火烹之故東坡云活水仍	-12.7831
者必以篛籠剪篛雜貯之則	-12.7831
處令常近火為佳凡煎試	-12.7831
凡川澤之水必開渠引用可	-12.7831
占城闍婆諸國皆有之今已為中國珍貨	-12.7831
水為渠以資沃灌按史記秦鑿涇為渠又	-12.7831
爛而泥土肥美嘉榖蕃茂矣	-12.7831
關西有鄭國白公六輔之渠	-12.7831
孔無相背也紐居左則管居右舌其合	-12.7831
將臘月元埋桑條栽依前法或是單根	-12.7831
較之南方以鎌刈者其速十倍	-12.7831
上各舉稻把摜之子粒隨落積於簟上非	-12.7831
不能損耗用省而功倍田少而	-12.7831
中筩之徑等管之長無定度其下迤也及	-12.7831
以及田所其制當流列植	-12.7831
入也梁居水中其木必榆榆	-12.7831
則可常熟惟近家瀕水為上其種不必牛	-12.7831
卿曰修隄防通溝洫之水潦安水藏以時	-12.7831
吳志周瑜謁魯肅肅指其囷以與之西京	-12.7831
地賣者省功而利少煮剝賣皮者雖勞而	-12.7831
塞則溝洫豈特通水而已哉	-12.7831
如耬鋤過苗間有小豁眼不到處及	-12.7831
提之柱其相去也視雙筩雙提之上枘入	-12.7831
有小鋸齒開粉紫花黄心葉味甜	-12.7831
有田者共為之細溝則人各自為於其田	-12.7831
泗及汴通河自河通渭則有漕渠郎州有	-12.7831
溝行水暗渠也凡水陸之地如遇	-12.7831
煅	-12.7831
稀密則熱熱則繭難成絲亦難繰東北位	-12.7831
糞力壯南方治田之家常於田頭置	-12.7831
約四寸兩桯相離五寸許其桯上相間	-12.7831
約量本家育蠶多少選於院内空	-12.7831
耙梃之間用條木編之以摩田也耕者	-12.7831
興化有蕭何堰西蜀有李氷文翁穿江之	-12.7831
葉中攛生莖叉梢結刺毬如	-12.7831
蠶有多少故簇有大小難易之不同也然	-12.7831
裹縛次年結子椒不歇條一年繁勝一年	-12.7831
車所由孔安而利用也故曰架者所以居	-12.7831
通連為一窠快斧斫下即將楂頭於火内	-12.7831
逺也荆桑所飼蠶其絲堅韌中	-12.7831
酉為三角形也酉戌柄也立之柄者立柄	-12.7831
長一尺筒索之底托以木牌長亦如之通	-12.7831
開挑而又時常巡視不使淤塞如此則旬	-12.7831
間小科就地拖蔓生葉似	-12.7831
闗西有鄭國白公六輔之渠	-12.7831
院後或園圃間多種萑	-12.7831
雨㸃兒菜生田野中就地叢生其莖脚紫	-12.7831
養蠶之法繭種為先今時摘繭一	-12.7831
駞所種樹或移徙無不活且碩茂	-12.7831
機骨欲舉上曲如懸匡馬頭	-12.7832
有黒白二種桑之精英盡在	-12.7832
生荒野中葉似蒼术葉亦有團葉者有三	-12.7832
細績雖南北習尚不同然北方隨刈即漚	-12.7832
一二百畦時新菜二三十種惟務多取糞	-12.7832
一體之間裁作重磴即可種	-12.7832
上外周以桑課之蠶利内皆種蔬先	-12.7832
井以備灌溉地若稍廣又可兼種麻苧果	-12.7832
利數倍此園夫之業可以代耕至	-12.7832
圃田種蔬果之田也周禮以	-12.7832
是以瀦洩有法而水旱皆不為患近	-12.7832
氣始虧隂慝將萌煖氣始盛蠱蠧並興乃	-12.7832
辨十有二壤之物而知其種以	-12.7832
齒兩邊黄各缺區平受米八	-12.7832
勃壤用狐埴壚用豕彊㯺用蕡輕	-12.7832
可六箔蠶十分中有九分老者宜少摻葉	-12.7832
嵗月皆得其用向之笑者咸求假焉	-12.7832
惟五月十三日謂之竹醉日又謂	-12.7832
曰甽長終畮一畮三甽一夫三百甽而播	-12.7832
竊謂架田附葑泥而種既無旱暵之	-12.7832
粼	-12.7832
茶曰蠟茶凡茗煎者擇嫩芽先以湯泡去	-12.7832
跟	-12.7832
一遇風寒大者損瘦小者或死燃栁柴	-12.7832
九川滌源九澤既陂	-12.7832
冬雨雪止以物輒藺麥上掩其	-12.7832
又種榆法其於地畔種者致雀損	-12.7832
后王氏乾元二年皇后張氏並見親蠶禮	-12.7832
壓條栽條之法三者擇而行之	-12.7832
天門冬知母貝母紫	-12.7832
子其置也若棄則其天者全而其性得矣	-12.7832
寸旱則澆之若不雜黍種須旋	-12.7832
底架以木槌用與上同	-12.7832
得其法使樹頭易得其條條上	-12.7832
此洛陽方左千里之所宜其他地方隨	-12.7832
熱約量去火一眠之後但天氣晴明巳午	-12.7832
盛蠶器也秦觀蠶書云種變方尺及乎	-12.7832
稠為後患也養蠶過三十箔者可更加下	-12.7832
若今之善農者審方域田	-12.7832
草茂時開謂之䅖青可當草糞	-12.7832
貯者天下之大命也茍粟多而財有餘何	-12.7832
農不如工工不如商刺繡	-12.7832
逺宜為樹魯之類根不固心不實不能	-12.7832
􁏳	-12.7832
一兩半酒一升葱白三握	-12.7832
之中餓死過半假有在者疥瘦羸	-12.7832
之則無用筩也若江河泉澗索水之處過	-12.7832
之間縱有霖雨亦不能為害矣朝廷於此	-12.7832
之麻大約五月初一鎌六月半一鎌八月	-12.7832
五寸許葉似葛勒子秧葉	-12.7832
亦鬯茂燕趙及遼以東多	-12.7832
似如有膚羊羔乳食其母比至正月母皆	-12.7832
列仙傳云赤松子食栢子齒落更生採	-12.7832
匱乏之足患凍餒之足憂哉正月種麻枲	-12.7832
半所有料全繳拌食盡即	-12.7832
叉亦多又似漏蘆葉却	-12.7832
及丈麥已熟時忽為風雨所倒不能芟取	-12.7832
地車戽若積為池沼再	-12.7832
多糞力峻熱即燒殺物反為害矣	-12.7832
大黄枳殻麻子仁黄連厚	-12.7832
寸旁行相去亦五寸一溝容四十四株一	-12.7832
就作地桑或削去細條存留	-12.7832
山南山北之異鄭君之	-12.7832
帶一鈴草盡牛不食則鈴無聲即拌之飽	-12.7832
彞	-12.7832
彷彿稗子穗其子如黍粒大茶褐色味甘	-12.7832
擺拖挽之患後中心枝既	-12.7832
斛先投柴棘燒令其土焦燥然後周以糠	-12.7832
旋覆花一名戴椹一名金沸草一名盛椹	-12.7832
未能遽革今聞善蠶者	-12.7832
架槽而灌之或迤而建之以當龍尾恒升	-12.7832
梁横亘焉梁之上為二陷以居雙筩之	-12.7832
樹下阬上糞惡流水之地	-12.7832
水牛飲飼與黄牛同夏須得水池冬須得	-12.7832
法沃灌以時人力既到則地利自饒雖遇	-12.7832
灌畦治田致為利益矣若為之複井井之	-12.7832
甲乙丙丁盤也丙丁為孔以合	-12.7832
磧	-12.7832
禹貢冀州厥土惟白壤厥田惟中中	-12.7832
窖上栽樹大至合抱内若變	-12.7832
糞朽以糞之則地力常新壯而收穫不減	-12.7832
經兩社即倍收而堅好	-12.7832
縱遇根株不至擘缺妨誤工力或地	-12.7832
翻過又不下者並連棄了此殘病	-12.7832
良可憫也北方地經霜雪不甚懼旱惟水	-12.7832
苓黄耆知母貝母	-12.7832
葉間開細瓣淡粉紫花黄心葉味	-12.7832
薄開淡黄花結薄殻中有子大如豌豆烏	-12.7832
蝎	-12.7832
費財用實無所益故表而出之以	-12.7832
逺宜為地桑然荆之條葉不如魯葉之	-12.7832
長可三尺有餘廣可四五寸碪首置木簨	-12.7832
鹽令消以灌口中必愈	-12.7832
􁑞	-12.7832
有雌雄而雄者多不結實可鑿木作方寸	-12.7833
為上品如雀舌麥顆特次材耳採訖以甑	-12.7833
鋒故名鋒取其銛利也地若堅垎	-12.7833
鋒而後耕牛乃省力又不乏	-12.7833
小滿至芒種節則大水已過然後以黄穋	-12.7833
種之於湖田然則有芒之種與芒種	-12.7833
如麻地即於六月中旱時耬耩作壟	-12.7833
淵廣州記云蠻夷不蠶採木棉為絮又諸	-12.7833
田千百餘頃利澤一方永無旱暵	-12.7833
凡蠶生室内四壁挫壘	-12.7833
加糞撥土為區如無牛	-12.7833
性其本欲舒其培欲平其土欲故其築欲	-12.7833
椽棧之懸於槌上至蠶分擡去蓐時取其	-12.7833
此物性不耐寒陽中之樹冬須草裹	-12.7833
維南有箕載翕其舌故箕皆有舌易	-12.7833
葉頗長又似初生豌豆葉開黄花結小	-12.7833
三股通穿為一隨車長短如環無端索上	-12.7833
之上端上端者三圖之坎艮也	-12.7833
凳	-12.7833
則禾稼不茂種苗者不可無鋤芸之功也	-12.7833
原本無陂澤隨逐隈曲而田者二月	-12.7833
及臘八日浴時無令水極凍浸二日取出	-12.7833
四月上旬及棗葉生桑花落為下時嵗道	-12.7833
如耬鋤過苗間有小豁不到處用鋤理	-12.7833
子生函谷川谷及巴西河東皆有今古崤	-12.7833
尖向上左右斜批豁兩道至平面其下尖	-12.7833
就箔上撥蠶入簇如是則無簇	-12.7833
帝制作衣裳因此始也	-12.7833
恐其子粒焦落乃用推	-12.7833
挈水械也通俗文曰桔橰機汲水也	-12.7833
掘地深埋春暖取出向陽掘畦種之	-12.7833
有餘則藏之以待凶而頒之	-12.7833
枝次年便可成樹或是就壓傍條一樹又	-12.7833
漢志云十升為斗斗者聚升之量也	-12.7833
生種者為上時三月上旬及清明節桃始	-12.7833
眼此繰絲必用鼎也今農家象其深大以	-12.7833
花結角比蘿蔔角又大其葉味甘	-12.7833
蠶經云黄帝元妃西陵氏始蠶	-12.7833
野蜀葵生荒野中就地叢生苗	-12.7833
量時水旱而溉之將熟又去水霜降穫之	-12.7833
钁墾斸又便貧難大率一家五口可種一	-12.7833
雨前後揀好天氣日下種先一日	-12.7833
龕狀如三星務要玲瓏頓藏熟火以通	-12.7833
一尺餘葉似野蜀葵葉稍大	-12.7833
之又束之者水力大而易渫也四曰中筩	-12.7833
午時又出連舒卷須要變至十分	-12.7833
厦屋㝷常别用至蠶老時置簇於内隨其	-12.7833
又有不觚稜混而圓者謂混軸俱用畜力	-12.7833
常法伏内壓條特為滋茂一法截條長四	-12.7833
庾或作㢏倉無屋者詩曰	-12.7833
治稻者蓄陂塘以瀦之置隄閘以止之	-12.7833
紅人家園圃多種之葉似人莧葉	-12.7833
衡而無定度圜其尾去首二尺而圜其	-12.7833
其汁纔令相淹不用過多泥頭七日便熟	-12.7834
羊得四倍羊羔臘月正月生者留以作	-12.7834
色生好粉黍米粥清亦用絹篩麥䴷末澆	-12.7834
四角或六角臂通長一尺五寸	-12.7834
與盆齊軸長二尺中徑四寸兩頭三寸	-12.7834
雌木填之乃實以銀杏雄樹試之便	-12.7834
引江潮流行於岡隴之外	-12.7834
糢	-12.7834
児	-12.7834
兒樹生中牟土山間樹髙五尺餘枝條上	-12.7834
州記曰秭歸縣有屈原宅女嬃廟𢷬衣石	-12.7834
旃裘毛毳之物及箭羽以竿	-12.7834
柢	-12.7834
耕蒔若遇水荒田制既小堅築	-12.7834
詁	-12.7834
雨新晴北風寒切是夜必霜此時放火作	-12.7834
面俱置瀽穴如此形制順置田	-12.7834
上管以受上樞戊也下管以受下樞	-12.7834
墢猶塊也起其墢者鑱也覆其墢者壁也	-12.7834
心肺壅熱口鼻流血跳躑煩燥	-12.7834
欲作器物先種梓漆時人嗤之	-12.7834
線自上樞之末亢作垂線而兩線相遇	-12.7834
金凡十有一事耕之土曰墢	-12.7834
鍥䥛集韻通用又謂之彎刀以刈草	-12.7834
鴝	-12.7834
䑕肉味甘無毒令小兒消	-12.7834
之盪字同音異所用亦各不類因辯及之	-12.7834
京兆乃令整阡陌樹桑果又課以	-12.7834
則箭下入土也深退之則箭上入土也淺	-12.7834
區亦可春分前後取臘月所埋桑條	-12.7834
如地桑法大葉魯桑條上青眼動時	-12.7834
易用南方萑葦甚多農家尤	-12.7834
有萌芽處各盤七八寸或一尺鏉區下水	-12.7834
杓以勺從木姑與今同此作蠶杓	-12.7834
牛者令畜豬投貴時賣以買牛始者民以	-12.7834
築以土封瘢比及地凍於上約量添糞春	-12.7834
蓖	-12.7834
三四尺莖五稜葉似大花苦苣菜葉莖葉	-12.7834
不可速也然則桔其植者而橰其俯仰者	-12.7834
令上有一寸土不可令過一寸亦不可令	-12.7834
十餘比之全樹栽者樹樹必活桑亦榮茂	-12.7834
半轅至梢中間掩四尺犂之終始丈有二	-12.7834
命宫中食蠶親自臨視宋開寳通禮郊祀	-12.7834
唐韻云蓑草名可為雨衣又名襏	-12.7834
地畢破其塊墢而後用勞平磨乃為得也	-12.7834
子壓枝種之若有子可便種須用地隂處	-12.7834
尺嘗悉以一尺地積穰不相受	-12.7834
後雪復如此則麥耐旱多實	-12.7834
旦視而暮撫已去而復顧甚者爪其膚以	-12.7834
早雖浸芽不生但燥種之不須	-12.7834
此立輪之法也然亦當視其水勢隨	-12.7834
液也欲用桑皮將臘月正	-12.7834
為土盆雨則可聚旱則可澆樹南春先種	-12.7834
者皆於長木柄頭造為擐軸舉而轉之以	-12.7834
諡	-12.7834
起瀝乾次日如前候纑極白方可	-12.7834
車隨轉倒水上岸此是卧輪之制若作立	-12.7834
輪下輪半在水内各輪徑可四尺輪之一	-12.7834
鑱長一尺四寸廣六寸壁廣長皆尺微橢	-12.7834
飯湯入少許醋調灌療肺毒	-12.7834
㨶	-12.7834
上下徐州厥土赤埴墳厥田	-12.7834
之此舊制以今較之頗拙於用故	-12.7834
之注曰專一也架法見恒升篇恒升車記	-12.7834
今法寡力之家比耕耙耬砘易為功也	-12.7834
任令滋長休科去新	-12.7834
初生伏又未能工惟數年之中	-12.7834
外有列齒獨用於水田破塊滓溷泥塗也	-12.7834
所負擔也方言云罃陳魏宋楚之間曰㼶	-12.7834
杷或謂透齒杷用攤曬	-12.7834
梯木階也夫桑之穉者用几採	-12.7834
樁樁上枕以伏牛擗	-12.7834
燃之以代油燭亦貧家之利	-12.7834
筩之長無定度下端所至居水之中已上	-12.7834
紴	-12.7834
色人多摘取串作數珠葉味淡甜	-12.7834
虎黄雀民溱馬洩韁劉	-12.7834
頁	-12.7834
􁔻	-12.7834
􁕺	-12.7834
陽以一立為法故粟積大一分	-12.7834
云速鋒之地恒潤澤而不硬注曰刈	-12.7835
之無法碾焙煎試之失宜則雖建芽浙茗	-12.7835
榖雨前者為佳過此不及然茶之	-12.7835
釋滯去垢破睡除煩功則著矣其或採造	-12.7835
野生薑本草名劉寄奴生	-12.7835
下種後未遇連雨雖一月不生亦勿	-12.7835
平一同春法但既是旱種不須耬潤此菜	-12.7835
收取種繭必取居簇中者	-12.7835
氐其亢氐線必長六尺氐房線	-12.7835
耕墾者於子熟時好子稍有零落者然後	-12.7835
之計莫若少倣遂人之制	-12.7835
人家多於山野古窯中收取	-12.7835
可及尺以供食用亦為便法	-12.7835
如用小灰紙更妙連須以時浴之浴畢	-12.7835
岸深或田在山上皆可及	-12.7835
已三禮圖曰筥受五升盛饔餼之米致於	-12.7835
皆可便食是用接新代飯充飽	-12.7835
種子及栽皆得壓枝亦生栽種與桃李同	-12.7835
種禾黍於溝間夾溝為兩行去溝兩	-12.7835
背圓葉似團匙頭様有如杏葉大	-12.7835
茡	-12.7835
起一車計及二百餘尺如田	-12.7835
農家種之亦廣人俱作豆粥豆飯或作餌	-12.7835
連匠者嘗别抄以鬻之務本新書云蠶連	-12.7835
館良耜詩曰載筐及筥左傳筐筥錡	-12.7835
不待車扇又勝箕簸田家便之	-12.7835
之圓者圓謂之囷方謂之京	-12.7835
出覆土覆厚一指再勿澆待六七	-12.7835
孫之庾如坻如京又曰我庾維億	-12.7835
庾鄭詩箋云露積榖也集	-12.7835
料白豆粥飯皆可拌食	-12.7835
有蛾出者便就出種罨壓熏蒸因熱而生	-12.7835
牛馬料食黄豆可作豆腐可作	-12.7835
用戽斗控以雙綆兩人掣之抒水上岸以	-12.7835
紅色者亦有紫色者莖葉間結實比莧實	-12.7835
而西謂之注箕皆籮之别名也	-12.7835
言籮所以注斛陳魏宋楚之間謂之䈪自	-12.7835
量力均辦所需工物乃深植樁木列置石	-12.7835
艶	-12.7836
中色欲得紅白如火光為善材多氣良且	-12.7836
毡	-12.7836
乳乳母好堪為種産	-12.7836
者因留之以為種惡者還賣不	-12.7836
連頃另有刀工各具其器割刈根莖劖削	-12.7836
䵖	-12.7836
憾	-12.7836
戛	-12.7836
百果樹下則結實牢不實者亦宜用此法	-12.7836
文如王火字欲得明鼻上文如王公五十	-12.7836
蝇	-12.7836
詔立大司農司不治他事	-12.7836
以板為級上用木槽引水直下射轉	-12.7836
則麻皮潔白柔韌可績細布南方但連根	-12.7836
東宫舊事曰太子納妃有石砧一枚又𢷬	-12.7836
郪	-12.7836
㢮	-12.7836
吮	-12.7836
大黄山梔子𤓰蔞為末水	-12.7836
故鑱引而居下壁偃而居上鑱	-12.7836
綃	-12.7836
以鋸子割所患蹄頭前正當中斜割之	-12.7836
但不自本土所産不能足用	-12.7836
并作雞籠懸中夏月盛晝雞	-12.7836
指者亦殺人雞有五色者亦殺人養生論	-12.7836
板長廣相稱上置兩耳	-12.7836
深厚則難生以手按匀區東南西種	-12.7836
箕星好風謂主簸揚農家所以資其用也	-12.7836
開花斟酌窠數削去枝葉再長晚茄	-12.7836
齒形去之如剪箭括向深一寸許刀子摘	-12.7836
一石艾一把藏以瓦器竹器順時種之則	-12.7836
不及茍有能反是者則又愛之太恩憂之	-12.7836
光俊又似山格刺葉却小味甘	-12.7836
劃	-12.7836
動左邊大輪弦隨輪轉衆機皆動	-12.7836
可以青徐論宜於荆揚者不可以雍豫擬	-12.7836
土産之物皆可推而知之矣大抵風土之	-12.7836
大雨不待白背濕轆則令苗	-12.7836
寂	-12.7836
山田種强苗以避風霜澤	-12.7836
所留者明年則為柯其眼中所	-12.7836
摸	-12.7836
柱各髙五尺中穿横桄上架枋木其枋木	-12.7836
桔結也所以固屬橰臯也所以利轉又曰	-12.7836
此天地覆載一定古今不可易者	-12.7836
水激立輪其輪輻之末復作小輪輻頭稍	-12.7836
然白輭曬乾再用清水煮一度别用水擺	-12.7836
置篩過細糞或拌蠶沙	-12.7836
者用秋耕地開春凍解地起有潤澤時急	-12.7836
而同於生物生物之性雖同而所生之物	-12.7836
金盞菜一名地冬𤓰菜生田野中	-12.7836
鐵三五斤以泥封之便開花結子	-12.7836
陳思王曰寒者不貪尺玉而思	-12.7836
露日出乃止凡種黍覆土鋤治皆如禾法	-12.7836
饗農及郵表畷禽獸仁之至義之盡也	-12.7836
麥令相去二寸一行一溝容五十二株一	-12.7836
作甔字從瓦瓦器也今江淮間農家造泥	-12.7836
圓倉也禮月令曰修囷倉説文	-12.7836
大黄五靈脂木鼈子去油海桐皮甘草	-12.7836
孔疏云屝屨俱是在足之物善惡異名耳	-12.7836
布蠶簇訖復用箔圍及苫繳簇頂如圓亭	-12.7836
故以為名後於葉間攛生莖	-12.7836
教民耕殖其法三犂共一牛一人	-12.7836
樹之五麻若髙若下不擇疇所	-12.7836
淇衛之間謂之牛筐小者南楚謂之簍	-12.7836
田惟中下青州厥土白墳厥田	-12.7836
瞑	-12.7836
箕而小前有木舌後有竹柄農夫收穫之	-12.7836
脤	-12.7836
鉸了亦洗如初其八月半後鉸者	-12.7836
鋩	-12.7836
開粉紅花結子似胡麻子葉味苦	-12.7836
餺	-12.7836
葉狹而長狀如益母草葉一枝七葉	-12.7836
為常品故採之宜早率以清	-12.7837
鮝	-12.7837
亦大開淡粉紫花結角似家豌豆角但秕	-12.7837
徧舉世所名者荆與魯也荆桑多椹魯	-12.7837
稻收割畢將田鋤成行	-12.7837
䋔縷既盈乃脱軖付之繩車或作别用	-12.7837
所有蠶神室蠶神像宜	-12.7837
櫜	-12.7837
礲糠亦得夏月稀冬月稠然後種竹	-12.7837
著即枯死月庵種竹法深	-12.7837
蓼作葅者長二寸則剪絹袋盛	-12.7837
須内外泥飾材木以防火患復要間架寛	-12.7837
麥上土令厚二寸凡區種大豆令相去一	-12.7837
中令人驅鳥稻苗長七八寸陳草復起以	-12.7837
亦安骨石其斸根栽者亦圓布之安骨石	-12.7837
動軖即隨轉自下引絲上軖總名曰繅車	-12.7837
務使田平而土潤與耙頗異耙有渠	-12.7837
口農家用貯穀種庋之風處不致鬱	-12.7837
圖曰大筐以竹受五斛以盛米致饋於聘	-12.7837
在土中故不成溝子第二遍加擗土木	-12.7837
如種麥治地畢豫浸一宿然後打潭下子	-12.7837
守之仍多方設法以防獺害凡所居近數	-12.7837
家院掃除蛛網及	-12.7837
小筐以竹受五升以盛米又曰筐以盛熬	-12.7837
後多白殭每擡之後箔上蠶	-12.7837
成砧盤接者但其縫罅上用紙封又用破	-12.7837
所以藏粢盛之穗説文曰倉黄	-12.7837
時令蠶子向外恐有風磨損冬至日及臘	-12.7837
椽五莖上撮一處繫定外以蘆箔繳合是	-12.7837
男子兼作婦人童稚量力分工定為課業	-12.7837
留精然要其終皆有所除是也	-12.7837
與篅皆𥫱之别名但大小有差亦蓧	-12.7837
近上向陽或在苫草上者此乃强良好繭	-12.7837
飣	-12.7837
﨑	-12.7837
舫	-12.7837
欲正赤上理文欲使通直勿令	-12.7838
駒齒死矣口吻欲得長口中色欲得	-12.7838
抽筳每筒牽紡易為匀細皆捲筳之效也	-12.7838
涷	-12.7838
𬒳	-12.7838
今汲用之家必有轆轤為綆設也	-12.7838
尙	-12.7838
神守八月内三神守神守者	-12.7838
錠	-12.7838
既生以柴木倚牆令其緣上旱則澆之	-12.7838
趼	-12.7838
難成造其制兩柄上彎髙可三尺兩足中	-12.7838
中置耬斗其所盛種粒各下通足竅仍旁	-12.7838
兩轅可容一牛用一人牽	-12.7838
又教邊郡及居延城	-12.7838
地乎宋太宗詔江南之民種諸	-12.7838
壁濕潤非所利也夫締	-12.7838
夜深如冬寒暄不一雖有熟火各合斟	-12.7838
子貢曰有械於此一日浸百畦鑿木為機	-12.7838
成稀泥然後下栽子掘取時連土封用草	-12.7838
或麻繩纒束則不致碎破土封	-12.7838
掃塵埃預期泥補若逼近臨時	-12.7838
枝上所長條至臘月科令稀匀得所至來	-12.7838
溝之水皆有所歸不至溢出而田禾無淹	-12.7838
秋天雲隂若無風則無雨	-12.7838
與平地無差不爾者土堅澤流長物	-12.7838
轅之後末曰梢中在手所以執耕者也	-12.7838
醂	-12.7838
開紅白花作穗子結實青白色形如珠而	-12.7838
其亦因九州之别土性之異視其土宜而	-12.7838
其土地之廣不外乎是但所屬	-12.7838
其所包土亦休取去至秋條長成接	-12.7838
咿	-12.7838
天子三推三公五推卿諸侯九推反執爵	-12.7838
承蠶具也禮具曲植曲即箔也周勃以織	-12.7838
掃除常淨不令他物所侵	-12.7838
撻打田篲也用科木縛如	-12.7838
棵	-12.7838
橇解者曰橇形如箕摘行泥	-12.7838
水澆常令潤澤既生又以骨石布其	-12.7838
治病今人傳說採苗搗傅	-12.7838
秦雍之地所拒川水率用巨	-12.7838
稀布稠則强者得食弱者不得食必	-12.7838
箔遊走又風氣不通忽遇倉卒開	-12.7838
耕百人食之一婦桑百人衣之以一奉百	-12.7838
荆魯桑小樹如轉盤時於臘月内可去不	-12.7838
莫不耕稼力田吏民親愛信臣號曰召父	-12.7838
蠶蟻時先辟東間一間四角挫壘空龕	-12.7838
鏄	-12.7838
鐻	-12.7838
擡如無茅草稈草次之	-12.7838
賸	-12.7839
東井井之水人所汲用缶楊惲	-12.7839
地既遍則用耙勞覆之又頗省力	-12.7839
此北方種麥之法南方惟用撮種故	-12.7839
假有一村兩家相合低築圍	-12.7839
南人用竹其制不同用則一也詩	-12.7839
如能依上法自然宜蠶不必泥	-12.7839
尤忌西南風起大傷蠶氣可外置	-12.7839
惡之事邪穢之氣辟除蠲潔夙夜齋敬不	-12.7839
灰毋室入外人四者神實惡之	-12.7839
筒車流水筒輪凡制此車先視岸之	-12.7839
不救之田地上有可興之雨其用水有法	-12.7839
云此器出自海壖號曰耬鋤耬	-12.7839
假此以便其事幸毋忽諸	-12.7839
其上以竹木焉續之竹木之筩之徑必與	-12.7839
所轉上輪形如軭制易繳筒索用人則	-12.7839
獨不見夫桔橰者乎引之則俯舍之則仰	-12.7839
蜂窠前置水一器不致渴損	-12.7839
變三分第二日變七分却用	-12.7839
轂左手引麻牽軖既轉右手續接麻皮成	-12.7839
餘摘之其有蜂王分窠羣蜂飛去用碎土	-12.7839
餘者割取作蜜蠟至春三月掃除如前常	-12.7839
􁢌	-12.7839
大暑中伏後可收芥子七月八月可種芥	-12.7839
近枝莖薄安黍穰彌佳無穰直安	-12.7839
一曰相馬氣發口中欲見紅白色如穴中	-12.7839
不鮮明上盤不通明為惡材少氣不	-12.7839
黄豆苗今處處有之人家田園中多種苗	-12.784
三時一曰朝飲少之二曰晝飲則胷	-12.784
列四繀座上鑿置獨柱髙可二尺餘柱	-12.784
螺青川芎知母川鬱金牛蒡	-12.784
駰	-12.784
憤	-12.784
滿地省耕種之勞秋種者五月子熟	-12.784
今鹿豆也葉似大豆根黄而香蔓延生	-12.784
盛冬耕泄隂氣土枯燥名曰脯田脯田與	-12.784
躃	-12.784
遶九洲無窮自謂江湖也至	-12.784
刮板剗土具也用木板一葉	-12.784
圜𥫱泥塗其内草苫於上謂之露𥫱者	-12.784
多者輒歴載酒肴從而勞之便	-12.784
平板平摩種秧泥田器也用滑	-12.784
所以養鯉者鯉不相食易長又貴也	-12.784
旋添新水以生凉氣如遇風雨夜凉	-12.784
檗	-12.784
禁止嫁娶送終奢靡務	-12.784
者獨不見勞各自恥不能致丹其後無	-12.784
而掉之車輪隨轉則衆輻循槽刮水上岸	-12.784
耕一當再若七月耕五不當一冬雨雪止	-12.784
遯	-12.784
長故名薏珠子味甘微寒無毒今人	-12.784
餙	-12.784
之一端以鐵為裊掉復用曲木擐作活軸	-12.784
其數八其味酸其臭羶其祀户祭先脾	-12.784
其柄此南俗蠶法北方箔簇頗大臂指間	-12.784
其蒸餾之法用籠三扇用軟草札一圏加	-12.784
其處至蠶老歸簇或稀宻不倫亦用均布	-12.784
即不幸有方二三千里之旱國胡以相恤	-12.784
圌	-12.784
域之多大有不同詳而言之雖一州之域	-12.784
如長成樹者當中有身及枝者亦可斫去	-12.784
宜風燥之種時就浸水内又其便也	-12.784
彛	-12.784
扉	-12.784
暎	-12.784
杚	-12.784
犝	-12.784
用有遲速也古農法云耬種後用撻則	-12.784
用漆在燥熱及霜冷時則難乾得隂濕雖	-12.784
町皆廣一尺五寸長四丈八尺尺直横	-12.784
百一十日秀秀後六十日成忌與大麥同	-12.784
石五斗為俸餘半納官	-12.784
羊膿鼻口頰生瘡如乾癬者名曰可妬	-12.784
蠶中庭使日氣煦照擡一箔則復布一箔	-12.784
裔不無遼絶若能自内而	-12.784
語曰力能勝貧謹能勝	-12.784
雨風冷則不敢擡用茅草細切如	-12.784
首以縛秧日行千畦較之傴僂而作者勞	-12.784
匀撒蠶上上再摻葉移時蠶因食葉沿上	-12.784
郭璞云汲水索也易卦云汔	-12.784
鳩脚老枝三年即結子而樹醜	-12.7841
毋治堰毋誅草毋沃	-12.7841
之孔融錫而合之其長無定度量水之出	-12.7841
也斟酌焉而為之度或銅錫之中筩裁數	-12.7841
以麻草用貯食米可以代儋細民甚便之	-12.7841
制頗同獨無耬斗但用	-12.7841
四月蠶入簇時雨降可種黍禾	-12.7841
孔以當中筩之上端融錫而合之盤	-12.7841
次東又次之若室舊則當	-12.7841
漬經三宿漉出内草篅	-12.7841
為䈰箕南曰䉛北曰䈰南方用竹北方用	-12.7841
物或設機械而就假其力或用挑浚而永	-12.7841
農家所先雖南北名制不同而其用則一	-12.7841
遇流水狹處但壘石斂水凑之亦為便易	-12.7841
長筩旁管之徑等中筩之下端為敞口以	-12.7841
門暗值賊風後多紅殭布蠶須要手輕不	-12.7841
一一單排日數既足其蛾自生免熏罨	-12.7841
治野夫間有遂遂上有徑	-12.7841
一截稍短而勁控以繩絃用彈棉英如彈	-12.7841
平明時令兩人持長索相對各持一端以	-12.7841
禾中去霜露日出乃止如此禾稼五	-12.7841
二尺用竹篾均列四彎内引下座四繀紡	-12.7841
倍始出閩建今欲傳之他方同趨省便	-12.7841
田家作苦嵗時伏臘烹羊炰羔斗酒自勞	-12.7841
線架以木為之下作方座長濶尺餘	-12.7841
以祈福祥順豐年逆時雨寧風旱	-12.7841
安能以有其民哉明主知其然也故務民	-12.7841
生之異灰兒蠶秋母蠶秋中蠶老秋兒蠶	-12.7841
勞之功不至而望禾稼之秀茂實栗難矣	-12.7841
壟漫散即再勞之明年春生有草	-12.7841
為敗田秋無雨而耕絶土氣土堅垎名曰	-12.7841
蜻	-12.7841
之類引而達之此用水之巧者若	-12.7842
亦薄花開白色結子紅紫色附枝莖而生	-12.7842
内浸一宿紡車紡訖用桑柴灰淋	-12.7842
斆	-12.7842
渴視牛之困苦羸瘠猶	-12.7842
牯	-12.7842
王丹家累千金好施與周人之急每	-12.7842
類五味子其核仁味甘性温	-12.7842
之勢也五曰盤鍊銅或錫以為盤中盤之	-12.7842
之困苦羸瘠視牛之疫癘若	-12.7842
和藥調停灌下牽行抛糞即愈	-12.7842
太宗文皇帝世祖章皇帝聖祖仁皇帝	-12.7842
室必選置蠶宅負隂抱陽地位平爽正室	-12.7842
已降寒氣侵人洗即不	-12.7842
後雪復藺之則立春保澤凍蟲死來年	-12.7842
推按或人或畜輓行以剗壅脚土凡修閘	-12.7842
晼	-12.7842
有知其利者又莫得其用之具今特多方	-12.7842
欲令别病法當欄前作瀆深二	-12.7842
沃饒之資但人情拘於常見不能通變間	-12.7842
沭	-12.7842
浥之憂死蠶旋墜無汚繭之患沙	-12.7842
牙上下數重所在皆得懸訖薪下	-12.7842
盼	-12.7842
種八月熟出西方赤小麥赤而肥出鄭縣	-12.7842
至後七十日可種宿麥早種則蟲而有節	-12.7842
至正月掃去畦中陳葉凍	-12.7842
逺近彼此之間風土各有别也	-12.7842
過熟則抛費每日至晚	-12.7842
邐	-12.7842
郄	-12.7842
鋪三箔上承塵埃下隔濕潤鋪砌碎	-12.7842
餾繰冷盆絲其繭薄紋理細者必繰不快	-12.7842
首如木椎柄長四尺可以平田疇擊塊	-12.7842
齒狀横條上約五寸留一芽其餘	-12.7842
橧	-12.7842
泳	-12.7842
溠	-12.7842
至亦未繘井方言繘自	-12.7842
以數計大可灌田數百頃小可溉田數十	-12.7842
先於岸側掘成峻槽與車輻同	-12.7842
利官陂官塘處處有之民間所自為溪堨	-12.7842
斗桔橰之類挈而上之如地勢曲折而水	-12.7842
若溝渠陂堨上置水閘以備	-12.7842
三宫之夫人世婦之吉者使入蠶	-12.7842
之制無異凡臨坎井或積水淵潭可	-12.7842
功堅脆懸絶資生要理安可不知	-12.7842
及青摘取可以為菹乾而末之亦足充事	-12.7842
大小籠内匀鋪繭厚三四指許頻	-12.7842
數類而言之則囷之名舊矣	-12.7842
爚	-12.7842
謂之笯郭璞云亦呼籃蓋一器而異名也	-12.7842
多則不任北方蠶多露簇率多損壓壅閼	-12.7842
籰上然後紡合今得此制甚為速妙	-12.7843
也果之一生者質小而味惡既一接之	-12.7843
距骨欲出前間骨欲出前後	-12.7843
耨柄尺此其度也其耨六寸所以間稼也	-12.7843
鸝	-12.7843
轤	-12.7843
暉	-12.7843
諾	-12.7843
牽引漸長右手均撚俱成𦂳	-12.7843
縷就繞繀上欲作線織置車在左再	-12.7843
齒左右蹉不相當難御齒不周	-12.7843
年之豐凶以制國用量入以為出	-12.7843
服䖍曰一月之中又得夜	-12.7843
朞	-12.7843
兒蠶同繭蠶或二蠶三蠶共為一繭凡三	-12.7843
壠土覆種稍深也或耕過田畆土性虚浮	-12.7843
稗既堪水旱種無不熟之時又特滋茂	-12.7843
冬花瞿麥山梔子地仙草青黛硼砂	-12.7843
曵重撻夏種欲淺直置自生	-12.7843
獬	-12.7843
百本䪥五十本葱一畦韭家二母彘五雞	-12.7843
譙	-12.7843
及二尺用載農具及芻種等物以	-12.7843
紅熟果食之嫩葉亦可煠熟油鹽調食	-12.7843
隕	-12.7843
駿發爾私終三十里亦服爾耕十千	-12.7843
鹿車東齊海岱之間謂之道	-12.7843
之神則雪霜風雨之不時於是乎禜之	-12.7843
厚者亦可以湯洗之去痂拭燥以藥	-12.7843
將之下種挽耬皆取備焉日種一頃	-12.7843
稑之種周知其名與其所宜地以為法而	-12.7843
鱣	-12.7843
䴭	-12.7843
交立夏節為四月交立秋節為七月交立	-12.7843
以籜箬覆於人背繩繫肩下耘	-12.7843
冷接取清以小角受一雞子者	-12.7843
剜	-12.7843
如斸是名钁鋤故陸田多不豐收今表此	-12.7843
封畛之别地勢遼絶其間物産所宜者	-12.7843
循行國邑周視原野修利隄防道	-12.7843
柴空隙處築得極實	-12.7843
洗瘡上刮取車軸頭脂	-12.7843
澤欲熟時下少許青蒿以發色	-12.7843
用溜竹二莖兩端俱出一握許以便扛移	-12.7843
箜	-12.7843
綿羃鐺觜瓶口㵼	-12.7843
若多者日别漸漸塗之勿頓塗令徧羊	-12.7843
遜	-12.7843
鐺中即以浸香酒和之煎數沸後便緩火	-12.7843
長於辰老於巳死於午惡於	-12.7843
今有善蠶者一説南北之間蠶少	-12.7843
以木架平鋪蒿梢布蠶於上用蓆	-12.7843
其旁田畮一斛以上令命家田三輔公田	-12.7843
北方例皆外簇然南簇在屋以其蠶少易	-12.7843
古雍梁二州井鬼翼軫分野	-12.7843
掛時須蠶子向外恐有風磨損其子	-12.7843
揣	-12.7843
摀	-12.7843
春雨難期必須藉澤蹉跎失機則不得矣	-12.7843
入若遇大熱盡捲苫	-12.7844
漸漸益火寒而驟熱則	-12.7844
苦病少繭成一室之功也然寒不可驟加	-12.7844
撥車其制頗肖麻苧	-12.7844
車但以竹為之方圓不等特更輕便按舊	-12.7844
蓬一名鹽蓬生水傍下濕地莖似落	-12.7844
即前水轉筒車但於轉軸外端别造	-12.7844
大難悉數内而京師外而列郡至於邊境	-12.7844
得此以免曝烈之苦亦一壺千金之比也	-12.7844
或蓄為陂塘以資灌溉安有旱暵之憂哉	-12.7844
有志於勤民者宜倣宋主此意通行南北	-12.7844
田舉皆用此江淮間雖有陸田習俗水種	-12.7844
行及刈過葦泊中皆用之	-12.7844
起如箕中綴毛繩前後	-12.7844
車起水者次之或再車三車之田又為次	-12.7844
隙穴具槌持箔籠	-12.7844
哆	-12.7844
江淮河漢及所在川澤皆可引而及田以	-12.7844
若水力稍緩亦有木石制為陂	-12.7844
蠶多不旺已後簇内懶老翁赤	-12.7844
蠶房槌箔上從頭合籠内繭在上用手	-12.7844
謂之天池以灌田稻日夜不息絶勝人力	-12.7844
軟了絲頭亦不要蒸得不及不及則蛾必	-12.7844
花而莢者謂樗無花不實謂椿	-12.7845
陶朱公曰子欲速富當畜五	-12.7845
恡	-12.7845
狩	-12.7845
青鹽黄連馬牙硝㽔仁	-12.7845
制比麻苧紡車頗小夫輪動弦轉莩繀	-12.7845
淸	-12.7845
相從者所以省費燎火同巧拙而合習俗	-12.7845
后妃齋戒親東鄉躬桑禁婦女毋觀	-12.7845
朴硝油烟墨等分為細末	-12.7845
之卧置池内水要寒煖得	-12.7845
土而弱之也春候地氣始通	-12.7845
多有父馬者别作一坊多置槽	-12.7845
輒耕輕土弱土望杏花落復耕耕輒	-12.7845
鄽	-12.7845
􁇌	-12.7845
㳫	-12.7845
合蒿葉於好酒中痛挼使汁甚滑白桃	-12.7845
壄	-12.7845
生真定平澤及田野交	-12.7845
磨之功今人呼耙曰渠疏勞曰	-12.7845
締	-12.7845
輪轉左手引絲上筒遂成絲繀以充織緯	-12.7845
八日浴時無令水極深浸浴	-12.7845
即便載麥上場堆積用苫繳覆以防雨作	-12.7845
垤	-12.7845
夫麰麥播種而耰之其地同樹之時又同	-12.7845
娱	-12.7845
恊	-12.7845
惴	-12.7845
氍	-12.7845
物者隨地所宜偶假其形而取便於用也	-12.7845
瘧	-12.7845
秋後泥乾地裂布掃麥種於上	-12.7845
種秔稻昔之秔稻惟秋一收今又有	-12.7845
莖葉間結青子極細小其葉味	-12.7845
蛻	-12.7845
贈	-12.7845
載穫濟濟有實其積萬億及秭	-12.7845
開十五箔擡飽食二十箔大眠擡三十箔	-12.7845
非耘耙耘爪所能去者故用此剗除特為	-12.7845
䴳	-12.7845
可也此督課之方也且天子親耕皇后親	-12.7845
樹千錢柴在外車板盤合樂器所在任用	-12.7845
芓	-12.7845
飼蠶者慎勿貪眠以懶為累	-12.7846
凡五果花盛時遭霜則無	-12.7846
取精集韻作簛又作簁或作篩其制有	-12.7846
圓様南方判竹編草或用籧	-12.7846
河水退灘淤地農人欲就泥裂漫撒麥種	-12.7846
病一眠候十分眠纔可住食至十分起	-12.7846
箕内堆聚多時蠶身有汗後必病損漸漸	-12.7846
而滑今他處多用無節竹條代之其法先	-12.7847
若深水藪澤則有葑田以木縛為田坵浮	-12.7847
下上架横竹列環以引衆緒總	-12.7847
五行書曰欲知蠶善惡常以三月三日天	-12.7847
家園圃亦多栽種樹髙丈餘葉似櫻桃葉	-12.7847
治火倉屋當中掘一阬	-12.7847
細碎乾牛糞阬底上鋪攤一層厚三四指	-12.7847
經架牽絲具也先排絲籰	-12.7847
阬周圍塼坯接壘	-12.7847
亦得然俱下者杜死則不生	-12.7847
俄	-12.7847
各自别安唯著䪊頭浪放	-12.7847
常令煖數日醋香便中用以	-12.7847
蘆根㕮咀令破以泔浸之以瓶盛塞口	-12.7847
醴烝畀祖妣以洽百禮	-12.7847
一二尺約量留三二條用依柱如前	-12.7847
三日則紅而裂遇雨薄攤當風處頻翻若	-12.7847
乘橇孟康曰橇形如箕摘行泥	-12.7847
人家園圃中亦栽葉形如葡萄葉頗長硬	-12.7847
兩岐張君為政樂不可支	-12.7847
兩牛兩人牽之一人將耕一人下種二人	-12.7847
千耦其耘徂隰徂畛	-12.7847
取清絲約量添加務要兩絲窩大小長均	-12.7847
口以上樹留十餘條長一尺以上餘者皆	-12.7847
周圍棘刺遮䕶接頭	-12.7847
和之青油裹之其冐霜雪	-12.7847
多以為永業又中土大河之側及淮灣水	-12.7847
守開稻田八千餘頃勸民耕種以	-12.7847
左右民之一事今世江南之民皆雜蒔諸	-12.7847
有遺利夫海内江淮河漢之外復有名水	-12.7847
杜頭封熟泥於上以土培覆	-12.7847
枝葉間生果初則青小熟大	-12.7847
殷富百姓歌曰桑無附枝麥	-12.7847
渺	-12.7847
潢汙洄互壅積泥滓退皆成淤灘亦可種	-12.7847
濾著瓷漆盞中令凝若作脣脂者以熟	-12.7847
為利十倍今其地京都所在尤宜疏通	-12.7847
行者常齧蒜令破以揩脣	-12.7847
趄	-12.7847
量留一半將其外一半左右削兩刀子成	-12.7847
面患皴者夜燒梨令	-12.7847
䄮	-12.7847
䆫	-12.7847
之節不至差謬此又圖之體用	-12.7847
人與天合物乘氣至則	-12.7847
假令十日二十日未出者亦勿	-12.7847
取鹹土兩石許以水淋取一石五斗	-12.7847
塞之羊則八月不鉸鉸	-12.7847
尖開白花似李子花結實比櫻桃又小熟	-12.7847
布囊盛粟等諸物種平量之埋隂地冬至	-12.7847
常變之或異又當推測晷度斟酌先後	-12.7847
是矣然按月農時特取天地南北之中氣	-12.7847
織絲麻之利類皆以麻枲頭貯衣民惰窳	-12.7847
膠柱鼓瑟之謂若夫逺近寒暖之漸殊正	-12.7847
諺曰旦起騎榖日中騎	-12.7847
鐶	-12.7847
騖	-12.7847
鰓	-12.7847
相對側劈開令深一寸每砧對接兩枝	-12.7848
瀆蓄陂澤以備水旱使斥鹵化而為膏腴	-12.7848
上有短銎以受鋤鉤鉤如鵝項下	-12.7848
傳曰農夫之務去草也芟夷	-12.7848
崇之絶其本根勿使能殖則善者信	-12.7848
徑等其上出之徑寧縮也無贏也水之入	-12.7848
篇三圖之坎艮庚辛是也上出之徑必縮	-12.7848
耕土覆之肥茂早熟雖不及區種亦勝凡	-12.7848
速眠不惟眠起得齊且無葉罨燠熱之病	-12.7848
在所祈報可知矣大田之詩言去其螟螣	-12.7849
􁍍	-12.7849
在内凝定自成黄蠟以	-12.7849
在市自然壓下物價境内百姓人人受賜	-12.7849
踦	-12.7849
小刺葉似杏葉頗團小開白花結實如葡	-12.7849
脣欲得緩上脣欲得方下脣欲得厚而多	-12.7849
又名曰種蒔曰耩子曰耬	-12.7849
古者纊絮綿一也今以精者為綿	-12.7849
各因潮漲而成以地法觀之雖若不同其	-12.7849
挍	-12.7849
掩種者子科大而易料理花出欲日日	-12.7849
梨枝僅得出頭以土壅四畔當	-12.7849
煎法一同合澤亦著青蒿以發色	-12.7849
者為絮因蠶家退繭造絮故有此車	-12.7849
耬凡用兩牛六人一日纔種二十五	-12.7849
雊	-12.7849
頭作三道急裹之骨小者一宿便盡大者	-12.7849
便枝梢小樹近上留三五條	-12.7849
倉斜擗水勢急凑筒輪其輪就軸作轂軸	-12.7849
力也鑿石為圓徑可尺許竅其中以受機	-12.7849
去毛以泔清淨洗乾以鹹汁洗之三度即	-12.7849
外又作木圏縛繞輪上就繫竹筒或木筒	-12.7849
春詔后帥外内命婦始	-12.7849
時住食起齊時投食此為抽飼	-12.7849
椄	-12.7849
滌膩最良角與刺俱堪入藥亦物之利益	-12.7849
眠之法謂抽減眠蠶之葉不致覆壓	-12.7849
稼穡不修桑果不茂畜産不肥鞭之可也	-12.7849
范陽有舊督亢渠漁陽	-12.7849
量黄白分數抽減所飼之葉漸次細切薄	-12.7849
麃	-12.7849
渥漉精熟然後踏糞入泥盪平田面乃可	-12.785
日老一箔可得絲二十五兩二十八日老	-12.785
渠川澤廢而不治不為不多倘能循按故	-12.785
苗直引無多槃岐故	-12.785
栭	-12.785
䰞	-12.7851
夏即不汗冬即不寒汗而極乾	-12.7851
肉入者必持薪樵輕重相分班白不提挈	-12.7851
下蜜柤入鍋内慢火煎熬候融化	-12.7851
囂	-12.7851
挶	-12.7851
毛芒牛馬皆不食與粟同時熟	-12.7851
恐起爭端當於園心以籬界	-12.7851
蘴	-12.7851
之時四五日内不用聞打鼓紡車	-12.7851
其地常潤澤可保豐熟普為塍埂可種稻	-12.7851
民興利務在富之躬勸耕農出入阡陌止	-12.7851
沙漲之東西而田焉是未可以為常也	-12.7851
沙田南方江淮間沙淤之田也或	-12.7851
客可糴麵及大麥弊絮	-12.7851
建星辰正於南由此以	-12.7851
篻	-12.7851
草茂可燒灰是月也可作棄蛹以禦	-12.7851
閣於樁柱山口之内輪	-12.7851
三刈留子者一刈則止春初既中生噉為	-12.7852
晝夜飼若頓數多者蠶必疾老少者遲老	-12.7852
少子若無茇處豎乾柴亦得	-12.7852
類棠梨葉但厚結果似木𤓰稍團味酸甜	-12.7852
㯳	-12.7853
助其氣却内之罅中皮肉相對	-12.7853
小罅深可寸半先用竹	-12.7853
細齒截鋸一連厚脊利	-12.7853
絡車方言曰河濟之間絡謂之給	-12.7853
柤再熬預先安排錫鏇或	-12.7853
不見火者為白沙蜜見火者為紫蜜入	-12.7853
墀	-12.7853
廖	-12.7853
塋	-12.7853
舊所謂坍江之田廢復不常故畝無常數	-12.7853
遟	-12.7853
驥	-12.7853
建於寅方日月㑹於營室東井昏見於	-12.7853
是月盡夏至煖氣將盛日烈	-12.7853
欘	-12.7853
用漆油作諸日煎藥可糶黍買布四月繭	-12.7853
緞	-12.7853
警設守備以禦春饑草竊之	-12.7853
用之剗草故名鐙鋤柄長四尺比常	-12.7854
廣陵復引雷陂廬江重修芍陂似此等處	-12.7854
接條約五寸長一頭削作小	-12.7855
工欲善其事必先利其器	-12.7855
委積以待賔客野鄙之委積以待羇旅縣	-12.7855
狎	-12.7855
食之餘者揀大蜜脾用利刀割下却封其	-12.7855
洗面拭乾以藥塗之令手軟滑冬不皴	-12.7855
絮車構木作架上控	-12.7855
農器篇云钁鍤斧鋸	-12.7855
韞	-12.7855
又以土一斗薄散糞上復以足微躡之冬	-12.7855
揄	-12.7855
月大雪時速併力推雪	-12.7855
功因之廣織以供郊廟之服	-12.7855
圬	-12.7855
晚而不成故曰雖有智者不能冬種而春	-12.7855
遺人掌邦之委積以待施惠鄉里之委積	-12.7856
躡及摘時不慎翻動其	-12.7856
或刈禾穿臂於内以帣	-12.7856
衣袖猶北俗芟刈草	-12.7856
莖作盤砧髙可及肩以	-12.7857
㐮	-12.7857
五上以方木管之立柱各通一軸軸端俱	-12.7857
二月順陽習射以備不虞春分中雷	-12.7857
人掉軸一人喂上棉英二軸相軋則子落	-12.7857
發聲先後各五日寢别内外	-12.7857
鬵	-12.7857
也六寸所以入苗間廣雅又云定謂之耨	-12.7857
絲老翁上清絲約十五絲之上	-12.7857
度復提起其囊頭下即是清絲摘去囊頭	-12.7857
雨日將連取出通見風日那表為	-12.7857
䵄	-12.7857
捉鼻令馬眼中淚出乃止良也	-12.7857
疣	-12.7857
眤	-12.7857
過以鈹刀子刺空中皮令突過以手當	-12.7857
頹	-12.7857
鮪	-12.7857
及至霜下葉乾子乃盡矣	-12.7858
以皮為袖套皆農家所必用者	-12.7858
如魚笱篾竹編之又呼	-12.7858
以惡為美以彼易此其利有不可勝言者	-12.7859
先王載之典禮著之令式	-12.7859
農事有祈焉有報焉所以治其事也	-12.7859
微薰其蜂自然飛向前去若怕蜂	-12.7859
用薄荷葉嚼細塗在手	-12.7859
凡浣故帛用灰汁則色黄	-12.7859
趍	-12.7859
誡	-12.7859
一頃收子二百斛與麻子同價	-12.7859
明耐久不黦勝春種者負郭良田種	-12.7859
株一家計分五千株若一家孤另一轉築	-12.7859
煜	-12.7859
岫	-12.7859
形坑底必令平正以足踏之令其保澤以	-12.7859
文器後世言天之家如洛下閎鮮于妄人	-12.7859
稼月大火而浴種夫人副	-12.7859
述其遺制營之度之而作渾天儀厯家推	-12.7859
令潰破即愈不治必死也	-12.7859
向上提之令皮離肉如此	-12.7859
研芥子塗之差六畜疥悉愈然栢	-12.7859
良不能得肉肝只用屎耳	-12.7859
鼻下燒之使烟入馬鼻中須臾即	-12.7859
􁈸	-12.7859
之民以此代耕殆天茁此品以遺其利也	-12.786
期然必待時暄可接	-12.7861
割蜜天氣漸寒百花已盡宜開蜂	-12.7861
一手撮捻清絲一手用漏杓	-12.7861
享先蠶而躬桑以勸蠶事周禮天官内宰	-12.7861
曝令乾若色淺者更蒸取汁重染如前法	-12.7861
梭通俗文曰織具也所以行緯之莎	-12.7861
機五十綜者五十躡六十綜者六十躡馬	-12.7861
織機織絲具也按黄帝元妃西陵氏曰	-12.7861
舜在璿璣玉衡以齊七政	-12.7861
一升好酒一升夏著日中冬則温	-12.7861
使液以手搦之絞去滓以	-12.7861
傾著白練角袋子中懸之明日乾浥浥時	-12.7861
疥令赤及熱塗之即愈也	-12.7861
國以民為本民以食為天	-12.7863
頺	-12.7863
芧	-12.7863
劇	-12.7863
㮣	-12.7863
内其蜂自然食之又力倍常至	-12.7863
擴	-12.7863
炫	-12.7863
北土亦多有之苗髙一二尺葉似豇豆葉	-12.7864
庥	-12.7864
媒	-12.7865
忭	-12.7865
草雞或一隻或二隻退毛不用肚腸懸掛	-12.7865
去家千里勿食蘿摩枸杞言其補精氣也	-12.7867
溪見二花犬因逐之入	-12.7867
崈	-12.7867
轔	-12.7867
夏採葉秋採莖實冬採根	-12.7868
籽	-12.7868
者常人之情偷惰茍	-12.7868
良田小豆底佳黍底次之刈訖即耕頻	-12.7868
子法常嵗嵗先取本母子	-12.7869
拉	-12.787
䰝	-12.787
絖	-12.787
胖	-12.7871
以三十年之通雖有凶旱水溢民無菜色	-12.7872
癢	-12.7872
煦	-12.7872
䵀	-12.7872
麳	-12.7874
遹	-12.7876
懽	-12.7876
攟	-12.7876
錡	-12.7882
如指諸掌故亦名曰授時指掌活法之圖	-12.7882
餘致也不可不知務農之家當家置一本	-12.7882
鍪	-12.7883
汨	-12.7888
睷	-12.7888
頔	-12.789
􁥏	-12.7891
闌	-12.7893
驈	-12.7894
腩	-12.7913
駣	-12.7917
􁝿	-12.7918
瑶	-12.7921
蠣	-12.794
用耆老一人牽牛農夫二人扶犁	-12.7953
下就附地列置風竇令可啓閉以除濕欝	-12.8036
以泥塗草稕上然後種子以細土及牛糞	-12.8621
中羊喜鹽自數還啖之不勞人	-13.0648
當種麥若天旱無雨澤則薄漬麥種以酢	-13.0897
薄地刈取布地曝之乾乃挼取末瓮中盛	-13.2124
熟早如近城郭摘豆角賣先可變物舊時	-13.2128
明下就附地列置風竇令可啓閉以除濕	-13.2508
大桐葉覆之乃鋪繭一重以十斤為率摻	-13.2678
小豆紅白黑三種菉豆匾豆豌豆管豆	-13.2694
蒫	-13.2694
䊦	-13.2706
漤	-13.2706
髙熱喘便令休息勿竭其力以致困乏	-13.2716
莕	-13.2731
昳	-13.2734
柬	-13.2734
罇	-13.2734
貰	-13.2737
或長或團或如龍爪虎爪或如猪耳刀䥥	-13.274
七日最宜晴諺云交月無過廿七晴	-13.2741
二三月種不結角者南北二面去地一尺	-13.2744
三面墻垣墻脚闊二尺先用地工築實	-13.2744
青零多粃而不滿得時之黍芒莖而徼下	-13.2747
别為一法或於江湖河海之中欲作橋梁	-13.275
一㸃雨似一個泡落到明朝未得了諺云	-13.275
上牽晝下牽齋下晝雨嚌嚌諺云	-13.275
如此者不風先時者莖葉帶芒以短衡	-13.275
本而莖葆長秱疏穖穗如馬尾大粒無芒	-13.275
無水者鑿井井深不能得水者聽種區田	-13.275
樹本草蜀椒一名南椒一名巴椒一名蓎	-13.275
鉚	-13.275
奪秮米而不香後時者莖葉帶芒而末衡	-13.2753
也斯何異蓼中之蟲而不知藍之甘乎今	-13.2753
噮	-13.2753
益先時者大本而莖葉格對短秱短	-13.2753
短莖疏節本虚不實得時之麥秱長而莖	-13.2753
短足其美二七以為族多枝數節競葉蕃	-13.2753
蚼蛆而多疾其次羊以節後時者弱苗而	-13.2753
前一面不用磚墻厫板外用圓木柵欄一	-13.2753
及兩倉外明堂空地俱用石板鋪平以便	-13.2753
味濃烈耳又云出金州西城者佳味辛性	-13.2753
陜洛間人家園圃多種之髙四五尺似茱	-13.2753
䔇	-13.2756
天將變作雨兆齋前風晝後雨並言難止	-13.2756
或可晴午前遣則午後雨不可勝竈灰帶	-13.2756
經云飄風不終朝驟雨不終日凡	-13.2756
其氣章百日食之耳目聰明心意叡智四	-13.2756
飴先時者大本而華莖殺而不遂葉藁短	-13.2756
及歌謡詢之老成驗之行事起自耕農終	-13.2756
無聞焉捨本逐末賢哲所非日	-13.2756
臭四夷之人不自以食為異生習	-13.2756
不足存鄙意曉示家童未敢聞之有識故	-13.2756
樅	-13.2756
毎根徑六寸桁條毎根徑五寸五分抽楣	-13.2756
用土土上蓋瓦其瓦須宻各週圍厫墻角	-13.2756
目徒有春花而無秋實匹諸浮	-13.2756
砌内用厚磚砌底仍用條石墊擱楞木從	-13.2756
純灰抿縫中用稍碎磚瓦少以泥和	-13.2756
而圓皮紫赤此椒江淮及北土皆有之莖	-13.2756
鏦	-13.2756
然南棗堅燥不如北棗肥美生於青	-13.2759
醯醢資生之業靡不畢書號曰齊民要術	-13.2759
鄆	-13.2759
璀	-13.2763
䡤	-13.2763
或值豐歳往往得二米者但稀濶	-13.2766
􁙘	-13.2766
􁷓	-13.2766
璨	-13.2766
固經久不在華美其丈量地基起造房屋	-13.2766
雲行南雨潺潺水漲潭雲行北雨便足好	-13.2766
此時附地剪却春葵冷根上枿生者柔輭	-13.2766
掗	-13.2766
文思索允臻其極嘉量既成以觀四國永	-13.2767
十斗為斛斛者角斗平多少之量也廣雅	-13.2767
月花色仍連着實七八月熟其色黃	-13.2769
􁐓	-13.2769
官鈔尺為凖其木匠小尺不用須使畫一	-13.2769
車馬通雲行西馬濺泥水沒	-13.2769
中葉似初生椿樹葉而極小又似楝葉色	-13.2769
之地種未生前遇旱者欲得令牛羊及人	-13.2769
二尺餘葉似菊葉稍長花開紫色子類枸	-13.2769
在平澤皆有之今祥符縣西田野中亦有	-13.2769
堪為車輞初生作科條狀類荆條對生枝	-13.2769
野中其樹枝葉皆類桑但其葉如雲頭花	-13.2769
􁟪	-13.2769
倉廪實知禮節衣食足知榮辱	-13.2772
吠	-13.2772
葅爛其洗菜鹽水澄取清者瀉著甕中令	-13.2772
春為發生夏為長贏秋為収成冬為安寧	-13.2772
鈹	-13.2772
仲冬之月牛馬畜獸有放逸者取之不	-13.2772
應造厫房七間中縣約共四千石	-13.2772
葉似薄荷葉極肥大開淡紫花結穗似紫	-13.2772
邊應造厫房五間小縣約共二千五百石	-13.2772
糞漫散子於畦内如種菜法或單排	-13.2773
量之名也今唯以升斗斛為凖最號簡要	-13.2775
闉	-13.2775
㫰	-13.2775
幟	-13.2775
有紫莖白莖二種葉之小者為鴨脚葵	-13.2775
云誕降嘉種維秬維秠維穈維芑	-13.2775
十二月内即須排比農具使足一入正月	-13.2775
大禹之功不立而后稷之智不用禹決江	-13.2775
正落其中者諺云日落烏雲半夜枵明朝	-13.2775
淩	-13.2775
輶	-13.2775
下田種者用功多高原種者與禾同等也	-13.2775
二月間先將田用糞壅灌戽水耕平以	-13.2775
即用小刀剜出田勿令乾八月斫起刮去	-13.2775
日又云日落雲沒不雨定寒又云日落雲	-13.2775
為日返塢一云日沒臙脂紅無雨也有風	-13.2775
左傳曰四升為豆四豆為區四區為釜十	-13.2777
齊民要術云凡種欲牛遲緩行種人令促	-13.2777
又有山蘭生山側似劉寄奴葉無	-13.2777
見其花呼為紫菊以其花似菊而紫也苗	-13.2777
而稗則生下澤中故古詩曰蒲稗相因依	-13.2777
襁	-13.2778
曦	-13.2778
邊七間合用柱木毎根徑六寸矮柱	-13.2778
堪服食傷人乃至痢血不已白者堪服食	-13.2778
上雖有雲及日沒下去都無雲而見日	-13.2778
地勢水東流人必事焉然後水潦得谷行	-13.2778
搽	-13.2778
明必甚晴也又云今夜日沒烏雲洞明朝	-13.2778
根有心無心者乃薺苨也根葉味辛苦性	-13.2778
蠶屋南簷外先所架立搭棚	-13.2778
似枸骨子樹而極茂盛凌冬不凋又似樝	-13.2778
奓	-13.2778
蒒	-13.2778
桃樹接杏結果紅而且大又耐久不枯	-13.278
甚速而當瓠種者竅瓠貯種隨行隨種務	-13.278
舅	-13.2781
書五量之法用銅方尺而圓其外旁有庣	-13.2781
事接諸般花木果樹移諸般花木果樹壠	-13.2781
方來大旱西南小旱西方有兵西北戎菽	-13.2781
尨	-13.2781
逄	-13.2781
手㧞出就水洗根去泥約八九十根作一	-13.2781
月暈主風何方有闕即此方風來	-13.2781
東流水浸二宿撈出與豆葉隔間入甑蒸	-13.2781
人君上因天時下盡地利中用人力是以	-13.2782
六畜以時種樹務修田疇滋殖桑麻肥磽	-13.2782
力農然而不能使禾冬生豈其人事不至	-13.2782
㯆	-13.2782
人役頂上用大竹箯覆之蓋瓦大門二扇	-13.2782
厘	-13.2782
樀	-13.2782
遍至春凍釋于山陂河坎之旁刈取其	-13.2782
長小條復斫去長者亦可為器舊根常留	-13.2782
齁	-13.2782
斌	-13.2785
磯	-13.2785
上半月栽者多結子南風不可栽下子茄	-13.2785
暴雨總至藜莠蓬蒿並興行冬令則水潦	-13.2785
煽	-13.2785
落國時有恐行秋令則其民大疫	-13.2785
開溝渠修蠶室整屋漏織蠶箔此月栽樹	-13.2785
也豐年之詩言秋冬報者烝嘗之樂歌也	-13.2785
划謂撥進也其船制短小輕便易於撥進	-13.2785
地若際水則以鍬棹撥至或隔陸地則引	-13.2785
抵彼岸或略具篙楫田農便之	-13.2785
此船就載宿浥稻種徧撒田間水内候水	-13.2785
泥中草上尤為順快水陸互用便於農事	-13.2785
禺	-13.2785
邛	-13.2785
闕文哉抑互言之耳此又祈報之大者也	-13.2785
初四莫行船廿五日謂之月交日有雨主	-13.2785
可花白者年多仙人採之作脯可為下酒	-13.2785
噪	-13.2785
廿七廿八交月雨初二初三勿肯晴	-13.2785
於山石之間生者作樂器尤佳青白二	-13.2785
此月數生者毛必焦卷骨髓細小所以然	-13.2785
濟世之竒術也陸轉連磨下用水輪亦可	-13.2785
行轉了不沾塞即周禮行澤車也	-13.2785
轄	-13.2785
以為民資是故生無乏用死無轉屍	-13.2785
夜呼一名白昌一名當陸一名章陸爾雅	-13.2785
大小規式相稱凡磚瓦就於近倉之地立	-13.2785
浸去邪味去心煮食或晒乾煮熟入蜜食	-13.2785
潤而遼海以東青徐以南皆可漸而行也	-13.2785
綖	-13.2785
作粉蜜和食之尤美江淮及山東曝其	-13.2786
而清香襲人置衣笥中雖形乾而香不歇	-13.2786
紅色子亦如蓼嵗可三刈菘藍葉如白菘	-13.2786
孥	-13.2788
腠	-13.2788
朒	-13.2788
祼	-13.2788
萵苣生菜四月芥種蕈種芋接換梨子林	-13.2788
撫恤其人常遣歡悅觀其地勢乾濕得所	-13.2788
據齊地大畝一頃三十五畝也每年	-13.2788
第二年則盛矣生五六年亦衰即以栗櫼	-13.2788
腎氣也駑用䇿乃使訛也白馬	-13.2788
一椀水中酸甜味足即成好漿	-13.2788
丰	-13.2788
梅李韓詩外傳云簡王曰春樹桃李夏	-13.2788
槪	-13.2788
禔	-13.2788
義也若夫噫嘻之詩言春夏祈榖於上帝	-13.2788
㲼	-13.2788
之慶此報之之辭也繼而琴瑟	-13.2788
木齒磨在軸上閣以板木磨傍留一狹空	-13.2788
楪	-13.2788
江南春夏之間用此箝貯泥糞及積載秧	-13.2788
洄	-13.2788
碓具用搗茶葉然後上磨若他處地分間	-13.2788
雞腿兒一名飜白草出鈞州山野中苗	-13.2788
十斤稻重一䄷為米二十斗為米十斗曰	-13.2788
主雨晏開主晴不當言日出早晏也日外	-13.2788
二寸五分頂上用幔板鋪完蓋瓦其餘	-13.2788
亦入釀酒藥燒作灰能爛石味苦甘酸性	-13.2788
其日庚辛其帝少皡其神蓐收	-13.2788
兾	-13.2788
則酪醋傷冷則難成濾乳訖以先成甜	-13.2788
墾招集逃散撿括稻税凡農田事悉領焉	-13.2788
官相風土之所宜講究可否别頒行之又	-13.2788
屈木為棬以張生絹袋子濾熟乳著瓦瓶	-13.2788
栁葉菜葉亦短小葉頭頗齊葉皆相對生	-13.2788
胾	-13.2788
許社長呈告上司據實題恭	-13.2788
道秋耕不堪下種無問耕得多少皆須旋	-13.2788
頓飼葉二筐今止用一筐減葉	-13.2788
偁	-13.2788
扆	-13.2788
榞	-13.2788
緄	-13.2788
轉三百餘匝停置蓋甕勿令塵汚良	-13.2788
二三尺莖大如筯似燈籠草而無毛	-13.2789
朱欒而葉尖長枝間有刺植之近水乃生	-13.2789
將揀下雜色苧麻水潤分縷隨緝隨搓	-13.2789
罍	-13.2791
楚辭曰粔籹蜜餌有餦餭	-13.2791
之儲畜常裕不惟民力可紓而國計永保	-13.2791
妙河北沿溏濼居人採之舂去皮搗為粉	-13.2791
擷之耳杜詩云刈葵莫放手放手傷葵根	-13.2791
橦	-13.2791
績次及山東河南陜西等處地方將江南	-13.2791
蠶可撥可摻不須分掲可布滿十二箔	-13.2791
訌	-13.2791
運酌量改折助其費而究其功東南之	-13.2791
龔遂守渤海勸民秋冬益蓄菱芡	-13.2791
其年氣候早晩寒暖之宜乃下種即萬	-13.2791
宿捻成薄餅晒乾收用勿近濕墻壁去處	-13.2791
乾漸以手摩挲取為末以方寸匕	-13.2791
其踵一則方啓而裂其膚豈非	-13.2791
冬碾春碾収藏旋買但臨種時用水浥濕	-13.2791
年良多血氣也駑多赤青肝氣也走多黄	-13.2791
微帶紫色結小蒴兒其子似大藍子而小	-13.2791
末時七日時雨中時主大水若末時縱雨	-13.2791
桐法亦如前種黄栗之法候秋季落子多	-13.2791
者乎亢則害牿則亡傷氣殆盡	-13.2791
者此大核少棉種也三鋤後去小葉者此	-13.2791
葉似韭葉而濶瓦隴様葉中攛葶出穗似	-13.2791
餘有五十五萬肥猪明燭利在其外又	-13.2791
子令中破籠盛一日再度以水沃之令生	-13.2791
疫而動頭打脇急用巴豆七	-13.2791
諺云一個星保夜晴此言雨後天	-13.2791
以木椑子兩箇夾麻順歴數次至麻性頗	-13.2791
先稻熟而農夫薅之者不以小利害大穫	-13.2791
平大寒無毒垣衣地黄及貝母為之使畏	-13.2791
拌極匀待少時納羅白粉子拌令極匀	-13.2791
根徑五寸桁條毎根徑四寸抽楣木	-13.2791
椽木毎根徑三寸門房三間合用柱木	-13.2791
說與此不同未敢併入條下今另為一條	-13.2791
亦有紫色花作碎小獨頭子根紫色有鬚	-13.2791
仍以杓攪使均調以氊絮之屬茹瓶令煖	-13.2791
勿澆澆不欲數養麻如此美田則	-13.2791
均調亦得成其酢酪為酵者酪亦醋甜	-13.2791
敜	-13.2791
明旦酪成若去城中逺無熟酪作酵	-13.2791
書之出其利益天下豈可一二言之哉	-13.2791
歉之嵗庶免夫流離之患也傳曰	-13.2791
歊	-13.2791
治秧田須殘年開墾待氷凍過則土	-13.2791
火煎之火急則著底焦常以正月二	-13.2791
益家白犬黄頭吉背白者害人帶虎	-13.2791
草出色不異若經夏在棚棧上草便變	-13.2791
蘜	-13.2791
蛇床子一名蛇粟一名蛇米一名虺	-13.2791
轉燒之皆使周匝熱徹好乾待	-13.2791
𣣔	-13.2791
􁚌	-13.2791
䯑	-13.2791
一季五坎者捉二季七坎捉三季九坎	-13.2791
墅	-13.2791
秆	-13.2791
花朝口咬頭牲耳薄不畏寒毛色純白純	-13.2791
二尺許莖似黄蒿莖其葉碎小茸細如針	-13.2792
其紋若婦人裙褶味亦如汁與	-13.2792
是一種氣味强名為酒中有白瓠形圓如	-13.2792
㔇	-13.2792
起即以油少許滴土中隨以種置之次年	-13.2792
州山東河陜江淮亦有漢中者為佳今水	-13.2793
泉源在上或在平地易以通流如水在溝	-13.2793
滋蔓而来生也其居東北角者老	-13.2793
立春正月中旬宜接櫻桃木樨徘徊	-13.2793
春地氣通可耕堅硬強地黒壚土	-13.2794
粥黏滑而甘此黍之有補於艱食之地	-13.2794
乾候冷一層草一層棗入缸中封	-13.2794
南人而許其占籍諸凡招徠勸相俱許便	-13.2794
室而緩其科税或選健卒而分建屯	-13.2794
耳其無花不實木大端直為椿有花而莢	-13.2794
蓼汁併雞肉和食謂之冷羮最為上饌	-13.2794
圞	-13.2794
成行分種空地之中仍要種豆使之二物	-13.2794
有野生者樹峻不可梯縁但刻其根	-13.2794
羆	-13.2794
艟	-13.2794
長又可使直而不曲待長一二尺即將山	-13.2794
兒一名石棗兒出密縣山谷中生石間苗	-13.2794
大晴主水雨主絲綿貴大風雨主田内無	-13.2794
臁	-13.2794
葭華蒹薕葭蘆菼薍其萌虇	-13.2794
逄寒遇熱故也其八九十月生者雖值秋	-13.2794
透芽生取出作壠或畦下糞栽之旱則澆	-13.2794
鋸齒又似地𤓰兒葉㣲大味辛性平無毒	-13.2794
頭開小白花衆花攢開如傘葢狀比蛇	-13.2794
􁇠	-13.2794
便是花鹽厚薄光澤似鍾乳久不接取即	-13.2794
密主熱諺云明星照爛地來朝依舊雨言	-13.2794
一名思益一名繩毒一名棗棘一名牆蘼	-13.2794
下即知今應加深左傍幾何右傍幾何次	-13.2794
揉打麥禾等稼穰籺相雜亦須用此風	-13.2794
松江謂之勝紅蓮性硬而皮莖俱白	-13.2794
滋不繼淫濁未去清氣有傷此正不知	-13.2794
矣及其總秸俱成農功已畢或土力既衰	-13.2794
繞輪兩周復交於礱之上級輪轉	-13.2794
雨落井泉枯初三雨落連太湖又云一日	-13.2794
㸌	-13.2794
乳一升用酪半匙著杓中以匙痛攪令散	-13.2794
人户冬間納還臣等申府措置	-13.2794
入茶花子入藥然野菊大能瀉人惟真菊	-13.2794
其隨地建造前後左右段落務要酌量停	-13.2794
到元米次年夏間本府復令依舊貸	-13.2794
南向以四畝為率或地不足四畝者	-13.2794
収子粒春耕宜遲者亦待春氣和暖日	-13.2794
對分生葉葉似榆葉而狹細頗長作鋸齒	-13.2794
微苦性暖生墻下樹下者不可用救飢採	-13.2794
損皮易長臘月二十四日種楊樹不生蟲	-13.2794
於麥上牽拽抹去沙霧則不傷麥	-13.2794
月中伏後七月可種蕪菁至十月可收也	-13.2794
本鄉土居朝奉郎劉如愚同其賑貸至冬	-13.2794
橿	-13.2794
毋使偏邪甚有基地不足三畝者	-13.2794
汐每日再消再長時刻不同測驗未易必	-13.2794
清明午前晴早蠶熟午後晴晚蠶熟	-13.2794
漸量算亦止能測驗地勢若水走之勢西	-13.2794
甌菜生輝縣山野中就地作小科苗生莖	-13.2794
甐	-13.2794
生者名為松滑誠齋云傘不如笠釘勝笠	-13.2794
者吉黄犬前二足白者吉胸白者吉口	-13.2794
耳欲小而銳如削筒相去欲促總欲	-13.2794
腛	-13.2794
草無復膏潤非直漸瘦得乳亦少	-13.2794
行秋令則草木零落果實早成民殃於疫	-13.2794
風俗通曰䥥刀自揆積芻蕘之	-13.2794
􁎊	-13.2794
􁠴	-13.2794
宿根在地春生嫩葉亦可採食前金人以	-13.2796
甚多南中人樹之者資生之類大率在焉	-13.2796
酒沸起或裂破今人漆其裏即失用椰子	-13.2796
之地惟桐樹黄栗之利易得乃將旁近山	-13.2796
者逺年者火焙者油者鬱者皆浮	-13.2796
白花結實作三稜蒴兒味甘平性寒無毒	-13.2796
輪菜本草名車前子一名當道一名芣苢	-13.2796
之後掘區移栽區北直上下栽成土壁壁	-13.2796
農夫區方九寸深六寸相去二尺一畆	-13.2796
皥	-13.2797
農之道厚之為寳斬木不時不折必	-13.2797
屍	-13.2797
得買所不足不得賣其分亦不得買過所	-13.2797
悾	-13.2797
杞子生青熟紅根如逺志無心有槮	-13.2797
檣	-13.2797
牛欄中燒如燒香法如初覺有	-13.2797
糞次年花開侵晨採摘微搗去黄汁用青	-13.2797
罿	-13.2797
育蠶者亦有祈禳報謝之禮皇后祭先蠶	-13.2797
􁁺	-13.2797
九五十四貧兒争意氣七九六十三布衲	-13.2797
夜眠如露宿五九四十五太陽開門	-13.2797
有馬伸橋夾林河而下城南則有别山舖	-13.2797
瑕	-13.2797
肥沃不待深耕仍火其積草而種	-13.2797
薊州城北則有黄厓營城西則有白馬	-13.2797
韭菜溝上素河下素河百餘里夾河皆可	-13.2797
一名禹餘糧生隨州陸州及函谷堤坂	-13.2797
之中擇近便或一倉或二倉先行起建餘	-13.2797
林茶初泡極苦澀至三四泡清香特異人	-13.2797
涪州出三般茶最上賔化製	-13.2797
白菜移茄包梨鋤䓗芋斫竹	-13.2797
粘住難刮矣其渣煉化濾淨或甑中蒸化	-13.2797
茶樹産懸崖筍長三寸五寸方有一葉兩	-13.2797
葶但細弱葉亦瘦細抪莖而生結細長	-13.2797
覿	-13.2797
銓	-13.2797
除蟲災外小小旱不至全損何者縁	-13.2797
頭子紫赤色纍纍抱枝宛若樹之結實也	-13.2797
黄芽六安州小峴春皆茶之極品玉壘關	-13.2797
齊名愛韭楚名馬韭越名羊蓍一名禹葭	-13.2797
又凡果俱三年老枝上所生則大而甘又	-13.2797
方孔之四旁而皆上聚之聚之度趣不害	-13.2797
桑泥墩牡丹土合臘藥掃以猪脂	-13.2797
槐樹芽本草有槐實生河南平澤今	-13.2797
一名兔兒苗一名狗兒秧幽薊間謂之	-13.2797
則魚皆鬱死必去其半乃佳便民	-13.2797
半夜後雨止雲開星月朗然則必晴無疑	-13.2797
名颶風有此風必有霖淫大雨同作甚則	-13.2797
唾	-13.2797
小而兩倉房間架斷不可小以其毎間盛	-13.2797
就地叢生葉似蒲葉而肥短葉背如劒脊	-13.2797
巴蜀擷其子漬淅米水中十餘日搗去	-13.2797
根肥大節稀水浸去邪味製造作果食之	-13.2797
米又有舁之場圃間用之者謂之扇車凡	-13.2797
蒸食皆可久食則頭暈破腹間食則宜	-13.2797
轉繩轉則礱亦隨轉計輪轉一周則礱轉	-13.2797
連吹兩日雨立至畏雷諺云梅裏雷低田	-13.2797
鄠	-13.2797
鋤花要趁黄梅信鋤頭落地長三寸又	-13.2797
開如傘葢狀結子如韭花蓇葖	-13.2797
間攛葶上開淡粉紅花俱皆六瓣花頭	-13.2797
養蠟養一年停一年採蠟必伐木無老榦	-13.2797
丈尺數及加深尺數河身底面腰深廣必	-13.2797
中之色氣味和正花葉根實皆長生藥其	-13.2797
之時天雨粟神農遂耕而種之白虎通	-13.2797
于新河底中處用套竿量開如新議河底	-13.2797
亦止據號樁下至本號河底未得通河	-13.2797
人牧守湖中自可任以休息養之得法必	-13.2797
初生萵苣葉比萵苣葉狹窄而厚抪	-13.2797
則成大蒜科皆如拳又逾於凡蒜矣	-13.2797
則白色人家園圃種者肥大如手臂味美	-13.2797
功哉如或不然上之人作無益以妨農時	-13.2797
天地生物之功莫之有知矣夫含生者先	-13.2797
富强之本王者所以興教化厚風俗敦孝	-13.2797
嶷	-13.2797
性介烈不與百花同盛衰是以通仙靈	-13.2797
性硬四月而種七月而熟曰金城稻是惟	-13.2797
授一便業以為日用飲食之資久而羣聚	-13.2797
於兩岸記處用套竿量至折半處即今應	-13.2797
有日而易長飼之草亦宜此方一日而兩	-13.2797
有洲島環轉則易長池之傍樹以芭蕉則	-13.2797
柿葉之桑其葉必大而厚是堅繭而多絲	-13.2797
水調成泥擘根分栽每區一二科後極滋	-13.2797
無度以困民力般樂怠傲不能以身率先	-13.2797
無旁枝其他取花葉芽實者皆令枝旁生	-13.2797
生輝縣山野中科條似槐條葉似冬青葉	-13.2797
百五十餘丈西接太湖東通大海前代屢	-13.2797
皆知有稼穡之功則男務耕鋤女事紡織	-13.2797
皮内膜外批豁兩道或三道納所噙接頭	-13.2797
相稱方得上下相承不致坍壞若河底深	-13.2797
省督撫報稱今嵗秋成八九十分不等朕	-13.2797
端皆叢生三葉開黄花結黒子南人用	-13.2797
簔	-13.2797
縣一萬石矣今議頒倉式該府㕔督令各	-13.2797
者便益純白者能為怪勿畜之凡	-13.2797
脠	-13.2797
花秋間結實根細青紫色一云外黒	-13.2797
葉似雞兒腸葉但長而澁又似馬蘭頭葉	-13.2797
註入號簿一量見在河身面	-13.2797
赤魏爽黄白莖青竹根青調母	-13.2797
鍮	-13.2797
頭麻麥不見收雨打墓頭錢今年好種田	-13.2797
香九月而熟是謂稻之上品曰箭子其粒	-13.2797
一定倉式保民實政簿開各縣立四鄉倉	-13.2797
一寸濶五寸厚一寸上燒常平二字方磚	-13.2797
今十有四年量支息米造成倉厫三間	-13.2797
則弦上陂陀不致坍損兩股之間即河底	-13.2797
即每樁用兵夫一名各帶短槍或木棍一	-13.2797
底深淺酌量加深之數今見在河底深淺	-13.2797
暮還别如此得乳多牛羊不瘦若不	-13.2797
桑唯用刀碪不識此等桑具故特歴	-13.2797
水湯之時有七年之旱而國亡捐瘠所	-13.2797
淤且前量下樁編號止據見在老岸未免	-13.2797
濬即深者愈深淺者仍淺水走不順極易	-13.2797
種水楊須先用木樁釘穴方入楊	-13.2797
竭澤而漁沿流置籪及有挑出田内泥土	-13.2797
羜	-13.2797
角噉露草飽驅歸捋之訖還放之聽羔犢	-13.2797
輙耕輕土弱土望杏花落復耕耕輙藺	-13.2797
開勾股欲依舊數量行加勾減股不致大	-13.2797
阿居黄赤巴粱鹿蹄黄鉞狗倉可憐黄米	-13.2797
􁟖	-13.2797
復有鳥雀之患一法將纔熟棗乘清晨連	-13.2799
榰	-13.2799
皆宜淘去浮者穀浮者秕果浮者油也	-13.2799
零則升又必槩以平之貧富皆不可闕者	-13.2799
居中也為刻于申此居外也于酉居内也	-13.2799
下涪陵收茶在四月嫩則益人粗則損人	-13.2799
名蜜脾一名燕卵一名繡水團一名海珠	-13.2799
土長濕待長尺餘移栽冬間不用苫葢又	-13.2799
生滁州及真定平澤今處處有之春初生	-13.2799
𥚹	-13.2799
似野菊花葉而硬厚又似水胡椒葉亦硬	-13.2799
出郊先為文移使各社各鄉預相告報期	-13.2799
取到接頭須經二年肥盛嫩枝如筯大者	-13.2799
巫祝以幸其生而不知所以然者人事不	-13.2799
矣氣喘汗流其力竭矣耕者急	-13.2799
穿軸而立四柱焉依墻之髙而束之環圍	-13.2799
翻轉割去半分將接頭口内噙養	-13.2799
春生薹苗亦菜中上品四月收子打油	-13.28
盒	-13.28
新缸無油酒氣者清水刷淨火烘乾	-13.28
塊厚八分正㕔三間合用中柱木	-13.28
畢備故造此以便往來制頗朴陋廣纔㝷	-13.28
一頭至兩頭是疫即牽出以鼻吸之立愈	-13.28
戎順安等軍興堰六百里置斗門引淀水	-13.28
枝節上四五節斫斷即不帆風不須用架	-13.28
橛以擐牛輓槃索上下坡坂絶無軒輊	-13.28
竹嫩而不堅不如平地園林者竹老而堅	-13.28
下以箬葉包之分繫各樹芒種後苞拆卵	-13.28
乾蔓菁正月中作以熱湯浸菜令柔軟解	-13.28
其倉務要宏敞堅固可垂百年	-13.28
剗土除草故名剗兼體用而言也	-13.28
吉州顧渚紫筍常州宜興紫筍陽羡春池	-13.28
寓之於物以假聲韻所以感陽舒而蕩隂	-13.28
寧廣毋狹寧質毋文毋惜小費毋急近功	-13.28
戞	-13.28
根如指大長三寸許皮赤内白兩頭尖	-13.28
條稍細藤頗紫色其葉似家山藥葉而大	-13.28
然又各有巧要以從省便凡欲儲貯務儉	-13.28
竹生紫色花結實如麥皮青中米白味甜	-13.28
老軍頭之類晚則有雁頭青寒露粟之類	-13.28
重民食也次而囷京下而窖竇世所共	-13.28
野前人有村南村北梧桐角山後山前白	-13.28
乾葚蒿芥鹽春菜蘿蔔子笋乾芋魁蠶豆	-13.28
倉一所頭門一座約高一丈三尺八寸中	-13.28
失水則枯其菖蒲味辛性温無毒秦皮秦	-13.28
如無官銀准及時支榖修理但不許賤算	-13.28
崐	-13.28
按古今書傳所載南北習俗所宜具述而	-13.28
氣色極似石上菖蒲葉正如蒲無脊俗謂	-13.28
能令魚汎凡池之䕯相傳一夜生七子太	-13.28
花微短而圓粉紅色其根甚多大者如小	-13.28
蒸食之或晒乾杵碎炊飯食亦好或磨作	-13.28
虚取之柱無用長入筩數尺而止升降	-13.28
設之孔孔之方圜孔之徑皆與筩	-13.28
請分别奬勸但不許坐派大户科罰擾民	-13.28
謂之禁雷天又云梅裏一聲雷時中三日	-13.28
三步一樹穊即味甘服食之家尤宜種之	-13.28
不可漫為之説者矣但積沙既為漲灘而	-13.28
之别種也郭璞注爾雅虋赤粱粟芑白粱	-13.28
之半中用轆轤交接復用一繩記取尺寸	-13.28
之後生意皆含夏至之後生色皆達含者	-13.28
之日天子親帥三公九卿大夫以迎	-13.28
也各倉基址必擇高阜之處以避水濕侵	-13.28
五月鯉魚以五月下惟銀魚鱠殘魚嘯子	-13.28
兠盛土培養接頭勿令透風見日土乾則	-13.28
則終無以獲灌溉之利杜浸淫之患也除	-13.28
化一變理不盡顯物自相形機緘所存非	-13.28
子如椒粒大其根似黄精而小異節上有	-13.28
川當歸紅花為細末以酒二升半煎	-13.28
得今應加深幾何或用二繩各長如今議	-13.28
於化矣推之事理亦然凡事之立其始甚	-13.28
曰小豆不保嵗難得椹黒時注雨種	-13.28
根易其故體生者謂之化融液所畜暢茂	-13.28
為之體達生者後天也以先天為之神養	-13.28
甘性平無毒救飢採根換水煮極熟食之	-13.28
皆了用竹籜攔寸許劈開雙指齊貼面	-13.28
皆由稼穡艱難積累以致之讀孟子書見	-13.28
碱	-13.28
肉黎民不饑不寒數十字而已大哉農桑	-13.28
與黍不異經典初不及穄後世農書	-13.28
苕為草洛陽稱牡丹為花又曰穄之苗葉	-13.28
葉邊皆有鋸齒又似女兒茶葉其葉色頗	-13.28
處包裹定麻皮復用竹籜包其貼頂	-13.28
要在浚滌吳淞江諸浦導其壅塞以入	-13.28
魚鮎魚等子在草上是能食魚	-13.28
鮎魚者鮧魚也即鯷魚也大首方口背青	-13.28
麤土根土不相著不耐旱有懸死蟲咬	-13.28
黄蒿葉又似小葉蘼蕪又似藁本葉	-13.28
三寸言雲陣起自西南來者雨必多尋常	-13.28
之人民皆食禽獸肉至於神農因天之時	-13.28
二百四十二年書大有年僅二而水旱螽	-13.28
亦可足用矣橘成嵗得絹數千疋	-13.28
以梅子核初成時摘取籠盛於突上熏之	-13.28
入兩岸老土深與岸平名曰信樁此樁四	-13.28
其芎人家種者形塊大重實多脂潤其	-13.28
分陽氣之中也立夏得陽三之二至夏至	-13.28
半後三酘作再餾黍其七酘者四炊沃	-13.28
厚三寸秤重十八斤上燒常平二字開磚	-13.28
同而名亦異然其用則一此特加便㨗耳	-13.28
在地薦食不及縱令莖葉皆盡尚能發生	-13.28
堆放竹排木排横截河港甚有上鄉全賴	-13.28
夏候水盡地白背時速耕耙勞頻	-13.28
大旱如諸暨新嵊赤地數百里農夫無事	-13.28
大盛必衰衰必敝敝則變不變則毁毁則	-13.28
如丁香様而大有子如白牽牛子亦大味	-13.28
婆年八十八弗曾見東南陣頭發又云千	-13.28
定之數折中議定今應開面底二	-13.28
嵗之後還成百子蒜矣其瓣麤細正與條	-13.28
嵗差而以六十年約之一嵗之中春而夏	-13.28
工詩曰奄觀銍艾書禹貢曰二百里納銍	-13.28
後即耕至十月半令得三遍每耕即勞以	-13.28
惌	-13.28
押出香美勢力倍勝常酒笨麴白醪酒法	-13.28
搯輒杷耬地令起下水加糞三搯更種一	-13.28
旅輳集處所可作連屋置百餘具者以供	-13.28
易曰亢龍有悔又曰下濟而光以是見陽	-13.28
曲禮云稷曰明粢是也郭云今江東人呼	-13.28
月中旱時取水二斗以鹽一斗投水	-13.28
有耳目所不聞見者及水旱風蟲霜雹之	-13.28
木則落子池中可以飽魚樹葡萄架子	-13.28
本草名葎草亦名葛勒蔓一名葛葎蔓	-13.28
河底虚費工力似應用前量深法量今木	-13.28
漲之時民田無所用水而耕湖者懼其害	-13.28
澁刺葉似萆麻葉而小亦薄莖葉極澁能	-13.28
無毒山中出者瘦細味苦辛其節大莖細	-13.28
熛	-13.28
物照號樁編給號票令各守號樁約潮退	-13.28
甘水添之取一升添一升日曝之熱盛還	-13.28
生宻縣梁家衝山谷中樹甚髙大其木枯	-13.28
百姓便之注云冶鑄者為排吹炭	-13.28
直並是好相直尤勝進不甚直退不甚曲	-13.28
眠後未老時宜微暖也依按其法蠶	-13.28
石並是累年人户納到息米已申本府照	-13.28
秋分立冬冬至也冬至以後陽漸長立春	-13.28
種亦得若入藥不如種馬蹄者博聞	-13.28
笪	-13.28
糯及所在上農之家用米既多尤宜置之	-13.28
絛	-13.28
緼	-13.28
置水中以水没餅為候七日許搦令破漉	-13.28
至純黄則不飼是謂頭眠不以早晩擡過	-13.28
色微深緑抪莖對生梢間出青蓇葖開花	-13.28
花果兩般合色則勿去其稍來年春始截	-13.28
草名薯蕷一名山芋一名諸薯一名脩脆	-13.28
葛公菜生密縣韶華山山谷間苗	-13.28
葢橛露一尺則工滿一尺矣故曰様樁却	-13.28
解之食蟋蟀嫩草食稗子池之正北後宜	-13.28
貼謂之樹貼如桃貼接杏接梅櫟貼接栗	-13.28
逐之水中或放之山上牛困得水動	-13.28
遍較淺於第二遍第四遍較淺	-13.28
雖有旱乾水溢而民無菜色者蓄積多而	-13.28
響後各兵夫悉于各號河底中心	-13.28
髙者二三尺計其勢方與昔同昔不慮其	-13.28
齒杷耬之令熟足蹋使堅平下水	-13.28
齒杷耬去陳根使地極熟令如麻地	-13.28
如鑱而小中有髙脊長四寸許闊三寸	-13.2802
茶一名瑞草魁又有建州北苑先春洪州	-13.2802
香欒閩中嶺外江南皆有之南人種	-13.2802
乃勝刈者牛力若少得待春耕亦得	-13.2802
濳	-13.2802
用木碌碡實之穴種者覆土後以足踐之	-13.2802
皆肥大其紋鵲其色紫黑取油亦多	-13.2802
大一種身矮多岐枝不堪用楊與	-13.2802
抵戊量之又去戊抵己量之皆至	-13.2802
文曰秫稷之黏者故秫亦稷之别種也	-13.2802
枝長脆葉狹長楊枝短硬葉圓	-13.2802
民盡治故其收耗折也故曰豆不可盡	-13.2802
也刀長尺餘濶約二寸木柄一握南人	-13.2802
以剪剪葉旦暮擡分兼夜頻飼	-13.2802
屋多生濕潤正要四通八達風氣	-13.2802
截貼小宜近地截截訖用利刀銛貼上齒	-13.2802
持之丁戊井面地平也己庚井	-13.2802
此要法也當盛寒之時宜待日出晏	-13.2802
毛葉彷彿類栢葉而極闊大邊如鋸齒形	-13.2802
煠食亦可或云不可多食久食令人面腫	-13.2802
葉相對生莖葉折之俱有白汁出葉間出	-13.2802
闡	-13.2802
動失其宜又牧人類皆頑童茍貪嬉	-13.2802
瘴以致斃踣則田畝不治無足怪者且古	-13.2802
花果自然結實立秋後可接林檎川海棠	-13.2802
冬月以草覆其根四月終結子可收作末	-13.2803
葉扁而有尖光面如鏡葉下之莖有股如	-13.2803
十畝丁女二十畝次丁男半之女則不課	-13.2803
棗麨法多收紅軟者箔上日曝令乾大釡	-13.2803
灉	-13.2803
雜以石灰蟲不能蝕更能以鰻鱺魚頭骨	-13.2803
早禾怕北風晚禾怕南風朔日晴主冬	-13.2803
簸揀去碎者作熱湯於大盆中浸豆黄良	-13.2803
蓋如車制而畧但獨轅著地如	-13.2803
人事則人與時通物隨氣化非直為	-13.2803
庶人之祭雖貴賤之儀不同而祈報之心	-13.2803
方高亢多粟宜用竇窖可以久藏南方墊	-13.2803
有司檢勘某水利害大某水利害小某水	-13.2803
胔	-13.2803
鎚	-13.2803
云奚仲造車凡造車之制先以脚圓徑之	-13.2804
則以人力畜力風力運轉其器以器轉水	-13.2804
士工商家受田五口乃當農夫一人	-13.2804
大而薄葉叢中心攛葶三四莖作長穂如	-13.2804
孟夏之月日在畢昏翼中旦婺女中	-13.2804
宜薄葉慢飼蠶之所宜不可不知反此者	-13.2804
家但能自種三兩畦藍菜并一二畦韭周	-13.2804
尾汗溝欲得深尻欲多肉莖欲得	-13.2804
底上出於筩之口其出於筩之口無定度	-13.2804
强之地種未生前遇旱者欲得牛羊及人	-13.2804
必須翻種矣遇大旱戽水潤之但戽水後	-13.2804
易長也肥猪法用管仲三觔蒼术四兩黄	-13.2804
暴水縱積怒以困民其害相因而不解也	-13.2804
榭	-13.2804
水墨其瘢或覆以螺殻或塗以蠟而瀝青	-13.2804
礎	-13.2804
脛亭行六百里迴毛起踠膝是也䏶欲得	-13.2804
萍實有徵而凡可以亨芼者得不躪藉	-13.2804
虵	-13.2804
記云夏至前芒種後雨爲黄梅雨田家初	-13.2804
踏田器也鑱此犂鑱頗狹制為長柄	-13.2804
麥而白色出江寧者小潤出新安者大白	-13.2804
三壟一壟七百二十株一株兩根一	-13.2804
不徒費民不徒勞所謂一舉而兩利者也	-13.2804
令有司設法清追數十餘萬兩存留在官	-13.2804
前項官銀及賑濟錢糧一體通融給散各	-13.2804
二日收了後必須用紙密糊封了如法還	-13.2804
人云耕鋤不以水旱息功必獲豐年之收	-13.2804
卵時勿令見人應用二七赤豆安器	-13.2804
地四五寸無不活者當年即便生結又云	-13.2804
延黄赤粱糓靈忽黄獺尾青續得黄	-13.2804
愕	-13.2804
是月也聚畜百藥靡草死麥秋至	-13.2804
月八月中作之日中炙酪酪上皮成掠取	-13.2804
法也立夏日取交春一個時辰内扦	-13.2804
生於申壯於子長於壬老於丑死於寅惡	-13.2804
礶	-13.2804
花木雖已接活内有脂力未全包生接頭	-13.2804
通活氣上用竹籜蔽之以防日雨種樹書	-13.2804
集之地一井之上尚可活一㷀民也玉衡	-13.2804
雱	-13.2804
不可接者乃用過貼先移葉相似之小樹	-13.2804
今世葵有紫莖白莖二種種别復	-13.2804
以報税起科遂侵為己物瀦水専利以致	-13.2804
似蒜葉而頗窄狹又似肥韭葉微	-13.2804
係臣與本鄉土居官及士人數人同	-13.2804
其田常苦旱卑者其田常苦澇昔人治之	-13.2804
刈稷欲早八九月熟便刈遇風即落	-13.2804
化而民自化矣又何必命駕鄉都移文期	-13.2804
密泥勿使風入漏氣過立秋然後開	-13.2804
尺而甃之甃之法皆架木以為模	-13.2804
嵗種三十畝三年九十畝一年賣三十畝	-13.2804
已因問其故答云今日無雨而有雷謂之	-13.2804
徧著氊上厚五寸許卷束於風	-13.2804
日以後出者可用每一日所出為一等輩	-13.2804
晤	-13.2804
有粟米在中品又似二物故先儒甚疑焉	-13.2804
止雙日起雙日止諺云西南轉西北搓繩	-13.2804
毫狗長喙獫短喙猲獢絶有力狣尨狗也	-13.2804
民作均水約束刻石立於田畔以防分爭	-13.2804
氣係於日星期三百有六旬有六	-13.2804
沙漸漲已成平陸欲即開浚工費浩大且	-13.2804
油遂可為燭凡養蠟子經三年停亦三年	-13.2804
消融易噐淘治沙汰之澄去垢土	-13.2804
田中生出寸許其名曰秧秧生三十日即	-13.2804
筦	-13.2804
美入菜用其根堪為煎术與黄精仙家所	-13.2804
而接梨也則脆美桑而接楊梅也則不酸	-13.2804
著蓆上攤之令冷挹取麴汁於甕中搦	-13.2804
藫	-13.2804
許徑四寸如合脊瓦様但其下稍	-13.2804
論多少必具酒肉祭土榖之神束草立標	-13.2804
逆順各一到場中寛狹正似	-13.2804
遍候未蠶老畢報鋤第三遍如無力	-13.2804
錬	-13.2804
風始至蟋蟀居壁鷹乃學習腐草	-13.2804
鯽魚鱗生密縣韶華山山野中苗	-13.2804
齘	-13.2804
一功不至則稂莠之害秕糠之雜入之矣	-13.2804
之實不可勝用縱民採捕其中其利自	-13.2804
以見其愛之重之不驚擾之也後世無	-13.2804
做成木輪車架此三竿每查工之日必	-13.2804
公私俱受其害可不思所以革之耶建炎	-13.2804
其地容其水裕如也况自水源所出北抵	-13.2804
其根入地深而盤結固百年猶結實如初	-13.2804
其青岡樹枝葉條幹皆類橡櫟但葉色頗	-13.2804
冬四時順布也四時有八節立春春分立	-13.2804
同葵法葉生便食直至秋間有子若嫌老	-13.2804
增隄使髙且懼隄髙壅水萬一	-13.2804
失本價坐羸駒犢還更買懐	-13.2804
官以放斗門官不從相與什伯為羣	-13.2804
害者也夫水之湍急者其地或狹不能容	-13.2804
工之淺深工完之後沿河推運三竿車而	-13.2804
待熟亦不美勿先摘動被人盗吃飛禽就	-13.2804
日永星火以正仲夏宵中星虚以殷仲	-13.2804
曰種枲太早則剛堅厚皮多節晩則	-13.2804
果實異常者根下必有毒蛇切不可食	-13.2804
柝甚費力須用弩射取一二置竿首倚竿	-13.2804
樁而知其宕之長短即據信樁様樁拽䉡	-13.2804
油家三量成米此為收粟米六百石亦勝	-13.2804
滿為限假令六酘半前三酘皆用沃	-13.2804
耕犂之事又有本末上古聖人制耒耜以	-13.2804
苗根作羮或生醃或煠熟油鹽調皆可食	-13.2804
著空甕中以釡内炊湯及熱沃之令	-13.2804
行頭不用多肉臀欲方尾不用至地至地	-13.2804
説而詰之曰從子之説不必濬湖使深必	-13.2804
雨或愆期又無瀦蓄之水為灌溉之利	-13.2804
麤大可食刺豆亦可食秬豆苗似小豆紫	-13.2804
􁋗	-13.2804
幹案今棠葉有中染絳者有惟中染土紫	-13.2804
同種其樹相望乃結實或雌樹臨水照影	-13.2804
小方餅横鋪茗芽産其上其山東為朝日	-13.2805
遂為草茶第一宜興㴩湖出含膏宣城縣	-13.2805
切要愛䕶如梅雨浸其皮必不活又	-13.2805
蘬鄭詩云隰有遊龍是也所在有之生水	-13.2805
醃菜如欲出種正月二月種之九十日收	-13.2805
之處空其榦焉則來年條滋而葉厚	-13.2805
方成繰車秦觀蠶書繰車之制錢眼	-13.2805
桑之壅也以糞以蠶沙以稻草之灰以溝	-13.2805
黄耆一名戴糝一名戴椹一名獨椹一名	-13.2805
之其木架田坵隨水高下浮泛自不	-13.2805
之顧恤及其瘦瘠從而役使困苦之鞭撻	-13.2805
二尺叢生崖坡間葉似枸杞葉微長而有	-13.2805
可以御窮而人情狃近未或先慮及其	-13.2805
妳科亦名合鉢兒俗名婆婆針扎兒又名	-13.2805
張𢎞言有糞壅法即今常種稻田亦可得	-13.2805
燎之以絶蟲類併得為糞臨種益以	-13.2805
皆即濕踐穄踐訖即蒸而浥之黍宜	-13.2805
菱秋上子黑熟時收取散著池中自生矣	-13.2805
蔬宜畦種蓏宜區種畦地長丈餘廣三尺	-13.2805
謂之糯亦謂之秫以不黏者謂之秔亦謂	-13.2805
根多蟠結故也治之之法將園地分	-13.2807
辨其寒温甘苦之性作為醫藥以濟人之	-13.2807
作一科四面根皆斸斷安得有生氣耶又	-13.2807
南風起將門窗簾薦放下此際不宜	-13.2807
因念林林總總之民不幸罹於旱澇五	-13.2807
得甲坼勾萌者四百餘種植於一圃躬自	-13.2807
所載多伐病之物而於可茹以充腹者則	-13.2807
楠	-13.2807
犂一遍如古耦耕之法即一事而兩得也	-13.2807
種竹甚有理所謂祖孫不相見也余别有	-13.2807
義孳孳為善凡可以濟人利物之事無不	-13.2807
荼薺取昌陽棄烏喙因得以裨五	-13.2807
載諸方冊俾不得已而求食者不惑甘苦	-13.2807
廪實而知禮節此名著於民家者	-13.2807
得宜則事易集施為有漸則民不煩往	-13.2807
掘深尺許將泥垜移置其上四週以鬆泥	-13.2807
數處為然也何謂量緩急以處工費夫經	-13.2807
洸	-13.2807
脚踏搥打日日以水澆之度其實乃已又	-13.2807
變灰色已全以兩連相合鋪于一淨箔上	-13.2807
食夏四月亦可種大蘿蔔初伏種之水蘿	-13.2807
不豐矣於是徧求古今所有農家之書披	-13.2807
之功利又非藥石所可擬也尚慮四方所	-13.2807
亦細又似芸蒿開黲白花類蛇床子	-13.2807
亦豈忍覩斯民仰食於草木哉是編之作	-13.2807
以入三江頃為浦港湮塞滙流漲溢傷害	-13.2807
冬令則風災數起收雷先行草木	-13.2807
刈早則鎌傷刈晚則穂折遇風則收减	-13.2807
可引流而灌注之矣况開渠者勢必置土	-13.2807
同一仁心之用也雖然今天下方樂雍	-13.2807
命中書省采農桑事列為條目仍令	-13.2807
多不能盡録補其未備則有俟於後日云	-13.2807
尺深二尺用杵築實畜水至清明前後出	-13.2807
山日日雨常熟只聞雷丞相謂有此理悉	-13.2807
已受田其家衆男為餘夫亦以口受田	-13.2807
已病澇者則以修築圩岸為急圩岸既各	-13.2807
帮	-13.2807
式則出給簡明告示縁圩張掛仍刻成書	-13.2807
本新書蒜畦栽每窠先下麥糠少許地宜	-13.2807
根爛竹與菊根皆長向上添泥覆之為佳	-13.2807
極則生風語云東南風跳擲三日退一尺	-13.2807
水來處使吸之則解或以溺澆池面亦佳	-13.2807
江西養魚法掘小池方一丈深八尺	-13.2807
濕積則藁爛積晚則損耗連雨則生耳	-13.2807
用之以節仲長子曰鮑魚之肆不自以氣	-13.2807
療斯民之疾殿下區别草木欲濟斯民之	-13.2807
皮用竹筒破兩半封裹之則根立生次年	-13.2807
矣但方今嵗時荒歉公私俱絀既不可加	-13.2807
綿花葉而薄小又似絲𤓰葉却甚小而淡	-13.2807
者變至三分收了次二日變至七分收	-13.2807
荒本草命臣同為之序臣惟人情於飽食	-13.2807
薹時頻澆㔇麥時人多食解暑毒	-13.2807
車筒車之屬以水力轉器以器轉水升入	-13.2807
雖有荒熟貴賤之不同大都低鄉病澇	-13.2807
骼骨欲得大而長尾本欲大而張膝骨欲	-13.2807
麥蔬茹因而熟土壤而肥沃之以省來嵗	-13.2807
麥豆收縑練栽種蕎麥蒿菜葱	-13.2807
黄者吉足黄招財尾白者大吉一足白者	-13.2807
三年則其發茂禁損其枝之奮者桑之下	-13.2807
二年而盛其在土也月一鋤焉或二起翻	-13.2807
凉風至白露降寒蟬鳴鷹乃祭鳥	-13.2807
如禹之行水而上下煩勞則皆開江之利	-13.2807
宻處亦然凡通水處多肥饒以糞壅便故	-13.2807
年年稍廣間區斸取隨手還合但種數	-13.2807
得八斗汁亦無多損好日無風塵時日中	-13.2807
復來進退不已余家所種低田數多正苦	-13.2807
月中作取好淳酪生布袋盛懸之當有水	-13.2807
查審應賑人數籍其老病無力者為一等	-13.2807
梁陣主先大風而後雨終易晴天河中有	-13.2807
梟多桔符榆其山之末有箭與苑其山之	-13.2807
瀆曰川水鍾曰澤土髙曰丘大阜曰陵水	-13.2807
灌以純糞遍沃於桑之地使及其根之引	-13.2807
田晴又云夏雨分牛脊又云龍行熟路正	-13.2807
而旁周皆下垂凡穹之空皆半規皆去	-13.2807
而朱清張瑄之徒為患不絶其後二人招	-13.2807
而種不若條而壓其為桑之害也有桑牛	-13.2807
鎮遂相望而列矣然永樂中尚有倭賊之	-13.2807
高下之地豈有水旱如此相背之理不准	-13.2807
㶑	-13.2807
䂓	-13.2807
䬼	-13.2807
一水旱其所損所放賑濟勸分殆不啻十	-13.2807
上立一人持丈竿取直于第二號上立對	-13.2807
下土持石壓樹枝則實不墜桃子蛀者以	-13.2807
之孔有二一居中當底坎之上以挹其渟	-13.2807
人多用皮為冠一種皮無花紋枝葉大相	-13.2807
以兩全即遇大旱而區田所得亦足免於	-13.2807
以手磨刮取之可和水為漿及和米麨所	-13.2807
出納以此之故一鄉四五十里之間雖遇	-13.2807
則多墜以刀横斫其幹數下乃止又社日	-13.2807
前來與鄉官同其支貸一申府差官訖一	-13.2807
又慎莫貪多謂如己力止合放	-13.2807
又慮私鹽船往來多行塞斷所	-13.2807
及生酪然不炒生蟲不得過夏乾漉二	-13.2807
可用殺人味甘性寒無毒製造忌鐵器及	-13.2807
各周於用信乎人為物本物因人而用也	-13.2807
味如李而無核名曰沙棠可以禦水	-13.2807
嘗見麥野為風雨所損而莖穗交亂不能	-13.2807
地疏為塘浦導諸河之水由北以入	-13.2807
坳	-13.2807
埋之復取碎磁與灰泥和之以窒	-13.2807
埋堈坑深逾二尺次下木地釘三莖置石	-13.2807
堈碓以堈作碓臼也集韻云堈	-13.2807
如蕎麥熟時子易焦落故制此具便於收	-13.2807
姢	-13.2807
嬖	-13.2807
季夏之月日在柳昏火中旦奎中	-13.2807
安不擾則眠為得所今以青白者尚多飼	-13.2807
已在矣夫發其生者與其晚也寧早	-13.2807
年年結實果子熟時須一頓摘其美者遲	-13.2807
府乞依例給貸仍乞選差本縣清	-13.2807
彧	-13.2807
慍	-13.2807
或築狹河身為橋置為驛路及有湖泖港	-13.2807
户有願依此置立社倉者州縣量支常平	-13.2807
採嫩葉蒸過晒乾做茶喫亦可	-13.2807
接有劈接有壓接有搭接有換接	-13.2807
撾	-13.2807
收子核必擇其美者作種必待果實熟甚	-13.2807
收水九斗浸麴九斗當日即炊米九斗為	-13.2807
改正免罪至於灘田先年曾經丈量收入	-13.2807
方收粟用粟鑒摘穗北方收粟用鎌并藁	-13.2807
於刀刈數倍此推䥥體用之效也	-13.2807
明可愛花罷結角子似蔓菁角長二寸許	-13.2807
枝九葉草生上郡陽山山谷及江東陜西	-13.2807
某字第幾號某千長下百長某分管領夫	-13.2807
桐油灑之不能盡除以多年竹燈檠掛懸	-13.2807
止食桑葉脂脈若頓數不多譬如	-13.2807
江徑通大海常熟之白茆港徑入大江皆	-13.2807
沙游泥浮泛動盪難以施工	-13.2807
洊	-13.2807
涔	-13.2807
為一輩猶可次三日者則不可為將來成	-13.2807
為栁楸世人見其木黄呼為荆黄楸也	-13.2807
無以自業乎使湖果復舊水常瀰滿則魚	-13.2807
無嵗無賑濟利害曉然甚易知也然則湖	-13.2807
牛衣雨衣草覆等具農家嵗嵗不可無者	-13.2807
理還復凡為家具者前件木皆所	-13.2807
療癰疽發背初覺未成膿者以苧根葉熟	-13.2807
白實者佳味微苦性微寒無毒惡防已反	-13.2807
眠而動起動起之初欲得少食亦如人之	-13.2807
礮	-13.2807
窺食切宜謹之遯齋閒覽	-13.2807
竿一條丈䉡一條立竿様樁之頂拽䉡信	-13.2807
籬邊多種莖紫多刺藤長丈餘葉似牽牛	-13.2807
米斛責與本鄉出等人户主執	-13.2807
糸	-13.2807
縣均紐庶幾百里之内輕重齊同	-13.2807
老於亥死於丑惡於丙午忌於丑寅	-13.2807
者其農功之第一義歟墾除荒也耕犂也	-13.2807
芳藤形不能自立根本縁繞他木	-13.2807
葉比桑葉甚小而薄色頗黄淡葉稍皆三	-13.2807
虚河深十尺矣必十尺以下所有尺寸乃	-13.2807
衰壯求其倍勢也猶有不待其衰	-13.2807
訴湖田之害於撫諭使者使者下其狀	-13.2807
諰	-13.2807
谷中科條似荆條而圓對生枝	-13.2807
連上寫記後來下蛾時各為一等輩二日	-13.2807
鋤以棘柴耬之以壅麥根故諺曰子欲富	-13.2807
長聲甚好清朗鳴未必在曙時潮水	-13.2807
附之後將太湖東岸水出去處或釘木為	-13.2807
雨露冷葉春秋蠶法首尾顛倒深宜體測	-13.2807
頗淺其莖葉間開五瓣淡紫花結子如枸	-13.2807
食之或熬成膏攤於桑葉上晒乾搗作餅	-13.2807
駃眼欲得大眼中有白脉貫瞳子最快二	-13.2807
髙三五寸澆水實定不可太過收種下種	-13.2807
􁃇	-13.2807
凡水田渥漉精熟然後踏糞入泥盪平田	-13.2807
皆可種逐旋食用秋社後二十日種於畦	-13.2808
矮籬䕶之恐為蝦蟇所食常澆水糞俟長	-13.2808
開紅白又似馬蓼其莖有節而赤味鹹性	-13.2808
一云有小毒惡牡丹巴豆貝母救飢採嫩	-13.2808
圏眼大籠長可二三丈高約四五尺以籖	-13.2808
浸濕於甑中蒸之文武火養二三日頻頻	-13.2808
田附郭多肥饒以糞多故村落中民	-13.2808
者啓其根而糞泥壅之不然則葉遲而薄	-13.2808
則炎天燥土一井所灌其潤幾何必須	-13.2808
同前謂之三靛其濾出柤壅田亦可紫草	-13.2808
城市可倍添田數至半頃而止結廬	-13.2808
所至也一以下任意作之故曰可減不可	-13.2808
樹易成芽可食木龍易成葉貼毒瘡不凋	-13.2808
涓滴如珠或乃絶徼孤懸恒須逺汲長圍	-13.2808
種枇杷易成冬月開花花藥材榦葉俱青	-13.2808
糞肥多在其中遇旱則汲井溉之此外田	-13.2808
人莧葉微長窄而尖開花作赤色小細	-13.2808
以見其牧養得宜故字育蕃息也或降	-13.2808
利藥投之脹即疏通毒即解利若	-13.2808
劑以灌之即無不愈者其便溺有血是傷	-13.2808
包包裹不令見日大車上般載以人撁	-13.2808
取平即知第二號下于第一號幾何尺寸	-13.2808
尺許臨種以熟糞和土拌匀納子糞中候	-13.2808
有衣矣飯牛而牛肥則牛之瘠餒	-13.2808
水之時又無竭涸之患此過泉之當取也	-13.2808
習惰既見其難不復問井灌之法嵗旱之	-13.2808
蚜	-13.2808
顧恤之也古人卧牛衣而待旦則牛之寒	-13.2808
不及蔓菁餘亦頗同子作芥花芥末如近	-13.2809
可以為燭詩所謂樹之榛栗者也一種高	-13.2809
小枝葉皮樹皆如栗而子小形如橡子味	-13.2809
自然復發依然故林倘是老園亦宜用間	-13.281
螯	-13.281
諺云七月七無洗車八月八無蓼花八月	-13.281
之溝引者於上源開溝引水平行令自入	-13.281
圓開小粉紅花結角比家黑豆角極	-13.281
沿江有篥皆不能渡當益信余言不誣耳	-13.281
仲夏之月日在東井昏亢中旦危中	-13.281
屹	-13.281
曰笋竹胎也孫炎曰初生竹謂之筍詩義	-13.281
梅朱梅同心梅紫蔕梅燕脂梅麗枝梅	-13.281
泯	-13.281
浙日注第一自景祐以來洪州	-13.281
淬	-13.281
濘	-13.281
荊	-13.281
蒔早者用種須少插蒔遲者用種宜稍多	-13.281
一旦遇患難則莫知所措惟付之於無可	-13.281
上旬種者全收中旬中收下旬下收	-13.281
之七日看黄衣色足便出曝之令乾去胡	-13.281
分於平板上令壯士熟踏之以杙刺作孔	-13.281
卒不能收遂致白颯之患若連朝雨反不	-13.281
捆	-13.281
故管子曰桀有天下而用不足湯有七十	-13.281
澮上有道萬夫有川川上有路以達於畿	-13.281
災不免擔閣吐秀有皮殻厚之病	-13.281
畝三年種九十畝嵗賣三十畝終嵗無窮	-13.281
皆仰其衣為勢今反颺去之作物必不善	-13.281
眚	-13.281
耕農甚便皆萬世之利自洪武以後有司	-13.281
西臺頭營河流亦自燕河營湧泉而	-13.281
諺云上八夜弗見參星月半夜弗見紅燈	-13.281
里而用有餘天非獨為湯雨菽粟也	-13.281
鋤起地夏為除草故春鋤不用觸濕六月	-13.281
靱	-13.281
齊人喜當風颺去黄衣此大謬凡有所造	-13.281
㩍	-13.281
之槌箔上敷席置麥於上攤令厚二寸許	-13.281
之趨其頂也皆以圜蓋穹者其形蓋也中	-13.281
也然泄水最多者曰斗門其次曰諸堰若	-13.281
凡此六氣一十八候皆夏氣正長養之令	-13.281
南來者絶無雨凡雨陣自西北起者必雲	-13.281
又似桔梗葉微長開花似鈴鐸様淡紅紫	-13.281
圍田者無非形勢之家其語言氣力足以	-13.281
子無毒救飢採葉煠食煮飲亦可子研汁	-13.281
子鎮西則鴉洪橋夾河五十餘里皆可田	-13.281
嵬	-13.281
并白魚洪鮎魚口等處洩昆承湖水以注	-13.281
新舊以兼行使粒食之民生生永賴	-13.281
日之不足一遭旱澇追悔無從至於常平	-13.281
枝至百餘年有葉狀如蕨菜長丈四五	-13.281
染真紅及作胭脂花味辛性温無毒葉味	-13.281
桑剶桑俱用此刄北人斫桑用斧劖桑用	-13.281
榖實滋盛皆出其力雖知有愛重之心而	-13.281
次仲夏芒種節氣初五日螳螂生次五日	-13.281
步作畦長短任地形横作壠相去一尺餘	-13.281
為果皆可代糧其莖亦可暴收和米作	-13.281
無愛重之實近年耕牛疫癘損傷甚多亦	-13.281
知食不以時用不以禮但快目前之有餘	-13.281
種易舂寳珠黄俗得白張鄰黄白鹺糓	-13.281
粥食之皆好葉可生食與魚作羮味佳	-13.281
而器用無古今之間所以較彼此之殊效	-13.281
芥子大味辛性温無毒經冬根不死辟蠧	-13.281
諸隂溝則又次焉今兩湖之為斗門堰閘	-13.281
開平有言瀘溝自麻峪可至㝷麻林朝廷	-13.281
陽處隨畦以薥黍籬障之用遮北風至春	-13.281
麴室具箔槌取净艾六日饌治五	-13.281
上收子逾多故一種即為子孫數世之利	-13.281
下不任種蒔土人呼曰淳于泊近	-13.281
不種之亦有全用熟田種者用油之外其	-13.281
他境乎夫以一縣令尚能為之槖之所望	-13.281
其花絮沾濕地即生蘆然不如根栽者	-13.281
其葉嫩薄又似牛尾菜葉亦長窄其根如	-13.281
其青桑無子而葉不甚厚者是宜初蠶	-13.281
冄	-13.281
出入之路頓至隔絶稍覺旱乾則占據上	-13.281
出著席上布令厚三四寸數攪之令均得	-13.281
剪賣其剪處㝷以手拌斫斸地令	-13.281
又種榆法其餘地畔種者致雀損	-13.281
及鄰郡實近古之上法將來之永利	-13.281
圍阻截水勢成田田間各自成圩又藉圩	-13.281
地參又名山蔓菁生鄭州沙崗間苗	-13.281
堤環而不斷内容頃畝千百皆為稼地後	-13.281
塗田頗少放水之後欲得成泥故用鴈翅	-13.281
夏葢湖之利尤為倍收其冬新嵊之民糴	-13.281
如栗所謂樹之榛栗者其一種枝莖如木	-13.281
寤	-13.281
實耳古来蔬果如頗稜安石榴海棠蒜之	-13.281
尖刀兒苗生密縣梁家衝山野中苗	-13.281
尾者發痼疾救飢採嫩苗葉作菜茹煠	-13.281
岸不堅緻卒然崩潰諸農	-13.281
所收常倍於熟田蓋曠閑既久地力有餘	-13.281
授機織此造布之内雖曰細具然不可闕	-13.281
摟聚麥禾擁積稭穗此益農之功也	-13.281
政吝於工費以其言為過縮其廣三之一	-13.281
於邦計不為無補殊不思緣江	-13.281
晴諺云迎梅雨送時雷送去了便弗	-13.281
曰墳下平曰衍髙平曰原下濕曰隰	-13.281
有營運衣食不闕不得請貸各依日限具	-13.281
本篇四圖之丙丁戊己庚券穹也丁	-13.281
東風正是旱天公末時得雷謂之送時主	-13.281
枝於孔中選築孔使堅屋子置	-13.281
染皂其木可刻書及雕造器物且樹久不	-13.281
柿漆斫竹移植早梅橙橘枇杷牡丹雜事	-13.281
楊葉亦窄開淡黄花結子小如豌豆而	-13.281
樹未發芽前半月以上俱可修理種樹書	-13.281
正有勞病角冷有病毛拳有病毛欲得短	-13.281
流水之陂也防者瀦旁之隄也今之陂塘	-13.281
為代田一畮三甽嵗代處故曰代田	-13.281
為張士誠襲蘇之逕而國家亦因之以取	-13.281
熟種忌四季辰未戍丑戊己汜勝之書曰	-13.281
熟者食之驢駝布袋生鄭州沙崗間科條	-13.281
獅	-13.281
生於榆六十日秀秀後四十日成黍生於	-13.281
百頃皆異時之無水旱者圍田一興修築	-13.281
督民鑿井灌田竊意遠水之地自應種旱	-13.281
知大澇時吳田盡可作湖百姓生命寄於	-13.281
秋收之後牛力弱未及即秋耕者榖黍穄	-13.281
糝樂婢青二種易舂竹葉青石	-13.281
置立去處官司不得抑勒則亦不至騷擾	-13.281
而圍田之害深矣議者又曰圍田既廣則	-13.281
而尖小又似小竹葉而細窄莖亦有節	-13.281
而瓣頗長生時摘葉有白汁出亦能嚙	-13.281
耘爪耘水田器也即古所謂鳥耘者	-13.281
至冬暮母乳已竭春草未吐是故不佳其	-13.281
至因之並鳴或名曰伺潮雞風俗通云俗	-13.281
舟若煎炙油氣觸之則目皆瞎京口録	-13.281
草生葵亦俱生三月初葉大如錢逐穊處	-13.281
草經云張騫使外國得胡豆今世大豆有	-13.281
莖淡紅色就地叢生攛節似初生嫩葦節	-13.281
蓄之道以備將來該督撫等可轉飭有司	-13.281
蓮子堅黑者於瓦上磨蓮子頭令皮	-13.281
處却雨如何老農云晴雨各以本境所致	-13.281
處深寛為坑以牛馬糞和土以半	-13.281
蠶之變色為變之小其眠則絶食退膚為	-13.281
近郡山谷亦有嵩山茅山者佳苗淡青色	-13.281
過握乾作餅焙熟食之或取樹熟楮桃紅	-13.281
達于川同方百里同中容四都方八十里	-13.281
鐵為首二其股者利如戈㦸唯用叉	-13.281
門田家五行曰至正壬辰春末夏初水至	-13.281
陽立於三春故蠶三變而後消死於	-13.281
險時所遺器也又泰山下舊有曠野其地	-13.281
雞兒頭苗生祥符西田野中就地妥	-13.281
雞頭八月中收取擘破取子散著池中	-13.281
雨則蠶常不食濕葉且不失飢採葉歸必	-13.281
髙大堅勁人常採斫以為秤簳	-13.281
􁋭	-13.281
三之二至冬至而極矣堯命羲和日中	-13.281
中國自桑土既蠶之後惟以繭纊為務	-13.281
之有淤滯處隨令復濬務求線道	-13.281
之震澤受宣歙之水又從三江百瀆注之	-13.281
也周禮天官太宰之職以九職任萬民	-13.281
二寸許將梗葉浸水缸内晝夜濾淨每缸	-13.281
亦得作作時必須寒食前令得一酘之也	-13.281
傳生剪莖作種今嵗一莖次年便可種數	-13.281
再過有草便鋤之令枝條壯盛即多蠟也	-13.281
勝用餳蜜九也生熟皆可食十也用地少	-13.281
地宜肥濕早者四月種遲者六月亦可繁	-13.281
堅直色似豌豆頗白莖葉稍間開白花結	-13.281
天下遺利以資經費率皆以無為有縣官	-13.281
定之後每段將畫尺木橛釘入河心與水	-13.281
小黲白花結細灰青子苗葉味甘救飢採	-13.281
後偽無容矣迨工完之後復打水線以	-13.281
得匀舒以土堅覆土壁地區地約	-13.281
御前所得也不剏湖田何以有此省計虧	-13.281
旬不雨已成龜坼徒傷挹注之易窮不悟	-13.281
是月收蜜蜂此月伐木不蛀下子芝麻扦	-13.281
望吳越以來素稱膏腴宋儒范仲淹嘗論	-13.281
槃篚有架猶北方椽箔之有槌也	-13.281
様樁之上下其手也又虞老岸之偽增其	-13.281
欲多廣謂此也其三湖蕩之上不能來者	-13.281
每根徑六寸桁條每根徑五寸五分抽楣	-13.281
水輪輪軸長可數尺列貫横木相交如滚	-13.281
為排計其利益三倍於前由是器用充實	-13.281
為臼杵臼之利萬民以濟按古舂之制䄷	-13.281
用板木障水俱使傍流急注貼岸置輪高	-13.281
畦澆過明旦亦將做下空畦澆過將苧麻	-13.281
皮薄切浸二三宿去苦味煮熟食亦作煎	-13.281
社首保正副隊長大保長並各赴倉識認	-13.281
窌	-13.281
粇	-13.281
而辨其利害夫公上之與民一體也有損	-13.281
耕一遍蓋兩遍最後蓋三遍還縱横蓋之	-13.281
號俱用此二法至號盡而止事畢布算先	-13.281
車箱兩頭不透風日中間順臥樹身上以	-13.281
鋸齒尖花葉又似水芥葉亦厚大後分莖	-13.281
頬	-13.281
􁘗	-13.281
州密州皆佳而乾陵尤異木之文理	-13.281
甚珍之又有就舊畦内冬月以馬糞覆之	-13.2811
綀	-13.2811
間大如升外皮苞之如蓮狀皮中核堅過	-13.2811
后妃齋戒享先蠶而躬桑以勸蠶事	-13.2811
芭蕉一曰芭菹或曰甘蕉莖如荷芋重皮	-13.2811
四尺用細熟糞一擔匀布畦内再	-13.2811
各家共力造木為槽遞相嵌接不限	-13.2811
子著皮而腹内空含汁大者含升餘	-13.2811
最易謂之下馬看又謂之三朝齊湖州録	-13.2811
長大微尖莖葉間開小淡粉紫花作小短	-13.2811
均布者以手執此就加漿糊順下刷之即	-13.2811
尤宜下地立秋後五日雖水潦至一丈深	-13.2811
尺内著芋魁種之無芋大蕪菁根亦可用	-13.2811
攣縮如羊腸用布一疋隆又禁改之	-13.2811
至北土旱災赤地千里欲拯斯患	-13.2811
蒸已用筐箔薄攤乘濕略揉之	-13.2811
之令氣溜即暴之如此九蒸九暴令極熟	-13.2811
以鋤營州之東以鏟爰有一器出	-13.2811
刈欲晚早刈損實大抵北方禾黍其	-13.2811
尺内九夫積三百二十四萬尺為田九百	-13.2811
於兼并之家秋成倍稱而償之嵗以	-13.2811
遲而陸禾亦或宜早通變之道宜審行之	-13.2811
鼈栽種菱藕之類其利可勝言哉	-13.2811
一六遂人千夫有澮澮上有道匠人方	-13.2811
乘險江河溪澗境絶路殊鑿井百	-13.2811
去穊者供食及賣作葅者十月足霜乃收	-13.2811
審定繩直于三百六十分度内定是何向	-13.2811
廢人用器厥利尤大矣别有天府金城居	-13.2811
所産後福建諸縣皆有近江東陜右亦多	-13.2811
新汲其蠲煩去疾益人利物	-13.2811
曲一號中可分作二或作三四格定	-13.2811
治病今人傳説治痢疾採苗用水煮服甚	-13.2811
理以節適何病之足患哉今農家不知此	-13.2811
生辟榖其生者若初服只可一寸半漸漸	-13.2811
石竹子葉極細短開小黄白花結小黒子	-13.2811
蕎麥苗處處種之苗髙二三尺許就地科	-13.2811
農務助桑麻之用華夏兼蠻夷之利	-13.2811
阬中種桑柘者隨阬深淺或一丈丈五	-13.2811
地屋䕃中培以馬糞煖而即長	-13.2812
夏之交常有雲霧覆其上若有神物䕶持	-13.2812
甜而脆亦飽人其根大如芋魁大一石青	-13.2813
造於禁火之前也火後者次之一云雅州	-13.2813
氾	-13.2813
息者欲勞勞者欲息棘者欲肥肥者欲棘	-13.2813
南北異名而其用則一今江南山中松下	-13.2813
幘	-13.2813
人而不知作此何哉此竹亦可移至北土	-13.2813
入甑中蒸令氣餾則下一日曝之明旦起	-13.2813
嗽	-13.2813
因循不栽即復栽豈能一二年遽盛耶又	-13.2813
穂瀛定懷汝晉昌州平定永康軍禾合穂	-13.2813
為平地仰泉用法有六其一源來處髙	-13.2813
而水不至為虚費矣其二溪澗傍田而卑	-13.2813
衃	-13.2813
迆	-13.2813
錘	-13.2813
者早春黄芽葉相抱如片甲也蟬翼葉	-13.2813
之經七日便極清澄接取清者然後押之	-13.2813
也吳人云鐵犂長尺有四寸廣六	-13.2813
事再餾弱炊攤令小冷先下水麴然後酘	-13.2813
交窘只如去冬今春畿内郡縣艱難可見	-13.2813
僉㸃大户看守以備荒年賑貸官籍其數	-13.2813
圜孔以其底之半徑為孔之徑筩之旁齊	-13.2813
忤	-13.2813
疑或是晴天隔夜雖無今朝忽有則要看	-13.2813
矣俚語有之曰春濁不如冬清殆謂是也	-13.2813
種合和細磨之七月上寅日作麴溲欲剛	-13.2813
中為甓為瓦者是若散沙土水味稍淡若	-13.2813
之日天子親帥三公九卿諸侯大夫以迎	-13.2813
九月已有箭竹笋迄後年四月竟年常有	-13.2813
也其在松江粒小而性柔有紅芒白芒之	-13.2813
寸再以水壓下二三日澆一次勿太濕勿	-13.2813
念乃重農積粟之詔屢下而閭閻	-13.2813
掘根分栽無種子者亦如壓條栽桑趣易	-13.2813
採根換水浸去邪味淘洗淨蒸熟去心食	-13.2813
早不失於晚穫麻之法穗勃勃如灰拔之	-13.2813
晴日出早主雨出晏主晴老農云此特言	-13.2813
有饑色幾至流離若非多方賑䘏窮民必	-13.2813
松子出遼東雲南者尤大食之香美又	-13.2813
松膏一名松香一名松膠一名松肪一名	-13.2813
熟時採俟來年二三月間用水淘取沉者	-13.2813
用梨木板長三尺濶五寸厚二寸做	-13.2813
田里之人雖能勤身從事而播殖之宜蠶	-13.2813
羅勒也中國為石勒諱故改今人因以	-13.2813
耒下前曲接耜則耒長六尺有六寸其受	-13.2813
詡	-13.2813
雨不接濕無以生禾苗大雨不待白背濕	-13.2813
雨若是長而下垂通地則又名白日幢主	-13.2813
餘悉掐去引蔓結子子外之條亦掐去之	-13.2813
首得三尺三寸自首遂曲量之以至	-13.2813
驗言晏者日出之後雲晏開也必晴亦甚	-13.2813
七日聚之皆還宻泥三七日出外日中曝	-13.2813
上下生齒各四三歳上下生齒各六四	-13.2813
二尺許莖葉有刺似刺薊葉而潤澤窊	-13.2813
云大長者為柰圓者為林檎夏熟小者味	-13.2813
亦細膩以為几案光滑悦目	-13.2813
但積榖固難建倉尤難建一時	-13.2813
作寒數日謂之麥秀寒即月令麥秋至之	-13.2813
供常饌今山中種香蕈亦如此法但取向	-13.2813
兵乃來行春令則其國乃旱陽氣復還五	-13.2813
十二事勸農於境内躬行阡陌程督勤惰	-13.2813
即服之詳此數方其間所用品味	-13.2813
又云車柎南北人皆慣用習見已圖	-13.2813
可尺許圍可尺餘其纑縷杼軸既畢架以	-13.2813
名甚著不若湖州之研膏紫筍烹之有	-13.2813
味酸甜救飢其子甜熟時摘取食之拐棗	-13.2813
四至丈尺畝數坐落地名與應建倉厫	-13.2813
國多火災寒熱不節民多瘧疾	-13.2813
土之次曰五桀五桀之狀甚鹹以苦其物	-13.2813
夏至日風色看交時最要𦂳屢騐月中	-13.2813
居中大葉如菉豆葉傍兩葉似黒豆葉	-13.2813
屬或從木有兩種其一種大小枝葉皆如	-13.2813
山谷及寃句和州解州今鈞州宻縣山野	-13.2813
山頂有露芽榖芽皆云火前者言	-13.2813
嵓	-13.2813
廥	-13.2813
或可以分殺河勢或可以灌溉田土具有	-13.2813
是昔無此種或有之而偶絶果若盡力樹	-13.2813
有大鏵用開田間去水溝塹當是此器因	-13.2813
服三五十丸冷水嚥下不得熱食如要喫	-13.2813
果樹生小青蟲虰蜻肹掛樹自無	-13.2813
次曰五鳬五鳬之狀堅而不骼其種陵稻	-13.2813
民間亦難卒得若官中預蓄品味饑	-13.2813
氣駐顔色辟邪又能行履	-13.2813
湖澱湖三泖抵松江一望滔天河水	-13.2813
用糞和半水澆之割後旋澆澆必以夜或	-13.2813
田久廢必生構葉有瓣曰楮無	-13.2813
白生江東池澤水中及岸際今在處水澤	-13.2813
禳禱祓除祛禍祈福以報其功力豈為過	-13.2813
秅	-13.2813
移民移粟又次也咸無焉設糜粥最下也	-13.2813
稱是凡開田間溝渠及作陸塹乃别制箭	-13.2813
茶者其片作五出花雲脚出袁州界橋其	-13.2813
薥秫下地種薥秫特宜早須清明前後耩	-13.2813
行臺監察御史詹雲卿造布之法	-13.2813
觀之倉非難建百年永賴之倉	-13.2813
角三觠羷羳羊黄腹未成羊羜絶有力奮	-13.2813
責令圩甲躬行倡率某日起工某日完工	-13.2813
辨之不精多能毒人雖甘無益也不復具	-13.2813
通便利訪得各鄉水利原自疏通近多豪	-13.2813
鋤竹園地是月防霧傷棗棗熟	-13.2813
門以東循黄河故道縱廣數百里間各為	-13.2813
防數日即客水大至亦無害也又曰秦中	-13.2813
雨破車閣在弄堂裏二十分龍廿一鱟	-13.2813
面青背白上有短毛又似蘇子葉其葉間	-13.2813
黒勃著之汙人手把取正白噉之甜	-13.2813
㡌	-13.2813
䲭	-13.2813
一根數日即生少枝長疾三歳成椽比	-13.2813
下流其水易瀦而難洩雖導河濬浦引注	-13.2813
中滑不得停也莖大如箸皆可生食又可	-13.2813
之間尚不相假借而况他人者也	-13.2813
亡捐瘠者以畜積多而備先具也今海内	-13.2813
人扶之可使數牛輓行挿犂既深一去復	-13.2813
以為田乃引鑑湖自然淤澱已成田陸為	-13.2813
俱江南治水方略引以為例他可類推云	-13.2813
六湖蕩之易盈易涸者當其涸時際水而	-13.2813
北單耩或㸃種比之撘矮棚與黍同種	-13.2813
匭	-13.2813
南鄉之田所恃者廣徳一湖環百里周以	-13.2813
又以子不以多少炒舂去赤皮浸軟	-13.2813
可以為戒庶長民者鑒之更其宿弊均其	-13.2813
可食有刺可却姦種山礬不凋花香易成	-13.2813
名山薊一名山薑一名山連一名山精生	-13.2813
國者必有山林川澤之利斯可以奠基而	-13.2813
地𤓰形類甘露兒更長味甘救飢掘根洗	-13.2813
塗之有闕焉而為之縫亦杵之而牆之而	-13.2813
大豆有黄落豆有御豆其豆角長有	-13.2813
如手指麄宿根地中至春自生不須藏種	-13.2813
守敬奏山水頻年暴下非大為渠堰廣五	-13.2813
家其服役者不下二人其能耕者不過百	-13.2813
州皆有今宻縣梁家衝山野中亦有之苗	-13.2813
巨句麥一名大菊一名大蘭又名杜母草	-13.2813
師之水去海至近其流且緩其言信而有	-13.2813
必然之理此誠無用之論也浙西之地低	-13.2813
惟中間時月収者為上須經日晒燥帶	-13.2813
成宗謂宰臣曰郭太史神人也	-13.2813
所統領而無泛散不齊之弊中有業户不	-13.2813
掘溝以乾馬糞和細泥填髙一尺無馬糞	-13.2813
救飢採根刮洗去皮煮極熟食之甜美	-13.2813
明年大雨山水注下渠不能容漂没人畜	-13.2813
春之月天子詔后以躬桑大昕之朝内宰	-13.2813
時必有乾涸之患矣此仰泉之當棄也又	-13.2813
晒乾煠食尤好凉蒿菜又名甘菊芽生	-13.2813
曵小犂仍置刃裂地闢及一隴然後犂鑱	-13.2813
最上處瀦水勿致走失然後自下旋	-13.2813
有夏雨應時可種田也非謂水必大也經	-13.2813
根風雨不能侵損五也可當米穀凶	-13.2813
正與東坡所見合如曰海變桑田黄河奔	-13.2813
氏有國亡宋南渡全藉蘇湖常秀數郡所	-13.2813
民以榆皮作屑煮食之人賴以濟焉	-13.2813
水田之利故曰蘇湖熟天下足若謂地勢	-13.2813
永康軍皆有之今宻縣山野中亦有苗	-13.2813
池中或前一月或後一月皆不育漁人攜	-13.2813
湍流之側架木立軸作二卧輪用水激轉	-13.2813
源水利之興廢乃吳民利病之源也臣嘗	-13.2813
滿天陣名通界雨言廣闊普徧也若是天	-13.2813
熟時全房折取於屋下作廕坑坑内近地	-13.2813
用驢乳汁二三升和馬乳不限多少澄酪	-13.2813
田收完糧租額必重謂之生田兩省之人	-13.2813
相視開斗門而注之湖髙田下勢如建瓴	-13.2813
石春耕夏耘秋穫冬藏伐薪樵治官府給	-13.2813
祭祀之服以為旗章以别貴賤等級之度	-13.2813
種之其髙原山田土厚水深之處多掘深	-13.2813
積二萬九千一百二十尺二積共二十四	-13.2813
穢者則集衆杖之或訴以乏人牛乃召其	-13.2813
糶五月二十日大分龍無雨而有雷謂之	-13.2813
而為碓為磑為礱為輾等具皆本於此	-13.2813
而稃黄大暑可刈其色難變不宜於	-13.2813
耳答曰晉宋以降倉廩所積悉仰給	-13.2813
至榖雨前後手爬去麥糠澆之次冬封	-13.2813
致停積渾水以成淺淤若行此法與矩極	-13.2813
與刺史及其寮一二公唱和長篇記其事	-13.2813
若非年年濬渠築圍田卒汙萊在所不免	-13.2813
苧一科數十莖宿根在地中至春自生不	-13.2813
荗	-13.2813
葉似橡櫟葉極小而薄邊有鋸齒而少花	-13.2813
蓄積多而備先具者豈皆藏於國哉	-13.2813
藝桑之園不可以藝楊藝之多楊甲之蟲	-13.2813
西南早到晏弗動草言早有此風向晚必	-13.2813
見耳子盛長時有膏如餳蜜去之即子枯	-13.2813
記湖之始興於時已三百年當在魏	-13.2813
許葉似園荽葉微細葉叢間分生莖	-13.2813
賦云惟蠶有功於世歸美廣物産之貨	-13.2813
辛性温無毒殺附子毒惡乾薑藜蘆白	-13.2813
遇大石焉而鑿之池以石為之底與牆與	-13.2813
郏	-13.2813
酒其色味似葡萄酒甚佳亦可熬燒酒可	-13.2813
面為斗門碶閘方春山之水泛漲時皆聚	-13.2813
面脂本草圖經曰犀瓣也瓤亦堪作澡豆	-13.2813
駿	-13.2813
體然則古稱九年六年之蓄者蓋率土臣	-13.2813
䌫	-13.2813
䬪	-13.2813
于二十四向中定作何向又用矩極所測	-13.2813
其犀用為茶果則兼蔬果之用矣	-13.2813
及取子水浸淘去苦味晒乾或磨或搗為	-13.2813
四寸一栽務要頻鋤三五日一澆如此將	-13.2813
寒大眠後宜凉是時天氣已暄	-13.2813
對算即知小股幾何逐號算成小勾股	-13.2813
小頗尖其葉抱莖對生毎一葉間攛生一	-13.2813
愁其不肥共母同圏粟豆難足	-13.2813
求弦即知大直弦丈尺以大勾股依子午	-13.2813
泉過泉者乃山泉逺來大旱不絶其流横	-13.2813
漸漸加葉飼早晴可捲東窗苫	-13.2813
用事務興利以中主欲一時佻躁趨競者	-13.2813
發生青色細葉似細蓬葉而長極踈細如	-13.2813
相去一丈上下則樹大力厚須糞壅極肥	-13.2813
相従者所以省費燎火同巧拙而合習俗	-13.2813
禊	-13.2813
號坐向與子午鍼對算即知小勾幾何與	-13.2813
足用不復市膏油也臨安郡中每田十數	-13.2813
遍計正月二月兩個月又轉一遍然後	-13.2813
鮠	-13.2813
鮿	-13.2813
也酢滑而美赤棠子澁而酢無味	-13.2813
三指濶蓋土厚三寸以蠶沙蓋之糞亦得	-13.2814
不苦亦可洗訖作粥津麥䴷味如䖆芥	-13.2814
如帚其粒黑如漆如蛤眼熟時收刈成束	-13.2814
實如楊梅半熟時水澡去子蜜煎作果食	-13.2814
威靈仙一名能消出商州上洛華山	-13.2815
故種竹常擇雌者物不逃於隂陽	-13.2815
曰香秔其粒小色斑以三五十粒入他米	-13.2815
稻在松江八月望而熟者謂之早中秋又	-13.2815
輒移時毛竅空疎因而乏食	-13.2815
逐旋取棉子置於板上用鐵杖	-13.2815
中間排鑿八竅或六竅各竅内置掉枝或	-13.2815
袐	-13.2815
云江東有之而北國最豐皆作脯	-13.2815
以竹刀子刮去半皮以刮處相貼用麻皮	-13.2815
出齊時旱則澆溉鋤治常要潔浄穊則移	-13.2815
却小開五瓣小白花結子似野葡萄大紫	-13.2815
取四莖肥好者每兩莖肥好者相貼	-13.2815
堅勁可以作棒皮色烏黑對分枝叉葉	-13.2815
壩水溉田亦曰壩田與此名同而實異	-13.2815
從他方得種其曰米麥薥秫皆借名之也	-13.2815
掉枝所穿横木俱各攪轉候䋔股匀	-13.2815
易見人皆知濬治者萬頃之湖千畝之蕩	-13.2815
有姑榆有郎榆案今世有刺榆木甚牢	-13.2815
枝葉間結實狀如楮桃而小熟則亦有紅	-13.2815
水飲地匀摻芽種復篩細糞土覆之以防	-13.2815
活後各除一頭又取所活兩莖	-13.2815
源全繫乎澤澤廢是無川也况國有大澤	-13.2815
生必毒蠶如不採夏月皆要打落方無毒	-13.2815
痢見草葉亦軟淡緑五葉攅生一處開小	-13.2815
秫誤矣别有一種玉米或稱玉麥或稱玉	-13.2815
糝稗可收高涸處亦宜陸種諸物皆可濟	-13.2815
繰之謂之冷水絲柘蠶先出先起而先	-13.2815
花如白薔薇而黄心清香隱然實如栟櫚	-13.2815
莖方其葉狀類黒豆葉而團長光澤紋脉	-13.2815
雖有旱乾水溢民無菜色豈非節用預	-13.2815
食甚甘美其蒸暴用瓮去底安釡上裝	-13.2815
一億八千四百萬尺為田一百四十四萬	-13.2815
一石可得白油十斤清油二十斤彼中一	-13.2815
不可立行壠上恐踏實不長七月間	-13.2815
不熟曰飢菜不熟曰饉物理論云百	-13.2815
中如炊兩石米頃出著席上布	-13.2815
作燒餅蒸食皆可猪尾把苗一名狗脚	-13.2815
嫩時可充蔬食茶料老則收子煮	-13.2815
小桃紅一名鳯仙花一名夾竹桃	-13.2815
尚何困苦羸瘠之有所以困苦羸瘠者以	-13.2815
慕文曰養苗之道鋤不如耨耨今小鋤也	-13.2815
或煎以為煎食久服輕身不老變白延年	-13.2815
煮作飯食或磨為麵作餅蒸食皆可	-13.2815
籠大篝也即今謂有係筐也桑者便於	-13.2815
蓋鋤後莖葉漸長使可分别非薅不可	-13.2815
誠乏人牛何不助之衆皆謝乃釋之由是	-13.2815
近聞諸般材木比之往年價直重貴	-13.2815
髙不言度者趣其入于筩也不轉側動	-13.2815
以供蔬饌之用謂之長生韭至冬移根	-13.2815
貴其兄子棄業求官珍不許曰汝等自有	-13.2815
非惟足供烹飪種多亦可資富梁	-13.2815
䐗	-13.2816
旋除去食之如此一斗種可變為盛一石	-13.2816
噉北人呼樗為山椿江東人呼為虎目葉	-13.2816
伏中稿稻天氣又當下壅時最要晴晴則	-13.2816
輈	-13.2816
寜末有㫖下建州製蜜雲龍一品尤為	-13.2816
竒絶蜀州雀舌鳥嘴麥顆	-13.2816
鯨	-13.2816
丈以上即治為田節級受水自上而下入	-13.2816
今人種麥雜棉者多苦遲亦有一法預	-13.2816
受之梯田者泉在山上山腰之間有土	-13.2816
秋摘秋後勢定勿摘矣摘亦不復生枝又	-13.2816
種棉但能穴種麥即漫種棉亦可刈麥又	-13.2816
綂	-13.2816
藁謂之稈稈謂之芻生曰穀謂之粒	-13.2816
視桑葉之生以定變子之日須治之三	-13.2816
亦不之及此事雖若可緩其實關係甚切	-13.2816
小暑至螳螂生鵙始鳴反舌無聲	-13.2816
縣之各鄉相地所宜開濬陂塘及修築	-13.2816
舉不得其人則百弊興此固守令之責若	-13.2816
遍布朽薙腐草敗葉以燒治之則土暖而	-13.2816
雖冽不能害也若不能然則寒泉常浸土	-13.2816
也朕自臨御以來宵旰勤求無刻不以民	-13.2816
八日潮生日前後有水謂之横港水九月	-13.2816
十八盆湯又云立秋後四十五日浴堂乾	-13.2816
千里此皆言雨後乍晴之霞暮霞若有火	-13.2816
古語云一年之計在春一日之計在寅	-13.2816
密理中人者九竅俱塞迷悶而死凡山鄉	-13.2816
度去江河逺者不論第三避震氣地中之	-13.2816
數斤待其滲入則堅久不蛀他木同本草	-13.2816
烏口稻在松江色黒而能水與寒又謂之	-13.2816
狹上闊直起亘天此特夏秋間有之俗呼	-13.2816
理當取土於溝内二者又自有相成之機	-13.2816
稻之下品其粒白而大四月而種八月而	-13.2816
絲自鼎靣引絲以貫錢眼升	-13.2816
舒卷提掇舒時連背向日曬至温不可	-13.2816
諺云朝霞暮霞無水煎茶主旱此言	-13.2816
足便止合醅飲者不復封泥令清者以盆	-13.2816
隴另捲草索截約一托以水浸	-13.2816
驃	-13.2816
􁀆	-13.2816
上立四楹以茅竹為屋各置一磨	-13.2816
不下鄉乃使各區塘長至縣報數或朔望	-13.2816
不即親臨撲除或撲除未盡而妄申盡	-13.2816
亦不可乆食動風子可炒食亦可打油用	-13.2816
京口録云頭匾而骨軟閩志云目赤而身	-13.2816
作盆中浸小麥即傾去水日曝之一日一	-13.2816
候八九日秧青放水浸之糯稻出芽較遲	-13.2816
倨	-13.2816
厚壓中間摻土薄覆隔一步或兩步依上	-13.2816
媍	-13.2816
宜暖宜暗蠶大并起時宜明宜	-13.2816
徳行道藝而先孝友即漢孝悌之科是已	-13.2816
捲照窗下開風眼窗外槌下灑潑新水	-13.2816
本草有白油麻俗名脂麻舊不著所出州	-13.2816
水處也吳公釋此不察弊弊從事於開濬	-13.2816
澤之利未盡出也游食之民未盡歸農也	-13.2816
瀘溝舟亦不通守敬因陳水利十有一事	-13.2816
無澇亦無乾雪不消則九月霜不降雷多	-13.2816
用斧北人劖葉用刀去短就長兩為便也	-13.2816
由是觀之九州之内田各有等土各有	-13.2816
疎篩以薄布之非利刃則無液非細切則	-13.2816
笋本草有菰根又名菰蔣草江南人呼為	-13.2816
花結子功在于枝不可忽也彼枝河切近	-13.2816
該府縣止分别孰為低鄉當急修圩孰為	-13.2816
豆木綿菜子蠶種豌豆紅花白酒芝	-13.2816
邜	-13.2816
雨諺云清明斷雪榖雨斷霜言天氣之常	-13.2816
高城深池嚴法重刑猶不能禁也夫寒之	-13.2816
魚以鯔為上也其魚至冬能牽被而自藏	-13.2816
一團孔大小徑寸許正底施長柄如酒杷	-13.2816
三里屯及大泉小泉引泉可田其間有民	-13.2816
上農次之工商為下本末輕重昭然可見	-13.2816
之利耳而竟開北兵窺南之路偽	-13.2816
之害旱可為蓄不致遽見枯竭之形必究	-13.2816
之計耳固非獨豐公庾不及編	-13.2816
乾以越布䝉於甑口置蠟布上置器甑中	-13.2816
乾造酒有服五加皮散而獲延年者不勝	-13.2816
二千五百零六萬五千九百八十四尺以	-13.2816
亦得淨淘宿浸漉出瀝乾蒸之令熟	-13.2816
亦與撥還如有鄉土風俗不同者更許隨	-13.2816
令蘇湖作田塍禦水民甚便之而司農丞	-13.2816
侣	-13.2816
光洵修水利以保財賦重地疏	-13.2816
入藥一云皮斑者是楮皮白者是榖	-13.2816
公私彼此横縱邇遐租賦不常豐稔惟嘉	-13.2816
其性則血氣常壯皮毛潤澤力有餘而老	-13.2816
凡有地牧民者務在四時守在倉廪	-13.2816
分之猶能愛䕶大而擡之莫能顧惜也未	-13.2816
刈早則鎌傷刈晚則穗折遇風則	-13.2816
初取出便種忌人糞如旱放水澆又不宜	-13.2816
初生嫩芽煠熟水泡去苦味可薑醋拌食	-13.2816
别入傍土中根即細也作阬子訖填糞土	-13.2816
剥看麻白不粘青即剥下長流水邊捶洗	-13.2816
勝種核核三四年乃如此大耳可得行種	-13.2816
勿種臼落葉入水變黑色令魚病	-13.2816
區行差稀多種者垡頭上漫擲勞平	-13.2816
味力愈佳其葉嫩老皆可煠食皮炒乾磨	-13.2816
唐宋以前澆燭所用白蠟皆蜜蠟也	-13.2816
嚇	-13.2816
土壅之久服輕身耐老明目下氣補中益	-13.2816
在湖州色烏而香者謂之烏香糯其稈挺	-13.2816
夏北有風必雨冬天南風三兩日必有雪	-13.2816
太湖晴上文言亢旱之年望雨如望恩纔	-13.2816
子種之填阬滿待苗著架經年已後根甚	-13.2816
字從石初本用石今竹木代者亦便又有	-13.2816
孟秋行冬令則隂氣大勝介蟲敗	-13.2816
寸處拴繫長繩兩岸拽之直立水中循水	-13.2816
尺一井之田面方一千八百尺加溝畛遂	-13.2816
年大稔乃謂終無寸利為是説者皆聴受	-13.2816
弟始入塾距冬至四十五日而出聚則行	-13.2816
待至二三尺長其桑有根用剪剪下移種	-13.2816
得天下農種之總要國家教民之先務此	-13.2816
得川不行川不得澤不止二者相為體用	-13.2816
得麻三十斤少不下二十斤目今陳蔡間	-13.2816
微尖又似兔兒尾葉而小莖葉皆有白毛	-13.2816
必以二有三善焉可以蓄水鬻時可去	-13.2816
急便寛大凡風日出之時必畧静謂之風	-13.2816
惠河守敬又言於澄清牐稍東引與北壩	-13.2816
成瘡痍難療唯火糞與燖猪毛及窖爛	-13.2816
或土或石皆如之注曰乘界俗言騎縫也	-13.2816
改當其有者半賈而賣亡者取倍稱之息	-13.2816
春種更妙後宜築圍墻固䕶或慮	-13.2816
時催督開濬工完未可便行開壩放水俱	-13.2816
時議者阻之公鋭意完具排浮議疏浚横	-13.2816
曰柰有白青赤三種張掖有白柰酒泉有	-13.2816
月而種八月而熟謂之小娘糯譬閨女然	-13.2816
有小者栽之無者取枝於㮕棗根上插之	-13.2816
有行故遫長弱不相害故遫大衡行必得	-13.2816
有赤杏有黄杏有柰杏西京雜記曰文杏	-13.2816
本使天下各食其力末技游食之民轉而	-13.2816
本草圖經曰木似柰實比柰差圓亦有甘	-13.2816
松在下弦後上弦前永無白蟻他樹亦同	-13.2816
梅上接杏杏上接梅埋楮樹收菌開溝修	-13.2816
榆錢樹本草有榆皮一名零榆生	-13.2816
榖不致損米就用拐木竅貫礱上掉軸以	-13.2816
水大者則當施瀦蓄之法水小者則當施	-13.2816
治之功指柴顧人十束雇一人無業之人	-13.2816
深水多打水線不便則于放水之後用木	-13.2816
渫焉修之則用細潤之石舂之簁之與灰	-13.2816
然即燒殺物矣切勿用大糞以其瓮腐芽	-13.2816
田之科是已帝舜聖人也萬世而下言孝	-13.2816
甲乙丙木杵也丁邊杵也戊石碪也	-13.2816
畜積未及者何也地有遺利民有餘力生	-13.2816
畤	-13.2816
白下鹽米渾豉麻油炒之甚香美	-13.2816
益以薑鹽煎飲其亦以是歟因併及之夫	-13.2816
禾稼開磚煮膠收炭造牛衣修牛馬塞北	-13.2816
租又謂之瞞官糯松江謂之冷粒糯其	-13.2816
種將桑樹柔條攀至於地以泥壓於其上	-13.2816
竹之得風而體夭屈曰笑竹死曰䈙	-13.2816
筋骨强志意葉可作蔬菜食五七月採根	-13.2816
累或云是蚯蚓相纒結變作之其葉短而	-13.2816
經日照而不消亦是來年多水之兆也	-13.2816
繰絲之訣惟在細圓匀緊使無褊慢節核	-13.2816
置斗門互為提閼以通舟止水帝覽奏喜	-13.2816
而天氣暄閉火而捲苫窗則火氣内息而	-13.2816
而毛澁葉面深青色又似芥菜葉而不花	-13.2816
背也辛壬癸子丑斗穹也辛壬癸丑方池	-13.2816
能茹草飲水不耕不食安可以不自力哉	-13.2816
自日内起者必善夜起者必毒日内息者	-13.2816
苦澁皮樹如栗或者櫧楂聲近土俗音訛	-13.2816
葉俱味苦性温無毒得茯苓冬葵子龍骨	-13.2816
著一如前法待活後唯留一莖四莖合為	-13.2816
蒯草子亦堪食如秔米又蓬草子作飯無	-13.2816
蓨	-13.2816
薏苡椒冬𤓰子芙蓉條石橘蘿蔔山藥枸	-13.2816
薥秫古無有也後世或從他方得種	-13.2816
衆川主流澤主聚川則從源頭	-13.2816
衍浸注為蕩為漾縱横分合為	-13.2816
豆三粒覆上土勿厚以掌抑之令種與土	-13.2816
躱	-13.2816
較覈木鵝者用直木一條長與河深平鐵	-13.2816
近秫故借名為秫今人但指此為秫而不	-13.2816
郁李子葉而長大稍尖葉色光滑又似白	-13.2816
酢二種甘者早熟而味脆美酢者差	-13.2816
長二寸許麄如蘿蔔角中有白穰及小匾	-13.2816
間昔之曰江曰湖曰草蕩者今皆田也夫	-13.2816
靡有遺者獨不食芋桑與水中菱芡	-13.2816
頳	-13.2816
飈	-13.2816
高壠外即深不得併上土鋤不厭頻	-13.2816
髙大春時未生葉其枝條間先生榆莢形	-13.2816
麄者更磨𢷬以細盡為限以方寸	-13.2816
黒豆角極瘦小其豆亦極細小味	-13.2816
齕有小珠滿五者生卵多滿三者為次棧	-13.2816
䔧葉却大枝葉間開紅紫花結殻如拇指	-13.2816
一保逓相保委如保内逃亡之人同保均	-13.2816
中受木柄通長尺許狀如彎爪用如爪之	-13.2816
中雜見其退白而向黄者是與純黄不相	-13.2816
久㸃時先用温水㣲漬去膏油以紙	-13.2816
之淡可灌者迎而車升之易涸則池塘以	-13.2816
之米以為軍國之計當時盡心經理使	-13.2816
人才畢集擢居重任者或未知風土之所	-13.2816
仍預於園中稀種麻麥為䕃惟十一月	-13.2816
作燒餅蒸食亦可或用子熬油㸃燈	-13.2816
侑以芳馨之薦九宫傾動藹然	-13.2816
備舉又復七里為一縱浦十里為一横塘	-13.2816
億一千七百三十六萬二千九百四十四	-13.2816
冇	-13.2816
冬過春無不肥充若不作柵假有千車茭	-13.2816
則力省而功倍今之耕者大率祖此	-13.2816
可也大抵春時及寒月必於天氣晴明	-13.2816
同食令人背悶服丹石人不可食救飢	-13.2816
呼為甘露兒形如小指而紋節甚稠皮色	-13.2816
命祀於是詣靈壇降寳殿翠障夾乎道周	-13.2816
四指栽時成行作區方圍各離一尺五寸	-13.2816
女菀藜蘆又有苗似斜蒿亦有似麥門冬	-13.2816
子食之吉利子樹一名急䕷子科荒野處	-13.2816
山湖又低於蘇州此低之又低者也彼中	-13.2816
巇	-13.2816
年以來冒佔不已今則湖盡為田矣以夏	-13.2816
年間水災頻仍皆不諳風土之同異故也	-13.2816
指皮赤黄色味甘苦性寒無毒惡貝母畏	-13.2816
掉枝一足計成二繩然後將另制𤓰木置	-13.2816
採葉傅貼腫毒金瘡拔毒苦馬豆	-13.2816
放水之河今只用前量深諸法如極深極	-13.2816
散積痰其葉及子亦能消食積解麵毒又	-13.2816
於農隙之時治農府州縣官督令田主佃	-13.2816
春首移栽地氣已動為上時芽動為中時	-13.2816
時藉其陽和如其栽子已出元土忽變天	-13.2816
曰棄棄為兒時如巨人之志其遊	-13.2816
極力挺直纔得取平無法可令加	-13.2816
榕	-13.2816
正青緑經霜則白如塗粉其中肉及子	-13.2816
河如涿州拒馬河固安渾河其水皆可用	-13.2816
油造蠟燭子中仁壓取清油然燈極明塗	-13.2816
泉余數舉以問人無應者亦激取之法也	-13.2816
法或慮遣委工役宛轉欹斜那移作弊即	-13.2816
漸漸天寒上復用紙糊留捲	-13.2816
無窮聞見之外遺佚甚多坐井自拘何為	-13.2816
無絶倘遇災年便得廣植勝於流移捃拾	-13.2816
田可蓄可洩即可田矣入水之處地勢宜	-13.2816
田者隄以固之其五湖蕩之瀦太廣而害	-13.2816
田連阡陌位位相承悉為膏腴之	-13.2816
畧同之以故作為水庫率令家有三年之	-13.2816
畿甸順春氣於東方朝先蠶於北	-13.2816
皜	-13.2816
看其下稍愈低愈妙可無淹沒之患矣北	-13.2816
矱	-13.2816
秋不得避隂雨冬不得避寒凍四時之間	-13.2816
穿網眼上食候蠶上葉齊手共提網移置	-13.2816
竹一名雞格一名救窮一名鹿竹一名萎	-13.2816
竹葉而小開小黄花根淡赤色味苦性平	-13.2816
繼以秦宗權孫儒殘暴居民不滿百户四	-13.2816
而呼烏烏應劭曰缶瓦器也今汲器用瓦	-13.2816
自生者有寄子者自生者初時不知蟲何	-13.2816
荑得麥門冬清酒良忌鐵器救飢採葉	-13.2816
莧葉頗大而尖開白花結房如囊似野西	-13.2816
莨	-13.2816
葉似菘菜故名菘藍又名馬藍爾雅所謂	-13.2816
葢諸山源水合流南出東則東山西則真	-13.2816
藤蔓長四五尺葉似馬兠鈴葉寛大	-13.2816
蠶成螘時宜極煖是時天氣尚	-13.2816
西直股幾何丈尺南北直勾幾何丈尺東	-13.2816
設有水患人力未嘗不盡遂使二三百	-13.2816
諸處可以類見槖所知者止上虞餘姚其	-13.2816
豭	-13.2816
通其幹也三曰開溝渠濬其支也四曰築	-13.2816
通則四體非復為有矣故大而江河川澤	-13.2816
遭大旱遇强敵莫我難焉又上方之水比	-13.2816
錢糧不吝浩大又使名卿重臣専董其事	-13.2816
闕蔡京不喜樓而鄭居中喜之除知隨州	-13.2816
風雨即以熱湯調泥培之暑月則必待晚	-13.2816
食河内千樹桑事之可以衣能勤此無資	-13.2816
食黄精苗俗名筆管菜一名重樓一名	-13.2816
體蒿覆一如黄衣法三日一看候黄衣上	-13.2816
髙可八九尺上下以竹通作横桄十層層	-13.2816
又法於樹旁數尺許掘坑洩其根頭則	-13.2817
榖殻及腐草敗葉漚漬其中以收滌器	-13.2817
出後有草即耘漸漸加土已後壠中	-13.2817
楂木生閩廣江右山谷間橡栗之屬也	-13.2817
漿截花以竹筒承其汁作酒飲之亦醉也	-13.2817
述又使世之繒纊其身者皆知所自出也	-13.2818
之大白其三月而種六月而熟謂之麥争	-13.2818
同只要根實不令動揺自然活齊民要術	-13.2818
稃而有芒四月而種七月而熟謂之趕陳	-13.2818
五所阬長一丈闊三尺深五尺下密布甎	-13.2818
亦如上法兩車相對約量逺近將所成䋔	-13.2818
其不言子可為油或昔人未食其利如烏	-13.2818
其子中藥材取其皮可造紙取其木可種	-13.2818
北方芟麥用釤綽腰籠一人日可收麥數	-13.2818
南中為利甚廣乃字書既無此字而偏方	-13.2818
取柔木之皮如桑槿之屬剥取皮裁令廣	-13.2818
對節莖葉毛鈎子者謂之太隂之草名曰	-13.2818
平匀厚一尺揀肥長山藥上有芒刺者	-13.2818
有榠樝大而黄可進酒去痰樝子澁斷痢	-13.2818
架霜降後比及地凍出之外將蘆頭另窨	-13.2818
此誠秘術今表暴之以諭來者	-13.2818
箔遮禦北風寒氣三兩夜之間便可作繭	-13.2818
葉如芋葉長大而澁花淡紫色實似葡	-13.2818
葉搗碎泡湯入磁盆内洗之忌用木器則	-13.2818
藏積聚者取之不詰皆所以督民	-13.2818
見或直書為茶尤非也獨本草有櫧子云	-13.2818
趕不著亦謂之秈糯其粒大而色白四月	-13.2818
速成修取為薪且不若楊柳之多蛀也宜	-13.2818
開淡紫粉花結角長五七寸其豆味甘	-13.2818
一二尺葉似靛葉色而大邊皺多有花	-13.2818
三千六百井三萬二千四百夫治澮澮達	-13.2818
今南方桑籠頗大以擔負之尤便於用	-13.2818
何丈而下一尺東西直股幾何丈而下一	-13.2818
分四釐内六十四成積五億七千六百萬	-13.2818
卯未辰午井幹也加于地平之上申	-13.2818
合一名重箱一名摩羅一名中逢花一名	-13.2818
坸	-13.2818
有銀州者為勝今鈞州宻縣山谷間亦有	-13.2818
枝條似桑條色葉似青檀葉而大邊有花	-13.2818
毛衣即生蟲入池沼隔宿化為浮萍	-13.2818
者大如拳薄地者猶如拇指葉似竹葉或	-13.2818
而一得九百一十七萬三千六百二十九	-13.2818
茹草葉一名芸蒿生𢎞農川谷及寃句	-13.2818
通流非人力所治道廣二㝷井田之制備	-13.2818
高原山田土厚水深之處多掘深	-13.2818
不可無法也考之於詩帝省其山柞棫斯	-13.2818
早實以蕃他人效之莫能如也又	-13.2818
稻又遲者謂之百日赤而毘陵小稻之種	-13.2818
人皆與千户侯等其言種植之利博矣觀	-13.2818
一步半一科栽成行列須園内穿井頻澆	-13.2818
不可妄求可速歸蔥肆爾可謂知所本矣	-13.2818
次年三月移開相去一寸一科鋤治澆	-13.2818
淮南子曰樹柤梨橘食之則美嗅之則香	-13.2818
者甚大即收食之本自構木食之不損人	-13.2818
以之入蜜作湯煎則香美過之亦可珍也	-13.2819
東坡詩云三時已斷黄梅雨萬里初來舶	-13.2819
無螟蜮今兹美禾來兹美麥是以六尺之	-13.2819
定軍禾異畝同穂汀州禾生三十六穂	-13.2819
於大甑中燥蒸之氣餾半日許復貯出更	-13.2819
供虀食凍蔥葉細而益香又宜過冬比漢	-13.2819
季播種仲夏即收者則廣南之稻地無霜	-13.2819
則子繁也旁枝尺半亦打去心者勿令	-13.2819
戌營先隴始樹女貞數百本擬作蠟近年	-13.2819
於籠中髙處敷細草令寝處其上	-13.2819
有冽氿泉無浸穫薪冽彼下泉浸彼苞稂	-13.2819
柰李離核李似柰有劈李熟必劈	-13.2819
荳麥蔬茹因以熟土壤而肥沃之以省來	-13.2819
𦵏	-13.2819
之法有五第一擇地鑿井之處山麓為上	-13.2819
乾人怕老窮秋熱損稻旱則必熱怕秋水	-13.2819
又次之山腰者居陽則太熱居隂則太寒	-13.2819
夏時鳥獸毛羽希少改易革改也	-13.2819
摻糞土蔽灰春煖榮茂次年移栽	-13.2819
曲折者是水氣所滯其下則泉也直上	-13.2819
油衣勿辟藏霖雨將降儲米	-13.2819
無斟酌避就之第二量淺深井與江河地	-13.2819
薪炭以備道路陷滯不通是月也隂陽	-13.2819
通貫其水淺深尺度必等今問鑿井應深	-13.2819
鬚根則無不盛春分後勿種松秋分後方	-13.2819
二月上壬取土泥屋四角宜蠶吉	-13.2819
和一舉而萬事畢乎用水之術不	-13.2819
垾	-13.2819
始耕事農之道見生而藝生見死而穫死	-13.2819
川原進諸父老講求水利之故凡地形	-13.2819
年皆結實若歳用此法則南北不殊猶人	-13.2819
枝河則枝河反髙水勢難以逆上而幹河	-13.2819
此則銍器斷禾聲也故曰銍艾穫器今之	-13.2819
水於川也遂廣深各二尺溝倍之洫倍溝	-13.2819
滿天謂之霞得過主晴霞不過主雨若西	-13.2819
灑新葉微濕摻末拌匀接闕飼蠶	-13.2819
稻秧晚大豆晚紅花香菜收藏豆醬烏梅	-13.2819
窗閉塞風眼使其蠶自初及終不知有	-13.2819
肥水與滲漉泔淀漚久自然腐爛一	-13.2819
花様結角如杏仁様而肥有豆如牽牛子	-13.2819
葉似石竹子葉又極細開小紫花亦有開	-13.2819
覷稀稠移補比之畦種旋移省力	-13.2819
霞耕同陸土横亘水涯内備農具傍泊魚	-13.2819
之欲其平以實也次日又擊之有罅焉以	-13.2819
之水由江隂以入江上流疏通不復湮滯	-13.2819
云用籠三扇以軟草扎圏加於釡口以籠	-13.2819
井庫之屬以灌之其四海中之洲渚多可	-13.2819
使烝民益種芋三年當大飢卒如其言	-13.2819
割兩次所易之物足供家費積而計之一	-13.2819
取出切成片子前香油炒令熟用瓶盛取	-13.2819
嘗見江東等處農家皆以兩手耘田匍匐	-13.2819
四毫一六小司徒四邑為丘丘方四里	-13.2819
坐串盆于小臺上其盆要比	-13.2819
外羔犢得乳力强徤能噉水草然後取乳	-13.2819
官員士人有行義者與本縣官同其出納	-13.2819
小有水旱反為荒土常賦所損可勝計哉	-13.2819
愛敬陂陽平沛郡有鉗廬陂餘難徧舉	-13.2819
扇坐於其上籠内匀鋪繭厚三指許	-13.2819
方用蒼术一斤好白芝蔴香油半斤右件	-13.2819
日空心服一撮用冷水湯嚥下大能	-13.2819
欲撻者須待白背濕撻令地堅硬也又用	-13.2819
此耘苗之苦也今覩此器惜不預傳以濟	-13.2819
海之濱平原易野土疏善壊必以甃牆處	-13.2819
海而底定之功垂之百代逮至有宋則因	-13.2819
甃牆也庚辛石墊也本篇二圖之甲乙即	-13.2819
甎木時人為之感服船既通行公私省便	-13.2819
矣又曰為治之本務在安民安民之本在	-13.2819
築之法如開溝洫不論舊時疏通與否其	-13.2819
絲絡一軖巧憑坐椅作軖床試	-13.2819
臣工詩曰庤乃錢鎛注錢銚也	-13.2819
至耘苗則曰暑日流金田水若沸耘耔是	-13.2819
蠊	-13.2819
觸類深思索麻苧鄉中用亦良木	-13.2819
過淮他若蘭茉莉之類亦千百中之一二	-13.2819
鋟	-13.2819
開常州之百瀆洩荆溪之水自西北入	-13.2819
飢終歲不製衣則寒夫腹飢不得食	-13.2819
㧊	-13.2819
㫪	-13.2819
一定不易此則必無之理立論若斯固	-13.2819
三斤一疋其布柔韌潔白比之常布又價	-13.2819
不均則必跨據津要高築堤埧匯水前	-13.2819
中間軟嫩皮剉碎晒乾炒焙極乾搗磨為	-13.2819
之際或作或止忽有雨作橋則必有掛	-13.2819
事任載所先葢南北道路之不同故水陸	-13.2819
亦可食噉漁陽遼代上黨皆饒	-13.2819
亦異然淮漢之間俱可兼用凡務農之家	-13.2819
人力又有就磨輪軸作機擊羅亦為捷巧	-13.2819
但栽植有成便自宿根可謂暫勞永利矣	-13.2819
佗	-13.2819
俱易惟獨深數易殽如留取様墩即可培	-13.2819
兀	-13.2819
凋枯以猪糞壅之即茂或云以猪溺灌之	-13.2819
凡欲置此磨必當選擇用水地所先儘並	-13.2819
制相類圓而稍長淺而有縁適可居蠶蟻	-13.2819
則開閘以放之滔滔不絶勢若建瓴直趨	-13.2819
即爛比鑊炒及舂碾省力數倍南北農家	-13.2819
吉平者凶春多主旱毛頭霜主明日風雨	-13.2819
壅苧蔴耘麥地收猪種泥飾牛馬屋壓桑	-13.2819
太行山車箱衝山野中苗莖似家菉豆莖	-13.2819
孟子曰斧斤以時入山林材木不可勝用	-13.2819
室尤不可無其動止之用理存覆載故共	-13.2819
尤好後稍易喫遂不復飢冬不寒夏不熱	-13.2819
尺許則鋒大雨無所作宜冒雨薅之	-13.2819
州刺史劉仁之昔在洛陽於宅田以七十	-13.2819
年重修嘉澤廟有濯靈之異茭葑不泛荷	-13.2819
廏	-13.2819
得種糧勝於全廢今特載之冀南北通用	-13.2819
徧弗損之益其益無方誠救荒之良策矣	-13.2819
憇	-13.2819
所出總之三十六源當其未有湖之時水	-13.2819
打一軸可供數排宛若水碓之制亦甚便	-13.2819
抽牽引無有斷絶此即紡車之用也	-13.2819
接且立牐麗正門西令舟楫	-13.2819
攪杷畜力輓行循槽轉碾日	-13.2819
故老以為二三十年以前民間足食無事	-13.2819
教民糞種負水澆稼諸山陵傾阪及	-13.2819
斗門甃石為壁疊木作障以備	-13.2819
斫桑芒種後壬日入梅梅日種草無不	-13.2819
斯兌周之所以受命也樹之榛栗椅	-13.2819
於上以盆碗合之候芽漸出則種春正	-13.2819
是有賣田宅鬻子孫以償債者矣	-13.2819
有線楞其葉三角似剪刀形葉中攛生莖	-13.2819
朝謂之孤霜主來年歉連得兩朝以上主	-13.2819
梨曰攅之鄭公不識樝乃云是梨之不臧	-13.2819
殻中仁皮色如榧瓤肉亦如栗味甚苦而	-13.2819
河工完後考驗課程果否如法河面河底	-13.2819
治河以治田為本其説多可採行臣嘗詢	-13.2819
注曰陽溝巨鶤古之雞名廣志曰雞有胡	-13.2819
海此吳中形勢之大都亦諸方言水利之	-13.2819
清油十斤白蠟不過一二錢其燭則淋又	-13.2819
溝畛遂徑面方三千六百四十尺自之得	-13.2819
濬畎澮距川今濬鏵即此濬也周禮匠人	-13.2819
濶加溝畛兩長加遂徑計之長一千八百	-13.2819
無皮耳穬麥此是今馬食者然則大穬二	-13.2819
甘蕉草類望之如樹株大者一圍	-13.2819
百文已過常麻數倍善績者麻皮一斤得	-13.2819
礧榖器所以去榖殻也淮人謂之礱	-13.2819
種不求多唯須良地故墟新糞壞	-13.2819
窟穴其間者倡為成功之説忍而不能去	-13.2819
笠風急雲起愈急必雨諺云東北風雨	-13.2819
箒生荒野中就地叢生一本二三十莖苗	-13.2819
粘魚鬚一名龍鬚菜生鄭州賈峪	-13.2819
糞墼絶烟置屋中四隅和氣自然	-13.2819
紅色其葉狀似栁葉而極細小又似地梢	-13.2819
經飛蝗住落處令佐應差募人取掘	-13.2819
者百合也葉長而狹尖如栁葉紅花不	-13.2819
而取不盡因致次年生發者杖一百諸蝗	-13.2819
而天氣寒閉苫窗撥火則外寒不	-13.2819
而灌溉之救水荒之法莫如櫃田櫃田者	-13.2819
而細長又似細葉胡枝子葉亦短小	-13.2819
至而逆之既往而慕之當其時而薄之此	-13.2819
舉撲除者各杖一百許人告報當職官承	-13.2819
芒如馬鬃而色赤者謂之赤馬鬃糯其粒	-13.2819
若干度令知寒暖之宜以辨土物以興樹	-13.2819
萬九千七百八十二尺共三百零八	-13.2819
萬里而遥四海之廣舉在目前如指掌上	-13.2819
蝝	-13.2819
行夏令則水潦敗國時雪不降氷凍消釋	-13.2819
覽者當互相叅攷以盡水利之用云濬鏵	-13.2819
説文曰芋大葉實根駭人者故謂之芋	-13.2819
諺云風急雨落人急客作又云東風急被	-13.2819
趨子其丑子辛子皆圓線餘三同之而結	-13.2819
遏渾潮而節宣之此江南舊法宋元人治	-13.2819
閩廣人多用此油燃燈甚明勝于諸油亦	-13.2819
雲生陣起或自東引而西自西而東所謂	-13.2819
食香美曝乾則為乾香蕈今深山窮谷	-13.2819
㭒	-13.2819
一月見三白田翁笑嚇嚇又主殺蝗子	-13.2819
一灣欲其不泛濫而壅塞勢不能也今誠	-13.2819
三分一指可揜也揜其上孔而入之水至	-13.2819
三尺其葉對節生葉似旋覆葉而極長大	-13.2819
三百日後盡見鬼神餌必升天又云花實	-13.2819
下竿二法其轆轤方空或加三或加五以	-13.2819
下老岸至河中心水底今深幾何丈尺算	-13.2819
不可多食動風氣熏人心令人氣滿	-13.2819
中盤而為之孔孔之徑稍强于筩	-13.2819
于夏至後時發泓波地勢宜平坦廣	-13.2819
五十年者如拳大號山奴服之一年髭	-13.2819
亦恐中途節水作弊有用輪車推驗者河	-13.2819
人皆無糧沛謁見乃進乾椹太祖甚	-13.2819
倍授之寛鄉三易者不倍授工商者寛鄉	-13.2819
兩脚耜也耒耜二物而一事猶杵臼也犂	-13.2819
其利而欲私之復進狀請廢湖朝下其事	-13.2819
刼	-13.2819
則易為工力收之則不妨農時晚熟故也	-13.2819
又似前胡葉亦細莖葉間開五瓣小銀褐	-13.2819
可不留意也一自江隂之江開始以通魚	-13.2819
可以足其人者為寛鄉少者為狹鄉狹鄉	-13.2819
可折夏木可結時難得而易失木方盛	-13.2819
可掩也既是澱山最低之湖經理尚可以	-13.2819
土茜苗本草根名茜根一名地血一名茹	-13.2819
太行山山谷間樹甚髙大其木細膩可為	-13.2819
子味甘性平患氣人食之動冷疾不可與	-13.2819
定河間等處地方桑麻之區半為沮洳之	-13.2819
宜晩者五六月亦得然稍晩稍加種子	-13.2819
害而水害之未除者正以水利之未修也	-13.2819
將繭乃方尺四織萑葦範以蒼	-13.2819
少宜省剶農桑要㫖云平原淤壤土地肥	-13.2819
嶮	-13.2819
年主冬暖諺云兩春夾一冬無被暖烘烘	-13.2819
懸筐中間九寸凡槌十懸以居食蠶今呼	-13.2819
户口率皆歸復桑麻蔚然野無曠土全義	-13.2819
所致無他故也人家八月収穫之始多無	-13.2819
採桑城南頭青絲為籠䋲桂枝為籠	-13.2819
斫之利勝惟在夫善用斧之效也	-13.2819
方圍相去一尺五寸將畦中科苗移出栽	-13.2819
時也禹貢曰二百里納銍三百里納秸服	-13.2819
時湖之為田者纔十二三佃户止於髙仰	-13.2819
木為耜揉木為耒耒耨之用以教萬人始	-13.2819
榆根皮作麵可和香劑嫩葉煠浸淘	-13.2819
水地濕分根連土於側近地内分栽亦可	-13.2819
[...]
