<unk>	0
<s>	0
</s>	0
,	-2.46491
。	-2.67436
、	-3.98821
者	-4.64375
故	-4.88076
!	-4.91396
:「	-5.15411
也	-5.32503
為	-5.34948
?	-5.36708
於	-5.4261
無	-5.45056
以	-5.48534
不	-5.50866
是	-5.51858
。」	-5.52867
法	-5.58089
;	-5.61246
菩薩	-5.63815
有	-5.63832
之	-5.65561
中	-5.67709
心	-5.68317
若	-5.72387
如是	-5.73249
行	-5.75154
言	-5.75732
如來	-5.77899
彼	-5.81232
佛	-5.81544
此	-5.83118
如	-5.88558
而	-5.92043
非	-5.94026
得	-5.97527
生	-5.97532
二	-5.98192
等	-6.00024
名	-6.03248
即	-6.03615
及	-6.04894
其	-6.05036
時	-6.05385
已	-6.07581
一	-6.10575
身	-6.11358
諸	-6.11453
說	-6.14171
見	-6.1466
相	-6.15167
人	-6.15735
眾生	-6.16145
一切	-6.17477
我	-6.18086
世尊	-6.2103
三	-6.27641
明	-6.29473
下	-6.31701
所	-6.34015
皆	-6.34686
觀	-6.38045
大	-6.41504
。「	-6.43124
▁	-6.44353
智	-6.45518
至	-6.48628
從	-6.49417
又	-6.49695
處	-6.50455
住	-6.51361
謂	-6.51492
當	-6.53445
?」	-6.55163
自	-6.56238
因	-6.56534
作	-6.56886
爾時	-6.57794
四	-6.58632
亦	-6.59477
能	-6.6002
清淨	-6.6113
常	-6.61514
起	-6.63443
欲	-6.63783
受	-6.63803
善	-6.63817
應	-6.63911
上	-6.65849
:『	-6.69437
知	-6.69452
眾	-6.73113
與	-6.732
意	-6.7417
今	-6.74915
義	-6.74938
想	-6.75113
則	-6.75687
入	-6.75927
願	-6.76819
經	-6.78847
令	-6.79231
道	-6.79881
)	-6.80021
(	-6.81176
多	-6.81371
事	-6.81407
或	-6.81607
前	-6.81637
無有	-6.81745
初	-6.83232
依	-6.84339
樂	-6.84542
王	-6.84786
在	-6.85702
無量	-6.86336
修	-6.87441
曰	-6.87473
聞	-6.88631
由	-6.89138
復	-6.89778
:	-6.90341
色	-6.9038
云何	-6.9099
念	-6.91071
舍利子	-6.91698
勝	-6.92184
出	-6.92198
離	-6.92572
空	-6.92934
求	-6.96209
問	-6.96468
果	-6.97503
乃至	-6.97508
世間	-6.97607
地	-6.98069
。』	-6.98135
淨	-6.9823
成	-6.98683
云	-7.00039
後	-7.0047
業	-7.005
成就	-7.01411
滅	-7.02211
現	-7.02691
是故	-7.0305
名為	-7.05071
解	-7.05631
何以故	-7.05751
捨	-7.0769
五	-7.08373
具	-7.0869
苦	-7.10479
過	-7.11763
識	-7.12304
天	-7.13765
隨	-7.1464
悉	-7.14697
盡	-7.14919
持	-7.1553
施	-7.15682
性	-7.16469
教	-7.17713
聲	-7.18069
戒	-7.18479
天子	-7.18925
正	-7.20201
功德	-7.20392
雖	-7.21275
光	-7.21556
汝	-7.21894
解脫	-7.2242
迦葉	-7.22985
供養	-7.23577
惡	-7.24755
信	-7.25275
化	-7.2552
佛言	-7.262
同	-7.26335
本	-7.26395
語	-7.26459
證	-7.26599
來	-7.26737
具足	-7.27522
耶	-7.27925
》	-7.2915
力	-7.30407
菩薩摩訶薩	-7.30586
智慧	-7.31038
取	-7.3116
緣	-7.31188
慧	-7.31418
定	-7.31785
種種	-7.32174
莊嚴	-7.32545
發	-7.32625
別	-7.34027
實	-7.35111
然	-7.36059
斷	-7.3669
文殊師利	-7.37291
菩提	-7.37724
可	-7.38129
寶	-7.38369
不能	-7.38757
分別	-7.39048
平等	-7.39495
煩惱	-7.39623
門	-7.39729
釋	-7.39828
光明	-7.39829
是名	-7.40102
方便	-7.40129
用	-7.40931
便	-7.41165
但	-7.41768
諸法	-7.43546
理	-7.43569
難	-7.44141
體	-7.44409
德	-7.44659
諸佛	-7.44884
顯	-7.45699
分	-7.45718
異	-7.45975
既	-7.46533
通	-7.46747
即是	-7.47824
廣	-7.48036
餘	-7.48498
第二	-7.48586
所謂	-7.49111
亦無	-7.49822
聲聞	-7.49941
二者	-7.50043
大乘	-7.50357
唯	-7.50661
他	-7.50952
先	-7.51775
一者	-7.51799
涅槃	-7.52377
乃	-7.52792
除	-7.53473
答	-7.53561
眼	-7.53704
妙	-7.54055
覺	-7.54271
未	-7.55084
生死	-7.55251
善男子	-7.55647
所有	-7.55664
譬如	-7.55832
精進	-7.55948
藏	-7.57157
重	-7.5723
舉	-7.5737
對	-7.57491
世	-7.57577
食	-7.5776
報	-7.58817
正法	-7.5924
六	-7.59518
大王	-7.60453
次	-7.61017
舍利弗	-7.61074
水	-7.61603
界	-7.61904
華	-7.62213
修行	-7.62686
復次	-7.63407
不可	-7.63809
論	-7.65343
阿難	-7.65498
攝	-7.65964
何	-7.66149
深	-7.66298
不生	-7.66706
第一	-7.66863
故云	-7.6714
俱	-7.6731
共	-7.67338
不得	-7.67865
去	-7.67909
《	-7.68067
比丘	-7.68341
無所	-7.68391
法身	-7.68476
若有	-7.69299
於彼	-7.69383
七	-7.69444
外	-7.69849
亦不	-7.70081
根	-7.70159
斯	-7.70368
一切眾生	-7.70369
乘	-7.70857
轉	-7.71271
各	-7.71881
子	-7.71911
愛	-7.73554
數	-7.73648
就	-7.73988
究竟	-7.74106
遍	-7.74301
極	-7.74396
學	-7.7465
文	-7.74802
物	-7.75057
自然	-7.75066
出家	-7.75862
三者	-7.76178
猶如	-7.76207
遠離	-7.76218
因緣	-7.76497
內	-7.77268
八	-7.78136
著	-7.78205
樹	-7.78374
說法	-7.78392
利	-7.78438
相應	-7.78574
之所	-7.78622
使	-7.78953
往	-7.79221
稱	-7.7954
還	-7.79957
合	-7.81119
少	-7.81449
於此	-7.81691
善根	-7.81841
我今	-7.81896
諸天	-7.82214
境	-7.83004
貪	-7.83055
向	-7.83059
真	-7.83267
坐	-7.83321
示	-7.83464
三昧	-7.83556
寂靜	-7.83794
十	-7.84577
聖	-7.84732
】	-7.84735
照	-7.85306
境界	-7.85372
喻	-7.8541
尊	-7.8561
攝受	-7.86152
趣	-7.86355
耳	-7.8654
立	-7.86582
安住	-7.86902
方	-7.871
真實	-7.87849
引	-7.88236
二乘	-7.89463
家	-7.90362
香	-7.90559
小	-7.90775
結	-7.91058
忍	-7.9119
請	-7.91222
種	-7.91307
句	-7.91628
答曰	-7.91811
歎	-7.92368
第三	-7.92837
度	-7.93093
十方	-7.93178
女	-7.93368
疏	-7.93412
淨土	-7.93443
是為	-7.93664
會	-7.93865
無邊	-7.94678
白佛言	-7.95068
觀察	-7.95233
當知	-7.953
邪	-7.95641
四者	-7.96158
好	-7.96436
之法	-7.96796
土	-7.97413
一一	-7.97534
廣大	-7.97601
自在	-7.97774
歡喜	-7.98022
花	-7.98236
法界	-7.99118
師	-7.993
國	-7.99448
所說	-7.9971
安	-7.99764
普	-8.00332
滿	-8.00445
死	-8.01096
位	-8.01136
歸	-8.0123
一切法	-8.01433
劫	-8.01643
亦復如是	-8.01808
命	-8.01825
獲	-8.02937
所以者何	-8.03064
必	-8.0318
金	-8.03246
無明	-8.03317
故名	-8.03733
復有	-8.04213
皆悉	-8.04957
不見	-8.05066
布施	-8.05963
不知	-8.06002
虛空	-8.06029
失	-8.06345
無相	-8.07224
觸	-8.0784
諸菩薩	-8.0795
決定	-8.07954
壞	-8.0819
日	-8.08544
所以	-8.08763
將	-8.09032
喜	-8.09202
流	-8.09451
以為	-8.09724
集	-8.09852
執	-8.10899
有情	-8.11009
了知	-8.1154
火	-8.11631
名曰	-8.12521
而不	-8.12527
更	-8.12718
諦	-8.12851
障	-8.12997
口	-8.13118
開	-8.13721
神通	-8.14067
音	-8.14141
勝鬘	-8.1422
佛法	-8.14335
示現	-8.14355
疑	-8.14411
何故	-8.15322
高	-8.15472
於是	-8.15586
眷屬	-8.15597
記	-8.15724
世界	-8.15788
護	-8.15798
最勝	-8.16031
持戒	-8.16127
沙門	-8.16249
阿羅漢	-8.1637
勸	-8.16694
辨	-8.1672
惑	-8.17111
經曰	-8.17586
遠	-8.179
有二	-8.17946
思惟	-8.18043
我等	-8.18219
福	-8.19106
了	-8.19124
又復	-8.19168
散	-8.1922
長者	-8.19642
告	-8.20163
足	-8.20349
罪	-8.20464
須	-8.21743
益	-8.22755
不同	-8.23259
父母	-8.23566
增長	-8.23689
最上	-8.23762
三界	-8.23772
修習	-8.23805
破	-8.24064
圓滿	-8.24137
羅	-8.24332
凡夫	-8.24332
長	-8.24723
被	-8.24872
慈	-8.25022
類	-8.25176
終	-8.25551
大悲	-8.25746
不可思議	-8.2618
彌勒	-8.2639
財	-8.26494
無生	-8.26836
魔	-8.26932
一切諸法	-8.27036
利益	-8.27308
無上	-8.27992
。」「	-8.28146
未來	-8.28233
隨順	-8.28449
如是等	-8.28458
諸眾生	-8.28633
不應	-8.28841
所作	-8.28863
故言	-8.28988
病	-8.28998
此是	-8.30243
風	-8.30354
智者	-8.30524
癡	-8.30587
動	-8.30666
順	-8.30682
居	-8.30792
無常	-8.30877
習	-8.30973
染	-8.31389
阿	-8.31462
達	-8.31659
奉	-8.32063
略	-8.32073
無我	-8.32099
要	-8.32436
山	-8.32494
造	-8.32644
應知	-8.3273
味	-8.32759
乎	-8.32767
於諸	-8.32791
總	-8.33142
復次舍利子	-8.33167
此經	-8.33194
攝受正法	-8.33241
第四	-8.33379
現在	-8.33463
恒	-8.33668
止	-8.33744
不思議	-8.34313
白	-8.34465
音聲	-8.34623
衣	-8.34764
興	-8.35113
述曰	-8.35822
僧	-8.35893
始	-8.36339
形	-8.36432
聽	-8.3653
和合	-8.36613
微妙	-8.36641
比	-8.36694
思	-8.3682
致	-8.37712
禮	-8.37872
女人	-8.3836
九	-8.38534
猶	-8.39142
反	-8.39265
之中	-8.39396
聚	-8.3963
速	-8.39638
無作	-8.40192
百千	-8.40284
應當	-8.40333
量	-8.40545
彼佛	-8.40567
佛說	-8.40816
甚深	-8.41093
之人	-8.41232
愚癡	-8.41292
志	-8.41296
親近	-8.4138
獨	-8.41575
畢竟	-8.41625
際	-8.41767
親	-8.4195
讚	-8.42196
號	-8.42423
設	-8.42642
墮	-8.42661
地獄	-8.4267
昔	-8.42874
不可得	-8.43363
所行	-8.4348
我當	-8.43835
發起	-8.43931
爾時世尊	-8.44353
無畏	-8.44791
汝等	-8.44942
善巧	-8.4511
邊	-8.45542
。【	-8.45578
母	-8.45667
問曰	-8.45943
那	-8.46063
堅固	-8.46136
法門	-8.46256
過去	-8.46393
月	-8.46646
兩	-8.471
主	-8.47148
瞋	-8.47493
發心	-8.47636
正明	-8.47718
其心	-8.47742
不為	-8.47756
城	-8.47816
諸根	-8.47964
如實	-8.48112
無為	-8.48266
太子	-8.48682
圓	-8.48722
到	-8.48807
壽	-8.4881
以此	-8.4931
千	-8.49365
無礙	-8.49464
品	-8.49841
感	-8.4987
調伏	-8.49983
約	-8.50233
受持	-8.50238
瞋恚	-8.50432
悉皆	-8.50592
往生	-8.50674
像	-8.50825
計	-8.50977
大眾	-8.51055
增	-8.51137
竟	-8.51219
佛告	-8.51288
加	-8.51534
己	-8.51975
寂滅	-8.52094
外道	-8.52273
佛剎	-8.52579
治	-8.52608
之心	-8.52679
神	-8.52929
近	-8.53113
目	-8.53287
文殊師利言	-8.53475
飲食	-8.53486
四種	-8.53645
雨	-8.53684
直	-8.53751
一心	-8.53842
以下	-8.54165
常住	-8.54439
二合	-8.54498
」	-8.54507
自性	-8.54691
藥	-8.54791
覆	-8.54836
恭敬	-8.55045
敬	-8.55093
是人	-8.55177
次第	-8.55224
無異	-8.55266
悟	-8.55475
宣	-8.55503
亦如是	-8.55646
不捨	-8.55704
害	-8.55878
辯才	-8.55886
安樂	-8.56001
及以	-8.56148
一乘	-8.56157
者即	-8.56337
甚	-8.56449
差別	-8.56518
何等	-8.56562
爾	-8.56624
禪	-8.56696
?』	-8.56749
小乘	-8.56913
莫	-8.57176
而為	-8.57667
真如	-8.58181
國土	-8.58194
雜	-8.58212
指	-8.58302
宣說	-8.58929
不淨	-8.59087
善法	-8.59187
龍	-8.5927
緣覺	-8.59272
建立	-8.59531
迴向	-8.59635
演說	-8.59657
歸依	-8.60316
不起	-8.60372
無盡	-8.60485
并	-8.60543
亦非	-8.60977
出生	-8.61157
而能	-8.61175
海	-8.61762
勿	-8.61771
波羅蜜	-8.61891
慢	-8.62118
行者	-8.62758
天人	-8.62847
顛倒	-8.63051
人天	-8.63192
果報	-8.63348
出離	-8.63584
縛	-8.63783
壽命	-8.63824
弟子	-8.63927
法性	-8.63984
法中	-8.64036
及諸	-8.64342
諸菩薩摩訶薩	-8.64562
百	-8.64819
童子	-8.64857
二種	-8.64964
故名為	-8.64986
不退	-8.6499
多聞	-8.65108
所生	-8.6514
或有	-8.65181
咸	-8.65305
妄	-8.65358
假	-8.65398
辯	-8.65782
成佛	-8.66246
不動	-8.66562
覩	-8.6678
禪定	-8.66814
此法	-8.66863
皆是	-8.67003
人民	-8.67157
三種	-8.67577
字	-8.67768
輕	-8.68198
宜	-8.68307
章	-8.68687
授	-8.68793
情	-8.68882
面	-8.6892
見佛	-8.69017
懷	-8.69174
於中	-8.69227
七日	-8.69382
而生	-8.69723
蓋	-8.69803
答言	-8.69992
是時	-8.70358
殊勝	-8.70413
易	-8.70637
棄	-8.70722
標	-8.71038
沒	-8.71046
手	-8.71265
善哉	-8.71364
經云	-8.71691
金剛	-8.71751
愛樂	-8.71958
已來	-8.71974
譬	-8.7232
捨離	-8.72547
如來藏	-8.72853
七寶	-8.72877
息	-8.72901
久	-8.73194
彰	-8.73228
不住	-8.73362
蓮華	-8.73391
惱	-8.73576
假使	-8.73819
毒	-8.73956
佛土	-8.74029
宮	-8.74258
且	-8.74318
凡	-8.74323
如此	-8.74365
座	-8.74517
不著	-8.75311
微	-8.75365
所得	-8.75417
偈	-8.75538
已下	-8.75683
三千大千世界	-8.75854
終不	-8.75932
彼人	-8.76036
況	-8.76659
宗	-8.76701
離諸	-8.76708
住於	-8.7673
忍辱	-8.76767
獲得	-8.76797
「	-8.76908
亦復	-8.76911
頭	-8.77047
遊	-8.77305
發菩提心	-8.77901
有餘	-8.78058
詣	-8.78239
當得	-8.78244
彌陀	-8.78255
此云	-8.78395
成熟	-8.7867
能生	-8.78815
各各	-8.78906
迷	-8.79167
尚	-8.79196
則無	-8.79476
而說偈言	-8.79505
殺	-8.79737
五者	-8.79779
心不	-8.79833
勇猛	-8.80074
安隱	-8.80263
摩	-8.80403
名字	-8.80428
若見	-8.80522
讚歎	-8.80547
不信	-8.80595
信解	-8.80666
陰	-8.80675
中有	-8.80698
何等為四	-8.80929
一切智	-8.80932
無數	-8.80981
為說	-8.81128
吾	-8.81357
進	-8.81375
退	-8.8155
應供	-8.81571
尊者	-8.81684
和	-8.81698
絕	-8.81729
垢	-8.81741
誰	-8.81799
變	-8.81945
若不	-8.81975
之相	-8.82352
若人	-8.82463
。】「	-8.82469
何況	-8.82477
之事	-8.82594
嚴	-8.82943
若無	-8.8295
開示	-8.83051
聞法	-8.83092
寂	-8.83126
為欲	-8.83237
未曾	-8.83292
於佛	-8.83309
。」【【	-8.83568
迦	-8.83636
尋	-8.83641
憂	-8.8384
因果	-8.84003
宮殿	-8.84113
備	-8.84424
無漏	-8.8443
密	-8.84458
塵	-8.84474
不以	-8.84724
在家	-8.84924
第五	-8.85023
父	-8.85096
所言	-8.85106
般若	-8.85236
宿	-8.85262
。《	-8.85269
遇	-8.85334
適	-8.85349
堅	-8.85375
目連	-8.85447
說偈讚	-8.85573
對治	-8.8577
年	-8.8589
言說	-8.86011
輪	-8.86086
不退轉	-8.86462
陀	-8.86577
今此	-8.86702
葉	-8.86717
有三	-8.86851
積	-8.86898
之行	-8.86995
阿彌陀佛	-8.87047
汝今	-8.87124
仁	-8.87246
通達	-8.87391
積集	-8.87436
豈	-8.87465
諸比丘	-8.87901
慈心	-8.87962
現前	-8.88025
不離	-8.88075
善逝	-8.88167
末	-8.88458
脫	-8.88459
器	-8.88473
以偈讚	-8.88517
稱讚	-8.88517
傳	-8.88542
三乘	-8.88551
三摩地	-8.88561
屬	-8.88565
十六	-8.88681
正念	-8.88843
間	-8.8885
夫	-8.88996
亂	-8.89001
依止	-8.89248
諸有	-8.89385
導師	-8.8945
機	-8.89539
逮	-8.89627
超	-8.89826
巳	-8.89862
大士	-8.8997
授記	-8.89995
威儀	-8.90185
鈔	-8.90249
能知	-8.90379
於法	-8.90423
虛	-8.90744
聞已	-8.90839
雲	-8.90863
供	-8.9115
法故	-8.91157
大寶積經	-8.91236
根本	-8.91358
舍	-8.91403
出世	-8.91423
無分別	-8.91475
何者	-8.91544
又舍利子	-8.91584
漸	-8.91806
棄捨	-8.9182
能令	-8.92118
畏	-8.92124
念佛	-8.92147
寧	-8.92253
馬	-8.92349
簡	-8.92404
是菩薩	-8.92582
十二	-8.92608
蘊	-8.9262
梵	-8.92643
一切諸	-8.92668
伏	-8.92729
帝釋	-8.92975
一時	-8.93175
語言	-8.9319
難陀	-8.93217
于	-8.93478
永	-8.93485
訖	-8.93621
作佛	-8.93699
貪欲	-8.93782
無垢	-8.93812
無量無邊	-8.9383
矣	-8.94448
列	-8.94603
白言	-8.9463
萬	-8.94711
菩提心	-8.94735
此明	-8.94741
苦惱	-8.94789
又問	-8.94793
患	-8.94807
破壞	-8.94818
夜	-8.94951
波	-8.94955
池	-8.95029
疾	-8.95361
無明住地	-8.95382
最	-8.95438
不也	-8.95442
怨	-8.95607
五百	-8.95749
大地	-8.95898
而得	-8.95946
是其	-8.96251
滿足	-8.96305
他人	-8.96306
三世	-8.9658
網	-8.96601
此人	-8.96691
不善	-8.96748
序	-8.968
置	-8.96802
不取	-8.96898
怖畏	-8.96933
此二	-8.96959
正行	-8.96986
懈怠	-8.97284
希有	-8.97966
悲	-8.98093
燒	-8.98202
有為	-8.98507
二十	-8.98523
不作	-8.98633
非是	-8.98747
西方	-8.98751
路	-8.98796
首	-8.98896
以是	-8.9902
愚	-8.99132
鼻	-8.99309
犯	-8.99332
相續	-8.99334
得聞	-8.9952
不樂	-8.99524
大海	-8.99576
而無	-8.99665
梵行	-8.99728
違	-8.99731
亦然	-9.00138
穢	-9.00321
美	-9.00418
之義	-9.0048
虛妄	-9.00484
:「『	-9.00632
不斷	-9.00692
書	-9.00865
六者	-9.00904
之處	-9.00905
若能	-9.01064
厭	-9.01138
。「『	-9.01193
悔	-9.01199
亦名	-9.01342
於其	-9.01352
四諦	-9.01378
可得	-9.01467
是中	-9.01813
其身	-9.0185
表	-9.019
苾芻	-9.01985
福德	-9.02436
有所	-9.02462
並	-9.02616
佛告阿難	-9.02844
怖	-9.02916
垂	-9.02923
時彼	-9.03027
偏	-9.03123
演	-9.03249
命終	-9.03454
底	-9.03539
初地	-9.03561
幢	-9.03637
畜生	-9.03822
尊重	-9.0397
夫人	-9.04127
諸行	-9.0422
據	-9.04243
變易	-9.04464
服	-9.04519
遂	-9.0453
.	-9.04675
色相	-9.04739
勤修	-9.0483
有二種	-9.04888
舌	-9.04958
教化	-9.04988
不求	-9.05058
於我	-9.05086
邪見	-9.05169
正等覺	-9.05441
由是	-9.05595
毀	-9.05599
嘆	-9.05976
其人	-9.06033
之時	-9.06175
諸佛如來	-9.06321
此等	-9.06328
即得	-9.06343
望	-9.06351
執著	-9.06461
麁	-9.06578
皆得	-9.06658
非法	-9.06927
無能	-9.06986
於一切法	-9.07057
婆羅門	-9.07081
憶念	-9.07156
摩訶	-9.07166
欲令	-9.07177
攝取	-9.07327
有一	-9.07332
得生	-9.07424
大德	-9.07595
七者	-9.07645
不異	-9.07701
車	-9.07705
熱	-9.0776
殊	-9.07822
威德	-9.07831
專	-9.07997
有四	-9.0803
聽聞	-9.08185
一切世間	-9.08414
諸惡	-9.08422
善知識	-9.08454
力故	-9.08518
雙	-9.08548
鉢	-9.08557
修學	-9.08848
此中	-9.09022
無所著	-9.09027
蓮花	-9.09149
丈夫	-9.09445
曾	-9.09469
不與	-9.09542
所成	-9.09618
欲界	-9.09706
囉	-9.09801
二明	-9.09864
都	-9.09905
劣	-9.10179
勤	-9.10293
似	-9.10383
放	-9.10464
大小	-9.10646
無不	-9.10958
釋迦	-9.11087
隱	-9.112
佛身	-9.11252
何所	-9.11449
恐	-9.11533
放逸	-9.11621
佛所	-9.11801
發願	-9.11863
若於	-9.11956
障礙	-9.12063
強	-9.12118
名之為	-9.12213
生於	-9.1239
深心	-9.12413
俗	-9.12604
師子	-9.12655
於意云何	-9.12955
梵天	-9.12966
衣服	-9.13003
陀羅尼	-9.13033
種子	-9.13048
精	-9.13155
細	-9.13408
而有	-9.13433
純	-9.13439
亦有	-9.13636
窮	-9.13717
熟	-9.14091
八者	-9.1423
初明	-9.14285
誓	-9.14454
夜叉	-9.14481
我於	-9.14489
無餘	-9.14565
智力	-9.14652
眾會	-9.14754
身心	-9.14754
柔軟	-9.14838
善能	-9.14903
則為	-9.15217
布	-9.15271
慈悲	-9.15505
入於	-9.1561
然後	-9.15704
又如	-9.16191
眾寶	-9.16313
若有眾生	-9.16316
尸羅	-9.16379
大藥	-9.16499
佛國	-9.16694
增上	-9.16772
林	-9.1682
亦如	-9.16919
無量壽佛	-9.17052
說此	-9.17056
恒沙	-9.1708
如虛空	-9.17103
故曰	-9.17303
為彼	-9.17345
天眼	-9.17425
人中	-9.17465
邊際	-9.1747
我見	-9.17519
云何為	-9.17531
作如是言	-9.17598
心無	-9.17771
阿耨多羅三藐三菩提	-9.17778
疑惑	-9.17814
降	-9.17844
即便	-9.17948
羅漢	-9.18079
無邊莊嚴	-9.18144
導	-9.18275
無有是處	-9.18279
所見	-9.1837
文殊	-9.18547
相好	-9.18565
有人	-9.18693
亦爾	-9.18749
銀	-9.18759
助	-9.18777
伽	-9.19085
無極	-9.19186
生滅	-9.19187
三寶	-9.19245
救	-9.19376
盛	-9.19416
拘	-9.19433
一切皆	-9.19472
於一切	-9.1948
族姓子	-9.198
幻	-9.19819
無所得	-9.19883
一念	-9.19933
正見	-9.19935
奉行	-9.2001
無所有	-9.20128
而彼	-9.20145
空中	-9.20334
冥	-9.20343
而住	-9.20352
受用	-9.20416
權	-9.2053
河	-9.20604
輩	-9.20627
是以	-9.20749
支	-9.20763
如理	-9.20946
草	-9.2099
此初	-9.21016
法者	-9.21022
老	-9.21116
利養	-9.21234
彼諸	-9.21306
頂	-9.21335
廣說	-9.21372
八萬四千	-9.21382
我所	-9.21724
相故	-9.21763
承	-9.21824
諸有情	-9.21833
儞	-9.21866
日月	-9.22098
內外	-9.22211
一切有情	-9.22254
沙	-9.2235
過失	-9.22435
存	-9.22569
恩	-9.22739
鼓	-9.22744
諸佛世尊	-9.22876
在於	-9.22939
富樓那	-9.22944
『	-9.22973
如彼	-9.23014
剎	-9.23156
容	-9.23582
全	-9.23594
佛道	-9.23611
法師	-9.23614
正遍知	-9.23689
善知	-9.23739
為諸眾生	-9.2379
其所	-9.23804
作是念	-9.2382
下劣	-9.23898
之言	-9.2396
若干	-9.2412
潤	-9.2423
妙法	-9.24248
云何名為	-9.24266
妄想	-9.24312
總持	-9.24434
大仙	-9.24448
中有二	-9.24526
受生	-9.24579
悅	-9.24607
文字	-9.24657
婆	-9.24842
令其	-9.24893
痛	-9.24906
損	-9.24912
端正	-9.25293
翻	-9.25348
哉	-9.25357
調	-9.25521
合掌	-9.25631
誹謗	-9.25788
正道	-9.26078
視	-9.26112
往昔	-9.26133
賊	-9.26332
隨所	-9.2665
甲冑	-9.26759
周	-9.26762
段	-9.268
得見	-9.2685
珠	-9.27048
拔	-9.27091
鳥	-9.27095
戲論	-9.271
闇	-9.27142
如實知	-9.27146
如幻	-9.27173
離於	-9.27189
善友	-9.27291
無著	-9.27291
雖復	-9.27406
倍	-9.27453
顯示	-9.27523
令得	-9.27642
如是如是	-9.27699
瓔珞	-9.27726
遣	-9.27807
復以	-9.27952
不行	-9.28024
許	-9.281
億	-9.28245
今日	-9.28265
有人言	-9.28286
若有菩薩	-9.2829
神力	-9.28427
之身	-9.28435
極樂	-9.28566
不受	-9.28595
以是義故	-9.28676
明了	-9.28991
化作	-9.29088
六十	-9.29118
決	-9.29149
兼	-9.29206
身業	-9.29213
不壞	-9.29235
所願	-9.29352
成正覺	-9.29623
餓鬼	-9.29797
上來	-9.29863
般若波羅蜜	-9.30037
夢	-9.30181
憍慢	-9.30312
制	-9.30314
毘	-9.3034
淨信	-9.30385
本無	-9.30452
皆有	-9.30573
三明	-9.30665
繫	-9.30678
聖諦	-9.30686
見彼	-9.3083
法藏	-9.3095
值	-9.30989
阿修羅	-9.31008
無願	-9.31049
滅度	-9.31187
趣向	-9.31204
飾	-9.31421
則能	-9.31476
第六	-9.31571
無色	-9.31575
其中	-9.316
即能	-9.31603
飲	-9.31739
業報	-9.31782
迹	-9.31874
彼國	-9.31921
悉能	-9.31969
如法	-9.32065
其義	-9.32075
不滅	-9.32472
骨	-9.32585
快樂	-9.32605
唯願	-9.32709
彼時	-9.32868
即時	-9.33048
雖有	-9.3305
晝夜	-9.33273
無所從來	-9.33349
辟支佛	-9.33358
自身	-9.33374
若以	-9.33511
惡道	-9.33728
遮	-9.33846
速疾	-9.33932
是法	-9.34
體性空	-9.34062
逆	-9.34182
牟尼	-9.34184
焰	-9.34278
黑	-9.34332
唯有	-9.34361
泥	-9.34419
大聖	-9.34854
王子	-9.34864
不說	-9.34868
心生	-9.34886
佛性	-9.3501
非不	-9.35015
善惡	-9.35401
度脫	-9.35436
體性	-9.35503
神足	-9.35594
何謂	-9.3575
惡業	-9.35803
謗	-9.3588
濟	-9.35912
俱胝	-9.36095
上下	-9.36338
所緣	-9.36366
由此	-9.36425
無量壽	-9.36547
不復	-9.36588
佛智	-9.36658
五欲	-9.36679
意樂	-9.36723
或復	-9.3677
蒙	-9.37104
實際	-9.37129
諸長者	-9.37179
勝慧	-9.37242
枝	-9.37273
隨意	-9.37373
信受	-9.3741
礙	-9.37494
十力	-9.37555
亦是	-9.37676
龍王	-9.37722
無央數	-9.37778
退轉	-9.38086
彼土	-9.38198
第一義	-9.38222
隨其	-9.38271
此身	-9.38288
故知	-9.38316
即以	-9.38358
中間	-9.38428
以其	-9.38441
往詣	-9.38461
等者	-9.38491
令彼	-9.38641
提	-9.38656
欲得	-9.38659
所知	-9.38801
資	-9.38892
饒益	-9.38927
臣	-9.38994
無上菩提	-9.39052
殊妙	-9.39093
守	-9.39097
諸煩惱	-9.39151
含	-9.39282
降伏	-9.39293
守護	-9.3937
譬喻	-9.39468
信心	-9.39641
須賴	-9.39701
乃能	-9.39817
印	-9.39894
此明何義	-9.40027
譯	-9.40045
故說	-9.40056
而行	-9.40077
勇	-9.40084
哀	-9.40091
菩薩行	-9.40229
生彼	-9.40286
於諸眾生	-9.40358
一明	-9.40488
!」	-9.40516
是謂	-9.40519
察	-9.4079
無二	-9.40805
不失	-9.40996
皆由	-9.41024
象	-9.41033
一劫	-9.41055
可見	-9.41077
消	-9.4108
此義	-9.41272
惡趣	-9.41281
於他	-9.41572
橫	-9.41584
濁	-9.41587
彼等	-9.41587
三十三天	-9.41625
青	-9.41693
貪著	-9.41807
經典	-9.41907
聞說	-9.41921
一法	-9.42083
巧	-9.42231
一切諸佛	-9.42235
超過	-9.42303
非有	-9.42374
所起	-9.42456
所問	-9.42474
相似	-9.42508
仰	-9.42574
財物	-9.42627
假名	-9.42692
無比	-9.42692
燈	-9.42739
及餘	-9.42878
齊	-9.4295
造作	-9.43034
恚	-9.43104
頓	-9.43111
室	-9.43175
諂曲	-9.43203
福田	-9.43316
四大	-9.43461
明其	-9.43499
少分	-9.4368
祕密	-9.43723
賢	-9.4374
功	-9.43763
亦無有	-9.43874
四智	-9.43892
木	-9.43897
嚴飾	-9.43936
須彌	-9.4403
)(	-9.4404
珍寶	-9.44078
道場	-9.44175
分段	-9.44547
即為	-9.44616
。』「	-9.4467
十五	-9.44739
塔	-9.44864
即於	-9.44894
律	-9.45
奪	-9.45
東方	-9.45182
有說	-9.45187
不定	-9.45197
無智	-9.45204
施設	-9.4548
九者	-9.45533
暫	-9.45638
證得	-9.45785
名色	-9.45895
可知	-9.46067
。』」	-9.46098
十種	-9.46213
不放逸	-9.46221
實相	-9.46315
靜慮	-9.46443
眾人	-9.46475
忽	-9.46487
大願	-9.46631
忘	-9.46667
天人師	-9.46686
第七	-9.46817
不盡	-9.46846
五陰	-9.46988
讀誦	-9.47044
諸天人	-9.47056
作意	-9.47079
以無	-9.47107
不可說	-9.4713
能得	-9.47193
破戒	-9.47195
無心	-9.47197
不實	-9.47298
變化	-9.47305
覺知	-9.4746
身命	-9.47506
文殊師利童子	-9.47555
貪瞋癡	-9.4763
法華	-9.47645
為求	-9.47706
題	-9.47833
辭	-9.47871
亡	-9.47965
互	-9.48051
笑	-9.48063
諸如來	-9.48125
功德成就	-9.48167
發阿耨多羅三藐三菩提心	-9.48202
賢者	-9.48228
自利	-9.48262
彼岸	-9.48481
禁	-9.48522
漏	-9.48547
昇	-9.48618
此菩薩	-9.48658
迷惑	-9.48885
正覺	-9.49033
總結	-9.49105
故有	-9.49138
是為四	-9.49212
在家菩薩	-9.49253
誠	-9.4932
說言	-9.49346
威	-9.49366
及與	-9.4939
有量	-9.49458
得菩提	-9.49568
男女	-9.49602
倒	-9.49649
修善	-9.49657
三觀	-9.49671
等正覺	-9.49676
佛語	-9.49732
之道	-9.49865
肉	-9.49953
思念	-9.4998
。』」「	-9.5001
音樂	-9.50053
勅	-9.50328
西	-9.50365
如來所	-9.50698
法王	-9.50713
新	-9.50751
清	-9.5079
此三	-9.50857
聖人	-9.50872
佛告迦葉	-9.50998
城中	-9.51104
亦可	-9.51132
快	-9.51228
眾中	-9.51335
色界	-9.51396
畢	-9.51452
此名	-9.51714
曉了	-9.51735
恐怖	-9.51746
未得	-9.51782
述	-9.51804
莫不	-9.51898
尼	-9.51922
卷	-9.51989
影	-9.52004
大慈	-9.52107
莖	-9.5214
觀經	-9.52237
愛欲	-9.52273
父王	-9.52385
一曰	-9.52527
歸命	-9.52549
聲聞緣覺	-9.52605
乞	-9.52644
越	-9.52682
里	-9.52738
道者	-9.52744
皆令	-9.52747
得解脫	-9.5277
度無極	-9.52862
而說頌曰	-9.53005
之力	-9.53068
所攝	-9.53079
令我	-9.5332
名號	-9.53481
威神	-9.53521
短	-9.5357
本來	-9.5367
身相	-9.53679
今明	-9.53695
施與	-9.53856
聞者	-9.53879
貧	-9.53925
十地	-9.53995
是佛	-9.54027
一切煩惱	-9.54074
十者	-9.54188
彌	-9.54202
神變	-9.54225
於如來	-9.54264
園	-9.5428
二曰	-9.5441
出世間	-9.54543
聞是	-9.54682
多有	-9.54764
復次迦葉	-9.54771
不依	-9.549
仙人	-9.54993
石	-9.55054
憐愍	-9.55066
贊	-9.55067
無厭	-9.55082
利他	-9.5516
安立	-9.55334
律儀	-9.55389
慳	-9.5553
顯現	-9.5555
之名	-9.55621
牛	-9.5567
比丘尼	-9.55779
後世	-9.55782
相違	-9.55852
諸佛法	-9.55904
韋提	-9.56055
金色	-9.56111
有大	-9.56233
靜	-9.56283
審	-9.56346
剎那	-9.56485
一向	-9.56506
聽法	-9.5671
大智	-9.56755
其有	-9.56837
無障礙	-9.56846
甘露	-9.56859
談	-9.57033
因故	-9.57089
生者	-9.57277
總持門	-9.57367
迴	-9.57508
作是	-9.57624
帝	-9.57647
聽受	-9.57674
是名為	-9.57675
於世間	-9.57821
一人	-9.57824
下明	-9.57933
修道	-9.57943
天中天	-9.58068
之意	-9.58086
無量眾生	-9.58139
是則名為	-9.582
本願	-9.58282
慮	-9.58285
是則	-9.58313
養	-9.58388
四住	-9.58452
則不	-9.5847
牒	-9.58507
各有	-9.58631
不可以	-9.58756
王言	-9.58786
觀佛	-9.58899
我為	-9.58917
則有	-9.58948
常樂	-9.59013
地界	-9.59042
如佛	-9.59087
吉祥	-9.59089
但以	-9.59246
退失	-9.59258
妙吉祥	-9.59315
彌勒菩薩	-9.59334
證菩提	-9.59483
眾苦	-9.59512
貪愛	-9.59514
正等正覺	-9.59659
何以	-9.59666
第八	-9.5967
我慢	-9.59703
賢聖	-9.59864
論云	-9.59998
諦聽	-9.60113
而起	-9.60161
縱	-9.60265
懸	-9.60336
見如來	-9.60459
師子吼	-9.60499
水精	-9.60511
節	-9.60549
其國	-9.60588
善女人	-9.60632
臺	-9.60654
天上	-9.60679
放光	-9.60795
不久	-9.608
平	-9.60843
之智	-9.60986
有何	-9.61007
閻浮提	-9.61055
陳	-9.61068
貧窮	-9.61172
受持讀誦	-9.61213
流通	-9.61376
取著	-9.6143
本性	-9.6147
男	-9.61568
化生	-9.6171
舍利	-9.61765
見者	-9.61898
衰	-9.61968
我說	-9.62013
圍遶	-9.62055
心中	-9.62113
六度	-9.62371
而復	-9.62454
覺悟	-9.62504
見已	-9.62519
解了	-9.62525
諸苦	-9.62536
自行	-9.62553
往來	-9.62608
樂欲	-9.62634
所修	-9.62702
旨	-9.62761
亦復然	-9.62765
求菩提	-9.62776
名聞	-9.62906
願生	-9.62956
解說	-9.62978
證入	-9.63096
曉	-9.6314
佛世尊	-9.63147
寶樹	-9.6319
慕	-9.63345
胎	-9.63436
緣起	-9.63508
刀	-9.63515
若欲	-9.63553
善哉善哉	-9.63574
前明	-9.63673
薄	-9.63774
如是我聞	-9.63792
不聞	-9.63831
則是	-9.63887
充滿	-9.63895
而言	-9.63912
乾闥婆	-9.63946
次明	-9.63987
由旬	-9.6401
諸菩薩眾	-9.64033
無差別	-9.64036
塗	-9.64054
願我	-9.64076
淨心	-9.64187
臂	-9.64192
頌	-9.64246
極樂世界	-9.64314
巍巍	-9.64318
業障	-9.64324
敷	-9.64328
聖道	-9.6437
不分別	-9.64382
珊瑚	-9.64387
大菩提	-9.64404
願力	-9.64408
心故	-9.64668
仁者	-9.64681
。」《	-9.64735
當來	-9.64736
群	-9.64741
菩提道	-9.64773
響	-9.64865
樓閣	-9.64867
等事	-9.64909
半	-9.64952
普遍	-9.64977
三曰	-9.65036
運	-9.65135
髮	-9.65145
彼則	-9.65149
繫縛	-9.65177
皆為	-9.65312
無邊慧	-9.65417
於諸法	-9.65432
波羅蜜多	-9.65477
國中	-9.65514
住處	-9.65523
減	-9.6559
散亂	-9.65675
惟	-9.65706
樓	-9.6574
妻	-9.65804
心者	-9.6583
輪迴	-9.6596
心意	-9.65968
群生	-9.66002
摩尼寶	-9.66126
所化	-9.66141
鬼神	-9.66253
三十二	-9.66348
』,	-9.66428
出現	-9.66499
滅諦	-9.6667
念念	-9.66736
默然	-9.66826
四句	-9.66858
勢	-9.67028
以彼	-9.67142
十方世界	-9.67226
諸魔	-9.67345
起於	-9.67347
周遍	-9.67383
淨戒	-9.67457
判	-9.67514
諸功德	-9.67711
難得	-9.67814
勝妙	-9.68007
赤	-9.68031
聞此	-9.68034
黃	-9.68105
如上	-9.68161
氣	-9.68168
離欲	-9.68214
妻子	-9.68403
善業	-9.68429
草木	-9.68454
長夜	-9.6847
合掌向佛	-9.68486
登	-9.68494
敘	-9.68507
非無	-9.68591
十四	-9.68648
限	-9.68701
甚難	-9.68775
無上道	-9.68789
何等為三	-9.68809
堪	-9.68855
應以	-9.68914
第二明	-9.68921
惡人	-9.68967
傷	-9.68991
蘇	-9.68992
不從	-9.69057
諸菩薩等	-9.69093
天女	-9.69098
却	-9.69104
常行	-9.69125
男子	-9.69156
互相	-9.69188
居家	-9.69208
梵志	-9.69307
幻化	-9.69315
攀緣	-9.69322
所求	-9.69334
質	-9.69337
十八	-9.69338
以不	-9.69354
此四	-9.69439
嚴淨	-9.69566
善巧方便	-9.69578
收	-9.69693
救護	-9.69697
有三種	-9.69725
見此	-9.69734
作如是	-9.6977
富	-9.69892
箭	-9.70057
熱惱	-9.70062
財寶	-9.70125
無實	-9.70171
投	-9.70177
爾時世尊告	-9.70349
何因緣	-9.70353
步	-9.7048
不現	-9.70497
二名	-9.70556
我今於此	-9.70835
諸善根	-9.70917
緣生	-9.7093
流轉	-9.70996
意業	-9.71048
彼處	-9.7114
五種	-9.71212
無人	-9.71221
義者	-9.71255
上妙	-9.71419
嫉妬	-9.71484
是諸	-9.71498
御	-9.7152
歲	-9.71541
彼法	-9.7155
心常	-9.71706
喜樂	-9.71881
處處	-9.71919
亦無所	-9.7192
述云此後	-9.71989
世俗	-9.72057
略說	-9.72062
所住	-9.72125
夢中	-9.72147
如我	-9.72185
轉輪王	-9.72201
斷除	-9.72204
非究竟	-9.72279
百億	-9.7231
說是	-9.72346
弘	-9.72389
正觀	-9.72499
微笑	-9.72524
鬘	-9.72624
四法	-9.72709
觀法	-9.72717
所依	-9.72742
儀	-9.72751
不念	-9.72768
八萬	-9.72783
化佛	-9.72787
申	-9.7282
他方	-9.72894
接	-9.72946
侍	-9.72954
之業	-9.73086
等法	-9.73137
正勤	-9.73147
而常	-9.73215
大師	-9.73377
至誠	-9.73425
端	-9.73464
四天下	-9.73535
」。	-9.73608
漏盡	-9.73631
此諸	-9.73753
無染	-9.73756
欲樂	-9.73777
舍利弗言	-9.73789
得成	-9.73802
即無	-9.73872
深法	-9.73876
是名菩薩摩訶薩	-9.73904
十三	-9.7392
應時	-9.73924
於虛空中	-9.73942
十一	-9.73952
但有	-9.73956
執持	-9.74047
得道	-9.74092
此事	-9.74135
有作	-9.74178
阿僧祇	-9.74211
梵王	-9.74235
真珠	-9.74267
嚩	-9.74354
四方	-9.74418
涅盤	-9.7455
無始	-9.74799
令諸眾生	-9.74804
無量功德	-9.74881
愚夫	-9.74896
是為菩薩	-9.74936
此即	-9.74954
三事	-9.74956
如前	-9.74963
然彼	-9.75044
觀身	-9.75159
行於	-9.75165
是故菩薩	-9.75321
開化	-9.7534
作是思惟	-9.75364
勞	-9.75385
建	-9.75392
須菩提	-9.75392
能於	-9.7544
慚愧	-9.75477
受戒	-9.75507
知見	-9.75625
如斯	-9.7577
十念	-9.75846
解釋	-9.75886
南無	-9.75926
古	-9.76105
為因	-9.76237
何處	-9.76284
端嚴	-9.76301
右	-9.76332
滅時亦無所	-9.76347
皆當	-9.76354
一名	-9.76513
伎樂	-9.7654
亦能	-9.7655
光照	-9.76637
所欲	-9.76701
其數	-9.76722
聖眾	-9.7675
作是念已	-9.76764
殺生	-9.76796
鬼	-9.76825
欣	-9.76965
染污	-9.77028
諸相	-9.77034
忘失	-9.77035
所受	-9.77085
而說	-9.77111
暢	-9.77186
自下	-9.77219
王舍城	-9.7723
厭離	-9.7732
世間解	-9.77325
累	-9.7736
剎土	-9.77575
問言	-9.77657
遍照	-9.7767
愍	-9.77687
增上慢	-9.77812
說偈言	-9.77819
二法	-9.77891
聞佛所說	-9.77907
轉法輪	-9.77936
佛子	-9.77954
無所住	-9.77966
若得	-9.77969
有是處	-9.78117
淺	-9.78163
閉	-9.78168
改	-9.78172
賢護	-9.78264
手足	-9.7832
作如是念	-9.78377
未曾有	-9.78596
佛果	-9.78624
至於	-9.78663
知足	-9.78779
偈言	-9.78834
自知	-9.78837
誦	-9.78847
是也	-9.78863
吹	-9.78894
薩	-9.7891
為他	-9.78959
▁「	-9.78989
優婆塞	-9.79036
說伽陀曰	-9.79062
徹	-9.79083
誓願	-9.79095
口業	-9.79125
過患	-9.79304
隨喜	-9.79396
三法	-9.7951
之德	-9.79576
領	-9.79622
作善	-9.79677
不及	-9.79781
能了知	-9.79808
為我	-9.79823
寂慧	-9.79873
四曰	-9.79974
某	-9.79986
阿僧祇劫	-9.80018
緊那羅	-9.80038
熾然	-9.80084
無上士	-9.80097
亦得	-9.80136
種性	-9.80247
無想	-9.8035
會中	-9.80405
第十	-9.80428
真諦	-9.80615
殿	-9.80748
眾生界	-9.80771
憶	-9.80775
歷	-9.80798
仙	-9.80823
欺	-9.80866
號曰	-9.80899
苦樂	-9.80924
兒	-9.8098
血	-9.81036
者即是	-9.81069
金銀	-9.81136
無間	-9.81137
妄語	-9.81216
復於	-9.81231
幾	-9.81335
雜染	-9.814
天中	-9.81406
隨念	-9.81501
唯佛	-9.81528
者謂	-9.81581
六波羅蜜	-9.81767
善男子善女人	-9.81817
勤苦	-9.81921
憙	-9.81923
聞佛	-9.81929
泥洹	-9.81959
為一	-9.821
有異	-9.82107
床	-9.82122
驚怖	-9.82258
名稱	-9.82342
無住	-9.82437
是名菩薩	-9.82463
友	-9.82479
哀愍	-9.82484
唯除	-9.82538
語業	-9.82542
待	-9.82543
從此	-9.82548
南	-9.82617
諸世間	-9.82635
若諸眾生	-9.82659
世人	-9.82768
憂惱	-9.828
無動	-9.82826
稽首	-9.82848
留	-9.82908
如人	-9.82936
懺悔	-9.8295
期	-9.82995
重擔	-9.83
菩薩如是	-9.83131
何者是	-9.83212
所聞	-9.8334
士	-9.83349
能為	-9.83373
講	-9.83435
說為	-9.83522
呪	-9.83636
得涅槃	-9.83653
當為	-9.83773
遊戲	-9.83777
聚落	-9.83784
圍繞	-9.83806
諍	-9.83843
心行	-9.83846
不取正覺	-9.83872
其意	-9.83891
復次金剛摧	-9.83936
娑婆	-9.8395
走	-9.83951
逮得	-9.83972
乞食	-9.84012
何謂為四	-9.84093
無知	-9.84159
八十	-9.84183
善行	-9.84206
如其	-9.84257
為體	-9.84277
一切佛法	-9.84381
若諸菩薩	-9.84392
者則	-9.84464
不可見	-9.84508
依正	-9.84533
諸業	-9.84642
得佛	-9.84655
前白佛言	-9.84676
在前	-9.84789
茲	-9.84905
塵勞	-9.84998
修多羅	-9.85046
次釋	-9.85067
三十二相	-9.85231
善說	-9.85301
?」「	-9.85356
如是法	-9.85437
具足成就	-9.85511
損害	-9.85512
之因	-9.85569
更無	-9.85576
差	-9.85676
須彌山	-9.85761
佛菩提	-9.85765
身體	-9.85783
臨	-9.85785
能說	-9.85868
菩薩言	-9.85911
招	-9.85953
欣喜	-9.85971
染著	-9.86035
背	-9.86076
推	-9.8611
說經	-9.86137
此翻	-9.86211
聲聞乘	-9.86353
諸聲聞	-9.86403
所居	-9.86414
於佛法中	-9.86586
不在	-9.86612
故須	-9.86616
是經	-9.86617
施主	-9.86654
復能	-9.86741
託	-9.86874
九品	-9.86877
纏	-9.86913
迦樓羅	-9.86925
諸天人民	-9.86948
交	-9.86964
所應	-9.87
生信	-9.87098
性空	-9.87114
觀音	-9.87116
流布	-9.87142
如實了知	-9.87173
而來	-9.87242
不自	-9.87259
何法	-9.8728
請問	-9.87282
樹下	-9.87362
不染	-9.87395
及彼	-9.87411
若此	-9.87417
化他	-9.87488
乃是	-9.87489
如何	-9.87512
不共	-9.87659
汝當	-9.87681
亦不可得	-9.87708
無別	-9.8777
義故	-9.8785
摧	-9.87854
呵	-9.87862
盜	-9.87871
種類	-9.87901
臭	-9.87947
瞻仰	-9.87977
免	-9.87999
蟲	-9.88
轉輪聖王	-9.88014
老死	-9.8806
愛著	-9.88188
章門	-9.88213
此土	-9.88235
纏縛	-9.88266
我身	-9.883
正受	-9.88317
若我	-9.88433
思量	-9.8849
亦當	-9.88527
有四種	-9.88577
常見	-9.88715
逐	-9.88735
應身	-9.88842
多少	-9.88845
無礙智	-9.88854
優婆夷	-9.88896
當有	-9.88918
知其	-9.88948
七地	-9.88998
入解	-9.89005
妙色	-9.89105
作證	-9.89111
譬如有人	-9.89136
亦應	-9.89137
無起	-9.89152
善趣	-9.89191
一切功德	-9.89207
三藏	-9.89214
移	-9.89278
於未來世	-9.8933
不絕	-9.89377
不了	-9.89393
知彼	-9.89412
自性清淨	-9.89463
供養佛	-9.89534
皆能	-9.89539
摩尼	-9.89666
惡友	-9.89691
色身	-9.89706
自他	-9.89707
故得	-9.89764
又云	-9.89779
前後	-9.89817
一句	-9.89879
娑	-9.89887
弟	-9.89917
階	-9.89918
性故	-9.89926
臥	-9.89932
中道	-9.89959
忉利天	-9.89966
魔業	-9.90028
悉令	-9.90044
舍宅	-9.90052
資糧	-9.90055
於眾生	-9.9009
國王	-9.90096
大力	-9.90101
正士	-9.90123
歡喜踊躍	-9.9028
寶蓋	-9.90281
不動如來	-9.90421
後際	-9.90436
云何得	-9.90463
捨身	-9.90481
三身	-9.9051
如來所說	-9.90563
滅盡	-9.9061
岸	-9.90679
其名	-9.90753
住地	-9.90833
菩薩藏	-9.90871
樂聞	-9.90894
暗	-9.91073
深信	-9.91093
我聞	-9.9112
大迦葉	-9.91165
寶藏	-9.91169
於空	-9.91253
三業	-9.9139
得大	-9.91414
有五	-9.91417
身見	-9.91601
有漏	-9.91635
得名	-9.91639
部	-9.91664
凡有	-9.91676
行故	-9.91718
若彼	-9.91778
姓	-9.91806
無限	-9.91874
無量百千	-9.91896
德本	-9.91981
久住	-9.92002
此之	-9.92169
不相應	-9.92181
無眾生	-9.92215
無厭足	-9.9222
時有	-9.92314
天下	-9.92323
擊	-9.92381
加持	-9.92511
心念	-9.92621
大慈悲	-9.92629
威力	-9.92703
三品	-9.92715
懼	-9.92716
勤求	-9.92743
廣明	-9.92776
我想	-9.92858
佛知	-9.92978
三有	-9.93032
代	-9.93043
幻師	-9.93047
為佛	-9.93117
無所取	-9.93118
旋	-9.93134
寂然	-9.93155
此言	-9.93163
柱	-9.93166
周匝	-9.93198
禁戒	-9.93297
正定	-9.93434
如夢	-9.93464
度眾生	-9.93539
不能得	-9.9362
訶	-9.93721
教授	-9.93811
六入	-9.93876
欲明	-9.93878
無疑	-9.93913
為說法	-9.93914
受者	-9.93932
無行	-9.93936
十七	-9.94031
常為	-9.94081
功德莊嚴	-9.94151
法忍	-9.94187
得果	-9.9423
超越	-9.94264
亦復不	-9.9427
返	-9.94292
諷誦	-9.94301
己身	-9.94312
一切菩薩	-9.94326
頂禮佛足	-9.94355
遷	-9.94374
臨終	-9.94398
諸弟子	-9.94441
經言	-9.94481
行布施	-9.94487
說名	-9.9449
只	-9.94695
非一	-9.94755
意識	-9.94802
上上	-9.94804
無量清淨佛	-9.94853
覺了	-9.94951
睡眠	-9.94964
是事	-9.9505
惡行	-9.95074
何名	-9.95133
三十	-9.95185
八法	-9.95223
諸見	-9.95347
軟	-9.95384
童女	-9.95409
負	-9.95479
中說	-9.9548
安慰	-9.95491
知識	-9.95513
增益	-9.95684
是諸菩薩	-9.9579
遙	-9.95987
離垢	-9.95995
四住地	-9.95999
文殊師利菩薩	-9.96004
善心	-9.96037
已得	-9.9616
諸欲	-9.96168
得陀羅尼	-9.962
般涅槃	-9.96273
了義	-9.96274
不如	-9.96306
無諸	-9.96346
此識	-9.964
正說	-9.96456
田	-9.96526
合集	-9.96544
彼天	-9.9656
微塵	-9.96607
一處	-9.9662
猛	-9.96799
或從	-9.96859
化眾生	-9.96869
所為	-9.96879
皆大歡喜	-9.96908
或有眾生	-9.96978
所觀	-9.97026
能斷	-9.97071
給	-9.97114
聲聞眾	-9.97157
何緣	-9.97212
典	-9.97293
護持	-9.97401
不修	-9.97413
而去	-9.97449
諸外道	-9.97455
勝義	-9.97505
野	-9.9756
何謂為	-9.97561
諸天子	-9.97604
曲	-9.97609
敬禮	-9.97668
例	-9.97777
能作	-9.97832
不可計	-9.97834
惡知識	-9.9784
施者	-9.97854
八方	-9.97954
不虛	-9.98005
遍滿	-9.98123
嫉	-9.98172
信樂	-9.98229
生處	-9.98252
无	-9.98302
禮敬	-9.98329
承事	-9.98365
無等	-9.98453
人也	-9.98531
頂禮	-9.98536
而作	-9.98548
中有三	-9.98576
吼	-9.98608
彼諸眾生	-9.98629
經法	-9.98643
兩舌	-9.98712
五逆	-9.98728
密迹金剛力士	-9.98779
船	-9.98812
元	-9.98818
韋提希	-9.98845
微細	-9.9886
此文	-9.98903
無取	-9.98903
彼諸菩薩	-9.98933
人所	-9.99005
說者	-9.99143
當生	-9.99162
經中	-9.99316
所須	-9.99352
鏡	-9.99442
以自	-9.99518
三毒	-9.99553
以法	-9.99586
無形	-9.99587
是故我	-9.99644
恣	-9.99686
五十	-9.99732
是心	-9.99842
出過	-9.99844
無量無數	-9.99872
而此	-9.99894
一佛	-9.99904
此乘	-9.99931
罵	-10.0004
色像	-10.0005
理趣	-10.0006
犯戒	-10.0006
積聚	-10.0007
為善	-10.0008
算數	-10.0009
所念	-10.0023
蓮	-10.0029
天王	-10.0043
願生彼國	-10.0043
動搖	-10.0052
請佛	-10.0053
前際	-10.0056
生彼國	-10.0061
志求	-10.0073
月光	-10.0076
時節	-10.0081
蔽	-10.0085
勸修	-10.009
之物	-10.0095
不隨	-10.0099
頗梨	-10.01
鉢囉	-10.0101
又於	-10.0102
如空	-10.0103
畜	-10.011
妙慧	-10.011
珍	-10.0114
何等為十	-10.0116
帝王	-10.0123
供養如來	-10.0125
勇猛精進	-10.0129
左	-10.0144
戲	-10.0153
至心	-10.0157
共相	-10.0157
值遇	-10.0162
修集	-10.0167
徒	-10.0175
經文	-10.0175
受苦	-10.0176
如是說	-10.0176
三德	-10.018
特	-10.0195
佛出世	-10.0195
露	-10.0198
了達	-10.0207
禮拜	-10.0209
眾生故	-10.0209
五百人	-10.0214
怒	-10.0216
十億	-10.0219
玄	-10.0221
阿彌陀	-10.0222
舊	-10.0227
四天王	-10.0229
為諸	-10.0232
麗	-10.0232
如幻化	-10.0235
開士	-10.0236
」,	-10.0239
又以	-10.0242
歎佛	-10.0245
花鬘	-10.0254
寺	-10.0273
經行	-10.0276
善住	-10.0281
初發心	-10.0284
法施	-10.0307
得清淨	-10.0308
所有眾生	-10.0318
於一	-10.0325
皆從	-10.0328
靈	-10.0345
是如來	-10.0345
希望	-10.0345
深妙	-10.0348
說頌曰	-10.0348
諸善	-10.035
義利	-10.035
震動	-10.0351
斷諸	-10.0351
宅	-10.0352
轉相	-10.0352
洲	-10.0353
於佛所	-10.0365
稱量	-10.0366
有其	-10.0367
東	-10.0371
有此	-10.0375
曜	-10.0376
速得	-10.0378
無復	-10.042
及諸菩薩	-10.0427
未盡	-10.0437
我我所	-10.044
下品	-10.0448
顏	-10.0452
無性	-10.0458
或以	-10.046
膝	-10.046
隨其所	-10.0469
出家菩薩	-10.0473
不解	-10.048
所說法	-10.0485
滅故	-10.0505
妙音	-10.0508
言語	-10.0509
毛	-10.051
即有	-10.0527
而為說法	-10.0528
現微笑	-10.0529
所證	-10.0531
上品	-10.0532
得無生忍	-10.0535
唱	-10.0543
議	-10.0551
初中	-10.0552
若爾	-10.0561
眾惡	-10.0562
不善業	-10.0566
等心	-10.0568
一切智智	-10.0574
大法	-10.0579
由彼	-10.058
呼	-10.0584
於阿耨多羅三藐三菩提	-10.0585
希	-10.0585
飢	-10.0585
般泥洹	-10.0586
寄	-10.0586
貢高	-10.0587
放大光明	-10.0587
繞	-10.0588
行施	-10.0594
跋陀羅波梨	-10.0596
宿命	-10.0597
侍者	-10.0597
摩尼珠	-10.0601
一體	-10.0601
作禮	-10.0604
不然	-10.0612
而自	-10.0621
得阿耨多羅三藐三菩提	-10.0624
炎	-10.0627
所樂	-10.0632
摧伏	-10.0635
以是因緣	-10.0641
謂於	-10.0645
為眾生	-10.0645
能信	-10.0646
於一切處	-10.065
今即	-10.0651
此法門	-10.0652
本際	-10.0666
之地	-10.0667
於世	-10.0669
惡心	-10.0676
之想	-10.0677
菩提者	-10.0679
教令	-10.068
佛者	-10.0686
修菩薩行	-10.0692
五濁	-10.0692
哩	-10.0701
難可	-10.0704
預	-10.0706
為大	-10.071
奢摩他	-10.0714
為人	-10.0722
普照	-10.0729
空法	-10.0733
壽量	-10.0733
思議	-10.0733
令人	-10.0751
不忘	-10.0759
佛功德	-10.0761
今我	-10.0762
熾盛	-10.0762
作業	-10.0765
淨業	-10.0767
生歡喜	-10.0772
佛教	-10.0777
非我	-10.0779
無依	-10.0781
黃金	-10.0789
希求	-10.0791
入涅槃	-10.0797
是菩薩行	-10.0807
眾多	-10.081
若聞	-10.0819
污	-10.082
繩	-10.0826
作是言	-10.0828
大乘菩薩藏正法經	-10.0834
納	-10.0834
以何義故	-10.0835
諸經	-10.0835
婬	-10.0844
乖	-10.0846
形色	-10.0855
一相	-10.0862
吾我	-10.0863
天眾	-10.0865
風界	-10.0866
斷見	-10.0867
所可	-10.0868
沙門婆羅門	-10.0868
馬勝	-10.087
作諸	-10.087
數數	-10.088
不敢	-10.088
我不	-10.0882
中生	-10.0882
於後	-10.09
八地	-10.0903
生起	-10.0904
喜悅	-10.0904
瓶	-10.0914
道法	-10.0915
所現	-10.0916
如意	-10.0919
何不	-10.0926
或見	-10.0932
餘人	-10.0933
受記	-10.0934
寂意	-10.0946
卷第十	-10.0948
無色界	-10.0948
誑	-10.0954
無處	-10.0957
補特伽羅	-10.0964
受想行識	-10.0965
營	-10.0968
於一切眾生	-10.0969
依報	-10.0978
述云此第二	-10.098
因緣故	-10.0982
空寂	-10.0982
上煩惱	-10.0989
十二因緣	-10.0991
云何菩薩摩訶薩	-10.1003
善本	-10.1004
不空	-10.1013
又彼	-10.1016
一切善根	-10.1017
後明	-10.1017
天耳	-10.1032
若住	-10.1034
無所畏	-10.1034
展轉	-10.1036
大精進	-10.1046
第二從	-10.1048
踊躍	-10.1052
貴	-10.1055
見聞	-10.1061
於身	-10.1062
遊行	-10.1075
無所依	-10.1078
善住意天子	-10.108
苦集	-10.1087
輒	-10.1093
不二	-10.1094
園林	-10.1107
忍力	-10.1109
親友	-10.1111
依於	-10.1117
利根	-10.1122
而現	-10.1124
妙花	-10.1134
四十	-10.114
萬二千	-10.1146
行人	-10.1162
此三千大千世界	-10.1163
若法	-10.1163
變異	-10.1169
我以	-10.1173
照曜	-10.1179
上明	-10.118
斷滅	-10.1187
如來身	-10.1188
三願	-10.1192
是一	-10.1193
惠	-10.1197
術	-10.1198
我作佛時	-10.12
作此	-10.121
事業	-10.121
落	-10.1211
不違	-10.1212
況復	-10.1213
四明	-10.1217
狂	-10.1219
虛偽	-10.122
獸	-10.1223
焉	-10.1225
原	-10.1226
願佛	-10.1227
準	-10.1229
摩訶迦葉	-10.1237
念處	-10.1238
今者	-10.1239
空無	-10.1245
未來世	-10.1246
清淨故	-10.1247
內心	-10.1254
是等	-10.1263
是身	-10.1264
能見	-10.1266
詮	-10.1274
應修	-10.1275
亦云	-10.1276
業道	-10.128
天宮	-10.1283
大城	-10.1286
如是思惟	-10.1292
天帝	-10.1296
與我	-10.1301
人眾	-10.1306
空智	-10.1311
明佛	-10.1311
得益	-10.1315
無上正真道	-10.1323
當作	-10.1328
人身	-10.1329
王宮	-10.1334
山王	-10.1334
悕望	-10.134
恨	-10.1345
至真	-10.1347
防	-10.1349
以一	-10.135
事故	-10.1351
打	-10.1354
鐵	-10.1356
三千	-10.1356
伴	-10.136
陀羅尼門	-10.1361
於汝意云何	-10.1365
不生不滅	-10.1369
師子座	-10.1376
豈不	-10.1382
彼菩薩	-10.1383
五惡	-10.1388
波旬	-10.1391
立名	-10.1392
都無	-10.1393
得不退轉	-10.1403
虛空界	-10.1406
亦皆	-10.1408
香花	-10.1418
六萬	-10.1421
奉事	-10.1425
魔波旬	-10.1425
即生	-10.1429
不可盡	-10.143
劍	-10.1432
能持	-10.1438
生時	-10.1447
赴	-10.145
靡不	-10.1451
又此	-10.1452
隨入	-10.1458
大悲心	-10.1462
永離	-10.1468
求道	-10.1476
清淨心	-10.1478
奏	-10.148
同一	-10.1481
慶	-10.1481
瞻	-10.1482
遵	-10.1486
脈	-10.1491
此說	-10.1493
一日	-10.1495
即知	-10.1497
識界	-10.1502
復有四法	-10.1503
利樂	-10.1504
實無	-10.1505
當以	-10.1506
入城	-10.1509
雜色	-10.1513
前世	-10.1516
無非	-10.1522
之者	-10.1522
精勤	-10.1524
或現	-10.1544
成佛道	-10.155
無所緣	-10.1557
須菩提言	-10.1565
敢	-10.1575
佛所說	-10.1577
利益眾生	-10.1578
驚	-10.1578
注	-10.1595
於諸法中	-10.1596
五根	-10.1596
是菩薩摩訶薩	-10.1596
兵	-10.1599
臥具	-10.16
星	-10.1604
與彼	-10.1604
醫	-10.1609
乏	-10.1614
瞋怒	-10.1616
植	-10.1617
捉	-10.1619
趣入	-10.1622
尊特	-10.1622
如汝所說	-10.1623
此方	-10.1626
闕	-10.1628
苦滅	-10.1628
願終不	-10.1631
阿閦如來	-10.1633
五乘	-10.1634
所造	-10.1646
音響	-10.1656
我是	-10.1658
初識	-10.1659
惡口	-10.1665
六處	-10.1676
最後	-10.1678
不相	-10.1679
皆以	-10.1686
而於	-10.1686
欲使	-10.169
能成就	-10.1692
剎中	-10.1701
無量壽經	-10.1701
十方諸佛	-10.1703
是故言	-10.1712
發意	-10.1716
飛	-10.1716
我不說	-10.1717
諸大眾	-10.1724
博	-10.1728
水界	-10.1734
為作	-10.1746
迎	-10.1747
願求	-10.1748
啟	-10.175
阿閦佛	-10.1753
白佛	-10.1754
慳悋	-10.1754
瞋恨	-10.1758
苦行	-10.1759
習氣	-10.176
涅槃界	-10.176
試	-10.1763
堪任	-10.1763
化人	-10.1764
爾時世尊而說偈言	-10.1772
無得	-10.1779
如是一切	-10.1782
求於	-10.1782
王位	-10.1782
先明	-10.1786
修因	-10.1792
思想	-10.1793
一切佛	-10.1793
過於	-10.1795
不究竟	-10.1797
之本	-10.1801
果也	-10.1801
疑網	-10.1804
善解	-10.1804
若依	-10.1806
亦以	-10.1815
何有	-10.1819
閑	-10.182
除滅	-10.1824
或時	-10.1828
見有	-10.1832
於菩提	-10.1834
無邊際	-10.1834
竭	-10.1834
聞之	-10.1838
狀	-10.1839
那由他	-10.1847
多所	-10.185
得無生法忍	-10.1856
行相	-10.1865
勝行	-10.1866
慈氏	-10.187
法行	-10.1872
於眼	-10.1877
不得是	-10.1882
不亂	-10.1884
得自在	-10.1887
四攝	-10.1887
盲	-10.1888
檀	-10.1893
曠野	-10.1894
文中	-10.1895
閻浮	-10.1895
善思念之	-10.1895
唐	-10.1896
狐疑	-10.1896
鹿	-10.1897
為相	-10.1898
須臾	-10.1899
承佛威神	-10.19
耽著	-10.1901
厚	-10.1901
經論	-10.1901
在虛空中	-10.1903
殖	-10.1904
逼迫	-10.1908
妙樂	-10.191
是故如來	-10.191
無數劫	-10.1912
隨轉	-10.1915
五蘊	-10.1923
但為	-10.1931
與諸	-10.1932
得人身	-10.1936
正報	-10.1945
初又有	-10.196
以何	-10.1961
悉得	-10.1962
墮惡道	-10.1962
栴檀	-10.1968
現身	-10.1971
充	-10.1975
不爾	-10.1984
一生	-10.1985
風吹	-10.1997
妙行	-10.1998
能以	-10.1999
族	-10.2004
不成	-10.2009
戀	-10.2013
軍	-10.2013
解云	-10.2019
無滅	-10.2021
十千	-10.2022
廣釋	-10.203
寒	-10.2032
遭	-10.2033
乳	-10.2035
伺察	-10.2036
分明	-10.2038
優	-10.204
諍訟	-10.2041
離一切	-10.2044
少欲	-10.2045
弊	-10.2047
如來藏者	-10.2049
准	-10.2051
諸大	-10.2052
於大眾中	-10.2056
表示	-10.2057
佛告舍利弗	-10.2064
不肯	-10.207
北	-10.2072
護法	-10.2073
隨逐	-10.2074
二萬	-10.2074
不令	-10.2077
愚人	-10.2078
彼佛國土	-10.2082
大哀	-10.2085
合成	-10.209
當於	-10.2097
始終	-10.2097
知一切法	-10.2097
不轉	-10.2097
生已	-10.2102
漸次	-10.2105
愛敬	-10.2112
善調伏	-10.2113
三輩	-10.2116
但是	-10.2118
此則	-10.2119
普現	-10.2124
非常	-10.2127
解脫門	-10.2127
生淨信	-10.2134
經道	-10.215
發生	-10.2152
作是說	-10.2154
能除	-10.2161
不墮	-10.2165
為令	-10.2169
牙	-10.217
不入	-10.2173
心住	-10.2174
之果	-10.2177
空性	-10.218
義也	-10.2181
淳	-10.2182
損減	-10.2187
麥	-10.2189
第九	-10.2204
勢力	-10.2204
入一乘	-10.2213
成道	-10.2228
專念	-10.2239
為諸菩薩	-10.224
此章	-10.2249
民	-10.225
已生	-10.2253
其光	-10.2255
詐	-10.2256
瑞	-10.2268
供養諸佛	-10.227
左右	-10.2284
生身	-10.2288
放光明	-10.2288
空故	-10.2293
菩薩道	-10.2294
寶幢	-10.2303
馱	-10.2311
墜	-10.2313
徵	-10.232
清涼	-10.232
五戒	-10.2325
幽	-10.2328
仁賢	-10.2328
大乘經	-10.2329
云何名	-10.2331
截	-10.2331
言教	-10.2332
涌	-10.2333
輕慢	-10.2348
若菩薩	-10.235
堂	-10.2354
等無有異	-10.2361
之體	-10.2366
稱歎	-10.2371
造惡	-10.2379
於人	-10.2385
隨彼	-10.2411
若言	-10.2413
於佛法	-10.2413
獄	-10.2415
自有	-10.243
天龍	-10.2433
如佛所說	-10.2434
各異	-10.2436
於時	-10.2442
以下明	-10.2448
便得	-10.2449
天魔	-10.2452
大導師	-10.2456
五百比丘	-10.2457
想念	-10.2457
為得	-10.2466
設我得佛	-10.2467
綺語	-10.2471
謝	-10.2472
炬	-10.2473
擲	-10.2473
委	-10.2473
遶	-10.2475
坑	-10.2475
熏	-10.2478
各自	-10.2483
開導	-10.2483
欲求	-10.2484
有所得	-10.2484
欺誑	-10.2486
諸界	-10.2491
報恩	-10.2494
而發趣	-10.2495
不欲	-10.2499
萬行	-10.2502
釋種	-10.2507
不遠	-10.2508
常以	-10.2518
諸天眾	-10.2519
地上	-10.2522
無與等	-10.2525
所持	-10.2526
若是	-10.2527
捨於	-10.2532
佛德	-10.2534
諸法無	-10.2539
於十方	-10.254
盡智	-10.2541
資生	-10.2547
種種莊嚴	-10.2551
言辭	-10.2553
一切法無	-10.2553
志願	-10.2557
言我	-10.2564
八種	-10.2567
之眾	-10.2575
須摩提	-10.2579
常修	-10.2583
默	-10.2583
魔事	-10.2586
而白佛言	-10.2591
經者	-10.2592
歌	-10.2592
所致	-10.2596
是故得生	-10.2601
其聲	-10.2605
最尊	-10.2606
渴	-10.2616
是故名為	-10.2616
薄伽梵	-10.2618
庶	-10.2619
逢	-10.2619
嬰兒	-10.2619
良	-10.2622
錯	-10.2623
孔	-10.2624
付	-10.2624
悋	-10.2624
睡	-10.2627
漸漸	-10.2628
得往生	-10.2628
虛誑	-10.2629
成辦	-10.2629
劫中	-10.2631
舒	-10.2632
普賢	-10.2635
今經	-10.2638
若復有人	-10.2647
不犯	-10.265
穢土	-10.2655
大道	-10.2656
胎生	-10.2659
菩薩成就四法	-10.2665
淨穢	-10.2667
行法	-10.2668
不懷	-10.2669
幢幡	-10.2677
恒河沙	-10.2677
非也	-10.2678
若善男子善女人	-10.2683
六根	-10.2688
不出	-10.2696
所有一切	-10.2707
護國	-10.2707
為二	-10.2716
倚	-10.2718
有佛	-10.272
說有	-10.2722
一切世界	-10.2724
教化眾生	-10.2728
何等四	-10.273
詞	-10.2737
辦	-10.2741
相者	-10.2745
必有	-10.2753
成就如是	-10.2755
成熟眾生	-10.2756
法音	-10.2757
科	-10.2761
戒行	-10.2762
一生補處	-10.2767
兄弟	-10.2768
譏	-10.277
沈	-10.2771
勇健	-10.2771
浮	-10.2772
劇	-10.2773
根性	-10.2773
上首	-10.2775
精舍	-10.2776
兄	-10.2776
隨時	-10.2777
防護	-10.2782
不覺	-10.2784
清淨戒	-10.2785
能觀	-10.2789
人中尊	-10.2794
若修	-10.2804
七重	-10.281
觀行	-10.281
無有異	-10.2811
離相	-10.2815
佛法僧	-10.2816
令他	-10.2819
罪業	-10.2823
有無量	-10.2836
火界	-10.2838
聖者	-10.284
如大	-10.2844
樹林	-10.2849
婇女	-10.2863
生愛樂	-10.2867
牽	-10.287
百千億	-10.287
門者	-10.2875
毀謗	-10.2877
甚深法	-10.288
為本	-10.2889
然燈	-10.289
更有	-10.2898
生盲	-10.2902
瞋心	-10.2907
是大	-10.2908
憎	-10.291
信者	-10.2914
不可得故	-10.2916
菩薩亦爾	-10.2919
菩薩所	-10.292
自體	-10.292
君	-10.2922
臭穢	-10.2927
急	-10.2928
眠	-10.2928
豪	-10.2929
墮地獄	-10.293
娛樂	-10.293
悉知	-10.2937
威光	-10.2942
行菩薩行	-10.2943
永斷	-10.2943
而作是言	-10.2958
載	-10.2964
三塗	-10.2966
大智慧	-10.2966
豈非	-10.297
菩薩成就	-10.2976
妙觀	-10.2978
花果	-10.298
如是了知	-10.2982
三地	-10.2986
往彼	-10.2988
無上正真之道	-10.2996
所出	-10.3001
今言	-10.3001
切	-10.3018
求索	-10.302
十善	-10.302
無可	-10.3021
無念	-10.3026
長老	-10.3054
得言	-10.3058
成阿耨多羅三藐三菩提	-10.3059
眾緣	-10.3061
知是	-10.3064
中品	-10.3066
二百	-10.3066
彼即	-10.3072
而為上首	-10.3081
耆闍崛山	-10.3082
驗	-10.3083
敷演	-10.3085
踰	-10.3087
瘡	-10.3087
智也	-10.3091
縱廣	-10.3092
臨命終時	-10.3092
述云此第三	-10.3096
能捨	-10.3097
奉持	-10.3101
得入	-10.3101
二見	-10.3102
是常	-10.3104
傍生	-10.3105
所在	-10.3106
為緣	-10.3111
第一義諦	-10.3121
常得	-10.3125
彰其	-10.313
菩提分法	-10.313
羅網	-10.3135
言詞	-10.3136
天帝釋	-10.3137
何等名為	-10.3141
何等為	-10.3143
佛之	-10.3156
叉手	-10.3166
釋言	-10.3172
唯然	-10.3192
後結	-10.3198
還復	-10.3203
行中	-10.3206
為四	-10.3207
依此	-10.3208
得此	-10.3208
法僧	-10.3213
常懷	-10.3215
悔過	-10.3215
無垢施女	-10.322
一切人	-10.322
曩	-10.3224
輪王	-10.3226
多劫	-10.3227
是我	-10.3233
氏	-10.3234
玉	-10.3234
奇	-10.3235
慧力	-10.3235
寤	-10.3237
有十	-10.3237
此乃	-10.3237
穀	-10.3238
訓	-10.324
能行	-10.324
願也	-10.324
頭面禮足	-10.324
釋提桓因	-10.3241
到彼岸	-10.3241
濕	-10.3241
優波離	-10.3243
藉	-10.3246
其佛	-10.3249
於三界	-10.3256
父子	-10.3256
種姓	-10.3256
法輪	-10.3259
怨家	-10.3261
勸助	-10.3264
智人	-10.3272
不須	-10.3275
別明	-10.3277
我復有	-10.3279
法也	-10.3281
佛時	-10.3287
常有	-10.3288
能與	-10.329
能了	-10.329
滅除	-10.3291
人間	-10.3291
心如	-10.3291
即得往生	-10.3295
佛境界	-10.3295
唯願世尊	-10.3298
受樂	-10.3301
佛前	-10.3301
智故	-10.3306
斯等	-10.3314
復為	-10.3316
佛為	-10.332
遺	-10.3329
頗	-10.3334
不愛	-10.3342
世世	-10.3347
授與	-10.3361
報應	-10.3362
初標	-10.3373
以佛	-10.3373
能滅	-10.3381
二義	-10.3381
祇	-10.3384
卑	-10.3387
或云	-10.3389
舍衛	-10.3389
離煩惱	-10.3391
之理	-10.3391
覺分	-10.3392
盡故	-10.3396
墮落	-10.3398
為利	-10.3402
車𤦲	-10.3403
影像	-10.3405
不由	-10.3405
洗	-10.3406
告溥首	-10.3407
碎	-10.3407
塗香	-10.3408
朝	-10.3409
飢渴	-10.3411
工巧	-10.3411
大明	-10.3411
此以何義	-10.3412
所獲	-10.3415
現證	-10.3415
飯食	-10.3418
教誨	-10.342
十劫	-10.342
徒眾	-10.3429
殺害	-10.3438
不貪	-10.3448
諸餘	-10.3452
及其	-10.3453
持法	-10.3461
若在	-10.3465
次辨	-10.3476
甚多	-10.3476
發大	-10.3477
中無	-10.3489
有無	-10.3489
之教	-10.3509
佛告彌勒	-10.3515
耳鼻舌身意	-10.3517
善人	-10.3518
猶若	-10.3521
卿	-10.3521
其性	-10.3523
見我	-10.3544
將欲	-10.3551
作如是說	-10.3554
說之	-10.3555
非實	-10.3559
三諦	-10.3561
召	-10.3563
廢	-10.3563
右膝著地	-10.3565
無緣	-10.3568
釋之	-10.3568
貫	-10.357
發趣	-10.357
黑闇	-10.3573
刺	-10.3573
道中	-10.3574
告言	-10.3574
云何菩薩	-10.3576
身中	-10.3576
二人	-10.3576
知者	-10.3577
富貴	-10.3577
波羅	-10.3579
四無量	-10.3582
分齊	-10.3588
與佛	-10.359
龍樹	-10.3591
資具	-10.3597
法相	-10.3598
眾生心	-10.3603
大光明	-10.3603
功德者	-10.3608
梵云	-10.3611
住持	-10.3611
當作佛	-10.3613
彼眾生	-10.3616
比丘僧	-10.3627
從是	-10.3633
化身	-10.3635
以諸	-10.3635
聞如是	-10.3635
如是諸	-10.3636
為是	-10.3639
未聞	-10.3645
如來以	-10.3646
數量	-10.3648
佛地	-10.3649
形像	-10.3653
天神	-10.3655
日光	-10.3657
即有其	-10.3658
六道	-10.366
逼	-10.3663
十方佛	-10.3666
經說	-10.3666
其上	-10.3668
勝解	-10.3668
即見	-10.367
大富	-10.3671
婦	-10.3675
於生死	-10.3681
生故	-10.3684
於道	-10.3689
善修	-10.3691
同居	-10.3695
修諸	-10.3695
二諦	-10.3696
起行	-10.3701
無學	-10.3702
求法	-10.3703
難思	-10.371
佛眼	-10.3711
誡	-10.3712
如來法身	-10.3713
勤精進	-10.3714
不能知	-10.3722
阿彌陀佛國	-10.3726
波斯匿王	-10.3728
樂法	-10.3729
烏	-10.373
唎	-10.373
蛇	-10.373
脩	-10.3731
附	-10.3733
魔王	-10.3733
弱	-10.3734
戰	-10.3735
恐懼	-10.3735
明行足	-10.3736
調御丈夫	-10.3737
道德	-10.3738
侶	-10.3738
吉	-10.3739
停	-10.374
就文為	-10.374
摩訶衍	-10.3741
無所作	-10.3741
貌	-10.3746
如水	-10.3746
眼盡邊	-10.3747
可觀	-10.3749
世諦	-10.3749
如須彌山	-10.3749
一日一夜	-10.3749
牛王	-10.3751
善住意言	-10.3753
知之	-10.3753
慧眼	-10.3754
身光	-10.3755
能破	-10.3758
有八	-10.3767
不識	-10.3767
伏藏	-10.3768
無所行	-10.3778
由斯	-10.3783
衣食	-10.3785
等故	-10.3788
十九	-10.3788
大會	-10.3789
無窮	-10.3793
闍	-10.3794
大德舍利弗	-10.3805
索	-10.3809
去來	-10.3817
不用	-10.3819
殃	-10.382
然此	-10.3822
用是故	-10.3832
三義	-10.3834
諸人	-10.384
佛名	-10.3841
生大	-10.3848
或生	-10.3852
如是知	-10.3854
敬重	-10.3856
為眾	-10.386
住世	-10.3867
摩睺羅伽	-10.3872
其地	-10.3873
甘	-10.3883
心想	-10.3883
澤	-10.3887
飯	-10.3888
缺	-10.3888
法眼	-10.389
之類	-10.3895
盧	-10.3896
所趣	-10.3896
侵	-10.3897
我能堪忍	-10.3897
在此	-10.39
眾德	-10.3901
避	-10.3902
校	-10.3902
優陀夷	-10.3903
後時	-10.3903
每	-10.3903
肩	-10.3904
歌舞	-10.3904
到已	-10.3904
便生	-10.3904
狗	-10.3906
冷	-10.3908
為其	-10.3909
四聖諦	-10.3909
災	-10.391
阿闍梨	-10.3912
普為	-10.3913
勸令	-10.3914
說法者	-10.3915
自性空	-10.3915
悉無	-10.3916
別體	-10.3921
適悅	-10.3922
不具	-10.3929
述云第二	-10.3929
即為宣說	-10.3934
所覆	-10.3936
安置	-10.3936
念佛三昧	-10.3937
一切大眾	-10.3937
藥叉	-10.3939
若其	-10.3941
邪行	-10.3943
悲愍	-10.3944
諸大菩薩	-10.3946
諸佛所	-10.395
受身	-10.3959
其餘	-10.396
唯是	-10.397
生長	-10.397
眾善	-10.3973
中出	-10.3976
形相	-10.3977
不足	-10.398
處所	-10.3984
乾	-10.3987
從其	-10.3992
志樂	-10.3992
山林	-10.3997
勤行	-10.3999
百千劫	-10.401
映	-10.4013
釋梵	-10.4016
菩薩眾	-10.4028
諸善男子	-10.4028
劫數	-10.4031
言音	-10.4031
慧命	-10.4033
一切善法	-10.4046
猶如虛空	-10.4048
即起	-10.4048
所愛	-10.4049
麼	-10.4058
以來	-10.406
不受後有	-10.4062
現神變	-10.4071
詣佛所	-10.4072
割	-10.4075
朽	-10.408
糞	-10.4081
妨	-10.4081
從彼	-10.4081
不惜身命	-10.4083
奇特	-10.409
五明	-10.409
所不能	-10.4101
如是舍利子	-10.4105
就中	-10.4106
恒河沙等	-10.4107
一切種智	-10.4107
解脫知見	-10.4108
陀曰	-10.411
三解脫門	-10.411
諸惡趣	-10.4111
菩薩乘	-10.4111
若如是者	-10.4113
無自性	-10.4116
命根	-10.4116
行也	-10.4121
無戲論	-10.4122
後一	-10.4125
應如是	-10.4125
有六	-10.4133
攝持	-10.4146
悲心	-10.4149
菩薩摩訶薩以	-10.4159
復過	-10.4159
未生	-10.416
今當	-10.4161
菩提樹	-10.4164
緣故	-10.4165
梵音	-10.4166
於自	-10.417
心清淨	-10.4171
名增上慢	-10.4175
道心	-10.4175
有緣	-10.4176
菩薩大士	-10.4177
是無常	-10.4178
即自	-10.4185
非可	-10.4185
身口	-10.4193
生淨土	-10.4194
是故當知	-10.4197
乃為	-10.4205
問佛	-10.421
覆藏	-10.421
一偈	-10.4212
第三從	-10.4212
問答	-10.4214
若復	-10.4217
作惡	-10.4218
無生忍	-10.4227
不相違	-10.4227
大慧	-10.423
中有四	-10.4232
中輩	-10.4233
困	-10.4235
與之	-10.4236
追	-10.4237
華香	-10.4237
讀	-10.4238
揚	-10.4241
屈	-10.4241
愧	-10.4241
而悉	-10.4243
毘琉璃	-10.4246
剋	-10.4248
尸	-10.4248
單	-10.4248
種善根	-10.4248
鎧	-10.4249
胡	-10.425
甲	-10.425
殊特	-10.4251
又非處者	-10.4253
自見	-10.4253
汎	-10.4254
又言	-10.4254
偏袒右肩	-10.4255
眼見	-10.4256
諛諂	-10.4257
如是乃至	-10.4257
鬪諍	-10.4257
書寫	-10.426
赫	-10.426
所作已辦	-10.4262
三人	-10.427
照明	-10.427
阿羅漢辟支佛	-10.4281
護念	-10.4284
清白	-10.4286
至于	-10.4287
無減	-10.4291
因緣和合	-10.4291
即此	-10.4298
欲心	-10.4302
而得自在	-10.4304
總舉	-10.4306
彼佛剎中	-10.4307
化主	-10.4312
能成	-10.4318
一諦	-10.4319
行願	-10.4322
奉施	-10.4327
遙見	-10.4333
之具	-10.4333
同時	-10.4338
二菩薩	-10.434
神通力	-10.4357
其土	-10.4361
復次自夢	-10.437
過惡	-10.4373
尊者阿難	-10.4375
遠離於	-10.4383
法器	-10.4391
恭敬供養	-10.4394
修梵行	-10.4398
普令	-10.4405
因中	-10.441
愛語	-10.4411
勝事	-10.4413
一切諸法皆	-10.4415
馬瑙	-10.4417
復問	-10.4418
諫	-10.4418
來世	-10.4419
或聞	-10.442
無生無滅	-10.4421
教人	-10.4421
杖	-10.4423
太	-10.4423
究	-10.4427
競	-10.4431
務	-10.4433
即從座起	-10.4433
次名	-10.4433
齒	-10.4437
是究竟	-10.4438
虎珀	-10.4441
華嚴	-10.4441
樹木	-10.4442
油	-10.4442
長短	-10.4443
親屬	-10.4444
城邑	-10.4446
忽然	-10.4447
非色	-10.4455
學者	-10.4467
有諸	-10.4471
誰能	-10.4474
我成佛	-10.4481
百由旬	-10.4485
求佛	-10.4489
作大	-10.4492
以神通力	-10.4494
報身	-10.4494
合掌恭敬	-10.4497
勸請	-10.4517
觀彼	-10.453
實語	-10.4537
假令	-10.4537
通別	-10.4538
成滿	-10.4541
誰為	-10.4542
精進力	-10.4548
化度	-10.4551
正思惟	-10.4558
是眼	-10.4558
有如是	-10.4559
無量諸佛	-10.4565
釋迦牟尼如來	-10.4566
捨心	-10.4566
亦不見	-10.4568
傍	-10.4576
何人	-10.4577
聞經	-10.4578
病人	-10.4578
五百歲	-10.4581
總明	-10.4583
女言	-10.4583
以諸菩薩	-10.4584
長者子	-10.4589
二句	-10.459
諂	-10.4591
金剛手菩薩大祕密主	-10.4592
鈍	-10.4596
復生	-10.46
憎嫉	-10.4601
孤	-10.4605
角	-10.4607
畫	-10.4607
域	-10.4608
噉	-10.4608
禽獸	-10.4609
邪婬	-10.4609
陽焰	-10.461
豐	-10.461
黨	-10.461
偷盜	-10.461
偽	-10.4611
無所見	-10.4614
怯	-10.4616
憒閙	-10.4616
阿閦佛剎	-10.4618
不見有	-10.4621
煩	-10.4622
簡擇	-10.4623
若曹	-10.4625
必當	-10.4625
願說	-10.4627
欣樂	-10.4632
其相	-10.4636
久遠	-10.4637
諸凡夫	-10.4637
有八萬四千	-10.4644
我昔	-10.4647
身口意業	-10.4659
無量劫	-10.4667
既是	-10.4673
身內	-10.4674
高下	-10.4675
彼彼	-10.4675
不名	-10.4679
惡魔	-10.4684
若非	-10.4689
從佛	-10.4691
行菩薩道	-10.4693
二釋	-10.4695
不正	-10.4705
搖	-10.4706
清淨行	-10.4706
此處	-10.4706
文云	-10.4707
復更	-10.4709
和雅	-10.471
香華	-10.4718
本末	-10.472
令此	-10.4722
隨心	-10.4724
千萬	-10.4725
阿蘭若	-10.4732
俱胝劫	-10.4733
無失	-10.4738
一字	-10.474
北方	-10.4751
於法界	-10.4753
六地	-10.4755
續	-10.4758
髻	-10.4759
降魔	-10.4761
如是受持	-10.4765
初生	-10.477
斷絕	-10.4774
第三明	-10.478
輸	-10.4783
童	-10.4784
所施	-10.4784
次有佛名	-10.4787
何等為五	-10.4791
固	-10.4792
紅	-10.4792
腹	-10.4793
危	-10.4794
不可稱計	-10.4794
他化自在天	-10.4795
昏	-10.4795
健	-10.4795
酬	-10.4797
一味	-10.4798
提婆達多	-10.48
不能了知	-10.4804
之聲	-10.4808
善根力故	-10.4809
百歲	-10.4811
尺	-10.4812
住者	-10.4814
不共佛法	-10.4815
林中	-10.4816
無所生	-10.4816
山澤	-10.4817
能感	-10.4817
如是行	-10.4821
若為	-10.4822
極重	-10.4825
最初	-10.4825
違背	-10.4829
末香	-10.4834
染愛	-10.4835
自心	-10.4835
人法	-10.4839
』	-10.4839
復說	-10.484
之上	-10.4843
逼惱	-10.4846
一種	-10.4846
大王當知	-10.4856
最為	-10.4857
今謂	-10.4862
下至	-10.487
常念	-10.4874
於佛前	-10.4878
曾無	-10.4883
出入	-10.4887
不厭	-10.4888
三惡道	-10.4889
菩提分	-10.489
光明照	-10.4891
汝觀	-10.4893
羅漢辟支	-10.4896
得是	-10.49
即佛	-10.4907
自說	-10.491
應說	-10.4911
冠	-10.4916
今欲	-10.492
水中	-10.492
前三	-10.4921
正信	-10.4922
復次寂慧	-10.4926
千人	-10.4927
生天	-10.4932
稱為	-10.4933
何得	-10.4933
為證	-10.4937
初業	-10.4944
則非	-10.4948
行菩薩	-10.4953
無放逸	-10.4963
震	-10.4966
鮮	-10.4969
聖教	-10.4976
尾	-10.4977
一云	-10.4979
怪	-10.4979
獻	-10.498
二邊	-10.4981
履	-10.4982
顯勝	-10.4982
萬里	-10.4984
為先	-10.4984
地獄中	-10.4984
毀呰	-10.4985
婬怒癡	-10.4985
夏	-10.4986
妬	-10.4987
因此	-10.4987
皮	-10.4988
源	-10.4989
菩薩摩訶薩行尸羅波羅蜜多時	-10.4991
佛乘	-10.4992
淨行	-10.4995
尊貴	-10.4995
百千萬億	-10.4999
得無	-10.5001
權實	-10.5008
諸群生	-10.5009
淨居天	-10.5013
勝也	-10.5015
難信	-10.5017
電	-10.5023
昔日	-10.5025
為物	-10.5042
合會	-10.5045
修治	-10.5046
無上智	-10.5047
諍論	-10.5049
一依	-10.5052
婬欲	-10.506
志性	-10.5061
何為	-10.5063
此下	-10.5068
常當	-10.5069
億百千	-10.5088
無生法忍	-10.5092
惜	-10.5092
利益安樂	-10.5092
無見	-10.5094
是初地	-10.5096
掌	-10.5101
終無	-10.5104
可愛	-10.5113
無際	-10.5115
分不及一	-10.5117
為三	-10.5121
妙香	-10.5131
有法	-10.5137
即入	-10.5138
同前	-10.5143
以種種	-10.5143
地持	-10.5144
觀世音	-10.5147
光色	-10.5148
人乎	-10.5153
自歸	-10.5154
身口意	-10.5154
起煩惱	-10.5154
念言	-10.516
來至	-10.5161
捨諸	-10.5168
振	-10.5173
而非	-10.5176
得無垢女	-10.5176
魚	-10.5177
果德	-10.5177
我能堪任	-10.5178
南西北方四維上下	-10.5178
傾	-10.5179
才	-10.518
因也	-10.5181
兩足尊	-10.5181
自謂	-10.5181
保	-10.5181
爾時世尊欲重宣此義而說頌曰	-10.5182
之間	-10.5182
牢獄	-10.5183
萬歲	-10.5183
刀杖	-10.5186
隔	-10.5187
所以然者	-10.5192
統	-10.5193
當復	-10.5193
諸眾生等	-10.5196
諸苦惱	-10.5196
耀	-10.5199
無疑惑	-10.52
問也	-10.5206
諸龍	-10.5207
斷常	-10.5208
豈異	-10.5212
電得	-10.5213
虛空中	-10.5213
說我	-10.5216
種族	-10.5218
現世	-10.5221
飛行	-10.5228
無退	-10.5236
測	-10.5241
已上	-10.5241
自下第二	-10.5245
若說	-10.5246
歡	-10.5251
慳貪	-10.5261
深入	-10.5269
善護	-10.5269
穢惡	-10.5275
一行	-10.5276
世尊告	-10.5279
實性	-10.5279
善學	-10.5284
我已	-10.5286
魔軍	-10.5287
華鬘	-10.5292
曇	-10.5293
病苦	-10.53
相見	-10.5302
護世	-10.5305
見法	-10.5306
醫王	-10.5306
三名	-10.531
所修行	-10.5311
可信	-10.5315
為宗	-10.5315
踊	-10.5327
諸法性	-10.5332
如是名為	-10.5335
常生	-10.5335
有是	-10.5339
聖法	-10.5341
心相應	-10.5343
在彼	-10.5345
醫藥	-10.5347
若入	-10.5348
不觀	-10.5349
空閑	-10.5353
或為	-10.5354
其體	-10.5362
樂於	-10.5363
諸善法	-10.5364
灑	-10.5364
跡	-10.5366
療	-10.5366
恃	-10.5367
若不爾者	-10.5367
觀之	-10.537
意生身	-10.537
開解	-10.5371
并諸	-10.5372
願樂欲聞	-10.5373
房	-10.5373
以此善根	-10.5374
瞿曇	-10.5376
奴婢	-10.5376
種諸善根	-10.5377
荷	-10.5377
嫌	-10.5378
不滿	-10.5378
愈	-10.5378
項	-10.5378
白衣	-10.5379
星宿	-10.538
調達	-10.5382
諸佛國土	-10.5383
仍	-10.5384
勝鬘夫人	-10.5385
平等心	-10.5386
調御	-10.5386
點	-10.5387
見是	-10.5389
毘尼	-10.5389
第一明	-10.539
天樂	-10.5395
顏色	-10.5397
彼無	-10.5398
聞佛說	-10.5398
開示演說	-10.5401
樂著	-10.5407
或在	-10.5411
三百	-10.5418
修羅	-10.5419
遍知	-10.5422
有二義	-10.5424
二十五	-10.5425
意解	-10.5425
勝於	-10.5432
罪福	-10.5432
而行布施	-10.5434
方得	-10.5434
欲見	-10.5435
空界	-10.5435
有愛	-10.5438
使人	-10.544
我於爾時	-10.544
一切法皆	-10.544
來迎	-10.5443
邪命	-10.5444
平正	-10.5444
我亦	-10.5446
自相	-10.5447
而可	-10.5448
名義	-10.5449
除斷	-10.5455
勝法	-10.5456
弘誓	-10.5456
言無	-10.5459
慈悲心	-10.5466
如來說	-10.5467
淨故	-10.5484
得知	-10.5488
亦為	-10.5489
功用	-10.5505
金寶	-10.5505
後生	-10.5508
良以	-10.5512
天主	-10.5514
今時	-10.5515
證法	-10.5516
諸患	-10.5519
汝應	-10.5522
不了義	-10.553
寂定	-10.5533
於正法	-10.5537
悉了知	-10.5538
幡	-10.5539
契	-10.5539
於此法中	-10.5541
將護	-10.5541
無諍	-10.5546
所縛	-10.5546
又二	-10.5548
師長	-10.5551
能善	-10.5553
教法	-10.5554
是處	-10.5556
但說	-10.5558
動轉	-10.556
功勳	-10.5568
今正是時	-10.5571
又能	-10.5571
入道	-10.5571
良藥	-10.5573
榮	-10.5574
阿須倫	-10.5574
謬	-10.5574
觀諸法	-10.5577
攝眾生	-10.558
正教	-10.5582
決擇	-10.5582
證也	-10.5584
諦觀	-10.5586
無有能	-10.5587
能忍	-10.5589
五道	-10.5591
隨應	-10.5592
為菩薩	-10.5592
百劫	-10.5593
妙聲	-10.5593
依彼	-10.56
八地以上	-10.56
當成	-10.5603
頭陀	-10.5604
有為法	-10.5604
心性	-10.5604
信施	-10.5605
有世界名	-10.5607
或名	-10.5608
消滅	-10.5609
當知是人	-10.5615
故今	-10.5617
復有四事	-10.5617
是名如來	-10.5624
斯義	-10.5625
諸仁者	-10.5626
顧	-10.5626
阿字	-10.5633
尚不	-10.5634
無生滅	-10.5636
而受	-10.5639
有如是等	-10.564
阿難陀	-10.5649
福報	-10.5653
善不善	-10.5653
人等	-10.566
燈明	-10.5663
眼識	-10.5663
大臣	-10.5664
真子	-10.5665
異名	-10.5669
寂慧當知	-10.567
花香	-10.5671
不假	-10.5679
擇	-10.568
增減	-10.5686
正智	-10.569
愁	-10.5693
行業	-10.5699
何義	-10.5702
遠離諸	-10.5702
耽	-10.5707
為名	-10.5709
王如來	-10.571
當獲	-10.5712
是三地	-10.5717
三句	-10.5719
緣覺乘	-10.572
價	-10.5725
常在	-10.5735
慈愍	-10.5737
平等性	-10.5737
生疑	-10.5739
世法	-10.5739
活	-10.574
意也	-10.5743
下釋	-10.5752
三十六	-10.5753
大千	-10.5755
無少	-10.5757
勝華藏	-10.5758
證知	-10.5758
折	-10.576
在地	-10.5767
道理	-10.5768
羸	-10.577
融	-10.5771
令住	-10.5773
十善業道	-10.5773
此觀	-10.5774
耆婆	-10.5776
徐	-10.5776
佛國土	-10.5776
帝釋天主	-10.5777
講堂	-10.5777
園苑	-10.5779
敵	-10.578
嬈	-10.578
朋	-10.578
羅剎	-10.5781
夜摩天	-10.5781
若離	-10.5782
浴池	-10.5782
正定聚	-10.5784
必得	-10.5785
釋師子	-10.5786
我亦願	-10.5788
氷	-10.5788
任持	-10.5789
妙華	-10.5792
空無相無願	-10.5794
財利	-10.5803
救濟	-10.5813
在世	-10.5813
專心	-10.5813
貪心	-10.5815
心生歡喜	-10.5816
九十	-10.5832
體相	-10.5835
謂是	-10.5835
無憂	-10.5836
過去世	-10.5839
乾闥婆等	-10.584
牒前	-10.5844
利眾生	-10.5844
願為	-10.5845
一百	-10.5846
爾乃	-10.5848
初文	-10.5848
是諸眾生	-10.5848
四眾	-10.5848
疑心	-10.5849
二俱	-10.5853
心淨	-10.5855
勝進	-10.5855
末世	-10.5855
大苦	-10.5856
趣於	-10.5857
映蔽	-10.5859
必定	-10.5865
勝智	-10.5866
以成	-10.5869
深生	-10.5877
其名曰	-10.5877
如是菩薩	-10.5879
當知此	-10.5879
說此經	-10.588
等類	-10.5885
悟入	-10.5887
閑居	-10.5889
大威德	-10.5889
億劫	-10.5892
於其中	-10.5898
下文	-10.5901
更不	-10.5906
未有	-10.5915
力士	-10.5916
墮於	-10.592
男子女人	-10.592
堅實	-10.5923
則便	-10.5925
平等故	-10.5926
等覺	-10.5928
初釋	-10.5929
門中	-10.593
有七	-10.5931
所照	-10.5933
隨行	-10.5941
助道	-10.5941
口中	-10.5942
生善	-10.5945
明智	-10.5953
當說	-10.5954
壽者	-10.5955
令諸	-10.5956
此說為	-10.5962
之善	-10.5963
白法	-10.5967
於大乘	-10.5971
諸入	-10.5971
拏	-10.5977
何謂菩薩	-10.5979
爛	-10.5979
若諸	-10.5981
鳴	-10.5984
罵詈	-10.5987
延	-10.5987
而見	-10.5988
窟	-10.5989
應生	-10.5989
馳	-10.599
呪術	-10.5991
乃有	-10.5993
以是緣故	-10.5994
繁	-10.5994
出現於世	-10.5995
樂求	-10.5999
不斷絕	-10.5999
遊步	-10.6001
我禮	-10.6005
此道	-10.6005
大涅槃	-10.6007
有幾	-10.6007
能攝	-10.6009
所害	-10.6009
無倦	-10.601
阿難白佛言	-10.601
開悟	-10.6012
以依	-10.6015
聽經	-10.6015
所感	-10.6019
聽許	-10.6021
聚集	-10.6021
更相	-10.6022
枝葉	-10.6022
結使	-10.6024
一切智心	-10.6026
同聲	-10.6028
而出	-10.6035
聞其	-10.6036
壽終	-10.6039
過去未來現在	-10.6045
善道	-10.6045
一切處	-10.6053
四無所畏	-10.6055
疑悔	-10.6056
日輪	-10.6057
佛告文殊師利	-10.6058
前中有二	-10.6061
又有	-10.6062
?「	-10.6065
周旋	-10.6069
不善法	-10.6072
來者	-10.6078
亦令	-10.6078
八十俱胝	-10.608
彌勒菩薩摩訶薩	-10.6086
下輩	-10.6089
何故不	-10.609
諸所	-10.6091
說法時	-10.6091
喜心	-10.6092
有我	-10.6097
四念處	-10.6101
中下	-10.6104
何等為二	-10.6105
夢見	-10.6111
菩薩觀身	-10.6111
彼有	-10.6111
斷一切	-10.6116
大目連	-10.6117
善來	-10.6121
光佛	-10.6124
諸趣	-10.6125
如其所	-10.6133
凡所	-10.6134
就初	-10.6135
能通達	-10.6137
故能	-10.6139
已說	-10.6141
以顯	-10.6141
三歸	-10.6142
諸漏	-10.6146
僧祇	-10.615
勝處	-10.6154
度者	-10.6155
等持	-10.6156
亦空	-10.616
二智	-10.6161
無有少法	-10.6162
此界	-10.6166
法光明	-10.6167
釋迦如來	-10.617
之後	-10.617
萬善	-10.6171
捨命	-10.6172
南方	-10.6175
知諸法	-10.6176
宮中	-10.6177
謙	-10.6181
更說	-10.6182
牟	-10.6184
那羅延	-10.6186
有佛頂中光明照	-10.6188
非人	-10.6189
至彼	-10.6191
四義	-10.6191
生法	-10.6194
無量稱王	-10.6194
為一切眾生	-10.6197
羅睺羅	-10.6198
獨覺	-10.6198
錯謬	-10.6199
無罣礙	-10.62
慇懃	-10.62
從座而起	-10.62
撿	-10.6202
眾祐	-10.6202
得忍	-10.6203
成最正覺	-10.6203
商主	-10.6204
集會	-10.6204
求生	-10.6206
敗壞	-10.6206
被甲	-10.6206
滅後	-10.6207
殘	-10.6208
取相	-10.6208
人非人等	-10.621
義理	-10.621
佛剎功德莊嚴	-10.6211
止息	-10.6211
即從坐起	-10.6213
夷	-10.6213
法教	-10.6214
三分	-10.6214
多羅樹	-10.6215
凡聖	-10.6225
勝相	-10.6226
方等	-10.6228
於過去	-10.623
可以	-10.6234
四十八願	-10.6236
疲倦	-10.6238
不敬	-10.6239
以何因緣	-10.624
故稱	-10.6242
當得作佛	-10.6246
賢者阿難	-10.625
大利益	-10.625
遠離一切	-10.6252
疾得	-10.6254
道行	-10.6256
若善男子	-10.6258
他心	-10.6258
十六觀	-10.6261
有疑	-10.6262
實報	-10.6263
非眼	-10.6265
無力	-10.6267
千歲	-10.6268
有五種	-10.6268
何者為	-10.627
若有比丘	-10.6273
諸眾生故	-10.6275
當學	-10.6276
無依止	-10.6279
大本	-10.6286
觀者	-10.6287
非身	-10.6287
伽陀	-10.6293
是實	-10.6294
之內	-10.6298
諸受	-10.631
大神通	-10.6316
自在王	-10.6316
難知	-10.6322
此亦	-10.6323
休息	-10.6324
見他	-10.6326
不當	-10.6332
善利	-10.6333
須知	-10.6333
二童子	-10.6334
之性	-10.6337
迦羅	-10.6348
幢菩薩	-10.6355
各以	-10.6358
為眾生說	-10.6358
滅道	-10.6359
身色	-10.6359
地中	-10.6359
道諦	-10.6361
如是四法	-10.6363
外化	-10.6364
佛號	-10.6365
真身	-10.6365
國城	-10.6372
頌曰	-10.638
當令	-10.6384
本覺	-10.6388
推求	-10.639
有為無為	-10.639
千劫	-10.6396
扇	-10.6399
后	-10.6402
梨	-10.6405
條	-10.6405
伸	-10.6407
八千	-10.6407
射	-10.6409
大意	-10.6409
正理	-10.641
蜎飛蠕動之類	-10.6411
側	-10.6411
酒	-10.6411
屍	-10.6412
虫	-10.6413
娑婆世界	-10.6413
滋	-10.6414
按	-10.6417
裂	-10.6417
錄	-10.6417
以智	-10.6419
跋	-10.6419
却住一面	-10.6419
擁護	-10.642
則為欺誑	-10.642
波羅提木叉	-10.6422
不食	-10.6424
蔭	-10.6427
恩愛	-10.6428
說也	-10.6433
汝今當知	-10.644
誠實	-10.6443
斷惑	-10.6445
毀壞	-10.6446
覆蔽	-10.6446
為王	-10.6448
以得	-10.6455
邪道	-10.6458
繫念	-10.6461
不毀	-10.6461
一切聲聞	-10.6465
能自	-10.6467
癡人	-10.6471
除疑	-10.6471
場	-10.6472
之境	-10.6477
悉能了知	-10.6481
成佛時	-10.6481
發言	-10.6488
於正行	-10.6488
得未曾有	-10.6488
如是供養	-10.6494
常隨	-10.6496
貪瞋	-10.6499
雖不	-10.6503
法華經	-10.6505
之要	-10.6505
結勸	-10.6505
豫	-10.6506
道品	-10.6507
踰繕那	-10.6509
變現	-10.6511
我之	-10.6514
何以故下	-10.6516
諸佛國	-10.652
諸佛世界	-10.652
雅	-10.6522
章句	-10.6522
講說	-10.6523
同事	-10.6528
亦不能	-10.6529
何因	-10.653
隱覆	-10.653
值佛	-10.6532
並是	-10.6537
金剛手	-10.6539
上至	-10.654
柔和	-10.6542
此三種	-10.6545
知法	-10.6545
滅壞	-10.6545
阿闍世	-10.6549
深廣	-10.655
已作	-10.6556
事中	-10.6556
皆生	-10.6559
若夢	-10.6565
諸聲聞眾	-10.657
從何	-10.6573
解行	-10.6575
界中	-10.6575
大德阿難	-10.6584
性相	-10.6588
色等	-10.6595
如是十種	-10.6595
別有	-10.6598
欲知	-10.6601
多諸	-10.6601
擔	-10.6624
在心	-10.6624
成如是智	-10.6626
忻	-10.663
而立	-10.6631
怛	-10.6631
嗅	-10.6634
偏袒右肩右膝著地	-10.6636
翳	-10.6638
無上正等菩提	-10.6639
局	-10.664
菩提行	-10.664
採	-10.6641
王波斯匿	-10.6641
行住坐臥	-10.6642
省	-10.6644
渴仰	-10.6644
慎	-10.6645
安養	-10.6646
其事	-10.6646
灌頂	-10.6649
送	-10.665
長養	-10.6652
令生	-10.6652
無央數劫	-10.6652
以七寶	-10.6657
天地	-10.6657
之門	-10.6658
遍覆	-10.6662
留難	-10.6662
頻婆	-10.6663
於何	-10.6663
塞	-10.6663
二乘人	-10.6664
萬物	-10.6666
同等	-10.6667
生怖畏	-10.6671
非但	-10.6674
數取	-10.6677
經曰設我得佛至不取正覺	-10.6678
如來至真	-10.6679
當觀利養	-10.6681
能壞	-10.6681
復作是念	-10.6682
汝見	-10.6684
一切所有	-10.6685
皆空	-10.6686
願往生	-10.6686
相隨	-10.6687
彼所	-10.6687
無生智	-10.6687
所發	-10.6688
既見	-10.6689
畢竟無	-10.6693
到彼	-10.6693
此是如來	-10.6694
是性	-10.6698
修觀	-10.6698
應如是知	-10.6706
設使	-10.6708
惡法	-10.6711
福業	-10.6713
復言	-10.6717
圓光	-10.672
明二乘	-10.672
得離	-10.6726
國界	-10.6729
多人	-10.673
復何	-10.6732
龍象	-10.6734
歡悅	-10.6741
分量	-10.6747
妙好	-10.6756
無煩惱	-10.6758
摩訶薩	-10.6759
諸法空	-10.6759
以慧	-10.6762
悟道	-10.6764
道意	-10.6765
於如來所	-10.6766
連	-10.6773
事已	-10.6775
正命	-10.6776
地前	-10.6779
列名	-10.6779
兜率天	-10.6786
有佛名	-10.6787
無上法	-10.6793
為我說	-10.6794
涅槃云	-10.6805
若能如是	-10.6805
具諸	-10.6808
亦不得	-10.6811
彼佛剎	-10.6811
三世諸佛	-10.6816
皆共	-10.6816
令眾生	-10.6821
賢劫	-10.6831
知我	-10.6834
不恭敬	-10.6839
食已	-10.6841
現見	-10.6841
昧	-10.6843
爾所	-10.6848
井	-10.6849
一面	-10.6849
任	-10.6852
寶華	-10.6856
善丈夫	-10.6858
無受	-10.6859
安處	-10.686
對曰	-10.6861
如來身者	-10.6861
產	-10.6862
廣為	-10.6862
敗	-10.6862
那庾	-10.6864
薩婆若	-10.6866
羸劣	-10.6866
論之	-10.6866
堅持禁戒	-10.6867
誘	-10.6868
為惡	-10.6868
以何緣故	-10.6868
徑	-10.6868
信受奉行	-10.6869
泥洹之道	-10.687
蜜	-10.687
詳	-10.6871
倫	-10.6871
何等為八	-10.6872
極樂國土	-10.6873
伊	-10.6876
諮問	-10.6879
妄言	-10.6883
意菩薩	-10.6885
恐畏	-10.6886
無礙辯	-10.6888
消除	-10.6888
香氣	-10.6889
提婆	-10.6889
疾病	-10.6892
稱佛	-10.6892
二十四	-10.6893
八億	-10.6894
為首	-10.6895
唯然世尊	-10.6898
悅意	-10.6899
譬如虛空	-10.6903
斯為	-10.6908
信根	-10.6909
大丈夫	-10.6911
已見	-10.6911
生死之	-10.6913
不畏	-10.6913
彼心	-10.6913
唯一	-10.6914
何時	-10.6919
諸色	-10.6924
以偈問	-10.6925
如日	-10.6931
之所說	-10.6932
通名	-10.6937
已後	-10.6938
宿世	-10.6941
忍者	-10.6942
修慧	-10.6943
是真	-10.6948
可取	-10.6951
施戒	-10.6952
五百長者	-10.6955
法義	-10.6956
皆見	-10.696
入大乘	-10.6963
相對	-10.6964
其實	-10.6972
不思	-10.6972
皆不可得	-10.6974
栴檀香	-10.6976
十由旬	-10.6976
於地	-10.6982
池者	-10.6983
得安樂	-10.6987
凡夫法	-10.6987
如來了知	-10.6993
如是清淨	-10.6996
得至	-10.6996
執取	-10.6998
於空中	-10.7001
彼佛世尊	-10.7004
調順	-10.7007
智上	-10.7009
病者	-10.7014
同聞	-10.7014
四面	-10.7016
無漏業	-10.7017
來詣	-10.7023
作利益	-10.7024
乃至於	-10.7026
阿羅漢上	-10.7027
無物	-10.7032
須陀洹	-10.7036
妙智	-10.7038
自然去	-10.7041
可畏	-10.7041
妙覺	-10.7042
老病死	-10.7051
本淨	-10.7052
所歸	-10.7059
盈	-10.7063
如來智	-10.7063
雄	-10.7066
維	-10.7066
如是大王	-10.7067
上輩	-10.7073
伎	-10.7075
阿修羅王	-10.7076
為上	-10.7078
無礙解	-10.7078
如海	-10.7085
不應作	-10.7091
覩見	-10.7094
穿	-10.7095
芥子	-10.7095
憍尸迦	-10.7097
再	-10.7097
我有光名	-10.7097
受法	-10.7097
忿	-10.7097
欄楯	-10.7097
右遶三匝	-10.7098
旦	-10.7099
涉	-10.71
私	-10.7102
一切行	-10.7104
相即	-10.7105
大水	-10.7112
略明	-10.7116
證信	-10.7116
若干種	-10.7116
得為	-10.7119
已過去	-10.7119
向佛	-10.712
無義	-10.7121
之苦	-10.7123
天子言	-10.7125
皆如	-10.7126
大梵天王	-10.7128
契經	-10.7132
盈滿	-10.7135
最大	-10.7136
前二	-10.7136
受諸	-10.7138
佛剎土	-10.714
身不	-10.714
於諸有情	-10.714
來集會	-10.714
滅罪	-10.7145
有色	-10.7146
實智	-10.7147
翻為	-10.7149
為喻	-10.7149
業故	-10.7149
我常	-10.7151
是四地	-10.7152
令心	-10.7152
寶積	-10.7155
善安住	-10.7156
樹者	-10.7157
斷故	-10.7161
都無有	-10.7162
行時	-10.7163
無所不	-10.7164
具有	-10.7167
無定	-10.7169
諸聖	-10.7169
活命	-10.7171
苦痛	-10.7176
四禪	-10.718
去家	-10.7183
不死	-10.7183
語者	-10.7185
已曾	-10.7186
染淨	-10.719
復見	-10.7197
寶池	-10.7197
乃得	-10.7198
色者	-10.7198
定慧	-10.72
來生	-10.72
宜應	-10.7202
一切眾會	-10.7208
菩薩所行	-10.7209
十受	-10.7209
行善	-10.7209
理家	-10.7212
戲樂	-10.7212
而不能	-10.7216
取其	-10.7217
非二乘	-10.7218
自覺	-10.7226
愛心	-10.7231
如是所說	-10.7231
宮內	-10.7233
諸苾芻	-10.7234
虛無	-10.7242
汝於	-10.7243
或作	-10.7248
聞正法	-10.7249
莫能	-10.7251
行道	-10.7252
多種	-10.7267
釋也	-10.7268
得成就	-10.7269
香水	-10.7269
應作	-10.7273
聖慧	-10.7278
日夜	-10.7282
其剎	-10.7285
諸佛剎土	-10.7286
飲酒	-10.7292
頂上	-10.7292
自德	-10.7292
有三義	-10.7298
無疲倦	-10.7299
但言	-10.7301
聰	-10.7302
勤修習	-10.7305
德也	-10.7309
尊敬	-10.7311
大雄	-10.7314
彼剎	-10.7315
彼一切	-10.732
如如	-10.7322
阿那含	-10.7322
羯	-10.7325
亦不離	-10.7325
泥犁	-10.7329
朗	-10.7331
常說	-10.7332
素	-10.7333
藝	-10.7334
官	-10.7334
說是語時	-10.7335
是義	-10.7335
得福	-10.7335
生希有心	-10.7335
魔眾	-10.7336
潔白	-10.7337
成無上正真道最正覺	-10.7337
怨敵	-10.7339
菓	-10.7339
菩	-10.734
罰	-10.734
為實	-10.734
覓	-10.734
中有佛項中光明照	-10.7341
糞穢	-10.7342
滴	-10.7342
猶豫	-10.7344
賜	-10.7344
於其中間	-10.7345
稟	-10.7345
染心	-10.7346
佛語阿難	-10.7348
聰慧	-10.7348
喚	-10.7349
池中	-10.7349
從初	-10.7351
何異	-10.7351
中亦	-10.7352
卷第二十	-10.7354
諸妙	-10.7354
加害	-10.7355
證涅槃	-10.7363
空無相	-10.7364
未能	-10.7365
之患	-10.7366
不變	-10.7366
輕安	-10.7366
當於爾時	-10.7372
其王	-10.7373
隨義	-10.7373
所入	-10.7377
願得	-10.7378
智慧者	-10.7378
巧方便	-10.7382
如是等相	-10.7385
諸寶	-10.7386
人趣	-10.7386
希有世尊	-10.7388
之耳	-10.7388
美妙	-10.739
故號	-10.7393
成等正覺	-10.7395
戒法	-10.7396
卷上	-10.7396
應捨	-10.74
攝一切	-10.7401
人皆	-10.7402
卷下	-10.7405
外國	-10.7406
如地	-10.7408
增進	-10.7411
觀世音菩薩	-10.7413
憂苦	-10.7415
如法界	-10.7415
樂器	-10.742
身肉	-10.7429
何等三	-10.743
能仁	-10.743
實有	-10.7435
此間	-10.744
甚大	-10.7442
巳下	-10.7442
有兩	-10.7443
見諦	-10.7446
如所說	-10.7447
既得	-10.745
十惡	-10.7452
向涅槃	-10.7456
復有四	-10.7459
王所	-10.7462
今得	-10.7464
梵眾	-10.7467
為此	-10.7469
當行	-10.7471
文殊師利白佛言	-10.7473
一切如來	-10.7477
微妙法	-10.7481
所轉	-10.7482
涅槃經	-10.7485
若諸菩薩修	-10.7486
捨家	-10.7494
寶莊嚴	-10.7503
身分	-10.7504
別離	-10.7511
如汝	-10.7515
若起	-10.7516
若自	-10.7516
至此	-10.7518
救度	-10.752
作佛事	-10.7522
邊見	-10.7528
火燒	-10.753
無思	-10.7532
不安	-10.7536
於身命	-10.7539
說妙法	-10.7546
遊於	-10.7548
生信解	-10.7548
見之	-10.755
七種	-10.7551
依趣	-10.7551
照耀	-10.7552
欲以	-10.7555
如是無量	-10.7555
菩薩亦復如是	-10.7555
故有退轉	-10.756
何能	-10.7561
善權方便	-10.7563
帳	-10.7564
不可思議功德	-10.7569
恥	-10.757
起大悲心	-10.757
憍	-10.7571
然於	-10.7572
稍	-10.7575
螺	-10.7576
墮惡趣	-10.7576
我有	-10.7578
結加趺坐	-10.7579
香潔	-10.7579
諸漏已盡	-10.758
自性離故	-10.758
關	-10.7581
華座	-10.7581
丈六	-10.7582
稱揚	-10.7582
勵	-10.7583
是名菩薩摩訶薩行於方便	-10.7583
熾	-10.7583
今世	-10.7585
棄捐	-10.7585
無違	-10.7586
溫	-10.7586
應如是學	-10.7586
瓦石	-10.7587
㲉	-10.759
阿含	-10.759
於諸佛	-10.7592
淨妙	-10.7593
!」「	-10.7593
虛假	-10.7594
我生已盡	-10.7595
今以	-10.7597
聞是法已	-10.7598
彼經	-10.7599
悉為	-10.7599
而便	-10.76
文別有	-10.7601
於前	-10.7603
依怙	-10.7604
無主	-10.7604
比尼	-10.7606
此非	-10.7606
能解了	-10.7607
對治彼故	-10.7607
大勢至	-10.7609
大歡喜	-10.761
無障	-10.761
說如來不思議	-10.7611
雪山	-10.7611
妄分別	-10.7614
寶珠	-10.7614
有生	-10.7618
即彼	-10.762
寂光	-10.7622
初觀	-10.7625
而成	-10.7626
經名	-10.7627
無為法	-10.7628
無量阿僧祇	-10.763
最後身	-10.7633
佛法中	-10.7633
於現在世	-10.7634
福行	-10.7636
供具	-10.7637
生疑惑	-10.7639
此意	-10.7641
深經	-10.7643
女身	-10.7648
今讚	-10.7657
圓具	-10.7658
居家菩薩	-10.7661
【	-10.7661
供給	-10.7675
而坐	-10.7679
阿字非	-10.7681
所取	-10.7681
無作者	-10.7689
觀見	-10.769
其本	-10.769
可樂	-10.769
但見	-10.7691
加行	-10.7695
斯乃	-10.7697
咸皆	-10.7697
一切人民	-10.7698
意生	-10.7699
比丘眾	-10.7701
論說	-10.7703
拔苦	-10.7704
去此	-10.7707
以有	-10.7708
所作事	-10.771
所逼	-10.7711
善權	-10.7711
大劫	-10.7714
波若	-10.7715
聞聲	-10.7716
分位	-10.7718
大藥王子	-10.7721
為眾生故	-10.773
苦也	-10.7732
之辭	-10.7732
即與	-10.7733
白銀	-10.7734
善見	-10.7734
眾相	-10.7734
證無上菩提	-10.7741
不能動	-10.7742
若施	-10.7743
般若波羅蜜多	-10.7747
為世	-10.7748
作佛時	-10.7751
等行	-10.7752
名大	-10.7752
彼業	-10.7755
四事	-10.7757
長大	-10.7757
不順	-10.776
無量清淨佛國	-10.7761
於無量	-10.7766
頃	-10.7767
唯願如來	-10.7769
之緣	-10.7772
速證	-10.7776
先舉	-10.7784
四兵	-10.7787
威勢	-10.7797
暴	-10.7803
既言	-10.7807
彼此	-10.7807
福智	-10.7812
住大乘	-10.7815
即告	-10.7816
謂之	-10.7816
觀心	-10.7817
死者	-10.7818
賤	-10.7821
滅無所去	-10.7822
磨	-10.7822
見諸佛	-10.7823
佛世界	-10.7824
苾芻眾	-10.7824
帶	-10.7825
卒	-10.7825
四大天王	-10.7827
捐	-10.7828
乃至一切	-10.7829
百千俱胝	-10.783
險難	-10.783
曠	-10.783
最後識滅	-10.783
驅	-10.7831
令諸菩薩	-10.7831
瑕穢	-10.7832
猗	-10.7833
寶網	-10.7834
寬	-10.7835
毘鉢舍那	-10.7836
慳嫉	-10.7836
分衛	-10.7836
任運	-10.7837
如說修行	-10.7838
旒蘇	-10.7839
隨眠	-10.7839
報言	-10.7839
張	-10.784
補處	-10.7841
線	-10.7841
堅牢	-10.7842
枯	-10.7842
斯法	-10.7843
佛住	-10.7843
發勤精進	-10.7844
眾聖	-10.7844
師子勇猛	-10.7845
死生	-10.7846
心懷	-10.7848
稱說	-10.7849
就此	-10.785
三千界	-10.7851
往至	-10.7852
定心	-10.7852
惱害	-10.7855
不住於	-10.7855
聞彼	-10.7856
主故	-10.7859
不計	-10.7861
一切苦	-10.7863
一切眾	-10.7864
汝可	-10.7873
愚癡凡夫	-10.7875
意者	-10.7878
當如是知	-10.7879
堪忍	-10.7881
阿難言	-10.7883
隨機	-10.7885
四乘	-10.7889
若使	-10.7892
勸化	-10.7893
不喜	-10.7894
於斯	-10.7895
億那由他	-10.7896
聲聞獨覺	-10.7896
今現在	-10.7902
識知	-10.7904
其佛剎	-10.7905
命欲終時	-10.791
自下第三	-10.7917
施等	-10.792
阿闍世王	-10.7923
於有	-10.7924
其行	-10.7926
初一	-10.7927
設有	-10.7929
隨緣	-10.7931
重罪	-10.7934
來集	-10.7936
宿住	-10.7936
與諸菩薩	-10.7936
而取	-10.7938
猶有	-10.794
天華	-10.7942
變易生死	-10.7947
作用	-10.7948
當得阿耨多羅三藐三菩提	-10.795
五力	-10.7951
金剛心	-10.7956
若諸菩薩摩訶薩	-10.7959
譽	-10.796
證於	-10.7961
手執	-10.7965
無取無	-10.7976
諸蘊	-10.7977
諸法皆	-10.7984
一切悉	-10.7991
吾當	-10.7996
至佛所	-10.7997
八戒	-10.7998
定力	-10.7999
之慧	-10.8004
堅住	-10.8004
總標	-10.8005
度世	-10.8009
五痛	-10.801
不造	-10.8011
六種	-10.8013
能令眾生	-10.8016
大雲	-10.8018
說名為	-10.8018
正直	-10.8019
問我	-10.8019
入定	-10.802
是七地	-10.8023
讚佛	-10.8023
可解	-10.803
入一	-10.8033
諸山	-10.8033
或說	-10.8037
一切有為	-10.8042
八百	-10.8043
菩提之心	-10.8044
有所作	-10.8046
五燒	-10.8046
告族姓子	-10.8047
道故	-10.805
不退轉地	-10.805
大雨	-10.8055
能起	-10.8058
八十億	-10.806
諸眷屬	-10.806
不可數	-10.8065
犬	-10.8067
今是	-10.8073
莊飾	-10.8076
奉獻	-10.8079
話	-10.8081
親近供養	-10.8082
囊	-10.8083
暉	-10.8083
春	-10.8083
長壽	-10.8084
醉	-10.8084
呵責	-10.8085
隣	-10.8085
長跪叉手	-10.8085
怡	-10.8086
涼	-10.8086
娑羅	-10.8086
整	-10.8086
梁	-10.8087
壯	-10.8087
狹	-10.8088
呬	-10.8089
汁	-10.8089
佛說此經已	-10.809
大名稱	-10.8091
孔雀	-10.8091
曼陀羅花	-10.8091
支節	-10.8091
貝	-10.8092
芽	-10.8093
薪	-10.8093
地方	-10.8093
玉女	-10.8094
觀於	-10.8095
剛強	-10.8095
]	-10.8096
獼猴	-10.8097
養育	-10.8097
崇	-10.8098
位中	-10.8099
右手	-10.81
伸供養	-10.81
敬信	-10.8102
真陀羅	-10.8103
往古	-10.8103
捨身命	-10.8103
與樂	-10.8104
衣鉢	-10.8104
作沙門	-10.8105
說此法時	-10.8108
無義利	-10.811
稱名	-10.8111
菩薩法	-10.8112
愍念	-10.8112
佛語迦葉	-10.8117
有常	-10.8121
須彌山王	-10.8121
唯有如來	-10.8122
聞是經	-10.8123
我心	-10.8125
勸人	-10.8129
其子	-10.813
皆發無上正真道意	-10.813
善順	-10.8133
諸陰	-10.8134
謗法	-10.8135
出家者	-10.8135
六塵	-10.8137
含識	-10.8138
述成	-10.814
受報	-10.8141
觀成	-10.8142
聲聞法	-10.8142
爾時世尊重	-10.8143
文句	-10.8143
愍傷	-10.8145
所能	-10.815
獲得如是	-10.8155
良醫	-10.8155
一由旬	-10.8159
不受後有智	-10.8159
苦果	-10.816
一門	-10.8161
潔	-10.8161
當修	-10.8162
知已	-10.8163
初句	-10.8164
是道	-10.817
適意	-10.8171
開覺	-10.8172
法無我	-10.8172
善惡業	-10.8175
以何等	-10.8176
黃金為	-10.8178
初住	-10.818
心起	-10.818
業力	-10.8181
所著	-10.8189
化現	-10.8192
其母	-10.8193
方便者	-10.8195
貪行	-10.8199
眾魔	-10.82
能入	-10.8202
菩薩以	-10.8206
一義	-10.8206
已還	-10.8207
入胎	-10.8213
聞如來	-10.8215
覆護	-10.8219
為之	-10.8219
後二	-10.822
即是如來	-10.8222
百種	-10.8224
是總	-10.8227
妙寶	-10.8227
若有人	-10.8228
如是等法	-10.8229
文義	-10.8231
護正法	-10.8236
說於	-10.8239
別異	-10.8241
正真	-10.8242
其城	-10.8248
無等等	-10.8249
我能	-10.8252
覆障	-10.8253
為斷	-10.8255
獨處	-10.8256
出聲	-10.8261
大利	-10.8262
居士	-10.8262
合上	-10.8266
不堅	-10.8279
為勝	-10.8282
是八地	-10.8293
其前	-10.8295
順法	-10.8298
正知	-10.83
菩薩有四	-10.8301
作是觀	-10.8302
獲大	-10.8303
普光	-10.8305
五住	-10.8305
行列	-10.8307
少法	-10.8308
既有	-10.8308
別釋	-10.8309
利益他	-10.8309
永無	-10.8309
愚者	-10.8311
是何	-10.8316
此四法	-10.8326
此為	-10.8328
毫	-10.8331
若知	-10.8332
眾行	-10.8334
復有三	-10.8335
所有善根	-10.8336
合前	-10.8336
出於	-10.8336
憐	-10.8338
甚可愛樂	-10.8341
曼	-10.8342
王舍大城	-10.8342
責	-10.8342
脚	-10.8343
餓	-10.8343
黎	-10.8345
眉間	-10.8345
姝好	-10.8346
漢	-10.8347
逸	-10.8348
洞	-10.8348
豈有	-10.8349
而以	-10.8349
英	-10.835
城邑聚落	-10.835
是二地	-10.8351
說是法時	-10.8351
亦隨	-10.8351
該	-10.8352
輝	-10.8353
懺	-10.8353
渠	-10.8354
是諸佛	-10.8354
噵	-10.8354
抱	-10.8354
甚為希有	-10.8355
吒	-10.8356
毘婆舍那	-10.8358
禮佛	-10.8359
七覺	-10.836
渡	-10.8361
皆已	-10.8361
湛然	-10.8362
快善	-10.8362
貪婬	-10.8366
五百馬	-10.8367
是故說	-10.8369
淺深	-10.8369
述云此第四	-10.8373
能離	-10.8376
殺者	-10.8377
阿者非	-10.8379
遠近	-10.8381
阿彌陀經	-10.8382
堅持	-10.8385
當為汝說	-10.8389
聲聞弟子	-10.8394
智慧勇猛	-10.8396
於內	-10.8396
覺者	-10.8398
沙門法	-10.8399
來至此	-10.8402
心觀	-10.8403
億萬	-10.8404
生死苦	-10.8408
賢劫中	-10.8409
爾時菩薩	-10.841
發起精進	-10.8413
右脇	-10.8419
此亦如是	-10.8428
常應	-10.8431
住不退轉	-10.8439
限量	-10.8444
能解	-10.8447
生死者	-10.8449
明達	-10.845
有四種法	-10.8452
三昧門	-10.8452
十俱胝	-10.8454
眾妙	-10.8454
隨覺	-10.8455
等觀	-10.8456
明鏡	-10.8462
幡蓋	-10.8463
離分別	-10.8464
象王	-10.8465
寶地	-10.8465
受之	-10.8466
所明	-10.847
覺支	-10.847
神識	-10.8474
初禪	-10.8478
佛與	-10.8483
白世尊	-10.8488
如說	-10.8489
身量	-10.849
世間人	-10.849
四依	-10.8493
化物	-10.8498
生彼土	-10.8499
大施	-10.8502
上中下	-10.8506
園中	-10.8508
如風	-10.8513
諸佛菩薩	-10.8513
無記	-10.8514
無一	-10.8515
麁惡	-10.8515
勸信	-10.8518
其德	-10.852
其後	-10.8528
墮地	-10.853
佛慧	-10.8532
邪正	-10.8532
即作是念	-10.8539
分別說	-10.8543
此菩薩是	-10.8553
大覺	-10.8553
若論	-10.8556
我本	-10.8559
不謗	-10.8566
王城	-10.8566
攝諸	-10.8571
或於	-10.8572
意念	-10.8573
無益	-10.8575
貪求	-10.8575
「『	-10.8576
匝	-10.8577
諸佛剎	-10.8578
名無差別	-10.8579
女色	-10.8581
亦非無	-10.8585
見諸	-10.8591
從於	-10.8593
善因	-10.8595
現生	-10.8597
釋迦牟尼佛	-10.8598
皆依	-10.8602
經中說	-10.8604
之與	-10.8607
隨佛	-10.8608
成就四法	-10.8611
秋	-10.8612
辛	-10.8613
白玉	-10.8613
扶	-10.8616
遶佛三匝	-10.8617
饍	-10.8617
不能了	-10.8617
具大	-10.8617
兜率陀天	-10.8617
無有作業者	-10.8618
渴愛	-10.8619
淨智	-10.8619
黠	-10.8619
當爾之時	-10.862
誤	-10.862
煖	-10.8621
彼後識	-10.8621
荷負	-10.8621
能盡	-10.8622
綖	-10.8622
低	-10.8622
毒蛇	-10.8623
佛威神	-10.8624
叢林	-10.8624
湯藥	-10.8624
成就故	-10.8625
過去諸佛	-10.8625
灰	-10.8625
願欲	-10.8626
淨無垢寶月王光	-10.8626
澁	-10.8626
吞	-10.8628
命終之後	-10.8628
佛即	-10.8628
尸羅波羅蜜多	-10.8628
渧	-10.8628
村	-10.8629
如天	-10.8629
此語	-10.863
住阿練兒處	-10.8634
麻	-10.8636
濁惡	-10.864
入母胎	-10.864
憶持	-10.8644
知眼	-10.8646
剎利	-10.8647
演法	-10.8652
菩薩乘人	-10.8653
發道意	-10.8655
行七步	-10.8656
若有得聞	-10.8658
舍衛國	-10.8659
於涅槃	-10.8661
為主	-10.8662
恩德	-10.8665
非無因	-10.8667
賢善	-10.8673
慧根	-10.8676
復次文殊師利	-10.8677
住在	-10.8678
本空	-10.8683
正因	-10.8686
眾鳥	-10.8686
梵天王	-10.8687
阿彌陀如來	-10.8689
即非	-10.8695
方便善巧	-10.8696
發道心	-10.8697
大論	-10.8698
廣多	-10.87
於虛空	-10.8702
不名淨	-10.8703
寧可	-10.8704
十法	-10.8706
則以	-10.8709
次說	-10.871
我觀	-10.8713
不證	-10.8719
卷第三十	-10.8719
見人	-10.8723
柔	-10.8728
不可量	-10.8734
於色	-10.8735
世間眾生	-10.8737
讚言	-10.874
無忘失	-10.874
略舉	-10.8741
舍衛城	-10.8744
富樂	-10.8744
現此	-10.8745
毒箭	-10.8748
中無有	-10.8748
無餘涅槃	-10.875
所有諸	-10.8753
是為三	-10.8756
海水	-10.8759
不顛倒	-10.8763
心得解脫	-10.8764
五欲樂	-10.8766
爾時彼	-10.877
不曾	-10.8772
利智	-10.8775
謂為	-10.8778
眾僧	-10.8778
見故	-10.8781
已度	-10.8782
闍王	-10.8783
幾何	-10.8784
悉是	-10.8784
合為	-10.8791
無由	-10.8793
八難	-10.8794
世間法	-10.8795
諸佛土	-10.8797
大海水	-10.8798
二百五十	-10.8799
中初言	-10.8799
電光	-10.8805
勝功德	-10.8808
香味	-10.8813
若菩薩摩訶薩	-10.8813
五人	-10.8813
不能自	-10.8814
謂言	-10.8818
取捨	-10.8821
善了知	-10.8822
肉眼	-10.8823
有智	-10.8826
則知	-10.8826
無命	-10.8828
聲聞辟支佛	-10.8829
能證	-10.8833
恒常	-10.8835
是苦	-10.8838
難解	-10.8839
先世	-10.8839
彼佛前有	-10.8841
若就	-10.8843
商	-10.8847
聞慧	-10.8848
之益	-10.8851
所有功德	-10.8851
諸法門	-10.8859
云何名為菩薩摩訶薩	-10.8871
得無垢	-10.8872
肆	-10.8875
中上	-10.8878
智者不	-10.8879
與大比丘眾	-10.8879
曳	-10.888
誑惑	-10.8881
陀羅	-10.8884
結集	-10.8884
誐	-10.8885
硨磲	-10.8888
三十七	-10.8889
交絡	-10.889
安樂國	-10.889
癡行	-10.8893
腰	-10.8894
紺	-10.8894
與其眷屬	-10.8894
痛痒	-10.8894
斯陀含	-10.8895
知止足	-10.8895
頸	-10.8895
軌	-10.8896
泉	-10.8897
寒熱	-10.8897
於上	-10.8898
竊	-10.8899
聞是語已	-10.8899
繞佛三匝	-10.8899
隆	-10.8899
清淨法	-10.89
漂	-10.89
溺	-10.89
境界如夢	-10.8902
析	-10.8902
滯	-10.8904
隨諸眾生	-10.8904
誼	-10.8904
是空	-10.8904
貪恚癡	-10.8905
面目	-10.8905
檀波羅蜜	-10.8906
婦女	-10.8906
不應生	-10.8908
八部	-10.8909
善法堂	-10.891
逕	-10.8911
付屬	-10.8911
謂離	-10.8911
住此	-10.8912
追求	-10.8912
右旋	-10.8912
鈍根	-10.8913
神通變化	-10.8914
目之為	-10.8914
大善	-10.8917
變為	-10.8917
若復有	-10.8917
便為	-10.8918
食時	-10.8919
毒藥	-10.8919
無所動	-10.8919
乃爾	-10.8921
來詣佛所	-10.8922
聰明	-10.8922
已能	-10.8922
萬六千	-10.8923
信力	-10.8923
堪能	-10.8923
勸發	-10.8925
云何如來	-10.8926
憎愛	-10.8927
依法	-10.8927
爾時佛告	-10.8928
欲生	-10.8929
所詮	-10.8935
正法滅	-10.8941
須達	-10.8942
無名	-10.8942
方廣	-10.8944
分二	-10.8945
違逆	-10.8948
我得菩提	-10.8952
三途	-10.8953
定意	-10.8955
正業	-10.8955
以能	-10.8956
賢者舍利弗	-10.8957
當觀	-10.8959
長老舍利弗	-10.8964
流注	-10.8967
諸罪	-10.8968
正宗	-10.8972
句義	-10.8974
斷煩惱	-10.8976
若斯	-10.8977
發大心	-10.8982
遊入	-10.8986
精進行	-10.8989
光普照	-10.8993
無法可	-10.8996
塵垢	-10.8997
世王	-10.8998
四寶	-10.8999
經於	-10.9002
結縛	-10.9004
不能見	-10.9007
而令	-10.9007
以上	-10.9008
說偈	-10.9009
文也	-10.9009
超勝	-10.9009
願令	-10.9009
心得	-10.901
作是觀者	-10.9016
具足如是	-10.9017
隨眾生	-10.9017
令汝	-10.9023
頗有	-10.9027
求出離	-10.9029
次有	-10.9029
勝劣	-10.9035
復得	-10.9035
則於	-10.9039
汝能	-10.9042
妄生	-10.9043
十方界	-10.9049
所集	-10.9052
而今	-10.9057
離過	-10.9058
無信	-10.9059
此是菩薩	-10.906
坐臥	-10.9061
迴向菩提	-10.9062
無退轉	-10.9063
時分	-10.9064
未曾見	-10.9071
心大歡喜	-10.9073
初舉	-10.9076
聖智	-10.9076
與其	-10.9086
法住	-10.9089
千子	-10.9091
眼根	-10.9093
如火	-10.9093
會中有	-10.9094
離苦	-10.9102
深義	-10.9108
命者	-10.9108
未知	-10.9115
真實功德	-10.9116
是菩提	-10.9117
一切眾生心	-10.9121
大甲冑	-10.9122
高廣	-10.913
色聲香味觸	-10.9133
六年	-10.9136
人見	-10.9136
初示	-10.9147
心已	-10.9147
教他	-10.9147
是別	-10.9151
明見	-10.9152
但能	-10.9159
以明	-10.9161
誨	-10.9163
鬚髮	-10.9165
如來於此	-10.9167
言之	-10.9167
如佛所	-10.9168
駕	-10.9169
智度論	-10.9172
師子之座	-10.9174
發希有想	-10.9175
奢	-10.9175
金剛杵	-10.9176
祕	-10.9176
閣	-10.9176
我從今日	-10.9178
槃	-10.918
輪寶	-10.918
次復有	-10.918
四十里	-10.9182
三摩呬多	-10.9182
苑	-10.9182
銅	-10.9182
鄙	-10.9183
佉	-10.9183
聚沫	-10.9184
虧	-10.9185
淚	-10.9186
寫	-10.9186
遍覆三千大千世界	-10.9186
於當來世	-10.9186
忿恚	-10.9187
宣揚	-10.9188
明慧	-10.9188
荒	-10.9189
紫金	-10.9189
塔廟	-10.9189
馳走	-10.919
法藏比丘	-10.919
精勤修習	-10.919
大目乾連	-10.9193
人中師子	-10.9193
s	-10.9195
攝化	-10.9195
墮於地獄	-10.9195
隱沒	-10.9196
非有非無	-10.9197
娜謨	-10.9198
婆沙	-10.9199
歡樂	-10.9199
殑伽沙數	-10.92
作供養已	-10.9202
難思議	-10.9203
愚癡人	-10.9203
三千世界	-10.9204
心喜	-10.9207
為依	-10.9207
非離	-10.9208
巧妙	-10.921
妙莊嚴	-10.9211
若有菩薩摩訶薩	-10.9212
行處	-10.9212
總別	-10.9218
則得	-10.9221
宣布	-10.9222
惡見	-10.9222
善臂	-10.9223
雖在	-10.9223
四地	-10.9226
之子	-10.9228
聚會	-10.9228
福聚	-10.923
繫著	-10.9231
時佛	-10.9232
一類	-10.9234
滿月	-10.9234
別相	-10.9245
一身	-10.9245
惠施	-10.9245
下中上	-10.9245
聖種	-10.9246
天衣	-10.9248
別序	-10.9249
堪受	-10.9253
顯說	-10.9256
所止	-10.9265
二觀	-10.9267
無罪	-10.9272
吾今	-10.9272
無不具足	-10.9274
故稱為	-10.9275
菩薩爾時	-10.9278
奇哉	-10.928
海中	-10.928
不聽	-10.9281
釋成	-10.9287
諸願	-10.9289
身行	-10.9293
二十二	-10.9293
無因	-10.9294
諸事	-10.9296
正語	-10.9297
而能了知	-10.93
以大悲	-10.9306
現行	-10.9306
三萬二千	-10.9307
以神力	-10.9309
日觀	-10.9309
應化	-10.9315
自思惟	-10.9317
一眾生	-10.9319
深重	-10.9325
結也	-10.9326
樂睡眠	-10.9326
世間人民	-10.933
見取	-10.9331
有形	-10.9332
無功用	-10.9342
應言	-10.9351
世所	-10.9353
三福	-10.9355
二相	-10.9359
不疑	-10.9366
無過	-10.9368
歎其	-10.9372
諸天及人	-10.9376
等相	-10.9376
若諸有情	-10.9379
說經法	-10.938
之文	-10.9382
聖諦者	-10.9382
非處	-10.9383
同行	-10.9384
一切諸眾生	-10.9384
大寶	-10.9384
普見	-10.939
於此法門	-10.939
是為四法	-10.9394
舉佛	-10.9396
復令	-10.9397
我今當	-10.9399
因行	-10.94
力用	-10.9408
皆無	-10.9408
眾生類	-10.941
亦同	-10.9411
若已	-10.9411
無執	-10.9413
更生	-10.9416
雖行	-10.9417
聞斯	-10.9421
不達	-10.9423
當受	-10.9425
得安隱	-10.9429
般	-10.943
色心	-10.9431
以施	-10.9432
諸不善	-10.9441
但明	-10.9441
五趣	-10.9441
佛光	-10.9445
六種震動	-10.9445
算	-10.9448
以身	-10.9448
間錯	-10.9451
三結	-10.9451
具戒	-10.9454
咎	-10.9456
十信	-10.946
亦知	-10.946
自分	-10.9465
揭	-10.9466
入大	-10.9467
孝	-10.9467
猪	-10.9467
法寶	-10.9468
應當如是	-10.9468
今說	-10.9468
阿逸菩薩	-10.9469
七日處母胎時	-10.947
少欲知足	-10.947
慰	-10.947
緣現微笑	-10.9471
應是	-10.9471
是人覺已	-10.9471
慾	-10.9472
百千歲	-10.9472
百千億萬倍	-10.9473
成就深心	-10.9474
掃	-10.9475
齋	-10.9476
即名	-10.9477
薰	-10.9478
歸依如來	-10.9478
工	-10.9478
是為菩薩善權方便	-10.9479
天竺	-10.9479
嬉戲	-10.9481
心之所念	-10.9481
正解	-10.9481
野干	-10.9483
江河沙	-10.9483
不增不減	-10.9483
諸根如幻	-10.9484
谷	-10.9484
所由	-10.9485
勝義諦	-10.9485
繫屬	-10.9487
為化	-10.9487
我從今日乃至菩提	-10.9488
象馬	-10.9488
療治	-10.9489
當證	-10.9489
大義	-10.9491
靜慮波羅蜜多	-10.9492
劫濁	-10.9492
勢至	-10.9493
難可了知	-10.9493
百分不及一	-10.9493
隨順法智	-10.9493
於佛如來	-10.9494
資財	-10.9495
六度無極	-10.9498
往詣佛所	-10.9498
下賤	-10.9499
心自念言	-10.9499
願行	-10.9501
化樂天	-10.9504
出家受具足	-10.9505
唯有一	-10.9506
審諦	-10.9507
意欲	-10.9508
天雨	-10.951
不執	-10.9515
侍從	-10.952
大身	-10.9521
日出	-10.9521
悉如實知	-10.9523
為正	-10.9526
亦名為	-10.9526
不論	-10.9526
所識	-10.9526
聖果	-10.9529
種種色	-10.9532
眾色	-10.9535
毀戒	-10.9538
自度	-10.9538
劫成	-10.9539
何須	-10.9546
盡其	-10.9546
靡	-10.9547
於此法	-10.9554
不明	-10.9556
造立	-10.9558
往生者	-10.956
劫名	-10.9566
既知	-10.9566
無有一法	-10.9567
是五地	-10.9568
此世界	-10.9569
雷音	-10.9569
白銀為	-10.957
何等法	-10.957
爾時如來	-10.9575
空者	-10.9576
非真實	-10.958
聞此經	-10.9581
不殺	-10.9586
青色	-10.9588
淨名	-10.959
摧滅	-10.9593
生彼國者	-10.9596
圓成	-10.9597
餘三	-10.9597
悉見	-10.9598
自稱	-10.9599
還歸	-10.96
雷	-10.9601
修福	-10.9604
俱胝那由他	-10.9605
難值	-10.9614
是故我今	-10.9614
於我所	-10.9618
得無上菩提	-10.9619
白淨	-10.9623
五神通	-10.9624
於來世	-10.9624
人壽命	-10.9625
甚奇	-10.9627
三垢	-10.9633
以一切法	-10.9637
受其	-10.9638
說諸法	-10.964
皆當往生	-10.9643
所作業	-10.9647
便能	-10.965
得於	-10.9654
與人	-10.9659
一雙	-10.9659
怯弱	-10.967
其過	-10.9674
三時	-10.9674
千億	-10.9682
說諸	-10.9685
如我所	-10.9693
水火	-10.9698
相現	-10.9699
若生	-10.9701
眷屬自	-10.9702
三月	-10.9704
皆同	-10.9707
佛壽	-10.9708
愛染	-10.9716
今既	-10.972
能發	-10.9726
於今	-10.9727
生厭離	-10.9732
嚴身	-10.9733
同異	-10.9733
能修	-10.9739
羅云	-10.975
眾事	-10.9751
六通	-10.9752
聖王	-10.9754
又若	-10.9758
欲度	-10.9759
當見	-10.976
如來於彼	-10.9763
四名	-10.977
願樂	-10.9771
覲	-10.9772
有佛性	-10.9772
八方上下	-10.9772
嬈亂	-10.9773
大菩薩藏微妙法門	-10.9774
菩薩若夢中	-10.9775
官屬	-10.9776
念夢中事	-10.9776
供養已	-10.9777
正是	-10.9777
基	-10.9777
佛復告	-10.9777
耆闍	-10.9777
愚夫異生	-10.9777
浴	-10.9778
忿怒	-10.9779
育	-10.9779
祇陀	-10.978
却坐一面	-10.978
借	-10.9781
尊者護國	-10.9781
包	-10.9781
焚	-10.9781
諮嗟	-10.9781
叵	-10.9782
練	-10.9784
胸	-10.9784
三界外	-10.9784
峯	-10.9784
敏	-10.9785
聾	-10.9786
竪	-10.9787
豆	-10.9787
潤澤	-10.9787
旃陀羅	-10.9788
上來明	-10.9789
超越分別	-10.9789
揵沓和	-10.9789
憂愁	-10.9789
胞胎	-10.9792
最為第一	-10.9792
為沙門	-10.9795
鑒	-10.9795
因生	-10.9796
佛告阿難及韋提希	-10.9797
於長夜中	-10.9803
決了	-10.9803
語已	-10.9804
形貌	-10.9804
口出	-10.9806
詣彼	-10.9808
華德藏	-10.9808
一切諸法無	-10.9808
生執著	-10.9813
成也	-10.9817
名說	-10.9821
智斷	-10.9821
二十一	-10.9821
要須	-10.9822
雨華	-10.9822
薩埵	-10.9825
念力	-10.9828
意在	-10.9828
分段死	-10.9833
并餘	-10.9834
無住處	-10.9837
違諍	-10.9839
除去	-10.984
面門	-10.9846
諸波羅蜜	-10.9849
自大	-10.9849
有信	-10.9851
法樂	-10.9851
如實修行	-10.9852
次觀	-10.9853
之曰	-10.9853
一切凡夫	-10.9854
所得功德	-10.9862
高勝	-10.9863
上方	-10.9865
智行	-10.9865
瞋癡	-10.9871
增語	-10.9873
世界中	-10.9873
初心	-10.9875
輪轉	-10.9876
諸法自性	-10.988
佛於	-10.988
貧人	-10.9881
後當	-10.9882
發精進	-10.9883
亦不生	-10.9884
內有	-10.9885
無所染	-10.9885
第三結	-10.9886
見諸法	-10.9886
亦不然	-10.989
彰彼	-10.9892
邊地	-10.9893
乃至意	-10.9894
妙花如來	-10.9896
利物	-10.9899
法體	-10.9899
學人	-10.9901
法服	-10.9902
別名	-10.9903
利益一切諸	-10.9903
法華論	-10.9904
則無有	-10.9905
實非	-10.9908
自作	-10.9912
致使	-10.9915
增勝	-10.9915
覺意	-10.9915
明照	-10.9915
具說	-10.9916
億那由他百千	-10.9921
亦復無	-10.9921
時眾	-10.9925
是為菩薩摩訶薩	-10.9926
第二釋	-10.9928
彼苾芻	-10.9934
無所分別	-10.9936
邪定	-10.9936
解者	-10.9937
釋名	-10.9941
於諸佛所	-10.9942
眾具	-10.9943
性平等	-10.9946
我若	-10.9947
世有	-10.9949
正法住	-10.995
一切時	-10.995
無分別者	-10.995
之用	-10.9954
修戒	-10.9958
第四從	-10.9965
眾生令	-10.9967
超過一切	-10.9973
是六地	-10.9974
後身	-10.9975
施作	-10.9977
慧上	-10.9977
善哉世尊	-10.9979
超出	-10.9981
即白佛言	-10.9981
大莊嚴	-10.9986
有恐怖	-10.9988
于時	-10.9989
之報	-10.9991
教行	-10.9994
既無	-10.9996
而轉	-10.9996
彌陀佛	-10.9998
生驚怖	-11.0012
使我	-11.0013
發聲	-11.0015
之難	-11.0016
餘處	-11.0017
之稱	-11.0018
最正覺	-11.0019
求解脫	-11.0019
是經典	-11.0022
行天子	-11.0023
迎接	-11.0025
雨天	-11.0027
一一皆	-11.003
所纏	-11.0031
復現	-11.0032
一切世間天	-11.0034
大經	-11.0039
食者	-11.004
寶蓮華	-11.0045
身子	-11.0046
修諸行	-11.0047
之音	-11.0047
不思議法	-11.0048
離諸疑惑	-11.0054
從人	-11.0055
有限	-11.0056
高大	-11.0057
迦花	-11.0059
諸國	-11.0062
尋時	-11.0062
諸大聲聞	-11.0062
及能	-11.0066
本有	-11.0068
他世	-11.0068
解知	-11.0068
不具足	-11.0069
是沙門垢	-11.0074
之器	-11.0076
問如來	-11.0078
厄	-11.0079
細滑	-11.008
有種種	-11.0082
赤真珠	-11.0083
其水底沙	-11.0083
當云何	-11.0083
婆伽婆	-11.0084
鷲	-11.0084
皆應	-11.0084
丈	-11.0085
諸法平等	-11.0085
復起	-11.0086
挍	-11.0087
攬	-11.0088
諸供養	-11.0088
出家人	-11.0088
怛薩阿竭	-11.0089
奔	-11.009
蕩	-11.0091
喪	-11.0092
冀	-11.0092
姟	-11.0093
虗	-11.0094
屋	-11.0094
一切諸佛所護念經	-11.0095
訓誨	-11.0095
除愈	-11.0096
右繞三匝	-11.0096
牆壁	-11.0096
有三昧名	-11.0096
未甞	-11.0097
酪	-11.0097
五地	-11.0099
種智	-11.01
後釋	-11.01
超絕	-11.01
輕賤	-11.01
稻	-11.0101
經等	-11.0103
廣為人說	-11.0103
蜂	-11.0104
貯	-11.0104
*	-11.0104
密迹	-11.0106
唯說	-11.0106
輕毀	-11.0107
等遊	-11.0108
弭	-11.0109
莊嚴具	-11.0109
迴轉	-11.011
多羅	-11.011
出於世	-11.0111
三惡趣	-11.0112
受教	-11.0112
開明	-11.0112
應觀	-11.0114
可度者	-11.0115
淨光	-11.0115
諸子	-11.0118
佛也	-11.0118
眾等	-11.0118
可說	-11.0119
大喜	-11.012
厭苦	-11.0121
我時	-11.0123
進止	-11.0124
堅強	-11.0125
虛妄分別	-11.0126
髻菩薩	-11.0128
常所	-11.0129
出現世間	-11.013
坐道場	-11.0132
即於佛前	-11.0134
或如	-11.0135
真金	-11.0135
我欲	-11.0138
結示	-11.014
長時	-11.0143
輕重	-11.0145
雜亂	-11.0147
缺減	-11.0149
未久	-11.0151
是方便	-11.0156
博聞	-11.0157
所學	-11.0158
非真	-11.0158
行攝	-11.016
諸病	-11.0167
此諸菩薩	-11.0168
生人中	-11.0169
不調	-11.017
尋求	-11.0174
無優劣	-11.0174
深遠	-11.0176
未至	-11.0176
隨宜	-11.0177
俱胝那庾多百千	-11.0179
如是展轉	-11.0179
我今為汝	-11.0179
分段生死	-11.0179
光明普照	-11.018
覆其上	-11.0184
諸法實相	-11.0188
百千俱胝那由他	-11.0189
無有障礙	-11.0193
正勸	-11.0193
終無有	-11.0195
此地	-11.02
一切天人	-11.0204
心相	-11.0209
無有分別	-11.0211
自然智	-11.0212
十種功德	-11.0218
得不退	-11.0222
持戒者	-11.0222
十號	-11.0226
生愛著	-11.0227
作何	-11.0231
以智慧	-11.0233
然後乃	-11.0236
諸天女	-11.024
常精進	-11.0241
力勢	-11.0243
欲取	-11.0245
地者	-11.0251
行忍辱	-11.0252
信敬	-11.0253
中住	-11.0258
貪瞋癡等	-11.0259
應念	-11.026
二十三	-11.026
異相	-11.0266
金剛手菩薩	-11.027
去來今	-11.0271
爾時文殊師利	-11.0272
邪法	-11.0272
菩提心者	-11.0273
不忍	-11.0276
斯道	-11.0278
受行	-11.0281
此心	-11.0281
或可	-11.0282
欲令眾生	-11.0286
常與	-11.0299
無量光	-11.03
眼等	-11.0301
甚可	-11.0302
無體	-11.0302
彼若	-11.0304
欲想	-11.0306
老病	-11.0307
旋轉	-11.0313
彼諸天子	-11.0314
所疑	-11.0315
毛孔	-11.0319
悕求	-11.0321
之樂	-11.0326
受於	-11.0329
止觀	-11.0331
我從	-11.0334
就第一	-11.0335
生分	-11.0336
一分	-11.0341
如涅槃	-11.0342
不可取	-11.0343
非時	-11.0346
正意	-11.0347
途	-11.0356
愁憂	-11.036
求涅槃	-11.0362
未必	-11.0363
不見佛	-11.0363
淨飯王	-11.0366
樂音	-11.037
後之	-11.037
修成	-11.0373
是即	-11.0373
有身見	-11.0374
優劣	-11.0375
二門	-11.0375
弁	-11.0376
所讚	-11.0378
能化	-11.0384
初二	-11.0387
復有二	-11.0387
從天	-11.0389
受苦惱	-11.0392
躰	-11.0392
攝法	-11.0393
佛力	-11.0394
無數百千	-11.0396
令不	-11.0398
修作	-11.0399
滅惡	-11.0399
錢	-11.04
生我國	-11.04
伺	-11.0402
作師子吼	-11.0402
江	-11.0403
以手	-11.0405
勝故	-11.0405
生老病死	-11.0406
受此	-11.0406
福焰王子	-11.0407
市	-11.0408
的	-11.0409
已便	-11.0409
宇	-11.0409
屠	-11.041
等意分別	-11.0411
飛鳥	-11.0411
瑩	-11.0412
擾	-11.0412
策	-11.0414
目犍連	-11.0414
弄	-11.0415
專精	-11.0416
買	-11.0417
各有上中下	-11.0417
洪	-11.0418
捨身命財	-11.0418
閻浮檀金	-11.0419
檀越	-11.042
此義不然	-11.042
稽首佛足	-11.042
西天譯經三藏朝散大夫試光祿卿	-11.042
禍	-11.042
無邊功德	-11.0421
尋伺	-11.0421
沈水	-11.0423
膿血	-11.0423
萬億	-11.0424
迅速	-11.0424
所言止者	-11.0425
重閣	-11.0426
封	-11.0426
不能令	-11.0426
客	-11.0426
護持正法	-11.0427
尚無	-11.0428
吉利	-11.0428
發起序	-11.0428
群品	-11.0429
迴向阿耨多羅三藐三菩提	-11.0429
悔恨	-11.043
諂誑	-11.0431
手中	-11.0431
殑伽沙等	-11.0432
於己	-11.0432
是眾生	-11.0432
迷亂	-11.0434
此會	-11.0435
有分別者	-11.0436
欣悅	-11.0437
若有善男子善女人	-11.0441
遇善知識	-11.0445
報佛	-11.0446
維摩	-11.0447
無覺	-11.0447
如師子	-11.0448
由如是故	-11.0448
彼一切法	-11.0451
我於往昔	-11.0452
於非	-11.0454
近止	-11.0455
貧苦	-11.0456
諸賢	-11.0457
善調	-11.0458
結歎	-11.0461
一子	-11.0462
誹謗正法	-11.0463
有為行	-11.0466
之惡	-11.0467
無上大菩提	-11.0468
造逆	-11.0469
皆歡喜	-11.0469
極苦	-11.047
者無名云	-11.0471
佛語彌勒	-11.0474
貪身	-11.0475
又能了知	-11.0475
日日	-11.0475
說一乘道	-11.0476
處非處	-11.0479
古今	-11.0482
商人	-11.0482
愛念	-11.0483
眼目	-11.0485
諸師	-11.0487
汝為	-11.0491
無有邊際	-11.0492
萬德	-11.0493
皆來	-11.0493
無聞	-11.0494
皆作	-11.0495
此即是	-11.0498
四神足	-11.05
難量	-11.05
隨學	-11.0502
感應	-11.0505
已曾供養	-11.0506
常想	-11.0509
住阿蘭若	-11.051
著於	-11.0513
彼於	-11.0515
不息	-11.0515
無價	-11.0516
。『	-11.052
終不能	-11.0521
廣長	-11.0525
凡愚	-11.0529
欲解	-11.0533
如來功德	-11.0537
於往昔	-11.0537
惡言	-11.0538
忍受	-11.0539
無量壽觀	-11.0539
諸方	-11.0543
生天上	-11.055
見道	-11.0558
無上覺	-11.0559
如法華	-11.0562
分為二	-11.0562
所宣	-11.0569
同體	-11.0571
若有善男子	-11.0572
有一人	-11.0573
初言	-11.0573
式	-11.0584
善方便	-11.0586
不合	-11.0591
為他人說	-11.0592
訶毀	-11.0592
實義	-11.0593
甚深微妙	-11.0597
無處所	-11.0598
無過失	-11.0598
聲聞菩薩	-11.06
諸度	-11.0614
異於	-11.0618
其音	-11.0622
如本	-11.0625
集諦	-11.0625
小果	-11.0626
告阿難	-11.0628
造業	-11.0632
止住	-11.0635
一切法空	-11.0636
頂生	-11.0638
不懈	-11.0639
了知諸法	-11.0641
煩惱魔	-11.0642
四倒	-11.0645
四門	-11.0645
號為	-11.0656
說一乘	-11.0657
七千	-11.0664
能取	-11.0665
生人間	-11.0665
一是	-11.0665
三聖	-11.0671
相貌	-11.0673
信順	-11.0676
說此法	-11.0676
初先	-11.068
其法	-11.0681
有多	-11.0684
無缺	-11.0695
有相	-11.0696
諮	-11.0697
識生	-11.0701
不了知	-11.0704
從佛聞	-11.0706
發無上正真道意	-11.0706
如是種種	-11.0706
諸天子眾	-11.0713
所犯	-11.0721
咸共	-11.0728
極善	-11.073
嗜	-11.0731
拂	-11.0731
其文	-11.0736
闡	-11.0737
已盡	-11.0738
趣菩提	-11.0738
母腹	-11.0739
灌	-11.0742
四魔	-11.0742
鬪	-11.0742
藍	-11.0743
看	-11.0743
三藐三佛陀	-11.0743
述云此次	-11.0744
世時	-11.0744
瑕	-11.0745
朋友	-11.0745
證信序	-11.0745
是業滅已	-11.0745
豈可	-11.0746
此世	-11.0748
卒暴	-11.0749
說誠實言	-11.0749
不依東方	-11.0749
丘	-11.0749
陸	-11.0752
應須	-11.0752
阿蘭若比丘	-11.0752
酥	-11.0752
我於今者	-11.0752
故如是說	-11.0753
付囑	-11.0753
祖	-11.0753
血肉	-11.0753
池沼	-11.0754
稠林	-11.0754
晉	-11.0754
跋陀羅	-11.0756
口四	-11.0757
阿逸多	-11.0757
飡	-11.0758
勉	-11.0758
離心意識	-11.0759
正遍覺	-11.0759
妓樂	-11.076
所言進者	-11.076
非想	-11.0761
發如是心	-11.0761
0	-11.0762
遍一切處	-11.0763
慈能	-11.0763
印門	-11.0765
到佛所	-11.0765
最勝兩足尊	-11.0767
自利利他	-11.0767
頭目	-11.0769
菩薩之將從	-11.0769
深固	-11.0771
阿鼻	-11.0772
梵行已立	-11.0774
象手	-11.0774
第二段中	-11.0776
於何處	-11.0776
達摩	-11.0778
空閑處	-11.0781
發清淨心	-11.0781
二十八	-11.0781
無有量	-11.0782
無有實	-11.0782
展轉相	-11.0784
營事比丘	-11.0785
為畢竟	-11.0785
一小劫	-11.0785
業果報	-11.0786
梵音聲	-11.0786
流通分	-11.0788
樹王	-11.0791
普覆	-11.0792
樓觀	-11.0793
樂住	-11.0796
伽耶	-11.0796
尊者大迦葉	-11.08
阿修羅等	-11.08
所從來	-11.0802
發起大悲	-11.0803
所不能及	-11.0804
此三昧	-11.0814
無本	-11.0816
為宣說	-11.0824
至涅槃	-11.0837
心意識	-11.0838
法雨	-11.0839
能救	-11.0841
恒河沙數	-11.0842
釋云	-11.0844
蒙佛	-11.0845
諸眾會	-11.0848
入法	-11.085
寂意菩薩	-11.085
惡事	-11.0856
以何為	-11.0858
有千	-11.0863
顯發	-11.0864
善觀察	-11.0865
然其	-11.0866
供養恭敬	-11.0868
佛告舍利子	-11.0868
身有	-11.087
慢心	-11.087
心相續	-11.0871
真實法	-11.0872
頭面	-11.0873
一千	-11.0875
於過去世	-11.0876
為大乘	-11.0877
天妙	-11.0879
永不	-11.088
敬愛	-11.0888
功能	-11.089
體也	-11.089
所演	-11.0892
初識生時	-11.0895
甚善	-11.0897
成上	-11.0898
舉其	-11.09
悟解	-11.0901
之水	-11.0902
瑞應	-11.0902
誰有	-11.0904
妙衣	-11.0904
菩提樹下	-11.0905
猶是	-11.0906
生死涅槃	-11.0911
清淨無垢	-11.0913
百千眾生	-11.0918
報土	-11.0919
萬八千	-11.0921
行德	-11.0922
儀式	-11.0923
之功	-11.0923
前說	-11.0927
法要	-11.0929
於此世界	-11.0933
甘露法	-11.0935
非心	-11.0937
亂心	-11.094
入彼	-11.0941
三輪	-11.0945
正示	-11.0947
復白	-11.0948
說其	-11.0949
故次明	-11.095
聖賢	-11.0953
彼識	-11.0954
總觀	-11.0957
感佛	-11.0961
向前	-11.0961
害心	-11.0962
王菩薩	-11.0962
修般若波羅蜜	-11.0962
修供養	-11.0965
惡比丘	-11.0966
著我	-11.0967
今復	-11.0969
是故世尊	-11.0969
能受持	-11.0971
毀犯	-11.098
眾中有	-11.098
收入	-11.098
皆同一	-11.0994
菩薩摩訶薩亦復如是	-11.0998
勿令	-11.1002
地天	-11.1013
以清淨心	-11.1013
所染	-11.1018
燒然	-11.1021
此說是名	-11.1024
求之	-11.1026
若不得	-11.1026
以大乘	-11.1029
此皆	-11.1029
為法	-11.1031
五句	-11.1038
亦不分別	-11.1039
又前	-11.1043
大河	-11.1043
而是菩薩	-11.1045
詣佛	-11.1046
德行	-11.105
世間所有	-11.1058
觀無量壽	-11.1063
長遠	-11.1063
其量	-11.1067
苦諦	-11.1068
賴	-11.1071
恭	-11.1071
疲	-11.1071
戒取	-11.1072
不言	-11.1074
亦復無所施設	-11.1079
懃	-11.1082
牢	-11.1083
道教	-11.1084
無有邊	-11.1084
玻	-11.1084
嶮	-11.1085
甞	-11.1085
婢	-11.1086
髓	-11.1087
不依止	-11.1087
有二戶蟲	-11.1088
亦說	-11.1088
休	-11.1088
周匝圍繞	-11.1089
乞士	-11.1089
說是語已	-11.1089
無等倫	-11.1089
態	-11.109
牆	-11.1091
不想	-11.1091
願攝	-11.1091
披	-11.1092
八功德水	-11.1093
非彼	-11.1093
如大海	-11.1093
嗔	-11.1093
如意足	-11.1094
信受諦奉清淨無	-11.1095
優鉢羅花	-11.1096
脂	-11.1096
驢	-11.1097
又見	-11.1097
安穩	-11.1097
故說為	-11.1097
澄	-11.1098
騰	-11.1098
醜陋	-11.1098
環	-11.1098
倍復踊躍深生歡喜發希奇想	-11.1099
慈悲喜捨	-11.1099
此菩薩是初地	-11.1099
充足	-11.1099
晝	-11.11
千輻	-11.1101
卵	-11.1101
欄	-11.1101
錢財	-11.1102
踰闍	-11.1103
靈鷲山	-11.1103
庫藏	-11.1104
尊者大目乾連	-11.1105
行慈	-11.1107
如我今者	-11.1107
無來無去	-11.1107
眉	-11.1107
無難	-11.1109
近寂	-11.1109
三十三	-11.1109
於我法中	-11.111
現相	-11.1112
行乞食	-11.1112
功德智慧	-11.1114
飲食衣服	-11.1114
諸天世人	-11.1115
長老阿難	-11.1116
高座	-11.1117
計我	-11.1118
無利	-11.1118
但云	-11.1118
菩薩有四事法	-11.1121
作是語已	-11.1122
唱言	-11.1123
教誡	-11.1125
篤信	-11.1127
心所念	-11.1127
百年	-11.1127
自然七寶	-11.1128
說微妙法	-11.1136
悅可	-11.1138
足下	-11.1138
攝論	-11.1138
之頃	-11.1145
為未來	-11.1147
之所行	-11.1151
吾等	-11.1159
不退轉於阿耨多羅三藐三菩提	-11.116
以下結	-11.1162
二云	-11.1162
此說名為	-11.1164
受教而	-11.1164
誰當	-11.1169
五欲境界	-11.1169
凡夫地	-11.1171
十萬	-11.1171
色蘊	-11.1172
以是故	-11.1174
勝菩提	-11.1175
調和	-11.1178
不善心	-11.1183
即當	-11.1185
如須彌	-11.1187
別顯	-11.1193
大菩薩眾	-11.1198
諦聽諦聽	-11.1202
能示現	-11.1202
八十四	-11.1204
得勝	-11.1212
百萬	-11.1216
如來今者	-11.1216
此句	-11.1217
化益	-11.1218
亦難	-11.122
為諸有情	-11.122
大阿羅漢	-11.1227
與此	-11.1228
一章	-11.1231
成德	-11.1233
聞法已	-11.1235
大力菩薩	-11.1235
習行	-11.1236
寶衣	-11.1236
第二句	-11.1239
於此正法	-11.1241
天人世間	-11.1248
供佛	-11.1251
將來	-11.1251
廣解	-11.1251
初發意	-11.1252
母胎	-11.1253
曾見	-11.1254
清淨智	-11.1261
得須陀洹	-11.1264
無所起	-11.1264
猶未	-11.1266
無增減	-11.1267
於菩薩藏正法	-11.1269
二死	-11.127
許說	-11.1273
亦不可	-11.1273
序分	-11.1274
即成	-11.1275
而求	-11.1278
妙善	-11.128
不一	-11.1282
先觀	-11.1287
如是菩薩摩訶薩	-11.1295
少有	-11.1297
不顧	-11.1302
修慈	-11.1303
圓淨	-11.1304
得樂	-11.1304
悅豫	-11.1304
不有	-11.131
對前	-11.1312
無壽者	-11.1314
而食	-11.1317
如應	-11.1323
轉行	-11.1325
無其	-11.1325
得住	-11.1327
是句	-11.133
未證	-11.1334
六界	-11.1335
以佛神力	-11.1335
具足戒	-11.1338
此二歸依	-11.134
辟支	-11.1342
無有生	-11.1344
叉	-11.1346
因緣生	-11.1347
時無所從來	-11.1351
之土	-11.1354
歸趣	-11.1355
十住	-11.1356
散壞	-11.1358
餘方	-11.136
心念言	-11.1361
上來第一	-11.1363
即是菩提	-11.1363
衣服飲食	-11.1369
山中	-11.1371
舉足	-11.1371
同彼	-11.1372
為破	-11.1372
本國	-11.1375
非道	-11.1377
咸悉	-11.1377
亦有二	-11.1381
不去	-11.1386
頻	-11.1388
粗	-11.1388
四無畏	-11.1388
不移	-11.1392
無苦	-11.1392
觀諸眾生	-11.1396
池水	-11.1401
諸結	-11.1402
空義	-11.1403
若心	-11.1413
悉能知	-11.1415
此釋	-11.142
所食	-11.1422
如是住	-11.1423
壽命無量	-11.1426
置於	-11.1427
五法	-11.1427
能忍受	-11.1427
有所說	-11.1428
功德聚	-11.1428
分中	-11.1435
所歎	-11.1435
冤	-11.1436
不散	-11.1436
戶	-11.1439
廟	-11.1441
離生死	-11.1443
摩羅	-11.1444
陵	-11.1444
嚕	-11.1444
刑	-11.1444
與空共行	-11.1445
復生三想	-11.1446
光聚王	-11.1446
鬪戰	-11.1446
一切諸法皆悉空寂	-11.1447
之別	-11.1447
空無空相	-11.1447
塹	-11.1448
躬	-11.1448
遠塵離垢	-11.1448
警	-11.1449
惛	-11.145
出家學道	-11.145
無所罣礙	-11.1451
西天譯經三藏朝散大夫試鴻臚	-11.1451
奴	-11.1453
振動	-11.1453
黑暗	-11.1454
姦	-11.1454
班宣	-11.1454
銀青光祿大夫	-11.1455
王聞	-11.1455
文殊師利童真菩薩	-11.1456
出廣長舌相	-11.1456
泡	-11.1456
墮在	-11.1456
同止	-11.1456
捶打	-11.1457
筏	-11.1457
濫	-11.1458
揀	-11.1459
悋惜	-11.146
斯經	-11.1461
懈倦	-11.1461
□	-11.1461
懷疑	-11.1462
閻浮提中	-11.1462
何謂菩薩等遊	-11.1462
是則名曰	-11.1463
空義隱覆	-11.1463
▁36	-11.1464
我等今者	-11.1464
龍女	-11.1466
無量眾	-11.1466
諸有情類	-11.1466
踊躍歡喜	-11.1467
就文有	-11.1467
悉平等	-11.1467
相續不斷	-11.1467
承事供養	-11.1468
述云	-11.1468
不久亦當	-11.1469
常無常	-11.1471
念法	-11.1471
大目揵連	-11.1471
無貪	-11.1472
無上正覺	-11.1473
掌中	-11.1475
獲得四種	-11.1477
汝當受持	-11.1477
且止	-11.148
發無上道心	-11.148
淨修梵行	-11.148
眾圍繞	-11.148
大火	-11.1481
惡作	-11.1483
樂故	-11.1484
唯識	-11.1485
身根	-11.1487
爾時佛告舍利子	-11.1489
隨業	-11.1489
勿生	-11.1489
瞋行	-11.1489
日月光	-11.1491
如來十力	-11.1491
等虛空	-11.1493
離塵	-11.1494
形容	-11.15
無斷	-11.1501
是我所	-11.1503
求出家	-11.1503
欲害	-11.1505
為他人	-11.1511
汝言	-11.1512
佛所說法	-11.1515
經歷	-11.1515
息除	-11.1517
喻如	-11.1519
方便智	-11.1519
一音	-11.1521
慈氏菩薩	-11.1522
變成	-11.1527
諸惡業	-11.1528
惡不善法	-11.1529
今此經	-11.1533
深山	-11.1536
為最	-11.1537
諸善本	-11.154
三章	-11.1541
現在世	-11.1542
業行	-11.1545
其國土	-11.1546
百千俱胝那庾多	-11.1546
有生死	-11.1547
捨三分	-11.1547
宣說正法	-11.1549
俱胝歲	-11.1553
四萬二千	-11.1559
萬劫	-11.156
於諸世間	-11.156
不善根	-11.1561
復云何	-11.1564
彼女人	-11.1565
黃色	-11.1568
事究竟	-11.1568
於此經	-11.1571
得授記	-11.1572
明義	-11.1576
威神力故	-11.1578
必須	-11.158
自然生	-11.1581
雖得	-11.1581
得失	-11.1581
若行	-11.1584
今且	-11.1585
教門	-11.1586
憶念夢中	-11.1588
菩薩不爾	-11.1589
來會	-11.1591
大醫王	-11.1593
自性清淨心	-11.1594
不捨眾生	-11.1594
持淨戒	-11.1595
濟度	-11.1597
清淨之行	-11.1598
兩義	-11.1599
險	-11.1601
罪報	-11.1605
厭患	-11.1606
今文	-11.1608
愛重	-11.1609
稱譽	-11.1612
一切皆是	-11.1615
白文殊師利言	-11.1615
唯心	-11.1617
自己	-11.1617
不堪	-11.1618
六事	-11.1619
愍哀	-11.1621
教主	-11.1627
奉上	-11.1628
無遺	-11.1629
不相似	-11.1631
迴心	-11.1632
業果	-11.1632
初總標	-11.1634
之外	-11.1641
毀罵	-11.1649
利行	-11.165
勝鬘白佛	-11.1651
聽者	-11.1652
耳識	-11.1654
不成就	-11.1657
是誰	-11.1657
蓋是	-11.1658
時會	-11.166
事相	-11.1661
佛塔	-11.1663
無悔	-11.1665
舍衛城中	-11.1666
苦報	-11.1667
如是法門	-11.1667
不減	-11.1669
智慧方便	-11.167
夜分	-11.167
於苦	-11.1675
進趣	-11.1677
今則	-11.1677
敬心	-11.1679
五通	-11.1682
無有少	-11.1695
寶物	-11.1699
三界中	-11.1703
初總	-11.1705
大聲聞	-11.1707
謂諸菩薩	-11.1708
得作佛	-11.1709
發此	-11.1712
愛之	-11.1716
從地	-11.1716
有邊	-11.1721
違失	-11.1723
菩提果	-11.1727
來此	-11.1727
深法忍	-11.1728
不除	-11.1729
持其名者	-11.1732
如是說者	-11.1736
爾時世尊讚	-11.174
諸不善法	-11.1742
華嚴經	-11.1743
於一切時	-11.1743
汝問	-11.1744
道路	-11.1749
爾時世尊即	-11.175
成無上正真之道	-11.1756
為佛作禮	-11.1756
令一切眾生	-11.1757
善觀	-11.176
覩佛	-11.1761
得無畏	-11.1761
妙音聲	-11.1767
應親近	-11.1772
無言說	-11.1774
告曰	-11.1781
極為	-11.1783
聲聞人	-11.1784
結成	-11.1786
百千種	-11.1792
遲	-11.1792
心平等	-11.1794
寂靜故	-11.1794
尚不能	-11.1798
嘆佛	-11.1798
之屬	-11.1798
機緣	-11.18
諸天子等	-11.1802
補	-11.1803
三千大千世界所有	-11.1803
阿惟越致	-11.1804
正法住世	-11.1805
成壞	-11.1809
此人則為	-11.181
是無垢	-11.1811
是故名	-11.1811
金翅鳥	-11.1811
涅	-11.1813
由此風力	-11.1814
夫婦	-11.1815
大唐三藏菩提流志奉詔譯	-11.1815
燃	-11.1816
給孤獨	-11.1817
戾	-11.1817
名無相解脫門	-11.1817
他方異國	-11.1818
坦	-11.1818
嘉	-11.1819
瑪	-11.1819
薜荔	-11.1819
束	-11.182
阿脩羅	-11.182
生死海	-11.1821
縱橫	-11.1821
傳梵大師賜紫沙門臣法護等奉詔譯	-11.1821
肘	-11.1821
無染著	-11.1821
嚴淨佛土	-11.1822
欝	-11.1823
否	-11.1823
捨家出家	-11.1823
􂌞	-11.1823
幸	-11.1824
眾所知識	-11.1824
塚間	-11.1824
文殊師利法王子	-11.1825
公	-11.1825
下品下生	-11.1825
祥	-11.1826
如是觀察	-11.1826
涯	-11.1826
於中初先	-11.1826
案	-11.1826
搖動	-11.1827
奮	-11.1827
皆悉具足	-11.1828
悴	-11.1829
河沙	-11.1829
幼	-11.183
覺品	-11.1831
愚冥	-11.1831
爾時世尊欲重宣此義	-11.1831
安詳	-11.1832
心數法	-11.1832
領納	-11.1833
洞達	-11.1833
常樂我淨	-11.1833
見阿彌陀佛	-11.1834
匿	-11.1834
鴦	-11.1834
歎未曾有	-11.1834
讚嘆	-11.1836
執持名號	-11.1837
四重	-11.1838
折伏	-11.1839
七寶樹	-11.1839
蘇息	-11.184
滅道諦	-11.1841
麁細	-11.1842
去來現在	-11.1843
》、《	-11.1844
厭倦	-11.1845
以為前導	-11.1846
無復煩惱	-11.1846
云何奉持	-11.1846
得脫	-11.1847
靜處	-11.1848
等無異	-11.1848
無畏女	-11.1849
無我無人	-11.185
稽首禮	-11.1851
繫心	-11.1855
無漏法	-11.1856
得一切佛法	-11.1858
階道	-11.1859
無異攝受正法	-11.1859
他方世界	-11.1861
囉尼	-11.1863
覺已	-11.1864
持諸禁戒	-11.1865
諸力	-11.1867
安樂世界	-11.1867
第六天	-11.1868
名為死	-11.187
終始	-11.1872
過恒沙等	-11.1876
離一切相	-11.1876
殑伽沙數等	-11.1877
轉變	-11.1877
先道	-11.1878
惟願	-11.1878
心歡喜	-11.1878
隱顯	-11.1879
惱亂	-11.188
無所受	-11.188
莫作	-11.1883
所思	-11.1886
大神變	-11.1887
於是世尊	-11.1893
被大甲冑	-11.1895
假立	-11.1896
之數	-11.19
住止	-11.19
及聲聞眾	-11.1902
能度	-11.1902
往生彼國	-11.1902
得生天	-11.1904
淨潔	-11.1906
山頂	-11.1912
就前	-11.1913
初發	-11.1917
法師云	-11.1918
汝莫	-11.1925
又如實知	-11.1927
證阿耨多羅三藐三菩提	-11.1927
如來祕密	-11.1929
令得阿耨多羅三藐三菩提	-11.1929
釋上	-11.1933
開化眾生	-11.1934
五蓋	-11.1935
三匝	-11.1937
於五欲	-11.1937
兜率	-11.1938
六十四	-11.1938
利益諸眾生	-11.1938
器世間	-11.1939
聞此法	-11.1942
無瞋恚	-11.1946
凡夫人	-11.1948
當求	-11.1951
諸法本性	-11.1951
非當有	-11.1951
殺父	-11.1956
何故名	-11.1956
隨心所	-11.1958
復還	-11.1965
當為汝	-11.1968
離殺生	-11.1969
我今欲	-11.1972
今釋	-11.198
當知皆是	-11.1982
前文	-11.1987
本自	-11.1991
盡滅	-11.1996
約人	-11.1996
無壞	-11.1997
正慧	-11.1997
莊嚴功德	-11.2003
福蘊	-11.2003
一滅諦	-11.2008
四章	-11.2008
尊長	-11.2015
各持	-11.2015
釋所以	-11.2017
但欲	-11.2019
慚	-11.2019
不調伏	-11.2021
始覺	-11.2022
風大	-11.2024
造罪	-11.2025
所執	-11.2027
禮佛足	-11.2028
無所得故	-11.2032
當更	-11.2036
不來	-11.2037
淨持戒	-11.2044
令入	-11.2048
能使	-11.205
證阿耨多羅三藐三菩提果	-11.205
說法師	-11.2051
疏云	-11.2053
不近	-11.2054
不得生	-11.2055
上生	-11.2058
名利	-11.2059
胎藏	-11.206
得罪	-11.2067
緣力	-11.2068
廣博	-11.207
大事	-11.2074
女報	-11.2076
得解	-11.2076
諸比丘等	-11.208
有為生死	-11.2081
舍利子白佛言	-11.2082
高顯	-11.2082
卷第三	-11.2083
威神力	-11.2089
樂處	-11.2097
不得自在	-11.21
有佛出世	-11.2101
像觀	-11.2105
即供養	-11.2106
如世	-11.2106
隨我	-11.2106
能治	-11.2109
所顯	-11.2115
所行處	-11.2119
於佛教	-11.212
因力	-11.2121
垢穢	-11.2123
遍行	-11.2126
開發	-11.213
順忍	-11.2131
趣地獄	-11.2136
此云何	-11.2138
廣略	-11.2142
無量不可思議	-11.2147
明淨	-11.2148
自力	-11.2155
自受用	-11.2155
諸女	-11.216
四百	-11.2161
不護	-11.2162
乃曰	-11.2162
智德	-11.2166
他化	-11.2167
具足功德	-11.2169
百分	-11.2171
讚說	-11.2171
根力	-11.2172
為人說	-11.2173
調伏眾生	-11.2175
火聚	-11.2176
雜寶	-11.218
膩	-11.2184
逝	-11.2188
漸至	-11.2189
行圓滿	-11.2189
滅煩惱	-11.2189
是族姓子	-11.2191
諸佛子	-11.2192
大目如來	-11.2193
身語意	-11.2194
衛	-11.2194
若取	-11.2196
時也	-11.2196
曼陀羅華	-11.2196
掉	-11.2197
非聲聞	-11.2197
此娑婆世界	-11.2197
祕密主	-11.2198
鎖	-11.2199
法欲滅時	-11.2199
禽	-11.2199
卷第二	-11.2199
矜	-11.22
有斯	-11.22
阿羅呵	-11.2201
嗚呼	-11.2202
耆	-11.2202
何故菩薩	-11.2203
囑	-11.2203
不可復計	-11.2203
豪貴	-11.2203
盤	-11.2203
溢	-11.2204
怕	-11.2204
無有厭足	-11.2204
於諸菩薩	-11.2205
伐	-11.2206
何謂菩薩等意分別遊入	-11.2206
孝養父母	-11.2207
乃至涅槃	-11.2207
瞿	-11.2207
繒綵	-11.2207
半偈	-11.2208
度生死	-11.2208
漿	-11.2208
耆年	-11.2209
齎	-11.2209
遠塵離垢得法眼淨	-11.2209
弓	-11.2209
卷第四	-11.2209
茂	-11.221
諸通慧	-11.221
寸	-11.221
孤獨	-11.2211
飄	-11.2211
縷	-11.2211
疲勞	-11.2211
傾動	-11.2214
繼	-11.2214
蠲除	-11.2215
有斯患	-11.2215
3	-11.2215
爾時世尊而說頌曰	-11.2217
極貧	-11.2217
忍辱波羅蜜多	-11.2218
起大悲	-11.2218
經本	-11.2218
偈頌	-11.2219
秦	-11.2219
吐	-11.222
遏	-11.222
尊卑	-11.222
問難	-11.2221
得成佛	-11.2222
被甲冑	-11.2222
刃	-11.2223
覆蓋	-11.2223
大勢至菩薩	-11.2224
破惡	-11.2225
今現在世	-11.2225
第四明	-11.2225
受具足	-11.2226
所生之處	-11.2227
無差	-11.2227
都不	-11.2228
修多羅中說	-11.2229
尼彌王	-11.223
圓備	-11.223
久近	-11.223
淨布施	-11.2232
閑靜	-11.2232
麤	-11.2233
大牟尼	-11.2233
皆可	-11.2238
不脫	-11.224
燒香	-11.2241
華嚴云	-11.2241
即同	-11.2241
難遇	-11.2244
在閑居者	-11.2244
與諸大眾	-11.2246
釋論	-11.2248
水想	-11.2251
通明	-11.2251
於彼佛所	-11.2251
久已	-11.2252
此理	-11.2253
曾有	-11.2255
時淨飯王	-11.2257
同生	-11.2259
珠寶	-11.2261
佛弟子	-11.2263
是故今	-11.2267
成菩提	-11.2267
成就阿耨多羅三藐三菩提	-11.2268
四天王天	-11.2269
權方便	-11.2269
正住	-11.2269
却後	-11.2271
百千億那由他	-11.2275
時彼菩薩	-11.2276
異學	-11.2277
亦復不能	-11.2277
第十五	-11.2278
知恩	-11.2279
雖殊	-11.2281
有大威德	-11.2282
親愛	-11.2283
業因緣故	-11.2284
歡喜心	-11.2285
善施	-11.2286
明如來藏	-11.2287
諸魔眾	-11.2289
千分不及一	-11.2289
離自性	-11.2293
又復有	-11.2293
備悉	-11.2294
利益一切眾生	-11.23
以善方便	-11.23
聲聞大眾	-11.2301
乃至一念	-11.2301
樹枝	-11.2305
佛地論	-11.2305
何謂四	-11.2306
寂慧菩薩	-11.2308
不必	-11.231
能覺了	-11.2311
此則是	-11.2313
從空	-11.2314
心自在	-11.2314
四種法	-11.2314
何意	-11.2317
煩惱濁	-11.2317
是諸菩薩摩訶薩	-11.2317
悕	-11.2319
頂受	-11.2322
求無上菩提	-11.2323
化德	-11.2325
更無餘	-11.2325
八諦	-11.2326
辨其	-11.2327
不親近	-11.2327
雖受	-11.2328
昔來	-11.2329
乘體	-11.233
以慈	-11.2332
菩薩戒	-11.2334
皆使	-11.2337
分證	-11.2338
入惡道	-11.2339
彼菩提道	-11.2341
退還	-11.2342
被服	-11.2342
令諸有情	-11.2344
世界名	-11.2349
一毛孔	-11.2351
有罪	-11.2354
入佛法	-11.2355
未曾聞	-11.2357
普門	-11.2369
不待	-11.2374
饒	-11.2375
億佛	-11.2376
阿字門	-11.2378
能詮	-11.238
覺觀	-11.2384
所用	-11.2385
能摧	-11.2388
解脫道	-11.2389
聲聞乘人	-11.2389
減少	-11.239
師云	-11.2391
其水	-11.2393
無文字	-11.2394
慧菩薩	-11.2395
三十八	-11.2397
大菩提心	-11.2399
天子當知	-11.2399
經宗	-11.2401
教勅	-11.2405
佛及菩薩	-11.2409
天花	-11.2411
說一切法	-11.2411
十事	-11.2412
見無量壽佛	-11.2414
則自然	-11.2415
異見	-11.2415
音菩薩	-11.2417
當知即是	-11.2419
放捨	-11.2421
為師	-11.2421
破無明	-11.2424
生尊重	-11.2425
大捨	-11.2428
得決定	-11.243
顯其	-11.2434
是知	-11.2436
所立	-11.2436
人同	-11.244
能覆	-11.2443
諸德	-11.2447
如金剛	-11.245
之色	-11.2453
文殊言	-11.2456
法印	-11.2457
感得	-11.2464
之主	-11.2467
於無量劫	-11.2475
不愛樂	-11.2477
要當	-11.248
住立	-11.2481
現其身	-11.2483
少善根	-11.2484
邪業	-11.2484
散善	-11.2489
釋曰	-11.2493
第二舉	-11.2494
普入	-11.2495
初約	-11.2495
眼生邊	-11.2496
內德	-11.2497
外凡	-11.2498
三惡	-11.2503
如是次第	-11.251
若據	-11.2512
唯在	-11.2513
戒律	-11.2518
得度脫	-11.2518
之境界	-11.2521
其城中	-11.2523
善聽	-11.2528
依果	-11.2528
作事	-11.2531
耳聞	-11.2532
拜	-11.2535
供養我	-11.2538
六明	-11.2539
證明	-11.2539
興發	-11.254
六反震動	-11.2543
教示	-11.2545
發斯	-11.2552
非唯	-11.2553
眾花	-11.2561
不瞋	-11.2563
尊重讚歎	-11.2565
共生	-11.2566
末利	-11.2581
我不作佛	-11.2582
又解	-11.2582
我亦如是	-11.2582
得是願乃作佛	-11.2582
入舍婆提城	-11.2586
明其所	-11.2587
我剎中	-11.2588
迅	-11.2592
善根力	-11.2592
冬	-11.2593
印印一切法	-11.2593
皆不失壞	-11.2594
名不思議	-11.2595
秉作	-11.2595
綵	-11.2595
樂受	-11.2597
捺	-11.2598
如來具足殊勝	-11.2598
前後圍遶	-11.2599
於母腹中有風	-11.2599
須菩提復問	-11.26
壁	-11.2601
五章	-11.2601
綱	-11.2602
哭	-11.2602
雞	-11.2602
無穢	-11.2603
阿那律	-11.2603
如人夢中	-11.2604
慳惜	-11.2604
辱	-11.2605
豐饒	-11.2605
凝	-11.2605
青黃赤白	-11.2607
乞匃	-11.2608
妻妾	-11.2608
四大洲	-11.2608
憂悲苦惱	-11.2608
疲惓	-11.2609
與虛空等	-11.2609
快哉	-11.261
價直	-11.261
墨	-11.2611
黠慧	-11.2611
撰	-11.2612
三十七品	-11.2612
籠	-11.2612
朱	-11.2613
以是之故	-11.2614
是則附於欲	-11.2615
戲笑	-11.2615
正宗分	-11.2615
士夫	-11.2616
拔濟	-11.2616
迦陵頻伽	-11.2616
癡暗	-11.2616
威儀禮節	-11.2616
善住意	-11.2617
塗香末香	-11.2617
滓	-11.2617
既云	-11.2617
c	-11.2617
f	-11.2617
如是忍故	-11.2617
親近承事	-11.2618
咽	-11.2619
一心不亂	-11.262
不如理作意	-11.2621
質直	-11.2622
猛利	-11.2623
藥草	-11.2624
說此偈已	-11.2624
可厭	-11.2624
解脫智見	-11.2626
假使有人	-11.2627
筏底	-11.2627
見佛聞法	-11.2627
所生處	-11.2627
伽他	-11.2629
其形	-11.263
得羅漢	-11.263
恭敬尊重	-11.2631
卷第一	-11.2631
十八界	-11.2632
四智究竟	-11.2635
歡喜奉行	-11.2635
觀佛三昧	-11.2637
臨死	-11.2637
要期	-11.2638
汝云何	-11.2639
財富	-11.2641
憶想	-11.2641
謗毀	-11.2642
苦受	-11.2648
菩薩若能	-11.2648
如意珠	-11.2649
消化	-11.2651
不害	-11.2653
此陀羅尼	-11.2655
坐處	-11.2656
無漸至	-11.2658
不取菩提	-11.266
聞佛名	-11.2661
得此三昧	-11.2673
有四句	-11.2674
風起	-11.2676
殊異	-11.268
苦滅諦	-11.2681
退沒	-11.2681
顛倒眾生	-11.2682
如來說法	-11.2682
不能斷	-11.2684
生大歡喜	-11.2684
開合	-11.2685
三世平等	-11.2691
戒定慧	-11.2692
百千由旬	-11.2693
不習	-11.2695
此四種	-11.2695
先列	-11.2698
為菩薩時	-11.2705
一切種	-11.2708
無住無	-11.2709
園觀	-11.2709
怖魔	-11.2712
有子	-11.2714
動亂	-11.2714
欲顯	-11.2719
菩薩有四法	-11.2722
如是寂意	-11.2724
三聚	-11.2725
興供養	-11.2727
鈴網	-11.2734
於甚深法	-11.2737
不逆	-11.2746
蘇摩	-11.2747
阿羅漢果	-11.2748
勝上	-11.2749
求佛道	-11.275
善思惟	-11.2751
師尊	-11.2752
或見菩薩	-11.2752
真佛	-11.2755
此經典	-11.2755
速能	-11.2755
未斷	-11.2758
見諸眾生	-11.2758
本處	-11.2762
於無上菩提	-11.2765
當往	-11.2769
解義	-11.2772
!』	-11.2772
五百菩薩	-11.2773
俱生	-11.2776
心不相應	-11.2779
一剎那	-11.2779
證理	-11.278
七百	-11.2784
生歡喜心	-11.2785
女人身	-11.2785
第十二	-11.2786
正釋	-11.2794
所護念	-11.2794
正路	-11.2794
詐現	-11.2797
應住	-11.2802
心無所著	-11.2808
異論	-11.2816
入三昧	-11.2818
所遊	-11.2823
甚深義	-11.2827
法財	-11.2829
害母	-11.2833
人非人	-11.2836
必能	-11.284
斷疑	-11.2842
觀無量壽佛	-11.2849
為己	-11.2849
一切法中	-11.2852
復有無量	-11.2855
菩薩藏正法	-11.2857
顯了	-11.2862
化比丘	-11.2864
正使	-11.2867
淨國	-11.2869
無毀	-11.2873
於諸欲	-11.2875
大慈心	-11.2875
眼入	-11.2875
非聲聞緣覺	-11.2876
死魔	-11.2876
偏舉	-11.2876
百千萬	-11.2878
瑞相	-11.288
尊者須菩提	-11.2881
欲境	-11.2888
五曰	-11.2889
對二乘	-11.2895
二十七	-11.2899
別教	-11.2906
戒德	-11.2909
三大願	-11.2914
譬若	-11.2915
同處	-11.2915
舉聲	-11.2919
空處	-11.2921
於後末世	-11.2923
心心所	-11.2934
四威儀	-11.2937
不妄語	-11.2938
衣被	-11.2938
道智	-11.2938
圍	-11.2944
句不同	-11.2947
捨施	-11.2948
善修習	-11.295
得成阿耨多羅三藐三菩提	-11.2953
難事	-11.2955
得佛道	-11.2956
第十一	-11.2959
能施	-11.2961
能伏	-11.2964
在後	-11.2971
華果	-11.2976
是為十	-11.2978
無邊智	-11.2984
彩	-11.2986
世尊釋迦牟尼如來	-11.2987
方乃	-11.299
乘空	-11.2994
紫	-11.2999
惡因	-11.2999
能入解	-11.3
色欲	-11.3003
諸菩薩摩訶薩應入	-11.3006
播	-11.3007
永滅	-11.3007
皆是如來	-11.3007
如月	-11.3008
努	-11.3009
杜	-11.3011
離垢施	-11.3011
忽然不現	-11.3012
所習	-11.3013
從何以故以下	-11.3014
籍	-11.3015
夭	-11.3015
於諸世間心不疲惓	-11.3015
意三種業	-11.3016
明月珠	-11.3018
小萎	-11.3018
晝夜六時	-11.3018
須臾間	-11.3019
以要言之	-11.302
肅	-11.302
無方	-11.302
竝	-11.3021
給侍	-11.3021
舍婆提	-11.3021
淵	-11.3022
泯	-11.3022
姝	-11.3022
銷	-11.3022
裹	-11.3023
憒	-11.3023
阿耨多羅	-11.3023
棲	-11.3024
佛會	-11.3024
米	-11.3024
東西	-11.3024
鞭	-11.3026
顛	-11.3026
從初訖	-11.3026
發淨心	-11.3027
醎	-11.3028
分為三	-11.3028
憑	-11.3028
不可限量	-11.3029
二足尊	-11.303
既出家已	-11.3031
穴	-11.3031
本行菩薩道時	-11.3031
應如是持	-11.3031
爾時彌勒菩薩白佛言	-11.3032
憂慼	-11.3033
勤加精進	-11.3033
食噉	-11.3033
▁35	-11.3034
曠劫	-11.3036
一切樂具	-11.3037
果證	-11.3037
此明夫人	-11.3037
二乘種不生	-11.3038
一時佛在	-11.3038
]《	-11.3038
床座	-11.3039
安隱快樂	-11.3039
無上丈夫	-11.304
恒河	-11.304
龍神	-11.3041
赤珠	-11.3043
厭捨	-11.3043
極妙	-11.3045
肉髻	-11.3046
耳鼻舌身心	-11.3047
多囉	-11.3049
利益事	-11.3049
方所	-11.3051
良由	-11.3051
五事	-11.3053
過咎	-11.3055
眾病	-11.3056
明二乘不得	-11.3057
而共同止	-11.3057
生滅故	-11.3058
開為二	-11.3061
如來祕要	-11.3061
禪波羅蜜	-11.3062
車乘	-11.3064
資用	-11.3065
嚴好	-11.3067
世事	-11.3067
諸佛境界	-11.3068
諸音樂	-11.3069
希有之法	-11.307
於父母	-11.3072
影現	-11.3072
無邊聖諦	-11.3073
惡聲	-11.3073
未滿	-11.3075
甚為	-11.3078
福力	-11.308
賈人	-11.3086
失念	-11.3088
作是語	-11.309
萬四千	-11.309
大迦葉言	-11.309
色無色界	-11.3091
開敷	-11.3092
非第一義	-11.3093
散花	-11.3093
所壞	-11.3099
大精進力	-11.3101
▁薩	-11.3104
於正法中	-11.3104
妙菩提	-11.3106
之罪	-11.3106
降伏魔	-11.3107
以此功德	-11.3108
聞思	-11.3115
定根	-11.3117
堅著	-11.3117
令眾	-11.312
不應親近	-11.3121
悉空	-11.3124
殊勝功德	-11.3126
欲殺	-11.3127
誰是	-11.3128
流出	-11.3129
雖未	-11.3139
婆羅	-11.314
妙相	-11.3143
華開	-11.3144
仁王	-11.3147
於生死中	-11.3149
無量清淨佛光明	-11.3152
作書	-11.3153
於諸善法	-11.3153
於諸眾生起	-11.3153
未除	-11.3159
愛見	-11.316
寶瓶	-11.3163
最極	-11.3167
離惡趣	-11.3167
無礙心	-11.317
如是知已	-11.3171
第十四	-11.3181
相狀	-11.3185
無病	-11.3186
能藏	-11.319
速成	-11.3194
喻顯	-11.3195
修空	-11.3197
聞是法	-11.3197
法御	-11.32
總名	-11.3201
非過去	-11.3201
印可	-11.3206
境智	-11.3208
過度	-11.3209
地水火風	-11.3214
行法施	-11.3214
處世	-11.3215
說四諦	-11.3221
天親	-11.3225
戒蘊	-11.3226
各別	-11.3226
如說行	-11.3226
今就	-11.3227
大集	-11.3236
一切法平等	-11.3244
無量壽如來	-11.3244
無量無邊不可思議	-11.3254
若能了知	-11.3255
諸禪定	-11.3256
六方	-11.3266
凡人	-11.3266
何事	-11.327
而修行	-11.3271
都無所	-11.3271
有大利益	-11.3275
惡慧	-11.3278
度一切	-11.3282
八解脫	-11.329
善達	-11.3291
普觀	-11.3294
所有一切眾生	-11.3295
佛頂	-11.3298
如化	-11.3301
散滅	-11.3308
信佛語	-11.331
住著	-11.3316
四顛倒	-11.3316
一毛	-11.332
壞滅	-11.3323
又諸菩薩	-11.3325
微少	-11.3325
汝今諦聽	-11.3327
利刀	-11.3347
無諍論	-11.3348
欲往	-11.3355
佛陀	-11.3357
無智者	-11.3363
陰魔	-11.3365
寶臺	-11.3369
無量世界	-11.3369
有礙	-11.3385
集起	-11.3388
第一義智	-11.3395
初發心菩薩	-11.3397
世間出世間	-11.3398
非我所	-11.34
兩手	-11.3415
況餘	-11.3416
佛告彌勒菩薩	-11.3416
功德海	-11.3419
說如是法	-11.3419
是故汝等	-11.3424
二足	-11.3426
嗟	-11.3428
頂相	-11.343
妓	-11.343
迫	-11.3432
以至蜎飛蠕動之類	-11.3432
習學	-11.3433
出三界	-11.3434
金山	-11.3438
幽閉	-11.3438
彌樓揵馱佛	-11.3442
瞻禮	-11.3442
禰	-11.3445
是人所夢執	-11.3446
略釋	-11.3446
人愛樂於此經	-11.3446
宮嬪	-11.3447
族姓女	-11.3447
後復生起身喜心喜	-11.3447
齋戒	-11.3448
獵師	-11.3449
促	-11.3449
鉢唎	-11.3449
戒聚	-11.345
麁獷	-11.3451
瑟	-11.3451
戍	-11.3451
調御士	-11.3451
仗	-11.3451
無盡意	-11.3452
舍摩他	-11.3452
說如來藏	-11.3452
猶如幻	-11.3453
籌	-11.3453
說是偈已	-11.3454
而發趣於阿耨多羅三藐三菩提	-11.3454
讎	-11.3455
陋	-11.3455
塊	-11.3456
崖	-11.3456
匹	-11.3456
逾	-11.3456
寡	-11.3456
纔	-11.3457
伴侶	-11.3457
若於眼	-11.3457
怠	-11.3457
州	-11.3457
兆	-11.3458
邪定聚	-11.3458
即以偈頌	-11.3458
歌詠	-11.3459
帛延	-11.3459
迦毘羅城	-11.3459
顧戀	-11.3459
不鼓自鳴	-11.3459
宋	-11.3459
如所聞法	-11.3459
誕	-11.346
虎	-11.346
一四句偈	-11.346
菴	-11.346
當來之世	-11.346
政	-11.3461
鵝	-11.3461
陰界入	-11.3461
而散佛上	-11.3462
南北	-11.3462
嬈惱	-11.3462
發是言	-11.3462
於一事中	-11.3462
得法眼淨	-11.3463
譏嫌	-11.3463
為他廣說	-11.3464
性自空	-11.3464
紹	-11.3466
皮肉	-11.3466
荼	-11.3466
矚	-11.3467
了別	-11.3467
來生我國	-11.3468
資養	-11.347
唯佛能	-11.347
觀音勢至	-11.3471
清徹	-11.3471
校量	-11.3472
本願力故	-11.3472
2	-11.3472
1	-11.3473
往生阿彌陀佛國	-11.3473
愛惜	-11.3473
誤失	-11.3473
為人演說	-11.3473
畫師	-11.3474
文顯可	-11.3475
驚畏	-11.3475
七覺支	-11.3477
利養名聞	-11.3477
不愚於法	-11.3478
惡趣中	-11.3479
勤行精進	-11.3479
謂佛如來	-11.348
聲聞之眾	-11.3481
曾作	-11.3481
仁和	-11.3483
生憂惱	-11.3484
引導	-11.3485
沙彌	-11.3486
枝條	-11.3489
接引	-11.349
領解	-11.349
入母腹	-11.3491
貪染	-11.3492
或食	-11.3492
譬如世間	-11.3494
四德	-11.3495
麁言	-11.3496
羊	-11.3496
謙下	-11.3497
大品	-11.3497
爾時得無垢女	-11.3497
一名字	-11.3499
八正道	-11.35
迴向發願	-11.35
何方	-11.3502
三種意生身	-11.3504
開演	-11.3508
八聖諦	-11.3508
自讚	-11.3508
舌根	-11.3512
與大比丘	-11.3514
大德須菩提	-11.3516
無量億劫	-11.3522
承力	-11.3522
如實觀察	-11.3526
離貪	-11.3527
如來悉知	-11.3531
愍眾生	-11.3531
無量諸天	-11.3533
甚深之法	-11.3536
了諸法	-11.3536
十二緣	-11.3537
四正勤	-11.3538
化成	-11.3541
別圓	-11.3541
無量阿僧祇劫	-11.3543
作是願	-11.3543
相差別	-11.3546
獲益	-11.3548
味著	-11.3548
不墮惡趣	-11.3548
地前菩薩	-11.3548
真正	-11.355
或墮	-11.3551
能信解	-11.3552
持五戒	-11.3552
七寶所成	-11.3557
遊戲神通	-11.3557
極果	-11.3557
色愛	-11.3561
坐起	-11.3561
前後際	-11.3562
法界體性	-11.3564
已去	-11.3564
業緣	-11.3564
鷲峯山中	-11.3568
婦人	-11.3568
煩惱病	-11.3569
見濁	-11.3571
順行	-11.3571
遍十方	-11.3571
大慈大悲	-11.3571
遍計	-11.358
第十三	-11.3585
心得自在	-11.3585
無為生死	-11.3587
見己身	-11.3587
慈哀	-11.3588
寶鈴	-11.3589
調柔	-11.359
無吾我	-11.3592
起發	-11.3592
斯人	-11.3593
入一切法	-11.3595
一切諸法悉	-11.3596
結前	-11.3597
未成	-11.3599
善清淨	-11.3599
十月	-11.36
出種種	-11.3601
乃至成佛	-11.3602
不及一	-11.3607
兵眾	-11.3607
此二句	-11.3611
深宮	-11.3613
正體	-11.3614
一部	-11.3619
受報者	-11.3619
彼國眾生	-11.3625
所牽	-11.3631
無所觀	-11.3631
依何	-11.3633
為令眾生	-11.3637
擇法	-11.3639
窮盡	-11.3644
此之二	-11.3653
修諸功德	-11.3656
於中有三	-11.3663
得無上	-11.3665
受決	-11.3667
辟支佛乘	-11.368
污染	-11.368
法自在	-11.3685
何名為	-11.3688
諸惡道	-11.369
信忍	-11.369
依倚	-11.3691
三十一	-11.3693
罪人	-11.3694
誠諦	-11.3695
如是行相	-11.3699
千俱胝	-11.3701
計執	-11.3701
煩惱所染	-11.3708
宗體	-11.3708
形體	-11.3709
覺慧	-11.3709
亦不見有	-11.3711
不能解	-11.3714
聲聞藏	-11.3714
始從	-11.3716
彼世界	-11.3717
色無色	-11.3717
四邊	-11.3717
死時	-11.3718
能堪忍	-11.372
爾時會中有	-11.3721
水流	-11.3723
妙德	-11.3724
三世佛	-11.3725
斷無明	-11.3727
所治	-11.373
強名	-11.3735
皆發阿耨多羅三藐三菩提心	-11.3738
但唯	-11.3741
向苦	-11.3743
終歸	-11.3745
易可	-11.3752
一切皆如是	-11.3758
唯見	-11.3759
爾時有佛	-11.3759
不思惟	-11.3768
自誓	-11.377
離染	-11.3774
之所以	-11.3775
他國	-11.3779
在家人	-11.378
只是	-11.3794
見於如來	-11.3795
念根	-11.3799
故被大甲冑	-11.3804
他受用	-11.3809
生染著	-11.381
釋迦文	-11.3819
無量壽國	-11.382
過去未來現在諸佛	-11.3822
眾生之類	-11.3824
於一一	-11.3825
愚迷	-11.3829
正修行	-11.3837
窮極	-11.384
散華	-11.3841
入地獄	-11.3842
心恒	-11.3844
其香	-11.3849
覺他	-11.3849
汝等眾生	-11.3852
得見佛	-11.3856
自活	-11.3856
未來世中	-11.3857
」』	-11.3857
如是言生	-11.3858
對治法	-11.3861
化土	-11.3868
何處眼	-11.3871
常親近	-11.3874
聞如是法	-11.3874
正義	-11.3877
曾聞	-11.388
識亦如是	-11.388
智者誰不	-11.3886
珂	-11.3886
願聞	-11.3888
伏魔	-11.3891
即是此說苦	-11.3892
三十五	-11.3893
必成	-11.3895
五義	-11.3897
啼	-11.3898
娛	-11.39
五痛五燒	-11.3901
所應作	-11.3901
無邊稱王	-11.3902
淨除	-11.3902
嚟	-11.3903
羞	-11.3903
擎	-11.3904
惶	-11.3905
侍衛	-11.3906
三耶三佛	-11.3906
見是事已	-11.3906
還生	-11.3907
欽	-11.3907
參	-11.3908
深固作意	-11.3909
墮於惡趣	-11.3909
所燒	-11.3909
什	-11.391
斬	-11.391
暇	-11.391
孝順	-11.391
謀	-11.3911
慜	-11.3911
選	-11.3911
逃	-11.3912
稽首足下	-11.3912
不可窮盡	-11.3912
佐	-11.3912
群萌	-11.3913
弗	-11.3913
畢竟成就	-11.3913
頂戴	-11.3913
汗	-11.3913
犁	-11.3914
久如	-11.3914
清冷	-11.3914
各於其國	-11.3915
機關	-11.3915
腐	-11.3916
芬	-11.3916
乃至施及貯水	-11.3916
脩羅	-11.3917
即現其身而為化度	-11.3917
自知作佛	-11.3917
釧	-11.3917
無二無別	-11.3917
卷第一百	-11.3918
陣	-11.3918
綺飾	-11.3918
焦	-11.3918
媚	-11.3918
斯經典	-11.3918
骨髓	-11.3918
六曰	-11.3919
闇冥	-11.3919
希奇	-11.3919
謹	-11.392
摩休勒	-11.392
羼底波羅蜜多	-11.392
住立一面	-11.3921
從坐而起	-11.3921
洛	-11.3921
就初段中	-11.3921
是為菩薩等遊	-11.3921
眉間白毫	-11.3922
半月	-11.3922
右繞七匝	-11.3922
江南	-11.3923
9	-11.3923
顏容	-11.3923
上品上生	-11.3924
長者居士	-11.3924
棄背	-11.3925
摩竭	-11.3925
於佛菩提	-11.3927
如其次第	-11.3927
寶幔	-11.3931
最勝尊	-11.3931
同歸	-11.3932
觀視	-11.3936
塵沙	-11.3938
諸住信菩薩	-11.3938
今現在說法	-11.394
家室	-11.394
天冠	-11.3941
大方廣	-11.3942
無救	-11.3942
無礙辯才	-11.3944
第三段中	-11.3944
奇妙	-11.3947
不失壞	-11.3949
過恒沙	-11.3949
如其所應	-11.3953
惑亂	-11.3954
二章	-11.3955
所藏	-11.3956
親近善友	-11.3957
無熱惱	-11.3957
當成佛	-11.3959
等者無名云	-11.396
是故次觀	-11.396
落日	-11.396
起慈心	-11.396
無過上	-11.3962
寶花	-11.3962
於閻浮提	-11.3963
如響	-11.3965
自然化生	-11.3966
無諂	-11.3969
到彼岸義	-11.397
堅固精進	-11.3971
妙果	-11.3971
七寶池中	-11.3972
我念過去	-11.3973
簡異	-11.398
覩斯	-11.3982
已到	-11.3982
禪思	-11.3982
畏於	-11.3983
苦惱眾生	-11.3983
方處	-11.3985
是佛方便	-11.3985
是菩薩忍	-11.3992
不作是念	-11.3994
所觀境	-11.3996
四十二	-11.4001
一切物	-11.4003
有一比丘	-11.4008
無縛	-11.4008
無常苦	-11.4009
命濁	-11.4012
佛滅後	-11.4013
不周	-11.4015
既爾	-11.402
別歎	-11.4028
不驚	-11.4034
第三句	-11.4035
一代	-11.4038
證悟	-11.4047
無足	-11.405
眾患	-11.4054
上妙衣服	-11.4055
我昔曾	-11.4057
隨其所應	-11.4057
領受	-11.406
正位	-11.4063
同然	-11.4068
總攝	-11.407
勤苦如是	-11.4071
月實	-11.4072
當作是念	-11.4074
赤色	-11.4075
生信樂	-11.4077
學處	-11.4077
大眾中	-11.4084
同類	-11.4086
七十二	-11.4087
計著	-11.409
金光明	-11.4092
於自身	-11.4093
能善了知	-11.4095
之士	-11.4097
此岸	-11.4097
他家	-11.41
持禁戒	-11.4107
名譽	-11.4111
助成	-11.4114
大風	-11.4119
離散	-11.4123
阿難白佛	-11.4128
利益世間	-11.4148
諸過失	-11.415
諸白法	-11.415
十歲	-11.4152
成立	-11.4152
於四天下	-11.4156
軍眾	-11.4159
學地	-11.4159
諸戲論	-11.4163
諸佛剎中	-11.4165
二十九	-11.4172
第十六	-11.4186
超度	-11.419
三昧定	-11.419
覺了故	-11.4193
炎熾	-11.4197
趣涅槃	-11.4197
攝取眾生	-11.42
除罪	-11.42
共同	-11.421
普施	-11.4213
中有五	-11.4215
後復	-11.4215
大法光明	-11.4229
相不可得	-11.423
一念心	-11.4231
顯前	-11.4232
無高下	-11.4237
薄福	-11.424
受胎	-11.4242
毫相	-11.4246
佛名號	-11.4248
勝鬘說	-11.4253
饒益眾生	-11.4257
我昔為	-11.4259
恒沙等	-11.4267
地種	-11.4268
眾共	-11.4268
一乘章	-11.427
不愚	-11.4271
一標	-11.4273
數千	-11.4274
轉輪	-11.4278
戒定	-11.4282
理趣善巧	-11.4284
本來空	-11.4285
得一切智	-11.4287
眼界	-11.4287
菩薩得無生法忍	-11.429
命終時	-11.4292
轉增	-11.4292
生恐怖	-11.4297
學道	-11.4299
垢染	-11.4301
二約	-11.4306
如是等經	-11.4307
他物	-11.4309
我說此	-11.4313
世間無與等	-11.4313
復次夢見如來	-11.4317
厭惡	-11.4319
四種功德	-11.4322
須陀洹果	-11.4323
謂一切法	-11.4328
修多羅中	-11.4341
止善	-11.4343
語須摩提	-11.4343
住信菩薩	-11.4353
於夢中	-11.4353
弊惡	-11.4356
目揵連	-11.4359
諸比丘眾	-11.4362
龜	-11.4366
作金色	-11.4368
有八種	-11.4371
突	-11.4371
陷	-11.4374
聲香味觸	-11.4376
剃	-11.4376
異口同音	-11.4378
懈	-11.4378
爭	-11.4379
譯經三藏朝散大夫試光祿卿	-11.4379
人不樂於此經	-11.4379
婬慾	-11.438
拘胝那庾多	-11.438
若見眾生樂	-11.438
周遍虛空際	-11.4381
妃	-11.4382
前世宿命	-11.4382
莊	-11.4382
早	-11.4382
所說之法	-11.4383
萎	-11.4383
五體投地	-11.4383
頭上	-11.4383
風所吹	-11.4383
邏	-11.4383
饌	-11.4384
不損	-11.4384
乘七寶車	-11.4384
智業圓滿	-11.4384
於長夜	-11.4385
說此法門	-11.4386
心想中現	-11.4386
研	-11.4386
閻魔羅界	-11.4386
見先所作	-11.4386
祿	-11.4388
栰	-11.4388
瓦	-11.4388
顏貌	-11.4388
無明緣行	-11.4388
蔔	-11.4388
好醜	-11.4389
阿蘭若處	-11.4389
捷	-11.4389
恣汝所問	-11.439
西天譯經三藏	-11.439
洗浴	-11.439
揵	-11.439
鑊	-11.439
舍衛大城	-11.4391
囚	-11.4391
殷重	-11.4392
兜術天	-11.4392
歿	-11.4392
苾芻尼	-11.4392
白色	-11.4393
無有出期	-11.4393
煎	-11.4393
陛	-11.4393
千葉	-11.4393
閻	-11.4394
役	-11.4395
毛髮	-11.4395
腦	-11.4395
退墮	-11.4395
訶責	-11.4395
朋黨	-11.4396
天龍鬼神	-11.4396
尤	-11.4396
如實觀	-11.4396
世雄	-11.4397
哆	-11.4397
煙	-11.4397
鮮潔	-11.4397
爾時世尊欲重宣此義而說偈言	-11.4397
諸珍寶	-11.4397
為其主	-11.4398
▁33	-11.4398
開曉	-11.4398
或生地獄	-11.4399
沙門瞿曇	-11.4399
齋戒清淨	-11.4399
句斯謂為發	-11.4399
身壞命終	-11.4399
尸波羅蜜	-11.44
數取趣	-11.44
宣暢	-11.4401
幻惑	-11.4402
多所饒益	-11.4402
空中有聲	-11.4402
須賴言	-11.4405
血氣	-11.4406
丁	-11.4407
無邊無際	-11.4407
分段變易	-11.4407
伺求	-11.4408
捨財	-11.4411
優鉢羅華	-11.4411
金臺	-11.4412
明行成	-11.4412
訛也	-11.4412
一尋	-11.4412
阿惟越致菩薩	-11.4413
又如大地	-11.4415
總以結	-11.4415
爾時淨飯王	-11.4417
證得阿耨多羅三藐三菩提	-11.4419
是心是佛	-11.442
發露	-11.4421
爾炎	-11.4421
第二忉利天	-11.4421
轉女身	-11.4421
諸行無常	-11.4422
爾時金剛手菩薩大祕密主	-11.4423
損壞	-11.4423
四維	-11.4423
爾時摩訶迦葉白	-11.4424
眾星	-11.4424
佛邊	-11.4425
安和	-11.4425
常勤	-11.4425
異道	-11.4426
自身真如	-11.4426
瓶中取	-11.4427
百俱胝	-11.4428
於時世尊	-11.4428
百味	-11.4428
表了	-11.4428
上虛空中	-11.4432
致敬	-11.4433
如經中說	-11.4434
生死流轉	-11.4437
入法界	-11.4439
爾時尊者阿難	-11.4439
許可	-11.444
那花	-11.4441
神通之力	-11.4445
時天帝釋	-11.445
其佛國土	-11.445
判教	-11.4451
盲者	-11.4453
詮表	-11.4456
大法鼓	-11.4458
自下第四	-11.4458
雜香	-11.4459
真佛子	-11.4459
遍治	-11.4464
馥師	-11.4464
為最正覺	-11.4465
菩提場	-11.4466
不愚法	-11.4468
聞此法門	-11.4473
見諸阿修羅	-11.4479
識蘊	-11.4479
自恣	-11.4481
住不放逸	-11.4483
聖尊	-11.4483
通達一切	-11.4483
有風名曰	-11.4484
於是經典	-11.4485
何所得	-11.449
佛說經已	-11.4492
救拔	-11.4493
俱致	-11.4494
舍利下	-11.4496
得無疑	-11.4498
甚深正法	-11.4499
興世	-11.4504
顯示一切諸法	-11.4504
受快樂	-11.4505
及諸大眾	-11.4509
兩句	-11.451
如是說已	-11.4511
佛說大乘	-11.4511
逼切	-11.4513
空如來藏	-11.4514
自他根	-11.4518
不思議智	-11.4521
一萬	-11.4525
如理方便	-11.4526
刀劍	-11.4527
雜花	-11.4528
煩惱染	-11.4528
現在前	-11.4538
菩薩摩訶薩善巧方便	-11.454
請護	-11.4541
不可壞	-11.4542
諸疑惑	-11.4543
於中有四	-11.4545
彼不動如來	-11.455
歎德	-11.4552
豈得	-11.4553
八萬四千法門	-11.4555
獲利	-11.4562
計常	-11.4562
諸菩薩意	-11.4562
水火風界	-11.4569
無能勝	-11.457
翻前	-11.4572
精進根	-11.4575
和上	-11.4576
妄起	-11.4586
證滅	-11.4586
財施	-11.4587
巨	-11.4587
化導	-11.4591
莊嚴佛土	-11.4592
鈴	-11.4593
十萬億	-11.4593
在家出家	-11.4596
諸佛所說	-11.46
善不善法	-11.4601
二十六	-11.4612
想像	-11.4613
戒學	-11.4616
猛火	-11.4618
于地	-11.4621
有十二	-11.4622
名得自在	-11.4633
諸人民	-11.4634
無愁憂	-11.4635
諸佛菩提	-11.4635
盛滿	-11.4638
上味	-11.464
心無所住	-11.4643
難處	-11.4646
方能	-11.4652
四十一	-11.4653
未曾有也	-11.4653
出城	-11.4653
尚可	-11.4654
犯罪	-11.4658
以為實	-11.4663
轉復	-11.4672
自念言	-11.4675
諸佛及諸菩薩	-11.4676
離垢光	-11.4676
安定	-11.468
華蓋	-11.4681
正辨	-11.4685
法界平等	-11.4692
煩惱障	-11.4696
不缺	-11.4708
得生淨土	-11.4711
生彼國土	-11.4714
知覺	-11.4721
不破壞	-11.4725
極難	-11.4728
惡逆	-11.473
若得聞	-11.473
說之為	-11.4731
他心智	-11.4735
計為	-11.4749
圓明	-11.4753
柔順	-11.4773
救我	-11.478
無主宰	-11.4781
知一切眾生	-11.4782
所住處	-11.4789
不倚	-11.4802
摧破	-11.4805
名如來藏	-11.4813
為化眾生	-11.4814
諸婆羅門	-11.4816
億歲	-11.4817
經首	-11.4833
平等覺	-11.4834
無上尊	-11.484
邑	-11.484
一切聲聞緣覺	-11.4842
無漏智	-11.4843
醜	-11.4847
起慈悲心	-11.4848
蘭	-11.4852
祕要	-11.486
幔	-11.4862
綺	-11.4865
八十種好	-11.4867
說三乘	-11.4869
獵	-11.4869
幻偽	-11.4869
體不可得	-11.4872
無含藏	-11.4873
攀	-11.4875
肢	-11.4875
杵	-11.4875
裏	-11.4876
羯磨	-11.4876
愆	-11.4878
光梵大師賜紫沙門臣惟淨等奉詔譯	-11.4878
吠	-11.4878
毘利耶波羅蜜多	-11.4878
施食	-11.4879
溪	-11.488
纖	-11.4881
斯苦甚大	-11.4881
適悅之相	-11.4882
師子勇猛雷音菩薩	-11.4883
筋	-11.4883
籌量	-11.4883
狀貌	-11.4883
憤	-11.4883
爪	-11.4883
夢中畢竟無有	-11.4883
不苦不樂	-11.4883
筆	-11.4884
卿宣梵大師賜紫沙門臣日稱等奉詔譯	-11.4884
欣笑	-11.4884
腸	-11.4885
煥	-11.4885
剃除鬚髮	-11.4886
供養恭敬尊重讚歎	-11.4886
佛滅度後	-11.4886
性不可得	-11.4886
羸瘦	-11.4887
等恒河沙數諸佛	-11.4888
荊棘	-11.4888
見佛身	-11.4888
足蹈	-11.4888
皆在虛空中下向	-11.4888
般涅盤	-11.4889
鉤	-11.4889
革	-11.4889
憍逸	-11.4889
卷第八十	-11.4889
圖	-11.489
楚	-11.489
肇	-11.489
斥	-11.489
忿恨	-11.4891
微風吹動	-11.4891
瓦礫	-11.4891
般舟	-11.4892
映徹	-11.4892
十二部經	-11.4892
蚊虻	-11.4892
床榻	-11.4892
髀	-11.4892
姿	-11.4893
竹	-11.4893
馳騁	-11.4893
論議	-11.4893
痰	-11.4893
亦無分別	-11.4893
卷第六十	-11.4894
嚴淨佛剎	-11.4894
受其報	-11.4894
倉	-11.4894
毀辱	-11.4894
卷第一百一十	-11.4894
蠅	-11.4894
危害	-11.4894
緩	-11.4895
此二句名莊嚴	-11.4895
發無上菩提之心	-11.4895
逈	-11.4895
褥	-11.4896
崛山	-11.4896
上品下生	-11.4896
專注	-11.4897
客塵煩惱	-11.4897
胎子	-11.4897
頑	-11.4897
輪回	-11.4898
6	-11.4898
人民熾盛	-11.4898
人中最為第一	-11.4898
頭面作禮	-11.4899
4	-11.4899
雲雨	-11.4899
不忘失	-11.4899
無窮無極	-11.49
喻攝受	-11.49
5	-11.49
速得阿耨多羅三藐三菩提	-11.4901
8	-11.4901
含靈	-11.4901
勳	-11.4901
衰惱	-11.4901
仇	-11.4901
卷第四十	-11.4902
憍薩羅	-11.4902
阿須輪	-11.4903
身語意業	-11.4905
不取不捨	-11.4906
無漏不盡	-11.4906
□□	-11.4906
祈	-11.4907
求利養	-11.4907
八聖道	-11.4907
西方極樂世界	-11.4908
醫師	-11.4908
攝受正法善男子善女人	-11.4908
幢蓋	-11.4912
說不能盡	-11.4913
終不忘失	-11.4913
傷害	-11.4913
不定聚	-11.4915
蘭若	-11.4916
述云第三	-11.4918
佛說阿彌陀經	-11.4919
皆是大阿羅漢	-11.492
佛及僧	-11.492
大千界	-11.4921
說伽他	-11.4922
則自然亂風吹	-11.4923
與諸眷屬	-11.4925
經義疏	-11.4925
憂悔	-11.4926
墜墮	-11.4927
金樹	-11.4927
七地以還	-11.4928
是心作佛	-11.4928
○	-11.4928
居止	-11.4928
受諸苦	-11.4929
穢濁	-11.493
爾時彌勒菩薩	-11.493
大丈夫相	-11.493
修行十善業道	-11.4932
圓教	-11.4933
十八不共法	-11.4934
地水	-11.4939
無異波羅蜜	-11.4941
常空寂	-11.4944
盡諸漏	-11.4945
攝諸眾生	-11.4946
善知方便	-11.4948
得阿羅漢道	-11.4949
釋迦牟尼	-11.4949
名為正觀	-11.4949
劫盡	-11.495
不能轉	-11.4954
諸智者	-11.4955
積集善根	-11.4955
於說法師	-11.4959
顛倒真實	-11.4966
是以言	-11.4969
千由旬	-11.4971
亦能了知	-11.4971
後五百歲	-11.4973
通序	-11.4974
一切諸法亦復如是	-11.4975
頭面禮	-11.4977
辟支佛地	-11.4978
牒上	-11.498
普見如來	-11.498
時魔波旬	-11.4984
布地	-11.4992
說呪	-11.4992
攝護	-11.4993
如上所說	-11.4997
以方便力	-11.4999
釋名門	-11.5003
誦經	-11.5003
當往生阿彌陀佛國	-11.5005
得無所畏	-11.5005
無量光如來	-11.5006
是名為智	-11.5007
生如是心	-11.501
賢王	-11.5011
值諸佛	-11.5013
利有情	-11.5013
於世尊所	-11.5017
終盡	-11.5017
無上正法	-11.5017
憂念	-11.5019
無怖	-11.5021
僧寶	-11.5023
所宣說	-11.5024
美食	-11.5026
梵本	-11.5027
生彼國已	-11.503
而為供養	-11.5032
教導	-11.5034
得生彼	-11.5035
諸佛出世	-11.5036
四十九	-11.5042
分之中	-11.5047
之徒	-11.5055
故知是	-11.5057
宣正法	-11.5059
白象	-11.5068
斷諸煩惱	-11.5074
邪念	-11.5074
總歎	-11.5082
頓教	-11.5083
慧日	-11.5083
九地	-11.5084
為魔所	-11.5085
妙藥	-11.5087
諸佛教	-11.5089
在虛空	-11.5091
齊等	-11.5092
無我我所	-11.5096
其中眾生	-11.5099
好樂	-11.5099
皆得成就	-11.5099
隨何	-11.5103
淨不淨	-11.5104
無作諦	-11.5114
無慚	-11.5114
能隨順	-11.5116
風輪	-11.5116
入山	-11.512
俱胝那庾多	-11.5125
斷一切煩惱	-11.5125
此尊者	-11.5128
念僧	-11.513
初正明	-11.5133
一切法忍	-11.5134
貪樂	-11.5135
族姓子須賴	-11.5139
言菩提者	-11.5144
寶光	-11.5149
忍界	-11.5152
佛世尊所	-11.5153
亦有三	-11.5153
胎中	-11.5163
眾生濁	-11.5163
求菩薩道	-11.5166
即是攝受正法	-11.517
一切法自性	-11.517
無緣慈	-11.517
以之為	-11.517
諸佛之法	-11.5172
真理	-11.5173
富饒	-11.5176
然燈佛	-11.5176
極惡	-11.5177
幻士	-11.5185
如是三法	-11.519
而得解脫	-11.5191
五眼	-11.5193
無塵	-11.5194
智德資糧善巧	-11.5198
現笑	-11.5201
離諸相	-11.5207
如實知見	-11.5208
爾時會中	-11.5218
當得成佛	-11.5219
莫不歡喜	-11.5223
三十四	-11.5228
求佛菩提	-11.523
繒	-11.5236
深樂	-11.5237
不共法	-11.5243
小劫	-11.5245
云何受持	-11.5252
實有不	-11.5259
有餘涅槃	-11.5262
千拘胝	-11.5262
勤勇	-11.5266
彼佛世界	-11.5268
我為說	-11.5268
罪障	-11.5269
如實智	-11.5273
五劫	-11.5284
初段	-11.5287
所表	-11.5292
照世	-11.5295
尊者舍利弗	-11.5298
其間	-11.5302
普照十方	-11.5304
受眾苦	-11.5309
華臺	-11.5309
笑因緣	-11.5311
令彼眾生	-11.5312
尊不共法	-11.5315
淨智者	-11.5323
諸眾生類	-11.5325
作大利益	-11.5326
為利一切	-11.5337
出世間法	-11.5337
行頭陀	-11.5346
是間	-11.5355
名師子吼	-11.5356
生我剎	-11.536
九十六	-11.5368
學戒	-11.5371
和悅	-11.5375
但取	-11.5375
空無我	-11.5376
人中上	-11.5383
篋	-11.5387
度一切眾生	-11.5389
以下釋	-11.539
較	-11.5397
欲愛	-11.5397
帛	-11.5398
卷第九十	-11.5398
迭	-11.5399
熾焰	-11.54
表裏	-11.5401
史	-11.5401
儒童	-11.5402
舞	-11.5403
有一類	-11.5403
陀摩尸利比丘	-11.5404
糞掃衣	-11.5405
於阿耨多羅三藐三菩提得不退轉	-11.5405
選擇	-11.5405
一業敷演經法	-11.5405
踐	-11.5405
輔	-11.5407
符	-11.5407
與大比丘眾千二百五十人俱	-11.5407
巖	-11.5407
湯	-11.5408
屏	-11.5408
阿羅訶	-11.5408
百味飲食	-11.5408
孕	-11.5409
痛不可言	-11.5409
若人若天	-11.5409
彫	-11.541
肥	-11.541
識身識	-11.541
世自在王佛	-11.541
當信是稱讚不可思議功德	-11.541
徙	-11.541
己之	-11.5411
凌	-11.5411
谷響	-11.5411
雹	-11.5411
賣	-11.5411
面貌	-11.5411
但隨世俗	-11.5412
彼現有佛	-11.5412
贍部洲	-11.5412
自業自	-11.5412
所問經論	-11.5413
?』」「	-11.5413
女無愁憂	-11.5413
曲躬	-11.5413
乃往過去	-11.5413
沈沒	-11.5413
奴僕	-11.5414
重明斯義說伽	-11.5414
詺	-11.5414
迷伽	-11.5415
疲厭	-11.5416
唾	-11.5416
梵語	-11.5416
不顧身命	-11.5416
師子步雷音菩薩	-11.5416
陽	-11.5416
償	-11.5417
展轉其中	-11.5417
如救頭然	-11.5417
八萬四千由旬	-11.5417
在在處處	-11.5417
鳩槃茶	-11.5417
未嘗	-11.5417
祠	-11.5418
寂寞	-11.5418
辰	-11.5419
不望報	-11.5419
恒河沙等諸佛世界	-11.5419
是九地	-11.542
無有少法可得	-11.542
心初起	-11.542
佛告阿逸菩薩	-11.542
木叉	-11.542
菩薩摩訶薩修行般若波羅蜜多故	-11.542
軀	-11.5421
授阿耨多羅三藐三菩提記	-11.5421
遍炎熾	-11.5421
劫初成時	-11.5421
現斯瑞	-11.5421
叫	-11.5422
菩薩夢中見	-11.5422
天人魔梵	-11.5422
旃檀	-11.5422
勝鬘師子吼	-11.5423
爾時世尊欲重明斯義說伽	-11.5423
出微妙音	-11.5423
闊	-11.5423
昔行菩薩道時	-11.5423
菩薩復有四事法	-11.5423
皇	-11.5424
臨壽終時	-11.5424
劣弱	-11.5425
菩薩用是四事	-11.5425
趺	-11.5425
是染因	-11.5425
括	-11.5426
毗尼	-11.5426
遠離願求	-11.5427
勝慧波羅蜜多	-11.5428
無有受報者	-11.5428
承佛神力	-11.5429
】【	-11.5429
嚴麗	-11.5429
雲霧	-11.5429
淨除業障	-11.5429
我說是人	-11.543
悉檀	-11.543
調御師	-11.543
諸天龍神	-11.5431
當自端	-11.5431
千世界	-11.5432
燈炷	-11.5432
演暢	-11.5432
將護彼意	-11.5432
劫生死之罪	-11.5434
名聞利養	-11.5434
是淨因	-11.5434
如來應等正覺	-11.5434
神仙	-11.5435
韻	-11.5437
豎	-11.5437
方面	-11.5437
除魔業	-11.5438
所言文	-11.5439
微薄	-11.5439
閻浮利	-11.5439
一行三昧	-11.5439
假施設	-11.5441
狂亂	-11.5442
憎惡	-11.5442
五百苾芻	-11.5442
面像	-11.5443
願我當來	-11.5444
不起不滅	-11.5444
誦習	-11.5445
聲聞辟支佛地	-11.5445
復有十種	-11.5446
無執著	-11.5447
厭苦樂求涅槃	-11.5447
授手	-11.5447
皆來集會	-11.5447
智度論云	-11.5448
五穀	-11.5449
魔宮	-11.5449
無邊慧菩薩摩訶薩	-11.545
大龍	-11.5454
求生淨土	-11.5456
牟尼尊	-11.5456
虗妄	-11.5457
論師	-11.5458
雲集	-11.546
非今有	-11.5461
當發趣	-11.5463
寶間錯	-11.5463
寶座	-11.5463
三千大千世界六種震動	-11.5464
乞食比丘	-11.5467
卑下	-11.5472
光音天	-11.5474
微妙音	-11.5475
如幻三昧	-11.5475
以智慧力	-11.5476
便自墮	-11.548
父母不淨	-11.548
功力	-11.5481
聞此法已	-11.5484
魔羅	-11.5484
敬事	-11.5488
禪師	-11.549
愛戀	-11.549
恒沙劫	-11.5494
復次自夢見	-11.5495
苦哉	-11.5496
諸根寂靜	-11.5497
而得究竟	-11.5497
能開示	-11.5498
世尊入城	-11.5498
摩睺羅伽等	-11.55
及比丘僧	-11.5501
於中初言	-11.5502
雄猛	-11.5505
作禮而去	-11.5509
勝鬘所說	-11.551
魔及魔	-11.5511
倍增	-11.5511
凡夫二乘	-11.5518
不慕	-11.5521
不惜	-11.5522
於如來前	-11.5526
遍動	-11.5527
無漏戒	-11.5528
缺漏	-11.5529
遍法界	-11.5532
畢竟空	-11.5533
恒河沙劫	-11.5534
乃至廣說	-11.5536
金光	-11.5539
三段	-11.5543
大法王	-11.5544
我曹	-11.5546
眾生心行	-11.5548
王舍	-11.5549
無常苦空	-11.5549
既竟	-11.5552
無有疑	-11.5557
文殊問	-11.5558
修禪定	-11.5569
佛告離垢施	-11.5571
聞空中	-11.5572
如佛世尊	-11.5576
是二菩薩	-11.5576
於聲聞乘	-11.5577
讀誦大乘	-11.5577
善寂	-11.5579
無懈	-11.5581
無量億	-11.5583
本誓	-11.5584
諸女人	-11.5592
本性空	-11.5598
障難	-11.5598
如是得言	-11.5602
不嫉	-11.5603
演說諸法	-11.5605
卷第五十	-11.5607
根缺	-11.5608
耳根	-11.5609
巳上	-11.561
引攝	-11.5613
視之	-11.5617
了了	-11.5627
今發願	-11.5628
奪其	-11.5632
是諸天子	-11.5634
猶如夢	-11.5635
自見身	-11.5641
成無上道	-11.5643
侍佛	-11.5645
作眾惡	-11.5646
立誓	-11.5651
四依智	-11.5662
枯竭	-11.5669
無所執	-11.5673
上來雖有	-11.5685
七寶池	-11.5687
福利	-11.569
初識起	-11.5694
要由	-11.5701
即我身是	-11.5708
最上勝	-11.5711
所施行	-11.5711
一百二十	-11.5714
險惡	-11.5717
方便力	-11.5719
圓滿具足	-11.572
殑伽沙	-11.5721
大病	-11.5722
他論	-11.5728
天人大眾	-11.5736
最上最勝	-11.5741
汝等應當	-11.5742
無去來	-11.5755
難測	-11.5762
莫知	-11.5763
可證	-11.5768
遊化	-11.5771
普聞	-11.5777
六句	-11.578
背捨	-11.5784
十年	-11.5797
脇	-11.5805
流水	-11.581
我今應當	-11.5812
別列	-11.5815
於三有	-11.5815
最妙	-11.5817
現在未來	-11.585
願我當	-11.5852
毘舍	-11.5858
而得成就	-11.5861
樹葉	-11.5868
熱鐵	-11.5869
超諸	-11.5878
思慧	-11.5882
實諦	-11.589
僧伽	-11.5893
清風	-11.5897
七步	-11.5899
不為難	-11.59
真實性	-11.5901
千二百五十人	-11.5903
怙	-11.5905
雪	-11.5907
戒品	-11.5907
隨何等	-11.5909
專修	-11.5909
煮	-11.591
無窮盡	-11.591
修苦行	-11.5912
空無所有	-11.5912
風力	-11.5919
是惡比丘	-11.592
煩惚	-11.5923
呪護一切	-11.5927
說此頌已	-11.5928
所稱讚	-11.5928
其法者	-11.5935
瓔	-11.5936
述云第	-11.5941
在閑居	-11.5941
千二百	-11.5943
慼	-11.5944
吠瑠璃	-11.5945
是人則為	-11.5945
栴	-11.5948
彼國土	-11.5949
迦旃延	-11.595
聞我名號	-11.595
碯	-11.5953
男女妻妾	-11.5953
諾	-11.5954
限齊	-11.5954
從世尊以下	-11.5955
幹	-11.5956
捕	-11.5957
纓	-11.5957
鄔	-11.5957
尼乾	-11.5958
旃	-11.5959
怨親	-11.5959
游	-11.5959
分陀利	-11.596
眾務過	-11.596
名相分別	-11.5961
具善巧方便菩薩摩訶薩	-11.5961
阿閦菩薩摩訶薩	-11.5963
孰	-11.5963
影響	-11.5963
天台	-11.5964
寐	-11.5964
假使菩薩逮得斯定	-11.5964
目真隣陀	-11.5964
二種相因	-11.5964
琰摩羅界及阿	-11.5964
於千歲中	-11.5964
闍世	-11.5965
跛	-11.5965
端身正行	-11.5965
皤	-11.5966
目不暫捨	-11.5966
帛謙	-11.5966
童男	-11.5966
飽	-11.5966
著衣持鉢	-11.5967
闡提	-11.5967
我滅度後	-11.5967
逮得無所從生法忍	-11.5967
祐	-11.5967
所應度者	-11.5967
波頭摩	-11.5968
拳	-11.5968
閉塞	-11.5968
四十四	-11.5969
尚復不	-11.5969
見所作業及受	-11.5969
到於彼岸	-11.5969
錠光	-11.597
群臣	-11.597
從坐起	-11.597
抑	-11.597
其緣生時	-11.597
前識既滅	-11.597
澡	-11.597
九十一劫	-11.597
鞞	-11.5971
其業生時亦	-11.5971
光曜	-11.5971
紫金臺	-11.5971
無與如來同	-11.5971
滅無所至	-11.5971
鈎	-11.5971
悉不共住	-11.5971
癩	-11.5971
剎帝利	-11.5972
紛	-11.5972
色究竟天	-11.5972
斂	-11.5972
福光太子	-11.5972
營事業者	-11.5972
奧	-11.5972
或生阿修羅	-11.5972
衢	-11.5972
以願力故	-11.5973
聞是說已	-11.5973
三十二相八十種好	-11.5973
六十二見	-11.5973
善哉馬勝	-11.5973
阿闍世王太子	-11.5973
而演說法	-11.5973
位在	-11.5973
若初識生名	-11.5973
級	-11.5973
在在所生	-11.5974
助菩提法	-11.5975
大蘊如來	-11.5975
羽	-11.5975
酸	-11.5975
即可施設	-11.5975
祇樹給孤獨園	-11.5975
頓悟	-11.5975
一切諸法空者	-11.5975
殖眾德本	-11.5976
金剛手大祕密主菩薩摩訶薩	-11.5976
尠	-11.5976
咽喉	-11.5976
有一戶蟲名曰	-11.5976
毘耶娑	-11.5977
上品中生	-11.5977
若他觀者	-11.5977
如汝所言	-11.5977
縱廣正等	-11.5977
滅度之後	-11.5978
末代	-11.5979
宛然	-11.5979
名為邪觀	-11.5979
是即名為	-11.5979
姊妹	-11.5979
針	-11.5979
瞻視	-11.5979
出世間上上智	-11.5979
波羅奈	-11.5979
迦留羅	-11.5979
癰	-11.598
讓	-11.598
三藐三	-11.598
團	-11.598
是實實語	-11.598
流泉	-11.598
沈淪	-11.598
聞是等經	-11.5981
轉妙法輪	-11.5981
脣	-11.5981
勤進	-11.5981
以偈答曰	-11.5982
則有假立	-11.5982
十疑論	-11.5982
千二百五十人俱	-11.5982
如幻三摩地	-11.5982
翼	-11.5983
諍競	-11.5983
曼達多王	-11.5983
是見初地	-11.5983
若能成就如是四法	-11.5983
蘊處界	-11.5984
阿練兒	-11.5985
金剛臺	-11.5985
八萬四千歲	-11.5986
智勝菩薩	-11.5986
段明義	-11.5986
劬	-11.5987
乃至算數譬喻所不能及	-11.5987
六方諸佛	-11.5989
死時亦	-11.599
默然而住	-11.599
不退不轉	-11.599
無生無起	-11.5992
不可稱量	-11.5992
大祕密主	-11.5993
寶性論	-11.5993
不斷不究竟	-11.5994
不退阿耨多羅三藐三菩提	-11.5994
生阿閦佛剎者	-11.5994
句別有	-11.5994
勤加	-11.5995
最後識	-11.5995
爛壞	-11.5996
端坐	-11.5999
身語心	-11.5999
等分行	-11.5999
以不斷故	-11.6
壞體性空	-11.6
往返	-11.6001
不求果報	-11.6001
給施	-11.6001
有何所以	-11.6002
如世尊說	-11.6002
二萬一千	-11.6003
根莖	-11.6004
雜穢	-11.6004
生諸佛前	-11.6005
精進波羅蜜多	-11.6005
欣然	-11.6005
四大海水	-11.6006
內凡	-11.6006
阿那含果	-11.6007
是空解脫門	-11.6007
迭相	-11.601
諸仙	-11.6014
寂慧菩薩摩訶薩	-11.6016
而悉能知	-11.6019
長久	-11.602
若有淨信	-11.602
我剎中人	-11.602
因陀羅	-11.6021
般涅槃後	-11.6021
諸有智者	-11.6022
云何四法	-11.6026
玄義	-11.6026
若已施	-11.6028
初徵	-11.6029
猶尚	-11.603
迦攝	-11.6032
所言義	-11.6033
復於虛空中	-11.6034
諦善巧	-11.6035
流散	-11.6036
童子當知	-11.6042
退失智慧	-11.6042
亦得往生	-11.6043
鼻根	-11.6045
復告護國	-11.6046
乃曰為	-11.6047
內懷	-11.6047
從初至	-11.6051
妙宗	-11.6051
乞求	-11.6053
安樂淨土	-11.6057
初發菩提心	-11.6057
不飲酒	-11.606
種種雜色	-11.6061
天下人	-11.6061
得其便	-11.6063
有三句	-11.6067
成就般若波羅蜜	-11.607
初又二	-11.6073
一切聲聞辟支佛	-11.6074
便作是念	-11.6076
十五日	-11.6076
真金色	-11.6078
眼所見	-11.6081
當作是觀	-11.6082
座上	-11.6084
一時俱	-11.6085
不斷無明	-11.6093
學大乘	-11.6095
千億萬	-11.6095
恒沙諸佛	-11.6096
離越	-11.6102
二緣生	-11.6104
本性清淨	-11.6106
寶冠	-11.6111
對昔	-11.6112
阿彌陀佛光明	-11.6115
諸比丘僧	-11.6115
四恩	-11.6121
變壞	-11.6125
號阿彌陀	-11.6127
是故說言	-11.613
五住地	-11.613
了一切法	-11.6131
離老病死	-11.6134
復有菩薩摩訶薩	-11.6135
亦不可見	-11.614
善巧天子	-11.6145
拘胝劫	-11.6146
禮拜供養	-11.6155
受蘊	-11.6158
釋迦文佛	-11.6162
歸向	-11.6162
不思議佛法	-11.6163
談說	-11.6165
既蒙	-11.6169
遍淨天	-11.617
暫時	-11.6174
復非如	-11.6177
是有漏	-11.6182
無怯弱	-11.619
六趣	-11.6199
毘曇	-11.6202
)」	-11.6204
諸婇女	-11.6208
受用土	-11.6209
眾生生者	-11.6213
二乘之人	-11.6215
令得解脫	-11.6216
歲數	-11.6218
不漏	-11.6221
不休息	-11.6223
違順	-11.6224
號釋迦牟尼	-11.6225
生嫉妬	-11.6236
師子王	-11.6238
釋疑	-11.6239
根性修	-11.624
宜知	-11.6243
憂喜	-11.6249
一卷	-11.6262
苦患	-11.6269
滿其中	-11.6272
處胎	-11.628
現神通	-11.6282
行步	-11.6282
僧祇劫	-11.6291
俗諦	-11.6292
不復現	-11.6294
造五逆	-11.6294
廣為眾生	-11.6298
四十三	-11.6303
不得往生	-11.6309
諸鳥	-11.6318
往生無量清淨佛國	-11.6321
甚為難	-11.6325
珍妙	-11.6341
阿毘	-11.6356
最第一	-11.6367
此閻浮提	-11.6368
曹	-11.6379
譬如大海	-11.638
習近	-11.6385
迷悶	-11.6386
明珠	-11.6386
彌樓	-11.639
測量	-11.6392
計度	-11.6401
今為汝說	-11.6406
亦無所得	-11.6415
諸德本	-11.6416
殿堂	-11.6421
垢濁	-11.6422
調馬	-11.6426
修行般若波羅蜜多	-11.6427
親族	-11.6432
於百千劫	-11.6437
雖爾	-11.6443
眼識界	-11.6448
趣向菩提	-11.6451
力無畏	-11.6463
彼佛壽命	-11.6469
無名云	-11.6502
往生淨土	-11.6509
十小劫	-11.6511
重病	-11.6511
無著無礙	-11.6511
如理作意	-11.6521
嚩底	-11.6526
門戶	-11.6533
或生畜	-11.6536
說是經	-11.654
初分科	-11.654
󰥕	-11.654
十八不共佛法	-11.6541
大明章句	-11.6542
昵	-11.6544
魁膾	-11.6544
大如車輪	-11.6546
妖	-11.6547
劫賓那	-11.6548
前後圍繞	-11.6548
跪	-11.6549
從何所來	-11.655
那羅延法師	-11.655
若生生空	-11.655
佗	-11.655
珊	-11.6551
得其福德	-11.6551
開闡	-11.6551
無有少法從於此世	-11.6551
謦欬聲	-11.6552
占	-11.6552
三千大千界	-11.6553
貢	-11.6553
空解脫門	-11.6553
剃髮	-11.6553
退坐一面	-11.6553
如是愚癡無聞凡夫	-11.6554
淫	-11.6554
彼業生時	-11.6554
若生若滅	-11.6555
斫	-11.6555
從三昧起	-11.6555
植眾德本	-11.6555
貧賤	-11.6555
總以標舉	-11.6555
率	-11.6555
心善解脫	-11.6555
蔡	-11.6556
世話過	-11.6556
丹	-11.6556
吠琉璃	-11.6556
威神之力	-11.6556
右遶	-11.6556
慈孝	-11.6557
釁	-11.6557
狼	-11.6557
效	-11.6558
川	-11.6558
啟請	-11.6558
啼哭	-11.6558
彼後識滅時名	-11.6558
若無相者則無願求名無願	-11.6558
陶	-11.6558
異業現前	-11.6558
繖蓋	-11.6558
府	-11.6558
祕藏	-11.6559
填	-11.6559
割截	-11.6559
綠	-11.6559
刀兵	-11.6559
忌	-11.6559
城郭	-11.656
焚燒	-11.656
當學般若波羅蜜	-11.656
吏	-11.656
均	-11.6561
泰	-11.6561
孫	-11.6562
現其人前	-11.6562
臍	-11.6562
安隱豐樂	-11.6562
央	-11.6562
阿素洛	-11.6562
癡冥	-11.6562
澍	-11.6563
復有菩薩名	-11.6563
童男童女	-11.6563
無量無邊阿僧祇劫	-11.6563
密迹力士	-11.6563
革屣	-11.6564
共相娛樂	-11.6564
尊者摩訶迦葉	-11.6564
淡	-11.6564
寬廣	-11.6565
不為眾惡	-11.6565
擬	-11.6565
古注	-11.6566
燭	-11.6566
鋒	-11.6566
痛哉	-11.6566
十大受	-11.6567
眾生轉大悲心	-11.6567
完	-11.6567
無去無來	-11.6567
即當成佛號	-11.6568
膜	-11.6568
於彼時中	-11.6568
三昧正受	-11.6569
狹劣	-11.6569
茂盛	-11.6569
怨憎	-11.6569
燃燈	-11.6569
華適小萎	-11.6569
為無量清淨佛作禮	-11.6569
喉	-11.657
甘露味	-11.657
又復理家	-11.657
若內若外	-11.657
魏	-11.657
涕唾	-11.657
自分業	-11.6571
危厄	-11.6571
枳	-11.6571
如應說法	-11.6571
普流	-11.6572
殺賊	-11.6572
潔淨	-11.6573
財穀	-11.6573
有愛住地	-11.6573
群迷	-11.6573
無名無相	-11.6573
柁那波羅蜜多	-11.6574
九十九	-11.6574
村邑	-11.6574
得是三昧	-11.6574
多饒	-11.6575
梯	-11.6576
五百弟子	-11.6577
天上人間	-11.6577
何以得知	-11.6577
正明夫人	-11.6578
學無學	-11.6578
八地巳上	-11.6579
述云此第五	-11.658
有漏無漏	-11.658
制伏	-11.658
中有純	-11.658
聖旨	-11.6581
醜惡	-11.6581
疎	-11.6581
廣如別章	-11.6581
唯有如來得般涅槃	-11.6581
授決	-11.6582
磨滅	-11.6582
迷沒	-11.6583
無上正等覺	-11.6583
說是經時	-11.6583
愚闇	-11.6586
百倍	-11.6586
進退	-11.6586
和順	-11.6588
為眾說法	-11.6589
增盛	-11.659
銀樹	-11.659
鐵圍山	-11.659
招提僧	-11.6591
潤益	-11.6592
傷歎	-11.6592
作業果報皆	-11.6596
汝今若能	-11.6596
執劍	-11.6596
有菩薩名	-11.6598
劫奪	-11.6599
尋思	-11.66
離有為相	-11.6601
如斯覺故觀無	-11.6601
香象	-11.6601
紫金色	-11.6601
諸疑網	-11.6602
我今略說	-11.6602
起信論	-11.6603
持經戒	-11.6605
如來藏章	-11.6605
若不生者	-11.6607
往生論	-11.6608
世俗諦	-11.6609
悅樂	-11.6609
成熟有情	-11.6611
在王舍城	-11.6612
奉上如來	-11.6613
誦持	-11.6618
處處地	-11.6618
自下次明	-11.6619
日沒	-11.662
如是眾生有	-11.6625
勸進	-11.6627
八千人	-11.6627
當入城	-11.6628
甘美	-11.6628
十七種	-11.6629
餘殃	-11.6629
諸世界中	-11.6629
真諦云	-11.6633
貪惜	-11.6634
聽聞正法	-11.6635
乾闥婆王	-11.6635
常修梵行	-11.6637
幻術	-11.664
生無量清淨佛國	-11.6642
所化眾生	-11.6646
莊嚴其身	-11.6647
歷事	-11.6648
不與取	-11.6649
菩薩善權方便	-11.6651
隨俗	-11.6651
希有事	-11.6658
布施持戒	-11.6668
而能獲得	-11.6669
可悅	-11.6669
不可議	-11.6673
半劫	-11.6674
皆得往生	-11.6675
在何處	-11.6676
復有人言	-11.6677
入於涅槃	-11.668
下三品	-11.6681
又如世間	-11.6684
七寶具足	-11.6686
善通達	-11.6686
為他說	-11.6687
毒害	-11.669
主宰	-11.6693
大般涅槃	-11.6694
殑伽沙劫	-11.6694
門釋之	-11.6697
無障礙智	-11.6697
最上乘	-11.6697
咸生歡喜	-11.67
千里	-11.6701
可施設	-11.6703
此神識	-11.6706
明造惡	-11.6711
證大菩提	-11.6717
別指	-11.6717
不得四智	-11.6718
當請問	-11.672
智慧辯才	-11.6722
卿等	-11.6723
以何意	-11.6725
有諸苾芻	-11.6726
大唐三藏法師玄奘奉詔譯	-11.6739
五婆羅門	-11.6744
唯佛世尊	-11.6745
遣使	-11.6749
救苦	-11.675
手掌	-11.6754
不復更	-11.6757
趣無上道	-11.676
千年	-11.6763
林樹	-11.677
求一切智	-11.6772
是故今明	-11.6773
億數	-11.6773
殃罪	-11.6774
我如是說	-11.6778
光潔	-11.6784
無所礙	-11.6799
白毫	-11.6807
忍辱力	-11.6816
得大菩提	-11.6831
時彼眾中	-11.6841
諸龍女	-11.6843
說此偈	-11.6843
速往	-11.6853
水聚	-11.6856
明闇	-11.6866
供養承事	-11.6875
鼓音	-11.6887
成就一切智	-11.6891
大悲之心	-11.6893
佛寺	-11.6903
諸賢聖	-11.6903
昔曾	-11.691
諸財寶	-11.6914
求阿耨多羅三藐三菩提	-11.6915
身口業	-11.6925
更有餘	-11.6927
日光明	-11.6929
願說何	-11.6942
智海	-11.6948
夢中所見	-11.6958
文略	-11.6986
敷座	-11.7001
有漏業	-11.7006
此甚深法	-11.7013
諸愚夫	-11.7034
圓頓	-11.7039
離諸惡道	-11.704
有何義	-11.7044
如意寶	-11.7052
無限量	-11.7061
喜愛	-11.7067
馥	-11.7082
八邪	-11.7084
興大悲	-11.7086
菩薩摩訶薩成就如是	-11.7101
葉花果	-11.7129
亦無少法	-11.7146
不可言說	-11.7149
無數諸佛	-11.7156
毘摩質多阿修羅王	-11.7157
四十八	-11.7162
目乾連	-11.7164
拘物頭	-11.7164
共相謂言	-11.7164
離我我所	-11.7164
合為一	-11.7166
清潔	-11.7168
云何諸菩薩摩訶薩成就	-11.7168
是為下結	-11.7168
長跪	-11.7168
第	-11.7169
瑪瑙為	-11.7169
共持散諸佛及	-11.7171
壽終之後	-11.7171
勝高如來	-11.7171
若有菩薩聞說	-11.7171
我為汝說	-11.7173
覽	-11.7173
浪	-11.7174
啼泣	-11.7174
今當為汝	-11.7174
今此所論	-11.7174
未生怨	-11.7174
羅閱	-11.7174
又成就修行者	-11.7175
身獨度脫	-11.7176
又此眼等	-11.7176
此中何有貪	-11.7176
當知是人徒自疲勞	-11.7176
得不起法忍	-11.7177
本無有我亦無有情	-11.7177
菩薩乘富伽羅	-11.7177
𦟛	-11.7178
疲極	-11.7178
廓	-11.7178
攘	-11.7178
升	-11.7178
郡	-11.7178
窣堵波	-11.7179
蹈	-11.7179
捶	-11.7179
信解清淨乃至發希有想	-11.7179
富樓那彌多羅尼子	-11.7179
妻子眷屬	-11.718
幻士仁賢	-11.718
如是之業乃至	-11.718
天上天下	-11.718
稽首作禮	-11.718
是人見已心生	-11.718
掩	-11.7181
映奪	-11.7181
日子王	-11.7181
多陀阿伽度	-11.7181
豁	-11.7181
勝觀如來	-11.7181
歌羅邏	-11.7181
回	-11.7181
暑	-11.7181
東方去此	-11.7182
試光祿卿	-11.7182
坐禪一心	-11.7182
淨剎	-11.7182
儻	-11.7182
我有光明名	-11.7182
摩尼寶珠	-11.7183
闥	-11.7183
伽樓羅	-11.7183
積累	-11.7184
賓頭盧	-11.7184
諸大弟子	-11.7184
阿閦菩薩	-11.7184
彼諸人等	-11.7185
余	-11.7185
不以為難	-11.7185
摩訶目揵連	-11.7185
此即初也	-11.7185
四如意足	-11.7185
釋梵護世	-11.7187
國邑	-11.7187
須臾頃	-11.7187
閙	-11.7187
阿彌陀佛剎中	-11.7187
甘蔗	-11.7187
恒河上	-11.7188
諸上善人	-11.7188
首楞嚴	-11.7188
盜賊	-11.7188
獄卒	-11.7188
給孤獨園	-11.7188
長跪合掌	-11.7189
此菩薩見第	-11.7189
津	-11.7189
於晨朝時	-11.7189
當何名此經	-11.719
席	-11.719
此眾生信	-11.719
膳	-11.719
如是諸菩薩摩訶薩畢竟成就	-11.7191
奉迎	-11.7191
覺傳梵大師賜紫沙門臣法護等奉詔譯	-11.7191
支謙	-11.7191
北齊三藏那連提耶舍譯	-11.7191
本所不見	-11.7192
五濁惡世	-11.7192
遍震	-11.7192
註	-11.7192
重任	-11.7193
無高無下	-11.7193
仰惟	-11.7193
坐於道場	-11.7193
不驚不怖	-11.7193
苞	-11.7193
第三段	-11.7193
國中人天	-11.7194
▁34	-11.7194
受持諷誦	-11.7194
諸菩薩意各復欲得	-11.7194
虎狼	-11.7194
慈心不殺	-11.7195
7	-11.7195
苦空無常	-11.7195
救療	-11.7195
不來不去	-11.7195
欝單越	-11.7196
甜	-11.7196
僧坊	-11.7196
乘於大乘	-11.7197
僮僕	-11.7197
但有名字	-11.7197
尊者優陀夷	-11.7197
縮	-11.7197
徹聽	-11.7198
▁32	-11.7198
惔怕	-11.7199
病瘦	-11.7199
七菩提分	-11.7199
不及其一	-11.72
怨賊	-11.72
離垢施女問	-11.72
筋骨	-11.72
當如是學	-11.72
患厭	-11.7201
問於尊者	-11.7202
初識生已	-11.7202
一沙一佛	-11.7202
辛苦	-11.7202
即有其七	-11.7202
測度	-11.7203
外觀色	-11.7204
難伏地	-11.7204
村落	-11.7204
竅	-11.7204
文分為	-11.7204
無量無數不可思議	-11.7204
甫	-11.7205
降伏諸魔	-11.7205
不斷三寶	-11.7205
甚深般若波羅蜜	-11.7205
於中初明	-11.7206
隨諸眾生種種	-11.7206
題目	-11.7206
明了通達	-11.7206
翻譯	-11.7207
如恒水邊流沙	-11.7207
歌羅	-11.7207
彼處所有	-11.7208
火所燒	-11.7208
救世	-11.7209
七寶宮殿	-11.7209
究盡	-11.7209
爾時頂生	-11.7209
是義云何	-11.721
楯	-11.721
有何差別	-11.7211
應得度者	-11.7211
光澤	-11.7211
第六天上	-11.7213
惟願世尊	-11.7214
剎那不住	-11.7214
朗然	-11.7216
得大利	-11.7216
如是般若不與	-11.7216
皆能了知	-11.7217
平等入解	-11.7218
譬如幻師	-11.7218
時彼童子	-11.7219
不斷無明住地	-11.722
不見少法	-11.722
志存	-11.722
梵輪	-11.7222
頭陀功德	-11.7222
何等為六	-11.7225
親承	-11.7225
皆悉現前	-11.7225
如須彌山王	-11.7226
嗟歎	-11.7226
第二段	-11.7226
彰己	-11.7227
何者為三	-11.7229
於剎那頃	-11.7229
攝律儀	-11.7229
受諸苦惱	-11.7231
不倦	-11.7232
放淨光明	-11.7232
何義故作如是說	-11.7234
給使	-11.7234
大勢力	-11.7242
出胎	-11.7243
而修供養	-11.7243
未來際	-11.7246
如來不共法	-11.7246
具大威德	-11.7246
西方淨土	-11.7246
守護正法	-11.7246
勝華藏菩薩	-11.7247
復有四法成就	-11.7247
風雨	-11.7249
敷具	-11.725
大藥復白	-11.7251
是名善說	-11.7251
百千萬億那由他	-11.7251
離心意	-11.7254
為他說法	-11.7255
金剛句	-11.7258
度彼岸	-11.7258
極難得	-11.7261
凡小	-11.7263
獲福	-11.7263
不得邊際	-11.7265
即有其三	-11.7266
發遣	-11.7267
如其所說	-11.7268
生牙	-11.7268
全體	-11.727
故名阿彌陀	-11.7272
得善利	-11.7275
行菩薩行時	-11.7281
差別之相	-11.7285
宣示	-11.7285
無有作者	-11.7286
九種	-11.7287
得正法智	-11.7289
不空如來藏	-11.7293
方世界有	-11.7296
舉手	-11.7297
第四句	-11.7302
已辦	-11.7303
心不顛倒	-11.7304
故名為覺	-11.7305
住佛前	-11.7305
寂默	-11.7309
初識生	-11.7311
受胎生	-11.7311
如師子王	-11.7312
甚希有	-11.7313
利他德	-11.7315
及諸眷屬	-11.7316
在一處	-11.732
十四章	-11.7323
後總結	-11.7325
自分行	-11.7336
色聲香味觸法	-11.7341
三十九	-11.7344
兩足	-11.7356
剎那相應	-11.7357
時無垢施女謂	-11.7362
能斷除	-11.7368
本迹	-11.7371
證無生忍	-11.7377
寶樓	-11.7378
廣果天	-11.7379
六欲天	-11.738
欲界諸天	-11.7382
彼世界中	-11.7384
守門	-11.7384
共集會	-11.7386
座而坐	-11.7389
以此因緣	-11.739
苦逼	-11.7398
金輪	-11.7408
無上正真	-11.7409
眼耳鼻舌身意	-11.7409
行毘利耶波羅蜜多故	-11.7409
一相法門	-11.7409
令一切眾生悉	-11.7411
相連	-11.7412
佛神力故	-11.7421
四聖種	-11.7443
尊重恭敬	-11.7454
諸法本無	-11.7464
辯才無礙	-11.7479
上來別	-11.7484
盡邊	-11.7488
咸作是	-11.7491
如來善了	-11.751
頭面禮佛	-11.752
寶手菩薩	-11.7538
何故偏	-11.7546
苦海	-11.7574
無一眾生	-11.7575
說如是言	-11.7586
無漏慧	-11.7587
明護法	-11.7587
寶瓔珞	-11.7587
說一相法門	-11.7598
三僧祇	-11.7621
卷第五	-11.7623
五逆罪	-11.7626
大品經	-11.7649
大梵王	-11.7656
瑜伽	-11.7658
真俗	-11.766
珠網	-11.7663
摩那	-11.7675
向佛合掌	-11.7709
寶殿	-11.7709
斷疑網	-11.7715
唯然已	-11.7727
諸伎樂	-11.7728
遠離一切諸	-11.7749
萬倍	-11.7762
曾於過去	-11.7776
六萬八千	-11.7776
凡有二	-11.7786
退屈	-11.7788
成就無量功德	-11.7797
周圓	-11.7802
響聲	-11.7808
厄難	-11.7809
悉無所有	-11.7811
訛	-11.7812
如來出現於世	-11.7812
畫像	-11.7812
汝意云何	-11.7816
耳鼻舌身	-11.7816
六十那由他	-11.7822
孽	-11.7822
如斯覺故觀	-11.7823
美味	-11.7824
勒	-11.7825
示教利喜	-11.7826
聞我名字	-11.7827
蹇	-11.7829
阿鞞跋致	-11.7829
可思議	-11.783
在家者為	-11.7831
結跏趺坐	-11.7831
柄	-11.7831
入城乞食	-11.7832
又昔曾為	-11.7834
譬如大火焚燒人身	-11.7834
我心安住觀察如色	-11.7836
阿怒	-11.7838
趣於非家	-11.7838
壅	-11.7838
摩陀比丘	-11.7838
不垢不淨	-11.7838
躍	-11.7839
上下無央數佛國	-11.7839
唱如是言	-11.7839
傅	-11.7839
宰	-11.7839
衍	-11.784
諸根悅豫	-11.784
依正二報	-11.784
抵	-11.784
故經說言	-11.784
常身命財	-11.7842
捧	-11.7842
同分心品相續	-11.7842
我等從今日已	-11.7842
縵	-11.7843
摧過咎	-11.7843
次有太子名	-11.7843
芻	-11.7844
晨	-11.7844
紀	-11.7844
導御	-11.7844
和鳴	-11.7844
焰摩天	-11.7845
鬪訟	-11.7845
造彼業已即便謝滅	-11.7845
瘖瘂	-11.7845
菩薩有四事	-11.7846
說經行道	-11.7846
泣	-11.7846
皎	-11.7847
善德天子	-11.7847
一時佛在舍衛國祇樹給孤獨園	-11.7847
晨朝	-11.7847
恚怒	-11.7847
結成極樂	-11.7847
澡浴	-11.7847
恭恪	-11.7848
了義經	-11.7848
瀑	-11.7848
駝	-11.7848
苦集滅道	-11.7848
降伏眾魔	-11.7848
休止	-11.7849
惹	-11.7849
沐	-11.7849
魅	-11.7849
六種振動	-11.7849
於千歲中未曾起念	-11.7849
夕	-11.7849
敷榮	-11.7849
峻	-11.785
脾	-11.785
世世累劫	-11.785
內於母腹	-11.785
王及夫人	-11.785
十二由旬	-11.7851
曠野大城	-11.7851
萬億劫	-11.7851
阿閦佛德號法經	-11.7851
歡娛	-11.7852
菩薩摩訶薩為欲修行般若波羅蜜多故	-11.7852
成就如是功德莊嚴	-11.7852
以偈答	-11.7852
於世尊前	-11.7852
與大苾芻眾	-11.7852
蘊界處	-11.7852
屈伸	-11.7852
校飾	-11.7852
滑	-11.7852
容貌	-11.7852
輕躁	-11.7852
潛	-11.7853
見有國土	-11.7853
或有諸行	-11.7853
中品上生	-11.7854
謗正法	-11.7854
心一境性	-11.7854
蔑	-11.7854
踊悅	-11.7854
益作諸善	-11.7855
㮈	-11.7855
殷	-11.7855
加趺而坐	-11.7855
鴻	-11.7855
遲緩	-11.7856
心以住在	-11.7856
盲聾	-11.7856
胃	-11.7856
取要言之	-11.7856
從是已後	-11.7856
人與非人	-11.7856
野馬	-11.7856
恭敬圍繞	-11.7856
菩薩摩訶薩行尸羅波羅蜜多故	-11.7857
▁310(3	-11.7857
寶上天子	-11.7857
親覲	-11.7857
芳	-11.7857
自上已來	-11.7857
我亦不說	-11.7857
於大眾中正師子吼	-11.7857
菩薩藏法門	-11.7858
霑	-11.7858
從本已來	-11.7858
演說法時	-11.7858
百千萬倍	-11.7858
勝鬘正說	-11.7858
孝養	-11.7859
心以存立	-11.7859
烏波	-11.7859
精勤修學	-11.7859
為欲勤求大菩薩藏微妙法門	-11.7859
卑賤	-11.786
利鈍	-11.786
徹視	-11.786
欲重宣此義	-11.786
隅	-11.786
如來妙色身	-11.786
又汝諸魔欲	-11.786
佛本何故起此	-11.7861
光明照耀	-11.7861
鬼趣	-11.7862
匠	-11.7863
大菩提場	-11.7863
卉	-11.7863
乳糜	-11.7863
隨諸所作	-11.7863
囑累	-11.7864
我於彼時	-11.7864
飽滿	-11.7864
為利養故	-11.7864
皆於中現	-11.7864
容儀	-11.7865
▁31	-11.7865
浣	-11.7866
是名菩薩忍辱	-11.7866
降伏一切諸魔	-11.7866
池岸	-11.7866
旃提羅	-11.7866
恭敬圍遶	-11.7868
耗	-11.7868
圓融	-11.7869
而告之	-11.7869
運載	-11.787
恭信	-11.787
樂於多言	-11.787
是名下結	-11.787
恐不然	-11.7871
跏	-11.7871
愁苦	-11.7871
休廢	-11.7871
穢污	-11.7872
黑山	-11.7873
阿鼻地獄	-11.7873
塔寺	-11.7874
盛年	-11.7875
恣意	-11.7876
毘梨耶波羅蜜	-11.7877
阿泥樓大	-11.7877
郁伽長者	-11.7878
命終之時	-11.7879
爾時尊者舍利弗	-11.788
祇樹	-11.788
復感業風名為	-11.7881
永絕	-11.7882
毘婆尸如來	-11.7882
女人及根缺	-11.7882
忻樂	-11.7887
寂止	-11.7888
一一樓閣	-11.7888
爾時世尊知諸	-11.7889
生樂想	-11.789
焰花	-11.789
於剎那間	-11.789
為其說法	-11.789
三乘初業	-11.7892
菩薩成就修行	-11.7892
斯陀含果	-11.7892
我生巳盡	-11.7893
識宿命	-11.7894
勤勞	-11.7895
阿迦	-11.7896
慶喜	-11.7898
我復有願	-11.7898
涌出	-11.7899
諸賈客	-11.7901
住虛空中	-11.7902
證小果	-11.7902
語言辯才	-11.7904
牧牛	-11.7904
由此因緣	-11.7906
初地已上	-11.7906
何況我等	-11.7909
形狀	-11.7909
有為善巧	-11.791
永劫	-11.7911
來至佛所	-11.7913
是精進根	-11.7914
相應文句	-11.7916
稱機	-11.7918
我今當說	-11.7922
智慧亦復然	-11.7925
諮受	-11.7926
今世至	-11.7927
五百年	-11.7927
不實分別	-11.7928
聞是經已	-11.7928
善根成熟	-11.793
五色光	-11.7933
得法忍	-11.7934
坐禪	-11.7934
事不究竟	-11.7934
此等皆是	-11.7934
詣如來所	-11.7936
熟藏	-11.7939
正師子吼	-11.7945
乃至十念	-11.7949
無退屈	-11.795
相好光明	-11.7952
不從他	-11.7953
發大精進	-11.7959
貪嫉	-11.796
入聚落	-11.7968
心得無疑	-11.7975
起悲心	-11.7977
此文來	-11.7979
七寶合成	-11.7981
分布	-11.7983
氣力	-11.7989
利群生	-11.7993
四淨戒	-11.7994
現瑞	-11.7995
雙結	-11.8001
決疑	-11.8022
威施	-11.803
十力尊	-11.8035
舍那	-11.8038
羅婆	-11.8038
欲食時	-11.8053
耽欲	-11.8056
彼不動菩薩	-11.8056
惡罵	-11.8066
萎華	-11.8086
病惱	-11.8104
他方佛國	-11.8132
濁水	-11.8136
婬女	-11.8146
求大乘者	-11.8199
忘正法	-11.8201
生是念	-11.8204
妄執	-11.8243
誠信	-11.8247
貪利養	-11.825
所稱譽	-11.8256
得阿羅漢果	-11.8281
速證阿耨多羅三藐三菩提	-11.8298
橫執	-11.8304
犯禁戒	-11.8306
是名為識	-11.8308
於一切法無所	-11.8323
若干百千	-11.8324
七覺分	-11.8333
畜財	-11.8336
國中諸菩薩	-11.8403
遶三匝	-11.8431
聽我說	-11.8457
牛羊	-11.849
其中所有	-11.8492
是不破	-11.8497
曼陀羅	-11.852
若干百	-11.8525
高七多羅樹	-11.8533
栱	-11.8534
從何而	-11.8536
薩芸若意	-11.8539
辜	-11.854
令生我剎	-11.8542
迦迦羅婆花	-11.8545
不可計無央數	-11.8547
放此光明	-11.8547
忠	-11.8547
又神通智	-11.8548
𤘽	-11.8549
摩訶曼陀羅花	-11.8549
貿	-11.855
十日十夜	-11.8551
信法未久	-11.8551
觸緣受	-11.8552
各復欲得	-11.8552
究暢	-11.8553
所歸趣	-11.8553
器仗	-11.8554
如來一一如實了知	-11.8554
無願解脫門	-11.8554
緣一覺	-11.8554
是人徒自疲勞	-11.8555
混	-11.8555
退住一面	-11.8555
絡	-11.8555
黃頭	-11.8555
持國轉輪聖王	-11.8555
規	-11.8555
窈冥	-11.8555
昵彌王	-11.8556
遐	-11.8556
脊	-11.8557
瘦	-11.8557
殃咎	-11.8557
蔓	-11.8557
依此法生此法	-11.8558
讁	-11.8558
羼提波羅蜜	-11.8558
秤	-11.8558
廁	-11.8559
剪	-11.8559
得薩芸若慧	-11.8559
離波多	-11.8559
盡護戒	-11.856
身識生時	-11.856
巷	-11.856
處非處智力	-11.8561
逮得己利	-11.8561
佛說是經已	-11.8561
為法根本	-11.8561
衣服飲食臥具醫藥	-11.8562
翫	-11.8562
不可說不可說	-11.8562
拘胝歲	-11.8562
嘗	-11.8562
一毛端量	-11.8562
􂎈	-11.8562
甚理家	-11.8562
去無所至	-11.8563
景	-11.8563
矯	-11.8563
雷震	-11.8563
以佛力故	-11.8563
躁	-11.8564
彈指	-11.8564
十不善業道	-11.8564
那由劫	-11.8564
傲	-11.8564
摩拏嚩迦	-11.8564
淨莊嚴王	-11.8564
癊	-11.8565
湛	-11.8565
於諸法中得法眼淨	-11.8565
世而有生滅	-11.8565
或生天人中	-11.8565
最為殊勝	-11.8565
棘	-11.8565
兜	-11.8566
沐浴	-11.8566
在其胞裏於母腹	-11.8566
無有一法從於	-11.8566
新發意菩薩	-11.8566
一毛端	-11.8566
清信士	-11.8566
行四攝法	-11.8566
詣菩提場	-11.8566
善勝天子	-11.8566
耆域	-11.8566
鬪亂	-11.8567
聽受經法	-11.8567
浮雲	-11.8568
鹹	-11.8568
去時遲疾	-11.8568
算計	-11.8568
豐足	-11.8568
濡	-11.8568
怨恨	-11.8568
當來末世後五百歲	-11.8568
回向	-11.8568
瞬	-11.8568
發如是願	-11.8569
考	-11.8569
某甲	-11.8569
端嚴殊特	-11.8569
於五受陰	-11.8569
咄哉	-11.8569
貞	-11.857
鳩槃荼	-11.857
一來意門	-11.857
江河	-11.857
彼佛土中	-11.857
漫	-11.857
貧乏	-11.8571
額	-11.8571
賢護勝上童真	-11.8571
幅	-11.8571
唯然受教	-11.8571
八聖道分	-11.8571
盡未來際	-11.8571
炭	-11.8572
不正作意	-11.8572
病緣醫藥	-11.8572
總略乃至	-11.8572
給奉水瓶	-11.8572
轉共相成	-11.8572
紫磨金色	-11.8573
滌	-11.8573
上下無央數諸佛	-11.8573
是亦如來如實	-11.8573
說二聖諦	-11.8573
勅聽許說	-11.8573
卷第七十	-11.8573
我人眾生壽者	-11.8573
紙	-11.8574
高才	-11.8574
須彌山頂	-11.8574
光世音	-11.8574
不異有人求	-11.8574
初生之時	-11.8575
什物	-11.8575
燋	-11.8575
下品上生	-11.8575
此應具論	-11.8575
經曰佛告阿難至	-11.8575
默然不答	-11.8576
一日乃至七日	-11.8576
訟	-11.8576
流淚	-11.8576
憶想分別	-11.8576
迷醉	-11.8576
床敷	-11.8576
一味等味	-11.8578
又念過去	-11.8578
崩	-11.8578
妻室	-11.8578
是菩薩持不	-11.8578
圓滿一切佛法	-11.8578
來求者	-11.8579
暗冥	-11.8579
洽	-11.8579
相似法故	-11.8579
一切世間所不能信	-11.8579
祇洹	-11.858
必得往生	-11.858
底沙	-11.858
隙	-11.8581
菩薩得菩提時	-11.8581
大鐵圍山	-11.8581
依不求依	-11.8581
盡其形壽	-11.8581
去涅槃界遠	-11.8582
廣分別說	-11.8582
塗其身	-11.8582
於三世中	-11.8582
慰喻	-11.8582
五百侍女	-11.8583
貶	-11.8583
所應斷法	-11.8584
同居淨土	-11.8584
無量百千億那由他	-11.8584
攝善法戒	-11.8585
摩睺勒	-11.8585
不請友	-11.8585
無取無捨	-11.8585
嬾惰	-11.8585
放無量光	-11.8586
墮大地獄	-11.8586
此所獲福	-11.8586
除八十億劫生死之罪	-11.8586
言得涅槃者	-11.8587
羯羅藍	-11.8587
蘇迷盧	-11.8587
無作四聖諦	-11.8587
縱任	-11.8587
疲苦	-11.8588
漸頓	-11.8588
寶掌	-11.8588
所作巳辦	-11.8589
受十大受	-11.8589
而得生起	-11.8589
緊那羅王汝	-11.859
縱使	-11.859
無發悟	-11.859
大品云	-11.8591
普攝一切	-11.8592
乏少	-11.8592
次釋第三	-11.8593
即有其六	-11.8593
障蔽	-11.8594
非盡一切煩惱	-11.8594
明告命	-11.8595
皷	-11.8595
常住僧物	-11.8595
如此愚人	-11.8597
演說妙法	-11.8597
不可限	-11.8597
即大乘學	-11.8599
何期	-11.8599
犯不與取	-11.8601
非見非	-11.8604
逮致	-11.8604
十力無畏	-11.8604
偈半	-11.8606
不可具說	-11.8613
樹提	-11.8613
形服	-11.8614
究竟彼岸	-11.8614
如是眾生於未來世當有	-11.8615
應當捨離	-11.8616
未審	-11.8619
父母妻子	-11.862
百里	-11.862
於諸佛前	-11.8623
稱讚利益	-11.8624
是諸人等	-11.8626
而自莊嚴	-11.8632
三種淨業	-11.8634
從因緣生	-11.8636
出妙音聲	-11.8639
雙照	-11.8639
乃至識亦無	-11.8645
面形	-11.8652
得初果	-11.8655
遍至十方	-11.8663
五逆十惡	-11.8667
遊止	-11.8672
億千	-11.8681
歡喜信受	-11.869
盲冥	-11.8693
粗見	-11.8697
惡露	-11.87
久習	-11.8703
無學果	-11.8719
修菩提行	-11.8723
流轉生死	-11.8743
百二十萬	-11.8749
十方無量世界	-11.875
一光中	-11.875
受三歸	-11.8752
火焰	-11.8768
降雨	-11.877
隨法行	-11.8772
閻浮提內	-11.8789
苾芻僧	-11.8801
畏懼	-11.8866
佛性論	-11.8871
食飲	-11.8872
天人阿修羅	-11.8875
須摩提報	-11.888
歸一乘	-11.8894
是相已	-11.8895
若干千	-11.8941
我身是也	-11.896
恒沙佛法	-11.8978
佛告大藥	-11.8982
此說是為	-11.901
百五十	-11.9021
而實不	-11.9021
我今當往	-11.9034
離塵垢	-11.9044
四正斷	-11.9074
肯	-11.9141
離垢施女	-11.9142
倦	-11.9173
近善知識	-11.919
床臥	-11.9201
賈	-11.9201
遍滿十方	-11.9206
所成樓閣	-11.9206
過去久遠	-11.9274
起大慈心	-11.9289
池者底	-11.9293
上昇虛空	-11.9293
无量	-11.9297
干	-11.9306
薗	-11.9307
毛道凡夫	-11.9307
獅	-11.9309
喃	-11.931
蠕動之類	-11.9311
紫磨金	-11.9311
十方無央數世界	-11.9312
承佛聖旨	-11.9316
我發是	-11.9317
笛	-11.9319
茫	-11.9319
速能證得阿耨多羅三藐三菩提	-11.9319
愛作菩薩	-11.9319
武	-11.932
孫陀羅	-11.932
末利夫人	-11.932
剛	-11.932
玩	-11.932
芬馥	-11.9321
法能障聖道	-11.9322
詠	-11.9322
頂中光明	-11.9322
阿僧企耶劫	-11.9324
揣	-11.9324
行緣識	-11.9324
作法苾芻	-11.9325
鴈	-11.9325
鸞	-11.9325
三脫門	-11.9326
少病少惱	-11.9326
攝正法欲	-11.9326
聞是聲已	-11.9326
罵辱	-11.9326
乃至誰能染	-11.9326
尼拘陀	-11.9326
迦留陀夷	-11.9326
取緣有	-11.9326
牛跡	-11.9327
沾	-11.9328
悲泣	-11.9328
若了眼	-11.9328
街	-11.9329
以四攝法	-11.9329
七重行樹	-11.9329
而嚴飾之	-11.9329
訪	-11.9329
於諸契經	-11.933
神境通	-11.933
即為聽聞	-11.933
殆	-11.933
層	-11.933
如我解佛所說義	-11.9331
從空而來	-11.9331
兩肩	-11.9331
瞻覩	-11.9331
鎮	-11.9331
鄣	-11.9331
剃鬚髮	-11.9331
專修義利	-11.9331
礫	-11.9331
奉事師長	-11.9331
無倫匹	-11.9331
乃至命難	-11.9331
於後末世五百歲中	-11.9332
禍福	-11.9332
沮壞	-11.9332
靈禽	-11.9332
晚	-11.9332
綜	-11.9333
迴小入大	-11.9333
震吼	-11.9333
飽足	-11.9333
庫	-11.9333
自分業報	-11.9334
授佛記	-11.9334
臘	-11.9334
歡欣	-11.9334
貨	-11.9334
教我思惟	-11.9334
此說名智	-11.9334
現此微笑	-11.9334
十億菩薩皆當往生	-11.9334
排	-11.9334
一時佛在王舍城耆闍崛山	-11.9334
疫	-11.9334
慇	-11.9334
西域	-11.9335
耕	-11.9335
珍玩	-11.9335
柔順忍	-11.9335
膽	-11.9335
羸弱	-11.9335
純一無雜	-11.9335
人民及蜎飛蠕動之類	-11.9335
蚊	-11.9336
稍稍	-11.9336
菩薩摩訶薩行於方便	-11.9336
被斯甲冑	-11.9336
恚恨	-11.9337
如是出現光	-11.9337
天人本所未得	-11.9337
中品中生	-11.9337
懃苦	-11.9337
澹	-11.9337
無問自說	-11.9337
哲	-11.9338
無反復	-11.9338
不失所願	-11.9338
畜養	-11.9338
娑訶世界	-11.9338
中品下生	-11.9338
如鏡中像	-11.9339
螢火	-11.9339
躄地	-11.9339
國貧須賴	-11.9339
聞授記已	-11.9339
輪圍山	-11.9339
色相端嚴	-11.9339
令其永斷	-11.9339
魔王波旬	-11.9339
琴	-11.934
優婆提舍	-11.934
寢	-11.934
八十里	-11.934
髓腦	-11.934
受諸快樂	-11.934
轉正法輪	-11.9341
憋	-11.9341
生後利益	-11.9342
分陀利花	-11.9342
戴	-11.9342
明亮	-11.9342
冤家	-11.9343
金剛步	-11.9343
自性明亮	-11.9343
結前生後	-11.9344
而菩薩力能	-11.9344
周圍	-11.9344
菩薩摩訶薩修行靜慮波羅蜜多故	-11.9344
唯然大聖	-11.9344
甚希奇法	-11.9344
生大怖畏	-11.9344
復問汝等	-11.9344
受持讀誦通利	-11.9344
背痛	-11.9345
前起後	-11.9345
不容受	-11.9345
我佛剎中	-11.9345
一心三觀	-11.9346
復更思惟	-11.9346
鉢那	-11.9346
能作難作	-11.9347
無量無邊阿僧祇	-11.9347
亦不作非	-11.9347
總而言之	-11.9347
祚	-11.9347
無色無形	-11.9347
無形質	-11.9347
鉢底	-11.9348
此有情根性以	-11.9348
細軟	-11.9348
微細難知	-11.9348
廣為他說	-11.9349
若減一劫	-11.9349
渴乏	-11.9349
毘耶娑仙	-11.9349
一向記說	-11.9349
林公	-11.9351
壞敗	-11.9351
禪定波羅蜜多	-11.9351
在大眾中	-11.9351
那羅延力	-11.9351
種植	-11.9351
隨其意樂	-11.9351
二死兼除	-11.9352
愛緣取	-11.9352
於後末世五百歲時	-11.9352
空義隱覆真實	-11.9353
躡	-11.9353
小兒	-11.9353
廣興供養	-11.9353
還復如故	-11.9353
平滿	-11.9356
初聖諦智	-11.9356
他化自在諸天	-11.9356
驚怪	-11.9356
降伏魔軍	-11.9357
有罪無罪	-11.9358
盡智無生智	-11.9358
那術	-11.9359
復有三昧名	-11.9361
熏習	-11.9362
惻	-11.9362
彼人若言	-11.9362
思擇	-11.9362
受想行識亦復如是	-11.9362
增損	-11.9363
深信因果	-11.9363
懈廢	-11.9364
恚癡	-11.9364
寶篋	-11.9364
阿彌陀國	-11.9364
頭痛	-11.9365
調適	-11.9366
淨名云	-11.9367
梵行巳立	-11.9368
無來去	-11.9368
珠瓔	-11.9369
相應不相應	-11.937
遷流	-11.937
宣說妙法	-11.9372
寶共作一樹	-11.9373
隨所聞法	-11.9373
無種種想	-11.9373
如法華云	-11.9374
出世間善法	-11.9375
大千世界	-11.9377
又一解	-11.9378
別時意	-11.9379
以讚於	-11.9382
過去曾	-11.9383
萬人俱	-11.9383
故須辨	-11.9384
界是佛境界	-11.9389
諸小王	-11.9399
造罪業	-11.9407
十方諸佛世界	-11.9411
發弘誓	-11.9416
安靜	-11.9416
王應當信	-11.9422
暴惡	-11.943
亦同然	-11.9432
兩卷	-11.9433
合掌頂禮	-11.9437
黑白	-11.9445
往昔曾	-11.9445
光明王如來	-11.9458
如前所說	-11.9459
鐵丸	-11.9484
幾許	-11.9486
持其名者離	-11.9502
佛告富樓那	-11.9506
大人相	-11.951
族姓	-11.951
壽命長遠	-11.953
能遍知	-11.9563
雲雷	-11.957
無垢施菩薩	-11.9597
坐其上	-11.9603
聞所未聞	-11.9607
歸依法僧	-11.9645
殿樓閣	-11.965
痛惱	-11.9682
世界中諸佛	-11.9734
億分不及一	-11.9739
上來雖有十	-11.9767
悲哀	-11.9767
百千那由他	-11.9769
韋提白佛	-11.9792
千六百	-11.9796
乾枯	-11.9796
國中人民	-11.981
久修梵行	-11.9812
為煩惱所	-11.9831
垂哀	-11.9861
我實不	-11.9862
亂風吹萎華	-11.9875
釋經文	-11.9914
大唐三藏	-11.9926
欲終時	-11.9933
吹擊	-11.9972
頭頂	-12.0044
違害	-12.0046
吉安	-12.0078
復感業風名	-12.0109
篤	-12.0119
各各皆乘	-12.0122
受持是經	-12.0122
令我國中諸菩薩	-12.013
淨無垢妙淨寶月王光	-12.0133
寶共作一	-12.0134
亮	-12.0136
那由他劫	-12.0137
潮	-12.014
屓	-12.0142
樞	-12.0142
離婆多	-12.0142
旬	-12.0144
初夜後夜	-12.0147
馬鳴	-12.0147
阿若憍陳如	-12.0149
以散佛上	-12.0149
更整衣服	-12.015
洲渚	-12.015
廣長舌相	-12.0151
螫	-12.0152
不可思議佛土功德一切諸佛攝受法門	-12.0152
是聖人表式	-12.0153
企	-12.0153
若有菩薩於多聞所	-12.0153
竺	-12.0153
妄想見故	-12.0154
秉	-12.0154
了知業轉無有作者	-12.0154
聞我名已	-12.0154
非有想非無想	-12.0154
讒	-12.0155
積功累德	-12.0155
【【	-12.0155
憍梵波提	-12.0155
毛竪	-12.0156
飛禽	-12.0156
楚毒	-12.0156
裁	-12.0157
伎藝	-12.0157
作供養事	-12.0157
貪欲瞋恚愚癡	-12.0157
萬種自然	-12.0157
識緣名色	-12.0157
阿㝹樓馱	-12.0157
權顯實	-12.0158
優樓頻螺	-12.0158
尫	-12.0159
曼殊沙華	-12.0159
複	-12.0159
又於千歲	-12.0159
極樂世界淨佛土	-12.0159
狐	-12.0159
惚	-12.016
鳩盤茶	-12.016
從佛口生	-12.016
泛	-12.016
踈	-12.016
厥	-12.016
皆應信受	-12.016
戚	-12.016
非我非我所	-12.0161
修行善業道	-12.0161
儒	-12.0161
轉大法輪	-12.0161
魔不能得其便	-12.0161
愁惱	-12.0161
住等引心	-12.0162
地平如掌	-12.0162
陀摩尸利	-12.0162
遮迦越王	-12.0162
藐	-12.0162
債	-12.0162
香普熏	-12.0163
舉足下足	-12.0163
坌	-12.0163
輦輿	-12.0163
撾	-12.0163
巡	-12.0164
佛剎之善快	-12.0164
晃曜	-12.0164
閡	-12.0164
殖德本	-12.0164
羂	-12.0164
六種動	-12.0164
彌勒領解	-12.0164
打罵	-12.0164
要者眾祐	-12.0164
滿中七寶	-12.0165
忙	-12.0165
疽	-12.0165
而為先導	-12.0165
被精進鎧	-12.0165
皮膚	-12.0165
義饒益聚	-12.0165
棗	-12.0165
恢廓	-12.0165
勝鬘寶窟卷	-12.0165
既到彼已	-12.0165
萬種伎樂	-12.0166
無所從生法忍	-12.0166
得不捨離	-12.0166
猶如夢覺	-12.0166
炙	-12.0166
娑婆世界主大梵天王	-12.0167
涕	-12.0167
四寶所成	-12.0167
沫	-12.0167
創	-12.0167
拂去	-12.0167
都不可復計	-12.0167
鷄	-12.0167
昔所未	-12.0167
典攬	-12.0167
郁迦長者	-12.0167
恬	-12.0168
七寶浴池	-12.0168
今此會中	-12.0168
初中後善	-12.0168
猥	-12.0168
莎	-12.0168
不疲惓者	-12.0168
善權闓士	-12.0168
爾時世尊為馬勝比丘說伽	-12.0169
貪恚愚癡	-12.0169
跳	-12.0169
惓	-12.0169
禮覲	-12.0169
敬禮無所觀	-12.0169
色聲香味細滑	-12.0169
貿易	-12.0169
製	-12.0169
真如來身名	-12.0169
郡國	-12.017
是德號法經	-12.017
水界火界風界	-12.017
循環	-12.017
掘	-12.017
綴	-12.017
師和上	-12.017
放大光明遍照	-12.017
無增無減	-12.017
和上阿闍梨	-12.017
摩那婆	-12.0171
遍滿三千大千世界	-12.0171
聾盲	-12.0171
辨觀邪正	-12.0171
顧視	-12.0171
過現未來	-12.0171
乾陀訶提	-12.0171
戮	-12.0171
牒前起後	-12.0171
貴賤	-12.0171
蘇油	-12.0171
迺	-12.0171
疲懈	-12.0171
陰種諸入	-12.0171
甫當生者	-12.0172
珂雪	-12.0172
師子遊戲金光王如來	-12.0172
如實知一切法自體相	-12.0172
若行若住若坐若臥	-12.0172
疆	-12.0172
自稱我處大仙尊位	-12.0172
二十種過	-12.0172
無減失	-12.0172
摶	-12.0172
堅鞕	-12.0173
世尊悉記	-12.0173
汝曹	-12.0173
澹泊	-12.0173
緊	-12.0173
霔	-12.0173
俟	-12.0173
眾尊王菩薩	-12.0173
胞裏	-12.0173
沈溺	-12.0173
惶怖	-12.0173
宴坐	-12.0173
如水中月	-12.0174
餚	-12.0174
欣慶	-12.0174
烈	-12.0174
節節	-12.0174
騃	-12.0174
循	-12.0175
弩	-12.0175
毘奈耶	-12.0175
降伏魔怨	-12.0175
不由於他	-12.0175
宣說法要	-12.0175
江河沙劫	-12.0176
弗婆提	-12.0176
有四戶蟲	-12.0176
於我滅後	-12.0176
於七日中	-12.0176
汝同於梵行	-12.0176
骨節	-12.0176
十萬里華	-12.0176
得如是報	-12.0177
滅時亦空	-12.0177
周迴	-12.0177
若有欲求如來	-12.0177
樹提梵志	-12.0177
六十萬億那由他恒河沙由旬	-12.0177
懶惰	-12.0177
未生善法	-12.0177
奈何	-12.0177
號哭	-12.0177
利樂諸有情	-12.0177
顛倒真實章	-12.0177
金翅	-12.0178
七日七夜	-12.0178
受種種苦	-12.0178
肺	-12.0178
怖懼	-12.0178
▁175	-12.0178
彼佛名者	-12.0178
尸利	-12.0179
首題	-12.0179
執杖	-12.0179
檐	-12.0179
壓	-12.0179
菩薩摩訶薩修行般若波羅蜜多時	-12.018
頰	-12.018
鏡像	-12.018
疊	-12.018
自見其身	-12.018
不起慢心	-12.0181
何以知之	-12.0181
樂邦	-12.0181
吃	-12.0181
侵害	-12.0181
炎熱	-12.0181
濟拔	-12.0182
掬	-12.0182
此菩薩是六地	-12.0182
讚揚	-12.0182
一諦章	-12.0182
予	-12.0182
各自異行	-12.0183
生死後際等	-12.0183
獨覺乘	-12.0184
摩多梨	-12.0184
稱之為	-12.0184
合掌作禮	-12.0184
捐棄	-12.0185
住立佛前	-12.0185
虛妄不實	-12.0185
乍	-12.0186
隱蔽	-12.0186
尼彌大王	-12.0187
當有是相	-12.0187
擾亂	-12.0187
仞	-12.0188
一一觀之	-12.0188
纏裹	-12.0188
我來迎汝	-12.0188
群賊	-12.0189
兔	-12.019
值佛出世	-12.019
百法明門	-12.019
幾數眾生	-12.0191
下品中生	-12.0191
本際不可知	-12.0192
佛告韋提希	-12.0192
本義云	-12.0192
綵女	-12.0193
如青蓮	-12.0196
無因無緣	-12.0197
不生疲倦	-12.0197
如說而行	-12.0198
言何以故至	-12.0198
珍財	-12.0198
佛告韋提	-12.02
二十五由旬	-12.0201
調戲	-12.0203
若我弟子	-12.0203
凝然	-12.0204
聞說阿彌陀佛	-12.0204
如一念頃	-12.0205
起愛樂心	-12.0205
起如是心	-12.0206
摧折	-12.0207
登地已上	-12.0207
拔一切眾生苦	-12.021
後得智	-12.0213
親近惡知識	-12.0214
無限大悲	-12.0215
困厄	-12.0218
彩畫	-12.0221
三輩往生	-12.0222
毘陀	-12.0225
喜踊	-12.023
除鬚髮	-12.0255
究竟歸依如來	-12.0277
能成辦	-12.0282
列其名	-12.0299
緣覺之乘	-12.032
剎那間	-12.0339
同聲唱	-12.035
雨天華	-12.0356
林間	-12.0359
自性無所有	-12.0413
能測	-12.0423
諸菩薩摩訶薩畢竟成就	-12.0433
瑜伽論	-12.0437
禮世尊足	-12.0438
繒幡	-12.0454
觀自在菩薩	-12.0503
雙林	-12.0601
巨富	-12.0689
當往生無量清淨佛國	-12.0822
唯願為我	-12.0829
明如來得	-12.0883
億載	-12.091
述云此第	-12.0944
弘宣	-12.0985
鐵圍	-12.0992
十八不共	-12.0998
金鈴	-12.0999
從是故以下	-12.1009
毘婆尸	-12.1013
饒益諸世間	-12.1017
栴提	-12.102
願為無上正真	-12.1033
酩	-12.1034
軒	-12.1042
放淨光	-12.1042
偃	-12.1043
䨱	-12.1046
不調散壞	-12.1046
聞此法門亦復如是	-12.1048
此之一義	-12.1049
閫	-12.1049
波吒梨花	-12.1049
一切法海印三昧	-12.1053
施與者為	-12.1055
女白王	-12.1055
僕	-12.1055
菩薩於諸眾生轉大悲心	-12.1055
輅	-12.1056
嚩帝	-12.1059
衛護	-12.1059
十二有支	-12.106
枉	-12.106
受緣愛	-12.1061
頭面著地	-12.1061
戢	-12.1061
發勇猛心	-12.1062
不保護	-12.1062
有故而彼	-12.1062
汝當諦聽	-12.1064
王阿闍貰	-12.1064
說誠諦言	-12.1065
七聖財	-12.1065
秀	-12.1065
譬我亦如	-12.1065
㯹	-12.1065
唼	-12.1065
聊	-12.1066
枕	-12.1066
遞	-12.1066
沾污	-12.1066
還到本國	-12.1066
灼	-12.1067
智德資糧	-12.1067
孩	-12.1067
叢	-12.1067
聰叡	-12.1067
四十二劫	-12.1067
牛呞	-12.1067
刈	-12.1068
揀擇	-12.1068
離諸疑悔	-12.1068
縫	-12.1068
何因何緣	-12.1068
勝鬘得書	-12.1068
秫	-12.1069
詰	-12.1069
我念往昔	-12.1069
儼	-12.1069
稱揚讚歎	-12.1069
橋	-12.1069
從空而下	-12.1069
以偈歎	-12.1069
焰意王	-12.1069
不可稱限	-12.1069
生老病死憂悲苦惱	-12.107
不可稱數	-12.107
毘盧遮那	-12.107
砂	-12.107
謹慎	-12.107
少於業障	-12.107
屎	-12.107
翅	-12.1071
魏魏	-12.1071
國王大臣	-12.1071
覺行窮滿	-12.1071
掣	-12.1072
授阿閦菩薩摩訶薩無上正真道決	-12.1072
廣勝殿	-12.1072
樂變化天	-12.1072
悶	-12.1072
猛焰	-12.1072
為欲利益一切眾生	-12.1072
泡沫	-12.1072
轉無上法輪	-12.1072
婬妷	-12.1073
長老須菩提	-12.1073
畔	-12.1073
如來述讚	-12.1073
誰於今日	-12.1073
是謂中道真實觀	-12.1073
莂	-12.1073
生執著已起	-12.1073
盡諸有結	-12.1073
忻慶	-12.1073
教我正受	-12.1073
銳	-12.1074
國大夫人	-12.1074
枷鎖	-12.1074
佛本何故興此	-12.1074
苗稼	-12.1074
兜率天宮	-12.1074
𡀔	-12.1074
侮	-12.1074
頂禮雙足	-12.1074
見惡見稠林	-12.1075
左脇	-12.1075
轡	-12.1075
無量清淨平等覺經	-12.1075
多所安隱	-12.1075
醉象	-12.1075
攝大乘論	-12.1075
晃耀	-12.1076
菩薩摩訶薩於勝慧波羅蜜多	-12.1076
阿閦佛摩訶般泥洹時	-12.1076
僥	-12.1076
=	-12.1076
發是願	-12.1076
無有退減	-12.1076
宛轉	-12.1076
過不定地	-12.1076
貧窮下賤	-12.1076
發無上菩提心	-12.1077
泉池	-12.1077
慧善解脫	-12.1077
縣邑	-12.1077
詩	-12.1077
貧匱	-12.1077
瞑	-12.1077
上來雖有七	-12.1077
是人所夢執謂為實	-12.1077
鉢頭摩	-12.1077
姦詐	-12.1077
過去現在未來	-12.1077
若遠若近	-12.1077
吝	-12.1078
康	-12.1078
慘	-12.1078
象馬車乘	-12.1078
入諸佛境界智光明莊嚴	-12.1078
非想非非想	-12.1078
星辰	-12.1078
蝕	-12.1078
人身難得	-12.1078
常不捨離	-12.1078
怪未曾有	-12.1079
紹繼	-12.1079
從頂入	-12.1079
無有少法而可	-12.1079
右遶七匝	-12.1079
拘律陀	-12.1079
靖	-12.1079
如汝所問	-12.108
遍入諸	-12.108
吾當為汝分別解說	-12.108
為得一切智具足一切佛法故	-12.108
善心生焉	-12.108
獨作諸善	-12.108
不多不少	-12.108
贍部	-12.108
揵沓惒	-12.108
珍奇	-12.108
賀	-12.108
無退減	-12.108
健達縛	-12.1081
不離一切智心	-12.1081
無所適莫	-12.1081
密迹金剛力士謂寂意	-12.1081
坐佛樹下	-12.1081
捷疾	-12.1081
空鉢而出	-12.1082
法能為障礙	-12.1082
我語取	-12.1082
恕	-12.1082
於一念頃	-12.1082
如來身相亦復如是	-12.1082
搗	-12.1083
皇后	-12.1083
唯願說之	-12.1083
陂	-12.1083
聲聞及辟支佛	-12.1083
及五百長者子	-12.1083
百六十里	-12.1083
白鶴	-12.1083
屋宅	-12.1083
牛糞	-12.1083
砌	-12.1083
館	-12.1083
羨	-12.1084
於一劫中	-12.1084
故能爾耳	-12.1084
作大饒益	-12.1084
沸	-12.1084
大樹緊那羅王	-12.1084
萬二千人俱	-12.1084
不可稱智	-12.1084
街巷	-12.1084
為顯此義	-12.1085
不依他智	-12.1085
今所明者	-12.1085
苟	-12.1085
闇鈍	-12.1085
一依章	-12.1085
沙門及婆羅門	-12.1085
釴	-12.1085
如是念已	-12.1086
今此文中	-12.1086
嬈害	-12.1086
寶積正法經	-12.1086
大洞然等	-12.1086
溝	-12.1086
闢	-12.1086
以攝取心	-12.1086
諷	-12.1087
是故今敬禮	-12.1087
功勳嚴淨	-12.1087
如自所證	-12.1087
彼胎為從	-12.1087
速疾成就阿耨多羅三藐三菩提	-12.1087
拘盧舍	-12.1087
無應不應	-12.1087
不起恚心	-12.1087
此神通者	-12.1088
罔	-12.1088
名稱普聞	-12.1088
少光天	-12.1088
肝	-12.1088
但受諸樂	-12.1088
心生惱害	-12.1089
頻婆娑羅	-12.1089
得勝果報	-12.1089
真珠瓔珞	-12.1089
積累德本	-12.1089
授菩提記	-12.1089
功祚	-12.1089
暖	-12.1089
轉妙梵輪	-12.109
舟	-12.109
掉動	-12.109
騎	-12.109
撥	-12.109
非思量境界	-12.109
菩薩摩訶薩如是觀	-12.109
百分千分	-12.1091
遽	-12.1091
替	-12.1091
房舍	-12.1091
成實論	-12.1092
應當發願生彼國土	-12.1092
晦	-12.1092
四生後益	-12.1092
以十法為首	-12.1092
爾時師子勇猛雷音菩薩白	-12.1092
克	-12.1093
瑣	-12.1093
不可復計劫	-12.1093
真子章	-12.1093
勝現王如來	-12.1093
毘沙門天王	-12.1093
西晉月氏國三藏竺法護譯	-12.1094
然佛如來	-12.1094
得大勢菩薩	-12.1094
從是為下	-12.1094
精進行童子	-12.1094
以無二聖諦智	-12.1094
莫測	-12.1095
優婆斯	-12.1095
僧伽梨	-12.1095
格	-12.1096
大乘廣智	-12.1096
此菩薩是五地	-12.1096
佛言便說	-12.1096
菩提智所斷	-12.1096
殘害	-12.1096
大圓鏡智	-12.1097
言行相應	-12.1098
不減失	-12.1098
理行果	-12.1098
三摩地三摩鉢底	-12.1098
參差	-12.1099
如來色無盡	-12.1099
信受諦奉	-12.11
唯除五逆誹謗正法	-12.11
毀譽	-12.11
觀世音大勢至	-12.1103
如來身者不可以	-12.1104
經於七日	-12.1107
非其境界	-12.111
斷脫異	-12.111
若知一切苦	-12.111
得沙門果	-12.1112
乃至不與一切	-12.1113
是智者所知	-12.1113
一體三寶	-12.1114
如是大果	-12.1117
轉於法輪	-12.1118
卷第九	-12.1119
服法衣	-12.1121
亦為眾生說如	-12.1122
此二空智	-12.1123
墮於惡道	-12.1123
鮮白	-12.1128
何由得	-12.113
網彌覆其上	-12.1133
是故下結	-12.1142
轉相承受	-12.1142
於一念中	-12.1147
住於斯道	-12.1151
著糞掃衣	-12.117
生住滅	-12.1172
無少法而可	-12.1189
寶莊嚴城	-12.121
踊在虛空	-12.1228
三千大千世界六反震動	-12.1234
界即法界	-12.1239
今得值	-12.1251
必不可言	-12.1259
後末世時	-12.1286
叉手白佛	-12.1318
上下諸無央數	-12.1356
赴機	-12.1361
能為智德資糧	-12.145
廣博仙	-12.147
或有眾生色聲	-12.1507
菩提不難	-12.1633
十踰繕那	-12.1639
色聲香味	-12.166
正真正覺	-12.1707
諸無央數天	-12.1785
即有其十	-12.18
鷲峯山	-12.1822
豪富自在	-12.1882
說是頌	-12.1927
以彼法界非	-12.1997
以偈頌曰	-12.2001
莽	-12.2038
為前導	-12.2041
汝等各欲求解脫	-12.2043
曼殊沙花	-12.2047
波盧沙	-12.2049
摩訶曼殊沙花	-12.2051
快得善利	-12.2054
幽冥之處	-12.2055
長老摩訶迦葉	-12.2055
一乘大方便	-12.2055
燿	-12.2056
蟻	-12.2057
宴	-12.2059
燥	-12.2061
菩薩摩訶薩行柁那波羅蜜多時	-12.2061
薄拘羅	-12.2061
焰肩佛	-12.2062
鶴	-12.2062
定散二善	-12.2062
法是聖出離道	-12.2062
汝等今者欲	-12.2062
堪受如斯	-12.2063
搏	-12.2063
釰	-12.2063
耶輸陀羅	-12.2064
捕魚	-12.2064
洗濯	-12.2064
奏妙音樂	-12.2064
衣裓	-12.2064
擣	-12.2065
此事為難	-12.2065
是我之女	-12.2065
策勵	-12.2065
波浪	-12.2065
可殺眾生邊	-12.2065
賓	-12.2066
說此語時	-12.2066
作者亦無受者	-12.2066
邦	-12.2066
藕	-12.2067
可得長壽度世上天泥洹之道	-12.2068
浮泡	-12.2068
裝鉸	-12.2068
栴檀香光明如來	-12.2068
四部眾	-12.2068
拯	-12.2068
卓	-12.2068
涎	-12.2068
受勝妙樂	-12.2068
靡所不	-12.2068
䗍	-12.2068
挑	-12.2068
娜	-12.2069
迦陵	-12.2069
璫	-12.2069
世自在王如來	-12.2069
鍾	-12.2069
洟	-12.2069
迦毘羅	-12.2069
離垢藏菩薩	-12.2069
悚	-12.2069
後成佛時號曰	-12.2069
無邊無際與虛空等	-12.2069
傘蓋	-12.2069
矇	-12.207
奏天樂	-12.207
猶如鵝王	-12.207
激	-12.2071
斧	-12.2071
為通達法	-12.2071
假使菩薩逮	-12.2071
滅不增長	-12.2071
從法化生	-12.2071
庾	-12.2071
仰推如來	-12.2071
入菩薩位	-12.2071
拭	-12.2071
如大力士	-12.2071
營眾務	-12.2072
諱	-12.2072
復聞如來與	-12.2072
吟	-12.2072
隨智慧行	-12.2072
駃	-12.2072
破壞離散	-12.2072
東西南北四維上下	-12.2073
善說法要	-12.2073
姊	-12.2073
退菩提心聲聞	-12.2073
乃淨信出家	-12.2073
拄	-12.2073
者能施所愛	-12.2073
漱	-12.2073
慣	-12.2073
吉凶	-12.2073
怱務	-12.2073
旁	-12.2073
暮	-12.2073
矟	-12.2073
其胎裏	-12.2073
浩浩	-12.2074
司	-12.2074
諂偽	-12.2074
非內非外亦非中間	-12.2074
軌範	-12.2074
縣官	-12.2074
迮	-12.2074
踏	-12.2074
摸	-12.2074
西晉三藏竺法護譯	-12.2075
人受持彼佛名	-12.2075
牖	-12.2075
駝驢	-12.2075
高聲唱言	-12.2075
夙	-12.2075
爆	-12.2075
眾生暫見如來身已	-12.2075
後世末世五十年時於閻浮提廣行流布	-12.2075
發希有心	-12.2075
橋梁	-12.2075
種種界智力	-12.2075
函	-12.2075
十種不善業道	-12.2076
信願持名	-12.2076
禱	-12.2076
探	-12.2076
拯濟	-12.2076
瓊	-12.2076
心得自在到於彼岸	-12.2076
忖	-12.2076
婬泆	-12.2077
栽	-12.2077
為正法依	-12.2077
如彼夢覺	-12.2077
湊	-12.2077
懸處虛空	-12.2077
陞	-12.2077
皆得不退轉於阿耨多羅三藐三菩提	-12.2077
隨汝意	-12.2077
舍衛城乞食	-12.2077
轉于法輪	-12.2077
鬚	-12.2077
億百千姟	-12.2077
從正法生	-12.2077
屎尿	-12.2077
殑伽	-12.2077
是見二地	-12.2077
水成氷	-12.2077
入法朋中	-12.2078
繒蓋	-12.2078
澄清	-12.2078
葦	-12.2078
婚	-12.2078
都一焰聚	-12.2078
握	-12.2078
若天若人	-12.2079
戲弄	-12.2079
郡國縣邑	-12.2079
或有天人樂	-12.2079
阿羅漢及辟支佛	-12.2079
絲	-12.2079
識棄此身	-12.2079
延促	-12.2079
娶	-12.2079
身見等一切煩惱	-12.2079
九億六千萬	-12.2079
祇園	-12.208
一心制意	-12.208
眼性之	-12.208
蓐	-12.208
隨所樂入	-12.208
慚恥	-12.208
成義意如來	-12.208
覩史多天	-12.2081
一時佛住王舍城	-12.2081
如幻如化	-12.2081
攻	-12.2081
阿蘇羅	-12.2081
發意之頃	-12.2081
仁王經云	-12.2081
俱會一處	-12.2081
四智漸至	-12.2081
儲	-12.2081
以三昧力	-12.2081
斛	-12.2081
不起犯心	-12.2081
心業清淨	-12.2082
金毘羅	-12.2082
故有此章來	-12.2082
依何而住	-12.2082
非色非非色	-12.2082
皆是阿鞞跋致	-12.2082
撾打	-12.2082
若坐若臥	-12.2082
至行者前	-12.2082
▁310(1	-12.2082
辨定其位	-12.2083
依持建立	-12.2083
無以為喻	-12.2083
佛地所斷	-12.2083
雜廁	-12.2083
以不堅身	-12.2084
竹園	-12.2084
是諸眾鳥	-12.2084
身毛皆竪	-12.2084
侵奪	-12.2084
不相違背	-12.2084
爾時會中復有阿修羅王	-12.2084
虔	-12.2084
眉間毫相	-12.2085
有無作法	-12.2085
現住說法	-12.2085
諦法善巧	-12.2085
摩耶夫人	-12.2085
合十指掌	-12.2085
阿修羅王等無有異	-12.2085
釋迦毘楞伽	-12.2085
不自貢高	-12.2086
爾時善住意天子復	-12.2086
十萬億剎	-12.2086
粟	-12.2086
尊者大目揵連	-12.2086
日藏菩薩	-12.2086
我及我所	-12.2086
與四兵眾	-12.2086
一一供養與	-12.2086
善住意天子問文殊師利	-12.2087
詔	-12.2087
攢	-12.2087
漂沒	-12.2087
迴顧	-12.2087
作諸損害事	-12.2087
▁310(2	-12.2087
欲有所問	-12.2087
富伽羅	-12.2088
逮得法忍	-12.2088
是為菩薩等觀遊於	-12.2088
婉	-12.2088
不唐捐	-12.2088
狂醉	-12.2088
誠如所	-12.2088
壞一切煩惱藏	-12.2089
揩	-12.2089
是名此處成就第	-12.2089
裸形	-12.2089
良田	-12.2089
脩多羅	-12.2089
初花開	-12.2089
乃至發希奇想	-12.2089
遑	-12.209
陰入界	-12.209
了了分明	-12.209
貫穿	-12.209
捨身他世	-12.2091
觀世自在菩薩	-12.2091
百千萬分不及一	-12.2091
荷佛恩	-12.2091
此菩薩是七地	-12.2091
佛復語舍利弗	-12.2092
輞	-12.2092
汝謂爾時	-12.2092
巨海	-12.2093
出家菩薩住阿練兒處	-12.2094
福多於彼	-12.2094
不堅實身	-12.2094
故下文云	-12.2094
資產	-12.2094
此菩薩是二地	-12.2094
當于爾時	-12.2094
案內觀歷	-12.2095
往化淨飯王	-12.2095
八十隨形好	-12.2096
此菩薩是四地	-12.2096
志欲無減	-12.2096
知一切爾炎	-12.2096
稱讚淨土經	-12.2096
不二二義	-12.2096
皺	-12.2096
見中起險惡見	-12.2096
謂解脫味	-12.2097
我觀世間一切眾生	-12.2098
如世尊說六處	-12.2098
即聞所說此眼	-12.2098
持用供養	-12.2099
二不二義	-12.2099
以為映飾	-12.2099
令法久住	-12.2101
蘊法善巧	-12.2101
就文亦	-12.2101
雨眾色雨	-12.2102
能觀所觀	-12.2102
不離煩惱藏	-12.2102
剎那頃	-12.2102
八地已上	-12.2103
復語文殊師利	-12.2103
此類眾生	-12.2103
是能捨主	-12.2104
明人法相即	-12.2105
如是大福	-12.2105
馭	-12.2105
攝受正法廣大之義	-12.2107
遍淨諸天	-12.2108
言世尊我從今日至	-12.2109
阿羅漢辟支佛大力菩薩	-12.211
不值佛世	-12.211
蠶	-12.2112
方亦有現在	-12.2115
離間語	-12.2119
上第一輩	-12.2122
四王天	-12.2123
焉可思議	-12.2127
展	-12.2142
遲疾	-12.2142
放勝光明	-12.2147
受地獄苦	-12.215
垢膩	-12.2155
差特	-12.2157
顧惜	-12.2163
現此瑞	-12.217
一切諸天人故	-12.2171
迦葉問大	-12.2171
時地天王	-12.2171
無縛無解	-12.2185
地菩薩圓滿	-12.2204
燒煮	-12.2212
歌頌	-12.2224
九十六億	-12.2295
名句無	-12.23
禮如來足	-12.2362
悶絕	-12.2366
是名如來第十	-12.2413
生梵世	-12.2431
此是如來第十	-12.2446
被精進甲	-12.2471
辯聚菩薩	-12.2495
有一菩薩名	-12.2524
蔽日月光	-12.2749
廣果諸天	-12.276
無少法可	-12.2781
箭所中	-12.2785
成就幾法	-12.2871
從座起	-12.3138
舍摩嚩底夫人	-12.3141
勃	-12.3144
觀世音及得大勢	-12.3151
頗胝迦	-12.3155
憚	-12.3158
諧	-12.3158
舐	-12.3159
又復菩薩觀見世間一切眾生	-12.3163
詣世尊所	-12.3165
語亦善	-12.3165
蓮華中化生	-12.3166
捕鳥	-12.3166
棄諸惡道不隨惡知識中	-12.3167
姿色清淨	-12.3167
扣	-12.3167
擁	-12.3168
令持五善	-12.3168
如別章	-12.3169
地獄餓鬼畜生	-12.3169
懅	-12.3169
廣分別已	-12.3169
四十億菩薩	-12.3169
阿修羅王所設供養	-12.317
乃至盡形	-12.317
迦蘭陀	-12.317
生緣老死憂悲苦惱	-12.317
攝持於心平等安住	-12.317
常寂光土	-12.3171
把	-12.3171
將護彼意而成熟之	-12.3172
鞕	-12.3173
女語尊者	-12.3174
是名中道諸法	-12.3174
娉	-12.3174
剎那滅謝	-12.3174
瓠	-12.3175
本無今有	-12.3175
祠祀	-12.3175
拒	-12.3175
起隨喜心	-12.3175
悍	-12.3175
爾時世尊欲明了此義而說偈言	-12.3176
爐	-12.3176
亘	-12.3176
㵎	-12.3176
采	-12.3176
霜	-12.3177
菩薩將住第	-12.3177
瘖啞	-12.3178
匪	-12.3178
極樂國土成就如是功德莊嚴	-12.3178
邠	-12.3178
膏	-12.3178
豐樂安隱	-12.3178
扣法鼓	-12.3179
密迹力士謂寂意	-12.3179
水所漂	-12.3179
惒	-12.3179
羞恥	-12.3179
魔業增盛	-12.3179
箜篌樂器不鼓自鳴	-12.3179
又千歲中	-12.3179
瓜	-12.318
胞	-12.318
賓頭盧頗羅墮	-12.318
於晝夜中	-12.318
六入緣觸	-12.318
出興于世	-12.318
若男若女	-12.318
候	-12.318
自然化風名曰	-12.3181
九十六俱胝	-12.3181
信為能入	-12.3182
世人薄俗	-12.3182
令願不退	-12.3182
是人所夢是真	-12.3182
積至于膝	-12.3182
二千一百	-12.3182
作愛王	-12.3182
求餘藥	-12.3182
為子幽禁	-12.3182
名色緣六入	-12.3182
攝受正法即是波羅蜜	-12.3182
棄國捐王	-12.3182
爾時商主天子白	-12.3182
若自若他	-12.3182
二因二緣	-12.3183
頗羅墮	-12.3183
膠	-12.3183
袪	-12.3183
恪	-12.3183
膊	-12.3183
對除彼	-12.3183
裳	-12.3184
醯	-12.3184
如是難知難解	-12.3184
鑽	-12.3184
後魏天竺三藏菩提流支譯	-12.3184
鑄	-12.3184
鴿	-12.3184
從一佛剎復	-12.3184
曠野鬼王	-12.3184
於覺分法	-12.3185
甚難得值	-12.3185
如似夢覺	-12.3185
窓牖	-12.3185
者信受如來不思議	-12.3185
汝是凡夫	-12.3185
絃	-12.3185
煩惱不觸心	-12.3185
鄉	-12.3185
剖	-12.3185
身皆金色	-12.3185
吸	-12.3185
三千大千國土	-12.3186
躄	-12.3186
諭	-12.3186
阿難所傳	-12.3186
或有天人見	-12.3186
俯	-12.3187
祀	-12.3187
不可計數阿僧祇耶不可思議無量無邊	-12.3187
爾時文殊師利復語善住意	-12.3187
六年苦行	-12.3187
如毛端	-12.3187
去地七	-12.3187
嗣	-12.3187
以淨天眼	-12.3187
副	-12.3187
擊法鼓	-12.3187
四緣漸至	-12.3187
天雨眾華	-12.3187
現身中受	-12.3187
極自軟好	-12.3188
華皆復在虛空中下向	-12.3188
持諷誦讀	-12.3188
乃如是乎	-12.3188
防衛	-12.3188
如向所說	-12.3188
若復有菩薩化一眾生	-12.3188
偶	-12.3188
不適意苦	-12.3188
勇力菩薩	-12.3189
庭	-12.3189
從一佛剎至一佛剎	-12.3189
此說影像中法	-12.3189
胸臆	-12.3189
過去已滅	-12.3189
心所欲願	-12.3189
呰	-12.3189
乃至世生	-12.3189
整理衣服	-12.3189
凶	-12.3189
亦悉知見	-12.3189
不惜軀命	-12.3189
正等覺以無上智力	-12.319
導師出現利世間	-12.319
稗	-12.319
無我無我所	-12.319
我當為汝分別解說	-12.319
繞佛七匝	-12.319
鹽	-12.319
廣宣流布	-12.319
淪	-12.319
被弘誓鎧	-12.3191
▁366]	-12.3191
旅	-12.3191
曠蕩	-12.3191
驅逐	-12.3191
瞿陀尼	-12.3191
於菩薩藏微妙法門	-12.3191
賢護童真	-12.3191
付囑於汝	-12.3192
隷	-12.3192
讀誦通利	-12.3192
檢	-12.3192
挍露	-12.3192
遍布其地	-12.3192
難得解脫痛不可言	-12.3192
擐	-12.3192
饑渴	-12.3192
起悲愍心	-12.3193
散於佛上	-12.3193
當起想念	-12.3193
若麁若細	-12.3193
居家修道者	-12.3193
無言無說	-12.3193
六百四十里	-12.3193
分檀布施	-12.3193
如來不思議品第四之	-12.3193
善男子及善女人	-12.3193
自此已後	-12.3194
過七日已	-12.3194
降伏心過惡	-12.3194
得念比丘	-12.3194
去來進止	-12.3194
何以知然	-12.3194
嶽	-12.3194
費	-12.3194
膚	-12.3195
在意所欲	-12.3195
發光天子	-12.3195
緒	-12.3195
妙喜世界	-12.3195
三摩提	-12.3195
箭所射	-12.3195
從何所信	-12.3195
又此有情行	-12.3195
有世界名曰極樂	-12.3195
菩薩成就八種法	-12.3195
四大王天	-12.3196
亭	-12.3196
為諸眾生廣大宣說	-12.3196
隨世流布	-12.3196
稽	-12.3196
人能自於其中	-12.3197
腎	-12.3197
癬	-12.3197
編	-12.3197
名無點	-12.3197
眴	-12.3197
卿傳法大師臣施護奉詔譯	-12.3197
怨讐	-12.3198
酢	-12.3198
初標二釋三	-12.3198
筋脈	-12.3199
顏貌端正	-12.3199
相莊嚴星宿積王	-12.3199
鉾	-12.3199
無對礙	-12.3199
朴	-12.3199
範	-12.3199
七歲已上	-12.32
見此事時	-12.32
京	-12.32
菩薩摩訶薩為阿耨多羅三藐三菩提故	-12.32
淳淑	-12.32
普興大雲	-12.32
為活命故	-12.3201
此想成時	-12.3201
俊	-12.3201
自悔責	-12.3201
云何菩薩摩訶薩於如來不思議	-12.3201
名句文	-12.3201
者悉得調伏	-12.3201
生緣老死	-12.3202
預流果	-12.3202
我聞佛音聲	-12.3202
三十七菩提分法	-12.3202
授菩薩記	-12.3202
不虛作住持	-12.3203
四智及涅槃	-12.3203
頑鈍	-12.3203
信增上者	-12.3203
離一切煩惱藏	-12.3203
亦不在外	-12.3204
真為大願	-12.3204
閉目開目	-12.3204
無質無形	-12.3205
酌	-12.3205
灰燼	-12.3205
念佛眾生攝取不捨	-12.3206
有大水聚	-12.3206
無癡見菩薩	-12.3206
終來生人間	-12.3207
無根無住	-12.3207
心而犯於戒	-12.3207
郡縣	-12.3208
皆入一大願中	-12.3208
畜糞掃衣比丘	-12.3209
四百四病	-12.321
得阿那含道	-12.321
一劫若過一劫	-12.321
又為攝取八正道故修行	-12.321
邁	-12.3211
得究竟法身	-12.3211
堪能荷負四種重任	-12.3211
鉤鎖相生	-12.3212
就此章中	-12.3214
智慧身自在	-12.3214
為一切眾生之所瞻仰	-12.3214
阿閦鞞	-12.3215
具諸戒行	-12.3216
見一處住地	-12.3216
經一小劫得無生	-12.3217
或有眾生觸貪非	-12.3218
所作已辨	-12.3219
若有菩薩能為十方一切世界一切眾生	-12.322
言是處者	-12.3221
併	-12.3223
疑云何以	-12.3224
為世法母	-12.3225
釘	-12.3228
牽連	-12.3234
佛種不斷	-12.3236
如論頌	-12.3239
他分行	-12.3241
或有天女執	-12.3244
爾時淨無垢妙淨寶月王光菩薩	-12.3256
以下章中第	-12.3278
爾時世尊以偈頌	-12.3281
五通仙	-12.3626
與後際等	-12.3744
於梵世	-12.3785
後際等住	-12.3877
少法可取	-12.3985
吹七寶樹	-12.4005
諸菩薩皆復於虛空中共持華	-12.4249
蕳	-12.4355
又法界者即	-12.4359
眼耳鼻舌	-12.4382
賈客	-12.4393
說如斯法	-12.4398
相應及和合	-12.4403
葛	-12.4404
喏	-12.4409
澍法雨	-12.4411
執法劍	-12.4411
修心妙觀	-12.4412
梢	-12.4413
奄	-12.4414
多日不死	-12.4415
幕	-12.4416
得法餘財	-12.4418
賑	-12.4419
怱怱	-12.4419
彼極樂界	-12.442
無上正法阿竭陀膏藥	-12.442
那提迦葉	-12.442
光主王	-12.442
騾	-12.442
賒	-12.4421
蜎	-12.4421
僉	-12.4421
無有遺餘	-12.4421
無畏授等五百長者	-12.4421
出家菩薩聞淨	-12.4422
憍奢耶	-12.4422
捲	-12.4422
無倦精進菩薩摩訶薩	-12.4423
文殊師利問須摩提	-12.4424
當何名斯經	-12.4424
祭祀	-12.4424
欝茂	-12.4425
善知迴向方便心	-12.4425
善住意天子讚文殊師利	-12.4425
僻	-12.4425
即空假中	-12.4426
與痛共	-12.4426
茶	-12.4426
曚	-12.4426
爍	-12.4426
於七寶水池蓮華中化生	-12.4426
操	-12.4426
𧹞	-12.4427
嬰	-12.4427
殟鉢羅花	-12.4427
藏處說聖諦	-12.4427
翔	-12.4427
鳩	-12.4428
勝一切牛	-12.4428
得法津澤	-12.4428
鎔銅	-12.4428
叡	-12.4428
起居輕利	-12.4428
壤	-12.4428
換	-12.4429
王及臣民	-12.4429
阿提目多	-12.4429
羼	-12.4429
其一惡者	-12.4429
千二百八十里	-12.443
巍巍堂堂	-12.443
擯	-12.443
撫	-12.443
殞	-12.443
腨	-12.443
隍	-12.443
菩薩成就此第	-12.4431
若有苾芻於諸契經	-12.4431
世饒王	-12.4431
說伽陀已	-12.4431
嵐	-12.4431
虔恭	-12.4431
至其然後	-12.4431
又作國王名	-12.4431
智者應當於此	-12.4431
慈心相向	-12.4432
愛別離苦	-12.4432
鈴鐸	-12.4432
襟	-12.4432
遣諸菩薩無央數	-12.4432
減知少	-12.4433
曄	-12.4433
隨所來方	-12.4433
究暢要妙	-12.4433
緊捺洛	-12.4433
不於少法	-12.4433
義同前釋	-12.4433
沙門復有二事	-12.4433
午	-12.4433
諠	-12.4433
謇	-12.4433
坻	-12.4433
如維摩經	-12.4433
示眾見之	-12.4433
以非物故	-12.4433
投佛出家	-12.4433
若無則無假	-12.4433
我當入如是定	-12.4434
驕	-12.4434
琦	-12.4434
危脆	-12.4434
渚	-12.4434
他方國土諸菩薩眾	-12.4434
性自離故	-12.4434
奉詔譯	-12.4434
等無差特	-12.4434
求無上佛菩提	-12.4434
禮佛雙足	-12.4434
撮	-12.4435
荊谿	-12.4435
青色青光	-12.4435
四衢道	-12.4435
建大法幢	-12.4435
咨嗟	-12.4435
敦	-12.4435
觸為緣所生諸受	-12.4435
頻婆沙羅	-12.4435
真珠等寶	-12.4435
無所貪慕	-12.4436
盡苦際	-12.4436
假使三千大千世界滿中	-12.4436
吹其兒體	-12.4436
彈	-12.4436
枯悴	-12.4436
若來若去	-12.4436
三摩鉢底	-12.4436
三十二大人之相	-12.4437
快樂不可言	-12.4437
有田憂田	-12.4437
福非福	-12.4437
象馬牛羊	-12.4437
布恩施德	-12.4437
序正流通	-12.4437
牟呼洛伽	-12.4437
不迷見菩薩	-12.4437
耶舍比丘	-12.4437
詎	-12.4437
願我亦成如是智	-12.4437
八功德水充滿其中	-12.4438
右旋宛轉	-12.4438
具八功德	-12.4438
車𤦲𤦲	-12.4438
淫泆	-12.4438
蓊	-12.4439
憂陀那	-12.4439
監	-12.4439
一彈指頃	-12.444
机	-12.444
眷	-12.444
俱母陀	-12.444
蹙	-12.444
諸天魔梵	-12.444
具縛凡夫	-12.444
非善發善根	-12.444
饑	-12.444
正明第十門中到彼華開	-12.444
社	-12.4441
農	-12.4441
癈	-12.4441
筒	-12.4441
無等無倫最上勝智	-12.4441
裝	-12.4441
若身若心	-12.4441
溥首童真	-12.4442
三百三十六萬里	-12.4442
蔫	-12.4442
溥首僮真	-12.4442
以頭面著佛足	-12.4442
正明第十一門中華開已後得益	-12.4442
綩	-12.4442
士屈伸臂頃	-12.4442
少略乃至	-12.4442
隋	-12.4442
端心正行	-12.4442
裸	-12.4443
不豫計	-12.4443
曆	-12.4443
鵝鴈	-12.4443
易往而無人	-12.4443
我見是利	-12.4443
放此淨光明	-12.4443
爾時世尊以偈答慧命馬勝	-12.4443
稠	-12.4443
蒲桃	-12.4443
網垂覆	-12.4443
謫	-12.4444
無明滅則行滅	-12.4444
尖	-12.4444
涕泣	-12.4444
百千那庾多拘胝	-12.4444
不能思不能了別	-12.4444
成熟如是多眾生耶	-12.4444
無作無用故	-12.4444
辯嚴菩薩	-12.4444
匱乏	-12.4444
賞	-12.4444
廕	-12.4444
念佛念法念僧	-12.4444
此想成已	-12.4444
慈悲喜護	-12.4444
眼耳鼻口	-12.4444
食馬麥	-12.4444
兜羅綿	-12.4445
上來四段	-12.4445
施戒忍進	-12.4445
雀	-12.4445
彼先所得地	-12.4445
行菩薩行時降伏一切諸魔怨敵	-12.4445
於有愛數四住地	-12.4445
作訖囉華	-12.4446
飲已無患	-12.4446
義一名異	-12.4446
若魔若梵	-12.4446
潰	-12.4446
爰	-12.4446
勝鬘師子吼一乘大方便方廣經	-12.4446
即生此念時	-12.4446
隨從佛後	-12.4446
枯涸	-12.4446
糠	-12.4446
一切苦滅作證	-12.4446
葢	-12.4446
剎所有菩薩	-12.4447
現前僧物	-12.4447
以此實願	-12.4447
奚	-12.4447
不相妨礙	-12.4447
械	-12.4447
菩薩摩訶薩用是行故得生	-12.4447
戈	-12.4448
跨	-12.4448
更相開避	-12.4448
清信女	-12.4448
舉要言之	-12.4448
經曰阿難白佛至	-12.4448
液	-12.4448
以時發遣女	-12.4448
而授與之	-12.4448
駛	-12.4448
如彈指頃	-12.4448
燧	-12.4448
靜慮解脫三摩地三摩鉢底	-12.4448
是故名為成就修行	-12.4449
□□□□□	-12.4449
無出無入	-12.4449
我今發此一切智心	-12.4449
腫	-12.4449
難行苦行	-12.4449
若菩薩成就四法得	-12.4449
枯燥	-12.445
應證不證	-12.445
耄	-12.445
是菩薩受持於三時中	-12.445
有始有終	-12.445
以此文證	-12.445
區	-12.445
佛說護國尊者所問	-12.445
爾時慧命馬勝比丘以偈問	-12.445
遊歷十方	-12.445
億不退菩薩當生彼土	-12.445
禿	-12.445
隨意雨寶	-12.445
大小便利	-12.4451
椽	-12.4451
萌	-12.4451
形顯色	-12.4451
如來在中若依經行若住	-12.4452
次第不受根起	-12.4452
是心法性而能	-12.4452
入一切眾生心想中	-12.4452
諸天及世人	-12.4452
鷲頭山	-12.4452
捨三得三	-12.4452
庸	-12.4452
頗見頗聞	-12.4452
䟦	-12.4452
不生亦不滅	-12.4452
地地轉行	-12.4453
出大音聲	-12.4453
等無譏嫌名	-12.4453
為大乘故說此六處	-12.4453
諸有智者深當覺知不應隨轉	-12.4453
界生時亦空	-12.4453
瘂	-12.4453
賖	-12.4453
在舍衛國祇樹給孤獨園	-12.4454
是前文中	-12.4454
當華敷時	-12.4454
乃至烏波尼殺曇分	-12.4454
於三時中	-12.4455
佉違羅刺	-12.4455
除諸蓋菩薩	-12.4455
開為三第一	-12.4457
阿耨大池	-12.4457
番	-12.4458
復有風輪名為	-12.4459
爽	-12.4459
嚮	-12.4459
雨無量福報	-12.446
當有所斷	-12.446
中即有二第一	-12.4461
眾生得度得解脫	-12.4461
以一分毛	-12.4461
若能隨順空	-12.4462
拍	-12.4463
經曰佛語阿難至	-12.4464
七地巳還	-12.4465
必速解法	-12.4465
可度量	-12.4465
人面像之	-12.4466
無感有應	-12.4467
尼連河	-12.4468
若有菩薩為一眾生建立令住	-12.4468
在家菩薩住在家地	-12.4468
常住歸依者	-12.4468
如觀掌中	-12.4469
當覺當得	-12.447
是能施主	-12.4472
得小乘果	-12.4474
分為四第一	-12.4474
依如來藏有生死	-12.4477
如來證法亦	-12.4481
昇虛空高七多羅樹	-12.4496
不加報	-12.4499
厭苦求樂	-12.453
名修習正	-12.4625
尊貴豪富	-12.4684
火風空識	-12.4699
十方無央數佛	-12.4818
地處處見	-12.4846
爾時舍利弗白	-12.5289
所未聞經	-12.5354
埵	-12.5645
優鉢羅	-12.5719
寶網彌覆	-12.5781
捴	-12.5791
則我身是	-12.5821
炷	-12.5821
質多羅波吒梨花	-12.5824
光顏巍巍	-12.5832
初牒釋	-12.5833
濤	-12.5836
着	-12.5837
窂	-12.5839
隱一切身菩薩三昧	-12.5839
鹿皮衣	-12.5839
如雨而下	-12.5839
蹉跌	-12.5841
如是觀者則為邪	-12.5842
受其殃罰	-12.5843
各欲快意	-12.5844
帚	-12.5845
吹法螺	-12.5845
𤦲	-12.5846
所樂淨佛剎土	-12.5846
無暫廢	-12.5847
有一戶蟲名	-12.5847
世尊心不相應無始無明住地	-12.5847
與大比丘眾八千人俱	-12.5848
一切諸法皆是佛法	-12.5848
見諸阿修羅王乃至	-12.5848
宛	-12.5848
一切功德光明王佛	-12.5848
彼所成熟眾生建立正法	-12.5848
効	-12.5848
虞	-12.5849
濯	-12.5849
輦	-12.5849
畢竟於阿耨多羅三藐三菩提堅固不動	-12.5849
零	-12.5849
炤	-12.585
猿猴	-12.585
定散兩門	-12.585
又出家人有二	-12.585
若勝若劣	-12.585
寶雲梵志	-12.5851
最後邊際命根滅	-12.5851
沮	-12.5851
妹	-12.5851
槩	-12.5851
却行而退	-12.5851
垓	-12.5851
永不復作	-12.5851
奈	-12.5852
眄	-12.5852
佷	-12.5852
若菩薩摩訶薩畢竟成就彼	-12.5853
攝受正法廣大義	-12.5853
修六和敬	-12.5853
艶	-12.5853
窈	-12.5853
姪	-12.5854
嘆益勸	-12.5854
繕	-12.5854
但欲唐得	-12.5854
閱	-12.5855
忪	-12.5855
枚	-12.5855
盆	-12.5855
放斯光明	-12.5855
鍱	-12.5855
入滅盡定	-12.5856
瞻仰尊顏	-12.5856
緊那囉	-12.5856
譬如有人於睡夢中	-12.5856
糧	-12.5856
皆飛到	-12.5856
考掠	-12.5856
洹	-12.5857
遜	-12.5857
痛想行識	-12.5857
不信作善得善	-12.5857
彊	-12.5857
復語善住意	-12.5857
鉢訥摩	-12.5857
襲	-12.5857
經曰佛告彌勒至	-12.5857
浩	-12.5858
鐘	-12.5858
綿	-12.5858
腭	-12.5858
詹	-12.5858
洞視徹聽	-12.5858
終不暫捨	-12.5859
剔	-12.5859
爾時優陀夷以偈	-12.5859
聳	-12.586
從頂上入	-12.586
賄	-12.586
縣	-12.586
厚四寸	-12.586
性亦無增益	-12.586
著無義行	-12.586
枷	-12.586
詶	-12.586
心不觸煩惱	-12.5861
白色白光	-12.5861
獨坐思惟	-12.5861
穆	-12.5861
偷	-12.5861
舉身投地	-12.5861
尸棄梵王	-12.5861
殑伽河沙等	-12.5861
波利質多	-12.5862
咀	-12.5862
喝	-12.5862
揭路荼	-12.5862
呵梨勒	-12.5862
坏	-12.5862
無邊功德寶眾莊嚴王如來	-12.5862
簫	-12.5862
宋元嘉	-12.5862
無來亦無去	-12.5862
抄	-12.5863
赦	-12.5863
昭	-12.5863
若隨順空不減	-12.5863
高樓上	-12.5863
霧	-12.5863
我得力時	-12.5863
刊	-12.5863
佛去世後	-12.5863
殷重聽聞受持讀誦	-12.5863
不請之友	-12.5863
斗	-12.5863
藤	-12.5863
㲲	-12.5863
諸外道尼乾子等	-12.5863
袒	-12.5864
多不善聚	-12.5864
勝慧波羅蜜多品第十一之	-12.5864
屢	-12.5864
疣	-12.5864
凡成聖	-12.5864
縈	-12.5864
蘖	-12.5864
即三而一	-12.5865
下明觀利益	-12.5865
障一切罪菩薩	-12.5865
認	-12.5865
能嚴淨如是廣大佛剎	-12.5865
一切種子習氣	-12.5865
剎那遷謝	-12.5865
如來說此修多羅	-12.5865
有通有別	-12.5866
阿比羅提	-12.5866
百千音樂不鼓自鳴	-12.5866
蜎飛蠕動之	-12.5866
拾	-12.5866
繪	-12.5866
觀世音及大勢至	-12.5866
非男非女	-12.5866
當復何及	-12.5867
爾時廣博仙人	-12.5867
糺	-12.5867
阿梨耶	-12.5867
世尊記大德於	-12.5868
欲界色界無色界	-12.5868
彌盧山	-12.5868
內熱煎煮	-12.5868
渾	-12.5868
師子獸王	-12.5868
書寫經卷	-12.5868
超眼境界	-12.5868
鍛	-12.5869
杻	-12.5869
共命之鳥	-12.5869
無始世來	-12.5869
諸佛光明中之	-12.5869
四種廣勝處	-12.5869
阿遮利耶	-12.5869
不縱不橫	-12.5869
各自端守	-12.5869
常亦非無常	-12.587
勝於眾山	-12.587
垣	-12.587
脹	-12.587
厲	-12.587
鬘莊嚴天	-12.587
疵	-12.587
訥	-12.587
優陀延王	-12.587
正明第九門中	-12.587
為阿彌陀佛作禮	-12.587
嚼	-12.5871
憍陳如	-12.5871
膺	-12.5871
悖	-12.5871
骸	-12.5871
所居七寶舍宅	-12.5871
未舉頭頃	-12.5871
臆	-12.5871
斟	-12.5872
挽	-12.5872
我當依諸福田	-12.5872
販賣	-12.5872
無量印法門	-12.5872
衒	-12.5872
所得功德勝前功德無量	-12.5872
若是無則無假	-12.5872
鑪	-12.5873
轉相灌注	-12.5873
法王法主	-12.5873
昨	-12.5873
若讀若誦	-12.5873
竄	-12.5873
一切世間如意自在	-12.5873
佛以一音演說法	-12.5873
應病與藥	-12.5873
求聲聞者授聲聞乘	-12.5874
諦聽諦受	-12.5874
旻	-12.5874
未之有也	-12.5874
依法不依人	-12.5874
猴	-12.5874
五千人俱	-12.5874
這	-12.5874
籤	-12.5875
係	-12.5875
分亦不及一	-12.5875
鼠	-12.5875
忪忪	-12.5875
業無諸過失	-12.5875
若是有則有假	-12.5875
刻	-12.5875
飲時調適	-12.5875
一一華葉	-12.5875
持八戒齋	-12.5875
淨飯大王	-12.5875
能轉梵輪	-12.5875
何有禿人能	-12.5875
外道師善眼世尊	-12.5875
摩伽陀國	-12.5875
沃	-12.5876
能修集多聞	-12.5876
轂	-12.5876
算數譬喻所不能及	-12.5877
過於恒沙不離	-12.5877
供養世尊及比丘眾	-12.5877
窺	-12.5877
依瞋心故起	-12.5877
先意問訊	-12.5877
煌	-12.5877
苾	-12.5878
須食與食	-12.5878
此四住地力	-12.5878
鳳	-12.5878
▁310(4	-12.5878
執持應器	-12.5878
非因他能知一切苦	-12.5878
一向專念無量壽佛	-12.5878
蹲	-12.5878
合掌諦誠	-12.5879
或有眾生味貪非	-12.5879
述云此後別釋有	-12.5879
大唐三藏法師菩提流志奉詔譯	-12.5879
成道果已	-12.5879
偷僧祇物	-12.5879
一切無行怖畏想住	-12.5879
無畏授所問	-12.588
不遲不疾	-12.588
若起空見	-12.588
無量寶交絡	-12.588
他供財	-12.5881
菜	-12.5881
照十方國無所障礙	-12.5881
晝夜各三	-12.5881
體無別狀	-12.5881
非盡一切受生	-12.5881
愛樂佛法味	-12.5881
說作聖諦義者	-12.5882
能以自力知一切	-12.5882
一切相續習氣	-12.5882
一切眾生不能覺悟	-12.5883
疱	-12.5883
作無盡歸依	-12.5883
莫不慈心歡喜	-12.5884
殄	-12.5884
如燈焰	-12.5884
放百千光	-12.5884
阜	-12.5884
三果四向	-12.5884
哀愍覆護我	-12.5884
無明㲉藏	-12.5885
清淨智海生	-12.5885
叚	-12.5885
明淨曜世間	-12.5885
怱	-12.5885
有餘生法不盡	-12.5885
空亂意眾生	-12.5885
僧者是三乘眾	-12.5886
聖自在通	-12.5886
則無假立於	-12.5886
阿羅漢歸依於佛	-12.5886
地皆震動	-12.5886
法僧二歸	-12.5887
所攝受一切集	-12.5887
四百億類洲	-12.5887
有同我名號	-12.5887
譬如百千種樂同時俱作	-12.5888
不種眾苦	-12.5888
知一切未來苦	-12.5888
風徐起	-12.5889
寶印手	-12.5889
各得其所	-12.589
智之所能斷	-12.589
僮	-12.5891
祝	-12.5891
引佛為證	-12.5891
清淨無惑無疑	-12.5893
金光師子遊戲	-12.5893
然佛境界非	-12.5893
觀彼世界相	-12.5893
我於一時在	-12.5894
迦盧陀夷	-12.5894
臻	-12.5894
而得度者即	-12.5895
如來藏智是如來空智	-12.5896
如鴈王	-12.5896
水邊流沙	-12.5896
繭	-12.5897
勝過三界道	-12.5897
谿	-12.5913
鼈	-12.7464
魯	-12.7484
扈	-12.7489
馨	-12.7499
􂍾	-12.7502
傑	-12.7504
鑿	-12.7506
蹤	-12.7507
㝹	-12.7509
嚧	-12.7512
罷	-12.7513
寥	-12.7513
絞	-12.7514
嫁	-12.7514
􂏔	-12.7514
辟	-12.7515
茅	-12.7516
蠲	-12.7517
蠢	-12.7517
悼	-12.7518
􂍧	-12.7521
寔	-12.7521
澆	-12.7521
爇	-12.7522
概	-12.7522
窓	-12.7523
綸	-12.7523
嘯	-12.7523
粖	-12.7523
嗢	-12.7524
挾	-12.7524
腕	-12.7525
瀾	-12.7526
倖	-12.7526
凋	-12.7526
檦	-12.7528
糜	-12.7528
晴	-12.7528
哮	-12.7529
棒	-12.7529
矛	-12.7529
醋	-12.753
佳	-12.7531
踝	-12.7531
苗	-12.7532
掛	-12.7532
蹄	-12.7532
雁	-12.7532
矩	-12.7532
哽	-12.7532
鸎	-12.7532
仆	-12.7532
挺	-12.7532
脆	-12.7533
颺	-12.7533
紡	-12.7533
諒	-12.7533
邃	-12.7533
蒲	-12.7534
搆	-12.7534
挂	-12.7534
燎	-12.7534
鍊	-12.7534
恤	-12.7535
疥	-12.7535
頞	-12.7535
閃	-12.7536
闚	-12.7536
鵠	-12.7536
片	-12.7536
栖	-12.7536
歟	-12.7536
筵	-12.7536
謨	-12.7537
禦	-12.7537
鈿	-12.7537
巢	-12.7537
捫	-12.7537
栗	-12.7538
瘠	-12.7538
隻	-12.7538
顰	-12.754
腳	-12.7541
隘	-12.7541
愕	-12.7542
勘	-12.7542
渺	-12.7543
濃	-12.7543
耐	-12.7543
陟	-12.7543
添	-12.7544
祭	-12.7544
尿	-12.7545
憲	-12.7546
享	-12.7546
訝	-12.7551
堤	-12.7551
坎	-12.7552
褒	-12.7553
徧	-12.7553
咲	-12.7554
鍼	-12.7554
逗	-12.7555
〔	-12.7555
錦	-12.7556
〕	-12.7556
収	-12.7559
喧	-12.756
躅	-12.7561
箱	-12.7563
茵	-12.7563
粒	-12.7567
丸	-12.9156
鴨	-12.9487
串	-12.9491
曷	-12.9498
眸	-12.9505
靺	-12.9506
犍	-12.9506
鐸	-12.9506
仡	-12.9507
喫	-12.9508
婁	-12.9508
舅	-12.9509
憣	-12.951
鍮	-12.951
謔	-12.951
鷹	-12.9511
凍	-12.9511
悒	-12.9511
匱	-12.9512
咏	-12.9513
奸	-12.9513
蒸	-12.9513
嗽	-12.9513
跟	-12.9513
炫	-12.9514
縶	-12.9516
雉	-12.9516
屣	-12.9519
銜	-12.9519
哺	-12.9519
阻	-12.9519
煒	-12.9519
配	-12.952
睒	-12.952
梗	-12.9521
祗	-12.9521
囂	-12.9521
誣	-12.9521
暝	-12.9521
饕	-12.9522
泄	-12.9522
儔	-12.9522
氛	-12.9522
淑	-12.9523
尉	-12.9523
婿	-12.9523
蹉	-12.9524
吳	-12.9524
趨	-12.9524
槖	-12.9525
蒼	-12.9525
烟	-12.9525
頷	-12.9525
肪	-12.9526
釜	-12.9527
柴	-12.9528
恰	-12.9529
酷	-12.9529
惺	-12.9529
疼	-12.9529
錫	-12.9529
抂	-12.9529
讌	-12.9529
乙	-12.9531
催	-12.9531
慌	-12.9531
湧	-12.9531
騁	-12.9531
院	-12.9531
衝	-12.9532
聿	-12.9533
股	-12.9533
薑	-12.9533
魂	-12.9533
帙	-12.9533
柰	-12.9535
削	-12.9535
轍	-12.9535
凹	-12.9536
緇	-12.9536
弼	-12.9536
悵	-12.9536
雌	-12.9536
憫	-12.9537
廬	-12.9537
糅	-12.9537
佞	-12.9538
拱	-12.9538
咤	-12.9539
姤	-12.9539
麟	-12.954
翠	-12.954
庇	-12.954
怗	-12.9541
熊	-12.9541
艷	-12.9541
柳	-12.9541
棟	-12.9541
蜣	-12.9542
弦	-12.9542
㷀	-12.9542
踞	-12.9542
朔	-12.9542
懶	-12.9543
醒	-12.9543
羝	-12.9543
閤	-12.9544
嬉	-12.9544
板	-12.9545
軛	-12.9545
薦	-12.9545
駭	-12.9546
模	-12.9546
揆	-12.9546
迢	-12.9546
埃	-12.9546
𧂐	-12.9546
罕	-12.9546
亙	-12.9547
懇	-12.9547
猫	-12.9547
粉	-12.9547
訑	-12.9547
齧	-12.9547
郎	-12.9548
跢	-12.9548
押	-12.9549
傴	-12.9549
瞽	-12.955
霓	-12.9552
摘	-12.9552
戊	-12.9554
構	-12.9555
𠾆	-12.9555
揮	-12.9556
騏	-12.9557
肚	-12.9558
瀆	-12.9562
焜	-12.9562
隥	-12.9573
儜	-12.9599
渥	-13.1947
謵	-13.1966
􂑞	-13.1987
佩	-13.1988
簸	-13.199
銘	-13.1996
囓	-13.1999
咃	-13.1999
瀁	-13.2001
壇	-13.2002
莚	-13.2003
職	-13.2003
駄	-13.2003
羣	-13.2005
㯪	-13.2005
抗	-13.2005
窒	-13.2005
鎩	-13.2005
跌	-13.2006
鏤	-13.2008
埿	-13.2012
評	-13.2012
郊	-13.2012
甄	-13.2012
臏	-13.2012
崛	-13.2012
寵	-13.2013
慴	-13.2013
曬	-13.2014
喬	-13.2014
箸	-13.2014
綰	-13.2014
剝	-13.2014
泝	-13.2014
鉀	-13.2014
鴝	-13.2015
岳	-13.2016
撓	-13.2016
幰	-13.2017
徊	-13.2017
䩕	-13.2017
膾	-13.2018
潭	-13.2018
〈	-13.2018
岐	-13.2019
欻	-13.2019
蓬	-13.2019
譊	-13.2019
僂	-13.2019
〉	-13.202
惰	-13.202
踴	-13.202
俞	-13.202
呻	-13.202
織	-13.202
課	-13.2021
篇	-13.2021
蠟	-13.2021
鑑	-13.2021
藻	-13.2021
溷	-13.2022
蟇	-13.2023
遼	-13.2023
臾	-13.2023
倪	-13.2023
蝎	-13.2024
托	-13.2024
髦	-13.2024
桃	-13.2024
駿	-13.2024
兇	-13.2024
臠	-13.2024
匐	-13.2024
管	-13.2025
洒	-13.2025
餐	-13.2025
斑	-13.2025
贈	-13.2026
舛	-13.2026
憩	-13.2026
軸	-13.2027
塚	-13.2027
璖	-13.2027
秖	-13.2027
氈	-13.2027
冐	-13.2028
咬	-13.2028
淹	-13.2028
摑	-13.2028
邈	-13.2028
𠯗	-13.2028
訂	-13.2029
芒	-13.203
槌	-13.203
澈	-13.203
箏	-13.203
匡	-13.203
詢	-13.203
誚	-13.2031
瞎	-13.2031
賦	-13.2031
廂	-13.2031
癤	-13.2031
螢	-13.2032
褐	-13.2032
枲	-13.2032
携	-13.2032
懾	-13.2033
梓	-13.2034
鞍	-13.2034
呈	-13.2034
柁	-13.2035
誥	-13.2035
犢	-13.2035
劒	-13.2035
嘴	-13.2035
燕	-13.2035
劉	-13.2036
榻	-13.2036
瘳	-13.2037
允	-13.2037
娠	-13.2037
竿	-13.2038
噎	-13.2038
丑	-13.2038
汲	-13.2039
毗	-13.2039
釐	-13.2039
璣	-13.2039
啄	-13.2039
拙	-13.2041
趾	-13.2041
𢤱	-13.2041
髆	-13.2041
鉉	-13.2041
瑜	-13.2041
欬	-13.2041
蛭	-13.2042
酉	-13.2042
搥	-13.2042
虹	-13.2042
勗	-13.2042
倏	-13.2043
慄	-13.2044
裘	-13.2044
􂌦	-13.2044
忒	-13.2044
趁	-13.2045
鉗	-13.2045
奘	-13.2045
𥎞	-13.2045
呂	-13.2046
羆	-13.2046
詑	-13.2046
恢	-13.2048
咨	-13.2049
剌	-13.2049
蒭	-13.2049
廩	-13.2049
倨	-13.205
瘢	-13.205
覈	-13.205
控	-13.2052
蹴	-13.2052
驛	-13.2053
旭	-13.2053
輿	-13.2053
塘	-13.2054
癭	-13.2055
玅	-13.2055
嘩	-13.2055
刪	-13.2055
袟	-13.2056
讖	-13.2056
楊	-13.2057
泊	-13.2059
汪	-13.2059
糸	-13.2059
叱	-13.2062
呾	-13.2066
嬭	-13.2066
頴	-13.207
漚	-13.2073
拋	-13.2074
衲	-13.2084
牧	-13.4996
樵	-13.5296
輙	-13.53
椀	-13.5307
黧	-13.5313
㹅	-13.5313
喟	-13.5319
峰	-13.532
䭾	-13.5324
慍	-13.5329
頡	-13.5329
挫	-13.5329
猷	-13.5329
瞢	-13.5329
誅	-13.533
季	-13.5331
虺	-13.5331
儉	-13.5331
𢷄	-13.5331
嫂	-13.5331
眺	-13.5331
葻	-13.5331
諳	-13.5332
几	-13.5334
儩	-13.5334
兢	-13.5334
􂍦	-13.5334
篩	-13.5335
鎚	-13.5337
稚	-13.5338
帒	-13.5338
綶	-13.5338
萄	-13.5338
愶	-13.5339
嘷	-13.534
黿	-13.534
匈	-13.534
槽	-13.534
櫨	-13.534
甥	-13.534
廊	-13.534
胤	-13.534
綫	-13.534
苽	-13.534
綽	-13.5341
蔗	-13.5342
擘	-13.5342
咩	-13.5342
銖	-13.5342
𪏭	-13.5343
蟬	-13.5344
協	-13.5344
磬	-13.5344
廝	-13.5344
筌	-13.5346
侯	-13.5346
瑿	-13.5346
僚	-13.5346
眵	-13.5346
澓	-13.5348
抽	-13.5348
倣	-13.5348
嫡	-13.5348
媒	-13.5348
謌	-13.5348
晃	-13.5348
萃	-13.5349
蓄	-13.535
灆	-13.535
煢	-13.535
琰	-13.535
愴	-13.535
派	-13.535
僅	-13.5352
掖	-13.5352
鞋	-13.5352
韜	-13.5352
壹	-13.5352
錠	-13.5352
颯	-13.5353
沿	-13.5353
坊	-13.5353
剜	-13.5354
舘	-13.5354
癃	-13.5354
仕	-13.5356
蝶	-13.5356
豬	-13.5356
敻	-13.5356
駈	-13.5356
豕	-13.5356
隴	-13.5356
毯	-13.5356
杓	-13.5358
擅	-13.5358
洄	-13.5358
瑤	-13.5358
鵄	-13.5358
岑	-13.5358
閏	-13.5358
霍	-13.5358
殂	-13.5358
貲	-13.5359
僊	-13.5359
梅	-13.5359
懿	-13.536
昱	-13.536
碧	-13.536
脛	-13.536
抧	-13.536
繡	-13.536
弈	-13.5361
肋	-13.5361
迂	-13.5361
俄	-13.5363
珪	-13.5363
孟	-13.5363
鑛	-13.5364
皰	-13.5364
藂	-13.5365
笞	-13.5365
翹	-13.5365
輟	-13.5365
慟	-13.5365
艾	-13.5365
迪	-13.5365
潘	-13.5366
舫	-13.5366
榆	-13.5367
魁	-13.5367
閇	-13.5367
伯	-13.5367
征	-13.5367
昌	-13.5367
匃	-13.5368
舶	-13.5369
柘	-13.5369
姨	-13.5369
曦	-13.5369
汙	-13.5369
鋸	-13.5369
闈	-13.5369
廛	-13.537
嗤	-13.537
壑	-13.5371
忝	-13.5371
厨	-13.5371
叩	-13.5371
戟	-13.5371
轅	-13.5371
暐	-13.5373
揖	-13.5373
勌	-13.5373
噬	-13.5373
彎	-13.5374
􂙥	-13.5374
穩	-13.5374
罄	-13.5375
瘀	-13.5375
欠	-13.5375
嚙	-13.5375
航	-13.5375
謦	-13.5375
癖	-13.5375
埋	-13.5375
鍋	-13.5375
涸	-13.5377
森	-13.5377
捔	-13.5377
軫	-13.5377
坡	-13.5377
裕	-13.5377
茹	-13.5378
衡	-13.5378
豺	-13.5379
松	-13.5379
丙	-13.5379
勱	-13.5379
圃	-13.5379
惘	-13.5379
柯	-13.5379
唵	-13.5379
拷	-13.5379
㶿	-13.538
戌	-13.538
溟	-13.538
郭	-13.538
凸	-13.5381
晷	-13.5381
珮	-13.5381
糖	-13.5381
嶺	-13.5381
膿	-13.5382
嗚	-13.5382
忤	-13.5383
椎	-13.5383
劓	-13.5383
揲	-13.5383
瘻	-13.5383
蓏	-13.5383
皯	-13.5385
耘	-13.5385
仲	-13.5386
寞	-13.5386
笙	-13.5386
懟	-13.5386
昞	-13.5386
亥	-13.5387
紐	-13.5387
槐	-13.5388
寅	-13.5388
昂	-13.5388
蘿	-13.5388
摽	-13.5388
痊	-13.5388
𤻀	-13.539
廿	-13.539
丕	-13.539
侫	-13.539
妮	-13.5392
殑	-13.5393
冶	-13.5394
謁	-13.5396
輻	-13.5398
餔	-13.5398
苔	-13.54
侈	-13.54
䵴	-13.5402
蹶	-13.5404
笥	-13.5408
秘	-13.5412
邀	-13.5423
臧	-13.5432
塢	-14.0276
喰	-14.0292
墳	-14.0308
寮	-14.0317
堦	-14.032
悽	-14.032
翊	-14.032
宦	-14.032
帷	-14.0323
洎	-14.0326
劑	-14.0327
傘	-14.0329
嚚	-14.033
偉	-14.033
怳	-14.033
咄	-14.0332
夾	-14.0333
墻	-14.0333
嬌	-14.0336
荔	-14.0336
嘲	-14.0336
悢	-14.0342
咳	-14.0342
剩	-14.0345
儐	-14.0345
䫛	-14.0345
憧	-14.0349
俳	-14.0349
悞	-14.0349
墀	-14.0349
寓	-14.0349
怜	-14.0349
脅	-14.0349
帽	-14.0352
嘔	-14.0352
吻	-14.0352
慠	-14.0352
婇	-14.0354
敝	-14.0355
圊	-14.0355
挮	-14.0355
昃	-14.0355
刮	-14.0355
班	-14.0357
嘿	-14.0358
塼	-14.0358
壙	-14.0358
旌	-14.0358
惆	-14.0358
讐	-14.036
荊	-14.0361
芝	-14.0361
剬	-14.0361
唄	-14.0361
堵	-14.0361
拉	-14.0361
旗	-14.0362
妾	-14.0362
旒	-14.0364
鎔	-14.0364
䏶	-14.0364
慊	-14.0364
㿈	-14.0364
痒	-14.0365
臚	-14.0366
吁	-14.0367
稼	-14.0367
㜸	-14.0367
彤	-14.0367
卯	-14.0367
宸	-14.0367
拈	-14.0367
拓	-14.0367
粲	-14.0367
掠	-14.0371
撻	-14.0371
宙	-14.0371
丞	-14.0371
伀	-14.0371
恂	-14.0371
邇	-14.0371
幣	-14.0374
㣲	-14.0374
靴	-14.0374
崔	-14.0374
呢	-14.0377
刖	-14.0377
徼	-14.0377
卌	-14.0377
卍	-14.0377
孚	-14.0377
愜	-14.0377
愱	-14.0377
咒	-14.0378
隼	-14.038
吮	-14.038
剡	-14.038
妍	-14.038
斤	-14.038
熬	-14.038
唇	-14.0383
虻	-14.0383
慨	-14.0383
圌	-14.0383
磲	-14.0383
贍	-14.0386
措	-14.0386
卜	-14.0389
幘	-14.0389
愻	-14.0389
喑	-14.0393
ィ	-14.0393
倭	-14.0393
嵠	-14.0393
券	-14.0394
芥	-14.0394
挓	-14.0396
䘖	-14.0396
啞	-14.0402
尹	-14.0402
插	-14.0402
徽	-14.0402
弃	-14.0405
崙	-14.0421
冑	-14.3035
攣	-15.0193
擒	-15.0194
撲	-15.0195
撐	-15.0196
搪	-15.0197
搒	-15.0198
揬	-15.0199
扉	-15.02
恡	-15.0201
彬	-15.0202
幟	-15.0203
巾	-15.0204
巇	-15.0205
沼	-15.0206
岵	-15.0206
岌	-15.0207
宏	-15.0208
孺	-15.0209
孥	-15.021
媾	-15.0211
媛	-15.0212
埴	-15.0213
埏	-15.0214
圂	-15.0215
囈	-15.0216
囀	-15.0217
嚬	-15.0218
噯	-15.0219
嘹	-15.022
喨	-15.0221
呿	-15.0222
勛	-15.0223
凞	-15.0224
儴	-15.0225
倐	-15.0226
俾	-15.0227
侚	-15.0228
估	-15.0229
介	-15.023
亶	-15.0231
亟	-15.0232
䳇	-15.0233
㽄	-15.0234
㝵	-15.0235
㘁	-15.0236
々	-15.0237
𤥭	-15.0238
𠼝	-15.0239
𠣏	-15.024
釣	-15.0241
謟	-15.0242
謚	-15.0243
蝦	-15.0244
蘂	-15.0245
蒺	-15.0246
萊	-15.0247
胮	-15.0248
肧	-15.0249
窯	-15.025
碾	-15.0251
確	-15.0252
睛	-15.0253
璟	-15.0254
犛	-15.0255
熅	-15.0256
櫓	-15.0257
樚	-15.0258
楹	-15.0259
棔	-15.026
梏	-15.0261
桎	-15.0262
晏	-15.0263
捍	-15.0264
硨	-15.0265
怔	-15.0265
嶷	-15.0266
屐	-15.0267
寇	-15.0268
姚	-15.0269
匍	-15.027
劈	-15.0271
凰	-15.0272
泆	-15.0272
燼	-15.0272
佇	-15.0273
䔧	-15.0274
㸌	-15.0275
鸜	-15.0276
髭	-15.0277
驥	-15.0278
驎	-15.0279
陌	-15.028
闐	-15.0281
蹔	-15.0282
詪	-15.0283
蛣	-15.0284
蘆	-15.0285
茯	-15.0286
繽	-15.0287
窕	-15.0288
睞	-15.0289
矬	-15.0289
睟	-15.029
盎	-15.0291
畺	-15.0292
檻	-15.0293
曝	-15.0294
昆	-15.0295
姻	-15.0296
妷	-15.0296
嘶	-15.0297
匂	-15.0298
𦙽	-15.0299
鋪	-15.03
賺	-15.0301
蚋	-15.0302
蕅	-15.0303
菉	-15.0304
肖	-15.0305
猨	-15.0306
橙	-15.0307
晶	-15.0308
悷	-15.0309
彗	-15.031
孾	-15.0311
麞	-15.0312
鵒	-15.0313
髑	-15.0314
髏	-15.0315
駱	-15.0316
餮	-15.0317
迸	-15.0318
貸	-15.0319
胚	-15.032
鉸	-15.0321
巍	-15.0321
粳	-15.0321
燸	-15.0322
构	-15.0323
懞	-15.0324
巘	-15.0325
媮	-15.0326
壬	-15.0327
堆	-15.0328
竦	-15.0329
圄	-15.0329
囹	-15.033
鬢	-15.0331
躑	-15.0332
蛾	-15.0333
笈	-15.0334
璧	-15.0335
擻	-15.0336
嬾	-15.0337
唧	-15.0337
羖	-15.0337
抖	-15.0337
慞	-15.0338
墟	-15.0339
刷	-15.034
菽	-15.0341
癲	-15.0342
琶	-15.0343
獷	-15.0344
琵	-15.0344
炳	-15.0345
殟	-15.0346
喘	-15.0347
+	-15.0348
髠	-15.0349
逋	-15.035
訾	-15.0351
腋	-15.0352
瓈	-15.0353
台	-15.0353
旛	-15.0354
憺	-15.0355
鷺	-15.0356
晡	-15.0357
扼	-15.0358
-	-15.0359
鄭	-15.036
呞	-15.036
湖	-15.0361
技	-15.0361
恍	-15.0362
妊	-15.0363
丐	-15.0364
𡣽	-15.0365
鳧	-15.0366
硬	-15.0367
懊	-15.0368
廅	-15.0369
霽	-15.0369
藪	-15.0369
薝	-15.037
犀	-15.0371
戇	-15.0372
庠	-15.0373
醐	-15.0374
醍	-15.0375
繖	-15.0375
絺	-15.0376
惔	-15.0377
叔	-15.0377
罽	-15.0377
裨	-15.0377
貰	-15.0377
肌	-15.0378
倡	-15.0379
憔	-15.038
窣	-15.0381
碼	-15.0382
裓	-15.0383
悠	-15.0383
奕	-15.0384
椑	-15.0385
洋	-15.0385
闓	-15.0386
熙	-15.0387
箜	-15.0388
篌	-15.0389
琥	-15.039
鴛	-15.0391
薜	-15.0392
瘖	-15.0393
鵡	-15.0393
鸚	-15.0394
鶖	-15.0395
淤	-15.0396
蕉	-15.0397
芭	-15.0398
饉	-15.0399
嬪	-15.0399
芸	-15.04
詈	-15.0401
萠	-15.0401
鈞	-15.0401
艱	-15.0401
獼	-15.0402
郁	-15.0403
料	-15.0404
頒	-15.0405
訊	-15.0406
沓	-15.0407
諛	-15.0408
楞	-15.0409
桓	-15.041
珀	-15.0411
[	-15.0412
罣	-15.0413
瑙	-15.0414
溥	-15.0415
蠕	-15.0416
販	-15.0417
裟	-15.0417
袈	-15.0418
瑚	-15.0419
瑠	-15.042
忉	-15.0421
睺	-15.0422
o	-15.0423
N	-15.0424
珞	-15.0425
誹	-15.0426
琉	-15.0427
韋	-15.0428
閦	-15.0429
璃	-15.043
胝	-15.0431
—	-15.0432
猿	-15.0433
耨	-15.0433
