<unk>	0
<s>	0
</s>	0
之	-3.98052
也	-4.51411
以	-4.66554
而	-4.73247
為	-4.75867
有	-4.9493
者	-4.98063
其	-5.0884
曰	-5.14694
不	-5.15194
/	-5.20525
人	-5.31962
(	-5.33898
於	-5.36173
一	-5.36955
則	-5.43402
)	-5.53152
無	-5.6215
中	-5.64599
子	-5.68693
大	-5.71001
上	-5.77964
與	-5.79195
自	-5.80959
至	-5.83718
王	-5.84937
此	-5.86312
言	-5.8966
如	-5.89758
書	-5.93158
作	-5.94542
公	-5.97364
皆	-5.97679
云	-5.98332
時	-5.99689
在	-6.00838
故	-6.02922
所	-6.03929
見	-6.03935
行	-6.04753
事	-6.06244
矣	-6.0819
文	-6.09372
三	-6.09747
用	-6.10299
名	-6.13065
下	-6.13536
字	-6.13759
亦	-6.13962
得	-6.16969
生	-6.1774
又	-6.18186
出	-6.18488
日	-6.19347
乃	-6.1999
非	-6.20925
水	-6.21457
山	-6.23644
天	-6.26129
是	-6.26897
然	-6.27767
今	-6.28985
後	-6.29748
謂	-6.3128
官	-6.34128
二	-6.36144
道	-6.36176
詩	-6.36815
相	-6.37043
于	-6.38812
知	-6.3975
入	-6.41378
可	-6.45448
正	-6.46073
即	-6.46119
)(	-6.47042
明	-6.47053
多	-6.48887
當	-6.50018
及	-6.50493
若	-6.50751
傳	-6.52899
長	-6.53769
成	-6.54715
石	-6.54882
州	-6.55199
方	-6.55559
同	-6.55695
乎	-6.5575
國	-6.55949
使	-6.56228
家	-6.58499
五	-6.61691
爲	-6.65037
四	-6.65196
能	-6.65447
令	-6.66159
元	-6.66785
本	-6.67926
小	-6.68031
君	-6.68411
白	-6.69652
心	-6.70129
何	-6.70929
欲	-6.72007
已	-6.72155
法	-6.72774
古	-6.73407
因	-6.73669
取	-6.73856
從	-6.74066
耳	-6.75284
金	-6.75497
▁	-6.75542
李	-6.75596
去	-6.7586
臣	-6.76043
地	-6.76458
張	-6.7889
或	-6.78947
必	-6.79884
復	-6.81018
世	-6.81491
來	-6.8157
遂	-6.82458
門	-6.83154
風	-6.83476
音	-6.83632
前	-6.84982
命	-6.85562
安	-6.85633
馬	-6.85807
立	-6.86428
周	-6.86673
通	-6.86739
意	-6.87098
先	-6.88122
將	-6.88994
民	-6.89139
南	-6.89325
漢	-6.89543
過	-6.89813
重	-6.91466
數	-6.91483
花	-6.92025
雖	-6.92377
陽	-6.92592
初	-6.92777
平	-6.93022
經	-6.94199
年	-6.94363
唐	-6.94423
兩	-6.94908
六	-6.95062
稱	-6.95651
氏	-6.95802
常	-6.96343
黄	-6.96523
處	-6.96675
居	-6.96786
善	-6.9722
未	-6.97285
朝	-6.9741
焉	-6.97494
神	-6.97783
氣	-6.98212
歸	-6.98436
始	-6.98551
論	-6.98764
物	-6.99055
死	-6.99169
東	-6.99631
以為	-7.00049
西	-7.00297
語	-7.00386
士	-7.00428
食	-7.00484
禮	-7.01074
聞	-7.01583
樂	-7.01937
/)	-7.02605
夫	-7.02881
甚	-7.03568
我	-7.04149
易	-7.04434
九	-7.04575
問	-7.05431
學	-7.05893
不可	-7.06095
月	-7.06811
分	-7.0683
玉	-7.07273
師	-7.07346
宋	-7.07446
城	-7.07566
定	-7.09229
合	-7.09426
諸	-7.09531
實	-7.09834
聲	-7.10475
義	-7.11092
陳	-7.11198
主	-7.11489
既	-7.11675
帝	-7.12411
猶	-7.12431
髙	-7.12606
外	-7.12823
老	-7.12932
少	-7.13395
惟	-7.13458
色	-7.1377
兵	-7.14292
内	-7.14315
盡	-7.14319
觀	-7.14742
酒	-7.14821
治	-7.15153
龍	-7.15162
木	-7.15205
吾	-7.15597
起	-7.16028
間	-7.1712
清	-7.17307
不能	-7.17863
異	-7.18002
記	-7.18496
身	-7.1881
注	-7.19135
凡	-7.19565
服	-7.19689
等	-7.20069
舉	-7.20889
女	-7.22257
且	-7.22263
和	-7.22322
天下	-7.2416
好	-7.24403
獨	-7.24876
劉	-7.25198
雲	-7.26302
志	-7.26335
直	-7.27002
謂之	-7.2718
北	-7.27788
春	-7.2781
火	-7.28668
守	-7.2879
史	-7.29235
制	-7.29578
新	-7.29781
節	-7.29846
武	-7.29947
集	-7.30163
章	-7.30362
宜	-7.30919
引	-7.31939
徳	-7.32203
深	-7.32601
進	-7.33228
齊	-7.33305
發	-7.33732
錢	-7.3401
應	-7.34342
真	-7.34898
百	-7.35143
宫	-7.35274
光	-7.35665
香	-7.36281
秦	-7.36344
江	-7.36445
七	-7.36842
哉	-7.37178
難	-7.37234
縣	-7.37255
舊	-7.37366
頭	-7.37402
嘗	-7.37508
宗	-7.37998
伯	-7.38126
按	-7.39483
信	-7.39686
流	-7.39908
開	-7.39916
請	-7.39992
思	-7.40024
父	-7.40175
都	-7.4051
八	-7.41064
止	-7.41414
逺	-7.41543
坐	-7.41695
求	-7.41929
載	-7.42077
林	-7.42211
首	-7.42246
次	-7.42423
理	-7.42685
萬	-7.42712
近	-7.42939
但	-7.43532
晉	-7.43626
土	-7.43769
青	-7.43913
各	-7.44174
封	-7.44187
府	-7.44295
田	-7.44779
夜	-7.44789
畫	-7.44984
卷	-7.45159
説	-7.45284
軍	-7.45851
别	-7.46181
衣	-7.4636
失	-7.46597
極	-7.46641
政	-7.47119
豈	-7.47425
草	-7.47428
置	-7.47903
十	-7.4792
賢	-7.48403
更	-7.48567
親	-7.48658
夏	-7.49225
目	-7.49955
固	-7.50018
力	-7.50192
河	-7.50512
興	-7.50554
口	-7.51046
似	-7.51068
聖	-7.51924
對	-7.5232
廣	-7.52331
亂	-7.53405
反	-7.53626
魚	-7.53849
解	-7.54025
海	-7.54052
賜	-7.54267
改	-7.55325
尚	-7.55331
蓋	-7.55434
不知	-7.55712
予	-7.55833
趙	-7.55925
賦	-7.5602
而不	-7.5616
葉	-7.56601
筆	-7.56829
客	-7.57196
絶	-7.57197
利	-7.57279
華	-7.57386
衆	-7.57881
亡	-7.58053
孫	-7.58377
侯	-7.58828
體	-7.58871
度	-7.59
精	-7.59114
德	-7.59329
手	-7.5941
貴	-7.59667
爾	-7.59934
議	-7.60117
雨	-7.60135
考	-7.60244
任	-7.60279
變	-7.60782
每	-7.60926
葢	-7.61071
余	-7.61277
足	-7.61418
如此	-7.61492
竹	-7.61508
殿	-7.61585
建	-7.61794
祖	-7.61878
魏	-7.61978
所謂	-7.62059
楊	-7.62063
梁	-7.63124
致	-7.63144
司	-7.63475
加	-7.6357
奏	-7.63745
郡	-7.6377
動	-7.64007
勝	-7.64205
圖	-7.64509
仁	-7.64709
㑹	-7.64726
著	-7.65274
仲	-7.655
指	-7.65817
母	-7.65829
吏	-7.66167
望	-7.66184
受	-7.66601
盛	-7.67049
篇	-7.67324
惡	-7.67496
還	-7.67808
終	-7.68006
陵	-7.68414
許	-7.68544
類	-7.68702
所以	-7.68911
殺	-7.69517
修	-7.69705
楚	-7.69887
高	-7.7005
卒	-7.70072
俗	-7.70306
切	-7.70515
嵗	-7.71048
歌	-7.71184
秋	-7.71264
寺	-7.71301
詔	-7.71648
餘	-7.71859
便	-7.72332
位	-7.72819
比	-7.72868
病	-7.73391
不得	-7.73393
並	-7.73944
象	-7.74413
疑	-7.74752
器	-7.74967
靈	-7.75037
曲	-7.76082
景	-7.76345
太	-7.76871
視	-7.7702
益	-7.77204
耶	-7.77237
廟	-7.77305
遇	-7.77398
卿	-7.77488
化	-7.77504
録	-7.77916
隂	-7.77966
美	-7.78002
鄭	-7.78063
隨	-7.78101
半	-7.78104
號	-7.78419
堂	-7.78498
辭	-7.78713
教	-7.79063
宣	-7.79079
表	-7.79107
忠	-7.79127
車	-7.7935
奉	-7.79367
盖	-7.79501
左	-7.79677
形	-7.79772
遺	-7.80062
臨	-7.80279
讀	-7.8046
星	-7.80469
謝	-7.80684
具	-7.80726
朱	-7.80991
召	-7.81345
飛	-7.81668
性	-7.81703
寒	-7.82072
臺	-7.8209
屬	-7.82391
右	-7.83074
莫	-7.8344
吳	-7.8361
要	-7.83875
樹	-7.84597
俱	-7.84738
僧	-7.84774
由	-7.84906
紅	-7.85064
說	-7.85872
就	-7.86301
里	-7.86405
拜	-7.86463
末	-7.86777
向	-7.86908
孝	-7.87139
工	-7.87139
果	-7.87526
韓	-7.87585
除	-7.87785
輕	-7.88008
序	-7.88059
厚	-7.88198
胡	-7.88531
皇	-7.88857
千	-7.89007
路	-7.89187
試	-7.89397
疾	-7.89554
落	-7.8965
尊	-7.89859
紀	-7.90027
恐	-7.9055
御	-7.90763
可以	-7.90776
全	-7.90799
才	-7.90895
室	-7.91322
燕	-7.91699
端	-7.92106
存	-7.92112
空	-7.92343
特	-7.92414
素	-7.92474
簡	-7.92589
交	-7.93084
仙	-7.93085
祭	-7.93183
句	-7.93397
持	-7.93453
計	-7.93458
闕	-7.93763
牛	-7.93969
呼	-7.94078
容	-7.94149
題	-7.94561
刻	-7.94727
喜	-7.94873
詞	-7.94902
情	-7.95091
代	-7.95176
轉	-7.95213
紫	-7.95216
魯	-7.95456
徐	-7.95882
尤	-7.96008
詩云	-7.96049
誤	-7.96178
須	-7.96195
留	-7.96196
墨	-7.96366
叔	-7.96536
面	-7.96642
登	-7.96929
藥	-7.97101
收	-7.9711
藏	-7.9713
久	-7.97529
省	-7.97593
竒	-7.9766
顧	-7.97728
者也	-7.97902
列	-7.98039
商	-7.9821
春秋	-7.9824
敬	-7.98662
愛	-7.98715
姓	-7.98792
先生	-7.99006
誠	-7.99282
夢	-7.99982
飲	-8.00032
連	-8.00145
送	-8.00385
功	-8.00404
獻	-8.00444
造	-8.00521
微	-8.00596
蜀	-8.00609
原	-8.00809
降	-8.00823
細	-8.00858
野	-8.01008
設	-8.01296
衛	-8.015
養	-8.01638
孔子	-8.01663
雜	-8.02032
智	-8.02242
往	-8.02406
離	-8.02476
良	-8.02481
承	-8.02485
識	-8.02607
彼	-8.02707
執	-8.02851
布	-8.03029
一日	-8.03085
兼	-8.03269
備	-8.03434
杜	-8.03554
蘇	-8.03716
院	-8.03721
刑	-8.0402
共	-8.04219
種	-8.04276
碑	-8.04871
廢	-8.04943
告	-8.05157
忽	-8.05272
乾	-8.05348
汝	-8.0547
角	-8.05532
君子	-8.05683
昭	-8.0644
天子	-8.06453
最	-8.06498
律	-8.06608
羅	-8.068
散	-8.0695
遷	-8.07177
權	-8.07258
是也	-8.07273
湯	-8.073
泉	-8.07507
典	-8.07561
陸	-8.07796
據	-8.07906
樓	-8.08238
儀	-8.08491
虎	-8.0865
雪	-8.08699
害	-8.08732
苦	-8.08852
再	-8.08934
郎	-8.08934
某	-8.09069
滿	-8.09146
斷	-8.09771
私	-8.09794
罪	-8.09848
部	-8.09863
亭	-8.09957
之所	-8.10312
佛	-8.10492
紙	-8.10867
嚴	-8.11105
傷	-8.11135
授	-8.1134
延	-8.11362
兒	-8.11616
鳥	-8.11711
赤	-8.11944
曹	-8.1218
遊	-8.12196
適	-8.12858
業	-8.13131
𤣥	-8.13137
薄	-8.13214
閣	-8.13717
禁	-8.13923
韻	-8.13948
甲	-8.13981
池	-8.14022
破	-8.14133
報	-8.14458
濟	-8.14721
熟	-8.14877
永	-8.14977
昔	-8.15014
越	-8.15306
斯	-8.15555
他	-8.16257
冠	-8.16349
寧	-8.16437
京	-8.16706
推	-8.1672
澤	-8.16794
結	-8.16937
毛	-8.17004
辨	-8.17015
移	-8.17063
不敢	-8.171
敗	-8.17469
伏	-8.17722
夷	-8.17732
職	-8.17853
而已	-8.17899
季	-8.1803
宿	-8.18412
松	-8.1848
孟	-8.18703
鄉	-8.18731
帶	-8.18755
戰	-8.18911
幸	-8.19257
被	-8.19353
疏	-8.2005
邪	-8.20146
放	-8.20245
徒	-8.20292
吕	-8.20372
罷	-8.20391
謀	-8.20427
舟	-8.20748
味	-8.20825
積	-8.20854
到	-8.20854
鬼	-8.21138
寳	-8.21262
遣	-8.21288
務	-8.21421
市	-8.21748
后	-8.21969
達	-8.22071
品	-8.22292
唯	-8.22308
印	-8.22676
順	-8.2269
銀	-8.22743
賞	-8.23096
三年	-8.23292
急	-8.23307
笑	-8.23528
昌	-8.23817
邑	-8.23872
孔	-8.23959
第	-8.2406
冬	-8.24098
伐	-8.24326
率	-8.24433
調	-8.24675
并	-8.25443
恩	-8.25634
升	-8.25813
尚書	-8.25839
十二	-8.26256
待	-8.26348
悉	-8.26556
虞	-8.2697
選	-8.26983
慶	-8.27166
附	-8.27386
吉	-8.27659
妙	-8.27695
福	-8.27746
差	-8.27795
羊	-8.27796
戒	-8.28058
窮	-8.28272
珠	-8.28537
勢	-8.28827
帖	-8.28831
妻	-8.28849
雅	-8.28912
監	-8.29035
憂	-8.29089
茶	-8.29146
𫝊	-8.29211
祀	-8.29278
補	-8.29357
運	-8.29541
納	-8.2974
聽	-8.29909
肉	-8.30128
禹	-8.30282
撰	-8.30353
古人	-8.30571
左右	-8.30658
感	-8.30666
烏	-8.30739
儒	-8.30741
諸侯	-8.30913
質	-8.31138
願	-8.31151
科	-8.31277
羣	-8.31656
掌	-8.3171
釋	-8.3176
富	-8.31768
畢	-8.31783
施	-8.318
折	-8.31805
詳	-8.31822
齋	-8.31884
博	-8.31923
浮	-8.31969
丘	-8.32709
沈	-8.32719
堅	-8.32789
庭	-8.33154
鳴	-8.33226
皮	-8.33291
虚	-8.33311
依	-8.33329
怒	-8.33589
大夫	-8.33713
察	-8.33723
園	-8.33936
射	-8.34179
勞	-8.34623
鼎	-8.34633
滅	-8.34657
骨	-8.34703
賊	-8.34705
狀	-8.35036
婦	-8.35094
溪	-8.35229
退	-8.35272
范	-8.35365
東坡	-8.35523
川	-8.35599
二年	-8.35745
威	-8.35756
鹽	-8.35769
崇	-8.35871
案	-8.35978
保	-8.35981
己	-8.36064
顯	-8.36287
□	-8.36332
井	-8.3639
歴	-8.36471
只	-8.36724
露	-8.36725
米	-8.36947
嘉	-8.37071
約	-8.37477
頗	-8.37714
康	-8.37722
習	-8.38129
根	-8.38166
避	-8.38272
幾	-8.38564
蔡	-8.38624
期	-8.39458
聖人	-8.39493
温	-8.39567
丹	-8.3967
當時	-8.39735
參	-8.39752
邊	-8.39874
勿	-8.40032
舍	-8.4004
於是	-8.40076
屋	-8.40078
術	-8.40113
人之	-8.40239
殊	-8.40269
歲	-8.40523
房	-8.4055
呉	-8.40646
不同	-8.40798
英	-8.40816
枝	-8.41083
游	-8.41177
負	-8.41357
谷	-8.41362
舜	-8.41451
友	-8.41496
仍	-8.41499
羽	-8.41601
誅	-8.41826
條	-8.41915
錄	-8.42003
元年	-8.42478
照	-8.42531
至於	-8.42944
愈	-8.43004
假	-8.43007
申	-8.43283
乞	-8.43434
之後	-8.43444
尾	-8.43722
巳	-8.4373
覺	-8.43765
覆	-8.4381
訓	-8.4386
銅	-8.44077
聚	-8.44095
鼓	-8.44301
誰	-8.44345
不足	-8.44356
乗	-8.44446
亦有	-8.44467
沙	-8.44747
否	-8.4496
擊	-8.45038
無所	-8.45061
背	-8.45079
翁	-8.45233
患	-8.45314
郭	-8.45448
族	-8.45448
夫人	-8.45532
之言	-8.45724
丁	-8.45735
敢	-8.45755
弟	-8.46003
一人	-8.46189
驚	-8.4627
堯	-8.46424
寄	-8.46436
談	-8.46507
盧	-8.46567
采	-8.46754
曽	-8.46833
免	-8.46953
例	-8.47245
贈	-8.4755
妄	-8.47765
休	-8.47766
候	-8.4796
侍	-8.48188
符	-8.48319
舞	-8.48501
管	-8.48586
攻	-8.48749
佳	-8.48843
史記	-8.48849
而後	-8.49067
逸	-8.49393
又曰	-8.49423
眼	-8.49606
編	-8.49753
天地	-8.49834
然後	-8.49957
班	-8.5017
鎮	-8.50323
畧	-8.50398
闗	-8.50436
垂	-8.50455
强	-8.50518
總	-8.50519
輔	-8.50613
孤	-8.50704
甘	-8.50806
格	-8.51177
哀	-8.51309
獲	-8.51375
却	-8.51449
幽	-8.51469
曰此	-8.51516
洞	-8.51551
給	-8.51563
喪	-8.51576
息	-8.51583
龜	-8.51586
夀	-8.51706
醉	-8.51736
營	-8.51871
其所	-8.52153
投	-8.52229
接	-8.52418
追	-8.52635
湖	-8.52835
累	-8.5299
血	-8.53003
絲	-8.53182
乘	-8.53228
雄	-8.53432
翻	-8.53821
賈	-8.53867
㫖	-8.53894
故曰	-8.54024
斗	-8.5414
竟	-8.54248
懐	-8.54394
關	-8.54419
雙	-8.5442
壁	-8.54536
惠	-8.54538
畏	-8.54665
殷	-8.54693
專	-8.54778
資	-8.55053
忌	-8.55107
又有	-8.55187
僕	-8.55312
塞	-8.5569
漸	-8.55727
程	-8.55741
之類	-8.55747
厯	-8.55823
念	-8.56003
寶	-8.56163
刺	-8.56235
繼	-8.56328
未嘗	-8.56499
源	-8.56533
偶	-8.56567
籍	-8.56594
中有	-8.56604
敵	-8.56612
盤	-8.56777
宰相	-8.56803
詩曰	-8.57075
榮	-8.57102
衰	-8.57105
梅	-8.57227
崔	-8.57492
何以	-8.57494
危	-8.57515
索	-8.576
虛	-8.57706
犯	-8.57795
愚	-8.57813
材	-8.57836
莊	-8.57894
之事	-8.58135
貢	-8.58309
兄	-8.58363
充	-8.5837
諱	-8.58422
爵	-8.58459
不及	-8.58743
横	-8.58819
怪	-8.58857
陶	-8.5896
講	-8.59079
逆	-8.5913
禍	-8.59386
回	-8.59418
宅	-8.59507
三十	-8.59661
户	-8.59709
借	-8.59732
雞	-8.59755
曾	-8.59792
隠	-8.60063
怨	-8.60155
寫	-8.60232
薦	-8.60296
也故	-8.60341
兮	-8.60584
責	-8.60662
獄	-8.60894
鍾	-8.61007
之意	-8.61086
財	-8.61182
波	-8.61477
况	-8.61833
蕭	-8.62114
略	-8.62168
咸	-8.62171
戲	-8.62238
人也	-8.62371
宴	-8.6241
尺	-8.62553
弗	-8.62557
學士	-8.62589
隱	-8.62648
祠	-8.62679
司馬	-8.62714
竊	-8.6289
領	-8.62919
稍	-8.63039
琴	-8.6311
救	-8.63739
爭	-8.6375
暴	-8.6391
衡	-8.63948
走	-8.64046
看	-8.64078
曰吾	-8.64131
墓	-8.64152
恭	-8.64241
短	-8.64277
忘	-8.64286
㸃	-8.64292
太子	-8.64415
尋	-8.64444
旁	-8.64447
朝廷	-8.64448
迎	-8.64454
顔	-8.64462
蒙	-8.64516
洛	-8.64596
於此	-8.64745
克	-8.64787
後世	-8.64898
為之	-8.65268
述	-8.65283
蘭	-8.65649
逐	-8.65732
圓	-8.65819
棄	-8.66
示	-8.66052
不見	-8.66844
貧	-8.67155
機	-8.67391
早	-8.67464
鶴	-8.67588
韋	-8.67601
姑	-8.67872
太宗	-8.68044
不復	-8.68179
之間	-8.68201
擇	-8.68272
干	-8.68378
屈	-8.68593
刀	-8.68828
貫	-8.68983
橋	-8.69023
弱	-8.69089
洪	-8.69128
懼	-8.69189
巧	-8.69245
麗	-8.69769
将	-8.69773
阿	-8.69827
天下之	-8.69995
桑	-8.70053
宻	-8.70066
製	-8.70075
有所	-8.70111
諫	-8.70114
孟子	-8.70478
鐵	-8.70556
其後	-8.70659
旦	-8.70688
太祖	-8.70733
漢書	-8.70767
飾	-8.70805
履	-8.70832
進士	-8.70884
雷	-8.70956
来	-8.7152
毎	-8.71531
言之	-8.72011
辟	-8.72142
輩	-8.7219
壽	-8.72356
杖	-8.72576
黒	-8.72771
京師	-8.7281
也今	-8.72939
支	-8.72992
是以	-8.7317
騎	-8.73252
朔	-8.73367
慮	-8.73561
蟲	-8.7391
然則	-8.74072
栁	-8.74187
統	-8.7422
席	-8.74437
甫	-8.74513
熱	-8.7452
將軍	-8.74657
錦	-8.74711
亦不	-8.74842
勸	-8.75032
丞相	-8.75128
二十	-8.75299
又云	-8.75405
側	-8.75498
豐	-8.75532
操	-8.75639
肅	-8.75687
審	-8.75885
閒	-8.75942
縱	-8.76068
步	-8.76101
損	-8.766
謹	-8.76601
知其	-8.767
洗	-8.76849
葬	-8.76941
希	-8.77045
麻	-8.77232
牙	-8.77319
奪	-8.77369
傅	-8.77391
歳	-8.77489
嗣	-8.77524
秀	-8.77549
泥	-8.77601
館	-8.777
郊	-8.77787
偽	-8.77823
江南	-8.77835
未有	-8.77862
會	-8.77975
不如	-8.78088
助	-8.78123
續	-8.78135
量	-8.78178
㣲	-8.78346
燒	-8.78578
費	-8.78869
恨	-8.78986
繫	-8.79078
辰	-8.79101
皇帝	-8.79481
夕	-8.79612
淮	-8.79625
駕	-8.79798
均	-8.79942
謁	-8.80003
船	-8.80015
證	-8.80122
緑	-8.80267
黃	-8.80373
五十	-8.8049
乆	-8.80524
潤	-8.8054
征	-8.80541
訪	-8.80615
䇿	-8.8068
茍	-8.80971
古今	-8.81069
影	-8.81124
黨	-8.81538
碧	-8.81665
庶	-8.81692
慎	-8.81983
寛	-8.82186
陛下	-8.82238
薛	-8.82288
圍	-8.82379
殆	-8.82392
霜	-8.82538
蒼	-8.8259
仕	-8.82693
役	-8.82809
文章	-8.82942
齒	-8.8308
校	-8.83199
隋	-8.83301
油	-8.83349
赴	-8.83372
揚	-8.83547
者皆	-8.83697
卦	-8.83844
増	-8.83856
千里	-8.83879
答	-8.83959
賀	-8.84068
􁀙	-8.84279
純	-8.84312
腹	-8.84381
塵	-8.84518
尹	-8.84684
輒	-8.84758
效	-8.84846
蛇	-8.8497
震	-8.85079
悲	-8.85137
維	-8.8532
環	-8.85351
曉	-8.85357
陰	-8.85406
偏	-8.85494
佐	-8.85526
淵	-8.8596
戎	-8.85986
侍郎	-8.86007
辛	-8.86101
了	-8.86253
子曰	-8.86298
二字	-8.86357
可謂	-8.86479
塗	-8.86573
婦人	-8.86635
以爲	-8.86657
革	-8.86697
社	-8.86766
農	-8.86848
戴	-8.8686
醫	-8.86949
懷	-8.86975
父母	-8.87041
之法	-8.87259
寢	-8.87316
倉	-8.87524
以此	-8.87688
必有	-8.87725
鹿	-8.87878
妾	-8.88256
耕	-8.88345
招	-8.88402
像	-8.88478
誦	-8.88492
泰	-8.88835
驗	-8.88907
穆	-8.88914
黑	-8.89142
桂	-8.89462
之道	-8.89696
占	-8.89899
淺	-8.89977
鐘	-8.89998
粉	-8.90057
不過	-8.90214
有一	-8.90459
而無	-8.90463
之説	-8.90754
今日	-8.90913
孰	-8.91048
鮮	-8.9113
飯	-8.91281
桃	-8.91461
諭	-8.91494
第一	-8.91539
卜	-8.91622
鳳	-8.91733
遠	-8.91737
巨	-8.9181
妃	-8.91906
謬	-8.91967
牧	-8.92037
撫	-8.92064
用之	-8.92142
委	-8.92338
四年	-8.92436
太守	-8.92518
徑	-8.92533
茂	-8.92537
配	-8.92562
貞	-8.9267
勤	-8.92689
御史	-8.92709
子孫	-8.92746
賤	-8.92851
一名	-8.92863
之地	-8.93366
欽定四庫全書	-8.93379
周公	-8.93443
以來	-8.93459
出於	-8.93635
錯	-8.93839
僅	-8.94055
二人	-8.94111
之義	-8.94124
其事	-8.94199
叙	-8.94304
學者	-8.94411
三月	-8.9446
採	-8.94464
違	-8.94673
宰	-8.94746
供	-8.94756
迹	-8.94786
襲	-8.94818
奴	-8.94963
苑	-8.94975
荒	-8.95035
菜	-8.95061
防	-8.95062
勇	-8.95133
午	-8.95184
兄弟	-8.95446
注云	-8.955
周禮	-8.9555
皆有	-8.95745
頃	-8.95879
憲	-8.96034
讓	-8.96111
豆	-8.96144
眞	-8.96213
足以	-8.96299
詣	-8.96396
啓	-8.96498
軒	-8.96552
密	-8.9656
彦	-8.96737
丈	-8.9674
得之	-8.96747
悟	-8.96798
馮	-8.96805
銘	-8.96847
篆	-8.97059
冷	-8.97191
徃	-8.97287
不然	-8.97411
懸	-8.97686
烈	-8.97746
式	-8.97927
仰	-8.97948
輿	-8.98018
毒	-8.98164
含	-8.98335
武帝	-8.98351
朕	-8.98434
日月	-8.98464
荆	-8.98497
惜	-8.98523
循	-8.98566
禄	-8.98823
渠	-8.9889
隆	-8.98995
對曰	-8.99013
之士	-8.99117
燈	-8.99128
眀	-8.99308
缺	-8.99373
詠	-8.99478
慈	-8.99549
衍	-8.9963
吟	-8.99761
硯	-8.99792
速	-8.99839
植	-8.99862
村	-8.99891
貌	-8.99989
不為	-9.00025
繁	-9.00083
卧	-9.00109
買	-9.00229
毁	-9.00233
穴	-9.00362
使人	-9.00535
五年	-9.0059
小人	-9.00734
旋	-9.00743
奔	-9.00744
盈	-9.00764
底	-9.00827
斬	-9.00942
壯	-9.01198
振	-9.01397
後人	-9.01425
産	-9.01488
辯	-9.01494
晚	-9.01507
襄	-9.01674
鏡	-9.01709
雍	-9.02006
上下	-9.02011
痛	-9.02082
境	-9.02165
桓	-9.02207
翠	-9.02255
歎	-9.02298
董	-9.02358
正月	-9.02421
卑	-9.02477
傾	-9.02516
註	-9.02618
遲	-9.02731
貪	-9.02885
殘	-9.02905
翼	-9.03028
得其	-9.03111
珍	-9.03123
姦	-9.03154
裴	-9.03314
之時	-9.03324
頌	-9.03397
險	-9.03423
粟	-9.03469
祥	-9.03497
之名	-9.03519
斤	-9.03633
惑	-9.03646
邦	-9.03686
文王	-9.0373
岳	-9.03813
脩	-9.03829
逢	-9.03961
賔	-9.04182
獸	-9.04199
介	-9.04217
徴	-9.04346
徙	-9.04376
宮	-9.04427
故事	-9.04428
童	-9.04468
寡	-9.04524
瑞	-9.0465
之人	-9.04671
員	-9.04725
鑄	-9.04746
也又	-9.04809
盜	-9.04897
優	-9.05066
剛	-9.05105
界	-9.05137
錫	-9.05337
庫	-9.05469
帥	-9.05631
鑿	-9.05641
烟	-9.0567
燭	-9.05711
公曰	-9.05804
提	-9.05832
柱	-9.05888
也夫	-9.05891
暮	-9.06208
決	-9.06227
消	-9.06252
其人	-9.0631
策	-9.06503
今人	-9.0663
跡	-9.0668
導	-9.0675
,	-9.06778
眉	-9.06813
託	-9.06818
昏	-9.07215
巖	-9.07312
抑	-9.07317
至今	-9.07342
今之	-9.074
磨	-9.07425
十五	-9.07466
遽	-9.07493
唐人	-9.07495
百姓	-9.07658
預	-9.07847
允	-9.08135
柔	-9.08187
一時	-9.08187
倒	-9.08436
抱	-9.08508
哭	-9.08541
禪	-9.08655
吹	-9.08764
乳	-9.08779
儉	-9.08803
以上	-9.08959
覽	-9.09011
廷	-9.09138
鳯	-9.09259
萬物	-9.09325
以下	-9.09357
困	-9.09364
長安	-9.09369
擬	-9.09395
寓	-9.09915
貨	-9.09943
泣	-9.10101
削	-9.10149
十年	-9.10162
愁	-9.10259
築	-9.1028
歩	-9.10508
賣	-9.10563
欽	-9.10693
蒲	-9.10746
肥	-9.10803
三日	-9.10819
十六	-9.10892
辱	-9.11053
左傳	-9.11121
藝	-9.11167
扶	-9.11253
靜	-9.1133
尉	-9.11438
縁	-9.11467
規	-9.11588
大臣	-9.11638
弓	-9.1169
决	-9.11699
十八	-9.11741
不用	-9.11845
額	-9.1215
倚	-9.12231
徵	-9.12241
其子	-9.12362
晦	-9.12383
束	-9.1258
聞之	-9.12608
寵	-9.12714
價	-9.1279
而去	-9.12806
超	-9.12837
非也	-9.12947
讀書	-9.13035
裏	-9.13079
板	-9.13121
厥	-9.13336
贊	-9.13525
丸	-9.13898
十三	-9.13934
見其	-9.13997
趨	-9.14345
彭	-9.14503
肆	-9.1469
者為	-9.14883
庸	-9.1498
諡	-9.15099
享	-9.15106
旣	-9.15142
凝	-9.15231
不可以	-9.15383
座	-9.15401
二句	-9.15466
隔	-9.1548
局	-9.15485
犬	-9.1572
姚	-9.15769
姬	-9.15832
見之	-9.1593
麥	-9.15957
没	-9.16058
脚	-9.16098
奇	-9.16131
古之	-9.16191
士大夫	-9.1625
包	-9.16319
袁	-9.1635
項	-9.16352
煩	-9.16558
鴻	-9.16626
文字	-9.16643
静	-9.16647
髪	-9.16688
夫子	-9.167
閉	-9.16712
榖	-9.16731
舒	-9.16789
争	-9.16893
譜	-9.17128
灰	-9.17139
彌	-9.17139
單	-9.17278
脱	-9.17434
爾雅	-9.17524
傳曰	-9.17779
餅	-9.17831
其中	-9.18103
四十	-9.18151
柳	-9.1825
嶺	-9.18297
祝	-9.183
漆	-9.18339
階	-9.18358
雀	-9.18453
渾	-9.18536
副	-9.18598
國之	-9.18816
淫	-9.18909
厲	-9.18909
援	-9.19095
隂陽	-9.19154
東南	-9.19326
漏	-9.19469
彈	-9.19681
其言	-9.19728
靡	-9.19745
三百	-9.19788
之心	-9.19906
道士	-9.19915
男	-9.20074
蒸	-9.20182
扇	-9.20213
廬	-9.20321
靖	-9.20324
兹	-9.20445
倍	-9.20666
四方	-9.20685
災	-9.20713
不必	-9.20764
欺	-9.20815
禽	-9.20927
瓦	-9.20964
鄙	-9.21015
不以	-9.21027
數十	-9.21132
自是	-9.21232
自然	-9.21245
歡	-9.21266
國家	-9.21302
𢎞	-9.2135
以其	-9.21361
岸	-9.21388
疎	-9.21472
屏	-9.21502
人皆	-9.21533
注曰	-9.21639
限	-9.21716
名曰	-9.21738
判	-9.21741
知之	-9.21786
𨽻	-9.21996
活	-9.22033
六年	-9.22035
敎	-9.22226
敏	-9.22234
之則	-9.223
或曰	-9.22353
安得	-9.22414
頂	-9.22417
芳	-9.2242
掩	-9.22472
侵	-9.22472
屢	-9.22483
穿	-9.22552
焚	-9.22781
住	-9.2305
巾	-9.23062
無不	-9.23075
古文	-9.23158
者不	-9.23223
鼻	-9.2329
討	-9.23345
唱	-9.23427
煎	-9.23493
皆以	-9.23536
如何	-9.23589
傍	-9.23754
謙	-9.23778
遭	-9.23838
腰	-9.24009
幼	-9.24102
減	-9.24152
遵	-9.24163
倫	-9.24226
潔	-9.24253
弟子	-9.24267
之外	-9.24402
往往	-9.24448
狂	-9.24501
荷	-9.24578
罰	-9.24606
丞	-9.24742
付	-9.24772
譏	-9.24971
毋	-9.25094
淡	-9.25178
武王	-9.25195
如是	-9.25282
有司	-9.25469
暗	-9.25502
膏	-9.25538
淳	-9.25667
打	-9.25981
穀	-9.26026
碎	-9.26151
鄧	-9.26242
片	-9.26245
巴	-9.26485
染	-9.26545
百里	-9.2658
畜	-9.2668
囊	-9.26738
之中	-9.26809
豪	-9.26809
兆	-9.26863
之子	-9.26897
沉	-9.26963
訛	-9.27011
踰	-9.2715
輪	-9.27157
裁	-9.2717
蔽	-9.2723
後漢	-9.27241
糧	-9.2732
凶	-9.27337
津	-9.27451
俊	-9.27475
十餘	-9.27508
基	-9.27523
氷	-9.2753
宏	-9.27579
貶	-9.27631
馳	-9.27688
中國	-9.28005
䕶	-9.28022
視之	-9.28194
从	-9.28297
矢	-9.283
頓	-9.28324
激	-9.28484
啟	-9.28596
五月	-9.28869
尸	-9.29049
也然	-9.29081
蜜	-9.29441
晏	-9.29702
忍	-9.29751
藉	-9.29789
旗	-9.29793
玩	-9.29802
上有	-9.29922
第二	-9.2993
之文	-9.29998
富貴	-9.30055
未必	-9.30065
勒	-9.30262
十四	-9.3046
豫	-9.30622
歟	-9.30738
髙祖	-9.30741
杯	-9.30751
不相	-9.30898
浸	-9.30899
寸	-9.30937
洲	-9.30943
強	-9.30967
囘	-9.31056
一作	-9.31083
開元	-9.31248
堪	-9.31308
叢	-9.31396
即位	-9.31406
一曰	-9.31417
食之	-9.31494
宇	-9.31521
八月	-9.31608
翰林	-9.31639
段	-9.31741
其實	-9.32002
舎	-9.3202
黄帝	-9.32053
仁宗	-9.32095
熊	-9.32231
祿	-9.32301
赦	-9.32377
厭	-9.32462
劍	-9.32467
者亦	-9.32483
驅	-9.32574
鼔	-9.32661
本朝	-9.32759
十月	-9.32917
嫁	-9.32949
枯	-9.32978
慕	-9.33084
十七	-9.33087
父子	-9.33233
亮	-9.3324
茅	-9.33314
壺	-9.33323
其名	-9.33357
弼	-9.33371
巢	-9.3346
桐	-9.33477
研	-9.33598
為一	-9.33618
吐	-9.33676
督	-9.33697
晝	-9.33707
佩	-9.33935
芝	-9.33991
逹	-9.34008
莫不	-9.34177
夾	-9.34187
澄	-9.34306
譽	-9.34337
六十	-9.3451
濕	-9.34526
古者	-9.34644
汁	-9.34853
勅	-9.35021
百官	-9.35312
毅	-9.35319
㡬	-9.35391
君臣	-9.3567
一字	-9.35862
有餘	-9.35883
之上	-9.36007
絃	-9.36117
二月	-9.36169
潛	-9.36173
蓮	-9.3624
河南	-9.36316
帛	-9.36429
饑	-9.36667
毫	-9.36672
崩	-9.36716
曰我	-9.36735
不當	-9.36812
躬	-9.37018
其間	-9.37066
押	-9.37122
太平	-9.37182
之語	-9.37209
明日	-9.3729
捕	-9.37367
漫	-9.37374
況	-9.37467
喻	-9.37688
峯	-9.37969
契	-9.37975
論語	-9.38273
姓名	-9.38375
者以	-9.38379
説文	-9.38557
觀之	-9.38665
奚	-9.38689
幹	-9.3878
南北	-9.38854
扵	-9.38976
紹	-9.3913
何也	-9.39135
六月	-9.39144
灌	-9.39154
署	-9.39157
想	-9.39223
偃	-9.39293
崖	-9.3933
浩	-9.39409
織	-9.39495
者必	-9.39563
斜	-9.39574
檢	-9.39726
觸	-9.39816
羣臣	-9.39831
敦	-9.39841
增	-9.3992
一卷	-9.39953
霸	-9.40068
書曰	-9.40144
由是	-9.40243
也若	-9.4027
亦可	-9.40275
乙	-9.40296
瓊	-9.40348
蠶	-9.40396
趣	-9.40421
取其	-9.40464
太后	-9.4051
漁	-9.4052
銜	-9.40627
較	-9.40636
朱子	-9.40712
中書	-9.40732
棗	-9.40968
犀	-9.40983
七年	-9.41044
殺之	-9.41412
寅	-9.41459
一百	-9.4158
不言	-9.41585
與之	-9.4165
沒	-9.4183
坊	-9.41844
之制	-9.41882
完	-9.41897
其家	-9.41935
絹	-9.4212
翰	-9.42167
𤓰	-9.42246
戚	-9.42343
脫	-9.42417
舌	-9.42424
岐	-9.42446
誥	-9.42542
坡	-9.42547
九月	-9.42635
衞	-9.42726
之說	-9.42732
時有	-9.42756
焦	-9.42871
蕩	-9.42887
絳	-9.42908
言其	-9.42936
悔	-9.42971
壇	-9.42999
競	-9.4308
紋	-9.43224
融	-9.43229
煙	-9.43383
話	-9.43409
是時	-9.43426
東西	-9.43499
然而	-9.43506
枕	-9.43547
停	-9.43653
湘	-9.43712
快	-9.43807
帳	-9.4393
姜	-9.43968
艾	-9.43988
黎	-9.44023
鄰	-9.44102
平生	-9.44156
菴	-9.44191
攝	-9.44221
輙	-9.44267
見於	-9.44367
鬼神	-9.44451
卯	-9.44561
愧	-9.44807
遜	-9.44819
伊	-9.44845
跋	-9.44847
娶	-9.4488
凌	-9.4496
悦	-9.44971
逃	-9.45062
割	-9.45066
塔	-9.4508
勉	-9.45161
誕	-9.45433
麟	-9.45438
祐	-9.45522
巫	-9.45589
恒	-9.45592
團	-9.45627
女子	-9.45693
俟	-9.45908
冦	-9.46059
前後	-9.4611
戸	-9.46137
竭	-9.46159
邵	-9.46265
寜	-9.46294
妖	-9.46321
所載	-9.46363
嶽	-9.4638
是故	-9.46397
叛	-9.46449
蠻	-9.4651
把	-9.4651
草木	-9.4658
四時	-9.46595
閭	-9.46614
胥	-9.46663
匹	-9.46767
勲	-9.46815
叅	-9.46815
究	-9.46954
晨	-9.47006
爛	-9.47086
璧	-9.47092
所作	-9.47209
䘮	-9.47216
大小	-9.47274
莊子	-9.4737
篤	-9.47383
陋	-9.4745
潮	-9.47515
綱	-9.47597
妓	-9.47699
徹	-9.4785
膠	-9.47912
咎	-9.48003
炎	-9.48195
潘	-9.48207
也其	-9.48241
西北	-9.48339
創	-9.48418
葛	-9.48483
竇	-9.48612
各有	-9.48629
緩	-9.48727
渡	-9.48732
狗	-9.48782
弊	-9.48902
五日	-9.48914
鬱	-9.48961
亷	-9.48974
浪	-9.48979
祈	-9.49067
聴	-9.49146
不肯	-9.49162
排	-9.49186
雉	-9.49201
庚	-9.49244
出入	-9.49314
吴	-9.49363
輸	-9.49536
屯	-9.49559
左氏	-9.49646
簾	-9.49673
卓	-9.49715
䑕	-9.49785
文武	-9.49798
文公	-9.49811
繩	-9.50027
之際	-9.50027
着	-9.50164
狐	-9.50216
墜	-9.50407
晩	-9.5043
訖	-9.5043
皇后	-9.50489
熈	-9.50544
獵	-9.50684
七十	-9.50844
遼	-9.50882
驛	-9.50918
榜	-9.51041
所見	-9.51115
紹興	-9.51116
攷	-9.51283
汗	-9.51368
嫌	-9.51379
秉	-9.51439
五行	-9.51587
訟	-9.51849
練	-9.51871
者有	-9.51903
而為	-9.51906
文帝	-9.52148
誣	-9.52281
遍	-9.52305
懿	-9.524
􁁊	-9.52536
第三	-9.52566
臂	-9.52728
憶	-9.52791
雖有	-9.52848
子弟	-9.52863
之故	-9.52934
者非	-9.53047
之屬	-9.53186
褒	-9.53214
有三	-9.53463
五色	-9.53465
州刺史	-9.53557
紂	-9.53573
之禮	-9.53603
墮	-9.53653
拂	-9.53656
之功	-9.53784
鸞	-9.53858
黍	-9.53887
之數	-9.53895
拘	-9.53919
婢	-9.54154
髮	-9.54197
主人	-9.54246
係	-9.54247
亟	-9.54321
四月	-9.54359
人主	-9.54365
冀	-9.54405
洛陽	-9.5456
其上	-9.54579
伍	-9.54913
纔	-9.55022
坤	-9.55243
徧	-9.55375
抵	-9.5551
腸	-9.55546
溺	-9.55608
飲食	-9.55633
山谷	-9.55736
裕	-9.55837
偉	-9.55867
料	-9.55874
自有	-9.55912
摩	-9.56002
囚	-9.5612
溝	-9.56132
裂	-9.56227
一篇	-9.5632
牀	-9.56359
其文	-9.56427
吏部	-9.56589
鑒	-9.5664
其意	-9.56658
稷	-9.56663
謫	-9.56703
徽	-9.56785
竝	-9.56824
展	-9.56997
嬰	-9.5703
貯	-9.5712
詐	-9.57168
酌	-9.57208
不與	-9.57348
響	-9.57386
壊	-9.57482
饒	-9.57503
至于	-9.57528
牢	-9.57548
萬里	-9.57661
魂	-9.57778
也按	-9.57947
七月	-9.57959
該	-9.57983
幕	-9.58031
菊	-9.58143
之徒	-9.58192
蕃	-9.582
嗜	-9.58333
十一	-9.58354
東北	-9.58403
窺	-9.58407
肝	-9.58448
霞	-9.5845
不在	-9.58512
觀其	-9.5857
世之	-9.58577
涉	-9.58615
牽	-9.58633
不應	-9.58678
三代	-9.58718
百餘	-9.58722
泛	-9.58763
盆	-9.58893
叟	-9.58946
閲	-9.59077
之下	-9.59195
取之	-9.59226
喬	-9.59344
詰	-9.59451
八年	-9.5964
璽	-9.59671
乖	-9.59871
乃知	-9.59889
普	-9.6001
凉	-9.60033
豈不	-9.60052
堯舜	-9.60225
可見	-9.60291
籠	-9.60342
斥	-9.60389
柄	-9.60411
壓	-9.60468
秩	-9.60476
暑	-9.60512
揖	-9.60516
至此	-9.60529
人間	-9.60628
旅	-9.60753
稽	-9.60755
戮	-9.60816
滑	-9.60819
鬚	-9.60895
黜	-9.61062
橘	-9.61064
薨	-9.61148
箭	-9.61171
二百	-9.61221
作詩	-9.61281
算	-9.61373
不知其	-9.61396
何如	-9.61406
陷	-9.61456
圭	-9.61472
枚	-9.61472
未知	-9.61488
脂	-9.61514
云云	-9.61539
黙	-9.61557
不勝	-9.61621
公子	-9.61738
從之	-9.61825
疊	-9.61836
甞	-9.61849
鴈	-9.61864
公主	-9.61962
二十四	-9.61964
昧	-9.62091
豹	-9.62201
弄	-9.62255
慢	-9.62262
其一	-9.62267
亞	-9.62383
元祐	-9.62424
其義	-9.62438
不識	-9.62493
大抵	-9.62497
鷄	-9.625
溢	-9.62573
爻	-9.62662
臘	-9.62675
瓶	-9.62769
軸	-9.62827
煮	-9.6283
苗	-9.62892
鑑	-9.62898
驕	-9.62972
綿	-9.62985
百年	-9.6309
山水	-9.63123
脉	-9.63131
披	-9.63425
賢者	-9.63532
擢	-9.63575
西南	-9.63585
誓	-9.63648
乏	-9.63747
鱗	-9.6378
呂	-9.63881
測	-9.6393
恕	-9.63998
為人	-9.64052
峰	-9.64132
低	-9.64155
峻	-9.64211
無以	-9.64289
而下	-9.64353
雕	-9.64363
人以	-9.64391
鄒	-9.64415
寂	-9.64427
警	-9.64468
併	-9.64491
。	-9.64504
可也	-9.64617
栗	-9.6468
也此	-9.64682
罕	-9.64729
社稷	-9.64953
鈎	-9.64982
詢	-9.65
禮部	-9.65036
亦無	-9.65094
添	-9.65124
鋒	-9.65163
健	-9.65216
評	-9.65227
故也	-9.65331
淚	-9.65342
上曰	-9.65342
網	-9.65351
之氣	-9.65402
明年	-9.65515
賛	-9.65519
育	-9.65528
迷	-9.65565
嗟	-9.6558
以後	-9.65593
三人	-9.65625
矜	-9.65645
得一	-9.65646
老子	-9.65651
冊	-9.65707
綴	-9.65915
摹	-9.65932
十九	-9.65944
廉	-9.65957
嵩	-9.66002
考之	-9.66029
數日	-9.66046
互	-9.66067
標	-9.66093
七日	-9.66124
冰	-9.66156
行之	-9.66253
屠	-9.66294
祖宗	-9.66318
使者	-9.66356
之學	-9.66411
則有	-9.66417
魁	-9.66424
生於	-9.6646
狼	-9.66465
的	-9.6656
莽	-9.66643
擾	-9.66653
藩	-9.66654
是非	-9.66693
五百	-9.66777
俾	-9.66807
矣然	-9.66854
所在	-9.66962
荀	-9.67008
拒	-9.67017
勁	-9.67034
始於	-9.67087
刋	-9.67343
郎中	-9.67408
賓	-9.67528
尼	-9.67555
諌	-9.67583
其説	-9.6764
气	-9.67643
擅	-9.67684
庾	-9.67715
専	-9.67794
換	-9.67865
猛	-9.67905
狄	-9.68042
者曰	-9.68097
則不	-9.6814
掃	-9.68176
飲酒	-9.68219
有大	-9.68229
斛	-9.68249
秘	-9.68303
風雨	-9.68424
爐	-9.68483
藻	-9.6851
核	-9.68554
逼	-9.68642
塲	-9.68659
恃	-9.68706
鈔	-9.6872
嘆	-9.68733
槩	-9.68742
不若	-9.68749
樞	-9.68789
或以	-9.68793
析	-9.68812
而行	-9.68817
臯	-9.6882
人物	-9.68885
門外	-9.6892
爽	-9.68964
昇	-9.6899
整	-9.69063
挾	-9.69064
返	-9.69085
八十	-9.69096
人所	-9.69123
内外	-9.69266
令人	-9.693
書云	-9.69352
㕔	-9.69565
混	-9.69623
十二月	-9.69779
此語	-9.69794
儲	-9.69802
之所以	-9.69834
盟	-9.69871
光武	-9.6992
盗	-9.6997
彩	-9.70036
肺	-9.70099
匠	-9.70106
邉	-9.70137
亦曰	-9.70175
或作	-9.70177
旬	-9.70183
王者	-9.7023
繡	-9.70257
飽	-9.70304
羮	-9.70399
元豐	-9.7042
几	-9.7047
則是	-9.70489
霧	-9.70494
蓄	-9.705
司空	-9.70567
之日	-9.70664
曠	-9.70746
仁義	-9.70768
覩	-9.70826
逰	-9.70828
甚多	-9.70872
所得	-9.7095
箇	-9.71083
不足以	-9.71095
濁	-9.71207
拔	-9.71264
劒	-9.7127
恥	-9.71283
禮記	-9.71344
熙	-9.71393
跪	-9.71423
說文	-9.71574
烹	-9.71576
戍	-9.71611
肯	-9.71632
隅	-9.71635
醋	-9.71668
炒	-9.71824
時人	-9.71826
佞	-9.71959
鮑	-9.72008
衝	-9.72106
薪	-9.72125
荆公	-9.72174
有此	-9.72212
少年	-9.72241
奕	-9.72252
浙	-9.72258
笑曰	-9.72397
一二	-9.72428
聊	-9.72508
宣和	-9.72534
天地之	-9.72641
範	-9.72829
疆	-9.72834
歐陽	-9.72859
従	-9.72906
坑	-9.73037
罔	-9.73095
浦	-9.73122
禦	-9.73154
聘	-9.73296
真宗	-9.733
曰汝	-9.73304
酸	-9.73396
渭	-9.73411
神仙	-9.7343
睡	-9.73465
文選	-9.73564
晁	-9.73594
臧	-9.73689
君之	-9.73714
數百	-9.73723
揺	-9.73817
禮樂	-9.73913
僚	-9.74013
那	-9.74068
問曰	-9.74122
途	-9.74175
梨	-9.74231
不欲	-9.74286
值	-9.74301
仗	-9.74306
其地	-9.74488
其身	-9.74504
樊	-9.74554
太常	-9.74652
纂	-9.74671
豈可	-9.74693
簿	-9.74702
擁	-9.74706
淮南	-9.74709
此事	-9.74783
而不能	-9.74889
幅	-9.74919
袖	-9.74933
態	-9.74959
他日	-9.74988
四海	-9.7511
旱	-9.75117
太尉	-9.75142
脾	-9.75214
閏	-9.7523
㝠	-9.75387
漕	-9.75423
倣	-9.75433
五代	-9.75516
䟽	-9.75533
陣	-9.75544
近世	-9.7555
久之	-9.75578
執政	-9.75658
人心	-9.7568
鞭	-9.75681
者多	-9.75713
奮	-9.75774
羞	-9.75803
牌	-9.75815
有二	-9.7584
版	-9.75854
巡	-9.75906
緯	-9.75931
莖	-9.75961
退之	-9.75983
掘	-9.76037
滋	-9.76112
或云	-9.76121
十一月	-9.76157
圃	-9.76211
南方	-9.76252
勃	-9.76344
暇	-9.76358
者其	-9.76373
釣	-9.7643
牒	-9.76462
司徒	-9.76465
宛	-9.76514
斧	-9.76535
韶	-9.7655
晴	-9.76693
若此	-9.76793
問之	-9.76868
公孫	-9.7707
相與	-9.77095
粗	-9.77144
廵	-9.77203
化為	-9.77288
失其	-9.77294
其下	-9.77299
突	-9.77392
炙	-9.77452
駭	-9.77524
博士	-9.77546
垣	-9.77548
醜	-9.77549
探	-9.77554
際	-9.77568
不合	-9.77591
九年	-9.77728
亥	-9.77798
坎	-9.77814
所居	-9.7786
騰	-9.77935
冕	-9.7798
以示	-9.78112
肩	-9.7813
洋	-9.78454
呼為	-9.78474
諷	-9.78577
而不知	-9.78579
箋	-9.78657
禱	-9.78691
層	-9.78713
瞻	-9.78835
閩	-9.78897
失之	-9.78989
邱	-9.79062
諸公	-9.79067
筍	-9.79125
太史	-9.79269
裝	-9.79512
燥	-9.79652
揚州	-9.79661
皇上	-9.79666
壞	-9.79686
成都	-9.79686
棺	-9.79704
自古	-9.79711
太公	-9.79749
人有	-9.79769
洪武	-9.79795
距	-9.80066
不免	-9.80151
曰臣	-9.80164
宣王	-9.80173
旨	-9.80226
閱	-9.80227
沿	-9.80239
其父	-9.8031
匡	-9.80332
繆	-9.80343
翔	-9.80474
嗚呼	-9.80495
濤	-9.805
椒	-9.80506
不出	-9.80523
山中	-9.8062
乃以	-9.80663
其餘	-9.80735
之書	-9.8077
鈞	-9.80829
膝	-9.80842
甲子	-9.80901
𦵏	-9.80982
一年	-9.81008
十卷	-9.81076
柴	-9.81105
仲尼	-9.81161
當作	-9.81166
明皇	-9.81451
而死	-9.81472
者如	-9.81491
滯	-9.81494
此言	-9.81601
遂以	-9.81602
墳	-9.81649
成王	-9.81663
死者	-9.8177
謨	-9.81806
北方	-9.81819
不忍	-9.81829
一兩	-9.81934
侍中	-9.81992
三公	-9.82011
胎	-9.82011
協	-9.82051
而出	-9.82148
慧	-9.82156
拙	-9.82164
士人	-9.82187
街	-9.82335
以自	-9.82421
亦然	-9.82441
之論	-9.82452
不宜	-9.8248
卵	-9.82496
隣	-9.82583
潭	-9.826
山川	-9.82627
唐書	-9.82715
曰某	-9.82727
州縣	-9.82831
河東	-9.82833
此書	-9.82931
傳云	-9.82939
措	-9.82981
刺史	-9.83071
區	-9.83092
奈何	-9.83123
受命	-9.83152
朴	-9.83239
腎	-9.8327
一事	-9.83354
托	-9.83359
吞	-9.8337
棘	-9.83644
宗廟	-9.83652
杏	-9.83653
澗	-9.83666
涼	-9.83691
聖人之	-9.8372
間有	-9.83793
大者	-9.838
人多	-9.83809
炭	-9.83834
翟	-9.83874
媚	-9.83928
氏之	-9.83933
輦	-9.83952
阮	-9.84069
孔子曰	-9.84139
以前	-9.84165
躍	-9.84184
頻	-9.84205
緣	-9.8433
㑹稽	-9.84375
汪	-9.84377
濶	-9.84379
伸	-9.84414
不聞	-9.84562
畝	-9.84659
瑩	-9.84741
不可不	-9.84769
飢	-9.84828
本草	-9.84835
不許	-9.8485
袍	-9.84858
小兒	-9.8488
倦	-9.84881
當以	-9.84928
鬻	-9.85038
蓬	-9.85142
天之	-9.85378
株	-9.85596
豈非	-9.85604
飄	-9.85704
牡丹	-9.85817
仇	-9.85829
之理	-9.85833
閑	-9.85834
映	-9.85861
祗	-9.85933
有人	-9.85942
綠	-9.86011
不行	-9.86015
下有	-9.86017
三十六	-9.8615
陞	-9.86164
二公	-9.86178
靣	-9.86241
驢	-9.8637
摘	-9.86444
様	-9.86534
家人	-9.86708
亦以	-9.8671
剪	-9.86726
濫	-9.86772
者乎	-9.86808
圗	-9.86816
嘉靖	-9.86852
酉	-9.86857
雌	-9.86896
鵲	-9.86928
恤	-9.86937
泊	-9.8694
不至	-9.86952
栢	-9.86968
腐	-9.86977
鳩	-9.87011
未能	-9.87022
裘	-9.87034
潜	-9.87056
通鑑	-9.87065
而成	-9.87134
台	-9.87154
耳目	-9.87158
繞	-9.87236
課	-9.87293
金陵	-9.87452
壤	-9.87515
民之	-9.87632
僕射	-9.87675
啼	-9.87789
淨	-9.87806
娘	-9.87887
山東	-9.88022
猪	-9.88025
舅	-9.88047
琵琶	-9.88052
▁(	-9.88076
貽	-9.88146
藤	-9.88232
殺人	-9.88243
俸	-9.88305
憐	-9.88317
丑	-9.88351
又以	-9.88402
不盡	-9.88499
捨	-9.88569
煑	-9.88624
欲以	-9.88665
物也	-9.88718
酷	-9.88734
冬至	-9.88768
廊	-9.88787
拱	-9.88825
宫中	-9.88877
劾	-9.88911
釐	-9.88973
語曰	-9.89005
弔	-9.8903
旌	-9.89141
亨	-9.89141
此詩	-9.89161
鋪	-9.892
汴	-9.89203
域	-9.89226
答曰	-9.89239
不從	-9.8924
此則	-9.89303
老人	-9.89367
不食	-9.89391
已而	-9.89415
皆不	-9.89417
求之	-9.89485
鷹	-9.89536
括	-9.89596
葵	-9.89627
西域	-9.8968
國朝	-9.8968
踐	-9.89726
黄金	-9.89737
猶有	-9.89775
湛	-9.89843
擲	-9.89872
寃	-9.89894
班固	-9.89909
政事	-9.89981
逮	-9.89984
諧	-9.89993
砂	-9.90057
水中	-9.90125
蟹	-9.90125
王莽	-9.90136
棲	-9.90151
揮	-9.90172
賴	-9.90179
者乃	-9.90255
譬	-9.90349
王子	-9.90389
島	-9.90487
致仕	-9.90506
月令	-9.9051
門下	-9.90547
誘	-9.9055
太原	-9.9058
場	-9.90618
慰	-9.90627
禾	-9.90632
之聲	-9.90653
之變	-9.90718
函	-9.9085
有功	-9.90862
所言	-9.9088
恵	-9.90895
訴	-9.90919
什	-9.91008
後有	-9.91095
梓	-9.91134
膽	-9.91158
桓公	-9.91293
矯	-9.913
歛	-9.91312
風俗	-9.91392
哲	-9.91398
者則	-9.91412
世家	-9.91484
拾	-9.91569
虜	-9.91588
其心	-9.91651
江西	-9.91724
之術	-9.91884
斂	-9.91905
門人	-9.91978
閤	-9.91987
屑	-9.9208
一切	-9.9224
可知	-9.9229
不善	-9.92298
中丞	-9.92301
巷	-9.92316
弦	-9.92336
遁	-9.92358
可為	-9.9241
酬	-9.92496
埋	-9.92498
已有	-9.92533
樵	-9.92606
俯	-9.92616
綺	-9.92643
前漢	-9.92664
其書	-9.92776
不知何	-9.92813
之句	-9.92827
謗	-9.92882
㳺	-9.93086
架	-9.93261
二子	-9.93349
豕	-9.93418
做	-9.93422
朋	-9.93446
元史	-9.93473
憤	-9.93506
王氏	-9.93549
三千	-9.93635
敷	-9.93649
渉	-9.93652
勾	-9.93659
十日	-9.93683
不受	-9.93788
笛	-9.93801
詩話	-9.93821
績	-9.93972
抗	-9.93974
公卿	-9.94039
截	-9.94041
収	-9.94123
辦	-9.9413
模	-9.94209
曰君	-9.94311
札	-9.94313
奢	-9.94364
議論	-9.94381
促	-9.94405
禁中	-9.94505
謂其	-9.94511
勑	-9.94551
攜	-9.94566
之謂	-9.94604
藍	-9.9465
及第	-9.94692
煉	-9.9476
蔣	-9.9488
欵	-9.94918
僖	-9.94993
神宗	-9.95013
大如	-9.95052
眠	-9.95186
繇	-9.95191
宣帝	-9.95198
或謂	-9.95249
十里	-9.95257
夲	-9.95295
萌	-9.95302
二十五	-9.95402
人臣	-9.95427
暢	-9.95438
未可	-9.95556
阻	-9.95595
斑	-9.95611
沃	-9.95646
霍	-9.95705
枉	-9.95756
精神	-9.95816
亦非	-9.95824
諸子	-9.95852
握	-9.95897
稻	-9.95942
或有	-9.9598
髙宗	-9.95985
霄	-9.96099
播	-9.96211
之罪	-9.96247
曰今	-9.96337
隙	-9.96341
確	-9.96349
既而	-9.96386
蟬	-9.96391
不肖	-9.96504
輕重	-9.96521
見一	-9.96538
節度使	-9.96602
壑	-9.96722
榻	-9.96832
冩	-9.96987
裔	-9.96993
毬	-9.97022
冢	-9.97059
閔	-9.97117
般	-9.97134
㓜	-9.97154
裹	-9.97155
掖	-9.97174
戊	-9.97212
桀	-9.97222
聖賢	-9.97226
彊	-9.97248
九十	-9.97271
劇	-9.973
者謂之	-9.97311
銖	-9.97353
綽	-9.97417
匿	-9.97421
數年	-9.97498
遣使	-9.9752
給事中	-9.97532
衫	-9.97606
與人	-9.97616
勘	-9.97617
自此	-9.97641
漿	-9.97666
叩	-9.97685
闢	-9.97707
泄	-9.97727
姪	-9.97768
服之	-9.97881
耀	-9.97883
誌	-9.9789
谿	-9.97906
衣冠	-9.97967
稅	-9.98062
於人	-9.98104
甕	-9.98108
明帝	-9.98108
莫能	-9.98113
之物	-9.98179
樂府	-9.98239
蘆	-9.98298
終日	-9.98332
床	-9.98372
薑	-9.98377
墻	-9.98387
粥	-9.98393
衙	-9.98517
奸	-9.98663
汲	-9.98687
記云	-9.98768
舍人	-9.98806
滕	-9.98826
朗	-9.98835
槐	-9.9884
詭	-9.98851
再拜	-9.98959
傑	-9.98985
世祖	-9.9899
祚	-9.99011
上書	-9.99035
豈有	-9.99059
不信	-9.99086
擒	-9.99101
幣	-9.99111
前輩	-9.99112
荅	-9.99117
億	-9.99122
柏	-9.99141
浴	-9.99156
上帝	-9.99188
凖	-9.99282
挺	-9.99316
相傳	-9.99363
侈	-9.99444
蠟	-9.99475
則無	-9.99535
所云	-9.99537
記曰	-9.99539
元和	-9.99576
不覺	-9.99613
芒	-9.99621
楷	-9.99649
而言	-9.99737
鬭	-9.99794
人情	-9.99838
契丹	-9.99841
者謂	-9.999
他人	-10.0005
河北	-10.0005
及其	-10.0007
改為	-10.0015
鵠	-10.0018
彰	-10.0023
雁	-10.0025
笙	-10.0025
十二年	-10.0033
人君	-10.0036
使之	-10.0036
亦云	-10.0047
液	-10.0055
耆	-10.0055
何人	-10.0065
戾	-10.0067
顛	-10.0072
東方	-10.0072
峽	-10.0072
而生	-10.0076
陟	-10.0082
名也	-10.0083
以待	-10.0085
二十年	-10.0091
匈奴	-10.0092
醒	-10.0095
糞	-10.0097
男女	-10.0104
十五年	-10.0108
詩人	-10.0108
子美	-10.0111
不止	-10.0111
用兵	-10.0113
一種	-10.0116
耗	-10.0123
不成	-10.0128
未見	-10.013
湏	-10.0132
牲	-10.0132
往來	-10.0135
㧞	-10.0136
之盛	-10.0139
數千	-10.0145
冶	-10.0147
敝	-10.0151
國初	-10.0163
批	-10.0173
它	-10.0182
揚雄	-10.0187
副使	-10.0191
僻	-10.0202
蹈	-10.0214
透	-10.0223
不載	-10.0224
貝	-10.0228
級	-10.023
則知	-10.023
冲	-10.023
羲	-10.0231
有四	-10.0232
邸	-10.0237
賦詩	-10.0237
無復	-10.0238
竅	-10.0242
盞	-10.0248
塊	-10.0249
涯	-10.025
其國	-10.0253
蔓	-10.0255
太史公	-10.0257
竈	-10.026
臭	-10.0263
十餘年	-10.0271
誤也	-10.0274
腦	-10.0279
荆州	-10.0283
之辭	-10.0284
線	-10.0285
矣故	-10.0285
衢	-10.0298
伊尹	-10.0299
汾	-10.0311
何所	-10.0314
鼠	-10.0316
道人	-10.032
戈	-10.0324
遥	-10.0329
起居	-10.0344
岡	-10.0348
姿	-10.0363
頴	-10.0364
無人	-10.0379
男子	-10.0381
太學	-10.0385
塘	-10.0389
永樂	-10.0393
爪	-10.0395
無一	-10.0399
竿	-10.0414
之禍	-10.0415
翰林學士	-10.0418
於上	-10.0426
紛	-10.0426
忿	-10.0428
之臣	-10.0428
魄	-10.0429
娥	-10.0432
家有	-10.0438
箕	-10.0442
畔	-10.0445
之詩	-10.0448
明堂	-10.0449
檀	-10.0456
紗	-10.0457
事也	-10.0461
倡	-10.0463
此皆	-10.0476
齡	-10.0477
睿	-10.0478
長史	-10.0479
歐	-10.0479
何為	-10.048
為大	-10.0481
瓜	-10.0486
肇	-10.0493
俄	-10.0496
管仲	-10.0497
縷	-10.0498
磬	-10.0507
而能	-10.0508
杜詩	-10.0508
童子	-10.0511
或問	-10.0511
拳	-10.0515
縮	-10.0525
當是	-10.0526
俞	-10.0535
緒	-10.0541
崑崙	-10.0545
刼	-10.0547
障	-10.0561
壻	-10.0563
税	-10.0564
道也	-10.0565
是謂	-10.0567
之精	-10.0568
所為	-10.0568
綬	-10.0577
針	-10.0577
册	-10.0579
暫	-10.0581
一旦	-10.0581
終不	-10.0582
演	-10.0592
弩	-10.0592
迫	-10.0594
呈	-10.0608
相似	-10.0616
爰	-10.0624
用此	-10.0627
不自	-10.0627
軟	-10.0634
之象	-10.0637
瀆	-10.0644
十萬	-10.0654
脈	-10.0664
金銀	-10.0665
纎	-10.0665
金石	-10.067
人家	-10.0672
筵	-10.0674
五經	-10.0675
狹	-10.068
鏤	-10.0681
指揮	-10.0687
準	-10.0689
用事	-10.0693
帝王	-10.0694
中興	-10.0695
挽	-10.0695
虐	-10.0696
觴	-10.0697
胃	-10.0705
不通	-10.0705
竄	-10.0715
憑	-10.0716
抄	-10.0716
帽	-10.073
譚	-10.0731
迴	-10.0731
查	-10.0732
祁	-10.0732
粒	-10.0732
二曰	-10.0735
灼	-10.0744
高祖	-10.0745
六經	-10.0746
𤣥宗	-10.0748
零	-10.0752
芽	-10.0759
不可得	-10.0759
若璩按	-10.076
悅	-10.0761
穢	-10.0762
豫章	-10.0762
太白	-10.0762
貴人	-10.0763
郢	-10.078
洽	-10.078
十一年	-10.0783
之情	-10.0787
弑	-10.0795
於世	-10.08
無窮	-10.0808
晝夜	-10.0809
以成	-10.0819
未幾	-10.0822
而復	-10.0822
不待	-10.0832
滴	-10.0837
猿	-10.085
先王	-10.0853
已上	-10.086
冝	-10.086
王公	-10.0864
秀才	-10.0865
之誤	-10.0866
第四	-10.0881
三十年	-10.0889
敕	-10.0898
銷	-10.0902
久矣	-10.0908
誤矣	-10.0919
状	-10.0921
厨	-10.0923
世俗	-10.0926
牆	-10.0931
綸	-10.0936
于此	-10.0944
後主	-10.0948
膚	-10.0955
番	-10.0957
自謂	-10.0958
裳	-10.0962
䖍	-10.0966
明矣	-10.0976
山海經	-10.0982
倪	-10.0987
兔	-10.099
相公	-10.0994
綵	-10.0995
十三年	-10.0998
泰山	-10.1004
蘓	-10.1022
刪	-10.1027
土人	-10.1036
虧	-10.1036
憚	-10.104
丙	-10.104
婆	-10.1041
軌	-10.1052
暉	-10.1058
待制	-10.1062
何不	-10.1065
冒	-10.107
沛	-10.1074
不已	-10.1077
內	-10.1081
洞庭	-10.1087
貳	-10.1092
起於	-10.11
荘	-10.1107
畿	-10.1109
所用	-10.1113
㸔	-10.1114
西方	-10.1119
右軍	-10.1129
逾	-10.1131
太師	-10.1133
訣	-10.1138
汚	-10.1147
子厚	-10.1147
夭	-10.1161
治之	-10.1161
租	-10.1163
簫	-10.1172
榆	-10.1175
扈	-10.1175
婁	-10.1176
二十八	-10.1179
真人	-10.1185
相見	-10.1187
不易	-10.1196
終身	-10.12
敘	-10.12
相國	-10.1209
之内	-10.1224
杭	-10.1228
卽	-10.1229
准	-10.1233
罵	-10.1235
邢	-10.1237
無事	-10.1238
晉書	-10.1241
南陽	-10.1241
愼	-10.1243
千餘	-10.1246
無他	-10.1247
此亦	-10.1248
沮	-10.1249
壘	-10.1251
識者	-10.1253
吉凶	-10.1255
在上	-10.1267
㕘	-10.1272
鄴	-10.1272
之前	-10.1275
邀	-10.1276
鵝	-10.1279
昆	-10.1285
可乎	-10.1292
杜子美	-10.1295
儒者	-10.13
不動	-10.1307
有五	-10.1308
二三	-10.1314
艮	-10.1314
可笑	-10.1316
皆可	-10.1316
節度	-10.1317
叱	-10.1321
所能	-10.1326
智按	-10.1331
饌	-10.1344
畵	-10.1346
髻	-10.1346
其說	-10.1349
是為	-10.135
東海	-10.1365
從事	-10.1368
曰昔	-10.1371
貞觀	-10.1374
一斤	-10.1375
刃	-10.1377
笏	-10.138
之餘	-10.138
子貢	-10.1381
蜂	-10.1397
凍	-10.14
四句	-10.1409
布衣	-10.141
㦸	-10.141
去聲	-10.1414
羌	-10.1415
政和	-10.1417
伴	-10.1421
而止	-10.1422
宋人	-10.1422
南山	-10.1433
宗室	-10.1434
鉛	-10.1435
澹	-10.1435
三尺	-10.1447
白樂天	-10.1447
九州	-10.1452
踈	-10.1453
世人	-10.1453
不死	-10.1455
南海	-10.1456
之勢	-10.1458
孚	-10.1465
効	-10.1471
師古曰	-10.1472
餌	-10.1472
無異	-10.1473
不失	-10.149
鴟	-10.1494
闔	-10.1502
恣	-10.1503
臣等	-10.1506
未及	-10.1508
顔師古	-10.1517
筮	-10.1517
其聲	-10.1518
天道	-10.1525
掠	-10.1527
萬世	-10.1529
戰國	-10.1531
丗	-10.1537
粲	-10.1545
狀元	-10.1547
淹	-10.1555
此類	-10.1557
國史	-10.1559
駁	-10.156
婚	-10.1563
掛	-10.1565
諸生	-10.1568
然也	-10.1568
次之	-10.1568
繪	-10.1569
晏子	-10.1571
艸	-10.1571
多少	-10.1573
變化	-10.1573
暖	-10.1579
不容	-10.1591
一夕	-10.1596
侮	-10.1597
伎	-10.16
道者	-10.1601
尚有	-10.1608
必以	-10.1612
樂天	-10.1615
皷	-10.1618
渚	-10.162
未詳	-10.1631
撥	-10.1632
圜	-10.1644
則又	-10.165
同時	-10.1652
蹟	-10.1653
絡	-10.1656
濃	-10.166
僉	-10.166
道之	-10.1664
牟	-10.1666
西京	-10.1667
譌	-10.167
寇	-10.1671
餉	-10.1671
何必	-10.1676
甚矣	-10.1681
法也	-10.1682
之世	-10.1689
一物	-10.1694
鄭氏	-10.1703
麾	-10.1709
都督	-10.1709
褐	-10.171
之本	-10.1718
十四年	-10.172
潁	-10.1726
望之	-10.1726
捧	-10.1728
周之	-10.1739
劉向	-10.174
為相	-10.1747
當為	-10.1749
李氏	-10.1767
逺矣	-10.1777
而歸	-10.1777
仙人	-10.1778
無有	-10.1789
葱	-10.1794
故有	-10.1795
縫	-10.1805
觧	-10.182
號曰	-10.1823
何處	-10.1825
饗	-10.1825
也且	-10.1834
筋	-10.1836
緋	-10.1845
淑	-10.1846
言曰	-10.1847
平聲	-10.1851
軰	-10.1852
冡	-10.1855
五六	-10.1857
艱	-10.1859
疋	-10.186
妻子	-10.1862
大將軍	-10.1862
矣而	-10.1862
剖	-10.1862
梅花	-10.1865
恬	-10.1875
籌	-10.1879
瘡	-10.1881
皓	-10.1882
輝	-10.1884
文正	-10.1891
百萬	-10.1896
捷	-10.1899
棋	-10.1905
畆	-10.1906
南史	-10.1921
謚	-10.1925
自言	-10.1935
蔡邕	-10.1938
之稱	-10.1945
諾	-10.1957
咨	-10.1958
不甚	-10.196
内閣	-10.1962
寡人	-10.1967
擧	-10.1968
珪	-10.1974
乂	-10.1977
伺	-10.198
濯	-10.1982
有聲	-10.1986
逕	-10.1988
鉤	-10.1995
驟	-10.1997
踵	-10.1998
壅	-10.1999
美人	-10.2003
其妻	-10.2008
讀之	-10.2008
辜	-10.2013
之初	-10.2016
悖	-10.2016
技	-10.2018
銓	-10.2021
只是	-10.2029
魏公	-10.2036
文學	-10.2038
故人	-10.2038
粧	-10.2041
此乃	-10.2051
延年	-10.2052
隴	-10.2054
杜預	-10.2061
第十	-10.2061
攸	-10.2072
亦未	-10.2073
四人	-10.2074
鬬	-10.2094
膳	-10.2095
不幸	-10.2101
衣服	-10.2102
禘	-10.2105
大學士	-10.2107
其母	-10.2116
因以	-10.2117
三曰	-10.2119
不入	-10.2127
膺	-10.2129
羙	-10.2132
宦	-10.2135
又何	-10.2141
漬	-10.2142
□□	-10.2142
欄	-10.2149
虹	-10.215
煖	-10.2151
兎	-10.2153
曰天	-10.2156
别有	-10.216
炁	-10.2161
何謂	-10.2162
第五	-10.2164
蹄	-10.2189
贖	-10.2191
踏	-10.2196
亦自	-10.2201
至是	-10.2204
工部	-10.2214
溫	-10.2215
千金	-10.2217
闇	-10.2225
曜	-10.2228
龎	-10.223
陂	-10.223
阜	-10.2232
所藏	-10.2235
蹇	-10.225
自稱	-10.2263
一本	-10.2268
宵	-10.227
忠臣	-10.227
不知所	-10.2271
劔	-10.2272
通用	-10.228
廣陵	-10.2281
詩有	-10.2286
醬	-10.2301
中庸	-10.2302
臥	-10.2307
四字	-10.2309
柯	-10.2311
詆	-10.2313
咏	-10.2315
不得已	-10.232
可愛	-10.2321
臆	-10.2322
之狀	-10.2324
以求	-10.2327
寐	-10.2328
䝉	-10.2328
郡縣	-10.2332
韓退之	-10.2333
貼	-10.2333
相去	-10.2339
夘	-10.2343
搜	-10.2348
瑶	-10.2353
無益	-10.2353
鴨	-10.2354
周官	-10.236
一句	-10.2363
不獨	-10.2372
扣	-10.2373
濬	-10.2374
嘯	-10.2377
諸人	-10.2377
矣夫	-10.2377
牋	-10.2378
功臣	-10.2383
賔客	-10.2387
衮	-10.239
沸	-10.2394
也然則	-10.2397
浄	-10.2416
大笑	-10.2436
其所以	-10.2437
癸	-10.2447
所出	-10.2454
改元	-10.2458
春風	-10.2459
諸葛	-10.2468
彬	-10.2473
眷	-10.2473
之始	-10.2474
匪	-10.2475
填	-10.2477
前代	-10.2478
言也	-10.2483
憎	-10.249
無此	-10.2503
今世	-10.2503
十五日	-10.2506
秦漢	-10.2512
棊	-10.2512
故謂之	-10.2514
若是	-10.2514
也余	-10.2521
纒	-10.2532
一條	-10.2534
皂	-10.2534
輟	-10.2535
聞其	-10.2542
歐公	-10.2546
神明	-10.2549
方言	-10.255
怠	-10.2552
昨	-10.2555
余嘗	-10.2556
相如	-10.2558
之道也	-10.2561
二十七	-10.2562
耿	-10.2569
妹	-10.257
之利	-10.2573
乾坤	-10.2576
先王之	-10.2582
在於	-10.2589
迂	-10.2589
孝經	-10.259
桃花	-10.2591
十七年	-10.2592
人者	-10.2592
無疑	-10.2603
讒	-10.2608
議者	-10.2609
君子之	-10.2609
頸	-10.2614
蕪	-10.2614
迄	-10.2615
處士	-10.2621
泗	-10.2624
從容	-10.2626
随	-10.2632
序云	-10.2632
陪	-10.2634
文定	-10.2642
後漢書	-10.2645
之美	-10.2647
歐陽公	-10.2651
之患	-10.2653
股	-10.2657
崇禎	-10.2658
員外郎	-10.2658
國語	-10.266
中原	-10.2661
五帝	-10.2663
澆	-10.2669
一錢	-10.2674
畨	-10.2679
字書	-10.2685
判官	-10.2686
縣令	-10.2689
復有	-10.2691
列子	-10.2691
歎曰	-10.2698
而得	-10.2698
稀	-10.2701
尖	-10.2701
痕	-10.2702
注引	-10.2705
其形	-10.2706
壬	-10.2707
物之	-10.2714
世間	-10.2716
募	-10.2717
浚	-10.2718
匣	-10.2722
海内	-10.2728
在位	-10.2729
則曰	-10.2729
問其	-10.2734
八分	-10.2739
帷	-10.2739
雜記	-10.2747
其君	-10.2748
得失	-10.275
利害	-10.2751
本作	-10.2752
誨	-10.2756
冥	-10.2757
李白	-10.2759
升菴	-10.276
䕫	-10.2762
於天	-10.2762
也漢	-10.2764
子夏	-10.2771
扁	-10.2772
傲	-10.2775
捐	-10.2777
民間	-10.2778
懲	-10.2778
泌	-10.2784
芙蓉	-10.2787
三字	-10.2788
不忘	-10.2789
孔氏	-10.2792
曰朕	-10.2794
丈夫	-10.28
其次	-10.2808
故以	-10.281
主簿	-10.2818
是日	-10.2823
也唐	-10.2824
廬山	-10.2829
先後	-10.2838
疇	-10.2839
李公	-10.2842
殻	-10.2848
太和	-10.2853
瑟	-10.2854
邁	-10.2861
以致	-10.2863
江東	-10.2864
地名	-10.2879
兵部	-10.2881
拾遺	-10.289
山之	-10.2896
而不可	-10.2899
戯	-10.29
芻	-10.2902
禹貢	-10.2913
之志	-10.2914
於外	-10.2915
亢	-10.292
而卒	-10.2924
揆	-10.2926
譯	-10.2928
宫人	-10.293
康熙	-10.2939
雖不	-10.2943
遂為	-10.2945
如今	-10.2945
釵	-10.2952
一尺	-10.2957
巽	-10.2961
賂	-10.2968
聰	-10.2972
不堪	-10.2977
山在	-10.2978
前人	-10.2984
駿	-10.2992
孺	-10.2993
法度	-10.3009
陜	-10.3014
頒	-10.3014
次第	-10.3015
户部	-10.3024
遮	-10.3029
未盡	-10.3031
魯公	-10.3031
隊	-10.3036
曰大	-10.3037
置之	-10.3037
不暇	-10.3042
駒	-10.3046
讐	-10.3051
貸	-10.3054
足下	-10.3055
也凡	-10.3057
岩	-10.3059
代之	-10.3061
錢塘	-10.3064
長短	-10.3067
敖	-10.3068
中山	-10.3071
檄	-10.3072
温公	-10.3087
又謂	-10.309
嫗	-10.3095
邕	-10.3096
戌	-10.3096
然亦	-10.3104
此二	-10.3105
長沙	-10.3112
之妙	-10.3115
鐡	-10.3121
之才	-10.313
多矣	-10.3135
號為	-10.314
售	-10.314
揭	-10.3141
喫	-10.3142
劉氏	-10.3151
國公	-10.3152
草書	-10.3155
可得	-10.3161
水經注	-10.3164
藴	-10.3164
若夫	-10.3168
於天下	-10.317
慙	-10.3177
偷	-10.3185
糖	-10.3189
此意	-10.3198
陜西	-10.3202
悼	-10.3203
山林	-10.3206
潰	-10.3207
襄公	-10.3213
挿	-10.3214
止於	-10.3217
耻	-10.3223
鈴	-10.3228
麴	-10.323
山有	-10.3231
盃	-10.3231
者矣	-10.3232
居士	-10.3237
祕	-10.324
獻公	-10.3241
通判	-10.3245
子路	-10.3257
嘉祐	-10.3258
又按	-10.326
人之所	-10.326
邈	-10.3264
邇	-10.3267
稱其	-10.3268
祭祀	-10.327
陽縣	-10.3286
萊	-10.3287
苟	-10.3288
濡	-10.329
苖	-10.3291
淮南子	-10.3293
亦作	-10.3297
夫婦	-10.3304
非其	-10.3307
易之	-10.3309
東都	-10.331
鯉	-10.3314
螺	-10.3315
鶯	-10.3315
駐	-10.3318
江陵	-10.3328
海棠	-10.3331
經曰	-10.3332
千載	-10.3336
之流	-10.3337
為主	-10.334
故其	-10.3348
廣韻	-10.3351
群	-10.3352
數人	-10.3352
償	-10.3357
灑	-10.3362
以備	-10.3365
故能	-10.3367
又言	-10.3372
一家	-10.3372
世宗	-10.3375
曷	-10.3378
堆	-10.338
進退	-10.3381
三四	-10.3391
少卿	-10.3392
涕	-10.3394
長生	-10.3396
贍	-10.3398
一月	-10.3398
糟	-10.34
黔	-10.3403
鈍	-10.3403
鄂	-10.3408
又作	-10.3409
郭璞	-10.3411
子瞻	-10.3418
减	-10.3426
掾	-10.3427
字子	-10.3432
一言	-10.3433
洒	-10.3434
其本	-10.3444
寤	-10.3445
聖王	-10.3445
䟦	-10.3448
相類	-10.3451
始皇	-10.3455
秘書	-10.3458
之難	-10.3464
何足	-10.3466
世傳	-10.3466
苴	-10.3467
牘	-10.3467
水火	-10.3468
諒	-10.347
鎭	-10.347
諸家	-10.3476
聨	-10.3489
彪	-10.349
蘭亭	-10.3491
筠	-10.3493
荀子	-10.3499
故不	-10.3504
五人	-10.3507
不解	-10.351
郡守	-10.3513
稜	-10.3514
蠧	-10.3514
襄陽	-10.3514
》	-10.3523
覇	-10.353
為文	-10.3532
稚	-10.3536
猫	-10.3539
西山	-10.3541
其法	-10.3551
儀禮	-10.3552
郡國	-10.3553
禀	-10.3553
朽	-10.3554
禍福	-10.3555
騐	-10.3557
隻	-10.356
所由	-10.3573
言語	-10.3575
喉	-10.3576
九日	-10.3576
三分	-10.3578
著書	-10.358
恪	-10.3582
䜟	-10.3583
安能	-10.3587
賈誼	-10.3602
之民	-10.3603
閻	-10.3604
有罪	-10.3606
天子之	-10.3607
厄	-10.3608
各一	-10.361
十數	-10.3612
中外	-10.3613
太傅	-10.3625
抽	-10.3628
啖	-10.3629
其他	-10.3629
水出	-10.363
昊	-10.363
以告	-10.3631
白雲	-10.3639
其色	-10.364
二十九	-10.3646
餓	-10.3648
棠	-10.3648
惡之	-10.3648
喚	-10.3649
言者	-10.365
在此	-10.3653
鞍	-10.3653
昌黎	-10.3655
可與	-10.3666
巻	-10.3673
為正	-10.3673
碩	-10.3673
庠	-10.3675
嬪	-10.3676
壹	-10.3679
聼	-10.369
遐	-10.3691
糾	-10.3691
矩	-10.3692
炊	-10.3697
磁	-10.3704
之形	-10.3715
綾	-10.3716
矣此	-10.3717
之主	-10.3717
矣又	-10.3718
滌	-10.3722
茗	-10.3724
皆為	-10.3724
風流	-10.3725
少時	-10.3726
分為	-10.3728
徃徃	-10.3729
諸臣	-10.3733
淸	-10.3735
欣	-10.3736
人謂	-10.3739
制度	-10.3748
無所不	-10.375
玉堂	-10.3756
之性	-10.3757
縛	-10.3762
者又	-10.3764
絮	-10.3765
者何	-10.3774
先儒	-10.3778
山下	-10.3781
必不	-10.3782
須臾	-10.3791
替	-10.3791
鍋	-10.3796
之力	-10.3802
所著	-10.3807
襍	-10.3807
咽	-10.381
森	-10.3812
賦曰	-10.3814
老杜	-10.3816
太廟	-10.3818
祭酒	-10.3819
多有	-10.3821
北齊	-10.3826
噫	-10.3828
文忠	-10.3832
癡	-10.3832
即此	-10.3835
貴賤	-10.3838
十六年	-10.3841
○	-10.3843
二日	-10.3844
之體	-10.3844
之遺	-10.3848
之職	-10.3848
猶未	-10.3852
儼	-10.3854
冉	-10.3854
東漢	-10.3856
苞	-10.3857
叚	-10.3859
洎	-10.3859
禪師	-10.3861
分明	-10.3868
有兩	-10.3872
是月	-10.3874
乎曰	-10.3876
簷	-10.3884
蘇州	-10.3895
荼	-10.3897
綏	-10.39
何故	-10.3902
敞	-10.3902
奏事	-10.3902
琢	-10.3904
婉	-10.3904
蝕	-10.3909
云此	-10.3912
之樂	-10.3912
而反	-10.3919
流水	-10.3925
未聞	-10.3925
由此	-10.3926
四兩	-10.3932
貞元	-10.3936
若干	-10.3942
凢	-10.3943
秦王	-10.3945
梵	-10.3945
于是	-10.3946
愛之	-10.3948
皆是	-10.3949
跨	-10.395
曰若	-10.395
太極	-10.3953
隸	-10.3953
聰明	-10.3968
得罪	-10.3971
顔色	-10.3971
舊制	-10.3972
不聽	-10.3973
知制誥	-10.3996
伶	-10.3997
三品	-10.3998
曰子	-10.3999
認	-10.3999
之命	-10.4005
即是	-10.4013
輅	-10.4014
檜	-10.4015
陀	-10.402
鉞	-10.4021
岑	-10.4022
矣今	-10.4026
高宗	-10.403
筭	-10.4037
騷	-10.4043
所記	-10.4046
最為	-10.4046
墨子	-10.4047
實録	-10.4051
人謂之	-10.4054
貎	-10.4059
東宫	-10.406
固有	-10.406
不祥	-10.4064
廻	-10.4065
上疏	-10.4066
逝	-10.4067
曾子	-10.4068
漢人	-10.407
又東	-10.4071
即今	-10.4072
元帝	-10.4074
亦是	-10.4076
胸	-10.4077
所以為	-10.4081
妨	-10.4084
河水	-10.409
此其	-10.4095
本末	-10.4096
催	-10.4096
蜀人	-10.4098
南京	-10.4101
平原	-10.4106
未至	-10.4108
豚	-10.4109
者即	-10.411
句云	-10.411
爲之	-10.4114
有道	-10.4118
城中	-10.412
而自	-10.4125
曽子	-10.4131
弁	-10.4131
慶厯	-10.4132
左氏傳	-10.4134
萬人	-10.4141
鳥獸	-10.4147
不問	-10.4147
捲	-10.4147
城南	-10.4156
漢武	-10.4156
濮	-10.4161
汙	-10.4162
安國	-10.4162
天寳	-10.4166
梗	-10.4167
肅宗	-10.417
誇	-10.4184
庻	-10.4184
無可	-10.4186
恢	-10.4186
稼	-10.4186
垢	-10.4187
猷	-10.4187
蟻	-10.4189
嶠	-10.419
江淮	-10.419
禮義	-10.4198
以金	-10.4199
繹	-10.4209
拍	-10.4212
漠	-10.4212
堤	-10.4214
雖然	-10.4214
齊王	-10.4218
稿	-10.4219
嘗有	-10.4224
箱	-10.4228
徽宗	-10.4228
夙	-10.4231
禽獸	-10.4231
韜	-10.4234
饋	-10.4234
江水	-10.4234
而立	-10.4236
公羊	-10.4237
郵	-10.4239
長者	-10.4239
先帝	-10.4243
文曰	-10.4247
也非	-10.4247
千萬	-10.4252
所傳	-10.4252
以禮	-10.4253
善惡	-10.4256
忤	-10.4258
皆在	-10.4259
所宜	-10.426
籬	-10.4261
自為	-10.4272
䧟	-10.4283
頑	-10.4284
醇	-10.4285
湧	-10.4285
魯直	-10.4286
偕	-10.4286
鍊	-10.4286
明月	-10.4289
死而	-10.4294
芥	-10.4294
人生	-10.4296
甘露	-10.4302
麫	-10.4304
不絶	-10.4305
稱之	-10.4308
灘	-10.431
去其	-10.4319
甘草	-10.4325
舛	-10.4328
先是	-10.4333
嘗為	-10.4344
狀如	-10.4345
集中	-10.4346
題云	-10.4354
骸	-10.4356
必先	-10.4359
朶	-10.4363
本紀	-10.437
功名	-10.4374
鎖	-10.4377
粹	-10.4377
之類是也	-10.4378
神農	-10.4382
主之	-10.4386
穆公	-10.4387
二尺	-10.4389
吿	-10.4399
死生	-10.4402
王荆公	-10.4405
裙	-10.4407
以手	-10.441
淪	-10.4429
瞽	-10.4429
跳	-10.4431
蔬	-10.4433
麓	-10.4437
賁	-10.4447
鼈	-10.4451
脯	-10.4454
五星	-10.4454
嘲	-10.4455
藁	-10.4456
不改	-10.4462
按此	-10.4467
其志	-10.4471
十人	-10.4472
鋭	-10.4478
國人	-10.4481
蛤	-10.4482
昔人	-10.4489
天命	-10.4489
諸王	-10.4491
蠱	-10.4496
此又	-10.4499
不能自	-10.4499
怯	-10.4499
睦	-10.4506
佑	-10.4506
刑部	-10.4506
妬	-10.4507
好事者	-10.451
而入	-10.451
不明	-10.4513
衆人	-10.4513
逺近	-10.4516
州人	-10.4517
大喜	-10.4517
曰夫	-10.452
者或	-10.4521
攘	-10.4525
恠	-10.4527
頼	-10.4528
皇甫	-10.4529
其功	-10.4539
求其	-10.4542
視其	-10.4548
先君	-10.4549
挈	-10.455
死於	-10.4552
摧	-10.4552
沐	-10.4552
廡	-10.4555
篋	-10.4555
剥	-10.4555
拆	-10.456
杭州	-10.4566
此非	-10.4567
之甚	-10.4568
未得	-10.4568
大王	-10.4571
六朝	-10.4572
十九年	-10.4576
其罪	-10.4578
其詞	-10.4581
雋	-10.4582
礬	-10.4582
武后	-10.4597
犢	-10.4601
而民	-10.4604
荔枝	-10.461
志云	-10.4612
孝子	-10.4614
不利	-10.4621
佚	-10.4621
白馬	-10.4624
奠	-10.4628
恱	-10.4628
橫	-10.4631
坦	-10.4632
漳	-10.4633
地理志	-10.4635
苔	-10.4639
舉人	-10.465
俚	-10.4655
杜甫	-10.4655
舘	-10.4657
詩書	-10.4658
杵	-10.466
陰陽	-10.4669
有異	-10.4669
遏	-10.4673
千年	-10.4675
非是	-10.468
於地	-10.468
慘	-10.4681
語也	-10.4682
之君	-10.4682
樞密	-10.4687
子産	-10.4692
之失	-10.4693
樞宻	-10.4694
出處	-10.4695
諸將	-10.4698
沈約	-10.4699
㫁	-10.4704
紛紛	-10.4704
誼	-10.4705
侍從	-10.4707
馴	-10.4708
從而	-10.471
生子	-10.4712
不顧	-10.4714
三卷	-10.4714
熬	-10.4719
其道	-10.4721
非常	-10.4724
寔	-10.4729
寘	-10.4732
舂	-10.4733
之家	-10.4738
乃是	-10.4744
二兩	-10.4746
本無	-10.4747
宸	-10.4752
赫	-10.4752
所稱	-10.4757
闊	-10.4757
彛	-10.4758
京兆	-10.4765
複	-10.4765
皆用	-10.4771
其辭	-10.4777
謔	-10.4781
搆	-10.4783
詹	-10.4783
陽氣	-10.4795
釀	-10.4801
刻石	-10.4806
卞	-10.4808
小者	-10.4809
千古	-10.4817
然其	-10.4818
軫	-10.4827
也予	-10.4827
而退	-10.4828
大事	-10.4828
而非	-10.483
縣有	-10.4831
斃	-10.4831
搖	-10.4831
者惟	-10.4833
通典	-10.4834
音義	-10.4836
行者	-10.4836
韓魏公	-10.4839
入于	-10.484
少陵	-10.4841
使其	-10.4842
青州	-10.4843
朋友	-10.4854
輯	-10.4855
始有	-10.4858
冗	-10.4861
於前	-10.4864
其數	-10.4866
可知矣	-10.4876
瑕	-10.4876
巵	-10.4877
所生	-10.4877
三寸	-10.4881
僭	-10.4883
日夜	-10.4884
凱	-10.4884
之弊	-10.4884
思之	-10.4885
不疑	-10.4886
相近	-10.4888
平王	-10.4888
鄉里	-10.4894
詞云	-10.4898
飬	-10.4899
榦	-10.4919
庶幾	-10.4921
叶	-10.4931
渴	-10.4933
始也	-10.4933
貲	-10.4933
奥	-10.4934
琳	-10.4934
暈	-10.4935
涵	-10.4937
盂	-10.4942
糊	-10.4944
訊	-10.4959
玊	-10.4961
藏之	-10.4961
瑣	-10.4962
在外	-10.4963
四曰	-10.4971
搗	-10.4971
四百	-10.4979
絶句	-10.498
日中	-10.499
一斗	-10.4993
也後	-10.4994
庶人	-10.4995
之國	-10.5
張公	-10.5
墟	-10.5006
苛	-10.5013
欠	-10.5016
色如	-10.5022
御史大夫	-10.5024
親戚	-10.5025
出于	-10.5026
而天下	-10.5033
疲	-10.5034
戀	-10.504
唐太宗	-10.5041
晉人	-10.5044
寒食	-10.5046
丈人	-10.5047
七百	-10.5051
國有	-10.5053
脊	-10.5056
以是	-10.506
蹙	-10.5062
司農	-10.5064
庵	-10.5066
挂	-10.507
華山	-10.507
白玉	-10.5071
其時	-10.5076
良久	-10.5086
志曰	-10.5087
蠲	-10.5087
髙下	-10.5088
豈能	-10.5089
挑	-10.5091
乍	-10.5092
携	-10.5092
人事	-10.5093
建安	-10.51
帝曰	-10.5101
未嘗不	-10.5101
之别	-10.5102
北海	-10.5103
八百	-10.5105
黄門	-10.511
可觀	-10.5117
駢	-10.512
闌	-10.5122
同年	-10.5124
生者	-10.5129
丹陽	-10.513
曰公	-10.5136
昉	-10.5138
二卷	-10.514
蔵	-10.5143
羡	-10.5143
事而	-10.5148
臼	-10.5149
名臣	-10.5151
帝紀	-10.5152
擊之	-10.5154
者無	-10.5155
如此則	-10.5155
許之	-10.5157
景公	-10.516
杜牧	-10.5162
皆非	-10.5162
毛詩	-10.5164
臣下	-10.5165
属	-10.5168
屍	-10.5171
曰卿	-10.5175
迨	-10.5176
者是	-10.5176
内有	-10.5187
六日	-10.5189
虢	-10.5194
五分	-10.5198
歙	-10.5198
檻	-10.5199
件	-10.5204
州郡	-10.5205
栽	-10.5205
莒	-10.5212
五品	-10.5214
系	-10.5215
釋之	-10.5216
相對	-10.5216
西湖	-10.5217
吁	-10.522
宥	-10.5223
所欲	-10.5227
可用	-10.5228
紳	-10.523
江湖	-10.5231
緡	-10.5231
閨	-10.5232
中間	-10.5237
殖	-10.5244
一千	-10.5247
穎	-10.5247
鞠	-10.5249
鐸	-10.5251
灾	-10.5253
瘦	-10.5254
王孫	-10.5256
若有	-10.5258
庖	-10.5275
輔臣	-10.5276
韓信	-10.5282
鵞	-10.5283
自知	-10.5285
之神	-10.5289
贄	-10.5295
上元	-10.5298
周易	-10.5298
亦多	-10.5303
俠	-10.5303
校尉	-10.5305
甥	-10.5306
竟不	-10.5306
蟠	-10.5307
王曰	-10.5308
不樂	-10.5309
殿前	-10.5324
鄉人	-10.5327
龔	-10.533
書畫	-10.5334
昭王	-10.5336
熙寧	-10.5338
中人	-10.5352
梟	-10.5352
鳬	-10.5354
怡	-10.5354
亳	-10.5357
難得	-10.5359
秦始皇	-10.536
古詩	-10.5361
甲乙	-10.5362
管子	-10.5364
黄庭	-10.5367
呵	-10.5375
盎	-10.5381
成功	-10.5383
据	-10.5383
東方朔	-10.5383
驥	-10.5385
喧	-10.5388
帙	-10.5388
窻	-10.539
勻	-10.5391
項羽	-10.5395
手足	-10.5398
語云	-10.5404
雒	-10.5405
之詞	-10.5408
杞	-10.541
之末	-10.5411
大怒	-10.5414
螭	-10.5415
成化	-10.5421
之計	-10.5423
夜半	-10.5425
而已矣	-10.5431
撓	-10.5433
義理	-10.5434
入海	-10.5436
為政	-10.5437
應之	-10.5438
二十一	-10.544
湯武	-10.5444
文靖	-10.5446
龍門	-10.5446
一代	-10.5447
淵明	-10.5448
唐虞	-10.5452
搏	-10.5462
勵	-10.5465
襟	-10.5465
胄	-10.5466
這	-10.5468
萬民	-10.5468
寮	-10.5468
釘	-10.547
則可	-10.5473
諸儒	-10.5481
椎	-10.549
漢武帝	-10.549
推之	-10.5491
厠	-10.5491
宋史	-10.5492
性命	-10.5495
沖	-10.5496
療	-10.5499
皇太子	-10.55
宫室	-10.5505
形如	-10.551
予嘗	-10.5514
也故曰	-10.5515
沔	-10.5515
伽	-10.5517
匱	-10.5518
贓	-10.5519
迭	-10.552
之使	-10.5522
麤	-10.5524
貧賤	-10.5528
題詩	-10.5534
子雲	-10.5541
而又	-10.5544
玄	-10.5546
而上	-10.5558
先主	-10.5567
曹操	-10.5569
樸	-10.5574
礙	-10.5575
因其	-10.5577
施行	-10.558
遶	-10.558
相承	-10.558
芍藥	-10.5584
周書	-10.5587
名為	-10.5588
於朝	-10.5596
朝士	-10.5599
車馬	-10.5601
摶	-10.5603
而欲	-10.5604
陌	-10.5604
黄鍾	-10.5605
釋氏	-10.5606
沾	-10.5607
成帝	-10.5609
余謂	-10.561
伊川	-10.561
太僕	-10.5614
木為	-10.5615
之實	-10.5615
所書	-10.5616
將以	-10.5619
英宗	-10.5621
弃	-10.5627
擔	-10.563
逸少	-10.5631
㨗	-10.5631
鐫	-10.5633
三司	-10.5636
縱横	-10.564
者所以	-10.5641
齊人	-10.5646
李斯	-10.5647
道徳	-10.5648
告之	-10.5651
如故	-10.5653
耐	-10.5654
賦云	-10.5654
愛其	-10.5658
店	-10.5662
論之	-10.5665
為末	-10.5665
之號	-10.5671
雲南	-10.5674
三萬	-10.5677
天聖	-10.5678
酣	-10.5678
經史	-10.5679
藝文志	-10.5681
甄	-10.5684
狎	-10.5685
璋	-10.5685
轍	-10.5686
郁	-10.5689
酥	-10.5696
文書	-10.5698
淳化	-10.5698
司馬遷	-10.5707
顏	-10.571
當世	-10.5711
涇	-10.5713
窟	-10.5714
綰	-10.5717
購	-10.5718
北人	-10.5721
嫩	-10.5728
乃云	-10.5729
疑其	-10.5733
上言	-10.5736
能知	-10.5737
雎	-10.5738
訾	-10.5738
區區	-10.5744
姊	-10.5745
侃	-10.5745
後來	-10.5752
髙帝	-10.5752
焙	-10.5756
存者	-10.5758
二十六	-10.5763
九卿	-10.5765
不得不	-10.5765
鶻	-10.5767
近日	-10.5768
即以	-10.577
譙	-10.577
則其	-10.5772
禎	-10.5774
廩	-10.5774
昭公	-10.5775
哀公	-10.5778
列傳	-10.5778
甜	-10.578
楮	-10.578
飲之	-10.578
昔者	-10.5782
一寸	-10.5784
可以為	-10.5794
後魏	-10.5795
石刻	-10.5802
亦當	-10.5803
芋	-10.5804
三王	-10.5805
釋文	-10.5814
犧	-10.5814
終始	-10.5816
蕭何	-10.5819
暨	-10.5823
牖	-10.5824
至矣	-10.5826
噐	-10.5827
都尉	-10.5828
單于	-10.5834
不是	-10.5842
前有	-10.5843
滛	-10.5848
逋	-10.5853
燧	-10.5854
欲其	-10.5854
蛾	-10.5854
文集	-10.5855
則民	-10.5861
正義	-10.5864
得此	-10.5865
詔書	-10.5865
熈寧	-10.5868
二十二	-10.5872
繭	-10.5878
歷	-10.588
電	-10.5881
去之	-10.5882
但以	-10.5882
千葉	-10.5883
隐	-10.5884
誡	-10.5884
讎	-10.5884
有六	-10.5899
蓮花	-10.5899
二十三	-10.5903
在焉	-10.5903
百八十	-10.5903
衣食	-10.5906
蓍	-10.5906
轡	-10.5909
翅	-10.5916
韓愈	-10.5918
太一	-10.592
銘曰	-10.5925
四面	-10.5926
翰林院	-10.5927
十八年	-10.5928
故名	-10.593
萬厯	-10.5936
笞	-10.5937
愍	-10.5938
貴妃	-10.5942
安石	-10.5945
髓	-10.5946
正統	-10.595
變而	-10.5954
博學	-10.5958
則必	-10.5959
浙江	-10.5962
訂	-10.5965
昻	-10.5966
所引	-10.5967
惶	-10.5968
組	-10.5969
覲	-10.5971
足矣	-10.5974
千五百	-10.5975
嘗以	-10.5985
於民	-10.5985
無功	-10.5987
竹書	-10.5987
讀為	-10.5994
祇	-10.5996
梧	-10.5998
其能	-10.5998
山西	-10.5999
峭	-10.6001
嚮	-10.6001
謡	-10.6002
聯	-10.6003
莫如	-10.6007
小字	-10.6015
鉅	-10.602
此説	-10.602
孕	-10.6021
桀紂	-10.6022
嶺南	-10.6025
箴	-10.6026
弛	-10.6027
柑	-10.6029
嘗見	-10.6029
道路	-10.603
歇	-10.603
一石	-10.6034
将軍	-10.6035
卿大夫	-10.6036
此時	-10.6037
文宗	-10.6038
其理	-10.6039
和之	-10.6041
都御史	-10.6048
孟子曰	-10.605
賄	-10.6055
摭	-10.6055
劑	-10.6056
為上	-10.6072
和尚	-10.6076
者雖	-10.6078
遯	-10.6079
薊	-10.608
風吹	-10.6085
七十二	-10.6086
歌曰	-10.6088
畱	-10.6088
漢志	-10.6092
魏晉	-10.6092
嬌	-10.6096
相應	-10.6106
是何	-10.6109
十斤	-10.6109
惠王	-10.6111
濵	-10.6111
楹	-10.6114
粤	-10.6116
字下	-10.6116
甸	-10.612
晒	-10.6127
為善	-10.613
蔚	-10.6138
簇	-10.614
惇	-10.6142
不變	-10.6148
凡此	-10.6151
靖康	-10.6154
多用	-10.6162
甘泉	-10.6164
蠅	-10.6171
宣宗	-10.6175
不曉	-10.6182
楚王	-10.6186
朱文公	-10.6187
中使	-10.6187
一枝	-10.6189
乎此	-10.6189
便是	-10.6192
内侍	-10.6196
徼	-10.62
髙麗	-10.62
為名	-10.6202
晉公	-10.6202
之風	-10.6202
葦	-10.6202
十有二	-10.6204
瑜	-10.6206
五錢	-10.6208
不可勝	-10.6211
唐宋	-10.6212
是知	-10.6217
楚辭	-10.6218
自後	-10.622
識之	-10.6224
張氏	-10.6225
現	-10.6229
栖	-10.6229
矛	-10.623
氊	-10.623
臯陶	-10.623
何時	-10.6231
奄	-10.6233
官制	-10.6236
縣西	-10.6241
鶉	-10.6245
不安	-10.6246
棟	-10.6256
翳	-10.6258
文士	-10.6258
尤為	-10.6259
不下	-10.6262
馨	-10.6263
少師	-10.6264
脆	-10.6267
之謂也	-10.6269
巡撫	-10.6271
史官	-10.6272
吏部尚書	-10.6273
凡三	-10.6277
蟄	-10.6282
事君	-10.6289
異也	-10.629
瘞	-10.6291
沂	-10.6292
學問	-10.6294
以詩	-10.6303
數月	-10.6304
西漢	-10.6306
存亡	-10.6307
不稱	-10.6307
六七	-10.6308
宰臣	-10.6309
袋	-10.6316
靑	-10.6317
汎	-10.6318
蘄	-10.6322
鸚鵡	-10.6322
者是也	-10.6328
造化	-10.6329
亦不能	-10.6335
得以	-10.6345
欒	-10.6346
豎	-10.6347
寥	-10.6348
參軍	-10.6351
於後	-10.6351
鷺	-10.6351
近臣	-10.6351
九江	-10.6354
於道	-10.6356
朝夕	-10.6358
何事	-10.6369
遣人	-10.6373
金玉	-10.6376
纓	-10.6377
鎬	-10.6378
羨	-10.6378
而求	-10.638
又如	-10.6389
侍講	-10.6389
數萬	-10.6392
易曰	-10.6393
憲宗	-10.6398
室中	-10.6399
奏曰	-10.6402
官至	-10.6404
中郎	-10.6406
晋	-10.6408
獻之	-10.6413
登第	-10.6413
其語	-10.6416
蝶	-10.6416
尚存	-10.6418
益州	-10.6423
再三	-10.6426
經云	-10.6429
是則	-10.6432
莫敢	-10.6442
曰是	-10.6445
大理	-10.6446
无	-10.6455
聞者	-10.6456
過於	-10.6461
嫡	-10.6463
諸侯之	-10.6466
鬢	-10.6472
詹事	-10.6475
之分	-10.6481
亦何	-10.6485
治國	-10.6488
清明	-10.6488
八卦	-10.6489
縣南	-10.6491
之亂	-10.6492
牡	-10.6493
諸書	-10.6494
三兩	-10.6498
丕	-10.6501
地方	-10.6502
茹	-10.6504
堂上	-10.6507
寒暑	-10.6508
也吾	-10.6526
治天下	-10.6527
奈	-10.6527
不一	-10.6528
筒	-10.6529
溥	-10.6532
翌日	-10.6536
衙門	-10.6539
哥	-10.6542
有天下	-10.6543
提舉	-10.6547
程子	-10.6554
楚人	-10.6555
疫	-10.6555
緇	-10.6556
霽	-10.656
窠	-10.6562
孔明	-10.6562
杳	-10.6562
供奉	-10.6563
簪	-10.6563
顆	-10.6565
妍	-10.6566
窑	-10.6567
而未	-10.6568
渡江	-10.6568
道家	-10.6576
曼	-10.658
乆之	-10.658
之異	-10.6581
平日	-10.6582
璣	-10.6587
唾	-10.6589
殿中	-10.659
棣	-10.659
頥	-10.6592
伏羲	-10.6592
惻	-10.6592
所未	-10.66
二千	-10.66
編修	-10.6601
觀者	-10.6604
伯夷	-10.6607
又名	-10.6614
撲	-10.6618
嘆曰	-10.662
一小	-10.6625
硬	-10.6626
牕	-10.6626
彖	-10.6639
御書	-10.664
莫之	-10.6642
而弗	-10.6643
衷	-10.6647
三百六十	-10.665
琦	-10.665
䑓	-10.6651
歸之	-10.6652
不生	-10.6653
唐制	-10.667
轂	-10.6671
士卒	-10.6673
大學	-10.6679
之處	-10.668
焚香	-10.668
二千石	-10.6682
七八	-10.6683
人言	-10.6684
媒	-10.6686
一身	-10.6687
職事	-10.6688
夏侯	-10.6689
受之	-10.6691
者衆	-10.6696
需	-10.6713
越王	-10.6713
治亂	-10.6715
城縣	-10.6717
鉢	-10.672
光禄	-10.6721
陳氏	-10.6731
蛟	-10.6739
弋	-10.6739
劣	-10.6741
順天	-10.6742
奎	-10.6743
隄	-10.6745
攀	-10.675
皆得	-10.6751
給事	-10.6751
皆然	-10.6754
土地	-10.6776
懇	-10.6777
夏至	-10.6778
乃得	-10.6779
以養	-10.6788
誤以	-10.6788
録云	-10.6791
北斗	-10.6799
去皮	-10.6802
襄王	-10.6806
軀	-10.6807
仆	-10.6807
楓	-10.6807
其勢	-10.6809
則天	-10.6814
陛	-10.6817
晚年	-10.6822
《	-10.6822
不求	-10.6824
何其	-10.6825
忽有	-10.6831
南渡	-10.6831
已下	-10.6836
徐州	-10.6836
首尾	-10.6837
㢘	-10.6839
蚌	-10.684
熾	-10.684
宣公	-10.6852
員外	-10.6859
亦名	-10.686
此句	-10.6863
歆	-10.6863
繒	-10.6866
泠	-10.6868
樽	-10.6868
聳	-10.687
瓠	-10.6872
疑之	-10.6872
丈餘	-10.6873
忘其	-10.6875
麵	-10.6877
縣北	-10.6882
骨肉	-10.6884
之音	-10.6886
萬餘	-10.689
未之	-10.6891
先生曰	-10.6891
奉使	-10.6895
反覆	-10.6897
圎	-10.6899
漂	-10.69
不獲	-10.69
𥘉	-10.6902
駝	-10.6905
如玉	-10.6905
八九	-10.6909
太陽	-10.6911
瓣	-10.6912
拌	-10.6915
此等	-10.6917
紹聖	-10.6922
子思	-10.6922
應劭	-10.6926
轄	-10.6928
肌	-10.6933
自得	-10.6933
沙門	-10.6933
書法	-10.6934
未足	-10.6934
不取	-10.6935
忠信	-10.6939
一分	-10.6943
韓子	-10.6952
合於	-10.6953
師古	-10.6953
監司	-10.6954
自號	-10.6954
尚未	-10.6956
年七十	-10.6959
第七	-10.696
江左	-10.6961
之門	-10.6962
澁	-10.6964
掇	-10.6965
塟	-10.6965
南唐	-10.6965
袒	-10.6967
鄭康成	-10.6967
渙	-10.6968
年號	-10.6968
蒿	-10.6969
太上	-10.6972
與此	-10.6973
縣東	-10.6979
安知	-10.6982
之極	-10.6985
使君	-10.6985
而終	-10.6985
譴	-10.6988
無恙	-10.6988
待詔	-10.6989
予謂	-10.6991
侍御史	-10.6992
笋	-10.6995
用心	-10.6996
永嘉	-10.6996
蚊	-10.6996
青衣	-10.6999
入朝	-10.6999
檀弓	-10.7
果然	-10.7006
官吏	-10.7007
本傳	-10.7012
少許	-10.7015
而起	-10.7022
鞏	-10.7027
未易	-10.7027
萬年	-10.7028
廷尉	-10.7031
韓公	-10.7036
所知	-10.7039
也是故	-10.7045
轅	-10.7047
一首	-10.7051
以進	-10.7054
車駕	-10.7057
懶	-10.7057
琰	-10.7059
控	-10.7064
綜	-10.7068
廼	-10.7084
羸	-10.7084
酈	-10.7086
好學	-10.7087
行人	-10.7087
廓	-10.709
萃	-10.709
閼	-10.709
𦂳	-10.7093
唇	-10.7093
褚	-10.7093
可食	-10.7097
菩薩	-10.7097
未甞	-10.71
置酒	-10.7102
之孫	-10.7102
第六	-10.7102
城西	-10.7104
鄭𤣥	-10.7105
為小	-10.7105
門生	-10.7108
相繼	-10.7114
躁	-10.7118
郤	-10.7119
啄	-10.7119
虬	-10.7121
捉	-10.7122
桞	-10.7123
賞罰	-10.7126
近代	-10.7126
者不可	-10.7127
隘	-10.7128
郡王	-10.7128
蕉	-10.713
堵	-10.7138
信之	-10.7143
二事	-10.7147
治平	-10.7147
二女	-10.7148
羔	-10.7149
焚之	-10.7149
不正	-10.715
中書令	-10.715
至大	-10.7152
斫	-10.7152
械	-10.7153
緘	-10.7155
飭	-10.7155
蔡京	-10.7155
粘	-10.7157
之西	-10.716
一笑	-10.7163
觀國案	-10.7173
不惟	-10.7174
枝葉	-10.7176
石經	-10.7177
觚	-10.7181
簒	-10.7183
醴	-10.7186
銳	-10.7187
煥	-10.7188
緝	-10.7189
臍	-10.7192
頗有	-10.7194
一見	-10.7201
中央	-10.7204
駟	-10.7214
璞	-10.7215
時為	-10.7215
董仲舒	-10.7217
紐	-10.722
莊公	-10.722
訝	-10.7222
承㫖	-10.7222
時已	-10.7223
后稷	-10.7224
王母	-10.7225
分别	-10.7226
之衆	-10.7233
更有	-10.7233
藏書	-10.7233
絕	-10.7244
千人	-10.7246
潼	-10.7247
滄	-10.7247
些	-10.7252
臻	-10.7253
馭	-10.7255
常侍	-10.7257
嘗言	-10.7262
欣然	-10.7264
其性	-10.7269
大業	-10.7269
教之	-10.7272
寨	-10.7285
凋	-10.7285
縑	-10.7286
隕	-10.7287
麄	-10.7292
碗	-10.7292
之位	-10.7304
同姓	-10.7312
所聞	-10.7317
中書舍人	-10.7323
者葢	-10.7324
肖	-10.7327
之役	-10.7329
明白	-10.7332
御覽	-10.7335
名士	-10.7338
入水	-10.7343
劵	-10.7348
盾	-10.7348
冐	-10.7348
涪	-10.7349
拓	-10.7352
甑	-10.7356
父老	-10.7356
三軍	-10.736
之東	-10.7361
五言	-10.7373
無道	-10.7377
問其故	-10.7379
瞿	-10.738
腥	-10.7382
自今	-10.7383
猥	-10.7383
僮	-10.7385
瀛	-10.7389
宫殿	-10.7391
叩頭	-10.7393
一丈	-10.7395
行事	-10.7396
之徳	-10.7402
教授	-10.7409
昬	-10.7411
嘗謂	-10.7413
徇	-10.7415
梳	-10.7416
以文	-10.7417
翊	-10.7419
楊氏	-10.7421
遞	-10.7421
仁者	-10.7422
故云	-10.7423
璟	-10.7423
夢中	-10.743
而為之	-10.7433
百世	-10.7439
舎人	-10.744
不以為	-10.7443
顓頊	-10.7444
藪	-10.7446
孔安國	-10.7449
詩文	-10.7449
蓼	-10.7449
慚	-10.7453
嚼	-10.7453
不逮	-10.7459
無知	-10.7463
蕙	-10.7469
寺僧	-10.7471
所當	-10.7477
小篆	-10.7478
沽	-10.7479
蹤	-10.748
大觀	-10.7481
蚤	-10.7484
海上	-10.7485
異於	-10.7487
投之	-10.7494
茄	-10.7497
盜賊	-10.7502
者蓋	-10.7503
建炎	-10.7505
無罪	-10.7507
五更	-10.7507
彞	-10.7507
參政	-10.7511
拊	-10.7513
不著	-10.7516
萬一	-10.7517
詎	-10.7518
幡	-10.7518
羈	-10.7518
異之	-10.7519
年八十	-10.7521
禮部尚書	-10.7529
智者	-10.7533
今年	-10.7542
是年	-10.7547
幻	-10.7547
鴉	-10.755
翦	-10.755
非禮	-10.7551
詩賦	-10.7552
甌	-10.7559
在天	-10.7559
登科	-10.756
子由	-10.7561
同列	-10.7565
大率	-10.7568
四寸	-10.757
其氣	-10.7571
僊	-10.7577
屈原	-10.758
㓂	-10.7583
掲	-10.7584
鉉	-10.7584
髯	-10.7585
搨	-10.7586
金剛	-10.7588
此論	-10.7589
詔曰	-10.7589
之義也	-10.7595
不須	-10.7596
御史中丞	-10.7599
不仁	-10.761
牝	-10.7613
一片	-10.7613
槖	-10.7614
萬歴	-10.7615
三十二	-10.7615
愕	-10.7616
亦猶	-10.7617
金吾	-10.7618
復為	-10.7621
廂	-10.7625
穆王	-10.7625
派	-10.7626
蘿	-10.7627
奏請	-10.7627
生死	-10.763
天文	-10.7631
得道	-10.7631
其體	-10.7638
種之	-10.7646
猶言	-10.7648
狩	-10.7649
柘	-10.7652
紀年	-10.7655
殁	-10.7656
其首	-10.7656
餐	-10.7657
仝	-10.7657
直學士	-10.7663
轉運使	-10.7667
白石	-10.7668
景帝	-10.7669
僖公	-10.7674
張衡	-10.7675
大明	-10.7679
頰	-10.768
十分	-10.768
觀音	-10.7686
蝗	-10.7687
五千	-10.769
薰	-10.7691
痩	-10.7696
五尺	-10.7698
武侯	-10.7701
二十餘	-10.7704
賢人	-10.7707
孝宗	-10.7708
大人	-10.7708
三十里	-10.7715
屏風	-10.7716
必欲	-10.7717
不去	-10.7718
吝	-10.7722
箕子	-10.7722
有云	-10.7722
因而	-10.7725
穰	-10.7725
熏	-10.7725
欲得	-10.7727
曇	-10.7729
退而	-10.7738
之南	-10.774
尺餘	-10.7741
二王	-10.7743
萊公	-10.7744
弗能	-10.7745
入於	-10.7751
宇文	-10.7752
殃	-10.7752
得名	-10.7753
僣	-10.7755
齎	-10.7755
术	-10.7759
䖏	-10.7759
一節	-10.7759
無常	-10.7771
其民	-10.7771
先公	-10.7772
慨	-10.7774
氣象	-10.7787
囂	-10.7788
艶	-10.7789
塜	-10.7791
不義	-10.7793
駱	-10.7794
集賢	-10.7799
可惜	-10.78
皇祐	-10.7803
梯	-10.7817
迺	-10.7823
空中	-10.7823
至正	-10.7824
悶	-10.7824
蓬萊	-10.7824
漲	-10.7826
牓	-10.783
㡌	-10.7831
何物	-10.7833
無足	-10.7836
不畏	-10.7837
不得其	-10.7839
予按	-10.784
隠居	-10.7849
而巳	-10.7849
汝南	-10.7849
五曰	-10.7851
洪範	-10.7855
子胥	-10.7856
繕	-10.7858
珂	-10.7859
脅	-10.786
為我	-10.7861
璫	-10.7868
天竺	-10.7869
百四十	-10.7869
菱	-10.7876
亦謂之	-10.7879
大驚	-10.7886
東門	-10.7887
夸	-10.7888
挫	-10.7892
護	-10.7894
殊不知	-10.7896
二萬	-10.7896
糜	-10.7899
從此	-10.7901
久而	-10.7902
不喜	-10.7909
受其	-10.791
乃可	-10.7911
光明	-10.7912
猶可	-10.7914
草堂	-10.7921
一體	-10.7924
滔	-10.7925
隷	-10.7928
幽州	-10.7929
之要	-10.7929
離騷	-10.793
三省	-10.7938
者多矣	-10.7942
其情	-10.7954
媪	-10.7955
猗	-10.7955
皇太后	-10.7956
數里	-10.7957
京城	-10.7959
楫	-10.7962
竦	-10.7964
翹	-10.7968
因此	-10.7973
曲江	-10.7976
九百	-10.7978
養生	-10.7979
秋風	-10.798
豈得	-10.7981
在下	-10.7984
諸司	-10.7994
殊不	-10.7994
一嵗	-10.7999
廣州	-10.8
遼東	-10.8
鹵	-10.8
菽	-10.8003
萬嵗	-10.8007
知人	-10.8013
四分	-10.8025
修撰	-10.8025
公言	-10.8026
友人	-10.803
炳	-10.8034
以俟	-10.8039
菁	-10.8039
筯	-10.8039
八尺	-10.8044
出門	-10.8046
禧	-10.8052
黄河	-10.8053
筆記	-10.8053
四五	-10.8061
烝	-10.8064
而用之	-10.8067
示之	-10.8067
憾	-10.807
不類	-10.8073
鎻	-10.8075
宗伯	-10.8077
主事	-10.808
一時之	-10.8091
金人	-10.8097
悍	-10.8099
衾	-10.81
巍	-10.81
郷	-10.8101
贅	-10.8101
千秋	-10.8104
籀	-10.8105
翺	-10.8106
以来	-10.8107
歸於	-10.8108
邯鄲	-10.8108
闈	-10.8111
中宗	-10.8116
知縣	-10.8117
介甫	-10.812
祥符	-10.812
水晶	-10.812
而實	-10.8134
禰	-10.8134
毗	-10.8136
燃	-10.8137
瑾	-10.8142
眩	-10.8143
加以	-10.8144
六百	-10.8149
懋	-10.8149
猶在	-10.8151
百家	-10.8156
賜之	-10.8156
一章	-10.8157
賢良	-10.8158
家語	-10.8163
未敢	-10.8168
儻	-10.8169
損益	-10.8171
卻	-10.8172
逞	-10.8172
題曰	-10.8172
執事	-10.8173
幾何	-10.8174
文昌	-10.8174
俛	-10.8175
以供	-10.8176
嵗月	-10.8177
証	-10.8178
迪	-10.8179
曩	-10.818
如意	-10.8181
居之	-10.819
歌舞	-10.8192
冨	-10.8205
旺	-10.8208
瘠	-10.8209
繼之	-10.821
殯	-10.8211
產	-10.8211
其類	-10.8212
艷	-10.8214
監察御史	-10.8215
稽首	-10.8219
怕	-10.822
祜	-10.8221
南宫	-10.823
天寶	-10.8231
諮	-10.8237
太𤣥	-10.8237
乃止	-10.8238
嬴	-10.824
皎	-10.8246
每日	-10.8248
者自	-10.8248
倩	-10.825
昶	-10.8252
一段	-10.8254
簽	-10.8257
假借	-10.8259
刑罰	-10.8263
清河	-10.8272
為是	-10.8274
吸	-10.8276
瓢	-10.8279
醮	-10.8281
右丞	-10.8282
斵	-10.8283
沆	-10.8284
明道	-10.8289
逵	-10.8291
瘴	-10.8292
果有	-10.8293
滚	-10.8295
仕宦	-10.8303
汶	-10.8306
世子	-10.8307
英雄	-10.831
諦	-10.8312
不可曉	-10.8313
頡	-10.8318
駮	-10.8319
腑	-10.8319
崇寧	-10.8319
山人	-10.8319
拯	-10.832
諤	-10.8322
愿	-10.8323
苐	-10.8323
櫻桃	-10.8325
潁川	-10.8327
無遺	-10.8328
刷	-10.8328
餳	-10.833
申公	-10.8336
其神	-10.8345
糓	-10.8347
摯	-10.8349
出身	-10.8354
概	-10.8355
猴	-10.8357
蒜	-10.8362
彭城	-10.8364
始得	-10.8365
劉歆	-10.8366
尋常	-10.8371
百二十	-10.8372
三代之	-10.8374
而致	-10.8377
庚子	-10.8386
鯀	-10.8386
濟南	-10.8387
之節	-10.8389
撮	-10.8392
形似	-10.8394
蝦	-10.8394
鷗	-10.8394
兀	-10.8394
堦	-10.8395
販	-10.8395
涎	-10.8396
其制	-10.8396
何哉	-10.8397
圏	-10.8398
膾	-10.8404
婦女	-10.8412
驗之	-10.8413
始知	-10.8416
后妃	-10.842
禇	-10.8425
一朝	-10.8427
吕氏春秋	-10.8428
曝	-10.8428
扉	-10.8429
腴	-10.8433
滇	-10.8434
經傳	-10.8434
軍中	-10.8435
東京	-10.8438
有竒	-10.8446
内史	-10.8449
李太白	-10.8454
開元中	-10.8462
郝	-10.8467
渇	-10.8468
可疑	-10.8469
臨安	-10.8471
幄	-10.8473
鹵簿	-10.8479
飼	-10.8501
豁	-10.8501
笠	-10.8505
個	-10.8507
縳	-10.8507
哈	-10.851
鞋	-10.854
潞	-10.8569
仞	-10.8578
缸	-10.8582
劄	-10.8583
薫	-10.8584
蕚	-10.8588
臟	-10.8596
雩	-10.8596
􁁜	-10.86
梢	-10.8613
槎	-10.8615
帆	-10.8617
姻	-10.8617
萱	-10.8622
嵌	-10.8626
釁	-10.8648
喙	-10.865
岷	-10.865
俎	-10.8651
滓	-10.8655
藕	-10.8666
呌	-10.8693
紺	-10.8696
䕃	-10.8722
燎	-10.8726
勺	-10.8754
翕	-10.8761
訥	-10.8766
亘	-10.8768
擣	-10.877
綃	-10.8797
貟	-10.8799
培	-10.88
潦	-10.8801
嫉	-10.8802
茫	-10.8804
踞	-10.8806
黼	-10.8839
僞	-10.884
倘	-10.8843
款	-10.8875
諛	-10.8876
髠	-10.8876
鞅	-10.8876
鹹	-10.8877
賑	-10.8877
顒	-10.8883
攪	-10.8885
鑰	-10.8917
撃	-10.892
戱	-10.8922
浣	-10.8923
鋤	-10.8924
揉	-10.8925
侔	-10.8956
涓	-10.8957
睢	-10.896
柰	-10.8962
倭	-10.8962
覈	-10.8988
虵	-10.8988
渝	-10.8993
芬	-10.9001
蔗	-10.9003
趾	-10.9024
酋	-10.9033
咄	-10.9033
瓘	-10.9036
杓	-10.9071
囬	-10.9074
渥	-10.9074
砌	-10.9076
𢃄	-10.9079
豬	-10.9086
匀	-10.9092
剔	-10.9114
脇	-10.9149
惰	-10.9151
誚	-10.9155
灣	-10.9157
胷	-10.9183
袴	-10.9185
瓚	-10.9189
匏	-10.9192
麋	-10.9194
弇	-10.92
稟	-10.9224
噬	-10.9227
寗	-10.923
洩	-10.923
佗	-10.9267
撤	-10.9271
拭	-10.9272
廖	-10.9278
莢	-10.9304
揣	-10.9308
奭	-10.9311
雛	-10.9313
繋	-10.9315
褥	-10.9317
鍼	-10.935
涸	-10.9351
屨	-10.9351
礪	-10.9352
醖	-10.9358
氐	-10.9383
筌	-10.9384
燔	-10.9386
盲	-10.9388
彘	-10.9388
邠	-10.9394
湜	-10.9397
嬖	-10.943
迅	-10.9432
抹	-10.9435
杼	-10.9469
羿	-10.9469
晟	-10.9472
痰	-10.9473
熹	-10.9473
媿	-10.9474
丐	-10.9475
捜	-10.9475
頤	-10.9477
藜	-10.9506
遙	-10.9511
榭	-10.9514
澠	-10.9514
黯	-10.9514
紇	-10.9515
婺	-10.9521
弘	-10.9549
皋	-10.9553
構	-10.9553
釡	-10.9554
聾	-10.9557
峙	-10.9557
逄	-10.9559
妝	-10.9559
麈	-10.956
慿	-10.9561
碾	-10.9567
毀	-10.9584
幘	-10.9586
騶	-10.9591
槃	-10.9594
濠	-10.9596
殽	-10.9596
倅	-10.9599
揀	-10.9609
棒	-10.9624
偈	-10.9631
岱	-10.9635
弭	-10.9635
邾	-10.9635
憫	-10.9636
孽	-10.9636
膩	-10.9641
閬	-10.9642
亁	-10.9643
凄	-10.9644
厮	-10.9673
卭	-10.9674
戶	-10.9675
瀾	-10.9678
訶	-10.968
穉	-10.9697
餹	-10.9704
軾	-10.9711
蔑	-10.9713
儋	-10.9714
兠	-10.9714
愆	-10.9715
愷	-10.9718
遒	-10.9722
躡	-10.9723
廹	-10.9724
蘋	-10.9731
軼	-10.9761
籥	-10.9761
球	-10.9763
迥	-10.9764
卉	-10.9767
昂	-10.9768
耦	-10.9791
壮	-10.9796
詁	-10.98
姒	-10.9802
抛	-10.9803
旄	-10.9803
韵	-10.9805
倖	-10.9805
𦙍	-10.9809
腕	-10.9842
蛙	-10.9844
覃	-10.9847
豳	-10.9847
廪	-10.9851
肚	-10.9858
蒯	-10.9883
剝	-10.9883
鑾	-10.9885
萍	-10.9889
箸	-10.989
舶	-10.989
鵬	-10.989
椀	-10.9891
殉	-10.9894
涿	-10.9924
瞑	-10.9926
紿	-10.9927
廿	-10.9929
狡	-10.993
帑	-10.9931
籖	-10.9932
淘	-10.9933
霖	-10.9934
荔	-10.9967
疵	-10.9973
窘	-10.9975
塑	-10.9976
祫	-11.0008
悌	-11.0014
囿	-11.0016
眺	-11.0016
怖	-11.0016
窓	-11.0017
庇	-11.0017
燾	-11.002
茸	-11.0025
腫	-11.005
槁	-11.0057
暄	-11.0058
沼	-11.0059
逈	-11.0063
迤	-11.0066
煜	-11.0066
睹	-11.0096
噴	-11.0102
慾	-11.0142
濱	-11.0146
覔	-11.0148
蘂	-11.0156
姨	-11.0187
剡	-11.0188
魅	-11.0191
賽	-11.0191
兖	-11.0197
賚	-11.023
呪	-11.0231
醢	-11.0236
頽	-11.0236
薇	-11.0241
鄆	-11.0275
琅	-11.0278
悵	-11.0278
別	-11.0278
溉	-11.0281
繳	-11.0323
麝	-11.0323
航	-11.0323
簟	-11.0324
柿	-11.033
嗇	-11.0359
貍	-11.036
閎	-11.0361
贏	-11.0363
肘	-11.0366
齧	-11.0368
樗	-11.0404
宼	-11.041
眇	-11.041
跌	-11.0413
罹	-11.0419
稠	-11.0422
徂	-11.045
勛	-11.0451
帯	-11.0456
擕	-11.0462
黛	-11.0462
彤	-11.0492
謾	-11.0501
翫	-11.0503
祔	-11.0505
馥	-11.0508
蓴	-11.0545
簮	-11.0549
竪	-11.0557
喝	-11.0589
嫂	-11.0589
彚	-11.0592
縈	-11.0592
鮓	-11.0593
炬	-11.0595
忙	-11.0598
巒	-11.0603
葺	-11.0636
盍	-11.0637
琮	-11.0638
杪	-11.0639
狸	-11.0639
袂	-11.064
芸	-11.0643
刁	-11.0667
鳶	-11.0677
鄕	-11.068
僑	-11.0684
夣	-11.0684
懈	-11.0687
撒	-11.069
旻	-11.0723
彥	-11.0726
潢	-11.0727
耽	-11.0733
諂	-11.077
宓	-11.0772
訐	-11.0778
恰	-11.0781
淄	-11.0816
蹲	-11.0817
悠	-11.0817
鬛	-11.0818
娛	-11.0819
洙	-11.0819
煤	-11.0821
湍	-11.0822
蠡	-11.0858
敲	-11.087
畦	-11.0873
煌	-11.0874
叠	-11.0875
悽	-11.0875
濓	-11.0877
苕	-11.0877
萇	-11.0915
殫	-11.0918
逓	-11.0919
佃	-11.0919
欹	-11.092
撞	-11.0921
嘻	-11.0954
黥	-11.0959
脣	-11.096
猜	-11.0965
莧	-11.0966
裒	-11.0968
濛	-11.0969
酪	-11.0975
弧	-11.1009
魔	-11.1013
椿	-11.1013
滁	-11.1017
驪	-11.1029
曳	-11.1053
捍	-11.1054
鎔	-11.1058
媵	-11.1059
禆	-11.106
瓌	-11.1062
碁	-11.1066
秃	-11.1101
攬	-11.1104
藿	-11.1105
堰	-11.1105
奬	-11.1106
滂	-11.1149
貂	-11.1154
靴	-11.1156
縉	-11.1157
磚	-11.1157
靳	-11.1158
昱	-11.1162
秤	-11.1163
譎	-11.1195
耒	-11.1197
参	-11.12
悞	-11.1202
脛	-11.1202
酢	-11.1207
硫	-11.1212
惕	-11.1243
糴	-11.1245
錐	-11.1247
頷	-11.1249
亾	-11.1249
縞	-11.1249
嘔	-11.1251
鈐	-11.1252
閽	-11.1253
濳	-11.1254
症	-11.1255
愴	-11.1256
點	-11.1257
兕	-11.129
砥	-11.1294
吻	-11.1296
港	-11.1297
錮	-11.1298
惲	-11.1298
彫	-11.1299
桶	-11.13
尅	-11.1301
燼	-11.1303
霏	-11.1304
沱	-11.1305
蒂	-11.1309
畋	-11.1344
慟	-11.1348
餞	-11.1354
菌	-11.1358
醃	-11.1366
櫛	-11.1395
槽	-11.1398
晳	-11.1399
棹	-11.14
粮	-11.1405
擘	-11.1406
恍	-11.1446
鈿	-11.1446
沓	-11.1453
鬲	-11.1489
顓	-11.149
泯	-11.1495
闡	-11.1495
韭	-11.1508
汜	-11.1539
勣	-11.1543
餽	-11.1547
覧	-11.1547
装	-11.155
瑗	-11.1551
泡	-11.1553
霑	-11.1555
飴	-11.1593
么	-11.1596
沫	-11.1598
糠	-11.1641
璩	-11.1642
你	-11.1645
吠	-11.1648
瀝	-11.165
淋	-11.1651
衲	-11.1653
荳	-11.1667
义	-11.1695
狥	-11.1696
杉	-11.1697
柩	-11.1697
彗	-11.1698
隗	-11.1698
寖	-11.1703
鏗	-11.1706
釜	-11.1738
洮	-11.175
祧	-11.1751
龕	-11.1752
絞	-11.1752
籙	-11.1755
忩	-11.1756
䦨	-11.1759
芼	-11.1785
鎗	-11.1798
鬯	-11.1799
戢	-11.18
溲	-11.1806
聮	-11.1808
騫	-11.1841
縹	-11.185
琬	-11.1854
刹	-11.1856
虱	-11.1856
匙	-11.1857
筐	-11.1858
溟	-11.1858
厓	-11.186
葭	-11.1905
另	-11.1906
瀑	-11.1907
撻	-11.1908
仄	-11.1911
拖	-11.1915
吃	-11.1954
罍	-11.1956
麯	-11.1962
詡	-11.1963
寕	-11.1964
劭	-11.1997
恊	-11.2003
匕	-11.2006
寝	-11.2008
啜	-11.201
杲	-11.201
忝	-11.201
諳	-11.2014
恂	-11.2015
姥	-11.2015
襯	-11.2016
藹	-11.2019
觜	-11.2052
溷	-11.2058
掣	-11.206
漉	-11.2064
两	-11.2066
諺	-11.2078
缶	-11.2099
茨	-11.2111
螢	-11.2111
㤗	-11.2113
晷	-11.2114
紏	-11.2114
隰	-11.2117
椅	-11.2118
懽	-11.2118
址	-11.2119
墀	-11.2121
肢	-11.2156
盪	-11.2159
磔	-11.2163
佯	-11.2164
醪	-11.2169
泮	-11.217
嬉	-11.2173
榛	-11.2176
蕋	-11.2177
兊	-11.2209
圉	-11.2215
噲	-11.2215
笥	-11.2218
瀉	-11.2221
倐	-11.2221
瓮	-11.2223
驂	-11.2223
盥	-11.2228
莎	-11.2269
剽	-11.2272
掉	-11.2272
椽	-11.2273
紆	-11.2275
㪚	-11.2277
彧	-11.2278
闋	-11.2284
睛	-11.2323
聶	-11.2328
餒	-11.2328
捫	-11.2329
奩	-11.2329
俘	-11.233
債	-11.233
矧	-11.233
赭	-11.233
枳	-11.233
轎	-11.2336
辣	-11.2337
塾	-11.2337
菑	-11.2375
毆	-11.2384
皁	-11.2384
穹	-11.2389
輻	-11.2428
跖	-11.2432
㓕	-11.2434
瑤	-11.2436
鋸	-11.2441
㝷	-11.2442
咒	-11.2489
稔	-11.2491
鬟	-11.2492
匝	-11.2493
蹶	-11.2494
熒	-11.2494
孜	-11.2496
禳	-11.2497
𣙜	-11.2504
閘	-11.2507
曬	-11.2514
驩	-11.2543
纖	-11.2549
插	-11.2549
刈	-11.2553
㵼	-11.2554
匾	-11.2555
觔	-11.256
綂	-11.2597
岀	-11.2598
邳	-11.2601
瓉	-11.2605
嵬	-11.2605
譖	-11.261
誄	-11.2613
汰	-11.2657
挹	-11.2657
鱉	-11.2657
癖	-11.2661
顥	-11.2666
懦	-11.2711
旃	-11.2713
虗	-11.2715
鯨	-11.2716
虺	-11.2717
詵	-11.2726
刮	-11.2726
、	-11.2758
蜃	-11.2769
䘏	-11.2774
謳	-11.2775
鴿	-11.2777
駞	-11.2777
鍇	-11.278
璜	-11.2816
鶚	-11.2821
麽	-11.2826
跣	-11.2828
俶	-11.2832
邃	-11.2837
盌	-11.2882
岫	-11.2883
峨	-11.2885
晃	-11.2886
芷	-11.2886
璘	-11.2887
愔	-11.2889
幃	-11.2892
塢	-11.2895
殤	-11.2937
鐙	-11.2939
槌	-11.2943
擦	-11.2946
旂	-11.2947
墾	-11.2952
粱	-11.2992
觥	-11.2998
劫	-11.3003
儔	-11.3003
閫	-11.3005
湮	-11.3005
㽔	-11.3008
楨	-11.3009
窄	-11.3058
鑽	-11.3063
汀	-11.3067
郗	-11.307
瑰	-11.3071
崑	-11.3094
竺	-11.3096
笄	-11.3106
恚	-11.3113
嵇	-11.3113
昴	-11.3113
曺	-11.3114
澶	-11.3117
兑	-11.3117
蒐	-11.3117
宕	-11.3118
蟾	-11.3119
䏻	-11.312
躋	-11.312
溜	-11.3122
旭	-11.3125
𣲖	-11.3126
幢	-11.3172
兇	-11.3175
曙	-11.3177
撾	-11.3177
綉	-11.3179
斟	-11.3179
炫	-11.3179
瑛	-11.318
睂	-11.3181
閹	-11.3183
㢲	-11.3225
煞	-11.3228
帕	-11.3235
瑋	-11.3236
儂	-11.3236
数	-11.3238
珮	-11.324
詮	-11.3246
橙	-11.3246
豢	-11.3286
朞	-11.3286
遑	-11.3288
揜	-11.329
顚	-11.3292
亶	-11.3294
犂	-11.3295
穗	-11.3297
緻	-11.33
刄	-11.3301
廨	-11.3303
榔	-11.3303
虀	-11.3304
孛	-11.3346
票	-11.3349
縻	-11.335
闥	-11.3351
覬	-11.3352
哺	-11.3352
琯	-11.3355
朂	-11.3355
鑪	-11.3356
貺	-11.336
毘	-11.3361
誹	-11.3407
曄	-11.3412
襃	-11.3414
鞫	-11.3416
羯	-11.3418
臠	-11.3423
翎	-11.3423
剌	-11.3462
碣	-11.3464
芮	-11.3465
喘	-11.3465
殞	-11.3469
漾	-11.3471
旒	-11.3473
睨	-11.3476
嵓	-11.3478
缾	-11.3483
棧	-11.349
兌	-11.3527
窩	-11.3532
莱	-11.3532
殄	-11.3533
楯	-11.3533
嗔	-11.3534
捶	-11.3535
扼	-11.3535
豔	-11.3535
䖝	-11.3537
廸	-11.3537
瞳	-11.3538
嗤	-11.3538
厰	-11.354
聫	-11.3541
噉	-11.3545
墅	-11.355
覘	-11.3598
蓐	-11.3598
拈	-11.3599
舄	-11.3599
鄢	-11.3599
詬	-11.3599
螯	-11.3604
茵	-11.3606
羆	-11.365
疽	-11.3652
櫟	-11.3656
郯	-11.3657
賫	-11.3659
歿	-11.3659
曵	-11.3659
獺	-11.366
鏁	-11.3661
咀	-11.3662
驍	-11.3663
貿	-11.367
蹴	-11.3671
雹	-11.3711
穏	-11.3714
嗚	-11.3716
苓	-11.3718
揲	-11.3721
泚	-11.3727
煨	-11.3731
幷	-11.3778
剏	-11.3781
亹	-11.3781
鼇	-11.3786
凛	-11.3789
甯	-11.3792
芹	-11.3796
樣	-11.3798
攤	-11.3799
陬	-11.3839
祟	-11.3842
緜	-11.3847
嘏	-11.3847
毳	-11.3847
鴞	-11.3848
靄	-11.3849
搢	-11.3851
欝	-11.3853
烘	-11.3856
摺	-11.3858
猾	-11.3901
幟	-11.3909
諍	-11.3909
郄	-11.391
屐	-11.3912
瀕	-11.3914
偹	-11.3915
净	-11.3916
磯	-11.3917
萼	-11.393
蜚	-11.3961
埶	-11.3961
傭	-11.3968
汞	-11.397
茲	-11.3971
爼	-11.3972
裡	-11.3972
柬	-11.3973
峩	-11.3974
譲	-11.3976
崧	-11.3979
詛	-11.398
蕊	-11.398
覓	-11.398
薺	-11.3986
拉	-11.403
盼	-11.4034
軻	-11.4035
慄	-11.4036
趍	-11.4039
寰	-11.4041
潯	-11.4042
礫	-11.4042
浹	-11.4043
趺	-11.4043
瘧	-11.4044
豸	-11.405
諄	-11.4054
嚥	-11.4091
廐	-11.41
鑊	-11.4104
燄	-11.4104
彎	-11.4105
坂	-11.4105
櫓	-11.4107
磊	-11.411
鱣	-11.415
啇	-11.4154
黿	-11.4162
箔	-11.4165
豺	-11.4166
婿	-11.4167
愉	-11.4167
舁	-11.4172
槍	-11.4173
䨇	-11.4173
炮	-11.418
硝	-11.4181
郞	-11.4225
愠	-11.4234
摸	-11.4236
瀟	-11.4238
覿	-11.4239
夔	-11.4289
愬	-11.4296
偁	-11.4299
鷙	-11.4357
俳	-11.4358
誑	-11.4364
稗	-11.4365
汨	-11.4365
罄	-11.4368
忱	-11.437
罩	-11.4373
矮	-11.4374
㸑	-11.4382
啞	-11.4424
畀	-11.4427
沁	-11.4433
拄	-11.4433
肴	-11.4433
㐮	-11.4436
燦	-11.4438
髭	-11.4448
葅	-11.4455
銑	-11.4486
縠	-11.4494
蝨	-11.4495
匆	-11.4501
謠	-11.4502
套	-11.4505
芟	-11.4559
箠	-11.4561
絛	-11.4565
鵰	-11.4565
儕	-11.4566
攫	-11.4566
峴	-11.4567
个	-11.4569
綘	-11.457
亊	-11.4571
顙	-11.4573
侣	-11.4574
峒	-11.4576
葆	-11.4629
僵	-11.4631
霓	-11.4635
黏	-11.4636
譁	-11.4637
靚	-11.4638
琛	-11.464
夬	-11.469
緊	-11.4693
鷂	-11.4695
紊	-11.4698
隳	-11.47
䜛	-11.47
淇	-11.47
櫃	-11.4702
𤨏	-11.4707
娟	-11.471
顗	-11.4716
鼉	-11.4761
襦	-11.4771
穫	-11.4771
楞	-11.4772
忻	-11.4772
塋	-11.4774
擎	-11.4778
洶	-11.4778
趂	-11.4779
墩	-11.4786
殂	-11.4836
虫	-11.4838
莆	-11.4838
沅	-11.484
晡	-11.4843
娼	-11.4844
菲	-11.4848
姧	-11.4904
玠	-11.4905
裾	-11.4906
慝	-11.491
洵	-11.4913
皿	-11.4914
晞	-11.4915
蚡	-11.4916
竽	-11.497
犍	-11.4972
炤	-11.4972
檐	-11.4975
錠	-11.4975
僂	-11.498
淤	-11.4982
鱠	-11.4986
刳	-11.4986
紈	-11.4986
焯	-11.4987
潑	-11.4989
跗	-11.499
焰	-11.4991
飮	-11.5039
涖	-11.504
陘	-11.504
軋	-11.505
嶼	-11.5052
徤	-11.5052
罌	-11.5059
襪	-11.5061
梔	-11.5066
窰	-11.5078
躔	-11.5112
薤	-11.5113
鎰	-11.5117
懌	-11.5121
种	-11.5121
謟	-11.5123
鰥	-11.5124
䙝	-11.5124
嵐	-11.5126
隧	-11.5128
惱	-11.5129
鶡	-11.5129
删	-11.5129
畤	-11.5131
丼	-11.514
爇	-11.519
罽	-11.5193
餙	-11.5194
鴆	-11.5195
鑚	-11.5198
𨼆	-11.5198
娃	-11.5199
耘	-11.52
鰕	-11.5201
囑	-11.5202
濂	-11.5206
䰟	-11.5262
湫	-11.5265
肱	-11.5266
隲	-11.5272
泓	-11.5273
鑠	-11.5274
瀹	-11.5275
憒	-11.5275
茭	-11.5284
詈	-11.5331
㳂	-11.5338
窗	-11.534
儗	-11.5341
儺	-11.5341
鬰	-11.5345
鼂	-11.5409
葷	-11.5409
柚	-11.541
嬾	-11.5414
叨	-11.5416
驤	-11.5417
繚	-11.5417
鯁	-11.5417
諶	-11.5418
撼	-11.5418
傘	-11.542
爆	-11.542
醤	-11.543
紬	-11.5478
迦	-11.5484
暘	-11.5485
哂	-11.5486
槨	-11.549
鉏	-11.5491
撿	-11.5492
衘	-11.5494
噪	-11.5495
葩	-11.5498
紘	-11.5501
棚	-11.5505
黠	-11.5557
戡	-11.5561
篡	-11.5563
迢	-11.5563
屛	-11.5563
璠	-11.5566
琪	-11.5568
翮	-11.557
」	-11.5618
襖	-11.5632
莘	-11.5635
蘧	-11.5638
憇	-11.5638
涌	-11.5639
拏	-11.5642
縝	-11.5644
瑪	-11.5657
捻	-11.5697
蚩	-11.57
埃	-11.57
駰	-11.5707
箬	-11.5707
圯	-11.5711
躅	-11.5712
臾	-11.5712
臚	-11.5713
邯	-11.5715
郛	-11.5715
踊	-11.5716
颺	-11.5717
荻	-11.5717
賭	-11.5718
剰	-11.5721
纍	-11.5721
描	-11.5724
暹	-11.5725
皃	-11.5756
洧	-11.5781
湣	-11.5785
估	-11.5786
酇	-11.5788
苧	-11.5788
鉗	-11.5789
闘	-11.579
慤	-11.579
裸	-11.579
耨	-11.5791
診	-11.5793
紵	-11.5794
妥	-11.5796
塹	-11.5796
帚	-11.5798
纛	-11.585
脹	-11.5854
湊	-11.5856
矦	-11.5857
禫	-11.5862
嶷	-11.5864
詘	-11.5865
筴	-11.5867
挍	-11.5868
悚	-11.5869
姝	-11.5869
黷	-11.5871
飡	-11.5871
玷	-11.5872
塚	-11.5874
癘	-11.5874
溶	-11.5875
幙	-11.5877
妣	-11.5877
犒	-11.5881
蠆	-11.5933
箆	-11.594
歉	-11.5942
斌	-11.5945
甃	-11.5948
鐺	-11.5949
茘	-11.5949
潄	-11.5951
閙	-11.5953
盒	-11.5954
朐	-11.6014
扞	-11.6016
聿	-11.6017
袤	-11.6023
裨	-11.6023
殛	-11.6026
鸛	-11.6026
儷	-11.6027
籃	-11.6027
珥	-11.6093
酤	-11.6098
蹕	-11.6101
仿	-11.6102
愽	-11.6106
肄	-11.6107
熖	-11.6108
梭	-11.6111
蘖	-11.6112
褾	-11.6113
蠏	-11.6114
怏	-11.6176
郇	-11.6178
絺	-11.6179
褊	-11.6179
笈	-11.618
懾	-11.618
慣	-11.6182
箏	-11.6188
煒	-11.6189
犁	-11.6193
濾	-11.6197
蔕	-11.6201
痺	-11.6254
蓺	-11.6258
舖	-11.6259
臉	-11.626
珣	-11.626
楸	-11.626
瑀	-11.6261
縊	-11.6263
孑	-11.6264
孥	-11.6264
暝	-11.6266
搭	-11.6324
桷	-11.6329
卬	-11.6333
孳	-11.6335
蜡	-11.6335
騁	-11.6337
絫	-11.6337
㤀	-11.6339
髀	-11.634
蔟	-11.6341
覊	-11.6342
敇	-11.6343
鄜	-11.6345
芰	-11.6345
凸	-11.6346
螽	-11.6346
眸	-11.6349
艘	-11.635
鬆	-11.635
蒔	-11.6364
喇	-11.6365
麩	-11.6413
佾	-11.6418
偪	-11.6419
孩	-11.642
溼	-11.642
蜻	-11.6421
泳	-11.6422
灸	-11.6422
淆	-11.6425
夥	-11.6426
紡	-11.6427
怛	-11.6429
糝	-11.6444
蝎	-11.6488
嶧	-11.6496
勰	-11.6501
秬	-11.6502
綦	-11.6504
窒	-11.6506
凹	-11.6507
𢾗	-11.6509
儆	-11.651
蝸	-11.651
篩	-11.6516
霤	-11.6578
叡	-11.658
䛕	-11.6582
腋	-11.6588
剉	-11.6589
瞰	-11.6589
罅	-11.6592
秣	-11.6592
壠	-11.6592
爍	-11.6592
炷	-11.6594
徭	-11.6598
蘸	-11.66
笳	-11.6602
畎	-11.6664
耜	-11.6667
莭	-11.6669
閃	-11.667
睫	-11.6672
搔	-11.6672
阯	-11.6673
疼	-11.6673
騾	-11.6674
絢	-11.6676
輓	-11.6678
漚	-11.6687
癰	-11.6749
嚢	-11.6751
癭	-11.6752
臓	-11.6753
擺	-11.6753
鏃	-11.6754
阼	-11.6754
籩	-11.6754
鱸	-11.6756
螫	-11.6756
篾	-11.6757
駑	-11.6758
嘴	-11.6762
姐	-11.6765
瓷	-11.678
烽	-11.6826
滲	-11.6837
巔	-11.6837
榼	-11.6838
耄	-11.684
丰	-11.6842
勦	-11.6844
惓	-11.6845
酺	-11.6846
躭	-11.6846
昺	-11.6847
耼	-11.691
纈	-11.6911
豨	-11.6918
隼	-11.6922
扃	-11.6923
挼	-11.6923
蹊	-11.6925
澧	-11.6926
値	-11.6926
豉	-11.6927
偓	-11.6928
綯	-11.6928
薈	-11.6931
搥	-11.6932
祓	-11.6932
窖	-11.6933
菘	-11.6936
糕	-11.6941
螻	-11.6991
暦	-11.6998
蕤	-11.7005
鎧	-11.7005
倨	-11.7006
藺	-11.701
筝	-11.7013
橐	-11.7013
璵	-11.7014
閟	-11.7014
鍳	-11.7018
燬	-11.7021
菰	-11.7024
鈕	-11.7025
纊	-11.7089
嘘	-11.7089
鶩	-11.7094
甬	-11.7098
扆	-11.7098
迸	-11.7099
礦	-11.7099
腊	-11.71
阨	-11.71
楙	-11.7102
娯	-11.7102
籟	-11.7103
憩	-11.7104
赧	-11.7104
厦	-11.7105
秪	-11.7107
彝	-11.7167
汭	-11.7173
壟	-11.7183
扄	-11.7185
摻	-11.7186
穩	-11.7187
穠	-11.719
薩	-11.719
滷	-11.7193
羃	-11.7194
雇	-11.7255
簧	-11.7269
莞	-11.727
䄂	-11.7272
漣	-11.7274
攅	-11.7275
吼	-11.7277
墉	-11.7278
譛	-11.7281
榴	-11.7324
殳	-11.7358
溱	-11.736
喟	-11.736
坼	-11.7361
掬	-11.7365
伋	-11.7365
鏘	-11.7368
儘	-11.737
淛	-11.7371
悴	-11.7372
菔	-11.7373
嘶	-11.7375
颯	-11.7448
燮	-11.7448
曆	-11.7449
禋	-11.745
鬂	-11.7451
喏	-11.7453
砧	-11.7454
鋼	-11.7454
娑	-11.7454
痢	-11.7454
澡	-11.7455
糶	-11.7457
褁	-11.7458
熨	-11.7463
醯	-11.7467
舩	-11.7538
漯	-11.7539
讌	-11.754
斾	-11.7543
跂	-11.7545
㩦	-11.7545
騏	-11.7546
燿	-11.7546
磧	-11.7547
謎	-11.7548
鉦	-11.755
瑄	-11.755
篙	-11.7551
輜	-11.762
黻	-11.7625
氂	-11.763
褰	-11.7631
紱	-11.7634
汩	-11.7635
揷	-11.7635
驄	-11.7636
磐	-11.7637
膜	-11.7638
悄	-11.7639
侑	-11.7641
縢	-11.7642
菓	-11.765
姤	-11.772
簋	-11.7722
筩	-11.7723
邏	-11.7725
泝	-11.7725
羶	-11.7726
昃	-11.7726
磾	-11.7727
蔞	-11.7728
讞	-11.7728
咬	-11.773
獠	-11.7731
藂	-11.7732
猝	-11.7733
兢	-11.7735
惴	-11.7739
惋	-11.774
颶	-11.7803
塤	-11.7809
鮪	-11.781
麪	-11.7816
馗	-11.7816
緦	-11.7816
瀨	-11.7818
棨	-11.7819
蜺	-11.782
蒨	-11.7821
饅	-11.7822
霅	-11.7824
戕	-11.7825
濺	-11.7826
浯	-11.7827
讖	-11.7828
暎	-11.7829
碓	-11.7829
跛	-11.7829
渺	-11.7832
秫	-11.7834
槿	-11.7834
伹	-11.7901
萋	-11.7904
皴	-11.7905
繖	-11.791
枷	-11.7911
㓗	-11.7911
罟	-11.7913
兾	-11.7916
芡	-11.792
謐	-11.792
氛	-11.7922
鷰	-11.7923
佔	-11.7927
獅	-11.7962
讙	-11.8002
企	-11.8003
苻	-11.8004
璉	-11.8006
凭	-11.8008
堡	-11.8011
湎	-11.8011
拽	-11.8016
蠢	-11.8016
廌	-11.8017
礶	-11.8019
肻	-11.8019
娠	-11.8019
嗅	-11.8021
暁	-11.8022
楠	-11.8029
煬	-11.809
唶	-11.8095
揩	-11.8096
褶	-11.8101
傴	-11.8101
擯	-11.8103
咳	-11.8106
壙	-11.811
蛻	-11.8111
錡	-11.8112
羗	-11.8113
裊	-11.8114
芎	-11.8114
窶	-11.8115
鮫	-11.8116
氓	-11.8116
氲	-11.8118
蓑	-11.8119
錬	-11.8121
襁	-11.8196
讃	-11.8198
迓	-11.8206
觱	-11.8211
喈	-11.8212
甓	-11.8213
塼	-11.8214
澀	-11.8215
僦	-11.8293
娣	-11.8295
鍜	-11.8295
螟	-11.8297
洹	-11.8297
筦	-11.8298
伉	-11.8299
翥	-11.8303
侗	-11.8304
鯽	-11.8305
愜	-11.8306
黽	-11.8306
髦	-11.8307
槀	-11.8307
蚓	-11.8309
埽	-11.831
緬	-11.8311
𢷬	-11.8327
踢	-11.8358
澳	-11.8387
嬙	-11.8396
肋	-11.8397
慊	-11.8398
澣	-11.8399
銚	-11.84
瞬	-11.8401
瀚	-11.8401
狠	-11.8402
漪	-11.8403
琨	-11.8405
冺	-11.8405
闍	-11.8408
堞	-11.8408
飱	-11.8408
熲	-11.8409
蹻	-11.841
棖	-11.8415
央	-11.8419
闖	-11.8426
椹	-11.8497
棉	-11.8498
攢	-11.85
斡	-11.85
𣣔	-11.85
垓	-11.8501
闞	-11.8501
騖	-11.8502
胙	-11.8503
叫	-11.8504
鐃	-11.8506
篁	-11.8507
逡	-11.851
墊	-11.8512
磴	-11.852
堊	-11.852
秊	-11.8587
筑	-11.8592
盱	-11.8592
貉	-11.8592
匄	-11.8599
儁	-11.86
逶	-11.86
㳟	-11.8601
賡	-11.8603
玻	-11.8604
㐫	-11.8605
艇	-11.861
抉	-11.861
幔	-11.8611
酵	-11.8612
擿	-11.8613
衿	-11.8702
擠	-11.8704
舸	-11.8705
傚	-11.8706
蘚	-11.8707
扺	-11.8708
棃	-11.8708
㕓	-11.8711
𣺌	-11.8712
駸	-11.8713
鄖	-11.8713
葑	-11.8714
壩	-11.8716
諗	-11.8724
滎	-11.8769
晶	-11.8787
蛩	-11.8797
騮	-11.88
酎	-11.8801
䂓	-11.8802
粢	-11.8805
鄘	-11.8805
逖	-11.8807
玦	-11.8808
囉	-11.8812
藐	-11.8813
烙	-11.8814
奐	-11.8814
凟	-11.8815
㤙	-11.8815
皺	-11.8816
珏	-11.8817
緫	-11.8819
鑼	-11.8825
柞	-11.8908
稹	-11.8909
鍵	-11.891
桴	-11.891
串	-11.8915
塡	-11.8917
淖	-11.8919
岌	-11.8921
萎	-11.8921
罏	-11.8921
硃	-11.8923
凑	-11.8923
蔲	-11.8929
吊	-11.8998
宙	-11.9003
努	-11.9006
搶	-11.9013
痒	-11.9013
楪	-11.9013
嶂	-11.9016
莾	-11.9017
㗖	-11.9017
䲭	-11.9019
瞞	-11.902
爨	-11.902
銕	-11.9021
紕	-11.9021
槊	-11.9022
兜	-11.9022
諜	-11.9023
甦	-11.9028
眄	-11.9028
檎	-11.9029
膈	-11.9035
沴	-11.9051
蕈	-11.9051
恙	-11.9088
禺	-11.9106
㫄	-11.9115
淅	-11.9115
蕐	-11.9116
鈇	-11.9117
忒	-11.9121
毓	-11.9123
檠	-11.9124
憊	-11.9126
柟	-11.9127
阪	-11.9128
胞	-11.9129
舫	-11.9132
蕨	-11.9133
籜	-11.9133
泔	-11.9133
擷	-11.914
緱	-11.9221
鮒	-11.9221
匜	-11.9225
煦	-11.9225
盻	-11.9227
膓	-11.9227
怙	-11.923
抃	-11.9231
蹉	-11.9234
旛	-11.9237
酹	-11.9237
獬	-11.9237
璃	-11.9238
飫	-11.9238
斐	-11.9242
拐	-11.929
枵	-11.9327
桮	-11.9332
櫻	-11.9333
鸇	-11.9334
襴	-11.9335
剃	-11.9336
躑	-11.9338
譔	-11.9339
寬	-11.934
嚙	-11.9341
碍	-11.9344
膂	-11.9344
訕	-11.9344
啗	-11.9347
篠	-11.9347
舡	-11.9348
嶮	-11.935
餗	-11.9351
侏	-11.9438
‧	-11.9445
絜	-11.9446
䋲	-11.9449
蝟	-11.9449
綢	-11.945
鞮	-11.9458
芾	-11.9459
昕	-11.9459
龐	-11.9459
榨	-11.9461
鯤	-11.9462
苹	-11.9544
螘	-11.9549
㨿	-11.9552
蜓	-11.9555
敺	-11.9557
蹠	-11.9557
塩	-11.9558
徠	-11.9559
瀦	-11.9559
癢	-11.956
郴	-11.956
猊	-11.956
埀	-11.9562
瞍	-11.9562
崛	-11.9562
僇	-11.9564
禊	-11.9566
悰	-11.9566
滸	-11.957
蠕	-11.9573
浥	-11.9574
玕	-11.9575
週	-11.9576
砑	-11.9576
粳	-11.9578
睽	-11.9647
窳	-11.9661
湼	-11.9666
雝	-11.9669
昵	-11.9672
袪	-11.9673
騃	-11.9674
砲	-11.9675
贗	-11.9675
踪	-11.9676
撑	-11.9677
蚋	-11.9678
窈	-11.9678
腳	-11.9678
荃	-11.9679
鞾	-11.9679
聃	-11.9681
耤	-11.9684
单	-11.969
肸	-11.9763
醎	-11.9769
皥	-11.9773
娱	-11.9782
黝	-11.9784
讚	-11.9785
瘁	-11.9785
嶸	-11.9786
魴	-11.9787
酴	-11.9787
蛛	-11.9789
帔	-11.979
廕	-11.979
佇	-11.9791
汧	-11.9792
輞	-11.9792
瀘	-11.9794
飜	-11.9796
埒	-11.9798
嚶	-11.9884
拗	-11.9891
?	-11.9892
枋	-11.9895
捺	-11.9896
菉	-11.9897
券	-11.9897
宂	-11.9898
匭	-11.99
櫝	-11.9902
贋	-11.9902
屣	-11.9903
悛	-11.9903
攄	-11.9903
潺	-11.9904
荇	-11.9909
簞	-12.0005
麞	-12.0005
鏐	-12.0012
闚	-12.0012
祉	-12.0014
蛉	-12.0015
倕	-12.0015
㓙	-12.0016
犖	-12.0016
庄	-12.0017
禿	-12.0018
冤	-12.0018
轆	-12.0018
劃	-12.0019
毉	-12.0019
蒺	-12.0019
珙	-12.002
鄠	-12.0023
犇	-12.0023
炯	-12.0024
煅	-12.0024
慥	-12.0027
贑	-12.003
揄	-12.0031
罐	-12.0033
哨	-12.0037
蔴	-12.0042
喩	-12.0123
剋	-12.0124
叵	-12.0129
廏	-12.0132
輳	-12.0133
燠	-12.0135
悸	-12.0135
駘	-12.0135
咮	-12.0136
旴	-12.0136
妒	-12.0137
莪	-12.0138
薏	-12.014
滙	-12.0142
膊	-12.0143
撚	-12.0144
鏊	-12.0145
殮	-12.0145
檝	-12.0147
㺯	-12.0147
澈	-12.0148
鰲	-12.0148
万	-12.015
錞	-12.015
朏	-12.0151
蛄	-12.0239
捩	-12.0239
瑁	-12.0242
鬪	-12.0248
璨	-12.0249
匃	-12.025
臬	-12.025
夐	-12.0253
擡	-12.0253
羹	-12.0253
堇	-12.0254
圻	-12.0255
狽	-12.0256
贛	-12.0257
㕑	-12.0257
坫	-12.0258
徨	-12.0259
菩	-12.026
狙	-12.026
猱	-12.0262
珉	-12.0264
輈	-12.0362
嚏	-12.0363
陁	-12.0368
圈	-12.0369
頲	-12.037
堙	-12.0371
嘿	-12.0371
渤	-12.0373
櫬	-12.0374
澮	-12.0374
絰	-12.0374
蛀	-12.0377
蜉	-12.0379
鱟	-12.0379
檣	-12.038
樟	-12.0381
疥	-12.0381
祛	-12.0381
鼐	-12.0382
抜	-12.0382
垜	-12.0385
餻	-12.0388
猺	-12.0388
趯	-12.0465
鈆	-12.0477
嘖	-12.0479
淬	-12.0481
觶	-12.0485
邴	-12.0491
涑	-12.0492
𠂻	-12.0492
綫	-12.0492
瞋	-12.0493
瘳	-12.0494
槧	-12.0494
屹	-12.0496
踴	-12.0497
蝠	-12.05
懵	-12.0502
廱	-12.0503
甎	-12.0508
啾	-12.0511
箒	-12.0513
爺	-12.0515
盬	-12.0516
迃	-12.0591
橛	-12.0601
禅	-12.0611
遡	-12.0612
衒	-12.0615
噱	-12.0618
諠	-12.0618
聦	-12.0621
遨	-12.0622
罨	-12.0622
沬	-12.0623
桔	-12.0623
蔥	-12.0623
祼	-12.0624
滉	-12.0624
鎚	-12.0625
䜿	-12.0625
腮	-12.0625
朓	-12.0625
罸	-12.0626
嶇	-12.0626
窪	-12.0626
詫	-12.0626
縦	-12.0628
涂	-12.0628
灋	-12.0629
秔	-12.0633
踘	-12.0645
醅	-12.0653
貊	-12.073
喑	-12.0735
㬥	-12.0736
駔	-12.0736
韙	-12.0738
掊	-12.0739
揑	-12.074
廋	-12.074
踣	-12.0741
詒	-12.0744
璇	-12.0745
冽	-12.0745
惹	-12.0748
鞘	-12.0749
埜	-12.0749
霆	-12.0749
縶	-12.075
紓	-12.0751
纁	-12.0752
翩	-12.0752
脞	-12.0753
籕	-12.0757
蔭	-12.0757
絙	-12.076
劈	-12.0762
燖	-12.0769
玫	-12.077
緼	-12.0858
攣	-12.0868
逗	-12.0869
燋	-12.0869
鑱	-12.0869
猨	-12.087
囷	-12.087
㒺	-12.0872
劬	-12.0872
賃	-12.0874
堕	-12.0875
濼	-12.0877
冇	-12.0878
謄	-12.0879
飣	-12.0879
穽	-12.088
遹	-12.0883
腔	-12.0883
烜	-12.0888
祅	-12.0893
簀	-12.0991
儈	-12.0992
埸	-12.0994
衂	-12.0994
郅	-12.0996
枸	-12.0996
濞	-12.0999
翬	-12.1
鉄	-12.1003
橈	-12.1004
悒	-12.1004
絀	-12.1005
𡨕	-12.1006
勔	-12.1007
椰	-12.1009
瘖	-12.101
幀	-12.1015
諼	-12.111
轤	-12.1127
辠	-12.1129
㢤	-12.113
砭	-12.1131
呻	-12.1132
淞	-12.1132
濩	-12.1132
樁	-12.1133
鍛	-12.1134
凜	-12.1135
旰	-12.1136
渣	-12.1136
㠶	-12.1136
㪷	-12.1137
艦	-12.1138
沇	-12.1138
慵	-12.1148
骰	-12.1221
荏	-12.1252
刖	-12.1253
絨	-12.1255
皐	-12.1255
鄞	-12.1256
逌	-12.1257
蹋	-12.1258
菀	-12.1261
糯	-12.1264
溧	-12.1264
㛰	-12.1265
竣	-12.1265
曖	-12.1267
賾	-12.1269
𠻳	-12.1269
緹	-12.127
珊	-12.1271
蠒	-12.1271
篥	-12.1271
柵	-12.1276
巉	-12.128
蠃	-12.1382
鯢	-12.1386
檟	-12.1387
栘	-12.1387
䜴	-12.139
哩	-12.1393
漈	-12.1393
涔	-12.1395
顰	-12.1398
适	-12.14
鴝	-12.14
歘	-12.1401
扎	-12.1402
蕡	-12.1403
蟫	-12.1403
莅	-12.1408
琚	-12.1408
畊	-12.1409
䞇	-12.1409
卣	-12.152
陔	-12.1525
辤	-12.1525
蜩	-12.1525
綈	-12.1528
煇	-12.1529
鸚	-12.1532
穂	-12.1533
璿	-12.1533
猖	-12.1533
胝	-12.1534
稾	-12.1534
柝	-12.1534
禕	-12.1534
郃	-12.1535
矍	-12.1535
蕖	-12.1539
惺	-12.1544
;	-12.1645
恆	-12.1656
瀧	-12.1659
憮	-12.166
䭾	-12.1661
肓	-12.1662
袞	-12.1662
柢	-12.1664
硏	-12.1664
忮	-12.1664
弈	-12.1667
扛	-12.1668
枹	-12.1669
戞	-12.167
煆	-12.1671
鰒	-12.1671
茆	-12.1671
媯	-12.1671
囀	-12.1673
褫	-12.1675
邨	-12.1675
恡	-12.1676
讜	-12.1676
銙	-12.1679
壕	-12.1684
痿	-12.1789
鶬	-12.1795
鞨	-12.1796
愀	-12.1798
撇	-12.1799
鎡	-12.18
菹	-12.18
𥙷	-12.1804
蠭	-12.1805
頋	-12.1805
萑	-12.1805
羑	-12.1806
瞭	-12.1806
聆	-12.1807
蘩	-12.1808
璆	-12.1809
甪	-12.181
狃	-12.181
訃	-12.181
饕	-12.1812
蠣	-12.1814
礱	-12.1815
飈	-12.1815
箎	-12.1815
薜	-12.1815
彀	-12.1815
傀	-12.1817
鍤	-12.1818
刓	-12.1819
勗	-12.182
哇	-12.1824
餡	-12.1826
繙	-12.1827
酆	-12.1931
庳	-12.1933
靺	-12.1937
垠	-12.1938
氾	-12.1939
嶓	-12.1939
垤	-12.194
齗	-12.1942
苜	-12.1944
楔	-12.1945
鼃	-12.1947
冏	-12.1947
掀	-12.1947
縟	-12.1948
蜕	-12.1948
氤	-12.1948
綻	-12.1948
瀋	-12.1951
鷁	-12.1951
孃	-12.1952
魑	-12.1952
貰	-12.1953
硜	-12.1957
戩	-12.1958
䑛	-12.1959
儡	-12.1963
璹	-12.1972
毦	-12.2052
縵	-12.207
蛆	-12.2074
匯	-12.2077
鐶	-12.2081
奨	-12.2081
沌	-12.2084
栝	-12.2084
剩	-12.2086
鍮	-12.2087
罇	-12.2087
朢	-12.2088
嶲	-12.2088
懣	-12.2089
癩	-12.2089
裼	-12.2089
瘟	-12.2091
鵒	-12.2093
礎	-12.2094
鄣	-12.2094
鏞	-12.2095
﨑	-12.2096
肪	-12.2097
涙	-12.2097
媛	-12.2098
妺	-12.2098
妲	-12.2102
鷃	-12.2203
叉	-12.2221
鎛	-12.2222
驎	-12.2226
菟	-12.2227
蕢	-12.2228
訢	-12.2228
虙	-12.2231
姙	-12.2232
褘	-12.2232
阡	-12.2233
昩	-12.2236
壎	-12.2236
閥	-12.2237
屎	-12.2238
釧	-12.2238
窆	-12.2239
銛	-12.2239
鵩	-12.224
鯖	-12.224
嵯	-12.2241
榷	-12.2242
鴛	-12.2242
祺	-12.2242
酧	-12.2249
韌	-12.225
袠	-12.2251
啻	-12.229
怳	-12.2369
鞵	-12.2374
褓	-12.2374
齕	-12.2375
欷	-12.2375
糗	-12.2376
覡	-12.2376
喋	-12.2376
怱	-12.2376
耎	-12.2376
螳	-12.2378
躓	-12.2378
簠	-12.2378
畚	-12.238
袵	-12.238
怵	-12.2381
狷	-12.2381
鞬	-12.2382
仔	-12.2382
刎	-12.2382
攽	-12.2382
蝤	-12.2383
醿	-12.2383
櫚	-12.2385
鄼	-12.2385
髩	-12.2385
郈	-12.2385
韞	-12.2386
漱	-12.2386
夤	-12.2386
陕	-12.2388
邐	-12.239
鱖	-12.2391
噀	-12.2391
櫺	-12.2391
鱓	-12.2392
昜	-12.2394
酖	-12.2522
郟	-12.2522
拿	-12.2523
饉	-12.2524
荽	-12.2527
銍	-12.2528
窅	-12.2529
衎	-12.2529
殪	-12.253
鍪	-12.2531
珩	-12.2532
菅	-12.2533
碭	-12.2533
渦	-12.2534
棐	-12.2534
滹	-12.2534
蒻	-12.2539
佺	-12.254
縋	-12.254
諉	-12.2541
淒	-12.2541
鞦	-12.2541
抒	-12.2542
璡	-12.2546
莠	-12.2548
醍	-12.255
町	-12.2664
筥	-12.2666
糲	-12.2667
抝	-12.2669
櫂	-12.2672
眊	-12.2674
廙	-12.2675
榱	-12.2675
濰	-12.2677
秭	-12.2677
偵	-12.2678
臏	-12.268
劓	-12.268
剗	-12.268
卸	-12.2681
賙	-12.2681
烱	-12.2682
餼	-12.2684
暠	-12.2685
觝	-12.2686
児	-12.2686
壚	-12.2686
戛	-12.2686
仭	-12.2687
螣	-12.2688
翛	-12.2688
卲	-12.2689
糺	-12.269
緲	-12.2691
揔	-12.2692
篷	-12.2693
㯶	-12.2698
灃	-12.2805
巂	-12.2819
椁	-12.2824
眦	-12.2826
灝	-12.2828
蕞	-12.2831
𬒳	-12.2832
獐	-12.2833
痴	-12.2833
眎	-12.2835
醵	-12.2836
暌	-12.2836
埴	-12.2837
嫚	-12.2838
撩	-12.2838
宄	-12.2838
挟	-12.2842
畹	-12.2843
灤	-12.2846
斁	-12.2847
皤	-12.2851
簸	-12.2854
奘	-12.2856
鞞	-12.298
狒	-12.2984
暱	-12.2985
蜮	-12.299
掞	-12.2991
嚕	-12.2991
聒	-12.2992
籓	-12.2992
咲	-12.2992
嗛	-12.2992
爹	-12.2993
絆	-12.2993
僨	-12.2994
蒹	-12.2996
蓿	-12.2997
婣	-12.2997
衽	-12.2999
鸎	-12.2999
崗	-12.3001
蟒	-12.3006
鋩	-12.301
嫖	-12.3018
闐	-12.3101
㢧	-12.3128
!	-12.3137
喆	-12.314
魘	-12.3142
摠	-12.3144
摛	-12.3146
椑	-12.3146
悝	-12.3146
腿	-12.3146
閴	-12.3149
柷	-12.315
厝	-12.3151
崤	-12.3153
蓽	-12.3153
蒟	-12.3153
苡	-12.3153
冄	-12.3153
恁	-12.3154
頏	-12.3155
髏	-12.3155
㫤	-12.3156
湟	-12.3156
囓	-12.3157
㩁	-12.3159
懃	-12.3159
𨗳	-12.316
扑	-12.3161
謇	-12.3163
垞	-12.3167
蘅	-12.3168
党	-12.3168
琉	-12.3172
頊	-12.3295
棍	-12.3299
噎	-12.3307
邽	-12.3311
瀰	-12.3312
㾗	-12.3313
遘	-12.3313
龠	-12.3313
嚚	-12.3313
鶂	-12.3313
詼	-12.3314
芙	-12.3315
鸝	-12.3315
轟	-12.3316
牂	-12.3317
兗	-12.3317
鷟	-12.3317
搴	-12.3317
賻	-12.3318
嚭	-12.3318
湔	-12.332
胯	-12.332
芑	-12.3321
蹌	-12.3322
瘥	-12.3324
瑒	-12.3324
鏑	-12.3324
捄	-12.3324
韈	-12.3325
厎	-12.3325
𤼵	-12.3327
襌	-12.3462
蹷	-12.3463
緗	-12.3463
噤	-12.3464
洿	-12.3465
枲	-12.3466
埏	-12.3468
罝	-12.3469
䏰	-12.347
懴	-12.3471
秖	-12.3473
躐	-12.3474
捭	-12.3476
葳	-12.3476
苫	-12.3476
喀	-12.3477
凈	-12.3478
殍	-12.348
泫	-12.3482
筏	-12.3482
挐	-12.3483
榕	-12.3483
糵	-12.3484
毯	-12.3485
祲	-12.3485
蚕	-12.3487
齪	-12.3487
痊	-12.3489
憨	-12.3627
饘	-12.3636
揵	-12.3637
鄶	-12.3637
篚	-12.3639
畬	-12.364
錙	-12.364
鑛	-12.364
錘	-12.3642
唧	-12.3643
蓂	-12.3644
陲	-12.3644
鰌	-12.3644
蹀	-12.3645
慳	-12.3645
瘢	-12.3646
攙	-12.3648
紉	-12.3649
竑	-12.3651
罈	-12.3652
醐	-12.3658
橅	-12.3659
戔	-12.3786
眾	-12.3793
楣	-12.3794
鞶	-12.3797
瑇	-12.3801
愎	-12.3802
摽	-12.3805
驊	-12.3805
獼	-12.3806
晤	-12.3806
倮	-12.3808
撝	-12.3811
隃	-12.3811
怎	-12.3812
箧	-12.3812
楛	-12.3812
邶	-12.3813
晢	-12.3813
澇	-12.3815
蟣	-12.3815
眙	-12.3815
尭	-12.3815
纜	-12.3816
櫽	-12.3817
俑	-12.3817
邰	-12.3818
噍	-12.3818
珞	-12.3819
鼙	-12.3819
畛	-12.382
疚	-12.3825
菼	-12.3826
曦	-12.383
咫	-12.3833
礜	-12.3833
簴	-12.3968
璪	-12.3973
􁁚	-12.3974
邛	-12.3974
吮	-12.3974
倜	-12.3976
棫	-12.3979
簻	-12.3981
扳	-12.3981
跬	-12.3983
嫋	-12.3984
㟁	-12.3984
棓	-12.3984
默	-12.3985
締	-12.3987
豊	-12.3988
篪	-12.3991
鑲	-12.3991
髑	-12.3992
鋹	-12.3992
璀	-12.3993
雱	-12.3993
芩	-12.3994
蒞	-12.3996
梏	-12.3998
泲	-12.3999
臛	-12.4003
陡	-12.4006
欸	-12.4133
埭	-12.4144
蘘	-12.4147
霰	-12.4149
蟈	-12.415
刅	-12.4152
掐	-12.4152
摇	-12.4154
櫜	-12.4155
頔	-12.4155
簣	-12.4157
薌	-12.4157
啚	-12.4158
軄	-12.4158
鐍	-12.4158
瞀	-12.4161
狻	-12.4162
搦	-12.4163
瓴	-12.4163
匈	-12.4164
靨	-12.4165
澒	-12.4166
顱	-12.4166
轢	-12.4166
泐	-12.4166
灔	-12.4166
跟	-12.4166
䆒	-12.4167
稈	-12.4169
婪	-12.4171
蚶	-12.4171
挨	-12.4172
棕	-12.4172
靠	-12.4174
攔	-12.4174
禖	-12.4181
哮	-12.4185
㫰	-12.4198
挏	-12.4299
鍰	-12.4324
檇	-12.4326
隤	-12.4328
嗑	-12.4329
薳	-12.4332
机	-12.4334
栩	-12.4334
瓻	-12.4337
玖	-12.4337
朦	-12.4338
畮	-12.4338
蹔	-12.4338
狨	-12.4338
𦕈	-12.4339
煽	-12.4341
柹	-12.4341
廚	-12.4342
荈	-12.4342
鏹	-12.4342
諝	-12.4342
馘	-12.4343
瓔	-12.4344
頎	-12.4344
晰	-12.4345
柎	-12.4346
唳	-12.4348
麕	-12.4349
擂	-12.435
敔	-12.4351
梃	-12.4352
臞	-12.4353
欖	-12.4355
痞	-12.4355
翣	-12.4357
錚	-12.4357
坋	-12.4361
蜊	-12.4361
孱	-12.4501
鷸	-12.4507
捽	-12.4509
鋌	-12.451
戅	-12.4514
罘	-12.4514
徉	-12.4514
寀	-12.4515
璅	-12.4516
髹	-12.4517
膻	-12.4517
惘	-12.4518
粃	-12.4519
斆	-12.4519
騂	-12.4521
秒	-12.4522
畒	-12.4523
坰	-12.4523
蕘	-12.4523
慱	-12.4523
稲	-12.4524
噩	-12.4525
酲	-12.4525
縚	-12.4526
涒	-12.4528
翃	-12.4528
璁	-12.4529
殱	-12.4529
紼	-12.4531
刲	-12.4533
垍	-12.4534
茜	-12.4534
纘	-12.4537
杆	-12.4542
瓤	-12.4551
与	-12.4655
襜	-12.4682
蔀	-12.4694
晅	-12.4697
腆	-12.4698
暍	-12.4699
拇	-12.4702
櫳	-12.4702
袐	-12.4703
歔	-12.4704
珽	-12.4705
韡	-12.4705
坻	-12.4705
睥	-12.4706
巋	-12.4706
澂	-12.4707
鈸	-12.4707
駛	-12.4708
椶	-12.4708
竢	-12.4708
㦷	-12.4709
跎	-12.471
謩	-12.471
闓	-12.4711
芨	-12.4711
輭	-12.4713
踦	-12.4714
咈	-12.4714
枰	-12.4716
郕	-12.4717
篛	-12.4718
脰	-12.4719
蓆	-12.472
礴	-12.4723
臙	-12.4724
娵	-12.4877
睇	-12.4878
荊	-12.4887
怍	-12.4889
虖	-12.4889
蹏	-12.4891
橦	-12.4892
妳	-12.4893
頁	-12.4893
瑯	-12.4893
沭	-12.4894
䓁	-12.4895
総	-12.4896
擴	-12.4896
珎	-12.4899
悻	-12.49
貔	-12.4901
藳	-12.4902
雯	-12.4902
琱	-12.4904
倀	-12.4905
㦯	-12.4905
蓀	-12.4906
釗	-12.4907
桄	-12.4915
儤	-12.5051
嫪	-12.5057
銃	-12.5066
耋	-12.507
珧	-12.5072
櫨	-12.5076
嗽	-12.5077
頫	-12.5079
淦	-12.508
胆	-12.508
捃	-12.5081
笮	-12.5081
鶒	-12.5084
潏	-12.5087
玅	-12.5087
遴	-12.5087
斸	-12.5089
鯿	-12.5089
憙	-12.5089
斲	-12.509
閶	-12.5091
襠	-12.5091
媾	-12.5092
摰	-12.5092
縂	-12.5092
鵶	-12.5093
鍔	-12.5094
篔	-12.5094
涘	-12.5096
賖	-12.5097
瑑	-12.5098
鵜	-12.5099
嵒	-12.5099
荑	-12.5101
淩	-12.5263
橡	-12.5271
楝	-12.5273
軹	-12.5274
咤	-12.5276
瑱	-12.5278
鷲	-12.528
藟	-12.528
甖	-12.528
莵	-12.528
燐	-12.528
頳	-12.5282
飰	-12.5284
巘	-12.5284
䆳	-12.5286
霈	-12.5288
畯	-12.5289
隈	-12.5289
弹	-12.529
柁	-12.529
嬈	-12.5291
熄	-12.5292
秧	-12.5292
遄	-12.5293
蔔	-12.5295
臈	-12.5298
鼯	-12.5299
苣	-12.5302
伷	-12.5318
睪	-12.5459
穡	-12.5468
呴	-12.5469
鮎	-12.547
繻	-12.5472
疹	-12.5476
芊	-12.5477
鵙	-12.5479
幺	-12.5481
鸂	-12.5481
涅	-12.5481
蒍	-12.5482
譟	-12.5482
緍	-12.5482
篝	-12.5483
纚	-12.5483
熠	-12.5484
翀	-12.5484
帟	-12.5486
炕	-12.5487
埤	-12.5489
圮	-12.5489
筞	-12.5489
螂	-12.549
亰	-12.5493
蕎	-12.5493
蓊	-12.5497
捋	-12.5499
佼	-12.5499
鳸	-12.5636
鮐	-12.5666
甗	-12.5669
穜	-12.5669
舋	-12.567
糸	-12.5672
摟	-12.5675
斚	-12.5675
淀	-12.5678
睚	-12.5678
饜	-12.5679
攴	-12.5679
撈	-12.5682
鷩	-12.5682
茈	-12.5683
异	-12.5683
峪	-12.5685
閿	-12.5686
踧	-12.5686
㝛	-12.5687
搬	-12.5688
墁	-12.5689
餤	-12.5689
貓	-12.5689
㡳	-12.569
瞥	-12.5691
鵷	-12.5691
贇	-12.5692
擐	-12.5692
姮	-12.5693
霾	-12.5693
蛭	-12.5695
抔	-12.5696
甆	-12.57
顫	-12.5703
犵	-12.571
颸	-12.5713
蹬	-12.5853
蠖	-12.5879
昫	-12.588
綌	-12.5883
眥	-12.5885
鷦	-12.5886
齟	-12.5889
旡	-12.5889
􁏖	-12.5889
䈥	-12.589
鱷	-12.589
頺	-12.5891
崐	-12.5892
蝮	-12.5892
窣	-12.5893
艫	-12.5894
憸	-12.5894
㳙	-12.5894
澦	-12.5894
涴	-12.5895
蘼	-12.5895
蛑	-12.5896
茁	-12.5896
襆	-12.5897
魋	-12.5897
眘	-12.59
鹺	-12.59
魍	-12.5901
䍦	-12.5901
嚬	-12.5903
哦	-12.5905
剙	-12.5905
鞓	-12.5906
蚍	-12.591
𥿄	-12.591
壝	-12.5911
痔	-12.5914
櫪	-12.5917
佽	-12.5922
霣	-12.6066
襞	-12.6095
侖	-12.6097
咋	-12.61
侁	-12.61
簏	-12.6102
鷇	-12.6102
屩	-12.6104
餕	-12.6105
𤾉	-12.6105
褭	-12.6106
覯	-12.6106
閡	-12.6106
鰻	-12.6107
粕	-12.6108
晾	-12.6109
猻	-12.6111
眚	-12.6113
矟	-12.6113
爕	-12.6113
曁	-12.6114
噶	-12.6115
釃	-12.6116
畸	-12.6116
灞	-12.6117
桌	-12.6118
猢	-12.612
彷	-12.612
礲	-12.6121
蠙	-12.6124
娓	-12.6129
煠	-12.6135
洄	-12.6138
毐	-12.6284
厶	-12.6285
瞎	-12.6307
軿	-12.6308
扐	-12.6311
樅	-12.6312
杷	-12.6312
樛	-12.6313
疉	-12.6314
橑	-12.6315
尿	-12.6316
杕	-12.6317
哆	-12.6319
礟	-12.6319
餬	-12.6319
黴	-12.632
齬	-12.632
笭	-12.632
饔	-12.6321
墠	-12.6323
藭	-12.6324
裋	-12.6324
驁	-12.6326
琖	-12.6326
郫	-12.6327
觕	-12.6328
熺	-12.6329
磋	-12.6329
饀	-12.633
荄	-12.6331
硤	-12.6331
紞	-12.6332
蜆	-12.6334
笻	-12.6335
䗶	-12.6335
薯	-12.6336
邙	-12.6336
檳	-12.6336
崕	-12.6339
淙	-12.634
蒭	-12.6341
磵	-12.6342
嫣	-12.6342
撐	-12.6355
鯊	-12.6376
姁	-12.6523
鴽	-12.6523
仡	-12.6523
翌	-12.6529
禴	-12.6531
蠋	-12.6535
尻	-12.6535
鷯	-12.6536
鵪	-12.6536
宀	-12.6536
繅	-12.6537
蜋	-12.6537
芘	-12.6538
毖	-12.6539
瀏	-12.6539
癉	-12.654
䡄	-12.654
詧	-12.6543
棻	-12.6543
觳	-12.6544
笱	-12.6545
鳲	-12.6546
盩	-12.6547
氍	-12.6549
爬	-12.6549
玭	-12.655
夹	-12.655
鮀	-12.655
挲	-12.6551
巗	-12.6551
賺	-12.6551
綆	-12.6551
魎	-12.6552
戣	-12.6552
郾	-12.6552
莩	-12.6553
抺	-12.6553
雊	-12.6553
餔	-12.6554
繢	-12.6555
賸	-12.6555
薙	-12.6555
跼	-12.6557
靸	-12.6557
睠	-12.6558
柂	-12.6559
懊	-12.6561
悤	-12.6564
蹂	-12.6564
杰	-12.6569
緅	-12.6575
䕷	-12.659
氅	-12.6757
嚳	-12.6758
飥	-12.6761
袷	-12.6762
雚	-12.6765
佻	-12.6765
濆	-12.6766
堨	-12.6768
迻	-12.6769
薢	-12.677
琊	-12.677
砮	-12.6771
棼	-12.6772
洫	-12.6772
覷	-12.6773
鄄	-12.6773
隹	-12.6774
聱	-12.6774
杌	-12.6776
鄺	-12.6778
堠	-12.6779
伾	-12.678
𣏌	-12.678
櫞	-12.6781
剜	-12.6782
柈	-12.6787
茋	-12.6787
汐	-12.6787
䧏	-12.6788
両	-12.6789
尠	-12.6791
萁	-12.6792
苒	-12.6794
鄫	-12.6795
籹	-12.6797
耏	-12.6977
糈	-12.699
紾	-12.6991
𧦬	-12.6993
袟	-12.6996
晧	-12.6996
疣	-12.6996
躇	-12.6997
泆	-12.6998
掎	-12.7
綣	-12.7002
欬	-12.7002
萹	-12.7003
喁	-12.7003
徬	-12.7005
磑	-12.7006
悮	-12.7007
啣	-12.7007
矇	-12.7007
磷	-12.7008
鴂	-12.7008
棬	-12.7009
蘊	-12.7011
裀	-12.7012
䗫	-12.7012
臝	-12.7013
壖	-12.7013
鉸	-12.7013
僥	-12.7013
懟	-12.7014
狁	-12.7014
劌	-12.7014
尙	-12.7015
獒	-12.7015
鬃	-12.7017
搯	-12.7018
嗷	-12.7018
罋	-12.7021
泪	-12.7024
癯	-12.7027
匽	-12.7031
瓏	-12.7035
姞	-12.7222
貙	-12.7223
嚇	-12.7229
嘵	-12.7233
鄗	-12.7237
轝	-12.7238
蠐	-12.724
颿	-12.724
鄩	-12.724
藎	-12.7242
郿	-12.7243
栲	-12.7243
氈	-12.7243
瓈	-12.7243
栅	-12.7243
耑	-12.7243
駈	-12.7244
楗	-12.7244
酗	-12.7245
耰	-12.7245
芃	-12.7246
麂	-12.7248
鉶	-12.7248
鴒	-12.7249
帨	-12.7249
剄	-12.725
䳌	-12.725
拷	-12.725
縧	-12.7251
犴	-12.7251
篴	-12.7252
劘	-12.7255
縗	-12.7256
絇	-12.7258
樾	-12.7259
砍	-12.7259
瓿	-12.7259
褉	-12.7261
瞶	-12.7262
榧	-12.7263
瀼	-12.7264
螃	-12.7264
鍍	-12.728
褕	-12.747
甍	-12.7471
􁔆	-12.7472
勍	-12.748
噦	-12.748
癃	-12.7482
靁	-12.7482
<	-12.7482
柤	-12.7484
t	-12.7484
滻	-12.7487
嫄	-12.7489
餂	-12.7489
彜	-12.7489
趕	-12.7489
麑	-12.749
獎	-12.749
佖	-12.7491
𫀆	-12.7491
瘍	-12.7493
蒋	-12.7494
踶	-12.7495
𠖇	-12.7496
碟	-12.7496
槱	-12.7496
瀍	-12.7496
灊	-12.7497
崢	-12.7497
蘗	-12.7498
陴	-12.75
湓	-12.7501
裛	-12.7503
篘	-12.7507
蜒	-12.7508
軺	-12.7709
膢	-12.7714
玃	-12.7719
絁	-12.7722
麛	-12.7725
鄔	-12.7727
璚	-12.7732
紲	-12.7733
篹	-12.7733
淝	-12.7734
𥙿	-12.7735
覦	-12.7737
靛	-12.7738
邲	-12.7739
詖	-12.7739
蝣	-12.774
侄	-12.774
剸	-12.774
湄	-12.7742
杠	-12.7742
瀬	-12.7742
洑	-12.7744
戹	-12.7744
憧	-12.7747
跑	-12.7747
劚	-12.7748
鷴	-12.7749
麒	-12.775
痼	-12.775
碏	-12.7751
瘵	-12.7752
澥	-12.7753
粽	-12.776
狫	-12.7765
蓉	-12.7767
菡	-12.7767
縲	-12.7974
筲	-12.7978
:	-12.7979
踝	-12.7986
鳻	-12.7987
鵕	-12.7987
韮	-12.7988
溽	-12.799
擄	-12.7991
螬	-12.7991
㶚	-12.7991
慼	-12.7992
閧	-12.7993
攖	-12.7993
倆	-12.7993
靦	-12.7995
纇	-12.7995
臊	-12.7996
鰐	-12.7996
狖	-12.7997
狴	-12.7998
鼾	-12.7998
騙	-12.7999
倬	-12.7999
尫	-12.8
徯	-12.8
瘤	-12.8
洊	-12.8001
孀	-12.8001
瞷	-12.8003
嵎	-12.8003
㝡	-12.8003
幌	-12.8004
暐	-12.8005
稳	-12.8006
闤	-12.8007
宷	-12.8007
邜	-12.8008
箄	-12.8008
弰	-12.8008
吒	-12.801
薝	-12.8011
㨂	-12.8011
箝	-12.8013
籮	-12.8016
胼	-12.802
欿	-12.8026
㮚	-12.8237
裵	-12.8237
梲	-12.8243
朅	-12.8243
濌	-12.8244
丱	-12.8246
檉	-12.8246
卨	-12.8246
㬰	-12.8249
稧	-12.825
肜	-12.825
隍	-12.8251
斿	-12.8251
蜑	-12.8252
閾	-12.8254
煗	-12.8254
鮭	-12.8254
嶢	-12.8254
玘	-12.8255
䌓	-12.8255
絪	-12.8255
泑	-12.8255
蓰	-12.8256
蝀	-12.8256
罡	-12.8257
瞪	-12.8257
茇	-12.8258
蚳	-12.8258
峡	-12.8259
瘕	-12.8259
嬸	-12.826
鈃	-12.826
羇	-12.8261
膿	-12.8262
苾	-12.8262
蚪	-12.8263
鷥	-12.8263
炰	-12.8264
籲	-12.8264
㽞	-12.8265
份	-12.8268
腓	-12.8268
嬋	-12.8268
乩	-12.8268
呫	-12.8268
傪	-12.827
牯	-12.8271
闠	-12.8271
柅	-12.8272
憬	-12.8272
賍	-12.8273
鱔	-12.8274
鬐	-12.8276
薿	-12.8279
鏒	-12.8281
悱	-12.8282
鸒	-12.8298
籧	-12.8487
凊	-12.8497
鴘	-12.8498
掔	-12.85
厙	-12.851
曌	-12.8511
柙	-12.8513
媟	-12.8514
鞔	-12.8514
茩	-12.8515
痤	-12.8517
韎	-12.8518
琹	-12.8521
虔	-12.8521
坳	-12.8522
佰	-12.8524
幫	-12.8524
沍	-12.8524
緌	-12.8524
忉	-12.8526
臀	-12.8527
眯	-12.8527
磻	-12.8527
諢	-12.8528
㪅	-12.8528
桉	-12.8528
賕	-12.8529
賨	-12.8529
膞	-12.853
燻	-12.8531
謻	-12.8531
肫	-12.8531
䖟	-12.8531
揠	-12.8532
塌	-12.8532
嵋	-12.8532
龢	-12.8533
黟	-12.8533
届	-12.8535
唤	-12.8535
蛸	-12.8535
逭	-12.8536
鋟	-12.8536
杙	-12.8536
旟	-12.8536
嫠	-12.8537
楼	-12.8537
渰	-12.8537
慇	-12.8538
屺	-12.8538
鼕	-12.8539
躞	-12.8539
腯	-12.8539
綮	-12.8539
掄	-12.8543
壼	-12.8543
矚	-12.8544
娜	-12.8544
蓯	-12.8545
馹	-12.8546
媼	-12.8546
琥	-12.8546
塍	-12.8547
凳	-12.8548
諲	-12.855
楬	-12.8552
箾	-12.8788
籒	-12.8792
苽	-12.8793
鎌	-12.8797
頠	-12.8799
偸	-12.8799
醺	-12.88
敧	-12.88
勷	-12.88
澨	-12.8801
䆃	-12.8801
闑	-12.8802
鏖	-12.8803
鱄	-12.8803
賵	-12.8803
魫	-12.8805
彄	-12.8805
呶	-12.8806
漶	-12.8806
甡	-12.8806
狭	-12.8807
誖	-12.8807
妊	-12.8807
痘	-12.8807
讟	-12.8808
溈	-12.8809
嫻	-12.8809
褙	-12.8809
琵	-12.8811
繰	-12.8811
矗	-12.8811
窬	-12.8812
溯	-12.8813
岧	-12.8813
饞	-12.8813
焞	-12.8813
諴	-12.8814
型	-12.8815
茷	-12.8815
噓	-12.8815
灕	-12.8816
褪	-12.8818
禡	-12.8819
舀	-12.8819
箵	-12.8819
脗	-12.8819
訿	-12.882
鶹	-12.8821
廛	-12.8822
珤	-12.8823
熯	-12.8824
醲	-12.8824
擫	-12.8825
聵	-12.8826
癬	-12.8826
朧	-12.8826
㰖	-12.8829
胏	-12.9043
郜	-12.9076
鶖	-12.9079
㴱	-12.9079
麃	-12.908
荐	-12.9081
芭	-12.9081
鄤	-12.9082
傒	-12.9084
謖	-12.9085
纉	-12.9086
渟	-12.9086
厔	-12.9086
儵	-12.9086
蕕	-12.9087
釂	-12.9088
獮	-12.9089
綖	-12.9089
硇	-12.9089
歜	-12.909
椘	-12.9092
迕	-12.9092
芧	-12.9093
鵾	-12.9093
鰣	-12.9093
罥	-12.9094
刦	-12.9094
惚	-12.9095
皖	-12.9095
遅	-12.9095
鐔	-12.9095
蜞	-12.9095
皦	-12.9095
濙	-12.9096
𣆀	-12.9096
唁	-12.9097
澌	-12.9099
逯	-12.9101
砒	-12.9102
嗾	-12.9102
窋	-12.9102
㠯	-12.9105
媫	-12.9107
鏜	-12.9107
悃	-12.9107
栟	-12.9108
㹠	-12.911
桕	-12.911
佶	-12.9111
甿	-12.9111
橄	-12.9112
豌	-12.9113
喃	-12.9118
篨	-12.9342
槭	-12.9351
虒	-12.9363
鯫	-12.9364
贔	-12.9367
蜼	-12.9371
蕳	-12.9372
搓	-12.9372
栻	-12.9373
沲	-12.9375
恝	-12.9375
寉	-12.9375
驃	-12.9375
佹	-12.9376
骼	-12.9377
囁	-12.9377
筤	-12.9377
𦍑	-12.9378
鑣	-12.9379
犨	-12.9379
唘	-12.9379
腭	-12.938
踽	-12.9381
韍	-12.9381
僰	-12.9381
繐	-12.9381
迮	-12.9382
矻	-12.9383
樺	-12.9383
䧺	-12.9383
槮	-12.9384
矰	-12.9384
蹯	-12.9385
樝	-12.9385
䌫	-12.9386
躊	-12.9386
謌	-12.9386
唃	-12.9386
廞	-12.9387
㗋	-12.9388
痍	-12.9388
鵂	-12.9388
鶠	-12.9389
琶	-12.939
阱	-12.939
膴	-12.9391
疴	-12.9392
釅	-12.9393
㳫	-12.9393
衊	-12.9394
呬	-12.9394
獫	-12.9395
䐑	-12.9397
芍	-12.9398
靼	-12.9398
熳	-12.9398
扯	-12.9398
磽	-12.9399
渼	-12.94
圛	-12.94
萟	-12.94
妤	-12.9401
㳒	-12.9403
纏	-12.9404
羖	-12.9404
麇	-12.9404
韉	-12.9404
獷	-12.9405
餈	-12.9405
罁	-12.9412
萵	-12.942
譊	-12.9653
溠	-12.9656
簍	-12.9661
褻	-12.9671
搤	-12.9671
彡	-12.9673
軏	-12.9674
痟	-12.9675
偘	-12.9676
浞	-12.968
桯	-12.968
褎	-12.9681
倞	-12.9682
舳	-12.9683
㐲	-12.9683
誶	-12.9684
傖	-12.9685
鋋	-12.9685
螾	-12.9685
裱	-12.9687
袚	-12.9688
昳	-12.9688
胛	-12.9689
髽	-12.9689
歧	-12.969
轑	-12.9691
䜌	-12.9693
徜	-12.9693
隟	-12.9693
簹	-12.9693
懍	-12.9694
尔	-12.9695
頮	-12.9695
顇	-12.9695
聪	-12.9696
断	-12.9696
杬	-12.9696
颷	-12.9697
嫰	-12.9697
篲	-12.9697
楩	-12.9697
媮	-12.9697
嘈	-12.9698
撙	-12.9698
㝢	-12.9699
瑠	-12.9703
鵓	-12.9704
臕	-12.9705
颼	-12.9705
撅	-12.9705
輊	-12.9706
蕷	-12.9706
倔	-12.9708
巇	-12.9714
珀	-12.9721
齏	-12.9726
縐	-12.997
蒩	-12.997
誾	-12.9971
亙	-12.9973
唫	-12.9974
鋗	-12.9975
盉	-12.9979
嘽	-12.998
蛋	-12.998
啐	-12.9986
坌	-12.9989
稌	-12.9991
泇	-12.9991
忡	-12.9992
䍧	-12.9993
鸑	-12.9993
砦	-12.9993
駃	-12.9994
蜎	-12.9994
琇	-12.9996
穟	-12.9997
滃	-12.9997
恫	-12.9997
劎	-12.9997
騑	-12.9998
蝡	-13
鬒	-13
䆫	-13.0002
煴	-13.0002
洳	-13.0003
庋	-13.0003
㓨	-13.0003
艤	-13.0003
濇	-13.0004
旹	-13.0004
耉	-13.0004
壌	-13.0005
拚	-13.0005
矞	-13.0006
敳	-13.0008
箑	-13.0008
站	-13.001
抇	-13.001
櫸	-13.0011
洺	-13.0012
祴	-13.0012
洱	-13.0013
鏟	-13.0013
晻	-13.0014
芄	-13.0014
幞	-13.0016
汸	-13.0016
綍	-13.0016
幬	-13.0017
虯	-13.0017
珵	-13.0017
盫	-13.0017
萆	-13.0018
耍	-13.0018
泱	-13.002
醻	-13.0026
踔	-13.0035
枮	-13.0287
牏	-13.0296
絅	-13.0297
譸	-13.0297
繦	-13.0299
蝘	-13.0306
揎	-13.0308
篸	-13.031
戇	-13.0312
枌	-13.0313
鮦	-13.0313
稑	-13.0314
圩	-13.0315
逑	-13.0315
坯	-13.0316
斮	-13.0316
鮝	-13.0316
鷫	-13.0317
哄	-13.0318
盭	-13.0318
嗢	-13.0319
閈	-13.0321
􁇒	-13.0321
嶁	-13.0322
輶	-13.0322
舷	-13.0323
餧	-13.0323
懔	-13.0323
臑	-13.0323
閠	-13.0323
礧	-13.0324
糅	-13.0324
尢	-13.0324
淏	-13.0325
砢	-13.0326
獰	-13.0326
繂	-13.0327
鵁	-13.0328
鼫	-13.0328
螖	-13.0328
韐	-13.0329
槗	-13.0329
窨	-13.033
酩	-13.0331
撏	-13.0331
鱧	-13.0331
靶	-13.0332
䣜	-13.0332
旉	-13.0332
倂	-13.0334
銹	-13.0334
訒	-13.0334
簔	-13.0335
咻	-13.0336
葠	-13.0336
鑷	-13.0337
淲	-13.0337
穪	-13.0337
趁	-13.0337
焜	-13.0337
漓	-13.0339
騭	-13.0341
筳	-13.0342
椏	-13.0343
獪	-13.0345
㷀	-13.0345
踉	-13.0348
蝍	-13.063
桁	-13.0634
蓧	-13.0634
愞	-13.0635
䵷	-13.0636
蠁	-13.0641
齦	-13.0643
狌	-13.0644
驀	-13.0646
呿	-13.0646
驘	-13.0647
蟇	-13.0647
郼	-13.0648
洼	-13.0649
詗	-13.0649
黧	-13.0649
黮	-13.065
継	-13.065
禩	-13.065
轔	-13.0652
葽	-13.0653
帀	-13.0653
庿	-13.0653
踖	-13.0654
珦	-13.0654
鷊	-13.0654
鍬	-13.0657
蝱	-13.0657
疢	-13.0658
羝	-13.0658
鄯	-13.0659
鐲	-13.0659
蝌	-13.0659
佀	-13.0659
黶	-13.066
轘	-13.066
芣	-13.0661
瑊	-13.0661
狶	-13.0661
醨	-13.0662
槳	-13.0662
窊	-13.0663
蜣	-13.0664
墼	-13.0664
癎	-13.0665
胖	-13.0665
卺	-13.0665
瞠	-13.0666
窽	-13.0666
鶺	-13.0667
􁰽	-13.0669
尒	-13.0669
哽	-13.067
醑	-13.0671
叮	-13.0672
癲	-13.0674
朮	-13.0675
澎	-13.0676
枇	-13.0681
昞	-13.0681
釦	-13.0972
骫	-13.0975
紒	-13.0979
葚	-13.098
窕	-13.0984
袛	-13.0985
褧	-13.0986
桺	-13.0989
絓	-13.099
寑	-13.099
奡	-13.0991
蹰	-13.0992
杇	-13.0992
鬷	-13.0993
怫	-13.0993
黈	-13.0994
确	-13.0995
虓	-13.0996
瑚	-13.0996
嘑	-13.0997
杻	-13.0998
褌	-13.0998
玢	-13.0998
辵	-13.0999
薅	-13.0999
埓	-13.0999
澱	-13.1
咆	-13.1001
痁	-13.1001
嘷	-13.1002
昪	-13.1002
灄	-13.1002
芫	-13.1003
絍	-13.1003
鶵	-13.1004
蕝	-13.1004
卹	-13.1004
崎	-13.1006
牗	-13.1006
㒒	-13.1006
渫	-13.1006
蚺	-13.1007
娉	-13.1007
蹐	-13.1007
騅	-13.1008
饟	-13.1008
㮣	-13.1008
爱	-13.101
儐	-13.101
硾	-13.101
芉	-13.1011
嫵	-13.1011
擭	-13.1011
鍠	-13.1011
橊	-13.1012
䡖	-13.1013
瓛	-13.1014
钁	-13.1014
趄	-13.1014
犦	-13.1019
㕦	-13.1022
厺	-13.1022
墐	-13.1029
奶	-13.1031
媞	-13.1032
恇	-13.1034
蓓	-13.1038
瞢	-13.105
骳	-13.1324
牁	-13.1337
鈷	-13.1341
􁇲	-13.1341
薶	-13.1342
􁸘	-13.1342
籛	-13.1342
硎	-13.1344
傕	-13.1344
徔	-13.1345
栱	-13.1345
蒱	-13.1348
謷	-13.1348
疃	-13.135
广	-13.1351
讕	-13.1351
穄	-13.1351
飂	-13.1352
祏	-13.1352
巏	-13.1352
捎	-13.1352
腠	-13.1352
鈒	-13.1353
楶	-13.1353
毌	-13.1353
䔩	-13.1354
劻	-13.1354
繾	-13.1354
讋	-13.1354
鱘	-13.1355
醳	-13.1355
漙	-13.1356
唄	-13.1356
蘢	-13.1356
呱	-13.1356
嶰	-13.1356
㙔	-13.1357
桎	-13.1357
囤	-13.1357
鏌	-13.1357
䢴	-13.1357
騧	-13.1357
蓏	-13.1358
衺	-13.1358
吭	-13.1359
騄	-13.1359
槲	-13.136
鱮	-13.136
泜	-13.136
醆	-13.136
丫	-13.1361
鶄	-13.1361
碪	-13.1362
檛	-13.1363
磈	-13.1364
蠓	-13.1364
隩	-13.1365
昷	-13.1365
燁	-13.1365
儇	-13.1366
猩	-13.1366
嚻	-13.1367
疝	-13.1368
炅	-13.1369
鞚	-13.137
硼	-13.1372
囈	-13.1372
獗	-13.1372
㙮	-13.1374
鵑	-13.1375
渢	-13.1377
畞	-13.1379
洚	-13.138
莓	-13.1382
秅	-13.1692
儛	-13.1692
塿	-13.1696
屭	-13.1701
茢	-13.1703
洸	-13.1706
蜾	-13.1709
韝	-13.1713
峕	-13.1714
觿	-13.1715
凰	-13.1716
摴	-13.1717
簺	-13.1717
很	-13.1718
尗	-13.172
鴇	-13.1722
綳	-13.1723
𬎼	-13.1723
饐	-13.1723
㜑	-13.1725
愒	-13.1725
鞀	-13.1726
崘	-13.1726
襮	-13.1726
𥚹	-13.1726
呷	-13.1727
搊	-13.1727
卝	-13.1727
鬍	-13.1727
厖	-13.1728
秸	-13.1728
菻	-13.1728
珈	-13.1728
攏	-13.1728
牣	-13.1729
鼬	-13.1729
岵	-13.1729
鷖	-13.173
扅	-13.173
甽	-13.173
猳	-13.173
鹻	-13.1732
䦧	-13.1732
鬨	-13.1733
滏	-13.1733
胚	-13.1733
䴊	-13.1733
惣	-13.1734
剟	-13.1734
蚨	-13.1735
龡	-13.1735
坏	-13.1735
晬	-13.1735
淥	-13.1736
酊	-13.1736
朒	-13.1736
啑	-13.1736
惨	-13.1737
扊	-13.1738
眹	-13.1738
僱	-13.1738
迯	-13.1738
緄	-13.1739
枿	-13.174
匳	-13.1741
縌	-13.1741
䥫	-13.1741
罾	-13.1742
齷	-13.1743
爚	-13.1744
嫓	-13.1745
唼	-13.1746
弝	-13.1747
毡	-13.1749
蓁	-13.1749
汃	-13.175
鰍	-13.175
殼	-13.1755
桅	-13.1761
粔	-13.1763
稂	-13.1764
䅻	-13.2035
䵬	-13.2064
稯	-13.2068
咍	-13.2074
冘	-13.2075
秺	-13.2077
亖	-13.2087
郪	-13.2089
䲹	-13.209
䏶	-13.2091
藨	-13.2091
檗	-13.2096
焱	-13.2097
潬	-13.2098
鮧	-13.2099
湃	-13.21
餺	-13.2101
踟	-13.2103
橢	-13.2104
圊	-13.2104
浟	-13.2105
葯	-13.2106
痎	-13.2107
嚄	-13.2107
呀	-13.2109
枘	-13.2109
酏	-13.2109
泂	-13.2111
豭	-13.2111
籞	-13.2112
㰱	-13.2113
曛	-13.2113
蹵	-13.2113
賠	-13.2113
画	-13.2113
弢	-13.2114
餚	-13.2114
薁	-13.2115
蠹	-13.2116
醸	-13.2117
裩	-13.2117
顦	-13.2117
蟊	-13.2117
諟	-13.2117
闒	-13.2117
柸	-13.2117
朘	-13.2117
宁	-13.2118
蛹	-13.2118
獍	-13.2119
躄	-13.2119
鏄	-13.2119
觖	-13.2119
溍	-13.2119
䒶	-13.2119
姣	-13.2119
􁆡	-13.2121
遝	-13.2124
逴	-13.2129
旊	-13.2129
􁣈	-13.213
贉	-13.2131
糚	-13.2131
淯	-13.2133
暾	-13.2142
侠	-13.2144
憖	-13.2146
湆	-13.2148
欓	-13.2449
鵄	-13.2482
窱	-13.2484
囦	-13.2486
韤	-13.2487
緰	-13.249
箘	-13.2491
幪	-13.2491
悢	-13.2492
眡	-13.2492
駉	-13.2498
仟	-13.2499
贙	-13.25
猒	-13.25
彳	-13.2501
頟	-13.2502
沜	-13.2504
簜	-13.2504
鞌	-13.2505
戻	-13.2506
諏	-13.2507
蚑	-13.2507
􁚿	-13.2508
屝	-13.2508
洌	-13.2508
澍	-13.2509
𠡠	-13.2509
姫	-13.251
橰	-13.251
壷	-13.251
胾	-13.2511
堁	-13.2512
傜	-13.2513
敭	-13.2513
禨	-13.2513
爌	-13.2514
廁	-13.2514
洓	-13.2514
忭	-13.2515
搘	-13.2515
妯	-13.2515
繽	-13.2516
跽	-13.2516
禔	-13.2517
煚	-13.2517
蕒	-13.2518
瘋	-13.2518
枓	-13.2519
剴	-13.252
蟛	-13.2521
趵	-13.2521
叜	-13.2521
姍	-13.2522
瘼	-13.2522
埰	-13.2522
曕	-13.2523
屧	-13.2523
笪	-13.2523
廆	-13.2524
沚	-13.2525
屡	-13.2525
罃	-13.2526
嶤	-13.2526
噂	-13.2527
滫	-13.2529
䣙	-13.2529
旎	-13.253
𤯝	-13.2533
𣢾	-13.2534
廳	-13.2536
霿	-13.2536
杘	-13.2537
碌	-13.2537
珓	-13.2538
菠	-13.2539
菇	-13.2544
絻	-13.2555
詻	-13.2556
嫕	-13.2582
膁	-13.2863
螉	-13.2877
菏	-13.2889
阽	-13.2891
葰	-13.2892
「	-13.2903
鐐	-13.2905
簁	-13.2909
踆	-13.2911
􁆁	-13.2911
鰂	-13.2917
媢	-13.2917
觽	-13.2919
僃	-13.292
闉	-13.2921
㕛	-13.2921
袱	-13.2921
㢮	-13.2922
彴	-13.2923
歊	-13.2923
睒	-13.2923
惛	-13.2923
牸	-13.2924
曈	-13.2924
咥	-13.2924
寞	-13.2925
薉	-13.2925
簨	-13.2926
臿	-13.2926
爟	-13.2926
姆	-13.2926
崦	-13.2927
宬	-13.2927
遫	-13.2927
踳	-13.2929
嶔	-13.2929
盔	-13.293
菆	-13.293
啁	-13.2931
眭	-13.2931
怜	-13.2932
灧	-13.2932
鄱	-13.2933
罳	-13.2933
憺	-13.2933
㢠	-13.2933
氄	-13.2933
壍	-13.2933
帬	-13.2933
琭	-13.2934
韠	-13.2934
蘺	-13.2934
滈	-13.2934
搽	-13.2935
璐	-13.2935
髫	-13.2936
湢	-13.2936
茒	-13.2937
幰	-13.2937
胍	-13.2937
輴	-13.2937
埵	-13.2937
鸊	-13.2938
濘	-13.2938
裓	-13.2938
瀣	-13.2938
痾	-13.2938
惬	-13.2938
喎	-13.2939
鋏	-13.294
媸	-13.294
崒	-13.294
繄	-13.2942
䊷	-13.2942
嶄	-13.2943
贐	-13.2943
厪	-13.2944
甏	-13.2944
趫	-13.2944
蜴	-13.2947
綝	-13.2949
淼	-13.295
琲	-13.2951
簳	-13.2952
翽	-13.2952
蘽	-13.2953
唵	-13.2956
窿	-13.2957
蓞	-13.2957
韲	-13.2958
娀	-13.296
俁	-13.2966
侜	-13.3327
甀	-13.3333
鵽	-13.3333
蔈	-13.3336
旼	-13.3338
穾	-13.3339
騠	-13.3342
鮆	-13.3344
袗	-13.3344
撦	-13.3346
匐	-13.3347
喔	-13.3348
丣	-13.3349
茀	-13.3352
纑	-13.3353
䘚	-13.3354
㲲	-13.3355
堋	-13.3356
歪	-13.3357
蒳	-13.3359
婬	-13.336
囝	-13.336
軛	-13.3361
僾	-13.3361
坪	-13.3361
㫋	-13.3362
卅	-13.3362
徊	-13.3363
坈	-13.3363
暕	-13.3363
邅	-13.3364
襶	-13.3365
噏	-13.3365
窫	-13.3365
褦	-13.3365
騣	-13.3365
筊	-13.3366
楂	-13.3367
胠	-13.3369
輾	-13.3369
拮	-13.3369
䳺	-13.3369
鍚	-13.337
韃	-13.337
竚	-13.337
鑕	-13.337
薾	-13.337
颭	-13.337
仉	-13.3371
倏	-13.3371
幇	-13.3372
蔆	-13.3372
泬	-13.3373
頖	-13.3373
𣪚	-13.3373
胲	-13.3373
軔	-13.3373
𤏡	-13.3374
獞	-13.3374
骭	-13.3374
僎	-13.3374
稺	-13.3375
瀵	-13.3375
辮	-13.3375
桲	-13.3376
价	-13.3378
燹	-13.3378
薍	-13.3378
鼮	-13.3378
𬋩	-13.3378
罣	-13.3379
醁	-13.3382
桿	-13.3382
檮	-13.3383
䓻	-13.3384
貘	-13.3384
顴	-13.3386
浡	-13.339
蠔	-13.3391
熝	-13.3392
蕺	-13.3393
􁙾	-13.3394
騢	-13.3395
澔	-13.3399
蘤	-13.3406
㔬	-13.3777
籸	-13.378
梠	-13.378
葘	-13.3783
咩	-13.3784
禠	-13.379
嗃	-13.379
痏	-13.3793
窯	-13.3794
岠	-13.3795
姹	-13.3795
跱	-13.3803
陿	-13.3804
侶	-13.3806
蟜	-13.3807
牱	-13.3808
竆	-13.381
睎	-13.381
鬴	-13.381
丨	-13.381
軷	-13.3811
糙	-13.3811
瘐	-13.3811
葍	-13.3811
禜	-13.3812
笊	-13.3814
藷	-13.3815
紃	-13.3816
噆	-13.3817
螗	-13.3817
蚧	-13.3817
衕	-13.3818
娌	-13.3818
鄊	-13.3819
嚅	-13.3819
鼗	-13.3819
螄	-13.382
芀	-13.3821
𠞰	-13.3821
稡	-13.3821
凂	-13.3821
駼	-13.3822
慆	-13.3822
鴐	-13.3822
穈	-13.3822
嗉	-13.3823
鮌	-13.3824
笆	-13.3824
嫫	-13.3824
恟	-13.3825
换	-13.3825
翾	-13.3825
佷	-13.3825
搃	-13.3825
尨	-13.3826
榝	-13.3826
塏	-13.3827
曏	-13.3827
麀	-13.3827
鷓	-13.3827
歠	-13.3828
圬	-13.3829
湩	-13.383
軵	-13.383
饎	-13.3831
磅	-13.3832
榅	-13.3832
惔	-13.3832
詶	-13.3833
悈	-13.3833
癱	-13.3833
鏇	-13.3834
􁩌	-13.3834
峘	-13.3835
葪	-13.3836
斕	-13.3837
栭	-13.3837
忼	-13.3837
蚰	-13.3838
嬲	-13.3844
伃	-13.3844
璙	-13.3845
菂	-13.3846
虆	-13.3851
鳱	-13.3851
磕	-13.3853
蜿	-13.3856
棱	-13.3858
􁙆	-13.386
鶿	-13.3862
囅	-13.4237
緵	-13.4244
摎	-13.4249
莬	-13.4255
疈	-13.4256
礼	-13.4268
􁀐	-13.4278
羢	-13.4278
冫	-13.4279
婟	-13.4281
茝	-13.4283
􁛏	-13.4283
鱁	-13.4284
緞	-13.4284
撕	-13.4285
絏	-13.4286
鋝	-13.4286
匊	-13.4287
鄏	-13.4287
㭊	-13.4288
璲	-13.4289
赩	-13.429
漭	-13.429
慴	-13.429
惎	-13.429
攟	-13.4291
楦	-13.4291
歕	-13.4291
芵	-13.4291
鯈	-13.4292
苢	-13.4292
訇	-13.4294
􁇋	-13.4294
薟	-13.4294
龑	-13.4294
仌	-13.4295
丏	-13.4295
趋	-13.4295
摳	-13.4297
騊	-13.4297
􁈍	-13.4297
輗	-13.4297
餖	-13.4298
雰	-13.4299
訏	-13.4299
擗	-13.4299
俵	-13.4299
鞴	-13.4299
佟	-13.4299
驌	-13.43
曀	-13.43
𧖟	-13.43
㭬	-13.43
庀	-13.4301
艼	-13.4301
稭	-13.4301
黌	-13.4302
頞	-13.4303
蔪	-13.4304
擥	-13.4304
譆	-13.4305
𥅆	-13.4306
醽	-13.4306
赬	-13.4306
肰	-13.4306
弮	-13.4307
跚	-13.4307
慍	-13.4307
壳	-13.4307
蚄	-13.4308
沗	-13.4309
䘖	-13.4309
抓	-13.4309
漩	-13.4312
慷	-13.4313
鎏	-13.4313
帒	-13.4313
帢	-13.4315
逥	-13.4316
旐	-13.4317
帊	-13.4319
縓	-13.4325
憃	-13.4325
萩	-13.4327
弡	-13.4709
貤	-13.4754
麰	-13.4761
怊	-13.4761
蓤	-13.4765
沄	-13.4774
穼	-13.4775
担	-13.4775
烰	-13.4775
袿	-13.4778
鰓	-13.4778
銲	-13.4779
輠	-13.478
恧	-13.4781
脤	-13.4781
脬	-13.4781
憝	-13.4782
濊	-13.4782
祍	-13.4783
悪	-13.4784
撋	-13.4784
皚	-13.4785
勳	-13.4785
筓	-13.4785
汳	-13.4785
剞	-13.4786
摐	-13.4787
胔	-13.4787
妗	-13.4787
蹢	-13.4788
䍐	-13.4788
寴	-13.4789
丿	-13.4789
㪇	-13.479
抂	-13.479
鋐	-13.4793
鳧	-13.4793
剭	-13.4794
琫	-13.4794
幛	-13.4794
㘭	-13.4794
俏	-13.4795
鏝	-13.4795
枻	-13.4795
􁍈	-13.4795
嚲	-13.4796
满	-13.4796
􁎦	-13.4796
浼	-13.4796
枏	-13.4796
䴡	-13.4797
砅	-13.4797
耔	-13.4797
姸	-13.4798
娖	-13.4798
刊	-13.4799
曅	-13.4799
蜯	-13.4799
㫺	-13.4799
跏	-13.4799
㝎	-13.48
唅	-13.48
阬	-13.48
䔲	-13.48
蒢	-13.4801
鸘	-13.4803
魨	-13.4803
檿	-13.4803
烕	-13.4803
稊	-13.4803
餦	-13.4804
鮞	-13.4804
鵫	-13.4805
猘	-13.4806
頍	-13.4806
媍	-13.4806
烖	-13.4807
磥	-13.4807
隮	-13.4808
賒	-13.4808
卄	-13.4809
莨	-13.4809
萄	-13.4809
俅	-13.4809
篿	-13.4809
葹	-13.481
熛	-13.481
汛	-13.481
褖	-13.481
𥜗	-13.4811
齶	-13.4813
蓨	-13.4813
瀠	-13.4814
瓡	-13.4815
蝉	-13.4817
瑭	-13.4817
矴	-13.4818
郙	-13.4818
鯔	-13.4818
倥	-13.482
墬	-13.4822
垕	-13.4823
泖	-13.4823
枬	-13.4824
􁌫	-13.4826
􁅟	-13.4827
罫	-13.4836
樨	-13.4856
撟	-13.5258
􁎽	-13.5259
蠜	-13.5285
蔘	-13.5287
尀	-13.5289
翏	-13.529
㚇	-13.5291
蟆	-13.5291
駹	-13.5296
蔦	-13.5296
鴰	-13.5297
螈	-13.5298
藾	-13.5302
𣙗	-13.5303
皈	-13.5303
号	-13.5303
椓	-13.5304
椐	-13.5304
嚨	-13.5304
擩	-13.5305
臽	-13.5306
淊	-13.5308
鯸	-13.5308
噭	-13.5309
惙	-13.5309
襚	-13.5309
漦	-13.531
緆	-13.531
鸐	-13.5311
籔	-13.5311
緤	-13.5312
僝	-13.5313
釭	-13.5314
欪	-13.5316
喂	-13.5316
旖	-13.5318
厘	-13.5318
柲	-13.5319
勌	-13.5319
掺	-13.532
扱	-13.532
鉧	-13.5322
羭	-13.5322
胤	-13.5322
􁡸	-13.5322
焬	-13.5323
牾	-13.5323
敡	-13.5324
齠	-13.5325
胹	-13.5325
夌	-13.5325
献	-13.5326
裭	-13.5326
齔	-13.5326
艣	-13.5327
饍	-13.5327
僴	-13.5327
笴	-13.5328
堥	-13.5328
仳	-13.5328
餲	-13.5329
凾	-13.5329
竁	-13.5329
犗	-13.533
鎩	-13.533
倓	-13.533
􁐓	-13.5331
臮	-13.5332
孶	-13.5332
懆	-13.5332
搉	-13.5333
蠛	-13.5333
愾	-13.5333
靉	-13.5333
璺	-13.5334
彍	-13.5334
韀	-13.5334
搰	-13.5334
茯	-13.5334
騕	-13.5334
牐	-13.5334
㫪	-13.5335
榘	-13.5336
顕	-13.5336
樐	-13.5337
砆	-13.5337
􁉤	-13.5337
溆	-13.5337
㬋	-13.5338
崙	-13.5338
揃	-13.5338
隖	-13.5339
缷	-13.5339
暅	-13.5343
蟁	-13.5345
噰	-13.5346
峜	-13.5346
蝝	-13.5347
亓	-13.5347
揶	-13.5347
謏	-13.5349
暵	-13.535
潾	-13.5351
悳	-13.5351
鬖	-13.5351
侲	-13.5354
幐	-13.5356
􁞗	-13.5363
薹	-13.5367
咠	-13.5828
榿	-13.5835
樏	-13.5836
靃	-13.5841
埿	-13.5843
蚿	-13.5845
涷	-13.5845
鵃	-13.5849
觟	-13.5849
豶	-13.585
鶼	-13.5851
鷢	-13.5851
眴	-13.5852
裯	-13.5852
髕	-13.5853
秠	-13.5857
啌	-13.5857
鎦	-13.5858
綀	-13.5858
馢	-13.5859
嘡	-13.5861
饠	-13.5862
䥴	-13.5862
畾	-13.5862
厩	-13.5863
昒	-13.5863
湑	-13.5864
簵	-13.5864
鶗	-13.5865
攺	-13.5865
嵲	-13.5865
僶	-13.5866
耡	-13.5866
嘬	-13.5867
襤	-13.5867
忖	-13.5868
欃	-13.5868
蠯	-13.5869
敉	-13.5869
憍	-13.587
孌	-13.587
螮	-13.587
褏	-13.5871
盝	-13.5872
宧	-13.5872
䃺	-13.5872
躶	-13.5872
椵	-13.5873
皜	-13.5873
岨	-13.5873
渌	-13.5874
嬀	-13.5874
煓	-13.5875
蝑	-13.5875
鱅	-13.5875
卾	-13.5876
㪍	-13.5876
殭	-13.5876
牷	-13.5877
泅	-13.5877
䡾	-13.5877
蛣	-13.5878
渗	-13.5878
鰾	-13.5878
茟	-13.5878
霛	-13.5879
鞲	-13.5879
婼	-13.5879
彿	-13.5879
楥	-13.588
頦	-13.588
㲪	-13.588
峋	-13.5882
獃	-13.5882
岔	-13.5882
㹀	-13.5884
鞹	-13.5884
惽	-13.5884
婀	-13.5885
奓	-13.5885
崈	-13.5885
帘	-13.5886
蹺	-13.5886
咺	-13.5886
兟	-13.5887
惷	-13.5887
餭	-13.5887
㲈	-13.5887
鑢	-13.5888
謪	-13.5888
􁀨	-13.5888
裠	-13.5889
篐	-13.589
跅	-13.589
忳	-13.5891
蟳	-13.5891
姉	-13.5893
抖	-13.5893
䬃	-13.5893
塴	-13.5894
瞚	-13.5895
荸	-13.5895
碔	-13.5896
圄	-13.5896
叭	-13.5898
倢	-13.5899
靿	-13.59
蟶	-13.5901
薷	-13.5902
捂	-13.5903
㺊	-13.5905
衩	-13.5906
喤	-13.5906
蕾	-13.5908
蘝	-13.591
蓡	-13.5926
蕰	-13.5927
􁵂	-13.5928
僷	-13.6422
迾	-13.6428
蓱	-13.6429
鐎	-13.6429
朡	-13.643
枅	-13.6431
謰	-13.6433
欻	-13.6435
睆	-13.6437
窔	-13.6437
齓	-13.6438
尓	-13.6438
猲	-13.6439
爊	-13.644
囧	-13.6442
稃	-13.6443
蚈	-13.6443
縀	-13.6444
軨	-13.6445
柜	-13.6445
惝	-13.6446
齮	-13.6446
肹	-13.6446
蹪	-13.6448
祘	-13.6448
縿	-13.6449
朿	-13.6449
臰	-13.645
欂	-13.645
凷	-13.645
脡	-13.6451
揫	-13.6452
蔾	-13.6455
卩	-13.6456
僔	-13.6457
薖	-13.6457
鉷	-13.6458
祋	-13.6458
㝱	-13.646
槪	-13.646
戭	-13.6461
齲	-13.6462
􁇻	-13.6462
墢	-13.6462
轗	-13.6463
㱾	-13.6463
䄡	-13.6463
离	-13.6463
冑	-13.6463
嵊	-13.6463
甔	-13.6464
覼	-13.6464
撱	-13.6465
壈	-13.6466
脁	-13.6467
䦩	-13.6467
汔	-13.6467
魃	-13.6468
潩	-13.6468
娩	-13.6468
偎	-13.6469
鎪	-13.6469
匍	-13.6469
齍	-13.6469
嬛	-13.647
骹	-13.647
劖	-13.647
咿	-13.647
筈	-13.647
巙	-13.6471
愊	-13.6471
墫	-13.6472
屮	-13.6472
蚱	-13.6472
颻	-13.6472
􁀱	-13.6473
郍	-13.6473
峥	-13.6473
玁	-13.6473
虡	-13.6476
佉	-13.6476
謦	-13.6476
瘓	-13.6477
眢	-13.6477
鶋	-13.6477
癤	-13.6477
疳	-13.6478
拴	-13.6478
檔	-13.6479
㕮	-13.648
𣅿	-13.648
悁	-13.648
虸	-13.6481
蒧	-13.6481
圑	-13.6481
眈	-13.6482
皝	-13.6482
磹	-13.6483
艋	-13.6484
讘	-13.6484
蓻	-13.6484
蝇	-13.6484
䖃	-13.6485
胊	-13.6485
􁷼	-13.6485
髄	-13.6486
籐	-13.6486
倛	-13.6487
郉	-13.6487
𨫼	-13.6488
飪	-13.6488
栵	-13.6488
慺	-13.649
秇	-13.649
獶	-13.649
萏	-13.649
抏	-13.6491
麐	-13.6492
􁌽	-13.6492
㛐	-13.6492
螓	-13.6494
趦	-13.6496
蔌	-13.6497
曯	-13.6499
旝	-13.6508
齱	-13.6515
駪	-13.6518
豑	-13.7001
瓖	-13.7017
蜰	-13.7022
耇	-13.7048
黚	-13.7054
褸	-13.7057
㩽	-13.7058
遌	-13.7059
熇	-13.7061
㮄	-13.7061
喌	-13.7063
􁚗	-13.7065
弜	-13.7065
汊	-13.7066
爝	-13.7067
㭨	-13.7069
脽	-13.707
讁	-13.7071
宐	-13.7072
趼	-13.7072
詅	-13.7073
襂	-13.7073
帋	-13.7076
酃	-13.7076
旍	-13.7077
燀	-13.7077
餝	-13.7077
忸	-13.7077
噅	-13.7078
厂	-13.7078
湞	-13.7079
媧	-13.7079
㲝	-13.7079
礿	-13.7079
輛	-13.708
齩	-13.7081
猵	-13.7081
贒	-13.7081
簩	-13.7083
刧	-13.7083
襻	-13.7083
覀	-13.7083
翶	-13.7083
灉	-13.7083
䴵	-13.7083
梱	-13.7084
遟	-13.7084
詾	-13.7085
萯	-13.7085
眶	-13.7085
嘊	-13.7085
絝	-13.7086
鋃	-13.7087
蘀	-13.7087
汋	-13.7087
簉	-13.7087
妁	-13.7088
赳	-13.7088
􁚈	-13.7088
澅	-13.7088
摵	-13.7089
鎸	-13.7089
佴	-13.709
嶕	-13.7091
㕍	-13.7091
缻	-13.7091
笨	-13.7091
膨	-13.7092
喭	-13.7092
麏	-13.7092
鬧	-13.7093
駵	-13.7094
埠	-13.7094
堲	-13.7094
婭	-13.7094
庯	-13.7094
毨	-13.7095
萐	-13.7095
蟢	-13.7095
頵	-13.7095
樷	-13.7096
㓪	-13.7096
磎	-13.7097
剿	-13.7097
䕭	-13.7097
摉	-13.7097
堧	-13.7098
僬	-13.7099
匼	-13.71
㷼	-13.71
焕	-13.71
酳	-13.71
哅	-13.7101
蜍	-13.7101
鈺	-13.7101
塈	-13.7101
剚	-13.7102
􁭤	-13.7102
咷	-13.7102
滾	-13.7102
搪	-13.7103
􁠴	-13.7103
鄚	-13.7103
濉	-13.7103
厫	-13.7103
撎	-13.7103
􁇞	-13.7104
縯	-13.7104
麦	-13.7104
傔	-13.7104
窌	-13.7105
荂	-13.7108
橱	-13.7108
葡	-13.7109
𬗟	-13.7109
㶑	-13.711
嬭	-13.7111
䪫	-13.7112
煏	-13.7114
嘌	-13.7115
瓨	-13.7115
𬒮	-13.7116
甈	-13.7118
筅	-13.712
餑	-13.7123
蜨	-13.7124
訩	-13.7124
毹	-13.7124
邡	-13.7124
簭	-13.7126
鶾	-13.7139
怇	-13.7155
蠦	-13.7687
蠵	-13.7687
听	-13.7698
揱	-13.7701
莤	-13.7714
窵	-13.7715
艓	-13.7717
皵	-13.7719
酘	-13.7719
腒	-13.7721
􁆍	-13.7722
攛	-13.7724
􁄭	-13.7729
䏌	-13.7731
瘇	-13.7731
噽	-13.7733
􁂰	-13.7735
􁆦	-13.7735
㓛	-13.7736
碕	-13.7738
凃	-13.7738
粺	-13.7739
幠	-13.7739
嘄	-13.774
亍	-13.7741
㳄	-13.7741
轓	-13.7741
鑴	-13.7741
鴩	-13.7741
餠	-13.7742
剬	-13.7743
牎	-13.7743
蚹	-13.7744
嘅	-13.7745
媺	-13.7745
嗁	-13.7745
萠	-13.7746
羕	-13.7747
麌	-13.7748
杅	-13.7748
痂	-13.775
炱	-13.775
𠫭	-13.7751
𬞞	-13.7751
媕	-13.7751
璈	-13.7752
糨	-13.7752
茠	-13.7752
廽	-13.7753
壄	-13.7753
忞	-13.7753
『	-13.7754
曶	-13.7754
虉	-13.7754
惄	-13.7754
』	-13.7754
鄲	-13.7754
稬	-13.7755
㸦	-13.7755
枒	-13.7756
馯	-13.7756
棰	-13.7756
鼽	-13.7757
黓	-13.7757
杴	-13.7757
琠	-13.7757
旤	-13.7757
蠬	-13.7758
䭔	-13.7758
䓤	-13.7759
樑	-13.7759
鼛	-13.7759
纆	-13.7759
鬵	-13.7761
珸	-13.7761
迆	-13.7761
埆	-13.7761
壜	-13.7761
孿	-13.7761
􁫣	-13.7762
䅶	-13.7762
􁥀	-13.7762
綪	-13.7762
獯	-13.7762
㩀	-13.7762
溳	-13.7763
蔊	-13.7763
䠞	-13.7763
棁	-13.7764
嗺	-13.7764
晜	-13.7764
珌	-13.7764
枤	-13.7764
鬝	-13.7765
嘐	-13.7765
愓	-13.7766
嶃	-13.7766
魌	-13.7766
鵻	-13.7766
虣	-13.7766
勩	-13.7767
嵳	-13.7767
囏	-13.7767
𩔖	-13.7767
媽	-13.7768
凴	-13.7768
皛	-13.7769
虩	-13.7769
踹	-13.7769
躪	-13.777
瓝	-13.777
崿	-13.777
溘	-13.7771
櫑	-13.7771
囟	-13.7772
蝯	-13.7772
檾	-13.7772
榾	-13.7773
撢	-13.7773
捌	-13.7773
鱺	-13.7773
坟	-13.7773
㔻	-13.7774
鶘	-13.7774
諐	-13.7774
貛	-13.7774
愺	-13.7774
豋	-13.7775
墄	-13.7775
漻	-13.7776
瘉	-13.7776
繶	-13.7776
廾	-13.7776
霝	-13.7776
慫	-13.778
㪺	-13.778
渹	-13.7782
㱔	-13.7782
㮏	-13.7783
􁋃	-13.7783
斨	-13.7785
憋	-13.7785
戺	-13.7785
髆	-13.7785
㞕	-13.7786
噞	-13.7786
嘛	-13.7788
粼	-13.7789
啍	-13.7789
鑌	-13.7789
莣	-13.779
肈	-13.7792
贜	-13.7793
㰂	-13.7798
虇	-13.7799
皸	-13.7799
蕓	-13.78
䚢	-13.7861
䙡	-13.7877
鸖	-13.8414
粊	-13.842
橇	-13.8421
芔	-13.8424
坱	-13.8431
緥	-13.8435
讔	-13.8435
坴	-13.8435
殹	-13.8436
綟	-13.8438
傺	-13.8438
乹	-13.8438
鷞	-13.8438
謼	-13.844
豝	-13.8444
慔	-13.8444
瘈	-13.8448
㘥	-13.8448
缿	-13.8449
捼	-13.845
蜥	-13.8452
棜	-13.8452
禂	-13.8453
偟	-13.8453
蜲	-13.8454
骩	-13.8455
儌	-13.8455
􁎼	-13.8455
玼	-13.8455
裦	-13.8456
荓	-13.8456
鸋	-13.8456
嚌	-13.8456
斝	-13.8456
犮	-13.8457
鬥	-13.8459
㐱	-13.846
闟	-13.846
扢	-13.846
嵞	-13.846
扒	-13.8461
褠	-13.8461
蠨	-13.8461
􁈏	-13.8462
禬	-13.8463
鷤	-13.8463
匚	-13.8463
䳏	-13.8463
侫	-13.8464
犠	-13.8464
玳	-13.8464
幧	-13.8465
蠍	-13.8465
趐	-13.8466
潸	-13.8466
蕁	-13.8467
屼	-13.8467
昋	-13.8468
􁀬	-13.8468
菖	-13.8468
殑	-13.8468
喊	-13.8468
体	-13.8469
斖	-13.8469
餱	-13.8469
逷	-13.8469
􁬡	-13.8469
俙	-13.8469
䀋	-13.847
擪	-13.847
幗	-13.847
邘	-13.8471
䙀	-13.8471
欏	-13.8471
拶	-13.8472
眵	-13.8473
𥪡	-13.8473
爞	-13.8473
侷	-13.8473
筧	-13.8473
碙	-13.8473
觹	-13.8474
亝	-13.8474
彯	-13.8474
鼖	-13.8474
橚	-13.8475
嘒	-13.8475
弆	-13.8475
筀	-13.8476
慌	-13.8477
掦	-13.8477
戧	-13.8477
摋	-13.8477
麺	-13.8477
騤	-13.8478
魵	-13.8478
憯	-13.8478
啉	-13.8478
餵	-13.8479
䛇	-13.8479
勮	-13.8479
犛	-13.8479
繯	-13.8479
溏	-13.848
儳	-13.848
劂	-13.848
琁	-13.8481
郳	-13.8481
瞂	-13.8481
菪	-13.8481
矲	-13.8481
鍭	-13.8482
澷	-13.8482
謣	-13.8483
䶂	-13.8483
鐻	-13.8483
甹	-13.8484
銼	-13.8484
􁒍	-13.8485
鰼	-13.8486
嬝	-13.8486
􁳟	-13.8487
荍	-13.8487
躧	-13.8487
葫	-13.8487
秕	-13.8487
瞤	-13.8488
弨	-13.8488
鏨	-13.8488
恅	-13.8489
訽	-13.8489
祊	-13.8489
礥	-13.8489
傰	-13.8489
鬌	-13.849
蹣	-13.849
㬠	-13.8493
椇	-13.8493
胘	-13.8494
娭	-13.8494
撆	-13.8494
蚘	-13.8495
开	-13.8495
叄	-13.8497
淈	-13.8498
涫	-13.8502
􁋠	-13.8502
絭	-13.8502
莙	-13.8505
櫉	-13.851
擻	-13.851
桼	-13.8515
豇	-13.8518
籯	-13.852
攡	-13.8521
歍	-13.9145
穲	-13.916
苺	-13.9174
觡	-13.9198
㗊	-13.9203
圁	-13.9203
檋	-13.9204
嚫	-13.9207
藙	-13.9209
蛓	-13.9209
疔	-13.921
繘	-13.921
襐	-13.921
襺	-13.9212
雺	-13.9213
埨	-13.9213
麡	-13.9214
譶	-13.9216
􁊪	-13.9216
澼	-13.9217
們	-13.9219
葸	-13.922
鱏	-13.9222
靷	-13.9222
榎	-13.9222
艑	-13.9222
舐	-13.9222
嵍	-13.9224
袀	-13.9224
喣	-13.9224
歹	-13.9224
黁	-13.9224
鷮	-13.9224
襈	-13.9225
漷	-13.9226
禚	-13.9227
梹	-13.9229
渲	-13.923
荗	-13.923
豩	-13.923
橭	-13.923
剕	-13.9231
汍	-13.9231
斠	-13.9231
輹	-13.9231
䭅	-13.9231
栰	-13.9231
跕	-13.9231
䘿	-13.9232
唆	-13.9232
蟨	-13.9233
岢	-13.9233
莝	-13.9234
􁗤	-13.9234
娗	-13.9234
兪	-13.9235
艽	-13.9235
霪	-13.9235
廧	-13.9235
􁔹	-13.9236
祸	-13.9237
􁚇	-13.9237
湥	-13.9237
剺	-13.9237
抨	-13.9238
飃	-13.9238
墝	-13.9239
簌	-13.9239
􁞺	-13.9239
箐	-13.9239
飇	-13.9239
苨	-13.9239
饊	-13.924
乀	-13.9241
廄	-13.9241
馺	-13.9241
穣	-13.9242
掫	-13.9242
峞	-13.9242
􁊵	-13.9243
㠪	-13.9243
䔥	-13.9244
囋	-13.9244
劳	-13.9244
繿	-13.9245
攰	-13.9245
関	-13.9246
瘀	-13.9246
芴	-13.9247
襏	-13.9248
讇	-13.9248
􁉨	-13.9248
檕	-13.9248
㸙	-13.9249
畟	-13.9249
胳	-13.9249
晌	-13.9249
怔	-13.9249
淶	-13.925
鶷	-13.925
鴙	-13.925
眂	-13.9251
䓗	-13.9251
瀲	-13.9251
跀	-13.9251
翖	-13.9252
蹛	-13.9252
摑	-13.9252
彠	-13.9253
嘹	-13.9253
醟	-13.9253
蕹	-13.9254
矱	-13.9255
呑	-13.9255
籤	-13.9256
靧	-13.9256
媠	-13.9256
晣	-13.9256
夗	-13.9258
耴	-13.9258
􁸋	-13.9258
㴠	-13.9259
禓	-13.926
蛅	-13.926
儃	-13.926
鄑	-13.926
靆	-13.926
仵	-13.926
滬	-13.9262
鼒	-13.9262
焄	-13.9262
怦	-13.9262
爁	-13.9263
腷	-13.9264
􁦙	-13.9265
穵	-13.9266
蔏	-13.9267
靭	-13.9268
殲	-13.9271
嚷	-13.9272
殢	-13.9272
閆	-13.9273
􁅃	-13.9276
痡	-13.9276
􁎯	-13.9277
齯	-13.9278
弌	-13.9278
卍	-13.9284
榠	-13.9286
摃	-13.929
啒	-13.9294
癆	-13.9298
硌	-13.9302
頯	-13.9316
睾	-14.0007
䛘	-14.001
鼀	-14.0017
瀯	-14.0025
撁	-14.0025
倧	-14.0029
拫	-14.003
碉	-14.0032
獝	-14.0033
䟐	-14.0035
丢	-14.0036
鼏	-14.0042
􁆒	-14.0042
笵	-14.0043
卼	-14.0045
佁	-14.0045
咱	-14.0046
軥	-14.0046
搒	-14.0046
藋	-14.0048
艴	-14.0052
鴥	-14.0053
枽	-14.0053
嵫	-14.0053
㜲	-14.0053
㟭	-14.0053
划	-14.0054
簂	-14.0055
猋	-14.0055
踼	-14.0055
夊	-14.0056
箯	-14.0056
杝	-14.0056
趠	-14.0056
肭	-14.0057
糍	-14.0057
濴	-14.0057
禭	-14.0059
醊	-14.0059
垀	-14.0059
􁂄	-14.006
侻	-14.006
狢	-14.0061
洍	-14.0061
􁗁	-14.0061
蓘	-14.0061
酅	-14.0061
莕	-14.0061
抮	-14.0062
鰉	-14.0064
鄽	-14.0064
坷	-14.0064
韁	-14.0064
聅	-14.0064
牼	-14.0065
蔿	-14.0065
〉	-14.0065
衚	-14.0065
轣	-14.0066
禝	-14.0066
〈	-14.0066
偲	-14.0066
戉	-14.0066
鍧	-14.0066
咡	-14.0067
鰋	-14.0067
迣	-14.0067
胗	-14.0068
􁅕	-14.0068
狚	-14.0068
滍	-14.0068
鰱	-14.0068
叀	-14.0068
􁄻	-14.0069
鳺	-14.0069
梬	-14.0069
暏	-14.007
慁	-14.007
蹎	-14.007
阹	-14.007
黳	-14.0071
幍	-14.0071
魶	-14.0072
櫧	-14.0072
􁋍	-14.0072
騋	-14.0072
鑞	-14.0072
蛬	-14.0073
扮	-14.0074
玈	-14.0074
镼	-14.0074
蚉	-14.0074
壃	-14.0074
坾	-14.0074
鬩	-14.0075
墯	-14.0075
葈	-14.0075
仃	-14.0075
揕	-14.0075
鍥	-14.0075
琤	-14.0075
茌	-14.0075
􁸙	-14.0075
墦	-14.0076
㫃	-14.0076
嗸	-14.0076
雥	-14.0076
匋	-14.0077
闛	-14.0077
燝	-14.0078
畷	-14.0078
䭀	-14.0078
蟺	-14.0079
咢	-14.0079
糭	-14.008
歅	-14.008
栒	-14.008
瑫	-14.008
䕡	-14.008
崟	-14.0081
扭	-14.0081
鷽	-14.0081
蠰	-14.0081
睞	-14.0081
篳	-14.0082
蜷	-14.0082
壐	-14.0082
鄃	-14.0083
􁄞	-14.0083
鉒	-14.0083
鈗	-14.0083
裌	-14.0083
悺	-14.0083
箊	-14.0084
懨	-14.0084
䐗	-14.0084
梡	-14.0085
鄀	-14.0086
頹	-14.0086
濚	-14.0086
噙	-14.0086
憹	-14.0087
縰	-14.0087
㠗	-14.0087
嶙	-14.0087
椉	-14.0087
饁	-14.0087
舠	-14.0087
箖	-14.0087
堀	-14.0087
攧	-14.0087
芈	-14.0088
拕	-14.0089
􁋚	-14.0089
䃩	-14.0089
蟚	-14.0089
愐	-14.0089
髥	-14.009
玟	-14.009
瑨	-14.0091
灶	-14.0091
蜢	-14.0091
䘵	-14.0091
錔	-14.0092
阸	-14.0092
􁞠	-14.0093
葴	-14.0093
臄	-14.0094
葇	-14.0094
羼	-14.0094
娽	-14.0095
牿	-14.0095
鴣	-14.0096
隥	-14.0096
梈	-14.0097
捆	-14.0097
鳦	-14.0097
杈	-14.0098
珝	-14.0101
㭼	-14.0102
菢	-14.0103
漑	-14.0104
糁	-14.0105
偞	-14.0106
矼	-14.0108
撘	-14.0109
梦	-14.0109
鬘	-14.011
棅	-14.0115
叧	-14.0117
蒤	-14.0118
餁	-14.0119
㶣	-14.012
廑	-14.0122
鵯	-14.0123
􁌆	-14.0133
蛘	-14.0134
剻	-14.014
􁐔	-14.0157
穋	-14.0893
飵	-14.0895
卙	-14.0897
藃	-14.0905
㯹	-14.091
哻	-14.0914
蠮	-14.0915
􁉜	-14.092
螔	-14.0923
􁔗	-14.0923
鴶	-14.0926
医	-14.0932
槔	-14.0935
匴	-14.0944
䘨	-14.0945
瀁	-14.0947
虻	-14.0947
屵	-14.0947
衱	-14.0949
笇	-14.0951
蜄	-14.0952
􁀿	-14.0952
洴	-14.0953
瘲	-14.0953
㧖	-14.0953
􁈁	-14.0953
胰	-14.0953
椸	-14.0953
橜	-14.0956
焫	-14.0959
㞵	-14.0959
籊	-14.0961
􁢱	-14.0961
欎	-14.0961
悊	-14.0962
蟧	-14.0962
􁬁	-14.0962
滺	-14.0963
譍	-14.0964
暆	-14.0964
鈹	-14.0965
鋄	-14.0965
𠢐	-14.0966
􁓒	-14.0966
䢵	-14.0966
檓	-14.0967
咯	-14.0967
舵	-14.0968
濔	-14.0968
鉼	-14.0969
昝	-14.0969
跫	-14.097
𫐠	-14.097
舲	-14.097
龣	-14.097
㔨	-14.097
僒	-14.097
穸	-14.097
肎	-14.097
淂	-14.097
㯳	-14.097
􁂋	-14.097
睟	-14.0971
璏	-14.0971
剮	-14.0971
咂	-14.0971
褲	-14.0972
斄	-14.0972
鞻	-14.0972
劼	-14.0972
駴	-14.0973
朾	-14.0973
涬	-14.0974
醞	-14.0974
迍	-14.0974
掤	-14.0974
瞫	-14.0975
魱	-14.0975
霶	-14.0975
顐	-14.0975
蝹	-14.0975
􁒲	-14.0975
訔	-14.0975
屓	-14.0976
俔	-14.0976
惸	-14.0976
􁈣	-14.0977
䠶	-14.0977
饡	-14.0978
揳	-14.0978
􁉍	-14.0978
籝	-14.0979
眣	-14.0979
埧	-14.0979
箙	-14.0979
僛	-14.098
瓽	-14.098
蹗	-14.098
礮	-14.098
􁑶	-14.098
歈	-14.098
愳	-14.0981
殀	-14.0981
􁒷	-14.0981
刵	-14.0982
鱭	-14.0982
嗒	-14.0982
鬈	-14.0982
蝃	-14.0982
􁊋	-14.0982
犎	-14.0983
膋	-14.0983
涽	-14.0983
瀂	-14.0984
磺	-14.0984
潠	-14.0984
櫰	-14.0985
吧	-14.0985
𣑽	-14.0985
栴	-14.0986
嫜	-14.0986
繟	-14.0986
躒	-14.0986
梂	-14.0986
捴	-14.0987
瘰	-14.0987
頬	-14.0987
吺	-14.0987
㵸	-14.0987
犆	-14.0987
慸	-14.0987
眤	-14.0988
礁	-14.0988
殣	-14.0989
䵟	-14.0989
覸	-14.0989
嘱	-14.099
蝥	-14.099
蟷	-14.0991
襫	-14.0991
扂	-14.0991
焻	-14.0991
薋	-14.0991
塪	-14.0991
傱	-14.0992
巛	-14.0992
撡	-14.0992
蹜	-14.0993
蔫	-14.0993
礉	-14.0993
𡵨	-14.0994
耬	-14.0994
荣	-14.0994
釴	-14.0994
􁑮	-14.0994
𡡉	-14.0995
澘	-14.0995
疰	-14.0995
嗕	-14.0995
莛	-14.0995
禑	-14.0995
餮	-14.0996
䄠	-14.0997
簦	-14.0997
鶃	-14.0999
鬿	-14.0999
䈄	-14.1
煿	-14.1
鯪	-14.1
􁇪	-14.1001
䣛	-14.1001
騩	-14.1001
翿	-14.1002
㷖	-14.1002
溮	-14.1002
熁	-14.1002
郚	-14.1003
苙	-14.1005
鶱	-14.1005
䔍	-14.1005
麨	-14.1006
歃	-14.1006
韘	-14.1006
諵	-14.1006
剷	-14.1007
弸	-14.1007
嫘	-14.1008
瀙	-14.1008
躚	-14.1008
驒	-14.1008
涏	-14.1009
輷	-14.1009
泃	-14.1009
佘	-14.1009
岍	-14.101
趿	-14.1011
㭍	-14.1011
蔎	-14.1011
縭	-14.1012
榫	-14.1013
􁁏	-14.1014
麹	-14.1014
坍	-14.1015
虰	-14.1015
璊	-14.1015
􁫯	-14.1015
焼	-14.1016
榤	-14.1017
宍	-14.1017
歗	-14.1017
嶪	-14.1019
瘃	-14.1023
穤	-14.103
幵	-14.1031
曣	-14.1033
孓	-14.1033
紥	-14.1036
䲰	-14.1042
㽦	-14.1045
鄡	-14.1051
婫	-14.1909
飋	-14.191
諓	-14.1915
辝	-14.1918
虭	-14.1925
嗼	-14.1932
蝓	-14.1938
鮚	-14.1938
皞	-14.1939
毇	-14.1941
犿	-14.1943
蟯	-14.1944
皀	-14.1945
熭	-14.1945
鵴	-14.1946
㮈	-14.1946
捥	-14.1946
橩	-14.1946
溞	-14.1947
檖	-14.1948
􁑵	-14.1948
綹	-14.1948
爓	-14.1949
儱	-14.1949
彔	-14.195
䔖	-14.195
檴	-14.1951
邗	-14.1952
崞	-14.1952
凥	-14.1953
甒	-14.1954
閞	-14.1954
幂	-14.1954
􁀾	-14.1954
眛	-14.1955
曡	-14.1955
鰷	-14.1955
􁊶	-14.1956
飩	-14.1957
筄	-14.1958
梣	-14.1958
蘹	-14.1958
螎	-14.1958
巃	-14.1959
攎	-14.1959
仱	-14.196
罛	-14.1961
欨	-14.1962
麁	-14.1962
犕	-14.1962
跐	-14.1963
䉀	-14.1963
勹	-14.1964
阝	-14.1964
䐨	-14.1964
􁃇	-14.1964
􁚕	-14.1964
傎	-14.1966
玆	-14.1966
姖	-14.1966
癅	-14.1966
冪	-14.1968
噋	-14.1968
恓	-14.1968
蝜	-14.1968
㝈	-14.1969
姽	-14.1969
􁱖	-14.1969
鬋	-14.1969
䂍	-14.197
碨	-14.197
殚	-14.197
睱	-14.1971
䱉	-14.1971
仚	-14.1971
㲄	-14.1971
􁄄	-14.1971
鄷	-14.1972
籽	-14.1972
㚄	-14.1973
缽	-14.1973
溵	-14.1975
輂	-14.1976
陼	-14.1976
嵂	-14.1977
獧	-14.1977
蛈	-14.1977
艎	-14.1978
𨳩	-14.1978
黦	-14.1978
礛	-14.1978
䲸	-14.1978
紝	-14.1979
蘞	-14.1979
錣	-14.1979
踠	-14.198
圞	-14.198
楱	-14.198
聡	-14.1981
儜	-14.1981
䃱	-14.1981
鄹	-14.1981
祻	-14.1981
焠	-14.1982
睺	-14.1982
㼐	-14.1983
㦎	-14.1983
矅	-14.1984
呰	-14.1984
衖	-14.1984
鱻	-14.1984
傞	-14.1984
臃	-14.1984
唲	-14.1985
鄅	-14.1985
菝	-14.1986
鶊	-14.1986
磲	-14.1986
晊	-14.1986
呐	-14.1986
陊	-14.1986
􁃒	-14.1986
鴃	-14.1986
歋	-14.1987
邧	-14.1987
縕	-14.1987
橀	-14.1987
􁰎	-14.1987
砉	-14.1988
淟	-14.1988
鮠	-14.1988
寠	-14.1989
訑	-14.1989
齅	-14.1989
圀	-14.1989
簑	-14.1989
蝻	-14.1989
壒	-14.199
丽	-14.199
𧺫	-14.199
㶁	-14.199
豵	-14.1991
耙	-14.1991
訌	-14.1991
檏	-14.1991
􁌱	-14.1992
硍	-14.1992
䏿	-14.1992
觩	-14.1992
輢	-14.1992
萸	-14.1993
藚	-14.1993
冂	-14.1993
洟	-14.1993
騘	-14.1993
竫	-14.1994
鞉	-14.1994
鴠	-14.1994
蓷	-14.1994
䝁	-14.1994
抶	-14.1995
鬽	-14.1995
襘	-14.1995
帗	-14.1995
慓	-14.1995
晹	-14.1995
䱷	-14.1996
檥	-14.1996
佋	-14.1997
􁂁	-14.1997
瘻	-14.1997
檍	-14.1997
圂	-14.1997
窹	-14.1997
汕	-14.1998
烺	-14.1998
㮳	-14.1998
栞	-14.1998
聻	-14.1999
莹	-14.1999
鱑	-14.2
翡	-14.2001
躗	-14.2002
箛	-14.2003
醹	-14.2003
蘦	-14.2003
􁃶	-14.2004
竷	-14.2004
䵼	-14.2005
靱	-14.2006
䉉	-14.2006
䈚	-14.2007
璂	-14.2007
佈	-14.2007
菶	-14.2008
跧	-14.2009
劙	-14.201
䋎	-14.201
魟	-14.2012
酡	-14.2014
􁂴	-14.2015
雗	-14.2017
墡	-14.2018
䱇	-14.2024
靻	-14.2025
臩	-14.2031
䔧	-14.2033
顉	-14.204
毣	-14.2043
鄳	-14.2044
袧	-14.2044
歬	-14.2045
涆	-14.205
鸕	-14.2053
譝	-14.2053
㤄	-14.2955
䓯	-14.301
奊	-14.3014
􁑉	-14.303
􁎆	-14.303
跦	-14.3031
􁋳	-14.3036
􁐦	-14.3037
鴳	-14.3038
骴	-14.304
駏	-14.3042
匵	-14.3042
蟉	-14.3042
䈛	-14.3043
鄪	-14.3043
㑂	-14.3044
圠	-14.3044
齰	-14.3046
蠑	-14.3046
怸	-14.3047
㢟	-14.3052
䡘	-14.3054
媱	-14.3056
樲	-14.3057
鰈	-14.3057
隑	-14.3058
樻	-14.3059
佌	-14.306
榑	-14.306
􁟺	-14.3061
膘	-14.3061
侘	-14.3062
槥	-14.3063
􁐹	-14.3063
䢼	-14.3064
􁦚	-14.3065
躱	-14.3066
蝂	-14.3066
鍑	-14.3066
鋈	-14.3066
脘	-14.3066
􁄗	-14.3067
𦵔	-14.3067
鱍	-14.3068
䐹	-14.3068
陑	-14.3068
滒	-14.3069
埳	-14.3069
茤	-14.3069
慽	-14.3069
袜	-14.307
鯶	-14.307
弥	-14.3071
閜	-14.3072
挻	-14.3072
􁙂	-14.3072
嵸	-14.3073
頙	-14.3073
梀	-14.3073
胕	-14.3074
艟	-14.3074
甾	-14.3075
冋	-14.3075
莋	-14.3075
燚	-14.3075
儿	-14.3075
􁰉	-14.3075
檽	-14.3076
愻	-14.3076
攌	-14.3076
艗	-14.3076
賮	-14.3077
薧	-14.3078
棙	-14.3078
􁥱	-14.3078
堈	-14.3078
䘐	-14.3078
嗶	-14.3079
僢	-14.3079
祤	-14.3079
􁍋	-14.3079
轠	-14.3079
𢡟	-14.3079
鷔	-14.3079
貐	-14.3079
睍	-14.3079
峿	-14.308
貜	-14.308
誒	-14.308
陝	-14.308
蓶	-14.308
瘯	-14.308
袽	-14.308
􁐠	-14.308
嚾	-14.3081
芪	-14.3081
癕	-14.3081
窀	-14.3081
顜	-14.3082
􁏰	-14.3082
囮	-14.3082
麢	-14.3082
膄	-14.3082
抆	-14.3082
呆	-14.3083
髊	-14.3083
噯	-14.3084
灂	-14.3084
媻	-14.3084
獦	-14.3084
袓	-14.3085
曨	-14.3085
趎	-14.3085
鬉	-14.3085
晽	-14.3085
鉎	-14.3085
鞛	-14.3085
􁀈	-14.3086
渑	-14.3086
䤨	-14.3086
儭	-14.3087
硋	-14.3087
坵	-14.3088
壾	-14.3088
􁇚	-14.3088
盋	-14.3088
㱿	-14.3089
蔂	-14.3089
卌	-14.3089
莍	-14.3089
媳	-14.3089
醡	-14.3089
慹	-14.309
挶	-14.309
厴	-14.3091
戃	-14.3091
稕	-14.3091
駓	-14.3091
屇	-14.3091
謭	-14.3091
网	-14.3091
珫	-14.3092
􁡭	-14.3092
㟧	-14.3092
薞	-14.3092
柮	-14.3092
䎶	-14.3092
䦱	-14.3092
鄍	-14.3093
沝	-14.3093
枑	-14.3093
訹	-14.3093
庩	-14.3094
䘺	-14.3094
琾	-14.3094
邋	-14.3094
袝	-14.3094
儓	-14.3094
疁	-14.3095
鑨	-14.3095
􁑦	-14.3096
䫻	-14.3096
揾	-14.3096
夋	-14.3096
雘	-14.3096
蚝	-14.3097
蚣	-14.3097
嚂	-14.3098
搣	-14.3098
杫	-14.3098
涊	-14.3098
縴	-14.3098
唈	-14.3098
憕	-14.3099
窴	-14.3099
咼	-14.3099
簆	-14.3099
軃	-14.31
罙	-14.31
輣	-14.31
醷	-14.3101
砟	-14.3101
䲅	-14.3101
䵣	-14.3101
嘰	-14.3101
憀	-14.3102
臡	-14.3102
廜	-14.3102
銎	-14.3102
噢	-14.3102
瑳	-14.3102
垽	-14.3102
豻	-14.3103
刴	-14.3103
偰	-14.3103
㒹	-14.3103
嬗	-14.3103
舗	-14.3103
蠌	-14.3103
玗	-14.3103
誂	-14.3103
澉	-14.3104
琕	-14.3104
戠	-14.3104
竞	-14.3104
箟	-14.3104
齵	-14.3105
悕	-14.3105
蕣	-14.3105
踁	-14.3105
堌	-14.3106
盇	-14.3106
峚	-14.3106
諆	-14.3106
箈	-14.3106
醝	-14.3106
嗌	-14.3107
㧓	-14.3107
蘬	-14.3107
穅	-14.3107
䖵	-14.3107
罻	-14.3108
霎	-14.3108
蹁	-14.3108
牴	-14.3108
黵	-14.3108
攲	-14.3108
碼	-14.3109
懺	-14.3109
粵	-14.3109
瀃	-14.3109
畼	-14.3109
傹	-14.3109
柧	-14.3109
蟟	-14.311
矬	-14.311
㐅	-14.311
瘝	-14.3111
圌	-14.3111
鳷	-14.3111
􁆲	-14.3111
髳	-14.3112
禙	-14.3112
䤈	-14.3112
蠉	-14.3112
曎	-14.3112
嘼	-14.3112
葧	-14.3114
㛯	-14.3114
旿	-14.3114
㸐	-14.3115
羱	-14.3115
姢	-14.3115
㡊	-14.3116
􁘀	-14.3116
劊	-14.3116
鄮	-14.3119
殥	-14.3119
炔	-14.3119
僁	-14.3119
畺	-14.312
蘷	-14.312
􁩢	-14.312
㩊	-14.312
羾	-14.312
吚	-14.3122
畇	-14.3124
鷅	-14.3125
觭	-14.3126
玲	-14.3126
蜽	-14.3126
蝄	-14.3126
獡	-14.3126
胐	-14.3127
黂	-14.3128
膎	-14.3128
䖴	-14.3129
嶒	-14.313
蓚	-14.313
晛	-14.313
啽	-14.3131
􁇹	-14.3131
嗊	-14.3132
捱	-14.3134
墖	-14.3136
槫	-14.3138
潴	-14.314
㡡	-14.314
飊	-14.314
燊	-14.3141
􁞮	-14.3142
昈	-14.3143
唌	-14.3144
紽	-14.3146
慅	-14.3148
􁩉	-14.3149
欀	-14.3153
氳	-14.3153
颱	-14.4228
謍	-14.4249
髤	-14.4252
亄	-14.4252
錽	-14.4253
昦	-14.4262
㨜	-14.4274
蚇	-14.4275
麮	-14.4275
偆	-14.4277
欱	-14.4278
􁖘	-14.4278
冔	-14.428
緁	-14.4283
鯼	-14.4284
檡	-14.4288
䋤	-14.4288
􁒇	-14.4289
瞡	-14.4293
樠	-14.4295
􁁧	-14.4295
盢	-14.4297
􁊃	-14.4297
嚧	-14.4297
闃	-14.4298
䐢	-14.43
熂	-14.4301
氵	-14.4301
􁏢	-14.4301
䓉	-14.4301
祑	-14.4302
􁆞	-14.4302
竉	-14.4302
毰	-14.4302
䈏	-14.4303
湒	-14.4303
􁲼	-14.4306
嚍	-14.4306
鶞	-14.4306
夰	-14.4306
蛚	-14.4306
疻	-14.4306
䥈	-14.4307
獾	-14.4307
揸	-14.4308
佅	-14.4308
䮾	-14.4309
繃	-14.4309
唉	-14.4309
橉	-14.431
蟥	-14.4312
睴	-14.4312
疿	-14.4313
䙆	-14.4313
鯇	-14.4314
驉	-14.4314
嚜	-14.4314
伈	-14.4315
飤	-14.4316
澑	-14.4316
襢	-14.4317
藼	-14.4317
鰿	-14.4318
愃	-14.4319
䀌	-14.4319
􁣛	-14.4319
葜	-14.4319
􁛦	-14.4319
疸	-14.432
厹	-14.4321
蜧	-14.4321
儴	-14.4321
蓌	-14.4321
憗	-14.4322
寍	-14.4322
􁅊	-14.4322
翯	-14.4322
㰤	-14.4322
臋	-14.4323
臲	-14.4323
犓	-14.4323
傌	-14.4324
埊	-14.4324
鳭	-14.4324
牚	-14.4325
詑	-14.4325
䑸	-14.4325
賅	-14.4325
芁	-14.4326
隉	-14.4326
􁒐	-14.4326
陻	-14.4326
幝	-14.4326
痑	-14.4326
嚵	-14.4326
夂	-14.4326
厈	-14.4327
􁒿	-14.4327
䷂	-14.4327
劲	-14.4327
漰	-14.4327
岊	-14.4328
櫩	-14.4328
䝿	-14.4328
䪥	-14.4328
啿	-14.4329
檵	-14.4329
􁌁	-14.4329
艅	-14.4329
螿	-14.433
䨲	-14.433
簃	-14.433
湋	-14.433
􁇂	-14.433
睩	-14.433
黲	-14.433
鞈	-14.4331
挌	-14.4331
豖	-14.4332
㔶	-14.4332
􁂶	-14.4332
跲	-14.4332
苶	-14.4332
襬	-14.4332
硩	-14.4332
冣	-14.4333
髟	-14.4333
鴦	-14.4333
鯷	-14.4333
􁅔	-14.4333
􁚠	-14.4333
笫	-14.4334
朌	-14.4334
鼷	-14.4334
魮	-14.4334
臸	-14.4334
罦	-14.4335
蕯	-14.4335
婵	-14.4336
硨	-14.4336
营	-14.4336
跔	-14.4336
戬	-14.4336
瞾	-14.4336
䬸	-14.4336
伻	-14.4337
鎊	-14.4337
秌	-14.4338
帉	-14.4338
虋	-14.4338
䱥	-14.4338
騌	-14.4338
遰	-14.4338
舃	-14.4338
蘠	-14.4338
丶	-14.4339
桭	-14.4339
轊	-14.4339
偯	-14.4339
烋	-14.4339
呡	-14.4339
霦	-14.434
鮿	-14.434
萉	-14.434
􁤷	-14.434
䃣	-14.434
馱	-14.4341
瀺	-14.4341
􁛩	-14.4341
駙	-14.4341
韰	-14.4342
鳪	-14.4343
徲	-14.4343
輲	-14.4343
懁	-14.4343
窸	-14.4343
淰	-14.4343
䟱	-14.4344
篃	-14.4344
鱒	-14.4344
蘜	-14.4344
𦦨	-14.4344
􁥌	-14.4344
㱃	-14.4344
鞿	-14.4345
驑	-14.4345
脢	-14.4345
韔	-14.4345
灨	-14.4345
硥	-14.4345
㧁	-14.4345
汹	-14.4345
􁀅	-14.4345
鰫	-14.4346
痀	-14.4346
𤦺	-14.4346
窾	-14.4346
軆	-14.4347
䥥	-14.4347
塠	-14.4347
裎	-14.4347
惈	-14.4347
酟	-14.4347
偻	-14.4347
㰌	-14.4348
呃	-14.4348
楰	-14.4349
碚	-14.4349
譓	-14.4349
輀	-14.4349
哠	-14.4349
聓	-14.4349
惮	-14.4349
䗓	-14.435
煟	-14.435
􁐻	-14.435
䄄	-14.435
戟	-14.435
㬉	-14.4351
䳱	-14.4351
鏦	-14.4351
塒	-14.4351
蜤	-14.4351
銊	-14.4351
謜	-14.4351
耩	-14.4351
蘃	-14.4351
箣	-14.4352
奯	-14.4352
蚏	-14.4352
墆	-14.4352
煢	-14.4352
蚖	-14.4352
􁂭	-14.4352
􁊯	-14.4352
􁰨	-14.4352
􁈽	-14.4352
翲	-14.4353
䒳	-14.4353
餿	-14.4353
膀	-14.4353
䳟	-14.4353
􁊭	-14.4353
垝	-14.4353
漊	-14.4353
䵍	-14.4353
襛	-14.4354
䏑	-14.4354
鱯	-14.4355
竂	-14.4355
􁄥	-14.4355
霂	-14.4355
揥	-14.4355
惧	-14.4356
堄	-14.4356
䴰	-14.4356
醭	-14.4357
鬳	-14.4357
窐	-14.4357
煼	-14.4357
瀞	-14.4357
㮛	-14.4358
􁀗	-14.4358
􁣝	-14.4358
蚯	-14.4358
䕢	-14.4359
􁏮	-14.4359
鏂	-14.436
䯻	-14.436
姼	-14.436
􁂚	-14.436
溴	-14.436
蜔	-14.436
哷	-14.436
􁄺	-14.436
􁙽	-14.4361
嶻	-14.4361
豗	-14.4361
􁏩	-14.4361
惪	-14.4361
鞗	-14.4361
駻	-14.4362
煕	-14.4362
潨	-14.4362
砰	-14.4363
􁃟	-14.4363
丂	-14.4363
􁪑	-14.4364
螙	-14.4364
􁋎	-14.4365
哤	-14.4366
柣	-14.4366
謱	-14.4367
摖	-14.4367
䊸	-14.4367
岕	-14.4367
儹	-14.4368
戦	-14.4368
碇	-14.4368
漼	-14.4369
騬	-14.437
竻	-14.4371
􁁵	-14.4371
暜	-14.4371
轕	-14.4371
鐇	-14.4372
蠺	-14.4372
众	-14.4372
櫈	-14.4373
羵	-14.4373
嘕	-14.4373
謑	-14.4373
鈠	-14.4373
􁌏	-14.4374
奂	-14.4375
茴	-14.4376
􁀆	-14.4377
讂	-14.4377
癥	-14.4378
炸	-14.4378
傿	-14.4379
鷕	-14.4379
鼨	-14.4379
霨	-14.438
膕	-14.438
釬	-14.438
晲	-14.4382
欘	-14.4384
轇	-14.4384
挣	-14.4385
叒	-14.4386
祾	-14.4388
韸	-14.4389
蟌	-14.439
䕩	-14.439
潕	-14.439
􁐴	-14.4394
腜	-14.4395
秈	-14.4396
鈀	-14.4397
㠀	-14.4397
攓	-14.4401
􁑭	-14.4401
坿	-14.4401
韣	-14.4402
觪	-14.4403
彂	-14.4408
􁌙	-14.4409
􁈃	-14.4414
旑	-14.4423
憴	-14.4429
偌	-14.4436
䎿	-14.5644
貈	-14.5648
譻	-14.566
紜	-14.5661
艿	-14.5666
傂	-14.5667
鑁	-14.5675
􁝍	-14.5675
逿	-14.5689
魪	-14.5689
詷	-14.5695
麧	-14.5697
蛥	-14.5697
􁇍	-14.5697
􁊅	-14.5704
􁢿	-14.5706
凙	-14.5706
蝪	-14.5707
􁞁	-14.5708
筰	-14.5709
丮	-14.5709
懖	-14.5711
柀	-14.5711
欯	-14.5712
絖	-14.5712
刉	-14.5714
餥	-14.5716
􁌖	-14.5717
鍏	-14.5717
笿	-14.5718
湅	-14.5719
䬯	-14.5722
簙	-14.5723
捾	-14.5724
楎	-14.5725
趲	-14.5726
輨	-14.5726
􁍑	-14.5726
謞	-14.5726
駊	-14.5727
鍫	-14.5727
􁏕	-14.5727
攉	-14.5727
惢	-14.5728
䷋	-14.5728
爿	-14.5731
杶	-14.5731
􁒓	-14.5731
鴡	-14.5731
嚆	-14.5731
樿	-14.5732
𬗋	-14.5732
齁	-14.5733
􁎁	-14.5733
䘪	-14.5734
洭	-14.5734
檦	-14.5734
奧	-14.5734
卂	-14.5734
槻	-14.5735
潗	-14.5735
􁨂	-14.5735
惆	-14.5735
庲	-14.5735
懬	-14.5735
罒	-14.5737
蟂	-14.5739
谸	-14.5739
􁀇	-14.5739
礰	-14.574
樴	-14.574
臁	-14.574
㕲	-14.574
鷋	-14.574
琀	-14.574
鱀	-14.5741
䷁	-14.5741
韕	-14.5741
𥫱	-14.5741
帣	-14.5741
㘰	-14.5742
麚	-14.5743
􁒊	-14.5743
䄷	-14.5743
詍	-14.5744
丅	-14.5745
錏	-14.5745
浃	-14.5746
𧹞	-14.5746
䤅	-14.5746
俉	-14.5746
蠩	-14.5746
狋	-14.5746
鉆	-14.5747
鸆	-14.5747
􁆣	-14.5748
􁀰	-14.5748
鶢	-14.5748
綋	-14.5748
緶	-14.5748
媦	-14.5749
篅	-14.5749
繈	-14.5749
㥛	-14.575
鞁	-14.575
㡛	-14.575
軧	-14.5751
庤	-14.5751
蹖	-14.5751
􁊎	-14.5751
蕆	-14.5752
鸅	-14.5752
􁂛	-14.5752
瀿	-14.5753
䳄	-14.5753
掯	-14.5753
噌	-14.5753
䝟	-14.5753
俜	-14.5753
谺	-14.5753
谽	-14.5753
艨	-14.5753
籋	-14.5754
􁔤	-14.5754
伀	-14.5755
䳇	-14.5755
浘	-14.5756
爂	-14.5756
紩	-14.5756
橝	-14.5756
㡭	-14.5757
偝	-14.5757
骯	-14.5757
穮	-14.5757
腧	-14.5757
䫏	-14.5758
嗄	-14.5758
陗	-14.5758
喿	-14.5758
緖	-14.5758
䉾	-14.5758
蠠	-14.5758
坩	-14.5759
鐓	-14.5759
庌	-14.576
覉	-14.576
楢	-14.5761
輼	-14.5761
衅	-14.5761
䤩	-14.5761
㝅	-14.5762
僪	-14.5762
荖	-14.5762
䘃	-14.5762
蟙	-14.5762
璱	-14.5762
幨	-14.5762
腶	-14.5762
璖	-14.5762
􁙳	-14.5762
􁳢	-14.5762
嬧	-14.5762
䈙	-14.5763
騵	-14.5764
螇	-14.5764
櫄	-14.5764
􁊫	-14.5765
羛	-14.5765
􁆩	-14.5765
㳅	-14.5765
槵	-14.5765
畡	-14.5765
焮	-14.5766
帡	-14.5767
􁂫	-14.5767
􁌠	-14.5767
乜	-14.5767
堮	-14.5767
丄	-14.5767
蚻	-14.5767
􁈹	-14.5767
蒗	-14.5768
􁂗	-14.5768
獱	-14.5768
瘊	-14.5768
霔	-14.5768
劀	-14.5769
垸	-14.5769
鵌	-14.577
罭	-14.577
鯦	-14.5771
㩜	-14.5771
呭	-14.5771
㯉	-14.5771
􁚎	-14.5771
箌	-14.5771
皭	-14.5772
艻	-14.5772
仏	-14.5772
戽	-14.5773
㦛	-14.5773
跰	-14.5773
滳	-14.5773
苪	-14.5773
􁉋	-14.5773
㢝	-14.5773
㗃	-14.5774
鮰	-14.5774
鼵	-14.5774
䷡	-14.5774
陏	-14.5774
厷	-14.5774
搐	-14.5774
紨	-14.5774
艚	-14.5774
䚮	-14.5775
傉	-14.5775
臦	-14.5775
銸	-14.5775
顤	-14.5776
岏	-14.5776
漵	-14.5776
􁱸	-14.5776
􁑂	-14.5776
㬊	-14.5777
瓀	-14.5777
斞	-14.5777
䱦	-14.5777
葙	-14.5778
粻	-14.5778
狊	-14.5778
毈	-14.5778
倝	-14.5779
鬅	-14.5779
氆	-14.5779
虨	-14.5779
躤	-14.5779
藒	-14.5779
䱜	-14.5779
伇	-14.5779
簰	-14.578
糃	-14.578
鄐	-14.578
挖	-14.5781
嬥	-14.5781
秏	-14.5781
㯏	-14.5781
嶭	-14.5781
鶤	-14.5781
遳	-14.5782
賌	-14.5782
鐩	-14.5782
夆	-14.5782
磠	-14.5782
蹍	-14.5782
㩥	-14.5783
滆	-14.5783
薓	-14.5784
硉	-14.5784
遛	-14.5784
霡	-14.5784
矙	-14.5784
䁥	-14.5784
鮸	-14.5784
椴	-14.5785
撗	-14.5785
嵕	-14.5785
􁔷	-14.5785
妘	-14.5785
唏	-14.5785
碥	-14.5785
薔	-14.5785
鋣	-14.5785
泒	-14.5785
蘡	-14.5786
捔	-14.5786
忪	-14.5786
熿	-14.5786
槅	-14.5787
㮊	-14.5787
歒	-14.5787
薐	-14.5787
懯	-14.5788
襒	-14.5788
㧾	-14.5788
狑	-14.5788
褆	-14.5788
岝	-14.5789
尩	-14.5789
瑘	-14.5789
僽	-14.579
㢸	-14.579
埈	-14.579
􁚟	-14.579
櫕	-14.5791
崱	-14.5791
鬄	-14.5792
苮	-14.5792
頀	-14.5792
㬎	-14.5792
痱	-14.5793
絩	-14.5793
䋐	-14.5793
鼩	-14.5793
畣	-14.5794
鋙	-14.5794
䰄	-14.5794
灺	-14.5794
㮕	-14.5794
滮	-14.5795
菭	-14.5795
絣	-14.5795
窝	-14.5795
㻛	-14.5796
滀	-14.5796
蓩	-14.5796
袨	-14.5797
瑺	-14.5797
佪	-14.5797
㻝	-14.5797
閷	-14.5797
藘	-14.5797
崚	-14.5797
怐	-14.5797
㴞	-14.5797
佒	-14.5798
碯	-14.5798
訰	-14.5798
髁	-14.58
騸	-14.5801
葖	-14.5801
􁡡	-14.5803
羓	-14.5804
蔤	-14.5804
䳵	-14.5806
戼	-14.5806
嵹	-14.5806
嚦	-14.5806
惏	-14.5806
窞	-14.5807
惵	-14.581
􁒵	-14.581
姅	-14.5812
䂮	-14.5813
稉	-14.5813
吷	-14.5818
慂	-14.5818
鄵	-14.5822
甂	-14.5823
怤	-14.5824
􁫗	-14.5824
豤	-14.5826
弍	-14.5827
􁘣	-14.5828
妠	-14.583
蹡	-14.5836
􁋤	-14.584
觲	-14.5842
􁀥	-14.5842
䂩	-14.5848
笓	-14.585
沺	-14.5864
菾	-14.5873
􁠦	-14.7286
凵	-14.7322
歭	-14.733
顈	-14.7332
憢	-14.7335
鎣	-14.7355
僆	-14.7359
諞	-14.7361
詨	-14.7362
瀇	-14.7367
艖	-14.7373
梴	-14.7375
􁙤	-14.7375
􁟙	-14.7375
軑	-14.7376
􁕲	-14.7376
嗀	-14.7377
攇	-14.7377
庱	-14.7378
􁐼	-14.7379
嗝	-14.7383
忀	-14.7384
􁞞	-14.7384
葨	-14.7386
㠿	-14.7388
雔	-14.7388
㙪	-14.7388
蒪	-14.7389
癹	-14.7389
娿	-14.739
􁎂	-14.739
鐂	-14.7391
煻	-14.7391
餪	-14.7391
跢	-14.7391
鰨	-14.7392
􁐘	-14.7392
罧	-14.7392
悐	-14.7392
蟋	-14.7392
鋊	-14.7392
䉛	-14.7393
㔌	-14.7393
攵	-14.7393
篖	-14.7394
恜	-14.7395
䠸	-14.7396
笲	-14.7396
躨	-14.7396
癈	-14.7397
蠼	-14.7398
騲	-14.7398
䷓	-14.7398
鉝	-14.7399
貆	-14.7399
䙰	-14.74
渒	-14.7401
褷	-14.7401
􁃿	-14.7402
䓲	-14.7402
挃	-14.7402
槄	-14.7402
臤	-14.7402
騀	-14.7403
怩	-14.7403
趚	-14.7403
圥	-14.7403
巓	-14.7404
􁊧	-14.7404
㕁	-14.7404
􁚏	-14.7404
䓇	-14.7404
䵑	-14.7404
刌	-14.7406
䴥	-14.7406
籭	-14.7406
齴	-14.7406
鞳	-14.7407
慞	-14.7407
䬪	-14.7408
腄	-14.7408
􁑿	-14.7408
鉋	-14.7408
鵳	-14.7408
􁚓	-14.7408
㓤	-14.7409
鞸	-14.7409
鬺	-14.7409
㗲	-14.7409
秆	-14.741
􁢄	-14.741
躘	-14.7411
鵀	-14.7411
䷒	-14.7411
䆗	-14.7411
􁣣	-14.7411
潧	-14.7412
㵋	-14.7413
􁅗	-14.7413
伔	-14.7413
粦	-14.7414
魗	-14.7414
裰	-14.7414
奰	-14.7415
噁	-14.7415
㡩	-14.7415
瓆	-14.7415
蜦	-14.7416
𩕳	-14.7416
礋	-14.7416
䃋	-14.7416
瞗	-14.7416
嘳	-14.7416
􁷺	-14.7416
繛	-14.7417
薠	-14.7417
袩	-14.7417
􁑈	-14.7418
蛫	-14.7418
鐖	-14.7419
悆	-14.7419
􁴵	-14.7419
阤	-14.7419
藞	-14.7419
敐	-14.742
趽	-14.742
氶	-14.742
孏	-14.742
䗁	-14.742
鞟	-14.742
𤱔	-14.742
䀻	-14.742
訬	-14.742
浾	-14.7421
蟘	-14.7421
􁂣	-14.7421
䷊	-14.7421
㴻	-14.7422
䲊	-14.7422
俻	-14.7422
􁖊	-14.7422
篣	-14.7422
䳜	-14.7422
誃	-14.7422
洣	-14.7423
戙	-14.7423
俈	-14.7423
桱	-14.7423
稒	-14.7423
􁨳	-14.7423
棆	-14.7423
燂	-14.7423
䷪	-14.7423
醾	-14.7423
氉	-14.7423
㶌	-14.7424
衇	-14.7424
捊	-14.7424
􁏃	-14.7424
扠	-14.7424
毷	-14.7424
飀	-14.7424
䷫	-14.7424
猙	-14.7424
籦	-14.7424
磝	-14.7425
鱐	-14.7425
礓	-14.7425
輖	-14.7425
􁘡	-14.7425
斔	-14.7425
瀌	-14.7426
刕	-14.7426
涍	-14.7426
囱	-14.7426
罶	-14.7426
鄎	-14.7426
楇	-14.7426
穱	-14.7426
䕠	-14.7427
餫	-14.7427
鞼	-14.7427
㦲	-14.7427
躃	-14.7427
􁤶	-14.7427
猓	-14.7427
鋘	-14.7428
敶	-14.7428
膹	-14.7428
獽	-14.7428
􁐡	-14.7429
邍	-14.7429
㻞	-14.7429
􁆳	-14.7429
薻	-14.7429
捘	-14.743
漘	-14.743
樔	-14.743
幑	-14.743
掆	-14.743
陭	-14.743
䙗	-14.7431
撣	-14.7431
搋	-14.7431
􁆫	-14.7431
􁇛	-14.7431
遬	-14.7431
􁢸	-14.7431
㝵	-14.7431
觵	-14.7431
􁰻	-14.7431
芛	-14.7431
􁀓	-14.7431
婩	-14.7431
夅	-14.7431
灟	-14.7431
萈	-14.7431
琡	-14.7431
䄍	-14.7432
鞇	-14.7432
駜	-14.7432
穭	-14.7432
躳	-14.7432
瓫	-14.7432
絿	-14.7432
蕿	-14.7432
􁃻	-14.7432
黅	-14.7432
抎	-14.7432
苃	-14.7432
􁣚	-14.7433
棿	-14.7433
􁩛	-14.7433
騍	-14.7433
劦	-14.7433
襧	-14.7434
娰	-14.7434
堛	-14.7434
梘	-14.7434
尰	-14.7435
祌	-14.7435
茞	-14.7435
騞	-14.7435
吪	-14.7435
譨	-14.7435
嫿	-14.7435
鱨	-14.7435
鄁	-14.7435
賧	-14.7436
䓞	-14.7436
梐	-14.7436
㮮	-14.7436
晄	-14.7436
䴢	-14.7436
髲	-14.7436
蘪	-14.7437
沘	-14.7437
􁩪	-14.7437
煁	-14.7437
䜪	-14.7437
郲	-14.7437
欞	-14.7438
鼢	-14.7438
絟	-14.7438
􁁉	-14.7438
􁨺	-14.7438
􁉊	-14.7439
骷	-14.7439
懘	-14.7439
昡	-14.7439
濈	-14.7439
賏	-14.7439
硖	-14.7439
鐈	-14.7439
嫥	-14.7439
葏	-14.7439
鉥	-14.7439
㷏	-14.7439
桋	-14.7439
􁨈	-14.7439
砱	-14.744
萞	-14.744
萴	-14.744
吅	-14.744
嘩	-14.744
圅	-14.744
髧	-14.744
疪	-14.744
貣	-14.7441
遢	-14.7441
阰	-14.7441
㷊	-14.7441
擽	-14.7441
􁫼	-14.7441
穯	-14.7441
磓	-14.7442
䣄	-14.7442
噣	-14.7442
豰	-14.7442
􁣽	-14.7442
竸	-14.7443
砯	-14.7443
毚	-14.7443
砎	-14.7443
䀨	-14.7443
􁝠	-14.7443
夃	-14.7444
暒	-14.7444
皕	-14.7444
䭬	-14.7445
桬	-14.7445
匫	-14.7445
慠	-14.7445
䷳	-14.7446
寎	-14.7446
吰	-14.7446
𠯗	-14.7446
肣	-14.7446
朁	-14.7446
䧿	-14.7446
􁑋	-14.7446
朹	-14.7446
俲	-14.7447
㬢	-14.7447
覢	-14.7447
衜	-14.7447
鬇	-14.7447
弞	-14.7447
鴷	-14.7447
䘠	-14.7447
圣	-14.7448
綔	-14.7448
漅	-14.7448
蘐	-14.7448
􁈑	-14.7448
􁆐	-14.7449
覻	-14.7449
轙	-14.7449
𢋫	-14.7449
􁎙	-14.7449
儠	-14.7449
猧	-14.745
􁒎	-14.745
㝮	-14.7451
芺	-14.7451
􁙐	-14.7451
痣	-14.7451
鄈	-14.7451
􁋡	-14.7451
㱕	-14.7452
侅	-14.7452
妐	-14.7452
蓃	-14.7452
蔜	-14.7453
瑮	-14.7453
韽	-14.7453
丩	-14.7453
拑	-14.7453
䆠	-14.7454
貃	-14.7454
郏	-14.7454
䓈	-14.7454
嫺	-14.7455
􁜀	-14.7455
邂	-14.7455
茱	-14.7455
􁟤	-14.7455
肛	-14.7455
饇	-14.7455
縩	-14.7455
㮰	-14.7456
􁏛	-14.7456
緺	-14.7456
􁎝	-14.7456
􁰈	-14.7457
啙	-14.7457
敓	-14.7457
癧	-14.7457
􁂎	-14.7457
逍	-14.7457
洨	-14.7458
趢	-14.7458
楄	-14.7459
頩	-14.7459
粰	-14.7459
拲	-14.7459
腽	-14.7459
膲	-14.7459
斶	-14.7459
屆	-14.746
絼	-14.746
詀	-14.7461
瑢	-14.7461
愗	-14.7461
茙	-14.7462
侉	-14.7462
楳	-14.7462
磶	-14.7463
鼁	-14.7463
声	-14.7463
嶟	-14.7463
􁝜	-14.7463
蜇	-14.7464
掍	-14.7465
泙	-14.7465
礞	-14.7465
俌	-14.7465
蚸	-14.7466
㲼	-14.7466
㹪	-14.7467
梆	-14.7467
綁	-14.7467
􁚐	-14.7467
􁉅	-14.7467
撠	-14.7467
蛪	-14.7468
􁎐	-14.7468
瘏	-14.7468
崽	-14.7468
㬐	-14.7468
􁶘	-14.7469
菥	-14.747
㮧	-14.747
㥅	-14.747
瓵	-14.747
橮	-14.747
腱	-14.747
奫	-14.747
菣	-14.747
㶏	-14.7471
煊	-14.7471
飌	-14.7471
誻	-14.7471
鞜	-14.7471
崷	-14.7472
郠	-14.7472
婑	-14.7473
釪	-14.7473
梩	-14.7473
矑	-14.7473
馲	-14.7474
叁	-14.7474
袹	-14.7474
卮	-14.7475
澋	-14.7475
恲	-14.7475
􁀪	-14.7476
旳	-14.7476
灈	-14.7477
􁱵	-14.7477
鰭	-14.7477
姺	-14.7477
蕧	-14.7477
䧄	-14.7477
毶	-14.7478
􁕏	-14.7478
􁇠	-14.748
蘙	-14.748
篏	-14.7481
􁊽	-14.7482
悾	-14.7482
犳	-14.7483
羜	-14.7484
茰	-14.7484
􁦝	-14.7485
􁊲	-14.7485
䚎	-14.7486
鐟	-14.7486
㚟	-14.7487
趌	-14.7491
􁊍	-14.7493
睅	-14.7493
䍽	-14.7494
漺	-14.7498
􁆔	-14.7499
􁰓	-14.7501
䄜	-14.7504
靲	-14.7504
弲	-14.7504
蛜	-14.7507
鼘	-14.7509
蝛	-14.7509
誙	-14.751
誧	-14.7512
䐃	-14.7516
䏚	-14.7543
岪	-14.7554
踑	-14.7556
䙟	-14.7657
􁑘	-14.9291
䇂	-14.9296
觼	-14.9323
籨	-14.9325
􁅼	-14.9334
􁛃	-14.9336
䠧	-14.9339
陾	-14.9339
䙾	-14.9343
灎	-14.9343
􁒅	-14.935
䠱	-14.9352
簝	-14.9356
魖	-14.9357
䎡	-14.936
冞	-14.9363
玝	-14.9363
􁕳	-14.9366
䯔	-14.9369
呥	-14.9369
䯓	-14.937
􁚁	-14.9373
敜	-14.9373
􁋒	-14.9374
􁞋	-14.9374
僈	-14.9375
覗	-14.9375
膃	-14.9376
褹	-14.9376
􁔭	-14.9376
􁈠	-14.9376
鉈	-14.9376
􁬺	-14.9377
槾	-14.9377
蹞	-14.9377
䌳	-14.9378
雿	-14.9379
釳	-14.9379
変	-14.9379
乚	-14.9382
廔	-14.9382
鋧	-14.9383
靬	-14.9384
䚦	-14.9384
㗩	-14.9385
淠	-14.9385
夎	-14.9386
箹	-14.9386
鉾	-14.9386
䣼	-14.9387
偅	-14.9387
䁤	-14.9387
禗	-14.9387
堭	-14.9388
滰	-14.9388
誩	-14.9389
碡	-14.9389
鱊	-14.9391
寊	-14.9391
挋	-14.9391
䡅	-14.9392
艒	-14.9392
􁰔	-14.9392
䰅	-14.9393
矉	-14.9393
㕧	-14.9395
煔	-14.9395
䑿	-14.9395
趪	-14.9395
跜	-14.9395
极	-14.9396
犞	-14.9396
睭	-14.9396
猼	-14.9396
䬒	-14.9396
􁟕	-14.9397
鵊	-14.9398
躩	-14.9398
䷥	-14.9399
冖	-14.9399
蟸	-14.94
鏬	-14.9401
舝	-14.9401
瞵	-14.9401
乑	-14.9402
䶉	-14.9402
檆	-14.9402
􁐊	-14.9402
忁	-14.9402
􁜤	-14.9403
䔉	-14.9403
抐	-14.9403
䫉	-14.9403
筇	-14.9404
􁂌	-14.9404
鉟	-14.9404
􁥰	-14.9404
篻	-14.9405
鐼	-14.9405
㫬	-14.9406
䗺	-14.9406
㩌	-14.9406
桰	-14.9406
鯆	-14.9406
炟	-14.9407
誎	-14.9407
檒	-14.9407
鵛	-14.9407
糰	-14.9408
􁈓	-14.9408
尃	-14.9409
狟	-14.9409
㵣	-14.9409
孴	-14.941
筡	-14.941
櫼	-14.941
巤	-14.9411
礠	-14.9411
䌰	-14.9411
㡓	-14.9412
􁉒	-14.9412
䑽	-14.9413
䷀	-14.9413
啳	-14.9413
􁱃	-14.9413
溹	-14.9414
籑	-14.9414
􁍩	-14.9414
䷠	-14.9415
扤	-14.9415
眅	-14.9416
嶝	-14.9416
戳	-14.9416
􁍘	-14.9416
􁫂	-14.9416
輬	-14.9416
垺	-14.9416
歫	-14.9416
􁩒	-14.9416
邆	-14.9416
􁇀	-14.9417
􁘥	-14.9417
乿	-14.9417
㶿	-14.9417
孻	-14.9417
羫	-14.9417
􁞭	-14.9418
稸	-14.9418
稙	-14.9418
䱐	-14.9418
聟	-14.9418
鯋	-14.9418
痠	-14.9419
沕	-14.9419
􁆛	-14.9419
琈	-14.9419
欋	-14.9419
鍖	-14.9419
屖	-14.942
娡	-14.942
㱙	-14.942
䷛	-14.942
􁀫	-14.942
􁏨	-14.942
徘	-14.9421
䷗	-14.9421
擋	-14.9421
擏	-14.9421
鏵	-14.9421
㵒	-14.9421
娙	-14.9421
汵	-14.9421
􁏧	-14.9421
碻	-14.9422
墙	-14.9422
鑵	-14.9423
漝	-14.9423
㝩	-14.9423
㬦	-14.9423
䱁	-14.9423
粣	-14.9423
蚥	-14.9423
􁂐	-14.9424
惉	-14.9424
嵰	-14.9424
鵸	-14.9424
䁈	-14.9424
槹	-14.9424
蚔	-14.9424
繜	-14.9424
彃	-14.9425
􁯣	-14.9425
㲩	-14.9425
䗯	-14.9426
裻	-14.9426
㐳	-14.9427
脥	-14.9427
𨄌	-14.9427
䷍	-14.9427
伭	-14.9427
􁊢	-14.9427
琿	-14.9427
虳	-14.9427
鰦	-14.9427
􁁹	-14.9427
􁁕	-14.9428
䬟	-14.9428
鋀	-14.9428
昄	-14.9428
嗓	-14.9429
衈	-14.9429
􁍟	-14.9429
鼊	-14.9429
傛	-14.9429
嵽	-14.9429
􁏱	-14.9429
衵	-14.9429
欶	-14.9429
􁙫	-14.9429
􁙶	-14.9429
艐	-14.943
棎	-14.943
㔢	-14.943
䥖	-14.943
纕	-14.943
礚	-14.943
瓞	-14.943
㦤	-14.9431
暭	-14.9431
弒	-14.9431
邔	-14.9431
莔	-14.9431
䓑	-14.9431
廎	-14.9431
驆	-14.9431
䋙	-14.9431
㤜	-14.9431
􁃰	-14.9431
蛦	-14.9432
餾	-14.9432
􁍍	-14.9432
􁣰	-14.9432
瞼	-14.9432
瀷	-14.9432
殗	-14.9432
繍	-14.9432
綎	-14.9433
猬	-14.9433
癄	-14.9433
殠	-14.9433
蕅	-14.9433
諔	-14.9433
虍	-14.9433
猰	-14.9433
􁟢	-14.9433
鈁	-14.9433
􁪍	-14.9433
惀	-14.9433
䞉	-14.9434
􁌰	-14.9434
黹	-14.9434
摒	-14.9434
柛	-14.9434
螲	-14.9435
誆	-14.9435
塐	-14.9435
柊	-14.9435
鈘	-14.9435
閌	-14.9435
􁉧	-14.9435
杗	-14.9436
泀	-14.9436
緟	-14.9436
蔯	-14.9436
渻	-14.9436
芤	-14.9437
橧	-14.9437
焴	-14.9437
鷚	-14.9437
䩞	-14.9437
􁰥	-14.9437
橓	-14.9437
訞	-14.9437
罤	-14.9437
􁒬	-14.9437
岋	-14.9438
蟡	-14.9438
熸	-14.9438
綡	-14.9438
氌	-14.9438
㻠	-14.9438
迋	-14.9438
捓	-14.9439
輇	-14.9439
傫	-14.9439
攈	-14.9439
􁄵	-14.9439
㣚	-14.9439
􁢲	-14.944
怓	-14.944
覝	-14.944
𨕖	-14.944
湴	-14.944
廅	-14.944
鎜	-14.944
􁚩	-14.944
礌	-14.944
棷	-14.9441
􁅀	-14.9441
􁃛	-14.9441
黐	-14.9441
柶	-14.9441
㛗	-14.9441
璝	-14.9441
睊	-14.9441
􁁣	-14.9442
浜	-14.9442
甋	-14.9442
稘	-14.9442
􁥻	-14.9443
毱	-14.9443
􁎃	-14.9443
赥	-14.9443
圾	-14.9444
懞	-14.9444
醼	-14.9444
􁌀	-14.9444
􁱦	-14.9444
☲	-14.9444
􁎛	-14.9444
􁓂	-14.9444
􁎅	-14.9445
檞	-14.9445
缹	-14.9445
蠪	-14.9445
偄	-14.9445
䬍	-14.9445
㯫	-14.9445
詤	-14.9445
瑙	-14.9446
黰	-14.9446
韗	-14.9446
􁧐	-14.9446
揬	-14.9446
崪	-14.9447
丳	-14.9447
黭	-14.9447
􁞟	-14.9447
􁃠	-14.9447
垔	-14.9447
䬓	-14.9447
寏	-14.9447
􁇷	-14.9447
㢡	-14.9447
􁊓	-14.9447
䡴	-14.9447
儸	-14.9448
臇	-14.9448
􁂃	-14.9448
䷐	-14.9448
徕	-14.9448
繮	-14.9448
穧	-14.9448
䦘	-14.9448
齃	-14.9448
齖	-14.9449
崌	-14.9449
㨒	-14.9449
􁍰	-14.9449
䬔	-14.9449
竘	-14.9449
鴅	-14.9449
祆	-14.945
䳚	-14.945
􁂙	-14.945
餟	-14.945
膰	-14.945
忣	-14.945
蘥	-14.945
睜	-14.9451
惌	-14.9451
黕	-14.9451
霩	-14.9451
𩕄	-14.9451
鐮	-14.9451
刡	-14.9451
􁇡	-14.9451
抯	-14.9452
䩉	-14.9452
䖳	-14.9452
矓	-14.9452
􁁺	-14.9453
殜	-14.9453
薆	-14.9453
脃	-14.9453
􁡟	-14.9453
䣊	-14.9453
嵾	-14.9453
榽	-14.9453
篌	-14.9453
囙	-14.9453
韛	-14.9454
嶬	-14.9454
䜄	-14.9454
趹	-14.9454
􁡍	-14.9454
䳓	-14.9455
驦	-14.9455
倳	-14.9455
􁍮	-14.9455
穌	-14.9455
蚦	-14.9455
㒋	-14.9455
䃂	-14.9455
眐	-14.9455
珇	-14.9456
楉	-14.9456
􁌦	-14.9456
㬈	-14.9456
擉	-14.9456
刜	-14.9456
蟭	-14.9457
蒓	-14.9457
廥	-14.9457
嵿	-14.9457
䧢	-14.9457
哪	-14.9457
掁	-14.9457
僩	-14.9457
熅	-14.9457
鷧	-14.9457
犲	-14.9458
顋	-14.9458
㠱	-14.9458
鮥	-14.9458
妮	-14.9459
哱	-14.9459
牥	-14.9459
睘	-14.9459
摚	-14.946
􁊀	-14.946
􁃞	-14.946
杍	-14.946
鄝	-14.946
􁍆	-14.946
蚠	-14.9461
逜	-14.9461
醶	-14.9461
旪	-14.9461
櫆	-14.9461
䬠	-14.9461
鼪	-14.9461
䊝	-14.9461
譐	-14.9461
趗	-14.9462
磉	-14.9462
穇	-14.9462
粛	-14.9462
􁡷	-14.9462
蟿	-14.9463
䐜	-14.9463
碞	-14.9463
鏽	-14.9463
􁓙	-14.9463
獂	-14.9464
竀	-14.9464
椗	-14.9464
珖	-14.9464
茺	-14.9464
髖	-14.9464
㵌	-14.9464
篢	-14.9465
鮈	-14.9466
蚛	-14.9466
吽	-14.9467
䔫	-14.9467
晵	-14.9467
崝	-14.9467
䂬	-14.9467
棯	-14.9467
䅖	-14.9468
䆡	-14.9468
㐌	-14.9468
狔	-14.9469
帮	-14.9469
􁉦	-14.9469
娒	-14.9469
襳	-14.9469
弴	-14.947
蜹	-14.947
䰞	-14.947
􁇔	-14.947
嶗	-14.947
涹	-14.947
􁃎	-14.9471
摝	-14.9471
䐈	-14.9471
淢	-14.9471
㗔	-14.9471
嬃	-14.9472
螕	-14.9472
穊	-14.9472
䢅	-14.9472
篗	-14.9472
􁃊	-14.9472
􁃂	-14.9473
囗	-14.9473
㿃	-14.9473
駷	-14.9473
𠺕	-14.9473
藦	-14.9473
螞	-14.9473
貇	-14.9473
椳	-14.9473
罼	-14.9474
􁧜	-14.9474
燉	-14.9475
鱎	-14.9475
哳	-14.9475
嚩	-14.9475
緧	-14.9475
𤇺	-14.9475
寣	-14.9475
􁉫	-14.9476
㛹	-14.9476
釄	-14.9476
嵁	-14.9477
憘	-14.9478
憔	-14.9478
𡷗	-14.9478
繠	-14.9478
㩱	-14.9479
醙	-14.9479
弎	-14.948
芐	-14.948
䃘	-14.9481
鐋	-14.9481
㖩	-14.9481
􁈮	-14.9481
构	-14.9482
胻	-14.9483
扦	-14.9484
􁐍	-14.9484
􁠽	-14.9484
􁅥	-14.9485
鑐	-14.9486
懠	-14.9486
鏳	-14.9486
园	-14.9486
蘵	-14.9486
綷	-14.9487
歀	-14.9487
蜐	-14.9489
蝐	-14.9489
㱁	-14.9489
􁍝	-14.949
􁉁	-14.9492
䠥	-14.9492
㬌	-14.9493
幖	-14.9493
􁌐	-14.9494
􁌣	-14.9494
忬	-14.9495
􁅨	-14.9495
漎	-14.9496
烑	-14.9498
螒	-14.9499
䴌	-14.9499
㙡	-14.9503
錥	-14.9503
幈	-14.9504
禈	-14.9504
蚙	-14.9506
踒	-14.9506
􁛣	-14.9507
螚	-14.9507
䗐	-14.9512
䍿	-14.9512
藊	-14.952
抌	-14.9526
耾	-14.9529
崋	-14.955
㠾	-14.9555
􁪴	-15.1779
䶋	-15.1782
􁙏	-15.1782
洈	-15.1785
䍤	-15.1794
䈿	-15.1807
呤	-15.1811
誱	-15.1823
􁃭	-15.1829
膸	-15.1833
襱	-15.1836
􁅴	-15.1837
哿	-15.1837
灮	-15.1842
偨	-15.1843
蟕	-15.1843
歑	-15.1845
䴹	-15.1845
􁈼	-15.1845
㠲	-15.1846
􁐷	-15.1846
㡜	-15.1847
􁆟	-15.1847
矏	-15.1848
􁤈	-15.1851
痮	-15.1852
犅	-15.1854
鎞	-15.1855
栧	-15.1855
愸	-15.1856
􁉂	-15.1857
藇	-15.1859
侐	-15.1859
𨵦	-15.1859
䁾	-15.1861
肬	-15.1862
录	-15.1862
􁍡	-15.1862
䆛	-15.1863
䗃	-15.1863
㢅	-15.1864
􁠣	-15.1864
疤	-15.1865
㬮	-15.1865
螋	-15.1866
䀠	-15.1868
銻	-15.1868
柍	-15.1868
䷖	-15.1869
窢	-15.1869
飍	-15.1869
䊪	-15.1869
菄	-15.187
䒢	-15.1872
杮	-15.1873
莦	-15.1873
􁅋	-15.1874
秱	-15.1875
牉	-15.1875
湁	-15.1875
􁂏	-15.1876
逤	-15.1877
䒃	-15.1877
筕	-15.1877
嘸	-15.1877
奀	-15.1878
磡	-15.1878
䷣	-15.1879
懕	-15.1879
幜	-15.1879
􁬚	-15.188
䖘	-15.188
蚼	-15.188
仦	-15.1881
櫹	-15.1881
㾓	-15.1881
􁇟	-15.1881
姂	-15.1881
袾	-15.1882
鋢	-15.1882
㾕	-15.1882
䑦	-15.1882
􁊾	-15.1882
㼻	-15.1883
鮁	-15.1883
鰜	-15.1884
􁊸	-15.1884
諰	-15.1884
祱	-15.1886
鮇	-15.1886
蚴	-15.1886
㱎	-15.1886
愌	-15.1886
濎	-15.1886
梮	-15.1887
􁴧	-15.1887
櫋	-15.1888
􁇖	-15.1888
瓭	-15.1888
癶	-15.189
逅	-15.189
㧪	-15.189
僙	-15.189
膬	-15.1891
怗	-15.1891
㒟	-15.1891
忲	-15.1892
桫	-15.1892
虈	-15.1893
蚷	-15.1894
轖	-15.1894
􁙕	-15.1894
徦	-15.1895
䷰	-15.1895
凔	-15.1895
䷽	-15.1895
儦	-15.1895
䳒	-15.1895
盨	-15.1895
㣙	-15.1895
眕	-15.1895
㑗	-15.1895
瓺	-15.1895
槤	-15.1897
蛢	-15.1897
頿	-15.1897
􁎖	-15.1897
鶌	-15.1897
􁸐	-15.1897
姎	-15.1897
焭	-15.1898
牄	-15.1898
桾	-15.1898
褡	-15.1898
􁪮	-15.1898
坶	-15.19
挀	-15.19
鉇	-15.19
䱡	-15.19
髎	-15.19
嶡	-15.1901
䘌	-15.1901
朳	-15.1901
辢	-15.1901
􁰤	-15.1901
􁖯	-15.1901
荾	-15.1901
䅌	-15.1902
螝	-15.1902
䷇	-15.1902
鶙	-15.1902
棪	-15.1903
腝	-15.1904
㩧	-15.1904
趑	-15.1904
􁂟	-15.1904
嫽	-15.1904
􁍗	-15.1904
㐬	-15.1905
䲷	-15.1905
葟	-15.1905
􁄃	-15.1905
䥝	-15.1905
薃	-15.1905
􁸨	-15.1905
䗲	-15.1906
葼	-15.1906
鯞	-15.1906
鞄	-15.1906
􁢚	-15.1906
䀪	-15.1906
槷	-15.1906
陓	-15.1906
䘀	-15.1906
楅	-15.1906
䭱	-15.1908
麊	-15.1908
襋	-15.1908
祡	-15.1908
􁰌	-15.1908
㢏	-15.1908
嶅	-15.1908
摿	-15.1908
鶐	-15.1908
鞙	-15.1909
瞴	-15.1909
嚖	-15.1909
瘭	-15.1909
躟	-15.1909
髒	-15.1909
􁐄	-15.1909
鈚	-15.191
㒓	-15.1911
袥	-15.1911
坥	-15.1911
緷	-15.1911
屾	-15.1911
婸	-15.1911
楲	-15.1911
跙	-15.1911
鞥	-15.1911
䷃	-15.1912
☵	-15.1912
駾	-15.1912
靘	-15.1912
襔	-15.1912
軶	-15.1912
􁦤	-15.1912
巿	-15.1913
諕	-15.1913
磂	-15.1913
䯢	-15.1913
遻	-15.1913
㧻	-15.1913
􁜖	-15.1913
褮	-15.1913
厤	-15.1913
㮴	-15.1913
愅	-15.1913
􁛺	-15.1913
􁆴	-15.1913
􁐾	-15.1915
嚱	-15.1915
􁙮	-15.1915
脝	-15.1915
􁀝	-15.1915
􁛜	-15.1915
喓	-15.1915
䴬	-15.1916
胬	-15.1916
㛴	-15.1916
䑰	-15.1916
聈	-15.1916
髃	-15.1916
酨	-15.1917
㚖	-15.1918
罜	-15.1918
䘒	-15.1918
鳽	-15.1918
碆	-15.1918
稆	-15.1918
􁌘	-15.1918
㠔	-15.1918
毼	-15.1918
嫳	-15.1918
詽	-15.1918
鸁	-15.1918
黺	-15.1918
蟅	-15.1919
泿	-15.1919
㷭	-15.1919
􁉸	-15.1919
枎	-15.1919
誋	-15.1919
􁎤	-15.1919
劋	-15.1919
􁍥	-15.1919
找	-15.192
☷	-15.192
髼	-15.192
􁠾	-15.192
􁏉	-15.192
􁘕	-15.192
䙱	-15.192
觗	-15.192
朙	-15.192
顖	-15.192
髴	-15.192
坽	-15.192
犙	-15.192
縒	-15.1921
䘳	-15.1922
浲	-15.1922
帵	-15.1922
秡	-15.1922
迊	-15.1922
羍	-15.1922
环	-15.1922
魭	-15.1922
錕	-15.1922
􁴦	-15.1922
餛	-15.1923
䵎	-15.1923
忨	-15.1923
茖	-15.1923
衹	-15.1923
㟪	-15.1923
䭑	-15.1923
礨	-15.1923
翆	-15.1923
隞	-15.1923
懙	-15.1923
烔	-15.1923
􁃳	-15.1923
关	-15.1924
侂	-15.1924
霫	-15.1924
􁘦	-15.1924
蚗	-15.1924
暋	-15.1924
楡	-15.1924
埇	-15.1924
楈	-15.1924
㕟	-15.1924
愖	-15.1924
􁎊	-15.1926
㭾	-15.1926
閺	-15.1926
碫	-15.1926
㙯	-15.1926
乱	-15.1926
狪	-15.1926
貮	-15.1926
􁩓	-15.1926
􁇜	-15.1926
瞌	-15.1926
諿	-15.1926
魧	-15.1926
􁓿	-15.1926
􁜷	-15.1926
崡	-15.1927
䷄	-15.1927
鰝	-15.1927
餃	-15.1927
㵎	-15.1927
躢	-15.1927
䰽	-15.1927
霼	-15.1927
疱	-15.1929
鸓	-15.1929
裟	-15.1929
鶛	-15.1929
蹹	-15.1929
㝗	-15.1929
䤬	-15.1929
鼚	-15.1929
芿	-15.1929
䷈	-15.193
毸	-15.193
矝	-15.193
糳	-15.193
鈌	-15.193
偭	-15.193
蠘	-15.193
岯	-15.193
沊	-15.193
璸	-15.193
鮯	-15.193
􁇯	-15.193
㛍	-15.193
䰧	-15.193
胭	-15.1931
皡	-15.1931
垚	-15.1931
靮	-15.1931
勠	-15.1931
楺	-15.1931
䤪	-15.1931
褽	-15.1931
錟	-15.1931
􁡥	-15.1931
姟	-15.1931
摏	-15.1933
誐	-15.1933
䟎	-15.1933
瘛	-15.1933
菙	-15.1933
姡	-15.1933
联	-15.1933
醄	-15.1933
􁁙	-15.1933
􁇩	-15.1933
挱	-15.1933
癜	-15.1933
驖	-15.1933
鼜	-15.1933
䛒	-15.1933
爉	-15.1933
齚	-15.1934
􁲍	-15.1934
鼺	-15.1934
瘂	-15.1934
鉔	-15.1934
錜	-15.1934
溔	-15.1935
􁩈	-15.1936
䗅	-15.1936
恿	-15.1936
赶	-15.1936
菤	-15.1936
猈	-15.1936
禃	-15.1936
袈	-15.1937
㓺	-15.1937
鈲	-15.1937
剨	-15.1937
宎	-15.1937
漤	-15.1937
葊	-15.1937
皯	-15.1937
䑎	-15.1937
䰛	-15.1937
廗	-15.1937
鄦	-15.1937
䍡	-15.1938
絯	-15.1938
胇	-15.1938
􁅰	-15.1938
䷑	-15.1938
瀐	-15.1938
䲙	-15.1938
狤	-15.1938
垾	-15.1938
䠆	-15.1938
􁟆	-15.1938
􁂜	-15.194
䢇	-15.194
恾	-15.194
㔾	-15.194
㬑	-15.194
卶	-15.194
捖	-15.194
㳚	-15.194
􁝷	-15.194
顳	-15.194
䀲	-15.1941
􁍏	-15.1941
獳	-15.1941
䮯	-15.1941
􁂆	-15.1941
螱	-15.1941
􁆖	-15.1941
􁍴	-15.1941
㩶	-15.1941
楀	-15.1942
髾	-15.1942
㿽	-15.1942
㟏	-15.1942
雧	-15.1942
澭	-15.1942
􁇳	-15.1942
㲻	-15.1942
飧	-15.1942
侊	-15.1942
獙	-15.1942
褑	-15.1942
䃜	-15.1943
䰎	-15.1943
䴚	-15.1943
燛	-15.1943
􁒦	-15.1943
􁱘	-15.1943
鏻	-15.1943
􁰢	-15.1944
飦	-15.1944
􁦸	-15.1944
􁳪	-15.1944
􁁑	-15.1944
靫	-15.1944
㲨	-15.1944
峝	-15.1944
簄	-15.1944
謯	-15.1944
馽	-15.1945
㯔	-15.1945
釚	-15.1945
顅	-15.1945
尘	-15.1945
箰	-15.1945
䖮	-15.1945
篦	-15.1945
霹	-15.1945
龘	-15.1945
㚋	-15.1945
㹞	-15.1945
䣘	-15.1945
蒁	-15.1945
鄋	-15.1946
丌	-15.1946
􁈘	-15.1946
䪼	-15.1947
矂	-15.1947
岈	-15.1947
䖀	-15.1947
庮	-15.1947
㥄	-15.1947
夝	-15.1947
柉	-15.1947
峱	-15.1948
倈	-15.1948
曮	-15.1948
􁁷	-15.1948
熢	-15.1948
㙺	-15.1948
䋫	-15.1948
䪍	-15.1948
髺	-15.1948
裶	-15.1948
婞	-15.1948
礝	-15.1948
㕎	-15.1948
𡼏	-15.1949
疐	-15.1949
榯	-15.1949
玞	-15.1949
楧	-15.1949
􁄧	-15.1949
䩫	-15.1949
婤	-15.1949
暪	-15.1949
􁂲	-15.1949
𡊮	-15.195
攠	-15.1951
堘	-15.1951
􁌥	-15.1951
􁘛	-15.1951
閦	-15.1951
鈵	-15.1951
珷	-15.1951
幎	-15.1951
玡	-15.1951
翨	-15.1951
晐	-15.1951
􁚔	-15.1951
㧬	-15.1951
䥦	-15.1951
徥	-15.1951
唔	-15.1952
鰶	-15.1952
􁃔	-15.1952
􁬇	-15.1952
痗	-15.1952
卟	-15.1952
蘴	-15.1952
䰀	-15.1952
痃	-15.1952
蛃	-15.1952
孋	-15.1953
屚	-15.1953
騝	-15.1954
􁚜	-15.1954
崍	-15.1954
桒	-15.1954
圡	-15.1954
䢷	-15.1954
㮆	-15.1954
頄	-15.1955
䫫	-15.1955
翄	-15.1955
卪	-15.1955
糒	-15.1955
􁈻	-15.1955
􁖌	-15.1955
㹼	-15.1955
䐣	-15.1955
伿	-15.1955
昰	-15.1955
􁆭	-15.1955
􁚳	-15.1955
竗	-15.1956
鍉	-15.1956
䔾	-15.1956
䟫	-15.1956
􁗒	-15.1956
鬠	-15.1956
䘓	-15.1956
䰐	-15.1956
嬬	-15.1956
㿿	-15.1958
嚎	-15.1958
莃	-15.1958
磛	-15.1958
磢	-15.1958
髢	-15.1958
洢	-15.1958
薮	-15.1958
痬	-15.1958
􁃁	-15.1958
枍	-15.1958
􁦡	-15.1958
莂	-15.1958
鄬	-15.1958
䴏	-15.1959
􁫵	-15.1959
鰧	-15.1959
袄	-15.1959
鋜	-15.1959
䢣	-15.1959
鮂	-15.1959
擨	-15.1959
􁱈	-15.1959
􁱷	-15.1959
僲	-15.1959
庥	-15.1959
􁱑	-15.1959
僘	-15.1959
􁎮	-15.1959
􁇣	-15.196
匶	-15.1961
驠	-15.1961
鍱	-15.1961
睮	-15.1961
苰	-15.1962
䲄	-15.1962
憭	-15.1962
㞐	-15.1962
懂	-15.1962
菵	-15.1963
鄟	-15.1963
胴	-15.1963
踡	-15.1963
肳	-15.1963
蠞	-15.1963
㩻	-15.1963
晀	-15.1963
􁔸	-15.1963
蓫	-15.1963
惂	-15.1965
􁊂	-15.1965
皽	-15.1965
􁑾	-15.1965
騯	-15.1965
弅	-15.1966
髣	-15.1966
踸	-15.1966
䑃	-15.1966
縆	-15.1966
嵠	-15.1966
􁦉	-15.1966
㢦	-15.1966
槴	-15.1966
彾	-15.1966
貭	-15.1967
䰒	-15.1967
驨	-15.1967
埂	-15.1967
傋	-15.1967
赮	-15.1969
煛	-15.1969
蕂	-15.1969
鷀	-15.1969
櫱	-15.1969
䫜	-15.1969
棡	-15.1969
薕	-15.197
䃤	-15.197
魦	-15.197
􁩞	-15.197
喅	-15.197
帇	-15.197
炲	-15.197
傻	-15.197
􁊊	-15.1971
􁥽	-15.1972
茪	-15.1972
􁧉	-15.1972
埔	-15.1972
蔝	-15.1972
謊	-15.1973
䄈	-15.1973
䆍	-15.1973
􁋉	-15.1973
􁚖	-15.1973
蠈	-15.1974
㕙	-15.1974
蕸	-15.1974
噇	-15.1974
􁍺	-15.1974
餢	-15.1974
􁨤	-15.1974
堉	-15.1976
􁀒	-15.1976
茐	-15.1976
緂	-15.1976
撊	-15.1976
鑮	-15.1976
潚	-15.1977
􁘢	-15.1977
巄	-15.1977
矸	-15.1978
抬	-15.1978
搠	-15.1978
澫	-15.1979
姱	-15.1979
轜	-15.198
𩥇	-15.1981
䙃	-15.1981
垐	-15.1981
㻐	-15.1981
捏	-15.1983
㗜	-15.1983
㜪	-15.1984
鸀	-15.1984
㨭	-15.1984
葀	-15.1984
噥	-15.1984
櫫	-15.1984
㑄	-15.1984
􁆧	-15.1984
蠎	-15.1985
啅	-15.1987
檘	-15.1987
涀	-15.1987
􁋽	-15.1988
瑿	-15.1988
㤣	-15.1988
𦿆	-15.199
櫐	-15.199
砠	-15.1991
噳	-15.1991
烞	-15.1992
􁠻	-15.1992
􁩁	-15.1992
劮	-15.1994
􁣜	-15.1994
佝	-15.1994
蘑	-15.1994
粞	-15.1994
􁜝	-15.1994
鐉	-15.1995
䔮	-15.1995
怞	-15.1995
􁈆	-15.1995
鴊	-15.1997
晫	-15.1997
滶	-15.1997
喞	-15.1997
燅	-15.1997
硻	-15.1998
𫾣	-15.1998
懤	-15.1998
􁛹	-15.2001
軬	-15.2001
陒	-15.2001
鯚	-15.2001
獜	-15.2001
􁈥	-15.2001
慬	-15.2004
􁠸	-15.2005
瑴	-15.2005
唪	-15.2006
肮	-15.2008
呾	-15.2008
䱟	-15.2008
鯧	-15.2009
桹	-15.2012
咶	-15.2015
瑝	-15.2015
穬	-15.2016
㒞	-15.2016
攳	-15.2016
獿	-15.2016
廝	-15.2018
􁀖	-15.2022
笶	-15.2023
􁤎	-15.2024
潿	-15.2025
裷	-15.2026
椆	-15.2026
嫶	-15.2026
熚	-15.2028
㹱	-15.2031
幱	-15.2032
橠	-15.2052
嬹	-15.2062
秥	-15.2063
凇	-15.2084
蕄	-15.2165
儚	-15.2173
㕈	-15.5179
㔅	-15.5215
㗱	-15.5235
㒸	-15.5244
㙬	-15.525
婕	-15.5256
■	-15.526
㑌	-15.5275
㖡	-15.5277
㗸	-15.5281
㑭	-15.5285
㕱	-15.5287
㕹	-15.5287
蜈	-15.5293
蟀	-15.5296
☴	-15.5297
鵡	-15.5306
㙜	-15.5311
㔡	-15.5352
莉	-15.5356
>	-16.0167
蝴	-16.0198
㯽	-16.0214
鸜	-16.0242
蛺	-16.028
箜	-16.0294
茉	-16.0301
昀	-17.0104
胱	-17.0284
靂	-17.03
囹	-17.0316
閂	-17.0427
蝳	-17.0428
嘪	-17.0429
怲	-17.043
嚃	-17.0431
㔫	-17.0432
毺	-17.0433
呢	-17.0434
蟖	-17.0435
偬	-17.0436
郸	-17.0437
偫	-17.0438
鋮	-17.0439
蒡	-17.044
懥	-17.0441
皪	-17.0442
㲣	-17.0443
鎁	-17.0444
藶	-17.0445
葶	-17.0446
犄	-17.0447
彲	-17.0448
饆	-17.0449
裲	-17.045
舴	-17.0451
毾	-17.0452
婷	-17.0453
嚀	-17.0454
觫	-17.0455
貅	-17.0456
栳	-17.0457
狺	-17.0458
呦	-17.0459
蹭	-17.046
螵	-17.0461
􁁇	-17.0462
詿	-17.0463
毿	-17.0464
魈	-17.0465
湲	-17.0466
岣	-17.0467
糢	-17.0468
蟪	-17.0469
羚	-17.047
=	-17.0471
韆	-17.0472
嫦	-17.0473
崆	-17.0474
蝙	-17.0475
3	-17.0476
"	-17.0477
蜘	-17.0477
