<unk>	0
<s>	0
</s>	0
之	-3.86665
也	-4.27004
而	-4.34418
以	-4.56207
者	-4.69891
/	-4.80049
則	-4.84236
為	-4.87634
其	-4.93205
(	-4.94922
有	-4.97642
不	-5.09148
)	-5.20617
曰	-5.21635
於	-5.22567
人	-5.37625
是	-5.39341
無	-5.50703
言	-5.53765
一	-5.57836
如	-5.68564
自	-5.68871
故	-5.72097
與	-5.72702
矣	-5.75012
此	-5.76901
得	-5.87997
)(	-5.88599
然	-5.9495
大	-5.95015
事	-5.96613
皆	-6.04204
亦	-6.05015
所	-6.05082
至	-6.05172
在	-6.062
上	-6.06274
謂	-6.07529
非	-6.08461
見	-6.10418
子	-6.10498
乎	-6.10803
中	-6.11521
行	-6.11634
時	-6.12695
若	-6.16082
問	-6.16926
心	-6.17446
道	-6.19401
處	-6.20985
又	-6.24239
用	-6.27452
知	-6.2824
必	-6.32955
正	-6.33689
/)	-6.39644
下	-6.39656
説	-6.4059
當	-6.40985
生	-6.43389
所以	-6.43613
乃	-6.4507
臣	-6.45705
已	-6.46676
于	-6.46821
明	-6.46873
王	-6.47752
公	-6.4839
使	-6.48751
可	-6.4878
雖	-6.49397
天	-6.50001
民	-6.5072
便	-6.50801
欲	-6.51691
作	-6.53498
焉	-6.53968
學	-6.54113
▁	-6.54659
能	-6.55082
書	-6.55556
出	-6.57414
云	-6.57725
相	-6.57869
三	-6.58023
今	-6.58177
成	-6.58854
及	-6.59827
去	-6.60927
禮	-6.62252
即	-6.62511
日	-6.63806
說	-6.6492
文	-6.65837
君	-6.66734
多	-6.67342
易	-6.69264
本	-6.7006
義	-6.70553
方	-6.7085
或	-6.70949
後	-6.7253
○	-6.72779
同	-6.73181
惟	-6.75536
所謂	-6.75667
立	-6.76898
善	-6.77441
從	-6.77457
夫	-6.77588
未	-6.78055
以為	-6.78272
氣	-6.78383
不可	-6.79672
官	-6.79882
既	-6.80244
耳	-6.803
先	-6.80416
二	-6.80451
法	-6.81128
分	-6.82706
意	-6.82811
如此	-6.83456
盡	-6.83867
字	-6.83879
名	-6.83998
理	-6.84364
將	-6.85152
安	-6.85983
爲	-6.86027
聖人	-6.86391
國	-6.86688
仁	-6.87137
物	-6.8826
哉	-6.88287
合	-6.88387
命	-6.88903
論	-6.89471
實	-6.89795
四	-6.9019
不能	-6.90248
來	-6.90758
只是	-6.91127
我	-6.91488
地	-6.91596
入	-6.91669
天下	-6.91679
何	-6.91834
復	-6.92209
長	-6.93955
因	-6.94835
徳	-6.96356
常	-6.96772
猶	-6.96794
樂	-6.98001
他	-6.98362
而不	-6.98628
數	-6.99675
且	-6.99692
重	-7.00425
五	-7.00842
敬	-7.01244
吾	-7.01251
但	-7.01281
居	-7.01373
始	-7.02192
反	-7.0245
動	-7.0282
主	-7.04121
死	-7.04451
了	-7.05321
只	-7.05508
取	-7.05906
通	-7.06057
士	-7.06097
陽	-7.0631
外	-7.0648
好	-7.07322
世	-7.07788
治	-7.07874
要	-7.08241
家	-7.09211
過	-7.09532
定	-7.09845
小	-7.0994
求	-7.11084
水	-7.12135
令	-7.14375
經	-7.15283
師	-7.15337
性	-7.15567
凡	-7.15887
親	-7.16665
遂	-7.17599
甚	-7.17699
周	-7.18097
極	-7.18227
思	-7.18344
却	-7.18695
身	-7.20324
難	-7.20342
固	-7.21025
神	-7.21216
不得	-7.21552
兵	-7.21968
舉	-7.22571
年	-7.22699
便是	-7.22888
不知	-7.24123
者也	-7.24184
體	-7.25832
教	-7.26396
誠	-7.26433
平	-7.26828
諸	-7.26837
服	-7.27163
語	-7.27197
聞	-7.27267
信	-7.27596
六	-7.28069
節	-7.28075
觀	-7.28212
食	-7.2833
君子	-7.28499
而已	-7.29442
發	-7.2957
志	-7.29941
元	-7.30066
利	-7.30107
内	-7.31114
守	-7.3112
變	-7.31781
歸	-7.32005
和	-7.32168
祭	-7.32389
止	-7.32719
孔子	-7.33135
少	-7.33175
著	-7.33315
蓋	-7.33839
音	-7.34019
初	-7.34907
惡	-7.34941
詩	-7.35022
深	-7.35043
兩	-7.35716
終	-7.35813
前	-7.35914
制	-7.35959
爾	-7.36088
聖	-7.36187
父	-7.36236
進	-7.37046
陳	-7.37095
直	-7.38605
稱	-7.38621
先生	-7.38873
亂	-7.40107
賢	-7.40278
齊	-7.40761
異	-7.4079
聲	-7.41376
政	-7.41793
都	-7.41903
氏	-7.4221
致	-7.4281
德	-7.43347
隂	-7.43399
宜	-7.43495
位	-7.43766
力	-7.44008
更	-7.4401
由	-7.44112
盖	-7.44255
近	-7.4449
之意	-7.45434
逺	-7.45668
失	-7.4567
髙	-7.45714
某	-7.45969
傳	-7.4626
九	-7.46315
看	-7.46368
各	-7.47141
衆	-7.47242
山	-7.47558
受	-7.47737
學者	-7.48102
章	-7.48655
之道	-7.48662
就	-7.48808
帝	-7.48922
起	-7.48925
天地	-7.49038
須	-7.51129
州	-7.51146
切	-7.52127
可以	-7.52128
古	-7.52638
朝	-7.53017
辭	-7.53914
如何	-7.53918
風	-7.55043
孟子	-7.55049
應	-7.55627
月	-7.55843
底	-7.55963
順	-7.56016
存	-7.56078
田	-7.56184
獨	-7.56923
己	-7.56964
養	-7.5792
漢	-7.58145
孝	-7.59135
尚	-7.60377
興	-7.6132
尊	-7.62268
解	-7.62362
象	-7.62738
任	-7.63684
愛	-7.63686
謂之	-7.63794
彼	-7.64299
益	-7.64446
馬	-7.64518
讀	-7.65186
㑹	-7.65218
宋	-7.65437
等	-7.65469
人之	-7.65564
化	-7.65797
到	-7.66037
殺	-7.66156
才	-7.66943
功	-7.67021
又曰	-7.67066
豈	-7.67099
全	-7.67103
之心	-7.6755
南	-7.67587
刑	-7.67971
東	-7.67971
疑	-7.68056
請	-7.6822
之事	-7.68227
視	-7.68266
備	-7.68334
張	-7.68408
至於	-7.68499
似	-7.68509
情	-7.68871
廣	-7.69273
母	-7.69379
然後	-7.69599
做	-7.69786
秦	-7.70104
諸侯	-7.70756
流	-7.70761
嘗	-7.71178
門	-7.71294
類	-7.71374
葢	-7.71777
修	-7.72414
别	-7.72579
軍	-7.72836
間	-7.72897
開	-7.73359
度	-7.73404
恐	-7.73554
而後	-7.73602
武	-7.73723
宗	-7.73747
推	-7.74212
忠	-7.74875
百	-7.75073
亡	-7.75139
精	-7.75219
加	-7.75551
卒	-7.75581
對	-7.7571
莫	-7.75938
足	-7.76732
晉	-7.77771
指	-7.77979
西	-7.78484
八	-7.78792
屬	-7.788
比	-7.79311
女	-7.7934
交	-7.79471
伯	-7.79474
勝	-7.79921
清	-7.80084
土	-7.80587
次	-7.80835
老	-7.8085
其所	-7.81539
之所	-7.81598
絶	-7.82085
記	-7.82348
告	-7.82646
太	-7.83967
這	-7.84129
窮	-7.84479
十	-7.85124
私	-7.85274
貴	-7.85402
病	-7.85405
不同	-7.85827
執	-7.8599
七	-7.8602
夏	-7.86078
坐	-7.86271
卦	-7.86964
容	-7.87372
光	-7.87885
斯	-7.88137
改	-7.88394
金	-7.89016
務	-7.89084
計	-7.89095
智	-7.89138
釋	-7.89211
之間	-7.89675
具	-7.89718
厚	-7.89818
萬	-7.89969
輕	-7.90091
引	-7.90134
自然	-7.9051
首	-7.90598
木	-7.90872
載	-7.91032
魯	-7.91083
害	-7.91274
盛	-7.91505
設	-7.91635
形	-7.91858
祖	-7.91949
春秋	-7.91953
不敢	-7.91962
識	-7.91964
天子	-7.92432
火	-7.92653
謀	-7.92816
器	-7.9307
兼	-7.93157
李	-7.93616
楚	-7.94509
虚	-7.94568
史	-7.94621
夫子	-7.94677
唐	-7.94792
考	-7.94906
議	-7.95085
置	-7.95581
廢	-7.95946
權	-7.96205
邪	-7.96414
石	-7.97009
口	-7.97275
那	-7.97411
美	-7.97792
原	-7.97796
大夫	-7.9806
真	-7.98179
之理	-7.98307
有所	-7.98461
而無	-7.98482
白	-7.9849
舊	-7.98562
按	-7.98818
篇	-7.9882
剛	-7.98837
司	-7.99109
罪	-7.99248
之義	-7.99285
萬物	-7.99349
習	-7.99464
隂陽	-7.99541
保	-7.99544
色	-7.99777
廟	-8.00113
宫	-8.00224
離	-8.00492
憂	-8.00778
之言	-8.01167
車	-8.01272
克	-8.01272
北	-8.01556
積	-8.01562
察	-8.01715
是以	-8.01954
嚴	-8.02164
之時	-8.02228
放	-8.02726
微	-8.02891
城	-8.02891
不足	-8.03001
望	-8.03365
最	-8.0373
孫	-8.03785
不是	-8.03901
来	-8.03946
省	-8.04065
達	-8.04301
侯	-8.04389
天理	-8.048
無所	-8.04942
往	-8.05172
故曰	-8.05343
序	-8.05486
之説	-8.05527
建	-8.05593
散	-8.05801
戒	-8.06096
父母	-8.06406
鄭	-8.06488
子曰	-8.06977
疾	-8.0713
古人	-8.07446
强	-8.0767
嵗	-8.07886
封	-8.0796
果	-8.08108
良	-8.08109
感	-8.08121
富	-8.08195
施	-8.08465
天下之	-8.08539
幾	-8.08774
詳	-8.08776
新	-8.0881
戰	-8.09022
謹	-8.09087
斷	-8.09144
息	-8.09474
将	-8.09954
道理	-8.10321
伐	-8.10344
吏	-8.10395
卷	-8.10408
工夫	-8.10409
每	-8.10585
也故	-8.10796
言之	-8.10834
室	-8.10931
耶	-8.1143
除	-8.11584
辨	-8.11822
衣	-8.11944
退	-8.12196
遇	-8.122
之法	-8.12268
臨	-8.12683
向	-8.13061
小人	-8.13302
久	-8.13388
目	-8.13552
春	-8.13567
後世	-8.13593
見得	-8.13815
於此	-8.139
待	-8.14244
職	-8.14257
端	-8.14328
右	-8.14591
尤	-8.14623
專	-8.1478
讀書	-8.14879
隨	-8.15174
承	-8.15348
鄉	-8.15427
適	-8.15584
奉	-8.15634
質	-8.15911
共	-8.16085
敗	-8.16179
餘	-8.16276
縣	-8.16472
喪	-8.1692
慮	-8.16982
簡	-8.17015
還	-8.17168
禁	-8.17182
並	-8.17276
錢	-8.17815
吉	-8.17879
卿	-8.17914
降	-8.18053
乾	-8.18332
朱子	-8.18347
舜	-8.18472
訓	-8.18515
勞	-8.19037
路	-8.19637
静	-8.19726
財	-8.19727
俗	-8.20061
威	-8.20239
商	-8.20409
太極	-8.20541
勿	-8.2076
朱子曰	-8.20779
人心	-8.21067
頭	-8.21884
喜	-8.2212
愈	-8.22255
答	-8.22297
業	-8.22439
一日	-8.22938
河	-8.22944
持	-8.23173
手	-8.23397
聽	-8.23872
茍	-8.23967
叔	-8.23995
劉	-8.24052
末	-8.24103
差	-8.2436
未嘗	-8.24397
之類	-8.2465
依	-8.24749
顯	-8.24752
律	-8.24941
徒	-8.24952
患	-8.25051
特	-8.25141
傷	-8.25225
文王	-8.25244
詔	-8.25272
足以	-8.25404
之中	-8.25571
須是	-8.25589
圖	-8.25744
仲	-8.25748
府	-8.25956
弗	-8.26016
聖賢	-8.26628
必有	-8.26659
繼	-8.26745
賜	-8.26854
之後	-8.26902
危	-8.26937
敵	-8.27081
雜	-8.27182
鬼神	-8.27208
當時	-8.27346
予	-8.27393
舍	-8.27836
周公	-8.28092
約	-8.28116
否	-8.28152
許	-8.28267
遺	-8.28305
婦	-8.28357
據	-8.28371
率	-8.28548
滅	-8.28648
賦	-8.28799
聚	-8.28956
何以	-8.28996
慎	-8.2916
扵	-8.29593
高	-8.297
再	-8.29808
獻	-8.30011
申	-8.30015
集	-8.30364
亦有	-8.30923
靜	-8.30935
衰	-8.31121
講	-8.31149
怒	-8.31163
黄	-8.31247
友	-8.31379
統	-8.31508
畏	-8.31601
御	-8.31606
奏	-8.31787
儒	-8.32151
之學	-8.32221
愚	-8.3235
熟	-8.32453
是也	-8.32503
后	-8.3258
中庸	-8.32636
為之	-8.32705
伊川	-8.3271
拜	-8.329
遷	-8.33412
魏	-8.33679
㸔	-8.33698
代	-8.33786
趙	-8.33844
朝廷	-8.33902
納	-8.33937
柔	-8.33939
怨	-8.34211
注	-8.34484
列	-8.34763
上下	-8.35106
被	-8.35317
顧	-8.3548
召	-8.35566
哀	-8.35848
箇	-8.35875
責	-8.35934
勢	-8.36082
福	-8.36385
自是	-8.36437
賊	-8.36517
半	-8.36549
量	-8.36684
期	-8.3675
藏	-8.36763
夜	-8.36907
漸	-8.36948
造	-8.37069
未有	-8.37251
報	-8.37313
免	-8.37486
澤	-8.37491
此心	-8.37544
其心	-8.3755
衛	-8.37556
不及	-8.37599
無不	-8.37599
逆	-8.37694
之人	-8.38197
知其	-8.38274
人君	-8.38315
素	-8.3852
酒	-8.38794
恭	-8.38889
或問	-8.3901
覺	-8.39031
寛	-8.39091
左	-8.39132
祀	-8.39511
急	-8.3961
升	-8.39694
江	-8.39949
於是	-8.40059
勸	-8.40102
顔子	-8.40386
細	-8.40499
程子	-8.40556
脩	-8.40578
妄	-8.40614
薄	-8.40689
諫	-8.40735
皆是	-8.40768
擇	-8.40995
可謂	-8.41121
役	-8.41288
崇	-8.41467
工	-8.41605
濟	-8.41749
參	-8.41758
爭	-8.41878
空	-8.41932
汝	-8.42259
胡	-8.42404
弟	-8.42559
昭	-8.426
布	-8.42642
表	-8.43175
華	-8.43517
龍	-8.4367
唯	-8.43683
而言	-8.4381
收	-8.44071
典	-8.44175
偏	-8.44218
懼	-8.44259
敢	-8.44377
闕	-8.44387
羣	-8.44471
禮樂	-8.44575
畫	-8.44823
不過	-8.44842
儀	-8.44963
越	-8.45208
念	-8.45232
義理	-8.45405
總	-8.45696
博	-8.45952
靈	-8.46363
者皆	-8.46379
千	-8.46452
邑	-8.46724
逐	-8.46735
不為	-8.47184
恩	-8.47194
附	-8.47345
紀	-8.47377
否曰	-8.47462
攻	-8.47472
陵	-8.47687
宣	-8.47961
也夫	-8.47966
理㑹	-8.48025
庶	-8.48061
秋	-8.48585
破	-8.49125
補	-8.49126
三年	-8.49286
假	-8.49334
恁地	-8.49501
俱	-8.49514
棄	-8.4973
轉	-8.4986
大學	-8.49878
燕	-8.49979
救	-8.5042
之說	-8.50427
天之	-8.50497
移	-8.50506
貞	-8.50527
號	-8.50682
坤	-8.50967
况	-8.51168
不以	-8.51215
里	-8.51339
示	-8.51446
夷	-8.51609
行之	-8.51698
曲	-8.51816
海	-8.51886
不可以	-8.52011
運	-8.52323
卑	-8.52328
農	-8.52359
如何曰	-8.52381
之地	-8.52474
忽	-8.52475
句	-8.52501
録	-8.52516
歌	-8.52599
之功	-8.52643
百姓	-8.52927
寧	-8.53242
幸	-8.53257
充	-8.53354
自家	-8.53473
妻	-8.53475
玉	-8.53524
以下	-8.5361
塞	-8.53755
願	-8.5378
忘	-8.53783
費	-8.53829
臣按	-8.53901
隠	-8.54229
格	-8.5461
均	-8.54725
射	-8.54797
星	-8.55097
一人	-8.55218
苦	-8.55344
則是	-8.55649
凶	-8.55784
辟	-8.55856
助	-8.55946
今人	-8.56154
雲	-8.56374
抑	-8.56428
資	-8.56515
梁	-8.56591
咸	-8.56675
乆	-8.56676
仁義	-8.56905
結	-8.56905
之謂	-8.57041
吳	-8.5711
誅	-8.57242
掌	-8.57287
冬	-8.5731
暴	-8.57975
冠	-8.57992
之禮	-8.58159
雨	-8.58168
亦是	-8.58177
林	-8.58607
違	-8.58766
毋	-8.58823
兄弟	-8.58841
禍	-8.58871
爵	-8.58918
先生曰	-8.58953
累	-8.58982
試	-8.59011
伏	-8.59184
勤	-8.59373
郡	-8.59388
左右	-8.59855
皇	-8.60007
竊	-8.60101
賞	-8.60255
審	-8.60497
純	-8.60656
兄	-8.60779
出於	-8.6078
管	-8.60819
條	-8.60937
禹	-8.61113
虞	-8.61115
又問	-8.61306
畢	-8.61441
文字	-8.61469
民之	-8.61575
今日	-8.6161
則有	-8.6164
眀	-8.61678
昏	-8.61705
永	-8.61954
其言	-8.61992
履	-8.62444
不必	-8.62552
蔽	-8.62864
可見	-8.63024
面	-8.63047
乗	-8.63153
以其	-8.6356
寒	-8.63613
而為	-8.63624
以上	-8.63816
客	-8.6384
葬	-8.63894
薦	-8.63985
避	-8.64133
孰	-8.64264
韓	-8.64279
䘮	-8.64318
輔	-8.64562
厥	-8.64694
讓	-8.64854
種	-8.64936
閒	-8.6497
之所以	-8.64982
接	-8.65064
禄	-8.6513
勇	-8.65357
犯	-8.65561
授	-8.65719
邊	-8.65888
朱	-8.66193
罷	-8.66197
使人	-8.66291
給	-8.66327
的	-8.66413
亦不	-8.66986
堂	-8.67004
不如	-8.67058
十二	-8.67082
魚	-8.6709
族	-8.67164
恕	-8.67198
以此	-8.67392
惠	-8.67417
弱	-8.67421
游	-8.67488
選	-8.67547
革	-8.67649
縱	-8.67807
自有	-8.67827
略	-8.67871
巳	-8.679
莫不	-8.67961
奪	-8.68375
聖人之	-8.68762
意思	-8.68821
震	-8.69288
敎	-8.69297
不見	-8.69365
野	-8.69538
季	-8.6974
虛	-8.6976
貫	-8.69767
留	-8.69786
仕	-8.69918
㣲	-8.7017
誤	-8.70469
一事	-8.70626
征	-8.70695
險	-8.70884
也然	-8.71082
邦	-8.71282
困	-8.71416
君臣	-8.71446
雖有	-8.71536
勉	-8.71619
堅	-8.71642
竒	-8.71666
是非	-8.71701
術	-8.71962
佛	-8.72054
者亦	-8.72079
損	-8.72117
草	-8.72133
惑	-8.72187
昔	-8.72293
湯	-8.72327
之際	-8.72345
享	-8.72397
古之	-8.73044
偽	-8.73131
耕	-8.73152
貧	-8.73222
負	-8.73546
吕	-8.73564
太子	-8.73737
明道	-8.73787
照	-8.73877
知之	-8.73944
配	-8.74009
根	-8.74138
徐	-8.74181
淵	-8.74206
寡	-8.74232
楊	-8.74282
黨	-8.74291
且如	-8.74475
堯舜	-8.74511
決	-8.74638
牛	-8.7472
户	-8.74798
不然	-8.75001
孤	-8.75002
子孫	-8.75272
用之	-8.75279
纔	-8.75352
不當	-8.75643
休	-8.75718
程	-8.75838
論語	-8.76106
包	-8.76289
稍	-8.7648
錯	-8.76527
連	-8.76666
朕	-8.7676
登	-8.768
陰	-8.76806
大抵	-8.76875
淫	-8.76984
不足以	-8.77068
獄	-8.7744
監	-8.7757
悉	-8.77656
歟	-8.77679
温	-8.77768
揚	-8.77794
悔	-8.77869
滿	-8.77879
日月	-8.78035
遣	-8.78234
甲	-8.78434
見其	-8.78479
姑	-8.78604
泰	-8.78626
淳	-8.78738
之數	-8.78808
孟	-8.78821
景	-8.78839
嘉	-8.78856
分明	-8.79197
皆有	-8.79344
周禮	-8.79355
疏	-8.79358
味	-8.79449
先王	-8.79465
會	-8.79492
巧	-8.79667
殊	-8.79757
陛下	-8.79868
丘	-8.80021
堯	-8.80088
内外	-8.80105
畧	-8.80228
曹	-8.80228
専	-8.8033
使之	-8.80339
之士	-8.80342
驕	-8.80394
乞	-8.80545
厯	-8.80684
消	-8.80787
賤	-8.80882
妙	-8.80988
刻	-8.8102
趨	-8.81201
并	-8.81279
材	-8.8131
得其	-8.8139
曾	-8.81588
一箇	-8.81693
而已矣	-8.81791
乘	-8.81991
國家	-8.82201
庸	-8.82216
臣若水通曰	-8.82345
湏	-8.82513
述	-8.82551
防	-8.827
獲	-8.82972
天道	-8.83163
循	-8.83325
郊	-8.83452
天地之	-8.83505
誰	-8.83553
之氣	-8.83795
此理	-8.83827
飲	-8.83872
操	-8.83874
懐	-8.83934
説得	-8.84034
此言	-8.84039
其實	-8.84349
豫	-8.84598
屈	-8.84614
對曰	-8.84867
背	-8.85081
决	-8.85196
却是	-8.85304
盈	-8.85421
謝	-8.85423
許多	-8.85424
道也	-8.85602
之於	-8.85647
覆	-8.85745
落	-8.85748
者必	-8.85781
貪	-8.85929
孔	-8.86034
市	-8.86067
也若	-8.86092
夫人	-8.86496
侍	-8.86718
丁	-8.86736
荒	-8.86744
其身	-8.86968
尋	-8.8712
調	-8.87149
无	-8.87191
厲	-8.87204
其後	-8.87359
苟	-8.87447
尺	-8.87523
殷	-8.876
然則	-8.87637
荅	-8.87641
姦	-8.87735
各有	-8.87768
折	-8.87782
窮理	-8.87863
無窮	-8.88013
弊	-8.88254
其事	-8.88344
效	-8.88626
井	-8.88638
營	-8.89045
曽	-8.8905
干	-8.8905
追	-8.89173
又云	-8.89433
欽定四庫全書	-8.89475
不用	-8.89486
朋友	-8.89639
若是	-8.89771
歲	-8.89793
旣	-8.89809
徃	-8.89855
闗	-8.9002
仁者	-8.90061
䝉	-8.90231
較	-8.90407
有司	-8.90524
占	-8.90543
篤	-8.90553
速	-8.90667
慈	-8.90681
飾	-8.90843
武王	-8.90959
曰此	-8.91479
欺	-8.91533
君之	-8.91586
道之	-8.91652
肆	-8.917
康	-8.91769
子路	-8.91875
米	-8.92258
牧	-8.92483
喻	-8.92715
大臣	-8.92814
振	-8.9285
這箇	-8.93009
也今	-8.93402
毁	-8.9349
爻	-8.93546
垂	-8.93561
又有	-8.93611
便有	-8.93703
逸	-8.93744
浮	-8.93813
後來	-8.94028
采	-8.9408
戎	-8.94108
䇿	-8.9415
笑	-8.94152
横	-8.94213
䖏	-8.94509
孔子曰	-8.94565
余	-8.94612
之本	-8.94701
不相	-8.94725
謙	-8.94797
教人	-8.94865
例	-8.94903
豈不	-8.94952
畜	-8.95103
角	-8.95107
歴	-8.95163
氣象	-8.95291
淺	-8.95306
繫	-8.95339
蔡	-8.95378
延	-8.95629
支	-8.95838
旁	-8.96092
機	-8.96162
古者	-8.96246
賢者	-8.96333
肅	-8.96398
言語	-8.96426
莊	-8.96467
送	-8.96499
隱	-8.96582
不善	-8.96799
𫝊	-8.96934
四方	-8.9694
遠	-8.96953
哭	-8.96982
宰	-8.97069
誦	-8.97111
逹	-8.972
仰	-8.97422
而不能	-8.97513
亨	-8.97714
豐	-8.97763
災	-8.97771
未能	-8.9786
倍	-8.97909
人也	-8.98042
註	-8.98066
人主	-8.98118
及其	-8.9819
編	-8.98244
衡	-8.98276
五十	-8.98526
為人	-8.98695
一物	-8.98723
不待	-8.98736
未必	-8.98879
此意	-8.98934
侵	-8.98938
慶	-8.98982
矣然	-8.99234
委	-8.99286
幽	-8.99301
詞	-8.99357
如是	-8.99471
其中	-8.99572
科	-8.99727
然而	-8.99761
辱	-8.99815
太宗	-8.99869
鬼	-8.99998
所以為	-9.00119
中國	-9.00272
如此則	-9.00295
借	-9.00349
擊	-9.00473
賔	-9.00557
之外	-9.00569
隆	-9.00574
索	-9.00664
父子	-9.00684
恒	-9.00696
昌	-9.00862
㡬	-9.00887
朔	-9.01054
五行	-9.01112
以爲	-9.01185
狀	-9.01239
有餘	-9.01267
賈	-9.01335
不復	-9.01344
三十	-9.01433
川	-9.01557
四時	-9.01887
可也	-9.01906
豈有	-9.02061
走	-9.02062
徵	-9.02121
之制	-9.02125
其間	-9.02341
二十	-9.02346
曾子	-9.0238
争	-9.02447
領	-9.02457
遊	-9.02476
横渠	-9.02525
早	-9.02527
維	-9.02646
於人	-9.02691
齋	-9.02713
庭	-9.02725
富貴	-9.02802
迎	-9.02993
籍	-9.03015
不肯	-9.03196
緩	-9.03224
做得	-9.03478
則其	-9.03537
陸	-9.03551
諭	-9.03588
談	-9.03899
京	-9.04004
臺	-9.04024
古今	-9.04118
榮	-9.04203
善惡	-9.04254
不成	-9.04356
飛	-9.04361
國之	-9.04362
殿	-9.0454
縁	-9.04784
不行	-9.0486
忠信	-9.04963
則為	-9.05015
一般	-9.05229
把	-9.05232
為學	-9.0527
以來	-9.0529
怪	-9.05463
偶	-9.0553
學問	-9.05534
第	-9.05584
屋	-9.05823
一時	-9.06174
詐	-9.06289
討	-9.06362
部	-9.06436
歳	-9.06617
嗣	-9.0668
羽	-9.06737
介	-9.06768
此是	-9.06857
祥	-9.06902
佐	-9.07035
流行	-9.07049
飲食	-9.07064
天命	-9.07183
是故	-9.07366
之象	-9.07446
范	-9.07482
則不	-9.07616
而有	-9.0771
藥	-9.07713
求之	-9.0775
密	-9.07943
為善	-9.07952
虎	-9.08304
關	-9.08686
司馬	-9.08708
不可不	-9.08761
相似	-9.09119
悟	-9.09229
杜	-9.09291
帶	-9.09393
之名	-9.09424
宻	-9.09453
姓	-9.09734
生於	-9.09966
三代	-9.10026
於外	-9.10201
不曾	-9.10438
夀	-9.10638
青	-9.10673
曰吾	-9.10816
回	-9.10888
巽	-9.11036
之書	-9.11062
仲尼	-9.11215
亦無	-9.11279
出入	-9.11454
而能	-9.11519
卜	-9.11552
殆	-9.11592
雅	-9.11598
不在	-9.11767
有以	-9.11948
強	-9.11976
而不知	-9.12008
育	-9.12034
之實	-9.12174
圍	-9.12177
失其	-9.12217
程子曰	-9.12299
恥	-9.12336
人物	-9.12369
儉	-9.12422
鮮	-9.12424
人欲	-9.12434
粟	-9.12668
沒	-9.12703
成王	-9.12802
▁(	-9.1284
舞	-9.13088
聴	-9.13123
泉	-9.13152
筆	-9.13338
帥	-9.13593
寢	-9.1365
鄙	-9.13686
而行	-9.13781
痛	-9.13931
貢	-9.13993
魄	-9.14004
側	-9.14064
倫	-9.1425
規	-9.1454
都是	-9.14619
氣質	-9.1465
毎	-9.14785
席	-9.14795
忌	-9.1482
見於	-9.14823
變化	-9.14838
優	-9.15307
者非	-9.15619
預	-9.15666
之子	-9.15679
驗	-9.15727
鹽	-9.15773
奔	-9.15817
祭祀	-9.15822
慢	-9.15916
蘇	-9.15959
靡	-9.16011
𤣥	-9.16076
不明	-9.16241
厭	-9.1627
某云	-9.16305
顔	-9.1645
短	-9.16556
甘	-9.16605
其道	-9.16615
尸	-9.16635
仍	-9.16657
則無	-9.16726
夢	-9.16754
妾	-9.16864
提	-9.16875
候	-9.16907
幼	-9.1699
至于	-9.17073
躬	-9.17237
迹	-9.17433
辰	-9.17525
粗	-9.1756
之體	-9.17563
貨	-9.17732
玩	-9.17817
尚書	-9.17961
人情	-9.1828
訟	-9.18314
書曰	-9.18347
之道也	-9.1835
忍	-9.1837
藝	-9.18376
主人	-9.18548
濁	-9.18745
之徒	-9.18932
辯	-9.18981
罰	-9.19193
釋氏	-9.19286
慕	-9.19471
周子	-9.19516
樹	-9.19574
之初	-9.19604
呼	-9.19619
門人	-9.19684
二字	-9.19797
以至	-9.19861
而成	-9.19936
不容	-9.20179
所見	-9.20235
輕重	-9.20307
襲	-9.20391
盜	-9.20411
寵	-9.20435
竟	-9.20471
源	-9.20479
與人	-9.2052
它	-9.20609
祝	-9.20652
寳	-9.20732
税	-9.20776
貌	-9.2083
矣故	-9.2091
㫖	-9.20971
其君	-9.21103
利害	-9.214
拘	-9.21431
不合	-9.21689
憲	-9.21707
衞	-9.21874
式	-9.22076
太祖	-9.22092
減	-9.22217
綱	-9.22226
其所以	-9.22234
或曰	-9.22247
故其	-9.22357
觀之	-9.22498
即是	-9.22537
為一	-9.22618
究	-9.22618
謹按	-9.22786
進退	-9.22837
乾坤	-9.22957
頗	-9.23001
晦	-9.23038
得之	-9.23117
露	-9.2312
鼓	-9.23125
想	-9.23159
而又	-9.23337
着	-9.23364
肉	-9.23377
言其	-9.23418
桓	-9.23422
兮	-9.23476
證	-9.23736
其意	-9.23757
之用	-9.23831
舟	-9.2397
増	-9.241
没	-9.24146
取之	-9.24276
二年	-9.2431
無非	-9.24333
不正	-9.24462
於天	-9.24467
事君	-9.24553
雷	-9.24581
物之	-9.24612
之故	-9.2464
毛	-9.24717
校	-9.24768
發明	-9.24844
皆以	-9.24885
叙	-9.24942
子弟	-9.25047
禮義	-9.25092
繁	-9.25151
不至	-9.25167
不言	-9.25187
議論	-9.25204
男	-9.25229
婦人	-9.25267
說得	-9.25461
咎	-9.2552
子貢	-9.25533
竭	-9.25553
之徳	-9.25555
其人	-9.25597
之辭	-9.25606
穆	-9.25614
倚	-9.25693
私意	-9.25824
聞之	-9.25926
傅	-9.26149
供	-9.26155
者為	-9.26346
事親	-9.2649
榖	-9.26525
徹	-9.26535
曉	-9.26559
倉	-9.26593
亦可	-9.26687
沈	-9.2674
宿	-9.26844
今之	-9.26866
怠	-9.26874
而下	-9.27163
罔	-9.27175
文章	-9.27215
用力	-9.27397
尹	-9.27588
警	-9.27721
廬	-9.27767
無所不	-9.27849
徑	-9.2788
擾	-9.27893
刺	-9.27989
宅	-9.28212
所當	-9.28465
鳴	-9.28497
一句	-9.2852
徴	-9.28729
悦	-9.29086
之性	-9.29128
動静	-9.29129
之分	-9.29194
限	-9.29326
若不	-9.29436
其本	-9.29615
則又	-9.29661
陰陽	-9.29748
𢎞	-9.29756
而不可	-9.29918
遽	-9.2996
格物	-9.29967
分别	-9.29991
詩曰	-9.29997
其志	-9.30015
元年	-9.30092
譏	-9.30116
品	-9.30184
其義	-9.30254
不若	-9.30307
撫	-9.30377
他人	-9.30401
者有	-9.30442
不盡	-9.30717
云云	-9.30772
張子	-9.30798
矜	-9.30839
斂	-9.30892
弟子	-9.30961
涵養	-9.31128
烈	-9.31139
老子	-9.31147
壊	-9.31188
千里	-9.31195
逃	-9.31222
符	-9.31229
煩	-9.31244
恤	-9.31289
之文	-9.3134
禮記	-9.31383
英	-9.31426
舎	-9.31477
傳曰	-9.31608
壯	-9.31665
蜀	-9.31678
祠	-9.31681
旦	-9.31926
續	-9.31968
精神	-9.31972
草木	-9.31993
何也	-9.32007
奚	-9.3215
扶	-9.32168
麗	-9.32274
旅	-9.32301
郎	-9.32406
故能	-9.3246
恃	-9.32527
有箇	-9.32532
嗚呼	-9.32556
有一	-9.32804
固有	-9.32908
在於	-9.32938
齒	-9.32943
郭	-9.32962
衍	-9.32979
希	-9.33073
斗	-9.33218
旋	-9.33274
譬如	-9.33277
與之	-9.33343
也此	-9.33409
葉	-9.3342
譽	-9.33466
係	-9.33627
聰明	-9.33746
無以	-9.33841
觀其	-9.33895
雍	-9.34095
夫婦	-9.34122
人皆	-9.34184
霸	-9.3429
不忍	-9.34383
以求	-9.34401
盟	-9.34457
世之	-9.34599
其理	-9.34725
風俗	-9.3481
孝弟	-9.34862
男女	-9.34888
社稷	-9.35022
性之	-9.3504
於天下	-9.35066
彊	-9.35172
坎	-9.35238
不出	-9.35383
遲	-9.35396
住	-9.35505
賀	-9.35519
何如	-9.35631
墓	-9.35662
艮	-9.35771
敏	-9.35785
允	-9.35808
掩	-9.35825
中有	-9.35837
四十	-9.35844
豈可	-9.35885
十五	-9.35965
烏	-9.36083
何也曰	-9.36101
教之	-9.36145
思慮	-9.36191
赦	-9.36258
塗	-9.36355
知得	-9.36359
撰	-9.36707
不仁	-9.36731
鳥	-9.36743
至誠	-9.36769
有功	-9.36864
之極	-9.36916
之要	-9.36921
暗	-9.37016
者其	-9.37077
出來	-9.37079
伊尹	-9.37228
者則	-9.37315
未發	-9.37479
在此	-9.37684
僴	-9.37813
欽	-9.37815
潛	-9.37852
殺之	-9.37933
君子之	-9.3797
子思	-9.37982
之謂也	-9.38009
中正	-9.38261
仁義禮智	-9.38384
公子	-9.38426
輩	-9.3853
闢	-9.38546
者不	-9.38654
不息	-9.38668
安得	-9.38784
諌	-9.38811
之屬	-9.38837
終身	-9.39062
洛	-9.3912
宰相	-9.39163
事之	-9.39266
歩	-9.39303
導	-9.39332
策	-9.39333
羣臣	-9.39368
伸	-9.39423
看得	-9.39627
一也	-9.3963
二者	-9.39668
羊	-9.39707
赤	-9.39725
為主	-9.3974
之物	-9.39782
傾	-9.39829
之論	-9.3988
託	-9.39966
惜	-9.40055
其餘	-9.40084
武帝	-9.40127
矯	-9.40134
人有	-9.4018
如今	-9.40202
也是	-9.40297
穀	-9.40436
之弊	-9.40454
先儒	-9.40512
墨	-9.40526
從之	-9.40788
翼	-9.40814
招	-9.40837
遜	-9.40867
産	-9.40882
禪	-9.40918
其子	-9.40925
頌	-9.41006
渾	-9.41041
寄	-9.4109
之大	-9.41123
隔	-9.4115
萬世	-9.41296
僅	-9.414
戴	-9.41403
管仲	-9.41481
百官	-9.41491
三月	-9.41592
竹	-9.41608
錄	-9.41677
頃	-9.41694
圓	-9.41712
谷	-9.41768
致知	-9.42021
之君	-9.42051
裏	-9.42063
輿	-9.4207
禦	-9.42141
陶	-9.42293
京師	-9.42318
士大夫	-9.42415
夲	-9.42462
止於	-9.42475
至此	-9.425
賀孫	-9.42533
異端	-9.42755
贊	-9.42824
黙	-9.4286
皇帝	-9.42866
即位	-9.42929
八卦	-9.42985
房	-9.42995
蕩	-9.43155
取其	-9.43373
社	-9.43379
激	-9.43396
州縣	-9.43419
平日	-9.4344
嫁	-9.43533
敦	-9.43659
斬	-9.43684
不免	-9.4371
稽	-9.43725
影	-9.43756
吉凶	-9.43831
投	-9.43857
人事	-9.43897
此語	-9.44039
羅	-9.44211
倒	-9.44225
含	-9.44388
六經	-9.44539
懷	-9.44612
為政	-9.44624
乃是	-9.44763
徙	-9.44839
杖	-9.44883
有此	-9.44938
歛	-9.4497
孟子曰	-9.4502
固是	-9.45025
大小	-9.45139
歎	-9.45229
所言	-9.45246
然其	-9.4536
則必	-9.45382
十六	-9.45395
不失	-9.45437
欲其	-9.45534
六十	-9.45536
不易	-9.4554
在上	-9.45636
性情	-9.45679
其説	-9.45746
必先	-9.45778
往往	-9.45799
之情	-9.45813
以後	-9.45863
舒	-9.45868
啓	-9.4598
性命	-9.46014
不好	-9.4606
買	-9.46267
班	-9.46298
在人	-9.46299
文公	-9.46385
詩云	-9.46429
因其	-9.46468
儒者	-9.46488
鍾	-9.46495
寺	-9.46505
僕	-9.46526
誘	-9.46542
豪	-9.46588
耳目	-9.46595
誣	-9.46718
植	-9.46794
於心	-9.4681
方是	-9.46831
胥	-9.46939
不欲	-9.46967
氣之	-9.46992
甫	-9.47015
驚	-9.47035
一理	-9.47227
自古	-9.47243
項	-9.47283
祿	-9.47376
王者	-9.4754
幹	-9.47553
山川	-9.47585
一段	-9.47806
閣	-9.47871
饗	-9.4789
動靜	-9.47896
以明	-9.47922
兹	-9.47951
故也	-9.47963
基	-9.48004
奸	-9.48014
銘	-9.48084
潔	-9.481
狂	-9.48108
鼎	-9.4818
池	-9.48306
俾	-9.48315
桑	-9.48331
之患	-9.48347
俟	-9.48389
絲	-9.48441
誠意	-9.4846
聘	-9.48486
之上	-9.48573
饑	-9.48588
曽子	-9.48598
閉	-9.4865
愚按	-9.4867
壽	-9.48685
政事	-9.48698
該	-9.48723
蒙	-9.48757
呉	-9.4878
驅	-9.48825
則知	-9.4887
叛	-9.48925
未知	-9.48983
悖	-9.48995
象曰	-9.48995
知覺	-9.4902
殘	-9.49137
踰	-9.49201
失之	-9.49208
只管	-9.49325
案	-9.49411
裁	-9.49419
三日	-9.4946
匪	-9.49461
秀	-9.4958
血	-9.49703
事物	-9.49705
健	-9.49772
奠	-9.49872
段	-9.4988
訪	-9.50021
悲	-9.50026
後人	-9.50037
赴	-9.50127
之變	-9.50285
阿	-9.50342
渠	-9.50347
況	-9.50364
此章	-9.50394
治之	-9.50477
判	-9.50557
百里	-9.50574
疎	-9.50631
契	-9.50644
融	-9.50723
磨	-9.5087
戚	-9.50875
境	-9.5095
所得	-9.50959
無事	-9.50959
此則	-9.51031
懲	-9.51083
階	-9.51245
也又曰	-9.51279
四海	-9.51315
未嘗不	-9.51353
好惡	-9.51399
之罪	-9.5145
靣	-9.51494
次第	-9.51673
援	-9.51677
禘	-9.51691
互	-9.51745
缺	-9.51811
子之	-9.51816
第一	-9.51834
之盛	-9.519
彌	-9.51944
十年	-9.5202
秩	-9.52078
者乎	-9.52142
性也	-9.52184
眞	-9.52227
湖	-9.52258
髙祖	-9.52302
糧	-9.52305
先後	-9.52306
不識	-9.52489
氏曰	-9.52501
雄	-9.52509
之始	-9.52513
伊	-9.5257
不忘	-9.52609
攝	-9.52672
肯	-9.52735
衆人	-9.52819
踐	-9.52864
之志	-9.52887
之妙	-9.52975
夕	-9.52987
為本	-9.53008
午	-9.53032
其徳	-9.53101
輒	-9.53185
此事	-9.53252
為仁	-9.53261
步	-9.53276
以禮	-9.53348
遵	-9.53406
完	-9.53429
可知	-9.53462
不已	-9.53469
於上	-9.5347
禽獸	-9.53504
七十	-9.537
㸃	-9.53731
錫	-9.53865
辛	-9.53886
魂	-9.53888
人所	-9.5389
神明	-9.54034
左氏	-9.54179
之職	-9.54291
骨	-9.54404
推之	-9.54441
而非	-9.54472
觧	-9.5458
凝	-9.54683
一言	-9.54691
鎮	-9.5473
其為	-9.54733
丈	-9.54753
陋	-9.5488
啟	-9.54889
萬民	-9.54903
之民	-9.54936
晝夜	-9.5496
泥	-9.55047
西銘	-9.55078
祖宗	-9.55127
弔	-9.55163
寅	-9.55173
不從	-9.55175
死生	-9.55181
所為	-9.55211
脚	-9.5523
馳	-9.55255
第二	-9.55261
牽	-9.55291
之位	-9.55336
侈	-9.55396
庶幾	-9.55418
削	-9.55422
先王之	-9.55452
不動	-9.55576
學之	-9.55593
紂	-9.55605
吝	-9.55658
之教	-9.5568
見之	-9.55715
之臣	-9.55789
中間	-9.55791
朱熹曰	-9.55944
日用	-9.55977
卓	-9.55994
弓	-9.56024
相與	-9.56112
藉	-9.56134
萌	-9.5615
祕曰	-9.56159
不與	-9.56161
由是	-9.56166
佞	-9.56166
人倫	-9.56191
之世	-9.56215
添	-9.56239
謨	-9.56329
豈非	-9.56353
惟其	-9.56389
矢	-9.56409
兆	-9.56412
文武	-9.56414
无咎	-9.56451
淮	-9.56515
諱	-9.56538
花	-9.56664
大事	-9.56669
寓	-9.56838
去聲	-9.5685
一切	-9.5685
晝	-9.57003
造化	-9.57169
飯	-9.57181
滯	-9.57234
檢	-9.57277
思之	-9.57353
之序	-9.57358
孚	-9.57371
以成	-9.57501
艱	-9.5752
亦然	-9.57545
何故	-9.5755
輸	-9.57588
是如此	-9.5766
焚	-9.57675
麻	-9.57713
之術	-9.57733
不信	-9.5776
亷	-9.57957
之政	-9.58034
有道	-9.58061
一章	-9.58076
壞	-9.5823
虧	-9.58235
皮	-9.58238
本末	-9.58242
單	-9.58332
屢	-9.58368
之語	-9.58602
治天下	-9.58649
文帝	-9.58731
又如	-9.58762
奈何	-9.58837
宮	-9.58874
以待	-9.58881
協	-9.58908
以道	-9.59169
昧	-9.59341
築	-9.59375
付	-9.59449
嫌	-9.59476
徳之	-9.59498
徧	-9.59588
十三	-9.59594
龜	-9.59645
生物	-9.59698
宗廟	-9.59717
者乃	-9.59802
史記	-9.59857
明白	-9.59926
理㑹得	-9.5996
猶有	-9.59965
随	-9.59979
而民	-9.60032
潤	-9.60068
然亦	-9.60079
而生	-9.60085
克己	-9.60216
蓄	-9.60433
始得	-9.60456
增	-9.60466
又何	-9.60566
活	-9.60644
上帝	-9.60783
矣夫	-9.60836
帝王	-9.60837
滋	-9.60838
茂	-9.60985
只在	-9.61234
斥	-9.6126
院	-9.61285
或有	-9.61468
未至	-9.61537
天子之	-9.61545
整	-9.61605
盗	-9.61642
敷	-9.61652
確	-9.61868
此等	-9.61914
此亦	-9.62046
奇	-9.6209
萬事	-9.62101
之主	-9.62166
一心	-9.62183
之失	-9.62351
快	-9.62352
非是	-9.62402
死者	-9.62405
終始	-9.62407
凖	-9.62487
枉	-9.62568
董	-9.62621
併	-9.62641
王道	-9.62752
冦	-9.62758
之使	-9.62823
是謂	-9.62854
必以	-9.62913
者又	-9.62934
以正	-9.62962
宴	-9.62972
廣大	-9.62984
者謂	-9.63007
其他	-9.63065
話	-9.63084
乏	-9.63169
鄰	-9.63184
兒	-9.63193
諸子	-9.63197
也言	-9.63234
醫	-9.63296
誓	-9.63298
言之則	-9.63313
體用	-9.63461
朋	-9.63556
乎此	-9.63562
桓公	-9.63563
上蔡	-9.63596
者矣	-9.63611
於民	-9.63616
䟽	-9.63664
不勝	-9.63705
而今	-9.63842
太后	-9.6399
寫	-9.64015
僧	-9.64023
以自	-9.64177
蕭	-9.64193
主於	-9.6424
小學	-9.64243
諸儒	-9.64255
在下	-9.6428
隋	-9.64292
未盡	-9.64295
溺	-9.64492
丞相	-9.64497
光曰	-9.64799
制度	-9.64818
其氣	-9.64918
孔氏	-9.64919
忿	-9.65061
幣	-9.65062
亦非	-9.65091
在外	-9.65096
奮	-9.651
易曰	-9.65139
致其	-9.65197
謬	-9.65225
其功	-9.65251
三百	-9.65272
人之所	-9.65308
之事也	-9.65321
擬	-9.65383
賓	-9.65495
終日	-9.65579
用兵	-9.65589
修身	-9.65695
従	-9.65777
亭	-9.65798
之至	-9.65827
入於	-9.65903
歸於	-9.66017
諸公	-9.66028
伍	-9.66196
大人	-9.66241
輪	-9.66243
更無	-9.66248
冕	-9.66272
抱	-9.66313
牲	-9.66344
嘆	-9.66363
寜	-9.66462
乖	-9.66483
動而	-9.66488
銖	-9.66548
副	-9.66662
孝子	-9.66702
之禍	-9.66757
些	-9.66767
混	-9.66785
盡其	-9.66851
使民	-9.66871
一書	-9.66884
旱	-9.66962
儲	-9.67034
亦未	-9.67053
貳	-9.67118
截	-9.67118
仁也	-9.67149
宏	-9.672
姜	-9.67203
題	-9.67347
疆	-9.67401
事事	-9.67416
易之	-9.67625
哲	-9.67646
子夏	-9.67682
而反	-9.67686
忠恕	-9.67719
二人	-9.67728
水火	-9.67848
則亦	-9.67868
屏	-9.67886
不曽	-9.67911
算	-9.67973
底意思	-9.67975
冀	-9.68045
弑	-9.6808
韻	-9.68193
剛柔	-9.68219
也臣按	-9.68221
使其	-9.68265
龜山	-9.68279
創	-9.68328
多少	-9.68373
遭	-9.68453
措	-9.68479
上面	-9.68492
矣此	-9.68533
襄	-9.68678
反覆	-9.68762
裕	-9.68766
之治	-9.68799
騎	-9.68828
一身	-9.68855
康節	-9.68887
之詩	-9.6891
戸	-9.68929
析	-9.68931
則民	-9.68992
排	-9.69003
思量	-9.69035
一旦	-9.69383
之前	-9.69429
五年	-9.69432
而立	-9.69494
得失	-9.69521
一貫	-9.69734
道者	-9.69813
惰	-9.69929
之下	-9.69996
寸	-9.70014
己之	-9.7007
様	-9.701
㓜	-9.70158
力行	-9.70197
鑿	-9.70202
租	-9.70222
濫	-9.70381
鄭氏	-9.70423
柄	-9.70516
觸	-9.70543
洞	-9.70663
禮之	-9.70752
得以	-9.70753
丹	-9.70783
世子	-9.7083
之樂	-9.70893
閭	-9.70914
一篇	-9.70928
一二	-9.70938
至矣	-9.70969
故君子	-9.71009
法度	-9.71026
乎曰	-9.71087
所在	-9.71171
直是	-9.71171
也蓋	-9.71205
陷	-9.71269
脱	-9.71402
不通	-9.71408
不敬	-9.71425
羞	-9.71477
而天下	-9.71494
守之	-9.71518
賣	-9.71537
頓	-9.71551
宗子	-9.71684
貶	-9.71704
飬	-9.71726
俊	-9.71851
以致	-9.71877
懸	-9.71955
攸	-9.72125
衣服	-9.72133
界	-9.72199
童	-9.72334
不聞	-9.72397
欲以	-9.7248
庚	-9.72581
方可	-9.72596
之德	-9.7264
在這裏	-9.72727
窺	-9.72751
牢	-9.72756
荆	-9.7279
貴賤	-9.72853
誥	-9.72854
飢	-9.73064
秉	-9.73325
人臣	-9.73383
莫非	-9.73451
受命	-9.73482
前後	-9.73495
束	-9.7375
其情	-9.73882
近世	-9.73883
司徒	-9.73895
以見	-9.73933
尾	-9.7395
裘	-9.73959
戍	-9.74079
酌	-9.74148
理也	-9.74156
盤	-9.74236
迷	-9.7424
遍	-9.74249
其用	-9.7433
實理	-9.74372
拒	-9.74414
妃	-9.74425
釐	-9.74459
圭	-9.74479
諡	-9.74507
之利	-9.74627
四年	-9.74629
而知	-9.74688
無形	-9.74747
之私	-9.7494
為大	-9.75136
只要	-9.75137
恵	-9.75167
邇	-9.75182
無可	-9.75216
三者	-9.75284
之官	-9.75329
無私	-9.75337
是箇	-9.7537
刀	-9.75413
之日	-9.75429
之勢	-9.75456
戾	-9.75483
一字	-9.75565
此書	-9.75591
練	-9.75655
祗	-9.75672
在天	-9.75714
屯	-9.75778
溪	-9.75835
庶人	-9.7596
欠	-9.75989
不受	-9.76043
荘	-9.76092
館	-9.76105
割	-9.76134
其親	-9.76216
其說	-9.7624
光明	-9.76309
之内	-9.76326
韋	-9.7638
始終	-9.76437
賢人	-9.76603
事業	-9.76689
故謂之	-9.76696
四者	-9.76725
未得	-9.76741
沙	-9.76769
只有	-9.76791
閑	-9.76855
彰	-9.76893
無有	-9.76908
崩	-9.77001
邉	-9.77004
則不能	-9.77061
則雖	-9.77122
只為	-9.77193
只得	-9.77221
若此	-9.77328
説話	-9.77369
賴	-9.77373
不知其	-9.77438
心之	-9.77464
亮	-9.77472
不食	-9.77591
閔	-9.7764
義也	-9.77664
遏	-9.77677
亦自	-9.77688
額	-9.77724
臧	-9.77747
毒	-9.77759
教化	-9.77772
文集	-9.77798
畝	-9.77948
猛	-9.77963
捨	-9.77981
仇	-9.78092
講學	-9.78129
其性	-9.7813
天人	-9.78194
以告	-9.78195
非有	-9.78198
認	-9.78219
朝夕	-9.78243
鑒	-9.78291
亦不可	-9.78293
詣	-9.78309
曠	-9.78393
無益	-9.7845
蕃	-9.78481
告之	-9.78521
焉則	-9.78632
則可	-9.78912
恨	-9.78954
如之何	-9.78968
愚謂	-9.7905
從容	-9.79062
娶	-9.79152
戮	-9.79191
壁	-9.79274
何為	-9.79293
自此	-9.79398
人才	-9.79518
何謂	-9.79522
馮	-9.79537
左傳	-9.79622
尉	-9.79623
長者	-9.79644
底道理	-9.79654
詩書	-9.79663
孔孟	-9.79695
競	-9.79749
未見	-9.79753
礙	-9.79795
括	-9.79894
所能	-9.79971
覽	-9.80033
有二	-9.80033
私欲	-9.80034
妨	-9.80077
甚矣	-9.80085
之難	-9.80087
於中	-9.80091
透	-9.80246
有常	-9.80296
十一	-9.80313
所生	-9.80348
帛	-9.80367
受之	-9.80552
價	-9.80599
做工夫	-9.80651
奢	-9.80686
是他	-9.80713
底人	-9.8078
威儀	-9.80787
之家	-9.80875
課	-9.80893
饒	-9.80903
之餘	-9.81051
始於	-9.81089
雖是	-9.8118
之才	-9.81192
公曰	-9.81243
文義	-9.81273
為己	-9.81287
以示	-9.8129
無極	-9.81321
趣	-9.81358
發見	-9.81502
監察御史	-9.81515
明日	-9.81533
飽	-9.81534
須要	-9.81553
根本	-9.81571
要之	-9.81689
徇	-9.81702
属	-9.81712
泛	-9.81722
呂	-9.81738
打	-9.81748
而不敢	-9.8177
謁	-9.81857
愧	-9.81865
一家	-9.81883
非禮	-9.82136
可不	-9.8224
而止	-9.82286
渾然	-9.82353
此説	-9.8238
之至也	-9.82467
薛	-9.82468
十八	-9.82471
正是	-9.82496
収	-9.82545
親切	-9.8257
禀	-9.82621
所欲	-9.82652
其民	-9.82709
有不	-9.82734
不去	-9.82737
獸	-9.82764
有三	-9.82796
天地間	-9.82853
在其中	-9.82888
駕	-9.82971
可與	-9.82994
所載	-9.8301
環	-9.83012
瞻	-9.83016
沉	-9.83027
矣而	-9.83074
又以	-9.83115
途	-9.83193
乙	-9.83362
一節	-9.8341
若夫	-9.83435
彦	-9.83522
香	-9.83656
隙	-9.8367
其國	-9.83826
温公	-9.83842
曰然	-9.83846
洪	-9.83894
三公	-9.83902
文王之	-9.83912
學校	-9.83921
祈	-9.84027
弼	-9.84038
一體	-9.84204
求其	-9.84225
克己復禮	-9.84282
事也	-9.84291
祫	-9.84321
二子	-9.84331
御史	-9.84339
是時	-9.84347
本朝	-9.84371
雪	-9.84503
一一	-9.8451
逢	-9.84518
其可	-9.8455
雖不	-9.84657
之正	-9.84704
不止	-9.84707
行事	-9.84725
有罪	-9.84743
已發	-9.84755
者如	-9.84794
安能	-9.84852
庻	-9.85001
宇	-9.85003
在我	-9.85005
不安	-9.85006
巫	-9.85038
姬	-9.85114
道心	-9.8512
墜	-9.85161
不應	-9.85192
規模	-9.85328
聼	-9.85344
七年	-9.85346
者多	-9.8536
以前	-9.85407
不立	-9.85408
下文	-9.8541
未可	-9.85418
治亂	-9.8545
髙宗	-9.85493
過於	-9.855
前日	-9.85557
也如	-9.85626
故有	-9.85705
一年	-9.85722
之計	-9.85747
腹	-9.85794
囚	-9.85839
廉	-9.85875
泣	-9.85875
人道	-9.85898
賛	-9.85905
苗	-9.86033
而行之	-9.86071
伏羲	-9.86113
不自	-9.86216
而復	-9.86242
懿	-9.86243
周之	-9.86301
萬物之	-9.8631
都不	-9.86394
塵	-9.86396
未有不	-9.86429
踈	-9.86432
自得	-9.86484
分曉	-9.86488
何必	-9.86505
可乎	-9.86554
眼	-9.86556
義剛	-9.86558
東坡	-9.86607
不能無	-9.86611
理之	-9.86643
督	-9.86648
道夫	-9.8666
太平	-9.86671
皆可	-9.86755
則不可	-9.86768
然也	-9.86812
侮	-9.86837
告子	-9.86942
却不	-9.86956
而死	-9.86962
不求	-9.87075
天下之事	-9.87087
僭	-9.87111
上文	-9.87118
黜	-9.87135
知所	-9.87222
狄	-9.87325
虐	-9.87393
禮也	-9.87422
所行	-9.87458
匹	-9.87502
百年	-9.87516
貫通	-9.87576
極其	-9.87594
自記	-9.87616
員	-9.87628
此皆	-9.87638
浸	-9.87642
十四	-9.8773
南北	-9.87744
亟	-9.87759
輙	-9.87826
迫	-9.87921
亦須	-9.87959
集義	-9.88061
更不	-9.88079
弛	-9.8809
本於	-9.88099
於君	-9.88185
可為	-9.88238
譬	-9.88267
殺人	-9.88366
而自	-9.88638
於内	-9.887
有過	-9.88715
戲	-9.88827
湯武	-9.88925
未及	-9.88975
匈奴	-9.89058
之命	-9.89059
之善	-9.89122
暑	-9.89127
稅	-9.8918
料	-9.89223
寶	-9.89237
本無	-9.89298
謂其	-9.89366
十分	-9.89439
般	-9.89489
亥	-9.89544
蹈	-9.89567
其家	-9.89567
未免	-9.89568
性善	-9.89603
渉	-9.89634
寒暑	-9.89777
怕	-9.89792
視之	-9.8987
憚	-9.89887
盡心	-9.89907
誨	-9.89915
丞	-9.89918
是心	-9.89925
曉得	-9.90033
刑罰	-9.90046
緒	-9.90217
而得	-9.90262
他日	-9.90333
當以	-9.90347
曷	-9.90413
而致	-9.90421
珠	-9.90424
下面	-9.90454
者是	-9.90461
道徳	-9.90484
其勢	-9.90519
善者	-9.90521
三分	-9.90523
峻	-9.90648
溝	-9.90648
仁宗	-9.90678
於下	-9.90706
其體	-9.90835
睦	-9.90866
九二	-9.90906
其次	-9.90916
何所	-9.91018
脩身	-9.91025
然後能	-9.91065
狹	-9.91112
溢	-9.9114
晏	-9.91142
夭	-9.91192
暇	-9.91233
靖	-9.91248
形容	-9.91296
在内	-9.91299
往來	-9.91347
地之	-9.91379
場	-9.91442
而欲	-9.91452
繩	-9.91496
存養	-9.91502
績	-9.91536
敝	-9.91549
知者	-9.91632
桀	-9.91838
歡	-9.91896
禱	-9.91897
也故曰	-9.9192
準	-9.91953
夷狄	-9.91972
大槩	-9.91998
四端	-9.92058
鼔	-9.92111
為先	-9.92112
在乎	-9.92179
正月	-9.92215
其位	-9.92236
則非	-9.92239
無間	-9.92261
則曰	-9.92343
而出	-9.92523
繹	-9.92634
皇后	-9.92642
聖人之道	-9.92717
周官	-9.9273
人者	-9.92756
臯陶	-9.92788
攷	-9.92823
若有	-9.9285
吾之	-9.92853
戰國	-9.92855
平生	-9.92926
之本也	-9.92945
無他	-9.93026
其辭	-9.93087
恣	-9.9316
甞	-9.9317
損益	-9.93212
與其	-9.93219
日新	-9.93223
學士	-9.933
不得已	-9.93324
探	-9.9337
惻隠	-9.93393
卜筮	-9.93403
其初	-9.93471
頒	-9.93546
廷	-9.93584
耗	-9.93615
諸侯之	-9.93677
為君	-9.93701
裏面	-9.93714
繆	-9.93727
粹	-9.93743
不要	-9.93756
物也	-9.93836
僚	-9.93871
嗟	-9.93902
又不	-9.93933
以義	-9.93965
物事	-9.94017
恱	-9.94055
則能	-9.94056
亦當	-9.94085
歸之	-9.94127
將去	-9.94181
天性	-9.94182
荀	-9.94281
若無	-9.94311
識得	-9.94347
而為之	-9.94355
緣	-9.94419
到得	-9.94452
枝	-9.94465
所論	-9.94489
禮者	-9.94561
而求	-9.94636
不肖	-9.9466
去其	-9.94661
髪	-9.94675
親親	-9.94725
得他	-9.94803
地位	-9.9484
不得不	-9.94905
者所以	-9.9496
聰	-9.94981
而實	-9.95006
這般	-9.95101
墮	-9.95234
測	-9.95238
莫能	-9.9525
不須	-9.95305
亦只是	-9.9539
應之	-9.95404
養之	-9.95409
翁	-9.95518
此處	-9.95528
醉	-9.95553
好學	-9.95586
㳺	-9.95614
省察	-9.95657
貧賤	-9.9567
衣食	-9.95778
)○	-9.95789
逺矣	-9.95814
吕氏	-9.95815
暮	-9.95943
誕	-9.95959
際	-9.95975
奥	-9.95976
停	-9.96006
嫡	-9.96025
起於	-9.96153
一分	-9.96165
不違	-9.96173
必欲	-9.9625
紛	-9.96318
季氏	-9.96344
張預曰	-9.96423
神宗	-9.96495
覩	-9.96531
井田	-9.96532
九五	-9.96554
諸生	-9.96591
第三	-9.96647
太守	-9.96775
陽氣	-9.9683
君子以	-9.96835
其罪	-9.96874
程先生	-9.96894
本心	-9.96912
播	-9.96916
洪範	-9.9695
之力	-9.96962
局	-9.96989
僻	-9.97059
孝經	-9.9714
可以為	-9.9715
之所為	-9.97162
漏	-9.97184
祔	-9.97197
愛之	-9.97316
公卿	-9.97455
範	-9.97499
妖	-9.97539
於是乎	-9.97553
天地萬物	-9.9756
低	-9.97567
辦	-9.97572
九年	-9.9758
之義也	-9.97611
王之	-9.97617
潮	-9.97684
是就	-9.97684
是理	-9.97695
挾	-9.97695
丑	-9.9772
豈能	-9.97836
女子	-9.97845
也然則	-9.97865
以至於	-9.97909
洽	-9.97934
一向	-9.9797
毅	-9.98078
圗	-9.98121
淡	-9.98174
父母之	-9.98229
中書	-9.98275
能盡	-9.98281
成就	-9.9829
跡	-9.98295
擅	-9.98431
用功	-9.98444
讎	-9.98454
貸	-9.98455
乎其	-9.98475
大率	-9.9853
勵	-9.98703
不可得而	-9.98728
六月	-9.98735
讐	-9.98865
只是一箇	-9.98884
編修	-9.98948
雖然	-9.9897
血氣	-9.98981
不許	-9.99029
旌	-9.99085
命之	-9.99159
如此説	-9.99166
知人	-9.99189
邾	-9.99261
之行	-9.99266
逮	-9.9929
旬	-9.99318
禽	-9.99351
燭	-9.99381
人能	-9.9939
得一	-9.99418
阻	-9.99424
壇	-9.99468
脫	-9.99469
死而	-9.99552
此又	-9.99593
其能	-9.99654
恭敬	-9.99733
讒	-9.99744
一件	-9.99821
有言	-9.99822
熱	-9.99872
船	-9.99874
莊子	-9.99884
將軍	-9.99914
閏	-9.9997
汙	-10.0001
揖	-10.0004
其父	-10.0005
鈔	-10.0007
之方	-10.001
園	-10.0023
而歸	-10.0024
此所謂	-10.003
事而	-10.0033
咸曰	-10.0047
之别	-10.0052
或以	-10.0058
黒	-10.0063
詭	-10.0063
箴	-10.0064
儀禮	-10.0065
至今	-10.0066
不幸	-10.0068
行而	-10.0073
覺得	-10.0075
佛氏	-10.008
䕶	-10.0085
者以其	-10.0093
便自	-10.0096
若以	-10.0097
者何	-10.0104
棺	-10.0105
風雨	-10.0106
然後可以	-10.0107
祖考	-10.0108
存乎	-10.011
為治	-10.0111
夾	-10.0116
佳	-10.0125
而未	-10.0134
哀公	-10.0134
太虚	-10.0143
匡	-10.0144
與天地	-10.0151
是為	-10.0153
問曰	-10.0163
於己	-10.0163
臣良勝曰	-10.0163
十七	-10.0166
印	-10.0171
莒	-10.0172
牙	-10.018
其文	-10.0197
清明	-10.0198
人以	-10.0199
藴	-10.0203
勲	-10.0204
存心	-10.0205
灌	-10.0207
至善	-10.0209
騐	-10.021
茅	-10.022
諸家	-10.0221
蹇	-10.0227
捕	-10.0228
之門	-10.0229
無一	-10.023
傳之	-10.023
之端	-10.0235
湏是	-10.0236
雖欲	-10.0238
庫	-10.0242
□	-10.0244
藩	-10.0244
頑	-10.0245
伯夷	-10.0247
光武	-10.0248
故以	-10.0248
氣禀	-10.0252
之美	-10.0262
之風	-10.0263
耻	-10.0264
太學	-10.0265
採	-10.0266
王制	-10.0266
聖王	-10.0267
嬰	-10.0267
命也	-10.0272
不可以不	-10.0283
子厚	-10.0291
遺書	-10.0294
於道	-10.0297
荆公	-10.0298
施之	-10.0301
凡事	-10.031
小大	-10.0315
者蓋	-10.0315
也凡	-10.0322
曰我	-10.0325
相應	-10.0329
剥	-10.033
進士	-10.0334
之長	-10.0337
子細	-10.0339
大本	-10.0342
羙	-10.0347
非謂	-10.0352
以上語	-10.0352
本意	-10.0358
贈	-10.0365
鄧	-10.0369
用心	-10.0378
裳	-10.0379
也子曰	-10.038
紹	-10.038
暢	-10.0388
潜	-10.0389
韶	-10.0389
也是故	-10.0389
有定	-10.0389
仁之	-10.0391
之末	-10.0392
此所以	-10.0402
王氏	-10.0405
行也	-10.0406
不入	-10.0406
也君子	-10.041
之賢	-10.0414
而言之	-10.0414
理會	-10.0415
妻子	-10.0421
畢竟	-10.0422
宥	-10.0427
南軒	-10.0429
三王	-10.0436
當然	-10.0437
善而	-10.0439
愛人	-10.0442
方得	-10.0452
崔	-10.0453
不齊	-10.0454
琴	-10.0469
皆然	-10.0475
中和	-10.0476
二百	-10.0478
邵	-10.0481
時便	-10.0482
鏡	-10.0492
舅姑	-10.0492
穿	-10.0493
異於	-10.0496
也惟	-10.0498
能知	-10.0499
人人	-10.0509
安排	-10.0515
其名	-10.0522
也哉	-10.0526
自謂	-10.0529
黑	-10.0532
得人	-10.0538
主宰	-10.054
成功	-10.0544
咨	-10.0546
蒼	-10.0548
攘	-10.0552
這裏	-10.0558
澄	-10.0573
家人	-10.0574
黃	-10.0574
也又	-10.0579
你	-10.0581
言性	-10.0581
是如何	-10.0581
大段	-10.0585
晚	-10.0587
章句	-10.0589
毫	-10.0591
父兄	-10.0604
揆	-10.0616
合於	-10.0622
有事	-10.0624
鑑	-10.0629
道義	-10.0631
冬至	-10.0642
元亨利貞	-10.0643
葛	-10.0643
喫	-10.0643
超	-10.0666
則當	-10.0671
東西	-10.0674
之病	-10.0674
乎天	-10.0676
栁	-10.0676
麥	-10.068
孟子言	-10.0689
亦以	-10.0696
人多	-10.0716
拂	-10.0718
上有	-10.0721
所宜	-10.0722
以養	-10.0723
言者	-10.0725
晏子	-10.0727
此篇	-10.0728
與他	-10.0731
考之	-10.0733
之可	-10.0735
方能	-10.0736
洗	-10.0736
六年	-10.0738
一陽	-10.0749
蒲	-10.0752
鹿	-10.0755
人自	-10.0756
杞	-10.0764
其始	-10.0771
不由	-10.0772
全體	-10.0774
不變	-10.078
區	-10.0782
東南	-10.0783
迂	-10.0784
只説	-10.0792
西北	-10.0794
有許多	-10.0797
數十	-10.0801
又謂	-10.0802
徳行	-10.0807
無復	-10.0807
逺近	-10.0809
蠱	-10.081
竇	-10.0811
與夫	-10.0815
太公	-10.0815
用人	-10.0817
犬	-10.082
盧	-10.0821
祐	-10.0821
從而	-10.0826
不如此	-10.0828
莫是	-10.0831
弦	-10.0832
之㫖	-10.0836
猶言	-10.0837
之所在	-10.0838
可行	-10.0841
闇	-10.0845
冒	-10.0845
氷	-10.0848
淑	-10.0849
主一	-10.0857
一邊	-10.0859
不顧	-10.0864
媚	-10.0868
此乃	-10.0874
顔淵	-10.0877
清濁	-10.0878
猶未	-10.0882
不覺	-10.0883
所作	-10.0886
二程	-10.0887
之節	-10.0893
也非	-10.0901
博學	-10.0903
糾	-10.0914
賞罰	-10.0915
舜之	-10.0915
看來	-10.0921
卿大夫	-10.0923
之大者	-10.0924
盡性	-10.0935
岐	-10.0935
五月	-10.0936
也盖	-10.0937
譬之	-10.0941
敬則	-10.0942
十月	-10.0943
有人	-10.0946
大綱	-10.0949
之機	-10.095
聖門	-10.0951
之過	-10.0952
醇	-10.0955
三千	-10.0957
僣	-10.0957
黍	-10.0958
於世	-10.096
則心	-10.0967
有此理	-10.0968
又言	-10.0978
封建	-10.0985
於物	-10.0988
宣王	-10.0989
可畏	-10.0992
也葢	-10.0997
惡之	-10.0997
則可以	-10.0997
於其	-10.101
可見矣	-10.1013
之爲	-10.102
二十四	-10.1024
子産	-10.1025
儘	-10.1032
返	-10.1044
畔	-10.1044
紙	-10.1049
身心	-10.1053
循環	-10.1054
書云	-10.1061
饋	-10.1063
天地之間	-10.1063
佩	-10.1064
貽	-10.109
本原	-10.1099
飲酒	-10.11
此其	-10.1103
書之	-10.1105
功夫	-10.1106
是知	-10.111
侍郎	-10.1113
則謂之	-10.1114
録云	-10.1115
聖人之心	-10.1117
如人	-10.1118
此說	-10.1122
所用	-10.1122
底事	-10.1128
稱其	-10.113
炎	-10.113
雞	-10.113
覇	-10.1132
不亦	-10.1132
都無	-10.1135
水之	-10.1141
實有	-10.1143
法也	-10.1146
三代之	-10.1149
隅	-10.1152
嚮	-10.1154
精微	-10.1159
状	-10.1162
通書	-10.1162
外面	-10.1166
胡氏	-10.1168
昔者	-10.1169
狐	-10.1175
不能自	-10.1177
莽	-10.1177
周易	-10.1182
一條	-10.1198
為國	-10.1198
黄帝	-10.1199
𨽻	-10.1202
筮	-10.1205
有無	-10.1206
第十	-10.1209
這道理	-10.1212
無道	-10.1213
性者	-10.1214
不暇	-10.1216
惟恐	-10.1219
者即	-10.1223
其法	-10.1226
其弊	-10.1233
大體	-10.124
而弗	-10.124
偃	-10.124
烝	-10.1242
無過	-10.1243
誼	-10.1243
徽	-10.1244
而用之	-10.1249
論之	-10.1256
祭之	-10.1259
無異	-10.1259
不至於	-10.126
與天	-10.1261
詠	-10.1262
吴	-10.1263
執事	-10.1264
大義	-10.1267
冊	-10.1269
梅堯臣曰	-10.1276
八月	-10.1279
世俗	-10.1286
如是則	-10.1288
坊	-10.1291
研	-10.1293
四象	-10.1296
邵子	-10.13
於前	-10.1305
臭	-10.1308
公孫	-10.131
涉	-10.1312
乂	-10.1313
其母	-10.1321
憤	-10.1323
或謂	-10.1325
佚	-10.1326
珍	-10.1327
又却	-10.1328
者固	-10.1332
各自	-10.1336
士之	-10.1338
文學	-10.1341
方始	-10.1344
者也故	-10.1351
汚	-10.1353
些子	-10.1358
於我	-10.1359
馭	-10.1359
無疑	-10.1362
○/	-10.1377
㫁	-10.1378
事天	-10.1386
體之	-10.139
用其	-10.1393
為義	-10.1394
正心	-10.1394
繫辭	-10.14
之害	-10.1401
膳	-10.1401
唐太宗	-10.1414
傑	-10.1419
父之	-10.1421
髙明	-10.1422
硬	-10.1426
可得而	-10.1426
太極圖	-10.1428
何處	-10.143
不死	-10.143
吾儒	-10.1436
本義	-10.1436
用也	-10.1447
裂	-10.1449
闊	-10.1449
𦵏	-10.1451
撥	-10.1454
初無	-10.1462
不惟	-10.1463
所云	-10.1463
慾	-10.1466
菜	-10.1467
䧟	-10.1467
已有	-10.1472
之異	-10.1473
曰天	-10.1489
訴	-10.1498
體認	-10.1498
又是	-10.1501
隨時	-10.1504
刃	-10.1507
存亡	-10.1512
自己	-10.1517
囘	-10.1518
之效	-10.152
尊卑	-10.152
知言	-10.1529
巨	-10.1529
傲	-10.153
後来	-10.1534
精粗	-10.1534
大矣	-10.1536
漸漸	-10.154
屈伸	-10.1544
變而	-10.1544
者雖	-10.155
既有	-10.1554
糴	-10.1557
亦何	-10.1559
不義	-10.156
姚	-10.1561
豆	-10.1561
頼	-10.1564
集註	-10.1564
倡	-10.1565
於事	-10.1567
到此	-10.1574
弄	-10.1588
不學	-10.159
也是以	-10.1597
板	-10.161
尚有	-10.1628
故不	-10.1629
銅	-10.163
形體	-10.1633
寃	-10.1633
溫	-10.1633
汪	-10.1634
伊川曰	-10.164
不使	-10.1642
家之	-10.1646
遁	-10.1651
膏	-10.1653
氣質之性	-10.1665
不疑	-10.1667
倦	-10.167
宫室	-10.1672
噫	-10.1674
亦必	-10.1675
酉	-10.1679
換	-10.1682
氣也	-10.1685
知道	-10.1689
莫若	-10.1691
何哉	-10.1693
發於	-10.1694
升降	-10.1695
簿	-10.1698
廵	-10.1701
可知矣	-10.1707
拙	-10.1708
處便	-10.1712
少間	-10.1714
故云	-10.1718
鐘	-10.1719
俯	-10.1721
治道	-10.1726
表裏	-10.1727
詩人	-10.1731
諸人	-10.1735
善則	-10.1743
吾心	-10.1747
牆	-10.1747
刪	-10.1752
凡人	-10.1756
以生	-10.176
生生	-10.176
其才	-10.1763
禍福	-10.1764
高祖	-10.1769
蠶	-10.1781
王曰	-10.1784
躁	-10.1792
之權	-10.1798
不失其	-10.1804
孔門	-10.1804
人心之	-10.181
出来	-10.1816
為天下	-10.1816
皆不	-10.1819
紫	-10.1821
者惟	-10.1832
不察	-10.1836
袁	-10.1839
隂陽之	-10.1839
更有	-10.1841
酬	-10.1842
祚	-10.1843
貼	-10.1846
士卒	-10.185
次序	-10.1862
鑄	-10.1863
仙	-10.1866
常存	-10.1866
朴	-10.1867
章問	-10.187
其行	-10.1883
不惑	-10.1884
說話	-10.1886
繇	-10.1886
人生	-10.1889
以敬	-10.189
訓曰	-10.1893
消長	-10.1896
舌	-10.1902
郡縣	-10.1906
璧	-10.1909
縮	-10.1913
可學	-10.1914
旗	-10.1914
竊謂	-10.1915
二十五	-10.1924
五帝	-10.1928
其生	-10.1929
齊侯	-10.1931
熊	-10.1931
不測	-10.1934
敬之	-10.1935
尋常	-10.1935
自欺	-10.1937
之常	-10.194
手足	-10.1942
人不	-10.1943
其上	-10.1946
程氏	-10.1946
多是	-10.1948
故為	-10.1952
躬行	-10.1956
遯	-10.1957
闔	-10.196
偷	-10.1962
則自	-10.198
漕	-10.1983
殯	-10.1991
退而	-10.1994
民者	-10.1994
以天下	-10.1996
莫之	-10.1998
受其	-10.2001
邦國	-10.2004
大凡	-10.201
所聞	-10.2011
恐其	-10.2012
所及	-10.2012
絃	-10.2015
文子	-10.2016
蟲	-10.2029
子張	-10.2035
氏之	-10.2038
八年	-10.2038
九月	-10.2044
察其	-10.2051
匿	-10.2056
樓	-10.2056
展	-10.2057
撓	-10.2059
掛	-10.2068
長短	-10.2069
正如	-10.2073
褒	-10.208
一曰	-10.2081
至是	-10.2081
大意	-10.2081
樂之	-10.2095
銀	-10.2097
天地之心	-10.2098
冝	-10.2098
亦猶	-10.2101
依舊	-10.2101
雉	-10.2106
相反	-10.211
人亦	-10.2116
物而	-10.2121
集注	-10.2122
便不是	-10.2126
辜	-10.2127
愼	-10.2128
善人	-10.2128
不然則	-10.213
與我	-10.2132
熙	-10.2132
滛	-10.2133
睿	-10.2135
不利	-10.2135
燾	-10.2138
戒之	-10.2138
稟	-10.2138
噐	-10.2139
臨事	-10.2141
漢唐	-10.2149
迭	-10.2152
以利	-10.2153
沮	-10.2153
帝曰	-10.2154
瀆	-10.2155
為能	-10.2155
所知	-10.2159
製	-10.216
生而	-10.2161
畆	-10.2165
以行	-10.2168
不可勝	-10.2169
如何是	-10.217
不思	-10.2176
其書	-10.2178
倣	-10.2185
楊墨	-10.2191
者當	-10.2199
波	-10.2202
多矣	-10.2207
技	-10.2224
方其	-10.2224
拱	-10.2225
間斷	-10.2227
織	-10.2227
鼻	-10.2227
本體	-10.2233
不和	-10.2233
壬	-10.2233
紀綱	-10.2239
亦不能	-10.2243
天下之人	-10.2246
者哉	-10.2247
堪	-10.2251
丙	-10.2252
奴	-10.2253
詢	-10.2255
河南	-10.2261
不誠	-10.2262
此之謂	-10.2265
男子	-10.2267
亦可以	-10.227
不孝	-10.2271
敖	-10.2281
天下之大	-10.2283
浩	-10.2288
六二	-10.2292
非聖人	-10.2293
寡人	-10.2293
明徳	-10.2294
二曰	-10.2298
軌	-10.2299
不能盡	-10.23
舅	-10.2301
染	-10.2302
之精	-10.2302
黄鐘	-10.2303
下同	-10.2309
亦曰	-10.2309
莫大於	-10.2309
土地	-10.2311
人為	-10.2315
彭	-10.2321
為民	-10.2323
蛇	-10.2324
非其	-10.2326
愆	-10.2328
久矣	-10.2329
嗜	-10.233
而後有	-10.2333
所以能	-10.2336
由此	-10.2338
黎	-10.234
以及	-10.2344
心也	-10.2345
博士	-10.2346
九三	-10.2348
八十	-10.235
像	-10.235
一本	-10.2352
正也	-10.2354
賑	-10.2355
樸	-10.2356
故聖人	-10.2356
漢儒	-10.2358
自以為	-10.2361
天徳	-10.2364
黄鍾	-10.2371
時舉	-10.2372
征伐	-10.2375
生意	-10.2376
無二	-10.2379
此詩	-10.2381
者盖	-10.2383
之宜	-10.2389
虜	-10.2392
明矣	-10.2395
皇極	-10.2397
渙	-10.2398
旨	-10.2402
枯	-10.2403
瑞	-10.2405
劉氏	-10.2422
斛	-10.243
疇	-10.2444
天資	-10.2445
以身	-10.2447
件	-10.2447
獵	-10.2448
普	-10.245
了又	-10.2453
萬里	-10.2455
吹	-10.2456
綏	-10.2457
堯夫	-10.2459
之流	-10.2459
三曰	-10.2466
為惡	-10.2468
小人之	-10.2469
而至於	-10.2472
是亦	-10.2473
物欲	-10.2479
茶	-10.2482
其職	-10.2483
因言	-10.2483
上九	-10.249
州郡	-10.2494
相近	-10.2494
言行	-10.2499
劄	-10.25
喜怒	-10.2504
臣下	-10.2504
而無所	-10.2505
后稷	-10.2506
别有	-10.2506
此段謂	-10.2508
贖	-10.2508
當世	-10.2512
於理	-10.2518
聞見	-10.2523
信之	-10.2524
翕	-10.2528
祧	-10.2528
若只	-10.253
躍	-10.253
替	-10.2558
也聖人	-10.2563
天下之理	-10.2564
斧	-10.2574
孔明	-10.2575
相對	-10.2576
賂	-10.2578
筭	-10.2579
䕫	-10.2581
抗	-10.2583
䏻	-10.2585
常人	-10.2586
聖學	-10.2589
治國	-10.259
二氣	-10.2601
個	-10.2602
肥	-10.2603
悅	-10.2604
濶	-10.2609
漁	-10.2611
終不	-10.2613
矣若	-10.2614
易傳	-10.2617
合而	-10.2619
六五	-10.2622
水旱	-10.2623
道而	-10.2625
反復	-10.2627
苑	-10.263
只就	-10.2637
必須	-10.2648
者謂之	-10.2656
公羊	-10.2658
司空	-10.2673
徳者	-10.2674
謗	-10.2678
鄉黨	-10.268
掠	-10.2681
皆在	-10.2681
曰夫	-10.2682
蒸	-10.2683
輯	-10.2685
當初	-10.27
一生	-10.2706
官司	-10.2709
兩儀	-10.271
便不	-10.2712
只是要	-10.2712
懈	-10.2716
不改	-10.2716
不獨	-10.272
不到	-10.2721
而動	-10.2725
食之	-10.2727
兩端	-10.2728
槩	-10.2732
薪	-10.2733
正則	-10.2737
分為	-10.2738
是仁	-10.2741
玩味	-10.2743
久之	-10.2745
文中子	-10.2745
荀子	-10.2754
瞽	-10.2758
滕	-10.2759
大功	-10.276
爽	-10.2762
知此	-10.2765
此便是	-10.2777
復有	-10.2778
相去	-10.2779
其下	-10.2788
萃	-10.2793
道路	-10.2801
軰	-10.2805
其要	-10.281
巡	-10.2812
科舉	-10.2816
在位	-10.2819
格物致知	-10.2821
資質	-10.2822
以仁	-10.2825
未聞	-10.2825
一月	-10.2826
一定	-10.2826
天也	-10.283
其德	-10.2831
有大	-10.2833
皆非	-10.2834
之衆	-10.2835
天下無	-10.2835
艾	-10.2837
吟	-10.2838
飭	-10.2841
仁人	-10.2842
三十二	-10.2844
皆當	-10.2847
矣又	-10.2851
若能	-10.2853
霜	-10.2858
近於	-10.2859
跪	-10.2861
不逺	-10.2865
聖祖	-10.2868
愛民	-10.2871
髙下	-10.2871
朱熹	-10.2879
淺深	-10.2881
醜	-10.2886
賁	-10.2889
陽之	-10.2892
區區	-10.2893
隘	-10.2894
忠臣	-10.2897
讀之	-10.2898
自為	-10.2901
寂	-10.2906
民間	-10.2914
以治	-10.2915
个	-10.292
而進	-10.293
二句	-10.2932
一等	-10.2934
距	-10.2943
去之	-10.2943
生民	-10.2944
六爻	-10.2944
卯	-10.2945
以立	-10.2947
杜牧曰	-10.2949
居之	-10.295
注云	-10.2953
有徳	-10.296
長安	-10.2966
一處	-10.2968
五百	-10.2969
驟	-10.2971
施於	-10.2972
召公	-10.2976
之微	-10.2978
盜賊	-10.298
以事	-10.2981
甚多	-10.2982
求諸	-10.2997
壤	-10.2999
自知	-10.3003
帖	-10.3003
節文	-10.3015
任之	-10.3015
禾	-10.3018
人之性	-10.302
是氣	-10.3023
苖	-10.3025
敬也	-10.3025
其學	-10.3026
西南	-10.3026
而后	-10.3029
麟	-10.3029
催	-10.3031
不可為	-10.3033
恐懼	-10.3034
監司	-10.304
智者	-10.3049
十九	-10.305
上説	-10.3054
曰子	-10.3056
什	-10.3057
其時	-10.3058
㝢	-10.306
正而	-10.3061
之具	-10.3066
今世	-10.3066
吁	-10.3074
巖	-10.3078
之所以為	-10.3078
一作	-10.308
不離	-10.3081
一念	-10.3081
傍	-10.3084
歐陽	-10.3089
夫子之	-10.309
興起	-10.3095
流於	-10.3095
去做	-10.3097
薨	-10.3103
顛	-10.3104
膚	-10.3104
便要	-10.3106
訖	-10.3107
箕子	-10.3111
義之	-10.3113
邪正	-10.3115
乎哉	-10.3117
宣公	-10.3117
存焉	-10.3124
也且	-10.3126
語録	-10.3129
鳥獸	-10.3131
勅	-10.3132
不備	-10.3135
曰君子	-10.3139
天下國家	-10.3144
世間	-10.3145
兩句	-10.315
處如	-10.3153
持敬	-10.3154
此之謂也	-10.3162
及於	-10.3162
規矩	-10.3163
是説	-10.3163
叚	-10.3163
將來	-10.3163
道則	-10.3167
不妨	-10.3171
以俟	-10.3174
晩	-10.3178
彖	-10.318
賢才	-10.318
餓	-10.3185
三十六	-10.3188
晦庵	-10.319
主敬	-10.3193
三軍	-10.3194
僖	-10.3197
義者	-10.321
前代	-10.3212
之辨	-10.3213
俸	-10.3216
賔客	-10.3219
乃能	-10.3219
利貞	-10.322
也至於	-10.3223
後面	-10.3226
無心	-10.3234
之神	-10.3246
孟子所謂	-10.3256
有些	-10.326
耦	-10.326
非獨	-10.3261
之資	-10.3262
行者	-10.3264
軒	-10.3264
聖人之言	-10.3267
鴻	-10.3268
鄒	-10.3268
委曲	-10.3274
十一月	-10.3275
而不得	-10.3279
人君之	-10.3281
便見	-10.3282
象山	-10.3283
孔子之	-10.3284
其地	-10.329
為陽	-10.3292
相見	-10.3292
因問	-10.3305
知也	-10.3307
必待	-10.3322
詰	-10.3323
喜怒哀樂	-10.3326
化之	-10.3328
襄公	-10.3333
民心	-10.3335
及至	-10.3336
可得	-10.3339
嘗言	-10.3341
固已	-10.3342
胸中	-10.3346
苛	-10.3347
周公之	-10.3347
漢書	-10.3351
綴	-10.3353
先聖	-10.3359
有形	-10.3359
遂以	-10.3365
曰昔	-10.3366
平易	-10.3368
晉侯	-10.337
暫	-10.3374
也但	-10.3377
聖賢之	-10.338
小者	-10.3384
而入	-10.3387
楊氏	-10.3387
言仁	-10.3388
語孟	-10.3389
而卒	-10.339
於朝	-10.3392
僖公	-10.3397
浙	-10.3398
再拜	-10.3399
莫如	-10.34
嶽	-10.34
蠲	-10.3403
所存	-10.3405
三人	-10.3405
之戒	-10.3406
明年	-10.3407
轍	-10.3411
立志	-10.3418
之不可	-10.3425
突	-10.3434
不宜	-10.3436
浩然之氣	-10.3439
李筌曰	-10.3439
道體	-10.344
五經	-10.3443
曰君	-10.3446
君子小人	-10.3447
推而	-10.3449
察之	-10.345
亢	-10.3451
外物	-10.3455
漫	-10.346
何事	-10.3461
昭公	-10.3462
甚好	-10.3467
身上	-10.3468
熟讀	-10.3468
亦多	-10.347
處事	-10.3471
生者	-10.3478
稷	-10.3479
七月	-10.3485
萬一	-10.3487
逼	-10.3489
元祐	-10.3498
仲弓	-10.3498
此類	-10.3504
木之	-10.351
甸	-10.3513
小子	-10.3515
閲	-10.3516
一端	-10.3516
者衆	-10.3516
陳氏	-10.3517
是要	-10.354
掃	-10.3542
我之	-10.3544
變易	-10.355
曲禮	-10.3551
億	-10.3551
乾之	-10.3554
矣今	-10.3555
壻	-10.3555
是性	-10.3559
正直	-10.3566
婚	-10.3572
能為	-10.3573
需	-10.3574
四字	-10.3576
不甚	-10.3579
主之	-10.3584
之源	-10.3584
敬字	-10.3597
諂	-10.36
慰	-10.3604
顔色	-10.3609
中節	-10.3609
從此	-10.3614
而終	-10.3618
不窮	-10.3621
阜	-10.3627
蘭	-10.3627
卧	-10.3629
煞	-10.3629
皆為	-10.363
施行	-10.363
厚薄	-10.3632
那裏	-10.3634
以備	-10.3637
心不	-10.3639
之甚	-10.3642
親之	-10.3642
不服	-10.3644
其力	-10.3646
稼	-10.3651
而不為	-10.3652
百世	-10.3652
涵	-10.3653
太和	-10.3653
帝王之	-10.3655
值	-10.366
諒	-10.3663
一氣	-10.3663
魏公	-10.3664
經文	-10.367
此道	-10.3677
何不	-10.3678
所由	-10.3685
諧	-10.3687
也朱子曰	-10.3688
橋	-10.3689
又自	-10.3697
考其	-10.3698
九四	-10.37
緯	-10.3701
羞惡	-10.3702
天下事	-10.3704
乃可	-10.3707
壅	-10.3712
鈞	-10.3714
穴	-10.3718
這是	-10.3719
於身	-10.3724
五聲	-10.3724
已是	-10.3727
求仁	-10.3735
刋	-10.3741
為難	-10.3745
至如	-10.3746
一百	-10.3749
為心	-10.3755
之師	-10.3763
紅	-10.3769
勃	-10.3771
其利	-10.3775
得箇	-10.3788
絰	-10.3798
將以	-10.3799
潘	-10.3801
其數	-10.3807
無常	-10.3812
而發	-10.3815
先君	-10.3817
綱紀	-10.3817
人傑	-10.3818
和平	-10.3819
勉强	-10.3823
劒	-10.3825
巾	-10.383
簒	-10.383
處便是	-10.383
曰某	-10.3832
汎	-10.3832
專以	-10.3833
五刑	-10.3836
衣冠	-10.3846
生之	-10.385
抵	-10.3857
兩字	-10.3859
中道	-10.3859
於義	-10.3862
托	-10.3862
誠之	-10.3865
學而	-10.3865
講論	-10.3867
而可	-10.3868
財用	-10.387
則天下	-10.3873
起居	-10.3873
所記	-10.3876
域	-10.3884
仁則	-10.3887
頥	-10.3889
姤	-10.389
碑	-10.389
屨	-10.3891
榜	-10.3894
山林	-10.3898
知至	-10.3898
必不	-10.39
大道	-10.3906
次之	-10.3912
狎	-10.3912
衝	-10.3916
减	-10.3918
㢘	-10.3918
陣	-10.3919
日月星辰	-10.3919
淮南	-10.392
公私	-10.3923
之國	-10.3924
柱	-10.3924
本是	-10.3937
諛	-10.3944
網	-10.3945
無欲	-10.3949
廹	-10.3954
其一	-10.3957
那箇	-10.3958
凡有	-10.3963
一嵗	-10.3966
昨	-10.3967
不害	-10.3968
巢	-10.3969
四書	-10.3975
前輩	-10.3977
其大	-10.3978
竝	-10.3983
宣帝	-10.3983
勞而	-10.3987
數年	-10.3991
其聲	-10.3994
巷	-10.3997
成周	-10.3999
十二月	-10.4001
不中	-10.4004
者正	-10.4006
盛徳	-10.401
山之	-10.401
河圖	-10.4011
而去	-10.4012
這便是	-10.4015
月令	-10.403
鳩	-10.4031
禰	-10.4031
臣若水通曰此	-10.4031
治民	-10.4033
夙夜	-10.4039
於其間	-10.4041
備矣	-10.4052
消息	-10.4053
不可曉	-10.4056
膠	-10.406
恪	-10.4062
拔	-10.4064
惇	-10.4065
罵	-10.4065
層	-10.4066
可觀	-10.4066
千萬	-10.4066
合當	-10.4067
匠	-10.4068
但以	-10.4069
本文	-10.407
條理	-10.4071
唱	-10.4074
能使	-10.4082
者豈	-10.4087
一時之	-10.4088
不順	-10.409
濓溪	-10.4091
而言也	-10.4092
駭	-10.4093
賈誼	-10.4097
莊公	-10.4097
成性	-10.4101
為貴	-10.4102
糶	-10.4104
著力	-10.4105
岳	-10.4112
恬	-10.4113
晨	-10.4116
十餘	-10.4116
功名	-10.4116
熈	-10.412
障	-10.4122
脉	-10.4124
㧞	-10.4125
太史	-10.4125
方有	-10.413
明堂	-10.4133
養氣	-10.4137
而後能	-10.414
不特	-10.4145
不加	-10.4146
之任	-10.4147
佛老	-10.4147
斤	-10.415
老氏	-10.4151
骨肉	-10.4155
而言則	-10.4158
呈	-10.4159
刺史	-10.4162
曾㸃	-10.4165
之憂	-10.4172
之化	-10.4173
甚麽	-10.4176
几	-10.418
之形	-10.4182
戊	-10.4185
癸	-10.4185
摩	-10.4186
者葢	-10.4187
否曰然	-10.4188
長子	-10.419
殤	-10.4192
九十	-10.4194
秋冬	-10.4196
不貳	-10.4198
利而	-10.4198
立法	-10.4199
二月	-10.42
為性	-10.42
之發	-10.4203
宦官	-10.4216
見聞	-10.4218
好處	-10.4225
誠心	-10.423
此其所以	-10.423
艱難	-10.4234
了便	-10.4238
凌	-10.4239
可用	-10.4242
吐	-10.4242
中也	-10.4244
焉故	-10.4244
程朱	-10.4244
墻	-10.4245
叅	-10.4245
駁	-10.4246
為上	-10.4249
冗	-10.425
非特	-10.425
教者	-10.4252
武侯	-10.4255
官吏	-10.4258
最為	-10.4259
浪	-10.4269
鬱	-10.4269
大雅	-10.4273
蔵	-10.4274
先天	-10.4275
非所以	-10.4276
比之	-10.4278
閱	-10.4278
為物	-10.4284
事理	-10.4285
民力	-10.4286
使者	-10.4287
一世	-10.4289
庶子	-10.4294
其善	-10.4296
却有	-10.4297
誠敬	-10.4298
矩	-10.4299
之聲	-10.43
然有	-10.4304
之迹	-10.4306
擢	-10.4307
和而	-10.4308
荷	-10.4308
人知	-10.4309
終是	-10.4312
自立	-10.4313
牒	-10.4316
不可行	-10.4322
常在	-10.4323
之深	-10.4326
舉其	-10.4326
只說	-10.433
慝	-10.4333
淪	-10.4333
未嘗有	-10.4334
翻	-10.4334
下學	-10.4335
版	-10.4335
誡	-10.4335
纂	-10.4335
便可	-10.4336
在其中矣	-10.4336
專一	-10.4338
堯舜之	-10.4344
伯恭	-10.4348
庶民	-10.4351
雖未	-10.4353
萊	-10.4355
齊王	-10.4355
無人	-10.4359
猷	-10.4362
不消	-10.4362
以相	-10.4364
募	-10.4364
刼	-10.4366
莫不有	-10.437
不聽	-10.4373
一國	-10.4375
不厭	-10.4376
曰今	-10.4377
之仁	-10.4378
安於	-10.438
成物	-10.4381
南軒曰	-10.4382
此段	-10.4392
二三	-10.4393
二條	-10.4394
鬻	-10.4395
之殊	-10.4396
初九	-10.4399
兩箇	-10.4411
吾身	-10.4412
太甲	-10.4417
㸔得	-10.4418
國人	-10.4418
戒懼	-10.4422
其失	-10.4422
鞭	-10.4425
津	-10.4427
足矣	-10.443
唐虞	-10.4435
有益	-10.4436
之類是也	-10.4437
不可得	-10.4437
緩急	-10.4439
安得不	-10.444
於後	-10.4442
一語	-10.4443
屠	-10.4446
此非	-10.4449
桀紂	-10.4456
捐	-10.4457
豕	-10.4457
灰	-10.4462
何其	-10.4465
動也	-10.4465
只是箇	-10.4469
成湯	-10.4474
未易	-10.4476
亦如之	-10.4477
與物	-10.448
熹	-10.448
有可	-10.4486
溺於	-10.4486
之詞	-10.4487
即所謂	-10.4487
之偏	-10.4488
其政	-10.449
者何也	-10.4491
不存	-10.4495
上曰	-10.4503
何嘗	-10.4506
鄉里	-10.451
臯	-10.4513
堯之	-10.4517
上書	-10.4519
安危	-10.4521
如一	-10.4521
有甚	-10.4522
千古	-10.4522
村	-10.4523
不定	-10.4534
少陽	-10.4536
曲折	-10.4541
計較	-10.4545
償	-10.4547
隐	-10.4549
裴	-10.4549
被他	-10.4549
不得已而	-10.455
/○	-10.4553
難矣	-10.4554
時有	-10.4555
心之所	-10.4562
無物	-10.4565
匹夫	-10.4569
用事	-10.4571
良心	-10.4573
通鑑	-10.4574
生死	-10.4575
蔡沈曰	-10.4575
三子	-10.4582
而用	-10.4583
恰好	-10.4587
一以貫之	-10.4587
中原	-10.4592
不解	-10.4595
置之	-10.4599
如何得	-10.46
則無以	-10.4604
縫	-10.4611
下工夫	-10.4615
憐	-10.4615
枝葉	-10.4617
令人	-10.462
非徒	-10.4623
无妄	-10.4625
有限	-10.4627
從其	-10.4629
彼此	-10.4631
敵人	-10.4634
人性	-10.4639
齊人	-10.464
潰	-10.4643
綿	-10.4644
有天下	-10.4646
獻公	-10.4647
國語	-10.465
㕔	-10.4655
保其	-10.4661
之原	-10.4662
日月之	-10.4664
天之道	-10.4665
而退	-10.4666
未成	-10.4667
理則	-10.4669
百工	-10.468
救之	-10.4683
為害	-10.4685
以時	-10.4685
五代	-10.4689
有異	-10.4692
在前	-10.4693
相為	-10.4701
不謹	-10.4703
册	-10.471
釋之	-10.471
望之	-10.4711
所説	-10.4713
道德	-10.4714
耳若	-10.4715
四夷	-10.4716
皆得	-10.4717
論其	-10.4717
江南	-10.4719
不取	-10.4721
親戚	-10.4726
漆	-10.4738
寂然不動	-10.474
董仲舒	-10.4741
梅	-10.4743
得此	-10.4752
首尾	-10.4752
君子不	-10.4761
貎	-10.4764
札	-10.4766
燒	-10.4767
遼	-10.4767
憾	-10.4773
此二	-10.4776
而安	-10.4777
恐是	-10.4777
丈夫	-10.478
聲色	-10.4788
未到	-10.479
為隂	-10.4794
制之	-10.4795
無餘	-10.4795
不可易	-10.4799
極好	-10.48
諾	-10.48
坦	-10.4801
訛	-10.4806
是之謂	-10.4806
王晳曰	-10.4807
泳	-10.4809
慊	-10.481
之業	-10.4812
此時	-10.4813
成人	-10.4819
不問	-10.4822
模	-10.4836
久而	-10.4837
不濟事	-10.4845
有疑	-10.4848
當如此	-10.4849
然後可	-10.485
君子之道	-10.4851
曹操曰	-10.4853
所居	-10.4856
樞	-10.4857
曰若	-10.4859
位而	-10.486
狩	-10.4864
座	-10.4864
揚雄	-10.4871
尊賢	-10.4871
道學	-10.4874
曰凡	-10.4875
未甞	-10.4875
於彼	-10.488
䜛	-10.4885
弩	-10.4887
從事	-10.4887
責之	-10.489
灼	-10.4895
皆無	-10.4898
勒	-10.4898
正理	-10.4898
上達	-10.4899
云爾	-10.4899
逰	-10.49
六十四	-10.4903
故事	-10.4904
皆由	-10.4904
治人	-10.4909
不曉	-10.4912
方氏	-10.4912
忽然	-10.4914
片	-10.4915
乾道	-10.4916
四句	-10.4919
貞觀	-10.4919
教他	-10.4924
惕	-10.4925
諷	-10.4925
百餘	-10.493
便見得	-10.4931
後學	-10.4937
五日	-10.4938
乃以	-10.4941
三章	-10.4946
事者	-10.4949
之費	-10.4952
某人	-10.4955
如云	-10.4956
詆	-10.496
知天	-10.497
也若夫	-10.4971
而化	-10.4975
而必	-10.4976
海内	-10.4977
無一毫	-10.4987
頤	-10.4988
有四	-10.4989
不遺	-10.4992
戌	-10.4997
昬	-10.5001
不絶	-10.5001
赤子	-10.5003
踐履	-10.5005
行道	-10.5006
開元	-10.5007
三才	-10.5011
天理人欲	-10.5013
毫釐	-10.5015
形氣	-10.502
二十七	-10.5025
或者	-10.5025
之謀	-10.5028
柴	-10.5029
己者	-10.503
千載	-10.503
出乎	-10.5032
事上	-10.5034
聲音	-10.5037
患難	-10.5042
人之心	-10.5044
要做	-10.505
可疑	-10.5052
不遷	-10.5055
固非	-10.5056
髮	-10.5057
出處	-10.5057
中者	-10.506
歉	-10.5062
穆公	-10.5063
婢	-10.5064
知止	-10.5065
斯民	-10.5067
容貌	-10.5073
五事	-10.5075
乎夫	-10.5086
感應	-10.5091
饌	-10.5092
許多道理	-10.5093
二十八	-10.5094
有所不	-10.5094
汲汲	-10.5094
鄉人	-10.5094
墳	-10.5097
天地之性	-10.5097
看他	-10.5097
惡而	-10.5098
鈍	-10.5099
徃徃	-10.5099
底物事	-10.5101
為二	-10.5101
兑	-10.5102
如天	-10.5104
東萊	-10.5104
有序	-10.511
五行之	-10.5111
於禮	-10.5111
殊不知	-10.5112
東方	-10.5118
牀	-10.512
為法	-10.5121
肇	-10.5123
卽	-10.5125
當其	-10.5128
莫敢	-10.5129
一叚	-10.5134
不著	-10.5134
先生云	-10.5138
難得	-10.5143
自私	-10.5145
之所謂	-10.5151
揚子	-10.5152
常常	-10.5157
台	-10.5158
促	-10.5159
九州	-10.5159
錦	-10.5159
達於	-10.5161
徳而	-10.5165
人之道	-10.517
其終	-10.5171
所學	-10.5176
知有	-10.5179
所至	-10.5179
之交	-10.5181
胷中	-10.5181
所不能	-10.5182
進而	-10.5182
穢	-10.5185
盍	-10.5188
伯淳	-10.5189
袒	-10.5192
戈	-10.5192
醴	-10.5195
生焉	-10.52
誠能	-10.5204
蘇氏	-10.5204
教民	-10.5206
君也	-10.5208
處置	-10.5212
物物	-10.5216
郷	-10.5218
無罪	-10.5219
沃	-10.5221
两	-10.5222
禮以	-10.5223
揺	-10.5226
此數	-10.5227
忒	-10.5228
不差	-10.5231
亦難	-10.5233
也孔子曰	-10.5241
問仁	-10.5244
誠者	-10.525
時節	-10.5251
纎	-10.5256
松	-10.5261
麄	-10.5265
謝氏	-10.5268
徳性	-10.5268
六十四卦	-10.5279
曰聖人	-10.5282
有兩	-10.5282
以安	-10.5285
體也	-10.5286
三句	-10.5286
慘	-10.5286
用處	-10.5287
一卷	-10.529
怯	-10.5291
十萬	-10.5291
粥	-10.5292
埋	-10.5296
以徳	-10.5297
者或	-10.5297
惟是	-10.5302
不倦	-10.531
王安石	-10.5311
曰固是	-10.5314
得中	-10.5316
為正	-10.5318
何用	-10.5319
禮則	-10.5321
柩	-10.5321
地而	-10.5324
后妃	-10.5324
于天	-10.5325
級	-10.5325
可使	-10.5325
乳	-10.5326
泄	-10.5327
居敬	-10.5334
未足	-10.5343
豈得	-10.5343
箕	-10.5347
之不同	-10.5348
義則	-10.535
固不可	-10.5351
隨事	-10.5351
翰	-10.5354
伐之	-10.5354
愁	-10.5355
無害	-10.5356
懋	-10.5358
藻	-10.5358
有命	-10.5359
羮	-10.5359
多有	-10.536
順理	-10.5361
浚	-10.5362
而作	-10.5362
其惡	-10.5363
懇	-10.5364
扇	-10.5367
正其	-10.5369
延平	-10.537
太極之	-10.537
愛敬	-10.5377
至公	-10.538
持守	-10.5382
止之	-10.5385
周旋	-10.5385
雕	-10.5392
盥	-10.5392
銷	-10.5395
但當	-10.5403
利用	-10.5406
其私	-10.5415
善也	-10.5417
壹	-10.5422
七日	-10.5429
繋	-10.5432
蠻	-10.5435
不作	-10.5443
詔曰	-10.5447
心者	-10.5455
狗	-10.5459
間有	-10.5459
異乎	-10.546
同姓	-10.5465
韓子	-10.5467
官府	-10.5468
情也	-10.5468
及此	-10.5469
義理之	-10.5472
德之	-10.5473
泰山	-10.5475
功業	-10.5478
守令	-10.5484
名也	-10.5485
之器	-10.5488
此氣	-10.5489
鳯	-10.549
絳	-10.5491
焦	-10.5492
如此說	-10.5492
一度	-10.5493
朽	-10.5493
鳳	-10.5495
矣其	-10.5496
棘	-10.5496
南方	-10.5498
已自	-10.5502
嘗謂	-10.5504
恐未	-10.5505
有時而	-10.551
不似	-10.551
收斂	-10.551
所受	-10.5512
罕	-10.5513
惡者	-10.5514
則所謂	-10.5518
祁	-10.5526
弁	-10.5528
東北	-10.5529
狼	-10.5532
按此	-10.5535
綂	-10.5535
理而	-10.5541
未安	-10.5543
透徹	-10.5543
行則	-10.5546
何足	-10.5546
渡	-10.5548
亦只	-10.5548
太廟	-10.5548
終於	-10.5553
陽明	-10.5554
而知之	-10.5565
其害	-10.5566
三四	-10.5566
固不	-10.5568
愛親	-10.5569
正當	-10.5573
相傳	-10.5574
合下	-10.5575
時中	-10.5588
自今	-10.5589
甚於	-10.5592
之意也	-10.5593
不可知	-10.5596
竈	-10.5598
兄弟之	-10.5605
樣	-10.5606
而食	-10.5607
㽦	-10.5607
以此為	-10.5608
至大	-10.5609
偶然	-10.561
天時	-10.5615
豈無	-10.5618
将去	-10.5618
虚心	-10.562
於地	-10.5624
多寡	-10.5626
有不善	-10.5626
做去	-10.5626
于此	-10.563
商量	-10.5631
圜	-10.5631
伺	-10.5634
感動	-10.5641
古禮	-10.5645
中興	-10.5646
出而	-10.5646
緊	-10.5649
齊家	-10.5657
為我	-10.5657
人力	-10.5661
而外	-10.5663
幻	-10.5667
蓍	-10.5667
標	-10.5668
臣竊	-10.5669
衮	-10.5669
濕	-10.567
為文	-10.5674
底是	-10.5684
四徳	-10.5692
始有	-10.5692
栗	-10.5696
棄之	-10.5698
孟氏	-10.5699
兊	-10.57
作詩	-10.5701
百萬	-10.5702
不妄	-10.5702
存之	-10.5705
漢之	-10.5706
門外	-10.5709
洪武	-10.5716
人之所以	-10.5717
只如	-10.5722
各得其	-10.5725
家語	-10.5728
行乎	-10.573
車馬	-10.5732
丕	-10.5734
殖	-10.5734
岸	-10.5739
病痛	-10.574
本乎	-10.574
一太極	-10.5741
作文	-10.5741
劇	-10.5742
為天子	-10.5744
三百六十	-10.5745
四曰	-10.5745
聞其	-10.5746
中心	-10.5748
之理也	-10.5751
代之	-10.5752
有物	-10.5753
無禮	-10.5753
者多矣	-10.5756
則已	-10.5757
和氣	-10.576
曰古者	-10.5765
隕	-10.5771
皆自	-10.5779
繼之	-10.5785
百物	-10.5786
即此	-10.5788
忘其	-10.5788
無遺	-10.5793
安石	-10.5795
不治	-10.5809
猶可	-10.581
態	-10.5811
効	-10.5812
之㑹	-10.5813
天生	-10.5815
辨之	-10.5819
氣化	-10.5821
逺而	-10.5824
可否	-10.5831
小民	-10.5836
動則	-10.5837
為非	-10.584
鋒	-10.5842
胄	-10.5844
隣	-10.5844
蠧	-10.5848
斟酌	-10.5849
士人	-10.5852
李氏	-10.5854
自見	-10.586
理義	-10.5866
三十年	-10.5867
義利	-10.5867
太王	-10.5871
之所由	-10.5873
漠	-10.5876
雖曰	-10.5878
不欺	-10.5878
禍亂	-10.588
狥	-10.5881
勁	-10.5882
𤼵	-10.5882
湛	-10.5883
萬理	-10.5883
指揮	-10.5884
揲	-10.5907
此三者	-10.5911
有五	-10.5914
卻	-10.5916
桂	-10.5918
真實	-10.5918
擁	-10.5918
溥	-10.5922
做事	-10.5925
曰朕	-10.5925
太過	-10.5931
導之	-10.5934
之類皆	-10.5936
然非	-10.5941
臣按此	-10.5944
眉	-10.5945
此義	-10.5946
雖無	-10.5947
樂也	-10.5948
汗	-10.5949
窒	-10.595
柳	-10.5952
操存	-10.5953
醒	-10.5953
之中而	-10.5956
成徳	-10.5956
偉	-10.5958
有孚	-10.5958
為利	-10.5958
答曰	-10.5958
日夜	-10.596
正叔	-10.5966
有意	-10.5971
否則	-10.5979
司馬光	-10.5981
為體	-10.5982
嶺	-10.5983
髙帝	-10.5984
翔	-10.5985
涵泳	-10.5987
已成	-10.5988
鬬	-10.5989
惜乎	-10.5989
鶴	-10.5989
内則	-10.5991
嗇	-10.5993
視其	-10.5993
不務	-10.5995
某嘗	-10.5996
行於	-10.6
亦皆	-10.6005
文言	-10.6008
枕	-10.601
名曰	-10.6012
居中	-10.602
紛擾	-10.6023
今以	-10.6023
上疏	-10.6024
全無	-10.6026
兌	-10.6027
大徳	-10.6027
中外	-10.6029
太常	-10.6029
不可復	-10.603
一毫	-10.603
無怨	-10.6031
所取	-10.6033
私心	-10.6036
大要	-10.6038
陽也	-10.604
法令	-10.6041
綱領	-10.6043
公主	-10.6044
第四	-10.6046
始祖	-10.6046
五者	-10.6046
郡國	-10.6052
遣使	-10.6053
乎故	-10.6054
有差	-10.6054
在中	-10.6054
稻	-10.6055
之言也	-10.6057
易簡	-10.6059
近日	-10.606
因以	-10.6061
萬殊	-10.6062
沿	-10.6062
純粹	-10.6065
磬	-10.6065
臣子	-10.6068
宗族	-10.607
章曰	-10.6071
此句	-10.6072
勉之	-10.6073
之象也	-10.6076
也孔子	-10.6077
真箇	-10.6083
雖多	-10.6083
自守	-10.6087
零	-10.6087
道是	-10.6091
不雜	-10.6091
邢	-10.6095
大哉	-10.6095
接物	-10.6097
在心	-10.6101
之訓	-10.6101
便能	-10.6103
到那	-10.6103
而不知其	-10.6105
四方之	-10.6111
得其正	-10.6114
嬖	-10.6125
者猶	-10.6129
腐	-10.6129
憑	-10.613
國子	-10.6131
瓦	-10.6131
固當	-10.6133
塲	-10.6135
木訥曰	-10.6136
民無	-10.6144
黄道	-10.6146
好仁	-10.615
鄭伯	-10.615
欲使	-10.6151
取諸	-10.6153
無疆	-10.6153
於斯	-10.6155
易也	-10.6163
臂	-10.6164
合一	-10.6165
而起	-10.6166
爛	-10.6167
絹	-10.6168
祇	-10.6168
冩	-10.6168
演	-10.6172
是乃	-10.6173
之服	-10.6176
上六	-10.6179
不稱	-10.6179
在後	-10.6181
所以然者	-10.6184
君命	-10.6185
民生	-10.6187
最好	-10.6188
出門	-10.6189
身之	-10.6196
一夫	-10.6198
疲	-10.62
十日	-10.6209
洛書	-10.6215
無方	-10.6215
之役	-10.6216
心術	-10.6217
於國	-10.6222
隨其	-10.6224
子游	-10.6224
記曰	-10.6224
治者	-10.6225
曰吾聞	-10.6231
不逮	-10.6232
者能	-10.6234
得這	-10.6236
濯	-10.6236
陂	-10.6237
誌	-10.6237
十有二	-10.6238
布衣	-10.6238
隊	-10.6239
閩	-10.6242
待之	-10.6243
喚	-10.6243
叟	-10.6246
一種	-10.6246
不修	-10.6247
雙	-10.6247
事事物物	-10.6248
古之人	-10.6249
改過	-10.625
不爲	-10.6251
數也	-10.6263
又非	-10.6263
昭穆	-10.6264
支離	-10.6265
不見其	-10.6265
必自	-10.6274
囿	-10.6276
懦	-10.6277
無用	-10.6277
嬪	-10.6278
運行	-10.6278
不可謂	-10.6278
學也	-10.6281
不平	-10.6281
捉	-10.6284
仲舒	-10.6286
斯言	-10.6287
立言	-10.6287
國家之	-10.6289
節目	-10.6293
藏之	-10.6303
自當	-10.6304
誠也	-10.6306
是聖人	-10.6306
靈公	-10.6309
憎	-10.6312
礪	-10.6314
䘏	-10.6315
𦂳	-10.6317
非但	-10.6318
脈	-10.6319
不祭	-10.6321
諸賢	-10.6323
自明	-10.6325
經義	-10.6328
度量	-10.6332
緝	-10.6348
季孫	-10.6349
有理	-10.6352
牖	-10.6352
人子	-10.6354
培	-10.6356
春夏	-10.6363
推其	-10.6365
精義	-10.6366
庶乎	-10.6369
所養	-10.6374
權衡	-10.6381
豳	-10.6382
衷	-10.6383
明也	-10.6384
巴	-10.6386
只是説	-10.6388
賢而	-10.639
耆	-10.6391
瑕	-10.6391
碎	-10.6392
須有	-10.6395
誇	-10.6395
著書	-10.6399
宗室	-10.6407
無妄	-10.6408
各有所	-10.6409
軍旅	-10.641
緊要	-10.6416
後世之	-10.6418
顔子之	-10.6419
有志	-10.6419
殃	-10.6423
擇其	-10.6423
幕	-10.6425
為臣	-10.6426
仁是	-10.6426
交於	-10.6428
佗	-10.6429
以觀	-10.643
然後有	-10.6431
東漢	-10.6433
天地之氣	-10.6438
寇	-10.644
王季	-10.6445
四月	-10.6445
江西	-10.6446
感而	-10.6448
之可也	-10.6451
十一年	-10.6453
一爻	-10.6458
僞	-10.6459
輟	-10.6459
冰	-10.6461
少隂	-10.6461
不亂	-10.6465
世人	-10.6466
其極	-10.647
抄	-10.647
鐵	-10.6471
伊川先生	-10.6476
紹興	-10.6476
有未	-10.6477
不樂	-10.6482
執政	-10.6484
始也	-10.6485
此即	-10.6488
堯舜之道	-10.649
全不	-10.6493
翟	-10.65
踊	-10.65
秦漢	-10.6501
語言	-10.6502
命者	-10.6504
而亡	-10.6506
先有	-10.651
加以	-10.6514
動作	-10.6514
因舉	-10.6515
乃為	-10.6517
其禮	-10.6527
不知如何	-10.6529
諸將	-10.6529
得其人	-10.6532
職事	-10.6533
䙝	-10.6533
入于	-10.6533
為此	-10.6536
忠厚	-10.6538
不可見	-10.6539
見識	-10.654
只見	-10.6542
十餘年	-10.6542
冲	-10.6543
二千石	-10.6543
若使	-10.6545
至徳	-10.6548
以象	-10.6548
明帝	-10.6548
之月	-10.655
分數	-10.6554
萬人	-10.6556
也昔	-10.656
北方	-10.656
乃有	-10.6561
是一箇	-10.6562
簡易	-10.6565
笞	-10.6566
而應	-10.6568
示人	-10.657
遑	-10.6573
五常	-10.6573
姓名	-10.6576
明其	-10.6576
瘠	-10.658
之兵	-10.6581
也或曰	-10.6583
反之	-10.6584
固無	-10.6585
釋此	-10.659
誠則	-10.659
古文	-10.6592
師友	-10.6592
定公	-10.6592
乃知	-10.6593
有得	-10.66
執中	-10.6602
曰不然	-10.6603
曰公	-10.6605
而况	-10.6607
一部	-10.6607
俞	-10.661
不獲	-10.6613
遮	-10.6614
一念之	-10.6623
葉氏曰	-10.6624
立而	-10.6626
功利	-10.6627
放心	-10.6629
要在	-10.6632
後之	-10.6632
愛之理	-10.6632
云者	-10.6634
也愚按	-10.6647
萬世之	-10.6648
敕	-10.665
積累	-10.6653
哉故	-10.6654
碩	-10.6655
絜矩	-10.6656
鋭	-10.6656
國君	-10.6664
遇事	-10.6666
大過	-10.6671
交相	-10.6672
害於	-10.6679
之喪	-10.668
河東	-10.6683
欲為	-10.6684
識其	-10.6686
鋪	-10.669
謹獨	-10.669
綽	-10.6693
祕	-10.6693
六四	-10.6697
人主之	-10.6698
晦翁	-10.6702
正道	-10.6705
亦得	-10.6708
十五年	-10.6712
惻隠之心	-10.6713
字是	-10.672
景公	-10.6726
何益	-10.673
麤	-10.6732
則自然	-10.6733
制禮	-10.6736
濡	-10.6736
曰汝	-10.6737
二公	-10.674
不忠	-10.6742
形而上者	-10.6747
事物之	-10.6748
既無	-10.6749
少而	-10.6749
所以致	-10.6752
視聽	-10.6755
因而	-10.676
爰	-10.676
陷於	-10.6761
為不善	-10.6762
天文	-10.6764
以制	-10.6764
相感	-10.6765
牝	-10.6769
彛	-10.6771
周人	-10.6772
餒	-10.6772
立於	-10.6773
荀卿	-10.6779
其類	-10.6779
不一	-10.6781
惟聖人	-10.6781
九族	-10.6784
必得	-10.6785
意味	-10.6788
功臣	-10.6792
六卿	-10.6792
明皇	-10.6793
行禮	-10.6795
無愧	-10.6799
正大	-10.6799
酷	-10.6803
帷	-10.6805
之運	-10.6806
凛	-10.6809
究其	-10.681
桃	-10.681
險阻	-10.6816
長幼	-10.6818
而取	-10.6821
一齊	-10.6827
喚做	-10.6827
語意	-10.6829
無定	-10.6834
芳	-10.6839
既已	-10.6841
其過	-10.6841
蚤	-10.6842
許之	-10.6842
童子	-10.6843
程子謂	-10.6844
疵	-10.6845
理氣	-10.6845
失於	-10.6846
利也	-10.6848
慤	-10.6849
愛其	-10.6855
冢宰	-10.6857
可知也	-10.6859
後漢	-10.6859
人材	-10.6862
紛紛	-10.6864
其流	-10.6869
天德	-10.6874
太史公	-10.6879
服之	-10.6881
授之	-10.6881
填	-10.6883
這箇道理	-10.6883
昆弟	-10.6885
稼穡	-10.6886
只是這	-10.6886
作樂	-10.6888
汲	-10.6889
脅	-10.689
人言	-10.6908
知識	-10.6912
不生	-10.6914
隨之	-10.6918
曲直	-10.6919
禁止	-10.692
盛衰	-10.6922
去處	-10.6923
三家	-10.6924
凢	-10.6925
程子所謂	-10.6926
渭	-10.6926
一代	-10.6928
奕	-10.6931
不可及	-10.6931
志於	-10.6932
不克	-10.6936
不以為	-10.6938
此豈	-10.6942
後生	-10.6942
我朝	-10.6942
空言	-10.6944
而明	-10.6944
欲立	-10.6948
物則	-10.6957
其所以為	-10.6958
上去	-10.696
無不善	-10.6961
響	-10.6961
儆	-10.6964
聚散	-10.6967
因論	-10.6967
睽	-10.6968
賢否	-10.697
幅	-10.697
叔孫	-10.6971
為用	-10.6971
所好	-10.6978
故雖	-10.6981
具於	-10.6985
相生	-10.6985
然後知	-10.6985
張子曰	-10.699
前面	-10.6992
信也	-10.6993
多而	-10.6998
寐	-10.6999
㝠	-10.7004
不但	-10.7005
廩	-10.7006
貴乎	-10.7006
胎	-10.7007
㒺	-10.7008
璋	-10.701
尊者	-10.7011
相離	-10.7013
之福	-10.7019
諸州	-10.7024
初學	-10.703
之差	-10.7032
記得	-10.7035
眩	-10.7035
不外	-10.7035
上言	-10.7036
樊	-10.7039
四分	-10.7041
此正	-10.7042
吞	-10.7043
其門	-10.7044
愿	-10.7044
天之所	-10.7045
彈	-10.7047
㪚	-10.7048
劾	-10.7048
得志	-10.7048
勑	-10.7049
有疾	-10.7052
明道先生	-10.7053
天命之謂性	-10.7054
大業	-10.706
憂患	-10.7061
何有	-10.7064
者言之	-10.7065
便説	-10.7065
伊川云	-10.7072
聽之	-10.7074
無所不至	-10.7077
禮部	-10.7078
稱之	-10.7079
騰	-10.7081
牟	-10.7082
人之情	-10.7083
唐之	-10.7083
有才	-10.7083
穫	-10.7084
性理	-10.7088
砥	-10.7088
必能	-10.7092
千五百	-10.7094
不堪	-10.7101
周流	-10.7103
下手	-10.7106
𤣥宗	-10.7108
指其	-10.7109
本領	-10.711
而勿	-10.7111
惟有	-10.7114
也臣若水通曰	-10.7115
十二年	-10.7119
大國	-10.712
明而	-10.7121
仁義之	-10.7122
賢良	-10.7124
迨	-10.7124
人必	-10.7125
説道	-10.7128
姪	-10.7129
穿鑿	-10.7129
優劣	-10.7129
嘗見	-10.713
訓詁	-10.7131
利之	-10.7138
養民	-10.714
無逸	-10.7141
而理	-10.7147
居喪	-10.715
感通	-10.7152
本州	-10.7156
亦豈	-10.7156
而謂之	-10.7159
握	-10.7161
又須	-10.7167
下民	-10.7169
靠	-10.7169
邀	-10.717
或云	-10.7171
疊	-10.7172
如今人	-10.7172
敬以直内	-10.7173
説到	-10.7175
無過不及	-10.7181
隂氣	-10.7182
王者之	-10.7183
徳業	-10.7184
之閒	-10.7189
小事	-10.7192
為君子	-10.7192
此一	-10.7194
曰只是	-10.7197
其分	-10.7199
乃所以	-10.7204
所致	-10.7204
擊之	-10.7204
到這裏	-10.7204
為戒	-10.7204
再三	-10.7206
郤	-10.7209
者三	-10.7212
自然之理	-10.7214
教以	-10.7216
愚按此	-10.7217
和樂	-10.7224
心中	-10.7227
尤為	-10.7227
也然而	-10.7229
徳也	-10.7229
不下	-10.723
明則	-10.7231
之首	-10.7233
得來	-10.7235
平時	-10.7238
聞之曰	-10.7239
六藝	-10.7239
大賢	-10.7239
有時	-10.7242
挈	-10.7243
肩	-10.7244
聊	-10.7245
遐	-10.7245
思無邪	-10.7248
山澤	-10.725
冷	-10.7251
以濟	-10.7252
發生	-10.7256
既得	-10.7258
高宗	-10.726
若干	-10.7261
庶㡬	-10.7262
本司	-10.7263
樂天	-10.7263
一路	-10.7266
今觀	-10.7266
講明	-10.7266
轉運	-10.7269
剛健	-10.7271
亞	-10.7274
隂陽五行	-10.7278
第五	-10.728
烹	-10.7281
和靖	-10.7282
並行	-10.7283
肺	-10.7284
炙	-10.7284
誅之	-10.7288
蔑	-10.7289
以教	-10.7294
誠實	-10.7296
以文	-10.7297
節用	-10.7299
不親	-10.7301
要得	-10.7302
難知	-10.7303
法制	-10.7305
地上	-10.7306
易知	-10.7306
何由	-10.7309
其難	-10.7311
所傳	-10.7312
大宗	-10.7312
鞅	-10.732
明王	-10.7322
齊衰	-10.7323
捷	-10.7324
芻	-10.7325
濬	-10.7325
進徳	-10.7326
不得而	-10.7326
經書	-10.7326
鉅	-10.7327
戕	-10.7327
深矣	-10.7327
股	-10.7329
非惟	-10.7329
宋人	-10.733
未敢	-10.7337
養其	-10.7338
繼之者善	-10.7339
善矣	-10.7342
來朝	-10.7342
之恩	-10.7342
太師	-10.7342
成於	-10.7342
疾病	-10.7347
君臣父子	-10.7348
綱目	-10.7349
驗之	-10.7352
便都	-10.7357
是指	-10.736
而後可以	-10.7361
而不自知	-10.7362
之稱	-10.7363
直卿	-10.7364
無功	-10.7364
辨其	-10.7367
死於	-10.7368
天地之道	-10.7373
其妻	-10.7374
孺	-10.7382
王室	-10.7387
商賈	-10.7388
之廟	-10.7393
觀之則	-10.7393
形於	-10.7396
之一字	-10.7398
二十年	-10.7402
不知所	-10.7402
山東	-10.7402
程頤	-10.741
㨗	-10.7411
必大	-10.7414
逞	-10.7414
勘	-10.7418
之祭	-10.742
惡惡	-10.7422
分眀	-10.7426
南面	-10.7427
慎獨	-10.7429
安國	-10.7429
不廢	-10.743
甚大	-10.7437
由於	-10.7437
徃來	-10.7437
故孔子	-10.7437
號令	-10.7441
也豈	-10.7446
其形	-10.7447
介甫	-10.7449
無知	-10.745
過則	-10.745
存者	-10.7453
臻	-10.7454
榦	-10.7454
籠	-10.7455
須臾	-10.7456
以来	-10.7459
矣又曰	-10.7459
至極	-10.7461
復生	-10.7464
舉而	-10.7466
胸	-10.7468
七八	-10.7476
千餘	-10.7478
以順	-10.7478
所以明	-10.748
將帥	-10.7481
錯了	-10.7481
先生謂	-10.7481
齡	-10.7484
流出	-10.7485
閎	-10.749
裔	-10.7491
歆	-10.7491
衢	-10.7492
令尹	-10.7492
剖	-10.7494
泰伯	-10.7495
於齊	-10.7496
神也	-10.7499
塘	-10.7499
頃刻	-10.7501
孝宗	-10.7511
幸而	-10.7514
識之	-10.7515
不外乎	-10.7521
韓愈	-10.7522
隴	-10.7527
静坐	-10.7529
在裏面	-10.753
能如此	-10.753
實則	-10.7531
贍	-10.7533
他説	-10.7533
暨	-10.7533
之先	-10.7534
鄭康成	-10.7537
君臣之義	-10.754
二章	-10.7541
這事	-10.7542
不審	-10.7544
兆民	-10.7547
▁問	-10.7549
亦云	-10.7553
昭王	-10.7559
有能	-10.756
幽明	-10.7561
羲	-10.7566
怡	-10.7572
順之	-10.7573
今年	-10.7574
不患	-10.7574
以類	-10.7574
釁	-10.7576
之誠	-10.7577
有何	-10.7577
成形	-10.7578
當為	-10.7579
垢	-10.7579
耀	-10.7579
變則	-10.7581
河北	-10.7582
元氣	-10.7582
羔	-10.7583
豪傑	-10.7583
急於	-10.7587
有病	-10.7587
得許多	-10.7591
首章	-10.7595
果何	-10.7597
易中	-10.7597
尚可	-10.7598
前軰	-10.7599
然猶	-10.7602
擔	-10.7604
無聲	-10.7608
禮法	-10.7608
一朝	-10.7609
已而	-10.761
有力	-10.7612
非其人	-10.7616
季子	-10.7618
免於	-10.7619
核	-10.7619
孰為	-10.7619
十三年	-10.762
冶	-10.7621
補訓	-10.7622
虗	-10.7623
睡	-10.7625
問伊川	-10.7625
焉而	-10.7625
擯	-10.763
就其	-10.7631
静而	-10.7632
卦之	-10.7636
文蔚	-10.7637
多言	-10.7641
一㸃	-10.7642
自無	-10.7646
而已故	-10.7648
瓊	-10.7657
物理	-10.7658
扈	-10.7661
議者	-10.7665
左旋	-10.7665
数	-10.7665
餉	-10.7667
耐	-10.7667
悠悠	-10.7669
各以其	-10.767
致知格物	-10.7674
六百	-10.7676
使天下	-10.7677
恭儉	-10.7678
陸氏	-10.7678
一息	-10.7682
大故	-10.7682
周室	-10.7683
天王	-10.7685
若論	-10.7685
物者	-10.7685
為天	-10.769
人家	-10.7691
而忘	-10.7693
踵	-10.7701
羸	-10.7701
所以養	-10.7702
五人	-10.7703
俄	-10.7704
生氣	-10.7705
二十九	-10.7706
二世	-10.7708
畿	-10.7711
攻之	-10.772
茍且	-10.7721
與民	-10.7722
予之	-10.7723
安民	-10.7724
致治	-10.7724
匱	-10.7735
卓然	-10.7736
耳非	-10.7739
學於	-10.7742
目前	-10.7751
上之人	-10.7752
相合	-10.7752
雷霆	-10.7752
鬭	-10.7753
看文字	-10.7763
爵禄	-10.7765
曰善	-10.7767
之責	-10.7768
過了	-10.777
只看	-10.7775
洛陽	-10.7778
敎之	-10.7779
本然之	-10.7779
歎曰	-10.7782
知仁	-10.7784
鞠	-10.7785
同異	-10.7785
貞吉	-10.7786
論孟	-10.7786
今乃	-10.7787
變也	-10.7787
銳	-10.7787
於學	-10.7787
盎	-10.7788
行下	-10.7789
蔡氏	-10.7792
拾	-10.7794
則止	-10.7794
賄	-10.7794
涯	-10.7795
須先	-10.7795
異同	-10.7797
止也	-10.7798
以奉	-10.78
必至	-10.78
用此	-10.7801
五曰	-10.7811
只此	-10.7813
此三	-10.7815
元吉	-10.7819
故必	-10.7821
夜氣	-10.7823
之儀	-10.7825
禹之	-10.7825
無由	-10.7825
天而	-10.7827
六三	-10.7828
天子諸侯	-10.7828
䖍	-10.7829
洩	-10.783
欣	-10.783
譎	-10.783
不移	-10.7831
琢	-10.7832
罪人	-10.7833
相通	-10.7833
仁字	-10.7834
之路	-10.7837
政令	-10.7838
性與天道	-10.784
今日之	-10.784
夬	-10.784
今且	-10.7841
何物	-10.7841
奔走	-10.7841
則易	-10.7842
貧富	-10.7843
盗賊	-10.7845
亦可謂	-10.7848
曰仁	-10.7849
小宗	-10.7849
王子	-10.7855
當如	-10.7856
樂者	-10.7856
是自家	-10.7856
疑其	-10.7858
後又	-10.7859
而易	-10.786
貧者	-10.7861
之貌	-10.7861
之典	-10.7862
取人	-10.7864
數百	-10.7868
王公	-10.7868
棣	-10.787
經界	-10.7874
以實	-10.7877
數千	-10.7878
泯	-10.7878
舜禹	-10.7879
之全體	-10.7879
頻	-10.788
掇	-10.7881
著實	-10.7886
之心而	-10.7886
亦嘗	-10.789
無不在	-10.789
秘	-10.789
成敗	-10.7892
好人	-10.7898
日用之間	-10.7899
四時之	-10.7905
又為	-10.7907
以應	-10.7909
直言	-10.7911
人身	-10.7912
心性	-10.7912
不起	-10.7917
文辭	-10.7917
法者	-10.7919
摧	-10.792
相承	-10.7922
乍	-10.7923
中人	-10.7923
佑	-10.7925
流通	-10.7926
同體	-10.7927
真知	-10.7934
之孝	-10.7939
聖賢之言	-10.7945
初六	-10.7947
之傳	-10.795
國朝	-10.7951
鯀	-10.7956
不專	-10.7956
生出	-10.7959
必求	-10.7959
壘	-10.7961
不㑹	-10.7962
纓	-10.7963
當作	-10.7963
先儒謂	-10.7964
問先生	-10.7964
乆矣	-10.7964
已具	-10.7965
頂	-10.7966
通乎	-10.7967
則不然	-10.7968
相接	-10.7979
未見其	-10.7985
其所謂	-10.7997
柔順	-10.7997
無所用	-10.7999
既成	-10.8001
竄	-10.8003
所引	-10.8005
收拾	-10.8007
倖	-10.8009
繞	-10.801
雩	-10.801
敘	-10.8011
魂魄	-10.8017
德行	-10.8018
得天下	-10.8018
尹氏	-10.8019
恁	-10.802
過而	-10.8026
長進	-10.8028
自得之	-10.803
順天	-10.8032
便了	-10.8038
比干	-10.8038
矣臣按	-10.8039
發之	-10.8041
惡不仁	-10.8052
擴	-10.8052
利於	-10.8053
數日	-10.8054
是何	-10.8054
形而下者	-10.8054
陪	-10.8055
溝洫	-10.8057
去理㑹	-10.8057
團	-10.8057
日日	-10.8057
炭	-10.8058
小國	-10.8061
死則	-10.8062
逺者	-10.8079
惡也	-10.8079
爲之	-10.808
萬邦	-10.808
易見	-10.8083
曰他	-10.8083
責其	-10.8085
由是而	-10.8086
可惜	-10.8088
以孝	-10.8089
不可不知	-10.8091
此物	-10.8092
庠	-10.8092
不實	-10.8094
深思	-10.8096
曾子曰	-10.8096
蘓	-10.8098
仗	-10.8098
搜	-10.8098
果能	-10.8098
書經	-10.8101
胡文定	-10.8101
物我	-10.8115
則凡	-10.8115
也或問	-10.8116
志也	-10.8118
鄭氏曰	-10.812
尤甚	-10.8126
經傳	-10.8133
也須	-10.8134
睢	-10.8134
一箇道理	-10.8135
妬	-10.8138
出于	-10.8138
貯	-10.814
補訓此	-10.814
天下後世	-10.8143
因此	-10.8143
燥	-10.8145
居處	-10.8146
無極而太極	-10.8146
講習	-10.8147
最難	-10.8149
語類	-10.8149
郡守	-10.8149
一様	-10.815
君父	-10.8151
西方	-10.8158
相繼	-10.816
上生	-10.8162
文明	-10.8162
大節	-10.8166
有云	-10.8172
而猶	-10.8173
耳然	-10.8176
怒而	-10.8176
同而	-10.8176
各得其所	-10.8176
也後世	-10.8177
無敢	-10.8178
小雅	-10.8181
特以	-10.8182
豹	-10.8186
焉此	-10.8188
壮	-10.8188
邱	-10.819
𦂳要	-10.8191
學術	-10.8192
必然	-10.8193
前人	-10.8193
二事	-10.8199
之盟	-10.8208
所有	-10.8214
新民	-10.8215
安在	-10.8218
難以	-10.8218
吏部	-10.822
如水	-10.8222
於家	-10.8222
理明	-10.8224
之基	-10.8226
寔	-10.8227
徼	-10.8228
要人	-10.8229
可考	-10.8229
股肱	-10.8229
不假	-10.8229
之田	-10.8229
根於	-10.823
不願	-10.8231
二物	-10.8233
肝	-10.8233
弭	-10.8237
取士	-10.8238
夫豈	-10.824
修己	-10.8241
來者	-10.8242
而後可	-10.8246
觀書	-10.8254
縣令	-10.8258
西山	-10.8258
為相	-10.8259
亂也	-10.8259
二分	-10.8266
璽	-10.8271
養老	-10.8276
理一	-10.8277
紊	-10.8277
齊之	-10.8278
竊意	-10.828
立教	-10.8281
贄	-10.8282
便須	-10.8284
和也	-10.8285
可取	-10.8286
天心	-10.8286
醢	-10.8287
五峯	-10.829
則失	-10.829
亡矣	-10.8291
止是	-10.8292
良知	-10.8294
始生	-10.8304
而不及	-10.8304
侍講	-10.8306
萬古	-10.831
成而	-10.8311
主張	-10.8312
無一物	-10.8316
幾何	-10.8319
瑩	-10.832
贏	-10.8322
器用	-10.8325
此謂	-10.8328
中央	-10.8336
元帝	-10.8342
必使	-10.8343
異也	-10.8346
之所同	-10.8347
君心	-10.8349
胡氏曰	-10.835
互相	-10.8352
起而	-10.8354
不祥	-10.8359
趾	-10.836
所施	-10.8363
其制	-10.8364
兼愛	-10.837
為父	-10.837
壓	-10.8371
而遂	-10.8372
孝悌	-10.8373
之以禮	-10.8373
必至於	-10.8374
農夫	-10.8378
者不能	-10.838
而樂	-10.8381
圖之	-10.8387
意誠	-10.8388
所惡	-10.8389
四體	-10.8389
貴於	-10.8391
所以立	-10.8391
奪之	-10.8392
且夫	-10.8396
未定	-10.8397
自任	-10.8398
者是也	-10.8399
天下之至	-10.8405
文武之	-10.8407
神化	-10.8407
叢	-10.8408
夙	-10.8408
也又問	-10.8409
四十八	-10.841
之久	-10.841
日中	-10.8412
有志於	-10.8412
聖人所以	-10.8413
二女	-10.8416
得如此	-10.8417
此四者	-10.8418
燈	-10.8418
派	-10.8419
純一	-10.8424
之心也	-10.8425
武公	-10.8426
所守	-10.8428
以從	-10.8428
所發	-10.8429
之遺	-10.8432
有感	-10.8432
不可無	-10.8435
循理	-10.8438
重於	-10.8439
加於	-10.8439
善言	-10.844
無足	-10.844
却只	-10.8442
事父母	-10.8444
此論	-10.8446
班固	-10.8447
逺方	-10.8448
也只是	-10.8449
孺子	-10.8452
氣稟	-10.8452
正䝉	-10.8453
國用	-10.8453
冥	-10.8453
故夫子	-10.8456
迄	-10.8457
披	-10.8458
至正	-10.8459
駟	-10.8459
相親	-10.8459
截然	-10.846
有一毫	-10.8461
嵩	-10.8462
與天地同	-10.8465
且以	-10.847
屯田	-10.847
等語	-10.8472
者只是	-10.8473
之䇿	-10.8477
行得	-10.8478
不愛	-10.8481
論性	-10.8481
最是	-10.8482
而獨	-10.8482
非道	-10.8484
也孟子曰	-10.8484
盡得	-10.8485
少者	-10.8486
歸于	-10.8486
祖廟	-10.8487
治也	-10.8487
利者	-10.8494
訂	-10.8496
漢文帝	-10.8497
時人	-10.8499
猶是	-10.8502
逾	-10.8502
悍	-10.8502
溫公	-10.8503
闡	-10.8503
是故君子	-10.8505
吸	-10.8506
提舉	-10.8506
體察	-10.8508
上說	-10.8516
經筵	-10.8517
别人	-10.8519
恐亦	-10.852
隂也	-10.8522
自信	-10.8523
地下	-10.8523
之所能	-10.8524
百家	-10.8529
盛時	-10.8529
先祖	-10.8531
文理	-10.8533
不敢以	-10.8533
恢	-10.8534
謂之性	-10.8537
其臣	-10.8538
有心	-10.8538
膺	-10.8542
斁	-10.8544
請問	-10.8549
售	-10.8552
語曰	-10.8553
批	-10.8554
主乎	-10.8555
為中	-10.8555
之言曰	-10.8556
鄭𤣥曰	-10.8556
揀	-10.8557
鬯	-10.8559
典禮	-10.856
盛而	-10.8561
淺近	-10.8561
是言	-10.8572
忠孝	-10.8573
晉人	-10.8577
不精	-10.8578
去了	-10.8579
非禮也	-10.8581
安知	-10.8587
宛	-10.8588
嘗有	-10.8591
而使之	-10.8592
則吾	-10.8596
瑟	-10.8598
慙	-10.8598
架	-10.8599
以供	-10.8605
必有所	-10.8606
有是理	-10.8606
近而	-10.8607
精㣲	-10.8609
而不失	-10.8616
志在	-10.8617
之賦	-10.8619
韓信	-10.8625
田地	-10.8628
之亂	-10.8628
而難	-10.8628
是用	-10.8629
皆出於	-10.8629
相因	-10.863
羌	-10.863
孝友	-10.8632
潁	-10.8637
而後已	-10.8639
地利	-10.8641
舉之	-10.8645
壺	-10.8645
㓂	-10.8645
身體	-10.8646
慟	-10.8646
國有	-10.865
天下之民	-10.865
二五	-10.8651
剛中	-10.8651
豚	-10.8652
春夏秋冬	-10.8653
卦爻	-10.8653
盡矣	-10.8654
耳目之	-10.8655
六七	-10.8659
德性	-10.8661
所以成	-10.8661
莫知	-10.8662
知禮	-10.8663
大公	-10.8665
情性	-10.8666
平居	-10.8667
其端	-10.867
大禹	-10.8678
何異	-10.8679
之水	-10.868
檜	-10.8681
也歟	-10.8682
湛然	-10.8683
易以	-10.8684
正文	-10.8693
剪	-10.8694
王命	-10.87
怎生	-10.8703
之母	-10.8704
子思曰	-10.8708
胷	-10.871
孟子説	-10.8712
功用	-10.8719
問於	-10.872
真宗	-10.8724
處皆	-10.8725
肅宗	-10.8726
吾子	-10.8726
而可以	-10.8727
以理言	-10.8729
求賢	-10.8732
繡	-10.8736
安有	-10.8739
多聞	-10.874
始皇	-10.8742
譜	-10.8744
所疑	-10.8746
無體	-10.8747
不講	-10.8751
措置	-10.8754
説性	-10.8754
念慮	-10.8754
何以為	-10.8755
經綸	-10.8756
向來	-10.8757
金石	-10.8758
須著	-10.8762
以通	-10.8766
不徒	-10.877
諸王	-10.8774
是皆	-10.8775
者此也	-10.8776
牡	-10.8777
篤實	-10.8778
豈是	-10.8779
平王	-10.878
以次	-10.8781
禆	-10.8783
有間	-10.8783
鮑	-10.8784
易者	-10.8785
孝子之	-10.8786
箭	-10.8787
帥師	-10.8788
項羽	-10.8789
疑之	-10.8791
者不過	-10.8791
㓕	-10.8792
亂世	-10.8792
穏	-10.8793
肖	-10.8794
遂為	-10.8794
又别	-10.8795
明理	-10.8796
治平	-10.8797
二日	-10.8804
前此	-10.8805
亦不是	-10.8807
不傳	-10.8813
自外	-10.8816
不能行	-10.8817
古史	-10.8819
賜之	-10.8823
邁	-10.8824
之累	-10.8825
語黙	-10.8827
矧	-10.8827
滌	-10.8828
惡人	-10.8828
函	-10.8829
若曰	-10.8832
事有	-10.8833
煖	-10.8834
叩	-10.8834
𤓰	-10.8835
浮屠	-10.8835
貲	-10.8835
君道	-10.8837
浹洽	-10.8837
皆從	-10.8842
分殊	-10.8842
不勝其	-10.8842
公事	-10.8843
之目	-10.8847
江河	-10.885
則彼	-10.8851
為人臣	-10.8851
五祀	-10.8852
如何便	-10.8852
也况	-10.8853
者尚	-10.8853
百四十	-10.8856
求放心	-10.8856
也所謂	-10.8857
揜	-10.8859
入門	-10.8859
因循	-10.8862
尼	-10.8864
一變	-10.8868
應物	-10.8868
作用	-10.887
益之	-10.887
今之學者	-10.8871
如此然	-10.8874
之吉	-10.8874
固然	-10.8876
春秋書	-10.8878
参	-10.8878
思索	-10.8882
卒哭	-10.8882
渾淪	-10.8884
假借	-10.8889
十二律	-10.8899
敦厚	-10.8902
盡其心	-10.8906
不相似	-10.8908
蕭何	-10.8912
于是	-10.8914
精一	-10.8914
大明	-10.8917
宗廟之	-10.8917
七十二	-10.892
銜	-10.8922
楚人	-10.8923
涇	-10.8927
梓	-10.8929
一意	-10.893
耘	-10.893
既而	-10.893
押	-10.8934
亡也	-10.8935
是如何曰	-10.8936
不怨	-10.8936
把捉	-10.8939
經史	-10.8939
一身之	-10.8946
為小人	-10.8948
而知其	-10.8949
矣故曰	-10.8953
伐鄭	-10.8956
知所以	-10.896
之質	-10.8962
事勢	-10.8962
申明	-10.8964
句句	-10.8964
一半	-10.8966
亦甚	-10.8968
忤	-10.897
六合	-10.8973
劉向	-10.8974
給事中	-10.8974
為宫	-10.8975
耿	-10.8975
囊	-10.8976
彖曰	-10.8977
署	-10.8977
渴	-10.8978
一截	-10.8978
之興	-10.8979
帳	-10.8982
易曉	-10.8982
現	-10.8985
虚實	-10.8987
平正	-10.8991
敬者	-10.8991
習之	-10.8994
通貫	-10.8995
禹貢	-10.8995
楚子	-10.9005
詩序	-10.9007
政教	-10.9009
涕	-10.901
欲求	-10.9016
漢武帝	-10.9017
日以	-10.9019
未詳	-10.9021
為重	-10.9022
得那	-10.9023
今欲	-10.9023
生長	-10.9024
切於	-10.9025
珪	-10.9026
擴充	-10.9033
三條	-10.9039
做出	-10.9039
實事	-10.9045
以下皆	-10.9047
流俗	-10.9047
所不及	-10.9049
於此而	-10.905
焉其	-10.9051
去就	-10.9052
也孟子	-10.9054
埶	-10.9055
在彼	-10.9056
馴	-10.9057
自治	-10.9057
這處	-10.9061
者可以	-10.9065
須用	-10.9065
棟	-10.9067
則生	-10.9067
餌	-10.9069
汨	-10.9071
熾	-10.9073
婉	-10.9075
聖人則	-10.9076
一周	-10.9077
有這	-10.9079
能守	-10.9082
也君	-10.9083
亦好	-10.9085
自成	-10.9085
之䘮	-10.9089
當是時	-10.9091
自能	-10.9092
其禍	-10.9094
了方	-10.9094
常平	-10.9094
又説	-10.9097
勿用	-10.9097
姑息	-10.9097
得乎	-10.9098
難曉	-10.9099
哉然	-10.91
景帝	-10.9101
休息	-10.9101
九分	-10.9104
日益	-10.9105
造化之	-10.9107
之罪也	-10.911
之本體	-10.9112
萬變	-10.9112
者歟	-10.9112
不舉	-10.9114
晋	-10.9117
三字	-10.9121
以成其	-10.9123
以和	-10.9124
之域	-10.9126
黜陟	-10.9126
輅	-10.9127
滚	-10.913
不知有	-10.9133
無惡	-10.9134
大有	-10.9136
仲子	-10.9139
不恤	-10.914
不殺	-10.9141
歐公	-10.9146
顏子	-10.9147
百一十	-10.9153
敎人	-10.9153
欲速	-10.9155
宦	-10.9155
之本然	-10.9169
謟	-10.917
也嗚呼	-10.917
一人之	-10.9172
冢	-10.9173
戯	-10.9176
讀者	-10.9176
為可	-10.9176
詹	-10.9179
後方	-10.9179
其弟	-10.918
扐	-10.9183
者必有	-10.9184
非禮勿	-10.9184
之根	-10.9188
過失	-10.9188
但見	-10.9193
正人	-10.9194
三品	-10.9194
精思	-10.9196
其兄	-10.9197
知其所	-10.9198
小過	-10.9201
不動心	-10.9201
天命之性	-10.9201
藏於	-10.9202
乆之	-10.9204
作春秋	-10.9204
極是	-10.9206
陟	-10.9207
放下	-10.9208
全是	-10.9208
之倫	-10.9208
在官	-10.9211
安頓	-10.9217
又當	-10.9218
濮	-10.922
孟軻	-10.9224
世有	-10.9225
目之	-10.9226
走作	-10.9227
凡物	-10.9227
形而	-10.9228
銓	-10.9228
本作	-10.9228
張氏	-10.9229
終身不	-10.9233
幽王	-10.9233
過之	-10.9233
有偏	-10.9234
所稱	-10.9234
八十一	-10.9237
不畏	-10.9238
亞夫	-10.9241
無端	-10.9242
以進	-10.9247
教之以	-10.9252
數語	-10.9253
在地	-10.9256
人之有	-10.9257
夏商	-10.9259
曹操	-10.9259
所蔽	-10.9261
也彼	-10.9262
詘	-10.9266
斯道	-10.9266
酢	-10.9267
付之	-10.9267
取舍	-10.9268
蒐	-10.9268
淹	-10.9269
得罪於	-10.927
蟻	-10.9271
涼	-10.9272
悌	-10.9272
費力	-10.9273
一隂一陽	-10.9275
卵	-10.9277
切要	-10.9279
萬化	-10.928
毫髪	-10.928
蝕	-10.9281
意者	-10.9281
十里	-10.9287
其徒	-10.929
焉耳	-10.9298
其末	-10.9298
所共	-10.9299
經世	-10.9299
運用	-10.9301
志氣	-10.9301
宫中	-10.9306
於其中	-10.9312
先師	-10.9312
苴	-10.9313
御定孝經衍義卷	-10.9317
過也	-10.9318
進於	-10.9319
心之徳	-10.932
之實也	-10.9322
睹	-10.9323
用工	-10.9325
經營	-10.9328
未然	-10.9331
屬陽	-10.9332
太陽	-10.9334
優游	-10.9335
約而	-10.9338
不書	-10.9338
而廢	-10.9338
其㫖	-10.934
盡力	-10.934
靜而	-10.9345
無適	-10.9345
責人	-10.9346
如前	-10.9346
諸葛	-10.9348
佛家	-10.9349
輔相	-10.9351
自反	-10.9355
天地之化	-10.9355
專言	-10.9358
卿士	-10.9358
所以教	-10.9361
而輕	-10.9361
否曰是	-10.9362
當先	-10.9362
衾	-10.9366
恰	-10.9368
吾聞	-10.9369
大學衍義補卷	-10.9369
好生	-10.9369
腰	-10.9369
拯	-10.9369
師道	-10.937
心體	-10.937
所以爲	-10.9372
之妻	-10.9373
奄	-10.9374
不䏻	-10.9375
敬天	-10.9382
一偏	-10.9383
平天下	-10.9385
縱横	-10.9386
城郭	-10.9389
其大者	-10.9394
縣官	-10.9394
也程子曰	-10.9395
刑法	-10.9395
則必有	-10.9396
知幾	-10.94
四五	-10.9401
二千	-10.9403
每日	-10.9406
群	-10.9407
李先生	-10.9411
蔚	-10.9415
附於	-10.9417
沐	-10.9419
箇道理	-10.9422
力量	-10.9422
脊	-10.9423
膝	-10.9423
厄	-10.9424
粒	-10.9425
寝	-10.9429
錯綜	-10.9429
府庫	-10.9431
所感	-10.9431
三尺	-10.9432
如孟子	-10.9432
人皆有	-10.9432
節制	-10.9435
作為	-10.9438
誠以	-10.9439
中孚	-10.9441
嵗月	-10.9443
難行	-10.9444
到底	-10.9444
刑名	-10.9447
為鬼	-10.9456
金人	-10.9461
故孟子	-10.9461
小兒	-10.9463
范氏	-10.9467
桐	-10.9467
一隂	-10.9467
雀	-10.9469
之過也	-10.947
擒	-10.9471
覈	-10.9471
訊	-10.9472
乎子曰	-10.9475
過矣	-10.9477
因説	-10.9478
湊	-10.9479
有功於	-10.9479
賓客	-10.9481
無偏	-10.9483
不少	-10.9483
而益	-10.9486
四岳	-10.9487
徳宗	-10.9488
全在	-10.9491
萬物皆	-10.9492
則下	-10.9493
只縁	-10.9495
亦如此	-10.9497
用刑	-10.9499
他便	-10.9499
必無	-10.9499
而得之	-10.9503
憲宗	-10.9504
平聲	-10.9511
心下	-10.9512
自見得	-10.9515
未幾	-10.952
凉	-10.952
茹	-10.9523
此性	-10.9525
天神	-10.9526
不習	-10.9527
勾	-10.9528
囂	-10.9529
㳟	-10.9529
有禮	-10.9529
撻	-10.9529
之次	-10.953
酬酢	-10.9532
夏至	-10.9541
拾遺	-10.9542
少年	-10.9542
與此	-10.9545
太傅	-10.9545
利欲	-10.9551
源頭	-10.9553
歴代	-10.9553
近者	-10.9554
吾道	-10.9556
模様	-10.9563
霍	-10.9563
可以見	-10.9564
悠	-10.957
峯	-10.957
小序	-10.9571
轡	-10.9573
冐	-10.9573
頽	-10.9573
見處	-10.9574
誑	-10.9574
格物通卷	-10.9577
趙公	-10.9577
評	-10.9578
籥	-10.9579
認得	-10.9579
天下之物	-10.9579
不幸而	-10.9584
乾元	-10.9585
門下	-10.9585
配天	-10.9587
居上	-10.9597
經術	-10.9598
為人君者	-10.9599
使臣	-10.96
但有	-10.9604
親見	-10.9605
極於	-10.9605
以養其	-10.9608
日食	-10.961
則思	-10.9611
太宰	-10.9612
制作	-10.9612
相類	-10.9614
應事	-10.9616
上下相	-10.9621
甚者	-10.9622
二十二	-10.9623
又豈	-10.9624
難於	-10.9624
嫉	-10.9624
其所當	-10.9628
圏	-10.9629
跋	-10.963
筋	-10.963
坑	-10.963
殄	-10.9631
弓矢	-10.9633
鈎	-10.9633
既是	-10.9634
不滿	-10.9635
公田	-10.9646
之篇	-10.9646
舉業	-10.9649
成公	-10.965
喪服	-10.9654
時時	-10.9655
乾卦	-10.9657
安定	-10.9658
順而	-10.9659
貴人	-10.9659
一件事	-10.966
大全	-10.9663
斜	-10.9676
凍	-10.9676
眀道	-10.9676
發出	-10.9677
濂溪	-10.968
災異	-10.968
原道	-10.9684
立身	-10.9684
而推	-10.9685
喜怒哀樂未發	-10.9686
朱子語類卷	-10.9687
諸書	-10.9687
贓	-10.9688
甚明	-10.9689
亦未嘗	-10.9695
無益於	-10.9695
州刺史	-10.9698
底心	-10.9702
孰能	-10.9704
可勝	-10.9706
以聞	-10.971
生理	-10.971
曰然則	-10.9711
武王之	-10.9713
而逺	-10.9713
望其	-10.9713
主簿	-10.9715
者宜	-10.9716
宋公	-10.972
其序	-10.9725
喪禮	-10.9726
不越	-10.9728
燠	-10.9729
五章	-10.973
而爲	-10.973
孩	-10.9733
度數	-10.9734
近臣	-10.9738
未是	-10.9738
收歛	-10.9739
姒	-10.974
二先生	-10.9742
承天	-10.9743
做不得	-10.9744
唐人	-10.9745
率性	-10.9747
一層	-10.9748
亦不過	-10.9748
何人	-10.9754
容易	-10.9754
大成	-10.9758
勝則	-10.976
篤行	-10.9763
見他	-10.9764
之功也	-10.9769
一項	-10.9769
北面	-10.9772
不輕	-10.9774
叔向	-10.9778
婁	-10.978
隳	-10.978
粉	-10.9783
澹	-10.9784
挽	-10.9785
數句	-10.9788
摯	-10.9788
緡	-10.9788
上天	-10.9796
宗伯	-10.9796
皇祖	-10.9802
哉夫	-10.9805
却似	-10.9805
大約	-10.9813
為萬世	-10.9815
之勇	-10.9819
易言	-10.9824
書中	-10.9825
於今	-10.9826
甚難	-10.9826
於魯	-10.9827
之極也	-10.9827
也雖然	-10.9828
鐡	-10.9832
其效	-10.9833
又按	-10.9834
贅	-10.9835
垣	-10.9835
鴈	-10.9836
籩豆	-10.9837
漳	-10.9837
應接	-10.9838
頴	-10.9841
趙氏	-10.9842
伊川謂	-10.9842
掘	-10.9842
則吉	-10.9845
畫卦	-10.9849
滋味	-10.9849
在己	-10.9851
是以君子	-10.9852
未明	-10.9854
不踰	-10.9859
節儉	-10.9862
不憂	-10.9863
不恭	-10.9863
禪學	-10.9866
之念	-10.9868
何等	-10.9871
其論	-10.9873
平常	-10.9874
農桑	-10.9874
慈愛	-10.9877
便是仁	-10.9878
寤	-10.9884
遥	-10.9885
笙	-10.9889
寘	-10.989
迪	-10.989
炳	-10.9892
十四年	-10.9894
惻隱	-10.9895
而去之	-10.9902
不避	-10.9903
孫子	-10.9903
皆能	-10.9909
又要	-10.9912
程傳	-10.9912
番	-10.9913
然後為	-10.9916
妙用	-10.9919
説得好	-10.9925
地理	-10.993
之比	-10.9931
仁義禮智信	-10.9934
滑	-10.9934
皆所以	-10.9936
挺	-10.9936
鉤	-10.9937
㦸	-10.9938
緦	-10.9939
慧	-10.994
窟	-10.994
十數	-10.9941
咏	-10.9942
盟于	-10.9942
吏民	-10.9943
廪	-10.9944
有竒	-10.9945
禮文	-10.9946
所向	-10.9949
但知	-10.9955
柯	-10.9955
至其	-10.9959
萬石	-10.9963
高明	-10.9963
五寸	-10.9965
通判	-10.9968
照管	-10.9969
天命之	-10.9969
還是	-10.9969
不期	-10.9972
己私	-10.9973
申生	-10.998
心存	-10.9983
曰此是	-10.9984
檢討	-10.9988
字子	-10.9989
合乎	-10.9992
庇	-10.9992
憫	-10.9993
兢	-10.9995
管子	-10.9995
單于	-10.9996
如孔子	-10.9997
大司徒	-10.9999
顓	-10.9999
公卿大夫	-11.0001
䆒	-11.0001
朂	-11.0001
舛	-11.0002
流涕	-11.0002
顛倒	-11.0002
武子	-11.0004
擇之	-11.0005
之令	-11.0008
道家	-11.0013
以私	-11.0013
終不能	-11.0014
咸淳	-11.0016
列國	-11.0017
好善	-11.0017
性中	-11.0019
未形	-11.0027
之為言	-11.0028
亦不敢	-11.0031
幾於	-11.0035
而徒	-11.0036
弑君	-11.0036
虢	-11.004
王莽	-11.0041
寖	-11.0041
以防	-11.0041
而不見	-11.0043
羡	-11.0046
不同而	-11.0049
譲	-11.0051
各具	-11.0051
笏	-11.0053
待其	-11.0054
不離乎	-11.0055
灾	-11.0056
極至	-11.0058
治世	-11.0058
留意	-11.006
子之言	-11.0063
我心	-11.0066
稽首	-11.0066
耶曰	-11.0067
為太子	-11.0069
千百	-11.007
教授	-11.0071
知行	-11.0074
性字	-11.0075
秀才	-11.0077
危亡	-11.0078
亡國	-11.0079
無失	-11.0081
方好	-11.0083
性命之理	-11.0084
推廣	-11.0086
不可用	-11.0086
子貢曰	-11.0086
則亂	-11.0087
其樂	-11.009
電	-11.0096
芒	-11.0097
告于	-11.0098
順也	-11.0098
先人	-11.0099
眷	-11.0101
焉夫	-11.0101
駿	-11.0101
翦	-11.0102
弗能	-11.0102
彚	-11.0102
明德	-11.0103
斃	-11.0104
有一箇	-11.0108
爼	-11.0108
曉然	-11.0109
姑洗	-11.011
第二十	-11.0114
仁愛	-11.0115
之誤	-11.0119
之吏	-11.0119
欠闕	-11.012
循循	-11.0122
以是為	-11.0124
愚者	-11.0126
寡欲	-11.0127
聚而	-11.0128
大夫士	-11.0129
九疇	-11.013
所當為	-11.0132
之漸	-11.0133
之習	-11.0136
而不言	-11.0136
各得	-11.0138
浩然	-11.0138
昆	-11.0142
取義	-11.0142
獨立	-11.0143
宜其	-11.0143
老莊	-11.0144
之君子	-11.0145
而求之	-11.0146
劍	-11.0148
蔓	-11.0148
宋儒	-11.0151
想見	-11.0153
季通	-11.0154
林甫	-11.0154
又不可	-11.0155
一卦	-11.0157
别無	-11.0157
為事	-11.016
之始也	-11.0161
屬隂	-11.0161
洒掃應對	-11.0165
衣裳	-11.0166
偕	-11.0166
大亂	-11.0168
亦足以	-11.017
仔細	-11.0172
非仁	-11.0173
以報	-11.0174
困於	-11.0176
只恁地	-11.0178
直以	-11.018
有節	-11.0183
既立	-11.0184
尚何	-11.0186
必當	-11.0187
載之	-11.0196
甲子	-11.0197
試之	-11.0197
于民	-11.0198
鎬	-11.0205
孽	-11.0205
菑	-11.0209
孜孜	-11.0211
也古者	-11.0212
此條	-11.0212
無主	-11.0213
聨	-11.0214
鸞	-11.0214
蘇軾	-11.0216
史官	-11.0217
變通	-11.0217
以寛	-11.022
此等處	-11.022
皇皇	-11.0222
告以	-11.0223
全書	-11.0229
甚事	-11.023
十人	-11.0231
蔽於	-11.0235
篤信	-11.0237
吾心之	-11.0242
夫子曰	-11.0244
復為	-11.0244
人鬼	-11.0245
問學	-11.025
悼	-11.0252
向前	-11.0254
門户	-11.0258
筵	-11.0259
驩	-11.0259
徒以	-11.0261
為樂	-11.0263
搏	-11.0263
既知	-11.0263
殽	-11.0265
朞	-11.0266
妹	-11.0266
轂	-11.0266
恠	-11.0267
説出	-11.0267
戀	-11.0267
感人	-11.0268
揣	-11.027
所貴	-11.027
在我者	-11.027
日進	-11.0272
精氣	-11.0274
明明徳	-11.0274
閑邪	-11.0276
世俗之	-11.0276
正統	-11.0286
申韓	-11.0295
其源	-11.0295
𫝊曰	-11.0295
之卦	-11.0301
必不能	-11.0301
新法	-11.0302
甚至	-11.0303
先帝	-11.0304
精明	-11.0305
老者	-11.0308
是甚	-11.031
此一段	-11.0314
都鄙	-11.0315
要理㑹	-11.0315
紳	-11.0316
從事於	-11.0318
自别	-11.0318
逝	-11.0319
人民	-11.0319
之議	-11.0321
庖	-11.0321
汴	-11.0323
養心	-11.0323
月日	-11.0323
其為人	-11.0324
雖非	-11.0324
好色	-11.0326
文定	-11.0326
樵	-11.0326
進德	-11.0327
絡	-11.0328
近思録	-11.0331
形勢	-11.0332
範圍	-11.0333
彖辭	-11.0338
撫州	-11.034
今學者	-11.0341
将軍	-11.0341
有德	-11.0345
或以為	-11.0345
慨然	-11.0346
塊	-11.0348
治水	-11.0349
一千	-11.0351
先立	-11.0351
世祖	-11.0353
老陽	-11.0354
循其	-11.0355
少有	-11.0357
無我	-11.0358
曰陛下	-11.0359
成帝	-11.0364
徂	-11.037
在朝	-11.0371
設官	-11.0375
圃	-11.0377
升堂	-11.0377
曰先生	-11.0378
喬	-11.0378
四面	-11.038
食肉	-11.038
放過	-11.0382
笄	-11.0383
應事接物	-11.0385
有子	-11.0389
酒食	-11.0394
在那裏	-11.0405
概	-11.0407
須知	-11.0409
常有	-11.0409
勞苦	-11.0409
天下皆	-11.0411
得力	-11.0412
欲得	-11.0417
東宫	-11.0418
初間	-11.0419
七百	-11.042
稽古	-11.0423
帝舜	-11.0424
宵	-11.0425
推行	-11.0426
二十一	-11.0428
蹙	-11.0429
鹵	-11.0432
恂	-11.0435
内史	-11.0439
化育	-11.044
世家	-11.0442
黄老	-11.0444
而何	-11.0445
蘇子	-11.0452
婦女	-11.0452
願陛下	-11.0454
許多事	-11.0454
盡善	-11.0456
晚年	-11.0458
恁地説	-11.0459
人户	-11.0462
不可謂之	-11.0464
維持	-11.0465
錄云	-11.0465
安樂	-11.0466
不可使	-11.0467
朝服	-11.0467
小小	-11.047
三五	-11.0471
居下	-11.0472
内有	-11.0473
無時不	-11.0473
未至於	-11.0479
木為	-11.0481
妣	-11.0483
者未之有也	-11.0485
故言	-11.0486
出奔	-11.0486
譴	-11.0487
百九十	-11.0487
轅	-11.0491
掖	-11.0491
官職	-11.0492
得其所	-11.0494
明君	-11.0496
風化	-11.0496
泊	-11.0498
仲尼曰	-11.0499
璘	-11.05
天地之大	-11.0502
凡此	-11.0503
皇太子	-11.0505
他書	-11.0505
樂記	-11.0506
發處	-11.0512
侍中	-11.0513
親愛	-11.0514
太𤣥	-11.0515
先主	-11.0515
讀詩	-11.0515
人之生	-11.0519
邪僻	-11.052
虞書	-11.0527
極矣	-11.0529
列於	-11.0531
他說	-11.0531
無能	-11.0537
北極	-11.0537
亦是如此	-11.0539
什一	-11.054
不好底	-11.0541
谿	-11.0541
燔	-11.0541
祖父	-11.0542
摘	-11.0543
琴瑟	-11.0543
家法	-11.0545
却不是	-11.0546
不知何	-11.0548
不出於	-11.0548
躋	-11.0549
了却	-11.0549
遷善	-11.0551
陽剛	-11.0552
雅頌	-11.0553
條目	-11.0554
呂氏	-11.0555
醮	-11.0556
子房	-11.0559
明明	-11.0562
靜坐	-11.0565
漢武	-11.0565
尊長	-11.0566
倫理	-11.0567
面前	-11.0568
不進	-11.0569
而與之	-11.0572
易所謂	-11.0577
事實	-11.0578
眼前	-11.058
不偏	-11.0585
人之善	-11.0587
元豐	-11.0587
與聖人	-11.0588
其業	-11.0592
廷尉	-11.0595
有先後	-11.0597
鷄	-11.06
墾	-11.0601
知性	-11.0603
剝	-11.0604
梗	-11.0605
㐫	-11.0606
譚	-11.0607
陋巷	-11.0608
偏倚	-11.0609
創業	-11.0611
盡其道	-11.0611
盪	-11.0612
田獵	-11.0613
又答	-11.0614
不能用	-11.0618
孝文	-11.0618
理財	-11.0619
天之所以	-11.0624
大略	-11.0624
等事	-11.0625
便當	-11.0625
户部	-11.0626
明辨	-11.0627
先生問	-11.0627
不多	-11.0628
地中	-11.0629
一家之	-11.0631
一面	-11.0635
學者當	-11.0635
之法也	-11.064
小功	-11.0642
財賦	-11.0643
非義	-11.0644
於天子	-11.0648
只如此	-11.0655
郢	-11.0655
五六	-11.0656
必由	-11.0657
奬	-11.0658
霧	-11.0659
姊	-11.0659
膽	-11.066
崖	-11.0661
芝	-11.0662
中行	-11.0663
軀	-11.0664
異日	-11.0664
非若	-11.0667
莊敬	-11.0673
無一事	-11.0674
生子	-11.0675
他底	-11.0678
是恁地	-11.0685
同心	-11.0687
有别	-11.0688
六國	-11.0688
八百	-11.0689
闗中	-11.0694
害事	-11.0696
軍中	-11.0698
嗜欲	-11.0699
甚善	-11.0699
正義	-11.07
其外	-11.07
方見得	-11.0704
四寸	-11.0705
賔主	-11.0707
仞	-11.0711
政治	-11.0713
上看	-11.0717
洋	-11.0719
遞	-11.072
司冦	-11.0722
似乎	-11.073
玩索	-11.0733
初生	-11.0737
深逺	-11.0737
是否曰	-11.0738
古注	-11.0738
兵法	-11.0743
而遽	-11.0747
東向	-11.0752
長㓜	-11.0756
形而上	-11.0757
字字	-11.076
告之以	-11.0763
緑	-11.0774
赫	-11.0774
潦	-11.0775
魁	-11.0779
如齊	-11.0779
能行	-11.078
欒	-11.078
楹	-11.0782
牛羊	-11.0783
敢問	-11.0784
美惡	-11.0785
壊了	-11.0787
仁智	-11.0788
有所得	-11.0789
此一節	-11.0789
律令	-11.079
治家	-11.079
見前	-11.0793
當日	-11.0794
處却	-11.08
程子云	-11.0803
虚空	-11.0806
南山	-11.0809
適子	-11.081
不拘	-11.0811
齊桓公	-11.0811
却又	-11.0814
功成	-11.0815
其子孫	-11.0815
勤勞	-11.0818
下士	-11.0818
豈不是	-11.0824
補注	-11.0828
縛	-11.0831
治國平天下之要	-11.0831
儘有	-11.0831
渝	-11.0831
茍非	-11.0831
教誨	-11.0832
釣	-11.0832
怠惰	-11.0832
販	-11.0833
襟	-11.0834
芥	-11.0836
詖	-11.0836
為子	-11.0837
森	-11.0837
叶	-11.0839
裹	-11.084
申公	-11.0841
鶻突	-11.0842
孟子之言	-11.0843
勺	-11.0843
兩事	-11.0845
要去	-11.0845
惻怛	-11.0846
此五者	-11.0848
公侯	-11.0854
掌邦	-11.0857
自我	-11.0864
百人	-11.0865
一而已	-11.0872
老成	-11.0877
者也然	-11.0879
養生	-11.088
空虚	-11.0883
棲	-11.0887
昭昭	-11.0889
泗	-11.0889
上古	-11.0891
以救	-11.0891
縷	-11.0892
寗	-11.0892
衆人之	-11.0892
之藴	-11.0892
衛侯	-11.0893
衫	-11.0894
所舉	-11.0895
官人	-11.0896
洲	-11.0897
寨	-11.0898
㤗	-11.0899
終無	-11.0903
不遇	-11.0906
明主	-11.0908
太尉	-11.091
剛毅	-11.0911
冉	-11.0912
下生	-11.0912
悼公	-11.0913
不免於	-11.0914
程門	-11.092
奈	-11.0923
不便	-11.0924
篇名	-11.0925
語錄	-11.0928
英宗	-11.0934
于外	-11.0936
塟	-11.0938
黙識	-11.0944
矣然則	-11.0944
節度	-11.0945
莫大焉	-11.0946
畏天	-11.0948
矣况	-11.0951
俯仰	-11.0954
百畝	-11.0955
伋	-11.0956
地方	-11.0957
一尺	-11.096
昔人	-11.096
成之者性	-11.0962
茍能	-11.0967
繼之以	-11.0968
程頥曰	-11.097
衆理	-11.0973
豈特	-11.0978
助長	-11.0979
占得	-11.0988
室家	-11.0992
無邪	-11.0993
推己	-11.0998
庾	-11.1003
這様	-11.1003
蟄	-11.1006
先王之道	-11.1007
也以其	-11.1007
聖人之意	-11.1009
灑	-11.101
為急	-11.1012
戒謹恐懼	-11.1012
神仙	-11.1013
乎孔子曰	-11.1014
之得失	-11.1018
不顯	-11.1021
亦可見	-11.1022
隂柔	-11.1023
之端也	-11.1024
而不用	-11.1024
外戚	-11.1027
奢侈	-11.1029
異姓	-11.1033
自天子	-11.1035
之助	-11.1037
和順	-11.1038
文侯	-11.1038
自棄	-11.1044
以輔	-11.1054
無限	-11.1056
方寸	-11.1057
飄	-11.1061
好事	-11.1063
父子君臣	-11.1064
象數	-11.1065
儻	-11.1067
從來	-11.1068
閫	-11.1069
滯於	-11.1071
莘	-11.1071
衙	-11.1073
宇宙	-11.1073
動物	-11.1073
簞	-11.1073
西漢	-11.1077
株	-11.1078
發揮	-11.1081
無弊	-11.1082
一箇物事	-11.1083
䕫孫	-11.1086
審其	-11.1086
習俗	-11.1087
穀梁	-11.109
作易	-11.1092
水利	-11.1092
物之性	-11.1101
舜典	-11.1101
雖或	-11.1103
墨子	-11.1104
而不已	-11.1108
九經	-11.1116
通達	-11.1118
此身	-11.1121
諸臣	-11.1122
尚未	-11.1122
秦王	-11.1123
鷹	-11.1124
訾	-11.1124
先知	-11.1124
豈惟	-11.1127
何氏曰	-11.1127
猜	-11.1128
洒	-11.1128
一畨	-11.1131
萬善	-11.1134
僥倖	-11.1134
繕	-11.1135
緇	-11.1136
軟	-11.1136
契丹	-11.1136
窮神知化	-11.1137
繪	-11.1137
苐	-11.1138
天官	-11.1139
註云	-11.1139
賢不肖	-11.114
所繫	-11.114
此一句	-11.115
堯典	-11.1159
古制	-11.116
今夫	-11.1161
後之人	-11.1162
爾雅	-11.1165
底意	-11.1167
死亡	-11.117
致仕	-11.1172
如是而	-11.1173
為人所	-11.1178
所係	-11.1184
譖	-11.1185
鐸	-11.1187
居官	-11.119
綜	-11.119
士民	-11.119
太隂	-11.1191
偹	-11.1194
凱	-11.1197
輦	-11.12
祠堂	-11.1201
書院	-11.1204
韓文公	-11.1205
又從而	-11.1208
心力	-11.1211
雖小	-11.1214
侍讀	-11.1214
與否	-11.1222
誘之	-11.1225
歐	-11.1225
得之矣	-11.1229
周書	-11.1231
在裏	-11.124
虚明	-11.1242
修徳	-11.1249
撞	-11.1252
杜佑曰	-11.1252
腸	-11.1253
掛扐	-11.1254
阡陌	-11.1255
元亨	-11.1255
至理	-11.1255
楊時	-11.126
浄	-11.126
釋奠	-11.1262
達道	-11.1264
粲然	-11.1268
三爻	-11.1268
信乎	-11.1269
無此理	-11.1273
時事	-11.1274
乃止	-11.1275
賢能	-11.1284
高下	-11.1285
未可知	-11.1286
列子	-11.1289
如漢	-11.1289
中立	-11.1294
常理	-11.13
勝負	-11.13
輝	-11.1305
畀	-11.1306
荘子	-11.1308
沾	-11.1309
苞	-11.131
寕	-11.131
其半	-11.1313
薰	-11.1314
孔頴達	-11.1314
諍	-11.1315
思所以	-11.1318
去看	-11.1319
父子兄弟	-11.132
橫渠	-11.1321
名分	-11.1323
愠	-11.1326
雖以	-11.1326
深入	-11.1327
何可	-11.133
不悦	-11.1331
互相發	-11.1332
十有五	-11.1336
斯人	-11.1341
無别	-11.1345
臣聞	-11.1352
恐人	-11.1355
向上	-11.1355
他那	-11.1356
甚詳	-11.1356
春秋傳	-11.1359
底便是	-11.136
所指	-11.136
勇於	-11.1364
恐非	-11.1366
何如曰	-11.1366
先覺	-11.1366
勇者	-11.1366
惑於	-11.1367
藹	-11.1368
伎	-11.1368
恊	-11.1368
自安	-11.1369
關雎	-11.1369
只是說	-11.137
浦	-11.1372
媿	-11.1375
杜預	-11.1377
好底	-11.1379
乃欲	-11.1381
莫先於	-11.1382
布帛	-11.1384
君徳	-11.1386
山下	-11.1388
徳明	-11.1391
一歲	-11.1392
十八年	-11.1393
其目	-11.1395
數萬	-11.1398
三綱	-11.1398
亦不得	-11.1399
動時	-11.1401
太原	-11.1402
有意於	-11.1404
昨日	-11.1406
昊天	-11.1408
風雷	-11.1412
此法	-11.1413
相從	-11.1414
不擇	-11.1416
若何	-11.1416
一番	-11.142
之用也	-11.1422
誠信	-11.1424
比於	-11.1425
行義	-11.1426
㤀	-11.1433
陳澔曰	-11.1434
四肢	-11.1442
五世	-11.1442
精義入神	-11.1443
但言	-11.1446
畨	-11.1449
三百篇	-11.145
能致	-11.1451
萬國	-11.1455
所自出	-11.1459
臨川	-11.146
道之大	-11.1464
名實	-11.1465
綸	-11.147
其術	-11.1471
竭力	-11.1474
先務	-11.1477
義禮智	-11.1478
心裏	-11.1478
嘆曰	-11.1485
武后	-11.1489
慄	-11.149
籌	-11.1491
明丘濬撰	-11.1492
謂性	-11.1492
不聴	-11.1493
四海之	-11.1496
組	-11.1497
翫	-11.1497
郵	-11.1497
充塞	-11.1497
五等	-11.1498
欵	-11.1498
澮	-11.1498
殫	-11.1499
豈可以	-11.1499
如晉	-11.1501
踏	-11.1502
安可	-11.1504
不如是	-11.1505
立政	-11.1505
為邦	-11.1505
教養	-11.1506
悔吝	-11.1506
窒礙	-11.1507
不屑	-11.1508
四凶	-11.151
性命之	-11.1513
柰何	-11.1513
所由生	-11.1518
有淺深	-11.1523
理㑹不得	-11.1524
正位	-11.1524
無射	-11.1524
魏徵	-11.1525
末流	-11.1525
肉刑	-11.153
一片	-11.1532
念念	-11.1532
定天下	-11.1536
農事	-11.1538
舊説	-11.154
已定	-11.1541
月行	-11.1543
古今之	-11.1545
四代	-11.1547
王政	-11.1551
即今	-11.1553
臆	-11.1555
俛	-11.1556
自有箇	-11.1556
窮究	-11.1558
婚姻	-11.1561
䟦	-11.1562
腦	-11.1564
僉	-11.1564
生知	-11.1566
夏四月	-11.1567
亾	-11.1569
祖宗之	-11.1571
分司	-11.1573
民之所	-11.1578
敵國	-11.1578
釋老	-11.1582
所愛	-11.1585
如何曰此	-11.1586
善政	-11.159
不懼	-11.1596
至尊	-11.1596
於人者	-11.1599
仁之體	-11.1605
㸔來	-11.1606
五穀	-11.1608
取象	-11.1608
謂之仁	-11.1612
骸	-11.1613
䑕	-11.1617
夸	-11.1618
周召	-11.1618
魯人	-11.1618
扞	-11.1623
涖	-11.1625
罹	-11.1626
珠玉	-11.1626
隻	-11.1628
必有事焉	-11.1628
社倉	-11.1628
善端	-11.1628
不得其正	-11.163
孔子之言	-11.1631
暌	-11.1633
禮儀	-11.1636
伊川説	-11.1637
大儒	-11.1638
而後行	-11.164
講求	-11.1643
得罪	-11.1644
被人	-11.1646
姦邪	-11.1652
總論	-11.1657
正心誠意	-11.1657
元城	-11.1659
天下之心	-11.167
昏禮	-11.1676
復禮	-11.1677
至扵	-11.1677
未必能	-11.1681
鉞	-11.1681
一而已矣	-11.1684
脂	-11.1684
撃	-11.1685
宦者	-11.1686
拳拳	-11.1686
秦人	-11.1687
非真	-11.1689
闔闢	-11.1692
無不通	-11.1695
之萌	-11.1698
皇太后	-11.1701
南吕	-11.1703
五典	-11.1705
有得於	-11.1706
朱氏	-11.171
㑹稽	-11.1716
一個	-11.1717
二南	-11.1719
其詞	-11.1719
無所不通	-11.1725
聖明	-11.1727
神農	-11.1729
蠻夷	-11.173
進賢	-11.1731
無事時	-11.1734
聞道	-11.1735
生萬物	-11.1736
羿	-11.174
何患	-11.1742
齎	-11.1743
諸司	-11.1743
亦未必	-11.1744
盞	-11.1749
自殺	-11.175
拈	-11.175
瞿	-11.175
感而遂通	-11.1751
生民之	-11.1755
失道	-11.1755
厲王	-11.1756
而趨	-11.1757
皮弁	-11.1759
吉甫	-11.1764
况於	-11.1765
敬義	-11.1766
五品	-11.1768
感發	-11.1777
堂上	-11.178
宰我	-11.1781
郊祀	-11.1783
整齊	-11.1786
一章曰	-11.179
中宗	-11.1791
所禀	-11.1794
純乎	-11.1806
葦	-11.1807
得之於	-11.1809
神妙	-11.1809
繒	-11.1809
嘻	-11.181
永樂	-11.181
拊	-11.1811
謫	-11.1811
琦	-11.1811
淨	-11.1812
簾	-11.1812
迅	-11.1812
第六	-11.1813
一畫	-11.1813
廓	-11.1813
春王正月	-11.1815
此可見	-11.1816
無聲無臭	-11.1816
喟然	-11.1817
韜	-11.1817
黄氏日抄卷	-11.1818
博文約禮	-11.1818
彖傳	-11.1818
實心	-11.1819
洋洋	-11.1819
戢	-11.1821
人欲之私	-11.1821
提撕	-11.1822
奏事	-11.1822
忙	-11.1824
南康	-11.1825
天體	-11.1825
正色	-11.1826
物來	-11.1826
仕者	-11.1826
韓退之	-11.1828
魏徴	-11.1829
獄訟	-11.1834
雨露	-11.1841
中山	-11.1844
節次	-11.1845
不脩	-11.1846
待人	-11.1847
三十五	-11.1851
之禮也	-11.1853
不可廢	-11.1857
進學	-11.1862
自足	-11.1866
楚王	-11.1867
嘗聞	-11.1873
噬	-11.1873
撤	-11.1875
金玉	-11.1875
復古	-11.1875
止於至善	-11.1881
其材	-11.1882
曹公	-11.1883
囬	-11.1883
等級	-11.1884
整頓	-11.1884
証	-11.1884
何耶	-11.1888
纔有	-11.1891
管蔡	-11.1891
上文集	-11.1891
二十六	-11.1891
於義理	-11.1894
地形	-11.1894
始于	-11.1897
夏時	-11.1898
可謂知	-11.1898
伊川先生曰	-11.19
星辰	-11.1902
立廟	-11.1904
學易	-11.1906
曰臣聞	-11.1906
清植	-11.1907
知縣	-11.1909
郎中	-11.1911
通透	-11.1911
發出來	-11.1916
斯文	-11.1922
孟子謂	-11.1928
育萬物	-11.1929
只當	-11.1934
又嘗	-11.1935
一致	-11.1937
為之主	-11.1937
有多少	-11.1937
揉	-11.1937
阼	-11.194
蔣	-11.1943
梏	-11.1943
潞	-11.1943
裝	-11.1946
閤	-11.1947
嫂	-11.1948
本來	-11.1953
伐齊	-11.1954
界限	-11.1955
何嘗不	-11.1955
扶持	-11.1958
乾乾	-11.1959
仁體	-11.1959
劄子	-11.1962
馴致	-11.1962
煞有	-11.1965
公劉	-11.1974
朱子謂	-11.1974
天理流行	-11.1976
入道	-11.1977
四章	-11.198
字和	-11.1981
入學	-11.1981
於市	-11.1992
賢愚	-11.1997
赤道	-11.1998
事功	-11.2
豎	-11.2003
猾	-11.2003
劑	-11.2008
繳	-11.201
如顔子	-11.2011
説箇	-11.2013
理一分殊	-11.2013
朋黨	-11.2013
霍光	-11.2014
黍稷	-11.2017
律吕	-11.2019
雖不同	-11.202
襄王	-11.2021
鄉飲酒	-11.2022
蔡京	-11.2022
這些子	-11.2024
又似	-11.2027
而民不	-11.2028
地道	-11.2029
興師	-11.2033
本諸	-11.2035
曰寡人	-11.2037
不犯	-11.2039
五色	-11.2042
集解	-11.2043
使學者	-11.2045
不得其所	-11.2049
楊子	-11.2052
變動	-11.2054
精宻	-11.2056
玄	-11.2058
只是他	-11.2061
澗	-11.2063
相交	-11.2063
麓	-11.2065
𦙍	-11.2066
軸	-11.2068
嬴	-11.2069
謾	-11.207
麽	-11.2072
蕩蕩	-11.2075
慚	-11.2079
干戈	-11.2079
蓼	-11.208
其理則	-11.2081
世道	-11.2082
暖	-11.2082
鼓舞	-11.2083
公共	-11.2084
腔子	-11.2086
聽其	-11.2088
合而言之	-11.2088
所習	-11.2088
文皇	-11.2091
徽宗	-11.2092
也臣良勝曰	-11.2093
家貧	-11.2093
充其	-11.2093
不可測	-11.2096
都督	-11.2098
吕氏曰	-11.2099
親迎	-11.2111
以及人	-11.2114
廟堂	-11.2114
周徧	-11.2117
大畧	-11.2118
臨時	-11.2124
四條	-11.2131
逵	-11.2132
轉移	-11.2133
五服	-11.2134
博文	-11.2135
四國	-11.2135
反身	-11.2136
俠	-11.2138
瞽瞍	-11.2139
洞然	-11.2139
昻	-11.2139
其孰能	-11.214
汾	-11.2141
兢兢業業	-11.2141
齊國	-11.2143
生之謂性	-11.2144
榮辱	-11.2144
周家	-11.2145
諸君	-11.2146
這物事	-11.2148
秦檜	-11.2148
怵惕	-11.2148
犬馬	-11.2151
國子監	-11.2153
後天	-11.2159
何獨	-11.216
必死	-11.2167
天氣	-11.2168
不可不察	-11.217
相須	-11.2171
山谷	-11.2174
豈獨	-11.2176
子曰君子	-11.2178
天地生物之心	-11.2184
性分	-11.2185
在人則	-11.2187
無一不	-11.2189
自省	-11.219
劓	-11.2201
本根	-11.2208
慿	-11.2208
視聽言動	-11.221
有味	-11.221
樊遲	-11.2213
呼吸	-11.2213
汰	-11.2215
黄氏	-11.2216
三年之喪	-11.2217
田里	-11.2217
讀史	-11.2218
學記	-11.222
寛裕	-11.222
知天命	-11.2221
淵源	-11.2221
但恐	-11.2222
魏晉	-11.2222
做底	-11.2222
閎祖	-11.2223
寂然	-11.2224
冠禮	-11.2224
未曾	-11.2228
有恒	-11.223
為主而	-11.2231
十九年	-11.2231
横渠云	-11.2241
不可以為	-11.2241
聖人作易	-11.2242
盛德	-11.2246
下愚	-11.2248
肅然	-11.2248
昭明	-11.225
乎對曰	-11.2254
宋太祖	-11.2265
穰	-11.227
張栻	-11.2271
翰林	-11.2271
愚意	-11.2273
萬餘	-11.2275
裡	-11.2277
漬	-11.2277
不給	-11.2279
冬十月	-11.2279
們	-11.2281
夫是之謂	-11.2282
岷	-11.2283
明善	-11.2285
其機	-11.2286
羞惡之心	-11.2288
敬親	-11.2296
軍士	-11.2297
見得道理	-11.2297
刑獄	-11.2298
未知其	-11.2298
惻	-11.2299
樂正	-11.2305
不雨	-11.2306
隨處	-11.2309
豈容	-11.2318
志於道	-11.2322
綦	-11.2325
看来	-11.2329
髙逺	-11.2333
㸔他	-11.2334
黔	-11.2335
盾	-11.2336
臼	-11.2336
鏤	-11.2336
逋	-11.2336
皓	-11.2338
諺	-11.234
者心之	-11.234
歇	-11.234
蓬	-11.2342
揭	-11.2344
惻隐	-11.2344
不肖者	-11.2345
鹿鳴	-11.2349
舊說	-11.2349
觀物	-11.235
學者須是	-11.2353
防其	-11.2354
諸路	-11.2356
沛	-11.2358
孝公	-11.2359
㸃檢	-11.236
東海	-11.2362
擇善	-11.2368
相闗	-11.2369
一歩	-11.2372
不愧	-11.2372
與共	-11.2373
閒居	-11.2374
恤民	-11.2377
固守	-11.2381
法天	-11.2381
其迹	-11.2381
五伯	-11.2383
作亂	-11.2384
孔顔	-11.2385
所以治	-11.2388
邪説	-11.239
魯君	-11.2391
功徳	-11.2391
聖人教人	-11.2391
陜	-11.2396
周制	-11.2397
摶	-11.24
大吕	-11.2401
二書	-11.2406
莫知其	-11.2407
黥	-11.2407
緫	-11.2407
而不窮	-11.2408
廸	-11.2409
觴	-11.241
潭	-11.241
閨門	-11.2412
天下之士	-11.2412
脯	-11.2417
敬以直内義以方外	-11.2421
時習	-11.2424
鄫	-11.2425
先生曰此	-11.2426
隂陽剛柔	-11.2427
躐等	-11.2433
而推之	-11.2434
一源	-11.2445
放肆	-11.2445
李斯	-11.2453
每事	-11.2461
推明	-11.2463
奉養	-11.2465
夫子之言	-11.2469
糞	-11.2469
械	-11.247
袂	-11.2471
讀易	-11.2472
深切	-11.2472
剽	-11.2472
太簇	-11.2475
卿等	-11.2476
豈知	-11.2476
折衷	-11.2482
奉行	-11.2483
掉	-11.2484
無間斷	-11.2485
天下歸仁	-11.2486
物格	-11.2489
川流	-11.2492
古法	-11.2493
叔父	-11.2495
長吏	-11.2501
天地之中	-11.2503
所恃	-11.2504
七分	-11.2507
超然	-11.2512
儼	-11.2513
記誦	-11.252
史書	-11.2521
黎民	-11.2522
聖王之	-11.2524
南豐	-11.2527
陛	-11.2528
之甚也	-11.2528
有善惡	-11.2532
漢初	-11.2535
順應	-11.2535
如此看	-11.2538
此二者	-11.254
漢髙祖	-11.2543
俎	-11.2543
絞	-11.2544
切己	-11.2546
張載	-11.2546
百七十	-11.2548
盆	-11.2548
堯舜禹湯文武	-11.2549
菴	-11.2549
之於身	-11.255
同胞	-11.2552
率性之謂道	-11.2553
禫	-11.2555
如舜	-11.2562
赤子之心	-11.2563
十七年	-11.2572
曰敢問	-11.2572
困窮	-11.2574
齊桓	-11.2576
六律	-11.2579
年間	-11.2579
誠明	-11.2582
莊周	-11.2584
胡亂	-11.2586
從祀	-11.2588
承上	-11.2589
水土	-11.2591
强弱	-11.2593
不足道	-11.2597
謚	-11.2598
致曲	-11.2599
一寸	-11.26
揮	-11.2601
五千	-11.2602
形質	-11.2602
猶恐	-11.2606
齊魯	-11.2609
師傅	-11.261
軾	-11.2611
濤	-11.2611
離乎	-11.2611
盡之矣	-11.2612
顓頊	-11.2612
者莫如	-11.2613
五榖	-11.2613
畢竟是	-11.2616
蜡	-11.2617
煉	-11.2619
亦不必	-11.262
莭	-11.2621
司馬温公	-11.2623
檀弓	-11.2623
邸	-11.2623
程顥	-11.2624
吕與叔	-11.2628
而後知	-11.2631
四百	-11.2633
王肅	-11.2635
區處	-11.2639
形象	-11.2643
過不及	-11.2649
以示人	-11.2649
冉有	-11.265
忠義	-11.2656
傷人	-11.2657
之所存	-11.2665
不虞	-11.2666
簿書	-11.2667
二十三	-11.2672
自昔	-11.2677
者仁之	-11.2678
三嵗	-11.2679
二卦	-11.2681
蔬	-11.2681
甥	-11.2684
三省	-11.2685
害民	-11.2686
得一箇	-11.2688
賡	-11.2695
鄉原	-11.2695
舊制	-11.2698
旺	-11.2699
入朝	-11.27
上理㑹	-11.2709
司馬遷	-11.2714
並進	-11.2715
金水	-11.2719
豁然	-11.2719
世變	-11.272
立功	-11.272
宗社	-11.272
底物	-11.2723
不中節	-11.2725
伯豐	-11.2732
可以觀	-11.2736
數十年	-11.2737
何以能	-11.2737
浙東	-11.2738
深衣	-11.2738
若果	-11.2744
無以異	-11.2745
諸經	-11.2749
漢文	-11.2749
三老	-11.275
雌	-11.275
朗	-11.2753
頸	-11.2753
穆王	-11.2756
塾	-11.2756
廼	-11.2756
佃	-11.2757
器械	-11.2757
漿	-11.2758
致敬	-11.2759
西域	-11.2762
賈林曰	-11.2762
誰能	-11.2762
諸葛亮	-11.2763
行狀	-11.2764
巧言令色	-11.2766
未達	-11.2767
牌	-11.2767
秋七月	-11.2775
幾微	-11.2776
黄門	-11.2778
民情	-11.2779
有益於	-11.2781
細宻	-11.2783
建國	-11.2784
坎離	-11.2785
萬象	-11.2787
寛大	-11.2787
學者須	-11.2788
孔子對曰	-11.279
貨財	-11.2792
大衍	-11.2793
在上者	-11.2802
講讀	-11.2804
上做工夫	-11.2806
古樂	-11.2811
五百里	-11.2815
跖	-11.2819
浴	-11.2822
不過如此	-11.2823
良法	-11.2824
藁	-11.2824
驛	-11.2825
倘	-11.2829
這心	-11.283
瀾	-11.2833
不與焉	-11.2833
壙	-11.2834
二三子	-11.2834
仁厚	-11.2837
恰似	-11.284
大叚	-11.2841
博施濟衆	-11.2843
約束	-11.2845
斬衰	-11.2846
無有不	-11.2849
一例	-11.2851
雷風	-11.2855
百八十	-11.2856
亦自有	-11.2857
齋戒	-11.2859
君子之學	-11.2861
唐宋	-11.2862
禀得	-11.2862
父老	-11.2863
應變	-11.2873
覲	-11.2873
名之曰	-11.2879
親其親	-11.288
體物	-11.2886
疫	-11.2888
聖人因	-11.2891
吾輩	-11.2891
煙	-11.2894
未發之前	-11.2896
何敢	-11.2898
何待	-11.2898
挑	-11.2898
悶	-11.2898
褒貶	-11.2902
億兆	-11.2903
禮樂刑政	-11.2905
尖	-11.2905
忝	-11.2906
昌黎	-11.2906
所當然	-11.2908
秤	-11.2909
性本	-11.2911
五常之	-11.2911
有條理	-11.2919
賑濟	-11.2921
直内	-11.2923
不留	-11.2924
四者之	-11.2929
由是觀之	-11.2932
八政	-11.2939
却要	-11.2943
天下之道	-11.2946
相資	-11.2955
直指	-11.2956
五性	-11.2958
當然之理	-11.2959
跛	-11.2962
名義	-11.2963
蚩	-11.2963
姿	-11.2965
兢兢	-11.2966
廓然	-11.2966
想是	-11.2966
判官	-11.2968
老隂	-11.2968
可久	-11.2969
四德	-11.2971
犯法	-11.2971
燎	-11.2972
揲蓍	-11.2973
逓	-11.2975
岷隱曰	-11.2978
不可得也	-11.2979
天之命	-11.298
休戚	-11.2983
哲宗	-11.2992
仁孝	-11.2996
題目	-11.2997
十六年	-11.2998
踐形	-11.3
格致	-11.3003
下詔	-11.3006
敦化	-11.3006
道統	-11.3007
臣妾	-11.3007
此道理	-11.301
天子之孝	-11.301
不仁者	-11.3011
卷五	-11.3013
有未盡	-11.3014
而有以	-11.3015
未有能	-11.3016
君臣上下	-11.3016
各隨	-11.3018
而歸之	-11.3021
豈可不	-11.3024
三變	-11.3031
天下之大本	-11.3032
盡忠	-11.3035
無違	-11.3038
阮	-11.304
訐	-11.3041
悔亡	-11.3041
康誥	-11.3043
御纂朱子全書	-11.3051
史臣	-11.3051
庵	-11.3052
蜚	-11.3052
帯	-11.3053
儆戒	-11.3054
九卿	-11.306
物欲之	-11.3063
祭酒	-11.3069
避嫌	-11.3074
日用間	-11.3078
關中	-11.3083
只説得	-11.3085
此爻	-11.3086
經緯	-11.3086
理之自然	-11.3089
成德	-11.309
子胥	-11.3091
只見得	-11.3092
着力	-11.3092
爻辭	-11.3102
百世之	-11.3103
貝	-11.3108
要道	-11.3109
濵	-11.3112
爪	-11.3112
柏	-11.3113
卦畫	-11.3114
沖	-11.3115
宸	-11.3116
得其宜	-11.3116
孔安國	-11.3116
彫	-11.3118
鄂	-11.3118
餽	-11.3119
堂下	-11.3121
張氏曰	-11.3122
公孫丑	-11.3122
兀	-11.3122
性理大全書卷	-11.3125
諸國	-11.3126
殺身	-11.3127
境界	-11.3129
廂	-11.3129
附㑹	-11.3129
揖讓	-11.313
謝氏曰	-11.3131
亦有所	-11.3141
下梢	-11.3142
些小	-11.3142
感格	-11.3152
茫	-11.3153
本然之性	-11.3154
且要	-11.3156
天降	-11.3157
無一人	-11.3159
大概	-11.316
他却	-11.316
矛	-11.3169
又恐	-11.3174
西階	-11.3175
推本	-11.3176
菽	-11.3178
騫	-11.318
國初	-11.318
如此則是	-11.3185
動其心	-11.3189
有天下者	-11.3192
縦	-11.3192
艮其背	-11.3193
奉天	-11.3193
授受	-11.3194
鵠	-11.3194
別	-11.3195
接續	-11.3197
鄉大夫	-11.3198
抽	-11.3199
從政	-11.32
無不盡	-11.3202
五峰	-11.3204
不悟	-11.3205
土木	-11.3208
克治	-11.3216
一邉	-11.3218
開闢	-11.3221
如水之	-11.3226
任賢	-11.3231
户口	-11.3234
疾苦	-11.324
四十九	-11.3243
不啻	-11.3246
萬物之理	-11.3247
峰	-11.3252
竊恐	-11.3254
主静	-11.3254
二帝三王	-11.3255
猗	-11.3257
亶	-11.3258
南軒張氏曰	-11.3261
冺	-11.3262
譯	-11.3262
晳	-11.3262
雹	-11.3267
薫	-11.3268
瘁	-11.3268
人掌	-11.327
渣滓	-11.3271
折獄	-11.3273
此二句	-11.3274
饑寒	-11.3275
交易	-11.3286
節度使	-11.3289
仁政	-11.3298
八九	-11.3299
所掌	-11.3306
人品	-11.3309
風氣	-11.3321
静中	-11.3329
舂	-11.3329
得些	-11.333
深造	-11.333
大倫	-11.333
二篇	-11.3331
墨氏	-11.3332
耽	-11.3333
衽	-11.3334
類論	-11.3335
櫛	-11.3335
愽	-11.3335
三等	-11.3336
固執	-11.3336
飫	-11.3336
品節	-11.3341
狃	-11.3341
存心養性	-11.3342
古之君子	-11.3343
秦漢以來	-11.3343
晁	-11.3345
茲	-11.3346
仲淹	-11.3348
夏后氏	-11.3349
道徳之	-11.3351
䑓	-11.3354
詩經	-11.3354
隂陽之氣	-11.3354
問於孔子曰	-11.3355
不煩	-11.3356
無迹	-11.3357
取勝	-11.3359
矣是故	-11.3359
此兩句	-11.336
豈徒	-11.3361
只是這箇	-11.3362
凝聚	-11.3365
唐虞三代	-11.3367
學校之	-11.3367
性之所	-11.3368
持養	-11.3368
南陽	-11.3372
老少	-11.3375
此特	-11.3375
晉文公	-11.3375
了翁	-11.338
成康	-11.3383
温厚	-11.3391
江漢	-11.3392
定制	-11.3394
一隅	-11.3397
周孔	-11.3399
陳平	-11.3406
裒	-11.341
如何㑹	-11.3413
浹	-11.3413
彝	-11.3415
咈	-11.3416
深厚	-11.3419
敞	-11.342
數月	-11.342
情狀	-11.3426
仕宦	-11.3429
古之學者	-11.3431
近習	-11.3436
下句	-11.3437
封禪	-11.3444
地頭	-11.3445
地勢	-11.3447
君子之所	-11.3452
所從來	-11.3462
伊川說	-11.3466
居業	-11.3467
非常之	-11.3468
禮運	-11.3469
係於	-11.347
貿	-11.348
未曉	-11.3481
致其知	-11.3481
徳義	-11.3481
愛物	-11.3481
如何先生曰	-11.3483
稔	-11.3486
觀其所	-11.3487
商鞅	-11.3488
可笑	-11.3488
殁	-11.3488
掲	-11.3489
婺	-11.349
攜	-11.3491
蘊	-11.3491
弧	-11.3493
未發時	-11.3494
諄諄	-11.3494
莫大乎	-11.3496
諸篇	-11.3496
尺寸	-11.3497
姻	-11.3497
爐	-11.3497
問其故	-11.3504
陜西	-11.3507
辭讓	-11.3508
子貢問	-11.3512
有大小	-11.3512
楊氏曰	-11.3515
源流	-11.3516
繼母	-11.3518
未可以	-11.3518
六條	-11.3519
古聖賢	-11.352
無用之	-11.3521
端緒	-11.3525
吏治	-11.3528
直截	-11.353
君子觀	-11.3532
舉措	-11.3532
講究	-11.3537
次日	-11.3544
致力	-11.3546
成誦	-11.3547
從頭	-11.355
歐陽公	-11.3555
絮	-11.3556
韓公	-11.3556
傅説	-11.3558
變化氣質	-11.3563
范祖禹	-11.3564
屍	-11.3565
隰	-11.3565
千金	-11.3566
瑣	-11.3568
肄	-11.3568
入井	-11.3569
純亦不已	-11.357
聖主	-11.357
系	-11.357
此章言	-11.3571
木訥	-11.3574
遲速	-11.3579
運轉	-11.3585
安得有	-11.3592
冉求	-11.3592
司寇	-11.3594
莫之能	-11.3595
持其志	-11.3597
否曰固是	-11.3608
主祭	-11.3615
以求其	-11.3618
之中又	-11.3621
不相干	-11.3622
慈母	-11.3623
萬年	-11.3623
既濟	-11.3624
未濟	-11.3624
便覺	-11.3626
八寸	-11.3626
精力	-11.3628
兖	-11.3629
大將軍	-11.3634
鄆	-11.3636
未萌	-11.3637
馬氏	-11.3637
沽	-11.364
控	-11.364
詩傳	-11.3642
蓍龜	-11.3645
京兆	-11.3645
搆	-11.3645
無忌憚	-11.3646
一動一靜	-11.3646
長久	-11.3647
霄	-11.3647
拆	-11.3649
冡宰	-11.3652
以上論	-11.3654
不能勝	-11.3656
尊徳性	-11.366
吳王	-11.3662
否曰此	-11.3672
韓魏公	-11.3672
留心	-11.3674
厯家	-11.3686
和親	-11.3687
㸔文字	-11.3687
交感	-11.3693
是甚麽	-11.3695
人皆知	-11.3704
利禄	-11.3708
東都	-11.3708
做將去	-11.3712
窮理盡性	-11.3713
絀	-11.3714
道問學	-11.3715
漢興	-11.3717
掾	-11.3717
裼	-11.3717
牘	-11.3717
怙	-11.3718
爾等	-11.372
竪	-11.3721
傭	-11.3723
邈	-11.3724
委任	-11.3724
世宗	-11.3727
闗雎	-11.3727
文詞	-11.3727
庠序	-11.3728
琮	-11.3729
官爵	-11.3729
弑其君	-11.3731
萬幾	-11.3734
敎化	-11.3739
鄉遂	-11.3744
生靈	-11.3748
過揲	-11.3748
亭户	-11.3752
勉勉	-11.3753
春正月	-11.3759
讀論語	-11.3761
本源	-11.3763
賞賜	-11.3768
天運	-11.3772
國史	-11.3772
魯國	-11.378
不可輕	-11.3781
無咎	-11.3785
不透	-11.3787
之生也	-11.3788
翠	-11.3792
湘	-11.3793
愉	-11.3793
廖	-11.3794
麾	-11.3794
得於心	-11.3797
斵	-11.3799
竅	-11.3799
謔	-11.38
者鮮矣	-11.3803
杯	-11.3805
心統性情	-11.3805
墓誌	-11.3807
凡此皆	-11.381
朢	-11.381
說得好	-11.3813
齊景公	-11.3814
懸空	-11.3816
不屈	-11.3818
不昧	-11.3818
昊	-11.3823
精熟	-11.3824
時雨	-11.3827
和糴	-11.383
九寸	-11.3833
尚存	-11.3838
王后	-11.3839
倉卒	-11.3841
主靜	-11.3842
張良	-11.3845
而况於	-11.3852
穆穆	-11.3852
守約	-11.3855
無所容	-11.3867
僖祖	-11.3867
荆州	-11.3867
兵部	-11.3868
體驗	-11.3868
崇徳	-11.3869
八音	-11.3869
媵	-11.3872
劣	-11.3872
蕪	-11.3873
𣙜	-11.3874
涪	-11.3874
曼	-11.3875
昇	-11.3876
纒	-11.3877
㢤	-11.3877
稚	-11.3878
熈寧	-11.3882
瓢	-11.3882
祭器	-11.3883
治國平天下	-11.3883
串	-11.3885
古昔	-11.3887
毁譽	-11.389
庻幾	-11.3896
篤志	-11.3896
伯禽	-11.3901
發憤	-11.3905
皇天	-11.3906
充實	-11.3907
此一事	-11.391
妄意	-11.3917
范氏曰	-11.3917
只一般	-11.3919
謹守	-11.3923
嗟乎	-11.3928
也其曰	-11.3942
引詩	-11.3945
鼠	-11.3945
壑	-11.3946
譛	-11.3947
黄金	-11.3948
藪	-11.3948
聦	-11.3951
駒	-11.3954
姊妹	-11.3955
錮	-11.3955
寥	-11.3955
輻	-11.3956
穉	-11.3956
紐	-11.3957
狠	-11.3958
匝	-11.3958
攬	-11.3958
陸贄	-11.3959
乖戾	-11.3959
撮	-11.3961
鑚	-11.3961
正義曰	-11.3961
𠂻	-11.3962
一動一静	-11.3963
季札	-11.3964
挨	-11.3965
黙然	-11.3966
藩鎮	-11.3967
罔不	-11.3967
先天圖	-11.397
歎息	-11.3975
卷六	-11.3978
不悖	-11.3978
天地萬物之理	-11.3982
氏補	-11.3994
病根	-11.3994
樂毅	-11.3996
田賦	-11.3996
世界	-11.4012
未發之中	-11.4013
武功	-11.4016
精密	-11.4017
曉不得	-11.4018
相連	-11.4021
眇	-11.403
乎其中	-11.4031
詎	-11.4031
財物	-11.4033
百二十	-11.4036
濳	-11.4036
噬嗑	-11.4039
憧憧	-11.404
摸	-11.4041
文景	-11.4041
嘉祐	-11.4042
殻	-11.4043
眚	-11.4046
刑賞	-11.4047
何思何慮	-11.4048
埽	-11.4051
六尺	-11.4054
圖書	-11.4061
祖母	-11.4062
箇甚麽	-11.4062
智力	-11.4062
哀矜	-11.4062
間隔	-11.4068
為己任	-11.4069
差了	-11.4069
這些	-11.4081
侍坐	-11.4082
除去	-11.4086
曰善哉	-11.4087
提刑	-11.4088
以此觀之	-11.4094
威福	-11.4094
顏	-11.4096
不懈	-11.4096
對待	-11.4097
失之矣	-11.4104
之行也	-11.4105
千二百	-11.4106
程頥	-11.4109
涸	-11.4111
整齊嚴肅	-11.4114
明道先生曰	-11.4115
一隂一陽之謂道	-11.4115
种	-11.4116
稀	-11.4116
端的	-11.4117
圉	-11.4117
岡	-11.4117
賚	-11.4117
疚	-11.4118
有之矣	-11.4119
廊	-11.412
聳	-11.4121
愬	-11.4122
揚子雲	-11.4126
暘	-11.4128
交錯	-11.4136
頓首	-11.4136
廣狹	-11.4137
救民	-11.414
都尉	-11.4148
此等事	-11.4149
又况	-11.4155
既久	-11.4165
昭著	-11.4165
慨	-11.4165
徒知	-11.417
六典	-11.4171
切近	-11.4172
尹氏曰	-11.4173
敬宗	-11.4182
門弟子	-11.4182
不能以自	-11.4186
有些子	-11.4188
軻	-11.4189
嘘	-11.4194
蓮	-11.4195
夫子之道	-11.4195
沐浴	-11.4195
金木水火	-11.42
匏	-11.4202
國之君	-11.4203
周茂叔	-11.4203
葺	-11.4204
乾道變化各正性命	-11.4204
横渠先生	-11.4206
㕘	-11.4206
受業	-11.4207
約禮	-11.4207
御史大夫	-11.4208
這意思	-11.4208
大學之道	-11.4209
戱	-11.4209
冨	-11.4209
之類皆是	-11.421
以此知	-11.4211
杜撰	-11.4211
包括	-11.4213
四海之内	-11.4213
三寸	-11.4214
由此觀之	-11.4215
未必皆	-11.4215
夷齊	-11.4215
底工夫	-11.4219
章帝	-11.4222
天下之動	-11.423
聖賢言語	-11.4231
判然	-11.4232
討論	-11.4235
何害	-11.4237
見天地之心	-11.424
所自來	-11.4243
朔望	-11.4248
下手處	-11.4249
文勢	-11.4254
長沙	-11.4256
亦未嘗不	-11.4256
惠王	-11.4259
驥	-11.4274
龎	-11.4275
煥	-11.4275
蹶	-11.4276
田野	-11.4276
褐	-11.4276
帙	-11.4277
筐	-11.4278
藜	-11.4279
餼	-11.428
愷	-11.4281
棠	-11.4281
如惡惡臭	-11.4282
鞏	-11.4283
呌	-11.4284
檄	-11.4284
鑽	-11.4286
閭閻	-11.4287
街	-11.4287
穿窬	-11.4287
夔	-11.4289
腥	-11.4289
往来	-11.4295
以氣言	-11.43
甲兵	-11.43
十有二月	-11.4306
哀毁	-11.4309
則民不	-11.4312
力役	-11.4317
湖南	-11.432
詔令	-11.4323
盈虚	-11.4324
濟濟	-11.4327
只恁	-11.4329
林鐘	-11.4331
真偽	-11.4331
礼	-11.4332
門之外	-11.4335
趨向	-11.4338
臨朝	-11.4339
箇物事	-11.434
興亡	-11.434
仁之方	-11.4347
術數	-11.4348
日星	-11.4349
禹稷	-11.435
箸	-11.435
聽命	-11.4354
未暇	-11.4355
燧	-11.4356
騷	-11.4359
某舊	-11.436
叱	-11.4361
涕泣	-11.4363
軫	-11.4365
汩	-11.4365
構	-11.4367
晴	-11.4367
無適而非	-11.4367
二者皆	-11.4368
粱	-11.4368
義以方外	-11.4372
秦始皇	-11.4373
性即理也	-11.4374
化生萬物	-11.4377
號泣	-11.4377
寂滅	-11.4379
江淮	-11.4381
唐虞之	-11.4381
大司馬	-11.4385
五條	-11.4385
永嘉	-11.4389
凶荒	-11.439
入海	-11.4397
九江	-11.4402
范公	-11.441
誠意正心	-11.4411
喪祭	-11.4414
師保	-11.4425
永按	-11.443
司馬公	-11.4435
紛然	-11.4437
妙處	-11.4437
泌	-11.4437
臘	-11.4438
泮	-11.4439
黼	-11.4441
緝熙	-11.4441
雝	-11.4444
歸妹	-11.4444
穎	-11.4446
闘	-11.4447
帑	-11.4447
此叚	-11.4447
兎	-11.4448
両	-11.4449
千言萬語	-11.445
璣	-11.4452
陸子静	-11.4452
顔氏	-11.4453
十餘萬	-11.4454
快活	-11.4459
勉強	-11.447
伐楚	-11.447
帝堯	-11.4477
充滿	-11.4482
教訓	-11.4488
選舉	-11.4494
正蒙	-11.4494
二爻	-11.4499
奮發	-11.45
萬五千	-11.4502
集傳	-11.4502
就事上	-11.4506
推原	-11.451
江東	-11.4512
之遺意	-11.4518
栢	-11.4521
致中和	-11.4522
誦詩	-11.4526
殉	-11.4527
樞機	-11.4528
挫	-11.453
鰥寡	-11.453
霜露	-11.453
蹉	-11.4532
罅	-11.4534
澆	-11.4535
鱗	-11.4536
凑	-11.4537
曩	-11.4537
旦夕	-11.4539
嬰兒	-11.4539
之外别有	-11.4544
運動	-11.4561
大㫖	-11.4561
儼然	-11.4561
伊洛	-11.4567
仲吕	-11.457
問如何是	-11.457
沛然	-11.4575
無可疑	-11.4575
堅固	-11.4591
主婦	-11.4596
把做	-11.4598
面目	-11.4599
甄	-11.4601
荼	-11.4602
骨子	-11.4605
嬉	-11.461
四箇	-11.4612
當此之時	-11.4613
悚	-11.4614
做箇	-11.4615
鑠	-11.4615
髦	-11.4616
性之本	-11.4617
戎狄	-11.4618
沼	-11.4619
保全	-11.4623
親疎	-11.4623
枚	-11.4624
裏靣	-11.4624
純熟	-11.4624
耳目口鼻	-11.4626
經歴	-11.4633
聚斂	-11.4634
傳載	-11.4634
侍從	-11.4642
孝武	-11.4661
刑部	-11.4662
健順	-11.4664
五十六	-11.4671
承上文	-11.4671
腹心	-11.4671
天討	-11.4676
不可移	-11.468
右手	-11.4682
七篇	-11.4682
得其道	-11.4685
左氏傳	-11.4692
皥	-11.4694
岀	-11.4695
繭	-11.4696
詞章	-11.4697
灑掃應對	-11.4697
狡	-11.4698
㓙	-11.4699
兩截	-11.47
洵	-11.4701
賾	-11.4701
不睹不聞	-11.4702
寮	-11.4703
山河	-11.4703
毋不敬	-11.4704
線	-11.4704
影響	-11.4704
燦	-11.4707
上下交	-11.4709
想像	-11.471
桞	-11.4713
沛公	-11.4715
宇文	-11.4715
情偽	-11.4733
程子之言	-11.4737
臣按先儒謂	-11.4741
分而為	-11.4743
殷周	-11.4743
六寸	-11.4745
科目	-11.4748
功效	-11.4749
尤不可	-11.4753
五十里	-11.4755
卿大夫士	-11.4766
此所以為	-11.4767
典刑	-11.4775
喧	-11.4778
大學衍義補卷一百	-11.478
貫徹	-11.478
蝗	-11.4781
忌日	-11.4781
螽	-11.4782
二百四十	-11.4782
針	-11.4783
德宗	-11.4785
懽	-11.4786
袖	-11.4787
旒	-11.479
而天下治	-11.479
裨	-11.479
拓	-11.479
樞紐	-11.479
李注	-11.4791
偪	-11.4792
萌芽	-11.4795
相表裏	-11.4797
齊威	-11.4806
三月不違仁	-11.4809
聖賢之書	-11.4812
豐年	-11.4815
周程	-11.4817
要𦂳	-11.4819
庻人	-11.4821
王介甫	-11.4821
理與氣	-11.4821
明哲	-11.483
見於外	-11.4832
正朔	-11.4846
牛馬	-11.4853
先王之法	-11.4854
五星	-11.486
這箇物事	-11.4863
凋	-11.4868
娣	-11.4868
椒	-11.4869
襄子	-11.487
知道者	-11.487
戒慎	-11.4871
窘	-11.4871
覿	-11.4871
牽合	-11.4871
迺	-11.4872
侔	-11.4872
萇	-11.4873
昃	-11.4874
糟粕	-11.4875
文飾	-11.4876
胙	-11.4877
利見大人	-11.4877
龔	-11.4878
邵康節	-11.4883
樞宻	-11.4885
用其力	-11.4885
有諸己	-11.4886
餕	-11.4886
件事	-11.4886
荀揚	-11.4891
中正仁義	-11.4902
康叔	-11.4905
斯二者	-11.4909
京城	-11.4912
盡其性	-11.4915
伯叔	-11.4917
辨别	-11.4921
衆庶	-11.4924
王弼	-11.4927
靖康	-11.4936
敬畏	-11.4943
雜記	-11.4953
楷	-11.4955
璞	-11.4956
數百年	-11.4958
肘	-11.4958
竿	-11.496
來聘	-11.4962
威嚴	-11.4965
瞑	-11.4965
顔回	-11.4965
菲	-11.4966
第七	-11.4967
各正性命	-11.497
兔	-11.4971
另	-11.4972
何足以	-11.4972
詩大雅	-11.4974
旦晝	-11.498
未始不	-11.4986
飲水	-11.4995
群臣	-11.4997
何嘗有	-11.5019
董子	-11.5029
皆本於	-11.5033
曾祖	-11.5037
瑗	-11.5044
梧	-11.5044
傳授	-11.5045
怍	-11.5046
耨	-11.5046
曜	-11.5046
旡	-11.5047
鳶	-11.5047
賻	-11.5047
幷	-11.5048
躡	-11.5048
騶虞	-11.5048
尅	-11.5048
箋	-11.505
惴	-11.505
墟	-11.505
隄	-11.5051
猝	-11.5051
簫	-11.5052
茨	-11.5052
鳶飛魚躍	-11.5053
漢魏	-11.5053
羈	-11.5055
綺	-11.5056
酸	-11.5057
仆	-11.5057
纎悉	-11.5058
英雄	-11.5059
蓄積	-11.5072
及第	-11.5078
工部	-11.5079
初未嘗	-11.5079
治獄	-11.508
堂堂	-11.508
代宗	-11.5094
參差	-11.5108
戰勝	-11.5108
知其性	-11.5111
只此便是	-11.5111
豈敢	-11.5116
禪家	-11.5126
適足以	-11.5128
弋	-11.5131
聾	-11.5133
奭	-11.5135
嘿	-11.5136
惶	-11.5138
䛕	-11.5138
覬	-11.514
陞	-11.5141
閭里	-11.5143
褊	-11.5143
隧	-11.5145
兵革	-11.5146
狷	-11.5147
憶	-11.5149
莫善於	-11.5151
紛紜	-11.5151
否先生曰	-11.5154
僕射	-11.5154
孝弟忠信	-11.5155
萬章	-11.5156
陷溺	-11.5156
應鐘	-11.5157
民之父母	-11.5157
辛苦	-11.5162
字唱	-11.5169
康王	-11.517
權謀	-11.5177
縣尉	-11.5178
郊廟	-11.5184
二十餘	-11.5186
塊然	-11.5192
做工夫處	-11.5198
西京	-11.5198
篇首	-11.5202
末年	-11.5202
上靣	-11.5206
樂正子	-11.5207
志於仁	-11.5208
怎	-11.5217
彩	-11.5222
學之士	-11.5223
昵	-11.5227
仲孫	-11.5228
廻	-11.5228
縊	-11.523
如好好色	-11.523
訣	-11.5231
昉	-11.5232
齊家治國平天下	-11.5235
東西南北	-11.5235
徹上徹下	-11.5236
不誠無物	-11.5236
蒿	-11.5239
惻隱之心	-11.5241
急迫	-11.5246
曽㸃	-11.5247
荀息	-11.5248
以上語類	-11.5258
不可掩	-11.5262
丁寧	-11.5262
有如此者	-11.5265
茫然	-11.5266
震動	-11.5269
北辰	-11.5271
歸宿	-11.5272
建武	-11.5272
力不足	-11.5283
這一箇	-11.5285
曽祖	-11.5288
憂勤	-11.5295
后土	-11.5297
問之曰	-11.5302
曹伯	-11.5302
智伯	-11.5302
藎	-11.5313
篆	-11.5315
汜	-11.5315
跌	-11.5316
糓	-11.5317
霆	-11.5319
亘	-11.532
橫	-11.5321
允執厥中	-11.5322
璟	-11.5322
伶	-11.5322
造化之迹	-11.5323
雷電	-11.5323
各一其性	-11.5323
傾覆	-11.5324
陳皥曰	-11.5324
簋	-11.5324
煬帝	-11.5325
河圖洛書	-11.5329
厮	-11.533
畿内	-11.533
季康子	-11.5331
形迹	-11.5331
漆雕開	-11.5336
亷恥	-11.5338
左右前後	-11.5338
註本	-11.5341
裁成	-11.5344
不匱	-11.5347
本㫖	-11.5348
丘陵	-11.5359
我聖祖	-11.5362
千萬人	-11.5378
何以異	-11.5383
鄰國	-11.5387
光祖	-11.5392
疑惑	-11.5396
綰	-11.5405
篋	-11.5409
旌旗	-11.541
劫	-11.5411
槐	-11.5412
昆蟲	-11.5412
臾	-11.5413
血脉	-11.5418
三百八十四爻	-11.542
愚按此節大意	-11.5423
官員	-11.5432
子細看	-11.5435
慶厯	-11.5438
合下便	-11.5449
理之當然	-11.5451
著述	-11.5454
方圓	-11.5462
後世人主	-11.547
胡安國曰	-11.5474
太虛	-11.5482
毗	-11.5493
弃	-11.5498
亳	-11.5499
彤	-11.5499
彧	-11.55
皇極經世	-11.55
飢寒	-11.5501
紏	-11.5502
竦	-11.5502
縻	-11.5503
愍	-11.5504
堤	-11.5505
博厚	-11.5505
溉	-11.5506
卞	-11.5506
濓	-11.5507
忿懥	-11.5507
妍	-11.5509
赧	-11.5509
維天之命於穆不已	-11.5509
貨殖	-11.5512
耆老	-11.5512
終其身	-11.5513
以孝聞	-11.5522
暴慢	-11.5522
許氏	-11.5524
討賊	-11.5534
市井	-11.554
與民同	-11.5541
草草	-11.5545
等差	-11.5545
古註	-11.5545
鄭注	-11.5547
建康	-11.5548
祀典	-11.5553
誠其意	-11.5553
不可揜	-11.5554
屈原	-11.5555
華注	-11.5563
北海	-11.5566
事物之理	-11.5572
瓜	-11.559
涂	-11.559
犧	-11.5592
忱	-11.5593
芮	-11.5594
旄	-11.5595
訥	-11.5595
從這裏	-11.5598
彞	-11.5598
梯	-11.5599
佯	-11.5599
杲	-11.5599
㕓	-11.5601
皇考	-11.5601
畱	-11.5601
亂臣賊子	-11.5602
蒯聵	-11.5602
縞	-11.5602
渇	-11.5603
窄	-11.5604
富貴貧賤	-11.5604
滄	-11.5605
窺測	-11.5606
下學上達	-11.5608
差等	-11.5613
空寂	-11.5614
瓶	-11.5616
惜哉	-11.5622
荒政	-11.5625
警戒	-11.5645
悲夫	-11.5646
分毫	-11.5647
裁制	-11.5672
致太平	-11.5675
不必如此	-11.5683
嚚	-11.5685
耄	-11.5685
雒	-11.5687
蠢	-11.569
棗	-11.569
媒	-11.5691
宫闈	-11.5691
椿	-11.5692
烟	-11.5692
准	-11.5692
紿	-11.5692
綬	-11.5693
蜂	-11.5693
跳	-11.5695
暉	-11.5697
毫髮	-11.5699
藐	-11.57
餐	-11.57
掃除	-11.57
惕然	-11.5707
冬夏	-11.5717
邊境	-11.5721
交際	-11.5727
那邊	-11.5734
境内	-11.5742
衆寡	-11.5746
辭遜	-11.577
流弊	-11.5774
抹	-11.5779
殛	-11.578
覃	-11.5781
攀	-11.5781
閻	-11.5783
倪	-11.5783
霖	-11.5784
疋	-11.5785
刖	-11.5785
孕	-11.5786
􁀙	-11.5788
餙	-11.5791
虎狼	-11.5791
徤	-11.5792
黷	-11.5793
猥	-11.5794
勿忘勿助	-11.5796
阼階	-11.5796
祖述	-11.5796
龠	-11.5797
揖遜	-11.5799
展轉	-11.5799
淺陋	-11.5801
造次	-11.5808
千里之外	-11.5811
萬七千	-11.5817
勉齋	-11.5818
未盡善	-11.582
無事之時	-11.5823
齊宣王	-11.5832
子罕	-11.5839
恁地做	-11.5839
兩件	-11.5843
謹嚴	-11.5846
羣吏	-11.5857
旃	-11.5869
吉象曰	-11.587
彘	-11.5873
娛	-11.5878
藍	-11.588
畎	-11.588
戒慎恐懼	-11.5881
通天下之志	-11.5883
搖	-11.5883
酣	-11.5884
侑	-11.5884
楊朱	-11.5884
欣然	-11.5884
禅	-11.5885
樽	-11.5886
錦繡	-11.5887
詈	-11.5888
窠	-11.589
禮儀三百威儀三千	-11.5891
袍	-11.5893
意必固我	-11.5896
職業	-11.5905
金帛	-11.5905
杜氏	-11.5907
配享	-11.5908
仁人心也	-11.5916
鐘鼓	-11.592
當然之則	-11.5928
揚州	-11.5929
幾㣲	-11.5937
豁	-11.5946
侈靡	-11.5973
第九	-11.5973
槁	-11.5974
翳	-11.5976
耜	-11.5976
冡	-11.5977
哺	-11.5978
瘳	-11.5978
晷	-11.5979
㸔来	-11.5979
不改其樂	-11.5981
纖	-11.5981
皷	-11.5984
某嘗謂	-11.5984
莾	-11.5984
僑	-11.5985
顚	-11.5985
貢賦	-11.5989
虎賁	-11.5989
詩書禮樂	-11.5994
豳風	-11.5995
廡	-11.5996
貴戚	-11.6019
做底事	-11.602
十有六	-11.6021
只有箇	-11.6028
只緣	-11.6039
向背	-11.6043
點	-11.6061
三十里	-11.6064
稽顙	-11.607
鍼	-11.6071
緘	-11.6074
弗克	-11.6075
夘	-11.6076
漓	-11.6079
梢	-11.6079
懶	-11.6079
明湛若水撰	-11.608
剔	-11.6081
麟趾	-11.6082
禳	-11.6082
鄕	-11.6083
剡	-11.6085
敬而無失	-11.6085
上天之載無聲無臭	-11.6087
張敬夫	-11.609
屋漏	-11.6091
克伐怨欲	-11.6092
奏議	-11.6094
降衷	-11.6097
季秋	-11.6103
吕祖謙曰	-11.6129
坤卦	-11.6142
淆	-11.6148
曾孫	-11.6151
屑	-11.616
咽	-11.6171
汲黯	-11.6172
犀	-11.6173
蠡	-11.6173
主一無適	-11.6174
莅	-11.6175
倨	-11.6176
璜	-11.6176
公孫𢎞	-11.6178
彪	-11.6178
䕃	-11.6179
麋	-11.6181
桎梏	-11.6181
捄	-11.6181
𤨏	-11.6182
湧	-11.6182
周頌	-11.6183
䜟	-11.6183
謂侍臣曰	-11.6184
犢	-11.6184
加之以	-11.6185
終日乾乾	-11.6185
九百四十分日之	-11.6186
虧欠	-11.6186
宗廟社稷	-11.6187
產	-11.6188
周世宗	-11.6189
勇猛	-11.6198
服膺	-11.6202
車騎	-11.6202
悠久	-11.6202
羲和	-11.6205
豫章	-11.6206
朝覲	-11.6208
臺諫	-11.6209
無時而不	-11.6216
形狀	-11.6225
不失其正	-11.6228
洪水	-11.6233
枉費	-11.624
碧	-11.6264
鴟	-11.6265
只有一箇	-11.6268
諤	-11.6269
勸農	-11.6271
門庭	-11.6273
煎	-11.6274
窈	-11.6275
摭	-11.6275
阨	-11.6277
欽定四庫全書子部一	-11.6277
惟精惟一	-11.6279
馳騁	-11.628
匣	-11.628
捍	-11.6282
淳熈	-11.6283
為人上者	-11.6285
屛	-11.6285
剰	-11.6287
拖	-11.6288
范文正公	-11.6288
聯	-11.6291
人心道心	-11.6292
幽厲	-11.6293
榖梁	-11.6297
伯姬	-11.6298
心與理	-11.6303
己之私	-11.631
晩年	-11.6311
太僕	-11.6316
胡安國	-11.6319
心之本體	-11.6321
十有四	-11.633
視聴	-11.6333
王畿	-11.6345
左手	-11.6346
䋲	-11.6363
分寸	-11.637
覘	-11.6374
丗	-11.6374
鹽鐵	-11.6375
漲	-11.6376
孝慈	-11.6376
糊	-11.6378
煦	-11.6379
蘖	-11.6379
坡	-11.638
惓惓	-11.6381
至誠無息	-11.6382
貨賄	-11.6386
校尉	-11.6389
通曉	-11.6389
郊社	-11.6389
莫不皆然	-11.6398
劉歆	-11.6398
林鍾	-11.6403
盡性至命	-11.6404
迫切	-11.6414
抑揚	-11.6415
疾痛	-11.6416
百餘年	-11.6418
之心為心	-11.642
閉門	-11.6421
詳味	-11.6436
士庶人	-11.6442
不敢忘	-11.6454
永貞	-11.6466
鋤	-11.6475
淚	-11.6476
圎	-11.6476
孫士毅	-11.6477
昀	-11.6477
陸費墀	-11.6477
龜山楊氏曰	-11.6479
侗	-11.648
倉廩	-11.6482
孥	-11.6482
茂叔	-11.6482
驪姬	-11.6483
懾	-11.6483
三綱五常	-11.6486
崑崙	-11.6486
陸錫	-11.6487
滂	-11.6488
反身而誠	-11.649
㝷	-11.6493
尋討	-11.6503
叔孫通	-11.6516
舟車	-11.6517
愛其親	-11.6518
渡江	-11.6521
十二章	-11.6522
垂訓	-11.6528
𤣥妙	-11.6538
逐句	-11.6538
秘書	-11.6559
體段	-11.6567
煌	-11.6571
江陵	-11.6573
突厥	-11.6574
嘯	-11.6574
汶	-11.6576
聖賢之學	-11.6577
推究	-11.6578
賵	-11.6579
老聃	-11.6582
歷	-11.6582
劔	-11.6583
蹊	-11.6584
唐太宗貞觀	-11.6586
侃	-11.6588
丸	-11.6589
静静	-11.6591
穩	-11.6592
束帛	-11.6595
參伍	-11.6597
禴	-11.6598
京房	-11.6601
廢弛	-11.6618
宿衛	-11.6635
此篇論	-11.6637
應鍾	-11.6648
兩段	-11.6658
捧	-11.668
祜	-11.668
君人者	-11.6683
絜	-11.6684
鄴	-11.6685
郁	-11.6688
扣	-11.6689
堰	-11.6689
杼	-11.6689
絺	-11.6689
等謹案	-11.669
駐	-11.6696
尹和靖	-11.6697
爵賞	-11.6697
無可奈何	-11.6698
纎毫	-11.6699
袋	-11.67
郯	-11.6701
動而生陽	-11.6705
雷雨	-11.6706
九齡	-11.6708
韓魏	-11.6713
端䝉	-11.6747
擔當	-11.6758
惻然	-11.676
愛惜	-11.6772
億萬	-11.6779
禀受	-11.6779
月恭校上總	-11.6789
罟	-11.6789
沂	-11.6789
儕	-11.679
彷彿	-11.6791
鉗	-11.6791
誚	-11.6792
戰戰兢兢	-11.6793
袵	-11.6795
誹謗	-11.6796
湮	-11.6796
釀	-11.6797
楮	-11.6798
瞬	-11.6799
條貫	-11.6799
軀殻	-11.6799
劵	-11.68
哭泣	-11.68
妥	-11.6802
物格知至	-11.6806
毛氏曰	-11.6807
千秋	-11.6808
孟春	-11.6808
柔弱	-11.6813
刑戮	-11.6814
督責	-11.6818
萬物之情	-11.682
昭烈	-11.6821
何暇	-11.6823
閏月	-11.6824
師曠	-11.6824
要緊	-11.6833
感悟	-11.6853
散殊	-11.6855
崔氏	-11.6855
粲	-11.686
油然	-11.6863
燭理	-11.6872
聶	-11.689
桉	-11.6894
鉏	-11.6894
欹	-11.6896
轄	-11.6897
愕	-11.6897
查滓	-11.6898
枲	-11.6898
櫟	-11.6899
孔叢子	-11.6899
縳	-11.69
翊	-11.69
第八	-11.6901
肌膚	-11.6901
畋	-11.6902
理一而分殊	-11.6902
晁錯	-11.6902
竒耦	-11.6904
魏文侯	-11.6904
椁	-11.6904
聰眀	-11.6908
詛	-11.6908
戊申	-11.691
光輝	-11.6913
肻	-11.6916
甘露	-11.6921
老蘇	-11.6924
梁武帝	-11.6925
所從出	-11.6963
貉	-11.6993
雇	-11.6995
輜	-11.7
覧	-11.7002
吿	-11.7004
幄	-11.7004
蒯	-11.7004
据	-11.7005
邇英	-11.7006
糜	-11.7007
渤	-11.7007
槃	-11.7007
缶	-11.7008
纊	-11.7009
壅蔽	-11.7009
知性知天	-11.7009
根柢	-11.7009
日有食之	-11.701
彭蠡	-11.7011
何自而	-11.7012
不思而得	-11.7014
剖析	-11.7016
遷善改過	-11.7016
須㬰	-11.7017
囑	-11.7018
倅	-11.702
凝結	-11.702
蔬食	-11.7021
虞廷	-11.7023
無一息之	-11.7029
礿	-11.7031
輔佐	-11.7035
刑措	-11.704
尚書省	-11.7052
這一句	-11.7072
百畆	-11.7075
太祖皇帝	-11.7089
利有攸往	-11.7102
漂	-11.7103
檀	-11.711
僮	-11.711
塔	-11.7111
粢盛	-11.7111
巻	-11.7111
劌	-11.7112
喉	-11.7112
澁	-11.7112
驪	-11.7112
皎	-11.7113
搢	-11.7113
丐	-11.7116
易有太極	-11.7117
趙盾	-11.7117
鮑叔	-11.7118
槨	-11.7119
殞	-11.7119
蘧伯玉	-11.7119
一陰一陽	-11.7124
迥	-11.7125
天下之達道	-11.7125
燮	-11.7129
嚴毅	-11.7129
檢㸃	-11.7131
萬事萬物	-11.7132
南渡	-11.7133
天地生物	-11.7134
敷奏	-11.7135
港	-11.7139
一人之身	-11.7142
惟聖明	-11.7143
干禄	-11.7143
覺悟	-11.7155
資格	-11.7165
稽考	-11.717
以己意	-11.7179
隋唐	-11.719
渾全	-11.719
心之所發	-11.7211
扁鵲	-11.7214
莫不各有	-11.7215
翰林學士	-11.7218
扁	-11.722
無所為而	-11.7221
臥	-11.7221
閹	-11.7223
熄	-11.7223
療	-11.7225
考究	-11.7227
椎	-11.7227
亹亹	-11.7228
晦菴	-11.7228
洙泗	-11.723
正謂此也	-11.723
不言而信	-11.723
𣲖	-11.7233
彥	-11.7234
日月至焉	-11.7235
羨	-11.7235
甲乙	-11.7238
宛轉	-11.7238
陟降	-11.7239
鶉	-11.7241
滎陽公	-11.7245
靈臺	-11.7249
堯舜禹	-11.7254
恢復	-11.7256
委積	-11.7283
詩小雅	-11.7284
予奪	-11.7309
輔導	-11.7312
儉約	-11.7314
浙西	-11.7323
軋	-11.7327
杵	-11.7327
複	-11.7329
俚	-11.7331
榭	-11.7333
瑜	-11.7335
凟	-11.7337
諳	-11.7337
醯	-11.7339
㨿	-11.7342
閭巷	-11.7342
夢寐	-11.7342
繩墨	-11.7342
堕	-11.7343
蒼蒼	-11.7344
絪緼	-11.7344
恍惚	-11.7345
丹朱	-11.7349
邵堯夫	-11.735
樁	-11.7353
焚香	-11.7353
者寡矣	-11.7355
讀其書	-11.7357
玉帛	-11.7358
中霤	-11.7361
有自然之	-11.7364
數十萬	-11.7366
屢空	-11.7368
優柔	-11.7377
囯	-11.7413
各當其	-11.7416
鳯凰	-11.744
顥	-11.7441
峽	-11.7442
感物而動	-11.7444
炊	-11.7444
太極動而生陽	-11.7444
糟	-11.7446
可不戒哉	-11.7448
枯槁	-11.7448
駢	-11.7448
剗	-11.7448
溝壑	-11.7451
杭	-11.7452
御覽經史講義卷	-11.7452
傚	-11.7453
踞	-11.7453
翺	-11.7455
父子之親	-11.7455
煮	-11.7456
謝顯道	-11.7456
真徳秀	-11.7456
雛	-11.7457
技藝	-11.7459
玉藻	-11.746
酷吏	-11.746
諷誦	-11.7461
不忍人之心	-11.7461
戚戚	-11.7462
惰慢	-11.7463
李靖	-11.7465
車駕	-11.7465
生生不窮	-11.7466
别為一	-11.7468
三代以下	-11.7469
夾雜	-11.747
煩擾	-11.7471
胥吏	-11.7481
晦叔	-11.7487
輔翼	-11.7487
油	-11.7497
漢光武	-11.7523
岱	-11.7554
黯	-11.7556
輓	-11.7557
霑	-11.7557
覊	-11.7559
鄭康成注曰	-11.756
顒	-11.7561
不粥於市	-11.7561
澶	-11.7562
隍	-11.7564
啼	-11.7564
撙	-11.7564
譁	-11.7564
二氣五行	-11.7564
甯	-11.7566
事親從兄	-11.7566
萬物皆備於我	-11.7566
俘	-11.7567
馨	-11.7568
自强不息	-11.7568
近思錄	-11.7569
心廣體胖	-11.7571
㝡	-11.7571
痛癢	-11.7572
羽翼	-11.7573
暴虐	-11.7573
重複	-11.7574
吐蕃	-11.7574
輪迴	-11.7577
胡安定	-11.7577
鎮江	-11.7578
閘	-11.7593
賦斂	-11.76
豺	-11.7666
峙	-11.7668
箠	-11.7668
恙	-11.7669
狙	-11.7671
獺	-11.7672
掣	-11.7673
酈	-11.7673
葵	-11.7675
黻	-11.7677
鍊	-11.7677
映	-11.7678
玷	-11.7679
斟	-11.7679
鬚	-11.768
嘏	-11.768
童䝉	-11.7682
厨	-11.7682
虎豹	-11.7682
若之何	-11.7685
大司樂	-11.7686
曵	-11.7689
致知力行	-11.769
這裡	-11.7691
祊	-11.7691
涵飬	-11.7692
克艱	-11.7704
白沙	-11.7704
希夷	-11.7705
制國用	-11.7708
騶	-11.7778
大學衍義卷	-11.778
衿	-11.7784
涓	-11.7785
觶	-11.7786
徭	-11.7787
三月不違	-11.7788
倐	-11.7788
劬	-11.7789
騂	-11.7789
誄	-11.779
堵	-11.7791
標凖	-11.7791
呵	-11.7791
盂	-11.7795
磋	-11.7795
紘	-11.7796
棊	-11.7797
浩浩	-11.7797
吉凶悔吝	-11.78
瞞	-11.7802
隋文帝	-11.7804
有虞氏	-11.7804
熙寧	-11.7807
易簀	-11.7813
究竟	-11.7815
十二辰	-11.7815
怠荒	-11.7817
吕伯恭	-11.7828
稷契	-11.7852
搔	-11.7894
盲	-11.7898
遙	-11.7901
鯉	-11.7906
禎	-11.7908
諭之曰	-11.7908
榆	-11.7909
啖	-11.791
怛	-11.791
廓然大公	-11.7911
灑落	-11.7913
讙	-11.7915
仁民愛物	-11.7915
撲	-11.7915
盤庚	-11.7915
拍	-11.7916
護	-11.7917
臆度	-11.7917
球	-11.7918
祺	-11.7919
發而中節	-11.792
苻	-11.792
游定夫	-11.7921
驕奢	-11.7921
徭役	-11.7924
藏諸用	-11.7924
鑄錢	-11.7924
常惺惺	-11.7924
犆	-11.7925
違道不逺	-11.7926
天理之公	-11.7926
嘉靖	-11.7927
中人以下	-11.7927
吉㓙	-11.7928
不得其死	-11.7928
彭城	-11.7932
楊龜山	-11.7932
唐鑑	-11.7936
百僚	-11.7936
根源	-11.7961
墠	-11.8015
七十里	-11.8023
髓	-11.8026
惺惺	-11.8028
唾	-11.8028
旻	-11.8028
太蔟	-11.8028
㽔賔	-11.8029
儔	-11.803
跨	-11.803
粘	-11.8031
胡寅曰	-11.8031
褚	-11.8032
嗜慾	-11.8032
瞭	-11.8033
良知良能	-11.8033
悞	-11.8034
祥瑞	-11.8034
孟子道性善	-11.8039
人物之生	-11.8041
在是矣	-11.8044
梏亡	-11.8044
巨細	-11.8044
再閏	-11.805
青苗	-11.8052
形骸	-11.8053
乾健	-11.8058
萬八千	-11.8059
考課	-11.8065
包四者	-11.807
黙契	-11.8073
有取焉	-11.8105
金銀	-11.8107
緜	-11.8136
莠	-11.8141
駑	-11.8144
騖	-11.8145
霽	-11.8146
不偏不倚	-11.8149
斫	-11.815
滎	-11.8151
懌	-11.8151
悱	-11.8151
伏惟聖明	-11.8152
斧斤	-11.8152
讞	-11.8152
慷慨	-11.8153
絢	-11.8154
芟	-11.8154
講筵	-11.8154
摹	-11.8155
各盡其	-11.8155
宓	-11.8155
默	-11.8156
叨	-11.8156
帨	-11.8156
賈公彦	-11.8157
暁	-11.8157
訕	-11.8157
二十八宿	-11.8158
從容中道	-11.8159
粮	-11.8159
曺	-11.8159
鹹	-11.8159
幣帛	-11.8162
擾擾	-11.8163
墳墓	-11.8163
顯諸仁	-11.8163
匡衡	-11.8165
無處不	-11.8166
歌詠	-11.8167
譬喻	-11.817
廉恥	-11.8171
紹興府	-11.818
飛揚	-11.8181
莪	-11.8267
吳澂曰	-11.8268
墉	-11.8269
蘋	-11.827
酋	-11.8271
穡	-11.8273
詬	-11.8274
犂	-11.8275
欲罷不能	-11.8276
窶	-11.8276
耒耜	-11.8276
怵	-11.8277
闈	-11.8277
皂	-11.8277
視聴言動	-11.8277
勣	-11.8278
有不可勝言者	-11.8278
三百六十五度四分度之一	-11.8278
宋黄震撰	-11.8279
餅	-11.8279
學而時習之	-11.828
蕤	-11.8285
夾室	-11.8286
喫飯	-11.8292
躬耕	-11.8298
祖禰	-11.832
有一定之	-11.8322
簟	-11.8373
腴	-11.8387
犧牲	-11.8388
彗	-11.8391
島	-11.8391
沸	-11.8392
蕢	-11.8393
渥	-11.8395
方慤曰	-11.8396
紗	-11.8396
大禹謨	-11.8399
紬	-11.8399
粤	-11.8399
鰥寡孤獨	-11.8401
綵	-11.8401
祼	-11.8401
朱子語類卷一百	-11.8401
互為其根	-11.8402
寤寐	-11.8403
叠	-11.8403
脉絡	-11.8404
湍	-11.8404
肸	-11.8405
自漢以來	-11.8405
非禮勿視聽言動	-11.8406
陌	-11.8407
欠缺	-11.8407
防閑	-11.8414
十有八	-11.8416
到極處	-11.8416
謝上蔡	-11.8417
響應	-11.8419
皇甫	-11.8425
效驗	-11.8461
愚不肖	-11.8479
豈弟君子	-11.8509
宼	-11.8512
閽	-11.8513
郈	-11.8514
挹	-11.8514
篡	-11.8516
臧文仲	-11.8516
十二萬九千六百	-11.8517
螟	-11.8517
磊	-11.8518
榛	-11.8518
廐	-11.852
愎	-11.8521
腎	-11.8521
扺	-11.8521
啞	-11.8522
渚	-11.8523
㸑	-11.8523
淄	-11.8523
悻	-11.8524
緇衣	-11.8526
㢲	-11.8527
栁下惠	-11.8528
旂	-11.8528
舟楫	-11.8528
禋	-11.8529
查	-11.8529
縝宻	-11.8531
郊特牲	-11.8533
駁雜	-11.8535
離騷	-11.8539
資禀	-11.855
兠	-11.8634
虹	-11.8635
臣愚以為	-11.8638
啜	-11.864
沱	-11.8642
淇	-11.8642
緼	-11.8643
移風易俗	-11.8645
閃	-11.8648
讜	-11.8648
迸	-11.8648
立人之道曰仁與義	-11.8648
𢎞毅	-11.8649
桴	-11.8649
聰明睿智	-11.8649
匹夫匹婦	-11.865
滔滔	-11.865
肱	-11.8651
蟬	-11.8652
禮樂射御書數	-11.8652
聰明睿知	-11.8652
悪	-11.8652
拳	-11.8653
幞頭	-11.8655
萬六千	-11.866
無非教也	-11.866
企	-11.8664
建炎	-11.8665
坎艮	-11.8667
明徳新民	-11.867
冨貴	-11.8754
采薇	-11.8755
梟	-11.8762
鴆	-11.8765
閨	-11.8767
芸	-11.8771
伯夷叔齊	-11.8771
雨雪	-11.8772
纍	-11.8773
滔	-11.8774
鎰	-11.8774
厠	-11.8775
凊	-11.8775
赫赫	-11.8775
跣	-11.8776
趙簡子	-11.8778
自古及今	-11.8778
罄	-11.8778
標準	-11.8778
蛟	-11.8778
濂	-11.8778
西山真氏曰	-11.8779
匕	-11.8779
隸	-11.878
喙	-11.8781
斯可矣	-11.8781
櫝	-11.8781
受日光	-11.8782
武王伐紂	-11.8783
椀	-11.8783
閙	-11.8785
不獲其身	-11.8785
君臣父子夫婦	-11.8786
尺二寸	-11.8786
必有事焉而勿正	-11.8786
輔弼	-11.8787
何謂也曰	-11.8787
泰誓	-11.8788
飛鳥	-11.8788
羞惡辭讓是非	-11.8793
振旅	-11.8793
知至至之	-11.8798
萬四千	-11.8825
善惡混	-11.8886
千八百	-11.8898
鄢	-11.8902
郕	-11.8903
菁	-11.8904
窕	-11.8905
聖子神孫	-11.8907
不勉而中	-11.8908
驢	-11.8909
姦宄	-11.8909
耒	-11.891
怖	-11.891
一言以蔽之	-11.891
動容周旋中禮	-11.8911
茫茫	-11.8911
灌溉	-11.8911
爍	-11.8912
(􁆪/)	-11.8914
體用一源	-11.8914
釡	-11.8914
活潑潑地	-11.8916
秉彛	-11.8916
誠者物之終始	-11.8916
知覺運動	-11.8919
舄	-11.892
端倪	-11.8922
與天為一	-11.8923
大而化之	-11.8923
房杜	-11.8924
坫	-11.8925
無往而不	-11.8927
清淨	-11.8931
千四百	-11.8938
而力行之	-11.8981
騁	-11.9026
驂	-11.9031
嘔	-11.9031
潮汐	-11.9032
無待於	-11.9034
俳	-11.9035
樞密	-11.9037
奴婢	-11.9038
蔡邕	-11.9038
蹟	-11.9038
稗	-11.9039
儒家類提要	-11.904
彜	-11.904
媯	-11.9041
繚	-11.9041
混沌	-11.9041
侃侃	-11.9041
猖	-11.9042
帽	-11.9042
瘞	-11.9042
吏部尚書	-11.9044
盡心知性	-11.9047
檻	-11.905
何所不至	-11.9052
日月五星	-11.9052
醬	-11.9054
細碎	-11.9054
克己復禮為仁	-11.9056
約之以禮	-11.9058
與天地參	-11.9058
考妣	-11.9065
斾	-11.9156
潄	-11.916
鬪	-11.9165
顙	-11.9165
舘	-11.9168
甕	-11.9168
愀	-11.9169
閼	-11.917
黠	-11.917
埀	-11.917
埃	-11.9171
逄	-11.9172
䂓	-11.9173
臟	-11.9174
蒞	-11.9174
秣	-11.9175
忻	-11.9175
塋	-11.9178
咫	-11.9182
佾	-11.9183
憒	-11.9187
与	-11.9263
挍	-11.9288
紞	-11.9289
煑	-11.9295
髀	-11.93
跂	-11.93
蹕	-11.9302
玊	-11.9302
愾	-11.9303
秪	-11.9303
糲	-11.9306
譙	-11.9307
賙	-11.9307
闋	-11.9307
綢	-11.9308
歿	-11.9311
隗	-11.9311
婆	-11.9312
搬	-11.9319
异	-11.9323
航	-11.9416
隼	-11.9432
攫	-11.9434
悛	-11.9434
氓	-11.9435
蹄	-11.9435
澣	-11.9435
擠	-11.9439
旰	-11.9439
拗	-11.9441
扼	-11.9442
畤	-11.9443
頡	-11.9443
蹤	-11.9444
汭	-11.9446
黽	-11.9448
莱	-11.9448
皿	-11.9449
椅	-11.9452
床	-11.9452
詡	-11.9454
蠅	-11.9567
冇	-11.9571
刄	-11.9572
鷙	-11.9574
兕	-11.9574
淸	-11.9574
昂	-11.9578
獮	-11.9578
昩	-11.9581
忮	-11.9582
饜	-11.9586
紓	-11.9586
悝	-11.9597
訃	-11.9597
灋	-11.96
狁	-11.9705
髠	-11.9711
徯	-11.9713
址	-11.9714
衒	-11.9718
猪	-11.9719
蘩	-11.972
晰	-11.972
郅	-11.9721
濱	-11.9722
徠	-11.9723
綠	-11.9723
刈	-11.9726
悴	-11.9728
簽	-11.9731
啻	-11.9767
嫚	-11.984
躐	-11.9842
孑	-11.9853
琰	-11.9857
軼	-11.9863
覔	-11.9865
廏	-11.987
鳬	-11.9871
瑀	-11.9871
伴	-11.9871
彬	-11.9871
狭	-11.9872
僩	-11.9873
槖	-11.9874
逡	-11.9876
砂	-11.9877
箱	-11.9998
洙	-12
芾	-12.0001
㐮	-12.0002
氐	-12.0002
戶	-12.0002
謡	-12.0002
癘	-12.0004
哈	-12.0005
暱	-12.0006
葭	-12.0008
汁	-12.0008
畯	-12.0008
債	-12.0009
扑	-12.0009
䞇	-12.001
劈	-12.0011
渺	-12.0012
祉	-12.0013
𣣔	-12.0014
慣	-12.0016
購	-12.0016
鏘	-12.0017
趕	-12.002
携	-12.0021
憊	-12.0147
栖	-12.0148
錐	-12.0149
徊	-12.0151
稜	-12.0153
塑	-12.0155
豊	-12.0156
删	-12.0156
鬰	-12.0157
沴	-12.0157
拭	-12.0157
戡	-12.0159
謐	-12.0161
凜	-12.0161
撑	-12.0169
膾	-12.0169
弘	-12.0291
韠	-12.0296
貟	-12.0297
楫	-12.03
䧏	-12.0302
蟠	-12.0303
縶	-12.0304
岑	-12.0305
啇	-12.0311
剩	-12.0318
髻	-12.0321
卬	-12.0427
炮	-12.0445
齧	-12.0447
魅	-12.0448
曳	-12.0451
婣	-12.0451
碌	-12.0455
鄘	-12.0456
貊	-12.0457
廿	-12.0459
翣	-12.0463
摠	-12.0463
埴	-12.0467
鍵	-12.0468
坱	-12.0468
滲	-12.0471
痕	-12.0482
肚	-12.0586
纁	-12.0597
敺	-12.0599
筠	-12.0599
邠	-12.0602
驍	-12.0604
筦	-12.0605
韡	-12.0606
雎	-12.061
胞	-12.0612
龕	-12.0612
挟	-12.0612
斡	-12.0612
拏	-12.0613
斆	-12.0613
泚	-12.0613
隲	-12.0615
癡	-12.0616
諮	-12.0616
圯	-12.0621
罩	-12.0623
痺	-12.0623
脾	-12.0627
鞶	-12.0629
捱	-12.0632
翩	-12.0756
巵	-12.0761
炫	-12.0761
豢	-12.0761
菅	-12.0764
謳	-12.0764
腑	-12.0765
螻	-12.0765
嫗	-12.0765
遡	-12.0766
肴	-12.0767
顆	-12.0767
睟	-12.0768
夣	-12.0768
净	-12.0768
糠	-12.0769
盃	-12.077
閾	-12.077
嚼	-12.0771
皋	-12.0774
毆	-12.0774
訒	-12.0775
鎭	-12.0775
擲	-12.0777
甦	-12.0778
縠	-12.078
瓚	-12.0787
譔	-12.0901
癢	-12.0903
噍	-12.0913
歠	-12.0915
聿	-12.0917
溷	-12.0922
靳	-12.0923
訶	-12.0924
錙	-12.0924
邃	-12.0925
詒	-12.0928
峭	-12.0928
穽	-12.0928
畛	-12.0929
邕	-12.0929
抉	-12.0929
掊	-12.093
雋	-12.0931
迦	-12.0931
恍	-12.0933
碍	-12.0933
榻	-12.0933
憸	-12.0934
緌	-12.0934
装	-12.0934
羶	-12.0936
塩	-12.0937
轎	-12.0938
燄	-12.0938
羹	-12.0943
央	-12.1026
霤	-12.1057
熏	-12.1063
瘡	-12.1077
籲	-12.1078
藿	-12.1079
鍳	-12.1079
鋸	-12.108
刳	-12.108
勦	-12.1082
蘆	-12.1082
厦	-12.1083
蹴	-12.1084
僊	-12.1086
棐	-12.1087
頷	-12.1088
捶	-12.1091
琛	-12.1094
液	-12.1095
禧	-12.1097
聮	-12.1098
莖	-12.1244
碣	-12.1245
斑	-12.1248
脆	-12.1249
酤	-12.1251
芬	-12.1251
紇	-12.1253
翬	-12.1253
晟	-12.1257
洫	-12.1257
鞫	-12.1259
塈	-12.1262
拄	-12.1267
叡	-12.1399
挂	-12.14
琅	-12.1407
跬	-12.1412
衎	-12.1413
奎	-12.1413
闥	-12.1414
湎	-12.1416
鵬	-12.1416
兇	-12.1416
罍	-12.1417
湜	-12.1417
畦	-12.1418
洊	-12.1418
稳	-12.1418
柝	-12.1419
縉	-12.1421
刮	-12.1421
笥	-12.1421
襍	-12.1422
堆	-12.1424
楣	-12.1424
貺	-12.1426
𨗳	-12.1427
勗	-12.1429
廱	-12.156
趍	-12.1576
嚭	-12.1579
訝	-12.1579
冏	-12.158
挿	-12.1581
敇	-12.1582
輳	-12.1583
諦	-12.1584
蔀	-12.1585
慱	-12.1587
懵	-12.1592
愜	-12.1593
雁	-12.1593
諉	-12.1593
趂	-12.1593
惹	-12.1597
幡	-12.1747
兾	-12.1749
嗚	-12.175
抃	-12.1755
臏	-12.1756
鼂	-12.1756
㓗	-12.1757
矇	-12.1757
犒	-12.1758
鬴	-12.1759
鎗	-12.176
媾	-12.176
迴	-12.176
袴	-12.1762
嶠	-12.1763
鵲	-12.1768
岩	-12.1769
砭	-12.177
卭	-12.177
䟎	-12.1773
舡	-12.1806
伉	-12.1918
鴞	-12.1918
怏	-12.1926
瀕	-12.1928
紱	-12.1928
娥	-12.1931
圻	-12.1932
塹	-12.1934
颺	-12.1935
駮	-12.1936
貂	-12.1938
祟	-12.1939
瘼	-12.1941
奐	-12.1942
脗	-12.1944
搭	-12.1944
滴	-12.1944
貍	-12.1945
擺	-12.1946
襯	-12.195
苫	-12.21
烽	-12.2102
犁	-12.2105
斌	-12.2105
蘄	-12.2106
洎	-12.2106
堡	-12.2108
眡	-12.2111
沓	-12.2112
遶	-12.2113
隤	-12.2114
呻	-12.2116
瀛	-12.2116
𤯝	-12.2116
逈	-12.2117
纘	-12.2117
詮	-12.2117
匆	-12.212
瓠	-12.2121
閟	-12.2122
鵝	-12.2127
旭	-12.2129
菹	-12.2131
薌	-12.2134
乱	-12.226
毀	-12.2267
圈	-12.2271
甿	-12.2283
遄	-12.2283
妲	-12.2284
揔	-12.2284
鰌	-12.2285
藟	-12.2287
薩	-12.229
㷀	-12.229
萎	-12.2291
腓	-12.2292
斐	-12.2292
鑰	-12.2294
簣	-12.2295
錡	-12.2295
潢	-12.2295
擘	-12.2296
洶	-12.2297
洮	-12.2297
耉	-12.2297
覯	-12.2298
窆	-12.2299
畸	-12.2299
鞍	-12.23
酹	-12.23
殍	-12.2301
宁	-12.2301
耼	-12.2304
栽	-12.2305
呪	-12.2312
橈	-12.2446
腔	-12.2457
袤	-12.2463
晞	-12.2467
穹	-12.247
変	-12.2473
焞	-12.2475
藺	-12.2477
灘	-12.2477
孛	-12.2478
膂	-12.2481
痒	-12.2482
刁	-12.2482
𤾉	-12.2483
紆	-12.2483
驤	-12.2485
酳	-12.2485
慥	-12.2486
粧	-12.2487
剏	-12.2488
竺	-12.2488
鎔	-12.2489
顗	-12.2489
硯	-12.249
㳂	-12.2492
鏗	-12.2494
磚	-12.2495
沆	-12.2495
倩	-12.25
袷	-12.25
琬	-12.2512
郛	-12.2659
塡	-12.2662
浣	-12.2662
幬	-12.2663
廛	-12.2663
禇	-12.2663
肌	-12.2667
縝	-12.2668
酺	-12.2668
爕	-12.2668
湣	-12.267
窻	-12.267
估	-12.2672
柟	-12.2673
恚	-12.2674
刷	-12.2674
汀	-12.2682
逕	-12.2684
枷	-12.2684
髽	-12.2692
烖	-12.284
茀	-12.2846
僇	-12.285
鉛	-12.2853
悵	-12.2854
攙	-12.2857
矦	-12.2857
柬	-12.2859
葱	-12.286
熬	-12.2861
刲	-12.2862
爱	-12.2862
胃	-12.2863
諜	-12.2865
杏	-12.2866
陘	-12.2866
飼	-12.2867
鶻	-12.2868
啄	-12.287
琳	-12.287
痿	-12.2871
粃	-12.2871
膩	-12.2872
簷	-12.2872
楞	-12.2873
姆	-12.2877
駉	-12.3035
嗃	-12.3042
躓	-12.3046
篚	-12.3046
倀	-12.3053
磐	-12.3054
鞮	-12.3054
朶	-12.3055
魋	-12.3056
殂	-12.3056
鐫	-12.3058
椽	-12.3058
縈	-12.3059
瑶	-12.3059
滓	-12.3059
淬	-12.3062
祲	-12.3063
謠	-12.3064
蹌	-12.3064
剕	-12.3065
撿	-12.3065
莩	-12.3068
躔	-12.3068
皁	-12.3069
桌	-12.3071
●	-12.3238
㽔	-12.3239
溱	-12.3239
嵬	-12.3244
■	-12.3244
淤	-12.3245
枋	-12.3252
躅	-12.3255
胝	-12.3256
套	-12.3257
頺	-12.3257
抛	-12.3258
脇	-12.3259
爆	-12.326
𣺌	-12.3264
壼	-12.3264
泝	-12.3266
畬	-12.3266
睨	-12.3266
濩	-12.3267
哥	-12.3267
聪	-12.3269
戔	-12.3274
醤	-12.3275
惲	-12.3438
楛	-12.3447
燼	-12.3447
讃	-12.3449
襚	-12.3451
麛	-12.3452
鰥	-12.3454
蹷	-12.3454
㬥	-12.3454
涿	-12.3454
袪	-12.3456
瑄	-12.3456
簧	-12.3457
吠	-12.3458
餞	-12.3459
臬	-12.3459
觚	-12.3459
綌	-12.3459
闒	-12.3461
瞶	-12.3461
菩	-12.3461
籩	-12.3462
瑾	-12.3463
堙	-12.3466
褻	-12.3466
桷	-12.3466
礫	-12.3467
覡	-12.3468
攤	-12.3468
裾	-12.3473
昜	-12.3476
疽	-12.3476
肢	-12.3653
厝	-12.3657
甽	-12.3659
踣	-12.3659
頰	-12.366
迤	-12.3663
儐	-12.3664
筴	-12.3664
蚡	-12.3665
珥	-12.3667
葷	-12.3668
柅	-12.3668
碁	-12.3671
懟	-12.3671
酖	-12.3672
鯁	-12.3672
姨	-12.3672
仄	-12.3674
鮒	-12.3675
飱	-12.3676
肫	-12.3677
脛	-12.3678
磽	-12.3678
槀	-12.3679
鄱	-12.3686
蒔	-12.385
騏	-12.3867
煬	-12.3872
悄	-12.3873
瘴	-12.3874
灝	-12.3875
鬲	-12.3876
誹	-12.3876
唇	-12.3877
淖	-12.3878
洧	-12.3878
攪	-12.3879
匃	-12.3879
蹠	-12.3881
諴	-12.3882
羑	-12.3884
莆	-12.3886
膰	-12.3886
瓘	-12.3887
彷	-12.3888
臍	-12.3891
鞋	-12.3891
妓	-12.3892
吃	-12.3893
甜	-12.3893
㺯	-12.3896
从	-12.3897
𥘉	-12.4082
橘	-12.4084
潼	-12.4085
佻	-12.4086
咳	-12.4088
諄	-12.4091
牓	-12.4092
陲	-12.4093
闌	-12.4094
祛	-12.4095
嵇	-12.4095
訢	-12.4095
僎	-12.4096
曄	-12.4096
麴	-12.4096
猴	-12.4096
鈇	-12.4097
稠	-12.4097
琪	-12.4098
絕	-12.4099
樛	-12.4099
蕡	-12.41
曇	-12.41
獒	-12.41
瑱	-12.41
璿	-12.4102
咺	-12.4102
坂	-12.4103
芽	-12.4103
媪	-12.4103
瞀	-12.4103
堊	-12.4104
盱	-12.4105
伽	-12.4106
型	-12.4107
諶	-12.4107
韞	-12.4109
㩀	-12.4109
鎛	-12.411
稿	-12.4111
踴	-12.4111
㤙	-12.4112
紼	-12.4112
剋	-12.4112
奨	-12.4113
焄	-12.4115
攅	-12.4116
蕞	-12.4121
萍	-12.4121
紺	-12.4291
庳	-12.4297
郄	-12.4302
噲	-12.4308
劭	-12.4313
𬒳	-12.4316
敲	-12.4316
韭	-12.4317
秒	-12.4319
邶	-12.4321
棫	-12.4321
恆	-12.4321
欝	-12.4321
肓	-12.4322
俑	-12.4323
杌	-12.4325
恝	-12.4326
豶	-12.4326
歙	-12.4328
跟	-12.4329
巍	-12.433
棖	-12.4331
彀	-12.4331
黿	-12.4331
努	-12.4334
阪	-12.4335
阡	-12.4338
摺	-12.4338
爨	-12.4342
痤	-12.4534
瘦	-12.4536
內	-12.4536
赭	-12.4538
侏	-12.4538
澳	-12.4544
蓐	-12.4544
煇	-12.4545
駙	-12.4546
銑	-12.4546
楯	-12.4546
筲	-12.4547
皐	-12.4547
妤	-12.4547
梨	-12.4549
苓	-12.4549
袞	-12.4549
逍	-12.455
饔	-12.455
縑	-12.4551
簪	-12.4551
耑	-12.4552
毓	-12.4553
寰	-12.4553
蚊	-12.4554
遒	-12.4554
殀	-12.4555
哩	-12.4556
杪	-12.4556
荔	-12.4556
宂	-12.4558
眠	-12.4559
闑	-12.4564
惱	-12.4564
匯	-12.4564
㐲	-12.4565
俶	-12.4567
胾	-12.4573
萹	-12.4765
慍	-12.4769
嘲	-12.4771
羃	-12.4772
翌	-12.4772
諏	-12.4772
攣	-12.4777
蹻	-12.4777
竽	-12.4778
瑋	-12.4779
鄣	-12.4779
羆	-12.4779
夤	-12.478
狸	-12.4781
猫	-12.4781
泆	-12.4783
拽	-12.4783
嫠	-12.4784
愴	-12.4785
券	-12.4785
翹	-12.4786
仭	-12.4786
鄞	-12.4786
撒	-12.4787
饘	-12.4787
毬	-12.4788
縕	-12.4788
甌	-12.479
咀	-12.479
詁	-12.4791
艶	-12.4793
邰	-12.4793
糗	-12.4794
斈	-12.4993
儷	-12.5
褰	-12.5002
嗛	-12.5003
飪	-12.5003
驃	-12.5006
僱	-12.5006
邳	-12.5009
甑	-12.5014
孶	-12.5014
踖	-12.5016
焰	-12.5016
剌	-12.5016
鋟	-12.5018
鏃	-12.5019
昶	-12.5021
蠆	-12.5021
刎	-12.5021
孳	-12.5022
揠	-12.5022
沔	-12.5022
僨	-12.5024
秬	-12.5024
娘	-12.5024
峴	-12.5025
禜	-12.5026
娯	-12.5026
卲	-12.5027
夹	-12.5027
枵	-12.5031
㛰	-12.5031
昕	-12.5031
毳	-12.5032
䰟	-12.5033
逖	-12.5036
諟	-12.5038
譌	-12.5237
螫	-12.5248
祓	-12.525
犇	-12.525
慆	-12.5258
泓	-12.5261
僥	-12.5261
締	-12.5261
垓	-12.5262
楨	-12.5264
脤	-12.5265
虺	-12.5265
蠖	-12.5265
瀦	-12.5266
畵	-12.5266
桶	-12.5267
歜	-12.5269
娱	-12.5271
腆	-12.5271
嗤	-12.5272
孀	-12.5273
寞	-12.5273
鴨	-12.5277
賭	-12.5277
襃	-12.5278
媸	-12.5278
燬	-12.5279
瀝	-12.5279
樗	-12.55
譟	-12.5505
綈	-12.5507
嗷	-12.5507
陬	-12.5508
禕	-12.5509
吊	-12.5512
煽	-12.5512
屣	-12.5512
弇	-12.5514
亹	-12.5514
綫	-12.5514
捜	-12.5514
穗	-12.5514
擕	-12.5515
胼	-12.5515
衘	-12.5515
店	-12.5515
薈	-12.5515
莧	-12.5515
芑	-12.5516
壝	-12.5516
譊	-12.5517
疢	-12.5518
潑	-12.5518
緹	-12.5518
卹	-12.5518
忖	-12.5519
絪	-12.5519
吻	-12.5519
鄠	-12.552
酧	-12.552
爇	-12.5521
儱	-12.5523
殮	-12.5527
酇	-12.5528
緋	-12.553
鳲	-12.5754
闚	-12.5757
藤	-12.5759
迓	-12.576
鉉	-12.5761
磔	-12.5761
繢	-12.5762
犴	-12.5762
芘	-12.5764
郴	-12.5764
饕	-12.5767
釘	-12.5768
輈	-12.5768
郜	-12.5768
饁	-12.5768
眸	-12.5769
縲	-12.577
惨	-12.577
屹	-12.577
簇	-12.5771
嶢	-12.5772
扉	-12.5773
澂	-12.5773
涑	-12.5774
鸇	-12.5774
漚	-12.5775
㗖	-12.5775
喘	-12.5775
帚	-12.5777
艷	-12.5777
儇	-12.5777
絿	-12.5778
鈐	-12.5778
閧	-12.578
毉	-12.5789
茸	-12.6008
酗	-12.6017
尭	-12.6019
愔	-12.6021
僂	-12.6021
旐	-12.6022
毖	-12.6023
囷	-12.6024
熒	-12.6025
摽	-12.6028
棼	-12.6028
扆	-12.6028
餗	-12.603
櫓	-12.603
扱	-12.603
罝	-12.6031
睫	-12.6032
抝	-12.6033
噴	-12.6033
裸	-12.6034
款	-12.6034
縰	-12.6035
鈴	-12.6036
賽	-12.6037
沫	-12.6038
籬	-12.6038
璉	-12.6039
鱉	-12.6039
縵	-12.6039
綾	-12.6041
崛	-12.6041
涅	-12.6042
掎	-12.6044
塜	-12.6046
揑	-12.6046
媢	-12.6053
秧	-12.6255
尔	-12.6268
柰	-12.6271
諗	-12.6284
黝	-12.6291
萋	-12.6295
杓	-12.6296
桮	-12.6297
㳙	-12.6298
喑	-12.6299
薊	-12.6299
隷	-12.63
觳	-12.63
氊	-12.6301
阱	-12.6301
釜	-12.6301
鬛	-12.6301
㦯	-12.6301
眹	-12.6301
儋	-12.6302
耰	-12.6303
筍	-12.6304
罸	-12.6305
灣	-12.6305
盼	-12.6305
醋	-12.6306
叫	-12.6306
縂	-12.6306
僵	-12.6306
喋	-12.6306
𦕈	-12.6307
駱	-12.6308
匙	-12.6308
棒	-12.6308
濃	-12.6309
渫	-12.6309
斨	-12.6309
揩	-12.6309
縟	-12.631
漾	-12.631
壟	-12.631
咬	-12.6312
恫	-12.6313
哂	-12.6313
㴠	-12.6314
裙	-12.6315
喝	-12.6315
獅	-12.6318
躭	-12.6318
㬰	-12.6324
适	-12.6327
鴉	-12.6547
偲	-12.6567
賃	-12.6567
棬	-12.6568
筓	-12.657
蚓	-12.6572
咤	-12.6572
𤦺	-12.6573
蹢	-12.6574
鑊	-12.6574
蟋	-12.6574
楓	-12.6574
坯	-12.6575
蛤	-12.6575
垠	-12.6576
蚌	-12.6577
覦	-12.6577
荏	-12.6578
辠	-12.6578
倭	-12.6579
棋	-12.658
嚇	-12.658
媟	-12.6581
娩	-12.6582
杳	-12.6582
昞	-12.6583
捲	-12.6583
睎	-12.6584
戻	-12.6585
鏑	-12.6586
奧	-12.6587
㴱	-12.6587
鍛	-12.6587
筒	-12.6588
稊	-12.6588
頋	-12.659
掀	-12.659
扛	-12.659
擦	-12.659
娑	-12.6591
珮	-12.6591
絇	-12.6593
攔	-12.6593
嚶	-12.6594
倂	-12.6597
轝	-12.6602
鶩	-12.6607
菊	-12.685
茵	-12.6856
摳	-12.6861
鼃	-12.6862
諠	-12.6862
躑	-12.6863
窓	-12.6864
腊	-12.6865
梳	-12.6866
鏞	-12.6866
惸	-12.6866
殳	-12.6867
黏	-12.6867
擗	-12.6867
傴	-12.6868
櫽	-12.6868
悃	-12.6869
遴	-12.6869
抜	-12.687
郝	-12.687
曖	-12.6871
飴	-12.6872
滁	-12.6872
奩	-12.6872
仿	-12.6872
蒍	-12.6873
娠	-12.6873
邲	-12.6873
悮	-12.6875
蒋	-12.6875
尫	-12.6875
簮	-12.6876
澧	-12.6876
㡌	-12.6877
猿	-12.6877
皦	-12.6878
錘	-12.6884
軄	-12.6891
俵	-12.6892
畮	-12.7127
揄	-12.7135
踽	-12.7141
薇	-12.7141
皜	-12.7142
薺	-12.7147
籧	-12.715
眺	-12.7151
栝	-12.7155
禖	-12.7155
珦	-12.7155
徨	-12.7156
礲	-12.7156
阯	-12.7157
葆	-12.7158
婿	-12.7159
殱	-12.7159
峩	-12.7159
紕	-12.716
虩	-12.7161
幟	-12.7161
虵	-12.7161
翅	-12.7162
詫	-12.7162
孜	-12.7162
褁	-12.7163
緍	-12.7163
紃	-12.7163
輾	-12.7163
墩	-12.7164
釵	-12.7164
飜	-12.7164
捭	-12.7164
擎	-12.7164
瘝	-12.7165
痼	-12.7165
聫	-12.7166
䨇	-12.7166
霞	-12.7166
恡	-12.7166
筯	-12.7167
垜	-12.7168
廨	-12.7169
紵	-12.7169
鎻	-12.717
炯	-12.7171
蜴	-12.7172
闐	-12.7172
逗	-12.7172
癰	-12.7174
塌	-12.7175
汐	-12.7175
鎖	-12.7175
捺	-12.7175
剃	-12.7177
侀	-12.7444
粢	-12.7446
騋	-12.745
伾	-12.7451
箧	-12.7452
訏	-12.7452
輴	-12.7454
饉	-12.7456
摰	-12.7456
邯	-12.7457
瑊	-12.7458
贛	-12.7459
婼	-12.7459
瓉	-12.746
珙	-12.746
莞	-12.7462
筌	-12.7463
鬢	-12.7464
哇	-12.7465
呆	-12.7466
幙	-12.7466
燃	-12.7467
疣	-12.7467
澡	-12.7468
荐	-12.7468
擿	-12.7468
陀	-12.7469
笛	-12.7469
㡳	-12.747
溟	-12.747
㮣	-12.747
簀	-12.747
睚	-12.7471
醖	-12.7471
攄	-12.7471
鍜	-12.7472
岌	-12.7473
朘	-12.7473
璵	-12.7473
吮	-12.7474
𥚹	-12.7474
哨	-12.7474
蔕	-12.7474
戞	-12.7474
舶	-12.7476
儗	-12.7476
緻	-12.7476
耤	-12.7476
惺	-12.7478
匄	-12.7479
棁	-12.748
嚕	-12.7483
鳸	-12.7719
蟹	-12.7732
㪯	-12.7753
聆	-12.7763
鼗	-12.7764
杕	-12.7766
兜	-12.7767
紈	-12.7767
魑	-12.7768
椘	-12.7768
傀	-12.777
疴	-12.7771
繻	-12.7771
蟊	-12.7771
炬	-12.7772
晢	-12.7772
嶮	-12.7773
儌	-12.7773
牿	-12.7773
湑	-12.7774
瑛	-12.7775
瑁	-12.7776
稹	-12.7776
拇	-12.7777
蠋	-12.7777
苕	-12.7778
戇	-12.7778
衺	-12.7779
䡖	-12.778
諝	-12.778
驁	-12.778
輶	-12.7781
撼	-12.7781
牕	-12.7781
佔	-12.7781
胖	-12.7782
啗	-12.7783
摇	-12.7783
嶷	-12.7783
㬊	-12.7784
纛	-12.7785
拶	-12.7785
曀	-12.7786
琇	-12.7787
薑	-12.7788
戩	-12.7789
蜥	-12.779
齗	-12.779
綻	-12.779
賫	-12.7791
枅	-12.7792
擡	-12.7793
偈	-12.7797
溼	-12.8076
剸	-12.8079
麑	-12.8081
牐	-12.8082
茁	-12.8082
柘	-12.8083
玠	-12.8087
䲭	-12.8088
掞	-12.8088
氾	-12.8089
柷	-12.809
愨	-12.809
檐	-12.809
癉	-12.809
屡	-12.8091
児	-12.8092
燿	-12.8096
矍	-12.8097
侣	-12.8097
臀	-12.8097
暄	-12.8098
抒	-12.8098
顕	-12.8099
匀	-12.8099
磷	-12.8101
壌	-12.8101
崑	-12.8102
壠	-12.8103
咡	-12.8104
稂	-12.8104
繅	-12.8105
醆	-12.8105
媛	-12.8106
䦧	-12.8106
磁	-12.8106
嚬	-12.8106
垤	-12.8107
謄	-12.8108
靴	-12.8111
僦	-12.8113
鷩	-12.8113
淘	-12.8115
𣆀	-12.8117
鼈	-12.8118
凂	-12.812
嗔	-12.812
洟	-12.8406
蜮	-12.8414
忩	-12.8418
鄊	-12.8421
浞	-12.8422
擣	-12.8423
絆	-12.8424
酪	-12.8425
炤	-12.8426
拚	-12.8427
烙	-12.8427
婕	-12.8427
瑤	-12.8428
逭	-12.8428
肜	-12.8429
圮	-12.843
陿	-12.843
义	-12.8431
凄	-12.8433
馘	-12.8433
愓	-12.8434
遘	-12.8434
夐	-12.8435
鐃	-12.8435
噪	-12.8435
伱	-12.8436
梱	-12.8437
蠃	-12.8437
扯	-12.8438
糅	-12.8439
瞰	-12.8439
倆	-12.8439
瀚	-12.844
蕕	-12.844
襌	-12.844
濠	-12.844
屐	-12.8441
韙	-12.8442
膜	-12.8443
𠖇	-12.8444
珽	-12.8444
埸	-12.8446
螢	-12.8447
瑯	-12.845
覷	-12.8451
瓏	-12.8459
斿	-12.8465
柞	-12.8741
筥	-12.8758
霓	-12.8758
鱄	-12.8761
匈	-12.8765
曆	-12.8765
鵒	-12.8765
肹	-12.8765
𡨕	-12.8766
邴	-12.8767
闞	-12.8767
宄	-12.8768
葅	-12.8769
倬	-12.8771
饎	-12.8772
冽	-12.8772
豔	-12.8773
湼	-12.8775
拉	-12.8777
蜜	-12.8777
亊	-12.8778
姫	-12.8778
舁	-12.8778
蘀	-12.8779
幃	-12.8779
氛	-12.8779
峨	-12.878
嘖	-12.878
廄	-12.8781
燁	-12.8781
撐	-12.8782
溯	-12.8782
銍	-12.8782
蹂	-12.8782
瓌	-12.8784
踪	-12.8784
榷	-12.8785
𨼆	-12.8785
梲	-12.8785
貓	-12.8786
厪	-12.8786
洿	-12.8786
餱	-12.8787
瀟	-12.8787
唤	-12.8787
獃	-12.8787
淋	-12.8787
羯	-12.8788
閡	-12.8789
酏	-12.8791
霎	-12.8792
覓	-12.8796
襦	-12.8798
邨	-12.88
珣	-12.8804
豉	-12.9088
斉	-12.91
鷦	-12.9103
扃	-12.9108
噩	-12.9115
禭	-12.9119
蠭	-12.912
撅	-12.9122
腋	-12.9123
黶	-12.9126
諼	-12.9127
榱	-12.9127
甒	-12.9129
牂	-12.913
蜃	-12.913
慇	-12.913
麯	-12.9133
茇	-12.9133
袠	-12.9133
翛	-12.9133
巔	-12.9134
勛	-12.9134
蓰	-12.9134
啐	-12.9134
葩	-12.9135
騃	-12.9135
螺	-12.9137
涘	-12.9137
嚢	-12.9138
侁	-12.9138
灸	-12.9138
綖	-12.9139
癃	-12.9141
晶	-12.9141
萑	-12.9141
瀉	-12.9141
踧	-12.9142
怫	-12.9142
蝦	-12.9142
秃	-12.9143
筞	-12.9143
嫓	-12.9145
冤	-12.9146
晡	-12.9147
綍	-12.9148
杠	-12.9148
齕	-12.9148
㨂	-12.9149
澔	-12.915
刓	-12.9151
汔	-12.9164
慼	-12.9479
飡	-12.9485
螣	-12.9485
雊	-12.9486
綘	-12.9491
噶	-12.9492
崧	-12.9493
珩	-12.9493
盻	-12.9494
捽	-12.9495
昴	-12.9496
㽞	-12.9498
絍	-12.9498
澌	-12.9499
儺	-12.95
驀	-12.9501
唁	-12.9501
蠟	-12.9501
埒	-12.9502
鷺	-12.9502
惛	-12.9502
笠	-12.9502
檮	-12.9503
扄	-12.9504
窖	-12.9504
紝	-12.9505
絅	-12.9506
浃	-12.9506
睪	-12.9507
頖	-12.9508
嘽	-12.9508
緬	-12.9509
斲	-12.9509
畚	-12.9509
醲	-12.9509
聒	-12.9509
姙	-12.951
澇	-12.951
堦	-12.9511
很	-12.9516
琊	-12.9516
玅	-12.9519
哦	-12.952
霾	-12.9524
鄄	-12.9867
𥙷	-12.9868
㳫	-12.9869
喈	-12.9869
駘	-12.987
儁	-12.9872
綯	-12.9872
滉	-12.9879
朐	-12.9879
澈	-12.9879
釗	-12.988
凈	-12.9883
熖	-12.9883
芷	-12.9884
聵	-12.9885
掄	-12.9887
戅	-12.9887
狴	-12.9887
厖	-12.9888
䔍	-12.9889
籙	-12.9889
鈆	-12.9889
酆	-12.989
呐	-12.9891
鑪	-12.9891
僃	-12.9891
墊	-12.9892
泠	-12.9892
窳	-12.9893
眦	-12.9893
陔	-12.9895
蛙	-12.9895
鉦	-12.9895
蜉	-12.9895
壩	-12.9896
祸	-12.9897
邜	-12.9897
碞	-12.9897
䧺	-12.9898
鷇	-12.9898
欄	-12.9899
暈	-12.9899
觫	-12.99
礴	-12.99
窩	-12.99
孱	-12.9901
䆳	-12.9901
霹	-12.9901
瞥	-12.9902
聱	-12.9902
倞	-12.9902
讟	-12.9903
琨	-12.9907
膋	-12.9909
纏	-12.991
蛩	-13.0249
麀	-13.026
僾	-13.0267
剄	-13.0268
茗	-13.0268
蘧	-13.027
㩁	-13.0271
皡	-13.0272
暝	-13.0273
掬	-13.0274
澠	-13.0275
紉	-13.0275
銛	-13.0275
黈	-13.0275
泖	-13.0277
撝	-13.028
瘉	-13.028
㝎	-13.0281
艘	-13.0281
蕉	-13.0283
艸	-13.0283
瘥	-13.0283
雱	-13.0284
鼉	-13.0284
讖	-13.0284
芃	-13.0285
悒	-13.0285
沌	-13.0286
丼	-13.0287
蛾	-13.0287
儳	-13.0287
鑾	-13.0287
嚌	-13.0289
纉	-13.029
㫄	-13.0291
觥	-13.0291
襖	-13.0292
弹	-13.0292
芰	-13.0293
彍	-13.0293
寬	-13.0294
賍	-13.0294
鴦	-13.0294
棧	-13.0294
滇	-13.0295
妺	-13.0296
佽	-13.0297
槍	-13.0297
攧	-13.0297
烜	-13.0297
暐	-13.0298
蜾	-13.0298
倮	-13.0298
獠	-13.0299
氤	-13.03
㵼	-13.03
龡	-13.0302
紋	-13.0303
攢	-13.0304
𣪚	-13.0305
鷲	-13.0305
杉	-13.0306
堲	-13.0307
欿	-13.0307
盭	-13.0308
櫜	-13.0309
贑	-13.031
賠	-13.0311
妯	-13.0318
娌	-13.0319
霏	-13.0667
訿	-13.0668
鶡	-13.067
弈	-13.0683
靑	-13.0685
齪	-13.0687
暦	-13.0689
関	-13.069
昺	-13.069
鞀	-13.0695
鯨	-13.0695
剟	-13.0696
醍	-13.0697
禬	-13.0698
芭	-13.0699
惬	-13.0699
沍	-13.07
紲	-13.07
蹲	-13.0701
崎	-13.0701
瑚	-13.0703
甓	-13.0703
謖	-13.0703
璠	-13.0703
丅	-13.0704
磯	-13.0704
蓁	-13.0704
噉	-13.0705
术	-13.0705
柵	-13.0705
荑	-13.0705
蝎	-13.0706
湄	-13.0706
鮪	-13.0706
戹	-13.0708
􁃻	-13.0708
栻	-13.0708
嚳	-13.0708
腕	-13.0709
帟	-13.0709
䜿	-13.0709
値	-13.071
哆	-13.071
噓	-13.071
詵	-13.071
熲	-13.071
鴛	-13.0711
憮	-13.0711
氲	-13.0712
憝	-13.0712
搶	-13.0712
隮	-13.0713
譸	-13.0713
糖	-13.0713
謇	-13.0715
懔	-13.0716
蔭	-13.0716
簸	-13.0716
媮	-13.0717
圑	-13.0719
麕	-13.072
涗	-13.072
漙	-13.072
曁	-13.0721
袝	-13.0723
憧	-13.073
儂	-13.0737
㓪	-13.0739
瓛	-13.0741
靄	-13.1116
虫	-13.1117
梃	-13.1126
褘	-13.1127
姝	-13.1127
鸜	-13.113
髭	-13.1131
阸	-13.1132
睇	-13.1132
脢	-13.1132
垍	-13.1133
靚	-13.1134
瘧	-13.1134
豝	-13.1136
鉶	-13.1137
淩	-13.1139
㴞	-13.1139
鼐	-13.1139
罽	-13.114
鄜	-13.114
厓	-13.1141
?	-13.1141
晫	-13.1141
􁂎	-13.1142
噎	-13.1143
荇	-13.1143
砮	-13.1144
扎	-13.1144
颯	-13.1145
厎	-13.1145
贒	-13.1145
紟	-13.1145
羇	-13.1145
卉	-13.1147
幘	-13.1147
碗	-13.1148
澀	-13.1148
廳	-13.1148
橐	-13.1149
琚	-13.1149
紡	-13.1149
趲	-13.115
剴	-13.1151
玦	-13.1151
鍤	-13.1151
鮓	-13.1152
妊	-13.1152
朏	-13.1152
嘑	-13.1153
嫩	-13.1153
纚	-13.1155
顰	-13.1158
蛉	-13.1158
簨	-13.1158
愒	-13.1158
㮚	-13.116
竣	-13.1164
臠	-13.1577
蠕	-13.1578
僬	-13.1578
鍰	-13.1583
剉	-13.1584
漣	-13.1584
檠	-13.1588
徉	-13.1588
嬙	-13.1588
梵	-13.1588
趺	-13.1589
瘖	-13.1589
殣	-13.1589
宙	-13.159
艦	-13.1591
碏	-13.1591
靦	-13.1591
囁	-13.1591
錬	-13.1592
埏	-13.1592
窣	-13.1593
翮	-13.1594
洸	-13.1594
傘	-13.1595
瀘	-13.1595
醪	-13.1595
沬	-13.1595
揷	-13.1596
枘	-13.1596
篙	-13.1597
堇	-13.1597
鄶	-13.1597
棹	-13.1598
瀍	-13.1598
癖	-13.1599
鄖	-13.16
擐	-13.16
䖝	-13.16
捫	-13.1601
蒂	-13.1602
椸	-13.1602
砦	-13.1603
薙	-13.1603
蚳	-13.1603
喏	-13.1604
鐶	-13.1604
彄	-13.1605
晬	-13.1605
煆	-13.1605
䄂	-13.1606
巇	-13.1606
郟	-13.1608
煒	-13.1608
鷃	-13.1609
祍	-13.161
丱	-13.161
矻	-13.1612
禨	-13.1612
嚙	-13.1613
卺	-13.1619
猺	-13.162
尽	-13.2033
襡	-13.2035
遨	-13.2038
漱	-13.2046
蹋	-13.2049
坰	-13.2052
蓧	-13.2055
枸	-13.2057
閠	-13.2058
頎	-13.2059
魴	-13.2059
璀	-13.206
湫	-13.2061
柚	-13.2062
痾	-13.2064
鸚	-13.2064
篲	-13.2065
塤	-13.2066
禡	-13.2067
葸	-13.2067
猒	-13.2067
泫	-13.2068
坼	-13.2068
溜	-13.2069
瀰	-13.2069
褥	-13.2069
橛	-13.207
幔	-13.207
蘿	-13.207
攖	-13.207
翀	-13.207
鱣	-13.2071
媧	-13.2071
旟	-13.2072
琵	-13.2073
篩	-13.2073
鎧	-13.2074
洳	-13.2074
尢	-13.2074
瑪	-13.2074
璇	-13.2077
邏	-13.2078
眊	-13.2078
輊	-13.2078
箎	-13.2079
隩	-13.2079
穪	-13.208
逑	-13.208
瓣	-13.208
泡	-13.2081
煅	-13.2082
淝	-13.2083
甬	-13.2083
讚	-13.2083
悸	-13.2083
酅	-13.2083
陡	-13.2083
窑	-13.2083
蟣	-13.2084
廕	-13.2084
曝	-13.2086
跗	-13.2087
忉	-13.2087
騑	-13.2088
籖	-13.2089
櫬	-13.2089
畷	-13.2095
昱	-13.2101
禺	-13.2102
玲	-13.2104
踦	-13.2106
噦	-13.2535
桎	-13.2537
梭	-13.2538
虬	-13.2545
訑	-13.255
机	-13.2551
憯	-13.2553
膴	-13.2553
啍	-13.2554
蛆	-13.2557
箾	-13.2559
呶	-13.2559
觜	-13.256
貜	-13.2562
兗	-13.2562
町	-13.2564
琯	-13.2564
莎	-13.2564
駞	-13.2565
爝	-13.2565
鵰	-13.2565
􁆪	-13.2565
嶇	-13.2565
饟	-13.2566
豨	-13.2566
畒	-13.2567
倔	-13.2567
錚	-13.2567
芼	-13.2568
豬	-13.2569
釂	-13.2569
絏	-13.257
匜	-13.2571
脣	-13.2571
虔	-13.2572
濘	-13.2573
蜩	-13.2573
琶	-13.2573
夥	-13.2573
閥	-13.2574
軆	-13.2574
濞	-13.2575
尠	-13.2575
麫	-13.2576
懃	-13.2576
欎	-13.2576
㪷	-13.2578
撘	-13.2578
劘	-13.2578
耋	-13.2578
舖	-13.2579
潯	-13.258
枳	-13.2581
腫	-13.2582
柁	-13.2582
緱	-13.2583
砌	-13.2583
耔	-13.2583
讌	-13.2583
摟	-13.2584
悽	-13.2584
卸	-13.2584
汛	-13.2585
攛	-13.2586
症	-13.2587
矮	-13.2587
簴	-13.259
盬	-13.2595
韵	-13.2598
罃	-13.2599
嵊	-13.26
㱕	-13.3058
鄗	-13.3061
暠	-13.3069
羗	-13.3073
湓	-13.3075
黌	-13.3075
蜺	-13.3076
万	-13.3076
断	-13.3079
渦	-13.3079
璨	-13.308
祅	-13.308
螭	-13.3082
惚	-13.3083
袗	-13.3083
繄	-13.3084
蝱	-13.3086
搤	-13.309
讋	-13.309
篨	-13.3091
褎	-13.3091
卨	-13.3091
宕	-13.3091
麵	-13.3092
塚	-13.3092
敔	-13.3093
湢	-13.3094
餔	-13.3094
鞞	-13.3095
芋	-13.3096
聡	-13.3096
縗	-13.3097
庥	-13.3097
郇	-13.3097
魎	-13.3097
﨑	-13.3098
魍	-13.3099
璆	-13.31
衂	-13.3102
抔	-13.3103
恧	-13.3104
髯	-13.3104
伃	-13.3105
嗑	-13.3106
蕚	-13.3106
賖	-13.3107
虱	-13.3107
嗅	-13.3108
菀	-13.3108
漑	-13.311
郿	-13.3111
暵	-13.3111
捻	-13.3111
漉	-13.3111
丨	-13.3112
鬷	-13.3112
跽	-13.3112
唘	-13.3113
媺	-13.3114
肋	-13.3115
换	-13.3115
嘵	-13.3116
礬	-13.3118
軔	-13.3118
觽	-13.3121
滾	-13.3125
稌	-13.3126
銃	-13.3127
礟	-13.3129
晜	-13.3604
嚏	-13.3618
珉	-13.3624
缾	-13.3634
躰	-13.3634
偝	-13.3639
䫉	-13.3639
儵	-13.3639
篾	-13.364
瘢	-13.3641
嶲	-13.3641
楽	-13.3642
懣	-13.3643
爬	-13.3644
熯	-13.3644
沁	-13.3645
窽	-13.3646
枹	-13.3646
蝝	-13.3647
窌	-13.3647
碾	-13.3647
埤	-13.3647
牗	-13.3648
刦	-13.3649
倕	-13.3649
瑰	-13.3649
佺	-13.3649
賕	-13.365
塢	-13.365
鄹	-13.365
絛	-13.365
搴	-13.365
縢	-13.365
怱	-13.3651
龐	-13.3651
槌	-13.3652
牋	-13.3652
溈	-13.3652
厰	-13.3653
誶	-13.3653
鬌	-13.3654
繐	-13.3654
騮	-13.3655
黲	-13.3655
瘐	-13.3657
蝨	-13.3657
荄	-13.3657
釃	-13.3658
庀	-13.3658
勌	-13.3659
緖	-13.366
璃	-13.366
讇	-13.3661
儈	-13.3662
溶	-13.3662
魔	-13.3662
刊	-13.3663
楪	-13.3663
滙	-13.3663
薿	-13.3664
靮	-13.3664
摛	-13.3664
戛	-13.3664
𢃄	-13.3665
轟	-13.3665
珓	-13.3666
紒	-13.3668
䓁	-13.3668
鰓	-13.3668
旤	-13.367
秸	-13.3671
週	-13.3671
斚	-13.3673
翂	-13.3674
竢	-13.3675
惘	-13.3681
覸	-13.3682
鴇	-13.3684
渢	-13.3691
褅	-13.3709
樅	-13.4188
耙	-13.4193
惽	-13.4197
訩	-13.421
罘	-13.4211
吭	-13.4212
膢	-13.4221
縚	-13.4223
霰	-13.4223
靧	-13.4223
嗌	-13.4225
帆	-13.4225
䍐	-13.4225
蝥	-13.4226
汞	-13.4227
幪	-13.4227
犫	-13.4228
欬	-13.4229
閬	-13.4229
檝	-13.4229
紾	-13.423
襴	-13.423
惙	-13.4232
舩	-13.4233
鍪	-13.4233
虡	-13.4233
滸	-13.4234
殲	-13.4235
笋	-13.4235
獫	-13.4236
牁	-13.4236
撾	-13.4236
硏	-13.4239
轢	-13.424
濛	-13.424
咒	-13.424
惷	-13.424
罇	-13.4241
亙	-13.4241
瞫	-13.4241
􁆣	-13.4241
鄼	-13.4242
㩦	-13.4242
睠	-13.4242
穠	-13.4242
蓽	-13.4244
噭	-13.4244
玭	-13.4244
胚	-13.4245
軺	-13.4246
曏	-13.4246
靁	-13.4247
炷	-13.4247
饅	-13.4248
捃	-13.4248
涌	-13.4248
堠	-13.4249
殪	-13.4249
鮀	-13.4249
桔	-13.4249
犍	-13.425
仔	-13.425
琉	-13.4251
頄	-13.4251
瘍	-13.4251
襜	-13.4251
艴	-13.4252
蒺	-13.4252
脹	-13.4252
蹐	-13.4253
烱	-13.4253
餬	-13.4253
沅	-13.4253
晤	-13.4253
趁	-13.4253
劃	-13.4254
慴	-13.4254
犖	-13.4254
蹺	-13.4254
玆	-13.4255
籟	-13.4256
㾗	-13.4256
輹	-13.4256
縓	-13.4258
輭	-13.4259
瀹	-13.426
圩	-13.4262
綮	-13.4262
餂	-13.4263
臓	-13.4263
陑	-13.4263
插	-13.4264
􁋑	-13.4272
爓	-13.4275
鷁	-13.4278
䄠	-13.482
僈	-13.4827
蚖	-13.4831
緅	-13.4832
貰	-13.484
䢴	-13.4842
刵	-13.4842
暍	-13.4843
妒	-13.4843
皃	-13.4846
蛛	-13.4848
邽	-13.4849
阽	-13.4849
倥	-13.485
錠	-13.4851
􁂗	-13.4851
鷸	-13.4852
毘	-13.4853
襁	-13.4853
罣	-13.4853
姣	-13.4853
价	-13.4854
壷	-13.4855
嵒	-13.4855
矟	-13.4856
臚	-13.4857
筩	-13.4857
忸	-13.4858
瞳	-13.4859
咄	-13.4859
巒	-13.486
晃	-13.486
倜	-13.486
欷	-13.486
誾	-13.4861
珊	-13.4862
鄯	-13.4862
菓	-13.4863
单	-13.4863
罻	-13.4864
氂	-13.4865
祏	-13.4865
犛	-13.4866
盩	-13.4866
槽	-13.4867
齷	-13.4867
偁	-13.4867
蔟	-13.4867
楶	-13.4867
鏄	-13.4868
甃	-13.4868
卣	-13.4868
搥	-13.4868
蕙	-13.4869
疐	-13.4869
璫	-13.4869
繰	-13.4869
継	-13.487
庣	-13.487
庿	-13.487
辣	-13.4871
偼	-13.4871
佇	-13.4871
芣	-13.4872
淅	-13.4872
蓆	-13.4872
熨	-13.4873
苡	-13.4873
嵐	-13.4873
倏	-13.4873
籕	-13.4874
牣	-13.4874
貔	-13.4875
䑛	-13.4875
櫃	-13.4875
秖	-13.4875
抖	-13.4875
淂	-13.4876
届	-13.4876
嚅	-13.4878
瑔	-13.4878
讁	-13.4878
菟	-13.4879
票	-13.488
蔞	-13.488
涎	-13.488
秫	-13.4882
濼	-13.4884
臊	-13.4887
疉	-13.489
冔	-13.4894
苹	-13.4895
炒	-13.4898
榕	-13.4902
膟	-13.4905
蓑	-13.5494
墐	-13.5498
号	-13.5498
栩	-13.5508
嫪	-13.551
齓	-13.551
疥	-13.551
茝	-13.5511
琥	-13.5511
詻	-13.5512
尙	-13.5514
腯	-13.5515
螘	-13.5515
攺	-13.5515
腠	-13.5515
崤	-13.5515
徜	-13.5515
侠	-13.5519
睛	-13.5519
謏	-13.5519
牼	-13.5519
緤	-13.5519
忡	-13.5521
蹔	-13.5522
岵	-13.5523
珎	-13.5523
浥	-13.5526
勱	-13.5527
鼷	-13.5529
蚍	-13.553
彎	-13.5531
羝	-13.5531
墝	-13.5531
鏖	-13.5531
鞌	-13.5532
溽	-13.5532
站	-13.5533
宧	-13.5533
礱	-13.5534
刹	-13.5534
塼	-13.5535
髫	-13.5536
淛	-13.5537
糵	-13.5537
􁔱	-13.5537
廽	-13.5538
韣	-13.5538
咥	-13.5538
獪	-13.5539
惮	-13.554
嬗	-13.554
墀	-13.554
芹	-13.554
槱	-13.554
訞	-13.554
厶	-13.5541
泂	-13.5541
踝	-13.5542
廋	-13.5542
旉	-13.5542
荳	-13.5542
搃	-13.5543
鸛	-13.5543
瞍	-13.5543
穸	-13.5543
虣	-13.5544
傋	-13.5544
秔	-13.5544
窀	-13.5544
捩	-13.5544
楸	-13.5547
㰱	-13.5547
鑛	-13.5547
膈	-13.5548
杅	-13.5549
曬	-13.555
擭	-13.5551
憗	-13.5551
糙	-13.5553
刅	-13.5556
喀	-13.5557
絁	-13.5559
壎	-13.5565
浼	-13.557
姞	-13.5603
槧	-13.6203
傞	-13.6209
抇	-13.6218
枤	-13.6219
呴	-13.622
歧	-13.6221
蟾	-13.6222
坏	-13.6223
虓	-13.6226
墅	-13.6227
翾	-13.6228
鋌	-13.6229
毐	-13.6229
偓	-13.6229
耡	-13.623
顇	-13.6231
睂	-13.6233
敶	-13.6233
獷	-13.6233
醵	-13.6234
袛	-13.6236
犠	-13.6236
柎	-13.6236
跲	-13.6237
觖	-13.6238
窞	-13.6239
惋	-13.6239
鉷	-13.6239
駰	-13.624
褫	-13.624
霣	-13.624
躄	-13.624
鉄	-13.6241
咻	-13.6241
閴	-13.6241
郳	-13.6244
蟜	-13.6245
嘒	-13.6245
痍	-13.6245
聃	-13.6246
􁆸	-13.6246
胔	-13.6247
盝	-13.6247
么	-13.6247
蝟	-13.6249
鷖	-13.6249
呱	-13.6249
佶	-13.6249
哽	-13.6249
鼙	-13.625
碔	-13.625
遹	-13.625
揫	-13.625
帕	-13.625
逶	-13.625
苾	-13.6252
稡	-13.6252
鵞	-13.6253
躩	-13.6253
灕	-13.6254
籞	-13.6254
坍	-13.6254
刧	-13.6255
旴	-13.6256
侶	-13.6256
虒	-13.6256
献	-13.6256
璩	-13.6257
娵	-13.6258
絫	-13.6258
蝣	-13.6258
描	-13.6258
糺	-13.6258
晻	-13.6258
顱	-13.6259
謩	-13.626
罏	-13.6261
癯	-13.6262
􁁊	-13.6263
贐	-13.6263
眯	-13.6267
竑	-13.6267
冄	-13.6269
莵	-13.6269
椑	-13.627
籃	-13.627
腳	-13.6272
蹜	-13.6273
䦨	-13.6273
蓺	-13.6278
榔	-13.6279
蝸	-13.6306
薁	-13.6955
怳	-13.6988
禔	-13.6988
稞	-13.6989
麇	-13.6992
壍	-13.6992
臞	-13.6993
籀	-13.6993
嘬	-13.6993
躃	-13.6993
擄	-13.6994
枻	-13.6995
瞢	-13.6995
蘂	-13.6995
菶	-13.6999
蝮	-13.7
慌	-13.7
秕	-13.7001
姧	-13.7001
羖	-13.7002
觱	-13.7002
鐋	-13.7003
暏	-13.7004
睥	-13.7004
觵	-13.7004
喇	-13.7004
箒	-13.7005
哮	-13.7005
呫	-13.7005
鞈	-13.7005
嘅	-13.7007
閶	-13.7007
蒱	-13.7007
屎	-13.7007
胤	-13.7008
瀼	-13.7009
巂	-13.701
螳	-13.701
棍	-13.701
鬆	-13.7011
崙	-13.7011
岫	-13.7013
莢	-13.7014
懴	-13.7014
眤	-13.7015
麺	-13.7015
拲	-13.7016
湔	-13.7016
柢	-13.7016
觝	-13.7018
婬	-13.7018
鶚	-13.7018
𦍑	-13.7018
粳	-13.7019
泲	-13.7019
憇	-13.702
礦	-13.702
禩	-13.702
贋	-13.702
喁	-13.702
熠	-13.702
勷	-13.7021
蛭	-13.7021
鼬	-13.7021
酎	-13.7022
佼	-13.7022
匭	-13.7022
鞴	-13.7022
憍	-13.7023
菱	-13.7023
骼	-13.7023
騾	-13.7023
軏	-13.7023
縹	-13.7024
砧	-13.7024
玕	-13.7024
囏	-13.7024
蓏	-13.7025
輤	-13.7025
剳	-13.7026
檟	-13.7026
懍	-13.7027
悰	-13.7027
糝	-13.7027
瑨	-13.7027
牷	-13.7028
璪	-13.7028
歃	-13.7029
婪	-13.7029
拮	-13.7029
丏	-13.703
珂	-13.703
覉	-13.703
㦲	-13.7032
确	-13.7034
溲	-13.7034
箔	-13.7035
迕	-13.7035
襕	-13.7037
洚	-13.7037
橰	-13.7037
淒	-13.7038
􁂯	-13.7039
堩	-13.7042
輥	-13.7043
奡	-13.7043
砲	-13.7049
湟	-13.7051
幠	-13.7051
苽	-13.7054
柤	-13.7059
椇	-13.706
嚾	-13.7063
魃	-13.7798
㒷	-13.7803
勩	-13.7806
韈	-13.7807
蚋	-13.781
𬞞	-13.7819
喆	-13.782
韍	-13.7821
錞	-13.7825
焬	-13.7827
囗	-13.783
闖	-13.7831
溧	-13.7831
餤	-13.7832
伹	-13.7833
喊	-13.7834
箝	-13.7834
駵	-13.7834
臝	-13.7834
綆	-13.7836
鯤	-13.7836
軛	-13.7837
隈	-13.7838
餧	-13.7838
唅	-13.7839
瀑	-13.7839
螾	-13.784
澍	-13.784
潏	-13.7842
喣	-13.7842
憩	-13.7844
𬒮	-13.7844
磧	-13.7844
蛄	-13.7844
窗	-13.7844
凾	-13.7845
躱	-13.7845
髢	-13.7846
駹	-13.7846
啾	-13.7847
崐	-13.7847
傒	-13.7848
餮	-13.7849
慳	-13.785
咆	-13.785
睊	-13.785
鏁	-13.7851
􁠤	-13.7851
嘷	-13.7852
醎	-13.7852
㕑	-13.7853
燝	-13.7853
繘	-13.7854
䌓	-13.7854
甎	-13.7854
盫	-13.7854
􁅾	-13.7854
毚	-13.7855
羵	-13.7855
㢮	-13.7856
厘	-13.7856
綃	-13.7856
愊	-13.7856
眄	-13.7856
箙	-13.7856
霈	-13.7857
窪	-13.7857
疈	-13.7857
嬀	-13.7857
蹵	-13.7858
鶃	-13.7858
葑	-13.7859
頵	-13.7859
楎	-13.7859
窬	-13.7859
繙	-13.786
踶	-13.786
痡	-13.786
嶓	-13.7861
頞	-13.7861
齔	-13.7862
跕	-13.7862
摉	-13.7864
獧	-13.7864
篁	-13.7865
澎	-13.7866
帔	-13.7866
嘈	-13.7866
曌	-13.7866
趋	-13.7867
鉢	-13.7867
枰	-13.7867
笱	-13.7867
掦	-13.7868
幞	-13.7868
焫	-13.7868
侫	-13.7869
汧	-13.787
鞂	-13.7871
拌	-13.7871
頏	-13.7871
乹	-13.7871
濰	-13.7871
襧	-13.7872
栱	-13.7872
嵎	-13.7872
芙	-13.7874
蓉	-13.7874
儡	-13.7876
党	-13.7879
芚	-13.788
纆	-13.7882
豸	-13.7883
离	-13.8633
鵷	-13.8672
誖	-13.8679
飮	-13.8688
搦	-13.8711
􁊾	-13.8712
樿	-13.8717
撗	-13.8724
騤	-13.8732
㟁	-13.8734
涔	-13.8735
罳	-13.8735
拑	-13.8737
蜍	-13.8737
皺	-13.8737
崒	-13.8738
稾	-13.8739
燉	-13.8741
蒹	-13.8741
薉	-13.8741
跅	-13.8742
筏	-13.8743
嫫	-13.8744
軹	-13.8744
鷗	-13.8744
覜	-13.8745
鍇	-13.8745
𥙿	-13.8746
矞	-13.8746
頁	-13.8747
躒	-13.8747
渰	-13.8747
瑑	-13.8748
尨	-13.8749
輼	-13.8749
藂	-13.875
啣	-13.875
韐	-13.875
惆	-13.8751
脰	-13.8751
犨	-13.8751
粻	-13.8751
頔	-13.8751
怩	-13.8752
頲	-13.8752
撩	-13.8752
抺	-13.8752
澥	-13.8753
媼	-13.8753
駛	-13.8753
埆	-13.8754
觕	-13.8754
嗾	-13.8754
磑	-13.8755
媫	-13.8755
轒	-13.8755
玖	-13.8755
憃	-13.8755
碭	-13.8756
臲	-13.8756
袢	-13.8756
霅	-13.8757
騙	-13.8757
嫺	-13.8757
熺	-13.8757
蒢	-13.8757
􁅅	-13.8757
禚	-13.8757
甖	-13.8758
漯	-13.8758
袡	-13.8759
𣙗	-13.8759
􁊓	-13.876
擂	-13.876
溴	-13.876
瓴	-13.8761
歔	-13.8761
荻	-13.8761
屆	-13.8762
攴	-13.8762
楔	-13.8762
嚥	-13.8763
拷	-13.8763
贇	-13.8763
缸	-13.8764
艇	-13.8764
娀	-13.8764
鮦	-13.8764
磻	-13.8764
窔	-13.8765
沭	-13.8765
煢	-13.8766
齮	-13.8766
韔	-13.8767
蹀	-13.8767
塍	-13.8768
畇	-13.8768
贗	-13.8769
狘	-13.877
鐙	-13.877
襪	-13.877
丰	-13.8771
婭	-13.8772
潺	-13.8772
畊	-13.8773
瑇	-13.8774
裯	-13.8774
睆	-13.8777
醺	-13.8777
沚	-13.8777
䘵	-13.8777
廙	-13.8778
澨	-13.8779
痹	-13.878
瞎	-13.878
幚	-13.878
籓	-13.8782
􁭤	-13.8782
皖	-13.8783
胯	-13.8784
唆	-13.8787
笈	-13.8788
捋	-13.8791
䴡	-13.8791
薤	-13.8794
肵	-13.8799
臑	-13.8802
秆	-13.881
腵	-13.8824
蹞	-13.9698
穋	-13.9703
菆	-13.9706
淈	-13.9707
遫	-13.9709
㚄	-13.9711
僛	-13.9714
忞	-13.9717
辝	-13.9719
滫	-13.9719
嚃	-13.9719
凭	-13.972
椹	-13.9722
鈹	-13.9723
紩	-13.9723
喟	-13.9724
蒨	-13.9725
声	-13.9728
貙	-13.973
蠓	-13.9731
襞	-13.9732
鈃	-13.9732
噂	-13.9734
蒧	-13.9736
梡	-13.9737
鄪	-13.9737
諰	-13.9738
燀	-13.9738
茢	-13.9739
偟	-13.9741
鈕	-13.9742
畞	-13.9744
凰	-13.9744
眙	-13.9744
醻	-13.9745
楩	-13.9745
幦	-13.9746
觔	-13.9747
澦	-13.9747
枇	-13.9747
亰	-13.9749
曙	-13.9749
閈	-13.9749
虙	-13.975
欛	-13.9751
峝	-13.9751
抶	-13.9752
陁	-13.9752
穟	-13.9752
麈	-13.9752
駝	-13.9753
㡇	-13.9753
萼	-13.9753
殼	-13.9753
𠞰	-13.9753
診	-13.9753
耎	-13.9754
穣	-13.9754
甆	-13.9754
鄏	-13.9754
楠	-13.9754
槪	-13.9754
矰	-13.9754
痰	-13.9754
瀋	-13.9754
頍	-13.9755
㔾	-13.9755
搒	-13.9755
蛻	-13.9756
联	-13.9757
慵	-13.9757
禓	-13.9757
喭	-13.9757
廚	-13.9757
鋐	-13.9757
踳	-13.9758
鞹	-13.9758
叵	-13.9758
詼	-13.9759
縿	-13.9759
滷	-13.9759
闉	-13.9759
㥳	-13.976
撡	-13.976
蒭	-13.976
跼	-13.976
淦	-13.976
盌	-13.9761
燋	-13.9761
焯	-13.9761
憙	-13.9762
𠡠	-13.9762
舳	-13.9763
柙	-13.9763
齍	-13.9763
璡	-13.9764
瞋	-13.9764
鞉	-13.9764
穂	-13.9764
筧	-13.9765
㧖	-13.9765
嶼	-13.9765
崏	-13.9765
襮	-13.9765
撈	-13.9765
邅	-13.9765
嬾	-13.9765
躊	-13.9766
晒	-13.9766
獼	-13.9766
曦	-13.9766
胆	-13.9767
騄	-13.9767
翡	-13.9768
旛	-13.9768
䁥	-13.9768
鍋	-13.9768
柿	-13.9768
跎	-13.9768
髧	-13.9769
蜕	-13.9769
鍔	-13.9769
隉	-13.9769
焕	-13.9769
縯	-13.977
灃	-13.977
痁	-13.977
佖	-13.977
櫂	-13.9771
飣	-13.9771
醞	-13.9771
袐	-13.9771
舫	-13.9771
禝	-13.9772
竞	-13.9772
鯢	-13.9772
倛	-13.9772
掯	-13.9772
𢷬	-13.9773
菖	-13.9773
哿	-13.9773
㲄	-13.9774
寀	-13.9775
枿	-13.9775
勰	-13.9775
偵	-13.9775
閌	-13.9776
遛	-13.9776
戣	-13.9776
楬	-13.9776
阬	-13.9776
翽	-13.9776
旹	-13.9777
篠	-13.9777
倓	-13.9777
襘	-13.9778
謎	-13.9778
遝	-13.9779
啚	-13.978
魘	-13.978
墁	-13.9782
鴽	-13.9783
牸	-13.9784
􁈍	-13.9785
靸	-13.9786
埧	-13.9787
幂	-13.9789
餝	-13.9794
嫻	-13.9797
偩	-13.9801
叮	-13.9801
驎	-13.9823
豵	-14.0809
蟨	-14.082
鍥	-14.0824
処	-14.0828
黮	-14.0838
槎	-14.0839
蠛	-14.084
醨	-14.0841
尒	-14.0842
禠	-14.0842
􁌙	-14.0842
檉	-14.0843
黛	-14.0846
喎	-14.0847
絻	-14.0849
瓀	-14.0849
椓	-14.0849
韎	-14.0849
堞	-14.0849
摐	-14.0849
蜎	-14.085
頟	-14.085
綉	-14.0852
庋	-14.0853
菌	-14.0854
驊	-14.0854
䄡	-14.0855
䏂	-14.0855
陻	-14.0856
偬	-14.0856
燂	-14.0856
癭	-14.0857
済	-14.0857
靷	-14.0858
吒	-14.0858
饐	-14.0859
撎	-14.0859
頇	-14.0859
苔	-14.086
倌	-14.086
撏	-14.086
鵙	-14.0861
苒	-14.0861
軿	-14.0862
繂	-14.0862
剜	-14.0862
餫	-14.0863
暹	-14.0863
缻	-14.0863
糯	-14.0863
輮	-14.0863
髲	-14.0864
橧	-14.0865
僄	-14.0865
􁆡	-14.0865
疹	-14.0866
仝	-14.0866
惣	-14.0866
曡	-14.0866
􁇚	-14.0867
𬋩	-14.0868
幇	-14.0869
鬩	-14.0869
飦	-14.0869
𢋫	-14.0869
鴥	-14.0871
鷯	-14.0871
幓	-14.0871
扳	-14.0871
銚	-14.0872
徬	-14.0872
燻	-14.0872
芡	-14.0873
唳	-14.0873
仡	-14.0873
蝶	-14.0874
繶	-14.0874
紖	-14.0875
栅	-14.0875
劼	-14.0875
苧	-14.0875
瑒	-14.0876
娼	-14.0876
裋	-14.0876
躇	-14.0876
楙	-14.0876
䦱	-14.0876
囦	-14.0877
稲	-14.0877
柶	-14.0877
搯	-14.0877
賺	-14.0877
鶖	-14.0877
棃	-14.0877
瓿	-14.0877
笲	-14.0878
襏	-14.0878
襫	-14.0878
翎	-14.0878
枌	-14.0879
藳	-14.0879
芄	-14.0879
𥅆	-14.0879
鄟	-14.088
穄	-14.0881
烘	-14.0882
翥	-14.0882
甗	-14.0883
鮐	-14.0883
嬌	-14.0883
悤	-14.0883
曎	-14.0884
篐	-14.0884
䎒	-14.0884
㙲	-14.0884
鐲	-14.0884
棷	-14.0887
櫺	-14.0887
迢	-14.0887
峒	-14.0887
鏵	-14.0888
眂	-14.0888
庌	-14.0889
舸	-14.0889
殰	-14.089
鞔	-14.089
䟱	-14.089
弨	-14.089
挐	-14.089
喩	-14.089
筝	-14.0891
貅	-14.0892
瑲	-14.0892
蜓	-14.0894
􁀤	-14.0894
邿	-14.0894
盒	-14.0895
萱	-14.0895
徕	-14.0897
蓘	-14.0899
蟆	-14.09
杴	-14.0902
鞾	-14.0903
鞙	-14.0904
􁢗	-14.0905
栲	-14.0907
蓴	-14.0908
腒	-14.0914
嚀	-14.092
歈	-14.2059
訔	-14.2062
气	-14.2062
駣	-14.2063
喓	-14.2063
蹮	-14.2073
䜴	-14.2074
獀	-14.2075
薧	-14.2083
偯	-14.2084
戭	-14.2087
馥	-14.2088
斮	-14.2091
啁	-14.2091
珧	-14.2091
憞	-14.2092
訰	-14.2092
餴	-14.2093
㙮	-14.2093
国	-14.2095
罶	-14.2096
縏	-14.2096
圄	-14.2096
杷	-14.2097
鵩	-14.2098
弤	-14.2098
軷	-14.2098
栘	-14.2098
巉	-14.2099
檣	-14.2099
开	-14.2099
麏	-14.2099
鰲	-14.2101
份	-14.2101
媞	-14.2102
憺	-14.2102
惔	-14.2102
螂	-14.2102
欸	-14.2103
鏹	-14.2103
槥	-14.2104
卼	-14.2104
㶚	-14.2104
蕘	-14.2105
踔	-14.2106
騵	-14.2106
頮	-14.2106
焼	-14.2106
瑝	-14.2106
稈	-14.2108
崘	-14.2108
唄	-14.2109
顢	-14.2109
輀	-14.2109
斍	-14.211
擏	-14.2111
琱	-14.2111
灔	-14.2111
瞠	-14.2111
蚕	-14.2111
訇	-14.2111
鮫	-14.2112
瞹	-14.2112
蜯	-14.2113
儛	-14.2113
嘱	-14.2113
瀏	-14.2113
唶	-14.2113
橙	-14.2113
侲	-14.2114
朧	-14.2114
賸	-14.2115
漪	-14.2115
汋	-14.2115
鶵	-14.2116
鋼	-14.2116
蟇	-14.2117
蟪	-14.2117
臋	-14.2117
毌	-14.2117
玼	-14.2117
帡	-14.2117
朦	-14.2117
膓	-14.2118
虀	-14.2118
噤	-14.2118
棉	-14.2119
洹	-14.2119
箐	-14.2119
匾	-14.2119
痴	-14.2119
饍	-14.2119
幛	-14.2119
綀	-14.212
輗	-14.212
艤	-14.2121
墦	-14.2121
蔗	-14.2121
寠	-14.2121
陥	-14.2121
韃	-14.2121
囓	-14.2121
猩	-14.2122
窋	-14.2122
褧	-14.2122
梠	-14.2122
攟	-14.2123
桺	-14.2123
棕	-14.2123
㲈	-14.2123
糒	-14.2124
􁂋	-14.2124
荗	-14.2125
眥	-14.2125
脞	-14.2125
煜	-14.2125
勔	-14.2125
壕	-14.2125
体	-14.2126
爚	-14.2126
㦛	-14.2126
窹	-14.2126
揍	-14.2126
溆	-14.2127
迯	-14.2127
☷	-14.2127
渗	-14.2127
狶	-14.2128
勠	-14.2128
頀	-14.2128
睍	-14.2128
豋	-14.2129
弣	-14.2129
餁	-14.2129
珵	-14.213
姐	-14.213
瀧	-14.213
瓆	-14.213
衲	-14.213
嶰	-14.2131
圇	-14.2131
泱	-14.2132
悺	-14.2132
陕	-14.2132
纑	-14.2132
艫	-14.2133
㮄	-14.2133
煕	-14.2133
煤	-14.2133
桒	-14.2134
雘	-14.2134
愞	-14.2134
爹	-14.2134
􁁷	-14.2134
褓	-14.2134
衅	-14.2135
丢	-14.2135
䪺	-14.2135
鵑	-14.2135
濺	-14.2136
噱	-14.2136
茭	-14.2136
頫	-14.2136
琖	-14.2136
鐍	-14.2136
莨	-14.2136
棚	-14.2136
勳	-14.2137
彿	-14.2137
䖟	-14.2137
鐻	-14.2138
纇	-14.2138
嵓	-14.2138
鏟	-14.2139
尻	-14.2139
筈	-14.2139
櫕	-14.2139
郃	-14.2139
扭	-14.214
挻	-14.214
餰	-14.214
觷	-14.214
柂	-14.2141
殈	-14.2142
撢	-14.2143
薳	-14.2144
戬	-14.2144
獝	-14.2146
郪	-14.2147
檳	-14.2147
鄅	-14.2147
棨	-14.2149
騈	-14.2149
涣	-14.2149
麪	-14.215
􁂣	-14.215
漦	-14.2151
䘚	-14.2153
鋹	-14.2154
悾	-14.2157
褶	-14.2161
鞟	-14.2162
桁	-14.2162
縭	-14.2166
璲	-14.2167
喤	-14.2172
矗	-14.3471
灊	-14.3484
峛	-14.3495
崺	-14.3496
朌	-14.35
萄	-14.35
仳	-14.3501
匐	-14.3501
鍧	-14.3503
趯	-14.3504
颼	-14.3505
栒	-14.3506
嚍	-14.3506
蒻	-14.3507
窅	-14.3508
嬛	-14.3509
墢	-14.351
鄀	-14.3511
侖	-14.3511
牏	-14.3511
烕	-14.3512
捖	-14.3513
哅	-14.3514
餚	-14.3515
􁀉	-14.3516
廧	-14.3517
郞	-14.3519
慷	-14.3519
袱	-14.3519
蕨	-14.352
慗	-14.3522
帬	-14.3522
􁝠	-14.3522
􁈎	-14.3522
忭	-14.3524
礎	-14.3524
耺	-14.3524
綝	-14.3525
楼	-14.3525
妝	-14.3525
埂	-14.3525
牎	-14.3525
紽	-14.3526
鮌	-14.3526
觹	-14.3527
貆	-14.3528
杰	-14.3529
縋	-14.3529
粺	-14.3529
蟁	-14.353
泜	-14.353
飈	-14.353
愅	-14.3531
幢	-14.3532
胠	-14.3532
欤	-14.3532
鸎	-14.3533
胏	-14.3534
玟	-14.3534
萸	-14.3535
頬	-14.3535
嶂	-14.3536
埭	-14.3537
猊	-14.3537
㓛	-14.3537
軨	-14.3537
撟	-14.3537
朅	-14.3537
荁	-14.3538
鞬	-14.3539
傃	-14.3539
噆	-14.3539
䀨	-14.3539
闓	-14.354
鑕	-14.354
鬠	-14.354
蜻	-14.354
岍	-14.354
蒜	-14.354
蔥	-14.354
靼	-14.354
畹	-14.354
滻	-14.3541
玘	-14.3542
僝	-14.3542
蕾	-14.3543
眕	-14.3543
宷	-14.3543
駃	-14.3543
蹰	-14.3543
簜	-14.3544
棜	-14.3544
灤	-14.3544
鷂	-14.3545
沗	-14.3545
簚	-14.3545
𥜗	-14.3545
襆	-14.3546
笴	-14.3546
洄	-14.3546
藨	-14.3546
睱	-14.3546
檃	-14.3546
譞	-14.3546
☰	-14.3547
鐏	-14.3547
謊	-14.3547
駔	-14.3547
侄	-14.3547
恌	-14.3547
郚	-14.3548
焜	-14.3548
噢	-14.3548
鍚	-14.3548
􁊇	-14.3548
硃	-14.3549
龢	-14.3549
郰	-14.3549
𢾗	-14.3549
凴	-14.3549
玈	-14.3549
綳	-14.3549
隟	-14.355
馹	-14.355
攽	-14.3551
牾	-14.3552
憬	-14.3552
赶	-14.3552
蓷	-14.3552
☵	-14.3553
攵	-14.3553
昷	-14.3553
矚	-14.3553
穜	-14.3553
潬	-14.3554
衊	-14.3554
􁐑	-14.3554
贜	-14.3554
埜	-14.3555
璹	-14.3555
榼	-14.3555
罥	-14.3555
秭	-14.3555
偦	-14.3555
涴	-14.3555
蛬	-14.3555
洑	-14.3556
毨	-14.3556
萁	-14.3557
煨	-14.3557
鏬	-14.3557
檇	-14.3558
磕	-14.3558
祻	-14.3558
籤	-14.3558
遅	-14.3558
髣	-14.3558
䵄	-14.3558
钁	-14.3558
擥	-14.3558
矱	-14.3558
鵜	-14.3559
邛	-14.3559
珈	-14.356
鍬	-14.3561
囫	-14.3561
廌	-14.3561
􁃊	-14.3561
橦	-14.3562
湥	-14.3563
苄	-14.3563
怗	-14.3564
􁐜	-14.3564
髄	-14.3564
嵌	-14.3564
醸	-14.3564
弢	-14.3564
捂	-14.3565
痔	-14.3565
堋	-14.3565
仂	-14.3565
摲	-14.3566
醷	-14.3567
鎌	-14.3567
躪	-14.3567
扮	-14.3567
墖	-14.3567
瘤	-14.3568
坳	-14.3568
蜑	-14.3569
鱷	-14.357
涫	-14.357
昳	-14.357
蝘	-14.357
佈	-14.3571
穧	-14.3571
鑣	-14.3573
㢸	-14.3573
螬	-14.3573
𧺫	-14.3574
􁂮	-14.3575
哄	-14.3576
淰	-14.3577
懘	-14.3577
鍭	-14.3578
黪	-14.3579
勍	-14.3579
抓	-14.3579
惝	-14.358
矙	-14.3582
芊	-14.3583
蔿	-14.3583
鞸	-14.3585
鱐	-14.3587
划	-14.3588
􁁜	-14.3589
癠	-14.3594
缷	-14.3598
菰	-14.3606
眅	-14.362
紜	-14.5036
鴠	-14.5072
轓	-14.5112
怭	-14.5116
驒	-14.5139
潐	-14.5139
陴	-14.5141
誻	-14.5145
肬	-14.515
惎	-14.5153
褖	-14.516
𣏌	-14.516
恈	-14.516
螯	-14.5163
熇	-14.5163
悋	-14.5163
氶	-14.5165
㖧	-14.5166
熛	-14.5167
㳅	-14.5167
葡	-14.5168
煴	-14.5169
鴡	-14.5169
鼫	-14.5173
䔩	-14.5175
䋽	-14.5176
粛	-14.5177
㶁	-14.5178
䩜	-14.5179
餲	-14.5181
泔	-14.5182
櫻	-14.5182
暬	-14.5183
臰	-14.5183
騧	-14.5186
瓞	-14.5186
甡	-14.5187
弸	-14.5189
豗	-14.5189
鐄	-14.5189
觭	-14.5189
軶	-14.519
􁁣	-14.519
悊	-14.519
汊	-14.519
縐	-14.519
􁊋	-14.519
邙	-14.519
絓	-14.519
腄	-14.519
諓	-14.519
鞗	-14.519
酊	-14.5192
酩	-14.5192
耬	-14.5192
傌	-14.5194
𢡟	-14.5194
抆	-14.5194
邐	-14.5195
庬	-14.5195
繖	-14.5195
菉	-14.5195
􁉁	-14.5195
庤	-14.5196
檼	-14.5196
摴	-14.5196
鑱	-14.5196
葽	-14.5197
榴	-14.5197
蠙	-14.5197
菼	-14.5197
韌	-14.5198
隃	-14.5199
疼	-14.52
髕	-14.5201
鼛	-14.5201
髖	-14.5201
裟	-14.5201
孌	-14.5201
罛	-14.5201
𠻳	-14.5202
凷	-14.5202
鼇	-14.5202
楗	-14.5202
謌	-14.5202
淟	-14.5202
蠹	-14.5203
焱	-14.5203
獞	-14.5203
旍	-14.5203
袈	-14.5203
􁁃	-14.5203
舝	-14.5203
䘖	-14.5204
荣	-14.5204
咿	-14.5205
鄋	-14.5205
囉	-14.5205
臉	-14.5205
晅	-14.5206
乜	-14.5206
嵲	-14.5206
顫	-14.5206
娓	-14.5206
瀨	-14.5206
癬	-14.5207
蚯	-14.5207
踟	-14.5207
傜	-14.5207
􁂟	-14.5208
墼	-14.5208
㪍	-14.5209
霶	-14.5209
嗒	-14.521
蚿	-14.521
焠	-14.521
郫	-14.5211
麰	-14.5211
趄	-14.5211
磈	-14.5212
搗	-14.5212
嚻	-14.5212
蕝	-14.5213
蚔	-14.5213
􁗁	-14.5213
渟	-14.5213
郗	-14.5213
愫	-14.5213
鄑	-14.5214
咋	-14.5214
覵	-14.5214
纈	-14.5214
􁃛	-14.5214
稑	-14.5214
芉	-14.5215
駬	-14.5215
☱	-14.5216
瑳	-14.5216
拐	-14.5216
佪	-14.5216
𤱔	-14.5217
嶄	-14.5217
檿	-14.5217
蚪	-14.5217
窿	-14.5217
􁆵	-14.5217
泅	-14.5217
寍	-14.5218
戄	-14.5219
漶	-14.5219
纜	-14.5219
筰	-14.5219
糸	-14.5219
觿	-14.5219
癈	-14.5219
詧	-14.522
碓	-14.522
謲	-14.522
砍	-14.522
茄	-14.5221
厫	-14.5221
痱	-14.5221
肎	-14.5221
膀	-14.5221
朒	-14.5222
鱠	-14.5222
齅	-14.5222
☲	-14.5223
檖	-14.5223
熳	-14.5223
姁	-14.5223
氈	-14.5223
􁂜	-14.5224
懊	-14.5224
撇	-14.5224
皽	-14.5224
鄲	-14.5225
鬨	-14.5225
褉	-14.5225
綪	-14.5226
幗	-14.5226
稯	-14.5226
湲	-14.5228
瘃	-14.5228
佟	-14.5228
禊	-14.5228
郾	-14.5229
綣	-14.5229
珀	-14.5229
㬠	-14.5229
酡	-14.5229
瘵	-14.523
濈	-14.523
爟	-14.5231
廞	-14.5231
􁉼	-14.5231
涥	-14.5232
𥚑	-14.5232
癩	-14.5233
􁐍	-14.5233
𩔖	-14.5234
􁈂	-14.5234
幎	-14.5234
𫐠	-14.5234
泒	-14.5235
踉	-14.5235
冣	-14.5235
齚	-14.5235
硎	-14.5236
逌	-14.5236
􁉭	-14.5236
篪	-14.5236
猳	-14.5237
㳒	-14.5237
麞	-14.5238
荃	-14.5238
萴	-14.5238
豓	-14.5242
鎚	-14.5242
魈	-14.5243
慓	-14.5244
􁆖	-14.5244
㲼	-14.5245
汕	-14.5245
遰	-14.5246
薾	-14.5247
偘	-14.5247
迃	-14.5248
湆	-14.5248
漷	-14.5248
倢	-14.5249
趫	-14.5249
篹	-14.525
翶	-14.525
圳	-14.5251
涬	-14.5252
忣	-14.5252
獬	-14.5253
旊	-14.5256
㪺	-14.5261
穮	-14.5262
栳	-14.5263
耇	-14.5264
灂	-14.5268
夯	-14.5268
稭	-14.5269
臐	-14.5299
膷	-14.5299
䍧	-14.7179
㢠	-14.7211
䖃	-14.7212
䳨	-14.7212
䥥	-14.7215
䌫	-14.7219
㵸	-14.7223
☶	-14.7227
㔻	-14.7227
☳	-14.7229
☴	-14.7229
䔧	-14.723
〇	-14.7232
亁	-14.7234
㒩	-14.7241
㒹	-14.7244
㡛	-14.725
佹	-14.7262
懥	-14.9614
匍	-14.9679
憔	-14.9683
齟	-14.9704
牴	-14.9726
撕	-14.9738
粕	-14.9739
囹	-15.3012
渣	-15.3029
駸	-15.3055
髴	-15.3082
硜	-15.8033
麒	-15.8052
頊	-15.8058
簠	-15.8065
惓	-15.8074
裎	-16.8017
挰	-16.8018
薏	-16.8019
葫	-16.802
苢	-16.8021
砆	-16.8022
厔	-16.8023
頠	-16.8024
詿	-16.8025
擻	-16.8026
袽	-16.8027
漈	-16.8028
痌	-16.8028
滹	-16.8029
咷	-16.803
齦	-16.8031
獗	-16.8032
鵡	-16.8033
瞌	-16.8034
巋	-16.8035
罭	-16.8036
磅	-16.8037
蝃	-16.8038
邂	-16.8039
逅	-16.804
磾	-16.8041
蝀	-16.8042
靂	-16.8043
赳	-16.8044
嘐	-16.8045
侂	-16.8046
呦	-16.8047
蟀	-16.8048
嫄	-16.8049
玁	-16.805
徘	-16.8051
狽	-16.8052
齬	-16.8052
