<unk>	0
<s>	0
</s>	0
之	-4.07245
以	-4.61252
而	-4.88397
為	-4.95945
也	-5.02308
其	-5.02461
於	-5.24656
者	-5.28294
不	-5.28659
有	-5.33584
曰	-5.39925
等	-5.5502
王	-5.58954
至	-5.59537
人	-5.6364
與	-5.70929
則	-5.72709
臣	-5.75398
自	-5.77404
大	-5.78548
無	-5.79335
兵	-5.82433
及	-5.92313
使	-5.93345
一	-5.94829
子	-5.95418
將	-5.96283
/	-5.97645
上	-6.03623
行	-6.05718
在	-6.0847
(	-6.11197
于	-6.12298
所	-6.12929
事	-6.13951
令	-6.16037
公	-6.19033
乃	-6.20135
皆	-6.22281
言	-6.23126
出	-6.23996
今	-6.24233
又	-6.25022
矣	-6.2678
時	-6.27101
已	-6.29315
命	-6.29622
亦	-6.33582
復	-6.34255
州	-6.34567
如	-6.3526
中	-6.37212
知	-6.37239
得	-6.38682
可	-6.38685
此	-6.39268
入	-6.39556
國	-6.39668
三	-6.39752
即	-6.39756
軍	-6.40028
欲	-6.40623
見	-6.41636
故	-6.41824
▁	-6.42667
若	-6.44006
我	-6.44898
道	-6.45843
馬	-6.46189
請	-6.48567
用	-6.50332
城	-6.505
賊	-6.52293
遂	-6.54255
乎	-6.55419
安	-6.55697
必	-6.57226
下	-6.57396
民	-6.59634
相	-6.59877
當	-6.60165
非	-6.62189
)	-6.62722
是	-6.64123
立	-6.65226
從	-6.65737
因	-6.65863
多	-6.66207
生	-6.66243
來	-6.66262
後	-6.66959
歸	-6.66975
成	-6.68535
爾	-6.68573
死	-6.70363
官	-6.7041
天	-6.70443
)(	-6.70623
内	-6.71706
名	-6.71813
君	-6.71939
何	-6.72396
先	-6.72477
聞	-6.73346
帝	-6.74434
二	-6.74448
山	-6.74569
文	-6.74892
明	-6.75094
前	-6.75332
且	-6.76005
李	-6.77389
日	-6.78414
遣	-6.78996
同	-6.79509
/)	-6.7982
張	-6.80571
地	-6.8171
或	-6.81982
陳	-6.8222
既	-6.82223
未	-6.83272
應	-6.83329
取	-6.83722
謂	-6.84012
齊	-6.85216
爲	-6.85976
分	-6.86082
各	-6.86378
守	-6.8678
然	-6.87045
奏	-6.88998
南	-6.89102
衆	-6.89273
四	-6.898
焉	-6.90237
進	-6.9049
徳	-6.92267
不能	-6.92422
正	-6.9331
平	-6.93525
方	-6.937
五	-6.938
西	-6.94299
定	-6.94485
雖	-6.9515
長	-6.95192
吾	-6.96371
往	-6.97566
能	-6.97746
去	-6.97816
書	-6.98124
重	-6.98209
水	-6.98896
師	-7.00332
實	-7.00875
東	-7.01603
殺	-7.01819
攻	-7.02285
發	-7.03218
外	-7.05011
盡	-7.06134
還	-7.06176
武	-7.06595
朕	-7.06852
善	-7.07042
數	-7.07099
議	-7.07319
周	-7.07362
不可	-7.07902
士	-7.08189
諸	-7.09167
北	-7.10232
秦	-7.10821
心	-7.11216
義	-7.1213
信	-7.12136
宜	-7.12342
劉	-7.12399
惟	-7.12825
禮	-7.12885
元	-7.13588
親	-7.14105
通	-7.14365
俱	-7.14432
營	-7.14441
處	-7.14701
克	-7.15088
由	-7.1548
作	-7.15603
居	-7.15674
官兵	-7.16041
謀	-7.16366
過	-7.1696
降	-7.17173
㑹	-7.17992
主	-7.18391
朝	-7.18695
著	-7.19847
門	-7.20199
家	-7.20816
戰	-7.20886
難	-7.20896
據	-7.20967
兩	-7.21176
夫	-7.21254
金	-7.21472
天下	-7.22189
以為	-7.22201
逺	-7.22354
初	-7.22846
失	-7.2301
石	-7.23329
楚	-7.23494
稱	-7.24199
氏	-7.24594
甚	-7.24964
趙	-7.25149
年	-7.25567
加	-7.2557
將軍	-7.2571
食	-7.26142
陽	-7.26198
世	-7.27078
計	-7.27325
小	-7.27531
晉	-7.27669
起	-7.27734
問	-7.27906
興	-7.28226
共	-7.283
思	-7.28555
力	-7.28746
敵	-7.2893
仍	-7.28961
受	-7.29035
始	-7.29171
服	-7.29187
和	-7.29353
圖	-7.30022
将	-7.30085
再	-7.30095
本	-7.30133
留	-7.31848
府	-7.32391
合	-7.32846
固	-7.34158
詔	-7.34501
宗	-7.34525
治	-7.34886
求	-7.35345
舉	-7.35601
伯	-7.35739
尚	-7.36648
河	-7.3718
並	-7.37782
髙	-7.37926
身	-7.39083
任	-7.39135
法	-7.39387
常	-7.39605
經	-7.3963
恐	-7.39828
告	-7.40167
致	-7.40192
報	-7.40336
但	-7.40539
亂	-7.4072
樂	-7.40901
政	-7.4109
六	-7.41203
更	-7.41262
保	-7.41319
少	-7.4168
都	-7.42266
意	-7.42325
封	-7.42343
卒	-7.42497
敗	-7.43171
漢	-7.43331
布	-7.434
易	-7.43993
魏	-7.44203
路	-7.44206
縣	-7.4459
隨	-7.44601
到	-7.44629
交	-7.4474
利	-7.44986
云	-7.45609
功	-7.46078
德	-7.46106
白	-7.46219
奉	-7.46228
深	-7.46288
侯	-7.46764
賜	-7.46872
屬	-7.46926
備	-7.46979
諭	-7.47566
楊	-7.47846
亡	-7.4805
車	-7.48174
海	-7.48402
田	-7.48971
宋	-7.48975
木	-7.49299
特	-7.49414
口	-7.4943
赴	-7.50116
執	-7.50433
益	-7.51375
鄭	-7.51495
反	-7.51526
給	-7.52161
濟	-7.52194
止	-7.52891
凡	-7.545
耳	-7.54584
猶	-7.54632
召	-7.54966
土	-7.55012
回	-7.55042
罪	-7.55073
率	-7.55184
物	-7.55342
伊	-7.55742
夏	-7.55905
兵丁	-7.5602
鎮	-7.56196
辭	-7.56659
建	-7.57207
彼	-7.57449
送	-7.57631
金人	-7.57768
忠	-7.57882
寧	-7.58128
陛下	-7.58927
仁	-7.58949
威	-7.59411
許	-7.59478
坐	-7.59496
係	-7.59802
九	-7.59891
賞	-7.60828
勝	-7.60898
并	-7.60983
辦理	-7.6114
近	-7.6124
光	-7.61627
惡	-7.61687
新	-7.61914
俟	-7.62464
設	-7.62488
司	-7.6273
悉	-7.62736
開	-7.62755
帥	-7.63009
江	-7.63551
退	-7.63589
地方	-7.63738
除	-7.63767
論	-7.64059
而不	-7.64434
拜	-7.64506
原	-7.64536
制	-7.64784
諸侯	-7.65106
收	-7.65819
左	-7.66017
父	-7.66698
不得	-7.66811
百	-7.67138
衛	-7.67148
哉	-7.67505
向	-7.6786
傳	-7.6815
伐	-7.68227
阿	-7.68589
納	-7.69208
獲	-7.69974
置	-7.70229
龍	-7.70492
查	-7.70775
萬	-7.70809
圍	-7.71146
遇	-7.71163
好	-7.7117
神	-7.71557
直	-7.71864
大夫	-7.72023
全	-7.72515
度	-7.73038
右	-7.73198
女	-7.73466
黄	-7.73517
魯	-7.73785
首	-7.73991
梁	-7.74517
解	-7.7479
次	-7.74951
廣	-7.75136
獨	-7.75303
犯	-7.75325
位	-7.76092
朝廷	-7.76738
被	-7.76781
務	-7.76821
望	-7.77053
賢	-7.77491
間	-7.7775
疾	-7.78111
風	-7.78174
節	-7.78302
恩	-7.78335
是以	-7.78434
韓	-7.78554
現在	-7.78648
走	-7.78808
餘	-7.78811
不敢	-7.78935
視	-7.79035
異	-7.79036
理	-7.79435
約	-7.79524
擊	-7.79726
破	-7.79729
卿	-7.79802
舊	-7.80232
權	-7.80738
達	-7.8078
勒	-7.81488
順	-7.81605
於是	-7.81616
聲	-7.81668
願	-7.82048
誅	-7.82102
流	-7.82573
部	-7.8274
越	-7.82744
宣	-7.82846
陵	-7.82924
省	-7.8297
孫	-7.8299
汝	-7.83087
宫	-7.8324
唐	-7.83583
春	-7.83656
觀	-7.83722
就	-7.84154
修	-7.84225
屯	-7.84636
里	-7.84689
貴	-7.8473
承	-7.84869
七	-7.84889
具	-7.85052
語	-7.85135
吳	-7.85725
獻	-7.85743
福	-7.85829
逆	-7.86044
八	-7.86066
太子	-7.8622
清	-7.86396
永	-7.86549
誠	-7.86692
代	-7.86991
敬	-7.87574
動	-7.88061
夜	-7.88064
燕	-7.88148
敢	-7.88598
引	-7.88614
急	-7.88794
聖	-7.89029
叔	-7.89201
變	-7.89267
輕	-7.89483
伏	-7.89549
臨	-7.89722
御	-7.89766
林	-7.89842
嚴	-7.8998
運	-7.90299
老	-7.90351
志	-7.90621
懼	-7.90688
騎	-7.9083
罷	-7.90867
昭	-7.9102
之人	-7.91444
授	-7.91447
華	-7.91521
厚	-7.91828
期	-7.91924
良	-7.92167
存	-7.9224
可以	-7.92336
絶	-7.92351
邊	-7.92663
素	-7.92832
私	-7.92954
前往	-7.93128
色	-7.93336
賊匪	-7.93373
速	-7.93538
氣	-7.93824
足	-7.93891
怒	-7.93891
比	-7.94108
派	-7.94117
等語	-7.94119
終	-7.94289
帶	-7.94363
不知	-7.94587
察	-7.94782
勢	-7.95089
教	-7.95629
天子	-7.95651
糧	-7.95987
火	-7.96116
追	-7.96207
月	-7.96349
延	-7.9648
改	-7.96703
祖	-7.96864
所以	-7.96956
兼	-7.97048
移	-7.97076
載	-7.97304
臺	-7.97449
滅	-7.97456
勿	-7.97483
棄	-7.97751
刑	-7.98446
徐	-7.98479
孝	-7.98741
古	-7.9877
十	-7.98848
朱	-7.99157
莫	-7.99243
疑	-7.9999
噶爾丹	-8.00031
伊等	-8.00113
商	-8.00323
憂	-8.00431
章	-8.00451
撫	-8.0046
大臣	-8.00697
慶	-8.00773
領	-8.00827
玉	-8.00828
大兵	-8.01058
免	-8.01066
巴	-8.01302
集	-8.01456
連	-8.01727
景	-8.01742
久	-8.01823
乞	-8.02201
豈	-8.02271
闗	-8.02374
調	-8.02491
等處	-8.02593
養	-8.02838
郡	-8.02935
史	-8.03454
盛	-8.03629
職	-8.03685
極	-8.0369
遣使	-8.03946
衣	-8.04
業	-8.04312
叛	-8.04463
胡	-8.04499
甲	-8.05032
慮	-8.0512
害	-8.05409
要	-8.05612
號	-8.05681
太	-8.05941
仲	-8.06077
散	-8.0608
登	-8.06267
别	-8.06344
繼	-8.0645
救	-8.06664
乗	-8.06937
顧	-8.06955
説	-8.07034
聽	-8.07236
對曰	-8.07317
怨	-8.07571
蘇	-8.07762
傷	-8.07817
情	-8.0801
左右	-8.08685
奔	-8.08987
夷	-8.09002
勞	-8.09026
便	-8.09182
之事	-8.09658
唯	-8.10158
結	-8.10239
手	-8.10631
嘉	-8.10674
迎	-8.10839
盟	-8.10961
化	-8.1111
斬	-8.11307
廢	-8.11571
待	-8.11652
頭	-8.11814
督	-8.12082
適	-8.12377
嘗	-8.1251
果	-8.12644
三月	-8.12772
昌	-8.12982
勇	-8.13127
弗	-8.13358
京	-8.13662
申	-8.13812
愛	-8.14042
邪	-8.14065
尊	-8.14237
嵗	-8.14646
曹	-8.14677
吏	-8.14976
選	-8.15292
禁	-8.15357
補	-8.15819
乘	-8.15959
予	-8.15966
母	-8.16059
畏	-8.16125
呉	-8.16189
喜	-8.165
徒	-8.16516
對	-8.16524
祭	-8.16773
泰	-8.16779
冬	-8.17212
每	-8.1728
候	-8.17312
離	-8.17461
幸	-8.17741
皇	-8.17807
念	-8.17829
斯	-8.17861
抵	-8.17988
隂	-8.18097
學	-8.18146
銀	-8.18179
差	-8.18198
之地	-8.18439
遺	-8.18732
遷	-8.19228
吉	-8.19652
后	-8.20006
容	-8.20025
羅	-8.20105
秋	-8.20129
逃	-8.20168
川	-8.20232
邑	-8.20254
列	-8.20697
均	-8.20824
如此	-8.20993
澤	-8.20994
室	-8.21124
馬匹	-8.21253
轉	-8.2146
討	-8.21518
懐	-8.2153
侵	-8.21679
米	-8.21735
三年	-8.21806
襲	-8.22064
爵	-8.22199
須	-8.22258
謂之	-8.22267
病	-8.22335
弟	-8.22673
大將軍	-8.22692
雲	-8.22869
君子	-8.22904
積	-8.22993
崇	-8.23166
稍	-8.23239
危	-8.23376
蜀	-8.23427
船	-8.23841
塞	-8.23865
公子	-8.23922
專	-8.24089
何以	-8.24114
弱	-8.24163
飛	-8.24299
委	-8.24364
富	-8.24594
造	-8.24833
郭	-8.24835
錢	-8.24881
聞之	-8.25018
廟	-8.25319
奪	-8.25376
射	-8.25442
責	-8.2558
端	-8.25929
施	-8.25983
百姓	-8.26279
彊	-8.2636
賔	-8.26385
斷	-8.26522
照	-8.26759
草	-8.26877
附	-8.26916
聚	-8.26935
喀爾喀	-8.27154
牛	-8.2731
指	-8.27372
軍營	-8.27476
戎	-8.27917
隆	-8.28148
密	-8.28183
卜	-8.28185
持	-8.28407
宻	-8.28484
高	-8.28616
殿	-8.28644
負	-8.28708
竟	-8.28738
說	-8.28834
虎	-8.28958
羣	-8.29191
賊人	-8.29239
顯	-8.29252
患	-8.29258
一人	-8.2932
接	-8.2957
呼	-8.29621
推	-8.29678
目	-8.29834
防	-8.30126
征	-8.30414
囘	-8.30421
節度使	-8.3057
謝	-8.30634
藏	-8.30709
監	-8.30863
太后	-8.31016
紀	-8.31372
馳	-8.31406
喪	-8.31585
青	-8.31659
恭	-8.31921
兮	-8.31936
美	-8.32109
曰吾	-8.32375
不足	-8.32431
禍	-8.32594
示	-8.3268
該	-8.32709
輔	-8.328
充	-8.32939
州刺史	-8.3299
體	-8.33015
来	-8.33079
榮	-8.33253
情形	-8.3355
爭	-8.33674
堅	-8.33993
勸	-8.34084
沙	-8.3411
會	-8.3432
振	-8.34449
辦	-8.34536
二月	-8.34782
嗣	-8.34814
蔡	-8.3507
關	-8.35305
烏	-8.35438
器	-8.35643
格	-8.35879
表	-8.359
野	-8.36037
奏言	-8.36163
鄉	-8.36386
庫	-8.36615
援	-8.36719
穆	-8.36822
旗	-8.36864
寳	-8.37013
役	-8.37175
額	-8.37408
台吉	-8.37643
知之	-8.37655
之兵	-8.37807
彦	-8.3785
哈	-8.37856
畢	-8.37956
殺之	-8.38124
屢	-8.38162
之後	-8.38491
孟	-8.3866
庶	-8.39057
丘	-8.39335
駐	-8.39376
使人	-8.39493
九月	-8.39528
資	-8.39719
之所	-8.39817
厄魯特	-8.40018
統	-8.40218
市	-8.40522
戒	-8.40995
投	-8.41012
强	-8.41098
然後	-8.41104
詣	-8.41187
擒	-8.41239
季	-8.41409
諸將	-8.41427
二人	-8.41445
皇帝	-8.4163
智	-8.4188
殷	-8.4191
面	-8.4217
康	-8.42379
撥	-8.42475
駐劄	-8.42514
索	-8.42718
費	-8.42787
客	-8.43054
升	-8.4312
酒	-8.43221
管	-8.43523
孤	-8.43678
儀	-8.43741
之處	-8.43782
毋	-8.43809
者也	-8.43989
不過	-8.4411
助	-8.44121
員	-8.44137
險	-8.44148
窮	-8.44215
咸	-8.44389
温	-8.44961
豫	-8.45403
冦	-8.4554
虞	-8.45579
䇿	-8.457
謹	-8.45763
習	-8.45842
折	-8.4585
依	-8.45932
陷	-8.45992
第	-8.4603
支	-8.46058
境	-8.46062
早	-8.46161
偽	-8.46162
舟	-8.46344
從之	-8.46376
尋	-8.46498
臣等	-8.46868
星	-8.46948
所有	-8.46974
舍	-8.47026
游牧	-8.47305
維	-8.47444
鼓	-8.47459
令其	-8.47561
逐	-8.47575
六月	-8.48242
曽	-8.48345
疏	-8.48399
丁	-8.48559
無所	-8.49068
羣臣	-8.49244
竊	-8.49245
息	-8.4926
副都統	-8.49343
按	-8.49377
趨	-8.49617
昔	-8.499
司馬	-8.50142
之時	-8.50325
况	-8.50431
縱	-8.50489
國家	-8.50518
徃	-8.50588
宿	-8.50659
元年	-8.5067
千	-8.50685
工	-8.50742
渡	-8.50893
性	-8.51229
才	-8.51522
十二月	-8.51765
五月	-8.51842
戍	-8.51898
以來	-8.51906
揚	-8.51964
博	-8.52078
八月	-8.52204
黨	-8.52243
似	-8.52486
薄	-8.52503
總	-8.52668
署	-8.52687
現	-8.52687
違	-8.52861
記	-8.53009
爾等	-8.53014
契丹	-8.53083
杜	-8.53117
苦	-8.53249
形	-8.53367
皇上	-8.53494
供	-8.53549
真	-8.53788
先是	-8.53859
廷	-8.53906
郎	-8.53921
簡	-8.53921
招	-8.54033
尤	-8.54046
寨	-8.54113
至是	-8.54186
朔	-8.54261
英	-8.54727
雄	-8.54968
典	-8.5557
象	-8.55581
妻	-8.55601
例	-8.55794
二年	-8.55881
放	-8.55968
駕	-8.5611
休	-8.56118
賦	-8.56242
京師	-8.56503
祀	-8.56543
進兵	-8.56842
飲	-8.57024
微	-8.57072
魚	-8.57337
衞	-8.57357
決	-8.57538
不如	-8.5775
羊	-8.58097
覆	-8.58387
仰	-8.5855
尚書	-8.58743
具奏	-8.58765
雨	-8.5878
靈	-8.5899
豐	-8.59048
户	-8.59355
臺灣	-8.59359
財	-8.59886
滿	-8.59923
哀	-8.60001
審	-8.60085
困	-8.60208
而後	-8.60274
累	-8.60405
也今	-8.60519
潰	-8.60556
之意	-8.60674
避	-8.60856
虚	-8.61052
頗	-8.61187
福康安	-8.61243
為之	-8.61438
㫖	-8.61449
淵	-8.61451
蕭	-8.61481
類	-8.61491
考	-8.61501
淮	-8.61532
衰	-8.61597
從前	-8.61653
族	-8.61724
(○	-8.62099
音	-8.62263
䝉	-8.62348
兹	-8.624
籍	-8.62494
殊	-8.6264
量	-8.62865
遣人	-8.62911
哈薩克	-8.63143
孔	-8.63348
竒	-8.63381
讓	-8.63514
起程	-8.63715
庭	-8.63722
貪	-8.63735
亮	-8.63757
掠	-8.63764
俾	-8.64002
惠	-8.64117
賀	-8.6416
訓	-8.64405
精	-8.64413
徙	-8.64656
之心	-8.64741
曲	-8.64896
余	-8.64936
曾	-8.65199
字	-8.65247
闕	-8.65264
詳	-8.65503
尸	-8.65545
寛	-8.65682
而已	-8.65757
幾	-8.66014
遵	-8.66038
釋	-8.66059
略	-8.66226
寶	-8.66428
機	-8.6661
兒	-8.66622
垂	-8.66751
上諭	-8.67092
十一月	-8.67256
寵	-8.67393
質	-8.67587
己	-8.67708
河南	-8.6783
程	-8.67954
覺	-8.68041
酌量	-8.68119
慎	-8.68262
至於	-8.68297
姑	-8.68375
天下之	-8.68578
假	-8.68629
侍衛	-8.6864
逹	-8.68652
沈	-8.68781
刻	-8.68785
茍	-8.68815
吕	-8.69034
辟	-8.69102
空	-8.69114
允	-8.69171
邦	-8.69299
内地	-8.69417
愈	-8.69431
總兵	-8.69577
副	-8.69605
郊	-8.69649
掌	-8.69764
之子	-8.69872
緩	-8.69919
橋	-8.69923
漸	-8.70293
事宜	-8.70585
辱	-8.70597
佐	-8.70793
尹	-8.70972
夏四月	-8.71269
之言	-8.71303
伊犂	-8.71334
項	-8.71397
厥	-8.71471
兄弟	-8.71575
友	-8.71659
乆	-8.71799
虜	-8.71823
提	-8.71887
禄	-8.71898
堂	-8.7203
愚	-8.72228
參	-8.72309
阿睦爾撒納	-8.72357
夫人	-8.72419
領兵	-8.72508
徴	-8.72515
背	-8.72657
築	-8.72758
錫	-8.72768
懷	-8.72782
前進	-8.7279
阻	-8.72834
効力	-8.72868
丹	-8.72892
諸軍	-8.73123
冬十月	-8.73212
主人	-8.73583
不必	-8.73625
提督	-8.73904
葬	-8.73927
遽	-8.73967
忽	-8.73982
操	-8.74026
庸	-8.7408
農	-8.74222
孔子	-8.74242
擇	-8.74331
蠻	-8.74337
今日	-8.74409
震	-8.74424
軍前	-8.74484
賈	-8.74553
横	-8.74592
靖	-8.74592
耶	-8.74729
鼎	-8.74846
牧	-8.75177
毎	-8.75405
巴里坤	-8.75564
誰	-8.75578
不從	-8.75623
半	-8.75659
决	-8.75679
雅	-8.75703
哭	-8.75723
恃	-8.75814
姓	-8.76077
獄	-8.76101
此時	-8.76173
酌	-8.76399
逸	-8.76471
盧	-8.76634
暴	-8.76656
増	-8.76659
洪	-8.76806
倫	-8.76842
谷	-8.77028
傅	-8.77149
城中	-8.77255
桓	-8.77273
人之	-8.77336
将軍	-8.77364
一日	-8.77392
與之	-8.77501
干	-8.77514
奏稱	-8.77746
諫	-8.779
用兵	-8.77905
擬	-8.77907
僅	-8.77969
切	-8.78002
士卒	-8.78022
妄	-8.7809
中國	-8.78483
其所	-8.78647
太守	-8.78739
席	-8.78826
詩	-8.7899
正月	-8.79025
效	-8.79231
薦	-8.79343
什	-8.79571
他	-8.79582
預	-8.79671
肆	-8.79696
種	-8.79719
肅	-8.79745
即位	-8.79829
子曰	-8.79972
房	-8.80176
革	-8.80267
寒	-8.80379
姦	-8.80538
紹	-8.80581
兄	-8.80636
准	-8.80667
衡	-8.80672
拔	-8.80962
常青	-8.80985
前來	-8.81083
賊衆	-8.8111
䕶	-8.81142
拉	-8.81293
翼	-8.81318
寡人	-8.81464
上諭軍機大臣曰	-8.81737
侍	-8.81853
屈	-8.8191
咨	-8.81994
秋七月	-8.8204
雍	-8.82055
也故	-8.82074
赤	-8.82513
其餘	-8.82648
夀	-8.82663
隊	-8.82679
雜	-8.8297
口糧	-8.83013
春秋	-8.83068
符	-8.83145
奸	-8.83377
將士	-8.83477
禹	-8.83623
所謂	-8.83645
借	-8.83761
卷	-8.83836
莊	-8.83872
檄	-8.84047
之間	-8.84174
社稷	-8.84231
識	-8.84236
榖	-8.84348
逆賊	-8.84386
由是	-8.84472
焚	-8.84599
國之	-8.84636
使者	-8.85058
感	-8.85071
戴	-8.85176
范	-8.85189
喇	-8.85224
總督	-8.85239
冀	-8.85248
勤	-8.85383
李侍堯	-8.85385
引兵	-8.85555
飭	-8.85653
介	-8.85671
即行	-8.85723
不及	-8.85742
需	-8.86259
蘭	-8.86419
災	-8.86419
湯	-8.86496
潛	-8.86612
荆	-8.86684
詐	-8.86749
憲	-8.86771
匹	-8.86812
䘚	-8.8692
陸	-8.87001
享	-8.87181
歌	-8.87275
都督	-8.87292
奚	-8.87388
刀	-8.8755
番	-8.87624
冠	-8.87634
乾	-8.87655
玄	-8.87848
孰	-8.87955
某	-8.88321
閒	-8.88388
班	-8.8843
而無	-8.88454
此次	-8.88477
一切	-8.88491
印	-8.88585
優	-8.88619
壯	-8.887
君之	-8.88822
逼	-8.88855
人等	-8.88883
勲	-8.89111
歡	-8.89128
二十	-8.89152
併	-8.89163
遲	-8.89344
貢	-8.89372
付	-8.89704
帶領	-8.89741
五十	-8.89745
其子	-8.89951
是日	-8.90169
䝉古	-8.90192
帶兵	-8.90285
驕	-8.90366
忌	-8.90424
賞給	-8.90489
缺	-8.90569
畧	-8.90654
驚	-8.90727
赦	-8.90799
遁	-8.91149
戮	-8.91199
策	-8.91318
僕	-8.91327
宰	-8.91449
倉	-8.91502
弓	-8.91656
究	-8.91878
準噶爾	-8.91941
舒	-8.92086
探	-8.92139
熟	-8.92305
希	-8.92312
幣	-8.92417
飾	-8.925
嶺	-8.92523
部落	-8.92591
毁	-8.9267
甘	-8.92688
驅	-8.92744
寺	-8.93033
蓋	-8.93062
矢	-8.93079
足以	-8.9311
侍郎	-8.93117
遼	-8.93213
許之	-8.93253
否	-8.93415
貞	-8.93469
四方	-8.93537
未有	-8.93594
單	-8.93629
顔	-8.93762
該處	-8.93823
奮	-8.93859
弘	-8.93957
都統	-8.94018
狀	-8.94077
陜西	-8.94177
協	-8.94255
欽	-8.94344
術	-8.94361
不為	-8.94434
角	-8.94623
界	-8.94739
塔	-8.94808
一帶	-8.94825
樓	-8.95021
而去	-8.95047
茂	-8.95076
誤	-8.9508
鳥	-8.95141
游	-8.95369
寇	-8.95391
葢	-8.9542
行走	-8.9542
西安	-8.95547
争	-8.95568
知其	-8.95608
聖人	-8.95618
倍	-8.95691
樹	-8.95837
鳴	-8.96048
毛	-8.96125
天地	-8.96133
柱	-8.96212
所奏	-8.9627
百官	-8.96304
淫	-8.96319
屯田	-8.96565
加恩	-8.96657
崔	-8.96738
如何	-8.96857
餉	-8.96874
貫	-8.96877
却	-8.96913
訪	-8.96924
死者	-8.96983
寡	-8.97117
俊	-8.97129
溝	-8.9724
董	-8.97279
四年	-8.97283
律	-8.97383
河北	-8.9746
犇	-8.97485
擊之	-8.97513
損	-8.97517
柴大紀	-8.97778
擾	-8.97831
試	-8.97852
軍中	-8.98072
科	-8.98079
公孫	-8.98147
泉	-8.98561
上下	-8.98706
敏	-8.98764
誓	-8.9878
住	-8.98805
不許	-8.98832
續	-8.98871
文武	-8.98992
秀	-8.99079
回人	-8.99159
遊	-8.99247
津	-8.99301
○	-8.9939
循	-8.9943
裕	-8.99534
忘	-8.99569
頃	-8.9958
落	-8.9959
之道	-8.99613
較	-8.99734
驛	-8.99735
者皆	-8.99823
尚未	-9.00053
查明	-9.00277
笑	-9.00332
也夫	-9.00481
步	-9.00601
捕	-9.00616
詞	-9.00803
慈	-9.00828
桑	-9.00874
將兵	-9.00962
超	-9.00968
賴	-9.01022
之罪	-9.0109
邉	-9.01233
誘	-9.01386
婦	-9.01402
悔	-9.01413
必有	-9.01538
御史	-9.01585
其後	-9.01635
扵	-9.01774
舜	-9.02006
荒	-9.02094
曰我	-9.02132
大王	-9.02204
馮	-9.02219
牙	-9.02277
占	-9.02289
事務	-9.02404
祝	-9.02416
之士	-9.02503
惑	-9.02574
趣	-9.02719
我兵	-9.02984
卑	-9.03061
吴	-9.0323
徑	-9.03333
拒	-9.03389
奏聞	-9.03421
幽	-9.03479
葉	-9.03526
完	-9.03681
案	-9.03861
三日	-9.03959
傳諭	-9.04072
洛	-9.04137
價	-9.04149
曰此	-9.04208
壘	-9.04342
竄	-9.04544
鄧	-9.047
貝勒	-9.05047
伍	-9.05304
材	-9.05329
割	-9.05465
畫	-9.05514
辨	-9.05581
泣	-9.05589
十二	-9.05617
序	-9.05624
殘	-9.05626
有司	-9.05642
河東	-9.05667
盜	-9.05676
最	-9.05679
桓公	-9.05693
奮勇	-9.05703
之計	-9.05797
三十	-9.0584
歩	-9.05858
鄂	-9.05957
刺	-9.05969
衝	-9.05993
羽	-9.06023
西路	-9.06039
弼	-9.0604
人心	-9.06153
湖	-9.06428
䧟	-9.06447
寜	-9.06498
奏請	-9.06598
彭	-9.06713
凶	-9.06763
藩	-9.06955
耕	-9.07012
宴	-9.07018
踰	-9.07051
妾	-9.07066
以示	-9.07105
恨	-9.07135
大學士	-9.07145
買	-9.07249
亟	-9.07258
陸續	-9.07338
辰	-9.07401
州縣	-9.0744
旦	-9.07583
匪	-9.07602
三千	-9.07602
彌	-9.07668
宰相	-9.07734
啓	-9.078
儒	-9.07911
防守	-9.07996
人也	-9.08138
有所	-9.08252
咎	-9.08322
聴	-9.08389
靡	-9.08568
官軍	-9.08687
諸羅	-9.08734
辦事	-9.08798
賂	-9.08805
弊	-9.08821
勅	-9.08872
倘	-9.08894
徵	-9.08935
十月	-9.09232
薛	-9.09257
厯	-9.09268
一路	-9.09388
襄	-9.09412
閣	-9.09426
齊侯	-9.09506
太原	-9.09541
以致	-9.09568
昨	-9.09616
罰	-9.0968
堯	-9.09723
痛	-9.09743
一面	-9.09941
露	-9.10063
藉	-9.10163
薩	-9.10215
陣	-9.10356
基	-9.10416
擒獲	-9.10562
姬	-9.10564
夢	-9.10648
父母	-9.10729
輿	-9.10738
竹	-9.10786
禦	-9.108
整	-9.10874
山東	-9.10892
暫	-9.10999
厲	-9.11065
斬之	-9.11075
池	-9.11077
王曰	-9.11121
末	-9.11122
撃	-9.11167
太祖	-9.11193
其衆	-9.11305
史記	-9.1142
浚	-9.11457
五年	-9.11514
㑹同	-9.11576
細	-9.11581
丞相	-9.11706
勦	-9.11784
小人	-9.11802
恥	-9.11858
臺站	-9.11879
隠	-9.12087
敦	-9.12241
周公	-9.12373
綱	-9.12394
奏入報聞	-9.12422
疆	-9.12453
崩	-9.12538
剛	-9.12584
四月	-9.12638
汗	-9.12709
邀	-9.12724
匿	-9.12744
捷	-9.12747
撤	-9.12758
進𠞰	-9.12861
貳	-9.12974
無不	-9.13065
穀	-9.13069
雪	-9.13115
専	-9.13145
巡撫	-9.13199
俗	-9.13363
抑	-9.13377
發兵	-9.13411
巡	-9.13435
籌	-9.13454
四川	-9.13495
不勝	-9.13547
上曰	-9.1357
掩	-9.13574
姚	-9.136
公曰	-9.13608
乏	-9.13609
所屬	-9.1362
憤	-9.13716
謙	-9.13788
浮	-9.13851
沒	-9.13865
注	-9.13871
社	-9.13937
貨	-9.14017
寢	-9.14033
減	-9.14106
盗	-9.14257
一千	-9.14407
壽	-9.14517
粟	-9.14602
未嘗	-9.14629
恤	-9.14646
文王	-9.14699
十年	-9.14702
歲	-9.14714
血	-9.14792
竭	-9.14818
子孫	-9.1486
增	-9.1494
莽	-9.15073
吐蕃	-9.15102
歴	-9.15294
岳	-9.1533
未能	-9.15373
而還	-9.15532
珍	-9.15597
副將	-9.15723
有餘	-9.15741
擅	-9.15785
二百	-9.1587
渠	-9.15896
蔽	-9.15945
聼	-9.16063
伯克	-9.16069
之日	-9.16083
四十	-9.16102
昏	-9.16153
詢	-9.16301
宰桑	-9.16328
晉侯	-9.16351
正法	-9.16407
三百	-9.16482
訊	-9.1649
不可以	-9.16619
稽	-9.16621
畜	-9.167
囚	-9.16759
偏	-9.16775
胥	-9.16796
嵩	-9.16839
環	-9.16892
不然	-9.16894
官員	-9.17015
瑪	-9.17017
突厥	-9.17123
盖	-9.17137
以下	-9.17206
不肯	-9.17245
長安	-9.17359
繫	-9.17367
規	-9.17428
阿桂	-9.17453
旁	-9.17498
鍾	-9.17616
雲南	-9.17651
其言	-9.17717
烈	-9.17727
畨	-9.17795
托	-9.17869
有功	-9.18045
輒	-9.18259
條	-9.1827
以此	-9.18423
井	-9.18465
大軍	-9.18699
録	-9.18721
仇	-9.18727
猛	-9.1875
以待	-9.18814
狄	-9.18855
京城	-9.18995
履	-9.19064
内外	-9.1915
源	-9.19184
啟	-9.19213
旋	-9.19213
之故	-9.19226
貶	-9.19403
總兵官	-9.19445
祥	-9.19454
道路	-9.19478
奈何	-9.19523
戚	-9.19594
距	-9.19635
妃	-9.1966
尾	-9.19775
肉	-9.19957
霸	-9.20085
而行	-9.20199
欽定四庫全書	-9.20236
縁	-9.20246
賤	-9.20314
純	-9.20323
至于	-9.20368
隻	-9.20419
前鋒	-9.20518
中外	-9.20552
之功	-9.20561
卡倫	-9.20662
斃	-9.20765
不復	-9.20805
謁	-9.20829
十萬	-9.20853
忍	-9.20878
敕	-9.20923
斗	-9.20932
之衆	-9.21011
編	-9.21149
級	-9.21171
述	-9.21183
宮	-9.21244
堪	-9.2132
尺	-9.21336
堡	-9.21467
校	-9.21541
皇后	-9.21673
姜	-9.21698
亦不	-9.21835
秦王	-9.21854
上言	-9.21958
武王	-9.21982
根	-9.22016
裁	-9.22095
階	-9.22128
導	-9.22212
喇嘛	-9.22324
削	-9.22342
貿易	-9.22352
是時	-9.22455
義民	-9.22544
二千	-9.22585
指揮	-9.22689
松	-9.22989
盤	-9.23038
用之	-9.23317
進攻	-9.23386
父子	-9.23425
従	-9.23426
入城	-9.23659
弑	-9.23783
恒	-9.23785
逮	-9.23791
七十	-9.23825
札	-9.24057
於此	-9.2413
遠	-9.24167
歳	-9.24294
鄙	-9.24332
輸	-9.24381
託	-9.24483
率兵	-9.24617
前後	-9.24649
藥	-9.24704
練	-9.2479
屋	-9.24843
城下	-9.24907
拘	-9.24964
劒	-9.25047
戸	-9.2506
以備	-9.25241
截	-9.25305
站	-9.2536
寸	-9.25482
辛	-9.25494
館	-9.25536
普	-9.25612
皮	-9.25681
確	-9.25689
何也	-9.25747
閩	-9.25781
采	-9.25935
莫不	-9.25936
料	-9.25956
以爲	-9.25989
旅	-9.26116
我等	-9.26174
饑	-9.26219
妻子	-9.26283
眀	-9.2631
沿途	-9.26325
惜	-9.26431
江南	-9.26496
守備	-9.26518
兵力	-9.26519
𠞰	-9.2669
言之	-9.26861
曰今	-9.26867
羌	-9.26929
所在	-9.26978
限	-9.27014
孔子曰	-9.27034
扎薩克	-9.27042
臧	-9.27075
七年	-9.2728
擢	-9.2741
分兵	-9.27476
貧	-9.27734
柔	-9.27806
韋	-9.27806
配	-9.27853
曉諭	-9.27905
丕	-9.27966
舎	-9.28121
著傳諭	-9.28138
甫	-9.28146
𤣥	-9.28338
壁	-9.28432
不聽	-9.28507
燒	-9.28509
狐	-9.28553
閲	-9.28642
繁	-9.28957
卡	-9.29077
烏魯木齊	-9.29232
不可不	-9.29342
明日	-9.29378
不用	-9.29391
欺	-9.2941
軍務	-9.29738
寄	-9.29784
冒	-9.29814
萬物	-9.29838
兆惠	-9.29888
江西	-9.29958
以其	-9.29963
不至	-9.29995
赫	-9.30044
中原	-9.30062
數萬	-9.30067
傾	-9.30142
辯	-9.30158
來京	-9.30176
大敗	-9.30219
院	-9.30296
成都	-9.30335
黒	-9.30375
圗	-9.30388
短	-9.3039
袁	-9.30572
並無	-9.30649
也其	-9.30672
仗	-9.30897
君臣	-9.30958
贊	-9.31045
扎	-9.31059
其罪	-9.31071
一員	-9.31237
奏報	-9.3124
添	-9.31333
數千	-9.31336
隱	-9.31429
産	-9.31454
萬人	-9.31455
其事	-9.31464
恵	-9.31491
洗	-9.31671
舞	-9.31714
大事	-9.31732
衍	-9.31742
八年	-9.31793
糧餉	-9.31869
蒲	-9.31929
収	-9.32357
講	-9.32391
千里	-9.32404
募	-9.32491
杖	-9.325
不忍	-9.32713
擁	-9.32808
既而	-9.32827
閉	-9.3286
躬	-9.32863
單于	-9.32906
不見	-9.32907
不若	-9.32918
可汗	-9.33084
來降	-9.33086
誣	-9.33236
岸	-9.33292
㨗	-9.33338
匈奴	-9.33359
男	-9.33377
北路	-9.334
諾	-9.33402
往來	-9.33425
言於	-9.33445
人皆	-9.33562
側	-9.33624
溪	-9.33799
覽	-9.33805
巢	-9.33832
七月	-9.33866
六十	-9.33914
盈	-9.33992
再行	-9.3407
曰君	-9.34079
灋	-9.34093
雷	-9.34135
寧夏	-9.34139
僧	-9.3417
途	-9.34196
甚多	-9.34455
自應	-9.34561
眷	-9.34651
楚子	-9.3469
尚有	-9.34766
珠	-9.34917
居住	-9.3496
釁	-9.34969
静	-9.3504
幹	-9.35112
一時	-9.35136
拏獲	-9.35138
兩路	-9.35144
翟	-9.35155
不與	-9.35177
宇	-9.35241
頓	-9.3538
兆	-9.35404
成功	-9.3541
總管	-9.35525
之際	-9.35713
傑	-9.35723
脱	-9.35795
殆	-9.35948
三人	-9.35995
而死	-9.36181
尼堪	-9.36182
懸	-9.36299
秉	-9.36324
倚	-9.36347
鹿	-9.36352
潜	-9.36546
雖有	-9.36567
深入	-9.36586
煩	-9.36617
數日	-9.36644
書曰	-9.36664
不出	-9.36717
阿克蘇	-9.36792
晏	-9.36815
軍士	-9.36856
突	-9.36919
懿	-9.36927
解送	-9.37001
五百	-9.37017
打仗	-9.37058
攸	-9.37316
徽	-9.3732
駐防	-9.37324
不以	-9.37592
不免	-9.37656
罕	-9.37806
骨	-9.37859
幼	-9.37951
屠	-9.38038
嬰	-9.38231
淮南	-9.38339
噶	-9.38375
聘	-9.38468
斥	-9.38495
頒	-9.38609
岱	-9.38611
鄴	-9.38718
脩	-9.38753
打	-9.38765
鎭	-9.38867
閔	-9.38925
亦有	-9.38955
莒	-9.39081
六年	-9.39112
不行	-9.39188
之民	-9.39221
林爽文	-9.39316
洋	-9.3933
輩	-9.39356
俘	-9.39397
詩曰	-9.39487
奮勉	-9.39538
陶	-9.39685
丈	-9.39718
將來	-9.39798
綏	-9.39814
鹽	-9.39815
班第	-9.3983
一百	-9.39994
迅速	-9.40016
四千	-9.40054
五千	-9.40194
㡬	-9.40242
鄰	-9.40257
黎	-9.40259
殺賊	-9.40301
儲	-9.40314
騰	-9.40372
各處	-9.40404
一體	-9.40431
鋭	-9.40449
憚	-9.4047
哈密	-9.405
十五	-9.40521
親王	-9.40529
疲	-9.40596
豈可	-9.40632
亦可	-9.40677
諌	-9.40745
之禮	-9.40788
元帥	-9.40858
滿洲	-9.40907
附近	-9.40928
龜	-9.4093
随	-9.40932
可謂	-9.40943
分别	-9.41004
如是	-9.41121
齒	-9.41272
鳯	-9.41391
只	-9.41448
不相	-9.41679
況	-9.41729
萬餘	-9.41739
燕王	-9.41764
答	-9.41936
瑞	-9.42181
調遣	-9.42187
式	-9.422
另	-9.42277
之役	-9.42316
建康	-9.42344
拏	-9.42482
齎	-9.42496
鄭伯	-9.42573
肥	-9.42624
郡王	-9.42628
洛陽	-9.42748
祿	-9.42866
夫子	-9.42893
漢中	-9.43097
睿	-9.43161
扶	-9.43433
取之	-9.4371
平定	-9.4375
鹿仔港	-9.43892
錯	-9.43979
欲以	-9.43999
子之	-9.44118
銀兩	-9.44152
蕩	-9.44168
是故	-9.44181
國人	-9.44246
並未	-9.44335
抗	-9.44422
巧	-9.44499
四人	-9.44561
多爾濟	-9.44745
祗	-9.44915
洞	-9.45103
統領	-9.4512
滋	-9.45151
隔	-9.45263
受命	-9.45312
遭	-9.45426
不言	-9.45429
攝	-9.4543
之勢	-9.45453
旬	-9.45555
舒赫徳	-9.45568
北面	-9.4557
仙	-9.45599
婦人	-9.45713
村	-9.45735
砲	-9.45771
曰子	-9.45862
徹	-9.45921
遵㫖	-9.4596
詰	-9.46111
何如	-9.46142
宗廟	-9.46198
廵	-9.46205
宏	-9.46211
未可	-9.46231
虛	-9.4629
陰	-9.46308
兵馬	-9.46416
自是	-9.46446
東南	-9.46517
出力	-9.46536
卓	-9.46582
汴	-9.46709
防範	-9.46742
豆	-9.4678
不足以	-9.46822
故曰	-9.46881
警	-9.46891
使臣	-9.46993
公主	-9.47027
之外	-9.47057
給與	-9.47136
屏	-9.47271
遜	-9.47357
諱	-9.47461
此等	-9.47485
上皇	-9.47538
黙	-9.47544
沮	-9.47576
偃	-9.4771
尉	-9.47716
了	-9.47762
涉	-9.47783
阿逆	-9.47889
銜	-9.47909
賣	-9.47952
碉	-9.47957
副使	-9.48059
不同	-9.48135
祠	-9.48272
太平	-9.48334
弁	-9.48389
陞	-9.48425
楚王	-9.48448
民之	-9.48449
郤	-9.4874
以上	-9.48779
肯	-9.48785
西北	-9.48856
以聞	-9.48884
禪	-9.48926
麟	-9.48965
者不	-9.48974
鎗	-9.49018
若不	-9.49153
豈不	-9.49165
標	-9.49354
台	-9.49389
不克	-9.49394
彰	-9.49432
麻	-9.49483
諭㫖	-9.49542
毒	-9.49628
臨清	-9.49762
賑	-9.49796
上書	-9.49928
陣亡	-9.49929
魏主	-9.50047
固守	-9.50065
蒙	-9.50098
懲	-9.50133
侍衞	-9.50215
攻之	-9.5025
午	-9.50263
罔	-9.50265
□	-9.50339
先生	-9.50385
弔	-9.50469
激	-9.50479
熊	-9.5062
妥	-9.5078
數十	-9.5078
㓂	-9.50918
儉	-9.50946
奇	-9.51075
曰臣	-9.51083
瞻	-9.51092
留守	-9.51092
扎卜	-9.511
出兵	-9.51101
鐵	-9.51116
属	-9.51117
勉	-9.51265
甘省	-9.51347
其地	-9.51503
叅	-9.51524
輙	-9.5155
又有	-9.51695
犬	-9.517
太尉	-9.51715
牢	-9.51736
璧	-9.51737
挾	-9.51743
大小	-9.51749
䘮	-9.51765
一名	-9.51815
此事	-9.51887
同日	-9.51888
錢糧	-9.51971
麥	-9.52011
一併	-9.52118
加意	-9.52136
荆州	-9.52149
何為	-9.52199
預備	-9.52292
前赴	-9.52353
劾	-9.52421
渡河	-9.52458
明年	-9.52561
行文	-9.52592
青海	-9.52599
鳳	-9.52614
入朝	-9.52615
相與	-9.52636
佐領	-9.5267
贈	-9.5272
斂	-9.52742
長史	-9.52806
廬	-9.52816
之上	-9.52817
旣	-9.52907
恱	-9.52907
狂	-9.52926
侍中	-9.52926
育	-9.52935
文公	-9.53002
即令	-9.53205
庄	-9.53234
縛	-9.53305
祐	-9.53305
悲	-9.53333
亨	-9.53372
叙	-9.53374
巨	-9.53442
諸路	-9.53466
奴	-9.53542
戈	-9.53589
亭	-9.53633
扼	-9.53638
鑒	-9.53649
忠義	-9.5366
故也	-9.53788
之中	-9.538
厭	-9.53803
䕶軍	-9.53837
得其	-9.53913
核	-9.53979
二子	-9.54092
虐	-9.54148
塗	-9.54192
以告	-9.54208
潘	-9.54316
囘人	-9.5436
禽	-9.54562
墨	-9.54578
無以	-9.54606
金川	-9.54716
司徒	-9.54827
所請	-9.55089
捐	-9.55178
六百	-9.55228
接濟	-9.55263
曉	-9.55306
鬼	-9.55439
峻	-9.55446
襄陽	-9.556
迫	-9.5562
紂	-9.55667
肅州	-9.55693
花	-9.55821
刼	-9.55829
而出	-9.55915
之國	-9.5597
同知	-9.56007
渾	-9.56134
冊	-9.56178
子弟	-9.56223
邢	-9.56314
展	-9.5633
十六	-9.56444
派兵	-9.56475
蕃	-9.56475
觧	-9.56482
晏子	-9.56586
毅	-9.56623
帝曰	-9.5668
軍需	-9.56813
救之	-9.56835
軍民	-9.56912
晝夜	-9.56946
貯	-9.56949
禀	-9.56963
烏梁海	-9.57006
破之	-9.57038
中書	-9.5706
兵部	-9.57091
之義	-9.57171
抱	-9.5729
園	-9.57308
古之	-9.57343
可也	-9.57495
至此	-9.57553
其人	-9.57669
哲	-9.57677
霍集占	-9.57677
達賴喇嘛	-9.57771
大國	-9.57825
茶	-9.57841
二萬	-9.57885
大同	-9.57889
器械	-9.57919
帛	-9.5793
臯	-9.58006
駐兵	-9.5802
返	-9.58057
遣兵	-9.58066
之數	-9.58069
夕	-9.58228
萬一	-9.58396
坦	-9.58405
叔孫	-9.58499
進取	-9.58731
出入	-9.58765
怠	-9.58769
葉爾羌	-9.58797
瑾	-9.58802
秋八月	-9.58912
而歸	-9.58974
率衆	-9.59078
帥師	-9.59279
斬首	-9.59283
獸	-9.59328
來歸	-9.59371
譽	-9.59391
尼	-9.5942
而立	-9.59491
甘肅	-9.59579
四海	-9.5959
車駕	-9.59652
熈	-9.59668
珪	-9.59761
隙	-9.59762
紅	-9.59879
乾隆	-9.5989
箭	-9.59906
矜	-9.59908
底	-9.60097
薨	-9.60104
先帝	-9.60299
雞	-9.60336
陜	-9.60404
旺	-9.60475
岳鍾琪	-9.6048
上命	-9.60538
昧	-9.60649
誅之	-9.60674
馬駝	-9.60692
千餘人	-9.60732
税	-9.60736
中山	-9.60762
越王	-9.60789
政事	-9.60803
霍	-9.60836
已經	-9.60861
逢	-9.60872
寅	-9.60946
束	-9.60985
効	-9.61021
瓊	-9.61035
晋	-9.61137
不受	-9.61166
治罪	-9.61172
數百	-9.61176
山西	-9.61247
讐	-9.61288
夾	-9.61303
遊擊	-9.61323
璋	-9.61391
之用	-9.61441
鼔	-9.61462
投誠	-9.61492
匡	-9.61571
樊	-9.61616
朗	-9.6162
緒	-9.61626
苗	-9.61643
裴	-9.61903
難以	-9.61933
鮮	-9.62025
百里	-9.62113
播	-9.62185
看	-9.62207
枝	-9.62247
其國	-9.62333
守禦	-9.62369
察哈爾	-9.62426
攻城	-9.62446
齊人	-9.62613
中軍	-9.62764
着	-9.62789
數人	-9.62802
王子	-9.62878
欵	-9.62921
呈	-9.62946
祈	-9.62953
吐魯番	-9.63173
祚	-9.63178
精兵	-9.63254
先王	-9.63296
之法	-9.63325
獵	-9.63392
賫	-9.63489
樞	-9.63537
汪	-9.63554
慰	-9.63704
謨	-9.63744
南北	-9.63971
牽	-9.6413
粮	-9.64325
之初	-9.64339
諸王	-9.64642
脅	-9.64783
千餘	-9.64935
巫	-9.65018
駝	-9.65107
算	-9.65216
把	-9.65254
停	-9.65265
其家	-9.65317
邵	-9.6536
伊犁	-9.65386
範	-9.65388
脫	-9.6539
王倫	-9.65402
屬人	-9.65439
等皆	-9.65512
翰	-9.65537
黔	-9.65541
鈞	-9.65578
座	-9.65609
窺	-9.65613
也而	-9.65671
歸化城	-9.65727
段	-9.65736
浩	-9.65754
饗	-9.65773
不欲	-9.65835
也若	-9.65979
篇	-9.66024
十七	-9.66057
佛	-9.66098
十八	-9.66141
㧞	-9.66183
祖宗	-9.66194
禮也	-9.66205
晟	-9.66223
濬	-9.66364
祁	-9.66367
宅	-9.66454
亦無	-9.6656
溺	-9.66593
押	-9.66644
恣	-9.66805
悦	-9.66915
狡	-9.6693
利害	-9.66945
百餘人	-9.6697
㠯	-9.67044
諒	-9.67164
被賊	-9.67171
𣲖	-9.67186
就近	-9.6728
葛	-9.67299
㫁	-9.67344
賛	-9.67411
味	-9.67452
其弟	-9.6746
鋒	-9.6756
敖	-9.67578
𨽻	-9.67579
攜	-9.6758
薩喇爾	-9.67609
安插	-9.67632
邾	-9.67634
八十	-9.67688
醫	-9.67793
甲子	-9.67876
不致	-9.679
一旦	-9.67936
九年	-9.6795
栁	-9.67992
刃	-9.67999
及其	-9.68006
妖	-9.6801
者必	-9.68123
牲	-9.68193
日月	-9.68195
之徒	-9.68209
宥	-9.6821
鐘	-9.68225
遥	-9.68262
千人	-9.683
慕	-9.68415
恪	-9.68419
門外	-9.68427
讎	-9.68482
嗣後	-9.68543
十五日	-9.68552
豪	-9.68591
邇	-9.68614
没	-9.68625
奢	-9.68716
理藩院	-9.68815
㣲	-9.68862
為人	-9.68896
賚	-9.68937
塘	-9.69049
鬬	-9.69057
敷	-9.69136
諸臣	-9.69151
澄	-9.69156
讀	-9.69236
械	-9.69263
扣	-9.69277
革職	-9.69331
見之	-9.69368
西南	-9.6937
誕	-9.69426
庻	-9.69484
烏什	-9.6957
公羊傳	-9.69683
晉人	-9.6983
靣	-9.69831
黑	-9.6987
自成	-9.69928
氏之	-9.69929
其心	-9.69954
懇	-9.69966
催	-9.69981
榜	-9.70074
饒	-9.70081
鑄	-9.70113
自古	-9.70217
先君	-9.70219
頭目	-9.70226
瓦	-9.70228
諸處	-9.70338
虢	-9.70379
巴圖魯	-9.70418
創	-9.70494
爰	-9.70515
搶掠	-9.70533
靜	-9.70552
桀	-9.70579
長沙	-9.7058
其中	-9.70645
與其	-9.70675
成王	-9.70708
疎	-9.70717
鴻	-9.70724
晚	-9.70728
值	-9.70816
之子也	-9.70996
以兵	-9.71076
再拜	-9.71104
摺	-9.71124
悟	-9.71134
仕	-9.71145
觀之	-9.71146
百萬	-9.7117
不便	-9.71345
未至	-9.71438
奏曰	-9.71482
機宜	-9.71483
人主	-9.71538
競	-9.71542
黜	-9.71555
緝	-9.7156
授為	-9.71591
敝	-9.71625
渡江	-9.71665
管仲	-9.71715
左傳	-9.71733
無事	-9.71802
布魯特	-9.71838
入覲	-9.71851
業經	-9.71907
者何	-9.71965
之語	-9.7199
侈	-9.71997
不敷	-9.7202
起兵	-9.72182
金主	-9.72233
斤	-9.72241
蓄	-9.72242
植	-9.72249
之師	-9.72275
酋	-9.7229
寡君	-9.72403
又以	-9.72418
訖	-9.72423
堵截	-9.72616
派出	-9.7263
請㫖	-9.72677
粤	-9.72693
宗室	-9.72775
偕	-9.72884
滋事	-9.72953
寔	-9.73041
未知	-9.73082
大怒	-9.73088
驗	-9.73118
不利	-9.73169
查辦	-9.7317
楚人	-9.73223
不下	-9.73378
乃止	-9.73384
跪	-9.73529
爽	-9.7353
軌	-9.73552
之例	-9.73663
泥	-9.73761
皇太后	-9.73776
豹	-9.73866
篤	-9.73938
達瓦齊	-9.73949
裝	-9.73971
追之	-9.73997
民人	-9.74035
皆有	-9.74043
給事中	-9.74058
昇	-9.74137
前去	-9.74206
㕘贊大臣	-9.74214
未必	-9.74243
之理	-9.74288
堵	-9.74345
四百	-9.7437
壊	-9.74379
玩	-9.74385
蒼	-9.74408
撤回	-9.74488
速行	-9.74599
之患	-9.74691
融	-9.74769
進勦	-9.74794
數年	-9.74801
又曰	-9.74933
駭	-9.74957
索倫	-9.74963
眞	-9.7505
隴	-9.75107
内大臣	-9.75172
零	-9.75234
帑	-9.75244
墮	-9.75273
府城	-9.75286
景公	-9.75316
蒙古	-9.75374
司空	-9.7545
其民	-9.75451
逆匪	-9.75492
而來	-9.75547
請以	-9.75553
即可	-9.75625
凌	-9.75638
張廣泗	-9.75673
不肖	-9.7569
迹	-9.75753
所部	-9.75792
賊勢	-9.75853
十三	-9.75885
貽	-9.75932
區	-9.75932
人情	-9.75964
桂	-9.75965
子産	-9.75989
相機	-9.76038
藝	-9.76171
採	-9.7618
淺	-9.76185
乃以	-9.76309
三萬	-9.76347
是也	-9.76353
據實	-9.76363
鬭	-9.76376
其君	-9.76402
郢	-9.76406
之謀	-9.76435
銷	-9.76557
罵	-9.76581
之禍	-9.76606
齊王	-9.76751
勵	-9.76793
各營	-9.76799
自當	-9.76819
忿	-9.76825
使之	-9.76859
夏五月	-9.76977
十五年	-9.76981
何不	-9.77008
舅	-9.77046
紫	-9.77083
招撫	-9.77175
絳	-9.77281
籌畫	-9.77299
行在	-9.77314
未經	-9.77363
艱	-9.77416
西寧	-9.77423
歎	-9.77449
香	-9.77501
皇太子	-9.77524
家屬	-9.77555
暉	-9.7756
揖	-9.77575
太宗	-9.77631
著加恩	-9.7764
逞	-9.77686
然而	-9.77699
甚屬	-9.77775
應行	-9.77788
擒拏	-9.7782
籌辦	-9.77903
舉兵	-9.77927
士民	-9.77979
郎中	-9.78014
形勢	-9.78059
汛	-9.78159
奏入得㫖	-9.78176
波	-9.78197
壇	-9.78221
渉	-9.78226
糾	-9.78354
其黨	-9.78357
人員	-9.78538
帥衆	-9.78541
是謂	-9.78605
降㫖	-9.78618
佞	-9.78635
八百	-9.78637
拒之	-9.78653
詢問	-9.7873
一事	-9.78801
廣東	-9.78801
俱係	-9.78826
官吏	-9.78829
荀	-9.78841
而下	-9.78842
魁	-9.78878
副將軍	-9.7888
偉	-9.78888
強	-9.78913
之所以	-9.78938
一年	-9.78941
逃竄	-9.78956
奉㫖	-9.79043
不在	-9.79045
健	-9.7906
以資	-9.79063
品	-9.79103
想	-9.79317
那	-9.79334
曰昔	-9.79432
竇	-9.79551
十三年	-9.79578
俯	-9.79588
邦昌	-9.79598
襄公	-9.79613
蟲	-9.79631
萬餘人	-9.79638
照例	-9.79682
之亂	-9.79709
豈有	-9.79729
頼	-9.79804
秩	-9.79812
行至	-9.79862
巳	-9.79862
穴	-9.79993
悞	-9.79996
腹	-9.80012
荷	-9.80023
羞	-9.80059
必不	-9.80109
世子	-9.80159
討之	-9.80187
不得已	-9.80228
大破之	-9.80255
約束	-9.80322
上年	-9.80439
隋	-9.80465
相見	-9.80487
含	-9.80515
剿	-9.80556
督率	-9.80649
臣聞	-9.80686
恒瑞	-9.80687
相繼	-9.80782
稍有	-9.80906
劫	-9.80963
烏里雅蘇台	-9.80963
歛	-9.80974
怪	-9.81002
臂	-9.81011
河西	-9.81157
喀	-9.81293
者有	-9.81298
金國	-9.81314
貝	-9.81353
不當	-9.81467
庚	-9.81529
炎	-9.81557
戰於	-9.81641
芳	-9.81685
成衮扎布	-9.81724
所得	-9.81859
裔	-9.81876
柵	-9.81879
髪	-9.8192
十一	-9.81934
貝子	-9.81938
福建	-9.81952
檜	-9.81979
自稱	-9.81991
其身	-9.82034
兵一千名	-9.82054
作亂	-9.82059
舒赫德	-9.82075
東西	-9.82081
閏	-9.82112
即將	-9.82219
全忠	-9.8222
湖南	-9.82308
幕	-9.8234
昆	-9.82341
賄	-9.82351
徼	-9.82367
兵一千	-9.82387
閭	-9.82388
郡縣	-9.82452
五萬	-9.8252
挑	-9.82538
題	-9.82621
守之	-9.82686
為一	-9.82767
百餘	-9.82807
地方官	-9.82838
生靈	-9.82864
則有	-9.82895
有罪	-9.83008
如有	-9.83132
艾	-9.83145
莫敢	-9.83153
刺史	-9.83156
王室	-9.83226
麗	-9.83251
睦	-9.83275
先後	-9.83286
錦	-9.83311
大功	-9.83331
巖	-9.83346
五日	-9.83371
鑿	-9.83376
得之	-9.83481
普吉保	-9.83512
之臣	-9.83513
排	-9.83513
俄	-9.83521
倡	-9.83538
滋擾	-9.83554
生擒	-9.83568
繕	-9.83589
混	-9.8362
富徳	-9.83633
㕘	-9.83665
運米	-9.83672
漏	-9.8384
趙王	-9.83904
十四年	-9.83924
績	-9.83928
者亦	-9.83984
摩	-9.8405
愧	-9.84055
並不	-9.84057
讒	-9.84078
十二年	-9.84079
暮	-9.84104
都司	-9.84124
内有	-9.84143
藍元枚	-9.84209
蘭州	-9.84228
之志	-9.84252
土司	-9.84325
宛	-9.84334
用事	-9.84337
在彼	-9.84392
夾攻	-9.8443
疏奏	-9.84439
者以	-9.84519
遏	-9.84522
先行	-9.84588
信息	-9.84613
措置	-9.84663
柄	-9.84666
四面	-9.84704
交與	-9.84777
偹	-9.84843
二十日	-9.8495
狼	-9.84989
䘏	-9.85158
措	-9.852
駢	-9.85204
得以	-9.85265
芻	-9.85298
察罕	-9.85319
該督	-9.8545
掃	-9.8545
㑹合	-9.85457
乙亥	-9.85463
後世	-9.85511
圭	-9.8557
力戰	-9.85664
十六年	-9.85708
搶	-9.85726
勘	-9.85728
仍令	-9.85817
佩	-9.85823
必須	-9.85833
料理	-9.85903
漢軍	-9.85973
琳	-9.85984
牌	-9.86013
本朝	-9.86029
礮	-9.86081
帳	-9.86095
頂	-9.86167
臣竊	-9.86172
應援	-9.86225
衮	-9.86258
諸侯之	-9.86352
主上	-9.86385
旌	-9.86478
伺	-9.8649
包	-9.86509
侮	-9.86548
十四	-9.86549
行營	-9.86685
之君	-9.86728
貸	-9.86746
岐	-9.86791
奬	-9.86855
渭	-9.86876
滿兵	-9.86882
季孫	-9.86921
我師	-9.86927
牲畜	-9.86962
叚	-9.86989
穿	-9.86989
奠	-9.87014
已而	-9.87018
銅	-9.87044
未免	-9.87211
也且	-9.8726
見其	-9.8728
執政	-9.87294
竝	-9.87326
江淮	-9.87336
港	-9.87421
回部	-9.87433
𫝊	-9.87506
訥	-9.87618
童	-9.8766
丗	-9.87676
小國	-9.87682
疋	-9.87726
膺	-9.87761
塵	-9.87772
虧	-9.87801
故事	-9.87881
垣	-9.87903
奏入上從之	-9.87984
彼此	-9.87986
晦	-9.87988
南京	-9.87994
俎	-9.88
事之	-9.88007
太師	-9.88021
魏王	-9.88123
原任	-9.88245
之路	-9.88247
管轄	-9.88259
軫	-9.8826
之謂	-9.88268
南路	-9.88284
喀什噶爾	-9.88303
括	-9.88315
代之	-9.88341
明瑞	-9.8835
之賊	-9.88418
不宜	-9.88499
踐	-9.8854
出師	-9.88545
不絶	-9.88569
士大夫	-9.88578
岳州	-9.88586
一萬	-9.88614
醜	-9.88698
衷	-9.88766
稅	-9.88773
丁未	-9.88775
怯	-9.88797
亷	-9.88824
噶爾	-9.88836
人衆	-9.88836
廣西	-9.88884
帯	-9.88889
俱著	-9.88929
不失	-9.8893
人民	-9.88944
辛巳	-9.88987
不信	-9.89017
活	-9.89026
焦	-9.8904
談	-9.89043
泄	-9.89049
彬	-9.89057
分路	-9.89142
濮	-9.89265
安定	-9.89331
督撫	-9.89346
不成	-9.8943
矯	-9.89435
尚可	-9.89495
自必	-9.89535
徧	-9.89571
不忘	-9.89608
運送	-9.89637
城外	-9.8969
苑	-9.89718
滇	-9.89724
䖍	-9.89732
搜	-9.89776
獻忠	-9.89804
惡之	-9.89821
言曰	-9.89836
兆恵	-9.89842
校尉	-9.89883
賞罰	-9.89917
此項	-9.8993
三軍	-9.8995
碩	-9.8998
訴	-9.90036
燭	-9.90083
敎	-9.90094
至今	-9.90137
妥協	-9.90296
耿	-9.90322
裘	-9.90363
無益	-9.90368
鸞	-9.90393
偷	-9.90456
壬午	-9.90484
狗	-9.90621
安撫	-9.90625
牛羊	-9.90705
監軍	-9.90719
丙子	-9.90736
國公	-9.9074
戊辰	-9.90753
其意	-9.90829
甲午	-9.9084
輪	-9.90857
到日	-9.90923
大金	-9.90932
和議	-9.91051
墜	-9.91108
男女	-9.91172
迷	-9.91302
萌	-9.91335
醉	-9.91336
俄羅斯	-9.91337
蛇	-9.91386
隘	-9.9146
拱	-9.91589
昔者	-9.91676
之利	-9.91708
衆心	-9.91726
告稱	-9.91749
之情	-9.91797
之命	-9.91806
娶	-9.91827
統制	-9.91887
繩	-9.91891
薪	-9.91894
進發	-9.91993
腹心	-9.9203
傳曰	-9.92061
而有	-9.92081
富貴	-9.92145
東北	-9.92155
歎曰	-9.9219
所殺	-9.92232
旱	-9.92238
丙午	-9.92351
石峯堡	-9.92351
慢	-9.92385
䟽	-9.92389
劍	-9.92416
丁巳	-9.92456
乙	-9.92457
金帛	-9.92459
欣	-9.92475
可得	-9.92558
哨	-9.92576
己巳	-9.92613
鼐	-9.92626
桃	-9.92645
額敏和卓	-9.92697
俱已	-9.92764
互相	-9.92769
弟子	-9.92791
居民	-9.92792
綽	-9.9287
曰公	-9.92906
濫	-9.92925
大子	-9.92926
揆	-9.92952
事宜上諭軍機大臣曰	-9.93108
湏	-9.93163
而進	-9.93163
淳	-9.93175
賊首	-9.93211
十九	-9.93293
租	-9.93392
攘	-9.93413
銳	-9.9342
饋	-9.93455
快	-9.93455
等項	-9.9346
今年	-9.93473
昭公	-9.93478
然則	-9.93485
則不	-9.93598
軍機大臣	-9.93659
王師	-9.93681
檢	-9.93704
若此	-9.93767
盟于	-9.93781
湘	-9.93783
當時	-9.93788
軍旅	-9.93831
輝	-9.93894
以成	-9.93941
兵二千	-9.93955
賊黨	-9.93959
丁亥	-9.94022
晉陽	-9.94128
庚午	-9.94191
其母	-9.94214
輜重	-9.94224
嫌	-9.94231
膽	-9.94248
壞	-9.94256
各路	-9.94371
定議	-9.94436
日夜	-9.94481
㓜	-9.94508
誥	-9.94511
事君	-9.94513
大員	-9.94551
貌	-9.94566
不知所	-9.94576
無可	-9.94651
仁義	-9.9466
吾子	-9.94661
徇	-9.9469
五人	-9.94705
童貫	-9.94758
囊	-9.948
報稱	-9.94899
九十	-9.95003
十三日	-9.9501
此皆	-9.95017
戲	-9.95055
佑	-9.95062
甲寅	-9.95063
賊目	-9.95066
發往	-9.95119
歸之	-9.9522
又據	-9.95296
壬申	-9.95309
恊	-9.9531
冐	-9.95321
􁀙	-9.95346
曰朕	-9.95348
待之	-9.95362
吳王	-9.95369
甲辰	-9.95386
策楞	-9.954
水草	-9.95405
庚申	-9.95439
荘	-9.95508
之内	-9.95533
韶	-9.95545
庚寅	-9.95549
出城	-9.95553
在外	-9.95559
回民	-9.95562
乖	-9.95584
鳥鎗	-9.95598
句	-9.95607
之使	-9.95642
戊申	-9.95653
調度	-9.95673
古者	-9.95689
來朝	-9.95739
忠臣	-9.95822
出奔	-9.95858
十日	-9.95902
不報	-9.95909
於秦	-9.95964
換	-9.96003
詭	-9.96047
𢎞	-9.96121
捜	-9.96134
移駐	-9.96156
幽州	-9.96293
本年	-9.96307
圖之	-9.96322
數千人	-9.96345
即於	-9.9641
南陽	-9.96431
斌	-9.96455
伐之	-9.96457
十餘萬	-9.96514
紹興	-9.96563
之道也	-9.96595
東宫	-9.96636
於齊	-9.96649
節制	-9.96675
状	-9.96718
無庸	-9.96756
上疏	-9.96849
大喜	-9.96869
黄廷桂	-9.96939
倒	-9.96958
之名	-9.96961
平公	-9.96966
掘	-9.96984
頌	-9.96985
飬	-9.97016
休息	-9.97033
施行	-9.97147
前徃	-9.97151
肇	-9.97172
壬辰	-9.97189
戊午	-9.97194
行之	-9.97254
弁兵	-9.97254
是為	-9.97293
域	-9.97384
軍事	-9.97415
控	-9.97454
局	-9.97498
飯	-9.97557
留心	-9.97559
敗之	-9.97563
曰汝	-9.97567
嗚呼	-9.97719
壬寅	-9.97767
灌	-9.97836
無道	-9.97861
太監	-9.97895
靖康	-9.97924
乃命	-9.97953
𠞰賊	-9.97965
者非	-9.97986
補授	-9.98041
金銀	-9.98051
衆人	-9.98057
勁	-9.9806
去年	-9.98068
庫車	-9.98071
涼	-9.9809
號令	-9.98123
一月	-9.98297
辛未	-9.98341
牲隻	-9.98369
曠	-9.985
上諭軍機大臣曰據	-9.9851
誨	-9.98584
柴	-9.98585
飢	-9.98649
浦	-9.98664
上以	-9.98691
數十人	-9.98705
鬼神	-9.98707
不善	-9.98726
防禦	-9.98734
劄	-9.98736
不通	-9.9874
大臣等	-9.98747
丙寅	-9.98866
丁丑	-9.98875
姪	-9.98892
禾	-9.98895
雅爾哈善	-9.98991
測	-9.98996
湖廣	-9.9908
晉國	-9.99096
如初	-9.991
我軍	-9.99157
蹈	-9.99169
埶	-9.99188
摧	-9.99195
棟	-9.99204
賊巢	-9.9921
富德	-9.99242
漁	-9.99242
矣今	-9.99245
夏六月	-9.99292
俸	-9.99294
亦如之	-9.99339
賔客	-9.99355
鞭	-9.99415
為右	-9.99467
譚	-9.9947
不死	-9.99495
經理	-9.99542
甲申	-9.99584
在此	-9.99597
千總	-9.99625
輕重	-9.99669
支給	-9.9967
𦂳要	-9.99675
丙辰	-9.997
晝	-9.99726
乙酉	-9.99734
繞	-9.99736
天之	-9.99759
慕容	-9.99764
嫁	-9.99772
概	-9.99999
錄	-10.0004
牧放	-10.0009
烏珠	-10.001
倭	-10.0016
八旗	-10.0022
姓名	-10.0024
無功	-10.0025
停止	-10.0027
亦應	-10.0028
𦵏	-10.0034
昭王	-10.0047
管理	-10.0049
撲	-10.0052
之説	-10.0052
國事	-10.0053
告之	-10.0054
癸亥	-10.0056
壬子	-10.0059
宣諭	-10.006
馭	-10.0061
為大	-10.0061
譏	-10.0064
不容	-10.0068
燕山	-10.007
失其	-10.0071
又遣	-10.0072
沿	-10.0082
下詔	-10.0085
牟	-10.0087
等奏	-10.0092
滑	-10.0112
甲戌	-10.0114
辛丑	-10.0115
視之	-10.0116
死之	-10.0118
填	-10.0118
癸未	-10.0119
江陵	-10.012
都指揮使	-10.013
飲酒	-10.0132
進退	-10.0133
撤兵	-10.0139
甸	-10.0139
學士	-10.0142
議者	-10.0142
庚辰	-10.0143
旨	-10.0143
趕	-10.0145
恕	-10.0145
阿里衮	-10.0148
銘	-10.0153
即日	-10.0154
朝夕	-10.0157
之信	-10.016
十七年	-10.0162
公卿	-10.017
岡	-10.0171
内侍	-10.0174
庚子	-10.0175
裂	-10.0176
雙	-10.0176
訥親	-10.0184
戾	-10.0185
詳悉	-10.0196
何謂	-10.0199
圉	-10.0201
接應	-10.0203
㸃	-10.0205
數百人	-10.0206
揚州	-10.021
黃	-10.0211
冬十一月	-10.0212
天子之	-10.0216
丞	-10.0218
嬖	-10.0225
迨	-10.023
又何	-10.023
甲兵	-10.0238
祭祀	-10.024
前此	-10.0243
賢者	-10.0253
從賊	-10.0253
十有	-10.0258
大将軍	-10.026
緣	-10.0262
騐	-10.0264
肩	-10.0265
李綱	-10.0267
節度	-10.0271
而不能	-10.0273
哈宻	-10.0278
它	-10.0282
跡	-10.0287
上表	-10.0288
敵人	-10.0288
曜	-10.0295
之下	-10.0297
觀其	-10.0297
衛侯	-10.0303
準	-10.031
問於	-10.0315
戊寅	-10.0316
偵探	-10.0319
冲	-10.0319
屍	-10.0321
謬	-10.0322
駐蹕	-10.033
何故	-10.0335
而退	-10.034
若有	-10.0346
呂	-10.0353
出戰	-10.0354
弩	-10.0354
於是乎	-10.0356
各有	-10.0358
曰寡人	-10.0358
山川	-10.0363
𠞰滅	-10.0363
蔡京	-10.0363
禦之	-10.0365
浙江	-10.0368
立功	-10.0369
逺近	-10.0376
己亥	-10.0378
十二日	-10.038
以求	-10.0381
其功	-10.0382
安得	-10.0386
鮑	-10.0397
也君	-10.0404
丙申	-10.0415
遁去	-10.0417
情節	-10.0421
乙未	-10.0426
護	-10.0427
曰夫	-10.0436
偶	-10.0438
酬	-10.044
觀望	-10.0441
伐鄭	-10.045
水陸	-10.0456
為國	-10.0461
等俱	-10.0465
閩省	-10.0471
晉王	-10.0471
餘衆	-10.0472
有差	-10.0479
鐸	-10.0486
出於	-10.0487
癸酉	-10.0493
驟	-10.0494
父兄	-10.0496
帶往	-10.0514
也吾	-10.0514
張浚	-10.0521
綠旗兵	-10.0521
䕶送	-10.0522
棘	-10.0524
十一年	-10.0525
孚	-10.0527
戰于	-10.0528
▁(	-10.053
敢不	-10.0533
十八日	-10.0533
毋庸	-10.0533
兵部尚書	-10.0534
無罪	-10.0534
壹	-10.0534
該部	-10.0534
五百名	-10.0539
不問	-10.0539
如故	-10.054
揺	-10.0548
經略	-10.0549
軍馬	-10.0552
抄	-10.0554
嚴加	-10.0558
柳	-10.0562
賞賚	-10.057
披	-10.057
一曰	-10.0577
湛	-10.0581
兵至	-10.0583
遐	-10.0583
喬	-10.0586
彼處	-10.0588
縣城	-10.06
其下	-10.0613
將帥	-10.0614
恐其	-10.0616
二十萬	-10.0618
于是	-10.062
冕	-10.062
不應	-10.0625
判	-10.0628
留後	-10.0628
十人	-10.0631
不顧	-10.064
乎對曰	-10.0646
同平章事	-10.0647
問之	-10.0648
件	-10.065
綿	-10.0651
子胥	-10.0652
不堪	-10.0654
駐守	-10.0655
壺	-10.0658
殱	-10.0666
遼東	-10.0668
兆惠等	-10.0669
翁	-10.0671
疏言	-10.0671
所領	-10.0672
止之	-10.0672
勾	-10.0673
十餘	-10.0679
隅	-10.0679
二十五日	-10.0682
西京	-10.0683
令尹	-10.0684
衆皆	-10.0687
其勢	-10.069
認	-10.0698
淮西	-10.0704
與賊	-10.0705
有一	-10.0705
挺	-10.0706
邁	-10.0708
圓	-10.071
沛	-10.0713
未及	-10.0715
也乃	-10.0719
上從之	-10.0726
於外	-10.0742
自可	-10.0748
可用	-10.0753
其父	-10.076
衣服	-10.0766
乙巳	-10.0767
家口	-10.0767
憐	-10.0768
萬里	-10.0768
墓	-10.0771
努	-10.0774
握	-10.0775
豈能	-10.0775
執事	-10.0778
自此	-10.0781
堯舜	-10.0783
與我	-10.0788
七百	-10.0789
二十年	-10.0796
沐	-10.0798
班第等	-10.0799
二三	-10.0799
琦	-10.08
宋公	-10.0804
耀	-10.0804
麾	-10.0806
收復	-10.0811
浙	-10.0811
辛亥	-10.0826
愆	-10.0827
躍	-10.0832
屬下	-10.0834
流涕	-10.0835
從事	-10.0836
追至	-10.0839
將弁	-10.0848
查拏	-10.0853
洩	-10.0856
為此	-10.0856
鳯翔	-10.0858
吹	-10.086
問曰	-10.086
安西	-10.0862
受其	-10.0865
應令	-10.0868
黄河	-10.0869
曰善	-10.0872
朕意	-10.0874
天命	-10.0886
特穆爾	-10.0886
捨	-10.0887
傅爾丹	-10.0891
宫室	-10.0892
僻	-10.0895
潤	-10.0895
膏	-10.0896
以自	-10.0896
河陽	-10.0897
釐	-10.0897
前日	-10.0899
隂陽	-10.0903
願陛下	-10.092
緑旗兵	-10.0921
癸丑	-10.0921
或有	-10.0922
暇	-10.0927
未便	-10.0929
十四日	-10.0934
世民	-10.0938
人馬	-10.0943
癸巳	-10.0948
己丑	-10.0951
壤	-10.0952
閱	-10.0953
耗	-10.0953
誦	-10.0953
廹	-10.0954
訟	-10.0954
守城	-10.0957
冬十二月	-10.0964
若干	-10.0978
牒	-10.0982
不已	-10.0983
熱	-10.0983
杞	-10.0984
敝邑	-10.0985
城上	-10.0986
謗	-10.0986
可乎	-10.0988
琴	-10.0988
茅	-10.0989
民間	-10.0992
不食	-10.0996
八人	-10.1003
十六日	-10.1005
大司馬	-10.1007
乃遣	-10.1007
於天下	-10.1009
處所	-10.1009
以安	-10.101
天地之	-10.1011
何處	-10.1012
如晉	-10.1013
乙丑	-10.1014
揀選	-10.1017
囬	-10.1017
協同	-10.1022
有事	-10.1028
不合	-10.1032
數月	-10.104
衢	-10.1042
己未	-10.1043
冰	-10.1047
㳺	-10.1049
不獲	-10.1058
費揚古	-10.1068
一處	-10.1079
猷	-10.1081
恢復	-10.1094
二日	-10.1107
辛酉	-10.1108
悖	-10.1108
鞅	-10.1111
率領	-10.1115
二十九日	-10.1121
南詔	-10.1124
以後	-10.1128
之憂	-10.1136
裏	-10.114
挫	-10.1147
則民	-10.1159
曰卿	-10.1161
王者	-10.117
閻	-10.117
百人	-10.1171
之喪	-10.1184
節次	-10.1184
不服	-10.1185
一二	-10.1187
議叙	-10.1196
錡	-10.1197
不得不	-10.1204
筆	-10.1205
秋九月	-10.1206
叱	-10.1207
稷	-10.121
所言	-10.1214
巴爾	-10.1216
應請	-10.1217
宼	-10.1229
永常	-10.123
纔	-10.1237
顛	-10.1238
斡里雅布	-10.1239
言者	-10.1241
齋	-10.1243
晨	-10.1243
遷移	-10.1251
固原	-10.1268
析	-10.1268
到彼	-10.1268
設法	-10.1269
殺人	-10.127
其實	-10.1271
聖主	-10.1286
太傅	-10.1288
上帝	-10.129
諭令	-10.129
門下	-10.1295
統兵	-10.1298
胄	-10.1298
兇	-10.13
取其	-10.13
抽	-10.1301
庚戌	-10.1304
纂	-10.1305
百餘名	-10.1309
殺其	-10.1312
不聞	-10.1315
而復	-10.1318
我皇上	-10.132
和卓	-10.1322
起行	-10.1328
楚師	-10.1334
怒曰	-10.1336
同心	-10.1344
諫曰	-10.1344
泗	-10.1346
彭城	-10.1354
日久	-10.1361
自殺	-10.1361
厰	-10.1361
直抵	-10.1364
鄭人	-10.1364
消	-10.1367
憑	-10.137
踵	-10.137
耕種	-10.1373
驍騎	-10.1374
先王之	-10.1378
把總	-10.1379
遂以	-10.138
未幾	-10.1382
莊公	-10.1384
世忠	-10.1385
康王	-10.1386
扈	-10.1391
雒	-10.1398
採買	-10.1398
阿布賚	-10.1398
奉使	-10.1402
現有	-10.1407
之盟	-10.1415
土地	-10.1431
丁酉	-10.1433
妹	-10.1433
巷	-10.1436
阜	-10.1437
耳目	-10.1441
者乎	-10.1444
譬	-10.1446
入見	-10.1448
知縣	-10.1448
二十八日	-10.1449
治之	-10.1452
内史	-10.1453
曰王	-10.1463
判官	-10.1463
卧	-10.1467
踈	-10.1467
豕	-10.1472
有三	-10.1475
若何	-10.1477
徐績	-10.1478
犒	-10.1481
勛	-10.1484
寨桑	-10.1485
省城	-10.1491
如此則	-10.1491
長驅	-10.1498
散秩大臣	-10.1498
抗拒	-10.1498
去之	-10.1498
薊	-10.1503
覆奏	-10.1506
不時	-10.1506
其志	-10.1506
互	-10.1511
之弟	-10.1513
之變	-10.1515
敗走	-10.1516
四時	-10.1519
楷	-10.1529
是月	-10.153
悍	-10.1532
沖	-10.1532
伸	-10.1535
飲食	-10.1545
其妻	-10.1545
大皇帝	-10.1551
演	-10.1554
滕	-10.1555
不知其	-10.1557
反覆	-10.1559
秦州	-10.1568
甚衆	-10.1569
懋	-10.1571
曰不可	-10.1572
改元	-10.1578
章京	-10.1583
賊營	-10.1585
自知	-10.1586
麾下	-10.1586
安石	-10.1587
兵民	-10.1591
平王	-10.1591
女真	-10.1594
七日	-10.1598
辜	-10.1601
前因	-10.1603
大義	-10.1613
阿爾台	-10.1628
蔣	-10.1628
契	-10.1632
壓	-10.1632
平日	-10.1634
一軍	-10.1636
翦	-10.1637
隨同	-10.1649
成公	-10.1651
於楚	-10.1651
十餘人	-10.1652
帯兵	-10.1659
漕	-10.1663
暑	-10.1664
褒	-10.1666
乃使	-10.1667
坤	-10.1669
坊	-10.1671
並著	-10.1672
之難	-10.1672
武子	-10.1674
劉豫	-10.1679
十九日	-10.1681
大將	-10.169
里克	-10.1694
送至	-10.1694
請降	-10.1695
踞	-10.1696
筆帖式	-10.1696
得罪	-10.1697
霜	-10.1699
織	-10.1701
即以	-10.1702
飽	-10.1702
請於	-10.1709
戊子	-10.1712
嚴行	-10.1719
從者	-10.1725
陳奏	-10.1726
曰若	-10.1732
名曰	-10.1734
鶴	-10.1735
業已	-10.1741
官爵	-10.1747
𠞰殺	-10.1748
行事	-10.1753
文子	-10.1755
丙戌	-10.1762
寘	-10.1763
暨	-10.1764
塲	-10.1765
喻	-10.1768
匱	-10.1769
皆為	-10.1769
三省	-10.1774
派往	-10.1775
婦女	-10.1776
不安	-10.1785
將此	-10.1785
靈公	-10.1786
所欲	-10.1799
陋	-10.1803
股	-10.1805
未見	-10.181
降諭㫖	-10.1812
入于	-10.1823
皇考	-10.1826
亦當	-10.1827
庇	-10.1831
枕	-10.1832
僉	-10.1849
而入	-10.186
瑚	-10.1862
實為	-10.1868
哈薩克錫喇	-10.1869
佳	-10.1869
南面	-10.1875
加以	-10.1875
傳㫖	-10.1885
宗社	-10.1886
詔書	-10.1889
諭以	-10.1894
城守	-10.1894
逰	-10.1896
長子	-10.1897
二十一日	-10.1897
鄆	-10.1898
己酉	-10.1898
猶未	-10.1898
諸郡	-10.1898
萬全	-10.19
蔑	-10.19
洲	-10.1903
海内	-10.1905
既已	-10.1907
而殺之	-10.1911
無異	-10.1916
叅將	-10.1918
凉	-10.1922
山梁	-10.1922
無有	-10.1924
二十四日	-10.1928
浸	-10.1935
遣往	-10.1935
因其	-10.1943
府庫	-10.1949
聞其	-10.1952
皇子	-10.1954
城内	-10.1963
行也	-10.1964
壬戌	-10.1971
牆	-10.1971
參軍	-10.1972
𠞰捕	-10.1973
膳	-10.1973
濠	-10.1977
若之何	-10.1978
伏兵	-10.1978
信之	-10.1979
曉示	-10.1979
現已	-10.198
重兵	-10.1995
瑕	-10.1998
明白	-10.1998
叩	-10.2001
萊	-10.2004
逾	-10.2004
雲中	-10.2004
戊戌	-10.2005
得志	-10.2006
所居	-10.2006
懈	-10.2006
彈	-10.2009
闔	-10.2012
詔以	-10.2012
無忌	-10.2012
諡	-10.2012
艱難	-10.2015
臣請	-10.202
等奏稱	-10.2026
貴州	-10.2026
有㫖	-10.2029
辭曰	-10.2031
欒	-10.2031
殿下	-10.2037
駿	-10.2039
矛	-10.204
技	-10.2041
達什	-10.2042
趙氏	-10.2042
張俊	-10.2047
國語	-10.205
攻取	-10.205
火藥	-10.2051
竭力	-10.2059
乂	-10.2071
以前	-10.2071
紛紛	-10.2072
隣	-10.2075
吞	-10.2076
吐	-10.2077
姊	-10.2078
其間	-10.2097
者其	-10.2098
尚在	-10.2101
有大	-10.2108
之妻	-10.2109
境内	-10.2109
䕶軍統領	-10.211
奎	-10.2112
韓魏	-10.2117
以報	-10.2117
巢穴	-10.2118
往往	-10.2119
未得	-10.2134
為君	-10.214
堵禦	-10.2141
廸	-10.2141
瑜	-10.2144
梟	-10.2145
狥	-10.2146
潮	-10.2148
丹津	-10.2151
所獲	-10.2158
數十萬	-10.2167
興師	-10.2168
為陛下	-10.2171
萬兩	-10.2174
拿	-10.2175
於晉	-10.2177
土兵	-10.2183
六千	-10.2185
紛	-10.2186
作何	-10.2189
僚	-10.219
則無	-10.2196
一同	-10.2197
受之	-10.2206
准其	-10.2211
十七日	-10.2214
提舉	-10.2214
州剌史	-10.2215
册	-10.2215
崖	-10.2216
髙祖	-10.2217
十八年	-10.2223
出征	-10.223
棄之	-10.2241
塹	-10.2249
武昌	-10.2251
俞	-10.2252
邱	-10.2254
壅	-10.2255
王命	-10.2262
人有	-10.2263
禮記	-10.2268
衛將軍	-10.2268
甞	-10.227
死而	-10.2277
遣其	-10.2277
從容	-10.228
隄	-10.2283
蹙	-10.2285
炳	-10.2287
聚衆	-10.2288
此其	-10.2289
綸	-10.229
岑	-10.2292
魂	-10.2294
恢	-10.2302
復遣	-10.2312
遇賊	-10.2316
藥師	-10.2318
無人	-10.2319
彈壓	-10.232
穆公	-10.232
驍騎校	-10.2323
冉	-10.2327
刑部	-10.2328
者為	-10.2328
廉	-10.2328
為天下	-10.2332
春三月	-10.2336
二十三日	-10.2337
諸部	-10.234
聰	-10.2344
永貴	-10.2353
斛	-10.2355
奪其	-10.2356
猝	-10.2358
誼	-10.2359
斧	-10.236
芝	-10.236
莫若	-10.2362
每佐領	-10.2365
太公	-10.2369
所見	-10.2369
所向	-10.237
東方	-10.2372
東門	-10.2377
堅守	-10.238
舟師	-10.2381
所帶	-10.2381
總理	-10.2381
協力	-10.2384
之力	-10.239
闢展	-10.2392
懦	-10.2393
板	-10.2393
曼	-10.2394
軰	-10.2397
僣	-10.2397
乗勝	-10.2402
務期	-10.2403
十九年	-10.2409
盡行	-10.2414
之馬	-10.2419
季氏	-10.2421
何所	-10.2423
有益	-10.2424
以歸	-10.2424
存亡	-10.2425
皆以	-10.2431
登城	-10.2432
來年	-10.2432
阿爾	-10.2434
經過	-10.2435
何必	-10.245
一千名	-10.2451
鎗砲	-10.2452
緩急	-10.2453
得免	-10.2453
禮樂	-10.2461
於上	-10.2462
泊	-10.2467
嗎哈沁	-10.2467
裹	-10.2467
償	-10.247
十一日	-10.2474
不易	-10.2481
曰臣聞	-10.2492
足下	-10.2493
二十七日	-10.2494
帝王	-10.2496
講和	-10.2499
無禮	-10.2502
漫	-10.2504
所為	-10.2504
熙	-10.2504
宫中	-10.2504
穀梁傳	-10.2505
聲勢	-10.2506
者多	-10.2511
初十日	-10.2512
次日	-10.2514
人臣	-10.2517
三千人	-10.2525
都御史	-10.2526
曷為	-10.2527
替	-10.2537
倖	-10.2539
搜捕	-10.254
輔臣	-10.2548
可嘉	-10.2552
可見	-10.2565
沃	-10.2565
逆回	-10.2573
以死	-10.2573
甥	-10.2573
街	-10.2574
遍	-10.2575
悼	-10.2576
隕	-10.2576
亦未可定	-10.2577
吏部尚書	-10.2578
苖	-10.2579
絲	-10.2582
生計	-10.259
武帝	-10.2593
患之	-10.2595
望風	-10.2599
宣撫	-10.2613
輕騎	-10.2616
聞之曰	-10.2622
遇有	-10.2624
所過	-10.2625
運糧	-10.263
騾	-10.2632
已有	-10.2632
將伊	-10.2634
糧運	-10.2643
彛	-10.2647
朋	-10.2651
批	-10.2651
暗	-10.2651
七千	-10.2659
兵三千	-10.2659
祿山	-10.2663
據稱	-10.2671
文字	-10.2678
無復	-10.2682
奏言臣	-10.2684
終不	-10.2686
歸順	-10.2687
所辦	-10.2687
青滚雜卜	-10.2688
悉心	-10.2688
氐	-10.2689
百餘里	-10.269
奈	-10.2696
人以	-10.2701
師道	-10.2702
一千五百	-10.2707
於朝	-10.2708
要害	-10.2713
定邊	-10.2715
羸	-10.2724
笑曰	-10.2724
滔	-10.2724
店	-10.2725
二員	-10.2727
其名	-10.273
稽首	-10.2734
無虞	-10.2737
答拜	-10.2737
平章	-10.2743
迅	-10.2747
阿桂等	-10.2749
議奏	-10.2749
之恩	-10.2752
仔	-10.2753
合兵	-10.2757
宇文	-10.2759
久矣	-10.2759
豎	-10.276
聖上	-10.2762
溢	-10.2765
為賊	-10.2766
自行	-10.2767
闢	-10.2771
鎮守	-10.2776
獻子	-10.2777
伐齊	-10.2788
情事	-10.2789
已定	-10.2792
諜	-10.2794
河州	-10.2794
踊	-10.2795
海蘭察	-10.2795
弛	-10.2795
儆	-10.2796
庾	-10.2797
壕	-10.2798
覩	-10.2799
勒爾謹	-10.2799
楊應琚	-10.28
自立	-10.2801
婁	-10.2802
矣夫	-10.2806
雉	-10.2806
知府	-10.2819
嗣昌	-10.282
毋得	-10.283
遞	-10.283
川省	-10.2831
携	-10.2833
於民	-10.2837
二十二日	-10.2839
寃	-10.2839
和好	-10.284
裳	-10.2843
劄子	-10.2843
開門	-10.2846
初五日	-10.2846
曰天	-10.2848
瓘	-10.2862
藍	-10.2866
他日	-10.2869
賜之	-10.287
匠	-10.2875
蹇	-10.2881
不祥	-10.2892
一舉	-10.2896
莫能	-10.2896
情願	-10.2899
襄王	-10.2905
回京	-10.2906
契丹主	-10.2908
宸	-10.291
曰是	-10.2912
彪	-10.2913
亦未	-10.2913
嚮	-10.2914
解京	-10.2918
之䇿	-10.2919
各省	-10.2919
為政	-10.2921
今又	-10.2927
右衛	-10.2931
鞏	-10.2945
網	-10.2947
琮	-10.2947
厦門	-10.2949
慙	-10.2951
僭	-10.2951
山之	-10.2952
叔向	-10.2953
納世通	-10.2955
君命	-10.2955
州郡	-10.2966
為我	-10.2967
新教	-10.297
嗟	-10.2973
宣王	-10.2977
諸子	-10.2978
賽	-10.2981
豫備	-10.2989
初四日	-10.2991
樞宻	-10.2993
棺	-10.2994
惰	-10.2996
不聼	-10.3
擒獻	-10.3001
涼州	-10.3002
歸附	-10.3014
秘	-10.3025
苟	-10.3029
遮	-10.303
初六日	-10.3032
藏匿	-10.3034
鬻	-10.3036
今已	-10.3039
所能	-10.3041
另行	-10.3043
輯	-10.3044
製	-10.3059
而止	-10.306
三鎮	-10.3065
貲	-10.3065
繳	-10.3065
驛站	-10.3066
宋人	-10.3069
該犯	-10.3069
古人	-10.307
忠賢	-10.307
為亂	-10.3071
贖	-10.3072
至京	-10.3072
射之	-10.3078
嚴飭	-10.3082
猶有	-10.3086
草木	-10.3091
東都	-10.31
不書	-10.3104
鞫	-10.3104
輦	-10.3105
宣和	-10.3108
帝以	-10.3108
鄒	-10.3112
庶人	-10.3117
萬世	-10.3117
不法	-10.3119
沁	-10.3119
使其	-10.3123
著將	-10.3138
禱	-10.3142
伴	-10.3143
死於	-10.3146
齡	-10.3147
不識	-10.3148
之術	-10.3151
不止	-10.3159
生於	-10.3164
民力	-10.317
等物	-10.317
事件	-10.3172
恭順	-10.3172
丁卯	-10.3175
貟	-10.3178
望之	-10.3178
軍機	-10.318
科卜多	-10.3182
畔	-10.3184
曷	-10.3187
行臺	-10.3191
曰諾	-10.3191
秦檜	-10.3191
致仕	-10.3192
之前	-10.3194
吏部	-10.3205
馳赴	-10.3211
數目	-10.3213
若能	-10.3214
和碩	-10.3217
鳩	-10.3221
緞	-10.3221
撰	-10.3222
巾	-10.3222
主事	-10.323
玠	-10.3231
其上	-10.3235
復以	-10.3244
安危	-10.3245
兖	-10.325
雖然	-10.3251
諸州	-10.3251
納之	-10.3253
駝隻	-10.3259
得㫖	-10.326
不進	-10.3261
又復	-10.3261
梅	-10.3261
若是	-10.3266
是非	-10.3272
太常	-10.3279
則是	-10.328
需用	-10.328
奏事	-10.3286
涕	-10.3291
鄖	-10.3293
戌	-10.3293
僃	-10.3298
上諭内閣曰	-10.3299
鼠	-10.33
腰	-10.3302
袒	-10.3303
翔	-10.3303
未到	-10.3303
韓世忠	-10.3306
遂與	-10.3308
㑹議	-10.331
屢次	-10.3323
漳	-10.3324
西域	-10.3325
哀公	-10.3328
克用	-10.3329
而能	-10.3331
灣	-10.3335
綂	-10.3337
元年春正月	-10.3337
沂	-10.334
耆	-10.334
相公	-10.334
也子	-10.3353
勤王	-10.3355
仲尼	-10.3365
米石	-10.3369
所用	-10.3369
經畧	-10.3373
以為然	-10.3376
轍	-10.3377
枯	-10.3378
窮蹙	-10.3379
逐之	-10.3381
無一	-10.3384
太廟	-10.3386
世之	-10.3397
轉運	-10.34
騎兵	-10.3401
溥	-10.3411
外委	-10.3414
喀倫	-10.3416
康熙	-10.3417
天道	-10.3417
又聞	-10.342
輔國	-10.3426
營盤	-10.344
等奏言	-10.344
所需	-10.3441
勞苦	-10.3441
郡城	-10.3445
乃與	-10.3447
筵	-10.3457
倒斃	-10.3458
國相	-10.3459
欲與	-10.346
是否	-10.3471
二十四	-10.3473
之米	-10.3475
古今	-10.3483
潭	-10.3487
鉞	-10.3493
辛卯	-10.3495
譯	-10.3497
鑑	-10.3498
滯	-10.3499
置之	-10.35
萬民	-10.35
邦彦	-10.3502
函	-10.3502
不義	-10.3503
頸	-10.3504
佚	-10.3505
奬賞	-10.3505
黍	-10.3507
始皇	-10.3517
㑹稽	-10.3523
丙	-10.3524
秦伯	-10.3527
寗	-10.3529
䕫	-10.3532
平陽	-10.3536
兵五百名	-10.3537
其時	-10.3542
和闐	-10.3547
真定	-10.3554
玉保	-10.3557
梁王	-10.3557
至矣	-10.3559
援兵	-10.3562
亥	-10.3562
户口	-10.3564
安設	-10.3567
莫之	-10.3568
班師	-10.3576
自取	-10.3577
感激	-10.358
筭	-10.3582
相國	-10.3583
禮義	-10.3583
弭	-10.3584
今據	-10.3585
壮	-10.3586
三十里	-10.3589
而求	-10.3596
汾	-10.3599
家人	-10.3604
僖	-10.3605
執之	-10.3609
孽	-10.361
之世	-10.3612
詩云	-10.3618
檀	-10.3618
揮	-10.3619
儻	-10.3622
初八日	-10.3623
勒兵	-10.3626
蘓	-10.3626
濁	-10.3627
親征	-10.363
差遣	-10.363
各犯	-10.3631
敵國	-10.3646
二十六日	-10.3647
或曰	-10.365
凉州	-10.3651
處分	-10.3654
而欲	-10.3654
阿南達	-10.3658
癸卯	-10.3659
今既	-10.366
梗	-10.3661
之㑹	-10.3664
之氣	-10.3667
曰陛下	-10.3668
簡親王	-10.367
第一	-10.3672
邯鄲	-10.3673
於諸侯	-10.3675
建炎	-10.3677
人君	-10.3684
大驚	-10.3687
中有	-10.3688
潁	-10.3692
未敢	-10.3692
新城	-10.3695
昻	-10.3696
必欲	-10.3697
孫士毅	-10.3699
紳	-10.3702
莫如	-10.3703
久之	-10.3704
瑪木特	-10.3705
不逺	-10.3707
河中	-10.3707
青州	-10.3709
東京	-10.3709
黄帝	-10.371
所敗	-10.3721
通判	-10.3726
者則	-10.3729
乙卯	-10.374
促	-10.3742
盍	-10.3743
繇	-10.3743
不動	-10.3747
曰吾聞	-10.3747
殖	-10.3747
廵撫	-10.3748
矩	-10.3748
應用	-10.3753
徐州	-10.3761
弗能	-10.3763
有五	-10.3764
盡力	-10.3767
繹史卷	-10.3768
請將	-10.3773
黃帝	-10.3774
黄仕簡	-10.378
緯	-10.3783
女子	-10.3783
併力	-10.3784
撓	-10.3786
頻	-10.3787
巴圖爾	-10.3788
相持	-10.3788
賓	-10.3789
無窮	-10.379
闗係	-10.3794
自今	-10.3798
而弗	-10.3804
王宗	-10.3811
西面	-10.3813
駟	-10.3815
以期	-10.3819
兵少	-10.382
踴躍	-10.3824
冝	-10.3825
矣故	-10.3826
餓	-10.3826
墻	-10.3828
更換	-10.3831
殃	-10.3832
尚屬	-10.3838
子也	-10.3841
一也	-10.3845
達爾黨阿	-10.3851
等疏奏	-10.3854
派撥	-10.3858
奏入上命軍機大臣傳諭	-10.386
弃	-10.386
噶爾藏多爾濟	-10.3863
安能	-10.3864
陟	-10.3864
灘	-10.3867
之餘	-10.3867
榖梁傳	-10.3868
之閒	-10.387
燧	-10.3873
於國	-10.3873
所至	-10.3873
來使	-10.3874
白馬	-10.3878
再三	-10.3883
有此	-10.3889
諸公	-10.389
紇	-10.3893
道也	-10.3896
應之	-10.3903
璽	-10.3903
譖	-10.3904
溫	-10.3907
窘	-10.3908
寓	-10.3908
吿	-10.3909
拾	-10.3909
轡	-10.3912
船隻	-10.3913
千匹	-10.3915
可否	-10.392
三朝北盟㑹編卷	-10.392
有疾	-10.392
收其	-10.3928
破賊	-10.3931
上䟽	-10.3935
冶	-10.3949
謫	-10.3953
傍	-10.3955
几	-10.3958
鬱	-10.3959
直𨽻	-10.396
筮	-10.3961
良玉	-10.3961
耦	-10.3962
中興	-10.3964
各城	-10.3968
奏明	-10.3972
其次	-10.3974
故能	-10.3976
之政	-10.3977
北方	-10.3978
者三	-10.3978
自為	-10.3979
宣子	-10.3982
尚書令	-10.3987
與戰	-10.3988
山谷	-10.3988
對曰臣	-10.3989
埋	-10.3989
副都綂	-10.3995
繡	-10.3998
初七日	-10.4002
矣而	-10.4004
莊子	-10.4004
派員	-10.4005
王公	-10.4005
可比	-10.4006
觶	-10.4006
於前	-10.4008
釋之	-10.4015
台吉等	-10.4019
遷延	-10.4022
最為	-10.4024
大梁	-10.4028
氷	-10.4033
袍	-10.4036
栗	-10.4043
達爾	-10.4044
逐一	-10.4044
十餘里	-10.4051
宦官	-10.4053
諸事	-10.4062
巴延	-10.4067
士誠	-10.4069
中路	-10.407
贍	-10.4072
三路	-10.4073
無他	-10.4074
得木齊	-10.4075
㕔	-10.4077
齊師	-10.4078
似此	-10.4079
知州	-10.408
未定	-10.4081
璘	-10.4083
等事	-10.4083
詹	-10.41
畿	-10.4101
勅諭	-10.4102
漢王	-10.411
以便	-10.411
議政大臣	-10.4113
曰彼	-10.4117
紙	-10.412
賁	-10.4122
搏	-10.4124
牀	-10.4125
嬴	-10.4126
日期	-10.4126
副之	-10.4128
鼻	-10.4132
殺死	-10.4133
此㫖	-10.4142
殺傷	-10.4143
不疑	-10.4143
添兵	-10.4145
京兵	-10.4149
拒守	-10.4153
三公	-10.4154
捜捕	-10.4158
謚	-10.4159
粲	-10.416
洽	-10.4165
苛	-10.4168
箕	-10.4169
觸	-10.417
譙	-10.4171
招討使	-10.4173
現今	-10.4174
誤國	-10.4177
張儀	-10.4177
燕京	-10.4178
棗	-10.418
聖人之	-10.4183
指示	-10.4185
到時	-10.4186
晉師	-10.4189
不明	-10.419
大理	-10.4192
身死	-10.4193
漠	-10.4195
得力	-10.4195
禍福	-10.4197
酌議	-10.4197
以圖	-10.4198
二名	-10.4199
自守	-10.4199
子路	-10.4201
購	-10.4202
領軍	-10.4204
疇	-10.4205
亦必	-10.4206
奉天	-10.4208
逵	-10.4208
的	-10.421
疲乏	-10.4212
下士	-10.4213
失守	-10.4213
侵擾	-10.4215
告急	-10.4216
不意	-10.4221
在位	-10.4228
不暇	-10.4228
江州	-10.4229
佔	-10.4233
努三	-10.4233
閤	-10.4235
進士	-10.4235
親戚	-10.4236
中途	-10.4241
行軍	-10.4241
汝等	-10.4245
所遣	-10.4246
著即	-10.4246
安撫使	-10.4247
御史中丞	-10.4249
諷	-10.4253
凖	-10.4253
范蠡	-10.4253
畝	-10.4253
哨探	-10.4254
卿等	-10.4255
曰爾	-10.4258
之期	-10.4258
秦秦	-10.4262
而天下	-10.4263
逃入	-10.4264
燕人	-10.4265
退而	-10.427
必以	-10.4271
無知	-10.4272
入貢	-10.4273
人所	-10.4276
掖	-10.4281
宣撫使	-10.4289
以行	-10.4291
桓子	-10.4292
駱駝	-10.4293
踪	-10.4293
剛塔	-10.4294
初九日	-10.4294
士馬	-10.4295
蚤	-10.4295
職銜	-10.4296
聲援	-10.4297
遣其將	-10.4301
同行	-10.4303
賞銀	-10.4307
不加	-10.4313
諸道	-10.4318
兵於	-10.4318
東面	-10.4327
謂其	-10.4327
田五	-10.433
偵	-10.4334
繹	-10.4338
拂	-10.434
磨	-10.4341
曹操	-10.4342
圍之	-10.4351
為首	-10.4354
分遣	-10.4359
而反	-10.4364
為名	-10.4368
之制	-10.4369
以事	-10.4372
偪	-10.4375
彼時	-10.4377
荅	-10.4377
西門	-10.4379
以次	-10.4379
朔方	-10.4381
策應	-10.4387
弦	-10.4387
愁	-10.4388
都尉	-10.4389
在京	-10.4391
朕心	-10.4392
盗賊	-10.4398
速赴	-10.4399
策楞等	-10.4403
盜賊	-10.4403
四萬	-10.4404
行人	-10.4404
退保	-10.4406
雅爾哈善等	-10.4407
看守	-10.4413
邊境	-10.4415
朱全忠	-10.4418
壻	-10.4419
頑	-10.4421
覘	-10.4421
槩	-10.4425
乞降	-10.4426
生民	-10.4426
一等	-10.4427
風雨	-10.4428
躡	-10.4429
大呼	-10.4439
此言	-10.4439
而不知	-10.4451
水師	-10.4452
望見	-10.4459
狩	-10.446
指揮使	-10.4464
餘黨	-10.4465
暫行	-10.4468
課	-10.4469
浪	-10.4471
枉	-10.4472
伏望	-10.4478
韓非子	-10.4479
於人	-10.4486
文帝	-10.4488
榆	-10.4505
丈夫	-10.4506
厄魯特等	-10.4507
君也	-10.451
己卯	-10.4512
㳺牧	-10.4515
邸	-10.4517
降者	-10.4521
壯士	-10.4521
間道	-10.4524
又不	-10.4527
陜甘	-10.4528
割地	-10.4529
攻擊	-10.4531
國子	-10.4533
社稷之	-10.4535
前經	-10.4535
時有	-10.4538
民心	-10.4538
不可勝	-10.4541
即如	-10.4553
厄	-10.4557
復命	-10.4558
們	-10.4559
都爾伯特	-10.456
等將	-10.4562
召之	-10.4563
波羅泥都	-10.4564
潔	-10.4567
峽	-10.4568
頓首	-10.4573
飭令	-10.4577
至城下	-10.4585
安置	-10.459
等各	-10.46
逰擊	-10.4603
克圖	-10.4605
二十五	-10.4605
而民	-10.4607
沔	-10.4608
侃	-10.4608
千餘名	-10.4608
染	-10.4609
卦	-10.4612
甚為	-10.4615
弓矢	-10.4624
一言	-10.4626
副将	-10.463
奏到	-10.463
孟嘗君	-10.4632
受傷	-10.4632
自將	-10.4634
號曰	-10.4639
戢	-10.4644
封為	-10.4646
任承恩	-10.4649
城門	-10.4658
軍器	-10.4669
齊國	-10.4675
獻公	-10.4679
惟是	-10.4682
洮	-10.4688
要地	-10.4688
之議	-10.4689
樞宻院	-10.4695
晩	-10.4696
賞賜	-10.4696
恬	-10.4702
二聖	-10.4702
聽其	-10.4703
益州	-10.4707
諳達	-10.471
鎮撫	-10.4712
惟有	-10.4713
擊敗	-10.4715
未聞	-10.4715
尚書省	-10.4719
之類	-10.4727
諳	-10.4733
郷	-10.4735
鄂爾多斯	-10.4735
大里杙	-10.4736
終身	-10.4738
廂	-10.4739
舌	-10.474
凍	-10.474
軒	-10.4742
次第	-10.4744
楚國	-10.4748
各員	-10.475
呉王	-10.4753
便宜	-10.4756
也非	-10.4763
公同	-10.4764
而成	-10.4766
並進	-10.4771
無能	-10.4771
七人	-10.4774
諌曰	-10.4774
事也	-10.4776
鷹	-10.4779
時日	-10.4779
佗	-10.4782
灼	-10.4783
栢	-10.4784
胤	-10.4785
糜	-10.4786
子女	-10.4786
殯	-10.4787
吏民	-10.4789
弄	-10.479
有道	-10.479
岳飛	-10.4793
也又	-10.48
安南	-10.4806
諸軍事	-10.4809
以待之	-10.4814
惶	-10.4816
相近	-10.4817
並非	-10.4817
吐谷渾	-10.4819
杭	-10.4825
搆	-10.4825
也然	-10.4827
碑	-10.4827
憾	-10.4827
等亦	-10.4829
也遂	-10.4829
鞍	-10.4829
其情	-10.4829
桐	-10.4831
太宰	-10.4831
㦸	-10.4834
黼	-10.4835
繪	-10.4835
出口	-10.4836
闗中	-10.4855
清河	-10.4858
署理	-10.4859
病故	-10.4864
人人	-10.4865
必無	-10.4868
丹濟拉	-10.4869
築城	-10.487
初一日	-10.4872
諸将	-10.4873
東海	-10.4874
西方	-10.4881
御前	-10.4883
下令	-10.4884
王使	-10.4889
潞	-10.4889
言其	-10.489
等率	-10.4895
亦屬	-10.4896
九百	-10.4901
額森	-10.4906
於君	-10.4909
宣公	-10.4912
噶爾丹䇿零	-10.4917
後即	-10.4923
中行	-10.4924
斬獲	-10.4925
敵騎	-10.4927
膚	-10.4929
嗜	-10.4931
非禮也	-10.494
入於	-10.4942
守臣	-10.4949
之聲	-10.495
陛	-10.4953
以救	-10.4953
旬日	-10.4954
緬	-10.4959
骨肉	-10.4964
個	-10.4967
烟	-10.4967
二年春正月	-10.4969
漆	-10.497
髮	-10.497
官屬	-10.4972
又諭曰	-10.4972
五六	-10.4974
鉤	-10.4975
舍人	-10.4975
種種	-10.4978
枚	-10.4979
思明	-10.4986
禮之	-10.4986
審訊	-10.499
潰散	-10.4991
必死	-10.4993
雖欲	-10.4997
繼之	-10.4999
兵二千名	-10.5
父之	-10.5003
下獄	-10.5007
泉州	-10.5009
人者	-10.5009
僑	-10.501
徐嗣曽	-10.5014
如果	-10.5015
像	-10.5015
叩頭	-10.5018
孜	-10.5019
雀	-10.502
馳驛	-10.502
兔	-10.5023
等奏言臣等	-10.5025
髙麗	-10.5026
看來	-10.5027
子貢	-10.5028
臣恐	-10.5029
奄	-10.5029
藻	-10.503
哈達哈等	-10.5034
歩騎	-10.5038
由此	-10.5041
近日	-10.5044
小民	-10.5046
為左	-10.505
漢兵	-10.5053
愛之	-10.5057
夙	-10.5058
克之	-10.5059
汜	-10.5059
坑	-10.5062
森	-10.5062
逓	-10.5062
伏誅	-10.5066
阿桂福康安	-10.5066
叅領	-10.5067
不忠	-10.5067
寤	-10.5068
追及	-10.507
禁中	-10.5077
非常	-10.5078
豈非	-10.5088
竟不	-10.509
忠信	-10.5093
縣知縣	-10.5094
宵	-10.5095
嚴宻	-10.5096
三代	-10.5099
水軍	-10.51
兖州	-10.5104
今君	-10.5107
兩處	-10.5107
朽	-10.5113
熱河	-10.5116
凱旋	-10.5118
天威	-10.5119
佯	-10.512
僖公	-10.5123
即當	-10.5137
以禮	-10.5145
永昌	-10.5146
應將	-10.5147
苴	-10.5148
六人	-10.5151
不盡	-10.5152
伊子	-10.5152
侵犯	-10.5154
柏	-10.5157
歟	-10.5158
郝	-10.5159
區區	-10.5161
叢	-10.5162
差人	-10.5167
成衮扎布等	-10.5169
楚之	-10.5169
八千	-10.5173
之母	-10.5176
不虞	-10.5179
以書	-10.518
無遺	-10.5181
東平	-10.5188
塔爾	-10.5189
甘州	-10.5199
捍	-10.5201
𥘉	-10.5201
挈	-10.5203
曽子	-10.5204
霧	-10.5204
免其	-10.5206
慝	-10.5207
䇿妄阿喇布坦	-10.5208
屯練	-10.5217
或謂	-10.5218
河間	-10.5221
至軍營	-10.5222
不屈	-10.5223
民不	-10.5225
生事	-10.5226
毫無	-10.5226
不待	-10.5235
可知	-10.5235
上天	-10.524
將軍等	-10.5241
之物	-10.5243
秦之	-10.5244
嶽	-10.5247
之樂	-10.5247
更為	-10.5248
譴	-10.525
臣愚	-10.525
驥	-10.525
不測	-10.5252
皓	-10.5253
砦	-10.5254
芮	-10.5254
愬	-10.5255
豪傑	-10.5256
録曰	-10.5257
再拜稽首	-10.5262
頴	-10.5263
可不	-10.5264
於道	-10.5264
貴賤	-10.5273
者即	-10.5275
勒圖	-10.5282
稜	-10.5289
老弱	-10.529
西藏	-10.5293
大舉	-10.5293
二千人	-10.5293
縮	-10.5295
艘	-10.5296
韜	-10.5297
億	-10.5298
為太子	-10.5299
淡水	-10.5299
渝	-10.5299
土謝圖汗	-10.53
杭州	-10.53
㸔	-10.53
即皇帝位	-10.5302
法度	-10.5302
障	-10.5305
宣慰	-10.5311
男子	-10.5313
侍御史	-10.5313
城池	-10.5314
卿大夫	-10.5316
不殺	-10.5318
多矣	-10.5319
之屬	-10.5319
而自	-10.5328
制置使	-10.5328
此地	-10.5329
泗州	-10.5333
五百人	-10.5336
户部	-10.5337
關中	-10.5338
並令	-10.5341
隆徳	-10.5347
亢	-10.5348
烝	-10.5349
布政使	-10.5349
驤	-10.535
傲	-10.535
南門	-10.5351
索倫兵	-10.5353
奏入上諭軍機大臣曰	-10.5354
廣陵	-10.5356
聖王	-10.5359
步騎	-10.5363
臨陣	-10.5373
糧食	-10.5374
永興	-10.5374
山中	-10.5377
道府	-10.5384
大赦	-10.5385
降於	-10.5387
軍糧	-10.5391
自然	-10.5392
姻	-10.5396
婢	-10.5396
討賊	-10.5397
灾	-10.5398
灰	-10.5404
不願	-10.5405
部曲	-10.5411
封疆	-10.5422
新疆	-10.5423
非所	-10.5428
初三日	-10.5428
其妻子	-10.5435
僱	-10.5437
失之	-10.5438
淹	-10.5441
天祚	-10.5442
守將	-10.5443
挐	-10.5444
被害	-10.5445
奕	-10.5445
其主	-10.5446
眉	-10.5446
蠲	-10.5446
已極	-10.5447
策布登扎布	-10.5449
既得	-10.5449
閑	-10.5449
瀆	-10.545
狹	-10.5454
叔父	-10.5454
闇	-10.5455
其首	-10.5456
而得	-10.546
姑息	-10.5462
告知	-10.5462
千户	-10.5469
河朔	-10.547
追捕	-10.5475
絹	-10.5478
召募	-10.5483
有二	-10.5483
回至	-10.5483
生畨	-10.5484
奉表	-10.5484
僕射	-10.5485
是夜	-10.5488
策凌	-10.5488
蔡攀龍	-10.549
而又	-10.5491
曲沃	-10.5491
少卿	-10.5492
踪跡	-10.5493
寕	-10.5495
碎	-10.5499
勃	-10.5499
句踐	-10.5501
欲立	-10.5509
前據	-10.5509
三十年	-10.5513
開封府	-10.5516
宣撫司	-10.5516
其徒	-10.5519
以應	-10.5522
隨時	-10.5523
至京師	-10.5525
歸于	-10.5525
天時	-10.5525
亡國	-10.5526
員外郎	-10.5526
委任	-10.5536
其謀	-10.5537
嚕	-10.554
二曰	-10.554
安國	-10.5541
軍行	-10.5545
迄	-10.5545
失利	-10.5546
簡子	-10.5548
諛	-10.5549
楊景素	-10.5551
分道	-10.5554
圜	-10.5556
有竒	-10.5558
為主	-10.5559
進剿	-10.5562
既至	-10.5564
等因	-10.5566
滅之	-10.5567
督臣	-10.5568
滿漢	-10.557
不恤	-10.5576
矢石	-10.5578
在上	-10.5581
匹夫	-10.5581
元祐	-10.5588
曰然則	-10.5589
霄	-10.5589
戕	-10.559
翰林學士	-10.5594
調兵	-10.5597
渥	-10.5597
皆在	-10.5598
南山	-10.5599
會同	-10.56
揣	-10.5601
大雨	-10.5602
鐡	-10.5604
耶律	-10.5604
初二日	-10.5605
此外	-10.5607
疑懼	-10.5609
二十餘	-10.5615
安民	-10.5617
其城	-10.5618
即著	-10.5622
所親	-10.5626
俱有	-10.5626
𥙿	-10.5633
不戰	-10.5636
調撥	-10.5639
已到	-10.5642
人數	-10.5649
彰化	-10.5651
夥	-10.5652
保䕶	-10.5652
始終	-10.5653
從而	-10.5657
永寧	-10.566
扎木	-10.5663
師曠	-10.5666
之費	-10.5669
而卒	-10.5674
風俗	-10.5676
之任	-10.5679
機㑹	-10.568
墾	-10.5681
送往	-10.5683
百年	-10.5684
邏	-10.5689
世充	-10.569
周之	-10.5695
琨	-10.5695
柔然	-10.5697
諾爾布	-10.5698
咸陽	-10.57
知㑹	-10.5701
梓	-10.5701
且曰	-10.5707
伐楚	-10.5708
巡查	-10.5712
和碩齊	-10.5713
奏入	-10.5713
一應	-10.5715
上流	-10.5717
留兵	-10.5717
連日	-10.5722
商人	-10.5724
並將	-10.5726
太上皇	-10.5726
庶子	-10.5729
凱	-10.5731
既有	-10.5734
周室	-10.5735
托克托	-10.5742
汰	-10.5742
馬步	-10.5743
眼	-10.5746
正在	-10.5746
二州	-10.5748
蔵	-10.5748
又令	-10.5749
之戰	-10.5749
勞績	-10.575
醴	-10.5751
絶其	-10.5752
秦人	-10.5755
元帥府	-10.5755
臣僚	-10.5756
送之	-10.5762
之盛	-10.5763
獲罪	-10.5768
及此	-10.5771
張邦昌	-10.5771
都城	-10.5772
預為	-10.5781
盾	-10.5787
勣	-10.5789
沉	-10.5791
窺伺	-10.5792
劣	-10.5796
審明	-10.5796
年羮堯	-10.5796
即應	-10.5812
摺内	-10.5812
不敬	-10.5815
酌定	-10.5819
可傳諭	-10.5823
孺	-10.5824
士氣	-10.5829
若水	-10.5829
稽查	-10.5831
必先	-10.5833
漢書	-10.5843
忤	-10.5845
熹	-10.5848
公事	-10.5848
鄉導	-10.5849
曩	-10.585
品級	-10.5851
竆	-10.5852
䜛	-10.5852
礟	-10.5853
不自	-10.5853
之家	-10.5857
示之	-10.5859
宦者	-10.5859
臨安	-10.586
唐主	-10.5861
䇿應	-10.5863
衣冠	-10.587
㕘將	-10.5874
為質	-10.5877
無敢	-10.5877
聲息	-10.5878
查出	-10.5878
宰執	-10.5881
國有	-10.5887
攻圍	-10.5889
殺戮	-10.5894
必能	-10.5899
不幸	-10.5899
恐有	-10.5901
也王	-10.5902
夭	-10.5902
戰而	-10.5903
寫	-10.5903
已至	-10.5904
錦衣	-10.5906
無厭	-10.5906
一次	-10.5909
世祖	-10.5911
廷臣	-10.5911
興兵	-10.5912
防䕶	-10.5917
神明	-10.5917
一一	-10.5918
引見	-10.5921
承辦	-10.5926
議曰	-10.5927
以正	-10.5929
將至	-10.5932
三桂	-10.5933
助之	-10.5941
之重	-10.5942
畀	-10.5945
椒	-10.5945
大破	-10.5948
媚	-10.5948
楞	-10.5948
在於	-10.5949
懾	-10.595
詩序	-10.5951
盛京	-10.5952
大人	-10.5954
劉光世	-10.5958
諸大夫	-10.5962
庶幾	-10.5962
勅書	-10.5963
禁止	-10.597
三分	-10.5972
必敗	-10.5976
伊尹	-10.5984
肆行	-10.5984
原係	-10.5985
平凉	-10.5986
運至	-10.5986
也是故	-10.5989
柯	-10.5993
一犯	-10.5995
中郎將	-10.5996
懐光	-10.5999
隷	-10.5999
何敢	-10.6
離散	-10.6
虚實	-10.6
阿蘭泰	-10.6001
立于	-10.6005
夲	-10.6005
肺	-10.6009
谿	-10.6009
也凡	-10.6011
阿里	-10.6012
不但	-10.6012
轄	-10.6015
而不可	-10.6017
廬州	-10.6018
解到	-10.6021
人之所	-10.6022
作速	-10.6023
刑罰	-10.6023
軍節度使	-10.6024
兵内	-10.6027
授之	-10.6027
都統制	-10.6035
各兵	-10.6036
財物	-10.6037
淑	-10.6046
因而	-10.6046
贄	-10.6047
人口	-10.6048
尤為	-10.6048
祇	-10.6049
㨿	-10.605
减	-10.605
猖獗	-10.6051
底店	-10.6053
令人	-10.6054
今若	-10.6058
用命	-10.606
自相	-10.6063
無故	-10.6064
身為	-10.607
等官	-10.6072
招降	-10.6074
供稱	-10.6075
根本	-10.6085
王建	-10.6088
也公	-10.6092
險阻	-10.6096
之始	-10.6097
脚	-10.6098
不入	-10.6098
三十六	-10.6099
熾	-10.6099
鄂拓克	-10.6103
羊隻	-10.6103
季子	-10.6103
氛	-10.6103
揑	-10.6103
達什達瓦	-10.6104
瑄	-10.6105
憫	-10.6106
廖	-10.6107
之黨	-10.6108
緑營	-10.611
選派	-10.6115
而用之	-10.6115
漢主	-10.6115
固辭	-10.6116
北門	-10.6117
又奏言	-10.6122
勤勞	-10.6124
聲言	-10.6128
數千里	-10.6129
兵丁等	-10.6133
親身	-10.6133
他人	-10.6134
布衣	-10.6134
來聘	-10.6135
回衆	-10.6136
此乃	-10.6138
唱	-10.6151
囂	-10.6152
撒	-10.6155
臻	-10.6156
旂	-10.6157
哩	-10.6158
場	-10.6159
迪	-10.6163
被執	-10.6165
南方	-10.6165
柰何	-10.6167
奉諭㫖	-10.6169
日中	-10.617
臣下	-10.6174
等日	-10.6176
泰山	-10.6177
單騎	-10.6178
可為	-10.618
仍留	-10.6183
以俟	-10.6184
也此	-10.6185
謂之曰	-10.6187
無多	-10.6188
所致	-10.6192
莊大田	-10.6198
孟子	-10.6199
妨	-10.6201
開府儀同三司	-10.6201
塞卜騰	-10.6202
之權	-10.6203
意欲	-10.6203
等十	-10.6204
罹	-10.6204
瀘	-10.6205
大懼	-10.6206
夀張	-10.6209
毓	-10.6212
父老	-10.6212
就擒	-10.6212
朴	-10.6212
漳州	-10.6212
凝	-10.6214
撤囘	-10.6215
金兵	-10.6216
哈達	-10.6217
實屬	-10.6217
驍	-10.6219
今日之	-10.6219
必致	-10.622
足敷	-10.622
主之	-10.6234
荆南	-10.6236
馬力	-10.6237
先君之	-10.6239
矣然	-10.6239
有隙	-10.6241
無算	-10.6242
乘勝	-10.6242
大計	-10.6242
則可	-10.6246
一朝	-10.6247
聖明	-10.6249
璠	-10.6251
河内	-10.6252
為上	-10.6255
龎	-10.6259
雇	-10.626
糴	-10.626
殫	-10.6262
王黼	-10.6262
哈什哈	-10.6263
紿	-10.6264
之敗	-10.6264
公使	-10.6267
乃令	-10.6268
辭以	-10.6269
達爾漢	-10.627
屯兵	-10.6271
巴朗	-10.6275
説苑	-10.628
從其	-10.6283
疑之	-10.6287
蠻夷	-10.6289
豈敢	-10.6291
復有	-10.6298
不思	-10.6305
實心	-10.6306
於市	-10.631
也昔	-10.6311
福州	-10.6311
絰	-10.6313
所宜	-10.6315
卞	-10.6316
扎哈沁	-10.632
靈壁縣知縣馬驌撰	-10.6321
遣回	-10.6328
救援	-10.6329
于成龍	-10.6329
曰非	-10.6332
縊	-10.6334
禮部	-10.6339
許諾	-10.6339
明堂	-10.6342
禆	-10.6343
良嗣	-10.6345
奮力	-10.6349
俱在	-10.635
委員	-10.6351
獲其	-10.6354
壬	-10.6355
西川	-10.6356
團	-10.6363
回紇	-10.6366
三十餘	-10.6368
搶奪	-10.6371
軫念	-10.6372
精鋭	-10.6372
吳越	-10.6374
又言	-10.6374
孝子	-10.6382
奏言據	-10.6383
家語	-10.6387
誠心	-10.6388
車馬	-10.6392
萬年	-10.6392
四日	-10.6394
當以	-10.6394
言語	-10.6394
城郭	-10.6402
三百人	-10.6406
又與	-10.6406
矣若	-10.641
何事	-10.641
實有	-10.6411
太史	-10.6417
䝉古兵	-10.6417
捧	-10.6418
扞	-10.6419
索取	-10.642
竣	-10.642
翻	-10.6422
汲	-10.6423
卭	-10.6423
何人	-10.6425
陸路	-10.6426
平原	-10.6426
大將軍伯費揚古	-10.6428
殤	-10.6429
而走	-10.6431
諸君	-10.6433
向來	-10.6441
牛馬	-10.6442
京東	-10.6442
繆	-10.6443
在内	-10.6443
滿洲兵	-10.6443
所稱	-10.6444
之主	-10.6444
在前	-10.6449
起居	-10.645
布哈	-10.6452
之望	-10.6454
否則	-10.6457
自謂	-10.6459
商議	-10.6461
勢必	-10.6461
固請	-10.6463
若以	-10.6464
海口	-10.6466
迎之	-10.6467
三十萬	-10.6471
相應	-10.6472
亡也	-10.6473
般	-10.6473
愍	-10.6474
瓜	-10.6476
藍翎	-10.6477
蘆	-10.6478
潼闗	-10.6478
膠	-10.6478
阿卜都	-10.6479
三曰	-10.6479
蟻	-10.6479
之北	-10.6481
果能	-10.6482
憎	-10.6482
魄	-10.6483
未易	-10.6484
數萬人	-10.6484
芒	-10.6486
禀稱	-10.6491
大都督	-10.6493
惠王	-10.6495
兵勢	-10.6498
皆曰	-10.65
每年	-10.6504
倉卒	-10.651
濟農	-10.651
吾君	-10.6515
不亦	-10.6518
哈達哈	-10.6522
萬户	-10.6522
亳	-10.6522
間有	-10.6524
綴	-10.6525
擄	-10.6526
聞知	-10.6527
牡	-10.6529
則必	-10.6529
起事	-10.653
之南	-10.6532
寮	-10.6532
倪	-10.6533
銓	-10.6534
上諭兵部	-10.6535
悔之	-10.6535
多寡	-10.6536
進軍	-10.6537
永福	-10.6537
以觀	-10.6539
䑕	-10.654
張家口	-10.6548
挑選	-10.6551
神武	-10.6559
重耳	-10.656
首級	-10.6562
十里	-10.6566
棄城	-10.6566
道成	-10.6573
不立	-10.6576
延慶	-10.6578
蒯	-10.658
鎮江	-10.658
案内	-10.658
欲使	-10.6583
奨	-10.6584
捉	-10.6585
拊	-10.6586
應得	-10.6586
其位	-10.6586
額爾	-10.6587
夙夜	-10.6587
戊	-10.6589
即行正法	-10.659
擊賊	-10.659
相距	-10.6592
甚矣	-10.6596
坎	-10.6597
夫婦	-10.6598
阼階	-10.66
軍門	-10.6602
授以	-10.6603
前行	-10.6607
内閣	-10.6614
將以	-10.6618
戰敗	-10.6619
艦	-10.6628
顒	-10.6636
南朝	-10.6636
甚厚	-10.6637
攀	-10.6639
萬五千	-10.6639
稹	-10.664
陪	-10.6641
邕	-10.6645
駝馬	-10.6646
構	-10.6646
禽獸	-10.6647
其死	-10.6647
宗族	-10.665
教之	-10.6658
君子之	-10.6661
後路	-10.6661
幾何	-10.6672
交易	-10.6673
兩月	-10.6673
朕已	-10.6686
蒐	-10.6687
前已	-10.6688
前次	-10.6691
妥辦	-10.6691
羈	-10.6695
巴雅爾	-10.6695
尼瑪	-10.6696
其族	-10.6697
惕	-10.6698
為相	-10.6698
何得	-10.6699
又云	-10.6699
拔達克山	-10.6699
豈得	-10.6701
輟	-10.6701
兄子	-10.6701
涪	-10.6708
貴朝	-10.6708
隨行	-10.6709
光武	-10.6711
六師	-10.6714
正也	-10.6717
移文	-10.6736
被殺	-10.674
餘賊	-10.6741
與否	-10.6744
刁	-10.6745
不備	-10.6745
阿喇卜灘	-10.6747
鈔	-10.6749
伏思	-10.675
君其	-10.675
鵬	-10.6751
轅	-10.6752
泌	-10.6752
鳯山	-10.6753
驍勇	-10.6754
降㫖令	-10.6754
印信	-10.6755
不可復	-10.6756
常青等	-10.6757
喀喇	-10.6759
醢	-10.676
入宫	-10.676
宿衛	-10.6761
侯景	-10.6761
首領	-10.6762
該省	-10.6766
諸國	-10.6768
食之	-10.6769
有天下	-10.6773
魯人	-10.6776
合機宜	-10.6778
癸	-10.6782
在後	-10.6788
商酌	-10.6788
兵五千	-10.6795
開封	-10.6795
三十日	-10.6795
未可知	-10.6796
精騎	-10.6797
以慰	-10.6797
上聞	-10.6799
猶豫	-10.6799
圃	-10.6802
啇	-10.6802
𤼵	-10.6803
與子	-10.6804
目前	-10.6804
膝	-10.6806
何罪	-10.6806
斫	-10.6807
帖	-10.6807
為天子	-10.6813
軍於	-10.6816
者謂之	-10.6819
慶復	-10.6819
不仁	-10.6825
已上	-10.6831
以拒	-10.6833
男婦	-10.6835
曰請	-10.6836
哈喇	-10.6836
事體	-10.6842
永安	-10.6844
土喇	-10.6845
五十餘	-10.6845
焚其	-10.6852
不允	-10.6852
於魏	-10.6854
著𫝊諭	-10.6855
一戰	-10.6856
萇	-10.6856
額駙	-10.686
議和	-10.686
親往	-10.686
此之謂	-10.6861
亞	-10.6861
怯懦	-10.6862
武功	-10.6863
聞風	-10.6863
寝	-10.6863
亦即	-10.6863
㤗	-10.6864
漏網	-10.6864
務須	-10.6864
奉聖㫖	-10.6864
卡撒	-10.6865
不使	-10.6866
澗	-10.6868
襃	-10.687
歸誠	-10.6871
已死	-10.6871
亦已	-10.6874
彝	-10.6876
千金	-10.6876
克什	-10.6878
我我	-10.688
山林	-10.6885
而已矣	-10.6886
御史大夫	-10.6886
既經	-10.6889
任其	-10.6889
車騎	-10.69
二十五年	-10.6904
厲公	-10.6905
乃復	-10.6906
邠	-10.6906
備用	-10.6906
兩軍	-10.6908
淮南子	-10.6908
趙孟	-10.6908
梧	-10.6909
儼	-10.691
瓌	-10.6914
議處	-10.6915
簒	-10.6917
剿捕	-10.6917
稔	-10.6918
擲	-10.6919
回鶻	-10.6921
粗	-10.6921
責之	-10.6921
觴	-10.6922
紓	-10.6922
涕泣	-10.6923
二十八	-10.6926
可與	-10.6927
江寧	-10.6932
見於	-10.6934
禀報	-10.6936
朕所	-10.6937
中國之	-10.6938
撃之	-10.6938
有無	-10.6939
發遣	-10.6941
後患	-10.6952
也於是	-10.6953
歸於	-10.6953
欲得	-10.6958
擊破之	-10.6962
二十四年	-10.6966
矣乃	-10.6968
全行	-10.697
寂	-10.697
儘	-10.6972
謀反	-10.6972
納穆扎爾	-10.6976
議論	-10.6976
籠	-10.6977
羅卜臧	-10.6978
縳	-10.6978
惇	-10.6979
乃還	-10.6981
據供	-10.6984
冥	-10.6988
曰不然	-10.6989
聖㫖	-10.699
㑹于	-10.6992
毫	-10.6994
呼曰	-10.6994
而起	-10.6995
以相	-10.6996
戰士	-10.6998
涿	-10.7002
兵敗	-10.7002
奉到	-10.7008
所聞	-10.701
亦著	-10.7014
承襲	-10.7017
椿	-10.7017
直言	-10.7018
靖逺	-10.7021
六七	-10.7021
曦	-10.7023
亦不能	-10.7028
黄金	-10.703
塗炭	-10.7031
戸部	-10.7031
顏	-10.7032
按察使	-10.7033
帷	-10.7033
雩	-10.7034
拒戰	-10.7034
赴行在	-10.7036
䑓	-10.7037
酷	-10.7038
䇿凌	-10.7039
侂胄	-10.704
黨壩	-10.7041
左良玉	-10.7042
舊城	-10.7044
守仁	-10.7046
如齊	-10.7048
文侯	-10.7049
昆弟	-10.7049
濟河	-10.705
勉之	-10.705
竄逸	-10.7052
外藩	-10.7072
等語臣等	-10.7073
以討	-10.7073
𤓰	-10.7075
焉用	-10.7078
以濟	-10.7081
頗羅鼐	-10.7082
居中	-10.7082
衙	-10.7085
京西	-10.7085
方今	-10.7087
歷	-10.7088
凢	-10.7089
暢	-10.709
之險	-10.709
剪	-10.7092
㐮	-10.7094
泰等	-10.71
曰今日	-10.7107
世宗	-10.7112
國君	-10.7114
之勞	-10.7115
格隆	-10.7117
此非	-10.7119
五千人	-10.712
之威	-10.7121
伯克等	-10.7125
罷兵	-10.7129
直前	-10.713
無常	-10.7139
彞	-10.7139
弑其君	-10.7141
於王	-10.7142
斬其	-10.7143
巴蜀	-10.7144
鉏	-10.7145
鑾	-10.7145
忒	-10.7145
餽	-10.7147
亘	-10.7147
駒	-10.7149
中書舍人	-10.715
耻	-10.7151
雕	-10.7151
必得	-10.7151
陂	-10.7153
稱臣	-10.7159
濡	-10.7161
六日	-10.7161
良民	-10.7165
勝負	-10.7167
沿海	-10.7167
添設	-10.7168
之賢	-10.7174
殊屬	-10.7174
不樂	-10.7175
陳侯	-10.718
武公	-10.7185
其能	-10.7188
以来	-10.7194
小子	-10.7196
各州縣	-10.7201
貼	-10.7203
江東	-10.7204
瑶	-10.7204
於我	-10.7205
瘠	-10.721
綰	-10.721
人言	-10.7211
寛宥	-10.7211
君子曰	-10.7212
妙	-10.7212
鈎	-10.7213
經略大學士	-10.7213
太上	-10.7213
磬	-10.7214
畏懼	-10.7214
九州	-10.7218
不拜	-10.722
過於	-10.7223
使我	-10.7224
永貴等	-10.7225
等於	-10.7226
該鎮	-10.7227
倘有	-10.7227
而上	-10.7227
疾病	-10.7229
因此	-10.723
成子	-10.7235
二三子	-10.724
往返	-10.7248
明瑞等	-10.7248
先遣	-10.7251
遵行	-10.7257
廪	-10.726
各官	-10.7263
卹	-10.7264
酌留	-10.7268
三年春正月	-10.7268
康親王	-10.727
顓頊	-10.727
何足	-10.7271
消息	-10.7273
稼	-10.7274
死亡	-10.7274
死守	-10.7274
元吉	-10.7276
乗輿	-10.7279
將伊等	-10.728
小心	-10.7282
而食	-10.7284
有異	-10.729
平江	-10.7292
其他	-10.7297
告于	-10.7301
齊集	-10.7307
埽	-10.731
之美	-10.731
輅	-10.7321
之女	-10.7322
遑	-10.7323
行省	-10.7323
兵數	-10.7324
弗許	-10.7326
出降	-10.7333
噶斯	-10.7334
集議	-10.7337
軍威	-10.7338
皇甫	-10.7339
軍于	-10.734
林甫	-10.734
縱兵	-10.7341
糧石	-10.7341
遣官	-10.7342
戎行	-10.7344
之資	-10.7344
太保	-10.7349
之㫖	-10.7351
七十餘	-10.7352
祭酒	-10.7353
閉門	-10.7354
聰明	-10.7356
豫章	-10.7358
從此	-10.7365
自効	-10.7365
稟	-10.7366
之族	-10.737
情罪	-10.7373
求之	-10.7375
賢人	-10.7375
小臣	-10.7375
懼而	-10.7376
賊番	-10.7381
常山	-10.7381
口外	-10.7382
詎	-10.7382
訛	-10.7382
滛	-10.7383
翎	-10.7384
愼	-10.7385
逃往	-10.7385
欲殺	-10.7385
籽種	-10.7387
阿固達	-10.7387
三朝北盟㑹編卷一百	-10.7388
且夫	-10.739
僧辯	-10.7393
辠	-10.7394
死生	-10.7397
凡有	-10.7397
扎爾	-10.7397
前驅	-10.7404
戍兵	-10.7406
直至	-10.7407
二百名	-10.7412
也故曰	-10.7412
殆盡	-10.7412
要隘	-10.7416
不順	-10.7416
某等	-10.7418
於天	-10.7418
來攻	-10.7421
交部	-10.7429
春王正月	-10.743
次于	-10.7431
不稱	-10.7436
委之	-10.7436
諸生	-10.7437
而東	-10.7437
嫡	-10.7442
縦	-10.7443
而南	-10.7443
亶	-10.7445
影	-10.7447
電	-10.7448
汙	-10.7449
獨不	-10.745
何能	-10.7451
到齊	-10.7454
當即	-10.7455
將吏	-10.7457
脅從	-10.747
一百五十	-10.7471
无	-10.7474
内附	-10.7477
王王	-10.7477
四十里	-10.7479
叔向曰	-10.7481
其利	-10.7485
斷其	-10.7485
不解	-10.7488
殄	-10.7494
蔡侯	-10.7495
燮	-10.7496
紏	-10.7496
該員	-10.7496
又使	-10.7497
涖	-10.7498
二十三年	-10.7499
乳	-10.7501
員缺	-10.7501
燔	-10.7502
范陽	-10.7503
苞	-10.7504
交戰	-10.7504
慧	-10.7505
至於此	-10.7507
誡	-10.7507
嗣源	-10.7508
同往	-10.7509
中書侍郎	-10.751
夷使	-10.7513
以是	-10.7514
米糧	-10.7517
國家之	-10.7519
二十一年	-10.7521
員弁	-10.7522
等帶領	-10.7523
誅戮	-10.7527
光弼	-10.7527
逃出	-10.7527
申諭	-10.753
留於	-10.7535
不畏	-10.7539
二犯	-10.7543
行間	-10.7547
而好	-10.7552
翊	-10.7555
諭之曰	-10.7556
可惡	-10.7557
装	-10.7558
販	-10.7559
愷	-10.7559
長孫	-10.756
不可謂	-10.7561
趲	-10.7561
安親王	-10.7562
置酒	-10.7562
檻	-10.7563
疫	-10.7563
實力	-10.7564
準夷	-10.7564
璟	-10.7564
京口	-10.7564
翠	-10.7565
球	-10.7568
果有	-10.7569
地勢	-10.757
萬計	-10.7573
接續	-10.7574
伏羌	-10.7578
雅爾	-10.7578
都監	-10.7579
際	-10.7579
些	-10.758
方可	-10.7582
紀年	-10.7585
母弟	-10.7587
良臣	-10.759
乎且	-10.7591
兩次	-10.7592
諸人	-10.7595
第巴	-10.7597
亦非	-10.76
議定	-10.7602
十有二	-10.7609
貴人	-10.761
簿	-10.7614
車臣汗	-10.7616
丑	-10.7618
其説	-10.7619
黑龍江	-10.7621
毗	-10.7622
賢能	-10.7622
羡	-10.7623
君王	-10.7623
畱	-10.7624
繒	-10.7624
耳今	-10.7625
訓練	-10.7626
今聞	-10.7627
諄	-10.7628
以獻	-10.7628
数	-10.763
得一	-10.7631
若夫	-10.7632
紀律	-10.7633
朋黨	-10.7635
州牧	-10.7635
二百餘	-10.7638
功名	-10.7646
諸葛	-10.7647
重慶	-10.7649
兵革	-10.7652
各一	-10.7652
詳議	-10.7653
攻克	-10.7654
印務	-10.7655
朝政	-10.7655
目下	-10.7661
其軍	-10.7663
議事	-10.7664
僉事	-10.7664
國中	-10.7667
示以	-10.7668
叛逆	-10.7669
天朝	-10.767
有能	-10.7673
棄其	-10.7678
為人臣	-10.7678
等至	-10.7679
蜀主	-10.7679
觔	-10.7679
隴西	-10.768
種地	-10.768
議政王等	-10.7681
被圍	-10.7682
祕	-10.7682
堤	-10.7683
議政諸臣	-10.7683
額爾德尼	-10.7684
車輛	-10.7685
以示鼓勵	-10.7685
給之	-10.7686
瞽	-10.7687
購買	-10.7688
汶	-10.7689
計議	-10.7689
鮮卑	-10.7691
建昌	-10.7697
施恩	-10.7697
為民	-10.7702
莊王	-10.7707
奉詔	-10.7709
兩河	-10.771
不可得	-10.771
孺子	-10.7719
之罪也	-10.7719
上遣	-10.7722
宦	-10.7722
又將	-10.7724
該管	-10.7727
持節	-10.7731
亦多	-10.7732
你	-10.7734
酋長	-10.7735
筠	-10.7736
皆由	-10.7737
請和	-10.7741
撥給	-10.7742
員外	-10.7742
揀	-10.7742
黙然	-10.7743
吾聞	-10.7743
怙	-10.7743
等謹按	-10.7744
監察御史	-10.7744
葵	-10.7744
相望	-10.7747
愕	-10.7749
告以	-10.775
纓	-10.775
夷吾	-10.775
旦夕	-10.7751
四十餘	-10.7753
肝	-10.7753
非所以	-10.7754
一經	-10.7755
曰某	-10.7756
第二	-10.7758
以伐	-10.7759
楚州	-10.776
問其故	-10.7761
二十人	-10.7764
紀山	-10.7764
財用	-10.7769
制置	-10.7772
東川	-10.7774
興元	-10.7775
𦂳	-10.7775
月餘	-10.7776
鎮標	-10.7782
重誨	-10.7783
可疑	-10.7784
戰死	-10.7785
圍城	-10.7788
侍從	-10.7791
其兵	-10.7791
子羽	-10.7793
若果	-10.7794
顥	-10.7795
親信	-10.78
公室	-10.78
鄂爾昆	-10.7803
攻戰	-10.7803
乗間	-10.7804
十數	-10.7804
羅卜藏	-10.7804
穎	-10.7806
迭	-10.7809
濵	-10.781
禘	-10.781
汚	-10.7811
即時	-10.7812
歆	-10.7812
奏入上	-10.7813
泛	-10.7815
啟行	-10.7816
泣曰	-10.7817
禍亂	-10.782
征伐	-10.7827
其私	-10.7828
孟克	-10.7828
保寧	-10.7829
二十六年	-10.783
天王	-10.7831
招集	-10.7834
步兵	-10.7839
上意	-10.7839
上黨	-10.7842
督兵	-10.7842
不去	-10.7843
大亂	-10.7844
明公	-10.7845
親率	-10.7848
茲	-10.7849
方略	-10.7849
之機	-10.785
二十二年	-10.7856
卻	-10.7856
往諭	-10.7856
相度	-10.786
友諒	-10.7861
妄行	-10.7865
富寧安	-10.7866
楹	-10.7869
渠魁	-10.787
不和	-10.787
菜	-10.787
㪚	-10.7871
班珠爾	-10.7871
閫	-10.7871
磁	-10.7871
緊要	-10.7874
雍正	-10.7874
噐	-10.7874
功臣	-10.7874
巴圖爾額爾克濟農	-10.7875
於内	-10.7877
六軍	-10.788
鱗	-10.7882
來告	-10.7884
該督撫	-10.7885
無難	-10.7885
遂入	-10.7886
㕘領	-10.7887
御營	-10.7893
晏子曰	-10.7894
郡太守	-10.7898
所供	-10.79
交割	-10.7902
酌派	-10.7905
照舊	-10.7905
政令	-10.7908
藍翎侍衛	-10.7912
蘄	-10.7922
夫差	-10.7923
徳州	-10.7926
于朝	-10.7927
覔	-10.7928
樞密院	-10.793
幅	-10.7931
慟哭	-10.7933
䇿布登扎布	-10.7933
鉅	-10.7933
村庄	-10.7933
畆	-10.7933
逆黨	-10.7934
嶠	-10.7934
瑟	-10.7935
刦	-10.7935
又欲	-10.7935
槍	-10.7936
居正	-10.7936
大元帥	-10.7936
售	-10.7936
九千	-10.7937
以從	-10.7937
噬	-10.7937
蠧	-10.7938
粥	-10.794
衙門	-10.7941
此二	-10.7941
自有	-10.7941
火器營	-10.7942
赦之	-10.7943
陜省	-10.7943
大營	-10.7944
召見	-10.7945
哈爾	-10.7945
視其	-10.7946
建德	-10.7946
上怒	-10.7947
屨	-10.7947
堅壁	-10.7947
有四	-10.7954
軍機大臣等	-10.7956
而生	-10.7959
與人	-10.7962
䘚子	-10.7968
官職	-10.7969
并力	-10.7971
然之	-10.7972
東路	-10.7974
义	-10.7974
死矣	-10.7975
不聴	-10.7975
潮州	-10.7979
伏乞	-10.798
如之何	-10.7981
甚是	-10.7983
二十一	-10.7986
之弊	-10.7986
犀	-10.7989
尅	-10.7989
巻	-10.7993
賠	-10.7994
懽	-10.7994
俱令	-10.7995
磔	-10.7995
貂	-10.7995
蘇四十三	-10.7997
猶可	-10.7999
同姓	-10.8001
禮部尚書	-10.8003
奉命	-10.8004
之才	-10.8005
誰能	-10.8005
依舊	-10.8007
帯領	-10.8008
說苑	-10.8008
亦不可	-10.8008
翰林	-10.8008
以利	-10.8012
延綏	-10.8014
著授為	-10.8015
滿漢官兵	-10.8016
可憫	-10.8017
必至	-10.8018
管子	-10.8019
藩司	-10.8021
賊犯	-10.8025
又命	-10.8027
皆死	-10.8031
查奏	-10.8039
軍法	-10.8039
相去	-10.8044
科爾沁	-10.8052
畢沅	-10.8053
證	-10.8056
譛	-10.8057
趙盾	-10.8057
滚	-10.8057
寰	-10.8058
聊	-10.8058
二十七	-10.8058
瑗	-10.806
霖	-10.8061
阿巴噶斯	-10.8061
房屋	-10.8062
戕害	-10.8063
蠶	-10.8063
儁	-10.8065
奏至	-10.8067
而君	-10.8068
以防	-10.8071
有人	-10.8081
雖未	-10.8082
秦師	-10.8084
足矣	-10.8094
天意	-10.8096
者所以	-10.8096
旗分	-10.8104
故地	-10.8108
甘心	-10.8113
殽	-10.8116
已降㫖	-10.8117
五十里	-10.8118
猜	-10.8118
燾	-10.8118
竈	-10.8118
襄子	-10.8118
所以為	-10.8119
敇	-10.812
干戈	-10.812
蜂	-10.812
蓬	-10.8121
菑	-10.8121
擕	-10.8122
叅贊大臣	-10.8122
皇天	-10.8123
拆	-10.8124
及諸	-10.8125
訾	-10.8125
棄城走	-10.8125
致書	-10.8126
擒之	-10.8127
二處	-10.813
盡忠	-10.8134
等曰	-10.8135
得失	-10.8137
逃遁	-10.8142
事勢	-10.8148
制勝	-10.8149
兵威	-10.8151
河水	-10.8151
戰勝	-10.8153
而行之	-10.8155
都指揮	-10.8158
理應	-10.8164
赴京	-10.8171
劭	-10.8173
何時	-10.8173
斷不	-10.8175
主婦	-10.8175
琰	-10.8178
馘	-10.8179
交通	-10.8181
終日	-10.8182
散騎常侍	-10.8183
層	-10.8184
上命軍機大臣傳諭	-10.8184
怖	-10.8184
沾	-10.8185
殉	-10.8185
兆恵等	-10.8186
剖	-10.8187
城西	-10.8187
迤	-10.8188
額爾徳尼	-10.8188
慿	-10.8188
統轄	-10.8189
賊兵	-10.819
蠱	-10.8192
土黙特	-10.8193
叡	-10.8194
二千名	-10.8194
奪之	-10.8195
都綂	-10.8202
三百名	-10.8202
矣吾	-10.8205
故有	-10.8205
途次	-10.8207
不日	-10.8207
太學	-10.8208
乃召	-10.8215
光世	-10.8215
逃歸	-10.8215
拔之	-10.8216
生子	-10.822
采石	-10.8221
石頭	-10.8221
順天	-10.8221
是嵗	-10.8222
上御	-10.8226
軍統制	-10.823
前奏	-10.8234
逆之	-10.8235
隘口	-10.824
將佐	-10.824
窮追	-10.8242
之厄魯特	-10.8246
不難	-10.8248
揔	-10.825
旗幟	-10.825
悅	-10.825
靳	-10.825
油	-10.8251
從逆	-10.8251
陜甘總督	-10.8251
股肱	-10.8251
宣府	-10.8252
事畢	-10.8253
亾	-10.8254
穆占	-10.8254
正當	-10.8256
承嗣	-10.8256
不妨	-10.8258
聶	-10.8258
倉庫	-10.8262
大潰	-10.8263
多方	-10.8265
其力	-10.8266
衣食	-10.8269
所司	-10.8274
等兵	-10.8275
恃其	-10.8276
長樂	-10.8277
熟悉	-10.8278
二帝	-10.8279
前軍	-10.828
京兆	-10.828
仁宗	-10.8283
州知州	-10.8286
不惟	-10.8286
李自成	-10.8287
使民	-10.8289
左翼	-10.83
齊主	-10.8301
不少	-10.8302
進藏	-10.8303
勑	-10.831
丸	-10.8312
齊桓公	-10.8314
不滿	-10.8315
於四月	-10.8316
隰	-10.8316
額爾齊斯	-10.8318
收穫	-10.8318
闖	-10.8318
駱	-10.832
十名	-10.8321
來投	-10.8322
二十三	-10.8323
右丞	-10.8324
馬明心	-10.8326
劔	-10.8329
所餘	-10.8329
亡者	-10.833
標兵	-10.8332
首惡	-10.8332
𫝊諭	-10.8332
貴妃	-10.8334
李成	-10.8337
承恩	-10.8339
三名	-10.8341
衛人	-10.8343
征討	-10.8343
竄入	-10.8343
逼近	-10.8347
皆降	-10.8349
江北	-10.8358
者衆	-10.8362
八日	-10.8362
攻破	-10.8365
蕩平	-10.8366
士奇	-10.8366
察其	-10.8371
洺	-10.8372
治天下	-10.8373
不取	-10.8375
頡	-10.8376
而忘	-10.8377
兩國	-10.8378
追賊	-10.8379
無私	-10.8379
絞	-10.838
拯	-10.838
劇	-10.8381
阿克	-10.8385
棲	-10.8386
諸大臣	-10.8387
希烈	-10.8388
額爾克	-10.839
張皇	-10.8397
生也	-10.8397
套	-10.8398
出門	-10.8399
佐之	-10.84
山後	-10.8402
迎敵	-10.8402
不能自	-10.8403
路徑	-10.8407
各該	-10.8411
中大夫	-10.8411
亦皆	-10.8413
以禦	-10.8414
大業	-10.8415
此案	-10.8417
惟陛下	-10.842
作為	-10.8426
敵兵	-10.8429
餘兵	-10.8431
不軌	-10.8432
矣且	-10.8436
首尾	-10.8437
以避	-10.8437
陀	-10.8439
梯	-10.844
渙	-10.8442
諂	-10.8444
乎其	-10.8444
濳	-10.8445
遂殺	-10.8446
日乆	-10.8447
愿	-10.8447
二十二	-10.8448
領之	-10.8448
覿	-10.8449
羮	-10.8449
摘	-10.8449
麋	-10.8452
以西	-10.8456
聖恩	-10.8456
宫人	-10.8457
同時	-10.8458
皆係	-10.8458
舉事	-10.8459
斷不可	-10.8463
左師	-10.847
察哈爾兵	-10.8471
即遣	-10.8471
要路	-10.8472
營中	-10.8477
暫留	-10.8479
追𠞰	-10.8481
桑阿	-10.8482
此亦	-10.8483
之舉	-10.8483
以南	-10.8484
本末	-10.8487
所留	-10.8489
無疆	-10.8491
旗下	-10.8492
大砲	-10.8496
不納	-10.8496
添派	-10.8496
䕶軍校	-10.8498
議敘	-10.8499
右翼	-10.8501
斗六門	-10.8504
署副都統	-10.8507
尚無	-10.8509
所掠	-10.8509
以為不可	-10.8509
忻	-10.851
䭾	-10.8512
分派	-10.8512
擴	-10.8514
設立	-10.8514
狎	-10.8514
詆	-10.8515
驢	-10.8516
貽悞	-10.8516
梓宫	-10.8518
即有	-10.8521
周元理	-10.8521
髙宗	-10.8523
要犯	-10.8523
曰寡君	-10.8523
何益	-10.8524
權知	-10.8529
存貯	-10.8532
戎狄	-10.8532
无咎	-10.8539
鮑叔	-10.8541
治兵	-10.8541
十分	-10.8543
因循	-10.8552
陽虎	-10.8556
桓公曰	-10.8568
綬	-10.8569
且言	-10.857
拓	-10.8574
濶	-10.8581
又問	-10.8581
榆林	-10.8582
表裏	-10.8584
據險	-10.8586
退縮	-10.8587
卵	-10.8588
而西	-10.859
孝公	-10.8591
所由	-10.8593
與金人	-10.8593
學者	-10.8598
西河	-10.8599
乃可	-10.86
乃得	-10.8601
乆矣	-10.8604
近者	-10.861
其誰	-10.8611
蹕	-10.8612
黄門	-10.8614
延安	-10.8615
不自安	-10.8617
盡殺	-10.8617
前者	-10.8618
百匹	-10.8621
實在	-10.8623
濠州	-10.8627
巴圖魯侍衛	-10.8629
引去	-10.8631
本日	-10.8633
何患	-10.864
闕下	-10.864
故君子	-10.864
乘間	-10.8642
曰天下	-10.8644
所調	-10.8645
纛	-10.8647
旄	-10.8648
赴援	-10.8648
扺	-10.8648
焚之	-10.8649
貽誤	-10.8649
㒺	-10.8651
中書令	-10.8652
墩	-10.8656
輓	-10.8656
何以不	-10.8661
外其	-10.8666
脱逃	-10.867
鄰國	-10.867
夜半	-10.8672
較之	-10.8673
陳蔡	-10.8674
三州	-10.8677
人事	-10.8679
慶封	-10.8682
任事	-10.8684
逆犯	-10.8685
追擊	-10.8687
不修	-10.8687
日食	-10.8688
務宜	-10.8691
尊號	-10.8695
接到	-10.8696
乃出	-10.8697
有常	-10.8702
喇特	-10.8703
山下	-10.8705
親統	-10.8706
王孫	-10.8709
譟	-10.8711
調發	-10.8712
嶺南	-10.8712
藪	-10.8712
罪惡	-10.8713
哈喇沙爾	-10.8713
五帝	-10.8713
扇	-10.8714
馴	-10.8714
遁走	-10.8714
門之外	-10.8714
稻	-10.8715
李克用	-10.8716
㬥	-10.8717
犂	-10.8718
整頓	-10.8718
烹	-10.872
廩	-10.8722
輝特	-10.8727
荆襄	-10.8727
給發	-10.8728
近臣	-10.8729
而使	-10.873
合諸侯	-10.873
勇士	-10.8733
馬騾	-10.8736
已將	-10.8736
通渭	-10.8737
謹按	-10.874
君父	-10.8741
至尊	-10.8743
百八十	-10.8743
此則	-10.8753
之狀	-10.8753
巴圖	-10.8759
恐懼	-10.8762
自以為	-10.8768
擒賊	-10.877
二千餘	-10.8776
而動	-10.8779
樵	-10.878
縋	-10.878
搬	-10.8781
䧏	-10.8781
樸	-10.8783
魏人	-10.8783
劉氏	-10.8784
子家	-10.8784
是何	-10.8784
尋常	-10.8784
莭	-10.8786
腸	-10.8787
撫綏	-10.8788
蠡	-10.8788
摯	-10.8789
糓	-10.879
郎君	-10.8791
即速	-10.8791
拿獲	-10.8791
鳥獸	-10.8793
㢘	-10.8798
宗廟社稷	-10.8798
自陳	-10.8799
為賊所	-10.8802
俘獲	-10.8807
俟其	-10.8808
夷狄	-10.8809
閣下	-10.881
達蘭	-10.8811
以身	-10.8812
察看	-10.8816
智者	-10.8819
事機	-10.8824
嬪	-10.8826
屢經	-10.8828
到京	-10.8829
帝命	-10.8831
猶在	-10.8832
骸	-10.8834
萬騎	-10.8836
確實	-10.8841
逋	-10.8841
而往	-10.8842
祉	-10.8843
子西	-10.8843
孫思克	-10.8845
酈	-10.8846
誑	-10.8847
額林哈畢爾噶	-10.8847
坡	-10.8848
煙	-10.8848
擣	-10.8851
揭	-10.8852
羅卜藏丹津	-10.8852
師于	-10.8853
大掠	-10.8854
已久	-10.8856
蜀人	-10.8857
舖	-10.8857
煽惑	-10.8859
撲滅	-10.8859
河上	-10.886
奏摺	-10.886
槐	-10.8861
三品	-10.8862
東昌	-10.8865
募兵	-10.8868
擊敗之	-10.887
叅政	-10.8873
幸而	-10.8878
之員	-10.8878
濟南	-10.8882
崧	-10.8882
福康安等	-10.8884
餘皆	-10.8885
内山	-10.8888
尚能	-10.8888
先鋒	-10.889
説之	-10.8895
本無	-10.8897
處之	-10.8899
已成	-10.8902
相攻	-10.8903
不悦	-10.8903
金城	-10.8903
模	-10.8911
迎降	-10.8911
釡	-10.8915
文燦	-10.8916
酉	-10.8917
奔走	-10.8917
懌	-10.8918
鄫	-10.892
彘	-10.892
下馬	-10.892
冢	-10.892
組	-10.8921
䇿楞	-10.8921
府知府	-10.8921
善後事宜	-10.8923
遣使來	-10.8925
欠	-10.8926
䝉遜	-10.8928
易於	-10.8929
公私	-10.893
未盡	-10.8931
獻之	-10.8935
浮橋	-10.8935
全軍	-10.8939
進至	-10.8939
一方	-10.8941
擇其	-10.8944
烏梁海等	-10.8954
分給	-10.8955
吉凶	-10.8958
厚恩	-10.8962
昭子	-10.8964
北平	-10.8964
喇布	-10.8964
定公	-10.8966
殺害	-10.8976
鹽水港	-10.8978
遼主	-10.8982
濤	-10.8984
十餘日	-10.8984
徃來	-10.8984
城北	-10.8985
喧	-10.8986
换	-10.8986
委署	-10.8986
楚公子	-10.8987
衂	-10.899
墳	-10.899
迴	-10.8991
悉以	-10.8991
邪教	-10.8991
陳氏	-10.8993
墟	-10.8994
臭	-10.8995
曽經	-10.8997
於本月	-10.8997
得傷	-10.8998
有徳	-10.8999
當是時	-10.9003
金陵	-10.9006
誰敢	-10.9007
即係	-10.9009
乎夫	-10.9009
俱經	-10.9009
二千餘人	-10.9012
墨子	-10.9016
三尺	-10.9021
派委	-10.9022
大臣官員	-10.9024
和親	-10.9025
完顔	-10.9026
各屬	-10.9026
乃退	-10.9032
昨據	-10.9034
平時	-10.9035
吉安	-10.9035
事竣	-10.9038
四夷	-10.9038
親屬	-10.9046
外内	-10.9046
泚	-10.9047
多有	-10.9051
畋	-10.9052
璜	-10.9056
威儀	-10.9056
囘部	-10.9057
宣化	-10.9058
漲	-10.9061
扎拉豐阿	-10.9061
諸將皆	-10.9065
其兄	-10.9065
霍罕	-10.9067
左僕射	-10.9067
舘	-10.9068
湖北	-10.9069
神人	-10.9071
保全	-10.9076
歸國	-10.908
羣盜	-10.9083
一摺	-10.909
兼程	-10.9091
異姓	-10.9091
者何也	-10.9093
未嘗不	-10.9095
九卿	-10.9098
該犯等	-10.9099
實係	-10.9099
二世	-10.9099
遵照	-10.91
什物	-10.9104
楚楚	-10.9105
子産曰	-10.9106
盡心	-10.9106
終始	-10.9109
謂我	-10.9109
成敗	-10.911
宣示	-10.9112
魯克	-10.9112
辦給	-10.9115
辦事大臣	-10.9115
承天	-10.9119
詣闕	-10.912
魏博	-10.9121
喀爾喀等	-10.9124
之孫	-10.9124
頡利	-10.9126
卯	-10.9127
于晉	-10.9127
鎬	-10.9127
瀛	-10.9127
淪	-10.9128
岀	-10.9129
帳房	-10.913
普爾普	-10.913
今日之事	-10.9131
屯於	-10.9132
索諾木	-10.9132
御筆	-10.9132
閘	-10.9132
投出	-10.9135
隗	-10.9135
有寵於	-10.9136
諤	-10.9137
单	-10.9137
齊齊	-10.9139
李氏	-10.9139
脊	-10.9141
革去	-10.9143
将士	-10.9145
四曰	-10.9145
始得	-10.9147
特遣	-10.9151
不平	-10.9153
照數	-10.9153
睢	-10.9156
領催	-10.916
遣發	-10.9162
先登	-10.9162
士庶	-10.9167
留駐	-10.9168
四名	-10.9173
標下	-10.9175
不治	-10.918
三百餘	-10.918
召公	-10.9181
珠爾	-10.9181
江上	-10.9183
不愛	-10.9184
逆戰	-10.9191
其辭	-10.9191
徐鼎士	-10.9192
子反	-10.9192
勍	-10.9193
撫臣	-10.9193
逃走	-10.9195
㓕	-10.9198
剽	-10.9198
忱	-10.9198
罪人	-10.9199
國書	-10.9199
節度副使	-10.9199
搭	-10.92
老子	-10.92
戀	-10.9201
乘馬	-10.9203
簽	-10.9204
四年春正月	-10.9205
七八	-10.9205
餌	-10.9205
鹵	-10.9206
傅恒	-10.9206
不避	-10.9208
俄而	-10.9211
沿邊	-10.9211
之謂也	-10.9215
彼必	-10.9215
三等侍衛	-10.9215
夏人	-10.9218
為奴	-10.9219
一案	-10.9231
之孫也	-10.9232
敗績	-10.9234
六萬	-10.9238
襲擊	-10.9244
中丞	-10.9246
安樂	-10.9251
處置	-10.9252
吴主	-10.9252
晰	-10.9256
臨時	-10.9257
邊界	-10.9258
滄	-10.9258
引兵還	-10.9261
弗聽	-10.9263
遙	-10.9265
遣大臣	-10.9268
遺史曰	-10.9268
拳	-10.9268
朕亦	-10.927
琛	-10.927
鴈	-10.9271
治國	-10.9272
三處	-10.9273
邈	-10.9274
和珅	-10.9274
諾顔	-10.9274
上諭大學士曰	-10.9274
草料	-10.9275
鳳翔	-10.9276
前鋒統領	-10.9276
檢校	-10.9277
無主	-10.9278
吳人	-10.9289
營伍	-10.9289
可得而	-10.929
未足	-10.9292
天津	-10.9294
淖爾	-10.9295
添調	-10.9296
牲口	-10.9297
平原君	-10.9297
朝服	-10.9301
急攻	-10.9302
奉迎	-10.9303
三千餘	-10.9304
行宻	-10.9308
派令	-10.9309
扎薩克台吉	-10.931
大敗之	-10.9317
不守	-10.9321
惟恐	-10.9323
官弁	-10.9324
姒	-10.9326
四五	-10.9329
喜曰	-10.933
年少	-10.933
坐視	-10.9335
蠢	-10.9339
七萬	-10.9341
臕	-10.9341
夀春	-10.9342
十餘年	-10.9342
悼公	-10.9343
上諭大學士等曰	-10.9346
歉	-10.9346
鉛	-10.9346
定邊右副將軍	-10.9346
浹	-10.9347
公議	-10.9349
復位	-10.9349
配渡	-10.935
晉楚	-10.935
治亂	-10.9351
集事	-10.9351
有寵	-10.9352
廷尉	-10.9354
鄂爾	-10.9356
上問	-10.9358
曰善哉	-10.9359
倦	-10.9362
戰守	-10.9363
九江	-10.9365
候㫖	-10.937
部郎中	-10.9373
南昌	-10.9374
王彦	-10.9376
勦賊	-10.9376
克復	-10.9381
二百餘人	-10.9381
之兄	-10.9385
分起	-10.9386
大水	-10.9388
之策	-10.9388
既定	-10.9389
招安	-10.9393
霸先	-10.9395
其所以	-10.94
漢人	-10.9402
應照	-10.9404
晞	-10.9407
難於	-10.9408
二十六	-10.9409
俶	-10.941
督師	-10.9412
左丞	-10.9412
跳	-10.9413
神農	-10.9414
巡檢	-10.9415
急公	-10.9415
宋徐夢莘撰炎興下帙起	-10.9415
遲悞	-10.9415
承疇	-10.9416
根株	-10.9416
莊浪	-10.942
龔	-10.9423
去矣	-10.9426
黄巢	-10.9426
有變	-10.9434
赤子	-10.9436
無一人	-10.9437
更始	-10.9437
協助	-10.9437
戰艦	-10.9438
流民	-10.9441
王安石	-10.9444
官司	-10.9444
退屯	-10.9447
不須	-10.9449
始行	-10.9454
五名	-10.9455
項羽	-10.9457
應付	-10.9459
戮力	-10.9459
不救	-10.9464
蔓延	-10.9466
弑君	-10.9468
不能支	-10.947
兵五百	-10.9472
琿	-10.9476
懇請	-10.9479
禎	-10.9482
犍	-10.9484
猗	-10.9484
無辜	-10.9485
戡	-10.9486
漳泉	-10.9487
瑛	-10.9487
驚擾	-10.9487
糶	-10.9487
豚	-10.949
懲創	-10.9491
駁	-10.9491
熒惑	-10.9492
門下侍郎	-10.9492
出迎	-10.9493
註	-10.9493
窟	-10.9494
縱火	-10.9495
原議	-10.9501
篚	-10.9502
受爵	-10.9504
一靣	-10.9506
直入	-10.951
亦難	-10.9511
如楚	-10.9511
楚克	-10.9512
樞密	-10.952
鄉勇	-10.9521
銑	-10.9522
四路	-10.9522
臣之所	-10.9522
訓諭	-10.9523
不果	-10.9525
不正	-10.9526
訊問	-10.9531
誘之	-10.9531
之形	-10.9534
三子	-10.9535
乆之	-10.9535
解圍	-10.9536
黎明	-10.9537
衞侯	-10.9542
阿喇	-10.9546
鹿仔草	-10.9552
奪獲	-10.9552
子皮	-10.9557
騷	-10.9558
安慶	-10.9559
慘	-10.9562
婚	-10.9564
諧	-10.9564
萃	-10.9565
方畧	-10.9565
淄	-10.9566
䖏	-10.9568
申飭	-10.9569
轂	-10.9571
桀紂	-10.9572
葦	-10.9572
后稷	-10.9574
不可勝計	-10.9574
其氣	-10.9575
於五月	-10.9575
劉錡	-10.9578
二十里	-10.958
一百二十	-10.9581
而與之	-10.9584
抵禦	-10.9584
有言曰	-10.9585
巴顔	-10.9586
滎陽	-10.9586
兵二萬	-10.9586
使副	-10.9587
而哭	-10.9589
得勝	-10.9594
州諸軍事	-10.9598
行宫	-10.9598
不早	-10.9598
字子	-10.9601
來奔	-10.9602
無過	-10.9602
奮擊	-10.9603
伐宋	-10.9604
一家	-10.9609
後宫	-10.9611
不令	-10.9613
不息	-10.9614
不能制	-10.9618
供應	-10.9624
叛賊	-10.9625
涇	-10.9627
聦	-10.9631
在軍營	-10.9631
魏大斌	-10.9632
話	-10.9632
孫子	-10.9633
汎	-10.9634
琪	-10.9634
大夏	-10.9634
馬爾賽	-10.9635
漿	-10.9636
督戰	-10.9637
尅期	-10.9637
种師道	-10.9638
推諉	-10.9639
愛隆阿	-10.9641
參贊大臣	-10.9641
邀擊	-10.9641
跨	-10.9641
焚燒	-10.9643
羙	-10.9644
降人	-10.9644
賊已	-10.9644
閏月	-10.9645
蠲免	-10.9647
雲梯	-10.9648
蔡攸	-10.9648
所惡	-10.9648
至巴里坤	-10.9649
吝	-10.965
回子	-10.9652
非是	-10.9653
未獲	-10.9653
一帯	-10.9661
邊外	-10.9662
呈報	-10.9663
克魯倫	-10.9664
城南	-10.9667
千餘里	-10.9669
數十里	-10.9671
從來	-10.9672
出塞	-10.9673
嘆	-10.9675
無所不	-10.968
二十七年	-10.9683
别將	-10.9686
擁衆	-10.9686
追襲	-10.9689
屯聚	-10.969
周人	-10.9691
從弟	-10.9692
瓚	-10.9692
咨稱	-10.9694
而遣之	-10.9695
輓運	-10.9701
鄧州	-10.9706
大赦改元	-10.9706
供出	-10.9706
仆	-10.9706
擔	-10.9706
昬	-10.9706
䇿旺喇卜灘	-10.9708
敘	-10.9708
烽	-10.9711
暫駐	-10.9711
掲	-10.9713
挽	-10.9713
食盡	-10.9714
隐	-10.9715
大將軍費揚古	-10.9715
慄	-10.9716
沸	-10.9716
綵	-10.9717
有名	-10.9719
蕆事	-10.9724
綦	-10.9724
小醜	-10.9729
達爾扎	-10.9734
部將	-10.9734
將何以	-10.9737
至意	-10.9739
所派	-10.9741
甚近	-10.9744
三司	-10.9747
官兵義民	-10.9748
答曰	-10.9753
聽命	-10.9764
明主	-10.9766
成事	-10.977
雲貴	-10.9772
煽	-10.9774
埔	-10.9775
魯國	-10.9776
武俊	-10.9777
杲	-10.9779
趙良棟	-10.978
搗	-10.9781
捐軀	-10.9781
郁	-10.9783
郵	-10.9783
𦙍	-10.9785
冀州	-10.9785
霑	-10.9785
不亦可乎	-10.9786
塔爾巴噶台	-10.9786
火器	-10.9787
渤海	-10.9788
潛逃	-10.9788
調用	-10.979
涇原	-10.9792
淮甸	-10.9792
不戰而	-10.9792
穢	-10.9794
其才	-10.9795
迂	-10.9797
郭藥師	-10.9798
萬邦	-10.9799
五百里	-10.9802
無備	-10.9802
綠旗	-10.9805
為界	-10.9806
餘孽	-10.9807
阿渾	-10.9807
博士	-10.981
查核	-10.981
設伏	-10.9812
統軍	-10.9812
不赦	-10.9812
秦兵	-10.9813
來援	-10.9813
接戰	-10.9816
以徇	-10.9818
既成	-10.9822
傳檄	-10.9826
亦係	-10.9831
之本也	-10.9838
勿使	-10.9845
來犯	-10.9853
存留	-10.9854
苻	-10.9854
惠公	-10.9859
殄滅	-10.9864
渚	-10.9865
盥	-10.9865
囿	-10.9866
逃去	-10.9866
島	-10.9866
無極	-10.9866
内應	-10.9867
騶	-10.9867
抜	-10.9868
大河	-10.9871
王后	-10.9871
魯君	-10.9873
拾遺	-10.9874
手足	-10.9876
崇韜	-10.9876
曹伯	-10.9881
平涼	-10.9881
覲	-10.9883
撥兵	-10.9883
軍政	-10.9883
著賞給	-10.9885
兩宫	-10.9887
静寧	-10.9888
殊為	-10.9889
逺矣	-10.9889
周禮	-10.9889
國用	-10.9891
商賈	-10.9894
金使	-10.9895
萬嵗	-10.9904
不敢進	-10.9905
是年	-10.9906
淵聖	-10.9908
滿洲䝉古	-10.9908
衆多	-10.991
二十九	-10.9913
曰夫子	-10.9915
仰天	-10.9916
北京	-10.9922
死傷	-10.9924
響	-10.9926
又恐	-10.9929
額林沁	-10.993
和州	-10.9933
詳加	-10.9934
竿	-10.9936
冷	-10.9936
狼狽	-10.9936
鄂輝	-10.9936
迺	-10.9938
叟	-10.9938
驂	-10.9941
濕	-10.9941
湯武	-10.9941
達頼喇嘛	-10.9942
雨雪	-10.9943
幷	-10.9944
有備	-10.9945
海上	-10.9948
一心	-10.9948
釗	-10.9952
殿前	-10.9952
飛咨	-10.9952
不敢復	-10.9956
閼	-10.9957
報効	-10.9964
陵寢	-10.9964
黙特	-10.9969
素與	-10.9975
披甲	-10.9978
東魏	-10.9981
議覆	-10.9983
打死	-10.9984
從征	-10.9985
統率	-10.9987
送到	-10.9994
提標	-10.9995
表請	-10.9998
為國家	-10.9998
鎔	-10.9999
照料	-11
用人	-11.0002
甲士	-11.0004
安泰	-11.001
侑	-11.001
剽掠	-11.0011
所存	-11.0012
金人攻	-11.0013
定邊左副將軍	-11.0015
評	-11.0015
王亶望	-11.0016
挖	-11.0017
戯	-11.0018
所恃	-11.0019
羿	-11.002
李侍堯奏言	-11.0022
甚急	-11.0024
城陷	-11.0024
釣	-11.0025
功成	-11.0026
好惡	-11.0027
皇祖	-11.003
遣使者	-11.0035
邦國	-11.0036
也曷為	-11.0037
撫定	-11.0037
等率兵	-11.0042
本處	-11.0048
靈王	-11.0049
令伊等	-11.0049
先期	-11.0051
照管	-11.0053
一半	-11.0055
俱行	-11.0057
大抵	-11.0063
黨羽	-11.0064
讀書	-11.0066
知祥	-11.0067
通好	-11.0072
吾聞之	-11.0075
川陜	-11.0079
第三	-11.008
名號	-11.0081
華元	-11.0081
遣其子	-11.0083
部衆	-11.0086
雖已	-11.0086
大半	-11.0087
廢立	-11.0087
遣還	-11.0088
頥	-11.0089
入海	-11.0089
蔚	-11.0091
覇	-11.0091
匄	-11.0092
諮	-11.0093
國法	-11.0094
赦天下	-11.0095
價值	-11.0095
昂	-11.0095
阮	-11.0096
兵一萬	-11.0096
通行	-11.0097
餧	-11.0099
孔雀翎	-11.01
祜	-11.0102
愛民	-11.0104
江浙	-11.0106
亦宜	-11.011
大國之	-11.0112
廼	-11.0112
兩省	-11.0117
何以書	-11.012
銀絹	-11.0125
弗敢	-11.0126
投順	-11.0127
息民	-11.0128
守偹	-11.0129
察達克	-11.013
貨物	-11.013
必當	-11.0131
不得已而	-11.0133
緡	-11.0136
世職	-11.0139
兵法	-11.0139
待罪	-11.0148
保守	-11.0148
水火	-11.0154
兵二百名	-11.0155
報國	-11.0155
之末	-11.0156
顆	-11.0157
入蜀	-11.0158
牂	-11.0162
昱	-11.0165
退走	-11.0166
殂	-11.0166
元忠	-11.0166
巴什	-11.0168
縀	-11.0169
闡	-11.017
葺	-11.0171
子儀	-11.0171
爛	-11.0171
豢	-11.0173
墊	-11.0173
兢	-11.0173
零星	-11.0175
脂	-11.0175
朕思	-11.0177
羔	-11.0178
籩	-11.0178
謀逆	-11.018
招討	-11.018
已抵	-11.0182
於二月	-11.0182
險要	-11.0183
之至也	-11.0189
顔色	-11.0189
公爵	-11.019
但恐	-11.0192
為己	-11.0199
興安	-11.0202
之弟也	-11.0203
號為	-11.0204
即由	-11.0207
金玉	-11.0208
水旱	-11.0211
承㫖	-11.0214
潜善	-11.0228
其半	-11.0231
前来	-11.0233
負恩	-11.0233
乏食	-11.0233
霍集斯	-11.0237
左氏	-11.0239
統制官	-11.0242
進討	-11.0243
求救於	-11.0243
腦	-11.0243
悮	-11.0244
袁州	-11.0245
丹津俄木布	-11.0245
晉侯使	-11.0246
狃	-11.0246
東下	-11.0246
臘	-11.0249
磧	-11.025
殱戮	-11.0253
出境	-11.0255
繋	-11.0256
進逼	-11.0256
不准	-11.0257
宗人	-11.0257
悌	-11.0259
五路	-11.0265
紀綱	-11.0265
備禦	-11.0266
蔡州	-11.0266
協辦	-11.0276
五岱	-11.0277
事宜上諭軍機大臣曰據	-11.0279
必勝	-11.0279
從官	-11.0279
汝南	-11.028
入門	-11.0281
二國	-11.0285
年老	-11.029
周詳	-11.0292
亡命	-11.0295
非吾	-11.03
又諭	-11.0303
始知	-11.0303
聖諭	-11.0306
千七百	-11.0309
兵馬使	-11.0313
策凌等	-11.0317
版	-11.0322
切責	-11.0324
錮	-11.0324
寐	-11.0326
諺	-11.0326
同謀	-11.0329
接壤	-11.0329
顗	-11.033
引軍	-11.033
弇	-11.033
坪	-11.0332
擁兵	-11.0332
猾	-11.0333
高麗	-11.0333
本省	-11.0334
刼掠	-11.0335
反位	-11.0337
異日	-11.0338
勇往	-11.0338
傅庭	-11.0341
恂	-11.0341
公至自	-11.0342
已甚	-11.0343
一千二百	-11.0345
該撫	-11.0346
鄭國	-11.0347
北伐	-11.0348
無疑	-11.0349
拏解	-11.035
千餘級	-11.0351
落職	-11.0352
舒赫徳等	-11.0357
監司	-11.0361
通事	-11.0364
識者	-11.0377
齊楚	-11.0379
數百里	-11.038
相州	-11.0384
仲尼曰	-11.0387
効力贖罪	-11.0388
伐我	-11.039
監禁	-11.0391
鄉里	-11.0392
經營	-11.0392
死士	-11.0395
弗克	-11.0396
䟦	-11.0397
并州	-11.0398
照常	-11.0398
涇州	-11.04
冡	-11.0401
噶爾丹策零	-11.0404
㕘贊	-11.0404
等領兵	-11.0405
稠	-11.0405
堰	-11.0406
漣	-11.0406
騷擾	-11.0407
搖	-11.0408
光禄大夫	-11.0408
黠	-11.041
額駙策凌	-11.0411
正典刑	-11.0411
矧	-11.0413
振旅	-11.0416
太皇太后	-11.0425
其狀	-11.0425
輸誠	-11.0427
汴京	-11.0428
四國	-11.0428
李邦彦	-11.0432
五十名	-11.0433
督辦	-11.0437
暫停	-11.0437
左軍	-11.0437
六合	-11.044
師中	-11.0441
酌撥	-11.0444
不孝	-11.045
雖多	-11.0451
一節	-11.0453
收服	-11.0454
給事	-11.0455
二十九年	-11.0461
聚集	-11.0462
殺掠	-11.0463
文徳	-11.0463
延夀	-11.0465
屬下人	-11.0469
山陽	-11.0471
舒赫德等	-11.0475
相拒	-11.0479
放鎗	-11.048
彧	-11.0481
查郎阿	-11.0483
甚屬可嘉	-11.0484
謝罪	-11.0489
潦	-11.0489
請罪	-11.0491
侍讀學士	-11.0492
昶	-11.0492
弋	-11.0493
騫	-11.0493
譁	-11.0494
寒暑	-11.0494
霽	-11.0495
叠	-11.0495
闗𦂳要	-11.0498
祏	-11.0498
素勒坦沙	-11.05
再查	-11.0502
歸降	-11.0508
璽書	-11.0517
奔潰	-11.0518
五行	-11.0525
天祥	-11.0525
稍稍	-11.0535
也公曰	-11.0539
邾人	-11.0542
子罕	-11.0542
受降	-11.0543
舊制	-11.0545
進忠	-11.055
平州	-11.055
也然則	-11.0552
於六月	-11.0555
不習	-11.0564
無敵	-11.0566
飼	-11.0568
按名	-11.0568
沛公	-11.057
覃	-11.0572
餒	-11.0572
何憂	-11.0573
帽	-11.0573
摶	-11.0579
副總管	-11.0579
旌旗	-11.0581
怨望	-11.0583
詳細	-11.0584
包沁	-11.0584
扈從	-11.0586
不能用	-11.0593
善巴	-11.0596
逆酋	-11.0598
相遇	-11.06
逆首	-11.0604
勸進	-11.0606
困於	-11.0607
國政	-11.0611
于成龍等	-11.0612
五色	-11.0615
朝士	-11.0616
罪狀	-11.0633
危急	-11.0634
心腹	-11.0636
三國	-11.0636
甚盛	-11.0638
薳	-11.0639
廟堂	-11.0644
帮	-11.0646
株	-11.0648
交趾	-11.0649
等帶兵	-11.065
涸	-11.0652
諸縣	-11.0652
沅	-11.0653
隧	-11.0654
軾	-11.0658
鄢	-11.0659
鞠	-11.0661
主簿	-11.0664
千萬	-11.0666
覺羅	-11.0673
觀察使	-11.0677
不敢言	-11.0678
截殺	-11.068
祖父	-11.0681
總統	-11.0685
九日	-11.0685
神宗	-11.0686
云我	-11.0704
殿中	-11.0705
動支	-11.0709
自新	-11.0715
軍興	-11.0716
追擒	-11.0719
附和	-11.072
此意	-11.0723
迥	-11.0724
泓	-11.0727
尋陽	-11.0727
任意	-11.0728
幄	-11.0732
和尚	-11.0732
墉	-11.0732
海明	-11.0732
禮部侍郎	-11.0733
脇	-11.0735
平定準噶爾方略	-11.0735
逺來	-11.0736
允文	-11.0737
兵部侍郎	-11.0737
黷	-11.0738
傅玉	-11.0738
明徳	-11.0739
智伯	-11.0739
甄	-11.0739
經略大學士傅恒	-11.074
架	-11.074
二千五百	-11.0741
芬	-11.0743
恚	-11.0744
晉君	-11.0748
擾害	-11.0753
西階上	-11.0755
單弱	-11.0755
千五百	-11.0758
戰國䇿	-11.0759
手詔	-11.076
仰體	-11.076
黨與	-11.0761
行陣	-11.0763
三十二	-11.0764
回人等	-11.0764
堂邑	-11.0766
宗澤	-11.0767
齊桓	-11.0769
星速	-11.0772
豈無	-11.0775
二帥	-11.0775
輔政	-11.0776
二十餘人	-11.0778
還朝	-11.0783
不繼	-11.0789
西山	-11.079
稍存	-11.0791
調取	-11.0796
可知也	-11.0797
問罪	-11.08
佐食	-11.08
何地	-11.0801
圍困	-11.0802
文學	-11.0811
企	-11.0815
頽	-11.0818
驪	-11.082
兵大敗	-11.0824
馳驛前往	-11.0824
遵照辦理	-11.0825
隨征	-11.0826
舊教	-11.0828
伐晉	-11.0834
昔嶺	-11.0835
遣中使	-11.0835
衛大將軍	-11.0838
翁金	-11.084
何㮚	-11.0844
天祐	-11.0847
訊明	-11.0847
患病	-11.0859
祖宗之	-11.0862
必亡	-11.0863
九年春	-11.0864
曰余	-11.0866
克魯倫河	-11.0868
首逆	-11.0869
樞密使	-11.0872
兵三百名	-11.0876
奏言查	-11.0877
左右皆	-11.088
右衞	-11.0882
㕘奏	-11.0884
有才	-11.0886
廓	-11.089
師古	-11.089
安平	-11.0891
吉林	-11.0892
鄩	-11.0895
誠能	-11.0896
玉帛	-11.0897
首先	-11.0899
馬思喀	-11.09
胸	-11.09
上又命軍機大臣傳諭	-11.0901
舒恕	-11.0903
攔	-11.0904
三十一年	-11.0905
攷	-11.0906
倣	-11.0907
餘兩	-11.0907
礪	-11.0907
之力也	-11.0908
元昊	-11.091
鯀	-11.0912
入冦	-11.0913
村莊	-11.0915
好生	-11.0917
鄂州	-11.092
仍著	-11.0921
全無	-11.0921
者甚衆	-11.0921
恩賞	-11.0922
直學士	-11.0922
赴軍營	-11.093
去嵗	-11.0935
選擇	-11.0935
珠玉	-11.0941
二萬餘	-11.0944
藩鎮	-11.0944
塞外	-11.0945
喀喇沁	-11.0949
而遁	-11.095
問之曰	-11.0954
其鋒	-11.0957
下流	-11.0957
高祖	-11.0959
又敗	-11.0961
東陽	-11.0963
護軍	-11.0964
恩㫖	-11.0966
右僕射	-11.0968
熬茶	-11.0978
南宫	-11.0979
大雪	-11.0979
蚶江	-11.0981
額駙䇿凌	-11.0982
湊	-11.0982
蹟	-11.0984
瘦	-11.0984
朔日有食之	-11.0986
贓	-11.0986
踏	-11.0986
都虞候	-11.0987
重賞	-11.0988
領隊大臣	-11.0989
片	-11.0991
敦多克	-11.0991
葉爾羌喀什噶爾	-11.0993
滌	-11.0994
奥	-11.0995
六十里	-11.0996
笞	-11.0996
感戴	-11.1003
沙漠	-11.1004
帥騎	-11.1005
親臨	-11.1005
骸骨	-11.101
通融	-11.1017
新降	-11.1025
上書言	-11.1032
防秋	-11.1037
爵禄	-11.1038
伐秦	-11.104
遄	-11.1041
宜速	-11.1043
入援	-11.1044
速往	-11.1046
已屬	-11.1046
失色	-11.1047
召還	-11.1053
奔竄	-11.1055
入境	-11.1056
中尉	-11.1059
頗多	-11.106
威武	-11.1063
趙鼎	-11.1066
琅玕	-11.1066
忠孝	-11.1068
奭	-11.1069
謟	-11.1069
如雨	-11.107
軍府	-11.1071
殛	-11.1071
裨	-11.1071
葭	-11.1072
二百人	-11.1072
洵	-11.1073
陕	-11.1073
譲	-11.1073
廆	-11.1075
尼瑪哈	-11.108
貧民	-11.108
滾	-11.108
欲殺之	-11.1083
奔齊	-11.1093
秦晉	-11.1095
縱横	-11.1097
欒氏	-11.1097
武宗	-11.11
照看	-11.1101
遷徙	-11.1105
糾衆	-11.1112
悉力	-11.1113
遂圍	-11.1114
率所部	-11.1129
司射	-11.113
擾亂	-11.1131
希圖	-11.1132
尚存	-11.1137
特命	-11.1141
威將軍	-11.1148
轉運使	-11.1149
逃亡	-11.1152
打死賊匪	-11.1154
慟	-11.1155
蛟	-11.1156
數里	-11.1156
栅	-11.1159
申生	-11.116
俱應	-11.116
廣州	-11.1161
勦捕	-11.1162
糗糧	-11.1163
嫉	-11.1164
仇池	-11.1164
拙	-11.1167
副元帥	-11.1168
閎	-11.1169
仞	-11.1171
吕氏春秋	-11.1172
歐陽	-11.1176
强敵	-11.1178
列子	-11.1179
貢賦	-11.1181
分駐	-11.1182
告竣	-11.1186
釋放	-11.1188
加賞	-11.1205
此之謂也	-11.1207
制度	-11.1212
再議	-11.1212
乗馬	-11.1214
早已	-11.1216
令尹子	-11.122
燕趙	-11.1222
莒人	-11.1223
毎年	-11.123
貢獻	-11.1231
喂	-11.1233
愛人	-11.1238
龐	-11.1239
百户	-11.124
藔	-11.1241
撻	-11.1242
江夏	-11.1242
做	-11.1243
縶	-11.1243
縂	-11.1246
縻	-11.1246
躁	-11.1246
精銳	-11.1247
貺	-11.1247
燎	-11.1248
兵一百名	-11.1249
僥倖	-11.1251
驩	-11.1253
穆爾	-11.1253
贖罪	-11.1255
盆	-11.1257
驪姬	-11.1257
歇	-11.1258
朕㫖	-11.1259
逺方	-11.126
飛飭	-11.1269
倉皇	-11.1271
少師	-11.1271
投降	-11.1272
豫州刺史	-11.1279
通州	-11.128
京畿	-11.1283
背叛	-11.1285
提鎮	-11.1286
禆將	-11.1292
嘆曰	-11.1292
職貢	-11.1293
奏章	-11.1294
二十八年	-11.1295
流離	-11.1298
駐劄大臣	-11.1298
慰諭	-11.1298
喇卜	-11.1301
伊二人	-11.1307
太僕	-11.1311
持重	-11.1318
竣事	-11.132
伊拉古克三庫圖克圖	-11.1323
澧	-11.1327
䕶衛	-11.1329
禧	-11.1331
冗	-11.1331
約有	-11.1331
㑹商	-11.1332
鼓譟	-11.1333
茲謂	-11.1334
詠	-11.1335
剳	-11.1336
賽音	-11.1336
澹	-11.1336
譎	-11.1337
拘泥	-11.1337
犧	-11.1338
深知	-11.134
松潘	-11.134
之至意	-11.1341
筋	-11.1341
逝	-11.1343
北宫	-11.1362
羽林	-11.1366
陽太守	-11.1371
中興之	-11.1373
天氣	-11.1377
城邑	-11.1379
度支	-11.1382
未甞	-11.1385
水土	-11.1392
州安置	-11.1399
俱照	-11.14
憲宗	-11.1401
於七月	-11.1402
蒍	-11.1405
瓉	-11.1407
不附	-11.1408
四百餘	-11.1409
緑	-11.1411
任用	-11.1412
危矣	-11.1412
邊事	-11.1413
跟	-11.1414
淮北	-11.1414
戒嚴	-11.1417
著派	-11.1419
順昌	-11.1419
羆	-11.142
敬瑭	-11.1421
皷	-11.1421
㳟	-11.1422
疊	-11.1423
子大叔	-11.1423
呂氏春秋	-11.1424
五年春正月	-11.1425
饌	-11.1426
唐古忒	-11.1426
挈眷	-11.1428
菽	-11.1428
臣願陛下	-11.1429
估	-11.1429
常勝軍	-11.1431
全數	-11.1432
常青李侍堯	-11.1432
應否	-11.1433
脯	-11.1434
兩日	-11.1436
尺寸	-11.144
巡按	-11.144
記曰	-11.144
以城降	-11.144
隴右	-11.1441
人主之	-11.1442
擒𠞰	-11.1443
上諭曰	-11.1447
哈什	-11.1448
空虚	-11.1451
對曰君	-11.1454
所遺	-11.1458
得其所	-11.146
北路軍營	-11.146
管領	-11.1462
衛士	-11.1464
官府	-11.1469
忠勇	-11.1473
額外	-11.1476
小金川	-11.1476
門户	-11.1476
滅亡	-11.1477
揔管	-11.1478
逆囘	-11.1491
審辦	-11.1496
一隅	-11.1499
而食之	-11.1502
慶陽	-11.1504
右丞相	-11.1504
六十餘	-11.1506
棠	-11.1508
提兵	-11.1508
苐	-11.1509
絡	-11.151
俾得	-11.1511
琬	-11.1511
稚	-11.1511
劵	-11.1513
珣	-11.1514
孼	-11.1514
粉	-11.1514
太行	-11.1514
養贍	-11.1516
安都	-11.1518
釀	-11.1519
鼓勵	-11.1519
雌	-11.152
寖	-11.152
鵠	-11.152
飄	-11.152
文章	-11.1524
捍禦	-11.1524
河北河東	-11.1524
根敦	-11.1524
民情	-11.1525
願得	-11.1528
萬匹	-11.1534
途中	-11.1535
每日	-11.1538
孰與	-11.1543
調往	-11.1545
應龍	-11.1545
武都	-11.1546
龍門	-11.155
八九	-11.155
酌量辦理	-11.1572
周主	-11.1577
過河	-11.1577
收取	-11.1579
武侯	-11.1579
離心	-11.1583
三十五	-11.1584
司馬光	-11.1588
宸濠	-11.1589
泮	-11.1591
文報	-11.1592
不可信	-11.1595
禇	-11.1596
瀕	-11.1598
淚	-11.16
朝鮮	-11.1601
剥	-11.1602
洎	-11.1603
掾	-11.1604
淮東	-11.1604
貎	-11.1605
纍	-11.1606
炭	-11.1608
產	-11.1608
蒸	-11.1609
足用	-11.1611
斜	-11.1612
者甚多	-11.1616
三十人	-11.1619
中書省	-11.162
納欵	-11.1624
約計	-11.1625
文子曰	-11.1625
責成	-11.1626
議䘏	-11.1631
北征	-11.1632
脱出	-11.1636
各項	-11.1636
漢陽	-11.1643
糧道	-11.1643
皇長子	-11.1648
俱屬	-11.165
辦送	-11.1651
五里	-11.1664
度河	-11.1665
押解	-11.1672
城堡	-11.1673
匪徒	-11.1674
厦	-11.1675
二百五十	-11.1676
西海	-11.1679
婆	-11.168
策妄阿喇布坦	-11.1684
失信	-11.1687
諸蠻	-11.1688
應辦	-11.1693
浄	-11.1693
訥黙庫	-11.1693
駞	-11.1694
阿思哈	-11.1694
嗣君	-11.1695
峯	-11.1696
纎	-11.1697
西陲	-11.1697
蹶	-11.1698
喙	-11.1699
詘	-11.17
浴	-11.1703
龢	-11.1704
臥	-11.1704
今陛下	-11.1704
殱除	-11.1704
等語查	-11.1705
明亮	-11.1714
令副都統	-11.1715
議政大臣等議	-11.1717
任内	-11.1719
來迎	-11.1723
䘚爵	-11.1723
竒兵	-11.1725
軍前効力	-11.1725
公族	-11.1727
震動	-11.1736
運到	-11.1741
現存	-11.1741
世襲	-11.1742
南岸	-11.1744
萬六千	-11.1746
詹事	-11.1749
威福	-11.1757
子良	-11.1759
中常侍	-11.1761
此際	-11.1771
聿	-11.1773
聘于	-11.1775
愔	-11.1776
壩	-11.1776
婺	-11.1778
監國	-11.178
燒燬	-11.1782
伋	-11.1784
刋	-11.1784
氓	-11.1785
闔廬	-11.1785
兵三萬	-11.1786
睹	-11.1788
被擒	-11.1788
清馥	-11.179
捐助	-11.1791
阿拉善	-11.1793
粤東	-11.1794
車騎將軍	-11.1795
廢弛	-11.1795
范氏	-11.18
撫恤	-11.1804
欽遵	-11.1806
孟氏	-11.1808
亦不必	-11.1813
潭州	-11.1813
羣小	-11.1817
遲延	-11.1817
浙東	-11.182
不悟	-11.1826
朕躬	-11.183
星夜	-11.1842
駐藏	-11.1848
世世	-11.1852
所統	-11.1854
地畝	-11.1856
大夫種	-11.1857
今嵗	-11.1861
崔杼	-11.1861
上諭辦理軍機大臣等曰	-11.1865
勔	-11.1867
左傳紀事本末	-11.1867
甯	-11.1868
跋	-11.1869
詡	-11.1871
是夕	-11.1871
楊氏	-11.1871
寒心	-11.1873
璫	-11.1874
郞	-11.1874
胙	-11.1875
馬良柱	-11.1875
鏡	-11.1875
不覺	-11.1875
旻	-11.1876
乍	-11.1877
粹	-11.1877
媵	-11.1877
扎薩克圖汗	-11.1877
悃	-11.1877
不煩	-11.1878
户部侍郎	-11.1878
莫大焉	-11.1878
汝才	-11.1879
閭閻	-11.1879
大理寺	-11.188
傉檀	-11.1881
歙	-11.1881
馬歩	-11.1883
六國	-11.1884
鷄	-11.1884
魯克察克	-11.1885
捐監	-11.1886
查明具奏	-11.1889
櫟	-11.189
礦	-11.189
子展	-11.1899
停其	-11.1899
渡淮	-11.1906
協領	-11.1909
博雅	-11.1911
惻	-11.1916
靈武	-11.1917
三族	-11.1921
建業	-11.1924
分布	-11.1931
嗟乎	-11.1933
還京	-11.1935
應侯	-11.1935
太息	-11.1936
精神	-11.1939
建議	-11.1941
擊大破之	-11.1952
撫逺大將軍	-11.1955
淖	-11.1955
追殺	-11.1955
建武	-11.1958
手書	-11.1958
交部議叙	-11.1959
軍容	-11.1959
擄掠	-11.1963
煥	-11.1964
堆	-11.1964
鹿耳門	-11.1964
率師	-11.1966
居庸	-11.1967
萬世之	-11.1968
夘	-11.1969
待制	-11.1969
覈	-11.197
毆	-11.197
刎	-11.1972
狡詐	-11.1973
茂貞	-11.1973
州都督	-11.1974
舍楞	-11.1975
呌	-11.1976
閬	-11.1978
器用	-11.1978
屬可嘉	-11.198
博囉	-11.1981
帶兵前往	-11.1983
查勘	-11.1984
陽氣	-11.1986
續調	-11.1988
大旱	-11.1988
交納	-11.1989
至長安	-11.1991
體恤	-11.1992
前編	-11.1996
侍衛章京	-11.1998
將軍印	-11.1999
修好	-11.2001
聖意	-11.2008
甫經	-11.2013
黎陽	-11.2014
臺諫	-11.2017
季文子	-11.2019
所轄	-11.2035
穆叔	-11.2036
百司	-11.2038
整齊	-11.2039
承制	-11.2041
爾雅	-11.2042
賜號	-11.2043
吏士	-11.205
天討	-11.205
中間	-11.2053
樽	-11.2059
两	-11.2061
囑	-11.2062
緊	-11.2062
尚書右僕射	-11.2063
廕	-11.2063
剿賊	-11.2063
兵三千名	-11.2063
璞	-11.2063
炮	-11.2065
羲	-11.2065
須臾	-11.2065
皝	-11.2067
爐	-11.2067
濯	-11.2068
人才	-11.2069
從重治罪	-11.207
兑	-11.207
韓詩外傳	-11.2071
腐	-11.2072
箕子	-11.2073
鋪	-11.2074
莽噶里克	-11.2075
大震	-11.208
酣	-11.2081
趙簡子	-11.2084
登岸	-11.2085
春申君	-11.2089
沿江	-11.209
窮困	-11.2097
牧養	-11.2106
姦邪	-11.211
䕫州	-11.2112
童子	-11.2115
寛免	-11.2116
夏侯	-11.2122
淮陽	-11.2124
浙西	-11.2127
勦殺	-11.2129
運往	-11.213
四十八	-11.2136
烏孫	-11.2137
還宫	-11.2141
卿士	-11.2145
譬如	-11.215
緑旗	-11.2152
雹	-11.2153
覓	-11.2154
璊	-11.2156
穫	-11.2157
氊	-11.2158
州防禦使	-11.2158
玄感	-11.2158
晳	-11.2159
轟	-11.216
殞	-11.216
咄	-11.216
徂	-11.216
讜	-11.2161
蔓	-11.2161
換班	-11.2162
兾	-11.2163
緞疋	-11.2163
綺	-11.2163
勤王之師	-11.2164
户部尚書	-11.2166
餼	-11.2168
鞏昌	-11.2169
此番	-11.217
切齒	-11.217
僕從	-11.217
珂	-11.217
鎰	-11.2171
不遜	-11.2173
南向	-11.2177
充裕	-11.2179
訊據	-11.2181
誓書	-11.2185
優加	-11.2187
格外	-11.2189
流血	-11.2195
撫諭	-11.2201
不能救	-11.2203
論功	-11.2206
隴州	-11.2208
新舊	-11.2208
人材	-11.2209
惠卿	-11.2213
驅逐	-11.2215
泣下	-11.2219
衛君	-11.222
定例	-11.2222
地震	-11.2226
山陵	-11.2227
鏐	-11.2228
萬七千	-11.2229
都堂	-11.2232
阿竒木	-11.2234
底定	-11.224
兩翼	-11.2243
典禮	-11.2243
達實	-11.2246
還報	-11.2247
趾	-11.225
彤	-11.2251
柩	-11.2254
愎	-11.2255
逭	-11.2255
燬	-11.2256
夾擊	-11.2256
掛	-11.2256
犄角	-11.2256
左丞相	-11.2257
棣	-11.2258
倉猝	-11.2259
賞銀一百兩	-11.2259
鏤	-11.2259
髙陽	-11.226
儔	-11.226
欽奉諭㫖	-11.226
阪	-11.226
佟	-11.2261
有異志	-11.2262
閽	-11.2262
打箭爐	-11.2263
著照	-11.2263
閹	-11.2263
潁川	-11.2264
喟	-11.2264
陽平	-11.2265
還京師	-11.2266
㤀	-11.2266
筴	-11.2267
奠爵	-11.2268
之主也	-11.2269
詩書	-11.2272
也然而	-11.228
甚少	-11.2283
四員	-11.2285
徃徃	-11.2289
四百名	-11.2294
帶同	-11.2295
一夕	-11.2298
漢唐	-11.2299
都護	-11.2305
千八百	-11.231
管子對曰	-11.2312
哈雅	-11.2316
同列	-11.2317
國珍	-11.2317
此所謂	-11.2324
師敗績	-11.2324
長江	-11.2327
敗盟	-11.2334
奔逃	-11.234
乗勢	-11.2343
劉向㠯為	-11.2343
所愛	-11.2344
拖	-11.2345
諶	-11.2348
餞	-11.235
袖	-11.235
將軍大臣等	-11.235
煌	-11.2352
綝	-11.2353
笙	-11.2354
紆	-11.2354
党	-11.2355
旃	-11.2356
詬	-11.2356
奸民	-11.2357
絃	-11.2357
陴	-11.2359
度量	-11.2361
犢	-11.2362
豈肯	-11.2372
秦王堅	-11.2372
迎戰	-11.2372
相機辦理	-11.2373
之過也	-11.2375
鐵騎	-11.2377
調赴	-11.238
扶風	-11.2382
部院	-11.2386
伯姬	-11.239
帥師伐	-11.2393
城垣	-11.2395
牧馬	-11.24
舟船	-11.24
進擊	-11.2401
數百名	-11.2413
自縊	-11.2414
朝野	-11.2423
逸賊	-11.2423
乗機	-11.2429
萬乗	-11.2444
潼關	-11.2445
犁	-11.2445
順徳訥	-11.2446
聨	-11.2447
黒龍江	-11.2448
為有益	-11.2448
虎賁	-11.2448
吏部侍郎	-11.2449
瑋	-11.2449
不亦難乎	-11.245
等謹案	-11.2452
鑾輿	-11.2452
軀	-11.2452
鄯	-11.2453
鍼	-11.2454
順承郡王	-11.2455
平定金川	-11.2455
闈	-11.2457
虎牢	-11.2458
其咎	-11.2459
分撥	-11.2462
餐	-11.2462
疎虞	-11.2462
師徒	-11.2465
數十年	-11.247
三萬人	-11.2471
千戸	-11.2473
軍吏	-11.2474
臧孫	-11.2474
擾累	-11.2477
臨江	-11.248
囘民	-11.2481
荆州刺史	-11.2481
賫勅	-11.2482
營壘	-11.2485
移檄	-11.2489
南渡	-11.2506
萬緡	-11.251
該縣	-11.2517
一百名	-11.2518
江都	-11.2521
肅清	-11.2529
三千餘人	-11.2538
大隊	-11.2538
廣平	-11.2541
之利也	-11.2541
瘁	-11.2544
邾子	-11.2544
三面	-11.2547
榭	-11.2548
郃	-11.2548
塩水港	-11.2548
古北口	-11.2548
黄仕簡任承恩	-11.2549
鎧	-11.255
竦	-11.255
鹽茶	-11.2551
雋	-11.2551
蹤	-11.2551
劉統勲	-11.2551
假道	-11.2551
鈐	-11.2551
汀	-11.2551
二等侍衛	-11.2552
出其不意	-11.2552
毋致	-11.2553
茹	-11.2554
吟	-11.2555
直搗	-11.2555
莎羅奔	-11.2556
訐	-11.2556
泝	-11.2556
羅索	-11.2557
敞	-11.2559
敦煌	-11.2559
變亂	-11.2561
安挿	-11.2563
撫慰	-11.2565
從寛免	-11.2565
現據	-11.2565
羽翼	-11.2571
連年	-11.2571
五岱等	-11.2571
英雄	-11.2574
䝉皇上	-11.2577
聲色	-11.2578
狄道	-11.2578
衛尉	-11.2585
侵掠	-11.2588
太白	-11.2594
為内應	-11.2595
獨斷	-11.2611
䝉恩	-11.2615
太和	-11.2615
神靈	-11.2624
一舉而	-11.2627
半月	-11.2634
南郊	-11.2637
蘇秦	-11.2638
之福也	-11.2641
藴	-11.2642
韓信	-11.2642
熲	-11.2643
澶淵	-11.2644
巒	-11.2644
逗遛	-11.2646
唐喀禄	-11.2646
上又諭内閣曰	-11.2646
綠	-11.2647
博羅塔拉	-11.2648
据	-11.2649
羊舌	-11.265
暠	-11.265
汪伯彦	-11.265
被傷	-11.2651
掣	-11.2651
閉城	-11.2651
伍彌泰	-11.2652
􁁊	-11.2652
復振	-11.2653
鈐轄	-11.2653
榻	-11.2654
五十萬	-11.2654
嘻	-11.2655
逄	-11.2655
陰陽	-11.2657
夸	-11.2657
挐獲	-11.2658
倨	-11.2658
牖	-11.2658
喜怒	-11.2659
弓箭	-11.2659
□□	-11.2659
巴爾虎	-11.266
駐扎	-11.2661
衝突	-11.2664
應添兵	-11.2671
帝從之	-11.2675
王曰善	-11.2686
稽察	-11.2689
乞師	-11.2689
器甲	-11.2691
靈州	-11.2699
四散	-11.2699
懷恩	-11.2703
管仲曰	-11.2704
倍加	-11.2716
世蕃	-11.2716
二萬人	-11.2721
指授	-11.2726
三百里	-11.2727
天錫	-11.2728
仲孫	-11.2733
將軍大臣	-11.2735
博爾	-11.2739
㸑	-11.2746
墨爾根	-11.2746
枷	-11.2747
殪	-11.2748
砍	-11.2749
𣙜	-11.2749
瘴	-11.2749
奠于	-11.2749
届	-11.275
曏	-11.275
資糧	-11.275
糧盡	-11.2751
款	-11.2751
察罕廋爾	-11.2752
總督哈占	-11.2752
喂養	-11.2752
緜	-11.2753
安揷	-11.2754
辛夘	-11.2754
僧道	-11.2754
三百餘人	-11.2755
䦨	-11.2755
翕	-11.2756
贇	-11.2756
鶉	-11.2756
渴	-11.2757
慨然	-11.2758
慰勞	-11.2761
傕	-11.2763
朋友	-11.2764
撫䘏	-11.2766
禮儀	-11.2767
浙省	-11.2767
掃除	-11.2769
伯彦	-11.2769
瓦解	-11.2772
烏拉	-11.2783
額楚	-11.2784
子貢曰	-11.2786
駐軍	-11.2786
尚之信	-11.2788
禦敵	-11.279
頂帶	-11.279
檄調	-11.2791
金酋	-11.2792
徽宗	-11.2794
移咨	-11.2794
晉文公	-11.2797
四十三	-11.2803
乘機	-11.2803
災異	-11.2804
交界	-11.2805
震恐	-11.2809
萬八千	-11.2809
争先	-11.2813
騎射	-11.2814
竊發	-11.2816
索倫察哈爾	-11.2818
擯者	-11.2823
追逐	-11.2831
謝恩	-11.2834
滁州	-11.2835
體察	-11.2838
調集	-11.284
焚掠	-11.2842
玘	-11.2845
岷	-11.2845
大學士伊桑阿	-11.2849
扎那噶爾布	-11.2851
鎻	-11.2851
抒	-11.2851
賊夥	-11.2852
國恩	-11.2852
凑	-11.2853
婪	-11.2854
澶	-11.2854
車木楚克扎布	-11.2855
緘	-11.2855
阨	-11.2856
伯父	-11.2858
上曰朕	-11.2858
祔	-11.2858
工部尚書	-11.2858
韓宣子	-11.2858
耽	-11.2859
僧格	-11.286
臬司	-11.286
備辦	-11.286
遇害	-11.286
鵲	-11.2861
敢忘	-11.2861
滑州	-11.2863
邊陲	-11.2864
伊父	-11.2864
延齡	-11.2865
洪州	-11.2866
屢敗	-11.2866
百僚	-11.2866
頤	-11.287
陞補	-11.2871
巽	-11.2872
張掖	-11.2875
經制	-11.2877
可𫝊諭	-11.2881
缺額	-11.2883
十五萬	-11.2885
攻擾	-11.2895
勦滅	-11.2896
達爾黨阿等	-11.2899
潞州	-11.29
又五日	-11.2903
千乘	-11.2907
守候	-11.2907
温州	-11.2909
屯駐	-11.2914
孟孫	-11.2924
鎮海	-11.2926
日暮	-11.293
萬三千	-11.2931
地形	-11.2933
鄜	-11.2943
未决	-11.2943
明珠	-11.2949
莘	-11.295
逰撃	-11.295
詛	-11.2951
䜟	-11.2954
宣子曰	-11.2954
偽齊	-11.2954
縉	-11.2955
赴闕	-11.2956
稽顙	-11.2956
覬	-11.2958
額爾登額	-11.2959
票	-11.296
兼中書令	-11.2961
燈	-11.2961
牘	-11.2962
洪武	-11.2963
奏入報聞同日	-11.2966
自贖	-11.2966
刑部尚書	-11.2968
鄜延	-11.2968
好學	-11.2968
恭惟	-11.2968
趙良嗣	-11.2969
鎮江府	-11.297
龜兹	-11.297
裴度	-11.2972
朝堂	-11.2975
妥協辦理	-11.2975
放火	-11.2976
左都御史	-11.2977
郢州	-11.2978
往来	-11.298
琅邪	-11.2982
系	-11.2985
佔據	-11.2992
藉口	-11.2997
乗虚	-11.2998
嗣位	-11.3001
不悛	-11.3004
協濟	-11.3007
上䟽曰	-11.3012
科道	-11.3017
襄城	-11.3022
卷四十	-11.3024
止之曰	-11.3026
公羊作	-11.3026
十一年春	-11.3027
登舟	-11.3029
河南府	-11.3032
挑戰	-11.3033
責授	-11.3035
司寇	-11.3036
緫管	-11.3039
頵	-11.3051
秋冬	-11.3051
盂	-11.3054
頤浩	-11.3056
馬家堡	-11.3056
叵測	-11.3057
輛	-11.3057
丁夘	-11.3057
淨	-11.3057
奏入上諭内閣曰	-11.3058
砥	-11.3058
綜	-11.3058
烏爾登	-11.306
剰	-11.3061
新附	-11.3061
羗	-11.3061
淤	-11.3061
朱勝非	-11.3062
何煟	-11.3063
燼	-11.3064
玉素富	-11.3064
藤	-11.3064
勾結	-11.3064
魋	-11.3065
刷	-11.3065
忠良	-11.3066
褐	-11.3066
瞿	-11.3067
撥什庫	-11.3067
直隸	-11.3067
帝王世紀	-11.3067
勾踐	-11.3068
招諭	-11.3069
皎	-11.3069
昊天	-11.3069
回匪	-11.307
髙郵	-11.307
緇	-11.3071
搢	-11.3072
眇	-11.3072
向化	-11.3072
無恙	-11.3073
碧	-11.3073
恩澤	-11.3074
雄州	-11.3075
束手	-11.3076
闔閭	-11.3076
舒明	-11.3079
隊伍	-11.3079
寛裕	-11.3079
悖逆	-11.308
牽制	-11.3082
燕雲	-11.3083
荘公	-11.3084
收貯	-11.3084
曲直	-11.3087
劉瑾	-11.3101
危亡	-11.3101
初旬	-11.3103
新序	-11.3116
二百四十	-11.3117
㑹𠞰	-11.3122
八十餘	-11.3123
逃散	-11.3131
兵柄	-11.3138
匪犯	-11.3139
王世充	-11.3142
蕆	-11.3146
薩卜素	-11.3155
洪承疇	-11.3158
坂	-11.3161
枋	-11.3161
昉	-11.3162
忭	-11.3162
不可得也	-11.3162
俠	-11.3163
招徠	-11.3163
彚	-11.3164
磺	-11.3164
晴	-11.3165
隸	-11.3166
宵旰	-11.3166
珙	-11.3166
帕	-11.3168
愉	-11.3169
慷慨	-11.3169
實情	-11.317
圻	-11.3171
稀	-11.3171
節鉞	-11.3172
攬	-11.3175
糞	-11.3175
滄州	-11.3177
李茂貞	-11.318
從優	-11.318
突出	-11.318
緑旗兵丁	-11.3183
三十三	-11.3185
珽	-11.3186
隊内	-11.3186
孟知祥	-11.3186
諸道兵	-11.3191
遄行	-11.3195
變化	-11.3195
遷都	-11.3199
杜充	-11.3205
聖心	-11.3205
工部	-11.3207
觧送	-11.3212
宫門	-11.3218
嚴禁	-11.3219
五品	-11.3224
康叔	-11.3226
各以其	-11.3228
子崧	-11.3234
萬厯	-11.3235
閩主	-11.3239
農夫	-11.324
逖	-11.3253
乘勢	-11.3253
事竣後	-11.3255
十匹	-11.3256
子思曰	-11.3257
庶可	-11.3263
準噶爾部人	-11.3263
螺	-11.3265
越嶲	-11.3265
褚	-11.3266
勃勃	-11.3266
曵	-11.3267
箴	-11.3269
麓	-11.3269
瑀	-11.3269
汭	-11.327
季武子	-11.327
轉戰	-11.327
誇	-11.3271
西岸	-11.3272
戰不利	-11.3272
遴	-11.3273
袁紹	-11.3273
箐	-11.3273
佃	-11.3274
鴈門	-11.3274
生事端	-11.3275
椎	-11.3276
嚮導	-11.3277
顓	-11.3277
默	-11.3277
鮒	-11.3278
僇	-11.3279
益州刺史	-11.3279
委曲	-11.3279
墳墓	-11.3279
曾經	-11.328
他處	-11.3283
暴虐	-11.3286
𠞰除	-11.3287
粤省	-11.3289
兼侍中	-11.329
五榖	-11.329
求援	-11.3301
軍營効力	-11.3301
宓	-11.3307
戸口	-11.3323
大悦	-11.3329
擯	-11.3332
巴勒	-11.3336
何如對曰	-11.3337
仲父	-11.3338
汝愚	-11.335
卷三十	-11.3351
錢鏐	-11.3352
相符	-11.3355
師旅	-11.3357
永樂	-11.3362
遺失	-11.3365
義康	-11.3366
籥	-11.337
曄	-11.337
博羅	-11.3371
闌	-11.3372
酒泉	-11.3372
虹	-11.3376
㤙	-11.3377
朱泚	-11.3377
讙	-11.3377
楊行宻	-11.3377
彩	-11.3378
後隊	-11.3378
塊	-11.3378
宄	-11.3379
絡繹	-11.338
謡	-11.3381
刮耳崖	-11.3382
稿	-11.3384
侔	-11.3384
毬	-11.3384
奏膚功	-11.3385
二千石	-11.3385
逹賴喇嘛	-11.3386
駑	-11.3388
尤甚	-11.339
翳	-11.339
如此辦理	-11.3391
琯	-11.3391
鐘鼓	-11.3392
訓飭	-11.3394
雎	-11.3397
印綬	-11.3397
孫權	-11.3401
池州	-11.3404
查察	-11.3407
幕府	-11.3412
入夥	-11.3422
逃避	-11.3426
汝曹	-11.3427
對曰臣聞	-11.3433
懇求	-11.3433
逺遁	-11.3434
足資	-11.3434
施放	-11.3441
殘破	-11.3445
酌給	-11.3451
繆公	-11.3454
解體	-11.3462
吁	-11.3468
舉動	-11.3472
謐	-11.3474
酌辦	-11.348
規模	-11.3481
均奏入上命軍機大臣傳諭	-11.3481
異牟尋	-11.3482
臼	-11.3483
颺	-11.3483
湟	-11.3484
確查	-11.3486
隳	-11.3489
䕃	-11.3489
鷙	-11.3489
爪牙	-11.349
剿殺	-11.3491
良久	-11.3491
帳中	-11.3492
尚書左僕射	-11.3493
蒿	-11.3495
郭子儀	-11.3495
商販	-11.3495
菹	-11.3496
孰能	-11.3497
稱疾不	-11.3497
優䘏	-11.3501
酸	-11.3503
惶懼	-11.3503
上諭軍機大臣曰昨	-11.3506
響應	-11.3508
穰侯	-11.3513
悔禍	-11.3514
將軍穆占	-11.352
員缺著	-11.3523
諾爾	-11.3523
聖母	-11.3532
騎都尉	-11.3532
縁坐	-11.3538
節省	-11.3541
烏舍	-11.3542
偷生	-11.3542
夜遁	-11.3546
七十里	-11.3553
願大王	-11.3557
此三者	-11.3558
乾歸	-11.3558
兼管	-11.3562
始末	-11.3563
趙孟曰	-11.3569
郈	-11.357
黒闥	-11.3576
二百里	-11.3591
福康安海蘭察	-11.3593
晃	-11.3594
李世傑	-11.3595
策卜登	-11.3596
乙夘	-11.3598
仍遵前㫖	-11.3599
㽞	-11.3599
蓮	-11.3599
罪大惡極	-11.36
應如所奏	-11.3601
灝	-11.3601
鏖戰	-11.3602
低	-11.3602
涓	-11.3603
通行曉諭	-11.3603
和托輝特	-11.3604
圖倫楚	-11.3604
披靡	-11.3604
慤	-11.3604
阬	-11.3605
㝠	-11.3608
七旗	-11.3608
行軍司馬	-11.361
㨗音	-11.3611
趙鞅	-11.3619
學校	-11.3619
逃匿	-11.3619
供詞	-11.3621
前赴軍營	-11.3625
憂懼	-11.3625
莖	-11.3626
列侯	-11.3626
經降㫖	-11.3626
武安君	-11.3627
欽差	-11.3628
陜州	-11.3633
調補	-11.3634
矯詔	-11.3636
尚須	-11.3639
呈稱	-11.3641
拒敵	-11.3643
累世	-11.3649
領兵前往	-11.3655
悛	-11.3657
欣然	-11.3664
周旋	-11.3676
詐稱	-11.3678
三十餘人	-11.3679
神器	-11.3689
四壁	-11.3689
昊	-11.369
穰	-11.3698
异	-11.3705
喚	-11.3706
瓠	-11.3706
悚	-11.3707
袂	-11.3707
忝	-11.3709
歿	-11.3712
逗	-11.3712
荷包	-11.3713
咱	-11.3713
蚩尤	-11.3713
麤	-11.3713
舛	-11.3714
諸侯之師	-11.3714
布庫察罕	-11.3716
勁旅	-11.3716
眚	-11.3717
郟	-11.3814
澳	-11.3817
涵	-11.3818
韐	-11.3818
痩	-11.3822
窖	-11.3827
囧	-11.3828
牝	-11.3832
滂	-11.3839
聳	-11.3922
桿	-11.3924
暹	-11.3931
翹	-11.3932
郕	-11.3932
禕	-11.3934
裒	-11.3934
殲	-11.3934
蟄	-11.3936
藁	-11.3937
胷	-11.3938
𬗟	-11.3938
穹	-11.3938
暐	-11.394
咽	-11.394
礙	-11.3941
伎	-11.3941
璁	-11.3942
煖	-11.3952
頊	-11.4041
郯	-11.4042
曇	-11.4048
値	-11.4049
斾	-11.4049
絀	-11.4052
渇	-11.4054
軼	-11.4054
𫉬	-11.4054
訣	-11.4056
孩	-11.4056
娘	-11.4061
赶	-11.4158
卽	-11.4161
碾	-11.4162
蓼	-11.4164
曺	-11.4164
刈	-11.4165
眡	-11.4165
抛	-11.4165
罄	-11.4166
兎	-11.4167
楯	-11.4168
婉	-11.4168
炬	-11.4168
祧	-11.4168
殁	-11.4171
謳	-11.4171
亹	-11.4171
煜	-11.4173
態	-11.4174
峪	-11.4175
炙	-11.4176
勺	-11.4176
个	-11.4179
鞮	-11.4188
篡	-11.4252
淡	-11.4276
躋	-11.4277
訂	-11.4282
灑	-11.4283
擺	-11.4284
憊	-11.4284
縞	-11.4285
庖	-11.4286
瘞	-11.4287
杏	-11.4287
撞	-11.4288
徭	-11.4289
鑠	-11.4291
銖	-11.4291
縫	-11.4294
窩	-11.4395
縠	-11.4396
嶷	-11.4399
叨	-11.4401
酖	-11.4401
瑱	-11.4402
捲	-11.4405
幟	-11.4405
膂	-11.4406
卸	-11.4406
祺	-11.4406
慚	-11.4407
廊	-11.441
夔	-11.4415
歐	-11.4517
㝷	-11.452
逕	-11.4521
醮	-11.4522
僮	-11.4524
笏	-11.4528
竅	-11.4528
疵	-11.4529
俛	-11.4531
皋	-11.4535
輻	-11.4537
肱	-11.4639
燦	-11.4639
巍	-11.4645
線	-11.4647
漂	-11.4649
軸	-11.4649
炊	-11.4649
糗	-11.465
庠	-11.465
擠	-11.4651
鬪	-11.4651
鑲	-11.4654
筏	-11.4655
迓	-11.4656
卬	-11.4661
艮	-11.4663
㮚	-11.4729
媯	-11.4754
涯	-11.4758
透	-11.4765
虗	-11.4768
螽	-11.4769
袋	-11.4769
聾	-11.4769
孑	-11.477
址	-11.477
噪	-11.4772
憨	-11.4772
凛	-11.4772
潯	-11.4774
秃	-11.4775
埃	-11.4786
航	-11.4878
冩	-11.4886
諉	-11.4886
幵	-11.4889
簾	-11.489
昵	-11.489
䟎	-11.4893
鑊	-11.4893
塟	-11.4899
箇	-11.4899
弧	-11.4899
唇	-11.49
釜	-11.4905
肸	-11.5007
晡	-11.5017
哷	-11.502
荼	-11.5021
鎖	-11.5022
衘	-11.5024
捶	-11.5025
摰	-11.5027
燥	-11.5032
軻	-11.5042
樗	-11.5047
棧	-11.5111
弈	-11.5145
暱	-11.5148
猥	-11.5148
峰	-11.5148
廻	-11.5151
遯	-11.5151
窄	-11.5151
蓐	-11.5151
澠	-11.5152
爨	-11.5152
啼	-11.5153
垢	-11.5157
襟	-11.5159
騏	-11.5159
刳	-11.5159
朂	-11.5266
驃	-11.5266
奐	-11.5268
佺	-11.5274
陘	-11.5275
詈	-11.5275
胆	-11.5276
詵	-11.5279
蹂	-11.5279
壑	-11.528
茫	-11.528
贛	-11.5282
孕	-11.5282
鉉	-11.5283
贑	-11.5284
牋	-11.5284
嗇	-11.5288
黯	-11.5292
媒	-11.5294
鯨	-11.5403
裡	-11.5403
訶	-11.5403
闥	-11.5408
魴	-11.5409
瘳	-11.541
哥	-11.5411
㡌	-11.5412
蠭	-11.5412
牓	-11.5413
衾	-11.5413
蝕	-11.5414
皖	-11.5414
恰	-11.5414
兕	-11.5415
蜚	-11.5416
群	-11.542
禺	-11.542
瑣	-11.5423
溼	-11.5423
髠	-11.5526
槊	-11.5538
煎	-11.554
荐	-11.554
嫻	-11.554
宙	-11.5541
种	-11.5542
麴	-11.5543
塢	-11.5544
譜	-11.5545
鬚	-11.5545
凟	-11.5546
証	-11.5549
幫	-11.5549
娣	-11.5549
爪	-11.5553
藺	-11.5565
悝	-11.567
陡	-11.5674
洧	-11.5675
叶	-11.5676
孛	-11.5678
㨂	-11.5679
􁌆	-11.5679
怛	-11.568
灤	-11.568
跌	-11.5681
僞	-11.5681
彫	-11.5682
邴	-11.5685
杯	-11.569
陲	-11.5794
盎	-11.5805
潼	-11.581
麵	-11.581
旰	-11.581
郛	-11.5812
唾	-11.5814
刄	-11.5814
毀	-11.5816
濛	-11.5817
菲	-11.5818
佈	-11.5818
縷	-11.5819
濱	-11.582
虺	-11.5821
冨	-11.5824
詧	-11.5844
犫	-11.5937
厪	-11.5948
紘	-11.5952
塌	-11.5952
槖	-11.5952
獠	-11.5953
盪	-11.5953
嚭	-11.5954
盼	-11.5954
沽	-11.5954
堞	-11.5955
蕪	-11.5956
怡	-11.5956
齧	-11.5957
朞	-11.5958
皥	-11.5959
峴	-11.5959
廞	-11.596
珏	-11.5961
鹹	-11.5963
溉	-11.5969
眩	-11.597
鬲	-11.597
粱	-11.597
脣	-11.5977
柰	-11.6065
幡	-11.6085
屆	-11.6089
鴟	-11.609
鬯	-11.6093
彗	-11.6093
匕	-11.6094
桶	-11.6095
緦	-11.6095
菁	-11.6095
羯	-11.6096
腊	-11.6098
郄	-11.6101
磚	-11.6101
瞑	-11.6102
巔	-11.6106
肌	-11.611
跖	-11.6114
赭	-11.6232
廐	-11.6235
璉	-11.6236
芟	-11.6236
亊	-11.6236
翩	-11.6236
鯉	-11.6239
鬍	-11.6239
𨗳	-11.624
澆	-11.624
惴	-11.624
茨	-11.6245
芥	-11.6248
瘡	-11.6249
跣	-11.625
鋤	-11.6372
咺	-11.6373
爕	-11.6378
苾	-11.6383
粒	-11.6383
贏	-11.6385
邜	-11.6387
埒	-11.6387
躭	-11.6388
僵	-11.6389
紐	-11.6391
駮	-11.6393
斵	-11.6394
禳	-11.6521
猖	-11.6524
玫	-11.6527
姿	-11.6527
鏜	-11.6528
鉄	-11.6528
覧	-11.6528
橫	-11.6529
夹	-11.653
暖	-11.6531
鋸	-11.6536
梵	-11.6536
禰	-11.6537
妣	-11.6538
剌	-11.6538
觚	-11.654
厠	-11.6542
肘	-11.6545
侗	-11.6673
闘	-11.6676
厝	-11.6678
煮	-11.6679
賭	-11.668
覊	-11.668
碣	-11.668
舂	-11.6683
棍	-11.6684
纒	-11.6685
馨	-11.6692
扁	-11.6693
央	-11.6764
秣	-11.6789
邳	-11.6805
絜	-11.6818
琢	-11.682
岌	-11.6822
儋	-11.6824
拴	-11.6826
惲	-11.6826
䛕	-11.6827
豺	-11.6827
臾	-11.6827
耘	-11.6828
慼	-11.6828
槃	-11.6828
佇	-11.6828
糈	-11.6829
讋	-11.683
様	-11.683
聵	-11.6831
峙	-11.6832
紊	-11.6833
藜	-11.6833
儕	-11.6834
鏃	-11.6834
曳	-11.6834
蟒	-11.6835
酢	-11.6836
屑	-11.6836
髓	-11.6837
豳	-11.6968
籲	-11.698
詗	-11.6981
貉	-11.6982
麫	-11.6982
菴	-11.6983
腆	-11.6983
皂	-11.6984
禋	-11.6987
宂	-11.6988
堙	-11.6989
啜	-11.6989
晷	-11.699
匣	-11.6991
呵	-11.6991
昕	-11.6991
筦	-11.6992
闊	-11.6993
蹄	-11.6994
橈	-11.6997
耒	-11.6997
扑	-11.7003
淅	-11.713
汧	-11.7134
阼	-11.714
躒	-11.7141
培	-11.7141
鑰	-11.7143
楨	-11.7143
匝	-11.7144
蓍	-11.7146
槁	-11.7146
鰥	-11.7147
参	-11.715
渣	-11.7152
噲	-11.7153
甕	-11.7153
沱	-11.7154
篆	-11.7156
弢	-11.7167
櫜	-11.729
湫	-11.7293
緍	-11.7295
誌	-11.7295
磐	-11.7295
撾	-11.7297
湧	-11.7299
豁	-11.73
盲	-11.7301
爇	-11.7303
櫬	-11.7305
巵	-11.7306
胃	-11.7306
綳	-11.7307
刖	-11.7307
睨	-11.7309
猺	-11.731
秬	-11.7313
滁	-11.7324
馥	-11.7438
戶	-11.7456
遶	-11.746
耨	-11.746
寥	-11.7461
榛	-11.7462
腥	-11.7466
棚	-11.7466
脛	-11.7467
閨	-11.747
髀	-11.7471
匏	-11.7476
驁	-11.7477
挟	-11.7478
彥	-11.7606
攺	-11.7611
琚	-11.7618
璣	-11.762
妓	-11.7621
皁	-11.7623
冄	-11.7623
橐	-11.7623
賍	-11.7624
箠	-11.7625
這	-11.7626
賡	-11.7626
嵬	-11.7627
蔬	-11.7629
峒	-11.7631
闚	-11.7634
䨇	-11.7634
凋	-11.7635
胎	-11.7635
竽	-11.7635
剝	-11.7641
簋	-11.7643
貍	-11.7645
挿	-11.7786
劑	-11.7786
崙	-11.7786
剔	-11.7788
愾	-11.7791
樁	-11.7792
么	-11.7794
陌	-11.7794
厮	-11.7796
厨	-11.7797
陬	-11.7797
旒	-11.7799
薰	-11.78
暄	-11.78
黥	-11.7805
伶	-11.7805
鳬	-11.7809
讖	-11.7815
慨	-11.7947
胞	-11.7952
旤	-11.7955
鮪	-11.7956
惓	-11.7956
聯	-11.7958
掎	-11.796
錐	-11.7962
廏	-11.7963
崑	-11.7965
廡	-11.7965
複	-11.7967
𠂻	-11.7968
萍	-11.797
迯	-11.7972
鞬	-11.7977
蠟	-11.8121
伉	-11.8122
冤	-11.8126
羇	-11.8127
麇	-11.8129
澈	-11.8129
狠	-11.8129
丐	-11.8131
淇	-11.8132
腕	-11.8133
吠	-11.8134
夤	-11.8134
欄	-11.8134
棉	-11.8134
蟬	-11.8135
渦	-11.8137
嫗	-11.8139
蝗	-11.814
莅	-11.814
瞰	-11.8141
糠	-11.8144
傒	-11.8144
怵	-11.8148
㢤	-11.8148
倩	-11.8303
崗	-11.8304
霞	-11.8305
㳂	-11.8306
郜	-11.8307
甡	-11.8307
屡	-11.8308
蟜	-11.831
沼	-11.8311
両	-11.8311
愽	-11.8312
鴦	-11.8312
刮	-11.8314
傭	-11.8315
豨	-11.8316
倐	-11.8317
椁	-11.8317
嘿	-11.8318
敉	-11.832
衽	-11.8322
蟠	-11.8323
笠	-11.848
垓	-11.8484
耐	-11.8484
黿	-11.8485
薇	-11.8485
鈍	-11.8487
謾	-11.8487
沴	-11.8487
敺	-11.8488
玷	-11.8488
鴆	-11.8488
臚	-11.8489
纘	-11.849
郗	-11.849
掉	-11.849
徤	-11.849
癘	-11.8491
闞	-11.8491
靼	-11.8492
珥	-11.8493
祼	-11.8494
燃	-11.8494
趍	-11.8497
隍	-11.8498
狸	-11.8499
痤	-11.8509
珊	-11.8512
訢	-11.8527
肖	-11.861
瑊	-11.8654
斟	-11.8654
蠆	-11.8657
蜮	-11.8659
袞	-11.8659
逈	-11.866
耄	-11.8662
僂	-11.8663
鍳	-11.8663
餙	-11.8665
床	-11.8665
𬒳	-11.8666
妬	-11.8666
柘	-11.8666
臠	-11.8667
杵	-11.8667
腴	-11.8669
諠	-11.867
脉	-11.8671
黻	-11.8676
騁	-11.8676
椽	-11.8676
捽	-11.8676
褫	-11.8677
踣	-11.8678
杰	-11.8681
兌	-11.8692
嶲	-11.8762
頠	-11.8832
㝢	-11.8844
嚌	-11.8848
饔	-11.8848
嘏	-11.8849
冺	-11.8849
雱	-11.8849
倬	-11.8849
喉	-11.885
泯	-11.8854
揜	-11.8854
閙	-11.8854
袵	-11.8855
嬉	-11.8856
扆	-11.8856
駘	-11.8857
舸	-11.8858
峭	-11.8858
圄	-11.8859
痊	-11.886
嘯	-11.8861
纁	-11.8861
悵	-11.8861
疽	-11.8863
湜	-11.8867
鄣	-11.8867
笄	-11.887
妒	-11.8872
諲	-11.9011
研	-11.9015
匐	-11.9032
炤	-11.9037
煦	-11.9037
㓪	-11.9037
舶	-11.904
襚	-11.9041
闓	-11.9042
藐	-11.9042
杼	-11.9043
晤	-11.9043
刧	-11.9045
邃	-11.9046
嗚	-11.9047
筐	-11.9047
畎	-11.9048
㲄	-11.9049
沓	-11.9049
迦	-11.9049
欷	-11.9049
潢	-11.905
腫	-11.9052
衿	-11.9052
僊	-11.9052
舁	-11.9053
愠	-11.9053
櫛	-11.9056
篋	-11.9057
蕚	-11.9059
俓	-11.9105
雝	-11.9224
邲	-11.9227
趂	-11.9228
焞	-11.9229
鏌	-11.9231
棒	-11.9231
矦	-11.9232
媿	-11.9232
埤	-11.9233
糊	-11.9233
剄	-11.9234
堕	-11.9234
甌	-11.9234
鱄	-11.9235
褊	-11.9235
㗖	-11.9236
絺	-11.9237
鍋	-11.9239
砂	-11.9243
鉷	-11.9245
吸	-11.9246
庒	-11.9422
嵐	-11.9424
頰	-11.9425
闐	-11.9428
螳	-11.9428
鴉	-11.9429
螻	-11.9432
䏻	-11.9433
緋	-11.9433
菅	-11.9434
錠	-11.9434
厫	-11.9434
袴	-11.9434
浞	-11.9436
厓	-11.9439
𠫭	-11.944
邯	-11.944
賻	-11.9442
哺	-11.9446
逍	-11.9447
壌	-11.9455
爻	-11.9457
杆	-11.9612
瀚	-11.9615
獪	-11.962
籖	-11.9621
賾	-11.9622
攄	-11.9628
剡	-11.9629
剋	-11.9629
囉	-11.9629
㙮	-11.9632
阯	-11.9633
顙	-11.9634
釘	-11.9634
霆	-11.9634
鉶	-11.9635
𤦺	-11.9635
詒	-11.9635
臆	-11.9636
昴	-11.9637
朐	-11.9637
佾	-11.9637
粢	-11.9638
纉	-11.9638
雁	-11.9639
攫	-11.964
脈	-11.9641
耜	-11.9648
劓	-11.965
鎛	-11.9651
療	-11.9822
蒞	-11.9829
搃	-11.9829
韻	-11.9831
袤	-11.9832
憶	-11.9834
顚	-11.9835
閶	-11.9835
抉	-11.9836
肄	-11.9837
䋲	-11.9837
綢	-11.9838
讃	-11.9839
穡	-11.9839
疚	-11.9839
摠	-11.984
誚	-11.984
偓	-11.984
苫	-11.9842
襁	-11.9842
綘	-11.9842
洙	-11.9845
鴨	-11.9846
掊	-11.9847
悶	-11.9847
饕	-11.9851
綎	-11.9855
涂	-11.9857
磊	-12.0029
璝	-12.0031
娥	-12.0033
鰲	-12.0034
翫	-12.0034
桷	-12.0035
蹻	-12.004
慆	-12.0041
逡	-12.0042
竑	-12.0042
訃	-12.0042
怕	-12.0043
猪	-12.0044
匈	-12.0045
羨	-12.0045
湎	-12.0045
穉	-12.0046
醒	-12.0046
賵	-12.0046
枹	-12.0046
娛	-12.0046
倂	-12.0046
嫚	-12.0047
鏞	-12.0049
濘	-12.0052
瑺	-12.0053
鬛	-12.0054
貰	-12.0055
貔	-12.0055
簇	-12.0055
糟	-12.0056
䜿	-12.0057
繚	-12.0057
曙	-12.0058
璀	-12.006
跛	-12.006
噫	-12.0063
醯	-12.0064
諦	-12.0243
矟	-12.0251
鐃	-12.0252
蕞	-12.0253
峩	-12.0253
龕	-12.0254
魅	-12.0255
髦	-12.0255
痕	-12.0256
鈇	-12.0256
焰	-12.0256
銃	-12.0256
頋	-12.0257
仿	-12.0257
塩	-12.0257
祓	-12.0257
嗷	-12.0258
撝	-12.0258
瑤	-12.0258
碁	-12.0258
蕘	-12.0259
頷	-12.0261
鵝	-12.0262
簫	-12.0262
喝	-12.0263
拚	-12.0264
酆	-12.0264
嫂	-12.0264
祫	-12.0266
鼈	-12.0268
瞀	-12.0269
洱	-12.027
冪	-12.027
慴	-12.027
脾	-12.0275
娑	-12.0289
鄄	-12.0461
嚚	-12.0465
庥	-12.0471
悰	-12.0471
麽	-12.0473
迸	-12.0473
絙	-12.0474
剩	-12.0475
聫	-12.0476
芽	-12.0477
騖	-12.0479
桴	-12.0482
墀	-12.0482
噍	-12.0482
睡	-12.0484
莱	-12.0485
玦	-12.0487
繭	-12.0488
虖	-12.0488
鯁	-12.0489
鏘	-12.0491
柬	-12.0493
猴	-12.0493
儐	-12.0496
㺯	-12.0684
鸜	-12.0686
孳	-12.0688
𣢾	-12.0689
液	-12.069
甦	-12.069
屹	-12.069
硝	-12.069
祲	-12.069
憒	-12.0691
嚢	-12.0692
淝	-12.0692
罟	-12.0692
阡	-12.0693
擡	-12.0694
舋	-12.0694
姧	-12.0696
吃	-12.0697
窑	-12.0697
串	-12.0697
匍	-12.0698
罃	-12.0698
跴	-12.0698
戩	-12.0699
歔	-12.0699
媾	-12.07
䍐	-12.0702
畛	-12.0702
甬	-12.0702
飱	-12.0703
伾	-12.0703
諍	-12.0705
蹔	-12.0705
瀝	-12.0705
檝	-12.0708
葆	-12.0709
萱	-12.0711
輈	-12.0717
鵒	-12.0913
鄶	-12.0913
桞	-12.0916
蜺	-12.0916
鯢	-12.0918
遹	-12.0919
瀾	-12.0919
寬	-12.092
薙	-12.092
韭	-12.0921
佶	-12.0922
映	-12.0922
埀	-12.0925
炯	-12.0925
翺	-12.0926
裸	-12.0927
讟	-12.0927
靄	-12.0928
郾	-12.0928
撙	-12.0928
螟	-12.093
煑	-12.0931
跂	-12.0935
儂	-12.0935
鳶	-12.0936
潄	-12.0939
䒭	-12.094
訝	-12.0949
煬	-12.1143
孥	-12.1145
虓	-12.115
䙝	-12.115
鈴	-12.1153
靑	-12.1154
磡	-12.1155
畤	-12.1155
鉗	-12.1155
黶	-12.1157
熖	-12.1158
軟	-12.1159
郿	-12.1159
啖	-12.116
醇	-12.1161
慱	-12.1161
翅	-12.1161
嵯	-12.1162
砌	-12.1162
兠	-12.1166
莠	-12.1166
泠	-12.1168
溷	-12.1169
鬢	-12.1172
汁	-12.1174
􁂥	-12.118
毐	-12.1201
滉	-12.1372
忷	-12.1379
齮	-12.1387
笮	-12.1388
拽	-12.1391
拭	-12.1392
緹	-12.1392
靚	-12.1392
槽	-12.1393
舄	-12.1393
籙	-12.1394
纊	-12.1394
挨	-12.1395
蹷	-12.1395
𦍑	-12.1396
璩	-12.1396
昺	-12.1396
扉	-12.1396
簞	-12.1397
玊	-12.1399
鉦	-12.1401
抃	-12.1402
頺	-12.1402
躱	-12.1403
㓙	-12.1406
紬	-12.1407
馹	-12.1413
誹	-12.1413
僨	-12.1619
瞭	-12.1625
衫	-12.1628
霈	-12.1629
盞	-12.163
聮	-12.163
炒	-12.163
吭	-12.1631
僰	-12.1634
鋌	-12.1634
褁	-12.1634
堇	-12.1634
葱	-12.1635
珩	-12.1635
綫	-12.1635
硬	-12.1636
􁇳	-12.1636
忙	-12.1636
鶻	-12.1637
軋	-12.1637
㔻	-12.1638
盃	-12.1638
晁	-12.1639
唁	-12.1639
莎	-12.1639
訕	-12.1639
畚	-12.1639
轎	-12.164
淆	-12.164
滙	-12.164
帙	-12.164
献	-12.164
崈	-12.1641
啐	-12.1642
靦	-12.1642
慣	-12.1643
肜	-12.1645
毖	-12.1645
愀	-12.1645
掇	-12.1646
榦	-12.1647
洒	-12.1649
旭	-12.1652
涌	-12.1652
朶	-12.1653
蕤	-12.1653
赧	-12.1657
罍	-12.167
沭	-12.1872
枵	-12.1872
禡	-12.1877
陝	-12.188
焜	-12.1882
晶	-12.1883
剴	-12.1884
鶚	-12.1885
幬	-12.1886
尨	-12.1888
湓	-12.1888
囤	-12.1888
褂	-12.1888
硤	-12.1888
菟	-12.1889
睽	-12.189
辧	-12.1891
豬	-12.1891
濃	-12.1891
湮	-12.1891
腑	-12.1891
摭	-12.1892
惋	-12.1892
圏	-12.1892
嗾	-12.1894
癰	-12.1896
窃	-12.1896
脆	-12.1897
㬰	-12.1897
悴	-12.1898
婿	-12.1899
惛	-12.1901
箱	-12.1903
鐩	-12.1903
翀	-12.1904
娱	-12.1906
腎	-12.1907
蹊	-12.1908
茷	-12.2132
瀰	-12.2132
寀	-12.2132
蛤	-12.2134
拍	-12.2135
翬	-12.2136
蠅	-12.2137
謄	-12.2138
柸	-12.2138
瞞	-12.2138
懣	-12.2139
査	-12.214
剉	-12.2141
鐫	-12.2141
穽	-12.2141
崤	-12.2141
洹	-12.2142
斡	-12.2142
楫	-12.2142
愴	-12.2143
濼	-12.2144
鍊	-12.2144
蝟	-12.2144
鰌	-12.2144
􁝠	-12.2145
碍	-12.2146
脤	-12.2146
襍	-12.2148
贅	-12.2148
秪	-12.2149
狙	-12.2149
窕	-12.215
漬	-12.2151
礫	-12.2151
燿	-12.2151
懟	-12.2151
櫓	-12.2151
喋	-12.2153
愜	-12.2154
塡	-12.2156
繅	-12.2159
忬	-12.2166
縯	-12.2167
秒	-12.2171
曆	-12.2397
莾	-12.2397
臬	-12.24
紈	-12.2403
瑩	-12.2403
縈	-12.2404
竺	-12.2404
䆳	-12.2405
匀	-12.2405
貙	-12.2405
幻	-12.2406
徔	-12.2407
箝	-12.2407
邛	-12.2407
岩	-12.2407
湍	-12.2408
鰓	-12.2409
蜃	-12.241
鷂	-12.2412
畮	-12.2413
薫	-12.2414
麒	-12.2414
㬠	-12.2415
喊	-12.2415
璨	-12.2415
唘	-12.2417
妺	-12.2418
尖	-12.242
鯤	-12.242
湣	-12.2441
澣	-12.2664
婼	-12.2664
鬷	-12.2667
岔	-12.267
謠	-12.2671
蒋	-12.2673
獮	-12.2673
蓺	-12.2674
貿	-12.2674
珉	-12.2674
仄	-12.2674
庀	-12.2676
蕡	-12.2676
壙	-12.2676
喘	-12.2676
憸	-12.2677
縑	-12.2677
硫	-12.2677
拷	-12.2677
鏗	-12.2677
倅	-12.2677
週	-12.2678
絢	-12.2678
茸	-12.2678
悠	-12.2679
硃	-12.2679
圎	-12.2679
宕	-12.268
紱	-12.268
祟	-12.2681
袪	-12.2682
伽	-12.2684
璿	-12.2684
穗	-12.2686
昩	-12.2686
諏	-12.2687
掦	-12.2687
坌	-12.269
氶	-12.2691
債	-12.2693
荔	-12.2695
暘	-12.2696
犨	-12.2937
膜	-12.294
熒	-12.2949
丒	-12.2949
鍵	-12.2949
棼	-12.2949
檔	-12.2949
獷	-12.295
爌	-12.2951
籬	-12.2951
滸	-12.2951
笥	-12.2953
酤	-12.2953
噉	-12.2954
隤	-12.2955
趋	-12.2956
醬	-12.2956
廋	-12.2956
柝	-12.2956
綾	-12.2957
侄	-12.2957
楮	-12.2958
濰	-12.2959
栰	-12.2959
开	-12.2959
磯	-12.2959
柞	-12.2961
侏	-12.2961
緫	-12.2961
讚	-12.2961
紵	-12.2962
凜	-12.2964
瓶	-12.2964
殮	-12.2965
撼	-12.2965
鑕	-12.2966
媧	-12.2967
眠	-12.2967
攖	-12.2968
倮	-12.2968
囷	-12.297
軹	-12.2971
虡	-12.2974
啗	-12.2975
霤	-12.2976
齕	-12.2983
万	-12.322
凃	-12.3225
勗	-12.3227
廿	-12.3234
燄	-12.3235
耑	-12.3235
繻	-12.3236
獅	-12.3238
鼂	-12.3238
橘	-12.3238
騂	-12.3239
鑼	-12.3239
咏	-12.3239
薯	-12.324
閆	-12.3241
洫	-12.3241
佻	-12.3241
瑁	-12.3242
臍	-12.3243
僥	-12.3244
祊	-12.3245
烙	-12.3246
慾	-12.3247
瑑	-12.3248
塜	-12.3248
簟	-12.3248
睥	-12.3248
爍	-12.3248
湆	-12.325
筓	-12.3251
別	-12.3251
栖	-12.3254
歧	-12.3258
罸	-12.3261
猊	-12.3262
肢	-12.3262
𤾉	-12.3268
滎	-12.3449
獒	-12.352
餕	-12.3522
猫	-12.3523
垜	-12.3524
柤	-12.3524
儷	-12.3525
茵	-12.3525
酺	-12.3526
飫	-12.3526
?	-12.3528
净	-12.353
腿	-12.3531
藎	-12.3534
斐	-12.3534
沌	-12.3534
炅	-12.3535
攤	-12.3535
絮	-12.3536
褥	-12.3536
扃	-12.3538
挹	-12.3539
徨	-12.3539
螭	-12.354
杪	-12.3542
饜	-12.3544
蜩	-12.3544
洸	-12.3545
芾	-12.3545
幘	-12.3548
謖	-12.3548
蘩	-12.3548
藿	-12.3549
凰	-12.3551
殳	-12.3553
裼	-12.3554
沬	-12.356
糺	-12.356
夬	-12.3562
啻	-12.3769
煒	-12.3828
慺	-12.383
鄗	-12.3834
濋	-12.3835
幢	-12.3837
悸	-12.3837
蜡	-12.3838
𥙷	-12.3839
愒	-12.3839
瑯	-12.3839
杳	-12.384
盔	-12.384
圯	-12.3841
梨	-12.3841
飴	-12.3841
丼	-12.3841
氾	-12.3841
彎	-12.3842
骼	-12.3842
嘔	-12.3842
濓	-12.3843
鋹	-12.3843
誄	-12.3844
鑽	-12.3844
櫝	-12.3844
栽	-12.3845
饟	-12.3845
蛾	-12.3845
褰	-12.3845
莞	-12.3846
朦	-12.3846
扳	-12.3848
劌	-12.3849
孶	-12.385
駸	-12.385
翣	-12.3851
娯	-12.3852
髯	-12.3852
錙	-12.3853
厈	-12.3853
帆	-12.3854
霓	-12.3859
蚡	-12.4141
楙	-12.4142
瘍	-12.4143
笁	-12.4144
兊	-12.4145
靴	-12.4145
轘	-12.4146
艫	-12.4146
絕	-12.4146
嘴	-12.4147
茀	-12.4148
溯	-12.4148
壠	-12.4148
辮	-12.415
喁	-12.4151
郫	-12.4151
蒺	-12.4151
刪	-12.4152
侁	-12.4152
𧃊	-12.4152
騍	-12.4153
繄	-12.4153
猿	-12.4153
紡	-12.4153
竪	-12.4154
剏	-12.4155
廙	-12.4155
聆	-12.4156
昃	-12.4156
隼	-12.4156
溱	-12.4158
虵	-12.4158
箋	-12.416
褓	-12.416
蜜	-12.416
碭	-12.4161
蘖	-12.4161
蘋	-12.4162
悽	-12.4162
鍜	-12.4163
輳	-12.4163
缶	-12.4166
溘	-12.4167
躧	-12.4168
醤	-12.4169
璆	-12.4172
枳	-12.4426
璮	-12.4436
菩	-12.4442
娃	-12.4444
姞	-12.4452
璹	-12.4455
舡	-12.4463
樑	-12.4463
䓁	-12.4464
烜	-12.4466
璇	-12.4466
郅	-12.4467
兀	-12.4467
彄	-12.4467
靺	-12.4468
藹	-12.4469
鞗	-12.4469
鞌	-12.447
杕	-12.4471
痾	-12.4473
皿	-12.4474
鄠	-12.4474
楠	-12.4475
溧	-12.4475
沆	-12.4476
関	-12.4476
爼	-12.4476
幃	-12.4476
鼙	-12.4477
碌	-12.4477
湔	-12.4478
蘧	-12.4479
閿	-12.4479
峨	-12.448
熏	-12.4481
町	-12.4481
檐	-12.4481
倓	-12.4482
鄊	-12.4482
針	-12.4482
澮	-12.4482
韙	-12.4482
郇	-12.4483
稾	-12.4484
箸	-12.4484
甑	-12.4484
㰱	-12.4487
陿	-12.4487
翥	-12.4489
跽	-12.4495
脰	-12.4496
呐	-12.4497
玖	-12.4498
楅	-12.4505
畞	-12.4506
郴	-12.4711
霾	-12.4786
鉢	-12.4794
歂	-12.4798
騭	-12.4799
呪	-12.4799
蝥	-12.4799
盱	-12.48
卉	-12.48
玁	-12.4801
趯	-12.4801
沫	-12.4801
挂	-12.4802
棻	-12.4802
駹	-12.4803
䲭	-12.4804
啣	-12.4804
杌	-12.4805
𣏌	-12.4805
憝	-12.4807
餅	-12.4807
杓	-12.4807
衎	-12.4807
獺	-12.4807
毳	-12.4807
垍	-12.4808
鞘	-12.4808
歃	-12.4808
窠	-12.4808
兗	-12.481
剗	-12.481
棊	-12.4811
罙	-12.4811
泆	-12.4812
紗	-12.4812
祸	-12.4814
滹	-12.4814
駛	-12.4814
蠎	-12.4814
歜	-12.4816
啄	-12.4816
徠	-12.4818
絛	-12.4819
簠	-12.482
𤨏	-12.4821
斿	-12.4821
畼	-12.4823
泳	-12.4823
搤	-12.4824
柶	-12.4825
䞇	-12.4825
澌	-12.4825
恫	-12.4827
嫪	-12.4846
躓	-12.5136
勷	-12.5139
邙	-12.514
琕	-12.514
餱	-12.5141
很	-12.5143
郳	-12.5145
璡	-12.5145
澨	-12.5146
舳	-12.5146
鞨	-12.5147
頎	-12.5147
轝	-12.5148
劈	-12.5148
瓛	-12.5148
烖	-12.5149
蹋	-12.5149
适	-12.5149
嗢	-12.515
攅	-12.515
遘	-12.515
澂	-12.515
檮	-12.5152
趫	-12.5152
粧	-12.5152
萑	-12.5153
銛	-12.5153
縵	-12.5153
偫	-12.5154
袐	-12.5154
禩	-12.5155
璃	-12.5156
騈	-12.5157
鴛	-12.5157
壄	-12.5159
窒	-12.5159
癡	-12.5159
阽	-12.5159
偁	-12.5159
轢	-12.5159
戱	-12.5162
嗛	-12.5162
拐	-12.5164
苓	-12.5164
嚻	-12.5165
睫	-12.5166
媪	-12.5167
掄	-12.5167
塈	-12.5169
躔	-12.517
豋	-12.5476
憖	-12.5492
譆	-12.5496
鈕	-12.5497
棐	-12.5498
耼	-12.5502
佼	-12.5503
盬	-12.5504
柷	-12.5504
紞	-12.5505
豸	-12.5506
芈	-12.5506
鷺	-12.5507
闋	-12.5508
螫	-12.5508
份	-12.5509
醸	-12.551
瑰	-12.551
髻	-12.551
蔴	-12.5511
鼉	-12.5511
塤	-12.5512
疥	-12.5512
觜	-12.5512
筰	-12.5513
竢	-12.5513
贜	-12.5515
洊	-12.5515
捫	-12.5516
齪	-12.5516
締	-12.5517
廄	-12.5517
褘	-12.5518
妲	-12.5518
傀	-12.5519
鴞	-12.5519
翮	-12.552
浣	-12.552
寑	-12.552
椘	-12.5521
眦	-12.5523
䄂	-12.5526
芸	-12.5528
槨	-12.5529
飧	-12.5531
籐	-12.5862
营	-12.5866
捆	-12.5867
琇	-12.5868
栻	-12.587
骫	-12.5871
蠃	-12.5871
匾	-12.5871
陁	-12.5872
捏	-12.5873
鵷	-12.5874
眺	-12.5874
鷇	-12.5876
墯	-12.5876
惧	-12.5877
瘼	-12.5878
晸	-12.5879
噎	-12.5879
鄘	-12.588
卨	-12.588
躇	-12.5881
鏊	-12.5881
廨	-12.5881
擘	-12.5881
皐	-12.5881
覯	-12.5882
珦	-12.5882
忮	-12.5882
謔	-12.5882
咈	-12.5883
蹌	-12.5884
戅	-12.5885
蹴	-12.5887
蝎	-12.5887
暈	-12.5887
𦕈	-12.5888
莢	-12.5888
貊	-12.5888
畸	-12.5889
濩	-12.5891
窪	-12.5891
瑙	-12.5893
眄	-12.5895
鈹	-12.5896
咥	-12.5896
璐	-12.5897
桔	-12.5902
卣	-12.5917
穣	-12.6231
虒	-12.6247
餵	-12.6248
鵞	-12.6249
湝	-12.6251
廧	-12.6252
酅	-12.6255
悒	-12.6255
嘖	-12.6256
懃	-12.6256
弹	-12.6256
荻	-12.626
譔	-12.6261
搴	-12.6262
敲	-12.6262
輜	-12.6262
髽	-12.6262
閠	-12.6263
蹉	-12.6263
猓	-12.6263
㟁	-12.6264
嚙	-12.6266
棹	-12.6267
朘	-12.6267
憔	-12.6267
姫	-12.6267
姣	-12.6268
朏	-12.6269
熬	-12.6269
閈	-12.627
閧	-12.627
􁇔	-12.6271
挪	-12.6271
嘽	-12.6272
倔	-12.6273
冇	-12.6273
肚	-12.6274
徯	-12.6274
兜	-12.6274
傘	-12.6275
淘	-12.6275
蕢	-12.6275
壟	-12.6275
錬	-12.6275
堊	-12.6277
烘	-12.6279
窳	-12.6281
槀	-12.6281
睚	-12.6282
筥	-12.6283
蕙	-12.6286
餮	-12.6286
庵	-12.6287
墠	-12.6289
勰	-12.6647
濙	-12.6651
岢	-12.6652
澍	-12.6653
鄔	-12.6654
亰	-12.6655
赳	-12.6655
尫	-12.6655
儧	-12.6656
詮	-12.6657
㠶	-12.6659
賨	-12.666
汨	-12.666
俅	-12.6661
鋋	-12.6661
鬰	-12.6661
絏	-12.6662
抶	-12.6663
夣	-12.6663
痺	-12.6663
樺	-12.6663
綁	-12.6663
庳	-12.6663
鯈	-12.6663
鷁	-12.6664
鼃	-12.6664
喏	-12.6664
㛰	-12.6665
楓	-12.6665
蔥	-12.6665
肓	-12.6665
躐	-12.6666
桁	-12.6666
鍔	-12.6667
鸇	-12.6667
炕	-12.6668
㐫	-12.6668
煨	-12.6669
珮	-12.6669
䆒	-12.6671
牾	-12.6671
筑	-12.6672
躊	-12.6673
狭	-12.6673
羶	-12.6673
搔	-12.6673
窴	-12.6674
埓	-12.6675
糲	-12.6676
瀋	-12.6676
絻	-12.6676
鶩	-12.6677
臏	-12.6677
􁱾	-12.6677
慍	-12.6677
鞞	-12.6678
頇	-12.6678
蚊	-12.6678
蠋	-12.6679
㣧	-12.668
羹	-12.6681
曮	-12.6681
笫	-12.6681
怱	-12.6684
帚	-12.6689
斝	-12.6689
崘	-12.7045
灞	-12.706
肵	-12.7061
塚	-12.7065
崕	-12.7066
軏	-12.7066
稗	-12.7069
豭	-12.7069
筸	-12.707
㩀	-12.707
桌	-12.7071
滴	-12.7072
煤	-12.7073
燝	-12.7073
癉	-12.7074
聃	-12.7074
盻	-12.7074
葅	-12.7075
襦	-12.7076
尙	-12.7076
昀	-12.7076
埕	-12.7077
瞬	-12.7077
恁	-12.7077
罽	-12.7078
禫	-12.7078
娼	-12.7079
艋	-12.708
粘	-12.708
綍	-12.7081
鸛	-12.7081
旟	-12.7081
怎	-12.7081
淋	-12.7082
蘿	-12.7082
襖	-12.7082
罝	-12.7082
壐	-12.7082
讞	-12.7083
禜	-12.7083
踦	-12.7084
稳	-12.7084
蝝	-12.7085
壼	-12.7085
矰	-12.7086
媮	-12.7087
慬	-12.7087
犖	-12.7088
塾	-12.7088
簪	-12.709
斑	-12.7091
瞳	-12.7091
賃	-12.7091
麛	-12.7091
甗	-12.7091
摽	-12.7091
羑	-12.7093
閟	-12.7093
讁	-12.7093
綈	-12.7093
頫	-12.7093
簧	-12.7094
麕	-12.7095
琥	-12.7097
捭	-12.7098
煇	-12.71
臝	-12.711
龠	-12.7117
鍠	-12.7482
邶	-12.7495
㐲	-12.7498
佽	-12.75
晙	-12.7501
哆	-12.7502
酳	-12.7506
敔	-12.7507
梢	-12.7507
氍	-12.7508
苕	-12.7509
梭	-12.7509
屛	-12.751
伷	-12.751
机	-12.7511
診	-12.7511
棋	-12.7511
楪	-12.7512
酗	-12.7513
溲	-12.7514
軺	-12.7515
跬	-12.7515
鼷	-12.7515
撮	-12.7516
餗	-12.7516
斁	-12.7516
趁	-12.7517
梏	-12.7518
恠	-12.7519
琅	-12.7519
雛	-12.7519
磽	-12.752
棓	-12.752
喈	-12.752
蚩	-12.752
嬙	-12.752
嚇	-12.7521
馱	-12.7522
戬	-12.7522
坼	-12.7523
嘷	-12.7523
惎	-12.7524
嚞	-12.7524
芹	-12.7525
喑	-12.7525
舵	-12.7526
矍	-12.7526
窈	-12.7526
洄	-12.7527
竚	-12.7527
餔	-12.7528
蜻	-12.7529
囗	-12.7531
貅	-12.7532
翽	-12.7532
憯	-12.7533
讌	-12.7534
彷	-12.7537
嵓	-12.7542
膾	-12.7547
暾	-12.7944
譓	-12.7946
姨	-12.7952
鄤	-12.7953
罘	-12.7954
蹲	-12.7957
柟	-12.7957
埸	-12.7958
燠	-12.7959
躅	-12.7961
縗	-12.7961
茭	-12.7963
傚	-12.7963
礬	-12.7963
蔗	-12.7963
盇	-12.7963
脀	-12.7964
菌	-12.7964
螂	-12.7964
楣	-12.7964
掬	-12.7965
嫺	-12.7965
吮	-12.7966
騑	-12.7967
旐	-12.7967
穏	-12.7967
鍚	-12.7967
慓	-12.7967
鏁	-12.7968
霫	-12.7969
裙	-12.797
鞋	-12.797
捄	-12.7971
纖	-12.7971
嚳	-12.7971
燉	-12.7972
簮	-12.7972
彀	-12.7972
瘖	-12.7972
窽	-12.7973
縢	-12.7973
颷	-12.7973
狷	-12.7973
娠	-12.7973
豊	-12.7973
遡	-12.7973
埏	-12.7974
騸	-12.7974
耉	-12.7974
蝨	-12.7975
杉	-12.7975
燹	-12.7975
窬	-12.7977
漷	-12.7979
蟣	-12.7979
匜	-12.7979
糒	-12.7979
跑	-12.7981
孱	-12.7981
蔭	-12.7982
噤	-12.7983
臊	-12.7983
蚌	-12.7983
攢	-12.7983
憬	-12.7984
胾	-12.7984
慊	-12.7984
揄	-12.7986
暌	-12.799
粃	-12.7992
啞	-12.7993
揉	-12.7998
矼	-12.8417
瑭	-12.8424
畵	-12.8424
䠞	-12.8427
眊	-12.8427
橛	-12.8432
內	-12.8434
㕓	-12.8435
惏	-12.8435
児	-12.8436
沍	-12.8437
綆	-12.8437
泫	-12.8438
磝	-12.8439
紲	-12.844
媳	-12.844
仭	-12.844
㢮	-12.8441
悄	-12.8441
謩	-12.8441
魔	-12.8441
黁	-12.8441
硯	-12.8441
嶼	-12.8442
牣	-12.8442
嗤	-12.8442
訽	-12.8443
棁	-12.8443
瑫	-12.8444
麀	-12.8444
勩	-12.8444
傴	-12.8444
闉	-12.8445
鼏	-12.8446
媛	-12.8446
泂	-12.8447
坍	-12.8447
絅	-12.8447
薑	-12.8447
喫	-12.8447
璵	-12.8448
裾	-12.8448
凹	-12.8449
靁	-12.8449
溜	-12.8449
茄	-12.8449
靠	-12.845
朓	-12.845
擦	-12.845
庲	-12.845
檣	-12.8451
攩	-12.8452
桉	-12.8453
墈	-12.8453
爺	-12.8453
芷	-12.8454
螘	-12.8454
暝	-12.8454
斮	-12.8455
肴	-12.8456
鍪	-12.8456
舫	-12.8456
埴	-12.8458
淶	-12.8458
樛	-12.8458
煚	-12.8458
瓴	-12.8458
鏑	-12.8459
坫	-12.846
堦	-12.846
䴡	-12.8461
罋	-12.8463
崛	-12.8463
煉	-12.8466
靷	-12.8468
茆	-12.8468
邽	-12.8918
莪	-12.8925
滏	-12.8927
㳙	-12.8929
惔	-12.893
霏	-12.8932
跗	-12.8933
鏖	-12.8934
𣪚	-12.8934
瘵	-12.8935
廚	-12.8935
梃	-12.8935
厎	-12.8936
􁀌	-12.8937
洿	-12.8937
紕	-12.8938
頲	-12.8938
幔	-12.8939
嵌	-12.894
齟	-12.894
哂	-12.894
塋	-12.8941
㩦	-12.8941
謊	-12.8942
饉	-12.8942
勱	-12.8942
柎	-12.8943
芊	-12.8945
􁂷	-12.8945
縝	-12.8945
欃	-12.8946
矇	-12.8946
劬	-12.8946
鼇	-12.8946
䂓	-12.8947
呑	-12.8947
芋	-12.8947
戇	-12.8947
捃	-12.8947
鐲	-12.8948
贐	-12.8949
鶂	-12.8949
虬	-12.8949
腋	-12.895
酪	-12.895
棫	-12.895
隩	-12.8951
牴	-12.8951
圈	-12.8952
伃	-12.8952
櫃	-12.8952
溵	-12.8953
窝	-12.8953
瞶	-12.8953
騤	-12.8954
蓆	-12.8955
颶	-12.8958
瘝	-12.8958
汋	-12.8958
缾	-12.8958
祛	-12.8958
渢	-12.8959
麑	-12.896
斲	-12.8961
筍	-12.8961
綌	-12.8963
牷	-12.8964
藟	-12.8968
冏	-12.8968
雚	-12.8974
淞	-12.8992
篳	-12.9446
􁗁	-12.9446
凈	-12.9452
笳	-12.9457
繖	-12.9457
遟	-12.9457
媟	-12.9457
禔	-12.9457
昝	-12.9459
迕	-12.9459
咮	-12.946
訌	-12.946
葫	-12.9461
蝦	-12.9463
宁	-12.9463
券	-12.9463
笛	-12.9464
躪	-12.9464
㽔	-12.9465
姐	-12.9465
諗	-12.9466
淬	-12.9467
艨	-12.9468
璪	-12.9469
壝	-12.9469
怍	-12.947
忞	-12.947
壖	-12.947
爬	-12.9471
恇	-12.9471
嵇	-12.9471
𥚹	-12.9473
㬇	-12.9473
丏	-12.9473
蹠	-12.9473
椀	-12.9474
秫	-12.9474
凴	-12.9474
閾	-12.9475
匆	-12.9475
甿	-12.9475
魑	-12.9476
刅	-12.9477
隈	-12.9477
莬	-12.9478
韠	-12.9478
鐙	-12.9479
撘	-12.9479
枲	-12.9479
惮	-12.948
軛	-12.948
簀	-12.9481
淒	-12.9481
琊	-12.9481
栩	-12.9481
垠	-12.9481
憺	-12.9481
欬	-12.9482
㕑	-12.9483
擿	-12.9483
踉	-12.9484
蚝	-12.9485
厖	-12.9485
瘧	-12.9486
徕	-12.9486
褎	-12.9487
腓	-12.9489
兪	-12.949
楛	-12.949
瀨	-12.9491
䓶	-12.9491
肻	-12.9493
觳	-12.9503
儵	-12.9503
姝	-12.9503
哱	-12.9504
显	-12.951
椉	-12.9513
仡	-13.0014
插	-13.0014
阱	-13.0016
樣	-13.0018
檇	-13.0018
疢	-13.0018
檛	-13.0018
奧	-13.0018
綯	-13.0018
悁	-13.0019
氂	-13.0019
鄟	-13.0019
漚	-13.002
畦	-13.002
椅	-13.0021
坰	-13.0022
恍	-13.0022
繯	-13.0022
諼	-13.0023
恧	-13.0023
誆	-13.0023
忖	-13.0023
臀	-13.0023
莆	-13.0024
憇	-13.0024
翡	-13.0025
凄	-13.0025
榷	-13.0026
濺	-13.0026
頁	-13.0027
衒	-13.0027
匃	-13.0027
燇	-13.0028
怦	-13.0028
霉	-13.0028
蹵	-13.0029
溽	-13.0029
汊	-13.0029
蓉	-13.0029
攪	-13.003
絓	-13.003
賕	-13.0031
縡	-13.0031
屉	-13.0031
遒	-13.0031
憩	-13.0032
𢷬	-13.0032
芙	-13.0032
錞	-13.0033
眥	-13.0034
雊	-13.0034
窶	-13.0034
嚼	-13.0036
霣	-13.0036
霪	-13.0036
咳	-13.0038
惹	-13.0038
坻	-13.0039
攣	-13.004
猨	-13.0041
甒	-13.0042
儛	-13.0043
刲	-13.0043
蹯	-13.0043
鍰	-13.0043
秤	-13.0044
琸	-13.0044
俳	-13.0044
栝	-13.0045
醋	-13.0048
礱	-13.005
咩	-13.0051
吻	-13.0055
羖	-13.0056
鷰	-13.0057
斶	-13.0076
晜	-13.0085
莋	-13.058
崞	-13.0587
閗	-13.059
埜	-13.0594
汏	-13.0597
繙	-13.06
礿	-13.0603
㝡	-13.0604
綑	-13.0604
䀋	-13.0605
覦	-13.0608
鞶	-13.0608
闒	-13.0609
彲	-13.0609
珧	-13.0609
壍	-13.0609
眙	-13.061
倏	-13.061
淦	-13.061
巇	-13.061
醪	-13.0612
儇	-13.0612
勻	-13.0612
椹	-13.0612
踧	-13.0612
欝	-13.0612
勳	-13.0613
饘	-13.0614
虀	-13.0615
隲	-13.0615
萎	-13.0615
豷	-13.0615
臉	-13.0615
柚	-13.0615
蔿	-13.0616
熸	-13.0617
窋	-13.0617
鄀	-13.0617
嗔	-13.0617
簷	-13.0618
瀍	-13.0618
瀏	-13.0619
􁚠	-13.0619
淩	-13.0619
膊	-13.062
㡳	-13.062
薌	-13.062
澱	-13.062
咒	-13.0621
霰	-13.0621
哄	-13.0621
禠	-13.0622
愞	-13.0622
摹	-13.0622
緱	-13.0622
䰟	-13.0622
琉	-13.0623
瀦	-13.0623
戛	-13.0624
𫀆	-13.0624
疹	-13.0624
虱	-13.0624
隃	-13.0625
觱	-13.0625
矞	-13.0626
删	-13.0626
嗎	-13.0627
䖟	-13.0627
刨	-13.0627
肫	-13.0628
顱	-13.0628
􁠷	-13.0628
堠	-13.0629
糅	-13.063
歠	-13.063
慌	-13.0632
臑	-13.0634
篁	-13.0634
萋	-13.0636
冽	-13.0636
怳	-13.0637
扱	-13.0644
秭	-13.0652
䵄	-13.1207
朙	-13.1214
翌	-13.1219
鱣	-13.1222
倜	-13.1222
剃	-13.1222
騮	-13.1223
嵎	-13.1225
畯	-13.1227
嫠	-13.1227
泇	-13.1228
韞	-13.1228
蕉	-13.1231
胼	-13.1232
蕕	-13.1232
觥	-13.1233
甃	-13.1233
擎	-13.1234
瑒	-13.1234
帟	-13.1235
潑	-13.1235
燀	-13.1236
僦	-13.1237
胝	-13.1237
煴	-13.1237
塑	-13.1237
踴	-13.1237
罌	-13.1238
劃	-13.1239
曖	-13.124
蓏	-13.124
鄋	-13.1241
呴	-13.1241
灃	-13.1241
蔟	-13.1242
惬	-13.1242
艟	-13.1242
屣	-13.1242
厘	-13.1243
杙	-13.1243
旴	-13.1243
睠	-13.1244
趎	-13.1244
嶢	-13.1244
騅	-13.1245
熺	-13.1245
颯	-13.1245
涙	-13.1246
剷	-13.1246
蜉	-13.1247
㦯	-13.1247
芑	-13.1248
欎	-13.1249
殣	-13.1249
胖	-13.1249
埠	-13.1249
鵰	-13.1249
憙	-13.1249
鷸	-13.125
惨	-13.125
櫂	-13.125
抹	-13.1251
弣	-13.1251
緼	-13.1251
逅	-13.1251
儳	-13.1251
禬	-13.1252
蝮	-13.1252
閃	-13.1253
踔	-13.1253
褻	-13.1253
銍	-13.1254
鄅	-13.1255
煞	-13.1256
价	-13.1256
倕	-13.1257
轔	-13.1257
峘	-13.1261
紼	-13.1261
鬴	-13.1261
怫	-13.1268
耰	-13.1269
鳧	-13.1273
浰	-13.1277
峝	-13.128
璙	-13.1865
鍛	-13.188
渺	-13.1886
蒨	-13.1886
齍	-13.1888
㴶	-13.1889
姥	-13.1889
幪	-13.1889
駉	-13.189
菀	-13.189
滬	-13.189
蒜	-13.1892
韎	-13.1893
籓	-13.1893
踖	-13.1894
郠	-13.1895
膴	-13.1896
毘	-13.1896
澇	-13.1896
擱	-13.1898
旡	-13.1898
罩	-13.1898
栲	-13.1899
賮	-13.1899
症	-13.1901
俺	-13.1902
碗	-13.1903
芰	-13.1903
黛	-13.1903
罅	-13.1903
呶	-13.1904
唵	-13.1904
􁡦	-13.1904
咫	-13.1905
祍	-13.1905
糖	-13.1905
阸	-13.1906
俚	-13.1906
咀	-13.1906
鈿	-13.1906
鐶	-13.1907
焼	-13.1907
惙	-13.1908
飇	-13.1908
峡	-13.1908
禚	-13.1908
嶇	-13.1908
踶	-13.1908
蛉	-13.1909
拄	-13.191
腯	-13.191
藕	-13.1912
篾	-13.1913
墅	-13.1913
豔	-13.1913
瞍	-13.1914
眎	-13.1914
憕	-13.1914
痌	-13.1915
嶧	-13.1915
淛	-13.1916
邿	-13.1916
覡	-13.1916
葑	-13.1917
􁇠	-13.1918
橒	-13.1918
駵	-13.1918
檟	-13.1919
鮌	-13.1919
獞	-13.192
瑨	-13.1922
艤	-13.1923
緄	-13.1923
皦	-13.1924
嚬	-13.1924
飪	-13.1924
繢	-13.1925
擗	-13.1925
獫	-13.1926
箧	-13.1927
攙	-13.1927
騄	-13.1928
堀	-13.1928
陔	-13.193
鄕	-13.1931
蘅	-13.1933
姤	-13.1934
揵	-13.1937
瓢	-13.1938
穩	-13.1939
梱	-13.1941
荂	-13.2591
迃	-13.2596
暀	-13.2601
霹	-13.2601
仵	-13.2605
斚	-13.2607
迋	-13.2608
醖	-13.2608
剸	-13.2608
宷	-13.261
麝	-13.261
螗	-13.2612
焬	-13.2613
筒	-13.2614
鞚	-13.2615
澚	-13.2615
澁	-13.2615
鄾	-13.2615
憗	-13.2615
鑣	-13.2616
漾	-13.2617
佖	-13.2618
晻	-13.2618
瘈	-13.2618
鼗	-13.2619
箎	-13.2619
崎	-13.262
凊	-13.262
慫	-13.262
􁁄	-13.2621
縲	-13.2621
榱	-13.2621
𠡠	-13.2621
閡	-13.2622
邘	-13.2622
断	-13.2622
萄	-13.2623
曝	-13.2623
絇	-13.2623
鐐	-13.2623
𢾗	-13.2623
芃	-13.2623
蘀	-13.2626
幇	-13.2626
籧	-13.2628
綪	-13.2628
卲	-13.2628
䍧	-13.2628
☰	-13.2628
倀	-13.2628
筯	-13.2629
篠	-13.263
羝	-13.263
肋	-13.263
泅	-13.263
釵	-13.263
杷	-13.263
駔	-13.263
樅	-13.2631
珀	-13.2631
逌	-13.2632
𬋩	-13.2632
縴	-13.2632
呢	-13.2632
侖	-13.2632
鶬	-13.2633
鍤	-13.2633
芣	-13.2633
萼	-13.2634
黧	-13.2635
湼	-13.2635
紥	-13.2635
葯	-13.2636
燋	-13.2637
邅	-13.2637
滲	-13.2638
𤯝	-13.2638
噴	-13.2638
誾	-13.2638
噦	-13.2639
㚟	-13.2639
尭	-13.2639
惆	-13.264
綉	-13.2641
廛	-13.2642
㩁	-13.2642
瀼	-13.2642
槎	-13.2642
螣	-13.2645
嘘	-13.2646
漦	-13.2647
徉	-13.2648
䢉	-13.2649
膓	-13.2651
緤	-13.2652
茇	-13.2671
蜼	-13.2674
猇	-13.3349
暕	-13.3353
鏢	-13.3361
鍬	-13.337
浿	-13.3371
甓	-13.3371
􁂪	-13.3375
頍	-13.3376
嘓	-13.3377
菆	-13.3378
蚓	-13.3379
磑	-13.338
􁱶	-13.3381
巂	-13.3383
夐	-13.3383
謇	-13.3384
鎸	-13.3384
逯	-13.3384
﨑	-13.3385
褏	-13.3385
秕	-13.3385
芼	-13.3385
蓑	-13.3386
譌	-13.3386
畒	-13.3387
摛	-13.3387
嫓	-13.3387
湑	-13.3387
鍇	-13.3387
惚	-13.3387
耏	-13.3388
跼	-13.3388
賷	-13.3388
痼	-13.3388
撿	-13.3389
詫	-13.3389
軿	-13.339
鵶	-13.339
徊	-13.3391
傉	-13.3391
咋	-13.3391
幞	-13.3391
隮	-13.3391
撈	-13.3391
搥	-13.3391
煢	-13.3392
膰	-13.3393
葡	-13.3393
涅	-13.3393
撅	-13.3394
曀	-13.3394
鏟	-13.3394
沚	-13.3395
叫	-13.3395
蓽	-13.3395
殚	-13.3395
恡	-13.3395
尗	-13.3395
撑	-13.3395
唆	-13.3396
胔	-13.3396
箙	-13.3396
鴽	-13.3396
碓	-13.3397
鑪	-13.3397
藂	-13.3398
闑	-13.3398
鱉	-13.3398
纚	-13.3398
悺	-13.3399
虩	-13.3399
旉	-13.3399
遨	-13.3399
骩	-13.3399
戳	-13.34
鷖	-13.34
䌓	-13.3401
猋	-13.3401
渤	-13.3401
芉	-13.3401
羕	-13.3401
樟	-13.3402
苢	-13.3403
匙	-13.3403
㮣	-13.3404
找	-13.3404
臞	-13.3404
殍	-13.3405
洳	-13.3405
䫉	-13.3405
眭	-13.3407
賙	-13.3407
哽	-13.3407
蚋	-13.3408
錘	-13.3408
齗	-13.3409
蒔	-13.3409
蹀	-13.3411
匭	-13.3412
縹	-13.3413
咤	-13.3414
鐔	-13.3414
嵒	-13.3414
笴	-13.3417
憧	-13.3417
漉	-13.3422
嗑	-13.3427
嗌	-13.3428
灂	-13.343
炫	-13.3435
偝	-13.3438
禼	-13.4183
癲	-13.4186
蛭	-13.4192
稺	-13.4192
螢	-13.42
扛	-13.4201
鄬	-13.4201
驊	-13.4203
珵	-13.4205
鐝	-13.4205
溴	-13.4205
疉	-13.4206
癬	-13.4207
晊	-13.4208
瀬	-13.4209
篷	-13.421
岵	-13.421
嶓	-13.4211
旜	-13.4211
迢	-13.4212
媢	-13.4212
撡	-13.4213
毡	-13.4213
玢	-13.4213
郲	-13.4213
埭	-13.4214
嶮	-13.4215
曁	-13.4215
艇	-13.4215
傔	-13.4216
坟	-13.4216
唶	-13.4216
饁	-13.4217
痍	-13.4217
姆	-13.4218
崟	-13.4218
屝	-13.4219
猱	-13.4219
茁	-13.4219
啚	-13.4219
鬥	-13.4219
蜎	-13.4219
瞢	-13.422
酏	-13.422
朾	-13.422
懵	-13.422
酧	-13.422
磴	-13.4221
薁	-13.4222
衅	-13.4222
荏	-13.4223
脿	-13.4223
醊	-13.4223
簭	-13.4223
閥	-13.4223
黝	-13.4224
絪	-13.4224
鏵	-13.4224
圮	-13.4225
縟	-13.4225
眯	-13.4225
蚠	-13.4225
瀉	-13.4225
鎚	-13.4225
縕	-13.4225
紟	-13.4226
玃	-13.4226
韡	-13.4226
焯	-13.4226
苪	-13.4227
壚	-13.4227
芍	-13.4227
醲	-13.4227
驎	-13.4227
尢	-13.4228
酎	-13.4229
忼	-13.4229
溟	-13.4229
蘷	-13.4229
􁨄	-13.4229
遫	-13.423
醻	-13.423
麄	-13.423
髹	-13.423
訏	-13.4231
繾	-13.4232
洶	-13.4232
鰍	-13.4232
烱	-13.4233
籽	-13.4233
笈	-13.4233
檉	-13.4234
窵	-13.4234
溆	-13.4235
觿	-13.4235
穵	-13.4235
鍍	-13.4236
哇	-13.4236
詖	-13.4236
憮	-13.4236
蟹	-13.4236
箘	-13.4237
聒	-13.4237
邰	-13.4238
娀	-13.4238
釭	-13.4238
㾗	-13.4239
翛	-13.4239
蹢	-13.4239
駃	-13.424
昈	-13.4241
屐	-13.4241
娟	-13.4242
瞠	-13.4242
姁	-13.4242
飜	-13.4243
崱	-13.4243
僬	-13.4243
抇	-13.4245
楔	-13.4245
棖	-13.4246
葷	-13.4246
廁	-13.4247
􁱴	-13.4248
拇	-13.425
菱	-13.4251
瓆	-13.4253
蛩	-13.4263
汔	-13.4273
噠	-13.5093
鮫	-13.5097
籸	-13.5098
慇	-13.5104
畹	-13.5111
斆	-13.5114
惸	-13.5114
嶂	-13.5114
歹	-13.5114
缷	-13.5115
㟧	-13.5118
拌	-13.5119
悆	-13.5121
埧	-13.5122
乜	-13.5123
牼	-13.5123
籟	-13.5123
𠢐	-13.5123
𬒮	-13.5124
鬩	-13.5124
蛙	-13.5126
蜋	-13.5126
賖	-13.5126
蟾	-13.5126
☷	-13.5127
刹	-13.5127
獳	-13.5127
胠	-13.5127
捋	-13.5127
滻	-13.5128
牐	-13.5128
敳	-13.5129
􁀐	-13.5129
麺	-13.5129
澡	-13.5129
胊	-13.5129
鞾	-13.513
篙	-13.513
稄	-13.5131
濊	-13.5131
訿	-13.5132
戔	-13.5132
撕	-13.5133
耔	-13.5133
眴	-13.5133
蔕	-13.5133
淙	-13.5133
鳸	-13.5133
裯	-13.5133
杠	-13.5134
筲	-13.5134
禖	-13.5134
鮓	-13.5135
澥	-13.5135
柙	-13.5135
􁊋	-13.5136
犴	-13.5136
崍	-13.5136
垝	-13.5136
簴	-13.5137
碕	-13.5137
猒	-13.5137
溶	-13.5137
梲	-13.5137
堌	-13.5138
稲	-13.5138
唳	-13.5138
娵	-13.5138
褶	-13.5138
薺	-13.5138
埳	-13.5138
芘	-13.5139
笲	-13.5139
絍	-13.5139
囓	-13.514
哮	-13.514
嘲	-13.514
彜	-13.5141
耎	-13.5141
擂	-13.5141
廱	-13.5142
獬	-13.5142
姱	-13.5142
揕	-13.5142
蓂	-13.5142
綣	-13.5142
讇	-13.5142
􁁏	-13.5144
甎	-13.5144
逷	-13.5144
鷲	-13.5146
扄	-13.5146
緌	-13.5146
漪	-13.5146
襯	-13.5146
蔀	-13.5146
笱	-13.5147
郪	-13.5147
茝	-13.5148
禴	-13.5148
槪	-13.5148
昫	-13.5149
繽	-13.5149
詁	-13.515
鋐	-13.5151
棨	-13.5152
鬵	-13.5152
柢	-13.5153
艶	-13.5153
狶	-13.5154
檿	-13.5155
暍	-13.5156
穠	-13.5156
癃	-13.5158
鋏	-13.5158
睒	-13.516
阤	-13.5165
㳅	-13.5167
楸	-13.5168
􁏄	-13.5168
黽	-13.517
髑	-13.5171
蛆	-13.5172
醳	-13.5176
彖	-13.5182
澒	-13.521
蓨	-13.6092
觩	-13.6099
瑮	-13.6102
忉	-13.6106
䁥	-13.6107
鄺	-13.6109
鬆	-13.6112
楗	-13.6113
􁱬	-13.6113
猳	-13.6113
絆	-13.6116
㻛	-13.6117
釧	-13.6117
鶯	-13.6117
蟊	-13.6118
韔	-13.6118
栳	-13.6118
鷟	-13.6119
鎡	-13.6119
玭	-13.6119
虯	-13.6119
菊	-13.612
禝	-13.612
隥	-13.612
飈	-13.612
曚	-13.612
驘	-13.6121
窰	-13.6121
桅	-13.6121
瑔	-13.6121
韘	-13.6121
犵	-13.6121
謏	-13.6122
譊	-13.6122
壷	-13.6122
櫆	-13.6122
狫	-13.6122
呻	-13.6123
荳	-13.6123
型	-13.6124
吒	-13.6124
陥	-13.6124
磋	-13.6125
濂	-13.6125
鴳	-13.6125
拈	-13.6125
蹬	-13.6126
鼬	-13.6126
紺	-13.6126
褲	-13.6126
闟	-13.6127
膀	-13.6127
醵	-13.6127
缸	-13.6127
悊	-13.6127
戹	-13.6128
曅	-13.6128
磻	-13.6128
婣	-13.6128
窅	-13.6128
軷	-13.6129
旛	-13.613
嬈	-13.613
佹	-13.613
羃	-13.6131
熛	-13.6131
湄	-13.6131
甖	-13.6131
儡	-13.6132
澘	-13.6133
嘱	-13.6133
虔	-13.6133
巉	-13.6134
􁨑	-13.6134
咆	-13.6134
鵾	-13.6134
纜	-13.6135
熄	-13.6135
衺	-13.6135
珈	-13.6135
俌	-13.6135
禭	-13.6135
徬	-13.6136
俵	-13.6136
紃	-13.6136
矚	-13.6136
渫	-13.6137
欹	-13.6137
楬	-13.6137
噀	-13.6138
吊	-13.6138
㗋	-13.6139
嘒	-13.6139
渰	-13.6139
荗	-13.6139
鄞	-13.6139
繐	-13.6139
垤	-13.614
韍	-13.614
碇	-13.6141
亁	-13.6141
酥	-13.6141
嫫	-13.6142
裦	-13.6143
霿	-13.6144
鍭	-13.6144
玀	-13.6145
樾	-13.6145
㬎	-13.6147
㷀	-13.6148
萴	-13.6148
佉	-13.6149
腵	-13.6149
駼	-13.6149
槧	-13.615
脡	-13.615
礧	-13.6151
佷	-13.6151
窆	-13.6151
侠	-13.6152
僎	-13.6152
殻	-13.6152
櫽	-13.6153
鑱	-13.6153
跕	-13.6158
痿	-13.6159
瀧	-13.6159
槱	-13.6161
噣	-13.6161
狌	-13.6161
駴	-13.6163
蓁	-13.6164
萯	-13.6167
繶	-13.6168
槬	-13.6169
腠	-13.6171
趼	-13.6171
噭	-13.6175
媺	-13.6175
犆	-13.6176
薜	-13.6187
摐	-13.6218
恙	-13.7197
邨	-13.7197
嵿	-13.7203
卾	-13.7203
伻	-13.7211
倞	-13.7215
輮	-13.7215
畺	-13.7216
珝	-13.7216
蕐	-13.7216
韉	-13.722
玈	-13.7223
喤	-13.7224
韮	-13.7225
䠴	-13.7225
諰	-13.7227
敻	-13.7227
蔇	-13.7227
衊	-13.7228
臟	-13.7229
銕	-13.7229
釃	-13.7229
跦	-13.723
𡵨	-13.7231
倥	-13.7231
爥	-13.7232
嶸	-13.7232
麦	-13.7232
訩	-13.7232
鑚	-13.7233
巣	-13.7233
穄	-13.7233
扮	-13.7234
輼	-13.7235
􁇢	-13.7235
撩	-13.7235
淀	-13.7235
榔	-13.7236
爹	-13.7236
濞	-13.7236
瞪	-13.7236
惷	-13.7236
穂	-13.7237
䷍	-13.7237
☵	-13.7237
秸	-13.7238
翃	-13.7239
赬	-13.7239
砮	-13.7239
䷥	-13.7239
稭	-13.724
枸	-13.724
轆	-13.7241
侫	-13.7241
襪	-13.7241
鄑	-13.7241
鐺	-13.7241
爝	-13.7242
㓗	-13.7242
摇	-13.7242
柑	-13.7243
涔	-13.7243
虣	-13.7244
淯	-13.7244
簣	-13.7244
埆	-13.7244
笆	-13.7244
瀟	-13.7245
絫	-13.7246
􁂒	-13.7246
倎	-13.7246
鷃	-13.7246
饎	-13.7246
柣	-13.7246
朼	-13.7246
瘉	-13.7247
蘚	-13.7247
蒹	-13.7247
鐇	-13.7248
鞀	-13.7249
䡖	-13.7249
畊	-13.7249
嘶	-13.7249
嘍	-13.7249
諝	-13.725
鶵	-13.725
郚	-13.725
簬	-13.725
梳	-13.725
杻	-13.725
嶔	-13.725
漓	-13.7251
醆	-13.7251
頏	-13.7251
騊	-13.7251
墐	-13.7251
懔	-13.7252
箏	-13.7252
舩	-13.7252
輴	-13.7253
􁌿	-13.7253
矮	-13.7253
牱	-13.7254
閷	-13.7254
𢡟	-13.7255
菰	-13.7255
螾	-13.7255
躙	-13.7255
翜	-13.7255
喆	-13.7256
顫	-13.7256
􁱻	-13.7256
諴	-13.7257
陼	-13.7257
鍥	-13.7257
澀	-13.7257
焱	-13.7258
玕	-13.7258
袝	-13.7258
􁂎	-13.7258
潏	-13.7258
涘	-13.7258
瘥	-13.726
茗	-13.726
窌	-13.726
咼	-13.726
灄	-13.726
苹	-13.726
聪	-13.726
禨	-13.726
耋	-13.726
珤	-13.726
奡	-13.7261
蟁	-13.7261
髭	-13.7261
鷩	-13.7262
遰	-13.7262
艷	-13.7263
澭	-13.7263
煃	-13.7264
癭	-13.7265
麈	-13.7265
摳	-13.7265
蔞	-13.7266
鵜	-13.7266
燻	-13.7266
䑛	-13.7267
橡	-13.7267
毚	-13.7268
猘	-13.7268
猩	-13.7268
稂	-13.7268
跀	-13.7271
蝸	-13.7271
穯	-13.7272
趆	-13.7272
蝶	-13.7276
麃	-13.7277
杅	-13.7278
嵊	-13.728
臡	-13.7287
檡	-13.7288
滓	-13.7294
媼	-13.7306
擐	-13.8292
龡	-13.8409
蟇	-13.8451
澞	-13.8453
鬋	-13.8461
涗	-13.8465
岍	-13.8467
襘	-13.8469
蹐	-13.847
訹	-13.8471
帡	-13.8474
昳	-13.8474
竂	-13.8474
軘	-13.8474
鞉	-13.8475
鴇	-13.8476
湩	-13.8476
郹	-13.8477
迮	-13.8477
麪	-13.8477
欑	-13.8478
䟱	-13.8478
吧	-13.8478
崐	-13.8478
鈃	-13.8479
煊	-13.848
潬	-13.848
騙	-13.848
痘	-13.8481
賧	-13.8481
銶	-13.8481
爓	-13.8482
粑	-13.8483
寉	-13.8483
鈲	-13.8483
偈	-13.8483
籜	-13.8483
冓	-13.8483
粻	-13.8484
楶	-13.8484
甍	-13.8484
鶡	-13.8485
漼	-13.8485
紝	-13.8485
棰	-13.8485
軔	-13.8485
丰	-13.8485
匶	-13.8487
傁	-13.8487
掫	-13.8487
盌	-13.8487
掀	-13.8487
涎	-13.8487
擋	-13.8487
媽	-13.8488
玼	-13.8488
櫱	-13.8488
鎌	-13.8489
糝	-13.8489
霅	-13.849
焠	-13.849
啾	-13.849
蜿	-13.8491
狴	-13.8491
罇	-13.8491
豵	-13.8491
琱	-13.8491
䙫	-13.8491
蓀	-13.8492
鼛	-13.8492
杈	-13.8492
縓	-13.8494
惪	-13.8494
豝	-13.8495
藳	-13.8495
槌	-13.8495
熨	-13.8495
岠	-13.8495
訔	-13.8496
堨	-13.8496
彍	-13.8496
焕	-13.8497
簨	-13.8497
艸	-13.8497
髄	-13.8497
噩	-13.8498
妊	-13.8498
紉	-13.8498
纏	-13.8498
啍	-13.8498
儈	-13.8499
盩	-13.8499
饍	-13.8499
􁂠	-13.8499
橑	-13.8499
斄	-13.8499
筩	-13.8499
呦	-13.85
蘊	-13.85
鱠	-13.85
唤	-13.85
埿	-13.85
肂	-13.85
韣	-13.85
岫	-13.85
幠	-13.85
膞	-13.85
擷	-13.85
蜒	-13.85
姙	-13.85
錕	-13.8501
脞	-13.8501
疣	-13.8502
洟	-13.8502
欿	-13.8502
檠	-13.8502
􁱝	-13.8502
窻	-13.8502
薿	-13.8503
玝	-13.8503
孀	-13.8503
皃	-13.8503
憍	-13.8503
斸	-13.8504
茤	-13.8504
苡	-13.8504
袛	-13.8504
躄	-13.8504
餚	-13.8504
洌	-13.8505
睾	-13.8505
㶚	-13.8505
􁨓	-13.8505
盭	-13.8505
忩	-13.8506
璸	-13.8506
虙	-13.8506
傺	-13.8507
崦	-13.8507
賸	-13.8507
帨	-13.8507
觹	-13.8507
荓	-13.8507
儺	-13.8508
癩	-13.8508
鑨	-13.8508
蚳	-13.8508
蒭	-13.8508
驌	-13.8508
漅	-13.8509
刓	-13.851
躑	-13.851
稑	-13.8511
淸	-13.8511
圩	-13.8511
穟	-13.8512
漱	-13.8514
畬	-13.8514
睇	-13.8515
墝	-13.8515
誖	-13.8516
鏦	-13.8516
屩	-13.8516
蠕	-13.8517
秖	-13.8517
枻	-13.8518
䣛	-13.8519
鐻	-13.8519
埰	-13.852
㳫	-13.8522
漯	-13.8523
裋	-13.8523
毌	-13.8525
幦	-13.8525
朌	-13.8525
嚏	-13.8525
銚	-13.8526
嗅	-13.8526
艅	-13.8528
輹	-13.8528
嘑	-13.8529
彿	-13.8531
邆	-13.8542
瘤	-13.8544
鋝	-13.8547
楡	-13.8557
鼜	-13.987
懬	-13.9876
疤	-13.9877
抺	-13.9881
郔	-13.9889
蟈	-13.9889
鏚	-13.9891
骴	-13.9892
筝	-13.9893
􁕏	-13.9893
挶	-13.9893
㭬	-13.9894
渳	-13.9894
撚	-13.9894
㧾	-13.9895
騃	-13.9895
悳	-13.9896
蕎	-13.9898
蕰	-13.9898
虨	-13.9898
眢	-13.9898
鶼	-13.9902
鐬	-13.9903
揷	-13.9904
圳	-13.9904
輾	-13.9905
妍	-13.9905
瑹	-13.9905
㬢	-13.9906
獰	-13.9907
廑	-13.9907
酇	-13.9907
謷	-13.9908
皛	-13.9908
麰	-13.9908
􁔨	-13.9908
痢	-13.9909
惘	-13.991
櫕	-13.991
叧	-13.991
􁆡	-13.991
棜	-13.9911
剺	-13.9911
沇	-13.9911
搘	-13.9912
銲	-13.9912
溠	-13.9912
颿	-13.9912
蠚	-13.9912
崒	-13.9912
皈	-13.9913
橚	-13.9913
䷇	-13.9914
蜴	-13.9914
昄	-13.9915
絨	-13.9915
荄	-13.9915
軨	-13.9915
菼	-13.9915
撟	-13.9916
忸	-13.9916
輶	-13.9916
剚	-13.9916
酹	-13.9916
濆	-13.9917
藋	-13.9917
壎	-13.9918
輗	-13.9918
礴	-13.9918
軄	-13.9918
稆	-13.9918
甽	-13.9918
菓	-13.9919
葳	-13.9919
鉥	-13.9919
瑳	-13.9919
朒	-13.9919
渟	-13.992
冞	-13.992
旆	-13.992
韈	-13.9921
衲	-13.9922
皡	-13.9922
粳	-13.9922
晭	-13.9922
舗	-13.9922
咬	-13.9922
祅	-13.9922
浃	-13.9922
艎	-13.9922
尻	-13.9922
皙	-13.9923
睆	-13.9923
蚉	-13.9923
丌	-13.9923
冔	-13.9923
􁊃	-13.9923
犄	-13.9924
遝	-13.9924
惱	-13.9924
㷔	-13.9924
揃	-13.9924
汩	-13.9924
㵼	-13.9925
膋	-13.9925
僄	-13.9925
凓	-13.9925
錚	-13.9926
簸	-13.9926
唏	-13.9926
莩	-13.9926
犠	-13.9927
爱	-13.9927
擥	-13.9927
鋗	-13.9927
瑴	-13.9927
箾	-13.9928
矔	-13.9928
慥	-13.9928
墌	-13.9928
潺	-13.9928
亓	-13.9929
涫	-13.993
蚍	-13.993
䘖	-13.993
孌	-13.9931
瓖	-13.9931
飦	-13.9931
魃	-13.9931
簦	-13.9931
鹻	-13.9931
䷗	-13.9931
凂	-13.9931
􁱘	-13.9931
愓	-13.9931
􁂧	-13.9931
嬀	-13.9931
簍	-13.9931
雰	-13.9931
麞	-13.9931
鈆	-13.9931
悕	-13.9932
稯	-13.9932
恝	-13.9932
酲	-13.9932
掔	-13.9933
窔	-13.9933
熇	-13.9933
胹	-13.9933
蛻	-13.9933
緻	-13.9934
輣	-13.9934
儹	-13.9934
縚	-13.9934
捻	-13.9934
洑	-13.9934
莧	-13.9935
儃	-13.9935
玲	-13.9936
呫	-13.9936
皞	-13.9936
埡	-13.9936
茒	-13.9937
鄼	-13.9937
榴	-13.9937
唅	-13.9937
椆	-13.9937
擩	-13.9937
鑛	-13.9937
謌	-13.9937
僔	-13.9937
羭	-13.9939
玥	-13.9939
咢	-13.994
眸	-13.994
詼	-13.994
侣	-13.994
㐀	-13.994
覉	-13.994
柿	-13.9941
蠏	-13.9941
繦	-13.9941
筈	-13.9941
枘	-13.9943
􁞧	-13.9943
駾	-13.9945
鍧	-13.9947
𣺌	-13.9947
狺	-13.9947
𫝑	-13.9947
渌	-13.9947
杝	-13.9948
髢	-13.9949
柹	-13.9949
呱	-13.9949
稸	-13.995
琖	-13.9951
穜	-13.9952
睛	-13.9952
暅	-13.9952
漻	-13.9953
痔	-13.9954
嶪	-13.9955
焫	-13.9956
縿	-13.9956
玟	-13.9958
蚿	-13.9958
齓	-13.9963
薀	-13.9964
宧	-13.9966
溍	-13.997
礌	-13.9973
訑	-13.9979
堝	-13.999
缻	-14.0004
韇	-14.0045
鄱	-14.1531
烕	-14.1535
憭	-14.1538
鸖	-14.1543
齘	-14.1543
檦	-14.1544
竁	-14.1553
踆	-14.1555
摉	-14.1558
扯	-14.156
稃	-14.1563
戣	-14.1566
謦	-14.1566
拑	-14.1566
硾	-14.1567
堧	-14.1568
鼖	-14.1568
䷂	-14.1569
薶	-14.1569
鸑	-14.1569
迆	-14.157
糌	-14.157
炰	-14.157
􁀇	-14.1571
尔	-14.1571
俔	-14.1571
覷	-14.1571
堈	-14.1571
渑	-14.1571
髳	-14.1573
疴	-14.1573
漒	-14.1574
萩	-14.1574
㫋	-14.1575
㬭	-14.1575
馺	-14.1575
𬞞	-14.1575
劼	-14.1575
鄃	-14.1575
黟	-14.1575
䧺	-14.1575
遅	-14.1575
籃	-14.1576
皤	-14.1576
燂	-14.1576
矻	-14.1576
邗	-14.1577
柲	-14.1577
邥	-14.1577
鱓	-14.1578
毯	-14.1579
潝	-14.1579
礁	-14.1579
啁	-14.1579
圬	-14.1579
砧	-14.1579
䷑	-14.158
扢	-14.158
緖	-14.158
裭	-14.158
蒱	-14.158
􁞗	-14.158
臈	-14.1581
㘭	-14.1582
礚	-14.1582
姍	-14.1582
砭	-14.1582
崿	-14.1582
贋	-14.1583
晛	-14.1584
𥜗	-14.1584
韅	-14.1584
挼	-14.1585
爚	-14.1586
俑	-14.1586
慭	-14.1586
坏	-14.1586
巋	-14.1586
黏	-14.1586
爟	-14.1587
㻆	-14.1587
懴	-14.1587
牿	-14.1587
瀹	-14.1588
窀	-14.1588
綖	-14.1588
駰	-14.1588
蛛	-14.1588
襌	-14.1589
鄐	-14.1589
茢	-14.1589
湃	-14.1589
昛	-14.1589
掞	-14.1589
蝉	-14.1589
豗	-14.1589
橦	-14.159
怗	-14.159
磕	-14.159
鋩	-14.159
珫	-14.159
苜	-14.159
蓿	-14.159
棱	-14.1591
頨	-14.1591
詻	-14.1591
菫	-14.1591
痁	-14.1592
襮	-14.1592
黾	-14.1592
窫	-14.1592
纇	-14.1592
棃	-14.1592
膿	-14.1592
蝀	-14.1592
吼	-14.1593
莵	-14.1593
蜍	-14.1593
挍	-14.1593
鱮	-14.1593
胏	-14.1594
甔	-14.1594
朅	-14.1594
㫤	-14.1594
鼾	-14.1594
􁎗	-14.1594
諓	-14.1594
襭	-14.1594
輤	-14.1594
犮	-14.1594
㛗	-14.1595
扒	-14.1595
縰	-14.1595
餫	-14.1595
縧	-14.1595
囁	-14.1595
曬	-14.1595
儥	-14.1595
蜓	-14.1595
茘	-14.1596
劘	-14.1596
黅	-14.1597
齔	-14.1597
舐	-14.1597
矉	-14.1597
嫩	-14.1597
芭	-14.1597
㵯	-14.1597
湲	-14.1597
穮	-14.1598
凾	-14.1598
昞	-14.1598
踝	-14.1598
钁	-14.1598
匽	-14.1598
剬	-14.1598
騩	-14.1599
蝱	-14.1599
鎩	-14.1599
皚	-14.16
跧	-14.16
栫	-14.16
髫	-14.16
儦	-14.16
鐏	-14.16
樠	-14.16
婧	-14.1601
敓	-14.1601
揩	-14.1601
􁅔	-14.1601
獶	-14.1601
嶭	-14.1601
劎	-14.1602
眛	-14.1602
籕	-14.1602
蕖	-14.1603
訞	-14.1603
荃	-14.1603
賬	-14.1603
袗	-14.1603
䘐	-14.1603
幚	-14.1603
䥥	-14.1603
袷	-14.1603
鞹	-14.1604
甜	-14.1604
☶	-14.1604
耡	-14.1604
桮	-14.1604
鼫	-14.1604
轤	-14.1605
餤	-14.1605
搒	-14.1606
浟	-14.1606
􁝜	-14.1606
蹏	-14.1606
褧	-14.1607
嬃	-14.1607
糿	-14.1607
貐	-14.1607
汐	-14.1607
怏	-14.1608
穈	-14.1608
箒	-14.1608
癢	-14.1608
蝯	-14.1608
醓	-14.1608
焴	-14.1609
椸	-14.1609
芴	-14.1609
愖	-14.1609
旍	-14.1609
骭	-14.161
駓	-14.161
犛	-14.161
襜	-14.161
𡨕	-14.1611
逴	-14.1611
㪷	-14.1611
抎	-14.1612
秅	-14.1612
絝	-14.1612
㬚	-14.1612
鄚	-14.1613
脹	-14.1614
鶠	-14.1614
稊	-14.1614
瑇	-14.1614
薈	-14.1614
􁢱	-14.1614
儗	-14.1615
殀	-14.1616
鬃	-14.1618
鋟	-14.1618
咷	-14.1618
帊	-14.1618
堽	-14.1619
騠	-14.162
黮	-14.162
奶	-14.162
琀	-14.1621
闍	-14.1622
瘋	-14.1623
慠	-14.1624
紋	-14.1624
軥	-14.1625
眈	-14.1626
僈	-14.1627
嫣	-14.1629
黈	-14.1629
蚼	-14.163
蔈	-14.1633
摎	-14.1634
摡	-14.1635
點	-14.1636
熯	-14.1642
桯	-14.1652
煗	-14.1652
纑	-14.1658
仳	-14.1664
庛	-14.1671
怸	-14.1704
熢	-14.3428
㣘	-14.3466
矅	-14.3526
􁂞	-14.3549
﨣	-14.355
巘	-14.355
􁏂	-14.3552
鄨	-14.3554
腮	-14.3555
靶	-14.3556
傖	-14.3556
襠	-14.3557
硠	-14.3557
珎	-14.3557
褍	-14.3557
嚶	-14.3558
􁥟	-14.3558
㢠	-14.3559
㥄	-14.356
炁	-14.356
膻	-14.3561
嫳	-14.3562
璲	-14.3563
曛	-14.3563
􁱧	-14.3564
悈	-14.3564
䦧	-14.3565
􁄧	-14.3566
佋	-14.3567
愅	-14.3567
歪	-14.3567
駙	-14.3567
瀸	-14.3568
睎	-14.3568
觭	-14.3568
侀	-14.3569
鄍	-14.3569
幙	-14.3569
瞷	-14.3569
旿	-14.3569
匯	-14.357
岨	-14.357
妮	-14.3571
噢	-14.3571
勌	-14.3572
篝	-14.3573
撐	-14.3573
䱷	-14.3573
逶	-14.3574
湳	-14.3574
闤	-14.3574
岣	-14.3574
鋛	-14.3574
郰	-14.3574
蓊	-14.3575
刜	-14.3575
䣙	-14.3575
輊	-14.3575
嶁	-14.3575
嘛	-14.3576
臷	-14.3576
踢	-14.3576
聄	-14.3576
鞴	-14.3577
㿽	-14.3577
袲	-14.3578
琠	-14.3579
嗒	-14.3579
伙	-14.358
旝	-14.358
麖	-14.358
鼯	-14.358
鋣	-14.358
戻	-14.358
斕	-14.3581
烤	-14.3581
㪍	-14.3581
􁂳	-14.3581
淈	-14.3582
釂	-14.3582
妘	-14.3582
諟	-14.3582
晹	-14.3582
圌	-14.3582
瀁	-14.3582
羜	-14.3582
嵋	-14.3583
崆	-14.3583
獐	-14.3583
􁉛	-14.3583
廽	-14.3583
惄	-14.3584
􁐇	-14.3584
歕	-14.3584
洚	-14.3585
犲	-14.3585
趺	-14.3585
揶	-14.3585
磘	-14.3586
睪	-14.3586
䄠	-14.3586
􁂦	-14.3586
矗	-14.3586
睋	-14.3586
謼	-14.3587
抬	-14.3587
慁	-14.3587
茜	-14.3587
㢲	-14.3587
槳	-14.3587
禂	-14.3587
蒢	-14.3587
賘	-14.3587
嶤	-14.3588
蛋	-14.3588
捩	-14.3588
謜	-14.3588
浥	-14.3588
琫	-14.3588
俏	-14.3588
贗	-14.3589
晣	-14.3589
􁋊	-14.3589
瀷	-14.3589
芫	-14.3589
漘	-14.3589
濉	-14.3589
枑	-14.359
浯	-14.359
韝	-14.359
篲	-14.359
綻	-14.359
■	-14.359
輭	-14.359
剞	-14.3591
蠖	-14.3591
頞	-14.3591
􁞡	-14.3591
㦲	-14.3591
掯	-14.3591
搦	-14.3591
􁈑	-14.3591
桎	-14.3592
䥶	-14.3592
蠛	-14.3593
歘	-14.3593
豜	-14.3593
趄	-14.3593
菏	-14.3593
薤	-14.3594
歊	-14.3594
綃	-14.3594
捥	-14.3594
忡	-14.3594
偲	-14.3594
屎	-14.3594
犉	-14.3594
呀	-14.3595
􁁂	-14.3595
蹍	-14.3595
畇	-14.3595
錣	-14.3595
楼	-14.3595
䞓	-14.3595
搰	-14.3596
箔	-14.3596
菉	-14.3596
郏	-14.3596
嶻	-14.3596
袱	-14.3596
橢	-14.3596
罏	-14.3596
慷	-14.3597
琺	-14.3597
誶	-14.3597
鈌	-14.3597
躃	-14.3597
捺	-14.3597
渻	-14.3598
暏	-14.3598
幗	-14.3598
裻	-14.3598
阹	-14.3598
婬	-14.3598
􁢌	-14.3599
抝	-14.3599
唫	-14.3599
坳	-14.3599
挃	-14.36
櫪	-14.36
帀	-14.36
僾	-14.36
确	-14.3601
穸	-14.3601
鬠	-14.3601
䷵	-14.3601
𤱔	-14.3601
蒧	-14.3601
錩	-14.3601
悱	-14.3601
粼	-14.3601
蹰	-14.3601
泭	-14.3602
䶂	-14.3602
嚥	-14.3602
旹	-14.3602
𧖟	-14.3602
枒	-14.3602
豻	-14.3602
嗃	-14.3602
趡	-14.3602
斨	-14.3602
肹	-14.3603
跱	-14.3603
涑	-14.3603
秆	-14.3603
塉	-14.3603
絿	-14.3603
辝	-14.3603
瘢	-14.3603
蠓	-14.3603
榼	-14.3603
騧	-14.3603
摻	-14.3604
梠	-14.3604
鮎	-14.3604
霦	-14.3604
薏	-14.3605
牸	-14.3605
膄	-14.3605
惝	-14.3605
閺	-14.3605
薮	-14.3606
嗉	-14.3606
塏	-14.3606
穨	-14.3607
䵼	-14.3607
熞	-14.3607
髤	-14.3608
侘	-14.3608
睶	-14.3608
唉	-14.3608
䪥	-14.3608
囏	-14.3608
苽	-14.3608
尃	-14.3609
悷	-14.3609
噓	-14.3609
淠	-14.3609
萁	-14.361
豶	-14.361
嘂	-14.361
鬐	-14.361
堁	-14.3611
駻	-14.3611
纆	-14.3611
㢸	-14.3611
捎	-14.3611
塼	-14.3611
㔨	-14.3611
櫻	-14.3612
𤇺	-14.3612
癕	-14.3612
枌	-14.3613
頬	-14.3613
樻	-14.3613
貭	-14.3613
捘	-14.3613
淐	-14.3613
噆	-14.3614
􁒷	-14.3614
鄎	-14.3614
鞂	-14.3615
瓏	-14.3615
嫘	-14.3615
狢	-14.3615
貓	-14.3615
妷	-14.3615
輬	-14.3616
徜	-14.3616
稌	-14.3617
翿	-14.3617
堲	-14.3618
􁆿	-14.3618
菂	-14.3618
踘	-14.3619
鸗	-14.362
瑥	-14.362
頟	-14.362
鞔	-14.362
鄪	-14.362
瀵	-14.3621
菔	-14.3622
頳	-14.3623
鸐	-14.3623
芡	-14.3623
燐	-14.3625
熿	-14.3625
􁅅	-14.3626
喭	-14.3627
胯	-14.3627
瞎	-14.3628
佪	-14.3628
聀	-14.3629
孊	-14.3629
𨼆	-14.3632
悙	-14.3635
胕	-14.3643
偊	-14.3645
蟨	-14.3645
釴	-14.3647
蓷	-14.3684
嫆	-14.3696
惽	-14.3697
膱	-14.371
赨	-14.3746
蘟	-14.38
慅	-14.6019
轀	-14.602
睍	-14.6021
䰞	-14.6023
岧	-14.6024
䔩	-14.6031
􁡷	-14.6033
觵	-14.6034
銔	-14.6035
􁍽	-14.6036
瀌	-14.6038
櫎	-14.604
琄	-14.604
跐	-14.6044
☴	-14.6046
咻	-14.6048
􁌙	-14.6049
楄	-14.6051
頔	-14.6051
鶪	-14.6052
篪	-14.6053
􁂚	-14.6053
蛮	-14.6056
䇲	-14.6056
潸	-14.6057
瞂	-14.6057
裲	-14.6058
鏹	-14.6058
滍	-14.6059
嘵	-14.606
緗	-14.6061
槅	-14.6062
鄵	-14.6062
羢	-14.6063
翏	-14.6063
圪	-14.6063
氆	-14.6064
諞	-14.6065
俁	-14.6065
䀹	-14.6065
鱻	-14.6065
氌	-14.6066
籛	-14.6066
搉	-14.6066
䣃	-14.6066
䷒	-14.6066
夌	-14.6066
槥	-14.6066
荑	-14.6067
蒟	-14.6067
嶴	-14.6067
棡	-14.6067
梡	-14.6068
憃	-14.6069
鯽	-14.6069
簉	-14.6069
豯	-14.6069
苒	-14.607
吚	-14.607
帗	-14.607
闠	-14.607
霶	-14.607
罛	-14.607
鞁	-14.607
冎	-14.6071
濔	-14.6071
汮	-14.6071
蜣	-14.6071
􁯫	-14.6071
齠	-14.6072
磥	-14.6073
睴	-14.6073
呰	-14.6073
𤏡	-14.6073
㱔	-14.6073
䷆	-14.6073
矴	-14.6074
顕	-14.6074
䠂	-14.6074
哖	-14.6074
銹	-14.6074
鵙	-14.6074
羫	-14.6076
仝	-14.6076
黌	-14.6076
浤	-14.6076
泲	-14.6076
飂	-14.6076
鼪	-14.6077
嵫	-14.6077
懶	-14.6077
榯	-14.6077
湬	-14.6077
㚄	-14.6078
蚑	-14.6078
㻱	-14.6078
鄷	-14.6078
堋	-14.6078
穪	-14.6078
篹	-14.6078
纈	-14.6078
衹	-14.6078
􁆭	-14.6078
弒	-14.6078
鈺	-14.6078
竘	-14.6078
栭	-14.608
㲈	-14.608
薾	-14.608
膇	-14.608
眕	-14.608
珌	-14.608
慂	-14.608
塴	-14.608
閴	-14.608
蟉	-14.608
箄	-14.6081
𢃄	-14.6081
氅	-14.6081
咍	-14.6081
薧	-14.6081
葩	-14.6081
狽	-14.6082
罶	-14.6082
俈	-14.6082
㯽	-14.6082
􁎾	-14.6082
☳	-14.6083
𨵦	-14.6083
柁	-14.6083
咲	-14.6083
􁥽	-14.6083
沘	-14.6083
攽	-14.6084
袀	-14.6084
淊	-14.6084
舴	-14.6084
􁁝	-14.6084
瘃	-14.6085
㴠	-14.6085
䑸	-14.6085
禊	-14.6085
俀	-14.6085
賅	-14.6085
潟	-14.6087
枮	-14.6087
瓿	-14.6087
硏	-14.6087
緎	-14.6087
醎	-14.6087
煆	-14.6087
瘐	-14.6087
戧	-14.6087
盒	-14.6087
胗	-14.6087
苔	-14.6087
郼	-14.6087
􁡎	-14.6087
凷	-14.6087
踽	-14.6087
梐	-14.6087
𠻳	-14.6087
靧	-14.6088
囈	-14.6088
𤾂	-14.6088
祋	-14.6088
㟍	-14.6088
傞	-14.6088
嵻	-14.6088
磷	-14.6088
􁉤	-14.6088
亱	-14.6089
墁	-14.6089
嬛	-14.6089
鱐	-14.6089
匊	-14.6089
蘉	-14.6089
砰	-14.6089
葴	-14.6089
蓘	-14.6089
彃	-14.6089
翖	-14.6089
攃	-14.6089
蟡	-14.6089
袚	-14.609
鶖	-14.6091
恆	-14.6091
躞	-14.6091
䤋	-14.6091
淂	-14.6091
担	-14.6091
靽	-14.6091
驀	-14.6091
睅	-14.6091
蝃	-14.6091
戄	-14.6092
笰	-14.6092
泐	-14.6092
褭	-14.6092
逑	-14.6092
僪	-14.6092
崢	-14.6092
耴	-14.6092
萐	-14.6092
鷔	-14.6092
厹	-14.6092
恈	-14.6092
霝	-14.6092
貮	-14.6092
皜	-14.6093
䷁	-14.6093
碼	-14.6093
檖	-14.6093
骿	-14.6093
咿	-14.6093
挋	-14.6093
襢	-14.6093
嚾	-14.6094
劊	-14.6094
蚣	-14.6094
僴	-14.6094
罦	-14.6094
堩	-14.6094
屇	-14.6094
汕	-14.6094
涣	-14.6094
芄	-14.6094
㴻	-14.6095
瑲	-14.6095
罐	-14.6095
􁀱	-14.6095
椗	-14.6095
餠	-14.6095
㲼	-14.6095
鵻	-14.6095
伹	-14.6095
岈	-14.6095
炱	-14.6095
猈	-14.6095
頯	-14.6095
鴿	-14.6095
菖	-14.6095
幺	-14.6096
郱	-14.6096
頜	-14.6096
圂	-14.6096
廥	-14.6096
潾	-14.6096
蘁	-14.6096
毦	-14.6096
濜	-14.6096
秱	-14.6096
蠙	-14.6096
棕	-14.6096
楧	-14.6096
櫺	-14.6096
襆	-14.6096
駬	-14.6096
􁃊	-14.6096
䍷	-14.6096
涚	-14.6096
娓	-14.6096
遬	-14.6097
枅	-14.6097
継	-14.6097
𩔖	-14.6098
觺	-14.6098
泜	-14.6098
騣	-14.6098
炌	-14.6098
厩	-14.6098
灉	-14.6098
蛄	-14.6098
蝘	-14.6098
蟪	-14.6098
漑	-14.6098
頖	-14.6099
腒	-14.6099
艍	-14.6099
儞	-14.6099
禅	-14.6099
椑	-14.6099
禓	-14.6099
鴣	-14.6099
鉊	-14.6099
澑	-14.6099
㸐	-14.6099
驄	-14.61
垼	-14.61
敭	-14.6101
仂	-14.6101
疐	-14.6101
暸	-14.6101
畟	-14.6101
竜	-14.6101
犗	-14.6102
堉	-14.6102
蕳	-14.6102
枿	-14.6102
鄳	-14.6102
踹	-14.6102
鞓	-14.6102
☱	-14.6102
屮	-14.6102
檑	-14.6102
盉	-14.6102
糇	-14.6103
錁	-14.6103
軑	-14.6103
鏄	-14.6103
酃	-14.6103
凸	-14.6103
殥	-14.6103
紩	-14.6103
膈	-14.6103
鑴	-14.6103
欐	-14.6103
縭	-14.6104
噰	-14.6104
鸎	-14.6105
拗	-14.6105
鷯	-14.6105
鷞	-14.6105
攓	-14.6105
戭	-14.6106
傫	-14.6106
敶	-14.6106
檃	-14.6106
瘨	-14.6107
嗸	-14.6107
昜	-14.6107
䫜	-14.6108
漭	-14.6108
炸	-14.6108
酁	-14.6108
熠	-14.6108
愊	-14.6109
畡	-14.6109
簳	-14.6109
憋	-14.6109
涷	-14.6109
獼	-14.6109
竞	-14.611
蠒	-14.611
朧	-14.611
筞	-14.611
鷫	-14.611
枓	-14.611
灸	-14.611
珞	-14.611
駪	-14.611
􁇦	-14.611
鐓	-14.611
懍	-14.6111
蔾	-14.6112
怊	-14.6112
蠯	-14.6112
侻	-14.6112
箑	-14.6112
䷚	-14.6113
痡	-14.6113
麐	-14.6114
窞	-14.6114
鎦	-14.6114
蜑	-14.6114
鷦	-14.6114
塍	-14.6114
踟	-14.6115
厞	-14.6115
醼	-14.6115
覜	-14.6116
譒	-14.6116
垸	-14.6116
噏	-14.6116
鸃	-14.6116
獯	-14.6116
吪	-14.6117
叵	-14.6117
蝙	-14.6117
㑴	-14.6117
髕	-14.6117
萆	-14.6119
訇	-14.6119
莝	-14.6119
眶	-14.6119
鴂	-14.6119
絖	-14.6119
葌	-14.612
抆	-14.612
蹜	-14.6121
蓻	-14.6121
臿	-14.6121
騵	-14.6122
䝟	-14.6124
筌	-14.6124
繘	-14.6125
㡩	-14.6125
銼	-14.6125
䴢	-14.6125
嬋	-14.6125
揠	-14.6125
馵	-14.6125
胳	-14.6126
獾	-14.6127
湢	-14.6127
輷	-14.6127
鼄	-14.6127
佀	-14.6128
簜	-14.613
揲	-14.613
躳	-14.613
蹞	-14.6131
鏽	-14.6131
珅	-14.6131
鼽	-14.6134
蝺	-14.6135
楂	-14.6137
籔	-14.6137
䌫	-14.6138
竫	-14.6139
蜷	-14.6142
忳	-14.6146
刵	-14.6146
姢	-14.6147
鴡	-14.6151
槷	-14.6162
轓	-14.6163
欘	-14.6164
嘅	-14.6167
㞯	-14.6169
汞	-14.6171
殼	-14.6178
櫑	-14.6182
暯	-14.6191
歅	-14.6193
榎	-14.6199
壏	-14.621
懮	-14.9323
擭	-14.9342
䷛	-14.935
䷮	-14.9352
傿	-14.9354
䷋	-14.9363
䷓	-14.9363
悗	-14.9365
嫖	-14.9365
毣	-14.9369
㟭	-14.9375
䮾	-14.9379
䷄	-14.9379
䷊	-14.9379
欻	-14.9381
䷣	-14.9383
僩	-14.9383
庱	-14.9383
摦	-14.9383
篌	-14.9383
灕	-14.9385
毈	-14.9385
箜	-14.9385
灅	-14.9386
䷎	-14.9386
帢	-14.9386
帤	-14.9386
倢	-14.9388
嘈	-14.9388
幌	-14.939
旞	-14.939
嬌	-14.9391
剠	-14.9392
榰	-14.9392
䷡	-14.9392
熭	-14.9392
廠	-14.9392
盝	-14.9392
牕	-14.9394
眅	-14.9394
瓞	-14.9396
椓	-14.9397
俙	-14.9398
竧	-14.9398
㶏	-14.94
珓	-14.94
獋	-14.9401
丫	-14.9402
抔	-14.9402
喣	-14.9402
䴚	-14.9404
栴	-14.9404
篛	-14.9404
卺	-14.9405
嶫	-14.9406
磵	-14.9406
泔	-14.9408
篥	-14.9408
惥	-14.9408
侅	-14.9408
㧻	-14.9409
蚶	-14.9409
䘲	-14.941
僤	-14.941
丢	-14.941
划	-14.941
痒	-14.941
暎	-14.941
䷐	-14.941
摮	-14.9411
傋	-14.9411
䷝	-14.9412
䷶	-14.9412
坉	-14.9412
孅	-14.9412
湅	-14.9412
悪	-14.9412
䷳	-14.9413
瞋	-14.9413
叉	-14.9413
柈	-14.9413
狿	-14.9413
琡	-14.9414
猰	-14.9414
岏	-14.9414
㓛	-14.9415
朢	-14.9415
墘	-14.9415
巹	-14.9415
炷	-14.9415
曈	-14.9416
歍	-14.9416
汦	-14.9417
瘟	-14.9417
狉	-14.9417
檯	-14.9417
窐	-14.9417
橧	-14.9417
䘵	-14.9417
攏	-14.9417
礓	-14.9417
刌	-14.9418
樿	-14.9419
囆	-14.9419
坁	-14.9419
䳭	-14.9419
唃	-14.9419
窊	-14.9419
笩	-14.9419
㕎	-14.9419
摟	-14.942
慳	-14.9421
囮	-14.9421
窨	-14.9421
狻	-14.9421
旲	-14.9421
榕	-14.9421
滽	-14.9421
潨	-14.9421
嚄	-14.9421
巛	-14.9421
洢	-14.9421
㜪	-14.9421
倌	-14.9422
秠	-14.9422
硩	-14.9423
䷀	-14.9423
䩞	-14.9423
嵕	-14.9423
慜	-14.9423
昖	-14.9423
痏	-14.9423
䷪	-14.9424
傎	-14.9424
稞	-14.9424
榘	-14.9425
嚅	-14.9425
搪	-14.9425
玅	-14.9425
䭫	-14.9425
秔	-14.9425
㴞	-14.9425
噌	-14.9425
嵸	-14.9425
箆	-14.9425
䨘	-14.9426
冂	-14.9426
牉	-14.9427
痞	-14.9427
橇	-14.9427
峥	-14.9427
槫	-14.9427
瘇	-14.9427
抓	-14.9427
丠	-14.9427
橰	-14.9427
畾	-14.9427
侇	-14.9428
稈	-14.9428
椵	-14.9429
㫿	-14.9429
哤	-14.9429
獝	-14.9429
窾	-14.9429
埵	-14.9429
彴	-14.9429
晒	-14.9429
湞	-14.9429
晢	-14.9429
泪	-14.9429
榣	-14.9429
幎	-14.943
䷌	-14.943
畷	-14.943
疈	-14.9431
䯢	-14.9431
岊	-14.9431
㝎	-14.9431
悾	-14.9431
榑	-14.9431
倰	-14.9431
氲	-14.9431
湾	-14.9431
礎	-14.9432
怩	-14.9432
䴠	-14.9432
硎	-14.9433
㕙	-14.9433
䵍	-14.9433
噱	-14.9433
崓	-14.9433
狾	-14.9433
皯	-14.9433
䷫	-14.9434
洼	-14.9434
碯	-14.9434
氿	-14.9434
塸	-14.9434
暋	-14.9434
㓨	-14.9435
俉	-14.9435
庂	-14.9435
橞	-14.9435
瑠	-14.9435
癯	-14.9435
䷖	-14.9436
峚	-14.9436
櫾	-14.9436
䃉	-14.9436
懻	-14.9437
揥	-14.9437
梪	-14.9437
痰	-14.9437
䡴	-14.9437
堮	-14.9437
攴	-14.9438
嚖	-14.9438
倆	-14.9438
嫕	-14.9438
剟	-14.9438
爆	-14.9439
䌈	-14.9439
娬	-14.9439
璅	-14.9439
㒒	-14.9439
梇	-14.9439
梴	-14.9439
牏	-14.9439
碙	-14.9439
磌	-14.944
偟	-14.944
狖	-14.944
桺	-14.944
礶	-14.944
唪	-14.944
珹	-14.944
皭	-14.944
傽	-14.944
唧	-14.944
燅	-14.944
眣	-14.944
獂	-14.9441
㹥	-14.9441
枏	-14.9442
呷	-14.9442
嘬	-14.9442
怜	-14.9442
櫨	-14.9442
偯	-14.9443
玗	-14.9443
坯	-14.9443
冘	-14.9444
徘	-14.9444
涒	-14.9444
璬	-14.9444
垕	-14.9444
唊	-14.9444
寠	-14.9446
焄	-14.9446
䥴	-14.9448
憞	-14.9448
煐	-14.9448
狊	-14.9448
㠘	-14.9448
庉	-14.9448
睕	-14.9448
猁	-14.945
猞	-14.945
猻	-14.945
墪	-14.945
愻	-14.945
帘	-14.945
柅	-14.945
琁	-14.945
咡	-14.945
屺	-14.945
穅	-14.945
摸	-14.945
捱	-14.9452
☲	-14.9452
寋	-14.9453
眘	-14.9454
㹠	-14.9454
䶵	-14.9454
冑	-14.9454
柂	-14.9454
楀	-14.9454
㠖	-14.9454
孃	-14.9454
淥	-14.9454
㳄	-14.9456
㒧	-14.9456
娩	-14.9456
洴	-14.9456
澼	-14.9456
橄	-14.9458
欖	-14.9458
弮	-14.9458
燁	-14.9458
娭	-14.9458
撁	-14.9458
戞	-14.946
牗	-14.946
椇	-14.9461
婾	-14.9464
泖	-14.9464
湕	-14.9464
疼	-14.9465
憼	-14.9466
涽	-14.9467
扐	-14.9467
汸	-14.9469
琲	-14.9469
狒	-14.9469
娉	-14.9471
砢	-14.9473
礩	-14.9474
栘	-14.9475
昷	-14.9475
奩	-14.9477
孾	-14.9477
抳	-14.9477
构	-14.9479
曶	-14.9479
墡	-14.9483
燱	-14.9483
痟	-14.9485
睂	-14.9485
碆	-14.9487
櫄	-14.9491
叄	-14.9491
獀	-14.9496
㹪	-14.9503
塥	-14.9527
旊	-14.9537
皵	-14.9566
楝	-14.9571
𣅿	-15.4395
邐	-15.4398
澎	-15.441
拕	-15.4414
獗	-15.442
煟	-15.442
鄲	-15.4433
侂	-15.4439
遛	-15.4443
紜	-16.4185
哿	-16.4243
竤	-16.4355
竀	-16.4356
皽	-16.4357
瘯	-16.4358
焮	-16.4359
弨	-16.436
峱	-16.4361
姺	-16.4362
塓	-16.4363
嗼	-16.4364
讔	-16.4365
猬	-16.4366
敫	-16.4367
喓	-16.4368
呿	-16.4369
儶	-16.437
雃	-16.4371
薷	-16.4372
睔	-16.4373
姶	-16.4374
頿	-16.4375
胈	-16.4376
罭	-16.4377
楩	-16.4378
嫄	-16.4379
厔	-16.4379
婤	-16.438
塽	-16.4381
嚈	-16.4382
嘩	-16.4383
嘊	-16.4384
乣	-16.4385
㒟	-16.4386
鄏	-16.4387
粕	-16.4388
恿	-16.4389
嚀	-16.439
叮	-16.4391
䳒	-16.4392
譸	-16.4393
寞	-16.4394
偬	-16.4395
㺷	-16.4396
踁	-16.4397
蝣	-16.4398
蔦	-16.4399
茌	-16.44
窣	-16.4401
玳	-16.4402
栒	-16.4403
彠	-16.4404
齷	-16.4405
髏	-16.4406
駜	-16.4407
儌	-16.4408
㽛	-16.4409
髴	-16.441
髣	-16.4411
篨	-16.4412
檗	-16.4413
暵	-16.4414
撣	-16.4415
婭	-16.4416
唬	-16.4417
鳲	-16.4418
蚯	-16.4419
湨	-16.442
寪	-16.4421
驆	-16.4422
靂	-16.4423
鋮	-16.4424
貜	-16.4425
綮	-16.4426
捝	-16.4427
㐌	-16.4428
艴	-16.4429
瞫	-16.443
玻	-16.4431
暟	-16.4432
媫	-16.4433
偼	-16.4434
邂	-16.4435
豌	-16.4436
勠	-16.4437
䢵	-16.4438
獍	-16.4439
㨎	-16.444
琶	-16.4441
琵	-16.4442
碻	-16.4443
泱	-16.4444
齬	-16.4445
舺	-16.4446
碏	-16.4447
顢	-16.4448
蟋	-16.4449
蟀	-16.445
砫	-16.4451
鸚	-16.4452
鵡	-16.4453
詿	-16.4454
婕	-16.4455
餬	-16.4456
觖	-16.4457
詾	-16.4458
㬋	-16.4459
倧	-16.446
馪	-16.4461
脗	-16.4462
鈵	-16.4463
恟	-16.4464
妤	-16.4465
韃	-16.4466
狁	-16.4467
囹	-16.4468
禵	-16.4469
牁	-16.447
磾	-16.4471
拮	-16.4472
笨	-16.4473
葸	-16.4473
