<unk>	0
<s>	0
</s>	0
/	-3.55854
之	-3.98881
)(	-4.0481
以	-4.50513
)	-4.53766
(	-4.58063
而	-4.68198
也	-4.70388
為	-4.75046
其	-5.15008
者	-5.15482
曰	-5.27639
於	-5.3392
不	-5.36468
有	-5.39287
王	-5.53429
人	-5.54826
則	-5.56422
自	-5.75497
書	-5.78904
與	-5.80762
大	-5.90435
無	-5.93254
至	-5.94599
使	-5.94601
矣	-5.97473
子	-6.00679
一	-6.01058
言	-6.03707
上	-6.05536
皆	-6.05988
事	-6.06971
所	-6.14115
帝	-6.15484
此	-6.16643
故	-6.21083
乃	-6.21176
及	-6.22176
行	-6.24318
在	-6.25675
州	-6.32049
亦	-6.32788
非	-6.33962
中	-6.34124
于	-6.35001
復	-6.36086
時	-6.37228
見	-6.37924
兵	-6.37939
國	-6.3966
乎	-6.39962
公	-6.40277
如	-6.40301
又	-6.41944
立	-6.4277
謂	-6.42822
今	-6.43328
出	-6.46205
等	-6.47791
將	-6.48266
欲	-6.48698
得	-6.48841
道	-6.49444
遂	-6.513
然	-6.51708
相	-6.5248
文	-6.53933
當	-6.54128
是	-6.54163
知	-6.54233
何	-6.55102
軍	-6.55365
下	-6.57954
三	-6.58046
用	-6.58986
元	-6.59354
質實	-6.60851
臣	-6.61182
漢	-6.61402
名	-6.62923
已	-6.63028
民	-6.63308
入	-6.635
命	-6.63692
可	-6.6411
君	-6.64832
城	-6.65285
作	-6.65833
官	-6.67812
必	-6.67998
安	-6.68203
後	-6.68751
天	-6.68823
魏	-6.68929
若	-6.69244
反	-6.69837
令	-6.71488
二	-6.71929
周	-6.72094
正	-6.72969
年	-6.74302
秦	-6.75841
殺	-6.75956
成	-6.76055
明	-6.76379
死	-6.76753
雖	-6.77339
多	-6.80398
從	-6.81423
平	-6.81724
請	-6.81994
傳	-6.82184
晉	-6.82817
李	-6.83068
陳	-6.8348
齊	-6.83728
生	-6.83789
焉	-6.84509
始	-6.84645
唐	-6.84647
初	-6.84654
宋	-6.84851
哉	-6.86084
既	-6.86905
方	-6.88923
卒	-6.89106
因	-6.89355
張	-6.89525
天下	-6.89655
地	-6.91449
五	-6.91716
義	-6.9208
歸	-6.92166
山	-6.92342
未	-6.92794
日	-6.93769
同	-6.94174
取	-6.94519
能	-6.94526
以為	-6.96264
耳	-6.96353
先	-6.96492
世	-6.9654
南	-6.97826
集覽	-6.98179
主	-6.9818
即	-6.98193
詔	-6.98437
劉	-6.99452
縣	-6.99875
○	-7.00331
武	-7.00655
徳	-7.01895
遣	-7.03179
不能	-7.03315
法	-7.03602
四	-7.03673
居	-7.03898
重	-7.04515
郡	-7.04595
心	-7.05616
聞	-7.05678
師	-7.0573
置	-7.06017
西	-7.06724
定	-7.07272
本	-7.07469
金	-7.07527
稱	-7.07725
守	-7.07895
我	-7.07993
不可	-7.08559
長	-7.08576
諸	-7.08695
云	-7.09449
馬	-7.0986
史	-7.10104
梁	-7.10146
氏	-7.10259
東	-7.10421
注	-7.10446
惟	-7.11106
吾	-7.12172
家	-7.12379
禮	-7.12442
朝	-7.12613
且	-7.12656
爲	-7.12783
進	-7.13083
屬	-7.1321
北	-7.1424
舉	-7.14428
水	-7.14446
宜	-7.15591
封	-7.16263
亂	-7.16324
善	-7.16541
▁(	-7.17003
前	-7.1737
還	-7.17789
趙	-7.17818
通	-7.18092
論	-7.18279
去	-7.18918
實	-7.18961
士	-7.19072
數	-7.19157
或	-7.19165
陽	-7.20222
固	-7.20419
志	-7.20522
書法	-7.22278
治	-7.22685
興	-7.22836
分	-7.23555
服	-7.24226
衆	-7.24913
夫	-7.25113
猶	-7.26026
意	-7.26094
易	-7.26345
外	-7.26552
信	-7.27456
府	-7.27694
謀	-7.27928
常	-7.28005
字	-7.28126
親	-7.28584
降	-7.29016
内	-7.29063
制	-7.29557
求	-7.30079
發明	-7.30539
失	-7.3076
盡	-7.30946
政	-7.31989
賊	-7.32189
德	-7.32689
攻	-7.33457
廢	-7.33601
罷	-7.34316
所以	-7.35475
元年	-7.36414
來	-7.36445
小	-7.36996
議	-7.38266
難	-7.38685
起	-7.38703
受	-7.38799
深	-7.39129
召	-7.39212
髙	-7.39449
宗	-7.39545
㑹	-7.40138
楚	-7.40301
后	-7.40502
發	-7.40972
六	-7.41089
都	-7.41777
門	-7.41846
太子	-7.41985
尚	-7.42123
光	-7.42211
誅	-7.42476
奏	-7.42596
亡	-7.42597
爾	-7.4408
問	-7.45358
修	-7.45683
二年	-7.45724
父	-7.46092
凡	-7.46526
▁	-7.46892
河	-7.4724
利	-7.47444
三年	-7.47882
益	-7.48023
而不	-7.48074
樂	-7.48147
力	-7.48289
和	-7.48294
甚	-7.48538
古	-7.48652
罪	-7.49467
惡	-7.49591
注見	-7.49691
石	-7.50054
觀	-7.50376
加	-7.50555
改	-7.50627
賢	-7.50636
獨	-7.50771
直	-7.50779
辭	-7.51771
處	-7.51877
任	-7.51877
食	-7.52119
戰	-7.52151
侯	-7.52267
逺	-7.5269
合	-7.52865
建	-7.53629
夏	-7.53638
敗	-7.54389
經	-7.54526
於是	-7.54983
九	-7.55204
功	-7.55525
田	-7.5652
陵	-7.56589
廣	-7.57104
異	-7.57498
終	-7.5764
位	-7.57658
思	-7.58402
太后	-7.59068
過	-7.59383
好	-7.59724
代	-7.60157
語	-7.60244
奉	-7.60656
身	-7.61004
伐	-7.61521
白	-7.61645
少	-7.6176
權	-7.62186
音	-7.62327
擊	-7.62771
致	-7.62822
鄭	-7.63238
太	-7.63647
引	-7.64028
伯	-7.64558
敵	-7.65002
告	-7.6545
據	-7.6551
賜	-7.66087
節	-7.66724
孫	-7.66772
邪	-7.67026
克	-7.67339
紀	-7.67555
討	-7.68485
天子	-7.68682
魯	-7.68938
春秋	-7.69085
忠	-7.69385
嘗	-7.69501
計	-7.69516
吳	-7.69606
宫	-7.69766
仁	-7.69925
祖	-7.7046
首	-7.71101
楊	-7.71108
保	-7.71352
間	-7.71384
度	-7.71619
執	-7.71805
舊	-7.72069
變	-7.72187
按	-7.72457
豈	-7.72478
威	-7.72586
更	-7.73227
流	-7.73404
物	-7.73795
理	-7.74177
昭	-7.74495
十	-7.74694
諸侯	-7.74816
江	-7.75142
許	-7.75406
韓	-7.75856
勝	-7.7618
應	-7.76342
吏	-7.76558
不得	-7.77034
女	-7.77067
載	-7.77167
備	-7.77491
由	-7.77574
鎮	-7.77644
滅	-7.77648
並	-7.77661
路	-7.77765
燕	-7.7785
止	-7.78007
學	-7.78089
疑	-7.7816
新	-7.78569
彼	-7.78876
母	-7.78967
絶	-7.79122
兩	-7.80517
景	-7.80905
共	-7.81042
説	-7.81122
留	-7.81136
幸	-7.81269
刑	-7.81791
萬	-7.82147
遷	-7.82476
省	-7.82498
除	-7.82689
衛	-7.83056
陛下	-7.8327
卿	-7.83379
篇	-7.83421
目	-7.83536
號	-7.83994
章	-7.84153
表	-7.84305
四年	-7.84387
百	-7.8448
朝廷	-7.8449
誠	-7.84536
将	-7.84653
帥	-7.84907
延	-7.85021
司	-7.85317
高	-7.85501
坐	-7.85775
尊	-7.85885
各	-7.85898
恐	-7.85921
懼	-7.8596
至是	-7.86161
宣	-7.86223
而已	-7.86717
望	-7.86771
土	-7.87509
八	-7.87549
臨	-7.87637
但	-7.87693
盛	-7.88125
口	-7.88262
孝	-7.88708
圖	-7.88851
君子	-7.89374
胡	-7.89916
免	-7.90288
全	-7.90454
比	-7.90454
神	-7.90732
風	-7.90932
疾	-7.91017
開	-7.91447
輕	-7.91455
貴	-7.9152
崇	-7.91985
才	-7.92886
蓋	-7.92924
清	-7.93097
拜	-7.93097
記	-7.9358
氣	-7.93623
獻	-7.93683
寧	-7.93874
承	-7.94064
順	-7.94648
聖	-7.94858
叛	-7.94947
車	-7.95201
視	-7.95315
嗣	-7.95409
厚	-7.95607
徐	-7.9601
蜀	-7.96054
近	-7.96183
破	-7.96256
如此	-7.96368
七	-7.96512
存	-7.96656
敬	-7.96856
悉	-7.97003
汝	-7.97223
釋	-7.97455
退	-7.9794
老	-7.98008
仲	-7.98236
商	-7.98385
左	-7.98572
昌	-7.98652
者也	-7.98962
納	-7.99297
遺	-7.99387
錢	-7.99458
救	-7.99471
越	-7.99541
怒	-7.99609
弟	-7.99922
隂	-7.99953
濟	-8.0017
私	-8.00197
職	-8.00233
嚴	-8.00811
奔	-8.00914
夷	-8.00992
走	-8.01355
盖	-8.01592
怨	-8.01886
曹	-8.02141
餘	-8.02152
著	-8.02645
逆	-8.02706
圍	-8.02732
棄	-8.02782
率	-8.02849
次	-8.02987
病	-8.03167
殺之	-8.03228
素	-8.03488
聲	-8.03784
對	-8.0418
要	-8.0427
良	-8.04278
之事	-8.04813
)○	-8.05008
嘉	-8.05014
將軍	-8.0537
海	-8.0553
禁	-8.05638
所謂	-8.05879
綱目	-8.06493
御	-8.06643
教	-8.06839
莫	-8.07116
不知	-8.07214
黄	-8.07267
收	-8.07313
責	-8.07436
營	-8.07488
繼	-8.07535
交	-8.07823
别	-8.08277
容	-8.08364
諫	-8.09228
皇	-8.09258
典	-8.09373
布	-8.09449
貶	-8.09542
足	-8.09584
顧	-8.09654
務	-8.09755
𤣥	-8.0977
憂	-8.09963
五年	-8.10025
專	-8.10428
斬	-8.10462
業	-8.10588
不敢	-8.1072
華	-8.10856
動	-8.10958
列	-8.11251
永	-8.11263
龍	-8.11631
左右	-8.11775
叔	-8.11936
勢	-8.11951
危	-8.12098
大臣	-8.12232
殿	-8.12298
戒	-8.1241
害	-8.12494
詳	-8.12518
原	-8.12659
遇	-8.1266
襲	-8.12893
特	-8.12956
禍	-8.13131
之心	-8.13321
之言	-8.13475
就	-8.13618
殷	-8.14028
葢	-8.14742
集	-8.14927
極	-8.15099
久	-8.15439
往	-8.15506
遣使	-8.15524
美	-8.15661
里	-8.15717
畧	-8.15876
徒	-8.15877
果	-8.15925
斯	-8.15968
朱	-8.16107
兼	-8.16172
連	-8.16223
月	-8.16248
孔子	-8.16248
可以	-8.16319
勸	-8.17131
考	-8.17248
姓	-8.17567
解	-8.17666
至於	-8.18122
予	-8.18126
斷	-8.18343
推	-8.18364
邑	-8.18461
春	-8.18468
之意	-8.18563
恩	-8.18738
况	-8.19399
急	-8.19677
徙	-8.19842
唯	-8.20391
追	-8.20419
之所	-8.20436
附	-8.20464
堅	-8.20956
𢎞	-8.2115
茍	-8.21507
契丹	-8.21548
愛	-8.21592
具	-8.21667
俱	-8.21852
隋	-8.22028
顯	-8.22033
不足	-8.22194
說	-8.22195
小人	-8.22269
秋	-8.22567
䇿	-8.23042
京	-8.23637
朕	-8.23651
再	-8.23682
畏	-8.23742
勿	-8.2385
呉	-8.24064
願	-8.241
宰相	-8.2425
禹	-8.24359
喜	-8.24716
彊	-8.24941
養	-8.24983
真	-8.25141
林	-8.25251
右	-8.25277
懐	-8.25286
是以	-8.25359
簡	-8.25422
六年	-8.25456
寵	-8.25486
夜	-8.25717
謝	-8.25944
而後	-8.25961
嵗	-8.2601
結	-8.26691
賞	-8.26948
屯	-8.26974
大夫	-8.27453
太宗	-8.2755
并	-8.27616
迎	-8.27763
謂之	-8.28116
體	-8.2823
尋	-8.28554
甲	-8.28715
雲	-8.29013
選	-8.29223
約	-8.29449
持	-8.29594
杜	-8.29765
待	-8.29946
登	-8.30033
操	-8.30145
衣	-8.30286
報	-8.30441
伏	-8.30472
騎	-8.30504
温	-8.3072
授	-8.31241
耶	-8.31402
統	-8.31729
儀	-8.31876
由是	-8.31881
化	-8.32154
部	-8.32384
蕭	-8.32495
類	-8.32567
宻	-8.32746
每	-8.32822
被	-8.32893
郭	-8.32915
患	-8.32944
領	-8.33263
廣義	-8.33362
詩	-8.33375
智	-8.33409
指	-8.33662
然後	-8.33852
不書	-8.33884
亮	-8.33944
黨	-8.34528
强	-8.34561
虞	-8.34586
聽	-8.3469
負	-8.34935
申	-8.35187
慶	-8.35304
獲	-8.35705
設	-8.35774
散	-8.35805
玉	-8.35816
即位	-8.35898
寳	-8.36064
色	-8.36073
虜	-8.36208
爵	-8.36975
籍	-8.3735
向	-8.37575
從之	-8.37599
己	-8.37624
弱	-8.37791
積	-8.37792
之後	-8.3784
闗	-8.38179
廟	-8.38204
慮	-8.38278
周公	-8.38283
扵	-8.38289
福	-8.38468
康	-8.38476
族	-8.38592
魏主	-8.38648
衰	-8.38661
榮	-8.38661
曲	-8.38667
器	-8.38671
吕	-8.38751
訓	-8.38823
乗	-8.38972
祀	-8.3908
移	-8.39217
習	-8.3929
臺	-8.3932
尤	-8.39346
隨	-8.39376
弑	-8.39444
室	-8.39529
情	-8.39549
性	-8.39638
讓	-8.39737
休	-8.39837
火	-8.39845
縱	-8.39879
尚書	-8.3988
述	-8.39889
乞	-8.39894
敢	-8.40067
察	-8.40161
一統志云	-8.4032
虎	-8.4075
丁	-8.40778
總	-8.40856
昔	-8.40903
乘	-8.40975
决	-8.41056
祭	-8.41067
獄	-8.41159
無所	-8.41235
第	-8.41346
武帝	-8.41917
造	-8.41991
天下之	-8.42165
節度使	-8.42589
便	-8.4266
薄	-8.42971
暴	-8.43107
戎	-8.43425
勞	-8.43456
恭	-8.43482
羣	-8.43519
謹	-8.43764
青	-8.43809
送	-8.44161
富	-8.44201
可謂	-8.44533
木	-8.4461
塞	-8.44816
之地	-8.44914
監	-8.45224
卷	-8.45351
咸	-8.45411
愚	-8.45461
手	-8.45765
舜	-8.45894
蔡	-8.45999
脩	-8.46058
誤	-8.46447
其所	-8.46494
質	-8.46526
録	-8.46978
輔	-8.47046
酒	-8.47132
虚	-8.47162
綱	-8.47189
司馬	-8.47345
考異	-8.47348
末	-8.47579
聖人	-8.47675
端	-8.47805
俗	-8.48069
鄉	-8.48119
邊	-8.48266
羣臣	-8.48536
赦	-8.49286
給	-8.49563
切	-8.49592
勇	-8.49604
雄	-8.49612
三月	-8.50046
傷	-8.50152
逐	-8.50184
序	-8.50347
賦	-8.50399
季	-8.50566
中國	-8.50571
澤	-8.5061
何以	-8.50782
識	-8.50822
諸將	-8.51119
盟	-8.51539
詣	-8.51606
期	-8.51653
曰吾	-8.5169
姦	-8.51946
奪	-8.51953
於此	-8.51984
皇后	-8.5211
安石	-8.52159
書曰	-8.52174
彦	-8.52196
侵	-8.52346
窮	-8.52461
匈奴	-8.52651
屢	-8.52697
辨	-8.52838
適	-8.52881
遼	-8.52903
對曰	-8.53011
孟	-8.53093
𫝊	-8.53138
垂	-8.53444
蘇	-8.53485
厥	-8.53533
財	-8.53665
孔	-8.53852
累	-8.5387
微	-8.53876
草	-8.54003
靈	-8.54051
太守	-8.54054
充	-8.54118
爭	-8.54658
象	-8.54708
賀	-8.54709
施	-8.54877
之間	-8.55161
冦	-8.55217
妻	-8.55238
市	-8.55404
關	-8.55421
援	-8.55759
當時	-8.55763
百姓	-8.55923
史記	-8.55986
不從	-8.5615
資	-8.5623
烏	-8.56272
兄	-8.56336
例	-8.56377
洛	-8.56381
後世	-8.56513
英	-8.5654
泰	-8.56569
歴	-8.56666
㧞	-8.56672
儒	-8.56914
之罪	-8.5692
征	-8.57006
仍	-8.57009
以來	-8.57032
為之	-8.57098
哀	-8.57214
條	-8.5727
州刺史	-8.57429
假	-8.57438
役	-8.57579
崔	-8.57584
竊	-8.57678
八年	-8.57793
他	-8.57947
犯	-8.57959
阿	-8.58196
費	-8.58245
范	-8.58392
達	-8.58459
博	-8.58648
長安	-8.58807
竒	-8.58886
違	-8.58897
惠	-8.59033
助	-8.59275
呼	-8.59377
抑	-8.59379
淵	-8.59425
邦	-8.59466
撰	-8.59551
金人	-8.5969
之時	-8.59864
徴	-8.59867
薦	-8.59932
注見漢	-8.59958
七年	-8.60118
弗	-8.60171
丘	-8.60326
境	-8.60384
聚	-8.60439
野	-8.60477
足以	-8.60525
國家	-8.61156
客	-8.61382
陷	-8.61494
闕	-8.61569
諌	-8.61679
喪	-8.61711
參	-8.61763
者皆	-8.6187
隆	-8.62002
紹	-8.62144
詐	-8.62348
莽	-8.6238
孤	-8.6239
委	-8.62565
沈	-8.62679
庶	-8.62822
防	-8.62827
頭	-8.62852
形	-8.62935
擇	-8.62962
衡	-8.63014
舍	-8.63373
逹	-8.63607
也故	-8.63993
補	-8.64064
千	-8.64194
示	-8.64505
雍	-8.6455
其後	-8.64607
案	-8.64624
争	-8.64629
穆	-8.64677
葬	-8.6491
雜	-8.65088
未有	-8.65097
離	-8.65303
險	-8.6533
之子	-8.65475
是也	-8.65511
皇帝	-8.65579
息	-8.65833
運	-8.65854
河南	-8.6612
䘮	-8.66133
賈	-8.6623
依	-8.66329
自是	-8.66384
飛	-8.66408
聞之	-8.66625
掌	-8.66834
然則	-8.67
嗚呼	-8.67101
未嘗	-8.67106
豐	-8.67167
牛	-8.67513
韋	-8.67691
律	-8.67805
撫	-8.67834
避	-8.67873
之道	-8.6788
堯	-8.679
夀	-8.67947
放	-8.67994
湯	-8.68
詞	-8.68254
不如	-8.68522
密	-8.68552
川	-8.68591
竟	-8.68649
吉	-8.68714
折	-8.68822
憲	-8.68856
不為	-8.69046
均	-8.69516
京師	-8.69761
勒	-8.6982
辟	-8.69892
屈	-8.70056
精	-8.70295
斥	-8.70328
誣	-8.70355
頗	-8.70368
逸	-8.70402
六月	-8.70461
格	-8.70468
崩	-8.7047
丞相	-8.70629
符	-8.70879
妄	-8.71201
會	-8.71444
乆	-8.71481
愈	-8.71565
鼎	-8.71768
妃	-8.71803
遊	-8.71927
譏	-8.71988
佐	-8.7215
知其	-8.72505
招	-8.72511
盧	-8.72663
幽	-8.72673
百官	-8.72841
有所	-8.72843
某	-8.72888
覆	-8.73039
乾	-8.73041
辱	-8.73199
盗	-8.73268
之法	-8.73282
冠	-8.73735
雅	-8.73877
機	-8.74205
九年	-8.74259
貪	-8.74291
懷	-8.74354
讀	-8.74644
敕	-8.74791
拒	-8.75073
遽	-8.75362
郎	-8.75422
傅	-8.75496
徃	-8.75518
班	-8.75593
牧	-8.75748
幾	-8.75819
速	-8.76052
来	-8.76155
䝉古	-8.76383
陸	-8.76609
歟	-8.76648
寛	-8.76849
九月	-8.76921
戍	-8.77205
鄧	-8.77452
不過	-8.77509
不以	-8.77713
堂	-8.77938
洛陽	-8.78248
也今	-8.78296
桓	-8.78347
源	-8.78437
淮	-8.78631
苦	-8.78709
十二月	-8.78864
干	-8.78939
文帝	-8.78963
郡名注見	-8.79037
庸	-8.79057
不及	-8.791
督	-8.79138
公主	-8.79159
似	-8.79342
之士	-8.79367
逃	-8.79487
欺	-8.79516
其事	-8.79572
空	-8.79647
斬之	-8.7967
人心	-8.79745
殊	-8.79794
慎	-8.79815
貞	-8.80081
社稷	-8.80102
羅	-8.80173
災	-8.80252
震	-8.80322
允	-8.80375
横	-8.80412
上書	-8.80527
襄	-8.80874
庭	-8.81228
二月	-8.8123
糧	-8.8138
超	-8.81386
驕	-8.81408
忌	-8.81448
公子	-8.81481
太祖	-8.8176
射	-8.81798
夫人	-8.81833
毁	-8.81984
飲	-8.82108
縣屬	-8.82131
築	-8.8214
星	-8.82356
須	-8.82377
倫	-8.82513
冀	-8.82519
感	-8.827
八月	-8.82964
誰	-8.83112
薛	-8.83158
縣名注見	-8.83173
子孫	-8.83185
舟	-8.83213
烈	-8.83227
人主	-8.83387
背	-8.83589
刺	-8.83629
革	-8.83649
赴	-8.83657
惑	-8.83706
䧟	-8.8371
宋主	-8.83753
浮	-8.83991
徵	-8.84027
馮	-8.84035
其言	-8.8406
秀	-8.84186
髙祖	-8.84314
藏	-8.84399
河北	-8.84699
五月	-8.84794
四方	-8.85011
一人	-8.8514
唐主	-8.8519
偽	-8.85339
河東	-8.85654
預	-8.85756
寺	-8.85783
決	-8.85827
豈不	-8.8587
突厥	-8.85885
冬十月	-8.85992
夏四月	-8.86023
僧	-8.86064
之禍	-8.86117
禄	-8.86391
索	-8.86628
朔	-8.87126
兄弟	-8.87186
吐蕃	-8.87268
其子	-8.87474
趨	-8.87486
術	-8.87612
肅	-8.87645
試	-8.87663
升	-8.87895
晋	-8.87925
忘	-8.88004
國之	-8.88046
君臣	-8.88156
而無	-8.88199
剛	-8.88323
傾	-8.88386
人君	-8.88441
講	-8.88607
侍	-8.8861
十二	-8.88653
二人	-8.88751
裕	-8.88967
之人	-8.88991
諭	-8.89069
審	-8.89074
句	-8.89112
循	-8.89195
漸	-8.89197
畢	-8.89249
不許	-8.89251
必有	-8.89258
十年	-8.89293
豫	-8.89437
是時	-8.89489
削	-8.89501
其罪	-8.89521
甫	-8.89796
友	-8.89828
兒	-8.90037
廷	-8.90044
増	-8.90069
䝉	-8.90168
父子	-8.9024
羽	-8.90358
㫖	-8.90361
十一月	-8.90382
隠	-8.90397
也夫	-8.90411
介	-8.9042
刻	-8.90527
勤	-8.90779
振	-8.90837
魚	-8.91131
㣲	-8.91292
引兵	-8.9136
校	-8.91497
念	-8.91544
輙	-8.91582
莊	-8.91589
歲	-8.91697
秋七月	-8.91857
勲	-8.91937
浚	-8.92365
單于	-8.92517
效	-8.9268
辛	-8.92769
董	-8.92829
之功	-8.92929
池	-8.93072
謙	-8.93075
宮	-8.93545
髙宗	-8.9365
厯	-8.93668
既而	-8.93687
祠	-8.9374
不復	-8.93768
肆	-8.93826
忽	-8.93974
掠	-8.94002
佛	-8.94118
郊	-8.94198
擊之	-8.94297
𨽻	-8.94481
揚	-8.94574
接	-8.94799
宿	-8.94832
畫	-8.949
士卒	-8.94966
農	-8.95006
之徒	-8.95035
衞	-8.95052
貢	-8.95126
裴	-8.9515
疏	-8.95378
滿	-8.95408
隱	-8.95503
宴	-8.95669
轉	-8.95794
旣	-8.95861
荒	-8.95919
鄴	-8.95929
笑	-8.96036
十二年	-8.96198
人之	-8.96256
不然	-8.96309
湖	-8.9645
寜	-8.96787
有罪	-8.97362
之臣	-8.97408
蔽	-8.97414
稍	-8.97536
也然	-8.97569
婦	-8.97775
祚	-8.97867
馳	-8.97891
半	-8.97905
武王	-8.98139
今按	-8.9816
奚	-8.98167
毎	-8.98181
弼	-8.98297
潰	-8.98368
敦	-8.98375
困	-8.98551
有司	-8.99145
甚矣	-8.99194
伊	-8.99308
殆	-8.99422
之義	-8.9953
言之	-8.99532
出於	-8.99586
略	-8.99619
政事	-8.99683
辰	-8.99737
損	-8.99739
恨	-8.99809
是為	-8.99951
希	-9.00026
旦	-9.00135
投	-9.00146
導	-9.0041
凶	-9.0051
宦官	-9.00621
刺史	-9.00715
袁	-9.00734
先是	-9.0082
恒	-9.00857
最	-9.0117
谷	-9.01348
一日	-9.01371
儉	-9.0144
俟	-9.01516
使人	-9.01589
不克	-9.01733
衍	-9.01734
葉	-9.01886
入朝	-9.01889
尹	-9.02011
薨	-9.0207
胡氏曰	-9.02466
將兵	-9.02504
春正月	-9.02549
貨	-9.02563
没	-9.02572
冬	-9.02774
榖	-9.02819
咎	-9.03081
種	-9.03096
面	-9.03199
昏	-9.03233
討之	-9.03313
淮南	-9.03521
誘	-9.03622
邉	-9.03766
工	-9.03786
姚	-9.0379
逼	-9.03827
兹	-9.03905
尺	-9.04274
則其	-9.04331
戮	-9.04447
雨	-9.04458
程	-9.04578
遵	-9.04605
茂	-9.04851
靡	-9.04917
成王	-9.05045
曰此	-9.05092
偏	-9.05234
鄙	-9.05237
翼	-9.05256
遠	-9.05295
材	-9.05534
蠻	-9.05585
恃	-9.05686
宦者	-9.0575
歳	-9.06018
無罪	-9.06024
悦	-9.0613
顔	-9.0616
霸	-9.06293
赤	-9.06546
否	-9.06626
天地	-9.06728
鹽	-9.06779
俊	-9.06833
黜	-9.06867
支	-9.06936
書之	-9.07151
飾	-9.07157
今日	-9.07347
用之	-9.07507
粟	-9.0751
繫	-9.07623
則是	-9.07675
囚	-9.07868
趣	-9.07875
正誤	-9.08031
諱	-9.08032
憤	-9.081
忍	-9.0812
故曰	-9.0812
江南	-9.08303
與之	-9.08488
者矣	-9.08491
仕	-9.08519
文王	-9.08537
歡	-9.08695
許之	-9.08708
回	-9.08735
沙	-9.08849
焚	-9.08894
之際	-9.08993
筆	-9.09029
䕶	-9.09113
御史	-9.09202
齊主	-9.0944
使者	-9.0958
卑	-9.09635
漢書	-9.09665
饑	-9.09913
奮	-9.09955
毛	-9.09994
壽	-9.10153
擒	-9.10155
藩	-9.10284
管	-9.1037
羌	-9.10504
落	-9.10636
寶	-9.10636
賤	-9.10934
奴	-9.11048
編	-9.11062
渠	-9.11172
院	-9.11227
妾	-9.11436
是年	-9.11459
弊	-9.1149
改為	-9.11688
橋	-9.11731
驚	-9.1184
孰	-9.11847
煩	-9.11922
厲	-9.11968
洪	-9.1232
藥	-9.12436
采	-9.12458
卓	-9.12514
荆州	-9.12707
副	-9.12717
有功	-9.12728
至于	-9.12828
太原	-9.12828
佞	-9.12887
貫	-9.12905
毒	-9.12909
死者	-9.12916
柔	-9.1292
樓	-9.13074
丹	-9.13121
荆	-9.13251
左氏曰	-9.13268
託	-9.13268
梁主	-9.1345
狀	-9.13484
輿	-9.1363
可汗	-9.13724
歌	-9.13735
欽	-9.13739
房	-9.13777
一作	-9.13901
啓	-9.13976
吴	-9.14001
卜	-9.14067
擅	-9.14084
之世	-9.1429
峻	-9.14383
而死	-9.14535
上曰	-9.1488
錯	-9.15117
啟	-9.15306
誓	-9.15461
角	-9.15496
十五年	-9.15597
欲以	-9.15621
惜	-9.15668
全忠	-9.15805
不至	-9.15831
其心	-9.159
節度	-9.15914
輩	-9.16034
差	-9.16056
曾	-9.16169
汴	-9.16313
余	-9.16399
古之	-9.16596
遁	-9.16683
量	-9.16725
郡名	-9.16831
而還	-9.16973
短	-9.1711
莫不	-9.17124
罰	-9.17183
厭	-9.17304
寒	-9.17409
優	-9.17786
以此	-9.17847
策	-9.1785
牙	-9.17865
熈	-9.17872
盜	-9.17897
在位	-9.17983
户	-9.18031
歩	-9.18065
金主	-9.1813
二十	-9.18155
雖有	-9.18202
専	-9.18395
叙	-9.18411
沮	-9.1845
竭	-9.18492
付	-9.18622
荀	-9.18684
寡	-9.18865
中原	-9.19103
享	-9.19149
取之	-9.19213
紂	-9.1925
之不	-9.19312
縣名	-9.19352
桑	-9.19526
躬	-9.19566
故事	-9.19774
之志	-9.19832
津	-9.19933
抗	-9.20135
珍	-9.20188
姑	-9.20262
禦	-9.20284
中書	-9.20293
上下	-9.20347
泣	-9.20463
竹	-9.20526
懿	-9.20819
故也	-9.20833
三十	-9.20928
諸軍	-9.21028
諡	-9.21117
細	-9.21119
㓂	-9.21165
單	-9.21291
覺	-9.21317
頃	-9.21329
輸	-9.2149
宰	-9.21557
調	-9.21562
甘	-9.21564
悔	-9.21621
亭	-9.21757
謁	-9.21766
融	-9.21867
屠	-9.21919
㡬	-9.21963
宗廟	-9.22008
蒲	-9.22032
祥	-9.22037
規	-9.2211
船	-9.22153
根	-9.22173
自殺	-9.22214
其君	-9.22436
辯	-9.22483
續	-9.22516
羊	-9.22544
閣	-9.22715
太平	-9.22797
基	-9.2282
曰我	-9.2301
減	-9.23173
孟子	-9.23456
建康	-9.23519
鹿	-9.23554
杖	-9.2358
至此	-9.23941
僅	-9.23948
哭	-9.2399
側	-9.24022
括	-9.2433
誅之	-9.24432
僕	-9.24536
狄	-9.24686
之所以	-9.24737
起兵	-9.24825
鼓	-9.24982
姬	-9.24984
矣然	-9.25339
中外	-9.25385
十五	-9.25407
為相	-9.2541
以下	-9.25556
如是	-9.25597
履	-9.25632
捕	-9.25664
露	-9.25832
彭	-9.25958
浩	-9.25991
倉	-9.26033
候	-9.26059
借	-9.26227
綱目書	-9.26256
晦	-9.2627
之君	-9.26378
賂	-9.26433
奈何	-9.26529
舒	-9.26632
淫	-9.26867
沒	-9.26884
不同	-9.26939
曽	-9.27027
宅	-9.27098
用兵	-9.27112
四海	-9.27192
罔	-9.27206
之説	-9.27423
不用	-9.27486
巴	-9.27555
曰今	-9.27584
竄	-9.27728
科	-9.28063
匡	-9.28156
驅	-9.28191
可也	-9.28207
侍中	-9.28321
宏	-9.28326
襄陽	-9.28424
乙	-9.28455
千里	-9.28616
光武	-9.28647
亦不	-9.28869
猛	-9.2887
高宗	-9.29013
靖	-9.29022
之勢	-9.29198
談	-9.2921
耻	-9.29211
殺其	-9.29251
渡	-9.29296
世家	-9.29336
不忍	-9.29339
迹	-9.29552
不可以	-9.29701
同平章事	-9.2973
自古	-9.29739
山東	-9.2976
大將軍	-9.29851
雷	-9.2991
之名	-9.29984
盈	-9.30082
悟	-9.30151
錄	-9.30187
遜	-9.30234
割	-9.30245
又曰	-9.30327
鳴	-9.30349
褒	-9.30507
將士	-9.30609
宣帝	-9.30616
庫	-9.30648
奸	-9.30713
普	-9.30913
苑	-9.31049
文公	-9.31057
尉	-9.31086
成都	-9.31378
泉	-9.31469
恥	-9.31591
凖	-9.31635
潜	-9.31641
左傳	-9.31717
前後	-9.31847
内外	-9.31865
子曰	-9.31905
毋	-9.31961
都督	-9.32097
亟	-9.32119
之初	-9.32174
代之	-9.32178
岐	-9.32224
鍾	-9.32244
而去	-9.32286
不聽	-9.32421
品	-9.3243
先王	-9.32489
擾	-9.32494
城中	-9.32609
讐	-9.32704
之故	-9.3274
之計	-9.32762
誥	-9.32816
徽	-9.32846
扶	-9.32908
之失	-9.32946
公卿	-9.32979
矯	-9.3302
賔	-9.33207
十一年	-9.33295
早	-9.33513
配	-9.33663
誕	-9.33675
彌	-9.33794
帝曰	-9.33854
姓名	-9.33895
肅宗	-9.34003
先帝	-9.34077
維	-9.34262
父母	-9.3432
僣	-9.34322
陰	-9.34327
却	-9.34547
攸	-9.34967
怪	-9.35253
十三年	-9.3541
公孫	-9.35436
行之	-9.35484
受命	-9.35621
舉兵	-9.35677
訪	-9.3571
耕	-9.35721
南陽	-9.35781
純	-9.35885
式	-9.35918
錫	-9.35983
雪	-9.35996
大事	-9.36064
十三	-9.36065
秦王	-9.36136
贈	-9.36189
敏	-9.36252
戸	-9.36261
界	-9.36297
一旦	-9.36334
高祖	-9.36652
賛	-9.36677
豪	-9.36693
勉	-9.36747
況	-9.36869
岳	-9.36932
正月	-9.37089
之類	-9.37099
虛	-9.37151
得其	-9.37168
三公	-9.37173
貧	-9.37228
則書	-9.37366
東漢	-9.37366
繁	-9.37381
檜	-9.37426
陶	-9.37721
頓	-9.37751
江陵	-9.37872
珪	-9.37993
五代	-9.3801
十六	-9.38028
竇	-9.38065
晏	-9.38165
乃以	-9.38239
聼	-9.38363
不足以	-9.3841
掩	-9.38473
前書	-9.38498
限	-9.3854
驗	-9.38544
階	-9.38551
不若	-9.38573
因之	-9.38577
人也	-9.38722
殘	-9.38739
肉	-9.38753
或曰	-9.39004
蘭	-9.39035
寅	-9.39187
戴	-9.39243
及其	-9.39263
夷狄	-9.39283
之亂	-9.39308
署	-9.39459
復為	-9.39492
踰	-9.39571
長史	-9.39622
丕	-9.39637
齊王	-9.39648
激	-9.3967
緩	-9.39701
樊	-9.39716
旁	-9.39751
巧	-9.39753
成帝	-9.399
賣	-9.39934
鑄	-9.39963
匿	-9.39979
伊尹	-9.40173
忿	-9.40216
範	-9.40344
突	-9.40379
獵	-9.40443
東南	-9.40607
明皇	-9.40751
桀	-9.409
憲宗	-9.40913
擢	-9.40967
為太子	-9.4107
十月	-9.41163
不當	-9.41171
之謀	-9.41172
儲	-9.41203
諸王	-9.41342
旅	-9.41377
觀之	-9.41381
伏誅	-9.41438
壊	-9.41491
占	-9.415
桓公	-9.41517
世子	-9.41561
天命	-9.41599
駕	-9.41628
司徒	-9.41668
鑒	-9.41675
痛	-9.41681
眞	-9.41721
壯	-9.41749
十四	-9.41779
禮樂	-9.41902
供	-9.41976
静	-9.42166
倚	-9.42183
四月	-9.42213
文武	-9.42266
太尉	-9.42359
幽州	-9.42368
宗室	-9.42535
覽	-9.42633
戲	-9.42645
有餘	-9.42651
發兵	-9.42653
恤	-9.42665
羙	-9.42668
謬	-9.42671
貌	-9.42674
帶	-9.42721
午	-9.42879
慕	-9.42882
整	-9.429
之於	-9.43017
濬	-9.43131
巢	-9.43139
植	-9.43153
樹	-9.43208
劾	-9.43311
一時	-9.4334
墨	-9.4335
矜	-9.43364
十四年	-9.43552
豈可	-9.43584
寢	-9.43613
鳯	-9.43671
仗	-9.43682
閔	-9.43905
戚	-9.43918
嶺	-9.44043
祐	-9.44162
是非	-9.44412
園	-9.44463
聴	-9.44587
學士	-9.44622
之禮	-9.44661
庚	-9.44756
血	-9.44806
而不知	-9.44838
十一	-9.44839
見其	-9.44897
乂	-9.44915
明帝	-9.44915
松	-9.44916
以其	-9.45008
提	-9.45077
募	-9.45111
改元	-9.45115
渾	-9.45159
虐	-9.45267
此書	-9.45511
揚州	-9.45531
知之	-9.45547
丙	-9.45624
脱	-9.45677
未幾	-9.45681
寇	-9.45765
禪	-9.45776
其身	-9.45851
不肯	-9.45858
不受	-9.45867
邵	-9.45903
恕	-9.45977
予之	-9.46044
翰	-9.46123
游	-9.46138
又以	-9.46163
用事	-9.46188
米	-9.46192
冊	-9.46349
栁	-9.46361
龜	-9.46458
刼	-9.46478
五十	-9.46652
皆以	-9.46653
自稱	-9.46753
徽宗	-9.46788
兆	-9.46817
屋	-9.4699
彭城	-9.47041
攻之	-9.47125
子弟	-9.47335
大敗	-9.47467
慈	-9.47476
贊	-9.47499
蕃	-9.47627
君之	-9.47665
則有	-9.47768
建安	-9.47887
夫子	-9.47927
仙	-9.47964
澄	-9.47972
到	-9.48001
學者	-9.48032
聘	-9.48089
攝	-9.48111
晉陽	-9.48156
寸	-9.48164
麟	-9.48222
矣故	-9.48277
武氏	-9.48411
井	-9.48531
夲	-9.48555
蕩	-9.48566
人皆	-9.48657
東都	-9.48676
以後	-9.48779
判	-9.48866
蔡京	-9.489
其國	-9.4897
熊	-9.49039
觀其	-9.49056
日格子曰	-9.4908
當作	-9.49118
開元	-9.49158
司空	-9.49313
不見	-9.49403
輒	-9.49559
豈非	-9.49574
裁	-9.49585
骨	-9.49599
州縣	-9.49605
印	-9.49614
尸	-9.4982
契	-9.49829
刀	-9.49888
元帝	-9.49964
十萬	-9.49975
江淮	-9.50015
館	-9.50137
渭	-9.50179
懲	-9.50386
斗	-9.50415
救之	-9.5052
郡縣	-9.50536
者乎	-9.50557
遣兵	-9.50557
創	-9.50589
而不能	-9.50636
廵	-9.50682
産	-9.50771
黎	-9.50838
堯舜	-9.50841
何如	-9.50843
漏	-9.5093
之上	-9.50932
畜	-9.50963
之命	-9.51036
悲	-9.51117
晟	-9.51124
不行	-9.51278
萬人	-9.51304
秉	-9.51431
鳥	-9.51435
西北	-9.51448
社	-9.51554
併	-9.51556
亦有	-9.5168
齒	-9.51691
舞	-9.51715
凉	-9.51717
狂	-9.51734
正義曰	-9.51749
作亂	-9.51889
隴	-9.51928
夾	-9.51967
朗	-9.51976
藉	-9.51978
憚	-9.52005
簒	-9.52026
安得	-9.52026
之中	-9.52038
幹	-9.52059
其名	-9.52061
若此	-9.52112
以示	-9.5212
捨	-9.52189
本紀	-9.52192
寄	-9.52271
壘	-9.52287
仰	-9.52314
賢者	-9.52318
用左	-9.5237
言於	-9.52376
南北	-9.52512
左氏	-9.52678
彰	-9.52733
暉	-9.52755
毅	-9.52914
不與	-9.53128
項	-9.53183
即此	-9.53193
不宜	-9.53249
貳	-9.5325
劒	-9.53324
臧	-9.53325
幼	-9.53377
㓜	-9.53384
妖	-9.53418
巳	-9.53596
之政	-9.5372
仁宗	-9.53785
堪	-9.53795
名注見	-9.53891
侈	-9.53909
中山	-9.53935
破之	-9.53946
晉侯	-9.53969
丈	-9.54074
世祖	-9.54143
徐州	-9.54164
之衆	-9.54206
婦人	-9.54249
無不	-9.54345
旱	-9.54408
不欲	-9.54416
柄	-9.54476
釁	-9.54487
藝	-9.54525
其意	-9.54646
不相	-9.54815
上言	-9.54865
傳曰	-9.54885
者不	-9.54944
中宗	-9.5513
討賊	-9.55296
齊侯	-9.5531
呂	-9.55395
恪	-9.55538
答	-9.55555
帛	-9.5574
丞	-9.55795
戰國	-9.55833
尾	-9.5584
特書	-9.55843
跡	-9.55859
段	-9.559
㤗	-9.55933
嫌	-9.56119
軍中	-9.56147
猶言	-9.56147
皮	-9.56205
得失	-9.56207
不在	-9.56229
不免	-9.56278
是故	-9.56334
軌	-9.56359
得以	-9.56411
亷	-9.5643
他日	-9.56485
挾	-9.56486
其地	-9.56668
富貴	-9.56711
寃	-9.56734
濫	-9.56759
於天下	-9.56797
閉	-9.56835
鐵	-9.57033
遭	-9.57049
祿	-9.57181
王者	-9.57217
曹操	-9.57425
西域	-9.57443
先生	-9.57458
員	-9.57529
淺	-9.57579
胥	-9.57631
軍士	-9.57683
不言	-9.57693
黄帝	-9.5775
諷	-9.57849
豈有	-9.57859
明日	-9.579
也若	-9.57901
徳宗	-9.57981
㑹稽	-9.58189
曰臣	-9.582
墓	-9.58215
嵩	-9.5828
其人	-9.58317
乃止	-9.58351
元祐	-9.58424
疎	-9.5846
缺	-9.58465
民之	-9.586
壁	-9.58739
鳳	-9.588
塗	-9.5886
郢	-9.58886
噫	-9.58945
歛	-9.59025
乖	-9.59046
秩	-9.59074
其衆	-9.59117
克用	-9.59178
鄭伯	-9.5923
齊人	-9.59236
競	-9.59246
税	-9.59263
仁義	-9.59268
慕容	-9.59314
執政	-9.59511
絳	-9.59622
覇	-9.59641
陜	-9.59643
帝王	-9.59847
地震	-9.59897
譽	-9.59917
所在	-9.59924
拔	-9.5993
銅	-9.59934
大怒	-9.59949
通鑑	-9.59966
七月	-9.60019
僕射	-9.60173
倍	-9.60255
兮	-9.60259
漢中	-9.60395
矢	-9.6045
阻	-9.60524
燒	-9.6057
廬	-9.60627
𦙍	-9.60743
貽	-9.6076
譙	-9.6083
淳	-9.60926
邀	-9.61045
綏	-9.61099
觧	-9.61108
所為	-9.61119
舅	-9.61137
三日	-9.61146
奢	-9.61153
貞觀	-9.61275
之師	-9.613
罕	-9.61387
壞	-9.61412
何為	-9.61494
疆	-9.61571
楚子	-9.61583
男	-9.61648
嫡	-9.61731
藩鎮	-9.61796
壬	-9.61968
以自	-9.61975
衝	-9.61983
瓊	-9.61988
也其	-9.62065
忠義	-9.62183
未可	-9.62403
無以	-9.62489
葛	-9.62505
翟	-9.62506
夢	-9.62584
潛	-9.62601
不明	-9.62794
伍	-9.62872
何也	-9.62872
沔	-9.62923
渉	-9.62952
屏	-9.62978
篤	-9.63063
席	-9.63234
日食	-9.63307
不得已	-9.63395
舎	-9.63401
古者	-9.63416
協	-9.63537
歎	-9.6354
稽	-9.63612
王室	-9.63622
麗	-9.63752
乏	-9.6376
而已矣	-9.63763
擬	-9.63805
醜	-9.63812
弓	-9.63814
逢	-9.63885
拒之	-9.63978
人臣	-9.6399
熟	-9.64161
相繼	-9.64396
隙	-9.64432
證	-9.64433
徑	-9.64441
宼	-9.64486
三代	-9.64514
成功	-9.64565
使之	-9.64606
眀	-9.64688
者必	-9.64813
而立	-9.6484
士大夫	-9.64873
言者	-9.64996
陣	-9.6502
十八	-9.65035
強	-9.65064
迫	-9.65081
俘	-9.65105
為人	-9.65173
詔以	-9.65254
之辭	-9.65358
撃	-9.65363
警	-9.65366
幣	-9.6537
增	-9.65374
管仲	-9.65381
湛	-9.65477
播	-9.65579
稷	-9.6561
劉氏	-9.65685
廣陵	-9.65705
嫁	-9.65711
滋	-9.65714
多矣	-9.65732
曰朕	-9.65913
復置	-9.65942
州注見	-9.66078
惡之	-9.66117
皆有	-9.66125
以待	-9.66131
二子	-9.66144
㨗	-9.6635
喻	-9.66372
牢	-9.6658
吁	-9.66595
而有	-9.666
鋭	-9.6662
稅	-9.66636
詰	-9.66643
史官	-9.66729
祖宗	-9.6686
之變	-9.66953
黙	-9.67034
閩	-9.67182
直書	-9.67189
緒	-9.67209
俾	-9.6726
周主	-9.67264
檢	-9.67281
其志	-9.67307
致仕	-9.67416
上疏	-9.6757
仇	-9.67808
者亦	-9.67898
黒	-9.67909
海内	-9.67917
顔師古曰	-9.6796
然而	-9.6817
怠	-9.68273
日月	-9.68291
提要	-9.68292
古今	-9.68343
十六年	-9.68444
莒	-9.68505
銀	-9.68767
官爵	-9.68815
垣	-9.68903
曰陛下	-9.68929
為國	-9.6895
百里	-9.68961
其家	-9.68961
稱帝	-9.69036
樞	-9.69144
不出	-9.69173
王子	-9.69281
曰君	-9.69282
愧	-9.69323
步	-9.69477
訟	-9.69488
盤	-9.69491
鸞	-9.69507
之日	-9.69537
岸	-9.69721
巨	-9.69771
徹	-9.69846
之民	-9.69846
邢	-9.69902
曰昔	-9.70094
浸	-9.70127
其父	-9.70241
何哉	-9.7026
鴻	-9.70427
三百	-9.70437
鎭	-9.70453
将軍	-9.70456
以爲	-9.70459
悖	-9.70462
爽	-9.70464
可知矣	-9.70492
此其	-9.70503
四十	-9.70507
其黨	-9.70578
哲	-9.70601
冲	-9.70773
譛	-9.70819
古人	-9.71059
失之	-9.71147
雞	-9.71167
死之	-9.71321
出入	-9.71343
謗	-9.71456
明年	-9.71512
大義	-9.71723
其實	-9.71742
拘	-9.71796
讎	-9.718
之術	-9.72029
相與	-9.72067
侮	-9.72172
書殺	-9.72299
神宗	-9.72345
京兆	-9.72355
完	-9.72411
髪	-9.72505
得之	-9.72548
守之	-9.72701
偃	-9.72708
採	-9.72755
肇	-9.72756
二字	-9.72947
不已	-9.72968
名也	-9.73073
溪	-9.73129
収	-9.7314
無忌	-9.73152
紫	-9.73184
三人	-9.73259
狐	-9.73296
大業	-9.73318
言其	-9.73396
纂	-9.73415
鑿	-9.73475
失其	-9.73487
其間	-9.7362
十七年	-9.73721
泰山	-9.73912
博士	-9.73934
韶	-9.73976
讒	-9.74053
志云	-9.74076
珠	-9.74081
束	-9.74095
環	-9.74146
訴	-9.74162
潁	-9.74169
弔	-9.74185
戾	-9.74217
鮮	-9.74228
之下	-9.74259
未聞	-9.74393
柱	-9.74416
諸州	-9.74432
臣祖禹曰	-9.74443
裔	-9.74465
鬼	-9.74479
廉	-9.74535
遣人	-9.74612
之患	-9.74677
本傳	-9.74703
曜	-9.74728
分注	-9.74743
本朝	-9.74818
抱	-9.74845
匹	-9.74851
殺人	-9.74886
州郡	-9.75009
何其	-9.75029
其民	-9.75037
文宗	-9.75072
而又	-9.75138
育	-9.75171
僭	-9.75175
秋八月	-9.75268
十七	-9.75463
丑	-9.75463
不亦	-9.75463
數萬	-9.75533
參知政事	-9.75541
従	-9.75553
東魏	-9.75695
穀	-9.75766
注見晉	-9.75986
之役	-9.76291
宛	-9.76325
不可不	-9.76362
三國	-9.76367
數十	-9.76489
以兵	-9.76505
排	-9.76589
𤣥宗	-9.76639
狥	-9.7667
無事	-9.76707
逮	-9.7671
鄰	-9.76768
十九年	-9.76806
遲	-9.7691
朔方	-9.76949
太師	-9.77042
豫章	-9.77077
郡名注見漢	-9.77077
東西	-9.77084
人情	-9.77116
買	-9.77262
矦	-9.773
麻	-9.77304
胄	-9.77604
未至	-9.77705
議者	-9.77749
代宗	-9.77761
曉	-9.77852
其勢	-9.77903
娶	-9.77958
殂	-9.77969
而卒	-9.77979
諸子	-9.78003
之才	-9.78077
傑	-9.78121
羡	-9.78323
詭	-9.78329
靣	-9.78332
又有	-9.78416
宇文	-9.78422
未必	-9.78422
妻子	-9.78531
二州名	-9.78537
穿	-9.78666
戊	-9.78688
巖	-9.78694
不勝	-9.78838
取其	-9.78904
茅	-9.7906
於外	-9.79259
姜	-9.79267
册	-9.79286
窺	-9.79389
䖍	-9.79396
斤	-9.79414
距	-9.79434
考證	-9.79436
東宫	-9.79483
矣而	-9.79565
忠臣	-9.79648
抵	-9.79699
漢之	-9.79778
等皆	-9.79866
此則	-9.79925
中興	-9.79979
其弟	-9.79995
地名	-9.80008
上皇	-9.80029
瑞	-9.80085
滛	-9.80097
註	-9.80126
益州	-9.80175
皆不	-9.80203
周之	-9.80214
曰卿	-9.80253
不容	-9.80294
涉	-9.80455
玩	-9.80464
含	-9.80468
慙	-9.80486
副使	-9.80754
欽定四庫全書	-9.80772
尼	-9.80791
其道	-9.80892
陜西	-9.80961
返	-9.81083
輕重	-9.81101
閭	-9.81188
功臣	-9.81271
使其	-9.81384
霍	-9.81386
進退	-9.81445
係	-9.8154
長沙	-9.81566
駿	-9.8158
鈞	-9.81587
偉	-9.81588
無功	-9.81647
䟽	-9.81665
可不	-9.81804
數千	-9.81867
圗	-9.81927
溝	-9.82021
弟子	-9.82053
東北	-9.8213
帳	-9.82214
頌	-9.82281
誦	-9.82304
以告	-9.82305
似道	-9.82379
其書	-9.82495
蒙	-9.8256
璽	-9.82633
風俗	-9.82784
趙王	-9.82808
從事	-9.82812
也然則	-9.82827
嬰	-9.82828
宫室	-9.82894
不應	-9.8296
肥	-9.82989
消	-9.83006
慢	-9.83015
伺	-9.83018
二十年	-9.83027
括地志云	-9.83078
内史	-9.83095
為政	-9.83148
數百	-9.83201
台	-9.83247
所殺	-9.83294
百餘	-9.83339
可見	-9.83348
照	-9.83391
閲	-9.83412
恣	-9.83547
未能	-9.836
巫	-9.83756
快	-9.83769
三千	-9.83784
孫權	-9.83857
所以為	-9.84001
遼東	-9.84122
廷尉	-9.84196
之制	-9.84342
慰	-9.84367
建武	-9.84413
之職	-9.84443
較	-9.84494
總管	-9.84494
叡	-9.84496
天子之	-9.8472
其功	-9.84768
癸	-9.8478
琳	-9.84807
也於是	-9.84837
緯	-9.84886
庾	-9.84886
脫	-9.84916
四夷	-9.84931
見之	-9.84941
泥	-9.84945
夏五月	-9.85035
宇	-9.85042
以見	-9.85255
灌	-9.85285
景帝	-9.85288
溺	-9.85448
夕	-9.85479
禽	-9.85486
巡	-9.85525
準	-9.85588
旗	-9.85649
湘	-9.85671
刋	-9.85695
在於	-9.85829
析	-9.85915
晉王	-9.85958
國人	-9.85984
祿山	-9.86006
遏	-9.86016
醫	-9.8603
不幸	-9.86053
炎	-9.8611
流涕	-9.86139
無道	-9.86406
巴延	-9.86417
下詔	-9.86434
伸	-9.86443
饒	-9.86507
待之	-9.86544
而下	-9.86552
封禪	-9.86555
踈	-9.8679
國史	-9.86791
繇	-9.86802
昧	-9.86803
宥	-9.86809
旋	-9.86851
擁	-9.86919
之論	-9.86932
可知	-9.87027
沂	-9.87073
履祥按	-9.87151
而復	-9.87159
縁	-9.8717
懸	-9.87203
偶	-9.87243
世之	-9.87275
宋人	-9.87289
楚人	-9.87313
而能	-9.87335
髙帝	-9.87342
見於	-9.87382
征伐	-9.87467
青州	-9.8748
彪	-9.87512
謨	-9.8753
者非	-9.87552
也又	-9.87565
枉	-9.87569
誼	-9.87579
墜	-9.87601
璧	-9.8762
也且	-9.87742
監軍	-9.8779
於上	-9.87843
祝	-9.87974
貸	-9.87984
昬	-9.88014
明矣	-9.88114
六十	-9.88153
歸之	-9.88155
世民	-9.88199
曰汝	-9.88259
劭	-9.88282
溫	-9.88296
騰	-9.88299
𦵏	-9.88328
繆	-9.8833
咨	-9.8834
叚	-9.8836
疲	-9.88379
䜛	-9.8838
事之	-9.88398
而天下	-9.88568
杞	-9.88683
關中	-9.88717
省入	-9.88884
謂曰	-9.89002
檄	-9.89019
安能	-9.89071
醉	-9.89148
琦	-9.89156
暮	-9.89185
將帥	-9.89217
燕王	-9.89226
虢	-9.89359
子儀	-9.89456
喬	-9.89476
忤	-9.89538
軰	-9.89546
去聲	-9.89561
勃	-9.89771
太廟	-9.898
安國	-9.90029
漢王	-9.90099
之文	-9.90104
宫中	-9.90202
可見矣	-9.90293
其能	-9.9034
大梁	-9.9041
群	-9.9051
熙	-9.90619
鋒	-9.90649
故名	-9.9069
之難	-9.9074
寕	-9.90745
羞	-9.90758
撓	-9.90766
德宗	-9.90782
腹心	-9.90824
紀綱	-9.90916
皆為	-9.90973
大抵	-9.91035
鼔	-9.9112
受其	-9.91154
局	-9.91156
詆	-9.91157
盗賊	-9.91179
為大	-9.91246
譚	-9.91255
卒子	-9.91268
正統	-9.91334
李氏	-9.91364
十餘萬	-9.91372
其母	-9.91405
以備	-9.91423
不聼	-9.91434
之主	-9.91508
豪傑	-9.91552
朱子	-9.91623
冬十一月	-9.91624
亦以	-9.91639
臯	-9.91718
春二月	-9.91734
河西	-9.91765
戰于	-9.91831
何不	-9.91836
惇	-9.91857
從容	-9.91861
注見唐	-9.91869
世宗	-9.91892
七十	-9.91897
腹	-9.91899
寨	-9.9193
展	-9.9193
溢	-9.91947
朋黨	-9.91952
肯	-9.91961
繹	-9.91979
二百	-9.92029
不正	-9.92144
侍郎	-9.92259
太史	-9.9227
之國	-9.9228
裂	-9.92312
墮	-9.92335
昇	-9.92354
邱	-9.9236
隔	-9.92372
鮮卑	-9.92386
仲淹	-9.92398
車駕	-9.92411
災異	-9.92583
租	-9.92623
瞻	-9.9276
改屬	-9.92784
周禮	-9.9298
晉主	-9.93025
吏民	-9.93104
復以	-9.93106
敝	-9.93138
停	-9.93163
苗	-9.93167
纔	-9.93169
天理	-9.9323
一言	-9.93241
并州	-9.93254
秦檜	-9.93316
以上	-9.93319
判官	-9.93342
猶有	-9.93401
之說	-9.93468
蓄	-9.93556
歎曰	-9.93578
罷之	-9.93598
祗	-9.93606
陋	-9.93614
迷	-9.9363
索隠曰	-9.93835
者哉	-9.93888
所言	-9.93893
酉	-9.93923
帥衆	-9.93943
王莽	-9.93976
卧	-9.94026
績	-9.94034
氏曰	-9.94159
者則	-9.94159
之外	-9.94212
上表	-9.94215
唐之	-9.94217
官軍	-9.94228
千餘	-9.94267
晚	-9.94296
諒	-9.94351
郤	-9.94386
奄	-9.94394
之死	-9.94402
究	-9.94412
精兵	-9.9442
校尉	-9.94435
演	-9.9447
謀反	-9.94532
僖	-9.94537
之情	-9.94569
以求	-9.94678
若是	-9.94732
十八年	-9.9475
有大	-9.94798
繩	-9.94805
孔子曰	-9.94805
粲	-9.94846
耗	-9.94878
荘	-9.94883
汾	-9.94928
無可	-9.95027
西南	-9.95033
闗中	-9.95118
以是	-9.95165
賴	-9.95217
冝	-9.95222
驛	-9.9523
汝南	-9.95319
始皇	-9.95351
童	-9.95366
梁王	-9.95461
亦可	-9.95469
之理	-9.95509
論之	-9.95513
平原	-9.95521
中丞	-9.95589
徇	-9.95595
國事	-9.95596
贖	-9.95621
帥師	-9.95625
也書	-9.95631
耿	-9.95677
額	-9.95686
之議	-9.95696
道也	-9.95712
曷	-9.95731
論曰	-9.95757
自立	-9.95846
自為	-9.9586
外戚	-9.95877
汗	-9.95976
自今	-9.95996
瑜	-9.95999
豈得	-9.96009
料	-9.96062
倡	-9.9609
闢	-9.96095
而止	-9.96156
以成	-9.96306
為一	-9.96335
其義	-9.96424
郡國	-9.96475
萌	-9.9648
閤	-9.96494
天道	-9.96496
軍事	-9.96534
弑其君	-9.96557
留守	-9.96686
遂以	-9.96711
河中	-9.96745
十餘	-9.96811
辭也	-9.96904
怯	-9.96917
翁	-9.96918
弛	-9.96928
冀州	-9.96951
伐之	-9.96952
仲尼	-9.97005
不失	-9.97109
後魏	-9.97152
内侍	-9.97173
諫曰	-9.97173
孟子曰	-9.97281
制度	-9.97286
安定	-9.97299
有天下	-9.97322
不死	-9.97347
苛	-9.97356
詢	-9.97365
不顧	-9.97415
魯侯	-9.97428
聰	-9.97531
惜哉	-9.97607
而行	-9.97627
張浚	-9.97641
范陽	-9.9767
恱	-9.97684
犬	-9.97712
蒼	-9.97722
不必	-9.97764
王安石	-9.97802
祁	-9.97865
裴度	-9.97941
之賢	-9.97942
平王	-9.97991
東平	-9.98028
已而	-9.98031
皇子	-9.98057
皇甫	-9.98124
踵	-9.98199
媚	-9.98205
其中	-9.98278
下書	-9.98288
禮義	-9.98293
王氏	-9.98377
入于	-9.98418
山在	-9.98515
城縣	-9.98518
范祖禹	-9.98544
嶺南	-9.98554
題	-9.98577
河内	-9.98609
潘	-9.98625
長子	-9.98646
課	-9.98669
靜	-9.98672
蹈	-9.98678
標	-9.98685
廢之	-9.98711
陽縣	-9.98719
可乎	-9.98927
常山	-9.9899
宦	-9.98999
莫敢	-9.99015
不成	-9.99024
無復	-9.99025
艾	-9.99088
臣下	-9.99097
先王之	-9.99118
耳目	-9.9912
其不	-9.99135
注見周赧王	-9.99157
武宗	-9.99207
惠帝	-9.99211
奏事	-9.99387
陛	-9.99392
卯	-9.99517
而書	-9.99547
虧	-9.99553
百萬	-9.99632
欲立	-9.99661
為天下	-9.99671
之語	-9.997
云云	-9.9972
事君	-9.99725
死於	-9.99729
一名	-9.99746
以致	-9.99784
甞	-9.99832
善惡	-9.99861
君子之	-9.99873
東海	-9.99959
漢之縣名屬	-9.99982
之弊	-9.99987
波	-10.0003
咸陽	-10.0012
再書	-10.0014
真宗	-10.0025
以聞	-10.0033
逞	-10.004
不疑	-10.0048
不暇	-10.0048
髙麗	-10.0048
州府	-10.0049
於人	-10.005
臣子	-10.0051
不食	-10.0059
注見漢光武建武	-10.0061
之利	-10.0063
利害	-10.0068
潁川	-10.0069
璋	-10.0072
沛	-10.0079
久矣	-10.0082
區	-10.0083
孝武	-10.0083
鳳翔	-10.0086
敷	-10.0087
生民	-10.0088
必不	-10.0088
順帝	-10.0089
悅	-10.0092
大破之	-10.0095
壇	-10.0096
不惟	-10.0101
互	-10.0108
諸道	-10.0111
皓	-10.0113
考之	-10.0115
泌	-10.0117
什	-10.0118
民間	-10.0118
亥	-10.012
歆	-10.0124
評	-10.0124
太傅	-10.0125
戌	-10.0127
包	-10.0128
璘	-10.013
徼	-10.0135
亳	-10.0135
侃	-10.0136
東坡	-10.0147
不待	-10.015
不善	-10.0161
事也	-10.0164
萬世	-10.0169
大王	-10.0175
經世	-10.0185
隂陽	-10.0187
夫以	-10.0189
其主	-10.019
他人	-10.0194
自將	-10.0201
武后	-10.0203
非有	-10.0208
洞	-10.0217
無異	-10.022
薊	-10.0221
陳留	-10.0234
大水	-10.0238
當以	-10.0243
之惡	-10.0254
僚	-10.0255
曰公	-10.0255
睿	-10.0258
托	-10.0262
級	-10.0262
味	-10.0264
庻	-10.0265
頒	-10.0267
諸路	-10.0268
之實	-10.0268
平陽	-10.0271
恵	-10.0281
者多	-10.0287
楚王	-10.0294
史通	-10.0294
司馬光	-10.0294
鄂	-10.0295
得志	-10.0301
柔然	-10.0302
山陽	-10.0304
上以	-10.0304
六國	-10.0306
冒	-10.0307
□	-10.0309
坊	-10.031
之權	-10.0311
譏之	-10.0312
三司	-10.0315
祈	-10.0315
者何	-10.0325
詩曰	-10.033
以禮	-10.0334
聖人之	-10.034
玠	-10.0341
漢武	-10.0342
晉人	-10.0351
頴	-10.0354
終不	-10.0354
飬	-10.0358
敎	-10.0358
嶽	-10.036
小人之	-10.036
公曰	-10.0361
一年	-10.0371
奪其	-10.0389
哈	-10.0398
稱臣	-10.04
甲子	-10.04
頼	-10.04
吐	-10.0406
大軍	-10.0409
進士	-10.0412
明堂	-10.0414
一百	-10.0415
安帝	-10.0416
何足	-10.0419
昆	-10.0423
不仁	-10.0424
之盛	-10.0431
淮西	-10.0437
瓘	-10.0437
穎	-10.0447
此乃	-10.0454
賔客	-10.0456
所部	-10.0459
行事	-10.0461
後漢	-10.0465
群臣	-10.0471
域	-10.0475
太常	-10.0477
揆	-10.0485
狼	-10.0494
挺	-10.0495
雍州	-10.0501
上黨	-10.0514
百年	-10.0523
不悦	-10.0536
綿	-10.0538
反覆	-10.0541
大將	-10.0553
五百	-10.0558
有言	-10.0561
旬	-10.057
此言	-10.0575
欒	-10.0581
迄	-10.0581
奕	-10.0582
欵	-10.0583
天之	-10.0587
則知	-10.0595
不報	-10.0599
混	-10.0602
後周	-10.0603
者有	-10.0612
光武建武	-10.0619
昭宗	-10.0642
出奔	-10.0642
禁中	-10.0656
百餘人	-10.0657
言曰	-10.0658
治之	-10.0665
苻	-10.0672
熹	-10.0673
之弟	-10.0675
洲	-10.0676
契丹主	-10.0679
洋	-10.0679
捷	-10.0682
出兵	-10.0685
釋之	-10.0714
莫能	-10.0715
諸國	-10.0715
其餘	-10.0716
深入	-10.0717
大司馬	-10.0718
不聞	-10.072
敗之	-10.0737
元帥	-10.0739
君父	-10.0742
何必	-10.0743
畿	-10.0747
之甚	-10.0751
也綱目	-10.076
國語	-10.0764
號曰	-10.0771
如何	-10.0773
脅	-10.0773
其失	-10.0774
之道也	-10.0774
練	-10.0774
不問	-10.0774
隐	-10.0776
林甫	-10.0777
本作	-10.0778
之任	-10.0783
蠻夷	-10.0793
河陽	-10.0798
萬餘	-10.0807
踐	-10.0815
此固	-10.0815
捐	-10.0818
淪	-10.0822
諸葛	-10.0828
曹公	-10.0834
金帛	-10.0837
恢	-10.0839
王命	-10.0844
江州	-10.0845
涼	-10.085
濟南	-10.0855
去之	-10.0858
區區	-10.0867
洗	-10.0871
北齊	-10.0872
凉州	-10.0876
之學	-10.0878
其有	-10.0878
為主	-10.088
弑君	-10.0885
為君	-10.089
而出	-10.0894
萬物	-10.0902
授之	-10.0913
斃	-10.0914
皇太后	-10.0915
鬭	-10.0918
披	-10.0919
高麗	-10.092
朱全忠	-10.0921
也此	-10.0923
州治	-10.0926
入城	-10.0934
往往	-10.0935
二千	-10.0937
召公	-10.0951
誨	-10.0953
不合	-10.0956
齋	-10.0963
吐谷渾	-10.0965
柳	-10.0966
䕫	-10.0969
童貫	-10.0969
氏之	-10.097
因其	-10.0976
各有	-10.0977
而殺之	-10.0982
無足	-10.0984
參軍	-10.0986
魏人	-10.0988
夏人	-10.0995
兖	-10.0996
無故	-10.0996
所當	-10.0997
故其	-10.1001
十九	-10.1002
衆心	-10.1003
太公	-10.1008
都尉	-10.1009
嬖	-10.101
獸	-10.101
綽	-10.101
昶	-10.1012
特穆爾	-10.1013
侯景	-10.1017
握	-10.1018
算	-10.1021
卦	-10.1024
三十里	-10.1033
耀	-10.1055
酷	-10.1057
冕	-10.106
何罪	-10.1079
宣王	-10.1095
終綱目	-10.1095
不義	-10.1095
數年	-10.1096
敗走	-10.1098
事在	-10.1107
柴	-10.1108
塵	-10.111
憾	-10.1112
茶	-10.1112
板	-10.1114
後主	-10.1119
猶未	-10.1119
二千石	-10.1127
以来	-10.1129
千人	-10.1138
數日	-10.1153
凌	-10.1158
直言	-10.1161
范氏曰	-10.1165
儼	-10.1168
如此則	-10.117
昔者	-10.1176
江東	-10.119
責之	-10.1196
之戒	-10.1197
耆	-10.1202
一朝	-10.121
氷	-10.121
滕	-10.1211
糾	-10.1211
或作	-10.1212
駐	-10.1212
豹	-10.1212
睦	-10.1213
大亂	-10.1216
止之	-10.1218
文學	-10.1219
陟	-10.1222
未及	-10.1226
晉書	-10.123
其才	-10.1232
五行	-10.1248
苟	-10.1255
劉向	-10.1258
鐸	-10.1262
奏請	-10.1265
國名	-10.128
縣名屬	-10.1284
以李	-10.1292
按一統志	-10.13
莊公	-10.1308
叱	-10.1309
柏	-10.1311
恬	-10.1314
悼	-10.1317
土地	-10.132
出師	-10.1321
禮也	-10.1322
渡河	-10.1324
宋之	-10.1325
駭	-10.1338
雖欲	-10.1342
隴西	-10.1343
分兵	-10.1349
禦之	-10.135
視之	-10.1351
號令	-10.1352
縣名注見漢	-10.1358
釐	-10.1358
勁	-10.136
状	-10.136
寓	-10.1361
賑	-10.1362
乃命	-10.1363
元昊	-10.1369
滎陽	-10.1374
建興	-10.1376
之業	-10.1377
雖然	-10.1379
蝗	-10.138
五帝	-10.1383
治亂	-10.1387
方士	-10.1389
五千	-10.1391
膺	-10.1395
鞅	-10.1403
牟	-10.1406
武昌	-10.1412
婁	-10.1413
囂	-10.1415
未知	-10.1419
其所以	-10.142
更名	-10.1422
之氣	-10.1424
遂與	-10.1424
吳王	-10.1425
有疾	-10.1425
李綱	-10.1427
所宜	-10.1437
不盡	-10.1449
矣夫	-10.1452
㑹于	-10.1455
用史記	-10.1458
効	-10.146
妹	-10.1461
囘	-10.1462
濁	-10.1462
迭	-10.1463
願陛下	-10.1464
有三	-10.1469
唐初	-10.147
河間	-10.147
曰若	-10.1471
烏珠	-10.1507
處之	-10.1508
饗	-10.1511
敘	-10.1511
故綱目	-10.1511
倒	-10.1512
㸃	-10.1513
鉤	-10.1514
或問	-10.1514
悍	-10.1515
以正	-10.1533
萬里	-10.1538
未盡	-10.1549
無一	-10.1552
吞	-10.1567
則無	-10.1568
之過	-10.1569
婢	-10.1569
為天子	-10.1575
秦之	-10.158
者其	-10.1588
法度	-10.1596
其職	-10.1597
自謂	-10.16
一書	-10.1601
顥	-10.1613
徧	-10.1616
韻	-10.1616
繼之	-10.163
因以	-10.1632
納之	-10.1645
雲中	-10.1649
無益	-10.165
而不可	-10.1658
牽	-10.1658
曠	-10.1665
兇	-10.1665
駢	-10.1665
勅	-10.1667
閑	-10.1668
未詳處所	-10.1668
可為	-10.1669
官名	-10.1693
讀書	-10.1698
書討	-10.17
亦無	-10.1708
貴人	-10.1711
寔	-10.1716
覩	-10.1721
之末	-10.1721
霍光	-10.1728
京城	-10.1733
稱王	-10.1749
其本	-10.1758
敗績	-10.1761
氐	-10.1763
以歸	-10.1767
𤓰	-10.1771
岱	-10.1773
而進	-10.1776
减	-10.1776
此其書	-10.1779
於民	-10.1788
不服	-10.1792
其臣	-10.1793
史臣	-10.1798
艱	-10.182
恂	-10.1824
芳	-10.1827
臂	-10.1827
侍御史	-10.1833
二州	-10.1833
之風	-10.1833
之憂	-10.1853
之子也	-10.1856
元元年	-10.1859
城下	-10.186
大國	-10.1864
矣今	-10.1865
不知所	-10.1867
卞	-10.1868
府庫	-10.1872
二世	-10.1873
攘	-10.1874
狗	-10.1875
饋	-10.1879
嶠	-10.188
汙	-10.188
項羽	-10.1888
於朝	-10.1894
見漢	-10.1896
得罪	-10.1896
言事	-10.1901
皇太子	-10.191
之號	-10.1913
轍	-10.1925
繕	-10.1929
黑	-10.1929
犇	-10.193
鑑	-10.193
碑	-10.1934
絹	-10.1936
三萬	-10.1936
至今	-10.194
姦臣	-10.1945
上疏曰	-10.1961
滅之	-10.1971
疇	-10.198
斂	-10.1981
鐘	-10.1982
遐	-10.1982
熙寧	-10.1982
雀	-10.1983
𣙜	-10.1986
其可	-10.1986
自取	-10.1994
而歸	-10.1995
聰明	-10.2003
不利	-10.2004
温公	-10.2006
上帝	-10.201
天變	-10.2013
渡江	-10.2013
之詞	-10.2014
郎中	-10.2015
劉裕	-10.2019
告之	-10.2026
砦	-10.2035
弩	-10.2037
五日	-10.2039
鈔	-10.2039
札	-10.2039
逵	-10.2039
座	-10.204
戈	-10.204
廹	-10.2041
膳	-10.2042
有二	-10.2045
泄	-10.2048
教之	-10.2049
賞罰	-10.205
而言	-10.2053
所得	-10.2056
大喜	-10.2066
豫州	-10.2066
知人	-10.2066
非其	-10.2068
不平	-10.2069
有一	-10.207
仍舊	-10.2073
注云	-10.2075
無他	-10.2075
也自	-10.2077
入見	-10.2079
怒曰	-10.2083
懦	-10.2084
錡	-10.2084
太康	-10.2088
未嘗不	-10.209
閒	-10.2094
唐書	-10.2095
廸	-10.2099
豈能	-10.2111
第一	-10.2123
邾	-10.2124
謂其	-10.2127
之兵	-10.213
罵	-10.2137
截	-10.2141
確	-10.2142
歴代名賢確論卷	-10.2145
湏	-10.2146
莫之	-10.2147
謫	-10.215
鄒	-10.215
宋公	-10.2151
近臣	-10.2152
兖州	-10.2153
終綱目書	-10.2164
縣西	-10.2166
宿衛	-10.2177
弑逆	-10.2184
其説	-10.2185
廢立	-10.2186
不能用	-10.219
不忘	-10.2191
縣東	-10.2196
梟	-10.2201
辦	-10.2202
搆	-10.2202
冉	-10.2202
檀	-10.2203
刃	-10.2206
像	-10.2208
為名	-10.221
大理	-10.2214
之數	-10.2215
昭公	-10.2225
問之	-10.2226
南郡	-10.2235
興元	-10.2237
高帝	-10.2243
魏王	-10.2246
朝政	-10.2248
乃與	-10.2249
時人	-10.225
銜	-10.225
伐鄭	-10.2253
姪	-10.2254
此亦	-10.2258
泗	-10.2259
銖	-10.2261
而欲	-10.2267
琮	-10.2267
未有書	-10.2268
扶風	-10.2269
乃遣	-10.2269
一切	-10.2273
陞	-10.2275
以罪	-10.2287
韓信	-10.2296
将兵	-10.2297
姦邪	-10.2299
此皆	-10.2301
其惡	-10.2304
而用之	-10.2305
摩	-10.2308
柵	-10.2314
故書	-10.232
諸将	-10.2328
十里	-10.2335
盜賊	-10.2336
和親	-10.2337
恢復	-10.2339
襄公	-10.2344
綰	-10.2363
浦	-10.2365
春秋時	-10.2365
綂	-10.2367
甸	-10.2368
促	-10.237
給事中	-10.2376
將相	-10.2376
帝以	-10.2376
唐室	-10.238
應之	-10.239
夏侯	-10.239
不絶	-10.2395
元和	-10.2399
暇	-10.2402
在外	-10.2403
實録	-10.2408
請以	-10.2411
鬻	-10.2417
塔	-10.2419
荷	-10.2422
紛	-10.2422
穴	-10.2423
鞏	-10.2425
不信	-10.2438
於其	-10.2438
斛	-10.2439
未詳	-10.2444
臨安	-10.2445
於前	-10.2453
也嗚呼	-10.2457
老子	-10.2462
西京	-10.2466
羲	-10.247
臣之	-10.2474
二十五年	-10.2476
孝文	-10.2478
龎	-10.2478
齎	-10.2479
潮	-10.2481
慧	-10.2481
其文	-10.2481
鞭	-10.2482
當是時	-10.2482
翰林	-10.2482
牲	-10.2484
萬餘人	-10.2494
於後	-10.2498
之敗	-10.2503
或以	-10.2506
後宫	-10.2517
中尉	-10.2518
帝崩	-10.2519
加以	-10.252
新法	-10.2527
昱	-10.2528
譖	-10.253
薩	-10.2531
穢	-10.2531
閏	-10.2534
之餘	-10.254
禍亂	-10.2543
太學	-10.2546
徳裕	-10.2554
曰天	-10.2558
宗社	-10.256
斬首	-10.2571
賜死	-10.2577
必欲	-10.2579
潤	-10.2581
於齊	-10.2584
邸	-10.259
揺	-10.259
孝宗	-10.2591
江西	-10.2591
銓	-10.2592
彧	-10.2592
凝	-10.2592
訖	-10.2592
國名注見	-10.2598
太和	-10.2599
始此	-10.2599
戎狄	-10.26
云爾	-10.2602
廣州	-10.2604
天地之	-10.2605
無窮	-10.2607
與其	-10.2608
詔曰	-10.2611
唐虞	-10.2612
靈公	-10.2627
中國之	-10.2632
太甲	-10.2638
朋	-10.2639
固守	-10.2639
歐陽	-10.2644
芻	-10.2646
譴	-10.2649
邕	-10.2649
枝	-10.265
愆	-10.265
贍	-10.265
闇	-10.2651
彈	-10.2651
琅邪	-10.2652
劍	-10.2652
萬一	-10.2652
大功	-10.2653
于此	-10.2658
固辭	-10.2659
耶律	-10.2661
慶厯	-10.2663
人所	-10.2676
小國	-10.2678
不通	-10.2683
安危	-10.2684
縣令	-10.2697
用人	-10.2699
儻	-10.27
若夫	-10.2701
沃	-10.2708
西伯	-10.2709
漁	-10.2711
堡	-10.2714
魏徴	-10.2716
通作	-10.2721
丹陽	-10.2731
於内	-10.2742
坦	-10.2752
之比	-10.2754
存亡	-10.2755
鮑	-10.2756
法也	-10.2759
公羊	-10.2762
晝	-10.2764
底	-10.2764
稹	-10.2769
哀帝	-10.2769
請降	-10.2772
力戰	-10.2773
遷都	-10.2774
匹夫	-10.2774
東京	-10.2775
也是故	-10.2777
義也	-10.2788
譬	-10.2792
大破	-10.2795
而反	-10.2803
官屬	-10.2805
萇	-10.2806
不下	-10.281
而自	-10.281
嘆	-10.2815
測	-10.2816
輔政	-10.2817
瑱	-10.2819
邇	-10.2819
遼主	-10.2822
彬	-10.2825
御史中丞	-10.2825
滑	-10.2827
太保	-10.2829
縛	-10.283
禹貢	-10.2839
武徳	-10.2846
死而	-10.2846
清河	-10.2851
信之	-10.2856
受之	-10.2862
漢主	-10.2867
縣省入	-10.2868
則不	-10.2871
望之	-10.2878
閻	-10.2878
價	-10.2879
弭	-10.2879
大小	-10.288
輪	-10.2881
粗	-10.2885
而退	-10.2887
妙	-10.2887
愍	-10.2889
長樂	-10.2911
幕	-10.2932
可得	-10.2934
臯陶	-10.2936
縣地	-10.2937
嫉	-10.2937
弄	-10.2938
嬴	-10.2939
其始	-10.294
龔	-10.294
暗	-10.2942
黄門	-10.2942
僻	-10.2943
億	-10.2945
譯	-10.2946
不肖	-10.2947
麾下	-10.2956
罪之	-10.2956
是嵗	-10.2967
卒以	-10.2967
王旦	-10.2971
果何	-10.2972
韓魏	-10.2974
留後	-10.2978
數人	-10.2978
秦人	-10.2979
江都	-10.2987
雉	-10.2992
自守	-10.2995
鳯翔	-10.2997
潔	-10.2997
豎	-10.2998
銳	-10.3
三十年	-10.3002
袁紹	-10.3002
憑	-10.3002
郡名注	-10.3005
下獄	-10.3008
庶幾	-10.3014
太史公	-10.3014
有異	-10.3021
所居	-10.3024
逺矣	-10.3032
自此	-10.3036
金陵	-10.3038
安有	-10.3044
畋	-10.3046
汲	-10.3055
都統	-10.3055
属	-10.3056
敞	-10.3058
鎬	-10.3058
翰林學士	-10.306
紏	-10.3061
歸于	-10.3075
朝夕	-10.3078
李克用	-10.3081
濮	-10.3085
為丞相	-10.3089
秘	-10.3089
沛公	-10.3089
得免	-10.3092
不忠	-10.3092
矣此	-10.3104
追之	-10.3109
吳越	-10.3111
殄	-10.3111
一時之	-10.3114
劇	-10.3115
沖	-10.3116
之力	-10.3117
諫官	-10.3118
了	-10.3121
壤	-10.3123
表請	-10.3129
花	-10.3129
臨朝	-10.3137
有是	-10.3138
天寳	-10.3138
入宫	-10.3139
更始	-10.3152
以為然	-10.3157
入冦	-10.3157
燾	-10.3163
何所	-10.3166
論語	-10.3174
囊	-10.3174
圭	-10.3175
注見秦	-10.3175
黃	-10.3176
渤海	-10.3176
彛	-10.3177
洽	-10.3177
摧	-10.318
奉天	-10.3181
敖	-10.3183
注見周顯王	-10.3184
武陵	-10.3197
子也	-10.3198
諡曰	-10.3199
不進	-10.3201
尚可	-10.3201
笑曰	-10.3203
石勒	-10.3209
九州	-10.3214
始於	-10.3217
易曰	-10.3218
本漢	-10.3218
王道	-10.3226
漢武帝	-10.3227
文章	-10.3231
涇	-10.3232
孚	-10.3234
顒	-10.3235
而亡	-10.3237
朴	-10.3237
邈	-10.3237
償	-10.324
禀	-10.3241
勒兵	-10.3244
男女	-10.3245
由此	-10.3245
圓	-10.3249
宣宗	-10.3257
昭烈	-10.3258
中書令	-10.3269
班固	-10.327
措	-10.3275
詔書	-10.3275
辜	-10.3278
之資	-10.3281
之孫	-10.3281
之黨	-10.329
蛇	-10.3295
瑕	-10.3296
頥	-10.3299
掾	-10.3299
裳	-10.33
詠	-10.3301
寘	-10.3302
禱	-10.3303
賁	-10.3304
於下	-10.3305
今乃	-10.3306
赦之	-10.3326
一曰	-10.3326
至矣	-10.3333
事而	-10.3338
非所以	-10.3342
楊氏	-10.3342
穆宗	-10.3343
也釋	-10.3349
瑗	-10.3354
尊號	-10.3357
劉備	-10.3358
盍	-10.3358
棄之	-10.336
侂胄	-10.3362
旌	-10.3362
随	-10.3362
瓦	-10.3362
姊	-10.3364
觀察使	-10.3366
左丞	-10.3367
江夏	-10.3371
有隙	-10.3376
所欲	-10.3378
之美	-10.3379
莊子	-10.3386
又何	-10.3394
蜀主	-10.34
箕子	-10.34
盟于	-10.34
西河	-10.3405
卽	-10.3415
故能	-10.3415
行省	-10.3415
桃	-10.3418
薪	-10.342
槩	-10.3421
衛侯	-10.3421
遮	-10.3422
冗	-10.3423
稔	-10.3424
綱目於	-10.3427
諸侯之	-10.343
太皇太后	-10.3444
是日	-10.3446
飲酒	-10.3448
敵國	-10.345
雖不	-10.3455
遂使	-10.3456
主上	-10.3464
尚書令	-10.3465
宣公	-10.3466
所載	-10.3471
行臺	-10.3472
定州	-10.3473
來朝	-10.3474
之體	-10.3476
所能	-10.3478
之内	-10.3479
泚	-10.3479
卭	-10.348
郡治	-10.3482
可勝	-10.3484
探	-10.3484
也哉	-10.3485
輝	-10.3485
蘓	-10.3485
㫁	-10.3485
匱	-10.3486
牀	-10.3487
牒	-10.3488
贄	-10.3488
魏博	-10.3488
詡	-10.3491
為臣	-10.3492
八十	-10.3495
錦	-10.3497
何以書	-10.3498
畝	-10.3499
或謂	-10.3501
魏公	-10.3503
不自	-10.3515
姦人	-10.3516
開封府	-10.3518
為善	-10.3519
故城在	-10.3528
克之	-10.3544
濤	-10.3547
儁	-10.355
紀傳	-10.3571
四人	-10.3572
後之	-10.3573
不得不	-10.3581
分為	-10.3582
正朔	-10.36
軍旅	-10.36
不止	-10.3603
恐其	-10.3605
正其	-10.3606
閹	-10.3608
戯	-10.3609
憐	-10.361
蹇	-10.361
閱	-10.3611
餉	-10.3613
扼	-10.3615
障	-10.3615
棺	-10.3617
秦州	-10.3627
漢置	-10.3628
也按	-10.363
儒者	-10.3633
莫若	-10.3634
以張	-10.3644
擊破之	-10.3645
紹興	-10.3651
名曰	-10.3655
婚	-10.3666
不屈	-10.3669
筠	-10.3672
綜	-10.3672
淑	-10.3672
活	-10.3672
回紇	-10.3676
棘	-10.3677
亨	-10.3678
布哈	-10.3678
之分	-10.3682
師道	-10.3689
衣冠	-10.369
宫人	-10.3697
伐齊	-10.3698
於是乎	-10.3701
飲食	-10.3704
滔	-10.371
子産	-10.3712
五萬	-10.3712
屯田	-10.372
殿下	-10.3726
蹙	-10.3731
昭帝	-10.3732
汪	-10.3733
大矣	-10.3733
弁	-10.3733
墟	-10.3736
晝夜	-10.3736
焦	-10.3736
斌	-10.3738
簿	-10.3738
遥	-10.3738
翦	-10.3743
索隱曰	-10.3743
鬼神	-10.3744
疑之	-10.3751
之屬	-10.3757
以天下	-10.3757
布衣	-10.377
惜之	-10.3771
知所	-10.3776
伯夷	-10.3777
一家	-10.3786
則亦	-10.3786
處士	-10.3787
乃使	-10.3787
希烈	-10.3788
必以	-10.379
其死	-10.379
而罷	-10.3793
生於	-10.3797
陂	-10.3803
蠧	-10.3806
㓕	-10.3806
士民	-10.3806
方鎮	-10.3807
以安	-10.3808
數月	-10.3809
笞	-10.381
舊制	-10.3815
列傳	-10.3816
之始	-10.3816
乎此	-10.3817
之節	-10.382
淮陽	-10.3833
不便	-10.3834
其時	-10.3835
鄆	-10.3836
王師	-10.3842
千餘人	-10.3843
死節	-10.3843
逐之	-10.3844
麾	-10.3844
歸於	-10.3847
縣南	-10.385
不易	-10.3852
而成	-10.3853
是亦	-10.3855
以取	-10.386
俠	-10.386
篡	-10.3861
爰	-10.3861
揖	-10.3861
漳	-10.3861
䑕	-10.3869
壽春	-10.387
村	-10.387
大同	-10.3871
平元年	-10.3874
民心	-10.3875
按此	-10.3876
睿宗	-10.388
曷為	-10.3884
昭王	-10.3885
自有	-10.3891
於天	-10.3892
秦始皇	-10.3893
其情	-10.3904
境内	-10.3908
蕭何	-10.391
西川	-10.391
國公	-10.3923
謚	-10.393
如故	-10.393
董卓	-10.3931
諛	-10.3931
碎	-10.3932
溥	-10.3934
初改	-10.3934
正人	-10.3936
枕	-10.3937
鯀	-10.3938
也謂	-10.3938
艱難	-10.394
姑息	-10.3943
圍之	-10.395
治天下	-10.395
其先	-10.3957
則天下	-10.3959
前日	-10.396
寡人	-10.3961
之位	-10.3964
可畏	-10.3968
吕氏	-10.3972
之意也	-10.3972
事不	-10.3972
衆皆	-10.3973
晉之	-10.3975
列國	-10.3977
後人	-10.3977
三輔	-10.3978
南海	-10.398
奇	-10.3986
涕	-10.3989
鬬	-10.399
冶	-10.3994
孽	-10.3995
蔣	-10.3996
羸	-10.3999
貎	-10.4001
俸	-10.4002
不可復	-10.4002
天下之大	-10.4003
賄	-10.4004
王公	-10.4004
不知其	-10.4008
太上皇	-10.402
女子	-10.402
夷簡	-10.4023
者謂	-10.403
起於	-10.4035
箕	-10.404
有此	-10.4046
佑	-10.4054
潞	-10.4054
愬	-10.4055
任之	-10.4057
旨	-10.4059
觸	-10.4062
從而	-10.4063
㦸	-10.4063
舘	-10.4064
郭子儀	-10.4064
逾	-10.4064
禽獸	-10.4067
暢	-10.4067
絲	-10.4067
成敗	-10.4068
宣慰	-10.4072
奉表	-10.4087
之流	-10.4095
䝉古主	-10.411
深矣	-10.4112
事者	-10.4114
之本	-10.4118
指揮使	-10.4121
其官	-10.4128
梅	-10.413
之辭也	-10.413
頻	-10.4132
紙	-10.4133
之䇿	-10.4135
富弼	-10.4141
有差	-10.4143
天意	-10.4145
諸郡	-10.4146
相國	-10.4151
一也	-10.4179
隕	-10.4186
所生	-10.419
匪	-10.4194
山川	-10.4197
贇	-10.4197
惠王	-10.4198
瀆	-10.4199
甥	-10.4204
聞其	-10.4209
隋主	-10.4216
為左	-10.4223
嗟	-10.4227
書以	-10.4233
欲殺	-10.4249
扈	-10.425
其禍	-10.4251
翔	-10.4252
河朔	-10.4253
沉	-10.4253
置酒	-10.4256
之家	-10.4256
瑾	-10.4256
寂	-10.4259
為右	-10.4261
麥	-10.4262
輦	-10.4262
裘	-10.4263
一二	-10.4267
嚮	-10.4267
水出	-10.4268
蟲	-10.4268
訥	-10.427
光弼	-10.4273
之㑹	-10.4274
地理志	-10.4275
𢎞農	-10.4275
聖賢	-10.4278
同列	-10.4279
其下	-10.4282
叅	-10.4285
久之	-10.4287
詩書	-10.4301
建徳	-10.4302
江左	-10.4304
時事	-10.4305
言也	-10.4308
未㡬	-10.431
始終	-10.431
兄子	-10.4319
公卒子	-10.432
者三	-10.4324
蔑	-10.4329
熾	-10.4329
嗣源	-10.4331
罹	-10.4331
洮	-10.4332
乎曰	-10.4333
其上	-10.4333
語曰	-10.4335
噐	-10.4336
楷	-10.4337
畔	-10.4338
揚雄	-10.4342
矣於是	-10.4343
其位	-10.4345
以問	-10.4347
上䟽	-10.4348
魏郡	-10.4349
金城	-10.4351
奭	-10.4359
立子	-10.4364
人倫	-10.4366
不樂	-10.4366
召之	-10.4367
二十三年	-10.4368
一統	-10.4371
以報	-10.4371
而入	-10.4372
然其	-10.4373
萊	-10.4376
厥後	-10.4378
父兄	-10.438
門下	-10.4381
竟不	-10.4382
明宗	-10.4389
三軍	-10.4392
榜	-10.4392
未易	-10.4392
御史大夫	-10.4396
禾	-10.4397
栗	-10.4399
以死	-10.44
起居	-10.4401
銘	-10.4401
苖	-10.4402
俯	-10.4403
諸葛亮	-10.4403
夫婦	-10.4403
巷	-10.4405
郡乾元初復為	-10.4407
舍人	-10.441
而民	-10.4412
以明	-10.4419
進攻	-10.4432
臣也	-10.444
不取	-10.4446
其將	-10.4448
莊宗	-10.4448
固已	-10.4448
數千人	-10.4449
酋	-10.4457
勝負	-10.4462
諧	-10.4462
諸臣	-10.4463
膽	-10.4464
塹	-10.4464
猜	-10.4465
章惇	-10.4465
藻	-10.4465
函	-10.4465
景公	-10.4466
甄	-10.4467
止於	-10.4468
舌	-10.447
阜	-10.447
几	-10.447
護	-10.4471
賈誼	-10.4473
桓帝	-10.4479
陽郡	-10.448
葵	-10.4481
原注	-10.4484
貴妃	-10.4485
事皆	-10.4486
草木	-10.4489
人才	-10.449
德裕	-10.449
作者	-10.4492
世充	-10.4502
則必	-10.4504
女真	-10.4505
諸人	-10.4505
無有	-10.4509
千載	-10.4516
掃	-10.4527
贓	-10.4531
膏	-10.4532
尼瑪哈	-10.4534
襄王	-10.4534
衮	-10.4536
剪	-10.4537
賚	-10.4538
壻	-10.4539
固非	-10.4539
靈武	-10.454
香	-10.4544
烏桓	-10.4546
大書	-10.4548
五十里	-10.4553
有才	-10.4554
不恤	-10.4565
之象	-10.4568
十餘人	-10.4571
大舉	-10.4581
桂	-10.4584
三鎮	-10.4591
大旱	-10.4594
城南	-10.4594
進兵	-10.4594
時有	-10.4596
鐡	-10.4605
拂	-10.4606
因而	-10.4607
僑	-10.4611
廣平	-10.4613
將以	-10.462
陳主	-10.4626
行營	-10.4627
道路	-10.4628
為文	-10.4634
十餘年	-10.4638
大驚	-10.4639
爾雅	-10.4642
封建	-10.4646
臺諫	-10.4662
的	-10.4668
歙	-10.4669
逺近	-10.467
途	-10.4671
不立	-10.4672
亂臣賊子	-10.4672
冢	-10.4672
狡	-10.4675
綴	-10.4677
諾	-10.4677
荅	-10.4677
頑	-10.4678
邯鄲	-10.4678
斧	-10.4679
稱其	-10.468
鴈門	-10.4681
鞠	-10.4682
歩騎	-10.4682
不獲	-10.4686
州後	-10.4693
又改	-10.4696
此所以	-10.4701
二萬	-10.4701
經畧	-10.4702
不自安	-10.4703
夏六月	-10.4705
欲使	-10.4717
社稷之	-10.472
必先	-10.4726
叔父	-10.4726
於秦	-10.4735
其謀	-10.4736
賓	-10.4736
馭	-10.4741
挫	-10.4745
燭	-10.4745
元嘉	-10.4745
愛之	-10.4746
網	-10.4746
康王	-10.4746
賜之	-10.4747
琛	-10.4748
值	-10.4748
顗	-10.4749
曄	-10.4751
鬱	-10.4751
撤	-10.4751
唱	-10.4751
此時	-10.4755
日夜	-10.4767
矣綱目	-10.4775
可與	-10.4785
和議	-10.4786
勣	-10.4791
羿	-10.4801
刪	-10.4808
韜	-10.4809
涪	-10.481
替	-10.481
而不書	-10.4811
大明	-10.4812
僊	-10.4815
秦漢	-10.4815
降之	-10.4816
貶之	-10.4817
𤼵	-10.4818
罷以	-10.4818
逰	-10.4818
偕	-10.482
同姓	-10.4821
壹	-10.4822
國政	-10.4825
圖之	-10.4829
邠	-10.483
永興	-10.4838
議論	-10.4841
獨不	-10.4845
餘衆	-10.4847
編年	-10.485
者所以	-10.4856
訛	-10.4861
許昌	-10.4864
陳平	-10.487
無過	-10.4878
郡隋	-10.4882
諜	-10.4884
享國	-10.4885
械	-10.4888
技	-10.489
骨肉	-10.4891
二十萬	-10.4892
三代之	-10.4892
矩	-10.4893
狎	-10.4893
向使	-10.4894
所由	-10.4896
下有	-10.4899
也况	-10.4905
理宗	-10.4905
得人	-10.4917
三州	-10.4917
誤國	-10.4919
年號	-10.492
功名	-10.4924
縣北	-10.4928
崖	-10.4931
黎陽	-10.4936
天監	-10.4945
王建	-10.4945
桐	-10.4951
少子	-10.4952
弋	-10.4956
殖	-10.4957
覘	-10.4957
塘	-10.4958
立功	-10.496
豳	-10.496
繡	-10.496
輜重	-10.4962
此所謂	-10.4963
飯	-10.4964
嘆曰	-10.4967
來降	-10.4969
為庶人	-10.4974
山南	-10.498
罪人	-10.4981
矣又	-10.499
東方	-10.4991
書弑	-10.4991
人言	-10.4996
湯武	-10.4996
再拜	-10.4999
與戰	-10.4999
以為不可	-10.5
軍國	-10.5
欲為	-10.5001
不能自	-10.5006
冬十二月	-10.5015
傳位	-10.5018
陽城	-10.5021
奉詔	-10.503
琰	-10.5033
廓	-10.5033
驟	-10.5033
豆	-10.5034
朝臣	-10.5036
喇	-10.5036
白馬	-10.5038
隗	-10.5039
五經	-10.5039
哲宗	-10.5042
伏兵	-10.5044
南詔	-10.5045
列侯	-10.5054
杭州	-10.5059
二十里	-10.5059
形勢	-10.5061
若不	-10.5062
勛	-10.5062
甲兵	-10.5068
不納	-10.5077
而自立	-10.5078
北漢	-10.5086
奪之	-10.5094
壅	-10.5099
亢	-10.5099
者乃	-10.5103
先君	-10.5103
冇	-10.5105
示之	-10.5105
晨	-10.5106
嚕	-10.5109
家人	-10.5109
逋	-10.511
昉	-10.5111
眷	-10.5112
坤	-10.5112
卿等	-10.5113
北方	-10.5114
建中	-10.5116
然也	-10.5118
五人	-10.5119
發眀	-10.512
曰夫	-10.5121
曰天子	-10.5124
學校	-10.5129
不聴	-10.5131
六軍	-10.5136
即日	-10.514
進取	-10.5144
二十七年	-10.5144
城在	-10.5148
對曰臣	-10.5154
安南	-10.5159
曰某	-10.5164
則非	-10.5166
魏晉	-10.5169
右丞	-10.517
在此	-10.5172
渝	-10.5172
道之	-10.5173
曦	-10.5175
駟	-10.5176
彥	-10.5177
揮	-10.5177
賢人	-10.518
師古	-10.5181
槐	-10.5182
無人	-10.5182
蠶	-10.5183
緣	-10.5186
閏月	-10.519
上文	-10.519
韓琦	-10.5193
大懼	-10.5195
自然	-10.5197
前代	-10.5199
提舉	-10.5203
數百人	-10.5205
叔孫	-10.5215
為司空	-10.5218
主之	-10.5222
百餘里	-10.5223
亡國	-10.5223
出降	-10.5229
根本	-10.5229
此非	-10.523
尋復	-10.5242
張良	-10.5243
場	-10.5245
燧	-10.5248
汚	-10.525
墳	-10.5251
聊	-10.5252
漠	-10.5253
涕泣	-10.5254
以義	-10.5258
曰彼	-10.5259
難以	-10.5259
元魏	-10.5269
用史記年	-10.5269
酋長	-10.5271
而起	-10.5274
皆在	-10.5277
夫何	-10.5288
而不敢	-10.5296
元初	-10.5299
予之也	-10.53
新城	-10.5305
委任	-10.5311
也言	-10.5316
盡力	-10.5318
拱	-10.532
泓	-10.5322
搜	-10.5323
隘	-10.5324
軒	-10.5327
魁	-10.5329
傲	-10.5332
前史	-10.5334
顧命	-10.5339
所以深	-10.5344
李林甫	-10.5348
髙歡	-10.535
尤甚	-10.535
永嘉	-10.5351
盡忠	-10.5353
人之所	-10.5354
三十六	-10.5368
官吏	-10.5369
此二	-10.5373
二十四	-10.5376
建成	-10.5377
帝王之	-10.5377
注見宋文帝元嘉	-10.5379
樞宻	-10.5381
不安	-10.5384
璟	-10.5391
戒之	-10.5392
出戰	-10.5393
倖	-10.5395
壓	-10.5395
魏以	-10.5396
脇	-10.5398
臘	-10.5398
故特書	-10.5399
猾	-10.5402
乎且	-10.5402
印綬	-10.5402
堰	-10.5402
南山	-10.5405
凡五	-10.5406
北伐	-10.5412
北海	-10.5415
譎	-10.5415
何故	-10.5416
平城	-10.5417
刑罰	-10.542
無敢	-10.5424
賢才	-10.5426
何異	-10.5428
隋初	-10.5432
以利	-10.5436
世忠	-10.5436
上有	-10.5438
而生	-10.5443
固有	-10.5444
壯士	-10.5448
諌曰	-10.5449
以著其	-10.545
天祥	-10.5452
忠良	-10.5455
詣闕	-10.5456
號為	-10.5459
執之	-10.546
獻帝	-10.546
名注見漢	-10.546
欣	-10.5465
縣名注	-10.5465
遺詔	-10.5466
之舉	-10.5469
兢	-10.547
昊	-10.547
為司徒	-10.5471
人有	-10.5472
之罪也	-10.5473
雙	-10.5474
系	-10.5474
覈	-10.5475
諂	-10.5477
埶	-10.5478
之治	-10.5478
邁	-10.5479
只	-10.5479
莫如	-10.5479
搏	-10.548
拾遺	-10.5481
控	-10.5482
桓温	-10.5483
論者	-10.5484
瓚	-10.5495
平章	-10.5497
乃還	-10.55
為帝	-10.5505
於道	-10.5506
梁武帝	-10.5512
其弊	-10.5518
道成	-10.5522
未有不	-10.5523
先主	-10.5524
所親	-10.5527
乆矣	-10.553
九江	-10.5532
膠	-10.5534
四川	-10.5537
亞	-10.5541
無遺	-10.5541
苞	-10.5542
洎	-10.5547
愼	-10.5547
潭	-10.5551
陽人	-10.5553
冐	-10.5554
京兆尹	-10.5554
下邳	-10.5555
佚	-10.5555
郯	-10.5555
元豐	-10.5555
那	-10.5555
明公	-10.5557
黜陟	-10.556
已上	-10.556
番	-10.5563
著書	-10.5569
甚衆	-10.5569
注見漢武帝	-10.557
次于	-10.5584
攻城	-10.5584
異也	-10.5585
張本	-10.5588
求之	-10.559
必無	-10.5591
亦未	-10.5594
一戰	-10.5595
乗勝	-10.5596
之樂	-10.5598
之請	-10.5609
生子	-10.561
子房	-10.5613
吕后	-10.5615
為亂	-10.5615
湖南	-10.5616
糴	-10.5617
而為之	-10.5617
疫	-10.5625
䜟	-10.5628
北地	-10.5631
塗炭	-10.5631
佗	-10.5632
不道	-10.5632
帖	-10.5635
謟	-10.5636
又言	-10.5636
領軍	-10.564
初置	-10.564
未定	-10.5651
惜乎	-10.5651
之機	-10.5654
自相	-10.5656
而使	-10.5658
欲與	-10.566
遣將軍	-10.5661
綱目之	-10.5663
沙門	-10.5663
東坡曰	-10.5667
哉故	-10.5668
四時	-10.5678
者惟	-10.5678
廬江	-10.5679
幸而	-10.568
之官	-10.5686
降者	-10.5687
進軍	-10.5695
沿	-10.5697
不滿	-10.5699
東郡	-10.5701
周室	-10.5702
迨	-10.5703
齊師	-10.5703
穆公	-10.5703
不亡	-10.5704
該	-10.5704
慘	-10.5706
織	-10.5706
紛紛	-10.5707
眼	-10.5707
浪	-10.5708
文侯	-10.5708
先後	-10.5709
相州	-10.571
黄巢	-10.571
大赦	-10.571
二十二年	-10.571
托克托	-10.571
人事	-10.5711
集傳曰	-10.5716
潞州	-10.5716
煬帝	-10.5724
紹聖	-10.5726
度支	-10.5727
英雄	-10.5728
永平	-10.5734
中郎將	-10.5738
而非	-10.5741
踰年	-10.5744
皆非	-10.5745
數十萬	-10.5746
李晟	-10.5749
中軍	-10.5754
哀公	-10.5754
縣西北	-10.576
求其	-10.5763
所用	-10.5765
則又	-10.5767
不加	-10.5769
史之	-10.5775
緡	-10.5779
輅	-10.578
信都	-10.5781
之盟	-10.5783
有事	-10.5783
紳	-10.5787
批	-10.5787
建寧	-10.579
故不	-10.579
黍	-10.5791
國忠	-10.5792
十有二	-10.5793
頸	-10.5798
除之	-10.5798
羽林	-10.5804
之極	-10.5809
成湯	-10.5809
無禮	-10.5809
甲申	-10.581
不一	-10.5814
萬年	-10.5817
表世家	-10.5817
丁謂	-10.5818
晋王	-10.5818
峽	-10.5821
胡氏	-10.5821
甚於	-10.5826
十卷	-10.5826
足矣	-10.5828
天水	-10.5832
戰於	-10.5841
而得	-10.5853
仍屬	-10.5854
永安	-10.5854
長孫	-10.5858
此舉	-10.5859
廩	-10.5861
拯	-10.5861
漆	-10.5861
不臣	-10.5862
巾	-10.5862
迪	-10.5863
駮	-10.5863
從者	-10.5865
妨	-10.5867
碩	-10.5868
躍	-10.5868
諸賢	-10.5868
從珂	-10.5868
一綂志云	-10.587
畤	-10.5871
討平之	-10.5872
瓌	-10.5875
死生	-10.5882
非也	-10.5883
注見周	-10.5887
見矣	-10.5888
建國	-10.5888
靈帝	-10.5898
譏也	-10.5903
居之	-10.5904
公私	-10.5906
諸儒	-10.5908
亦非	-10.5909
要害	-10.591
漢為	-10.5914
其辭	-10.5917
諸生	-10.5918
之恩	-10.5918
朝士	-10.5921
注見梁武帝	-10.5922
者衆	-10.5924
終身	-10.5925
此類	-10.5934
軾	-10.5939
迎之	-10.5939
易之	-10.594
瓉	-10.5941
在上	-10.5941
烝	-10.5943
崇韜	-10.5944
曼	-10.5946
璠	-10.5946
澗	-10.5947
勤王	-10.5948
籌	-10.5949
來歸	-10.595
沐	-10.595
識者	-10.595
寤	-10.5951
亦何	-10.5951
釗	-10.5953
重耳	-10.5954
李斯	-10.5955
延壽	-10.5957
去其	-10.596
不思	-10.5961
不能制	-10.5961
功業	-10.5961
也終綱目書	-10.5962
漢初	-10.5963
孔氏	-10.5971
其過	-10.5976
甚厚	-10.5978
元鼎	-10.5978
天文	-10.5981
臣等	-10.5983
三分	-10.5985
禍福	-10.5986
固請	-10.5987
相攻	-10.5988
庶人	-10.5992
武功	-10.5997
徒以	-10.5998
隅	-10.5999
七國	-10.6
季氏	-10.6001
此綱目	-10.6001
不治	-10.6007
壽陽	-10.6009
諸君	-10.6011
然亦	-10.6011
複	-10.6012
以救	-10.6014
或有	-10.6015
也非	-10.6019
一事	-10.6021
蠲	-10.6023
眉	-10.6023
岡	-10.6026
晞	-10.6027
徙治	-10.6028
岷	-10.603
其力	-10.6031
春秋書	-10.6031
隊	-10.6032
皆曰	-10.6032
不悟	-10.6033
讀曰	-10.6034
絶之	-10.6034
為尚書	-10.6035
劉豫	-10.6037
注同上年	-10.604
王珪	-10.6043
天下者	-10.6047
有過	-10.6052
戰敗	-10.6053
之用	-10.6053
書卒	-10.606
殆盡	-10.6062
無辜	-10.6062
美之	-10.6063
諸公	-10.6067
叛降	-10.6068
州名	-10.6071
漢髙帝	-10.6074
正色	-10.6076
中人	-10.6078
不去	-10.6081
遣使如	-10.6087
宗族	-10.6089
天寶	-10.6089
人主之	-10.6094
㳺	-10.6095
尋陽	-10.6098
壺	-10.6099
先儒	-10.61
寗	-10.61
追尊	-10.6101
勵	-10.6102
顛	-10.6102
詎	-10.6102
佳	-10.6103
汜	-10.6104
為正	-10.6107
亦當	-10.6124
之北	-10.6124
平章事	-10.6128
夫豈	-10.613
節制	-10.613
復遣	-10.614
於國	-10.6142
周赧王	-10.6145
法令	-10.6146
而書之	-10.6151
武都	-10.6152
已有	-10.6168
所書	-10.6179
中使	-10.618
為皇太子	-10.6181
鶴	-10.6182
惡其	-10.6183
佩	-10.6183
暑	-10.6183
狹	-10.6183
層	-10.6184
君命	-10.6186
悉以	-10.6187
慝	-10.6188
俶	-10.6189
郁	-10.6189
泛	-10.619
方且	-10.6194
徐廣曰	-10.6194
安民	-10.6194
獲罪	-10.6198
不動	-10.6199
郡唐	-10.6202
上意	-10.6203
祭祀	-10.6204
秋九月	-10.6204
唐以	-10.6206
城北	-10.621
山崩	-10.6211
史記曰	-10.6212
十五里	-10.6222
凡書	-10.6223
章帝	-10.6234
不逮	-10.6235
諸部	-10.624
王曰	-10.6241
末年	-10.6242
其故	-10.6244
與人	-10.6248
復何	-10.6248
居中	-10.6253
愛民	-10.6264
芝	-10.6266
濡	-10.6266
紇	-10.6267
屍	-10.6267
暨	-10.6267
滯	-10.6267
藁	-10.6268
俞	-10.6269
霜	-10.627
掘	-10.627
淹	-10.627
寖	-10.6271
覃	-10.6271
為上	-10.6274
瑀	-10.6275
道士	-10.6277
乗輿	-10.6278
也雖然	-10.6279
安王	-10.6282
率衆	-10.6282
泣曰	-10.6283
人物	-10.6283
分道	-10.6284
則天	-10.6291
部曲	-10.6293
春三月	-10.6297
陞為	-10.6299
曰王	-10.6299
代王	-10.6302
四百	-10.6302
八百	-10.6303
則不然	-10.6305
越王	-10.6308
九十	-10.6317
以拒	-10.6319
説文	-10.6322
初改為	-10.6329
泰始	-10.6331
城東	-10.6334
南宫	-10.6336
如字	-10.6336
長吏	-10.6336
也乃	-10.6337
峴	-10.6339
之重	-10.6342
懋	-10.6348
椒	-10.6349
駱	-10.6351
剖	-10.6352
則當	-10.6354
書于冊	-10.6355
黯	-10.6356
改曰	-10.6358
漕	-10.6358
沁	-10.6359
有寵	-10.6363
元康	-10.6365
延年	-10.6366
智者	-10.6368
之性	-10.637
和元年	-10.6371
李德裕	-10.6372
制置使	-10.6377
懷光	-10.6378
比干	-10.6385
魏書	-10.6386
必書	-10.6386
教化	-10.6387
吏部	-10.6388
涿	-10.6394
滄州	-10.6398
惠公	-10.6398
綱紀	-10.6398
黔	-10.6405
叙事	-10.6407
成公	-10.6409
異端	-10.6411
矣其	-10.6415
至公	-10.6421
此又	-10.6422
孺子	-10.6424
嗣位	-10.6424
上怒	-10.6425
子西	-10.6427
古文	-10.6429
時政	-10.6429
以前	-10.643
朂	-10.643
之誅	-10.643
在西安府	-10.6432
茂貞	-10.6433
御批資治通鑑綱目卷	-10.6433
何譏	-10.6434
于時	-10.6435
想	-10.6436
烹	-10.6436
健	-10.6437
廣漢	-10.6442
崔浩	-10.6446
六卿	-10.6448
置之	-10.645
太宰	-10.6452
知有	-10.6454
堯之	-10.6456
以私	-10.6457
欲自	-10.6459
卒于	-10.646
遣中使	-10.646
福州	-10.6465
睢	-10.6465
何得	-10.6468
善之	-10.6473
而行之	-10.6474
非常	-10.6475
宣武	-10.6475
而忘	-10.6482
燕主	-10.6482
左丞相	-10.6484
其子孫	-10.6488
極言	-10.6488
賞賜	-10.6491
取天下	-10.6494
漢文帝	-10.6496
輔國	-10.6499
自以為	-10.6501
止書	-10.6505
翻	-10.6507
人君之	-10.6507
禮記	-10.6509
之教	-10.6509
驍	-10.651
鄜	-10.6512
患之	-10.6512
貝	-10.6512
漁陽	-10.6514
製	-10.6514
荆南	-10.6515
它	-10.6516
故特	-10.6516
興復	-10.6516
熱	-10.6517
岑	-10.6519
稼	-10.6519
構	-10.652
纎	-10.6521
染	-10.6521
猷	-10.6522
范仲淹	-10.6523
東晉	-10.6523
繋	-10.6524
奐	-10.6527
力士	-10.6528
賢相	-10.6528
貲	-10.6529
靈州	-10.6531
轉運使	-10.6534
都䕶	-10.6535
僖宗	-10.6538
石頭	-10.6544
曰善	-10.6546
起復	-10.6552
有常	-10.6554
行而	-10.6562
為宰相	-10.6568
獨孤	-10.6568
天祐	-10.657
十日	-10.6578
者盖	-10.6578
縣西南	-10.6582
彗	-10.6583
者又	-10.6586
曲沃	-10.6592
而終	-10.6593
充國	-10.6596
也蓋	-10.6596
乙酉	-10.66
所以著	-10.6603
壮	-10.6604
霄	-10.6604
鉅鹿	-10.6604
倦	-10.6605
郵	-10.6606
迂	-10.6607
監察御史	-10.6609
惲	-10.6609
者蓋	-10.661
祜	-10.6611
國家之	-10.6613
歟曰	-10.6615
上乃	-10.6617
以討	-10.6617
安可	-10.6618
扵是	-10.6621
安在	-10.6622
於斯	-10.6623
李泌	-10.6628
仍為	-10.663
思之	-10.6636
句絶	-10.6641
于周	-10.6643
貢獻	-10.6644
羣小	-10.6646
乃詔	-10.665
名注	-10.6651
斯言	-10.6652
異於	-10.6664
視事	-10.6667
於世	-10.6667
是則	-10.6672
而求	-10.6675
三子	-10.6677
嘗謂	-10.6679
之明	-10.668
覬	-10.668
則可	-10.6681
亶	-10.6681
莾	-10.6684
復書	-10.6685
其兄	-10.6687
隣	-10.6687
二十四年	-10.6687
㳟	-10.6688
也昔	-10.6691
之要	-10.6691
諤	-10.6691
誇	-10.6691
模	-10.6692
上命	-10.6693
躁	-10.6693
蠡	-10.6695
中書侍郎	-10.6695
終於	-10.6697
亦曰	-10.67
門外	-10.6703
惟恐	-10.6709
安西	-10.6712
相見	-10.6712
為是	-10.6712
立太子	-10.6719
親戚	-10.6721
六經	-10.6726
至如	-10.6726
可知也	-10.6727
意也	-10.6728
滄	-10.6728
叔向	-10.6731
凡例	-10.6737
京口	-10.6746
禧	-10.6748
愚謂	-10.6749
漢光武	-10.6756
曰天下	-10.6759
國用	-10.6759
艦	-10.6759
周書	-10.6763
故云	-10.6765
馮翊	-10.6765
大體	-10.6766
之亡	-10.677
縊	-10.677
往來	-10.6772
恊	-10.6773
隄	-10.6774
雕	-10.6775
靖康	-10.6775
版	-10.6776
銷	-10.6777
芮	-10.6778
如淳曰	-10.678
琴	-10.6781
所致	-10.6782
有可	-10.6784
之害	-10.6784
惜其	-10.6785
治平	-10.6792
縱横	-10.6793
周公之	-10.6796
旬日	-10.6798
延夀	-10.6806
禄山	-10.6808
堅守	-10.6811
季孫	-10.6812
極矣	-10.6814
之私	-10.6816
本朝因之改屬	-10.6816
唐置	-10.6824
忌之	-10.683
者一	-10.6834
名在	-10.6834
入貢	-10.6835
二十五	-10.6838
之望	-10.6841
大掠	-10.6841
志在	-10.6843
為後	-10.6845
熲	-10.6851
得乎	-10.6855
哩	-10.6855
收其	-10.6857
殤	-10.6858
則曷為	-10.6859
拾	-10.686
拉	-10.686
慶之	-10.686
販	-10.686
相如	-10.6862
髮	-10.6862
遂至	-10.6866
庇	-10.6866
身為	-10.6867
不由	-10.6868
慶府	-10.6869
郡王	-10.6876
此節	-10.6877
為民	-10.6883
命之	-10.6887
始置	-10.6889
後來	-10.6891
嚴矣	-10.6892
大計	-10.691
助之	-10.6911
昌邑	-10.6911
水之	-10.6914
烏孫	-10.6914
一月	-10.6916
也是以	-10.6921
龍門	-10.6922
掲	-10.6923
舊作	-10.6929
珙	-10.6933
闔	-10.6942
亡國之	-10.6942
議之	-10.6943
乃得	-10.6945
箭	-10.6947
顓頊	-10.6949
澹	-10.695
授以	-10.695
陸贄	-10.6953
紊	-10.6953
渙	-10.6954
始此終綱目書	-10.6954
倣	-10.6954
不稱	-10.6955
移檄	-10.6962
特以	-10.6969
第五	-10.697
也盖	-10.6974
報之	-10.6985
奏曰	-10.6985
不順	-10.6986
乎夫	-10.6987
以濟	-10.699
聲色	-10.699
矣乃	-10.699
乗之	-10.6991
後改	-10.6991
不入	-10.6995
子由	-10.7003
以俟	-10.7004
又書	-10.7005
過於	-10.7007
復有	-10.7008
又論	-10.7009
建元	-10.7011
譌	-10.7011
黼	-10.7015
臣恐	-10.7016
安撫	-10.7017
從其	-10.7017
五代時	-10.7017
耳今	-10.7019
急於	-10.7023
五里	-10.7024
黙然	-10.7028
左遷	-10.7028
圉	-10.7029
兵至	-10.7032
譜	-10.7033
奬	-10.7033
曰子	-10.7033
慟哭	-10.7035
濵	-10.7037
不可勝	-10.704
翊	-10.7041
坑	-10.7042
犒	-10.7044
謡	-10.7047
干戈	-10.705
大紀	-10.7053
權衡	-10.7064
亦不能	-10.7066
興亡	-10.7067
其流	-10.7072
絶其	-10.7074
趙普	-10.708
前此	-10.7081
忠直	-10.7081
欲令	-10.7081
得天下	-10.7082
而用	-10.7084
乃復	-10.7085
范祖禹論	-10.7086
丁未	-10.7086
太宗之	-10.709
山陵	-10.7091
必死	-10.7099
不可用	-10.7099
而可	-10.7101
武公	-10.7102
親征	-10.7105
一無	-10.711
退而	-10.7111
楚之	-10.7113
取士	-10.7115
何益	-10.7117
所向	-10.7119
治所	-10.712
厲公	-10.7121
何者	-10.7125
之手	-10.7127
而食	-10.7127
賜以	-10.7129
刁	-10.713
藍	-10.713
泯	-10.7132
隴右	-10.7132
飽	-10.7132
紿	-10.7132
吏部尚書	-10.7132
峯	-10.7132
扞	-10.7133
上官	-10.7133
詧	-10.7133
有道	-10.7133
使民	-10.7135
圜	-10.7135
傳云	-10.7137
魏州	-10.7137
嶷	-10.7138
可否	-10.7139
愔	-10.714
其一	-10.7141
不可得而	-10.7146
於君	-10.7146
后稷	-10.7147
王使	-10.715
兵於	-10.7163
謂之曰	-10.7168
不殺	-10.7171
威福	-10.7176
陵人	-10.7178
固當	-10.718
之物	-10.7181
其城	-10.7185
令尹	-10.7189
而輕	-10.7195
為治	-10.7197
逃歸	-10.7208
公羊傳	-10.7208
讜	-10.7208
大風	-10.7209
於魏	-10.7209
拓	-10.7212
所至	-10.7212
伐魏	-10.7215
酖	-10.7215
赫	-10.7215
規模	-10.7217
民力	-10.7217
䛕	-10.7217
駁	-10.7217
帷	-10.7218
朱子曰	-10.7219
灼	-10.7219
飢	-10.7219
畀	-10.7221
晃	-10.7221
榆	-10.7222
仆	-10.7222
懇	-10.7222
愷	-10.7222
上問	-10.7224
好學	-10.7224
甘露	-10.7226
埋	-10.7227
制之	-10.7227
無得	-10.7233
廟號	-10.7234
招討使	-10.7235
盧龍	-10.7239
不堪	-10.7245
宜矣	-10.7246
可得而	-10.7249
不識	-10.7252
百人	-10.7253
舊書	-10.7258
誤作	-10.726
焉耳	-10.726
不以為	-10.7264
下文	-10.7269
今又	-10.7273
二十六年	-10.7279
於周	-10.7279
罪也	-10.7286
知逺	-10.7289
零	-10.7296
忠賢	-10.7297
此之謂	-10.73
之長	-10.7301
棟	-10.7305
態	-10.7308
表裏	-10.7309
金兵	-10.7309
明帝永平	-10.731
捍	-10.7311
僥倖	-10.7312
善政	-10.7314
菜	-10.7315
行也	-10.7317
召見	-10.7321
其法	-10.7323
勸進	-10.7323
罷兵	-10.7323
於漢	-10.7324
以身	-10.7326
者豈	-10.7328
削之	-10.7331
自此始	-10.7336
也如	-10.7336
其妻	-10.7336
曰凡	-10.7339
州元	-10.734
紀年	-10.7342
始有	-10.7343
所獲	-10.7345
武庚	-10.7346
衡山	-10.7348
承嗣	-10.7361
主簿	-10.7364
輕騎	-10.7367
上谷	-10.7369
武侯	-10.7371
已降	-10.7373
縣東北	-10.738
其私	-10.7381
請和	-10.7383
臣竊	-10.7384
蕪	-10.7385
下令	-10.7386
之可也	-10.7387
不可得	-10.7391
書詔	-10.7393
於此置	-10.7396
鄭人	-10.7396
中有	-10.7397
冡	-10.7401
鼻	-10.7401
過失	-10.7401
彘	-10.7401
王崩	-10.7402
冰	-10.7403
又欲	-10.7404
危亡	-10.7407
岳飛	-10.741
汶	-10.741
零陵	-10.7411
二帝	-10.7419
張掖	-10.7419
複姓	-10.742
長驅	-10.7432
君子小人	-10.7433
部落	-10.7438
一身	-10.7441
祖宗之	-10.7441
若有	-10.7442
也豈	-10.7448
為此	-10.7448
可矣	-10.745
三思	-10.7452
守光	-10.7465
安世	-10.7468
築城	-10.7469
故雖	-10.7472
之常	-10.7477
轉運	-10.7478
上聞	-10.7478
又遣	-10.7484
者多矣	-10.7485
姻	-10.7488
復讐	-10.7488
西漢	-10.7488
猶可	-10.7489
寫	-10.7491
頊	-10.7493
楊素	-10.7493
潼關	-10.7493
赴之	-10.7493
潭州	-10.7495
伶	-10.7495
戕	-10.7495
南康	-10.7495
委之	-10.7496
寡君	-10.7497
妬	-10.7498
汲汲	-10.7499
敇	-10.75
兵柄	-10.7501
顧引拾	-10.7501
縣東南	-10.7501
相去	-10.7503
華州	-10.7504
創業	-10.7507
叔文	-10.7509
不改	-10.7511
若曰	-10.7511
國號	-10.7513
其徒	-10.7513
分註	-10.7513
析置	-10.7515
四十里	-10.7517
源出	-10.7517
豈無	-10.7519
二三	-10.7521
過人	-10.7522
漢光武建武	-10.7525
興師	-10.753
繼書	-10.7531
車騎	-10.7536
宣子	-10.7537
而猶	-10.7538
内臣	-10.7539
之首	-10.7541
宋以	-10.7541
欽若	-10.7543
得一	-10.7548
或云	-10.7548
綬	-10.7551
乾元	-10.7553
伐宋	-10.7555
所立	-10.7557
歴代	-10.7558
言語	-10.7562
泗州	-10.7567
大呼	-10.7572
而乃	-10.7576
珣	-10.7581
北面	-10.7582
綸	-10.7586
同心	-10.7586
令孜	-10.7586
者謂之	-10.7587
暫	-10.7589
禕	-10.759
宸	-10.759
以避	-10.7591
桓子	-10.7591
聚歛	-10.7592
珽	-10.7592
鷹	-10.7594
城門	-10.7602
莫大於	-10.7605
吉凶	-10.7614
趙氏	-10.7622
棄市	-10.7622
行宻	-10.7623
國也	-10.7623
汴州	-10.7624
千古	-10.7626
新書	-10.7627
四十餘	-10.7634
庶子	-10.764
桓帝延熹	-10.7643
無子	-10.7643
州屬	-10.7647
相位	-10.7651
者此	-10.7652
貞元	-10.7656
有變	-10.7663
正名	-10.7666
義陽	-10.7667
蘄	-10.7674
寝	-10.7676
隰	-10.7677
藴	-10.7678
肩	-10.768
上漏	-10.7681
惶	-10.7681
一字	-10.7682
遁去	-10.7683
叟	-10.7684
輟	-10.7684
敬宗	-10.7688
穰	-10.7688
涯	-10.7688
庠	-10.7688
敦煌	-10.769
已下	-10.7694
嘗為	-10.7694
别駕	-10.7695
此事	-10.7696
諭之	-10.7698
兵敗	-10.77
雲南	-10.7707
既已	-10.771
故地	-10.7711
亦猶	-10.7715
注見漢獻帝建安十	-10.7716
陜州	-10.7717
擅權	-10.772
禮之	-10.7723
開門	-10.7727
數十人	-10.7731
㐮	-10.7733
趙鼎	-10.7735
否則	-10.7735
季子	-10.7736
非所	-10.7736
亡而	-10.7738
人多	-10.7741
而况	-10.7742
掖	-10.7745
矯詔	-10.7746
於諸侯	-10.7746
退保	-10.775
者二	-10.7751
亡也	-10.7755
而未	-10.7756
又使	-10.7761
竦	-10.7766
繼遷	-10.7766
賢也	-10.7767
文子	-10.7769
把	-10.777
而致	-10.777
轅	-10.7772
如晉	-10.7773
苻堅	-10.7774
嗜	-10.7775
二王	-10.7776
魄	-10.7776
虎牢	-10.778
酈	-10.7782
磨	-10.7783
囘紇	-10.7783
鷄	-10.7785
叩頭	-10.7788
昌黎	-10.7789
固不	-10.779
其次	-10.7791
皆書	-10.7792
太伯	-10.7792
注同上	-10.7795
太白	-10.7796
桂陽	-10.7797
其兵	-10.7797
遂殺	-10.7798
年表	-10.7802
忠於	-10.7804
元年春正月	-10.7805
敗死	-10.7806
謁者	-10.7807
懼而	-10.781
秘書	-10.7815
堯舜之	-10.782
無愧	-10.7822
乘勝	-10.7822
副之	-10.7825
延賞	-10.7828
義康	-10.783
察其	-10.7831
付之	-10.7835
十人	-10.7835
治道	-10.7843
努	-10.7844
多所	-10.7845
君臣之	-10.7849
魏收	-10.7855
所取	-10.786
水陸	-10.7863
臣燾曰	-10.7865
鎔	-10.7865
偪	-10.7868
初無	-10.787
輯	-10.7872
晩	-10.7872
茹	-10.7872
犀	-10.7874
磧	-10.7876
刄	-10.7877
大節	-10.7877
凡三	-10.7877
當國	-10.7877
塟	-10.7878
塲	-10.7878
一篇	-10.7878
彦博	-10.7879
管蔡	-10.7882
賢良	-10.7883
桀紂	-10.7885
荆公	-10.7887
無私	-10.7889
者或	-10.789
神仙	-10.7893
殿中	-10.7895
悲夫	-10.7903
臨淮	-10.7908
兵馬使	-10.7909
六百	-10.7915
武子	-10.7916
弗克	-10.7921
最為	-10.7923
者當	-10.7923
神武	-10.7924
變而	-10.7924
七十里	-10.7926
且曰	-10.7935
魯人	-10.7936
楚州	-10.7937
入海	-10.7938
文字	-10.7938
是爲	-10.7949
兵馬	-10.7949
明其	-10.7951
相持	-10.7953
其善	-10.7953
死不	-10.7954
逖	-10.7956
以待之	-10.7957
于天	-10.7964
叢	-10.7967
譲	-10.7967
拒守	-10.7969
禆	-10.7969
涇原	-10.7972
回鶻	-10.7972
袍	-10.7973
楊國忠	-10.7973
邑名	-10.7975
當世	-10.7976
赤眉	-10.7977
九錫	-10.798
就國	-10.7982
分置	-10.7987
三省	-10.7988
盛徳	-10.7988
當有	-10.7993
帝乃	-10.7993
不果	-10.7993
賢而	-10.7997
之端	-10.7997
母弟	-10.8
求諸	-10.8002
無君	-10.8004
懐恩	-10.8004
著其	-10.8005
惟其	-10.8006
安置	-10.8008
流俗	-10.8009
賜姓	-10.801
承天	-10.8013
之迹	-10.8014
王者之	-10.8015
今年	-10.8016
無常	-10.802
茍免	-10.8023
睢陽	-10.803
至徳	-10.8031
帝怒	-10.8032
避之	-10.8033
求和	-10.8034
二者	-10.8038
於時	-10.8039
梓	-10.8039
弑之	-10.8042
行至	-10.8045
一而已	-10.8051
至京師	-10.8052
稱制	-10.8052
伋	-10.8055
三晉	-10.8056
犯法	-10.8057
其首	-10.8059
是謂	-10.8061
長者	-10.8063
已成	-10.8063
乙亥	-10.8064
扇	-10.8066
敢言	-10.8068
帯	-10.8068
之族	-10.8068
股	-10.8068
公論	-10.8068
縮	-10.8068
棣	-10.8069
暹	-10.8069
斜	-10.807
枚	-10.807
可用	-10.8071
勃勃	-10.8072
乎故	-10.8073
散騎常侍	-10.8073
便宜	-10.8074
朱泚	-10.8074
襄子	-10.8076
幽王	-10.8076
瀘	-10.8078
之效	-10.8078
郊祀	-10.8079
馮道	-10.8081
柰何	-10.8083
之威	-10.8084
相承	-10.8085
諸夏	-10.8086
巴蜀	-10.809
此其所以	-10.8094
嗟乎	-10.8097
中郎	-10.8099
所撰	-10.8103
異同	-10.8103
漢陽	-10.8104
不救	-10.8104
新莽	-10.8106
賢君	-10.8106
之形	-10.8109
不息	-10.8109
聖王	-10.811
君也	-10.811
汝愚	-10.8113
齊國	-10.8118
賜爵	-10.812
隋書	-10.812
注見漢獻帝建安	-10.8122
母后	-10.8123
涿郡	-10.8126
昭儀	-10.813
焚之	-10.813
敵人	-10.8134
怨望	-10.8134
班師	-10.8137
偷	-10.8138
宋金	-10.8142
上欲	-10.8143
聞而	-10.8146
父老	-10.8148
隋改	-10.8158
昻	-10.8158
所置	-10.816
二國	-10.816
於宋	-10.8161
終始	-10.8161
炳	-10.8161
瞽	-10.8164
立是為	-10.8164
騷	-10.8164
跨	-10.8164
􁀙	-10.8164
闘	-10.8165
䘏	-10.8166
黨人	-10.8168
亘	-10.8168
牘	-10.8169
執中	-10.8171
耽	-10.8171
為先	-10.8173
還宫	-10.8179
無度	-10.818
送之	-10.818
有能	-10.8182
未嘗有	-10.8182
仁傑	-10.8186
樞密使	-10.8186
為侍中	-10.8189
守將	-10.8195
千秋	-10.8199
天下之人	-10.8201
過也	-10.8201
之謂也	-10.8203
之徳	-10.8204
二十八	-10.8209
所過	-10.8211
忠孝	-10.8215
封侯	-10.8215
皆降	-10.822
陳氏	-10.822
遣其	-10.8225
尚書省	-10.8227
嘗與	-10.8229
曰是	-10.8238
人人	-10.8239
文王之	-10.8243
漢文	-10.8244
過矣	-10.8244
則曰	-10.8247
二十八年	-10.8248
然自	-10.8249
司馬公曰	-10.825
黄河	-10.8251
乃出	-10.8252
計也	-10.8256
其大	-10.826
般	-10.8263
牆	-10.8263
誡	-10.8264
躡	-10.8264
暠	-10.8265
衷	-10.8265
自知	-10.8265
著作	-10.8267
豕	-10.8267
縳	-10.8268
後改為	-10.8268
惻	-10.8269
抽	-10.827
矧	-10.8271
伏羲	-10.8272
吝	-10.8273
既平	-10.8276
遂罷	-10.8276
之所為	-10.828
乘輿	-10.8283
已定	-10.8284
已甚	-10.8289
以降	-10.829
施行	-10.829
頓首	-10.8291
荀卿	-10.8292
因名	-10.8292
不早	-10.8296
古地名	-10.8298
鄉里	-10.8299
為重	-10.83
之漸	-10.83
有五	-10.8301
師于	-10.8304
澶州	-10.8306
新安	-10.8307
詩云	-10.8312
鎮江	-10.8314
當死	-10.8316
城西	-10.8317
梁冀	-10.832
爾朱	-10.8321
至尊	-10.8323
大悦	-10.8325
之詩	-10.8325
唐太宗	-10.8328
福建	-10.833
不與焉	-10.8331
二十一年	-10.8335
本心	-10.8337
終日	-10.834
於楚	-10.8341
霸先	-10.8344
我太祖	-10.8344
蔚	-10.8345
賢臣	-10.8347
周官	-10.8347
毁之	-10.8348
男子	-10.8355
山名	-10.8355
征討	-10.8355
畱	-10.8357
劉宋	-10.836
漢髙	-10.8366
濟河	-10.8368
謝安	-10.8368
参	-10.8369
擯	-10.837
畨	-10.837
朝野	-10.8371
豫州刺史	-10.8371
峕	-10.8372
交趾	-10.8372
惰	-10.8372
奢侈	-10.8375
伊川	-10.8375
傕	-10.8376
禹之	-10.8378
項籍	-10.8379
李徳裕	-10.8381
邦昌	-10.8385
休息	-10.8386
而作	-10.8386
東觀	-10.8392
立國	-10.8393
能以	-10.8393
孔明	-10.8393
武威	-10.8395
大行	-10.8395
或者	-10.8398
毫	-10.8401
問曰	-10.8401
矣書	-10.8403
常侍	-10.8403
割地	-10.8414
康叔	-10.8417
曹氏	-10.842
臨江	-10.8421
不可為	-10.8424
穆王	-10.8426
孫之翰	-10.843
國有	-10.843
見殺	-10.8431
疑其	-10.8431
元忠	-10.8435
少府	-10.844
諸鎮	-10.8444
騎兵	-10.8445
既至	-10.8447
吳人	-10.8448
告急	-10.8449
平章政事	-10.8451
復舊	-10.8453
樞密	-10.8455
稱皇帝	-10.8459
多士	-10.846
丸	-10.8464
灾	-10.8465
不畏	-10.8465
經筵	-10.8466
房𤣥齡	-10.8467
不可以不	-10.8468
梗	-10.8468
揭	-10.847
汰	-10.847
尚有	-10.847
莘	-10.8471
酌	-10.8471
集覧	-10.8472
衢	-10.8472
者即	-10.8473
孛	-10.8476
詳見	-10.8476
熒惑	-10.8477
籠	-10.8477
袁術	-10.8477
上流	-10.8478
踐位	-10.8479
流民	-10.8482
李勣	-10.8483
不測	-10.8484
專權	-10.8488
筆削	-10.8489
之口	-10.8489
首尾	-10.8495
第三	-10.8498
察之	-10.8501
宣城	-10.8502
中都	-10.8502
二十二	-10.8504
平二年	-10.8512
無為	-10.8515
遂入	-10.852
鎮撫	-10.8523
元仍舊	-10.8525
風雨	-10.8527
奔走	-10.8527
宣撫	-10.8528
太初	-10.8528
井田	-10.8537
春秋之法	-10.8539
後趙	-10.854
與夫	-10.8544
相公	-10.8549
南方	-10.8549
斯則	-10.8552
僧辯	-10.8553
此豈	-10.8553
邪正	-10.8553
水旱	-10.8557
後書	-10.8557
程子	-10.8559
立法	-10.856
慟	-10.8562
憲宗元和	-10.8563
本無	-10.8565
渥	-10.8566
闊	-10.8567
廪	-10.8568
重榮	-10.8568
若以	-10.8569
以文	-10.8571
中書舍人	-10.8571
㕘	-10.8573
開封	-10.8573
猜忌	-10.8575
街	-10.8575
常平	-10.8576
元載	-10.8577
竈	-10.8577
㢘	-10.8578
𠂻	-10.8578
酬	-10.858
千餘里	-10.858
歸國	-10.8582
兵起	-10.8584
尋改	-10.8585
酣	-10.8587
自漢	-10.859
畧無	-10.8592
萬緡	-10.8592
降於	-10.8593
大人	-10.8595
受詔	-10.8595
其責	-10.8599
完顔	-10.8604
禁兵	-10.8604
二日	-10.8606
杜預	-10.8606
二公	-10.8608
無疑	-10.861
事有	-10.8611
之親	-10.8612
司馬遷	-10.8613
凡四	-10.8614
所及	-10.8616
令狐	-10.8616
互相	-10.8619
猶豫	-10.8621
加之	-10.8623
郭威	-10.8624
遼西	-10.8626
擁兵	-10.8628
自安	-10.8634
而東	-10.8637
經義	-10.8639
持節	-10.8644
楚師	-10.8645
杭	-10.8646
於我	-10.8646
三千人	-10.8647
薦之	-10.8653
臣聞	-10.8655
又非	-10.8658
之過也	-10.8662
一舉	-10.8662
謀議	-10.8666
又云	-10.8669
張唐英	-10.8669
此正	-10.867
一統志	-10.8671
矣若	-10.8672
摘	-10.8672
輔臣	-10.8674
墻	-10.8674
時年	-10.8675
愁	-10.8675
光禄大夫	-10.8676
哀哉	-10.8676
簽書樞密院事	-10.8677
凱	-10.8677
闡	-10.8678
谿	-10.8679
萬民	-10.8679
皎	-10.8679
去年	-10.868
諮	-10.8681
梁州	-10.8681
絃	-10.8682
嘉祐	-10.8683
袒	-10.8683
髠	-10.8683
擲	-10.8683
禘	-10.8685
頡利	-10.8687
秦王堅	-10.8687
致其	-10.8689
兩河	-10.869
合肥	-10.869
遷于	-10.869
李光弼	-10.8692
臣請	-10.8697
兵法	-10.8699
者獨	-10.8699
三字	-10.8699
夀春	-10.87
鄭州	-10.8702
乃欲	-10.8702
甚多	-10.8704
也噫	-10.8706
待罪	-10.8713
張説	-10.8715
其徳	-10.8717
定陶	-10.872
可以為	-10.8721
所以著其	-10.8723
難矣	-10.8728
宜乎	-10.8728
恭帝	-10.8729
陪	-10.873
入對	-10.8733
興元年	-10.8741
戰國時	-10.8743
君而	-10.8748
濟隂	-10.8751
宋史	-10.8753
則民	-10.8755
無厭	-10.8756
悼公	-10.8756
之女	-10.8757
欲其	-10.8758
西平	-10.8758
雒	-10.8759
為首	-10.8759
七日	-10.876
入㓂	-10.8763
何由	-10.8764
與我	-10.8764
陳侯	-10.8765
酒泉	-10.8766
開府	-10.8766
足下	-10.8768
流言	-10.8769
恐懼	-10.877
卿士	-10.8771
治國	-10.8771
萬騎	-10.8777
腐	-10.8779
二曰	-10.8779
芒	-10.8782
鍳	-10.8782
翳	-10.8782
竝	-10.8783
祕	-10.8784
始也	-10.8785
何譏也	-10.8786
窘	-10.8787
裒	-10.8788
龜兹	-10.8788
英宗	-10.879
孝子	-10.8791
子長	-10.8792
至於此	-10.8794
齊桓公	-10.8796
沈約	-10.8804
豈其	-10.8804
三十萬	-10.8805
巴陵	-10.8808
恭儉	-10.8815
大變	-10.8815
留之	-10.8819
曰臣聞	-10.8819
遂良	-10.8822
悔之	-10.8827
為太尉	-10.8832
引兵還	-10.8835
承制	-10.8839
皆稱	-10.8843
本朝因之	-10.8844
觀此	-10.8848
三品	-10.8849
軍民	-10.8849
蜀人	-10.8849
政令	-10.8853
無知	-10.8856
百世	-10.8859
其利	-10.8861
諸將皆	-10.8861
稱疾	-10.8861
滑州	-10.8861
濮陽	-10.8862
年少	-10.8866
遣將	-10.8868
而廢	-10.8871
其他	-10.8873
濠	-10.8874
知樞密院事	-10.8878
皝	-10.8881
雋	-10.8881
謝罪	-10.8882
無所不	-10.8883
滇	-10.8883
六人	-10.8883
擒之	-10.8884
髦	-10.8884
乳	-10.8885
挈	-10.8886
瑋	-10.8887
不祥	-10.8887
九齡	-10.8888
汧	-10.889
吿	-10.889
殁	-10.889
從弟	-10.8891
售	-10.8892
為天	-10.8893
飭	-10.8894
所云	-10.8895
弓矢	-10.8895
浮屠	-10.8897
賈似道	-10.8899
貴戚	-10.8901
盧杞	-10.8901
本末	-10.8902
未免	-10.8903
但以	-10.8905
稽首	-10.8906
交通	-10.8912
賜名	-10.8915
若使	-10.8916
漢末	-10.8923
欽宗	-10.8925
譏之也	-10.8927
應劭曰	-10.893
畏之	-10.8936
開皇	-10.8937
江北	-10.8941
非其人	-10.8942
永昌	-10.8947
乃召	-10.8949
西方	-10.8949
五百里	-10.8949
右丞相	-10.8951
亡矣	-10.8951
少康	-10.8956
奈	-10.8956
未見	-10.8959
望風	-10.8962
然猶	-10.8966
名臣	-10.8972
適足	-10.8975
王元	-10.8976
平生	-10.8978
於晉	-10.8983
所出	-10.8986
為己	-10.8988
正言	-10.8989
驍勇	-10.899
沆	-10.8991
股肱	-10.8991
宋書	-10.8992
帝從之	-10.8994
奠	-10.8995
日磾	-10.8996
即皇帝位	-10.8996
召還	-10.8998
之險	-10.8999
剥	-10.9
裝	-10.9001
粥	-10.9002
畆	-10.9003
又置	-10.9004
平凉	-10.9006
舜禹	-10.9008
舜之	-10.9012
論其	-10.9018
如之何	-10.9018
宋璟	-10.9021
水軍	-10.9021
異姓	-10.9023
也吾	-10.9024
精騎	-10.9026
是知	-10.9027
大中	-10.9029
安得不	-10.9031
故城	-10.9035
黄金	-10.9035
以奉	-10.9038
惠卿	-10.9043
則見	-10.9044
元二年	-10.9045
亦不可	-10.9045
又與	-10.9045
同日	-10.9047
何至	-10.9052
表字	-10.9053
以應	-10.9054
西羌	-10.9055
門人	-10.9056
始以	-10.906
舟師	-10.906
李靖	-10.906
何謂	-10.9067
求賢	-10.9068
未成	-10.907
思明	-10.9071
二十餘	-10.9076
毋得	-10.9078
温公曰	-10.9078
不察	-10.9079
萬世之	-10.9081
皆出	-10.9081
制置	-10.9082
皆以為	-10.9084
上書言	-10.9087
經營	-10.9088
之耳	-10.909
摯	-10.9093
國子	-10.9095
廢帝	-10.9097
瑶	-10.91
繒	-10.9101
冏	-10.9102
晉師	-10.9102
師傅	-10.9104
酺	-10.9107
州是	-10.9107
丁巳	-10.9107
慾	-10.9108
殞	-10.9108
艘	-10.9109
隸	-10.911
餌	-10.9111
稜	-10.9112
而易	-10.9112
書誅	-10.9113
南面	-10.9113
所敗	-10.9115
軫	-10.9116
不拜	-10.9116
親政	-10.9118
未得	-10.9118
引還	-10.9118
赧王	-10.9119
瀛	-10.912
此何	-10.9121
為我	-10.9125
狩	-10.9125
子業	-10.9128
至長安	-10.9131
益甚	-10.9133
秦二世	-10.9133
之衰	-10.9135
家語	-10.9138
矣故書	-10.9139
不降	-10.9145
字下	-10.9146
韓愈	-10.9147
縣官	-10.9147
周人	-10.9149
李絳	-10.9154
黄龍	-10.9157
南唐	-10.9157
以獻	-10.9159
叛臣	-10.9163
子貢	-10.9165
夫子之	-10.9167
而遽	-10.9167
也凡	-10.9169
曲直	-10.9171
智伯	-10.9173
不學	-10.9175
不預	-10.9183
帝命	-10.9183
者是	-10.9189
除名	-10.919
兵攻	-10.9191
有徳	-10.9198
合兵	-10.92
儔	-10.92
衣服	-10.9205
斡里雅布	-10.9206
使天下	-10.9208
縦	-10.921
鄧州	-10.9212
廆	-10.9212
降于	-10.9213
之責	-10.9215
戰死	-10.9215
蓬	-10.9216
彤	-10.9216
鉅	-10.9216
䟦	-10.9217
匠	-10.9217
愎	-10.9217
佃	-10.9218
甲寅	-10.9218
綺	-10.9219
揣	-10.9219
跪	-10.9219
少卿	-10.9219
索隐曰	-10.9222
将士	-10.9222
許州	-10.9223
後唐	-10.9224
百僚	-10.9226
鹽鐵	-10.923
馬邑	-10.9232
不求	-10.9232
宣和	-10.9234
𤣥感	-10.9235
三十餘	-10.9236
注見宋	-10.9237
餘人	-10.924
宣撫使	-10.9242
威權	-10.9242
為后	-10.9244
若之何	-10.9248
能為	-10.9249
蔡州	-10.925
北軍	-10.9251
舊臣	-10.9251
伐楚	-10.9252
之遺	-10.9256
右僕射	-10.9257
滅亡	-10.9257
欲求	-10.9258
食盡	-10.9259
帝即位	-10.9261
丘明	-10.9262
夏州	-10.9264
侍讀	-10.9264
既不能	-10.9264
全義	-10.9268
梁武	-10.9269
璽綬	-10.9271
安用	-10.9272
六十里	-10.9272
華隂	-10.9273
漢屬	-10.9276
則可以	-10.9278
亦必	-10.9278
望見	-10.9279
神䇿	-10.928
文徳	-10.9283
五原	-10.9284
免官	-10.9285
遂為	-10.9287
而誅之	-10.9287
郡唐初	-10.9291
鄭𤣥	-10.9297
利用	-10.9301
建業	-10.9305
不孝	-10.9307
二君	-10.9312
以圖	-10.9312
丙子	-10.9318
民皆	-10.9321
宵	-10.9321
地志	-10.9322
未見其	-10.9323
郡後	-10.9323
義帝	-10.9324
姿	-10.9324
傍	-10.9326
隗囂	-10.9326
庚申	-10.9327
鳩	-10.9327
漫	-10.9328
先朝	-10.9329
和帝永	-10.933
更相	-10.9331
瑟	-10.9332
之忠	-10.9332
犧	-10.9333
浙西	-10.9334
傾覆	-10.9336
惑於	-10.9342
絰	-10.9343
李茂貞	-10.9343
不終	-10.9344
三王	-10.9345
侍講	-10.9347
去就	-10.9348
當為	-10.935
僧格	-10.9352
而不言	-10.9352
後嗣	-10.9352
三川	-10.9352
罪惡	-10.9352
近世	-10.9354
淮隂	-10.9356
勞而	-10.9357
其說	-10.936
廢太子	-10.9362
理之	-10.9369
涇州	-10.9371
故謂之	-10.9372
揚子	-10.9374
于是	-10.9378
八人	-10.9379
土木	-10.9381
之事也	-10.9382
際	-10.9383
左僕射	-10.9384
異矣	-10.9389
兵入	-10.939
行者	-10.9391
覲	-10.9396
何則	-10.9397
為句	-10.9398
斬其	-10.9399
所作	-10.9402
平盧	-10.9408
求去	-10.9411
問其故	-10.9412
以供	-10.9416
不誅	-10.9418
詹	-10.9418
後主建興	-10.9423
王導	-10.9424
暐	-10.9425
西戎	-10.943
皆死	-10.9431
董仲舒	-10.9432
獻公	-10.9432
團	-10.9433
諫議大夫	-10.9433
鉞	-10.9435
敬瑭	-10.9435
縱兵	-10.9435
蠱	-10.9437
謐	-10.9437
恚	-10.9437
檢校	-10.9438
大将軍	-10.9438
貯	-10.9438
脉	-10.944
犢	-10.944
詬	-10.9441
施於	-10.9442
南越	-10.9444
轂	-10.9444
及諸	-10.9444
渚	-10.9444
矛	-10.9445
虎賁	-10.9446
塢	-10.9448
襲之	-10.9448
以制	-10.9449
重誨	-10.9449
事覺	-10.9452
焉而	-10.9455
八千	-10.9455
宋室	-10.9457
也曷為	-10.9458
不雨	-10.9463
申生	-10.9463
必能	-10.9467
后妃	-10.9468
稽古	-10.9471
也至於	-10.9474
交州	-10.9475
君心	-10.9484
以是為	-10.9485
在乎	-10.9487
焉故	-10.9487
神器	-10.9487
尹氏	-10.949
皇極	-10.9494
具官	-10.9496
四面	-10.9498
等州	-10.9499
周王	-10.9503
城郭	-10.9504
勝之	-10.9505
仁厚	-10.9509
特筆也	-10.9511
無二	-10.9513
權勢	-10.952
不敢言	-10.9521
為諸侯	-10.953
責其	-10.9532
秦伯	-10.9534
盾	-10.9534
上自	-10.9534
昭義	-10.9535
免於	-10.9537
亦可謂	-10.954
中官	-10.9543
戰士	-10.9546
廐	-10.9546
司農	-10.9546
辛未	-10.9546
弦	-10.9548
隳	-10.9548
著作郎	-10.9549
粤	-10.955
陕	-10.955
𥙷	-10.9551
吕公著	-10.9551
義理	-10.9551
歷	-10.9551
俄	-10.9551
東門	-10.9551
茍有	-10.9552
殯	-10.9552
饑饉	-10.9552
鄯	-10.9553
懈	-10.9553
騐	-10.9554
忻	-10.9554
糜	-10.9554
訾	-10.9554
同三品	-10.9555
伎	-10.9556
攷	-10.9556
訐	-10.9556
凡十	-10.9557
膚	-10.9558
浙	-10.9558
逢吉	-10.956
十有一年	-10.9562
燔	-10.9562
器械	-10.9563
甲午	-10.9565
茍能	-10.9566
兵權	-10.9567
日中	-10.9571
猶在	-10.9572
孺	-10.9573
淵明	-10.9574
之具	-10.9576
韋氏	-10.9578
遣使者	-10.9583
曾子	-10.9583
三國魏	-10.9583
太妃	-10.9591
合從	-10.9593
方今	-10.9597
甘心	-10.9602
監司	-10.9604
凡此	-10.9606
矣然則	-10.9607
又按	-10.961
二年春正月	-10.9613
理也	-10.9614
江漢	-10.9614
漢兵	-10.9628
大潰	-10.9633
司𨽻	-10.9635
千萬	-10.9635
武安	-10.9639
兩漢	-10.9641
大雨	-10.9642
愍帝	-10.9645
不負	-10.9646
敏中	-10.9647
軍節度	-10.9649
天下之事	-10.9654
宗閔	-10.9654
醢	-10.9657
稚	-10.9658
溺於	-10.9658
雖曰	-10.966
䖏	-10.966
舛	-10.9662
旰	-10.9662
僞	-10.9663
盱眙	-10.9664
凍	-10.9664
將吏	-10.9665
也春秋	-10.9667
箴	-10.9668
為害	-10.9669
皷	-10.9669
邏	-10.9673
考其	-10.9675
不軌	-10.9677
鍾離	-10.9678
安平	-10.9686
是皆	-10.9692
敗於	-10.9693
皆可	-10.9694
為刺史	-10.9696
元吉	-10.9702
也是時	-10.9703
餘皆	-10.9704
矣且	-10.9706
注見漢後主建興	-10.9706
先聖	-10.9709
君長	-10.9713
出為	-10.9717
與共	-10.9718
四州	-10.9719
至本朝	-10.9722
經術	-10.9728
必敗	-10.973
自陳	-10.9734
以著	-10.9735
大業初	-10.9737
而敗	-10.9741
遇之	-10.9741
聚衆	-10.9742
匹夫之	-10.9743
並進	-10.975
旣而	-10.9751
附之	-10.9755
以養	-10.9755
禮儀	-10.9756
蜀漢	-10.9758
改置	-10.9763
募兵	-10.9764
功徳	-10.9766
隋唐	-10.9769
球	-10.977
州牧	-10.9771
後屬	-10.9776
琪	-10.9777
何憂	-10.9777
填	-10.9779
知制誥	-10.978
前世	-10.978
屯兵	-10.9781
斫	-10.9782
獠	-10.9782
枯	-10.9783
悌	-10.9784
癸亥	-10.9785
軀	-10.9785
未可知	-10.9785
以其子	-10.9786
雩	-10.9787
曇	-10.9787
恠	-10.9788
彌遠	-10.9789
河南尹	-10.9793
蜚	-10.9793
書成	-10.9795
參政	-10.9797
庶㡬	-10.9798
户口	-10.9801
鑄錢	-10.9805
揚州刺史	-10.9806
文彦博	-10.9808
荆州刺史	-10.9808
都指揮使	-10.9811
登城	-10.9811
大名	-10.9812
魏兵	-10.9814
大都督	-10.9814
成康	-10.9815
乎對曰	-10.9815
哉然	-10.9817
盡心	-10.9817
徙都	-10.9818
應天	-10.9819
廣徳	-10.9821
書于册	-10.9822
不就	-10.9825
終不能	-10.9826
三世	-10.9838
非人	-10.9843
不起	-10.9844
淮安	-10.9846
自立為	-10.9846
無貶	-10.9848
也古者	-10.985
被執	-10.9852
公議	-10.9853
手足	-10.9853
而遂	-10.986
字下有	-10.9867
嗣君	-10.9878
其姦	-10.9879
刑法	-10.9882
第二	-10.9885
必為	-10.9885
國朝	-10.9887
帝問	-10.989
道徳	-10.989
失於	-10.989
不願	-10.9891
蜀郡	-10.9891
綱目特書	-10.9893
太王	-10.9893
復立	-10.9893
鴆	-10.9894
可觀	-10.9894
檻	-10.9896
夭	-10.9897
郡守	-10.9897
僉	-10.9899
為大司馬	-10.99
慿	-10.99
屑	-10.99
吹	-10.9901
戢	-10.9902
曵	-10.9902
晉武帝	-10.9902
住	-10.9903
禎	-10.9904
龕	-10.9905
騫	-10.9905
彼必	-10.9905
至是始	-10.9906
紅	-10.9906
可取	-10.9906
夔	-10.9907
赫連	-10.9908
五刑	-10.9908
盎	-10.9909
蒼梧	-10.991
三家	-10.9915
之㫖	-10.9926
為平章政事	-10.9929
之路	-10.993
寛厚	-10.9931
蒙古	-10.9931
常以	-10.9934
忠信	-10.9936
附㑹	-10.9936
呉主	-10.9937
懿宗	-10.994
樞宻使	-10.9941
未甞	-10.9944
朝議	-10.9945
韋昭曰	-10.9948
齊楚	-10.995
為患	-10.995
元符	-10.9951
著述	-10.9951
帝謂	-10.9952
初立	-10.9955
河南府	-10.9956
信任	-10.9956
改過	-10.9962
亡命	-10.9964
化及	-10.9969
同州	-10.9974
二是年	-10.9974
八十里	-10.9975
章句	-10.9976
縣置	-10.9976
而後可	-10.9976
數萬人	-10.9979
定天下	-10.9983
注見武帝	-10.9986
太清	-10.9996
周顯王	-10.9999
治水	-11
因事	-11.0001
章武	-11.0001
所行	-11.0004
急攻	-11.0004
集賢	-11.0005
綝	-11.001
起而	-11.0013
顓	-11.0014
帝意	-11.0016
㝠	-11.0017
不敬	-11.0018
觴	-11.0018
在焉	-11.0018
禇	-11.0018
豈以	-11.0018
厄	-11.0018
怏怏	-11.0019
禁錮	-11.002
忠言	-11.002
發於	-11.0022
慷慨	-11.0022
伲胄	-11.0023
柯	-11.0023
磁	-11.0024
楊行宻	-11.0024
曹彬	-11.0024
醇	-11.0025
凡有	-11.0026
椎	-11.0026
悖逆	-11.0027
司馬懿	-11.0029
書爵	-11.0029
竇憲	-11.003
得幸	-11.0033
諸史	-11.0033
伐秦	-11.0038
曷為不書	-11.004
所置治	-11.0043
未敢	-11.0044
承㫖	-11.0044
或勸	-11.0044
近習	-11.0048
可謂知	-11.0049
君臣之義	-11.0049
宋齊	-11.005
汝州	-11.0051
縣唐	-11.0056
者正	-11.0056
三皇	-11.0061
張儀	-11.0062
譏其	-11.0064
次第	-11.0064
諸侯王	-11.0064
武建武	-11.0065
天性	-11.0068
非是	-11.0072
乃可	-11.0073
論事	-11.0076
之功也	-11.0078
蔡侯	-11.008
不得已而	-11.008
後秦	-11.0082
罷相	-11.0083
秦主	-11.0086
推之	-11.0088
唐改	-11.0088
三綱	-11.0089
鄆州	-11.0089
其門	-11.0091
西魏	-11.0093
執事	-11.0098
喜曰	-11.0103
愛其	-11.0106
晉屬	-11.0107
不附	-11.0108
淮南王	-11.0113
在我	-11.0115
輔相	-11.0116
馬援	-11.0116
盡殺	-11.0117
吳蜀	-11.0118
心腹	-11.0118
也或曰	-11.0119
立皇后	-11.0119
永樂	-11.0121
其忠	-11.0122
嬪	-11.0129
敬則	-11.0131
攜	-11.0131
齊桓	-11.0132
小民	-11.0133
六州	-11.0134
世勣	-11.0135
巴郡	-11.0139
注見秦王政三年	-11.014
祥瑞	-11.0141
漂	-11.0142
忠厚	-11.0142
狼狽	-11.0142
逆戰	-11.0142
京東	-11.0143
樸	-11.0144
庚午	-11.0144
臨淄	-11.0145
旻	-11.0145
訊	-11.0145
襃	-11.0147
崇文	-11.0149
楚公子	-11.0149
神明	-11.0151
大名府	-11.0153
其類	-11.0157
乃令	-11.0158
待制	-11.0161
純仁	-11.0161
朽	-11.0162
殿前	-11.0162
者以其	-11.0163
同上	-11.0167
二十九年	-11.0167
通判	-11.0168
延光	-11.0168
以相	-11.0169
成周	-11.0171
唐太宗貞觀	-11.0172
平江	-11.0173
未决	-11.0176
異乎	-11.0176
上天	-11.0178
不朝	-11.0182
甲辰	-11.0183
成德	-11.0184
以謝	-11.0185
汝曹	-11.0186
不務	-11.0189
記曰	-11.0189
國初	-11.019
顔師古	-11.019
中庸	-11.0193
立其子	-11.0193
守臣	-11.0193
中山王	-11.0194
何人	-11.0195
王黼	-11.0198
新野	-11.0198
數千里	-11.0198
統軍	-11.0199
西山	-11.0206
以疾	-11.021
從子	-11.0211
三曰	-11.0214
洺	-11.0216
困於	-11.0217
已死	-11.0221
刑部	-11.0223
遣之	-11.0223
固不可	-11.0224
素與	-11.0225
無名	-11.0229
安知	-11.0233
從官	-11.0234
以充	-11.0238
國勢	-11.0238
四萬	-11.0241
朝鮮	-11.0243
觀者	-11.0247
不少	-11.0247
此章	-11.025
財用	-11.0253
洩	-11.0256
廬州	-11.0256
何敢	-11.0256
封爵	-11.0257
怖	-11.0258
汲黯	-11.0258
衙	-11.0258
正直	-11.0259
蔡氏曰	-11.0259
元振	-11.026
二十三	-11.026
蹕	-11.026
殫	-11.0261
丁酉	-11.0262
戀	-11.0263
閫	-11.0263
商人	-11.0264
生靈	-11.0264
蘇軾	-11.0264
崔𦙍	-11.0265
丙午	-11.0265
拊	-11.0266
大權	-11.0267
祧	-11.0268
帝如	-11.0268
瑪	-11.0268
諶	-11.0272
郝	-11.0273
曰古者	-11.0274
黒闥	-11.0274
為留後	-11.0276
在内	-11.0277
權臣	-11.028
起居注	-11.0281
仁恭	-11.0281
爭之	-11.0287
為將	-11.0287
魯國	-11.0293
降魏	-11.0294
孝公	-11.0295
曰然則	-11.0295
初屬	-11.0296
出知	-11.0297
恃其	-11.0298
李宻	-11.03
能知	-11.0301
城邑	-11.0302
不振	-11.0302
癸未	-11.0302
有詔	-11.0314
顯忠	-11.0315
萬國	-11.0319
能保	-11.032
以次	-11.0329
為後世	-11.0333
大統	-11.0336
郢州	-11.0339
重兵	-11.034
百家	-11.0344
兵勢	-11.0346
孰與	-11.0354
不書書	-11.0358
一夫	-11.0359
太元	-11.036
曹伯	-11.0361
木為	-11.0366
不逺	-11.0366
好惡	-11.0367
囚之	-11.0367
二十六	-11.0368
王業	-11.0374
士馬	-11.0375
憎	-11.0378
珏	-11.0381
譟	-11.0381
邪説	-11.0382
欲殺之	-11.0382
琨	-11.0383
閎	-11.0384
所恃	-11.0385
徤	-11.0386
叩	-11.0387
渾瑊	-11.0388
之前	-11.0388
載其	-11.0388
承璀	-11.0388
萃	-11.039
趙盾	-11.0391
王后	-11.0392
淄	-11.0393
入關	-11.0393
胙	-11.0394
太原府	-11.0395
於魯	-11.0395
江浙	-11.0396
被其	-11.0397
焚其	-11.0398
吉甫	-11.04
歐陽修	-11.0401
列於	-11.0401
㣲子	-11.0401
夷狄之	-11.0404
其誰	-11.0408
虚名	-11.0408
隨之	-11.041
詹事	-11.041
矢石	-11.0415
孝武帝	-11.0418
誠能	-11.0421
稱藩	-11.0424
軍于	-11.0425
公田	-11.0427
譬如	-11.043
即位之初	-11.0432
之力也	-11.0434
蘇秦	-11.0434
建議	-11.0438
安祿山	-11.0439
僖公	-11.0445
處置	-11.0449
徙居	-11.0451
南渡	-11.0451
誤也	-11.0455
以給	-11.0459
無主	-11.0461
周以	-11.0463
晉州	-11.0465
叛逆	-11.0476
天書	-11.0488
平州	-11.0489
不虞	-11.0489
既得	-11.0493
其㫖	-11.0495
實為	-11.0501
可謂能	-11.0502
入相	-11.0503
未之有也	-11.0504
阮	-11.0505
夙	-11.0506
律令	-11.0508
嘗書	-11.0508
儆	-11.0508
汭	-11.051
栢	-11.0511
巒	-11.0511
猝	-11.0513
優劣	-11.0514
鴻臚	-11.0515
粹	-11.0515
駒	-11.0515
士開	-11.0516
而獨	-11.0517
婆	-11.0518
奎	-11.0519
憸	-11.0519
仁軌	-11.0519
始興	-11.0519
至洛陽	-11.0519
將佐	-11.0522
青苗	-11.0523
而使之	-11.0524
同知樞密院事	-11.0524
遂圍	-11.0524
徃徃	-11.0526
其軍	-11.0526
入闗	-11.0527
單騎	-11.053
其禮	-11.0535
兵少	-11.0536
閉門	-11.0536
乎若	-11.0537
相應	-11.0538
一國	-11.0541
承平	-11.0544
鞫	-11.0546
朝堂	-11.0547
隋屬	-11.055
長城	-11.0551
自言	-11.0551
懐州	-11.0552
公輔	-11.0552
與俱	-11.0552
科舉	-11.0553
不决	-11.0554
攸之	-11.0555
金銀	-11.0558
進用	-11.056
何予	-11.0565
請罷	-11.0567
天人	-11.057
何以不書	-11.0571
其德	-11.0571
小子	-11.0586
范祖禹曰	-11.0587
中行	-11.0587
果有	-11.0587
趙魏	-11.0588
者宜	-11.0591
恵帝	-11.0592
而立之	-11.0592
之戰	-11.0595
幾何	-11.0597
不載	-11.0598
射之	-11.0598
上嘗	-11.06
南安	-11.06
王猛	-11.0603
都監	-11.0605
擊敗之	-11.0606
女為	-11.0608
李全	-11.0615
彗星	-11.0615
鄩	-11.0617
義兵	-11.062
陳夀	-11.0621
也終綱目	-11.0623
覿	-11.0625
所記	-11.0627
大敗之	-11.0628
椿	-11.063
逆賊	-11.063
湖廣	-11.0631
書伐	-11.0631
長孫無忌	-11.0631
為節度使	-11.0632
上都	-11.0632
鉷	-11.0632
剝	-11.0633
異日	-11.0634
鞍	-11.0634
舊史	-11.0635
蝕	-11.0635
粉	-11.0637
膝	-11.0637
憂懼	-11.0637
䟦扈	-11.0639
侔	-11.064
中正	-11.064
樞密院	-11.0641
䞇	-11.0642
臻	-11.0642
㪚	-11.0643
慨然	-11.0644
為人臣	-11.0644
以城降	-11.0645
豈可以	-11.0646
上從之	-11.0651
雨雹	-11.0652
補闕	-11.0653
尚未	-11.0653
讓之	-11.0655
叔孫通	-11.0656
孟津	-11.0657
至誠	-11.0658
管叔	-11.066
紹述	-11.0663
分注載	-11.0666
多方	-11.0666
輔之	-11.0667
不競	-11.0668
東陽	-11.0668
以進	-11.067
以其地	-11.0673
陳蔡	-11.0674
下民	-11.0676
亦惟	-11.0677
委以	-11.0681
無一人	-11.0684
晉武	-11.0684
兵革	-11.0687
奉迎	-11.0687
二十九	-11.0689
獻帝建安十	-11.0694
咸平	-11.0695
帥兵	-11.0695
十有三年	-11.0698
率兵	-11.0702
山下	-11.0704
軍亂	-11.0704
四國	-11.0711
三老	-11.0711
十有二年	-11.0714
不戰而	-11.0715
安樂	-11.0718
必矣	-11.072
有所不	-11.0721
古之人	-11.0721
秦秦	-11.0724
不予	-11.0724
又從而	-11.0724
晉楚	-11.0729
統制	-11.073
河決	-11.073
既立	-11.0732
即今	-11.0734
黜之	-11.0735
王季	-11.074
之南	-11.0744
無能	-11.0745
國亡	-11.0746
夷陵	-11.0748
王孫	-11.075
臺城	-11.0752
猥	-11.0755
後患	-11.0756
胸	-11.076
而稱	-11.076
㒺	-11.0761
逄	-11.0761
迥	-11.0762
昵	-11.0762
卻	-11.0764
鈎	-11.0764
劣	-11.0765
為尚書令	-11.0765
貝州	-11.0765
戊寅	-11.0765
因言	-11.0766
厠	-11.0766
臣讀畢口奏	-11.0767
鄱陽	-11.0767
姑臧	-11.0768
剽	-11.0769
郃	-11.0769
琬	-11.0771
牖	-11.0772
上邽	-11.0772
滑臺	-11.0773
汎	-11.0773
淑妃	-11.0776
乙巳	-11.0776
公孫𢎞	-11.0782
坎	-11.0783
幕府	-11.0784
死罪	-11.0784
不守	-11.0784
私意	-11.0785
泗水	-11.0786
道濟	-11.0787
管子	-11.0787
羣盗	-11.0787
張九齡	-11.0789
中常侍	-11.079
和州	-11.0792
烏可	-11.0793
國朝因之	-11.0795
納言	-11.0795
孰謂	-11.0798
王肅	-11.0799
太僕	-11.08
奔齊	-11.08
等謀	-11.0801
商賈	-11.0803
漢室	-11.0804
而不顧	-11.0805
陳蕃	-11.0809
文武之	-11.0809
朝歌	-11.081
雖多	-11.0812
無乃	-11.0814
不避	-11.082
謀之	-11.082
變法	-11.0821
為姦	-11.0823
有天下者	-11.0823
喜怒	-11.0824
謝病	-11.0827
殊不知	-11.0835
亦已	-11.0836
山名在	-11.0836
白虎	-11.0836
混一	-11.0837
西陵	-11.0837
殊禮	-11.0838
不意	-11.0838
劉表	-11.0841
大逆	-11.0842
逆順	-11.0846
孰能	-11.0847
而歸之	-11.085
湘東	-11.0851
殺戮	-11.0851
後復為	-11.0852
衣食	-11.0853
相傳	-11.0855
成都府	-11.0859
帝紀	-11.0859
無定	-11.086
平日	-11.0861
皆由	-11.0863
治兵	-11.0863
以授	-11.0864
也葢	-11.0868
立后	-11.0875
南史	-11.0877
手詔	-11.0878
曰不然	-11.0881
用此	-11.0882
受封	-11.0882
隋置	-11.0882
路元	-11.0882
耳然	-11.0885
傳首	-11.0889
跋扈	-11.0891
概	-11.0892
油	-11.0892
愽	-11.0893
鎛	-11.0893
筭	-11.0895
張氏	-11.0895
嶲	-11.0896
毗	-11.0896
陁	-11.0896
繞	-11.0896
辛亥	-11.0897
貂	-11.0897
劫	-11.0897
拾𥙷	-11.0898
太行	-11.0898
自若	-11.0898
阨	-11.0898
辛丑	-11.0899
丁丑	-11.0901
礪	-11.0901
金墉	-11.0904
賈生	-11.0905
冢宰	-11.0905
真定	-11.0905
彦超	-11.0906
師敗績	-11.0907
洪範	-11.0908
潁濱	-11.0908
濟北	-11.0909
諸吕	-11.0911
為質	-11.0912
田氏	-11.0913
千金	-11.0915
獻帝建安	-11.0915
敗亡	-11.0918
晉國	-11.0919
二十五里	-11.0921
魯公	-11.0921
明白	-11.0921
東萊	-11.0923
衆人	-11.0924
乃更	-11.0926
為人所	-11.0928
於市	-11.0928
朱温	-11.0932
而南	-11.0932
孝經	-11.0933
矣是故	-11.0935
紂之	-11.0937
北門	-11.0938
信哉	-11.0939
欲得	-11.0941
二十七	-11.0943
涼州	-11.0943
子路	-11.0949
亦然	-11.095
議和	-11.095
縣界	-11.0955
為僕射	-11.0956
文書	-11.0956
王世充	-11.0966
車師	-11.0966
言路	-11.097
乙未	-11.0977
拒命	-11.0981
有七	-11.0981
隋文	-11.0984
奏言	-11.0986
是後	-11.0988
不解	-11.0989
石門	-11.099
蘇氏	-11.099
餓死	-11.0991
哉夫	-11.0991
晉宋	-11.0996
其所為	-11.0999
一嵗	-11.1
所據	-11.1
復用	-11.1003
人臣之	-11.1005
僣國	-11.1007
州名注見	-11.1008
悉平	-11.1009
三十六年	-11.1011
再三	-11.1011
拒戰	-11.1013
戸部	-11.1014
大震	-11.1015
伐燕	-11.1017
愿	-11.1017
鄭公	-11.102
歐	-11.1021
次之	-11.1023
泊	-11.1024
用左傳史記	-11.1025
曏	-11.1026
摭	-11.1027
褚	-11.1027
芥	-11.1027
秦屬	-11.1028
抜	-11.1029
咄	-11.1029
婉	-11.103
於是始	-11.103
聶	-11.103
阿珠	-11.1031
种	-11.1032
庚子	-11.1032
著於	-11.1033
燮	-11.1033
秦置	-11.1033
籙	-11.1033
驕奢	-11.1035
鳥獸	-11.1035
甚至	-11.1035
徂	-11.1035
丙申	-11.1035
蚡	-11.1036
丁亥	-11.1037
稱之	-11.1037
何患	-11.1037
所忌	-11.1038
少昊	-11.104
賊臣	-11.1045
其鋒	-11.1046
名分	-11.1047
本朝因之屬	-11.105
僣號	-11.105
勿以	-11.1055
不變	-11.1057
驪山	-11.1057
方畧	-11.1058
憚之	-11.1059
宰執	-11.1059
餓	-11.106
為御史大夫	-11.1061
建隆	-11.1062
目前	-11.1063
丈夫	-11.1063
為盗	-11.1065
小臣	-11.1067
節儉	-11.1074
不恱	-11.1074
興兵	-11.1075
衛人	-11.1076
大司農	-11.1076
而西	-11.1077
愛人	-11.1078
篇曰	-11.1082
諸道兵	-11.1082
財物	-11.1084
真卿	-11.1085
天下之勢	-11.1085
非禮	-11.1086
小兒	-11.1087
萬户	-11.1092
倉卒	-11.1092
宜哉	-11.1095
孝王	-11.1098
知誥	-11.1103
注見漢獻	-11.1103
鄉侯	-11.1106
守成	-11.111
亳州	-11.1113
永初	-11.1114
還至	-11.1114
得國	-11.1119
中大夫	-11.1126
萬全	-11.1128
王衍	-11.1128
不修	-11.1129
顧引	-11.1131
市易	-11.1133
夏主	-11.1134
闗東	-11.1137
得其人	-11.114
特筆	-11.1143
書伏誅	-11.1145
磬	-11.1149
請誅	-11.1152
闕下	-11.1153
敬瑄	-11.1154
季札	-11.1155
甲士	-11.1156
党項	-11.1156
疊	-11.1157
廵狩	-11.1158
㤙	-11.1158
己未	-11.1158
儋	-11.1159
延齡	-11.1159
寧宗	-11.116
誑	-11.1161
南侵	-11.1161
狄仁傑	-11.1162
轡	-11.1162
蒲坂	-11.1162
璜	-11.1163
疵	-11.1164
煙	-11.1164
殽	-11.1165
己亥	-11.1165
黥	-11.1165
狠	-11.1165
子思	-11.1165
赤壁	-11.1168
白帝	-11.1169
任用	-11.1169
驃騎	-11.1172
仲堪	-11.1176
百五十	-11.1177
李輔國	-11.1179
又命	-11.1181
高平	-11.1182
斷其	-11.1184
紀修	-11.1186
無非	-11.1186
縱火	-11.119
不答	-11.119
穀梁	-11.1194
彌逺	-11.1196
氏為皇后	-11.12
洛邑	-11.1201
議事	-11.1206
小大	-11.1209
南燕	-11.121
兵圍	-11.121
婦女	-11.1211
公室	-11.1215
漢高帝	-11.1217
東周	-11.1218
敢不	-11.1221
王政	-11.1222
且言	-11.1226
稱疾不	-11.1226
榖梁	-11.1226
羣下	-11.123
伊吾	-11.1233
相望	-11.1233
專以	-11.1234
遂取	-11.1234
周世宗	-11.1234
奉使	-11.1238
千騎	-11.1238
藥師	-11.124
少年	-11.1243
入援	-11.1244
失道	-11.1246
未足	-11.1248
引去	-11.1249
自强	-11.1255
和帝	-11.1259
附於	-11.126
侍臣	-11.1261
之例	-11.1263
難制	-11.1263
請命	-11.1266
其氣	-11.127
破賊	-11.127
詔令	-11.1272
盡矣	-11.1273
厲王	-11.1275
音釋	-11.1281
大位	-11.1285
梯	-11.129
沅	-11.1291
防禦使	-11.1291
蔓	-11.1291
沙漠	-11.1292
曩	-11.1292
殱	-11.1295
滂	-11.1295
餒	-11.1295
祇	-11.1296
孟軻	-11.1296
卬	-11.1297
羯	-11.1297
壬午	-11.1297
噬	-11.1298
鏡	-11.1298
二郡	-11.1299
䓁	-11.1299
阬	-11.1299
至城下	-11.1299
大畧	-11.1301
曰自古	-11.1302
祥符	-11.1302
陸遜	-11.1303
守令	-11.1303
諺	-11.1303
又詔	-11.1307
盤庚	-11.1308
宕	-11.1309
之歌	-11.1313
也綱目書	-11.1316
不戰	-11.1316
亞夫	-11.1316
之義也	-11.1321
諌官	-11.1321
人望	-11.1322
晉室	-11.1326
中書省	-11.1327
直學士	-11.1327
桓𤣥	-11.1328
告于	-11.1329
鄧禹	-11.1329
周瑜	-11.1335
安陸	-11.1336
淮水	-11.1339
一軍	-11.134
魏師	-11.1343
龍城	-11.1345
東遷	-11.1346
楚材	-11.1347
重華	-11.1348
隋文帝	-11.1354
記事	-11.1356
雅樂	-11.1357
東下	-11.1359
四千	-11.1363
貢舉	-11.1368
魏氏	-11.1372
張俊	-11.1376
無逸	-11.1378
者也故	-11.1379
秦兵	-11.1385
貞觀中	-11.1387
南郊	-11.1392
餘黨	-11.1392
泣下	-11.1393
記云	-11.1398
秀實	-11.14
夏四月以	-11.1405
天下事	-11.1405
潁濱曰	-11.1414
襄城	-11.1421
張湯	-11.1426
幅	-11.1427
建州	-11.143
蔡邕	-11.1431
部將	-11.1431
㲄	-11.1432
銑	-11.1432
匃奴	-11.1432
褊	-11.1432
合於	-11.1435
交阯	-11.1436
七百	-11.1437
死傷	-11.1438
謂侍臣曰	-11.1438
呈	-11.1439
慶緒	-11.144
甘泉	-11.1441
罔不	-11.1441
李紹	-11.1441
司馬氏	-11.1443
戰勝	-11.1443
渦	-11.1444
威名	-11.1446
其智	-11.1446
在朝	-11.1446
何待	-11.1446
斛律	-11.1447
趙鞅	-11.145
史氏	-11.145
然後知	-11.1453
者悉	-11.1454
處分	-11.1454
褒貶	-11.1458
以叛	-11.1458
欲用	-11.1459
城外	-11.146
皆所以	-11.1462
繫之	-11.1465
著矣	-11.1466
乃能	-11.1467
而弗	-11.1467
髙平	-11.1468
國寳	-11.1469
曽孫	-11.1472
明主	-11.1474
晉元帝	-11.1474
尚何	-11.1475
宜陽	-11.1475
書擊	-11.1477
北平	-11.1478
康公	-11.1489
臨川	-11.1489
疾苦	-11.1492
失職	-11.1494
有衆	-11.1495
疾篤	-11.1495
内附	-11.1497
是何	-11.1499
月餘	-11.1502
郡太守	-11.1502
北史	-11.1504
行在	-11.1507
石虎	-11.1509
之時也	-11.1512
亦足以	-11.1513
大饑	-11.1514
石顯	-11.1517
近古	-11.1518
山谷	-11.1518
靈王	-11.1519
勉之	-11.1522
亦足	-11.1525
張華	-11.1526
尚父	-11.1528
邢州	-11.1528
何能	-11.1534
誰敢	-11.1535
二十一	-11.1538
八萬	-11.1539
百司	-11.154
平定	-11.1542
乃引	-11.1544
不然則	-11.1545
全節	-11.1546
秦皇	-11.1548
義成	-11.1553
無日	-11.1555
子胥	-11.1555
數十年	-11.1556
定國	-11.1558
襄國	-11.156
因之改屬	-11.156
甚明	-11.1563
劔	-11.1565
仙芝	-11.1568
樵	-11.1569
旄	-11.1569
故有是命	-11.157
株	-11.157
部分	-11.1571
廖	-11.1572
撥亂	-11.1572
菑	-11.1572
匈	-11.1573
澆	-11.1573
釀	-11.1574
驩	-11.1574
頂	-11.1576
胷	-11.1576
扆	-11.1577
遣還	-11.1577
滌	-11.1578
軼	-11.1578
和二年	-11.1579
筮	-11.1579
梧	-11.158
獻子	-11.158
海州	-11.1581
餗	-11.1581
掖庭	-11.1582
稟	-11.1583
庚辰	-11.1583
浙東	-11.1584
田令孜	-11.1584
奴婢	-11.1584
上章	-11.1585
西南夷	-11.1586
永徽	-11.1587
知州	-11.1592
其美	-11.1594
名士	-11.1599
受禪	-11.1602
軍容	-11.1605
蓋亦	-11.1606
祭酒	-11.1607
者不過	-11.1611
初復為	-11.1613
髙陽	-11.1613
二月以	-11.1619
不可謂	-11.1621
世傑	-11.1623
䝉古兵	-11.1624
曰今日	-11.1625
洪州	-11.1626
伯禽	-11.1636
樂天	-11.164
注見漢武	-11.1641
注見秦始皇	-11.1647
高陽	-11.1647
初年	-11.1648
所以見	-11.1654
慮其	-11.1655
又嘗	-11.1656
衛將軍	-11.1657
監國	-11.1657
非常之	-11.166
長公主	-11.1664
東川	-11.1678
歸罪	-11.1679
宗正	-11.1681
欲盡	-11.1684
漢唐	-11.1685
誘之	-11.1686
崧	-11.1691
而後已	-11.1693
太弟	-11.1693
至扵	-11.1694
不備	-11.1696
如是則	-11.1698
金屬	-11.17
謀主	-11.1701
浞	-11.1702
杲	-11.1702
國君	-11.1702
李固	-11.1703
士誠	-11.1703
何耶	-11.1703
賢於	-11.1704
瀛州	-11.1705
桞	-11.1706
嵇	-11.1707
蒸	-11.1709
片	-11.1709
蔵	-11.1709
家國	-11.1709
靳	-11.171
范純仁	-11.171
孥	-11.171
烽	-11.171
呼必賚	-11.171
裴寂	-11.1711
始得	-11.1711
事勢	-11.1712
黷	-11.1713
河水	-11.1713
爲之	-11.1715
摶	-11.1715
抄	-11.1715
帝如上都	-11.1716
綱目所書	-11.1717
陌	-11.1717
立廟	-11.1717
聽政	-11.1718
濞	-11.1718
己丑	-11.1719
沸	-11.172
也故曰	-11.172
朞	-11.172
歎息	-11.1722
漢家	-11.1723
孫盛	-11.1723
詰之	-11.1724
藍田	-11.1724
臨洮	-11.1725
房杜	-11.1727
馬燧	-11.1727
百揆	-11.1728
廢之故城在	-11.1728
北邊	-11.1729
我我	-11.173
百八十	-11.1734
宣徽	-11.1738
衛尉	-11.1741
漢高	-11.1741
臣願	-11.1744
周武王	-11.1745
武俊	-11.1747
謀誅	-11.1748
太宗貞觀	-11.175
不法	-11.1753
近代	-11.1757
是歳	-11.1758
十二里	-11.1759
祖考	-11.176
出鎮	-11.1762
寧州	-11.1763
追至	-11.1769
二縣	-11.1769
之故城在	-11.1772
軍政	-11.1776
五百人	-11.1783
守備	-11.1783
元濟	-11.1784
中興之	-11.1784
之策	-11.1789
王欽若	-11.1791
名實	-11.1792
改名	-11.1793
連兵	-11.1793
文明	-11.1795
鄭氏	-11.1799
國珍	-11.18
深譏之	-11.1803
呼曰	-11.1807
而相	-11.1812
益都	-11.1814
多少	-11.1816
旱蝗	-11.1821
刑賞	-11.1821
胡人	-11.1822
之甚也	-11.1826
若水	-11.1828
七千	-11.1831
守節	-11.1832
山西	-11.1833
經史	-11.184
諭之曰	-11.1843
衛州	-11.1844
郡後魏	-11.1847
裏	-11.1847
淮北	-11.1848
響	-11.1849
蒯	-11.1849
栖	-11.185
繪	-11.185
茍非	-11.1851
程頥	-11.1851
也後世	-11.1851
鎧	-11.1851
武穆	-11.1852
通好	-11.1853
鹵	-11.1853
復命	-11.1853
稼穡	-11.1855
贅	-11.1855
奥	-11.1857
麴	-11.1857
洙	-11.1857
韓世忠	-11.1857
䙝	-11.1857
乙丑	-11.1858
昨	-11.1858
頽	-11.1858
羈	-11.1858
研	-11.1859
僧尼	-11.1859
朱熹	-11.1859
猖	-11.186
友諒	-11.1862
戊申	-11.1863
撃之	-11.1864
縣治	-11.1864
關東	-11.1865
三尺	-11.1865
庾亮	-11.1866
旒	-11.1866
嵗幣	-11.1869
遣兵擊	-11.187
衛士	-11.1882
守禦	-11.1884
措置	-11.1887
感動	-11.1888
傳檄	-11.1893
非禮也	-11.1893
大惡	-11.1893
安豐	-11.1897
元祀	-11.1901
實錄	-11.1905
渡淮	-11.1905
獲其	-11.1906
而不用	-11.1907
晋侯	-11.1908
禁軍	-11.1908
秋七月以	-11.1909
七十餘	-11.1909
十有四年	-11.1911
北漢主	-11.1915
軍府	-11.1915
削其	-11.1919
桓文	-11.1922
騎射	-11.1922
竟陵	-11.1923
九鼎	-11.1924
誅戮	-11.1926
汾州	-11.193
之狀	-11.1932
陳州	-11.1938
若能	-11.1938
天聖	-11.1939
不能盡	-11.195
田租	-11.1951
燕人	-11.1952
一夕	-11.1953
貴賤	-11.1954
博學	-11.1956
于外	-11.1956
常州	-11.196
流入	-11.1961
誰能	-11.1962
洛州	-11.1963
六萬	-11.1963
康子	-11.1963
言之則	-11.1964
唐史	-11.1968
謂我	-11.1973
多言	-11.1976
失國	-11.1982
侍衛	-11.199
斡	-11.1994
拓䟦	-11.1994
建平	-11.1994
恩信	-11.1995
有司奏	-11.1996
頡	-11.1997
亡秦	-11.1997
鼂錯	-11.1999
此意	-11.1999
两	-11.1999
蔡人	-11.1999
繼岌	-11.2
勘	-11.2001
雌	-11.2001
荼	-11.2002
燕趙	-11.2002
為樞宻使	-11.2002
注見漢帝𤣥更始二年	-11.2003
冩	-11.2003
自衛	-11.2003
瑩	-11.2005
不可勝計	-11.2007
鉉	-11.2007
楯	-11.2008
史炤	-11.2009
井陘	-11.201
甚盛	-11.2012
少誠	-11.2015
𢎞靖	-11.2015
御史臺	-11.2017
步騎	-11.2019
李繼	-11.2019
有異志	-11.2021
辟雍	-11.2023
官名注見	-11.2025
被殺	-11.2026
非獨	-11.2027
鄴都	-11.2027
前鋒	-11.2027
戒嚴	-11.2029
雒陽	-11.203
伐趙	-11.2031
王劭	-11.2032
戸口	-11.2032
錢榖	-11.2033
汴京	-11.2033
注見周安王	-11.2035
衞侯	-11.2041
樂毅	-11.2042
山林	-11.2044
十有五年	-11.2044
者歟	-11.2045
三年春正月	-11.2049
王琳	-11.2049
六七	-11.205
楚楚	-11.205
夀陽	-11.2054
微子	-11.2055
大寳	-11.2057
光庭	-11.206
矣終綱目書	-11.2064
為萬世	-11.2065
沮之	-11.2067
可惜	-11.2077
進奉	-11.2079
國體	-11.2081
正義	-11.2083
萬嵗	-11.2084
漢獻帝建安十	-11.2084
良嗣	-11.2085
神龍	-11.2086
南平	-11.2096
宫闕	-11.2098
書法如此	-11.2102
失節	-11.2105
夫差	-11.2105
夏口	-11.2107
童子	-11.2108
三王之	-11.2119
也夫以	-11.2119
自叙	-11.2122
光宗	-11.2122
糧盡	-11.2124
神人	-11.2124
公侯	-11.2131
成徳	-11.2134
任賢	-11.2135
棗	-11.2136
公劉	-11.2138
棊	-11.2138
勑	-11.2139
僧孺	-11.214
影	-11.2141
天寳初改	-11.2143
許敬宗	-11.2145
蒐	-11.2145
壬寅	-11.2145
田宅	-11.2146
追封	-11.2147
斯民	-11.2147
隋煬帝大業	-11.2148
壬辰	-11.2148
卵	-11.2149
對曰陛下	-11.215
釣	-11.215
蕭望之	-11.215
靈帝中平	-11.2151
澤州	-11.2152
弇	-11.2152
陶侃	-11.2152
巽	-11.2155
謀殺	-11.2155
野王	-11.2155
苾	-11.2157
蕭衍	-11.2158
會稽	-11.2158
等十	-11.2162
文景	-11.2164
異議	-11.2168
詔罷	-11.2169
相率	-11.2174
立政	-11.2174
秉政	-11.2176
所以示	-11.2178
清明	-11.2178
四字	-11.2179
尊卑	-11.2181
王崩子	-11.2189
親近	-11.219
求援	-11.2191
將何以	-11.2191
州都督	-11.2199
四岳	-11.2199
遣其將	-11.22
損益	-11.2203
出塞	-11.2204
移書	-11.2208
職事	-11.2208
西夏	-11.2213
司馬公	-11.2216
洛水	-11.2217
智勇	-11.2218
存焉	-11.2225
家法	-11.2228
屢敗	-11.2239
相結	-11.2239
彦章	-11.2241
削其官	-11.225
戮力	-11.2251
知祥	-11.2252
帥師伐	-11.2256
傳注	-11.2259
今陛下	-11.2259
吳興	-11.2261
主帥	-11.2263
遷延	-11.2264
我朝	-11.2265
冬十月以	-11.2266
子夏	-11.2268
驪	-11.2271
後漢書	-11.2271
耳夫	-11.2272
天下後世	-11.2274
用法	-11.228
繫於	-11.2282
黨與	-11.2282
不才	-11.2283
晉安	-11.2287
怙	-11.2287
廼	-11.2288
媵	-11.2289
不至於	-11.2289
䕃	-11.229
不能守	-11.229
提要無	-11.229
殉	-11.2291
太子即位	-11.2292
臭	-11.2293
抃	-11.2295
軒轅	-11.2295
祔	-11.2295
函谷	-11.2296
宗周	-11.2296
爛	-11.2296
拙	-11.2296
踞	-11.2297
肆其	-11.2297
癸酉	-11.2298
殛	-11.2298
曽不	-11.2298
均輸	-11.2299
哭之	-11.2299
身死	-11.23
進圍	-11.23
崤	-11.2301
𫝊曰	-11.2301
古邑名	-11.2301
牋	-11.2303
湣	-11.2303
也故書	-11.2303
南朝	-11.2304
丙寅	-11.2304
正其罪	-11.2304
酤	-11.2305
京畿	-11.2306
上林	-11.2306
尚存	-11.2306
蚩尤	-11.2306
冬至	-11.2309
教民	-11.231
蔡氏	-11.2311
韓侂胄	-11.2312
百官表	-11.2316
靈臺	-11.2319
恒山	-11.232
南向	-11.232
禪位	-11.2322
彦澤	-11.2326
罪人也	-11.2327
姚崇	-11.2329
本意	-11.2331
禍敗	-11.2334
竭力	-11.2337
漢興	-11.2338
府兵	-11.2342
什一	-11.2343
都城	-11.2344
不愛	-11.2344
共工	-11.2344
周勃	-11.2346
一舉而	-11.2347
政府	-11.235
陽侯	-11.2353
儒學	-11.2354
正道	-11.2354
后父	-11.2356
擊破	-11.2357
兼并	-11.236
選舉	-11.2364
上尊號	-11.2366
朝恩	-11.2371
入侍	-11.2385
位號	-11.2386
孟氏	-11.2388
兵力	-11.2389
臨海	-11.2389
宗澤	-11.239
天討	-11.2396
邾人	-11.2397
宫女	-11.2399
高昌	-11.24
犍	-11.2401
卿大夫	-11.2402
收復	-11.2402
水土	-11.2407
漢獻帝	-11.2409
清河王	-11.241
何以為	-11.2411
離心	-11.2411
宫殿	-11.2413
蒯聵	-11.2413
於此矣	-11.2413
改州為	-11.2414
繼世	-11.2415
家屬	-11.2415
北宫	-11.2415
不赦	-11.2415
孝宣	-11.242
魏徵	-11.2429
公著	-11.243
禍及	-11.2433
祉	-11.2435
而遣之	-11.2437
三十七年	-11.2438
啇	-11.2442
夘	-11.2443
失信	-11.2443
朔日有食之	-11.2443
琅邪王	-11.2445
范曄	-11.2447
纓	-11.2448
闥	-11.2448
廂	-11.2448
燼	-11.2448
郎官	-11.2448
裨	-11.2448
眩	-11.2449
豊	-11.2449
裹	-11.2449
尺寸	-11.245
遞	-11.245
武帝元鼎六年	-11.245
鬰	-11.2451
戊午	-11.2451
府城西	-11.2451
路本朝	-11.2454
分遣	-11.2454
戩	-11.2455
稠	-11.2455
咽	-11.2456
髙昌	-11.2456
旦夕	-11.2457
天后	-11.2457
庭芝	-11.2462
但當	-11.2465
舊本	-11.2466
京房	-11.2466
僚屬	-11.2467
險阻	-11.2467
子女	-11.2467
留侯	-11.247
招撫	-11.2472
大學	-11.2472
聽其	-11.2473
肉刑	-11.2476
不遜	-11.2477
侍從	-11.2477
平陽府	-11.2477
巴東	-11.2482
萬匹	-11.2486
刑名	-11.2486
士良	-11.2486
聞之曰	-11.2498
未聞有	-11.2501
姜氏	-11.2504
萬邦	-11.2504
少帝	-11.2508
良臣	-11.251
復還	-11.2514
黄州	-11.2517
其狀	-11.2518
方伯	-11.2522
敬業	-11.253
尚在	-11.2532
中宗嗣聖	-11.2534
萬計	-11.2534
綱目書此	-11.2535
自焚	-11.2537
别將	-11.254
郡後周	-11.2544
元朔	-11.2554
用心	-11.2554
來聘	-11.2555
謹按	-11.2557
舉事	-11.2558
之謂乎	-11.2558
終身不	-11.2563
宋師	-11.2566
於其間	-11.2568
景徳	-11.2569
大厯	-11.2573
長江	-11.2575
六合	-11.2577
中宫	-11.2579
失色	-11.2583
百戰	-11.2589
郗	-11.2595
杲卿	-11.2597
核	-11.2597
杯	-11.2598
為前鋒	-11.2598
袖	-11.2599
潼	-11.2599
嗤	-11.2599
晏子	-11.26
響應	-11.26
鼓譟	-11.2601
丙辰	-11.2601
燉煌	-11.2601
猶且	-11.2602
公孫述	-11.2603
濕	-11.2603
矣况	-11.2604
夸	-11.2604
緑	-11.2605
罸	-11.2606
昕	-11.2606
疋	-11.2607
仇士良	-11.2607
希萼	-11.2609
定襄	-11.261
辛巳	-11.2612
知伯	-11.2612
牛羊	-11.2614
樞宻院	-11.2615
武帝泰始	-11.2615
𤣥謨	-11.2618
復振	-11.2618
偷生	-11.2622
申公	-11.2623
穆呼哩	-11.2623
疾病	-11.2624
軍名注見	-11.2625
殷浩	-11.2626
或疑	-11.2627
李希烈	-11.2628
世世	-11.2628
車服	-11.2636
吳主	-11.264
其計	-11.2642
鄂州	-11.2644
所繫	-11.2646
州尋	-11.2646
諸軍事	-11.2652
徐州刺史	-11.2652
死士	-11.2652
及聞	-11.2652
二十餘年	-11.2653
大雅	-11.2653
五代梁	-11.2657
一隅	-11.2658
蒲州	-11.266
都邑	-11.2661
掩其	-11.2662
貞觀初	-11.2662
牙將	-11.2662
之亡也	-11.2668
湘州	-11.2673
馮異	-11.2678
江州刺史	-11.2678
推誠	-11.2689
臨事	-11.269
溺死	-11.2694
杜氏	-11.2694
威武	-11.2696
河决	-11.2698
武庫	-11.2698
春秋之義	-11.2706
又音	-11.2709
四世	-11.271
既定	-11.2712
入寇	-11.2717
無備	-11.2717
議郎	-11.2719
寢疾	-11.2726
荀子	-11.2728
可求	-11.273
興利	-11.2734
四鎮	-11.2735
入長安	-11.2741
壬子	-11.2743
恐非	-11.2747
俄而	-11.2747
宰臣	-11.2748
延州	-11.2751
聲言	-11.2752
為翰林學士	-11.2752
斵	-11.2753
能用	-11.2753
挑戰	-11.2753
姦宄	-11.2754
呼沙呼	-11.2754
寐	-11.2755
聖賢之	-11.2755
嵬	-11.2755
鎻	-11.2756
天福	-11.2756
芟	-11.2757
殃	-11.2757
撲	-11.2757
軸	-11.2758
吕大防	-11.2758
有星孛于	-11.2759
梓潼	-11.2759
審矣	-11.2759
録尚書事	-11.2759
倨	-11.276
為己任	-11.276
黠	-11.2761
知樞宻院事	-11.2761
特們徳爾	-11.2763
范蠡	-11.2764
電	-11.2764
馥	-11.2766
簡公	-11.2767
戰國䇿	-11.2767
商鞅	-11.2767
綘	-11.2768
企	-11.2768
縉	-11.2768
羽翼	-11.2769
鎮惡	-11.277
饌	-11.2772
九卿	-11.2772
宰輔	-11.2773
犬戎	-11.2773
廢后	-11.2774
噲	-11.2775
節鉞	-11.2775
建炎	-11.2778
宇文泰	-11.278
猶能	-11.2782
漢氏	-11.2788
綱目於此	-11.2791
舉措	-11.2791
後復置	-11.2792
徳威	-11.2793
燕山	-11.2793
臣節	-11.2794
百工	-11.2798
上下相	-11.2801
元景	-11.2803
詩賦	-11.2804
害民	-11.2805
是誠	-11.2806
舜典	-11.2807
平原君	-11.2809
曰先帝	-11.2815
上古	-11.2816
安撫使	-11.2818
季歴	-11.2826
東海王	-11.2827
目書	-11.2828
渭水	-11.2828
為太傅	-11.2836
所惡	-11.2836
車馬	-11.2838
終綱	-11.284
蘇州	-11.2845
復取	-11.2846
人之國	-11.2848
人力	-11.2853
長沙王	-11.2854
矣雖然	-11.2854
名器	-11.2854
楚國	-11.2858
王爵	-11.2861
者甚衆	-11.2866
是豈	-11.2869
正徳	-11.2871
也左傳	-11.2877
神主	-11.2881
或言	-11.2883
相接	-11.2884
遑	-11.2885
未發	-11.2886
忠嗣	-11.2887
腰	-11.2889
蘭陵	-11.2892
下吏	-11.2894
長平	-11.2895
為右丞相	-11.2898
廬陵	-11.2899
所引	-11.2901
削去	-11.2907
潼闗	-11.2908
一條	-11.2909
朝貢	-11.291
覊	-11.291
擔	-11.2911
濮州	-11.2911
胎	-11.2912
歴陽	-11.2912
遍	-11.2914
阪	-11.2914
倩	-11.2915
衂	-11.2915
褘	-11.2915
蔡確	-11.2915
非義	-11.2917
庚戌	-11.2918
瘠	-11.2919
悝	-11.2919
徭	-11.292
棠	-11.2921
沙陀	-11.2921
財賦	-11.2922
趾	-11.2922
肝	-11.2924
蕭瑀	-11.2925
棄城走	-11.2925
慕容垂	-11.2927
不惑	-11.2929
梓宫	-11.2929
肺	-11.293
朱滔	-11.293
祏	-11.2932
之類是也	-11.2932
切齒	-11.2933
之域	-11.2935
曰吾聞	-11.2936
謂左右曰	-11.294
供奉	-11.2945
霍氏	-11.2949
雍州刺史	-11.2951
鮮有	-11.2951
分裂	-11.2952
伐蜀	-11.2952
潤州	-11.2955
不奉詔	-11.2959
新都	-11.2961
昌言	-11.2965
上聲	-11.2965
夷吾	-11.2967
舎人	-11.2969
絳州	-11.297
竇氏	-11.297
欺君	-11.297
畢公	-11.2973
也又曰	-11.2973
所稱	-11.2974
不給	-11.2976
宋文帝元嘉	-11.298
說文	-11.2984
者何哉	-11.2985
天之所	-11.2989
荆楚	-11.2989
州大業初	-11.2993
不自知	-11.2995
四十五年	-11.2996
退屯	-11.2997
中華	-11.2999
求救於	-11.3
黄老	-11.3002
不濟	-11.3003
給事	-11.3003
七萬	-11.3005
有大功	-11.3006
西突厥	-11.3011
之本也	-11.3011
俊臣	-11.3011
恤民	-11.3013
三十一年	-11.3018
四十年	-11.3022
嗣聖	-11.3024
建立	-11.3025
皇孫	-11.303
欲誅	-11.3031
郡名注見漢光武建武	-11.3034
初即位	-11.3035
島	-11.3038
所聞	-11.3045
趙孟	-11.3047
世隆	-11.3051
煬	-11.3058
政刑	-11.3062
非特	-11.3066
史稱	-11.3067
閽	-11.3068
倪	-11.3068
移治	-11.3068
憫	-11.307
城名注見	-11.3071
捧	-11.3071
邃	-11.3072
翌日	-11.3072
孔眀	-11.3072
豈宜	-11.3074
漢景帝	-11.3074
注見楚義帝元年	-11.3074
泉州	-11.3075
堵	-11.3077
侗	-11.3078
牝	-11.3079
廢置	-11.3079
慤	-11.3079
衘	-11.308
茫	-11.308
司𨽻校尉	-11.3081
虹	-11.3082
呼韓邪	-11.3082
彫	-11.3082
文煥	-11.3083
阿哈瑪特	-11.3083
霧	-11.3085
佯	-11.3085
䝉遜	-11.3086
禳	-11.3089
塞外	-11.309
冠軍	-11.309
夏竦	-11.3091
槃	-11.3091
癸巳	-11.3091
禁止	-11.3092
進賢	-11.3092
朱氏	-11.3093
華山	-11.3097
羌胡	-11.3098
堅壁	-11.3098
三十三年	-11.3098
兵器	-11.3098
坦之	-11.3099
有愧	-11.31
昭然	-11.31
為中書令	-11.31
仲舒	-11.3103
伐晉	-11.3104
素服	-11.3106
播遷	-11.3106
典禮	-11.3107
二女	-11.3112
修徳	-11.3113
力爭	-11.3115
曾孫	-11.3115
數百里	-11.3122
迎立	-11.3122
之主也	-11.3127
荆門	-11.3127
以下皆	-11.3128
注見漢文帝	-11.313
隋廢	-11.3131
災變	-11.3138
是歲	-11.3142
老弱	-11.3146
豈特	-11.3147
兩淮	-11.3147
百二十	-11.3149
遇害	-11.3152
吏士	-11.3161
懌	-11.3164
威儀	-11.3167
馬遷	-11.3171
永寧	-11.3172
淳于	-11.3176
不恭	-11.3179
故直書	-11.3188
王韶	-11.319
廣武	-11.3192
赧	-11.3194
嘗言	-11.3194
已久	-11.3198
本朝改為	-11.3203
藝文	-11.3206
在其中	-11.3208
聘于	-11.3208
大半	-11.3211
得罪於	-11.3214
故吏	-11.3218
宋元仍舊	-11.3218
書序	-11.322
八行	-11.3221
専權	-11.3223
懐王	-11.3224
齊魯	-11.3228
擊匈奴	-11.323
蟠	-11.3231
鏐	-11.3233
淝	-11.3233
勰	-11.3234
宣州	-11.3235
甚哉	-11.3237
猗	-11.3238
聳	-11.3238
跣	-11.3238
顏	-11.3239
上曰朕	-11.3239
慚	-11.324
挑	-11.324
羆	-11.324
骸	-11.3241
重進	-11.3241
據事直書	-11.3242
歸附	-11.3242
卒弟	-11.3242
毓	-11.3242
肜	-11.3242
篆	-11.3243
惕	-11.3244
葦	-11.3244
魚朝恩	-11.3244
鋹	-11.3245
峙	-11.3245
爪牙	-11.3245
庚寅	-11.3246
蔬	-11.3246
掊	-11.3246
道名注見	-11.3246
誚	-11.3247
幡	-11.3247
𦍑	-11.3247
者何也	-11.3248
即帝位	-11.3248
异	-11.3248
北狄	-11.3249
感悟	-11.3249
庭湊	-11.3249
剽掠	-11.325
帝還大都	-11.325
頵	-11.3252
髙駢	-11.3252
而不知其	-11.3252
冡宰	-11.3252
陘	-11.3253
出處	-11.3255
句踐	-11.3255
欠	-11.3255
夷齊	-11.3257
地理	-11.3257
荀息	-11.3258
澤潞	-11.3258
沮渠	-11.3259
史家	-11.326
謂人曰	-11.326
簒奪	-11.3261
黄鍾	-11.3262
依違	-11.3265
踰月	-11.3268
勤勞	-11.3268
言於上曰	-11.3268
不啻	-11.3271
賂遺	-11.3274
宗廟社稷	-11.3276
昭昭	-11.3277
無恥	-11.3279
任城	-11.328
兼置	-11.3281
柱國	-11.3286
居攝	-11.3287
嗟夫	-11.3287
流血	-11.329
京西	-11.3298
谷永	-11.3299
離間	-11.33
十餘里	-11.3301
保甲	-11.3301
朝㑹	-11.3303
封拜	-11.3311
成臯	-11.3317
衞人	-11.3318
假道	-11.332
兩軍	-11.3327
初政	-11.3327
十有三	-11.3329
皆譏也	-11.3332
一千	-11.3334
知節	-11.3335
三百里	-11.3336
延熹	-11.3338
荆湖	-11.3338
注見秦始皇三十	-11.3342
注見漢後主	-11.3342
漢祖	-11.3346
也顔師古曰	-11.3349
承宗	-11.335
七里	-11.335
有罪免	-11.3351
有功於	-11.3353
里克	-11.3358
蕭氏	-11.336
連年	-11.3362
羣臣皆	-11.3363
不幸而	-11.3364
出迎	-11.3371
周召	-11.3374
不朽	-11.3379
皆殺之	-11.338
邠州	-11.3381
臣子之	-11.3382
夷夏	-11.3384
不豫	-11.3391
城東南	-11.3392
素無	-11.3393
注見晉武帝	-11.3394
話	-11.3398
吳楚	-11.3399
趙髙	-11.3399
無統	-11.3399
脂	-11.3402
豢	-11.3402
脊	-11.3403
棲	-11.3404
歿	-11.3404
犂	-11.3404
伾	-11.3405
不覺	-11.3405
緝	-11.3406
亂臣	-11.3406
怡	-11.3406
勾踐	-11.3407
𤨏	-11.3407
諫諍	-11.3408
山澤	-11.3408
農桑	-11.3408
厮	-11.3408
購	-11.3409
碣石	-11.341
魂	-11.341
瓠	-11.3411
陲	-11.3411
秘書監	-11.3412
國子監	-11.3412
葺	-11.3413
為樞宻副使	-11.3413
懾	-11.3414
二百里	-11.3414
越嶲	-11.3414
子良	-11.3414
爕	-11.3414
㨿	-11.3415
蕭道成	-11.3415
伽	-11.3416
精鋭	-11.3416
驕恣	-11.3417
讙	-11.3418
邴	-11.342
暴虐	-11.3421
戊辰	-11.3421
嫗	-11.3426
武備	-11.3432
熈寧	-11.3433
特進	-11.3433
樂平	-11.3436
乞師	-11.3437
胡亥	-11.3441
從榮	-11.3442
諸司	-11.3443
焉用	-11.3443
安禄山	-11.3445
私恩	-11.3447
入洛	-11.345
悔過	-11.3451
濠州	-11.3453
君臣相	-11.3453
東井	-11.3457
先君之	-11.3459
貶黜	-11.346
學術	-11.3461
十有六年	-11.3465
仲禮	-11.3466
訛言	-11.3473
還鎮	-11.3476
少傅	-11.3477
唐𤣥宗	-11.348
陳氏曰	-11.3481
開寳	-11.3484
和氣	-11.3485
陽平	-11.3486
戰不利	-11.3489
帝室	-11.3493
不利於	-11.3493
誤矣	-11.3493
兵大敗	-11.3494
庶乎	-11.3496
棄疾	-11.3498
益州刺史	-11.3507
長久	-11.3509
猶存	-11.3511
書死之	-11.3514
兆民	-11.3516
天錫	-11.3518
南鄭	-11.3521
楚辭	-11.3523
威令	-11.3524
户部	-11.3528
注見秦二世二年	-11.3533
民田	-11.3534
年表世家	-11.3535
達實	-11.3535
不得行	-11.3537
曹州	-11.3538
罪狀	-11.3541
不能討	-11.3542
喪師	-11.3543
失徳	-11.3545
固宜	-11.3546
宣仁	-11.355
殺身	-11.355
景仁	-11.3552
合諸侯	-11.3555
事機	-11.3557
太建	-11.3558
愚按	-11.3558
不敢進	-11.356
論議	-11.3561
多矣未有書	-11.3563
陵夷	-11.3564
璩	-11.3565
追擊	-11.3566
督諸軍	-11.3567
馴	-11.3568
臆	-11.3568
瘡	-11.3568
贏	-11.357
鄘	-11.357
賊勢	-11.3571
携	-11.3572
摰	-11.3572
天威	-11.3573
垢	-11.3573
瑒	-11.3573
澳	-11.3574
竑	-11.3574
㢤	-11.3576
餽	-11.3576
韋昭	-11.3576
踊	-11.3576
匄	-11.3577
媒	-11.3577
娥	-11.3577
璞	-11.3577
訶	-11.3578
貿	-11.3578
子臧	-11.3578
乳母	-11.3579
娛	-11.3579
旗幟	-11.3579
鉗	-11.358
澶淵	-11.3581
澧	-11.3581
䕶軍	-11.3581
瑊	-11.3582
進討	-11.3582
瘞	-11.3582
姜維	-11.3582
淄青	-11.3582
遣使入貢	-11.3583
榻	-11.3584
遯	-11.3584
安邑	-11.3584
崑崙	-11.3585
彩	-11.3585
巫蠱	-11.3585
湓	-11.3586
羅索	-11.3586
碭	-11.3587
賦歛	-11.3588
並起	-11.3588
首領	-11.359
勾	-11.359
𢎞肇	-11.3591
髙熲	-11.3593
緩急	-11.3593
昆弟	-11.3595
太平公主	-11.3595
平聲	-11.3597
觀望	-11.3599
君臣之分	-11.36
然綱目	-11.3608
郊廟	-11.361
奸邪	-11.3611
建初	-11.3612
賈充	-11.3613
委曲	-11.3614
彭越	-11.3614
在河南府	-11.3616
李膺	-11.3616
死亡	-11.3618
西安府	-11.3621
諸陵	-11.3621
儒生	-11.3622
千五百	-11.363
晉惠帝	-11.3631
白起	-11.3632
法制	-11.3633
詔諭	-11.3633
義真	-11.3638
釋氏	-11.364
及即位	-11.3641
租賦	-11.3649
簿書	-11.3652
未有如	-11.3656
吕氏曰	-11.3665
聖人之道	-11.3665
閬	-11.3665
弗許	-11.3666
兩京	-11.3667
度量	-11.3679
貧民	-11.3683
沛國	-11.3683
氣象	-11.3686
還京師	-11.3686
三是年	-11.3686
注見太宗貞觀	-11.3687
秦滅	-11.3687
各置	-11.3689
從諫	-11.3691
知之矣	-11.3694
晋主	-11.3694
五十萬	-11.3695
晋人	-11.3696
越州	-11.3697
政治	-11.3702
欲去	-11.3706
削平	-11.3707
故址在	-11.3728
三十二	-11.3729
詘	-11.3735
民怨	-11.3735
五代史	-11.3737
邊事	-11.3737
凢	-11.3739
亂兵	-11.374
擇其	-11.374
髙䴡	-11.3741
嵐	-11.3742
筵	-11.3745
顔真卿	-11.3745
殺傷	-11.3747
翠	-11.3748
戊戌	-11.3748
鞬	-11.3749
攀	-11.3749
扣	-11.375
誹謗	-11.375
捶	-11.3751
絀	-11.3752
兗州	-11.3752
第四	-11.3752
諌議大夫	-11.3753
沽	-11.3753
旌旗	-11.3754
敝邑	-11.3754
大禹	-11.3755
昜	-11.3755
鈍	-11.3755
拱手	-11.3756
紘	-11.3756
丙戌	-11.3757
辛酉	-11.3757
全誨	-11.3758
屠戮	-11.3758
豨	-11.3759
敺	-11.3759
釋奠	-11.3759
符瑞	-11.376
晏駕	-11.3761
己巳	-11.3764
石敬瑭	-11.3765
之深意	-11.3768
李廣	-11.3769
少師	-11.3771
掃地	-11.3773
佐命	-11.3774
南京	-11.3775
注見漢獻帝	-11.3775
真偽	-11.3775
昆明	-11.3778
陳瓘	-11.3779
擊大破之	-11.3779
河中府	-11.3779
膠東	-11.3782
悉衆	-11.3784
賢不肖	-11.3785
擁衆	-11.3785
沛郡	-11.3786
侯伯	-11.3786
為皇太后	-11.379
附庸	-11.3791
援兵	-11.3792
注見漢光	-11.3794
伐魯	-11.3797
河橋	-11.3797
栁州	-11.3802
注見秦王政	-11.3803
招諭	-11.3804
牧守	-11.3809
臺諌	-11.3809
日久	-11.3811
徐温	-11.3814
是夕	-11.382
不能救	-11.3828
急務	-11.3828
劾奏	-11.3829
畿内	-11.3832
䇿免	-11.3838
矣此其	-11.3841
學問	-11.3842
慶父	-11.3843
無能為	-11.3845
按察	-11.3851
孔光	-11.3853
是月	-11.3859
衆議	-11.3859
則見其	-11.386
謀逆	-11.3862
三司使	-11.3865
𤣥孫	-11.3871
臣不敢	-11.3872
巴西	-11.3879
鞫之	-11.388
求救	-11.3884
大宛	-11.3891
富民	-11.3893
注見周威烈王二十三年	-11.3896
軍節度使	-11.3899
門生	-11.39
器用	-11.39
寵任	-11.3901
刋本	-11.3903
元顯	-11.3906
㑹諸侯	-11.3907
閼	-11.3908
北庭	-11.3913
珂	-11.3914
錮	-11.3914
孝武帝太元	-11.3915
姒	-11.3915
并力	-11.3916
嫂	-11.3917
遙	-11.3917
鼠	-11.3918
倘	-11.3918
跋	-11.3918
蠟	-11.3919
改號	-11.3919
城西北	-11.3919
郡晉屬	-11.392
雅克特穆爾	-11.392
不亦宜乎	-11.392
未詳沿革	-11.392
燎	-11.3921
曰主上	-11.3922
鬚	-11.3922
殿中侍御史	-11.3923
嗚	-11.3924
金玉	-11.3924
隄防	-11.3924
靚	-11.3924
綱目特	-11.3925
俛	-11.3925
渭橋	-11.3925
郭崇韜	-11.3925
黄巾	-11.3925
醴	-11.3926
堤	-11.3926
隧	-11.3926
進爵	-11.3927
圖卜特穆爾	-11.3927
訣	-11.3927
簾	-11.3928
遘	-11.3928
挽	-11.3928
編次	-11.3928
貧賤	-11.3929
撻	-11.3929
疽	-11.3929
鄯善	-11.393
偓	-11.393
秘閣	-11.3931
架	-11.3931
窟	-11.3932
𤣥齡	-11.3932
圯	-11.3932
絡	-11.3932
昌宗	-11.3933
壑	-11.3933
李世勣	-11.3933
不愧	-11.3934
晦日食	-11.3935
武帝元狩	-11.3938
繫獄	-11.3938
父子兄弟	-11.3938
秦王政三年	-11.3938
李嗣源	-11.3942
譬猶	-11.3946
唐末	-11.3946
羲和	-11.3947
壬申	-11.3947
汾隂	-11.3947
市井	-11.3948
上疏言	-11.3948
州總管	-11.3948
遣其子	-11.395
永和	-11.3957
合浦	-11.3957
孟堅	-11.3959
養民	-11.396
注見𤣥宗	-11.3967
宫掖	-11.3968
承乾	-11.3975
璽書	-11.3976
一人而已	-11.3977
之所能	-11.3981
賢否	-11.3983
二月朔日食	-11.3986
更生	-11.3987
守宰	-11.3992
鄰國	-11.3998
虢公	-11.4004
功成	-11.4006
無所不至	-11.4014
昭明	-11.4016
洪水	-11.4016
致死	-11.4016
勇而	-11.4017
兖州府	-11.4017
諡文	-11.4017
地名在	-11.4018
遣使來	-11.4019
節度注見	-11.4019
通謀	-11.402
在應天府	-11.4023
湟	-11.4023
彦卿	-11.4037
代郡	-11.4039
好問	-11.404
威震	-11.4047
進屯	-11.4048
項王	-11.4049
明經	-11.4049
不精	-11.4051
其義自見	-11.4057
新興	-11.4063
邀擊	-11.4065
燕京	-11.4067
免役	-11.4069
卑辭	-11.407
太過	-11.4073
宿州	-11.408
不悅	-11.4081
入蜀	-11.4081
皆出於	-11.4083
迎降	-11.4086
江水	-11.4088
海陵	-11.4088
大司徒	-11.4092
選用	-11.4094
寮	-11.4096
嘿	-11.4096
虗	-11.4097
紆	-11.4097
仲虺	-11.4098
漢宣帝	-11.4098
劉光世	-11.4098
勦	-11.41
濯	-11.41
垍	-11.4102
郅	-11.4103
槖	-11.4104
紐	-11.4104
侑	-11.4105
霖雨	-11.4105
不旋踵	-11.4105
歇	-11.4106
囘鶻	-11.4107
行軍司馬	-11.4108
夷三族	-11.4108
劵	-11.4108
躋	-11.4109
柩	-11.4109
灰	-11.411
幷	-11.411
賈逵	-11.4111
車騎將軍	-11.4112
僮	-11.4112
秣陵	-11.4112
田承嗣	-11.4113
樞機	-11.4116
鄧艾	-11.4118
遂䧟	-11.4119
逡	-11.412
藉口	-11.4121
注見晋	-11.4122
漢獻帝建安	-11.4122
淳化	-11.4122
天竺	-11.4123
謂之何哉	-11.413
陸賈	-11.4134
雍丘	-11.4134
皇天	-11.4135
一體	-11.4136
十五萬	-11.4138
罵曰	-11.4143
不返	-11.4143
風俗通	-11.4143
内難	-11.4153
五千人	-11.4155
勿用	-11.416
淮夷	-11.4163
穆帝永和	-11.4169
淮東	-11.4178
儒術	-11.4179
天下之士	-11.4182
從諌	-11.4185
即墨	-11.4189
太息	-11.4189
赴難	-11.4191
綱常	-11.4212
親賢	-11.4215
月令	-11.4218
海西	-11.4219
中書門下	-11.4227
豈獨	-11.4237
所害	-11.4238
東征	-11.424
左氏傳	-11.4241
勇士	-11.4244
聽命	-11.4245
世俗	-11.4247
後魏置	-11.4249
莫敢言	-11.425
顯宗	-11.4252
邳	-11.4254
虚實	-11.4255
窮治	-11.4257
齡	-11.4257
滁州	-11.4261
杜預曰	-11.4263
璨	-11.4267
唐僖宗	-11.4274
一歲	-11.4276
必有所	-11.4277
爵賞	-11.4282
喉	-11.4282
郟	-11.4283
無益於	-11.4283
五胡	-11.4283
圈	-11.4284
擠	-11.4284
頥浩	-11.4286
綱目之所書	-11.4286
勔	-11.4286
孔安國	-11.4286
酷吏	-11.4288
繳	-11.4288
鞮	-11.4288
兎	-11.4289
夹	-11.4289
殘忍	-11.429
竿	-11.4291
陀	-11.4291
求直言	-11.4291
組	-11.4291
頔	-11.4292
上封事	-11.4292
失禮	-11.4292
臼	-11.4292
驕侈	-11.4292
北流	-11.4293
厨	-11.4294
祫	-11.4294
郅支	-11.4295
皖	-11.4295
萬乘之	-11.4298
袁粲	-11.4298
黷武	-11.4299
必待	-11.4302
全斌	-11.4303
温嶠	-11.4303
兖州刺史	-11.4304
慰諭	-11.4304
中書監	-11.4311
十有七年	-11.4314
蔚州	-11.4314
失利	-11.4316
神農	-11.4317
老成	-11.432
河東節度使	-11.4321
先零	-11.4323
為之備	-11.4324
王承宗	-11.4329
流沙	-11.4333
五十年	-11.4338
强弱	-11.4339
太皇	-11.434
恒州	-11.4346
就第	-11.4349
虞舜	-11.435
王僧辯	-11.4352
莊襄	-11.4352
承訓	-11.4367
豈敢	-11.4368
震恐	-11.4371
今日之事	-11.4375
亦如之	-11.4385
炎帝	-11.4386
水火	-11.4387
致太平	-11.4387
疏云	-11.4387
不勝其	-11.4391
其妻子	-11.4396
且夫	-11.4397
爵位	-11.4403
誰可	-11.4423
晋陽	-11.4424
横行	-11.4424
三十卷	-11.4425
聖主	-11.4429
太后臨朝	-11.443
東流	-11.4431
狥國	-11.4432
郭后	-11.4432
力屈	-11.4433
景龍	-11.4434
萬斛	-11.4437
發憤	-11.4438
𤣥宗開元	-11.4438
湖州	-11.444
戍卒	-11.444
所以致	-11.4446
攻戰	-11.4449
顔色	-11.445
立其弟	-11.445
講武	-11.4456
專任	-11.4457
圃	-11.446
鉏	-11.4461
毬	-11.4462
囿	-11.4465
奉朝請	-11.4466
蟬	-11.4467
郷	-11.4467
蹤	-11.4468
孕	-11.4468
炙	-11.4468
炭	-11.4469
鶉	-11.4471
壬戌	-11.4471
未知是否	-11.4471
炬	-11.4473
逗	-11.4473
阿史那	-11.4474
縫	-11.4474
搖	-11.4474
枝葉	-11.4475
澮	-11.4475
衡州	-11.4476
己酉	-11.4476
乾祐	-11.4477
緘	-11.4477
燈	-11.4478
開府儀同三司	-11.4478
名號	-11.4479
郭璞	-11.4479
羮	-11.448
漕運	-11.4481
薛延陀	-11.4481
逄吉	-11.4486
約束	-11.4486
玉帛	-11.4487
吕夷簡	-11.4487
緡錢	-11.4488
甲戌	-11.449
泰誓	-11.449
鴻嘉	-11.4491
天下之民	-11.4491
赤子	-11.4492
四十萬	-11.4497
桓靈	-11.4498
劉璋	-11.4498
錢帛	-11.4501
孔孟	-11.4502
十有八年	-11.4507
汾陽	-11.4509
白太后	-11.451
渭南	-11.451
與之同	-11.4511
兵三萬	-11.4511
息民	-11.4517
孝友	-11.4523
屈原	-11.4525
萬機	-11.4526
南陽府	-11.4527
保吉	-11.4527
太史令	-11.4528
台州	-11.4529
延政	-11.4532
保全	-11.4538
嘗問	-11.4539
㑹稽郡	-11.4539
宜早	-11.454
郡隋初	-11.4545
上䟽曰	-11.4547
七廟	-11.455
子嬰	-11.4552
良久	-11.4558
鄉縣	-11.4562
陽郡名注見	-11.4565
尋復置	-11.4566
皆潰	-11.4567
倍道	-11.4573
十七行	-11.4582
晉文公	-11.4584
庶民	-11.4584
深切	-11.4591
董賢	-11.4594
辭不受	-11.46
丹陽郡	-11.4604
别種	-11.4604
君側	-11.461
因循	-11.461
宋太祖	-11.4616
正旦	-11.4617
豈容	-11.4622
氏崩	-11.4625
不可得也	-11.4628
有寵於	-11.4629
譏辭	-11.463
州天寳初改	-11.4631
指揮	-11.4635
世變	-11.4636
餘慶	-11.4639
百四十	-11.4642
豈足	-11.4642
臥	-11.4654
太平興國	-11.4655
蔡卞	-11.4656
莭	-11.4658
鱗	-11.4658
故不書	-11.4658
當是之時	-11.4658
麄	-11.4659
看	-11.4659
李憲	-11.4659
詈	-11.4659
宫闈	-11.466
中書舎人	-11.466
秦王世民	-11.4661
杼	-11.4662
沾	-11.4662
葉一行	-11.4662
傭	-11.4663
禇遂良	-11.4663
赭	-11.4663
幄	-11.4663
郿	-11.4664
愛憎	-11.4665
筦	-11.4666
樂浪	-11.4666
幘	-11.4666
簽書院事	-11.4666
郡名注見秦王政三年	-11.4667
豈不深可	-11.4669
革命	-11.4669
季友	-11.4669
築長城	-11.467
黄門侍郎	-11.467
真定府	-11.4671
竣	-11.4673
冒頓	-11.4673
穉	-11.4673
涓	-11.4674
凜	-11.4674
隱公	-11.468
城東北	-11.468
貨財	-11.4681
寛仁	-11.4682
嫌疑	-11.4684
楊炎	-11.4686
偷安	-11.4686
報國	-11.4688
奮擊	-11.4689
李沆	-11.469
微弱	-11.4699
焉耆	-11.4701
廷美	-11.4701
偃師	-11.4708
天禧	-11.4712
劉曜	-11.4713
太史公曰	-11.4716
采石	-11.4716
浙江	-11.4717
振武	-11.4717
失望	-11.4725
隂山	-11.4728
十二行	-11.473
濟江	-11.4731
州宋屬	-11.4738
功曹	-11.4739
衡陽	-11.474
岐州	-11.4741
教授	-11.4742
予奪	-11.4746
孤立	-11.4747
處羅	-11.4753
當塗	-11.4756
綱目不書	-11.4762
叅軍	-11.4763
併入	-11.4766
賈后	-11.4771
族滅	-11.4771
風化	-11.4777
滔天	-11.4778
河東郡	-11.4783
變化	-11.4783
十八行	-11.4788
所以正	-11.4816
濮王	-11.4827
慨	-11.4828
所薦	-11.4831
雹	-11.4831
制勝	-11.4832
舒州	-11.4834
煥	-11.4835
愕	-11.4839
杵臼	-11.4841
擢用	-11.4844
栻	-11.4845
訂	-11.4845
沬	-11.4846
州尋改	-11.4847
睹	-11.4847
攬	-11.485
押	-11.485
瑣	-11.4852
苴	-11.4852
忱	-11.4852
袁盎	-11.4853
夙夜	-11.4854
喧	-11.4855
悰	-11.4855
跌	-11.4855
昂	-11.4856
𤦺	-11.4856
亾	-11.4857
三族	-11.4858
拳	-11.486
兵部尚書	-11.486
醴泉	-11.486
仇池	-11.4861
帝嚳	-11.4861
昧於	-11.4862
服䖍曰	-11.4863
聚斂	-11.4864
縯	-11.4866
史思明	-11.4866
倉庫	-11.4866
何去非	-11.4867
鄜延	-11.4867
鄢陵	-11.4867
隋煬帝	-11.4868
注見𤣥宗開元	-11.4871
師範	-11.4876
順宗	-11.4877
孫皓	-11.4878
劉歆	-11.4882
汜水	-11.4883
資糧	-11.4885
彗星見	-11.4886
武三思	-11.4886
簒弑	-11.4889
併力	-11.4891
數十里	-11.4894
功烈	-11.4898
戰艦	-11.49
固不足	-11.491
二句	-11.4923
兩川	-11.4925
陵寢	-11.4932
經畧使	-11.4932
朔州	-11.4933
仁夀	-11.4934
為賊所	-11.4935
尚書郎	-11.4942
都督府	-11.4943
長短	-11.4949
士君子	-11.4953
養老	-11.4954
赤心	-11.4954
曾不	-11.4957
罪之也	-11.4958
娣	-11.4958
統萬	-11.4959
縣名注見漢獻帝建安	-11.496
長星	-11.4974
元狩	-11.4978
首惡	-11.4981
戊子	-11.4982
直指	-11.4984
城䧟	-11.4991
理財	-11.4992
矣故特書	-11.4995
牛馬	-11.4996
饒州	-11.5002
郭氏	-11.5004
志氣	-11.5009
涇陽	-11.5012
之福也	-11.5014
西域國名	-11.5018
劉淵	-11.5024
畎	-11.503
五星	-11.5031
鄄	-11.5034
縋	-11.5035
駕馭	-11.5036
傉檀	-11.5038
䕫州	-11.5041
耒	-11.5042
歉	-11.5042
三桓	-11.5042
岑彭	-11.5042
丗	-11.5043
瞽瞍	-11.5043
鄫	-11.5043
刈	-11.5043
汀	-11.5043
不得志	-11.5043
媿	-11.5044
鄂勒哲	-11.5047
彚	-11.5047
帑	-11.5048
訕	-11.5048
備禦	-11.5049
璣	-11.5049
隋初郡廢	-11.5054
臧否	-11.5054
伉	-11.5055
漲	-11.5055
草創	-11.5056
廵檢	-11.5056
宿將	-11.5057
惴	-11.5058
許諾	-11.5058
狙	-11.5059
郎將	-11.5059
屨	-11.506
慰勞	-11.5061
嬖寵	-11.5061
讞	-11.5062
張晏曰	-11.5062
羊祜	-11.5063
侵宋	-11.5063
坐視	-11.5065
頠	-11.5068
七十二	-11.507
折衝	-11.5072
遊宴	-11.5072
魏主叡	-11.5073
羣盜	-11.5074
漢之縣名	-11.5078
守澄	-11.508
扶蘇	-11.5081
犬馬	-11.5086
梓州	-11.5087
不可勝數	-11.5089
宋陞	-11.5091
血食	-11.5092
贖罪	-11.5092
平勃	-11.5097
劉聰	-11.5099
救鄭	-11.5103
不果行	-11.5105
直筆	-11.5107
后土	-11.5107
曰此非	-11.5107
四年春正月	-11.5109
斥逐	-11.5109
賊帥	-11.5109
星變	-11.5113
蔡叔	-11.5114
各得其	-11.5122
二千人	-11.5122
洛口	-11.5124
追諡	-11.5127
門下侍郎	-11.5127
待詔	-11.5131
林邑	-11.5131
庶長	-11.5137
張濬	-11.5143
族誅	-11.5146
邾子	-11.5147
自見矣	-11.5151
厚恩	-11.5151
外夷	-11.5151
百六十	-11.5151
自恣	-11.5151
勇力	-11.5156
三十七	-11.5156
禮部	-11.5161
一毫	-11.5165
改縣曰	-11.517
之至也	-11.5171
十六國	-11.5171
康居	-11.5172
衆潰	-11.5175
竊發	-11.5183
不予其	-11.5184
定䇿	-11.5185
無成功	-11.5189
狄道	-11.5198
亦可以	-11.5198
韋后	-11.5208
南蠻	-11.521
司馬昭	-11.5211
注見周赧	-11.5216
智力	-11.5221
持重	-11.5221
僅得	-11.5224
恣行	-11.5229
郜	-11.5233
濱	-11.5233
忠貞	-11.5233
壽州	-11.5236
斟	-11.5237
淆	-11.5237
翬	-11.5237
冥	-11.524
禮部尚書	-11.5241
肘	-11.5242
蠕蠕	-11.5242
砥	-11.5243
毖	-11.5245
國之君	-11.5245
絕	-11.5247
床	-11.5247
誌	-11.5248
訢	-11.5248
薰	-11.5249
黙啜	-11.5249
沈湎	-11.525
驁	-11.5251
菽	-11.5251
磔	-11.5251
霽	-11.5252
餐	-11.5252
皁	-11.5252
荆棘	-11.5252
婚姻	-11.5253
紓	-11.5253
慄	-11.5253
由此觀之	-11.5253
秦王政	-11.5253
青苖	-11.5253
濛	-11.5254
庻人	-11.5254
丼	-11.5254
張柬之	-11.5254
十五行	-11.5254
宇文㤗	-11.5254
估	-11.5255
孟康曰	-11.5255
裴延齡	-11.5255
曲阜	-11.5255
漢書音義曰	-11.5256
緇	-11.5257
縑	-11.5258
遹	-11.5258
盪	-11.5261
絞	-11.5262
劉摯	-11.5262
二十餘萬	-11.5263
箠	-11.5264
稍稍	-11.5266
詔求直言	-11.5268
莭度使	-11.527
假借	-11.5272
陳霸先	-11.5275
運糧	-11.5275
左傳昭	-11.5276
圖䜟	-11.5276
桂州	-11.5276
閤門	-11.5277
雲夢	-11.5277
賦役	-11.5281
乾符	-11.5282
繼隆	-11.5283
離散	-11.5289
明旦	-11.529
攝政	-11.5293
老莊	-11.5294
假手	-11.5294
妃嬪	-11.5296
大丈夫	-11.5297
太學生	-11.5297
夜半	-11.5297
羣臣請	-11.5297
彗出	-11.5307
景宗	-11.5314
阿附	-11.5319
秦二世二年	-11.532
茂陵	-11.5325
注見宋文帝	-11.5325
劉毅	-11.5328
閉城	-11.5332
北涼	-11.5334
唐初復置	-11.5335
兩端	-11.5335
承業	-11.5341
於縣置	-11.5342
黎民	-11.5348
天資	-11.5352
五十餘	-11.5354
十有一	-11.5358
逃亡	-11.5358
晉安帝	-11.5359
義渠	-11.5362
注見漢宣帝	-11.5362
升降	-11.5381
苑中	-11.539
被誅	-11.5392
百餘萬	-11.5399
五季	-11.5404
詐稱	-11.5414
氏族	-11.5422
酒酣	-11.5422
鄭氏曰	-11.5424
得之矣	-11.5438
頤	-11.5439
靺鞨	-11.5441
顛倒	-11.5442
咺	-11.5442
讀史	-11.5443
琯	-11.5444
渴	-11.5444
臨終	-11.5446
夏后氏	-11.5446
瀕	-11.5446
觚	-11.5447
岐山	-11.5448
詛	-11.5448
閭閻	-11.5448
洞庭	-11.545
哈瑪爾	-11.5451
甬	-11.5452
治體	-11.5454
為内應	-11.5454
羨	-11.5454
帝𤣥更始二年	-11.5455
歸田里	-11.5455
撾	-11.5455
驪姬	-11.5455
涵	-11.5456
唐𤣥宗開元	-11.5457
太中大夫	-11.5458
為盟主	-11.5459
錢鏐	-11.5459
峭	-11.5459
蔡氏傳曰	-11.546
翹	-11.546
巍	-11.546
諳	-11.5461
曹參	-11.5462
姑孰	-11.5462
覆轍	-11.5463
本朝初	-11.5463
比肩	-11.5466
僚佐	-11.5467
艮	-11.5468
莎車	-11.547
潘美	-11.547
仁贍	-11.5472
配享	-11.5472
勗	-11.5472
許男	-11.5473
公薨子	-11.5474
後悔	-11.5476
輔導	-11.5476
都元帥	-11.548
南征	-11.5481
傅説	-11.5492
𢎞範	-11.5492
陽翟	-11.5501
允文	-11.5503
召募	-11.5503
莫甚於	-11.5505
未暇	-11.551
書其官	-11.5512
五代晉	-11.5514
熈河	-11.5515
偽學	-11.5519
建武元年	-11.552
不失其	-11.552
謝𤣥	-11.552
長社	-11.552
黔中	-11.5522
注見漢獻帝興平二年	-11.5524
性剛	-11.5527
前驅	-11.5529
仲達	-11.5531
朝覲	-11.5541
流離	-11.5543
各以其	-11.555
乘間	-11.5562
廢黜	-11.5568
征西	-11.5574
庶政	-11.5576
闕失	-11.5582
節度副使	-11.5584
草制	-11.5585
滎	-11.5589
轉相	-11.5593
恩澤	-11.5595
十有四	-11.5601
何如哉	-11.5606
徐兖	-11.5611
還長安	-11.5612
卓然	-11.5633
盆	-11.5637
弗能	-11.5641
擿	-11.5642
范氏	-11.5645
諸侯之師	-11.5649
諍	-11.5649
資治通鑑	-11.565
彜	-11.5651
忠臣義士	-11.5652
藪	-11.5652
皥	-11.5654
討逆	-11.5654
无	-11.5655
㠯	-11.5656
皂	-11.5658
航	-11.5658
叶	-11.5659
鵲	-11.5659
帙	-11.5659
幻	-11.5659
桑𢎞羊	-11.5659
斁	-11.566
抉	-11.566
肱	-11.566
優游	-11.566
麋	-11.566
都虞候	-11.5661
蚤	-11.5661
縻	-11.5662
牡	-11.5662
茲	-11.5663
賈氏	-11.5663
炫	-11.5663
笏	-11.5663
仁杲	-11.5663
癡	-11.5663
裴矩	-11.5663
糞	-11.5664
耘	-11.5665
䑓	-11.5665
噶	-11.5666
廊	-11.5666
縷	-11.5666
媯	-11.5667
韋臯	-11.5667
孟知祥	-11.5668
湜	-11.5668
慰撫	-11.5671
蜂起	-11.5673
譁	-11.5673
尙	-11.5674
褚淵	-11.5674
沈慶之	-11.5675
鄣	-11.5678
達蘭	-11.5681
晉獻公	-11.5684
允恭	-11.5685
元年正月	-11.5687
張邦昌	-11.5687
極論	-11.5688
貪暴	-11.5694
朗州	-11.5694
三國吳	-11.5695
振旅	-11.5695
太牢	-11.5704
員外郎	-11.5713
西域國名注見	-11.5714
暴崩	-11.5714
欣然	-11.5715
招討	-11.5716
孫之翰論	-11.5718
府𨽻	-11.5724
田單	-11.5725
姦雄	-11.5726
魯肅	-11.5727
疑似	-11.573
伯升	-11.5738
竇武	-11.5738
所以譏	-11.5745
西魏改	-11.5749
門之外	-11.5753
仁孝	-11.5753
曉然	-11.5755
仍舊元	-11.5756
乗間	-11.5764
峽州	-11.5773
夷滅	-11.5777
避位	-11.578
子勛	-11.5797
江充	-11.58
索隠	-11.5809
宴安	-11.5823
百七十	-11.5823
邊境	-11.5837
盛衰	-11.5839
晏然	-11.5843
新舊	-11.5845
藩臣	-11.5853
晳	-11.5862
椘	-11.5863
汲冡	-11.5865
示天下	-11.5866
培	-11.5866
尉遲	-11.5868
柬	-11.587
秃	-11.587
坂	-11.5872
脯	-11.5872
昞	-11.5872
膂	-11.5872
頲	-11.5873
朏	-11.5873
黨錮	-11.5874
脚	-11.5875
堕	-11.5875
地名未詳處所	-11.5875
樊噲	-11.5876
僵	-11.5876
啼	-11.5876
琇	-11.5876
妓	-11.5877
巨源	-11.5877
罃	-11.5878
都部署	-11.5878
吕頥浩	-11.5879
縉紳	-11.5879
知諫院	-11.5879
隲	-11.5879
兼樞密使	-11.588
大赦改元	-11.588
霆	-11.588
匹磾	-11.5881
鏄	-11.5882
墾	-11.5882
黥布	-11.5883
疲弊	-11.5883
綵	-11.5883
桑維翰	-11.5885
貉	-11.5885
虎狼	-11.5886
顚	-11.5886
鄭畋	-11.5886
李守貞	-11.5886
宓	-11.5887
唐復置	-11.5887
羡餘	-11.5887
千八百	-11.589
蕡	-11.5892
饑寒	-11.5893
珠玉	-11.5895
都統制	-11.5897
掃除	-11.5898
賣國	-11.5899
伊洛	-11.5901
申錫	-11.5901
劉知逺	-11.5902
佛寺	-11.5902
曾布	-11.5903
丹朱	-11.591
御筆	-11.5912
乏食	-11.5913
誅宦官	-11.5913
西涼	-11.5914
十有五	-11.5917
震動	-11.592
之大者也	-11.5923
恭顯	-11.5927
成帝綏和二年	-11.593
連衡	-11.5933
孝寛	-11.5934
儉約	-11.5935
酒色	-11.5936
友愛	-11.5936
恃功	-11.594
廬陵王	-11.5945
引咎	-11.5945
萬五千	-11.5947
累世	-11.5948
惟岳	-11.5949
閩越	-11.595
注見漢靈	-11.5952
叔寳	-11.5959
兼領	-11.596
傅㑹	-11.5969
顔師	-11.5974
進逼	-11.598
千二百	-11.5981
年八十	-11.5984
大駭	-11.5989
四凶	-11.599
解圍	-11.5991
發喪	-11.5991
心術	-11.5995
夜襲	-11.5997
封疆	-11.5998
獲免	-11.6004
守貞	-11.6005
増置	-11.6009
弑父	-11.6018
未畢	-11.6029
永康元年	-11.6032
效死	-11.6036
講和	-11.6047
事泄	-11.605
萬戸	-11.6052
雨雪	-11.6063
三寸	-11.6065
哉雖然	-11.6066
良弼	-11.6073
十有六	-11.6075
鄢	-11.6079
博陵	-11.608
驥	-11.608
唇	-11.608
巡狩	-11.608
箸	-11.6081
琚	-11.6083
過半	-11.6085
盂	-11.6086
穪	-11.6086
穫	-11.6087
杏	-11.6087
髀	-11.6088
鷙	-11.6089
墊	-11.6089
丐	-11.609
焞	-11.609
穰苴	-11.609
駙馬	-11.609
蹶	-11.609
晉安帝隆安	-11.6091
左傳襄	-11.6091
黄潜善	-11.6092
挟	-11.6092
張齊賢	-11.6092
楊復恭	-11.6092
餙	-11.6093
宗景龍二年	-11.6093
灋	-11.6093
彞	-11.6093
騶	-11.6095
玷	-11.6095
舟楫	-11.6095
冺	-11.6095
司馬相如	-11.6095
沌	-11.6095
擊走之	-11.6095
邯	-11.6096
劓	-11.6096
之郡名治	-11.6097
挹	-11.6097
衮冕	-11.6097
牛僧孺	-11.6097
賢良方正	-11.6097
朋友	-11.6099
咈	-11.6101
百二十里	-11.6101
牧犍	-11.6102
祼	-11.6102
兌	-11.6102
文帝元嘉	-11.6103
知其不可	-11.6104
蒙遜	-11.6105
峒	-11.6105
翕然	-11.6105
毘陵	-11.6106
漣	-11.6107
旬月	-11.6107
卽位	-11.6109
劉琨	-11.6109
州尋廢	-11.611
婁敬	-11.6113
阿房	-11.6114
杜衍	-11.6114
刺客	-11.6116
同盟于	-11.6119
播越	-11.612
仰視	-11.6122
劉錡	-11.6123
三百六十	-11.613
元帝建武元年	-11.613
奚契丹	-11.6133
維州	-11.6133
三十三	-11.6137
逆黨	-11.6138
一譌	-11.6139
王守澄	-11.6142
萬歳	-11.6145
之謂矣	-11.6147
飛龍	-11.615
貳師	-11.6156
士庶	-11.6158
垂戒	-11.6162
彊弱	-11.6163
新豐	-11.6164
禦敵	-11.617
彰徳	-11.6173
韓厥	-11.6174
曷若	-11.6175
簒位	-11.618
私第	-11.6183
紀律	-11.6184
對䇿	-11.6187
夜遁	-11.6188
可笑	-11.6188
南涼	-11.6193
預政	-11.6197
末流	-11.621
不悛	-11.6211
歩卒	-11.6216
鮮于	-11.6229
三百年	-11.6236
縣名注見周赧	-11.6236
上表請	-11.625
開邊	-11.6253
漢書注	-11.6255
解體	-11.6263
五品	-11.6265
近侍	-11.6267
櫟	-11.6274
設伏	-11.6279
諡忠	-11.6286
玄	-11.6299
史館	-11.63
簒國	-11.6304
淇	-11.6304
洵	-11.6306
央	-11.6308
愉	-11.6308
孱	-11.6309
離騷	-11.6309
擣	-11.631
逓	-11.631
颺	-11.6312
影響	-11.6312
租庸	-11.6312
惑衆	-11.6312
檀道濟	-11.6313
荀彧	-11.6313
郇	-11.6314
吐突承璀	-11.6314
戡	-11.6314
翺	-11.6315
乍	-11.6315
了翁	-11.6316
縝	-11.6316
郡唐復為	-11.6316
勵精	-11.6317
陴	-11.6317
玊	-11.6318
晡	-11.6318
漿	-11.6318
沴	-11.6318
程顥	-11.6318
驢	-11.6319
餅	-11.6321
澠池	-11.6321
斾	-11.6321
桂林	-11.6321
維翰	-11.6322
毆	-11.6322
晷	-11.6323
鴟	-11.6323
真宗皇帝	-11.6323
馘	-11.6324
禰	-11.6324
垂拱	-11.6325
博囉	-11.6328
浮橋	-11.6328
謂羣臣曰	-11.6328
四科	-11.6331
婺州	-11.6333
鮑叔	-11.6334
邠寧	-11.6335
膠西	-11.6337
鐵勒	-11.6339
璮	-11.6339
魏文侯	-11.6341
激怒	-11.6341
周亞夫	-11.6342
安重誨	-11.6343
赴援	-11.6345
侵掠	-11.6349
侍御	-11.6352
河間府	-11.6352
景祐	-11.6353
四皓	-11.6355
邵陵	-11.6358
天寳初	-11.6358
督戰	-11.6361
二千餘人	-11.6366
起兵討	-11.6368
至國朝	-11.6371
夀皇	-11.6373
憂勤	-11.6375
捨身	-11.6379
攻䧟	-11.6383
郡唐屬	-11.6386
南岸	-11.6387
陰陽	-11.639
劉晏	-11.6397
帳下	-11.6401
嵗月	-11.6404
㐮陽	-11.6408
主和議	-11.6417
然後可以	-11.6419
移鎮	-11.642
州安置	-11.642
太微	-11.642
善用兵	-11.6427
陳倉	-11.643
泰伯	-11.6433
抑觀	-11.6438
精神	-11.6441
繼勲	-11.6452
離宫	-11.6459
謀作亂	-11.6469
書於冊	-11.6479
歸咎	-11.6485
嵩山	-11.6501
隕石	-11.6515
灃	-11.6522
阿古逹	-11.6523
注見漢獻帝建	-11.6528
壼	-11.6531
涿州	-11.6532
氶	-11.6532
涖	-11.6532
纊	-11.6533
槀	-11.6534
芾	-11.6534
沱	-11.6535
蹟	-11.6535
豺	-11.6536
亊	-11.6536
槍	-11.6537
皋	-11.6537
爼	-11.6537
奨	-11.6538
毘	-11.6538
鑰	-11.6539
餼	-11.6539
煜	-11.654
㤀	-11.654
吞噬	-11.654
莫大焉	-11.6541
祖逖	-11.6541
裴炎	-11.6542
癸卯	-11.6542
亹	-11.6542
丁卯	-11.6543
扺	-11.6544
淡	-11.6544
崔杼	-11.6544
淮泗	-11.6544
瘳	-11.6545
友珪	-11.6545
滉	-11.6546
豚	-11.6546
𤓰州	-11.6547
耄	-11.6547
才智	-11.6548
琅琊	-11.6548
萱	-11.6548
鎰	-11.6549
州以縣屬	-11.6549
昺	-11.655
鑠	-11.655
遣兵攻	-11.655
加九錫	-11.655
頰	-11.6551
不可失也	-11.6553
斜谷	-11.6553
荆襄	-11.6554
動揺	-11.6555
瓦解	-11.6556
圻	-11.6556
悶	-11.6557
梵	-11.6557
時人謂之	-11.6559
蕪湖	-11.6559
定律令	-11.6562
曹爽	-11.6564
未央宫	-11.6567
孔融	-11.6568
注見秦二世三年	-11.6574
漳水	-11.6576
晚節	-11.6577
敬暉	-11.6579
推恩	-11.6582
勞苦	-11.6583
以謝天下	-11.6584
漢獻帝興平元年	-11.6588
太戊	-11.659
羣雄	-11.6593
循吏	-11.6599
公卿大夫	-11.66
左藏	-11.6601
張巡	-11.6604
蒼生	-11.6608
被甲	-11.6612
田悦	-11.6618
哉綱目書	-11.6621
雨水	-11.6628
希廣	-11.6632
仲康	-11.6634
轉戰	-11.6634
王武俊	-11.6635
門户	-11.6638
刑獄	-11.6639
悛	-11.6641
姚興	-11.6645
臺省	-11.6652
隴西郡	-11.6668
兵入援	-11.6668
後之人	-11.6678
農夫	-11.6679
右正言	-11.6696
兵二萬	-11.6713
遣使詣	-11.6722
帝元嘉	-11.6729
大事記曰	-11.6749
郾	-11.6759
鴈	-11.6759
絮	-11.676
鑾	-11.6761
撮	-11.6762
侁	-11.6764
褚遂良	-11.6767
癸丑	-11.6767
懟	-11.6768
仞	-11.6768
懽	-11.6769
忝	-11.677
陳宜中	-11.677
縠	-11.6771
關内侯	-11.6771
瘁	-11.6771
輻	-11.6771
昩	-11.6772
孑	-11.6772
庻幾	-11.6773
餞	-11.6773
埀	-11.6773
郡乾元初	-11.6773
嗜酒	-11.6773
腸	-11.6773
出其不意	-11.6773
虓	-11.6773
朱异	-11.6774
需	-11.6774
熙豐	-11.6774
鵬	-11.6774
星孛	-11.6775
沈攸之	-11.6775
縶	-11.6775
謳	-11.6775
鯁	-11.6776
厓	-11.6776
湘東王繹	-11.6776
跖	-11.6777
竇建徳	-11.6777
夏四月朔日食	-11.6778
杜佑	-11.6778
瞿	-11.6778
乞骸骨	-11.6778
貊	-11.6778
戶	-11.6778
庖	-11.6779
記曲禮	-11.6779
吏部侍郎	-11.6779
軻	-11.678
踐祚	-11.6781
崈	-11.6781
櫓	-11.6781
嗇夫	-11.6781
條例司	-11.6781
竇融	-11.6782
記王制	-11.6782
敖曹	-11.6782
張承業	-11.6783
棧	-11.6783
茨	-11.6783
玫	-11.6783
璉	-11.6783
千匹	-11.6785
狃於	-11.6788
沂州	-11.679
跳	-11.679
哀姜	-11.679
弑其主	-11.6791
陸機	-11.6791
莫肯	-11.6792
布帛	-11.6793
㓂凖	-11.6793
部伍	-11.6798
州後屬	-11.68
盧循	-11.6802
冀州刺史	-11.6804
血氣	-11.6805
由是觀之	-11.6805
殺其大夫	-11.6806
狐疑	-11.6806
關羽	-11.6806
氐羌	-11.6807
抵罪	-11.681
孟子所謂	-11.6817
條例	-11.6817
神策	-11.6818
文天祥	-11.6823
員外	-11.6825
牛𢎞	-11.6826
開寶	-11.6829
戰大敗	-11.6831
熙河	-11.6837
宣諭	-11.6839
講學	-11.6839
邊患	-11.684
孝惠	-11.6842
晚年	-11.6842
仇讐	-11.6846
横流	-11.6848
潁川郡	-11.6853
三千餘人	-11.6855
樂工	-11.6856
京邑	-11.6861
不懌	-11.6871
河湟	-11.6872
洛陽宫	-11.6884
升平	-11.6884
凡正統	-11.6889
兩浙	-11.6899
郴州	-11.6902
謂宰相曰	-11.6903
應天府	-11.6909
呂氏	-11.6954
所憚	-11.6972
綱目直書	-11.6973
温公論	-11.6973
妣	-11.6993
十有九年	-11.6994
肸	-11.7002
慱	-11.7004
菁	-11.7004
㩁	-11.7004
啜	-11.7005
榛	-11.7006
聾	-11.7007
扁鵲	-11.7007
泝	-11.7008
孜孜	-11.7008
沙汰	-11.7009
驤	-11.7009
款	-11.701
蘇轍	-11.701
押牙	-11.701
淚	-11.7011
可不戒哉	-11.7011
羅織	-11.7011
魴	-11.7011
賓客	-11.7011
壅蔽	-11.7012
邙	-11.7012
蟻	-11.7013
嫚	-11.7013
吕惠卿	-11.7014
鵠	-11.7015
鋤	-11.7015
糓	-11.7015
捉	-11.7015
受制於	-11.7015
鄗	-11.7016
副元帥	-11.7016
稻	-11.7016
五品以上	-11.7016
鳳凰	-11.7016
潁濵	-11.7016
巢穴	-11.7016
倉廩	-11.7017
紗	-11.7018
槊	-11.7018
稀	-11.7018
梨	-11.7019
三年之喪	-11.7019
蓼	-11.7022
倉猝	-11.7023
者鮮矣	-11.7024
軹	-11.7024
曲筆	-11.7028
太常卿	-11.7028
環慶	-11.7028
休戚	-11.7029
阿爾哈雅	-11.703
病篤	-11.7031
言於帝曰	-11.7033
迨夫	-11.7034
丞相御史	-11.7038
大有年	-11.704
韓絳	-11.7042
直抵	-11.7049
二百四十	-11.7049
元陞為	-11.7052
注見漢武帝元	-11.7053
刻薄	-11.7054
委質	-11.706
詣京師	-11.706
武帝元朔	-11.7061
信讒	-11.7061
宋襄公	-11.7081
隆基	-11.7084
矯制	-11.7092
汝南郡	-11.7109
城名在	-11.7117
明哲	-11.7121
周威烈王	-11.7127
二百年	-11.7134
形勝	-11.7138
陪臣	-11.7139
郡唐改	-11.7146
十倍	-11.7197
朐	-11.7206
郈	-11.724
轄	-11.7242
詵	-11.7243
煑	-11.7245
棻	-11.7245
綾	-11.7246
枋頭	-11.7246
邲	-11.7249
瑛	-11.7249
曺	-11.725
緍	-11.725
徳宗貞元	-11.7251
鴨	-11.7251
雱	-11.7251
春正月朔日食	-11.7251
諂諛	-11.7252
魅	-11.7252
怵	-11.7253
當此之時	-11.7253
訃	-11.7253
矛盾	-11.7253
六月朔日食	-11.7253
􁐾	-11.7254
唾	-11.7254
魋	-11.7254
兵部侍郎	-11.7254
鬲	-11.7254
匕	-11.7254
莫大乎	-11.7255
冨	-11.7255
注見梁武帝太清	-11.7255
垂簾	-11.7255
㮚	-11.7255
儷	-11.7255
鳳陽府	-11.7255
渇	-11.7256
贛	-11.7257
襟	-11.7257
爪	-11.7258
甯	-11.7258
哺	-11.7258
額森	-11.7258
溉	-11.7258
不亦可乎	-11.726
飄	-11.726
晁	-11.726
褒姒	-11.726
姤	-11.726
凋	-11.726
蓬萊	-11.7261
碧	-11.7261
偹	-11.7263
袴	-11.7263
榦	-11.7264
竪	-11.7265
醮	-11.7265
郡唐初復為	-11.7265
刑措	-11.7266
低	-11.7266
緦	-11.7267
俳	-11.7267
亷恥	-11.7269
藩鎭	-11.7269
陸渾	-11.727
晏殊	-11.7271
葉䕶	-11.7272
馨	-11.7273
恣横	-11.7276
蘇峻	-11.7278
拜珠	-11.7281
殄滅	-11.7282
動静	-11.7283
獄訟	-11.7284
維持	-11.7284
八卦	-11.7285
詣行在	-11.7287
湟中	-11.7287
腰斬	-11.7288
暴横	-11.729
有時而	-11.7291
棗陽	-11.7291
曹丕	-11.7295
縣地屬	-11.7299
成帝咸和	-11.7301
星隕	-11.7306
夜郎	-11.7321
務農	-11.7327
甘陵	-11.7338
威烈王二十三年	-11.7338
招納	-11.7341
顯慶	-11.7341
賜姓名	-11.7342
有國者	-11.7348
郡隋改	-11.7351
閬州	-11.7358
邀功	-11.7372
十有八	-11.7398
哉故綱目	-11.7413
百倍	-11.7416
北齊省	-11.7433
晉成帝咸	-11.7454
石頭城	-11.7469
莭度	-11.7476
詳處所	-11.7491
絜	-11.7493
栅	-11.7497
無如之何	-11.7497
程元振	-11.7499
撞	-11.7499
史通通釋卷	-11.75
不亦難乎	-11.75
打	-11.7501
爚	-11.7501
婿	-11.7501
毫釐	-11.7501
泲	-11.7501
浹	-11.7502
灌嬰	-11.7502
枹罕	-11.7503
蹂	-11.7504
青冀	-11.7504
揜	-11.7505
濶	-11.7505
假黄鉞	-11.7505
悒	-11.7505
闞	-11.7506
綦	-11.7506
潼川	-11.7508
舍是無書	-11.7508
日有食之	-11.7509
隻	-11.7509
不書此何以書	-11.7509
其可得乎	-11.751
順天府	-11.751
俛首	-11.7511
掎	-11.7511
呵	-11.7513
晏嬰	-11.7513
庫庫	-11.7514
伊霍	-11.7514
盥	-11.7514
番禺	-11.7515
爾朱榮	-11.7515
入禁中	-11.7516
希範	-11.7517
吕誨	-11.7517
毁譽	-11.7518
刎	-11.7518
錦繡	-11.7519
蒿	-11.752
闔門	-11.7521
纛	-11.7521
鮪	-11.7526
寶卷	-11.7526
張世傑	-11.7526
錢塘	-11.7526
侈靡	-11.7526
注見漢獻帝建安十三年	-11.7527
侵擾	-11.7529
冦凖	-11.7532
差役	-11.7533
注見秦始皇二十八年	-11.7541
李宗閔	-11.7544
曷爲	-11.755
勞費	-11.7553
嬰兒	-11.7555
簡文帝	-11.7556
三十五里	-11.7556
京兆府	-11.756
青州刺史	-11.7569
此當書	-11.758
洺州	-11.7599
後魏改	-11.7604
語之曰	-11.7611
崖州	-11.7613
辭不拜	-11.7616
戰大破之	-11.7617
𤣥宗天寳	-11.7622
大同府	-11.7623
宣撫司	-11.7636
孫奭	-11.7655
故綱目特	-11.7666
宋元嘉	-11.7667
何如對曰	-11.7698
應劭	-11.7706
報仇	-11.7728
彭蠡	-11.7744
淖	-11.775
諲	-11.7752
磐	-11.7753
蒋	-11.7753
錐	-11.7754
堙	-11.7756
郕	-11.7756
偵	-11.7756
三月朔日食	-11.7756
斧鉞	-11.7756
沓	-11.7756
癸夘	-11.7757
㕔	-11.7757
牌	-11.7758
巵	-11.7758
禮部侍郎	-11.7759
恙	-11.7759
蒜	-11.7759
網羅	-11.776
默	-11.776
屛	-11.776
可勝言哉	-11.7761
戱	-11.7761
縣省入改屬	-11.7761
嘔血	-11.7761
豆盧	-11.7761
豺狼	-11.7761
兢兢業業	-11.7762
准	-11.7762
蠢	-11.7762
娘	-11.7762
多爾濟	-11.7762
扁	-11.7762
帝奕太和	-11.7763
沼	-11.7764
闚	-11.7764
橫	-11.7765
瀍	-11.7765
噉	-11.7765
百萬之衆	-11.7765
秋毫	-11.7765
闌	-11.7766
賀若弼	-11.7766
鈴	-11.7766
穡	-11.7766
武王伐紂	-11.7766
拓跋	-11.7766
韓滉	-11.7767
啖	-11.7767
緋	-11.7767
堆	-11.7768
楨	-11.7768
感激	-11.7768
朱玫	-11.7769
嬖倖	-11.7769
汝寧府	-11.7769
章邯	-11.7769
臨菑	-11.777
吠	-11.777
宋之君臣	-11.777
崞	-11.777
愁怨	-11.777
桓溫	-11.7771
何面目	-11.7771
注見宋明帝	-11.7771
逭	-11.7772
荆揚	-11.7772
僨	-11.7773
兔	-11.7773
權倖	-11.7774
寛饒	-11.7774
楮	-11.7774
夢炎	-11.7774
延禧	-11.7775
消息	-11.7775
涸	-11.7776
秦之縣名屬	-11.7776
縊殺之	-11.7777
汪黄	-11.7779
經綸	-11.7779
武帝元狩元年	-11.7782
席卷	-11.7784
丙吉	-11.7784
按凡例	-11.7785
盆子	-11.7787
錢穀	-11.7789
涪陵	-11.7791
李吉甫	-11.7793
梁燾	-11.7794
驚擾	-11.7799
困窮	-11.7799
老泉	-11.7799
送京師	-11.7802
日蹙	-11.7805
少游	-11.7807
不自保	-11.7809
廟堂	-11.7809
犯闕	-11.7813
扈從	-11.7815
杜牧	-11.7815
絳侯	-11.7817
未遑	-11.7819
劒門	-11.7822
號泣	-11.7824
秦穆公	-11.7827
改國號	-11.7827
良娣	-11.787
太子監國	-11.7874
死者甚衆	-11.7885
廣漢郡	-11.7895
澶	-11.79
九江郡	-11.7925
荒淫	-11.7937
憤怒	-11.795
縣故城在	-11.7981
億萬	-11.7997
磨勘	-11.801
鈐轄	-11.8012
兗	-11.8012
澠	-11.8014
娑	-11.8015
臠	-11.8015
剄	-11.8015
刳	-11.8015
黶	-11.8016
姚萇	-11.8017
硤	-11.8017
潦	-11.8017
乙夘	-11.8019
袂	-11.802
張商英	-11.802
揉	-11.802
悚	-11.802
伷	-11.8021
崛	-11.8021
顛沛	-11.8022
須臾	-11.8022
据	-11.8022
齧	-11.8023
巻	-11.8024
璹	-11.8024
鳯陽府	-11.8025
裴子野	-11.8025
掦	-11.8025
黻	-11.8025
豈不深可惜哉	-11.8026
天寳十五載	-11.8026
勤王之師	-11.8026
𨗳	-11.8026
綱目前書	-11.8026
貼	-11.8026
簽	-11.8026
盲	-11.8026
霑	-11.8026
㗖	-11.8027
筰	-11.8028
酗	-11.8028
寒暑	-11.8028
瑁	-11.8028
愜	-11.8028
軓	-11.8028
東莞	-11.8029
鍊	-11.803
五月朔日食	-11.803
肄	-11.803
阮籍	-11.8031
龎籍	-11.8031
袤	-11.8031
哷	-11.8031
頺	-11.8031
苑囿	-11.8032
注見晉孝武帝太元	-11.8032
乙卯	-11.8033
羔	-11.8034
掉	-11.8037
舄	-11.8049
煦	-11.805
覧	-11.8268
闈	-11.8277
湎	-11.8284
轘	-11.8285
偁	-11.8287
湮	-11.8287
麓	-11.8288
狸	-11.829
謩	-11.829
撥	-11.829
諠	-11.8291
悠	-11.8292
旭	-11.8292
愠	-11.8292
嬉	-11.8294
糶	-11.8295
埒	-11.8295
蒍	-11.8298
俚	-11.8299
讃	-11.8299
装	-11.8299
烟	-11.8301
瞑	-11.8301
嘏	-11.8302
纍	-11.8302
湼	-11.8303
耼	-11.8303
劄	-11.8305
舸	-11.8306
蓨	-11.8308
蓍	-11.831
爻	-11.8313
卨	-11.8549
坡	-11.8559
㸑	-11.8559
竺	-11.8559
謾	-11.8563
絙	-11.8564
騁	-11.8564
產	-11.8564
嗇	-11.8565
瑄	-11.8565
羗	-11.8569
鏤	-11.857
篋	-11.857
糟	-11.8571
㡌	-11.8571
鄠	-11.8571
灘	-11.8571
蕘	-11.8572
腕	-11.8572
髓	-11.8573
䧏	-11.8574
療	-11.8575
灑	-11.8575
楹	-11.8575
軋	-11.8576
窒	-11.8577
玘	-11.8579
舂	-11.8579
攄	-11.8581
䂓	-11.8581
坼	-11.8582
誄	-11.8582
綯	-11.8583
娯	-11.8585
迅	-11.8585
剗	-11.8586
莖	-11.8586
吟	-11.8586
鎗	-11.8588
垓	-11.8595
䍐	-11.8601
肖	-11.876
数	-11.8843
虺	-11.8847
昫	-11.8848
剏	-11.885
捄	-11.8851
芬	-11.8851
軄	-11.8852
駝	-11.8853
騖	-11.8853
閥	-11.8854
燄	-11.8855
岌	-11.8856
娠	-11.8857
弘	-11.8858
刖	-11.8858
綠	-11.8858
懵	-11.8858
氂	-11.8858
逈	-11.886
翅	-11.886
寰	-11.8861
値	-11.8861
曙	-11.8862
墀	-11.8862
聨	-11.8862
𤯝	-11.8862
癰	-11.8862
禋	-11.8863
蛟	-11.8864
幢	-11.8865
址	-11.8866
倓	-11.8866
荐	-11.8867
蠅	-11.8867
䋲	-11.8867
砲	-11.8867
彝	-11.8867
璝	-11.887
逝	-11.8873
郪	-11.8873
椽	-11.8875
滏	-11.888
郴	-11.9002
鄼	-11.9125
郄	-11.9136
浴	-11.914
豁	-11.9146
貟	-11.9146
莱	-11.9146
擴	-11.9147
頹	-11.9147
籥	-11.9147
鄖	-11.9147
玁	-11.9147
迴	-11.9148
嘯	-11.9149
緫	-11.9149
冷	-11.915
屣	-11.9151
喙	-11.9152
狷	-11.9153
獺	-11.9153
懣	-11.9155
洒	-11.9156
眇	-11.9156
欝	-11.9156
挍	-11.9156
臾	-11.9156
鯨	-11.9157
曖	-11.9158
兠	-11.9159
旺	-11.9159
湧	-11.9159
鍔	-11.916
嶢	-11.916
倔	-11.916
鋪	-11.9164
惋	-11.9164
熖	-11.9165
夤	-11.9166
釡	-11.9171
滁	-11.921
絢	-11.9444
蜮	-11.9447
弈	-11.9448
哥	-11.9449
泮	-11.945
斐	-11.945
糗	-11.9451
炅	-11.9452
匐	-11.9453
薫	-11.9453
殪	-11.9454
踣	-11.9454
耦	-11.9455
珥	-11.9455
摽	-11.9455
俑	-11.9455
緜	-11.9456
廻	-11.9456
雎	-11.9457
蘆	-11.9457
廡	-11.9458
鉦	-11.9458
裾	-11.9458
絪	-11.9459
礙	-11.9459
慼	-11.9459
凛	-11.946
昃	-11.946
澈	-11.9461
賾	-11.9461
溷	-11.9462
煮	-11.9462
适	-11.9465
悻	-11.9467
陿	-11.9469
祊	-11.9739
鳬	-11.9748
痍	-11.9755
笮	-11.9755
孜	-11.9756
筏	-11.9758
囉	-11.9761
匯	-11.9762
綮	-11.9762
佶	-11.9763
剔	-11.9764
洧	-11.9764
店	-11.9765
穹	-11.9765
眭	-11.9765
纉	-11.9765
湊	-11.9767
蹊	-11.9767
犨	-11.9767
甌	-11.9767
詒	-11.9769
渤	-11.9771
苫	-11.9771
桁	-11.9772
蹋	-11.9773
螟	-11.9773
瘴	-11.9774
溵	-11.9774
鑊	-11.9775
衒	-11.9775
憬	-11.9776
掣	-11.9778
濩	-11.9778
昪	-11.9779
邛	-11.978
恟	-11.9782
縞	-12.0056
秭	-12.0076
浣	-12.0077
卲	-12.0078
藤	-12.008
剡	-12.008
壌	-12.0081
淩	-12.0082
緬	-12.0082
泫	-12.0083
晙	-12.0083
緄	-12.0083
駰	-12.0084
榷	-12.0085
拭	-12.0086
㝢	-12.0086
峡	-12.0087
炤	-12.0087
脆	-12.0088
僦	-12.0088
喝	-12.0088
蠋	-12.0089
誹	-12.0089
璆	-12.0089
詼	-12.0089
認	-12.0089
酅	-12.009
芉	-12.009
澣	-12.0091
筋	-12.0091
暘	-12.0092
迦	-12.0092
驂	-12.0092
翫	-12.0092
瞋	-12.0096
撝	-12.0097
藹	-12.0097
菲	-12.0099
㐲	-12.01
廞	-12.01
鎖	-12.01
潢	-12.01
換	-12.0102
貰	-12.0103
幟	-12.0104
琿	-12.0109
鷁	-12.0396
沭	-12.0402
棒	-12.0408
蠭	-12.041
夬	-12.0413
澥	-12.0415
掇	-12.0416
粱	-12.0419
暱	-12.042
矍	-12.042
𧺫	-12.0421
阡	-12.0422
蓐	-12.0422
寥	-12.0422
矟	-12.0422
褐	-12.0423
𢷬	-12.0423
櫜	-12.0423
漬	-12.0423
趍	-12.0424
牂	-12.0425
箇	-12.0426
鍜	-12.0427
莬	-12.0427
鉛	-12.0428
擕	-12.043
獷	-12.0431
葱	-12.0431
悸	-12.0432
涌	-12.0434
怛	-12.0434
葆	-12.0434
屹	-12.0438
鬯	-12.0438
駑	-12.0442
佼	-12.0447
昀	-12.0755
罄	-12.0761
塡	-12.0761
夣	-12.0762
鍼	-12.0762
葅	-12.0763
嘲	-12.0764
鄶	-12.0764
檝	-12.0765
觖	-12.0765
犁	-12.0766
蘖	-12.0767
洹	-12.0767
聃	-12.0767
淯	-12.0767
拆	-12.0768
謔	-12.0768
熏	-12.0768
曳	-12.0769
輜	-12.0769
濰	-12.0769
袞	-12.0769
匏	-12.0769
驃	-12.077
喟	-12.077
琢	-12.0771
濼	-12.0771
憙	-12.0771
珉	-12.0771
撼	-12.0772
迓	-12.0772
葭	-12.0773
両	-12.0774
鹹	-12.0776
弧	-12.0776
隍	-12.0776
义	-12.0776
鉢	-12.0777
鞞	-12.0777
獒	-12.0779
淅	-12.078
彖	-12.0784
汨	-12.0785
嚳	-12.1079
閨	-12.1079
邽	-12.1082
窋	-12.111
縡	-12.1112
笄	-12.1113
墉	-12.1114
鮒	-12.1115
嶓	-12.1115
駞	-12.1117
璪	-12.112
耜	-12.112
縈	-12.112
踧	-12.1121
鼈	-12.1121
弃	-12.1122
忮	-12.1122
脛	-12.1123
煽	-12.1123
㚟	-12.1123
腴	-12.1123
彠	-12.1125
泆	-12.1126
鍚	-12.1128
眠	-12.1128
芸	-12.1128
氊	-12.1129
麈	-12.113
昴	-12.113
閶	-12.1131
鼙	-12.1131
逕	-12.1132
饕	-12.1132
粢	-12.1133
蔕	-12.1133
郫	-12.1133
腑	-12.1133
䧺	-12.1135
筩	-12.1136
滬	-12.1137
鴞	-12.1138
杵	-12.114
甡	-12.1478
眚	-12.1481
暕	-12.1482
櫛	-12.1486
飱	-12.1486
悴	-12.1487
槨	-12.1488
媸	-12.1488
箋	-12.1488
掛	-12.1489
蒱	-12.1489
㽞	-12.149
枹	-12.149
琅	-12.149
賽	-12.1491
紵	-12.1491
賵	-12.1492
翩	-12.1492
蚌	-12.1492
疚	-12.1492
詖	-12.1493
侏	-12.1494
雇	-12.1494
臏	-12.1494
頷	-12.1494
催	-12.1495
媪	-12.1495
爱	-12.1495
憊	-12.1496
塊	-12.1497
佾	-12.1497
桴	-12.1497
孩	-12.1499
謖	-12.1501
鏜	-12.1501
詗	-12.1501
煴	-12.1503
謠	-12.1503
邜	-12.1504
呌	-12.1507
暄	-12.1508
藺	-12.1508
尅	-12.1508
罘	-12.151
蟄	-12.1518
开	-12.1532
紕	-12.1854
嚭	-12.1863
斮	-12.1867
摸	-12.187
阼	-12.1872
譔	-12.1872
鍪	-12.1872
􁂥	-12.1873
韙	-12.1873
牓	-12.1874
嶧	-12.1874
旃	-12.1875
碣	-12.1876
閠	-12.1876
㬥	-12.1877
添	-12.1877
糲	-12.1878
姫	-12.1879
諉	-12.188
酢	-12.1881
伴	-12.1881
瑯	-12.1881
憒	-12.1881
䜿	-12.1882
嚚	-12.1882
堞	-12.1882
皐	-12.1883
耐	-12.1884
峰	-12.1884
楫	-12.1884
賫	-12.1884
荔	-12.1885
弹	-12.1886
溆	-12.1887
棐	-12.189
傖	-12.1891
緱	-12.1891
媛	-12.1892
䢴	-12.1897
酎	-12.1898
灤	-12.19
婺	-12.2267
菹	-12.2267
諝	-12.2268
診	-12.2268
倭	-12.2269
雁	-12.227
灞	-12.2271
怍	-12.2272
酸	-12.2273
薳	-12.2274
翂	-12.2276
獬	-12.2276
廿	-12.2276
畵	-12.2277
蓮	-12.2277
裸	-12.2278
瀦	-12.2279
們	-12.2279
絺	-12.228
舁	-12.228
飼	-12.228
塾	-12.228
霫	-12.228
炯	-12.2281
匭	-12.2281
瑑	-12.2281
莠	-12.2281
燥	-12.2282
凑	-12.2282
謇	-12.2282
艷	-12.2283
賻	-12.2284
滻	-12.2285
汩	-12.2285
柸	-12.2286
穽	-12.2288
玦	-12.2288
軺	-12.2288
壕	-12.2288
廙	-12.2289
錠	-12.229
髻	-12.2291
笙	-12.2291
沫	-12.2293
莅	-12.2294
扉	-12.2294
紞	-12.2295
祸	-12.2297
躓	-12.2299
浄	-12.2299
婪	-12.2301
栒	-12.2305
峨	-12.2305
翕	-12.2677
靦	-12.2685
搒	-12.2686
查	-12.2687
瓜	-12.2689
鑚	-12.2689
麑	-12.2689
証	-12.269
詁	-12.2694
匝	-12.2695
鴦	-12.2695
恍	-12.2696
溱	-12.2696
堇	-12.2697
籲	-12.2697
宙	-12.2697
媾	-12.2698
盻	-12.2698
烜	-12.2698
隼	-12.2699
磯	-12.27
焬	-12.27
螫	-12.27
煉	-12.2701
醬	-12.2701
蠆	-12.2702
旂	-12.2702
森	-12.2702
欎	-12.2702
麇	-12.2702
簮	-12.2703
袵	-12.2703
梃	-12.2704
欄	-12.2705
劑	-12.2705
悵	-12.2707
糵	-12.2709
浿	-12.271
豔	-12.2711
輓	-12.2717
讖	-12.2719
柰	-12.3084
熺	-12.31
憝	-12.3119
躒	-12.312
柢	-12.312
墌	-12.3121
液	-12.3121
蘧	-12.3122
聯	-12.3123
齪	-12.3123
愀	-12.3123
挂	-12.3123
拈	-12.3124
糠	-12.3125
菅	-12.3126
鷂	-12.3126
蜂	-12.3127
尒	-12.3127
氛	-12.3127
㳂	-12.3128
洶	-12.3128
韐	-12.3129
妍	-12.3129
焰	-12.3129
筲	-12.3129
耨	-12.3129
䄂	-12.313
菴	-12.3131
縗	-12.3132
蹔	-12.3132
埓	-12.3132
濳	-12.3133
雊	-12.3133
瀾	-12.3133
衫	-12.3133
苐	-12.3134
遶	-12.3135
瑨	-12.3135
羕	-12.3135
圏	-12.3135
鏃	-12.3136
徠	-12.3137
厎	-12.3137
仄	-12.3138
鄞	-12.3138
霞	-12.3139
棁	-12.3139
湫	-12.3139
䆳	-12.3139
賕	-12.3139
惔	-12.3139
蒨	-12.314
隃	-12.314
鴉	-12.314
映	-12.3142
蹻	-12.3142
刷	-12.3143
燠	-12.3143
芈	-12.3144
搤	-12.3145
茌	-12.3145
柝	-12.3145
債	-12.3145
咥	-12.3148
樗	-12.3149
抎	-12.3546
菩	-12.3568
粒	-12.3572
豬	-12.3573
娱	-12.3575
惨	-12.3577
吮	-12.3578
蕕	-12.3579
鏘	-12.3579
攅	-12.358
陬	-12.358
暍	-12.3581
羇	-12.3582
玭	-12.3582
棨	-12.3582
貺	-12.3582
釘	-12.3584
喁	-12.3584
喋	-12.3584
吻	-12.3584
讟	-12.3585
詿	-12.3585
璿	-12.3586
霖	-12.3587
喑	-12.3588
尭	-12.3588
慊	-12.3588
盃	-12.3589
磾	-12.3589
灣	-12.359
肌	-12.359
彷	-12.3591
碁	-12.3591
卉	-12.3592
黏	-12.3592
僂	-12.3592
竅	-12.3594
眊	-12.3595
忸	-12.3595
坻	-12.3596
戹	-12.3596
腥	-12.3599
堠	-12.3601
駹	-12.3603
舶	-12.3605
咤	-12.3606
稗	-12.3606
聒	-12.3612
狃	-12.4021
隤	-12.4045
塤	-12.4046
麀	-12.4049
嫄	-12.4049
棋	-12.405
埽	-12.4053
藎	-12.4055
詮	-12.4055
岀	-12.4055
鏁	-12.4055
鸇	-12.4056
藜	-12.4056
猴	-12.4057
珩	-12.4057
琸	-12.4057
鷸	-12.4057
㝷	-12.4058
饉	-12.4058
峘	-12.4058
篚	-12.4058
捃	-12.4059
喀	-12.4059
蓺	-12.4059
㢲	-12.4059
殍	-12.406
柘	-12.406
羹	-12.406
妥	-12.406
僱	-12.4061
讚	-12.4061
邰	-12.4061
澌	-12.4062
虬	-12.4063
聿	-12.4063
􁞗	-12.4063
㶚	-12.4063
廱	-12.4064
現	-12.4064
洸	-12.4065
崑	-12.4065
痼	-12.4066
麤	-12.4066
別	-12.4066
斆	-12.4066
闋	-12.4066
瞰	-12.4066
糊	-12.4067
翃	-12.4067
犖	-12.4068
庵	-12.4068
箱	-12.4068
耉	-12.4069
刮	-12.4069
爇	-12.407
蹴	-12.407
沘	-12.4071
藐	-12.4071
鄃	-12.4072
㬰	-12.4072
匍	-12.4073
璫	-12.4073
磊	-12.4075
拍	-12.4076
辠	-12.4076
靑	-12.4076
囹	-12.4076
圄	-12.4078
氍	-12.4078
秬	-12.408
傚	-12.4081
嵊	-12.4083
禫	-12.4083
忒	-12.4089
龠	-12.409
隷	-12.454
貍	-12.4542
筴	-12.4548
噤	-12.4548
柅	-12.4549
万	-12.4549
鶻	-12.455
頫	-12.455
祓	-12.455
夥	-12.4551
瞀	-12.4551
呐	-12.4552
輊	-12.4554
紲	-12.4554
𣣔	-12.4554
躅	-12.4555
薇	-12.4556
囬	-12.4557
悞	-12.4557
叨	-12.4557
迺	-12.4558
暦	-12.4558
鍤	-12.4558
兕	-12.4558
莩	-12.4559
晊	-12.4559
噱	-12.456
翀	-12.456
撿	-12.4561
港	-12.4561
䨇	-12.4562
銛	-12.4562
洄	-12.4562
樽	-12.4562
悺	-12.4562
煨	-12.4562
粮	-12.4563
柙	-12.4563
兾	-12.4564
曌	-12.4564
悽	-12.4566
埸	-12.4567
塈	-12.4568
岩	-12.4569
仔	-12.4569
栽	-12.457
纁	-12.457
劎	-12.4572
腦	-12.4572
汁	-12.4572
綫	-12.4573
媧	-12.4574
儕	-12.4574
醒	-12.4575
勺	-12.4576
黽	-12.4577
埭	-12.4577
戬	-12.4577
戞	-12.4578
艻	-12.4579
怏	-12.458
睨	-12.4581
様	-12.4584
倬	-12.5057
碏	-12.5068
猊	-12.5069
攫	-12.5073
庳	-12.5073
犫	-12.5074
粃	-12.5078
甃	-12.5078
芽	-12.5079
愴	-12.5079
劌	-12.508
嗾	-12.508
泳	-12.5081
琊	-12.5081
絛	-12.5082
媮	-12.5082
紱	-12.5082
癘	-12.5083
夐	-12.5084
糅	-12.5085
竞	-12.5086
煚	-12.5086
燃	-12.5086
煎	-12.5086
惚	-12.5087
茸	-12.5087
耤	-12.5087
𦕈	-12.5087
着	-12.5088
􁨑	-12.5088
藿	-12.5089
曁	-12.5089
踳	-12.509
螽	-12.509
衎	-12.509
腫	-12.509
砂	-12.509
玢	-12.509
簴	-12.509
襦	-12.5091
槁	-12.5092
叠	-12.5092
甓	-12.5092
𡨕	-12.5093
獮	-12.5094
慓	-12.5094
牣	-12.5095
爐	-12.5095
蚩	-12.5095
倐	-12.5095
朘	-12.5096
焯	-12.5096
塋	-12.5096
繚	-12.5096
捽	-12.5097
襁	-12.5097
鏖	-12.5097
柚	-12.5098
琶	-12.5099
菰	-12.5099
旹	-12.5099
滸	-12.51
儇	-12.51
侂	-12.51
儂	-12.5101
吸	-12.5102
悁	-12.5102
嘻	-12.5103
衽	-12.5105
籬	-12.5106
萹	-12.5106
脽	-12.5107
膜	-12.5108
巔	-12.511
棼	-12.5111
罽	-12.5116
票	-12.5116
腆	-12.5122
瞞	-12.5126
薉	-12.5136
賨	-12.5616
頍	-12.5618
鼷	-12.5625
憕	-12.5626
匽	-12.5627
扎	-12.5627
颯	-12.5628
繖	-12.563
暾	-12.5631
泠	-12.5631
髯	-12.5631
笥	-12.5632
删	-12.5633
鋸	-12.5633
脈	-12.5634
另	-12.5634
痤	-12.5634
徯	-12.5635
揀	-12.5635
猫	-12.5635
朶	-12.5636
淤	-12.5636
闓	-12.5638
滓	-12.5638
跛	-12.5638
溴	-12.5639
楛	-12.5639
燬	-12.5639
閿	-12.5639
玖	-12.564
幔	-12.564
迸	-12.564
厦	-12.564
湔	-12.5641
贑	-12.5641
疢	-12.5642
甕	-12.5642
靼	-12.5644
櫝	-12.5644
戣	-12.5644
戻	-12.5645
禨	-12.5645
煖	-12.5645
姨	-12.5646
彎	-12.5646
憔	-12.5646
纒	-12.5647
畮	-12.5648
鯤	-12.5648
僥	-12.5648
鱉	-12.5649
僰	-12.5649
忷	-12.565
眤	-12.565
廨	-12.565
幃	-12.5651
唁	-12.5651
猪	-12.5651
籖	-12.5651
蒞	-12.5651
鐫	-12.5651
柞	-12.5651
簫	-12.5652
跂	-12.5652
􁀫	-12.5653
禩	-12.5653
閺	-12.5653
蚝	-12.5653
尖	-12.5653
騾	-12.5653
賭	-12.5654
彀	-12.5654
靴	-12.5656
瘃	-12.5657
鵝	-12.5658
透	-12.5659
豸	-12.5659
溍	-12.5661
墅	-12.5661
扑	-12.5663
瓛	-12.5664
􁁊	-12.5664
酆	-12.5665
踏	-12.5665
坰	-12.5673
啻	-12.6169
鶖	-12.6203
蜜	-12.6204
炮	-12.6216
䂀	-12.6217
凊	-12.6217
魑	-12.6218
懔	-12.6218
諴	-12.6218
龐	-12.622
霾	-12.6221
臚	-12.6223
衾	-12.6224
遒	-12.6224
蛙	-12.6225
壟	-12.6225
璀	-12.6225
郛	-12.6226
迤	-12.6227
岍	-12.6228
喘	-12.6228
鬷	-12.6228
敳	-12.6228
齕	-12.6229
秪	-12.6229
鶡	-12.6229
鯉	-12.6229
傉	-12.623
脞	-12.623
祲	-12.623
葷	-12.623
礫	-12.6231
騏	-12.6231
圎	-12.6231
㦤	-12.6231
恝	-12.6232
簀	-12.6232
哂	-12.6232
訹	-12.6232
砭	-12.6232
褫	-12.6232
顙	-12.6234
媟	-12.6234
褰	-12.6234
踴	-12.6234
錚	-12.6234
曮	-12.6235
櫃	-12.6236
眄	-12.6236
崍	-12.6237
癭	-12.6238
憶	-12.6238
枷	-12.6238
琵	-12.6239
箝	-12.6239
讋	-12.6239
珦	-12.6241
黿	-12.6244
劬	-12.6244
毀	-12.6245
蟊	-12.6247
恫	-12.6247
棚	-12.6248
轢	-12.6249
龢	-12.6249
吃	-12.6251
恇	-12.6251
楞	-12.6252
戅	-12.6252
朓	-12.6256
咋	-12.6256
㓙	-12.626
崆	-12.6261
璅	-12.683
㦲	-12.6836
嚢	-12.6841
韍	-12.6842
滍	-12.6844
衊	-12.6844
璇	-12.6845
衿	-12.6846
兀	-12.6846
蔟	-12.6848
熒	-12.6848
蟜	-12.6849
僇	-12.6849
宄	-12.6849
醖	-12.6849
撙	-12.685
糒	-12.685
慆	-12.6852
軟	-12.6852
締	-12.6852
駘	-12.6853
淊	-12.6853
㝡	-12.6854
嶼	-12.6856
漓	-12.6856
堨	-12.6857
褠	-12.6857
晻	-12.6857
纘	-12.6857
芑	-12.6858
躭	-12.6858
闍	-12.6858
鸚	-12.6859
盼	-12.6859
愞	-12.686
譸	-12.686
捋	-12.686
橈	-12.6861
憖	-12.6861
聫	-12.6861
鉄	-12.6861
鍛	-12.6861
撒	-12.6861
鶚	-12.6861
顕	-12.6862
婣	-12.6862
灝	-12.6863
痩	-12.6863
螭	-12.6863
晴	-12.6863
杆	-12.6863
鐔	-12.6863
籞	-12.6864
閡	-12.6864
怦	-12.6864
掬	-12.6865
簞	-12.6865
柟	-12.6866
姥	-12.6866
窕	-12.6866
遄	-12.6866
杠	-12.6867
帆	-12.6868
慴	-12.6868
胊	-12.6868
炊	-12.6868
杳	-12.6869
暖	-12.6869
臍	-12.6869
檿	-12.687
齗	-12.687
濊	-12.687
酪	-12.6871
笛	-12.6872
膰	-12.6872
綈	-12.6874
刹	-12.6874
呫	-12.6875
毐	-12.6875
杷	-12.6876
禺	-12.6876
攴	-12.6877
嗷	-12.6878
搢	-12.6878
嫣	-12.688
帽	-12.688
㬎	-12.6881
嘔	-12.6881
簧	-12.6881
瀧	-12.6882
彍	-12.6884
菊	-12.69
潯	-12.7468
虡	-12.7482
濓	-12.7485
鵩	-12.7491
菏	-12.7493
灄	-12.7495
闐	-12.7501
􁞧	-12.7504
肓	-12.7506
儗	-12.7507
傔	-12.7507
洳	-12.7508
䲭	-12.7509
岢	-12.7512
堧	-12.7513
塜	-12.7515
齷	-12.7515
灅	-12.7517
瘥	-12.7517
溲	-12.7519
劘	-12.752
埃	-12.752
閈	-12.752
黁	-12.7522
嶸	-12.7522
褁	-12.7522
幗	-12.7523
囷	-12.7523
摛	-12.7523
倀	-12.7523
緹	-12.7523
㓗	-12.7523
埤	-12.7523
騃	-12.7523
刅	-12.7523
楶	-12.7524
肋	-12.7524
蝮	-12.7525
筑	-12.7525
暌	-12.7525
縲	-12.7525
惎	-12.7525
囑	-12.7526
桷	-12.7526
窬	-12.7526
礟	-12.7528
鵡	-12.7528
窳	-12.7528
幵	-12.7528
憺	-12.7528
躐	-12.7528
䰟	-12.7529
瘤	-12.7529
餤	-12.7529
甑	-12.7529
㦯	-12.753
錙	-12.753
睡	-12.753
摹	-12.753
瀼	-12.7531
硯	-12.7531
皿	-12.7532
糺	-12.7532
薙	-12.7533
倂	-12.7534
﨑	-12.7535
榭	-12.7535
簋	-12.7535
𠖇	-12.7536
湩	-12.7536
嬀	-12.7536
㝏	-12.7537
堊	-12.7538
薁	-12.7538
柷	-12.7539
騭	-12.7539
澭	-12.754
霓	-12.754
樛	-12.754
筐	-12.7541
囁	-12.7541
傀	-12.7541
絫	-12.7542
翥	-12.7542
萎	-12.7543
鵞	-12.7543
漦	-12.7548
璵	-12.7559
个	-12.82
勍	-12.82
抒	-12.821
莵	-12.8212
冄	-12.8213
涽	-12.8216
眙	-12.8217
緼	-12.822
喆	-12.822
猱	-12.822
晸	-12.8222
煒	-12.8223
攺	-12.8223
雛	-12.8223
祟	-12.8223
滈	-12.8224
砮	-12.8224
愾	-12.8225
襚	-12.8226
畚	-12.8227
燦	-12.8228
繭	-12.8228
瓆	-12.8228
胝	-12.8229
茷	-12.8229
褉	-12.8229
蕤	-12.8229
拏	-12.823
窖	-12.8231
馛	-12.8232
罍	-12.8232
跅	-12.8232
紈	-12.8232
氾	-12.8232
漯	-12.8232
剰	-12.8234
繻	-12.8234
剴	-12.8234
茙	-12.8234
术	-12.8234
呶	-12.8235
褶	-12.8235
聮	-12.8235
葑	-12.8236
諦	-12.8237
醪	-12.8237
芰	-12.8237
鍠	-12.8237
銍	-12.8237
秕	-12.8237
獍	-12.8238
眺	-12.8238
塩	-12.8238
歜	-12.824
隩	-12.824
饜	-12.824
蜕	-12.8241
瓴	-12.8241
璡	-12.8241
隶	-12.8241
鏗	-12.8241
裙	-12.8241
彿	-12.8241
匣	-12.8241
檡	-12.8242
棹	-12.8243
捫	-12.8243
枘	-12.8244
㺯	-12.8244
凄	-12.8244
菟	-12.8245
抔	-12.8245
遡	-12.8245
痺	-12.8246
旴	-12.8246
淨	-12.8247
悃	-12.8248
刓	-12.8248
鏞	-12.8248
叉	-12.8249
􁇻	-12.8249
皦	-12.8249
舋	-12.8249
屐	-12.825
拄	-12.825
熠	-12.8251
燇	-12.8252
疥	-12.8254
棖	-12.8255
俎	-12.8256
艶	-12.8257
鵑	-12.8257
厝	-12.8259
慣	-12.826
唘	-12.8262
櫬	-12.8264
莎	-12.8269
萼	-12.8276
邂	-12.8974
飴	-12.8976
逅	-12.8977
邘	-12.898
鄔	-12.8982
鈐	-12.8982
桶	-12.8984
喈	-12.8984
枲	-12.8986
洱	-12.8987
釜	-12.8991
濂	-12.8992
欹	-12.8993
騤	-12.8993
派	-12.8994
髭	-12.8994
町	-12.8995
秣	-12.8995
刧	-12.8996
鐻	-12.8998
垤	-12.8998
党	-12.8999
脣	-12.8999
搉	-12.9
蹢	-12.9
鳶	-12.9001
渒	-12.9001
虖	-12.9002
猒	-12.9002
遝	-12.9004
涂	-12.9004
冑	-12.9004
蹯	-12.9004
啗	-12.9004
舫	-12.9004
瑤	-12.9004
點	-12.9004
肢	-12.9005
偫	-12.9005
狭	-12.9005
楙	-12.9005
㿻	-12.9006
扄	-12.9006
㛰	-12.9006
揄	-12.9007
賡	-12.9007
讌	-12.9007
笠	-12.9007
簣	-12.9007
輾	-12.9008
聦	-12.9009
淦	-12.9009
蹷	-12.9009
辮	-12.9009
侫	-12.901
沇	-12.901
賖	-12.901
恡	-12.901
厖	-12.901
摠	-12.901
巋	-12.9011
酹	-12.9011
栩	-12.9011
纇	-12.9012
惬	-12.9012
瘼	-12.9013
煌	-12.9014
戛	-12.9014
畯	-12.9016
紬	-12.9016
蛻	-12.9016
罳	-12.9016
蛾	-12.9017
旉	-12.9018
甿	-12.9018
盌	-12.9018
獅	-12.9018
竢	-12.9019
蹲	-12.9019
枸	-12.9019
兜	-12.9019
澡	-12.902
簠	-12.9021
茵	-12.9021
醯	-12.9021
犴	-12.9022
莪	-12.9023
荻	-12.9027
齮	-12.9028
罟	-12.9028
磷	-12.903
遴	-12.9032
楣	-12.9032
鐙	-12.9033
鐃	-12.9033
剭	-12.9037
羖	-12.905
䡴	-12.9808
儐	-12.9817
曆	-12.9818
槥	-12.9818
尢	-12.9822
㔻	-12.9825
痕	-12.9825
耑	-12.9825
瓢	-12.9826
蕞	-12.9826
賃	-12.9827
蚊	-12.9828
惛	-12.9828
瀝	-12.9828
煞	-12.9828
噎	-12.9829
膾	-12.9829
簸	-12.9829
姆	-12.9831
褥	-12.9831
蛤	-12.9831
燿	-12.9831
銲	-12.9831
線	-12.9831
熄	-12.9831
暅	-12.9831
仿	-12.9832
斲	-12.9832
􁂒	-12.9832
鼂	-12.9832
做	-12.9833
么	-12.9833
緐	-12.9835
瑫	-12.9835
罝	-12.9835
祍	-12.9836
濘	-12.9836
瑝	-12.9836
畒	-12.9836
臀	-12.9836
櫽	-12.9837
瀚	-12.9838
啄	-12.9838
臟	-12.9839
鋟	-12.9839
喚	-12.984
凟	-12.984
筯	-12.984
騂	-12.984
肈	-12.984
孳	-12.984
鄑	-12.984
嬙	-12.9841
旡	-12.9841
鞚	-12.9841
樁	-12.9841
淸	-12.9841
蜩	-12.9842
韡	-12.9842
瘖	-12.9843
檣	-12.9843
攖	-12.9843
剉	-12.9843
翜	-12.9843
㫤	-12.9844
蹄	-12.9844
橘	-12.9845
艸	-12.9845
卹	-12.9845
耎	-12.9846
褔	-12.9846
叵	-12.9846
毳	-12.9846
禠	-12.9846
泜	-12.9847
㮣	-12.9847
阽	-12.9847
攽	-12.9847
蝨	-12.9847
疣	-12.9848
崗	-12.9848
鄛	-12.9848
諼	-12.9848
鄕	-12.9848
紺	-12.9848
佺	-12.9849
惮	-12.9849
桔	-12.9849
涅	-12.9849
拖	-12.9851
阯	-12.9851
褻	-12.9851
裼	-12.9853
鼃	-12.9854
㕓	-12.9854
笈	-12.9854
賙	-12.9855
擄	-12.9855
儡	-12.9855
龑	-12.9857
抶	-12.9857
姁	-12.9857
漼	-12.9857
玼	-12.9858
踶	-12.9859
晧	-12.9859
帟	-12.9859
蜺	-12.986
酇	-12.986
鄚	-12.986
餱	-12.9862
悮	-12.9862
窶	-12.9862
襜	-12.9863
悤	-12.9863
㚄	-12.9865
缶	-12.9865
鯢	-12.9866
蝣	-12.9867
捲	-12.9869
隮	-12.9881
􁒑	-12.9887
菌	-12.9887
殻	-13.0704
汋	-13.0708
莞	-13.0714
瘢	-13.0719
閟	-13.0728
蹐	-13.0729
潬	-13.0729
縢	-13.0732
鞀	-13.0735
娬	-13.0736
蝟	-13.0737
献	-13.0737
簳	-13.0737
盱	-13.0738
鐶	-13.0738
樅	-13.0739
拷	-13.0739
杰	-13.074
絁	-13.074
饔	-13.0742
襤	-13.0743
轝	-13.0744
鄱	-13.0744
溜	-13.0744
繙	-13.0744
飫	-13.0745
𣲖	-13.0745
擘	-13.0745
崎	-13.0746
滹	-13.0747
㰱	-13.0747
躔	-13.0747
籛	-13.0747
㸔	-13.0747
紼	-13.0747
謌	-13.0748
篳	-13.0748
迕	-13.0748
熬	-13.0749
㩀	-13.0749
㦄	-13.0749
盩	-13.0749
侣	-13.075
擎	-13.075
闑	-13.075
妺	-13.075
黟	-13.075
摺	-13.075
騑	-13.075
塚	-13.0751
麫	-13.0751
倮	-13.0753
䴥	-13.0754
湝	-13.0754
濃	-13.0755
兊	-13.0756
伃	-13.0756
窄	-13.0756
杓	-13.0756
甔	-13.0757
憮	-13.0757
勱	-13.0758
佟	-13.0758
蟹	-13.0758
媳	-13.0758
羑	-13.0759
恧	-13.0759
迯	-13.0759
鷇	-13.0759
鈇	-13.0759
壖	-13.0759
窈	-13.0759
纖	-13.076
剕	-13.076
瘦	-13.0761
麯	-13.0761
儵	-13.0762
骼	-13.0762
䦧	-13.0762
嫪	-13.0763
淘	-13.0765
椁	-13.0765
呪	-13.0765
宷	-13.0765
撠	-13.0765
茗	-13.0765
磑	-13.0765
箾	-13.0766
壝	-13.0766
薿	-13.0767
麽	-13.0768
擗	-13.0768
鰥	-13.0768
听	-13.077
鍇	-13.0771
濺	-13.0773
卣	-13.0773
怫	-13.0773
溳	-13.0776
套	-13.0776
睍	-13.0777
珧	-13.0778
蕚	-13.0778
莢	-13.0785
眘	-13.0786
魃	-13.0787
􁃕	-13.0795
洚	-13.1703
萍	-13.1722
烙	-13.1723
閾	-13.1724
餁	-13.1726
臝	-13.1727
娖	-13.1727
筍	-13.1727
絆	-13.1728
尨	-13.1731
僄	-13.1732
洫	-13.1733
揔	-13.1735
秸	-13.1735
榼	-13.1735
碓	-13.1736
忖	-13.1736
趄	-13.1737
鄷	-13.1737
掫	-13.1737
蓽	-13.1738
柤	-13.1738
鲋	-13.174
哆	-13.174
縂	-13.1741
㐌	-13.1741
吒	-13.1741
針	-13.1742
𢡟	-13.1742
胃	-13.1742
旐	-13.1742
萑	-13.1743
壩	-13.1743
䃭	-13.1743
槎	-13.1744
羝	-13.1744
鍵	-13.1744
饍	-13.1744
悾	-13.1744
瀹	-13.1745
鸛	-13.1745
㽔	-13.1746
踝	-13.1746
韈	-13.1746
攢	-13.1747
禅	-13.1747
繢	-13.1747
遨	-13.1747
胼	-13.1747
窴	-13.1748
湍	-13.1748
汊	-13.1748
輈	-13.1748
戇	-13.1748
暝	-13.1749
䆒	-13.175
跬	-13.175
瀰	-13.175
䴡	-13.175
囓	-13.175
闒	-13.175
佻	-13.175
𢾗	-13.1751
瘧	-13.1751
椀	-13.1752
虵	-13.1752
錬	-13.1752
贜	-13.1752
腋	-13.1753
净	-13.1753
壙	-13.1753
螻	-13.1753
涎	-13.1753
嵎	-13.1753
芍	-13.1753
頋	-13.1754
仡	-13.1754
欷	-13.1754
厪	-13.1754
芹	-13.1754
兑	-13.1754
复	-13.1755
𠞰	-13.1755
栰	-13.1756
侖	-13.1756
仭	-13.1756
挿	-13.1756
㢸	-13.1756
縟	-13.1756
呴	-13.1758
躄	-13.1758
罌	-13.176
筝	-13.176
攣	-13.1761
䠞	-13.1761
斑	-13.1762
懍	-13.1763
皤	-13.1763
䭾	-13.1764
茀	-13.1765
嬗	-13.1765
盭	-13.1765
蛉	-13.1765
嚻	-13.1765
磻	-13.1766
岫	-13.1766
𫉬	-13.1766
寞	-13.1767
杅	-13.1767
綉	-13.1768
吊	-13.1769
敫	-13.177
痿	-13.177
寬	-13.1771
歠	-13.1771
礌	-13.1771
紾	-13.1771
鋋	-13.1772
猿	-13.1772
痡	-13.1774
墄	-13.1774
禡	-13.1776
餮	-13.178
韞	-13.1782
墠	-13.1784
玈	-13.1787
耰	-13.1807
蛭	-13.1827
髽	-13.2802
忼	-13.2818
阱	-13.282
竽	-13.2828
䖝	-13.2828
轊	-13.283
俌	-13.283
檉	-13.2835
蔞	-13.284
蠕	-13.284
輶	-13.284
榱	-13.2841
縹	-13.2842
烱	-13.2842
抝	-13.2843
炕	-13.2843
瑰	-13.2844
䥴	-13.2845
搴	-13.2845
𠡠	-13.2845
豷	-13.2846
𦦨	-13.2846
輣	-13.2846
釃	-13.2846
慇	-13.2847
蕝	-13.2847
悆	-13.2847
鈆	-13.2848
橦	-13.2849
蘋	-13.2849
遅	-13.285
琉	-13.285
鴛	-13.2851
幞	-13.2851
鄀	-13.2852
咢	-13.2852
獪	-13.2853
鑕	-13.2853
躪	-13.2853
歘	-13.2853
矇	-13.2853
鶩	-13.2854
从	-13.2854
溘	-13.2854
稆	-13.2854
荃	-13.2854
韭	-13.2854
焕	-13.2854
牾	-13.2856
蔥	-13.2856
涙	-13.2857
曕	-13.2857
橡	-13.2857
掞	-13.2857
逷	-13.2857
槽	-13.2858
蓰	-13.2858
俆	-13.2858
矼	-13.2858
侄	-13.2858
訔	-13.286
莆	-13.2861
蹀	-13.2861
晰	-13.2861
礬	-13.2861
㒞	-13.2861
胤	-13.2861
蟇	-13.2861
胚	-13.2862
瀨	-13.2862
旛	-13.2863
襆	-13.2863
慥	-13.2864
閴	-13.2864
澨	-13.2864
禚	-13.2864
嵕	-13.2864
哤	-13.2864
圮	-13.2865
唳	-13.2866
頁	-13.2866
嚼	-13.2866
貔	-13.2866
伻	-13.2866
覯	-13.2866
觝	-13.2866
癉	-13.2867
哇	-13.2868
鷃	-13.2868
憹	-13.2868
溶	-13.2868
橜	-13.2869
衲	-13.287
蜣	-13.287
椹	-13.287
愓	-13.287
縵	-13.287
鼾	-13.2871
敔	-13.2871
氓	-13.2873
蒂	-13.2873
澘	-13.2874
刾	-13.2875
軿	-13.2875
呱	-13.2876
胔	-13.2876
惘	-13.2876
潑	-13.2877
汔	-13.2877
萯	-13.2877
摟	-13.2878
荗	-13.2879
袋	-13.2879
𤇺	-13.288
𨼆	-13.288
黈	-13.288
籩	-13.288
飜	-13.2881
廏	-13.2881
姞	-13.2882
椓	-13.2882
惏	-13.2882
苕	-13.2884
嘘	-13.2884
斿	-13.2885
惀	-13.2885
藋	-13.2886
昰	-13.2887
噽	-13.2889
乜	-13.2891
旤	-13.2897
塑	-13.29
剷	-13.2905
䍧	-13.2912
些	-13.4063
肬	-13.407
捺	-13.4072
彄	-13.4078
諗	-13.4078
箧	-13.408
蜡	-13.4081
冓	-13.4081
鬛	-13.4082
嵯	-13.4085
逯	-13.4085
洼	-13.4085
鰓	-13.4086
嫠	-13.4087
橐	-13.4088
昝	-13.409
㳫	-13.4091
蹝	-13.4091
杻	-13.4091
噍	-13.4091
熨	-13.4091
妲	-13.4091
尔	-13.4092
㮙	-13.4093
睚	-13.4094
翮	-13.4094
貣	-13.4094
瘵	-13.4095
侲	-13.4095
猳	-13.4096
鼫	-13.4096
跼	-13.4096
瑭	-13.4097
狺	-13.4097
鞂	-13.4097
駼	-13.4098
扳	-13.4099
筌	-13.4099
睽	-13.4099
擐	-13.41
琡	-13.4101
馹	-13.4101
滲	-13.4102
怱	-13.4102
鄊	-13.4102
嚞	-13.4102
襌	-13.4103
傴	-13.4103
件	-13.4103
麵	-13.4104
嗔	-13.4104
黛	-13.4104
誶	-13.4105
㢠	-13.4105
呀	-13.4105
逍	-13.4105
祋	-13.4106
餔	-13.4106
篲	-13.4106
贗	-13.4107
咀	-13.4107
瓶	-13.4107
堦	-13.4107
􁁏	-13.4107
噪	-13.4107
尫	-13.4109
僴	-13.4109
崙	-13.4109
柹	-13.4109
瀏	-13.4109
嗢	-13.4109
猨	-13.4109
顱	-13.4109
蝎	-13.411
鋩	-13.411
麕	-13.4111
蝦	-13.4111
摇	-13.4112
峪	-13.4112
璃	-13.4112
哽	-13.4113
𥚹	-13.4113
倄	-13.4114
畬	-13.4114
畸	-13.4114
姧	-13.4114
湨	-13.4114
咒	-13.4115
旼	-13.4115
褌	-13.4115
棓	-13.4115
稾	-13.4116
嘷	-13.4116
澁	-13.4116
轔	-13.4116
菀	-13.4117
机	-13.4117
囏	-13.4117
眕	-13.4117
帕	-13.4117
懊	-13.4117
屡	-13.4117
鞌	-13.4118
溟	-13.4118
憀	-13.4118
懃	-13.4118
坫	-13.4119
噂	-13.4119
眥	-13.4119
券	-13.4119
漙	-13.4119
詫	-13.4119
㼐	-13.4119
梢	-13.412
墩	-13.412
壠	-13.4121
鄲	-13.4122
佇	-13.4122
晢	-13.4122
㒟	-13.4122
倕	-13.4122
碾	-13.4122
煢	-13.4123
瘝	-13.4123
丄	-13.4123
偼	-13.4123
觜	-13.4123
繯	-13.4124
啞	-13.4124
昛	-13.4124
倞	-13.4124
諏	-13.4125
䣛	-13.4125
窠	-13.4125
蹠	-13.4126
苔	-13.4126
捭	-13.4126
祺	-13.4128
苓	-13.4128
狴	-13.4129
簷	-13.4129
飈	-13.4129
枳	-13.413
荏	-13.413
諄	-13.413
襖	-13.4131
氅	-13.4131
匜	-13.4131
怚	-13.4132
廕	-13.4132
咏	-13.4133
謄	-13.4133
繄	-13.4133
牐	-13.4133
膊	-13.4134
􁚫	-13.4135
蓁	-13.4135
酧	-13.4135
絏	-13.4136
眎	-13.4137
裭	-13.4137
棱	-13.4138
縚	-13.4139
綣	-13.414
晛	-13.414
謜	-13.4141
㳄	-13.4141
瞷	-13.4146
洑	-13.4147
鰒	-13.4148
趫	-13.4154
恌	-13.4158
丌	-13.4163
耏	-13.4171
枋	-13.5491
箎	-13.55
歂	-13.5501
簏	-13.5502
秺	-13.5503
頖	-13.5503
瘐	-13.5506
襍	-13.5508
栫	-13.5509
秖	-13.5512
睠	-13.5513
卅	-13.5514
刊	-13.5515
漾	-13.5515
傋	-13.5515
愒	-13.5517
詶	-13.5518
眦	-13.5518
猇	-13.5518
簪	-13.5518
怢	-13.5519
碌	-13.5519
鄡	-13.5519
􁢱	-13.552
婭	-13.552
苹	-13.552
嫵	-13.5521
曝	-13.5521
亰	-13.5521
靷	-13.5521
偘	-13.5522
穸	-13.5523
窀	-13.5523
鹺	-13.5523
崓	-13.5523
檮	-13.5524
喩	-13.5524
珌	-13.5524
覡	-13.5525
顇	-13.5526
埜	-13.5526
穣	-13.5527
廛	-13.5527
裌	-13.5527
禖	-13.5527
藕	-13.5527
嘖	-13.5527
崟	-13.5527
峩	-13.5528
曀	-13.5528
駡	-13.5528
墱	-13.5529
謏	-13.553
淬	-13.553
鑽	-13.5531
禭	-13.5531
薺	-13.5531
賒	-13.5532
籕	-13.5533
徉	-13.5533
禝	-13.5533
漚	-13.5533
喫	-13.5533
溯	-13.5533
罼	-13.5533
噩	-13.5533
菼	-13.5534
邗	-13.5534
㡳	-13.5534
舖	-13.5535
桎	-13.5535
嗌	-13.5535
琫	-13.5536
埴	-13.5537
琥	-13.5537
醤	-13.5538
咱	-13.5538
鱠	-13.5538
梲	-13.5538
棫	-13.5539
脾	-13.5539
逌	-13.5539
鱓	-13.5539
鷺	-13.554
杙	-13.554
勳	-13.554
嶂	-13.554
艫	-13.554
盬	-13.554
㺷	-13.5541
阸	-13.5541
磅	-13.5542
陗	-13.5542
蟾	-13.5542
傪	-13.5542
巉	-13.5542
浃	-13.5542
檐	-13.5542
総	-13.5542
燉	-13.5542
淛	-13.5543
墐	-13.5543
芃	-13.5543
佷	-13.5544
竸	-13.5545
幙	-13.5545
眯	-13.5545
洿	-13.5545
稿	-13.5545
爺	-13.5545
袪	-13.5545
剙	-13.5545
甖	-13.5545
狽	-13.5546
鈕	-13.5546
瑠	-13.5546
芭	-13.5546
筒	-13.5546
忙	-13.5546
攤	-13.5546
璙	-13.5546
躰	-13.5547
殲	-13.5547
簟	-13.5547
㩧	-13.5548
珫	-13.5548
讇	-13.5548
剟	-13.5548
藂	-13.5548
顆	-13.5549
搭	-13.5549
巇	-13.5549
匙	-13.5549
痂	-13.555
凂	-13.5551
怕	-13.5551
殳	-13.5551
賧	-13.5551
虔	-13.5551
瞍	-13.5551
倅	-13.5551
朅	-13.5551
軷	-13.5551
靁	-13.5551
厔	-13.5552
邡	-13.5552
韲	-13.5553
駸	-13.5553
磴	-13.5553
􁂄	-13.5553
嶮	-13.5554
贐	-13.5554
㹠	-13.5554
綌	-13.5554
芘	-13.5555
徊	-13.5556
粧	-13.5556
凰	-13.5557
驆	-13.5557
瞬	-13.5557
蝝	-13.5557
鼗	-13.5557
芙	-13.5557
􁆹	-13.5558
滴	-13.5559
􁒯	-13.5559
􁣽	-13.5559
挐	-13.556
很	-13.556
胯	-13.556
袀	-13.556
娃	-13.556
稊	-13.556
䳌	-13.5562
裠	-13.5563
崱	-13.5563
侠	-13.5563
螘	-13.5563
瑚	-13.5563
鱄	-13.5565
㔽	-13.5566
氿	-13.5566
鑪	-13.5566
襠	-13.5568
礮	-13.5569
焱	-13.557
􁂋	-13.5573
鍰	-13.5574
緭	-13.5579
癃	-13.5581
絍	-13.5581
釱	-13.5583
跱	-13.559
埇	-13.5592
儤	-13.5598
呿	-13.5598
蹹	-13.5605
樐	-13.561
懆	-13.7126
膴	-13.7144
瞟	-13.7145
鼛	-13.7154
簜	-13.716
菓	-13.7162
臬	-13.7164
㐫	-13.7168
鋌	-13.717
郳	-13.7171
脤	-13.7172
蜹	-13.7174
詾	-13.7174
筈	-13.7175
罭	-13.7178
莓	-13.7179
􁀾	-13.7179
确	-13.7179
岊	-13.718
冣	-13.7181
𬗟	-13.7183
罥	-13.7183
睛	-13.7184
䌈	-13.7185
瀋	-13.7185
廋	-13.7186
佋	-13.7186
趯	-13.7186
邶	-13.7186
缾	-13.7186
笴	-13.7187
撑	-13.7187
磝	-13.7188
豰	-13.7188
嵓	-13.7189
溼	-13.7189
瀟	-13.719
淋	-13.7191
螺	-13.7191
􁕏	-13.7191
粽	-13.7191
串	-13.7192
鑣	-13.7192
讁	-13.7193
郲	-13.7193
嬈	-13.7193
蔀	-13.7194
霣	-13.7194
䁥	-13.7194
惸	-13.7194
戭	-13.7195
珀	-13.7195
梳	-13.7195
蜰	-13.7195
窻	-13.7196
磽	-13.7196
礦	-13.7196
慍	-13.7196
稈	-13.7196
庀	-13.7197
畛	-13.7197
穩	-13.7197
啣	-13.7198
蛆	-13.7198
届	-13.7198
頎	-13.7198
櫂	-13.7199
湞	-13.7199
禥	-13.7199
騋	-13.7199
籓	-13.7199
哨	-13.7199
聪	-13.7199
枰	-13.7199
跗	-13.7199
顰	-13.7199
箔	-13.72
艴	-13.72
魔	-13.72
咮	-13.72
帢	-13.72
閧	-13.7201
蝇	-13.7201
珮	-13.7201
稂	-13.7201
枵	-13.7201
瞶	-13.7201
歔	-13.7202
飡	-13.7202
醎	-13.7202
懕	-13.7202
瘍	-13.7203
綍	-13.7203
驄	-13.7203
潏	-13.7203
奰	-13.7203
蘚	-13.7203
抹	-13.7204
劼	-13.7204
滙	-13.7204
愊	-13.7204
毌	-13.7204
艤	-13.7204
赳	-13.7204
餫	-13.7204
娼	-13.7205
莨	-13.7205
箐	-13.7205
佖	-13.7205
瑲	-13.7205
劃	-13.7206
鯈	-13.7206
輳	-13.7206
㵒	-13.7206
瞳	-13.7206
虨	-13.7207
棃	-13.7208
垠	-13.7208
憧	-13.7208
蒭	-13.7208
袐	-13.7208
怗	-13.7209
篁	-13.7209
綢	-13.7209
胠	-13.7209
㥄	-13.7209
虙	-13.7209
蠍	-13.7209
偸	-13.721
賸	-13.721
拽	-13.721
泱	-13.721
傒	-13.721
挼	-13.721
胛	-13.721
翌	-13.7211
跟	-13.7211
塉	-13.7211
僬	-13.7211
祻	-13.7211
匃	-13.7212
蔇	-13.7212
沗	-13.7212
茟	-13.7212
綀	-13.7213
躧	-13.7213
汛	-13.7213
蜋	-13.7213
价	-13.7214
翽	-13.7214
嘅	-13.7215
厙	-13.7215
斨	-13.7215
䑛	-13.7215
輬	-13.7217
皃	-13.7217
鰌	-13.7217
鞕	-13.7217
嘒	-13.7217
剌	-13.7218
碍	-13.7218
鍥	-13.7218
宂	-13.7218
綖	-13.7218
嬃	-13.7218
潺	-13.7218
綟	-13.7218
褓	-13.7218
攱	-13.7218
搔	-13.7218
猺	-13.7218
竧	-13.7218
鈹	-13.7219
牿	-13.7219
餳	-13.722
澇	-13.722
敉	-13.722
嚈	-13.722
蠓	-13.722
噠	-13.7221
柦	-13.7222
酳	-13.7222
繦	-13.7223
􁂆	-13.7223
嗛	-13.7223
鬢	-13.7224
眡	-13.7225
杪	-13.7225
懀	-13.7225
揕	-13.7225
型	-13.7225
甦	-13.7225
矻	-13.7226
萄	-13.7226
插	-13.7226
𡡉	-13.7226
扛	-13.7226
欋	-13.7226
頮	-13.7227
凭	-13.7227
鏑	-13.7228
􁝜	-13.7228
鵶	-13.7229
羶	-13.7229
𤾉	-13.7229
歃	-13.723
嬸	-13.723
緤	-13.7231
齱	-13.7232
􁥌	-13.7232
㕑	-13.7233
嫘	-13.7233
叫	-13.7233
癬	-13.7233
濉	-13.7235
鷰	-13.7235
沕	-13.7235
妤	-13.7238
蜑	-13.7238
醻	-13.724
庋	-13.724
撣	-13.7241
迮	-13.7241
鐺	-13.7243
渫	-13.7244
繾	-13.7245
寙	-13.7246
􁈩	-13.7251
丱	-13.7253
澍	-13.7253
唶	-13.7253
䠶	-13.7253
􁱚	-13.7253
茭	-13.7257
幪	-13.7258
篹	-13.726
餂	-13.7262
桺	-13.7272
灉	-13.7274
絇	-13.7328
簙	-13.9133
湬	-13.9143
㶏	-13.9145
塠	-13.9145
崐	-13.9147
觷	-13.9153
崦	-13.9156
𤏡	-13.9162
䘚	-13.9162
憃	-13.9163
暋	-13.9163
嵫	-13.9165
矙	-13.9166
瞎	-13.9166
篠	-13.9166
幝	-13.9166
囮	-13.9167
襕	-13.9167
㸙	-13.9167
㟧	-13.9169
鶄	-13.9169
鵁	-13.917
渟	-13.9173
秒	-13.9174
喏	-13.9176
邥	-13.9176
輞	-13.9177
崘	-13.9179
栝	-13.9179
壎	-13.9179
巙	-13.918
肹	-13.918
騄	-13.918
刲	-13.9181
蜯	-13.9181
騊	-13.9184
旿	-13.9184
訿	-13.9185
咆	-13.9186
訞	-13.9187
醲	-13.9187
鼬	-13.9187
孃	-13.9187
衟	-13.9187
玕	-13.9187
唃	-13.9188
囙	-13.9188
悪	-13.9189
縕	-13.919
涘	-13.9191
訝	-13.9191
孊	-13.9191
禜	-13.9192
恰	-13.9193
騩	-13.9193
泅	-13.9193
祑	-13.9193
蜃	-13.9193
䂮	-13.9193
訩	-13.9193
殮	-13.9194
矴	-13.9194
戺	-13.9194
胾	-13.9194
銚	-13.9194
倰	-13.9194
禴	-13.9195
剸	-13.9195
闖	-13.9195
陔	-13.9195
齄	-13.9195
腳	-13.9195
賍	-13.9195
鷔	-13.9195
䴚	-13.9195
鱸	-13.9195
𬒮	-13.9195
韃	-13.9196
哮	-13.9196
桮	-13.9196
掀	-13.9196
𥘉	-13.9197
齠	-13.9197
梏	-13.9197
爨	-13.9197
脗	-13.9198
辝	-13.9198
浢	-13.9198
萁	-13.9198
倜	-13.9198
絝	-13.9199
繅	-13.9199
鬪	-13.9199
菱	-13.9199
憩	-13.92
嗑	-13.92
兪	-13.92
衅	-13.9201
竆	-13.9201
轓	-13.9201
姉	-13.9201
樕	-13.9201
璲	-13.9201
隈	-13.9202
嫫	-13.9202
鏟	-13.9202
臊	-13.9202
紖	-13.9202
秅	-13.9203
髳	-13.9203
慷	-13.9203
毉	-13.9203
慸	-13.9204
炟	-13.9204
𫝑	-13.9204
迢	-13.9204
鞶	-13.9204
􁡶	-13.9204
躑	-13.9204
咫	-13.9205
𫐠	-13.9205
儈	-13.9205
𥜗	-13.9205
㳙	-13.9205
瞠	-13.9205
紡	-13.9205
伲	-13.9206
酲	-13.9206
珎	-13.9206
褸	-13.9206
霰	-13.9206
㴱	-13.9207
㴻	-13.9207
㢮	-13.9208
虀	-13.9208
錘	-13.9208
嚬	-13.9208
貙	-13.9208
螣	-13.9208
馺	-13.9208
腊	-13.9208
瞥	-13.9208
楓	-13.9209
貅	-13.9209
㕎	-13.9209
傃	-13.9209
尃	-13.9209
槌	-13.9209
灨	-13.9209
惽	-13.921
豭	-13.921
櫺	-13.921
䄖	-13.921
悄	-13.921
饐	-13.921
氈	-13.921
㡊	-13.921
僶	-13.921
邅	-13.9212
薑	-13.9212
琱	-13.9212
涣	-13.9212
纏	-13.9213
吼	-13.9213
螳	-13.9213
癩	-13.9213
眜	-13.9213
禔	-13.9213
暵	-13.9214
篙	-13.9214
􁌙	-13.9214
醊	-13.9214
陑	-13.9214
菪	-13.9214
靮	-13.9214
摴	-13.9215
妁	-13.9215
骲	-13.9215
􁀬	-13.9215
睱	-13.9215
剋	-13.9215
関	-13.9215
悈	-13.9215
虯	-13.9215
鄵	-13.9215
晤	-13.9216
􁒍	-13.9216
􁥫	-13.9216
諐	-13.9217
聆	-13.9217
蟣	-13.9217
顫	-13.9217
蠛	-13.9217
痾	-13.9218
覼	-13.9218
洊	-13.9218
􁆣	-13.9218
擥	-13.9218
玨	-13.9218
祅	-13.9218
謼	-13.9218
憇	-13.9219
疐	-13.9219
屧	-13.922
轞	-13.922
漷	-13.9221
蒟	-13.9221
咿	-13.9221
甗	-13.9221
窽	-13.9221
􁱌	-13.9221
覔	-13.9222
澀	-13.9222
昈	-13.9222
觱	-13.9222
渢	-13.9222
潾	-13.9222
窣	-13.9222
肴	-13.9222
蠖	-13.9222
餧	-13.9223
澱	-13.9223
跽	-13.9223
仝	-13.9223
肻	-13.9223
蚳	-13.9223
篾	-13.9224
奩	-13.9225
􁇆	-13.9225
礱	-13.9225
㵯	-13.9226
挻	-13.9226
珊	-13.9226
􁀅	-13.9226
崒	-13.9226
笲	-13.9226
諞	-13.9227
黲	-13.9227
獾	-13.9227
雝	-13.9228
䱸	-13.9228
懥	-13.9229
䪥	-13.9229
蘩	-13.923
儌	-13.923
㪺	-13.923
㭬	-13.9231
𣙗	-13.9231
􁗟	-13.9231
腵	-13.9231
綆	-13.9233
弮	-13.9234
噁	-13.9234
矺	-13.9234
剃	-13.9235
狦	-13.9236
蝤	-13.9236
膩	-13.9237
愭	-13.9237
䪹	-13.9238
㪷	-13.9239
鄮	-13.9239
疹	-13.9239
烕	-13.9242
牕	-13.9242
紃	-13.9242
騒	-13.9242
茬	-13.9243
鞘	-13.9244
鼐	-13.9245
轀	-13.9245
苡	-13.9245
瀉	-13.9249
䐗	-13.9249
儶	-13.925
闟	-13.9253
漑	-13.9257
腇	-13.9257
燻	-13.9258
屝	-13.9258
桄	-13.9262
檥	-13.9312
颭	-14.1611
箟	-14.1626
媱	-14.1638
陾	-14.1647
趡	-14.1649
㵼	-14.1651
秊	-14.1651
岵	-14.1652
猰	-14.1654
纚	-14.1654
蹬	-14.1654
鷖	-14.1655
幰	-14.1656
䙆	-14.1658
􁂳	-14.1658
穗	-14.1659
饘	-14.1659
厰	-14.1661
鷘	-14.1661
烘	-14.1662
犗	-14.1663
䣊	-14.1663
攟	-14.1665
单	-14.1665
簵	-14.1666
畼	-14.1667
怤	-14.1667
韇	-14.167
轕	-14.167
聧	-14.1672
煇	-14.1672
烺	-14.1673
揃	-14.1673
蚪	-14.1673
箘	-14.1673
媺	-14.1673
鸒	-14.1673
懫	-14.1674
鞲	-14.1674
楬	-14.1674
骰	-14.1676
羃	-14.1676
􁋷	-14.1677
瀬	-14.1677
瘇	-14.1679
僿	-14.1679
拑	-14.1679
咳	-14.168
𠢐	-14.168
𦂳	-14.1681
蜒	-14.1681
鎣	-14.1681
巂	-14.1683
攈	-14.1683
緻	-14.1683
爍	-14.1684
嫺	-14.1684
袛	-14.1684
榘	-14.1685
䴢	-14.1685
邐	-14.1687
琀	-14.1687
􁙆	-14.1687
掄	-14.1688
幬	-14.1688
伹	-14.1688
㠓	-14.1688
卾	-14.1688
奘	-14.169
鏦	-14.169
翎	-14.169
嗅	-14.169
蚶	-14.169
􁨄	-14.169
皸	-14.1691
褏	-14.1691
摉	-14.1691
戳	-14.1691
䫻	-14.1691
蓴	-14.1691
銆	-14.1691
閘	-14.1691
􁁍	-14.1691
恼	-14.1692
㟭	-14.1692
蔿	-14.1692
韁	-14.1692
芧	-14.1692
𣪚	-14.1692
◍	-14.1692
癢	-14.1694
襮	-14.1694
踪	-14.1694
鮐	-14.1694
衜	-14.1694
䈮	-14.1694
櫡	-14.1694
蒹	-14.1694
騧	-14.1694
啑	-14.1694
蜻	-14.1695
毈	-14.1695
囤	-14.1695
惹	-14.1695
砌	-14.1695
梜	-14.1695
蘂	-14.1697
􁒡	-14.1697
俵	-14.1697
㒒	-14.1697
剜	-14.1697
拗	-14.1697
淀	-14.1697
騮	-14.1697
𬒳	-14.1697
囗	-14.1697
妎	-14.1697
楡	-14.1697
蜼	-14.1697
腯	-14.1698
𣏌	-14.1698
漅	-14.1698
䄡	-14.1698
搦	-14.1699
佔	-14.1699
瀑	-14.1699
籃	-14.1699
鳦	-14.1699
汐	-14.1701
鍫	-14.1701
袠	-14.1701
敭	-14.1701
鷲	-14.1701
䌓	-14.1701
胞	-14.1701
膇	-14.1701
臈	-14.1701
濆	-14.1702
廧	-14.1702
癈	-14.1702
颶	-14.1702
缿	-14.1702
蚿	-14.1703
齘	-14.1703
扃	-14.1703
枑	-14.1703
爆	-14.1703
尠	-14.1703
弒	-14.1704
磋	-14.1704
齩	-14.1704
珞	-14.1704
鷽	-14.1704
黳	-14.1704
􁀨	-14.1704
粘	-14.1705
駉	-14.1705
髫	-14.1705
樠	-14.1705
瞱	-14.1705
暙	-14.1705
熢	-14.1705
㣧	-14.1706
獳	-14.1706
咼	-14.1706
磚	-14.1706
髏	-14.1706
罅	-14.1706
鳫	-14.1706
殚	-14.1708
矚	-14.1708
嚙	-14.1708
舳	-14.1708
髑	-14.1708
㴠	-14.1708
噴	-14.1708
斸	-14.1708
牷	-14.1708
癖	-14.1708
苪	-14.1708
䭔	-14.1708
謿	-14.1708
悱	-14.1709
􁙶	-14.1709
睃	-14.1709
齰	-14.1709
鶂	-14.171
紜	-14.171
蝸	-14.171
惷	-14.171
騅	-14.171
黮	-14.171
鷟	-14.171
輼	-14.171
捻	-14.171
梮	-14.171
萴	-14.171
㗋	-14.1712
搶	-14.1712
禊	-14.1712
綃	-14.1712
噀	-14.1712
渌	-14.1712
醸	-14.1713
揷	-14.1713
褕	-14.1713
芋	-14.1713
苣	-14.1713
剮	-14.1713
踆	-14.1713
㿅	-14.1713
澓	-14.1713
醋	-14.1714
罩	-14.1714
鉸	-14.1715
譊	-14.1715
杌	-14.1715
憯	-14.1715
搥	-14.1715
潄	-14.1715
壚	-14.1715
硜	-14.1715
釭	-14.1715
婞	-14.1716
拇	-14.1716
媼	-14.1716
暀	-14.1716
牃	-14.1716
楔	-14.1716
涗	-14.1716
幍	-14.1717
鵰	-14.1717
豋	-14.1717
峥	-14.1717
冋	-14.1717
剿	-14.1717
慬	-14.1717
蓌	-14.1717
蚻	-14.1717
鄳	-14.1717
鵜	-14.1719
堀	-14.1719
絓	-14.1719
蓊	-14.1719
斚	-14.1719
凷	-14.1719
柈	-14.1719
鍮	-14.1719
􁉁	-14.1719
􁳋	-14.1719
螯	-14.1719
䴵	-14.172
㷔	-14.172
愰	-14.172
圌	-14.172
鑱	-14.172
鸗	-14.172
殰	-14.172
觳	-14.1721
葡	-14.1722
湕	-14.1722
氲	-14.1723
皴	-14.1723
碇	-14.1723
茇	-14.1723
仟	-14.1723
㬭	-14.1724
敲	-14.1724
筤	-14.1724
靶	-14.1724
誖	-14.1724
蹵	-14.1724
􁦚	-14.1724
怳	-14.1724
茈	-14.1724
餹	-14.1724
傫	-14.1724
冽	-14.1724
涔	-14.1724
伈	-14.1726
頟	-14.1726
秔	-14.1726
犛	-14.1726
誾	-14.1727
慠	-14.1727
坪	-14.1727
􁆵	-14.1728
莧	-14.1728
忩	-14.1728
祛	-14.1728
蓧	-14.1728
楀	-14.1728
珝	-14.1728
嫳	-14.1728
奓	-14.1729
貛	-14.173
徕	-14.173
箒	-14.173
􁊓	-14.1731
䞉	-14.1731
蟆	-14.1731
袨	-14.1731
餕	-14.1731
薅	-14.1733
迍	-14.1733
􁋎	-14.1733
䂎	-14.1733
箄	-14.1734
嵳	-14.1734
羚	-14.1734
袝	-14.1734
帬	-14.1735
皛	-14.1735
翛	-14.1735
衖	-14.1737
殣	-14.1737
嚪	-14.1737
遳	-14.1737
鎚	-14.1738
渺	-14.1738
嫖	-14.1738
怜	-14.174
薈	-14.174
笨	-14.174
鐎	-14.174
濋	-14.1741
塓	-14.1741
鷩	-14.1741
厷	-14.1741
枅	-14.1741
翷	-14.1742
堲	-14.1742
蠃	-14.1742
􁃹	-14.1742
馗	-14.1744
郠	-14.1744
撟	-14.1745
槿	-14.1745
咲	-14.1745
綻	-14.1746
曅	-14.1747
飪	-14.1748
髆	-14.1749
倎	-14.1749
萋	-14.1752
亓	-14.1753
邟	-14.1753
眧	-14.1755
瘉	-14.1758
醵	-14.1759
唈	-14.1759
􁕒	-14.176
稭	-14.177
霦	-14.1784
汳	-14.1795
杝	-14.1799
庱	-14.1816
薃	-14.1816
憞	-14.1819
檟	-14.4967
搗	-14.4976
帴	-14.4976
㿊	-14.4988
洓	-14.4992
埧	-14.4992
戫	-14.4994
咠	-14.4996
愻	-14.4996
鷦	-14.4997
憨	-14.4997
㘭	-14.4999
汏	-14.4999
崿	-14.5001
浲	-14.5001
杉	-14.5003
嘑	-14.5005
喣	-14.5005
溈	-14.5005
㓎	-14.5007
椌	-14.5007
嫓	-14.5011
惼	-14.5011
欑	-14.5011
䂭	-14.5013
仵	-14.5013
沄	-14.5013
䦨	-14.5015
儺	-14.5015
嘶	-14.5015
倿	-14.5017
换	-14.5019
䝤	-14.5019
㕁	-14.5019
弢	-14.5021
檛	-14.5021
鵒	-14.5021
椐	-14.5021
碻	-14.5021
淒	-14.5021
幇	-14.5022
婧	-14.5023
懘	-14.5024
揠	-14.5026
牴	-14.5026
劈	-14.5026
儘	-14.5026
咩	-14.5026
惄	-14.5026
杇	-14.5026
攗	-14.5026
櫖	-14.5028
嶪	-14.5028
攪	-14.5028
䘺	-14.5028
凸	-14.5029
駙	-14.503
墁	-14.503
朾	-14.503
朦	-14.503
棬	-14.503
殢	-14.503
䀨	-14.5032
搰	-14.5032
撩	-14.5032
倢	-14.5032
㣥	-14.5034
傿	-14.5034
抛	-14.5034
扱	-14.5036
浼	-14.5036
䣄	-14.5036
广	-14.5036
屩	-14.5038
廽	-14.5038
敍	-14.5038
恁	-14.504
摳	-14.504
姏	-14.504
櫪	-14.504
嚶	-14.5042
牁	-14.5042
捩	-14.5042
权	-14.5042
婾	-14.5044
嫻	-14.5044
凾	-14.5044
梐	-14.5046
咻	-14.5046
䱇	-14.5046
掝	-14.5046
亙	-14.5048
掔	-14.5048
侜	-14.5048
㴶	-14.5049
昷	-14.5049
塪	-14.505
宊	-14.505
岯	-14.505
槧	-14.5051
唉	-14.5051
姙	-14.5051
個	-14.5052
聵	-14.5053
惆	-14.5053
沍	-14.5053
亍	-14.5053
抅	-14.5053
岕	-14.5055
忕	-14.5055
忡	-14.5055
歊	-14.5055
朡	-14.5055
漉	-14.5057
尘	-14.5057
啔	-14.5057
敧	-14.5057
㩥	-14.5057
㮔	-14.5057
䤈	-14.5057
醨	-14.5059
匆	-14.5059
彂	-14.5059
䬴	-14.5059
嚌	-14.5059
㳊	-14.5059
壐	-14.5061
娵	-14.5061
旧	-14.5061
䡖	-14.5061
嶕	-14.5061
惱	-14.5061
枊	-14.5063
擭	-14.5063
嵏	-14.5063
㹞	-14.5063
丅	-14.5063
䛒	-14.5065
戔	-14.5065
剩	-14.5065
湳	-14.5065
墦	-14.5067
旟	-14.5067
孌	-14.5067
揲	-14.5069
旍	-14.5069
䳺	-14.5071
憍	-14.5071
䑠	-14.5073
斄	-14.5075
㱪	-14.5075
圂	-14.5078
唏	-14.5078
惃	-14.5078
嵹	-14.508
㬚	-14.508
啾	-14.508
栭	-14.508
栱	-14.508
蹉	-14.5084
岋	-14.5084
嫈	-14.5086
㒡	-14.5088
槬	-14.509
墍	-14.5094
孀	-14.5096
洨	-14.5098
妒	-14.51
懬	-14.5102
恆	-14.5103
幺	-14.5107
䁹	-14.5111
拮	-14.5111
揵	-14.5123
觔	-14.9996
犄	-15.0001
脰	-15.0002
遛	-15.0031
鸜	-15.0034
鷯	-15.0037
螂	-15.0056
徘	-15.0059
婕	-15.0059
惓	-15.0069
鸑	-15.0069
鞨	-15.0081
靺	-15.0081
𣅿	-15.011
柣	-15.9991
摎	-15.9992
憗	-15.9993
㖃	-15.9994
騢	-15.9995
鍉	-15.9996
鋏	-15.9997
鄋	-15.9998
郏	-15.9999
蜎	-16
薏	-16.0001
蕨	-16.0002
蓲	-16.0003
蓚	-16.0004
翡	-16.0005
穨	-16.0006
炣	-16.0007
潝	-16.0008
漈	-16.0009
槲	-16.001
懨	-16.0011
徬	-16.0012
庲	-16.0013
崢	-16.0014
寪	-16.0015
姮	-16.0016
唫	-16.0017
䏰	-16.0018
䃃	-16.0019
㺐	-16.002
鶠	-16.0021
鰐	-16.0022
邆	-16.0023
襧	-16.0024
蠙	-16.0025
蛣	-16.0026
蒺	-16.0027
葫	-16.0028
簨	-16.0029
窩	-16.003
碔	-16.0031
砆	-16.0032
睒	-16.0033
澂	-16.0034
榴	-16.0035
怩	-16.0036
媫	-16.0037
偰	-16.0038
份	-16.0039
顦	-16.004
鎡	-16.0041
鄬	-16.0042
蠜	-16.0043
蓉	-16.0044
礴	-16.0045
璥	-16.0046
檇	-16.0047
徜	-16.0048
刵	-16.0049
傯	-16.005
倆	-16.0051
乣	-16.0052
玳	-16.0053
獫	-16.0054
枓	-16.0055
媢	-16.0056
瓞	-16.0057
拐	-16.0058
趦	-16.0059
蟋	-16.006
蟀	-16.0061
棝	-16.0062
佀	-16.0063
踖	-16.0064
諟	-16.0065
嘽	-16.0066
鄏	-16.0067
躊	-16.0068
躇	-16.0069
琄	-16.007
徨	-16.0071
偬	-16.0072
鮀	-16.0073
髴	-16.0074
髣	-16.0075
蹌	-16.0076
艨	-16.0077
艟	-16.0078
娀	-16.0079
蜉	-16.008
粕	-16.0081
嘍	-16.0082
齬	-16.0083
齟	-16.0084
涑	-16.0085
倥	-16.0086
溧	-16.0087
嘵	-16.0088
嶇	-16.0089
倧	-16.009
琕	-16.0091
吭	-16.0092
㬋	-16.0093
瞭	-16.0094
獗	-16.0095
麒	-16.0096
狁	-16.0097
睥	-16.0098
覦	-16.0098
