<unk>	0
<s>	0
</s>	0
/	-3.23681
(	-3.6898
)	-3.8313
)(	-4.03945
之	-4.48923
以	-4.86522
也	-5.02238
為	-5.06119
有	-5.3306
而	-5.33149
者	-5.43006
日	-5.43951
増	-5.45103
其	-5.49701
於	-5.50806
不	-5.55798
中	-5.64032
一	-5.64646
人	-5.6767
上	-5.6823
春	-5.72454
月	-5.74415
曰	-5.75983
時	-5.7966
大	-5.81252
生	-5.8289
則	-5.89504
至	-5.89685
詩	-5.92455
水	-5.93175
三	-5.9871
天	-5.99221
子	-5.99502
如	-5.997
夜	-6.07717
秋	-6.09098
出	-6.11036
花	-6.12725
在	-6.16398
無	-6.16784
行	-6.17369
原	-6.21083
山	-6.21171
作	-6.26132
夏	-6.29458
自	-6.32232
增	-6.3242
故	-6.33811
令	-6.34051
長	-6.34378
下	-6.35128
五	-6.37744
用	-6.4029
風	-6.41979
王	-6.43692
見	-6.45019
皆	-6.45629
書	-6.45673
此	-6.46214
成	-6.46855
與	-6.47019
得	-6.47284
冬	-6.49109
所	-6.49561
四	-6.49596
二	-6.5082
事	-6.51147
及	-6.52272
後	-6.53194
氣	-6.53628
正	-6.55164
方	-6.56863
火	-6.56985
乃	-6.57095
陽	-6.57867
雨	-6.58661
入	-6.58854
年	-6.6169
白	-6.64215
相	-6.64588
言	-6.65954
初	-6.66297
金	-6.66401
官	-6.66708
食	-6.6709
取	-6.67327
始	-6.67335
酒	-6.67975
地	-6.68989
又	-6.69439
雲	-6.70764
門	-6.72596
嵗	-6.72812
隂	-6.73249
朝	-6.73503
賜	-6.73504
謂	-6.74242
開	-6.74389
小	-6.75027
道	-6.75143
𫝊	-6.75196
神	-6.75845
注	-6.76547
可	-6.7668
石	-6.77458
葉	-6.77655
分	-6.78132
南	-6.78441
九	-6.78843
元	-6.80266
木	-6.80327
云	-6.81071
名	-6.81454
文	-6.81902
物	-6.82497
明	-6.82549
寒	-6.82686
是	-6.84432
草	-6.84453
多	-6.84689
當	-6.85313
六	-6.86718
謂之	-6.87153
種	-6.87277
帝	-6.8944
即	-6.89591
節	-6.89913
主	-6.90986
亦	-6.92169
數	-6.92268
東	-6.92802
新	-6.92805
法	-6.93882
土	-6.94182
公	-6.94347
前	-6.94777
使	-6.94785
常	-6.95324
黄	-6.95371
樂	-6.95488
青	-6.97235
扵	-6.97898
星	-6.97904
光	-6.98586
民	-6.98758
復	-6.99027
和	-6.99318
香	-7.00238
西	-7.00595
龍	-7.00862
詔	-7.00929
命	-7.01304
玉	-7.02062
▁	-7.0279
合	-7.02932
内	-7.02987
祭	-7.03717
未	-7.03811
先	-7.0403
清	-7.04037
已	-7.04261
觀	-7.04701
七	-7.05752
起	-7.0591
色	-7.0658
國	-7.0703
若	-7.07511
州	-7.07564
殿	-7.08021
或	-7.08421
十	-7.0934
田	-7.09532
諸	-7.09903
經	-7.10411
家	-7.10592
熟	-7.10726
北	-7.11007
馬	-7.11129
去	-7.12539
立	-7.12752
禮	-7.12922
凡	-7.1294
今	-7.136
同	-7.1395
樹	-7.14012
宫	-7.14476
髙	-7.1552
因	-7.16199
來	-7.16233
臣	-7.16423
正月	-7.17314
魚	-7.17714
實	-7.17852
宜	-7.18124
然	-7.1819
聲	-7.18479
各	-7.18741
服	-7.18966
從	-7.18974
必	-7.20057
過	-7.20196
平	-7.20618
知	-7.20841
衣	-7.21484
欲	-7.22043
華	-7.22344
註	-7.22625
心	-7.24042
周	-7.25254
歸	-7.25551
焉	-7.25833
置	-7.26237
百	-7.26695
盡	-7.2704
居	-7.27129
重	-7.27453
傳	-7.27912
三月	-7.29272
記	-7.30215
八	-7.30484
来	-7.31184
定	-7.31669
五月	-7.31824
應	-7.32253
四月	-7.32351
宴	-7.32445
間	-7.32936
八月	-7.33067
矣	-7.33764
獻	-7.33862
徳	-7.34312
萬	-7.34471
何	-7.35266
集	-7.35574
李	-7.35735
進	-7.36465
二月	-7.36553
疏	-7.37123
候	-7.37432
收	-7.37494
通	-7.37636
君	-7.38222
次	-7.38255
林	-7.38413
將	-7.38685
安	-7.38894
兩	-7.39181
還	-7.39286
御	-7.39441
望	-7.39615
盛	-7.40322
治	-7.40387
問	-7.40424
更	-7.40699
張	-7.41442
志	-7.41559
占	-7.42494
飛	-7.4263
頭	-7.42716
鳴	-7.42815
極	-7.43312
四時	-7.43411
等	-7.44028
晝	-7.44368
女	-7.44637
雪	-7.44805
每	-7.45048
河	-7.45175
歌	-7.45549
外	-7.4642
坐	-7.46722
聞	-7.469
十月	-7.4693
能	-7.47312
辰	-7.47987
七月	-7.47993
乾	-7.48166
遂	-7.48261
少	-7.48296
本	-7.49373
動	-7.4984
鳥	-7.50087
師	-7.50361
宿	-7.50542
建	-7.51261
處	-7.51731
九月	-7.52108
景	-7.52385
祀	-7.52501
舉	-7.52583
歴	-7.53198
賦	-7.53378
修	-7.53992
廟	-7.54352
縣	-7.54776
度	-7.55266
㑹	-7.55406
歳	-7.55432
閏	-7.55651
奏	-7.55765
麥	-7.56843
城	-7.57089
六月	-7.57349
似	-7.57655
▁(	-7.58077
于	-7.58192
朔	-7.58278
流	-7.5855
落	-7.58666
飲	-7.58827
堂	-7.59753
既	-7.59973
異	-7.603
甚	-7.60302
古	-7.60449
嘗	-7.60778
學	-7.60977
惟	-7.60977
祠	-7.61531
江	-7.61596
首	-7.62867
十二月	-7.62938
太	-7.62944
聖	-7.63364
散	-7.63544
餘	-7.63608
止	-7.63714
廣	-7.63837
滿	-7.6426
刻	-7.64348
請	-7.64366
竹	-7.64607
武	-7.64862
千	-7.64885
臨	-7.65428
士	-7.656
非	-7.65693
老	-7.65989
宗	-7.66382
紅	-7.66421
海	-7.66431
易	-7.67054
赤	-7.67256
幸	-7.67556
池	-7.67807
萬物	-7.67833
臺	-7.67867
終	-7.68035
霜	-7.68359
歲	-7.68374
興	-7.68416
著	-7.68437
蠶	-7.68787
深	-7.69138
登	-7.69215
象	-7.69354
奉	-7.69641
好	-7.70163
親	-7.70968
仙	-7.71135
直	-7.71207
寳	-7.71294
漢	-7.71501
陳	-7.72136
紀	-7.72266
暮	-7.72379
以為	-7.73775
思	-7.74036
燈	-7.74117
泉	-7.74355
交	-7.74505
半	-7.74827
制	-7.75105
迎	-7.75735
都	-7.75913
采	-7.75922
造	-7.76731
畢	-7.76784
早	-7.76948
一日	-7.77106
十一月	-7.77106
字	-7.77283
就	-7.7748
具	-7.77488
寺	-7.77711
氏	-7.77761
唐	-7.77856
三日	-7.77857
逺	-7.77915
向	-7.77989
原禮	-7.78254
錢	-7.78399
車	-7.78659
世	-7.79498
枝	-7.79501
母	-7.79644
司	-7.79654
曲	-7.79857
果	-7.79877
齊	-7.79911
靈	-7.7995
設	-7.8
莭	-7.80365
送	-7.80545
衆	-7.80638
會	-7.8085
客	-7.80959
五日	-7.81186
夢	-7.81767
府	-7.82112
室	-7.8224
近	-7.82404
身	-7.82485
封	-7.82491
别	-7.82605
逰	-7.82616
降	-7.83045
梁	-7.83102
猶	-7.83337
受	-7.83568
冬至	-7.83593
旦	-7.83645
耕	-7.83697
雞	-7.83845
野	-7.83909
布	-7.83914
變	-7.84165
根	-7.84218
舊	-7.84337
紫	-7.84583
求	-7.85254
𤼵	-7.85268
熱	-7.85616
政	-7.85631
加	-7.85772
對	-7.85811
露	-7.85927
左	-7.86023
足	-7.86442
照	-7.8654
語	-7.86862
細	-7.87187
意	-7.87191
市	-7.87288
我	-7.87553
乎	-7.87987
夕	-7.8828
遊	-7.88337
舞	-7.88417
米	-7.88533
牛	-7.89499
亭	-7.8952
手	-7.89559
獨	-7.89679
章	-7.89717
午	-7.89959
序	-7.90331
禁	-7.90617
圖	-7.90774
共	-7.90784
高	-7.91017
律	-7.91064
晴	-7.91071
十二	-7.91309
位	-7.92383
拜	-7.92428
佛	-7.92914
良	-7.93038
義	-7.93198
列	-7.93634
疾	-7.93635
燕	-7.93639
喜	-7.93712
嘉	-7.94184
郊	-7.94205
藏	-7.94694
澤	-7.9477
試	-7.9486
伏	-7.94929
宋	-7.9497
宣	-7.95579
稱	-7.956
化	-7.96235
精	-7.9633
善	-7.96509
甲	-7.96723
兵	-7.96903
目	-7.97074
史	-7.97504
郡	-7.97634
齋	-7.97867
鼓	-7.97916
温	-7.97944
雷	-7.98263
便	-7.98468
勝	-7.9866
連	-7.98672
空	-7.98933
耳	-7.99034
貴	-7.99143
爲	-7.99383
臘	-7.99462
微	-7.99713
遇	-7.99722
口	-7.99751
雖	-7.99999
射	-8.00086
採	-8.00116
瑞	-8.0016
致	-8.00877
期	-8.00944
除	-8.01197
眀	-8.01243
羅	-8.01517
角	-8.01632
引	-8.01661
厯	-8.02095
冰	-8.02124
里	-8.02167
羣	-8.0225
夫	-8.02252
軍	-8.0241
豆	-8.02453
路	-8.02653
形	-8.02979
桃	-8.03221
雜	-8.03344
真	-8.03489
備	-8.03575
天下	-8.03969
發	-8.04152
吏	-8.04405
農	-8.04447
隨	-8.04544
乗	-8.04796
俗	-8.04862
功	-8.04971
尚	-8.05389
表	-8.05462
畫	-8.0547
劉	-8.05477
晚	-8.05498
信	-8.05558
樓	-8.05631
論	-8.06117
視	-8.06195
藥	-8.06202
毎	-8.06322
率	-8.06473
給	-8.06686
輕	-8.0679
桑	-8.0687
斗	-8.06985
将	-8.07429
蟲	-8.07438
旱	-8.075
梅	-8.07694
日月	-8.08222
申	-8.08259
掌	-8.08464
三年	-8.08506
天子	-8.08726
卷	-8.08835
祖	-8.09211
載	-8.09228
皮	-8.0939
轉	-8.09473
教	-8.09639
改	-8.09661
養	-8.09889
召	-8.10148
増本草綱目	-8.1025
暑	-8.10438
二年	-8.10511
吉	-8.11084
皇	-8.11236
放	-8.11573
菜	-8.1163
兮	-8.11697
氷	-8.11699
隂陽	-8.11952
省	-8.12171
珠	-8.12272
力	-8.12543
苦	-8.12622
且	-8.13093
慶	-8.13559
留	-8.1367
閣	-8.13671
庭	-8.13675
所以	-8.14146
羊	-8.14347
咸	-8.14749
解	-8.14809
𩔖	-8.14815
升	-8.15165
薄	-8.15269
井	-8.15596
榖	-8.15626
味	-8.15734
端	-8.15843
燭	-8.15873
移	-8.15965
號	-8.15968
忽	-8.16389
謝	-8.16621
器	-8.1666
體	-8.16674
失	-8.16777
莖	-8.16829
結	-8.17005
録	-8.17325
二十	-8.17427
儀	-8.17554
條	-8.1763
再	-8.18197
錄	-8.18938
但	-8.1894
漏	-8.18988
屬	-8.19038
魏	-8.1946
息	-8.19606
看	-8.19702
莫	-8.19904
右	-8.201
晨	-8.20164
説	-8.2021
卿	-8.20839
絲	-8.20932
容	-8.2117
肉	-8.21292
要	-8.2163
永	-8.21685
理	-8.22099
稻	-8.22105
晝夜	-8.22282
楊	-8.22532
殺	-8.22554
積	-8.22623
御製	-8.22742
勞	-8.22763
久	-8.23034
賞	-8.23114
薦	-8.23404
告	-8.23466
末	-8.23574
随	-8.23587
社	-8.2371
順	-8.23942
守	-8.24111
陵	-8.24246
不可	-8.24338
益	-8.24341
九日	-8.24399
美	-8.24625
浮	-8.24801
丹	-8.24949
推	-8.25212
面	-8.25584
考	-8.25783
晉	-8.26294
執	-8.26569
授	-8.27016
房	-8.27557
聚	-8.27569
納	-8.27569
絶	-8.27641
影	-8.28092
並	-8.28389
毛	-8.28401
指	-8.28408
甘	-8.29022
盖	-8.29259
孝	-8.29382
蘭	-8.29755
陽氣	-8.29808
講	-8.2998
天地	-8.29985
急	-8.30075
呼	-8.30099
鄉	-8.30402
陰	-8.30406
朱	-8.30489
湯	-8.30911
符	-8.30913
元年	-8.30916
蓋	-8.30946
壇	-8.31081
曉	-8.31126
承	-8.31273
院	-8.31623
比	-8.31736
施	-8.31741
栁	-8.31751
俱	-8.31834
懐	-8.31863
僧	-8.32223
依	-8.32294
遣	-8.32546
七日	-8.32607
卜	-8.32696
名曰	-8.32987
最	-8.33157
往	-8.33392
含	-8.33406
音	-8.33429
十日	-8.33437
屋	-8.33516
利	-8.33755
許	-8.33772
之日	-8.33842
夀	-8.34216
延	-8.34245
虎	-8.34254
立春	-8.34259
羽	-8.3429
芳	-8.3454
覆	-8.3482
選	-8.34898
筆	-8.34974
黒	-8.34997
素	-8.35242
碧	-8.35281
難	-8.35348
増玉海	-8.3544
麻	-8.35983
園	-8.35983
茶	-8.36019
醉	-8.36029
冷	-8.3624
寅	-8.36517
遺	-8.37102
計	-8.37525
吾	-8.37555
駕	-8.37892
歩	-8.3793
斷	-8.37982
春秋	-8.386
漸	-8.38894
扇	-8.389
孫	-8.3913
詞	-8.39595
菊	-8.39689
任	-8.39794
之時	-8.40126
常以	-8.40599
仲	-8.40746
翠	-8.40793
夏至	-8.40939
盤	-8.41108
郎	-8.41376
運	-8.41423
歡	-8.41511
㣲	-8.41649
銅	-8.41714
嚴	-8.41726
刑	-8.42094
仁	-8.42254
豐	-8.42256
户	-8.42282
待	-8.42292
榮	-8.42641
須	-8.43008
侍	-8.4312
涼	-8.43233
戒	-8.43295
昏	-8.43362
職	-8.43391
昌	-8.43437
丁	-8.43545
驚	-8.43615
離	-8.43905
到	-8.44146
接	-8.44596
代	-8.44638
讀	-8.44887
鶴	-8.45074
𤓰	-8.45429
病	-8.45521
洞	-8.45529
皇帝	-8.45577
持	-8.45813
上元	-8.46059
悉	-8.4622
調	-8.4632
聼	-8.46495
報	-8.46536
辭	-8.46545
敬	-8.46545
飯	-8.46561
休	-8.46566
尾	-8.46629
吹	-8.46973
議	-8.47486
參	-8.47517
尊	-8.4757
福	-8.48334
兒	-8.48344
習	-8.48552
溪	-8.48575
德	-8.48634
十五日	-8.48722
故曰	-8.49307
綵	-8.4953
監	-8.49547
惡	-8.49589
潤	-8.49612
仍	-8.4962
谷	-8.49895
祥	-8.50048
可以	-8.50073
草木	-8.50202
願	-8.50307
賢	-8.50487
懸	-8.50638
苑	-8.50882
第	-8.51032
父	-8.51314
察	-8.51613
厚	-8.5166
麴	-8.5171
元日	-8.51937
性	-8.52208
一名	-8.52528
紙	-8.52674
傷	-8.52706
按	-8.5271
蔵	-8.52716
雙	-8.52725
竝	-8.52736
秦	-8.52776
鹽	-8.528
短	-8.53175
典	-8.53407
獸	-8.53556
松	-8.53775
情	-8.53802
英	-8.53816
商	-8.53822
中有	-8.54118
罷	-8.54123
覺	-8.54298
感	-8.54299
舍	-8.54369
工	-8.54505
侯	-8.54554
趙	-8.54765
緑	-8.54791
毋	-8.54798
㸃	-8.54802
邊	-8.54865
棗	-8.54867
不得	-8.54943
三十	-8.55403
蓮	-8.55616
穴	-8.55712
潮	-8.55879
茂	-8.5589
酉	-8.55917
垂	-8.55921
裏	-8.55952
帶	-8.5597
亥	-8.56255
湖	-8.56319
勿	-8.56413
卯	-8.56568
朕	-8.56682
二日	-8.56781
食之	-8.56847
笑	-8.56951
詣	-8.56957
烏	-8.56959
橋	-8.56992
配	-8.57063
昭	-8.57063
盈	-8.5708
沙	-8.57222
宮	-8.57709
不知	-8.57755
於是	-8.57899
楚	-8.5799
鏡	-8.58015
業	-8.58028
越	-8.5816
左右	-8.58176
晦	-8.58767
助	-8.58791
川	-8.58964
窮	-8.59126
崇	-8.59177
泥	-8.59192
烟	-8.59241
旗	-8.59248
賀	-8.59725
四年	-8.59865
虚	-8.60255
籍	-8.60298
校	-8.60359
死	-8.60935
旬	-8.61033
圓	-8.61499
兼	-8.6157
被	-8.61599
錦	-8.61607
蛇	-8.61636
五年	-8.61717
學士	-8.61791
飬	-8.61944
戌	-8.6201
貢	-8.62115
退	-8.62193
不能	-8.62439
洗	-8.62466
部	-8.62555
伯	-8.62661
爾	-8.62667
京	-8.62734
管	-8.62738
消	-8.62786
舟	-8.63275
幽	-8.6371
尤	-8.63796
鼔	-8.6384
逐	-8.63866
羣臣	-8.63908
凍	-8.63911
却	-8.63917
編	-8.63943
呉	-8.63969
凉	-8.64005
卦	-8.6434
忌	-8.64707
愛	-8.64799
騎	-8.64877
冠	-8.65018
廵	-8.65026
粟	-8.65078
關	-8.65082
塞	-8.65091
背	-8.65131
胡	-8.6566
十六日	-8.65676
然後	-8.65761
詔曰	-8.66037
季	-8.66183
秀	-8.66205
帛	-8.66211
簡	-8.66231
祝	-8.66235
蒸	-8.66262
才	-8.66273
均	-8.6628
繁	-8.66296
尋	-8.66297
孟	-8.6667
并	-8.6725
班	-8.67302
黑	-8.67466
卧	-8.67508
箭	-8.67531
寄	-8.67532
燒	-8.6816
百官	-8.68218
蜀	-8.68226
供	-8.68458
灰	-8.68587
禾	-8.68636
闕	-8.68689
康	-8.68689
索	-8.68759
波	-8.68767
肥	-8.68773
濕	-8.68812
原淮南子	-8.68817
六年	-8.69535
壁	-8.69767
増齊民要術	-8.69814
輿	-8.69846
静	-8.69884
特	-8.70007
題	-8.70012
席	-8.70013
旁	-8.70887
宵	-8.70894
辟	-8.71103
揚	-8.71181
蒼	-8.71184
補	-8.71257
竒	-8.71274
總	-8.71302
蜜	-8.71351
之月	-8.72044
佳	-8.72187
鬼	-8.72296
閉	-8.72432
岸	-8.72471
濟	-8.72528
全	-8.7254
側	-8.72541
念	-8.72554
宻	-8.72565
肅	-8.72727
尺	-8.72811
春分	-8.73312
獲	-8.73341
汁	-8.73686
霧	-8.73736
吳	-8.73799
折	-8.73808
顧	-8.73822
暖	-8.73858
鼎	-8.73865
丸	-8.73887
月令	-8.73918
諸侯	-8.74059
統	-8.74132
五行	-8.74564
叢	-8.74574
孔	-8.74649
龜	-8.74917
閒	-8.75015
五色	-8.75031
枯	-8.75098
增玉海	-8.75122
遲	-8.75125
富	-8.75141
鳳	-8.75172
破	-8.75188
寧	-8.75216
昔	-8.75597
浸	-8.75898
一月	-8.75994
銀	-8.76046
庚	-8.76075
衛	-8.76316
汝	-8.76352
履	-8.76377
眼	-8.76471
稍	-8.76488
殊	-8.76507
孤	-8.76518
坤	-8.76526
戲	-8.76629
像	-8.77458
詩云	-8.7776
仗	-8.77804
堅	-8.77863
輪	-8.77935
庶	-8.77986
尚書	-8.78168
婦	-8.78185
差	-8.78205
祈	-8.78685
句	-8.7911
洛	-8.79133
従	-8.79134
約	-8.79136
植	-8.79149
甲子	-8.79163
瓜	-8.79219
釋	-8.79229
之所	-8.79501
辛	-8.79862
丑	-8.7992
苗	-8.79976
穀	-8.80264
宅	-8.805
適	-8.80521
震	-8.80554
衡	-8.80583
豈	-8.80601
假	-8.80642
煮	-8.80647
桂	-8.81508
夫人	-8.81699
製	-8.81835
西南	-8.81855
伐	-8.81983
吐	-8.81988
枕	-8.82002
殘	-8.82008
六日	-8.8202
綠	-8.82069
一人	-8.82531
之氣	-8.82632
恐	-8.82963
享	-8.83166
麗	-8.83334
鄭	-8.83394
油	-8.83407
刀	-8.83412
恩	-8.83425
仰	-8.83436
閑	-8.83502
粥	-8.83624
而不	-8.8435
后	-8.84488
誰	-8.84553
荷	-8.84749
徐	-8.84795
害	-8.84882
拂	-8.84894
他	-8.84917
停	-8.84939
盆	-8.85904
大如	-8.85915
炎	-8.86034
有司	-8.86186
八日	-8.86198
戸	-8.86261
續	-8.86306
蕭	-8.86324
洲	-8.86334
回	-8.86358
鎮	-8.86363
饗	-8.86368
芽	-8.86368
唯	-8.86391
圍	-8.86395
繞	-8.86424
十五	-8.86558
冬月	-8.86709
四日	-8.87164
館	-8.87577
蘇	-8.87752
筍	-8.87767
織	-8.87868
十八日	-8.87891
韓	-8.87896
驗	-8.88105
之中	-8.88931
暴	-8.8905
頒	-8.89061
者也	-8.89188
膏	-8.89278
魯	-8.89362
餅	-8.89377
虞	-8.89383
固	-8.89405
原夏小正	-8.89492
収	-8.89502
一嵗	-8.89704
務	-8.89749
十三日	-8.89756
東方	-8.89872
勸	-8.9001
風雨	-8.90296
故事	-8.90327
者為	-8.90405
三十日	-8.90514
七年	-8.90651
繼	-8.90723
崔	-8.90823
圗	-8.90824
鐘	-8.90836
營	-8.90858
罪	-8.90869
逹	-8.90887
徧	-8.9095
謹	-8.91022
立秋	-8.91142
天道	-8.91148
不見	-8.9131
南方	-8.91517
十一日	-8.91577
識	-8.91841
是日	-8.92009
甕	-8.9203
乘	-8.92306
品	-8.92325
量	-8.92424
船	-8.9244
戰	-8.92456
斜	-8.9246
栽	-8.92481
葢	-8.92493
徴	-8.92529
湏	-8.92549
之後	-8.92966
充	-8.9322
曰此	-8.93276
蘇軾	-8.93697
乞	-8.93711
徃	-8.93759
苖	-8.93957
預	-8.94007
墨	-8.94044
柔	-8.94073
虹	-8.9408
忠	-8.94111
太宗	-8.94527
十四日	-8.94562
丈	-8.94852
雀	-8.95412
避	-8.95428
一年	-8.95484
壽	-8.95558
觧	-8.9558
賣	-8.95614
存	-8.95633
減	-8.95662
亂	-8.95676
反	-8.95687
凝	-8.95701
密	-8.95704
炊	-8.95711
京師	-8.96053
原詩	-8.96073
之以	-8.96183
清明	-8.9634
吕	-8.96346
出入	-8.96403
黍	-8.96463
寒食	-8.97146
十二日	-8.97213
擇	-8.97221
戴	-8.97221
予	-8.97234
斯	-8.97239
隠	-8.97345
淡	-8.97351
太守	-8.97368
狀	-8.97642
明堂	-8.97763
術	-8.97826
北方	-8.97874
之間	-8.9793
西北	-8.98191
科	-8.9848
由	-8.98514
四方	-8.98523
每月	-8.98611
遍	-8.98627
珍	-8.98835
逢	-8.9887
吟	-8.98872
振	-8.98878
鳯	-8.98934
秋分	-8.99
荒	-8.99035
橘	-8.99099
十四	-8.99117
立夏	-8.99691
閏月	-8.99877
西方	-9.00363
白居易	-9.00421
牡丹	-9.00476
舒	-9.00553
煎	-9.00559
佐	-9.00578
琴	-9.00585
霞	-9.00602
争	-9.00653
爛	-9.00686
唱	-9.00687
蒲	-9.0071
牀	-9.00733
骨	-9.00755
韻	-9.00786
進士	-9.00954
從之	-9.01187
太白	-9.01272
翼	-9.01286
十三	-9.01318
澄	-9.02091
兹	-9.02128
貧	-9.0217
姑	-9.02197
眠	-9.02319
旋	-9.0233
損	-9.02346
春夏	-9.02363
桐	-9.02367
□	-9.02381
輙	-9.02401
蟬	-9.02431
東北	-9.02491
芝	-9.02532
邑	-9.03674
賔	-9.03743
戊	-9.03917
爵	-9.03932
横	-9.04039
倉	-9.04087
勤	-9.041
辨	-9.04108
糞	-9.0411
卒	-9.04118
綿	-9.04137
保	-9.0414
憂	-9.04145
穿	-9.04199
曹	-9.04211
艾	-9.04215
彌	-9.04222
如此	-9.04547
為之	-9.04889
鹿	-9.05743
柳	-9.0576
葵	-9.05772
聽	-9.05774
杜	-9.0579
鳩	-9.0583
干	-9.05833
翔	-9.05839
刺	-9.05839
杯	-9.05856
博	-9.05911
遷	-9.05925
遥	-9.05929
資	-9.05937
愈	-9.05993
壺	-9.06007
案	-9.0608
六十	-9.07034
陸	-9.07115
弦	-9.07261
十九日	-9.07283
腹	-9.07388
夷	-9.07432
訖	-9.07475
日中	-9.07494
塵	-9.07528
飾	-9.07542
盧	-9.07637
災	-9.0768
寝	-9.07707
隔	-9.0771
投	-9.0773
蟄	-9.07744
暗	-9.07746
杖	-9.07749
帯	-9.0775
塗	-9.07757
曝	-9.07805
上有	-9.07908
牲	-9.08259
以下	-9.08367
葉似	-9.08655
東南	-9.09234
泰	-9.09267
界	-9.09447
擊	-9.09472
格	-9.09512
打	-9.09519
畜	-9.09523
負	-9.09545
頂	-9.0955
傾	-9.09557
赴	-9.09557
役	-9.09564
簾	-9.09573
街	-9.09583
獄	-9.09591
裘	-9.09628
籠	-9.09644
邪	-9.09644
巧	-9.09657
恒	-9.09664
鷹	-9.09692
二十九日	-9.0979
日出	-9.09831
壬	-9.10075
二十日	-9.10325
七月七日	-9.10596
至於	-9.10975
頃	-9.1105
有一	-9.11166
誦	-9.11369
滅	-9.11375
郭	-9.11386
譜	-9.11404
染	-9.11414
程	-9.11444
疎	-9.11484
環	-9.11485
牢	-9.11507
劍	-9.11509
剛	-9.11556
十七日	-9.117
牧	-9.11786
生於	-9.11887
千里	-9.11947
季夏	-9.12106
用事	-9.12142
長安	-9.12424
禽	-9.1285
賦詩	-9.12892
映	-9.13015
維	-9.13018
寛	-9.13317
偶	-9.13357
疑	-9.13361
凌	-9.13379
團	-9.13397
敕	-9.13406
材	-9.13418
沈	-9.1345
宰相	-9.13552
太平	-9.13774
立冬	-9.13876
明日	-9.14221
以上	-9.14277
秋冬	-9.14623
走	-9.14743
丙	-9.14869
十六	-9.15177
印	-9.15201
隐	-9.15279
顔	-9.15296
獵	-9.15297
鮮	-9.15301
渠	-9.15348
卵	-9.15355
殷	-9.15359
夘	-9.15366
頌	-9.15372
徹	-9.15379
四時之	-9.15382
輦	-9.15425
煖	-9.15443
叔	-9.15444
繫	-9.15456
二十四日	-9.15507
開花	-9.15661
大小	-9.15798
者以	-9.15891
二十三日	-9.15966
状	-9.15975
三百	-9.1605
帳	-9.16246
二百	-9.16992
童	-9.17085
雅	-9.17172
雄	-9.17233
質	-9.17256
權	-9.17272
機	-9.17292
萌	-9.17323
催	-9.17326
愁	-9.17343
抱	-9.17344
晩	-9.17346
族	-9.1735
顯	-9.1735
否	-9.17373
領	-9.17377
畧	-9.17383
倍	-9.17406
啓	-9.17408
粉	-9.17439
用之	-9.17484
雍	-9.17535
竿	-9.17538
讀書	-9.17728
十年	-9.17748
示	-9.17885
隂乾	-9.18177
江南	-9.18193
貯	-9.18246
九年	-9.18327
先生	-9.18557
原書	-9.18577
武帝	-9.18938
銘	-9.18994
而後	-9.1921
只	-9.19294
訪	-9.19312
陶	-9.19325
津	-9.19352
巖	-9.1936
妻	-9.1937
披	-9.19385
佩	-9.19396
齒	-9.19416
彼	-9.19422
淺	-9.19427
宰臣	-9.19441
妙	-9.19454
廢	-9.19458
所謂	-9.19513
二十八日	-9.19868
鴈	-9.19999
太常	-9.20285
仲春	-9.20327
重陽	-9.20384
隂氣	-9.20393
為一	-9.20456
諺云	-9.20667
鍾	-9.20988
底	-9.21043
民用	-9.21113
嶺	-9.21295
開元	-9.21356
階	-9.21399
巢	-9.21468
峯	-9.21484
哉	-9.21484
増唐㑹要	-9.21506
丘	-9.2156
浴	-9.21572
浄	-9.21577
坎	-9.21578
談	-9.21592
核	-9.21635
真人	-9.21774
限	-9.21905
大寒	-9.21974
黄帝	-9.22145
門外	-9.22255
夜半	-9.22457
冬夏	-9.22581
忘	-9.23255
閲	-9.23302
岳	-9.23441
乆	-9.23507
覽	-9.23516
撰	-9.23529
棲	-9.23536
乳	-9.23539
雁	-9.23558
坊	-9.23562
曽	-9.2357
競	-9.2358
征	-9.23584
牙	-9.23597
睡	-9.23599
韋	-9.236
憶	-9.23612
綴	-9.23614
暉	-9.23631
勅	-9.23642
招	-9.23667
啟	-9.23672
貫	-9.23681
淵	-9.23698
算	-9.23743
衰	-9.2379
上下	-9.23983
前後	-9.24026
䟽	-9.24079
二十五日	-9.24272
本草	-9.24322
物候	-9.24403
五十	-9.2458
之事	-9.24856
十餘	-9.25151
産	-9.25462
杏	-9.25574
絃	-9.25728
椒	-9.25734
課	-9.25793
惠	-9.25795
規	-9.25796
沉	-9.25802
春風	-9.25805
革	-9.25812
妃	-9.25821
吴	-9.25826
之法	-9.2583
巨	-9.25836
切	-9.25858
縷	-9.25867
爐	-9.25869
買	-9.25873
幹	-9.25895
漿	-9.25896
白露	-9.26326
夏月	-9.26454
視之	-9.26968
篇	-9.26968
丞	-9.27532
融	-9.27533
源	-9.27537
蔓	-9.27677
姓	-9.27712
式	-9.27794
一時	-9.27806
晋	-9.27861
尹	-9.27931
員	-9.27961
㫖	-9.27971
遠	-9.2799
訓	-9.27997
徑	-9.27999
栗	-9.28005
雉	-9.28013
徵	-9.28014
鑄	-9.28017
烈	-9.28021
慈	-9.28049
两	-9.2805
羙	-9.28059
毒	-9.28066
余	-9.28074
幾	-9.28078
晷	-9.28084
隅	-9.28096
弱	-9.28111
十一	-9.28171
占驗	-9.28176
不敢	-9.28509
八十	-9.28641
每嵗	-9.28703
四月八日	-9.2872
太陽	-9.28803
八年	-9.29205
三月三日	-9.29394
也故	-9.29473
赦	-9.29837
私	-9.29947
堪	-9.29967
東西	-9.29994
附	-9.3005
䑕	-9.30135
陣	-9.30176
渡	-9.30197
枚	-9.30198
碑	-9.30202
僕	-9.3021
飄	-9.3023
騰	-9.30237
竟	-9.30295
恭	-9.30311
躬	-9.30313
瓊	-9.30315
舜	-9.30319
翻	-9.30321
繡	-9.30324
荆	-9.3034
暢	-9.30366
政典	-9.304
雜紀	-9.30458
二十七日	-9.30652
寒暑	-9.30782
其中	-9.30788
南郊	-9.30939
天氣	-9.31339
雨水	-9.31578
以其	-9.31629
槐	-9.31807
人家	-9.3183
而出	-9.31876
謁	-9.31904
五榖	-9.32022
之曰	-9.32078
宰	-9.32193
杜甫	-9.32323
淮	-9.32428
掘	-9.32494
蠟	-9.32506
說	-9.32547
賈	-9.32575
偏	-9.32586
練	-9.32605
逸	-9.32606
脚	-9.32617
夜則	-9.32618
頓	-9.32635
脂	-9.32639
剪	-9.3264
銜	-9.32641
葦	-9.32656
水中	-9.32658
醫	-9.32673
威	-9.32676
揺	-9.32683
軒	-9.32688
竭	-9.32715
據	-9.32739
原選擇歴書	-9.3279
荔枝	-9.32826
帝紀	-9.33364
朔日	-9.33475
大夫	-9.33585
皆有	-9.33679
斤	-9.3405
遣使	-9.34113
畏	-9.34481
各有	-9.34612
禱	-9.34858
免	-9.34865
雩	-9.34878
單	-9.34879
掃	-9.34928
渚	-9.34961
斂	-9.34974
霽	-9.35002
囊	-9.35008
燥	-9.35008
箋	-9.35016
戎	-9.35024
克	-9.35048
䕶	-9.35062
值	-9.35111
七夕	-9.35117
集説	-9.3526
司馬	-9.35266
乙	-9.35289
癸	-9.35291
故以	-9.35365
霜降	-9.35388
道士	-9.35659
防	-9.35856
貞	-9.35931
於此	-9.35952
四十	-9.36267
而生	-9.3653
束	-9.37097
詳	-9.37156
薑	-9.37157
育	-9.37179
令人	-9.37212
馳	-9.37298
寢	-9.37333
筵	-9.37347
范	-9.37347
匹	-9.37372
彩	-9.37394
座	-9.37399
詠	-9.37419
揷	-9.37421
今年	-9.37425
幕	-9.37426
提	-9.37444
驅	-9.37445
傅	-9.37454
亡	-9.37459
藝	-9.37467
扶	-9.37484
築	-9.37538
一石	-9.37594
盛夏	-9.37654
二十二日	-9.37947
二十一日	-9.38058
數十	-9.38251
二年正月	-9.38361
隆	-9.38798
之屬	-9.38839
徒	-9.39076
御史	-9.39537
潔	-9.39552
晏	-9.39624
片	-9.39628
決	-9.39693
績	-9.39767
液	-9.39797
鸞	-9.39815
増名勝志	-9.3984
傍	-9.39844
翁	-9.39853
麟	-9.39854
友	-9.39854
膳	-9.39869
薪	-9.39884
層	-9.39896
韭	-9.3991
村	-9.39916
耀	-9.39925
頻	-9.39968
勒	-9.39973
犬	-9.39988
百姓	-9.40052
儒	-9.40072
髙祖	-9.40209
可食	-9.40209
丞相	-9.40336
曰吾	-9.4035
結實	-9.4046
之則	-9.40549
化為	-9.40614
所在	-9.40617
仲秋	-9.40712
是也	-9.40888
飲酒	-9.40941
小兒	-9.41044
五更	-9.41422
誕	-9.41856
寸	-9.4211
増淮南子	-9.42304
純	-9.42385
諸州	-9.42404
䝉	-9.4245
饑	-9.42461
絳	-9.42472
曙	-9.42479
㡬	-9.4248
芋	-9.42482
輝	-9.42484
蕃	-9.4249
增齊民要術	-9.4249
帥	-9.42501
原禮是月也	-9.42532
増農政全書	-9.42533
鋤	-9.42538
緩	-9.42546
熙	-9.42547
弓	-9.42559
穫	-9.42567
増雲笈七籖	-9.42572
倒	-9.42627
研	-9.42639
柱	-9.42702
太學	-9.43095
明年	-9.43244
孟春	-9.43364
元和	-9.43429
上旬	-9.43564
之數	-9.43617
中秋	-9.4368
季冬	-9.43786
際	-9.43885
禁中	-9.44136
梅花	-9.44341
敢	-9.44629
堯	-9.45042
塘	-9.45042
導	-9.4505
竊	-9.45055
寫	-9.45077
蕩	-9.45077
粒	-9.45079
阿	-9.45096
也言	-9.45116
掩	-9.45118
旅	-9.45122
誠	-9.45146
曜	-9.45169
腰	-9.45177
速	-9.45183
寶	-9.45184
勢	-9.45204
逆	-9.45206
虛	-9.45236
不及	-9.4524
壯	-9.45272
煑	-9.45273
曾	-9.45282
而已	-9.45617
服之	-9.45718
神仙	-9.45877
二十六日	-9.45943
宫中	-9.46274
對曰	-9.46344
仙人	-9.4669
柏	-9.47679
判	-9.47705
禹	-9.47776
巴	-9.47776
達	-9.47786
住	-9.47799
犯	-9.47806
墜	-9.47831
血	-9.47832
違	-9.47847
患	-9.47875
例	-9.4788
追	-9.47893
鐵	-9.47903
牽牛	-9.47918
艮	-9.47946
鑿	-9.47949
𤣥	-9.47972
太祖	-9.48014
夏日	-9.48112
雞鳴	-9.48128
梨	-9.48305
有餘	-9.4834
種之	-9.48626
中書	-9.48688
十八	-9.48755
魄	-9.48952
日在	-9.49053
朔望	-9.49152
頗	-9.49198
中氣	-9.49233
日行	-9.49408
公卿	-9.49492
臘月	-9.49792
取其	-9.49884
其上	-9.50007
賤	-9.50067
輔	-9.50225
亦有	-9.5027
嶽	-9.50471
塔	-9.50478
滋	-9.50494
酌	-9.50495
宇	-9.50514
囚	-9.50546
渾	-9.5056
端午	-9.5056
欣	-9.50563
玩	-9.50568
𢎞	-9.50574
允	-9.50587
爰	-9.50588
贊	-9.50641
潛	-9.50656
鵲	-9.50665
滴	-9.50682
怪	-9.5069
䧏	-9.50695
肝	-9.50736
强	-9.50737
脯	-9.50738
其時	-9.50828
二十四	-9.50854
是月	-9.51059
増詩	-9.52104
兆	-9.52265
者謂	-9.523
穆	-9.52653
季春	-9.52704
羞	-9.52726
低	-9.52728
一百	-9.52842
是以	-9.52876
山有	-9.52974
探	-9.53202
髪	-9.53252
蔡	-9.53262
爽	-9.53361
䇿	-9.5337
時有	-9.53388
踏	-9.53397
磨	-9.53403
捧	-9.53432
蘂	-9.53453
擁	-9.53455
藍	-9.53459
整	-9.53462
巫	-9.53474
署	-9.53475
驚蟄	-9.53476
碎	-9.5349
境	-9.53494
瓶	-9.53496
綺	-9.53497
豫	-9.53509
付	-9.53514
哀	-9.53521
衝	-9.53538
悲	-9.53562
屈	-9.53606
躍	-9.53613
朝夕	-9.53909
天之	-9.54197
朱子	-9.54203
文武	-9.54212
畝	-9.5436
故謂之	-9.54412
郡國	-9.54544
巳	-9.54683
婦人	-9.54985
其日	-9.55049
三公	-9.55202
十二時	-9.5543
不復	-9.55537
沒	-9.55761
累	-9.55825
一斗	-9.55865
之辰	-9.55993
時也	-9.56032
茅	-9.56056
不足	-9.56128
循	-9.56142
南北	-9.56168
聖人	-9.56174
灌	-9.56193
簿	-9.56248
塲	-9.56269
鞭	-9.56288
觸	-9.56304
君子	-9.56315
灑	-9.56321
效	-9.56327
添	-9.56357
契	-9.56374
洪	-9.56382
焦	-9.56387
繩	-9.56387
澗	-9.56391
㸔	-9.564
架	-9.56406
一曰	-9.56406
委	-9.56407
㨗	-9.56408
煙	-9.56418
芒	-9.56422
包	-9.56422
困	-9.56429
鼠	-9.56444
廻	-9.56445
暫	-9.56482
貨	-9.56484
鬱	-9.5654
車駕	-9.56644
宗廟	-9.56664
取之	-9.5682
九月九日	-9.56934
季秋	-9.57223
後五日	-9.57237
之𩔖	-9.57344
之義	-9.57438
斛	-9.57468
之言	-9.57587
之初	-9.57662
之地	-9.57688
刺史	-9.57714
王者	-9.57919
此日	-9.58282
黄色	-9.58353
明皇	-9.58768
自然	-9.58986
故也	-9.59071
竈	-9.59128
㓜	-9.5921
游	-9.59255
觴	-9.59299
栢	-9.59311
協	-9.59333
絹	-9.5936
寕	-9.5939
大雪	-9.59418
厥	-9.59441
愆	-9.59446
蓬	-9.59447
禄	-9.59452
旌	-9.59458
響	-9.59463
漬	-9.59465
撫	-9.59465
抽	-9.59467
奴	-9.59468
滑	-9.59474
厲	-9.59483
藻	-9.59486
夾	-9.59491
博士	-9.59492
展	-9.59494
避暑	-9.59514
借	-9.59549
増宋史	-9.59579
貞觀	-9.59587
鶯	-9.59591
趣	-9.59618
壬子	-9.59806
後苑	-9.59881
桃花	-9.60062
人神	-9.60144
漏刻	-9.60416
起居	-9.60504
三時	-9.60638
山中	-9.60659
北斗	-9.60724
五月五日	-9.61053
賜宴	-9.61079
而去	-9.61099
之餘	-9.61135
隋	-9.61174
是謂	-9.61515
是為	-9.61535
立春日	-9.61553
笛	-9.61668
也注	-9.61949
數百	-9.62147
潭	-9.62342
中央	-9.62358
増南史	-9.62391
斫	-9.62393
柴	-9.62424
想	-9.62434
支	-9.62462
曬	-9.62467
警	-9.6247
板	-9.62492
輒	-9.625
囘	-9.62501
䨇	-9.62509
慮	-9.62521
瞻	-9.62529
猛	-9.62529
庫	-9.62532
瑩	-9.62553
汲	-9.62555
炭	-9.62556
優	-9.6257
財	-9.6257
闌	-9.62584
揮	-9.62585
岐	-9.62589
霄	-9.62608
檢	-9.62618
濃	-9.62627
場	-9.62629
啼	-9.62641
増宋史禮志	-9.62649
泛	-9.62678
再拜	-9.62678
葉如	-9.62713
輸	-9.62742
増唐書	-9.6282
至春	-9.62828
正旦	-9.63186
之禮	-9.63227
孔子	-9.63676
也者	-9.63826
飲食	-9.63939
此時	-9.63968
晦日	-9.63982
今日	-9.64139
増唐會要	-9.64391
者皆	-9.64409
埋	-9.64514
無所	-9.6492
山川	-9.65155
男	-9.65339
西域	-9.65373
自是	-9.65447
土人	-9.65508
藉	-9.65571
普	-9.65615
釀	-9.65685
毬	-9.65686
農事	-9.65696
雌	-9.657
裴	-9.65738
屢	-9.65758
爪	-9.65759
呈	-9.65761
弄	-9.65766
縁	-9.6577
矢	-9.65773
諭	-9.65777
増管子	-9.65778
甲寅	-9.6578
嫩	-9.65788
太平興國	-9.65789
脱	-9.65793
圃	-9.65795
圭	-9.65797
亮	-9.65807
蠻	-9.6581
夲	-9.65824
雕	-9.65834
饒	-9.65839
惜	-9.65845
酸	-9.65848
寔	-9.65852
膽	-9.65873
増酉陽雜俎	-9.65892
撃	-9.65896
裹	-9.65904
肺	-9.65921
司空	-9.65944
芒種	-9.66042
呼為	-9.66306
禮畢	-9.6634
遊方	-9.66588
菊花	-9.66704
白色	-9.67061
火候	-9.67179
四海	-9.67288
原爾雅	-9.67304
司天	-9.67421
焚	-9.67486
上曰	-9.6758
属	-9.67853
答	-9.67882
宜春	-9.67896
周禮	-9.67998
測	-9.6813
迎春	-9.68328
羮	-9.68417
不同	-9.68423
弟	-9.68514
何以	-9.68573
厭	-9.68592
七十	-9.68593
漁	-9.68615
祗	-9.68884
杜甫詩	-9.68891
邦	-9.68966
燃	-9.68972
隴	-9.68982
蟹	-9.68989
莊	-9.6901
増水經注	-9.69027
儉	-9.69034
縱	-9.69039
陂	-9.6905
煩	-9.69068
故云	-9.69068
甫	-9.69077
天地之	-9.69082
尉	-9.69083
暇	-9.69087
激	-9.69093
璧	-9.69093
零	-9.69103
朶	-9.69106
溝	-9.69124
范成大	-9.69136
蔬	-9.69139
闔	-9.69144
秩	-9.69145
壓	-9.69162
舎	-9.69169
錫	-9.6918
罰	-9.69205
濶	-9.69227
裂	-9.69257
后土	-9.69293
敗	-9.69305
織女	-9.69383
物也	-9.69469
五穀	-9.69671
人間	-9.69734
大雨	-9.69846
狀如	-9.6985
人日	-9.69974
鴻	-9.70098
河東	-9.70139
三伏	-9.70235
上言	-9.70361
之始	-9.70717
沃	-9.70802
第一	-9.70892
仲夏	-9.71182
子孫	-9.71232
其實	-9.71242
增禮	-9.71414
清風	-9.71553
之道	-9.71669
仲冬	-9.71709
衣服	-9.72028
蒿	-9.72132
歎	-9.72262
之上	-9.72334
兔	-9.72379
迹	-9.72397
祐	-9.72397
靜	-9.72406
大者	-9.72463
星辰	-9.72476
超	-9.72484
局	-9.72497
趨	-9.72518
活	-9.72518
慎	-9.72533
尖	-9.72538
黃	-9.72546
脩	-9.7256
基	-9.72561
汗	-9.72565
帷	-9.72572
把	-9.72578
怨	-9.7258
網	-9.72585
纂	-9.72602
擬	-9.72606
刈	-9.72616
箔	-9.72621
黎	-9.72633
巾	-9.72635
鐡	-9.72651
線	-9.72655
黄鍾	-9.72727
妓	-9.72791
各一	-9.7285
士女	-9.73087
豐年	-9.73121
主人	-9.73251
己	-9.73327
庚子	-9.73348
洛陽	-9.73603
一尺	-9.73657
年七月	-9.73905
不出	-9.73964
以後	-9.74146
為人	-9.74273
氣也	-9.74582
出於	-9.74823
而成	-9.74879
澆	-9.7489
之神	-9.74946
増禮	-9.75089
四分	-9.75266
朝日	-9.75329
榖雨	-9.75784
蚊	-9.75853
増漢書	-9.75887
戍	-9.75956
膠	-9.76019
蜂	-9.76022
纔	-9.76036
葱	-9.76037
札	-9.76049
葛	-9.76087
肆	-9.76088
裁	-9.76092
醴	-9.76097
芸	-9.76098
銷	-9.76104
簇	-9.76106
嗣	-9.76113
原後漢書	-9.76113
笋	-9.76116
介	-9.76131
盞	-9.76135
敎	-9.76138
繋	-9.76148
原參同契朝	-9.76161
醒	-9.76167
邉	-9.76173
尼	-9.76179
淨	-9.76179
胎	-9.762
額	-9.76204
蝶	-9.76216
了	-9.76226
菖蒲	-9.76227
故名	-9.76236
原唐書	-9.76243
殻	-9.76259
箕	-9.76263
又曰	-9.76482
以象	-9.76511
莫不	-9.76521
使者	-9.76558
三尺	-9.76578
平旦	-9.76635
杏花	-9.76646
長短	-9.76803
皆以	-9.76815
冬日	-9.76828
於天	-9.76841
人皆	-9.76859
皇后	-9.76866
節序	-9.769
初五日	-9.77094
甕中	-9.77382
日為	-9.7765
光明	-9.77654
置酒	-9.77691
風吹	-9.77723
其所	-9.77831
十九	-9.77904
孟冬	-9.7814
州刺史	-9.78146
詩序	-9.7823
小雪	-9.78548
以示	-9.78556
太隂	-9.78597
東風	-9.78957
長生	-9.79008
以此	-9.79025
萬年	-9.79389
抵	-9.79415
勃	-9.79461
公曰	-9.79542
憲	-9.7961
紛	-9.79626
都人	-9.79688
増北史	-9.79695
鱗	-9.79697
裳	-9.79698
耶	-9.79709
寡	-9.79712
租	-9.79713
倦	-9.79731
幣	-9.79781
瓦	-9.79785
救	-9.79807
屯	-9.79807
弗	-9.79819
四季	-9.79825
步	-9.79825
稀	-9.79827
樞	-9.79827
徙	-9.7983
喧	-9.79833
伴	-9.79839
轡	-9.7985
圎	-9.79855
增本草綱目	-9.79856
憐	-9.79862
軟	-9.79873
蔽	-9.79874
豪	-9.79875
甘露	-9.79876
鞠	-9.79876
函	-9.79877
冊	-9.79883
䖏	-9.7989
麫	-9.79893
鈴	-9.79899
瓠	-9.79901
怒	-9.79915
浩	-9.79917
羔	-9.79924
專	-9.79931
駐	-9.79937
穗	-9.79939
犀	-9.79943
筒	-9.79989
何也	-9.79995
有三	-9.80004
檀	-9.80011
旺	-9.80025
熊	-9.80054
戊子	-9.8034
漢書	-9.80461
十七	-9.80482
童子	-9.80511
祭祀	-9.80887
中旬	-9.81087
見之	-9.81142
田家	-9.81158
夜漏	-9.81435
以正月	-9.81482
禳	-9.81534
中國	-9.8164
隂陽之	-9.81643
每至	-9.81655
女子	-9.82397
二人	-9.82465
五經	-9.8256
某	-9.82596
五帝	-9.82657
五星	-9.82756
大暑	-9.82791
至秋	-9.82801
彭	-9.82859
襄	-9.82976
日入	-9.83018
午時	-9.83329
増拾遺記	-9.83354
初置	-9.83396
太廟	-9.83399
禪	-9.83489
滯	-9.83527
沸	-9.83557
鈞	-9.83558
榆	-9.83581
蕪	-9.83589
僚	-9.83593
諫	-9.836
其子	-9.83604
昬	-9.83605
簷	-9.83607
奪	-9.83615
渉	-9.83615
捕	-9.83623
稼	-9.83624
数	-9.83631
幡	-9.83632
磬	-9.83636
豹	-9.83644
秘	-9.83644
鈎	-9.83649
彈	-9.83652
秘閣	-9.83654
馮	-9.83657
排	-9.83658
歇	-9.83665
竅	-9.83673
嘯	-9.83678
漲	-9.83678
痛	-9.8369
嵗時	-9.83708
孕	-9.83709
糧	-9.83711
狗	-9.8372
奔	-9.83725
併	-9.83728
装	-9.8373
乍	-9.8373
絮	-9.83731
翅	-9.83735
笙	-9.83741
耗	-9.83745
遽	-9.83759
蓄	-9.83759
摩	-9.83762
瓣	-9.83765
健	-9.8377
賊	-9.83773
東坡	-9.83773
倚	-9.83777
巽	-9.83779
参	-9.83788
藤	-9.83792
敦	-9.83797
増陶朱公書	-9.83797
跡	-9.83807
繭	-9.83812
舌	-9.83813
父母	-9.83829
飲之	-9.83839
嘉禾	-9.83843
趙孟頫	-9.83858
番	-9.83879
増晉書	-9.83905
稲	-9.83905
近臣	-9.83931
至此	-9.84084
將軍	-9.8422
曲江	-9.84243
子曰	-9.8428
登髙	-9.84446
子時	-9.84711
成都	-9.84781
以待	-9.84835
也疏	-9.84904
大火	-9.85069
不成	-9.85136
必有	-9.85259
枝葉	-9.85319
順時	-9.85937
天寳	-9.85942
數日	-9.85988
上已	-9.86265
祭之	-9.86324
一夕	-9.86416
蓮花	-9.86432
小寒	-9.86996
有四	-9.87104
悦	-9.87309
叩	-9.87375
帖	-9.87387
日夜	-9.8744
狩	-9.87443
踰	-9.87552
三四	-9.87555
中元	-9.87563
袁	-9.87581
飽	-9.87602
樽	-9.87603
芥	-9.87607
侵	-9.87612
家人	-9.87614
薛	-9.87616
鞍	-9.8762
沐浴	-9.87621
泣	-9.87622
芟	-9.87622
俟	-9.87628
以備	-9.87635
淘	-9.87642
剝	-9.87644
驛	-9.87648
贈	-9.87656
垣	-9.87662
韶	-9.87666
淫	-9.87667
恵	-9.87668
舂	-9.87668
原荆楚嵗時記	-9.87674
敷	-9.87682
减	-9.87697
太和	-9.87704
饋	-9.87714
鬚	-9.87723
𨽻	-9.87728
標	-9.87732
婆	-9.87745
審	-9.87752
料	-9.87761
鼻	-9.87763
炙	-9.87782
爭	-9.87783
邀	-9.8779
竇	-9.87794
糕	-9.87802
畱	-9.87825
顆	-9.87924
夜夢	-9.87932
鍼	-9.87935
鳥獸	-9.87969
子弟	-9.87981
状如	-9.88057
然則	-9.88136
候選	-9.88139
車馬	-9.8828
五六月	-9.88324
黄花	-9.8836
初八日	-9.88433
十一年	-9.88536
無不	-9.88713
元旦	-9.88913
冬至後	-9.89047
上帝	-9.8909
萬嵗	-9.89123
南風	-9.89148
風俗	-9.89229
増通典	-9.89307
勿令	-9.89326
十二辰	-9.8933
一嵗之	-9.89462
月朔	-9.89765
上夀	-9.89977
風至	-9.90018
古者	-9.90059
觀之	-9.90236
先是	-9.90595
使人	-9.9061
百餘	-9.90834
二分	-9.90897
以十月	-9.90956
呂	-9.90967
是時	-9.91063
桑葉	-9.91253
酢	-9.91258
輅	-9.91349
原漢書	-9.91493
禮部	-9.91549
之精	-9.91593
紹	-9.91668
爾雅	-9.91685
濯	-9.91695
賜之	-9.91711
濤	-9.9173
浦	-9.91733
塊	-9.9174
卑	-9.91745
蘆	-9.91748
一莖	-9.91749
胥	-9.91769
簫	-9.91775
菩薩	-9.91784
屏	-9.91786
糖	-9.91786
伊	-9.91803
濁	-9.9181
勉	-9.91811
岡	-9.91815
療	-9.91817
徽	-9.91826
㳺	-9.91826
攝	-9.91829
鋪	-9.91832
原管子	-9.91838
烝	-9.91847
創	-9.91865
那	-9.91878
斑	-9.91878
嘆	-9.9188
嗟	-9.91883
紗	-9.91886
墓	-9.91888
操	-9.91892
割	-9.91893
儲	-9.91894
疫	-9.91898
邱	-9.91903
鬭	-9.91904
漫	-9.9191
増續文獻通考	-9.91911
蠧	-9.91913
増後漢書	-9.9192
斧	-9.91927
餞	-9.91936
副	-9.91937
蒙	-9.9194
陌	-9.91951
朗	-9.91955
丁亥	-9.91969
餌	-9.91983
略	-9.91983
插	-9.91998
狐	-9.92012
増左𫝊	-9.92014
浪	-9.92018
陛下	-9.92021
無事	-9.92024
婦女	-9.92029
袍	-9.92032
二月二日	-9.9204
快	-9.92069
煥	-9.92072
原遵生八牋	-9.92083
増易通卦驗	-9.92112
其葉	-9.92138
侍中	-9.92146
逺近	-9.92171
音比	-9.9221
郊祀	-9.92247
中星	-9.9229
自今	-9.92318
成熟	-9.92368
則為	-9.92461
元豐	-9.9253
知縣	-9.92803
生者	-9.92824
大水	-9.93074
結子	-9.93404
之下	-9.93438
一刻	-9.9344
之不	-9.93712
御書	-9.9378
水浸	-9.93794
無人	-9.93834
有大	-9.93929
東郊	-9.9408
昨	-9.94243
因以	-9.94417
二尺	-9.94561
冬則	-9.94868
以成	-9.94882
十有二	-9.94933
侍郎	-9.95037
人有	-9.95452
稔	-9.95494
鏤	-9.95699
桓	-9.95733
浣	-9.95769
小者	-9.95773
習射	-9.95971
稷	-9.96044
秉	-9.96068
彦	-9.96107
牕	-9.96123
宛	-9.96131
太蔟	-9.96139
巷	-9.96143
希	-9.9615
䕃	-9.96155
壅	-9.96162
蕉	-9.96164
硯	-9.96166
漆	-9.9617
况	-9.96179
恨	-9.96185
阜	-9.96186
翰林	-9.96186
述	-9.96187
拱	-9.96189
己酉	-9.9621
叟	-9.9621
搗	-9.96211
腎	-9.96212
錯	-9.96217
潜	-9.96229
乏	-9.96229
拒	-9.96231
瑶	-9.96244
廼	-9.96244
太史	-9.96245
携	-9.96252
十三年	-9.96254
詰	-9.96268
朋	-9.96268
窺	-9.96274
亷	-9.96281
智	-9.96283
偃	-9.96294
冥	-9.96301
太極	-9.96332
見一	-9.96333
飼	-9.96335
騐	-9.96353
往往	-9.96355
填	-9.96366
祥符	-9.96371
賔客	-9.96378
互	-9.96391
五六	-9.96405
講武	-9.96455
増史記	-9.96511
二十四氣	-9.96614
三百六十	-9.96639
此月	-9.96651
其根	-9.96733
五刻	-9.96914
男女	-9.97004
毎嵗	-9.97118
春時	-9.9715
未嘗	-9.97203
閏餘	-9.97228
水上	-9.97247
寒露	-9.97258
萬里	-9.97272
孟夏	-9.97429
之内	-9.97451
山在	-9.97591
不過	-9.9777
諸軍	-9.97779
年年	-9.97849
二年十一月	-9.97855
春日	-9.97864
之官	-9.97989
地氣	-9.98307
時雨	-9.98338
亦曰	-9.98495
始生	-9.9855
久之	-9.9859
四刻	-9.98671
秋風	-9.98759
與之	-9.9882
注云	-9.98842
五百	-9.98872
三五	-9.99037
之一	-9.99306
月初	-9.99496
百刻	-9.99525
曰我	-9.99689
海中	-9.99693
半月	-10.0032
色白	-10.0033
子午	-10.0047
於地	-10.0048
之末	-10.0049
人謂之	-10.005
廬	-10.0051
廷	-10.0055
蓼	-10.0055
燎	-10.006
閭	-10.0061
衙	-10.0061
得其	-10.0064
懼	-10.0064
奠	-10.0064
廽	-10.0064
扉	-10.0065
墮	-10.0065
崖	-10.0067
輔臣	-10.0068
兄弟	-10.0069
胃	-10.0073
賛	-10.0074
政和	-10.0074
増易	-10.0074
釵	-10.0074
芻	-10.0075
脆	-10.0075
電	-10.0075
拾	-10.0075
齎	-10.0075
湘	-10.0075
腸	-10.0075
棄	-10.0076
斬	-10.0076
危	-10.0077
價	-10.0077
寵	-10.0078
俊	-10.0078
增管子	-10.0078
削	-10.0079
凖	-10.0079
戊寅	-10.0079
俾	-10.008
太后	-10.0081
透	-10.0082
餳	-10.0083
李嶠	-10.0083
奇	-10.0083
聊	-10.0083
闗	-10.0083
冲	-10.0084
虧	-10.0084
㫁	-10.0085
叙	-10.0085
糜	-10.0086
又有	-10.0087
葡萄	-10.0089
狂	-10.0091
鴉	-10.0094
李賀	-10.01
黄龍	-10.01
司徒	-10.0105
玉海	-10.0109
衣冠	-10.011
除夕	-10.0111
西京	-10.0116
七十二	-10.0121
於東	-10.0128
白虎	-10.014
不用	-10.0154
藏之	-10.0158
南海	-10.0166
酘	-10.0167
孟子	-10.0181
未有	-10.0192
君臣	-10.0198
晝日	-10.0199
有五	-10.0202
前一日	-10.0203
内外	-10.0205
初四日	-10.0211
一度	-10.0214
寒氣	-10.0221
終日	-10.0224
春生	-10.0248
居之	-10.027
水旱	-10.0283
下有	-10.0286
今朝	-10.0289
原易	-10.0297
耐	-10.03
三年十一月	-10.03
有白	-10.0307
草生	-10.0311
百里	-10.0323
殿前	-10.0334
嵗星	-10.0339
花開	-10.0356
而小	-10.0359
其事	-10.0377
増蘇軾	-10.0381
和氣	-10.0392
増玉海紹興	-10.0396
常有	-10.04
五寸	-10.0413
夏之	-10.0425
以金	-10.0441
請以	-10.0441
有光	-10.0453
春月	-10.0497
寐	-10.0505
流水	-10.0506
作樂	-10.0515
韓愈	-10.0518
涸	-10.0524
是故	-10.0527
也今	-10.0533
蛾	-10.0535
又云	-10.0536
有異	-10.0539
靖	-10.054
汎	-10.0541
社稷	-10.0542
薺	-10.0542
増國語	-10.0543
貌	-10.0543
隣	-10.0543
勲	-10.0544
縣有	-10.0545
百草	-10.0546
衢	-10.0547
魁	-10.0547
挂	-10.0548
翰	-10.0548
几	-10.0549
柰	-10.0549
覩	-10.055
牽	-10.0552
梗	-10.0552
俯	-10.0552
一歲	-10.0552
丙寅	-10.0553
甲乙	-10.0553
疇	-10.0553
歷	-10.0554
擲	-10.0554
遵	-10.0555
有人	-10.0555
悟	-10.0558
伺	-10.0558
強	-10.056
其下	-10.056
祁	-10.0561
摘	-10.0562
討	-10.0562
壊	-10.0563
嚢	-10.0563
須臾	-10.0564
蛟	-10.0565
淳化	-10.0566
増圖經本草	-10.0567
牆	-10.0568
㧞	-10.0568
其聲	-10.0569
増春秋繁露	-10.057
唐太宗	-10.0571
釀酒	-10.0573
裙	-10.0575
丙辰	-10.0579
真君	-10.0586
貞元	-10.0587
嶺南	-10.0598
丙子	-10.0624
冬至日	-10.0636
即位	-10.0646
玉女	-10.0652
可愛	-10.0685
空中	-10.0688
山谷	-10.0691
二曰	-10.0696
臘日	-10.0709
多少	-10.0712
神光	-10.0716
小滿	-10.0716
三升	-10.0732
古之	-10.0743
立秋日	-10.0797
為正	-10.0799
其後	-10.0803
城南	-10.0815
之時也	-10.0817
亦可	-10.0819
宴於	-10.0824
其樹	-10.0839
吞	-10.0842
之半	-10.0842
黄道	-10.0844
仁宗	-10.0858
以獻	-10.0859
忽有	-10.0869
九十	-10.0886
於時	-10.089
十五年	-10.0891
有所	-10.0904
也謂	-10.0916
形如	-10.0921
元氣	-10.0938
故為	-10.0978
也又	-10.0979
順天	-10.0982
號為	-10.0987
八分	-10.0998
有小	-10.1
觀燈	-10.1001
坑	-10.1023
堤	-10.1032
淳	-10.1032
迷	-10.1032
甜	-10.1033
酒食	-10.1034
稽	-10.1038
呌	-10.1039
刹	-10.1039
歐陽	-10.1039
蟻	-10.104
粧	-10.104
杪	-10.1041
截	-10.1041
原國語	-10.1042
鮪	-10.1043
析	-10.1044
毫	-10.1044
剖	-10.1044
䆫	-10.1045
谿	-10.1045
誓	-10.1046
㦸	-10.1047
茱萸	-10.1047
纒	-10.1047
鵝	-10.1047
貸	-10.1047
一級	-10.1048
没	-10.1048
綱	-10.105
播	-10.105
蒜	-10.1051
匠	-10.1051
欽	-10.1052
鑑	-10.1052
醬	-10.1053
鉤	-10.1053
樵	-10.1054
豕	-10.1054
蠅	-10.1055
種者	-10.1056
冶	-10.1057
荘	-10.1057
溢	-10.1057
股	-10.1058
㝠	-10.1059
菴	-10.1061
原開天遺事	-10.1062
蟄蟲	-10.1062
蓴	-10.1064
唐書	-10.1066
溫	-10.1066
元年正月	-10.1067
腦	-10.1068
青龍	-10.107
賜近臣	-10.1074
古今	-10.1092
帖子	-10.1095
弟子	-10.1096
米貴	-10.11
増白虎通	-10.1101
元宵	-10.1104
之音	-10.1122
北郊	-10.1127
必以	-10.1136
不食	-10.1136
元夕	-10.1159
若有	-10.1161
以進	-10.1181
下旬	-10.1184
天時	-10.1185
有聲	-10.1187
其氣	-10.1197
三十六	-10.1202
赤道	-10.1218
相似	-10.122
在天	-10.1226
荅	-10.1227
乃止	-10.1232
不宜	-10.1233
之處	-10.1241
不盡	-10.1247
古人	-10.1265
晴雨	-10.1267
一千	-10.1271
南山	-10.1275
處暑	-10.1277
三元	-10.1279
之令	-10.128
初生	-10.1303
其數	-10.1307
之物	-10.1321
至冬	-10.1321
社日	-10.1327
十刻	-10.1338
十分	-10.1354
太子	-10.136
人呼為	-10.1364
梅雨	-10.1368
夏則	-10.1368
秋氣	-10.138
以應	-10.1404
以水	-10.1404
州縣	-10.1407
者天之	-10.1423
雲氣	-10.1438
起於	-10.144
置於	-10.1445
數千	-10.1456
周公	-10.1476
早春	-10.1485
可為	-10.1495
雨雪	-10.1502
凋	-10.1511
者謂之	-10.1513
煒	-10.1514
衍	-10.1529
人也	-10.1532
人以	-10.1538
一宿	-10.1548
閤	-10.1553
晝則	-10.1557
灘	-10.1557
芹	-10.1558
味甘	-10.1559
漉	-10.156
宸	-10.156
櫻桃	-10.1561
厨	-10.1561
盂	-10.1561
飢	-10.1563
孚	-10.1564
炬	-10.1565
卓	-10.1565
穰	-10.1565
甲午	-10.1566
鄴	-10.1566
窟	-10.1566
昆	-10.1567
稠	-10.1567
峰	-10.1567
廊	-10.1568
陛	-10.1568
鯉	-10.1568
風起	-10.1569
粲	-10.157
掛	-10.1571
屠	-10.1571
六月六日	-10.1572
促	-10.1572
祫	-10.1573
寤	-10.1573
會稽	-10.1573
月為	-10.1574
絡	-10.1576
簟	-10.1576
駒	-10.1576
沐	-10.1576
粗	-10.1576
縦	-10.1577
庻	-10.1578
乂	-10.1579
菱	-10.158
氊	-10.158
逄	-10.1582
覧	-10.1583
亨	-10.1584
夭	-10.1584
醤	-10.1584
緣	-10.1584
揖	-10.1585
軸	-10.1586
策	-10.1586
己未	-10.1586
畆	-10.1586
豬	-10.1586
孰	-10.1586
郷	-10.1586
篆	-10.1587
營室	-10.1587
啖	-10.1587
天文志	-10.1587
稜	-10.1587
幄	-10.1588
峽	-10.1589
攻	-10.1589
酥	-10.159
上御	-10.159
丁巳	-10.159
㽔賔	-10.1591
斗柄	-10.1594
加十五日斗指	-10.1596
婢	-10.1601
正月一日	-10.1603
不雨	-10.1605
晝漏	-10.1612
来年	-10.162
春三月	-10.1623
實録	-10.1624
有二	-10.1628
年夏四月	-10.1636
初七日	-10.165
功臣	-10.1653
五尺	-10.1654
去皮	-10.1654
黄雀	-10.1678
泰山	-10.1679
置閏	-10.1683
貴賤	-10.1688
瑞雪	-10.1689
暈	-10.1689
曰朕	-10.169
文章	-10.1698
東井	-10.1709
而有	-10.1716
可作	-10.1725
小暑	-10.1735
從臣	-10.1735
迎氣	-10.1737
土王	-10.1752
何如	-10.1752
千年	-10.1758
舍人	-10.1768
每日	-10.1775
故有	-10.1777
七八月	-10.1784
之本	-10.1791
一陽	-10.1799
三刻	-10.1826
之際	-10.183
乃命	-10.1832
采根	-10.1834
多雨	-10.1835
各以	-10.1845
増舊唐書	-10.1849
然而	-10.1879
其花	-10.1889
之候	-10.1893
公主	-10.1896
縣西	-10.1904
名為	-10.1904
莖葉	-10.1907
六氣	-10.1912
氣候	-10.1917
吉日	-10.193
也註	-10.1935
之制	-10.1941
不絶	-10.1942
一丈	-10.1944
初六日	-10.1955
明月	-10.1964
周天	-10.1981
月色	-10.1982
如何	-10.2002
於庭	-10.2018
舉人	-10.2026
茹	-10.2026
壬午	-10.2038
攤	-10.205
妾	-10.2082
通鑑	-10.2091
望日	-10.2094
其法	-10.2098
台	-10.2103
以聞	-10.2105
鳳凰	-10.2106
甲申	-10.2111
三素雲	-10.2111
戚	-10.2115
藕	-10.2115
一卷	-10.2116
憑	-10.2117
嫗	-10.2117
脉	-10.2118
寓	-10.2118
後十五日斗指	-10.2119
聨	-10.212
跪	-10.212
亟	-10.2121
繒	-10.2121
穂	-10.2121
熏	-10.2121
區	-10.2121
耆	-10.2121
返	-10.2122
畔	-10.2122
麋	-10.2122
膝	-10.2123
複	-10.2123
瑟	-10.2123
霍	-10.2124
葩	-10.2125
仕	-10.2125
未央	-10.2125
沛	-10.2125
菽	-10.2125
眷	-10.2126
决	-10.2126
楮	-10.2127
逮	-10.2127
狼	-10.2128
遁	-10.2128
鬻	-10.2129
培	-10.2129
撒	-10.213
原四民月令	-10.213
己亥	-10.213
門下	-10.2131
圜	-10.2131
衫	-10.2132
榜	-10.2132
刋	-10.2132
兎	-10.2132
寜	-10.2132
慕	-10.2132
昴	-10.2133
折楊栁	-10.2133
正中	-10.2134
簮	-10.2134
攪	-10.2134
喚	-10.2135
増魏書	-10.2135
眞	-10.2135
燠	-10.2136
駟	-10.2137
禊	-10.2137
邵	-10.2137
宦	-10.2137
嫁	-10.2138
肩	-10.2138
臂	-10.2138
䖍	-10.2138
匝	-10.2139
襲	-10.2139
鄰	-10.214
霑	-10.2141
襟	-10.2141
東方朔	-10.2141
挺	-10.2143
閩	-10.2143
無雨	-10.2144
嫌	-10.2144
盛於	-10.2145
牓	-10.2145
牌	-10.2145
吉凶	-10.2145
之夕	-10.2146
糟	-10.2146
閤門	-10.2146
飭	-10.2147
輩	-10.2148
凶	-10.2149
菰	-10.215
以供	-10.2151
庚寅	-10.2151
拔	-10.2154
曝乾	-10.2156
而至	-10.2158
忙	-10.216
靡	-10.216
蜩	-10.2161
増唐書百官志	-10.2162
行事	-10.2164
時人	-10.2165
原陶朱公書	-10.2167
戊辰	-10.2168
東坡詩云	-10.2172
上巳	-10.2173
老人	-10.2177
月八日	-10.2186
大臣	-10.2196
知其	-10.2209
吏民	-10.2214
者所以	-10.2215
霜雪	-10.2216
受命	-10.2236
何處	-10.224
山下	-10.224
雪詩	-10.2254
非常	-10.2265
收之	-10.2267
燈燭	-10.2267
一種	-10.2276
南至	-10.2283
雜記	-10.2291
得一	-10.2293
天文	-10.2299
初二日	-10.2305
親王	-10.2325
春色	-10.2327
主有	-10.2336
初九日	-10.2337
自此	-10.2341
觀者	-10.2349
太一	-10.2355
不覺	-10.2365
石上	-10.2377
三斗	-10.2378
之意	-10.2378
樂章	-10.2379
九天	-10.2384
亦不	-10.2393
而行	-10.2401
相傳	-10.2405
正嵗	-10.2406
禦	-10.2406
大旱	-10.2415
人掌	-10.2421
天門	-10.2425
其餘	-10.2429
來年	-10.2429
嵗首	-10.2431
七言詩	-10.245
夜雨	-10.245
號曰	-10.2477
初夏	-10.2481
已後	-10.2496
青色	-10.2517
小豆	-10.2518
生葉	-10.2534
八九	-10.2546
謂曰	-10.2549
夢中	-10.2555
卿等	-10.2562
郡縣	-10.2563
少陽	-10.2569
不失	-10.2571
其形	-10.2573
至今	-10.2574
毎年	-10.2577
八尺	-10.2578
家家	-10.2598
採之	-10.2611
學者	-10.2613
昇	-10.2615
見其	-10.2619
四百	-10.2619
八月采	-10.2631
俗以	-10.2641
山林	-10.2642
祭天	-10.266
俄	-10.266
原選擇歴書二	-10.2663
日暮	-10.2673
白虎通	-10.2674
天下之	-10.2682
増史記天官書	-10.2683
株	-10.2683
珪	-10.2687
菌	-10.27
踈	-10.2703
逍遥	-10.2708
螢	-10.2709
亘	-10.2709
萼	-10.2709
荆州	-10.2709
湧	-10.271
泊	-10.2711
蟾	-10.2711
勁	-10.2713
慰	-10.2713
歛	-10.2713
兄	-10.2713
諌	-10.2714
淑	-10.2714
辯	-10.2714
彘	-10.2714
耘	-10.2715
姦	-10.2716
亞	-10.2716
庚戌	-10.2716
䑓	-10.2716
欄	-10.2717
濡	-10.2717
範	-10.2717
峻	-10.2717
戊巳	-10.2717
類	-10.2718
昧	-10.2718
嬪	-10.2718
倫	-10.2719
勾	-10.2719
阮	-10.272
缺	-10.2721
遙	-10.2721
隊	-10.2721
☱	-10.2721
眉	-10.2722
原雜占	-10.2722
聘	-10.2722
稼穡	-10.2722
糠	-10.2722
醪	-10.2723
祝融	-10.2723
幷	-10.2723
旂	-10.2724
赫	-10.2724
翰林學士	-10.2724
泄	-10.2725
牡	-10.2725
隙	-10.2725
逼	-10.2725
猿	-10.2725
珥	-10.2726
慧	-10.2726
壮	-10.2727
蹄	-10.2727
殆	-10.2727
烹	-10.2728
費	-10.2728
庸	-10.2728
籬	-10.2729
洽	-10.273
藉田	-10.273
娥	-10.273
妄	-10.2732
謨	-10.2733
臥	-10.2733
邦國	-10.2733
曠	-10.2735
乙酉	-10.2735
淮南	-10.2735
糉	-10.2736
汴	-10.2736
牖	-10.2737
扁	-10.2737
城郭	-10.2738
次第	-10.2739
瀉	-10.2741
暄	-10.2741
家貧	-10.2743
父老	-10.2743
芙蓉	-10.2746
迭	-10.2748
消息	-10.2749
年正月	-10.275
将軍	-10.275
數丈	-10.2752
郡守	-10.2752
絲竹	-10.2763
庚辰	-10.2764
暴乾	-10.2766
春雨	-10.2769
海上	-10.277
盛暑	-10.2777
俄而	-10.2777
毎歳	-10.2779
張説	-10.278
進退	-10.2781
宗紀	-10.2786
春酒	-10.2786
重九	-10.2798
下種	-10.2799
相見	-10.2803
帝曰	-10.2807
次五日	-10.2812
宣和	-10.2814
者名	-10.2819
獻之	-10.282
之聲	-10.2823
今人	-10.2828
生子	-10.2835
春氣	-10.2838
為陽	-10.2846
一葉	-10.2853
聞之	-10.286
玉堂	-10.2862
夷則	-10.2863
一朝	-10.2871
樹下	-10.2874
之氣也	-10.2886
麻子	-10.2887
初十日	-10.2887
文帝	-10.2894
太初	-10.2894
初三日	-10.2901
陰陽	-10.2902
十七年	-10.2902
可種	-10.291
赤帝	-10.2912
清明日	-10.292
文曰	-10.2926
長夏	-10.2929
國家	-10.293
卯時	-10.2935
朝賀	-10.2944
十四年	-10.2959
之士	-10.2961
李白詩	-10.2968
白鶴	-10.2977
時令	-10.2984
北風	-10.2986
皆可	-10.3009
辰星	-10.3017
叢生	-10.3019
物皆	-10.3023
暑月	-10.3027
覆之	-10.303
八九月	-10.303
一枝	-10.3036
問曰	-10.3042
有功	-10.3052
陽春	-10.3053
半夜	-10.3063
祭於	-10.3064
白雲	-10.3082
京城	-10.3086
人多	-10.3088
新年	-10.3119
秋七月	-10.3125
十里	-10.315
有年	-10.3172
俗名	-10.3179
上親	-10.3182
下降	-10.319
以木	-10.3192
申時	-10.3199
中和	-10.32
北極	-10.3202
色如	-10.3202
色青	-10.3206
民事	-10.3227
諺	-10.3246
夏小正	-10.3259
之卦	-10.3266
嵗之	-10.3277
池中	-10.3281
饌	-10.3288
以竹	-10.3295
黨	-10.3308
里有	-10.331
辛巳	-10.3314
縣令	-10.3316
衞	-10.3318
梵	-10.3318
夣	-10.3328
增左傳	-10.3328
枸杞	-10.333
原雲笈七籖	-10.333
湛	-10.3331
酬	-10.3332
原埤雅	-10.3332
疊	-10.3332
葭	-10.3333
閱	-10.3334
幼	-10.3334
扈	-10.3334
哭	-10.3335
獮	-10.3336
淹	-10.3337
遮	-10.3337
鳯凰	-10.3339
廷尉	-10.334
督	-10.3341
杵	-10.3341
内有	-10.3342
原晉書	-10.3342
億	-10.3342
畤	-10.3343
吸	-10.3344
☴	-10.3344
髮	-10.3345
愧	-10.3345
砂	-10.3346
姑洗	-10.3346
嚮	-10.3346
鮓	-10.3346
亊	-10.3347
蒐	-10.3347
净	-10.3347
十日一	-10.3347
詩話	-10.3348
墳	-10.3348
肇	-10.3348
渭	-10.3348
槎	-10.3348
途	-10.3349
畿	-10.3349
婚	-10.3349
釣	-10.3349
税	-10.3349
膾	-10.3349
楊萬里	-10.3349
捨	-10.3349
穎	-10.335
二年九月	-10.3351
賽	-10.3352
紺	-10.3352
敏	-10.3352
鑾	-10.3353
寂	-10.3353
猪	-10.3354
挽	-10.3354
二月八日	-10.3354
主簿	-10.3355
癸巳	-10.3355
怠	-10.3355
☶	-10.3355
甲戌	-10.3356
元祐	-10.3356
兌	-10.3356
緯	-10.3357
苞	-10.3357
帽	-10.3357
㤙	-10.3357
棚	-10.3358
弊	-10.3358
炒	-10.3358
矩	-10.3358
太尉	-10.3359
丙午	-10.3361
針	-10.3362
剥	-10.3362
増内經	-10.3362
諷	-10.3364
姚	-10.3364
百僚	-10.3364
風俗通	-10.3364
瘡	-10.3366
禪師	-10.3366
乞巧	-10.3367
跳	-10.3368
増法苑珠林	-10.3369
朝廷	-10.3371
増帝京景物畧	-10.3373
圖經	-10.3373
増唐書禮樂志	-10.3375
羲和	-10.3378
之家	-10.338
三分	-10.3389
大中	-10.3391
蠶市	-10.3393
儺	-10.3396
二年六月	-10.3396
大風	-10.3397
宗室	-10.34
此謂	-10.3407
早晚	-10.3409
侍臣	-10.341
慶雲	-10.3422
舊俗	-10.3426
天而	-10.3427
法善	-10.343
日次	-10.3433
一寸	-10.3438
延年	-10.3439
諺曰	-10.344
朱明	-10.3449
正月十五日	-10.3451
四五	-10.3454
處處	-10.3455
龍見	-10.3474
增詩	-10.348
江東	-10.3493
大熟	-10.3498
金吾	-10.3501
水底	-10.3522
黄金	-10.3524
一章	-10.3525
華山	-10.3537
二刻	-10.3553
史記	-10.3558
祈榖	-10.3566
亦以	-10.3573
縣志	-10.3578
奏事	-10.3585
不為	-10.3587
無射	-10.3594
元年五月	-10.3623
注春	-10.3633
焚之	-10.3654
而入	-10.3664
漢中	-10.3666
二三月	-10.367
二十五	-10.3676
相去	-10.3678
有差	-10.3687
秋月	-10.3689
不死	-10.3691
文公	-10.3691
丈餘	-10.3702
六時	-10.371
白玉	-10.372
禮儀	-10.372
當時	-10.3723
於中	-10.3728
萬物皆	-10.3737
月中	-10.3738
故人	-10.3758
在地	-10.376
赤色	-10.377
其色	-10.3771
至于	-10.3827
地上	-10.3831
三更	-10.3835
為小	-10.3835
二十七	-10.3836
三朝	-10.3837
中出	-10.3843
隻	-10.3846
者言	-10.3855
者其	-10.387
朔旦	-10.3875
不生	-10.3875
五行之	-10.3889
又以	-10.3893
府志	-10.3893
日光	-10.3894
城門	-10.3896
春水	-10.3903
至日	-10.3908
之形	-10.391
異之	-10.3911
武帝紀	-10.3914
一升	-10.3921
三曰	-10.3924
增漢書	-10.3947
四人	-10.3948
元年四月	-10.3952
至則	-10.3953
冬官	-10.3958
箇	-10.3959
其名	-10.3966
畦	-10.3969
黄雲	-10.3972
為末	-10.3974
哲	-10.3975
諸生	-10.3981
俸	-10.3982
蜡	-10.3983
鮑	-10.3985
蛤	-10.3986
其地	-10.3986
纎	-10.3987
日午時	-10.3988
相與	-10.3991
陪	-10.3992
滌	-10.3994
疆	-10.3996
脾	-10.3996
柘	-10.3997
様	-10.3998
競渡	-10.3998
謀	-10.4001
酣	-10.4001
敞	-10.4001
始出	-10.4001
則不	-10.4002
床	-10.4002
邸	-10.4002
幔	-10.4003
廩	-10.4004
遼	-10.4005
珊瑚	-10.4006
☰	-10.4006
嗜	-10.4007
邁	-10.4007
遞	-10.4007
該	-10.4007
諧	-10.4008
現	-10.4009
盃	-10.4009
蓬萊	-10.401
謙	-10.401
漚	-10.4011
禘	-10.4012
壑	-10.4012
擣	-10.4012
蒔	-10.4013
灼	-10.4013
換	-10.4013
弋	-10.4013
雛	-10.4014
顓頊	-10.4014
原左𫝊	-10.4014
釐	-10.4015
覲	-10.4015
鬬	-10.4016
芍藥	-10.4016
拾遺	-10.4016
伏日	-10.4016
江淮	-10.4016
繪	-10.4016
崑崙	-10.4017
禽獸	-10.4017
幅	-10.4017
芡	-10.4017
冀	-10.4017
膚	-10.4018
娱	-10.4018
燃燈	-10.4018
囬	-10.4019
己丑	-10.4019
褥	-10.4019
僅	-10.4019
胄	-10.402
唐明皇	-10.402
倉庚	-10.402
☳	-10.4021
皁	-10.4021
滄	-10.4021
壬寅	-10.4021
餐	-10.4021
原農政全書	-10.4022
増嘉定縣志	-10.4022
縈	-10.4022
衣裳	-10.4022
增酉陽雜爼	-10.4023
匏	-10.4023
丁丑	-10.4023
捲	-10.4024
握	-10.4024
觀稼	-10.4024
墻	-10.4025
㢲	-10.4026
砌	-10.4026
蓐收	-10.4027
擾	-10.4027
丙戌	-10.4027
天竺	-10.4028
西王母	-10.4029
太乙	-10.403
隕	-10.403
渴	-10.403
皓	-10.4031
祥瑞	-10.4031
犁	-10.4032
焚香	-10.4032
䄂	-10.4033
至是	-10.4034
原通考	-10.4037
驢	-10.4048
命有司	-10.405
孟秋	-10.4053
之外	-10.4055
白如	-10.4059
帝君	-10.4061
夏時	-10.4061
毎至	-10.4065
甚美	-10.4066
白鹿	-10.4068
増通鑑	-10.4075
甲辰	-10.4077
北面	-10.4078
七八	-10.4078
百蟲	-10.4084
二寸	-10.4087
鬼神	-10.4087
黄昏	-10.4088
行禮	-10.4092
王公	-10.4094
賜羣臣	-10.4098
以紀	-10.4103
春寒	-10.4107
上以	-10.4118
土功	-10.4132
從官	-10.4134
其皮	-10.4137
一枚	-10.4139
芝草	-10.4141
土牛	-10.4153
為大	-10.4162
太清	-10.4166
雨後	-10.4168
之象也	-10.4172
亦名	-10.4172
以正	-10.4179
五色雲	-10.418
飛去	-10.4187
之始也	-10.419
去年	-10.4193
欲知	-10.4194
開寳	-10.4194
主水	-10.4199
未盡	-10.4201
貢舉	-10.423
王母	-10.4231
而止	-10.4231
土之	-10.4232
三陽	-10.4241
入學	-10.4241
春初	-10.4248
所居	-10.4258
政事	-10.4259
郎中	-10.4271
侍讀	-10.4283
熟時	-10.4285
上辛	-10.4287
以次	-10.4288
前有	-10.4295
四年二月	-10.4302
夏至日	-10.4307
之乃	-10.4314
城東	-10.4326
一兩	-10.4334
雞子	-10.4357
初一日	-10.4373
夜分	-10.4386
以来	-10.4399
十九年	-10.4401
辛夘	-10.4403
苑中	-10.4409
八風	-10.441
㑹於	-10.4415
以授	-10.4416
癸亥	-10.4417
不須	-10.4423
先王	-10.4426
十二年	-10.4433
同用	-10.445
所生	-10.4453
二年四月	-10.4454
人亦	-10.4457
明朝	-10.4466
金錢	-10.4479
元正	-10.4483
作詩	-10.4491
増王	-10.4498
者亦	-10.4509
相𫝊	-10.4536
見於	-10.4539
事也	-10.4542
於上	-10.4549
其方	-10.4557
刻漏	-10.4566
月晦	-10.4575
不欲	-10.4577
梧	-10.4578
八刻	-10.4598
長春	-10.4598
十人	-10.4602
杓	-10.4608
雨則	-10.4622
星出	-10.4645
陽而	-10.4657
之極	-10.4657
郡人	-10.466
御樓	-10.4661
六合	-10.4663
年十	-10.4675
甞	-10.4683
芎	-10.4693
增雲笈七籖	-10.4699
醮	-10.4701
増遼史禮志	-10.4705
豔	-10.4706
原南史	-10.4708
増述異記	-10.471
苔	-10.471
陟	-10.471
増四民月令	-10.471
毁	-10.4711
馴	-10.4712
仲月	-10.4713
鄙	-10.4713
旄	-10.4714
嫁娶	-10.4714
一分	-10.4715
☵	-10.4715
二千石	-10.4716
鑒	-10.4716
庾	-10.4717
祇	-10.4717
☲	-10.4717
臯	-10.4718
紋	-10.4718
臻	-10.4719
鹹	-10.4719
咏	-10.4719
聰	-10.4719
籌	-10.4719
姿	-10.472
翳	-10.472
話	-10.4721
怕	-10.4722
穢	-10.4722
國子監	-10.4722
誤	-10.4722
問其故	-10.4723
聳	-10.4723
坼	-10.4723
咎	-10.4723
兑	-10.4724
風土記	-10.4725
藁	-10.4725
咽	-10.4725
己巳	-10.4725
掾	-10.4726
梧桐	-10.4726
鄧	-10.4726
秫	-10.4726
筐	-10.4726
荚	-10.4726
沾	-10.4727
掖	-10.4727
喻	-10.4727
蘋	-10.4727
戯	-10.4727
萍	-10.4727
柄	-10.4728
魏文帝	-10.4728
莎	-10.4729
讓	-10.4729
澹	-10.4729
蚤	-10.4729
敵	-10.4729
獺	-10.4729
演	-10.473
貼	-10.473
壠	-10.473
紹興	-10.473
潘	-10.4731
豁	-10.4731
紐	-10.4731
軌	-10.4731
黙	-10.4732
媚	-10.4732
梁武帝	-10.4732
窠	-10.4732
炁	-10.4732
増埤雅	-10.4733
褐	-10.4733
增淮南子	-10.4733
倣	-10.4734
𧖟	-10.4734
增後漢書	-10.4735
百寮	-10.4736
糶	-10.4736
祚	-10.4736
盗	-10.4736
扶桑	-10.4736
婁	-10.4737
括	-10.4737
戊戌	-10.4737
叚	-10.4737
雒陽	-10.4738
已而	-10.4738
淚	-10.4739
庾信	-10.474
坡	-10.4741
螺	-10.4741
楝	-10.4741
嬰	-10.4741
遶	-10.4742
臣僚	-10.4742
苕	-10.4743
縮	-10.4744
筮	-10.4744
槿	-10.4744
翟	-10.4744
緒	-10.4745
姓名	-10.4745
蘖	-10.4746
日有	-10.4747
屑	-10.4748
入水	-10.4748
賚	-10.4748
乙未	-10.4748
蚌	-10.4748
的	-10.4749
蝗	-10.4749
痕	-10.475
増夢溪筆談	-10.4751
浥	-10.4752
修撰	-10.4753
縛	-10.4754
鉸	-10.4755
七月十五日	-10.4755
供養	-10.476
緋	-10.476
寅申	-10.4761
色黄	-10.4761
酪	-10.4762
増乾淳嵗時記	-10.4763
食時	-10.4766
良久	-10.4769
萬夀	-10.477
欽定四庫全書御定月令輯要卷	-10.477
廣陵	-10.4772
除夜	-10.4781
昊天	-10.4782
風從	-10.4785
百工	-10.4788
士庶	-10.4788
毎歲	-10.4788
杭州	-10.4804
漢武	-10.4806
辰時	-10.4809
歌舞	-10.4809
州人	-10.4809
附子	-10.4811
一夜	-10.4816
餘分	-10.4817
香美	-10.4819
時刻	-10.4828
草也	-10.4837
一二	-10.4841
夏正	-10.4842
辰巳	-10.4844
田野	-10.4852
致祭	-10.4852
清眀	-10.4854
開皇	-10.4856
廣州	-10.4861
五方	-10.4862
白居易詩	-10.4862
而歸	-10.4865
四面	-10.4872
原禮命	-10.4878
樂府	-10.4881
東向	-10.4881
黒色	-10.4883
龍池	-10.4885
於下	-10.4889
所用	-10.4895
景龍	-10.4898
下水	-10.4907
辰為	-10.4908
水火	-10.4914
相對	-10.4914
小麥	-10.4918
陰氣	-10.4918
太元	-10.492
國有	-10.4922
孝經	-10.4922
六出	-10.4927
天有	-10.4929
之南	-10.4934
月令曰	-10.4938
禮樂	-10.4939
民間	-10.494
十數	-10.494
二十一	-10.494
之功	-10.495
河南	-10.4954
張樂	-10.4954
射之	-10.4964
中宫	-10.4966
水面	-10.4969
右主	-10.4972
五時	-10.4977
四方之	-10.4983
齋戒	-10.4983
之用	-10.4986
二十八	-10.4989
西有	-10.4994
其音	-10.4997
涼風	-10.4999
經云	-10.5001
秋時	-10.5006
而長	-10.5021
云是	-10.5022
海棠	-10.5022
月建	-10.5024
歲星	-10.5029
山水	-10.5029
帝親	-10.5033
於外	-10.5046
樹木	-10.505
平地	-10.5066
之首	-10.5075
鄉人	-10.5079
陽縣	-10.508
書禮志	-10.509
芝生	-10.5094
承天	-10.5097
分龍	-10.5101
冬生	-10.5107
已上	-10.5111
暑氣	-10.5116
地中	-10.5118
勸農	-10.5121
不至	-10.5124
乃出	-10.5127
十八年	-10.5127
賞花	-10.5145
種竹	-10.5154
原晋書	-10.5155
門前	-10.5165
土地	-10.5196
二年八月	-10.5198
盛陽	-10.5211
南吕	-10.5212
其令	-10.5217
不勝	-10.5218
三年八月	-10.5224
其功	-10.5226
處也	-10.5234
紫色	-10.5236
不如	-10.5241
山居	-10.5259
都城	-10.5263
之盛	-10.5272
木葉	-10.5273
而復	-10.5279
條風	-10.5283
百花	-10.5284
夜鳴	-10.5287
七刻	-10.5289
月有	-10.5298
皆如	-10.5299
三嵗	-10.5322
其間	-10.5324
徳殿	-10.5326
以定	-10.5343
名也	-10.5348
詩曰	-10.5353
大麥	-10.5364
中宗	-10.5368
入地	-10.5374
之風	-10.538
八百	-10.5392
漢武帝	-10.5404
妨	-10.5404
可用	-10.5413
燈火	-10.5415
戊午	-10.5424
而無	-10.5428
以十	-10.543
級	-10.545
受朝	-10.5453
鶉	-10.5459
児	-10.5459
之號	-10.5465
五年九月	-10.5465
酺	-10.5466
何時	-10.5466
瀆	-10.5469
蝦蟇	-10.547
嵩	-10.5471
浙	-10.5473
旛	-10.5473
稚	-10.5475
茵	-10.5475
蝦	-10.5477
軫	-10.5478
巵	-10.5478
麓	-10.548
縫	-10.548
奢	-10.5481
千五百	-10.5482
牝	-10.5482
増清異錄	-10.5482
遐	-10.5484
縳	-10.5485
臧	-10.5485
癘	-10.5486
廵狩	-10.5486
枇杷	-10.5486
魂	-10.5486
涯	-10.5487
増羣芳譜	-10.5487
逾	-10.5488
増癸辛雜識	-10.5488
犧牲	-10.5488
蔟	-10.5488
之分野	-10.5489
萊	-10.5489
沈約	-10.549
喬	-10.5491
汪	-10.5491
厠	-10.5491
廹	-10.5491
甸	-10.5492
曵	-10.5492
廡	-10.5492
亦如之	-10.5492
攸	-10.5493
陬	-10.5493
聒	-10.5493
冒	-10.5494
磔	-10.5495
薔薇	-10.5495
狙	-10.5495
日次初一日	-10.5495
徼	-10.5496
興慶宫	-10.5496
棟	-10.5496
扣	-10.5496
辟雍	-10.5497
稅	-10.5497
搜	-10.5497
閨	-10.5497
乙丑	-10.5497
麪	-10.5497
軰	-10.5497
元稹	-10.5497
匱	-10.5498
泡	-10.5498
樊	-10.5498
薇	-10.5498
慘	-10.5498
豊	-10.5498
腐	-10.5498
篤	-10.5498
拳	-10.5499
㪚	-10.5499
組	-10.5499
堆	-10.55
誅	-10.55
千秋節	-10.55
☷	-10.55
噐	-10.55
跋	-10.5501
増玉海淳熙	-10.5502
柿	-10.5502
増左傳	-10.5502
弓弩	-10.5503
仞	-10.5504
犢	-10.5504
責	-10.5504
錦繡	-10.5504
裕	-10.5504
冕	-10.5504
冐	-10.5504
澀	-10.5505
抑	-10.5505
藜	-10.5505
繕	-10.5505
増種樹書	-10.5505
訟	-10.5505
増田家五行	-10.5506
守歳	-10.5507
檻	-10.5507
嘉祐	-10.5507
賁	-10.5507
詳定	-10.5507
蓂	-10.5508
𫀆	-10.5509
伶	-10.5509
膢	-10.551
版	-10.5511
洞庭	-10.5511
原周禮春官	-10.5512
氐	-10.5512
原本草綱目	-10.5512
郢	-10.5513
弼	-10.5513
原酉陽雜俎	-10.5515
秧	-10.5516
寥	-10.5517
樞宻	-10.5517
賢良	-10.5518
蝕	-10.5518
以六月	-10.5519
頤	-10.5519
匪	-10.5521
喉	-10.5522
國子	-10.5522
遲遲	-10.5522
宴羣臣	-10.5524
尚書省	-10.5525
廵守	-10.5526
林鍾	-10.5526
官府	-10.5529
七里	-10.5532
蓍	-10.5532
曰天	-10.5535
真珠	-10.5536
帚	-10.554
升降	-10.5541
甘泉	-10.5546
晦朔	-10.5547
壬辰	-10.5551
樂工	-10.5565
汝南	-10.5566
中央土	-10.557
上巳日	-10.5572
樂詞	-10.5574
城西	-10.5574
襄陽	-10.5576
當為	-10.5578
增齊民要術作	-10.5579
殿上	-10.558
桃李	-10.558
山上有	-10.5595
桃花水	-10.56
薦新	-10.5602
二十餘	-10.561
而下	-10.5613
土氣	-10.5622
蔓生	-10.5635
佳節	-10.5636
増玉海祥符	-10.5639
盛徳	-10.564
以三月	-10.5646
而香	-10.5655
秋成	-10.566
則無	-10.5668
行之	-10.567
増齊民要術作	-10.567
三人	-10.5678
之閒	-10.5678
以為常	-10.5688
日食	-10.5689
三旬	-10.5693
第二	-10.5696
記之	-10.5698
和之	-10.5706
行道	-10.5706
種麥	-10.5713
夏旱	-10.5723
年二月	-10.5724
為閏	-10.5728
之位	-10.5739
或曰	-10.574
宫人	-10.5744
千金	-10.5748
得之	-10.5763
光照	-10.577
千餘	-10.5772
神人	-10.5777
天師	-10.5778
實如	-10.5779
功成	-10.5792
原禮乃	-10.5801
日中時	-10.5809
酘之	-10.5812
春園	-10.5819
神農	-10.5827
之兆	-10.5828
無風	-10.5839
位也	-10.5845
盛開	-10.5846
所司	-10.5862
之名	-10.5863
入室	-10.5866
號令	-10.5867
為民	-10.5867
復生	-10.587
帝以	-10.5881
大率	-10.5898
增晉書	-10.59
麥秋	-10.5916
正月七日	-10.5921
人君	-10.5926
以時	-10.5928
其言	-10.5934
胡桃	-10.5937
老子	-10.595
山東	-10.5961
今夜	-10.5961
欲得	-10.5963
者不	-10.5965
萬歲	-10.5965
以奉	-10.5973
三老	-10.5985
三年四月	-10.5992
夜中	-10.5995
東門	-10.5996
各一人	-10.6003
月半	-10.6003
之徳	-10.6009
四十八	-10.6016
之象	-10.6025
人事	-10.6027
候氣	-10.6029
宜令	-10.603
未成	-10.6044
賜酒	-10.6045
髙下	-10.6049
望之	-10.6054
中夜	-10.6054
上皇	-10.6058
又名	-10.6067
毎月	-10.607
不許	-10.6074
後有	-10.6098
之東	-10.6099
八卦	-10.6102
宋書符瑞志	-10.6105
春則	-10.6133
六十日	-10.6135
州府	-10.6143
於西	-10.6145
林中	-10.6154
元年九月	-10.6161
即今	-10.6166
閏三月	-10.617
以五	-10.6171
二千	-10.6171
南極	-10.6174
原史記	-10.6177
南陽	-10.6178
陽氣始	-10.6181
為名	-10.6197
有黄	-10.6224
髙宗	-10.6228
十有	-10.6228
杭	-10.6229
扵是	-10.6231
四曰	-10.6236
花落	-10.6248
第三	-10.6272
輟	-10.6283
卉	-10.6288
醋	-10.6288
今之	-10.629
晡	-10.6291
初八	-10.6296
鵠	-10.6299
綬	-10.63
茄	-10.6306
䴡	-10.6309
虫	-10.6311
亢	-10.6312
刃	-10.6312
恤	-10.6313
薤	-10.6313
搏	-10.6314
鴨	-10.6314
岑	-10.6315
般	-10.6315
莽	-10.6316
阻	-10.6316
瀛	-10.6317
睹	-10.6317
増玉海元祐	-10.6317
泗	-10.6317
圜丘	-10.6318
暨	-10.6318
妖	-10.6318
距	-10.6318
混	-10.6319
敇	-10.6319
撲	-10.6319
綘	-10.6319
媒	-10.632
癸丑	-10.632
蔥	-10.632
廂	-10.6321
桴	-10.6321
態	-10.6321
旦日	-10.6321
増世説	-10.6321
璫	-10.6321
冢	-10.6321
拊	-10.6321
踐	-10.6321
靣	-10.6321
疋	-10.6321
炳	-10.6322
霹靂	-10.6323
庖	-10.6323
董	-10.6323
㡌	-10.6323
增爾雅翼	-10.6323
軒轅	-10.6323
謫	-10.6324
拭	-10.6324
蠲	-10.6324
茍	-10.6324
黏	-10.6324
羹	-10.6324
蘿	-10.6324
釁	-10.6324
鴟	-10.6324
餉	-10.6325
姬	-10.6325
夏秋	-10.6325
啇	-10.6326
攀	-10.6326
荀	-10.6326
脫	-10.6327
茭	-10.6327
弩	-10.6327
莧	-10.6327
奮	-10.6327
齡	-10.6327
煉	-10.6328
㢠廻	-10.6328
腥	-10.6328
投之	-10.6329
異物志	-10.6329
翌日	-10.6329
原左傳	-10.6329
訣	-10.6329
㕔	-10.6329
汾	-10.6329
夬	-10.633
値	-10.633
霏	-10.633
究	-10.633
増宋書	-10.633
増後漢書禮儀志	-10.633
菘	-10.633
劉禹錫	-10.633
悠悠	-10.633
増酉陽雜爼	-10.6331
耜	-10.6331
姤	-10.6331
匿	-10.6332
綾	-10.6332
燧	-10.6332
皆用	-10.6332
羲	-10.6332
什	-10.6333
佑	-10.6333
舘	-10.6333
通攷	-10.6333
楓	-10.6333
皇祐	-10.6334
熬	-10.6334
漢官儀	-10.6334
紫宸	-10.6334
巡	-10.6334
陶潛	-10.6334
朱雀	-10.6334
劣	-10.6334
溜	-10.6335
隱	-10.6335
鈿	-10.6335
彊	-10.6335
籥	-10.6335
勇	-10.6335
蔗	-10.6335
馭	-10.6335
既而	-10.6335
螢火	-10.6335
寇	-10.6335
剪綵	-10.6335
菑	-10.6335
緝	-10.6336
通典	-10.6336
拌	-10.6336
狄	-10.6336
碾	-10.6336
禧	-10.6337
闢	-10.6337
爆竹	-10.6338
森	-10.6338
奎	-10.6338
提要録	-10.6338
循環	-10.6338
石榴	-10.6339
壬戌	-10.6339
原周禮夏官	-10.634
障	-10.634
増宋史五行志	-10.634
宰執	-10.634
以二月	-10.634
奥	-10.634
愚	-10.6341
檢校	-10.6341
辛亥	-10.6341
增圖經本草	-10.6341
髻	-10.6341
查	-10.6341
濵	-10.6342
縑	-10.6342
茸	-10.6342
揭	-10.6342
壤	-10.6343
漳	-10.6344
遜	-10.6344
懷	-10.6345
萌芽	-10.6346
不然	-10.6346
館閣	-10.6347
增唐書百官志	-10.6347
達旦	-10.6347
儼	-10.6348
増抱朴子	-10.6348
増山家清供	-10.6349
翫月	-10.6349
善惡	-10.6349
簪	-10.635
増史記封禪書	-10.635
昆明	-10.635
弧	-10.6353
増爾雅翼	-10.6355
庚申	-10.6355
稱賀	-10.6355
張說	-10.6356
高祖	-10.6357
清凉	-10.6358
丁酉	-10.6358
三統厯曰	-10.6359
經筵	-10.636
増唐六典	-10.636
凛	-10.636
晉樂志曰	-10.6361
原説文	-10.6363
見日	-10.6363
踏青	-10.6363
應鍾	-10.6364
巳時	-10.6364
二十八宿	-10.6365
轉運	-10.6366
學士院	-10.6367
太素	-10.6368
連理	-10.6369
校獵	-10.6371
廬山	-10.6372
泥封	-10.6373
六十刻	-10.6373
桺	-10.6375
循行	-10.6375
月失政	-10.6381
是其	-10.6383
増説文	-10.6384
離宫	-10.6384
笑曰	-10.6385
農夫	-10.6386
百穀	-10.6386
粟米	-10.6387
上昇	-10.6389
一株	-10.6389
朝霞	-10.639
命婦	-10.6392
告朔	-10.6393
蒼龍	-10.6396
計吏	-10.641
三寸	-10.6414
陽始	-10.6421
應制	-10.6421
辛丑	-10.6425
温泉	-10.6427
上清	-10.6427
蠶室	-10.6427
語曰	-10.6428
子也	-10.643
門戸	-10.643
詔以	-10.643
詔賜	-10.6434
王維	-10.6437
建武	-10.6439
今夕	-10.6442
二丈	-10.6442
飾以	-10.6445
不凋	-10.6445
俗謂之	-10.6447
生育	-10.6452
徳宗	-10.6463
木蘭	-10.6463
占城	-10.6467
無差	-10.6467
色赤	-10.6468
詞云	-10.6471
炎帝	-10.6472
改元	-10.6484
五代	-10.649
司命	-10.65
丹陽	-10.6508
無窮	-10.6514
張華	-10.6518
江水	-10.6524
之理	-10.6524
氏之	-10.6526
日占	-10.6526
黄門	-10.6536
秋為	-10.6541
河北	-10.6541
天子乃	-10.6541
日照	-10.6552
樹髙	-10.6556
細雨	-10.6567
金銀	-10.6574
何為	-10.6584
於前	-10.6585
終身	-10.6587
一家	-10.6591
蜀人	-10.66
盆中	-10.6609
宫殿	-10.6628
心星	-10.663
改為	-10.6635
秋日	-10.6645
翰林院	-10.6657
三年九月	-10.6659
之属	-10.6663
白雪	-10.6667
九重	-10.6667
吞之	-10.6667
少年	-10.6674
之國	-10.6684
大樂	-10.6687
六百	-10.6688
而退	-10.6699
之故	-10.67
受之	-10.6709
四月初	-10.6712
一百二十	-10.6724
以助	-10.6727
大理	-10.6738
四年十一月	-10.6742
昨夜	-10.6744
正陽	-10.6746
暮夜	-10.6751
至午	-10.6754
禮官	-10.6763
自有	-10.6764
増晋書	-10.6768
人物	-10.6768
以充	-10.6781
人曰	-10.6782
夜深	-10.6795
長也	-10.6801
始於	-10.6805
以爲	-10.6807
以八月	-10.6809
大會	-10.6832
必得	-10.6838
三年五月	-10.6842
萬國	-10.6847
之状	-10.685
從此	-10.686
已生	-10.6872
文宗	-10.6875
農人	-10.6875
獻嵗	-10.6876
五里	-10.6877
光武	-10.6883
州郡	-10.6884
五聲	-10.6885
乃成	-10.6886
生也	-10.69
木香	-10.6909
所見	-10.6911
何人	-10.6915
香氣	-10.6915
之使	-10.6918
雲物	-10.6927
每夜	-10.6952
以避	-10.6954
白日	-10.6958
詔書	-10.696
當日	-10.6965
九寸	-10.6972
之術	-10.698
其人	-10.6987
既至	-10.6987
四十九	-10.6988
衆僧	-10.6994
江上	-10.7019
二年五月	-10.703
其𩔖	-10.7034
乃去	-10.7039
壇上	-10.7047
數里	-10.7049
増田家雜占	-10.705
内人	-10.7054
七百	-10.7057
雖有	-10.7064
睿	-10.7075
一行	-10.7094
冬寒	-10.7097
當用	-10.7105
潦	-10.7113
驗之	-10.7117
三年正月	-10.7121
明星	-10.713
使君	-10.7133
所宜	-10.714
大官	-10.7141
紅花	-10.7146
乾淳嵗時記	-10.7162
而大	-10.7165
立春詩	-10.717
卯酉	-10.7173
百日	-10.7177
西北風	-10.7181
帝京景物畧	-10.7181
臼	-10.7182
㤗	-10.719
鷺	-10.7196
霖	-10.7196
風流	-10.7197
拘	-10.7199
殺之	-10.7207
熈	-10.721
酷	-10.7211
蜃	-10.7213
渥	-10.7213
轂	-10.7214
纁	-10.7214
嬉	-10.7215
峭	-10.722
東京夢華錄	-10.722
獄訟	-10.7222
捉	-10.7223
甯	-10.7223
援	-10.7223
蔡邕	-10.7223
舫	-10.7224
十直齋日	-10.7225
熾	-10.7225
綯	-10.7227
萎	-10.7227
紛紛	-10.7227
政不失	-10.7227
滓	-10.7227
旭	-10.7227
劒	-10.7228
項	-10.7228
段	-10.7228
増家語	-10.7229
猗	-10.7229
㸑	-10.7229
箴	-10.723
萹	-10.723
諱	-10.7231
痩	-10.7231
詢	-10.7231
灑掃	-10.7231
邇	-10.7231
孝經緯	-10.7232
僖	-10.7232
擢	-10.7232
䋲	-10.7232
呂氏春秋	-10.7232
突	-10.7232
偹	-10.7232
榭	-10.7233
駭	-10.7233
劇	-10.7234
鬢	-10.7234
帆	-10.7234
濛	-10.7234
準	-10.7234
埃	-10.7234
蘓	-10.7234
奈	-10.7234
方盛	-10.7235
雨露	-10.7235
抄	-10.7236
鋒	-10.7236
陀	-10.7236
謝靈運	-10.7236
糴	-10.7236
熙寧	-10.7236
翹	-10.7236
淅	-10.7236
農家	-10.7236
爻	-10.7237
祈福	-10.7237
讌	-10.7237
耒	-10.7237
擘	-10.7237
京兆	-10.7237
挑	-10.7238
歉	-10.7238
膩	-10.7238
鎖	-10.7238
糓	-10.7238
榻	-10.7238
肄	-10.7238
閶闔	-10.7239
茟	-10.7239
増玉海皇祐	-10.7239
駢	-10.7239
葅	-10.724
驕	-10.724
闈	-10.724
畨	-10.724
覈	-10.7241
徃徃	-10.7241
鉢	-10.7241
增宋史	-10.7241
螽	-10.7241
涕	-10.7242
涌	-10.7242
山人	-10.7242
祈禱	-10.7242
貽	-10.7242
貂	-10.7242
専	-10.7243
蠢	-10.7243
戈	-10.7243
押	-10.7243
箱	-10.7243
鬛	-10.7243
棹	-10.7243
?	-10.7243
主旱	-10.7243
飈	-10.7244
幸玉津園	-10.7244
柯	-10.7244
噉	-10.7245
中和節	-10.7245
准	-10.7246
閙	-10.7246
繇	-10.7246
耦	-10.7246
屛	-10.7246
筋	-10.7246
麤	-10.7247
百餘里	-10.7247
嚼	-10.7247
洎	-10.7247
癸酉	-10.7247
溉	-10.7248
内出	-10.7248
歐陽修	-10.7249
四門	-10.7249
壬申	-10.7249
榛	-10.725
隰	-10.725
増紀厯撮要	-10.725
乙亥	-10.725
皂	-10.725
忩	-10.7251
宏	-10.7252
萃	-10.7252
柑	-10.7252
墾	-10.7253
釋奠	-10.7254
增羣芳譜	-10.7254
舍利	-10.7254
侈	-10.7254
朴	-10.7255
替	-10.7257
羅浮	-10.7257
波斯國	-10.7259
幘	-10.7259
辛酉	-10.7259
仲春之月	-10.726
李商隠	-10.7262
模	-10.7262
筠	-10.7262
誕辰	-10.7263
夙夜	-10.7263
節度使	-10.7263
貉	-10.7264
日月星辰	-10.7264
効	-10.7265
贏	-10.7265
癸未	-10.7265
最佳	-10.7267
豫章	-10.7267
竹筍	-10.7267
司農	-10.7268
鐘鼓	-10.7268
益州	-10.7269
増隋書禮儀志	-10.7269
乗輿	-10.7269
聴	-10.727
閉蔵	-10.727
收斂	-10.727
鄉里	-10.7273
増吕氏春秋	-10.7273
屏風	-10.7274
角亢	-10.7275
無疆	-10.7277
松柏	-10.7278
㑹稽	-10.7278
數寸	-10.7279
牛羊	-10.7282
原齊民要術	-10.7287
田獵	-10.7288
大酺	-10.7289
也夏小正曰	-10.729
二至	-10.729
增漢書律歴志	-10.7292
夏至之日	-10.7293
張衡	-10.7293
李白	-10.7294
江湖	-10.7294
乾坤	-10.7295
律厯	-10.7297
乙卯	-10.7298
増山海經	-10.7299
為春	-10.7299
眀堂	-10.7301
辛未	-10.7301
孝經緯曰	-10.7303
五官	-10.7303
枝條	-10.7303
斗指	-10.7304
變化	-10.7305
而斗建	-10.7305
為佳	-10.7308
往来	-10.731
少卿	-10.7317
真宗	-10.7318
祖宗	-10.7318
正月朔	-10.732
賔主	-10.7322
百榖	-10.7323
増韓愈	-10.733
亦得	-10.7331
千歲	-10.7337
記云	-10.7339
青蒿	-10.7342
雲霧	-10.7343
大小麥	-10.7344
賦序	-10.7344
霜露	-10.7345
辰戌	-10.7346
月之卦也	-10.7346
七夕詩	-10.7349
七年九月	-10.7352
無私	-10.7354
不禁	-10.7356
五品	-10.7361
十卷	-10.7368
大閲	-10.7371
五百里	-10.7372
及第	-10.7374
探春	-10.7376
一曲	-10.7378
澄清	-10.7383
七十二日	-10.7392
晏子	-10.74
黄氣	-10.7415
享先	-10.7415
花木	-10.7422
日沒	-10.7427
未至	-10.7434
如願	-10.744
六甲	-10.7441
之職	-10.7445
之前	-10.7447
也淮南子	-10.7453
羣官	-10.7453
積雪	-10.7454
東海	-10.7454
不畏	-10.746
於南郊	-10.7461
明旦	-10.7461
三統	-10.7463
史官	-10.7464
同時	-10.7464
在外	-10.7465
好學	-10.7474
青鳥	-10.7477
父子	-10.7478
還家	-10.7485
樓下	-10.7487
長養	-10.7497
成功	-10.7498
元武	-10.7498
正義	-10.7503
黄河	-10.7503
白衣	-10.7504
白帝	-10.7504
黄衣	-10.7506
化成	-10.7508
曰某	-10.7512
謁者	-10.7519
王建	-10.7519
不問	-10.752
所造	-10.7522
春鳥	-10.7523
迎陽	-10.7523
自後	-10.7526
太嵗	-10.7527
四年正月	-10.7529
秋蘭	-10.753
殺氣	-10.7537
太官	-10.7541
閏法	-10.7547
數年	-10.7548
亭午	-10.7548
莭氣	-10.7552
暑熱	-10.7552
北陸	-10.7553
小人	-10.7558
神女	-10.7566
春草	-10.7567
諸國	-10.7573
尺五寸	-10.7577
其母	-10.7578
祀之	-10.7581
常服	-10.7605
與天	-10.7607
一斤	-10.7614
半夏	-10.7617
百物	-10.762
金玉	-10.7637
紫花	-10.7641
一更	-10.7643
暮春	-10.7643
聞其	-10.7649
隆冬	-10.7656
出郊	-10.7657
冬十月	-10.766
六寸	-10.766
花實	-10.7661
車騎	-10.7668
使民	-10.7669
萬方	-10.7669
俗云	-10.7683
生而	-10.7685
一篇	-10.7688
𩔖也	-10.7689
宮中	-10.7692
有紫	-10.7692
壬癸	-10.7694
曰今日	-10.7695
去地	-10.7697
至正	-10.7701
太原	-10.7708
所進	-10.7709
君王	-10.7723
百錢	-10.7723
與諸	-10.7724
戌時	-10.7725
其性	-10.773
不寒	-10.7746
至夏	-10.7749
一大	-10.775
不受	-10.7763
布政	-10.7764
去其	-10.7765
閏十二月	-10.7776
時政	-10.7776
知之	-10.7777
春者	-10.7798
刑部	-10.7805
百二十	-10.7814
春牛	-10.7822
細如	-10.7828
貯之	-10.7831
閏九月	-10.7833
四五月	-10.7836
夜燈	-10.7839
牲以	-10.7845
未知	-10.7846
三秋	-10.7852
八月九月	-10.7854
先後	-10.7868
之狀	-10.7869
五夜	-10.787
觀書	-10.788
青陽	-10.7888
井水	-10.7892
七月熟	-10.7897
月詩	-10.7899
月明	-10.7904
九年十一月	-10.7907
忽見	-10.7911
生萬物	-10.7921
月七日	-10.7921
無定	-10.7928
雲開	-10.7929
一室	-10.7931
舊制	-10.7936
冬青	-10.7945
夏氣	-10.795
以通	-10.7954
金石	-10.7971
靈山	-10.7973
月上	-10.7976
天神	-10.7986
月祭	-10.799
七寸	-10.8012
史臣	-10.8013
國朝	-10.8016
則以	-10.8024
正見	-10.8026
於四時	-10.8027
白馬	-10.8032
蔀	-10.8032
一百八	-10.8033
正月二日	-10.8035
西山	-10.8036
肅宗	-10.8044
大師	-10.8058
食貨志	-10.8101
行人	-10.8107
其風	-10.8109
之戲	-10.8119
洗之	-10.812
淳熙	-10.8128
門内	-10.814
有徳	-10.8141
馬射	-10.8154
每年	-10.8158
至八月	-10.8158
東作	-10.8161
不去	-10.8162
召輔臣	-10.8176
之道也	-10.8179
占曰	-10.8199
呵	-10.8205
釘	-10.8205
雹	-10.8208
屠蘇	-10.8208
山海經	-10.8209
鼈	-10.8209
今月	-10.8209
氏掌	-10.821
鳧	-10.8213
塾	-10.8214
寘	-10.8216
誡	-10.8217
馥	-10.8217
增續文獻通考	-10.8217
域	-10.8218
梓	-10.8219
攷	-10.8219
旣	-10.822
㓂	-10.8221
尅	-10.8221
牟	-10.8222
撤	-10.8223
掠	-10.8223
鹵簿	-10.8223
不應	-10.8223
臍	-10.8224
増宋㑹要	-10.8224
苐	-10.8224
牒	-10.8224
贄	-10.8225
欺	-10.8225
増論衡	-10.8225
原感應篇	-10.8226
噴	-10.8226
駿	-10.8227
糾	-10.8227
増列子	-10.8227
增農政全書	-10.8227
菉豆	-10.8228
釜	-10.8228
禺	-10.8228
鼉	-10.8228
茗	-10.8229
謬	-10.8229
賑	-10.8229
原列子	-10.8229
羡	-10.823
譯	-10.823
窓	-10.8231
辦	-10.8231
鞏	-10.8231
牘	-10.8231
倪	-10.8232
梯	-10.8232
増月令章句自	-10.8232
苧	-10.8233
闇	-10.8233
增田家五行	-10.8233
耒耜	-10.8233
銓	-10.8233
罕	-10.8233
叶	-10.8234
冩	-10.8234
傲	-10.8234
茫	-10.8234
皺	-10.8235
燿	-10.8235
卽	-10.8235
肌	-10.8235
笳	-10.8236
弓矢	-10.8236
餻	-10.8236
乙巳	-10.8236
𥜗	-10.8236
恠	-10.8236
栖	-10.8237
搜神記	-10.8237
滕	-10.8237
泝	-10.8237
猫	-10.8237
完	-10.8237
千畝	-10.8238
洒	-10.8238
盂蘭盆	-10.8238
槃	-10.8238
弛	-10.8239
馨	-10.8239
軿	-10.8239
酎	-10.8239
増玉海雍熙	-10.8239
増曲洧舊聞	-10.8239
臟	-10.8239
焰	-10.824
河豚	-10.824
懽	-10.824
一日一夜	-10.8241
増汜勝之書	-10.8241
楹	-10.8241
召近臣	-10.8241
縱横	-10.8241
貝	-10.8241
甃	-10.8242
増東京夢華録	-10.8242
喪	-10.8243
梳	-10.8243
貪	-10.8243
少皥	-10.8243
匀	-10.8243
虢	-10.8243
原禮天子居	-10.8243
梅堯臣	-10.8244
蠱	-10.8244
蹕	-10.8244
技	-10.8244
釡	-10.8244
叅	-10.8245
五品以上	-10.8245
樞密	-10.8245
漢舊儀	-10.8245
祛	-10.8245
鷄	-10.8245
樣	-10.8245
機杼	-10.8245
邢	-10.8247
瀝	-10.8247
泛舟	-10.8247
束帛	-10.8247
姜	-10.8247
鴿	-10.8248
增宋史禮志	-10.8248
偷	-10.8248
蒂	-10.8248
原梁元帝纂要	-10.8249
庚辛	-10.8249
鬰	-10.825
郁	-10.8251
増元史	-10.8251
楷	-10.8251
蛛	-10.8252
國史補	-10.8252
文宣王	-10.8252
渙	-10.8252
丙丁	-10.8252
險	-10.8253
悽	-10.8254
師曠	-10.8254
娯	-10.8254
班固	-10.8254
鯉魚	-10.8254
孛	-10.8254
校尉	-10.8255
盜	-10.8255
驟	-10.8256
祠后土	-10.8256
江淹	-10.8256
梟	-10.8257
原楚辭	-10.8257
各有差	-10.8257
自此始	-10.8257
煎湯	-10.8258
篩	-10.8258
椰	-10.8259
增唐會要	-10.826
梨園	-10.826
袋	-10.826
櫟	-10.8261
圈	-10.8263
砧	-10.8263
両	-10.8264
澇	-10.8264
集說	-10.8265
戊申	-10.8265
天下太平	-10.8266
六年十一月	-10.8266
參差	-10.8267
戴勝	-10.8267
味辛	-10.8268
節氣	-10.8269
呪	-10.827
榴花	-10.8271
原春秋繁露	-10.8271
増三禮義宗	-10.8271
周書時訓曰	-10.8272
蔓延	-10.8273
苦菜	-10.8273
元和志	-10.8278
増通考	-10.8284
供奉	-10.8286
顔色	-10.8288
増名醫别録	-10.8293
蔡𫝊	-10.8299
通考	-10.8299
社前	-10.8301
百辟	-10.8302
增周禮	-10.8302
四年九月	-10.8302
不可勝	-10.8302
為上時	-10.8304
由是	-10.8304
大悦	-10.8305
集賢	-10.8306
世祖	-10.8308
和風	-10.8309
五岳	-10.831
文帝紀	-10.8311
大衍	-10.8313
土中	-10.8313
從容	-10.832
入見	-10.8322
龍眼	-10.8323
中丞	-10.8324
四維	-10.8325
武陵	-10.8327
桓公	-10.833
羣飛	-10.8332
東壁	-10.8335
西湖	-10.8336
最宜	-10.8337
眀日	-10.834
前代	-10.8341
所出	-10.8341
暴雨	-10.8344
説文	-10.8345
大呂	-10.8348
靈臺	-10.8349
或作	-10.8349
殿庭	-10.8352
授衣	-10.8356
今嵗	-10.8359
合歡	-10.836
和元年	-10.8361
沙門	-10.8364
最先	-10.8365
清暑	-10.8365
制度	-10.8366
新茶	-10.8367
火樹	-10.8368
河朔	-10.8373
客至	-10.8376
教之	-10.8381
而祭之	-10.8386
芳草	-10.8386
新羅	-10.8388
奏請	-10.8392
既望	-10.8393
太極殿	-10.8399
牛馬	-10.8404
赤豆	-10.8404
四年四月	-10.8409
北齊	-10.8415
不通	-10.8419
初秋	-10.842
周易	-10.8425
早起	-10.8427
猶未	-10.8436
以給	-10.844
正朔	-10.8451
執事	-10.8452
又作	-10.8454
目為	-10.8456
在亥	-10.8456
星居	-10.8463
晴明	-10.8464
千萬	-10.8473
防風	-10.8476
先聖	-10.8478
邑人	-10.8483
四月五月	-10.8484
二年二月	-10.8485
尺許	-10.8486
二十二	-10.8493
節度	-10.851
五政	-10.8512
凄	-10.8515
十萬	-10.8522
徳也	-10.8528
祭神	-10.8532
各以其	-10.8534
青女	-10.854
百五十	-10.8543
形似	-10.8548
夜行	-10.8552
正月三日	-10.8555
此為	-10.8561
其徳	-10.8573
行漏	-10.8573
未時	-10.8587
改正	-10.8589
増書	-10.859
懐詩	-10.8594
夜視	-10.86
本朝	-10.8605
其旁	-10.8605
燒之	-10.8605
與日	-10.8607
吏部	-10.8609
先以	-10.8619
退而	-10.862
五味	-10.8639
許之	-10.864
月行	-10.8641
楊梅	-10.8647
答曰	-10.8649
夏六月	-10.8653
公田	-10.8655
更相	-10.8661
進酒	-10.8664
而鳴	-10.8674
疏言	-10.8682
依舊	-10.869
日精	-10.8695
所載	-10.8699
朝會	-10.8704
徳言	-10.8704
以五月五日	-10.8707
星月	-10.8722
節物	-10.8723
中外	-10.8732
元年十月	-10.8734
自古	-10.8735
十有二月	-10.8735
増隋書	-10.8737
淮南子注	-10.8752
而罷	-10.8753
井中	-10.876
觀酺	-10.878
春光	-10.8784
開元二	-10.8787
之要	-10.8791
六七月	-10.8795
即是	-10.8815
廟在	-10.8816
園中	-10.8816
應節	-10.8824
之政	-10.8829
太公	-10.8831
當年	-10.8835
以禳	-10.8837
兵部	-10.8838
以禦	-10.8848
於大	-10.8849
舟中	-10.8856
過此	-10.8859
青雲	-10.8861
金蓮	-10.8864
常山	-10.8882
焉其	-10.8883
法酒	-10.8889
可以為	-10.8892
十五夜	-10.8896
帝王	-10.8905
大明	-10.8906
不解	-10.8914
及諸	-10.8915
味如	-10.8916
三月中	-10.8917
海水	-10.8926
正西	-10.893
自生	-10.893
上公	-10.893
盛長	-10.8935
臨水	-10.8944
元君	-10.8951
荅曰	-10.8955
皆得	-10.8961
凉風	-10.8977
一聲	-10.8995
也物	-10.8997
故言	-10.9006
不利	-10.9006
以飬	-10.9018
御定月令輯要卷十	-10.9019
二月十五日	-10.9044
平原	-10.9045
極星	-10.9046
乙夘	-10.9067
堂前	-10.9072
正當	-10.9072
已下	-10.9091
鼓吹	-10.9096
過則	-10.9107
至期	-10.9132
得金	-10.9138
九月初	-10.9141
南面	-10.9146
行宫	-10.9153
朝陽	-10.9167
天徳	-10.917
少時	-10.9176
紅白	-10.9177
赤光	-10.9178
入内	-10.9182
眀皇	-10.9183
朔旦冬至	-10.9196
國史	-10.9198
其光	-10.9202
淮南子	-10.9208
丁夘	-10.9216
在京	-10.9219
應時	-10.9224
文王	-10.923
原周禮天官	-10.9232
不動	-10.9235
城中	-10.9236
因名	-10.9237
七十六	-10.9265
非時	-10.9265
七分	-10.9267
生長	-10.9269
褒	-10.927
第四	-10.9275
篴	-10.9276
宋史禮志	-10.9277
鳸	-10.9282
翫	-10.9289
天帝	-10.929
誕日	-10.9291
風景	-10.9298
唐六典	-10.9303
肯	-10.9306
鴽	-10.9307
增選擇歴書	-10.9308
鋭	-10.9312
在内	-10.9314
黔	-10.9314
麵	-10.9315
夙	-10.9316
􁀥	-10.9318
榴	-10.9319
欽定四庫全書御定月令輯要卷十	-10.9321
薫	-10.9321
翦	-10.9321
蛀	-10.9322
縚	-10.9322
凱	-10.9323
奏樂	-10.9323
爇	-10.9324
韓琦	-10.9324
弹	-10.9325
豎	-10.9327
滎陽	-10.9327
縹	-10.9327
虵	-10.9328
四十五日	-10.9328
欵	-10.9328
牋	-10.9329
增名勝志	-10.933
誇	-10.933
漾	-10.933
恣	-10.9331
腊	-10.9331
禰	-10.9331
軾	-10.9331
誥	-10.9332
皎	-10.9333
倩	-10.9333
鑚	-10.9333
蔴	-10.9333
漢時	-10.9334
麞	-10.9334
昧爽	-10.9335
元史祭祀志	-10.9335
祓	-10.9335
窖	-10.9335
鷗	-10.9335
嘲	-10.9336
矜	-10.9337
原酉陽雜爼	-10.9337
撥	-10.9337
迥	-10.9337
暝	-10.9338
桶	-10.9338
塩	-10.9338
償	-10.9338
王羲之	-10.9338
島	-10.9338
龕	-10.9339
增四民月令	-10.9339
娶	-10.9339
欝	-10.9339
楸	-10.934
忍	-10.934
攜	-10.934
七尺	-10.9341
原宋史	-10.9341
曹植	-10.9341
天尊詳見	-10.9341
謳	-10.9341
㳟	-10.9341
敲	-10.9341
啟蟄	-10.9341
覔	-10.9341
頴	-10.9341
䟦	-10.9341
磧	-10.9341
辱	-10.9342
啄	-10.9342
着	-10.9342
幟	-10.9342
璽	-10.9343
薯	-10.9343
庠	-10.9344
增玉海紹興	-10.9344
慨	-10.9344
陜	-10.9344
襪	-10.9344
囿	-10.9345
橛	-10.9345
増後漢書明帝紀永平	-10.9345
鳬	-10.9345
六度	-10.9345
庚午	-10.9346
祿	-10.9346
諤	-10.9346
賞花釣魚	-10.9346
較	-10.9346
蘿蔔	-10.9346
繚	-10.9346
眺	-10.9347
袖	-10.9347
長尺餘	-10.9347
袴	-10.9347
氛	-10.9347
懿	-10.9347
穉	-10.9348
瓊林苑	-10.9348
緡	-10.9348
夹	-10.9348
逃	-10.9348
慿	-10.9349
蜻	-10.9349
陽雲出	-10.9349
殖	-10.9349
鶻	-10.9349
焙	-10.9349
迤	-10.9349
爼	-10.935
也位於	-10.935
惲	-10.935
恕	-10.935
爆	-10.9351
增夢溪筆談	-10.9351
戾	-10.9351
搖	-10.9351
榆莢	-10.9351
膺	-10.9352
麯	-10.9352
偉	-10.9352
綏	-10.9352
紙筆	-10.9352
枳	-10.9352
移栽	-10.9352
𦂳	-10.9352
増李尤	-10.9352
暘	-10.9352
瓢	-10.9352
尸	-10.9353
猷	-10.9353
醜	-10.9353
揉	-10.9353
伍	-10.9353
鑰	-10.9353
蓐	-10.9354
四時纂要	-10.9354
増隋書天文志	-10.9354
增埤雅	-10.9354
搆	-10.9354
太常卿	-10.9354
麻姑	-10.9355
淒	-10.9355
井花水	-10.9355
天倉開	-10.9356
中書門下	-10.9356
穹	-10.9356
少昊	-10.9356
戮	-10.9356
漕	-10.9356
仲冬之月	-10.9356
閼	-10.9356
泠	-10.9356
沿	-10.9356
遨	-10.9356
朔日值	-10.9356
弁	-10.9356
枉	-10.9356
十二度	-10.9356
巒	-10.9357
琯	-10.9357
増齊民要術崔寔曰	-10.9357
爍	-10.9357
蔚	-10.9357
潁	-10.9358
纂要曰	-10.9358
醇	-10.9358
譽	-10.9358
崔憬曰	-10.9358
春夏秋冬	-10.9358
秃	-10.9358
囀	-10.9358
敘	-10.9359
槌	-10.9359
鴛鴦	-10.9359
鉦	-10.9359
四瀆	-10.936
數尺	-10.936
吿	-10.936
頼	-10.936
郝	-10.936
之節初五日	-10.9361
后稷	-10.9361
葺	-10.9361
日初出	-10.9361
鵲巢	-10.9362
垢	-10.9362
月令天道月卦	-10.9362
承㫖	-10.9362
逕	-10.9362
賓	-10.9363
蔣	-10.9363
漠	-10.9363
杳	-10.9364
左旋	-10.9364
暍	-10.9364
増益部方物畧記	-10.9364
鯨	-10.9365
増避暑録話	-10.9365
幃	-10.9365
恊	-10.9365
遯	-10.9366
椀	-10.9366
吹笙	-10.9366
詔褒	-10.9366
岫	-10.9366
増師曠占	-10.9366
上生	-10.9367
孳	-10.9367
僊	-10.9368
測景	-10.9368
獺祭魚	-10.9368
丙申	-10.9368
祓除	-10.9368
晟	-10.9369
孜	-10.9369
澍	-10.9369
灾	-10.9369
陸游	-10.9371
祓禊	-10.9371
増遵生八牋	-10.9372
衷	-10.9373
顒	-10.9373
僕射	-10.9373
行春令	-10.9373
水嬉	-10.9373
騶	-10.9373
秤	-10.9373
句芒	-10.9374
増輟耕録	-10.9374
三四尺	-10.9375
裝	-10.9375
茅君	-10.9376
皥	-10.9376
鷹隼	-10.9377
侍講	-10.9378
嵩山	-10.9378
梢	-10.9379
司天監	-10.9379
存問	-10.9379
司馬光	-10.938
㠯	-10.9381
鱠	-10.9381
无	-10.9383
池塘	-10.9383
粳	-10.9384
章得象	-10.9385
居人	-10.9386
太康	-10.9388
御座	-10.9389
義倉	-10.9389
振旅	-10.9391
天寳遺事	-10.9391
増四民月令正月	-10.9391
列侯	-10.9392
枲	-10.9392
勤政樓	-10.9393
景福	-10.9393
之嵗曰	-10.9393
不肯	-10.9395
澤中	-10.9395
教坊	-10.9395
颶風	-10.9396
頃刻	-10.9396
原白虎通	-10.9397
縱觀	-10.9398
冬至之日	-10.9398
聖夀	-10.9399
女貞	-10.94
履端	-10.9401
士臣	-10.9402
貢士	-10.9404
純陽	-10.9404
慶雲見	-10.9405
四五尺	-10.9407
永嘉	-10.9407
因為	-10.9407
其精	-10.9408
為一端	-10.9408
應制詩	-10.9409
味苦	-10.941
㤗山	-10.941
以下皆	-10.9411
門之外	-10.9413
萬人	-10.9414
黄梅雨	-10.9416
少許	-10.9417
王褒	-10.9419
竹醉	-10.9419
皇考	-10.942
紫微	-10.9421
畦種	-10.9422
燈市	-10.9423
養蠶	-10.9424
凉風至	-10.9427
百鬼	-10.9427
月忌	-10.9428
蒸熟	-10.9428
雨打	-10.9428
判官	-10.943
為中時	-10.9431
五分	-10.9433
黑色	-10.9435
月月令曰	-10.9435
侍宴	-10.9439
獻夀	-10.9441
百福	-10.9441
造化	-10.9443
真武	-10.9444
聲調	-10.9445
在地中	-10.9448
内侍	-10.945
丁未	-10.9455
天河	-10.9459
每遇	-10.9462
名之曰	-10.9463
石湖	-10.9463
杜陽	-10.9465
崇文	-10.9465
永平	-10.9466
取汁	-10.9467
輕重	-10.9472
宴射	-10.9474
八音	-10.9474
滿城	-10.9476
水晶宫	-10.9483
歳首	-10.9486
玉輅	-10.9487
穀雨	-10.9489
改用	-10.949
唐制	-10.949
治兵	-10.9498
雷聲	-10.9501
四孟	-10.9505
永明	-10.9505
甚盛	-10.9505
漢書食貨志	-10.9506
夏雲	-10.9508
三十二	-10.9509
登歌	-10.9513
諸司	-10.9516
黄梅	-10.9522
年豐	-10.9525
大赦	-10.9531
聖徳	-10.9531
長沙	-10.9534
宴飲	-10.9537
律中黄鍾	-10.9539
宋玉	-10.9546
相呼	-10.9546
城縣	-10.9547
玉露	-10.9547
其味	-10.9548
桂子	-10.9552
御定月令輯要卷	-10.9553
冬𤓰	-10.9556
奉詔	-10.957
從祀	-10.9578
不忘	-10.9578
初吉	-10.9587
玉泉	-10.9587
紅色	-10.9591
子丑	-10.9594
奉和	-10.9596
人心	-10.9599
城北	-10.9602
曰昔	-10.9603
彭城	-10.9603
長夀	-10.9604
靈芝	-10.961
元年二月	-10.9616
一遍	-10.9617
腹中	-10.9623
雷雨	-10.9624
北辰	-10.9637
嘗新	-10.964
丑時	-10.9641
古法	-10.9644
上弦	-10.9648
羞以	-10.9654
何必	-10.9663
夕陽	-10.9664
五斗	-10.9665
低田	-10.9671
雲漢	-10.9675
神宗	-10.9678
歸家	-10.9678
十月一日	-10.9683
甚多	-10.9683
道路	-10.9696
水澆	-10.9699
清和	-10.97
則知	-10.9703
百合	-10.9705
右行	-10.971
御前	-10.971
巳午	-10.971
千官	-10.9716
侍從	-10.9718
安公	-10.972
春盤	-10.9731
禁令	-10.9734
増唐㑹要貞觀	-10.9738
天統	-10.9745
時務	-10.9747
上計	-10.9755
甲子日	-10.9758
未必	-10.976
國獻	-10.9767
道人	-10.9772
其莖	-10.9773
十天	-10.9777
二升	-10.9782
貴人	-10.9782
張燈	-10.9782
四象	-10.9783
朝獻	-10.9809
以防	-10.9811
熟食	-10.9814
在位	-10.9814
歳除	-10.9817
户部	-10.9829
得此	-10.983
悉以	-10.9832
五嵗	-10.984
選人	-10.9841
故稱	-10.9844
猶在	-10.9846
埋之	-10.9876
如此者	-10.9877
相應	-10.9883
不祥	-10.9887
增易	-10.9892
後魏	-10.9893
青青	-10.9894
品以	-10.99
農桑	-10.9905
異香	-10.9934
諸道	-10.9935
五升	-10.9951
遣使者	-10.9957
成萬物	-10.9967
髙年	-10.9976
一次	-10.9985
隨月	-10.9985
春秋分	-10.9986
三年春	-10.9994
寅時	-10.9997
午夜	-11.0008
増乾淳歳時記	-11.0015
從事	-11.002
一晝夜	-11.0021
是夕	-11.0036
代宗	-11.004
懐中	-11.0058
丈夫	-11.0067
増唐㑹要貞觀十	-11.007
至暮	-11.0087
地黄	-11.009
寸許	-11.0105
禮成	-11.0105
年少	-11.0106
臣王	-11.0106
日暈	-11.0108
此鳥	-11.0108
内火	-11.0119
騎士	-11.0123
得名	-11.0125
増蘇軾詩	-11.0141
立秋後	-11.0184
世人	-11.0194
月餘	-11.0205
十有一	-11.0209
桃仁	-11.021
郡第	-11.0221
能知	-11.0224
人力	-11.0243
凡此	-11.0271
始開	-11.0272
正是	-11.0275
限以	-11.0279
至曉	-11.0287
清明前	-11.0304
兒女	-11.0315
象閏	-11.0332
秋三月	-11.0334
三年二月	-11.0343
也䟽	-11.0352
葉落	-11.0367
則鳴	-11.0368
宣武	-11.037
故知	-11.0382
外國	-11.0394
白石	-11.0404
原禮孟	-11.0408
十二律	-11.0459
四月一日	-11.0464
二十九	-11.0509
兖州	-11.051
原拾遺記	-11.0512
二十六	-11.0517
吕氏春秋	-11.0528
陶朱公書	-11.0535
唐書百官志	-11.0536
猨	-11.0542
昊	-11.0545
增國語	-11.0549
訊	-11.0549
在辰	-11.0551
丑未	-11.0553
鯽	-11.0553
闐	-11.0555
沴	-11.0556
盝	-11.0557
覿	-11.0566
禀	-11.0567
甄	-11.0567
惰	-11.0569
豚	-11.0569
蠡海集	-11.057
旨	-11.0571
四年六月	-11.0571
贖	-11.0571
陋	-11.0572
疲	-11.0573
増梁書	-11.0573
刼	-11.0574
増周禮地官	-11.0575
酋	-11.0576
跨	-11.0577
未央宫	-11.0577
沫	-11.0577
壘	-11.0578
麝	-11.0578
孟嘗君	-11.0579
棉	-11.0579
三禮義宗	-11.0579
奚	-11.058
洩	-11.058
閎	-11.058
麾	-11.0581
絞	-11.0581
陸㳺	-11.0581
岱	-11.0582
曷	-11.0582
沆	-11.0582
尹氏	-11.0582
綜	-11.0582
農隙	-11.0582
椘	-11.0582
逝	-11.0583
望春亭	-11.0583
艷	-11.0584
宋之問	-11.0584
貳	-11.0584
瀘	-11.0584
霸	-11.0585
彰	-11.0585
喙	-11.0585
幢	-11.0585
迄	-11.0586
増乾淳嵗時記元夕	-11.0586
渇	-11.0586
溽暑	-11.0586
慚	-11.0587
曦	-11.0587
梔	-11.0587
緩急	-11.0587
遭	-11.0588
沼	-11.0589
伎	-11.0589
壞	-11.0589
周益公日記	-11.0589
紵	-11.0589
囂	-11.0589
恬	-11.0589
炷	-11.0589
夹鍾	-11.059
藩	-11.059
溲	-11.059
陕	-11.059
茯苓	-11.059
棠	-11.0591
䘮	-11.0591
原周禮地官	-11.0591
彗	-11.0591
睛	-11.0591
汐	-11.0591
増楊升菴集	-11.0591
増食譜張手美	-11.0592
託	-11.0592
挹	-11.0592
椹	-11.0593
諡	-11.0593
㝎	-11.0593
永徽	-11.0593
百卉	-11.0593
玉璽	-11.0593
萋萋	-11.0593
蒺藜	-11.0593
郞	-11.0593
劭	-11.0593
禅	-11.0593
蠡	-11.0593
原道經	-11.0594
顥	-11.0594
暎	-11.0594
臭	-11.0594
原羣芳譜	-11.0595
訴	-11.0595
通政使司	-11.0595
冠冕	-11.0595
匣	-11.0595
趂	-11.0595
濫	-11.0595
笠	-11.0595
原千金月令	-11.0596
宋史職官志	-11.0596
瞿	-11.0596
彪	-11.0597
狹	-11.0597
晒	-11.0597
澡	-11.0597
魚鼈	-11.0597
九成宫	-11.0597
嵌	-11.0597
岩	-11.0597
蹟	-11.0597
誌	-11.0598
醸酒	-11.0598
莢	-11.0598
寃	-11.0599
廉	-11.0599
翰墨	-11.0599
三年一閏	-11.0599
誨	-11.0599
顕	-11.0599
伏羲	-11.0599
縠	-11.0599
个	-11.0599
贍	-11.0599
謝朓詩	-11.0599
稽首	-11.0599
茲	-11.0599
荻	-11.0599
穄	-11.06
杜牧	-11.06
後漢書章帝紀建初	-11.06
摧	-11.06
仇	-11.06
濾	-11.06
袒	-11.0601
籃	-11.0601
彫	-11.0601
摹	-11.0601
煌	-11.0601
頸	-11.0601
廓	-11.0601
曼	-11.0601
摭	-11.0602
朽	-11.0602
蕪菁	-11.0602
逓	-11.0602
求遺書	-11.0602
媪	-11.0602
耿	-11.0602
漂	-11.0602
増玉海慶厯	-11.0603
逖	-11.0603
杏仁	-11.0604
轝	-11.0604
罏	-11.0604
藿	-11.0604
詎	-11.0604
盌	-11.0604
滛	-11.0604
禎	-11.0604
卭	-11.0604
瘞	-11.0604
詹	-11.0604
怡	-11.0604
恢	-11.0605
孚甲	-11.0605
溝瀆	-11.0605
葫蘆	-11.0605
眩	-11.0605
辜	-11.0605
澣	-11.0606
硬	-11.0606
嶺表錄異	-11.0606
棘	-11.0606
射干	-11.0606
飮	-11.0606
筯	-11.0606
徐鉉	-11.0607
増事物紀原	-11.0607
雌雄	-11.0607
偽	-11.0608
如彈丸	-11.0608
昳	-11.0608
泰畤	-11.0608
竪	-11.0608
橡	-11.0608
渭濵	-11.0609
峙	-11.0609
元嘉二十	-11.0609
纓	-11.0609
揆	-11.0609
麋角	-11.061
晏殊	-11.061
梭	-11.061
増政和本草	-11.061
鹿角	-11.061
瞽	-11.061
飛白書	-11.061
反舌無聲	-11.061
城隍	-11.0611
餔	-11.0611
靛	-11.0611
金木水火	-11.0611
竈神	-11.0612
増清異録	-11.0612
籖	-11.0612
甑	-11.0612
慢	-11.0612
荼	-11.0612
廿	-11.0612
斾	-11.0612
芬	-11.0613
增名醫别錄	-11.0613
原續文獻通考	-11.0613
南薰	-11.0613
𠖇	-11.0614
粱	-11.0614
缸	-11.0614
碁	-11.0614
睦	-11.0614
褰	-11.0615
増玉海崇寧	-11.0615
鶉火	-11.0615
淸	-11.0615
朒	-11.0616
陪位	-11.0616
杲	-11.0616
侣	-11.0616
婺	-11.0616
惑	-11.0617
天貺	-11.0617
栁絮	-11.0617
天門冬	-11.0617
秔	-11.0617
擕	-11.0617
夾鍾	-11.0618
菩	-11.0618
供帳	-11.0618
浚	-11.0618
計偕	-11.0618
鬭雞	-11.0618
原逸周書	-11.0619
野蠶成繭	-11.0619
勘	-11.062
翎	-11.062
邕	-11.0621
増後漢書祭祀志	-11.0621
渡河	-11.0621
稗	-11.0621
之氣乘之也	-11.0622
曰卿	-11.0622
肴	-11.0623
筩	-11.0623
訶	-11.0623
颯	-11.0624
増楚辭	-11.0624
訛	-11.0624
増西湖志餘	-11.0625
原漢書律歴志	-11.0625
叱	-11.0626
城東南	-11.0627
獅子	-11.0627
丹鳳	-11.0627
祟	-11.0627
季月	-11.0628
禮部尚書	-11.0628
天寶遺事	-11.0628
原後漢書禮儀志	-11.0629
寅夘	-11.0629
肌膚	-11.0629
祀竈	-11.0629
丁卯	-11.063
滋味	-11.0631
冠帶	-11.0631
老翁	-11.0632
田租	-11.0633
洪武	-11.0633
元嘉十	-11.0634
秀才	-11.0634
詔曰朕	-11.0634
毛羽	-11.0637
増廣志	-11.0638
孔氏	-11.0638
夕牲	-11.0638
内庫	-11.0639
増開天遺事	-11.0639
麥秀	-11.0639
鰲山	-11.064
羽毛	-11.064
東嶽	-11.064
招搖指	-11.064
月建焉而辰在	-11.0641
戌亥	-11.0641
日昃	-11.0642
寺僧	-11.0642
漸漸	-11.0643
宣示	-11.0643
鴻雁	-11.0644
渾儀	-11.0644
原風土記	-11.0645
七年十二月	-11.0645
紫㣲	-11.0647
朱子注	-11.0647
雅樂	-11.0648
洗眼	-11.0649
射的	-11.0649
淮南子註	-11.065
太液池	-11.0651
祖考	-11.0651
望之如	-11.0651
桃符	-11.0651
申酉	-11.0652
舊儀	-11.0654
為下時	-11.0654
磚	-11.0654
臨川	-11.0654
集觧	-11.0656
執政	-11.0657
公權	-11.0657
慶厯	-11.066
直學士	-11.066
尤甚	-11.0662
黍米	-11.0663
講論	-11.0664
召對	-11.0666
昏眀	-11.0666
耳目	-11.0666
正月十四日	-11.0668
斗建	-11.0668
晷景	-11.067
放燈	-11.067
表裏	-11.0671
柏葉	-11.0672
髙麗	-11.0673
肅殺	-11.0674
日得壬	-11.0675
中書令	-11.0677
八十里	-11.0679
養老	-11.0682
白髪	-11.0682
圗經	-11.0686
凡四	-11.0691
雜録	-11.0693
地祗	-11.0693
不寐	-11.0694
相逢	-11.0696
西陸	-11.0697
一周天	-11.0698
男子	-11.0699
清明節	-11.0699
六尺	-11.0705
鄭公	-11.0707
相繼	-11.0707
茂盛	-11.0707
増玉海紹興十	-11.0709
三輔	-11.071
五年三月	-11.071
火災	-11.0714
歎曰	-11.0714
賜從官	-11.0716
唐書厯志	-11.0717
嵗終	-11.0718
方丈	-11.0719
咸通	-11.0719
軍士	-11.0719
王勃	-11.072
庭樹	-11.0728
行冬令	-11.0731
増齊民要術種	-11.0732
金龜	-11.0733
冰雪	-11.0737
交易	-11.0738
辰正	-11.0739
京官	-11.0741
因留	-11.0748
之至也	-11.0749
以灰	-11.075
賜百官	-11.0752
金鏡	-11.0754
五十里	-11.076
見東方	-11.0761
文昌	-11.0761
數百人	-11.0769
含笑	-11.0773
不厭	-11.0773
玉燭	-11.0774
仙女	-11.0774
増杜甫詩	-11.0774
如飴	-11.0778
古今注	-11.0783
秋風起	-11.0785
斗杓	-11.0787
乃罷	-11.0787
兩制	-11.079
雨多	-11.0791
飛鳥	-11.0796
増周禮	-11.0796
收藏	-11.08
未眀	-11.0801
月律謂之	-11.0802
待詔	-11.0804
書籍	-11.0804
浮雲	-11.0809
八莭	-11.0813
五年十月	-11.0818
春末	-11.0819
世家	-11.0822
佛寺	-11.0823
一片	-11.0824
地理	-11.0831
苦寒	-11.0832
三館	-11.0833
儀注	-11.0835
子由	-11.0837
不堪	-11.0839
百事	-11.0839
甘雨	-11.0841
八寸	-11.0844
頒行	-11.0845
俗𫝊	-11.0854
之數也	-11.0858
為茹	-11.0864
兩頭	-11.0866
三十餘	-11.0867
無忌	-11.0869
元會	-11.0874
閏十一月	-11.0878
羣神	-11.0881
書院	-11.0884
於太廟	-11.0892
舉家	-11.0893
誰能	-11.0894
頃之	-11.0895
之精也	-11.0898
金盤	-11.0898
髙廟	-11.09
梨花	-11.0902
文字	-11.0903
不測	-11.0903
主祠	-11.0908
牛酒	-11.0911
漢書武帝紀	-11.0923
二字	-11.0924
映日	-11.0928
音聲	-11.093
石室	-11.0934
二十八年	-11.0944
運行	-11.0945
是月也	-11.0952
三十年	-11.0954
安國	-11.0958
九日詩	-11.0964
海南	-11.097
度數	-11.0971
羣書	-11.0975
郊見	-11.098
人統	-11.0985
神異	-11.0996
恐其	-11.0999
二年七月	-11.1
穆宗	-11.1006
李公	-11.101
祠官	-11.1016
長史	-11.1018
御筆	-11.1033
孝子	-11.1035
極寒	-11.1049
赤氣	-11.1052
已過	-11.1052
終嵗	-11.1053
種禾	-11.1058
如絲	-11.1066
槐葉	-11.107
旬日	-11.107
和平	-11.1074
湖上	-11.1077
得之以	-11.1089
朔方	-11.1096
都下	-11.111
城外	-11.112
增宋書	-11.1124
生苗	-11.1124
武王	-11.1125
増唐詩紀事景龍	-11.1129
既成	-11.113
燈光	-11.113
四丈	-11.1133
有僧	-11.1153
昔有	-11.1157
百神	-11.1172
清香	-11.1172
稱其	-11.1172
榖貴	-11.1173
識者	-11.1175
原野	-11.1181
平明	-11.1191
正晝	-11.1194
中元日	-11.1194
月影	-11.12
増唐會要開元	-11.1209
種黍	-11.1216
所感	-11.1227
天晴	-11.1239
美人	-11.1243
沃之	-11.1244
州西	-11.1251
正月旦	-11.1252
増唐㑹要開元十	-11.1255
頗有	-11.1274
酺宴	-11.1287
者咸	-11.1303
二斗	-11.1307
根下	-11.1342
採桑	-11.136
四月四日	-11.136
生魄	-11.1377
爾雅翼	-11.1405
紅紫	-11.1409
八月一日	-11.1434
初伏	-11.1462
暑退	-11.1469
侍御	-11.1485
政教	-11.1542
正月二十日	-11.1543
九江	-11.1568
七年四月	-11.1576
芳春	-11.158
連山	-11.1586
清光	-11.1594
九月十月	-11.1613
庶人	-11.1646
北向	-11.1648
鴻鴈来	-11.1662
原田家雜占	-11.1665
州牧	-11.1676
所建	-11.1684
入貢	-11.1685
雖無	-11.171
皇城	-11.1727
三卷	-11.1828
増嵗華紀麗譜	-11.186
翰林院侍講	-11.1873
增史記天官書	-11.1914
豆粥	-11.1921
本草綱目	-11.1944
水晶	-11.1948
貺	-11.1958
御製夏日	-11.1965
扁鵲	-11.1974
増唐詩紀事	-11.1975
増周禮天官	-11.1983
墀	-11.1984
秋霖	-11.1984
燋	-11.1985
唐書禮樂志	-11.1988
叡	-11.1988
翰林院編修加	-11.1992
挈	-11.1992
鄉飲酒	-11.1995
做	-11.1998
李商隐	-11.1998
関	-11.1999
􁆸	-11.2
槁	-11.2
開封府	-11.2
沔	-11.2001
青城山	-11.2002
家塾事親	-11.2002
沍	-11.2002
蒻	-11.2002
周易集解	-11.2003
常參官	-11.2003
琳	-11.2003
肖	-11.2003
大合樂	-11.2003
滻	-11.2004
誘	-11.2004
沈佺期	-11.2004
瘧	-11.2004
增洞冥記	-11.2004
槍	-11.2005
逵	-11.2005
荇	-11.2005
寀	-11.2005
増宋書禮志	-11.2006
増漢書郊祀志	-11.2006
籞	-11.2007
袂	-11.2007
閻	-11.2007
貎	-11.2008
傑	-11.2008
寮	-11.2008
鼜	-11.2008
孺	-11.2009
警衆	-11.2009
椿	-11.2009
襦	-11.2009
蒲澗	-11.201
銖	-11.201
原隋書	-11.201
灸	-11.201
網罟	-11.2011
冡	-11.2011
徂	-11.2011
措	-11.2011
舟楫	-11.2011
撾	-11.2012
耽	-11.2012
鑪	-11.2012
釋迦	-11.2012
建寅之月	-11.2012
批	-11.2013
都鄙	-11.2013
嚥	-11.2013
睂	-11.2013
弭	-11.2013
俗呼	-11.2013
原事物紀原	-11.2014
増漢書文帝紀十	-11.2014
忻	-11.2014
扆	-11.2014
僧孺	-11.2014
絜	-11.2014
冉冉	-11.2015
曛	-11.2015
李昉	-11.2015
悔	-11.2015
盧橘	-11.2015
薰	-11.2016
攘	-11.2016
採蘭雜志	-11.2016
紈	-11.2016
溶	-11.2016
蹈	-11.2016
耆老	-11.2017
鴻臚	-11.2017
錦袍	-11.2017
増舊唐書百官志	-11.2017
絺	-11.2017
勵	-11.2017
姥	-11.2017
五嵗再閏	-11.2017
猜	-11.2017
増金史	-11.2018
庶㡬	-11.2018
麛	-11.2019
娛	-11.2019
祖禰	-11.2019
金華殿	-11.2019
洪範	-11.2019
杏園	-11.202
淋	-11.202
原易通卦驗	-11.202
淪	-11.202
恃	-11.202
鵬	-11.202
薙	-11.202
錬	-11.202
陶潜	-11.202
交趾	-11.202
嶠	-11.202
訾	-11.2021
佇	-11.2021
含元殿	-11.2021
知制誥	-11.2021
繆	-11.2022
増玉海乾道	-11.2022
兗	-11.2022
耨	-11.2022
原周禮秋官	-11.2022
謡	-11.2022
逡	-11.2023
笏	-11.2023
増漢書武帝紀元封	-11.2023
麟徳殿	-11.2023
羯鼓	-11.2023
評	-11.2023
醖	-11.2023
宋史河渠志	-11.2023
太液	-11.2024
譬	-11.2024
悵	-11.2024
潑	-11.2024
甌	-11.2024
筭	-11.2024
后妃	-11.2024
增水經注	-11.2024
雒	-11.2025
荆楚歳時記	-11.2025
桞	-11.2025
彤	-11.2025
氤氲	-11.2025
咒	-11.2025
鄂	-11.2025
鸞鳯	-11.2025
笥	-11.2025
舄	-11.2025
筌	-11.2025
卿大夫	-11.2025
園囿	-11.2025
傅休奕	-11.2025
浴佛	-11.2026
鎔	-11.2026
礙	-11.2026
趾	-11.2026
瑒	-11.2026
鄭康成	-11.2026
煇	-11.2026
盗賊	-11.2026
橙	-11.2026
濬	-11.2026
籜	-11.2026
肢	-11.2026
波斯	-11.2026
剡	-11.2027
宫闕	-11.2027
木棉	-11.2027
増荆楚嵗時記	-11.2027
孤寡	-11.2027
斵	-11.2027
毌	-11.2027
纖	-11.2027
稭	-11.2027
苫	-11.2027
螳蜋	-11.2028
壚	-11.2028
籙	-11.2028
冨	-11.2028
昻	-11.2028
翮	-11.2028
蕙	-11.2028
桑椹	-11.2028
產	-11.2029
簧	-11.2029
㯽榔	-11.2029
麒麟	-11.2029
楠	-11.2029
憫	-11.2029
蛙	-11.2029
金明池	-11.2029
摸	-11.203
伏翼	-11.203
檐	-11.203
薺麥	-11.203
太常博士	-11.2031
原禮天子乃	-11.2031
律中無射	-11.2031
壟	-11.2031
睇	-11.2031
煩暑	-11.2031
苛	-11.2032
𡨕	-11.2032
原史記天官書	-11.2032
宋仁宗	-11.2032
恍	-11.2032
熖	-11.2032
裾	-11.2032
躡	-11.2032
原北史	-11.2032
太平御覽	-11.2032
眄	-11.2032
禊飲	-11.2032
杼	-11.2033
靄	-11.2033
册	-11.2033
澑	-11.2033
劵	-11.2033
飛昇	-11.2033
揀	-11.2033
箸	-11.2034
掇	-11.2034
續齊諧記	-11.2034
瀑	-11.2034
燦	-11.2034
遏	-11.2034
蜉	-11.2034
鍊	-11.2034
飱	-11.2034
坂	-11.2034
蹇	-11.2035
鵞	-11.2035
鏘	-11.2035
晨昏	-11.2035
琢	-11.2035
唐書歴志	-11.2035
赭	-11.2035
庾肩吾詩	-11.2035
奕	-11.2036
綸	-11.2036
鸞鳳	-11.2036
蒋	-11.2036
瓤	-11.2036
秉燭	-11.2037
禜	-11.2037
醅	-11.2037
㕔事	-11.2037
府庫	-11.2037
瑀	-11.2037
儂	-11.2037
増洛陽伽藍記	-11.2037
朓	-11.2037
觜	-11.2037
霤	-11.2037
柷	-11.2037
帟	-11.2037
丕	-11.2038
昇平	-11.2038
春明退朝録	-11.2038
裔	-11.2038
入山修	-11.2038
腫	-11.2038
瀾	-11.2039
鹿角解	-11.2039
京兆府	-11.2039
鄴中記	-11.2039
反舌	-11.2039
彎	-11.2039
翕	-11.2039
靑	-11.2039
奎婁	-11.204
宛轉	-11.204
氷泮	-11.204
入小學	-11.204
瑛	-11.204
譏	-11.2041
颺	-11.2041
張衡東京賦	-11.2041
原雲仙雜記	-11.2041
白日昇天	-11.2041
太史奏	-11.2041
婉	-11.2041
昂	-11.2041
小盂	-11.2041
月置或進在	-11.2041
陁	-11.2041
高祖紀	-11.2042
柞	-11.2042
睢	-11.2042
遣中使	-11.2042
原田家五行	-11.2042
春秋元命苞	-11.2042
槩	-11.2042
後漢書百官志	-11.2043
禋	-11.2043
宴近臣	-11.2043
黛	-11.2043
増帝京景物略	-11.2043
璞	-11.2043
櫃	-11.2043
藴	-11.2044
何首烏	-11.2044
摶	-11.2044
綂	-11.2044
龍圖閣	-11.2044
硫黄	-11.2044
顛	-11.2044
増皇極經世	-11.2044
杷	-11.2044
増太平廣記	-11.2044
掦	-11.2044
花萼樓	-11.2044
雚	-11.2044
増漢書五行志	-11.2045
娟	-11.2045
倐	-11.2045
僮	-11.2046
奄	-11.2046
鎻	-11.2046
啟閉	-11.2046
跗	-11.2047
收歛	-11.2047
蕨	-11.2047
蓬莱	-11.2047
綱目	-11.2047
蕭瑟	-11.2047
攬	-11.2047
木鐸	-11.2048
旻	-11.2048
衮	-11.2048
樞宻院	-11.2049
禾稼	-11.2049
威儀	-11.2049
荆湖	-11.205
麝香	-11.205
逋	-11.205
湯餅	-11.205
挟	-11.205
原東方朔占書	-11.205
益部方物記	-11.205
五六尺	-11.2051
分寸之	-11.2051
張耒	-11.2051
懶	-11.2051
辛卯	-11.2052
脊	-11.2052
笙歌	-11.2052
御筵	-11.2052
太僕寺	-11.2052
熒惑	-11.2052
陸璣詩疏	-11.2053
汎舟	-11.2053
仲淹	-11.2053
方来主	-11.2053
虞世南	-11.2054
資治通鑑	-11.2055
夫婦	-11.2055
晨出曰	-11.2055
此之謂	-11.2056
侍衛	-11.2056
黄鵠	-11.2056
増舊唐書禮儀志	-11.2056
芰	-11.2057
禾黍	-11.2057
傾城	-11.2057
増漢書天文志	-11.2057
鍰	-11.2057
聽政	-11.2058
科斗	-11.2058
凝結	-11.2059
東廵狩	-11.2059
襄公	-11.2059
𢎞農	-11.206
増本草拾遺	-11.206
坤艮	-11.206
長春殿	-11.2061
隂雲出	-11.2061
白虎通徳論曰	-11.2062
蔕	-11.2063
巫祠	-11.2063
鵲始巢	-11.2063
酒酣	-11.2064
彝	-11.2064
交錯	-11.2064
米賤	-11.2064
昌齡	-11.2064
祼	-11.2064
巍	-11.2065
唐貞觀	-11.2065
製造	-11.2065
日月之行	-11.2066
驪山	-11.2067
零落	-11.2067
巳亥	-11.2068
増梁簡文帝	-11.2068
聖製	-11.2068
柹	-11.2068
堯叟	-11.2069
蜥	-11.2069
單衣	-11.207
珍果	-11.207
粉團	-11.2071
寢廟	-11.2071
九衢	-11.2071
増筍譜	-11.2072
季秋之月	-11.2072
二月開花	-11.2073
有司奏	-11.2073
綵勝	-11.2073
昆明池	-11.2073
章句	-11.2073
増漢書律歴志	-11.2073
開元中	-11.2077
九年四月	-11.2078
増周易集解	-11.2079
積聚	-11.2079
孝感	-11.2079
大司農	-11.208
慶元	-11.2082
萬姓	-11.2082
百二十人	-11.2082
天台	-11.2083
黄白色	-11.2084
主来年	-11.2084
羣吏	-11.2085
蜀郡	-11.2085
淨洗	-11.2085
畫工	-11.2086
度量	-11.2086
調露	-11.2086
之一候	-11.2086
衣裘	-11.2088
史館	-11.2088
治服之	-11.209
仁義	-11.2091
司業	-11.2092
氷凍	-11.2092
賜御書	-11.2094
平陸	-11.2094
大蜡	-11.2096
精舍	-11.2096
進呈	-11.2097
區種	-11.2097
角黍	-11.2098
可憐	-11.2099
二刻半	-11.2099
州界	-11.21
多有之	-11.2101
起居注	-11.2101
桂樹	-11.2101
質明	-11.2101
髙適	-11.2102
俗呼為	-11.2104
太祝	-11.2104
掘土	-11.2105
明年正月	-11.2106
桂林	-11.2107
太史令	-11.2107
玉杯	-11.2109
安福	-11.2109
玉津	-11.2111
八月十五日	-11.2113
漉出	-11.2113
虎頭	-11.2113
乆服	-11.2114
不輟	-11.2115
千餘人	-11.2118
六年十二月	-11.2119
力士	-11.2119
不拘	-11.2121
早梅	-11.2121
三十卷	-11.2123
孝宗	-11.2123
決明	-11.2123
詳見	-11.2123
寳鏡	-11.2123
三月十八日	-11.2124
紫禁	-11.2125
酒饌	-11.2125
閉目	-11.2126
曰妾	-11.2127
在戍	-11.2127
閏二月	-11.2128
連珠	-11.2128
轉對	-11.2129
採藥	-11.2131
飛騎	-11.2131
進讀	-11.2133
安静	-11.2134
六畜	-11.2135
忽聞	-11.2137
千載	-11.214
續命	-11.214
養萬物	-11.2143
四尺	-11.2144
典禮	-11.2144
今宵	-11.2146
月生苖	-11.2147
一箇	-11.2147
左氏	-11.2147
涼風至	-11.2149
公侯	-11.2149
辛香	-11.215
樓臺	-11.215
三百里	-11.2154
大稔	-11.2156
郎君	-11.2156
一臼	-11.2156
其味甘	-11.2157
茅山	-11.2161
燒香	-11.2161
鍾山	-11.2163
門樓	-11.2166
俗傳	-11.2168
太真	-11.2171
立夏後	-11.2174
池澤	-11.2174
大抵	-11.2177
太室	-11.2178
牲用	-11.2178
州常以五	-11.218
端居	-11.218
六典	-11.218
合昏	-11.2181
也夏小正	-11.2182
東京	-11.2184
累月	-11.2184
髙昌	-11.2184
由此	-11.2185
石壁	-11.2186
便止	-11.219
本義	-11.2191
暑雨	-11.2191
供佛	-11.2194
風塵	-11.2196
霖雨	-11.2196
瑞應	-11.2197
子産	-11.2201
列坐	-11.2203
重午	-11.2203
石穴	-11.2203
元年三月	-11.2204
勿食	-11.2208
晨起	-11.2213
部侍郎	-11.2215
漁人	-11.2216
手詔	-11.2217
進御	-11.2222
美田	-11.2224
于廟	-11.2224
河漢	-11.2229
乗馬	-11.2231
玉皇	-11.2233
畢集	-11.2236
行像	-11.2241
老君	-11.2241
每歲	-11.2244
増唐㑹要開元二十	-11.2248
夀星	-11.2248
進奉	-11.2251
生薑	-11.2252
牡丹花	-11.2259
一束	-11.226
千六百	-11.2265
黒雲	-11.2265
明珠	-11.2266
樓前	-11.2268
水潦	-11.2268
七月一日	-11.2272
乞子	-11.2275
果然	-11.2276
銘曰	-11.2278
次對	-11.2278
百果	-11.2278
如此則	-11.2283
前期	-11.2284
葵子	-11.2293
調和	-11.2306
帳中	-11.2306
旦起	-11.231
六斗	-11.2311
地形	-11.2321
浮陽	-11.2323
於禁中	-11.2326
西園	-11.2326
寒食詩	-11.2329
仙家	-11.2331
音律	-11.2338
源出	-11.2342
立春後	-11.2345
二七日	-11.2346
寺前	-11.2347
苦雨	-11.2353
省官	-11.2354
所獲	-11.236
國學	-11.2367
海内	-11.237
除道	-11.238
屬和	-11.2398
走馬	-11.2419
五年正月	-11.2424
水洗	-11.2462
光眀	-11.2489
為名也	-11.2502
中黄門	-11.259
務農	-11.2627
到此	-11.2631
避風	-11.2635
短長	-11.2661
貢獻	-11.2693
正月朔旦	-11.2704
行千里	-11.2711
始生於	-11.2728
莫知	-11.2761
増玉海祥符三年	-11.2761
高宗	-11.278
功徳	-11.2795
龍沙	-11.2802
日晴主	-11.2811
五十三	-11.2826
耐寒	-11.2898
光燭	-11.2981
原舊唐書	-11.2992
八年十二月	-11.2994
翰林院侍	-11.2996
五年十一月	-11.3115
増玉海天聖	-11.3138
葉細	-11.3172
持齋	-11.3222
漢宣帝	-11.3257
三月之時	-11.3311
癸夘	-11.3403
東都	-11.3404
田禾	-11.3408
句云	-11.3421
二枚	-11.3434
唐書禮志	-11.3442
宜男	-11.3448
洛陽人	-11.3464
飴	-11.3503
雍州	-11.3525
挈壺	-11.3529
月莭晝	-11.3571
漢書律歴志	-11.3618
齊民要術	-11.362
田家五行	-11.3623
抱朴子	-11.3639
隋書禮儀志	-11.3643
外臺秘要	-11.3646
正齒位	-11.3648
擦	-11.3648
望春宫	-11.3649
増選擇歴書	-11.3654
增田家雜占	-11.3654
增北史	-11.3655
法苑珠林	-11.3655
璣	-11.3656
娘	-11.3658
駘蕩	-11.3659
伸	-11.366
餓	-11.366
晞	-11.3661
臊	-11.3662
庾肩吾	-11.3662
番禺	-11.3662
帕	-11.3663
筍譜	-11.3663
名醫别録	-11.3663
翩	-11.3664
蔀七十六嵗次	-11.3665
采蘩	-11.3665
需	-11.3665
辟疫	-11.3666
熙寜	-11.3668
燼	-11.3668
漫漫	-11.3668
乖	-11.3669
宵旰	-11.3669
嵗華紀麗	-11.367
蒨	-11.367
竦	-11.367
列女𫝊	-11.367
姝	-11.3671
増南方草木状	-11.3671
昊天上帝	-11.3672
皎然	-11.3672
葭灰	-11.3672
撮	-11.3673
夏枯草	-11.3673
慙	-11.3673
右春坊右	-11.3673
䭔	-11.3674
壻	-11.3674
吼	-11.3675
租税	-11.3675
原藏經	-11.3675
原内經	-11.3675
増荘子	-11.3675
易乾鑿度	-11.3676
舅姑	-11.3676
賭	-11.3676
冦	-11.3676
嗚	-11.3676
蚖	-11.3676
陶𢎞景	-11.3676
曹彬	-11.3677
茰	-11.3677
撻	-11.3678
醃	-11.3678
増莊子	-11.3678
廸	-11.3678
淫所勝平以	-11.3678
鰥寡孤獨	-11.3678
滉	-11.3678
傭	-11.3679
抛	-11.3679
藪	-11.3679
亳	-11.3679
嵐	-11.368
纊	-11.368
祉	-11.368
霰	-11.368
刳	-11.368
秘書省	-11.368
苟	-11.368
杞	-11.368
紏	-11.368
囚徒	-11.3681
天監六年	-11.3681
恰	-11.3681
便民圗纂	-11.3681
孝弟	-11.3681
琅邪	-11.3681
糵	-11.3681
烽	-11.3681
湍	-11.3681
沮	-11.3682
瑤	-11.3682
罅	-11.3683
増農桑通訣	-11.3683
琛	-11.3683
罟	-11.3683
浹	-11.3684
糊	-11.3684
售	-11.3684
李徳裕	-11.3684
溟	-11.3684
芻狗	-11.3684
趺	-11.3685
逐疫	-11.3685
翊	-11.3685
五言詩	-11.3685
曺	-11.3685
乾元殿	-11.3685
醎	-11.3685
厄	-11.3685
晒乾	-11.3685
𣗳	-11.3686
喘	-11.3686
張九齡	-11.3686
舅	-11.3686
霆	-11.3686
炬照	-11.3686
月上寅日	-11.3686
景靈宫	-11.3686
齊東野語	-11.3686
珉	-11.3686
惻	-11.3686
睠	-11.3686
挾	-11.3687
椎	-11.3687
王而萬物	-11.3688
衾	-11.3688
謂左右曰	-11.3688
憚	-11.3688
増玉海至道元年	-11.3689
月令章句	-11.3689
琪	-11.3689
増宋史樂志	-11.3689
滇	-11.3689
倅	-11.3689
北方元武之宿	-11.3689
螻	-11.3689
騷	-11.3689
夙興夜寐	-11.369
宋書百官志	-11.369
矯	-11.369
傘	-11.369
昕	-11.369
大赦天下	-11.369
托	-11.369
堇	-11.369
榆栁	-11.3691
伽	-11.3691
三品以上	-11.3691
煌煌	-11.3691
綽	-11.3691
􁰳	-11.3691
性理大全	-11.3691
所歌也	-11.3691
郃	-11.3691
潄	-11.3692
圉	-11.3692
募	-11.3692
五加皮	-11.3692
増樂緯	-11.3692
慈恩寺	-11.3692
瓮	-11.3692
威靈仙	-11.3692
増舊唐書音樂志	-11.3692
迴	-11.3692
紉	-11.3692
場圃	-11.3692
琴瑟	-11.3692
芬香	-11.3693
譲	-11.3693
熊羆	-11.3693
歙	-11.3693
憎	-11.3693
捻	-11.3693
月上寅采	-11.3693
徂暑	-11.3693
鶡	-11.3693
搗汁	-11.3693
増玉海淳化五年	-11.3693
芳菲	-11.3693
衛尉	-11.3693
尊卑	-11.3694
斟	-11.3694
絨	-11.3694
僻	-11.3694
踝	-11.3694
剰	-11.3694
烘	-11.3694
鷹化為鳩	-11.3694
㬌	-11.3694
浙江	-11.3694
隄	-11.3694
太清樓	-11.3694
㤀	-11.3695
磁	-11.3695
竽	-11.3695
車旂	-11.3695
増西京雜記	-11.3695
􁃽	-11.3695
岐伯	-11.3695
鉅	-11.3695
憇	-11.3695
淞	-11.3695
脇	-11.3695
邜	-11.3695
鏤雞子	-11.3695
鸚鵡	-11.3695
碩	-11.3696
増瑯嬛記	-11.3696
沂	-11.3696
荄	-11.3696
深紅色	-11.3696
汶	-11.3696
醵	-11.3697
瘟疫	-11.3697
増博物志	-11.3697
廳	-11.3697
墟	-11.3697
五月丙午	-11.3697
司寇	-11.3697
珮	-11.3697
園圃	-11.3698
刑罰	-11.3698
緹	-11.3698
坦	-11.3698
渤	-11.3698
廣義注	-11.3698
盈尺	-11.3698
食療本草	-11.3698
檜	-11.3698
毛毨	-11.3698
淫於内治以	-11.3698
瘟	-11.3698
都督	-11.3699
椒盤	-11.3699
畋	-11.3699
缾	-11.3699
甘露降	-11.3699
窻	-11.3699
綃	-11.3699
錐	-11.3699
换	-11.3699
紞	-11.3699
莆	-11.3699
印度	-11.3699
増周禮春官	-11.37
數十丈	-11.37
薰風	-11.37
増異苑	-11.37
輯	-11.37
演繁露	-11.37
鐃	-11.37
㺯	-11.37
醢	-11.37
坊巷	-11.37
莠	-11.37
厓	-11.37
朝集使	-11.37
王建宫詞	-11.3701
晳	-11.3701
灣	-11.3701
増周髀算經	-11.3701
宥	-11.3701
博雅	-11.3701
常平倉	-11.3701
荆楚歲時記	-11.3701
索隠	-11.3701
艱難	-11.3701
軀	-11.3701
江浙	-11.3701
貿	-11.3701
􁁿	-11.3702
溽	-11.3702
彚	-11.3702
萸	-11.3702
蔓菁	-11.3702
絕	-11.3702
鉏	-11.3702
晷影	-11.3702
芼	-11.3702
蘇轍	-11.3702
增農桑輯要	-11.3702
拙	-11.3702
鵲橋	-11.3702
委貌	-11.3702
車轄	-11.3702
水始涸	-11.3703
五色線	-11.3703
郭璞	-11.3703
奔走	-11.3703
㽞	-11.3703
鉞	-11.3703
孟浩然	-11.3703
倡	-11.3703
瑑	-11.3703
原居家宜忌	-11.3704
文獻通考	-11.3704
居家必用	-11.3704
慤	-11.3704
禍	-11.3704
井華水	-11.3704
宋祁	-11.3704
權徳輿	-11.3704
駁	-11.3704
棣	-11.3705
菖	-11.3705
閽	-11.3705
蔀首	-11.3705
虐	-11.3706
一觔	-11.3706
羗	-11.3706
俄頃	-11.3706
原荘子	-11.3706
増路史	-11.3706
黿	-11.3706
日卯時月在	-11.3706
牂	-11.3706
偕	-11.3706
桃始華	-11.3706
増北史魏	-11.3707
豳	-11.3707
䦨	-11.3707
稱觴	-11.3707
橘柚	-11.3707
涿	-11.3707
龍涎	-11.3707
木連理	-11.3707
溥	-11.3707
祭司寒	-11.3707
泮	-11.3707
増務本新書	-11.3708
痺	-11.3708
觥	-11.3708
刮	-11.3708
靄靄	-11.3708
穠	-11.3708
或退在	-11.3708
春秋感精符	-11.3709
紘	-11.3709
臛	-11.3709
塜	-11.3709
煗	-11.3709
火星中	-11.3709
蝗蟲	-11.3709
宼	-11.3709
諸般	-11.3709
王洙	-11.3709
原圖經本草	-11.371
墐	-11.371
増湘山野録	-11.371
澶	-11.371
口脂	-11.371
峩	-11.371
陸龜䝉	-11.371
滚	-11.3711
觀刈麥	-11.3711
璋	-11.3711
苽	-11.3711
後漢書和帝紀永元	-11.3711
月終則	-11.3711
不生蟲	-11.3712
係	-11.3712
邈	-11.3712
悪	-11.3712
施恵	-11.3712
幸金明池	-11.3712
脾主	-11.3712
原荆楚歳時記	-11.3712
小白花	-11.3713
妍	-11.3713
打毬	-11.3713
控	-11.3713
戀	-11.3714
淒淒	-11.3714
筴	-11.3714
擎	-11.3714
增唐㑹要	-11.3714
山礬	-11.3715
私第	-11.3715
衞士	-11.3715
蟄蟲坏户	-11.3715
鎗	-11.3716
瘴	-11.3716
龍生日	-11.3716
蚯蚓出	-11.3716
黜	-11.3716
員外郎	-11.3716
玉牒	-11.3716
儀仗	-11.3716
勝負	-11.3717
増雲笈七籤	-11.3717
瘦	-11.3717
糯米	-11.3717
鏗	-11.3717
堕	-11.3717
試詩賦	-11.3717
岳陽風土記岳州	-11.3717
鉛	-11.3717
課試	-11.3717
團團	-11.3717
増後漢書律歴志	-11.3717
眇	-11.3718
増唐㑹要開元	-11.3718
琰	-11.3718
羣后	-11.3718
雷電	-11.3718
猛獸	-11.3718
終而復始	-11.3719
増晉書樂志	-11.3719
緜	-11.3719
瘤	-11.3719
日躔	-11.372
于闐	-11.372
京兆尹	-11.372
秘書監	-11.372
南越志	-11.3721
増晉書天文志	-11.3721
胡椒	-11.3721
鄉村	-11.3721
二百卷	-11.3721
毅	-11.3722
増桯史	-11.3722
原玉燭寳典	-11.3723
脈	-11.3723
飲酎	-11.3723
汙	-11.3723
辟邪	-11.3724
桂枝	-11.3724
琶	-11.3724
增酉陽雜俎	-11.3724
封泰山	-11.3724
圖經夲草	-11.3724
飛蛾	-11.3724
藋	-11.3725
分夜漏三十	-11.3725
蕎麥	-11.3725
鉉	-11.3725
千七百	-11.3725
憩	-11.3725
朏	-11.3725
詩七月曰	-11.3725
日候之甲	-11.3725
孟冬之月	-11.3726
増星經	-11.3726
麥門冬	-11.3726
鵙始鳴	-11.3727
三百六十五日	-11.3727
行秋令則	-11.3727
村落	-11.3727
汾隂	-11.3727
晋書樂志	-11.3727
總章	-11.3728
鱗甲	-11.3728
蒼蒼	-11.3728
蕭蕭	-11.3728
増玉海天禧	-11.3729
貴戚	-11.3729
團扇	-11.3729
葛衣	-11.3729
拖	-11.3729
棗栗	-11.3729
掐	-11.3729
芬芳	-11.373
欖	-11.373
莫見其	-11.3731
加減	-11.3731
玻	-11.3732
原後漢書律歴志	-11.3732
辟寒金	-11.3732
閉藏	-11.3732
妹	-11.3732
梓州	-11.3732
増百怪斷經	-11.3732
椏	-11.3732
龍潭	-11.3733
國子學	-11.3733
綰	-11.3733
日月五星	-11.3733
離離	-11.3734
遼東	-11.3734
雄雞	-11.3734
去滓	-11.3735
扵東郊	-11.3735
阿措	-11.3735
昴畢	-11.3736
煎餅	-11.3736
祠宇	-11.3736
稽古	-11.3736
増詩疏廣要	-11.3738
執燭	-11.3738
洗目	-11.3738
元枵	-11.3739
陸㳺詩	-11.3739
増沈佺期	-11.3739
枝幹	-11.3739
飢寒	-11.3739
閉關	-11.3739
鴝鵒	-11.374
長春節	-11.374
雨雹	-11.374
鍾律	-11.374
遲速	-11.374
南呂	-11.3741
郎臣	-11.3741
歲時廣記	-11.3741
炊飯	-11.3741
有二種	-11.3741
者為勝	-11.3742
廪	-11.3742
茄子	-11.3743
門閭	-11.3743
數十里	-11.3744
右旋	-11.3744
禽經	-11.3745
炎熱	-11.3745
原吕氏春秋	-11.3745
導從	-11.3747
衛士	-11.3747
氣和則	-11.3747
參軍	-11.3747
子受制	-11.3748
表賀	-11.3748
百戲	-11.3749
十二月二十一日	-11.3749
花卉	-11.3749
山谷及	-11.375
士大夫	-11.375
紡績	-11.3751
疉	-11.3751
納涼	-11.3751
老杜詩云	-11.3751
元冥	-11.3755
楊柳	-11.3755
穴口	-11.3755
王維詩	-11.3755
七枚	-11.3756
從魁	-11.3756
辛苦	-11.3757
配享	-11.3759
法帖	-11.3759
閉塞	-11.3759
副使	-11.376
相蜂	-11.376
晝漏五十	-11.3761
賜絹	-11.3762
誦經	-11.3762
未申	-11.3763
建炎	-11.3763
文武官	-11.3763
居中央	-11.3763
白兔	-11.3763
服飾	-11.3764
歐陽公	-11.3764
考試	-11.3765
青白色	-11.3765
入閤	-11.3766
教授	-11.3766
受業	-11.3766
水涸	-11.3767
盲風	-11.3769
數百里	-11.3769
晡時	-11.3769
王公以下	-11.3769
白露降	-11.377
聼政	-11.3771
佳辰	-11.3773
各得其	-11.3773
朕甚	-11.3774
留守	-11.3775
東臯	-11.3775
白鷺	-11.3776
可免	-11.3776
作坑	-11.3777
浣花	-11.3777
工師	-11.3778
舒州	-11.3778
至未時	-11.3778
晨興	-11.3779
里社	-11.3779
代序	-11.3779
發生之	-11.3779
烏頭	-11.3779
扈從	-11.378
勞苦	-11.378
杪秋	-11.378
只是	-11.3781
徃來	-11.3781
運轉	-11.3781
攤令	-11.3781
兩岸	-11.3781
髙數尺	-11.3781
十二月八日	-11.3782
澤蘭	-11.3783
建丑	-11.3784
休息	-11.3785
觀覽	-11.3786
正衙	-11.3786
銀河	-11.3787
王珪	-11.3787
十三度	-11.3788
冰井	-11.3788
騎射	-11.3789
澆灌	-11.379
龜魚	-11.379
貧民	-11.3791
卷耳	-11.3791
歌吹	-11.3792
承露	-11.3794
昇天	-11.3794
禱雨	-11.3797
既覺	-11.3798
杜甫詩云	-11.3798
玉芝	-11.3798
今兹	-11.3798
不復見	-11.38
乘馬	-11.38
咸池	-11.3801
累年	-11.3801
畫圖	-11.3801
歴代	-11.3803
俗號	-11.3804
三月三日取	-11.3805
宴罷	-11.3806
晨夕	-11.3807
辛氏	-11.3807
寒食節	-11.3809
隂氣始	-11.3809
六壬	-11.381
辟兵	-11.381
立班	-11.3811
藏冰	-11.3811
既醉	-11.3812
百病	-11.3813
收蔵	-11.3813
賜爵	-11.3815
神爵	-11.3815
劉向	-11.3816
拜舞	-11.3819
楚師	-11.382
上黨	-11.3822
長一尺	-11.3822
更㸃	-11.3823
正月甲子	-11.3823
諸衛	-11.3825
羣仙	-11.3825
月俸	-11.3827
牛角	-11.3827
陰盛	-11.3828
到處	-11.3828
女工	-11.3829
四月十五日	-11.3829
荷葉	-11.383
太微	-11.3835
成式	-11.3837
登樓	-11.3838
燈夕	-11.3839
何須	-11.3841
陰乾	-11.3843
凉州	-11.3843
順時氣	-11.3844
園林	-11.3846
五色玉	-11.3846
平湖	-11.3847
増齊民要術凡	-11.3858
平仲	-11.3865
安息	-11.3869
正月晦日	-11.3913
物畢成	-11.3917
鏤金	-11.3929
極歡	-11.3936
嵗稔	-11.3938
潔白	-11.3944
用夏正	-11.3967
莫知所	-11.397
二月十二日	-11.398
王融	-11.4037
水水衡記黄河水	-11.4044
并州	-11.4051
言訖	-11.4054
詔近臣	-11.407
玉海乾徳	-11.4075
作酢	-11.4079
幽州	-11.4088
作羮	-11.4093
最盛	-11.4111
太皇太后	-11.4112
一隻	-11.415
蜀主	-11.4162
増宋書符瑞志漢	-11.4169
科舉	-11.4172
吹笛	-11.4176
月暈	-11.419
曰方春	-11.42
降誕	-11.423
臘月二十四	-11.4272
僧徒	-11.4284
一日二日	-11.4322
帳殿	-11.4348
十丈	-11.4354
王四季	-11.4414
八月十五夜	-11.4421
品物	-11.4431
川谷	-11.4471
百尺	-11.4527
日一酘	-11.4557
貞元十	-11.468
淮南子曰	-11.4734
射堂	-11.4746
棠梨	-11.4882
通典唐	-11.4906
八十九	-11.491
増玉海紹興二十五年	-11.4935
百斛	-11.499
正月十五	-11.4997
増山堂考索	-11.5197
己夘	-11.5246
黄鍾之宫	-11.5382
三月桃花	-11.5415
御崇政殿	-11.5527
農政全書	-11.5591
窺管	-11.5609
本草拾遺	-11.5625
荆楚嵗時記	-11.563
晶	-11.5631
種樹書	-11.5631
詩疏廣要	-11.5632
蕈	-11.5634
廱	-11.5637
韓翃	-11.5638
制誥	-11.5641
敲氷	-11.5646
觔	-11.5646
劉邦彦十	-11.5647
謩	-11.5647
刪定	-11.5649
贅	-11.565
癢	-11.565
增清異録	-11.565
原禽經	-11.5651
蹶	-11.5653
北南臣僚	-11.5654
珍羞	-11.5655
愕然	-11.5655
増唐書地理志	-11.5655
優劣	-11.5657
増子夜歌	-11.5657
影堂常祭	-11.5657
増後漢書章帝紀元和	-11.5657
蝠	-11.5658
辟蚊	-11.5659
硃砂	-11.5659
翛	-11.5659
潞州	-11.5659
增清異錄	-11.5659
讀五時令	-11.566
路寢	-11.566
郗	-11.566
髙禖	-11.566
昃	-11.5661
昉	-11.5662
煨	-11.5662
東華門	-11.5662
熹	-11.5662
䕫	-11.5663
尺寸	-11.5663
盼	-11.5663
粢盛	-11.5663
螟	-11.5663
百斤	-11.5664
薦福寺	-11.5664
泱	-11.5664
己卯風	-11.5664
顗	-11.5664
鰣魚	-11.5664
毳	-11.5665
炕	-11.5665
對延英	-11.5665
梁元帝	-11.5665
轅	-11.5665
擊毬	-11.5666
韋應物	-11.5666
抃	-11.5666
罝	-11.5666
箬	-11.5666
周禮夏官校人	-11.5666
旌旗	-11.5667
閙蛾	-11.5667
曇	-11.5667
臾	-11.5667
惶	-11.5668
恙	-11.5668
懋	-11.5668
僉	-11.5668
炯	-11.5669
穡	-11.567
迢	-11.567
朱櫻	-11.567
饁	-11.5671
正月之吉	-11.5671
五代史	-11.5672
謂侍臣曰	-11.5673
䖝	-11.5673
庵	-11.5673
輦下嵗時記	-11.5673
其神如	-11.5674
刁	-11.5674
昜	-11.5674
三公九卿	-11.5674
沐髪	-11.5674
助生氣	-11.5674
謠	-11.5674
航	-11.5674
屨	-11.5674
酉蔀七十六嵗凡三百四嵗	-11.5674
跌	-11.5675
行御天子出令命	-11.5675
捕蟬	-11.5675
鏃	-11.5676
増玉海祥符七年	-11.5676
阡陌	-11.5676
塢	-11.5676
盈縮	-11.5676
歟	-11.5676
正日臨朝	-11.5676
霓裳	-11.5677
黼	-11.5677
胸	-11.5677
栢梁體	-11.5677
蟲蟻	-11.5677
鹵	-11.5677
沓	-11.5678
飡	-11.5678
丹砂	-11.5678
掣	-11.5678
挑菜	-11.5678
豢	-11.5679
璘	-11.5679
堵	-11.5679
漪	-11.5679
各掌其	-11.5679
狎	-11.5679
鰲	-11.5679
蔞	-11.568
迅	-11.568
律中姑洗	-11.568
䧺	-11.568
瓏	-11.568
褚	-11.568
魏書靈徵志	-11.568
張道陵	-11.568
林邑國	-11.568
赤小豆	-11.568
曄	-11.5681
殿中侍御史	-11.5681
押班	-11.5681
痢	-11.5681
詵	-11.5681
佚	-11.5682
胭	-11.5682
奕奕	-11.5682
増燕翼詒謀録	-11.5682
山家清供	-11.5683
原水經注	-11.5683
頰	-11.5683
雊	-11.5683
太宗御書	-11.5684
迨	-11.5684
后之井以	-11.5684
紳	-11.5684
凑	-11.5684
楙	-11.5684
篚	-11.5684
翩翩	-11.5684
閹茂	-11.5684
䍷	-11.5684
荏	-11.5684
二至二分	-11.5684
瑣	-11.5684
𤾉	-11.5684
剉	-11.5685
鄊	-11.5685
偈	-11.5685
原論語	-11.5685
参差	-11.5685
原世説	-11.5685
戻	-11.5685
東夷𫝊	-11.5685
舉賢良	-11.5685
賡	-11.5685
原獨㫁	-11.5685
旒	-11.5685
礬	-11.5686
有火光	-11.5686
増玉海景祐二年	-11.5686
迎春苑	-11.5686
猥	-11.5686
老學庵筆記	-11.5686
數飲於	-11.5686
菹	-11.5686
科掌印給	-11.5686
侍宴應制詩	-11.5687
股肱	-11.5687
蹙	-11.5687
妊	-11.5687
齧	-11.5687
蕷	-11.5688
増宋會要	-11.5688
増楚通志	-11.5688
玊	-11.5688
増北京嵗華記	-11.5688
恵連	-11.5688
煬	-11.5688
年不壊	-11.5689
磯	-11.5689
遒	-11.5689
鑼	-11.5689
玉宸殿	-11.5689
纉	-11.5689
罄	-11.5689
増易通卦騐	-11.5689
瘁	-11.5689
白頭翁	-11.5689
孝經論語	-11.5689
芳林園	-11.5689
靈威仰	-11.5689
大中祥符元年	-11.5689
莱	-11.5689
證	-11.569
華林園	-11.569
折楊柳	-11.569
舉寃獄	-11.569
水泉動	-11.569
黄庭堅	-11.569
款冬	-11.569
􁭤	-11.569
嵇	-11.5691
緱	-11.5691
鷁	-11.5691
冽	-11.5691
晉書律歴志	-11.5691
喫	-11.5691
奩	-11.5691
季夏土王	-11.5691
悅	-11.5691
嘘	-11.5691
胷	-11.5691
拆	-11.5691
凰	-11.5691
鴨卵	-11.5692
庭燎	-11.5692
皎皎	-11.5692
粤	-11.5692
絢	-11.5692
羸	-11.5692
罩	-11.5692
陡	-11.5692
鷓	-11.5692
其失次	-11.5692
单	-11.5692
盥	-11.5692
劾	-11.5692
増宋史食貨志	-11.5692
檠	-11.5692
譙	-11.5692
菁	-11.5693
范仲淹	-11.5693
畵	-11.5693
葡	-11.5693
大慶殿	-11.5693
悚	-11.5693
凊	-11.5693
苣	-11.5693
侵晨	-11.5693
泫	-11.5693
纂要秋曰	-11.5693
讃	-11.5693
顏	-11.5693
嵗壹見其貢	-11.5693
聾	-11.5694
蘩	-11.5694
氲	-11.5694
五味脯	-11.5694
痘	-11.5694
飄飄	-11.5694
付史館	-11.5694
擊柝	-11.5694
絡緯	-11.5694
赬	-11.5694
䏻	-11.5694
畬	-11.5694
腴	-11.5694
董仲舒雨雹對	-11.5694
鎭	-11.5694
鐸	-11.5695
磴	-11.5695
螭	-11.5695
譚	-11.5695
厦	-11.5695
塑	-11.5695
城門銘	-11.5695
集賢院	-11.5695
𢷬	-11.5695
瘠	-11.5695
緼	-11.5695
桐始華	-11.5696
増大戴禮	-11.5696
䅖	-11.5696
煦	-11.5696
罔	-11.5696
稊	-11.5696
田䑕化為鴽	-11.5696
原紀厯撮要	-11.5697
增政和本草	-11.5697
親戚	-11.5697
旰	-11.5697
疲倦	-11.5697
楚辭	-11.5697
輻	-11.5697
讙	-11.5697
漠漠	-11.5698
隩	-11.5698
舉孝廉	-11.5698
雷霆	-11.5698
韓魏公	-11.5698
荀爽曰	-11.5698
嬌	-11.5698
敺	-11.5698
舶	-11.5698
蔞蒿	-11.5698
罍	-11.5698
擁蔽	-11.5698
増玉海熙寧	-11.5698
鎬	-11.5698
拍	-11.5698
増蕪史	-11.5699
琥	-11.5699
武成王	-11.5699
墅	-11.5699
璟	-11.5699
萱	-11.5699
杉	-11.5699
薹	-11.5699
沸湯	-11.5699
蜺	-11.5699
原論衡	-11.57
促織鳴	-11.57
皴	-11.57
吏部尚書	-11.57
潁川	-11.57
奸	-11.57
楼	-11.57
徳也主	-11.57
擅	-11.57
虺	-11.57
京畿	-11.5701
髄	-11.5701
増參同契	-11.5701
欒	-11.5701
離騷	-11.5701
十哲	-11.5701
嶽瀆	-11.5701
黍稷	-11.5701
㢘	-11.5701
峴	-11.5701
沛然	-11.5701
蟋蟀居壁	-11.5701
櫻	-11.5702
夙興	-11.5702
尚書大傳	-11.5702
麑	-11.5702
二百三十五	-11.5702
腓	-11.5702
如車輪	-11.5702
斥	-11.5702
熨	-11.5702
蛻	-11.5702
絙	-11.5702
闥	-11.5702
十三絃	-11.5703
讀春令	-11.5703
鞋	-11.5703
岱宗	-11.5703
中華古今註	-11.5703
抹	-11.5703
隋書文帝紀開皇	-11.5703
原范成大村田樂府序	-11.5703
唾	-11.5703
熙寕	-11.5703
岑參	-11.5703
時在午位故	-11.5703
踐更	-11.5703
横汾	-11.5704
薁	-11.5704
赤光照室	-11.5704
後漢書郎顗𫝊	-11.5704
叨	-11.5704
爱	-11.5704
奭	-11.5704
川芎	-11.5704
扃	-11.5704
椽	-11.5704
公卿大夫	-11.5704
加卯順數至	-11.5704
茨	-11.5705
種大豆	-11.5705
朱子語録	-11.5705
叩頭	-11.5705
萵苣	-11.5705
剔	-11.5705
右英夫人	-11.5705
牽牛織女	-11.5705
糯	-11.5705
波浪	-11.5706
鸎	-11.5706
濮	-11.5706
噫	-11.5706
燄	-11.5706
尚書大𫝊	-11.5706
青瑣	-11.5706
孩	-11.5707
緊	-11.5707
置律學	-11.5707
翆	-11.5707
龎	-11.5707
秪	-11.5707
塡	-11.5707
蹉	-11.5708
賴	-11.5708
兒童	-11.5708
原尸子	-11.5708
原初學記	-11.5708
叩齒	-11.5708
夏竦	-11.5708
蹴	-11.5708
度支	-11.5708
貲	-11.5708
攽	-11.5708
飬老禮	-11.5708
月者間亦有之	-11.5708
閏當在此年	-11.5708
艱	-11.5709
寰	-11.5709
増舊唐書徳宗紀貞元	-11.5709
長二寸許	-11.5709
制國用	-11.5709
謝惠連	-11.5709
𫝊柑	-11.5709
靚	-11.571
思慮	-11.571
封禪	-11.571
扶南國	-11.5711
臺諫	-11.5711
韋荘	-11.5711
帝王世紀	-11.5711
涵	-11.5711
嚏	-11.5711
扈竊	-11.5711
葷	-11.5711
金匱	-11.5711
商旅	-11.5712
墉	-11.5712
颼	-11.5712
倭	-11.5712
増周易集觧	-11.5712
構	-11.5712
鄒	-11.5712
大明殿	-11.5712
時月仙星福徳星	-11.5712
為前行	-11.5712
苒	-11.5712
猴	-11.5712
剛柔	-11.5713
於民者	-11.5713
聰敏	-11.5713
臨軒	-11.5713
先薦寢廟	-11.5713
驅獸	-11.5713
辟寒香	-11.5713
勣	-11.5713
隆慶	-11.5713
頺	-11.5713
餽	-11.5713
戚里	-11.5714
陸機	-11.5714
店	-11.5714
池沼	-11.5714
京尹	-11.5714
凱風	-11.5714
艶	-11.5714
明堂右个	-11.5714
加元服	-11.5714
宫嬪	-11.5715
増𫝊燈録	-11.5715
蹤	-11.5715
狭	-11.5715
糗	-11.5715
抗	-11.5715
曳	-11.5715
漢書魏相𫝊	-11.5715
粘	-11.5715
讀時令	-11.5715
增家語	-11.5715
赫赫	-11.5715
時天徳星寳光星	-11.5715
殷勤	-11.5716
認	-11.5716
原南方草木狀	-11.5716
蛾眉	-11.5716
堦	-11.5716
殃	-11.5716
茫然	-11.5716
閃	-11.5716
坏	-11.5716
應詔詩	-11.5716
時天開星少微星	-11.5716
耍	-11.5716
藍尾	-11.5716
襍	-11.5716
増荔枝譜	-11.5716
蜕	-11.5716
地理志	-11.5716
結寔	-11.5717
膜	-11.5717
凌空	-11.5717
金櫻子	-11.5717
有數種	-11.5717
蜀葵	-11.5717
増夲草綱目	-11.5717
春荑	-11.5717
巳日還位	-11.5717
忒	-11.5718
踊	-11.5718
薫風	-11.5718
紆	-11.5718
肅肅	-11.5718
仲呂	-11.5718
肅慎	-11.5718
十二年五月	-11.5719
埽	-11.5719
慕容	-11.5719
迸	-11.5719
泉湧	-11.5719
賀知章	-11.5719
櫻笋	-11.5719
花信風	-11.572
六千分	-11.572
吳越	-11.572
原千金方	-11.572
因天時	-11.572
暵	-11.572
虚危	-11.572
奉冊	-11.572
廐	-11.572
旬中無	-11.572
烏鵲	-11.572
綈	-11.572
堯典	-11.5721
是乾在	-11.5721
盪	-11.5721
鷙	-11.5721
時政記	-11.5721
降婁	-11.5721
仁壽	-11.5721
窒	-11.5721
蜚	-11.5721
介胄	-11.5721
考績	-11.5721
十二支	-11.5721
安石榴	-11.5721
愬	-11.5721
休沐	-11.5722
銀杏	-11.5722
枕席	-11.5722
執徐	-11.5722
撞	-11.5722
蘇頌	-11.5722
九子糉	-11.5722
鬼臼	-11.5722
羯	-11.5723
頗似	-11.5723
玳	-11.5724
凍釋	-11.5724
賈島	-11.5724
老㓜	-11.5725
赤鯉	-11.5725
㐲	-11.5725
蜂蜜	-11.5725
肪	-11.5725
季冬之月	-11.5725
開延英	-11.5726
潘炎	-11.5726
撚	-11.5726
白虎通德論曰	-11.5726
早晩	-11.5727
豺	-11.5727
日窮于次	-11.5727
蓮花漏	-11.5728
搗爛	-11.5728
亦如之注	-11.5728
榖賤	-11.5728
湔	-11.5728
乘輿	-11.5729
細剉	-11.5729
山谷詩云	-11.5729
幌	-11.5729
契丹	-11.5729
春鶯囀	-11.5729
細磨	-11.5729
栗烈	-11.5729
味甜	-11.573
奈何	-11.573
刀尺	-11.573
吴越	-11.573
四時氣候	-11.573
人氣在	-11.573
流汗	-11.573
昆吾	-11.573
燒灰	-11.5731
簫鼓	-11.5732
舉觴	-11.5732
增蠡海集	-11.5732
濟濟	-11.5732
為下考	-11.5732
荆楚	-11.5733
雙闕	-11.5733
提舉	-11.5733
孔雀	-11.5733
二月下種	-11.5733
月窮于紀	-11.5733
獄刑	-11.5734
原抱朴子	-11.5734
秘省	-11.5734
囷	-11.5735
叛	-11.5735
失所在	-11.5735
増紀歴撮要	-11.5735
干戈	-11.5735
掃除	-11.5735
散漫	-11.5735
魚鑰	-11.5735
一晝一夜	-11.5736
曲江池	-11.5736
律中應鍾	-11.5737
深淺	-11.5738
赤靈符	-11.5738
陳百戲	-11.5738
凜	-11.5738
増周易集解乾	-11.5738
竒絶	-11.5738
為中考	-11.5738
􁒊	-11.5738
啓蟄	-11.5738
孟冬十月	-11.5739
骨肉	-11.5739
錢塘	-11.574
豺祭獸	-11.574
宋陳元靚撰	-11.574
射雉	-11.574
昇仙	-11.574
榮茂	-11.5741
五十五刻	-11.5742
羊裘	-11.5742
星回于天	-11.5742
饔	-11.5744
貴妃	-11.5744
生白花	-11.5744
十一年十一月	-11.5744
唐堯	-11.5745
珠簾	-11.5745
心如月	-11.5745
擊鼓	-11.5745
嘉賔	-11.5746
賔虞	-11.5746
天文院	-11.5747
原博物志	-11.5748
射鹿	-11.5749
蜜蠟	-11.5749
孔子廟	-11.5751
二尺許	-11.5751
大如指	-11.5751
酸棗	-11.5752
辟惡	-11.5752
考課	-11.5752
驚覺	-11.5755
孤虚	-11.5757
清濁	-11.5758
邸第	-11.5759
䇿問	-11.576
鄉貢	-11.576
上封事	-11.5761
粔	-11.5762
河決	-11.5765
七襄	-11.577
忍冬	-11.577
小分龍	-11.5772
以水沃	-11.5774
頒氷	-11.5777
圖說	-11.5778
鵝毛	-11.5779
踏歌	-11.5781
示輔臣	-11.5784
負戴	-11.5794
二三寸	-11.5794
露為霜	-11.5795
至道二年	-11.5799
不得避	-11.5801
時日仙星鳳輦星	-11.5813
十四年四月	-11.5813
秋分之日	-11.5822
日雨主	-11.5838
月令天道	-11.5841
紛然	-11.5843
五十卷	-11.586
地菩薩如十	-11.5881
卯酉年	-11.5889
為虚甲	-11.5918
御定月令輯要卷二十	-11.5926
妨農	-11.5937
増玉海建隆	-11.5946
西域記	-11.6034
唐開元	-11.6084
品以下	-11.6095
睿宗	-11.6104
梧州	-11.6109
獲禽	-11.6138
西北風主	-11.6143
律呂	-11.6158
風至四十五	-11.6181
月令孟	-11.6295
絶句	-11.6326
樓觀燈	-11.6369
詩二首	-11.6741
萬五千	-11.6844
開元十三年	-11.7034
月之時自	-11.715
丈許	-11.7287
百畝	-11.7297
原皇極經世	-11.7358
凄凄	-11.7516
風從南	-11.7578
部右侍	-11.7645
魏明帝	-11.7713
原晉書禮志	-11.7934
増唐書太宗紀貞觀	-11.7936
地菩薩如	-11.7949
増魏書靈徴志	-11.8063
原參同契	-11.8065
盲	-11.8074
孟昶	-11.8088
庮	-11.8108
唐㑹要	-11.8114
黄褐侯	-11.8114
輦上詣	-11.8125
耗磨	-11.8128
驪	-11.8131
増儀禮	-11.8132
鍜	-11.8133
又禮志	-11.8135
洙	-11.8135
疣	-11.8137
眡	-11.8137
俚	-11.8138
决獄	-11.8139
瞬息	-11.8139
曨	-11.8139
含樞紐	-11.8139
却鬼丸	-11.8139
酉陽雜俎	-11.8139
獲白麟	-11.8142
官其属六十掌邦	-11.8143
闚	-11.8144
咫	-11.8144
有道術	-11.8144
原魏書	-11.8146
原東京夢華錄七夕以	-11.8147
孝經援神契	-11.8149
鵪	-11.8149
無逸篇	-11.815
霂	-11.815
蚯蚓	-11.815
貍	-11.8151
匭	-11.8151
示現	-11.8151
邃	-11.8153
杜審言	-11.8153
鄭司農云	-11.8153
𢎞䇿	-11.8153
潞	-11.8153
梁簡文帝	-11.8154
灋	-11.8154
魔	-11.8154
年十月二十	-11.8154
氣入口	-11.8155
帬	-11.8156
歐	-11.8157
鈍	-11.8157
庌	-11.8158
日一澆	-11.8158
廣恵倉	-11.8158
莪蒿	-11.816
建隆四年	-11.816
淇	-11.8161
麽	-11.8161
祀青帝	-11.8161
不舍晝夜	-11.8161
峡	-11.8162
増洞冥記	-11.8162
韞	-11.8162
四政曰	-11.8162
安樂窩	-11.8162
增春秋繁露	-11.8163
戲馬臺	-11.8164
䃡	-11.8164
原荆楚歳時記五月五日	-11.8165
㬉	-11.8165
日在内衡	-11.8165
𤣥元皇帝	-11.8165
晁	-11.8165
煩襟	-11.8165
戞	-11.8165
二政曰	-11.8165
吝	-11.8165
増漏刻經	-11.8165
増鶴慶府志	-11.8165
􁀔	-11.8165
禹錫	-11.8166
五經通義	-11.8167
洧	-11.8167
弹琴	-11.8167
爬	-11.8167
盧多遜	-11.8167
増佛國記	-11.8168
二三丈	-11.8168
器械	-11.8168
俛	-11.8168
思蜀都賦	-11.8168
晨出東方	-11.8168
鄕	-11.8168
㰂	-11.8168
原南方草木状	-11.8168
瀹	-11.8168
擔	-11.8169
琦	-11.8169
叠	-11.8169
韌	-11.8169
増元中記	-11.8169
灌溉	-11.8169
罘	-11.8169
髓	-11.8171
増鄭氏家範	-11.8171
嶼	-11.8171
增燕翼貽謀錄	-11.8171
方故使為	-11.8171
裡	-11.8171
月令輯要	-11.8171
娵	-11.8172
泔	-11.8172
俯仰	-11.8172
湯沐浴令人	-11.8172
聶	-11.8172
飬花天	-11.8172
琮	-11.8172
孝文皇帝	-11.8172
衣朱衣	-11.8172
蓘	-11.8172
以太牢祠	-11.8173
閬	-11.8173
春日載陽	-11.8173
瓚	-11.8173
陸贄	-11.8173
劈正斧	-11.8173
預知子	-11.8173
械	-11.8174
夀星之次	-11.8175
増唐書五行志	-11.8175
烏夜啼	-11.8175
磑	-11.8175
盬	-11.8175
髠	-11.8175
也萬物之所以	-11.8175
四部書	-11.8175
左春坊左	-11.8175
鶬	-11.8175
増野菜譜	-11.8175
薪柴	-11.8175
踼	-11.8175
夘蔀七十六嵗次	-11.8175
璇	-11.8176
焕	-11.8176
販	-11.8176
莒	-11.8176
件	-11.8176
挨藍	-11.8176
泗濵	-11.8176
牛塘利	-11.8176
几杖	-11.8177
闋	-11.8178
公羊傳	-11.8178
白居昜	-11.8178
笞	-11.8178
通事舍人	-11.8178
鬐	-11.8178
原戎事𩔖占	-11.8178
埒	-11.8178
渭川	-11.8178
罌	-11.8178
驤	-11.8178
洋	-11.8179
俠	-11.8179
稈	-11.8179
原莊子	-11.8179
集賢校理	-11.8179
脛	-11.8179
上林賦	-11.8179
柳絮	-11.8179
䇿一道	-11.8179
蟇	-11.818
原越絶書	-11.818
沖	-11.818
鋸	-11.818
増東陽縣志	-11.818
畫鴨子	-11.818
炮	-11.818
緗	-11.818
燕翼貽謀録	-11.818
惆悵	-11.818
翼軫	-11.818
離合風	-11.818
樗	-11.818
金天氏	-11.818
涎	-11.8182
賖	-11.8182
躋	-11.8182
儆	-11.8182
蚓	-11.8182
増詩䟽廣要	-11.8182
旃	-11.8182
礪	-11.8182
增宋史律歴志	-11.8182
譁	-11.8182
華陽國志	-11.8183
俞	-11.8183
戶	-11.8183
駙	-11.8183
九域志	-11.8183
増輝縣志	-11.8183
縉	-11.8183
馬嘶	-11.8183
楨	-11.8183
脣	-11.8183
桐花鳯	-11.8183
鱨	-11.8183
樃	-11.8183
赤熛怒	-11.8184
勾芒	-11.8185
鍳	-11.8185
倘	-11.8185
天津橋	-11.8185
洒掃	-11.8185
侑	-11.8185
泚	-11.8185
耿耿	-11.8185
邳	-11.8185
隋書音樂志	-11.8185
曼陀羅	-11.8185
焯	-11.8185
辛辣	-11.8185
彥	-11.8185
杜鵑	-11.8185
畮	-11.8185
慵	-11.8185
琨	-11.8185
用事火煙	-11.8185
魅	-11.8186
獻馴象	-11.8186
下田家志	-11.8186
原東京夢華録	-11.8186
都督府	-11.8186
門萬物已	-11.8186
卬	-11.8186
蟠	-11.8186
原唐詩紀事	-11.8186
堊	-11.8186
咨嗟	-11.8186
温庭筠	-11.8186
迓	-11.8186
閫	-11.8186
霜始降	-11.8186
攻駒	-11.8186
者一人為	-11.8186
舉茂材	-11.8186
𡼏	-11.8186
甘藷	-11.8186
蹋	-11.8187
涓涓	-11.8187
亢旱	-11.8187
増閩部疏	-11.8187
宣政殿	-11.8187
巔	-11.8187
隈	-11.8187
一寸九節	-11.8187
鳯皇集	-11.8187
器皿	-11.8187
嵗嵗隂在	-11.8187
敝	-11.8187
歴代帝王	-11.8187
翾	-11.8187
謂輔臣曰	-11.8187
謐	-11.8187
距日冬至四十	-11.8187
駛	-11.8187
殼	-11.8188
榮堇	-11.8188
御定月令輯要	-11.8188
宗正寺	-11.8189
洗沐	-11.8189
噬	-11.8189
三足烏	-11.8189
秦始皇	-11.8189
惕	-11.8189
䧟	-11.8189
務盡地	-11.8189
南方草木狀	-11.8189
使帥其	-11.8189
之道也逆之則傷	-11.8189
増一統志	-11.8189
増史記律書	-11.8189
喜雨詩	-11.8189
炫	-11.8189
禮神玉	-11.8189
乾淳歲時記冬至	-11.8189
原隋書天文志	-11.8189
薌	-11.8189
鈺	-11.8189
天子請客	-11.819
臠	-11.819
恪	-11.819
列仙𫝊	-11.819
以孝聞	-11.819
盾	-11.819
拉	-11.819
覓	-11.819
魏書釋老志	-11.819
孫覿	-11.819
榨	-11.819
驂	-11.819
明成祖	-11.819
禮部選士	-11.819
彬	-11.819
𣙜	-11.8191
増玉海祥符六年	-11.8191
民所疾苦	-11.8191
賜新及第	-11.8191
斃	-11.8191
葬	-11.8191
原周禮春官大宗伯以	-11.8191
増逸周書	-11.8191
天寳十載	-11.8191
彧	-11.8191
方春東作	-11.8191
湏臾	-11.8191
袤	-11.8191
颸	-11.8191
􁘅	-11.8191
䜿	-11.8191
季春出火	-11.8191
葶	-11.8191
薛道衡	-11.8191
藶	-11.8191
鮒	-11.8191
内閣大學	-11.8191
奉天書	-11.8191
子干丙子	-11.8191
子干庚子	-11.8191
若於夜則月	-11.8191
淳祐	-11.8192
姨	-11.8193
瀕	-11.8193
蹔	-11.8193
踞	-11.8193
悄	-11.8193
沁	-11.8193
原周禮乃立	-11.8193
觱發	-11.8193
開細白花	-11.8193
兩儀殿	-11.8193
増漢書武帝紀元鼎	-11.8193
横截	-11.8193
上職方	-11.8193
増玉海嘉祐四年	-11.8193
大雨時行	-11.8193
振貸	-11.8193
賈誼	-11.8193
増玉海祥符元年	-11.8193
江淹别賦	-11.8193
冝	-11.8193
北京歲華記	-11.8193
玉蘂花	-11.8193
西南風主	-11.8193
柝	-11.8193
夏官司馬	-11.8193
苴	-11.8194
彛	-11.8194
村村	-11.8194
珠璣	-11.8194
喝	-11.8194
屬而掌邦	-11.8194
遑	-11.8194
郵	-11.8194
望氣經	-11.8194
講孝經	-11.8194
閔	-11.8194
儔	-11.8194
洋洋	-11.8194
蓽撥	-11.8194
俎豆	-11.8194
用酒脯	-11.8194
袁充	-11.8196
増圗經本草	-11.8196
靂	-11.8196
以佐王	-11.8196
掲	-11.8196
䓁	-11.8196
墾闢	-11.8196
棧	-11.8196
號曰助天	-11.8196
髩	-11.8196
三洞奉道科	-11.8196
個	-11.8196
凌烟閣	-11.8196
好事者	-11.8196
崑	-11.8196
八角磨盤	-11.8196
山川形勢	-11.8196
日反支	-11.8196
東風觧凍	-11.8196
鯁	-11.8196
萄	-11.8197
五年春正月	-11.8197
自天而下	-11.8197
三嵗一閏	-11.8197
樸	-11.8197
徭役	-11.8197
歆	-11.8197
涖	-11.8197
蘸	-11.8197
後漢書張純	-11.8197
滸	-11.8197
去人近	-11.8197
恱	-11.8197
樾	-11.8197
名註中官為	-11.8197
噶	-11.8197
增朝野僉載	-11.8197
子干甲子	-11.8197
巘	-11.8197
覃	-11.8198
溺	-11.8198
櫸	-11.8198
霶	-11.8198
騫	-11.8198
儀禮士冠禮	-11.8198
尺堂階	-11.8198
原續文獻通考洪武	-11.8198
聫	-11.8198
開細花	-11.8198
増嬾真子錄	-11.8198
煜	-11.8198
盟	-11.8198
些	-11.8198
増後漢書光武紀建武	-11.8198
増沈約詩	-11.8198
皮日休	-11.8198
蠕	-11.8198
㽔	-11.8199
李泌	-11.8199
天寳六載	-11.82
祛疑説	-11.82
增左𫝊	-11.82
卞	-11.82
栁宗元	-11.82
皆賤逆此者貴	-11.82
韓退之	-11.82
夏侯湛	-11.82
茈	-11.82
増談苑	-11.82
楣	-11.82
銳	-11.82
孫叔敖	-11.82
惜分隂	-11.82
文林廣記	-11.82
柚	-11.82
増王居明堂禮	-11.8201
潘岳	-11.8201
汜	-11.8201
増物原	-11.8201
日行一度	-11.8201
榔	-11.8201
陳彭年	-11.8201
䖟	-11.8201
躁	-11.8201
父兄	-11.8201
迢遞	-11.8201
王子喬	-11.8201
禿	-11.8201
誼	-11.8202
萍始生	-11.8202
藹	-11.8202
豉	-11.8202
賔僚	-11.8202
晏元獻	-11.8203
中尚署令	-11.8203
彷彿	-11.8203
檉	-11.8203
觀察使	-11.8203
増廣州記	-11.8203
衿	-11.8203
五星同色	-11.8203
律長六寸	-11.8203
拌匀	-11.8203
兆人本業	-11.8203
卓帳	-11.8203
増隋書食貨志	-11.8203
寂寂	-11.8203
樝	-11.8203
煙嵐	-11.8203
耰	-11.8203
龔	-11.8203
穰苴	-11.8203
藏彄	-11.8203
增内經	-11.8203
塤	-11.8204
王安石	-11.8204
堞	-11.8204
増桂海花志	-11.8204
龡	-11.8204
拯	-11.8204
祀先農	-11.8204
増千金月令	-11.8204
㯶櫚	-11.8204
噎	-11.8204
増寰宇記	-11.8204
增齊民要術崔寔	-11.8204
懐妊	-11.8204
搭	-11.8204
而有娠	-11.8204
芬馥	-11.8204
棊	-11.8204
湜	-11.8204
刪	-11.8205
熒	-11.8205
槊	-11.8205
米九斗	-11.8205
茇	-11.8205
抒	-11.8205
日抱戴	-11.8205
東方蒼龍之宿	-11.8205
浃	-11.8205
即事詩	-11.8205
榕	-11.8205
栻	-11.8205
瑕	-11.8205
鴂	-11.8205
降聖節	-11.8205
􁘀	-11.8205
琅	-11.8206
螻蟈鳴	-11.8206
繹	-11.8207
拂菻國	-11.8207
顛倒	-11.8207
㵼	-11.8207
披襟	-11.8207
之維則	-11.8207
増周禮秋官	-11.8207
周伯琦	-11.8207
經冬不凋	-11.8207
薍	-11.8207
律中林鍾	-11.8207
悴	-11.8207
虎始交	-11.8207
槽	-11.8208
懈	-11.8208
建亥之月	-11.8208
一日洞元靈寳月十齋	-11.8208
蕡	-11.8208
碗	-11.8208
獲玉印	-11.8208
詭	-11.8208
一隂生	-11.8208
原感遇	-11.8208
蒲萄	-11.8208
蘼	-11.8208
奬	-11.8208
三日太史謁之天子	-11.8208
余靖	-11.8208
増録異記	-11.8208
扐	-11.8208
擭	-11.8208
陲	-11.8208
羣鳥養羞	-11.8209
鬚髪	-11.8209
御試舉人	-11.8209
嚙	-11.8209
撓	-11.8209
櫚	-11.8209
增南史	-11.8209
笨	-11.8209
方寸匕	-11.8209
朞	-11.8209
飲一杯	-11.8209
増唐本草	-11.821
増物理論	-11.821
蔡襄	-11.821
枸	-11.8211
濯枝雨	-11.8211
啻	-11.8211
冬蠶成繭	-11.8211
著於令	-11.8211
櫂	-11.8211
烟靄	-11.8211
栱	-11.8211
繕寫	-11.8211
鸕	-11.8211
其數七其味苦其臭焦其	-11.8211
千齡節	-11.8211
焜	-11.8211
瞿塘	-11.8211
𬒮	-11.8212
菉	-11.8212
元亨利貞	-11.8212
蓽	-11.8212
鴛	-11.8212
挾纊	-11.8212
歳歳隂在	-11.8212
簁	-11.8212
隘	-11.8212
䪥	-11.8212
原釋名	-11.8212
如弹丸	-11.8212
無知者	-11.8212
三百六十五度	-11.8212
俎	-11.8213
㢠	-11.8213
草木黄落	-11.8213
咨	-11.8213
待漏院	-11.8214
元樞經	-11.8214
吠	-11.8214
媿	-11.8214
滄浪	-11.8214
原述異記	-11.8214
橈	-11.8214
蠏	-11.8214
鍊形	-11.8214
更三㸃	-11.8214
芷	-11.8214
増後漢書安帝紀延光	-11.8214
西京雜記戚夫人侍兒賈佩蘭	-11.8214
公羊𫝊	-11.8214
律中太蔟	-11.8214
槖	-11.8214
蚯蚓結	-11.8214
厰	-11.8214
絹囊盛	-11.8214
菠薐	-11.8214
六十四卦	-11.8214
滷	-11.8214
原古三墳	-11.8215
涉	-11.8215
瑯	-11.8215
方之極自	-11.8215
原開天遺事楊國忠	-11.8215
苓	-11.8215
蕭颯	-11.8215
擷	-11.8215
䭾	-11.8215
鑊	-11.8215
時眀輔星貴人星	-11.8215
怖	-11.8216
毗	-11.8216
似荔枝而	-11.8216
五辛盤	-11.8216
矛	-11.8216
夏令則國	-11.8216
曰某日立	-11.8216
溪蠻叢笑	-11.8216
南任也	-11.8216
朧	-11.8216
洛濵	-11.8216
聼訟觀	-11.8216
腐草為螢	-11.8216
道二出黄道	-11.8216
開白花	-11.8218
嘑	-11.8218
囷倉	-11.8218
汰	-11.8218
細栁圈	-11.8218
漢書禮樂志	-11.8218
堯樽	-11.8218
阪	-11.8218
駐輦	-11.8218
増便民圖纂十一月	-11.8218
賜高年	-11.8218
灼灼	-11.8218
颶	-11.8219
增漢書武帝紀元封	-11.8219
瀰	-11.8219
鯢	-11.8219
璇璣	-11.8219
以滿為限	-11.8219
原歳時雜記端午	-11.8219
含譽星見	-11.8219
茜	-11.8219
本命日	-11.8219
簸	-11.8219
五年再閏	-11.8219
正月望夜	-11.8219
箏	-11.8219
其數九其味辛其臭腥其祀門	-11.8219
太平御覧	-11.8219
杞菊	-11.8219
指天下皆	-11.822
碓	-11.8221
靧	-11.8221
原獨斷	-11.8221
絳囊	-11.8221
𤨏	-11.8221
復得子	-11.8221
麋角解	-11.8221
二年閏二月	-11.8221
周伯星	-11.8221
律中南吕	-11.8221
皚	-11.8221
緻	-11.8221
苹	-11.8221
四年春正月	-11.8222
御乾元門	-11.8222
増本草經	-11.8222
警蹕	-11.8222
帙	-11.8222
傚	-11.8222
西方白虎之宿	-11.8222
鵙	-11.8222
律中夷則	-11.8222
渺	-11.8222
瀏	-11.8222
喉舌	-11.8222
四十八箭	-11.8222
御製初秋	-11.8222
瘡疥	-11.8223
壹	-11.8223
杜鎬	-11.8223
纘	-11.8223
冗	-11.8223
聞喜宴	-11.8223
長三丈	-11.8223
搥	-11.8223
汀	-11.8223
増燕翼詒謀錄	-11.8223
移春檻	-11.8223
愷	-11.8223
試賢良方正	-11.8223
雉雊雞乳	-11.8224
有冬有夏	-11.8224
采根暴乾	-11.8225
分夜漏五十	-11.8225
週	-11.8225
唐書選舉志	-11.8225
増運氣論	-11.8225
鐘磬	-11.8225
􁀺	-11.8225
周而復始	-11.8225
天官冡宰	-11.8226
夢華録	-11.8226
挼	-11.8226
嵗有閏	-11.8226
裙腰	-11.8226
閏年圖	-11.8226
春生夏長	-11.8227
羌	-11.8227
猿猴	-11.8229
渝	-11.8229
所在有之	-11.8229
闘	-11.8229
臘月二十五	-11.8229
蓂莢	-11.823
悖	-11.823
増遼史	-11.823
酲	-11.823
𤾉谷	-11.823
月禮記月令曰孟	-11.823
月無中氣	-11.8232
時潮初	-11.8232
原荆楚嵗時記寒食	-11.8232
律中大呂	-11.8232
増玉海景徳	-11.8233
周禮天官凌人	-11.8233
氣罰見	-11.8233
鬱金香	-11.8233
兾	-11.8233
征鳥厲疾	-11.8233
菅	-11.8233
前漢律厯志曰	-11.8233
辰戌丑未	-11.8233
問如何是	-11.8234
京房易占	-11.8234
木有文	-11.8236
祺	-11.8236
起夜來	-11.8237
原荀子	-11.8237
罽	-11.8237
嬰蜺	-11.8237
諦	-11.8239
帀	-11.8239
盒	-11.8239
蜀芥蕓薹	-11.824
而起助	-11.824
涷	-11.824
為上考	-11.824
増翰林志	-11.8241
雍和殿	-11.8241
大晟樂	-11.8243
精之帝而	-11.8243
増乾淳歳時記禁中臘月三十日	-11.8244
緧	-11.8244
九月采實	-11.8244
棒鼓	-11.8247
學菴筆記	-11.8248
刻六分	-11.825
原禮先立	-11.825
蔈	-11.825
袪	-11.8251
厚二寸	-11.8251
天行健	-11.8252
記律書	-11.8254
増名醫别錄	-11.8255
民之府	-11.8255
鴈北鄉	-11.8258
俚俗	-11.8267
以犬嘗	-11.8268
於殿中	-11.8277
份	-11.8282
増宋史禮志大中祥符元年	-11.829
唐詩紀事景龍四年正月	-11.8305
酉為秋	-11.8338
乾淳歳時記除夜	-11.8347
花二候	-11.8376
曰講官起居注翰林院侍	-11.8378
増金史禮志	-11.8379
兖	-11.8381
挈壺氏	-11.847
祥符三年閏二月	-11.8485
年秋八月	-11.8526
乾淳歳時記端午	-11.8528
花三候	-11.8685
午蔀七	-11.8688
明帝太和	-11.8732
唐詩紀事景龍二年	-11.8969
増玉海紹興十四年	-11.8988
増舊唐書憲宗紀	-11.911
方来者	-11.9391
王建八月十	-11.9468
部左侍	-11.9563
平章事	-11.996
垂拱殿	-11.997
增後漢書明帝紀永平	-11.999
建隆二年	-12.0294
紫姑神	-12.0316
增皇極經世	-12.0491
原遼史禮志	-12.0518
草木萌動	-12.0552
萬物随陽	-12.0558
皇太后宫	-12.0596
乾徳二年	-12.0787
臣皆賦	-12.0844
水衡記黄河水	-12.0917
增舊唐書	-12.1188
原南部新書	-12.1198
之氣乗之也又行	-12.1199
增參同契	-12.1361
増宋史禮志大中祥符	-12.1362
其失次有應見	-12.1366
五木耳	-12.1406
石流黄	-12.142
結羊腸	-12.1422
遵生八牋	-12.1424
增清凉山志中臺	-12.1425
至霸上	-12.1425
疥	-12.1429
碕	-12.1429
獻民數扵王	-12.1431
紀厯撮要	-12.1434
哺	-12.1443
嵗終則㑹	-12.1443
用禽獻	-12.1443
白獸樽	-12.1443
薦韭卵	-12.1445
洛陽伽藍記	-12.1447
太平廣記	-12.1451
原夲草綱目	-12.1452
虈	-12.1452
竺	-12.1452
貓	-12.1454
朂	-12.1454
之日祭之於	-12.1454
則易之以	-12.1454
日在中衡	-12.1454
洞陽宫	-12.1454
百華燈	-12.1454
佗	-12.1458
濟世仁術	-12.1458
命民社	-12.1458
字倒貼	-12.1458
簼	-12.1458
為瀉吸為補夫	-12.1464
天皇大帝	-12.1464
晾	-12.1466
易通卦驗	-12.1466
嗽	-12.1468
呻	-12.1468
囓	-12.1468
茆	-12.1468
幬	-12.1468
愔	-12.147
原秦中嵗時記	-12.147
慈寧宫	-12.1471
春服既成	-12.1472
東京夢華錄八月秋社	-12.1472
藙	-12.1472
索鬼神而祭祀	-12.1473
四月純陽用事	-12.1473
降婁之次	-12.1473
原集異記明皇	-12.1474
劬	-12.1475
忝	-12.1475
増北京歳華記	-12.1475
湘隂縣	-12.1475
辣	-12.1476
之用事常以	-12.1477
諒	-12.1477
增謝承後漢書	-12.1477
原名勝志	-12.1477
增世説	-12.1477
毆	-12.1477
襯	-12.1477
所立之官	-12.1477
瑗	-12.1477
増選擇厯書	-12.1477
奐	-12.1477
靈寳符	-12.1479
敷于散	-12.1479
雲紀官	-12.1479
荑	-12.148
憊	-12.1481
増錄異記	-12.1481
溱	-12.1481
霓裳羽衣曲	-12.1481
蟳	-12.1481
燕見於邑	-12.1481
増金史世宗紀	-12.1481
刷	-12.1483
地官司徒	-12.1483
蜼	-12.1485
篁	-12.1485
高尺餘	-12.1485
原遵生八箋	-12.1485
登科記	-12.1485
腒	-12.1485
港	-12.1485
明堂左个	-12.1485
煠	-12.1485
靉	-12.1485
丹田中	-12.1486
西都賦	-12.1487
進易解	-12.1487
周宣王	-12.1487
増禮郊特牲	-12.1487
玉樓春詞	-12.1487
續博物志	-12.1487
南康記	-12.1487
㑹慶莭	-12.1487
減一文	-12.1487
象之法扵象魏	-12.1487
白日昇仙	-12.1489
自空而下	-12.1489
淥	-12.1489
増宋史禮志政和三年	-12.1489
無虚士	-12.1489
瑜	-12.1489
青陽左个	-12.1489
􁇪	-12.1489
輟耕録	-12.149
薩	-12.1491
原帝京景物略	-12.1491
悸	-12.1491
憬	-12.1491
媛	-12.1491
江總入攝山棲霞寺詩序	-12.1491
葑	-12.1491
㕑	-12.1491
堰	-12.1491
姊	-12.1491
忠懿王	-12.1491
捫蝨新話	-12.1491
百年者如	-12.1491
躔	-12.1492
原周禮地官黨正	-12.1493
湫	-12.1493
宋史選舉志	-12.1493
增周禮秋官	-12.1493
則為王者師	-12.1493
右文殿	-12.1493
月莭晝用十一文夜用	-12.1493
漱	-12.1493
簽	-12.1493
郫	-12.1493
鞠則見	-12.1493
魦	-12.1493
沅	-12.1495
嶺表録異	-12.1495
暌	-12.1495
睫	-12.1495
懾	-12.1495
増陳𤾉樂書	-12.1495
籮	-12.1495
撿	-12.1495
鸚	-12.1495
取之無所擇也	-12.1495
光禄大夫	-12.1495
郟	-12.1495
勞農勸民	-12.1495
搔	-12.1495
以手摩送之	-12.1495
詹事府少詹	-12.1495
金史世宗紀大定	-12.1497
元氏掖庭記	-12.1497
崩	-12.1497
彷	-12.1497
氏家訓	-12.1497
山林川澤	-12.1497
轆	-12.1497
骼	-12.1497
七修𩔖稿	-12.1497
婆利國	-12.1497
簣	-12.1497
讐	-12.1497
八能士	-12.1497
果如其言	-12.1497
西溪叢語	-12.1497
鑣	-12.1497
乾明節	-12.1497
拾遺記背明國	-12.1497
髯	-12.1498
曈曈	-12.1498
鴆	-12.1498
躑	-12.1498
断	-12.1499
漢靈帝	-12.1499
太陽過宫	-12.1499
斸	-12.1499
鼐	-12.1499
裒	-12.1499
麴米春	-12.1499
佞	-12.1499
原漢書郊祀志	-12.1499
張仁亶	-12.1499
旬有五日	-12.1499
舉白旗	-12.1499
須彌山	-12.1499
𫝊云昔	-12.15
原説苑	-12.15
建寅為正	-12.15
増神異經	-12.15
宋史外國𫝊	-12.15
懔	-12.15
給春衣	-12.15
薦寝廟	-12.15
聿	-12.15
遘	-12.15
增正蒙	-12.15
刻巳未	-12.15
太上老君	-12.15
曲水詩序	-12.1501
烜	-12.1501
緹縞	-12.1501
蜑	-12.1501
軋	-12.1501
鬼宿渡河	-12.1501
黑猪渡河	-12.1501
霓	-12.1502
絹袋盛	-12.1502
輜	-12.1502
狸	-12.1502
礫	-12.1502
命羣臣賦詩	-12.1502
頽	-12.1502
㬠	-12.1502
增瑯嬛記	-12.1502
愴	-12.1502
淳化三年三月	-12.1502
惋	-12.1502
膠牙餳	-12.1502
躑躅	-12.1502
溫庭筠	-12.1502
通天犀	-12.1502
􁁬	-12.1502
命四監	-12.1502
易之地家	-12.1502
鏁	-12.1502
長二三尺	-12.1502
増宋史理宗紀	-12.1503
湓	-12.1503
增魏志	-12.1503
薰陸香	-12.1504
宗尊也	-12.1504
増桂海	-12.1504
爨	-12.1504
㕍	-12.1504
擂	-12.1504
孝弟力田	-12.1504
折衝都尉	-12.1504
椶	-12.1504
珂	-12.1504
霜露既降	-12.1504
原韓非子	-12.1504
啾	-12.1504
増學圃雜疏	-12.1504
冊府元龜	-12.1504
劔	-12.1504
篦	-12.1504
餒	-12.1504
不能自存者	-12.1504
漢書刑法志	-12.1504
王欽若	-12.1504
舉黄旗	-12.1504
春之徳風風不信	-12.1506
酹	-12.1506
盍	-12.1506
氤	-12.1506
饅	-12.1506
冕旒	-12.1506
群	-12.1506
諸葛武侯	-12.1506
史記龜䇿𫝊	-12.1506
塍	-12.1506
祥符五年閏十月	-12.1506
莫大焉	-12.1506
讀三朝寳訓	-12.1506
増宋史太宗紀淳化	-12.1506
掉	-12.1506
櫛	-12.1506
窈窕	-12.1506
牲毛之	-12.1506
龍見而雩	-12.1506
觱	-12.1506
硫	-12.1508
訃	-12.1508
風土記蜀之風俗	-12.1508
鼗	-12.1508
増北史魏孝文帝紀	-12.1508
宋史禮志太平興國九年	-12.1508
增玊海	-12.1508
碣	-12.1508
周禮天官内宰	-12.1508
服衮冕	-12.1508
畚	-12.1508
瑞聖園觀稼	-12.1508
綻	-12.1508
醺	-12.1508
颷	-12.1508
啞	-12.1508
朱子家禮集説	-12.1508
刑徳合門	-12.1508
卦六四	-12.1508
大中祥符四年	-12.1508
牷	-12.1508
謾	-12.1508
闡	-12.151
增周禮天官	-12.151
請以二月十六	-12.151
秦昭王	-12.151
祲	-12.151
匕	-12.151
周禮天官宫正	-12.151
堂月令論	-12.151
蘧	-12.151
潼	-12.151
穜稑之種	-12.151
鱣	-12.151
増玉海咸平五年	-12.151
波濤洶湧	-12.151
磅	-12.151
肘	-12.151
鑽	-12.151
元鳥燕也	-12.151
増洛陽牡丹記	-12.151
悼	-12.151
梁書諸夷傳	-12.151
致仕官	-12.151
蛑	-12.151
蝤	-12.151
也日之行	-12.151
參知政事	-12.151
命野虞	-12.151
天地相遇	-12.151
盧諶祭	-12.151
青陽大廟	-12.151
轍	-12.1511
峨	-12.1512
罇	-12.1512
鎚	-12.1512
國老庶老	-12.1512
盫	-12.1512
冄	-12.1512
増漢書宣帝紀元康	-12.1512
靴	-12.1512
㐮	-12.1512
僧伽大師	-12.1512
宣和書譜	-12.1512
建已之月	-12.1512
李適詩	-12.1512
秘書郎	-12.1512
莫曉其	-12.1512
唐會要貞觀二十	-12.1512
樂飲宴	-12.1512
窩	-12.1512
褢	-12.1512
試武藝	-12.1512
帥其屬而	-12.1512
増食物本草	-12.1512
漢人南人	-12.1512
看麥娘	-12.1512
舉賢良方正	-12.1512
趋	-12.1512
鵲巢知風	-12.1512
􁂔	-12.1512
洱	-12.1514
冬曰烝	-12.1514
增輿地紀勝	-12.1514
宴京畿父老	-12.1514
增物類相感志	-12.1514
玘	-12.1514
頋	-12.1514
噀	-12.1514
攅	-12.1514
灝	-12.1514
羃	-12.1514
歸句曲	-12.1514
祭馬歩	-12.1514
蟁蝱	-12.1514
句曲山	-12.1514
杜子美	-12.1514
煤	-12.1514
驥	-12.1514
三時不害	-12.1514
原家語	-12.1514
増集異記	-12.1514
增隋書天文志	-12.1514
學射山	-12.1514
臨海異物志	-12.1514
鑠	-12.1514
玉燭寳典	-12.1515
敖	-12.1516
増舊唐書明皇紀天寳	-12.1516
姪	-12.1516
凟	-12.1516
枌榆社	-12.1516
蘅	-12.1516
增大戴禮方	-12.1516
濱	-12.1516
黄道去極	-12.1516
令蠶妾	-12.1516
肚	-12.1516
堋	-12.1516
妬	-12.1516
赤壁賦	-12.1516
逞	-12.1516
増玉海乾徳四年	-12.1516
莎雞振羽	-12.1516
陷	-12.1516
雲笈七籖茅盈	-12.1516
修火禁	-12.1516
天書再降	-12.1516
謗	-12.1516
陵陽子明經	-12.1516
圯	-12.1516
増唐會要武徳	-12.1516
增唐會要天寳九載	-12.1516
跑	-12.1516
鶉火之次	-12.1516
若耶溪	-12.1516
蚳	-12.1516
律中㽔賔	-12.1516
晼	-12.1518
筝	-12.1518
翡	-12.1518
或黄或	-12.1518
􁊥	-12.1518
後漢書鍾離意	-12.1518
撼	-12.1518
潢	-12.1518
衘	-12.1518
幸河東祠后	-12.1518
備法駕	-12.1518
増南史王僧孺	-12.1518
縣西三十里	-12.1518
范成大呉郡志	-12.1518
韜	-12.1518
題四韻	-12.1518
増唐書李適𫝊	-12.1518
桲	-12.1518
汛	-12.1518
渌	-12.1518
瓘	-12.1518
綌	-12.1518
金史太宗紀天㑹	-12.1518
金桃銀桃	-12.1518
鱧	-12.1518
嬾眞子録	-12.1518
律中夹鍾	-12.1518
旋味筍	-12.1518
穣	-12.1518
臕	-12.1518
青陽右个	-12.1518
晉書武帝紀泰	-12.1518
翰林院編修	-12.1519
垜	-12.152
宋史哲宗紀	-12.152
吳葵華	-12.152
東京夣華錄七	-12.152
狥	-12.152
乾象歴	-12.152
凌冬不凋	-12.152
増宋書符瑞志晋	-12.152
増玉海至和元年	-12.152
鶉尾之次	-12.152
天慶觀	-12.152
不落夾	-12.152
唐書高宗紀	-12.152
絪	-12.152
藹藹	-12.152
虱	-12.152
見於成紀	-12.152
匡	-12.152
鷙鳥不	-12.152
以畢春氣	-12.152
李啇隐	-12.152
遊之極地則升降	-12.152
鳥氏司	-12.152
粢	-12.1521
灞	-12.1521
蒼璧禮	-12.1522
桔	-12.1522
北戸錄	-12.1522
増説苑	-12.1522
東觀漢記	-12.1522
虬	-12.1522
長八九尺	-12.1522
嚶嚶	-12.1522
娃	-12.1522
岑参詩	-12.1522
挺重囚	-12.1522
毓	-12.1522
雝	-12.1522
髙陽氏	-12.1522
執干戚	-12.1522
屧	-12.1522
揫	-12.1522
楓窻小牘	-12.1522
鋤成行	-12.1522
雉尾蓴	-12.1522
寛恤詔令	-12.1522
施㤙澤	-12.1522
斿	-12.1522
星亡有	-12.1522
蝏	-12.1522
棒	-12.1522
校書郎	-12.1523
継	-12.1523
裀	-12.1523
捍	-12.1524
殽	-12.1524
巻	-12.1524
扛	-12.1524
時摘取	-12.1524
書終篇	-12.1524
綖	-12.1524
賜諸侯王	-12.1524
鎧	-12.1524
鬆	-12.1524
後漢書安帝紀元初六年	-12.1524
辟寒犀	-12.1524
子午夘酉	-12.1524
朮	-12.1524
銜丹書	-12.1524
劚	-12.1524
原翰墨大全	-12.1524
枕中記西河女子服枸杞法	-12.1524
稟	-12.1524
仄	-12.1524
佯	-12.1524
党項	-12.1524
冬月采之	-12.1524
増晋書律歴志	-12.1524
沉水香	-12.1524
聞見後錄	-12.1524
至朔同日	-12.1524
萬物月為之佐時萬物	-12.1524
讚	-12.1524
隷	-12.1524
騂	-12.1524
册府元龜	-12.1524
参知政事	-12.1524
増本草衍義	-12.1524
増桂海花木志	-12.1524
増橘錄	-12.1524
延春閣	-12.1524
無餘分是謂	-12.1524
熯	-12.1524
獻白雉	-12.1524
莅	-12.1524
踆	-12.1524
雲笈七	-12.1524
靈源公	-12.1524
􁄾	-12.1524
峨峨	-12.1525
水調服	-12.1525
璿	-12.1525
粹	-12.1525
春秋考異郵	-12.1525
酤	-12.1525
䜴	-12.1525
噏	-12.1525
増膳夫録汴中	-12.1525
湧幢小品	-12.1525
甆	-12.1525
堂距邦	-12.1526
屆	-12.1526
増漢書武帝紀建元元年	-12.1526
錦繡萬花谷	-12.1526
風颯然	-12.1526
債	-12.1526
祠先農	-12.1526
輭	-12.1526
等二十四人	-12.1526
髭	-12.1526
𤦺	-12.1526
卷目録	-12.1526
四時占候	-12.1526
平坐鳴	-12.1526
漢書武帝紀太始	-12.1526
秋白冬黒	-12.1526
肻	-12.1526
一百言演	-12.1526
兢	-12.1526
冔	-12.1526
反支日	-12.1526
呬	-12.1526
子干戊子	-12.1526
春風扇㣲和	-12.1526
燖	-12.1526
物又其外方五百里謂	-12.1526
玉盤盂	-12.1526
瑰	-12.1526
甓	-12.1526
百舌鳥	-12.1526
示許長史	-12.1526
篙	-12.1526
舊年燈	-12.1526
菊華酒	-12.1526
螘	-12.1526
辛壬癸甲	-12.1526
都水監	-12.1526
鶩	-12.1526
晁補之	-12.1526
纍	-12.1527
冰三其凌	-12.1527
嗛	-12.1527
泂	-12.1527
劉孝威	-12.1527
禕	-12.1527
彘膏塗	-12.1527
増事文𩔖聚	-12.1527
御延和殿	-12.1527
獻菊花酒稱	-12.1527
甘松香	-12.1527
秋登慈恩浮	-12.1527
原談薈正月	-12.1527
成公綏	-12.1527
秕	-12.1527
含光殿	-12.1527
唳	-12.1527
坦氣修通	-12.1527
増玉海淳化元年	-12.1527
禆	-12.1527
禳禬	-12.1527
紫雲樓	-12.1527
鰕	-12.1527
鶉首之次	-12.1527
㓕	-12.1527
原杜陽雜編	-12.1527
太姥山	-12.1527
子干壬子	-12.1527
癰	-12.1527
緬	-12.1527
臉	-12.1527
雲如羣羊	-12.1527
増周禮夏官	-12.1528
干寳曰	-12.1529
䙝	-12.1529
兀	-12.1529
笻	-12.1529
訥	-12.1529
天寳四載	-12.1529
天氣下降地氣	-12.1529
讞	-12.1529
畫見聞志	-12.1529
張衡西京賦	-12.1529
臧榮緒晉書	-12.1529
周禮夏官挈壺氏	-12.1529
怪而問之	-12.1529
昒	-12.1529
春可樂兮樂	-12.1529
歡無極	-12.1529
􁲖	-12.1529
如車蓋	-12.1529
建辰之月	-12.1529
捫	-12.1529
於元武門	-12.1529
玉海康定元年九月	-12.1529
系	-12.1529
闉	-12.1529
集英殿	-12.1529
𥚑	-12.1529
増元稹詩	-12.1529
增後漢書光武紀建武	-12.1529
姻	-12.1529
實沈之次	-12.1529
昭君墓	-12.1529
殄	-12.1529
詡	-12.1529
鶗	-12.1529
洪範皇極	-12.1529
硃	-12.1531
春官宗伯	-12.1531
蒞	-12.1531
𫝊燈錄	-12.1531
元枵之次	-12.1531
庇	-12.1531
搦	-12.1531
帔	-12.1531
褊	-12.1531
陳後主	-12.1531
增路史	-12.1531
奮迅	-12.1531
戢	-12.1531
肘後方	-12.1531
増玉海太平興國五年	-12.1531
増隋書禮儀志後齊	-12.1531
慶成節	-12.1531
洛陽花木記	-12.1531
炅	-12.1531
𦍑	-12.1531
玉海熈寕	-12.1531
湖志餘	-12.1533
幻	-12.1533
夏以十三月為	-12.1533
永樂十	-12.1533
汨	-12.1533
樂遊苑	-12.1533
澈	-12.1533
􁮺	-12.1533
增陳書宣帝紀太建	-12.1533
憾	-12.1533
母李氏	-12.1533
蒹	-12.1533
破陣樂	-12.1533
菟	-12.1533
増玉海咸平四年	-12.1533
増玉海嘉祐三年	-12.1533
裵	-12.1533
醿	-12.1533
三卿是	-12.1533
婆羅門	-12.1533
摩㬋羅	-12.1533
種冬藍	-12.1533
羝	-12.1533
芒種五月莭	-12.1533
顧渚山	-12.1533
倮	-12.1533
午甌茶	-12.1533
庾闡	-12.1533
朝服而朝	-12.1533
羙農臺	-12.1533
鳳毛金	-12.1533
黄道游儀	-12.1533
寰瀛	-12.1534
蜓	-12.1535
嬴	-12.1535
鴦	-12.1535
長三四寸	-12.1535
増舊唐書德宗紀貞元	-12.1535
增開寳本草	-12.1535
㯶	-12.1535
彞	-12.1535
春秋繁露王者能	-12.1535
嶽鎮海瀆	-12.1535
挫	-12.1535
裂葉風	-12.1535
駑	-12.1535
李光地	-12.1535
欹	-12.1535
埀	-12.1535
賀表曰	-12.1535
鍪	-12.1535
閟	-12.1535
増天中記	-12.1535
増續夷堅志	-12.1535
初一日洞元靈寳月十齋二十	-12.1535
味極甘	-12.1535
増張籍詩	-12.1535
增宋史樂志	-12.1535
慈烏巢	-12.1535
溷	-12.1535
獻楛矢石砮	-12.1535
腑	-12.1535
阮籍詩	-12.1535
公旬用	-12.1535
剥鱓	-12.1535
増齊民要術五月芒種莭	-12.1535
怯	-12.1535
拍拍	-12.1535
文苑英華	-12.1535
春色滿皇州	-12.1535
燕子磯	-12.1535
祭五祀	-12.1535
縂	-12.1535
聖祖降	-12.1535
重明鳥	-12.1535
行春令則蝗	-12.1536
慶善宫	-12.1537
舊唐書西戎傳	-12.1537
揮麈前錄	-12.1537
生為春熟為秋	-12.1537
貶	-12.1537
宋子京	-12.1537
洶	-12.1537
覊	-12.1537
仆	-12.1537
原玉歴璇璣	-12.1537
孶	-12.1537
舛	-12.1537
蕓薹	-12.1537
以石壓	-12.1537
侠	-12.1537
原山居四要	-12.1537
攢	-12.1537
歴率百年	-12.1537
蘇易簡	-12.1537
言之自午	-12.1537
貛	-12.1537
犧	-12.1537
獅	-12.1538
雷乃𤼵聲	-12.1538
峨眉山	-12.1538
韓愈南山詩	-12.1539
冉	-12.1539
汚	-12.1539
以十一月為正	-12.1539
愉	-12.1539
二年春正月	-12.1539
増武林舊事	-12.1539
廣莫風至	-12.1539
慷	-12.1539
豺乃祭獸	-12.1539
殷七七	-12.1539
茨菰	-12.1539
蕚	-12.1539
嶂	-12.1539
常氏日錄	-12.1539
聪	-12.1539
墠	-12.1539
涒灘	-12.1539
皆月祭之	-12.1539
端午日賜	-12.1539
唐書儀衛志	-12.1539
藺	-12.1539
蟄蟲始振	-12.1539
詔送史館	-12.1539
孔武仲	-12.1539
廣寒殿	-12.1539
復元氏	-12.1539
沌	-12.1539
生于閏	-12.1539
禪社首	-12.1539
蕖	-12.1539
韉	-12.1539
陽生於子	-12.1539
娠	-12.154
吃	-12.1541
鞾	-12.1541
原金門嵗節記洛陽人	-12.1541
増魏書禮志	-12.1541
補小月	-12.1541
儲光羲	-12.1541
昶	-12.1541
欬	-12.1541
夏后氏	-12.1541
原相宅要説子午	-12.1541
增本草衍義	-12.1541
東女國	-12.1541
焞	-12.1541
訝	-12.1541
鴳	-12.1541
䜛	-12.1541
妝	-12.1541
日當其時	-12.1541
日雨人食	-12.1541
是也歲欲	-12.1541
爻十日為	-12.1541
用桑木	-12.1541
祀雨師	-12.1541
立夏後申日	-12.1541
箙	-12.1541
絍	-12.1541
羞寒花	-12.1541
翥	-12.1541
而百姓有餘	-12.1541
蹙凌水	-12.1541
騎火茶	-12.1541
款	-12.1541
原宋書王	-12.1543
隗	-12.1543
㨿	-12.1543
周禮地官鄉師	-12.1543
蘇頲應制	-12.1543
必釋菜	-12.1543
獻繭於	-12.1543
𠻳	-12.1543
遴	-12.1543
紅綾扇	-12.1543
踵	-12.1543
入澤梁	-12.1543
劉勰新論	-12.1543
増唐書食貨志凡新附	-12.1543
皇覽逸禮	-12.1543
享先王以	-12.1543
冬之徳寒寒不信	-12.1543
原朝野僉載	-12.1543
址	-12.1543
大廟大室	-12.1543
東井輿鬼	-12.1543
棕	-12.1543
棨	-12.1543
永泰元年	-12.1543
海寕縣志	-12.1543
燔	-12.1543
薟	-12.1543
虞翻曰	-12.1543
豨	-12.1543
逰斜川	-12.1543
金虀玉膾	-12.1543
朐	-12.1543
存此月純陽疑於無隂故亦謂之隂月	-12.1544
▁朱子曰	-12.1545
九門磔	-12.1545
耬耩	-12.1545
各從其事	-12.1545
楊師道	-12.1545
原易飛候	-12.1545
三輔黄圗	-12.1545
修内司	-12.1545
倖	-12.1545
增齊民要術食經	-12.1545
神光照室	-12.1545
匪懈	-12.1545
増唐㑹要顯慶	-12.1545
増成都古今記	-12.1545
嵓	-12.1545
律歷志	-12.1545
搬	-12.1545
時天貴星太乙星	-12.1545
穟	-12.1545
荻苗水	-12.1545
五月參則見	-12.1545
出凓下霜	-12.1545
増太平廣記謝自然	-12.1545
榞	-12.1545
瑱	-12.1545
竹迷日	-12.1545
韭蓱韲	-12.1545
摯	-12.1546
原後漢書章帝紀	-12.1546
増夲草	-12.1546
増雜五行書	-12.1547
襃	-12.1547
原紀歴撮要	-12.1547
秦中歲時記	-12.1547
榖梁𫝊	-12.1547
兕	-12.1547
増西湖志餘淳熙	-12.1547
晦朔弦望	-12.1547
左𫝊昭公	-12.1547
中書宻院	-12.1547
兩兩相對	-12.1547
勿令泄氣	-12.1547
復槽水	-12.1547
晃	-12.1547
瓊林宴	-12.1547
節之中月	-12.1547
蹊	-12.1547
㸃艾杖	-12.1547
䄠	-12.1547
増金史太祖紀	-12.1547
宿酘米	-12.1547
山稱萬嵗	-12.1547
會慶節	-12.1547
癡獃	-12.1547
箧	-12.1547
絁	-12.1547
賣春困	-12.1547
髹	-12.1547
鰽	-12.1547
和令調	-12.1549
木也其牲以	-12.1549
況	-12.1549
歌括云	-12.1549
是何祥也	-12.1549
南方有赤雲	-12.1549
秋秋之為言愁也愁之以時察守	-12.1549
葆	-12.1549
陳暘樂書	-12.1549
保生要錄	-12.1549
宣徳門	-12.1549
寖	-12.1549
治平四年	-12.1549
犒	-12.1549
鏘鏘	-12.1549
命漁師	-12.1549
易關市	-12.1549
消夏灣	-12.1549
舍利放光	-12.1549
驍	-12.1549
黄鍾之宮	-12.1549
紬	-12.155
謂宰相曰	-12.155
敉	-12.1551
月上旬㧞毛入籠	-12.1551
寳馬香車	-12.1551
京房易候	-12.1551
年益夀	-12.1551
餈	-12.1551
捷	-12.1551
八佾舞	-12.1551
原道書正月	-12.1551
增唐六典凡	-12.1551
机	-12.1551
七夕穿鍼詩	-12.1551
六戊日	-12.1551
瀟湘	-12.1551
煼	-12.1551
白紵歌	-12.1551
竟陵王子良	-12.1551
茘	-12.1551
鷹乃祭鳥	-12.1551
梁書武帝紀	-12.1551
霙	-12.1552
鷹乃學習	-12.1552
其數六其味鹹其臭朽其祀行祭先腎	-12.1552
赤奮若	-12.1552
懇	-12.1553
中數曰嵗	-12.1553
和四年七月	-12.1553
散騎常侍	-12.1553
㳂	-12.1553
之時萬物始	-12.1553
習水戰	-12.1553
䕸	-12.1553
乾㑹節	-12.1553
刻夜損	-12.1553
夕晴麻	-12.1553
後苑觀稻	-12.1553
春耕夏耘秋	-12.1553
盛徳在火	-12.1553
纍纍	-12.1553
范文正公	-12.1553
藏春塢	-12.1553
躭	-12.1553
郭子儀	-12.1553
隧	-12.1553
鮫綃	-12.1553
建焉而辰	-12.1554
一年之内有	-12.1554
龍朔二年	-12.1554
掀	-12.1554
柳宗元	-12.1554
竄	-12.1554
公羊春王正月	-12.1554
秋分在社	-12.1554
范汪祠制	-12.1554
七月流火	-12.1554
七月鳴鵙	-12.1554
兔絲子	-12.1554
冏	-12.1554
國中屬而和者	-12.1554
夌	-12.1554
方之弧以	-12.1554
月㑹於鶉	-12.1554
狸子肇肆	-12.1554
謿	-12.1554
錫慶院	-12.1554
増魏志	-12.1556
增論衡	-12.1556
鈐	-12.1556
元史世祖紀	-12.1556
莫大乎	-12.1556
盎	-12.1556
砍	-12.1556
氣上騰	-12.1556
夏之月日在	-12.1556
朔數曰年	-12.1556
檝	-12.1556
洵	-12.1556
陳王業	-12.1556
増舊唐書明皇紀開元	-12.1556
水徳之始	-12.1556
飛龍在天	-12.1556
齎本月	-12.1556
也日影隨	-12.1556
官少内	-12.1556
憫農歌	-12.1556
武英殿總監造	-12.1556
狨	-12.1556
盛徳在水	-12.1556
盱	-12.1556
紫檀殿	-12.1556
蛆	-12.1556
斯螽動股	-12.1557
履端於始	-12.1558
文潞公	-12.1558
耬	-12.1558
殳	-12.1558
之所致也	-12.1558
元好問	-12.1558
晉書律厯志	-12.1558
唐書百官志少府監	-12.1558
大撓作甲子	-12.1558
褓	-12.1558
襁	-12.1558
鵰	-12.1558
事母至孝	-12.1558
恂	-12.1558
楊維楨	-12.1558
武英殿監造	-12.1558
湟	-12.1558
祓除釁浴	-12.1558
總章大廟	-12.1558
翠寒堂	-12.1558
舶䑲風	-12.1558
醉鄉日月	-12.1558
養壯佼	-12.1558
𣙜酤	-12.1558
元封元年	-12.156
及尺餘	-12.156
核中仁	-12.156
王筠詩	-12.156
蝡	-12.156
午未申酉	-12.156
十六國春秋	-12.156
原隋書禮儀志隋制	-12.156
馬承直	-12.156
鷟	-12.156
乾象法	-12.156
蠛	-12.156
黄楊厄	-12.156
升少半	-12.156
析木之次	-12.156
羅漢絛	-12.156
醇酎	-12.156
范祖禹	-12.1561
冬日月㑹於	-12.1561
嶷	-12.1562
匾	-12.1562
匙	-12.1562
瘥	-12.1562
二十四度去北	-12.1562
儡	-12.1562
曹溪寺	-12.1562
刻三分夜	-12.1562
増南史宋孝武帝紀大明元年五月丙寅	-12.1562
臘前三白	-12.1562
再失閏	-12.1562
後漢書郡國志	-12.1562
祭靈星	-12.1562
鐺	-12.1564
畝收十石	-12.1564
藐	-12.1564
奉聖亭侯	-12.1564
禮記鄉飲酒曰	-12.1564
燕都逰覽志	-12.1564
物𩔖相感志	-12.1564
㪷	-12.1564
原便民圖纂	-12.1564
晝漏四十五刻	-12.1564
月幾望	-12.1564
毣	-12.1564
澄水帛	-12.1564
薏	-12.1564
除肉刑	-12.1564
娵訾	-12.1565
欽定四庫全書歲時廣記卷	-12.1566
斗麴殺	-12.1566
趁	-12.1566
拈	-12.1566
􁉸	-12.1566
若東南風	-12.1568
晝漏四十八刻	-12.1568
主失財	-12.1568
剛柔始交	-12.1568
昌平山水記	-12.1568
物於時為	-12.1568
百子池	-12.1568
別	-12.1569
涂	-12.1569
酸收之以苦𤼵之	-12.157
燒存性	-12.157
増聞見録	-12.157
以火燒之	-12.157
増說苑	-12.157
嵎	-12.157
種蘭香	-12.157
日候之乙	-12.157
原東方朔占書一日得	-12.157
歸餘於終	-12.1572
廣異記	-12.1572
揲	-12.1572
柜	-12.1572
𥘉	-12.1574
延英殿	-12.1574
百九十二	-12.1574
乾元元年	-12.1574
虹蔵不見	-12.1574
入學習吹	-12.1574
地八天九地十	-12.1574
窈	-12.1576
祭先蠶	-12.1578
劇談録	-12.1578
倉開日宜	-12.1579
原鶡冠子斗柄	-12.1579
揚子江	-12.158
之所司者萬二千里其令曰	-12.158
帝女桑	-12.158
著器中	-12.158
尊皆有罍諸臣	-12.158
陌上花	-12.158
大皥句芒	-12.1581
原詩二之日	-12.1581
聯	-12.1581
之所昨也	-12.1581
命取冰	-12.1581
寎	-12.1581
猫兒眼	-12.1581
欽天監	-12.1583
封十八姨	-12.1583
餤	-12.1583
九十六刻	-12.1583
雉震呴	-12.1583
鮸	-12.1583
總章右个	-12.1587
宰相宋琪等	-12.1588
嵗時廣記	-12.1589
增雍録	-12.1589
南二里	-12.1591
置𢎞文	-12.1591
爕	-12.1591
曲江春宴録	-12.1593
佃	-12.1597
華清宫	-12.1599
原便民書	-12.1599
湊	-12.1599
啗	-12.1601
天道南行	-12.1601
之月法萬物	-12.1601
五地六天	-12.1603
品藥性	-12.1605
悲遊子	-12.1607
王負戴於	-12.161
後漢書章帝紀元和二年二月	-12.1612
劍割肉	-12.162
實作房	-12.1625
宰相及學士得從	-12.1633
色甚明	-12.1633
飧	-12.1668
南二十里	-12.1689
月十有八日	-12.1703
月奉教	-12.1807
唐㑹要貞觀十八年	-12.1944
玉海天聖七年	-12.2149
八月十四夜	-12.2193
史記孝武	-12.2237
年九月辛夘	-12.2363
唐書太宗紀貞觀二年	-12.2421
玉海祥符九年	-12.2663
唐詩紀事景龍三年	-12.2805
迎紫姑	-12.2898
月收者為	-12.3145
同平章	-12.337
真人楊羲	-12.41
年冬閏十	-12.415
再餾飯	-12.5699
幸含芳園	-12.5862
增唐書太宗紀貞觀	-12.5863
曰講官起居注	-12.5996
律中中呂	-12.6036
蟲羽其音徵	-12.604
金史禮志天	-12.6139
有十二萬九	-12.6318
天蝦鮓	-12.637
淘淨曬	-12.6386
日三尸遊两	-12.6389
星昬中可以種	-12.6396
處七十日可用	-12.6398
怯夜幡	-12.6402
芝生殿防	-12.6402
駸	-12.6402
洞元靈寳月十齋	-12.6405
石窩稻	-12.6408
者則白日昇仙甲	-12.6411
翃	-12.6413
原帝京景物略正月十六日婦女	-12.6414
均利器用	-12.6414
春女感陽	-12.6414
繋牛牧馬	-12.6414
白綾衫	-12.6417
凡染春暴練	-12.6417
真人乘元景	-12.6417
原霏雪録	-12.642
月夜乗舟	-12.642
集福世界	-12.642
増雲仙襍記	-12.6424
垂拱二年	-12.6425
塒	-12.6427
増荆楚歳時記十二月八日為臘日	-12.6427
戩	-12.6427
月讀一箱	-12.6427
法王料斗	-12.6427
猩	-12.6427
鄭愔詩	-12.6427
雉朝雊	-12.6427
閹	-12.6428
楮葉包	-12.643
復置宗學	-12.643
斑皮竹笋	-12.643
月薦果以	-12.643
正會禮正旦夜漏未盡七	-12.643
痟	-12.643
䃰	-12.6433
上真赤帝君	-12.6433
停針線	-12.6433
原唐書李泌傳	-12.6433
左傳子產曰	-12.6433
旬中空亡	-12.6433
有嗽上氣	-12.6433
社壇餘胙酒	-12.6433
罟田獸	-12.6433
輪挑背	-12.6433
醸	-12.6436
鮑姑艾	-12.6436
三月三日蠶市之辰	-12.6439
元都大獻	-12.6439
兹中和節式慶	-12.6439
政如農功	-12.6439
朝朝莫夕	-12.6439
朱陽赤殿	-12.6439
製新樂詩	-12.6439
誦經九函	-12.6439
避蟲毒	-12.6439
餽酒六壺	-12.6439
􁥦	-12.6439
六氣一十八候皆	-12.644
娀	-12.6442
䤅	-12.6442
僧繇畫	-12.6442
取蟾酥	-12.6442
恪居官次	-12.6442
進单羅	-12.6442
􁍩	-12.6442
嗔拳笑面	-12.6446
増玉海祥符三年正月二十八日	-12.6446
天尊像記	-12.6446
撇	-12.6446
日入監九御	-12.6446
獻河清頌	-12.6446
諴	-12.6446
過見之則白日昇仙	-12.6446
嶸	-12.6449
夏没冬出	-12.6449
增司馬相如	-12.6449
冬至樂用管	-12.6449
圓徑八尺一寸	-12.6449
増樂緯坎主	-12.6449
鼓用馬革	-12.6449
在酉大梁之	-12.6449
増禮天子祭天地䟽	-12.6449
晉書藝術傳	-12.6449
又問傳舍長答曰	-12.6449
察行陵廟	-12.6449
春雲處處生	-12.6449
葚	-12.6452
諏	-12.6452
原異苑晉	-12.6452
一人燭不為	-12.6452
人掌擊漏	-12.6452
保夀侯誕	-12.6452
倚井欄	-12.6452
則怠怠則	-12.6452
劒而歌曰長鋏歸来乎	-12.6452
城闔門之鑰	-12.6452
増㑹稽志二月二日	-12.6452
居門終月	-12.6452
政曰令禁	-12.6452
書日中星鳥	-12.6452
甖	-12.6452
甯戚飯牛	-12.6452
開門之鑰後	-12.6452
體數四而用三	-12.6452
増越絶書	-12.6455
主米暴貴	-12.6455
江夏王義恭	-12.6455
艮主立春樂用塤	-12.6455
豆八十者五豆九十者	-12.6455
骨利幹	-12.6455
十八日祠眀堂	-12.6455
季夏六月土王	-12.6455
希逹太子	-12.6455
旬日秉筆	-12.6455
糅	-12.6455
謌	-12.6455
増便民圖纂	-12.6457
抬遺記	-12.6458
當夏而叩羽	-12.6458
皦	-12.6458
黄鍾霜雪交下川池暴	-12.6458
三豆七十者四	-12.6458
鈸	-12.6458
菔	-12.6458
怖懼而	-12.6458
朝日於東門之外	-12.6458
云與君同甲子	-12.6458
井七日七夜是謂水湅	-12.6458
名醫別録	-12.6458
囿有見杏	-12.6458
圮	-12.6458
地藏佛誕	-12.6458
増五雜組	-12.6458
増野獲編	-12.6458
增周禮冬官㡛氏湅	-12.6458
士女駢集	-12.6458
宫管在中	-12.6458
抵鵲杯	-12.6458
晝暴諸日夜宿諸	-12.6458
月薦蔬以	-12.6458
毿	-12.6458
泂酌亭	-12.6458
置敖倉	-12.6458
蚻	-12.6458
覬	-12.6458
販夫販	-12.6458
采蘩祁祁疏	-12.6458
讜	-12.6461
東京夢華錄中元莭	-12.6461
昵	-12.6461
東京夢華録是	-12.6461
惱	-12.6461
二年正月有司奏今月	-12.6461
寅賔出日	-12.6461
作初初正初	-12.6461
原後漢書黄憲𫝊	-12.6461
君子履之必有	-12.6461
増闗氏易傳	-12.6461
小名雨師	-12.6461
盪邪齋	-12.6461
累日方還	-12.6461
舊唐書職官志凡	-12.6461
詔天慶節	-12.6461
進西域圖記	-12.6461
不盛則果實不生	-12.6464
騞	-12.6464
仝	-12.6464
晉書禮志漢儀	-12.6464
増孝經鈎命	-12.6464
増玉海祥符元年十一月戊午朔	-12.6464
易先甲三日後甲三日	-12.6464
李文定公	-12.6464
刻則合而為	-12.6464
十一月十五日中宗誕辰	-12.6464
宴麗正殿	-12.6464
幽谷種花	-12.6464
張王生辰	-12.6464
時每時各占	-12.6464
晝耕夜誦	-12.6464
歲星順行與日合於	-12.6464
璵	-12.6464
矠	-12.6464
糜欽酒	-12.6464
頒馬攻特	-12.6464
􁏦	-12.6464
其華不盛華	-12.6467
崟	-12.6467
鍤	-12.6467
春城無處不飛花	-12.6467
注火心星也	-12.6467
晝長而夜短	-12.6468
奏外辦皇帝出	-12.6468
東京夢華錄中元前一	-12.6468
夕以修令	-12.6468
天駟房星也	-12.6468
月一日已後五更二㸃放	-12.6468
之義以行之令事物各得	-12.6468
五屬大夫復事	-12.6468
原鹽鐡論	-12.6468
吕公茭	-12.6468
増荆椘嵗時記	-12.6468
夜不安枕	-12.6468
大官送供具	-12.6468
寅人奉而成之仁以	-12.6468
方六服當	-12.6468
漢高帝生	-12.6468
為蚊䖟所	-12.6468
玉海乾道四年戊子	-12.6468
管子正月之朝	-12.6468
舊唐書中宗紀	-12.6468
過書舉燭	-12.6468
鄉長復事	-12.6468
閲四庫書	-12.6468
食蘆菔	-12.6468
確	-12.647
清旦正東望有朱碧黄雲者	-12.6471
有一佛二菩薩	-12.6471
徤	-12.6471
耙	-12.6471
増金史熙宗紀	-12.6471
泌𫝊泌	-12.6471
花如雪六出	-12.6471
朔日甲乙以紀	-12.6471
耄	-12.6471
龍圖天章閣觀三聖御書	-12.6471
報本反始	-12.6471
山巔有石	-12.6471
正月乾之九三萬物棣通族	-12.6471
歴代名畫記	-12.6471
診	-12.6471
修注官入侍	-12.6471
増洞𠖇記帝常	-12.6471
増玉海開寳六年	-12.6471
増聞見前録	-12.6471
夏脉如鈎	-12.6471
大閱簡軍	-12.6471
安碓磑	-12.6471
官其属六十	-12.6471
定車服制度	-12.6471
封祀玉牒	-12.6471
掘藥得玉	-12.6471
春草碧色詩	-12.6471
月從左行	-12.6471
木也為仁其聲商也為義故太蔟為人統	-12.6471
正月之吉始和布治	-12.6471
珣	-12.6471
琯灰剰飛	-12.6471
金吾衛貞元三年	-12.6471
隔隴合穗	-12.6471
韻海鏡源	-12.6471
益部方物畧記	-12.6473
癖	-12.6474
原師曠占春雷	-12.6474
痒	-12.6474
太虚上真人	-12.6474
事之史凡記事之制	-12.6474
抱朴子雲母五色	-12.6474
赤者名雲珠宜	-12.6474
增拾遺記岱輿山有	-12.6474
天寳十三載	-12.6474
山家清事	-12.6474
蝀	-12.6474
增神異經北方荒中有石湖	-12.6474
原周禮春官大司樂凡樂	-12.6474
惹	-12.6474
桀	-12.6474
珦	-12.6474
陳了翁	-12.6474
三科察舉	-12.6474
不服綿絮	-12.6474
元年春正月行幸	-12.6474
冬米明酒	-12.6474
加諡太	-12.6474
原東觀奏記	-12.6474
商飈館	-12.6474
増玉海太平興國八年	-12.6474
増玉海紹興二十三年十一月	-12.6474
寺塔現	-12.6474
昬中可以種黍	-12.6474
曩	-12.6474
未後三刻行禮	-12.6474
桓帝永夀	-12.6474
正月周之正月吉謂朔日太宰以正	-12.6474
祀中太一宫	-12.6474
紀官春官為	-12.6474
胔	-12.6474
酴醿酒	-12.6474
陽逹物風	-12.6474
夢溪筆談	-12.6474
鰣	-12.6475
増舊唐書徳宗紀	-12.6476
櫨	-12.6477
増拾遺記西海之	-12.6477
郇	-12.6477
眥	-12.6477
増北戸録	-12.6477
枸把湯	-12.6477
獠	-12.6477
法度以修記	-12.6477
周昭王二十四年	-12.6477
増唐㑹要大中二年七月十	-12.6477
史記秦始皇紀	-12.6477
増北苑别録	-12.6477
增通鑑元和四年	-12.6477
左丞姚璹	-12.6477
徨	-12.6477
二十八日東嶽生辰	-12.6477
以月晦盤貯	-12.6477
分掌三庫	-12.6477
可得而禮矣漢舊儀漢法三	-12.6477
司風令史	-12.6477
吾無隱乎爾	-12.6477
坤之氣土之精	-12.6477
増後漢書禮儀志明帝永平二年三月	-12.6477
太上慶生齋	-12.6477
婦人常以冬至日	-12.6477
寧公主莊	-12.6477
布王治之事	-12.6477
拜奠北斗	-12.6477
掞	-12.6477
日短星昴	-12.6477
暹	-12.6477
朝逰夕讌	-12.6477
榜葛刺	-12.6477
渢	-12.6477
盂蘭餅餡	-12.6477
秋香滿院	-12.6477
立六宗祠	-12.6477
繫白象樹	-12.6477
船同侣	-12.6477
賞月延桂	-12.6477
賫	-12.6477
贈黄明府詩	-12.6477
踏犁式	-12.6477
酒肴浮之流水	-12.6477
銅渾更始	-12.6477
鵝黄豆生	-12.6477
鹽蓼汁	-12.6477
三輔故事漢	-12.648
陸倕新漏刻銘	-12.648
取枸把	-12.648
立夏樂用笙	-12.648
建武三十二年東廵	-12.648
晉書慕容皝	-12.648
鍋	-12.648
以二月二日為踏青節	-12.648
糝	-12.648
素曉音律	-12.648
經度制置使	-12.648
下取履良	-12.648
下邳圯上有一老父	-12.648
下顧謂良曰孺子	-12.648
又先在復怒曰後	-12.648
増玉海嘉祐二年	-12.648
所直墮其履	-12.648
王庭筠元宵	-12.648
衣褐至良	-12.648
食又可蒸	-12.648
侍讀學士李淑	-12.648
在廟旁吏卒咸聞	-12.648
世尊降魔	-12.648
丘奏之若樂	-12.648
丙暘暘無	-12.648
之日𤼵五政一政曰	-12.648
事烝而獻功	-12.648
二十蔀為一遂	-12.648
使萬民觀	-12.648
増漢書宣帝紀地節四年九月詔曰	-12.648
壄	-12.648
孤竹之管雲和	-12.648
御畫御馬	-12.648
斗栲栳大號山	-12.648
春脉如弦	-12.648
月莭晝用一文夜十九文	-12.648
桂海花志茉莉花	-12.648
砥	-12.648
程顥嘗	-12.648
素馨毬	-12.648
茅灘大閲	-12.648
衣色随年	-12.648
農祥晨正	-12.648
迎長日之至	-12.648
進詩傳補注	-12.648
風琶蠻	-12.648
雲笈七籖三洞奉道	-12.6482
圓徑五尺七寸注	-12.6483
増七脩𩔖	-12.6483
宋史禮志建隆元年	-12.6483
封為上公祀	-12.6483
蘆花深處	-12.6483
周禮天官宫伯	-12.6483
嚶	-12.6483
攫	-12.6483
玉篆牌	-12.6483
中贅録蜀中風俗	-12.6483
二月開花黄色花心	-12.6483
増北史庾季才	-12.6483
延興元年十二月	-12.6483
斗井斗度	-12.6483
民間常以驚蟄	-12.6483
二疋絮三斤	-12.6483
増續文獻通考嘉靖四十	-12.6483
昜通卦驗	-12.6483
汜勝之書三月榆莢	-12.6483
綘囊盛	-12.6483
捐	-12.6483
曰諾五日平	-12.6483
有頃父亦	-12.6483
而中空其氣芬芳	-12.6483
増乾淳起居注淳熙	-12.6483
壎	-12.6483
有司請令縣	-12.6483
避暑錄話	-12.6483
門側之堂	-12.6483
丙暘暘乾	-12.6483
中鎮霍山	-12.6483
原修真指要上元日	-12.6483
增玉海開寳七年閏十月	-12.6483
定光佛生	-12.6483
弓韣授以弓	-12.6483
投壺梟	-12.6483
文淵閣大學士兼	-12.6483
更蔭補法	-12.6483
桂陽列仙𫝊	-12.6483
榆錢糕	-12.6483
殷仲文詩	-12.6483
石貫藉田賦	-12.6483
稑	-12.6483
米錦糕	-12.6483
織縑百疋	-12.6483
脯法臘月初作	-12.6483
艦	-12.6483
莭為始每七日一次晝	-12.6483
萬緡疋	-12.6483
藕絲菜	-12.6483
訩	-12.6483
郫筒酒	-12.6483
金枝華秀	-12.6483
隔轍雨	-12.6483
靁	-12.6483
頡	-12.6483
𣺌	-12.6483
齊竟陵王	-12.6484
晉書樂志	-12.6484
増風角書	-12.6486
觀天文俯	-12.6486
元始天尊	-12.6486
増建康實錄貞觀二十	-12.6486
夜飛腹下	-12.6486
櫺	-12.6486
會大饗歌	-12.6486
糁	-12.6486
武王伐殷	-12.6486
羙姿儀	-12.6486
魚龍曼延	-12.6486
捎	-12.6486
眼目昏暗	-12.6486
髙祖初起禱豐枌榆	-12.6486
𫝊褚裒	-12.6486
史記范睢	-12.6486
安息香樹出波斯國	-12.6486
容齋續筆	-12.6486
二月生苖其葉對	-12.6486
取沉者速曝乾裹置至二月畦種	-12.6486
周禮夏官圉師	-12.6486
有赤白二種	-12.6486
上作七言詩從	-12.6486
主山林川澤之官	-12.6486
内經黄帝曰	-12.6486
原燕翼貽謀錄	-12.6486
周禮地官大司徒	-12.6486
増佛國記師子國	-12.6486
增漢書昭帝紀元	-12.6486
天雨寳華	-12.6486
如是出一編書曰讀	-12.6486
忍下取履	-12.6486
旦日視其書	-12.6486
曰孺子可教矣後五日平	-12.6486
有石銘云	-12.6486
權德輿	-12.6486
父以足受	-12.6486
稂	-12.6486
親登嵩髙御史	-12.6486
賜天下吏爵	-12.6486
身勞心夜以	-12.6486
之如秋陽之	-12.6486
入口中咽	-12.6486
務摶執	-12.6486
増玉海慶厯六年十一月二十九日獵城	-12.6486
増荆溪疏	-12.6486
太平通濟䇿	-12.6486
感笳音	-12.6486
投狀乞應	-12.6486
招揺指寅	-12.6486
持節行郡國	-12.6486
故每日常以五更撾	-12.6486
来下在目	-12.6486
水家儀凡	-12.6486
然如秋陽之	-12.6486
眚	-12.6486
至受水而不鮮	-12.6486
與我合徳	-12.6486
舊唐書肅宗紀乾	-12.6486
葛帔練裙	-12.6486
薦黍糕	-12.6486
西漢㑹要	-12.6486
養贍給衣食	-12.6486
枵	-12.6487
迦	-12.6488
増魏書太宗紀	-12.6489
哮	-12.649
增東京夢華録	-12.649
五代會要	-12.649
増宋史真宗紀大中祥符三年	-12.649
增舊唐書德宗紀	-12.649
威加海内	-12.649
年冬十月行幸	-12.649
後漢書郅惲	-12.649
詔御史令豐謹治枌榆社常以四時春以	-12.649
悠	-12.649
何以知之夫	-12.649
日次子位當虚宿之躔度	-12.649
踠	-12.649
增史記五帝紀	-12.649
增舊唐書職官志	-12.649
士人緩歩	-12.649
男左女右	-12.649
紓	-12.649
邴	-12.649
元史禮樂志	-12.649
和劑局	-12.649
唐㑹要龍朔元年	-12.649
妳	-12.649
彖	-12.649
昔周武王	-12.649
閏月不告月猶朝	-12.649
勳	-12.649
増魏志明帝紀	-12.649
天柱峯翫月	-12.649
玉海政和八年	-12.649
緍	-12.649
食之亦以安性也	-12.649
䇿論十卷	-12.649
不犯贓罪	-12.649
争馳逐	-12.649
五庫以貯之	-12.649
以八煞為	-12.649
優長者召	-12.649
兜兜鳥	-12.649
内外僕妾	-12.649
冬服單薄	-12.649
卑一萬五千里故	-12.649
原吴下田家志	-12.649
咸以為孝感所	-12.649
喬𫝊喬	-12.649
嘴	-12.649
噀酒救	-12.649
四時仕宦	-12.649
婦官染采	-12.649
嵗造弓弩箭	-12.649
帛人一疋	-12.649
幙	-12.649
慳	-12.649
戯其君乎	-12.649
所祭者牢肉	-12.649
文章伯降	-12.649
於會稽山隂之蘭亭脩禊事	-12.649
時雨降可種	-12.649
服之一年顔	-12.649
望氣占候	-12.649
櫾	-12.649
民有單老孤稚不	-12.649
永平二年正月辛未	-12.649
流澌亘河	-12.649
溴	-12.649
潔祀祖禰	-12.649
無扄鑰	-12.649
獻襪履	-12.649
玉面貍	-12.649
瑲	-12.649
甜肥脯	-12.649
盤古氏生日	-12.649
而好學如日	-12.649
育䕶天下	-12.649
能自存主者郡縣咸	-12.649
膏腴内	-12.649
芮	-12.649
蒓	-12.649
蔵茈薑	-12.649
蜡祭百神	-12.649
觶	-12.649
計月受俸	-12.649
講讀經史	-12.649
謟	-12.649
跣行冰上	-12.649
跪取觶	-12.649
跪奠觶	-12.649
迎風不冷	-12.649
遊聚景園	-12.649
鐸狥扵路	-12.649
院各有浴佛	-12.649
雲雨氣圖	-12.649
鹽麩子	-12.649
龜茲貢馬	-12.649
増三輔黄圖	-12.6493
有子曰黎為祝融	-12.6493
胙	-12.6493
癎	-12.6493
爽氣三秋	-12.6493
増洛陽伽藍記昭儀	-12.6493
歌吹前導	-12.6493
􁐟	-12.6493
使民無空者也	-12.6493
侮	-12.6493
十三刻辰申	-12.6493
原逸周書禹之禁	-12.6493
周禮冬官考工記	-12.6493
増舊唐書文宗紀太和九年	-12.6493
增隋書南蠻	-12.6493
散在四郊	-12.6493
朝寳訓以備	-12.6493
腕	-12.6493
萬物天子立司空使掌邦	-12.6493
袵	-12.6493
象冬所立官也是官	-12.6493
備化之紀氣恊天休	-12.6493
僭	-12.6493
嗔	-12.6493
晝開夜合	-12.6493
駵	-12.6493
驩	-12.6493
黄鍾黄者中之色	-12.6493
乾覆布兹亭育凡	-12.6493
増吳越春秋越王念復	-12.6493
志林紹聖	-12.6493
種於黄泉孳萌萬物	-12.6493
鳴鳩拂其羽	-12.6493
䳺	-12.6493
不侮闇室	-12.6493
二十五日老子度	-12.6493
五十年者如	-12.6493
令人身輕齒堅	-12.6493
以後鮮有不過	-12.6493
冬澇夏淨	-12.6493
勰	-12.6493
千秋金鑑錄	-12.6493
去酒省食	-12.6493
增儀禮士昏禮	-12.6493
增農桑通訣	-12.6493
天子始乗舟	-12.6493
宴蘂珠宫	-12.6493
就禪刹掛	-12.6493
山監采官人給一牌入山至辰刻則復鳴	-12.6493
幸望春宫送	-12.6493
廣汴都賦	-12.6493
慧印三昧經	-12.6493
搭謂之結	-12.6493
旗則歩進	-12.6493
春司御氣䖍恭報祀	-12.6493
時地皇真官下日	-12.6493
書板言事	-12.6493
氊衾粟帛	-12.6493
漢書丙吉傳吉	-12.6493
漢書宣帝紀本始元年	-12.6493
燈山上綵	-12.6493
田農要月	-12.6493
留一月糧	-12.6493
益部方物略記	-12.6493
要覽列子御風常以立	-12.6493
逹路除道	-12.6493
采茶之法須是	-12.6493
閡	-12.6493
題石門洞	-12.6493
風至草木皆生去則揺落謂之離合	-12.6493
海景徳四年	-12.6495
晉書嵇康𫝊康	-12.6496
粥謂之臘八粥	-12.6496
坤主立秋樂用磬	-12.6496
陸機纂要	-12.6496
獻書之路	-12.6496
痊	-12.6496
窨	-12.6496
習射帝中的者	-12.6496
五代史司天考	-12.6496
貴邸宰臣巨	-12.6496
増涑水記聞	-12.6496
増髙僧𫝊	-12.6496
成天地之道輔相天地之宜以	-12.6496
葜	-12.6496
不若聚之為樂乃	-12.6496
之日發五政一政曰	-12.6496
地上見龍在田天下文	-12.6496
擡	-12.6496
斨	-12.6496
春駐宫鶯	-12.6496
狩圍守也	-12.6496
虞於是乎禁	-12.6496
郊祀志宣帝十三年	-12.6496
風毒脚氣	-12.6496
丹鉛録	-12.6496
含元殿受朝賀	-12.6496
增唐會要景雲二年	-12.6496
廻雁峰	-12.6496
拾遺記員嶠	-12.6496
鍾者種也	-12.6496
二月開細花紫	-12.6496
似橘而非若柚	-12.6496
増餘冬序	-12.6496
增漢書元帝紀建昭	-12.6496
大眀七年正月	-12.6496
定循資格	-12.6496
故不盡其辭也	-12.6496
春鳴立夏止	-12.6496
書三載考績	-12.6496
有給客橙	-12.6496
炎暑赫	-12.6496
白色根如小蒜一本	-12.6496
紫蘭宫玉女	-12.6496
顆相依而生	-12.6496
㡬何勃	-12.6496
㥄	-12.6496
䑕晝伏夜	-12.6496
七寳硯鑪	-12.6496
上閣門掌	-12.6496
丹霄殿樓	-12.6496
五嶽四鎮	-12.6496
人户推收	-12.6496
人日遇雪詩	-12.6496
人皇真官下日其日修	-12.6496
其莖作藤	-12.6496
冦萊公	-12.6496
冬袒不寒	-12.6496
北榖城山下黄石即我	-12.6496
吏部南曹	-12.6496
周子南君	-12.6496
周禮春官大胥	-12.6496
和熹鄧	-12.6496
喤	-12.6496
土旺四季	-12.6496
在圖爾山	-12.6496
増漢書武帝紀元狩六年六月詔	-12.6496
增圗經本草	-12.6496
夜露未晞茶芽	-12.6496
太平惠民局	-12.6496
如意寳珠	-12.6496
容成作葢天	-12.6496
對選德殿	-12.6496
師襄曰子	-12.6496
建生大會齋	-12.6496
戴楸葉	-12.6496
招揺指未	-12.6496
時天皇真官下日	-12.6496
朝不廢朝	-12.6496
歳終大祭	-12.6496
水紋綾袴	-12.6496
炊五斗米	-12.6496
甎	-12.6496
節日取柴	-12.6496
聘名士禮賢者	-12.6496
至適在晦	-12.6496
莫不廢夕	-12.6496
蓓	-12.6496
蜉蝣有殷	-12.6496
親賔會聚	-12.6496
論衡盛夏之時當風	-12.6496
貞觀六年閏八月	-12.6496
輪知抄録	-12.6496
郡縣主見舅姑	-12.6496
鑄開元通寳	-12.6496
風忽至草木成實	-12.6496
餵	-12.6496
𬎼	-12.6496
􁄂	-12.6496
􁰤	-12.6496
清旦西南望	-12.6499
司㑹以嵗	-12.6499
乃子位之正天中之一陽也	-12.6499
二月采根隂乾	-12.6499
此何祥也	-12.6499
馬鞍䝉之以	-12.6499
周禮天官小宰	-12.6499
増玉海元豊元年十一月十	-12.6499
明故曰登明	-12.6499
書蠶為龍精	-12.6499
菝	-12.6499
鶒	-12.6499
上壽賜帛	-12.6499
位三政曰	-12.6499
劃	-12.6499
密封勿令漏氣	-12.6499
改句曲為茅	-12.6499
用槐木長八尺一寸	-12.6499
至棘店	-12.6499
令民畢出在	-12.6499
六舞散朝衣	-12.6499
叩齒十二通	-12.6499
天喜時相合人和事不違禮中推	-12.6499
意厚樂處感心㣲别	-12.6499
月入夏展春	-12.6499
賞歸九歌揚政要	-12.6499
賞陽臺樂前	-12.6499
輝樓下風光	-12.6499
之半天心無改移	-12.6499
以後赤黄氣也	-12.6499
増梁書武帝紀普通二年	-12.6499
始於子在十一月	-12.6499
登臺舉黄旗諸軍	-12.6499
社前即可種	-12.6499
秋食淪隂淪	-12.6499
諸葛亮	-12.6499
逗	-12.6499
之日涖卜來歳之	-12.6499
伏斷手為	-12.6499
入趙壁㧞趙幟立漢	-12.6499
卜者問後歳	-12.6499
周禮春官肆師	-12.6499
地過三丈也	-12.6499
増劉賔客嘉話	-12.6499
増周禮春官男巫	-12.6499
増漢書律歴志出甲於甲奮軋於	-12.6499
増謝承後漢書	-12.6499
増魏書高祖紀太和十	-12.6499
宋書符瑞志大明五年	-12.6499
寒花晚節	-12.6499
年冬十月庚子	-12.6499
房有子五	-12.6499
指天餕餡	-12.6499
於庚悉新於辛	-12.6499
時宜西南方	-12.6499
晉書武帝紀太康	-12.6499
為陽中之太	-12.6499
當春而叩商	-12.6499
石林燕語	-12.6499
神告帝統石	-12.6499
立石九經	-12.6499
笄	-12.6499
腆	-12.6499
舉赤旗則騎進	-12.6499
賜御書中庸	-12.6499
辛棄疾	-12.6499
還第休沐	-12.6499
野堂激波其下	-12.6499
頒木魚符	-12.6499
黄姑浸種	-12.6499
黻	-12.6499
名山大川	-12.65
瀟	-12.6502
喏	-12.6502
増尚書考靈曜	-12.6502
檄	-12.6502
癡	-12.6502
唶唶晝為民驅鳥	-12.6502
吐火羅國	-12.6502
圗畫見聞誌	-12.6502
漣	-12.6502
則狂逸不可制行人以獨輪小車	-12.6502
増玉海淳化四年正月	-12.6502
宣付史館從	-12.6502
戱	-12.6502
文公獲若石	-12.6502
甀	-12.6502
増遼史太宗紀	-12.6502
三輔黃圗	-12.6502
増唐㑹要大厯十二年	-12.6502
増玉海端拱二年	-12.6502
増麟臺故事	-12.6502
宇文愷	-12.6502
於中太一宫南	-12.6502
瀁	-12.6502
祅	-12.6502
賀琛𫝊	-12.6502
逸如神禹碑	-12.6502
三聲四聲	-12.6502
夢溪筆談六壬天十二辰	-12.6502
射上中的者	-12.6502
山在目足以締夏首之新賞補春餘	-12.6502
披樂善之邸坐忘憂	-12.6502
暑氣猶清芳草未歇	-12.6502
樓下又申之以賞樂賦詩并序	-12.6502
漢平帝元	-12.6502
迂	-12.6502
連珠合璧	-12.6502
閏節候全	-12.6502
首夏花萼樓觀羣臣宴寜王山	-12.6502
圗畫凌煙	-12.6502
媧	-12.6502
孀	-12.6502
彭城王義康	-12.6502
拓	-12.6502
楯	-12.6502
端拱元年八月	-12.6502
七夕御兩儀殿	-12.6502
下至丹田	-12.6502
丐	-12.6502
午橋作别	-12.6502
原易復卦疏	-12.6502
原荆椘嵗時記	-12.6502
土潤溽暑	-12.6502
墅具燠館凉臺號緑	-12.6502
廣雅羊以	-12.6502
後漢書魯恭𫝊	-12.6502
東海為廣徳	-12.6502
治第東都集賢里	-12.6502
注酉之氣乗之也	-12.6502
雲笈七籖明真科云	-12.6502
㗫	-12.6502
㬰	-12.6502
三星在隅	-12.6502
乃令左軍	-12.6502
之興五日翕	-12.6502
也賔導也言陽始導隂氣	-12.6502
二日入酉初	-12.6502
井陘口	-12.6502
以八月八日沸星出時	-12.6502
六日利行師	-12.6502
冷酘麴	-12.6502
刻頃侍中	-12.6502
南仲侑食	-12.6502
原殷芸小説	-12.6502
可作虀詩	-12.6502
品物咸章	-12.6502
問訊家眷	-12.6502
四章為一蔀	-12.6502
夜撮蚤	-12.6502
岨	-12.6502
嵗時合耦	-12.6502
年榖和熟	-12.6502
延英議政	-12.6502
彂	-12.6502
後又問宣	-12.6502
循行天下存問	-12.6502
昨夜復夢見芻	-12.6502
月八日十四日十五	-12.6502
服烏紗帽	-12.6502
朝奏暮召	-12.6502
梅杏柂桃	-12.6502
樗根餛飩	-12.6502
樹木發壊	-12.6502
江五里以須	-12.6502
潞王小字	-12.6502
獻屯田論	-12.6502
百枝燈樹	-12.6502
省獄舉寃	-12.6502
矚	-12.6502
祭遁甲神	-12.6502
築郎囿	-12.6502
舉淹滯	-12.6502
薛濤井	-12.6502
藏韭菁	-12.6502
蚤作視事	-12.6502
褐色光潤如飛蛾	-12.6502
觀築圜丘	-12.6502
談苑江南民	-12.6502
辟蚤蝨	-12.6502
逌	-12.6502
遁九局	-12.6502
遡	-12.6502
醃鴨子	-12.6502
釵頭艾虎	-12.6502
鈕	-12.6502
雷電擊折	-12.6502
頒學合聲	-12.6502
餧	-12.6502
鬻農器	-12.6502
龍池聖徳頌	-12.6502
􁫃	-12.6502
名晦灰也火死為灰月光	-12.6502
中秋日剪壺盧	-12.6505
増漢書武帝紀元狩	-12.6505
盛冬若客至	-12.6505
涓	-12.6505
云赤松子	-12.6505
原舊唐書徳宗紀中和節	-12.6505
嬾	-12.6505
漢書天文志月有九行	-12.6505
諸司選勝	-12.6505
㝢	-12.6505
不與天相應	-12.6505
九日増減一刻	-12.6505
霍融上言	-12.6505
云於陳倉北阪城	-12.6505
利有攸徃	-12.6505
原道山清話	-12.6505
茶之佳者造在社前其次火前	-12.6505
𫝊休奕	-12.6505
九室法九州	-12.6505
南史陶𢎞景𫝊	-12.6505
宓戲氏	-12.6505
時物成者衆	-12.6505
而背不白	-12.6505
七籬頭吹	-12.6505
甘緩之以	-12.6505
篥	-12.6505
南史沈攸之	-12.6505
増南史何思澄傳	-12.6505
増玉海淳化三年	-12.6505
天縱聖能游藝	-12.6505
羲氏和氏	-12.6505
舊唐書敬宗紀	-12.6505
超絶典則高古	-12.6505
乃知唐人	-12.6505
冬至之節陽氣	-12.6505
庀	-12.6505
摛	-12.6505
蓆	-12.6505
西安府鄠縣	-12.6505
一塊飲水三	-12.6505
也位於午在五月	-12.6505
侔	-12.6505
俯同其韻	-12.6505
克敵弓	-12.6505
列子御風而行	-12.6505
南海為廣利	-12.6505
唐書裴度𫝊	-12.6505
圩	-12.6505
増史纂左編	-12.6505
增玉海至道元年	-12.6505
大鑒禪師	-12.6505
寺晚宴大慈寺	-12.6505
巋	-12.6505
拔萃科	-12.6505
捶	-12.6505
文學高第各一	-12.6505
漢太尉鄭𢎞	-12.6505
炳於丙大	-12.6505
煞	-12.6505
白龍二見於	-12.6505
耎	-12.6505
説林立夏日	-12.6505
邅	-12.6505
鳶	-12.6505
以激㽔賔陽光熾烈堅氷立	-12.6505
列象拱極	-12.6505
剔燈杖	-12.6505
北山移文	-12.6505
受持八戒	-12.6505
周禮地官牧人凡	-12.6505
器亷以深	-12.6505
増列子鄭師文	-12.6505
增漢書宣帝紀地節	-12.6505
增魏志管輅傳	-12.6505
墮車折脚	-12.6505
夏霖秋潦	-12.6505
姑浸種日西南風主大	-12.6505
婣	-12.6505
寢别内外	-12.6505
恥	-12.6505
慈㤙寺	-12.6505
日暖夜寒	-12.6505
歸功於日	-12.6505
泅	-12.6505
添色芙蓉花	-12.6505
灌木春鶯	-12.6505
狗何也宣曰君	-12.6505
發陳天地俱生	-12.6505
糴秔稻	-12.6505
而盛故潮獨大於餘	-12.6505
與執燔焉	-12.6505
萬物始盛待雨	-12.6505
註此所與	-12.6505
諾	-12.6505
謝自然披	-12.6505
豫備東作	-12.6505
躬親庶務	-12.6505
逰蟇頤山	-12.6505
還由臺前出西	-12.6505
饗㑹如元正	-12.6505
周髀算經	-12.6506
南望有素赤黄雲者是	-12.6508
之下清風颯至自謂羲皇上人	-12.6508
嘗言夏月虚	-12.6508
隂乾於除夜煎湯浴小兒則可	-12.6508
香一炷滿	-12.6508
鬚如環子脚者	-12.6508
僎	-12.6508
也鳴而後知	-12.6508
和帝永元	-12.6508
増宋史禮志太祖建隆二年	-12.6508
或赤或白	-12.6508
正月有㣲霜八月浮雲不	-12.6508
原侯鯖錄	-12.6508
原文獻通考占城國	-12.6508
増玉海唐太宗貞觀	-12.6508
服方寸七	-12.6508
淆	-12.6508
昭帝紀始元	-12.6508
原禮君子齊戒處必掩身	-12.6508
廨	-12.6508
斕	-12.6508
晝題時刻夜題更籌	-12.6508
芍	-12.6508
除舊布新也	-12.6508
雷轟薦福碑	-12.6508
二十三年正月乙亥耕	-12.6508
即一蔀之	-12.6508
增宋史真宗紀	-12.6508
女子百户牛酒鰥寡孤獨髙	-12.6508
後漢書郎顗傳	-12.6508
色尚黄數	-12.6508
詩三首賜	-12.6508
一年齒落更生	-12.6508
午至亥為	-12.6508
慶賜遂行	-12.6508
朝朝暮暮	-12.6508
清澄甘潔	-12.6508
窗	-12.6508
箆	-12.6508
詩星昴殷	-12.6508
譟	-12.6508
魏臺訪議	-12.6508
㤗一雲陽	-12.6508
南史任昉	-12.6508
増玉海明道二年二	-12.6508
岳藉田賦	-12.6508
米一名彫胡	-12.6508
薆	-12.6508
薛季宣	-12.6508
開小花淡	-12.6508
三日出夘正	-12.6508
並具而多	-12.6508
五鳯樓觀酺	-12.6508
則屬民而讀邦法	-12.6508
化為玉童長	-12.6508
否泰卦	-12.6508
國俗屠白	-12.6508
増漢書宣帝紀五鳯	-12.6508
増漢書韓延	-12.6508
夜光常滿杯	-12.6508
如棗花枝	-12.6508
左思吴都	-12.6508
性理大全潛室陳氏曰	-12.6508
所以休兵不	-12.6508
教亦彌數	-12.6508
數七火氣舉君則順時	-12.6508
日雲臺觀	-12.6508
晝動夜静	-12.6508
書名玉歴	-12.6508
琚	-12.6508
臘月二十四日五更取	-12.6508
衡陽王義	-12.6508
賦酧江	-12.6508
長孫無忌曰	-12.6508
附地芟殺	-12.6508
順陽布徳	-12.6508
上藥王廟	-12.6508
之靈皇極之曰	-12.6508
九月種麥日至	-12.6508
伐薪為炭	-12.6508
佐陽成物	-12.6508
出軍䜿牙	-12.6508
到鼓一中	-12.6508
卒風振樹	-12.6508
后登眀大吉加	-12.6508
向出時令登眀大吉加	-12.6508
向出時令神	-12.6508
唧	-12.6508
嘉禾合穗	-12.6508
増齊人月令四月八日	-12.6508
市食合兒	-12.6508
建北太一宮	-12.6508
愈瘧酒	-12.6508
戍寢寅起	-12.6508
插芝蔴	-12.6508
撃漏鼓而	-12.6508
旁生魄注	-12.6508
日䝉古色目	-12.6508
晢	-12.6508
暹羅酒	-12.6508
最後成罰	-12.6508
服之五色並具而多	-12.6508
木旺寅卯	-12.6508
松盆熰歳	-12.6508
椎牛饗	-12.6508
榖雨日辰值甲	-12.6508
武帝天漢三年四月西國王使至	-12.6508
法春祠用	-12.6508
瀛涯勝覽	-12.6508
獺穴知水	-12.6508
玉海天禧三年閏四月	-12.6508
益肝補腎	-12.6508
秋脉如浮	-12.6508
稻藁生日	-12.6508
筍蕨羮	-12.6508
續弦膠	-12.6508
薕	-12.6508
轢	-12.6508
采荼薪樗	-12.6508
銅澡盤	-12.6508
門令牙門	-12.6508
閉户視書	-12.6508
除蓐釁廐	-12.6508
雨半年晴	-12.6508
雨落井泉	-12.6508
靈芝釣臺	-12.6508
面向殺地	-12.6508
預借奉錢	-12.6508
馬一白一赤從	-12.6508
驛馬星流	-12.6508
鶡旦不鳴	-12.6508
季春之月日在胃	-12.651
則草木蚤枯後乃	-12.651
格秀草不實	-12.651
逹旦不寐	-12.6511
京景物略	-12.6511
威靈仙出商州上洛	-12.6512
霹	-12.6512
冬獵為狩	-12.6512
在鉛山縣	-12.6512
金薄圖神	-12.6512
不知何許人	-12.6512
九九八十一	-12.6512
五月五日或六月六日	-12.6512
來集於祠城	-12.6512
哈	-12.6512
從未圓時	-12.6512
民食足不滿五十日	-12.6512
聲殷殷云	-12.6512
黯	-12.6512
以一牢祠	-12.6512
増玉海景祐四年	-12.6512
增通典後魏	-12.6512
孽	-12.6512
澮	-12.6512
王勃春思賦	-12.6512
縝	-12.6512
上千萬嵗夀	-12.6512
史記天官書北斗七星所謂	-12.6512
宋史河渠志大觀元年	-12.6512
政杓攜龍角衡殷南斗魁枕	-12.6512
湄	-12.6512
秋後辰日祀靈星	-12.6512
缶	-12.6512
者承天理物故率	-12.6512
蔡琰别	-12.6512
謂宰臣曰近	-12.6512
陳良祐因	-12.6512
𤼵號施令	-12.6512
原家語霜降而婦功成嫁娶	-12.6512
塹	-12.6512
増後漢書光武帝紀建武	-12.6512
增魏書世宗紀	-12.6512
大水敗其城郭	-12.6512
束晳餅	-12.6512
三考黜陟	-12.6512
儀同三司	-12.6512
其位皆冠通天服	-12.6512
冤	-12.6512
冰益壯地始坼	-12.6512
勾漏洞天	-12.6512
十四十五十六	-12.6512
原尚書考靈曜	-12.6512
命將帥講武習射御角力	-12.6512
増筍譜凡植竹正月二	-12.6512
増管子以春日至始數	-12.6512
天監四年六月壬戌	-12.6512
子由與先生	-12.6512
嵗乃復種	-12.6512
帝祠去城	-12.6512
後漢書祭祀志建武三十二年二月二十	-12.6512
振乏絶	-12.6512
收繭税	-12.6512
易飛候有雲大如車蓋	-12.6512
曶	-12.6512
月滿為一月	-12.6512
有三層浮圖	-12.6512
殿見羣臣曰	-12.6512
涉江鳴鼓	-12.6512
為䲭梟所搏	-12.6512
穿新漕	-12.6512
篠	-12.6512
翣	-12.6512
色黄潤立竿影見大熟是	-12.6512
螯	-12.6512
蟄䖝咸動	-12.6512
裴耀卿	-12.6512
西海為廣潤	-12.6512
誑	-12.6512
里而近山曰	-12.6512
金犀錢果	-12.6512
閨門整肅	-12.6512
隂將始刑	-12.6512
雲笈七籖凡人常以	-12.6512
鼬	-12.6512
人皆當迭為之一月一更是	-12.6512
卒更也貧者	-12.6512
原廣博物志	-12.6512
噣	-12.6512
増唐書吐蕃𫝊	-12.6512
廣南福建	-12.6512
慶賀之禮	-12.6512
日詔宴寧王	-12.6512
月者衆隂之	-12.6512
皆就門外位	-12.6512
豭	-12.6512
跛	-12.6512
之氣乗之也又行春令則	-12.6512
昏七星中旦牽牛中	-12.6513
夏行秋令則苦雨數來五穀不滋四鄙入	-12.6513
仲夏之月日在東井	-12.6513
四分度之一日	-12.6514
嘗夏月入縣	-12.6515
守甚知愛之	-12.6515
父不疑為烏程令欣時年十二	-12.6515
燒燈如白日	-12.6515
原錢氏私	-12.6515
為此春酒以介眉壽	-12.6515
狄梁公祠	-12.6515
史記歴書黄帝考定星歴建立五行起消	-12.6515
増春明退朝錄	-12.6515
安帝延光	-12.6515
海録碎事	-12.6515
増容齋三筆	-12.6515
虗	-12.6515
輥	-12.6515
邠	-12.6515
冬祭曰烝	-12.6515
史記孟嘗君𫝊	-12.6515
二萬七千	-12.6515
促織志	-12.6515
傳不告月	-12.6515
増入蜀記	-12.6515
増太宗實録太平興國	-12.6515
帑	-12.6515
日而歛之注	-12.6515
緞	-12.6515
軼	-12.6515
鑽燧改火	-12.6515
京氏易畧	-12.6515
以泥塗之	-12.6515
増宋史仁宗紀慶	-12.6515
増晉書張駿𫝊謙光殿	-12.6515
増漢書昭帝紀始元元年	-12.6515
夢溪筆談信安滄景之間多蚊䖟夏月牛	-12.6515
惮	-12.6515
月上辛後吉亥	-12.6515
江心有石	-12.6515
禮志魏文帝黄初	-12.6515
與錢一萬	-12.6515
露已團式詔司	-12.6515
一日霜止霜	-12.6515
二十條議其當否	-12.6515
京房易妖占	-12.6515
作詩紀其事	-12.6515
勿案驗	-12.6515
原禮日夜分則同	-12.6515
増魏書靈徴志世宗景明	-12.6515
摭唐太宗事	-12.6515
日霜止五日十日而	-12.6515
會慶萬年金鑑	-12.6515
概	-12.6515
注申之氣乗之也又行冬令	-12.6515
熙寧七年六月	-12.6515
茁	-12.6515
退貪殘進柔良	-12.6515
高誘淮南子注	-12.6515
以木鐸修火禁	-12.6515
前流水江陵道鯉魚風起芙蓉老	-12.6515
原史記秦紀	-12.6515
嘂	-12.6515
増全唐詩話景龍三年	-12.6515
増戰國䇿	-12.6515
增玉海紹興二十六年閏十月	-12.6515
巨鼇出海	-12.6515
度至危十	-12.6515
日御閣召	-12.6515
樹初栽時用	-12.6515
洹	-12.6515
終於辰故	-12.6515
蟲為災暴風	-12.6515
酧	-12.6515
㮏	-12.6515
七首為一極	-12.6515
三十復終於	-12.6515
三暑同事	-12.6515
三遂為一首	-12.6515
丰	-12.6515
义	-12.6515
之歲始冬至	-12.6515
之氣乗之也又行秋令則	-12.6515
二十日封西嶽	-12.6515
二年命有司議薦新	-12.6515
五日九百四十	-12.6515
以正月夘日作佩之	-12.6515
伏獵侍郎	-12.6515
刻博士一員	-12.6515
原三輔黄圖	-12.6515
原宋史禮志政和三年以	-12.6515
原漢書于定國	-12.6515
原草花譜	-12.6515
各督其隊	-12.6515
后妃獻繭	-12.6515
嚴整仗衞	-12.6515
増雲笈七籖三元品戒	-12.6515
増食譜張手羙家	-12.6515
增後漢書禮儀志	-12.6515
增逸周書	-12.6515
增食譜張手羙	-12.6515
夏如中國春時山谷常	-12.6515
夜分極下常	-12.6515
夜行以燭無燭則	-12.6515
婆郍婆樹	-12.6515
巡守至於北岳	-12.6515
従漚鳥游	-12.6515
御廐洗馬	-12.6515
抓子兒丸	-12.6515
故六淫謂之	-12.6515
故出入卯酉之	-12.6515
日月五星俱起	-12.6515
日者衆陽之	-12.6515
春水靈草孤洲	-12.6515
春食苖夏食	-12.6515
望拜黒山	-12.6515
木文天尊	-12.6515
杻	-12.6515
栁有八徳	-12.6515
楓香脂	-12.6515
歲之冬至起	-12.6515
水居食魚	-12.6515
汾隂脽上	-12.6515
湼槃兜	-12.6515
濼	-12.6515
白傘盖佛事	-12.6515
百人内舍	-12.6515
碧霞元君	-12.6515
秋合三材	-12.6515
窪	-12.6515
章奏置籍	-12.6515
籤	-12.6515
紫虛元君	-12.6515
綝	-12.6515
總管刺史	-12.6515
置安西都䕶	-12.6515
羣經義疏	-12.6515
者次直者出錢	-12.6515
而生丑中之	-12.6515
花照眼明	-12.6515
芸始生荔挺出	-12.6515
蒍	-12.6515
虡	-12.6515
蟄䖝啟户	-12.6515
蟒	-12.6515
補肺丸	-12.6515
觀銅渾儀	-12.6515
設湯茗	-12.6515
迫	-12.6515
造新量衡	-12.6515
遯齋閑覽	-12.6515
重陽無雨一冬	-12.6515
銘其一面曰正月剛夘	-12.6515
雞桴粥	-12.6515
頓置兩閏	-12.6515
顔延之南郊	-12.6515
顧之月二千是	-12.6515
魏徵諫録	-12.6515
麕	-12.6515
黑博义	-12.6515
􁚐	-12.6515
蠶月條桑	-12.6516
攝提格之嵗	-12.6516
膏其動注	-12.6516
陽氣俱烝土	-12.6516
亢中旦危中	-12.6516
日日照其表人在其裏故不	-12.6517
不常得油夏月則	-12.6518
慣	-12.6518
璣玉衡以齊七	-12.6518
增紀歴撮要	-12.6518
方惟有十與十二月出辰	-12.6518
漏刻經正月出乙入庚方二八出兎	-12.6518
生艮歸乾上仲冬出巽入坤	-12.6518
甲入辛地四六生寅入	-12.6518
縞	-12.6518
騁	-12.6518
成大上元呉中節物詩	-12.6518
星南方朱鳥之宿	-12.6518
原周禮夏官大司馬遂以	-12.6518
増玉海景德三年	-12.6518
宋真宗祥符	-12.6518
汗浹衣	-12.6518
跼	-12.6518
鍮	-12.6518
馮應京戴任	-12.6518
兩人對持	-12.6518
廚	-12.6518
從甲至甲謂之挟日	-12.6518
扺	-12.6518
拾遺記廣延	-12.6518
曰壎坎	-12.6518
求男之祥	-12.6518
濤湧髙至數丈	-12.6518
輕身益氣	-12.6518
過數尺大則	-12.6518
開小花結實如	-12.6518
元中記南方有炎山焉	-12.6518
唐書食貨志開元二十	-12.6518
墩	-12.6518
天下静不復行役	-12.6518
子夜四時歌	-12.6518
宗祀光武皇	-12.6518
棃	-12.6518
無纎翳	-12.6518
石角斗甬	-12.6518
老枝擎重	-12.6518
試判十道	-12.6518
趙彦昭應制	-12.6518
開黄白花	-12.6518
同占欲出	-12.6518
必待霜止	-12.6518
㟁	-12.6518
以致玉童	-12.6518
吼地而生寒	-12.6518
夏之徳暑暑不信	-12.6518
太常寺官祭	-12.6518
尻	-12.6518
撫遐荒	-12.6518
物又其外方	-12.6518
王者亦以此日出獵還以祭宗廟	-12.6518
祭名也貙虎屬常以	-12.6518
苑丁未輿駕幸	-12.6518
苑採甘露宴羣臣	-12.6518
詔於苑龍	-12.6518
鐫	-12.6518
二十分龍廿一	-12.6518
二十日作帝範	-12.6518
今所置校尉亦	-12.6518
元間大呂助	-12.6518
入營室五度	-12.6518
入陳於殿庭	-12.6518
其母崔氏	-12.6518
凭	-12.6518
分之日夜分以至	-12.6518
分繭稱絲	-12.6518
加給料錢	-12.6518
原嘉定縣志	-12.6518
原寰宇記	-12.6518
司辰一員	-12.6518
吕䝉正以下	-12.6518
周靈王二十一年	-12.6518
基命宥密	-12.6518
増唐㑹要大足元年	-12.6518
増唐㑹要天寳六載正月	-12.6518
増玉海熙寕六年十月十	-12.6518
増玉海開元二十四年	-12.6518
増黄帝宅經	-12.6518
增唐書徳宗紀大厯十四年閏五月	-12.6518
奏四庫書	-12.6518
孔子厄於陳	-12.6518
差官溝畎	-12.6518
弔	-12.6518
後漢書陳寵傳	-12.6518
御愛檜	-12.6518
手裏行厨	-12.6518
提要録鯉魚風乃九月風也	-12.6518
收莒芋	-12.6518
故有貙膢之祭也	-12.6518
於禮部以侍郎主之	-12.6518
日而應月依隂	-12.6518
朌	-12.6518
本則茂而根大	-12.6518
楊誠齋詩云	-12.6518
楸葉膏	-12.6518
正月分蒔宜	-12.6518
武帝紀魏咸熙三年	-12.6518
為朔虛合氣盈朔	-12.6518
燥濕寒暑	-12.6518
玉杵臼	-12.6518
瞥	-12.6518
繅	-12.6518
而附陽盈於朔望消於朏魄	-12.6518
肥土不肥則長遂不精	-12.6518
肥壤數枝一	-12.6518
肦	-12.6518
興作福地	-12.6518
蘭射干芸荔之應	-12.6518
虚於上下弦息於輝	-12.6518
虛而閏生	-12.6518
觀音生辰	-12.6518
詩九月築場圃	-12.6518
詩波漂菰	-12.6518
踣	-12.6518
蹀	-12.6518
軺	-12.6518
迣	-12.6518
遲疾一終	-12.6518
鄷	-12.6518
鉅鑊湯	-12.6518
餙	-12.6518
主年豐風雨	-12.6518
五京進紙造	-12.6518
増玉函方	-12.6518
多霆電風雹積雪盛	-12.6518
宴於寺之設㕔	-12.6518
漢書元帝紀初元五年	-12.6518
為之辟易故潮	-12.6518
而潮小或者	-12.6518
駱賔王	-12.6518
騖	-12.6518
􁀫	-12.6518
令月時和氣清	-12.6519
張衡歸田賦	-12.6519
月得甲則曰畢	-12.6519
半明半魄也晦朔之	-12.6521
幅而去欣本工書因此彌善	-12.6521
練囊盛數十螢	-12.6521
闞	-12.6521
増史記天官書白帝行	-12.6521
瑞鶴仙詞	-12.6521
顯慶元年十	-12.6521
州七舍有五億萬七千三百九里	-12.6521
早蠶熟午	-12.6521
蚯	-12.6521
九州七舍	-12.6521
乾知大始	-12.6521
刺史行事祠下	-12.6521
天三生木地	-12.6521
始皇三十一年九月庚子	-12.6521
獄案考皆以立	-12.6521
祠太一甘泉	-12.6521
與民同樂	-12.6521
雲暮為行雨	-12.6521
龜人上春釁龜	-12.6521
伊耆氏	-12.6521
初六隂氣受任於太陽	-12.6521
哥	-12.6521
増古鏡記	-12.6521
増玉海嘉祐六年	-12.6521
増雲仙雜記	-12.6521
桂厚大無脊	-12.6521
樂府觧題	-12.6521
闊	-12.6521
黴	-12.6521
二弦之日日照其側人觀其傍故	-12.6521
其明故形圓也	-12.6521
凌冬不凋春末夏初開細白花七月實熟	-12.6521
圓其質清日光照之則見其	-12.6521
增玉海天禧二年	-12.6521
增玉海太平興國八年十	-12.6521
届	-12.6521
嵗在甲曰	-12.6521
川澤及寃句	-12.6521
故月望之日日月相望人居其間盡覩	-12.6521
日光所不照	-12.6521
有石鴈浮在	-12.6521
氷敲其精瑩者	-12.6521
瀦	-12.6521
為諫議大夫	-12.6521
相見乎離	-12.6521
苦熱佐以酸	-12.6521
逸人王休居太白山下日與僧	-12.6521
道異人往還每至冬時取	-12.6521
酴	-12.6521
露之節初五日鴻雁來	-12.6521
九月甘露頻降	-12.6521
原金門歳節	-12.6521
土覆之肥茂早熟	-12.6521
増草花譜	-12.6521
注亥之氣乗之也	-12.6521
漢儀注立秋	-12.6521
燭影揺紅詞	-12.6521
綦	-12.6521
聞見後録	-12.6521
董仲舒	-12.6521
黄裳元吉	-12.6521
㝷	-12.6521
七月十五日僧尼	-12.6521
乾徳元年閏十二月	-12.6521
二千石勉勸農桑	-12.6521
五角六張	-12.6521
代帝王美	-12.6521
佐以苦辛以	-12.6521
侍中版奏請中嚴	-12.6521
儕	-12.6521
儥	-12.6521
凡拜宰相及	-12.6521
出拂林國	-12.6521
區丁男女	-12.6521
卜蛙聲	-12.6521
同地自物生之時	-12.6521
啓灌藍蓼	-12.6521
嗣掌其月	-12.6521
嚴維詩柳塘	-12.6521
増劉孝綽詩	-12.6521
増唐㑹要天寳五載	-12.6521
増齊民要術三月可種	-12.6521
增後漢書明帝紀永平十年夏四月	-12.6521
太姥染衣	-12.6521
季復正立	-12.6521
宋史理宗紀淳祐	-12.6521
宋史職官志翰林學士院	-12.6521
寒婆生日	-12.6521
寸深六寸閒相去	-12.6521
尺四寸二	-12.6521
嵗察㢘吏各	-12.6521
巙	-12.6521
師子尾拂	-12.6521
年八月十九日丙	-12.6521
年十一月初一	-12.6521
建石經閣	-12.6521
惺	-12.6521
持鍼線	-12.6521
摩耶夫人	-12.6521
方又眀年則	-12.6521
方氣從所勝而來	-12.6521
日夜漏未盡五刻	-12.6521
日掌賞賞為暑	-12.6521
景雲河清歌	-12.6521
月以衞士帳上	-12.6521
有埃墨墮	-12.6521
有核在中	-12.6521
服通天冠	-12.6521
東宫昭靈	-12.6521
枸骨樹	-12.6521
楂	-12.6521
歩輦召學士	-12.6521
氣之應養	-12.6521
治有期日	-12.6521
淮南子冬至陰氣極則	-12.6521
深邃莫	-12.6521
漏上水一刻	-12.6521
漑	-12.6521
澤蘭生水澤中及下濕地	-12.6521
澤雉啼	-12.6521
澧	-12.6521
無訾又不得宦	-12.6521
熙朝樂事除夕	-12.6521
獲鹿薦廟	-12.6521
獻納大典	-12.6521
田雞呌得	-12.6521
畫蠶麥圖	-12.6521
疽	-12.6521
皮厚而肉	-12.6521
真宗拜嶽	-12.6521
窄	-12.6521
箠	-12.6521
築㑹昌城	-12.6521
紅荳蔲花	-12.6521
織婦茶綵	-12.6521
考神納賔	-12.6521
耕治之以種菜茹至物盡成熟	-12.6521
舊唐書文宗紀太和	-12.6521
苗高二三	-12.6521
萩	-12.6521
蓁	-12.6521
蓱	-12.6521
薑棚覆	-12.6521
蘂辨證	-12.6521
虸	-12.6521
蚄	-12.6521
蜀都雜抄	-12.6521
詔曰農天下之	-12.6521
課入農桑	-12.6521
謗木肺石	-12.6521
賢劫千佛	-12.6521
辰時還宅	-12.6521
農區田法方	-12.6521
追酬髙	-12.6521
醎㵼之	-12.6521
雲氣成宫闕	-12.6521
靸	-12.6521
韋嗣立莊	-12.6521
麟趾褭蹏	-12.6521
居家宜忌	-12.6522
増宋史禮志雍熙	-12.6522
鳴鳩拂羽	-12.6523
行冬令則陽氣不勝麥乃	-12.6523
在寅曰攝提格	-12.6523
之日而識其	-12.6524
士胡旦以下	-12.6524
停之酘畢	-12.6524
詩豐年四海皆温飽願把歡心夀玉	-12.6524
䜟	-12.6524
常以立夏氣至	-12.6524
淵凡十六所為九州七舍	-12.6524
聞見前錄	-12.6524
蒙谷之浦	-12.6524
虀	-12.6524
今孟夏之制可	-12.6524
冬温夏凉	-12.6524
孝子傳王祥	-12.6524
愿	-12.6524
杜陽雜編同昌公主堂中設却寒	-12.6524
潘岳閒居賦	-12.6524
㑹稽山為永興公	-12.6524
三王之郊一用夏正	-12.6524
别起義例	-12.6524
化柔萬物生長楙之於未	-12.6524
占秋糶風從南	-12.6524
増海槎餘録	-12.6524
壺中天詞	-12.6524
平因以利鎌摩地刈之曝令燥後	-12.6524
挿	-12.6524
有風調放火	-12.6524
紫微夫人四月	-12.6524
虆	-12.6524
行秋令則其國大水寒氣總至	-12.6524
調適黍熟穫之桑	-12.6524
一所曲盡	-12.6524
五日草木黄落後五日蟄蟲咸俯	-12.6524
僑	-12.6524
名為天灸以厭疾	-12.6524
增玉海元祐三年四月	-12.6524
後五日菊有黄華	-12.6524
慟	-12.6524
李羣玉詩	-12.6524
樁	-12.6524
濁水出鮒	-12.6524
豐楙於戊理紀於已	-12.6524
龍銜火樹	-12.6524
以苦燥之	-12.6524
使星向益	-12.6524
北望有紫青黄雲者是	-12.6524
原蔡寛夫詩話	-12.6524
増周易集觧坤六	-12.6524
宋史徽宗紀	-12.6524
寒色留春	-12.6524
將及人所以及人者	-12.6524
扵上陽宫	-12.6524
揫歛也	-12.6524
摧蓐而	-12.6524
日日未出前	-12.6524
條法事𩔖	-12.6524
濺	-12.6524
纈	-12.6524
罐	-12.6524
胞	-12.6524
邏	-12.6524
閣雨迎天	-12.6524
㑹試鎻院	-12.6524
㒺	-12.6524
三統為一元	-12.6524
交㤗殿成	-12.6524
停留管籥	-12.6524
光潤方莖紫節七	-12.6524
其花壓以為油	-12.6524
分是於三百六十日	-12.6524
利貞本義	-12.6524
千石魚陂	-12.6524
厄魯特	-12.6524
厪	-12.6524
史記始皇紀始皇	-12.6524
史記貨殖	-12.6524
増漢書平帝紀元始	-12.6524
増烏程縣志	-12.6524
增玉海紹興五年閏二月	-12.6524
宜陽青殿	-12.6524
寧貺莭	-12.6524
布徳和令	-12.6524
建時功施生榖	-12.6524
恐傷草木蟲	-12.6524
故九十日安居	-12.6524
新定五經字樣	-12.6524
旗旛改	-12.6524
日見四岳	-12.6524
晉書陶侃𫝊侃	-12.6524
曲室中語	-12.6524
書武帝紀泰始六年	-12.6524
月復全乎	-12.6524
未卜其夜	-12.6524
棐	-12.6524
樂髓新經	-12.6524
添踦贏二	-12.6524
為㵼吸為補夫	-12.6524
玉華宫銘	-12.6524
白麒麟璽	-12.6524
祥曦殿記注	-12.6524
積氣朔之數	-12.6524
耆舊相傳	-12.6524
而天運近	-12.6524
蕑	-12.6524
補中益氣	-12.6524
誠齋雜記	-12.6524
豐狐文豹	-12.6524
還精絳宫	-12.6524
鄠	-12.6524
開寶四年十一月	-12.6524
陟元鳥蟄	-12.6524
鼈伏隨日	-12.6524
龍圖待制	-12.6524
􁕐	-12.6524
剩	-12.6524
叡𫝊叡	-12.6524
唅	-12.6524
増厚徳録	-12.6524
増金史選舉志	-12.6524
增嘉定縣志	-12.6524
宋史神宗紀	-12.6524
岀	-12.6524
白居易首夏詩	-12.6524
𫝊陟升也	-12.6524
圻	-12.6525
不熟民多相掠	-12.6526
増海寧縣志	-12.6526
原歳時雜記	-12.6526
至未位遯卦而後温厚之	-12.6527
増遼史聖宗紀統和	-12.6527
㓗	-12.6527
采蒲花如柳絮者熟鞭貯以方	-12.6527
増晉書武帝紀泰始五年	-12.6527
昺	-12.6527
三月律謂之姑洗何姑者故也洗者鮮	-12.6527
也言萬物皆去故就	-12.6527
以黍椹子各三升合種	-12.6527
佛像浸以香水楊	-12.6527
増揮麈後録	-12.6527
増談薈二月	-12.6527
揑	-12.6527
服之令人身輕	-12.6527
玳瑁斑有紫色云却寒	-12.6527
當俱生鋤之桑令稀	-12.6527
鳥骨所為也	-12.6527
以錦綵為眼明	-12.6527
增玉海景祐二年	-12.6527
它	-12.6527
居山雜志	-12.6527
柂	-12.6527
桑至春生一	-12.6527
洒浴排門教化諸大寺作浴	-12.6527
生正與黍髙	-12.6527
葉酒試奠五辛盤	-12.6527
唐書南蠻𫝊	-12.6527
増法苑珠林佛言正月	-12.6527
増玉海乾道六年八月二十	-12.6527
待以客禮	-12.6527
扈竊元趣民耘	-12.6527
拾聚置之隂地正月地釋即	-12.6527
漢書文帝紀元年三月詔曰	-12.6527
肅縮也霜降而收縮萬	-12.6527
閉關商旅不	-12.6527
以淡泄之	-12.6527
史記游俠	-12.6527
增後漢書順帝紀陽嘉元年	-12.6527
忽夢一人自天	-12.6527
掃刷麴令	-12.6527
沗	-12.6527
瓌	-12.6527
用故紙糊席曝之夜乃勿收令受霜露風	-12.6527
萬户千門	-12.6527
鶿	-12.6527
齊民要術神麴酒方	-12.6527
三日有霧歳熟	-12.6527
上簡子塜	-12.6527
乗旗旄尚	-12.6527
二月望日鬻蠶器	-12.6527
五日鷙鳥厲疾	-12.6527
京諸市署	-12.6527
仙藥占曰	-12.6527
何㽔者下也賔者敬也言陽氣上極隂氣	-12.6527
使妖災羣	-12.6527
冶而如笑	-12.6527
出大弱是	-12.6527
出小弱夜半出中弱	-12.6527
利有攸往	-12.6527
剌	-12.6527
加置太府卿以少	-12.6527
勿伐樹木	-12.6527
北人打圍	-12.6527
北山羅鳥	-12.6527
卷八夏令	-12.6527
去皮核搗	-12.6527
吉將加時	-12.6527
増宋史禮志咸平四年	-12.6527
増玉海乾德五年	-12.6527
増玉海咸平三年十一月	-12.6527
増玉海慶厯四年五月十一日幸	-12.6527
增宋史高宗紀紹興十年四月	-12.6527
增魏書孝文帝紀太和十	-12.6527
壯者舞之	-12.6527
夏至前十日為	-12.6527
嬾真子録	-12.6527
宋書符瑞志孝武帝	-12.6527
宗祀眀堂禮	-12.6527
少府卿加置太僕卿三卿是為夏卿	-12.6527
崧	-12.6527
幸皇宗學	-12.6527
度則日為退	-12.6527
後漢書章帝紀建初元年春正月	-12.6527
得而易失	-12.6527
心契九秋幹目	-12.6527
愼	-12.6527
日三服百日	-12.6527
星在南方之中	-12.6527
春秋説題辭	-12.6527
時尚以蠶為市共	-12.6527
晉書禮志武帝泰始	-12.6527
晝亡夜存	-12.6527
曹參軍事掌	-12.6527
月計曰要	-12.6527
案無留辭	-12.6527
正色尚黑	-12.6527
渾天儀象銘	-12.6527
漢書董仲舒傳天	-12.6527
烝微曝	-12.6527
燎麻炬	-12.6527
當大而反小	-12.6527
監門将軍判	-12.6527
盫芙蓉條	-12.6527
礱	-12.6527
祓妖邪	-12.6527
禀奏歸院内侍鎖院門	-12.6527
禱雨太乙宮	-12.6527
立詩賦式	-12.6527
竝蔕𤓰桃	-12.6527
章敬寺賦詩	-12.6527
箇十日八百	-12.6527
紃	-12.6527
繽	-12.6527
罝䍡設穽鄂	-12.6527
罥	-12.6527
置鑄錢監	-12.6527
翠芳亭觀稻	-12.6527
至微陽始動故土	-12.6527
與太常禮院	-12.6527
舉廉吏	-12.6527
苦艱蜀人	-12.6527
萬物莩甲	-12.6527
蜀人衣食常	-12.6527
註戌之氣乗之也又行	-12.6527
譎	-12.6527
遣子入侍	-12.6527
采瓜犀	-12.6527
金史輿服志其	-12.6527
食一年辛苦一	-12.6527
馬兜鈴	-12.6527
髟	-12.6527
魯東門伯	-12.6527
麻葛糕	-12.6527
龍又為火龍	-12.6527
𢃄	-12.6527
􁀾	-12.6527
毨	-12.6528
楫	-12.6529
乃大旱暖氣早来	-12.6529
六月之辰謂之未未者味也	-12.6529
時萬物向成	-12.6529
雖生而未害於陽必	-12.653
中九月寒露節霜	-12.653
國語少采夕月	-12.653
生苖多在	-12.653
増齊民要術蘘荷宜在樹隂下	-12.653
事享於皇	-12.653
作坐褥或	-12.653
朕即位以来	-12.653
舎采合舞	-12.653
韓愈南海神廟碑	-12.653
其進退使應	-12.653
増陳子昻詩	-12.653
増齊民要術師曠占五穀貴賤法常以	-12.653
晁冲之上元	-12.653
鞵	-12.653
以炭屑用蜜揑塑成雙鳯	-12.653
十一月一日幸曲阜	-12.653
増晋書武帝紀太康	-12.653
岐王有玉鞍一面	-12.653
新莫不鮮明也	-12.653
甲子夜半朔旦冬至	-12.653
箎	-12.653
萬物皆蔽冒	-12.653
西溪叢話	-12.653
鶻五月上旬	-12.653
先以白檀木鋪	-12.653
剗	-12.653
原唐書卓行𫝊	-12.653
因以為日名焉増漢書律	-12.653
堂當大室	-12.653
増漢書武帝紀元光	-12.653
天之常道也	-12.653
如牽牛花而	-12.653
官疏案左	-12.653
幸臨渭亭	-12.653
法冬天以𤓰子數枚内熱牛	-12.653
秋田為獮獮殺也	-12.653
糞中凍即	-12.653
三百六十五度四分度之	-12.653
主低田大熟	-12.653
九月叔苴	-12.653
今官園種之	-12.653
十日又問曰未也	-12.653
叔孫通傳	-12.653
叔拾也苴麻	-12.653
味甘温無毒	-12.653
在申曰涒灘	-12.653
増性理大全程子曰	-12.653
增唐書五行志	-12.653
扶助微氣	-12.653
流澌氷合	-12.653
漢韓明府修孔子廟器	-12.653
籩	-12.653
菠	-12.653
衡者所以平萬	-12.653
補子蟒衣	-12.653
貞元十八年九月癸亥	-12.653
鄉試八月二十	-12.653
龍蛇之蟄以存身	-12.653
一候餘九	-12.6531
一畆用子	-12.6531
七日置折衝府	-12.6531
中此即天地	-12.6531
串	-12.6531
九蒸九暴	-12.6531
五日水澤腹堅	-12.6531
侍中源乾曜	-12.6531
候月知雨	-12.6531
六神受制	-12.6531
刀削去必使極	-12.6531
則蚌蛤	-12.6531
原京房占	-12.6531
又因以為日名焉漢書律歴志	-12.6531
后妃諸閤	-12.6531
君皮弁素積	-12.6531
周禮夏官牧師	-12.6531
周禮秋官小司冦	-12.6531
命農勉作	-12.6531
増保生要録	-12.6531
増周禮秋官大行人	-12.6531
増宋史禮志真宗景徳	-12.6531
増後山叢談	-12.6531
増昜緯	-12.6531
増晋書元帝紀太興	-12.6531
増陳後主詩春	-12.6531
増齊民要術永嘉記曰	-12.6531
始賔敬之也	-12.6531
娑婆樹子	-12.6531
岷	-12.6531
淖	-12.6531
琖	-12.6531
稉	-12.6531
饙	-12.6531
􁋜	-12.6531
􁨇	-12.6531
从	-12.6531
慝	-12.6531
窅	-12.6531
􁆩	-12.6531
癭	-12.6534
壖	-12.6534
硝	-12.6534
鄽	-12.6534
掬	-12.6534
撩	-12.6534
蕺	-12.6534
凢	-12.6534
滍	-12.6534
鏞	-12.6534
鷰	-12.6534
撆	-12.6534
謞	-12.6534
錚	-12.6534
鏦	-12.6534
鮨	-12.6534
鷕	-12.6534
隼	-12.6536
阡	-12.6536
拽	-12.6537
祜	-12.6537
窕	-12.6537
椐	-12.6537
皿	-12.6537
畎	-12.6537
哢	-12.6537
跂	-12.6537
䲭	-12.6537
嘔	-12.6537
恚	-12.6537
殫	-12.6537
澌	-12.6537
粮	-12.6537
饍	-12.6537
扞	-12.6537
斡	-12.6537
諯	-12.6537
韝	-12.6537
﨑	-12.6537
􁂺	-12.6537
紡	-12.6539
溼	-12.654
穊	-12.654
蓉	-12.654
扳	-12.654
灤	-12.654
芙	-12.654
儛	-12.654
腋	-12.654
鵾	-12.654
鵷	-12.654
亾	-12.654
熛	-12.654
頊	-12.654
鸑	-12.654
剙	-12.654
嗅	-12.654
婪	-12.654
怱	-12.654
檣	-12.654
琤	-12.654
禈	-12.654
縶	-12.654
觚	-12.654
諶	-12.654
跣	-12.654
靶	-12.654
屡	-12.6543
惨	-12.6543
斁	-12.6543
耡	-12.6543
坫	-12.6543
敻	-12.6543
暦	-12.6543
猝	-12.6543
稳	-12.6543
篃	-12.6543
聮	-12.6543
芾	-12.6543
軷	-12.6543
雰	-12.6543
愕	-12.6544
滎	-12.6544
泓	-12.6546
沣	-12.6546
獃	-12.6546
粰	-12.6546
霅	-12.6546
枿	-12.6546
棋	-12.6546
淬	-12.6546
濠	-12.6546
瑄	-12.6546
瑊	-12.6546
腃	-12.6546
袚	-12.6546
鄗	-12.6546
𨼆	-12.6546
䌫	-12.6546
剜	-12.6546
哩	-12.6546
屹	-12.6546
忡	-12.6546
潎	-12.6546
献	-12.6546
羿	-12.6546
菡	-12.6546
醞	-12.6546
鏜	-12.6546
騭	-12.6546
鷖	-12.6546
􁉩	-12.6546
党	-12.6549
莩	-12.6549
劑	-12.6549
矧	-12.6549
䀋	-12.6549
捽	-12.6549
罹	-12.6549
桕	-12.6549
菼	-12.6549
歘	-12.6549
矖	-12.6549
蕊	-12.6549
斚	-12.6549
曖	-12.6549
潰	-12.6549
蝎	-12.6549
釂	-12.6549
玲	-12.6551
咄	-12.6552
締	-12.6552
㯽	-12.6552
皷	-12.6552
蝉	-12.6553
槲	-12.6553
翽	-12.6553
蝱	-12.6553
䢴	-12.6553
奨	-12.6553
摵	-12.6553
椑	-12.6553
櫓	-12.6553
渹	-12.6553
璹	-12.6553
羇	-12.6553
荃	-12.6553
觽	-12.6553
賄	-12.6553
鉗	-12.6553
隸	-12.6553
鸛	-12.6553
􁀗	-12.6553
徭	-12.6554
钁	-12.6556
淄	-12.6556
簞	-12.6556
萋	-12.6556
蓑	-12.6556
璜	-12.6556
笈	-12.6556
吁	-12.6556
噪	-12.6556
笴	-12.6556
篾	-12.6556
趫	-12.6556
咤	-12.6556
异	-12.6556
臬	-12.6556
魘	-12.6556
鯥	-12.6556
閶	-12.6558
匼	-12.6559
藂	-12.6559
臓	-12.6559
繰	-12.6559
裛	-12.6559
轎	-12.6559
㩀	-12.6559
磻	-12.6559
覇	-12.6559
㬥	-12.6559
佼	-12.6559
吻	-12.6559
呴	-12.6559
欎	-12.6559
羈	-12.6559
褭	-12.6559
諄	-12.6559
簀	-12.6562
瀬	-12.6562
劄	-12.6562
扑	-12.6562
暾	-12.6562
阯	-12.6562
摇	-12.6562
粽	-12.6562
鈔	-12.6562
咮	-12.6562
嘹	-12.6562
旴	-12.6562
澩	-12.6562
絛	-12.6562
苬	-12.6562
羆	-12.6565
勻	-12.6565
輈	-12.6565
沬	-12.6565
磽	-12.6565
繳	-12.6565
餾	-12.6565
侃	-12.6565
揣	-12.6565
搶	-12.6565
榦	-12.6565
橊	-12.6565
頑	-12.6568
禴	-12.6568
艸	-12.6568
椵	-12.6568
珊	-12.657
氓	-12.6571
脽	-12.6571
鬯	-12.6571
咋	-12.6571
喓	-12.6571
翬	-12.6571
賙	-12.6571
遰	-12.6571
揩	-12.6575
鵒	-12.6575
紿	-12.6575
鴝	-12.6576
癩	-12.6578
鰩	-12.6578
搢	-12.6581
屐	-12.6581
瀨	-12.6581
冇	-12.6581
嘒	-12.6581
菆	-12.6584
窘	-12.6587
昀	-12.6587
薊	-12.6597
膊	-12.6597
栩	-12.6597
鬟	-12.66
斝	-12.66
綇	-12.66
􁰖	-12.6609
䆊	-12.6609
夥	-12.6616
峒	-12.6619
蘀	-12.6622
􁡓	-13.6258
􁙴	-13.6259
𦙍	-13.626
鼽	-13.6261
鼯	-13.6262
鼊	-13.6263
黌	-13.6264
麢	-13.6265
鶪	-13.6266
鵓	-13.6267
鰭	-13.6268
鰒	-13.6269
鯷	-13.627
鯇	-13.6271
鮦	-13.6272
魑	-13.6273
魃	-13.6274
骭	-13.6275
驊	-13.6276
騸	-13.6277
騮	-13.6278
駞	-13.6279
饘	-13.628
饉	-13.6281
餚	-13.6282
飪	-13.6283
飜	-13.6284
韣	-13.6285
韙	-13.6286
鞉	-13.6287
靃	-13.6288
霠	-13.6289
霎	-13.629
闍	-13.6291
鏹	-13.6292
鏵	-13.6293
鎞	-13.6294
鉶	-13.6295
醁	-13.6296
酩	-13.6297
酊	-13.6298
酈	-13.6299
酃	-13.63
鄱	-13.6301
鄢	-13.6302
鄏	-13.6303
郍	-13.6304
轤	-13.6305
轟	-13.6306
輶	-13.6307
踴	-13.6308
踦	-13.6309
踡	-13.631
賾	-13.6311
諟	-13.6312
覯	-13.6313
褎	-13.6314
裟	-13.6315
袞	-13.6316
袈	-13.6317
蠊	-13.6318
蟪	-13.6319
蟢	-13.632
螾	-13.6321
螫	-13.6322
螗	-13.6323
螈	-13.6324
螀	-13.6325
蝟	-13.6326
蝑	-13.6327
蜮	-13.6328
湮	-13.6328
瀋	-13.6328
紥	-13.6328
蜨	-13.6329
蛬	-13.633
蛉	-13.6331
蘽	-13.6332
蘹	-13.6333
蘞	-13.6334
蘄	-13.6335
藘	-13.6336
崢	-13.6336
藊	-13.6337
蕹	-13.6338
蕳	-13.6339
蔛	-13.634
蒴	-13.6341
蒠	-13.6342
蒟	-13.6343
葈	-13.6344
隍	-13.6344
澳	-13.6344
萐	-13.6345
莣	-13.6346
莓	-13.6347
茴	-13.6348
芧	-13.6349
艽	-13.635
艫	-13.6351
艨	-13.6352
艟	-13.6353
舳	-13.6354
臞	-13.6355
臙	-13.6356
膫	-13.6357
藷	-13.6358
膃	-13.6358
肭	-13.6359
聻	-13.636
嶔	-13.636
揠	-13.636
橑	-13.636
罵	-13.636
耔	-13.6361
耉	-13.6362
罻	-13.6363
縲	-13.6364
縐	-13.6365
綢	-13.6366
紽	-13.6367
紇	-13.6368
麩	-13.6368
啽	-13.6368
囈	-13.6368
嫣	-13.6368
璩	-13.6368
簎	-13.6368
藇	-13.6368
觕	-13.6368
糰	-13.6369
糚	-13.637
篲	-13.6371
蕎	-13.6371
箒	-13.6372
箐	-13.6373
笲	-13.6374
竣	-13.6375
穽	-13.6376
暅	-13.6376
构	-13.6376
腿	-13.6376
茀	-13.6376
萷	-13.6376
虜	-13.6376
穋	-13.6377
穇	-13.6378
稆	-13.6379
禇	-13.638
礴	-13.6381
礜	-13.6382
磵	-13.6383
确	-13.6384
櫪	-13.6384
篘	-13.6384
糙	-13.6384
胹	-13.6384
砰	-13.6385
瞰	-13.6386
瞋	-13.6387
皝	-13.6388
瘐	-13.6389
瘃	-13.639
畯	-13.6391
甬	-13.6392
䚦	-13.6392
窣	-13.6392
紒	-13.6392
瑪	-13.6393
瑙	-13.6394
琊	-13.6395
玠	-13.6396
獞	-13.6397
猾	-13.6398
猊	-13.6399
狻	-13.64
䙀	-13.64
兊	-13.64
嫂	-13.64
徕	-13.64
欻	-13.64
羶	-13.64
胤	-13.64
訏	-13.64
諳	-13.64
犍	-13.6401
牁	-13.6402
熰	-13.6403
灂	-13.6404
瀵	-13.6405
瀚	-13.6406
濊	-13.6407
漭	-13.6408
刧	-13.6408
厝	-13.6408
徇	-13.6408
撗	-13.6408
璝	-13.6408
蹻	-13.6408
滹	-13.6409
湋	-13.641
涚	-13.6411
涇	-13.6412
洿	-13.6413
派	-13.6414
洼	-13.6415
洫	-13.6416
刓	-13.6416
皜	-13.6416
筑	-13.6416
耋	-13.6416
蝃	-13.6416
洑	-13.6417
泬	-13.6418
氅	-13.6419
毖	-13.642
欓	-13.6421
欃	-13.6422
櫼	-13.6423
檽	-13.6424
㴻	-13.6424
壷	-13.6424
媯	-13.6424
屎	-13.6424
慆	-13.6424
慾	-13.6424
扱	-13.6424
撝	-13.6424
爝	-13.6424
瞞	-13.6424
矸	-13.6424
聆	-13.6424
艘	-13.6424
蒯	-13.6424
蠍	-13.6424
檳	-13.6425
樨	-13.6426
槳	-13.6427
榧	-13.6428
榅	-13.6429
桷	-13.643
栟	-13.6431
杠	-13.6432
肱	-13.6432
㿂	-13.6432
䖵	-13.6432
䱉	-13.6432
冑	-13.6432
婿	-13.6432
宬	-13.6432
扦	-13.6432
搨	-13.6432
泲	-13.6432
牏	-13.6432
祸	-13.6432
窌	-13.6432
笮	-13.6432
罧	-13.6432
詼	-13.6432
曏	-13.6433
晹	-13.6434
斐	-13.6435
擱	-13.6436
擪	-13.6437
擐	-13.6438
撐	-13.6439
翌	-13.6439
莪	-13.644
撈	-13.644
偫	-13.644
卻	-13.644
屫	-13.644
怵	-13.644
懵	-13.644
抬	-13.644
拄	-13.644
挶	-13.644
撙	-13.644
擯	-13.644
毐	-13.644
籧	-13.644
緌	-13.644
緥	-13.644
縀	-13.644
繦	-13.644
肋	-13.644
蓲	-13.644
讁	-13.644
貤	-13.644
摻	-13.6441
揶	-13.6442
揄	-13.6443
掄	-13.6444
抓	-13.6445
懴	-13.6446
懦	-13.6447
憯	-13.6448
鮫	-13.6448
氾	-13.6448
䴠	-13.6448
丼	-13.6448
佔	-13.6448
僱	-13.6448
儘	-13.6448
喇	-13.6448
奫	-13.6448
妣	-13.6448
姙	-13.6448
宷	-13.6448
幈	-13.6448
悶	-13.6448
棻	-13.6448
榝	-13.6448
橐	-13.6448
濚	-13.6448
猙	-13.6448
獰	-13.6448
璅	-13.6448
畞	-13.6448
矟	-13.6448
穨	-13.6448
羜	-13.6448
荳	-13.6448
蔻	-13.6448
虖	-13.6448
衲	-13.6448
觟	-13.6448
躞	-13.6448
憭	-13.6449
愠	-13.645
愐	-13.6451
愍	-13.6452
悌	-13.6453
忉	-13.6454
很	-13.6455
幞	-13.6456
佟	-13.6456
坩	-13.6456
塏	-13.6456
墼	-13.6456
廖	-13.6456
徠	-13.6456
戹	-13.6456
摙	-13.6456
撏	-13.6456
橦	-13.6456
涪	-13.6456
玥	-13.6456
祋	-13.6456
祧	-13.6456
筤	-13.6456
篳	-13.6456
簏	-13.6456
詮	-13.6456
貔	-13.6456
賅	-13.6456
禖	-13.6456
嶲	-13.6457
屣	-13.6458
尒	-13.6459
孥	-13.646
嬙	-13.6461
嫏	-13.6462
婷	-13.6463
娉	-13.6464
彿	-13.6464
䗶	-13.6464
䲅	-13.6464
亵	-13.6464
佶	-13.6464
剋	-13.6464
卸	-13.6464
厎	-13.6464
呿	-13.6464
塸	-13.6464
墢	-13.6464
娜	-13.6464
婀	-13.6464
嵪	-13.6464
拴	-13.6464
捄	-13.6464
曯	-13.6464
檾	-13.6464
歿	-13.6464
泳	-13.6464
琁	-13.6464
璪	-13.6464
眘	-13.6464
硤	-13.6464
磄	-13.6464
祤	-13.6464
簳	-13.6464
籟	-13.6464
粞	-13.6464
紖	-13.6464
罯	-13.6464
耑	-13.6464
舁	-13.6464
蓀	-13.6464
蔤	-13.6464
蔭	-13.6464
蚪	-13.6464
蚶	-13.6464
蝌	-13.6464
誹	-13.6464
譌	-13.6464
譖	-13.6464
鎌	-13.6464
餕	-13.6464
妥	-13.6465
奶	-13.6466
夤	-13.6467
塌	-13.6468
埭	-13.6469
垎	-13.647
坰	-13.6471
圞	-13.6472
㶚	-13.6472
䒒	-13.6472
䘏	-13.6472
倓	-13.6472
僨	-13.6472
劋	-13.6472
咷	-13.6472
咿	-13.6472
崒	-13.6472
嵂	-13.6472
嵰	-13.6472
捺	-13.6472
椅	-13.6472
楗	-13.6472
殢	-13.6472
洓	-13.6472
渗	-13.6472
漓	-13.6472
瀼	-13.6472
燀	-13.6472
犂	-13.6472
瑳	-13.6472
璨	-13.6472
甿	-13.6472
畛	-13.6472
癃	-13.6472
眢	-13.6472
礓	-13.6472
秏	-13.6472
穮	-13.6472
纚	-13.6472
菥	-13.6472
蓊	-13.6472
蕣	-13.6472
蘚	-13.6472
蜇	-13.6472
襞	-13.6472
詐	-13.6472
賃	-13.6472
趄	-13.6472
踪	-13.6472
喑	-13.6473
咱	-13.6474
咬	-13.6475
咡	-13.6476
呾	-13.6477
吒	-13.6478
菲	-13.6478
厴	-13.6479
麒	-13.648
傀	-13.648
葫	-13.648
曈	-13.648
㨁	-13.648
㫋	-13.648
劙	-13.648
呦	-13.648
咢	-13.648
哂	-13.648
唤	-13.648
喂	-13.648
嗤	-13.648
堙	-13.648
姫	-13.648
帗	-13.648
拏	-13.648
枎	-13.648
梣	-13.648
棱	-13.648
櫜	-13.648
欠	-13.648
滲	-13.648
滳	-13.648
獼	-13.648
癅	-13.648
眂	-13.648
祕	-13.648
窳	-13.648
綫	-13.648
纇	-13.648
罳	-13.648
莗	-13.648
蕂	-13.648
蛹	-13.648
蝘	-13.648
蝝	-13.648
蟆	-13.648
蟮	-13.648
誣	-13.648
賮	-13.648
賸	-13.648
跽	-13.648
倕	-13.6481
俶	-13.6482
俙	-13.6483
伉	-13.6484
䴷	-13.6485
䱜	-13.6486
䭱	-13.6487
駘	-13.6488
䘖	-13.6488
蒺	-13.6488
萵	-13.6488
躅	-13.6488
駝	-13.6488
㩗	-13.6488
䂓	-13.6488
勔	-13.6488
勦	-13.6488
厮	-13.6488
嘏	-13.6488
埸	-13.6488
墖	-13.6488
嵕	-13.6488
幰	-13.6488
忭	-13.6488
悞	-13.6488
抨	-13.6488
挲	-13.6488
摠	-13.6488
擺	-13.6488
旓	-13.6488
桉	-13.6488
氳	-13.6488
洴	-13.6488
渰	-13.6488
湲	-13.6488
潺	-13.6488
澼	-13.6488
濩	-13.6488
烖	-13.6488
犠	-13.6488
玦	-13.6488
琑	-13.6488
睨	-13.6488
磊	-13.6488
糢	-13.6488
絇	-13.6488
絖	-13.6488
絝	-13.6488
繖	-13.6488
胖	-13.6488
茒	-13.6488
萆	-13.6488
葍	-13.6488
葯	-13.6488
蚑	-13.6488
蚘	-13.6488
螮	-13.6488
謼	-13.6488
貰	-13.6488
蹲	-13.6488
陘	-13.6488
䓻	-13.6489
泌	-13.649
䍡	-13.649
䉽	-13.6491
䇘	-13.6492
䆳	-13.6493
䂬	-13.6494
㵳	-13.6495
㲲	-13.6496
㡾	-13.6496
㲈	-13.6496
㸐	-13.6496
䥥	-13.6496
丗	-13.6496
估	-13.6496
兜	-13.6496
冱	-13.6496
勷	-13.6496
匍	-13.6496
厔	-13.6496
咀	-13.6496
壜	-13.6496
孌	-13.6496
岔	-13.6496
嵋	-13.6496
弚	-13.6496
彍	-13.6496
彴	-13.6496
怳	-13.6496
搽	-13.6496
昫	-13.6496
暏	-13.6496
枷	-13.6496
枹	-13.6496
棼	-13.6496
橚	-13.6496
歊	-13.6496
殉	-13.6496
涙	-13.6496
淤	-13.6496
渼	-13.6496
滙	-13.6496
瀲	-13.6496
灎	-13.6496
煴	-13.6496
獐	-13.6496
玨	-13.6496
瘍	-13.6496
盩	-13.6496
磓	-13.6496
簋	-13.6496
簠	-13.6496
肓	-13.6496
胟	-13.6496
脅	-13.6496
芫	-13.6496
茋	-13.6496
莞	-13.6496
菓	-13.6496
蕾	-13.6496
蝨	-13.6496
蠣	-13.6496
詶	-13.6496
譫	-13.6496
貮	-13.6496
贑	-13.6496
蹌	-13.6496
㬻	-13.6497
㡛	-13.6498
㡓	-13.6499
㖡	-13.65
鸇	-13.6501
鷥	-13.6502
鷀	-13.6503
鵑	-13.6503
鶺	-13.6504
䔺	-13.6504
䣛	-13.6504
䰲	-13.6504
丱	-13.6504
伋	-13.6504
儤	-13.6504
匐	-13.6504
呢	-13.6504
咳	-13.6504
哆	-13.6504
哨	-13.6504
唘	-13.6504
喃	-13.6504
圴	-13.6504
埻	-13.6504
壌	-13.6504
妤	-13.6504
媫	-13.6504
媺	-13.6504
宭	-13.6504
捋	-13.6504
搰	-13.6504
擒	-13.6504
曀	-13.6504
桁	-13.6504
檍	-13.6504
汞	-13.6504
泞	-13.6504
涊	-13.6504
淟	-13.6504
潬	-13.6504
濓	-13.6504
濰	-13.6504
烞	-13.6504
熄	-13.6504
熚	-13.6504
燂	-13.6504
燾	-13.6504
狠	-13.6504
瑾	-13.6504
畀	-13.6504
疚	-13.6504
睞	-13.6504
篹	-13.6504
簦	-13.6504
糍	-13.6504
緇	-13.6504
苺	-13.6504
蛓	-13.6504
蟧	-13.6504
袨	-13.6504
褪	-13.6504
觹	-13.6504
訢	-13.6504
賂	-13.6504
蹵	-13.6504
躓	-13.6504
鵂	-13.6505
鴒	-13.6506
鱷	-13.6507
餼	-13.6508
霡	-13.6509
霈	-13.651
鋏	-13.6511
踘	-13.6512
鵡	-13.6512
㐀	-13.6512
䑛	-13.6512
䚴	-13.6512
么	-13.6512
佾	-13.6512
倂	-13.6512
劈	-13.6512
匳	-13.6512
呷	-13.6512
唫	-13.6512
喣	-13.6512
堝	-13.6512
堲	-13.6512
壐	-13.6512
宓	-13.6512
徯	-13.6512
怙	-13.6512
慬	-13.6512
戛	-13.6512
扄	-13.6512
晌	-13.6512
曮	-13.6512
枻	-13.6512
梈	-13.6512
榠	-13.6512
榲	-13.6512
涔	-13.6512
涬	-13.6512
淀	-13.6512
淗	-13.6512
濇	-13.6512
熅	-13.6512
燌	-13.6512
狡	-13.6512
猱	-13.6512
珞	-13.6512
琠	-13.6512
疹	-13.6512
痰	-13.6512
盻	-13.6512
磷	-13.6512
禝	-13.6512
穩	-13.6512
竞	-13.6512
籐	-13.6512
綉	-13.6512
縰	-13.6512
胏	-13.6512
胝	-13.6512
胼	-13.6512
脗	-13.6512
腵	-13.6512
膂	-13.6512
舖	-13.6512
艇	-13.6512
芑	-13.6512
螬	-13.6512
衖	-13.6512
袷	-13.6512
褦	-13.6512
褫	-13.6512
褶	-13.6512
襶	-13.6512
諍	-13.6512
諛	-13.6512
譔	-13.6512
讒	-13.6512
豋	-13.6512
豍	-13.6512
踟	-13.6512
蹰	-13.6512
駱	-13.6512
跬	-13.6513
跎	-13.6514
豇	-13.6515
觝	-13.6516
眹	-13.6516
蟛	-13.6517
螵	-13.6518
蜞	-13.6519
蛸	-13.652
耩	-13.652
㢓	-13.652
㹠	-13.652
伷	-13.652
凈	-13.652
剏	-13.652
喀	-13.652
嘿	-13.652
圊	-13.652
型	-13.652
埡	-13.652
塋	-13.652
娩	-13.652
孱	-13.652
嵥	-13.652
廋	-13.652
恁	-13.652
捩	-13.652
攖	-13.652
旟	-13.652
杫	-13.652
枣	-13.652
枰	-13.652
桮	-13.652
梂	-13.652
楔	-13.652
槮	-13.652
氂	-13.652
淛	-13.652
湃	-13.652
濘	-13.652
烱	-13.652
犇	-13.652
猋	-13.652
玃	-13.652
玕	-13.652
珓	-13.652
璆	-13.652
瓔	-13.652
瘂	-13.652
皛	-13.652
砉	-13.652
磐	-13.652
穏	-13.652
窰	-13.652
篝	-13.652
緘	-13.652
繂	-13.652
罈	-13.652
舡	-13.652
茝	-13.652
荈	-13.652
莘	-13.652
蒫	-13.652
蔫	-13.652
蝮	-13.652
蠐	-13.652
袥	-13.652
褧	-13.652
襐	-13.652
詆	-13.652
贜	-13.652
赩	-13.652
躚	-13.652
蛚	-13.6521
蚱	-13.6522
蕒	-13.6523
蕆	-13.6524
蓺	-13.6525
彄	-13.6525
瞬	-13.6526
蒡	-13.6526
稹	-13.6526
萯	-13.6527
苢	-13.6528
蟁	-13.6528
㡳	-13.6528
㨾	-13.6528
㾭	-13.6528
䔫	-13.6528
䴥	-13.6528
倥	-13.6528
傯	-13.6528
冂	-13.6528
匃	-13.6528
咲	-13.6528
啁	-13.6528
坪	-13.6528
塚	-13.6528
墄	-13.6528
嫄	-13.6528
嬃	-13.6528
宕	-13.6528
嵸	-13.6528
幀	-13.6528
悰	-13.6528
惙	-13.6528
憀	-13.6528
憺	-13.6528
戇	-13.6528
扒	-13.6528
挍	-13.6528
斮	-13.6528
晬	-13.6528
晰	-13.6528
柈	-13.6528
桄	-13.6528
梹	-13.6528
棁	-13.6528
歧	-13.6528
毘	-13.6528
毯	-13.6528
狢	-13.6528
环	-13.6528
琹	-13.6528
疿	-13.6528
瘈	-13.6528
瘲	-13.6528
癤	-13.6528
皵	-13.6528
瞪	-13.6528
礛	-13.6528
礦	-13.6528
秬	-13.6528
綟	-13.6528
縡	-13.6528
纜	-13.6528
脬	-13.6528
膓	-13.6528
舴	-13.6528
艋	-13.6528
蛱	-13.6528
蠂	-13.6528
踔	-13.6528
躃	-13.6528
芣	-13.6529
翶	-13.653
紝	-13.6531
稌	-13.6532
疰	-13.6533
甥	-13.6534
熠	-13.6535
灧	-13.6536
臚	-13.6536
蕓	-13.6536
薐	-13.6536
㕓	-13.6536
㷬	-13.6536
䃭	-13.6536
䓞	-13.6536
䴢	-13.6536
亰	-13.6536
亶	-13.6536
倏	-13.6536
傺	-13.6536
僇	-13.6536
儁	-13.6536
冺	-13.6536
刖	-13.6536
勺	-13.6536
吰	-13.6536
咆	-13.6536
啜	-13.6536
噌	-13.6536
囑	-13.6536
圌	-13.6536
圬	-13.6536
堡	-13.6536
壝	-13.6536
妷	-13.6536
媵	-13.6536
寗	-13.6536
崦	-13.6536
嶇	-13.6536
巂	-13.6536
悃	-13.6536
惓	-13.6536
惘	-13.6536
愊	-13.6536
懃	-13.6536
抉	-13.6536
撘	-13.6536
暠	-13.6536
朹	-13.6536
枋	-13.6536
楪	-13.6536
橫	-13.6536
欿	-13.6536
殞	-13.6536
毹	-13.6536
氍	-13.6536
氎	-13.6536
汭	-13.6536
淩	-13.6536
渫	-13.6536
渻	-13.6536
溧	-13.6536
澁	-13.6536
澠	-13.6536
焍	-13.6536
熲	-13.6536
牺	-13.6536
猺	-13.6536
璈	-13.6536
町	-13.6536
疃	-13.6536
疈	-13.6536
痔	-13.6536
禛	-13.6536
竾	-13.6536
箁	-13.6536
籛	-13.6536
綆	-13.6536
繯	-13.6536
罁	-13.6536
罦	-13.6536
羾	-13.6536
脁	-13.6536
腯	-13.6536
艧	-13.6536
莾	-13.6536
菒	-13.6536
萿	-13.6536
虻	-13.6536
蚣	-13.6536
蜈	-13.6536
蠓	-13.6536
裼	-13.6536
詫	-13.6536
諠	-13.6536
讎	-13.6536
贛	-13.6536
趯	-13.6536
郅	-13.6536
澦	-13.6537
潯	-13.6538
滁	-13.6539
涑	-13.654
凃	-13.654
噩	-13.654
悮	-13.654
澷	-13.654
氄	-13.6541
樅	-13.6542
楛	-13.6543
楅	-13.6544
挨	-13.6544
涒	-13.6544
蔔	-13.6544
㫤	-13.6545
㳫	-13.6545
㵎	-13.6545
䈛	-13.6545
䔩	-13.6545
䕡	-13.6545
儻	-13.6545
唇	-13.6545
喆	-13.6545
噓	-13.6545
墁	-13.6545
尘	-13.6545
嶁	-13.6545
幛	-13.6545
抜	-13.6545
挐	-13.6545
描	-13.6545
搓	-13.6545
搪	-13.6545
朦	-13.6545
梡	-13.6545
榑	-13.6545
槀	-13.6545
樛	-13.6545
樟	-13.6545
殭	-13.6545
沚	-13.6545
涘	-13.6545
熇	-13.6545
珙	-13.6545
琲	-13.6545
瑋	-13.6545
璁	-13.6545
畹	-13.6545
疵	-13.6545
睒	-13.6545
砮	-13.6545
礶	-13.6545
祡	-13.6545
稾	-13.6545
稿	-13.6545
筞	-13.6545
綹	-13.6545
縻	-13.6545
繾	-13.6545
罛	-13.6545
耻	-13.6545
脹	-13.6545
萏	-13.6545
蒱	-13.6545
蓞	-13.6545
薈	-13.6545
薜	-13.6545
薝	-13.6545
螄	-13.6545
袠	-13.6545
襆	-13.6545
覘	-13.6545
訇	-13.6545
貟	-13.6545
踖	-13.6545
踧	-13.6545
釅	-13.6545
飣	-13.6545
杝	-13.6545
拇	-13.6546
惇	-13.6547
廙	-13.6548
嶢	-13.6549
擗	-13.6549
蘡	-13.6549
嶰	-13.6549
嵬	-13.655
寞	-13.6551
宙	-13.6552
禬	-13.6552
惆	-13.6552
㐫	-13.6553
䀜	-13.6553
䄢	-13.6553
䬼	-13.6553
䱐	-13.6553
傃	-13.6553
嗇	-13.6553
嚲	-13.6553
埏	-13.6553
墯	-13.6553
壩	-13.6553
壳	-13.6553
崕	-13.6553
彀	-13.6553
怛	-13.6553
悁	-13.6553
慍	-13.6553
憧	-13.6553
懌	-13.6553
摽	-13.6553
槭	-13.6553
欀	-13.6553
气	-13.6553
渟	-13.6553
溆	-13.6553
滾	-13.6553
澂	-13.6553
灩	-13.6553
燮	-13.6553
獒	-13.6553
玗	-13.6553
珤	-13.6553
球	-13.6553
璐	-13.6553
璡	-13.6553
甍	-13.6553
甽	-13.6553
畷	-13.6553
疴	-13.6553
痌	-13.6553
瘝	-13.6553
癉	-13.6553
皪	-13.6553
眎	-13.6553
眙	-13.6553
瞷	-13.6553
砭	-13.6553
粃	-13.6553
糭	-13.6553
綣	-13.6553
罨	-13.6553
羭	-13.6553
臆	-13.6553
臡	-13.6553
菂	-13.6553
萇	-13.6553
蒒	-13.6553
薅	-13.6553
虯	-13.6553
詗	-13.6553
諮	-13.6553
蹏	-13.6553
嬋	-13.6553
圄	-13.6554
囹	-13.6555
嗑	-13.6556
刊	-13.6557
凓	-13.6558
儋	-13.6559
僂	-13.656
柵	-13.6561
㓊	-13.6561
㗖	-13.6561
㨂	-13.6561
㵸	-13.6561
㹀	-13.6561
俜	-13.6561
勩	-13.6561
匽	-13.6561
嗾	-13.6561
坻	-13.6561
奘	-13.6561
嵒	-13.6561
嶃	-13.6561
庋	-13.6561
抖	-13.6561
搯	-13.6561
旡	-13.6561
杙	-13.6561
柢	-13.6561
椓	-13.6561
楢	-13.6561
橵	-13.6561
泖	-13.6561
溏	-13.6561
熭	-13.6561
犄	-13.6561
疤	-13.6561
礲	-13.6561
繙	-13.6561
羚	-13.6561
翱	-13.6561
茢	-13.6561
莵	-13.6561
蛩	-13.6561
覼	-13.6561
誾	-13.6561
傴	-13.6561
仔	-13.6562
䭅	-13.6563
䤵	-13.6564
䔉	-13.6565
䑲	-13.6566
􁋋	-13.6567
鴣	-13.6568
央	-13.6569
䍦	-13.6569
䣺	-13.6569
凸	-13.6569
嚾	-13.6569
囏	-13.6569
妒	-13.6569
姮	-13.6569
廕	-13.6569
愒	-13.6569
愜	-13.6569
懲	-13.6569
摝	-13.6569
敳	-13.6569
枊	-13.6569
榯	-13.6569
檞	-13.6569
櫬	-13.6569
汋	-13.6569
湿	-13.6569
玢	-13.6569
瓷	-13.6569
瓿	-13.6569
痍	-13.6569
硿	-13.6569
礎	-13.6569
秖	-13.6569
筥	-13.6569
簍	-13.6569
籀	-13.6569
胇	-13.6569
脘	-13.6569
苡	-13.6569
茳	-13.6569
荐	-13.6569
蜋	-13.6569
蠆	-13.6569
蹛	-13.6569
韲	-13.6569
鱖	-13.6569
鰍	-13.657
鯖	-13.6571
驃	-13.6572
餡	-13.6573
阱	-13.6574
鄯	-13.6575
鄜	-13.6576
䌮	-13.6577
䐈	-13.6577
䙆	-13.6577
僥	-13.6577
刄	-13.6577
哄	-13.6577
噤	-13.6577
嚳	-13.6577
坷	-13.6577
崎	-13.6577
庳	-13.6577
悳	-13.6577
惔	-13.6577
榼	-13.6577
滈	-13.6577
灃	-13.6577
琬	-13.6577
碭	-13.6577
縵	-13.6577
缷	-13.6577
腷	-13.6577
葳	-13.6577
蒳	-13.6577
蠃	-13.6577
謪	-13.6577
趲	-13.6577
鼇	-13.6577
轔	-13.6577
豌	-13.6578
諲	-13.6579
裊	-13.658
螂	-13.6581
蝙	-13.6582
蜿	-13.6583
蛄	-13.6584
䦧	-13.6585
佈	-13.6585
僵	-13.6585
嘱	-13.6585
孃	-13.6585
惬	-13.6585
慇	-13.6585
槵	-13.6585
樷	-13.6585
欷	-13.6585
痱	-13.6585
睽	-13.6585
硥	-13.6585
纑	-13.6585
膲	-13.6585
蚰	-13.6585
觿	-13.6585
蚨	-13.6586
菻	-13.6587
翺	-13.6588
緲	-13.6589
紜	-13.659
糒	-13.6591
籹	-13.6592
嘶	-13.6592
鱓	-13.6592
籸	-13.6593
呫	-13.6593
嗶	-13.6593
屍	-13.6593
扭	-13.6593
晛	-13.6593
晻	-13.6593
栅	-13.6593
畸	-13.6593
瘢	-13.6593
磉	-13.6593
笇	-13.6593
絓	-13.6593
袗	-13.6593
讖	-13.6593
穜	-13.6594
璚	-13.6595
珀	-13.6596
爟	-13.6597
澱	-13.6598
溓	-13.6599
慄	-13.66
洳	-13.66
斌	-13.6601
仭	-13.6601
孑	-13.6601
崿	-13.6601
旉	-13.6601
眈	-13.6601
矅	-13.6601
硩	-13.6601
蓰	-13.6601
襜	-13.6601
詘	-13.6601
踶	-13.6601
扎	-13.6602
惚	-13.6603
宁	-13.6604
轄	-13.6605
噲	-13.6605
嘻	-13.6606
喈	-13.6607
勛	-13.6608
劫	-13.6609
丢	-13.6609
殯	-13.6609
泪	-13.6609
焬	-13.6609
膒	-13.6609
舸	-13.6609
藳	-13.6609
詄	-13.6609
贓	-13.6609
努	-13.661
傞	-13.6611
侲	-13.6612
㸙	-13.6613
鸝	-13.6614
霿	-13.6615
醯	-13.6616
螣	-13.6617
佻	-13.6617
冣	-13.6617
囉	-13.6617
崚	-13.6617
嶒	-13.6617
忞	-13.6617
掊	-13.6617
暐	-13.6617
溘	-13.6617
簴	-13.6617
蜍	-13.6618
蚺	-13.6619
蘺	-13.662
薷	-13.6621
罡	-13.6622
秣	-13.6623
种	-13.6624
琵	-13.6625
佖	-13.6625
愽	-13.6625
枘	-13.6625
洄	-13.6625
矗	-13.6625
菞	-13.6625
蹯	-13.6625
獬	-13.6626
瀣	-13.6627
廏	-13.6628
嫦	-13.6629
剃	-13.663
㰖	-13.6631
鸜	-13.6632
颻	-13.6633
㕘	-13.6633
旐	-13.6633
楱	-13.6633
訂	-13.6633
赱	-13.6633
醐	-13.6634
醍	-13.6635
豸	-13.6636
襖	-13.6637
蝴	-13.6638
蜴	-13.6639
蚩	-13.664
藭	-13.6641
櫩	-13.6641
炰	-13.6641
秸	-13.6641
蔲	-13.6642
芃	-13.6643
糺	-13.6644
礿	-13.6645
碌	-13.6646
瓈	-13.6647
瑁	-13.6648
熳	-13.6649
煟	-13.665
湼	-13.6651
湅	-13.6652
沽	-13.6653
檎	-13.6654
梏	-13.6655
桎	-13.6656
栳	-13.6657
篿	-13.6657
栲	-13.6658
昱	-13.6659
敔	-13.666
嘖	-13.6661
唶	-13.6662
匈	-13.6663
偓	-13.6664
亹	-13.6665
噱	-13.6665
筲	-13.6665
筳	-13.6665
㬋	-13.6666
韆	-13.6667
鞦	-13.6668
雈	-13.6669
鄲	-13.667
邯	-13.6671
逶	-13.6672
覡	-13.6673
灊	-13.6673
矮	-13.6673
蜘	-13.6674
蔯	-13.6675
穬	-13.6676
櫳	-13.6677
枌	-13.6678
术	-13.6679
嫋	-13.668
馗	-13.6681
餛	-13.6682
飩	-13.6683
蟈	-13.6684
蜒	-13.6685
蚋	-13.6686
葽	-13.6687
茯	-13.6688
芭	-13.6689
纛	-13.669
滔	-13.6691
橄	-13.6692
詒	-13.6693
蝣	-13.6694
蘘	-13.6695
蓿	-13.6696
莉	-13.6697
茉	-13.6698
苜	-13.6699
桯	-13.67
麈	-13.6701
頲	-13.6702
沱	-13.6703
徘	-13.6704
貙	-13.6705
屩	-13.6705
螳	-13.6706
嬛	-13.6707
鰥	-13.6708
荽	-13.6709
瞑	-13.671
滂	-13.6711
徊	-13.6712
髀	-13.6713
薔	-13.6714
枇	-13.6715
佺	-13.6716
瑚	-13.6717
娑	-13.6718
鱸	-13.6719
崙	-13.672
璃	-13.6721
琉	-13.6722
逍	-13.6723
顓	-13.6724
茱	-13.6725
蟋	-13.6726
蟀	-13.6727
頫	-13.6728
埤	-13.6729
縿	-13.673
脤	-13.673
荔	-13.673
