<unk>	0
<s>	0
</s>	0
之	-3.96883
也	-4.05397
而	-4.42259
者	-4.53058
以	-4.70525
/	-4.91245
爲	-4.91419
則	-4.9466
其	-4.95272
不	-4.95811
有	-5.00694
於	-5.17278
)	-5.21354
(	-5.22801
無	-5.26428
故	-5.3386
人	-5.34763
一	-5.45741
生	-5.56968
道	-5.60439
大	-5.64438
矣	-5.68359
曰	-5.70389
言	-5.77584
自	-5.85057
乎	-5.85649
上	-5.8702
中	-5.87306
心	-5.8745
此	-5.87535
天	-5.91136
用	-5.91956
子	-5.92039
是	-5.93145
知	-5.97562
非	-5.98714
下	-6.00997
)(	-6.01922
如	-6.01946
若	-6.02708
行	-6.02712
與	-6.04607
能	-6.05806
神	-6.06747
至	-6.06935
得	-6.07902
物	-6.13321
明	-6.15552
成	-6.1823
氣	-6.18443
見	-6.19938
然	-6.21668
所	-6.23324
,	-6.27412
即	-6.27991
皆	-6.28436
名	-6.28703
亦	-6.28712
三	-6.30283
可	-6.31666
在	-6.32767
事	-6.33284
水	-6.34095
時	-6.34481
夫	-6.40292
出	-6.41112
乃	-6.41571
身	-6.43377
德	-6.43631
欲	-6.43897
同	-6.43948
眞	-6.44807
○	-6.45296
相	-6.45374
常	-6.45722
又	-6.46973
作	-6.47495
入	-6.47877
形	-6.512
謂	-6.52833
日	-6.54627
而不	-6.56986
反	-6.57055
今	-6.5781
善	-6.58375
天下	-6.59733
法	-6.60336
化	-6.6079
五	-6.625
去	-6.63303
當	-6.63866
内	-6.63964
吾	-6.6412
或	-6.64196
云	-6.64454
焉	-6.65546
取	-6.66258
合	-6.66319
雖	-6.66383
方	-6.66727
▁	-6.67069
及	-6.6837
多	-6.70305
地	-6.70655
本	-6.70756
必	-6.70929
使	-6.71048
已	-6.71154
主	-6.71289
何	-6.72191
死	-6.73464
聖人	-6.74138
將	-6.7442
我	-6.74476
正	-6.76229
通	-6.76527
處	-6.76822
君	-6.76854
王	-6.77201
令	-6.77733
理	-6.7783
二	-6.78283
和	-6.78311
不可	-6.78374
四	-6.79225
火	-6.79231
治	-6.79255
外	-6.80199
後	-6.81134
復	-6.81726
長	-6.82901
山	-6.83439
安	-6.84148
為	-6.84261
所以	-6.84406
小	-6.84414
經	-6.84682
精	-6.84753
哉	-6.8495
先	-6.85908
猶	-6.86937
天地	-6.87509
民	-6.87612
音	-6.87946
虚	-6.88055
耳	-6.88736
陽	-6.89666
不能	-6.89756
九	-6.90062
性	-6.90156
玄	-6.90512
萬物	-6.90967
金	-6.91002
因	-6.9205
實	-6.92421
分	-6.93426
來	-6.93639
居	-6.93689
從	-6.93842
未	-6.94394
風	-6.94939
世	-6.95504
命	-6.95698
服	-6.95791
白	-6.95969
動	-6.97334
食	-6.97686
應	-6.98679
靈	-6.991
惡	-6.99738
重	-7.01972
利	-7.02226
聖	-7.02695
觀	-7.03022
前	-7.03406
既	-7.03452
體	-7.03791
石	-7.04105
文	-7.04196
立	-7.04368
意	-7.04638
故曰	-7.04996
易	-7.05188
无	-7.06346
師	-7.07756
國	-7.08111
求	-7.09079
貴	-7.10839
盡	-7.11163
足	-7.11436
始	-7.1166
難	-7.1175
衆	-7.1203
藥	-7.12199
高	-7.12759
彼	-7.12891
數	-7.12941
失	-7.14167
六	-7.14375
公	-7.14477
諸	-7.14675
不知	-7.14788
樂	-7.14925
以爲	-7.15427
存	-7.15538
好	-7.15642
止	-7.15977
䟽	-7.15994
守	-7.16977
萬	-7.17201
歸	-7.17356
極	-7.17468
過	-7.18812
養	-7.18824
智	-7.19803
光	-7.20206
之所	-7.20646
平	-7.20858
蓋	-7.21309
己	-7.21768
。	-7.22246
變	-7.22542
異	-7.23267
教	-7.2337
義	-7.2337
信	-7.24016
凡	-7.24724
七	-7.24953
邪	-7.25548
所謂	-7.25649
元	-7.25771
受	-7.25787
清	-7.25813
自然	-7.26104
臣	-7.26227
解	-7.27121
注	-7.27177
忘	-7.27252
兩	-7.27304
丹	-7.27551
各	-7.2795
色	-7.28233
深	-7.28264
定	-7.2893
聞	-7.29111
者也	-7.29814
黄	-7.30044
仙	-7.30372
書	-7.30593
功	-7.31085
字	-7.31194
微	-7.31402
木	-7.32249
全	-7.32907
門	-7.32975
年	-7.34174
妙	-7.34594
陰	-7.34969
于	-7.35078
⬤	-7.3577
志	-7.36189
說	-7.36482
謂之	-7.36618
開	-7.36664
起	-7.36969
玉	-7.37005
靜	-7.3704
固	-7.37122
切	-7.37254
流	-7.38131
終	-7.38876
修	-7.39488
發	-7.40115
且	-7.40673
斯	-7.40788
口	-7.40813
致	-7.40851
百	-7.40875
惟	-7.40959
亂	-7.4104
少	-7.4123
益	-7.41387
目	-7.41899
勝	-7.42414
根	-7.42631
傳	-7.42817
情	-7.42973
家	-7.42973
爾	-7.43434
執	-7.43729
强	-7.43745
學	-7.43766
散	-7.43976
豈	-7.44378
亡	-7.44454
遂	-7.4475
唯	-7.44863
八	-7.44894
禮	-7.45191
土	-7.45336
由	-7.45407
不得	-7.45495
制	-7.45566
絶	-7.45642
炁	-7.45658
聲	-7.45997
可以	-7.46406
問	-7.46446
任	-7.46627
莫	-7.47089
力	-7.4735
藏	-7.47508
帝	-7.48321
無所	-7.48448
病	-7.48557
宫	-7.48568
古	-7.48788
周	-7.49529
遠	-7.4968
符	-7.49932
度	-7.5054
馬	-7.50811
之道	-7.51201
汝	-7.51247
似	-7.51636
宜	-7.52215
順	-7.52541
著	-7.52627
章	-7.53279
甚	-7.53777
但	-7.5511
兵	-7.55236
視	-7.55475
愛	-7.55573
龍	-7.5576
隨	-7.56078
象	-7.56435
直	-7.56736
無爲	-7.57026
積	-7.57559
舉	-7.57603
是以	-7.57605
適	-7.57758
殺	-7.58297
母	-7.58537
獨	-7.5854
運	-7.58975
註	-7.5926
而已	-7.59336
仁	-7.59518
次	-7.59554
飛	-7.59606
雲	-7.59666
華	-7.59733
親	-7.60099
離	-7.602
官	-7.60203
青	-7.60999
末	-7.6115
鬼	-7.61946
初	-7.62132
人之	-7.62566
傷	-7.62616
息	-7.6377
月	-7.64009
降	-7.64459
州	-7.65273
語	-7.66102
伏	-7.66157
更	-7.66234
稱	-7.66602
損	-7.67152
節	-7.67273
右	-7.6746
空	-7.6746
遊	-7.67875
美	-7.67905
害	-7.67928
須	-7.68361
齊	-7.68688
老	-7.69122
士	-7.69283
往	-7.6942
尚	-7.69564
結	-7.69667
位	-7.6975
如此	-7.69915
尊	-7.70142
交	-7.7023
並	-7.705
寳	-7.70562
進	-7.70669
草	-7.71169
葉	-7.71487
十	-7.72204
福	-7.72213
窮	-7.73232
要	-7.73427
俗	-7.73796
等	-7.73921
熱	-7.744
施	-7.75096
朝	-7.75098
賢	-7.75157
厚	-7.75158
毒	-7.7521
寒	-7.75456
赤	-7.75577
患	-7.7571
加	-7.76145
苦	-7.76499
思	-7.76503
向	-7.76713
除	-7.76791
容	-7.77209
持	-7.7758
疾	-7.77597
陰陽	-7.77897
俱	-7.78255
南	-7.7848
也夫	-7.78861
還	-7.79122
頭	-7.79237
累	-7.7975
指	-7.79874
乆	-7.80054
爭	-7.80077
一名	-7.80756
論	-7.808
近	-7.8127
隱	-7.81394
轉	-7.81418
識	-7.81792
也故	-7.82417
便	-7.82465
太	-7.82895
眞人	-7.8348
號	-7.835
西	-7.83926
其所	-7.84181
達	-7.84558
廣	-7.84686
花	-7.84787
氏	-7.84863
而無	-7.85124
間	-7.85955
屬	-7.86092
滿	-7.86236
顯	-7.86786
保	-7.86805
勞	-7.88119
魚	-7.88218
細	-7.88315
温	-7.88323
輕	-7.88849
果	-7.89077
别	-7.89199
汞	-7.90261
滅	-7.90302
東	-7.90314
海	-7.9038
會	-7.92031
誠	-7.92134
乾	-7.92166
器	-7.9222
至於	-7.92413
照	-7.92449
迹	-7.92452
愈	-7.92546
紫	-7.92587
不足	-7.92822
感	-7.93507
辯	-7.93509
有所	-7.93716
酒	-7.93834
衣	-7.94033
妄	-7.94345
車	-7.95484
造	-7.95864
血	-7.95954
請	-7.96031
遺	-7.96295
女	-7.96771
載	-7.96939
之人	-7.9703
夢	-7.97371
興	-7.9748
仁義	-7.97584
禍	-7.9769
宗	-7.97735
勿	-7.9781
戒	-7.97979
星	-7.98015
陳	-7.98427
備	-7.98559
香	-7.98791
餘	-7.98944
喜	-7.98964
憂	-7.99061
故云	-7.9966
奉	-8.0016
皇	-8.00189
棄	-8.00649
老子	-8.0087
壽	-8.01089
了	-8.01324
味	-8.01697
室	-8.019
悟	-8.01908
盛	-8.02556
北	-8.02577
都	-8.02693
就	-8.02937
御	-8.034
聽	-8.03757
待	-8.03833
念	-8.04081
具	-8.04167
遇	-8.04275
是非	-8.04295
夜	-8.04636
大道	-8.04647
首	-8.04673
消	-8.04927
而後	-8.04968
然後	-8.05068
迷	-8.05369
父	-8.05724
不爲	-8.058
老君	-8.06006
是謂	-8.06224
疑	-8.06937
覺	-8.0744
假	-8.07604
愚	-8.07619
却	-8.07718
徒	-8.07756
曲	-8.07783
篇	-8.07829
逆	-8.07993
乗	-8.08043
故能	-8.08083
是也	-8.0825
并	-8.08395
辭	-8.08428
砂	-8.08566
類	-8.09266
喻	-8.0961
張	-8.10233
機	-8.10717
引	-8.11302
共	-8.11431
道之	-8.11598
濟	-8.1163
喪	-8.12117
柔	-8.12656
巧	-8.12852
依	-8.13096
天下之	-8.13342
洞	-8.13781
告	-8.13906
罪	-8.14081
盈	-8.14143
變化	-8.14234
薄	-8.14416
蟲	-8.1462
坐	-8.15096
刑	-8.15207
懷	-8.15799
武	-8.1584
每	-8.1592
太上	-8.16071
務	-8.164
素	-8.16461
卷	-8.16558
巳	-8.16846
千	-8.16885
鉛	-8.17169
骨	-8.17438
湯	-8.17576
孔子	-8.17584
關	-8.17671
調	-8.18086
授	-8.18435
無不	-8.18633
救	-8.18639
黑	-8.18679
畏	-8.18857
左	-8.19055
堅	-8.19454
先生	-8.19666
魂	-8.19855
對	-8.20216
未嘗	-8.20231
肉	-8.20253
威	-8.20299
道德	-8.20343
權	-8.20446
手	-8.20638
資	-8.20727
夏	-8.20841
歲	-8.2085
弱	-8.20903
司	-8.2135
再	-8.21392
貪	-8.21516
之心	-8.21747
之中	-8.21932
臨	-8.22028
莊子	-8.22123
代	-8.22147
推	-8.22244
游	-8.22397
政	-8.22688
半	-8.22839
建	-8.22992
寧	-8.23112
業	-8.23457
君子	-8.23545
舍	-8.23781
幽	-8.23884
敗	-8.23922
登	-8.24225
殊	-8.24364
塵	-8.24787
真	-8.2494
新	-8.25009
李	-8.25161
慮	-8.25363
河	-8.25457
慈	-8.25733
旣	-8.26548
兮	-8.26671
示	-8.26804
願	-8.26891
覆	-8.27115
退	-8.27202
境	-8.27345
面	-8.27435
私	-8.28145
不以	-8.28191
封	-8.28292
嘗	-8.28395
惑	-8.28685
含	-8.28696
衰	-8.29128
良	-8.29321
魄	-8.29634
昔	-8.29693
澤	-8.29722
恐	-8.30033
役	-8.3019
計	-8.30579
汁	-8.30715
質	-8.30838
春	-8.30886
齋	-8.30976
危	-8.31087
景	-8.31198
許	-8.3129
縁	-8.31331
耶	-8.31332
聚	-8.3136
賤	-8.31497
報	-8.31526
不敢	-8.31834
驚	-8.32039
比	-8.32051
淵	-8.32095
圓	-8.32208
廢	-8.32469
幾	-8.33043
寂	-8.33126
放	-8.33256
破	-8.33261
林	-8.33277
:「	-8.33298
煮	-8.33323
谷	-8.33499
日月	-8.33602
謀	-8.33872
物之	-8.33913
冷	-8.34064
服之	-8.34115
怨	-8.34126
無窮	-8.34135
忽	-8.34244
鍊	-8.34251
察	-8.34286
天地之	-8.34325
原	-8.34332
之間	-8.35488
冬	-8.35554
榮	-8.35559
爲之	-8.35565
之事	-8.35954
漢	-8.36085
急	-8.36189
浮	-8.36255
敬	-8.36305
釋	-8.36434
望	-8.36576
銀	-8.36878
留	-8.3709
集	-8.37113
召	-8.37239
契	-8.37296
烏	-8.37321
專	-8.37615
道者	-8.3782
圖	-8.38155
列	-8.38177
皮	-8.38214
之意	-8.38229
縣	-8.38332
長生	-8.3851
期	-8.38533
丘	-8.38781
也䟽	-8.38802
灰	-8.38885
冥	-8.39047
永	-8.39157
用之	-8.39209
以其	-8.39469
種	-8.39544
不見	-8.39592
不同	-8.39861
兼	-8.39961
上下	-8.39963
富	-8.39984
斷	-8.39995
才	-8.40451
候	-8.40586
布	-8.40617
之言	-8.40697
以此	-8.40802
句	-8.40992
府	-8.41012
貌	-8.41048
畢	-8.41082
有餘	-8.41097
辱	-8.41349
熟	-8.41356
抱	-8.41526
伯	-8.41595
勢	-8.41827
收	-8.42259
被	-8.42616
路	-8.42794
設	-8.42874
夷	-8.42881
源	-8.42948
偏	-8.43014
差	-8.43179
牛	-8.4321
十二	-8.43336
其身	-8.4339
逐	-8.4347
飲	-8.4372
暴	-8.43735
不可以	-8.43805
謙	-8.439
卒	-8.44008
恩	-8.44354
凝	-8.44742
置	-8.44852
百姓	-8.45041
泰	-8.45139
田	-8.45236
之以	-8.45377
落	-8.45689
一兩	-8.45691
孰	-8.45971
戰	-8.46099
生於	-8.46218
足以	-8.46691
死生	-8.46717
知其	-8.47074
而爲	-8.47094
老子曰	-8.47116
閉	-8.47364
約	-8.47397
甲	-8.47412
之則	-8.47558
怒	-8.47639
效	-8.47748
矜	-8.47788
於物	-8.47964
而生	-8.48044
粉	-8.48251
休	-8.48486
無形	-8.48534
塗	-8.48608
其心	-8.48704
投	-8.48969
紀	-8.49118
宿	-8.49161
秋	-8.49263
返	-8.49322
;	-8.49497
於人	-8.49544
違	-8.49545
隂	-8.49981
祖	-8.49982
鳥	-8.50055
量	-8.50059
遣	-8.50428
表	-8.50446
出於	-8.50653
甘	-8.50735
奚	-8.5077
腹	-8.51181
垂	-8.51274
堯	-8.51532
採	-8.51567
術	-8.51576
弟子	-8.5158
越	-8.51808
端	-8.51899
盜	-8.51981
況	-8.52009
可謂	-8.52224
衛	-8.52435
無名	-8.5272
於道	-8.52807
營	-8.52899
財	-8.53214
斗	-8.53277
哀	-8.53311
痛	-8.53369
濁	-8.5366
無有	-8.53709
唐	-8.53774
序	-8.53975
柔弱	-8.54233
於此	-8.54298
徳	-8.54303
仰	-8.54384
樸	-8.54455
賜	-8.54504
博	-8.54555
乘	-8.54722
天道	-8.5473
城	-8.54947
特	-8.55036
楚	-8.55057
遷	-8.55285
道也	-8.55321
笑	-8.5569
弊	-8.55768
胎	-8.55892
姓	-8.55926
精神	-8.55975
者不	-8.5599
漸	-8.56035
雄	-8.56193
咸	-8.56214
則無	-8.56228
承	-8.56263
回	-8.56696
造化	-8.56733
按	-8.5674
疏	-8.56777
犯	-8.56902
得之	-8.56971
禁	-8.56973
虎	-8.57111
伐	-8.57355
賊	-8.57403
狀	-8.57422
一日	-8.57542
奇	-8.57586
之時	-8.57596
於是	-8.57666
住	-8.57707
補	-8.57718
予	-8.57929
接	-8.58083
驗	-8.58543
蛇	-8.58671
泥	-8.5878
剛	-8.58826
朱	-8.58871
秦	-8.5912
燒	-8.59152
只	-8.59354
知之	-8.59377
訣	-8.59433
無心	-8.59446
録	-8.59496
謹	-8.59669
敵	-8.59899
自得	-8.59905
鄉	-8.60279
羅	-8.60519
必有	-8.60664
記	-8.60843
紅	-8.60884
雜	-8.61104
履	-8.61253
之理	-8.61351
勇	-8.61353
堂	-8.61359
他	-8.61613
古之	-8.61765
久	-8.61868
至人	-8.61998
羊	-8.62032
吉	-8.62116
納	-8.62122
總	-8.62137
胡	-8.62288
申	-8.62323
是以聖人	-8.6234
孝	-8.62437
研	-8.62629
勤	-8.62666
卑	-8.62699
飾	-8.62723
寄	-8.62803
奏	-8.63056
丸	-8.63162
縱	-8.63457
瘡	-8.63931
角	-8.63932
療	-8.64221
與之	-8.64407
鹽	-8.6444
雨	-8.64502
野	-8.64513
也言	-8.64529
簡	-8.64589
宋	-8.64614
里	-8.64757
惠	-8.64818
神仙	-8.65103
塞	-8.65328
習	-8.65397
而有	-8.65476
徐	-8.65492
密	-8.65524
不足以	-8.65562
四時	-8.65598
水銀	-8.65945
臺	-8.65974
背	-8.66001
悦	-8.66012
助	-8.66159
辰	-8.66332
第二	-8.66548
夫子	-8.66631
毛	-8.66743
得其	-8.66798
屈	-8.67062
某	-8.67168
工	-8.67336
與物	-8.67469
係	-8.67549
鼎	-8.67582
避	-8.67601
一切	-8.67754
言其	-8.67867
誰	-8.67906
人也	-8.67957
苟	-8.67997
陵	-8.6803
移	-8.68067
令人	-8.6823
冠	-8.68444
獲	-8.68478
升	-8.68507
凶	-8.68738
攝	-8.68846
折	-8.6886
啓	-8.68997
也若	-8.69147
歷	-8.69164
均	-8.69344
魯	-8.69475
連	-8.69622
樹	-8.69832
尋	-8.7029
經云	-8.70315
崇	-8.70511
也故曰	-8.70628
不及	-8.70919
庭	-8.70958
河曰	-8.70985
純	-8.7113
五行	-8.71197
最	-8.71294
則不	-8.71404
恃	-8.71418
雖有	-8.71628
淫	-8.7167
禀	-8.71701
仍	-8.71716
而不知	-8.7178
走	-8.72047
髙	-8.72237
商	-8.72359
清靜	-8.72428
跡	-8.72485
鐵	-8.72517
寡	-8.72695
孫	-8.72738
之士	-8.72884
到	-8.72884
泉	-8.73042
錢	-8.73189
而成	-8.73196
群	-8.73403
淨	-8.73422
混	-8.73441
然則	-8.73521
希	-8.7355
蕩	-8.73602
蒙	-8.73897
彰	-8.73963
則有	-8.74068
衆人	-8.74168
㫖	-8.74199
梁	-8.74278
者皆	-8.74278
者非	-8.74284
其道	-8.74336
責	-8.74337
舊	-8.74377
壇	-8.74482
其德	-8.74555
呼	-8.74639
客	-8.74704
食之	-8.74739
孔	-8.74817
吐	-8.74997
禹	-8.75041
神明	-8.7521
默	-8.75405
之謂	-8.7563
敢	-8.75679
生死	-8.75696
改	-8.75837
證	-8.75939
畜	-8.76115
免	-8.7614
僞	-8.76263
不善	-8.76327
髮	-8.76586
品	-8.76586
煩	-8.76731
匱	-8.76793
聖人之	-8.76877
歌	-8.77005
使人	-8.77095
枝	-8.77112
齒	-8.77113
羣	-8.77128
怪	-8.77315
護	-8.77337
有爲	-8.77532
庶	-8.77771
超	-8.77804
考	-8.77923
之後	-8.77929
鳴	-8.78062
然而	-8.78329
陸	-8.78396
奪	-8.78502
之名	-8.78658
其性	-8.78713
煎	-8.78824
者爲	-8.78977
遍	-8.79114
昇	-8.79133
道士	-8.7939
史	-8.79408
舜	-8.79433
兆	-8.79562
宅	-8.79639
列子	-8.79673
尤	-8.7983
竹	-8.79831
忠	-8.79976
充	-8.80036
淺	-8.80047
侍	-8.8032
附	-8.80341
黃	-8.80568
殿	-8.80615
速	-8.80655
者必	-8.80692
鬼神	-8.80697
童	-8.80784
逺	-8.80813
井	-8.80897
川	-8.80927
參	-8.80931
黄帝	-8.80935
丹砂	-8.81021
珠	-8.81026
世人	-8.81162
名曰	-8.81213
謝	-8.8124
傾	-8.81313
影	-8.81501
羽	-8.81504
莫不	-8.81551
之法	-8.82392
一斤	-8.82431
夭	-8.82554
顧	-8.82574
職	-8.82593
拜	-8.82623
慕	-8.82711
之功	-8.82921
竊	-8.82924
矣故	-8.83141
早	-8.83211
略	-8.83214
委	-8.83261
人之所	-8.83413
尸	-8.83492
昌	-8.83588
萬物之	-8.8367
軍	-8.83796
壯	-8.84075
懼	-8.84237
劍	-8.84245
包	-8.84399
貨	-8.84634
射	-8.84701
悲	-8.85015
曾	-8.85219
虧	-8.85261
干	-8.85424
負	-8.85526
延	-8.85535
虛	-8.85809
循	-8.85835
昏	-8.85911
貧	-8.85914
不爭	-8.86047
鼻	-8.86158
以道	-8.86196
至道	-8.86313
是故	-8.8634
佳	-8.8638
滯	-8.86405
輔	-8.86476
眼	-8.86489
不生	-8.86793
洗	-8.86863
趨	-8.86979
天尊至心信禮	-8.87022
卧	-8.87229
水火	-8.87293
徹	-8.87405
而能	-8.8741
又云	-8.87476
言之	-8.87584
捨	-8.8759
詳	-8.87612
扶	-8.87836
莊子曰	-8.87914
竭	-8.87986
沉	-8.88142
吏	-8.883
困	-8.88401
劫	-8.88591
而不可	-8.88604
毁	-8.88637
七日	-8.88732
勸	-8.88929
房	-8.88951
亦有	-8.89079
之所以	-8.89156
託	-8.89293
鼓	-8.89303
况	-8.89331
弗	-8.89383
晋	-8.89433
迎	-8.89463
逃	-8.89585
第一	-8.89595
條	-8.89705
世之	-8.89761
户	-8.89772
泄	-8.90116
宣	-8.90118
朴	-8.90343
部	-8.90487
普	-8.90508
也故云	-8.90571
刻	-8.90621
諸侯	-8.91017
偽	-8.91036
無欲	-8.91125
中有	-8.91166
而自	-8.91323
二兩	-8.91709
桑	-8.91831
審	-8.9199
四兩	-8.92118
父母	-8.92219
歟	-8.92249
宇	-8.92253
腎	-8.92297
點	-8.92326
露	-8.92368
辟	-8.92424
競	-8.92485
尺	-8.92521
之德	-8.92537
趣	-8.92626
河上公曰	-8.92755
决	-8.92808
狂	-8.92922
不用	-8.92969
丁	-8.93142
見其	-8.93194
儉	-8.93298
攻	-8.93464
祥	-8.93535
淳	-8.93582
儀	-8.93787
三日	-8.93802
所以爲	-8.93821
厭	-8.9387
忌	-8.93903
無事	-8.93956
嚴	-8.94147
之外	-8.94178
膏	-8.94205
驕	-8.94245
魏	-8.94259
據	-8.94414
潤	-8.9444
卷之	-8.94449
者亦	-8.94491
穢	-8.94539
昭	-8.94935
晦	-8.95091
而不能	-8.95143
刀	-8.95194
育	-8.95195
辨	-8.9522
天之	-8.95258
於外	-8.95464
之地	-8.95542
在於	-8.95606
不欲	-8.95815
亦不	-8.95903
曰吾	-8.95923
潜	-8.95979
左右	-8.95993
取出	-8.96305
乳	-8.96329
耳目	-8.96502
讓	-8.96637
述	-8.96669
未有	-8.96748
三年	-8.96856
步	-8.96949
無所不	-8.96988
脱	-8.97094
二十	-8.97106
虚無	-8.97128
經曰	-8.97281
雞	-8.97358
無知	-8.97468
印	-8.97616
禄	-8.9763
者是	-8.97733
眞君	-8.97812
爲一	-8.97892
之義	-8.97904
導	-8.97919
學者	-8.98109
悉	-8.98329
爲末	-8.98522
此言	-8.98601
之於	-8.98746
溺	-8.9877
殆	-8.98783
譽	-8.98872
拘	-8.98881
擊	-8.99036
揚	-8.99067
短	-8.99114
郭	-8.99236
材	-8.99249
鄭	-8.99349
御註	-8.99833
無極	-9.00076
天子	-9.00143
隂陽	-9.00164
之道也	-9.00194
也此	-9.00218
不自	-9.00229
以為	-9.00243
帶	-9.00247
答	-9.00332
涉	-9.00391
無以	-9.00435
克	-9.00568
彌	-9.00577
躁	-9.00622
㝠	-9.00812
出入	-9.00853
恒	-9.00972
慶	-9.01192
人皆	-9.01274
治國	-9.01362
染	-9.01414
之上	-9.01518
馳	-9.0154
友	-9.01721
莖	-9.01793
者謂	-9.0184
劉	-9.02052
蜀	-9.02053
詩	-9.02074
舟	-9.02115
煑	-9.02171
懸	-9.0224
祭	-9.02299
化爲	-9.02309
無私	-9.0231
巨	-9.02329
旋	-9.02535
岀	-9.02643
。」	-9.02807
吹	-9.03081
搗	-9.03085
之氣	-9.03163
苗	-9.03235
試	-9.03357
界	-9.03381
幸	-9.03393
治天下	-9.03706
脩	-9.0374
想	-9.03746
又曰	-9.03853
爲人	-9.04029
而非	-9.04047
蜜	-9.04065
盖	-9.04111
爐	-9.04131
儒	-9.04136
滑	-9.04215
逸	-9.04291
統	-9.04297
而天下	-9.04318
有無	-9.044
駕	-9.04518
銅	-9.04691
蔽	-9.04837
無爲而	-9.04918
何以	-9.04923
爲天下	-9.04937
三十	-9.0501
庚	-9.05065
辛	-9.0512
肝	-9.05222
侯	-9.05321
澄	-9.0555
兹	-9.05554
滋	-9.05606
恭	-9.0564
尾	-9.05647
如是	-9.05801
率	-9.05889
龜	-9.05969
市	-9.05969
紙	-9.06239
富貴	-9.06286
看	-9.06307
際	-9.06333
不言	-9.06363
義曰	-9.06425
子曰	-9.06474
詐	-9.06596
趙	-9.0662
卿	-9.06694
不如	-9.06883
祕	-9.07064
通玄經曰	-9.07072
不失	-9.0713
議	-9.07187
腫	-9.07204
穀	-9.07311
而行	-9.07336
灾	-9.07395
濕	-9.07407
池	-9.07444
之精	-9.07576
之妙	-9.07627
沖	-9.07664
故無	-9.07778
而已矣	-9.07838
第三	-9.07842
人君	-9.08152
肺	-9.08187
闕	-9.08268
屋	-9.08277
增	-9.08332
雱曰	-9.08336
領	-9.08625
寵	-9.08666
夫人	-9.08723
活	-9.08976
大夫	-9.09009
雌	-9.09128
讀	-9.09316
輿	-9.09412
蒸	-9.09437
遭	-9.09572
余	-9.09755
後世	-9.09923
與人	-9.09973
不相	-9.1002
廉	-9.10204
繫	-9.10212
内外	-9.10234
荒	-9.10388
獻	-9.10421
賔	-9.10427
司馬云	-9.10603
玉女	-9.10833
生者	-9.10838
波	-9.11155
五色	-9.11164
翼	-9.11355
牙	-9.11522
丈	-9.1176
得道	-9.11792
及其	-9.1188
太極	-9.11882
昧	-9.11885
耀	-9.1202
不過	-9.12029
管	-9.1235
於天下	-9.1245
譬	-9.12471
故不	-9.12516
江	-9.12933
季	-9.13152
塊	-9.1319
五藏	-9.13202
誅	-9.13352
卦	-9.13429
蘇	-9.13506
衆生	-9.13563
竟	-9.13854
鑒	-9.13896
傅	-9.14033
燕	-9.14049
失其	-9.14144
不死	-9.14155
没	-9.14175
操	-9.14203
招	-9.14227
防	-9.14229
小人	-9.14298
霜	-9.1451
慎	-9.14511
輪	-9.14522
米	-9.14529
詔	-9.14776
眞武	-9.14806
獸	-9.14828
弘	-9.14877
潔	-9.14887
浸	-9.14904
之本	-9.15009
未能	-9.15038
陶	-9.1504
貫	-9.15054
也今	-9.15126
殘	-9.15356
貴賤	-9.15394
律	-9.15413
寓	-9.1554
也又	-9.15637
脚	-9.15702
之内	-9.1589
産	-9.159
叔	-9.15903
貞	-9.15908
之用	-9.15939
吴	-9.16099
四方	-9.16341
枯	-9.16483
雷	-9.16645
壞	-9.16877
此章	-9.16892
三十六	-9.16916
訖	-9.16937
掌	-9.1709
人心	-9.17141
徇	-9.17285
人能	-9.17418
底	-9.17438
不離	-9.17514
不信	-9.17606
英	-9.17639
芒	-9.17764
聞之	-9.17801
物也	-9.18111
仲	-9.18134
生之	-9.18164
二十四	-9.18218
籙	-9.18324
故也	-9.18364
者有	-9.18451
誤	-9.18468
抑	-9.1848
妻	-9.18596
春秋	-9.18612
歸之	-9.18701
醫	-9.18763
道而	-9.19056
於天	-9.19122
頂	-9.1929
行之	-9.193
狗	-9.19335
徧	-9.19381
宰	-9.19506
善惡	-9.19553
邊	-9.19555
三月	-9.19625
之行	-9.19649
賞	-9.19681
堯舜	-9.19711
妖	-9.19773
閑	-9.19911
舌	-9.19912
不知其	-9.19929
偶	-9.20077
觸	-9.20108
殃	-9.20267
其言	-9.20411
物物	-9.20549
穴	-9.20631
大國	-9.20713
其形	-9.20792
斤	-9.20792
墨	-9.2083
大小	-9.20964
聰明	-9.20971
省	-9.2099
繼	-9.21029
則爲	-9.21036
不可得而	-9.2108
旦	-9.21148
乖	-9.21353
肆	-9.21363
動而	-9.21385
仲尼	-9.21509
暗	-9.21539
松	-9.21547
打	-9.2168
繩	-9.21702
利害	-9.21746
明皇曰	-9.21883
霞	-9.2196
有道	-9.21964
往來	-9.21968
其名	-9.22064
者言	-9.22254
將軍	-9.22274
十五	-9.2232
死者	-9.22343
亦可	-9.22382
國之	-9.22395
鍾	-9.22421
籍	-9.22465
魔	-9.22474
不成	-9.2256
添	-9.22613
災	-9.2262
其神	-9.22792
誦	-9.22879
之類	-9.22941
醋	-9.22941
飢	-9.23011
現	-9.23022
之物	-9.23047
莊	-9.23067
曉	-9.23194
有形	-9.2324
還丹	-9.23311
天尊志心朝禮	-9.23469
像	-9.23606
其功	-9.23696
逍遥	-9.23701
愼	-9.23868
咽	-9.24177
杜	-9.24284
液	-9.24341
厄	-9.24453
入於	-9.2452
終始	-9.24528
使之	-9.24582
戴	-9.24632
煉	-9.25036
靡	-9.2504
徵	-9.25049
鑿	-9.25165
擇	-9.25218
得一	-9.25225
性命	-9.25241
則知	-9.25401
侵	-9.2542
徑	-9.25609
草木	-9.25681
欺	-9.2576
不在	-9.25891
祝	-9.25893
?	-9.25941
奔	-9.25968
小兒	-9.26105
無常	-9.26324
人間	-9.26341
各有	-9.26353
祈	-9.26361
廟	-9.2701
民之	-9.27011
敦	-9.27108
四海	-9.27145
弟	-9.27152
古今	-9.27167
矯	-9.27274
咎	-9.27468
衍義云	-9.27489
孟	-9.27617
歎	-9.27729
生而	-9.27862
以明	-9.27909
之謂也	-9.27959
御注曰	-9.27978
用兵	-9.28003
北斗	-9.28021
響	-9.28068
否	-9.2812
李云	-9.28123
之至也	-9.28134
德之	-9.28179
成䟽	-9.28295
畫	-9.28295
不然	-9.28448
侯王	-9.28495
兒	-9.2852
峰	-9.28796
分别	-9.28832
此乃	-9.2885
麻	-9.28877
恣	-9.29033
鶴	-9.29062
焦	-9.29074
於世	-9.29078
豐	-9.29176
暢	-9.292
付	-9.29223
見之	-9.29236
淡	-9.29444
亦無	-9.29495
洪	-9.29652
冰	-9.2966
名也	-9.29665
故聖人	-9.29726
介	-9.29746
不止	-9.29758
則民	-9.29789
錯	-9.29803
校	-9.29851
自生	-9.3009
腸	-9.30099
功成	-9.30191
曹	-9.30248
徽宗註曰	-9.30262
郡	-9.30383
停	-9.30433
則是	-9.30487
側	-9.30612
拔	-9.30643
之主	-9.30684
即是	-9.30707
午	-9.3077
嬰兒	-9.30837
治之	-9.30841
五臟	-9.30908
能知	-9.30921
京	-9.31002
修身	-9.31171
子孫	-9.31208
之情	-9.31214
鄙	-9.31389
者以	-9.3139
睹	-9.31403
鏡	-9.31564
之君	-9.31569
送	-9.31613
臣義曰	-9.3173
鈔	-9.31735
不行	-9.31753
碎	-9.31774
故有	-9.31778
不動	-9.31796
赤子	-9.31997
男	-9.32038
一氣	-9.32191
錫	-9.32206
嘉	-9.32226
爲善	-9.32241
體道	-9.32266
頓	-9.32295
芝	-9.3241
族	-9.32446
不出	-9.3245
太一	-9.32513
䟽義曰	-9.3254
觀之	-9.32548
訓	-9.32564
帛	-9.3264
網	-9.32752
自有	-9.32767
紛	-9.32808
瑞	-9.32878
豆	-9.33021
?」	-9.33031
榮曰	-9.33286
域	-9.33436
津	-9.33483
矣夫	-9.33526
十三	-9.33584
圍	-9.3359
有名	-9.33733
相與	-9.33758
帝王	-9.3398
費	-9.34001
脾	-9.34128
千里	-9.34147
詞	-9.34194
巖	-9.34218
者乃	-9.34243
抱一	-9.34305
規	-9.34416
在我	-9.34418
煙	-9.34508
應物	-9.34532
刺	-9.34669
康	-9.34716
典	-9.34885
御䟽	-9.34951
孰能	-9.34956
鹿	-9.34987
十六	-9.35065
暫	-9.35074
醮	-9.35104
此皆	-9.35245
其生	-9.35275
第十	-9.35289
餌	-9.35416
漏	-9.35462
太清	-9.35597
偃	-9.35707
尹	-9.35743
此道	-9.35756
墮	-9.35902
震	-9.35944
使民	-9.3602
故言	-9.36067
造物	-9.36072
沈	-9.3613
式	-9.36191
固濟	-9.36197
一也	-9.3627
眀	-9.36485
之迹	-9.36513
一人	-9.3652
鼠	-9.36521
寸	-9.36566
割	-9.3671
横	-9.3675
奥	-9.36769
元氣	-9.36875
!	-9.36944
飲食	-9.37044
慧	-9.37054
歩	-9.3716
撓	-9.37161
不勝	-9.3727
瓦	-9.37327
席	-9.37368
邑	-9.37419
朱砂	-9.37453
也聖人	-9.37536
孤	-9.37565
晝夜	-9.37631
朕	-9.37794
視之	-9.37862
桃	-9.38162
生成	-9.38201
第四	-9.38209
棗	-9.38261
嶽	-9.38286
三兩	-9.38346
沙	-9.38376
君臣	-9.38386
自化	-9.38417
豈有	-9.38444
竅	-9.38471
學道	-9.3851
借	-9.38591
勑	-9.38688
無物	-9.38695
之門	-9.38698
鎭	-9.38698
歸於	-9.38719
冲	-9.38824
而求	-9.38892
鬱	-9.38941
牧	-9.39117
顔	-9.39145
給	-9.39296
溢	-9.39517
則其	-9.39529
晝	-9.39536
其實	-9.3956
於内	-9.39569
賢人	-9.39654
之術	-9.39711
不通	-9.39739
治身	-9.39747
彊	-9.39794
限	-9.39921
之說	-9.40196
夕	-9.40216
婦人	-9.40228
無方	-9.40292
擣	-9.40371
歡	-9.40423
嗣	-9.40449
鳳	-9.40452
外物	-9.40455
司馬	-9.40513
續	-9.4056
虞	-9.40562
不求	-9.40654
之變	-9.40693
徃	-9.40733
筋	-9.40811
萌	-9.41155
險	-9.41271
寢	-9.41279
基	-9.41294
倫	-9.41319
痢	-9.41347
禍福	-9.41406
油	-9.41437
緩	-9.41496
昩	-9.41501
筆	-9.41511
之徒	-9.41582
粗	-9.4159
豫	-9.41639
天之道	-9.41641
缺	-9.41674
爵	-9.4191
之大	-9.41991
炭	-9.42051
天師	-9.42237
索	-9.42384
稍	-9.42631
佐	-9.42633
碧	-9.42684
圖經曰	-9.42768
其本	-9.42781
姦	-9.42789
以自	-9.42956
呪	-9.43
其中	-9.43072
牝	-9.43137
罔	-9.43181
莫之	-9.43227
盤	-9.4336
北方	-9.43376
此之謂	-9.43436
配	-9.43484
再拜	-9.4358
故謂之	-9.43588
雄黄	-9.43626
矣故曰	-9.43834
元年	-9.43846
脂	-9.43855
鮮	-9.43945
十四	-9.43985
瓊	-9.44013
犬	-9.44019
人所	-9.44062
釜	-9.44072
一身	-9.44156
阿	-9.44161
弼曰	-9.44217
不得已	-9.44274
之患	-9.44311
於心	-9.44325
膠	-9.44356
守其	-9.44358
一升	-9.44444
追	-9.44456
科	-9.44674
也然	-9.44674
皆有	-9.44702
謁	-9.44706
孔子曰	-9.44727
、	-9.44826
澆	-9.44899
而得	-9.44943
老氏	-9.45095
聲色	-9.451
摩	-9.45116
奈何	-9.45134
究	-9.45256
▁(	-9.45293
焚	-9.45307
所見	-9.45425
堪	-9.45584
多少	-9.4564
胃	-9.45644
十日	-9.4571
百日	-9.45744
味甘	-9.45803
其事	-9.45812
葛	-9.45972
雪	-9.45978
自知	-9.46015
麗	-9.46023
標	-9.46225
如字	-9.46231
而況	-9.46234
又何	-9.46256
遠矣	-9.46404
終日	-9.46449
墜	-9.46451
厲	-9.46468
道則	-9.46477
之性	-9.465
在上	-9.46554
緑	-9.46563
日夜	-9.46589
杖	-9.46703
以求	-9.46706
者乎	-9.46944
技	-9.46968
衍義曰	-9.47043
人有	-9.47046
何謂	-9.47143
矢	-9.47143
楊	-9.47189
豈不	-9.47314
監	-9.47367
殷	-9.47384
肅	-9.47436
乎其	-9.47537
坤	-9.47608
肥	-9.47639
世俗	-9.47645
后	-9.47658
脉	-9.47662
合於	-9.47774
無用	-9.47778
〇	-9.47796
雖然	-9.47847
舊註	-9.4785
談	-9.47902
不必	-9.4797
所在	-9.48064
膽	-9.48089
曠	-9.48179
是知	-9.48235
庸	-9.48285
削	-9.4832
鄰	-9.48326
男女	-9.48374
不待	-9.48532
闇	-9.48576
惜	-9.48585
柱	-9.48593
枉	-9.48611
炙	-9.48627
則天下	-9.4864
聰	-9.48817
賦	-9.48829
自以爲	-9.48848
芽	-9.49028
德者	-9.4903
繁	-9.4905
環	-9.4905
有此	-9.49121
妙本	-9.49185
日華子云	-9.49329
詣	-9.49335
之際	-9.49427
清淨	-9.49447
之至	-9.49467
之數	-9.49486
又有	-9.49549
莫能	-9.4964
天門	-9.4996
耕	-9.49991
禮樂	-9.50033
以成	-9.50153
腦	-9.50258
崖	-9.50259
所欲	-9.50344
易曰	-9.50405
陶隱居云	-9.50613
晨	-9.50615
其用	-9.50672
修之	-9.50829
養生	-9.50853
太平	-9.50936
古人	-9.50959
故知	-9.50972
䟽夫	-9.51023
臭	-9.51033
二年	-9.51078
江海	-9.51212
穿	-9.51251
座	-9.51434
鎮	-9.51452
邦	-9.51545
與道	-9.51665
金石	-9.51671
太虚	-9.51733
國家	-9.51743
無爲之	-9.51812
十八	-9.51869
荆	-9.51941
世間	-9.51957
喜怒	-9.52073
乾坤	-9.52075
神人	-9.52088
動靜	-9.52114
光明	-9.52151
倚	-9.52161
思慮	-9.52173
砒	-9.52201
襲	-9.52207
騰	-9.52243
而去	-9.52245
四十	-9.52447
茅	-9.52464
五日	-9.52565
擾	-9.52597
逢	-9.52721
在乎	-9.52745
觀其	-9.52793
硫黄	-9.52853
於己	-9.52943
若此	-9.52944
刃	-9.52966
箇	-9.53051
稽	-9.53097
之貌	-9.53141
鑑	-9.53146
寇	-9.53184
自是	-9.53194
無為	-9.53201
裏	-9.53211
蓬	-9.5322
老君曰	-9.53254
不聞	-9.53336
寒暑	-9.53503
亥	-9.5363
至矣	-9.53661
出乎	-9.5389
逝	-9.53932
撫	-9.53991
爲大	-9.54091
吕	-9.54094
五兩	-9.54149
嘆	-9.54172
衡	-9.54225
可得	-9.54241
山谷	-9.54307
使者	-9.54414
以下	-9.54444
厥	-9.54489
不明	-9.54645
生萬物	-9.54668
農	-9.54725
傍	-9.54746
強	-9.54762
卵	-9.54919
驅	-9.54967
禽	-9.54987
與天地	-9.54997
未始	-9.5506
三皇	-9.55151
藉	-9.552
融	-9.55245
珍	-9.55264
若能	-9.55292
之始	-9.55303
天尊	-9.5541
坎	-9.55435
一物	-9.55438
腰	-9.55442
於身	-9.55472
求之	-9.55539
如何	-9.55714
悔	-9.55755
五帝	-9.55838
而無所	-9.55922
跂	-9.55935
道德眞經	-9.55949
篤	-9.56008
哭	-9.56474
不復	-9.56488
無聲	-9.56667
徼	-9.56733
撰	-9.5674
渾	-9.56825
支	-9.56834
慢	-9.56841
有一	-9.57036
水之	-9.57083
非道	-9.57213
爛	-9.57282
火候	-9.57389
革	-9.57425
鋭	-9.5751
若有	-9.5766
子之	-9.5777
預	-9.57792
之極	-9.57957
不與	-9.57985
成功	-9.57992
夫道	-9.58048
披	-9.58084
所言	-9.58085
失之	-9.58195
奢	-9.58257
麤	-9.58263
是爲	-9.5829
埋	-9.5835
樓	-9.58464
之可	-9.58498
文王	-9.5863
陰陽之	-9.5879
同於	-9.58863
甲子	-9.59003
弦	-9.59102
者道之	-9.59188
夫唯	-9.59241
仙人	-9.59353
取其	-9.59487
嗇	-9.59606
淋	-9.59607
享	-9.59632
無爲也	-9.59693
未始有	-9.59712
徙	-9.59809
㑹	-9.59822
片	-9.59871
胥	-9.59881
無毒	-9.59904
爲用	-9.59998
泯	-9.60099
暮	-9.60128
隆	-9.60194
垢	-9.60311
殺人	-9.60416
脫	-9.60603
燈	-9.6067
砂子	-9.60707
三者	-9.6072
和氣	-9.60746
南方	-9.60813
炒	-9.60874
臂	-9.60898
幻	-9.60926
天理	-9.60949
賴	-9.60957
誘	-9.60965
至于	-9.60969
不得不	-9.60997
號曰	-9.6112
忘其	-9.61183
蒼	-9.61196
者以其	-9.61249
九天	-9.613
玄牝	-9.61318
无所	-9.61326
靈砂	-9.61364
至理	-9.61369
入藥	-9.61371
格	-9.61477
老聃	-9.615
黄芽	-9.61527
十一	-9.61691
者無	-9.61754
無情	-9.61777
常存	-9.61871
爲主	-9.61882
乙	-9.61943
其所以	-9.61956
綱	-9.61987
耗	-9.61992
沸	-9.61997
一時	-9.6202
知者	-9.62131
上德	-9.6216
裂	-9.62252
途	-9.62312
好惡	-9.62512
酸	-9.62555
歳	-9.62559
黨	-9.62566
秀	-9.62633
鷄	-9.62717
恬	-9.62756
覩	-9.62779
本無	-9.62822
凌	-9.62841
人主	-9.62854
旬	-9.62862
若夫	-9.62873
自然之	-9.63025
不入	-9.63123
菜	-9.63167
神丹	-9.63176
迴	-9.63191
故以	-9.63223
恍惚	-9.6323
不若	-9.6329
茂	-9.63403
以至	-9.63466
寬	-9.63538
浪	-9.63631
虚而	-9.63653
壤	-9.63693
須臾	-9.63697
判	-9.63703
我之	-9.63789
因其	-9.63916
硫	-9.63917
遁	-9.63944
雙	-9.64013
內	-9.64426
關尹子曰	-9.6446
其子	-9.64546
瞻	-9.64551
不窮	-9.64601
非我	-9.64699
而知	-9.64844
稽首	-9.64877
毫	-9.64905
丹田	-9.64966
糞	-9.64999
怠	-9.65016
名爲	-9.65029
静	-9.65061
盞	-9.65081
用也	-9.65104
聖智	-9.65147
人身	-9.65164
漿	-9.65172
吞	-9.6525
不祥	-9.65396
之下	-9.65505
有物	-9.6555
倒	-9.65592
靜而	-9.65631
祀	-9.65633
弓	-9.65661
味苦	-9.65842
可見	-9.66053
握	-9.66121
解曰	-9.66204
下同	-9.66297
匠	-9.6631
拙	-9.6642
旁	-9.6644
然也	-9.66652
供	-9.66717
祠	-9.66841
不厭	-9.67013
應之	-9.67013
采	-9.67039
磨	-9.67049
題	-9.67058
躬	-9.67059
小國	-9.67115
礙	-9.67194
戊	-9.67222
知道	-9.6726
此是	-9.67286
知足	-9.67377
若是	-9.67441
以知	-9.67688
黃帝	-9.67708
在人	-9.67742
殺之	-9.67818
踐	-9.67885
彩	-9.67955
魂魄	-9.68061
終身	-9.68086
水中	-9.68122
柳	-9.68214
演	-9.68235
佩	-9.68252
小便	-9.68352
人以	-9.68439
謬	-9.68456
諱	-9.68492
問曰	-9.68618
所爲	-9.68665
案	-9.68686
麥	-9.68696
駭	-9.68697
則非	-9.68726
葬	-9.68764
婦	-9.68769
非有	-9.68774
百年	-9.6879
其意	-9.69031
猛	-9.69061
勉	-9.69068
將欲	-9.69113
醜	-9.69286
五味	-9.69331
赴	-9.69381
太上老君	-9.69447
飽	-9.69525
以水	-9.69644
燭	-9.69652
拱	-9.69668
中央	-9.69759
今日	-9.69834
者即	-9.69835
排	-9.69886
德也	-9.6993
一年	-9.69965
取之	-9.69984
不測	-9.69996
得失	-9.70039
測	-9.70069
筭	-9.70187
牽	-9.70211
子貢	-9.70254
誕	-9.70282
道以	-9.70284
以生	-9.70402
大聖	-9.70477
隔	-9.70481
二人	-9.70487
淪	-9.70537
崔	-9.70542
炎	-9.70546
湛	-9.70549
伏火	-9.70568
汗	-9.70673
不仁	-9.70679
上古	-9.70684
禦	-9.70772
措	-9.70803
罰	-9.70829
健	-9.70854
棲	-9.70909
生物	-9.70992
錦	-9.71178
礬	-9.71336
養之	-9.71357
眞經	-9.71363
而言	-9.71376
不失其	-9.71394
丹陽	-9.71438
上清	-9.71453
窺	-9.7169
依前	-9.71696
曜	-9.71733
道德之	-9.71767
聖人之道	-9.71909
不免	-9.71934
祐	-9.71969
太陽	-9.7197
殉	-9.7197
溪	-9.71974
漆	-9.71982
凡人	-9.72
輒	-9.72008
提	-9.72022
絳	-9.72024
爽	-9.72055
東方	-9.72217
眞常	-9.72232
有道者	-9.72268
遽	-9.72289
無言	-9.72298
有生	-9.72314
理國	-9.72472
丑	-9.72531
説	-9.7256
爲道	-9.72579
風雨	-9.7258
舞	-9.72638
有三	-9.72693
陽氣	-9.72814
上有	-9.72817
真人	-9.72823
此則	-9.72855
植	-9.7286
金丹	-9.72914
三五	-9.72962
束	-9.73182
單	-9.73199
維	-9.73207
樞	-9.73211
亦猶	-9.73357
前後	-9.73394
饑	-9.73474
若無	-9.73542
不至	-9.73543
乞	-9.73559
智者	-9.73733
薪	-9.73746
書云	-9.73758
亦如	-9.73785
裹	-9.73811
禽獸	-9.73815
不息	-9.73987
四月	-9.74007
也蓋	-9.74021
存亡	-9.74048
人不	-9.74059
亭	-9.74111
人事	-9.74177
十年	-9.74204
不可得	-9.74218
於無	-9.74259
生生	-9.74267
以致	-9.74279
寒熱	-9.74371
西方	-9.74403
上帝	-9.7442
絲	-9.74423
盟	-9.74528
長乆	-9.74536
形容	-9.74549
不忘	-9.74553
善人	-9.746
長春	-9.74619
其理	-9.74651
不知所	-9.74751
本作	-9.74761
暖	-9.74764
囊	-9.74771
仲尼曰	-9.74904
其根	-9.75025
無我	-9.75036
失道	-9.75038
便是	-9.75057
斂	-9.75074
大人	-9.75075
注云	-9.75123
𤣥	-9.75213
也凡	-9.75218
此明	-9.75288
匿	-9.75324
仕	-9.75351
碑	-9.75414
形而	-9.75451
其有	-9.7546
有德	-9.75469
未必	-9.7558
洛	-9.75643
凉	-9.7565
階	-9.75664
銷	-9.75714
遊於	-9.75726
修道	-9.75807
以來	-9.7594
矣此	-9.75995
瓜	-9.76006
韓	-9.76018
豈非	-9.76059
而忘	-9.76071
無間	-9.7621
爲君	-9.76373
於一	-9.7651
進退	-9.7655
諫	-9.76599
山林	-9.76606
十七	-9.7667
可名	-9.76685
天下皆	-9.76708
五月	-9.76716
以無爲	-9.76883
振	-9.7695
九轉	-9.77021
精氣	-9.77073
之處	-9.77158
戎	-9.77214
九月	-9.7728
虚靜	-9.77333
事之	-9.77378
二月	-9.77406
而用之	-9.77416
生化	-9.77451
自爲	-9.77472
而不得	-9.77481
物皆	-9.77483
而動	-9.77533
斬	-9.77537
美惡	-9.77592
輝	-9.77605
三界	-9.77689
三元	-9.77794
氏之	-9.77846
□	-9.77851
蹈	-9.77914
薦	-9.77921
八月	-9.77927
下士	-9.77954
長存	-9.77984
譬如	-9.7806
不為	-9.78157
十月	-9.7817
壁	-9.78186
六合	-9.78311
何爲	-9.78314
延年	-9.78343
甫	-9.78381
寅	-9.78454
不盈	-9.7852
策	-9.78522
一錢	-9.78773
桂	-9.78851
飯	-9.78856
綿	-9.78866
情欲	-9.7891
而民	-9.78916
覽	-9.79056
侈	-9.7916
製	-9.79235
曰子	-9.79236
朔	-9.79452
挫	-9.7946
而不爲	-9.79496
不傷	-9.79516
而反	-9.79526
第五	-9.79579
萬里	-9.79593
終身不	-9.79643
逹	-9.79687
聞道	-9.79787
竒	-9.79815
則人	-9.79828
蔓	-9.79841
爲本	-9.79847
何所	-9.79998
若不	-9.80078
豈能	-9.80118
不已	-9.80147
空虚	-9.80269
翔	-9.80434
眉	-9.80464
第六	-9.80571
之國	-9.80574
是之謂	-9.80584
道不	-9.80592
陰乾	-9.8063
止於	-9.80728
與我	-9.80731
曰此	-9.80783
所能	-9.80846
視聽	-9.80874
北極	-9.80889
而死	-9.8096
神氣	-9.80997
第	-9.81023
社	-9.8107
金闕	-9.81111
不絶	-9.81299
霄	-9.81358
醉	-9.81446
襄	-9.81474
頌曰	-9.8165
攪	-9.81717
瓶	-9.81763
戲	-9.81786
三才	-9.81832
天人	-9.81864
亦然	-9.8188
互	-9.81978
神農	-9.82109
崑崙	-9.8212
正一	-9.82263
則必	-9.82318
相似	-9.82318
十九	-9.82339
无爲	-9.82365
牢	-9.82382
慾	-9.82476
嗜欲	-9.82562
安靜	-9.82696
僕	-9.82718
孟子	-9.82719
同乎	-9.8273
彭	-9.82747
則失	-9.82954
程	-9.8299
叙	-9.83075
夸	-9.83076
盆	-9.83079
有心	-9.83088
遥	-9.83093
汙	-9.831
認	-9.831
核	-9.83107
鑪	-9.83112
五十	-9.83156
不盡	-9.8324
强梁	-9.83242
從之	-9.83246
煅	-9.83249
至德	-9.83375
俯	-9.83426
則雖	-9.83535
異於	-9.83549
物我	-9.83553
賢者	-9.83565
全其	-9.83609
當時	-9.83618
欲以	-9.8366
戮	-9.83687
迫	-9.83756
箭	-9.83778
不容	-9.83841
惡乎	-9.83856
未知	-9.83959
彼我	-9.83982
眞空	-9.84034
桀	-9.84053
聖人不	-9.84067
荷	-9.84079
吉凶	-9.84141
對曰	-9.84162
得而	-9.8418
匀	-9.84386
勿令	-9.84429
無非	-9.84431
卜	-9.84471
烈	-9.84502
七月	-9.84777
兄	-9.84783
之分	-9.85016
檢	-9.85095
芻狗	-9.85114
高下	-9.85116
敕	-9.8512
狐	-9.85142
幼	-9.85165
玄元	-9.85172
可知	-9.85298
玄妙	-9.85308
暇	-9.85366
之與	-9.85377
星君	-9.85385
蒿	-9.85404
而无	-9.85468
不堪	-9.85483
邪氣	-9.85499
秘	-9.85499
則可以	-9.85507
天地之間	-9.85515
物而	-9.85587
自此	-9.85613
爲度	-9.85618
乎此	-9.85708
靜則	-9.85739
鴻	-9.8579
衝	-9.85794
贊	-9.85828
莫若	-9.8585
乆矣	-9.86012
所不能	-9.86054
方治	-9.86079
陷	-9.86124
完	-9.86142
殻	-9.86186
沐浴	-9.86221
終不	-9.86259
誓	-9.86261
可得而	-9.86311
有人	-9.86336
不去	-9.86348
元君	-9.86353
胸中	-9.86394
吾之	-9.86434
者蓋	-9.86472
倉	-9.86493
把	-9.86504
王者	-9.86556
小大	-9.86557
禱	-9.86562
俾	-9.8657
一百	-9.8669
教之	-9.86712
不識	-9.86714
莫知其	-9.8674
莫之能	-9.8676
物無	-9.86787
忿	-9.86797
僻	-9.86821
龍虎	-9.86831
微妙	-9.87125
粒	-9.87144
十兩	-9.87153
瀉	-9.87171
唱	-9.8718
般	-9.87233
各自	-9.87452
社稷	-9.87473
妨	-9.87537
爻	-9.87544
則物	-9.87551
佛	-9.87591
運動	-9.87643
萬民	-9.87674
渴	-9.8781
硃砂	-9.87855
其上	-9.87855
姑	-9.87892
賈	-9.87897
纔	-9.87908
上士	-9.88161
皆是	-9.88167
猪	-9.88198
奸	-9.88218
於我	-9.88221
之聲	-9.88225
戾	-9.8828
爲上	-9.88346
漠	-9.8836
守一	-9.88391
乃能	-9.8849
而復	-9.88507
靑	-9.88637
編	-9.88657
安得	-9.88781
之日	-9.88791
忘言	-9.88815
之位	-9.8892
癸	-9.88924
减	-9.88949
不安	-9.88971
敝	-9.88975
歌曰	-9.88985
也且	-9.88987
皇帝	-9.89137
下文	-9.89177
不言而	-9.8918
大者	-9.89203
不畏	-9.89255
兊	-9.89258
吸	-9.89259
鉤	-9.89272
不化	-9.89291
灌	-9.89327
理也	-9.89336
又以	-9.89351
之境	-9.89364
常以	-9.89414
化而	-9.89452
者不能	-9.89455
華池	-9.89486
威儀	-9.89551
大丹	-9.89665
騎	-9.89711
轂	-9.89863
由是	-9.89887
六十	-9.89916
卯	-9.89962
的	-9.89963
抽	-9.89977
萬世	-9.90008
逮	-9.90015
恥	-9.90026
性之	-9.90054
激	-9.90055
而歸	-9.90095
極則	-9.90131
有欲	-9.90189
無迹	-9.90236
悶	-9.90319
雅	-9.9032
無憂	-9.90337
六月	-9.90402
以德	-9.90449
遵	-9.90469
華蓋	-9.90478
訪	-9.90485
事也	-9.90532
童子	-9.90546
天下者	-9.90547
山中	-9.90593
未嘗不	-9.90595
也謂	-9.9069
未可	-9.90696
盗	-9.90705
其次	-9.90736
不治	-9.90737
軟	-9.90753
理之	-9.9078
相生	-9.90863
今之	-9.90892
道術	-9.90936
本命	-9.90974
其國	-9.91056
濡	-9.91102
頗	-9.91117
躍	-9.91124
億	-9.91305
髓	-9.91349
二者	-9.91374
忍	-9.91436
道無	-9.9144
頑	-9.915
之域	-9.91502
或云	-9.9155
丙	-9.91594
而萬物	-9.91748
講	-9.91778
敷	-9.91808
郊	-9.91841
隅	-9.9186
虚心	-9.92032
顔色	-9.92101
牡	-9.92109
仁者	-9.92142
自然之理	-9.92156
功名	-9.92189
帥	-9.92195
狹	-9.92219
善者	-9.92243
也是以	-9.92292
供養	-9.92344
枚	-9.9237
服食	-9.92415
哉故	-9.92419
有大	-9.92476
銖	-9.92542
妙道	-9.92563
杵	-9.92588
展	-9.9264
曰我	-9.92783
所居	-9.92833
復命	-9.92843
手足	-9.92881
雀	-9.9289
倍	-9.92905
而下	-9.9291
寓言	-9.92914
腹中	-9.9293
仞	-9.92939
壅	-9.92962
成形	-9.93074
而未	-9.93092
毎	-9.93276
之初	-9.93278
古者	-9.93306
遲	-9.93311
萬物皆	-9.93406
不貴	-9.93431
可道	-9.9347
物有	-9.93509
不定	-9.93544
父子	-9.93548
其大	-9.93607
不應	-9.93627
屑	-9.93639
之使	-9.93653
銘	-9.93798
黄金	-9.93814
存焉	-9.93842
許由	-9.93903
智慧	-9.93907
根本	-9.93911
子列子	-9.93947
例	-9.94012
攖	-9.94019
眩	-9.94021
乏	-9.94037
豪	-9.94054
絹	-9.94056
鵬	-9.94262
金玉	-9.94374
臧	-9.94384
止也	-9.94404
鉛汞	-9.94465
將以	-9.9448
院	-9.94502
蘭	-9.9453
行注	-9.94551
自見	-9.94568
去其	-9.94676
而欲	-9.94744
之教	-9.949
四肢	-9.94904
十方	-9.94923
之狀	-9.94963
則能	-9.95008
始於	-9.95084
茍	-9.95089
舒	-9.95137
不妄	-9.95141
其眞	-9.95175
夫惟	-9.952
白虎	-9.95205
遐	-9.95212
之要	-9.95279
物者	-9.95304
之罪	-9.95495
雖復	-9.95518
崩	-9.95582
紂	-9.95609
廬	-9.95609
之形	-9.9564
件	-9.95869
壬	-9.95909
析	-9.95944
太子	-9.95969
謂其	-9.9598
其志	-9.96012
此二	-9.96131
豈可	-9.96211
眞性	-9.9622
隨時	-9.96276
剛强	-9.96597
非人	-9.96601
至此	-9.96606
湛然	-9.96639
闔	-9.9664
用心	-9.96657
摇	-9.9668
魁	-9.96685
蕃	-9.96702
膝	-9.96706
其能	-9.96831
味辛	-9.96856
戸	-9.96899
取天下	-9.97014
狙	-9.97039
芳	-9.97081
伸	-9.97083
一體	-9.97127
函	-9.9714
獄	-9.97211
其人	-9.97221
形體	-9.97339
此意	-9.97414
不覺	-9.97431
正月	-9.97435
葵	-9.97451
知而	-9.97471
孕	-9.97551
筋骨	-9.97582
己之	-9.9769
故其	-9.97802
蜂	-9.97894
而出	-9.98032
川谷	-9.98056
帝君	-9.98103
所用	-9.98104
則神	-9.98126
搏	-9.98201
名之	-9.98269
園	-9.98273
隸	-9.98323
不肖	-9.98357
盜賊	-9.98422
行者	-9.98456
利物	-9.98492
金液	-9.98646
已上	-9.98672
快	-9.9868
不受	-9.98736
一曰	-9.988
盡其	-9.98878
曰夫	-9.98892
曰汝	-9.98894
其行	-9.98894
琴	-9.99028
盲	-9.99035
天地萬物	-9.99067
漬	-9.99071
腐	-9.99108
之神	-9.99124
太山	-9.99304
者道也	-9.99327
問之	-9.9935
甚易	-9.99373
貸	-9.99395
拂	-9.99417
大道之	-9.99427
痰	-9.99432
嬰	-9.9944
常有	-9.99485
换	-9.99504
之㫖	-9.99613
藏於	-9.99648
未嘗有	-9.99685
世俗之	-9.99733
者所以	-9.99763
浴	-9.99771
硝石	-9.99774
而常	-9.99794
賞罰	-9.99847
法度	-9.99953
而行之	-9.99999
紫微	-10.0002
矣然	-10.0008
以喻	-10.0012
何也	-10.0013
心無	-10.0018
終無	-10.0018
巢	-10.0021
庵	-10.0023
此經	-10.0023
盜跖	-10.0023
泣	-10.0023
冀	-10.0028
熬	-10.003
疵	-10.0034
所知	-10.0044
動也	-10.0053
不易	-10.0056
贅	-10.0057
天下之至	-10.0059
知止	-10.006
不由	-10.0063
嚮	-10.0063
巾	-10.0065
憑	-10.0066
築	-10.0066
急急如律令	-10.0066
清虚	-10.0077
南華	-10.0077
覆載	-10.0082
日中	-10.0083
形骸	-10.0083
其間	-10.0083
器中	-10.0088
我獨	-10.0092
蒲	-10.0094
者豈	-10.0095
化之	-10.0097
蓮	-10.0101
頃	-10.0103
准	-10.0103
八兩	-10.0105
偕	-10.0105
而化	-10.0106
痔	-10.0107
太和	-10.011
而心	-10.0116
爲物	-10.012
修行	-10.012
如此則	-10.0137
者多	-10.0137
混沌	-10.0139
靖	-10.0139
蒼生	-10.014
之累	-10.0141
誇	-10.0144
輩	-10.015
乎天	-10.0162
椒	-10.018
之體	-10.0181
竈	-10.0181
生焉	-10.0181
其迹	-10.0183
藴	-10.0188
障	-10.0189
欲得	-10.0189
血氣	-10.0192
今人	-10.02
有言	-10.0211
通於	-10.0215
擁	-10.0226
卓	-10.0229
靈寳	-10.0238
行道	-10.0254
猶有	-10.0256
谷神	-10.0258
嗟	-10.0261
璧	-10.0262
梅	-10.0263
寶	-10.0265
朽	-10.0267
鬼名	-10.0278
蠶	-10.0299
糧	-10.0302
黒	-10.0303
所生	-10.0306
顔回	-10.0308
以養	-10.0311
七十二	-10.0313
時有	-10.0316
叛	-10.0322
閒	-10.0339
或有	-10.0342
尅	-10.0346
選	-10.0348
王公	-10.0352
燥	-10.0352
謹按	-10.0356
揺	-10.0378
言者	-10.0381
者也故	-10.0385
獨立	-10.0387
葱	-10.0387
讎	-10.0387
之先	-10.0388
恬淡	-10.0389
寐	-10.039
耽	-10.0391
悅	-10.0394
不變	-10.0394
故爲	-10.0404
萬化	-10.0414
有功	-10.042
所遇	-10.0422
閣	-10.0436
之學	-10.0445
公曰	-10.0447
大患	-10.0449
戌	-10.046
惠子	-10.0463
半兩	-10.0465
嫌	-10.0465
探	-10.0467
疲	-10.0468
欣	-10.047
肌	-10.047
銜	-10.0472
不居	-10.0481
山川	-10.0482
妙用	-10.0483
天下之人	-10.0485
所由	-10.0491
教人	-10.0494
萬物而	-10.0494
南華經曰	-10.0503
聾	-10.0505
恍	-10.0506
也既	-10.0507
元始	-10.0512
則不能	-10.052
受之	-10.0522
與天	-10.0523
棄之	-10.0526
養神	-10.0528
受命	-10.0536
天之所	-10.0546
而不自	-10.0549
之辭	-10.0549
寥	-10.055
消息	-10.0551
范曰	-10.0552
此所以	-10.0553
七十	-10.0553
涯	-10.0554
苛	-10.0555
頤	-10.056
朗	-10.056
相應	-10.0564
五嶽	-10.0583
而未嘗	-10.0587
猒	-10.0588
倦	-10.0592
肯	-10.0594
御註曰	-10.0594
五年	-10.0596
踵	-10.0597
混元	-10.0602
名山	-10.0602
淳樸	-10.0602
段	-10.0604
事而	-10.0606
可用	-10.0606
寡人	-10.0615
其情	-10.0626
陋	-10.0632
堅强	-10.0632
亢	-10.0634
軒	-10.0645
相和	-10.0645
天機	-10.0652
故雖	-10.0654
不違	-10.0676
固有	-10.0676
枕	-10.0678
文子	-10.0678
俟	-10.0682
睡	-10.0682
掃	-10.0684
功曹	-10.0689
萬事	-10.0692
歸根	-10.0695
女子	-10.0697
飄	-10.0708
胎息	-10.0713
知此	-10.0715
藥性論云	-10.0725
始也	-10.073
六甲	-10.073
忽然	-10.0731
太玄	-10.0732
莫知	-10.0738
察察	-10.0739
所得	-10.0742
此謂	-10.0752
行而	-10.0755
有毒	-10.0762
三千	-10.0763
俗人	-10.0765
之師	-10.0766
粟	-10.0767
闊	-10.0768
日新	-10.0771
成云	-10.0774
肖	-10.0776
動作	-10.0786
之末	-10.0789
皆以	-10.0793
可欲	-10.0795
一月	-10.0798
命之	-10.081
太初	-10.0813
黄白	-10.0813
善行	-10.0817
昔者	-10.0818
安能	-10.0826
成而	-10.0826
身中	-10.0841
洞天	-10.0845
銳	-10.0845
冒	-10.0845
梧	-10.0846
酉	-10.0847
疑獨註	-10.0849
項	-10.0851
鍋	-10.0851
世之人	-10.0856
館	-10.0859
祚	-10.086
見於	-10.0863
胸	-10.0867
合子	-10.0869
昇天	-10.087
遊乎	-10.0879
佞	-10.0884
斥	-10.0892
我者	-10.09
用其	-10.09
晏	-10.0901
自勝	-10.0901
自然之道	-10.0904
而立	-10.0919
心不	-10.0927
俄	-10.093
誡	-10.0937
不當	-10.0941
層	-10.0942
玄帝	-10.0943
愆	-10.0945
章第十	-10.0955
利器	-10.0961
郭註	-10.0962
桓公	-10.0992
曰道	-10.1
或以	-10.1001
自然也	-10.1004
死而	-10.1005
嗜	-10.1007
道之人	-10.1011
匡	-10.1023
愧	-10.1026
沖和	-10.1026
繞	-10.1027
捐	-10.1027
噫	-10.1027
傳曰	-10.1027
狀如	-10.1027
葉似	-10.1028
範	-10.1029
囿	-10.103
唐本注云	-10.1034
玄同	-10.1034
楊朱	-10.1034
始終	-10.1037
莫大於	-10.1037
不亦	-10.1038
三升	-10.1043
方可	-10.1043
其義	-10.1046
常道	-10.1047
己而	-10.1052
虚空	-10.1054
未免	-10.1054
其於	-10.1057
此章明	-10.1058
揣	-10.1062
法師	-10.1062
在天	-10.1063
惚	-10.1065
空心	-10.1069
則生	-10.1069
秉	-10.107
悖	-10.1072
一尺	-10.1072
寫	-10.1075
以告	-10.1078
出而	-10.108
和之	-10.1082
其民	-10.1087
忠信	-10.1087
廣大	-10.1091
在内	-10.1094
孰爲	-10.1101
釣	-10.111
緒	-10.111
而巳	-10.1122
化人	-10.1128
男子	-10.1139
聽之	-10.1145
不勞	-10.1145
倪	-10.1146
鎔	-10.1156
欽	-10.1158
戚	-10.1159
脊	-10.116
者不可	-10.1168
之炁	-10.117
不以爲	-10.1173
能生	-10.1173
其色	-10.1175
齋戒	-10.1187
青龍	-10.1195
以言	-10.1201
畔	-10.1202
得此	-10.1203
守之	-10.121
不食	-10.1211
香火	-10.1211
翠	-10.1213
爲事	-10.1235
狼	-10.124
訣曰	-10.1243
豕	-10.1245
自爾	-10.1246
鑄	-10.1248
拌	-10.1248
儻	-10.1251
人家	-10.1252
修眞	-10.1255
凡有	-10.126
愛之	-10.1266
飲之	-10.1284
憎	-10.1285
泛	-10.129
滌	-10.129
剖	-10.1294
不亂	-10.1295
扇	-10.1303
於前	-10.1304
必須	-10.1312
纂	-10.1324
二儀	-10.133
玄德	-10.1332
兔	-10.1333
此三者	-10.1335
褁	-10.1338
歛	-10.1338
命也	-10.1339
橐籥	-10.1339
拒	-10.134
者當	-10.1343
在下	-10.1348
之所爲	-10.1349
也雖	-10.135
此法	-10.1352
也吾	-10.1353
是已	-10.1362
所出	-10.1365
逰	-10.137
禮義	-10.1373
籠	-10.1381
者雖	-10.1386
於事	-10.1386
占	-10.1386
虐	-10.1387
臍	-10.1387
研細	-10.1395
不能自	-10.1396
與汝	-10.1398
而不失	-10.1399
土地	-10.1402
有常	-10.1407
文字	-10.1418
𩔖	-10.1419
態	-10.1424
詭	-10.1425
下降	-10.1426
縛	-10.1427
無上	-10.1428
可以爲	-10.1428
朝廷	-10.1428
括	-10.1429
碧虚子陳景元曰	-10.1431
霸	-10.1431
閲	-10.1432
侮	-10.1433
任其	-10.1447
太古	-10.1447
日用	-10.1451
不虧	-10.1451
言道	-10.1453
一種	-10.1454
傷人	-10.1469
岸	-10.1475
爰	-10.1485
九竅	-10.1499
其氣	-10.1501
以應	-10.1507
迭	-10.1516
柴	-10.1519
大藥	-10.1522
驟	-10.1523
崔云	-10.1525
先後	-10.1526
三寳	-10.1527
有知	-10.153
二錢	-10.1533
章第七	-10.1534
之象	-10.1537
千金	-10.1539
於彼	-10.154
之異	-10.1542
聖賢	-10.1556
道不可	-10.1557
之前	-10.1561
鐘	-10.1569
宗師	-10.157
鹹	-10.1575
兩忘	-10.1578
武王	-10.1589
生則	-10.1603
至大	-10.1607
而不知其	-10.1607
方且	-10.1609
曷	-10.1612
本經	-10.1613
章第二十	-10.1615
班	-10.1616
宻	-10.1617
乃是	-10.1618
金銀	-10.1629
死地	-10.1631
也右	-10.1631
元炁	-10.1632
者可以	-10.1632
物則	-10.1634
昭昭	-10.1636
甘草	-10.1636
不害	-10.1644
益氣	-10.1647
人生	-10.1648
之化	-10.1648
蜩	-10.1651
污	-10.1656
憐	-10.1661
付之	-10.1664
亦非	-10.1669
盈滿	-10.1671
岐	-10.1672
不知所以	-10.1685
爲治	-10.1693
一心	-10.1695
非常	-10.1696
異也	-10.1696
死也	-10.1703
谿	-10.1703
劉曰	-10.1705
徴	-10.1705
爲我	-10.1707
而後能	-10.1709
額	-10.1713
形質	-10.1714
不恃	-10.1719
器也	-10.1721
聖人所以	-10.1744
不得已而	-10.1748
夾	-10.1752
所行	-10.1753
賣	-10.1753
佚	-10.1754
透	-10.1754
譏	-10.1755
超然	-10.1755
圃	-10.1756
其分	-10.176
翳	-10.1761
皆由	-10.1762
緯	-10.1766
明目	-10.1766
百里	-10.177
玄武	-10.1776
其體	-10.178
三尺	-10.1793
眞道	-10.1794
翁	-10.1795
煆	-10.1796
罷	-10.1798
左手	-10.1798
起於	-10.1802
所有	-10.1805
喫	-10.181
之喻	-10.181
莫測	-10.1812
明道	-10.1822
成也	-10.1823
往而不	-10.1826
自在	-10.1827
法天	-10.1829
其中有	-10.1833
或作	-10.1833
之機	-10.1837
於其間	-10.1842
曆	-10.1847
之哉	-10.1847
從而	-10.1849
反又	-10.1853
物自	-10.1855
於地	-10.1855
之義也	-10.1863
天帝	-10.1865
有情	-10.1869
性也	-10.188
難治	-10.1885
盧曰	-10.1887
煞	-10.1893
憲	-10.1895
翻	-10.1897
彈	-10.19
而應	-10.1905
千萬	-10.1907
減	-10.1911
形如	-10.1915
天命	-10.1918
於中	-10.1921
神者	-10.1922
所以能	-10.1934
諸天	-10.1934
而止	-10.1937
相反	-10.1937
榖	-10.1938
姓名	-10.1939
南華眞經義海纂微卷之	-10.1945
跨	-10.1946
霧	-10.1947
茶	-10.1949
一分	-10.1949
吟	-10.195
導引	-10.1955
頌	-10.1959
相類	-10.1971
君之	-10.1976
愚者	-10.1982
無厭	-10.1985
道家	-10.1988
柏	-10.1991
宇宙	-10.1993
嶺	-10.1994
夀	-10.1994
爲德	-10.1995
惟其	-10.1995
斧	-10.1996
爪	-10.1997
亦得	-10.1997
併	-10.1999
值	-10.1999
惡瘡	-10.2004
爲器	-10.2007
䟽此	-10.2013
者是也	-10.2013
之病	-10.2015
受其	-10.2017
了悟	-10.202
去之	-10.2022
五金	-10.2025
若然者	-10.2026
吾身	-10.2028
自正	-10.2031
二氣	-10.2034
盧	-10.2036
細研	-10.2037
贍	-10.2042
晚	-10.2044
屢	-10.2044
哀樂	-10.205
不起	-10.2054
以待	-10.2056
非所	-10.2065
心腹	-10.2072
三王	-10.2072
之本也	-10.2078
東海	-10.208
潁濱蘇轍曰	-10.2094
痹	-10.2094
絡	-10.2095
!」	-10.2096
殊不知	-10.2097
之器	-10.2097
也䟽夫	-10.2098
李曰	-10.2105
寵辱	-10.2106
此亦	-10.2112
之弊	-10.2113
死矣	-10.2114
乎道	-10.2116
汎	-10.2122
者能	-10.2129
其可	-10.2132
未足	-10.2134
準	-10.2134
曰天	-10.2137
烹	-10.2139
二日	-10.2141
粥	-10.2146
尖	-10.2152
臻	-10.2152
多食	-10.2153
人自	-10.2154
不可見	-10.2161
二升	-10.2164
所施	-10.217
孟子曰	-10.2172
劒	-10.2176
以道爲	-10.2176
斛	-10.2184
異乎	-10.2185
其後	-10.2185
篇云	-10.2193
至極	-10.2196
映	-10.2198
丈人	-10.2206
不顧	-10.2206
於萬物	-10.2206
十五日	-10.2217
樂也	-10.2226
書曰	-10.2226
亦是	-10.2227
兩手	-10.2228
無始	-10.2229
大同	-10.2232
兄弟	-10.2232
三寸	-10.2233
不處	-10.2237
本草	-10.2244
三清	-10.2245
至樂	-10.2248
纏	-10.225
關尹	-10.2255
且夫	-10.2268
下有	-10.2278
之利	-10.2284
不見其	-10.2285
諭	-10.2288
屎	-10.2289
隳	-10.229
以智	-10.2295
之實	-10.2295
一者	-10.23
上元	-10.2302
神靈	-10.2303
論之	-10.2308
之文	-10.2309
任物	-10.2315
相合	-10.2322
沖虚	-10.2328
是時	-10.2329
形之	-10.2329
身心	-10.2332
可不	-10.2333
宥	-10.2333
瀆	-10.2334
九年	-10.2335
人多	-10.2336
喉	-10.234
不一	-10.2342
五音	-10.2344
三百	-10.2347
則心	-10.2348
以至於	-10.2351
可爲	-10.2354
澗	-10.2356
故名	-10.236
彼此	-10.2364
所宜	-10.2364
名利	-10.2381
功德	-10.2385
赫	-10.2388
道德經	-10.2388
裁	-10.2388
雕	-10.2391
黎	-10.2394
所適	-10.2397
十餘	-10.2405
尚書	-10.2406
王曰	-10.2408
此三	-10.241
而物	-10.2413
小者	-10.2414
名實	-10.2424
為天下	-10.2425
以靜	-10.2426
復於	-10.2426
問於	-10.2432
古之人	-10.2435
擬	-10.2438
爲盜	-10.2439
栗	-10.244
忤	-10.244
不思	-10.2441
眇	-10.2443
半斤	-10.2452
人道	-10.2458
常無	-10.246
天地之道	-10.2461
者衆	-10.2463
善也	-10.2467
爲義	-10.2468
呪曰	-10.247
之書	-10.247
他人	-10.2472
第七	-10.2474
在己	-10.2476
二寸	-10.2477
纂微	-10.2478
相去	-10.2482
逼	-10.2483
此所謂	-10.2485
可乎	-10.2486
蟻	-10.2486
神化	-10.2487
蟬	-10.2487
捉	-10.2492
峻	-10.2493
着	-10.2494
愁	-10.2496
爲臣	-10.2521
能無	-10.2521
極也	-10.2529
将	-10.2535
滓	-10.2535
之表	-10.2535
薰	-10.2536
暑	-10.2537
掘	-10.2539
傲	-10.254
區	-10.2542
漫	-10.2542
叢	-10.2543
軌	-10.2546
雍	-10.2547
人亦	-10.255
三十日	-10.2559
教化	-10.2563
結成	-10.2568
何有	-10.2577
自成	-10.2579
物故	-10.258
請問	-10.2582
明矣	-10.2584
桐	-10.2586
謚	-10.2586
墓	-10.2592
濫	-10.2593
馳騁	-10.2594
無爲則	-10.2594
無異	-10.2598
性命之	-10.2598
之方	-10.2599
雌雄	-10.2604
强名	-10.2604
江南	-10.2605
自然而	-10.2606
只是	-10.2606
下氣	-10.2614
黙	-10.2629
門人	-10.2633
桓	-10.2634
顆	-10.2637
二子	-10.2638
規矩	-10.2641
萬人	-10.2643
昆	-10.2643
詎	-10.2646
也義曰	-10.2648
以慈	-10.2648
求其	-10.2656
所貴	-10.2662
無功	-10.2667
若以	-10.2678
板	-10.2679
君曰	-10.2681
服氣	-10.2682
無由	-10.2686
不可測	-10.2688
生人	-10.2689
頻	-10.2692
薑	-10.2693
自來	-10.2695
疫	-10.2695
敖	-10.2696
捷	-10.2697
言人	-10.2697
墻	-10.2698
巫	-10.2699
順物	-10.27
焉故	-10.2702
神符	-10.2704
大盜	-10.2705
之而不	-10.271
自足	-10.2719
政和	-10.2721
所好	-10.2725
欲令	-10.2727
當以	-10.2733
長短	-10.2735
其聲	-10.274
二字	-10.2741
相忘	-10.2743
九日	-10.2743
日月之	-10.2745
常在	-10.2746
濃	-10.2748
旨	-10.2752
掩	-10.2754
公子	-10.2755
者矣	-10.2757
德之人	-10.2758
名者	-10.2758
乃可	-10.2763
之屬	-10.2765
寂然	-10.2767
每服	-10.2774
成寳	-10.2778
之勢	-10.278
欲求	-10.2781
榆	-10.2784
鋪	-10.2789
一伏時	-10.2794
一家	-10.2796
綿綿	-10.2801
湖	-10.2805
鱗	-10.2806
重陽	-10.2806
橋	-10.281
所聞	-10.2813
輕身	-10.2828
存乎	-10.283
善之	-10.2832
蹄	-10.2835
於德	-10.2836
人民	-10.2839
於下	-10.2843
迕	-10.2847
兀	-10.285
玩	-10.2851
叩	-10.2857
疆	-10.2857
霍亂	-10.2862
兼忘	-10.2862
不肯	-10.2863
文武	-10.2869
凡物	-10.287
山之	-10.2872
二十五	-10.2881
問道	-10.2899
懐	-10.2901
針	-10.2902
無敵	-10.2904
箕	-10.2904
烟	-10.2905
淘	-10.2906
羸	-10.2906
而外	-10.2907
藝	-10.2907
成汁	-10.2913
傅之	-10.2914
暈	-10.2915
奴	-10.2916
敢問	-10.2916
御曰	-10.2919
方圓	-10.292
未得	-10.2921
著書	-10.2927
養火	-10.2929
不異	-10.293
我則	-10.2936
口中	-10.2937
一本作	-10.294
既無	-10.2941
旱	-10.2946
以正	-10.2951
言教	-10.2953
冶	-10.2955
爲體	-10.2957
次之	-10.2958
瘧	-10.2962
雖欲	-10.2966
役使	-10.2966
至人之	-10.297
莊子所謂	-10.2979
不可名	-10.2981
同異	-10.2991
呼爲	-10.2992
天下也	-10.2992
丸如	-10.2993
使我	-10.2995
君子之	-10.2997
爲天	-10.2998
精誠	-10.2999
之源	-10.3003
産後	-10.3003
五穀	-10.3009
而至於	-10.3011
創	-10.3013
郎	-10.3014
贈	-10.3017
錬	-10.3019
一國	-10.302
瑩	-10.3021
夜半	-10.3023
不樂	-10.3024
告之	-10.3029
萬方	-10.3034
而爲之	-10.3038
之民	-10.3044
十二月	-10.3045
取汁	-10.3046
天眞	-10.3052
之令	-10.3053
輻	-10.3054
鳩	-10.3054
不立	-10.3057
硃	-10.3057
硇砂	-10.306
爲下	-10.3061
呼吸	-10.3062
然後能	-10.3063
艾	-10.3063
靜也	-10.3064
緊	-10.3065
整	-10.3067
塵垢	-10.3067
蹶	-10.3068
性命之情	-10.3069
蕭	-10.3074
道非	-10.3077
不可爲	-10.3078
榮辱	-10.308
上昇	-10.308
五星	-10.3081
疾病	-10.3088
無量	-10.3089
者謂之	-10.309
尊卑	-10.3097
於大	-10.3097
亦何	-10.31
守靜	-10.3104
矣又	-10.3105
而見	-10.3105
先天	-10.311
秋毫	-10.3116
劣	-10.3117
之論	-10.3118
屏	-10.3121
距	-10.3123
餅	-10.3125
而我	-10.3125
四者	-10.3125
人物	-10.3126
矣䟽	-10.3129
不敢爲	-10.313
則無所	-10.3134
穆王	-10.3136
皆可	-10.3139
居其	-10.3149
而終	-10.3161
亦不能	-10.3163
本末	-10.3166
衍	-10.3167
大吉	-10.3167
揮	-10.3169
綺	-10.3173
人情	-10.3173
各得其	-10.3173
宮	-10.3174
黑色	-10.3174
槩	-10.3176
五寸	-10.318
為之	-10.3182
貼	-10.3184
神室	-10.3189
無所用	-10.319
治人	-10.3194
遠近	-10.3196
暴乾	-10.3198
尹子曰	-10.3206
三斤	-10.3207
而弗	-10.3212
形者	-10.3219
爲無爲	-10.3221
摶	-10.3222
衞	-10.3225
犧	-10.3228
危殆	-10.323
凋	-10.3231
鋒	-10.3233
變而	-10.3237
司命	-10.3237
豈知	-10.3239
樂其	-10.324
形神	-10.3246
合乎	-10.3259
本亦作	-10.3262
如水	-10.3264
先以	-10.3266
也老子曰	-10.327
之根	-10.3272
玄黄	-10.3276
難矣	-10.3277
有時而	-10.328
勃	-10.328
順之	-10.3282
之宗	-10.3282
庖	-10.3283
坑	-10.3284
孩	-10.3285
萬變	-10.3287
訟	-10.3288
匪	-10.3288
用此	-10.3288
禪	-10.3288
林氏曰	-10.329
副	-10.329
太微	-10.3297
生故	-10.33
第八	-10.3305
未至	-10.3306
也〇	-10.3313
群生	-10.3314
匹	-10.3316
之甚	-10.3321
則易	-10.3327
中國	-10.3329
以身	-10.333
也彼	-10.333
熊	-10.3332
禾	-10.3335
禳	-10.3335
扁	-10.3337
洋	-10.3339
朋	-10.334
法也	-10.3342
優	-10.3342
嘘	-10.3343
見聞	-10.3343
上文	-10.3346
得以	-10.3352
沖氣	-10.3357
此藥	-10.3357
丈夫	-10.3365
右手	-10.3371
三代	-10.3372
物之所	-10.3379
弔	-10.3381
生乎	-10.3384
少許	-10.3389
何如	-10.3389
自矜	-10.3392
橫	-10.3393
栢	-10.3395
轍	-10.3396
稀	-10.3398
之所能	-10.3399
剋	-10.34
之質	-10.3404
陳藏器云	-10.3405
命者	-10.3406
一云	-10.3406
之美	-10.341
者不知	-10.3413
應變	-10.3415
之力	-10.342
結繩	-10.3426
之意也	-10.3431
而致	-10.3431
猶如	-10.3432
不免於	-10.3432
老聃曰	-10.3438
滯於	-10.3438
既有	-10.3441
白馬	-10.3441
使天下	-10.3442
磁石	-10.3446
褐	-10.3448
非其	-10.3448
合道	-10.3452
鸞	-10.3453
佑	-10.3457
嗜慾	-10.3459
鳥獸	-10.3459
盈虚	-10.3461
附子	-10.3467
海内	-10.3468
耳非	-10.3472
可與	-10.3474
知常	-10.3481
如是則	-10.3492
喪其	-10.3493
輕重	-10.3498
上天	-10.3499
五方	-10.35
攘	-10.3502
硬	-10.3506
於民	-10.3508
於國	-10.351
之世	-10.3511
道之士	-10.3511
尹喜	-10.3512
鈞	-10.3512
者先	-10.3513
瑶	-10.3515
七年	-10.3517
蛤	-10.3518
歙	-10.3521
之家	-10.3533
守道	-10.3533
無不爲	-10.3537
白礬	-10.3537
第九	-10.3538
亦將	-10.3552
西北	-10.3553
又名	-10.3554
之不可	-10.3555
闢	-10.3558
料	-10.356
羞	-10.3561
造化之	-10.3563
軀	-10.3564
之所由	-10.3566
爾雅云	-10.3566
儒墨	-10.3568
以生爲	-10.3572
也若夫	-10.3585
我以	-10.3585
非道也	-10.3588
而實	-10.3589
無能	-10.3592
並作	-10.3596
欲明	-10.3597
在此	-10.3599
爲而不恃	-10.3599
保其	-10.3602
而來	-10.3603
甚多	-10.3605
至眞	-10.3605
二物	-10.3607
隨物	-10.3617
縮	-10.3618
船	-10.3619
雷霆	-10.3621
叩齒	-10.3623
憫	-10.3623
脆	-10.3623
捕	-10.3627
疼	-10.3627
言語	-10.3628
帝王之	-10.3629
無思	-10.3631
伊	-10.3631
動則	-10.3632
眞知	-10.3634
希夷	-10.3634
不假	-10.3637
坐忘	-10.3637
百餘	-10.3639
一處	-10.3646
養七日	-10.3651
一箇	-10.3668
秋冬	-10.3673
几	-10.3673
織	-10.3674
不正	-10.3674
又方治	-10.3674
怖	-10.3676
有爲之	-10.3676
赦	-10.3678
柄	-10.3679
屯	-10.3679
咬	-10.368
無爲而無不爲	-10.3681
之相	-10.3682
一寸	-10.3684
全眞	-10.3685
碧虚	-10.3692
宴	-10.3693
必先	-10.3695
分明	-10.3702
功用	-10.3704
識之	-10.3708
者如	-10.3709
化生	-10.3716
辯者	-10.372
毀	-10.3725
杏	-10.3726
或曰	-10.3727
答曰	-10.3728
芥	-10.3733
於俗	-10.3734
藤	-10.3736
唯聖人	-10.3737
泠	-10.3737
該	-10.3737
馭	-10.374
漱	-10.3741
粉霜	-10.3741
毋	-10.3741
數十	-10.3743
不宜	-10.3753
大通	-10.3756
隨之	-10.376
肩	-10.3768
一丸	-10.3768
浩	-10.3771
爲貴	-10.3774
以示	-10.3778
夫聖人	-10.378
也惟	-10.3782
耆	-10.3788
以賤爲本	-10.3789
無時	-10.379
本來	-10.3791
祇	-10.3793
播	-10.3794
蒂	-10.3795
百病	-10.3795
壑	-10.3796
註夫	-10.3796
詰	-10.3797
紫色	-10.3798
焚香	-10.3809
至精	-10.3809
皆非	-10.3809
莊周	-10.3811
其力	-10.382
形形	-10.382
庶幾	-10.3821
一二	-10.3823
害也	-10.3825
明白	-10.3825
孰知其	-10.3826
其下	-10.3832
去皮	-10.3833
黄色	-10.3833
於水	-10.3834
賢愚	-10.3836
牀	-10.3836
下德	-10.3839
黍	-10.3848
何嘗	-10.3849
一本	-10.3852
臼	-10.3852
纖	-10.3852
斑	-10.3856
道徳	-10.3856
何氏曰	-10.3859
處於	-10.3862
天行	-10.3862
河上公	-10.3862
莊子云	-10.3862
萬象	-10.3866
不可勝	-10.3868
春夏	-10.3873
廓	-10.3874
白雪	-10.3877
五百	-10.3877
有聲	-10.3879
之始也	-10.388
害人	-10.3881
中和	-10.3883
雌黄	-10.3885
台	-10.3887
者何	-10.3888
窮極	-10.3889
也唯	-10.3893
信之	-10.3895
矣若	-10.3898
如前	-10.39
不與物	-10.3905
礬石	-10.3905
局	-10.3905
偷	-10.3908
寂然不動	-10.391
隙	-10.3911
筒	-10.3911
洽	-10.3911
雞子	-10.3912
軸	-10.3912
援	-10.3912
章第三十	-10.3914
瑕	-10.3917
能勝	-10.3917
治也	-10.392
之由	-10.3925
不拘	-10.3934
八十	-10.3935
之治	-10.3942
澹	-10.3944
謙下	-10.3947
東西	-10.3949
大象	-10.3951
流行	-10.3954
直符	-10.3954
其精	-10.3956
前章	-10.3957
教以	-10.3959
以觀	-10.3961
能行	-10.3962
啼	-10.3962
癢	-10.3968
挾	-10.3969
恨	-10.3969
癰	-10.397
者不以	-10.3973
之過	-10.3973
去來	-10.3975
孝慈	-10.3975
積德	-10.3977
殖	-10.3978
爲己	-10.3979
燒香	-10.3983
每日	-10.3984
人之生也	-10.3988
兼愛	-10.3989
從此	-10.399
之自然	-10.3994
衆人之	-10.3994
猶未	-10.4
使其	-10.4004
有爲也	-10.4006
悶悶	-10.4025
不怒	-10.4026
抱一子曰	-10.4029
臘	-10.4029
有待	-10.4029
口訣	-10.4031
墟	-10.4032
弄	-10.4033
貪求	-10.4033
中道	-10.4033
之樂	-10.4034
此理	-10.4038
甘露	-10.4039
百官	-10.4039
億萬	-10.4042
未有不	-10.4043
如法	-10.4044
而又	-10.4048
人之心	-10.4051
於上	-10.4059
分爲	-10.4064
物各	-10.4066
自謂	-10.4068
䘮	-10.4068
六兩	-10.4068
無道	-10.407
葉如	-10.4076
恐其	-10.4076
大將軍	-10.4079
玉皇	-10.4081
在位	-10.4082
瘻	-10.4088
允	-10.4088
憂患	-10.4089
駐	-10.4089
灑	-10.4089
何以知	-10.409
巽	-10.4093
吕氏曰	-10.4093
難得	-10.41
四時之	-10.4101
獨化	-10.4102
去滓	-10.4103
八卦	-10.4113
燒之	-10.4113
古之善	-10.4118
兩句	-10.412
南面	-10.4122
與道合	-10.4124
乃至	-10.4128
未見	-10.4132
望之	-10.4135
榮華	-10.4137
無味	-10.4137
火燒	-10.4138
禍患	-10.414
因而	-10.4142
爲正	-10.4143
旅	-10.4143
後人	-10.4145
恤	-10.4148
遞	-10.4148
協	-10.4149
寤	-10.4149
飮	-10.415
范	-10.4159
用火	-10.416
而已故	-10.4164
所歸	-10.4164
必以	-10.4168
與化	-10.4176
曾青	-10.4177
此即	-10.4178
九州	-10.419
千年	-10.4193
傷寒	-10.4194
俞	-10.4204
醇	-10.4205
練	-10.4209
唾	-10.4211
道之體	-10.4214
旌	-10.4214
四象	-10.4216
之端	-10.4223
泥丸	-10.4228
㸃	-10.4232
病也	-10.4233
壺	-10.4239
不矜	-10.424
正道	-10.424
相爲	-10.4241
爲是	-10.4245
相傾	-10.4246
眞氣	-10.425
形也	-10.4253
渾沌	-10.4254
不從	-10.4259
而後有	-10.4261
胞	-10.4263
旺	-10.4266
太陰	-10.4268
截	-10.4268
於天地	-10.4271
邈	-10.4277
法令	-10.4281
相因	-10.4282
不悟	-10.4286
故得	-10.4286
易之	-10.4291
不利	-10.4294
門户	-10.43
則可	-10.4304
者常	-10.4304
不遠	-10.4306
令乾	-10.4319
歇	-10.432
蚊	-10.4323
莽	-10.4325
窒	-10.4329
彫	-10.433
逾	-10.433
別	-10.433
銚	-10.433
在地	-10.4335
以此爲	-10.4338
故不可	-10.4345
支離	-10.435
而况	-10.4355
泊	-10.4357
陰氣	-10.4358
運行	-10.4359
盡矣	-10.4359
不須	-10.4364
玉清	-10.4365
絶學	-10.4366
其知	-10.4367
以善	-10.4373
孽	-10.4377
不傷人	-10.4378
不散	-10.4379
菌	-10.4381
而不知其所	-10.4384
黜	-10.4386
蔡	-10.4388
聘	-10.4388
不老	-10.4389
鬳齋云	-10.439
邇	-10.4391
敏	-10.4392
場	-10.4392
無端	-10.4393
酬	-10.4397
章第四	-10.4398
章第六	-10.4402
文云	-10.4403
子産	-10.4409
其死也	-10.4411
離乎	-10.4414
韋	-10.4421
所不知	-10.4426
何哉	-10.4431
道在	-10.4433
之稱	-10.4434
而可	-10.4436
斲	-10.4448
而失	-10.4448
彭祖	-10.4449
奮	-10.445
昭王	-10.445
促	-10.4451
接物	-10.4451
較	-10.4452
綸	-10.4452
挺	-10.4452
馮	-10.4453
籥	-10.4454
幹	-10.4456
鬚	-10.4457
僧	-10.4457
皮膚	-10.4468
所惡	-10.4476
應用	-10.4477
配天	-10.4481
自古	-10.4482
無求	-10.4486
三尸	-10.4488
火養	-10.4489
推之	-10.4489
皆有之	-10.4494
其文	-10.4495
與道同	-10.4498
不齊	-10.4499
無名之樸	-10.4505
無失	-10.4506
此章言	-10.4506
幣	-10.4509
脅	-10.451
子路	-10.451
伏願	-10.4511
死之徒	-10.4512
秤	-10.4512
螫	-10.4513
挈	-10.4514
詠	-10.4514
揭	-10.4515
愛人	-10.4522
摧	-10.4523
獵	-10.4526
點化	-10.4533
全生	-10.4536
爲先	-10.4542
四年	-10.4543
吾心	-10.4554
大矣	-10.456
異名	-10.4564
樓觀	-10.4565
矩	-10.4565
上善	-10.4565
化也	-10.4566
魅	-10.4566
鐺	-10.4568
稷	-10.4571
人欲	-10.4572
眠	-10.4573
剪	-10.4579
邀	-10.4581
閭	-10.4581
闡	-10.4581
踰	-10.4583
至柔	-10.4591
其君	-10.4593
也然則	-10.4604
時人	-10.4608
地名	-10.461
崔本作	-10.4623
在彼	-10.4623
亢倉子	-10.4624
苦酒	-10.4628
鼔	-10.4628
鈎	-10.4632
蘄	-10.4632
蕪	-10.4634
戈	-10.4634
蝕	-10.4634
渡	-10.4643
裳	-10.4644
祛	-10.4644
道之所	-10.4648
其德乃	-10.4652
所求	-10.4653
不尚賢	-10.4658
開元	-10.4659
萬神	-10.4664
以相	-10.4667
惡之	-10.4668
此物	-10.4669
者明	-10.4674
聖人以	-10.4679
爲名	-10.4679
積聚	-10.4682
棘	-10.4686
全而	-10.4689
俗學	-10.4691
而往	-10.4691
犀	-10.4693
粹	-10.4698
盛德	-10.4698
滴	-10.4702
不載	-10.4703
渠	-10.4709
運轉	-10.4711
不竭	-10.4711
戒者不得	-10.4715
修鍊	-10.4715
貧賤	-10.4717
屠	-10.4719
傳之	-10.4719
三天	-10.4724
本也	-10.4724
然有	-10.4729
抵	-10.473
千二百	-10.474
甚矣	-10.4742
不言之教	-10.4745
不惑	-10.4746
人倫	-10.4746
與此	-10.4747
從事	-10.4748
蘆	-10.4753
膚	-10.4756
譽之	-10.4758
必然	-10.4759
瘟	-10.4763
枯槁	-10.4763
無益	-10.4764
吿	-10.4768
師之	-10.4768
調和	-10.4768
物莫能	-10.477
厨	-10.477
誥	-10.4771
音聲	-10.4771
鄕	-10.4775
萬有	-10.4777
本性	-10.4779
堯之	-10.4781
能制	-10.4786
而勿	-10.4791
理身	-10.4792
多言	-10.4807
善用	-10.481
何足以	-10.4819
惟聖人	-10.4821
其說	-10.4821
以心	-10.4822
䰟	-10.4823
順也	-10.4824
杯	-10.4826
無爲者	-10.4828
樂之	-10.4829
從事於	-10.483
艮	-10.4833
白色	-10.4833
嚥	-10.4834
蜕	-10.4835
貝	-10.4835
儼	-10.4836
涕	-10.4837
羹	-10.4837
此書	-10.4843
東南	-10.4849
忘我	-10.4853
土釜	-10.4854
眞仙	-10.4856
此篇	-10.4858
禮者	-10.4861
有司	-10.4861
龍芽	-10.4865
大王	-10.4865
墨子	-10.4878
清濁	-10.4878
至妙	-10.4878
方其	-10.4879
之原	-10.488
所及	-10.4884
之容	-10.4885
安其	-10.4886
皆得	-10.4888
繼之	-10.4888
治亂	-10.4889
沐	-10.4891
害之	-10.4891
欲使	-10.4891
籌	-10.4891
慄	-10.4893
天一	-10.4894
渝	-10.4895
無定	-10.4895
篆	-10.4895
非眞	-10.4895
羲	-10.4898
奕	-10.4898
若乃	-10.4903
妙理	-10.4903
有五	-10.4905
大帝	-10.4909
丹經	-10.491
體用	-10.4911
血脉	-10.4912
至今	-10.4919
諸藥	-10.492
八石	-10.492
失性	-10.4921
有國	-10.4922
心之所	-10.4924
者可	-10.493
閉氣	-10.4931
安知	-10.4933
不足以爲	-10.4933
非吾	-10.4934
無人	-10.4945
更相	-10.4947
有道之士	-10.4947
不能知	-10.4948
韜	-10.4948
能使	-10.4949
和合	-10.4952
上仙	-10.4954
屨	-10.4954
常德	-10.4955
赤石脂	-10.4955
喙	-10.4959
脛	-10.4959
征	-10.4959
神器	-10.496
各有所	-10.4961
掇	-10.4961
相隨	-10.4962
四大	-10.4962
渺	-10.4962
賀	-10.4963
皓	-10.4963
電	-10.4965
山澤	-10.4968
自無	-10.4971
多有	-10.4975
骸	-10.4978
道之用	-10.4979
五斤	-10.4981
之流	-10.4983
將來	-10.4988
藏之	-10.4991
善哉	-10.4995
窈	-10.4996
太素	-10.4998
玄天	-10.5
由此	-10.5001
無一	-10.5002
度人	-10.5004
一斗	-10.5006
三人	-10.5008
什	-10.5017
茯苓	-10.5021
之具	-10.5022
剥	-10.5023
亨	-10.5025
雲母	-10.5026
而入	-10.5027
罕	-10.503
在外	-10.5031
祭祀	-10.5033
齡	-10.5033
以形	-10.5033
消渴	-10.5035
傳云	-10.5036
應化	-10.5036
取此	-10.5037
色如	-10.5042
復歸	-10.5043
虚極	-10.5046
爲奇	-10.5049
燒灰	-10.505
二曰	-10.5051
五常	-10.506
天下莫不	-10.5069
爲心	-10.5071
而不窮	-10.5072
知我	-10.5072
黄庭	-10.5073
大成	-10.5077
何由	-10.508
者哉	-10.5083
情性	-10.5086
諾	-10.5087
金瘡	-10.509
爲常	-10.509
頸	-10.509
囚	-10.5091
鬻	-10.5092
中心	-10.5093
訥	-10.5093
戀	-10.5093
爵禄	-10.5094
狄	-10.5094
言我	-10.51
與神	-10.5103
轡	-10.5104
壽夭	-10.5105
惠施	-10.5106
則不然	-10.5109
一字	-10.511
太白	-10.5111
三光	-10.5115
物而不	-10.5115
而至	-10.5118
大順	-10.5124
乎哉	-10.5134
床	-10.5137
十斤	-10.5138
不愛	-10.5138
與世	-10.5141
無爲之道	-10.5142
冥冥	-10.5144
趾	-10.5148
當其	-10.5149
豈得	-10.5151
争	-10.5151
蠻	-10.5153
羡	-10.5153
入山	-10.5154
詮	-10.5155
遜	-10.5155
低	-10.5157
難得之貨	-10.5158
勤行	-10.5162
六根	-10.5165
比於	-10.5167
斯乃	-10.5169
至誠	-10.517
言此	-10.5171
尊貴	-10.5177
湯武	-10.5183
不聽	-10.5186
而言之	-10.5187
其自然	-10.5192
者猶	-10.5195
穆	-10.5198
長久	-10.5201
牛馬	-10.5201
之爲物	-10.5202
如彼	-10.5207
恱	-10.521
天下之物	-10.5212
豉	-10.5216
討	-10.522
南華眞經	-10.5221
王元澤曰	-10.5221
而獨	-10.5222
潰	-10.5223
爲非	-10.5225
室中	-10.5225
瘦	-10.5228
萊	-10.5229
叟	-10.5229
躡	-10.5231
二三	-10.5232
虔	-10.5233
微寒	-10.5235
墳	-10.5235
封固	-10.5237
其内	-10.5238
腹痛	-10.524
滋味	-10.5241
聞見	-10.5241
養性	-10.5244
未盡	-10.5246
降生	-10.5247
三一	-10.5249
萬法	-10.525
貨財	-10.5254
方外	-10.5262
無外	-10.5266
乎夫	-10.5268
有數	-10.527
不材	-10.5275
祝曰	-10.5276
聖德	-10.5276
多則	-10.5276
誰能	-10.5279
而猶	-10.528
臟	-10.5282
駢	-10.5282
桀紂	-10.5288
道君	-10.5289
混成	-10.5289
阜	-10.5289
裘	-10.5291
蠟	-10.5292
肇	-10.5293
劑	-10.5293
人之性	-10.5294
循環	-10.5296
求道	-10.5299
酢	-10.5299
壓	-10.5299
也是以聖人	-10.53
隱於	-10.5308
制之	-10.5313
以神	-10.5315
詩曰	-10.5328
妾	-10.5329
六丁	-10.533
達於	-10.5335
藍	-10.5336
中風	-10.534
通靈	-10.5342
往往	-10.5342
安於	-10.5345
不作	-10.5346
玄珠	-10.5347
若欲	-10.535
呈	-10.5353
謗	-10.5359
零	-10.5361
懇	-10.5362
惡人	-10.5362
紫金	-10.5363
發明	-10.5365
而易	-10.5366
禹錫云按	-10.5366
不離於	-10.537
去聲	-10.5377
漸漸	-10.5378
執一	-10.538
神全	-10.5384
上章	-10.5388
忠臣	-10.5393
反本	-10.5398
之大者	-10.5402
白雲	-10.5411
皆爲	-10.5416
兩儀	-10.5418
肘	-10.5419
企	-10.542
名譽	-10.542
臣某	-10.5422
久服	-10.5422
智巧	-10.5423
因物	-10.5426
吾將	-10.5426
也萬物	-10.5427
脹	-10.5428
抗	-10.5429
癡	-10.5433
天上	-10.5439
則道	-10.5439
梵	-10.5441
聞而	-10.5444
陛下	-10.5448
是則	-10.545
六經	-10.5451
則死	-10.5457
星辰	-10.5458
將恐	-10.5459
其外	-10.5462
不憂	-10.5466
而退	-10.5467
衣食	-10.5469
終於	-10.5474
無疵	-10.5479
不遇	-10.5486
股	-10.5492
明日	-10.5492
之尊	-10.5494
陣	-10.5495
腥	-10.5495
拾	-10.5495
姬	-10.5495
二百	-10.5496
三公	-10.5496
謫	-10.5501
巡	-10.5501
梨	-10.5502
一粒	-10.5502
狸	-10.5503
之野	-10.5504
則萬物	-10.5504
正也	-10.5504
曾不	-10.5511
而不用	-10.5513
羣生	-10.5523
任其自	-10.5524
碧虚註	-10.5527
方寸	-10.5532
縫	-10.5546
於理	-10.5548
也莊子曰	-10.555
存神	-10.5551
無復	-10.5555
廣成子	-10.556
爲師	-10.5562
其父	-10.5562
之難	-10.5565
擅	-10.5566
托	-10.5568
虎狼	-10.5569
脯	-10.5571
自非	-10.5574
爲物所	-10.5576
弼	-10.5583
法道	-10.5584
得所	-10.5586
五千	-10.5588
不滯	-10.5589
知所	-10.5594
有事	-10.5594
無德	-10.5596
而不敢	-10.5608
眞鉛	-10.561
合而	-10.5612
往而	-10.5618
爲惡	-10.5618
跖	-10.5624
硝	-10.5627
知之所	-10.5633
鬥	-10.5634
團	-10.5634
楊子	-10.5635
僅	-10.5635
失也	-10.5636
慰	-10.5638
爲利	-10.5638
隋	-10.5641
以禮	-10.5645
此數	-10.5647
清和	-10.5652
道行	-10.5654
不務	-10.5655
也苟	-10.5656
體道者	-10.5658
捨其	-10.5659
五升	-10.5666
福地	-10.5669
爲道者	-10.5676
河伯	-10.5679
一句	-10.5691
世世	-10.5691
爲宗	-10.5692
勝人	-10.5693
日出	-10.5695
顚	-10.57
鵲	-10.57
全也	-10.5702
勾	-10.5704
入水	-10.5704
忘功	-10.5705
肌膚	-10.5705
麟	-10.5708
居之	-10.5708
邁	-10.571
讚	-10.5711
終南	-10.5711
之語	-10.5712
之人也	-10.5715
成就	-10.5715
剛柔	-10.5715
隨其	-10.5717
從容	-10.5726
空中	-10.573
又法	-10.5735
所受	-10.5736
故物	-10.574
何異	-10.5749
之用也	-10.5751
槁	-10.5763
無爲故	-10.5764
曽	-10.5765
袋	-10.5766
四子	-10.5767
冝	-10.5768
蹇	-10.5771
陟	-10.5771
江湖	-10.5772
天尊志心歸命	-10.5772
同其塵	-10.5774
不和	-10.5774
衆妙之門	-10.5775
簿	-10.5776
呵	-10.5777
誨	-10.5779
蠱毒	-10.5781
凡此	-10.5784
煎取	-10.5786
能守	-10.5789
隴	-10.5789
内觀	-10.5792
四句	-10.5792
通神	-10.5794
是皆	-10.5801
已來	-10.5804
尚賢	-10.5817
以虚	-10.5824
别有	-10.5824
生育	-10.5824
无形	-10.5827
謂我	-10.5828
百二十	-10.5835
大宗師	-10.5838
踈	-10.584
鞭	-10.5841
不差	-10.5842
江河	-10.5843
人得	-10.5847
玄之又玄	-10.5847
窈冥	-10.5851
愛民	-10.5856
仗	-10.5857
道經	-10.5858
自愛	-10.5859
通玄	-10.5862
所作	-10.5869
三分	-10.5872
不留	-10.5873
初生	-10.5874
此心	-10.5877
人謂之	-10.5886
武當	-10.5889
不雜	-10.589
金水	-10.5895
失其所	-10.5902
武帝	-10.5907
槐	-10.591
之首	-10.5911
刳	-10.5914
勿食	-10.5916
貴乎	-10.5916
牒	-10.5916
拯	-10.5917
祖師	-10.5919
揆	-10.592
搜	-10.5921
偉	-10.5922
六一泥	-10.5922
又音	-10.5922
之禮	-10.5926
精微	-10.5928
此又	-10.5931
大如	-10.5931
義云	-10.5935
皆同	-10.594
病者	-10.5947
飲酒	-10.5948
二篇	-10.5949
何能	-10.5951
於是乎	-10.5952
不善人	-10.5953
不順	-10.5959
雖異	-10.5967
不解	-10.5967
聖知	-10.5973
歎曰	-10.5975
亦不可	-10.5978
糠	-10.5978
拭	-10.5983
雷公	-10.5984
德全	-10.5984
而神	-10.5986
俯仰	-10.5987
無涯	-10.5989
憚	-10.5989
庫	-10.5989
這	-10.5989
勒	-10.5991
可知矣	-10.5991
饒	-10.5993
鱉	-10.5994
無他	-10.5994
可使	-10.5995
爲萬物	-10.5995
愍	-10.5996
裕	-10.5996
有分	-10.5998
其在	-10.5999
庚申	-10.6
天樂	-10.6006
貼身	-10.6007
宫室	-10.6011
爲美	-10.6011
於自然	-10.6013
盡性	-10.6017
入道	-10.6022
無傷	-10.6031
貢	-10.6034
八極	-10.604
名字	-10.6041
温無毒主	-10.6041
十里	-10.6042
也此章明	-10.6043
感應	-10.6044
章句	-10.6052
术	-10.6055
跪	-10.6055
仙官	-10.6056
戒之	-10.6059
用智	-10.606
鮑叔	-10.606
栖	-10.606
三曰	-10.6065
非聖人	-10.6066
亘	-10.6066
道本無	-10.6067
道人	-10.6067
伏羲	-10.6067
損益	-10.6067
此符	-10.6069
養形	-10.6069
麻子	-10.6069
知其所	-10.607
火之	-10.6071
深遠	-10.608
南北	-10.6082
在身	-10.6085
忘形	-10.6085
學人	-10.6089
建立	-10.6091
恠	-10.6091
離道	-10.6097
度世	-10.61
既已	-10.6101
反司馬云	-10.6101
三百六十	-10.6101
類也	-10.6101
坦	-10.6103
不學	-10.6103
歸往	-10.6103
而民自	-10.6106
等分	-10.6107
以奉	-10.6107
有罪	-10.6109
同歸	-10.6112
不二	-10.6114
無敗	-10.6115
罡	-10.6117
要在	-10.6121
和其光	-10.6127
其鬼不神	-10.6129
損之又損	-10.6132
蒜	-10.6139
握固	-10.615
亦能	-10.615
盡也	-10.6152
三四	-10.6155
以道德	-10.6157
未聞	-10.6161
而進	-10.6162
不達	-10.6167
洞神	-10.617
夫婦	-10.6182
畏之	-10.6189
而不見其	-10.619
冷氣	-10.6195
詩云	-10.6196
良乆	-10.6197
者言其	-10.6198
純粹	-10.6203
苑	-10.6204
四面	-10.6206
梓	-10.6206
瓠	-10.6208
乆服	-10.6208
同謂之玄	-10.6209
遯	-10.6209
復有	-10.6209
第一百	-10.6209
是謂玄德	-10.621
聖惠方治	-10.6212
疳	-10.6216
眞人曰	-10.6233
者良	-10.6235
心神	-10.6237
待之	-10.6246
若是者	-10.625
之理也	-10.6256
學士	-10.6257
天性	-10.6261
自伐	-10.6261
不知道	-10.6268
神通	-10.6268
南海	-10.6268
磁	-10.6278
綵	-10.6282
攫	-10.6283
恢	-10.6283
難知	-10.6284
刑罰	-10.6285
餐	-10.6286
無害	-10.6287
足矣	-10.6287
膺	-10.6288
不辭	-10.6293
徐徐	-10.6294
未生	-10.6297
大方	-10.6301
而不以	-10.6302
損之	-10.6304
得道之	-10.6308
十一月	-10.6309
華山	-10.6313
道本	-10.6314
昊	-10.6316
冲和	-10.6319
之禍	-10.6319
地獄	-10.6324
千歲	-10.6327
至寳	-10.6328
不廢	-10.6338
六日	-10.634
爲仁	-10.6345
服藥	-10.6349
相代	-10.6351
齧缺	-10.6351
癥	-10.6352
顛	-10.6353
水土	-10.6355
澀	-10.6355
屈伸	-10.6356
愚人	-10.6357
一致	-10.6359
齎	-10.6359
昨	-10.6359
一道	-10.636
姜	-10.636
鄧	-10.6361
寒無毒主	-10.6362
一炁	-10.6364
臭腐	-10.6365
禍亂	-10.6366
以仁義	-10.6367
携	-10.6369
用力	-10.6372
而不見	-10.6373
第三十	-10.6373
亂也	-10.6374
形名	-10.6374
之志	-10.6378
不畏死	-10.6398
其家	-10.6398
清明	-10.6398
樂推	-10.64
輕敵	-10.6402
人臣	-10.6404
不自見	-10.6409
消滅	-10.6409
一章	-10.6413
吾所以	-10.6418
和平	-10.6419
諧	-10.6421
示人	-10.6424
多方	-10.6424
寡欲	-10.6426
世界	-10.6426
平易	-10.6426
豁	-10.643
攀	-10.6431
於物而	-10.6433
濱	-10.6435
橐	-10.6435
裝	-10.6436
益生	-10.6437
西南	-10.6439
酥	-10.6439
猛獸	-10.6441
子綦	-10.6442
所載	-10.6445
赤色	-10.6449
行乎	-10.6453
純陽	-10.6457
老氏之	-10.6458
解之	-10.6463
不自知	-10.6467
赤白	-10.6475
得之以	-10.6485
華子	-10.6491
注同	-10.6491
記云	-10.6494
橘	-10.6502
膿	-10.6505
耻	-10.6506
督	-10.6506
垣	-10.6507
填	-10.6508
竿	-10.6508
衒	-10.6509
亦以	-10.6509
戰勝	-10.6521
十有三	-10.6523
智力	-10.6528
不修	-10.6538
非所以	-10.6545
不亡	-10.6548
其餘	-10.6556
金木	-10.6559
與時	-10.656
衆妙	-10.6561
本又作	-10.6561
候冷	-10.657
王母	-10.6571
道場	-10.6572
胷	-10.6574
羿	-10.6575
無心於	-10.6576
二斤	-10.6576
毬	-10.6578
可畏	-10.6579
凍	-10.6582
寂寞	-10.6583
鉢	-10.6583
酌	-10.6584
生薑	-10.6585
畝	-10.6587
壺子	-10.6591
藻	-10.6592
倚伏	-10.6596
之業	-10.6602
心痛	-10.6603
無以爲	-10.6611
更生	-10.6615
此莊子	-10.6622
未始有物	-10.6624
識者	-10.6625
以天下爲	-10.6628
亦名	-10.6631
自然而然	-10.6637
椿	-10.664
昔之	-10.664
離散	-10.664
大豆	-10.664
百八十	-10.6641
八十一	-10.6648
觔	-10.6649
上聖	-10.665
篩	-10.665
枝葉	-10.6655
渾淪	-10.6655
我身	-10.6658
樊	-10.6658
貺	-10.6659
曾史	-10.666
蓄	-10.666
惑於	-10.666
用藥	-10.6661
平無毒主	-10.6663
疼痛	-10.6663
洎	-10.6663
構	-10.6664
疇	-10.6666
寰	-10.6671
册	-10.6672
鈔莊子	-10.6677
能治	-10.6683
地黄	-10.6684
皆在	-10.6686
執之	-10.6695
宗廟	-10.6703
諸家	-10.6708
近於	-10.6713
知天	-10.6719
無象	-10.6728
炊	-10.673
蠱	-10.6731
之盛	-10.6732
善治	-10.6733
帔	-10.6735
株	-10.6736
蛻	-10.6737
熙	-10.6737
之風	-10.6738
繡	-10.6738
道眞仁靜先生曹道冲曰	-10.6738
怯	-10.6739
𤇨	-10.6739
則傷	-10.6739
表裏	-10.674
幾何	-10.6743
津液	-10.6744
不移	-10.6745
廼	-10.6745
如水之	-10.6748
法用	-10.6756
天皇	-10.6761
仙經	-10.6762
又用	-10.6764
如嬰兒	-10.6773
察其	-10.6777
有實	-10.6777
而有之	-10.6778
率性	-10.6783
衆人之所	-10.6789
迷惑	-10.679
當須	-10.6792
此之謂也	-10.6795
甲兵	-10.6795
此兩者	-10.6804
傷害	-10.6808
至虚	-10.6809
宏	-10.681
茫	-10.6812
立功	-10.6813
警	-10.6814
嵗	-10.6816
控	-10.6819
嗽	-10.682
妙有	-10.682
啖	-10.682
蟾	-10.6821
夙	-10.6822
圖經	-10.6822
變爲	-10.6826
但以	-10.6828
先須	-10.6828
太易	-10.6835
百川	-10.6836
而明	-10.6838
欲其	-10.6844
爲政	-10.6848
容貌	-10.6854
信也	-10.6859
大抵	-10.686
善勝	-10.6867
故舉	-10.6874
安寧	-10.688
事事	-10.6884
字子	-10.6891
動之死地	-10.6892
襌	-10.6893
謂之道	-10.6894
於人也	-10.6894
洲	-10.6895
焰	-10.6896
也盧曰	-10.6897
無二	-10.6898
鎖	-10.6898
摘	-10.6898
餘怨	-10.6898
提點	-10.6899
捧	-10.6901
政教	-10.6902
而任之	-10.6913
禍福之	-10.6914
至貴	-10.6916
三官	-10.6916
所說	-10.6917
也莊子	-10.692
乃所以	-10.6924
萬物之所	-10.6926
浮丘	-10.6926
平旦	-10.6933
十丸	-10.6935
萬物之母	-10.6936
日乾	-10.6941
逆順	-10.6942
妻子	-10.6944
飛昇	-10.6951
立教	-10.6951
无窮	-10.6965
自己	-10.6966
灼	-10.6967
決	-10.6967
自貴	-10.6968
至神	-10.6968
剉	-10.6969
數百	-10.697
同塵	-10.697
嚴曰	-10.6971
不任	-10.6971
世有	-10.6971
熏	-10.6973
溟	-10.6973
孚	-10.6974
軒冕	-10.6975
亳	-10.6977
揖	-10.6977
杳	-10.6977
由其	-10.6979
吴氏曰	-10.6979
武侯	-10.698
眷	-10.698
通達	-10.6995
願聞	-10.6998
處處	-10.6998
不懼	-10.7005
哉夫	-10.7013
爲地	-10.7017
於無形	-10.7017
八方	-10.7022
立言	-10.7025
而走	-10.7025
不得其	-10.7027
聖祖	-10.703
反徐	-10.7044
乆而	-10.7045
茹	-10.7048
輸	-10.7049
轅	-10.7052
或爲	-10.7053
髪	-10.7056
豹	-10.7056
珪	-10.7056
之害	-10.7059
濯	-10.7059
妃	-10.7061
代之	-10.7062
之政	-10.7076
相傳	-10.7084
十一年	-10.7093
笑曰	-10.7095
人不能	-10.7096
休息	-10.7101
也吕註	-10.7101
生而不有	-10.711
不逆	-10.7114
其法	-10.7115
籟	-10.7116
强爲	-10.7118
眞實	-10.7119
爲害	-10.7121
未兆	-10.7123
郤	-10.7125
瞿	-10.7125
罐	-10.7133
秪	-10.7134
拳	-10.7135
姚	-10.7137
怡	-10.7138
細剉	-10.7138
話	-10.7138
巴	-10.714
叅	-10.7141
穹	-10.7143
不問	-10.7148
子貢曰	-10.715
草木之	-10.7151
悉皆	-10.7154
齊國	-10.7154
以手	-10.7154
於道也	-10.7154
不可知	-10.7154
不可食	-10.7155
相感	-10.7158
窮通	-10.7167
文章	-10.7168
之號	-10.7171
候乾	-10.7171
也雖然	-10.7175
但見	-10.7178
故稱	-10.7179
下流	-10.718
域中	-10.7184
王侯	-10.7187
遂使	-10.7192
危亡	-10.7199
中宫	-10.72
瀝	-10.7207
六氣	-10.7207
爾雅	-10.7209
皂	-10.7209
穗	-10.721
之基	-10.721
蘧	-10.7211
丞	-10.7215
二十日	-10.7215
不貴難得之貨	-10.7215
毗	-10.7216
犢	-10.7217
喬	-10.7217
伎	-10.7218
曲則全	-10.7219
先王	-10.7219
駟馬	-10.722
暉	-10.7221
柰何	-10.7224
天柱	-10.7225
乃爲	-10.7226
一合	-10.7228
知道者	-10.723
祖庭	-10.7238
國王	-10.7243
物不能	-10.7247
之辭也	-10.7253
河東	-10.7255
制伏	-10.7257
也崔云	-10.726
法式	-10.7264
之所生	-10.7265
小腸	-10.7271
矣且	-10.7281
先人	-10.7282
甕	-10.7287
而民不	-10.7291
杜光庭	-10.7292
二分	-10.7297
壘	-10.7297
載營魄	-10.7298
上善若水	-10.7299
生死之	-10.7299
汲	-10.73
哲	-10.7302
以天	-10.7303
惡死	-10.7303
杳冥	-10.7305
夫至人	-10.7307
以有爲	-10.7308
莫如	-10.7309
無過	-10.7318
史記	-10.732
眞一	-10.7321
遣使	-10.7326
惟道	-10.7326
有心於	-10.7331
兮若	-10.7332
安有	-10.7334
耳夫	-10.7346
已有	-10.7353
守柔	-10.7354
在心	-10.7359
御注	-10.7363
有迹	-10.7364
者何也	-10.7365
自失	-10.7372
夫子之	-10.7373
不中	-10.7374
指歸	-10.7375
匙	-10.7376
六年	-10.7376
疣	-10.7376
効	-10.7377
生之畜之	-10.7378
尉	-10.7379
鮑	-10.7381
貯	-10.7381
清源子劉驥曰	-10.7381
正性	-10.7382
洩	-10.7385
餓	-10.7386
蘿	-10.7387
一宿	-10.7389
性情	-10.7391
各異	-10.7391
自全	-10.7391
雌靜	-10.7392
鄧析	-10.7393
味鹹	-10.7393
朱書	-10.7399
至言	-10.7401
匹夫	-10.7402
處下	-10.7403
與夫	-10.741
人之情	-10.7411
重玄	-10.7412
從官	-10.7414
之時也	-10.7418
河車	-10.7421
篇曰	-10.7422
八景	-10.7424
反覆	-10.7426
流珠	-10.7433
丗	-10.7445
侮之	-10.7446
之藥	-10.7446
聖人之心	-10.745
用道	-10.7453
徂	-10.7459
釐	-10.746
管仲	-10.7462
不改	-10.7462
梗	-10.7463
褚伯秀	-10.7464
郷	-10.7465
此道者	-10.7466
利用	-10.7479
萬物莫不	-10.748
千餘	-10.7483
在其中	-10.7493
故君子	-10.7511
因時	-10.7513
無滯	-10.7515
周公	-10.7519
有身	-10.7522
同研	-10.7527
之類也	-10.7527
不貪	-10.7528
不殆	-10.7529
舎	-10.7532
匱養	-10.7534
它	-10.7534
而不能自	-10.7535
又方	-10.7536
與萬物	-10.7538
劌	-10.7543
研如粉	-10.7546
替	-10.7547
貽	-10.7549
黃茂材曰	-10.7549
阻	-10.755
太史	-10.755
誣	-10.7551
涎	-10.7552
人力	-10.7559
溺於	-10.7561
潤澤	-10.7565
獨有	-10.7569
何足	-10.7572
輕死	-10.7573
之過也	-10.7574
無色	-10.7575
濟物	-10.7576
炭火	-10.7581
究其	-10.7581
持之	-10.7587
上品	-10.7588
道無形	-10.7589
事無事	-10.7589
爲丸	-10.759
次以	-10.7593
道化	-10.7594
化成	-10.7594
苟得	-10.7601
如斯	-10.7606
無分别	-10.7614
天然	-10.7619
形色	-10.762
釋氏	-10.7621
一一	-10.7621
道生一	-10.7622
有力	-10.7625
亮	-10.7626
有間	-10.7627
漂	-10.7627
芸芸	-10.7629
瞀	-10.763
怵	-10.7632
章第五	-10.7633
伺	-10.7634
擲	-10.7635
菊	-10.764
二尺	-10.7644
那	-10.7644
弩	-10.7646
正氣	-10.7648
分外	-10.7648
土木	-10.765
不擇	-10.7653
混然	-10.7659
有形者	-10.766
然哉	-10.7662
骨肉	-10.7663
正直	-10.7664
王弼	-10.7665
致虚	-10.7668
百歲	-10.7669
無爭	-10.7671
設教	-10.7671
傳授	-10.7673
信不足	-10.7673
樂殺人	-10.7673
得喪	-10.7674
而忘其	-10.7675
微言	-10.7676
牖	-10.7679
老人	-10.7687
莖葉	-10.7688
本乎	-10.7689
目之	-10.7692
泰山	-10.7694
天下有道	-10.77
蓋謂	-10.7703
疰	-10.7705
一盞	-10.7705
而得之	-10.7706
不可得也	-10.7711
熙熙	-10.7712
喘	-10.7715
:	-10.7715
瞽	-10.7715
七元	-10.7717
吕吉甫曰	-10.7718
千變萬化	-10.7719
代大匠斲	-10.7719
寒主	-10.7719
西昇經	-10.7721
蕩蕩	-10.7726
恃其	-10.7728
保命	-10.773
大德	-10.773
東北	-10.7731
種種	-10.7741
互相	-10.7743
皆因	-10.7748
流水	-10.7749
無礙	-10.7756
以救	-10.7768
此語	-10.7768
身存	-10.7785
則所謂	-10.7788
諛	-10.7792
攣	-10.7797
檀	-10.7797
諸法	-10.7798
沫	-10.7799
延生	-10.78
吁	-10.7801
囂	-10.7804
知常曰明	-10.7804
郞	-10.7804
鬭	-10.7805
汨	-10.7805
秩	-10.7806
買	-10.7806
瓷	-10.7807
董	-10.7808
俄而	-10.7808
姿	-10.7812
委蛇	-10.7815
神王	-10.7815
増	-10.7818
金色	-10.782
末世	-10.7826
伯夷	-10.7829
萬物之宗	-10.784
吾聞	-10.7844
必敗	-10.7848
盛衰	-10.7852
則無以	-10.7853
五行之	-10.7853
周天	-10.7857
必至	-10.7858
非特	-10.7872
郢	-10.7873
萬靈	-10.7876
一枚	-10.7881
不宰	-10.7882
虚其心	-10.7884
自守	-10.7884
芻	-10.7887
辜	-10.7887
孤寡	-10.7888
又能	-10.7889
婆	-10.789
功行	-10.7895
天地之大	-10.7898
德經注云	-10.7899
痿	-10.7901
順天	-10.7901
不下	-10.791
微温	-10.7919
無往而不	-10.7923
天文	-10.7924
此其所以	-10.7931
萬物之理	-10.7934
期於	-10.7937
俗爲	-10.7941
救人	-10.7949
一半	-10.795
復性	-10.7952
不煩	-10.7956
亦無所	-10.7967
邵	-10.7968
物理	-10.7969
怕	-10.7971
緘	-10.7974
無心而	-10.7974
德充	-10.7974
茱萸	-10.7975
軫	-10.7976
手執	-10.7977
憍	-10.7977
裴	-10.7978
葆	-10.7978
孤寡不穀	-10.7978
撮	-10.7979
不知其所	-10.798
沛	-10.798
懴	-10.7981
侔	-10.7982
系	-10.7986
煮之	-10.7986
旗	-10.7987
但當	-10.7987
任之	-10.7991
於道者	-10.7996
酒服	-10.7999
入鼎	-10.8003
亡國	-10.8006
動植	-10.8007
乃得	-10.8013
有道之君	-10.8015
文帝	-10.8016
精粗	-10.8017
頭痛	-10.8017
固非	-10.802
精華	-10.8021
皆出於	-10.8024
若愚	-10.8025
治世	-10.803
下血	-10.803
與衆	-10.8033
全身	-10.8034
外臺秘要	-10.8036
若驚	-10.8037
吞之	-10.8039
流俗	-10.804
復歸於	-10.8042
也然而	-10.8043
一旦	-10.8043
之所不能	-10.8049
其位	-10.8051
晉	-10.8056
文公	-10.8057
呴	-10.8059
擢	-10.806
刖	-10.8061
恬惔	-10.8061
塗之	-10.8064
不輟	-10.8064
顔子	-10.8067
瞑	-10.8067
媒	-10.8067
醯	-10.8068
遏	-10.8069
絃	-10.8069
憤	-10.8069
不忍	-10.8073
亦云	-10.8084
多用	-10.8086
爲人所	-10.8086
至仁	-10.8087
害物	-10.8089
門下	-10.8093
大熱	-10.8098
我我	-10.8105
通玄經	-10.8111
有不信	-10.8111
身體	-10.8112
鼎中	-10.812
有爲則	-10.8123
因其所	-10.8124
事物	-10.8128
受氣	-10.8129
金精	-10.8137
石膽	-10.8137
在世	-10.8142
雖殊	-10.8144
中士	-10.8146
朴硝	-10.8149
糝	-10.8152
湧	-10.8155
天長地乆	-10.8155
㣲	-10.8155
紹	-10.8156
顙	-10.8157
尼	-10.8158
懈	-10.8159
屍	-10.8161
譎	-10.8161
裙	-10.8162
爲佳	-10.8162
刀圭	-10.8163
嘯	-10.8165
甲乙	-10.8165
日益	-10.8165
奚爲	-10.8167
鼓琴	-10.8167
煥	-10.817
者必有	-10.8172
以酒	-10.8179
應感	-10.8181
聖人體道	-10.8188
爲天下正	-10.819
内視	-10.819
後學	-10.8192
天曹	-10.8203
國君	-10.8204
十分	-10.8211
物莫	-10.8214
此一句	-10.8216
次用	-10.8219
以仁	-10.8222
若是則	-10.8227
咽之	-10.8228
應世	-10.8228
形器	-10.8229
善言	-10.8234
桎梏	-10.8236
擒	-10.8244
蠢	-10.8245
曳	-10.8245
衣服	-10.8246
償	-10.8246
倡	-10.8247
稼	-10.8248
員	-10.8248
確	-10.8249
巍巍	-10.8251
燧	-10.8252
授以	-10.8253
道體	-10.8253
惠子曰	-10.8256
解其紛	-10.8257
論語	-10.8258
物情	-10.8264
無待	-10.8267
仙翁	-10.8268
名號	-10.8273
半夏	-10.8274
莫知其所	-10.8277
不擾	-10.828
求之於	-10.828
飛仙	-10.829
各安其	-10.83
女人	-10.8302
譬猶	-10.8303
容心	-10.8304
無餘	-10.8305
丘山	-10.8313
言之則	-10.8314
於天地之間	-10.8318
去彼	-10.8318
械	-10.8327
熱毒	-10.8331
僂	-10.8331
埃	-10.8331
天地之始	-10.8332
聃	-10.8333
黔	-10.8337
爲病	-10.834
艱	-10.8342
虎豹	-10.8344
不染	-10.8347
鶉	-10.8348
一節	-10.8349
萬殊	-10.8349
衮	-10.8351
主宰	-10.8359
視之不見	-10.836
三錢	-10.8363
二味	-10.8365
勝物	-10.8367
一毫	-10.8368
法地	-10.8371
行不言之教	-10.8374
玄都	-10.8382
巳上	-10.8385
執持	-10.8385
覆之	-10.8391
臣等	-10.8396
師曠	-10.8399
也是故	-10.8402
聖王	-10.8403
萬國	-10.8404
母砂	-10.8408
一人之	-10.8411
大定	-10.8419
道之妙	-10.842
翦	-10.8424
冲氣	-10.8425
窅	-10.8425
璽	-10.8425
蟹	-10.8427
模	-10.8429
故爲天下貴	-10.8429
得道者	-10.8429
黄土	-10.8431
聊	-10.8431
驪	-10.8431
癰腫	-10.8432
沃	-10.8432
叩頭	-10.8433
頽	-10.8433
煖	-10.8434
弑	-10.8434
蹤	-10.8437
換	-10.8438
村	-10.8438
反下同	-10.8444
三魂	-10.8444
白日	-10.8445
坎離	-10.8456
依法	-10.8459
介然	-10.8459
守雌	-10.8484
耳目之	-10.8485
三黄	-10.8486
空青	-10.8488
三十二	-10.8489
示之以	-10.85
宛	-10.8513
莫見其	-10.8514
悲夫	-10.8514
曲直	-10.8516
次第	-10.8516
訛	-10.8517
頓服	-10.852
署	-10.8521
婁	-10.8522
名聲	-10.8522
訾	-10.8523
薛	-10.8524
嵩	-10.8525
李氏曰	-10.8528
天下樂推而不厭	-10.8529
庚辛	-10.8532
腸胃	-10.8532
無患	-10.854
塞其	-10.8541
無遺	-10.8544
中庸	-10.8546
不化者	-10.8555
曰吾聞	-10.8557
逐物	-10.8559
不彰	-10.8559
太清宫	-10.8559
四達	-10.8563
升降	-10.8564
安危	-10.8567
不全	-10.8571
數日	-10.8572
有爲而	-10.8578
至尊	-10.8583
獨見	-10.8585
身退	-10.8596
節解曰謂	-10.8603
文始	-10.8604
傷性	-10.8605
突	-10.8606
和光	-10.8606
得仙	-10.8609
四十九	-10.8609
迂	-10.8615
廣成	-10.8615
蔬	-10.8615
緫	-10.8616
貳	-10.8616
隻	-10.8616
卯酉	-10.8617
嗚呼	-10.8617
攸	-10.8617
酷	-10.8618
其術	-10.862
洞眞	-10.862
咳	-10.8622
韶	-10.8623
妬	-10.8623
若不足	-10.8624
匠石	-10.8625
嗔	-10.8625
得其所	-10.8627
宫觀	-10.863
勇敢	-10.8635
毫末	-10.8635
吐納	-10.8637
含德	-10.8642
水旱	-10.8645
長安	-10.8645
猶言	-10.8654
服餌	-10.8657
聖母	-10.8668
七返	-10.8668
風俗	-10.8672
鼻口	-10.8676
觀之則	-10.8677
来	-10.8686
同食	-10.8687
也言人	-10.8695
祅	-10.8705
睦	-10.8706
逕	-10.8707
睫	-10.8707
光照	-10.8709
貪欲	-10.871
牲	-10.8711
居善地	-10.8712
圭	-10.8716
睿	-10.8717
潭	-10.8718
目視	-10.8727
前章明	-10.8738
生之徒	-10.8739
六十時	-10.874
八日	-10.8744
孰知	-10.8752
而後知	-10.8757
也一云	-10.8757
珠玉	-10.8759
而不爭	-10.876
言聖人	-10.8764
太空	-10.877
財貨	-10.877
立法	-10.8772
要妙	-10.8779
乾汞	-10.878
成其私	-10.8785
廣雅云	-10.8786
使物	-10.8794
礜石	-10.8799
瓢	-10.8799
鼓之	-10.8799
而不言	-10.8801
晶	-10.8801
莫能與之爭	-10.8801
兵强	-10.8802
毅	-10.8803
右件	-10.8805
功成不居	-10.8805
雉	-10.8805
眾	-10.8805
明年	-10.8805
谷神不死	-10.8807
傑	-10.8809
晩	-10.8809
太始	-10.881
甲寅	-10.8814
朱雀	-10.8816
日損	-10.8817
元和	-10.8824
羊角	-10.883
推移	-10.8831
火煅	-10.8831
素樸	-10.8832
鼈	-10.8836
九鼎	-10.8839
青羊	-10.8842
色青	-10.8847
形似	-10.8849
而不辭	-10.8852
北面	-10.8853
道之爲物	-10.8858
作匱	-10.8865
有形之	-10.887
今子	-10.8871
冷水	-10.8871
至於此	-10.8877
不停	-10.888
之中有	-10.8884
鑽	-10.889
拊	-10.8896
棺	-10.8896
斃	-10.8897
之主也	-10.8897
三十輻	-10.8897
半日	-10.8899
蓬萊	-10.8902
蟠	-10.8904
胡蝶	-10.8904
採無時	-10.8905
溝	-10.8905
耦	-10.8906
逆旅	-10.8907
袋盛	-10.8908
涣	-10.8908
鯢	-10.8913
孔丘	-10.8918
嘗試	-10.8919
鄉里	-10.892
不敢爲天下先	-10.8921
將何	-10.8921
州郡	-10.8925
無益於	-10.8928
吏兵	-10.8931
淮南	-10.8937
卑下	-10.8938
久矣	-10.8939
弗知	-10.8953
之所起	-10.8959
致柔	-10.8965
丹法	-10.8969
自稱	-10.8978
精思	-10.8988
此段	-10.899
熒	-10.899
靈臺	-10.8991
膀胱	-10.8992
千日	-10.8992
豚	-10.8993
劵	-10.8994
净	-10.8994
僖	-10.8996
饌	-10.8998
溲	-10.8998
最爲	-10.8999
窟	-10.8999
以身爲	-10.9
晴	-10.9001
猿	-10.9001
饗	-10.9002
緒餘	-10.9002
匕	-10.9004
先王之	-10.9005
心有所	-10.9006
嚼	-10.9008
淳淳	-10.9012
百骸	-10.9014
譬喻	-10.9015
過分	-10.9015
七星	-10.9019
形狀	-10.9025
美善	-10.9026
金鼎	-10.9028
未形	-10.9029
慈悲	-10.9029
四十九日	-10.9035
繩繩	-10.9046
不壞	-10.9046
此等	-10.9047
親疏	-10.9051
周行	-10.9053
平等	-10.906
死亡	-10.906
厚薄	-10.9061
治病	-10.9062
南斗	-10.9067
樗	-10.9067
眞精	-10.9069
奉行	-10.9075
聖迹	-10.9076
無擇	-10.9078
無識	-10.9085
鯤	-10.9087
緡	-10.9091
瘥	-10.9093
癘	-10.9097
驛	-10.9097
嘔	-10.9098
一百二十	-10.9098
唇	-10.9098
心善淵	-10.9099
譚	-10.9101
臯	-10.9103
狎	-10.9103
鈍	-10.9104
壬癸	-10.9105
菴	-10.9106
一念	-10.9107
蓼	-10.9107
抱樸	-10.9115
默默	-10.9115
鉛中	-10.9123
不饑	-10.9124
何處	-10.9125
歸本	-10.913
弱其志	-10.9134
然後可以	-10.9136
鼻中	-10.9136
米醋	-10.9137
道常無名	-10.9141
故次之以	-10.9142
因縁	-10.9151
本或作	-10.9167
無累	-10.9177
必至於	-10.9177
爲細末	-10.9178
臣按	-10.9179
八年	-10.9181
靈符	-10.9181
和光同塵	-10.9189
漁	-10.9191
詳道註	-10.9192
僚	-10.9194
象帝之先	-10.9194
水調	-10.9194
閼	-10.9196
癖	-10.9197
太公	-10.9198
無邊	-10.9198
公孫龍	-10.9198
有小毒	-10.9199
伊尹	-10.9199
宣王	-10.9205
相對	-10.9207
與人同	-10.9207
謙卑	-10.9214
道之所以	-10.9219
師資	-10.9221
乾薑	-10.9221
耳聾	-10.9222
黄帝曰	-10.9226
力士	-10.9227
養生之	-10.923
天地間	-10.9235
弱者道之用	-10.9237
相離	-10.9239
二十七	-10.9239
堅白	-10.924
烏頭	-10.9258
也政和	-10.9261
也碧虚註	-10.9261
齊物	-10.9269
眞死	-10.9281
絶學無憂	-10.9289
箔	-10.929
干戈	-10.9291
向云	-10.9292
瑟	-10.9292
棟	-10.9293
至德之世	-10.9293
禮記	-10.9294
咒	-10.9295
怛	-10.9296
涸	-10.9297
俗呼	-10.9297
人參	-10.93
昏昏	-10.93
兇	-10.9303
輦	-10.9306
儲	-10.9306
甜	-10.9307
神炁	-10.9308
口縫	-10.9308
侣	-10.9313
弗能	-10.9313
穆公	-10.9321
諸仙	-10.9326
變易	-10.9332
中間	-10.9335
何暇	-10.9336
細末	-10.934
道之常	-10.9343
萬物之上	-10.9353
臣聞	-10.9354
無怨	-10.9359
澆汞	-10.9364
此四者	-10.9367
昭然	-10.9372
無之以爲用	-10.9378
非譽	-10.9379
採根	-10.9379
小豆	-10.938
七寳	-10.9381
舉世	-10.9383
金剛	-10.9383
地仙	-10.9384
渉	-10.9386
周流	-10.9388
翹	-10.9389
刮	-10.9392
稜	-10.9392
算	-10.9392
札	-10.9393
做	-10.9395
又奚	-10.9397
三皇五帝	-10.94
疊	-10.94
唯道	-10.9401
爨	-10.9401
忽有	-10.9401
掛	-10.9402
勅	-10.9403
滄	-10.9409
缸	-10.9409
文武火	-10.9418
書符	-10.9428
户牖	-10.9429
煮汁	-10.9429
堅固	-10.9432
九丹	-10.9445
五斗	-10.9454
淳和	-10.946
二千	-10.9463
成丹	-10.9467
冲虚	-10.9483
繆	-10.9489
善否	-10.9491
癸丑	-10.9495
無一物	-10.9496
又將	-10.9497
寺	-10.9501
寵辱若驚	-10.9502
暨	-10.9503
稠	-10.9505
影響	-10.9505
毁譽	-10.9507
麫	-10.9507
比干	-10.9507
蓋頭	-10.951
伯樂	-10.9511
乍	-10.9511
爲之使	-10.9518
宸	-10.9518
吉祥	-10.952
不以物	-10.9522
非常道	-10.9528
成器	-10.9531
十九年	-10.9531
果敢	-10.9534
治民	-10.9535
金華	-10.9535
三句	-10.9546
惚恍	-10.9557
元宫	-10.9564
不察	-10.9564
莫知所	-10.9567
與天地同	-10.9568
内篇	-10.9572
天下之交	-10.9574
依前法	-10.9575
不自矜	-10.9576
雜篇	-10.9577
不爲主	-10.9588
哀公	-10.9591
蝸	-10.9592
亟	-10.9593
嚴君平	-10.9598
媚	-10.9598
蔭	-10.9599
扈	-10.9599
長而不宰	-10.9601
有虞氏	-10.9604
叱	-10.9604
鬢	-10.9604
實其腹	-10.9605
南榮趎	-10.9608
楚王	-10.9608
愛惡	-10.9608
松脂	-10.9609
爲天下式	-10.961
抱朴子	-10.9612
參差	-10.9617
六親	-10.9618
恭敬	-10.9624
嶺南	-10.9626
窈㝠	-10.963
以爲己	-10.9635
採得	-10.9638
吐血	-10.964
玉京	-10.9641
丙丁	-10.9646
反李云	-10.9646
異類	-10.9652
玄宗	-10.9653
三蟲	-10.9656
天罡	-10.9657
四尺	-10.9664
曲全	-10.9664
紫雲	-10.9665
故去彼取此	-10.9669
三七日	-10.9671
若之何	-10.9685
兵馬	-10.9686
隱顯	-10.9689
堝	-10.9694
櫟	-10.9694
以死爲	-10.9695
婢	-10.9696
鼎内	-10.9698
育萬物	-10.9698
無乎不在	-10.9699
芋	-10.97
椎	-10.9702
恢恢	-10.9702
瘀血	-10.9704
尿	-10.9704
挫其鋭	-10.9706
以喪禮處之	-10.9706
窪	-10.9707
先天地生	-10.9707
石灰	-10.9707
憊	-10.9707
曝	-10.9708
竺	-10.9709
懽	-10.971
洒	-10.9714
西王母	-10.9714
迨	-10.9717
自私	-10.9718
奚足	-10.9719
大聖北斗七元君能解	-10.9721
有限	-10.9722
尚不能	-10.9726
六腑	-10.9726
天下之心	-10.9731
三台	-10.9731
無所容	-10.9733
止渴	-10.9737
非其人	-10.9743
同於道	-10.9743
不爲物	-10.9749
未萌	-10.975
百萬	-10.9751
未達	-10.9751
河上	-10.9753
攝生	-10.9758
大丈夫	-10.9767
六畜	-10.9769
氣候	-10.9775
與物化	-10.9776
忘其所	-10.9778
輕清	-10.9797
牡蠣	-10.9803
絞	-10.9804
筴	-10.9805
焙乾	-10.9807
顏	-10.9809
纘義	-10.981
驥	-10.981
韻	-10.9812
嘻	-10.9812
焼	-10.9814
醴	-10.9816
眹	-10.9816
嫉	-10.9817
縱横	-10.9817
跳	-10.9819
績	-10.9819
稻	-10.9822
黄精	-10.9824
煩惱	-10.9826
未悟	-10.9837
役役	-10.9845
醫家	-10.9853
修道之	-10.9856
長生不死	-10.9856
都忘	-10.986
交相	-10.9863
覺夢	-10.9874
輕易	-10.9888
因循	-10.9891
莫能知	-10.9893
外其身	-10.9898
千載	-10.9903
生生者	-10.9905
長生乆視	-10.9906
吳	-10.9908
怳	-10.9909
之妙用	-10.9909
輕舉	-10.9911
歲月	-10.9911
條下	-10.9911
扎	-10.9915
恕	-10.9916
惕	-10.9919
苔	-10.9919
絕	-10.9919
覓	-10.9919
姑射	-10.9919
鳯	-10.9919
强其骨	-10.992
悠	-10.9921
琅	-10.9923
眞宰	-10.9924
不與物爭	-10.9924
遑	-10.9925
三洞	-10.9929
刊	-10.993
韜光	-10.9931
孟詵云	-10.9934
純素	-10.9938
味酸	-10.9938
孰敢	-10.9939
疥	-10.9941
質樸	-10.9943
流沙	-10.995
衣冠	-10.9953
未足以	-10.9957
事業	-10.9957
韋曰	-10.996
他日	-10.9968
律令	-10.9976
名之曰	-10.9976
萬類	-10.9981
愛養	-10.9983
彌遠	-10.9985
萬劫	-10.9985
配合	-10.9988
常無欲	-10.9994
紛紛	-11.0011
麵	-11.0012
相承	-11.0014
皎	-11.0015
褒	-11.0018
人間世	-11.0019
功成事遂	-11.0019
綽	-11.002
豈復	-11.0021
碗	-11.0022
方便	-11.0026
所禀	-11.0028
翛然	-11.0029
蘂	-11.003
執滯	-11.003
五月五日	-11.003
瘕	-11.0032
趎	-11.0032
驚癇	-11.0035
丁卯	-11.0038
治小兒	-11.0039
一生二	-11.0041
遶	-11.0042
作汁	-11.0044
骨髓	-11.0062
讀書	-11.0069
宋人	-11.0073
央	-11.0088
守之以	-11.0094
無得而	-11.0107
再服	-11.0114
竄	-11.012
諂	-11.012
當是時也	-11.0124
二十八	-11.0124
櫛	-11.0124
淳風	-11.0126
鷄子	-11.0127
縈	-11.0128
窮理	-11.0129
寛	-11.013
罟	-11.0132
癇	-11.0132
懲	-11.0134
青金	-11.0134
派	-11.0134
遼	-11.0135
雷公云凡使	-11.0135
貴大患若身	-11.0136
諦	-11.0138
膩	-11.0139
希言自然	-11.0139
政事	-11.014
槁木	-11.0141
寄託	-11.0146
靈府	-11.0146
好憎	-11.0149
未能忘	-11.0153
王倪	-11.0155
民之所	-11.0159
半錢	-11.0159
與天同	-11.018
神奇	-11.0189
汗出	-11.0202
文侯	-11.0202
吕註	-11.0218
簡易	-11.0225
深妙	-11.0228
糊	-11.0237
夔	-11.0237
塊然	-11.0238
荀	-11.0241
糖	-11.0242
今處處有之	-11.0243
恂	-11.0243
眄	-11.0244
耐	-11.0245
姹女	-11.0245
鵝	-11.0247
庚桑子	-11.0251
二種	-11.0251
漁父	-11.0252
輪迴	-11.0253
簫	-11.0256
粱	-11.0258
之德也	-11.0258
忠孝	-11.0259
水腫	-11.0262
舟車	-11.0263
反郭	-11.0264
成敗	-11.0265
不可執	-11.0269
口鼻	-11.0272
盡爲度	-11.0273
方術	-11.0275
逐境	-11.0282
再用	-11.0297
昊天	-11.0312
任自然	-11.0319
陶隱居云今	-11.0327
不昧	-11.0329
可以長乆	-11.0332
可見矣	-11.0333
故能成其	-11.0337
笋	-11.0341
斫	-11.0341
甑	-11.0345
菖蒲	-11.0346
嗄	-11.0346
沾	-11.0351
鬳齋口義	-11.0352
裔	-11.0356
七尺	-11.0357
恚	-11.0358
渇	-11.036
惵惵	-11.036
鳶	-11.036
酆	-11.0361
未分	-11.0361
食療云	-11.0362
茨	-11.0363
充塞	-11.0366
趍	-11.0367
所在皆	-11.0371
脚氣	-11.0376
問其故	-11.0376
不可輕	-11.0384
無棄人	-11.0387
到此	-11.0395
玄覽	-11.0396
泊然	-11.0397
隱居	-11.0397
自然而已	-11.0409
還淳	-11.0416
瓶子	-11.0429
士庶	-11.0434
青牛	-11.0438
魚鼈	-11.0443
奈	-11.0444
二十六	-11.0445
解釋	-11.0447
徐音	-11.0447
㝠㝠	-11.045
保身	-11.0451
色白	-11.0453
相遇	-11.046
攘臂	-11.0461
忻	-11.0463
嗚	-11.0464
相連	-11.0466
唤	-11.0466
爍	-11.0466
勵	-11.0466
道經注云	-11.0467
倏	-11.0469
篇之文	-11.0469
森	-11.047
級	-11.0471
焕	-11.0471
煩悶	-11.0474
自然之性	-11.0476
妄作	-11.0479
陀	-11.048
庚辰	-11.0481
補虚	-11.0483
無容心	-11.0486
淮南子	-11.0494
四寸	-11.0498
得長生	-11.0498
物無不	-11.0509
波流	-11.0521
結實	-11.0522
不自貴	-11.053
天下之事	-11.0532
所願	-11.0537
骨節	-11.0544
無毒主	-11.0546
十五章	-11.0546
混同	-11.0548
以示人	-11.0563
小國寡民	-11.0571
稚	-11.0573
物而物	-11.0574
修學	-11.0575
捶	-11.0575
冨	-11.0576
黄丹	-11.0578
渾然	-11.0579
鴨	-11.0579
復還	-11.058
吠	-11.058
琢	-11.058
千金方治	-11.0582
猨	-11.0582
鵠	-11.0582
莫大焉	-11.0584
翰林	-11.0584
汲汲	-11.0584
娛	-11.0584
出生入死	-11.0586
娱	-11.0586
醬	-11.0587
炳	-11.0589
個	-11.0591
伯昏	-11.0594
潘	-11.0595
白皮	-11.0595
夫道者	-11.0598
鍊丹	-11.0604
汞一斤	-11.0604
三業	-11.0607
廻	-11.0608
四支	-11.0608
恐懼	-11.0611
純白	-11.0612
化而爲	-11.0616
之有哉	-11.0641
石室	-11.0645
天下之民	-11.0645
寬大	-11.0645
靈官	-11.0646
雄雌	-11.0663
頂火	-11.0668
十二章	-11.0672
窮達	-11.0682
螻	-11.0682
爲學日益	-11.0683
荆棘	-11.0691
鍋子	-11.0691
羶	-11.0693
商丘開	-11.0693
藩	-11.0694
亶	-11.0694
塞其兊閉其門	-11.0694
淮	-11.0695
多言數窮不如守中	-11.0695
仇	-11.0697
羌	-11.0697
嫩	-11.0699
:『	-11.07
苞	-11.07
禹錫等按	-11.0701
詹	-11.0701
價	-11.0704
悲哀	-11.0707
不見可欲	-11.0708
甲申	-11.0709
滌除	-11.0714
前識	-11.0716
群品	-11.0717
細辛	-11.0724
切下同	-11.0729
歷代	-11.073
二十年	-11.0732
用其光	-11.0734
十七章	-11.0746
年月	-11.0747
廓然	-11.0753
執著	-11.0758
河上本	-11.0775
百谷	-11.078
五千言	-11.0785
安其居	-11.0786
蛟	-11.0802
睢	-11.0804
罹	-11.0806
江東	-11.0808
税	-11.0809
日月星辰	-11.0809
平澤	-11.0809
没身不殆	-11.081
汩	-11.081
混而爲一	-11.081
黄茂材曰	-11.081
悴	-11.0812
公子牟	-11.0813
脣	-11.0814
是以聖人猶難之	-11.0815
動善時	-11.0815
光而不耀	-11.0817
畋	-11.0817
軒轅	-11.0817
向秀曰	-11.0817
曩	-11.082
淡然	-11.0821
詢	-11.0821
翟	-11.0825
穩	-11.0827
昏亂	-11.0828
之謂歟	-11.083
兵革	-11.0833
西域	-11.0834
消石	-11.0838
田野	-11.0839
臣妾	-11.085
樸散	-11.0852
爾義曰	-11.0852
周旋	-11.0855
古之眞人	-11.0866
勝負	-11.0869
事物之	-11.0879
慢火	-11.0891
灰汁	-11.09
罪福	-11.0907
隨機	-11.0915
交感	-11.0917
唐本注云此	-11.0919
重濁	-11.0923
俛	-11.0924
可與言	-11.0924
騫	-11.0928
奄	-11.0928
墨翟	-11.093
入爐	-11.0931
咦	-11.0931
我好靜而民自正	-11.0932
紋	-11.0932
扣	-11.0932
常使民無知無欲	-11.0933
翫	-11.0933
包裹	-11.0935
騁	-11.0935
擾擾	-11.0936
宵	-11.0938
星官	-11.0938
挹	-11.0938
鷇	-11.0939
唐虞	-11.0939
翕	-11.0941
玊	-11.0942
貧富	-11.0954
異於人	-11.0961
良久	-11.0961
如前法	-11.0962
十二兩	-11.0966
汎然	-11.0971
黄老	-11.0986
性命之理	-11.0992
故幾於道	-11.0994
益州	-11.101
枳	-11.1033
六府	-11.1035
物之情	-11.1041
牟	-11.1042
知者不言言者不知	-11.1044
邯鄲	-11.1044
猴	-11.1045
跋	-11.1047
纉義	-11.1049
寜	-11.1049
粘	-11.105
循理	-11.105
斡	-11.105
坡	-11.105
顓頊	-11.105
熾	-11.1051
櫃	-11.1052
臨川王安石曰	-11.1052
若畏四鄰	-11.1056
魯侯	-11.1059
樞機	-11.106
似不肖	-11.1061
巵言	-11.1068
爲天下谷	-11.1069
妄情	-11.107
鋪蓋	-11.1073
御䟽此	-11.1086
煩熱	-11.1095
澹然	-11.1095
言人君	-11.1103
漿水	-11.1107
皇君	-11.1113
功力	-11.1122
充滿	-11.1124
太過	-11.1133
念呪	-11.1138
黑鉛	-11.1147
變而爲	-11.1148
巴豆	-11.1156
靣	-11.1158
以成其	-11.1158
和大怨	-11.116
頡	-11.116
駒	-11.116
栽	-11.1161
煌	-11.1164
𩐎	-11.1165
虱	-11.1166
北海	-11.1166
莅	-11.1167
大音希聲	-11.117
曼	-11.117
諄	-11.1171
二月八月採	-11.1173
寔	-11.1174
禹錫云按藥性論云	-11.1175
窠	-11.1175
不得已而用之	-11.1176
顚倒	-11.1176
王駘	-11.118
開闔	-11.1184
東嶽	-11.1191
多端	-11.1222
說文	-11.1251
問答	-11.1252
閉目	-11.1256
聚散	-11.1266
智詐	-11.1266
弢	-11.1279
倣	-11.1283
弛	-11.1284
失義而後禮	-11.1286
嫁	-11.1286
版	-11.129
被褐	-11.1292
咀	-11.1292
道德眞經廣聖義卷之	-11.1294
以死懼之	-11.1294
涓	-11.1296
甘美	-11.1299
霑	-11.13
醋調	-11.1301
之所致也	-11.1302
峨	-11.1304
翅	-11.1304
十餘年	-11.1312
難測	-11.1327
榮衛	-11.133
鯉魚	-11.1336
鍋内	-11.134
左味	-11.1341
甘鍋	-11.1344
切司馬云	-11.1348
莫能行	-11.1357
性冷	-11.1357
報應	-11.1364
不忒	-11.1366
百五十	-11.1373
太宗	-11.1397
荘	-11.1397
旡	-11.1398
無爲無事	-11.1399
徐無鬼	-11.1403
閱	-11.1404
忮	-11.1404
戟	-11.1405
由此觀之	-11.1406
鴟	-11.1406
窺牖	-11.1407
硇	-11.1408
韭	-11.141
下知有之	-11.141
用之不勤	-11.1411
以道佐人主	-11.1412
浄	-11.1412
生生之厚	-11.1413
自然汁	-11.1414
虹	-11.1414
圎	-11.1415
蛙	-11.1416
鼓舞	-11.1417
大象無形	-11.1422
皈	-11.1423
殫	-11.1423
埏埴	-11.1424
叫	-11.1424
殃咎	-11.1424
服方寸七	-11.1427
石榴	-11.1428
隱几	-11.1437
是故聖人	-11.1442
急急	-11.1445
道之要	-11.145
馬蹄	-11.146
勤勞	-11.1464
故能長生	-11.1464
飛龍	-11.1477
亂之首	-11.1479
空腹	-11.1487
二七日	-11.1497
關節	-11.1513
闚	-11.1524
不皦	-11.1526
有之以爲利	-11.1528
含德之厚	-11.1532
正言若反	-11.1532
臣眞述曰	-11.1534
疽	-11.1535
道者萬物之奥	-11.1536
鼃	-11.1538
頼	-11.1539
常勝之道	-11.154
庇	-11.154
綿綿若存用之不勤	-11.154
歴	-11.1541
絶聖棄智	-11.1541
脩身	-11.1542
鈴	-11.1543
與天爲徒	-11.1543
拆	-11.1545
霜雪	-11.1545
沮	-11.1545
勇於敢	-11.1546
釀	-11.1548
公私	-11.1548
抄	-11.1548
赫赫	-11.1549
胡麻	-11.1552
喘息	-11.1554
玄默	-11.1559
曆數	-11.156
滅亡	-11.1562
弟子某	-11.1563
峯	-11.1567
丹頭	-11.1567
河上名	-11.1571
飽食	-11.1596
尹氏	-11.1605
能如嬰兒	-11.1606
仁愛	-11.1611
丁巳	-11.164
故能成其大	-11.1643
六十日	-11.1649
東向	-11.1651
大成若缺	-11.1652
蝶	-11.1653
以至於無爲	-11.1658
䖍	-11.1658
捻	-11.166
鄰國相望	-11.166
聖人之治	-11.166
樽	-11.1661
肢	-11.1661
司馬本作	-11.1662
原㫖曰	-11.1662
讃	-11.1662
終其天年	-11.1663
葉夢得曰	-11.1664
湛兮似或存	-11.1665
物壯則老	-11.1665
撥	-11.1666
膜	-11.1666
陜	-11.1666
膳	-11.1667
蹙	-11.1667
汴	-11.1667
以智治國國之賊	-11.1668
瓮	-11.1668
潛	-11.1669
物或惡之故有道者不處	-11.167
弋	-11.1671
翰	-11.1672
田獵	-11.1672
芮	-11.1673
戎鹽	-11.1673
黍米	-11.1674
澁	-11.1677
冕	-11.1679
唐明皇曰	-11.1681
石硫黄	-11.1683
君子小人	-11.1684
而安之	-11.1687
輪轉	-11.1691
季咸	-11.1692
肩吾	-11.1697
炒令	-11.1697
浩然	-11.1701
汞一兩	-11.1711
坦然	-11.1714
妄想	-11.1715
十四章	-11.1727
鐡	-11.1747
甞	-11.1763
幽冥	-11.1764
綦	-11.1779
碩	-11.1783
妹	-11.1784
爲道日損	-11.1786
彘	-11.1786
瘴	-11.179
瘳	-11.1792
釁	-11.1792
彦	-11.1793
賓	-11.1794
缺缺	-11.1795
揀	-11.1795
優劣	-11.1796
髻	-11.1797
鑠	-11.1797
劇	-11.1797
隗	-11.1797
濕痹	-11.1798
信言不美	-11.1798
椀	-11.1798
區區	-11.1798
炮	-11.1798
硼	-11.1799
事善能	-11.1799
踏	-11.1799
有生於無	-11.1803
隱士	-11.1803
白日昇天	-11.1807
曝乾	-11.1809
張弓	-11.1809
與道爲一	-11.181
鬼魅	-11.181
朝夕	-11.1815
鐵線	-11.1819
非吾所謂	-11.1819
延壽	-11.183
謙退	-11.1832
月十五日	-11.1837
二生三	-11.1838
利小便	-11.1841
七竅	-11.1842
戊己	-11.1847
天籟	-11.1852
太祖	-11.1855
代謝	-11.1862
不善之人	-11.1868
此一章	-11.1877
公孫	-11.188
各一兩	-11.1894
莊公	-11.1897
掊	-11.1912
葦	-11.1913
非有非無	-11.1915
七魄	-11.1917
鰌	-11.1917
窮理盡性	-11.1919
萃	-11.1922
信不足有不信	-11.1923
反者道之動	-11.1923
萍	-11.1923
秃	-11.1924
伯昏瞀人	-11.1924
冢	-11.1924
髑髏	-11.1924
沬	-11.1925
啄	-11.1926
冤	-11.1928
泮	-11.1928
瞬	-11.1928
琳	-11.1929
蹴	-11.193
薊	-11.193
蚌	-11.1934
衷	-11.1935
淹	-11.1935
長生乆視之道	-11.1942
甲辰	-11.1943
我與若	-11.1953
南嶽	-11.1955
賢不肖	-11.1961
是以聖人之治	-11.1963
當其無	-11.1986
終南山	-11.1995
遂其生	-11.1996
夫何故	-11.2008
誦經	-11.2008
道之華	-11.202
空洞	-11.2027
不恃其	-11.2028
德經云	-11.2029
八月採	-11.2033
莢	-11.2036
伍	-11.2046
飴	-11.2047
劔	-11.2047
簇	-11.2049
高祖	-11.2051
款	-11.2052
鞅	-11.2052
處無爲之事行不言之教	-11.2052
乙卯	-11.2052
孺	-11.2053
顔闔	-11.2053
煬	-11.2053
丙午	-11.2056
藪	-11.2058
言善信	-11.2059
肚	-11.2059
亞	-11.2059
欠	-11.2059
圖經曰文具	-11.2061
衢	-11.2061
動而愈出	-11.2061
鴻蒙	-11.2062
匝	-11.2063
寂寥	-11.2063
勘	-11.2064
肌肉	-11.2064
塘	-11.2064
旦暮	-11.2064
隰朋	-11.2068
架	-11.2068
十二年	-11.207
閉塞	-11.2073
嵩山	-11.2076
充實	-11.2102
郭云	-11.2107
太隂	-11.2114
無名天地之始	-11.2129
壺子曰	-11.2135
均平	-11.2144
凶器	-11.2155
擣篩	-11.2179
者神之	-11.2181
沒	-11.2183
潁	-11.2187
驢	-11.2188
樵	-11.2188
鉞	-11.2189
征伐	-11.2189
扁鵲	-11.2189
天地雖大	-11.219
陶鑄	-11.219
復命曰常	-11.2192
奠	-11.2192
不見可欲使心不亂	-11.2193
輜	-11.2194
哺	-11.2194
疸	-11.2195
緣	-11.2195
雞犬	-11.2196
些	-11.2196
書無名	-11.2198
由是觀之	-11.2199
廪	-11.22
聳	-11.2201
鼎器	-11.2203
痼	-11.2205
珀	-11.2206
任其自然	-11.2206
凝寂	-11.2223
九霄	-11.2235
勤苦	-11.2248
衣被	-11.2253
應帝王	-11.2261
十八章	-11.2266
之生也	-11.2266
漠然	-11.227
盒	-11.2288
不得其死	-11.2292
畛	-11.2315
鍛	-11.2316
壬午	-11.2316
夲	-11.2318
憾	-11.2319
敎	-11.2319
綿綿若存	-11.232
殁	-11.232
樣	-11.232
讒	-11.2321
誑	-11.2322
島	-11.2322
駿	-11.2322
雕琢	-11.2322
謨	-11.2323
繒	-11.2323
祟	-11.2326
聖人之所以	-11.2326
韄	-11.2326
復歸於無物	-11.2326
蟄	-11.2329
道無不在	-11.233
醒	-11.2331
接輿	-11.2331
綏	-11.2332
清靜無爲	-11.2333
袍	-11.2333
咳嗽	-11.2334
丁亥	-11.2337
雨露	-11.2339
徽	-11.234
禮拜	-11.2381
與之俱	-11.2393
輕躁	-11.2402
石膏	-11.2417
元始天尊	-11.2422
閉其門	-11.2445
樂音洛	-11.245
弃	-11.2451
蕉	-11.2453
撲	-11.2454
礴	-11.2454
𨼆	-11.2456
少私寡欲	-11.2456
蹔	-11.2456
字之曰道	-11.2457
譴	-11.2459
功成名遂身退天之道	-11.2459
茸	-11.246
祗	-11.246
猖狂	-11.2461
鳧	-11.2461
饕	-11.2461
大白若辱	-11.2462
悌	-11.2466
浙	-11.2466
嬰孩	-11.2466
爲天下谿	-11.2466
勁	-11.2467
況於人乎	-11.2467
鏤	-11.2467
婬	-11.2469
玄元皇帝	-11.2469
䇿	-11.247
甲午	-11.247
街	-11.2471
消災	-11.2483
飄風	-11.2491
如小豆	-11.25
罔兩	-11.2511
六尺	-11.252
逐末	-11.2545
非常名	-11.255
賢良	-11.2551
駘	-11.2572
知音智	-11.2574
筩	-11.2583
贏	-11.2589
糾	-11.259
荅	-11.2593
不可長保	-11.2595
銅鐵	-11.2597
輙	-11.2598
拱璧	-11.26
專氣致柔	-11.26
盎	-11.2601
「	-11.2601
紀綱	-11.2602
梅師方治	-11.2602
玄之又玄衆妙之門	-11.2603
陂	-11.2603
謾	-11.2603
糟	-11.2604
一而不變	-11.2605
鷙	-11.2605
處無爲之事	-11.2605
惱	-11.2605
翊	-11.2605
肱	-11.2605
慚	-11.2608
廊	-11.2608
岳	-11.2608
衛生之經	-11.2608
纓	-11.261
渭	-11.2611
南郭子	-11.2614
無知無欲	-11.2614
滑石	-11.2616
百倍	-11.2618
薤	-11.2626
反又音	-11.2634
枯木	-11.2648
住持	-11.2657
日三服	-11.2661
觀其妙	-11.2661
金碧	-11.2667
其致之	-11.2675
委順	-11.2677
使然也	-11.2679
不出户	-11.2693
帳	-11.2709
彷徨	-11.2733
尻	-11.2734
拍	-11.2734
有名萬物之母	-11.2735
兵者不祥之器	-11.2736
涵	-11.2738
蹷	-11.2739
緇	-11.2739
生而不有爲而不恃長而不宰是謂玄德	-11.274
深不可識	-11.274
寃	-11.2741
楊墨	-11.2741
慘	-11.2742
攬	-11.2742
感而遂通	-11.2742
有物混成	-11.2743
陳象古曰	-11.2743
蠹	-11.2743
不爭而善勝	-11.2743
汾	-11.2743
倘	-11.2743
粲	-11.2743
掠	-11.2743
機械	-11.2743
莫過於	-11.2745
迄	-11.2745
與善仁	-11.2746
用兵有言	-11.2746
不尚賢使民不爭	-11.2746
搆	-11.2747
觴	-11.2747
盒子	-11.2747
馴	-11.2748
痊	-11.2749
輔佐	-11.2749
脹滿	-11.275
腰痛	-11.275
磬	-11.2751
顔淵	-11.2753
少則得	-11.2757
蛟龍	-11.2757
太乙	-11.2765
久久	-11.2775
老莊	-11.2777
不識不知	-11.278
天地不仁	-11.2795
補不足	-11.2808
川澤	-11.2836
桔梗	-11.2874
樂天知命	-11.2878
舛	-11.288
菑	-11.288
卻	-11.288
郭璞	-11.2881
金玉滿堂莫之能守	-11.2881
需	-11.2882
誌	-11.2883
宜僚	-11.2884
踶	-11.2884
刋	-11.2885
僊	-11.2885
億劫	-11.2885
隘	-11.2886
饋	-11.2887
何言哉	-11.2887
膈	-11.2888
十有二	-11.2888
愛民治國	-11.2889
纍	-11.2889
味甘平無毒主	-11.289
挽	-11.289
。』	-11.2892
襟	-11.2893
輅	-11.2894
淳朴	-11.2901
龜蛇	-11.2912
水火鼎	-11.2917
朝拜	-11.2941
白鹿	-11.296
第五十	-11.2993
捍	-11.2995
麝香	-11.3013
栝	-11.3014
孔德之容	-11.3024
若存若亡	-11.3024
在宥天下	-11.3025
以靜爲下	-11.3025
强梁者不得其死	-11.3026
家有北斗經	-11.3026
竇	-11.3026
咨	-11.3026
脇	-11.3027
菽	-11.3027
濛	-11.3027
知人者智	-11.3027
慙	-11.3028
筌	-11.3028
踞	-11.3028
益之而損	-11.303
葷	-11.303
宛轉	-11.303
鬼疰	-11.303
涇	-11.3031
喜怒哀樂	-11.3032
殞	-11.3032
涑水司馬光曰	-11.3032
徘徊	-11.3032
我無事而民自富	-11.3032
政善治	-11.3033
觀其徼	-11.3033
氛	-11.3034
會稽	-11.3035
味無味	-11.3035
緋	-11.3039
綱紀	-11.304
穎	-11.3042
腰脚	-11.3042
聦明	-11.3045
詐僞	-11.3045
百餘年	-11.3049
太后	-11.3049
十七年	-11.3051
懸胎	-11.3051
開闢	-11.3051
矜伐	-11.3052
十三年	-11.3054
禁忌	-11.3055
長跪	-11.3058
衆甫	-11.3067
洞徹	-11.3097
以正治國	-11.3109
六寸	-11.3162
塡	-11.3163
沴	-11.3169
入灰池	-11.317
逞	-11.317
以道莅天下	-11.3171
持而盈之不如其已	-11.3171
不亦宜乎	-11.3171
穰	-11.3172
孜	-11.3172
復歸其明	-11.3173
富貴而驕自遺其咎	-11.3173
閔	-11.3173
鴈	-11.3173
僨	-11.3174
邃	-11.3177
明白四達	-11.3177
於未亂	-11.3178
紫河車	-11.3178
杓	-11.3178
淵兮似萬物之宗	-11.3178
程大昌曰	-11.318
廡	-11.318
柿	-11.3181
憶	-11.3181
躭	-11.3181
猫	-11.3182
辦	-11.3182
我無欲而民自樸	-11.3182
悔吝	-11.3182
六合之外	-11.3184
瀛	-11.3185
滚	-11.3186
首標	-11.3188
齊物論	-11.3191
盻	-11.3192
安其性命之情	-11.3196
第八十	-11.3197
趣舍	-11.3204
池澤	-11.3212
祖宗	-11.3238
莫得而	-11.3291
衍義	-11.3299
簡文云	-11.3314
鏃	-11.3318
楷式	-11.3319
癲	-11.332
上德不德	-11.3323
賾	-11.3324
閬	-11.3324
飬	-11.3325
筌蹄	-11.3325
畦	-11.3326
唐本先附	-11.3326
知其榮守其辱	-11.3326
凑	-11.3326
篋	-11.3327
感而後應	-11.3327
陸佃曰	-11.3328
臆	-11.3329
管夷吾	-11.3334
猷	-11.3334
䟽前章明	-11.3334
飈	-11.3335
灸	-11.3341
紫霄	-11.3347
入甘鍋	-11.3351
二十一日	-11.3361
凝結	-11.3366
七寸	-11.338
不可多食	-11.338
同於失	-11.3382
䑕	-11.3397
盧曰夫	-11.3408
幾於道	-11.3446
眞常之道	-11.3448
枘	-11.3463
睨	-11.3469
脗	-11.3469
吝	-11.3471
圭角	-11.3473
欻	-11.3473
諜	-11.3473
是以不病	-11.3473
藜	-11.3473
窗	-11.3474
絮	-11.3474
邠	-11.3475
不亦難乎	-11.3475
梯	-11.3475
紐	-11.3477
蔚	-11.3477
不善人之所保	-11.3477
戢	-11.3477
叶	-11.3478
損之而益	-11.3478
夫何故哉	-11.3478
笈	-11.3479
惶	-11.348
詛	-11.3481
揩	-11.3481
喉痹	-11.3481
可名於大	-11.3481
味苦辛	-11.3482
躋	-11.3483
𡨚	-11.3483
使夫知者不敢爲也	-11.3485
燔	-11.3486
娶	-11.3486
藿	-11.3486
𧏾	-11.3486
刑戮	-11.3487
畏壘	-11.3487
驂	-11.3487
假借	-11.3491
微寒無毒主	-11.3496
繫辭	-11.3502
西戎	-11.3502
不死不生	-11.3503
外臺秘要治	-11.3537
道之極	-11.3607
虻	-11.3611
工倕	-11.3613
厠	-11.3613
》	-11.3613
《	-11.3614
狶	-11.3615
執左契	-11.3617
安可以爲善	-11.3622
綴	-11.3622
榦	-11.3623
沖虚經曰	-11.3623
逍	-11.3625
丁酉	-11.3625
騖	-11.3626
繕性	-11.3626
淄	-11.3627
可以爲天下母	-11.3627
癭	-11.3628
人之所畏不可不畏	-11.3628
此一段	-11.3629
沓	-11.3631
兢	-11.3631
不自見故明	-11.3631
噴	-11.3631
吾見其不得已	-11.3632
葛洪	-11.3634
其可得乎	-11.3634
縵	-11.3635
後且先	-11.3636
猪脂	-11.3636
俊	-11.3637
勳	-11.3638
頒	-11.3638
有無相生	-11.3638
孫叔敖	-11.3639
膿血	-11.3641
峒	-11.3643
狡	-11.3645
爲之使惡	-11.3649
乳汁	-11.365
雲霧	-11.3652
萬二千	-11.3654
殺戮	-11.3656
包含	-11.3661
史記云	-11.3665
祭酒	-11.3669
煎湯	-11.367
苓	-11.3775
岩	-11.378
代赭	-11.3783
壹	-11.3784
眸	-11.3784
豆蔻	-11.3784
善人之寳	-11.3785
軋	-11.3785
忌諱	-11.3786
退藏於密	-11.3787
東西南北	-11.3787
攻堅强	-11.3788
媾	-11.3788
廷	-11.3788
我無爲而民自化	-11.3788
代司殺者殺	-11.3789
蒼蒼	-11.3789
醴泉	-11.379
復歸於嬰兒	-11.379
癥瘕	-11.379
未甞	-11.3791
儉且廣	-11.3791
涌	-11.3791
不相往來	-11.3793
址	-11.3794
囑	-11.3794
諒	-11.3795
番	-11.3796
迺	-11.3798
娥	-11.3801
遮	-11.3806
是以輕死	-11.381
繩約	-11.3818
仁義禮樂	-11.3835
二十七日	-11.3905
蓍	-11.3924
線	-11.3926
駟	-11.3933
芍藥	-11.3934
扃	-11.3935
詩書禮樂	-11.3936
隍	-11.3939
伴	-11.3939
岑	-11.394
脱於淵	-11.394
凈	-11.3941
牝牡	-11.3942
煦	-11.3943
是謂要妙	-11.3943
自古及今其名不去	-11.3945
蚿	-11.3946
窪則盈	-11.3946
伯夷叔齊	-11.3947
氤氲	-11.3947
髀	-11.3947
耳目鼻口	-11.3948
以兵强天下	-11.3948
繪	-11.3949
聽之不聞	-11.395
鋪底	-11.3951
糯米	-11.3952
熒惑	-11.3952
惴	-11.3952
覲	-11.3952
以智治國	-11.3953
敦兮其若樸	-11.3953
后稷	-11.3954
鋸	-11.3955
多則惑	-11.3955
巷	-11.3955
奢泰	-11.3957
萎	-11.3958
身後之	-11.3979
八十一章	-11.4016
五月採	-11.4021
志心朝禮	-11.4051
二十八日	-11.4055
有意於	-11.4066
老君降于	-11.409
戹	-11.4097
芬	-11.4098
氷	-11.4099
倨	-11.41
竪	-11.41
閽	-11.4101
是謂襲明	-11.4103
柢	-11.4103
泪	-11.4103
鍼	-11.4104
楮	-11.4104
枉則直	-11.4104
牛膝	-11.4105
東流水	-11.4106
南華眞經口義卷之	-11.4106
霍	-11.4107
郭象曰	-11.4107
善貸且成	-11.4107
訶	-11.4108
吃	-11.4109
是以聖人終不爲大故能成其大	-11.4109
慈且勇	-11.411
慨	-11.4111
繇	-11.4111
莧	-11.4112
狹其所居	-11.4113
多忌諱	-11.4113
檜	-11.4114
婚	-11.4114
縷	-11.4115
與民同	-11.4116
山海經	-11.4118
感而應	-11.4118
粮	-11.4118
愼勿	-11.4119
葺	-11.4119
髭	-11.4119
羣品	-11.412
復其初	-11.4124
京兆	-11.413
故無尤	-11.4134
鼻納	-11.4143
祕訣	-11.4149
五千文	-11.4172
之詞也	-11.4213
藕	-11.4252
挼	-11.4258
蹢	-11.4261
臓	-11.4263
蠆	-11.4263
啇	-11.4263
陶隱居	-11.4264
通玄經曰古者	-11.4264
鷹	-11.4265
仁義禮智	-11.4266
聖人不仁以百姓爲芻狗	-11.4266
賄	-11.4267
天地不仁以萬物爲芻狗	-11.4267
善攝生者	-11.4267
蔕	-11.4267
捺	-11.4268
羈	-11.4268
炫	-11.4268
菁	-11.4269
名與身孰親	-11.4269
繳	-11.4269
碌	-11.4269
爲者敗之執者失之	-11.427
罄	-11.427
奔馳	-11.4272
丁丑	-11.4273
錐	-11.4274
善利萬物	-11.4275
死而不亡者壽	-11.4275
昂	-11.4276
楗	-11.4277
謡	-11.4277
孟孫陽	-11.4281
垂訓	-11.4285
無棄物	-11.4287
設醮	-11.4295
愛利之	-11.4311
畧	-11.4416
芷	-11.4425
宗皇帝	-11.4425
禺	-11.4425
漓	-11.4426
桀跖	-11.4427
碾	-11.4429
什伯之器	-11.4429
銛	-11.4429
進道若退	-11.4431
羔	-11.4431
多藏必厚亡	-11.4431
雷電	-11.4432
鍾乳	-11.4433
濠	-11.4433
岱	-11.4434
用人之力	-11.4434
覃	-11.4434
不可致詰	-11.4435
故立天子置三公	-11.4435
善建者不拔	-11.4435
骨弱筋柔而握固	-11.4435
明白四達能無知乎	-11.4435
自古及今	-11.4436
隧	-11.4436
參同契	-11.4436
善戰者不怒	-11.4437
浣	-11.4438
是謂不爭之德	-11.4438
淚	-11.4438
德交歸	-11.4438
始制有名	-11.444
陜西	-11.444
迫而後動	-11.4441
狩	-11.4441
天下莫能知莫能行	-11.4441
是謂玄同	-11.4442
壬辰	-11.4442
倒置	-11.4443
故能長乆	-11.4444
宦	-11.4448
栀子	-11.4449
袖	-11.445
殷湯	-11.4451
轄	-11.4451
酪	-11.4455
膽礬	-11.4467
黑卵	-11.4474
漉出	-11.4478
瘡疥	-11.4494
肘後方治	-11.4501
玄牝之門是謂天地根	-11.4502
無往不	-11.4578
戶	-11.4582
各正性命	-11.4592
傴	-11.4594
不責於人	-11.4595
雖有甲兵無所陳之	-11.4597
劓	-11.4598
庚桑楚	-11.4599
虜	-11.46
蚓	-11.46
腋	-11.4601
諷	-11.4601
有德司契	-11.4601
惻	-11.4602
疹	-11.4603
應而不藏	-11.4603
賢於貴生	-11.4604
不知所以然而然	-11.4604
斜	-11.4604
俎	-11.4605
陵舄	-11.4605
微妙玄通	-11.4605
插	-11.4606
子母秘録	-11.4607
偈	-11.4608
法令滋彰盜賊多有	-11.4608
熨	-11.4609
腑	-11.4609
蚩尤	-11.461
此兩者同出而異名	-11.461
諺	-11.461
澼	-11.4611
產	-11.4611
佗	-11.4611
皺	-11.4612
侍郞	-11.4612
泳	-11.4612
七月七日	-11.4612
殄	-11.4612
堇	-11.4618
厚三分	-11.4618
岡	-11.4619
抽添	-11.4621
皁	-11.4622
蝱	-11.4626
可不慎	-11.4639
蛄	-11.4745
十八年	-11.4746
茵	-11.4754
搖	-11.4758
稊	-11.4766
堊	-11.4768
鍵	-11.4769
閡	-11.4773
聾盲	-11.4775
治大國若烹小鮮	-11.4776
方而不割	-11.4776
美言可以市	-11.4776
天道無親常與善人	-11.4777
蚤	-11.4777
埴	-11.4777
質眞若渝	-11.4777
餒	-11.4777
柯	-11.4778
賂	-11.4778
二十八宿	-11.4779
溥	-11.4779
道可道非常道	-11.4779
擎	-11.4781
吊	-11.4781
溉	-11.4781
感而遂通天下之故	-11.4781
潦	-11.4781
莫大乎	-11.4782
浸一宿	-11.4783
樸散則爲器	-11.4783
澡	-11.4783
戕	-11.4786
差忒	-11.4786
券	-11.4787
忝	-11.4787
狠	-11.4787
恰	-11.4788
謳	-11.4788
潮	-11.4788
螺	-11.4788
之鬼次收	-11.4789
不知其所以然	-11.479
濤	-11.4793
學不學	-11.4795
指揮	-11.4803
當願一切	-11.4819
紏	-11.4833
蜜丸	-11.4843
肘後方	-11.4888
聦	-11.4934
葢	-11.4938
牝常以靜勝牡	-11.4946
坯	-11.4948
喑	-11.4948
吾將以爲教父	-11.4948
大方無隅	-11.495
訴	-11.495
栩	-11.495
聴	-11.4951
衆人皆有以	-11.4951
常善救人	-11.4951
而以身輕天下	-11.4952
殤	-11.4952
槃	-11.4953
偊	-11.4953
燼	-11.4953
擔	-11.4954
槌	-11.4954
汪	-11.4955
曼衍	-11.4956
千里之行始於足下	-11.4956
自見者不明	-11.4956
盍	-11.4957
輯	-11.4957
袤	-11.4958
蛾	-11.4958
哭泣	-11.4959
瘍	-11.4959
失者同於失	-11.4959
催	-11.496
達眞子曰	-11.4961
悠悠	-11.4961
覬	-11.4961
捲	-11.4961
不貴難得之貨使民不爲盜	-11.4961
幕	-11.4963
驕奢	-11.4967
者其唯	-11.4973
函谷關	-11.4973
炷	-11.4975
芒硝	-11.5016
郭象注	-11.5088
詬	-11.5111
昬	-11.5119
勇於不敢	-11.5123
大道廢有仁義	-11.5123
功成名遂	-11.5125
亦樂得之	-11.5125
晃	-11.5126
芴	-11.5127
燦	-11.5127
躅	-11.5129
慤	-11.5129
慊	-11.5129
挑	-11.513
噀	-11.513
淩	-11.513
苴	-11.5131
我獨異於人	-11.5131
不笑不足以爲道	-11.5132
上士聞道勤而行之	-11.5132
賁	-11.5133
處衆人之所惡	-11.5134
庚寅	-11.5134
糜	-11.5134
訊	-11.5136
鳳凰	-11.5136
湘	-11.5137
駢枝	-11.5137
枸杞	-11.5137
不以智治國國之福	-11.5137
孳	-11.5138
長生久視	-11.5138
方寸匕	-11.5138
撻	-11.5138
帷	-11.5138
窶	-11.5139
欬	-11.514
曠兮其若谷	-11.5141
鄒	-11.5141
不祥之器	-11.5142
㧞	-11.5144
食醫心鏡	-11.5145
惰	-11.5145
咽液	-11.5145
昉	-11.5148
罏	-11.515
知者不言	-11.515
庖丁	-11.5152
第七十	-11.5194
去彼取此	-11.5196
巵	-11.5283
蜘蛛	-11.5296
塞其兊	-11.5298
叨	-11.5298
宙	-11.53
直而不肆	-11.53
大巧若拙	-11.5301
眎	-11.5301
三十輻共一轂	-11.5302
却走馬以糞	-11.5304
善行無轍迹	-11.5306
愉	-11.5306
百姓日用而不知	-11.5307
姤	-11.5308
盪	-11.5308
芫花	-11.5309
甓	-11.531
不出户知天下	-11.5311
不敢以取强	-11.5311
圜	-11.5311
噤	-11.5311
不窺牖見天道	-11.5312
其不欲見賢	-11.5312
兩不相傷	-11.5313
能長且乆	-11.5313
鴞	-11.5313
不言而善應	-11.5315
相去幾何	-11.5315
郵	-11.5316
嗌	-11.5316
麾	-11.5316
瞋	-11.5317
蕤	-11.5317
弭	-11.5317
絞取汁	-11.5317
擘	-11.5318
侯王若能守	-11.5318
袁	-11.5318
渾兮其若濁	-11.5318
嘔逆	-11.5318
經驗方治	-11.5319
悍	-11.5319
终	-11.5319
舒王曰	-11.532
道之全體	-11.532
祿	-11.532
與天爲一	-11.532
肝膽	-11.5321
媧	-11.5322
天將救之以慈衛之	-11.5322
絞汁	-11.5322
王子搜	-11.5322
痕	-11.5322
蜚	-11.5326
俠	-11.5326
遨遊	-11.5331
研匀	-11.5336
距縣	-11.5337
可不愼	-11.535
不釋然	-11.537
十六年	-11.539
癬	-11.5411
㳺	-11.5474
字林云	-11.5476
瘰癧	-11.549
瘙	-11.549
闘	-11.5491
盂	-11.5491
綬	-11.5492
譆	-11.5492
當此之時	-11.5492
落落如石	-11.5492
貶	-11.5493
躑	-11.5494
吾不知其名字之曰道	-11.5494
心若死灰	-11.5495
楮汁	-11.5495
土苴	-11.5495
蹊	-11.5495
失道而後德失德而後仁失仁而後義	-11.5496
迅	-11.5496
恬愉	-11.5496
鋤	-11.5497
與物反矣	-11.5497
譙	-11.5498
無狀之狀無物之象	-11.5498
悼	-11.5498
其安易持	-11.5498
猜	-11.5498
井花水	-11.5499
美言不信	-11.5499
三日三夜	-11.5499
眯	-11.5499
湮	-11.55
辛酉	-11.55
長養萬物	-11.55
知足者富	-11.55
繹	-11.5501
道常無爲而無不爲	-11.5502
謷	-11.5502
物壯則老是謂不道不道早已	-11.5502
汋	-11.5503
懿	-11.5503
峙	-11.5503
璃	-11.5504
自古以固存	-11.5504
視之不見聽之不聞	-11.5505
丕	-11.5505
噓	-11.5507
孰能與於此	-11.5508
矧	-11.5509
復歸於樸	-11.551
形而上者	-11.5511
馨	-11.5512
稅	-11.554
道法自然	-11.5665
鬬	-11.5673
澆淋	-11.5676
棺槨	-11.5678
診	-11.5679
鐻	-11.5679
輔萬物之自然	-11.5679
翣	-11.568
玉童玉女	-11.5681
蚋	-11.5682
沼	-11.5683
䕶	-11.5683
矜誇	-11.5684
純氣之守	-11.5684
麽	-11.5684
天門開闔	-11.5684
不言之辯	-11.5685
鹽泥固濟	-11.5685
舂	-11.5685
有物混成先天地生	-11.5686
辛卯	-11.5686
詒	-11.5686
商太宰	-11.5686
霹	-11.5686
拇	-11.5687
天下有始	-11.5687
善勝敵者不爭	-11.5688
蔑	-11.5688
痺	-11.5689
執古之道以御今之有	-11.5689
瓦礫	-11.5689
道之尊德之貴	-11.5689
扼	-11.569
道隱無名	-11.5691
陽子居	-11.5691
虎兕	-11.5692
俄頃	-11.5692
驚悸	-11.5692
專氣致柔能如嬰兒乎	-11.5693
旛	-11.5694
丸如梧桐子大	-11.5695
筮	-11.5695
擬議	-11.5696
君臣父子	-11.5698
常有司殺者殺	-11.5698
圈	-11.5698
陶冶	-11.5699
鴉	-11.5703
百家之	-11.5707
徽宗	-11.5848
𥐼	-11.5852
菰	-11.5864
閎	-11.5865
頥	-11.5866
不可思議	-11.5867
癸酉	-11.5869
淸	-11.587
弇	-11.587
萇	-11.5871
頰	-11.5874
篡	-11.5874
無是無非	-11.5875
妍	-11.5875
吾何以知天下之然哉以此	-11.5876
戊戌	-11.5876
荒兮其未央哉	-11.5876
曬乾	-11.5876
外其身而身存	-11.5876
上仁爲之而無以爲	-11.5877
上義爲之而有以爲	-11.5877
迥	-11.5878
鼇	-11.5878
壙	-11.5879
萬物負陰而抱陽	-11.5879
甘其食	-11.588
侗	-11.588
癩	-11.588
乆服輕身	-11.588
其政察察其民缺缺	-11.588
緼	-11.5881
剔	-11.5881
飢渴	-11.5881
人之不善何棄之有	-11.5881
妊娠	-11.5881
不如守中	-11.5883
雁	-11.5883
守而勿失	-11.5884
將欲取天下而爲之	-11.5884
容乃公	-11.5884
天地相合以降甘露	-11.5884
愛民治國能無爲乎	-11.5884
愷	-11.5884
蹲	-11.5884
聖人之道爲而不爭	-11.5885
瘢	-11.5885
載營魄抱一能無離乎	-11.5885
皂角	-11.5885
以道蒞天下	-11.5886
戚戚	-11.5887
噬	-11.5888
疝	-11.5888
郭注云	-11.589
粟米	-11.5893
有憂色	-11.5895
軿	-11.5899
攪匀	-11.5899
芹	-11.5901
百一十	-11.5913
物得以生	-11.595
大曰逝	-11.6046
早晚	-11.6064
㓕	-11.6064
紫石英	-11.6066
鬰	-11.6066
明窗塵	-11.6069
憒	-11.6069
僵	-11.6069
執者失之	-11.607
箸	-11.6071
北海若曰	-11.6071
以身觀身	-11.6071
揖讓	-11.6072
甆	-11.6072
黥	-11.6073
不欲琭琭如玉	-11.6073
下德爲之而有以爲	-11.6073
㬠	-11.6073
古之所以貴此道者何	-11.6074
曏	-11.6074
吾不知誰之子象帝之先	-11.6075
驁	-11.6075
軰	-11.6075
僣	-11.6075
百姓皆注其耳目	-11.6075
味辛温無毒主	-11.6076
及吾無身吾有何患	-11.6076
禹錫云	-11.6076
凖	-11.6076
紜	-11.6076
生天生地	-11.6077
粤	-11.6077
復歸於無極	-11.6077
江海所以能爲百谷王者以其善下之	-11.6078
一萬事畢	-11.6078
楹	-11.6079
幾近也	-11.6079
嗅	-11.608
不知常妄作凶	-11.608
一陰一陽之謂道	-11.608
掖	-11.6081
無狀之狀	-11.6081
啻	-11.6081
餘杭	-11.6082
礪	-11.6082
等分爲末	-11.6083
塚	-11.6084
劉蔣	-11.6085
頃刻	-11.6085
金液還丹	-11.6085
惛	-11.6085
祈禱	-11.6086
摯	-11.6092
髯	-11.6092
沌沌	-11.6123
疥癬	-11.6173
所從出	-11.6189
俏	-11.6232
者此人先身	-11.6251
藜蘆	-11.626
稗	-11.6263
壊	-11.6265
燿	-11.6265
錙	-11.6267
祁	-11.6268
慝	-11.6269
跂者不立	-11.6269
絶仁棄義	-11.6271
阮	-11.6272
不見而名	-11.6272
無可無不可	-11.6272
知足不辱	-11.6272
爲者敗之	-11.6272
簧	-11.6274
㝷	-11.6274
柔弱勝剛强	-11.6274
相忘於江湖	-11.6275
無思無慮	-11.6275
梳	-11.6276
張仲景	-11.6277
蛔	-11.6277
不召而自來	-11.6277
無名天地之始有名萬物之母	-11.6277
莫知其極可以有國	-11.6278
逄	-11.6278
芙蓉	-11.6278
强名曰道	-11.6278
中士聞道若存若亡	-11.6278
駢拇	-11.6278
皆知善之爲善斯不善已	-11.6279
坼	-11.6279
故下文云	-11.628
是以萬物莫不尊道而貴德	-11.6281
恬澹	-11.6281
妍醜	-11.6282
形神俱妙	-11.6282
聖人用之則爲官長	-11.6282
耜	-11.6282
膾	-11.6282
黜聰明	-11.6283
爲無爲則無不治矣	-11.6283
環堵	-11.6283
搗篩	-11.6285
羸瘦	-11.6286
關令尹喜	-11.6286
張君房	-11.6287
寒水石	-11.6288
稔	-11.6288
天皇大帝	-11.629
能成其大	-11.6426
莊子外篇	-11.6451
奴婢	-11.6463
受國之垢	-11.6466
鏌	-11.6467
薇	-11.6468
舶	-11.647
獺	-11.647
蹍	-11.6471
蜣	-11.6472
愕	-11.6472
明道若昧	-11.6473
漚	-11.6474
庚戌	-11.6475
黼	-11.6475
獨立而不改	-11.6475
廣德若不足	-11.6475
柔弱者生之徒	-11.6476
身與貨孰多	-11.6476
後其身而身先	-11.6477
天下柔弱莫過於水	-11.6478
汚	-11.6478
浹	-11.6478
帶利劍	-11.6478
赤白痢	-11.6479
生而不有爲而不恃	-11.6479
悚	-11.6479
殽	-11.6479
國家昏亂有忠臣	-11.6479
夫物芸芸	-11.6479
稟	-11.648
善結無繩約而不可解	-11.648
彙	-11.6481
餘食贅行	-11.6482
絶聖棄智民利百倍	-11.6482
禎	-11.6482
麋鹿	-11.6482
眥	-11.6483
癰疽	-11.6483
有無之相生	-11.6483
兵者不祥之器非君子之器	-11.6484
貲	-11.6484
瞳	-11.6485
民之難治以其智多	-11.6486
憩	-11.6486
滌除玄覽能無疵乎	-11.6486
謐	-11.6486
蔞	-11.6486
强行者有志	-11.6486
朋友	-11.6486
重爲輕根	-11.6487
懺	-11.6488
瘁	-11.6488
芻豢	-11.6489
淡泊	-11.6489
皥	-11.6489
剌	-11.649
壬寅	-11.649
湧泉	-11.6492
笛	-11.6494
江淮	-11.6578
冐	-11.667
皂莢	-11.6673
芩	-11.6674
能爲百谷王	-11.6677
絜	-11.6678
琅玕	-11.6679
南華經曰古者	-11.668
挂	-11.6681
其出彌遠其知彌少	-11.6682
不亦悲乎	-11.6682
歉	-11.6682
㡬	-11.6682
闉	-11.6683
功成而不居	-11.6683
嬴	-11.6683
佯	-11.6684
以奇用兵	-11.6685
大國者下流	-11.6685
其次親之譽之	-11.6685
無德司徹	-11.6686
祉	-11.6686
不貴其師不愛其資	-11.6686
槽	-11.6687
揣而鋭之不可長保	-11.6687
隕	-11.6688
粳米	-11.6689
焰硝	-11.6689
滌除玄覽	-11.669
其政悶悶	-11.669
籙籙中	-11.6691
聖人皆孩之	-11.6691
蠲	-11.6691
姝	-11.6692
無象之象	-11.6692
致虚極守靜篤	-11.6692
弊則新	-11.6694
崑	-11.6694
咽喉	-11.6695
璇璣	-11.6695
猗	-11.6695
保此道者不欲盈	-11.6695
涼	-11.6696
常無欲以觀其妙常有欲以觀其徼	-11.6696
三伏時	-11.6696
生之徒十有三死之徒十有三	-11.6697
道之出口淡乎其無味	-11.6698
含德之厚比於赤子	-11.6698
浩浩	-11.671
洗滌	-11.6713
遨	-11.6885
滛	-11.6887
三萬六千	-11.689
蠐螬	-11.6893
知和曰常	-11.6894
然後乃至大順	-11.6894
黏	-11.6894
嬪	-11.6894
楷	-11.6895
嗛	-11.6895
不離輜重	-11.6895
使民復結繩而用之	-11.6895
上德無爲而無以爲	-11.6895
淖	-11.6896
彷	-11.6896
蛆	-11.6896
復衆人之所過	-11.6896
兑	-11.6896
善者果而已	-11.6896
郁	-11.6897
尊行可以加人	-11.6897
楷模	-11.6898
陳藏器	-11.6898
至言去言	-11.6898
汰	-11.6898
名可名非常名	-11.6898
不如其已	-11.6899
暝	-11.6899
行住坐卧	-11.69
不復重録	-11.69
概	-11.6901
有萬不同	-11.6901
詘	-11.6901
治人事天	-11.6901
善言無瑕謫	-11.6902
雖有榮觀燕處超然	-11.6902
叉	-11.6902
兕虎	-11.6903
道生一一生二二生三三生萬物	-11.6904
儵	-11.6904
五勞七傷	-11.6904
善抱者不脱	-11.6904
筵	-11.6904
帀	-11.6905
天下皆知美之爲美斯惡已	-11.6905
泆	-11.6906
黿	-11.6907
謟	-11.6907
波斯國	-11.6908
戍	-11.6908
兜	-11.6908
州刺史	-11.6909
竦	-11.691
摭	-11.691
頁	-11.691
瀨	-11.6911
閏	-11.6912
罩	-11.6917
罽	-11.6922
十枚	-11.7065
山福地眞人	-11.7081
熈	-11.7104
冦	-11.7108
鶩	-11.7109
橘柚	-11.7111
幢	-11.7113
奉聖㫖	-11.7113
失道而後德	-11.7113
欣欣	-11.7114
蓽	-11.7114
以無事取天下	-11.7114
娠	-11.7114
戊寅	-11.7115
故大國以下小國則取小國	-11.7115
揵	-11.7115
鉗	-11.7115
躊躇	-11.7115
㘽蓮	-11.7116
大者宜爲下	-11.7116
榜	-11.7116
彀	-11.7116
顓	-11.7117
筠	-11.7117
終而復始	-11.7118
金木水火土	-11.7118
盱	-11.7119
靄	-11.712
囘	-11.712
靜勝熱	-11.712
不善者吾亦善之	-11.712
丐	-11.7122
消息盈虚	-11.7122
紘	-11.7122
飄風驟雨	-11.7122
蝎	-11.7122
噉	-11.7122
輟	-11.7123
不得已而後起	-11.7123
孰誰也	-11.7123
踴	-11.7124
唯施是畏	-11.7124
胚	-11.7125
摳	-11.7126
霓	-11.7126
一以貫之	-11.7127
或利或害	-11.7127
珮	-11.7127
苣	-11.7128
售	-11.7129
螂	-11.7129
嘿	-11.713
劄	-11.7132
皦	-11.7136
閻	-11.7141
坊	-11.7141
見小曰明	-11.7172
菟絲	-11.732
桁楊	-11.7333
夫禮者忠信之薄而亂之首	-11.7333
廣聖義	-11.7334
其無以易之	-11.7334
兕	-11.7335
攘無臂	-11.7335
𥙷	-11.7335
杭	-11.7336
知止不殆	-11.7336
擿	-11.7337
棠	-11.7337
磚	-11.7337
六親不和有孝慈	-11.7338
重積德則無不克	-11.7338
柔之勝剛弱之勝强	-11.7339
齕	-11.7339
呻	-11.7339
知足之足常足	-11.7339
以約爲紀	-11.7339
小國以下大國則取大國	-11.7339
㦸	-11.7339
循天之理	-11.734
孑	-11.734
莫之爵而常自然	-11.734
逡巡	-11.734
子孫祭祀不輟	-11.734
天下無道戎馬生於郊	-11.734
我獨若遺	-11.7341
霖	-11.7341
多言數窮	-11.7341
人法地地法天天法道道法自然	-11.7341
皋	-11.7341
深根固蔕	-11.7342
泔	-11.7343
丙戌	-11.7343
匈	-11.7343
宋通直郎辨驗藥材寇宗奭編撰宋	-11.7343
咄	-11.7344
迪	-11.7344
澹泊	-11.7345
奬	-11.7345
五金八石	-11.7345
痃癖	-11.7345
特未定也	-11.7345
爲之於未有	-11.7346
爲之於未有治之於未亂	-11.7346
絶仁棄義民復孝慈	-11.7346
衂	-11.7346
胸膈	-11.7346
嚳	-11.7347
匣	-11.7348
肛	-11.7348
死而不亡	-11.7348
冉	-11.7348
執大象天下往	-11.7349
常無欲可名於小	-11.7349
榭	-11.735
撝	-11.735
煨	-11.7353
拓	-11.7353
三千六百	-11.7358
歧	-11.7359
葫	-11.7362
鯽	-11.7363
谷神不死是謂玄牝	-11.7423
芎藭	-11.7544
禹餘糧	-11.7552
鹵莽	-11.7552
鍜	-11.7557
古之道術有在於是者	-11.7557
鹵	-11.7559
飂	-11.756
是故甚愛必大費	-11.756
臚	-11.7561
和而不唱	-11.7562
噲	-11.7562
埒	-11.7562
鷃	-11.7562
大辯若訥	-11.7563
域中有四大	-11.7564
木强則共	-11.7564
臟腑	-11.7564
蔣	-11.7564
似無所止	-11.7565
持而盈之	-11.7565
仆	-11.7565
燋	-11.7565
揉	-11.7566
案明刋本	-11.7566
茄	-11.7566
見素抱樸少私寡欲	-11.7566
跣	-11.7566
橡	-11.7567
三十輻共一轂當其無有車之用	-11.7567
萬物並作吾以觀其復	-11.7567
橛	-11.7567
楯	-11.7567
欄	-11.7568
勝人者有力	-11.7568
閩	-11.7568
能知古始是謂道紀	-11.7569
燄	-11.7569
飄風暴雨	-11.7569
梟	-11.7569
迎之不見其首隨之不見其後	-11.7569
報怨以德	-11.7569
言有宗事有君	-11.7569
評	-11.7569
罵	-11.7569
建德若偷	-11.757
萬物恃之以生而不辭	-11.757
謹出太上正一	-11.7571
常善救物	-11.7571
礦	-11.7571
聖人無常心以百姓心爲心	-11.7572
侯王若能守萬物將自化	-11.7572
道之眞以治身	-11.7572
太醫助教辨驗藥材許洪校正	-11.7573
使我介然有知行於大道	-11.7573
賛	-11.7574
修之身其德乃眞	-11.7574
是以聖人去甚去奢去泰	-11.7574
絶巧棄利盜賊無有	-11.7574
故次此章	-11.7575
刁	-11.7575
䏻	-11.7575
天下皆謂我道大似不肖	-11.7576
亷	-11.7577
偁	-11.7577
𩲸	-11.7578
蝗	-11.7578
櫻	-11.7579
虬	-11.7579
曠然無	-11.7581
浥	-11.7582
臠	-11.7585
吒	-11.7588
將欲歙之必固張之	-11.7593
逝曰遠	-11.7603
美其服	-11.7608
于僞反	-11.7775
粃	-11.7781
大直若屈	-11.7783
誶	-11.7784
胠篋	-11.7787
檳榔	-11.7788
泓	-11.7789
珞	-11.7789
諌	-11.7789
狶韋氏	-11.7792
剽	-11.7792
周行而不殆	-11.7792
以天下觀天下	-11.7792
禹錫等按蜀本圖經云	-11.7792
受國之垢是謂社稷主	-11.7793
强爲之名曰大	-11.7794
沍	-11.7795
洞靈經曰	-11.7795
昃	-11.7796
聶	-11.7796
虺	-11.7797
硋	-11.7798
益生曰祥	-11.7798
是以兵强則不勝	-11.7798
殁身不殆	-11.7798
通乎物之所造	-11.7798
善人之資	-11.7798
陪	-11.7799
柤	-11.7799
蜈蚣	-11.7799
知雄守雌	-11.7799
其微易散	-11.78
㝢	-11.78
執無兵	-11.7801
纒	-11.7801
深根固蒂	-11.7801
摻	-11.7801
鸇	-11.7801
萬物與我爲一	-11.7802
籬	-11.7802
獅	-11.7803
朝甚除	-11.7803
鈇	-11.7803
𨥥	-11.7804
其精甚眞其中有信	-11.7804
歸根曰靜靜曰復命	-11.7805
盥	-11.7805
殺人衆多以悲哀泣之	-11.7805
蘖	-11.7805
或行或隨	-11.7806
亦若是而已	-11.7806
轝	-11.7806
愠	-11.7806
其寢不夢	-11.7806
憯	-11.7806
麴	-11.7806
批	-11.7807
専	-11.7807
廕	-11.7807
吉事尚左凶事尚右	-11.7808
喟	-11.7808
窘	-11.7808
旒	-11.7809
儔	-11.7809
澶	-11.781
同於道者道亦得之	-11.7811
譜	-11.7812
瀾	-11.7817
薺	-11.7819
麝	-11.782
水之潘爲淵	-11.7831
守柔曰强	-11.7862
德乃豐	-11.7885
燮	-11.8022
獨往獨來	-11.8025
是以大丈夫處其厚	-11.8027
金玉滿堂	-11.8029
遙	-11.8029
䘒	-11.8029
塩	-11.803
幘	-11.8031
淬	-11.8032
上德若谷	-11.8032
邴	-11.8035
軼	-11.8035
故道大天大地大王亦大	-11.8036
化而欲作	-11.8036
蠡	-11.8037
未知牝牡之合而䘒作	-11.8037
知此兩者亦楷式	-11.8037
喧	-11.8037
噎	-11.8037
你	-11.8037
道可道非常道名可名非常名	-11.8037
恪	-11.8037
善者吾善之	-11.8038
無不克則莫知其極	-11.8039
桎	-11.8039
忙	-11.804
鬳齋林希逸	-11.804
耄	-11.804
溟涬	-11.804
春生苗	-11.8041
瘤	-11.8041
餔	-11.8041
茫茫	-11.8041
善爲士者不武	-11.8041
烹小鮮	-11.8042
渤	-11.8042
删	-11.8042
耨	-11.8042
髣髴	-11.8043
僉	-11.8043
以其不爭故天下莫能與之爭	-11.8043
聽之不聞名曰希	-11.8044
鹵鹹	-11.8044
笙	-11.8044
玷	-11.8045
濮	-11.8045
懃	-11.8046
天一生水	-11.8047
箱	-11.8047
善用人者爲之下	-11.8048
隠	-11.8048
杳杳	-11.805
樂與餌過客止	-11.805
弧	-11.8051
燠	-11.8052
笥	-11.8052
節度使	-11.8054
奎	-11.8054
未嘗過而問焉	-11.8257
汜	-11.8266
慴	-11.8274
僥倖	-11.8275
及冤句	-11.8276
愀	-11.8276
建言有之	-11.8276
申徒狄	-11.8277
東郭先生	-11.8277
唯道是從	-11.8278
纇	-11.8278
不可不察也	-11.8278
闋	-11.8278
其次畏之侮之	-11.8279
渚	-11.8279
鬳	-11.828
不可得而利不可得而害	-11.828
綢繆	-11.8281
歆	-11.8281
道沖而用之或不盈	-11.8282
吾不知其名	-11.8282
鞴	-11.8283
躁勝寒	-11.8283
畜之長之育之成之熟之養之覆之	-11.8283
厢	-11.8283
剩	-11.8284
成玄英	-11.8284
幡	-11.8285
怍	-11.8285
蝦蟆	-11.8285
纆	-11.8286
其政悶悶其民淳淳	-11.8286
垠	-11.8287
蔵	-11.8287
珊	-11.8288
耒	-11.8288
翌	-11.8289
民之難治以其上之有爲	-11.8289
果而勿强	-11.829
壼	-11.829
生之所無以爲	-11.829
呬	-11.829
九日九夜	-11.8291
酣	-11.8293
不失其所者乆	-11.8294
勇於敢則殺勇於不敢則活	-11.8294
郝	-11.8296
溶	-11.8297
謌	-11.8301
蒐	-11.8302
納竹筒中	-11.832
罪莫大於可欲	-11.846
悞	-11.8493
釡	-11.8497
蟪	-11.8504
纂微司馬蘇曹	-11.8505
藋	-11.8505
鈃	-11.8508
柰	-11.8511
藐	-11.8519
攓	-11.8519
天得一以清	-11.852
箋	-11.8521
觚	-11.8525
寂兮寥兮	-11.8525
蒺藜	-11.8526
芸	-11.8526
前識者道之華而愚之始	-11.8527
簞	-11.8527
麩	-11.8528
和以天倪	-11.8528
范蠡	-11.8528
田子方	-11.8528
牌	-11.8528
桴	-11.8529
屠羊說	-11.8529
上禮爲之而莫之應則攘臂而仍之	-11.853
智慧出有大僞	-11.853
鍮	-11.853
無轍迹	-11.8531
知其雄守其雌爲天下谿	-11.8531
荔	-11.8531
有國之母可以長乆	-11.8532
黄帝九鼎神丹經訣卷	-11.8533
騏	-11.8533
萬物作而不辭	-11.8533
雖有拱璧以先駟馬不如坐進此道	-11.8533
禍莫大於輕敵	-11.8533
是以聖人抱一爲天下式	-11.8533
常無欲以觀其妙	-11.8534
培	-11.8534
綜	-11.8534
吾所以有大患者爲吾有身	-11.8535
虚心實腹	-11.8536
稼穡	-11.8536
鉅	-11.8536
常德乃足	-11.8537
黯	-11.8537
蘇子由曰	-11.8538
烝	-11.8538
人莫之令而自均	-11.8538
若使民常畏死	-11.8539
竊竊然	-11.8539
馘	-11.854
霆	-11.854
飄風不終朝驟雨不終日	-11.854
抛	-11.854
沿	-11.854
一曰慈二曰儉三曰不敢爲天下先	-11.8541
鯨	-11.8541
掣	-11.8541
砥	-11.8543
迦	-11.8546
爲柱下史	-11.8547
塑	-11.8548
經新傳卷之	-11.8548
暘	-11.8549
冑	-11.8552
凱	-11.8556
鈎吻	-11.8565
鯉	-11.8733
故授之以	-11.8754
復扶又反	-11.8764
薏	-11.8764
三蒼云	-11.8765
苧	-11.8767
麥門冬	-11.8768
𡨕	-11.877
天南星	-11.8776
五倍子	-11.8778
至仁無親	-11.8778
蝍	-11.8781
萆	-11.8781
忠信之薄	-11.8781
各當其分	-11.8783
是以聖人後其身而身先外其身而身存	-11.8785
以百姓心爲心	-11.8785
跨者不行	-11.8785
漻	-11.8786
此章南華經	-11.8787
民之從事常於幾成而敗之	-11.8787
戎馬生於郊	-11.8787
民至老死不相往來	-11.8787
物或惡之	-11.8788
嗤	-11.8788
矛	-11.8788
欵	-11.8789
枷	-11.879
螳蜋	-11.879
古之善爲道者非以明民將以愚之	-11.879
悮	-11.8791
師之所處荆棘生焉大軍之後必有凶年	-11.8792
無爲之有益	-11.8792
甄	-11.8793
君子居則貴左用兵則貴右	-11.8793
畸	-11.8793
將以愚之	-11.8793
腴	-11.8794
悗	-11.8794
是以聖人被褐懷玉	-11.8794
知白守黑	-11.8794
搏之不得	-11.8794
倖	-11.8795
旄	-11.8795
蕭炳云	-11.8795
瘞	-11.8795
鏌鎁	-11.8796
難易相成	-11.8796
傖	-11.8796
毓	-11.8796
纊	-11.8798
炬	-11.8798
課	-11.8798
賫	-11.8799
鮓	-11.88
阨	-11.88
頯	-11.8801
往而不害安平泰	-11.8801
宄	-11.8803
陛	-11.9025
吏官各二人出	-11.9026
搶	-11.9033
志心敬禮	-11.9035
鐍	-11.9036
虚而不屈動而愈出	-11.9037
地得一以寧	-11.9039
滔	-11.904
蛸	-11.9041
芧	-11.9044
躓	-11.9045
挫其銳	-11.9045
駁	-11.9046
錄	-11.9047
抗兵相加	-11.9047
兎	-11.9047
攘臂而仍之	-11.9048
何以知其然邪	-11.9048
周而復始	-11.9048
嫗	-11.9048
菘	-11.9048
其日固乆	-11.9049
龔	-11.9049
我獨頑似鄙	-11.905
釵	-11.905
莒	-11.905
諍	-11.9051
飭	-11.9051
圍於陳蔡	-11.9051
嚙	-11.9051
莨	-11.9052
毒蟲不螫猛獸不據攫鳥不搏	-11.9053
經驗後方治	-11.9053
䟽此覆釋	-11.9053
啞	-11.9055
深根寧極	-11.9055
聯	-11.9055
虚室生白	-11.9056
郄	-11.9056
兖	-11.9056
任萬物之自	-11.9057
紺	-11.9058
觜	-11.9058
虚而不屈	-11.9058
玲	-11.9058
豈虚言哉	-11.9059
夫慈以戰則勝以守則固	-11.9059
痞	-11.9059
幾喪吾寳	-11.9059
無入而不自得	-11.9059
冉冉	-11.906
夫何故以其生生之厚	-11.9061
懦	-11.9061
賑	-11.9061
舊不著所出州土	-11.9061
洫	-11.9061
福善禍淫	-11.9062
鞋	-11.9062
蹟	-11.9062
涣若冰將釋	-11.9064
斄	-11.9064
瓣	-11.9067
胤	-11.907
撞	-11.907
斟酌	-11.9072
妊	-11.9079
天下之至柔馳騁天下之至堅	-11.927
無有入於無間	-11.9274
鴳	-11.9298
上仙上靈	-11.9304
絶聖棄知	-11.931
塜	-11.931
形變之始	-11.9312
俚	-11.9313
竽	-11.9314
頊	-11.9315
埏	-11.9316
焱	-11.9316
天無以清將恐裂地無以寧將恐發	-11.9316
蠅	-11.9317
惔	-11.9317
絯	-11.9317
黻	-11.9318
以戰則勝	-11.9318
錘	-11.9318
非陰非陽	-11.9318
敞	-11.9318
豺	-11.9318
棋	-11.9318
不可得而貴不可得而賤	-11.9319
知北遊	-11.9319
跌	-11.9319
列御寇	-11.932
糟粕	-11.9321
啜	-11.9321
堅强者死之徒	-11.9321
天下之物生於有有生於無	-11.9322
輳	-11.9323
見張本舊作	-11.9323
故能成器長	-11.9324
輕則失臣躁則失君	-11.9324
以守則固	-11.9324
踊	-11.9324
吾何以知其然哉	-11.9325
長短之相形	-11.9326
痾	-11.9326
故聖人云我無爲而民自化	-11.9326
侯王若能守萬物將自賔	-11.9326
土苴以治天下	-11.9327
不言之教無爲之益天下希及之	-11.9327
古之善爲士者微妙玄通深不可識	-11.9327
雹	-11.9327
體性抱神	-11.9327
高良薑	-11.9328
欒	-11.9328
螳	-11.9328
夫惟不居是以不去	-11.9328
儼若客	-11.9329
悸	-11.9329
犁	-11.9329
紳	-11.933
扞	-11.933
靜爲躁君	-11.933
知其白守其黑爲天下式	-11.9331
咫	-11.9332
兌	-11.9333
袂	-11.9334
守藏史	-11.9334
縞	-11.9334
天慶觀	-11.9341
儛	-11.9343
藹	-11.9351
十日成水	-11.9414
以其無死地	-11.9444
蓏	-11.9585
䧟	-11.9586
虫	-11.9589
惡音烏	-11.9589
萬物無以生將恐滅	-11.959
得與亡孰病	-11.9592
已乎已乎	-11.9592
飫	-11.9593
慳	-11.9593
檗	-11.9594
徭	-11.9594
天台山	-11.9595
傚	-11.9595
心凝形釋	-11.9595
蝨	-11.9596
既知其子復守其母	-11.9596
駑	-11.9596
芘	-11.9598
押	-11.9598
濾	-11.9599
駡	-11.9599
懋	-11.96
不敢進寸而退尺	-11.96
贄	-11.96
大事必作於	-11.96
涿	-11.96
巍	-11.96
前後之相隨	-11.96
魍	-11.9601
骨肉都融	-11.9601
萬物將自賔	-11.9601
夫兩不相傷故德交歸焉	-11.9601
儉故能廣	-11.9601
杞	-11.9601
滀	-11.9602
何思何慮	-11.9602
或載或隳	-11.9602
衄	-11.9603
焙	-11.9603
圖難於其易爲大於其細	-11.9603
羨	-11.9603
合抱之木生於毫末九層之臺起於累土	-11.9603
猥	-11.9603
蒞	-11.9604
緬	-11.9604
溜	-11.9604
知美之爲美	-11.9604
春生夏長	-11.9605
長短相形	-11.9605
𣗳	-11.9606
顧歡曰	-11.9606
天下有始以爲天下母	-11.9606
勛	-11.9606
茗	-11.9606
癤	-11.9607
薺苨	-11.9607
田甚蕪	-11.9608
拈	-11.9608
梏	-11.9608
航	-11.9608
跬	-11.9609
馥	-11.961
隤	-11.9611
筍	-11.9612
醪	-11.9612
缾	-11.9615
誙	-11.9615
萄	-11.9619
鱠	-11.962
墉	-11.962
堆	-11.9621
令浥浥	-11.9621
萬八千	-11.9686
月採陰乾	-11.9804
▲	-11.9833
衿	-11.9859
各二人出	-11.9866
天下將自正	-11.9872
廟堂之上	-11.9873
琭琭	-11.9874
槢	-11.9874
如享太牢	-11.9875
死生亦大矣	-11.9875
溷	-11.9876
寨	-11.9877
隣	-11.9877
蘧伯玉	-11.9877
銀石器中	-11.9877
一以靈谷得一以盈萬物得一以生	-11.9877
芚	-11.9878
隊	-11.9879
檻	-11.988
壷	-11.9881
失德而後仁	-11.9882
䝉	-11.9882
嗌不嗄	-11.9882
吐故納新	-11.9883
其事好還	-11.9883
不自矜故長	-11.9883
大道汎兮	-11.9883
扉	-11.9884
大小多少報怨以德	-11.9884
組	-11.9885
喚	-11.9885
大國不過欲兼畜人小國不過欲入事人	-11.9885
新汲水	-11.9885
聵	-11.9885
肴	-11.9885
不射之射	-11.9885
温伯雪子	-11.9886
彖	-11.9886
通玄眞經卷之	-11.9887
一陰一陽	-11.9887
菹	-11.9887
不敢爲主而爲客	-11.9887
冬涉川	-11.9888
鼉	-11.9888
胝	-11.9889
涘	-11.9889
韞	-11.9889
棱	-11.989
儋	-11.9891
天下神器不可爲也爲者敗之執者失之	-11.9891
天門開闔能無雌乎	-11.9891
奇物滋起	-11.9892
蠸	-11.9892
雷公云凡使勿用	-11.9892
或强或羸	-11.9894
寒有毒主	-11.9894
衺	-11.9895
吉凶與民同患	-11.9895
唵	-11.9897
知其所由然	-11.9897
弁	-11.9898
嶮	-11.9898
雒	-11.9898
耿	-11.9898
勞形怵心	-11.9899
昴	-11.99
膻	-11.99
堵	-11.99
䑛	-11.9901
隄	-11.9901
鎚	-11.9901
天網恢恢疏而不失	-11.9901
廵	-11.9905
巒	-11.9906
日見恠	-12.0155
昔之得一者	-12.0163
梁惠王	-12.0165
椄	-12.0169
市南宜僚	-12.0169
啍啍	-12.0169
以家觀家	-12.0172
殂	-12.0172
誹	-12.0172
莫之爲而常自然	-12.0173
失仁而後義	-12.0174
大道甚夷	-12.0174
坂	-12.0174
復守其母	-12.0175
瘖	-12.0175
神無以靈將恐歇谷無以盈將恐竭	-12.0176
自遺其咎	-12.0176
我獨若昏	-12.0176
鶂	-12.0176
及其有事不足以取天下	-12.0176
謵	-12.0176
同焉皆得	-12.0176
感物而動	-12.0176
神鬼神帝生天生地	-12.0177
飼	-12.0177
鐔	-12.0177
蘸	-12.0177
與天合德	-12.0178
悛	-12.0178
鏑	-12.0178
夫惟不爭故無尤	-12.0178
禍兮福所倚福兮禍所伏孰知其極	-12.0179
蕎	-12.0179
蠙	-12.0179
屣	-12.0179
去智與故	-12.0179
道德眞經玄德纂䟽卷之	-12.018
補中益氣	-12.018
若槁木之枝	-12.0181
故以身觀身以家觀家以	-12.0181
豬	-12.0182
坳	-12.0183
畎	-12.0183
自是者不彰自伐者無功自矜者不長	-12.0183
齧	-12.0183
廳	-12.0184
夷希微	-12.0184
疋	-12.0184
淑	-12.0185
與接爲構	-12.0185
翮	-12.0185
皆知善之爲善	-12.0185
陌	-12.0186
柩	-12.0186
翩	-12.0186
懾	-12.0186
瓏	-12.0187
妙萬物而爲言	-12.0188
衾	-12.0188
勇於敢則殺	-12.0189
嵇	-12.0189
大威至矣	-12.0189
無何有之鄉	-12.019
紿	-12.0193
自知不自見自愛不自貴	-12.0194
倐	-12.0196
王郭二眞	-12.0197
菓	-12.0197
沖虚至德眞經解卷之	-12.0198
娘	-12.0198
于僞切	-12.0198
巓	-12.0203
秫	-12.0205
忒	-12.0279
道篇第	-12.036
咎莫大於欲得	-12.0394
禍莫大於不知足	-12.0396
難得之貨令人行妨	-12.0457
苡	-12.0458
虢	-12.0463
鸛	-12.0464
擠	-12.0465
倶	-12.0467
疎	-12.0472
心使氣曰强	-12.0474
發乎天光	-12.0475
憺	-12.0475
取足於身	-12.0476
歘	-12.0477
治人事天莫若嗇	-12.0478
其天守全	-12.0478
楸	-12.0478
其未兆易謀	-12.0479
是謂襲常	-12.0479
摸	-12.0479
常善救人故無棄人常善救物故無棄物	-12.048
歸根曰靜	-12.048
蠓	-12.048
哇	-12.0481
挫其鋭解其紛和其光同其塵	-12.0481
絶巧棄利	-12.0482
是以聖人執左契而不責於人	-12.0482
杉	-12.0482
誠全而歸之	-12.0482
夫輕諾必寡信多易必多難	-12.0482
故有道者不處	-12.0483
非以其無私耶故能成其私	-12.0483
桔	-12.0483
視之不見名曰夷	-12.0483
獐	-12.0483
皯	-12.0483
潞	-12.0484
天下希及之	-12.0484
唯之與阿相去幾何善之與惡相去何若	-12.0484
天門開闔能爲雌乎	-12.0484
大器晚成	-12.0484
難事必作於易	-12.0484
黷	-12.0484
渦	-12.0485
悃	-12.0485
玄者天之色	-12.0485
鐶	-12.0485
逗	-12.0485
矉	-12.0485
氐	-12.0486
嶠	-12.0486
釘	-12.0486
鵰	-12.0486
故物或損之而益益之而損	-12.0486
穉	-12.0486
璣	-12.0486
鷂	-12.0487
爲天下谿常德不離復歸於嬰兒	-12.0487
栁	-12.0487
圉	-12.0488
鴻烈解	-12.0488
禹錫云按蜀本圖經云	-12.0488
翏	-12.0489
或下而取	-12.0489
綉	-12.0489
爲天下渾其心	-12.049
緝	-12.0491
卞	-12.0492
五味令人口爽	-12.0493
查	-12.0493
痒	-12.0493
窾	-12.0493
吕惠卿註	-12.0493
繚	-12.0495
籤	-12.0495
聒	-12.0496
峭	-12.0496
菱	-12.0497
軻	-12.0498
椹	-12.0502
㬰	-12.0503
鱔	-12.0505
汧	-12.0508
痛不可忍	-12.0513
悵	-12.0732
駴	-12.0765
好呼報反	-12.0768
明慎奉行如律令老君曰	-12.0775
藁	-12.0778
䂓	-12.078
荽	-12.0782
慟	-12.0783
皷	-12.0784
樂推而不厭	-12.0784
舄	-12.0785
鏗	-12.0785
筐	-12.0787
艷	-12.0787
鮒	-12.0787
愼終如始則無敗事	-12.0788
志乎期費	-12.0788
怙	-12.0789
筦	-12.0789
縳	-12.0789
無遺身殃	-12.079
寘	-12.079
紊	-12.0791
魎	-12.0791
褊	-12.0792
柚	-12.0792
故或下以取或下而取	-12.0792
揣而銳之	-12.0793
爝	-12.0793
天長地久	-12.0793
詆	-12.0793
嘶	-12.0794
璞	-12.0794
汶	-12.0794
茆	-12.0795
人生而靜天之性	-12.0795
凛	-12.0795
道德眞經䟽義卷之	-12.0795
刷	-12.0796
資財有餘	-12.0796
蹩	-12.0796
罘	-12.0796
盃	-12.0797
黛	-12.0797
跛	-12.0797
懟	-12.0797
處上而人不重處前而人不害	-12.0797
悽	-12.0799
夫樂殺人者不可得志於天下	-12.08
知者不博博者不知	-12.08
魚不可脱於淵國之利器不可以示人	-12.08
偏將軍處左	-12.08
上將軍處右	-12.0801
甦	-12.0801
蒔	-12.0802
與天地合其德	-12.0802
衹	-12.0802
牂	-12.0803
與物委蛇而同其波	-12.0803
勇於不敢則活	-12.0804
見江南古藏本舊作	-12.0805
埳	-12.0805
嗒	-12.0805
梱	-12.0805
朵	-12.0806
嬌	-12.0806
迤	-12.0806
吻	-12.0806
靜之徐清	-12.0807
牘	-12.0808
闐	-12.0808
冗	-12.081
劈	-12.0812
蝦	-12.0813
寮	-12.0826
漆固口	-12.0831
槍	-12.1087
荑	-12.1092
蹵	-12.1092
晬	-12.1097
紗	-12.11
粢	-12.1107
菟	-12.1108
卹	-12.1108
靳	-12.1108
崐	-12.111
知止所以不殆	-12.1111
注焉而不滿酌焉而不竭	-12.1111
罨	-12.1111
民至老死	-12.1111
数	-12.1111
南伯子葵	-12.1112
長之育之	-12.1113
不將不迎	-12.1113
斗門方治	-12.1113
兩者各得其所欲故大者宜爲下	-12.1113
壠	-12.1114
形全精復	-12.1114
贖	-12.1114
禧	-12.1114
騷	-12.1115
磅	-12.1115
人之道則不然損不足以奉有餘	-12.1115
陸行不遇兕虎	-12.1116
物得以生謂之德	-12.1117
是謂行無行	-12.1117
澤及萬世而不爲仁	-12.1117
俗人昭昭我獨若昏俗人察察我獨悶悶	-12.1118
攺	-12.1118
倩	-12.1118
販	-12.1118
不自是故彰	-12.1118
此三者不可致詰故混而爲一	-12.1119
抱一能無離	-12.1119
自伐者無功	-12.1119
見張本舊闕	-12.1119
不信者吾亦信之	-12.112
次前者前章	-12.112
麋	-12.112
簣	-12.112
以閲衆甫	-12.112
腠	-12.1121
缶	-12.1121
氾	-12.1121
躔	-12.1121
擯	-12.1121
拏	-12.1122
愛以身爲天下	-12.1122
有罪以免耶	-12.1123
善閉無關楗而不可開	-12.1123
衽	-12.1123
豫若冬涉川	-12.1123
离	-12.1123
鑊	-12.1124
㡭	-12.1124
袐	-12.1124
訝	-12.1124
果而勿矜果而勿伐果而勿驕	-12.1125
亦可單用	-12.1125
誚	-12.1126
嚇	-12.1126
扵	-12.1126
無瑕謫	-12.1126
帝君臣等至心歸命	-12.1127
行下孟切	-12.1127
譔	-12.1129
同於德者德亦得之同於失者失亦得之	-12.113
簾	-12.1132
呉	-12.1132
軦	-12.1133
葡	-12.1138
開其兊濟其事終身不救	-12.1214
艽	-12.142
揲	-12.1426
讁	-12.1435
箠	-12.1435
闗	-12.1436
皿	-12.1437
彝	-12.1438
萹	-12.1439
悪	-12.1439
駝	-12.1439
庻	-12.144
睛	-12.1442
以爲人己愈	-12.1443
其知彌少	-12.1444
𦍙	-12.1445
是以聖人欲不欲不貴難得之貨學不學	-12.1445
仰觀俯察	-12.1445
孰能以有餘奉天下	-12.1445
枸	-12.1446
塞兊閉門	-12.1446
胈	-12.1446
受天下之垢	-12.1446
鑰	-12.1447
龐	-12.1447
攢	-12.1447
常生常化	-12.1447
噐	-12.1447
難終難窮	-12.1447
鴆	-12.1448
之得一者天得一以清地得一以寧神得	-12.1448
崗	-12.1448
邕	-12.1448
除情去欲	-12.1449
魒	-12.1449
以其上食税之多	-12.1449
讙	-12.145
水善利萬物而不爭處衆人之所惡	-12.145
瓤	-12.145
胼	-12.1451
噏	-12.1452
人貌而天	-12.1452
宎	-12.1452
善者不辯辯者不善	-12.1453
鬲	-12.1453
𩲃	-12.1454
鍔	-12.1454
誼	-12.1454
此三者以爲文不足故令有所屬	-12.1454
坦然而善謀	-12.1454
寂兮寥兮獨立而不改周行而不殆	-12.1454
是以聖人爲腹不爲目故去彼取此	-12.1454
闈	-12.1454
柔之勝剛	-12.1454
裸	-12.1454
故善人不善人之師不善人善人之資	-12.1456
自極七息	-12.1456
樸雖小天下不敢臣	-12.1456
嬉	-12.1457
是以君子終日行不離輜重	-12.1457
夫唯不爭故天下莫能與之爭	-12.1457
璇	-12.1458
纛	-12.1458
不可得志於天下	-12.1458
如彈丸	-12.1458
扆	-12.1458
汒	-12.1458
鶵	-12.1458
𡨋	-12.1458
吾是以知無爲之有益	-12.1458
喝	-12.1459
是謂用人之力是謂配天古之極	-12.146
絖	-12.146
巿	-12.146
梭	-12.1461
渥	-12.1461
吾不敢爲主而爲客不敢進寸而退尺	-12.1461
邢	-12.1461
難易之相成	-12.1461
萬物皆備於我	-12.1461
鈐	-12.1462
褚	-12.1462
聞善攝生者陸行不遇兕虎入軍不被甲	-12.1464
蜍	-12.1469
畿	-12.1471
臛	-12.1475
高者抑之下者舉之有餘者損之不足者	-12.1764
天之道損有餘補不足	-12.1765
見賢遍反	-12.1772
仿	-12.1774
掲	-12.1775
耎	-12.1775
蛭	-12.1776
瞠	-12.1776
鷽	-12.1777
上德不德是以有德	-12.1777
躁則失君	-12.178
蓉	-12.1781
萑	-12.1782
縢	-12.1785
人哭亦哭	-12.1786
斵	-12.1786
㸔	-12.1787
而貴食母	-12.1787
繕	-12.1787
慹	-12.1787
建之以常無有	-12.1787
今按别本注云	-12.1788
纎	-12.1788
柔勝剛弱勝强	-12.1788
諔	-12.1788
鴝	-12.1788
戯	-12.1788
隨之不見其後	-12.1789
螢	-12.1789
柘	-12.179
純粹而不雜	-12.179
爚	-12.1791
天下難事必作於易天下大事必作於細	-12.1791
不如坐進此道	-12.1791
如梧桐子	-12.1791
匐	-12.1792
膂	-12.1792
卉	-12.1792
不可得而親不可得而疏	-12.1792
迎之不見其首	-12.1792
㕮	-12.1792
天之道其猶張弓乎	-12.1793
乂	-12.1793
延年益壽	-12.1793
行年六十而六十化	-12.1793
䰢	-12.1793
繟然而善謀	-12.1793
形諜成光	-12.1794
』	-12.1794
愿	-12.1794
儕	-12.1794
菀	-12.1794
與陽同波	-12.1795
陞	-12.1795
同出而異名	-12.1795
罝	-12.1796
罾	-12.1796
不自伐故有功	-12.1796
澈	-12.1796
窈窈冥冥	-12.1797
随	-12.1797
傀	-12.1797
人之所教亦我義教之	-12.1797
藺	-12.1798
動之徐生	-12.1798
捽	-12.1799
肪	-12.1799
涅	-12.1799
餳	-12.1799
玄德深矣遠矣	-12.1799
呷	-12.18
壺丘子林	-12.18
簪	-12.18
爲天下谷爲天下谷常德乃足復歸於樸	-12.1801
紈	-12.1801
甌	-12.1802
洞霄宫	-12.1802
岫	-12.1802
爲天下式常德不忒復歸於無極	-12.1803
見江南古藏本舊闕	-12.1803
而爲奇者吾得執而殺之孰敢	-12.1804
以道佐人主者不以兵强天下其事好還	-12.1804
德者同於德	-12.1804
釅	-12.1804
無古無今	-12.1805
笏	-12.1805
淡乎其無味	-12.1805
鶚	-12.1806
嘗又與來明日又與之見壺子	-12.1806
收視反聽	-12.1807
俘	-12.1807
德至同於初	-12.1807
扔	-12.1808
鵷	-12.1808
圾	-12.1808
忱	-12.1809
榛	-12.1811
鴦	-12.1811
隼	-12.1811
䧺	-12.1812
爪兵無所容其刃夫何故以其無死地	-12.1995
行下孟反	-12.2121
蘘	-12.2125
馳騁田獵令人心發狂	-12.2126
䜴	-12.2127
枋	-12.2132
楓	-12.2136
殛	-12.2141
偎	-12.2142
蒭	-12.2142
搥	-12.2142
川谷之與江海	-12.2143
瑋	-12.2143
覧	-12.2144
槖	-12.2144
華胥氏之國	-12.2144
非其神不傷人聖人亦不傷	-12.2145
天下多忌諱而民彌貧	-12.2145
諠	-12.2146
徤	-12.2146
賅	-12.2146
故貴以身爲天下若可寄天下	-12.2148
氣形質具而未相離	-12.2148
自本自根未有天地自古以固存	-12.2149
烘	-12.2149
浦	-12.2149
溫	-12.2149
近取諸身	-12.215
痂	-12.215
窩	-12.215
蘅	-12.2151
眡	-12.2151
刈	-12.2152
知足不辱知止不殆可以長乆	-12.2152
状	-12.2152
而貴求食於母	-12.2152
滂	-12.2152
自本自根	-12.2152
孰能濁以靜之徐清	-12.2153
躠	-12.2153
瞰	-12.2153
暄	-12.2154
故堅强者死之徒柔弱者生之徒	-12.2154
得之若驚失之若驚是謂寵辱若驚	-12.2154
搉	-12.2154
非以其無私邪故能成其私	-12.2154
膲	-12.2154
所以能長且乆者以其不自生故能長生	-12.2154
若嬰兒之未孩	-12.2155
萬物負陰而抱陽冲氣以爲和	-12.2155
翱	-12.2155
擦	-12.2155
不以故自持	-12.2156
掉	-12.2156
乘乘兮若無所歸	-12.2156
曰吾惡乎知之	-12.2156
蠕	-12.2157
炁四十九口吹	-12.2157
名者實之賔	-12.2157
六十四卦	-12.2157
䵟	-12.2157
楊氏産乳	-12.2158
抉	-12.2158
餮	-12.2158
穎濱蘇轍曰	-12.2158
道生之德畜之物形之勢成之	-12.2158
斁	-12.2159
𤺋	-12.2159
潄	-12.2159
荐	-12.2161
道尊德貴	-12.2161
修之國其德乃豐修之天下其德乃普	-12.2161
合氣於漠	-12.2161
緜	-12.2162
舜以天下讓	-12.2162
掾	-12.2163
遘	-12.2164
我愚人之心也哉純純兮	-12.2164
詵	-12.2165
榻	-12.2165
蚛	-12.2165
塋	-12.2166
傷寒類要	-12.217
子午卯酉	-12.2171
虵	-12.2172
沂	-12.2175
二十四三十六三十	-12.221
兵兕無所投其角虎無所措其	-12.236
沌	-12.2418
漉	-12.2458
廚	-12.25
凢	-12.2504
脤	-12.2505
翺	-12.2508
魭	-12.2508
不就利不違害	-12.2509
誠惶誠恐稽首	-12.251
鎰	-12.251
蒡	-12.251
神得一以靈	-12.2512
巋	-12.2512
蜜陀僧	-12.2512
既得其母以知其子	-12.2514
馬牙硝	-12.2514
繟	-12.2515
果而勿矜	-12.2515
不處其薄居其實不居其華故去彼取此	-12.2515
俗學以求復其初	-12.2515
曵	-12.2515
猶兮其貴言	-12.2515
愛以身爲天下若可託天下	-12.2516
深根固柢	-12.2516
挫其銳解其紛和其光同其塵	-12.2517
穫	-12.2517
以國觀國	-12.2517
丸如菉豆大	-12.2518
瀵	-12.2518
螟	-12.2519
蜺	-12.2519
終日號而嗌不嗄和之至	-12.2519
呌	-12.252
常有欲以觀其徼	-12.252
强大處下柔弱處上	-12.252
不榮通不醜窮	-12.252
搰	-12.252
唯之與阿	-12.252
具茨之山	-12.252
捜	-12.2521
信者吾信之不信者吾亦信之德信	-12.2521
䕃	-12.2521
以百姓爲芻狗	-12.2521
域中有四大而王居其一焉	-12.2521
燎	-12.2521
蒯	-12.2521
褚氏管見	-12.2521
哽	-12.2522
是以侯王自謂孤寡不穀	-12.2522
爻三十時加至	-12.2522
驎	-12.2523
雖有舟輿無所乘之	-12.2523
癮	-12.2523
箴	-12.2524
形而上者謂之道形而下者謂之器	-12.2524
姻	-12.2524
璨	-12.2524
草木之生也柔脆其死也枯槁	-12.2524
剡	-12.2525
惛然若亡而存	-12.2525
覈	-12.2526
鄉觀鄉以國觀國以天下觀天下	-12.2526
堤	-12.2526
故抗兵相加哀者勝矣	-12.2526
聆	-12.2526
婉	-12.2526
町	-12.2527
煒	-12.2528
餽	-12.2529
人以其言下之欲先人以其身後之	-12.2529
爲腹不爲目	-12.253
敬聞命矣	-12.253
孛	-12.2531
吾得執而殺之	-12.2533
楞	-12.2534
熔	-12.2535
奪之必固與之是謂微明	-12.2536
豫兮若冬涉川	-12.2536
繭	-12.2538
噭	-12.2538
厦	-12.2538
耘	-12.2538
歅	-12.2539
機發於踵	-12.2543
桶	-12.2543
出而謂列子曰	-12.2543
伽	-12.255
高者抑之下者舉之	-12.2556
蠍	-12.2859
蒴	-12.2871
䛕	-12.2884
蓯	-12.2888
塵垢粃糠	-12.2889
諮	-12.2892
㤀	-12.2892
蚉	-12.2894
山無蹊隧澤無舟梁	-12.2894
僓	-12.2895
裒	-12.2895
譊	-12.2896
崘	-12.2897
醷	-12.2898
豨	-12.2899
觭	-12.2899
斟	-12.29
笱	-12.29
豎	-12.2901
魘	-12.2901
涽	-12.2901
甘其食美其服安其居樂其俗	-12.2901
葭	-12.2902
不以利累形	-12.2902
耰	-12.2902
寞	-12.2902
道不可言言而非也	-12.2902
摽	-12.2902
吸風飲露	-12.2903
繙	-12.2903
擴	-12.2904
鷦	-12.2904
撃	-12.2904
簳	-12.2904
虗	-12.2905
貟	-12.2905
参	-12.2905
腊	-12.2905
様	-12.2905
棧	-12.2906
軾	-12.2906
天下之至柔章第四十三	-12.2906
隩	-12.2907
凄	-12.2907
棒	-12.2907
鯀	-12.2907
方而不割廉而不劌直而不肆光而不耀	-12.2907
塼	-12.2907
涬	-12.2907
訞	-12.2908
復衆人之所過以輔萬物之自然而不敢	-12.2908
菲	-12.2908
常因自然而不益生	-12.2909
上將軍居右	-12.2909
萬物皆往資焉而不匱	-12.2909
無上三天玉司正法律曰十方天人	-12.2909
天下莫柔弱於水而攻堅强者莫之能先	-12.2909
茲	-12.291
貿	-12.291
遡	-12.291
潑	-12.291
恁	-12.291
良賈深藏若虚君子盛德容貌若愚	-12.291
愜	-12.2911
蔔	-12.2911
迸	-12.2911
何謂寵辱寵爲下	-12.2911
行賢而去自賢之行	-12.2911
縶	-12.2911
杼	-12.2912
芨	-12.2912
慎終如始則無敗事	-12.2912
易知易行	-12.2913
楫	-12.2913
肋	-12.2913
上士聞道章第四十一	-12.2913
除垢止念	-12.2913
鴯	-12.2913
宂	-12.2914
謦	-12.2914
正復爲奇善復爲妖	-12.2915
物物而不物於物	-12.2916
泡	-12.2917
綮	-12.2917
蝡	-12.2917
傘	-12.2918
鯁	-12.2918
擺	-12.2918
債	-12.2918
太上玄靈北斗本命延生	-12.2919
弱之必固强之將欲廢之必固興之將欲	-12.2919
佇	-12.2919
湍	-12.2919
檄	-12.2919
玉虚師相玄天上帝	-12.292
婪	-12.292
瀹	-12.292
德不德是以有德下德不失德是以無德	-12.292
此兩者或利或害天之所惡孰知其故	-12.2921
愴	-12.2921
縑	-12.2923
大道汎兮其可左右	-12.2924
鎸	-12.2924
獷	-12.2924
蔗	-12.2927
將欲奪之必固與之	-12.2937
將欲廢之必固興之	-12.2942
泌	-12.2946
入軍不被甲兵	-12.3086
籩	-12.3278
佹	-12.3279
治直吏反	-12.3279
樠	-12.328
嘷	-12.328
楝	-12.3285
麄	-12.3287
艶	-12.3289
翶	-12.3291
冩	-12.3293
天地之間其猶橐籥乎	-12.3294
㓗	-12.3296
橈	-12.3297
故令有所屬	-12.3297
墀	-12.3297
鋣	-12.3298
黶	-12.3299
谷得一以盈	-12.3302
伯成子高	-12.3302
上德不德章第三十八	-12.3302
墊	-12.3302
豳	-12.3303
噦	-12.3303
鐃	-12.3303
坏	-12.3304
長於上古而不爲老	-12.3304
揄	-12.3304
滕	-12.3304
菪	-12.3304
持而盈之章第九	-12.3304
飡	-12.3305
簷	-12.3305
畚	-12.3305
糺	-12.3305
懷道抱德	-12.3306
橰	-12.3306
侯王得一以爲天下正	-12.3306
毳	-12.3306
殯	-12.3306
廖	-12.3306
韙	-12.3307
善者吾善之不善者吾亦善之德善	-12.3307
道生一章第四十二	-12.3308
人之生也柔弱其死也堅强	-12.3308
縉	-12.3308
遺物離人	-12.3309
蹻	-12.3309
一化之所待	-12.331
使我介然章第五十三	-12.331
人多伎巧奇物滋起	-12.331
訂	-12.3311
其脆易破	-12.3311
豢	-12.3312
菔	-12.3312
洴	-12.3312
功蓋天下而似不自己	-12.3312
窈兮冥兮其中有精	-12.3312
其安易持章第六十四	-12.3313
騞	-12.3314
鷾	-12.3314
瘵	-12.3314
𩵄	-12.3314
蟯	-12.3314
夫代大匠斲希有不傷其手矣	-12.3314
道之爲物惟恍惟惚	-12.3315
修之家其德乃餘修之鄉其德乃長	-12.3316
夫物芸芸各復歸其根	-12.3316
令人目盲五音令人耳聾五味令人口爽	-12.3316
聿	-12.3316
輾	-12.3317
砌	-12.3317
人之所惡唯孤寡不穀而王公以爲稱	-12.3318
胥易技係	-12.3318
故從事於道者道者同於道德者同於德	-12.3319
之所謂曲則全者豈虚言哉誠全而歸之	-12.332
夫唯不爭故無尤	-12.332
勲	-12.332
潼	-12.3321
垛	-12.3321
晞	-12.3321
漕	-12.3323
雛	-12.3324
璋	-12.3325
歐	-12.3326
溼	-12.3327
蓂	-12.3329
匆	-12.3359
谷神不死是謂玄牝玄牝之門是謂天地	-12.3574
峕	-12.3678
痟	-12.3699
芫	-12.3699
蕘	-12.37
薫	-12.3703
努	-12.3705
痀	-12.3711
始乎故長乎性成乎命	-12.3711
瘀	-12.3714
百姓皆謂我自然	-12.3714
埏和也埴	-12.3715
樟	-12.3716
我愚人之心也哉	-12.3716
檐	-12.3717
與日月參光	-12.3719
鷯	-12.3719
琉	-12.372
吾言甚易知章第七十	-12.372
蕩蕩乎民無能名	-12.3721
國之利器不可以示人	-12.3721
幅	-12.3721
知者不言章第五十六	-12.3721
駙	-12.3721
黬	-12.3721
渙	-12.3721
玄聖素王	-12.3722
眚	-12.3722
鋏	-12.3722
蘁	-12.3722
刄	-12.3723
和大怨章第七十九	-12.3723
叚	-12.3723
用兵有言章第六十九	-12.3723
道德眞經取善集卷之	-12.3724
喁	-12.3724
顫	-12.3725
蒓	-12.3725
𩳐	-12.3725
勺	-12.3725
旣以與人己愈多	-12.3725
楷式是謂玄德玄德深矣遠矣與物反矣	-12.3725
蹉	-12.3726
覷	-12.3727
腸風瀉血	-12.3727
五色令人目盲	-12.3727
正容悟物	-12.3727
道生之章第五十一	-12.3727
兩者各得其所欲	-12.3727
擎跽曲拳	-12.3728
輕身耐老	-12.3728
覿	-12.3728
挐	-12.3728
曳尾於塗中	-12.3728
同乎無知其德不離	-12.3728
蛀	-12.3729
執言滯教	-12.3729
不得已而用之恬淡爲上	-12.3729
赧	-12.3729
錠	-12.3729
畤	-12.373
晷	-12.3731
夫惟不厭是以不厭	-12.3731
覦	-12.3731
葂	-12.3731
聖人不病以其病病是以不病	-12.3731
愛養萬物而不爲主	-12.3731
鷗	-12.3732
孀	-12.3732
不自是故彰不自伐故有功不自矜故長	-12.3732
劬	-12.3732
褥	-12.3732
蚹	-12.3732
見張君房本舊作	-12.3733
漲	-12.3733
盼	-12.3733
鬛	-12.3733
届	-12.3733
餉	-12.3734
瀘	-12.3734
我有三寳保而持之	-12.3734
馬巨濟曰	-12.3734
刦	-12.3735
觳	-12.3736
瑠	-12.3736
杪	-12.3736
儘	-12.3737
憔	-12.3739
麓	-12.374
嶷	-12.374
不疾而速不行而至	-12.3741
拄	-12.3742
撒	-12.3743
迓	-12.3748
聏	-12.3749
之至柔馳騁天下之至堅無有入於無間	-12.3812
兕無所投其角	-12.3924
去起吕反	-12.4129
鑚	-12.4132
羖	-12.4134
葳	-12.4139
受國不祥是謂天下王	-12.414
攦	-12.414
如春登臺	-12.4141
堥	-12.4142
吷	-12.4143
怫	-12.4144
嗃	-12.4145
官天地府萬物	-12.4146
眴	-12.4147
跰	-12.4147
不欲以靜天下將自正	-12.4147
庾	-12.4148
禆	-12.4149
受國之不祥是謂天下王	-12.4149
㓜	-12.415
邉	-12.415
笠	-12.415
是以聖人不行而知不見而名不爲而成	-12.4151
膍	-12.4151
莪	-12.4152
呺	-12.4152
蒹	-12.4152
不曰求以得	-12.4153
輕諾必寡信	-12.4153
戛	-12.4154
滲	-12.4154
𫝊	-12.4154
抑高舉下	-12.4155
魑	-12.4155
胲	-12.4155
魓	-12.4155
搔	-12.4156
大盈若冲其用不窮	-12.4156
治人事天章第五十九	-12.4156
椽	-12.4156
胜	-12.4157
善人不善人之師	-12.4157
吾何以知衆甫之然哉	-12.4157
玄中大法師	-12.4157
一闔一闢	-12.4158
用鉛不用鉛	-12.4158
蜃	-12.4159
机	-12.4159
惺	-12.4159
有乎出而莫見其門	-12.416
勝而不美而美之者是樂殺人	-12.416
夫唯病病是以不病	-12.416
天覆地載	-12.416
匍	-12.416
俋	-12.416
鬐	-12.416
晡	-12.4161
六通四闢	-12.4161
多駢旁枝	-12.4161
天道虧盈而益謙	-12.4161
覡	-12.4161
騾	-12.4162
聖人無常心章第四十九	-12.4162
栅	-12.4162
故有無之相生難易之相成長短	-12.4162
虚其心實其腹弱其志强其骨	-12.4163
阪	-12.4163
衙	-12.4163
福兮禍所伏	-12.4163
燁	-12.4163
素樸而民性得矣	-12.4163
道隱於小成	-12.4164
梢	-12.4164
地道變盈而流謙	-12.4164
蘩	-12.4164
複	-12.4164
僑	-12.4164
吾不知誰之子	-12.4166
品物流形	-12.4166
麈	-12.4166
譯	-12.4166
其政悶悶章第五十八	-12.4166
趺	-12.4166
譬道之在天下猶川谷之與江海	-12.4167
天何言哉四時行焉百物生焉	-12.4168
罯	-12.4168
薨	-12.4168
硎	-12.417
其於道也曰餘食贅行	-12.417
不獨親其親	-12.4171
崩中帶下	-12.4172
鄆	-12.4172
厝	-12.4172
民不畏威則大威至	-12.4173
荼	-12.4174
濬	-12.4175
鋼	-12.4176
砧	-12.4176
黮	-12.4177
鰻	-12.4177
鞠	-12.418
賒	-12.4181
寅時卯時辰時巳時午時	-12.4216
南華真經卷第	-12.4542
赭	-12.4572
㫁	-12.4576
茯	-12.4584
伋	-12.4587
䋲	-12.4591
道無問問無應	-12.4592
早服謂之重積德	-12.4593
蓑	-12.4596
狌	-12.4597
骨弱筋柔	-12.46
幷	-12.46
蹎	-12.4601
聞其風而悦之	-12.4601
臥	-12.4602
閃	-12.4603
㘽	-12.4604
芭	-12.4604
蒟	-12.4605
珥	-12.4605
引之盈貫	-12.4606
惟施是畏	-12.4607
軹	-12.4607
揜	-12.4607
生於陵而安於陵	-12.4607
未知牝牡之合	-12.4607
罅	-12.4608
週	-12.4608
人皆取先己獨取後	-12.4608
既以與人己愈多	-12.4608
善計不用籌策	-12.4608
雲行雨施	-12.4609
萼	-12.461
古之善爲道章第六十五	-12.4611
愽	-12.4611
陬	-12.4612
鋟	-12.4612
榔	-12.4612
鎻	-12.4612
舐	-12.4612
多易必多難	-12.4612
犠	-12.4612
天下常以無事及其有事不足以取天下	-12.4612
有乎生而莫見其根	-12.4612
古之善爲士章第十五	-12.4613
蚩	-12.4613
黠	-12.4614
夫惟不爭故天下莫能與之爭	-12.4614
滿招損謙受益	-12.4614
泗	-12.4614
鰥	-12.4614
琪	-12.4615
赤張滿稽	-12.4615
假設疑問	-12.4616
粧	-12.4616
蛇蚹蜩翼	-12.4616
阫	-12.4616
徉	-12.4616
服文采帶利劍厭飲食	-12.4616
大直若屈大巧若拙大辯若訥	-12.4617
知我者希則我者貴	-12.4617
躁勝寒靜勝熱清靜爲天下正	-12.4617
慼	-12.4617
奂	-12.4617
張沖應曰	-12.4617
知其白守其黑	-12.4617
合抱之木生於毫末	-12.4618
驩	-12.4618
搢	-12.4618
秖	-12.4618
以正治國以奇用兵以無事取天下	-12.4619
宕	-12.4619
商角徵羽	-12.4619
痩	-12.4619
劉仲平曰	-12.462
其上不皦其下不昧	-12.462
示之以未始出吾宗	-12.462
髢	-12.462
齏	-12.4621
倕	-12.4621
詈	-12.4621
胄	-12.4621
本經不載所出州土	-12.4621
蝮	-12.4622
敲	-12.4622
斔	-12.4622
霽	-12.4624
嵐	-12.4625
满	-12.4627
邸	-12.4627
閤	-12.4628
薯	-12.4628
霏	-12.4632
异	-12.4632
地之間其猶橐籥乎虚而不屈動而愈出	-12.4633
氈	-12.4633
洺	-12.4633
迍	-12.4634
畀	-12.4635
隰	-12.4635
渟	-12.4639
蝙	-12.4641
醍	-12.4644
柑	-12.467
罪莫大於可欲禍莫大於不知足咎莫	-12.4748
埏埴以爲器當其無有器之用	-12.4985
葈	-12.5047
雱	-12.5052
蠛	-12.5073
佒	-12.5074
逭	-12.5074
杷	-12.5074
裒多益寡	-12.5076
謑	-12.5077
劾	-12.5078
以濡弱謙下爲表	-12.5079
代大匠斵	-12.508
江海爲百谷王章第六十六	-12.508
狥	-12.508
尓	-12.5081
蛣	-12.5083
碁	-12.5083
魁𩲃𩵄䰢魓𩳐魒	-12.5083
徨	-12.5083
紬	-12.5084
靚	-12.5084
雖有舟輿無所乗之	-12.5084
蓊	-12.5085
瘑	-12.5085
用其光復歸其明無遺身殃是謂襲常	-12.5086
衆人熙熙如享太牢如登春臺	-12.5086
襁	-12.5086
帽	-12.5087
拽	-12.5087
萬物作焉而不辭	-12.5087
盛德容貌若愚	-12.5087
洼	-12.5087
疱	-12.5088
方矢復寓	-12.5088
猵	-12.5088
臰	-12.5089
殗	-12.5089
熹	-12.5089
居不知所爲行不知所之	-12.509
故致數輿無輿	-12.509
獼	-12.5091
勗	-12.5091
懌	-12.5091
覯	-12.5091
覕	-12.5091
既以爲人己愈有既以與人己愈多	-12.5091
洿	-12.5092
吼	-12.5092
民之輕死以其求生之厚	-12.5092
小國不過欲入事人	-12.5092
軱	-12.5093
鞍	-12.5093
縻	-12.5093
癱	-12.5093
貉	-12.5093
莛	-12.5094
若肖乆矣其細也夫	-12.5094
犍	-12.5094
䃣	-12.5094
瀟	-12.5095
孰能安以乆動之徐生	-12.5095
知我者希則我貴矣	-12.5096
琰	-12.5096
逶	-12.5096
油然不形而神	-12.5096
惘	-12.5096
無狹其所居無厭其所生	-12.5096
視之不足見聽之不足聞用之不可既	-12.5096
玃	-12.5096
符用黃帛五寸右	-12.5096
彤	-12.5097
癃	-12.5097
夫唯大故似不肖	-12.5097
塊然獨以其形立	-12.5097
以閲衆甫吾何以知衆甫之然哉以此	-12.5097
筯	-12.5099
澠	-12.5099
恙	-12.5099
殭	-12.51
倮	-12.51
端坐生腰	-12.5101
凭	-12.5101
我有三寳寳而持之	-12.5101
譖	-12.5102
儉故能廣不敢爲天下先故能成器長	-12.5103
將欲歙之章第三十六	-12.5106
瑰	-12.5106
今按陳藏器本草云	-12.5107
莎	-12.5107
鄂	-12.5107
遹	-12.5109
笞	-12.5111
荏	-12.5111
雩	-12.5123
鑿户牖以爲室	-12.548
鵂	-12.5541
甥	-12.5566
姓某上表	-12.5572
開度亡過某靈魂	-12.5573
邱	-12.5573
湩	-12.5573
臊	-12.5574
螴	-12.5575
侯王得一以爲天下貞	-12.5575
大盈若沖其用不窮	-12.5575
蠧	-12.5576
犿	-12.5576
某誠惶誠恐稽首頓首再拜上言	-12.5576
蜳	-12.5577
嚆	-12.5578
跈	-12.5578
槿	-12.5578
𢎞	-12.5579
附贅縣疣	-12.558
蚕	-12.558
砉	-12.5581
長於水而安於水	-12.5581
從水之道而不爲私	-12.5582
娑	-12.5582
誸	-12.5583
我獨怕兮其未兆如嬰兒之未孩	-12.5583
唐玄宗御製道德眞經䟽卷之	-12.5583
絪	-12.5584
輐	-12.5584
水仙源録卷之	-12.5585
吾不知其誰之子象帝之先	-12.5586
道德眞經衍義手鈔卷之十	-12.5586
此其以賤爲本邪非乎	-12.5587
噆	-12.5587
貊	-12.5588
通於一而萬事畢	-12.5589
無物不然無物不可	-12.5589
南華眞經循本卷之二十	-12.5589
夷道若纇	-12.5589
如嬰兒之未孩	-12.559
夫唯無以生爲者是賢於貴生	-12.559
無有室之用故有之以爲利無之以爲用	-12.559
欐	-12.5591
果而不得已是果而勿强	-12.5591
腓	-12.5591
愔	-12.5592
阡	-12.5593
醨	-12.5593
惚兮恍兮其中有象	-12.5593
帖	-12.5593
嫡	-12.5594
夫惟不可識故强爲之容	-12.5594
綟	-12.5594
妣	-12.5595
彗	-12.5595
圖經衍義本草卷之十	-12.5595
前朝奉大夫	-12.5595
宋王元澤傳	-12.5595
恍兮惚兮其中有物	-12.5595
瞞	-12.5595
慿	-12.5595
逌	-12.5595
凝遠大師常德路玄妙觀	-12.5596
圖經衍義本草卷之三十	-12.5596
禁攻寢兵	-12.5596
曬	-12.5597
菉	-12.5597
㳙	-12.5597
舘	-12.5597
駮	-12.5597
北極眞武普慈度世法懴卷之	-12.5598
鎗	-12.5599
樅	-12.5599
頷	-12.5599
蘋	-12.5599
名與身孰親身與貨孰多得與亡孰病	-12.5599
聽之不聞名曰希搏之不得名曰微	-12.5599
奧	-12.5599
囷	-12.56
掬	-12.56
棣	-12.56
潢	-12.5601
曄	-12.5601
跐	-12.5601
恡	-12.5601
謋	-12.5602
𧵥	-12.5602
迢	-12.5602
芰	-12.5602
苕	-12.5602
夫惟病病是以不病	-12.5603
太上老君混元上德皇帝	-12.5604
螘	-12.5604
恊	-12.5605
黄茂村曰	-12.5605
茜	-12.5606
嗑	-12.5606
圖經衍義本草卷之二十	-12.5607
元和遷校府	-12.5609
碢	-12.5609
將欲弱之必固强之	-12.5627
陁	-12.5641
申時酉時戌時亥時子時	-12.5643
器當其無有器之用鑿户牖以爲室當其	-12.5692
虎無所措其爪兵無所容其刃	-12.5836
下德不失德是以無德	-12.6085
䕡	-12.6088
墠	-12.6092
大道甚夷而民好徑	-12.6094
駸	-12.6096
犂	-12.6099
訕	-12.6102
蝟	-12.6102
窢	-12.6102
椏	-12.6103
卬	-12.6104
狃	-12.6105
煴	-12.6105
湛兮似若存	-12.6105
屛	-12.6106
攤	-12.6106
篦	-12.6107
蹈火不熱行乎萬物之上而不慄	-12.6107
蘼	-12.6108
闞	-12.6109
常知楷式是謂玄德	-12.611
牆	-12.611
垓	-12.6111
惹	-12.6111
抹	-12.6111
芊	-12.6113
醢	-12.6113
硏	-12.6113
眺	-12.6113
使人輕乎貴老	-12.6113
薾然疲役	-12.6113
名之樸亦將不欲不欲以靜天下將自正	-12.6114
睥	-12.6114
天地之於萬物聖人之於百姓	-12.6114
簡要濟衆方治	-12.6116
撤	-12.6116
子孫以祭祀不輟	-12.6116
窬	-12.6117
跟	-12.6117
縠	-12.6117
恵	-12.6118
窿	-12.6118
遄	-12.6118
形高下之相傾音聲之相和前後之相隨	-12.6118
跫	-12.6119
俍	-12.6119
餞	-12.6119
塔	-12.612
暁	-12.612
焚符破璽	-12.612
泝	-12.6121
濳	-12.6121
一與言爲二二與一爲三	-12.6121
九老仙都君	-12.6121
禍兮福所倚	-12.6121
兩者交通成和而物生焉	-12.6122
太府寺簿兼	-12.6123
先天地生而不爲乆長於上古而不爲老	-12.6123
惋	-12.6123
歃	-12.6123
徊	-12.6124
故能爲百谷王是以聖人欲上	-12.6124
處前而人不害	-12.6124
㓂	-12.6125
圄	-12.6125
披髮跣足	-12.6125
屐	-12.6126
嵬	-12.6126
骰	-12.6126
糵	-12.6127
璉	-12.6127
兩臂重於天下	-12.6129
仵	-12.6129
蜎	-12.6129
崔元亮海上方	-12.6129
曇	-12.613
窖	-12.6131
霈	-12.6132
収	-12.6132
凰	-12.6133
螯	-12.6133
浚	-12.6134
笄	-12.6135
捏	-12.6135
萱	-12.6135
蕷	-12.6136
义	-12.6137
垍	-12.6138
募	-12.6144
搽	-12.6161
溞	-12.6169
朝甚除田甚蕪倉甚虚	-12.6646
四人相與游於世胥如志也窮年	-12.6652
輇	-12.6652
蒻	-12.6652
不欲碌碌如玉	-12.6654
蜋	-12.6654
道徳眞經廣聖義卷之	-12.6657
惝	-12.6657
𤓰	-12.6658
薢	-12.6659
鋌	-12.6659
雚	-12.6661
蕊	-12.6662
吡	-12.6663
繲	-12.6663
掔	-12.6663
朂	-12.6663
故致數譽無譽	-12.6664
鑿户牖以爲室當其無有室之用	-12.6664
翐	-12.6665
翂	-12.6665
黣	-12.6666
善閉無關鍵而不可開	-12.6666
熖	-12.6667
燻	-12.6667
名與身章第四十四	-12.6667
南華眞經循本卷之十	-12.6668
娯	-12.6668
肅肅出乎天赫赫發乎地	-12.6668
夫唯不居是以不去	-12.6669
翥	-12.6669
鑾	-12.6669
莘	-12.6669
濵	-12.667
躇	-12.667
以美利利天下	-12.667
五峯清安逸士王守正集	-12.667
湊	-12.667
鼬	-12.6671
作而不辭生而不有爲而不恃功成不居	-12.6671
與善仁言善信政善治事善能動善時	-12.6671
𠂻	-12.6671
不獨親其親不獨子其子	-12.6671
才全而德不形	-12.6671
琊	-12.6671
枲	-12.6671
無上三天玉司正法律曰	-12.6671
絰	-12.6671
睢睢盱盱	-12.6672
釿	-12.6672
綫	-12.6672
儃	-12.6672
蚱	-12.6672
措杯水其肘上	-12.6672
燃	-12.6672
而不爲高在六極之下而不爲深	-12.6673
德若谷大白若辱廣德若不足建德若偷	-12.6673
閶	-12.6673
睽	-12.6673
窨	-12.6674
反者道之動章第四十反者道之動	-12.6674
弅	-12.6674
恢恑憰怪	-12.6674
蜒	-12.6674
彎	-12.6674
化而欲作吾將鎮之以無名之樸	-12.6674
莓	-12.6675
帑	-12.6675
袪	-12.6675
其安易持其未兆易謀其脆易	-12.6675
縊	-12.6675
美者自美吾不知其美	-12.6675
磷	-12.6675
羆	-12.6675
譍	-12.6676
惚兮恍其中有象恍兮惚其中有物	-12.6676
捫	-12.6676
唯止能止衆止	-12.6676
樞密院編修	-12.6677
髮引千鈞	-12.6677
䘏	-12.6677
偏將軍處左上將軍處右言以喪禮處之	-12.6677
帆	-12.6677
蕨	-12.6677
匏	-12.6678
叠	-12.6678
人之生動之死地十有三	-12.6678
肢體黜聰明離形去	-12.6679
絆	-12.6679
矰	-12.6679
锐	-12.668
饜	-12.668
棊	-12.668
執大象章第三十五執大象天下往	-12.6681
善計不用籌筭	-12.6681
滷	-12.6681
体	-12.6681
憧	-12.6682
蘽	-12.6682
萬物皆出於機皆入於機	-12.6683
殢	-12.6683
餓死於首陽	-12.6683
轟	-12.6683
瀑	-12.6684
慣	-12.6684
湣	-12.6685
者天地天地尚不能乆而況於人乎	-12.6685
屹	-12.6686
之王天下也我太上	-12.6687
宋杭州州學内舍生	-12.6687
怱	-12.6688
賽	-12.6689
鎬	-12.669
璘	-12.6692
奭	-12.6694
皴	-12.6696
璫	-12.6697
混元聖紀卷之	-12.6698
甸	-12.6698
碣	-12.6701
時老君下爲師號	-12.6744
中來今身爲人	-12.7223
属	-12.7227
丧	-12.7231
彪	-12.7232
襯	-12.7233
薔	-12.7234
鴿	-12.7235
求馬於唐肆	-12.7236
槲	-12.7237
㤗	-12.7237
蜥	-12.7239
仄	-12.724
誠惶誠恐稽首頓首伏念	-12.7241
頴	-12.7243
生非貴之所能存	-12.7245
踉	-12.7245
神無以靈將恐歇	-12.7246
衘	-12.7246
貎	-12.7247
蜴	-12.7247
趕	-12.7247
新補見陳藏	-12.7247
古者謂之遁天之刑	-12.7248
瀣	-12.7248
芣	-12.7249
禍亦不至福亦不來	-12.7251
緍	-12.7251
不以萬物易蜩之翼	-12.7251
騮	-12.7251
爻三十時復退至	-12.7251
鈆	-12.7252
吾師乎吾師乎	-12.7252
沆	-12.7252
豊	-12.7253
未嘗先人而常隨人	-12.7253
大物也有大物者不可以物物	-12.7254
絀	-12.7254
天子不得臣諸侯不得友	-12.7254
日出而作日入而息	-12.7254
無聽之以心而聽之以氣	-12.7254
蠖	-12.7254
廐	-12.7255
硌	-12.7256
北元統章第	-12.7256
茁	-12.7256
辣	-12.7257
善建不拔章第五十四	-12.7257
篲	-12.7257
爲福先不爲禍始	-12.7257
憂患不能入邪氣不能襲	-12.7258
窄	-12.7259
舋	-12.7259
腞	-12.7259
沽	-12.726
南華眞經注䟽卷之十	-12.726
鼪	-12.726
鶡	-12.726
處乎不淫之度	-12.7261
唳	-12.7261
諤	-12.7261
两	-12.7261
道德眞經集義卷之十	-12.7262
齟	-12.7262
鶻	-12.7262
故取天下者常以無事	-12.7262
色之所色者彰矣而色色者未嘗顯	-12.7262
飾智以驚愚	-12.7262
菩	-12.7262
列子見之而心醉	-12.7263
紆	-12.7263
猾	-12.7263
大國者下流章第六十一大國者下流	-12.7264
曲則全章第二十二曲則全	-12.7264
居鄭圃四十年人無識者	-12.7264
九層之臺起於累土	-12.7264
竝	-12.7265
銀青光禄大夫	-12.7265
瘠	-12.7265
德有心而心有眼	-12.7265
埌	-12.7265
視之不見章第十四視之不見名曰夷	-12.7265
姒	-12.7265
璿	-12.7266
幀	-12.7266
炯	-12.7266
茭	-12.7266
宋鈃尹文	-12.7267
殟	-12.7267
譽堯而非桀	-12.7267
大國不過欲兼畜人	-12.7267
混兮其若濁	-12.7268
篠	-12.7268
韌	-12.7268
磐	-12.7268
蕆	-12.7268
閫	-12.7269
囹	-12.7269
夫佳兵章第三十一夫佳兵者不祥之器	-12.7269
覘	-12.727
侑	-12.727
謖	-12.727
道不爭而善勝不言而善應不召而自來	-12.727
巘	-12.727
通玄眞經纘義卷之	-12.7271
志心皈命禮	-12.7271
啗	-12.7272
峩	-12.7272
僥	-12.7273
鬪	-12.7274
𢂽	-12.7274
龕	-12.7275
串	-12.7275
壟	-12.7276
荻	-12.7277
飊	-12.7278
姪	-12.7281
訢	-12.7283
槎	-12.7284
糯	-12.7286
澧	-12.7287
菥	-12.7288
旂	-12.7294
与	-12.7845
乱	-12.7845
諉	-12.7862
𨽻	-12.7863
㐫	-12.7864
飱	-12.7867
吽	-12.7867
耼	-12.7869
地無以寧將恐發	-12.787
鵜	-12.787
譛	-12.787
褻	-12.787
𣻏	-12.7871
天無以清將恐裂	-12.7871
䕫	-12.7872
髁	-12.7872
灝	-12.7873
搦	-12.7873
甃	-12.7873
埅	-12.7874
咺	-12.7874
拸	-12.7874
奓	-12.7875
惇	-12.7875
道不可聞聞而非也道不可見見而非也	-12.7875
葍	-12.7875
啟	-12.7876
沖虚至德眞經四解卷之十	-12.7876
捄	-12.7876
谷無以盈將恐竭	-12.7877
㼜	-12.7877
棰	-12.7877
縹	-12.7878
碏	-12.7878
薷	-12.7878
澹兮其若海	-12.7878
䠓	-12.7879
堈	-12.7879
嬙	-12.7879
塢	-12.788
有始章第五十二天下有始以爲天下母	-12.788
有未始有夫未始有始也者	-12.788
疢	-12.788
咶	-12.788
芒然彷徨乎塵垢之外	-12.788
和曰常知常曰明益生曰祥心使氣曰强	-12.788
大道廢章第十八大道廢有仁義	-12.788
聖人在天下惵惵爲天下渾其心	-12.7881
舅	-12.7881
掊斗折衡	-12.7881
道德眞經集註卷之十	-12.7881
塪	-12.7881
轢	-12.7881
嗋	-12.7881
棅	-12.7882
丈夫處其厚不處其薄居其實不居其華	-12.7882
希有不傷其手矣	-12.7882
衆人皆有餘而我獨若遺	-12.7883
兾	-12.7883
宋鶴林彭耜纂集	-12.7883
頞	-12.7883
天之道章第七十七天之道其猶張弓乎	-12.7883
葩	-12.7884
諳	-12.7884
㢘	-12.7884
惡乎然然於然惡乎不然不然於不然	-12.7884
嬖	-12.7884
拷	-12.7884
薩	-12.7884
爲輕根章第二十六重爲輕根靜爲躁君	-12.7885
既以與人己愈有	-12.7885
惓	-12.7885
忘其肝膽遺其耳目	-12.7886
袠	-12.7886
茀	-12.7886
是以侯王自稱孤寡不穀	-12.7886
璜	-12.7886
嶂	-12.7887
憂之病方且治之未暇治天下也	-12.7887
裾	-12.7887
復讎者不折鏌干	-12.7887
椁	-12.7888
彼亦一是非此亦一是非	-12.7888
跗	-12.7888
喎	-12.7888
騶	-12.7888
驀	-12.7889
未嘗見舟而便操之也	-12.7889
閟	-12.7889
大方無隅大器晚成大音希聲大象無形	-12.7889
仧	-12.7889
蕈	-12.7889
臝	-12.7889
熠	-12.7889
岀生入死章第五十	-12.789
磔	-12.789
决性命之情而饕貴富	-12.789
者不立章第二十四跂者不立跨者不行	-12.789
慇	-12.789
上善若水章第八上善若水	-12.789
棄事則形不勞遺生則精不虧	-12.7891
不尚賢章第三不尚賢使民不爭	-12.7891
莫覺莫悟何相孰也	-12.7891
膊	-12.7891
非其鬼不神其神不傷民	-12.7891
羙	-12.7891
不曰求以得有罪以免邪故爲天下貴	-12.7891
知其雄章第二十八知其雄守其雌	-12.7892
𨇤	-12.7892
廛	-12.7892
戡	-12.7893
知人者智自知者明勝人者有力自勝者	-12.7893
旻	-12.7893
時騁而要其宿	-12.7893
鉉	-12.7893
幃	-12.7894
符用緋帛七寸	-12.7894
澇	-12.7894
槔	-12.7895
鯈	-12.7895
癧	-12.7896
道隱無名夫惟道善貸且成	-12.7896
夫惟大故似不肖若肖乆矣其細也夫	-12.7896
朝聞道夕死可矣	-12.7897
圮	-12.7897
噪	-12.7898
章第十二五色令人目盲五音令人耳聾	-12.7899
綆	-12.7899
蹠	-12.7899
悝	-12.7899
人之生動之死地亦十有三	-12.7899
珉	-12.7901
蕙	-12.7904
刼	-12.7905
識感變之所起者事至則	-12.7905
饉	-12.7906
悒	-12.791
粳	-12.7911
球	-12.7912
欖	-12.7914
馳騁田獵令人心發狂難得之貨令人行	-12.7943
老君神符主收録	-12.8463
左將軍右將軍各九人出	-12.8499
旬有五日而後反	-12.8524
誠惶誠恐稽首頓首謹言年月日具位	-12.853
櫨	-12.8535
旭	-12.8538
詁	-12.8538
釬	-12.8538
跽	-12.8538
苻	-12.8539
亦不知我之是非利害歟	-12.8539
觧	-12.8539
亦不知彼之是非利害歟	-12.8539
出則子止子先出則我止	-12.8539
餬	-12.8539
嘖	-12.8539
鎒	-12.8539
夫子始一引吾並席而坐	-12.854
墼	-12.854
特降玉清道炁靈寳妙光	-12.854
謹為拜章一通上聞三天伏望	-12.854
蠪	-12.854
胠	-12.8541
祜	-12.8541
鼷	-12.8541
暍	-12.8542
黈	-12.8542
鷄犬之聲相聞	-12.8542
乗乗兮若無所歸	-12.8542
芙	-12.8542
小國寡民使有什伯之器而不用	-12.8543
奡	-12.8543
詡	-12.8544
之而視全人其脰肩肩	-12.8544
麂	-12.8544
碭	-12.8544
德之厚章第五十五含德之厚比於赤子	-12.8545
適人之適而不自適其適者也	-12.8545
喣	-12.8546
甘其食美其服安其俗樂其業	-12.8546
氲	-12.8546
人我之養畢足而止	-12.8546
緳	-12.8546
與人並立而使人化	-12.8546
茴	-12.8546
聞其風而悅之	-12.8546
輓	-12.8547
龢	-12.8547
猬	-12.8547
樃	-12.8547
隷	-12.8547
㜸	-12.8548
而攻堅强者莫之能勝其無以易之	-12.8548
以指喻指之非指	-12.8548
儆	-12.8548
槨	-12.8549
太上章第十七太上下知有之	-12.8549
靜而與陰同德動而與陽同波	-12.8549
閨	-12.8549
未知今之所謂是之非五十九非也	-12.8549
脰	-12.8549
背逡巡足二分垂在外	-12.855
叡	-12.855
水流濕火就燥	-12.855
嵒	-12.855
鬃	-12.855
逆旅人有妾二人	-12.855
其動也天其靜也地	-12.855
茙	-12.855
澒	-12.855
硯	-12.855
鄠	-12.855
形體保神各有儀則謂之性	-12.855
="33"/>	-12.8551
t	-12.8551
弈	-12.8551
草木之生也柔脆	-12.8552
茺	-12.8552
袵	-12.8552
人皆知有用之用而莫知無用之用	-12.8552
<	-12.8552
民可使由之不可使知之	-12.8552
鞏	-12.8552
物固有所然物固有所可	-12.8552
鍳	-12.8552
漑	-12.8553
渻	-12.8553
夫唯無知是以不我知	-12.8553
扄	-12.8554
挨	-12.8554
道常無名章第三十二道常無名	-12.8555
以貴下賤大得民也	-12.8555
文滅質博溺心	-12.8555
鷀	-12.8555
言居上勢則以喪禮處之	-12.8555
滁	-12.8555
旃	-12.8556
踣	-12.8556
糅	-12.8556
譁	-12.8556
齬	-12.8557
哂	-12.8557
臾	-12.8557
韵	-12.8557
鷰	-12.8557
鏁	-12.8558
儷	-12.8558
法令滋章盜賊多有	-12.8558
非其神不傷民聖人亦不傷民	-12.8558
抜	-12.8558
睠	-12.8558
鄱	-12.8558
鄭子陽即令官遺之粟	-12.8558
人能常清靜天地悉皆歸	-12.8559
禍莫大於輕敵輕敵則幾喪吾寳	-12.8559
善爲士章第六十八善爲士者不武	-12.8559
瑗	-12.856
𥝠	-12.856
媪	-12.856
蹋	-12.8561
齲	-12.8561
瓞	-12.8561
孰能濁以靜之徐清孰能安以動之徐生	-12.8561
昏然五情爽惑	-12.8561
夫唯不可識故强爲之容	-12.8562
無動不生無而生有	-12.8562
鴣	-12.8562
奩	-12.8563
樸雖小天下莫能臣	-12.8563
鋩	-12.8565
姣	-12.8565
瘲	-12.8566
崎	-12.8566
朐	-12.8566
生非汝有是天地之委和也	-12.8567
泅	-12.8567
伯夷死名於首陽	-12.8568
夫惟不盈故能敝不新成	-12.8568
怎	-12.8568
楪	-12.8568
罌	-12.8569
劎	-12.857
麪	-12.8571
蠣	-12.8572
峽	-12.8573
抃	-12.8575
䙱	-12.8575
龍變梵度天	-12.8577
攷	-12.8578
門著火五日用炭	-12.8578
痤	-12.8578
稺	-12.8579
薟	-12.858
鱧	-12.8582
橄	-12.8584
璈	-12.8584
夫大塊載我以形勞我以生佚我以老息	-12.9125
揔	-12.9231
諈	-12.9236
棕	-12.9238
蛛	-12.9239
櫚	-12.9244
圊	-12.9248
䜟	-12.9248
澹然無極而衆美從	-12.925
臏	-12.925
人多利器國家滋昏	-12.9251
削曾史之行鉗楊墨之口	-12.9253
蕢	-12.9253
軛	-12.9254
肔	-12.9254
厯	-12.9254
臣禹錫等謹按	-12.9254
曼胡之纓短後之衣瞋目而語難	-12.9254
絺	-12.9254
若性之自爲而不知爲之者	-12.9255
苢	-12.9255
科車赤符吏	-12.9255
𥐻	-12.9255
顪	-12.9255
抶	-12.9256
氣也者虚而待物者也	-12.9256
締	-12.9257
大浸稽天而不溺	-12.9257
燾	-12.9257
裨	-12.9257
驊	-12.9257
惾	-12.9257
叵	-12.9258
万	-12.9259
颺	-12.9259
三年之後心不敢念是非口不敢言利害	-12.9259
惜乎而夫子其窮哉	-12.9259
䑓	-12.926
眼如耳耳如鼻鼻如口	-12.926
桂可食故伐之漆可用故割之	-12.926
攩	-12.926
神入其門骨骸反其根我尚何存	-12.9261
闌	-12.9261
訐	-12.9262
安時而處順哀樂不能入也	-12.9262
邙	-12.9263
暱	-12.9263
胙	-12.9263
讖	-12.9263
挫鋭解紛和光同塵	-12.9263
常無爲章第三十七道常無爲而無不爲	-12.9263
或行或隨或呴或吹或强或羸或載或隳	-12.9264
糲	-12.9264
虀	-12.9264
痓	-12.9264
玦	-12.9264
眂	-12.9264
萬物歸焉而不知主可名於大	-12.9265
太學生江澂䟽	-12.9265
孔子窮於陳蔡之間七日不火食	-12.9265
眶	-12.9265
礱	-12.9265
翎	-12.9265
呂	-12.9265
簟	-12.9266
熳	-12.9266
帚	-12.9266
聲之所聲者聞矣而聲聲者未嘗發	-12.9266
偆	-12.9267
瑯	-12.9267
誫	-12.9267
人之所惡惟孤寡不穀而王公以爲稱	-12.9267
攛	-12.9267
譹	-12.9268
芡	-12.9268
擷	-12.9269
鼓萬物而不與聖人同憂	-12.9269
泉涸魚相與處於陸相呴以濕相濡以沫	-12.9269
搧	-12.9269
物混成章第二十五有物混成先天地生	-12.927
春螽之股堪秋蟬之翼	-12.927
鴛	-12.927
無爲章第六十三爲無爲事無事味無味	-12.927
反覆終始不知端倪	-12.9271
橙	-12.9271
瘉	-12.9271
僭	-12.9271
太上說玄天大聖眞武本傳神呪妙經	-12.9271
賚	-12.9272
枉則直窪則盈弊則新少則得多則惑	-12.9273
名亦既有夫亦將知止知止所以不殆	-12.9273
有道章第四十六天下有道却走馬以糞	-12.9273
捋	-12.9273
恆	-12.9273
螭	-12.9274
隈	-12.9274
犒	-12.9274
形動不生形而生影聲動不生聲而生響	-12.9274
賃	-12.9274
葜	-12.9274
爇	-12.9275
金紫光禄大夫	-12.9275
瘼	-12.9275
攄	-12.9275
精神生於道形本生於精	-12.9275
味之所味者嘗矣而味味者未嘗呈	-12.9276
虆	-12.9276
『	-12.9276
嵌	-12.9277
甎	-12.9278
顱	-12.9278
烽	-12.9278
䠱	-12.9278
萬物職職皆從無爲殖	-12.9278
估	-12.9279
既其文未既其實	-12.928
倀	-12.9282
天無爲以之清地無爲以之寧	-12.9282
鰓	-12.9282
菝	-12.9283
不以養傷身雖貧賤不以利累形	-12.9283
咤	-12.9284
奶	-12.9284
拉	-12.9284
嶸	-12.9284
曦	-12.9285
丰	-12.9288
逈	-12.929
夬	-12.9291
喋	-12.9294
𠃔	-12.9298
納華池中三十日成水	-12.93
鮫	-12.9302
倜	-12.9304
髲	-12.9305
侅	-12.9307
欝	-12.999
婩	-12.9999
皃	-13
踆	-13.001
㐲	-13.0013
曁	-13.0013
瓌	-13.0015
卑而不可不因者民也	-13.0016
有未始有夫未始有無也者	-13.0016
幟	-13.0017
鏘	-13.0017
縰	-13.0017
彭蒙田駢愼到	-13.0017
媵	-13.0018
擪	-13.0018
暋	-13.0018
佃	-13.0018
蚈	-13.0019
逓	-13.0019
使物不疵癘而年穀熟	-13.0019
懁	-13.002
民多利器國家滋昏	-13.002
囯	-13.002
不知吾所以然而然命也	-13.002
䖟	-13.0021
越人斷髮文身	-13.0021
凹	-13.0023
稯	-13.0023
覆載天地刻彫衆形而不爲巧	-13.0023
節與人同而犯害與人異其神全也	-13.0024
爼	-13.0024
學者學其所不能學也	-13.0024
塹	-13.0025
璀	-13.0025
桷	-13.0025
犗	-13.0026
擉	-13.0026
簠	-13.0026
踒	-13.0026
煢	-13.0026
趁	-13.0027
㧙	-13.0027
降本流末而生萬物	-13.0028
伇	-13.0028
彼得全於酒而猶若是	-13.0028
鼻間栩栩然	-13.0028
其一人美其一人惡惡者貴而美者賤	-13.0029
矼	-13.0029
伉	-13.0029
悋	-13.003
」	-13.003
目無所見耳無所聞心無所知	-13.003
豀	-13.003
㹖	-13.0031
寢秉羽而郢人投兵	-13.0031
也其惡者自惡吾不知其惡也	-13.0031
豔	-13.0031
駱	-13.0031
磑	-13.0031
袒	-13.0032
檮	-13.0032
故柔勝剛弱勝强天下莫不知莫能行	-13.0032
吞舟之魚碭而失水則蟻能苦之	-13.0033
抌	-13.0033
若知之若不知之若聞之若不聞之其	-13.0033
禋	-13.0033
杌	-13.0033
楅	-13.0033
汝惟不伐天下莫與汝爭功	-13.0034
撿	-13.0034
問焉曰操舟可學邪曰可	-13.0034
諶	-13.0034
齧缺問於王倪四問而四不知	-13.0034
高山履危石臨百仞之淵	-13.0034
雷公云凡採得後	-13.0035
參萬歲而一成純	-13.0035
椑	-13.0035
汝惟不矜天下莫與汝爭能	-13.0035
恃道化而不恃智巧	-13.0035
穅	-13.0035
謞	-13.0035
悄	-13.0035
肓	-13.0035
殙	-13.0035
坵	-13.0036
𣎭	-13.0036
廬陵竹峯羅勉道述門人彭祥點校外篇	-13.0036
蠏	-13.0036
腮	-13.0036
譲	-13.0036
機械者必有機事有機事者必有機心	-13.0036
上禮爲之而莫之應	-13.0036
其臣妾不足以相治乎	-13.0036
墾	-13.0037
侫	-13.0037
錡	-13.0037
姊	-13.0037
崤	-13.0038
邂	-13.0038
蛉	-13.0038
𧓽	-13.0038
𤴯	-13.0038
者天地天地尚不能乆而况於人乎	-13.0039
磻	-13.0039
勌	-13.004
夫唯不盈故能弊不新成	-13.004
我以死故善吾生者乃所以善吾死也	-13.004
意仁義其非人情乎	-13.004
衆人熙熙如享太牢如春登臺	-13.004
文始眞經言外㫖卷之	-13.0041
囉	-13.0041
得盡用其爲形也亦外矣	-13.0041
生有所乎萌死有所乎歸	-13.0041
庥	-13.0041
蝓	-13.0042
揠	-13.0042
以禮爲翼者所以行於世也	-13.0042
雲從龍風從虎	-13.0042
方生方死方死方生	-13.0042
闥	-13.0043
歔	-13.0044
隲	-13.0044
是謂行無行攘無臂仍無敵執無兵	-13.0044
猖	-13.0045
桓之審爲淵止水之審爲淵流水之審	-13.0045
曖	-13.0045
痍	-13.0045
三軍五兵之運德之末也	-13.0045
鷓	-13.0046
卭	-13.0046
丌	-13.0046
腭	-13.0046
邳	-13.0046
嘲	-13.0047
曰汝身非汝有也汝何得有夫道	-13.0047
大道甚夷民甚好徑	-13.0048
鐸	-13.0048
撑	-13.0048
帠	-13.0048
卸	-13.0049
故行不知所往處不知所持食不知所	-13.0049
衛窮於商周圍於陳蔡	-13.0049
焫	-13.0049
腪	-13.0049
愎	-13.0049
偯	-13.0049
謇	-13.005
稌	-13.005
瑱	-13.0051
懵	-13.0051
廩	-13.0052
嶇	-13.0052
性命非汝有是天地之委順也	-13.0052
以賢臨人未有得人者也	-13.0052
蹕	-13.0052
痱	-13.0052
黂	-13.0053
瘇	-13.0055
疔	-13.0056
下多忌諱而民彌貧人多利器國家滋昏	-13.0057
灘	-13.0059
嘴	-13.0059
蘚	-13.0061
邅	-13.0061
蜇	-13.0064
䗪	-13.0064
喀	-13.0069
蒁	-13.0072
咋	-13.0724
睪	-13.0834
舩	-13.0841
雽	-13.0842
崇建某齋若干晝夜	-13.0847
良賈深藏若虚	-13.0848
裋	-13.0848
人其盡死而我獨存	-13.0851
古者謂是帝之縣解	-13.0851
彚	-13.0852
詫	-13.0853
駞	-13.0853
妸	-13.0853
𠎝	-13.0854
大軍之後必有凶年	-13.0854
壮	-13.0855
鮭	-13.0855
冇	-13.0856
嘽	-13.0857
碓	-13.0857
玕	-13.0858
柙	-13.0858
能得人心者必自得者也	-13.0858
碍	-13.0858
眲	-13.0858
天地一指也萬物一馬也	-13.0859
和光散人高守元集	-13.0859
彼將任我以事而效我以功吾是以驚	-13.0859
祒	-13.0859
吾所以不受也其卒民果作難而殺子陽	-13.086
断	-13.086
上仙都太上神明上靈官中宮	-13.086
言治天下如運諸掌	-13.086
秬	-13.086
蹏	-13.086
𤓸	-13.0861
絶迹易無行地難	-13.0861
渫	-13.0861
㓙	-13.0861
沖虚至德眞經卷第	-13.0861
謢	-13.0861
失吾道者上見光而下爲土	-13.0862
脈	-13.0862
掀	-13.0863
鑿井而飲耕田而食	-13.0863
礨	-13.0864
勖	-13.0864
常寬容於物不削於人	-13.0864
雖有忮心者不怨飄瓦	-13.0865
儡	-13.0865
汀	-13.0865
藾	-13.0865
晁	-13.0866
乹	-13.0866
物有餘而形不養者有之矣	-13.0866
樞始得其環中以應無窮	-13.0866
不至乎孩而始誰	-13.0866
公乃王王乃天天乃道道乃乆没身不殆	-13.0866
至其罪我也又且以人之言	-13.0866
恍兮惚其中有物	-13.0866
以道觀言而天下之君正	-13.0866
萬物草木生也柔脆	-13.0867
顒	-13.0867
見劉得一本舊作	-13.0867
目欲視色耳欲聽聲口欲察味志氣欲盈	-13.0867
唐玄宗御注并䟽河上公嚴君平李	-13.0867
謷乎大哉獨成其天	-13.0867
知我者稀則我貴矣	-13.0868
正一受道威儀次當詣師奉受	-13.0868
篙	-13.0868
㲉	-13.0868
天地有大美而不言四時有明法而不議	-13.0868
緲	-13.0869
鑛	-13.0869
人之輕死以其求生之厚	-13.0869
宋饒陽居士李霖集	-13.0869
羮	-13.0869
另	-13.0869
純也者謂其不虧其神也	-13.0869
有太易有太初有太始有太素	-13.0869
洄	-13.0869
琬	-13.0869
至陰肅肅至陽赫赫	-13.087
一受其成形不亡以待盡	-13.087
入其妻望之而拊心曰妾聞爲有道者	-13.087
翬	-13.087
齧缺因躍而大喜	-13.087
執席妻執巾櫛舍者避席煬者避竈	-13.087
謄	-13.087
神將守形形乃長生	-13.087
至矣盡矣不可以有加矣	-13.087
伶	-13.087
儌	-13.0871
屩	-13.0871
醖	-13.0871
利澤施乎萬世不爲愛人	-13.0871
陽之所變者謂之生謂之死	-13.0871
蕡	-13.0871
馽	-13.0871
蚧	-13.0872
有始也者有未始有始也者	-13.0872
庠	-13.0872
刹	-13.0872
十日又問曰未也猶疾視而	-13.0872
不將不迎應而不藏故能勝物而不傷	-13.0872
簡髮而櫛數米而炊	-13.0872
假夫禽貪者器	-13.0872
貍	-13.0872
䈽	-13.0873
崛	-13.0873
琚	-13.0873
䏶	-13.0873
婿	-13.0874
旣得其母以知其子旣知其子復守其母	-13.0874
媿	-13.0874
建言有之明道若昧進道若退夷道若	-13.0874
租	-13.0875
靡不有初鮮克有終	-13.0875
蓬頭突鬢垂冠	-13.0875
其未兆易謀其脆易泮其微易散	-13.0875
强爲之名曰大大曰逝逝曰遠遠曰反	-13.0875
簋	-13.0876
𨭊	-13.0876
巇	-13.0876
視淵若陵視舟之覆猶其車却	-13.0876
有積也故不足無藏也故有餘	-13.0877
韮	-13.0878
作始也簡其將畢也必巨	-13.0879
食於十漿而五漿先饋	-13.0879
嘗試與來以予示之	-13.0879
觀於濁水而迷於清淵	-13.088
吾所待又有待而然者	-13.088
蓐	-13.088
寵辱章第十三寵辱若驚貴大患若身	-13.088
鄴	-13.088
始吾以夫子之道爲至矣則又有至焉者	-13.0881
皞	-13.0881
餚	-13.0881
柝	-13.0882
橑	-13.0882
南谷子杜道堅纂	-13.0882
菠	-13.0882
鷺	-13.0882
祼	-13.0882
呦	-13.0883
不畏威章第七十二民不畏威則大威至	-13.0883
拖	-13.0883
立未定自失而走壺子曰追之列子追之	-13.0883
瑣	-13.0884
濰	-13.0886
紱	-13.0888
琦	-13.0889
俸	-13.0889
鑣	-13.0889
轊	-13.089
嵯	-13.0891
氓	-13.0892
烏足之根爲蠐螬其葉爲胡蝶	-13.0892
日陽銖六隂銖六	-13.0895
澍	-13.0895
窕	-13.0898
岷	-13.09
惙	-13.0901
瑿	-13.0901
鏐	-13.0912
月中一氣三用一用三功	-13.0929
月節一氣三用一用三功	-13.0929
左將軍九人出斗	-13.0952
兊濟其事終身不救見小曰明守柔曰	-13.1511
荃	-13.1734
賙	-13.1752
遁天倍情忘其所受	-13.1752
泏	-13.1753
壌	-13.1753
阬	-13.1754
煿	-13.1754
湏	-13.1755
甀	-13.1756
邾	-13.1756
職惟領教理難抑違	-13.1757
抇	-13.1758
鶘	-13.1759
大惑者終身不解大愚者終身不靈	-13.1759
厓	-13.176
綖	-13.1761
窊	-13.1761
麯	-13.1761
鶬	-13.1762
玉宸道君靈寳天尊	-13.1762
知其愚者非大愚也知其惑者非大惑也	-13.1762
腧	-13.1762
皡	-13.1762
二而不墜則失者錙銖	-13.1763
自其同者視之萬物皆一也	-13.1764
夣	-13.1765
迷陽迷陽無傷吾行	-13.1765
殳	-13.1766
歲爲春五百歲爲秋上古有大椿	-13.1766
愚謹至再拜以聞空行結尾同前	-13.1767
㡳	-13.1767
淆	-13.1767
甚者不見他物之可好	-13.1767
嶲	-13.1767
纘	-13.1768
蕖	-13.1768
螿	-13.1768
㳂	-13.1768
君非自知我也以人之言而遺我粟	-13.1768
鞫	-13.1769
獦	-13.1769
仲尼曰子巧乎有道邪曰我有道也	-13.1769
店	-13.1769
無人曰夫至人者上闚	-13.177
㵼	-13.177
嬀	-13.177
刻意尚行離世異俗	-13.177
鰕	-13.1771
磈	-13.1771
立之本原而知通於神	-13.1771
藊	-13.1771
言不美章第八十一信言不美美言不信	-13.1771
杙	-13.1771
芎	-13.1772
獒	-13.1772
鮀	-13.1772
爭魚者濡逐獸者趨	-13.1772
謔	-13.1773
冡	-13.1773
彼所小言盡人毒也	-13.1773
礜	-13.1773
蜄	-13.1773
弸	-13.1773
尭	-13.1774
由外入者無主於中聖人不隱	-13.1774
肄	-13.1774
滎	-13.1774
三日不舉火十年不製衣正冠而纓絶捉	-13.1774
吾聞至人尸居環堵之室而百姓	-13.1774
褓	-13.1774
賭	-13.1774
容乃公公乃王王乃天天乃道	-13.1774
呿	-13.1774
枅	-13.1774
古之人其知有所至矣惡乎至有以	-13.1775
棄名利反之於心則夫士之爲行	-13.1775
峗	-13.1775
玻	-13.1776
以道汎觀而萬物之應備	-13.1776
凊	-13.1776
然後附之以文益之以博文滅質博溺心	-13.1777
鈕	-13.1777
可傳而不可受可得而不可見	-13.1778
洮	-13.1778
眦	-13.1778
嘏	-13.1778
籲	-13.1778
欽定四庫全書文子纘義卷	-13.1779
天不産而萬物化地不長而萬物育	-13.1779
春氣發而百草生正得秋而萬寳成	-13.1779
怊	-13.1779
躄	-13.178
飜	-13.178
其反也舍者與之爭席矣	-13.1781
嚚	-13.1781
簸	-13.1781
圯	-13.1781
舜讓天下於子州支伯	-13.1781
鎭天眞武治世福神玉虚師相玄天上帝	-13.1781
四達並流無所不極上際於天下蟠於地	-13.1782
始制有名名亦旣有夫亦將知止知止	-13.1782
衫	-13.1782
蜿	-13.1782
詖	-13.1783
鬯	-13.1783
吾是以不釋於老聃之言	-13.1783
朏	-13.1783
嗇是謂早復早復謂之重積德	-13.1783
數百步而出被髮行歌而游於	-13.1783
癕	-13.1784
躐	-13.1784
夐	-13.1784
趂	-13.1784
無處無服始安道無從無道始得道	-13.1784
飥	-13.1785
自大而求之則逝而往矣自往而求之	-13.1785
蛞	-13.1785
搯	-13.1785
盩	-13.1785
𡷮	-13.1785
榱	-13.1785
鬼神害盈而福謙人道惡盈而好謙	-13.1785
齅	-13.1785
言有宗事有君夫惟無知是以不我知	-13.1785
痙	-13.1786
宓	-13.1786
咲	-13.1786
忽若晦寂兮似無所止	-13.1786
何處何服則安道何從何道則得道	-13.1786
淛	-13.1787
啽	-13.1787
讐	-13.1787
祧	-13.1787
嚏	-13.1787
鞨	-13.1787
摺	-13.1787
聮	-13.1787
夥	-13.1787
物無道正容以悟之使人之意也消	-13.1787
哮	-13.1787
穬	-13.1787
也所苦者身不得安逸口不得	-13.1787
上不皦其下不昧繩繩兮不可名復歸於	-13.1788
囈	-13.1788
口口相傳不記文字	-13.1788
晻	-13.1789
杻	-13.1789
綰	-13.1789
道汎兮章第三十四大道汎兮其可左右	-13.1789
道眞仁靜先生曹道沖曰	-13.1789
咯	-13.1789
昭昭生於冥冥有倫生於無形	-13.1789
獰	-13.179
揷	-13.179
厔	-13.179
皐	-13.179
味形不得美服目不得好色耳不得音聲	-13.1791
琮	-13.1792
慜	-13.1792
㖟	-13.1793
時其饑飽達其怒心	-13.1793
明日列子與之見壺子出而謂列子曰	-13.1793
喜之復也必怒怒之復也常喜	-13.1795
其於國有不聞也其於家有不見也	-13.1795
簽	-13.1795
蚺	-13.1796
瞚	-13.1796
以懦弱謙下爲表	-13.1796
陔	-13.1797
陰陽相照相蓋相治四時相代相生相殺	-13.1797
掜	-13.1797
阼	-13.1798
鱺	-13.1798
擗	-13.1799
齦	-13.18
渌	-13.18
灣	-13.1801
坰	-13.1802
𥘉	-13.1803
旆	-13.1803
廨	-13.1804
𤬏	-13.1806
䡖	-13.1808
檝	-13.1809
懣	-13.1811
㰱	-13.1813
有餘者損之不足者補之天之道損有餘	-13.1857
褙	-13.2733
啘	-13.2738
踟	-13.2742
纂微司馬蘇五注曹	-13.2744
㒺	-13.2746
小知不及大知小年不及大年	-13.2748
中純實而反乎情樂也	-13.2748
吾安得夫忘言之人而與之言哉	-13.2748
剜	-13.2748
盬	-13.2748
䖝	-13.2748
蟣	-13.2749
儽	-13.275
両	-13.2751
榷	-13.2752
辰星應化天尊臣等志心皈身皈神皈命	-13.2753
𡜍	-13.2755
言者所以在意得意而忘言	-13.2757
子産謂申徒嘉曰我先	-13.2757
銲	-13.2758
而有無矣而未知有無之果孰有孰無也	-13.2758
檉	-13.2758
㸑	-13.2759
櫸	-13.2759
禍重乎地莫之知避	-13.2759
王母得之坐乎少廣莫知其始莫知其終	-13.2759
冺	-13.2761
䒽	-13.2761
端正而不知以爲義相愛而不知以爲仁	-13.2761
帕	-13.2762
堡	-13.2762
楠	-13.2762
摹	-13.2762
勦	-13.2762
㨿	-13.2762
酲	-13.2762
疾雷破山風振海而不能驚	-13.2763
僮	-13.2763
趼	-13.2764
非彼無我非我無所取是亦近矣	-13.2764
至道之精窈窈冥冥至道之極昏昏默默	-13.2764
人皆取實己獨取虚	-13.2764
菆	-13.2764
方今之時僅免刑焉	-13.2764
佾	-13.2764
矮	-13.2765
者以八千歲爲春八千歲爲秋	-13.2765
荗	-13.2765
志心朝禮聖父明眞大帝志心朝禮聖	-13.2765
聖師豐乾大帝志心朝禮西國紫玄元君	-13.2765
虓	-13.2766
段成式酉陽雜俎云	-13.2766
塲	-13.2766
地之大萬物之多而唯蜩翼之知吾不反	-13.2767
踦	-13.2767
誒	-13.2767
疚	-13.2767
坭	-13.2767
昱	-13.2768
辴	-13.2768
俶	-13.2768
入獸不亂羣入鳥不亂行	-13.2768
鸒	-13.2768
寖	-13.2768
無聽之以耳而聽之以心	-13.2769
汝登高山履危石臨百仞之淵若能射乎	-13.2769
鵒	-13.2769
㟪	-13.2769
嗷	-13.277
其出不訢其入不距	-13.277
不知先生之洗我以善邪	-13.277
養志者忘形養形者忘利致道者忘心矣	-13.277
魚不畏網而畏鵜鶘	-13.277
報縁弟子蒙恩天上人間願得	-13.277
相造乎道者無事而生定	-13.277
死墮地獄長劫受苦苦盡復生	-13.277
媱	-13.2771
業先靈受度永免	-13.2771
爲首以生爲脊以死爲尻	-13.2771
敚	-13.2771
烙	-13.2771
瞍	-13.2771
而祝之社而稷之乎	-13.2771
夫奚足以至乎先是色而已	-13.2771
不知何時止而不盈尾閭泄之不知何時	-13.2771
織而衣耕而食是謂同德	-13.2772
𪒟	-13.2772
欽定四庫全書子部十四	-13.2772
爰從宿世逮及今生三毒業深十惡障重	-13.2772
上有大役則支離以有常疾不受	-13.2773
㹠	-13.2773
荄	-13.2773
正汝形一汝視天和將至攝汝知	-13.2773
其痀僂丈人之謂乎	-13.2773
慓	-13.2774
躊	-13.2774
亹	-13.2774
爲諸侯堯授舜舜授	-13.2774
齓	-13.2774
使道而可獻則人莫不獻之於其君	-13.2774
使道而可以與人則人莫不與其子孫	-13.2774
古襄寇才質集	-13.2774
清輕者上爲天濁重者下爲地	-13.2774
湫	-13.2774
睆	-13.2775
爲名尸無爲謀府無爲事任無爲	-13.2775
青天下潜黄泉揮斥八極神氣不變	-13.2775
徜	-13.2775
煻	-13.2775
暦	-13.2775
穊	-13.2775
怒其臂以當車轍	-13.2776
忖	-13.2776
恑	-13.2776
椅	-13.2776
獯	-13.2776
蹩躠爲仁踶跂爲義	-13.2776
由中出者不受於外聖人不出	-13.2776
罍	-13.2776
先存諸己而後存諸人	-13.2776
而歌商頌聲滿天地若出金石	-13.2777
鉏	-13.2777
功利機巧必忘夫人之心	-13.2777
唏	-13.2777
心皈神皈身皈命百拜朝天一誠悔	-13.2777
多生以來曽犯此戒今禮髙眞䖍誠懴悔	-13.2777
杲	-13.2777
邴邴乎其似喜乎	-13.2777
园	-13.2777
逋	-13.2777
畆	-13.2777
媠	-13.2777
命禮髙眞懴悔願除諸罪業志心皈命禮	-13.2778
無邊罪業實難逃臣	-13.2778
瑁	-13.2778
則物之造乎不形而止乎無所化	-13.2778
閈	-13.2778
而不知退知存而不知亡知得而不知喪	-13.2779
巻	-13.2779
明皇河上公王弼王雱註	-13.2779
俛仰之間再撫四海	-13.2779
嫂	-13.2779
盱江危大有集第	-13.2779
涫	-13.2779
雜乎芒芴之間變而有氣氣變而有形	-13.2779
心合於氣氣合於神神合於	-13.278
弰	-13.278
與人有痔病者不可以適河	-13.278
上必無爲而用天下下必有爲爲天下用	-13.278
瞥	-13.278
符用白帛九寸右	-13.278
譬道之在天下猶川谷之於江海	-13.278
河南郭象註唐西華法師成玄英䟽雜篇	-13.278
原省已明而是非次之	-13.278
鼹	-13.278
荳	-13.2781
形色名聲果不足以得彼之情	-13.2781
澮	-13.2781
見使者再拜而辭使者去子列	-13.2781
其得罪於君也將弗乆矣	-13.2781
以牛之白顙者與豚之亢鼻者	-13.2781
吾語汝大亂之本必生	-13.2781
䚦	-13.2781
知不得問反於白水之南登狐闋之上而	-13.2782
媸	-13.2782
至於大病則寡人惡乎屬國而可	-13.2782
莱	-13.2782
立我蒸民莫匪爾極不識不知順帝之則	-13.2782
蠐	-13.2783
襖	-13.2783
庸詎知吾所謂天之非人乎	-13.2783
浼	-13.2783
蜻	-13.2783
牋	-13.2783
瑘	-13.2783
眇乎小哉所以屬於人	-13.2784
薾	-13.2784
老無妻子死期將至	-13.2784
民不難聚也愛之則親利之則至	-13.2784
世之所美者爲神奇所惡者爲臭腐神奇	-13.2784
聖人躊躇以興事以每成功	-13.2784
而名從之名不與利期而利歸之	-13.2784
化育萬物不可爲象其名爲同帝	-13.2784
撚	-13.2785
與人之兄居而殺其弟	-13.2785
躶	-13.2786
噣	-13.2786
𤸷	-13.2786
果且有成與虧乎哉果且無成與虧乎哉	-13.2786
踠	-13.2786
蠃	-13.2786
蟇	-13.2786
南華眞經章句音義卷之十	-13.2786
捃	-13.2787
善也所樂者身安厚味美服好色音聲也	-13.2787
物視其所一而不見其所喪	-13.2787
不當時命而大窮乎天下	-13.2787
岌	-13.2787
捩	-13.2788
决諸東方則東流决諸西方則西流	-13.2788
湎	-13.2789
躩	-13.2789
不及反以報壺子曰已滅矣已失矣吾	-13.2789
使同乎我與若者正之既同乎我與若矣	-13.2789
然後列子自以爲未始學而歸三年不出	-13.2789
瞢	-13.2789
殲	-13.2789
將欲噏之必固張之	-13.279
薌	-13.279
巉	-13.279
𨇠	-13.279
衆雌而無雄而又奚卵焉	-13.279
愁身傷生以憂戚不得	-13.279
薳	-13.279
夫貴者夜以繼日思慮善否其爲形也亦	-13.2791
𧮒	-13.2791
埶	-13.2791
髐	-13.2792
飆	-13.2793
薹	-13.2793
其遞相爲君臣乎其有眞君存焉	-13.2793
讟	-13.2794
黧	-13.2794
扛	-13.2794
剸	-13.2795
勣	-13.2796
則是之異乎不是也亦無辯	-13.2796
傭	-13.2797
鸜	-13.2797
醎	-13.2797
撼	-13.2797
𣙁	-13.2798
旙	-13.2799
柔勝出於己者其力不可量	-13.2799
齆	-13.28
舁	-13.2801
瑛	-13.2802
蠋	-13.2802
禮念旣周再竭一心遥瞻神府皈命紫皇	-13.2802
佑聖助順眞武靈應福	-13.2804
桉	-13.2806
雇	-13.2807
若是芒乎其我獨芒而人亦有不芒者乎	-13.2807
裛	-13.2808
𡖖	-13.2808
從事華辭以支爲㫖	-13.2809
闍	-13.2815
下多忌諱而民彌貧民多利器國家滋昏	-13.2816
沁	-13.2822
大道甚夷而民好徑朝甚除田甚蕪倉甚	-13.2834
狢	-13.2834
墝	-13.3841
翛	-13.3842
虖	-13.3842
秱	-13.3842
嚬	-13.3846
痴	-13.3849
度人情得亦中亡亦中	-13.3854
玉女五百人紅繡衣執	-13.3858
巔	-13.386
麺	-13.3862
襦	-13.3864
如哭其子少者哭之如哭其母彼其所	-13.3864
杘	-13.3864
慱	-13.3864
懯	-13.3865
憋	-13.3866
未知吾所謂之其果有謂乎其果無謂乎	-13.3867
隹	-13.3868
孔子顧謂弟子曰用志不分乃凝於神	-13.3868
不識今之言者其覺者乎其夢者乎	-13.3868
哯	-13.3868
叮	-13.387
乗天地之正而御六氣之辯以	-13.387
孾	-13.387
地無窮人死者有時操有時之具	-13.3871
知美矉而不知矉之所以美	-13.3871
紵	-13.3872
㺒	-13.3873
其爲利也薄其爲權也輕而猶	-13.3873
聖人之道我有聖人之道而無聖人之才	-13.3873
刎	-13.3873
其在死亡也則之於息焉反其極	-13.3873
孔子行年五十有一而不聞道	-13.3874
囬	-13.3874
廣乎其無不容也淵乎其不可測也	-13.3874
祓	-13.3874
不狀其過以不當存者寡	-13.3874
惼	-13.3874
乕	-13.3874
庸詎知夫造物者之不息我黥而	-13.3875
嚗	-13.3875
縗	-13.3875
以其至小求窮其至大之域	-13.3876
配神明醇天地育萬物和天下	-13.3876
立不教坐不議虚而往實而歸	-13.3876
𡻕	-13.3876
能損有餘而奉不足於天下者其唯道乎	-13.3876
曰已矣吾固告汝曰人將保汝果保汝矣	-13.3877
槁木似遺物離人而立於獨也	-13.3877
且舉世而譽之而不加勸	-13.3877
故先王之法非所作也所因也	-13.3877
又何以知天地之足以窮至大之域	-13.3877
洛誦之孫聞之瞻明瞻明聞之聶許	-13.3877
能勝人之口不能服人之心辯者之囿也	-13.3877
釿鋸制焉繩墨殺焉椎鑿决焉	-13.3877
流九十里魚鼈弗能游黿鼉弗能居	-13.3877
綾	-13.3878
胣	-13.3878
芟	-13.3878
非汝能使人保汝而汝不能使人無	-13.3878
昀	-13.3878
呰	-13.3878
從今懴悔並冀赦除願與一切衆生俱入	-13.3878
壻	-13.3878
鐐	-13.3879
示之以虚開之以利後之以發先之以至	-13.3879
甔	-13.3879
用之彌滿六虚廢之莫知其所	-13.3879
鵾	-13.3879
子貢曰然則人固有尸居而龍見	-13.3879
藂	-13.388
柞	-13.388
不際之際際之不際者也	-13.388
吾思夫使我至此極者而弗得也	-13.388
𩐋	-13.388
号	-13.3881
痣	-13.3881
太清玄元無上三天無極大道太上	-13.3881
師是而無非師治而無亂	-13.3881
曰自吾執斧斤以隨夫子未嘗見材如此	-13.3881
福果形神俱妙與道合眞今故皈依	-13.3881
薁	-13.3881
爕	-13.3881
嚢	-13.3881
其有介然之有唯然之音雖	-13.3881
欲靜則平氣欲神則順心	-13.3881
穽	-13.3881
錢財不積則貪者憂	-13.3881
形之所形者實矣而形形者未嘗有	-13.3882
子北方之賢者也子亦得道乎孔子曰未	-13.3882
可以貴可以賤可以約可以散	-13.3882
子貢趨而進曰敢問臨尸而歌禮乎	-13.3882
笳	-13.3882
是謂天均天均者天倪也	-13.3883
且方將化惡知不化哉方將不化惡知	-13.3883
宋人資章甫而適諸越	-13.3883
庸詎知吾所謂知之非不知邪	-13.3883
蘡	-13.3883
錮	-13.3883
聖人之靜也非曰靜也善故靜也	-13.3883
容成氏大庭氏伯皇氏	-13.3883
果且有彼是乎哉果且無彼是乎哉	-13.3883
不若以非指喻指之非指也	-13.3883
求可功求成用力少見功多者聖人之道	-13.3883
俵	-13.3884
成若缺章第四十五大成若缺其用不弊	-13.3884
睱	-13.3884
性不可易命不可變時不可止道不可壅	-13.3885
氣專志一和之至也物不傷焉德莫加焉	-13.3885
漣	-13.3885
佘	-13.3885
蓆	-13.3885
睟	-13.3885
者柙而藏之不敢用也寳之至也	-13.3885
濩	-13.3885
遟	-13.3885
原憲居魯環堵之室茨以生草蓬	-13.3886
是以輕死夫惟無以生爲者是賢於貴生	-13.3886
羊奚比乎不箰乆竹	-13.3886
欸	-13.3886
聖人安其所安不安其所不安	-13.3886
木處則惴慄恂懼	-13.3886
虷	-13.3886
彼是莫得其偶謂之道樞	-13.3886
欹	-13.3887
顥	-13.3887
告人則人莫不告其兄弟	-13.3887
懶	-13.3887
適來夫子時也適去夫子順也	-13.3887
時也曲士不可以語於道者束於教也	-13.3887
是下與上同德下與上同德則不臣	-13.3887
荂	-13.3887
仁則反愁我身不義則傷彼義則反愁我	-13.3887
臉	-13.3887
有七竅以視聽食息此獨無有嘗試鑿之	-13.3887
河南郭象註唐西華法師成玄英䟽外篇	-13.3887
之小人人之君子人之君子天之小人也	-13.3887
篁	-13.3888
三王聖者歟孔子曰三王善任智勇	-13.3888
涖	-13.3888
子桑户孟子反子琴張	-13.3888
附離不以膠漆約束不以纏索	-13.3888
犇	-13.3888
咈	-13.3888
是得人之得而不自得其得者也	-13.3888
曰然君子不仁則不成不義則不生仁義	-13.3888
儵與忽時相與遇於渾沌之地	-13.3889
A	-13.3889
堁	-13.3889
攜	-13.3889
予惡乎知夫死者不悔其始之蘄生乎	-13.3889
如求得其情與不得無益損乎其眞	-13.3889
N	-13.3889
庸也者用也用也者通也通也者得也	-13.3889
顔回曰回之未始得使實自回也	-13.3889
燬	-13.3889
箒	-13.3889
進則人莫不進之於其親使道而可以	-13.3889
U	-13.3889
固有常矣日月固有明矣星辰固有列矣	-13.3889
以其知之所知以養其知之所不知	-13.3889
J	-13.389
其作始有倫而今乎婦女	-13.389
銓	-13.389
堦	-13.389
猋	-13.389
貴富顯嚴名利六者勃志也	-13.389
澂	-13.389
榮注西華法師成玄英䟽濛陽强思齊纂	-13.3891
註西華法師成玄英䟽濛陽强思齊纂	-13.3891
爲謂眞是也狂屈似之我與汝終不近也	-13.3891
曰莫神於天莫富於地莫大於帝王	-13.3891
遂入惡道報盡復還生於茲世以前	-13.3891
咏	-13.3891
則仁義又奚連連如膠漆	-13.3892
紇	-13.3892
故聖人將遊於物之所不得遯而皆存	-13.3892
或謂之死或謂之生或謂之實或謂之榮	-13.3892
與物相刃相靡其行盡如馳而莫	-13.3892
撫我則后虐我則讎	-13.3892
朦	-13.3892
厘	-13.3892
民之饑以其上食稅之多	-13.3893
猘	-13.3893
煤	-13.3893
穡	-13.3893
鄜	-13.3893
自事其心者哀樂不易施乎前	-13.3893
錣	-13.3893
前者唱于而隨者唱喁	-13.3894
㕝	-13.3894
塤	-13.3894
鰲	-13.3894
僬	-13.3895
暹	-13.3895
所遯是恒物之大情也	-13.3895
常能遣其欲而心自靜澄其心而神自清	-13.3895
蚖	-13.3896
娉	-13.3896
搭	-13.3896
欽定四庫全書神仙傳卷	-13.3896
熛	-13.3896
跱	-13.3896
萬物之所一也得其所一而同焉則四	-13.3896
人之父居而殺其子吾不忍也子皆勉居	-13.3897
逡	-13.3897
撩	-13.3897
笮	-13.3897
唉	-13.3897
𩑺	-13.3897
疪	-13.3897
以刑爲體者綽乎其殺也	-13.3898
籧	-13.3898
吾聞之不以所用養害所養因杖	-13.3898
不言則齊齊與言不齊言與齊不齊也	-13.3899
去之民相連而從之遂成國於岐山之下	-13.3899
提刀而立爲之四顧爲之躊躇滿志	-13.3899
王來降道場爲吾助法力奉請	-13.3899
詶	-13.3899
覆載天地刻雕衆形而不爲巧	-13.3899
由生而生故雖終而不亡常也	-13.3899
軺	-13.3899
乆憂不死何之苦也其爲形也亦遠矣	-13.3899
砰	-13.3899
吕梁懸水三十仞流沫三十里黿鼉魚鼈	-13.3899
夫富者苦身疾作多積財而不	-13.3899
挻	-13.39
辤	-13.3901
腔	-13.3901
餘骨乾餘骨之沫爲斯彌	-13.3901
㪷	-13.3901
邐	-13.3901
吏官各十二人出監殺	-13.3901
怜	-13.3901
蒨	-13.3901
若不得者則大憂以懼其爲形也亦愚哉	-13.3902
行今子止曩子坐今子起何其無特操與	-13.3902
獮	-13.3903
日中則昃月滿則虧	-13.3903
軬	-13.3903
㨂	-13.3903
瑙	-13.3903
荇	-13.3903
姥	-13.3903
順物自然而無容私焉而天下治矣	-13.3903
化聲之相待若其不相待	-13.3903
溏	-13.3904
闓	-13.3904
鮧	-13.3904
惡識所以然惡識所以不然	-13.3904
魋	-13.3904
仰天而呼曰君乎君乎獨不可以	-13.3905
烜	-13.3905
鑑水之與形接也不設智故而物	-13.3905
獪	-13.3905
秋水時至百川灌河	-13.3906
其形化其心與之然可不謂大哀乎	-13.3906
冽	-13.3907
坪	-13.3907
昵	-13.3907
晳	-13.3907
鍰	-13.3907
変	-13.3907
宋觀復大師高士謝守灝編	-13.3907
霫	-13.3907
麞	-13.3907
案内管三百六十星官三百六十	-13.3907
敍	-13.3908
贐	-13.3908
去彼自見自貴取此自知自愛	-13.3908
罪將條列惡巳貫盈撓亂靈司紏録不	-13.3909
颯	-13.3909
隽	-13.3909
即斯發露徑此懴陳伏願	-13.391
擂	-13.3911
哥	-13.3911
未成乎心而有是非是今日適越而昔至	-13.3911
腿	-13.3911
羭	-13.3912
瘛	-13.3912
訃	-13.3914
剗	-13.3916
靴	-13.3917
緱	-13.3918
日隂銖六陽銖六二十	-13.3918
秕	-13.3919
蠁	-13.392
𩀱	-13.3923
莠	-13.3923
繻	-13.3924
厖	-13.3926
穄	-13.3931
簁	-13.3932
方無極太上道德天尊一禮至心歸命	-13.3944
姙	-13.5028
籛	-13.5093
螋	-13.5096
䄂	-13.5097
神峯逍遥子牛道淳直解	-13.5099
榆枋時則不至而控於地而	-13.5101
遌	-13.5106
㤉	-13.5106
隆平侯張信駙馬都尉沐昕	-13.5108
殶	-13.5108
夫尊古而卑今學者之流也	-13.5109
彼於致福者未數數然也	-13.511
嚀	-13.5111
野馬也塵埃也生物之以息相吹也	-13.5111
紼	-13.5111
瞿鵲子問乎長梧子曰	-13.5112
故西施病心而矉其里	-13.5113
春秋經世先王之志聖人議而不辯	-13.5113
哪	-13.5113
謂列子曰幸矣子之先生遇我也有瘳矣	-13.5113
澱	-13.5114
曰子不知利害則至人固不知利害乎	-13.5114
是以火救火以水救水名之曰益多	-13.5115
椰	-13.5115
出者嚴裝顯服冠帶垂纓	-13.5115
若殆以不信厚言必死於暴人之前矣	-13.5116
人辯之以相示也故曰辯也者有不見也	-13.5116
今取猨狙而衣以周公之服	-13.5116
故分也者有不分也辯也者有不辯也	-13.5116
也怒而飛其翼若垂天之	-13.5116
靜靜則明明則虚虚則無爲而無不爲也	-13.5117
知與恬交相養而和理出其性	-13.5117
𡱁	-13.5117
常季問於仲尼曰王駘兀者也從之	-13.5117
以虚靜推於天地通於萬物此之謂天樂	-13.5118
雖天地覆墜亦將不與之遺	-13.5118
䗫	-13.5118
殍	-13.5118
安排而去化乃入於寥天一	-13.5118
崙	-13.5118
未始離於岑而足以造於怨也	-13.5119
欽定四庫全書列子卷	-13.5119
枹	-13.5119
孰知死生存亡之一體者吾與之友矣	-13.5119
欽定四庫全書莊子注巻	-13.5119
東維騎箕尾而比於列星	-13.5119
其身以下傴拊人之民以下拂其上者也	-13.512
擊而道存矣亦不可以容聲矣	-13.512
於詩書禮樂者鄒魯之士搢紳先生多能	-13.512
𣈆	-13.5121
使予也而有用且得有此大也邪	-13.5121
昔者子呼我牛也而謂之牛	-13.5121
徐别其頰無傷口中珠	-13.5121
醉之以酒而觀其則雜之以處而觀其色	-13.5121
臨人以德殆乎殆乎畫地而趨	-13.5121
卒授之國無幾何也去寡人而行寡人	-13.5121
山木自寇也膏火自煎也	-13.5121
尚遲疾走不休絶力而死不知處	-13.5122
尙	-13.5122
病今憲貧也非病也子貢逡巡而有愧色	-13.5122
訑	-13.5122
禇	-13.5122
遊於羿之彀中中央者中	-13.5123
谷之士非世之人枯槁赴淵者之所好也	-13.5123
聞至人之言恐吾無其實輕用吾身而亡	-13.5123
彼又惡能憒憒然爲世俗之禮以觀	-13.5123
自我觀之仁義之端是非之塗樊然	-13.5123
莫壽乎殤子而彭祖爲夭天地與我並生	-13.5123
愈數而迹愈多走愈疾而影不離身自以	-13.5124
夫子胡不入乎請講以所聞無趾出	-13.5124
某再拜上言今月某日爲修齋	-13.5124
青青之麥生於陵陂生不布施死何含珠	-13.5124
子輿入曰子之歌詩何故若是	-13.5124
無私覆地無私載天地豈私貧我哉求其	-13.5124
且子見執政而不違子齊執政乎	-13.5124
子之年長矣而色若孺子何也	-13.5124
檳	-13.5125
水之性不雜則清莫動則平	-13.5125
磕	-13.5125
宗謂之天人不離於精謂之神人不離於	-13.5125
相造乎水者穿池而養給	-13.5125
至子桑之門則若歌若哭	-13.5125
曰弟子勉之夫無趾兀者也猶務學以復	-13.5125
士成綺鴈行避影履行遂進而問	-13.5125
淀	-13.5125
覇	-13.5125
故自無適有以至於三而況自有適有乎	-13.5125
丘請復以所聞凡交近則必相靡以信	-13.5125
螃	-13.5125
秠	-13.5125
申徒嘉曰自狀其過以不當亡者衆	-13.5125
聶許聞之需役需役聞之於謳於謳聞之	-13.5126
螣	-13.5126
苟有其實人與之名而弗受	-13.5126
事兼於義義兼於德德兼於道道兼於天	-13.5126
其明日又與合堂同席而坐	-13.5126
颼	-13.5126
邪天乎人乎有不任其聲而趨舉其詩焉	-13.5126
菵	-13.5126
當其時順其俗者謂之義之徒	-13.5126
去國旬月見所嘗見於國中者喜	-13.5126
夫埴木之性豈欲中規矩鉤繩哉	-13.5126
容動色理氣意六者謬心也	-13.5126
聞諸副墨之子副墨之子聞諸洛誦之孫	-13.5126
身而弗見也非閉其言而不出也非藏其	-13.5126
曰丘也聞不言之言矣未之嘗言	-13.5127
仲尼之楚楚王觴之孫叔敖執爵而立	-13.5127
矌	-13.5127
三人相與友曰孰能相與於無相與相	-13.5127
妸荷甘與神農同學於老龍吉	-13.5127
曰堯謂我汝必躬服仁義而明言是非	-13.5127
彼且蘄以諔詭幻怪之名聞	-13.5127
窻	-13.5128
吮	-13.5128
競民孕婦十月生子子生五月而能言	-13.5128
吾以夫子爲天地安知夫子之猶若是也	-13.5128
椆	-13.5128
聖人并包天地澤及天下而不知其誰氏	-13.5128
道之人何由興乎世世亦何由興乎道哉	-13.5128
號天而哭之曰子乎子乎天下有大菑	-13.5128
顔回曰吾無以進矣敢問其方	-13.5128
㩉	-13.5128
不能論意之所不能察致者不期精粗焉	-13.5128
鯪	-13.5128
雖然不該不徧一曲之士也	-13.5129
夫若然者又惡知死生先後之所在	-13.5129
吾將爲名乎名者實之賔也吾將爲賔乎	-13.5129
棹	-13.5129
生之所生者死矣而生生者未嘗終	-13.5129
見似人者而喜矣不亦去人滋乆思人	-13.5129
霰	-13.5129
之學者不幸不見天地之純古人之大體	-13.5129
嶼	-13.5129
道無以興乎世世無以興乎道	-13.5129
而後有枝其可以爲舟者旁十數	-13.5129
不遇治世之君也夫六經先王之陳迹也	-13.5129
也者爭之器也二者凶器非所以盡行也	-13.5129
使民心一民有其親死不哭而民不非也	-13.5129
武王逆紂而不肯順故曰不同	-13.5129
胕	-13.513
蛺	-13.513
蚑	-13.513
羇	-13.513
𠕏	-13.513
弗知乃知乎知乃不知乎孰知不知之知	-13.513
無以生將恐滅侯王無以貴高將恐蹶	-13.513
玄天也於人爲鼻牝地也於人爲口	-13.513
雖聖人不在山林之中其德隱矣	-13.513
鉟	-13.513
鼺	-13.513
䙝	-13.513
先天而天弗違後天而奉天時	-13.513
來世不可待往世不可追也	-13.513
於無窮之間忽然無異騏驥之馳過隙也	-13.513
能陰能陽能柔能剛能短能長能圓能方	-13.513
文公後背之子推怒而去抱木而燔死	-13.513
蜓	-13.513
冉相氏得其環中以隨成	-13.513
故昔者堯問於舜曰我欲伐宗膾胥敖南	-13.5131
舜曰夫三子者猶存乎蓬艾之間	-13.5131
腽	-13.5131
垤	-13.5131
侶	-13.5131
絢	-13.5131
與物且者其身之不能容焉能容人	-13.5131
言論者物之粗也可以意致者物之精也	-13.5131
世喪道矣道喪世矣世與道交相喪也	-13.5131
悱	-13.5131
許由曰不然夫盲者無以與乎	-13.5131
中央氏栗陸氏驪畜氏軒轅氏赫胥	-13.5131
済	-13.5132
宼	-13.5132
愡	-13.5132
事若不成必有人道之患是兩也	-13.5132
夫傳兩喜兩怒之言天下之難者也	-13.5132
浸百畦用力甚寡而見功多夫子不欲乎	-13.5132
涂	-13.5132
未形者有分且然無間謂之命	-13.5132
雜則多多則擾擾則憂憂而不救	-13.5132
弣	-13.5132
以此自多者自以比形於天地而受氣於	-13.5132
惠子謂莊子曰魏王貽我大瓠之種	-13.5132
汹	-13.5132
得之也生失之也死得之也死失之也生	-13.5132
氅	-13.5132
夫仰而視其細枝則拳曲而不可以	-13.5132
渾淪者言萬物相渾淪而未相離	-13.5132
適楚出於林中見痀僂者承蜩猶掇之也	-13.5133
五帝之所連三王之所爭仁人之所憂任	-13.5133
於天通於聖六通四辟於帝王之德者其	-13.5133
人皆尊其知之所知而莫知恃其知之所	-13.5133
大旱金石流土山焦而不熱	-13.5133
勇悍果敢聚衆率兵	-13.5133
王乃牽而上殿宰人上食王三環之	-13.5133
純素之道唯神是守守而勿失與神爲一	-13.5133
柟	-13.5133
子貢反以告孔子曰彼何人者邪	-13.5133
嵁	-13.5133
其知適足以知人之過而不知其所以過	-13.5133
而子曰夫無莊之失其美據梁之失其力	-13.5133
耕而食織而衣無有相害之心	-13.5133
賖	-13.5134
孔子曰魚相造乎水人相造乎道	-13.5134
行其所不能行也辯者辯其所不能辯也	-13.5134
輴	-13.5134
憣	-13.5134
瞶	-13.5134
比干剖心子胥抉眼忠之禍也	-13.5134
祭先祖此聖人才士之行而天下之願也	-13.5134
郭順子文侯曰然則夫子何故未嘗稱之	-13.5134
南越有邑焉名爲建德之國	-13.5134
氏尊盧氏祝融氏伏	-13.5134
之枝策也惠子之據梧也三子之知幾乎	-13.5134
曰天下有大戒二其一命也其一義也	-13.5134
大林丘山之善於人也亦神者不勝	-13.5134
臣之事君義也無適而非君也	-13.5134
今謂趎曰全汝形抱汝	-13.5134
失道者失上德也上德合道故云失道	-13.5134
汝不知夫養虎者乎不敢以生物與之	-13.5134
爲輪以神爲馬予因而乗之豈更駕哉	-13.5134
不拘一世之利以爲己私分不以王天下	-13.5134
孔子西藏書於周室子路謀曰由聞周之	-13.5134
猨猴然乎哉三者孰知正處	-13.5135
憙	-13.5135
以隋侯之珠彈千仞之雀	-13.5135
衆人重利廉士重名賢士尚志聖人貴精	-13.5135
道而來願見百舍重趼	-13.5135
不知其不勝任也是其才之美者也	-13.5135
淊	-13.5135
螤	-13.5135
不侈於後世不靡於萬物不暉於數度	-13.5135
泒	-13.5136
巢於深林不過一枝偃鼠飲河不過滿腹	-13.5136
父之勇也陸行不避兕虎者獵夫之勇也	-13.5136
不知深矣知之淺矣弗知内矣知之外矣	-13.5136
曰然惠子曰人而無情何以謂之人莊	-13.5136
苽	-13.5136
家衆技也皆有所長時有所用	-13.5136
子來有病喘喘然將死其妻子環而泣之	-13.5136
損之而不加損者聖人之所保也	-13.5136
殰	-13.5136
飰	-13.5136
惸	-13.5136
惽	-13.5136
因案人之所感以求容與其心	-13.5136
狂屈焉知以之言也問乎狂屈狂屈曰唉	-13.5137
是之謂不以心捐道不以人助天是之謂	-13.5137
丁釋刀對曰臣之所好者道也進乎技矣	-13.5137
狂屈中欲告我而不我告	-13.5137
兒子動不知所爲行不知所之身	-13.5137
𩐒	-13.5137
則聖人之利天下也少而害天下也多	-13.5137
𢖍	-13.5137
子外乎子之神勞乎子之精倚樹而吟據	-13.5137
木之在大山也方存乎見少又奚以自多	-13.5137
莊子與惠子遊於濠梁之上	-13.5137
繄	-13.5137
鴽	-13.5137
幾何而往則户外之屨滿矣	-13.5138
駢拇枝指出乎性哉而侈於	-13.5138
薈	-13.5138
物損於彼者盈於此成於此者虧於彼	-13.5138
耑	-13.5138
之金今一犯人之形而曰人耳人耳夫造	-13.5138
其外而病攻其内此二子者皆不鞭其後	-13.5138
予知之將語若中欲言而忘其所欲言	-13.5139
曰不然是其始死也我獨何能無	-13.5139
受又讓於子州支父子州支父曰以	-13.5139
之人貴夫無爲也上無爲也下亦無爲也	-13.5139
聞以有知知者矣未聞以無知知者也	-13.5139
至則必有不肖之心應之而不知其然也	-13.5139
詧	-13.5139
進爲而撫世則功大名顯	-13.5139
善任仁義者聖則丘弗知曰三皇聖者歟	-13.5139
禹之治天下使民心變人有心而兵有順	-13.5139
蠊	-13.5139
謪	-13.5139
侃	-13.5139
圃者忿然作色而笑曰吾聞之吾師	-13.5139
塞上漏下濕匡坐而弦	-13.5139
而不求其報不知義之所適不知禮之所	-13.5139
根遊於殷陽至蓼水之上適遭無名人而	-13.5139
以不惑解惑復於不惑是尚大不惑	-13.5139
楨	-13.5139
無生也而本無形非徒無形也而本無氣	-13.5139
蠆之尾鮮規之獸莫得安其性命之情	-13.5139
䜛	-13.514
我勝若若不吾勝我果是也而果非也邪	-13.514
田子方侍坐於魏文侯數稱谿工	-13.514
莊子曰子非我安知我不知魚之樂	-13.514
惠子曰與人居長子老身死不哭亦足矣	-13.514
喻馬之非馬不若以非馬喻馬之非馬也	-13.514
昔之所是今或非之今之所棄後或用之	-13.514
在冬夏青青受命於天唯	-13.514
窑	-13.514
恩生於害害生於恩以仁爲恩害則隨至	-13.514
刀刃者無厚以無厚入有間恢恢乎其於	-13.514
不足以舉其大千仞之高不足以極其深	-13.514
姹	-13.5141
以明汙昭昭乎如揭日月而行故不免也	-13.5141
不怒而今也怒向也虚而今也實人能虚	-13.5141
麇	-13.5141
磎	-13.5141
仰仗道恩普垂赦宥	-13.5141
文惠君曰善哉吾聞庖丁之言得養生焉	-13.5141
狷	-13.5141
獸死不擇音氣息茀然於是並生心厲	-13.5141
髫	-13.5141
鋋	-13.5141
聾者不能自聞心之與形吾不知其異也	-13.5141
我悲人之自喪者吾又悲夫悲人	-13.5142
入於九軍將求名而能自要者而猶若是	-13.5142
者吾又悲夫悲人之悲者其後而日遠矣	-13.5142
方今之時臣以神遇而不以目視	-13.5142
孔子與柳下季爲友柳下	-13.5142
白刃交於前視死若生者烈士之勇也	-13.5142
羗	-13.5142
𡟬	-13.5142
疾則苦而不入不徐不疾得之於手而應	-13.5142
肩吾見狂接輿狂接輿曰日中始何以語	-13.5142
子乃規規然而求之以察索之以辯	-13.5142
桓公曰寡人讀書輪人安得議乎有	-13.5142
輪於堂下釋椎鑿而上問桓公	-13.5142
大備矣莫若天地然奚求焉而大備矣	-13.5142
意者其有機緘而不得已邪	-13.5143
窮數達變因形移易者謂之化謂之幻	-13.5143
一呼而不聞再呼而不聞於是三呼	-13.5143
不下則使人善怒下而不上則使人善忘	-13.5143
䦨	-13.5143
是故滑疑之耀聖人之所圖也	-13.5143
婑	-13.5143
以此處上帝王天子之德也以此處下	-13.5143
其大本擁腫而不中繩墨其小枝卷	-13.5143
形高下之相傾聲音之相和前後之相隨	-13.5143
若勝我我不若勝若果是也我果非也邪	-13.5143
若是而不可謂成乎物與我無成也	-13.5143
勻	-13.5143
所解數千牛矣而刀刃若新發於硎	-13.5143
者恃其所見入於人其功外也不亦悲乎	-13.5143
予惡乎知惡死之非弱喪而不知歸者邪	-13.5143
今子之言大而無用衆所同去也莊子曰	-13.5144
惠子謂莊子曰吾有大樹人謂之樗	-13.5144
或以封或不免於洴澼絖則所用之異也	-13.5144
仲尼曰孟孫才其母死哭泣無涕中心不	-13.5144
俔	-13.5144
圃澤之役有伯豐子者	-13.5144
櫾	-13.5144
鄢	-13.5144
子來曰父母於子東西南北唯命之從	-13.5144
大樽而浮乎江湖而憂其瓠落	-13.5144
貪財而取慰貪權而取竭	-13.5145
塈	-13.5145
𢶞	-13.5145
𢮞	-13.5145
鄽	-13.5145
夫兩喜必多溢美之言兩怒必多溢惡之	-13.5145
未嘗見夫子遇人如此其威也	-13.5145
輭	-13.5145
而不受事之以犬馬而不受事之	-13.5145
古之得道者窮亦樂通亦樂	-13.5145
大可驚惶仰對聖前恭投懴悔	-13.5145
衲	-13.5145
珂	-13.5145
運四時之行萬物之理俄造而有倏化而	-13.5145
百圍之竅穴似鼻似口似耳似枅似圈似	-13.5146
特犯人之形而猶喜之若人之形者萬化	-13.5146
者天下之至害也皆遺忘而不知察	-13.5146
今丘抱仁義之道以遭亂世之患	-13.5146
若是而可謂成乎雖我亦成也	-13.5146
彼非所明而明之故以堅白之昧終	-13.5146
然不然可不可困百家之知窮衆口之辯	-13.5146
唐玄宗御製道徳眞經䟽卷之	-13.5147
鷸	-13.5147
爲是不用而寓諸庸此之謂以明	-13.5147
髏	-13.5147
宙之中冬日衣皮毛夏日衣葛絺春	-13.5147
夭斤斧物無害者無所可用安所困苦哉	-13.5147
我與若與人俱不能相知也而待彼也邪	-13.5147
之道長而明仁義之行合同異離堅白	-13.5147
繰	-13.5147
蜾	-13.5147
所及之處仰不見日月俯不見河海	-13.5147
對曰不願仕回有郭外之田五十	-13.5148
壍	-13.5148
莆	-13.5148
愛人也人與之名不告則不知其愛人也	-13.5148
且有大覺而後知此其大夢也	-13.5148
足以給飦粥郭内之田十	-13.5148
泠風則小和飄風則大和	-13.5148
以舟之可行於水也而求推之於陸	-13.5148
生青寧青寧生程程生馬馬生人人	-13.5149
摰	-13.5149
郗	-13.5149
殼	-13.5149
衆至則不比不比則不利也	-13.5149
苟子之不欲雖賞之不竊	-13.5149
咸池九韶之樂張之洞庭之野	-13.5149
翡	-13.5149
尪	-13.5149
徯	-13.5149
薉	-13.5149
夫藏舟於壑藏山於澤謂之固矣	-13.5149
痎	-13.5149
利仁義者衆夫仁義之行唯且無誠	-13.5149
以目視目以耳聽耳以心復心	-13.5149
其爲氣也至大至剛以直養而無害則塞	-13.5149
阸	-13.5149
种	-13.515
竊竊乎又何足以濟世哉	-13.515
棼	-13.515
曰天也非人也天之生是使獨也	-13.515
曲而不中規矩立之塗匠者不顧	-13.515
蓺	-13.5151
籖	-13.5151
是以十九年而刀刃若新發於硎	-13.5151
有名則尊榮亡名則卑辱	-13.5151
萬物方陳乎前而不得入其舍	-13.5151
不以利自累也審自得者失之而不懼行	-13.5152
手攫之則右手廢右手攫之則左手廢然	-13.5152
死生命也其有夜旦之常天也	-13.5152
鼐	-13.5152
機心存於胸中則純白不備	-13.5152
然而辭朝令而夜遁終身無聞	-13.5152
皆重失之見利輕亡其身豈不惑哉	-13.5152
人之生也與憂俱生壽者惛惛	-13.5152
若王子搜者可謂不以國傷生矣	-13.5152
軵	-13.5152
痛異彼痛彼痛異我痛	-13.5152
自樂也回不願仕孔子愀然變容曰善哉	-13.5152
綈	-13.5153
知不知論極妙之言而自適一時之利者	-13.5153
舜問乎丞曰道可得而有乎	-13.5153
須精神之運心術之動然後從之者也	-13.5153
忘年忘義振於無竟故寓諸無竟	-13.5153
今吾才小不足以化子子胡不南見老子	-13.5154
冉求問於仲尼曰未有天地可知	-13.5154
以天下非之失其所謂儻然不受	-13.5154
思士不妻而感思女不夫而孕	-13.5154
其殺如秋冬以言其日消也	-13.5155
煇	-13.5155
肸	-13.5155
酈	-13.5155
鶯	-13.5155
無南無北奭然四解淪於不測	-13.5155
癜	-13.5156
晒	-13.5156
河澤之鳥視而生曰鶂	-13.5156
坌	-13.5158
齔	-13.5158
熄	-13.5158
蟮	-13.5158
謭	-13.5158
食醯黄軦生乎九猷	-13.5158
憰	-13.5158
虎之與人異類而媚養己者順也	-13.5158
沚	-13.5158
覤	-13.5158
攙	-13.5158
廣行慈憫並賜赦原求懴弟子某	-13.5158
奚必知代而心自取者有之愚者與有焉	-13.5159
妓	-13.5159
蚷	-13.5159
嘻子之先生死矣弗活矣不以旬數	-13.5159
乎形固可使如槁木而心固可使如死	-13.5159
褰	-13.516
將惡乎託業以及此言邪	-13.516
吏捕得之問曰人皆在焉子攫人之金何	-13.516
矗	-13.5161
跎	-13.5161
栲	-13.5162
顇	-13.5162
德之容章第二十一孔德之容惟道是從	-13.5162
抬	-13.5162
子綦曰偃不亦善乎而問之也	-13.5163
靨	-13.5163
天一眞慶宫元和遷校府北極佑聖院諸	-13.5164
丫	-13.5164
禨	-13.5165
遒	-13.5166
幄	-13.5167
㿉	-13.5167
祺	-13.5168
秔	-13.5168
彬	-13.5169
蕳	-13.517
煽	-13.5171
嘅	-13.5171
鎧	-13.5173
攔	-13.5173
淒	-13.5175
購	-13.5175
氿	-13.5175
爲身而見形昧人者故云或以	-13.5176
鱓	-13.518
蜆	-13.518
君子行權貴於合義小人用之	-13.5198
蟧	-13.6496
蛁	-13.65
秊	-13.6505
竃	-13.6512
靈鎭防大將軍一人官將守宅	-13.6513
隐	-13.6515
蕺	-13.6518
䆴	-13.6522
鄔	-13.6522
娗	-13.6523
有國於蝸之右角者曰蠻氏	-13.6528
數千里未有知其脩者其名爲鯤	-13.653
其弟子曰我得夫子之道矣吾能冬	-13.653
魯遽曰是直以陽召陽以	-13.653
躰	-13.653
之舟置杯焉則膠水淺而舟大也	-13.6531
之調瑟廢一於堂廢一於室鼓	-13.6532
昰	-13.6532
芺	-13.6532
軨	-13.6533
齊諧者志怪者也諧之言曰鵬之徙於南	-13.6533
日方中方睨物方生方死	-13.6534
則身刑而死周尚安所事金乎使臣上	-13.6534
鵙	-13.6534
曰然然則弔焉若此可乎曰然	-13.6534
忘天下難兼忘天下易使天下兼忘我難	-13.6534
决絶之行噫其非至知厚德之任與	-13.6535
其辭雖參差而諔詭可觀	-13.6535
而後乃今培風背負青天而莫之	-13.6536
此非過孝之言也不及孝之言也	-13.6536
圀	-13.6536
國何求而不得也太子曰然吾王所見唯	-13.6537
然則俗故嚴於親而尊於君邪	-13.6537
將惡乎比予哉若將比予於文木邪	-13.6538
某再拜上言今月某日爲齋法弟子某	-13.6538
至君再欲殺之再欲活之心疑卜之曰殺	-13.6539
芴乎若亡寂乎若清同焉者和得焉者	-13.6539
已是皆求名實者也而獨不聞之乎	-13.6539
哉其相物也而幾死之散人又惡知散木	-13.654
知命不能規乎其前丘以是日徂	-13.654
非前期而中謂之善射天下皆羿也可乎	-13.654
哀公問於仲尼曰衛有惡人焉曰哀駘它	-13.654
晤	-13.654
豈唯形骸有聾盲哉夫知亦有之	-13.654
果以惡駭天下與寡人處不至以月數	-13.654
不能避刳腸之患如是則知有所困	-13.6541
蜀郡嚴遵字君平撰谷神子註	-13.6542
親則不愛不愛則不孝謂至仁不孝可乎	-13.6542
孔子曰何謂邪曰心困焉而不能知口辟	-13.6543
形物自著其動若水其靜若鏡其應若響	-13.6543
仞得石槨焉洗而視之有銘焉曰不馮	-13.6543
吾始聞之懼復聞之怠卒聞之而	-13.6543
而果然乎惡乎其所適惡乎其所不適	-13.6543
有乎生有乎死有乎出有乎入入出而	-13.6543
至大無外謂之大一至小無内謂之小一	-13.6544
凡能其於府也殆殆之成也不給改	-13.6544
箬	-13.6544
知效一官行比一鄉德合一君而	-13.6544
兠	-13.6545
為始就某處肅建玄壇依按真科次苐	-13.6545
使之而觀其忠近使之而觀其敬	-13.6545
常季曰何謂也仲尼曰自其異者視之肝	-13.6546
委之以財而觀其仁告之以危而觀其	-13.6546
與其信然與向者先生形體掘	-13.6546
軤	-13.6546
堅閉門而不出貧人見之挈妻子而去之	-13.6546
日出東方而入於西極萬物莫不比方	-13.6546
垺	-13.6546
太上六壬明鑑符陰經卷之	-13.6546
虎君捧香使者三炁正神急上關啓三天	-13.6546
人致功并兼者之所好也就藪澤處	-13.6546
酒湛樂不聽國家之政田獵畢	-13.6546
夫哀莫大於心死而人死亦次之	-13.6546
氤	-13.6547
少焉徐無鬼曰嘗語君吾相狗也	-13.6547
師曰齧缺齧缺之師曰王倪王倪之師曰	-13.6547
雖踐恃其所不蹍而後善博也	-13.6547
厲身爲刑戮其用兵不止其求實	-13.6548
有魚其名爲鯤鯤之大不知其幾千里也	-13.6548
彼必齕齧挽裂盡去而後慊	-13.6548
帯	-13.6548
人之治其形理其心多有似封人之所謂	-13.6548
彼且奚適也我騰躍而上不過數仞而下	-13.6548
筌者所以在魚得魚而忘筌蹄者所以在	-13.6548
馳其形性潜之萬物終身不反悲夫	-13.6548
市南宜僚弄丸而兩家之難解孫叔敖甘	-13.6548
犯患若是矣雖今來何及矣無趾曰吾	-13.6549
然後入山林觀天性形軀至矣然後成見	-13.6549
軒冕之賞弗能勸斧鉞之威弗能禁	-13.6549
卽	-13.6549
下風膝行而進再拜稽首而問曰聞吾子	-13.6549
今我將出子可以止乎其未邪	-13.6549
今夫百昌皆生於土而反於土	-13.6549
以休影處靜以息迹愚亦甚矣	-13.6549
影之守人也審物之守物也審	-13.6549
大儒臚傳曰東方作矣事之	-13.6549
是萬物之化也禹舜之所紐也伏	-13.6549
對曰臣工人何術之有雖然有一焉臣將	-13.6549
夫子辯亦辯也夫子馳亦馳也夫子言道	-13.6549
常季曰彼兀者也而王先生其與庸亦	-13.6549
女子不來水至不去抱梁柱而死此	-13.655
已外物矣吾又守之九日而後能外生	-13.655
剝	-13.655
斐	-13.655
以堅白同異之辯相訾以觭偶不	-13.655
無其數有其聲而無宫角木聲與人聲	-13.655
知詐漸毒頡滑堅白解垢同異之變多	-13.655
至精無形至大不可圍是信情乎	-13.655
汝得全而形軀具而九竅無中道	-13.655
異於磔犬流豕操瓢而乞者	-13.6551
鏟	-13.6551
崒	-13.6551
問於黄帝曰帝張咸池之樂於洞庭之野	-13.6551
窅然空然終日視之而不見聽之而不聞	-13.6551
論先王之道而明周召之迹一君無所鉤	-13.6551
憊也此所謂非遭時也王獨不見	-13.6552
人也形尊而嚴其於罪也無赦如虎非	-13.6552
者道之所不載也吾非不知羞而不爲也	-13.6552
皆知求其所不知而莫知求其所已知者	-13.6552
俱誦墨經而倍譎不同相謂别墨	-13.6552
爲之者而不得也然而至此極者命也夫	-13.6552
騰猿乎其得柟梓豫章也攬蔓其枝而王	-13.6552
賜亦可得而觀乎遂以孔子聲見老聃	-13.6552
栱	-13.6552
弟子問曰夫子見老聃亦將何規哉	-13.6553
乎淵泉而不濡處卑細而不憊充滿天地	-13.6553
五帝之治天下不同其係聲名一也而先	-13.6553
堯治天下之民平海内之政往見四子	-13.6553
將猶陶鑄堯舜者也孰肯以物爲事	-13.6553
朒	-13.6553
墆	-13.6553
遭之而不違過之而不守調而應之	-13.6553
今處昏上亂相之間而欲無憊奚可得	-13.6553
端拱還目而窺之仲尼恐其廣	-13.6553
皇子曰委蛇其大如轂其長如轅紫衣而	-13.6553
秣	-13.6553
至于子胥比干皆不足貴也丘之所以	-13.6553
㱕	-13.6553
之世不尚賢不使能上如標枝民如野鹿	-13.6553
也氣息音聲人也問奚道而處石奚道而	-13.6553
火其人曰奚物而謂石奚物而謂火	-13.6553
不顧於慮不謀於知於物無擇與之俱	-13.6553
於是乎有雷有霆水中有火乃焚大槐	-13.6553
原憲笑曰夫希世而行比周而友學以	-13.6554
意而子見許由許由曰堯何以資汝	-13.6554
俳	-13.6554
而似無能引援而飛迫脅而棲	-13.6554
寂離於名稱諸法性空不相因待	-13.6554
帙	-13.6554
越之王激西江之水而迎子可乎	-13.6554
鮒魚忿然作色曰吾失我常與	-13.6554
五官殊職君不私故國治	-13.6554
是魚樂也惠子曰子非魚安知魚之樂	-13.6554
魯有兀者叔山無趾踵見仲尼	-13.6554
之累動靜不離於理是以終身無譽	-13.6554
子綦曰此何木也哉此必有異材	-13.6554
孫乎而王者祖有功宗有德故周之興也	-13.6554
曰凡人心險於山川難於知天天猶有	-13.6554
司主也徹通也言有德之君主司心契	-13.6555
孔子曰吾乃今於是乎見龍龍合而成	-13.6555
則捧其首而立見之者殆乎霸桓公	-13.6555
正衣冠與之坐不終日而不知病之去也	-13.6555
絛	-13.6555
觀於大海乃知爾醜爾將可與語大理矣	-13.6555
下之質執飽而止是狸德也	-13.6555
在谷滿谷在阬滿阬	-13.6555
執民之紀而憂其死吾自以爲至通矣今	-13.6555
富則人歸之歸則下之下則貴之	-13.6555
祭也郊祀后稷宗祀文王故雖卜代三十	-13.6555
凡事若小若大寡不道以懽成	-13.6555
菣	-13.6555
許由曰噫未可知也我爲汝言其大略	-13.6555
子以爲孟浪之言而我以爲妙道之行也	-13.6555
人愛我我必愛之人惡我我必惡之	-13.6555
與其譽堯而非桀不如兩忘而閉其所譽	-13.6555
鄰有夫妻臣妾登極者子路曰是稯稯何	-13.6555
簒	-13.6555
若唯無詔王公必將乗人而	-13.6555
何也對曰吾樂甚多天生萬物唯人	-13.6555
好經大事變更易常以挂功名謂之叨	-13.6555
血氣飄溢欲慮充起物所攻焉德故衰焉	-13.6555
曰吾固告子矣中國之民明乎禮義而陋	-13.6555
簑	-13.6555
老聃曰胡不直使彼以死生爲一條以	-13.6555
夫務免乎人之所不免者豈不亦悲哉	-13.6555
安體樂意之道也今子獨無意焉知不足	-13.6556
名曰意怠其爲鳥也翂翂翐翐	-13.6556
夫凍者假衣於春暍者反冬乎冷風	-13.6556
寒暑窮桎不行天地之行也運物之泄也	-13.6556
搐	-13.6556
不能容人者無親無親者盡人	-13.6556
嬰孩也少壯也老耄也死亡也	-13.6556
子能得車者必遭其睡也使宋王而寤子	-13.6556
或編曲或鼓琴相和而歌曰嗟來桑	-13.6556
禹之湮洪水决江河而通四夷九州也名	-13.6556
齊士有皇子告敖者曰公則自傷	-13.6556
處順哀樂不能入也此古之所謂縣解也	-13.6556
意有所隨意之所隨者不可以言傳也	-13.6556
戰而死者其人之葬也不以翣資	-13.6556
檏	-13.6556
莊子曰夫子固拙於用大矣宋人有善	-13.6557
藐姑射之山汾水之陽窅然喪其天下焉	-13.6557
管仲有病桓公問之曰仲父之病	-13.6557
铘	-13.6557
蹙然改容而問曰業可得進乎	-13.6557
所言猶迹也夫迹履之所出而迹豈履哉	-13.6557
進退一成規一成矩從容一若龍一若虎	-13.6557
外以亂人内以傷身君子不友明君不臣	-13.6557
杞國有人憂天地崩墜身亡所寄	-13.6557
治國去之亂國就之醫門多疾	-13.6557
也書不過語語有貴也語之所貴者意也	-13.6557
大馬之捶鉤者年八十矣而不失	-13.6557
偉哉夫造物者將以予爲此拘拘也	-13.6557
吾問焉而不吾告敢問何謂也仲尼曰善	-13.6557
湔	-13.6558
昡	-13.6558
之所不宜處不給視雖落其實棄之而走	-13.6558
申徒嘉曰先生之門固有執政焉如此哉	-13.6558
謂東郭子綦曰自吾聞子之言一年而野	-13.6558
謀曰不如食以糠糟而錯之牢筴之中自	-13.6558
内待問窮若是者外不觀乎宇宙内不知	-13.6558
利義陳乎前而好惡是非直服人之口而	-13.6558
將使於齊問於仲尼曰王使諸梁也甚重	-13.6558
曰中心物愷兼愛無私此仁義之情也	-13.6558
載之而不能覆之大道能包之而不能辯	-13.6558
乎其若四方之無窮其無所畛域	-13.6558
琭	-13.6558
忠當而不知以爲信蠢動而相使不	-13.6558
曰今者闕然數日不見車馬有行色得	-13.6558
老聃曰小子少進子何以謂不同	-13.6558
文侯聞之問子夏曰彼何人哉子夏曰以	-13.6558
盾	-13.6558
吾敢不爲邪爲人之所爲者人亦無疵焉	-13.6559
聞之曰鑑明則塵垢不止止則不明也	-13.6559
無轉而行無成而義將失而所爲	-13.6559
武之道掌天下之辯以教後世縫衣淺帶	-13.6559
心也心爲陽藏與前境契合故謂之左契	-13.6559
㳟	-13.6559
王殊禪三代殊繼差其時逆其俗者謂之	-13.6559
遊且得不遊乎人而不能遊且得遊乎	-13.6559
陳大夫聘魯私見叔孫	-13.6559
丘所謂無病而自灸也疾走料虎頭編虎	-13.6559
待之莊子入殿門不趨見王不拜	-13.6559
行以告蒲衣子蒲衣子曰而乃今知之乎	-13.6559
惡之情和喜怒之節而幾於不免矣	-13.6559
也此其所以論長生安體樂意之道不亦	-13.6559
庭不近人情焉連叔曰其言謂何哉曰藐	-13.6559
弓先調而後求勁馬先順而後求良人	-13.6559
然而巨盜至則負匱揭篋	-13.6559
汝以是非矣汝將何以遊夫遥蕩恣	-13.656
車之所通人處一焉此其比萬物也不似	-13.656
問於知和曰人卒未有不興名就利者彼	-13.656
蕚	-13.656
老萊子曰夫不忍一世之傷而	-13.656
絶巧則人不爭棄利則人自足	-13.656
以變其情易其性則異矣乃至於棄其所	-13.656
此四患也能去八疵無行四患而始可	-13.656
計中國之在海内不似稊米之在	-13.656
殺民非仁也人犯其難我享其利非廉也	-13.656
無任激切感戴之至謹奉表	-13.6561
菅	-13.6561
朞	-13.6561
䵷	-13.6561
其視雷霆不亂其聽美惡不滑	-13.6561
陳大夫曰吾國亦有聖人子弗知乎曰	-13.6561
爲人使易以僞爲天使難以僞	-13.6561
多知爲敗我爲汝遂於大明之上矣	-13.6561
炅	-13.6561
無所貴所以愛資爲存教相於教	-13.6561
而美者人與之鑑不告則不知其美於人	-13.6561
以夫事其親者不擇地而安之孝之至也	-13.6561
龍頷下子能得珠者必遭其睡也使	-13.6561
倅	-13.6561
孔子不見母匡子不見父義之失也	-13.6561
孔子云夫受才乎大本復靈以生	-13.6561
栟	-13.6561
遂之仁者居之古之道也吾子胡不立乎	-13.6561
孫子出扁子入坐有間仰天而歎	-13.6561
霾	-13.6561
而子索我於形骸之外不亦過乎	-13.6561
無足曰夫富之於人無所不利窮美	-13.6561
且若亦知夫德之所蕩而知之所	-13.6561
絶俗過世之士焉是專無主正所以	-13.6561
九年之後橫心之所念橫口之所言	-13.6561
内惡至而倪貴賤惡至而倪小大	-13.6561
能守其本故外天地遺萬物而神未嘗	-13.6561
而馬係於前者立其百體而謂之馬也	-13.6561
士矜難勇敢之士奮患兵革之士樂	-13.6561
棟梁俯而視其大根則軸解而不可以	-13.6561
非其義者不受其禄無道之世不踐其	-13.6561
後而一遇大聖知其解者是旦暮遇之也	-13.6562
水靜則明燭鬚眉平中准大匠取法焉	-13.6562
吾子欲見温伯雪子乆矣見之而不言何	-13.6562
斗得之終古不忒日月得之終古不息堪	-13.6562
吾再逐於魯伐樹於宋削迹於	-13.6562
尚有餘殃受報未巳今則聞經所說	-13.6562
庖人雖不治庖尸祝不越樽俎而代之矣	-13.6562
日復見曰回益矣曰何謂也曰回坐忘矣	-13.6562
今宋國之深非直九重之淵也宋王	-13.6562
礲	-13.6562
燉	-13.6562
獨弦哀歌以賣名聲於天下者乎	-13.6562
咸池堯有大章舜有大韶禹有大夏湯有	-13.6562
帝而雍非仁天下也不以美害生	-13.6562
心不待學而樂之體不待象而安之	-13.6562
楚國之法必有重賞大功而後得見今臣	-13.6562
磒	-13.6562
稱賢焉則可以有之彼非以興名譽也	-13.6562
非臣之功故不敢當其賞王曰見之屠羊	-13.6562
猶與堯爭善計子之德不足以自反邪	-13.6562
仲尼曰夫孟孫氏盡之矣進於知矣	-13.6562
其大若垂天之雲此能爲大矣而不能執	-13.6563
北海之帝爲忽中央之帝爲渾沌	-13.6563
笑者一月之中不過四五日而已矣天與	-13.6563
雷聲而淵默發動如天地者乎	-13.6563
礼	-13.6563
之曰知生之民神農之世卧則居居起則	-13.6563
也吾生乎亂世而無道之人再來漫我以	-13.6563
待師此人之性也天下雖非我孰能辭之	-13.6563
爲則俞俞俞俞者憂患不能處年壽長矣	-13.6563
瘈	-13.6563
今子不去將忘子之故失子之業	-13.6563
粕	-13.6563
昭景也著戴也甲氏也著封也非一也	-13.6563
吾欲取天地之精以佐五穀以養民人	-13.6563
之狗成思猨狙之便自山林來	-13.6563
乆矣而不免命也求通乆矣而不得時也	-13.6563
善吾道者即一物中知天盡神致命造玄	-13.6563
掊擊聖人縱舍盜賊而天下始治矣	-13.6563
曰河上有家貧恃緯蕭而食者其子	-13.6563
立人之所病聚人之所爭窮困人之身使	-13.6563
因以求時夜浸假而化予之右臂以爲彈	-13.6563
曰此果不材之木也以至於此其大也嗟	-13.6563
聖人不謀惡用知不斲惡用膠無喪惡用	-13.6563
若成若不成而後無患者唯有德者能之	-13.6563
奏九韶以樂之鳥乃始憂悲眩視不敢	-13.6563
譌	-13.6563
鄰吾無糧我無食安得而至焉	-13.6563
非不呺然大也吾爲其無用而掊	-13.6563
姬人之所美也魚見之深入鳥見之	-13.6563
欲若道而用視聽形智以求之弗當矣	-13.6564
烊	-13.6564
搣	-13.6564
徹志之勃解心之謬去德之累達道之塞	-13.6564
方之師吾形解而不欲動口鉗而不欲言	-13.6564
曰臣有守也臣之年二十而好捶鉤於物	-13.6564
莊周忿然作色曰周昨來有中道而呼者	-13.6564
也蘄見我今也又蘄見我是必有以振	-13.6564
君得所以制臣臣得所以事君	-13.6564
車轍中有鮒魚焉周問之曰鮒魚來子何	-13.6564
亦反屠羊臣之爵禄已復矣又何賞之	-13.6564
纜	-13.6564
察古人之全寡能備於天地之美稱	-13.6564
非不我告中欲告而忘之也今予問乎	-13.6564
夫造物者之報人也不報其人而報其	-13.6564
弔之曰子幾死乎曰然子惡死乎曰然	-13.6564
生必先無離形形不離而生亡者有之矣	-13.6564
如激丹齒如齊貝音中	-13.6564
日月爲連璧星辰爲珠璣萬物爲齎送吾	-13.6564
睆睆然在纆繳之中而自以	-13.6564
退義而行仁退仁而行德忘德而合道人	-13.6564
不知其所爲使若有眞宰而特不得其眹	-13.6564
則父子兄弟相戒也必盛卒徒而後敢	-13.6564
始乎適而未嘗不適者忘適之適也	-13.6564
吾語若若能入遊其樊而無感其名	-13.6565
故曰魚相忘乎江湖人相忘乎道術	-13.6565
其不知也此其似之也以其忘之也予與	-13.6565
其累與赤子之累多矣棄千金之	-13.6565
儂	-13.6565
戄	-13.6565
不知天下治歟不治歟不知億兆之願戴	-13.6565
於陳蔡丘不知所失而離此四謗者何也	-13.6565
人處水而死彼必相與異其好惡故異也	-13.6565
涪	-13.6565
扢	-13.6565
是用之者假不用者也以長得其用而	-13.6565
觀者如市匠伯不顧遂行不輟	-13.6565
尹曰是純氣之守也非知巧果敢之	-13.6566
卞隨卞隨辭曰后之伐桀也謀乎我必以	-13.6566
骨肉不葬鮑焦飾行非世抱木而死	-13.6566
徠	-13.6566
除君之憂而獨與道遊於大莫之國	-13.6566
夫姦病也故勞之唯君所病之何也	-13.6566
人臣者不足以任之子其有以語我來	-13.6566
撓顧指四方之民莫不俱至此之謂聖治	-13.6566
文侯儻然終日不言召前立臣而語之曰	-13.6566
三圍四圍求高名之麗者斬之	-13.6566
之禮堯桀之行貴賤有時未可以爲常也	-13.6566
又安知吾今之死不愈昔之生乎	-13.6566
天機不張而五官皆備此之謂天樂	-13.6566
彼且擇日而登假人則從是也	-13.6566
朱泙漫學屠龍於支離益	-13.6566
桄	-13.6566
鳶食在下爲螻蟻食奪彼與此何其偏也	-13.6566
死豹養其内而虎食其外毅	-13.6566
曰夫三旌之位吾知其貴於屠羊之肆	-13.6566
之所引非引人也故俯仰而不得罪於人	-13.6566
魯君聞顔闔得道之人也使人以幣先焉	-13.6566
湯放其主武王伐紂文王拘羑里	-13.6566
越北使齊魯東使宋衛西使	-13.6566
顔闔守陋閭苴布之衣而自飯牛	-13.6566
洸	-13.6566
不敢當願復反吾屠羊之肆遂不受也	-13.6566
礫	-13.6567
以知其實汝造事而窮予造事而達此	-13.6567
淤	-13.6567
湢	-13.6567
篾	-13.6567
日月不得不行萬物不得不昌此其道與	-13.6567
自生自化自形自色自智自力自消自息	-13.6567
亦有何樂而拾穗行歌乎	-13.6567
子列子曰昔者聖人因陰陽以統天地	-13.6567
故一形有失其形者退而自責	-13.6567
桀紂而天下無通人非知失也時勢適然	-13.6567
皆生人之累也死則無此矣子欲聞死之	-13.6567
夜半髑髏見夢曰子之談者似辯士	-13.6567
少焉果敗而反公曰子何以知之	-13.6567
明乎禮義而陋於知人心吾不欲見也	-13.6567
眊	-13.6567
菹於衛東門之上是子教之不至也	-13.6567
齧缺問乎王倪曰子知物之所同是乎	-13.6567
此亦至矣夫子奚不時來入觀乎	-13.6567
豈可以貪爵禄而使吾君有妄施之名乎	-13.6567
糈	-13.6567
氏之國巨蒐氏乃獻白鵠之血以	-13.6567
輔其自然無愛利之心焉仁無得而名	-13.6567
上詣三天金闕玉陛下請降	-13.6567
也使汝之徒食而飽衣而息執政之功也	-13.6567
孔子復通曰丘得幸於季願望履幕下	-13.6567
子曰道與之貌天與之形惡得不謂之人	-13.6567
曰貧也非憊也士有道德不能行憊也衣	-13.6567
將子有不善之行愧遺父母妻子之醜而	-13.6567
曰其馬力竭矣而猶求焉故曰敗	-13.6567
畏壘之民相與言曰庚桑子之始來吾	-13.6567
夫得是而窮之者物焉得而止焉	-13.6568
始臣之解牛之時所見無非牛者	-13.6568
嘹	-13.6568
行年九十矣是三樂也貧者	-13.6568
王與凡君坐少焉楚王左右曰凡亡者三	-13.6568
喏	-13.6568
失性有五一曰五色亂目使目不明	-13.6568
葆眞清而容物物無道正容以悟之使人	-13.6568
也聽而可聞者名與聲也悲夫世人以形	-13.6568
墨翟則變容易色稱不足者士誠貴也	-13.6568
子方曰非也無擇之里人也稱道數當	-13.6568
繋	-13.6568
夏則休乎山樊有過而問者曰此予宅也	-13.6568
子曰少君之費寡君之欲雖無糧而乃足	-13.6568
癊	-13.6569
殮	-13.6569
装	-13.6569
輈	-13.6569
暵	-13.6569
鞘	-13.6569
礎	-13.657
婺	-13.6571
仭	-13.6571
釭	-13.6571
飪	-13.6571
鼢	-13.6571
飦	-13.6572
萋	-13.6572
顴	-13.6572
胑	-13.6573
痪	-13.6573
眵	-13.6573
癯	-13.6573
凾	-13.6573
賡	-13.6573
稈	-13.6573
馹	-13.6573
塌	-13.6573
鬧	-13.6574
驃	-13.6575
曡	-13.6575
鬆	-13.6575
剃	-13.6575
髦	-13.6575
臞	-13.6575
㮣	-13.6576
穏	-13.6576
𦕈	-13.6576
冊	-13.6576
苘	-13.6576
貙	-13.6576
珎	-13.6577
櫝	-13.6578
糗	-13.6578
苐	-13.6578
髑	-13.6578
旴	-13.6579
樏	-13.6579
郟	-13.658
瀕	-13.658
揪	-13.658
堙	-13.6581
瀚	-13.6581
缷	-13.6581
闃	-13.6581
嚨	-13.6581
𠔃	-13.6582
𤊨	-13.6582
幪	-13.6582
棁	-13.6582
腕	-13.6582
禰	-13.6582
仝	-13.6582
蜉	-13.6582
姮	-13.6583
籃	-13.6583
饘	-13.6583
霶	-13.6583
螽	-13.6583
㤋	-13.6583
姧	-13.6585
胖	-13.6585
醺	-13.6585
薐	-13.6585
㖥	-13.6585
洙	-13.6585
扺	-13.6585
鋃	-13.6586
扑	-13.6588
逵	-13.6588
氂	-13.6588
餺	-13.6588
崿	-13.6589
噞	-13.6591
磊	-13.6591
㾓	-13.6591
墯	-13.6591
瑄	-13.6591
棖	-13.6593
顦	-13.6594
眈	-13.6594
矻	-13.6594
磧	-13.6595
慬	-13.6596
芄	-13.6596
珓	-13.6599
漙	-13.6599
㯓	-13.6599
綃	-13.66
蝤	-13.66
襪	-13.66
扳	-13.6608
恫	-13.6611
埿	-13.6616
蹀	-13.6653
橓	-13.8157
䵍	-13.8167
葘	-13.8184
蝭	-13.8186
妎	-13.8192
螬	-13.8196
虙	-13.8197
俆	-13.8199
繽	-13.8199
鸚	-13.8205
掯	-13.8206
髠	-13.8206
瘭	-13.8207
醽	-13.8207
亾	-13.8208
痃	-13.8209
惵	-13.8209
昕	-13.8209
瀰	-13.821
澣	-13.821
橜	-13.821
癉	-13.8211
沭	-13.8211
芿	-13.8211
𧆐	-13.8211
硤	-13.8211
攵	-13.8212
揃	-13.8212
坩	-13.8213
蕒	-13.8213
斆	-13.8214
閾	-13.8214
栘	-13.8214
棃	-13.8214
蠼	-13.8214
覊	-13.8215
騂	-13.8215
鈺	-13.8215
蒳	-13.8217
齪	-13.8217
㩁	-13.8218
磵	-13.8219
媌	-13.822
踪	-13.822
蒚	-13.822
伹	-13.8221
瀬	-13.8221
声	-13.8221
佪	-13.8222
雋	-13.8222
鑢	-13.8223
欀	-13.8223
覔	-13.8223
𢡚	-13.8223
𧷤	-13.8223
叓	-13.8223
葒	-13.8223
𥺀	-13.8224
懊	-13.8225
娟	-13.8225
貰	-13.8225
嶢	-13.8225
蚘	-13.8225
㪚	-13.8225
楔	-13.8225
餠	-13.8225
獘	-13.8226
猯	-13.8226
鬽	-13.8227
滾	-13.8227
㗖	-13.8227
蚰	-13.8228
曙	-13.8228
韁	-13.8228
縟	-13.8228
罦	-13.8229
惧	-13.8229
踔	-13.8229
徬	-13.8229
牓	-13.8229
幬	-13.8229
蘹	-13.8229
庳	-13.823
鏹	-13.823
鳬	-13.823
薜	-13.823
犴	-13.823
狁	-13.823
埜	-13.823
劃	-13.8231
縲	-13.8231
罋	-13.8231
㕔	-13.8231
魃	-13.8232
濼	-13.8232
欎	-13.8232
梔	-13.8233
樁	-13.8233
髼	-13.8233
碟	-13.8234
鑴	-13.8234
痁	-13.8235
惆	-13.8235
昜	-13.8235
歿	-13.8235
騃	-13.8235
㢤	-13.8235
咂	-13.8236
樲	-13.8236
蓴	-13.8236
腆	-13.8236
邯	-13.8237
𥿄	-13.8238
圻	-13.8238
檽	-13.8238
俓	-13.8238
斿	-13.8238
尟	-13.8238
樿	-13.8239
咮	-13.8239
袌	-13.8239
艘	-13.8239
燐	-13.8239
酩	-13.824
搬	-13.824
幛	-13.824
耍	-13.8243
矚	-13.8243
湄	-13.8243
㱙	-13.8244
毉	-13.8244
懔	-13.8244
澌	-13.8244
彧	-13.8244
鈸	-13.8245
𢹂	-13.8245
噍	-13.8245
𧮼	-13.8245
鉼	-13.8245
夤	-13.8246
蹂	-13.8246
擡	-13.8246
傜	-13.8246
堕	-13.8247
暌	-13.8247
麹	-13.8247
罥	-13.8247
癎	-13.8248
𨅊	-13.8248
苪	-13.8249
𡈗	-13.8249
么	-13.8249
綌	-13.8249
轗	-13.8251
猱	-13.8251
牯	-13.8251
覼	-13.8251
姆	-13.8254
慵	-13.8254
倆	-13.8254
綠	-13.8254
挿	-13.8254
瓚	-13.8255
泱	-13.8255
苒	-13.8256
狖	-13.8256
懹	-13.8257
獗	-13.8257
捘	-13.8258
耋	-13.8259
礛	-13.8259
𤚩	-13.8259
嫄	-13.826
熯	-13.826
爬	-13.826
糶	-13.8261
鮎	-13.8261
崞	-13.8261
腒	-13.8261
嘈	-13.8262
搓	-13.8262
攴	-13.8262
鬟	-13.8262
寗	-13.8262
脘	-13.8263
餛	-13.8263
蕕	-13.8263
飩	-13.8264
恓	-13.8264
旰	-13.8265
泙	-13.8267
綻	-13.8267
炤	-13.8267
燖	-13.8268
鱸	-13.8269
蚝	-13.827
匾	-13.8271
圏	-13.8272
牁	-13.8272
鱐	-13.8273
鑞	-13.8275
桲	-13.8275
魴	-13.8275
囟	-13.8276
噩	-13.8276
䨱	-13.8277
蜊	-13.8277
𥨸	-13.8278
亣	-13.8279
蚶	-13.8285
菾	-13.8286
𦽏	-13.8286
佻	-13.8296
儁	-13.83
翜	-14.0173
䐇	-14.0175
栨	-14.0179
魖	-14.0182
䢉	-14.0191
処	-14.0194
犖	-14.0194
蘦	-14.0194
孱	-14.0195
餵	-14.0196
鰿	-14.0197
𩦲	-14.0198
嶕	-14.0199
箑	-14.0201
𣀮	-14.0202
皛	-14.0202
訙	-14.0203
𡫩	-14.0203
蹌	-14.0204
熁	-14.0205
胵	-14.0206
鄫	-14.0206
絙	-14.0206
㨗	-14.0206
軆	-14.0207
矦	-14.0209
洵	-14.0209
顗	-14.0209
膓	-14.021
郿	-14.021
葑	-14.021
葝	-14.021
㜽	-14.0211
酎	-14.0211
赩	-14.0212
柵	-14.0212
弶	-14.0215
惒	-14.0215
鬣	-14.0215
蟁	-14.0215
𧙍	-14.0215
肶	-14.0215
仔	-14.0217
𨤲	-14.0217
遻	-14.0217
陲	-14.0218
雘	-14.0218
焊	-14.0219
抔	-14.0219
籜	-14.022
䆫	-14.022
擕	-14.022
㩀	-14.0221
迯	-14.0221
甯	-14.0221
辠	-14.0221
妒	-14.0222
孥	-14.0222
曈	-14.0222
頫	-14.0222
掞	-14.0223
垽	-14.0223
汭	-14.0223
丄	-14.0223
躃	-14.0223
藳	-14.0224
毖	-14.0224
圗	-14.0224
絫	-14.0224
𠾱	-14.0224
錎	-14.0225
玆	-14.0225
皤	-14.0225
娫	-14.0226
鵓	-14.0226
蟆	-14.0226
駛	-14.0226
琛	-14.0227
䆒	-14.0227
羃	-14.0228
寕	-14.0228
禬	-14.0228
柬	-14.0228
确	-14.0228
縦	-14.0228
敺	-14.0228
㴠	-14.0229
蘺	-14.0229
蓧	-14.023
喨	-14.023
翾	-14.023
醶	-14.023
筥	-14.023
䘵	-14.023
貘	-14.023
膨	-14.023
蓀	-14.0231
胯	-14.0231
苶	-14.0231
聼	-14.0231
莬	-14.0231
飧	-14.0231
靶	-14.0232
槳	-14.0232
鍍	-14.0232
妲	-14.0232
帡	-14.0232
廋	-14.0232
剕	-14.0232
樛	-14.0232
瞎	-14.0233
嫰	-14.0233
爺	-14.0233
畒	-14.0233
菼	-14.0233
佟	-14.0233
辝	-14.0234
稿	-14.0234
箰	-14.0234
莙	-14.0234
琱	-14.0234
蜡	-14.0234
䃩	-14.0234
庀	-14.0234
呶	-14.0234
嗥	-14.0234
尔	-14.0235
舑	-14.0235
胇	-14.0235
刅	-14.0235
淣	-14.0235
齠	-14.0236
罇	-14.0236
𢊍	-14.0236
藫	-14.0236
謠	-14.0236
抨	-14.0236
仩	-14.0236
櫪	-14.0236
甿	-14.0236
𧣾	-14.0236
墽	-14.0236
柎	-14.0237
罣	-14.0237
雎	-14.0237
泚	-14.0237
秆	-14.0237
鉺	-14.0237
磲	-14.0237
荊	-14.0238
㕑	-14.0238
肧	-14.0238
羝	-14.0238
皸	-14.0238
蟒	-14.0238
訒	-14.0238
筏	-14.0239
蜞	-14.0239
蜮	-14.0239
撽	-14.0239
𢍆	-14.024
鍚	-14.0241
撙	-14.0241
摠	-14.0241
慽	-14.0241
駈	-14.0242
邲	-14.0242
欷	-14.0242
籮	-14.0242
鷖	-14.0242
鏜	-14.0242
鵡	-14.0242
幞	-14.0242
鑱	-14.0243
鞾	-14.0243
畊	-14.0243
栴	-14.0243
尢	-14.0243
曒	-14.0243
鸂	-14.0243
涙	-14.0244
䲭	-14.0244
蛹	-14.0244
䳺	-14.0245
饅	-14.0246
橇	-14.0246
朶	-14.0246
泫	-14.0246
鍖	-14.0246
柸	-14.0247
聤	-14.0247
旍	-14.0247
捭	-14.0248
峥	-14.0248
閴	-14.0248
𩨒	-14.0248
瞪	-14.0248
蝣	-14.0248
賻	-14.0249
𤑔	-14.0249
竚	-14.0249
烱	-14.0249
糒	-14.0249
茈	-14.025
𧮈	-14.025
睇	-14.025
堮	-14.025
扱	-14.025
袴	-14.0251
囓	-14.0251
緾	-14.0251
嵳	-14.0252
廿	-14.0252
酗	-14.0252
㗳	-14.0252
𥳑	-14.0252
朧	-14.0255
梘	-14.0255
甍	-14.0255
𥹋	-14.0255
蔾	-14.0256
餗	-14.0256
錚	-14.0256
戇	-14.0257
蔿	-14.0257
尠	-14.0258
桮	-14.0258
蔢	-14.0259
疴	-14.026
霤	-14.0261
鰍	-14.0261
桁	-14.0261
䋤	-14.0262
壩	-14.0262
贜	-14.0262
煏	-14.0262
沲	-14.0262
襜	-14.0263
櫬	-14.0263
緗	-14.0263
餧	-14.0264
坻	-14.0266
驍	-14.0266
𦵧	-14.0267
鐄	-14.0268
榅	-14.0269
搴	-14.0269
頏	-14.027
襴	-14.027
鯸	-14.0271
喃	-14.0271
惣	-14.0271
昻	-14.0272
偪	-14.0272
姐	-14.0274
盭	-14.0275
㽔	-14.0276
騭	-14.0276
砑	-14.0276
祫	-14.0278
㬋	-14.0279
焠	-14.0279
糴	-14.0281
鰒	-14.0283
彛	-14.0284
箎	-14.0287
𦐒	-14.0287
楂	-14.0289
葅	-14.029
鯇	-14.0292
蕁	-14.0296
驤	-14.0298
晰	-14.0298
哼	-14.2641
粽	-14.2652
厤	-14.2658
䪻	-14.2665
䈥	-14.2666
榧	-14.2666
蜘	-14.2666
㦧	-14.2675
弥	-14.268
𥻓	-14.2681
餤	-14.2684
蟋	-14.2684
蟀	-14.2686
胰	-14.2687
腯	-14.2687
盳	-14.2688
昳	-14.2691
暭	-14.2691
楽	-14.2691
囁	-14.2693
渑	-14.2693
咥	-14.2694
㒒	-14.2695
𥉂	-14.2695
沱	-14.2697
榴	-14.2698
鞹	-14.2698
葇	-14.2699
哨	-14.2699
夂	-14.2702
漭	-14.2702
轑	-14.2702
溽	-14.2704
𤜦	-14.2704
䥶	-14.2705
沅	-14.2705
誾	-14.2706
抐	-14.2706
毘	-14.2706
勔	-14.2708
欂	-14.2708
輞	-14.2708
筑	-14.2709
𨓜	-14.2709
摓	-14.2709
刓	-14.2709
螉	-14.2709
蠮	-14.2709
魡	-14.271
臬	-14.2711
湌	-14.2712
瑜	-14.2713
筎	-14.2713
鄖	-14.2715
窽	-14.2715
𢇁	-14.2715
菡	-14.2715
萏	-14.2715
躣	-14.2715
棓	-14.2716
壄	-14.2716
邏	-14.2716
鵶	-14.2716
玠	-14.2716
蹐	-14.2716
䬪	-14.2716
鈹	-14.2716
慠	-14.2716
誄	-14.2717
昶	-14.2717
窆	-14.2717
菖	-14.2718
緻	-14.2719
獠	-14.2719
皰	-14.2719
濂	-14.2719
唶	-14.2719
郴	-14.272
塟	-14.272
獱	-14.272
彺	-14.2721
鍤	-14.2722
撅	-14.2722
𢽹	-14.2722
璹	-14.2722
砭	-14.2722
㒷	-14.2722
輀	-14.2723
黳	-14.2723
苖	-14.2723
榼	-14.2724
暐	-14.2724
羯	-14.2724
迮	-14.2724
踁	-14.2724
儐	-14.2726
鞮	-14.2726
蘞	-14.2726
仃	-14.2726
唆	-14.2726
蹯	-14.2726
祲	-14.2726
𦵏	-14.2726
蜱	-14.2727
芼	-14.2727
蠉	-14.2727
曀	-14.2727
蹰	-14.2727
嗈	-14.2727
㹨	-14.2729
顉	-14.2729
𨫼	-14.2729
獫	-14.2729
㶸	-14.2729
摙	-14.2729
洑	-14.2729
劂	-14.2729
䱔	-14.273
纁	-14.273
阯	-14.273
頎	-14.273
檛	-14.273
晢	-14.273
鐙	-14.273
刲	-14.273
蘓	-14.273
貂	-14.2731
据	-14.2731
跼	-14.2731
㿌	-14.2731
瑪	-14.2731
霣	-14.2731
朘	-14.2732
黽	-14.2733
艫	-14.2733
漳	-14.2733
郯	-14.2734
甽	-14.2734
傋	-14.2734
儇	-14.2734
䢖	-14.2734
帨	-14.2734
侏	-14.2734
杆	-14.2734
㾗	-14.2735
䪡	-14.2735
呱	-14.2735
遅	-14.2737
屧	-14.2737
藙	-14.2737
䖏	-14.2737
鷲	-14.2738
腂	-14.2738
厮	-14.2738
惷	-14.2738
籄	-14.2738
烕	-14.2738
𪀢	-14.2738
淼	-14.2739
泂	-14.274
勍	-14.2741
齗	-14.2741
緹	-14.2741
揫	-14.2741
焜	-14.2741
𦳓	-14.2741
尫	-14.2741
頺	-14.2741
潯	-14.2741
篷	-14.2741
韛	-14.2742
耔	-14.2742
耴	-14.2742
酹	-14.2742
饍	-14.2742
䳵	-14.2742
蓰	-14.2744
痠	-14.2744
壝	-14.2744
蔦	-14.2744
硜	-14.2744
汐	-14.2745
扭	-14.2745
猝	-14.2745
镺	-14.2745
𦤺	-14.2745
皶	-14.2745
墅	-14.2745
蟖	-14.2745
鰈	-14.2745
匯	-14.2746
錍	-14.2747
则	-14.2747
暎	-14.2747
淇	-14.2747
濓	-14.2747
謏	-14.2747
䀹	-14.2747
譾	-14.2747
鏵	-14.2747
莭	-14.2748
蓁	-14.2748
鄲	-14.2748
棚	-14.2748
疕	-14.2748
灤	-14.2748
蛓	-14.2748
愬	-14.2748
魈	-14.2748
沔	-14.2749
箆	-14.2749
嵎	-14.2749
鵩	-14.2749
鼯	-14.2749
醲	-14.2749
蛅	-14.2749
駃	-14.2749
爆	-14.2751
訩	-14.2751
垸	-14.2751
籀	-14.2751
垝	-14.2751
彄	-14.2751
淝	-14.2751
褭	-14.2752
蚪	-14.2752
刪	-14.2752
嗏	-14.2752
蕓	-14.2752
灞	-14.2753
薙	-14.2755
蓻	-14.2755
詺	-14.2755
罳	-14.2756
莾	-14.2756
骿	-14.2756
潺	-14.2756
𧄹	-14.2756
蟦	-14.2756
𨋁	-14.2756
苨	-14.2758
苾	-14.2758
酊	-14.2758
湲	-14.2758
嘒	-14.2758
麰	-14.2758
𢬵	-14.2758
枻	-14.2759
幔	-14.2759
禩	-14.2759
䌓	-14.2759
愓	-14.276
蕞	-14.276
竢	-14.276
淙	-14.2762
廱	-14.2762
髄	-14.2762
𧏙	-14.2762
瀼	-14.2762
軏	-14.2763
餙	-14.2763
蜬	-14.2763
嫠	-14.2763
肫	-14.2763
𦼮	-14.2763
㪍	-14.2763
瑤	-14.2763
忓	-14.2765
䦘	-14.2765
趯	-14.2765
嶁	-14.2766
蝛	-14.2766
𦔳	-14.2766
琯	-14.2766
釗	-14.2767
擥	-14.2767
𥰾	-14.2767
鱟	-14.2769
攅	-14.2769
歹	-14.2769
𥙿	-14.2769
胴	-14.277
呢	-14.277
𠉣	-14.2771
闤	-14.2771
麃	-14.2773
癆	-14.2773
紉	-14.2773
麛	-14.2773
捂	-14.2773
𢘆	-14.2773
价	-14.2774
漾	-14.2774
褫	-14.2774
禘	-14.2774
凸	-14.2776
簜	-14.2776
鱖	-14.2776
剱	-14.2776
柹	-14.2777
𠾑	-14.2777
𠨱	-14.2777
惲	-14.2778
塏	-14.2778
汛	-14.2778
𡊨	-14.2778
篚	-14.278
櫅	-14.278
菺	-14.2784
戭	-14.2785
媛	-14.2785
槵	-14.2791
𥧌	-14.2791
壎	-14.2792
瘓	-14.2796
营	-14.2796
雰	-14.2801
䓗	-14.2803
薚	-14.281
餋	-14.2899
噁	-14.5983
拋	-14.5992
坸	-14.5992
䯻	-14.6006
媙	-14.6006
坋	-14.6011
欓	-14.6015
䞇	-14.6015
䤾	-14.6017
傒	-14.6017
奣	-14.6019
胱	-14.6021
凷	-14.6021
劙	-14.6021
槫	-14.6025
䕋	-14.6025
斾	-14.6029
淰	-14.6031
旤	-14.6035
沷	-14.6035
浡	-14.6036
峷	-14.6037
㑺	-14.6038
䪥	-14.6039
埀	-14.604
蚣	-14.604
氍	-14.604
濶	-14.604
噢	-14.6042
丱	-14.6042
娣	-14.6042
䣩	-14.6042
嚵	-14.6044
嶔	-14.6044
抺	-14.6044
牎	-14.6044
恧	-14.6046
嘍	-14.6046
婣	-14.6046
呀	-14.6046
曍	-14.6046
栀	-14.6046
爈	-14.6048
䔍	-14.6048
唅	-14.6048
㩢	-14.605
濔	-14.605
囦	-14.605
寝	-14.605
犲	-14.6052
幺	-14.6052
呆	-14.6052
蒺	-14.6054
怏	-14.6054
撕	-14.6054
嬋	-14.6054
倥	-14.6056
㘅	-14.6056
戱	-14.6056
凟	-14.6056
榠	-14.6058
俙	-14.6058
檠	-14.6058
拶	-14.6058
汍	-14.6058
堰	-14.6058
捆	-14.6058
厶	-14.6058
堋	-14.6058
奐	-14.606
敘	-14.606
㧾	-14.606
濺	-14.606
㭼	-14.606
啾	-14.606
趻	-14.6062
偵	-14.6062
㞢	-14.6062
䜿	-14.6062
【	-14.6063
搨	-14.6063
妮	-14.6064
檯	-14.6064
啐	-14.6064
撦	-14.6064
梂	-14.6064
蜈	-14.6065
悁	-14.6065
巗	-14.6066
澳	-14.6066
扒	-14.6067
崧	-14.6067
忲	-14.6067
㤥	-14.6067
垕	-14.6067
攉	-14.6067
杇	-14.6069
兗	-14.6069
洊	-14.6069
洚	-14.6069
樺	-14.6071
劘	-14.6071
嘑	-14.6071
㿔	-14.6071
幙	-14.6071
戳	-14.6071
滃	-14.6071
㘭	-14.6071
怗	-14.6071
殪	-14.6071
䫥	-14.6073
吥	-14.6073
瀦	-14.6073
喂	-14.6073
牸	-14.6073
䐴	-14.6073
呲	-14.6073
冏	-14.6075
旧	-14.6075
廽	-14.6075
喆	-14.6075
楬	-14.6075
櫞	-14.6075
样	-14.6077
搘	-14.6077
偄	-14.6077
㟡	-14.6077
劳	-14.6079
槴	-14.6079
嬾	-14.6079
㿗	-14.6081
悻	-14.6081
圑	-14.6081
惉	-14.6081
斌	-14.6081
崦	-14.6085
俲	-14.6085
䌤	-14.6085
堌	-14.6085
浞	-14.6087
洳	-14.6087
汏	-14.6089
揍	-14.609
剏	-14.6091
㱪	-14.6091
嶄	-14.6091
忪	-14.6091
嵸	-14.6092
嚕	-14.6093
揳	-14.6094
咼	-14.6094
嚶	-14.6094
涔	-14.6096
嶗	-14.6096
戬	-14.6096
嚲	-14.6098
港	-14.6098
牕	-14.61
桿	-14.6102
湃	-14.6102
㮏	-14.6104
椓	-14.6104
妥	-14.6104
䲴	-14.6104
䂖	-14.6104
孋	-14.6104
峴	-14.6104
妳	-14.6108
凳	-14.6108
忉	-14.611
漪	-14.611
从	-14.6113
嗢	-14.6114
嫦	-14.6114
呤	-14.6114
杴	-14.6114
宀	-14.6114
敭	-14.6115
憮	-14.6116
䔲	-14.6116
斸	-14.6118
枙	-14.6118
喰	-14.6118
嫚	-14.6119
怚	-14.6123
栳	-14.6123
呑	-14.6123
咆	-14.6125
憇	-14.6127
挌	-14.6127
灊	-14.6133
溯	-14.6135
䌝	-14.6135
䴢	-14.6139
䓪	-14.6141
䱒	-14.6156
毱	-14.6183
蔻	-15.0968
鎁	-15.1008
綢	-15.1032
萸	-15.1052
髣	-15.1064
瘰	-15.1089
啍	-15.1099
髴	-15.1115
膀	-15.1124
茱	-15.1143
慆	-16.1011
僿	-16.1012
㖒	-16.1013
𣧑	-16.1014
頣	-16.1015
硨	-16.1016
卨	-16.1017
䃴	-16.1018
㘨	-16.1019
藭	-16.1019
𨕣	-16.102
暓	-16.1021
伀	-16.1022
鑲	-16.1023
恟	-16.1024
錕	-16.1025
鋙	-16.1026
郕	-16.1027
昲	-16.1028
𧣴	-16.1029
颻	-16.103
碼	-16.1031
碯	-16.1032
玳	-16.1033
狽	-16.1034
崢	-16.1035
閿	-16.1036
癹	-16.1037
𪀊	-16.1038
鶹	-16.1039
瘂	-16.104
逅	-16.1041
輆	-16.1042
纉	-16.1043
慷	-16.1043
恝	-16.1044
鸕	-16.1045
萵	-16.1046
枇	-16.1047
嵛	-16.1048
>	-16.1049
=	-16.105
蝠	-16.1051
葙	-16.1052
檎	-16.1053
醐	-16.1054
蝴	-16.1055
蓿	-16.1056
苜	-16.1057
豌	-16.1058
蓖	-16.1059
羑	-16.106
嵋	-16.1061
衎	-16.1062
彿	-16.1063
"	-16.1064
蔯	-16.1065
螵	-16.1066
羚	-16.1067
徘	-16.1067
麒	-16.1068
蚯	-16.1069
靂	-16.107
藶	-16.1071
葶	-16.1072
瑚	-16.1073
崆	-16.1074
琥	-16.1075
3	-16.1075
涑	-16.1076
芍	-16.1076
