<unk>	0
<s>	0
</s>	0
/	-3.70867
之	-4.08951
)	-4.20046
(	-4.2219
)(	-4.65519
以	-4.76194
為	-4.8874
也	-4.95991
而	-4.98935
丨丨	-4.98976
曰	-5.19111
有	-5.1987
其	-5.22035
不	-5.31816
者	-5.35762
於	-5.41662
人	-5.47656
▁	-5.55694
一	-5.65386
丨	-5.72074
王	-5.76984
子	-5.78359
上	-5.79333
大	-5.79814
中	-5.80661
詩	-5.80994
無	-5.83297
則	-5.85251
與	-5.97302
自	-6.00321
見	-6.04072
下	-6.07725
時	-6.08027
行	-6.0872
至	-6.11682
在	-6.12242
三	-6.13494
山	-6.17795
如	-6.18659
事	-6.21381
言	-6.21386
所	-6.22437
傳	-6.23519
公	-6.25102
文	-6.26218
生	-6.26971
天	-6.27258
書	-6.27972
又	-6.28591
出	-6.29142
水	-6.30557
皆	-6.34196
使	-6.35383
日	-6.3659
乃	-6.37329
得	-6.3837
道	-6.38688
故	-6.39853
此	-6.43499
相	-6.44483
及	-6.46574
于	-6.46938
官	-6.47984
令	-6.48882
二	-6.48941
入	-6.49396
名	-6.50193
後	-6.50937
長	-6.5137
州	-6.54629
五	-6.55064
明	-6.55582
作	-6.57805
國	-6.58457
帝	-6.59175
成	-6.63043
是	-6.63895
知	-6.64877
四	-6.65177
元	-6.65216
南	-6.65716
方	-6.67123
非	-6.67572
用	-6.67701
云	-6.67857
今	-6.68297
君	-6.68654
若	-6.69119
馬	-6.70059
風	-6.70202
金	-6.70228
將	-6.7055
地	-6.71259
正	-6.71277
矣	-6.72901
多	-6.73172
可	-6.73626
爲	-6.74025
石	-6.74305
從	-6.74604
漢	-6.75459
欲	-6.75802
當	-6.75806
白	-6.7585
平	-6.76734
同	-6.7844
謂	-6.78744
李	-6.7984
張	-6.80515
家	-6.8111
乎	-6.81187
亦	-6.81465
禮	-6.81952
復	-6.82493
臣	-6.82605
門	-6.82669
何	-6.83446
東	-6.83745
髙	-6.84778
安	-6.84844
命	-6.85579
周	-6.86042
西	-6.86678
民	-6.86743
居	-6.87715
心	-6.87764
兵	-6.87863
前	-6.88322
焉	-6.89461
歸	-6.89508
然	-6.89685
士	-6.89704
立	-6.89733
重	-6.8989
玉	-6.89974
城	-6.90796
軍	-6.92971
聞	-6.93341
唐	-6.94023
因	-6.94156
遂	-6.94428
陽	-6.95546
能	-6.95985
九	-6.96809
小	-6.96839
經	-6.97986
來	-6.98164
食	-6.98591
必	-6.98757
雲	-6.98923
已	-6.98951
未	-6.99318
初	-6.99686
法	-6.99746
陳	-6.99876
我	-7.00024
年	-7.00062
清	-7.00303
賦	-7.00553
常	-7.01154
等	-7.01279
通	-7.01306
朝	-7.01314
去	-7.01667
北	-7.01882
氏	-7.02266
神	-7.02586
師	-7.02801
世	-7.03674
丨丨丨	-7.04378
即	-7.04494
六	-7.04647
分	-7.04834
樂	-7.04939
龍	-7.05058
先	-7.05098
月	-7.05476
取	-7.06151
光	-7.07425
春	-7.07431
徳	-7.0878
齊	-7.09071
義	-7.0943
武	-7.10184
善	-7.1078
晉	-7.10862
死	-7.10952
和	-7.10958
始	-7.12716
數	-7.12758
過	-7.12869
劉	-7.13344
内	-7.1346
或	-7.13888
物	-7.14228
黄	-7.14545
諸	-7.14649
舉	-7.15183
主	-7.15319
本	-7.16122
外	-7.16194
氣	-7.1708
夫	-7.1732
問	-7.18084
字	-7.18235
流	-7.18423
聲	-7.18543
花	-7.1903
雖	-7.19127
志	-7.19679
服	-7.20311
進	-7.21599
注	-7.22009
制	-7.2228
請	-7.22496
少	-7.22826
定	-7.22835
置	-7.2319
封	-7.23294
車	-7.23798
既	-7.24367
思	-7.24465
處	-7.25224
女	-7.25537
華	-7.25595
宋	-7.26276
親	-7.26319
起	-7.26377
秦	-7.26642
色	-7.26746
還	-7.26768
易	-7.26819
盡	-7.27263
實	-7.27627
應	-7.2775
衣	-7.2776
學	-7.27767
宫	-7.27832
青	-7.28268
詔	-7.28285
吾	-7.28529
田	-7.28782
守	-7.2891
天下	-7.29154
治	-7.29902
百	-7.30169
合	-7.30268
兩	-7.3038
身	-7.30407
魏	-7.30425
稱	-7.30625
逺	-7.31247
發	-7.31249
縣	-7.31379
夜	-7.31585
梁	-7.31819
異	-7.31855
以為	-7.32185
又曰	-7.3257
望	-7.32752
木	-7.32847
八	-7.32974
興	-7.33567
古	-7.33583
衆	-7.33601
新	-7.33751
郡	-7.33854
史	-7.34231
開	-7.34581
府	-7.34599
觀	-7.34678
賜	-7.34859
宜	-7.34877
酒	-7.35152
論	-7.35172
節	-7.35873
都	-7.35998
惟	-7.36742
江	-7.36945
並	-7.37235
意	-7.37261
深	-7.37429
萬	-7.37746
廣	-7.38388
侯	-7.38955
秋	-7.39744
七	-7.40377
父	-7.41173
飛	-7.41779
好	-7.42228
老	-7.42314
記	-7.42814
甚	-7.42818
宗	-7.42824
直	-7.43314
奏	-7.43427
猶	-7.43704
求	-7.43856
吏	-7.4423
嘗	-7.45934
耳	-7.46513
坐	-7.46579
卿	-7.46696
林	-7.46743
司	-7.46778
土	-7.46866
海	-7.47328
夏	-7.48238
雨	-7.48522
尚	-7.48746
魚	-7.50075
送	-7.50199
凡	-7.50328
河	-7.5044
政	-7.50509
集	-7.50617
趙	-7.5105
伯	-7.51379
拜	-7.5147
度	-7.51654
火	-7.51776
楚	-7.51782
難	-7.5184
十	-7.51919
㑹	-7.5221
左	-7.52336
任	-7.52388
不能	-7.53319
陵	-7.53892
受	-7.54325
樹	-7.54326
表	-7.55184
草	-7.55437
獻	-7.55972
獨	-7.56158
且	-7.56315
舊	-7.56317
理	-7.5648
景	-7.56691
不可	-7.57199
間	-7.57213
錢	-7.57499
建	-7.5766
歌	-7.57697
賢	-7.57736
信	-7.57757
位	-7.57935
客	-7.58178
頭	-7.58391
屬	-7.58475
加	-7.58805
更	-7.59035
别	-7.59209
星	-7.59747
靈	-7.60145
路	-7.605
奉	-7.61153
臨	-7.6117
語	-7.61417
章	-7.61446
母	-7.61697
遣	-7.62612
楊	-7.63221
德	-7.6351
絶	-7.63528
失	-7.63836
力	-7.63977
登	-7.64002
各	-7.64099
寒	-7.64993
朱	-7.65348
孝	-7.65387
口	-7.65869
利	-7.65976
香	-7.6632
音	-7.66424
動	-7.67498
足	-7.6781
仁	-7.68084
鄭	-7.6857
象	-7.68657
修	-7.68761
辭	-7.69056
貴	-7.69273
紀	-7.69351
孫	-7.69366
餘	-7.69393
戰	-7.69628
臺	-7.69763
次	-7.69834
謝	-7.6988
卒	-7.70033
部	-7.70211
御	-7.70479
議	-7.70729
太	-7.70853
號	-7.71058
宣	-7.71069
固	-7.71392
降	-7.71804
祖	-7.72117
室	-7.72242
丨丨丨丨	-7.72252
終	-7.72402
載	-7.72673
素	-7.72752
葉	-7.73078
止	-7.73118
殿	-7.73119
引	-7.7323
著	-7.74486
代	-7.74828
亂	-7.74945
首	-7.75369
亡	-7.75549
近	-7.76027
改	-7.76181
遷	-7.76193
致	-7.76418
曲	-7.76552
共	-7.76578
每	-7.76863
殺	-7.76894
千	-7.76987
隂	-7.76987
除	-7.76999
反	-7.77103
授	-7.77146
牛	-7.77158
典	-7.77252
盛	-7.77439
對	-7.77607
化	-7.7763
美	-7.77697
執	-7.77776
召	-7.77887
祭	-7.77931
聖	-7.77982
兮	-7.77989
許	-7.78245
功	-7.78314
竹	-7.78479
勝	-7.79056
遊	-7.7912
敬	-7.79202
謂之	-7.79262
里	-7.79608
極	-7.79862
精	-7.79956
赤	-7.8031
韓	-7.80325
圖	-7.80499
便	-7.80555
哉	-7.80624
輕	-7.80978
目	-7.8119
列	-7.81475
威	-7.81485
嵗	-7.8157
賊	-7.81665
才	-7.81856
比	-7.81915
交	-7.8192
羣	-7.82227
野	-7.82363
容	-7.82657
曹	-7.83015
而不	-7.83427
隨	-7.83602
原	-7.83643
右	-7.83956
兼	-7.84222
省	-7.84309
連	-7.84507
手	-7.8454
變	-7.84726
池	-7.8487
掌	-7.8508
疾	-7.85229
承	-7.85387
益	-7.85448
性	-7.85456
忠	-7.85739
良	-7.85858
鳥	-7.85867
器	-7.85979
紫	-7.86632
職	-7.86738
布	-7.86956
莫	-7.87179
不得	-7.87273
體	-7.87526
伏	-7.88051
昭	-7.88067
教	-7.88168
冠	-7.88245
遺	-7.88639
皇	-7.88667
儀	-7.88681
似	-7.88716
衛	-7.89508
爾	-7.89671
率	-7.89749
寳	-7.89869
留	-7.90027
空	-7.90177
天子	-7.90204
所以	-7.90289
仲	-7.9032
羅	-7.90526
畫	-7.90972
視	-7.91115
落	-7.91187
燕	-7.91466
詳	-7.91696
真	-7.91932
豈	-7.92045
遇	-7.92051
杜	-7.92206
備	-7.92249
告	-7.923
泉	-7.9252
將軍	-7.92801
解	-7.9311
濟	-7.93429
延	-7.93769
胡	-7.9415
就	-7.94641
形	-7.95029
魯	-7.95059
詩丨丨	-7.95173
堂	-7.95273
情	-7.95503
虎	-7.95687
飲	-7.95739
左右	-7.95795
仙	-7.96252
具	-7.96359
鳴	-7.96549
惡	-7.96568
𤣥	-7.96667
計	-7.96847
乗	-7.96892
病	-7.96975
設	-7.97097
徐	-7.97311
業	-7.97626
吳	-7.97837
權	-7.98158
▁(	-7.9887
幸	-7.99056
崇	-7.993
射	-7.99773
永	-8.00025
懐	-8.00127
郎	-8.00489
被	-8.00517
騎	-8.00581
尊	-8.00879
造	-8.01125
愛	-8.01136
高	-8.01166
持	-8.01265
果	-8.01291
紅	-8.01443
散	-8.01696
向	-8.01852
罪	-8.0195
卷	-8.021
選	-8.02131
刑	-8.02135
増	-8.0288
越	-8.03047
往	-8.03091
俱	-8.03107
禁	-8.0326
鎮	-8.03521
擊	-8.0353
嚴	-8.03579
廟	-8.03901
叔	-8.04101
大夫	-8.0412
嘉	-8.04187
厚	-8.04344
喜	-8.04845
伐	-8.05028
尚書	-8.05122
序	-8.05167
咸	-8.05283
澤	-8.05291
樓	-8.05304
角	-8.05563
庭	-8.0572
珠	-8.05933
簡	-8.05952
離	-8.06223
市	-8.06304
半	-8.06361
種	-8.06544
要	-8.0674
誠	-8.0683
積	-8.06891
宿	-8.06924
彼	-8.06929
雪	-8.06939
后	-8.07103
藏	-8.07707
破	-8.07742
丹	-8.08014
太守	-8.08041
寺	-8.08377
養	-8.0852
顧	-8.08581
昔	-8.08652
斯	-8.08775
寧	-8.08807
恩	-8.09086
轉	-8.09423
滿	-8.09693
邑	-8.09836
收	-8.10541
舞	-8.10669
三年	-8.10721
廢	-8.10786
雜	-8.10863
垂	-8.10966
説	-8.10999
願	-8.11001
但	-8.11423
結	-8.11423
於是	-8.11449
謀	-8.11528
筆	-8.11681
丘	-8.11764
夢	-8.11965
勞	-8.12035
将	-8.12292
由	-8.12565
榮	-8.12976
悉	-8.1313
疑	-8.13285
汝	-8.13317
谷	-8.13348
崔	-8.13419
俗	-8.13587
露	-8.13875
感	-8.13886
順	-8.13962
徒	-8.13971
諸侯	-8.13991
斷	-8.14043
蜀	-8.14152
甲	-8.14324
微	-8.14473
推	-8.14711
寄	-8.14831
孟	-8.14955
指	-8.15001
攻	-8.15302
昌	-8.15317
春秋	-8.15318
考	-8.15482
慶	-8.15542
商	-8.15588
罷	-8.16373
帶	-8.16484
舟	-8.16612
松	-8.16675
休	-8.16934
孔	-8.16958
太子	-8.16959
期	-8.17138
類	-8.17317
端	-8.17613
祀	-8.17735
聽	-8.17787
羽	-8.17929
陸	-8.17994
納	-8.18023
敗	-8.18049
依	-8.18369
務	-8.18382
録	-8.1841
夷	-8.18515
園	-8.18539
篇	-8.18764
升	-8.18793
充	-8.18813
鄉	-8.19017
𫝊	-8.19023
弟	-8.19056
領	-8.1912
疏	-8.19174
虞	-8.19207
井	-8.19302
閣	-8.19397
羊	-8.19684
識	-8.19729
給	-8.20535
運	-8.20801
妻	-8.20889
恐	-8.209
傷	-8.21115
營	-8.21341
川	-8.21421
幽	-8.21425
邊	-8.2171
闕	-8.21811
冬	-8.21835
贈	-8.22022
私	-8.22193
窮	-8.22911
負	-8.23206
存	-8.23613
季	-8.23621
賞	-8.2365
孤	-8.23777
報	-8.24029
浮	-8.24115
元年	-8.24154
移	-8.24327
律	-8.24367
苦	-8.24393
詩曰	-8.2472
姓	-8.24758
僧	-8.24866
薄	-8.2521
質	-8.25226
州刺史	-8.25313
工	-8.25353
憂	-8.25421
鼓	-8.25509
久	-8.2614
切	-8.26157
詞	-8.26179
亭	-8.26295
烏	-8.26305
漢書	-8.26517
太祖	-8.26749
保	-8.26882
退	-8.2709
面	-8.27207
尋	-8.27583
說	-8.27609
二年	-8.27652
符	-8.27922
補	-8.28078
京	-8.28258
康	-8.2828
驚	-8.28322
迎	-8.28433
監	-8.2844
施	-8.2848
蓋	-8.28579
申	-8.28712
宴	-8.28746
可以	-8.2882
呉	-8.28884
資	-8.29045
枝	-8.29183
顯	-8.29287
盧	-8.29361
薦	-8.29386
郭	-8.29734
唯	-8.2974
竒	-8.2977
害	-8.29825
折	-8.2984
獲	-8.30064
特	-8.3043
追	-8.30597
韋	-8.30623
温	-8.3114
呼	-8.31161
博	-8.31303
全	-8.31344
兒	-8.31396
舍	-8.31531
不敢	-8.31594
毛	-8.31613
蘭	-8.31765
放	-8.32276
管	-8.32287
之所	-8.32386
第	-8.32414
▁又	-8.32732
歴	-8.32963
蕭	-8.34051
塞	-8.34197
免	-8.34483
試	-8.34595
溪	-8.34745
題	-8.34969
蘇	-8.35038
息	-8.35147
并	-8.35172
到	-8.35242
不知	-8.35245
房	-8.35262
附	-8.35392
照	-8.35566
哀	-8.35683
末	-8.35878
恭	-8.36177
笑	-8.36229
殷	-8.36351
察	-8.36724
户	-8.3679
福	-8.37003
急	-8.37047
達	-8.37282
圍	-8.37351
智	-8.37602
覆	-8.37755
待	-8.37756
龜	-8.37814
𢎞	-8.37874
戎	-8.37915
游	-8.38649
按	-8.38702
參	-8.38846
陛下	-8.38917
走	-8.38941
君子	-8.38963
英	-8.3914
禹	-8.39196
隋	-8.39356
乾	-8.39538
婦	-8.39552
統	-8.3956
虚	-8.39934
一人	-8.39971
聚	-8.40004
惠	-8.40187
征	-8.4048
雅	-8.40573
侍	-8.40716
歲	-8.40721
揚	-8.40801
乘	-8.40835
適	-8.40883
敵	-8.41037
十二	-8.41133
怒	-8.41149
賀	-8.41249
堅	-8.41603
畢	-8.41605
藥	-8.41872
賈	-8.41936
滅	-8.41938
錦	-8.42105
邪	-8.42522
據	-8.42522
族	-8.42555
吉	-8.42601
沈	-8.42663
雙	-8.427
懼	-8.42916
豐	-8.43184
湖	-8.43266
朕	-8.43279
貢	-8.43325
衡	-8.43512
爵	-8.4365
調	-8.4373
来	-8.44004
委	-8.44033
丁	-8.44277
秀	-8.44305
富	-8.44371
條	-8.4457
忽	-8.45061
霜	-8.4508
雄	-8.45558
勢	-8.45796
横	-8.45877
沙	-8.45958
誰	-8.46114
郊	-8.46191
屋	-8.46607
班	-8.46632
盖	-8.46673
肉	-8.46745
習	-8.46869
厯	-8.46882
席	-8.46974
輔	-8.47115
雞	-8.47144
銅	-8.4732
含	-8.4732
駕	-8.47334
嗣	-8.47353
歩	-8.47446
候	-8.47476
約	-8.47492
唐書	-8.47665
接	-8.47731
須	-8.47767
假	-8.47856
波	-8.47866
總	-8.47868
友	-8.48105
棄	-8.48377
釋	-8.48999
祠	-8.4904
者也	-8.49064
克	-8.49099
蔡	-8.49289
履	-8.49335
細	-8.49373
院	-8.49702
洞	-8.49807
鼎	-8.49891
采	-8.4991
獄	-8.50033
百姓	-8.50035
湯	-8.5007
敢	-8.50098
佛	-8.50439
累	-8.50477
殊	-8.50647
誅	-8.50728
訓	-8.50752
髙祖	-8.50874
闗	-8.50883
尾	-8.50951
逐	-8.5102
銀	-8.51024
宅	-8.5109
桑	-8.51152
機	-8.51241
盤	-8.51259
司馬	-8.5145
范	-8.51725
源	-8.51784
投	-8.52038
品	-8.52425
吕	-8.52445
關	-8.52558
晉書	-8.52697
辟	-8.52819
狀	-8.52889
最	-8.53052
壁	-8.53113
翼	-8.53206
討	-8.53304
塵	-8.53455
斗	-8.53539
䇿	-8.5388
甘	-8.53899
奔	-8.53981
洛	-8.54191
後漢書	-8.54297
儒	-8.54488
危	-8.54539
佐	-8.54587
耶	-8.5473
刀	-8.54798
籍	-8.55256
貧	-8.55302
絲	-8.55432
船	-8.55811
飾	-8.5585
避	-8.55909
曰吾	-8.56078
皮	-8.56482
詣	-8.56697
根	-8.56713
逸	-8.56892
逆	-8.56911
史記	-8.56968
阿	-8.57054
之後	-8.57267
犯	-8.57288
牧	-8.57398
尤	-8.57408
震	-8.57462
隆	-8.57554
醉	-8.57587
怨	-8.57674
丞	-8.578
寵	-8.57849
戒	-8.57881
再	-8.57889
骨	-8.58048
仍	-8.58052
刻	-8.58177
如此	-8.58189
懸	-8.58873
繼	-8.58925
差	-8.59054
周禮	-8.59135
寛	-8.59177
勿	-8.59342
術	-8.59654
茂	-8.59656
庶	-8.59668
赴	-8.59776
麗	-8.59895
太宗	-8.59979
早	-8.60123
千里	-8.60125
曰此	-8.60232
役	-8.60326
雷	-8.6035
無所	-8.60428
讓	-8.6048
毎	-8.60863
墨	-8.61345
財	-8.61439
天地	-8.6144
朔	-8.61526
懷	-8.61673
武帝	-8.61834
苑	-8.61835
案	-8.61899
夀	-8.62307
貞	-8.6232
振	-8.62396
寶	-8.62579
乞	-8.62675
翠	-8.62678
歳	-8.62749
背	-8.62895
味	-8.62948
所謂	-8.63057
曽	-8.63064
蒙	-8.63229
淵	-8.63274
鶴	-8.63394
馳	-8.63588
對曰	-8.64048
夕	-8.64067
栁	-8.64199
孔子	-8.64251
米	-8.64252
粟	-8.64264
堯	-8.64306
勇	-8.64412
兄	-8.64467
館	-8.64766
顔	-8.64926
陶	-8.64977
均	-8.65262
隠	-8.65284
影	-8.65288
讀	-8.65411
量	-8.65465
屈	-8.65487
隱	-8.65508
示	-8.65593
予	-8.6583
暴	-8.6608
黒	-8.66302
橋	-8.66319
夫人	-8.66327
救	-8.66485
鹽	-8.66488
緑	-8.66495
患	-8.66525
而已	-8.66554
畏	-8.6674
維	-8.66759
肅	-8.66985
曉	-8.67129
辨	-8.67194
碧	-8.67284
耕	-8.67323
芳	-8.67355
諫	-8.67556
薛	-8.67642
農	-8.67655
詠	-8.67712
京師	-8.6786
畧	-8.6791
徙	-8.67927
憲	-8.68055
朝廷	-8.68196
鍾	-8.68206
旦	-8.68214
鳯	-8.68328
四年	-8.68619
穆	-8.68684
皇帝	-8.68882
弱	-8.69081
巖	-8.69174
莊	-8.69214
洪	-8.69234
是以	-8.69234
貫	-8.6947
撫	-8.69505
裴	-8.69592
徴	-8.69743
襲	-8.69912
熟	-8.69912
勤	-8.69921
干	-8.7003
杖	-8.70226
宻	-8.70273
勸	-8.70277
刺	-8.70373
念	-8.70492
琴	-8.70508
渠	-8.70544
喪	-8.70549
然後	-8.70597
鹿	-8.70766
珍	-8.70773
忘	-8.7081
之間	-8.70874
責	-8.71057
况	-8.71189
盈	-8.71285
頌	-8.71569
仰	-8.71671
鳳	-8.72057
長安	-8.72557
宰相	-8.72753
悲	-8.72906
爭	-8.72909
桓	-8.72992
輿	-8.73036
衰	-8.73098
短	-8.73198
慮	-8.7336
頗	-8.73414
階	-8.73558
鏡	-8.73618
側	-8.73786
超	-8.73794
一名	-8.7393
淮	-8.73931
續	-8.74139
齋	-8.74297
賔	-8.74308
述	-8.74348
亮	-8.74424
獸	-8.74583
宮	-8.74662
弓	-8.74763
材	-8.75114
强	-8.754
蒼	-8.75459
徃	-8.75478
覺	-8.75502
荆	-8.75658
至於	-8.75669
助	-8.75868
環	-8.75884
專	-8.75972
他	-8.76087
談	-8.76119
泰	-8.76195
祥	-8.76201
支	-8.76346
縱	-8.7637
暮	-8.76404
招	-8.76559
梅	-8.76868
斬	-8.76912
葢	-8.77269
幾	-8.77306
漸	-8.77416
辰	-8.77447
索	-8.77477
允	-8.77477
荒	-8.77671
先生	-8.77823
操	-8.77831
繫	-8.77873
防	-8.77905
戴	-8.78033
屯	-8.78178
式	-8.78263
鴻	-8.7837
後漢	-8.78494
尹	-8.78496
徵	-8.78563
謹	-8.78902
彦	-8.79004
倉	-8.79049
擇	-8.79094
一日	-8.79259
傳曰	-8.79427
社	-8.7951
戲	-8.79563
錫	-8.79758
愚	-8.79835
科	-8.80327
岳	-8.80343
傾	-8.80479
傅	-8.80552
茶	-8.80698
違	-8.80709
弗	-8.80997
瑞	-8.81199
禄	-8.81322
講	-8.8147
帥	-8.81753
脩	-8.81801
竊	-8.81919
蛇	-8.82006
慎	-8.82074
錄	-8.82084
回	-8.82158
妙	-8.82228
鬼	-8.82248
却	-8.82365
雍	-8.82389
鐵	-8.82517
句	-8.82756
牙	-8.82841
丞相	-8.8297
舜	-8.82982
桃	-8.83015
程	-8.8313
之事	-8.83234
註	-8.83409
柱	-8.83518
愈	-8.83667
竟	-8.83682
兄弟	-8.83921
兹	-8.83948
尺	-8.8398
印	-8.84006
革	-8.84023
榖	-8.84067
塗	-8.84205
巨	-8.8436
左傳	-8.84417
險	-8.8442
齒	-8.84483
規	-8.84905
蒲	-8.8494
桂	-8.85025
採	-8.85201
旗	-8.85324
舒	-8.85386
厥	-8.85424
署	-8.85436
略	-8.85468
煙	-8.85597
啓	-8.85744
中有	-8.85757
逢	-8.85964
不足	-8.86258
稍	-8.86378
穴	-8.86512
密	-8.86543
人也	-8.86671
岸	-8.87107
配	-8.87144
烈	-8.87149
壽	-8.87167
植	-8.87214
介	-8.87227
矢	-8.87274
五年	-8.87314
卜	-8.87373
學士	-8.87544
頃	-8.87782
宋史	-8.88202
答	-8.88385
校	-8.8839
聖人	-8.88399
占	-8.88717
黨	-8.88757
境	-8.88773
二人	-8.88812
泥	-8.88939
徑	-8.89051
勲	-8.89222
寢	-8.89371
彌	-8.89408
余	-8.89584
晚	-8.89585
副	-8.89757
何以	-8.89933
旁	-8.89949
覽	-8.89988
眀	-8.90086
凝	-8.90268
三十	-8.90328
己	-8.90349
碑	-8.90462
謁	-8.90489
襄	-8.90675
繁	-8.90724
步	-8.90867
會	-8.90873
嶺	-8.90885
巧	-8.90969
融	-8.91018
看	-8.91061
扵	-8.91182
馮	-8.91357
陣	-8.91379
書曰	-8.91443
潤	-8.91482
吹	-8.91482
㫖	-8.91489
御史	-8.91629
吴	-8.9166
燭	-8.91801
宰	-8.91982
子曰	-8.9201
循	-8.9213
壇	-8.9226
享	-8.92367
為之	-8.92688
靡	-8.9276
劒	-8.92778
侵	-8.9291
璧	-8.92949
費	-8.93114
血	-8.9331
仕	-8.93361
乆	-8.93387
葬	-8.93645
逹	-8.93713
袁	-8.93768
禍	-8.93879
皇后	-8.93946
輒	-8.94007
翁	-8.94043
築	-8.94065
援	-8.94128
不如	-8.94297
界	-8.94323
犬	-8.94349
是也	-8.94435
辛	-8.94623
妾	-8.94639
而後	-8.95201
策	-8.95213
供	-8.9522
其所	-8.95325
人之	-8.95328
抱	-8.95335
虜	-8.95535
宇	-8.95873
贊	-8.95916
津	-8.95938
格	-8.95987
巳	-8.96094
静	-8.96306
奪	-8.96378
奴	-8.96466
禽	-8.96562
蟲	-8.96625
怪	-8.96901
訪	-8.96908
渡	-8.96916
儉	-8.9696
圓	-8.96986
帳	-8.97146
躬	-8.9715
羣臣	-8.97288
陰	-8.9737
歎	-8.97448
純	-8.97492
殘	-8.97521
南史	-8.97584
增	-8.97587
恨	-8.97633
晨	-8.97736
㣲	-8.97752
衞	-8.97903
甫	-8.9801
日月	-8.98078
毁	-8.98375
軒	-8.98393
詩見	-8.98455
銘	-8.9861
厲	-8.98752
妃	-8.98776
決	-8.98796
寡	-8.98831
泣	-8.99066
眼	-8.99319
希	-8.99378
損	-8.99441
不見	-8.99584
導	-8.99604
䘮	-9.00007
歡	-9.00167
姑	-9.00237
卧	-9.0027
優	-9.0028
刺史	-9.00317
霞	-9.00343
輙	-9.00346
有所	-9.00547
麥	-9.00577
鐘	-9.00579
吐	-9.00724
侍中	-9.0079
撰	-9.00792
遵	-9.00819
廬	-9.00897
基	-9.01178
員	-9.0119
哭	-9.01232
虛	-9.0136
柳	-9.01383
賤	-9.01461
腹	-9.01721
文帝	-9.01769
紙	-9.01855
輪	-9.02038
記曰	-9.02151
裏	-9.02161
産	-9.02333
二十	-9.0241
倚	-9.02654
天下之	-9.02779
晏	-9.02862
其後	-9.02997
驅	-9.03044
彈	-9.03106
審	-9.03222
韻	-9.0351
秩	-9.0354
之地	-9.03723
困	-9.03863
决	-9.03952
牀	-9.03967
編	-9.04002
劍	-9.04072
名曰	-9.04139
糧	-9.04146
僕	-9.04335
壯	-9.04402
倫	-9.04406
豪	-9.04539
赦	-9.04695
男	-9.04822
姦	-9.04829
佩	-9.04856
不及	-9.04943
慈	-9.05008
買	-9.05127
鸞	-9.05234
某	-9.05411
愁	-9.05461
勒	-9.05498
否	-9.05614
謙	-9.05738
童	-9.05926
禮記	-9.06006
戸	-9.0602
旅	-9.06141
茍	-9.06175
俊	-9.06213
趨	-9.06308
旣	-9.06473
巢	-9.06566
拂	-9.06762
柔	-9.0683
帛	-9.07035
麻	-9.07166
有司	-9.07197
奮	-9.07205
穿	-9.07239
峻	-9.07335
煩	-9.07338
幹	-9.07407
眞	-9.07435
貨	-9.07452
擢	-9.07478
瓊	-9.07529
荀	-9.07648
賣	-9.07854
芝	-9.07901
遲	-9.0811
尉	-9.08269
吟	-9.08301
雀	-9.08601
督	-9.08661
獵	-9.08744
三月	-9.08772
伊	-9.08811
渾	-9.08826
蕃	-9.08961
偏	-9.08962
輸	-9.09112
啟	-9.09142
未嘗	-9.09156
邦	-9.09199
鑄	-9.09253
庸	-9.09328
㸃	-9.09414
而無	-9.09642
庫	-9.09745
卑	-9.09807
誦	-9.09931
沉	-9.10052
荷	-9.1032
紹	-9.1043
鮮	-9.10475
扶	-9.10606
藩	-9.10677
絳	-9.10762
公主	-9.10796
宋書	-9.10798
莫不	-9.10806
貪	-9.10839
衍	-9.1086
豫	-9.10918
大將軍	-9.10937
欽	-9.10975
黄帝	-9.11077
杜甫	-9.11169
子孫	-9.11227
昏	-9.11251
聞之	-9.11252
掩	-9.11474
墓	-9.1151
恒	-9.11846
詔曰	-9.11871
四方	-9.11949
映	-9.11979
五十	-9.12007
單	-9.12043
之法	-9.12054
竇	-9.12131
氷	-9.12264
争	-9.12489
裘	-9.12557
肆	-9.12563
燈	-9.12959
凉	-9.12992
巾	-9.13022
澄	-9.13139
長史	-9.13228
扇	-9.13459
侍郎	-9.13639
鄧	-9.13701
縁	-9.13777
東南	-9.1379
飯	-9.13831
禦	-9.14065
者皆	-9.14155
晝	-9.14272
堪	-9.14346
翰	-9.14352
之士	-9.1439
瞻	-9.14429
董	-9.14467
減	-9.14798
漏	-9.14911
太后	-9.15158
巴	-9.15274
殺之	-9.15481
使人	-9.15769
六年	-9.15857
霧	-9.1595
辱	-9.1602
藝	-9.16033
茅	-9.16087
寜	-9.16287
以來	-9.16349
迹	-9.16402
閒	-9.16458
畜	-9.1662
雉	-9.16625
託	-9.16657
提	-9.16783
叛	-9.17063
剛	-9.1716
繡	-9.17185
司空	-9.17236
之道	-9.17316
擬	-9.17327
例	-9.1734
敦	-9.17474
敏	-9.1756
司徒	-9.17615
肥	-9.17629
豆	-9.17637
拔	-9.17677
祝	-9.17748
冰	-9.1783
忌	-9.17947
十月	-9.17949
速	-9.18067
閑	-9.18082
惜	-9.18186
效	-9.18234
文王	-9.18271
從之	-9.18337
邉	-9.18607
宏	-9.19041
藻	-9.19042
潛	-9.19127
騰	-9.19168
以爲	-9.1918
燒	-9.19232
五月	-9.19308
銜	-9.19452
旌	-9.19499
毒	-9.1955
父母	-9.19579
蠻	-9.19633
限	-9.19728
國之	-9.19874
匈奴	-9.19895
曜	-9.19903
判	-9.20164
髪	-9.20187
披	-9.20604
卦	-9.2062
旋	-9.20622
付	-9.2068
狐	-9.20782
響	-9.20828
洛陽	-9.20845
誤	-9.20859
隔	-9.20887
鄰	-9.21033
屏	-9.21071
靖	-9.21179
八月	-9.21308
即位	-9.21746
傍	-9.21801
萬物	-9.21819
郎中	-9.21903
佳	-9.21959
五色	-9.21959
不復	-9.21966
貌	-9.22
慕	-9.2224
晦	-9.22246
周公	-9.22304
烟	-9.22322
而去	-9.22331
枕	-9.2234
三日	-9.22384
三公	-9.2249
於此	-9.22539
河南	-9.22678
狗	-9.22754
競	-9.22793
激	-9.22943
淺	-9.22962
綱	-9.23018
錯	-9.23031
以下	-9.23178
有一	-9.23193
不過	-9.23366
災	-9.23378
契	-9.23467
十年	-9.23491
舎	-9.23508
閉	-9.23559
焚	-9.23729
之言	-9.23738
踰	-9.23761
鑿	-9.23827
也故	-9.23879
絃	-9.2391
跡	-9.24007
孰	-9.24015
知其	-9.24133
麟	-9.24212
時人	-9.24236
逰	-9.24269
屢	-9.24496
妄	-9.24534
三百	-9.24557
公子	-9.2464
光武	-9.2467
遣使	-9.24756
篤	-9.25003
偃	-9.25012
姬	-9.25108
使者	-9.25151
潔	-9.25191
停	-9.25278
䕶	-9.25309
姚	-9.25389
黑	-9.25394
國家	-9.2541
疎	-9.2559
曰我	-9.25749
偶	-9.25792
曾	-9.25797
葛	-9.25815
遥	-9.25843
勅	-9.25858
蔽	-9.25859
有丨丨	-9.26025
盗	-9.26111
捕	-9.26208
凌	-9.26257
繇	-9.26268
戍	-9.26335
百官	-9.26469
蓮	-9.26485
束	-9.26511
也今	-9.26519
盜	-9.26582
軌	-9.26654
将軍	-9.26842
湘	-9.26972
盟	-9.27081
彭	-9.27175
育	-9.27207
叙	-9.27249
織	-9.2733
箭	-9.27452
圗	-9.27571
賛	-9.27586
頓	-9.27653
諭	-9.27712
偽	-9.27951
文武	-9.2804
故事	-9.28117
婦人	-9.28136
上下	-9.28349
庾	-9.28364
鱗	-9.28395
見上	-9.28482
廷	-9.28605
奚	-9.28627
醫	-9.28628
以上	-9.28666
猛	-9.28743
廵	-9.28765
竭	-9.28816
正月	-9.28851
囊	-9.2894
四時	-9.29058
徽	-9.29217
預	-9.29263
今日	-9.29387
績	-9.29443
粉	-9.29542
十五	-9.29566
鼔	-9.29569
足以	-9.29569
攝	-9.29714
諌	-9.2981
熱	-9.29815
開元	-9.29833
鄴	-9.29854
洲	-9.29973
霸	-9.30094
故曰	-9.30252
靜	-9.30313
白居易	-9.30468
未有	-9.30694
翻	-9.3071
壺	-9.30892
當時	-9.31126
韓愈	-9.31196
熊	-9.31264
悟	-9.31278
裁	-9.31572
兆	-9.31645
饑	-9.3183
又有	-9.32034
由是	-9.32074
太尉	-9.32117
叢	-9.32134
洗	-9.32184
之禮	-9.32387
以此	-9.32407
𨽻	-9.32571
墜	-9.32736
廻	-9.32816
逃	-9.32864
之時	-9.32901
六月	-9.32904
江南	-9.32983
河東	-9.33086
黎	-9.33095
村	-9.33136
抑	-9.33206
禪	-9.33213
太常	-9.33284
翔	-9.33292
祐	-9.3334
倍	-9.33458
峰	-9.33553
文章	-9.33892
割	-9.33927
倒	-9.34048
強	-9.34214
只	-9.34316
鄙	-9.34594
檢	-9.34624
灌	-9.34624
朗	-9.34624
儲	-9.34654
𤓰	-9.34667
弼	-9.34669
七年	-9.34688
嶽	-9.34692
不為	-9.34736
繩	-9.34753
杯	-9.34786
借	-9.34792
削	-9.34844
秉	-9.34877
㑹稽	-9.34989
尸	-9.34992
冦	-9.35038
出入	-9.3504
九月	-9.35089
鋒	-9.35131
博士	-9.35155
凶	-9.35164
冷	-9.35177
萬里	-9.3519
閭	-9.3525
犀	-9.35296
主簿	-9.35354
爰	-9.35365
桐	-9.35384
蕩	-9.35453
徹	-9.35462
暉	-9.35468
北史	-9.35681
弊	-9.35794
之中	-9.35865
遭	-9.35914
綺	-9.35972
罰	-9.36025
聘	-9.3608
之制	-9.36259
菜	-9.36263
上有	-9.36403
枯	-9.36429
痛	-9.36498
價	-9.36555
宗廟	-9.36585
荆州	-9.36611
網	-9.36721
夾	-9.36817
棲	-9.37047
厭	-9.37135
七月	-9.37274
補藻	-9.37301
膏	-9.37464
不同	-9.37544
座	-9.37563
繞	-9.37569
浪	-9.37624
旱	-9.37756
練	-9.37949
没	-9.38088
第一	-9.38197
製	-9.38233
公卿	-9.38306
彊	-9.38322
沒	-9.38476
蠶	-9.38526
像	-9.38597
局	-9.38622
斜	-9.38632
辯	-9.38772
勉	-9.39003
浦	-9.39062
彩	-9.3915
範	-9.39339
崖	-9.39434
百里	-9.39485
必有	-9.39532
圭	-9.39545
賓	-9.39588
幼	-9.39589
整	-9.39652
節度使	-9.39778
之心	-9.39995
炎	-9.40013
潭	-9.4014
爽	-9.40155
驗	-9.40183
穀	-9.40469
幕	-9.40575
人皆	-9.40648
諱	-9.40652
隂陽	-9.40684
雕	-9.40817
大臣	-9.40875
都督	-9.40968
巫	-9.41086
𩔖	-9.41106
底	-9.4136
譽	-9.41376
囚	-9.41381
消	-9.41396
四海	-9.4141
眉	-9.41432
中書	-9.41459
後魏	-9.41535
斤	-9.41587
古之	-9.41655
四月	-9.41682
冀	-9.41963
豹	-9.41994
稽	-9.42141
暑	-9.42204
淮南	-9.42205
拒	-9.42288
惑	-9.42324
浩	-9.42485
一曰	-9.42499
弟子	-9.42538
十八	-9.42631
齊書	-9.42743
十六	-9.42792
明帝	-9.42887
酬	-9.43
之意	-9.4301
聴	-9.43021
晴	-9.4327
帝曰	-9.43357
乏	-9.43361
嬰	-9.43378
曰臣	-9.43447
仗	-9.43467
四十	-9.43494
擁	-9.43529
岐	-9.43618
與之	-9.43767
渉	-9.43781
觸	-9.44021
臧	-9.44045
渭	-9.44096
籠	-9.44234
擾	-9.44367
狂	-9.44388
染	-9.44422
乳	-9.44576
輦	-9.44584
前後	-9.44625
戚	-9.44645
普	-9.44681
冕	-9.44706
古今	-9.44786
租	-9.44826
驛	-9.44888
暗	-9.44898
東西	-9.45011
得其	-9.4503
遼	-9.45046
湛	-9.45071
絹	-9.45111
皆有	-9.45134
喻	-9.45299
太平	-9.45337
明堂	-9.45354
亦有	-9.45394
其中	-9.45468
遽	-9.45486
鼻	-9.45615
嗟	-9.45632
姿	-9.45642
澗	-9.4575
綬	-9.4577
釣	-9.45884
敷	-9.45987
臯	-9.46042
寫	-9.46199
有餘	-9.4628
草木	-9.46419
耀	-9.46478
恵	-9.4649
攸	-9.46494
藉	-9.46552
鞭	-9.46637
淮南子	-9.4669
竝	-9.46699
毋	-9.46713
邵	-9.46786
弄	-9.46829
悦	-9.46841
抗	-9.47082
蟬	-9.47172
十二月	-9.47227
數十	-9.47278
曰君	-9.473
鴈	-9.47306
包	-9.47333
住	-9.47435
二月	-9.47596
瓦	-9.4766
褒	-9.47701
賦曰	-9.47723
之義	-9.47781
墮	-9.47989
嵩	-9.48018
不可以	-9.48155
坡	-9.48211
丈	-9.48222
冲	-9.48223
腰	-9.48257
牢	-9.48297
西北	-9.48305
想	-9.48323
□	-9.4846
勑	-9.48598
食之	-9.48779
峯	-9.48826
魏書	-9.48826
黃	-9.48853
鬱	-9.48899
課	-9.48902
遜	-9.48963
揺	-9.49113
鑒	-9.49147
饒	-9.49516
突	-9.49555
㦸	-9.49655
無不	-9.49711
缺	-9.49729
十三	-9.4976
之上	-9.49825
祈	-9.49886
祗	-9.49914
羞	-9.49918
遠	-9.50033
㡬	-9.50062
内外	-9.50088
掾	-9.50094
武王	-9.50124
誕	-9.50204
時有	-9.50229
滋	-9.5026
展	-9.5029
斛	-9.50299
誓	-9.50316
譜	-9.50329
衝	-9.50398
樊	-9.50464
所在	-9.50476
廉	-9.50492
可謂	-9.50555
戮	-9.50573
漆	-9.50651
亷	-9.50682
淫	-9.50735
訟	-9.50828
舌	-9.50914
髮	-9.51021
匹	-9.51039
不以	-9.51154
淳	-9.51454
用之	-9.51658
驕	-9.51758
緒	-9.51774
毅	-9.51867
棗	-9.51875
之子	-9.52016
父子	-9.52217
校尉	-9.52234
之功	-9.52406
酌	-9.52417
羌	-9.5247
伍	-9.52495
逼	-9.5251
寸	-9.5253
僚	-9.52558
字子	-9.52563
勃	-9.5258
雁	-9.52619
喬	-9.52812
爾雅	-9.52897
坊	-9.52919
脚	-9.52978
渚	-9.53088
中國	-9.53134
莖	-9.53259
創	-9.53452
羙	-9.53476
牲	-9.53522
王者	-9.5358
鷹	-9.53813
主人	-9.53841
矜	-9.53879
晋	-9.53918
狼	-9.53968
臂	-9.53984
為人	-9.54014
躍	-9.54044
愧	-9.54124
西南	-9.54135
其事	-9.54164
踐	-9.54305
曰昔	-9.54334
呂	-9.54377
裳	-9.54543
區	-9.54593
額	-9.5477
漁	-9.5482
祿	-9.54838
敎	-9.5485
緩	-9.54877
唱	-9.5488
溝	-9.54887
其子	-9.55071
潮	-9.55072
垣	-9.55233
黄金	-9.55317
崩	-9.55494
詩云	-9.5556
饗	-9.55561
殆	-9.55615
詐	-9.55639
磨	-9.55735
黍	-9.55843
播	-9.55866
俯	-9.55894
帷	-9.55921
擒	-9.55929
級	-9.55959
鼠	-9.55975
阻	-9.56146
視之	-9.56164
之名	-9.56228
俾	-9.56281
蓬	-9.56341
濕	-9.56372
隅	-9.56587
是時	-9.56609
貳	-9.56615
協	-9.56622
稷	-9.56625
枚	-9.56698
八年	-9.56715
曠	-9.56719
偉	-9.56749
稻	-9.5675
謨	-9.56838
十四	-9.56869
憶	-9.56869
午	-9.56881
綿	-9.56926
稅	-9.56927
自是	-9.56956
警	-9.57
陂	-9.57027
熙	-9.57065
蘇軾	-9.57206
夫子	-9.57221
切並音	-9.57303
狄	-9.57391
恃	-9.57477
懿	-9.57582
妖	-9.57673
晩	-9.57711
社稷	-9.57742
鳩	-9.57865
牽	-9.57879
窺	-9.57933
者不	-9.57941
十一月	-9.57964
慙	-9.57981
彰	-9.57982
卓	-9.58076
皇太子	-9.58125
恥	-9.5822
欺	-9.58281
簾	-9.58325
恤	-9.58475
泛	-9.58585
幣	-9.58904
迴	-9.59142
本草	-9.59229
公孫	-9.59493
節度	-9.59581
迷	-9.59671
擅	-9.59997
玩	-9.60127
寇	-9.60293
囘	-9.6032
古人	-9.60322
有大	-9.60432
旬	-9.60452
以其	-9.60514
段	-9.60553
高祖	-9.60611
六十	-9.60647
小人	-9.60697
匪	-9.60736
誥	-9.60791
屠	-9.60829
婢	-9.60859
李白	-9.60918
太原	-9.61012
嫁	-9.61098
遁	-9.61098
悔	-9.61128
本朝	-9.61213
俟	-9.61376
二百	-9.61519
貶	-9.61576
昇	-9.61615
歛	-9.61659
觧	-9.61687
胥	-9.61716
弔	-9.61855
弩	-9.61936
道士	-9.62006
賔客	-9.62049
飢	-9.62399
歎曰	-9.62417
斂	-9.62435
曰卿	-9.62536
咎	-9.62636
暢	-9.62687
鈞	-9.62701
頻	-9.6271
袍	-9.62756
壘	-9.62761
膳	-9.6281
爛	-9.62821
諸將	-9.62876
鈎	-9.63048
弦	-9.63096
駭	-9.63103
冝	-9.63155
山川	-9.63185
趣	-9.63188
綵	-9.63281
板	-9.63295
低	-9.63424
挺	-9.6354
百餘	-9.63551
十餘	-9.6358
膺	-9.63586
訖	-9.6367
溢	-9.638
東北	-9.63949
單于	-9.63952
姜	-9.63959
數百	-9.64027
菊	-9.64043
翟	-9.64197
樞	-9.64202
鵲	-9.64238
黙	-9.64324
苗	-9.64441
庚	-9.64548
其人	-9.64576
則有	-9.64588
風雨	-9.6462
瑶	-9.64721
硯	-9.64915
矯	-9.65071
不受	-9.65077
靣	-9.65136
出於	-9.65143
恱	-9.65177
専	-9.65319
忍	-9.65363
槐	-9.6541
戈	-9.65417
潜	-9.65463
子弟	-9.65478
䑕	-9.65514
二千石	-9.65616
南北	-9.65784
慰	-9.65814
霄	-9.6586
碎	-9.65881
從事	-9.65932
玄	-9.66095
哲	-9.66202
栗	-9.66242
舍人	-9.66286
覩	-9.66337
至于	-9.66356
○	-9.66373
綴	-9.664
冊	-9.66417
魏志	-9.66456
明日	-9.66548
十一	-9.6657
熈	-9.66662
滑	-9.66681
飄	-9.66977
東海	-9.66978
薪	-9.67004
沛	-9.67072
何如	-9.6708
五百	-9.67185
柏	-9.67302
脱	-9.67396
圃	-9.67403
㓜	-9.67408
湏	-9.67431
㧞	-9.67438
輩	-9.67456
者為	-9.67458
之外	-9.67502
距	-9.67507
之則	-9.67533
魂	-9.67681
宛	-9.67696
紛	-9.677
之數	-9.67735
其上	-9.67747
台	-9.67769
測	-9.67775
虹	-9.6786
韶	-9.67861
一百	-9.67864
帖	-9.6788
娶	-9.6791
之日	-9.67921
胄	-9.67938
潘	-9.67958
號曰	-9.68043
寂	-9.68081
言之	-9.68201
抵	-9.68214
丗	-9.68232
瑟	-9.68235
輅	-9.68248
州縣	-9.68271
同上	-9.68289
注云	-9.68307
蒸	-9.68329
汗	-9.68372
憚	-9.68419
後世	-9.68439
電	-9.68444
淑	-9.68445
肇	-9.68459
自然	-9.68538
有功	-9.68542
各有	-9.68596
裕	-9.68606
莊子	-9.68638
▁丨	-9.68642
滯	-9.68658
荅	-9.68707
郡國	-9.68714
裔	-9.68888
九年	-9.68894
掃	-9.69053
受命	-9.69162
敕	-9.69167
嫌	-9.69194
甞	-9.69238
域	-9.69253
亦不	-9.69351
君之	-9.69354
握	-9.69413
君臣	-9.69471
陷	-9.69515
憐	-9.6959
雖有	-9.69675
摩	-9.69802
祚	-9.69805
其名	-9.69934
而為	-9.69946
標	-9.70076
灰	-9.70113
隴	-9.70114
丨丨而	-9.70155
勁	-9.7022
進士	-9.70385
洽	-9.70426
活	-9.70439
亞	-9.70455
郢	-9.70537
脫	-9.7056
罔	-9.70566
西域	-9.70582
古者	-9.706
不用	-9.70659
者以	-9.70783
裂	-9.70806
几	-9.70818
途	-9.70868
排	-9.71
僕射	-9.71179
讀書	-9.71219
中興	-9.71262
頂	-9.71306
薨	-9.71346
取其	-9.71414
曰今	-9.71417
不肯	-9.71429
輝	-9.71487
飲酒	-9.71496
七十	-9.71601
又云	-9.71768
不相	-9.7189
禮樂	-9.71995
也又	-9.72134
羮	-9.72172
髙宗	-9.72184
際	-9.72298
纂	-9.72438
把	-9.72485
醜	-9.72522
元稹	-9.72604
揮	-9.72639
慧	-9.72649
璽	-9.72661
項	-9.72739
斥	-9.72752
綠	-9.72822
陪	-9.72835
簿	-9.72937
王子	-9.72947
掠	-9.73006
袖	-9.73024
阮	-9.7313
棘	-9.73241
墳	-9.73262
塘	-9.73275
寓	-9.73345
綏	-9.73384
吏部	-9.73393
奇	-9.73524
五行	-9.73554
焦	-9.73578
募	-9.73589
橘	-9.73616
濁	-9.73646
奕	-9.73693
生於	-9.73861
也又曰	-9.73873
皓	-9.74106
腸	-9.74119
斧	-9.74215
篆	-9.74456
丸	-9.7447
坤	-9.74598
緯	-9.7464
上書	-9.74718
漫	-9.74737
壊	-9.74761
沃	-9.74815
其言	-9.7483
郡縣	-9.74838
捨	-9.74972
也夫	-9.7502
析	-9.75135
北齊	-9.7519
准	-9.75372
畝	-9.75383
有三	-9.75444
劾	-9.75617
人有	-9.75642
南陽	-9.75709
珪	-9.75737
不與	-9.75758
而死	-9.7582
随	-9.75926
值	-9.75984
箕	-9.76008
皆以	-9.76019
山在	-9.76127
知之	-9.76138
脂	-9.76235
粲	-9.76283
貞觀	-9.76302
三千	-9.76365
元史	-9.76394
税	-9.76428
収	-9.76468
參軍	-9.76521
那	-9.76657
不勝	-9.76825
成都	-9.7686
膠	-9.76935
見之	-9.77019
拾遺	-9.77083
壤	-9.77124
元和	-9.77189
駿	-9.77201
檀	-9.77269
世祖	-9.77425
見其	-9.77429
譏	-9.77431
綸	-9.77455
而行	-9.77472
之人	-9.77518
昧	-9.77531
豫章	-9.77555
艾	-9.77562
肩	-9.77563
昆	-9.77623
匠	-9.77653
筠	-9.77746
政事	-9.77846
揚州	-9.77846
鬚	-9.77851
吞	-9.77861
聊	-9.77893
河北	-9.77901
了	-9.78006
豕	-9.78129
啼	-9.78175
遐	-9.78191
無以	-9.78193
禾	-9.78318
十七	-9.78467
奢	-9.78553
天地之	-9.78616
宣帝	-9.78796
刃	-9.78827
不然	-9.7891
㠯	-9.78919
汾	-9.78934
摧	-9.79062
冶	-9.79069
之際	-9.7907
畿	-9.79246
毫	-9.79265
孟子	-9.79347
取之	-9.79352
兔	-9.79354
仇	-9.79377
徧	-9.79409
觴	-9.79418
東都	-9.79442
梓	-9.79497
鑑	-9.79508
人以	-9.79794
筵	-9.79808
彪	-9.79864
鮑	-9.79927
漿	-9.80114
棺	-9.80115
語曰	-9.80164
蜜	-9.80271
大如	-9.80364
婚	-9.80398
巡	-9.80467
一時	-9.80473
乖	-9.80531
漢書曰	-9.80676
都尉	-9.80774
疇	-9.80842
芒	-9.80964
見一	-9.80989
水經注	-9.81131
聼	-9.8124
諷	-9.81322
拘	-9.8158
算	-9.81624
三人	-9.81625
括	-9.81687
話	-9.81892
上帝	-9.81908
門下	-9.81922
䖍	-9.82216
其家	-9.82477
纓	-9.82601
公曰	-9.82632
柄	-9.82679
宵	-9.82764
東宫	-9.82841
如是	-9.82933
内史	-9.82952
障	-9.82957
注曰	-9.82982
曰夫	-9.82998
牆	-9.83058
鎭	-9.8314
五日	-9.83152
十萬	-9.8319
溺	-9.83306
埋	-9.83401
纔	-9.83412
成王	-9.83465
不出	-9.83523
陋	-9.83628
為丨丨	-9.83667
尼	-9.83705
化為	-9.83718
揖	-9.8372
也其	-9.83749
飲食	-9.83792
論語	-9.83826
以示	-9.83885
冬至	-9.83931
誣	-9.83978
枉	-9.83985
管子	-9.83988
元帝	-9.84081
詰	-9.84124
返	-9.84204
而出	-9.84218
中丞	-9.8423
濫	-9.84349
頴	-9.84379
暫	-9.84409
椒	-9.8441
汲	-9.84463
暖	-9.84475
不食	-9.84533
邁	-9.84541
阜	-9.84576
匿	-9.84602
淡	-9.84702
頸	-9.84729
舅	-9.84776
呈	-9.84829
劉禹錫	-9.8486
少府	-9.84893
舊唐書	-9.84906
秦王	-9.84908
𥘉	-9.84918
之内	-9.84918
欲以	-9.85127
巷	-9.85405
東坡	-9.85405
然而	-9.8541
漕	-9.85426
挾	-9.85444
孚	-9.85453
文學	-9.85493
山有	-9.85561
隋書	-9.85583
層	-9.85654
虧	-9.85668
俸	-9.85675
判官	-9.85699
死者	-9.85701
杜牧	-9.85735
欣	-9.85806
驢	-9.85822
乂	-9.85921
突厥	-9.85976
蓄	-9.85998
天之	-9.86031
衢	-9.86107
榆	-9.86214
㳺	-9.86226
飽	-9.86251
先是	-9.86251
料	-9.86252
歟	-9.86273
五代	-9.86381
咨	-9.86384
仲尼	-9.864
苞	-9.86411
濯	-9.86475
富貴	-9.86571
諧	-9.86661
女子	-9.86671
沈約	-9.86767
餅	-9.86787
陟	-9.86812
猿	-9.86831
鬬	-9.86864
耿	-9.8696
疆	-9.86961
補註	-9.87019
䧟	-9.87026
婁	-9.87068
鵠	-9.87245
太傅	-9.87292
者必	-9.87361
號為	-9.87365
淚	-9.87489
汴	-9.87518
属	-9.87659
州郡	-9.8768
柴	-9.87703
謬	-9.87874
油	-9.87879
綽	-9.87881
所居	-9.87891
臘	-9.87925
不許	-9.87948
大小	-9.87955
南方	-9.87972
侈	-9.87978
人主	-9.88081
潰	-9.88083
以待	-9.88097
以自	-9.88109
之屬	-9.88173
簫	-9.88174
山中	-9.88193
是故	-9.88207
齡	-9.88219
罕	-9.88227
轡	-9.88229
坎	-9.88305
黜	-9.88317
志曰	-9.88324
祭祀	-9.88343
東方	-9.88532
截	-9.88667
磬	-9.8867
暇	-9.88701
老子	-9.88746
探	-9.88768
妻子	-9.888
衮	-9.88884
莽	-9.89017
風俗	-9.8907
淹	-9.89151
憑	-9.8917
而下	-9.8919
八十	-9.89226
霍	-9.89352
先王	-9.89462
軫	-9.89497
匡	-9.89501
擊之	-9.89526
縣令	-9.89562
答曰	-9.89584
門外	-9.89616
䝉	-9.89663
文公	-9.89692
剪	-9.89733
歐陽	-9.8975
檄	-9.89954
之徒	-9.90015
函	-9.90116
貝	-9.90166
邢	-9.90177
欽定四庫全書	-9.90192
然則	-9.90238
笛	-9.90281
互	-9.90284
之類	-9.90292
場	-9.90297
誘	-9.90352
札	-9.90395
隐	-9.90428
恕	-9.90479
鬼神	-9.90557
成帝	-9.9072
改為	-9.90857
壑	-9.90894
齊王	-9.9103
岑	-9.91068
鬭	-9.9109
州府	-9.91107
閔	-9.91107
帝王	-9.91151
状	-9.91152
頒	-9.91253
翰林	-9.91261
濤	-9.91307
乙	-9.91326
係	-9.91345
觀之	-9.91391
譬	-9.91445
為一	-9.91487
劇	-9.9151
叅	-9.91547
京兆	-9.9178
諸軍	-9.91887
纎	-9.91924
究	-9.91977
荘	-9.92015
孔子曰	-9.92092
之職	-9.92129
紹興	-9.92213
銓	-9.92243
恢	-9.92293
苔	-9.92294
一作	-9.92337
鷄	-9.92371
詢	-9.92376
掘	-9.92385
其餘	-9.92476
五經	-9.92542
混	-9.92557
團	-9.92669
數千	-9.92805
𦵏	-9.92851
曰汝	-9.92866
叟	-9.92926
壓	-9.92938
冥	-9.92986
蜂	-9.92994
竈	-9.93125
邱	-9.932
王莽	-9.93274
妓	-9.93519
詩丨	-9.93606
得一	-9.93657
帝紀	-9.93794
眠	-9.93903
寃	-9.93963
矩	-9.94008
散騎常侍	-9.94025
饋	-9.94086
浸	-9.9409
丙	-9.94189
賴	-9.94211
得之	-9.94316
何也	-9.94368
䑓	-9.94376
涼	-9.94382
着	-9.94413
之下	-9.94435
箴	-9.94462
士卒	-9.94496
邈	-9.94578
卵	-9.94709
桓公	-9.94722
建武	-9.94765
萬人	-9.94829
闢	-9.94873
穢	-9.94924
剖	-9.95004
四人	-9.95067
萌	-9.95096
完	-9.95168
不從	-9.95222
寅	-9.95294
箋	-9.95337
庾信	-9.95477
隣	-9.95501
訴	-9.95561
百萬	-9.95565
上言	-9.95604
氏之	-9.95611
月令	-9.9567
仁宗	-9.95735
樵	-9.95756
麾	-9.95927
葵	-9.95984
奸	-9.95987
跪	-9.96027
岡	-9.96045
南山	-9.96048
諡	-9.96154
灑	-9.96163
􁀙	-9.96233
逮	-9.96235
郭璞	-9.96272
傳云	-9.96304
吐蕃	-9.96334
海内	-9.96346
雒	-9.96397
笙	-9.96399
中書令	-9.96481
而有	-9.96527
譚	-9.96555
促	-9.96584
緣	-9.9662
其地	-9.96657
杏	-9.96707
廷尉	-9.96799
既而	-9.96805
問曰	-9.96887
二十四	-9.96959
赫	-9.96981
梨	-9.96983
而成	-9.97125
檢校	-9.97221
嶠	-9.97433
膝	-9.9744
鏤	-9.97536
猷	-9.97644
樂府	-9.97705
崑崙	-9.97736
隊	-9.9775
在位	-9.97767
膽	-9.97935
淨	-9.97981
契丹	-9.98033
鬻	-9.98132
勾	-9.98268
曰丨丨	-9.98275
初為	-9.98332
學者	-9.98344
无	-9.98366
聰	-9.98367
隙	-9.98375
夲	-9.98475
涇	-9.98481
時為	-9.98518
許之	-9.98579
後周	-9.98604
貯	-9.98682
冢	-9.98692
祁	-9.9875
閏	-9.98759
之任	-9.98794
恣	-9.98889
太學	-9.98913
笑曰	-9.99075
衣服	-9.99077
山東	-9.99181
閩	-9.99241
至是	-9.99258
明年	-9.99287
下有	-9.99332
竿	-9.99379
泊	-9.99441
宗室	-9.99473
峽	-9.99531
故也	-9.9954
護	-9.99592
鄒	-9.99666
餌	-9.99667
不言	-9.99692
兎	-9.99729
駐	-9.99751
國朝	-9.99956
其母	-9.9999
不在	-9.99999
太和	-10.0001
媚	-10.001
禱	-10.0013
冒	-10.0013
人所	-10.0013
相與	-10.0014
沮	-10.0017
絡	-10.0023
涉	-10.0024
版	-10.0025
至今	-10.0031
縷	-10.0043
陸游	-10.0043
泗	-10.0047
鞍	-10.0052
有人	-10.006
不忍	-10.0063
凍	-10.0065
組	-10.0075
梁簡文帝	-10.0076
宣王	-10.0078
谿	-10.0083
員外	-10.0086
車駕	-10.0087
不至	-10.0096
陸機	-10.0099
鳬	-10.01
大理	-10.0108
街	-10.0115
傑	-10.0124
侍御史	-10.0128
卯	-10.017
云云	-10.0177
本傳	-10.018
二子	-10.0188
液	-10.019
勵	-10.019
度支	-10.0191
俄	-10.0194
炙	-10.0196
通鑑	-10.02
今之	-10.0201
䟽	-10.0206
疲	-10.0208
郷	-10.0213
沐	-10.0213
蘆	-10.0214
大司馬	-10.0225
従	-10.0229
濬	-10.0231
朋	-10.0232
浴	-10.0238
晏子	-10.0246
糾	-10.0253
衣冠	-10.0255
輕重	-10.0258
琳	-10.0264
民之	-10.0268
第二	-10.027
言其	-10.0271
贍	-10.0278
敝	-10.0281
孝武	-10.0284
琰	-10.0293
悼	-10.0295
併	-10.0299
是為	-10.0305
憤	-10.0306
轂	-10.0306
貸	-10.0309
奠	-10.0313
奈何	-10.0313
遍	-10.0318
瑩	-10.0321
賁	-10.0333
人間	-10.0336
萊	-10.0338
國公	-10.034
嗜	-10.0341
寡人	-10.0343
塲	-10.0348
駒	-10.0355
或曰	-10.0361
山谷	-10.0362
邕	-10.0362
服之	-10.0364
亟	-10.0366
為大	-10.0369
壞	-10.0371
蔡邕	-10.0372
中山	-10.0375
减	-10.0376
者有	-10.0378
之美	-10.0385
孝文	-10.0386
其間	-10.0392
九州	-10.04
狹	-10.0408
以成	-10.0425
片	-10.0426
數日	-10.0432
五帝	-10.0435
秘	-10.0435
貽	-10.0439
謡	-10.0439
祖宗	-10.0443
疋	-10.0443
毛詩	-10.0444
燧	-10.0444
欵	-10.0456
皇甫	-10.0458
璋	-10.0458
十里	-10.046
準	-10.0465
涯	-10.0472
不行	-10.0477
二曰	-10.0487
什	-10.0491
有二	-10.0492
飬	-10.0493
蔣	-10.0504
億	-10.0511
拾	-10.0515
仄	-10.0515
攀	-10.0516
仁義	-10.052
灼	-10.0527
粥	-10.0533
肯	-10.0535
於丨丨	-10.054
銷	-10.0543
健	-10.0543
水中	-10.0546
庻	-10.0547
炭	-10.0547
浚	-10.0552
嘯	-10.0555
零	-10.0558
笏	-10.0559
之利	-10.056
牟	-10.0566
千餘	-10.0581
南海	-10.0583
明月	-10.0583
軍中	-10.0586
江陵	-10.059
饌	-10.0591
使君	-10.0591
㓂	-10.0597
大業	-10.0601
太公	-10.0608
諸子	-10.061
藤	-10.0613
佞	-10.062
綜	-10.0621
芻	-10.0621
慕容	-10.0623
慢	-10.0624
貞元	-10.0632
不足以	-10.0632
如何	-10.0637
島	-10.0646
僅	-10.0653
邸	-10.0657
擲	-10.0665
演	-10.0667
江淮	-10.067
天寳	-10.0707
襄陽	-10.0709
檻	-10.0717
牒	-10.0717
効	-10.0718
之氣	-10.0719
千金	-10.0719
仙人	-10.0726
泰山	-10.0726
問之	-10.0732
羲	-10.0734
堯舜	-10.0743
楚王	-10.0743
譬如	-10.075
太廟	-10.0752
宫中	-10.0761
肝	-10.0762
南郊	-10.0764
誨	-10.0769
長沙	-10.0775
挂	-10.0778
魄	-10.0793
廣韻	-10.0797
唐韻	-10.0797
入朝	-10.0798
北方	-10.0802
曰朕	-10.0803
正韻	-10.0804
起居	-10.0821
芙蓉	-10.0823
御史大夫	-10.0831
嘆	-10.0835
脯	-10.0836
餉	-10.084
故人	-10.0843
令人	-10.0843
終日	-10.0844
烹	-10.0849
曰天	-10.0853
安得	-10.0863
凖	-10.0865
紗	-10.0891
巻	-10.0898
伺	-10.0899
盆	-10.0899
褐	-10.0922
太史	-10.0924
軸	-10.0929
其國	-10.0959
誡	-10.0964
賂	-10.0967
汝南	-10.0967
魁	-10.0968
白馬	-10.097
蟻	-10.0973
眷	-10.098
之官	-10.0981
閲	-10.0986
而還	-10.0993
一年	-10.0998
稀	-10.1009
其父	-10.1011
睡	-10.1025
諸州	-10.1026
神仙	-10.1042
脉	-10.1044
姓名	-10.1046
甸	-10.1053
文選	-10.1063
之精	-10.1065
上曰	-10.1083
歌曰	-10.1089
尚書令	-10.109
鉤	-10.1092
蕪	-10.1094
不欲	-10.1095
廣陵	-10.1098
曰子	-10.1104
爐	-10.1105
睦	-10.1106
謂曰	-10.111
株	-10.1116
怠	-10.1123
捧	-10.1125
神明	-10.1129
搆	-10.1134
蹈	-10.1138
之故	-10.1153
臥	-10.1154
之謂	-10.1159
于是	-10.1161
功臣	-10.1163
甕	-10.1174
韜	-10.1184
乍	-10.1187
愍	-10.1188
弁	-10.1189
二千	-10.119
禘	-10.119
𤣥宗	-10.1192
百年	-10.1198
閻	-10.1202
者亦	-10.1203
終不	-10.1204
柯	-10.1211
襟	-10.122
窟	-10.1221
快	-10.1228
副使	-10.1228
異之	-10.123
莫能	-10.123
丨丨丨丨丨	-10.1236
因以	-10.1241
三十六	-10.1251
煥	-10.1261
雌	-10.1279
扈	-10.1279
詭	-10.1284
豈不	-10.1284
䕫	-10.1285
或以	-10.1296
恪	-10.13
逕	-10.1305
得失	-10.1306
再拜	-10.1307
邀	-10.131
疊	-10.1314
筍	-10.1318
十九	-10.1324
馭	-10.1326
少年	-10.1327
昨	-10.1328
世家	-10.1331
昭王	-10.1333
叱	-10.1343
塔	-10.1344
太師	-10.1349
寔	-10.135
犢	-10.1353
蟹	-10.1356
其妻	-10.1367
則不	-10.1376
丨之丨	-10.139
酸	-10.1395
大者	-10.1395
是謂	-10.1396
棊	-10.1398
叅軍	-10.1406
諸王	-10.1412
羡	-10.1427
伸	-10.143
之國	-10.1432
諒	-10.1434
糴	-10.1441
宰臣	-10.1445
孝經	-10.1447
戊	-10.145
一切	-10.1451
溫	-10.1458
畔	-10.1463
殿中	-10.1466
晝夜	-10.1471
何為	-10.1475
童子	-10.1479
元豐	-10.1483
敞	-10.1485
翳	-10.1485
斑	-10.1487
曹植	-10.1489
倦	-10.1491
三品	-10.1492
忿	-10.1492
其實	-10.1492
殺人	-10.1496
耆	-10.1499
窗	-10.1499
榜	-10.1502
貂	-10.1503
稼	-10.1504
栖	-10.1511
皷	-10.1517
周書	-10.1518
贖	-10.1519
宥	-10.1526
國語	-10.1529
而歸	-10.1531
山海經	-10.1533
掖	-10.1542
之樂	-10.1543
瀆	-10.1544
數萬	-10.1548
澹	-10.1557
夏侯	-10.1558
紂	-10.1559
貟	-10.156
男女	-10.1563
濵	-10.1564
漢武	-10.1574
給事中	-10.1576
上疏	-10.1577
破之	-10.1586
三代	-10.1593
岀	-10.1596
如故	-10.1598
家貧	-10.1607
徳宗	-10.161
其心	-10.1612
穎	-10.1614
其身	-10.1621
人心	-10.1628
桀	-10.1631
家人	-10.1633
娥	-10.1635
諸生	-10.1639
證	-10.1642
甄	-10.1647
虐	-10.166
戾	-10.1664
中郎將	-10.1666
樽	-10.1668
瓶	-10.1669
不失	-10.1678
滄	-10.1679
少卿	-10.1681
之術	-10.1687
酷	-10.1687
賑	-10.1688
城中	-10.1691
通典	-10.1694
足下	-10.1694
鷺	-10.1695
西方	-10.1696
者其	-10.1704
敖	-10.1708
之聲	-10.1711
都賦	-10.1719
構	-10.1721
耗	-10.1721
乃以	-10.1732
朴	-10.1734
第三	-10.1735
儼	-10.1737
數年	-10.1739
庶子	-10.1746
較	-10.1755
好學	-10.1757
自古	-10.1759
陛	-10.1766
三輔	-10.1774
催	-10.1776
膚	-10.1782
丨丨丨丨丨丨丨丨	-10.1783
聳	-10.1787
伎	-10.1788
頼	-10.1789
顗	-10.179
陌	-10.18
白雲	-10.1802
三軍	-10.1804
言曰	-10.1808
録曰	-10.1808
甘泉	-10.181
摘	-10.1813
後主	-10.1821
江淹	-10.1822
蔓	-10.1824
文獻通考	-10.1825
謗	-10.1828
皮日休	-10.1831
抽	-10.1832
班固	-10.1833
也然	-10.1834
布衣	-10.1836
戯	-10.1839
平生	-10.1841
不識	-10.185
鋭	-10.1851
㑹要	-10.1853
者非	-10.186
三司	-10.1867
王公	-10.1869
賢者	-10.1871
秘書	-10.1872
及其	-10.1878
先帝	-10.1883
山下	-10.1884
坦	-10.1885
春風	-10.1885
蹇	-10.1889
之政	-10.1892
聞其	-10.1899
寺詩	-10.1917
釵	-10.192
平原	-10.1924
㨗	-10.1926
逺近	-10.1927
元祐	-10.1929
益州	-10.1933
人物	-10.1934
翅	-10.1936
攜	-10.1936
十日	-10.1942
吏民	-10.1947
千人	-10.195
闇	-10.1956
狀如	-10.196
厨	-10.1964
裝	-10.1973
城南	-10.1977
虢	-10.1986
之臣	-10.1994
霽	-10.1994
壻	-10.2001
先主	-10.2009
挽	-10.2012
衫	-10.2025
逝	-10.203
駟	-10.2035
神武	-10.2041
郡守	-10.2045
郡太守	-10.2046
趙王	-10.2048
江東	-10.2049
墻	-10.2051
國史	-10.2053
十二年	-10.2066
不聽	-10.2067
欒	-10.2067
鄉里	-10.2068
銖	-10.2074
縈	-10.2075
牖	-10.2076
車騎	-10.2079
三曰	-10.2083
已上	-10.2092
亢	-10.2094
龎	-10.2102
不入	-10.2108
也若	-10.211
孺	-10.2111
添	-10.2115
瑜	-10.2119
辦	-10.2123
閱	-10.2127
四百	-10.2127
無事	-10.213
相見	-10.2132
況	-10.2133
中外	-10.2136
功曹	-10.2136
齎	-10.2141
天文	-10.2144
汙	-10.215
潁	-10.216
鐸	-10.2161
明皇	-10.2164
揚雄	-10.2166
譙	-10.2166
其下	-10.2174
矛	-10.2178
豈可	-10.218
觀其	-10.2186
處士	-10.2187
踈	-10.2188
讐	-10.2201
曰臣聞	-10.2203
山之	-10.2214
丨丨之丨	-10.2214
堤	-10.2215
事類	-10.2219
俠	-10.2219
裙	-10.2225
七日	-10.2225
縮	-10.2232
所得	-10.2233
蛟	-10.2236
大怒	-10.2238
轅	-10.2238
説文	-10.2251
涕	-10.2253
道路	-10.2258
懲	-10.2258
文字	-10.2258
小兒	-10.2259
之文	-10.2266
臣聞	-10.2269
國人	-10.2271
替	-10.2275
代之	-10.2279
御史中丞	-10.2281
的	-10.2282
射之	-10.2292
不宜	-10.2296
文曰	-10.2297
諸道	-10.2297
相如	-10.2298
梁書	-10.2298
醴	-10.2311
俄而	-10.2311
周官	-10.2312
夙	-10.2317
失其	-10.232
筭	-10.2325
三尺	-10.2334
之罪	-10.2337
繒	-10.234
之勢	-10.2344
斬之	-10.2345
五千	-10.2348
五代史	-10.235
西京	-10.2353
貴人	-10.2355
其意	-10.2355
濡	-10.2357
侃	-10.2361
淪	-10.2362
髻	-10.2366
聖人之	-10.2367
鶯	-10.2368
不絶	-10.2374
圎	-10.2375
拾遺記	-10.238
之乃	-10.2383
劉向	-10.239
逾	-10.2392
打	-10.2396
幘	-10.2396
活套	-10.2398
蔚	-10.2402
名也	-10.2403
態	-10.2407
禹貢	-10.2411
匱	-10.2419
其一	-10.2432
王曰	-10.2443
閤	-10.2451
拱	-10.2453
耳目	-10.2455
衙	-10.2458
廓	-10.2459
潁川	-10.2463
鬢	-10.2464
為左	-10.2465
滴	-10.2486
洞庭	-10.2488
旄	-10.2489
未能	-10.249
無窮	-10.2493
從容	-10.2494
以告	-10.2507
筮	-10.2507
祕	-10.251
晉侯	-10.2514
煮	-10.2518
汎	-10.252
魏文帝	-10.2521
研	-10.2526
謚	-10.253
肅宗	-10.2533
二字	-10.2546
籬	-10.2561
議者	-10.2562
偷	-10.2568
沸	-10.2573
羸	-10.2578
金石	-10.2579
寐	-10.2584
朽	-10.2585
郁	-10.2586
禁中	-10.2588
刼	-10.2588
跨	-10.2588
岱	-10.2589
不聞	-10.2593
㝠	-10.2602
毗	-10.2605
旨	-10.2609
潞	-10.2609
栢	-10.261
有五	-10.2617
之所以	-10.2617
蟠	-10.2617
進退	-10.2618
河内	-10.2619
遼東	-10.2619
架	-10.2621
望之	-10.263
艱	-10.2633
凱	-10.2633
秀才	-10.2637
而生	-10.2639
尅	-10.2647
十一年	-10.265
藴	-10.265
廼	-10.2651
臣之	-10.2663
遮	-10.2663
綾	-10.2664
釐	-10.2665
顛	-10.2671
楷	-10.2672
相國	-10.2673
憲宗	-10.2676
▁李	-10.2678
漢王	-10.2682
幅	-10.2685
蠲	-10.2687
宫室	-10.2694
延年	-10.271
奥	-10.2711
彤	-10.2715
之位	-10.2722
絮	-10.2724
於天	-10.2726
汁	-10.2727
嬪	-10.2729
婆	-10.2729
滔	-10.2731
郡王	-10.2735
百官志	-10.2749
武徳	-10.2751
真宗	-10.2753
九十	-10.2764
填	-10.2765
別	-10.2768
不自	-10.2771
不忘	-10.2772
張華	-10.2789
國有	-10.2792
之衆	-10.2793
藍	-10.2795
撓	-10.2796
人不	-10.2797
子産	-10.2801
北海	-10.2805
雋	-10.281
僻	-10.2813
之用	-10.2816
不應	-10.2819
太平御覽卷第	-10.2829
十三年	-10.283
史記曰	-10.2832
喧	-10.2837
評	-10.2841
奉和	-10.2845
者則	-10.2846
紋	-10.285
捷	-10.2856
亦曰	-10.2858
未知	-10.286
黄門	-10.286
恬	-10.2874
管仲	-10.2874
臻	-10.2882
太僕	-10.289
筋	-10.2891
易林	-10.2892
故名	-10.2893
無復	-10.2898
繆	-10.29
侍御	-10.2905
汪	-10.2905
十四年	-10.2909
陳留	-10.2913
乃止	-10.2916
後為	-10.2917
有罪	-10.2917
左氏	-10.2918
非常	-10.2919
常侍	-10.2919
士大夫	-10.292
金銀	-10.2921
忠臣	-10.2924
以禮	-10.2925
之月	-10.2929
鴨	-10.2931
彬	-10.2932
曰王	-10.2946
之志	-10.2951
籌	-10.2952
老人	-10.2959
蝶	-10.2964
床	-10.2965
廊	-10.2968
用兵	-10.2974
妹	-10.2977
煎	-10.2983
讎	-10.2993
銳	-10.2994
歆	-10.2997
大事	-10.2998
煬帝	-10.2999
踵	-10.3006
諸葛	-10.3011
揆	-10.3012
有異	-10.3013
其文	-10.3013
愆	-10.303
大王	-10.3038
十餘年	-10.3044
驥	-10.306
叩	-10.3062
㫁	-10.3069
持節	-10.307
軰	-10.3076
屯田	-10.3078
縛	-10.3078
瑕	-10.3079
無人	-10.3083
換	-10.3084
彭城	-10.309
十人	-10.3091
之盛	-10.3096
男子	-10.3099
箱	-10.3101
莫敢	-10.3104
拳	-10.3106
丕	-10.3108
萬餘	-10.3112
世之	-10.3113
流涕	-10.3116
列子	-10.3122
為太子	-10.3125
而不能	-10.3125
為右	-10.313
朝夕	-10.3131
武帝紀	-10.3138
天子之	-10.3141
越王	-10.3144
甘露	-10.3147
為相	-10.3153
奏事	-10.3153
碩	-10.3154
圜	-10.3165
畆	-10.3167
宇文	-10.3177
禮部	-10.3177
簪	-10.3178
詔書	-10.3179
罵	-10.318
知名	-10.3182
備用	-10.3184
之才	-10.3188
相公	-10.3189
䕃	-10.3191
冨	-10.3191
捐	-10.3194
山水	-10.3194
有四	-10.3206
倡	-10.3209
車馬	-10.3209
譲	-10.3213
梟	-10.322
丈夫	-10.3221
祭酒	-10.3224
措	-10.3227
沿	-10.323
髙帝	-10.3232
不通	-10.3233
爻	-10.3234
漢武帝	-10.3236
帝以	-10.3237
之本	-10.3244
制度	-10.3244
泄	-10.3252
京兆尹	-10.3257
謁者	-10.326
翰林學士	-10.3261
成對	-10.3264
輟	-10.3266
顒	-10.3266
藪	-10.3269
賈誼	-10.327
致仕	-10.327
置酒	-10.3275
燎	-10.3276
孫權	-10.3282
兵馬	-10.329
率衆	-10.3292
叚	-10.3295
晉陽	-10.3298
湧	-10.3305
噐	-10.3306
當世	-10.3306
楊萬里	-10.3309
裹	-10.3311
自今	-10.3312
▁丨丨	-10.3315
長者	-10.3315
山林	-10.3315
黔	-10.3322
姊	-10.3323
滕	-10.3327
幽州	-10.3328
不死	-10.3329
寕	-10.3332
傲	-10.3333
子也	-10.3335
控	-10.3337
或有	-10.3338
愷	-10.3342
餞	-10.3343
武陵	-10.3343
龍門	-10.3347
為政	-10.3347
禀	-10.3355
般	-10.336
孝子	-10.3362
羈	-10.3365
技	-10.3369
河間	-10.3376
光禄大夫	-10.3383
闔	-10.3383
曰公	-10.3384
與人	-10.3389
則天	-10.3389
葦	-10.3391
五人	-10.34
國子	-10.3403
羔	-10.3403
苛	-10.3408
者曰	-10.3409
夭	-10.341
屑	-10.3423
賓客	-10.3424
粹	-10.3428
至此	-10.3429
俞	-10.3432
愼	-10.3433
之節	-10.344
弋	-10.3443
不當	-10.3444
宦	-10.3449
庶人	-10.3452
雒陽	-10.3455
縑	-10.3457
侮	-10.3458
封禪	-10.3458
辜	-10.3463
逋	-10.3465
瓜	-10.3466
沖	-10.3476
苖	-10.3479
五星	-10.3481
呼為	-10.3484
人情	-10.3484
牋	-10.3487
李賀	-10.3502
潘岳	-10.3504
胎	-10.3508
邇	-10.3513
遏	-10.3514
醒	-10.3515
也言	-10.3516
以聞	-10.3523
是非	-10.3525
平章事	-10.3528
唐太宗	-10.3538
駢	-10.3538
陜	-10.3547
牡	-10.3552
之役	-10.3557
僖	-10.3558
舎人	-10.3563
之情	-10.3579
棟	-10.3581
之初	-10.359
美人	-10.3597
曰若	-10.3605
搏	-10.3612
而復	-10.3615
斫	-10.3618
宸	-10.3621
誼	-10.3622
酉陽雜俎	-10.3625
寤	-10.3627
墟	-10.3628
系	-10.363
雜記	-10.3636
濃	-10.3651
恂	-10.3661
不若	-10.3666
爪	-10.3667
笞	-10.3669
姪	-10.3675
腐	-10.3676
以備	-10.3679
鳥獸	-10.3693
曙	-10.3694
中宗	-10.3694
人君	-10.371
迫	-10.3712
伴	-10.3714
亥	-10.3717
弛	-10.372
記云	-10.3722
惲	-10.3725
釁	-10.3728
蠅	-10.3728
神農	-10.3731
榻	-10.3732
之始	-10.3734
逵	-10.3736
賦詩	-10.3737
杞	-10.3738
芬	-10.3743
不堪	-10.3748
鋪	-10.3749
該	-10.375
氐	-10.3752
荅曰	-10.3755
甲子	-10.3758
牡丹	-10.376
閨	-10.3764
三寸	-10.3766
瓠	-10.3768
之民	-10.377
睿	-10.3771
其罪	-10.3775
風吹	-10.3778
顔色	-10.3782
正義	-10.3792
以後	-10.3796
二十五	-10.3796
炊	-10.3805
粗	-10.381
之説	-10.3811
徐州	-10.3821
傳見	-10.3824
蹄	-10.3825
王建	-10.3831
不成	-10.3834
贄	-10.3835
㢘	-10.3835
又以	-10.3835
宗正	-10.3836
千萬	-10.3845
舊制	-10.3846
馴	-10.3846
中書侍郎	-10.3848
王維	-10.3848
人臣	-10.3849
闊	-10.3853
問其故	-10.3859
徼	-10.3862
留守	-10.3872
俎	-10.3883
梯	-10.3883
何處	-10.3885
常以	-10.3888
彛	-10.3892
僣	-10.3896
琮	-10.3898
不盡	-10.3898
册	-10.3898
蠧	-10.39
臭	-10.3902
一旦	-10.3903
簟	-10.3905
鐡	-10.3906
見前	-10.3907
奄	-10.391
經曰	-10.391
庖	-10.3916
凢	-10.3931
乾坤	-10.3932
分為	-10.3933
舂	-10.3934
百八十	-10.3939
渙	-10.3939
五品	-10.3941
劔	-10.3948
羽林	-10.3949
覇	-10.3959
妨	-10.3959
八百	-10.3961
腦	-10.3962
拙	-10.3963
咽	-10.3964
𬒳	-10.3965
可得	-10.3972
稜	-10.3977
陀	-10.3979
領軍	-10.398
四曰	-10.3986
鸚鵡	-10.3988
癸	-10.3992
酣	-10.3994
范成大	-10.3995
若此	-10.3996
東方朔	-10.3998
者謂之	-10.3999
隄	-10.4003
髙麗	-10.4004
黄鍾	-10.4004
執政	-10.4014
人多	-10.4015
隸	-10.402
咏	-10.4022
謫	-10.4025
李嶠	-10.4025
之患	-10.4025
蠟	-10.4026
儀禮	-10.4029
曼	-10.4038
琛	-10.4039
觀察使	-10.404
春日	-10.4042
曷	-10.4048
九日	-10.4048
撥	-10.4052
賜之	-10.4055
不知其	-10.4061
肺	-10.4062
贓	-10.4064
華山	-10.407
自此	-10.4074
而止	-10.4074
字伯	-10.4075
竦	-10.4093
不肖	-10.4097
翊	-10.4106
嶺南	-10.4108
不合	-10.4117
脈	-10.4119
鞠	-10.412
不亦	-10.4123
司農	-10.4128
撃	-10.4128
祇	-10.4132
切音	-10.4134
先王之	-10.4139
威儀	-10.4144
償	-10.4144
璞	-10.4145
汚	-10.4146
王勃	-10.4147
見於	-10.4153
戀	-10.4154
悅	-10.416
龔	-10.4162
沔	-10.4172
父老	-10.4172
十五年	-10.4173
元嘉	-10.4176
郊祀	-10.4182
琵琶	-10.4183
股	-10.4188
遂以	-10.4188
文子	-10.4191
往往	-10.4192
瑀	-10.4194
虵	-10.4194
自稱	-10.4199
惡之	-10.42
讒	-10.4204
部郎中	-10.4205
桞	-10.4207
鈴	-10.4208
昔者	-10.421
唐書曰	-10.4211
來朝	-10.4212
齊人	-10.4217
寮	-10.422
鉞	-10.4227
狎	-10.4243
各一人	-10.4244
往來	-10.4245
繪	-10.4245
訊	-10.4245
漳	-10.4246
繕	-10.4251
粒	-10.426
吉凶	-10.4261
丨其丨	-10.4271
將士	-10.4273
躡	-10.4277
渴	-10.4279
周之	-10.4279
簷	-10.4282
瓌	-10.4283
一卷	-10.4297
景帝	-10.4297
勘	-10.4298
屨	-10.4301
迭	-10.4301
晟	-10.4302
不動	-10.4304
綰	-10.4304
其聲	-10.431
兾	-10.4311
未可	-10.4316
棠	-10.4317
貲	-10.4321
賚	-10.4324
廣州	-10.4328
壅	-10.4329
故能	-10.4331
殖	-10.4333
歐	-10.4349
繭	-10.4349
翹	-10.435
帆	-10.4353
卞	-10.4365
啄	-10.4371
者多	-10.4377
若有	-10.438
稚	-10.4384
旒	-10.4385
用事	-10.4386
貴賤	-10.4386
帽	-10.439
於上	-10.4393
跳	-10.4395
何不	-10.4395
齊侯	-10.4397
酉	-10.4398
員外郎	-10.44
文宗	-10.4404
諸侯之	-10.4405
敘	-10.4409
炳	-10.4409
袴	-10.4414
餐	-10.4414
而立	-10.4421
不易	-10.4423
𦙍	-10.4426
蔬	-10.443
雛	-10.4431
并州	-10.4439
竄	-10.444
總管	-10.4446
托	-10.4454
始皇	-10.4454
霑	-10.4457
何所	-10.4458
桃花	-10.4459
長吏	-10.4459
孕	-10.4465
瓘	-10.4466
求之	-10.4468
隴西	-10.4473
郤	-10.4473
荀子	-10.449
故以	-10.4493
鄂	-10.4494
幡	-10.4496
核	-10.4497
討之	-10.4498
不覺	-10.4503
博物志	-10.4505
不免	-10.4519
廬山	-10.452
沂	-10.452
歐陽修	-10.4521
之餘	-10.4539
軾	-10.454
譯	-10.4541
丹陽	-10.4548
神宗	-10.4556
歇	-10.4557
者乎	-10.4558
不可得	-10.4559
丨丨丨丨丨丨	-10.4562
鞏	-10.4564
稱其	-10.4567
子貢	-10.4568
建安	-10.4572
踏	-10.4576
殿前	-10.4578
東觀	-10.4579
皇太后	-10.4582
諸儒	-10.4584
謂之丨丨	-10.4587
於外	-10.4588
未及	-10.4591
天道	-10.4592
婉	-10.4594
螭	-10.4597
牘	-10.4599
變化	-10.4604
召見	-10.4605
衛將軍	-10.4611
茹	-10.4611
狩	-10.4615
峙	-10.4619
豚	-10.4621
莒	-10.4621
天文志	-10.4622
翦	-10.4622
多少	-10.4623
太極	-10.4626
銘曰	-10.4626
纒	-10.4628
可汗	-10.4628
平王	-10.4634
以功	-10.4634
闈	-10.4636
七百	-10.4643
滌	-10.4643
於人	-10.4653
邦國	-10.4659
各一	-10.4664
驂	-10.4669
梵	-10.4675
脅	-10.4679
縣有	-10.4682
張衡	-10.4688
水出	-10.4689
謝靈運	-10.4692
獻之	-10.4692
艮	-10.4696
謂其	-10.4701
今年	-10.4702
丨丨注	-10.4703
蘓	-10.4714
針	-10.4715
西京雜記	-10.4715
諸葛亮	-10.4717
嘲	-10.4718
一朝	-10.4719
形如	-10.4727
山南	-10.4728
太山	-10.4728
臣等	-10.4736
安國	-10.4739
前漢	-10.4742
冀州	-10.4743
萃	-10.4747
豈有	-10.4749
而退	-10.4751
廪	-10.4752
皆為	-10.4754
之難	-10.4754
沼	-10.4754
官屬	-10.4755
人事	-10.4759
蕙	-10.476
為侍中	-10.4769
誄	-10.4769
沾	-10.4775
昻	-10.4778
其功	-10.4778
曹公	-10.4783
梅堯臣	-10.4785
堆	-10.479
押	-10.4793
書云	-10.4798
刋	-10.4813
食貨志	-10.482
有此	-10.4834
蝗	-10.4835
監察御史	-10.4845
騷	-10.4846
賦丨丨	-10.4846
不容	-10.4848
古詩	-10.4849
冐	-10.4852
之變	-10.4862
之風	-10.4867
世宗	-10.488
匣	-10.4886
曰陛下	-10.4887
彫	-10.4889
孟郊	-10.4895
戰國	-10.49
慘	-10.4903
叶	-10.4908
二十年	-10.4914
麋	-10.4916
終身	-10.4917
左傳曰	-10.4924
城西	-10.4928
中書舍人	-10.493
其形	-10.4935
四字	-10.4942
清河	-10.4948
亭詩	-10.4962
治之	-10.4968
千餘人	-10.4971
翮	-10.4972
朔方	-10.4973
白日	-10.4974
渤海	-10.4981
酋	-10.4982
他日	-10.4982
梁元帝	-10.4984
聞而	-10.4987
驪	-10.4987
梧	-10.4995
以金	-10.4996
大敗	-10.4997
五寸	-10.4998
驟	-10.5006
禽獸	-10.5017
㕔	-10.5022
楹	-10.503
於前	-10.5035
第五	-10.5037
青州	-10.5039
東漢	-10.5041
行人	-10.5041
曰大	-10.5043
久之	-10.5046
坑	-10.5046
江夏	-10.5048
嘉之	-10.505
灘	-10.506
日中	-10.5062
繇是	-10.5063
捉	-10.5067
徐陵	-10.507
大将軍	-10.5075
之象	-10.5077
擔	-10.5078
可乎	-10.5081
蘿	-10.5093
吏部尚書	-10.5093
可也	-10.5096
盾	-10.5099
上元	-10.5105
嬌	-10.5106
已下	-10.5107
番	-10.5108
武后	-10.5111
以求	-10.5113
咸陽	-10.5115
字仲	-10.5115
温庭筠	-10.5119
永平	-10.5119
群	-10.5121
鵞	-10.5127
軟	-10.513
之家	-10.513
摶	-10.5134
何必	-10.5135
復置	-10.5135
三分	-10.5138
昱	-10.5139
攘	-10.5141
及第	-10.5146
一尺	-10.5147
禇	-10.5147
㤗	-10.5149
有才	-10.5149
囂	-10.5151
太白	-10.5152
鯉	-10.5156
君子之	-10.5158
太宰	-10.5159
隻	-10.516
詎	-10.5165
之道也	-10.5169
胸	-10.5177
嗚呼	-10.5178
金玉	-10.5179
不顧	-10.5183
縫	-10.5184
怯	-10.5189
鉢	-10.519
歙	-10.5198
西河	-10.5201
因之	-10.5201
應制詩	-10.5202
邠	-10.5202
故有	-10.521
給事	-10.5211
覃	-10.5211
所作	-10.5213
韋應物	-10.5217
山詩	-10.5217
覲	-10.522
亨	-10.5221
胃	-10.5223
轍	-10.5225
萬國	-10.5229
令狐	-10.5231
之命	-10.5234
陽侯	-10.5236
由此	-10.5239
僭	-10.5242
迥	-10.5243
之處	-10.5246
趾	-10.525
後漢書曰	-10.525
佗	-10.5258
駱	-10.5258
為名	-10.5264
耻	-10.5264
而能	-10.5265
沿革	-10.5265
雍州	-10.5268
之重	-10.5269
西山	-10.527
王氏	-10.5276
淮南子曰	-10.5277
鵝	-10.5278
冉	-10.5283
菱	-10.5285
始也	-10.5286
是日	-10.5287
相傳	-10.5289
扉	-10.529
之力	-10.5291
辭曰	-10.5294
秋風	-10.5303
陽縣	-10.5304
則為	-10.5315
憎	-10.5316
輿服志	-10.5321
䨇	-10.5328
册府元龜卷	-10.5334
尚書郎	-10.5341
諸公	-10.5343
漢中	-10.5345
所生	-10.5351
欄	-10.5352
言於	-10.5355
戢	-10.5363
永嘉	-10.5364
曰何	-10.5367
抱朴子	-10.5373
滛	-10.5374
琦	-10.5375
宫人	-10.5383
對曰臣	-10.5386
教授	-10.5387
愔	-10.5395
可為	-10.5398
于丨丨	-10.5401
鉅	-10.5401
大驚	-10.5402
鴟	-10.5402
萍	-10.5403
兖	-10.5416
蔵	-10.5419
諾	-10.5422
癡	-10.5423
釋名	-10.5424
之君	-10.5424
四面	-10.5425
嶷	-10.5427
多所	-10.5427
日夜	-10.5427
㸔	-10.5429
不疑	-10.5429
太保	-10.5437
厠	-10.5449
祕書	-10.545
三萬	-10.5453
之物	-10.5454
扶風	-10.5455
楚子	-10.5461
梅花	-10.5463
城門	-10.547
中尉	-10.5472
沙門	-10.5484
一丈	-10.5486
聨	-10.5488
百餘人	-10.5488
之世	-10.5489
緋	-10.5489
不利	-10.5493
萬年	-10.5493
飲之	-10.5493
於天下	-10.5493
軍事	-10.5496
菽	-10.5497
上表	-10.55
三字	-10.55
風流	-10.5504
脊	-10.5508
濮	-10.5509
乃命	-10.5511
邯鄲	-10.5512
河中	-10.5516
未至	-10.5524
白虎	-10.5525
受之	-10.5525
堰	-10.5526
易之	-10.5529
攻之	-10.5533
祫	-10.5533
上林	-10.5536
河西	-10.5548
竅	-10.555
執事	-10.5555
朱子	-10.5561
代宗	-10.5568
少有	-10.5571
是月	-10.5574
璣	-10.5576
芽	-10.5577
葱	-10.5589
屏風	-10.5589
貎	-10.5593
隕	-10.5593
博學	-10.5596
復為	-10.5597
不信	-10.5599
洋	-10.5599
戰國䇿	-10.5601
豔	-10.5602
寒暑	-10.5603
清風	-10.5603
褚	-10.5607
醢	-10.561
少時	-10.5611
卿大夫	-10.5615
線	-10.5615
而不知	-10.5618
穹	-10.5618
拯	-10.5624
傳記	-10.5625
中央	-10.5632
無異	-10.5639
舄	-10.5641
與其	-10.5641
在於	-10.5647
兖州	-10.5648
剥	-10.5648
熾	-10.5654
注丨丨	-10.5656
大將	-10.566
苟	-10.5662
冩	-10.5663
愛之	-10.5667
九卿	-10.567
嘆曰	-10.5672
所宜	-10.5675
浄	-10.5677
俘	-10.5683
曇	-10.5688
珮	-10.5692
或云	-10.5696
千載	-10.5696
烝	-10.5698
世説	-10.5702
五行志	-10.5708
者謂	-10.5709
奏曰	-10.571
一員	-10.5711
以供	-10.5712
蜀志	-10.5714
石室	-10.5717
有聲	-10.5719
旂	-10.5725
漲	-10.5726
請以	-10.5727
徘徊	-10.5729
椎	-10.5735
驍	-10.5736
起於	-10.5738
甥	-10.574
出自	-10.574
此其	-10.5742
楚辭	-10.5744
土地	-10.5747
未必	-10.5747
闥	-10.575
後至	-10.5752
洎	-10.5752
複	-10.5755
地理志	-10.5756
螢	-10.5763
令史	-10.5763
蒿	-10.5765
友人	-10.5772
睢	-10.5774
溉	-10.5775
忝	-10.5779
大笑	-10.578
平陽	-10.5783
詩序	-10.5784
猶有	-10.5784
而自	-10.5787
萬民	-10.5789
詡	-10.5794
丑	-10.5794
而入	-10.5803
百人	-10.5805
晉書曰	-10.5805
之徳	-10.5806
翫	-10.581
釀	-10.581
垢	-10.5822
紆	-10.5824
征伐	-10.5826
潦	-10.5826
待之	-10.5831
滂	-10.5832
暨	-10.5832
大明	-10.5835
蓮花	-10.5838
四夷	-10.5842
馥	-10.585
僉	-10.5855
百五十	-10.5856
藏之	-10.5862
不必	-10.5865
所殺	-10.5873
位至	-10.5875
迅	-10.5885
三十里	-10.5886
𨕖	-10.5889
問其	-10.5891
之服	-10.5893
梁武帝	-10.5894
皎	-10.5898
奎	-10.59
偕	-10.5901
仞	-10.5902
人名	-10.5905
為天下	-10.5906
不就	-10.5907
項羽	-10.5908
有道	-10.5909
亦無	-10.5914
它	-10.5915
武昌	-10.5919
黄河	-10.592
僮	-10.5926
忤	-10.5933
因名	-10.5944
緝	-10.5947
之主	-10.5947
畨	-10.5947
長子	-10.5953
不可不	-10.5958
騁	-10.596
槃	-10.5965
晞	-10.5965
斃	-10.597
之狀	-10.5973
真人	-10.5973
州人	-10.5975
年少	-10.5978
禮儀	-10.5981
渥	-10.5981
宣武	-10.5985
其色	-10.5985
施行	-10.5989
賦見	-10.5995
小者	-10.5998
一月	-10.5998
檜	-10.5999
爾雅曰	-10.6004
楚人	-10.6006
自有	-10.6006
韓信	-10.6015
蓬萊	-10.6018
列侯	-10.6018
劭	-10.6019
數百人	-10.6024
六尺	-10.6025
嫗	-10.6026
煖	-10.6028
江西	-10.603
𢃄	-10.6031
提舉	-10.6032
法度	-10.6034
樸	-10.6036
黄門侍郎	-10.6041
有事	-10.6044
後唐	-10.6046
騫	-10.6049
官至	-10.6053
金吾	-10.6053
籥	-10.6055
流水	-10.6055
鼈	-10.6056
夫婦	-10.606
杳	-10.606
舘	-10.6065
及諸	-10.6071
宋朝	-10.6074
大破之	-10.6076
以致	-10.6076
將帥	-10.6077
切集韻韻㑹	-10.6082
西漢	-10.6084
十九年	-10.6084
一千	-10.6089
蝕	-10.609
栁宗元	-10.6091
亦可	-10.6096
東陽	-10.6097
杜甫詩	-10.6097
喚	-10.6098
誇	-10.6099
闡	-10.6107
模	-10.6108
漂	-10.6115
晉王	-10.6116
九江	-10.6118
所司	-10.6126
其民	-10.6135
在此	-10.614
名為	-10.6157
唐虞	-10.6159
張説	-10.6165
噬	-10.6166
糞	-10.6168
糓	-10.6169
城下	-10.6171
道也	-10.6172
螺	-10.6174
水旱	-10.6187
不已	-10.6189
以獻	-10.6193
濛	-10.6194
之計	-10.6199
寘	-10.6201
▁杜甫	-10.6208
天命	-10.6208
不知所	-10.6208
鎧	-10.621
挈	-10.6212
則無	-10.6213
爼	-10.6215
帝即位	-10.6216
出為	-10.6217
禮也	-10.6219
殯	-10.6223
遣人	-10.6229
甌	-10.6237
五尺	-10.6242
若不	-10.6242
参	-10.6242
廂	-10.6242
聰明	-10.6242
悍	-10.6244
安定	-10.6248
以象	-10.6248
南越	-10.6251
玠	-10.6252
伊尹	-10.6252
瑾	-10.6252
骸	-10.6256
有石	-10.626
王室	-10.626
夏至	-10.6261
鞅	-10.6274
司馬相如	-10.6274
賄	-10.6275
粤	-10.6277
琢	-10.6278
本紀	-10.6287
寒食	-10.629
慚	-10.6294
礪	-10.6295
王師	-10.6296
為國	-10.63
八卦	-10.6302
相望	-10.6309
熹	-10.631
鷗	-10.631
生子	-10.631
其志	-10.632
紺	-10.6327
訣	-10.6328
城東	-10.6331
訛	-10.6334
固辭	-10.6335
秦始皇	-10.6335
烽	-10.6336
啖	-10.6336
京城	-10.634
閎	-10.6341
嚮	-10.6342
周易	-10.6342
元帥	-10.6346
堵	-10.6346
凋	-10.6347
然也	-10.6352
嫡	-10.6357
莊宗	-10.6358
之說	-10.6358
鄭𤣥	-10.636
幄	-10.636
歴代	-10.6361
而得	-10.6361
氊	-10.6362
金陵	-10.6363
黄庭堅	-10.6364
其義	-10.6365
柘	-10.6367
三國	-10.6373
犧	-10.6374
怡	-10.6376
已而	-10.6376
粧	-10.6377
瘡	-10.6379
蟄	-10.638
坂	-10.6382
須臾	-10.6388
鶉	-10.6388
一寸	-10.6401
砥	-10.6403
明經	-10.6403
鉛	-10.6409
兄子	-10.6412
晷	-10.6413
百僚	-10.6417
妍	-10.6423
縣西	-10.6424
字文	-10.6424
應劭	-10.6429
亦以	-10.6432
劉氏	-10.6433
子路	-10.6438
不能自	-10.6439
隘	-10.6446
神龍	-10.6447
杜預	-10.6448
拊	-10.6448
鑾	-10.6448
豎	-10.6453
詹	-10.6454
萬世	-10.6455
斾	-10.6457
作丨丨	-10.6459
王安石	-10.6461
愿	-10.647
袂	-10.6474
詩話	-10.6477
褥	-10.6478
故謂之	-10.648
嬴	-10.6484
篋	-10.6485
於地	-10.6488
雲中	-10.649
直言	-10.6493
若夫	-10.6494
謐	-10.6496
無有	-10.6506
衣食	-10.6506
慿	-10.6507
叡	-10.6508
曵	-10.6516
此人	-10.6518
水火	-10.6525
濶	-10.6526
瘦	-10.6529
麓	-10.6529
巒	-10.6532
昂	-10.6533
其才	-10.6546
開府	-10.6546
弭	-10.6548
縠	-10.6548
萬石	-10.6548
常山	-10.6549
顥	-10.6549
千秋	-10.6551
白玉	-10.6551
所用	-10.6552
中大夫	-10.6554
畋	-10.6554
迄	-10.6555
諫議大夫	-10.6556
王孫	-10.6557
妬	-10.6557
療	-10.6563
十六年	-10.6565
相去	-10.6565
菴	-10.6569
無常	-10.6571
城郭	-10.6575
宗紀	-10.6581
矣然	-10.6581
蛤	-10.6582
邾	-10.6584
覧	-10.6585
鵬	-10.6589
必先	-10.6593
天竺	-10.6595
居之	-10.6597
公羊	-10.6599
詩書	-10.66
遶	-10.6604
恊	-10.6607
忽有	-10.661
后稷	-10.661
伶	-10.661
長樂	-10.6615
茗	-10.6617
蹤	-10.6623
鈔	-10.6624
金史	-10.6628
陸龜蒙	-10.6631
曄	-10.6635
武子	-10.6635
之理	-10.6636
猗	-10.6637
蓍	-10.6642
雩	-10.6646
軀	-10.6647
冊府元龜	-10.6648
疫	-10.6649
陽氣	-10.6649
為上	-10.6651
河圖	-10.6658
森	-10.6659
河陽	-10.666
駮	-10.6664
奐	-10.6667
倪	-10.6668
千年	-10.6673
為丞相	-10.6675
酈	-10.6675
廩	-10.6676
蕭何	-10.668
蠻夷	-10.6685
燥	-10.6688
之弊	-10.6697
戌	-10.6702
屍	-10.6702
明一統志丨丨	-10.6703
轉運	-10.6704
成功	-10.6707
何謂	-10.6708
鳯凰	-10.6709
近臣	-10.6718
冡	-10.672
更始	-10.6721
掛	-10.6726
字元	-10.6727
說文	-10.6728
論曰	-10.673
累遷	-10.6731
以相	-10.6732
楓	-10.6735
廹	-10.6741
人謂之	-10.6741
紇	-10.6743
亳	-10.6745
其能	-10.6749
殻	-10.6753
乃得	-10.6754
𤼵	-10.6758
三王	-10.6763
庇	-10.6766
豈非	-10.6767
或問	-10.6768
曳	-10.6769
鄉人	-10.6773
妝	-10.6774
宗伯	-10.6774
頥	-10.6775
利害	-10.6776
參差	-10.6779
魏王	-10.678
麒麟	-10.6782
鮑照	-10.6784
一枝	-10.6787
海中	-10.6787
廐	-10.6787
屐	-10.6787
輯	-10.6787
其職	-10.6791
無益	-10.6791
墨子	-10.6795
禮義	-10.6796
其次	-10.6797
江左	-10.6798
漠	-10.6799
頽	-10.6803
家有	-10.6804
佑	-10.6806
賞罰	-10.6808
在上	-10.6811
兕	-10.6811
嘗與	-10.6812
悖	-10.6814
髯	-10.6816
物也	-10.6824
二十八	-10.6825
十卷	-10.6826
曰吾聞	-10.6827
殿下	-10.6827
甚衆	-10.6831
先君	-10.6832
而進	-10.6834
記室	-10.6838
釋之	-10.6839
言語	-10.684
上詳	-10.6846
必以	-10.6847
馨	-10.6852
百七十	-10.6853
弑	-10.6854
王母	-10.6856
相繼	-10.6868
搜	-10.687
宜令	-10.6874
人家	-10.6875
藹	-10.6878
中書門下	-10.6878
不待	-10.688
伽	-10.6883
揚子	-10.6887
而言	-10.6887
所出	-10.6889
艦	-10.6891
内侍	-10.6892
弧	-10.6896
之學	-10.6897
騶	-10.6903
嵇	-10.6903
乃令	-10.6905
噉	-10.6905
緇	-10.6907
槩	-10.6909
中原	-10.6909
栽	-10.6909
怖	-10.6915
無私	-10.6917
杼	-10.6917
張說	-10.6918
埤雅	-10.6918
師道	-10.692
六合	-10.6921
械	-10.6921
後有	-10.6924
搖	-10.6924
於世	-10.6927
其利	-10.6927
未聞	-10.6934
迦	-10.6934
東觀漢記曰	-10.6935
曰是	-10.6939
在外	-10.6942
水經	-10.6945
諸司	-10.6952
剡	-10.6954
官吏	-10.6958
于此	-10.696
涵	-10.6961
十餘萬	-10.6962
溟	-10.6964
蹙	-10.6969
五曰	-10.6971
奴婢	-10.6974
蚌	-10.6978
精神	-10.698
燔	-10.6981
而反	-10.6981
劫	-10.6984
餓	-10.6987
者所以	-10.6989
弃	-10.699
顓頊	-10.6994
東京	-10.6994
景公	-10.6997
事君	-10.6997
名山	-10.7001
木為	-10.7017
至孝	-10.7019
侔	-10.7021
槖	-10.7023
囿	-10.7026
蓼	-10.7031
玉堂	-10.7033
十有二	-10.7034
望見	-10.7035
郵	-10.7037
縣東	-10.7038
正色	-10.704
叩頭	-10.7042
行事	-10.7044
此則	-10.7044
所知	-10.7044
眺	-10.7046
四品	-10.7047
旃	-10.7047
王道	-10.705
廣漢	-10.7051
寝	-10.7056
秋日	-10.7056
弘	-10.7057
笥	-10.7061
瀛	-10.7064
聖王	-10.7064
肌	-10.7065
東平	-10.7069
三十年	-10.7069
嘉祐	-10.707
挹	-10.7076
錦繡	-10.7076
所由	-10.7077
跋	-10.7078
曰善	-10.708
衛尉	-10.7082
皁	-10.7087
荆州刺史	-10.7088
救之	-10.709
頤	-10.7091
王元	-10.7096
衆人	-10.7102
師古曰	-10.7112
衷	-10.7116
吠	-10.7116
陸游詩	-10.7119
之音	-10.712
以報	-10.712
壮	-10.7122
十七年	-10.7122
江水	-10.7126
販	-10.7126
軒轅	-10.7131
起居注	-10.7132
於民	-10.7132
綃	-10.7138
亘	-10.7139
奬	-10.714
當以	-10.714
虬	-10.7144
琬	-10.7145
史官	-10.7145
昶	-10.7145
敢不	-10.7147
南郡	-10.7149
瑣	-10.7156
建康	-10.7157
巽	-10.7159
江湖	-10.7166
怒曰	-10.7167
未見	-10.7171
叔向	-10.7178
惶	-10.7179
遙	-10.7182
百九十	-10.7183
惻	-10.7184
杲	-10.7189
駁	-10.719
昊	-10.7192
其本	-10.7192
岫	-10.7195
供奉	-10.7196
國王	-10.7202
灾	-10.7205
前代	-10.7207
渡江	-10.7208
水上	-10.7209
六典	-10.7211
莫之	-10.7212
遺事	-10.7217
蘋	-10.7218
彧	-10.7218
珠玉	-10.7226
奉使	-10.7228
不止	-10.723
蚊	-10.7235
亦如之	-10.7236
珥	-10.7239
諸國	-10.724
懐詩	-10.7243
武帝時	-10.7245
虎賁	-10.7248
第四	-10.7248
數人	-10.725
不祥	-10.725
家語	-10.7252
寗	-10.7252
者乃	-10.7254
汶	-10.7255
太康	-10.7256
秦漢	-10.7256
大抵	-10.7256
寰	-10.7256
之末	-10.7258
鴛鴦	-10.7258
醇	-10.7259
兵部	-10.7263
徂	-10.727
數十人	-10.7274
印綬	-10.7275
娘	-10.7277
古文	-10.728
公事	-10.7283
吳王	-10.7284
無遺	-10.7286
侯景	-10.7288
有六	-10.7289
令尹	-10.7291
菩薩	-10.7291
媒	-10.7292
琉璃	-10.7296
百四十	-10.7298
為君	-10.73
胷	-10.7303
制曰	-10.7306
之矣	-10.7306
奏請	-10.7307
軍士	-10.7308
昉	-10.7308
喙	-10.731
外戚	-10.731
紘	-10.7315
之師	-10.7317
鍊	-10.7321
而不可	-10.7322
人謂	-10.7322
玊	-10.7326
陞	-10.7326
何故	-10.7332
狡	-10.7332
陽城	-10.7335
蹕	-10.7336
其君	-10.7338
袒	-10.7339
雖不	-10.7342
北斗	-10.7345
稱之	-10.7346
特進	-10.7346
不善	-10.7349
議郎	-10.735
金城	-10.7351
猥	-10.7357
眇	-10.7361
瞽	-10.7363
北面	-10.7369
諫曰	-10.7371
一言	-10.7372
蛾	-10.7372
確	-10.7381
墾	-10.7381
而至	-10.7387
二萬	-10.7391
俛	-10.7391
徇	-10.7393
之長	-10.7396
穰	-10.74
無忌	-10.7401
畤	-10.7407
欲令	-10.741
猪	-10.741
者三	-10.7414
駝	-10.7415
若是	-10.7415
衣裳	-10.7417
紈	-10.7421
桓温	-10.7422
繹	-10.7424
乃使	-10.7425
造化	-10.7427
以前	-10.7431
噫	-10.7433
既至	-10.7435
中人	-10.7435
所見	-10.7437
洩	-10.7438
▁又曰	-10.7439
頑	-10.744
詵	-10.7441
内有	-10.7441
後人	-10.7442
開皇	-10.7445
后土	-10.7447
釡	-10.7449
任昉	-10.745
而未	-10.745
有神	-10.7451
萇	-10.7451
鯨	-10.7453
之亂	-10.7457
圉	-10.7461
彘	-10.7465
涸	-10.7466
清明	-10.7468
上黨	-10.747
禆	-10.7474
道徳	-10.7474
二十七	-10.7483
薊	-10.7484
叔父	-10.7489
昊天	-10.7495
牝	-10.75
世子	-10.7503
浙	-10.7506
遂為	-10.7507
可見	-10.7518
天監	-10.7518
相對	-10.7519
民間	-10.7522
獨孤	-10.7524
久矣	-10.7525
未盡	-10.7532
軍旅	-10.7534
靈帝	-10.7538
黯	-10.7538
佚	-10.7539
浣	-10.7541
騐	-10.7541
瘞	-10.7542
)○	-10.7545
砌	-10.7546
天台	-10.7546
其衆	-10.7552
以明	-10.7556
自謂	-10.756
不得已	-10.7562
鍼	-10.7562
實録	-10.7563
縞	-10.7566
也吾	-10.7572
嵇康	-10.7573
峭	-10.7577
鴉	-10.7578
别駕	-10.7582
其數	-10.7585
一物	-10.759
知人	-10.7592
關中	-10.7602
也且	-10.761
姻	-10.7612
世說	-10.7612
教之	-10.7618
四尺	-10.7621
朝野	-10.7623
闗中	-10.7623
穆公	-10.7624
七十二	-10.7626
氛	-10.7632
經史	-10.7633
陰陽	-10.7636
之性	-10.7641
選舉	-10.7642
莊子曰	-10.7643
芸	-10.7645
朝服	-10.7648
岩	-10.7658
補闕	-10.7664
加以	-10.7666
若乃	-10.7667
縱横	-10.7667
兵法	-10.7673
百六十	-10.7674
緡	-10.7676
長生	-10.7678
之形	-10.7678
寥	-10.7679
之號	-10.7681
峴	-10.7683
▁王	-10.7684
逞	-10.7686
遞	-10.7687
大國	-10.7695
雲笈七籖	-10.7696
南齊	-10.7697
盗賊	-10.77
職事	-10.7701
懇	-10.7704
冗	-10.7709
羗	-10.7711
襄公	-10.7719
賢人	-10.7719
汜	-10.7719
賜以	-10.7728
禎	-10.7731
侍宴	-10.7736
齧	-10.7737
河南尹	-10.7737
佇	-10.7739
漬	-10.7745
一家	-10.7746
殄	-10.7746
夜半	-10.7746
臨川	-10.7749
天官	-10.775
張九齡	-10.775
弓矢	-10.7754
六品	-10.7755
滎陽	-10.7756
鼓吹	-10.776
三老	-10.7761
南面	-10.7764
親戚	-10.7764
賜爵	-10.7768
竒之	-10.7769
得罪	-10.777
不改	-10.777
二十餘	-10.7774
東門	-10.7774
麴	-10.7774
粱	-10.7776
白虎通	-10.7778
賢良	-10.7781
逄	-10.7783
作樂	-10.7784
於朝	-10.7787
矣而	-10.7791
宣子	-10.7791
棋	-10.7792
常有	-10.7799
之業	-10.78
六經	-10.7801
桃李	-10.7802
而上	-10.7804
𥙷藻	-10.7805
武功	-10.7807
頰	-10.7807
說文曰	-10.7811
人掌	-10.7813
從者	-10.7819
▁劉	-10.7823
上天	-10.7823
中使	-10.7824
裾	-10.7824
乗輿	-10.7826
有白	-10.783
百二十	-10.783
讌	-10.7832
㡌	-10.7836
吾子	-10.7836
所欲	-10.7839
光明	-10.784
涓	-10.784
耽	-10.7841
十八年	-10.7843
欠	-10.7846
數月	-10.7846
西王母	-10.7849
說苑	-10.785
竟不	-10.7851
釋名曰	-10.7862
所至	-10.7863
豫州	-10.7864
能為	-10.7878
扣	-10.7896
薰	-10.7897
百寮	-10.7897
有疾	-10.7898
丈餘	-10.7898
此言	-10.7899
者何	-10.79
晋書	-10.79
守之	-10.7903
壹	-10.7906
樂志	-10.7907
之恩	-10.7907
辟雍	-10.7911
視其	-10.7921
卭	-10.7925
公私	-10.7926
梗	-10.7931
號令	-10.7932
陜西	-10.7934
馬援	-10.7935
畦	-10.7936
猶未	-10.7937
抄	-10.7938
梁王	-10.794
穗	-10.7942
未得	-10.7947
隗	-10.7947
伏羲	-10.7956
欲得	-10.7956
有差	-10.7958
禮記曰	-10.7958
渡河	-10.7962
儒者	-10.7975
風俗通	-10.7975
庠	-10.798
表曰	-10.798
燃	-10.7981
鳳凰	-10.7986
夏日	-10.7988
球	-10.7992
中軍	-10.7995
骨肉	-10.7999
可用	-10.8
户部	-10.8007
曰某	-10.8009
一字	-10.801
鏘	-10.8014
安帝	-10.8018
大人	-10.8018
李氏	-10.8022
五里	-10.8025
自言	-10.8029
摯	-10.8029
明宗	-10.8032
惰	-10.8033
五六	-10.8039
譴	-10.804
▁唐書	-10.8046
長孫	-10.8046
善惡	-10.805
酪	-10.805
魏武	-10.8052
酺	-10.8053
甚多	-10.8053
啇	-10.8061
撲	-10.8067
而天下	-10.807
瀾	-10.8073
様	-10.8073
字叔	-10.8073
章帝	-10.8078
髓	-10.8084
楯	-10.8085
蕊	-10.8086
不加	-10.8086
長短	-10.8089
千户	-10.8094
曰天子	-10.8097
名臣	-10.8099
大功	-10.8101
埽	-10.8102
元年正月	-10.8104
九品	-10.8105
史館	-10.8106
論衡	-10.8107
盎	-10.8107
日出	-10.8107
昴	-10.811
而求	-10.811
股肱	-10.8111
夘	-10.8112
侍讀	-10.8117
黛	-10.8125
隰	-10.813
不去	-10.8132
於時	-10.8135
羨	-10.8137
鄭氏	-10.8137
白鹿	-10.8139
大軍	-10.8141
自知	-10.8142
鎬	-10.8147
之域	-10.8147
其道	-10.8148
于時	-10.8148
將兵	-10.8152
猴	-10.8154
不解	-10.8155
書記	-10.8159
鬛	-10.816
諤	-10.8166
堡	-10.8166
鶻	-10.817
中郎	-10.8171
不避	-10.8174
易曰	-10.8179
而致	-10.8185
暈	-10.8186
傳注	-10.8192
所言	-10.8195
稔	-10.82
受其	-10.8203
棃	-10.8205
稱為	-10.8208
宼	-10.8212
四寸	-10.8221
毬	-10.8221
始於	-10.8221
鴻臚	-10.8222
歎息	-10.8223
同心	-10.8224
於道	-10.8225
有常	-10.8225
▁宋史	-10.8228
為主	-10.8228
艶	-10.8229
瘠	-10.8229
筒	-10.823
章句	-10.8235
所以為	-10.8239
重之	-10.8239
政和	-10.8239
後宫	-10.8248
廬江	-10.8249
獨不	-10.8251
而卒	-10.8255
與語	-10.8255
錐	-10.8256
即日	-10.8256
脣	-10.8256
下詔	-10.826
自殺	-10.826
大喜	-10.8262
當為	-10.8263
題詩	-10.8263
日暮	-10.8263
青雲	-10.8268
䘏	-10.8272
儔	-10.8273
宋史樂志	-10.8274
煑	-10.8277
脾	-10.828
瑗	-10.828
以賜	-10.8281
枝葉	-10.8282
在前	-10.8283
盜賊	-10.8285
虗	-10.829
襄王	-10.8292
爲之	-10.8293
膾	-10.8296
刑部	-10.8297
安能	-10.8298
簮	-10.8298
人倫	-10.8299
惇	-10.8301
闌	-10.8307
馬融	-10.8307
狥	-10.8309
聖賢	-10.8314
愬	-10.8315
屈原	-10.8316
六軍	-10.8317
飾以	-10.8317
為我	-10.8319
二尺	-10.832
五榖	-10.8322
謂之曰	-10.8326
𢎞農	-10.8326
乾元	-10.8327
賞賜	-10.8328
卉	-10.8329
至徳	-10.8329
儻	-10.833
喉	-10.8337
安樂	-10.8338
郡公	-10.8339
逖	-10.834
無他	-10.834
大旱	-10.8347
哀公	-10.8351
明府	-10.8357
青龍	-10.8357
緘	-10.8358
何足	-10.8359
叔孫	-10.8362
禪師	-10.8366
損益	-10.8367
其法	-10.8369
城北	-10.8376
更名	-10.8377
筐	-10.8378
拍	-10.8381
傭	-10.8385
携	-10.8393
莎	-10.8394
薫	-10.8396
棹	-10.84
飭	-10.84
曽子	-10.8401
雲氣	-10.8404
願陛下	-10.8408
不暇	-10.8409
迺	-10.841
之神	-10.8412
荆公	-10.8412
安撫	-10.8414
復有	-10.8416
前有	-10.842
誅之	-10.842
行者	-10.8421
指揮	-10.8422
色如	-10.8428
侍講	-10.8429
縳	-10.8432
遑	-10.8433
罽	-10.8436
在天	-10.8439
當有	-10.8441
未幾	-10.8442
蔗	-10.8444
丨丨丨丨丨丨丨	-10.8444
舊事	-10.8448
海上	-10.8448
鋤	-10.8451
之遺	-10.8454
而民	-10.8457
高宗	-10.846
不息	-10.8464
扁	-10.8474
牛馬	-10.848
都官	-10.848
欲使	-10.8483
有詔	-10.8484
航	-10.8486
懋	-10.8488
拭	-10.8489
㓕	-10.849
光禄	-10.849
蝦	-10.849
湜	-10.849
挫	-10.8494
終始	-10.8499
河水	-10.8501
止於	-10.8507
王制	-10.8507
尖	-10.8508
紳	-10.8511
兇	-10.8512
誌	-10.8513
文書	-10.8514
年老	-10.8515
惠帝	-10.8519
崑	-10.8524
透	-10.853
納之	-10.8532
依舊	-10.8533
建中	-10.8534
墉	-10.8535
以来	-10.8536
禮之	-10.8538
之要	-10.854
鮮卑	-10.854
濳	-10.8545
有九	-10.8546
而作	-10.855
斬首	-10.8551
謳	-10.8558
訥	-10.8561
鹵	-10.8562
韻㑹	-10.8563
多矣	-10.8568
死而	-10.8571
又何	-10.8574
刁	-10.8575
巵	-10.8581
侍從	-10.8581
於庭	-10.8584
厄	-10.8584
晉人	-10.8586
衡山	-10.8588
芥	-10.859
長城	-10.8593
法令	-10.8595
食邑	-10.8597
以給	-10.8598
而弗	-10.8599
劵	-10.8599
一嵗	-10.8599
縣南	-10.8607
玉海	-10.8608
謝安	-10.861
倩	-10.861
晃	-10.8612
弇	-10.8615
捲	-10.8617
墀	-10.8618
待詔	-10.8619
昆弟	-10.8619
此皆	-10.8624
娛	-10.8626
曲江	-10.8627
為郎	-10.8628
炬	-10.8629
五十里	-10.863
藁	-10.863
桓帝	-10.8632
次韻	-10.8632
亦作	-10.8635
認	-10.8638
塹	-10.8641
豁	-10.8648
穫	-10.8656
無敢	-10.8656
摇	-10.8656
孺子	-10.8664
萬户	-10.8666
元日	-10.8667
江上	-10.8672
也遂	-10.8677
之儀	-10.8677
不可勝	-10.8677
愽	-10.8679
千五百	-10.8682
五百里	-10.8682
三世	-10.8683
悵	-10.8684
刑罰	-10.8686
寨	-10.8691
衘	-10.8691
太上	-10.8691
承天	-10.8694
因其	-10.8695
戰於	-10.8696
其勢	-10.8697
侍臣	-10.8697
旌旗	-10.8697
韓魏	-10.8697
嘗有	-10.8699
為司徒	-10.8703
痕	-10.8706
左僕射	-10.8706
孽	-10.8706
阮籍	-10.8707
故云	-10.871
鄆	-10.8711
壯士	-10.8713
知制誥	-10.8715
中正	-10.8717
彥	-10.8717
蒐	-10.8717
塩	-10.8719
人生	-10.8722
忠信	-10.8727
太清	-10.8729
處分	-10.8731
宦者	-10.8732
失之	-10.8733
岑參	-10.8734
十餘人	-10.8735
行營	-10.8742
干戈	-10.8743
吝	-10.8745
笳	-10.8746
丨又	-10.8746
觜	-10.875
顆	-10.8751
糜	-10.8752
濱	-10.8753
唾	-10.8755
入于	-10.8755
泌	-10.8757
盂	-10.8757
百餘里	-10.8758
未嘗不	-10.876
牛羊	-10.8762
蠱	-10.8764
江海	-10.8765
穆宗	-10.8765
外國	-10.8768
宋玉	-10.8768
奉天	-10.8774
不起	-10.8776
此乃	-10.8777
梢	-10.8778
鑄錢	-10.8783
不安	-10.8786
悠悠	-10.8788
玉女	-10.8789
灣	-10.8789
慷慨	-10.8789
馮翊	-10.879
一篇	-10.8791
王命	-10.8793
揭	-10.8794
下車	-10.8798
山澤	-10.8798
數千人	-10.8802
洪範	-10.8803
猾	-10.8804
陳書	-10.8806
皇朝	-10.8812
六百	-10.8814
八人	-10.8815
於是乎	-10.8816
以身	-10.8817
分野	-10.8817
驃騎	-10.8818
衾	-10.8819
百一十	-10.882
茵	-10.8826
溥	-10.8829
榛	-10.883
封侯	-10.8831
奉詔	-10.8833
詣闕	-10.8835
魏志曰	-10.8838
以兵	-10.8847
孝宗	-10.8847
慶厯	-10.8848
尚書省	-10.8848
黄龍	-10.885
凄	-10.8851
韓非子	-10.8858
唐李	-10.8858
順帝	-10.8863
風雲	-10.8863
鄭伯	-10.8864
蒼梧	-10.887
北山	-10.887
置之	-10.8871
鹽鐵	-10.8871
諮	-10.8872
不問	-10.8872
貴妃	-10.8876
而食	-10.8877
髙下	-10.8877
中庸	-10.8877
朶	-10.888
棄之	-10.888
盃	-10.888
嘉禾	-10.8881
可使	-10.8882
鎖	-10.8883
茲	-10.8889
肴	-10.8889
之體	-10.8889
將以	-10.889
駑	-10.8891
捍	-10.8894
他人	-10.8894
▁白居易	-10.89
示之	-10.89
南宫	-10.891
三百六十	-10.8916
產	-10.8916
纖	-10.8917
陁	-10.8919
珊瑚	-10.8924
雖然	-10.8924
沛公	-10.8925
可以為	-10.8926
不測	-10.8928
䕶軍	-10.893
菲	-10.8934
不獲	-10.8936
人之所	-10.894
轉運使	-10.8944
嘗為	-10.8944
無可	-10.8947
蔑	-10.8948
莢	-10.8949
焦氏易林	-10.8953
子夏	-10.8955
神人	-10.8956
璫	-10.8957
柑	-10.8958
於内	-10.8959
安石	-10.8966
大赦	-10.8968
鈿	-10.897
裴度	-10.8971
魏晉	-10.8974
天寶	-10.8977
會稽	-10.8982
遯	-10.8986
插	-10.8987
其門	-10.8992
赭	-10.8993
退而	-10.8995
觀者	-10.8998
醪	-10.8999
王褒	-10.9001
無罪	-10.9003
朝士	-10.9005
李商隠	-10.9005
踞	-10.9006
誰能	-10.9006
一石	-10.9007
太一	-10.9008
圖書	-10.9009
之禍	-10.9009
六人	-10.9012
艱難	-10.9015
則是	-10.902
不樂	-10.9022
五官	-10.9022
二州	-10.9025
呵	-10.9028
朝㑹	-10.9028
州都督	-10.9029
之辭	-10.9033
山海經曰	-10.9033
腎	-10.9034
於齊	-10.9035
糟	-10.9035
拓	-10.904
丨丨兮	-10.9043
大義	-10.9044
所部	-10.9045
匝	-10.9046
萬嵗	-10.9048
大都督	-10.9051
大司農	-10.9053
夷狄	-10.9059
襦	-10.906
州牧	-10.906
薇	-10.906
功名	-10.9063
聮	-10.9065
為司	-10.9066
惕	-10.9067
而來	-10.9067
引兵	-10.9077
琴瑟	-10.9078
矣今	-10.908
鄭谷	-10.908
使持節	-10.9083
舉兵	-10.9087
薑	-10.9091
昭公	-10.9095
王粲	-10.9098
矣夫	-10.9098
者以為	-10.91
捜	-10.9101
師曠	-10.9104
曺	-10.9107
小字	-10.9108
翥	-10.9113
大雨	-10.9114
至矣	-10.9115
莊公	-10.9115
歌舞	-10.9118
腥	-10.9124
鏗	-10.9126
説苑	-10.9128
吕氏春秋	-10.9132
矣故	-10.9133
視事	-10.9134
轄	-10.9135
責之	-10.9137
貢舉	-10.9142
一夕	-10.9142
其首	-10.9144
鳶	-10.9148
臯陶	-10.9154
之憂	-10.9156
無功	-10.916
之㑹	-10.9174
城縣	-10.9176
惟有	-10.9178
芋	-10.9181
宿衛	-10.9182
劣	-10.9183
文昌	-10.9186
諸路	-10.9188
軍國	-10.9188
愛其	-10.9192
三十二	-10.9192
南康	-10.9196
刪	-10.9197
倖	-10.92
琅邪	-10.92
父兄	-10.9201
二十二	-10.9204
立功	-10.9204
賦云	-10.9208
之實	-10.9211
淄	-10.9215
諸郡	-10.9218
傳論	-10.9223
而欲	-10.9228
宣宗	-10.9232
云此	-10.9241
雹	-10.9241
聿	-10.9243
匏	-10.9243
劉長卿	-10.9244
攬	-10.9245
無道	-10.9246
王府	-10.9246
懈	-10.9249
十數	-10.925
朝臣	-10.9251
公侯	-10.9254
嬉	-10.9255
皂	-10.9255
浮雲	-10.9255
者即	-10.9258
㕘	-10.9261
曝	-10.9265
盍	-10.9269
樹下	-10.9272
國用	-10.9274
養之	-10.9275
涌	-10.9275
入海	-10.9277
耦	-10.9278
於後	-10.928
歸於	-10.9286
以正	-10.9291
王導	-10.9292
幢	-10.9292
幕府	-10.9293
貍	-10.9295
廡	-10.9295
初置	-10.9297
嫂	-10.9298
著作	-10.9299
謂人曰	-10.9301
紐	-10.9306
為尚書	-10.9307
漢之	-10.9307
孟嘗君	-10.9311
其弟	-10.9313
蜃	-10.9315
生而	-10.9316
刻石	-10.9317
椽	-10.932
集賢	-10.9321
常平	-10.9324
柵	-10.9327
漢興	-10.9328
而起	-10.9333
宓	-10.9335
𣙜	-10.9337
太陽	-10.934
縹	-10.9343
釋奠	-10.9344
不明	-10.9351
二十一	-10.9353
禮志	-10.9353
紛紛	-10.9356
澆	-10.9357
百家	-10.9365
罄	-10.9366
一枚	-10.9371
御史臺	-10.9374
奈	-10.9381
乗馬	-10.9383
而已矣	-10.9384
士人	-10.9385
后妃	-10.9387
於河	-10.9389
瓚	-10.9396
麤	-10.94
祜	-10.94
輔政	-10.9401
行臺	-10.9405
發兵	-10.9408
因而	-10.9411
八尺	-10.9412
哀帝	-10.9413
靄	-10.9413
去之	-10.9415
立於	-10.9415
逍遥	-10.9417
之門	-10.9418
或謂	-10.9423
葺	-10.9426
二十三	-10.9434
作亂	-10.9437
車騎將軍	-10.9446
與我	-10.9446
太武	-10.9447
不下	-10.9451
丹青	-10.9453
諸軍事	-10.9458
韭	-10.946
牽牛	-10.946
嬖	-10.9462
山堂肆考	-10.9468
蘇軾詩	-10.947
疾病	-10.9472
莫如	-10.948
安世	-10.948
璜	-10.9481
淳化	-10.9482
絺	-10.9483
二日	-10.9486
嵩山	-10.9489
李徳裕	-10.9489
壬	-10.9492
靑	-10.9494
建元	-10.9496
于天	-10.9496
閉門	-10.95
之兵	-10.95
吏部郎	-10.9504
謝朓	-10.9505
考功	-10.9505
立春	-10.9506
録事	-10.9506
其先	-10.9511
錢塘	-10.9514
良久	-10.9515
職官志	-10.9515
蛟龍	-10.9519
孔雀	-10.9519
足矣	-10.952
蚤	-10.9523
詔令	-10.9527
夙夜	-10.9528
其屬	-10.9528
袁紹	-10.9529
麝	-10.953
諶	-10.953
稽首	-10.9531
王敦	-10.9531
祧	-10.9533
周旋	-10.9533
貺	-10.9534
訾	-10.9536
者得	-10.9541
猜	-10.9543
忠孝	-10.9544
祉	-10.9544
則民	-10.9547
地理	-10.9549
二寸	-10.9552
始興	-10.9553
簇	-10.9553
塊	-10.9554
何時	-10.9555
倣	-10.9555
攷	-10.9557
奔走	-10.9558
渝	-10.9562
交趾	-10.9567
土人	-10.9567
之費	-10.957
星辰	-10.9572
吏部侍郎	-10.9578
至尊	-10.9579
官制	-10.9579
鄭注	-10.9581
讜	-10.9585
間有	-10.9586
正直	-10.9588
王儉	-10.959
籙	-10.959
未足	-10.9596
刈	-10.9597
境内	-10.9601
樂天	-10.9602
郎官	-10.9604
石頭	-10.9606
洒	-10.9608
患之	-10.9613
裒	-10.9614
校書	-10.9615
睂	-10.9619
又置	-10.962
帯	-10.9623
所為	-10.9623
凉州	-10.9629
述異記	-10.9631
珣	-10.9634
朂	-10.9634
碣	-10.9644
笋	-10.9646
無所不	-10.9647
欹	-10.9654
不稱	-10.9657
鑠	-10.9659
傳初	-10.966
武德	-10.9665
有兩	-10.9671
燕王	-10.9673
潼	-10.9674
荼	-10.9676
牕	-10.9679
如丨丨	-10.9679
國初	-10.9681
埃	-10.9684
棣	-10.9686
七夕	-10.9688
熒惑	-10.9688
手足	-10.9695
藜	-10.9695
學校	-10.97
都䕶	-10.9702
猛獸	-10.9704
毓	-10.971
翡翠	-10.9717
禍福	-10.9722
同姓	-10.9724
弱冠	-10.9724
各有差	-10.9734
改元	-10.9735
慝	-10.9736
母曰	-10.9739
開元中	-10.9741
綦	-10.9741
㐮	-10.9743
柰	-10.9744
新羅	-10.9751
颺	-10.9753
盪	-10.9753
尊卑	-10.9755
臣竊	-10.9756
昔有	-10.9758
陸雲	-10.9758
撤	-10.9761
軻	-10.9764
春夏	-10.9767
大悦	-10.977
西征	-10.9771
踊	-10.9774
曩	-10.9775
儁	-10.9778
行幸	-10.9779
延夀	-10.9779
右僕射	-10.978
免官	-10.9782
殃	-10.9788
江漢	-10.9788
韓詩外傳	-10.9791
隴右	-10.9793
朋友	-10.9796
覈	-10.9797
因此	-10.9798
嵗時	-10.9798
亦名	-10.9798
豈能	-10.9802
不變	-10.9804
竪	-10.9806
禋	-10.9806
虎豹	-10.9807
數里	-10.981
石勒	-10.981
幔	-10.9812
縣北	-10.9813
太初	-10.9814
錡	-10.9815
瞿	-10.9817
城内	-10.9818
乃出	-10.9818
鬯	-10.982
亦何	-10.9822
宋之問	-10.9824
惠王	-10.9829
嗇	-10.983
即今	-10.9833
門生	-10.9836
夔	-10.9841
東風	-10.9841
當今	-10.9845
茸	-10.9847
為司空	-10.9854
有竒	-10.9862
隷	-10.9863
呌	-10.9872
二十九	-10.9877
山陽	-10.9878
㝷	-10.9879
從此	-10.9883
等皆	-10.9885
姓氏	-10.9887
箇	-10.9888
歷	-10.989
槍	-10.9894
殫	-10.9896
宣城	-10.9896
董仲舒	-10.9896
白石	-10.9899
分明	-10.9899
元好問	-10.9901
椿	-10.9902
𫝊曰	-10.9906
郡人	-10.9906
日月之	-10.9911
湍	-10.9912
汀	-10.9916
不滿	-10.992
朞	-10.9923
一品	-10.9926
得免	-10.9929
字公	-10.9931
不便	-10.9933
議論	-10.9936
而走	-10.994
進賢	-10.9941
賦序	-10.9942
堦	-10.9943
媿	-10.9944
慟	-10.9945
試之	-10.9945
峨	-10.9946
可觀	-10.9948
各以	-10.9948
藕	-10.995
店	-10.9953
渇	-10.9956
䜟	-10.9958
素問	-10.9959
即此	-10.9962
先後	-10.9964
濟南	-10.9965
霓	-10.9966
神仙傳	-10.9971
晁	-10.9976
鵰	-10.9977
堂上	-10.9979
於市	-10.9979
悠	-10.9987
祔	-10.9987
緜	-10.9989
范陽	-10.9989
南蠻	-10.9995
大同	-10.9996
觀察	-10.9997
恠	-10.9997
甑	-11
所能	-11.0002
載記	-11.0003
璘	-11.0005
四分	-11.001
將相	-11.0011
旻	-11.0011
北齊書	-11.0011
大風	-11.0012
李商隱	-11.0013
石榴	-11.0017
扆	-11.0021
軍節度使	-11.0024
起兵	-11.0026
與弟	-11.0026
旬日	-11.0034
曰今日	-11.004
顔延之	-11.004
武庫	-11.0047
躁	-11.0049
腹心	-11.005
皇子	-11.0052
宗族	-11.0052
著作郎	-11.0057
摭	-11.0058
陳平	-11.0059
大呼	-11.006
之謀	-11.0061
商賈	-11.0062
漢末	-11.0064
盲	-11.0066
㪚	-11.0067
可愛	-11.0068
紀綱	-11.0069
從弟	-11.007
古今注	-11.0072
舉進士	-11.0073
建炎	-11.0077
两	-11.0083
脆	-11.0084
粮	-11.0087
秃	-11.0087
隂陽之	-11.0088
靈臺	-11.009
臣下	-11.0093
葩	-11.0094
不須	-11.0097
批	-11.0098
蒯	-11.0099
輻	-11.0111
蠡	-11.0118
欣然	-11.0119
或作	-11.0123
之異	-11.0126
教化	-11.0129
昬	-11.013
閬	-11.0132
吸	-11.014
詹事	-11.0147
溜	-11.015
東山	-11.0151
之妙	-11.0152
礙	-11.0155
毳	-11.016
愉	-11.0163
陶侃	-11.0166
之分	-11.0167
梳	-11.0169
祥符	-11.017
治天下	-11.0171
彖	-11.0172
酒酣	-11.0174
霍光	-11.0175
董卓	-11.0178
雞鳴	-11.0185
邃	-11.0186
七尺	-11.0188
乎對曰	-11.0195
六寸	-11.0196
形似	-11.0197
一等	-11.0203
醬	-11.0206
櫻桃	-11.0213
不畏	-11.0216
可得而	-11.0217
嘗謂	-11.0217
不敬	-11.0218
鍾離	-11.022
之流	-11.0226
表裏	-11.0228
和氣	-11.0228
臨海	-11.0229
伯夷	-11.0235
飛去	-11.0235
墅	-11.024
湖南	-11.024
髀	-11.0245
不求	-11.0248
樂章	-11.025
荘子	-11.0253
丨詳	-11.0254
孟浩然	-11.0254
唇	-11.0256
二女	-11.0259
盧綸	-11.026
孫子	-11.0262
二十里	-11.0262
柳宗元	-11.0266
財物	-11.0269
州節度使	-11.0271
華陽	-11.0271
江州	-11.0272
十丈	-11.0275
智者	-11.0282
蘇秦	-11.0282
禮畢	-11.0287
臼	-11.0287
蚩尤	-11.029
涕泣	-11.0292
西戎	-11.0294
上䟽	-11.0295
以手	-11.0298
兊	-11.03
山河	-11.03
貧賤	-11.0304
郝	-11.0306
眩	-11.0311
德宗	-11.0311
深入	-11.0313
彞	-11.0316
征西	-11.0317
紵	-11.0317
覿	-11.032
同時	-11.0322
大戴禮	-11.0326
萬餘人	-11.0328
瘴	-11.0336
鹵簿	-11.0339
鑰	-11.0339
子胥	-11.035
大學	-11.0351
江總	-11.0354
大司徒	-11.0355
是何	-11.0357
諫官	-11.0358
識者	-11.0358
切集韻	-11.0358
竽	-11.0359
開府儀同三司	-11.0361
修撰	-11.0368
永明	-11.0371
泓	-11.0373
罹	-11.0376
宫殿	-11.0378
方今	-11.0378
莫若	-11.0379
▁蘇軾	-11.0384
魴	-11.0387
豬	-11.0392
吁	-11.0393
太府	-11.0393
售	-11.0394
西湖	-11.0396
承㫖	-11.0398
昭帝	-11.04
官軍	-11.0405
姒	-11.0406
又名	-11.0407
郅	-11.0408
次第	-11.0411
髠	-11.0412
砂	-11.0413
▁下詳	-11.0414
蘂	-11.0417
禕	-11.0418
而食之	-11.0418
名士	-11.042
為太尉	-11.0422
司馬光	-11.0423
呉王	-11.0426
鹹	-11.0426
猶在	-11.0427
善射	-11.0442
器也	-11.0443
讃	-11.0445
山隂	-11.0448
櫛	-11.0451
著書	-11.0454
塢	-11.046
萼	-11.046
孔融	-11.0469
盛徳	-11.047
稠	-11.0475
太常卿	-11.0475
孝亷	-11.0476
曹操	-11.0483
中流	-11.0483
覬	-11.0489
仆	-11.0494
先聖	-11.0494
撞	-11.0496
非所以	-11.05
水陸	-11.05
菌	-11.0501
肘	-11.0505
便宜	-11.0506
藍田	-11.0506
鉏	-11.0507
可知	-11.0508
斌	-11.0512
哈	-11.0514
使臣	-11.0517
蜀人	-11.0519
金帛	-11.052
其所以	-11.0525
扶桑	-11.0528
縣官	-11.0529
詆	-11.0529
顓	-11.0529
國子監	-11.053
二年正月	-11.0532
飛鳥	-11.0533
應天	-11.0536
明珠	-11.0536
投之	-11.0537
璠	-11.0537
府君	-11.0539
從軍	-11.054
先賢	-11.054
頗有	-11.0542
諸君	-11.0542
皇天	-11.0544
明主	-11.0547
菰	-11.0547
杭州	-11.0548
忽見	-11.055
何事	-11.0551
沈佺期	-11.0551
笠	-11.0558
其俗	-11.0563
不離	-11.0564
出門	-11.0566
五采	-11.057
都指揮使	-11.0574
暠	-11.0579
郊廟	-11.0581
杵	-11.0582
宋王欽若等撰	-11.0582
黄道	-11.0583
不幸	-11.0585
李白詩	-11.0586
梁州	-11.0591
䖏	-11.0591
崧	-11.0594
王融	-11.0597
尊號	-11.06
甜	-11.0604
門户	-11.0605
僑	-11.0606
韻詩	-11.0606
揔	-11.0607
旭	-11.061
現	-11.061
光弼	-11.0614
豫州刺史	-11.0615
精兵	-11.0616
儒林	-11.0617
空中	-11.0622
一夜	-11.0626
續漢書	-11.0627
殞	-11.0629
郄	-11.0631
門人	-11.0634
閼	-11.0634
一統志	-11.0635
殺其	-11.0637
藝文類聚	-11.0637
形勝	-11.0638
綘	-11.0638
蘇頲	-11.0639
獺	-11.064
龕	-11.0645
千石	-11.0646
窻	-11.0647
榦	-11.0652
卿等	-11.0655
匹夫	-11.0657
臨朝	-11.0657
矟	-11.0658
朝政	-11.0667
帝王之	-11.0667
獻帝	-11.0668
右軍	-11.067
忻	-11.0671
菁	-11.0674
元氣	-11.0675
蝨	-11.0677
矧	-11.0678
三原	-11.0684
慤	-11.069
乃作	-11.0691
顏	-11.0696
白鶴	-11.0696
臣請	-11.0698
頡	-11.0702
阪	-11.0703
薤	-11.0704
秋冬	-11.0708
萬物之	-11.071
容貌	-11.0711
躋	-11.0711
蔥	-11.0712
張儀	-11.0714
光照	-11.0717
通判	-11.0718
挑	-11.0719
湊	-11.0725
監軍	-11.0726
斵	-11.0728
無聲	-11.073
十餘里	-11.0731
耐	-11.0732
艘	-11.0732
天門	-11.0733
終於	-11.0733
逺矣	-11.0734
夸	-11.0734
雷霆	-11.0737
三百里	-11.0737
熙寧	-11.0737
大赦天下	-11.0738
野人	-11.074
翕	-11.0741
吳興	-11.0743
李紳	-11.0745
燉煌	-11.075
大厯	-11.0752
小吏	-11.0758
連珠	-11.0761
忠義	-11.0761
北門	-11.0764
艷	-11.0767
錮	-11.0768
曽孫	-11.0771
左丞	-11.0771
寡君	-11.0779
流血	-11.0781
同郡	-11.0783
箸	-11.0784
窠	-11.0787
始置	-11.0789
小國	-11.0791
禳	-11.0791
如意	-11.0793
七人	-11.0794
虺	-11.08
切説文	-11.0801
蜀郡	-11.0804
杭	-11.0806
丈人	-11.0806
挿	-11.0807
小學紺珠	-11.081
蛙	-11.0812
户口	-11.0814
疑其	-11.0814
風起	-11.0815
霜雪	-11.0815
嫉	-11.082
熲	-11.0823
苻堅	-11.0823
律令	-11.0824
尺餘	-11.0825
騖	-11.0827
苴	-11.0829
羆	-11.0832
戰國策	-11.0836
􁁊	-11.0842
或謂之	-11.0843
嫩	-11.0846
魯人	-11.0849
死生	-11.085
自立	-11.0851
石門	-11.0852
中常侍	-11.0856
樞宻	-11.0859
藝文志	-11.0861
睿宗	-11.0864
宇宙	-11.0866
聖主	-11.0868
姥	-11.0874
大破	-11.0881
羿	-11.0883
居士	-11.0886
長慶	-11.0888
孔帖	-11.0889
先人	-11.0891
字季	-11.0892
舡	-11.0892
筯	-11.0895
繚	-11.0896
東流	-11.0896
庭中	-11.0899
方干	-11.0899
即事詩	-11.0902
未成	-11.0905
周人	-11.0906
詩集	-11.0907
樗	-11.0907
櫟	-11.0907
九重	-11.0909
雪詩	-11.0913
青山	-11.0914
相似	-11.0916
丨丨坡	-11.0919
簧	-11.0921
菑	-11.0921
霖	-11.0926
苻	-11.0926
乃遣	-11.0929
筝	-11.0932
軼	-11.0932
磧	-11.0939
椀	-11.0943
長三尺	-11.0946
部落	-11.0947
剽	-11.0948
滄海	-11.0949
經術	-11.095
張籍	-11.095
四十里	-11.0951
法師	-11.0954
車服	-11.0954
蘄	-11.0955
京邑	-11.0956
聖徳	-11.0957
哺	-11.0958
沆	-11.0961
還家	-11.0962
曰寡人	-11.097
消息	-11.0975
黼	-11.0978
子儀	-11.0978
奪其	-11.0979
池中	-11.0984
悌	-11.0987
别有	-11.0987
靈公	-11.0989
庶幾	-11.0996
淮西	-11.1003
百丈	-11.1004
雲母	-11.1004
陸贄	-11.1006
何得	-11.1009
待制	-11.101
葭	-11.1017
臆	-11.1018
衆皆	-11.1019
平地	-11.1021
蘇轍	-11.1023
皎然	-11.1023
自以為	-11.1024
晉中興書	-11.1027
遂與	-11.1032
三等	-11.1032
宣和	-11.1036
牓	-11.1042
叨	-11.1045
一種	-11.1048
桂陽	-11.1055
瓢	-11.1056
豪傑	-11.1057
七品	-11.1058
酤	-11.1062
蟾	-11.1063
秋夜	-11.1063
交州	-11.1067
琅	-11.1067
八十一	-11.1067
荔	-11.1074
李斯	-11.1077
千嵗	-11.1078
太史公	-11.1078
熒	-11.1081
張良	-11.1086
琨	-11.1088
率兵	-11.1093
形勢	-11.1094
懦	-11.1095
柩	-11.1096
之謂也	-11.1096
窘	-11.1102
婚姻	-11.1105
一時之	-11.1106
東觀漢記	-11.1109
昭宗	-11.111
不逮	-11.1111
唐書地理志	-11.1116
也从	-11.1126
腕	-11.1128
甚厚	-11.1129
下邳	-11.1132
吐谷渾	-11.1136
噴	-11.1138
沽	-11.114
六帖	-11.114
稟	-11.1144
髙陽	-11.1151
之子也	-11.1158
鼇	-11.1161
農夫	-11.1165
西川	-11.1169
榖梁	-11.1169
暝	-11.1172
稼穡	-11.1176
志云	-11.1177
二丈	-11.1179
太元	-11.1182
冬日	-11.1182
首領	-11.1183
公羊傳	-11.1187
𨼆	-11.1189
雎	-11.119
二原	-11.1195
琪	-11.1198
兖州刺史	-11.1199
必死	-11.1205
朝日	-11.1213
為宰相	-11.1215
嶼	-11.1219
國子祭酒	-11.1227
璇	-11.1227
復舊	-11.1235
相應	-11.1237
英雄	-11.1238
零陵	-11.1238
大雅	-11.124
掇	-11.1242
縣屬	-11.1243
數十里	-11.1245
暄	-11.1246
部員外郎	-11.1246
漢官儀	-11.1248
鍾山	-11.1249
盞	-11.1249
髦	-11.1251
時號	-11.1252
百司	-11.1264
企	-11.1271
恐其	-11.1271
仲春	-11.1275
亭長	-11.1278
璩	-11.1286
槎	-11.1286
▁晉書	-11.1289
嘏	-11.1295
猫	-11.1298
幾何	-11.13
噪	-11.1308
金華	-11.1309
繋	-11.131
至京師	-11.131
有司奏	-11.1311
甲兵	-11.1313
不克	-11.1321
丨為丨	-11.1322
官司	-11.1324
勣	-11.1324
暹	-11.1326
佳人	-11.1331
陽太守	-11.1333
錢起	-11.1335
功徳	-11.1336
黥	-11.1336
海棠	-11.1337
太平興國	-11.1338
泮	-11.1338
異物志	-11.1339
百疋	-11.1342
左手	-11.1343
不倦	-11.1346
熏	-11.1346
扼	-11.1348
芍藥	-11.1349
此之謂	-11.1359
二十六	-11.1362
𤨏	-11.1362
数	-11.1362
隋煬帝	-11.1363
閫	-11.1363
迨	-11.1366
鎻	-11.1369
卽	-11.1374
福建	-11.138
更相	-11.1381
拒之	-11.1383
荆南	-11.1384
拆	-11.1385
九寸	-11.1388
州諸軍事	-11.139
六國	-11.1394
斐	-11.1399
装	-11.1401
卿士	-11.1402
璟	-11.1406
碁	-11.1406
懽	-11.1412
先天	-11.1414
永安	-11.1416
長八尺	-11.1419
齊桓公	-11.142
藏於	-11.1423
鞫	-11.1425
新安	-11.143
聾	-11.1433
泝	-11.1435
鷰	-11.144
宋史食貨志	-11.144
隧	-11.1441
少監	-11.1441
十五里	-11.1446
生民	-11.1446
逓	-11.1452
而忘	-11.1455
迢	-11.1458
簒	-11.1462
槁	-11.1466
芮	-11.1471
京房	-11.1474
黿	-11.1479
倭	-11.148
賜物	-11.1482
瓉	-11.1482
帑	-11.149
百工	-11.1492
扁鵲	-11.1493
巴蜀	-11.1494
淸	-11.1497
鎰	-11.15
頓首	-11.1501
七八	-11.1501
殽	-11.1501
㳂	-11.1504
八寸	-11.1505
檐	-11.1506
京口	-11.1506
啜	-11.1508
飴	-11.1516
獅子	-11.1519
摛	-11.1525
洪武	-11.1529
登髙	-11.1532
初仕	-11.1538
酢	-11.1543
許渾	-11.155
北伐	-11.155
九尺	-11.1554
洛水	-11.1556
慄	-11.1569
廣平	-11.1572
茫	-11.1575
嚼	-11.1575
聶	-11.1576
莘	-11.1577
貴戚	-11.1578
䜛	-11.1579
瀉	-11.1587
五原	-11.1587
懌	-11.1588
稱善	-11.1589
寂寞	-11.159
鈍	-11.1592
樞密	-11.1593
戸部	-11.1595
諺曰	-11.1595
帝問	-11.1595
驄	-11.1597
並同	-11.1599
新論	-11.1599
召公	-11.16
褰	-11.16
北郊	-11.16
肱	-11.1602
酒泉	-11.1603
師古	-11.1603
受業	-11.1606
出納	-11.161
文帝紀	-11.1611
刑獄	-11.1613
王羲之	-11.1614
鏃	-11.1617
出身	-11.1631
林邑	-11.1637
奭	-11.1639
之義也	-11.1639
淇	-11.164
需	-11.1645
吕氏	-11.1646
第六	-11.1647
儒學	-11.1652
天聖	-11.1652
相思	-11.1655
五聲	-11.1658
何用	-11.1661
江都	-11.1662
山上有	-11.1665
良馬	-11.1665
刹	-11.1665
敬宗	-11.1665
有鳥	-11.1666
唯有	-11.1666
笄	-11.1667
祭天	-11.167
涿	-11.1671
文辭	-11.1674
所載	-11.1674
商人	-11.1678
器物	-11.1679
孔氏	-11.1682
死罪	-11.1687
漢書地理志	-11.1688
慨然	-11.1706
已來	-11.1706
開門	-11.171
元年詔	-11.1711
豳	-11.1715
櫓	-11.1716
引見	-11.1717
道德	-11.1721
區區	-11.1723
榭	-11.1724
其狀	-11.1725
舶	-11.1725
逺方	-11.1726
果然	-11.1729
侣	-11.1729
宋史禮志	-11.1732
性命	-11.1734
亦然	-11.1734
祖父	-11.1736
姚合	-11.1741
腴	-11.1742
羊祜	-11.1746
嵐	-11.175
棧	-11.1754
府庫	-11.1755
抃	-11.1759
罍	-11.176
少孤	-11.1761
冇	-11.1762
百歩	-11.1763
戰于	-11.1765
牌	-11.1767
穉	-11.1767
囷	-11.1768
吾聞	-11.1768
督郵	-11.1768
職方	-11.1774
安車	-11.1776
受禪	-11.1779
諸将	-11.1781
濠	-11.1783
功成	-11.1784
咸平	-11.1785
離騷	-11.1788
咸亨	-11.179
顧謂	-11.179
涪	-11.1792
廸	-11.1792
切集韻韻	-11.1793
郗	-11.1795
所害	-11.1798
昭穆	-11.1802
白衣	-11.1805
窓	-11.181
第十	-11.1811
字君	-11.1814
謹按	-11.1815
僊	-11.1815
憫	-11.182
厦	-11.1823
當死	-11.1824
賈逵	-11.1825
漾	-11.1831
何能	-11.1833
永樂	-11.1844
右手	-11.1852
楮	-11.1852
鉉	-11.1855
七星	-11.1859
鄭注云	-11.1861
恚	-11.1862
徐州刺史	-11.1863
輿地	-11.1865
稹	-11.187
單衣	-11.1873
梧桐	-11.1875
夣	-11.1875
耨	-11.1876
彦博	-11.1879
祼	-11.1882
三嵗	-11.1889
數百里	-11.1889
䧏	-11.1895
平原君	-11.1897
頋	-11.1899
吉甫	-11.1899
言行録	-11.1901
糠	-11.1901
勺	-11.1901
永昌	-11.1905
律厯志	-11.1907
聞之曰	-11.1907
草書	-11.1908
羲和	-11.1908
鬰	-11.1914
上疏曰	-11.1914
撻	-11.1914
三丈	-11.1915
婦女	-11.1915
賈島	-11.1917
俶	-11.192
越人	-11.192
大恱	-11.192
存亡	-11.1921
鍳	-11.1925
太行	-11.1926
餽	-11.1929
六百石	-11.1936
澣	-11.1943
疵	-11.1944
齊國	-11.1945
徃來	-11.1947
成敗	-11.1952
炫	-11.1955
贏	-11.1957
驩	-11.1957
髙適	-11.1958
松柏	-11.1963
未央	-11.1965
蔕	-11.1976
廢帝	-11.1976
佯	-11.1979
隂氣	-11.198
亶	-11.1983
雍州刺史	-11.1984
楫	-11.1988
年八十	-11.1988
遣使者	-11.1989
北征	-11.1995
居處	-11.1997
瑤	-11.1998
社稷之	-11.1999
宗即位	-11.2
掣	-11.2007
其弊	-11.2009
所致	-11.2009
與兄	-11.2018
綈	-11.202
二十萬	-11.202
从	-11.202
宋書禮志	-11.2021
杓	-11.2022
乾道	-11.2022
犯法	-11.2027
八音	-11.2029
雲夢	-11.2029
耘	-11.203
曰古者	-11.2032
豢	-11.2036
鄱陽	-11.2038
所造	-11.2047
願得	-11.2049
僖公	-11.2055
孝友	-11.2056
吳志	-11.2057
順天	-11.2057
龍朔	-11.2058
齊民要術	-11.2058
豈得	-11.2068
嘶	-11.2069
勰	-11.2069
年年	-11.207
問之曰	-11.2073
近世	-11.2074
縻	-11.2075
迂	-11.2078
司馬遷	-11.2082
顯宗	-11.2084
幃	-11.2085
徃徃	-11.2085
黙然	-11.2087
山濤	-11.209
器用	-11.2091
可憐	-11.2092
聯	-11.2094
莭	-11.2094
擕	-11.2101
楚國	-11.2105
兵部尚書	-11.2106
安平	-11.2108
文心雕龍	-11.2109
州總管	-11.2111
蜡	-11.2112
貿	-11.2115
武侯	-11.2117
殤	-11.2123
憾	-11.2127
升降	-11.213
鹽鐵論	-11.2131
東郡	-11.2133
袋	-11.2134
鶩	-11.2136
婺	-11.2142
清濁	-11.2143
黍稷	-11.2145
二年詔	-11.2145
缶	-11.215
百户	-11.215
廵狩	-11.2152
酒食	-11.2156
鄜	-11.2162
韓偓	-11.2164
宋璟	-11.2164
四方之	-11.2174
農桑	-11.2174
臨淄	-11.2175
醴泉	-11.2178
威將軍	-11.2178
惱	-11.2186
小雅	-11.2188
淮陽	-11.2198
器械	-11.22
施於	-11.2204
攻城	-11.2208
王肅	-11.221
為吏部尚書	-11.2211
臨江	-11.2218
職官	-11.2219
白頭	-11.2223
某官	-11.2225
優劣	-11.2226
左思	-11.2227
從兄	-11.2228
景徳	-11.2229
百尺	-11.2234
鉅鹿	-11.2236
阼	-11.2236
者莫不	-11.224
垂拱	-11.2245
鼉	-11.2247
廖	-11.2249
五嶽	-11.2255
卜筮	-11.2256
徽宗	-11.2264
蹲	-11.2275
曰余	-11.2275
汲黯	-11.2275
元康	-11.2276
北極	-11.2278
渭水	-11.228
范蠡	-11.228
七里	-11.2283
飛龍	-11.2284
所向	-11.2284
滉	-11.2291
䋲	-11.2294
神道碑	-11.2295
讚	-11.2297
于闐	-11.2299
規矩	-11.2302
翩	-11.2303
愕	-11.2304
郭子儀	-11.2307
咄	-11.2308
夜夢	-11.2308
陶潛	-11.2312
㳟	-11.2318
慨	-11.232
田宅	-11.2321
獠	-11.2324
鮓	-11.2328
延英	-11.2328
安危	-11.2329
紫微	-11.2334
孝武帝	-11.2338
富人	-11.2342
鎔	-11.2342
仲舒	-11.2345
脛	-11.2345
估	-11.2345
絞	-11.2347
李廣	-11.2349
束帛	-11.2351
荻	-11.2351
布帛	-11.2352
相承	-11.2352
而用之	-11.2357
緫	-11.2358
鑪	-11.236
部曲	-11.2365
數十萬	-11.2369
季孫	-11.2375
覔	-11.2375
熈寧	-11.2375
襃	-11.2378
雨雪	-11.2382
難得	-11.2383
財用	-11.2384
廬陵	-11.2392
反覆	-11.2393
尚書左丞	-11.2394
直學士	-11.2394
姨	-11.2394
未甞	-11.2394
笈	-11.2396
三十五	-11.2397
聦	-11.24
宋齊	-11.2402
薩	-11.2407
韓文	-11.2408
稽古	-11.2408
鶚	-11.2413
廨	-11.2415
闕下	-11.2418
繳	-11.2419
自此始	-11.2419
治國	-11.2419
躔	-11.2422
珂	-11.2425
如此則	-11.2426
甚矣	-11.2428
經畧	-11.2428
受詔	-11.2435
一百二十	-11.2435
相連	-11.2437
治平	-11.2442
蹊	-11.2442
廏	-11.2447
孫氏	-11.2448
庾肩吾	-11.2449
石崇	-11.2454
晉武帝	-11.2454
織女	-11.2461
雲雨	-11.2465
賜帛	-11.2467
尉遲	-11.2468
草堂	-11.247
白居易詩	-11.2474
詔曰朕	-11.2476
萱	-11.2476
爾乃	-11.248
簡子	-11.2482
折衝	-11.2482
葆	-11.2482
毀	-11.2484
百斤	-11.249
孟子曰	-11.249
遼史	-11.2495
冏	-11.2496
娟	-11.2497
淮南王	-11.2498
璽書	-11.2502
耒	-11.2502
列女傳	-11.2503
二増	-11.2506
力士	-11.2508
跣	-11.2512
鼓琴	-11.2513
司𨽻	-11.2515
魯國	-11.252
養生	-11.2523
貞觀中	-11.2525
兢	-11.2528
不厭	-11.2529
士庶	-11.2533
詶	-11.2535
燮	-11.2535
沅	-11.2536
肅然	-11.2542
光祿大夫	-11.2548
綱紀	-11.2548
西海	-11.2548
宋書符瑞志	-11.2549
飛燕	-11.255
凛	-11.2553
駱賔王	-11.2555
廟堂	-11.2556
俗呼	-11.2556
布政	-11.256
花開	-11.256
集序	-11.2564
悽	-11.2566
蕤	-11.2566
神女	-11.2568
留後	-11.2568
鋸	-11.2568
獨立	-11.2571
五湖	-11.2572
刑法	-11.2572
有頃	-11.2579
衿	-11.2582
伊川	-11.2586
所獲	-11.2589
辨其	-11.2593
殿中侍御史	-11.2593
水又東	-11.2594
京都	-11.2594
舫	-11.2594
邴	-11.2596
不仕	-11.2597
者何也	-11.2598
掲	-11.2599
𫉬	-11.2601
擣	-11.2603
方丈	-11.2604
音樂	-11.2605
佃	-11.2606
神靈	-11.2607
蠕蠕	-11.2607
黷	-11.2611
李靖	-11.2612
羽翼	-11.2619
建平	-11.262
颯	-11.262
鸛	-11.2621
狸	-11.2622
臨淮	-11.2622
蘭臺	-11.2627
之象也	-11.2627
絲竹	-11.2629
嬰兒	-11.2629
貫休	-11.2631
切正韻	-11.2633
儋	-11.2635
舊章	-11.264
餙	-11.2641
琯	-11.2641
仰視	-11.2642
鳯翔	-11.2645
荆楚	-11.2649
數千里	-11.2654
祝融	-11.2661
蕉	-11.2661
頷	-11.2663
無疆	-11.2664
為博士	-11.2667
傅𤣥	-11.2679
蹶	-11.2679
扞	-11.2681
萬騎	-11.2683
庾亮	-11.2689
皇極	-11.269
勛	-11.2695
舊典	-11.2695
浹	-11.2698
為御史大夫	-11.2701
一斗	-11.2704
團練	-11.2708
周室	-11.2713
燄	-11.2719
瑒	-11.272
年十五	-11.2726
少昊	-11.2726
娯	-11.274
劑	-11.2742
改名	-11.2742
五味	-11.2745
稱職	-11.2747
景仁	-11.2747
寺碑	-11.2748
瑯琊	-11.2748
數尺	-11.2751
敗績	-11.2756
河朔	-11.2761
魯公	-11.2761
配天	-11.2762
中書舎人	-11.2764
乘輿	-11.2764
隋文帝	-11.2764
闘	-11.2766
列傳	-11.2766
餒	-11.2769
世間	-11.2771
夜光	-11.2772
走馬	-11.2778
燿	-11.2779
竹林	-11.2787
莫知	-11.2792
禄山	-11.2795
煉	-11.2797
來降	-11.28
聖朝	-11.2802
禮部尚書	-11.2802
延壽	-11.2806
供養	-11.2808
閶闔	-11.281
鯁	-11.2813
亭侯	-11.2816
淳于	-11.2818
希烈	-11.2818
猶存	-11.2825
燼	-11.2825
再三	-11.2825
也是故	-11.2828
綂	-11.2834
太牢	-11.2837
派	-11.2837
臨軒	-11.2841
司直	-11.2843
虞世南	-11.2845
日月星辰	-11.2846
䦨	-11.2847
沓	-11.2849
逈	-11.285
購	-11.2852
醯	-11.2853
第七	-11.2854
黜陟	-11.2855
吕氏春秋曰	-11.286
永徽	-11.2862
參政	-11.2864
長編	-11.2871
昕	-11.2871
秘書監	-11.2871
樓船	-11.2872
竺	-11.2874
杪	-11.2879
翬	-11.288
朝賀	-11.2881
箏	-11.2885
監司	-11.2885
彈琴	-11.289
百川	-11.2895
緬	-11.2895
畱	-11.2895
盥	-11.2897
不踰	-11.29
千乗	-11.2904
鮪	-11.2907
軺	-11.291
汰	-11.2915
橫	-11.2925
逡	-11.2937
醖	-11.2941
庵	-11.2944
袤	-11.2951
釘	-11.2953
掉	-11.2954
跖	-11.2957
趍	-11.2959
抜	-11.2966
緹	-11.297
港	-11.2976
杉	-11.2977
隼	-11.2997
玦	-11.3002
鯤	-11.3012
礫	-11.3015
嶂	-11.3025
㓙	-11.3031
讞	-11.3033
紱	-11.3053
纊	-11.306
纁	-11.3069
淒	-11.307
諺	-11.3071
訝	-11.3074
祓	-11.3088
債	-11.3093
輈	-11.3112
莞	-11.3112
岌	-11.3117
万	-11.313
㒺	-11.3136
鄣	-11.3147
丐	-11.3151
沫	-11.3155
瑰	-11.316
鬟	-11.3173
莱	-11.3188
悶	-11.3192
蘚	-11.3197
滇	-11.3202
豺	-11.3206
炯	-11.3211
嵬	-11.322
蜺	-11.3225
媪	-11.3235
酥	-11.3242
攅	-11.3248
絰	-11.3251
猨	-11.3264
苕	-11.3265
訶	-11.3265
犂	-11.3269
飼	-11.3283
藿	-11.3292
稗	-11.3294
檝	-11.3297
刄	-11.3299
覘	-11.3308
蹋	-11.3308
揣	-11.3312
襪	-11.3318
㽔	-11.3321
邏	-11.3321
瀝	-11.3324
盼	-11.3325
羯	-11.3326
籟	-11.3326
皥	-11.3335
榴	-11.3341
寖	-11.3344
賫	-11.3359
禧	-11.3361
洙	-11.3362
隍	-11.3373
罟	-11.3375
醮	-11.3378
吼	-11.3386
黠	-11.3387
鐫	-11.339
瓣	-11.3401
殁	-11.3404
紏	-11.3412
芹	-11.3412
泠	-11.3428
蓴	-11.3428
觚	-11.3429
抛	-11.3444
潄	-11.3448
郃	-11.3459
欝	-11.3468
鴿	-11.3473
陘	-11.3475
箠	-11.3479
擘	-11.3481
塜	-11.3485
塟	-11.3485
㢲	-11.349
誚	-11.3499
兀	-11.3509
隳	-11.3515
秣	-11.3518
鮫	-11.3524
异	-11.3539
徭	-11.3541
僃	-11.3542
謟	-11.3545
伉	-11.3545
痩	-11.3554
擎	-11.3557
泚	-11.3562
倨	-11.3564
岷	-11.3567
楸	-11.357
沱	-11.357
奨	-11.3571
駞	-11.3575
撮	-11.3575
睛	-11.3576
鷂	-11.3586
訢	-11.3588
厮	-11.3591
㸑	-11.3592
吿	-11.3606
輓	-11.3626
籖	-11.3634
畵	-11.3638
拖	-11.365
奩	-11.3651
瞳	-11.3654
磐	-11.3667
珉	-11.3668
瘳	-11.3668
㝢	-11.3681
幻	-11.3704
涎	-11.371
䟦	-11.3711
鏁	-11.3714
僵	-11.3714
縉	-11.3729
睨	-11.373
叫	-11.3739
犍	-11.3743
懾	-11.3744
鉗	-11.3745
瑱	-11.3773
諍	-11.3777
洮	-11.382
豊	-11.3833
𧰼	-11.3844
磔	-11.3844
迪	-11.3854
呪	-11.386
缾	-11.387
遘	-11.3874
僞	-11.3893
茨	-11.3906
敲	-11.3909
纛	-11.392
芟	-11.3924
㓗	-11.3925
鱠	-11.3934
攫	-11.3935
吻	-11.394
麞	-11.3947
瀨	-11.3948
蕚	-11.3963
鴛	-11.3983
晳	-11.3986
鞋	-11.3997
查	-11.4004
覓	-11.4012
芰	-11.4013
枳	-11.4019
桴	-11.402
翺	-11.4021
鉦	-11.4048
敇	-11.4049
潢	-11.4053
閽	-11.4054
捶	-11.4055
飱	-11.4058
柿	-11.4061
椹	-11.4063
鮒	-11.4066
囬	-11.4067
泳	-11.4083
譎	-11.4089
瞰	-11.4097
聫	-11.4101
諂	-11.4103
睹	-11.4105
毘	-11.4109
瑋	-11.4114
眸	-11.4115
篁	-11.4116
悴	-11.4132
𣗳	-11.4133
巔	-11.4136
刳	-11.4136
譟	-11.4146
忙	-11.4149
邨	-11.4156
蓐	-11.4165
閹	-11.4184
恍	-11.4184
貉	-11.4197
鴞	-11.4198
詁	-11.4202
貼	-11.4216
珽	-11.4227
霆	-11.4229
膩	-11.423
譖	-11.4233
釜	-11.4233
腋	-11.4263
諜	-11.4277
秬	-11.4282
义	-11.4283
汭	-11.4285
慾	-11.4288
銑	-11.4293
幷	-11.4298
槽	-11.4312
舸	-11.4314
磊	-11.4318
塚	-11.4321
愴	-11.4331
悛	-11.4332
澧	-11.4345
炤	-11.4349
縦	-11.4365
伋	-11.4366
覊	-11.4369
䄂	-11.4381
培	-11.4387
澮	-11.4397
靴	-11.4411
臍	-11.4411
霰	-11.4412
忩	-11.4417
謩	-11.4435
哥	-11.4446
臟	-11.4451
槿	-11.4478
緼	-11.4482
件	-11.4483
帙	-11.4487
鄢	-11.4522
舛	-11.4522
鑚	-11.4525
霏	-11.4533
渤	-11.4533
脇	-11.455
湫	-11.4551
捫	-11.4552
胙	-11.4557
麄	-11.456
徤	-11.4567
頠	-11.4567
豸	-11.4573
魅	-11.4573
櫂	-11.4587
擯	-11.4593
鐃	-11.4604
爍	-11.4604
遨	-11.4605
璿	-11.4606
紊	-11.4608
詘	-11.4611
磯	-11.4619
葅	-11.4622
鑣	-11.4637
峩	-11.464
邯	-11.4657
澈	-11.4672
禺	-11.4674
侑	-11.4678
朏	-11.4709
筑	-11.4742
埒	-11.4742
儷	-11.4748
甯	-11.4762
籩	-11.4763
偹	-11.4765
刷	-11.4766
顚	-11.4778
禊	-11.4787
怕	-11.4791
鞮	-11.4813
嗤	-11.4817
譛	-11.4838
諳	-11.4851
眄	-11.4867
讙	-11.4868
鞾	-11.4881
陬	-11.4886
篚	-11.4893
澶	-11.4902
瞑	-11.4924
腫	-11.4924
兠	-11.494
肄	-11.4942
絢	-11.4942
飇	-11.4948
鷁	-11.4953
蚡	-11.4958
汨	-11.4959
槊	-11.4972
鷙	-11.4976
槨	-11.5002
种	-11.5005
犁	-11.5013
澡	-11.5046
㤙	-11.5047
賭	-11.5048
蜩	-11.5055
鬲	-11.5062
躭	-11.5063
剔	-11.5067
摹	-11.5069
暐	-11.508
汧	-11.5081
攄	-11.5082
堞	-11.5084
蘧	-11.5085
謠	-11.5086
霤	-11.5096
坼	-11.5097
桷	-11.51
旰	-11.5101
爨	-11.5102
燦	-11.5116
螯	-11.5119
簞	-11.512
燾	-11.512
撾	-11.5139
矦	-11.5163
蒜	-11.5171
濩	-11.5177
迸	-11.5186
謾	-11.5192
顙	-11.5193
糶	-11.5194
鬪	-11.5194
滓	-11.5199
薺	-11.5207
𥙷	-11.5211
壟	-11.5211
剝	-11.5216
漣	-11.5224
耜	-11.5224
遒	-11.5249
惔	-11.5262
禰	-11.5265
懶	-11.5265
譁	-11.5267
阨	-11.5269
瑊	-11.5273
鶡	-11.5285
紿	-11.5286
諦	-11.5293
隲	-11.53
帔	-11.5302
腊	-11.5317
个	-11.5318
萎	-11.5319
偈	-11.532
鍔	-11.5321
攢	-11.5339
贅	-11.534
驤	-11.5342
昵	-11.536
絜	-11.5362
玷	-11.5363
斿	-11.5369
楨	-11.538
螫	-11.5392
狙	-11.5398
涖	-11.54
𦍑	-11.5407
倘	-11.5413
謇	-11.5414
婿	-11.5416
畀	-11.5417
珎	-11.5419
灞	-11.5426
癘	-11.5433
畎	-11.5435
餳	-11.5447
喘	-11.5447
幟	-11.5448
糖	-11.5454
緱	-11.5463
廙	-11.5468
屣	-11.5468
鑊	-11.5468
鳧	-11.5472
鯀	-11.5476
斟	-11.5486
拄	-11.5503
臠	-11.5506
闋	-11.5545
𦕈	-11.5545
卬	-11.5547
搴	-11.5562
珏	-11.5566
褊	-11.5571
款	-11.5579
娱	-11.5582
澠	-11.5583
幌	-11.5595
緗	-11.5617
檣	-11.5622
縟	-11.5625
悰	-11.5636
騂	-11.5642
搔	-11.5644
澳	-11.5645
鱸	-11.5654
憩	-11.5655
曦	-11.5659
黏	-11.5674
磴	-11.5675
柞	-11.5676
孩	-11.5677
裨	-11.5677
飡	-11.5684
砦	-11.5685
摠	-11.5699
蘖	-11.5701
偪	-11.5702
术	-11.5716
佾	-11.5717
棨	-11.5732
鷟	-11.5739
簽	-11.574
鱣	-11.5753
縶	-11.5755
愠	-11.5757
韞	-11.5759
耄	-11.5759
邙	-11.5789
舩	-11.5793
塋	-11.5799
戶	-11.5821
蝸	-11.583
彝	-11.5831
昃	-11.5831
鸇	-11.5856
灋	-11.5873
蠢	-11.5874
盌	-11.5888
刮	-11.5894
翎	-11.5906
磁	-11.5911
跛	-11.5914
彚	-11.593
蛩	-11.5931
曖	-11.5932
垍	-11.5948
紬	-11.5949
忱	-11.597
刖	-11.5973
莾	-11.5991
喈	-11.6012
湟	-11.6027
亾	-11.6035
臉	-11.6041
沁	-11.6063
宕	-11.6064
鵷	-11.6068
簋	-11.6073
屩	-11.6084
菹	-11.6091
喫	-11.6105
飈	-11.6109
彗	-11.611
跌	-11.6113
扃	-11.6145
芾	-11.6146
瘁	-11.6151
郾	-11.617
崤	-11.6171
嘻	-11.6174
茘	-11.6178
塡	-11.6189
纉	-11.619
鴆	-11.6194
儆	-11.6198
螟	-11.6205
煦	-11.6212
煌	-11.6212
娣	-11.6215
瀕	-11.623
燠	-11.6233
氈	-11.6245
篠	-11.625
嘔	-11.6253
虫	-11.6256
謔	-11.6272
踴	-11.6273
卻	-11.6275
跂	-11.629
刎	-11.6291
賃	-11.6292
屛	-11.6295
貊	-11.631
圻	-11.6313
孛	-11.6339
擿	-11.634
觥	-11.6349
垠	-11.6354
倅	-11.6354
鑽	-11.636
橙	-11.6415
嚢	-11.6417
肖	-11.642
旡	-11.6427
瀑	-11.6431
賽	-11.6433
犒	-11.6436
尓	-11.6439
仭	-11.6444
鈐	-11.6458
澀	-11.6469
郞	-11.6482
郴	-11.6492
莅	-11.6493
淤	-11.6495
靳	-11.6495
沴	-11.6501
籜	-11.6538
諛	-11.6546
渺	-11.6555
娠	-11.6562
緦	-11.6566
簴	-11.66
裊	-11.6601
甃	-11.6602
媵	-11.6607
纘	-11.6627
毆	-11.6632
鱉	-11.6644
鏐	-11.6647
悚	-11.6648
怙	-11.6649
枹	-11.665
些	-11.6665
癭	-11.6669
蹟	-11.6671
帚	-11.669
騾	-11.671
箔	-11.6725
巘	-11.6728
蒨	-11.6728
梭	-11.673
迤	-11.673
螽	-11.6734
綉	-11.6734
澁	-11.674
净	-11.6741
鎗	-11.6747
盻	-11.6751
筴	-11.6758
泫	-11.6774
橈	-11.6775
淋	-11.6792
蜚	-11.68
鄯	-11.6811
驎	-11.6811
瑛	-11.6812
佺	-11.6812
瀘	-11.6817
筦	-11.6817
璉	-11.6819
禖	-11.682
薜	-11.6833
虀	-11.6834
拉	-11.6835
璹	-11.6837
郯	-11.6843
摽	-11.6843
砧	-11.6854
酎	-11.6861
闚	-11.6863
錬	-11.6864
旛	-11.6877
蔭	-11.6881
餼	-11.6882
柬	-11.6903
晡	-11.6904
鈕	-11.6908
櫻	-11.6943
㕓	-11.6946
誑	-11.6949
撿	-11.6949
媛	-11.6949
琚	-11.695
溷	-11.695
沌	-11.695
糗	-11.6951
洧	-11.6967
紓	-11.6971
硬	-11.6987
繅	-11.699
爕	-11.699
殉	-11.6991
鞬	-11.7009
瓮	-11.701
琇	-11.7012
蹴	-11.7017
兌	-11.7017
醋	-11.7027
蜻	-11.7027
洵	-11.7033
繖	-11.7033
嫋	-11.7035
蕖	-11.7051
搗	-11.7053
滁	-11.7053
褘	-11.7055
氓	-11.7059
夤	-11.7068
渦	-11.7073
闍	-11.7076
咀	-11.708
璆	-11.7081
僂	-11.7082
陲	-11.7099
冽	-11.7102
䛕	-11.7104
飜	-11.7126
璵	-11.7151
嶲	-11.7164
漉	-11.7168
撝	-11.7169
囀	-11.7183
艇	-11.7186
憇	-11.7188
窄	-11.7189
縢	-11.7191
倐	-11.7193
撒	-11.7216
穂	-11.7218
蕡	-11.7219
袵	-11.7237
俚	-11.724
祲	-11.7242
虯	-11.7249
剌	-11.725
怛	-11.7256
閟	-11.7259
驃	-11.7273
揀	-11.7275
熬	-11.7287
櫝	-11.7288
壝	-11.7296
芷	-11.7301
𦂳	-11.7304
溶	-11.7319
画	-11.7327
鏑	-11.7328
軋	-11.7328
䑛	-11.7329
虱	-11.7336
艫	-11.7347
繢	-11.7348
歿	-11.7352
穽	-11.7352
歧	-11.7354
魔	-11.7354
駘	-11.7374
鍜	-11.7375
悝	-11.7391
匕	-11.7394
屹	-11.7395
枲	-11.7395
剋	-11.741
淘	-11.7419
姝	-11.7436
獬	-11.7436
纍	-11.7437
睇	-11.744
椁	-11.7444
綯	-11.7464
鞶	-11.7467
箎	-11.7477
鐺	-11.7505
秫	-11.7506
劬	-11.7512
椘	-11.7549
隈	-11.7553
媯	-11.7553
荇	-11.7554
湮	-11.7557
蠆	-11.7581
堙	-11.7602
儕	-11.7605
𧖟	-11.762
蛻	-11.7623
鼙	-11.7623
秤	-11.7642
㤀	-11.765
叠	-11.7668
厓	-11.767
賻	-11.7672
嶧	-11.7674
袐	-11.7682
貓	-11.7685
娑	-11.7689
洹	-11.7691
峒	-11.7693
癖	-11.7695
堕	-11.7717
筩	-11.7721
碾	-11.7736
瑯	-11.7737
孳	-11.774
縵	-11.7747
爇	-11.7762
妣	-11.7764
睫	-11.7769
蕨	-11.7779
諲	-11.7784
彎	-11.7789
縊	-11.7792
壠	-11.7795
棒	-11.7811
冤	-11.7815
輜	-11.7829
廚	-11.7831
搢	-11.7836
闞	-11.7838
𣲖	-11.7843
疽	-11.7844
䂓	-11.7859
䙝	-11.7862
軿	-11.7864
陕	-11.7877
豨	-11.788
罘	-11.788
唳	-11.7884
靚	-11.7885
燋	-11.7889
孜	-11.7906
啞	-11.7909
賾	-11.7912
殳	-11.7914
診	-11.7915
糝	-11.7924
粘	-11.7929
弹	-11.7932
𡨕	-11.7938
甍	-11.795
柝	-11.7953
抹	-11.7953
鞞	-11.7954
筌	-11.7963
褭	-11.7971
腑	-11.7981
埀	-11.7983
揉	-11.801
橐	-11.8031
秔	-11.8033
雝	-11.8034
泯	-11.8035
黻	-11.8047
緌	-11.8049
糊	-11.8053
蒞	-11.8056
麽	-11.806
漑	-11.8074
璀	-11.8075
凜	-11.8085
犇	-11.8086
馘	-11.8097
兜	-11.8099
妥	-11.81
巍	-11.8102
洶	-11.8103
嗔	-11.8104
嘘	-11.8106
衒	-11.811
祏	-11.8122
勗	-11.8146
嶮	-11.817
罸	-11.8174
弈	-11.8184
蓂	-11.8189
噲	-11.8199
煜	-11.8201
鄠	-11.8203
旐	-11.8221
頲	-11.8223
圈	-11.8224
壼	-11.8226
楞	-11.8227
皃	-11.8227
暘	-11.8231
綝	-11.8244
葳	-11.825
殪	-11.825
彷	-11.8251
鈇	-11.8252
蹻	-11.8273
凑	-11.828
鄩	-11.8296
鎛	-11.8299
坻	-11.8321
㺯	-11.8322
瀚	-11.8346
熠	-11.8351
跗	-11.8351
劄	-11.8353
圯	-11.8394
夐	-11.8395
苧	-11.8396
㨿	-11.8401
蕘	-11.8403
榔	-11.8417
芡	-11.8419
罌	-11.842
漪	-11.8422
炮	-11.8432
孑	-11.8446
瀟	-11.8446
芙	-11.8466
聆	-11.8501
壌	-11.8501
苾	-11.8501
榱	-11.8504
幰	-11.8504
礬	-11.8507
貔	-11.8519
揲	-11.8558
㳙	-11.8578
畚	-11.8583
淖	-11.8606
蓑	-11.8623
皋	-11.8626
睠	-11.8628
邽	-11.8629
曬	-11.8652
湼	-11.8659
昜	-11.8662
蒂	-11.8676
鷲	-11.8683
衲	-11.8703
勻	-11.8703
慣	-11.8708
妒	-11.873
菅	-11.8731
髭	-11.8732
址	-11.8733
詮	-11.8735
詬	-11.8739
旟	-11.8754
藺	-11.8757
焰	-11.8758
麈	-11.8763
臛	-11.8777
愜	-11.8784
鍪	-11.8786
頺	-11.8788
堇	-11.879
廆	-11.8798
諠	-11.8808
詈	-11.8838
掬	-11.8841
狠	-11.8842
逗	-11.8864
㕑	-11.8865
雊	-11.8866
縝	-11.8867
歉	-11.8868
窒	-11.8869
蝟	-11.8887
蚓	-11.8887
虡	-11.8888
偓	-11.8907
洺	-11.8913
碓	-11.8917
褁	-11.8921
垓	-11.8942
暎	-11.8945
肢	-11.8945
鯖	-11.8995
儺	-11.8998
怏	-11.8999
騮	-11.902
詛	-11.9028
姤	-11.9037
磚	-11.9049
朐	-11.9053
遄	-11.9055
匈	-11.9055
濺	-11.9074
篙	-11.9076
彀	-11.9077
瘧	-11.908
䞇	-11.9089
茄	-11.91
殱	-11.9107
匭	-11.9108
鵑	-11.9127
聃	-11.9133
嬾	-11.9154
撼	-11.9157
漚	-11.9158
矰	-11.9168
壷	-11.9174
酆	-11.9181
儂	-11.9183
壚	-11.9185
黝	-11.9185
絕	-11.9186
漱	-11.9191
鈆	-11.9198
尭	-11.921
㵼	-11.9214
鷃	-11.9218
蹔	-11.9242
蠙	-11.9258
侶	-11.9263
麵	-11.9267
菓	-11.9269
烱	-11.9271
榼	-11.9271
堊	-11.9281
甿	-11.9291
熨	-11.9295
遡	-11.9296
洄	-11.9296
児	-11.9298
訐	-11.9301
臏	-11.9321
肋	-11.9324
璡	-11.9326
穡	-11.9326
忒	-11.9328
慱	-11.9349
啾	-11.9354
窈	-11.9355
頔	-11.9356
湄	-11.9406
虔	-11.9412
莠	-11.9414
糺	-11.9435
劓	-11.9439
糲	-11.9441
塤	-11.9461
喝	-11.9461
嚙	-11.9462
穠	-11.9464
酲	-11.9464
𠂻	-11.9467
娃	-11.9483
椅	-11.9485
襜	-11.9489
贑	-11.949
亊	-11.9492
棼	-11.9494
幙	-11.9515
楛	-11.9517
嶸	-11.952
崗	-11.9521
戱	-11.9522
濞	-11.9522
羶	-11.9526
孥	-11.9526
熖	-11.9531
兑	-11.9537
痺	-11.9553
饔	-11.958
餗	-11.9607
剰	-11.963
閃	-11.9633
閥	-11.9634
嵓	-11.9634
騏	-11.9656
攪	-11.9657
𥜗	-11.9658
郇	-11.966
􁈍	-11.9663
惋	-11.9663
溲	-11.9664
菟	-11.9682
氂	-11.9684
罩	-11.9685
螻	-11.9686
襖	-11.9686
麑	-11.9688
讖	-11.9691
裸	-11.9718
啻	-11.9719
濓	-11.9722
扄	-11.9723
柟	-11.9743
槌	-11.9744
玫	-11.9744
埶	-11.9745
蘩	-11.9747
阡	-11.9748
纚	-11.9749
宄	-11.9754
鐙	-11.977
茭	-11.9773
瓛	-11.9774
蚋	-11.9774
溱	-11.9775
埭	-11.9777
夬	-11.9777
嘿	-11.978
牂	-11.9781
暌	-11.9805
粳	-11.9807
璨	-11.9808
綌	-11.9809
揜	-11.9812
纈	-11.9825
嚶	-11.9831
祛	-11.9838
玭	-11.984
匄	-11.9843
矚	-11.9859
駛	-11.9861
縗	-11.9865
塼	-11.9889
努	-11.9892
峡	-11.9894
帕	-11.9916
佶	-11.9918
嗚	-11.9921
絪	-11.9922
樣	-11.993
㩁	-11.9932
墩	-11.9943
膂	-11.9944
煒	-11.9947
悄	-11.9948
惹	-11.9949
抉	-11.9962
拏	-11.998
倕	-11.9981
碭	-11.9983
央	-11.9995
豉	-12.0003
駰	-12.0004
咒	-12.0035
龐	-12.0039
絆	-12.004
炷	-12.0043
䆒	-12.0044
惴	-12.0047
〇	-12.0048
諄	-12.0051
鬐	-12.0068
䆳	-12.0069
蝎	-12.007
吃	-12.0072
瀬	-12.0073
塾	-12.0073
怵	-12.0073
歘	-12.01
鐶	-12.0101
洫	-12.0128
筏	-12.013
珩	-12.0132
窶	-12.0134
潯	-12.0138
雇	-12.0139
朓	-12.0154
貙	-12.0157
罝	-12.0159
蒔	-12.016
羇	-12.0161
頊	-12.0161
鷸	-12.0166
涅	-12.0166
淅	-12.0186
帟	-12.0187
蒋	-12.0187
嗅	-12.0189
祟	-12.0192
蹉	-12.0193
枷	-12.0193
闐	-12.022
概	-12.0228
絙	-12.0251
俳	-12.0253
蚩	-12.0255
醤	-12.0256
做	-12.0257
稲	-12.0272
陴	-12.0279
磑	-12.028
沬	-12.028
堠	-12.0281
翣	-12.0285
枸	-12.0308
舁	-12.0309
苓	-12.0312
煬	-12.0313
殛	-12.0317
恡	-12.0319
佽	-12.0345
証	-12.0346
趂	-12.0346
韈	-12.0347
湎	-12.0348
薳	-12.0352
蛛	-12.0399
挟	-12.0402
趺	-12.0402
両	-12.0406
悸	-12.0409
鍵	-12.041
釧	-12.0429
廽	-12.0433
荐	-12.0435
貰	-12.0436
疚	-12.0437
飫	-12.044
恰	-12.0462
槀	-12.0463
隤	-12.0464
鰌	-12.0464
荑	-12.0465
珙	-12.0467
膓	-12.0471
眡	-12.0471
戡	-12.0491
鵾	-12.0492
竣	-12.0494
滸	-12.0498
軛	-12.0498
衽	-12.0502
肓	-12.0503
菘	-12.0504
埏	-12.0506
旺	-12.0509
晶	-12.0512
裼	-12.052
袪	-12.0521
壍	-12.0528
逌	-12.0528
麕	-12.0529
賖	-12.0558
羃	-12.0558
傘	-12.0558
芃	-12.056
贛	-12.0562
茀	-12.0564
荃	-12.059
䏻	-12.0613
墊	-12.0616
酹	-12.062
幞	-12.0623
遴	-12.0623
鵜	-12.0647
狁	-12.0651
皦	-12.0654
矍	-12.0659
栅	-12.0669
礎	-12.0676
櫃	-12.0681
藂	-12.0685
徠	-12.0687
藐	-12.0689
瞬	-12.069
蜓	-12.0709
躅	-12.0717
㗖	-12.0722
閘	-12.0724
麫	-12.0746
哨	-12.075
甓	-12.0751
鼗	-12.0754
櫜	-12.0754
㪷	-12.0775
締	-12.0777
㠶	-12.0778
薈	-12.0781
犨	-12.0784
銛	-12.0814
晢	-12.0815
簸	-12.0818
忳	-12.082
蠃	-12.0833
赬	-12.084
摸	-12.0841
摰	-12.0844
涂	-12.0844
羹	-12.0846
犖	-12.0848
噎	-12.0849
厝	-12.085
淆	-12.0853
邳	-12.0879
糚	-12.0884
鯽	-12.0896
鍤	-12.0909
値	-12.0911
勔	-12.0935
栝	-12.0939
蓽	-12.094
轝	-12.0942
綻	-12.0972
憙	-12.1002
夹	-12.1006
綆	-12.1007
蹀	-12.1008
崛	-12.1011
㐫	-12.1038
慵	-12.1039
籃	-12.104
𨗳	-12.104
幬	-12.104
襍	-12.1041
躓	-12.1042
罇	-12.1043
瀹	-12.1069
烘	-12.1071
斲	-12.1075
獮	-12.1076
煇	-12.1079
涘	-12.1103
頳	-12.1103
涔	-12.1104
䧺	-12.1107
苐	-12.1107
瞋	-12.1108
㛰	-12.1109
壙	-12.1111
瘤	-12.1112
瀍	-12.1137
擠	-12.1141
珊	-12.1169
蓺	-12.1176
鸚	-12.1198
羖	-12.1201
楠	-12.1203
鷖	-12.1204
斡	-12.1204
郛	-12.1207
饘	-12.1213
虓	-12.1229
喇	-12.1233
釗	-12.1236
蓊	-12.1237
桶	-12.1238
偁	-12.124
穏	-12.1269
陔	-12.1271
鷩	-12.1272
踣	-12.1274
觶	-12.1275
澍	-12.1276
莪	-12.128
嵎	-12.1301
櫳	-12.1301
緄	-12.1306
嵯	-12.1307
紡	-12.1308
斚	-12.1334
哩	-12.1335
薏	-12.1339
献	-12.1343
巉	-12.1344
曛	-12.1368
杌	-12.1371
甖	-12.1372
畯	-12.1404
淬	-12.1406
瑄	-12.1408
囑	-12.1409
吊	-12.141
棚	-12.1413
磾	-12.1416
泱	-12.142
銚	-12.1437
鶬	-12.1439
闓	-12.144
溧	-12.1441
錞	-12.1442
弥	-12.1443
瀦	-12.1443
兗	-12.1443
猱	-12.1472
斆	-12.1473
芊	-12.1474
僦	-12.148
宂	-12.1484
暾	-12.1503
檮	-12.1503
皝	-12.1505
菡	-12.1507
蛆	-12.151
螘	-12.1511
繽	-12.1512
罅	-12.1512
窳	-12.1514
攣	-12.1517
煤	-12.152
淙	-12.1538
檠	-12.1541
鼃	-12.1544
鄖	-12.1546
匙	-12.1546
莧	-12.1569
滎	-12.1572
蠭	-12.1582
笮	-12.1585
梈	-12.1603
鰕	-12.1612
𢷬	-12.1615
繻	-12.1615
殂	-12.1615
伾	-12.1616
蒺	-12.1618
疉	-12.1641
顱	-12.1644
紉	-12.1645
嵌	-12.1649
霈	-12.165
咤	-12.1651
嗑	-12.1651
苫	-12.1652
蛉	-12.1677
柷	-12.1677
狽	-12.1678
嚬	-12.1681
坰	-12.1682
纜	-12.1682
猊	-12.1682
蹂	-12.1685
𠖇	-12.1686
桔	-12.169
觱	-12.1713
襯	-12.1714
莓	-12.1716
淩	-12.1717
舳	-12.1718
掎	-12.172
魋	-12.1725
簣	-12.1726
湓	-12.1743
畛	-12.1753
獅	-12.1755
鰥	-12.1756
憊	-12.1756
悞	-12.1757
緻	-12.1759
樟	-12.1781
嗷	-12.179
輳	-12.1791
禜	-12.1801
紼	-12.1803
鑷	-12.1823
蘅	-12.1823
粢	-12.1823
昺	-12.1824
絛	-12.1855
揄	-12.1856
郈	-12.1858
枋	-12.1859
蚕	-12.1859
刅	-12.1891
匀	-12.1892
溽	-12.1899
荏	-12.1901
傴	-12.1901
𫀆	-12.1925
洿	-12.1933
櫪	-12.1934
個	-12.1939
丼	-12.1959
覯	-12.1964
栩	-12.1966
眚	-12.1973
嘴	-12.1997
櫬	-12.2003
騑	-12.2006
斁	-12.2008
癰	-12.2016
惚	-12.2037
逍	-12.2043
閠	-12.2045
鄘	-12.2046
鰲	-12.205
枵	-12.206
肚	-12.2073
郍	-12.2075
蠖	-12.2075
軹	-12.2079
紲	-12.2079
饉	-12.2079
葑	-12.208
鋏	-12.2084
断	-12.2085
瑑	-12.2086
濊	-12.2108
瘼	-12.211
凰	-12.2111
緊	-12.2111
玻	-12.2117
亰	-12.2143
枌	-12.2145
羝	-12.2146
潑	-12.2146
单	-12.2146
頎	-12.2147
沚	-12.2148
聒	-12.2148
窖	-12.2148
圏	-12.215
琱	-12.215
黽	-12.2153
訂	-12.2157
蟆	-12.2181
溼	-12.2182
焙	-12.2212
鸝	-12.2218
傒	-12.2218
濆	-12.2222
郟	-12.2222
胞	-12.2223
瑚	-12.2223
搦	-12.2225
氾	-12.2227
椰	-12.2291
柚	-12.2294
矮	-12.2294
蔔	-12.2296
秪	-12.2296
嶓	-12.2299
樁	-12.2299
窑	-12.2314
擐	-12.2331
觔	-12.2333
凭	-12.2336
篾	-12.2336
莆	-12.2337
蒍	-12.2342
傉	-12.2366
嫣	-12.2374
茁	-12.2376
怱	-12.2376
瑪	-12.2405
徨	-12.2408
檉	-12.2445
篡	-12.2449
􁁜	-12.2451
眊	-12.2452
籀	-12.2457
橄	-12.2478
欖	-12.2481
鵶	-12.2484
嬋	-12.2486
垤	-12.2487
敺	-12.249
畞	-12.2517
勍	-12.2519
㾗	-12.2521
檟	-12.2521
楣	-12.2523
樛	-12.2523
潺	-12.2524
套	-12.2524
訕	-12.2525
鄗	-12.2527
儛	-12.2527
閙	-12.2528
蝮	-12.2528
埸	-12.2528
剏	-12.2533
氅	-12.2556
膊	-12.2564
櫨	-12.2564
苡	-12.2564
糅	-12.2566
慊	-12.2567
煞	-12.2599
蹌	-12.2599
擷	-12.2599
諝	-12.2603
皺	-12.2606
赧	-12.2607
這	-12.2608
焯	-12.2615
紞	-12.2638
呻	-12.2639
嫚	-12.264
湔	-12.264
儵	-12.2641
杠	-12.2673
鋌	-12.2674
櫺	-12.2674
點	-12.2677
酧	-12.2678
滻	-12.2679
窅	-12.268
娉	-12.268
滹	-12.271
皤	-12.2716
痍	-12.2718
甬	-12.2719
𣺌	-12.2721
瀼	-12.2749
鉶	-12.2752
麛	-12.2752
鍚	-12.2754
鐔	-12.2756
臚	-12.2757
橡	-12.2791
墠	-12.2796
賵	-12.2798
掊	-12.2801
侂	-12.2801
鸎	-12.2804
閶	-12.2829
囓	-12.2832
撩	-12.2836
湋	-12.2863
関	-12.2874
輶	-12.2876
縋	-12.2878
吮	-12.288
勦	-12.288
庳	-12.2881
蛺	-12.2901
哂	-12.2909
爱	-12.291
蹷	-12.2912
膜	-12.2912
搶	-12.2914
咳	-12.2916
嚚	-12.2922
矇	-12.2958
罏	-12.2961
鵁	-12.2986
皿	-12.2991
欎	-12.2996
翾	-12.3029
盩	-12.3029
箧	-12.3032
麯	-12.3032
秧	-12.3034
腆	-12.3036
翽	-12.3062
舖	-12.3066
邛	-12.3068
缸	-12.3068
𥙿	-12.3069
霾	-12.3071
嘒	-12.3073
皐	-12.3075
嬙	-12.3076
剗	-12.3078
蟣	-12.3105
訏	-12.3112
翛	-12.3116
弢	-12.3149
㽞	-12.315
纏	-12.3151
鷇	-12.3152
鵩	-12.3152
鄞	-12.3156
綍	-12.3156
絀	-12.3157
遹	-12.3194
駸	-12.3195
黶	-12.3206
䰅	-12.3218
蔟	-12.3231
顰	-12.3232
捋	-12.3233
鞦	-12.3233
䓁	-12.327
衂	-12.3271
袞	-12.3274
藟	-12.3274
閈	-12.3276
轔	-12.3277
韝	-12.3278
錙	-12.3279
譔	-12.328
轢	-12.3281
鸑	-12.3281
鳲	-12.3288
詧	-12.3307
颼	-12.3314
骼	-12.3314
淝	-12.3315
莵	-12.3317
咋	-12.3319
姧	-12.3323
扑	-12.3326
蔀	-12.333
韵	-12.3344
厎	-12.3346
浥	-12.3354
妺	-12.3357
騄	-12.3358
拈	-12.3358
矗	-12.3359
礱	-12.336
鉄	-12.3366
戛	-12.3394
靨	-12.3398
鼷	-12.3398
盱	-12.3399
濂	-12.3402
曁	-12.3402
悒	-12.3403
腮	-12.3436
箬	-12.3437
狷	-12.3437
埤	-12.3438
蒭	-12.344
駈	-12.3446
蕢	-12.3452
尒	-12.3483
彿	-12.3484
衎	-12.3485
嚕	-12.3519
鴦	-12.352
蠒	-12.352
鋋	-12.3522
畹	-12.3524
洊	-12.3527
餔	-12.3528
軨	-12.353
疥	-12.353
劌	-12.3533
鏞	-12.3564
輞	-12.3566
簏	-12.3569
姉	-12.3571
巋	-12.3601
梔	-12.3605
鍛	-12.3609
脰	-12.3609
邐	-12.361
戣	-12.3611
襁	-12.3612
齕	-12.3612
䜿	-12.3614
么	-12.3615
廞	-12.3619
沇	-12.3647
葫	-12.365
鏄	-12.3651
郿	-12.3651
㢠	-12.3652
禅	-12.3653
侠	-12.3653
粃	-12.3656
賡	-12.3657
鄫	-12.3659
筥	-12.3689
鷴	-12.3692
䖝	-12.3694
磻	-12.3694
迓	-12.3694
跼	-12.3695
沍	-12.3697
鑱	-12.37
韍	-12.3732
呀	-12.3735
麪	-12.3767
莉	-12.3771
晙	-12.3773
縂	-12.3775
䍐	-12.3777
炅	-12.378
晻	-12.3784
媫	-12.3784
煨	-12.3786
咮	-12.3792
騭	-12.3815
騅	-12.3817
贇	-12.3818
蛄	-12.3822
畮	-12.3822
磽	-12.3825
擺	-12.3827
扛	-12.3828
痼	-12.3828
䲭	-12.3831
篥	-12.3861
轘	-12.387
眥	-12.3872
埴	-12.3881
醅	-12.3903
畬	-12.3908
轟	-12.391
狭	-12.3911
嘈	-12.3912
宙	-12.3914
冺	-12.3917
帨	-12.3918
醍	-12.392
氍	-12.3942
嚳	-12.3947
褎	-12.395
澇	-12.3951
蠋	-12.3953
届	-12.3957
𤯝	-12.3958
噓	-12.3959
驁	-12.3963
臊	-12.3965
偵	-12.3991
肜	-12.3991
劈	-12.3995
穩	-12.3998
葷	-12.4001
噀	-12.4005
尫	-12.4005
慼	-12.4009
玘	-12.4038
霅	-12.4044
妤	-12.4048
僥	-12.4049
嫄	-12.4052
唘	-12.4079
蘼	-12.4082
氲	-12.4086
扎	-12.4086
戩	-12.4087
徊	-12.4087
瀰	-12.409
棫	-12.409
肪	-12.4091
龠	-12.4095
鼯	-12.4124
樅	-12.4126
壕	-12.4132
瘖	-12.4138
轆	-12.4173
厔	-12.4176
緍	-12.4177
篷	-12.4177
凟	-12.4179
㹠	-12.4179
轓	-12.4186
憬	-12.422
橦	-12.422
紕	-12.4222
㬰	-12.4222
隩	-12.4223
懃	-12.4225
鼐	-12.4225
歊	-12.4226
棻	-12.4228
茆	-12.426
頹	-12.4262
鶄	-12.4263
赩	-12.4266
芼	-12.4266
㟁	-12.4268
捽	-12.4269
邜	-12.427
澌	-12.4273
仝	-12.4277
狖	-12.4309
渌	-12.4309
姫	-12.4311
馗	-12.4316
侁	-12.4317
膴	-12.4319
党	-12.4353
駼	-12.4355
牐	-12.4355
跱	-12.4357
皖	-12.4358
晤	-12.436
剄	-12.4361
龢	-12.4369
錠	-12.4393
椶	-12.4394
敔	-12.4398
瑁	-12.4401
哇	-12.4402
蔞	-12.4402
摺	-12.4402
簀	-12.4403
懔	-12.4407
孱	-12.4408
瀧	-12.4446
惣	-12.4449
榷	-12.4452
蕋	-12.4453
蘊	-12.4455
鸕	-12.4489
栱	-12.449
郕	-12.4493
洳	-12.4496
臞	-12.4498
糕	-12.454
裛	-12.4541
廕	-12.4542
胾	-12.4542
灃	-12.4545
𡊮	-12.4551
獒	-12.4553
褾	-12.4578
茉	-12.458
䍧	-12.4584
戞	-12.4585
鞘	-12.4587
昩	-12.459
侗	-12.4593
扐	-12.4595
颷	-12.4595
褌	-12.4626
廌	-12.4633
硎	-12.4635
瞞	-12.4636
踦	-12.464
趁	-12.4673
蜋	-12.4675
卣	-12.4679
䰟	-12.4684
灊	-12.4685
毉	-12.4685
礿	-12.4686
穟	-12.4688
笻	-12.4688
蠏	-12.4689
鵒	-12.4691
蜮	-12.4715
砲	-12.4721
姮	-12.4726
趫	-12.4727
烜	-12.4734
蜿	-12.4734
綖	-12.4734
輭	-12.4734
掄	-12.4736
肻	-12.4737
爆	-12.4742
汞	-12.4765
鯢	-12.4769
㶚	-12.4773
蜥	-12.4774
羑	-12.4778
洼	-12.4784
蹠	-12.4786
狃	-12.4787
芍	-12.482
駃	-12.4822
轤	-12.4823
籞	-12.4823
淥	-12.4824
縚	-12.4824
繰	-12.4828
磷	-12.4828
喑	-12.4833
箒	-12.4834
殮	-12.4834
臾	-12.4834
炁	-12.4845
崦	-12.4876
掦	-12.4876
巗	-12.4881
騧	-12.4915
櫚	-12.4918
頵	-12.4918
蓀	-12.4924
町	-12.4924
耋	-12.4925
惨	-12.4925
莩	-12.4925
灸	-12.4927
螳	-12.4932
諴	-12.4933
猩	-12.4967
伃	-12.4969
憮	-12.4973
㫤	-12.4975
掞	-12.5023
釭	-12.5024
禴	-12.5026
罃	-12.5028
􁇋	-12.5056
韲	-12.5064
絁	-12.5067
鎚	-12.5068
郜	-12.5069
愎	-12.507
犴	-12.5072
酖	-12.5075
涙	-12.5076
凾	-12.5078
勳	-12.5114
嘷	-12.5116
絇	-12.5116
枻	-12.5117
䭾	-12.512
峘	-12.512
灝	-12.5123
稌	-12.5124
諏	-12.5129
<	-12.5148
t	-12.5151
鞚	-12.516
袈	-12.5168
頏	-12.5168
頫	-12.5169
懣	-12.5171
曈	-12.5173
曆	-12.5176
靁	-12.5183
瓔	-12.521
蜴	-12.5215
謖	-12.5217
适	-12.5217
齪	-12.5219
䖟	-12.522
窩	-12.5221
劃	-12.5222
删	-12.5222
砭	-12.5228
珝	-12.5262
蹯	-12.5263
澥	-12.527
眦	-12.5273
嶢	-12.5277
𬎼	-12.528
毖	-12.5316
拽	-12.5317
僰	-12.5317
躇	-12.5319
桮	-12.532
攽	-12.5324
篲	-12.5327
滲	-12.5362
壖	-12.5365
釃	-12.5369
渟	-12.5369
鯈	-12.537
阬	-12.5371
薌	-12.5373
帬	-12.5375
韙	-12.5379
瞍	-12.5381
恧	-12.5418
挍	-12.5418
蚶	-12.5418
篪	-12.542
糯	-12.5422
朧	-12.5423
筲	-12.5424
覡	-12.5425
硤	-12.5461
茝	-12.5468
胭	-12.5469
裟	-12.547
絫	-12.5471
媾	-12.5472
醸	-12.5474
蕞	-12.5474
蒱	-12.5476
賕	-12.5476
欬	-12.5515
銍	-12.552
醎	-12.5523
剃	-12.5523
橰	-12.5524
獫	-12.5525
戕	-12.5532
鬷	-12.5532
娼	-12.5565
鈺	-12.5565
楙	-12.5569
玖	-12.5572
珞	-12.5573
臙	-12.5573
鄕	-12.5573
撗	-12.5574
欷	-12.5574
邅	-12.5575
芑	-12.5576
枰	-12.5576
獷	-12.5576
鱷	-12.5578
尔	-12.5578
饜	-12.5581
暦	-12.5582
骰	-12.5583
㷀	-12.5624
詒	-12.5626
哮	-12.5628
詫	-12.5628
肸	-12.5628
鬴	-12.5636
遟	-12.5637
鴂	-12.5668
萹	-12.5668
漓	-12.5674
喋	-12.5674
猖	-12.5674
默	-12.5676
塑	-12.5676
鑕	-12.5678
炰	-12.5678
愀	-12.5679
滙	-12.568
剸	-12.568
虖	-12.5681
怳	-12.5681
暁	-12.5682
菀	-12.5682
樝	-12.5714
琥	-12.5721
苹	-12.5725
啗	-12.5727
啣	-12.5727
饕	-12.5728
苒	-12.5729
瓴	-12.573
姆	-12.5731
棐	-12.5733
渫	-12.5735
蠣	-12.5736
柢	-12.5736
甎	-12.5736
廛	-12.5736
郫	-12.5739
髽	-12.5774
珧	-12.5776
騊	-12.5777
狻	-12.5781
脹	-12.5783
禫	-12.5786
鎌	-12.579
睚	-12.579
蛭	-12.5832
傚	-12.5834
鋩	-12.5836
嚭	-12.5837
縲	-12.5837
焞	-12.5838
鷀	-12.5882
萏	-12.5885
濘	-12.5887
睥	-12.5888
躄	-12.589
潏	-12.5891
掀	-12.5891
徯	-12.5895
喁	-12.5895
熛	-12.59
讟	-12.5902
敳	-12.5936
閡	-12.594
褕	-12.5941
㝡	-12.5941
焜	-12.5941
橑	-12.5941
瓷	-12.5942
隃	-12.5943
讁	-12.595
蒻	-12.5989
臝	-12.5997
蓆	-12.5998
鴝	-12.6001
礦	-12.6004
娵	-12.6012
曀	-12.6047
斸	-12.605
噤	-12.6053
褫	-12.6053
砮	-12.6054
罾	-12.6055
鏌	-12.6055
扺	-12.6056
倬	-12.6056
螂	-12.6062
鞵	-12.6095
椑	-12.6099
叉	-12.6102
蜕	-12.6107
脤	-12.6109
塏	-12.611
襴	-12.615
焬	-12.6152
呦	-12.6154
秭	-12.6159
彜	-12.6159
篔	-12.616
揩	-12.616
蚪	-12.6161
癃	-12.6162
糒	-12.6162
柙	-12.621
琖	-12.621
桄	-12.621
槳	-12.6212
砢	-12.6212
疴	-12.6213
璪	-12.6214
剉	-12.6216
觝	-12.6216
券	-12.6217
賙	-12.6217
癯	-12.6218
耉	-12.6219
祊	-12.622
噭	-12.6223
鉷	-12.6229
暵	-12.6229
旍	-12.6261
罳	-12.6262
簨	-12.6263
暕	-12.6263
岧	-12.6265
崙	-12.6268
晰	-12.627
搭	-12.6271
螣	-12.6272
耰	-12.6273
疢	-12.6274
峪	-12.6311
玁	-12.632
沭	-12.6321
僨	-12.6322
塍	-12.6323
臬	-12.6324
韡	-12.6324
襠	-12.6325
蹏	-12.6325
胝	-12.6326
踝	-12.6332
蝱	-12.637
茜	-12.6371
溍	-12.6372
苣	-12.6376
瘍	-12.6381
雰	-12.6385
慆	-12.6385
湣	-12.6386
嗛	-12.6387
蜉	-12.6389
亹	-12.6392
灤	-12.6423
撚	-12.6432
跎	-12.6434
儐	-12.6437
歜	-12.6439
䥫	-12.644
㐲	-12.644
惓	-12.6441
窬	-12.6442
繄	-12.6442
裵	-12.6485
闉	-12.6487
穣	-12.6488
駉	-12.6494
癢	-12.6497
誹	-12.6497
窣	-12.6497
柈	-12.6544
袿	-12.6544
晊	-12.6547
桁	-12.6547
戔	-12.6549
咬	-12.655
㦯	-12.6551
嶰	-12.6553
姙	-12.6555
鴇	-12.6601
醑	-12.6602
壎	-12.6603
苽	-12.6603
憒	-12.6606
瞶	-12.6613
珦	-12.6616
籤	-12.6658
胤	-12.6662
梏	-12.6666
漭	-12.6666
慳	-12.6668
瓈	-12.6668
宁	-12.6671
醲	-12.6675
罋	-12.6716
嶔	-12.6719
韉	-12.6722
賸	-12.6725
瀣	-12.673
坫	-12.6735
拷	-12.6736
鶖	-12.6773
稾	-12.6776
串	-12.6776
柁	-12.6779
熳	-12.6779
橛	-12.678
憺	-12.6781
丰	-12.6781
慴	-12.6782
揷	-12.6784
汩	-12.6784
內	-12.6785
薙	-12.6789
襚	-12.6793
琲	-12.6834
搥	-12.6836
牣	-12.6837
瘥	-12.6838
鄼	-12.684
暱	-12.6846
梲	-12.6849
𤦺	-12.685
嶤	-12.6895
軔	-12.6897
旴	-12.6897
屧	-12.6903
吭	-12.6905
餕	-12.691
凈	-12.691
𥿄	-12.6947
㲲	-12.6949
楩	-12.6952
膀	-12.6957
灔	-12.6957
盭	-12.696
鋼	-12.6962
屎	-12.6962
駔	-12.6962
胔	-12.6965
儈	-12.6968
隟	-12.7012
抒	-12.7015
㢤	-12.7016
綢	-12.7018
飣	-12.702
狶	-12.702
秸	-12.7021
醐	-12.7022
刓	-12.7023
秒	-12.7034
恙	-12.704
蘢	-12.7076
匆	-12.7077
莬	-12.7078
崿	-12.7078
痊	-12.7078
冄	-12.7078
螾	-12.708
倮	-12.7083
搤	-12.7087
䜴	-12.713
趯	-12.7133
淯	-12.7135
腓	-12.7137
哽	-12.7138
鏹	-12.7139
萁	-12.7141
綫	-12.7142
鍇	-12.7142
蚍	-12.7142
捃	-12.7143
笱	-12.7146
栻	-12.7147
躐	-12.7148
擡	-12.7191
臑	-12.7197
㩦	-12.7198
瞀	-12.7199
痤	-12.7199
澨	-12.72
坌	-12.72
歠	-12.72
鴒	-12.7202
辠	-12.7206
猺	-12.7212
褧	-12.725
菔	-12.7253
懴	-12.7255
姣	-12.7258
啁	-12.7259
焱	-12.7259
靷	-12.726
荄	-12.7261
昫	-12.7264
窕	-12.7264
憕	-12.7265
暍	-12.7265
爝	-12.7266
洸	-12.7314
𣆀	-12.7314
犄	-12.7315
躊	-12.7318
甗	-12.732
誾	-12.7321
咫	-12.7321
竚	-12.7321
爚	-12.7323
癉	-12.7324
辝	-12.7326
榕	-12.7366
碗	-12.7375
餚	-12.7379
彄	-12.7382
蓏	-12.7383
踪	-12.7384
璃	-12.7384
鷥	-12.7433
蘸	-12.7438
哦	-12.7443
胱	-12.7444
錚	-12.7445
盬	-12.7445
萑	-12.7446
訃	-12.7448
緤	-12.7448
蟒	-12.7449
傀	-12.745
㥄	-12.745
窪	-12.7452
倏	-12.7496
蓉	-12.75
辣	-12.7502
悮	-12.7502
崐	-12.7504
捄	-12.7505
粽	-12.7505
夥	-12.7505
檿	-12.7506
蜼	-12.7507
讋	-12.7509
蝤	-12.7511
牸	-12.7562
袷	-12.7565
攤	-12.7566
伷	-12.7568
峥	-12.7569
䌫	-12.757
骹	-12.757
确	-12.7572
棉	-12.7572
瀏	-12.7572
笁	-12.7573
毌	-12.7622
濰	-12.7625
枿	-12.7625
廿	-12.7625
孌	-12.7627
鄄	-12.7628
嘖	-12.763
凹	-12.7632
鵙	-12.7632
叵	-12.7633
瘵	-12.7634
僎	-12.7637
扳	-12.7637
悃	-12.7641
胯	-12.7686
檳	-12.7687
璅	-12.7694
賒	-12.7695
鼕	-12.7695
佻	-12.7698
噏	-12.7699
惸	-12.7699
唼	-12.77
腳	-12.7704
翃	-12.7745
濼	-12.7748
繶	-12.7753
罨	-12.7753
楝	-12.7754
辮	-12.7755
瞥	-12.7755
罥	-12.7757
挐	-12.7758
簜	-12.776
号	-12.776
摐	-12.776
韆	-12.7761
玃	-12.7762
覦	-12.7762
棖	-12.7762
秕	-12.7764
跬	-12.7765
鱟	-12.7769
鄷	-12.7771
蠐	-12.7808
菼	-12.7814
臡	-12.7814
偘	-12.782
饁	-12.7823
迯	-12.7823
踧	-12.7825
刲	-12.7826
撑	-12.7827
琶	-12.7829
槧	-12.7829
蜯	-12.7831
妲	-12.7831
韎	-12.7832
柤	-12.7835
霣	-12.7889
萋	-12.7891
嬈	-12.7892
卨	-12.7893
鶂	-12.7894
傖	-12.7894
螗	-12.7948
淼	-12.7949
蘤	-12.7951
鷦	-12.7951
逥	-12.7952
襞	-12.7952
怍	-12.7953
忖	-12.7954
赳	-12.7956
饟	-12.7961
蚣	-12.7962
睽	-12.7963
腠	-12.797
䕷	-12.8009
駵	-12.8012
蜣	-12.8014
佟	-12.8016
桎	-12.8017
嚥	-12.8017
捎	-12.8018
疹	-12.8022
窆	-12.8023
埜	-12.8026
詖	-12.8026
嚇	-12.8026
週	-12.8027
祺	-12.8031
澒	-12.8075
捻	-12.8083
淛	-12.8085
㫋	-12.8087
憧	-12.8087
篝	-12.8087
嵋	-12.8087
嫦	-12.8087
娀	-12.8088
卲	-12.809
坳	-12.8092
攙	-12.8092
磋	-12.8096
颶	-12.8098
庀	-12.81
䡄	-12.8102
蚳	-12.8144
䔩	-12.8149
𬞞	-12.8152
蹐	-12.8154
挼	-12.8154
朦	-12.8154
蓁	-12.8158
婪	-12.8158
麂	-12.816
沲	-12.8212
藷	-12.8214
鍠	-12.8219
戹	-12.8223
䴡	-12.8223
柂	-12.8224
忉	-12.8224
酳	-12.8228
痒	-12.8228
蟜	-12.823
傕	-12.8276
䡖	-12.8281
𠻳	-12.8284
礴	-12.8287
滏	-12.8287
芉	-12.8288
畒	-12.8289
咆	-12.8289
稿	-12.829
慇	-12.829
蚺	-12.8293
筓	-12.8296
泡	-12.8297
甽	-12.8351
艸	-12.8355
檎	-12.8357
靦	-12.8358
酏	-12.8359
粕	-12.8361
鬆	-12.8361
鄲	-12.8361
瀋	-12.8362
黌	-12.8362
崒	-12.8363
皴	-12.8417
顇	-12.8417
餧	-12.8418
滚	-12.842
尙	-12.8421
籕	-12.8427
娜	-12.8428
祅	-12.843
鄊	-12.843
痾	-12.8433
妊	-12.848
荳	-12.8487
鱓	-12.8488
琉	-12.849
鱧	-12.849
燻	-12.8491
踘	-12.8492
蛸	-12.8492
漼	-12.8493
棓	-12.8495
呴	-12.8495
瘢	-12.8495
豋	-12.8495
絓	-12.8496
刧	-12.8497
嫫	-12.8499
淀	-12.8544
崟	-12.8554
岨	-12.8555
鮐	-12.8555
楼	-12.8555
藎	-12.856
闤	-12.856
忭	-12.856
噍	-12.8564
縡	-12.8565
瑘	-12.8567
辤	-12.8568
懵	-12.8573
坏	-12.8575
拇	-12.8576
韤	-12.8624
嵒	-12.8627
雚	-12.863
貅	-12.8631
酇	-12.8632
蟊	-12.8634
箘	-12.8635
鞉	-12.8635
筞	-12.8636
芘	-12.8636
㫄	-12.8643
𤾉	-12.8643
箙	-12.8646
杷	-12.8691
笴	-12.8695
簳	-12.8699
猝	-12.8699
輼	-12.87
髩	-12.87
燁	-12.8701
芣	-12.8702
闠	-12.8704
踶	-12.8705
爬	-12.8705
賨	-12.8706
冑	-12.8707
圮	-12.8708
擗	-12.8709
斮	-12.8711
鄔	-12.8769
穄	-12.877
邰	-12.8773
汛	-12.8775
筰	-12.8777
徉	-12.8779
据	-12.8781
裠	-12.8839
羕	-12.884
寬	-12.8842
嫠	-12.8844
浟	-12.8848
髫	-12.8849
鄶	-12.885
蝀	-12.885
痿	-12.8852
尢	-12.8852
毦	-12.8909
涑	-12.891
𫐠	-12.8915
垜	-12.8916
薁	-12.8917
麏	-12.8917
摻	-12.8918
麩	-12.8918
諼	-12.892
幪	-12.8923
丱	-12.8925
唅	-12.8929
賍	-12.8934
硃	-12.8981
巂	-12.8985
匯	-12.8986
鷫	-12.8988
僇	-12.8988
毯	-12.8989
蝥	-12.8989
錘	-12.899
仡	-12.8993
孀	-12.8993
揵	-12.8994
稑	-12.8995
芭	-12.8995
麰	-12.8995
鶵	-12.8997
禭	-12.9004
胊	-12.9052
樺	-12.9055
豻	-12.9055
襌	-12.9059
舷	-12.9059
葯	-12.906
蛹	-12.906
篩	-12.906
磎	-12.9062
佼	-12.9062
䘖	-12.9069
鐍	-12.907
牎	-12.9073
厖	-12.9074
脁	-12.9126
㓪	-12.9131
岵	-12.9132
迕	-12.9135
壩	-12.9138
梃	-12.9139
㴞	-12.9139
袠	-12.9139
鳷	-12.914
嶄	-12.914
鱖	-12.9203
硫	-12.9206
磵	-12.9208
皪	-12.9211
悪	-12.9211
鏖	-12.9213
﨑	-12.9216
鴽	-12.9216
穜	-12.9216
鐲	-12.9223
蕈	-12.9228
翌	-12.9266
瓏	-12.9282
艤	-12.9288
襆	-12.929
烙	-12.9293
蝉	-12.9293
痔	-12.9301
鍮	-12.9356
卸	-12.9356
騣	-12.9357
觳	-12.9357
懊	-12.9358
篳	-12.9359
簹	-12.9361
嚻	-12.9361
吒	-12.9362
恁	-12.9362
鼂	-12.9365
蟪	-12.9367
㢮	-12.9369
机	-12.9369
唶	-12.9372
𣪚	-12.9426
忸	-12.9431
斕	-12.9433
髹	-12.9434
戅	-12.9436
瓿	-12.944
廋	-12.9441
閾	-12.9444
邲	-12.9444
駹	-12.9445
裡	-12.9446
尨	-12.9449
諐	-12.9507
韠	-12.9511
糵	-12.9511
惬	-12.9512
薝	-12.9513
鬂	-12.9513
瞭	-12.9517
轎	-12.9518
鍰	-12.952
皡	-12.952
塉	-12.952
浞	-12.9528
螬	-12.9573
騠	-12.9582
眭	-12.9584
瀁	-12.9586
犛	-12.9586
詿	-12.9587
鰓	-12.9588
醆	-12.9589
𥅆	-12.9593
皛	-12.9593
踔	-12.9595
鎩	-12.9595
尻	-12.9596
㬋	-12.9596
蕕	-12.96
絍	-12.9605
餤	-12.9661
砰	-12.9665
獰	-12.9665
灂	-12.9668
昞	-12.9669
凊	-12.967
闒	-12.9672
芎	-12.9674
湩	-12.9675
胏	-12.9675
禠	-12.9676
塿	-12.9677
騤	-12.9677
匐	-12.9734
玢	-12.9739
惮	-12.974
栲	-12.974
膈	-12.974
堨	-12.9742
㳫	-12.9744
𬒮	-12.9745
鵕	-12.9746
騃	-12.9746
絏	-12.9747
瞢	-12.9747
竞	-12.9747
魍	-12.9748
棱	-12.9749
䆫	-12.975
鞀	-12.9752
瘕	-12.9752
楔	-12.9753
票	-12.9753
狴	-12.9757
朅	-12.9808
褶	-12.9812
描	-12.9817
韌	-12.9818
騕	-12.982
瓤	-12.9821
柎	-12.9828
咿	-12.9829
疣	-12.983
軄	-12.9831
褏	-12.9831
獯	-12.9898
瓞	-12.9898
跕	-12.9899
簉	-12.9899
蟈	-12.9902
尠	-12.9903
彍	-12.9904
稂	-12.9907
琵	-12.9909
鑛	-12.9911
綮	-12.9911
杻	-12.9977
囉	-12.9977
鰐	-12.9978
灕	-12.9982
栟	-12.9982
儗	-12.9983
獐	-12.9983
磅	-12.9984
樾	-12.9985
腯	-12.9991
騘	-12.9992
碏	-12.9992
燬	-12.9994
蜊	-12.9995
菖	-13.0056
㯶	-13.006
籓	-13.0061
閿	-13.0062
鶘	-13.0063
諗	-13.0065
煴	-13.0068
胼	-13.007
婼	-13.0071
闑	-13.0072
詼	-13.0138
拌	-13.0138
渼	-13.0139
漯	-13.0141
麃	-13.0141
渢	-13.0143
禡	-13.0144
瞪	-13.0151
蠕	-13.0151
懍	-13.0152
乱	-13.0153
摳	-13.0155
閴	-13.0223
翡	-13.0223
麀	-13.0225
杆	-13.0226
𠡠	-13.0227
鬒	-13.0228
剩	-13.0229
臈	-13.0229
䴊	-13.023
惘	-13.0233
崕	-13.0235
僱	-13.0242
嫖	-13.0294
稳	-13.0303
淦	-13.0303
躞	-13.0303
玳	-13.0308
菻	-13.0308
倓	-13.0309
稊	-13.031
鰒	-13.031
撐	-13.0311
窋	-13.0312
煽	-13.0314
廁	-13.0314
悱	-13.0315
麒	-13.0315
寞	-13.0315
卹	-13.0316
爟	-13.0317
蠁	-13.032
眈	-13.0384
唧	-13.0385
眘	-13.0387
匾	-13.0394
沗	-13.0395
罼	-13.0395
溆	-13.0399
酃	-13.04
鍭	-13.0411
褉	-13.0465
箑	-13.0466
鵂	-13.0467
噶	-13.0467
醺	-13.0471
鱮	-13.0472
凸	-13.0474
柸	-13.0478
餱	-13.0478
嗽	-13.0479
餬	-13.0481
囁	-13.0489
匜	-13.055
䴥	-13.0552
韁	-13.0553
蘺	-13.0556
菩	-13.0557
滈	-13.0557
譌	-13.0559
仔	-13.0561
罻	-13.0561
攴	-13.0563
巇	-13.0563
廄	-13.0565
簦	-13.0565
觿	-13.0565
噦	-13.0566
纇	-13.057
諉	-13.0573
厙	-13.0615
竢	-13.0645
裯	-13.0645
隮	-13.0647
缻	-13.0647
籧	-13.0648
澱	-13.0648
黟	-13.0649
瑨	-13.0651
釂	-13.0651
祸	-13.0652
菉	-13.0652
㨂	-13.0653
蜨	-13.0726
鮎	-13.0726
瞎	-13.0727
䄡	-13.0728
蝝	-13.0729
你	-13.0731
餈	-13.0732
肫	-13.0732
噱	-13.0733
茇	-13.0736
跟	-13.0737
聪	-13.0738
媮	-13.0744
祍	-13.0746
炒	-13.0815
撙	-13.0815
訇	-13.0816
㰱	-13.0818
䢴	-13.0819
妳	-13.0819
劎	-13.082
輴	-13.082
踖	-13.0821
帀	-13.0822
懟	-13.0822
坯	-13.0823
僬	-13.0824
輾	-13.0825
鶺	-13.0826
湥	-13.0873
哆	-13.09
惎	-13.0903
嶇	-13.0904
蓞	-13.0906
蛑	-13.0909
裀	-13.0911
禬	-13.0913
姞	-13.0913
嬛	-13.0913
躒	-13.0914
頞	-13.0914
䓗	-13.0916
涴	-13.0989
姹	-13.0992
杙	-13.0994
蠓	-13.0995
遝	-13.0996
喔	-13.0997
捩	-13.0998
陿	-13.1002
磥	-13.1003
潾	-13.1006
鯔	-13.1074
繐	-13.1076
顦	-13.1078
豭	-13.1078
洑	-13.1083
綷	-13.1084
换	-13.1084
葚	-13.1085
篸	-13.1092
蠍	-13.1092
紒	-13.1094
膢	-13.1097
琕	-13.1163
倢	-13.117
嶙	-13.1177
㮚	-13.1177
杰	-13.1181
拗	-13.1182
㹅	-13.1182
皚	-13.1183
韮	-13.1187
燐	-13.1254
蘘	-13.1255
眙	-13.1261
雘	-13.1262
箆	-13.1263
颭	-13.1264
綣	-13.1264
蟛	-13.1267
儘	-13.1268
籹	-13.1268
庄	-13.1269
䍦	-13.127
牷	-13.1275
憸	-13.1275
婣	-13.1277
顕	-13.128
崎	-13.1354
遫	-13.1357
鼖	-13.1357
痢	-13.1357
蟇	-13.1358
魎	-13.1358
簠	-13.136
璚	-13.1361
卺	-13.1362
佷	-13.1362
矞	-13.1362
晧	-13.1363
皜	-13.1364
攔	-13.1364
帢	-13.1364
邶	-13.1365
茈	-13.1368
泲	-13.1444
骭	-13.1444
牱	-13.1444
贔	-13.1445
箄	-13.1453
廥	-13.1457
恆	-13.1459
躰	-13.1465
酗	-13.1468
飀	-13.1538
澘	-13.154
㹀	-13.154
貘	-13.1541
汐	-13.1544
咷	-13.1545
槱	-13.1546
砍	-13.1549
怜	-13.1549
窿	-13.1549
牾	-13.1549
泆	-13.1553
媟	-13.1554
咈	-13.1555
䃭	-13.1556
齓	-13.1557
茟	-13.1632
蟫	-13.1632
瑭	-13.1632
佖	-13.1634
薯	-13.1634
腔	-13.1635
臮	-13.1636
倀	-13.1636
悁	-13.1636
荽	-13.1637
鈒	-13.1638
磝	-13.1639
餻	-13.1639
鯿	-13.1639
齔	-13.1639
紃	-13.1642
猳	-13.1643
玕	-13.1643
裦	-13.1646
饞	-13.1648
蕝	-13.1648
矻	-13.1654
貛	-13.1721
鶼	-13.1727
旎	-13.1727
蝘	-13.1732
嬀	-13.1733
溈	-13.1733
墁	-13.1734
晬	-13.1735
娩	-13.1735
禿	-13.1737
厩	-13.1738
姐	-13.1739
縐	-13.174
开	-13.1741
寀	-13.1741
声	-13.1742
窊	-13.1742
肹	-13.1744
嵫	-13.1744
踆	-13.1747
譆	-13.175
槲	-13.1818
橊	-13.1822
蜒	-13.1825
魃	-13.1825
畊	-13.1828
鬧	-13.1829
屡	-13.1829
靸	-13.1829
楶	-13.183
躧	-13.1832
螮	-13.1833
荈	-13.1834
嵊	-13.1837
鶹	-13.1916
坪	-13.1918
鬃	-13.192
噆	-13.1924
焕	-13.1924
珤	-13.1927
鸘	-13.1927
闟	-13.1928
縕	-13.1928
巓	-13.1928
艎	-13.1929
釦	-13.193
璲	-13.1931
閇	-13.1932
耏	-13.1934
饅	-13.1936
㮏	-13.2012
蛣	-13.2017
饍	-13.2022
媧	-13.2023
阯	-13.2025
型	-13.2026
阸	-13.2027
琁	-13.2027
牴	-13.2028
倔	-13.203
鼛	-13.2032
醨	-13.2032
挲	-13.2033
呑	-13.2037
蜾	-13.2109
崘	-13.2115
咥	-13.2117
蜞	-13.2118
袚	-13.2119
鍋	-13.2122
苢	-13.2123
睒	-13.2124
賮	-13.2126
塪	-13.2128
齅	-13.2129
聱	-13.2129
韣	-13.2131
逭	-13.2132
鏜	-13.2134
膿	-13.2137
枘	-13.2138
帗	-13.2141
軷	-13.2141
栒	-13.2203
􁋢	-13.2213
崱	-13.2213
鏟	-13.2215
顫	-13.2217
惙	-13.2218
絨	-13.2218
穸	-13.2219
𣏌	-13.222
砑	-13.2222
脽	-13.2223
疼	-13.2223
跑	-13.2224
㮣	-13.2224
聵	-13.2229
藭	-13.2229
踉	-13.223
楂	-13.2231
碍	-13.2232
噩	-13.2235
甒	-13.2235
鶗	-13.2313
艋	-13.2324
眎	-13.2326
戇	-13.2326
婀	-13.2327
怫	-13.2327
坱	-13.2328
擴	-13.2329
齮	-13.2329
𥚑	-13.2329
逶	-13.2329
墐	-13.2332
趄	-13.2333
簵	-13.2334
慺	-13.2413
蕾	-13.2416
侖	-13.2419
颸	-13.2424
酩	-13.2424
猋	-13.2425
舴	-13.2425
耼	-13.2426
矅	-13.2428
漙	-13.2428
搘	-13.2429
蜎	-13.2431
跽	-13.2431
梱	-13.2432
㻛	-13.2434
鄱	-13.2492
宐	-13.2522
歃	-13.2523
罐	-13.2525
憝	-13.2526
蕎	-13.2526
沄	-13.2526
滬	-13.2528
睪	-13.2531
蹬	-13.2531
睆	-13.2532
㚟	-13.2534
俅	-13.2535
杕	-13.2535
厰	-13.2535
㴱	-13.2536
蕣	-13.2537
圄	-13.2537
㶑	-13.2538
嵸	-13.2538
蚖	-13.2539
慠	-13.254
蚨	-13.263
醼	-13.2631
旖	-13.2631
劚	-13.2632
銙	-13.2632
姢	-13.2635
廳	-13.2636
髄	-13.2638
䔉	-13.2639
瘉	-13.2639
歕	-13.2641
䌓	-13.2641
愾	-13.2646
倂	-13.265
㬥	-13.2651
鷮	-13.2734
褠	-13.2735
涣	-13.2736
楗	-13.2739
攖	-13.2739
痁	-13.2741
鏻	-13.2741
搯	-13.2742
歔	-13.2742
鰩	-13.2744
飰	-13.2745
僶	-13.2747
箝	-13.2748
栘	-13.2839
靃	-13.284
鵡	-13.2842
蹢	-13.2843
忮	-13.2844
膻	-13.2844
韀	-13.2845
嫵	-13.2848
鄽	-13.2849
禈	-13.285
鮭	-13.2851
劘	-13.2852
埆	-13.2853
戻	-13.2854
鞌	-13.2855
饎	-13.2855
𥚹	-13.2855
瀵	-13.2857
膰	-13.2859
抶	-13.2859
蚿	-13.2863
綟	-13.2941
柹	-13.2943
鋹	-13.2943
𥪡	-13.2948
糈	-13.2948
䂊	-13.2951
旉	-13.2951
勱	-13.2951
鼬	-13.2952
䬃	-13.2953
虙	-13.2953
偼	-13.2954
㲄	-13.2954
婭	-13.2958
畸	-13.2959
陡	-13.2959
唁	-13.2959
馹	-13.2961
嗌	-13.2964
䈥	-13.2967
漦	-13.3056
笭	-13.3058
犗	-13.3058
菆	-13.3062
塌	-13.3062
蜆	-13.3062
􁏉	-13.3064
蠹	-13.3065
􁈓	-13.3069
儡	-13.3069
蝍	-13.3071
齗	-13.3076
胖	-13.3166
湑	-13.317
犆	-13.317
罶	-13.3171
秖	-13.3172
蔦	-13.3173
犫	-13.3174
盝	-13.3174
孶	-13.3176
蝇	-13.3177
徜	-13.3179
騩	-13.3179
迁	-13.3182
厪	-13.3183
抔	-13.3191
頬	-13.3267
䱉	-13.3273
鈸	-13.3278
鼲	-13.3279
蕷	-13.3282
㘴	-13.3284
蟁	-13.3285
嘽	-13.3286
渰	-13.3286
憍	-13.3286
嶁	-13.3287
朒	-13.3287
舃	-13.3288
泬	-13.3289
璈	-13.329
継	-13.3291
觽	-13.3306
䫇	-13.3381
鮦	-13.3385
㪍	-13.3388
浯	-13.3389
湝	-13.3389
帊	-13.339
𧺫	-13.339
份	-13.3391
迮	-13.3391
萸	-13.3391
圩	-13.3391
齍	-13.3393
鞹	-13.3393
灧	-13.3395
姱	-13.3396
殲	-13.3396
𣢾	-13.3397
洱	-13.3398
縰	-13.3401
埓	-13.3402
觖	-13.3403
醁	-13.3406
鐏	-13.3406
礜	-13.3498
岏	-13.3505
栴	-13.3506
珀	-13.3507
鎡	-13.3508
馛	-13.3509
洌	-13.3511
黧	-13.3513
撇	-13.3513
媼	-13.3513
綀	-13.3515
慍	-13.3515
鏊	-13.3515
燀	-13.3517
鵓	-13.3518
硝	-13.3519
屝	-13.352
絝	-13.3521
唄	-13.3527
灮	-13.3528
呐	-13.3537
褖	-13.3613
碪	-13.3614
噣	-13.3616
驊	-13.3617
靶	-13.362
鱔	-13.362
楬	-13.3621
婷	-13.3624
慥	-13.3625
阱	-13.3625
蹵	-13.3625
玲	-13.3626
臀	-13.3626
勌	-13.3628
鱨	-13.3628
戺	-13.3629
汋	-13.363
虒	-13.3631
鐻	-13.3635
麌	-13.3735
鮆	-13.3736
浡	-13.3736
鰋	-13.3739
癩	-13.3739
阽	-13.374
輠	-13.3741
飪	-13.3742
痏	-13.3743
墝	-13.3744
獍	-13.3746
蒟	-13.3746
暅	-13.3746
嘹	-13.3747
剜	-13.3747
洟	-13.3749
咺	-13.3752
騟	-13.3752
埳	-13.3753
轑	-13.3754
碯	-13.3754
蔿	-13.3759
欻	-13.3759
蕳	-13.3845
䪥	-13.3849
睞	-13.3855
襮	-13.3856
摴	-13.3856
徬	-13.3856
輬	-13.3856
儇	-13.3858
眂	-13.3859
昪	-13.3859
澦	-13.3859
毚	-13.386
蘗	-13.386
汔	-13.3861
楪	-13.3861
㲪	-13.3861
韔	-13.3862
黈	-13.3864
􁆁	-13.3865
熄	-13.3867
艨	-13.3867
牿	-13.387
惛	-13.3873
竑	-13.3967
毹	-13.3968
蠛	-13.3974
玈	-13.3975
懺	-13.3975
禔	-13.3976
擥	-13.3977
蟺	-13.3977
籝	-13.3978
幨	-13.3979
籯	-13.398
逷	-13.398
髢	-13.398
狒	-13.398
㕍	-13.3981
秠	-13.3981
媺	-13.3982
莋	-13.3982
翶	-13.3983
舋	-13.3984
醳	-13.3985
殍	-13.3985
茷	-13.3986
碼	-13.399
襈	-13.408
豵	-13.4091
酊	-13.4093
褻	-13.4095
蜑	-13.4097
輊	-13.4097
搨	-13.4097
欃	-13.4098
齷	-13.4098
甆	-13.4099
䂖	-13.41
侫	-13.4101
裌	-13.4102
穪	-13.4102
䔧	-13.4103
醵	-13.4104
髲	-13.4105
匽	-13.4105
离	-13.4105
膋	-13.4111
俑	-13.4115
塈	-13.4115
銕	-13.4118
墯	-13.413
蓓	-13.4202
䄖	-13.4209
冋	-13.4212
鞲	-13.4213
窰	-13.4214
繾	-13.4215
藋	-13.4216
枅	-13.4218
遅	-13.422
擄	-13.422
籛	-13.4221
豝	-13.4221
臓	-13.4223
岣	-13.4223
闖	-13.4224
郪	-13.4225
嵕	-13.4226
臰	-13.4229
薔	-13.4233
鱒	-13.4329
鸊	-13.4333
幗	-13.4336
彠	-13.4337
喆	-13.4338
齟	-13.434
桯	-13.434
钁	-13.4342
酡	-13.4343
隥	-13.4343
徘	-13.4344
霪	-13.4345
鎪	-13.4346
疈	-13.4347
淞	-13.4347
媸	-13.4348
遰	-13.4349
鞔	-13.4351
蘀	-13.4351
嫓	-13.4351
礲	-13.4352
勮	-13.4353
悆	-13.4358
頁	-13.4464
鬵	-13.4464
抨	-13.4466
荗	-13.4467
曨	-13.4467
搬	-13.4468
酅	-13.4468
愊	-13.4469
龑	-13.4469
衺	-13.4469
彯	-13.447
繙	-13.447
艑	-13.447
很	-13.4471
贐	-13.4472
轜	-13.4473
爺	-13.4473
䦧	-13.4474
臿	-13.4475
撈	-13.4475
纆	-13.4477
睎	-13.4477
舲	-13.4478
硏	-13.4478
侲	-13.448
胠	-13.4483
檖	-13.4587
儦	-13.4588
罡	-13.4589
盒	-13.4591
𤇺	-13.4592
滍	-13.4593
澎	-13.4594
鹺	-13.4597
瀲	-13.4597
丏	-13.4598
眴	-13.4598
䠞	-13.4599
慓	-13.4599
舠	-13.46
囯	-13.46
羜	-13.4601
篨	-13.4602
蠔	-13.4603
栭	-13.4604
乹	-13.4606
蔲	-13.4712
鞓	-13.4714
抝	-13.4714
瀺	-13.4714
縧	-13.4714
棕	-13.4714
忡	-13.4716
謄	-13.4718
琫	-13.4718
痰	-13.4719
涷	-13.4721
慷	-13.4721
翀	-13.4723
呶	-13.4724
颿	-13.4724
晒	-13.4725
鑼	-13.4727
愒	-13.4728
㼐	-13.4728
岠	-13.4729
睟	-13.473
滃	-13.473
礧	-13.4736
慬	-13.4839
釅	-13.4843
匳	-13.4845
磕	-13.4846
碻	-13.4846
㛐	-13.485
騋	-13.485
齬	-13.4851
蝪	-13.4851
鬘	-13.4852
喣	-13.4853
眯	-13.4854
喏	-13.4856
頟	-13.4856
繦	-13.4856
仳	-13.4857
桉	-13.4857
耑	-13.4857
毿	-13.4858
桒	-13.4862
猘	-13.4864
璬	-13.4964
謎	-13.497
鍍	-13.4971
擦	-13.4975
陥	-13.4976
圬	-13.4979
袨	-13.498
𬗟	-13.4982
藳	-13.4984
嵳	-13.4984
刊	-13.4986
齲	-13.4987
鄏	-13.4988
幛	-13.4988
鉸	-13.4988
搃	-13.4989
撅	-13.4989
忼	-13.4991
甪	-13.4992
炕	-13.4993
醽	-13.4994
婬	-13.4996
巃	-13.4996
捭	-13.4997
鹻	-13.5
喟	-13.51
漵	-13.5105
鯊	-13.5108
褪	-13.5109
憨	-13.5111
偲	-13.5115
櫩	-13.5115
纑	-13.5116
韐	-13.5118
耎	-13.5118
蒢	-13.5119
㴠	-13.512
俁	-13.5122
鈹	-13.5123
禨	-13.5124
鎁	-13.5127
殣	-13.5128
姁	-13.5132
轊	-13.5137
銃	-13.5212
妆	-13.5237
袜	-13.5241
檛	-13.5243
棬	-13.5248
璝	-13.525
誖	-13.5251
鴣	-13.5251
粔	-13.5253
崚	-13.5253
祋	-13.5254
戬	-13.5256
枇	-13.5256
柅	-13.5258
噞	-13.5259
齠	-13.5259
杇	-13.5259
烖	-13.526
鏵	-13.5261
鰻	-13.5379
㰖	-13.538
窀	-13.5381
㔾	-13.5383
鴰	-13.5386
泂	-13.5387
剴	-13.5387
䊸	-13.539
趦	-13.539
泅	-13.5391
凴	-13.5393
爓	-13.5393
罛	-13.5393
鶱	-13.5397
猒	-13.5398
怦	-13.5399
廱	-13.5401
飂	-13.5403
窌	-13.5404
牗	-13.5406
嚅	-13.5407
嗢	-13.5516
鯷	-13.5522
樠	-13.5522
哢	-13.5526
旝	-13.5526
䱹	-13.5527
鄅	-13.5527
屆	-13.5529
笇	-13.553
郳	-13.553
奘	-13.5531
抺	-13.5532
㗋	-13.5532
溘	-13.5534
惺	-13.5536
􁂜	-13.5536
鋬	-13.5537
痴	-13.554
腒	-13.5542
嗉	-13.5659
脡	-13.5663
詗	-13.5665
尿	-13.5667
䱜	-13.5667
泔	-13.5668
誶	-13.5669
劼	-13.567
㡳	-13.5674
濇	-13.5674
峋	-13.5674
刦	-13.5675
堋	-13.5675
槥	-13.5677
枮	-13.5681
趋	-13.5682
繂	-13.5686
箾	-13.5692
嗁	-13.5695
鵽	-13.5799
駙	-13.5802
䄍	-13.5802
鑲	-13.5803
拚	-13.5806
煗	-13.5807
嶪	-13.5807
蒹	-13.5807
耔	-13.5807
脞	-13.5808
豶	-13.581
簁	-13.581
萐	-13.5811
傞	-13.5811
价	-13.5811
鵻	-13.5811
蜷	-13.5812
竆	-13.5814
栰	-13.5814
籲	-13.5815
逯	-13.5815
豗	-13.5816
剞	-13.5816
漻	-13.5816
劂	-13.5818
猰	-13.582
嗾	-13.582
扱	-13.582
蔌	-13.582
琤	-13.5822
頍	-13.5822
褷	-13.5822
憯	-13.5824
茢	-13.583
鱻	-13.5833
斶	-13.5858
篛	-13.5946
愞	-13.5948
驌	-13.5948
緺	-13.595
裋	-13.595
旜	-13.5952
雈	-13.5953
仵	-13.5954
􁇒	-13.5955
䳌	-13.5956
拲	-13.5959
靮	-13.596
甦	-13.596
喃	-13.596
翿	-13.596
麇	-13.5962
醊	-13.5963
剙	-13.5963
遛	-13.5963
蠵	-13.5964
頖	-13.5965
狨	-13.5966
澂	-13.5968
熯	-13.5972
礼	-13.5972
礟	-13.6093
璁	-13.6096
芫	-13.6097
攏	-13.6102
姸	-13.6103
簺	-13.6104
夌	-13.6105
仿	-13.6105
蝌	-13.6105
榨	-13.6106
瀌	-13.6107
嘬	-13.6107
郸	-13.6108
鸂	-13.6113
犠	-13.6114
惏	-13.6115
抆	-13.6119
啐	-13.6123
􁰎	-13.6125
碌	-13.6127
嚌	-13.6132
菂	-13.6232
鳸	-13.6241
喤	-13.6242
粼	-13.6242
鄃	-13.6243
髥	-13.6245
謌	-13.625
灩	-13.625
緉	-13.6251
稃	-13.6254
礚	-13.6254
蜧	-13.6258
羭	-13.6258
跧	-13.6258
砆	-13.6262
嚏	-13.6262
鏦	-13.6264
楅	-13.6264
㨾	-13.6266
閧	-13.6266
瘟	-13.6267
昀	-13.6267
玗	-13.627
醞	-13.6272
癬	-13.6272
玅	-13.6392
藨	-13.64
敭	-13.6402
蠨	-13.6402
獎	-13.6403
搉	-13.6403
畟	-13.6404
梠	-13.6407
茒	-13.6408
毾	-13.6409
捺	-13.6409
禝	-13.641
伹	-13.641
袗	-13.6411
麨	-13.6418
蛬	-13.6419
朢	-13.6427
􁌰	-13.6541
罭	-13.6549
贜	-13.655
稭	-13.6551
籊	-13.6552
䢵	-13.6553
恟	-13.6555
醻	-13.6557
奫	-13.6557
黂	-13.6559
侏	-13.6561
棁	-13.6561
媱	-13.6562
棰	-13.6562
䓤	-13.6562
紝	-13.6563
萯	-13.6563
筤	-13.6564
媢	-13.6564
攲	-13.6564
鶤	-13.6565
躪	-13.6565
矉	-13.6566
鱐	-13.6567
崪	-13.6567
瞫	-13.6571
憗	-13.6571
鍥	-13.6572
噠	-13.6694
袓	-13.6695
􁋃	-13.6707
黮	-13.6709
驘	-13.671
咍	-13.671
靺	-13.6711
蹁	-13.6713
潨	-13.6714
牯	-13.6714
鞙	-13.6714
雱	-13.6715
玼	-13.6716
蓧	-13.6716
屭	-13.6718
霂	-13.672
㒒	-13.6721
儳	-13.6724
碔	-13.6726
鱄	-13.6726
螿	-13.6727
艟	-13.6727
焼	-13.6728
煚	-13.6731
唫	-13.6734
旼	-13.6862
佉	-13.6863
躶	-13.6866
昳	-13.6867
唤	-13.6867
禓	-13.6867
褓	-13.6867
墄	-13.6869
擭	-13.6873
另	-13.6874
裩	-13.6875
跚	-13.6876
䴵	-13.6877
傔	-13.6879
嚨	-13.6879
胛	-13.688
鋈	-13.6885
絖	-13.6885
鐐	-13.6887
帡	-13.6888
泖	-13.689
輗	-13.6895
窽	-13.6895
鷓	-13.7023
偎	-13.7026
墖	-13.7027
鰍	-13.7028
欀	-13.7029
淶	-13.7032
槭	-13.7033
袛	-13.7033
崞	-13.7035
𤏡	-13.7038
鵀	-13.7039
轕	-13.704
豌	-13.704
碕	-13.704
矴	-13.7041
迍	-13.7041
馵	-13.7041
謼	-13.7043
惽	-13.7045
𡵨	-13.7047
磈	-13.7049
飊	-13.7062
芩	-13.7176
麚	-13.7184
撣	-13.7189
囧	-13.7191
蛀	-13.7192
漘	-13.7193
珌	-13.7194
旞	-13.7194
飥	-13.7195
螃	-13.7195
謦	-13.7195
硠	-13.7195
㟧	-13.7196
屮	-13.7197
佀	-13.7197
嚲	-13.7197
鋝	-13.7197
佔	-13.7198
躚	-13.7198
桺	-13.7199
嶕	-13.72
㵸	-13.72
嫳	-13.72
薿	-13.7201
㴻	-13.7201
杶	-13.7201
弰	-13.7201
熇	-13.7202
幍	-13.7202
羵	-13.7202
莛	-13.7203
洚	-13.7204
湃	-13.7206
戟	-13.7208
嶴	-13.7208
葍	-13.7209
咢	-13.7209
狺	-13.7211
晼	-13.7211
飩	-13.7213
馺	-13.7214
彴	-13.7349
麦	-13.7359
茰	-13.7359
歈	-13.7361
螖	-13.7361
鋗	-13.7362
嫰	-13.7363
狌	-13.7363
敡	-13.7363
簌	-13.7364
喓	-13.7365
站	-13.7365
蚑	-13.7366
窱	-13.7366
聓	-13.7368
猢	-13.7368
褵	-13.7369
鄮	-13.737
鶊	-13.737
䄠	-13.7371
薶	-13.7374
燖	-13.7376
斨	-13.7377
泐	-13.7378
軏	-13.7378
堲	-13.7381
蠺	-13.7388
嚈	-13.7511
蚝	-13.7522
硜	-13.7522
藇	-13.7525
甝	-13.7526
驦	-13.7526
豽	-13.7527
杮	-13.7527
呷	-13.7532
薖	-13.7532
踢	-13.7533
籐	-13.7534
縿	-13.7534
涗	-13.7534
曕	-13.7536
稈	-13.7537
屺	-13.7538
幺	-13.7539
􁬾	-13.7539
朘	-13.7541
俵	-13.7543
囏	-13.7543
笨	-13.7544
賧	-13.7546
栧	-13.7548
煢	-13.7551
疃	-13.7697
􁔷	-13.77
溠	-13.77
霫	-13.7701
襏	-13.7702
芄	-13.7702
桅	-13.7703
箜	-13.7703
湞	-13.7703
篘	-13.7704
莝	-13.7705
椇	-13.7705
鵄	-13.7706
暏	-13.7706
丫	-13.7707
麹	-13.7707
傃	-13.7707
嫏	-13.7707
蝡	-13.7708
骫	-13.7709
簔	-13.7709
杅	-13.771
㕙	-13.771
㬅	-13.7711
汸	-13.7712
瓀	-13.7713
腿	-13.7714
腵	-13.7716
髤	-13.7716
壈	-13.7717
櫽	-13.7717
珈	-13.7718
侄	-13.7719
枤	-13.772
踽	-13.7722
鼫	-13.7864
孃	-13.7871
葶	-13.7873
醓	-13.7873
嶒	-13.7875
愻	-13.7876
瞠	-13.7877
鈃	-13.7877
䘵	-13.7879
櫑	-13.788
踠	-13.7881
觡	-13.7881
鰭	-13.7882
堧	-13.7882
琡	-13.7882
蓨	-13.7883
㩀	-13.7883
崍	-13.7884
蟉	-13.7886
𦵔	-13.7886
挨	-13.7887
蟨	-13.7887
霡	-13.7888
嗸	-13.7889
䳺	-13.7893
脗	-13.7893
斝	-13.7896
恫	-13.7897
驑	-13.8027
悺	-13.8046
苪	-13.805
龡	-13.8054
楢	-13.8055
悤	-13.8056
糭	-13.8056
宷	-13.8056
萄	-13.8057
椓	-13.8057
牏	-13.806
?	-13.8062
怎	-13.8062
稉	-13.8063
鷞	-13.8064
㚄	-13.8064
氤	-13.8064
轇	-13.8075
趐	-13.8078
圡	-13.8079
媠	-13.808
靼	-13.8219
溳	-13.8229
萭	-13.8231
擩	-13.8235
柲	-13.8235
靿	-13.8236
惷	-13.8237
箛	-13.8239
哷	-13.8239
菶	-13.824
緅	-13.8242
葴	-13.8242
鰣	-13.8243
㝏	-13.8243
枑	-13.8244
輛	-13.8244
焭	-13.8246
眤	-13.8247
璐	-13.8247
鱅	-13.8248
䏰	-13.825
鷯	-13.8251
泜	-13.8256
僝	-13.8262
鼄	-13.8263
獞	-13.8275
瓝	-13.8405
縯	-13.8412
冪	-13.8416
㺅	-13.8416
矼	-13.8418
蜘	-13.8422
艚	-13.8423
圑	-13.8423
芈	-13.8423
㘭	-13.8424
訌	-13.8424
瘻	-13.8425
薍	-13.8425
狢	-13.8426
荚	-13.8426
岊	-13.8427
搊	-13.8429
榿	-13.8429
綪	-13.8429
耡	-13.843
粺	-13.8431
岢	-13.8435
貆	-13.8436
􁏩	-13.8438
怩	-13.8439
觕	-13.8439
㣧	-13.844
瘃	-13.8441
壄	-13.8442
衊	-13.8446
蓯	-13.8447
㝛	-13.8452
麖	-13.8602
蓻	-13.8605
浿	-13.8608
昝	-13.8609
羚	-13.861
舐	-13.8611
薹	-13.8611
噂	-13.8612
丒	-13.8612
嶻	-13.8614
煆	-13.8614
翂	-13.8615
橢	-13.8615
睍	-13.8617
榧	-13.8618
魘	-13.862
瞷	-13.862
㱕	-13.862
埵	-13.862
劖	-13.862
鮞	-13.862
篣	-13.8623
𣅿	-13.8623
冔	-13.8623
鼜	-13.8624
薆	-13.8625
縭	-13.8625
慜	-13.8625
髕	-13.8626
魮	-13.8627
獪	-13.8628
霙	-13.8629
㮄	-13.8637
耤	-13.8644
●	-13.8755
蔆	-13.8793
蕰	-13.8798
橿	-13.8798
嗈	-13.8802
曅	-13.8803
䆠	-13.8803
灎	-13.8803
鼮	-13.8804
黁	-13.8804
溵	-13.8807
鄚	-13.8807
筈	-13.8808
跏	-13.8808
鳦	-13.8809
痂	-13.8812
圠	-13.8813
腷	-13.8814
躑	-13.8814
瑲	-13.8814
蜍	-13.8815
謏	-13.8816
澼	-13.8816
蝯	-13.8818
哄	-13.8818
鞸	-13.882
胚	-13.882
揑	-13.8829
弣	-13.883
葠	-13.8988
踟	-13.8996
汊	-13.8997
襫	-13.8997
膞	-13.9
㲣	-13.9
閌	-13.9001
顋	-13.9001
燉	-13.9003
竁	-13.9003
鞿	-13.9004
畷	-13.9005
葽	-13.9005
俔	-13.9005
驀	-13.9006
剟	-13.9006
鎦	-13.9006
􁋊	-13.9007
墢	-13.9008
觩	-13.9009
溯	-13.9011
邘	-13.9013
塒	-13.9015
蕆	-13.9016
樏	-13.902
餁	-13.9021
餛	-13.9022
瑙	-13.9022
蚧	-13.9187
淠	-13.9192
滷	-13.9197
玹	-13.9197
鱘	-13.9198
鶠	-13.9198
喀	-13.9199
疝	-13.92
螉	-13.92
䙱	-13.92
惄	-13.9202
掔	-13.9202
穬	-13.9204
惝	-13.9204
襭	-13.9205
崌	-13.9205
蟀	-13.9207
譊	-13.9208
帘	-13.9208
紾	-13.9208
晛	-13.9209
眕	-13.9209
􁁣	-13.9209
簑	-13.9209
趠	-13.921
桌	-13.921
鴠	-13.921
曏	-13.9212
頮	-13.9212
皸	-13.9213
𪷟	-13.9213
筳	-13.9213
坩	-13.9214
毼	-13.9216
髣	-13.9217
挏	-13.9218
鴳	-13.9219
逑	-13.9219
犉	-13.9219
㸙	-13.922
呫	-13.9221
蚉	-13.9223
㠓	-13.9225
㔻	-13.9227
憖	-13.923
悻	-13.9231
䃡	-13.939
妘	-13.9395
㴩	-13.9399
壒	-13.9399
糸	-13.9401
囤	-13.9402
髴	-13.9402
漰	-13.9404
廧	-13.9405
咂	-13.9406
秅	-13.9407
癥	-13.941
裲	-13.941
剿	-13.9411
䴢	-13.9411
蔴	-13.9411
犲	-13.9411
㭬	-13.9412
鏝	-13.9412
䨴	-13.9413
穊	-13.9413
軥	-13.9413
嘑	-13.9414
瓖	-13.9414
䀻	-13.9415
榎	-13.9415
􁌽	-13.9415
畺	-13.9415
䙰	-13.9415
糉	-13.9415
梐	-13.9416
玟	-13.9417
穨	-13.9418
紑	-13.9419
洴	-13.9419
眶	-13.9421
鑢	-13.9422
譸	-13.9427
硌	-13.9429
缿	-13.9429
􁂴	-13.9435
􁹙	-13.9437
紜	-13.9533
鼩	-13.9603
蠯	-13.9605
卮	-13.9606
鍑	-13.9608
菭	-13.9608
醝	-13.961
悊	-13.961
鰈	-13.9611
羱	-13.9612
咲	-13.9614
箐	-13.9615
抖	-13.9615
􁆋	-13.9616
慁	-13.9616
罦	-13.9618
嘵	-13.9619
糁	-13.9619
傋	-13.962
萆	-13.962
俻	-13.9621
睅	-13.9622
蓱	-13.9622
氄	-13.9624
葼	-13.9624
罫	-13.9625
飮	-13.9625
蚴	-13.9627
虣	-13.9627
瑳	-13.9627
撡	-13.9628
輮	-13.9628
仐	-13.9629
欂	-13.9632
咻	-13.9638
㲈	-13.9641
墬	-13.9642
簭	-13.9651
萵	-13.9811
圅	-13.9821
拐	-13.9821
鼪	-13.9825
媞	-13.9825
艅	-13.9825
擻	-13.9828
愓	-13.9828
虩	-13.9829
胆	-13.9829
邡	-13.983
恇	-13.9831
櫞	-13.9831
沕	-13.9832
㬌	-13.9832
嘱	-13.9833
姍	-13.9834
檇	-13.9835
酴	-13.9835
霹	-13.9836
緵	-13.9836
鷕	-13.9837
􁊁	-13.9839
犮	-13.9839
螓	-13.9839
娌	-13.9839
騵	-13.9841
涒	-13.9841
㸐	-13.9842
甡	-13.9844
橧	-13.9844
澭	-13.9844
挶	-13.9851
𪠘	-13.9857
䴏	-14.0026
樕	-14.0034
臶	-14.0036
箵	-14.0037
濾	-14.0037
瑇	-14.0038
瘣	-14.0039
泪	-14.0039
粻	-14.0041
篴	-14.0042
嗃	-14.0042
荓	-14.0043
腄	-14.0043
輣	-14.0045
朌	-14.0045
鯪	-14.0045
岍	-14.0046
漷	-14.0046
鉼	-14.0047
悾	-14.0047
刜	-14.0047
綳	-14.0047
觫	-14.0048
鄀	-14.0049
髖	-14.005
殚	-14.0052
㓨	-14.0052
揶	-14.0053
渻	-14.0053
稺	-14.0053
癎	-14.0053
縓	-14.0053
轗	-14.0054
蝓	-14.0054
𣑽	-14.0056
堁	-14.0057
螈	-14.0057
靧	-14.0058
屼	-14.0058
幂	-14.0058
讇	-14.0059
潬	-14.0059
軆	-14.006
薧	-14.0061
倛	-14.0064
鐓	-14.0064
訿	-14.0064
紖	-14.0067
柜	-14.0252
櫰	-14.0255
檗	-14.0259
樲	-14.0264
啑	-14.0264
蚱	-14.0264
謷	-14.0265
􁎃	-14.0265
蕺	-14.0266
􁋑	-14.0266
妮	-14.0267
凥	-14.0267
漈	-14.0268
穭	-14.0268
氳	-14.0269
凂	-14.027
忞	-14.0271
嫪	-14.0273
擫	-14.0275
猲	-14.0276
䭔	-14.0276
䟱	-14.0276
騞	-14.0278
嬿	-14.0279
鮧	-14.0279
妯	-14.0279
瘐	-14.028
窹	-14.028
茞	-14.028
纕	-14.0282
蹭	-14.0282
侻	-14.0284
諓	-14.0287
奧	-14.029
琭	-14.0297
讕	-14.0299
􁀤	-14.048
椏	-14.0482
歂	-14.0484
驒	-14.0489
饈	-14.0493
寠	-14.0493
浼	-14.0494
靽	-14.0494
鄾	-14.0495
鯫	-14.0497
㠝	-14.0497
㫪	-14.0498
蝠	-14.0498
俴	-14.05
痱	-14.05
喭	-14.0501
觹	-14.0502
㪺	-14.0502
􁂋	-14.0502
嬃	-14.0504
覉	-14.0504
胹	-14.0505
贒	-14.0506
䓑	-14.0507
崈	-14.0509
蛚	-14.0509
痟	-14.0509
鍧	-14.0509
蟯	-14.0513
鼾	-14.0718
糢	-14.0719
凘	-14.072
蝴	-14.072
倜	-14.0721
檥	-14.0721
硉	-14.0722
螵	-14.0722
椵	-14.0724
􁁏	-14.0725
獳	-14.0727
倥	-14.0727
鯸	-14.0729
痣	-14.0729
滮	-14.0729
豜	-14.073
犦	-14.073
砉	-14.073
崢	-14.073
絅	-14.0731
􁇪	-14.0731
䗶	-14.0732
篌	-14.0733
艣	-14.0734
豷	-14.0736
嫻	-14.0736
痡	-14.0737
瘈	-14.0737
紩	-14.0738
􁊀	-14.0742
踳	-14.0743
迃	-14.0743
豦	-14.0743
鬋	-14.0743
淊	-14.0743
蘪	-14.0744
剕	-14.0745
殀	-14.0746
揫	-14.0747
翜	-14.0955
橜	-14.0957
趕	-14.0958
𦦨	-14.0959
蹹	-14.0959
蜢	-14.096
㦲	-14.0961
茱	-14.0961
䣛	-14.0962
蹰	-14.0962
虆	-14.0963
檍	-14.0965
􁕏	-14.0965
飃	-14.0965
濉	-14.0966
鸒	-14.0966
綅	-14.0966
顴	-14.0968
囙	-14.0968
䳒	-14.0968
霎	-14.0969
呿	-14.097
眢	-14.097
笆	-14.0971
筊	-14.0971
髾	-14.0972
𠢐	-14.0972
痗	-14.0972
籋	-14.0973
呱	-14.0973
鸜	-14.0974
鷽	-14.0975
淈	-14.0975
琊	-14.0975
鈌	-14.0975
䥶	-14.0976
䥴	-14.0976
躩	-14.0976
􁸹	-14.0977
腧	-14.0978
榘	-14.0978
鸖	-14.0981
虻	-14.0983
蝃	-14.0985
■	-14.1185
濈	-14.1196
􁞗	-14.1199
樨	-14.1201
獗	-14.1203
桕	-14.1203
橤	-14.1204
鶋	-14.1205
衜	-14.1205
臋	-14.1206
佘	-14.1206
䱥	-14.1206
嫘	-14.1207
橚	-14.1208
嶭	-14.1209
舵	-14.121
欓	-14.1211
􁝜	-14.1212
䏶	-14.1212
鐮	-14.1212
萟	-14.1212
笲	-14.1213
氿	-14.1215
鄹	-14.1215
掐	-14.1215
𤱔	-14.1218
幦	-14.1219
奡	-14.122
輹	-14.1222
鸃	-14.1223
攟	-14.1223
柶	-14.1223
衵	-14.1224
瘝	-14.1225
笫	-14.1226
㽅	-14.1232
貀	-14.1449
鴘	-14.1451
魈	-14.1452
槬	-14.1453
郲	-14.1454
䳇	-14.1454
礮	-14.1455
揕	-14.1456
釳	-14.1456
鯋	-14.1456
諟	-14.1456
鸀	-14.1458
䔿	-14.1458
鱏	-14.1459
椌	-14.1459
羾	-14.146
髆	-14.146
蓲	-14.1462
􁀒	-14.1462
蓘	-14.1463
哿	-14.1465
珓	-14.1465
匼	-14.1466
噰	-14.1466
晥	-14.1467
豖	-14.1468
穈	-14.1468
壃	-14.147
搒	-14.147
阤	-14.1471
㧾	-14.1471
挃	-14.1471
緎	-14.1472
鵔	-14.1475
楦	-14.1476
祴	-14.1477
蟧	-14.148
軑	-14.1481
娙	-14.1489
􁁆	-14.1502
卄	-14.171
疐	-14.171
鋙	-14.171
鬉	-14.171
􁅾	-14.1712
齦	-14.1712
谼	-14.1712
蔫	-14.1712
鄐	-14.1713
鮝	-14.1713
𢾗	-14.1713
渒	-14.1714
䠠	-14.1716
齩	-14.1716
偫	-14.1717
靬	-14.1718
梡	-14.1718
梜	-14.1719
磶	-14.1719
滫	-14.1719
满	-14.1719
檦	-14.1719
摟	-14.1719
薅	-14.172
陊	-14.172
勠	-14.1721
敓	-14.1723
穋	-14.1724
駬	-14.1725
䱇	-14.1725
祑	-14.1725
𧦬	-14.1726
窐	-14.1726
蠚	-14.1728
悢	-14.1729
䥥	-14.173
䵄	-14.173
嵰	-14.173
嫮	-14.173
鮀	-14.1731
紽	-14.1731
耬	-14.1731
罣	-14.1733
䝁	-14.1734
骩	-14.1734
弨	-14.1734
圂	-14.1736
嘍	-14.1736
偞	-14.174
蚰	-14.1957
鼒	-14.1962
麢	-14.1963
旤	-14.1964
䔍	-14.1969
篦	-14.1969
莨	-14.1971
憀	-14.1972
溓	-14.1973
䍽	-14.1973
􁑿	-14.1974
戭	-14.1975
欸	-14.1976
硾	-14.1976
嘂	-14.1978
酟	-14.1979
閷	-14.1979
匍	-14.1979
䓻	-14.1979
吚	-14.198
襧	-14.1981
靉	-14.1981
斄	-14.1983
縌	-14.1983
嵂	-14.1983
猕	-14.1985
􁂪	-14.1985
窫	-14.1985
􁚫	-14.1985
誎	-14.1985
厹	-14.1986
踡	-14.1986
佋	-14.1986
鞟	-14.1987
垝	-14.1988
憃	-14.1988
搰	-14.199
餫	-14.199
䭀	-14.1991
􁀳	-14.1992
鸐	-14.1992
醹	-14.1993
􁘠	-14.1994
儤	-14.1994
芧	-14.1995
趹	-14.1998
佪	-14.1998
圊	-14.1999
黳	-14.1999
棡	-14.2003
禒	-14.2224
㢸	-14.2228
䬼	-14.223
貒	-14.2233
碟	-14.2234
蹛	-14.2237
㶏	-14.2239
䗫	-14.224
鵊	-14.2241
槮	-14.2242
骻	-14.2242
歅	-14.2243
邗	-14.2244
璺	-14.2244
泇	-14.2245
騢	-14.2245
䱐	-14.2247
趪	-14.2247
㵎	-14.2247
犵	-14.2248
鞗	-14.2249
鵪	-14.2249
酘	-14.2249
慌	-14.2249
揃	-14.2249
譓	-14.225
浃	-14.225
麐	-14.225
鷔	-14.225
鰂	-14.225
㩜	-14.225
蠪	-14.225
洭	-14.2251
搓	-14.2251
殼	-14.2251
𫾣	-14.2251
隒	-14.2252
盉	-14.2253
𢡟	-14.2253
傜	-14.2254
瑝	-14.2254
旓	-14.2254
􁀨	-14.2254
餖	-14.2255
鯶	-14.2255
貜	-14.2256
贋	-14.2256
樑	-14.2256
駏	-14.2256
敧	-14.2256
窞	-14.2256
挻	-14.2257
蟋	-14.226
皈	-14.226
愐	-14.2261
榣	-14.2262
鄋	-14.2263
淟	-14.2265
岝	-14.2265
靠	-14.2265
揳	-14.2265
毨	-14.2267
甂	-14.2268
㕁	-14.227
晜	-14.2272
毡	-14.2283
耙	-14.249
﨣	-14.2506
􁆡	-14.2512
襻	-14.2515
􁈞	-14.2518
韗	-14.2518
茙	-14.2519
驔	-14.2521
櫧	-14.2522
瑉	-14.2522
摉	-14.2524
蛱	-14.2525
溴	-14.2526
菏	-14.2527
碇	-14.2528
薾	-14.2528
椉	-14.2529
荊	-14.2531
巑	-14.2531
湲	-14.2532
荍	-14.2533
鞈	-14.2533
薻	-14.2533
賠	-14.2533
怗	-14.2534
駜	-14.2534
餦	-14.2535
踁	-14.2535
􁂍	-14.2536
祤	-14.2537
穅	-14.2538
霛	-14.2539
营	-14.2539
裻	-14.254
尞	-14.254
􁇛	-14.254
窔	-14.2541
涬	-14.2541
啚	-14.2544
撟	-14.2544
蚘	-14.2549
礐	-14.255
䕩	-14.255
媻	-14.2791
碙	-14.2797
隖	-14.2802
塠	-14.2803
媍	-14.2804
弮	-14.2805
鵯	-14.2806
坈	-14.2807
璥	-14.2807
糇	-14.2807
帉	-14.2808
鴐	-14.2809
朮	-14.2809
籮	-14.2809
靛	-14.281
洨	-14.281
檽	-14.2812
絻	-14.2812
庥	-14.2812
㜸	-14.2813
㟭	-14.2813
蟭	-14.2814
罿	-14.2815
娭	-14.2815
鰼	-14.2815
鮌	-14.2816
甀	-14.2816
䶉	-14.2816
􁑵	-14.2816
猬	-14.2816
怊	-14.2817
餺	-14.2817
裭	-14.2817
罙	-14.2817
泙	-14.2817
翯	-14.2818
𬋩	-14.2818
隹	-14.2818
䟆	-14.2818
嚀	-14.2819
叮	-14.282
爥	-14.282
􁐞	-14.2821
􁀫	-14.2823
謭	-14.2823
崷	-14.2823
耴	-14.2823
錣	-14.2824
曮	-14.2824
毸	-14.2825
覷	-14.2826
襶	-14.2826
詻	-14.2827
矱	-14.2829
翖	-14.2829
鴶	-14.2829
璛	-14.2831
臷	-14.2833
僄	-14.2835
朣	-14.2835
駣	-14.3095
鼹	-14.3096
屓	-14.3096
爹	-14.3098
􁪒	-14.3098
梂	-14.31
黕	-14.3102
秈	-14.3103
訑	-14.3104
觟	-14.3105
閞	-14.3105
琹	-14.3105
礰	-14.3105
憔	-14.3107
扢	-14.3108
捆	-14.3109
灅	-14.311
楟	-14.311
趼	-14.311
滆	-14.311
祢	-14.311
庌	-14.3111
鋣	-14.3111
饛	-14.3111
們	-14.3112
鏚	-14.3112
輀	-14.3112
膎	-14.3113
㒞	-14.3113
鉟	-14.3114
霶	-14.3114
饐	-14.3116
獝	-14.3117
蠩	-14.3117
匵	-14.3118
釱	-14.3119
韘	-14.3119
匃	-14.3119
䄄	-14.312
揠	-14.3121
箈	-14.3122
㚇	-14.3124
艧	-14.3126
駓	-14.3128
疻	-14.3134
礠	-14.3135
㙮	-14.339
礛	-14.3397
肭	-14.34
摎	-14.3403
溔	-14.3403
陏	-14.3405
㸦	-14.3406
蹜	-14.3406
踸	-14.3407
蒳	-14.3407
癲	-14.3408
稸	-14.3408
毺	-14.3409
銼	-14.3409
㙜	-14.3409
蚯	-14.3409
撽	-14.3409
􁎗	-14.3411
㑺	-14.3412
鼊	-14.3412
嶃	-14.3413
怤	-14.3414
聀	-14.3414
泭	-14.3415
靂	-14.3415
㝎	-14.3415
蓰	-14.3415
䱷	-14.3416
笯	-14.3416
刾	-14.3416
虥	-14.3416
鵃	-14.3417
跅	-14.3417
娬	-14.3418
蘜	-14.3418
堀	-14.3419
箊	-14.3419
􁆵	-14.3419
厘	-14.342
訩	-14.342
竂	-14.342
鞴	-14.3421
俌	-14.3421
㗸	-14.3422
篹	-14.3422
㺄	-14.3422
薉	-14.3423
膲	-14.3424
轙	-14.3424
毊	-14.3424
鵴	-14.3425
齚	-14.3425
簬	-14.3426
澐	-14.3428
舼	-14.3429
秱	-14.343
饙	-14.3436
礁	-14.3694
鷢	-14.37
欇	-14.3708
羬	-14.3711
鏺	-14.3713
籦	-14.3714
藶	-14.3715
筇	-14.3715
䔖	-14.3715
鱯	-14.3716
嫺	-14.3716
㳿	-14.3717
鑌	-14.3717
鎞	-14.3717
􁉤	-14.3718
漊	-14.3718
縆	-14.3719
枒	-14.372
忷	-14.372
􁱘	-14.3721
毐	-14.3721
瘨	-14.3721
渀	-14.3722
轞	-14.3722
釴	-14.3723
鸋	-14.3723
􁓨	-14.3723
暪	-14.3724
􁆐	-14.3725
惵	-14.3725
綋	-14.3725
鎋	-14.3726
啅	-14.3726
獶	-14.3727
扅	-14.3727
觵	-14.3728
徕	-14.3729
􁉯	-14.3729
褦	-14.3729
鏬	-14.3729
丄	-14.373
髒	-14.373
檡	-14.3731
㶁	-14.3732
𠫭	-14.3733
囋	-14.3734
竫	-14.3734
鴷	-14.3735
鬌	-14.3735
弻	-14.3735
儜	-14.3736
坋	-14.3737
僾	-14.3737
礓	-14.3738
鞻	-14.3739
甔	-14.3739
碨	-14.3739
渑	-14.374
倶	-14.374
涊	-14.3744
輷	-14.3746
枏	-14.3757
􁦝	-14.4029
旿	-14.4031
谺	-14.4035
嵲	-14.4035
獑	-14.4036
蘠	-14.4037
芤	-14.4037
􁇚	-14.4037
膄	-14.4037
潙	-14.4038
蒩	-14.404
啍	-14.404
跫	-14.404
􁌫	-14.4041
餾	-14.4041
迆	-14.4042
僛	-14.4043
䙀	-14.4043
饊	-14.4044
扊	-14.4044
峝	-14.4045
汳	-14.4046
捴	-14.4046
湆	-14.4047
妭	-14.4048
繘	-14.4048
韅	-14.4048
喊	-14.4049
焮	-14.4049
埿	-14.405
熺	-14.405
襢	-14.4051
驆	-14.4051
駪	-14.4052
袀	-14.4053
餭	-14.4054
繍	-14.4054
漅	-14.4055
楄	-14.4056
汍	-14.4058
崆	-14.4058
伻	-14.4058
椸	-14.4059
逴	-14.406
睱	-14.406
崫	-14.4064
㡛	-14.4065
桹	-14.4065
熸	-14.4065
嗄	-14.4068
䳵	-14.4069
軘	-14.407
橇	-14.4073
髺	-14.4076
觭	-14.4078
榝	-14.4362
巣	-14.4363
羂	-14.4364
偬	-14.4368
䐑	-14.4372
楥	-14.4372
韃	-14.4374
蕓	-14.4375
藘	-14.4375
袑	-14.4376
蔈	-14.4376
杬	-14.4376
堮	-14.4377
䞉	-14.4377
嚄	-14.4379
薲	-14.4379
鑴	-14.4379
齃	-14.438
鮚	-14.438
黦	-14.438
嘐	-14.438
阹	-14.438
蟂	-14.4381
􁈭	-14.4381
耇	-14.4381
㦧	-14.4381
馱	-14.4381
瑠	-14.4382
樿	-14.4382
嬭	-14.4383
訽	-14.4384
戦	-14.4384
雺	-14.4384
􁋆	-14.4384
賺	-14.4385
抇	-14.4385
孿	-14.4386
䳜	-14.4386
嗒	-14.4387
鰷	-14.4387
蕐	-14.4388
祻	-14.4388
橅	-14.4388
詨	-14.4389
焠	-14.4389
䏿	-14.439
䂮	-14.439
矑	-14.439
􁊯	-14.439
毰	-14.4391
胲	-14.4391
㓛	-14.4392
楘	-14.4392
礨	-14.4394
醟	-14.4395
鰅	-14.4395
螔	-14.4397
䮍	-14.4397
漩	-14.44
𨫼	-14.4403
覜	-14.4404
☷	-14.4412
変	-14.4417
嫕	-14.4696
􁱔	-14.4699
貈	-14.4706
魫	-14.4706
螀	-14.4707
齏	-14.4709
墱	-14.4712
蘝	-14.4712
鬖	-14.4712
僴	-14.4713
榬	-14.4713
桋	-14.4713
灉	-14.4716
棍	-14.4718
􁂶	-14.4719
葹	-14.4719
傪	-14.472
簻	-14.472
㬢	-14.4721
摏	-14.4721
椐	-14.4721
嶡	-14.4722
𡑞	-14.4722
庲	-14.4723
轒	-14.4724
𢋫	-14.4724
缽	-14.4724
宧	-14.4724
榠	-14.4725
㡩	-14.4725
滱	-14.4725
渣	-14.4725
儃	-14.4725
𤬪	-14.4725
怔	-14.4726
冮	-14.4726
㠋	-14.4726
俓	-14.4727
􁂫	-14.4727
觺	-14.4727
䡾	-14.4728
旊	-14.4728
硩	-14.4728
茌	-14.4729
侀	-14.4729
咅	-14.4729
埠	-14.473
㮰	-14.473
淰	-14.473
賷	-14.4731
偯	-14.4732
妁	-14.4732
胍	-14.4732
鰱	-14.4732
􁋡	-14.4732
囹	-14.4732
欿	-14.4733
奼	-14.4734
㒹	-14.4734
㘽	-14.4734
鍬	-14.4734
􁁃	-14.4734
尰	-14.4735
蔂	-14.4735
􁖊	-14.4736
鉆	-14.4736
𣙗	-14.4737
庣	-14.4737
虋	-14.4738
稏	-14.4739
簝	-14.4741
垕	-14.4741
枊	-14.4741
笓	-14.4741
䁥	-14.4742
鳻	-14.4742
齰	-14.4742
闃	-14.4744
霔	-14.4744
庛	-14.4746
䘿	-14.4746
􁈼	-14.4748
齇	-14.4749
肈	-14.4752
襘	-14.4753
囗	-14.5049
䥖	-14.5056
輢	-14.5066
谽	-14.5069
駻	-14.5072
藾	-14.5073
鄳	-14.5074
霮	-14.5074
鍐	-14.5075
嶝	-14.5077
狫	-14.5077
鮨	-14.5077
穯	-14.5077
蟷	-14.5077
厷	-14.5078
秺	-14.5078
秊	-14.5078
拕	-14.5079
煔	-14.5079
殢	-14.508
晅	-14.508
壐	-14.508
薢	-14.508
跦	-14.5081
碆	-14.5081
臕	-14.5081
摵	-14.5081
鼨	-14.5082
泑	-14.5083
畇	-14.5083
潟	-14.5083
惆	-14.5084
㭊	-14.5084
蝄	-14.5084
濙	-14.5085
鉥	-14.5085
獱	-14.5085
疪	-14.5085
茯	-14.5085
皭	-14.5086
畾	-14.5086
唏	-14.5087
㷭	-14.5087
墌	-14.5087
撕	-14.5089
萩	-14.5089
礭	-14.509
拑	-14.509
焫	-14.509
蔾	-14.5091
沷	-14.5091
蹍	-14.5092
冓	-14.5092
臃	-14.5092
淢	-14.5093
謪	-14.5093
襤	-14.5094
㽵	-14.5094
呰	-14.5094
猻	-14.5095
杴	-14.5095
餹	-14.5097
覼	-14.5097
䀋	-14.5099
杫	-14.5101
㷔	-14.5101
陼	-14.5101
醥	-14.5104
弸	-14.5105
杝	-14.5107
枍	-14.5107
燂	-14.5113
鼢	-14.5428
蔤	-14.5432
鉌	-14.5436
蒧	-14.5438
䯻	-14.5438
睺	-14.5438
冱	-14.5438
䌨	-14.5438
馯	-14.5439
癅	-14.5441
蚠	-14.5441
獼	-14.5442
珫	-14.5443
虈	-14.5443
醃	-14.5443
苨	-14.5444
篿	-14.5444
䰽	-14.5446
麡	-14.5446
饀	-14.5447
碝	-14.5447
鏇	-14.5448
欘	-14.5448
痞	-14.5448
霦	-14.5448
彡	-14.5448
鈷	-14.5449
㒵	-14.545
䄜	-14.545
穧	-14.545
屇	-14.5451
陻	-14.5451
㛹	-14.5451
奓	-14.5452
皵	-14.5453
鑞	-14.5454
鋟	-14.5454
㰚	-14.5454
惧	-14.5454
蝻	-14.5454
輥	-14.5455
骯	-14.5455
穱	-14.5455
剚	-14.5455
堽	-14.5455
胐	-14.5455
痀	-14.5455
埧	-14.5455
膷	-14.5456
汕	-14.5456
擂	-14.5456
皞	-14.5456
撆	-14.5457
戄	-14.5457
煁	-14.5457
幐	-14.5458
畼	-14.5459
䈔	-14.5459
癕	-14.5459
粣	-14.546
鍖	-14.546
淂	-14.546
蜽	-14.546
齶	-14.5461
骾	-14.5461
寑	-14.5462
􁍆	-14.5463
餵	-14.5464
亍	-14.5464
埛	-14.5467
獃	-14.5469
☲	-14.547
蜄	-14.547
鄎	-14.547
艓	-14.5471
胗	-14.5472
硋	-14.5473
蚼	-14.5473
裓	-14.5474
峿	-14.5476
椳	-14.5477
☳	-14.5478
☰	-14.5481
䵷	-14.5485
攡	-14.5496
弍	-14.5524
餑	-14.5802
䫻	-14.5808
佰	-14.581
䛇	-14.5818
葌	-14.5818
􁎐	-14.582
驈	-14.582
躕	-14.5821
鴥	-14.5822
桿	-14.5822
鱭	-14.5823
䍮	-14.5823
晫	-14.5825
瑫	-14.5827
耍	-14.5829
厶	-14.5829
蹼	-14.5829
蟢	-14.5829
仚	-14.5832
澑	-14.5833
􁀰	-14.5833
覻	-14.5834
櫐	-14.5835
餡	-14.5835
駚	-14.5835
楰	-14.5836
袽	-14.5836
譍	-14.5836
繈	-14.5836
澓	-14.5836
臐	-14.5837
湅	-14.5837
懥	-14.5837
胰	-14.5839
􁋷	-14.5839
滀	-14.5839
䊵	-14.5839
埇	-14.584
磄	-14.584
箯	-14.584
曚	-14.584
骳	-14.584
総	-14.5841
㹸	-14.5841
鍱	-14.5841
掫	-14.5841
俈	-14.5841
𡡉	-14.5841
艴	-14.5843
珵	-14.5843
􁋚	-14.5844
蜹	-14.5844
畡	-14.5844
柮	-14.5846
鋄	-14.5846
佹	-14.5846
蟕	-14.5846
晣	-14.5846
瘏	-14.5847
瑵	-14.5847
葐	-14.5847
巹	-14.5848
葸	-14.5848
嘄	-14.5848
䈏	-14.5848
筧	-14.5848
猧	-14.5849
婞	-14.5849
黐	-14.5849
鈲	-14.5849
魌	-14.585
梬	-14.585
昷	-14.585
俜	-14.5851
桼	-14.5851
鄪	-14.5855
㠑	-14.5857
䵍	-14.5859
鵹	-14.5871
訦	-14.6213
弝	-14.6216
蛦	-14.6216
灨	-14.6222
􁇼	-14.6225
􁊭	-14.6225
繮	-14.6227
憘	-14.6227
鐎	-14.6228
圁	-14.6228
簩	-14.623
蒚	-14.623
逿	-14.623
豰	-14.623
侜	-14.6231
庒	-14.6231
蠰	-14.6232
撦	-14.6233
奰	-14.6233
􁉨	-14.6235
澔	-14.6236
葘	-14.6236
僆	-14.6236
􁡡	-14.6236
糙	-14.6237
􁤃	-14.6237
袱	-14.6238
􁒐	-14.6238
􁇦	-14.6238
歗	-14.6238
饆	-14.6239
臇	-14.6239
擪	-14.6239
渗	-14.6239
拶	-14.6239
貕	-14.624
芨	-14.624
錍	-14.624
廈	-14.624
絣	-14.6241
揎	-14.6241
甾	-14.6242
緖	-14.6242
礉	-14.6242
䛒	-14.6242
瞩	-14.6244
庋	-14.6244
髳	-14.6244
蚄	-14.6246
㿻	-14.6246
􁈡	-14.6246
黴	-14.6246
咶	-14.6247
鶒	-14.6247
榾	-14.6248
嫽	-14.6248
􁃛	-14.6249
敉	-14.6249
獢	-14.625
􁁺	-14.6252
稙	-14.6252
蜲	-14.6252
痬	-14.6253
奂	-14.6256
餂	-14.6258
訒	-14.626
蜇	-14.6261
咡	-14.6261
倧	-14.6262
􁃼	-14.6264
榰	-14.6266
杗	-14.6267
􁚳	-14.627
鵅	-14.6628
凳	-14.663
魟	-14.6632
岕	-14.6633
硖	-14.6633
􁏄	-14.6635
溰	-14.6636
蛓	-14.6636
魨	-14.6641
瀡	-14.6642
𨵦	-14.6644
􁥌	-14.6644
笪	-14.6644
鶿	-14.6644
􁀈	-14.6645
獂	-14.6645
蠮	-14.6646
哳	-14.6647
膮	-14.6648
㸌	-14.6648
潕	-14.6648
圌	-14.6649
唃	-14.6649
趵	-14.6649
迾	-14.6649
梀	-14.665
懘	-14.665
宀	-14.665
昈	-14.665
懅	-14.6651
􁁪	-14.6651
琿	-14.6651
吷	-14.6652
蔊	-14.6652
瘂	-14.6652
塸	-14.6653
响	-14.6653
岔	-14.6653
騱	-14.6653
蚻	-14.6653
墆	-14.6654
薠	-14.6655
蝙	-14.6655
擽	-14.6656
茬	-14.6656
砠	-14.6656
餠	-14.6657
綄	-14.6657
􁑼	-14.6658
緶	-14.6658
脬	-14.6659
􁧏	-14.6659
䫫	-14.666
􁒨	-14.666
蓷	-14.666
涫	-14.6662
髧	-14.6662
掆	-14.6663
脘	-14.6663
轥	-14.6663
体	-14.6664
嘊	-14.6665
􁇥	-14.6665
膫	-14.6666
跲	-14.6667
嵑	-14.6667
鞨	-14.6667
柣	-14.6668
峞	-14.6668
玆	-14.6668
迩	-14.667
槅	-14.667
錟	-14.6671
媌	-14.6671
槹	-14.6672
輂	-14.6672
􁀇	-14.6672
穮	-14.6672
夑	-14.6673
瑴	-14.6673
穵	-14.6674
堄	-14.6678
蝑	-14.6678
􁁇	-14.6703
􁣸	-14.7059
荂	-14.7066
蝒	-14.7068
䐗	-14.7068
樆	-14.7072
鰿	-14.7073
醷	-14.7077
䑳	-14.7077
菝	-14.7078
澷	-14.7078
􁃝	-14.7078
揥	-14.7079
􁂎	-14.7079
憓	-14.7079
瓽	-14.708
犓	-14.7081
嵽	-14.7081
鬅	-14.7081
湳	-14.7082
昋	-14.7082
莍	-14.7082
广	-14.7082
捬	-14.7082
窴	-14.7083
濔	-14.7083
鶢	-14.7083
屴	-14.7084
鐬	-14.7085
鳿	-14.7086
瞚	-14.7087
蔇	-14.7088
忪	-14.7088
􁘟	-14.7088
鱍	-14.7089
㲰	-14.7089
犎	-14.7089
椷	-14.7089
㪇	-14.709
殭	-14.709
葡	-14.7091
􁈜	-14.7092
鬈	-14.7092
斈	-14.7092
鵫	-14.7093
籺	-14.7093
喌	-14.7093
抎	-14.7093
麺	-14.7093
􁚠	-14.7093
箖	-14.7094
沜	-14.7094
妸	-14.7094
氶	-14.7095
岯	-14.7095
篻	-14.7095
藙	-14.7096
☵	-14.7096
魦	-14.7097
􁇨	-14.7097
漎	-14.7097
蠑	-14.7097
唲	-14.7099
䆉	-14.7099
彲	-14.71
☶	-14.7101
稡	-14.7101
欐	-14.7102
醧	-14.7102
躃	-14.7102
朄	-14.7103
曶	-14.7104
囅	-14.7104
洓	-14.7104
赮	-14.7104
鼅	-14.7107
莤	-14.7109
疰	-14.7109
芴	-14.7111
艖	-14.7111
眆	-14.7112
頿	-14.7114
嬗	-14.7116
璂	-14.7117
銲	-14.7118
殥	-14.712
晹	-14.7121
飆	-14.7123
【	-14.7511
菥	-14.7519
鄁	-14.7521
栾	-14.7522
魪	-14.7526
仉	-14.7529
􁍝	-14.753
栫	-14.7531
梫	-14.7532
獌	-14.7532
嘅	-14.7533
䝐	-14.7533
葇	-14.7533
亀	-14.7534
鞜	-14.7534
婕	-14.7534
豓	-14.7535
􁄧	-14.7535
趎	-14.7537
鞢	-14.7537
繣	-14.7537
騙	-14.7537
礶	-14.7538
錔	-14.7538
偭	-14.7538
鸅	-14.7539
蘡	-14.7539
熁	-14.7539
鶪	-14.7539
朙	-14.7539
􁄺	-14.754
􁥀	-14.754
榅	-14.754
峚	-14.754
嵻	-14.7541
葪	-14.7541
鉀	-14.7541
􁊍	-14.7541
騈	-14.7541
灄	-14.7541
櫾	-14.7541
􁋯	-14.7542
勩	-14.7543
獹	-14.7543
壥	-14.7543
鎣	-14.7543
餲	-14.7543
禂	-14.7544
軵	-14.7544
飦	-14.7544
鷤	-14.7544
苃	-14.7545
甈	-14.7545
􁊽	-14.7545
鳱	-14.7546
錕	-14.7546
􁀣	-14.7548
獀	-14.7549
濋	-14.7549
恝	-14.7549
臲	-14.7549
瀐	-14.755
􁇲	-14.755
刵	-14.7551
蹮	-14.7551
艻	-14.7551
獩	-14.7551
榑	-14.7551
媦	-14.7552
尃	-14.7552
􁒓	-14.7552
婐	-14.7553
翪	-14.7553
褲	-14.7554
倿	-14.7555
秏	-14.7555
槪	-14.7555
肵	-14.7555
囝	-14.7555
虭	-14.7556
鼦	-14.7556
紟	-14.7556
症	-14.7557
堘	-14.7557
繸	-14.7558
滾	-14.7558
諢	-14.7559
倳	-14.756
熅	-14.7561
嶞	-14.7563
禛	-14.7566
磪	-14.7566
訞	-14.7568
䘲	-14.7569
㜪	-14.7569
褸	-14.7582
賝	-14.7992
潎	-14.8
衱	-14.8002
毶	-14.8002
􁉺	-14.8004
竘	-14.8006
獾	-14.8007
逤	-14.8007
絭	-14.8007
粇	-14.8008
􁦍	-14.8008
齴	-14.8009
靫	-14.8009
䍥	-14.801
晀	-14.8011
稯	-14.8011
噑	-14.8011
擉	-14.8011
禩	-14.8012
彳	-14.8012
瞵	-14.8012
髟	-14.8012
迒	-14.8013
訹	-14.8014
􁨊	-14.8014
􁈿	-14.8014
􁌹	-14.8014
嬺	-14.8015
獦	-14.8016
頦	-14.8016
餮	-14.8016
甋	-14.8016
􁍺	-14.8016
􁙆	-14.8017
瓅	-14.8018
倠	-14.8018
篃	-14.8018
鲋	-14.8019
襡	-14.8019
娸	-14.8019
桲	-14.8019
煅	-14.8019
砅	-14.8019
矹	-14.8019
磓	-14.802
嵣	-14.802
厫	-14.802
膍	-14.8021
鳽	-14.8021
蹣	-14.8021
朾	-14.8021
吪	-14.8022
蝹	-14.8022
㻁	-14.8022
颻	-14.8022
曋	-14.8022
矖	-14.8022
魑	-14.8023
􁂳	-14.8023
蓿	-14.8023
啽	-14.8024
䓈	-14.8025
阞	-14.8026
坵	-14.8026
搪	-14.8026
抳	-14.8027
坁	-14.8027
帋	-14.8027
驉	-14.8027
漶	-14.8029
葖	-14.8029
輤	-14.8029
塓	-14.8029
玞	-14.8029
煟	-14.803
璏	-14.803
侹	-14.8031
􁚐	-14.8031
薕	-14.8031
仟	-14.8032
􁕓	-14.8033
冘	-14.8034
䄙	-14.8034
膇	-14.8034
岈	-14.8035
􁦣	-14.8035
僸	-14.8035
麁	-14.8035
䏑	-14.8036
䑸	-14.8038
缷	-14.804
迵	-14.8041
軜	-14.8042
焄	-14.8042
愸	-14.8045
䃜	-14.8048
􁬼	-14.8051
糳	-14.8053
蟞	-14.8054
毣	-14.8062
弌	-14.8095
菠	-14.8467
惪	-14.8494
鵌	-14.8494
軃	-14.8502
惉	-14.8502
鞁	-14.8503
琀	-14.8503
渹	-14.8504
瘀	-14.8505
蟥	-14.8505
瘇	-14.8505
􁱖	-14.8506
騀	-14.8507
􁄵	-14.8508
􁣚	-14.8508
炔	-14.8508
撠	-14.8508
庪	-14.8509
驫	-14.851
潸	-14.8511
蛜	-14.8511
􁆸	-14.8512
􁔿	-14.8512
輨	-14.8513
辵	-14.8513
俀	-14.8513
鬨	-14.8514
棜	-14.8514
鼵	-14.8514
墣	-14.8515
籔	-14.8515
寉	-14.8515
穾	-14.8515
􁁥	-14.8516
􁄻	-14.8516
䬳	-14.8516
枓	-14.8516
叄	-14.8517
茴	-14.8517
䝠	-14.8517
榹	-14.8517
袄	-14.8518
滳	-14.8518
呢	-14.8518
涆	-14.8519
嚾	-14.8519
玓	-14.852
􁳋	-14.852
鋂	-14.8521
蒓	-14.8522
毲	-14.8522
裶	-14.8522
鶃	-14.8523
栿	-14.8523
囦	-14.8523
袙	-14.8523
䴠	-14.8524
􁐻	-14.8524
饠	-14.8524
䗁	-14.8525
匊	-14.8525
絿	-14.8525
捥	-14.8526
􁒂	-14.8526
膁	-14.8528
儿	-14.8529
􁥗	-14.8529
骴	-14.8529
䲻	-14.8529
􁒽	-14.8529
敫	-14.8529
􁵒	-14.8529
襓	-14.853
莙	-14.853
嗺	-14.8532
䃌	-14.8532
􁃇	-14.8532
昡	-14.8532
郏	-14.8533
鴧	-14.8533
䆮	-14.8534
螇	-14.8534
杈	-14.8534
㬉	-14.8534
齨	-14.8535
􁊥	-14.8535
袝	-14.8536
癈	-14.8536
迋	-14.8536
緆	-14.8537
雯	-14.8538
􁊿	-14.8538
荣	-14.8539
􁀎	-14.8539
蠬	-14.8539
􁱋	-14.854
曒	-14.8542
羼	-14.8542
馲	-14.8543
摦	-14.8545
攂	-14.8547
䃉	-14.855
䵹	-14.8553
蠎	-14.8554
蹺	-14.8996
茤	-14.9001
刉	-14.9012
覸	-14.9014
鏆	-14.9016
汹	-14.9021
熂	-14.9022
筅	-14.9023
圞	-14.9024
鄡	-14.9028
􁮑	-14.9029
􁊅	-14.9032
鼱	-14.9032
䃮	-14.9032
齁	-14.9033
罈	-14.9034
􁌻	-14.9035
釰	-14.9035
䔲	-14.9035
籈	-14.9035
􁊢	-14.9035
梹	-14.9036
􁑛	-14.9036
兟	-14.9036
􁍄	-14.9037
鷚	-14.9038
奶	-14.9038
癙	-14.9038
􁌀	-14.9039
䖤	-14.9039
䂍	-14.9039
鉧	-14.9039
鰾	-14.9039
嚵	-14.904
䆗	-14.904
䶂	-14.904
櫕	-14.904
鞂	-14.9041
炱	-14.9041
咩	-14.9042
􁇻	-14.9043
敶	-14.9043
牁	-14.9044
簎	-14.9046
襵	-14.9046
鞛	-14.9046
膘	-14.9047
颬	-14.9047
咠	-14.9047
瀴	-14.9048
舀	-14.9049
楱	-14.9049
軶	-14.9049
駥	-14.9049
禚	-14.9049
醿	-14.905
鱦	-14.905
掤	-14.9051
䤈	-14.9051
茖	-14.9052
与	-14.9053
噅	-14.9053
鴯	-14.9053
涍	-14.9053
卼	-14.9053
璊	-14.9053
蚹	-14.9053
嵥	-14.9054
瞤	-14.9054
听	-14.9054
􁫣	-14.9055
揾	-14.9056
􁖬	-14.9056
洏	-14.9056
貭	-14.9056
䀨	-14.9057
嫈	-14.9057
儌	-14.9057
㟪	-14.9057
幖	-14.9058
􁈲	-14.9059
㯽	-14.9059
☴	-14.9059
廑	-14.9059
􁳬	-14.906
蟶	-14.906
翆	-14.906
虸	-14.906
薮	-14.9061
堩	-14.9061
郔	-14.9062
㦤	-14.9062
曭	-14.9062
篅	-14.9063
幵	-14.9064
矸	-14.9065
毱	-14.9066
戙	-14.9066
腨	-14.9067
蘃	-14.9067
狘	-14.9072
􁈯	-14.9073
􁰽	-14.9076
圵	-14.9083
㗲	-14.9084
鷼	-14.9085
罺	-14.9088
啿	-14.9102
瓫	-14.9572
垞	-14.9574
􁊖	-14.9578
鮥	-14.9579
􁣖	-14.958
鐟	-14.9581
􁁍	-14.9584
㡓	-14.9585
􁂄	-14.9585
猓	-14.9586
璮	-14.9587
堈	-14.9588
埼	-14.9588
熻	-14.9589
埂	-14.9589
鐇	-14.959
􁃅	-14.959
靻	-14.959
贙	-14.959
䵟	-14.9591
縀	-14.9592
䳱	-14.9592
蒒	-14.9592
幈	-14.9592
䨘	-14.9592
緲	-14.9592
寋	-14.9593
椆	-14.9593
僔	-14.9593
䰞	-14.9594
謿	-14.9594
靆	-14.9594
媳	-14.9595
􁂆	-14.9595
捔	-14.9595
蹪	-14.9595
􁘂	-14.9596
䴴	-14.9596
􁉁	-14.9597
屫	-14.9597
糂	-14.9597
鋘	-14.9597
􁔛	-14.9597
鋊	-14.9598
鶾	-14.9598
鷣	-14.9599
嵏	-14.9599
䝿	-14.9599
迣	-14.9599
䪺	-14.96
跐	-14.96
㡚	-14.96
㓊	-14.96
蝣	-14.96
櫄	-14.96
灺	-14.9601
誂	-14.9601
􁐴	-14.9601
衕	-14.9601
扤	-14.9601
貃	-14.9602
蒀	-14.9602
酵	-14.9602
􁑽	-14.9602
雗	-14.9603
攓	-14.9603
覂	-14.9603
䨲	-14.9603
噽	-14.9603
孊	-14.9603
丌	-14.9604
湢	-14.9604
偟	-14.9604
㹮	-14.9604
剬	-14.9605
軧	-14.9605
痎	-14.9605
􁘡	-14.9606
髐	-14.9606
葓	-14.9606
舝	-14.9606
䑦	-14.9607
庮	-14.9607
陾	-14.9607
菣	-14.9608
籒	-14.9608
庤	-14.9608
捿	-14.9608
庱	-14.9608
苯	-14.9608
唆	-14.9609
􁋲	-14.9609
􁆢	-14.961
䘐	-14.961
欑	-14.961
凷	-14.961
􁁑	-14.9611
㞐	-14.9611
熢	-14.9611
肬	-14.9611
脢	-14.9611
􁤮	-14.9612
𠞰	-14.9612
榥	-14.9612
☱	-14.9612
􁃽	-14.9612
鼽	-14.9613
顩	-14.9614
窃	-14.9614
㴶	-14.9614
谹	-14.9615
嶫	-14.9616
䇶	-14.9616
􁐟	-14.9616
䨥	-14.9616
瘙	-14.9616
嘩	-14.9617
拿	-14.9617
劀	-14.9617
汦	-14.9618
􁈋	-14.962
􁏢	-14.9622
霩	-14.9625
肮	-14.9625
錥	-14.9626
􁆹	-14.9631
㳄	-14.9644
◍	-14.9646
螋	-15.0143
􁦹	-15.0162
煿	-15.0165
枽	-15.017
䦱	-15.017
䙆	-15.017
蓫	-15.0171
蛷	-15.0171
􁇯	-15.0171
軓	-15.0171
棸	-15.0172
鼸	-15.0172
􁢄	-15.0173
􁆳	-15.0174
鷊	-15.0174
瑍	-15.0174
䔄	-15.0174
蛋	-15.0174
壏	-15.0175
墪	-15.0175
窯	-15.0175
驖	-15.0175
柀	-15.0175
繲	-15.0176
錜	-15.0176
鴮	-15.0177
齻	-15.0177
􁀋	-15.0178
䳄	-15.0178
鱺	-15.0178
陗	-15.0178
羉	-15.0179
蠸	-15.0179
莣	-15.0179
偰	-15.018
汯	-15.018
衈	-15.018
􁙹	-15.018
殈	-15.0181
蜠	-15.0181
欱	-15.0181
哻	-15.0181
秆	-15.0181
懹	-15.0182
􁏫	-15.0182
䋁	-15.0182
跰	-15.0183
軬	-15.0184
峗	-15.0184
嵁	-15.0184
晌	-15.0184
楀	-15.0184
䘙	-15.0184
葂	-15.0185
蹖	-15.0185
䑃	-15.0185
斒	-15.0186
胕	-15.0186
凃	-15.0186
衹	-15.0186
􁘥	-15.0187
櫸	-15.0187
藑	-15.0187
㮈	-15.0187
𧹞	-15.0187
頩	-15.0188
􁆭	-15.0188
䂬	-15.0188
疸	-15.0189
蝢	-15.0189
檞	-15.0189
盰	-15.0189
黲	-15.0189
忬	-15.0189
㯓	-15.0189
衅	-15.0189
窨	-15.0189
煓	-15.0189
睕	-15.0189
扮	-15.019
鵸	-15.019
悋	-15.019
艿	-15.019
蛮	-15.019
烕	-15.0192
钃	-15.0192
􁃤	-15.0192
誧	-15.0192
徛	-15.0192
玨	-15.0192
鞳	-15.0193
撱	-15.0194
䩭	-15.0194
烻	-15.0195
楖	-15.0195
􁙅	-15.0195
褙	-15.0196
陑	-15.0196
曯	-15.0196
噢	-15.0197
猵	-15.0197
鷾	-15.0197
喎	-15.0198
𥫱	-15.0199
􁢱	-15.0199
礌	-15.0199
腶	-15.0199
睐	-15.0199
􁩌	-15.0199
􁜠	-15.0199
㧻	-15.02
􁁉	-15.0201
芿	-15.0201
􁣉	-15.0202
胻	-15.0202
􁑭	-15.0202
嵆	-15.0202
耞	-15.0203
􁇠	-15.0203
􁥲	-15.0203
婤	-15.0203
䀹	-15.0204
􁰤	-15.0204
鬄	-15.0204
􁊬	-15.0204
􁡯	-15.0205
孏	-15.0205
襕	-15.0205
戉	-15.0206
琩	-15.0206
婑	-15.0206
㯺	-15.0207
諿	-15.0207
玡	-15.0207
捘	-15.0207
鬣	-15.0208
醰	-15.0208
眹	-15.0208
膹	-15.0209
􁖔	-15.021
俺	-15.021
􁒷	-15.021
僿	-15.021
􁎖	-15.021
棿	-15.021
鱬	-15.0211
飶	-15.0213
蛫	-15.0215
齆	-15.0215
簥	-15.0215
螡	-15.0216
醙	-15.0216
繀	-15.0217
䌰	-15.0217
嚘	-15.0218
趑	-15.0218
謻	-15.0219
䍚	-15.022
磹	-15.022
偊	-15.022
􁦚	-15.0222
萴	-15.0222
哤	-15.0222
棽	-15.0226
鱎	-15.0244
薐	-15.0749
鷿	-15.077
顉	-15.078
佴	-15.0782
􁋎	-15.0784
􁚕	-15.0788
􁉘	-15.0789
閜	-15.0791
网	-15.0793
幫	-15.0793
芀	-15.0793
慅	-15.0795
亱	-15.0796
撏	-15.0796
煠	-15.0796
蘷	-15.0797
艒	-15.0798
跔	-15.0798
蟃	-15.0798
鷘	-15.0799
􁀾	-15.0799
衩	-15.0799
潚	-15.0799
橀	-15.08
櫱	-15.08
鮸	-15.0801
栵	-15.0801
􁑾	-15.0801
䜌	-15.0801
栯	-15.0801
秼	-15.0801
腽	-15.0802
尗	-15.0802
浰	-15.0802
䘺	-15.0802
藚	-15.0803
蜰	-15.0803
䆃	-15.0804
䃋	-15.0804
魾	-15.0804
摙	-15.0804
幩	-15.0805
㬱	-15.0806
繿	-15.0806
黤	-15.0806
盔	-15.0806
蛁	-15.0807
鰝	-15.0807
䂎	-15.0807
瀷	-15.0807
聸	-15.0808
卾	-15.0809
䏎	-15.0809
􁂦	-15.0809
膐	-15.081
貐	-15.081
虰	-15.081
裎	-15.081
㞯	-15.0811
嗝	-15.0812
􁇙	-15.0812
􁞟	-15.0813
嶬	-15.0813
䴰	-15.0814
樐	-15.0814
崥	-15.0814
䇲	-15.0814
蜬	-15.0814
􁡶	-15.0815
竸	-15.0815
熀	-15.0815
狟	-15.0815
魖	-15.0815
侐	-15.0815
檼	-15.0816
槯	-15.0816
䳭	-15.0816
鬊	-15.0816
倞	-15.0816
坷	-15.0817
㮨	-15.0817
暒	-15.0817
埕	-15.0817
戽	-15.0817
瀠	-15.0818
䱱	-15.0819
忲	-15.0819
鯥	-15.0819
檴	-15.0819
柭	-15.0819
鄛	-15.0819
狋	-15.0819
拪	-15.0819
儥	-15.082
玎	-15.082
蛥	-15.082
顐	-15.082
䝤	-15.082
􁆍	-15.082
鱁	-15.0821
鎒	-15.0821
嚗	-15.0821
㬠	-15.0821
龞	-15.0821
躆	-15.0821
􁐓	-15.0823
㯃	-15.0823
剠	-15.0823
簙	-15.0824
憋	-15.0824
牥	-15.0824
繠	-15.0825
繯	-15.0825
􁪄	-15.0825
􁀬	-15.0825
蝚	-15.0825
獖	-15.0826
瓻	-15.0826
芓	-15.0827
娖	-15.0828
狪	-15.0828
琈	-15.0829
顄	-15.0829
􁇱	-15.0829
襂	-15.0829
崺	-15.083
錧	-15.083
緰	-15.083
鄟	-15.0831
蓤	-15.0831
􁇃	-15.0831
涽	-15.0831
佅	-15.0832
簃	-15.0832
朡	-15.0833
䍡	-15.0833
䈄	-15.0834
䌉	-15.0834
幇	-15.0834
􁀅	-15.0835
鴺	-15.0836
鷷	-15.0836
􁉅	-15.0836
􁊃	-15.0837
䟃	-15.0837
茠	-15.0839
胑	-15.0839
膨	-15.084
蔮	-15.0841
箅	-15.0841
鵗	-15.0843
􁐼	-15.0844
扂	-15.0844
蚷	-15.0845
眅	-15.0847
峳	-15.0849
瑌	-15.085
炟	-15.085
麮	-15.0852
􁋮	-15.0853
緾	-15.0854
齞	-15.0855
蚔	-15.0857
聡	-15.0863
籰	-15.0864
􁇂	-15.089
弎	-15.0895
䲹	-15.1438
棪	-15.1448
􁋼	-15.145
蕸	-15.1452
㺊	-15.1452
藫	-15.1453
鶷	-15.1453
檓	-15.1458
􁀺	-15.1458
勖	-15.1459
郚	-15.1461
鯇	-15.1462
栀	-15.1462
巙	-15.1463
輲	-15.1464
蛒	-15.1465
菎	-15.1466
蟟	-15.1466
瓵	-15.1466
橭	-15.1467
蹎	-15.1467
巛	-15.1467
欏	-15.1467
鋉	-15.1467
咼	-15.1468
蠼	-15.1468
髏	-15.1468
鎸	-15.1469
靭	-15.1469
鈄	-15.1469
岬	-15.147
苺	-15.147
薎	-15.147
澉	-15.1471
蠜	-15.1471
贗	-15.1471
蔏	-15.1471
􁱈	-15.1472
􁢸	-15.1472
􁉄	-15.1472
鄑	-15.1473
愡	-15.1473
疁	-15.1473
矬	-15.1475
􁬸	-15.1475
􁁎	-15.1475
􁐾	-15.1475
􁕻	-15.1475
胳	-15.1475
砟	-15.1475
稆	-15.1476
􁐠	-15.1476
呥	-15.1476
苶	-15.1476
銶	-15.1476
駽	-15.1476
輚	-15.1477
孅	-15.1477
溏	-15.1477
樻	-15.1477
旈	-15.1477
剺	-15.1478
墍	-15.1478
拮	-15.1478
煕	-15.1478
苙	-15.1479
萉	-15.1479
幀	-15.148
􁂻	-15.148
冸	-15.148
墦	-15.148
磍	-15.148
􁀥	-15.148
㩧	-15.148
豲	-15.1481
鏽	-15.1481
呞	-15.1482
􁗟	-15.1482
懆	-15.1482
搐	-15.1482
冣	-15.1483
睘	-15.1483
踑	-15.1483
擑	-15.1484
􁏌	-15.1484
炲	-15.1485
粰	-15.1485
唊	-15.1486
脠	-15.1486
虨	-15.1486
㥽	-15.1486
蚢	-15.1486
􁦵	-15.1486
䳏	-15.1487
亓	-15.1487
􁂬	-15.1488
􁀭	-15.1489
􁀗	-15.1489
緧	-15.1489
慽	-15.1489
慉	-15.1489
􁈘	-15.1489
柦	-15.1489
浛	-15.1491
鍌	-15.1491
􁊫	-15.1491
簍	-15.1492
襋	-15.1492
呆	-15.1492
櫋	-15.1492
栳	-15.1493
瑖	-15.1493
􁒛	-15.1493
翨	-15.1493
脧	-15.1494
㻬	-15.1494
䢼	-15.1494
熭	-15.1494
痌	-15.1495
欞	-15.1495
􁛦	-15.1495
椃	-15.1496
㻞	-15.1496
麷	-15.1497
賅	-15.1498
釤	-15.1499
翏	-15.1499
嶟	-15.1499
簰	-15.1499
峛	-15.1499
􁟧	-15.15
􁱃	-15.15
穛	-15.1501
鴚	-15.1501
􁐰	-15.1501
􁄴	-15.1502
篽	-15.1502
颲	-15.1502
㜑	-15.1503
殑	-15.1503
髇	-15.1503
􁹻	-15.1504
爂	-15.1504
􁊜	-15.1505
扭	-15.1505
樷	-15.1506
磤	-15.1506
蜙	-15.1508
嗼	-15.1508
酨	-15.1508
瓆	-15.151
隝	-15.151
众	-15.1511
俲	-15.1512
􁊾	-15.1512
鸗	-15.1513
霿	-15.1513
渳	-15.1513
礥	-15.1513
㮕	-15.1513
􁆀	-15.1516
飉	-15.1518
郠	-15.152
䉛	-15.1524
贉	-15.1525
􁍑	-15.1532
傰	-15.2118
槵	-15.2149
襇	-15.215
䕠	-15.2164
􁉍	-15.2164
珜	-15.2168
蛞	-15.2169
鮰	-15.2172
隽	-15.2173
棆	-15.2174
㷊	-15.2175
媕	-15.2175
魧	-15.2176
淏	-15.2176
矕	-15.2176
㮿	-15.2177
醭	-15.2177
䐁	-15.2177
褣	-15.2178
隑	-15.2178
螱	-15.2178
濜	-15.2179
憭	-15.2179
菙	-15.218
􁘕	-15.218
懁	-15.218
辞	-15.2181
鋐	-15.2181
蜱	-15.2181
􁃜	-15.2181
䋏	-15.2181
眽	-15.2182
鏠	-15.2182
㓻	-15.2182
緁	-15.2183
訬	-15.2183
睃	-15.2184
蟦	-15.2184
鮯	-15.2184
㰂	-15.2184
殰	-15.2184
薟	-15.2184
㬭	-15.2184
籚	-15.2184
瞼	-15.2185
乜	-15.2185
猼	-15.2185
潗	-15.2185
㽜	-15.2185
嵾	-15.2185
苮	-15.2186
鰉	-15.2186
鸓	-15.2186
婘	-15.2186
䎡	-15.2187
晈	-15.2187
磩	-15.2187
緐	-15.2187
妢	-15.2188
唽	-15.2188
䳨	-15.2188
凅	-15.2188
螄	-15.2189
煼	-15.2189
椊	-15.2189
唪	-15.2189
檆	-15.2189
桵	-15.2189
䕸	-15.2189
呬	-15.2189
潠	-15.219
嵼	-15.219
奝	-15.219
抓	-15.219
粛	-15.219
􁇟	-15.219
撘	-15.219
㟽	-15.2191
􁃒	-15.2191
疕	-15.2191
燹	-15.2191
熉	-15.2192
鯾	-15.2192
碉	-15.2192
䩜	-15.2193
攎	-15.2193
劙	-15.2193
􁑶	-15.2193
氀	-15.2193
㐌	-15.2194
嵠	-15.2194
掍	-15.2194
亙	-15.2195
罠	-15.2195
狿	-15.2195
􁑈	-15.2195
湇	-15.2195
髿	-15.2195
磳	-15.2195
􁘯	-15.2195
􁐇	-15.2196
孋	-15.2196
蓚	-15.2196
鶌	-15.2196
崴	-15.2196
瀅	-15.2196
鵉	-15.2197
䱻	-15.2197
􁅗	-15.2197
貾	-15.2197
懕	-15.2197
檾	-15.2197
踒	-15.2197
祒	-15.2197
􁗱	-15.2198
睗	-15.2198
扠	-15.2198
􁣌	-15.2198
椔	-15.2198
苜	-15.2198
䪅	-15.2198
齖	-15.2198
薸	-15.2199
駷	-15.2199
䫜	-15.22
􁯮	-15.22
窾	-15.22
䳕	-15.2201
棝	-15.2201
縴	-15.2203
蔱	-15.2203
鶆	-15.2203
梩	-15.2203
豀	-15.2203
掏	-15.2203
㬻	-15.2204
䒩	-15.2205
䦕	-15.2205
􁋥	-15.2205
澬	-15.2205
傁	-15.2205
彂	-15.2205
􁋙	-15.2206
誗	-15.2206
蝳	-15.2206
鞼	-15.2207
㹱	-15.2207
墼	-15.2207
径	-15.2207
秷	-15.2207
蘴	-15.2208
骲	-15.2208
跜	-15.2208
戁	-15.2208
哠	-15.2208
𣣔	-15.2209
揞	-15.2209
鄍	-15.2209
㦥	-15.2209
瘯	-15.2209
䍶	-15.2209
蟡	-15.221
烓	-15.221
櫌	-15.221
􁈸	-15.221
烋	-15.2211
薋	-15.2211
虷	-15.2211
睴	-15.2212
雓	-15.2212
蹡	-15.2212
㯭	-15.2212
􁯳	-15.2213
薀	-15.2213
􁯷	-15.2213
竾	-15.2214
􁰈	-15.2214
庬	-15.2215
扒	-15.2215
姎	-15.2215
𡼏	-15.2215
餴	-15.2215
暀	-15.2215
襹	-15.2216
傺	-15.2217
䐹	-15.2217
矐	-15.2217
蓛	-15.2217
恌	-15.2217
獙	-15.2217
颮	-15.2218
僠	-15.2219
䰻	-15.2219
蘬	-15.2219
傫	-15.2219
􁏔	-15.2219
蠉	-15.222
扯	-15.2221
蕒	-15.2221
䉽	-15.2221
鬍	-15.2223
􁊛	-15.2224
􁄄	-15.2227
荖	-15.2228
輘	-15.2228
幓	-15.223
崝	-15.2231
跙	-15.2232
涚	-15.2233
膟	-15.2234
䳚	-15.2234
耩	-15.2234
掜	-15.2238
􁒊	-15.2244
膕	-15.2249
鋃	-15.291
怸	-15.2929
􁈔	-15.2929
髎	-15.2933
仂	-15.2934
髃	-15.2936
􁝮	-15.2938
㲉	-15.2943
􁛥	-15.2944
䲛	-15.2944
漴	-15.2944
蛢	-15.2944
雑	-15.2945
鼴	-15.2946
􁆛	-15.2946
靘	-15.2946
㫿	-15.2947
􁊋	-15.2947
䓘	-15.2948
􁧍	-15.2948
䓿	-15.2948
緭	-15.2948
蝛	-15.2948
駊	-15.2948
甊	-15.2948
蔛	-15.2949
荁	-15.2949
鷉	-15.2949
飧	-15.2949
䯀	-15.295
􁋦	-15.295
􁡾	-15.295
膬	-15.295
执	-15.2951
蔎	-15.2951
蘞	-15.2951
畽	-15.2951
䤵	-15.2952
髑	-15.2952
鮬	-15.2952
檕	-15.2952
嶛	-15.2953
齱	-15.2953
􁌖	-15.2953
羠	-15.2953
隁	-15.2954
􁞘	-15.2954
凇	-15.2955
双	-15.2955
轣	-15.2955
矘	-15.2956
黰	-15.2956
䵬	-15.2956
􁀐	-15.2956
痝	-15.2956
㩻	-15.2957
尽	-15.2957
䰇	-15.2958
魼	-15.2958
潓	-15.2958
浤	-15.2959
䩫	-15.2959
􁐍	-15.296
巠	-15.2961
牼	-15.2961
镼	-15.2962
泞	-15.2962
䃴	-15.2962
幝	-15.2962
鏨	-15.2962
怭	-15.2962
鱕	-15.2962
􁏋	-15.2962
㫬	-15.2963
􁬜	-15.2963
㧓	-15.2963
嘎	-15.2963
悳	-15.2964
􁈷	-15.2964
詷	-15.2964
㡡	-15.2964
䒠	-15.2965
涾	-15.2965
閍	-15.2965
眵	-15.2967
􁗀	-15.2967
嚂	-15.2967
頄	-15.2967
珷	-15.2967
㟏	-15.2967
懞	-15.2968
誷	-15.2968
䧿	-15.2968
㡘	-15.2968
蒦	-15.2968
丅	-15.2969
沘	-15.2969
騼	-15.297
鐧	-15.297
𡵻	-15.297
鴡	-15.2971
􁕒	-15.2971
躨	-15.2972
佈	-15.2972
摝	-15.2972
肂	-15.2972
嗿	-15.2973
捂	-15.2973
烰	-15.2974
㳅	-15.2974
氃	-15.2975
磢	-15.2975
氋	-15.2975
䬾	-15.2975
臅	-15.2976
熿	-15.2976
鳺	-15.2976
蹞	-15.2976
濄	-15.2977
缹	-15.2977
庿	-15.2977
泒	-15.2977
蕂	-15.2978
㾕	-15.2978
囈	-15.2978
溞	-15.2978
蔪	-15.2979
棷	-15.2979
繃	-15.2979
幠	-15.298
嚃	-15.2981
􁘓	-15.2982
磲	-15.2983
䗤	-15.2983
穖	-15.2984
豩	-15.2985
髵	-15.2985
蛘	-15.2986
㓶	-15.2986
叀	-15.2986
傛	-15.2987
㧖	-15.2987
酮	-15.2988
姶	-15.2988
㙺	-15.2989
㬓	-15.299
䳡	-15.299
瞱	-15.299
挋	-15.2991
㹈	-15.2992
韇	-15.2993
儭	-15.2993
喩	-15.2994
彏	-15.2995
劗	-15.2997
鶅	-15.2997
甐	-15.3002
褱	-15.3002
􁜱	-15.3007
黓	-15.301
􁐸	-15.3019
籑	-15.3019
侴	-15.3746
耖	-15.3746
䋌	-15.3758
胉	-15.3766
譫	-15.3769
襺	-15.377
䬪	-15.3771
瀯	-15.3773
䴹	-15.3775
䖳	-15.3778
劦	-15.3779
幏	-15.3779
燌	-15.3779
糍	-15.3779
瓄	-15.3779
䵎	-15.3782
䔇	-15.3782
忺	-15.3784
棅	-15.3784
袥	-15.3784
罞	-15.3784
滺	-15.3784
艽	-15.3785
莟	-15.3786
捏	-15.3787
獜	-15.3787
裷	-15.3787
丿	-15.3787
暜	-15.3787
訔	-15.3789
濎	-15.3789
抏	-15.3789
嚆	-15.379
槢	-15.3791
糦	-15.3791
莔	-15.3791
构	-15.3792
巅	-15.3792
䪨	-15.3792
䌽	-15.3792
庉	-15.3792
掁	-15.3793
亁	-15.3793
磉	-15.3793
蛅	-15.3793
筀	-15.3794
豏	-15.3794
䶧	-15.3795
褋	-15.3795
垸	-15.3795
墋	-15.3796
䘚	-15.3796
獟	-15.3796
暸	-15.3797
籣	-15.3797
䃺	-15.3797
叁	-15.3797
碡	-15.3798
篞	-15.3798
砯	-15.3798
瀙	-15.3798
䬅	-15.3798
㠿	-15.3798
䭞	-15.3798
睩	-15.3799
愳	-15.38
腱	-15.38
儓	-15.38
璖	-15.38
姺	-15.3801
宝	-15.3801
篖	-15.3801
䲧	-15.3801
狍	-15.3802
筁	-15.3802
囐	-15.3802
悕	-15.3802
幭	-15.3802
䪍	-15.3803
敻	-15.3803
蚗	-15.3803
珬	-15.3804
䀜	-15.3804
匰	-15.3804
㥯	-15.3804
䴸	-15.3804
䂀	-15.3804
衯	-15.3805
㩗	-15.3805
䣼	-15.3805
璙	-15.3806
椄	-15.3807
硧	-15.3807
䰂	-15.3808
瞖	-15.3808
蟳	-15.3808
熚	-15.3809
諞	-15.3809
侘	-15.3809
訆	-15.381
謵	-15.381
凙	-15.381
爌	-15.3811
污	-15.3811
㭼	-15.3811
偝	-15.3811
莃	-15.3812
蟱	-15.3812
榤	-15.3812
呾	-15.3812
腇	-15.3812
葈	-15.3813
䪼	-15.3813
淜	-15.3814
腢	-15.3814
蕇	-15.3814
蟓	-15.3814
稰	-15.3814
䮾	-15.3816
刌	-15.3816
峱	-15.3817
杸	-15.3818
䖺	-15.3818
踼	-15.3818
慂	-15.3819
䌖	-15.3819
槴	-15.382
蘥	-15.382
灟	-15.3821
皫	-15.3822
籴	-15.3822
縏	-15.3822
瞹	-15.3823
瀱	-15.3823
墡	-15.3823
㬇	-15.3824
憣	-15.3824
戳	-15.3825
弆	-15.3825
硨	-15.3825
朁	-15.3826
䆁	-15.3826
岪	-15.3826
㿈	-15.3829
嗊	-15.3829
踹	-15.3829
袘	-15.383
翐	-15.3831
蝭	-15.3832
窵	-15.3836
䄈	-15.3837
䚡	-15.3837
觓	-15.3838
觼	-15.3839
叭	-15.384
跃	-15.384
艛	-15.3848
玀	-15.3851
㖵	-15.3854
邂	-15.683
逅	-15.8061
倆	-17.4037
蜈	-17.4038
=	-17.4039
3	-17.404
"	-17.4041
>	-17.4041
