<unk>	0
<s>	0
</s>	0
/	-3.79184
之	-3.93322
(	-4.03515
)	-4.07083
也	-4.46392
以	-4.54494
而	-4.82183
為	-4.85294
)(	-5.17226
者	-5.17598
其	-5.19281
不	-5.21246
王	-5.2595
人	-5.26018
有	-5.30249
於	-5.44215
曰	-5.45487
言	-5.635
則	-5.7244
一	-5.74039
上	-5.77236
無	-5.79052
與	-5.80765
事	-5.8167
子	-5.86587
大	-5.89649
此	-5.93696
自	-5.99279
秦	-6.00244
所	-6.00837
至	-6.01478
使	-6.02351
齊	-6.03222
臣	-6.0492
矣	-6.05919
故	-6.07626
謂	-6.10024
今	-6.10987
公	-6.13054
在	-6.17892
行	-6.17987
反	-6.19797
及	-6.22535
見	-6.24234
官	-6.24574
文	-6.2461
亦	-6.2513
又	-6.25239
下	-6.25465
等	-6.27211
時	-6.28776
三	-6.29102
國	-6.31533
中	-6.32352
趙	-6.32432
皆	-6.338
兵	-6.33931
相	-6.34201
令	-6.34627
爲	-6.34861
知	-6.37432
非	-6.379
得	-6.38236
同	-6.40314
必	-6.40402
是	-6.42216
用	-6.43326
將	-6.4392
乃	-6.44215
復	-6.44308
出	-6.44609
魏	-6.45265
二	-6.45901
欲	-6.45932
後	-6.46213
已	-6.47728
如	-6.48022
州	-6.49307
名	-6.49877
正	-6.50564
從	-6.51482
安	-6.52538
楚	-6.5369
君	-6.56913
當	-6.59675
書	-6.60194
成	-6.60784
然	-6.62739
字	-6.62812
軍	-6.6328
于	-6.63645
若	-6.63958
入	-6.63966
作	-6.64129
可	-6.64263
命	-6.64519
遂	-6.65261
城	-6.66336
云	-6.6693
注	-6.67545
猶	-6.6772
即	-6.67977
請	-6.70557
因	-6.71062
張	-6.71156
韓	-6.71603
地	-6.73649
道	-6.74574
任	-6.7545
民	-6.75569
明	-6.76287
▁	-6.7631
死	-6.76452
乎	-6.78275
李	-6.78325
日	-6.78512
年	-6.79778
取	-6.80045
周	-6.80452
未	-6.80526
本	-6.80603
多	-6.80685
重	-6.81015
能	-6.81055
詔	-6.81315
何	-6.82885
去	-6.84458
天	-6.8452
封	-6.8514
先	-6.85995
加	-6.86036
陳	-6.86989
五	-6.88406
且	-6.89331
音	-6.89369
賜	-6.89453
馬	-6.90414
四	-6.90618
前	-6.91247
善	-6.91786
進	-6.92172
我	-6.93121
雖	-6.93213
平	-6.93638
立	-6.94476
守	-6.94598
主	-6.94885
徳	-6.9522
天下	-6.953
章	-6.95305
合	-6.9552
方	-6.96895
聞	-6.9765
闕	-6.97747
南	-6.98393
士	-6.98413
山	-6.98416
生	-7.00476
武	-7.00656
來	-7.00769
議	-7.01036
定	-7.01545
禮	-7.01778
實	-7.02151
府	-7.02454
舉	-7.0298
/)	-7.03268
内	-7.0364
初	-7.03662
補音	-7.04372
朝	-7.04377
兩	-7.04707
卒	-7.04821
長	-7.05914
侯	-7.06184
伯	-7.07219
奏	-7.07222
既	-7.07515
信	-7.07663
和	-7.10251
元	-7.1044
俱	-7.11827
夫	-7.11932
外	-7.1215
通	-7.12233
史	-7.12629
歸	-7.12675
親	-7.12973
陽	-7.13047
或	-7.13578
稱	-7.14327
西	-7.14666
各	-7.14687
燕	-7.14698
兼	-7.15206
世	-7.15747
分	-7.15765
東	-7.15869
劉	-7.15981
不可	-7.16457
義	-7.16981
宋	-7.17042
始	-7.18144
治	-7.18694
金	-7.19295
忠	-7.19599
爾	-7.2055
髙	-7.21146
常	-7.21611
法	-7.21997
戰	-7.22035
數	-7.22489
不能	-7.22843
服	-7.23009
論	-7.23045
心	-7.23358
師	-7.2406
正曰	-7.2426
門	-7.24369
過	-7.24464
意	-7.24725
問	-7.25152
諸	-7.25205
居	-7.25243
政	-7.25249
六	-7.25479
宜	-7.25843
降	-7.26858
惟	-7.26867
以為	-7.27028
亡	-7.27108
制	-7.27883
吾	-7.28018
恐	-7.2883
固	-7.28937
焉	-7.28972
難	-7.29347
易	-7.29973
家	-7.30448
改	-7.30476
應	-7.30733
補曰	-7.30762
樂	-7.30879
攻	-7.31488
求	-7.31884
氏	-7.32196
都	-7.32665
並	-7.32696
發	-7.33863
衆	-7.33889
利	-7.33951
右	-7.34126
殺	-7.36042
北	-7.36328
水	-7.36372
處	-7.36509
甚	-7.37069
謀	-7.37261
司	-7.37556
德	-7.38111
起	-7.38311
昭	-7.3859
辭	-7.40254
盡	-7.40439
卿	-7.41448
失	-7.41473
逺	-7.41487
九	-7.41689
召	-7.42341
元作	-7.43475
儀	-7.43514
嗣	-7.43693
功	-7.4385
聲	-7.44189
罪	-7.44345
古	-7.44499
少	-7.45246
直	-7.45314
理	-7.45357
屬	-7.45424
說	-7.45438
左	-7.45562
耳	-7.45744
罷	-7.46008
計	-7.46108
力	-7.46125
小	-7.46646
朝廷	-7.47056
宗	-7.47107
惡	-7.47425
衛	-7.47514
近	-7.47737
許	-7.47888
唐	-7.48378
敗	-7.48411
孫	-7.48597
特	-7.48948
晉	-7.48992
補	-7.49126
還	-7.49702
遣	-7.49818
經	-7.4996
尚	-7.50193
萬	-7.50298
漢	-7.50681
縣	-7.50803
按	-7.51197
朕	-7.51445
受	-7.51869
十	-7.5249
奉	-7.52649
賢	-7.52803
好	-7.52822
陛下	-7.52963
順	-7.53766
寧	-7.53793
傳	-7.53856
益	-7.54398
置	-7.54775
代	-7.54918
帝	-7.55077
身	-7.55163
錢	-7.55926
石	-7.56011
楊	-7.56247
宣	-7.5625
嵗	-7.56329
思	-7.56584
梁	-7.56632
異	-7.56781
次	-7.57028
止	-7.57104
勝	-7.5788
告	-7.58045
深	-7.58374
位	-7.58745
保	-7.58867
聖	-7.59153
學	-7.59503
致	-7.5952
聽	-7.59851
食	-7.59884
黄	-7.61063
賊	-7.61308
新	-7.61319
哉	-7.61497
志	-7.61662
百	-7.61775
間	-7.61836
廣	-7.61989
父	-7.62263
舊	-7.6227
鄭	-7.62662
路	-7.62708
由	-7.62883
江	-7.63111
引	-7.63354
䇿	-7.63525
職	-7.64457
乞	-7.64739
疑	-7.64993
克	-7.65242
不得	-7.65271
説	-7.65284
田	-7.65376
約	-7.65527
宫	-7.65689
望	-7.65876
太子	-7.66035
語	-7.66247
興	-7.66363
觀	-7.66599
仍	-7.66731
女	-7.67503
更	-7.67541
豈	-7.67565
物	-7.67664
誠	-7.67842
坐	-7.67922
除	-7.68037
貴	-7.68151
亂	-7.68279
所以	-7.68324
凡	-7.68538
權	-7.68656
留	-7.69119
郡	-7.69527
盖	-7.69769
七	-7.69979
首	-7.70123
獨	-7.70523
白	-7.70538
八	-7.71185
永	-7.71734
敵	-7.71868
邊	-7.72165
彼	-7.72373
并	-7.72802
三年	-7.72826
交	-7.73039
教	-7.73247
進士	-7.73394
餘	-7.74047
厚	-7.74225
試	-7.74473
致仕	-7.74699
吏	-7.74701
終	-7.74704
納	-7.74996
備	-7.75151
恩	-7.75244
清	-7.75577
伐	-7.75586
而不	-7.75802
報	-7.76468
害	-7.76845
太宗	-7.76872
㑹	-7.77265
惠	-7.77557
具	-7.77633
賞	-7.77948
免	-7.7871
臨	-7.78822
仁	-7.79173
節	-7.7953
比	-7.79549
願	-7.79622
承	-7.80019
輕	-7.80341
獻	-7.80501
私	-7.8075
遷	-7.8153
諭	-7.81536
夏	-7.81832
往	-7.819
給	-7.82053
再	-7.82057
掌	-7.82359
絶	-7.82409
破	-7.82589
恭	-7.83418
胡	-7.84115
老	-7.84161
吳	-7.84504
但	-7.84942
陵	-7.85211
便	-7.85379
衍	-7.85393
嘗	-7.85397
靖	-7.85506
尚書	-7.85525
共	-7.85585
度	-7.85782
務	-7.8584
布	-7.86072
遇	-7.86307
徐	-7.86362
修	-7.86393
不敢	-7.86467
鎮	-7.86469
授	-7.86601
疾	-7.86793
强	-7.86861
河	-7.8716
殿	-7.87501
建	-7.87739
號	-7.88463
扵	-7.88574
懐	-7.89287
朱	-7.89401
汝	-7.89818
良	-7.9007
光	-7.90089
車	-7.90139
神	-7.90374
别	-7.90448
開	-7.90598
慶	-7.90668
端	-7.90767
母	-7.90775
收	-7.90955
對	-7.91087
皇	-7.9151
四年	-7.91625
解	-7.91918
視	-7.92115
悉	-7.9214
省	-7.9223
怒	-7.92492
考	-7.92673
察	-7.9298
果	-7.93035
甲	-7.93063
威	-7.93228
選	-7.93668
紀	-7.93729
御	-7.93732
怨	-7.94441
部	-7.94654
設	-7.94768
輔	-7.94921
敬	-7.94938
里	-7.9505
福	-7.95058
銀	-7.95518
玉	-7.956
二年	-7.96074
據	-7.96262
變	-7.96371
申	-7.971
幸	-7.9718
隂	-7.97251
魯	-7.97284
榮	-7.97373
嘉靖	-7.97714
五年	-7.97766
廢	-7.97824
達	-7.97976
将	-7.98449
口	-7.9848
林	-7.98815
愛	-7.98817
全	-7.98948
拜	-7.99102
濟	-7.99181
於是	-7.99204
記	-7.99227
率	-7.99898
尊	-8.00029
海	-8.00198
姓	-8.0029
孝	-8.0047
載	-8.00527
祖	-8.00537
監	-8.0068
憂	-8.00959
御史	-8.0097
謝	-8.01193
原	-8.01845
講	-8.02231
太	-8.02553
直𨽻	-8.02674
執	-8.02764
贈	-8.02852
土	-8.02878
越	-8.02894
大夫	-8.03017
龍	-8.03043
汗	-8.03086
勞	-8.0329
卷	-8.03446
英	-8.04583
國公	-8.04831
持	-8.04923
領	-8.05045
陞	-8.05275
典	-8.053
圖	-8.05456
責	-8.05457
流	-8.05794
懼	-8.05906
退	-8.06015
每	-8.0604
可以	-8.06517
累	-8.0683
顧	-8.06877
化	-8.07074
嘉	-8.07146
如此	-8.07164
資	-8.0734
郭	-8.07435
救	-8.07697
要	-8.07773
就	-8.07831
急	-8.07984
充	-8.08247
康	-8.08528
華	-8.08557
乗	-8.08806
智	-8.08866
表	-8.09013
繼	-8.09124
不知	-8.09134
色	-8.09503
千	-8.09854
衣	-8.09895
動	-8.099
向	-8.10019
依	-8.10046
簡	-8.10433
隨	-8.10557
崇	-8.10589
送	-8.10871
誤	-8.10934
木	-8.11017
遺	-8.11192
存	-8.11248
月	-8.11364
景	-8.11412
役	-8.11614
后	-8.12528
春	-8.1254
左右	-8.12733
患	-8.12782
邑	-8.12946
足	-8.13028
大臣	-8.13035
列	-8.132
策	-8.13326
業	-8.13405
切	-8.13533
𥙷曰	-8.14158
曹	-8.1422
才	-8.14233
詳	-8.14446
管	-8.14577
河南	-8.14732
誅	-8.15053
科	-8.15252
獲	-8.15405
秦王	-8.15498
養	-8.15548
盛	-8.15764
伏	-8.1579
追	-8.16066
美	-8.1632
敢	-8.16418
六年	-8.1721
慮	-8.17248
勿	-8.17344
營	-8.17354
元年	-8.17573
韓魏	-8.17631
勢	-8.18116
質	-8.18245
呉	-8.1859
廟	-8.18595
施	-8.18624
對曰	-8.18915
危	-8.19232
病	-8.19265
人由進士	-8.19382
二人	-8.19746
久	-8.20043
極	-8.20158
弱	-8.20162
棄	-8.20384
犯	-8.20484
莊	-8.20496
強	-8.20509
耶	-8.2109
嚴	-8.21706
容	-8.21803
被	-8.21925
弟	-8.2202
昌	-8.22022
傷	-8.22063
莫	-8.22101
例	-8.22346
夀	-8.22355
器	-8.22592
邪	-8.22734
附	-8.229
係	-8.23121
息	-8.23133
刑	-8.23338
革	-8.23439
客	-8.23472
禁	-8.23639
第	-8.23644
詩	-8.23783
諸侯	-8.24029
風	-8.24036
手	-8.24147
鈔	-8.24215
喜	-8.24527
顯	-8.24549
著	-8.24683
籍	-8.24714
一人	-8.24805
結	-8.24853
圍	-8.24896
登	-8.25323
皇帝	-8.25417
須	-8.25459
待	-8.26043
於秦	-8.26124
推	-8.2621
畏	-8.26302
八年	-8.26488
情	-8.26572
示	-8.2679
而已	-8.26855
戒	-8.26864
延	-8.27194
夷	-8.27238
弗	-8.27415
庶	-8.27718
差	-8.2776
之所	-8.27795
七年	-8.27998
期	-8.28346
逐	-8.28493
仲	-8.28636
集	-8.2914
徒	-8.2965
移	-8.29706
曽	-8.29906
十年	-8.30134
指	-8.30246
騎	-8.30515
叔	-8.30894
襄	-8.30991
專	-8.31268
所謂	-8.31478
學士	-8.31977
離	-8.32077
目	-8.32152
走	-8.32446
之後	-8.32451
素	-8.32592
造	-8.32848
擊	-8.32864
京	-8.33368
族	-8.33422
中山	-8.33525
謹	-8.33982
委	-8.34045
體	-8.34096
連	-8.34135
負	-8.34146
妃	-8.34194
塞	-8.34199
廷	-8.34289
太監	-8.34362
▁(	-8.34419
助	-8.34544
丘	-8.34985
奪	-8.3531
商	-8.35537
指揮	-8.35549
吉	-8.35593
阿	-8.35676
楚王	-8.35739
富	-8.35807
肅	-8.35812
寡人	-8.35848
尋	-8.35972
曲	-8.36179
孟	-8.36407
氣	-8.36517
羅	-8.36559
市	-8.36569
山東	-8.36606
寳	-8.36798
違	-8.36799
黨	-8.36901
之事	-8.37141
天下之	-8.37148
征	-8.37426
泰	-8.3745
院	-8.37618
放	-8.37626
真	-8.3766
帥	-8.3773
酒	-8.38178
昔	-8.38399
㫖	-8.38596
他	-8.38764
吕	-8.38859
諌	-8.38923
諫	-8.38943
聞之	-8.39013
之言	-8.39312
禍	-8.39325
滅	-8.39638
川	-8.39674
巳	-8.39703
逆	-8.3971
佐	-8.39906
勒	-8.40017
二十	-8.40444
天子	-8.40517
戎	-8.40664
習	-8.40688
適	-8.40788
祭	-8.41166
勸	-8.4118
洪武	-8.41268
襲	-8.41268
蔡	-8.41574
成化	-8.41659
面	-8.41858
工	-8.42207
葢	-8.42231
草	-8.42577
尤	-8.42586
南京	-8.42667
訓	-8.42715
者也	-8.42898
律	-8.43034
避	-8.43193
迎	-8.43525
博	-8.43826
録	-8.43879
蓋	-8.44015
覆	-8.44087
勅	-8.44114
永樂	-8.44393
侍	-8.4451
丁	-8.44532
户	-8.44785
澤	-8.45018
散	-8.45114
巴	-8.45163
公子	-8.45172
擇	-8.45234
徃	-8.45286
援	-8.45536
副	-8.45934
撫	-8.45935
米	-8.45996
統	-8.46217
諡	-8.46431
憲	-8.46706
薨	-8.46812
瑾	-8.47184
回	-8.4731
調	-8.4732
夜	-8.47323
畢	-8.47342
不如	-8.47911
費	-8.48107
斷	-8.48171
洪	-8.4838
𢎞治	-8.48582
舍	-8.48659
積	-8.48906
予	-8.49007
郎	-8.49091
折	-8.49152
十二	-8.49309
𫝊	-8.49356
到	-8.49629
臺	-8.49807
會	-8.49885
支	-8.49983
况	-8.50019
境	-8.50288
聚	-8.50315
衞	-8.50412
高	-8.50473
從之	-8.50486
都督	-8.50517
校	-8.50585
帶	-8.50603
念	-8.5099
薄	-8.51006
九年	-8.5103
不足	-8.51129
竒	-8.51161
寛	-8.51215
薦	-8.51355
勤	-8.51447
勇	-8.51874
釋	-8.52
背	-8.52442
太后	-8.52675
爵	-8.53065
索	-8.53878
財	-8.54128
最	-8.54133
三月	-8.5416
百姓	-8.54183
堅	-8.54245
優	-8.54341
决	-8.54385
陜西	-8.54388
無所	-8.54553
雲	-8.54906
浙江	-8.54969
乆	-8.55007
機	-8.55229
割	-8.55249
見前	-8.55267
闗	-8.55319
蘇	-8.55421
之子	-8.55422
隆	-8.55695
賈	-8.55806
條	-8.56036
候	-8.56077
陶	-8.56581
轉	-8.56859
其後	-8.56929
傅	-8.57123
堂	-8.57127
上曰	-8.57511
之意	-8.57611
之地	-8.57722
班	-8.57746
孤	-8.57916
季	-8.58093
青	-8.58879
横	-8.59074
魚	-8.59118
十二年	-8.59237
升	-8.59301
増	-8.59505
張儀	-8.59542
有司	-8.59563
禮部	-8.59622
斯	-8.59626
先是	-8.59991
羊	-8.60634
囯	-8.60673
虞	-8.60694
火	-8.61157
詞	-8.61237
照	-8.61308
来	-8.6138
温	-8.61532
遣使	-8.61944
也今	-8.62037
愚	-8.62153
國家	-8.62156
茂	-8.62183
屈	-8.62246
疏	-8.62325
宰相	-8.62464
王曰	-8.62572
中書	-8.6267
哀	-8.62793
獄	-8.62906
馮	-8.62957
有所	-8.62959
射	-8.63252
賦	-8.63339
蜀	-8.63459
頭	-8.63658
牛	-8.63763
奔	-8.63877
形	-8.64011
困	-8.64058
江西	-8.64209
禄	-8.64275
付	-8.64305
䝉	-8.64459
呼	-8.6446
序	-8.64511
歴	-8.64522
末	-8.64612
句	-8.64747
使人	-8.6478
脩	-8.64868
似	-8.65008
赴	-8.65029
錠	-8.65129
十六年	-8.65291
運	-8.65414
赦	-8.65617
半	-8.65885
丞相	-8.66153
休	-8.66166
吏部	-8.66187
宻	-8.66409
十三年	-8.66517
聴	-8.66602
羣臣	-8.66729
畧	-8.6673
妄	-8.66745
庫	-8.66959
荆	-8.66977
精	-8.67141
□	-8.67145
寵	-8.6731
格	-8.67473
以爲	-8.67497
爭	-8.67622
唯	-8.67874
烏	-8.67966
象	-8.68426
員	-8.68647
震	-8.68676
曾	-8.68703
之心	-8.68844
祥	-8.68851
均	-8.68929
友	-8.68967
室	-8.69022
貢	-8.69204
頗	-8.69237
奸	-8.69423
以下	-8.69431
靈	-8.69667
曰吾	-8.69969
鄉	-8.70064
印	-8.70332
俗	-8.70411
薛	-8.70428
趨	-8.70433
不許	-8.70626
乘	-8.70694
陸	-8.71064
將軍	-8.71268
倍	-8.71313
魏王	-8.71547
俊	-8.71579
安石	-8.7161
識	-8.71612
寨	-8.71632
供	-8.71674
貫	-8.71694
大事記	-8.71703
督	-8.7171
仕	-8.71768
歲	-8.71879
欽	-8.72006
以來	-8.72038
狀	-8.72064
審	-8.72151
滿	-8.72178
苦	-8.72374
性	-8.72411
春秋	-8.72429
為之	-8.72546
反下	-8.72765
其所	-8.72885
尹	-8.73078
范	-8.7326
今日	-8.73499
十四年	-8.73547
接	-8.73591
討	-8.73634
何以	-8.73733
湖廣	-8.73735
杜	-8.73809
懷	-8.73854
讓	-8.739
虎	-8.739
總	-8.7394
竊	-8.74023
鹽	-8.74143
兵部尚書	-8.74361
類	-8.74495
十一年	-8.74501
恃	-8.74795
假	-8.74897
讀	-8.75085
𥙷	-8.75166
正統	-8.75263
野	-8.75319
先帝	-8.75406
慎	-8.75667
程	-8.75671
伊	-8.75881
五十	-8.76115
邦	-8.76277
斬	-8.764
即位	-8.76507
庸	-8.76562
儒	-8.76929
宿	-8.77109
預	-8.77173
庭	-8.77416
司馬	-8.77453
雄	-8.77467
兵部	-8.77549
太祖	-8.77751
五月	-8.7779
余	-8.77802
篇	-8.78006
舟	-8.78027
葉	-8.78099
窮	-8.78119
壽	-8.78143
先生	-8.78359
之人	-8.78366
界	-8.78571
姚	-8.78754
辨	-8.78985
大王	-8.79028
閣	-8.79042
干	-8.79528
糧	-8.7957
君之	-8.79673
一日	-8.79772
穆	-8.79922
喪	-8.80011
八月	-8.80018
註	-8.80028
循	-8.80039
微	-8.80309
錫	-8.80536
九月	-8.80703
由進士	-8.80707
不聽	-8.80855
契丹	-8.80886
早	-8.80898
十五年	-8.81138
侵	-8.81167
密	-8.81168
惠王	-8.81271
是以	-8.81334
郊	-8.81501
京師	-8.81511
幾	-8.81568
額	-8.81845
忘	-8.81959
羣	-8.82185
冠	-8.82733
誰	-8.82755
戍	-8.82815
險	-8.82853
不及	-8.829
衡	-8.83072
弊	-8.83128
却	-8.83145
大學士	-8.83164
速	-8.83176
祀	-8.83316
寶	-8.83401
争	-8.83435
孔	-8.83477
淮	-8.83552
振	-8.83867
六月	-8.83944
今王	-8.83966
叛	-8.8411
抑	-8.84117
允	-8.84183
貞	-8.84551
洛	-8.84819
頃	-8.85072
忽	-8.85408
虚	-8.85498
山西	-8.85541
招	-8.85649
孰	-8.85865
萬厯	-8.85886
云云	-8.86018
属	-8.86149
縱	-8.86372
肆	-8.8643
己	-8.86523
然後	-8.86728
疋	-8.86736
藏	-8.86749
符	-8.86807
兹	-8.86818
署	-8.86839
徴	-8.86915
茍	-8.87147
希	-8.87384
三十	-8.87401
源	-8.87438
宴	-8.87511
十七年	-8.87608
祖宗	-8.87638
馳	-8.87828
子孫	-8.881
防	-8.88137
谷	-8.88156
倫	-8.8839
轉左	-8.88464
欺	-8.88496
判	-8.88587
翟	-8.8859
損	-8.88697
於齊	-8.88724
貪	-8.88789
細	-8.88823
十二月	-8.88843
毅	-8.89048
參	-8.8913
盟	-8.8936
鮑	-8.89626
之間	-8.89655
遼	-8.89682
題	-8.8976
愈	-8.89834
敏	-8.89904
遵	-8.9014
量	-8.90143
葬	-8.90312
投	-8.90574
効	-8.90585
敝	-8.90585
毁	-8.90588
逃	-8.90591
稍	-8.90858
薨子	-8.90867
朔	-8.90888
内閣	-8.91033
郎中	-8.91144
雜	-8.91265
河東	-8.9155
徙	-8.91641
勉	-8.91658
見前嘉靖	-8.91903
秋	-8.91937
冦	-8.91955
僅	-8.91979
尺	-8.92156
偽	-8.92237
給事中	-8.92267
可謂	-8.92331
四十	-8.92334
是也	-8.92425
彪謂	-8.92474
鍾	-8.92617
辱	-8.92731
鼎	-8.92957
飲	-8.92973
至於	-8.9299
贊	-8.9303
丞	-8.93175
副使	-8.93258
不過	-8.93505
言其	-8.93531
未有	-8.93716
祿	-8.93731
勲	-8.93752
暴	-8.93755
賂	-8.93761
藉	-8.93807
之時	-8.93843
雨	-8.94078
閔	-8.94094
沈	-8.94133
否	-8.94325
遽	-8.94473
妾	-8.94525
州人	-8.94563
執政	-8.94639
齊王	-8.94756
隋	-8.94846
幣	-8.94854
蕭	-8.94876
旣	-8.94905
雍	-8.9502
缺	-8.95107
厯	-8.95118
而後	-8.95183
殺之	-8.95184
感	-8.95215
曰臣	-8.95221
削	-8.9523
妻	-8.95284
十八年	-8.95331
十一月	-8.95397
𢎞	-8.95426
漸	-8.9548
詐	-8.95575
以此	-8.95666
中國	-8.9581
貞觀	-8.95816
至是	-8.95931
言之	-8.96041
使者	-8.96195
謂之	-8.96478
毛	-8.96588
落	-8.96604
刺	-8.96628
牧	-8.96668
揚	-8.96688
某	-8.97034
辟	-8.97067
介	-8.97421
吏部尚書	-8.97482
湯	-8.97637
其子	-8.9774
辰	-8.97748
二月	-8.97754
惑	-8.97775
圗	-8.97776
人也	-8.98051
逸	-8.98142
蘇秦	-8.9833
撰	-8.98443
公仲	-8.98444
君子	-8.9854
匹	-8.98542
施行	-8.98691
詣	-8.98782
裕	-8.98849
賀	-8.9885
關	-8.98917
絹	-8.98959
拔	-8.98994
游	-8.98997
正月	-8.99048
擢	-8.99069
之士	-8.99184
悔	-8.99273
熟	-8.99294
衰	-8.9937
豐	-8.99404
小人	-8.99429
臣等	-8.9953
太師	-8.9965
房	-8.99708
材	-8.99765
正徳	-8.99937
裁	-8.99968
略	-8.99995
驚	-9.00038
國之	-9.00095
知之	-9.00138
屯	-9.0031
丹	-9.00322
拒	-9.00413
彦	-9.00414
仰	-9.00444
然則	-9.0046
屢	-9.00469
讎	-9.00517
彭	-9.00683
珠	-9.00778
三人	-9.00782
訪	-9.00811
也言	-9.00889
愚按	-9.00895
宣王	-9.00984
三百	-9.01053
駕	-9.01206
烈	-9.01269
兄	-9.01429
六十	-9.01499
其事	-9.01594
八十	-9.01622
桓	-9.01878
空	-9.01941
述	-9.02008
單	-9.02034
謙	-9.02233
之道	-9.02253
冬	-9.02323
減	-9.0237
郢	-9.02445
兄弟	-9.02451
以聞	-9.02465
館	-9.02583
十五	-9.02634
倉	-9.02652
厲	-9.02746
基	-9.02778
未嘗	-9.02878
在位	-9.02993
狄	-9.03096
舜	-9.03252
之故	-9.03321
竟	-9.03458
皇后	-9.03467
雅	-9.0348
此言	-9.035
稽	-9.03516
於此	-9.03705
秩	-9.03807
翰林	-9.03965
其言	-9.03974
仇	-9.04007
𩔖	-9.04045
禦	-9.04215
乾	-9.04259
擾	-9.04355
咎	-9.04443
黜	-9.0475
夫人	-9.04882
僖	-9.04943
斥	-9.05144
足以	-9.05198
鼓	-9.05246
婦	-9.05287
劾	-9.05443
殊	-9.05564
侍郎	-9.05594
補曰一本	-9.05648
術	-9.0569
者皆	-9.0573
亨	-9.0592
弼	-9.05946
殷	-9.06009
豫	-9.06021
扶	-9.06327
官軍	-9.06332
藥	-9.06365
亟	-9.064
星	-9.06434
堯	-9.0644
決	-9.0645
皮	-9.06821
的	-9.06892
少傅	-9.06992
惜	-9.07174
飛	-9.07199
陣	-9.07506
四月	-9.0782
畫	-9.07965
追封	-9.07967
笑	-9.08002
享	-9.08028
規	-9.0806
隱	-9.08069
黎	-9.08084
邯鄲	-9.08124
社稷	-9.08337
不為	-9.08341
賣	-9.08524
知其	-9.08673
忌	-9.08887
之國	-9.09
少保	-9.09276
子之	-9.09435
少師	-9.09499
蘇子	-9.0956
河北	-9.09636
及第	-9.097
翼	-9.09708
顔	-9.09723
蔽	-9.0976
與之	-9.09839
兒	-9.10146
煩	-9.10219
寒	-9.10221
趙王	-9.10487
擬	-9.10521
限	-9.10583
曉	-9.1059
岳	-9.10662
䟽	-9.10684
二十年	-9.10702
諱	-9.10986
如字	-9.11121
毋	-9.11249
檢	-9.11387
卑	-9.11442
鄙	-9.11454
禮部尚書	-9.11524
董	-9.1184
蕃	-9.11848
之罪	-9.12112
邉	-9.12258
帛	-9.12258
虛	-9.12288
純	-9.12306
之法	-9.12469
擒	-9.12593
覺	-9.12637
也正曰	-9.1266
殘	-9.12753
了	-9.12791
後世	-9.12941
甫	-9.1314
戴	-9.13211
自是	-9.13245
悼	-9.13369
借	-9.13562
捕	-9.1357
地方	-9.13684
農	-9.13921
専	-9.14068
吴	-9.14086
諸矦	-9.1422
州縣	-9.14324
中外	-9.1439
不然	-9.14395
慈	-9.14403
擅	-9.14457
寜	-9.14514
故也	-9.14907
必有	-9.14917
飾	-9.14926
寄	-9.15006
蠻	-9.15009
儲	-9.15358
驕	-9.15374
㧞	-9.15457
不勝	-9.15471
用兵	-9.15482
懿	-9.15538
第一	-9.15594
謁	-9.15698
禹	-9.15787
千里	-9.15823
姑	-9.15839
五百	-9.15907
與秦	-9.15939
宇	-9.15994
君臣	-9.16045
户部	-9.16097
祐	-9.16112
錦	-9.16276
伐齊	-9.16328
湖	-9.16393
式	-9.16626
毎	-9.16669
併	-9.167
料	-9.16732
以上	-9.17004
焚	-9.17014
角	-9.17219
蒲	-9.1751
南陽	-9.17618
夢	-9.17624
都指揮	-9.17792
啓	-9.18106
竭	-9.18111
伍	-9.18145
貨	-9.18154
世襲	-9.18303
哈	-9.18459
襄王	-9.18488
緩	-9.18543
歳	-9.18605
故事	-9.18644
旦	-9.18827
不當	-9.1908
而無	-9.19102
姦	-9.19242
雲南	-9.19252
卜	-9.19453
躬	-9.19483
勘	-9.19489
繫	-9.19496
犀首	-9.19536
又言	-9.19742
用之	-9.19856
以其	-9.19872
當時	-9.19897
紹	-9.19899
不復	-9.19958
恤	-9.19966
偏	-9.20007
沙	-9.20296
輒	-9.20383
誣	-9.20414
下同	-9.20495
級	-9.20506
鄧	-9.20531
太原	-9.20559
福建	-9.20627
天地	-9.20659
七月	-9.20743
維	-9.20795
由是	-9.20866
不與	-9.21056
俸	-9.21377
泉	-9.21412
垂	-9.21845
員外郎	-9.21921
罰	-9.22261
恕	-9.22392
於王	-9.22415
昭王	-9.22416
喻	-9.22422
池	-9.22495
於楚	-9.22581
辯	-9.22713
寺	-9.22756
輿	-9.22871
二子	-9.22907
之計	-9.22959
蘇代	-9.23003
欲以	-9.23035
亦有	-9.23091
階	-9.23202
甘	-9.23219
綱	-9.23255
答	-9.23298
冒	-9.23341
盧	-9.23346
○	-9.23358
去聲	-9.23363
天順	-9.2341
亦不	-9.23479
太平	-9.23502
諸將	-9.23567
恵	-9.2365
一百	-9.23657
挾	-9.23809
短	-9.23841
三國	-9.23905
咸	-9.23956
是時	-9.23996
何也	-9.24013
太子太保	-9.24065
俟	-9.24128
托	-9.2416
四方	-9.24406
三司	-9.24533
江南	-9.24644
遜	-9.24719
藩	-9.24733
芳	-9.24734
上下	-9.2478
二十二年	-9.24827
亮	-9.24901
之上	-9.2496
也故	-9.25055
諸路	-9.25075
寡	-9.25125
種	-9.25238
掩	-9.25256
逹	-9.25723
筆	-9.25735
歟	-9.25781
一本	-9.25824
正德	-9.26027
人主	-9.26059
錦衣衛	-9.26069
塲	-9.26097
鑑	-9.26141
軾	-9.26153
剛	-9.2617
白金	-9.26201
談	-9.26224
只	-9.26236
甘茂	-9.26389
賤	-9.2647
文武	-9.26551
燕王	-9.26618
韋	-9.26649
矢	-9.26732
有功	-9.26742
買	-9.26765
集韻	-9.26825
公主	-9.26887
魏徴	-9.26953
十月	-9.2704
拉	-9.2717
頓	-9.27177
太子太傅	-9.27188
昨	-9.2719
囘	-9.27219
崔	-9.27233
縁	-9.27246
奮	-9.27257
皇太后	-9.27299
不同	-9.27558
司馬光	-9.27571
普	-9.27617
珪	-9.27674
隠	-9.27678
佛	-9.27727
賔	-9.27748
案	-9.27753
局	-9.2776
都督僉事	-9.27765
浮	-9.27772
必不	-9.28056
人心	-9.28309
表裏	-9.28409
三千	-9.28573
究	-9.28713
𤣥	-9.28775
效	-9.28777
准	-9.28806
殆	-9.28808
之功	-9.2909
編	-9.29244
亭	-9.29262
傾	-9.29275
僕	-9.29281
閒	-9.29327
旗	-9.29359
曰此	-9.2969
前後	-9.2971
履	-9.29801
側	-9.29807
乏	-9.29833
姬	-9.29854
斗	-9.29884
刻	-9.30281
西周	-9.30289
杖	-9.30314
一時	-9.30334
不從	-9.30344
彬	-9.30474
舉人	-9.30597
之際	-9.30709
臣之	-9.30785
曰君	-9.30863
虜	-9.30913
十八	-9.31206
百官	-9.31235
戮	-9.31332
完	-9.31334
俾	-9.31345
仁宗	-9.31363
軫	-9.3137
齒	-9.31414
桂	-9.31531
䕶	-9.31735
之兵	-9.31751
輩	-9.31825
誘	-9.31923
穀	-9.31932
父子	-9.31948
喇	-9.32004
不足以	-9.3209
故曰	-9.32477
僧	-9.32748
三十年	-9.32813
孟子	-9.32858
史作	-9.32921
輸	-9.32923
補音上	-9.32955
崩	-9.32962
花	-9.32965
明日	-9.33112
偃	-9.33115
千户	-9.33161
段	-9.33173
公孫	-9.33298
步	-9.3332
其地	-9.33327
踰	-9.3335
弓	-9.33407
遊	-9.33445
鄂	-9.33475
盈	-9.33589
補音古	-9.33603
於天下	-9.33611
本年	-9.33633
誓	-9.3386
刀	-9.34008
丗	-9.3405
工部尚書	-9.34067
翰林學士	-9.34103
琦	-9.34376
既而	-9.34492
超	-9.34536
拘	-9.34543
徽	-9.3457
榖	-9.34581
齊楚	-9.34587
夕	-9.34911
足下	-9.34986
長子	-9.35048
貶	-9.35067
血	-9.35079
大事	-9.351
蒙	-9.35108
露	-9.3511
泣	-9.35111
秦之	-9.35137
羽	-9.35142
節度使	-9.35365
四川	-9.35405
品	-9.35499
璧	-9.35665
袁	-9.35666
肉	-9.35675
俞	-9.35678
収	-9.35687
户部尚書	-9.35713
十一	-9.35792
内外	-9.36173
元昊	-9.36199
津	-9.36214
二十一年	-9.36221
霸	-9.36284
工部	-9.36295
元祐	-9.36365
太保	-9.36453
十九年	-9.36517
其人	-9.36533
注同	-9.36702
幼	-9.36744
七十	-9.36751
樓	-9.36904
逮	-9.36975
悦	-9.37083
五千	-9.37217
配	-9.37257
許之	-9.37288
畨	-9.37339
其餘	-9.37401
於趙	-9.37643
二國	-9.37703
榜	-9.37789
謫	-9.37861
荒	-9.37865
采	-9.37873
項	-9.37883
該	-9.37894
劒	-9.37942
莫不	-9.37987
墨	-9.38299
麟	-9.3842
操	-9.38456
鄒	-9.38479
也夫	-9.38654
人皆	-9.38835
二百	-9.38937
景泰	-9.38945
舞	-9.38981
珍	-9.38992
奚	-9.39085
之辭	-9.3915
十萬	-9.39285
導	-9.39493
産	-9.39525
罕	-9.39533
汪	-9.40041
香	-9.4011
絳	-9.40125
淺	-9.40135
恨	-9.40135
男	-9.40311
行之	-9.40375
抵	-9.40387
巡	-9.40552
疆	-9.40574
賛	-9.40584
以待	-9.40623
席	-9.40696
奈何	-9.4073
平章	-9.40777
覽	-9.40893
是日	-9.40973
歡	-9.41245
薛公	-9.41269
恥	-9.41281
桑	-9.41305
骨	-9.41312
二十三年	-9.41335
嬰	-9.41381
縣人	-9.41456
大國	-9.41566
募	-9.41609
歌	-9.41748
得其	-9.41887
寸	-9.41893
當作	-9.41913
百户	-9.41932
不用	-9.42077
宣徳	-9.42088
十六	-9.42134
徵	-9.4224
臣竊	-9.42256
此時	-9.42415
不欲	-9.42566
不若	-9.4259
不合	-9.42737
勛	-9.42788
哲	-9.42929
育	-9.43009
撃	-9.43021
勁	-9.43139
築	-9.43232
尉	-9.43261
武王	-9.43348
桓公	-9.43378
東周	-9.4346
淵	-9.43494
詢	-9.43586
粟	-9.43604
叙	-9.43616
不至	-9.43639
臣請	-9.43678
左都督	-9.4378
上言	-9.44045
鄰	-9.44129
宰	-9.44203
掠	-9.44229
痛	-9.44264
刼	-9.44286
宗廟	-9.44318
何如	-9.44453
曰我	-9.44476
寢	-9.4479
牙	-9.44829
舒	-9.44861
世子	-9.44889
淫	-9.44904
燕趙	-9.44993
後同	-9.45037
明年	-9.45051
刑部	-9.45103
噶	-9.4524
戚	-9.45328
三日	-9.45353
樹	-9.45381
壯	-9.45388
賴	-9.4544
銜	-9.45449
靡	-9.45449
事秦	-9.45777
子曰	-9.45812
睦	-9.45975
潘	-9.45984
陷	-9.45991
徑	-9.46055
堡	-9.46077
旅	-9.4636
苑	-9.46545
慰	-9.46555
都察院	-9.46623
懋	-9.46653
鐘	-9.46654
紫	-9.46666
其罪	-9.46718
有差	-9.46758
遁	-9.47158
二十八年	-9.47183
鳥	-9.4725
厥	-9.47258
人由	-9.47311
父母	-9.47427
嵗次	-9.47497
之臣	-9.47498
死者	-9.47589
翰	-9.47803
聘	-9.47834
謬	-9.47838
祠	-9.47848
不以	-9.47939
禽	-9.47946
雖有	-9.47986
提	-9.48347
薩	-9.48351
彌	-9.48388
先王	-9.48389
屠	-9.48478
狐	-9.486
太傅	-9.4863
其國	-9.48699
通判	-9.48723
陳軫	-9.48724
採	-9.49026
賓	-9.49047
確	-9.4907
公叔	-9.49082
它	-9.49087
淳	-9.491
沒	-9.49114
不肯	-9.49144
錯	-9.49204
宅	-9.49207
豈可	-9.49498
之日	-9.49529
之義	-9.49562
不行	-9.49665
秉	-9.49692
鳴	-9.49722
敕	-9.49728
二字	-9.49739
觧	-9.4978
江陵	-9.49843
士卒	-9.49898
薨壽	-9.49924
自古	-9.4994
貧	-9.50322
進封	-9.50343
無不	-9.50372
今按	-9.5042
貳	-9.50435
閒住	-9.50436
於魏	-9.5054
總兵官	-9.50607
元帥	-9.50621
等處	-9.50851
二千	-9.50865
旋	-9.50875
太皇太后	-9.5091
迪	-9.50951
驗	-9.50965
巧	-9.51003
價	-9.51013
井	-9.51017
狂	-9.51022
徧	-9.51039
耕	-9.5104
政事	-9.51048
疲	-9.51052
㓕	-9.51075
鎮守	-9.51307
環	-9.51406
幽	-9.51528
文字	-9.5156
驅	-9.51589
麗	-9.51594
傑	-9.51598
溥	-9.51616
下文	-9.51623
熊	-9.51665
諫官	-9.5167
銘	-9.51672
沐	-9.51687
姓名	-9.51794
不見	-9.51826
文臣	-9.51897
不可以	-9.51986
隆慶	-9.51987
王安石	-9.52103
肯	-9.52188
惇	-9.52217
松	-9.52269
堪	-9.52287
瑞	-9.52298
判官	-9.52473
紵絲	-9.52489
甞	-9.52497
無子	-9.52506
髙祖	-9.52554
之役	-9.52619
訛	-9.52819
爾等	-9.52833
託	-9.52973
武英殿大學士	-9.53083
舎	-9.53099
世宗	-9.53117
總督	-9.53222
㕘	-9.53282
胥	-9.53348
人君	-9.53385
利害	-9.53397
增	-9.53596
啟	-9.53634
倚	-9.53635
紅	-9.53698
隙	-9.53711
斉	-9.53723
百里	-9.53745
㡬	-9.54078
叅	-9.54087
誥	-9.54109
兆	-9.54227
濫	-9.54238
輔臣	-9.5426
邵	-9.54279
周君	-9.54291
下獄	-9.54311
十三	-9.54355
三代	-9.5437
鐵	-9.54828
趙魏	-9.54839
之禮	-9.54876
哭	-9.54888
儉	-9.54897
搆	-9.54907
蔣	-9.54918
創	-9.54923
竄	-9.54925
柔	-9.54932
抗	-9.54965
睢	-9.5498
矜	-9.54984
不善	-9.55049
忍	-9.55296
之難	-9.55459
查	-9.55478
迹	-9.55564
整	-9.55568
没	-9.55631
至于	-9.55641
距	-9.55677
楚之	-9.55687
不出	-9.56001
智伯	-9.56116
閲	-9.56221
嫌	-9.56248
偉	-9.5626
牒	-9.5626
監察御史	-9.56263
斤	-9.56277
溪	-9.563
垣	-9.56348
宜陽	-9.56801
冝	-9.56876
沮	-9.56894
矣今	-9.56896
忿	-9.56913
雷	-9.56921
仲淹	-9.56923
攻魏	-9.5695
陰	-9.56987
諸州	-9.57013
而去	-9.57031
自今	-9.5721
者不	-9.57355
之名	-9.57429
占	-9.57434
藝	-9.57572
提督	-9.5759
佞	-9.5761
場	-9.57613
徹	-9.57621
与	-9.57672
未可	-9.5775
一千	-9.57858
使臣	-9.57893
十七	-9.58078
所言	-9.58094
天順元年	-9.58167
偶	-9.58279
韶	-9.58337
刑部尚書	-9.58392
如是	-9.58595
祚	-9.5891
建文	-9.5893
讒	-9.59
獸	-9.59003
上以	-9.59158
斬首	-9.59192
不相	-9.59324
曰善	-9.59357
出兵	-9.59384
伐之	-9.59498
譽	-9.59634
璽	-9.5967
渡	-9.59672
茶	-9.59712
昏	-9.59719
憚	-9.5976
戾	-9.5977
蘭	-9.59905
三晉	-9.60012
厭	-9.60097
之衆	-9.60191
第二	-9.60259
一作	-9.60323
悟	-9.60349
隊	-9.60356
激	-9.60389
姜	-9.60467
正義云	-9.60529
有餘	-9.60819
取之	-9.60834
割地	-9.60953
彰	-9.61018
屋	-9.61052
謗	-9.61082
潰	-9.611
此䇿	-9.61121
賄	-9.61125
冀	-9.61148
彊	-9.61165
轉運使	-9.61184
以兵	-9.61185
四百	-9.61243
而死	-9.61311
聖人	-9.61312
之所以	-9.61331
㣲	-9.61737
雪	-9.6175
束	-9.61772
綸	-9.6179
訖	-9.61814
状	-9.61829
契	-9.61848
廣東	-9.61897
況	-9.61899
矦	-9.61908
曰王	-9.61941
中丞	-9.62074
東宫	-9.62377
根	-9.62409
澄	-9.62425
台	-9.62467
匿	-9.62479
毒	-9.62546
協	-9.6255
祝	-9.62563
受命	-9.62643
釐	-9.62741
四人	-9.62774
等官	-9.62783
辛	-9.63038
為王	-9.63082
昇	-9.63093
拱	-9.63147
盗	-9.6316
起居	-9.63172
竹	-9.63197
醫	-9.63257
柄	-9.63287
亷	-9.63288
不聞	-9.63423
其名	-9.63627
不必	-9.63667
文王	-9.6373
與齊	-9.63786
孔子	-9.63808
指揮使	-9.63838
船	-9.63888
排	-9.63912
文公	-9.63927
又有	-9.63931
宥	-9.63968
為民	-9.63991
如何	-9.64008
莒	-9.64011
韓琦	-9.64017
髙注	-9.64269
庶人	-9.64285
軍民	-9.64352
大軍	-9.64399
内臣	-9.64438
而有	-9.64569
㓜	-9.6464
三萬	-9.64688
廵	-9.64699
涉	-9.64714
御史中丞	-9.64768
朋	-9.64776
不信	-9.64983
黙	-9.65241
侈	-9.65397
鳳	-9.65436
可也	-9.65437
而不能	-9.65468
八百	-9.65545
周府	-9.65634
赧王	-9.65772
其心	-9.65832
大小	-9.65897
台吉	-9.65997
宏	-9.66021
不通	-9.66029
又曰	-9.66044
都督同知	-9.66052
鑒	-9.66085
鼻	-9.66135
阻	-9.66142
橋	-9.66154
史記	-9.66154
屏	-9.6618
畜	-9.66191
一旦	-9.66567
上疏	-9.66624
宣德	-9.6673
州刺史	-9.66819
鐸	-9.6691
囚	-9.66911
上書	-9.66944
一年	-9.66977
上黨	-9.67001
國事	-9.671
者亦	-9.67282
士大夫	-9.67309
閏	-9.67387
冉	-9.67401
彪	-9.67492
未詳	-9.67495
盜	-9.67531
貌	-9.67608
𨽻	-9.67609
訴	-9.67641
韻	-9.67673
緣	-9.677
此事	-9.67772
第三	-9.67774
丁憂	-9.67852
官吏	-9.67991
五國	-9.67998
遼東	-9.68053
二十五	-9.68081
九十	-9.68165
戸	-9.68234
黄金	-9.68262
哩	-9.68312
閉	-9.68419
帳	-9.68427
逢	-9.68456
褒	-9.68457
為一	-9.68511
軍士	-9.68823
皆以	-9.6884
若此	-9.68908
人臣	-9.69015
賚	-9.69034
鬼	-9.69035
譏	-9.69106
黒	-9.69139
二十九年	-9.69157
凶	-9.69179
蕩	-9.69202
無以	-9.69226
匠	-9.69228
稷	-9.69287
昧	-9.69287
不便	-9.69379
議者	-9.69437
豈不	-9.69469
右都御史	-9.69673
静	-9.6971
不可不	-9.69806
鮮	-9.69829
先朝	-9.69848
浩	-9.69899
攝	-9.69936
見之	-9.69938
壘	-9.69954
鹿	-9.69958
其家	-9.70114
帝王	-9.70174
其君	-9.70214
文子	-9.70241
實録	-9.7028
兵馬	-9.70283
也若	-9.70402
願陛下	-9.70512
俱嘉	-9.70586
補曰史	-9.70632
曰子	-9.7069
齊魏	-9.70706
總兵	-9.70746
又以	-9.70755
仗	-9.70784
提舉	-9.70809
周禮	-9.70878
以示	-9.70934
不肖	-9.70976
狀元	-9.7101
應侯	-9.71034
順天	-9.71081
内官	-9.71157
四海	-9.71252
庻	-9.71286
大同	-9.71418
入朝	-9.71422
主事	-9.71441
遣人	-9.71458
懲	-9.71483
祈	-9.71492
敖	-9.715
園	-9.71502
遭	-9.71517
文皇	-9.71533
仙	-9.71537
壊	-9.7154
添	-9.71543
安邑	-9.71608
之禍	-9.71644
兮	-9.7166
出於	-9.71702
以備	-9.71972
無事	-9.72023
災	-9.72243
鑄	-9.72252
住	-9.72258
誦	-9.72277
巡撫	-9.723
撥	-9.72312
午	-9.72317
同知	-9.72386
不受	-9.72552
之利	-9.72584
柱國	-9.72861
萬人	-9.72951
乙丑	-9.72974
憤	-9.73024
陽人	-9.73048
驛	-9.73049
齎	-9.73075
荀	-9.7311
赫	-9.73116
未能	-9.7319
秦必	-9.73255
文綺	-9.73339
曰臣聞	-9.73347
皆有	-9.73424
己未	-9.73604
之民	-9.73642
犬	-9.73776
凖	-9.73787
所在	-9.73838
邀	-9.73857
鉞	-9.73861
苟	-9.73876
溝	-9.73901
矯	-9.73926
若不	-9.73999
皇太子	-9.74224
無功	-9.74377
僚	-9.74424
廬	-9.74584
塔	-9.74594
曰朕	-9.74598
詰	-9.74663
知制誥	-9.74681
曰夫	-9.7469
警	-9.747
績	-9.74702
抱	-9.74723
修撰	-9.74756
秦楚	-9.74783
枝	-9.74785
一品	-9.7486
瑪	-9.75069
三公	-9.75088
得罪	-9.75108
諸王	-9.7514
之說	-9.75157
之説	-9.75163
僉	-9.75236
伐秦	-9.75285
舊制	-9.75339
奴	-9.75453
凌	-9.7547
駐	-9.75473
熙	-9.75497
周公	-9.75503
懇	-9.75519
奉陽君	-9.75549
入秦	-9.75574
灾	-9.75594
守備	-9.75824
周最	-9.75985
之初	-9.76003
廣西	-9.76054
國初	-9.76108
都指揮使	-9.76199
然而	-9.76283
一員	-9.76289
遲	-9.76294
先王之	-9.76295
敦	-9.76296
貽	-9.76298
途	-9.76321
以告	-9.76328
如故	-9.76331
䘮	-9.7634
則是	-9.7635
壇	-9.76351
快	-9.76368
尾	-9.76384
閔王	-9.76477
虢	-9.7658
再拜	-9.76625
事也	-9.76717
汾	-9.76823
言者	-9.76839
誨	-9.7709
冊	-9.77097
従	-9.77117
脱	-9.77142
銳	-9.77179
甲辰	-9.77198
怠	-9.77208
也且	-9.77679
之君	-9.77683
功封	-9.77688
入閣	-9.77695
未知	-9.77697
使之	-9.7777
鳯	-9.77814
閱	-9.78008
恒	-9.7801
鋭	-9.78019
展	-9.7804
晚	-9.78044
慢	-9.7807
而欲	-9.78101
幾瑟	-9.78134
大兵	-9.78175
河間	-9.78394
腹	-9.78542
數日	-9.78573
大將軍	-9.78613
喇嘛	-9.78615
之情	-9.78616
少卿	-9.78623
相國	-9.78638
太子少保	-9.787
姪	-9.7872
税	-9.78795
攻之	-9.78822
羙	-9.78897
滋	-9.78906
孟嘗君	-9.79052
舍人	-9.79089
皆不	-9.79101
元豐	-9.7919
曰陛下	-9.79253
都御史	-9.79258
簡王	-9.79498
岱	-9.79503
潛	-9.79607
扎	-9.7961
練	-9.79622
衮	-9.79633
斌	-9.79669
睿	-9.79672
絲	-9.79696
數十	-9.79731
威王	-9.79822
官員	-9.79928
生靈	-9.79984
其間	-9.80378
坊	-9.80454
壬辰	-9.80487
翁	-9.805
諒	-9.80518
㝷	-9.80569
犀	-9.80601
東西	-9.80666
輕重	-9.80724
昔者	-9.80879
襄子	-9.80979
有此	-9.81074
淮南	-9.81105
十九	-9.81191
臯	-9.81205
得之	-9.81209
㓂	-9.81299
疎	-9.81342
潤	-9.81391
廉	-9.81394
綿	-9.81434
㫁	-9.81444
于是	-9.8147
所欲	-9.81479
㑹試	-9.81538
待之	-9.81709
是故	-9.81783
攻秦	-9.81831
以後	-9.82108
城中	-9.82157
轍	-9.82173
幹	-9.82219
看	-9.82221
斂	-9.82227
踐	-9.82237
焦	-9.82264
愧	-9.82279
諤	-9.8232
樞密院	-9.82337
宛	-9.82344
民之	-9.82411
知縣	-9.8246
詔書	-9.8255
救之	-9.82693
傳曰	-9.82695
矣然	-9.82759
先君	-9.82778
成功	-9.82856
右俱	-9.82876
古今	-9.82904
丈	-9.82941
丁未	-9.82942
歸附	-9.83
軍中	-9.83002
本部	-9.8304
停	-9.8307
彈	-9.83081
千餘	-9.83128
駭	-9.83133
羌	-9.8317
悖	-9.83174
驥	-9.83178
釁	-9.8318
圭	-9.8323
弇山堂别集卷	-9.83242
補音直	-9.83325
不報	-9.83345
而下	-9.83475
互	-9.83677
以成	-9.83729
柱	-9.83894
鴻	-9.83931
渭	-9.83937
獵	-9.83976
巨	-9.83981
寫	-9.84
為君	-9.84037
行事	-9.84044
嫁	-9.84078
閭	-9.84079
金帛	-9.84081
乙未	-9.84348
出入	-9.84424
任左	-9.84521
簿	-9.84659
侍講	-9.8467
人等	-9.84764
始皇	-9.84775
洛陽	-9.84776
愍	-9.84833
課	-9.84849
郤	-9.84869
貸	-9.84881
捷	-9.84892
冕	-9.8492
謨	-9.84923
粮	-9.84943
文學	-9.85202
此書	-9.85249
城下	-9.85451
不忍	-9.85477
子弟	-9.85532
齊人	-9.85554
郡王	-9.85563
擊之	-9.85613
之數	-9.85643
葛	-9.85746
銅	-9.85756
禧	-9.85772
消	-9.85777
匡	-9.85783
諸軍	-9.85785
狼	-9.85792
知府	-9.85821
隘	-9.85838
奇	-9.85839
續	-9.85842
孚	-9.85844
佩	-9.85854
償	-9.85867
篤	-9.85877
法司	-9.85913
大梁	-9.8594
三品	-9.85971
二十四	-9.86118
乙	-9.86298
三子	-9.863
魏之	-9.86317
令尹	-9.86406
古之	-9.86417
二十六年	-9.86539
齊秦	-9.86582
縣令	-9.866
至今	-9.86617
晉陽	-9.86623
右都督	-9.86638
已而	-9.86651
輪	-9.86653
輙	-9.8666
祁	-9.86677
㸃	-9.86683
漳	-9.86741
赤	-9.86758
大怒	-9.86763
繁	-9.86763
旌	-9.86794
鞅	-9.86839
豈有	-9.86919
一切	-9.86924
世家	-9.86955
也又	-9.87047
平原	-9.87157
萬餘	-9.87166
忠臣	-9.87332
詹	-9.87404
而歸	-9.87441
軍馬	-9.87445
彦博	-9.87512
牟	-9.87546
暇	-9.87564
之中	-9.87576
朴	-9.87582
塗	-9.87589
渠	-9.87603
戊戌	-9.87606
敷	-9.8765
郝	-9.87706
真宗	-9.87903
十四	-9.88021
數萬	-9.88043
百萬	-9.88057
濮	-9.88115
㐮	-9.88127
也補曰	-9.88211
三省	-9.88243
今君	-9.8828
伐趙	-9.88323
恪	-9.88327
尼	-9.88519
其實	-9.88522
奎	-9.8854
欒	-9.88543
特穆爾	-9.88554
賫	-9.88559
樊	-9.88608
函	-9.88614
綏	-9.88621
第十	-9.88739
臣聞	-9.88751
已上	-9.88868
懐王	-9.88905
賢者	-9.88922
反又	-9.89126
則不	-9.89318
之外	-9.89373
此章	-9.8943
姚同	-9.89447
踈	-9.89459
萬世	-9.89463
彛	-9.8949
植	-9.89495
减	-9.89508
攻楚	-9.89509
趣	-9.8951
虧	-9.89515
旨	-9.89517
王祐	-9.89526
鬻	-9.89528
胄	-9.89544
旁	-9.89566
猛	-9.89587
鈞	-9.89605
祗	-9.89616
辛未	-9.89717
司徒	-9.89807
王珪	-9.89829
其父	-9.90071
反今按	-9.90186
翰林院學士	-9.90291
之重	-9.90297
之謀	-9.90349
跡	-9.90379
之力	-9.90401
替	-9.9041
節度	-9.90491
紂	-9.90507
諾	-9.9059
瓊	-9.90623
群臣	-9.90662
二十五年	-9.90689
姚本	-9.90828
十疋	-9.90856
者非	-9.90916
北平	-9.90949
卿等	-9.90951
軍前	-9.91137
西南	-9.91138
安石曰	-9.91208
瑛	-9.91368
鎬	-9.91378
陕西	-9.91422
鬬	-9.9145
玩	-9.91456
不免	-9.91489
秦攻	-9.91673
五人	-9.91699
數年	-9.91843
之美	-9.91981
安王	-9.92061
綵	-9.92099
童	-9.92114
不忘	-9.92239
洞	-9.9228
武臣	-9.92285
詆	-9.92293
軰	-9.9232
訥	-9.92326
癸未	-9.92346
蘇軾	-9.92353
豪	-9.92368
慕	-9.9237
咨	-9.92398
含	-9.92409
隻	-9.92424
饒	-9.92445
王師	-9.92532
中書省	-9.92701
本作	-9.92848
嶺	-9.92854
親王	-9.92976
辦	-9.93003
以自	-9.93004
臣也	-9.93036
亦無	-9.93047
諾延	-9.93186
冗	-9.93227
錄	-9.9327
餉	-9.93306
經筵	-9.93315
又云	-9.93319
糾	-9.93325
亢	-9.93376
肥	-9.93402
臂	-9.93404
那	-9.93409
不利	-9.93415
言臣	-9.93425
牢	-9.93432
壤	-9.93451
補曰姚	-9.93468
穰侯	-9.93478
姚云	-9.93538
五年任	-9.93785
補曰姚云	-9.93808
王厚	-9.94028
何不	-9.94078
也然	-9.94097
則無	-9.94121
二十七年	-9.9417
依舊	-9.94218
之勢	-9.94231
丁丑	-9.94274
怪	-9.94299
者必	-9.9433
滯	-9.94332
飢	-9.94344
墮	-9.94366
噲	-9.9443
攻宋	-9.94432
嫡	-9.94463
甲子	-9.945
為秦	-9.94653
熈	-9.94693
觀之	-9.94836
用事	-9.94865
金銀	-9.94906
之制	-9.9491
而行	-9.94911
豈非	-9.95038
百餘	-9.95044
伺	-9.95188
健	-9.95194
罔	-9.9522
之交	-9.95275
欽定四庫全書	-9.95278
饑	-9.95282
裏	-9.95291
潁	-9.95303
纂	-9.95322
晟	-9.95322
翠	-9.95347
鉉	-9.95353
虐	-9.95361
髙麗	-9.95498
特進	-9.95527
未必	-9.95707
則有	-9.95717
所部	-9.95776
四年任	-9.9594
說文	-9.95975
筠	-9.96149
且夫	-9.96156
括	-9.96239
旬	-9.96272
寘	-9.96305
紛	-9.96322
辛丑	-9.96347
宸	-9.96358
跪	-9.96396
合從	-9.96424
代之	-9.96433
子也	-9.9655
舉兵	-9.96612
以事	-9.96638
參政	-9.96697
之賢	-9.96707
僉事	-9.96712
新城	-9.96726
見其	-9.9673
古者	-9.96773
而得	-9.96805
文忠	-9.96822
而攻	-9.96826
秦而	-9.96949
不應	-9.9702
鋒	-9.97137
戰勝	-9.97183
壬戌	-9.97238
齋	-9.97252
蔡確	-9.9726
恣	-9.97264
衝	-9.97271
司空	-9.97291
荅	-9.97294
戰於	-9.97295
披	-9.97297
劍	-9.97304
社	-9.97305
炳	-9.9731
摩	-9.97316
戲	-9.97321
洎	-9.97328
耿	-9.97333
䖏	-9.97336
丙子	-9.97373
𥘉	-9.974
惠公	-9.97415
弘	-9.97418
廕	-9.97433
秦兵	-9.97443
雞	-9.97491
歎	-9.97617
荆州	-9.97686
功臣	-9.97687
者多	-9.97701
未至	-9.97715
亦可	-9.97716
安能	-9.97799
近臣	-9.97857
數百	-9.97902
都監	-9.97996
從事	-9.98178
所得	-9.98289
庚辰	-9.9829
億	-9.98303
較	-9.98303
箭	-9.98336
遠	-9.98337
庚戌	-9.98338
為人	-9.98342
窺	-9.98368
数	-9.98399
撓	-9.98407
本朝	-9.98456
莫若	-9.98458
鄉試	-9.9847
在京	-9.98483
不在	-9.98526
甲申	-9.98565
所有	-9.98611
批	-9.9869
之患	-9.98709
㕘政	-9.98736
百六十	-9.98741
僖王	-9.98809
有㫖	-9.98859
七百	-9.98915
年表	-9.99018
軍務	-9.99124
沁	-9.99233
擁	-9.99278
漢中	-9.9928
額森	-9.99288
押	-9.99295
融	-9.99302
綬	-9.99331
恱	-9.99335
酌	-9.99351
租	-9.99357
俘	-9.99369
邢	-9.99371
把	-9.99378
歩	-9.9938
包	-9.99399
墓	-9.99409
浦	-9.99412
編修	-9.99434
膳	-9.99442
夏四月	-9.99444
氏之	-9.99471
國子監	-9.99471
舅	-9.99516
見前正徳	-9.99522
伏望	-9.99568
堯舜	-9.99605
門下	-9.99692
傳有	-9.99789
之憂	-9.99791
子元年	-9.99838
惡之	-9.999
者乎	-10.0004
於韓	-10.0006
人情	-10.0008
之徒	-10.0008
其身	-10.0019
逵	-10.0029
翊	-10.0033
無忌	-10.0038
三川	-10.004
趙之	-10.004
秀	-10.0042
紙	-10.0042
數千	-10.0044
李兊	-10.0045
至此	-10.0046
荷	-10.0046
言事	-10.0048
脫	-10.0048
侍御史	-10.0049
公孫衍	-10.0059
必無	-10.006
以求	-10.0064
宗室	-10.0064
中軍	-10.0066
臣恐	-10.0072
三十五年	-10.0085
書曰	-10.0085
此皆	-10.0086
平王	-10.0087
如此則	-10.0095
有一	-10.0103
不義	-10.0103
在外	-10.0112
鵬	-10.0113
聰	-10.0115
瞻	-10.0123
措	-10.0136
二品	-10.0138
邇	-10.0141
四十年	-10.0141
晏	-10.0142
詠	-10.0144
摯	-10.0145
逼	-10.0148
燭	-10.0148
佑	-10.0148
册	-10.0153
左都御史	-10.0156
章惇	-10.0159
吿	-10.016
之内	-10.0167
右丞	-10.0169
凡十	-10.0186
宫中	-10.0187
是嵗	-10.0189
皇子	-10.019
他日	-10.0202
之盛	-10.0208
或有	-10.0208
而立	-10.0209
其意	-10.0226
上章	-10.0237
四國	-10.0238
於外	-10.0238
丙辰	-10.0239
秘	-10.0244
癸丑	-10.0246
荘	-10.025
漏	-10.025
劉摯	-10.0252
栁	-10.0252
銓	-10.0253
呂	-10.0253
豹	-10.0254
范仲淹	-10.0254
譚	-10.0255
不取	-10.0258
寓	-10.0259
戊子	-10.0259
之弊	-10.0263
此則	-10.0281
伐楚	-10.0282
往往	-10.0287
其母	-10.0295
測	-10.0306
有罪	-10.0306
夾	-10.0336
奢	-10.034
勵	-10.0353
溺	-10.0353
戈	-10.0357
件	-10.0358
眷	-10.0358
二十四年	-10.0359
牌	-10.0362
裔	-10.0362
卓	-10.0362
喬	-10.0364
泄	-10.0366
侍中	-10.0377
伐宋	-10.0378
奏事	-10.0409
婦人	-10.0415
趙氏	-10.0415
三年任	-10.0437
文帝	-10.0438
安得	-10.0442
禪	-10.0456
隴	-10.0459
潜	-10.0463
柴	-10.0463
懸	-10.0465
相去	-10.0469
濠	-10.047
頒	-10.047
渉	-10.047
突	-10.0471
琮	-10.0472
坤	-10.0472
己丑	-10.0474
幕	-10.0474
戰國䇿	-10.0481
刺史	-10.0483
之師	-10.0503
敵人	-10.0508
而出	-10.0511
一子	-10.0514
雖然	-10.0519
可得	-10.0522
宰臣	-10.0523
後語	-10.0524
於國	-10.0527
手詔	-10.0531
曰汝	-10.0535
唐制	-10.0557
伐魏	-10.0561
六年任	-10.0562
安南	-10.0563
裴	-10.0567
聊	-10.0568
長安	-10.0573
濬	-10.0574
岐	-10.0575
五品	-10.0576
瀚	-10.0578
洲	-10.0579
醜	-10.058
戊辰	-10.058
疇	-10.058
孽	-10.0582
太尉	-10.0584
莊王	-10.0584
弑	-10.0584
伸	-10.0584
懽	-10.0585
文彦博	-10.0598
古人	-10.0604
其民	-10.0606
䝉古	-10.0607
無過	-10.0609
前日	-10.0613
三十一年	-10.0618
平原君	-10.0619
大敗	-10.062
復有	-10.0627
長史	-10.0629
按史	-10.063
可乎	-10.0636
死而	-10.0647
將以	-10.0655
相魏	-10.0662
不顧	-10.0674
頤	-10.0677
必以	-10.0679
覩	-10.0681
憎	-10.0682
壬午	-10.0683
攘	-10.0683
牽	-10.0688
朋黨	-10.0691
贈太子少保	-10.0691
械	-10.0692
飬	-10.0693
上表	-10.0693
進呈	-10.0696
柰何	-10.0699
詹事	-10.0701
玄	-10.0703
衷	-10.0703
東南	-10.0717
冬十月	-10.0727
不聴	-10.0746
患之	-10.0751
可不	-10.0754
𥙷曰一本	-10.0756
出身	-10.0768
曰不可	-10.0786
旱	-10.0787
雎	-10.08
妖	-10.0803
國除	-10.0805
饋	-10.0806
肇	-10.0807
太常卿	-10.0808
治之	-10.0812
樓緩	-10.0815
之下	-10.0828
二十萬	-10.0831
並同	-10.084
以致	-10.0841
六百	-10.0854
甚矣	-10.0856
是為	-10.0861
富貴	-10.0879
楚魏	-10.0882
取其	-10.0882
請以	-10.0887
於君	-10.0891
與國	-10.0896
奏曰	-10.0897
洪武中	-10.0903
明矣	-10.0905
青苗	-10.0911
通鑑	-10.0911
範	-10.0912
䕫	-10.0913
卧	-10.0913
逰	-10.0913
妨	-10.0915
事者	-10.0917
挺	-10.0917
己巳	-10.0918
裂	-10.0918
饗	-10.0919
日月	-10.092
欲得	-10.092
鈐轄	-10.092
亊	-10.092
勑	-10.092
迫	-10.0923
樞宻院	-10.0923
讐	-10.0925
攷	-10.0928
其衆	-10.0929
討之	-10.0946
得失	-10.0969
上音	-10.0983
知州	-10.0994
未任	-10.1011
丙寅	-10.1022
藍	-10.1022
汴	-10.1023
乖	-10.1025
是非	-10.1025
反覆	-10.1029
暮	-10.1029
膺	-10.1029
弔	-10.103
弛	-10.1031
鎰	-10.1031
卞	-10.1032
磨	-10.1032
萊	-10.1033
參知政事	-10.1033
尸	-10.1033
上命	-10.1039
敎	-10.104
庚子	-10.1055
上意	-10.1055
本無	-10.1056
所為	-10.1066
南京兵部尚書	-10.1067
河内	-10.1072
虞卿	-10.1077
開封	-10.1078
博士	-10.1078
觀其	-10.108
敗之	-10.1084
安撫	-10.1088
將帥	-10.1103
下有	-10.1109
進退	-10.1117
經義	-10.1122
深入	-10.1123
徹辰	-10.1131
諸科	-10.1136
俯	-10.1138
札	-10.1141
凢	-10.1141
不可得	-10.1142
䧟	-10.1142
加兼	-10.1142
寅	-10.1145
滕	-10.1145
輝	-10.1145
丙午	-10.1145
盤	-10.1146
吕公著	-10.1147
璟	-10.1148
校尉	-10.115
飯	-10.1151
玄齡	-10.1152
車駕	-10.1153
捐	-10.1154
謹身殿大學士	-10.1156
及其	-10.116
儆	-10.1161
在此	-10.1166
上謂	-10.1167
州人由進士	-10.1169
未見	-10.1175
秦魏	-10.1175
田單	-10.1178
道路	-10.1188
王載	-10.1192
考之	-10.1192
等各	-10.1197
晉國	-10.1214
曰秦	-10.1224
棄之	-10.1233
各一	-10.1235
仁義	-10.1238
對曰臣	-10.1244
右副都御史	-10.1247
於朝	-10.1248
寇	-10.1248
王安	-10.1249
晦	-10.1251
得㫖	-10.1252
塵	-10.1255
隆慶元年	-10.1259
妙	-10.1262
凱	-10.1262
五日	-10.1263
輦	-10.1263
庇	-10.1265
殁	-10.1265
無窮	-10.1267
弩	-10.1267
甲戌	-10.1269
勣	-10.127
狗	-10.1271
滑	-10.1273
萬貫	-10.1281
顯王	-10.1282
臣僚	-10.1303
劉瑾	-10.1304
汝南	-10.1307
推官	-10.1313
神宗	-10.132
公卿	-10.1351
臣下	-10.1352
成王	-10.1352
大防	-10.136
妻子	-10.1361
之𩔖	-10.1364
一事	-10.1366
壞	-10.1373
曰昔	-10.1377
混	-10.1378
駙馬	-10.1379
輟	-10.1379
岸	-10.138
麥	-10.1381
鞫	-10.1382
樞	-10.1382
苗	-10.1382
稅	-10.1383
贖	-10.1383
廸	-10.1383
倡	-10.1384
禮部左侍郎	-10.1384
八年任	-10.139
偕	-10.1392
萬一	-10.1397
或作	-10.1402
為左	-10.1404
織金	-10.1408
朝夕	-10.1415
曰今	-10.1419
武安君	-10.1423
起兵	-10.1431
襄公	-10.1434
國主	-10.145
不宜	-10.1456
復以	-10.1475
州軍	-10.1478
去之	-10.1485
沔	-10.149
與魏	-10.1496
揚州	-10.1497
纔	-10.1499
以禮	-10.15
詭	-10.15
壓	-10.1501
頼	-10.1502
驟	-10.1503
厮	-10.1505
嗟	-10.1506
賞罰	-10.1508
播	-10.1509
隷	-10.1509
恢	-10.151
常平	-10.1511
不言	-10.1518
可見	-10.1525
周之	-10.1527
越王	-10.1529
洪武三年	-10.1536
麻	-10.1537
其時	-10.1538
由薦舉	-10.154
事君	-10.1554
西北	-10.1558
門外	-10.1571
民間	-10.1577
定王	-10.1589
布衣	-10.1595
髙帝	-10.1615
不下	-10.1616
糴	-10.1616
騰	-10.1619
昆	-10.1619
芻	-10.1623
壬申	-10.1623
相與	-10.1624
禎	-10.1626
簾	-10.1627
競	-10.1628
濁	-10.1629
蠲	-10.1629
内使	-10.163
臧	-10.1631
洽	-10.1631
茅	-10.1631
往來	-10.1632
晋	-10.1634
潔	-10.1637
爲之	-10.1637
十餘年	-10.1638
言不	-10.1642
殖	-10.1644
頭目	-10.1647
百人	-10.1656
将軍	-10.1656
務要	-10.1659
之語	-10.1662
北征	-10.1669
不失	-10.1678
楚人	-10.1679
寧王	-10.1682
更不	-10.1685
教之	-10.169
以少傅	-10.1702
浙	-10.1702
西京	-10.1704
自知	-10.171
秦也	-10.1717
李公	-10.1727
華陽	-10.1729
黔	-10.1746
儼	-10.1747
需	-10.1748
護	-10.1748
補音於	-10.1748
暗	-10.1749
脅	-10.175
桀	-10.1751
中書舍人	-10.1752
梧	-10.1752
艾	-10.1752
帖	-10.1753
廖	-10.1755
之政	-10.1756
壬子	-10.1757
炎	-10.1764
之世	-10.1765
贈封	-10.1769
之恩	-10.177
誤也	-10.1774
綵幣	-10.1778
皇上	-10.1779
是年	-10.1794
正義	-10.18
二萬	-10.1814
見前萬厯	-10.1823
其不	-10.1829
生子	-10.1835
成都	-10.1839
號令	-10.1839
樞宻	-10.1843
涇	-10.1846
京城	-10.1853
君曰	-10.1853
等言	-10.1863
吕大防	-10.1868
嵩	-10.1868
丕	-10.1869
巡檢	-10.187
飭	-10.1871
秦秦	-10.1871
歿	-10.1871
㦸	-10.1872
壁	-10.1872
蹈	-10.1872
宣府	-10.1873
瑄	-10.1873
王公	-10.1874
晩	-10.1874
袍	-10.1875
囊	-10.1875
味	-10.1876
墜	-10.1877
㳺	-10.1878
地也	-10.188
舌	-10.1882
岷	-10.1884
詩賦	-10.1887
相繼	-10.1891
紗羅	-10.1893
英宗	-10.1897
豈得	-10.1901
總管	-10.1903
康王	-10.1907
攻韓	-10.1915
莫如	-10.1916
開封府	-10.1926
其功	-10.1929
逐之	-10.1936
因而	-10.1936
為國	-10.1939
大金	-10.1949
司禮監	-10.1949
何為	-10.195
百疋	-10.1958
太常	-10.1964
四夷	-10.1981
五代	-10.1985
十五年任	-10.1986
奬	-10.199
丙戌	-10.1994
無可	-10.1994
誕	-10.1996
不盡	-10.1999
潮	-10.1999
雙	-10.1999
返	-10.1999
捨	-10.2001
瓉	-10.2001
囬	-10.2002
黍	-10.2002
壅	-10.2004
箕	-10.2007
棘	-10.2008
綰	-10.2013
監司	-10.2014
鄢陵	-10.2018
之屬	-10.2019
長沙	-10.2023
右正言	-10.2023
繼遷	-10.2024
太宰	-10.2027
下音	-10.2028
以少保	-10.2038
耳目	-10.2041
字訛	-10.2051
詳定	-10.2068
魏冉	-10.2071
民力	-10.2076
王子	-10.2081
得人	-10.2083
漕	-10.2095
而又	-10.2096
問曰	-10.2098
與我	-10.2098
不成	-10.2099
直言	-10.2104
曰寡人	-10.2108
靖王	-10.2113
其說	-10.2115
財用	-10.2115
三軍	-10.2117
於是乎	-10.2122
什	-10.2123
瓦	-10.2124
值	-10.2125
昻	-10.2125
宮	-10.2126
區	-10.2126
佳	-10.2127
魁	-10.2127
之類	-10.2128
遥	-10.2129
肩	-10.2129
庚申	-10.2131
析	-10.2131
譬	-10.2133
欠	-10.2135
滬	-10.2141
奸邪	-10.2141
韓氏	-10.2142
代府	-10.2144
日夜	-10.2145
以来	-10.2147
不已	-10.2152
見前係	-10.2164
公著	-10.2167
於上	-10.2167
告之	-10.2171
第四	-10.2179
則必	-10.218
久之	-10.2185
重耳	-10.2188
不得已	-10.2201
生事	-10.2204
無罪	-10.2207
南北	-10.2214
失其	-10.2215
上䟽	-10.2219
之女	-10.222
立為	-10.2226
不易	-10.2228
訐	-10.2241
矣夫	-10.2244
俄	-10.2251
之主	-10.2253
勾	-10.2255
鸞	-10.2256
湏	-10.2256
耆	-10.2258
此下	-10.2258
関	-10.2259
匱	-10.2261
交割	-10.2264
𦵏	-10.2264
歛	-10.2266
沂	-10.2267
孰與	-10.2267
艱	-10.2267
痤	-10.227
法度	-10.2271
在前	-10.2279
椘	-10.228
索隱云	-10.2282
奏請	-10.2283
承㫖	-10.2286
之志	-10.2289
之道也	-10.2316
前代	-10.2324
賜之	-10.2325
之術	-10.2326
齊趙	-10.2327
今後	-10.2351
亡國	-10.2353
十人	-10.2366
論語	-10.2368
而復	-10.2385
榆	-10.2385
俶	-10.2385
涇原	-10.2385
乙酉	-10.2386
曰不如	-10.2387
郷	-10.2388
倒	-10.2388
暨	-10.2388
乙亥	-10.239
伴	-10.239
髪	-10.239
即日	-10.2391
壬寅	-10.2392
軒	-10.2393
甲午	-10.2393
侍讀	-10.2394
蘓	-10.2394
之甚	-10.2394
掖	-10.2394
爰	-10.2396
扞	-10.2396
悍	-10.2397
頌	-10.2397
陪	-10.2398
突厥	-10.2398
不明	-10.2398
都察院左都御史	-10.2399
一二	-10.24
敝邑	-10.2403
國史	-10.2404
般	-10.2404
舊音	-10.2404
按此	-10.2408
不止	-10.241
矣而	-10.2416
問之	-10.2419
不容	-10.2423
令人	-10.2429
宣撫	-10.2432
不問	-10.2445
臨安	-10.2445
於前	-10.2447
補音丁	-10.2451
此二	-10.2451
先後	-10.2461
而能	-10.2465
十餘	-10.2472
張子	-10.2487
留之	-10.2493
諸國	-10.2495
亦以	-10.2497
兩國	-10.2498
稱之	-10.2503
東北	-10.2506
之職	-10.2508
左傳	-10.2509
丁亥	-10.2512
忤	-10.2512
拯	-10.2515
邸	-10.2516
冲	-10.2518
碑	-10.2521
耻	-10.2521
灌	-10.2522
算	-10.2522
蓄	-10.2523
一言	-10.2523
覇	-10.2524
徇	-10.2525
靜	-10.2526
羞	-10.2528
叱	-10.2529
謂魏王曰	-10.2531
少監	-10.2531
不暇	-10.2536
大王之	-10.2538
無有	-10.254
二公	-10.2544
涇陽	-10.2552
左侍	-10.2559
福晉	-10.2566
進加	-10.2571
似道	-10.2577
說見	-10.2598
二年任	-10.261
不待	-10.261
詩云	-10.2621
納之	-10.2626
二員	-10.2626
將士	-10.2632
曰請	-10.2634
非有	-10.2635
恭王	-10.2639
留守	-10.2649
綺	-10.265
交阯	-10.2656
䖍	-10.2656
覲	-10.2658
辛亥	-10.2659
拾	-10.266
無子除	-10.266
駙馬都尉	-10.266
以報	-10.2672
伐韓	-10.2674
遂以	-10.2674
來朝	-10.2676
太子太師	-10.2681
聖明	-10.2686
州郡	-10.2699
十日	-10.2699
二十六	-10.2702
何所	-10.2707
數人	-10.2708
毋得	-10.2709
入見	-10.271
前去	-10.2716
加太子太保	-10.2717
議論	-10.2723
學者	-10.2724
為大	-10.2743
嘉靖中	-10.2747
利也	-10.2757
隂陽	-10.2763
宦	-10.2772
各處	-10.2772
王者	-10.2774
為天下	-10.2782
後志	-10.2782
詔令	-10.2784
髙宗	-10.2788
己亥	-10.2788
促	-10.279
縉	-10.279
十一年任	-10.2792
隔	-10.2793
此乃	-10.2795
巖	-10.2795
浪	-10.2795
丁酉	-10.2796
僻	-10.2797
愆	-10.2798
翦	-10.2799
䜛	-10.28
逋	-10.28
偷	-10.2801
愽	-10.2804
刃	-10.2804
鄢	-10.2805
平聲	-10.2808
豈能	-10.2809
詩曰	-10.281
孟甞君	-10.2815
内侍	-10.2828
第二子	-10.2828
千餘人	-10.2837
洪武元年	-10.285
又何	-10.2852
至京	-10.2862
宣諭	-10.2863
不識	-10.2867
禁中	-10.2871
待制	-10.2878
南郡	-10.2884
二十八	-10.2886
或謂	-10.2888
無道	-10.2894
王曰善	-10.2897
扈	-10.2905
寧夏	-10.2912
有言	-10.2912
置之	-10.2913
戰國	-10.2914
釋之	-10.292
嘆	-10.2921
靖郭君	-10.2923
蹇	-10.2924
兾	-10.2926
浸	-10.2927
辛酉	-10.2931
筭	-10.2932
叢	-10.2933
沉	-10.2934
閻	-10.2935
遐	-10.2935
之論	-10.2936
㢘	-10.2938
紳	-10.2938
柳	-10.2938
蚤	-10.2942
躍	-10.2943
媾	-10.2945
行也	-10.2945
伐燕	-10.2954
晉府	-10.296
道之	-10.2968
之家	-10.298
不允	-10.298
而還	-10.2984
補曰姚本	-10.2994
國人	-10.2999
强秦	-10.3
郡縣	-10.3001
説文	-10.3004
欲伐	-10.3005
仍舊	-10.3007
可為	-10.3026
以前	-10.3031
二年任右	-10.3034
不知其	-10.304
失之	-10.3044
六人	-10.3052
未聞	-10.3057
必欲	-10.3068
罵	-10.3069
蘇轍	-10.307
鎮撫	-10.3071
欵	-10.3071
己酉	-10.3072
槩	-10.3073
觸	-10.3075
辛巳	-10.3075
翌日	-10.3076
曩	-10.3076
薪	-10.3076
椒	-10.3077
癸酉	-10.3078
渝	-10.3079
職事	-10.3079
牲	-10.308
殽	-10.3082
踵	-10.3082
巫	-10.3083
握	-10.3083
縮	-10.3084
嬖	-10.3085
鏜	-10.3086
補曰此	-10.3087
子榮	-10.3088
國朝	-10.3096
於内	-10.3096
安平	-10.3101
有三	-10.3102
汗之	-10.311
聖㫖	-10.311
懿王	-10.3121
將來	-10.3124
先卒	-10.3126
恭順	-10.3128
其妻	-10.3131
之戰	-10.3134
或以	-10.314
非所以	-10.3143
憲宗	-10.3155
侯贈	-10.3158
見於	-10.3163
二十九	-10.3166
正曰此	-10.3166
太宗之	-10.3167
河外	-10.3182
第三子	-10.3184
雖欲	-10.3186
四十一年	-10.3192
韓王	-10.3194
乆矣	-10.3195
太宗謂	-10.3196
非也	-10.3197
公曰	-10.3204
呈	-10.3204
臺諫	-10.3205
製	-10.3206
濟農	-10.3206
織	-10.3212
遞	-10.3212
域	-10.3212
太公	-10.3213
制置	-10.3215
猷	-10.3216
諷	-10.3216
寕	-10.3216
愚謂	-10.3216
繆	-10.3217
輅	-10.3217
太常少卿	-10.3218
鞏	-10.3219
唱	-10.322
戊午	-10.3221
訟	-10.3221
迷	-10.3221
富弼	-10.3222
懈	-10.3222
慶厯	-10.3226
檢討	-10.3228
圉	-10.3228
道也	-10.323
語曰	-10.3232
畔	-10.3233
沛	-10.3233
多矣	-10.3238
應天	-10.3242
軍人	-10.3242
安陵	-10.3244
夏人	-10.3253
圖之	-10.3254
吳王	-10.3257
守禦	-10.3257
十三年任	-10.3258
補曰大事記	-10.3272
曰公	-10.3275
旦反	-10.3281
大抵	-10.3283
當以	-10.3283
前來	-10.3288
之言也	-10.3298
經典	-10.3301
曰卿	-10.3304
行省	-10.3307
太守	-10.3312
是月	-10.3322
為首	-10.3341
十餘萬	-10.3349
太宗謂侍臣曰	-10.3351
譴	-10.3352
此非	-10.3352
緘	-10.3356
丙申	-10.3356
寃	-10.3357
探	-10.3359
覈	-10.3361
秋七月	-10.3362
湘	-10.3363
邁	-10.3363
遍	-10.3363
霍	-10.3364
韓之	-10.3364
證	-10.3364
障	-10.3365
蔑	-10.3365
煜	-10.3365
随	-10.3366
歐陽	-10.3369
想	-10.3369
紗	-10.337
繕	-10.337
戸部	-10.3372
自此	-10.3372
梗	-10.3375
庶幾	-10.3377
昭謂	-10.3381
恵王	-10.3382
劄子	-10.3386
飲食	-10.3392
冊封	-10.3398
有大	-10.3399
御史大夫	-10.34
為太子	-10.3403
渡江	-10.3407
四品	-10.3409
不疑	-10.341
而入	-10.3414
於民	-10.342
其弟	-10.3424
詔曰	-10.343
謂其	-10.3437
之孫	-10.3441
夫子	-10.3444
特賜	-10.3448
節制	-10.3456
未及	-10.3461
北京	-10.3463
三十六年	-10.3476
襄陽	-10.3479
因以	-10.348
平江	-10.3481
入冦	-10.3485
且以	-10.3487
從容	-10.3487
左右曰	-10.3491
行人	-10.3491
涼	-10.3497
之餘	-10.3499
鋪	-10.3503
國也	-10.3503
暫	-10.3506
僉都御史	-10.3506
生民	-10.3506
環慶	-10.3507
侮	-10.3508
㢤	-10.3509
隅	-10.351
嚕	-10.3512
陘	-10.3512
叟	-10.3513
庚午	-10.3514
春正月	-10.3515
斛	-10.3516
陋	-10.3516
標	-10.3517
旄	-10.3519
主應天試	-10.3519
貟	-10.3521
鄴	-10.3522
衣一襲	-10.3523
宗社	-10.3523
丁巳	-10.3524
頓首	-10.3526
甸	-10.3529
無益	-10.3532
未甞	-10.3538
之楚	-10.3538
於周	-10.3546
百貫	-10.3548
文華	-10.3552
都統	-10.3552
一名	-10.3555
邊事	-10.356
四十五年	-10.3562
尚書省	-10.3563
其中	-10.3567
明主	-10.3572
讀書	-10.358
時有	-10.3582
補音所	-10.3594
不避	-10.3614
尤為	-10.3637
范純仁	-10.3647
靣	-10.3648
成化中	-10.3653
而止	-10.3653
哨	-10.3653
波	-10.3655
故不	-10.3656
悲	-10.3658
忱	-10.3659
千户衛鎮撫	-10.366
賈似道	-10.366
座	-10.366
誅之	-10.3661
蛇	-10.3662
緫	-10.3662
觴	-10.3662
燒	-10.3663
純仁	-10.3665
叚	-10.3673
景鯉	-10.3673
鬭	-10.3675
鼔	-10.3676
御史臺	-10.368
未幾	-10.3683
贈太子太保	-10.3687
䕃	-10.3698
其説	-10.3712
亦非	-10.3722
之變	-10.3729
市易	-10.3732
乃止	-10.3735
本路	-10.3735
則可	-10.374
發兵	-10.3742
萬里	-10.3743
十八年任	-10.3746
景泰三年	-10.3747
指揮僉事	-10.3749
法也	-10.3753
乃以	-10.3754
當是	-10.3755
初以	-10.3759
穆王	-10.3761
太常寺	-10.3766
以至	-10.3771
赧	-10.3772
罷之	-10.3776
監生	-10.3777
延州	-10.3781
卒子	-10.3782
而言	-10.379
侍從	-10.3793
與楚	-10.3797
之前	-10.3797
像	-10.3802
㕔	-10.3803
莽	-10.3803
酋	-10.3803
孟嘗	-10.3805
眉	-10.3806
溢	-10.3807
乳	-10.3807
事皆	-10.3807
枉	-10.3809
填	-10.3809
娶	-10.3811
窘	-10.3812
凝	-10.3812
憐	-10.3813
眼	-10.3813
底	-10.3817
轅	-10.3818
風俗	-10.382
數十萬	-10.3822
不知何許人	-10.3827
又謂	-10.383
㕘議	-10.3836
景隆	-10.3837
率兵	-10.3843
今年	-10.3843
庶子	-10.3847
薊	-10.3848
所載	-10.385
太學	-10.3868
太史	-10.3869
無他	-10.3882
平陽	-10.3886
青州	-10.3887
徐州	-10.3888
見前𢎞治	-10.3889
明堂	-10.3896
旗軍	-10.3915
免役	-10.3923
四十四年	-10.3923
在於	-10.3927
軌	-10.3929
其主	-10.3931
奉天	-10.3935
諸公	-10.3936
所宜	-10.3945
禆	-10.3956
醉	-10.3958
蔵	-10.3958
廩	-10.3958
奭	-10.3958
戊寅	-10.396
衢	-10.396
視之	-10.3961
竇	-10.3962
吞	-10.3962
碩	-10.3962
不堪	-10.3962
歐陽修	-10.3964
曠	-10.3964
吐	-10.3965
聼	-10.3967
打	-10.3967
朗	-10.3967
抽	-10.3967
衙門	-10.3968
琴	-10.3969
之明	-10.3971
廊	-10.3976
責之	-10.398
三十三	-10.3983
凡四	-10.3988
由進士五年任右	-10.399
燕齊	-10.3991
而天下	-10.4008
女真	-10.4008
受之	-10.4009
漢書	-10.401
獻子	-10.4021
攻趙	-10.4021
講讀	-10.4029
為魏	-10.4029
赴闕	-10.403
莫敢	-10.4036
賢人	-10.4039
靖難	-10.4039
山川	-10.4041
魏䇿	-10.4044
君也	-10.4047
久矣	-10.4048
由進士二十	-10.4049
之議	-10.4053
東平	-10.4055
所稱	-10.4057
初名	-10.4057
三十二年	-10.4061
州府	-10.4065
所司	-10.4079
興師	-10.4082
三十萬	-10.4088
群	-10.409
陛	-10.4098
大將	-10.4098
當從	-10.4099
安危	-10.4099
徐公	-10.4105
功也	-10.4107
哈屯	-10.4108
宗伯	-10.411
武帝	-10.4113
淑	-10.4115
壮	-10.4117
珉	-10.4118
所奏	-10.4118
庠	-10.4119
逞	-10.4121
繩	-10.4123
國語	-10.4124
疑之	-10.4125
鼐	-10.4126
措置	-10.4126
迄	-10.4127
各有	-10.4127
熈寧	-10.4127
人有	-10.4128
婚	-10.4129
年三十	-10.413
蹙	-10.4131
這	-10.4138
無考	-10.4153
不忠	-10.4158
錦衣	-10.4159
之物	-10.4164
小國	-10.4164
千二百	-10.4166
在魯	-10.4167
中原	-10.4167
者三	-10.417
謂楚王曰	-10.4173
楊公	-10.4177
教授	-10.4181
泗	-10.4182
司禮監太監	-10.4185
末年	-10.4187
以安	-10.4187
甲兵	-10.4189
四子	-10.419
勅諭	-10.421
兼任	-10.4222
一月	-10.424
人才	-10.424
逺近	-10.4241
次子	-10.4258
府庫	-10.4265
而退	-10.427
穴	-10.4274
禱	-10.4275
龜	-10.4275
沿	-10.4276
故云	-10.4277
洗	-10.4277
網	-10.4277
玊	-10.4278
鉅	-10.4279
苛	-10.428
厰	-10.4281
遏	-10.4283
補音乃	-10.4283
汲	-10.4284
沃	-10.4285
拂	-10.4285
耗	-10.4286
鑿	-10.4287
餌	-10.4288
郵	-10.4289
妬	-10.4289
若是	-10.429
上怒	-10.4291
璞	-10.4292
綵段	-10.4293
股	-10.4296
戸部尚書	-10.4298
貴州	-10.4298
未㡬	-10.4305
此字	-10.4305
元帥府	-10.4308
宣子	-10.4314
未盡	-10.4324
奉御	-10.4328
廷和	-10.4339
夏國	-10.4339
由此	-10.434
不服	-10.434
善惡	-10.4354
副都	-10.4358
保甲	-10.4358
知人	-10.4371
人衆	-10.4378
為此	-10.4403
甚衆	-10.4406
監軍	-10.4407
者何也	-10.4407
舎人	-10.4409
楚趙	-10.4416
之過	-10.4417
朱光庭	-10.4428
字誤	-10.4434
倘	-10.4438
選人	-10.4438
準	-10.4438
取士	-10.4439
贍	-10.4439
中官	-10.4441
凉	-10.4442
鞭	-10.4443
暉	-10.4443
村	-10.4444
弭	-10.4445
斬之	-10.4449
戊申	-10.4456
牛羊	-10.4461
太子太保吏部尚書	-10.4462
果莊	-10.4467
文敏	-10.447
六千	-10.4471
彪謂此	-10.4477
思之	-10.4483
臣願	-10.4488
爲王	-10.4494
差役	-10.4496
之䇿	-10.4519
已有	-10.4522
七日	-10.4526
一曰	-10.4531
言於	-10.4536
七千	-10.4537
四十二年	-10.4547
貝	-10.4549
不一	-10.455
永樂元年	-10.4552
等皆	-10.4559
十一年任右	-10.456
未得	-10.4562
遣官	-10.4563
仍令	-10.4572
自為	-10.4578
莊子	-10.4583
千人	-10.4583
陜	-10.4585
其勢	-10.459
𣙜	-10.4596
贄	-10.4598
巢	-10.4598
大理寺	-10.4598
庚寅	-10.4599
按察使	-10.4601
誼	-10.4602
辜	-10.4605
蘄	-10.4605
酬	-10.4606
禀	-10.4608
二十七	-10.4608
南郊	-10.4609
屍	-10.4611
晨	-10.4611
無異	-10.4611
叶	-10.4611
人民	-10.4612
吏反	-10.4612
殉	-10.4612
反下同	-10.4613
豕	-10.4616
舘	-10.4617
楊廷和	-10.4617
頥	-10.4618
問罪	-10.4624
于此	-10.4628
海内	-10.4631
徽廟	-10.464
也太宗	-10.4642
廷試	-10.4643
二日	-10.4644
母弟	-10.4649
稱為	-10.4653
從者	-10.4656
征伐	-10.4677
平章事	-10.4685
數月	-10.4692
自謂	-10.4693
夫差	-10.4699
三司使	-10.4701
下詔	-10.4723
而求	-10.4737
主父	-10.4744
秦伐	-10.4748
親征	-10.4749
馬陵	-10.4752
中尉	-10.4754
杭	-10.4754
土地	-10.4756
商君	-10.476
犒	-10.476
檄	-10.4762
二十二	-10.4765
惶	-10.4765
洙	-10.4766
㒺	-10.4767
之弟	-10.4767
布政使	-10.4768
緑	-10.4768
守之	-10.4768
婢	-10.4768
一萬	-10.477
強秦	-10.477
訊	-10.4771
緝	-10.4771
鄆	-10.4771
爽	-10.4771
鐡	-10.4774
巷	-10.4774
隣	-10.4774
膝	-10.4775
明王世貞撰	-10.4775
掲	-10.4775
棟	-10.4776
梅	-10.4777
乂	-10.4778
耀	-10.4779
捍	-10.478
張公	-10.478
科塲	-10.4782
建信君	-10.4782
鞠	-10.4782
范雎	-10.4784
樗里疾	-10.4785
褐	-10.479
親戚	-10.4791
贈少保	-10.4794
田忌	-10.4798
為名	-10.48
此亦	-10.4803
無敢	-10.481
所見	-10.4817
中有	-10.4823
王何不	-10.4825
七年任	-10.483
近日	-10.4832
獻公	-10.4834
出師	-10.4841
何故	-10.4851
十五年任右	-10.4854
爲秦	-10.4857
義勇	-10.4866
於燕	-10.4867
惠卿	-10.4868
簡子	-10.4876
所當	-10.4881
太子太保兵部尚書	-10.4881
受其	-10.4891
畧曰	-10.4893
鞍	-10.4894
敢不	-10.4895
鎮國將軍	-10.4904
不載	-10.4916
而君	-10.4917
僕射	-10.4922
畿	-10.4924
叩	-10.4925
聽之	-10.4927
坦	-10.4933
有天下	-10.4936
驢	-10.4937
贓	-10.4937
巾	-10.4938
吏部左侍郎	-10.4939
嗚呼	-10.494
矛	-10.4941
之命	-10.4941
傍	-10.4942
構	-10.4942
二三	-10.4943
斡	-10.4943
可知	-10.4944
龢	-10.4944
癸亥	-10.4945
闔	-10.4946
两	-10.4946
衆人	-10.4947
以太子太保	-10.4947
禮部侍郎	-10.4947
汶	-10.495
舛	-10.495
腹心	-10.495
緒	-10.4951
鯉	-10.4952
你	-10.4952
公不如	-10.4952
不自	-10.4965
乃詔	-10.497
經畧	-10.4976
而使	-10.4978
萬安	-10.4981
者衆	-10.4984
人所	-10.4991
而取	-10.4995
其黨	-10.4995
知貢舉	-10.5
之國也	-10.5002
三十六	-10.5007
非是	-10.5023
五萬	-10.5028
張永	-10.5035
復入	-10.5036
忠信	-10.5039
欲其	-10.5047
臣聞之	-10.5047
衆皆	-10.5052
上文	-10.5054
今已	-10.5055
貢舉	-10.5055
王不如	-10.5057
此策	-10.5057
官制	-10.5062
若有	-10.5066
謚	-10.5068
南面	-10.5075
公亮	-10.5076
天道	-10.5083
生於	-10.5084
等物	-10.5086
梓	-10.5091
狡	-10.5101
裝	-10.5103
食之	-10.5103
迨	-10.5104
魏氏	-10.5107
或為	-10.5107
閤	-10.5107
售	-10.5109
癸巳	-10.5111
兵部左侍郎	-10.5112
錦衣衞	-10.5115
穿	-10.5115
繒	-10.5115
堵	-10.5116
禾	-10.5116
弦	-10.5118
范祖禹	-10.5118
今又	-10.5119
活	-10.512
丁夘	-10.512
廂	-10.512
黃	-10.5121
鈔二百錠	-10.5121
徼	-10.5124
萬計	-10.5126
嗣君	-10.5126
第五	-10.5127
笑曰	-10.5131
詳内閣	-10.5132
之失	-10.5138
梁王	-10.5142
今秦	-10.5142
又賜	-10.5144
之理	-10.5148
推恩	-10.5153
也按	-10.5161
詔以	-10.5162
首領	-10.5164
春申君	-10.5167
劾奏	-10.5169
父兄	-10.5173
不救	-10.5175
之請	-10.5182
考官	-10.5184
立功	-10.5185
公事	-10.5185
此人	-10.5186
至矣	-10.5187
計也	-10.5188
敏中	-10.5189
行在	-10.519
本末	-10.5191
為楚	-10.5193
武公	-10.5204
北漢	-10.5204
六國	-10.5221
申生	-10.5223
未敢	-10.5226
潭	-10.5231
始也	-10.5249
欲使	-10.5252
入内	-10.5256
而亡	-10.5263
而不知	-10.5265
九人	-10.5268
衙	-10.527
不獲	-10.5273
太宗曰	-10.5274
大功	-10.5274
峻	-10.5277
旻	-10.5281
餽	-10.5285
殿中侍御史	-10.5285
逾	-10.5286
良臣	-10.5286
愷	-10.5287
濤	-10.5287
阮	-10.5287
嚮	-10.5288
𦙍	-10.5289
揆	-10.5289
巴圖爾	-10.529
寔	-10.529
掃	-10.5291
矩	-10.5291
四時	-10.5293
狩	-10.5293
朽	-10.5294
烝	-10.5297
冠帶	-10.5298
昭奚恤	-10.5298
夭	-10.5298
盾	-10.5299
甥	-10.5299
蟒	-10.5302
部落	-10.5302
奉㫖	-10.5305
胙	-10.5313
瀋府	-10.5314
武子	-10.5316
機務	-10.5317
第五子	-10.5318
春申	-10.5319
北兵	-10.532
公議	-10.532
帝曰	-10.5321
以少師	-10.5323
萬五千	-10.5327
管仲	-10.5329
主簿	-10.5336
大破	-10.5342
潞	-10.5342
惟陛下	-10.5349
又詔	-10.535
而卒	-10.5351
元年任右	-10.5359
以為不可	-10.5363
中使	-10.5368
景公	-10.5369
長者	-10.5369
差遣	-10.5374
與其	-10.5377
自然	-10.5379
以進	-10.5379
召見	-10.5389
欲攻	-10.539
獨不	-10.5402
河陽	-10.5407
别有	-10.5409
真定	-10.5409
大子	-10.541
之亂	-10.541
處置	-10.5411
其他	-10.5415
之威	-10.5421
同時	-10.5425
止於	-10.5434
未嘗不	-10.5437
欲令	-10.5439
武徳	-10.5443
璋	-10.5449
蘓轍	-10.545
四字	-10.5452
諸司	-10.5455
瑶	-10.5455
湖南	-10.5455
宸濠	-10.5457
夙夜	-10.5463
墳	-10.5464
倦	-10.5464
此所謂	-10.5465
腰	-10.5466
保定	-10.5466
元年任	-10.5467
誡	-10.5468
騷	-10.5468
不死	-10.5468
鶴	-10.5468
駁	-10.5469
百户所鎮撫	-10.547
傲	-10.5472
琳	-10.5472
為齊	-10.5472
膠	-10.5472
姊	-10.5473
龔	-10.5474
宋人	-10.5475
芒	-10.5479
所惡	-10.5479
鴈	-10.548
秦府	-10.5481
而弗	-10.5481
渾	-10.5481
鉤	-10.5482
其情	-10.5483
補曰一	-10.5484
少詹事	-10.5485
南京吏部尚書	-10.5486
天聖	-10.5487
張孟談	-10.5488
索隠云	-10.549
圻	-10.5491
叅政	-10.5492
玉帶	-10.5493
分宜	-10.5494
謂秦王曰	-10.5496
七人	-10.5499
二君	-10.55
晉王	-10.5501
清河	-10.5502
不入	-10.5504
所生	-10.5505
官司	-10.5505
為燕	-10.5505
湯和	-10.5514
魏地	-10.5518
而自	-10.5524
楚國	-10.5526
成臯	-10.5529
衣冠	-10.5529
晉大夫	-10.5541
加太子少保	-10.5542
於市	-10.5544
為我	-10.5545
大喜	-10.5592
誠意	-10.5592
者則	-10.5594
難以	-10.5598
臣愚	-10.5601
止之	-10.5607
為政	-10.5615
言無	-10.5616
患也	-10.5616
轉運	-10.5619
安置	-10.562
十里	-10.5622
十餘人	-10.5622
今欲	-10.5622
三十三年	-10.5627
職官	-10.5627
雇	-10.563
封建	-10.5633
相見	-10.5639
斃	-10.5641
翔	-10.5642
䑓	-10.5643
嗜	-10.5644
事體	-10.5645
縛	-10.5645
辛夘	-10.5646
悅	-10.5648
嫉	-10.5648
羸	-10.565
萌	-10.565
蠧	-10.5651
豆	-10.5651
鑾	-10.5653
聦	-10.5654
禮部右侍郎	-10.5655
翰林院	-10.5656
勃	-10.5656
寛樂令終	-10.5659
冩	-10.566
宣宗	-10.566
五百里	-10.5661
開平	-10.5662
粗	-10.5662
挫	-10.5662
荆軻	-10.5664
呡	-10.5664
大都督府	-10.5666
劉氏	-10.5667
攻燕	-10.5668
扈從	-10.5669
竝同	-10.5671
而輕	-10.5674
魯僖	-10.5675
文淵閣大學士	-10.5678
復為	-10.5678
為相	-10.5685
祿一千石	-10.5686
最為	-10.5688
此語	-10.5691
九鼎	-10.5692
字通	-10.5695
盡其	-10.5696
用也	-10.5697
而進	-10.5706
乃命	-10.571
逺矣	-10.5711
薨壽五十	-10.5713
得地	-10.572
山人	-10.5724
國用	-10.5727
髙皇帝	-10.5727
於我	-10.5728
江淮	-10.573
哀侯	-10.573
入城	-10.5731
愛民	-10.5732
勇士	-10.5736
殿下	-10.5741
河中	-10.5742
王室	-10.5743
所用	-10.5746
楚也	-10.575
率衆	-10.5752
具奏	-10.5752
加少保	-10.5753
言官	-10.5757
制度	-10.576
新法	-10.5761
十六年任	-10.5762
出奔	-10.5763
直學士	-10.5764
外任	-10.5766
奉行	-10.5771
城池	-10.5796
其職	-10.58
副之	-10.5804
人多	-10.5819
奏乞	-10.5819
西路	-10.5822
幽王	-10.5822
貯	-10.5823
霖	-10.5826
旭	-10.5826
漁	-10.5828
十年任右	-10.5829
僭	-10.5829
衛籍	-10.583
刋	-10.5831
繳	-10.5832
阜	-10.5833
鄜延	-10.5834
甲寅	-10.5835
梟	-10.5835
楊一清	-10.5835
乎王曰	-10.5838
暑	-10.5838
駟	-10.5839
黑	-10.5839
瑜	-10.584
股肱	-10.584
相秦	-10.5841
翰林院侍讀學士	-10.5843
恊	-10.5847
祭酒	-10.5853
盇	-10.5854
士人	-10.5854
右僕射	-10.5856
上有	-10.5857
聶政	-10.5859
梁儲	-10.586
所出	-10.5864
新序	-10.5864
經術	-10.5867
石亨	-10.5869
趙䇿	-10.5882
居正	-10.5885
執事	-10.5889
淮安	-10.589
誓書	-10.5894
靈州	-10.5897
侍讀學士	-10.5899
為臣	-10.5899
内府	-10.59
贈太保	-10.5901
再任	-10.5902
依前	-10.5908
終身	-10.5915
説與	-10.5917
奪其	-10.5917
中式	-10.5923
指揮同知	-10.5936
豈敢	-10.5938
分兵	-10.594
中立	-10.594
中允	-10.5941
五子	-10.5941
四疋	-10.5944
運使	-10.5949
凡有	-10.5953
以臨	-10.5955
殿前	-10.5974
庚	-10.5974
諸侯之	-10.5976
發遣	-10.5985
以明	-10.5987
文徳	-10.5994
便宜	-10.5996
十一日	-10.5996
兩路	-10.5997
王振	-10.6003
綿布	-10.6004
秦人	-10.601
劵	-10.6011
乙夘	-10.6021
頴	-10.6022
蒼	-10.6023
攜	-10.6023
淹	-10.6023
閫	-10.6024
稔	-10.6025
通政司	-10.6026
桃	-10.6027
銷	-10.6029
領兵	-10.6029
迂	-10.603
漆	-10.6031
做	-10.6031
佯	-10.6031
璠	-10.6031
挑	-10.6034
奠	-10.6034
挈	-10.6035
戰國策	-10.6037
嬴	-10.6039
谿	-10.6039
忠義	-10.604
李東陽	-10.6043
吉祥	-10.6043
辠	-10.6047
張居正	-10.6047
死之	-10.6047
二十一	-10.6058
丗家	-10.6059
十兩	-10.6061
總制	-10.6062
鄕	-10.6063
公私	-10.6066
亦如之	-10.6067
攻城	-10.6069
田嬰	-10.6069
無患	-10.6083
上聞	-10.6086
待罪	-10.6088
公侯	-10.6089
上皇	-10.6095
之費	-10.6097
楚楚	-10.6099
王曰寡人	-10.6103
右丞相	-10.6112
以禮部尚書	-10.6117
不稱	-10.6119
□(	-10.6135
蘭州	-10.6136
以罪	-10.6137
重進	-10.6137
使其	-10.6139
典禮	-10.614
莫能	-10.6143
鄉人	-10.6145
交通	-10.6161
不爲	-10.6162
都尉	-10.6166
戊	-10.6174
引兵	-10.6181
令其	-10.6181
故能	-10.6183
猶言	-10.6188
致書	-10.6199
之深	-10.6207
劉安世	-10.6208
換	-10.621
煬帝	-10.621
團	-10.6212
僣	-10.6213
圓	-10.6213
恬	-10.6213
爲君	-10.6213
夙	-10.6213
焦芳	-10.6214
冐	-10.6214
布政司	-10.6215
籌	-10.6215
將兵	-10.6216
話	-10.6216
箴	-10.6217
哷	-10.6217
京官	-10.6217
寮	-10.6218
淇	-10.6218
煥	-10.6218
番	-10.6219
輯	-10.6219
凡三	-10.6221
贏	-10.6221
豎	-10.6222
團營	-10.6222
餓	-10.6222
繡	-10.6222
等廷試賜	-10.6223
遣之	-10.6223
驍	-10.6226
浚	-10.6227
房玄齡	-10.6228
永樂二十二年	-10.6229
改元	-10.623
謀臣	-10.623
差官	-10.6234
洮	-10.6235
相公	-10.6236
屯田	-10.6236
固辭	-10.6239
非常	-10.6242
名也	-10.6243
夷簡	-10.6244
天命	-10.6245
二十三	-10.6246
安定	-10.625
八人	-10.6257
經歴	-10.6258
淮北	-10.626
行營	-10.6263
無私	-10.6273
百五十	-10.6277
奉詔	-10.6278
之長	-10.6279
可否	-10.6288
趙普	-10.6289
者惟	-10.629
由進士六年任右	-10.6299
諫議大夫	-10.6305
秦昭	-10.6306
禮樂	-10.6318
施於	-10.632
大用	-10.6323
聽命	-10.6325
差人	-10.6329
役法	-10.6332
所取	-10.6336
孝公	-10.6336
不安	-10.634
趙人	-10.6347
北面	-10.6351
時事	-10.6361
乃使	-10.6373
之敗	-10.6374
何足	-10.6376
禮義	-10.6377
緋	-10.6389
家人	-10.6391
昊	-10.64
戰功	-10.6402
乙巳	-10.6406
荐	-10.6406
丁謂	-10.6407
涓	-10.6407
捧	-10.6408
掛	-10.6408
文仲	-10.6409
定州	-10.6409
逓	-10.6411
截	-10.6411
笞	-10.6412
諜	-10.6412
㳟	-10.6413
闈	-10.6414
催	-10.6415
声	-10.6415
蟲	-10.6415
晝	-10.6415
東地	-10.6416
自後	-10.6416
諧	-10.6416
齡	-10.6416
檢校	-10.6417
事記	-10.6418
栢	-10.6418
閑	-10.6419
枯	-10.6419
同列	-10.6419
公孫郝	-10.6421
麾下	-10.6421
劔	-10.6423
蕃部	-10.6424
纓	-10.6424
漢志	-10.6424
二疋	-10.6424
蔚	-10.6428
之才	-10.6428
京兆	-10.6428
冶	-10.6428
江乙	-10.6431
自稱	-10.6436
之徳	-10.6437
所居	-10.644
之典	-10.644
武定	-10.6441
滅之	-10.6442
永樂八年	-10.6444
至公	-10.6449
之戒	-10.6452
聰明	-10.6455
因其	-10.6456
得志	-10.6457
臣以為	-10.6457
退而	-10.6464
即墨	-10.6467
諡法	-10.6474
諸臣	-10.6487
伯爵	-10.6488
吕氏	-10.6494
為庶吉士	-10.6505
邊臣	-10.6507
弗聽	-10.6507
次之	-10.6508
凡五	-10.6508
用心	-10.651
恐懼	-10.651
他人	-10.6514
由進士四年任右	-10.6515
俱以	-10.6521
而反	-10.6522
解元	-10.6528
之賞	-10.653
鎮守太監	-10.6546
武安	-10.6547
不惟	-10.6548
次第	-10.6569
州安置	-10.6572
所請	-10.6574
自陳	-10.6574
成公	-10.6584
後人	-10.6586
樞密	-10.6589
晉楚	-10.6597
不幸	-10.6603
控	-10.6605
閹	-10.6606
楷	-10.6607
和好	-10.6607
諒祚	-10.6608
匈奴	-10.661
欲殺	-10.6611
梁燾	-10.6611
匪	-10.6611
扣	-10.6612
祇	-10.6612
鏞	-10.6612
釣	-10.6615
嬪	-10.6616
瓚	-10.6617
杭州	-10.6618
為考試官取中	-10.6618
慙	-10.6618
駮	-10.6619
宰執	-10.6619
譯	-10.6619
別	-10.6619
法令	-10.662
綵幣二表裏	-10.6621
賁	-10.6621
棗	-10.6622
穣侯	-10.6622
膏	-10.6623
藺	-10.6624
盼	-10.6628
愛之	-10.663
亘	-10.663
下章	-10.663
從子	-10.6633
韓珉	-10.6642
王見	-10.6648
合格	-10.665
次日	-10.6654
都給事中	-10.6655
太子少傅	-10.6657
治平	-10.6658
恐非	-10.6663
九年任	-10.6666
為公	-10.6667
伏乞	-10.6672
曰諾	-10.6685
不悦	-10.6689
公論	-10.6689
不法	-10.6694
江東	-10.6697
嘗為	-10.6698
以濟	-10.6701
不絶	-10.6702
府知府	-10.6707
庶吉士	-10.6713
臣雖	-10.6713
燕京	-10.6718
侍講學士	-10.6721
萬物	-10.6726
安陸	-10.6727
宋主	-10.673
處分	-10.6737
右侍	-10.674
文定	-10.6743
人由鄉舉	-10.6743
精兵	-10.6746
元在	-10.6748
經史	-10.6762
所屬	-10.6764
從前	-10.6774
左氏	-10.6777
并州	-10.6794
臣之所	-10.6795
揮	-10.6795
江夏	-10.6798
剪	-10.68
中間	-10.6806
靳	-10.6813
門下侍郎	-10.6813
吝	-10.6814
唐氏仲友曰	-10.6815
稼	-10.6815
吕惠卿	-10.6816
曷	-10.6816
副總兵	-10.6816
瓘	-10.6816
弄	-10.6817
鏡	-10.6817
降詔	-10.6818
穰	-10.6819
綵幣一表裏	-10.6819
閩	-10.6819
飽	-10.6819
卦	-10.682
床	-10.6821
任讀學	-10.6822
靖難兵	-10.6823
冷	-10.6823
騐	-10.6823
救韓	-10.6824
吏部侍郎	-10.6824
萬户	-10.6824
芮	-10.6826
慝	-10.6826
男女	-10.6827
甘肅	-10.6827
艱難	-10.6827
改正	-10.6827
西山	-10.6828
右侍郎	-10.6839
鄉里	-10.6843
三十四年	-10.6847
武功	-10.6847
臨淄	-10.6849
必危	-10.6849
宫室	-10.685
過矣	-10.6851
說苑	-10.6852
安民	-10.6853
之北	-10.6855
聊城	-10.6855
兖州	-10.6859
必敗	-10.686
㕘將	-10.6867
爾雅	-10.6868
事宜	-10.6871
徐達	-10.6875
乃得	-10.6876
之號	-10.6879
莊宗	-10.6885
荆南	-10.6887
侯伯	-10.6889
生員	-10.689
之風	-10.6895
永樂中	-10.69
光曰	-10.6906
自有	-10.6906
承天	-10.6907
奉使	-10.6917
補音徒	-10.6919
所聞	-10.6928
閣下	-10.6941
七年任右	-10.6946
是何	-10.6946
射之	-10.6946
白起	-10.6953
其一	-10.6955
史同	-10.696
之利也	-10.6982
用此	-10.6983
為陛下	-10.6983
恐其	-10.699
諍	-10.6991
可行	-10.6994
當今	-10.7001
有異	-10.7002
武遂	-10.7009
注云	-10.7012
必得	-10.7013
同日	-10.7013
以次	-10.7014
憾	-10.7016
百餘人	-10.7017
𨼆	-10.7018
一章	-10.7019
喀	-10.7019
諳	-10.7019
頻	-10.702
名曰	-10.7021
劇	-10.7022
抄	-10.7022
拿	-10.7022
縦	-10.7023
泊	-10.7024
瀛	-10.7024
衣服	-10.7027
疵	-10.7027
愁	-10.7028
鈎	-10.7028
儻	-10.7028
裘	-10.7029
隕	-10.703
㩀	-10.7031
戌	-10.7031
訾	-10.7031
𬒳	-10.7032
直𨽻華亭人	-10.7032
惕	-10.7032
陳留	-10.7035
左僕射	-10.7036
閣門	-10.7037
嘉祐	-10.7038
紀綱	-10.7039
南京禮部尚書	-10.7039
嗣薨夀四十	-10.7039
小臣	-10.7042
弟兄	-10.7042
守城	-10.7044
司馬喜	-10.7045
其年	-10.7047
巴延	-10.7047
蔡京	-10.705
可汗	-10.705
都部署	-10.7051
樞密使	-10.7051
文章	-10.7058
百年	-10.7061
伏誅	-10.7062
者乃	-10.7063
或云	-10.7064
從而	-10.7066
建議	-10.7067
百七十	-10.707
薦舉	-10.7072
最後	-10.7082
諡文	-10.7084
孝陵	-10.7084
因言	-10.7086
再三	-10.7088
儒士	-10.7089
副將軍	-10.7095
地缺	-10.7099
幽州	-10.71
疑其	-10.7102
三十五	-10.7112
上柱國	-10.7119
肅王	-10.7124
可用	-10.7129
復用	-10.7137
大義	-10.714
補音才	-10.7145
㑹元	-10.7146
可以為	-10.7147
弟子	-10.7159
若何	-10.7161
嗣位	-10.7163
進兵	-10.7164
兩省	-10.7169
黄河	-10.7174
二千石	-10.7176
威武	-10.7177
考試	-10.718
馬軍	-10.7187
以救	-10.719
楚必	-10.7194
攷之	-10.7201
安國	-10.7204
三疋	-10.7208
楚韓	-10.7209
願大王	-10.7209
欣	-10.7219
與焉	-10.7219
染	-10.7223
報反	-10.7227
罹	-10.723
僇	-10.7231
摇	-10.7232
髮	-10.7233
燧	-10.7233
濓	-10.7234
皷	-10.7234
鄭州	-10.7234
无	-10.7234
周室	-10.7235
故地	-10.7236
申時行	-10.7237
板	-10.7237
總旗	-10.7238
藍田	-10.7239
偪	-10.724
狎	-10.7241
骨肉	-10.7241
廿	-10.7242
覬	-10.7243
摧	-10.7243
闢	-10.7243
齊必	-10.7246
聖人之	-10.7246
洪武初年	-10.7246
㨗	-10.7246
中書侍郎	-10.7246
謫戍	-10.7247
洋	-10.7248
淄	-10.7248
狥	-10.7249
以全	-10.7249
閤門	-10.7249
姒	-10.725
譲	-10.725
璉	-10.7254
正統十四年	-10.7254
剌	-10.7256
補音力	-10.726
官屬	-10.7265
水出	-10.7268
計議	-10.7271
上帝	-10.7273
奏聞	-10.728
固有	-10.7282
安平君	-10.7283
遇春	-10.7285
洪熈元年	-10.7288
在後	-10.7292
繼恩	-10.7292
樂毅	-10.7298
其數	-10.73
朱子	-10.7304
李賢	-10.7306
甚多	-10.7312
大體	-10.7315
天地之	-10.7316
史館	-10.7318
官職	-10.7324
者盖	-10.7326
以廣	-10.733
王孫	-10.7333
十斤	-10.7336
社稷之	-10.7338
以為然	-10.7344
何益	-10.7345
見内閣	-10.7364
君其	-10.7366
而行之	-10.7367
兩府	-10.7369
不須	-10.7377
㐮王	-10.738
未定	-10.7381
今若	-10.7382
其上	-10.7385
南有	-10.7387
甚厚	-10.7392
張氏	-10.7394
治亂	-10.74
殺人	-10.7401
不立	-10.7409
各賜	-10.7422
皆在	-10.7425
畋	-10.743
改封	-10.7433
磬	-10.744
訕	-10.7441
州防禦使	-10.7441
竝	-10.7442
公族	-10.7443
堯佐	-10.7443
懦	-10.7443
貼	-10.7446
兎	-10.7447
而走	-10.7447
憑	-10.7449
訓導	-10.745
綽	-10.745
之要	-10.745
鷹	-10.7451
敘	-10.7451
鎧	-10.7453
佚	-10.7454
治道	-10.7454
翺	-10.7454
北漢主	-10.7455
亞	-10.7457
枷	-10.7457
馭	-10.7459
陽城	-10.746
柯	-10.7461
仍兼任	-10.7462
都察院右副都御史	-10.7465
斶	-10.7466
第六子	-10.7468
君王后	-10.7471
非獨	-10.7472
千五百石	-10.7472
一體	-10.7474
麒麟	-10.7475
涿州	-10.7476
補曰當	-10.7476
女子	-10.7477
劉健	-10.7478
號為	-10.7479
䢉	-10.7481
弟姪	-10.7481
桓子	-10.7488
獻書	-10.7489
盡忠	-10.749
兼太子太師	-10.749
孺子	-10.7491
舉人才	-10.7491
四十八	-10.7491
貢院	-10.7494
覆試	-10.7496
土兵	-10.7498
以死	-10.75
咸平	-10.75
所殺	-10.7503
必須	-10.7509
班師	-10.7513
便殿	-10.7521
按通鑑	-10.7523
保全	-10.7525
次年	-10.7532
楊榮	-10.7543
即此	-10.7552
示天下	-10.756
康子	-10.7563
成侯	-10.7565
稱王	-10.7568
予之	-10.757
功徳	-10.7572
劉文	-10.7581
景徳	-10.7582
使副	-10.7586
何必	-10.7591
韓必	-10.7594
主上	-10.7595
何謂	-10.7596
中書令	-10.76
乞罷	-10.7602
王曰善乃	-10.7605
亦作	-10.7618
山陵	-10.7622
生擒	-10.7629
太子少師	-10.7636
數百人	-10.7643
東海	-10.7649
右布政使	-10.765
等奏	-10.7652
北有	-10.7654
千六百	-10.7655
斧	-10.766
不逺	-10.7662
三十八	-10.7662
土官	-10.7662
賽	-10.7663
司農	-10.7664
而聽	-10.7667
晉人	-10.7668
萬緡	-10.7668
淳于髠	-10.7669
韜	-10.767
内傳	-10.767
苖	-10.7671
琛	-10.7671
貲	-10.7672
晁	-10.7674
嗇	-10.7674
違者	-10.7675
馴	-10.7675
聶	-10.7676
癸夘	-10.7677
瞽	-10.7677
眩	-10.7678
綵幣表裏	-10.7678
索隱	-10.7678
第四子	-10.7679
繹	-10.7681
黷	-10.7681
沆	-10.7681
沿邊	-10.7681
厨	-10.7682
張方平	-10.7684
顥	-10.7684
銑	-10.7684
霜	-10.7685
擯	-10.7685
俠	-10.7686
年任掌院事	-10.7686
袖	-10.7686
錮	-10.7688
囉	-10.7688
東厰	-10.7692
春坊	-10.7693
文武官	-10.7694
徐階	-10.7694
大司馬	-10.7695
平章政事	-10.7696
休息	-10.7697
奉聖㫖	-10.7697
則天下	-10.7703
曲沃	-10.7704
重兵	-10.7707
勤勞	-10.7711
一級	-10.7714
七十餘	-10.7722
三路	-10.7724
科舉	-10.7725
萬兩	-10.7727
而不敢	-10.7729
安陵君	-10.7731
僧道	-10.7734
建昌	-10.7735
不動	-10.7739
官校	-10.774
來降	-10.7741
子莊	-10.7752
幸而	-10.7754
左副都御史	-10.7756
號曰	-10.7759
辭曰	-10.776
景帝	-10.7762
不殺	-10.7763
宫人	-10.7767
互相	-10.7769
必亡	-10.7778
當是時	-10.7779
千石	-10.7779
千戸	-10.7781
正曰史	-10.7782
補音于	-10.7782
因令	-10.7788
賢良	-10.7792
長吏	-10.7793
猶有	-10.7802
周王	-10.7806
上即位	-10.7818
後改	-10.782
一道	-10.7824
衛指揮	-10.7827
肖	-10.7829
即令	-10.7831
謂齊王	-10.7833
師相	-10.7833
曰吾聞	-10.7845
前往	-10.7853
興兵	-10.7854
五疋	-10.7856
十表裏	-10.7874
所獲	-10.7876
之樂	-10.7879
說之	-10.7881
地名	-10.7882
重矣	-10.7882
田文	-10.7887
槐	-10.7888
土伯特	-10.7888
販	-10.7892
程頤	-10.7894
戯	-10.7895
覘	-10.7896
左丞	-10.7902
瑗	-10.7902
悛	-10.7902
緡	-10.7902
太僕寺	-10.7903
翰林院侍讀	-10.7905
六品	-10.7908
織造	-10.7908
謂楚王	-10.7909
仆	-10.7909
都察院右都御史	-10.7909
篆	-10.7911
㳙	-10.7911
版	-10.7911
主順天試命	-10.7912
水旱	-10.7913
狄青	-10.7913
譖	-10.7913
太后曰	-10.7914
河西	-10.7914
承乾	-10.7915
以疾	-10.7917
首尾	-10.7917
姚賈	-10.7918
旂	-10.792
見前隆慶	-10.7921
敗績	-10.7924
文信侯	-10.7925
許諾	-10.7925
驪姬	-10.7925
文綺帛	-10.7927
三十九年	-10.7929
祭祀	-10.7929
叔父	-10.7929
十八日	-10.793
以禮書	-10.7935
不韋	-10.7938
根本	-10.7938
昆弟	-10.7939
員外	-10.7947
見任	-10.7948
後漢	-10.7949
太廟	-10.7951
土木	-10.7952
教習	-10.7954
孝宗	-10.7955
劉作	-10.7956
子期	-10.7964
傳言	-10.7974
寧府	-10.7982
鴻臚寺	-10.7984
陳公	-10.7984
願得	-10.799
王旦	-10.7995
因請	-10.8004
任講學	-10.8006
疑衍	-10.8007
師傅	-10.8012
上親	-10.8012
極言	-10.8019
子胥	-10.8023
給與	-10.8025
劉向	-10.8028
無疑	-10.8029
四十五	-10.8036
北朝	-10.8043
城寨	-10.8045
凡六	-10.8053
何可	-10.8063
一本無	-10.8064
歎曰	-10.8068
築城	-10.8071
復置	-10.8078
嘉靖初	-10.8081
斯言	-10.8084
九卿	-10.8084
嚴公	-10.8106
飲酒	-10.8114
一朝	-10.8116
堯舜之	-10.8118
論之	-10.8119
周官	-10.8122
毫	-10.8122
美人	-10.8125
旺	-10.8127
必先	-10.8129
璁	-10.8129
媚	-10.8131
擲	-10.8131
帽	-10.8131
麓川	-10.8134
大中祥符	-10.8135
希範	-10.8135
頂	-10.8135
鬱	-10.8136
尅	-10.8136
白馬	-10.8137
帑	-10.8137
倪	-10.8137
瀆	-10.8137
猝	-10.8138
同姓	-10.8139
癸卯	-10.8139
怯	-10.8139
兵部右侍郎	-10.8139
𤼵	-10.814
夏言	-10.8141
遣中使	-10.8141
礪	-10.8142
藴	-10.8143
綵幣四表裏	-10.8143
燈	-10.8144
尚未	-10.8147
直𨽻長洲人	-10.8149
慧	-10.8149
常遇春	-10.815
隧	-10.8151
並為	-10.8153
蠻夷	-10.8155
黔國公	-10.8155
王越	-10.8157
總裁	-10.8158
足矣	-10.8159
約束	-10.8164
㑹稽	-10.8164
順天府	-10.8165
尋以	-10.8166
一家	-10.8166
安可	-10.8167
建隆	-10.8168
紹興	-10.8168
繼隆	-10.8171
蔡澤	-10.8172
出戰	-10.8173
進用	-10.8176
安撫使	-10.8176
掌院	-10.8176
縣人由進士	-10.8177
竟不	-10.8182
四年任右	-10.8185
萬石	-10.8185
侍衛	-10.8187
少主	-10.8192
禍亂	-10.8198
不納	-10.8198
人言	-10.8199
商人	-10.82
嘉靖元年	-10.8202
兩制	-10.8206
同心	-10.8206
士民	-10.8206
存者	-10.8211
以歸	-10.8217
贈太師	-10.8221
過失	-10.8222
京東	-10.8222
江隂	-10.8227
代王	-10.8233
文書	-10.8235
西戎	-10.8235
入内閣	-10.8237
李時	-10.8242
見在	-10.8244
不逮	-10.8245
堅守	-10.825
二反	-10.8252
吕反	-10.8256
求救	-10.8258
宫保	-10.8272
明白	-10.8277
兩朝	-10.8282
天意	-10.829
君子之	-10.8291
上曰朕	-10.8291
大理	-10.8292
正曰大事記	-10.8293
召還	-10.83
軍節度使	-10.8304
大衆	-10.8305
彼此	-10.8309
襄城	-10.8318
於諸侯	-10.832
部署	-10.8322
不意	-10.8325
如舊	-10.8331
憲王	-10.8335
絹二疋	-10.8336
亦當	-10.8336
永興	-10.8344
光武	-10.835
復命	-10.8353
燾	-10.8359
髙陽	-10.8365
穆公	-10.8365
猜	-10.8365
由進士三年任右	-10.8366
瑟	-10.8367
按察副使	-10.8368
努	-10.8368
臻	-10.8368
駝	-10.8369
顛	-10.8371
聖徳	-10.8373
戢	-10.8374
忻	-10.8374
何得	-10.8375
三晉之	-10.8376
袒	-10.8376
邠	-10.8376
壺	-10.8376
檀	-10.8376
𤓰	-10.8377
塟	-10.8377
扇	-10.8378
繋	-10.8378
拆	-10.8379
詘	-10.8379
譛	-10.838
館閣	-10.838
珣	-10.8381
通政使	-10.8381
皆為	-10.8382
諺	-10.8382
墻	-10.8383
攸	-10.8383
嚴嵩	-10.8384
商賈	-10.8384
洵	-10.8387
庶㡬	-10.8389
淳化	-10.8389
驪	-10.8391
王聰	-10.8393
魯君	-10.8397
嫡長子	-10.8398
本年轉左	-10.8401
遁去	-10.8406
布一疋	-10.8406
恭靖	-10.841
盡力	-10.8417
鎮江	-10.8417
此臣之所	-10.8421
盛事	-10.8422
罷兵	-10.8424
河州	-10.8424
近侍	-10.8427
布二疋	-10.8429
兼翰林院學士	-10.843
英國公	-10.8435
中書門下	-10.8435
監丞	-10.8452
洪武三十五年	-10.8458
真人	-10.8464
永嘉	-10.847
分守	-10.8472
破賊	-10.8475
破燕	-10.8478
尤甚	-10.8478
千斤	-10.8481
固守	-10.8482
論列	-10.8485
千金	-10.8487
熈河	-10.8494
嗣薨夀	-10.8507
悼公	-10.8507
攻中山	-10.852
親信	-10.8527
永樂初	-10.8527
韓䇿	-10.853
行狀	-10.8535
一本作	-10.8536
東陽	-10.8537
中行	-10.8543
文安	-10.8543
五百石	-10.8546
章疏	-10.8546
南朝	-10.8547
謂之曰	-10.8564
朝政	-10.8564
黄帝	-10.8572
太監張永	-10.8575
西人	-10.8575
字子	-10.8579
近者	-10.8581
燕䇿	-10.8582
太子少保兵部尚書	-10.8592
已下	-10.8596
千萬	-10.8596
江寧	-10.8599
周紀	-10.8599
此數	-10.86
嗣薨壽四十	-10.86
泥	-10.8604
潼	-10.8605
兇	-10.8607
以太子少保	-10.8608
昉	-10.8609
倖	-10.861
琪	-10.8611
讜	-10.8612
囿	-10.8613
浹	-10.8614
評	-10.8614
玘	-10.8614
區區	-10.8617
鎛	-10.8617
夔	-10.8618
矧	-10.8618
泛	-10.8619
巴圖魯	-10.8619
看詳	-10.8619
巢穴	-10.8619
蘓軾	-10.8621
菜	-10.8622
霄	-10.8622
槖	-10.8623
州居住	-10.8624
國子生	-10.8624
景泰元年	-10.8624
宵	-10.8625
亥	-10.8626
楊士竒	-10.8628
費宏	-10.8628
殃	-10.8628
藻	-10.8629
畆	-10.863
郄	-10.863
個	-10.8633
狃	-10.8633
墨子	-10.8635
招討	-10.8635
熙寧	-10.8635
隐	-10.8636
先鋒	-10.8636
兠	-10.8637
汪直	-10.8637
好生	-10.8638
秦昭王	-10.864
三十四	-10.864
㡬瑟	-10.8641
定逺	-10.8644
不解	-10.8645
常山	-10.8647
亦云	-10.8649
謂周君曰	-10.8653
恵卿	-10.8657
屯兵	-10.8659
英廟	-10.8666
反下注	-10.8668
魯連	-10.8674
陽侯	-10.8675
欽若	-10.8682
力士	-10.8685
愚按太宗	-10.8685
興化	-10.8694
食邑	-10.8697
陞任	-10.8698
𢎞治中	-10.87
以俟	-10.8701
威福	-10.8704
韓府	-10.8704
諸生	-10.8716
危亡	-10.8718
皇考	-10.8718
劉吉	-10.8718
切責	-10.872
十四年任右	-10.872
察其	-10.8728
無厭	-10.8729
宇文	-10.8732
兩京	-10.8732
制科	-10.8733
右都	-10.8733
丹陽	-10.8734
嶺南	-10.8734
靖逺	-10.8737
改吏部	-10.874
三年任右	-10.8741
哈喇	-10.8741
襲封	-10.8744
劉公	-10.8747
文貞	-10.8754
忠孝	-10.8755
之妻	-10.8758
市馬	-10.8761
萬疋	-10.8764
之盟	-10.8768
異日	-10.8773
守仁	-10.8777
始終	-10.8787
闕下	-10.8807
自殺	-10.881
數十人	-10.882
學士院	-10.8823
之路	-10.8826
至京師	-10.8826
年四十	-10.8827
曰不然	-10.8829
仁義之	-10.8832
三嵗	-10.8833
而用之	-10.8833
涿	-10.8835
封爵	-10.8837
恩禮	-10.8843
禁軍	-10.8846
不滿	-10.8847
知諫院	-10.8855
駐蹕	-10.8856
誤國	-10.8856
罪惡	-10.8857
力戰	-10.8857
蝗	-10.8857
觀察使	-10.8858
孫子	-10.8859
着	-10.8861
譜	-10.8861
涕	-10.8862
惰	-10.8864
氷	-10.8866
秘閣	-10.8867
弋	-10.8867
碎	-10.8868
聿	-10.8868
平定	-10.8868
雕	-10.8868
黽	-10.8869
太常博士	-10.887
陟	-10.887
丁卯	-10.8871
酷	-10.8871
工部侍郎	-10.8871
岩	-10.8871
工部右侍郎	-10.8872
朞	-10.8873
無恙	-10.8873
磨勘	-10.8873
鬪	-10.8873
棺	-10.8874
奉國將軍	-10.8874
鄖	-10.8875
両	-10.8876
茲	-10.8876
穎	-10.8876
毗	-10.8877
江西豐城人	-10.8877
十九日	-10.8877
轉運司	-10.8877
㨿	-10.8877
夏原吉	-10.8878
陂	-10.8879
小心畏忌	-10.888
竈	-10.888
浙江鄞縣人	-10.8881
西厰	-10.8881
僑	-10.8882
不可知	-10.8882
隰	-10.8883
太常寺卿	-10.8884
四十六	-10.8884
渤海	-10.8885
雝	-10.8885
故有是命	-10.8886
馬匹	-10.8887
都指揮同知	-10.8888
南京工部尚書	-10.8888
都指揮僉事	-10.8889
宣慰使	-10.8896
丈反	-10.89
黄鍾	-10.8905
兩浙	-10.8906
登極	-10.8911
王瞻	-10.8915
封疆	-10.8919
陣亡	-10.8919
方今	-10.892
辯士	-10.8921
安慶	-10.8922
韓絳	-10.8924
舟師	-10.8929
合於秦	-10.893
正徳中	-10.8934
三十一	-10.8941
王嗣在位	-10.8942
其禍	-10.8947
為大王	-10.8949
開國	-10.8951
戰不勝	-10.896
補音呼	-10.8961
至於此	-10.8962
上御	-10.8975
諫曰	-10.8987
燕昭王	-10.8996
給事	-10.8997
時政	-10.8998
吏侍	-10.9001
度支	-10.9007
忠良	-10.9019
來歸	-10.9027
下衍	-10.9032
科道	-10.9036
道徳	-10.904
意欲	-10.9047
衛指揮使	-10.905
相攻	-10.9063
萬乗之	-10.9064
聖心	-10.9066
一清	-10.9074
方平	-10.9079
兩宫	-10.9082
官爵	-10.9089
卨	-10.9098
麾	-10.9098
無遺	-10.91
守成	-10.91
任本年致仕	-10.9101
抃	-10.9105
姚本作	-10.9112
醴	-10.9114
諮	-10.9115
御筆	-10.9116
顒	-10.9116
濶	-10.9117
丑	-10.9118
可考	-10.9118
己夘	-10.9118
豉	-10.912
覧	-10.9121
靴	-10.9122
國子祭酒	-10.9123
参	-10.9123
幟	-10.9124
疊	-10.9124
灼	-10.9125
劣	-10.9125
枚	-10.9126
范蠡	-10.9126
鈔百錠	-10.9127
桀紂	-10.9127
胸	-10.9127
甌	-10.9127
左布政使	-10.9127
拓	-10.9129
創業	-10.9129
犧	-10.9129
吏部右侍郎	-10.9129
宣慰	-10.913
芝	-10.913
憫	-10.913
譁	-10.913
軻	-10.9131
瑕	-10.9132
枕	-10.9132
牆	-10.9133
州團練使	-10.9133
耨	-10.9133
鋹	-10.9133
奄	-10.9134
膚	-10.9134
濵	-10.9135
少保太子太保	-10.9135
白金二百兩	-10.9136
有缺文	-10.9136
刄	-10.9136
月初四日	-10.9137
供奉官	-10.9138
朂	-10.9138
翰林院侍講	-10.9138
補音許	-10.914
賔客	-10.914
鄢郢	-10.914
科道官	-10.9141
助之	-10.9142
自此始	-10.9142
瓶	-10.9143
甄	-10.9143
提學	-10.9143
臨御	-10.9144
阨	-10.9144
首揆	-10.9145
鄒忌	-10.9146
小旗	-10.9146
考試官	-10.9146
緩急	-10.9147
俛	-10.9148
鯀	-10.9149
髙拱	-10.915
帝王之	-10.9158
稽首	-10.9165
貴妃	-10.9168
縣丞	-10.9169
黙然	-10.917
唐虞	-10.9175
詣闕	-10.918
建康	-10.9193
通作	-10.9199
御前	-10.9204
言語	-10.9205
蘇氏	-10.9205
十分	-10.9206
所愛	-10.9206
于謙	-10.9219
百二十	-10.9221
責其	-10.9221
五百兩	-10.9223
未免	-10.9233
今陛下	-10.9237
文襄	-10.9241
夷吾	-10.9248
四面	-10.9249
補補曰	-10.9251
監門	-10.9257
永寧	-10.9258
萬乗	-10.9267
一時之	-10.9271
荆湖	-10.9271
幾何	-10.9274
四表裏	-10.928
大計	-10.9283
金陵	-10.9286
舉進士	-10.9287
府同知	-10.9297
聞命	-10.9306
三邊	-10.9309
知院	-10.9313
詔㫖	-10.9315
居民	-10.9318
欲乞	-10.9322
强國	-10.9332
執奏	-10.9333
試卷	-10.9333
聖賢	-10.9335
好惡	-10.9336
劄	-10.9352
所致	-10.936
永平	-10.9363
都司	-10.9364
此意	-10.9366
鈔二十錠	-10.937
擇其	-10.9372
嗣進	-10.9374
塘	-10.9375
亮反	-10.9376
瀋	-10.9379
侃	-10.9379
誌	-10.938
繞	-10.938
系	-10.938
饌	-10.938
戶	-10.9381
所貴	-10.9382
貿	-10.9382
豪傑	-10.9384
羗	-10.9385
王岩叟	-10.9386
䘏	-10.9386
夘	-10.9387
盍	-10.9388
峒	-10.9388
四十四	-10.9388
寐	-10.9389
武宗	-10.9389
大宋皇帝	-10.9389
薨壽六十	-10.9389
自取	-10.9391
未足	-10.9391
庾	-10.9393
揖	-10.9398
眀	-10.9399
闇	-10.94
冨	-10.94
漫	-10.94
曲阜	-10.9402
景祐	-10.9403
信陵君	-10.9403
盂	-10.9405
嶽	-10.9406
珠玉	-10.9407
際	-10.9407
廵撫	-10.9407
蹇義	-10.9408
盗賊	-10.9411
張丑	-10.9412
哲宗	-10.9413
月十五日	-10.9413
范鎮	-10.9414
絶齊	-10.9416
月初一日	-10.9417
如晦	-10.9417
禄米	-10.9418
一節	-10.942
前鋒	-10.9424
財物	-10.9431
正三品	-10.9435
禍福	-10.9436
被執	-10.9436
叔向	-10.9445
傳㫖	-10.9452
必死	-10.9453
朕意	-10.9453
三十七	-10.9458
視事	-10.9462
里充	-10.9466
左丞相	-10.947
彭城	-10.9475
詞賦	-10.9481
陳循	-10.9481
告急	-10.9486
二年正月	-10.9487
明經	-10.9491
立法	-10.9492
後起	-10.9492
内有	-10.9494
仍賜	-10.9494
十九年任	-10.9505
庻子	-10.9509
不虞	-10.9512
武昌	-10.952
求地	-10.953
光禄	-10.9531
洪武初	-10.9531
金帶	-10.9531
小民	-10.9546
西夏	-10.9559
賢君	-10.9565
餘級	-10.9568
處士	-10.9568
百戸	-10.9573
贈太傅	-10.958
息民	-10.9591
經制	-10.9592
掌詹事府	-10.961
東門	-10.9614
附㑹	-10.9615
比音	-10.9616
神明	-10.9622
左侍郎	-10.9625
幣帛	-10.9626
有隙	-10.9631
著書	-10.9636
額訥特珂克	-10.9639
沖	-10.9639
百斤	-10.9642
兊	-10.9643
文簡	-10.9646
夣	-10.9646
岱青	-10.9647
駿	-10.9648
太平興國	-10.9649
講學	-10.965
答曰	-10.9652
零	-10.9653
騏	-10.9654
郁	-10.9655
潁川	-10.9655
雀	-10.9655
右司諫	-10.9656
艘	-10.9656
兢	-10.9656
堂上官	-10.9656
知樞密院	-10.9657
倣	-10.9659
稟	-10.9659
幅	-10.9659
摘	-10.966
漠	-10.9661
驩	-10.9662
囑	-10.9662
拾遺	-10.9662
慿	-10.9663
咸淳	-10.9663
畏秦	-10.9666
諂	-10.9666
裳	-10.9666
䑕	-10.9667
刑罰	-10.9667
軹	-10.9667
侔	-10.9667
年以右副都御史任	-10.9668
𠡠	-10.9669
檜	-10.9669
戦	-10.967
遮	-10.9672
桐	-10.9673
珂	-10.9676
竿	-10.9678
汭	-10.9678
䕶送	-10.9679
丈夫	-10.968
洪武三年以	-10.9682
功業	-10.9689
陘山	-10.9691
左柱國	-10.9693
何哉	-10.9697
太皇太后曰	-10.9698
樞宻使	-10.9699
所鎮撫	-10.9699
韓侈	-10.9703
伯嬰	-10.9712
誥命	-10.9712
冝陽	-10.9714
他國	-10.9718
韓維	-10.9722
劉忠	-10.9723
異論	-10.9729
湯武	-10.9735
安仁	-10.9736
伯温	-10.9748
十四日	-10.975
曰先生	-10.9756
本年卒	-10.9756
每嵗	-10.9765
三十兩	-10.9769
也然則	-10.9776
假道	-10.9782
勛臣	-10.9791
五十疋	-10.9791
月十二日	-10.9798
六曹	-10.9811
賢才	-10.9814
四十餘	-10.9823
乗馬	-10.9833
第三子薨夀	-10.9836
終始	-10.9851
主考	-10.9871
建立	-10.9875
靈公	-10.9881
春申君曰	-10.9892
進賢	-10.9896
禮侍	-10.9905
令㫖	-10.9912
聖慈	-10.9916
汰	-10.9921
癸	-10.9924
所據	-10.9925
鴻台吉	-10.9928
卯	-10.993
杲	-10.9931
齊桓公	-10.9931
集賢院	-10.9931
甚明	-10.9933
撤	-10.9933
峽	-10.9934
帷	-10.9934
文淵閣	-10.9935
渙	-10.9936
䓁	-10.9937
辦事	-10.9937
縳	-10.9937
昶	-10.9937
蘆	-10.9938
脊	-10.9938
縊	-10.9938
姻	-10.9938
陸完	-10.9939
糞	-10.9939
提刑	-10.9939
馬文升	-10.994
宗廟社稷	-10.9941
賓客	-10.9941
光禄大夫	-10.9941
右僉都御史	-10.9941
户部侍郎	-10.9941
渥	-10.9941
詮	-10.9943
欺罔	-10.9943
廪	-10.9944
二十餘	-10.9944
耆老	-10.9944
轄	-10.9945
轂	-10.9945
鈔六十錠	-10.9947
軍法	-10.9947
邢丘	-10.9949
胡濙	-10.9949
𥙷曰姚云	-10.9949
榮祿大夫	-10.995
緡錢	-10.995
大理寺卿	-10.995
敵國	-10.995
光祿大夫	-10.9952
余靖	-10.9953
上尊諡曰	-10.9954
何由	-10.9955
削爵	-10.9958
萬厯元年	-10.9962
伊尹	-10.9963
隴西	-10.9966
入對	-10.9967
落職	-10.9967
讀卷	-10.9969
泰山	-10.9972
補曰正義云	-10.9978
奉祀	-10.9979
恩澤	-10.9984
王友	-10.9986
流爵	-10.9987
稱賀	-10.9987
文恪	-11
補曰韓	-11.0001
盡心	-11.0005
賈易	-11.0016
孔子曰	-11.002
興祖	-11.0023
修武	-11.0023
殿試	-11.0024
參軍	-11.0037
定襄	-11.004
魏徵	-11.0041
鄰國	-11.005
若干	-11.0055
洪武二年	-11.0068
止是	-11.007
太子太保禮部尚書	-11.0077
地界	-11.008
先遣	-11.0081
三十七年	-11.0082
南昌	-11.0091
李氏	-11.0095
宣帝	-11.0103
相承	-11.0104
太和	-11.0107
貴賤	-11.0114
賜宴	-11.0121
滄州	-11.0122
益州	-11.0126
山林	-11.0129
綵幣三表裏	-11.013
猶恐	-11.0131
萬二千	-11.0133
武進人	-11.0133
詔罷	-11.0135
司禮	-11.0136
鄧州	-11.014
樓子	-11.0146
九年任右	-11.0148
賈相	-11.015
聖政	-11.0154
朕心	-11.0155
王瓊	-11.0159
諸道	-11.0161
車馬	-11.0163
將何以	-11.0169
年八十	-11.0173
廣南	-11.0178
五十兩	-11.0184
兵備	-11.0194
楚國之	-11.0196
一百二十	-11.0199
四十里至	-11.02
其弊	-11.02
軍器	-11.0202
國體	-11.0203
亳	-11.0204
氊	-11.0205
技	-11.0208
第七子	-11.0212
崖	-11.0212
寰	-11.0212
第九	-11.0215
繪	-11.0217
牘	-11.0217
掘	-11.0218
捜	-11.0218
亾	-11.0219
吕恵卿	-11.0219
管勾	-11.022
墀	-11.0221
蠡	-11.0221
丒	-11.0222
愎	-11.0222
兕	-11.0223
鍳	-11.0224
總督軍務	-11.0224
巴圖	-11.0224
扼	-11.0224
卒年七十	-11.0225
冥	-11.0226
墾	-11.0226
吕誨	-11.0226
惻	-11.0226
中極殿	-11.0226
油	-11.0226
頸	-11.0227
我我	-11.0227
鈍	-11.0228
襄敏	-11.0228
揜	-11.0229
伯贈侯	-11.0229
蔣冕	-11.023
种	-11.023
噬	-11.0231
葺	-11.0231
兌	-11.0231
殛	-11.0231
江西吉水人	-11.0232
華蓋殿大學士	-11.0233
柏	-11.0234
歷	-11.0234
達喇	-11.0235
纍	-11.0235
玠	-11.0235
賞賜	-11.0236
索隠	-11.0236
體量	-11.0237
兼讀學	-11.0238
兵部侍郎	-11.0238
田需	-11.0242
郟	-11.0243
太倉	-11.0243
蘇厲	-11.0244
五十萬	-11.0246
正五品	-11.025
晉侯	-11.0252
哨馬	-11.0253
司寇	-11.0259
本或作	-11.0262
郊迎	-11.0265
錢糧	-11.0265
廟堂	-11.0267
武靈	-11.0268
公侯伯	-11.0278
王欽若	-11.028
正一品	-11.0284
趙奢	-11.0284
主㑹試	-11.0287
武靈王	-11.0288
成化三年	-11.0296
鞍馬	-11.0302
厲公	-11.0313
焚其	-11.0313
魏彬	-11.0313
前世	-11.0316
謁者	-11.0321
司馬光言	-11.0323
雲中	-11.0327
補曰史作	-11.033
變亂	-11.0331
童子	-11.0333
宗道	-11.0336
降附	-11.0341
都城	-11.0346
五囯	-11.035
不知何	-11.0355
召對	-11.036
七嵗	-11.0368
山陽	-11.037
不測	-11.037
滁州	-11.0387
分别	-11.0393
金玉	-11.0397
智氏	-11.0402
上疏言	-11.0403
臣切	-11.0408
潞州	-11.041
太行	-11.0416
留意	-11.0425
二囯	-11.0434
刑法	-11.0439
聖意	-11.0439
嘗君	-11.0441
衛人由進士	-11.0442
八千	-11.0442
坐法	-11.0444
不可考	-11.045
萬錠	-11.0454
四十二	-11.0457
濟南	-11.0464
太子太傅吏部尚書	-11.0464
五十六	-11.0471
不可得也	-11.0471
少保太子太傅	-11.0474
釐王	-11.0474
更張	-11.0484
丙	-11.0484
十五萬	-11.0487
伏惟	-11.0493
弼曰	-11.05
麒	-11.05
懌	-11.05
賑	-11.05
博羅特	-11.0505
脂	-11.0507
諛	-11.0508
壻	-11.0508
昂	-11.0508
縷	-11.0508
崇政殿	-11.0509
緯	-11.0509
鈔五十錠	-11.0511
珝	-11.0511
䛕	-11.0511
晝夜	-11.0511
軸	-11.0511
阿里庫	-11.0512
喧	-11.0513
魏國公徐	-11.0513
瑀	-11.0513
孥	-11.0514
岡	-11.0515
詔曰朕	-11.0515
軀	-11.0516
張四維	-11.0518
髙煦	-11.0518
錢塘	-11.0519
卵	-11.0519
躡	-11.0521
模	-11.0521
直𨽻濠州人	-11.0522
伏望陛下	-11.0523
葵	-11.0523
笏	-11.0523
釡	-11.0524
萃	-11.0524
湛	-11.0524
移文	-11.0525
墟	-11.0525
房杜	-11.0525
組	-11.0525
仲尼	-11.0526
竪	-11.0526
楮	-11.0527
啇	-11.0529
妹	-11.0529
推右未任	-11.0532
賜勅	-11.0532
梯	-11.0532
劫	-11.0534
江彬	-11.0535
南京刑部尚書	-11.0536
諸葛	-11.054
嫂	-11.0545
庶長子	-11.0547
損益	-11.0551
后稷	-11.0551
毛紀	-11.0552
王覿	-11.0552
伯宗	-11.0553
解題	-11.0555
王鏊	-11.0557
疾苦	-11.056
為都督同知	-11.056
封禪	-11.0561
司空馬	-11.0562
供職	-11.0563
三十里	-11.0569
可惜	-11.0569
高祖	-11.0575
養病	-11.0576
世衡	-11.0578
騎射	-11.0579
本年致仕	-11.0581
補音扶	-11.0587
補音如字	-11.0592
責授	-11.0596
交結	-11.0597
諸儒	-11.06
皇帝陛下	-11.0609
典刑	-11.061
太上皇	-11.0611
嵗月	-11.0614
鄉舉	-11.0618
詔自今	-11.0619
東川	-11.0628
和氣	-11.0633
覆奏	-11.0637
說秦王	-11.0645
尚存	-11.0659
軍旅	-11.0662
萬三千	-11.0669
濮王	-11.0671
字句	-11.0674
嗣薨夀三十	-11.0677
異姓	-11.0693
二年二月	-11.0718
帥臣	-11.072
是夜	-11.0721
嘉靖十八年	-11.0725
十三年任右	-11.0731
禮記	-11.0737
近代	-11.0737
副都御史	-11.075
本色	-11.0757
上曰卿	-11.0762
月初二日	-11.0766
乎對曰	-11.0773
名器	-11.0773
今差	-11.0775
武英殿學	-11.0777
洪熈	-11.0782
任掌院事	-11.0783
博郭爾濟	-11.0785
舊法	-11.079
何嘗	-11.0791
燦	-11.0797
儂	-11.0798
片	-11.0801
汚	-11.0804
皇城	-11.0804
博囉	-11.0806
禮部尚書文淵閣大學士	-11.0806
硃	-11.0809
茹	-11.081
擔	-11.0811
受封	-11.0811
沾	-11.0812
李善長	-11.0812
紛紛	-11.0813
凋	-11.0813
御用監	-11.0813
㦲	-11.0813
銖	-11.0815
揭	-11.0815
遑	-11.0815
壑	-11.0816
辛卯	-11.0817
繇	-11.0818
巍	-11.0818
李春芳	-11.0818
咱	-11.0818
紊	-11.0818
晏駕	-11.0819
縉紳	-11.0819
膽	-11.0819
摰	-11.082
拊	-11.082
姧	-11.082
噐	-11.082
惟演	-11.0821
净	-11.0821
龎	-11.0822
誑	-11.0822
貂	-11.0822
複	-11.0822
驂	-11.0823
邏	-11.0823
糧草	-11.0824
棲	-11.0824
刧	-11.0824
二年任左	-11.0824
几	-11.0825
弁	-11.0825
嘉靖二年	-11.0826
琥	-11.0826
鑰	-11.0827
殫	-11.0827
河南祥符人	-11.0827
笄	-11.0827
坂	-11.0827
正典刑	-11.0827
喝	-11.0827
嗣薨夀五十	-11.083
鄧愈	-11.083
括地志	-11.0831
絹一疋	-11.0831
夷狄	-11.0832
顓頊	-11.0833
車百乗	-11.0834
應天府	-11.0834
睹	-11.0834
馬步軍	-11.0835
彭澤	-11.0835
見秦䇿	-11.0835
成化二十三年	-11.0835
補音戶	-11.0836
歇	-11.0837
阿珠	-11.0838
終身不	-11.0838
闗中	-11.084
錡	-11.084
季興	-11.0843
寧陽	-11.0844
南京户部尚書	-11.0844
奸黨	-11.0849
布哈	-11.0851
等第	-11.0851
廬州	-11.0853
各一員	-11.0855
紹聖	-11.0855
頃襄	-11.0856
仲連	-11.0857
金吾	-11.0858
王祁	-11.0859
神機	-11.086
劉宇	-11.086
正二品	-11.087
不祥	-11.0884
匹夫	-11.0884
將軍印	-11.0885
貞觀初	-11.0888
凡八	-11.0901
永昌	-11.0905
上批	-11.0912
奉表	-11.0919
滅亡	-11.0923
文淵	-11.0929
貢士	-11.0931
說見前	-11.0932
萬厯十一年	-11.0933
將校	-11.0936
兩廣	-11.094
濟寧	-11.0941
泰和	-11.0944
五十年	-11.0946
變更	-11.0947
京營	-11.0949
蘇州	-11.0965
六年致仕	-11.0967
八十餘	-11.0969
七十六	-11.0973
上覽	-11.098
新鄭	-11.0983
姦臣	-11.1002
三百石	-11.1012
北門	-11.1017
公何不	-11.1032
而遣之	-11.1053
哈薩爾	-11.107
右㕘政	-11.1074
第六	-11.1091
逄	-11.1107
為右都督	-11.1111
王嵓叟	-11.1115
文靖	-11.1116
糓	-11.1116
派	-11.1118
筮	-11.1118
奈	-11.1119
森	-11.1121
泌	-11.1122
貞觀政要	-11.1123
蒯	-11.1124
滛	-11.1125
㤙	-11.1125
贇	-11.1125
皋	-11.1125
舊例	-11.1126
左司諫	-11.1128
剖	-11.1128
漂	-11.113
龍圗閣	-11.113
大理卿	-11.1131
徐有貞	-11.1131
埒	-11.1133
莘	-11.1133
㳂	-11.1134
四十錠	-11.1134
搜	-11.1135
姚註	-11.1135
拙	-11.1135
暢	-11.1135
英國公張輔	-11.1135
征北大將軍	-11.1136
脉	-11.1136
枳	-11.1137
再以少保兼	-11.1137
跳	-11.1138
知樞宻院事	-11.1138
寗	-11.1138
考烈王	-11.1139
寝	-11.1139
器械	-11.114
西河之外	-11.114
湣	-11.1142
有缺字	-11.1142
愬	-11.1142
渚	-11.1142
浙江鄞縣人由進士	-11.1142
籠	-11.1143
建極殿大學士	-11.1144
帶俸	-11.1144
河朔	-11.1145
禹湯	-11.1145
愼	-11.1146
河北河東	-11.1148
杼	-11.1148
謂齊王曰	-11.1149
僵	-11.115
輔導	-11.1151
儁	-11.1152
孝孺	-11.1152
欣然	-11.1153
鴆	-11.1154
澠	-11.1154
貞觀二年	-11.1156
郭勛	-11.1156
銀絹	-11.1157
蒐	-11.1158
初七日	-11.1161
逮問	-11.1161
大夫種	-11.1164
直抵	-11.1168
順義	-11.1174
左右侍郎	-11.118
喜怒	-11.1182
如之何	-11.1182
北狄	-11.1183
犬馬	-11.1184
家屬	-11.1187
勿復	-11.1196
城郭	-11.1197
増置	-11.1197
第四子薨夀	-11.1198
水洛	-11.1199
希忠	-11.1204
質於齊	-11.1205
夫婦	-11.1206
漕運	-11.1207
王守仁	-11.1207
凡七	-11.1208
昌平	-11.1209
三年任左	-11.121
累遷	-11.121
月十七日	-11.1211
勝負	-11.1211
第二子薨夀	-11.1216
陞賞	-11.1219
三十疋	-11.1221
登第	-11.1224
新昌	-11.1227
咸陽	-11.1234
可知矣	-11.1236
成化二年	-11.1249
者甚衆	-11.1268
安敢	-11.1294
入貢	-11.13
取㫖	-11.1311
委任	-11.1322
廣寧	-11.1323
鴻臚	-11.1324
反通作	-11.1328
五年任右	-11.1359
三孤	-11.1369
好學	-11.1395
誠信	-11.1398
承平	-11.1412
兵部尚書兼	-11.142
帥師	-11.1423
貴朝	-11.1425
岊	-11.1426
穆宗	-11.1428
縝	-11.143
七十二	-11.144
祕	-11.144
聨	-11.1441
企	-11.1441
上謂輔臣曰	-11.1442
都虞侯	-11.1443
揀	-11.1444
殞	-11.1444
達爾罕	-11.1444
榻	-11.1444
孟甞	-11.1445
由舉人	-11.1446
嗣薨壽五十	-11.1447
墓誌	-11.1447
垂簾	-11.1448
大理寺丞	-11.1449
友諒	-11.1449
顧鼎臣	-11.1449
鏐	-11.1449
愿	-11.1449
烟	-11.1451
樞密直學士	-11.1452
演	-11.1452
鎮撫司	-11.1453
左正言	-11.1453
昺	-11.1453
迴	-11.1453
挟	-11.1453
宋彭百川撰	-11.1454
砲	-11.1454
翟鑾	-11.1455
瘡	-11.1456
廡	-11.1456
苐	-11.1456
孜	-11.1456
殄	-11.1457
肝	-11.1457
懾	-11.1458
鉅鹿	-11.1458
闗防	-11.1459
曹彬	-11.1459
棨	-11.1459
邯	-11.1459
由進士元年任右	-11.146
悰	-11.146
㸃檢	-11.146
納欵	-11.1462
穢	-11.1462
沿途	-11.1463
全斌	-11.1463
臘	-11.1463
直𨽻定逺人	-11.1464
邇英	-11.1464
西域	-11.1465
雉	-11.1465
白金三百兩	-11.1466
供奉	-11.1466
芉	-11.1468
簽書	-11.147
上封事	-11.1471
賞賚	-11.1472
酋長	-11.1474
孝成王	-11.1474
史不書	-11.1474
以城降	-11.1475
戎狄	-11.1476
初六日	-11.1476
正六品	-11.1477
十六年任右	-11.1478
月初三日	-11.1482
月十三日	-11.1485
天禧	-11.1485
風雨	-11.1487
嘆曰	-11.1488
令平聲	-11.1492
草澤	-11.1495
文泰	-11.1498
吳元年	-11.1504
反又音	-11.1505
加太傅	-11.151
周旋	-11.1511
百餘年	-11.1514
邊境	-11.1515
一百五十	-11.1521
䕶衛	-11.1524
襄陵	-11.1527
内官監	-11.1528
寺丞	-11.1529
太子少保吏部尚書	-11.153
謚曰	-11.1531
心腹	-11.1532
野史	-11.1535
頭功	-11.1536
竒功	-11.1539
選擇	-11.154
天下之士	-11.1547
禁止	-11.1548
文懿	-11.1548
忠勇	-11.1549
謝遷	-11.1559
興濟	-11.1559
二千五百	-11.1559
日久	-11.1562
邊患	-11.1565
之本也	-11.1565
募兵	-11.1566
嘉興	-11.1567
補音烏	-11.157
谷大用	-11.1572
繼宗	-11.1573
不軌	-11.1579
由進士七年任右	-11.1581
世祖	-11.1593
朝㫖	-11.1594
王曰諾	-11.1596
諸大臣	-11.1598
薨壽二十	-11.1599
右諫議大夫	-11.161
衣食	-11.1621
三尺	-11.1633
擢用	-11.1636
千乗	-11.1639
詔從之	-11.1645
開門	-11.1646
是歲	-11.1646
二百五十	-11.1661
兼侍講	-11.1661
御馬監	-11.1675
鈔四十錠	-11.168
正曰一本	-11.168
唐太宗	-11.1687
嬰子	-11.17
惜乎	-11.1714
髙昌	-11.1734
壬	-11.1756
右副將軍	-11.1757
襲衣	-11.1758
線	-11.1761
光祿寺	-11.1764
殪	-11.1764
巻	-11.1767
現	-11.1768
有是命	-11.1768
筵	-11.1768
嵗祿	-11.177
影	-11.1772
狹	-11.1775
胎	-11.1775
一本標	-11.1775
鎖	-11.1776
陶仲文	-11.1777
提㸃刑獄	-11.178
騾	-11.178
簽	-11.178
礼	-11.1781
以右都御史任	-11.1782
墨爾根	-11.1783
牀	-11.1783
皇子郎君	-11.1783
丸	-11.1784
綴	-11.1784
們	-11.1784
沸	-11.1785
范氏祖禹曰	-11.1785
蕪	-11.1785
僞	-11.1786
璣	-11.1786
捉	-11.1786
刑部右侍郎	-11.1786
皂	-11.1787
炊	-11.1789
釗	-11.1789
磐	-11.1789
呵	-11.1789
直史館	-11.179
猾	-11.179
謂侍臣曰	-11.179
佃	-11.179
成陽君	-11.1791
御製	-11.1791
粹	-11.1791
翰林侍讀學士	-11.1792
月初九日	-11.1792
保吉	-11.1793
迭	-11.1794
天下幸甚	-11.1795
亹	-11.1796
流涕	-11.1797
經營	-11.1797
魯仲連	-11.1797
顔色	-11.1797
浙江仁和人	-11.1799
靳貴	-11.18
翰林院修撰	-11.18
因事有功	-11.1801
趍	-11.1801
隗	-11.1802
賈侍中云	-11.1802
銀五十兩	-11.1804
魏文侯	-11.1804
剔成	-11.1805
啻	-11.1805
征南將軍	-11.1805
月初十日	-11.1806
襃	-11.1806
徐溥	-11.1807
江西進賢人	-11.1809
好和不争	-11.1809
句踐	-11.1809
滎陽	-11.1811
濡	-11.1811
四十九	-11.1812
夜半	-11.1816
惠文王	-11.1822
婦女	-11.1823
浙江餘姚人	-11.1823
形勢	-11.1825
閼與	-11.1826
朝歌	-11.1838
畏懼	-11.184
五十里	-11.1842
館職	-11.1849
賛善	-11.185
朝貢	-11.1862
由狀元	-11.1875
卒年五十	-11.1883
六萬	-11.1895
御試	-11.19
辦事官	-11.1901
先儒	-11.1907
潭州	-11.1909
御馬監太監	-11.191
景泰中	-11.1911
攻宜陽	-11.1927
夏貴	-11.1928
胡廣	-11.1938
策論	-11.194
存問	-11.1942
蒲州	-11.1946
數千人	-11.1962
再起	-11.1962
安豐	-11.1965
甚詳	-11.1988
父老	-11.1994
光禄寺	-11.2001
八十二	-11.2005
小異	-11.2011
撫寧	-11.2059
州知州	-11.208
竊聞	-11.2089
條例司	-11.2107
孜孜	-11.211
鐘磬	-11.2114
伶	-11.2117
認	-11.2117
俎	-11.2119
店	-11.2123
熾	-11.2123
搖	-11.2124
謐	-11.2126
内官監太監	-11.2126
璫	-11.2128
夏竦	-11.2128
吹	-11.2128
謟	-11.2128
爪	-11.2129
婚姻	-11.2129
旦夕	-11.213
核	-11.213
二年三月	-11.2131
楊文貞	-11.2131
培	-11.2131
讚	-11.2132
叩頭	-11.2132
劉摰	-11.2133
僥倖	-11.2133
媪	-11.2133
不倦	-11.2134
秀才	-11.2134
鹵	-11.2134
昱	-11.2134
樞密副使	-11.2134
拳	-11.2134
石珤	-11.2134
二百四十	-11.2134
瑋	-11.2135
祺	-11.2135
辛丒	-11.2135
鄗	-11.2136
頡利	-11.2136
干戈	-11.2137
榭	-11.2137
燮	-11.2137
稻	-11.2138
駑	-11.2138
緬	-11.2138
燿	-11.2138
陜西咸寧人	-11.2138
磔	-11.2139
揣	-11.2139
户部右侍郎	-11.2139
寡君	-11.2139
蓄積	-11.214
竑	-11.214
商輅	-11.214
瑯	-11.2141
鎗	-11.2141
起居舍人	-11.2141
毐	-11.2141
白金一百兩	-11.2142
徐廣云	-11.2143
佶	-11.2145
槍	-11.2146
瘠	-11.2146
行省㕘政	-11.2148
漢武帝	-11.2149
抜	-11.2149
謂趙王曰	-11.215
鈔一百錠	-11.215
潘美	-11.2155
正徳五年	-11.2158
唐雎	-11.2159
王翊	-11.216
韓非子	-11.2161
委質	-11.2165
同平章事	-11.2167
俱𢎞	-11.2167
少宰	-11.2168
正曰無考	-11.217
實錄	-11.2173
楊溥	-11.2174
矢石	-11.2175
懷敏	-11.2177
戎翟	-11.2177
鬼神	-11.218
歲次	-11.2191
黄淮	-11.2195
渭州	-11.2196
鳯陽	-11.2198
萬四千	-11.2199
金剛	-11.2202
助教	-11.2203
車騎	-11.2204
萬六千	-11.2204
手足	-11.2205
獨斷	-11.2206
太史公	-11.2207
急務	-11.2212
貝州	-11.2212
多寡	-11.2216
晉語	-11.2216
叔孫	-11.2228
教化	-11.223
討論	-11.2231
仁孝	-11.2232
一鵬	-11.2236
正千户	-11.2239
奏疏	-11.2243
致太平	-11.2245
士彬	-11.225
謝恩	-11.225
慈聖	-11.2253
郤至	-11.2259
因循	-11.2261
三年二月	-11.2264
雍門	-11.2275
補音户	-11.2288
存亡	-11.2302
瑪哈	-11.2311
桂陽	-11.2316
獲罪	-11.232
錦衣衛指揮	-11.2326
遙反	-11.233
永興軍	-11.2331
男子	-11.2351
宣徳元年	-11.2359
成化元年	-11.237
嘉靖六年	-11.2424
兼侍讀	-11.2429
綏州	-11.2433
加兼太子太傅	-11.2457
粲	-11.2459
擄	-11.247
徹辰洪台吉	-11.2472
第八子	-11.2472
嗣薨壽三十	-11.2474
即汗位	-11.2474
粒	-11.2475
逝	-11.2478
街	-11.2479
京朝官	-11.2481
團練	-11.2481
凍	-11.2483
傅堯俞	-11.2483
胡氏寅曰	-11.2483
譎	-11.2483
灌頂	-11.2483
卒年六十	-11.2484
臯陶	-11.2485
文淵閣學入	-11.2485
由進士十二年任右	-11.2485
酉	-11.2485
餞	-11.2485
南京守備	-11.2486
灝	-11.2486
工部左侍郎	-11.2487
猥	-11.2487
邳	-11.2487
綦	-11.2488
烹	-11.2488
輓	-11.2488
嵓	-11.2488
豁	-11.2489
樵	-11.2489
壕	-11.249
裁革	-11.249
球	-11.249
敇	-11.2491
骸	-11.2493
袁煒	-11.2493
金幼孜	-11.2493
達爾瑪	-11.2493
璿	-11.2493
暹	-11.2493
婁	-11.2494
憲章録	-11.2494
誇	-11.2495
態	-11.2496
襟	-11.2497
竦	-11.2497
器皿	-11.2497
戩	-11.2498
詎	-11.2498
提調	-11.2498
正七品	-11.2498
鈔三十錠	-11.2499
鏤	-11.2499
皃	-11.25
盜賊	-11.25
中書右丞相	-11.25
倭	-11.2501
餼	-11.2501
藍玉	-11.2503
羮	-11.2504
竣	-11.2505
上謂宰相曰	-11.2505
嘉靖甲辰進士	-11.2506
𢎞農	-11.2507
〇	-11.2508
奴婢	-11.2509
陞未任	-11.251
一千石	-11.2511
古字通	-11.2512
百三十	-11.2512
踰月	-11.2512
吕陶	-11.2515
由進士八年任右	-11.2516
左右丞	-11.2519
正四品	-11.252
秉常	-11.2521
擅權	-11.2523
噶爾	-11.2524
孫覺	-11.2525
内批	-11.2527
月二十一日	-11.2527
愛惜	-11.2531
九品	-11.2539
殺戮	-11.2543
户口	-11.2544
朝鮮	-11.2561
經略	-11.2561
倉卒	-11.2561
遷延	-11.2562
占城	-11.2565
被害	-11.2565
一百兩	-11.2565
安静	-11.2568
福建莆田人由進士	-11.2571
中牟	-11.2572
備禦	-11.2574
欒書	-11.2583
長乆	-11.2628
景泰二年	-11.2642
昭穆	-11.2643
四員	-11.2647
元年任左	-11.2672
諭之曰	-11.2699
鈔八十錠	-11.2744
四年二月	-11.2769
隆慶四年	-11.2775
䕃子	-11.2787
赴京	-11.2806
羨	-11.2832
叡	-11.2834
咒	-11.2839
頡	-11.284
䜟	-11.2841
峰	-11.2845
纛	-11.2847
恚	-11.2847
纎	-11.285
貎	-11.285
翻	-11.2851
怙	-11.2851
慘	-11.2852
寖	-11.2852
恠	-11.2852
綾	-11.2854
辝	-11.2854
搏	-11.2854
㤀	-11.2854
剰	-11.2855
埋	-11.2855
曼	-11.2855
躋	-11.2856
棊	-11.2857
汪廣洋	-11.2857
擠	-11.2857
稿	-11.2858
李清臣	-11.2858
集賢校理	-11.2858
毆	-11.2858
彗	-11.2858
畀	-11.2859
犂	-11.2859
瘴	-11.2859
瀾	-11.2859
婉	-11.286
燔	-11.286
杜赫	-11.286
廖永忠	-11.2861
攺	-11.2861
䜴	-11.2861
萬八千	-11.2862
白金五百兩	-11.2862
伏望聖慈	-11.2862
罄	-11.2862
響	-11.2862
媒	-11.2862
匏	-11.2862
煒	-11.2863
流内銓	-11.2865
烏舍	-11.2865
歆	-11.2865
种諤	-11.2865
跟	-11.2865
楨	-11.2865
靖康元年	-11.2866
范中行	-11.2866
悪	-11.2866
大金皇帝	-11.2866
己卯	-11.2867
成化丙戌	-11.2867
忤㫖	-11.2867
皓	-11.2867
延綏	-11.2867
義渠君	-11.2867
耄	-11.2868
柵	-11.2868
縉雲	-11.2869
少師太子太師吏部尚書	-11.2871
縠	-11.2871
安燾	-11.2872
嗣薨夀六十	-11.2872
動静	-11.2872
五國伐秦	-11.2873
棠	-11.2873
芒卯	-11.2873
莅	-11.2873
㑴	-11.2874
温柔賢善	-11.2874
斧鉞	-11.2874
彘	-11.2874
刑部郎中	-11.2874
探花	-11.2875
闘	-11.2875
辛垣衍	-11.2875
解縉	-11.2876
圍雍氏	-11.2876
在國逢難	-11.2876
亳州	-11.2877
湜	-11.2877
月二十五日	-11.2878
月初八日	-11.2882
納諌	-11.2882
太子少保禮部尚書	-11.2884
賦詩	-11.2885
鍪	-11.2886
禘	-11.2887
潁川侯	-11.2888
范睢	-11.2888
右副元帥	-11.2889
尊卑	-11.2898
一舉而	-11.29
閣老	-11.29
咸寧	-11.2902
遣行人	-11.2902
願王之	-11.2904
宦官	-11.2906
錢帛	-11.2915
補音它	-11.2925
踰年	-11.2936
征討	-11.2937
乾徳	-11.2938
糧食	-11.2945
雍氏	-11.2952
步軍	-11.2953
二百石	-11.297
各有差	-11.2977
環州	-11.2982
參議	-11.3005
邕州	-11.3006
營造	-11.3039
魯哀	-11.3063
正德元年	-11.3067
本年改	-11.3074
渡河	-11.3124
泗州	-11.3127
字姚同	-11.3132
之福也	-11.3133
酣	-11.3158
福建莆田人	-11.3191
㦤	-11.32
建文四年	-11.3208
正徳二年	-11.3215
仞	-11.3227
洪台吉	-11.323
拷	-11.3232
鄂爾多斯	-11.3234
徭	-11.3235
棣	-11.3236
綵幣八表裏	-11.3239
奢侈	-11.3239
翰林學士承㫖	-11.3239
詈	-11.3239
鴆反	-11.324
寥	-11.324
剽	-11.324
鱗	-11.324
延和殿	-11.3241
蹤	-11.3242
跋	-11.3242
夸	-11.3243
慄	-11.3243
棧	-11.3243
賈昌朝	-11.3243
頋	-11.3243
不可勝數	-11.3245
瞿	-11.3245
太醫院	-11.3245
慚	-11.3245
霞	-11.3246
蚌	-11.3246
袵	-11.3247
吕夷簡	-11.3247
七品	-11.3247
奕	-11.3247
窟	-11.3248
王錫爵	-11.3248
綵幣六表裏	-11.3248
涂	-11.3249
酸棗	-11.3249
商量	-11.3249
槃	-11.3249
芻粟	-11.3249
韓縝	-11.3249
蒿	-11.325
嘉靖乙未進士	-11.325
弓箭手	-11.325
蒋	-11.325
喉	-11.325
牡	-11.325
鹽鐵	-11.3251
卬	-11.3251
轡	-11.3252
袂	-11.3252
東閣大學士	-11.3252
天㑹四年	-11.3252
蠱	-11.3252
隳	-11.3253
咠	-11.3253
陲	-11.3253
太監汪直	-11.3254
孕	-11.3254
儐	-11.3254
跣	-11.3254
淖齒	-11.3256
階勲	-11.3256
塊	-11.3256
平易不訾	-11.3257
苴	-11.3257
不剛不柔	-11.3258
折衝禦侮	-11.3258
丘濬	-11.3258
妃王氏	-11.3258
忝	-11.3259
上尊號	-11.3259
楫	-11.3259
疚	-11.326
假借	-11.326
西平侯	-11.326
韓傀	-11.3263
右俱寵禄光大	-11.3266
流血	-11.3266
銅錢	-11.3267
年以兵部右侍郎兼僉都御史任	-11.3267
隼	-11.3267
洞庭	-11.3268
敝邑之王	-11.3268
光庭	-11.327
右寵禄光大	-11.327
藪	-11.3273
儉約	-11.3275
張綵	-11.3276
若之何	-11.3278
平涼	-11.3279
為之奈何	-11.328
六年任右	-11.328
廬陵	-11.3282
江西安福人由	-11.3283
輔弼	-11.3284
荀卿	-11.3286
招納	-11.3286
左副將軍	-11.3286
監督	-11.3286
誓約	-11.3288
追贈	-11.3289
左庶子	-11.329
二十二年任右	-11.3293
杜衍	-11.3296
新序同	-11.33
長驅	-11.33
草木	-11.33
四十七	-11.3304
分畫	-11.3308
張昇	-11.3314
尚寶	-11.3314
宿衛	-11.3316
分其地	-11.3321
考校	-11.3328
六年任左	-11.333
衛指揮僉事	-11.3336
誰敢	-11.3359
長平之	-11.3366
𥙷曰姚本	-11.3374
宣大軍務	-11.3413
由進士九年任右	-11.3414
二十表裏	-11.3488
月二十日	-11.3499
見趙䇿	-11.3505
寂	-11.3619
澶州	-11.3629
靼	-11.3631
公主下嫁	-11.3631
按察僉事	-11.3634
浙江餘姚人由進士	-11.3635
㫤	-11.3635
㐫	-11.3636
飄	-11.3636
黯	-11.3636
伎	-11.3636
繼冲	-11.3636
偵	-11.3636
豐城侯	-11.3636
概	-11.3637
乙卯	-11.3637
禇	-11.3638
徔	-11.3638
謹身殿	-11.3639
廐	-11.3639
裒	-11.3639
粉	-11.3639
燎	-11.3641
中書舎人	-11.3642
稍稍	-11.3642
悠	-11.3642
垂拱	-11.3643
鄜	-11.3643
鵠	-11.3644
㤗	-11.3644
宣徽使	-11.3645
隋煬帝	-11.3645
翕	-11.3646
刁	-11.3646
恂	-11.3646
旃	-11.3646
灑	-11.3646
熱	-11.3647
邱	-11.3647
吕文煥	-11.3647
涸	-11.3648
胷	-11.3648
虎賁	-11.3649
毀	-11.3651
雒	-11.3651
研	-11.3651
搢	-11.3651
温良好樂	-11.3651
余有丁	-11.3651
購	-11.3652
巡按御史	-11.3652
唇	-11.3652
丕鄭	-11.3652
州觀察使	-11.3653
㳂邊	-11.3655
澳	-11.3655
鬯	-11.3655
福建閩縣人	-11.3655
鼈	-11.3655
嘉靖丁未進士萬厯	-11.3655
匕	-11.3655
遵裕	-11.3655
怏	-11.3656
鈔四百錠	-11.3656
撒	-11.3656
栗腹	-11.3657
靖江王	-11.3658
劉珝	-11.3658
奬諭	-11.3658
百餘里	-11.3658
縱火	-11.3659
緤	-11.366
直𨽻崑山人	-11.366
謂韓王曰	-11.3663
李昉	-11.3664
和比於理	-11.3664
由進士十八年任右	-11.3664
頑	-11.3664
正徳元年	-11.3665
安逺侯	-11.3666
箸	-11.3666
烏撒	-11.3667
巡按	-11.3668
沙漠	-11.3673
浙西	-11.3673
皇甫	-11.3674
被劾	-11.3676
贈禮部尚書	-11.3677
縣西北	-11.3677
之為去聲	-11.3678
時不可考	-11.3683
暱	-11.3685
招撫	-11.3685
李文忠	-11.3688
邊防	-11.3689
甘羅	-11.3689
節鉞	-11.369
永樂十二年	-11.3691
萬乗之國	-11.3692
晉文公	-11.3693
說見後	-11.3706
彌逺	-11.3711
祖禹	-11.3743
不自安	-11.3758
萬斤	-11.3777
郊祀	-11.3783
品秩	-11.3818
九年任左	-11.3824
由進士十年任右	-11.389
總督宣大	-11.389
天順七年	-11.3894
太監谷大用	-11.3919
兖	-11.3981
覿	-11.4011
一千五百	-11.4013
𢎞治元年	-11.4024
曙	-11.403
𤦺	-11.4032
袋	-11.4034
衛喇特	-11.4036
運糧	-11.404
髠	-11.4041
攬	-11.4042
帯	-11.4044
縻	-11.4046
飫	-11.4048
貌辯	-11.4048
醇	-11.4049
治以重罪	-11.405
電	-11.405
郯	-11.4051
怡	-11.4051
勵精	-11.4052
遴	-11.4052
瑤	-11.4053
謄録	-11.4053
蹕	-11.4054
陀	-11.4054
刑部侍郎	-11.4055
楞	-11.4055
訓練	-11.4056
裹	-11.4056
覃	-11.4056
屠滽	-11.4057
鑠	-11.4057
韓𤦺	-11.4058
鄫	-11.4058
著作郎	-11.4058
傅友徳	-11.4059
阿固達	-11.4059
聳	-11.4059
交趾	-11.406
眇	-11.406
穡	-11.406
賑濟	-11.406
瑚圖克	-11.406
慨	-11.406
珩	-11.4061
公孫𢎞	-11.4061
李文達	-11.4062
逈	-11.4062
胡宗愈	-11.4063
駞	-11.4063
冡	-11.4063
攀	-11.4063
腦	-11.4063
架	-11.4063
嗣薨壽六十	-11.4064
陞賞有差	-11.4064
杰	-11.4064
浴	-11.4064
敞	-11.4065
怵	-11.4065
吠	-11.4065
樁	-11.4065
雋	-11.4065
㮚	-11.4066
臏	-11.4066
字書無	-11.4067
鶻	-11.4067
砥	-11.4068
翰林院侍講學士	-11.4068
廓	-11.4068
輗	-11.4068
邢恕	-11.4069
襄毅	-11.4069
瞭	-11.4069
謾	-11.407
涯	-11.4071
鶴齡	-11.4071
伏覩	-11.4071
箠	-11.4071
腸	-11.4071
刪	-11.4072
陞一級	-11.4072
醢	-11.4072
卽	-11.4072
汙	-11.4072
勒停	-11.4072
洪熙元年	-11.4072
柔質慈民	-11.4072
御崇政殿	-11.4073
暴露	-11.4073
理部事	-11.4073
吟	-11.4074
司經局洗馬	-11.4074
鎡	-11.4074
負芻	-11.4074
謂公叔曰	-11.4075
鷙	-11.4075
箇	-11.4075
弓矢	-11.4075
太子賔客	-11.4077
慤	-11.4077
户部郎中	-11.4084
黶	-11.4088
陳友諒	-11.4089
馮忌	-11.409
套	-11.409
趙抃	-11.4092
甚憎	-11.4093
華亭	-11.4095
諌諍	-11.4096
榆次	-11.4097
畿内	-11.4099
馮京	-11.41
招諭	-11.4113
正統元年	-11.4137
御批	-11.4176
萬厯十年	-11.4199
汾水	-11.4234
錦衣指揮	-11.4266
百五十兩	-11.4343
由進士十六年任右	-11.4363
月十六日	-11.4376
薊州	-11.438
洪武十三年	-11.4397
洪武四年	-11.4413
門下省	-11.4418
康僖	-11.4424
右庶子	-11.4425
由進士十三年任右	-11.4442
滎	-11.4477
聪	-11.4477
彩	-11.4483
秘書丞	-11.4484
葦	-11.4485
訂	-11.4487
方獻夫	-11.4488
桂蕚	-11.4488
巒	-11.4488
猖	-11.4488
睪	-11.4489
按察司	-11.4489
跖	-11.4489
錫哩	-11.4489
脚	-11.4489
未可知也	-11.449
絹三疋	-11.4491
腐	-11.4491
駐泊	-11.4492
箋	-11.4492
翀	-11.4492
毛澄	-11.4492
洩	-11.4492
籥	-11.4493
繭	-11.4493
歐	-11.4493
尔	-11.4494
宣徽南院使	-11.4494
辞	-11.4494
艦	-11.4494
濕	-11.4494
奨	-11.4494
文天祥	-11.4495
炭	-11.4495
鈐	-11.4495
欽天監	-11.4495
華葢殿大學士	-11.4495
貺	-11.4495
滔	-11.4495
冦凖	-11.4495
愕然	-11.4496
戀	-11.4496
邇英閣	-11.4497
圜丘	-11.4497
資政殿學士	-11.4497
䏻	-11.4497
慟哭	-11.4497
王巖叟	-11.4498
栗	-11.4498
樗里子	-11.4498
汁	-11.4498
芊	-11.4498
幄	-11.4499
絞	-11.4499
太平治迹統𩔖卷	-11.4499
祥瑞	-11.4499
𦂳	-11.4499
詬	-11.45
抛	-11.45
闡	-11.45
纒	-11.45
多爾濟	-11.45
嚴訥	-11.4501
平章軍國重事	-11.4501
國子監祭酒	-11.4502
刑部主事	-11.4502
倨	-11.4502
麤	-11.4503
為天下笑	-11.4503
藩邸	-11.4503
奢香	-11.4503
副千户	-11.4503
騁	-11.4505
臨軒	-11.4505
頃刻	-11.4505
悞	-11.4505
鋌	-11.4505
氐	-11.4505
申飭	-11.4506
坑	-11.4506
璪	-11.4507
軼	-11.4507
由榜眼	-11.4507
應事有功	-11.4507
臼	-11.4508
直𨽻婺源	-11.4509
須臾	-11.4509
翳	-11.451
駢	-11.451
棼	-11.451
軏	-11.451
鶉	-11.4511
蒼生	-11.4514
空虚	-11.4514
精鋭	-11.4514
崑山	-11.4515
輝祖	-11.4515
莊辛	-11.4516
唐尚書云	-11.4516
萇	-11.4516
厠	-11.4519
申不害	-11.452
進士出身	-11.4521
太祖皇帝	-11.4522
停止	-11.4523
囘籍	-11.4524
温囿	-11.4524
唯唯	-11.4526
真定府	-11.4531
山陽君	-11.4538
刺客	-11.4539
司農寺	-11.4575
夾攻	-11.4586
尚書左丞	-11.4631
月二十二日	-11.4638
滄	-11.4656
少師大學士	-11.4696
擒獲	-11.4704
由進士二年任右	-11.4763
甞君	-11.4772
狀元及第	-11.4826
麻布	-11.4848
鏊	-11.4894
有事於	-11.49
竒塔特	-11.4921
稠	-11.4933
証	-11.4934
煎	-11.4935
霽	-11.4935
掾	-11.4935
樞宻副使	-11.4937
佔據	-11.4937
煦	-11.4939
狠	-11.4941
張孚敬	-11.4941
右俱温良好樂	-11.4942
遘	-11.4943
玄素	-11.4944
位郡縣主君	-11.4944
顆	-11.4945
諌議大夫	-11.4945
羔	-11.4945
烏庫哩	-11.4946
杞	-11.4946
澗	-11.4947
著作佐郎	-11.4947
鉛	-11.4947
樸	-11.4947
文武羣臣	-11.4948
茶鹽	-11.4948
庚戍	-11.4949
邃	-11.4949
渴	-11.495
据	-11.495
賈誼	-11.495
濱	-11.495
㝠	-11.495
䦨	-11.495
氓	-11.4951
粤	-11.4951
悃	-11.4951
陳堯叟	-11.4951
邈	-11.4951
蠶	-11.4951
見侯志	-11.4951
縶	-11.4952
四衛喇特	-11.4952
提㸃	-11.4952
納克楚	-11.4952
鄳	-11.4953
勾踐	-11.4953
岀	-11.4953
篇之辭	-11.4953
黿	-11.4953
戬	-11.4954
諄	-11.4954
闔閭	-11.4954
黜陟	-11.4955
匣	-11.4955
璜	-11.4955
扁	-11.4955
由此觀之	-11.4955
白金五十兩	-11.4955
步騎	-11.4956
驕奢	-11.4956
沽	-11.4956
郭斡	-11.4956
襲封衍聖公	-11.4957
牾	-11.4957
陳以勤	-11.4957
左春坊大學士	-11.4957
君臣之義	-11.4957
勃鞮	-11.4958
羡	-11.4958
押班	-11.4958
祿一千二百石	-11.4958
侵掠	-11.4958
堅壁	-11.4959
埊	-11.4959
災傷	-11.4959
鰲	-11.496
臭	-11.496
站	-11.496
四川内江人	-11.496
尺寸	-11.4961
癰	-11.4961
殯	-11.4961
一百八十	-11.4961
澮	-11.4962
僨	-11.4962
踣	-11.4963
鈺	-11.4963
獄訟	-11.4965
戰勝攻取	-11.4965
舉明經	-11.4965
嚳	-11.4965
陳宜中	-11.4965
浙江錢塘人	-11.4966
翰林院編修	-11.4967
當此之時	-11.4967
公輸般	-11.4968
黧	-11.4969
遣内侍	-11.4969
考課	-11.4969
哥	-11.497
錐	-11.497
蓺	-11.497
祉	-11.4971
仁宗皇帝	-11.4972
商旅	-11.4972
祥符	-11.4972
繼勛	-11.4974
問其故	-11.4975
右俱敬順事上	-11.4975
宋濓	-11.4976
縱横	-11.4977
姑息	-11.4978
慰勞	-11.498
讙	-11.498
月二十四日	-11.4984
白圭	-11.4987
慈仁短折	-11.4993
穆珍	-11.5008
玦	-11.5009
由進士十四年任右	-11.507
鈔二萬	-11.5075
左都督贈	-11.514
遙	-11.5165
與楚戰	-11.5168
萬厯二年	-11.527
第三十	-11.5293
閏二月	-11.5294
不知何許人洪武	-11.5398
塔布囊	-11.5401
坡	-11.5408
冢宰	-11.5408
眞	-11.5408
貞觀之初	-11.541
峯	-11.5411
款	-11.5411
珙	-11.5411
趕	-11.5412
厘	-11.5414
上嘉納之	-11.5414
諗	-11.5414
泯	-11.5416
璲	-11.5416
愉	-11.5417
玷	-11.5417
黥	-11.5418
撻	-11.5418
偹	-11.5419
王堯臣	-11.5419
揺	-11.5419
秋毫	-11.542
坎	-11.5421
妓	-11.5421
拏	-11.5421
中流矢	-11.5421
斜	-11.5422
伊勒都	-11.5422
淪	-11.5422
栖	-11.5423
臚	-11.5423
駒	-11.5423
鳩	-11.5424
土黙特	-11.5425
嘯	-11.5426
絀	-11.5427
筋	-11.5427
刎	-11.5428
亶	-11.5428
戡	-11.5428
迁	-11.5428
盎	-11.5429
以吏左侍兼	-11.5429
療	-11.5429
控扼	-11.543
鼠	-11.543
完顔	-11.5431
奔競	-11.5431
澆	-11.5431
另	-11.5431
莫大焉	-11.5431
堞	-11.5431
月二十九日	-11.5432
綂	-11.5432
諒毅	-11.5433
燫	-11.5433
有缺誤	-11.5433
葭	-11.5433
琰	-11.5434
直𨽻宜興人	-11.5434
篡	-11.5434
瑱	-11.5434
蹟	-11.5434
湔	-11.5434
兵科給事中	-11.5434
蘇頌	-11.5435
沈括	-11.5435
旒	-11.5435
潢	-11.5436
割三鎮	-11.5436
疆界	-11.5436
俱米鈔中半兼支	-11.5436
嗾	-11.5437
監察御史裏行	-11.5437
直𨽻江都人	-11.5437
直𨽻無錫人	-11.5439
童貫	-11.5439
巽	-11.544
囂	-11.5441
少師太子太師吏部尚書華蓋殿大學士	-11.5441
以憂社稷者	-11.5441
媯	-11.5442
羽翼	-11.5442
黄金百兩白金	-11.5443
尹洙	-11.5443
擿	-11.5444
鞏昌	-11.5446
吕不韋	-11.5446
薨合葬	-11.5448
从	-11.5448
嗛	-11.5449
湫	-11.5449
鮒	-11.545
鄜延路	-11.5451
遵誨	-11.5455
雱	-11.5459
㫖揮	-11.5469
𢎞治十八年	-11.552
任左本年	-11.5615
閏十一月	-11.5749
見前成化十	-11.577
閼	-11.5889
層	-11.5893
衫	-11.5896
謂宰相曰	-11.5905
鬚	-11.5906
阿勒坦汗	-11.5909
塋	-11.5911
跨	-11.5911
罸	-11.5912
户部左侍郎	-11.5913
很	-11.5913
包拯	-11.5913
蓬	-11.5913
鳳翔	-11.5914
冀芮	-11.5916
總小旗	-11.5916
蹄	-11.5917
博克達	-11.5917
繖	-11.5917
紘	-11.5918
紞	-11.5918
誹謗	-11.592
摭	-11.592
輛	-11.592
愕	-11.592
邜	-11.5921
乍	-11.5922
豹房	-11.5922
輻	-11.5923
昵	-11.5923
伉	-11.5923
儔	-11.5924
楊畋	-11.5924
丐	-11.5924
廹	-11.5924
提督軍務	-11.5925
仔	-11.5925
端明殿學士	-11.5925
爕	-11.5926
闚	-11.5926
縑	-11.5926
盔	-11.5927
礙	-11.5927
臆	-11.5927
糜	-11.5928
翫	-11.5928
華蓋殿學	-11.5928
慟	-11.5928
誾	-11.5928
筦	-11.5929
𬋩	-11.5929
溱	-11.5929
琬	-11.593
欽定四庫全書太平治迹統𩔖卷	-11.593
堯俞	-11.593
萼	-11.5931
椿	-11.5931
阿嚕台	-11.5931
騶	-11.5931
塗炭	-11.5932
漬	-11.5932
絃	-11.5932
炙	-11.5932
瘳	-11.5933
景祐元年	-11.5934
鬲	-11.5935
弃	-11.5935
龍圖閣直學士	-11.5935
晏殊	-11.5935
捽	-11.5935
布尼雅實哩	-11.5935
咫尺	-11.5936
鐩	-11.5936
鉏	-11.5937
畞	-11.5937
何以知其然也	-11.5938
操練	-11.5938
悴	-11.5938
霑	-11.5938
侑	-11.5938
詵	-11.5938
𠞰捕	-11.5939
戰而勝	-11.5939
掌部事	-11.5939
羈	-11.594
䧏	-11.594
祼	-11.5941
浙江慈谿人	-11.5941
薨無子弟	-11.5941
嘉靖癸未進士	-11.5941
緱	-11.5941
兔	-11.5942
蠟	-11.5942
嚴仲子	-11.5942
蔓	-11.5943
綽爾濟	-11.5944
純行不爽	-11.5945
搶	-11.5945
阪	-11.5946
查盤	-11.5947
壹	-11.5948
錞	-11.5948
右俱履正志和	-11.595
咫	-11.5953
霍光	-11.5955
鄶	-11.5956
右履正志和	-11.5958
庶一子	-11.5964
京畿	-11.5981
司禮太監	-11.599
江西泰和人	-11.6119
月二十六日	-11.6199
十年任左	-11.6208
一千三百	-11.6256
江西泰和人由進士	-11.6277
江西南昌人由進士	-11.6345
特穆津	-11.6406
聖識一切	-11.6424
妣	-11.6428
昪	-11.6433
斡齊爾	-11.6434
墳墓	-11.6434
鴟	-11.6436
楹	-11.6437
厝	-11.6437
覊	-11.6437
摶	-11.6438
㝡	-11.6439
雁	-11.6439
誹	-11.6439
天章閣	-11.644
枝山野記	-11.6441
黠	-11.6442
毬	-11.6442
淚	-11.6442
駐劄	-11.6442
估	-11.6443
剥	-11.6443
不可勝紀	-11.6444
綺帛	-11.6444
豊	-11.6445
郭子興	-11.6445
任本年免	-11.6446
囷	-11.6446
櫓	-11.6446
獬	-11.6446
飼	-11.6446
趙貞吉	-11.6446
鳯翔	-11.6447
饉	-11.6447
尼瑪哈	-11.6447
馮煖	-11.6447
王毅愍	-11.6448
棟戬	-11.6448
顓	-11.6448
叅知政事	-11.6448
申公時行	-11.6448
䙝	-11.6448
從其請	-11.6448
勦	-11.6449
澶淵	-11.6449
㭿	-11.6449
韓忠彦	-11.6449
汪鋐	-11.6449
鄂托克	-11.645
三省樞宻院	-11.645
薫	-11.645
銃	-11.645
阿巴海	-11.6451
合祭天地	-11.6451
王保保	-11.6451
叨	-11.6451
直𨽻鳯陽人	-11.6451
煖	-11.6452
章戰國䇿卷第	-11.6453
景靈宫	-11.6454
褥	-11.6454
臬	-11.6454
廼	-11.6454
刑部左侍郎	-11.6454
珏	-11.6455
吕調陽	-11.6455
翰林侍讀	-11.6455
巡撫都御史	-11.6455
左春坊左中允	-11.6455
觸讋	-11.6455
馬永成	-11.6455
葱	-11.6455
温仁和	-11.6456
柰	-11.6456
翥	-11.6456
岑	-11.6457
清逺侯王友	-11.6457
卻	-11.6457
璘	-11.6457
旦暮	-11.6457
皥	-11.6458
紿	-11.6458
汜	-11.6458
涕泣	-11.6458
㸔	-11.6459
餙	-11.6459
綜	-11.6459
暁	-11.6459
婆	-11.6459
守本官	-11.6459
菲	-11.6459
黼	-11.6459
講筵	-11.6459
涖	-11.646
項羽	-11.646
鈔三百錠	-11.6461
譟	-11.6461
仐	-11.6461
杯	-11.6462
些	-11.6462
詹事府少詹事	-11.6462
以百金	-11.6462
藩屏	-11.6463
份	-11.6463
蓮	-11.6463
開府儀同三司	-11.6463
嵗加禄米	-11.6463
牝	-11.6464
橐	-11.6464
頰	-11.6464
羊腸	-11.6464
飱	-11.6464
喟	-11.6464
鄣	-11.6465
郇	-11.6465
盥	-11.6466
天章閣待制	-11.6466
彤	-11.6466
直𨽻合肥人	-11.6466
禋	-11.6467
國語韋氏解	-11.6468
獮	-11.6468
炫	-11.6469
頴川	-11.6469
從起義	-11.6469
尹旻	-11.6469
北征陣亡	-11.6469
之爲去聲	-11.6469
浙江山隂人由進士	-11.6469
琅	-11.6472
瞑	-11.6472
喙	-11.6473
靄翠	-11.6477
嫗	-11.6479
管子對曰	-11.648
洒	-11.6491
鈔百二十錠	-11.6499
見齊䇿	-11.6502
酒酣	-11.6543
直𨽻吳縣人	-11.6952
弇山堂别集卷四十	-11.6967
崑	-11.6974
蹯	-11.698
御集英殿	-11.6984
龎藉	-11.6988
佛像	-11.6989
紓	-11.6991
斟酌	-11.6992
菴	-11.6992
大理評事	-11.6992
范文虎	-11.6994
隍	-11.6994
上官均	-11.6995
牖	-11.6995
篋	-11.6996
㽞	-11.6997
傒	-11.6997
六科給事中	-11.6997
爼	-11.6997
咄	-11.6998
碧	-11.6998
恭裕王	-11.6998
神道碑	-11.6998
踴	-11.6999
滽	-11.7
秘書監	-11.7
軟	-11.7001
熒惑	-11.7001
怖	-11.7001
涅	-11.7001
疆埸	-11.7002
嗣薨壽七十	-11.7002
帷幄	-11.7002
堤	-11.7002
淶	-11.7003
灣	-11.7003
瑩	-11.7003
耿炳文	-11.7004
謄	-11.7004
長孫無忌	-11.7004
魂	-11.7005
砍	-11.7005
冤	-11.7005
杵	-11.7006
瘦	-11.7007
謡	-11.7007
衘	-11.7008
征夷將軍	-11.7008
歉	-11.7008
永謝布	-11.7008
櫜	-11.7008
倉廪	-11.7008
晉語第十	-11.7008
桞	-11.7009
濳	-11.7009
笙	-11.7009
羲	-11.7009
魄	-11.701
丙戍	-11.701
右俱勤學好問	-11.701
直𨽻臨淮人	-11.701
涵	-11.701
闊	-11.701
䄂	-11.701
大亊記	-11.7011
昕	-11.7011
欺㒺	-11.7011
羾	-11.7011
脆	-11.7011
航海	-11.7012
芰	-11.7012
州别駕	-11.7012
察哈爾	-11.7013
主順天試	-11.7013
踊	-11.7013
旟	-11.7013
酢	-11.7013
直𨽻藁城人	-11.7013
鉄	-11.7014
僮	-11.7014
國子司業	-11.7014
曺彬	-11.7014
稸	-11.7015
悉聽節制	-11.7015
鄲	-11.7015
氛	-11.7015
貞觀之治	-11.7015
衍聖公	-11.7015
都察院右僉都御史	-11.7015
潦	-11.7015
宙	-11.7015
劉大夏	-11.7015
糗	-11.7016
李廷相	-11.7016
豢	-11.7016
藺離石祁	-11.7016
瑁	-11.7017
黄門侍郎	-11.7017
悌	-11.7017
菽	-11.7017
直𨽻太倉人	-11.7018
冨弼	-11.7018
愜	-11.7018
直𨽻呉縣人	-11.7018
貂勃	-11.7018
皐	-11.7018
未之有也	-11.7018
倪岳	-11.7019
喚	-11.7019
大理少卿	-11.702
工科給事中	-11.702
鶚	-11.702
姚廣孝	-11.702
羇	-11.7021
訹	-11.7021
沱	-11.7021
樗	-11.7021
噶拉卜	-11.7021
斟	-11.7021
右俱守禮執義	-11.7021
不亦難乎	-11.7021
鯁	-11.7022
絡	-11.7022
蹶	-11.7022
旰	-11.7023
隸	-11.7023
肄	-11.7024
直𨽻山陽人	-11.7024
歐陽必進	-11.7025
瑣	-11.7025
犨	-11.7026
訛舛	-11.7027
縞	-11.7027
鳶	-11.7027
耜	-11.7028
矰	-11.7029
菑	-11.7031
後軍都督府	-11.7033
聾	-11.7033
由進士二十九年任右	-11.7034
戕	-11.7036
壌	-11.7037
疋綵絹	-11.7038
狐突	-11.7041
枹	-11.7043
禮部尚書兼翰林院學士	-11.7055
本此下有	-11.7094
文侯曰	-11.7106
詹事府詹事	-11.711
由進士十七年任	-11.7219
年薨孫	-11.7259
驎	-11.7554
孺	-11.7563
吏部尚書文淵閣大學士	-11.7575
姿	-11.7577
彷	-11.7578
達賴喇嘛	-11.7579
尚寳司	-11.7581
攄	-11.7581
媵	-11.7583
彞	-11.7584
長公主下嫁駙馬	-11.7584
狸	-11.7586
范百祿	-11.7586
荼毒	-11.7586
柩	-11.7587
阼	-11.7587
熹	-11.7587
藁	-11.7588
月恭校上	-11.7588
康定元年	-11.7588
濮安懿王	-11.7588
瓜	-11.7589
昀	-11.7589
儋	-11.7589
孫士毅	-11.7589
湊	-11.7589
罝	-11.7589
明正其罪	-11.759
郴	-11.759
審官院	-11.759
陸費墀	-11.7591
迺	-11.7591
讃	-11.7591
能識一切	-11.7591
躁	-11.7591
箝	-11.7591
䡖	-11.7592
輔國將軍	-11.7592
刷	-11.7592
晞	-11.7592
鼓吹	-11.7592
肘	-11.7592
盧多遜	-11.7593
㗖	-11.7594
陳彭年	-11.7594
紬	-11.7594
麋	-11.7594
慷慨	-11.7594
特奏名	-11.7595
張士誠	-11.7595
龕	-11.7595
迓	-11.7596
眦	-11.7596
陳升之	-11.7596
斫	-11.7596
睚	-11.7597
總督兩廣	-11.7597
李孜省	-11.7597
轉運判官	-11.7597
煙	-11.7598
耘	-11.7598
鋏	-11.7598
宛平人	-11.7598
戱	-11.7599
羃	-11.7599
凌遲處死	-11.7599
𢎞治壬戌進士嘉靖	-11.7599
猲	-11.76
媿	-11.76
券	-11.76
殷士儋	-11.76
携	-11.7601
司設監	-11.7601
瓛	-11.7601
屡	-11.7601
低	-11.7601
煌	-11.7601
獅	-11.7602
不可勝計	-11.7602
煬	-11.7602
不亦可乎	-11.7602
謂新城君	-11.7602
珥	-11.7602
銀二十兩	-11.7603
俞通海	-11.7603
郕	-11.7603
珊	-11.7603
澧	-11.7603
張商英	-11.7604
縫	-11.7604
莭	-11.7604
汎	-11.7604
灰	-11.7605
昬	-11.7605
脯	-11.7605
挽	-11.7605
迯	-11.7606
正義引括地	-11.7606
濂	-11.7606
綯	-11.7606
無乃不可乎	-11.7606
餅	-11.7607
年任十三年致仕	-11.7607
尭	-11.7607
見秦策	-11.7607
衿	-11.7607
仍原兼	-11.7608
吁	-11.7608
田子方	-11.7608
正已攝下	-11.7609
爚	-11.7609
燥	-11.761
舖	-11.761
抎	-11.761
豺狼	-11.761
歙	-11.7612
鎭	-11.7612
烏梁海	-11.7613
踏	-11.7613
擴	-11.7613
月二十八日	-11.7613
河南鈞州	-11.7614
脛	-11.7614
華盖殿大學士	-11.7614
㬱	-11.7615
繄	-11.7618
王嵗支本色禄米一萬石	-11.7619
祓	-11.7619
方城之外	-11.762
正曰無據	-11.7621
右敬順事上	-11.7624
瓢	-11.7634
十七年任左	-11.774
十四年任左	-11.7778
由鄉舉	-11.7865
月二十七日	-11.8016
十有五	-11.8053
千段	-11.8107
剗	-11.8193
各監局	-11.8194
嗣進鎮國為	-11.8195
飴	-11.8197
醮	-11.8198
無嗣除	-11.8201
炤	-11.8203
厲聲曰	-11.8203
禩	-11.8204
装	-11.8204
傀	-11.8204
蔬	-11.8205
啼	-11.8205
屛	-11.8207
下錦衣獄	-11.8208
豚	-11.8208
屑	-11.8208
掎	-11.8209
狷	-11.8209
承運庫	-11.8209
糶	-11.821
駈	-11.821
西寧侯	-11.8211
五代史補	-11.8211
囊嘉特	-11.8212
武清伯	-11.8213
秘書省	-11.8213
螻蟻	-11.8214
托克托	-11.8214
太平治迹統類卷	-11.8214
腕	-11.8214
煮	-11.8215
簒	-11.8216
西平侯沐英	-11.8217
葆	-11.8217
巵	-11.8217
珵	-11.8218
咽	-11.8218
衂	-11.8218
垢	-11.8218
澹	-11.8219
㒒射	-11.8219
右勤學好問	-11.8219
涪	-11.822
虺	-11.822
踪	-11.8221
盱眙	-11.8221
聵	-11.8221
遹	-11.8221
奥	-11.8221
郾	-11.8223
廖永安	-11.8223
太僕少卿	-11.8223
粥	-11.8223
譙	-11.8223
達延汗	-11.8223
縢	-11.8224
天順甲申進士𢎞治	-11.8224
䞇	-11.8225
吕䝉正	-11.8225
疫	-11.8226
透	-11.8226
釀	-11.8226
兢兢	-11.8226
暦	-11.8227
左春坊左庶子	-11.8227
大聖皇帝	-11.8227
裨	-11.8227
伋	-11.8228
麑	-11.8228
誂	-11.8228
鷄	-11.8228
畝	-11.8228
稀	-11.8229
𠞰	-11.8229
彂	-11.8229
黄庭堅	-11.823
彫	-11.823
阯	-11.8231
慎靚王	-11.8232
劭	-11.8232
欽定四庫全書史部五	-11.8233
贅	-11.8233
𢎞治庚戌進士嘉靖	-11.8233
銀二百兩	-11.8234
枋	-11.8234
不宣謹白	-11.8235
粱	-11.8235
孛	-11.8235
橫	-11.8235
阿嘍罕	-11.8235
鼐爾布哈	-11.8235
小心恭慎	-11.8235
朶	-11.8236
佗	-11.8236
禮科給事中	-11.8237
銛	-11.8237
楩	-11.8238
棐	-11.8238
酖	-11.8238
一德不懈	-11.8239
支期曰	-11.824
罃	-11.8241
竢	-11.8242
娘	-11.8242
楠	-11.8242
朝鮮國王李	-11.8242
櫟	-11.8244
匄	-11.8246
妃郭氏	-11.8247
蟜	-11.825
右敬事供上	-11.8252
堙	-11.8253
婿	-11.8265
月初五日	-11.8366
江西南昌人	-11.8388
烏爾魯克	-11.885
逡	-11.8852
肋	-11.8859
埃	-11.8862
嵐	-11.8863
嵌	-11.8866
汀	-11.8866
捲	-11.8867
將作監丞	-11.8867
禬	-11.8869
掇	-11.8871
天雄軍	-11.8873
隄	-11.8875
鑕	-11.8876
債	-11.8876
焰	-11.8877
摠	-11.8877
掊	-11.8878
醒	-11.8879
慾	-11.8879
慊	-11.888
址	-11.8881
澯	-11.8882
咈	-11.8882
弢	-11.8882
經明行修	-11.8882
客坐新聞	-11.8882
嶷	-11.8882
瀝	-11.8883
右春坊右諭徳	-11.8883
䆒	-11.8883
洶洶	-11.8883
腆	-11.8884
溫	-11.8884
圃	-11.8885
訃	-11.8885
鍵	-11.8885
炅	-11.8886
暘	-11.8886
函谷關	-11.8886
以臣言為	-11.8887
閈	-11.8887
蒸	-11.8887
威烈王	-11.8887
濯	-11.8887
廏	-11.8888
牓	-11.8888
闋	-11.8888
炬	-11.8888
癘	-11.8888
憸	-11.8888
賢良方正	-11.8888
黄子澄	-11.889
玉清昭應宫	-11.889
删	-11.889
華葢殿	-11.8891
堠	-11.8891
州團練副使	-11.8891
錢塘遺事	-11.8892
娣	-11.8892
竽	-11.8892
賻	-11.8892
姑宥之	-11.8893
挿	-11.8893
磧	-11.8894
曜	-11.8894
曳	-11.8894
車百乘	-11.8894
廣東南海人由	-11.8895
湖廣巴陵人	-11.8895
尚寶司丞	-11.8895
鷸	-11.8895
甲胄有勞	-11.8896
芬	-11.8896
秃	-11.8897
鑲	-11.8897
萬厯十七年任	-11.8898
紫宸殿	-11.8899
杏	-11.8899
梱	-11.8899
武清侯	-11.8899
宼	-11.8899
斵	-11.8899
莫知所	-11.89
左春坊左諭徳	-11.89
央	-11.89
簮	-11.89
祿一千一百石	-11.89
駱	-11.89
㕘知政事	-11.8901
龐	-11.8901
以都察院左都御史加	-11.8901
吏部左侍郎兼翰林院學士	-11.8901
刈	-11.8902
加上尊號曰	-11.8902
芈	-11.8902
堆	-11.8903
右危身奉上	-11.8903
斆	-11.8903
趙良嗣	-11.8903
讁	-11.8903
柟	-11.8903
剋	-11.8904
列女傳	-11.8904
邾	-11.8904
霸王之業	-11.8904
祿千五百石七年増千石	-11.8904
頵	-11.8905
左副元帥	-11.8906
檐	-11.8906
福建晉江人	-11.8906
滏	-11.8907
碭	-11.8907
筑	-11.8908
是秦之一舉也秦行是計	-11.8908
盩	-11.8911
抉	-11.8911
瞀	-11.8911
咺	-11.8913
匐	-11.8913
􁲰	-11.8926
滁	-11.9167
邕	-11.9303
博爾濟錦	-11.9564
平宋録	-11.9569
觀世音菩薩	-11.9571
跌	-11.9571
侫	-11.9576
禴	-11.9577
薩斯嘉	-11.9578
薔	-11.9579
礦	-11.958
阿嚕克台	-11.958
霦	-11.9582
縋	-11.9583
虹	-11.9584
徨	-11.9584
縂	-11.9585
秬黍	-11.9585
鵲	-11.9585
挂	-11.9587
貉	-11.9588
孱	-11.9588
欝	-11.9589
烽	-11.9589
渚宫舊事	-11.9589
贛	-11.9589
緄	-11.9589
吾學編	-11.9589
遶	-11.9589
講武殿	-11.959
崇福宫	-11.9591
芥	-11.9592
大赦天下	-11.9592
侁	-11.9592
皇祐元年	-11.9592
針	-11.9592
右翼三萬人	-11.9593
閥	-11.9593
俺	-11.9594
佇	-11.9595
湼	-11.9595
岌	-11.9595
閽	-11.9595
緇	-11.9595
莠	-11.9595
沴	-11.9595
十三道御史	-11.9595
宣徽北院使	-11.9596
和碩齊	-11.9596
穹	-11.9596
成化丁未進士正徳	-11.9597
崇政殿説書	-11.9597
榛	-11.9599
撾	-11.96
灤	-11.96
瞋	-11.96
擺	-11.96
擅作威福	-11.96
檻	-11.96
爛	-11.9601
圈	-11.9601
肺	-11.9601
舫	-11.9601
珤	-11.9601
秣	-11.9601
甕	-11.9601
荆湖南路	-11.9601
檟	-11.9602
虗	-11.9602
元和姓纂	-11.9603
淋	-11.9603
𢷬	-11.9603
不可不察也	-11.9603
監修國史	-11.9603
竇建徳	-11.9604
愠	-11.9604
直𨽻丹徒人	-11.9604
堇	-11.9605
于肅愍	-11.9605
梏	-11.9605
碣	-11.9605
征西將軍	-11.9605
淨	-11.9605
河南靈寳人	-11.9606
簪	-11.9606
椀	-11.9606
閎	-11.9606
致果殺敵	-11.9606
𢎞文館學士	-11.9606
博聞多能	-11.9606
點	-11.9606
鍊	-11.9607
嘻	-11.9607
溶	-11.9607
逗遛	-11.9608
噫	-11.9608
殤	-11.9608
圜	-11.9608
砂	-11.9609
譔	-11.9609
爱	-11.9609
溉	-11.9609
衽	-11.9609
從起靖難為	-11.9609
紐	-11.9609
沬	-11.9609
開國輔運推誠宣力武臣	-11.961
塹	-11.961
俳	-11.961
柞	-11.961
懟	-11.961
訑	-11.961
惋	-11.9611
馬十匹	-11.9611
冢	-11.9611
掄	-11.9611
慱	-11.9611
治書侍御史	-11.9611
戻	-11.9611
鍼	-11.9611
胡惟庸	-11.9611
瑢	-11.9612
九合諸侯	-11.9612
匈	-11.9612
領隊指揮	-11.9613
綵幣五表裏	-11.9613
鶩	-11.9613
胡世寧	-11.9613
終篇同	-11.9613
劓	-11.9613
以禮侍學士	-11.9613
膏腴之地	-11.9613
槨	-11.9614
鼒	-11.9614
剏	-11.9615
有其文而無其義	-11.9615
斮	-11.9615
纉	-11.9615
紈	-11.9615
劌	-11.9615
曹國公李景隆	-11.9616
朝奉郎	-11.9616
御史知雜	-11.9617
杌	-11.9617
鐶	-11.9617
郡王初封嵗支禄米二千石襲封一千石	-11.9618
踦	-11.9618
鉗	-11.9619
顔師古	-11.9619
穨	-11.9619
歃	-11.9619
刳	-11.9619
祧	-11.962
熿	-11.9621
刑科給事中	-11.9621
馬一匹	-11.9623
鐔	-11.9623
康茂才	-11.9624
祏	-11.9624
扑	-11.9625
鉆	-11.9625
𣣔	-11.9626
扁鵲	-11.9626
畛	-11.9626
宐	-11.9628
直𨽻巢縣人	-11.9628
凛	-11.9628
鞮	-11.9629
匍	-11.9629
膂	-11.9631
洧	-11.9631
常卿掌監事	-11.9631
蟻	-11.9632
肱	-11.9633
左侍郎兼學士	-11.967
由進士三十三年任	-11.9796
薨夀六十	-12.0229
由進士三十年任	-12.0319
睡	-12.032
弇	-12.0325
瓦齊爾達喇達賴喇嘛	-12.0327
翅	-12.0344
螻	-12.0345
太僕卿	-12.0347
晴	-12.035
惴惴	-12.0356
椽	-12.0359
煉	-12.0359
釋迦牟尼佛	-12.0359
啄	-12.036
凟	-12.036
瑭	-12.0361
賠	-12.0361
狽	-12.0362
躐	-12.0362
朱希周	-12.0362
廨	-12.0363
溍	-12.0363
備顧問	-12.0363
磁	-12.0364
匝	-12.0364
腫	-12.0364
椹	-12.0364
李遜學	-12.0364
肘腋	-12.0364
攫	-12.0364
湧	-12.0365
楊文襄一清	-12.0365
驁	-12.0365
堰	-12.0365
褚	-12.0365
湛若水	-12.0366
盃	-12.0366
擣	-12.0366
跛	-12.0366
泠	-12.0366
釴	-12.0366
忭	-12.0366
弧	-12.0367
禮部奏名	-12.0367
峙	-12.0367
威寧伯	-12.0367
悸	-12.0367
鰥	-12.0367
茹瑺	-12.0368
盒	-12.0368
躓	-12.0369
慆	-12.0369
醬	-12.0369
龠	-12.0369
通直郎	-12.0369
郛	-12.037
岑文本	-12.037
穣	-12.037
菱	-12.0371
走馬承受	-12.0371
洺	-12.0372
漿	-12.0373
椎	-12.0373
夏文愍	-12.0373
紇	-12.0373
嬉	-12.0374
紏	-12.0374
烏陵思謀	-12.0374
贊善大夫	-12.0374
寤	-12.0374
鈔五百錠	-12.0374
鋤	-12.0374
閙	-12.0375
趾	-12.0375
闞	-12.0375
蹻	-12.0376
靖海侯	-12.0376
鄞	-12.0376
掌書記	-12.0376
何面目	-12.0377
喀爾喀	-12.0378
浙江淳安人	-12.0378
錢習禮	-12.0378
正徳甲戌進士嘉靖	-12.0378
啗	-12.0378
唾	-12.0379
擐	-12.0379
府親王一位在府	-12.0379
㒜	-12.0379
直𨽻任丘人由	-12.0379
芟	-12.038
燕翼詒謀録	-12.038
幷	-12.038
應天上元	-12.038
㢮	-12.038
吏科給事中	-12.038
様	-12.0381
鄺	-12.0381
疽	-12.0381
穏	-12.0382
少師少傅少保	-12.0382
揉	-12.0382
欤	-12.0382
溜	-12.0382
璡	-12.0383
楽	-12.0383
讌	-12.0383
賡	-12.0383
㸅	-12.0383
盆	-12.0383
人及第出身	-12.0383
存亡之機	-12.0383
吮	-12.0383
眚	-12.0384
八百石奉國將軍嵗支禄米六百石	-12.0385
彭汝礪	-12.0385
諏	-12.0385
鏸	-12.0385
液	-12.0386
武安侯鄭亨	-12.0386
皎	-12.0387
茶馬司	-12.0387
燼	-12.0387
冊立為皇后	-12.0387
畎	-12.0389
匙	-12.0389
瑴	-12.039
部左侍郎贈尚書	-12.039
虵	-12.039
曰敬諾	-12.039
矣天下爭秦秦	-12.0391
笠	-12.0391
璵	-12.0391
飲馬河	-12.0391
幡	-12.0392
佻	-12.0392
瞿景淳	-12.0392
右俱未中早夭	-12.0393
兀	-12.0395
脾	-12.0395
汨	-12.0397
蜃	-12.0402
月二十三日	-12.0404
粢	-12.0408
各賞白金	-12.0432
指揮絹二疋鈔	-12.0511
二千九百	-12.1094
伯勒格徳依	-12.1158
曩罕㺯	-12.1165
鳯陽府人	-12.1165
布爾徳福晉	-12.1175
麵	-12.1179
宄	-12.1181
甚無謂也	-12.1182
票	-12.1182
鄧温伯	-12.1185
蕚	-12.1186
賈餘慶	-12.1186
濙	-12.1186
觀文殿學士	-12.1186
巴克什	-12.1187
熬	-12.1187
淡	-12.1187
疋棉花五斤	-12.1187
瑚	-12.1188
鎔	-12.1188
祟	-12.1188
雙溪雜記	-12.1189
豔	-12.119
湍	-12.119
哺	-12.1192
帙	-12.1193
李庭芝	-12.1194
嗣進長子為	-12.1194
曺	-12.1194
娼	-12.1195
稜	-12.1195
資政殿大學士	-12.1195
藤	-12.1195
侍御史知雜事	-12.1196
櫛	-12.1196
紫金魚袋	-12.1197
科爾沁	-12.1197
嵬	-12.1198
撲	-12.1198
故有是詔	-12.1198
檝	-12.1198
烱	-12.1198
餐	-12.1199
穽	-12.12
啜	-12.12
糊	-12.12
臥	-12.1201
厄	-12.1201
嚭	-12.1201
致書于大宋皇帝闕下	-12.1202
正八品	-12.1202
頽	-12.1203
淖	-12.1203
懃	-12.1204
睠	-12.1204
樊於期	-12.1204
椅	-12.1205
瘞	-12.1205
滁陽王	-12.1205
桎	-12.1206
刦	-12.1206
衾	-12.1206
江西金谿人	-12.1206
懿文皇太子	-12.1206
李承勛	-12.1206
日大金骨盧你移賫勃極烈左副元帥	-12.1206
㳄	-12.1206
陴	-12.1206
航	-12.1207
獷	-12.1207
鬷	-12.1207
煨	-12.1208
綋	-12.1208
妃楊氏	-12.1208
中情見貌	-12.1208
簫	-12.1209
勲階號	-12.1209
殱	-12.1209
曵	-12.1209
凌雲翼	-12.1209
逕	-12.1209
蒞	-12.1209
鎻	-12.1209
博物志	-12.121
直𨽻上海人	-12.1211
徴甲與粟於周	-12.1211
縵	-12.1211
莫離支	-12.1212
掉	-12.1212
𢎞治乙丒進士嘉靖	-12.1212
熖	-12.1212
祲	-12.1213
履正志和	-12.1213
吏科都給事中	-12.1213
散騎常侍	-12.1213
婺	-12.1213
禕	-12.1213
直𨽻束鹿人	-12.1213
磻	-12.1213
蕭維禎	-12.1213
寧陽侯陳懋	-12.1214
尚膳監	-12.1214
陌	-12.1214
直𨽻清苑人	-12.1214
帕	-12.1215
江西廬陵人	-12.1215
墊	-12.1215
少師兼太子太師吏部尚書	-12.1215
董文炳	-12.1216
右俱危身奉上	-12.1216
踞	-12.1216
夲	-12.1216
氾	-12.1216
山東濮州人	-12.1217
鏘	-12.1217
鐫	-12.1217
山東昌邑人	-12.1217
願王之熟計之也	-12.1217
右春坊右中允	-12.1218
鋸	-12.1218
直𨽻歙縣人由進士	-12.1218
宋國公馮勝	-12.1218
爌	-12.1218
柔克有光	-12.1218
楧	-12.1218
荻	-12.1219
上合格進士	-12.1219
毓	-12.1219
觀文殿大學士	-12.122
焞	-12.122
㬰	-12.122
鎣	-12.122
白金二百五十兩	-12.122
妘	-12.122
􁓑	-12.122
熒	-12.122
燬	-12.122
嘉靖壬辰進士	-12.122
昊天上帝	-12.122
糅	-12.1221
彧	-12.1221
帰	-12.1221
濊	-12.1221
琢	-12.1221
臞	-12.1221
由進士二十一年任右	-12.1222
耒	-12.1223
江西新淦人	-12.1223
盻	-12.1223
櫃	-12.1223
張儀為秦連横	-12.1223
右未中早夭	-12.1223
為大王計莫如	-12.1223
饜	-12.1223
勾當公事	-12.1224
正徳戊辰進士嘉靖	-12.1224
蟣虱	-12.1224
張邦昌	-12.1225
强學好問	-12.1225
等謹案	-12.1226
衣各一襲	-12.1226
爝	-12.1227
祜	-12.1228
蚩	-12.123
矇	-12.123
撙	-12.123
廧	-12.123
浄	-12.1233
趹	-12.1234
覉	-12.1234
葴	-12.1236
蟄	-12.1237
貞觀十六年太宗	-12.124
裋	-12.1241
右司郎中	-12.1245
罟	-12.1246
􁛄	-12.1248
十兩二表裏	-12.126
年以少師兼	-12.1266
一千石輔國將軍嵗支禄米	-12.1953
嗣在位二十	-12.2011
噣	-12.208
棚	-12.2086
坰	-12.2086
㩁	-12.2087
滿都海徹辰福晉	-12.2088
棹	-12.209
綳	-12.209
劉文靖健	-12.2091
耽	-12.2091
誚	-12.2091
义	-12.2092
嶠	-12.2092
右班殿直	-12.2093
熂	-12.2093
塾	-12.2095
迦	-12.2095
榱	-12.2095
錙	-12.2096
𦕈	-12.2096
甯	-12.2097
釋伽牟尼佛	-12.2097
蜜	-12.2097
宓	-12.2097
鏁	-12.2098
娯	-12.2098
蒭	-12.2099
舁	-12.21
睨	-12.21
博克達班禪額爾徳尼	-12.21
鐇	-12.21
羿	-12.2102
撿	-12.2103
付外施行	-12.2103
邵元節	-12.2104
伽	-12.2107
瘁	-12.2107
蓍	-12.2107
碆	-12.2107
成化戊戌進士正徳	-12.2107
鄼	-12.2107
桌	-12.2108
武定侯郭英	-12.2108
傚	-12.2108
王公錫爵	-12.2108
説與各軍總兵官	-12.2109
羅咱斡	-12.2109
滇	-12.2109
拭	-12.211
斿	-12.211
烜	-12.2111
熺	-12.2111
撞	-12.2111
湖廣華容人	-12.2111
猺	-12.2111
襲封文宣公	-12.2112
右敏而好學	-12.2112
正統壬戌進士成化	-12.2112
任同掌院事	-12.2113
适	-12.2113
筏	-12.2113
京營戎政	-12.2114
餒	-12.2114
謠	-12.2114
蔭	-12.2114
征蠻將軍	-12.2115
鼂	-12.2115
􁗁	-12.2115
開國男食邑三百户	-12.2115
舋	-12.2115
忙	-12.2115
焯	-12.2115
徤	-12.2116
文武百寮軍民僧道耆老	-12.2116
沅	-12.2116
元劉一清撰	-12.2116
牋	-12.2116
簽書樞宻院事	-12.2117
宣仁聖烈	-12.2117
坔	-12.2117
賽音阿拉克	-12.2118
明王世貞撰中官考	-12.2118
𠂻	-12.2118
絺	-12.2118
昳	-12.2118
正統戊辰進士	-12.2118
俌	-12.2119
内藏庫	-12.2119
秘閣校理	-12.2119
苫	-12.2119
脈	-12.212
疪	-12.212
孩	-12.212
直昭文館	-12.212
弇山堂别集	-12.212
年任同理院事	-12.2121
墩	-12.2121
塑	-12.2122
八品九品	-12.2122
太常禮院	-12.2122
徂	-12.2123
耦	-12.2123
癩	-12.2123
軍節度副使	-12.2124
峪	-12.2124
猿	-12.2124
朐	-12.2124
詛	-12.2125
猫	-12.2125
綵段二表裏	-12.2125
爻	-12.2125
埜	-12.2125
滹	-12.2126
埤	-12.2126
左軍都督府	-12.2126
轎	-12.2126
諉	-12.2126
捄	-12.2126
珎	-12.2126
滌	-12.2127
栐	-12.2128
米鈔中半兼支鎮國將軍嵗支禄米	-12.2128
楯	-12.2129
浙江秀水人由	-12.2129
藿	-12.2129
鏑	-12.213
馨	-12.213
祔	-12.213
黈	-12.2131
直𨽻夀州人	-12.2131
鈔二千貫	-12.2131
龍鳳十二年	-12.2131
藐	-12.2131
剿	-12.2131
栶	-12.2132
袪	-12.2132
蔀	-12.2132
荼	-12.2133
紵	-12.2134
二十六年坐藍黨論死國除	-12.2134
芋	-12.2134
䭾	-12.2135
趙肅侯十	-12.2135
儕	-12.2135
匜	-12.2135
直𨽻常熟人由進士	-12.2135
鉦	-12.2135
布按二司	-12.2136
鳬	-12.2137
襕	-12.2138
萬乘之國	-12.2138
白金四百兩	-12.214
厹	-12.214
居安思危	-12.214
脰	-12.2141
右不懈為德	-12.2143
勠	-12.2144
蹠	-12.2145
槁	-12.2146
織金及雜色文綺	-12.2164
瑑	-12.2175
薨夀四十一子	-12.2682
陕	-12.305
諶	-12.3055
錫都爾固汗	-12.3055
伊斯滿太師	-12.3065
郭爾羅斯	-12.307
哈爾固楚克	-12.3072
年降生嵗次	-12.3073
醋	-12.3083
摩倫汗	-12.3084
堦	-12.3085
卭	-12.3086
此其漸不克終	-12.3086
畱	-12.3088
偁	-12.309
麄	-12.3091
分水嶺為界	-12.3091
鴉	-12.3092
酸	-12.3093
塤	-12.3094
印綬監	-12.3094
鍚	-12.3094
霆	-12.3095
𨗳	-12.3095
文思院副使	-12.3096
盞	-12.3097
訶	-12.3097
祛	-12.3097
怕	-12.3098
苻	-12.3099
䟦	-12.3099
纆	-12.3099
昩	-12.31
昃	-12.31
変	-12.31
眺	-12.31
内殿崇班	-12.3101
千户衛鎮撫儀衛正副	-12.3101
曄	-12.3101
胤	-12.3101
驤	-12.3101
鄯	-12.3101
仿	-12.3101
欽定四庫全書弇山堂别集卷三十	-12.3101
謝文正遷	-12.3102
蹊	-12.3102
筞	-12.3102
正己攝下	-12.3102
鞬	-12.3103
筯	-12.3103
墉	-12.3104
巴特瑪繖巴斡	-12.3104
馬端肅文升	-12.3104
托克托噶太師	-12.3104
欽定四庫全書弇山堂别集卷二十	-12.3105
鈔六百錠	-12.3105
倔	-12.3105
礬	-12.3105
明王世貞撰史乗考誤	-12.3105
胡文穆廣	-12.3105
六科十三道	-12.3106
泝	-12.3106
籬	-12.3106
阿喇卜	-12.3106
沭	-12.3107
洫	-12.3107
太監劉永誠	-12.3107
劑	-12.3107
西索救於秦	-12.3107
同惡相濟	-12.3108
彭文憲時	-12.3108
泮	-12.3109
悶	-12.3109
映	-12.311
右俱敏而好學	-12.311
雌	-12.3111
雩	-12.3111
斑	-12.3112
冰	-12.3112
庖	-12.3112
栻	-12.3112
年以少傅太子太師吏部尚書	-12.3112
曹國公李文忠	-12.3112
届	-12.3112
褘	-12.3112
無咫尺之功	-12.3113
紱	-12.3113
茂材異等	-12.3113
閨	-12.3113
貰	-12.3113
公父文伯	-12.3114
崙	-12.3114
龍圖閣學士	-12.3114
征西前將軍	-12.3115
喫	-12.3115
四川巴縣人	-12.3115
欽定四庫全書錢塘遺事卷	-12.3116
浣	-12.3116
暖	-12.3116
閣門祗候	-12.3117
奉書陳逹不宣	-12.3117
换	-12.3117
殮	-12.3117
蝕	-12.3117
抹	-12.3117
瘵	-12.3117
緦	-12.3117
悚	-12.3117
憒	-12.3118
試校書郎	-12.3118
魅	-12.3118
鏌	-12.3118
戈直集論	-12.3119
韎	-12.312
漲	-12.312
總督薊遼	-12.3121
揕	-12.3121
欽定四庫全書弇山堂别集卷五十	-12.3121
嘉靖己丒進士	-12.3121
陬	-12.3121
諟	-12.3121
正徳辛巳進士嘉靖	-12.3121
補音申志反	-12.3122
靖寧侯葉昇	-12.3122
襁	-12.3122
孳	-12.3122
明王世貞撰異典述	-12.3122
日大宋皇帝致書大金國相元帥	-12.3123
髓	-12.3123
幢	-12.3123
灓	-12.3123
鱉	-12.3123
鬢	-12.3123
艮	-12.3123
褁	-12.3123
谷王橞	-12.3123
强而能斷	-12.3123
笮	-12.3123
尖	-12.3124
斁	-12.3124
庫庫特穆爾	-12.3124
甬	-12.3124
馘	-12.3124
麴	-12.3124
呪	-12.3124
嘉靖己未進士萬厯十	-12.3124
王曰何也對曰	-12.3124
堕	-12.3125
右春坊右庶子	-12.3125
嫈	-12.3125
宋鮑彪注	-12.3125
江西臨川人	-12.3125
𢎞治丙辰進士嘉靖	-12.3125
洪武乙丒進士	-12.3125
左相國徐達	-12.3125
株	-12.3125
相元帥皇子元帥	-12.3126
廣恩伯劉才	-12.3126
礱	-12.3127
稹	-12.3127
鉢	-12.3127
山東鄆城人	-12.3127
司禮監太監蕭敬	-12.3128
缶	-12.3128
橛	-12.3128
祫	-12.3128
靚	-12.3129
年任右本年丁憂	-12.3129
瑺	-12.3129
捶	-12.3129
慣	-12.3129
欽定四庫全書弇山堂别集卷九十	-12.3129
欽定四庫全書弇山堂别集卷六十	-12.3129
直𨽻虹縣人	-12.3129
㰱	-12.3129
肸	-12.3129
刘	-12.3129
鈔九十錠	-12.313
开	-12.313
晳	-12.313
䢿	-12.313
顏	-12.3131
特進光祿大夫柱國	-12.3131
嘉勒斯賚	-12.3131
臀	-12.3131
炯	-12.3131
啖	-12.3132
欽定四庫全書弇山堂别集卷七十	-12.3132
郗	-12.3132
糲	-12.3133
菟	-12.3133
該管頭目	-12.3134
癉	-12.3134
娛	-12.3134
騫	-12.3135
頷	-12.3136
浙江蘭谿人	-12.3136
竺	-12.3138
剸	-12.3138
蛾	-12.3138
狙	-12.3139
顱	-12.314
犢	-12.314
襪	-12.314
僥	-12.314
鈔一千錠	-12.3143
餔	-12.3143
鈔二千錠	-12.3144
蟠	-12.3145
蔿	-12.3145
僬	-12.3146
僂	-12.3146
穫	-12.3147
右容儀恭羙	-12.3147
邲	-12.3147
柤	-12.315
蚡	-12.315
忖	-12.3156
醳	-12.3162
窋	-12.3203
錠綿布二疋	-12.3213
伊納克格爾	-12.4151
羖	-12.4175
鴞	-12.4184
瑣綴録	-12.4187
搬	-12.4188
摩里海王	-12.4194
憶	-12.4194
古爾伯勒津郭斡哈屯	-12.4195
閘	-12.4195
魀	-12.4195
郃	-12.4196
岢	-12.4196
儷	-12.4197
弟姪一人錦衣衞	-12.4201
䝉郭勒津	-12.4202
窩	-12.4204
帕克巴喇嘛	-12.4205
沼	-12.4206
鏃	-12.4207
緍	-12.4207
欹	-12.4207
拽	-12.4209
闌	-12.4209
蘖	-12.4209
秪	-12.421
穜	-12.421
痕	-12.421
箱	-12.4211
宷	-12.4211
博碩克圖	-12.4211
猪	-12.4211
藉兵乞食	-12.4211
柬	-12.4211
攅	-12.4212
彀	-12.4212
筐	-12.4213
百户所鎮撫典仗	-12.4213
伊蘇凱巴圖爾	-12.4213
嘔	-12.4214
東觀奏記	-12.4214
惹	-12.4214
通進銀臺司	-12.4214
欽定四庫全書欽定䝉古源流卷	-12.4216
鞋	-12.4217
湖廣茶陵人	-12.4217
袑	-12.4217
黏	-12.4217
閬	-12.4217
梁文康儲	-12.4217
郸	-12.4218
挨	-12.4218
槌	-12.4218
峴	-12.4218
鋐	-12.4219
以講學領南院	-12.4219
桷	-12.4219
欄	-12.4219
嶧	-12.422
垓	-12.4221
盱	-12.4221
卓哩克圖	-12.4221
酺	-12.4221
朱氏黼曰	-12.4221
殂	-12.4222
張氏九成曰	-12.4222
獠	-12.4222
龍圖閣待制	-12.4223
槿	-12.4223
鑨	-12.4223
人言市有虎王信之乎王曰	-12.4223
壠	-12.4224
賃	-12.4224
蹵	-12.4224
島	-12.4224
恫	-12.4224
郜	-12.4224
覔	-12.4225
無其實而有其名者	-12.4225
幕職州縣官	-12.4225
秤	-12.4226
成化乙未進士正徳	-12.4226
纁	-12.4226
訏	-12.4227
阡	-12.4227
悝	-12.4227
澍	-12.4228
奉天靖難推誠宣力武臣	-12.4228
訒	-12.4228
榦	-12.4228
永昌侯藍玉	-12.4228
將作監主簿	-12.4228
奉陽君告朱讙	-12.4228
閤門祗候	-12.4229
收回成命	-12.4229
東川侯胡海	-12.4229
鼗	-12.4229
薰	-12.4229
才識兼茂明于體用	-12.4229
正徳丁丒進士嘉靖	-12.4229
郪	-12.423
織染局	-12.423
㺯	-12.423
讟	-12.423
鍔	-12.423
礛	-12.423
額森托噶	-12.423
酈	-12.423
愴	-12.4231
榕	-12.4231
三班奉職	-12.4231
渇	-12.4231
歌曰長鋏歸來乎	-12.4232
倂	-12.4232
繻	-12.4232
鼃	-12.4232
琚	-12.4233
馮宋公勝	-12.4233
行善可紀	-12.4233
蟹	-12.4233
桴	-12.4233
齧	-12.4234
春申君曰何謂無妄之	-12.4234
聰明睿智	-12.4234
洿	-12.4234
顚	-12.4234
欲廢中山之王	-12.4234
烏格齊哈什哈	-12.4234
俚	-12.4235
熲	-12.4236
継	-12.4236
欽定四庫全書戰國策校注卷	-12.4237
入繼大統	-12.4237
壩	-12.4237
齕	-12.4237
召中山與之遇而許之王	-12.4237
襖	-12.4238
以兵部左侍郎兼僉都御史任	-12.4238
断	-12.4238
訔	-12.4238
齮	-12.4238
嘉靖庚戌進士萬厯	-12.4239
䍧	-12.4239
違拂不成	-12.4239
𢎞治己未進士嘉靖	-12.4239
胃	-12.4239
湟	-12.424
爍	-12.424
漦	-12.424
侣	-12.424
正徳辛未進士嘉靖	-12.424
浙江歸安人	-12.424
纊	-12.4241
勝敵克亂	-12.4241
明王世貞撰卿貳表	-12.4241
圄	-12.4241
桑維翰	-12.4241
裼	-12.4241
顕	-12.4242
少保太子太保禮部尚書武英殿大學士	-12.4243
王嵗支禄米一萬石	-12.4243
櫝	-12.4244
爨	-12.4244
蜚	-12.4245
唐制嵗該米	-12.4245
咸寧侯仇鸞	-12.4246
离	-12.4246
沲	-12.4246
㳅	-12.4247
驃	-12.4248
牂	-12.4248
無子庶二弟	-12.4248
祿九百石	-12.4248
鬴	-12.4249
済	-12.425
呴	-12.425
蜂	-12.425
觭	-12.4252
馬駝牛羊	-12.4253
扮	-12.4253
蟬	-12.4254
紃	-12.4254
跼	-12.4255
亟入下東國	-12.4256
隩	-12.4257
剄	-12.4257
蹹	-12.4259
馹	-12.426
埽	-12.4268
棬	-12.427
舂	-12.4294
年以少傅武英殿學	-12.4361
兩綵幣三表裏鈔	-12.4668
挹	-12.5423
鍇	-12.5434
上合格上舍生	-12.5437
麓	-12.5441
帕克巴巴喇宻特	-12.5441
甑	-12.5441
博勒呼濟農	-12.5442
革除逸史	-12.5444
直龍圖閣	-12.5448
佽	-12.5448
碁	-12.5448
費文憲宏	-12.5451
狭	-12.5452
䱧	-12.5452
嗤	-12.5453
桔	-12.5453
鋼	-12.5453
踧	-12.5453
塢	-12.5454
章獻明肅	-12.5455
豸	-12.5455
曦	-12.5455
博迪薩都	-12.5455
祸	-12.5456
庫圖克台	-12.5456
竱	-12.5456
觔	-12.5456
漣	-12.5458
燄	-12.5458
竚	-12.5459
水東日記	-12.5459
𠫭	-12.5459
栽	-12.5459
鑊	-12.5459
夹	-12.5459
簟	-12.546
姫	-12.546
鄀	-12.5461
慴	-12.5461
兑	-12.5461
矍	-12.5462
林氏之竒曰	-12.5462
脇	-12.5462
員首領官一員	-12.5462
价	-12.5463
荏	-12.5463
鎋	-12.5463
璨	-12.5463
倐	-12.5464
扆	-12.5464
衆寡不敵	-12.5464
慕容延釗	-12.5464
侠	-12.5465
制置三司條例	-12.5465
勍	-12.5465
卲	-12.5465
乾隆四十六年	-12.5465
漓	-12.5467
燃	-12.5467
紕	-12.5467
翮	-12.5468
蛤	-12.5468
剔	-12.5468
寬	-12.5468
徉	-12.5468
蹷	-12.5468
廻	-12.5469
磯	-12.5469
山東海豐人	-12.5469
搤	-12.5469
崧	-12.5469
轢	-12.5469
缾	-12.547
酧	-12.547
鑚	-12.547
㬥	-12.547
瘐	-12.547
迕	-12.5471
諼	-12.5471
鵝	-12.5471
賢良方正直言極諫	-12.5471
魔	-12.5472
蠢	-12.5472
醯	-12.5472
坻	-12.5472
喘	-12.5473
腴	-12.5473
爇	-12.5473
捂	-12.5473
𧺫	-12.5474
孶	-12.5475
冺	-12.5476
鈆	-12.5476
嚂	-12.5477
篁	-12.5477
爐	-12.5477
撮	-12.5477
勺	-12.5477
定逺侯王弼	-12.5479
崤	-12.5479
鯷	-12.5479
讞	-12.5479
窄	-12.548
灘	-12.548
嘿	-12.548
鑽	-12.548
冇	-12.548
吻	-12.548
巴爾斯博羅特	-12.548
鹹	-12.5481
謇	-12.5481
垕	-12.5481
鄠	-12.5481
掣	-12.5481
茌	-12.5481
鑛	-12.5481
霈	-12.5481
埭	-12.5481
年任本年丁憂	-12.5482
御集英殿策試遂賜	-12.5482
詒	-12.5482
眄	-12.5482
成山侯王通	-12.5482
􁨄	-12.5482
普定侯陳桓	-12.5482
􁇨	-12.5482
霧	-12.5483
㛮	-12.5483
煽	-12.5483
定國公徐光祚	-12.5483
㽔	-12.5483
然而臣有患也	-12.5483
鈇	-12.5483
釘	-12.5484
儇	-12.5484
咱噶喇斡	-12.5484
蘧	-12.5484
浙江仙居人	-12.5484
个	-12.5484
圎	-12.5484
港	-12.5484
鄔	-12.5484
傭	-12.5485
􁲵	-12.5485
肴	-12.5485
沫	-12.5485
獺	-12.5486
䋲	-12.5486
剬	-12.5486
軋	-12.5486
顙	-12.5486
衒	-12.5487
𢎞治癸丒進士嘉靖	-12.5487
緊	-12.5487
忒	-12.5487
延安侯唐勝宗	-12.5487
年以禮部尚書文淵閣大學士進加	-12.5487
臾	-12.5488
摹	-12.5488
榷	-12.5488
鏗	-12.5488
滲	-12.5489
鈁	-12.5489
逭	-12.549
瑪廸都斡咱	-12.549
剡川姚宏	-12.549
絨	-12.549
偈	-12.549
攻管而不下	-12.5491
鴨	-12.5491
熄	-12.5491
薳	-12.5491
輢	-12.5492
羹	-12.5492
保國公朱永	-12.5492
具如别幅	-12.5492
禮部尚書掌詹事府事翰林院學士	-12.5492
犛	-12.5492
瀕	-12.5492
浙江黄巖人	-12.5493
芘	-12.5493
歜	-12.5493
肻	-12.5494
掫	-12.5494
艶	-12.5494
成國公朱希忠	-12.5494
孫海客用	-12.5494
歠	-12.5495
擡	-12.5495
竅	-12.5495
窒	-12.5495
絣	-12.5495
嘉靖丙戌進士三十	-12.5495
錠六品七品	-12.5497
㯽	-12.5497
撒离母	-12.5497
廕一子錦衣	-12.5497
輳	-12.5498
憩	-12.5499
瘨	-12.5499
薨夀五十八子	-12.5501
碾	-12.5501
机	-12.5501
㕹	-12.5501
鎮南軍節度	-12.5502
庳	-12.5503
攣	-12.5503
􁢉	-12.5503
硬	-12.5503
耎	-12.5503
幃	-12.5506
浃	-12.5507
遡	-12.5507
㸑	-12.5509
躧	-12.5509
墢	-12.5509
畡	-12.5512
廱	-12.5514
沓	-12.5517
䄈	-12.5542
都御史仍前任	-12.5585
薨夀四十九子	-12.5599
阿爾噶遜	-12.6816
穵	-12.6851
滿都古勒汗	-12.6858
虬	-12.686
賕	-12.6862
青吉斯汗	-12.6862
磋	-12.6863
孑	-12.6864
阿卜都拉徹辰	-12.6867
茨	-12.6868
秬	-12.6868
髯	-12.6869
䜿	-12.687
痊	-12.6872
和托卜罕	-12.6872
樣	-12.6873
閾	-12.6874
称	-12.6875
燆	-12.6875
釵	-12.6876
仭	-12.6877
噪	-12.6877
僱	-12.6879
蕙	-12.6879
蔆	-12.6879
剝	-12.6881
阿噶巴爾濟	-12.6882
颺	-12.6882
鵕	-12.6882
徯	-12.6885
碗	-12.6885
嘲	-12.6885
肫	-12.6885
蛟	-12.6885
彿	-12.6885
恒山公仙	-12.6885
啞	-12.6886
喋	-12.6886
定襄王朱希忠	-12.6887
莱	-12.6887
袴	-12.6888
唐余知古撰	-12.6888
杳	-12.6889
暄	-12.6889
雛	-12.6889
任右都御史掌院事	-12.6889
棱	-12.6889
糖	-12.689
右德性寛和	-12.6891
栅	-12.6891
襜	-12.6891
粃	-12.6892
禰	-12.6892
瑪噶達國	-12.6892
尓	-12.6893
肌	-12.6893
慁	-12.6893
渤	-12.6893
𢡟	-12.6893
訣	-12.6894
伊拉呼丞相	-12.6894
惛	-12.6894
姝	-12.6894
中大夫同知樞宻院事孫傅等状	-12.6894
筴	-12.6895
籙	-12.6895
僦	-12.6895
壼	-12.6895
窑	-12.6895
週	-12.6895
呌	-12.6896
張儀為秦破從連横	-12.6896
糟	-12.6896
棡	-12.6897
崐	-12.6897
忸	-12.6897
闥	-12.6897
加兼再以少傅兼	-12.6897
卉	-12.6897
畵	-12.6897
窠	-12.6897
鯨	-12.6897
成化壬辰進士正徳	-12.6898
憖	-12.6898
翩	-12.6899
玞	-12.6899
磽	-12.6899
簇	-12.69
俵	-12.69
鎮逺侯顧寰	-12.69
睥	-12.69
翹	-12.69
纏	-12.69
彉	-12.6901
景泰甲戌進士𢎞治	-12.6901
從平中原功多封	-12.6901
芸	-12.6902
闐	-12.6902
妍	-12.6902
紆	-12.6903
廣東東莞人	-12.6903
礮	-12.6903
塨	-12.6903
命左春坊左諭徳兼翰林院侍讀	-12.6903
曝	-12.6903
禳	-12.6904
圯	-12.6904
墝	-12.6904
蕢	-12.6904
脤	-12.6904
氏東城兵馬指揮	-12.6904
衛永逺充軍	-12.6904
璚	-12.6904
玭	-12.6905
嘉靖癸丒進士萬厯	-12.6905
執心决斷	-12.6905
伏羌伯毛鋭	-12.6905
閒中今古録言	-12.6906
跽	-12.6906
佀	-12.6906
右俱誠意見外	-12.6906
初鮮克有終	-12.6906
渦	-12.6906
逗	-12.6906
刖	-12.6906
王璟山東沂州人	-12.6906
登聞鼓院	-12.6907
懣	-12.6907
厎	-12.6907
聮	-12.6907
閶	-12.6907
靦	-12.6907
串	-12.6908
玹	-12.6908
同學究出身	-12.6909
垠	-12.6909
是故願大王之熟計之也	-12.6909
孿	-12.6909
凜	-12.6909
與韓氏大吏東勉	-12.6909
嘱	-12.6909
鞘	-12.6909
秦紘山東單縣人	-12.6909
秫	-12.6909
襄城伯李隆	-12.691
憱	-12.691
聖人不易民而教智者不變	-12.691
沍	-12.6911
幔	-12.6911
軷	-12.6911
鬛	-12.6911
柲	-12.6911
勗	-12.6912
秦敗魏於華	-12.6912
額爾徳尼	-12.6912
劬	-12.6912
右俱清白守節	-12.6912
擎	-12.6913
斾	-12.6913
鍍	-12.6913
富察世逹	-12.6913
松漠紀聞	-12.6914
爟	-12.6914
煑	-12.6914
饔	-12.6914
蹴	-12.6915
八年任右九年轉左	-12.6915
北京行部尚書	-12.6915
鍑	-12.6915
覡	-12.6915
階勲號襲如延安進同知大都督府	-12.6915
庀	-12.6915
湮	-12.6915
費宷江西鉛山人	-12.6916
糠	-12.6916
惱	-12.6916
实	-12.6916
埓	-12.6916
烷	-12.6916
窮兵黷武	-12.6916
誃	-12.6917
么	-12.6917
設令一人正七品丞一人從七品	-12.6917
宋鮑彪原注元吳師道補正	-12.6917
刲	-12.6917
皁	-12.6918
鯤	-12.6918
㡳	-12.6918
悁	-12.6918
欲合齊秦外楚以輕	-12.6918
簋	-12.6918
濺	-12.6918
鎮國中尉嵗支禄米四百石	-12.6918
陽武侯薛禄	-12.6918
埴	-12.6918
眊	-12.6918
戟	-12.6918
醖	-12.6919
儌	-12.6919
少傅太子太傅户部尚書謹身殿大學士	-12.6919
蒍	-12.6921
瀞	-12.6921
肢	-12.6921
勃端察爾	-12.6921
暌	-12.6921
黻	-12.6921
猗	-12.6921
騤	-12.6922
翁大立浙江餘姚	-12.6922
轘	-12.6922
中年早夭	-12.6923
不安席食不甘味	-12.6923
此固已無霸王之道	-12.6923
潘晟浙江新昌人	-12.6923
褰	-12.6923
籩	-12.6924
堀	-12.6924
娙	-12.6924
贐	-12.6924
煃	-12.6924
潪	-12.6924
白璧百雙	-12.6924
魯府鉅野	-12.6924
有隂於秦魏也	-12.6924
腊	-12.6925
雹	-12.6926
錦繡千純	-12.6926
楚昭獻相韓	-12.6926
計無便於此者	-12.6926
騖	-12.6927
嵇	-12.6927
毖	-12.6927
以太子太保禮部尚書武英殿大學士加	-12.6927
冑	-12.6927
𤱔	-12.6929
淂	-12.6929
陸光祖浙江平湖人	-12.6929
崢	-12.693
督易州山厰	-12.693
畚	-12.693
漉	-12.693
滂	-12.6931
蝦	-12.6932
成安侯郭亮	-12.6932
鞴	-12.6933
坐蟒蟒衣各一襲	-12.6934
姟	-12.6934
僊	-12.6935
䡰	-12.6935
瓖	-12.6936
一疋織金胸背	-12.6939
盪	-12.6939
右俱容儀恭羙	-12.6939
跔	-12.6942
俆	-12.6942
跗	-12.6942
耰	-12.6966
賢良方正能直言極諫科	-12.7336
幻	-12.8517
攪	-12.8526
磉	-12.8528
鞨	-12.8532
插	-12.8534
鄮	-12.8534
㚥	-12.8535
檛	-12.8537
簞	-12.8539
扉	-12.854
產	-12.854
鍛	-12.854
梁王長主也必不	-12.8541
芽	-12.8541
倩	-12.8542
蛙	-12.8544
擕	-12.8544
苞	-12.8545
莞	-12.8546
匭	-12.8546
輾	-12.8546
恡	-12.8546
儘	-12.8547
拖	-12.8547
酹	-12.8547
蛉	-12.8548
濛	-12.8548
垜	-12.8549
慕容彦超	-12.855
褫	-12.855
鏖	-12.8551
臍	-12.8552
澣	-12.8552
額色勒貝侍衛	-12.8552
炮	-12.8553
稂	-12.8553
脧	-12.8553
􁰋	-12.8555
娃	-12.8555
晡	-12.8555
姨	-12.8555
喂	-12.8555
禠	-12.8556
攽	-12.8557
拄	-12.8557
犄	-12.8557
癡	-12.8558
縈	-12.8558
姤	-12.8559
罜	-12.8559
迥	-12.8559
傘	-12.8559
稗	-12.8559
公行之計是其於	-12.856
成化己丒進士	-12.856
埸	-12.856
張佳𦙍四川銅梁人	-12.8561
裡	-12.8561
梨	-12.8561
噉	-12.8561
壙	-12.8561
九十錠千户衛鎮撫絹二疋鈔	-12.8562
有一人相魏者代曰	-12.8562
逯	-12.8562
𤨏	-12.8562
曰田需死吾恐張儀薛公	-12.8563
陁	-12.8563
噶里雅納汗	-12.8563
㕁	-12.8564
胖	-12.8564
為人後者為其父母	-12.8564
辤	-12.8564
以百里之地請殺	-12.8564
梵	-12.8564
胞	-12.8565
畒	-12.8565
褊	-12.8565
無有名山大川之限	-12.8565
鬩	-12.8565
雯	-12.8565
定身封此百代	-12.8566
菹	-12.8566
夫江上之處女	-12.8567
濘	-12.8567
媮	-12.8567
箒	-12.8567
溷	-12.8567
营	-12.8567
㟁	-12.8567
詖	-12.8567
讋	-12.8568
緜	-12.8568
㩦	-12.8568
何以至今不業也	-12.8568
􁅾	-12.8568
潯	-12.8569
鈴	-12.8569
鬃	-12.8569
使秦王烹醢梁王	-12.8569
以兵部左侍郎兼僉都御史總	-12.8569
河薄洛之水	-12.8569
無其名又無其實者王	-12.8569
燕出銳師以佐之	-12.8569
銲	-12.857
暠	-12.857
三年與楚三晉攻秦	-12.857
額訥特珂克土伯特䝉古汗等源流	-12.857
憍	-12.857
彚	-12.8571
隆平侯張信	-12.8571
莖	-12.8571
物固有勢異而患同者	-12.8571
徐公何能及君也	-12.8571
之所欲於魏者長平	-12.8571
迅	-12.8572
屣	-12.8572
熇	-12.8572
尢	-12.8572
疹	-12.8572
迸	-12.8572
則其國無宿憂	-12.8572
懧	-12.8572
斷長續短方數千里名師數百萬	-12.8572
貊	-12.8572
𥙿	-12.8573
嗚	-12.8573
後起則諸侯可趨役也	-12.8573
趙使姚賈約韓魏	-12.8573
鉟	-12.8573
十年之田而不償也	-12.8573
各鈔五百貫絹	-12.8573
愒	-12.8573
王屋洛林之地	-12.8573
階勲號襲如延安	-12.8573
謔	-12.8574
是秦禍不離楚也	-12.8574
日大楚皇帝邦昌謹致書于國	-12.8574
楎	-12.8574
炷	-12.8574
勳	-12.8574
􁄰	-12.8574
􁈍	-12.8575
㵣	-12.8575
盲	-12.8575
平虜伯朱彬	-12.8575
悵	-12.8575
欬	-12.8575
身而之梁齊必舉兵伐	-12.8575
坼	-12.8575
封奉天翊運推誠宣力武臣	-12.8575
􁃛	-12.8575
以五百里之地易安陵安陵君	-12.8576
賈詠河南臨潁人	-12.8576
奉天承運皇帝制曰	-12.8576
扛	-12.8576
䌓	-12.8576
變古之教易古之道	-12.8576
去王以其間伐韓入三川出兵	-12.8576
綘	-12.8576
而死烏獲之力而死	-12.8576
西周天下惡之其救韓必疾則茂事敗矣	-12.8576
紲	-12.8577
嚇	-12.8577
㑹昌侯孫繼宗	-12.8577
錠編伍舍人家人餘丁民人鈔	-12.8577
怛	-12.8577
碍	-12.8577
釋此而襲逺方之	-12.8577
隃	-12.8577
府親王一位在省	-12.8577
闍	-12.8577
橘	-12.8577
癲	-12.8577
异	-12.8578
軍殺將得八城	-12.8578
麀	-12.8578
秦非不利有齊而得宋地	-12.8578
茹瑺湖廣衡山人	-12.8578
惡得此亡國之言乎	-12.8579
奉天翊衛宣力武臣特進榮祿大夫柱國	-12.8579
猒	-12.8579
陶琰山西絳州人	-12.8579
万	-12.858
泚	-12.858
蕞	-12.858
􁧨	-12.858
葉陽君涇陽君之	-12.858
計者東方有大變	-12.858
賽瑪爾堪	-12.858
骿	-12.858
然後王可以多割地	-12.8581
儳	-12.8581
奉天翊運推誠宣力守正	-12.8581
烴	-12.8582
簴	-12.8582
塩	-12.8582
廟實録成賜監修太	-12.8582
髀	-12.8582
禓	-12.8582
使於韓矯以新城陽人	-12.8582
秕	-12.8582
匀	-12.8582
強國也大王天下之賢	-12.8582
以賂燕趙出兵以攻中山	-12.8582
璆	-12.8582
粻	-12.8582
葅	-12.8582
不聽是公之智困	-12.8583
王軾湖廣公安人	-12.8583
楸	-12.8583
天下固量秦力	-12.8583
蹔	-12.8583
單解裘而衣之	-12.8583
臊	-12.8583
之長計今上客	-12.8584
嶮	-12.8584
曰公叔伯嬰恐秦楚之	-12.8584
盭	-12.8584
嗞	-12.8584
􁟸	-12.8584
交淺而言深是	-12.8584
有城市之邑七十	-12.8584
謀人之心而令人	-12.8584
帚	-12.8584
總督陜西三邊軍務	-12.8585
懔	-12.8585
鵡	-12.8585
王本固直𨽻邢臺人	-12.8585
畯	-12.8585
麽	-12.8585
齍	-12.8585
王嵗支本色禄米	-12.8585
者於王何如王曰此	-12.8585
瞰	-12.8586
煐	-12.8586
緤錯挐薄	-12.8586
鸚	-12.8586
嫫	-12.8586
殺晉鄙救邯鄲破秦人存趙國	-12.8586
焦泌陽芳	-12.8587
牣	-12.8587
穉	-12.8587
事秦稱東藩築帝宫	-12.8587
鄭洛直𨽻安肅人	-12.8587
還而視之去而顧之	-12.8587
韣	-12.8587
飡	-12.8588
魏王曰然則射可至此乎更羸曰	-12.8588
楬	-12.8588
顗	-12.8588
憧	-12.8588
紋	-12.8589
顔率至齊謂齊王	-12.8589
莫敖子華對曰昔	-12.8589
再戰而再勝	-12.8589
又安敢言地楚王曰善乃	-12.8589
腥	-12.8589
刼弑死亡之主	-12.8589
瓌	-12.8589
蝎	-12.8589
璃	-12.859
韓氏急必懸命於楚又何新	-12.859
漢之起二百四	-12.859
齊南破楚西屈秦用韓魏之兵燕趙	-12.859
淩	-12.859
王杲山東汶上人	-12.859
􁅅	-12.859
撡	-12.859
趙府洛川王	-12.859
不愛丈夫子獨甚	-12.859
無一介之使以存之	-12.859
姚䕫浙江桐廬人	-12.8591
候台㫖天㑹五年二月	-12.8591
則形同憂而兵趨利也	-12.8591
隲	-12.8591
塞漏舟而輕陽侯之波	-12.8591
粘	-12.8592
楊行中順天通州人	-12.8593
秦乃在河西晉國之去	-12.8593
剱	-12.8593
菽園雜記	-12.8593
螟	-12.8594
三王不足四五霸不足六	-12.8594
辭倨而幣薄	-12.8594
守趙之質子以甲	-12.8595
四鄰諸侯可朝也	-12.8595
陵三晉然則是一舉而霸王之名可成也	-12.8595
魏王使客將軍辛垣衍	-12.8595
藥囊提荆軻	-12.8595
悽	-12.8596
軔	-12.8596
蜺	-12.8597
所言者國大事也願先生勿泄也	-12.8597
舉巴蜀并漢中	-12.8597
􁞞	-12.8597
不為爵勸不為禄勉以憂社稷者	-12.8597
伏軾結靷	-12.8598
馳者未有一人言善	-12.8598
對曰弗如也王曰	-12.8598
邰	-12.8599
剡	-12.8599
説與遊撃將軍都督劉江	-12.86
脣	-12.8601
曰燕秦不兩立願先生留意也	-12.8601
莾	-12.8602
太子者以市下東國也	-12.8602
昊天有成命	-12.8602
毘	-12.8603
㢋	-12.8603
吃	-12.8603
鐲	-12.8604
妎	-12.8604
穪	-12.8605
累戰功封階勲號襲如延安	-12.8605
摽	-12.8605
十兩紵絲二表裏	-12.8607
檢頭目總旗總甲鈔	-12.8607
剛成君蔡澤事燕三年而燕太子	-12.8607
而習於事必不益趙甲四萬人以伐齊	-12.8609
封二子者各萬家之縣一	-12.861
於轅門之外其	-12.861
氏自經死贈淑人	-12.8612
曰曾參殺人其母	-12.8613
蓑	-12.8622
篓	-12.8625
梳	-12.8639
薩爾塔郭勒	-13.0501
鐙	-13.0503
麯	-13.0517
詁	-13.0519
求以報吳願以此戰包胥曰善	-13.052
殣	-13.0522
撚	-13.0523
忮	-13.0523
疢	-13.0524
蘇代自齊獻書於燕	-13.0527
戅	-13.0527
甦	-13.0529
薑	-13.053
寀	-13.0531
弈	-13.0533
鴿	-13.0533
夥	-13.0534
締	-13.0539
􁙉	-13.0539
尼洛木塔拉	-13.054
呼必賚徹辰汗	-13.054
笛	-13.0542
麪	-13.0542
伊巴哩滿都賚	-13.0542
蒱	-13.0542
妥	-13.0543
蠅	-13.0543
鈔四百貫絹二	-13.0543
澶	-13.0544
棻	-13.0544
一鶚直𨽻曲周人	-13.0545
箔	-13.0545
冄	-13.0545
党	-13.0546
尼雅持贊博汗	-13.0547
泳	-13.0547
秔	-13.0548
綖	-13.0548
徑三分圍九分長九十分	-13.0549
檖	-13.0549
单	-13.0549
枇	-13.0549
絮	-13.055
庵	-13.055
􁲱	-13.055
𫀆	-13.0551
偲	-13.0551
攟	-13.0551
窻	-13.0551
絙	-13.0551
硯	-13.0552
鎮逺侯顧興祖	-13.0552
墅	-13.0552
凌漢河南原武人	-13.0552
綍	-13.0553
㔋	-13.0554
偰	-13.0554
聯	-13.0554
靺	-13.0554
不足者也非然則欲以天	-13.0554
煴	-13.0554
燇	-13.0554
令秦攻魏以成其私	-13.0554
為無患與人無争也不知夫	-13.0555
峭	-13.0555
㝎	-13.0556
悊	-13.0556
徬	-13.0557
㐲	-13.0557
卅	-13.0557
𢋫	-13.0557
掦	-13.0557
型	-13.0557
浞	-13.0557
焜	-13.0558
鵰	-13.0558
瀼	-13.0558
垙	-13.0558
右俱德性寛和	-13.0558
淤	-13.0559
瘉	-13.0559
年攻燕取狸陽城	-13.0559
橦	-13.0559
其子鎮海鎮東節度使惟濬	-13.0559
㷀	-13.0559
弹	-13.0559
閃	-13.056
刹	-13.056
衊	-13.056
髽	-13.056
㨂	-13.0561
勻	-13.0562
夐	-13.0562
槊	-13.0562
願公之熟計之也	-13.0562
卸	-13.0562
爀	-13.0562
酗	-13.0562
淦	-13.0562
􁊛	-13.0563
膈	-13.0564
或謂公仲曰今有一舉	-13.0564
濰	-13.0564
鄚	-13.0564
秦舉安邑而塞女㦸	-13.0564
洊	-13.0564
張儀之殘樗里	-13.0564
秦敗東周與魏戰	-13.0564
钁	-13.0564
毡	-13.0564
謂魏冉曰楚破秦	-13.0564
􁒯	-13.0565
瀹	-13.0565
烇	-13.0565
衮必里克墨爾根濟農	-13.0565
周經山西陽曲人	-13.0565
曖	-13.0565
趙勉湖廣夷陵人	-13.0565
年生佔據右翼	-13.0565
鞾	-13.0566
臠	-13.0566
犀武敗於伊闕	-13.0566
咏	-13.0566
旗甲軍民通事火長小厮軍匠軍行人鈔	-13.0566
民醫匠人厨役行人稍水并家人鈔	-13.0566
燕則豈楚之任也哉	-13.0566
搭	-13.0567
塜	-13.0567
瓿	-13.0567
袤	-13.0567
謩	-13.0567
祊	-13.0567
扄	-13.0567
手詔平山張覺招納叛亡	-13.0567
袀	-13.0567
遯	-13.0567
生𢎞治四年八月十五日封	-13.0567
稑	-13.0567
燠	-13.0568
􁰆	-13.0568
峡	-13.0568
琇	-13.0568
趋	-13.0568
秦召魏相信安君	-13.0568
周洪謨四川長寧人	-13.0569
鈸	-13.0569
号	-13.0569
髦	-13.0569
勅都督劉江朱榮	-13.0569
鋷	-13.0569
皿	-13.057
楊博山西蒲州人	-13.057
赭	-13.057
呑	-13.057
䣆	-13.057
黝	-13.057
瓠	-13.057
啣	-13.0571
蔡恃晉而亡此	-13.0571
暏	-13.0571
袠	-13.0571
譌	-13.0571
叢蘭山東文登人	-13.0571
幙	-13.0571
籖	-13.0571
楚圍雍氏韓令冷向	-13.0571
齊王曰寡人將寄徑於	-13.0572
佾	-13.0572
書判拔萃科	-13.0572
檉	-13.0573
朘	-13.0573
敝邑之事王亦無齊累矣	-13.0573
王廷四川南充人	-13.0573
貓	-13.0573
娵	-13.0573
宣力武臣特進榮祿大夫柱	-13.0573
景泰甲戌進士成化二十	-13.0573
娠	-13.0574
韙	-13.0574
靷	-13.0574
嚙	-13.0574
收秦太后之養地	-13.0574
捃	-13.0574
㪚	-13.0575
剉	-13.0575
斈	-13.0575
文侯與虞人期	-13.0575
哂	-13.0576
迃	-13.0576
栘	-13.0576
聃	-13.0576
􁄍	-13.0576
峻宇雕墻	-13.0576
璇	-13.0576
矞	-13.0576
襲如成陽嵗祿一千	-13.0576
烏哈噶圖汗	-13.0577
餧	-13.0577
齊攻宋宋使臧子	-13.0577
屨	-13.0577
案兵而後起寄怨而誅不直	-13.0577
劉天和湖廣麻城人	-13.0577
躭	-13.0577
梁之大盗趙之逐臣	-13.0577
稯	-13.0577
左春坊左贊善	-13.0577
孃	-13.0578
彥	-13.0578
廛	-13.0578
搔	-13.0578
傿	-13.0578
爁	-13.0579
淓	-13.0579
萑	-13.0579
凾	-13.0579
合秦楚外齊以輕	-13.0579
妺	-13.0579
王學䕫江西安福人	-13.0579
鎜	-13.0579
窕	-13.0579
錬	-13.0579
此兩者所以成官而順政也非所以	-13.0579
秦有鄭地得垣雍	-13.0579
謂應侯曰君禽馬服	-13.0579
藎	-13.058
儀儀之所在必舉兵伐之故儀願乞不肖	-13.058
髭	-13.058
􁈩	-13.058
燕封宋人榮蚠	-13.058
滙	-13.058
㓗	-13.058
上計破秦其次長賔	-13.058
張鵬直𨽻淶水人	-13.058
槽	-13.0581
犴	-13.0581
函谷而無伐以臨周祭器必出	-13.0581
萱	-13.0581
若是則齊君可正	-13.0581
媼	-13.0582
荗	-13.0582
上及太后下至大臣願先	-13.0582
瑊	-13.0582
趙收天下且以伐齊	-13.0582
枵	-13.0582
且夫三代不同服而王五	-13.0582
趙廷瑞直𨽻開州人	-13.0583
顔率曰大王勿憂臣請東	-13.0583
秦使趙攻魏魏謂趙王	-13.0583
芹	-13.0583
致萬家之邑一於智伯智伯說又使人	-13.0584
正統乙丒進士成化	-13.0584
譚綸江西宜黄人	-13.0584
縉雲鮑彪校注東陽呉師道重校	-13.0584
鸇	-13.0584
大小之禍可見於前事矣	-13.0584
王廷相河南儀封	-13.0584
謂馬多力則有矣若曰勝千鈞則不然者	-13.0584
筥	-13.0584
瞢	-13.0585
霍冀山西孝義人由進士四十	-13.0585
䂓	-13.0585
蠹	-13.0585
禫	-13.0585
舸	-13.0585
傋	-13.0586
鍥	-13.0586
菁	-13.0586
朱衡江西萬安人	-13.0586
鴳	-13.0586
鮞	-13.0586
何也夫千鈞非馬之任也今謂楚	-13.0587
於成事智者見於未萌	-13.0587
樟	-13.0587
浡泥國王麻邪惹加那乃	-13.0587
總督軍務威武大將軍總兵官	-13.0587
貂勃曰然臣固知王不若也	-13.0587
李承勛湖廣嘉魚人	-13.0587
諴	-13.0587
馮天馭湖廣蘄州人	-13.0587
石米鈔中半兼支襲封同	-13.0587
曁	-13.0588
遄	-13.0589
牗	-13.0589
䴠	-13.0589
樛	-13.0589
喏	-13.0589
疑事無功疑行無名	-13.0589
身自削甲札	-13.0589
秦并趙北向迎燕	-13.059
謳	-13.059
墣	-13.059
諦	-13.059
李傑直𨽻常熟人	-13.059
詡	-13.0591
礎	-13.0591
陻	-13.0592
耼	-13.0592
埨	-13.0593
銀二十萬兩絹三十萬疋	-13.0593
以大都督府僉事從平西畨功封勲號同	-13.0593
張守直順天遵化人由進士	-13.0593
繓	-13.0593
垶	-13.0594
秦鳴雷浙江臨海人	-13.0594
王篆湖廣夷陵	-13.0594
塚	-13.0594
梃	-13.0594
遼府沅陵王	-13.0594
有糧之地而蹈無糧之處	-13.0594
王學益江西安福人	-13.0595
乱	-13.0595
蠆	-13.0595
銍	-13.0595
亷其爵貧其身以憂社稷者	-13.0595
愚計奉明約在大王	-13.0595
𦵔	-13.0595
錢如京直𨽻桐城人	-13.0596
瀍	-13.0596
齋亞麻勿菴	-13.0596
而患急齊不與秦壤	-13.0596
之衆猶鞭筴也	-13.0596
何不試奉公子咎	-13.0596
吕調陽廣西臨桂人	-13.0597
裻	-13.0597
砭	-13.0597
樽	-13.0598
螺	-13.0598
呻	-13.0598
趙魏楚得齊則足以敵秦	-13.0598
嶲	-13.0598
誄	-13.0599
生二十四年四月十三日封永樂六年	-13.0599
鉥	-13.06
摺	-13.06
欘	-13.06
敗韓魏殺犀武攻趙取藺離石	-13.0602
位中尉無郡縣主君	-13.0602
惴	-13.0604
愀	-13.0604
拮	-13.0604
䄇	-13.0605
非好卑而惡尊	-13.0605
軺	-13.0606
斬有罪者以徇曰莫如此	-13.0607
薜	-13.0608
米鈔中半兼支郡王初封嵗支禄米	-13.0609
蠭	-13.061
杙	-13.061
筒	-13.061
跿	-13.0611
嘉靖丙辰進士萬厯十六年任	-13.0612
趂	-13.0612
總督陜西三邊加陞	-13.0612
僎	-13.0616
毯	-13.0617
彖	-13.0621
燀	-13.0622
行五拜三叩頭禮	-13.0622
眸	-13.0624
尨	-13.0624
日生二十四年四月十三日封	-13.0624
犖	-13.0626
鎌	-13.0627
􁊎	-13.0631
㞑	-13.0638
吏户禮兵刑工	-13.0652
試賢良方正能直言極諫	-13.2282
囡	-13.2932
索取大皂鵰翎	-13.298
廙	-13.2997
晶	-13.2998
俱從六品授内直郎	-13.3001
儡	-13.3005
翎	-13.3007
騃	-13.3011
霓	-13.3015
銙	-13.3015
蘇尼特之吉魯根巴圖爾	-13.3022
痰	-13.3023
憇	-13.3029
摛	-13.3029
楪	-13.3029
擗	-13.3029
膋	-13.3033
酪	-13.3033
勌	-13.3033
炵	-13.3036
𣲖	-13.3036
峨	-13.3036
隟	-13.3037
䴡	-13.3038
䔖	-13.3039
錝	-13.304
琱	-13.3041
柿	-13.3043
無患與人無爭也不知夫	-13.3044
麨	-13.3044
蹛	-13.3044
領隊官侯伯都督綵幣表裏	-13.3044
媛	-13.3045
衉	-13.3045
􁧑	-13.3045
柍	-13.3045
縧	-13.3047
澂	-13.3047
稚	-13.3047
搯	-13.3047
簎	-13.3047
彝	-13.3048
囧	-13.3048
舄	-13.3048
詫	-13.3048
跂	-13.3048
餚	-13.305
嶼	-13.305
掀	-13.305
噩	-13.305
嵒	-13.305
宕	-13.3051
驀	-13.3051
礟	-13.3052
症	-13.3052
壄	-13.3052
絜	-13.3052
繅	-13.3052
邴	-13.3052
瀨	-13.3054
荊	-13.3054
圖黙特之大臣官員等	-13.3054
詼	-13.3054
墐	-13.3054
粧	-13.3055
湎	-13.3055
囓	-13.3055
𣺌	-13.3055
听	-13.3055
幘	-13.3055
忼	-13.3055
殚	-13.3055
飈	-13.3055
隨伍官比領隊減半總小旗甲軍士人等	-13.3055
躱	-13.3056
剃	-13.3056
茭	-13.3057
訢	-13.3058
𥚹	-13.3058
釧	-13.3058
芷	-13.3058
汛	-13.3058
櫬	-13.3058
諸侯請與而復攻之與之信	-13.3059
郡王初封嵗支禄米	-13.3059
輈	-13.3059
交者財盡而交絶以色交者華落而愛渝	-13.3059
愔	-13.3059
教可以幸無罪矣故受命而	-13.3059
愞	-13.3059
鳧	-13.3059
埢	-13.3059
耑	-13.3059
五十錠百户所鎮撫絹一疋鈔四十錠	-13.306
鶹	-13.3061
姥	-13.3061
絰	-13.3061
虱	-13.3061
稳	-13.3061
懵	-13.3062
趙魏攻華陽韓謁急	-13.3062
瞎	-13.3062
叫	-13.3062
椑	-13.3062
樨	-13.3062
者以周最也今最遁寡人入齊齊無	-13.3062
蝟	-13.3063
蚊	-13.3063
餂	-13.3063
敡	-13.3063
􁠜	-13.3063
中薦舉十六年拜文華殿大學士未任辭	-13.3063
皇后俱洪武元年正月乙亥追上尊號	-13.3063
難功封階勲號襲如興安嵗祿一千石	-13.3063
倬	-13.3064
部尚書兼殿閣大學士者	-13.3064
晃	-13.3065
淯	-13.3065
禅	-13.3065
埏	-13.3065
謹致書于大楚皇帝闕下	-13.3065
粳	-13.3065
總小旗甲綿布四疋鈔	-13.3065
郡主下嫁儀賔	-13.3065
鮑恂余銓張長年	-13.3065
六十錠百户所鎮撫絹二疋鈔五十錠	-13.3066
呆	-13.3066
珦	-13.3066
鈿	-13.3066
埼	-13.3066
桱	-13.3066
溯	-13.3066
傅友德副將軍永昌侯藍玉西平侯沐英	-13.3066
淀	-13.3066
墺	-13.3066
方逢時湖廣嘉魚人	-13.3066
攔	-13.3068
㪟	-13.3068
樅	-13.3068
蓆	-13.3068
希摯直𨽻衡水人	-13.3068
君使臣以禮臣事君以忠	-13.3069
藳	-13.3069
淅	-13.3069
隨伍官比領隊各減半總小旗甲	-13.3069
琨	-13.3069
欲用王之兵成其私者也非然則	-13.3069
洪武三十二年至三十五年都指揮銀	-13.307
灕	-13.307
鉷	-13.307
卹	-13.307
旹	-13.307
絕	-13.307
豓	-13.307
𬗋	-13.307
嶢	-13.307
腿	-13.3072
普天之下莫非王土率土之	-13.3072
勩	-13.3072
絅	-13.3072
韵	-13.3072
窖	-13.3072
薩爾斡阿爾塔實	-13.3072
號令賞罰地形利害天下莫如也	-13.3072
㕥	-13.3072
御醫并畨火長鈔	-13.3072
桿	-13.3072
緹	-13.3072
惷	-13.3073
日大宋皇帝致書于大金國相元帥	-13.3073
莆	-13.3073
鈫	-13.3073
伯正統十四年從駕北征陣亡贈封	-13.3073
楀	-13.3073
饕	-13.3073
㬇	-13.3073
六威不掩於山東而掩於	-13.3073
滸	-13.3073
王堯封直𨽻定興人	-13.3073
美而儀言得美人是欺王也王曰子釋之	-13.3073
凑	-13.3075
泭	-13.3075
誠惶誠懼頓首頓首	-13.3075
厪	-13.3075
相襲而王夏殷之衰也不易禮而	-13.3075
憊	-13.3075
耇	-13.3075
鰌	-13.3075
右春坊右賛善兼翰林院檢討	-13.3075
巠	-13.3075
出於楚寡人無求於晉	-13.3075
大宋皇帝致書于大金皇子郎君	-13.3075
曰王徒不好色耳王曰何也	-13.3075
漑	-13.3075
便國不必法古聖人之興也不	-13.3075
耿裕河南盧氏人	-13.3075
滴	-13.3076
非而循禮未足多也	-13.3076
俻	-13.3076
榖之功多與存國相若封之	-13.3076
鑷	-13.3076
猴	-13.3076
挐	-13.3076
旐	-13.3076
髻	-13.3076
剴	-13.3076
悮	-13.3076
字皆武后字恐唐人	-13.3076
相承如此諸公校書改用此字殊	-13.3076
藂	-13.3076
郜光先山西長治	-13.3077
有金千斤進之左右以供芻秣	-13.3077
腋	-13.3077
亰	-13.3077
利盡歸於陶國之幣帛	-13.3077
槎	-13.3077
叭	-13.3077
芾	-13.3077
賍	-13.3077
倜	-13.3077
莬	-13.3077
醤	-13.3077
忨	-13.3077
閔珪浙江烏程人	-13.3078
杜銘四川金堂人	-13.3078
葉鏜江西上饒人由進士	-13.3078
薅	-13.3078
五兩優養軍官母妻見存者	-13.3078
瑒	-13.3079
畦	-13.3079
奶	-13.3079
故兹詔示想宜知悉	-13.3079
砆	-13.3079
斐	-13.3079
惡利口之覆邦家	-13.3079
畺	-13.3079
山南東道節度使同平章事	-13.3079
金獻民四川綿州人	-13.3079
鞼	-13.3079
瘍	-13.3079
民匠厨子樂工	-13.308
絹一疋在京吏典知印承差坊廂里老	-13.308
頁	-13.308
倅	-13.308
者先君靈王好小腰	-13.308
暝	-13.308
樀	-13.308
國别者略以時次之分别不以序者以相	-13.308
強虎狼之秦以侵天下卒有	-13.308
杓	-13.308
揄	-13.308
揔	-13.308
湞	-13.308
聞約矢之說惜其書不存	-13.308
袨	-13.308
蹰	-13.308
總帥富珠哩洛索	-13.308
南豐校定者舛誤尤不可讀	-13.3081
有十篇武安君事在中山卷末不	-13.3081
襴	-13.3081
榖是也王乃太息曰此古之人也今	-13.3081
鍤	-13.3081
㙺	-13.3081
娎	-13.3081
智者作教而愚者制焉賢者議	-13.3081
屠勲浙江平湖人	-13.3081
甘茂與昭獻遇於境	-13.3081
簧	-13.3081
覯	-13.3081
位嵗銀一百錠段三百疋	-13.3081
蕕	-13.3081
賜黄金三百兩白金二千兩鈔三千錠	-13.3081
圮	-13.3083
仄	-13.3083
騎萬匹粟支十年	-13.3083
嗣累掌營府加保傅	-13.3083
屐	-13.3083
校註東陽呉師道重校	-13.3083
辮	-13.3083
陳道基福建同安人由進士	-13.3083
豳	-13.3084
闓	-13.3084
烒	-13.3084
爔	-13.3084
劳	-13.3084
以破敵功封祿一千	-13.3084
淸	-13.3084
衆人報之智伯以國士遇	-13.3084
茠	-13.3085
董份浙江烏程人	-13.3085
盧勲浙江縉雲人由進士三十	-13.3085
丢	-13.3086
祍	-13.3086
畤	-13.3086
柜	-13.3086
􁃕	-13.3086
孫植浙江平湖人	-13.3086
許成名山東聊城人由進士	-13.3086
抒	-13.3086
必不反韓珉今召之矣	-13.3086
䘚	-13.3087
閔如霖浙江烏程人	-13.3087
子得新城陽人以與公叔爭國而得	-13.3087
怎	-13.3087
夬	-13.3087
賭	-13.3087
欑	-13.3087
纘	-13.3087
陶承學浙江㑹稽人	-13.3087
自鄭以東貫滑曹鄆	-13.3087
曰下比周則上危下分爭則上安	-13.3088
喻茂堅四川榮昌人	-13.3088
茀	-13.3088
叠	-13.3088
螫	-13.3088
長城鉅防足以為塞	-13.3088
艸	-13.3088
壝	-13.3088
捆	-13.3088
為公以五萬攻西周得之是以九鼎	-13.3089
鄭世威福建長樂人由進士	-13.3089
濞	-13.309
埶	-13.309
前藍山書院山長劉鏞重校	-13.309
时	-13.309
詗	-13.309
陳蔡好詐莒恃越而滅	-13.309
鷇	-13.309
朾	-13.309
畨功封勲號同祿二千石流爵	-13.309
非以養欲而樂志也	-13.309
知之乎願王勿忘也且人有好揚人之善	-13.309
縲	-13.3091
鬨	-13.3091
皖	-13.3091
瘥	-13.3091
鬰	-13.3091
􁒐	-13.3091
倪嵩直𨽻當塗人	-13.3091
而進曰臣入則編席	-13.3091
崛	-13.3091
曰必反宋地而歸楚之淮北	-13.3091
朱廷立湖廣通山人由進士二十	-13.3091
賖	-13.3091
頺	-13.3092
䛂	-13.3093
紡	-13.3093
騑	-13.3093
洪武十二年以大都督府僉事從平西	-13.3093
茅瓉浙江錢塘人由狀元三十	-13.3093
睛	-13.3094
銸	-13.3094
劈	-13.3094
包十二諸侯此其君之欲得也	-13.3094
疥	-13.3094
䕶左都水使者光禄大夫臣向	-13.3095
六品八兩七品六兩八品九品四兩雜職	-13.3095
柏舉三戰入郢寡君身出	-13.3095
秦之欲伐韓梁東闚	-13.3095
鋈	-13.3095
􁀋	-13.3095
塡	-13.3095
蜡	-13.3095
鵞	-13.3095
􁆿	-13.3095
卺	-13.3095
比至立了疆界屯兵	-13.3095
都督府僉事從平雲南功封	-13.3095
閔楷直𨽻任丘人	-13.3096
扺	-13.3096
簸	-13.3097
恁	-13.3097
墧	-13.3097
惬	-13.3097
曰江乙可謂善謀安陵	-13.3097
蝮	-13.3097
黄金二百兩白金一千兩鈔	-13.3097
此皆轉禍而為福因敗而為功者也	-13.3097
朱榮都指揮蘇和囉海王哈喇巴圖爾	-13.3098
有則以告有而不以告謂之蔽	-13.3098
達賴喇嘛羅卜藏扎木蘇	-13.3098
耐	-13.3098
㣧	-13.3098
之無倍約者而秦侵	-13.3098
昭奚恤曰郢人某氏之宅臣願	-13.3098
罌	-13.3098
百姓離散使下臣來告	-13.3099
祥賴義秦文張欽	-13.3099
醸	-13.3099
愾	-13.3099
無以馳割事王者矣	-13.3099
箐	-13.3101
睡引錐自刺其股	-13.3101
■	-13.3101
一瞑而萬世不視不知所益以憂社稷者	-13.3101
織金花素紵絲蟒龍	-13.3102
優給㓜官及鰥寡老疾軍官	-13.3104
璹	-13.3104
􁬹	-13.3105
枎	-13.3105
䵑	-13.3105
􁆁	-13.3105
劉思問河南孟縣人由進士	-13.3106
敺	-13.3106
熏	-13.3106
膊	-13.3106
蹝	-13.3106
䔲	-13.3106
疋暗八寳天花雲	-13.3106
畸	-13.3107
晐	-13.3108
曰鄒忌所以不善楚者恐田忌	-13.3109
如封田忌於江南以示	-13.3109
砮	-13.3109
腎	-13.3111
厦	-13.3111
囹	-13.3111
毚	-13.3111
􁀺	-13.3113
椰	-13.3115
平中原功多封階勲號襲如延安	-13.3115
摎	-13.3116
其子弟之學不勞而能夫是故	-13.3116
少而習焉其心安焉不見異物而遷焉	-13.3116
饍	-13.3117
挶	-13.3119
槀	-13.312
衆兄弟親王衆妹妹公主	-13.312
繰	-13.3137
罶	-13.3142
襏	-13.3144
人嘉靖丙辰進士萬厯十	-13.3409
鎮國將軍嵗支禄米一千石輔國將	-13.3625
蠃	-13.6312
恙	-13.632
慍	-13.6329
邂	-13.6333
樹底有天春寂寂人間無路月茫茫	-13.6339
云我願藉此福來世為	-13.634
于奉天殿丹陛設壇告天地遣官祭	-13.6344
鼙	-13.6344
鞵	-13.6344
惵	-13.6344
䃭	-13.6346
梢	-13.6346
孀	-13.6346
鬆	-13.6348
髠將復見之豈特七士也	-13.6348
韓子盧逐東郭逡環山者三騰山者五	-13.635
淝	-13.6352
常赦所不原者咸赦除之	-13.6352
則善矣未可以戰也王曰越國	-13.6352
炕	-13.6353
鋟	-13.6354
堋	-13.6354
然夫鳥同翼者而聚居獸同足者而俱行	-13.6354
渫	-13.6356
唤	-13.6356
先言横者則其人也建信君果先言横	-13.6356
十三年任夏官兼太子賓客本年	-13.6358
大赦天下常赦所不原者咸除之	-13.636
瘢	-13.636
代曰莫如太子之自相是三人	-13.6362
銹	-13.6362
於吏以戮閔王曰此寡人之過也子無以	-13.6362
垸	-13.6364
庄	-13.6364
二道論語或孟子義一道第二塲	-13.6364
􁲶	-13.6364
媢	-13.6364
君必施於今之窮士不必且	-13.6364
天幸也今燕又攻陽城及狸是以天幸自	-13.6364
是八十年矣疑赫字誤景翠	-13.6366
是武王之功也今君不能與文信侯相	-13.6366
甜	-13.6367
耉	-13.6367
一品二品二十錠三品四品十	-13.6367
驌	-13.6367
痔	-13.6367
鸛	-13.6367
功超羣將智邁雄師	-13.6367
袓	-13.6367
偫	-13.6367
將歸罪於臣天下不攻齊將曰善	-13.6367
窳	-13.6369
兜	-13.6369
靶	-13.6369
畬	-13.6369
有司請曰言章子之敗者異人而同	-13.6369
而擊之頃間言齊兵大勝秦	-13.6369
五十錠侯四十錠伯三十錠	-13.6369
諸侯亂惑萬端俱起不可勝理科條	-13.6369
無幾何告者復至孝成王不應	-13.6369
蹬	-13.6369
匆	-13.6369
王矣王曰善乃復使蘇子蘇子固辭王不	-13.6369
譸	-13.6369
輶	-13.6369
遂將與燕戰於陽城燕人大勝	-13.6369
齊人李伯見孝成王成王說之以	-13.6369
佔	-13.637
溟	-13.6371
燂	-13.6371
軄	-13.6371
倐忽之間墜於公子之手夫雀其小者也	-13.6371
曰固不求生也請必行靖郭君不能止齊	-13.6371
言齊舉兵擊燕恐其以擊燕	-13.6371
墁	-13.6373
蔕	-13.6373
稲	-13.6373
砌	-13.6373
纖	-13.6373
㪷	-13.6373
勰	-13.6373
雖隆薛之城到於天猶之無益也	-13.6373
不可復得已宋之罪重齊之怒深殘亂宋	-13.6373
更言之對曰君不聞大魚乎網不能止	-13.6373
而無庸致兵以觀奉陽君之應足下也縣	-13.6373
鱔	-13.6373
䘐	-13.6373
蹉	-13.6373
硉	-13.6373
簷	-13.6373
瞞	-13.6375
浰	-13.6375
炑	-13.6375
醻	-13.6375
鼇	-13.6375
卣	-13.6375
忩	-13.6375
紹姜洪虞瑛潘洪王玉陳金劉實鄭建方	-13.6375
慮之而不取也詩云靡不有	-13.6375
邦觀魯君之所稱說則周	-13.6375
噍	-13.6375
先王之所重者唯終與始何以知其然也	-13.6376
邶	-13.6377
非楚之任而楚為之是敝楚也	-13.6377
也然則子何以弔寡人曰齊楚之權敵也	-13.6377
凡章子之孝皆過所謂過孝	-13.6377
將而應弱燕燕破必矣燕破則趙不敢不	-13.6377
瞬	-13.6377
蘇子曰燕兵在晉今寡人發兵應之願子	-13.6377
君非以人之言也李兊見之蘇子	-13.6377
外闕願見於前口道天下之事李兊曰先	-13.6377
我則可若以人事兊盡知之矣蘇子	-13.6377
鵶	-13.6377
棫	-13.6377
行義約信天下不親於是乃廢文任武厚	-13.6377
鞅之始與秦王計也謀約不下席言於尊	-13.6377
敢辭之臣之能也其前可見	-13.6379
睫	-13.6379
熛	-13.6379
眠	-13.6379
旛	-13.6379
爾多斯哈爾噶坦之拜音珠固爾達爾罕	-13.6379
善用兵戰必不勝不勝必禽公子	-13.6379
剩	-13.6379
驅而之薛使吏召諸民當償者悉來合	-13.6379
嘖	-13.6379
患必與楚戰戰而不勝大梁不能守而又	-13.6379
支交臂而聽楚韓氏必危故王不如釋黄	-13.6379
昴	-13.6379
有國王后無子而有子也陽泉君曰然入	-13.6379
鎦	-13.6379
敢不致尊名於王臣以齊致地於王天下	-13.638
絍	-13.6381
與子不用人矣遂賜周紹胡服衣冠具	-13.6381
常經變籍則亂失經則弱今王破原陽以	-13.6381
惲	-13.6381
王皆有驕色以臣之心觀之天下之事依	-13.6381
禚	-13.6381
云視吾家所寡有者臣竊計君宫中積珍	-13.6381
者堯舜禹湯周文王是也故曰無	-13.6381
君本在齊為秦善之珉欲使	-13.6381
埻	-13.6381
辭曰責畢收以何市而反孟	-13.6381
上可以得用於齊次可以得信於下	-13.6381
其用哉故明主不取其汙不聽其非察其	-13.6381
旡	-13.6381
王后王后乃請趙而歸之趙未之遣不韋	-13.6381
緻	-13.6381
鍋	-13.6381
􁌛	-13.6381
儧	-13.6381
螢	-13.6383
天子及湯之時諸侯三千當今之	-13.6383
監門閭里安可得而有也哉是故易	-13.6383
面稱寡者乃二十四由此觀之非得失之	-13.6383
墌	-13.6383
戓	-13.6383
邽	-13.6383
㬌	-13.6383
十表裏紗十疋錦三疋鈔二萬貫	-13.6383
君家所寡有者以義耳竊以	-13.6383
吾舉事而不利於魏需必挫我	-13.6383
也然而不以環寸之蹯害七尺之軀者權	-13.6383
咋	-13.6383
殲	-13.6383
且君奚不將奢也奢	-13.6383
秦攻楚楚且與秦攻王王不	-13.6383
責於薛乎馮煖曰願之於是約車治裝載	-13.6383
子異人歸而得立趙厚送遣之是不敢倍	-13.6383
得比乎小國諸侯臣不佞自以為奉令承	-13.6383
棖	-13.6383
重公仲也今公仲死韓侈之秦秦必弗入	-13.6383
太子用事君危於累卵而不	-13.6383
車甲珍器盡收入燕	-13.6383
忬	-13.6384
檠	-13.6385
不倍其孤故有臣可命其國之	-13.6385
不然斶聞古大禹之時諸侯萬國何則	-13.6385
十五表裏紗十五疋錦三疋鈔二萬貫	-13.6385
令公子泣王太后止太子之行事成則樹	-13.6385
天下之不善公者與欲有求於齊者且	-13.6385
婣	-13.6385
王二人者必不敢有外心矣二人者之所	-13.6385
矮	-13.6385
軛	-13.6385
煁	-13.6385
入之矣待衍如是可也如得賢	-13.6385
功未有及先王者也先王以為順于其志	-13.6385
昰	-13.6385
柃	-13.6385
謂秦王曰魏之使者謂後相韓辰曰公必	-13.6385
蹭	-13.6385
攻齊之事齊破文請以所得封君齊破晉	-13.6386
虔	-13.6387
瀰	-13.6387
鎀	-13.6387
賈利之臣竊矯君命以責賜諸民因燒其	-13.6387
㙂	-13.6387
苾	-13.6387
王矣太子年少不習於兵田	-13.6387
蕳	-13.6387
韓珉相齊令吏逐公疇	-13.6387
侯之地五倍於秦料諸侯之卒十倍於秦	-13.6387
埆	-13.6387
王后楚王貴李園李園用事李園	-13.6387
王無齊天下必盡輕王也秦之	-13.6387
將乎平原君曰將軍釋之矣僕	-13.6387
未聚奢已舉燕矣然則君奚求安平君而	-13.6387
瑪哈薩瑪廸蘭咱	-13.6387
餱	-13.6387
南無楚憂西無秦患則地廣而益重齊必	-13.6387
於濟上濟上之軍奉令擊齊大勝之輕卒	-13.6387
里卒不過三十萬人地四平諸侯四通條	-13.6387
􁅋	-13.6387
曰逐周最聽祝弗相吕禮者欲深取秦也	-13.6388
天下固量秦之謀臣一矣乃復悉	-13.6389
涘	-13.6389
君就國於薛未至百里民扶老攜	-13.6389
鋋	-13.6389
变	-13.6389
趫	-13.6389
昭陽謂楚王曰五國已破秦必南	-13.6389
矣臣故恐魏交之益疑也且魏信	-13.6389
者不得不賞有能者不得不官勞大者其	-13.6389
乎春申君大然之乃出園女弟謹	-13.6389
太子恐春申君語泄而益驕隂	-13.6389
而言之楚王楚王召入幸之遂生子男立	-13.6389
女恣荆軻所欲以順適其意	-13.6389
䦱	-13.6389
之所以求安平君者以齊之於燕也茹肝	-13.6389
國者内固其威而外重其權	-13.6389
安坐而廣地雖古五帝三	-13.6389
權焉得不傾而令焉得從王出乎臣聞善	-13.6389
􁪎	-13.6389
其可願孰與閎夭周公哉應侯曰商君	-13.6389
則幸中矣非仁義舉也孟子	-13.6389
奡	-13.6389
患也願公之復求中立於秦也公仲曰	-13.6389
璀	-13.6389
敗則怨結於百姓而禍歸社稷詩曰木實	-13.639
樒	-13.639
君北見梁王必相之矣昭魚曰	-13.639
免其死耳今有一窟未得髙枕而卧也請	-13.6391
怒於魏之不用樓子而使翟	-13.6391
獐	-13.6391
臃腫也使善扁鵲而無臃腫也則人莫之	-13.6391
刺之雖刺髠而齊實不	-13.6391
對曰其子之肉尚食之其誰不食樂羊既	-13.6391
我有積怨深怒於齊不量輕弱而欲以齊	-13.6391
使人操金與書間遺宫	-13.6391
公别稱也鴻烈道應訓亦稱周昭文君此	-13.6391
於是秦王乃見使者曰趙豹平原君數欺	-13.6391
曰臣能殺之君予金三十斤馮	-13.6391
此必勸楚王益兵守雍氏雍氏必㧞公仲	-13.6391
此魏信之所難行也夫令人之君處所不	-13.6391
噴	-13.6391
文也襲其父封薛薛屬魯	-13.6391
行矣代曰公何不以髙都與周公仲	-13.6391
鯢	-13.6391
中不索交諸侯此率民而出於無用者何	-13.6391
之其勢不能故以戰續之寛則兩軍相攻	-13.6391
四貴備而國不危者未之有也	-13.6391
平原今公以韓善秦韓之重於	-13.6391
福也故比干忠不能存殷子胥智不能存	-13.6391
罅	-13.6391
胡衍曰公釋蒲勿攻臣請	-13.6391
㙫	-13.6391
事文王周公輔成王也豈不亦忠乎以聖	-13.6391
於寡人一至此乎寡人少殊不知此客肯	-13.6391
何得矣且王嘗濟於漳而身朝於邯鄲抱	-13.6392
其於主也至忠矣天下不合秦秦令而不	-13.6392
媺	-13.6392
仇則明君不居也素用	-13.6392
天下仇之必矣夫罷士露國而多與天下	-13.6392
且有皮氏於以攻韓魏利也樗里子曰吾	-13.6392
也甲兵不出於軍而敵國勝衝櫓不施而	-13.6392
應對而不怨不逆上以自伐不立私以	-13.6392
然賞必加於有功刑必斷於有罪今臣之	-13.6392
當其職焉能者亦不得蔽隠使以臣之言	-13.6392
使行和杜赫謂昭陽曰凡	-13.6392
牸	-13.6392
若誠不便魏雖封髠於王何損	-13.6392
見亡之危百姓無被兵之患髠有璧馬之	-13.6392
中山中山之君烹其子而遺之羮樂羊坐	-13.6392
禍且及身奈何以保相印江東之封乎	-13.6392
其事而制禮所以利其民而厚其國也被	-13.6392
煗	-13.6392
胆	-13.6392
今以兵從後十日秦兵下芒	-13.6392
士不能察至使鄰國老女子愧之王建	-13.6392
大便也昔者周佼以西周善於秦而封於	-13.6392
支之是君存周而戰秦魏也重亦盡在趙	-13.6392
是公以敝髙都得完周也何不與也公仲	-13.6392
誠以君之重而進妾於楚王王必幸妾妾	-13.6392
長民之大患也今公以韓先合於秦天下	-13.6392
君怪之曰此誰也左右曰乃歌夫長	-13.6393
易水則雖欲長侍足下豈可得哉荆卿曰	-13.6393
焠	-13.6393
給其食用無使乏於是馮煖不復歌後孟	-13.6393
鍜	-13.6393
主固親忠臣不過秦孝越王楚悼君之	-13.6393
今欲繼簡襄之意以順先王之志臣敢不	-13.6393
令再拜乃賜胡服趙文進	-13.6393
功大而權輕者地不入也	-13.6393
十錠百户典仗所鎮撫試百户絹	-13.6393
士而不利說途也夫不善君者且奉蘇子	-13.6393
然兩者有一也使安平君智則奚以趙之	-13.6393
置使兩路都統斡离不等謹	-13.6393
觚	-13.6393
諸胡此愚智之所明也先時中山負齊之	-13.6393
貴甘茂善魏公孫郝善韓二人固不善	-13.6393
階特進榮祿大夫勲柱國祿一千石世襲	-13.6393
駘	-13.6393
惡事陳軫曰請移天下之事於公犀首曰	-13.6393
大王割十城乃却以謝趙王	-13.6393
以來者事也公不見軫軫且行不得待異	-13.6393
矣犀首乃見之陳軫曰公惡事乎何	-13.6393
得宻須氏而湯知服桀矣今秦欲與山東	-13.6393
韓也厚矣韓與天下朝秦而獨厚取	-13.6393
焀	-13.6394
不登畜積竭盡而不可恃者	-13.6394
或有諸侯鄰國之虞而不可恃者或以年	-13.6394
文市義者乃今日見之馮煖曰狡	-13.6394
而王業至矣彼明君之從事也用財少曠	-13.6394
皮氏國之所大利也而以與魏公終自以	-13.6394
王令讓之曰事主之行竭意盡力	-13.6394
胡服子獨弗服逆主罪莫大焉以從政	-13.6394
多失禮於王兄弟兄弟誠立	-13.6394
親君又安得長有寵乎非徒然也君用事	-13.6394
韓兄弟不敢從二國不得兵怒而反	-13.6394
下甲雲中九原驅趙而攻燕則易水長城	-13.6394
工師籍相吕倉國人不	-13.6394
由此觀之惡有不戰者乎古者使車轂	-13.6394
索兵於魏曰願得借師以伐趙魏文侯曰	-13.6394
胡衍謂樗里疾曰公之伐蒲以	-13.6394
與地則五國之事困也五國伐秦魏欲和	-13.6394
齊王頭者封萬户侯賜金千鎰由是觀之	-13.6394
㶏	-13.6394
召大臣而謀曰早救之孰與	-13.6394
士也大王可試使之諒毅親受命而	-13.6394
患不得收河間從而無功收河間何益也	-13.6394
無相攻伐有相攻伐者令其命如此	-13.6394
甲習於戰攻王若欲攻之則必舉天下而	-13.6394
韭	-13.6394
人哀鰥寡䘏孤獨振困窮	-13.6394
今妾自知有身矣而人莫知妾之幸君未	-13.6394
兼包兩周乗夏水浮輕舟	-13.6394
執太監商忠杜裕少監盧明秦用趙秀	-13.6394
陳金湖廣應城人成化壬辰進士	-13.6394
顯使也齊其聞之矣梁使三反孟	-13.6394
之屬相與語於王曰夫一人身而牽留萬	-13.6394
也愚者陳意而智者論焉教之道也臣無	-13.6394
礫	-13.6394
秦曰齊以陽武賜敝邑而納順子欲以解	-13.6394
稱本朝幅貟萬里人居散漫	-13.6394
貂勃使楚楚王受而觴之數日不	-13.6394
韓且折而入於魏不如早救之田臣思曰	-13.6394
麇	-13.6394
㮣	-13.6394
丘不重王且反王之言而攻沛	-13.6394
丹請先遣秦武陽荆軻怒叱太子曰今日	-13.6394
之俗以逆簡襄之意惡變服之名而忘國	-13.6394
也故利不百者不變俗功不什者不易器	-13.6394
云服難以勇治亂以智事之計也立	-13.6394
侗	-13.6394
兄之議而攻宜陽宜陽不㧞秦王	-13.6394
夫服牛驂驥乎不可以行百步今王以衍	-13.6394
子良北獻地於齊遣子良之明日立昭常	-13.6394
孫衍公孫衍曰王與臣百金臣請敗之王	-13.6394
將萬人而佐齊今國已定而社稷	-13.6394
流謂走揜覆也謂自匿	-13.6394
無明君賢父以聽之故天下以其君父	-13.6394
然則王之輕重必明矣故楚王卜交而沛	-13.6394
象奴軍伴餘丁户丁降官子弟及軍吏鈔	-13.6394
而魏亦關内候矣王一善楚而關内二萬	-13.6395
可親邪趙興兵而攻燕再圍燕都而	-13.6395
邑諸侯皆賀敝邑寡君亦竊嘉之不敢	-13.6395
甘茂約秦魏而攻楚楚之相秦者屈	-13.6395
者禍及身逺者及其子孫豈人主之子侯	-13.6395
煞	-13.6396
而可以忠於主便於國利於身	-13.6396
慷	-13.6396
㴱	-13.6396
不爭子用私道者家必亂臣用私義者國	-13.6396
子何不疾及三國方堅也自賣	-13.6396
潑	-13.6396
如今君相楚王二十餘年而王無子即百	-13.6396
年復歸秦其相齊在薛公歸薛後見	-13.6396
王之惠也臣敬循衣服以待令	-13.6396
秦必受子不然横者將圖子以合	-13.6396
鐃	-13.6396
王能以百里之地若萬户之都請殺范痤	-13.6396
知其有身園乃與其女弟謀園女弟承間	-13.6396
罪願得請之秦王使使者報曰吾所使趙	-13.6396
自有之魏棄與國而合於秦因以塞黽隘	-13.6396
足下背先君盟約而欺孟	-13.6396
宋地則非魏之利也故王不如復東蘇代	-13.6396
屏流言之迹塞朋黨之門故尊主廣地	-13.6396
必疑齊而不聽也夫齊秦不合天下無憂	-13.6396
炟	-13.6396
然後山東之士無以利事王者矣秦王懼	-13.6396
甘茂賢人也今秦與之上卿以相迎之茂	-13.6396
而離秦則韓最弱矣合離之相續則韓最	-13.6396
虎口而君入之則臣不知君所出矣孟	-13.6396
􁐪	-13.6396
君不如與之以驕智伯君何釋以	-13.6396
君問馮公有親乎對曰有老母孟	-13.6396
嘴	-13.6396
大王陳臣之愚意恐其不忠	-13.6396
然後可建大功是故兵勝於外義	-13.6396
王於城濮與此不同杜注城濮及史	-13.6396
而送之恐韓咎入韓之不立也綦	-13.6396
良醫知病人之死生聖	-13.6396
裾	-13.6396
足怪辛垣衍曰先生獨未見夫僕乎十人	-13.6396
陳軫曰儀善於魏王魏王甚信之公雖百	-13.6396
且見其誠然也王發上柱國子良車五十	-13.6396
也薪不盡則火不止今王之地有盡而秦	-13.6396
以能得天下之士而有齊權也今蘇子	-13.6396
勝東愬於齊齊因起兵擊魏大破之馬陵	-13.6396
君胡衍取金於蒲以自重於	-13.6396
應屬齊若魏然附之齊則	-13.6396
此用兵之盛也然而智伯卒身死國亡	-13.6396
焉曰秦兵誠去請厚子於	-13.6396
獻地五百里於齊發子良之明日遣昭常	-13.6396
秦王使公子他之趙謂趙王曰齊與大	-13.6396
約車載百金犀首期齊王至之	-13.6396
莫若父論臣莫若君君寡人也周紹曰立	-13.6396
蒲今臣能使釋蒲勿攻蒲守再拜因効金	-13.6396
說之賈與李斯毁之死	-13.6396
海内功彰萬里之外不過商君	-13.6396
箎	-13.6397
而韓氏亡鄭原恃秦翟以輕晉秦翟	-13.6397
晉必重君以事秦是君破齊以	-13.6397
王曰寡人蠻夷僻處雖大男子裁如嬰兒	-13.6397
教之請奉社稷西面而事秦獻常山之尾	-13.6397
田苓對曰未急也穰侯怒曰是何以	-13.6397
兵不傷交不變所欲必得矣	-13.6397
合矣秦見三晉之堅也必南伐楚趙見	-13.6397
周君竇屢奉陽君之與穰侯貿首之仇也	-13.6397
子俊四川青神人景泰辛未進士成化十	-13.6397
此國必危矣王必大憂今韓梁趙三國	-13.6397
王曰今伐燕此文武之時不可失也	-13.6397
韓梁之西邊此燕之上計也不急	-13.6397
骨盧你移賫勃極烈左副元帥	-13.6398
公子太子必敗敗公子必立立必	-13.6398
釆	-13.6398
㙸	-13.6398
山恃齊魏以輕趙齊魏伐楚而趙亡中山	-13.6398
敢問就功成名亦有術乎文侯曰有之矣	-13.6398
曰魏王之所恃者齊楚也所用者樓	-13.6398
秦是明楚之伐而信魏之和也公不如無	-13.6398
茵	-13.6398
鋆	-13.6398
佩趙國相印不辭無能一	-13.6398
廷而使不得通使若無罪願大王無絶其	-13.6398
恐天下救之則以齊委於天下曰齊人	-13.6398
王甞身濟漳朝邯鄲抱葛	-13.6398
睢不欲桓臧為昭睢謂楚王曰睢戰勝三	-13.6398
秦掌握中物耳故不急於伐恐趙不以	-13.6398
聽吾言則受書幣若不從吾言則使者歸	-13.6398
臣聞周有砥厄宋有結	-13.6398
虡	-13.6398
左右惡張儀曰儀事先王不忠言未	-13.6398
得安邑塞女㦸因以破宋	-13.6398
艇	-13.6398
君曰善乃與之萬家之邑一智伯大	-13.6398
左州侯右夏侯輦從鄢陵君與夀陵君	-13.6398
常請守之鯉見寡人曰不可與也雖然	-13.6398
故曰勿與常請守之昭常出景鯉入見王	-13.6398
未敝而我救之我代韓而受魏之兵顧反	-13.6398
秦乃之秦謂秦王曰魏之所以獻長平	-13.6398
計之也臣聞明王絶疑去	-13.6398
許之魏王畏齊秦之合也欲講於	-13.6398
乎王曰弗知頓子曰有其實而無其名者	-13.6398
也願君顧先王之宗廟姑反國	-13.6398
使燕代之間三年四國之交未必合也而	-13.6398
危則騏驥不如狐狸曹	-13.6398
善厚家者取之於國善厚國者取之於諸	-13.6398
必患之秦五世以結諸侯今	-13.6398
朌	-13.6398
朝周死則叱之誠不忍其求也彼天子固	-13.6398
涇陽佐之卒無秦王此亦淖齒李	-13.6398
滰	-13.6398
甲綿布一疋鈔三十錠隨伍官旗軍将軍	-13.6398
與齊王必疾矣是公外得齊楚以	-13.6398
行此六者而求霸則逺矣臣聞善	-13.6398
預求天下之利匕首得趙人徐夫人匕首	-13.6398
魏於華陽下且益趙以兵伐齊則此役	-13.6398
三年不得見臣以是知王緩也魏王趨見	-13.6398
之國也禮服不同其便一也是以	-13.6398
之貴而重之是君有楚也薛公因善蘇子	-13.6398
之趙王重其行而厚奉之因揚言曰聞周	-13.6398
之道六王曰六者何也周紹曰智慮不躁	-13.6398
也願王之知之楚王曰謹受命因封蘇子	-13.6398
今聞購將軍之首金千斤邑萬家將	-13.6398
其智能而任用之也厚矣其畏惡	-13.6398
君曰三窟已就君姑髙枕	-13.6398
天下有明主則諸侯不得擅厚矣是何也	-13.6398
客從外來與坐談問之	-13.6398
情輸楚猶許者也軫誠	-13.6398
曰寡人不能用先生之言今事至於此	-13.6398
有十二諸侯而朝天子其與必衆	-13.6398
有敢謀王者乎王之事齊也無入朝之辱	-13.6398
樊將軍仰天太息流涕曰吾	-13.6398
生此天所以幸先王而不棄其孤也先生	-13.6398
異而用變事異而禮易是故聖人	-13.6398
秦之少多然而臣能半衍之割而令秦講	-13.6398
絶其謀止其兵與之為交以報秦秦王大	-13.6398
綃	-13.6398
而存先王之廟也寡人得受命	-13.6398
至秦持千金之資幣物厚遺秦王寵臣中	-13.6398
葩	-13.6398
語曰仁不輕絶智不輕怨君之於先王也	-13.6398
謂東周君曰臣恐西周之與楚韓寳令之	-13.6398
鈕	-13.6398
願大王之熟計之也梁者山東之	-13.6398
鰈	-13.6398
􁊽	-13.6398
制地而欲地者制璽其勢必無魏矣且夫	-13.6398
士皆垂淚涕泣又前而	-13.6398
明主也而昭陽賢相也軫	-13.6398
漗	-13.6398
玈	-13.6398
百姓離意孟軻謂齊閔	-13.6398
蕝	-13.6398
趐	-13.6398
萬世則不如合弱將奈何合弱而不能	-13.6399
秦伐矣齊有東國之地方千里楚包九夷	-13.64
秦韓燕宋中山也楚春秋時王	-13.64
顯王三十五年王趙武靈獨不王其	-13.64
穩	-13.64
堮	-13.64
止太子之行正誼也而志	-13.64
曰斶前斶亦曰王前可乎斶對曰夫斶前	-13.64
以周襄王之命然則雖尊襄王桓公亦定	-13.64
乎士貴乎對曰士貴耳王者不貴王曰有	-13.64
乎斶曰有昔者秦攻齊令有敢去	-13.64
慕公叔之義以成胡服之功使緤謁之叔	-13.64
杕	-13.64
痿	-13.64
臣聞從者欲合天下以朝大王臣願大王	-13.64
三年始稱王前此稱王後人追書	-13.64
問其賢良之士而師事之求其好掩人之	-13.64
士之計皆曰韓亡三川魏滅	-13.64
寡人信之矣龐葱曰夫市之無	-13.64
有齊無秦無齊有秦必伐之必亡之	-13.64
橏	-13.64
獻地五百里齊王歸楚太子太子歸即位	-13.64
主雖信臣百姓皆曰國有大事	-13.64
其利魏受其怨子歸吾將使人因魏而和	-13.64
子内擅楚之貴外結秦之交畜張子以為	-13.64
就脯醢之地也齊閔王將之魯夷維子執	-13.64
渶	-13.64
澉	-13.64
者欲以下大王之兵東擊齊也今地	-13.64
聞其不宜子恐又無寵李園求事春申君	-13.64
謂田苓曰事急願公雖疾	-13.64
㵼	-13.64
也而不與負不義於天下楚亦不能獨守	-13.64
促使應秦也魏不善最而言	-13.64
六國從親以儐畔秦令天下之將相相與	-13.64
寡人射其面寡人地絶兵逺不能攻也王	-13.64
挾如挾長之挾秦挾賔客	-13.64
攻楚齊魏各出銳師以佐之韓絶食道趙	-13.64
渗	-13.64
王臣今王何以禮之王若不留必不	-13.64
穆公相之而朝西戎文公用中山	-13.64
能破宋有之寡人如自得之	-13.64
邑恐齊據之則以宋委於齊曰宋王無道	-13.64
陸攻則擊河内水攻則滅大梁魏以	-13.64
𬗟	-13.64
不若燕后太后曰諾恣君之所使之於是	-13.64
員浙江等十三司官十三員辦事官	-13.64
子賢而徐子不肖然而使公孫子與徐子	-13.64
於市朝聞寡人之耳者受下賞令	-13.64
智氏之命不長矣周書曰將欲敗之必姑	-13.64
書亦别名之人姓名多不傳見欲顯其所	-13.64
書陘山史書華陽一役也事在三十四	-13.64
石遇敗於馬陵而重魏則以葉蔡委於魏	-13.64
能收恤藺離石祁乎寡人有不令之臣實	-13.64
趙必請之君與之即公無内難矣君弗與	-13.64
趙王乃令鄭朱對曰夫藺離石祁之地曠	-13.64
過者受上賞上書諫寡人者受中賞能謗	-13.64
鑅	-13.64
上衝冠於是荆軻遂就車而去終已不顧	-13.64
不勝而還子之相燕貴重主斷蘇代	-13.64
不相得則不能行故古人稱之以其合	-13.64
副荆軻有所待欲與俱其人居逺未來而	-13.64
塐	-13.64
夫弱小之殃常以謀人	-13.64
如此則齊威可立秦國可亡矣	-13.64
害民率皆攘臂而稱首	-13.64
尾其首救擊其首其尾救擊其中身首尾	-13.64
得窮齊不憚以一國都	-13.64
必以寳事公公仲慕公之	-13.64
急西周西周之寳不入楚韓楚韓欲得寳	-13.64
恢曰不如以百金從之韓咎立因以	-13.64
患而報將軍之仇者何如樊於期乃前曰	-13.64
戰攻者非所先也何以知其然也昔智伯	-13.64
曰秦之遇將軍可謂深矣父母宗族皆	-13.64
曰願得將軍之首以獻秦王秦王必喜而	-13.64
果以是辭來中山因告燕趙而不	-13.64
然則將軍之仇報而燕國見陵之	-13.64
燕國有勇士秦武陽年十三殺人人不敢	-13.64
疾風淋雨漂入漳河東流至海	-13.64
而泣靖郭君至因請相之靖郭君辭不得	-13.64
而趙氏兼中山秦楚戰韓魏不休而宋越	-13.64
舉心於齊者何也約而好主怨伐而好挫	-13.64
謀也君可以有功戰不勝田忌不進戰而	-13.64
進郡主為公主儀賔為駙馬	-13.64
难	-13.64
𤾉	-13.64
之所明知也寡人望有非則君掩	-13.64
其事不完不明而齊魏無所適屬也故次	-13.64
取長者曰居彼人之所則欲其許我也今	-13.64
向曰秦王誠必欲伐齊乎不如先	-13.64
嘘	-13.64
於是燕王大信子之子之因遺蘇代百金	-13.64
是昭睢之言不信也王必薄之楚王	-13.64
有先背約者五國共伐之六國從親以儐	-13.64
美客曰徐公不若君之美也明日徐公來	-13.64
趙則韓軍宜陽楚軍武關魏軍河外齊	-13.64
遂發重使之楚楚之應之果勸於是三國	-13.64
風蕭蕭兮易水寒壯士一去兮不復還復	-13.64
首尾文同但中間改云爾前放回	-13.64
不任事於周室也而桓公獨取霸者亦無	-13.6401
宋齊所惡也故除宋罪則齊怒齊	-13.6401
樂必厚尊敬親愛之而忘子子益賤而日	-13.6401
人入宫塗厠欲以刺襄子襄子如厠心動	-13.6401
氏趙襄子最怨智伯而將其頭以為飲器	-13.6401
謂逸民非周衰辯者之	-13.6401
豫讓遁逃山中曰嗟乎士為知己者死女	-13.6401
以事屬犀首犀首受齊事魏王止其	-13.6402
横成則秦帝從成則楚王秦帝即以天下	-13.6402
萬金弗得私也秦王曰善乃資萬金使東	-13.6402
時相齊親禮所以取齊昭十三年禮奔魏	-13.6402
踢	-13.6402
君而許異獨取相焉者無	-13.6402
之至謹具状申國相元帥皇子元帥伏	-13.6402
欲壊其交故賊翦翦死	-13.6402
蟣	-13.6402
可見也今寡人恐叔逆從政之經	-13.6402
榖獻典五官得法而百姓大治	-13.6402
爭論不勝秦王大怒中期徐行而去或	-13.6402
臣以此知國之不可必恃也今王恃楚之	-13.6402
故也向者遇桀紂必殺之矣秦王因不罪	-13.6402
寡人約四欺寡人必率天下以攻寡人者	-13.6402
輕折軸衆口鑠金	-13.6402
㡌	-13.6402
何有民茍無民何有君故有問	-13.6402
信君建信君曰文信侯之於僕也甚無禮	-13.6402
安得六百里使者反報楚王楚王大怒欲	-13.6402
室之鉅也腹擊曰臣羇旅也爵髙而	-13.6402
智而有秦楚之用君必窮矣君不如使人	-13.6402
能致其主霸王如此者五人萬	-13.6402
行非所以教民而成禮者也且循法無過	-13.6402
齊秦必不合齊秦不合則王重矣王欲	-13.6402
不說曰臣奉使使威后今不問王而先問	-13.6402
乞其妻不識曰狀貌不似吾夫其音何	-13.6402
御者不盡馬之情以古制今者不	-13.6402
攻韓魏則楚絶其後齊出銳師以佐之趙	-13.6402
滅鬚去眉自刑以變其容為乞人而	-13.6402
與民豈先賤而後尊貴者乎威后曰不然	-13.6402
乃復歸土今汝非木之根則木之枝耳汝	-13.6402
俛啄蚉䖟而食之仰承甘露而飲之自以	-13.6402
反以謀秦是非秦之利也秦王曰然則	-13.6402
故剛平之殘也中牟之墮也	-13.6402
泱	-13.6402
然不說曰嘻亦太甚矣先生之言也	-13.6402
王攻之齊王大興兵攻東地伐昭常未	-13.6402
硝	-13.6402
秦王曰寡人案兵息民則天下必	-13.6402
非王之子孫也秦王懼於是乃廢太后逐	-13.6402
黟	-13.6402
不肯受平原君乃置酒酒酣起前以千金	-13.6402
其行後數日貫珠者復見王曰王至朝日	-13.6402
取齊公孫郝欲以韓取齊今公取宜陽以	-13.6402
太子曰樊將軍以窮困來歸丹丹不忍以	-13.6402
庸主亦能感動惜乎言猶在耳	-13.6402
成陽君以王之故窮而居於齊今王見其	-13.6402
果亦効重寳景翠得城於秦受寳於韓而	-13.6402
生之物固有不死者乎在必然之	-13.6402
生悉以教寡人無疑寡人也范	-13.6402
病之矣舊有髙誘注既	-13.6402
盡其寳秦㧞宜陽景翠果進兵秦懼遽効	-13.6402
而士困於土功將不釋甲	-13.6402
見主之不同量故入江而不改	-13.6402
計過也齊楚攻魏公必危矣張子曰然則	-13.6402
論之可以立功故沉子胥而弗悔子胥不	-13.6402
諸侯湯武之卒不過三千人車不過三百	-13.6402
變智者不能一逺近之服賢聖不能同窮	-13.6402
魏王懼問張子張子曰秦欲救齊韓欲攻	-13.6402
魏謂魏冉曰文聞秦王欲以吕禮	-13.6402
齊以是辭來因言告燕趙而無	-13.6402
㺹	-13.6402
以百里昌桀紂以天下亡今楚國雖小	-13.6402
割可謂不善用勝矣今處期年乃欲割是	-13.6402
力盡之民仁者不用也求得而反	-13.6402
數雖多不費汗馬之勞不至十日而距扞	-13.6402
禿	-13.6402
秦攻燕則趙守常山楚軍武關齊	-13.6402
綠	-13.6402
而君逆寡人者輕寡人與唐雎	-13.6402
閧	-13.6402
鷟	-13.6402
鸑	-13.6402
曰子何不急言王出張子張子得出	-13.6403
之七年宋偃始王故武靈八年書五	-13.6403
也即有所取者是商賈之人也仲連不忍	-13.6403
而以國先者此桓公許異之	-13.6403
史言蘇代復重燕燕使約從	-13.6403
收集繕治有其緒則若云	-13.6403
矣鄭褏曰願委之於公為之	-13.6403
出昭常入見王曰齊使來求東地五百里	-13.6403
後天下主父曰何以對曰中山之君所傾	-13.6403
無功之尊無勞之奉以守金玉之重也而	-13.6403
桉	-13.6403
隂知之中山君出司馬喜御公孫	-13.6403
遺子以酒食而求見子子	-13.6404
鵂	-13.6404
欲楚不若其欲齊之甚也其使	-13.6404
猶其尊襄王也今日天子不可得而	-13.6404
人以輔之今大王之大臣父兄好傷賢以	-13.6404
故願大王之熟計之也魏王曰寡人	-13.6404
者愈善而離楚愈逺耳今王動欲成霸王	-13.6404
計失之請稱東藩築帝宫受冠帶祠春秋	-13.6404
今有疾公不如歸太子以徳之不然公子	-13.6404
秦而在阿鄄之間者百數王收而與之十	-13.6404
濼	-13.6404
若此寡人直與客論耳寡人善孟	-13.6404
俗而動因民而教者不勞而成功	-13.6404
嬻	-13.6404
時而制法因事而制禮法度制令各順其	-13.6404
之事嚴兵而已兵嚴而士用	-13.6404
利三國也戰不勝秦秦進兵而攻不如益	-13.6404
吾謹避之耳且智伯已死無後而其臣至	-13.6404
天下之賢人也卒釋之豫讓又漆身為厲	-13.6404
寋	-13.6404
曰關東為從西為横孟康曰南	-13.6404
有亂而太子在外此亦舉宋之時也已臣	-13.6404
楚合復攻韓韓必亡公仲躬率其私徒以	-13.6404
烊	-13.6404
三公也鬼侯有子而好故入之於紂紂以	-13.6404
則王何不務使智士以若此言	-13.6404
國勸行之者何也衛明於時權之藉也今	-13.6404
國者不然矣兵弱而好敵	-13.6404
惡醢鬼侯鄂侯爭之急	-13.6404
故脯鄂侯文王聞之喟然而歎故拘之於	-13.6404
氏北戰於中山克燕軍殺其將夫中山千	-13.6404
者而能從諸侯者寡矣攻城之費百姓理	-13.6404
聖王之事也燕昭王善其書曰先人嘗有	-13.6404
趙背秦不予焦黎牛狐秦王	-13.6404
一世之命制於王已臣願大王深與左右	-13.6404
不忠於君四國之王尚焉用賈之身桀聽	-13.6404
不能以無功惡秦則且出兵助秦攻魏以	-13.6404
之休數年使人請地於韓韓康子欲勿與	-13.6404
之孝子君之忠臣也故寡人以子之智慮	-13.6404
之王亦絶之是中山孤孤何得無廢以此	-13.6404
亡三城而悔無危咸陽而悔也寡人	-13.6404
使臣之所知也請益甲四萬大國裁之蘇	-13.6404
名壇失其姓楚之幸臣按魏記注	-13.6404
士卒之衆寡賢與不肖不待兩軍相當而	-13.6404
子誠得其道也是故明主外料其敵國之	-13.6404
寡人財交於諸侯有諸對曰有王曰有何	-13.6404
復西岸耳今子東國之桃梗也刻削子以	-13.6404
慎之也地理本之漢志無則缺字訓本之	-13.6404
是考史記諸書為之注定其章條正其衍	-13.6404
智伯帥趙韓魏而伐范中行氏	-13.6404
棃	-13.6404
然而天下獨歸咎於齊者何也以其	-13.6404
膓	-13.6404
色變作身體戰慄於是乃以執珪而授之	-13.6404
通計也怨惡未見而明棄之未	-13.6404
郅	-13.6404
雖欲得請之鄰國不與也中山王遂立以	-13.6404
不可幾也煖之市義賢矣而	-13.6404
乃解衣免服逃太史之家	-13.6404
之談是王謀三國也齊王曰魏王聞寡人	-13.6404
九限之固絶五徑之險至胡中辟地千里	-13.6404
便辟無使也臣故曰不如愛尺縠也宣	-13.6404
則無禍矣韓氏先以國從公孫郝而後委	-13.6404
吾甚欲韓合對曰甘茂許公仲以武遂反	-13.6404
善楚公恃秦而勁必輕與楚戰楚	-13.6404
壐	-13.6404
大王已知魏之急而救不至者是大王	-13.6404
存天下安諸侯寡人敬以國從乃封蘇秦	-13.6404
必且務以楚合於齊齊楚合燕趙不敢不	-13.6404
所教學不習於誦王罷之	-13.6404
抈	-13.6404
攻王王之所以事秦必不如韓魏也今臣	-13.6404
是則霸業成矣趙王曰寡人年少莅國之	-13.6404
杉	-13.6404
殺身以成名義之所在身雖死無憾悔何	-13.6404
求救數矣寡人知魏之急矣唐	-13.6404
異之人皆言楚之多變也而公必之是自	-13.6404
秦王曰丈人芒然乃逺至此甚苦矣魏	-13.6404
者年九十餘謂魏王曰老臣請出西	-13.6404
臣出可乎魏王曰敬諾遂約車而遣之唐	-13.6404
謂齊王曰王與三國約外魏魏使公孫衍	-13.6404
非固勿予而已也秦索六城於王王以六	-13.6404
黨東有燕東胡之境西有樓煩秦韓之邊	-13.6404
齊戰勝楚勢必危宋不勝是以弱宋干	-13.6404
茍可以利其民不一其用果可以便其事	-13.6405
亂也故大亂者可得其地小亂者可得其	-13.6405
歸社稷也以東地五百里許齊	-13.6405
禽馬服之軍不亡一甲雖周	-13.6405
秦必不聽王矣是智困於秦而交	-13.6405
魏信陵君發兵至邯鄲城下秦兵罷虞卿	-13.6405
不敢出也臣聞古之君子交絶不出惡聲	-13.6405
此主尊而身安矣秦魏不終相	-13.6405
非所以窮儀之道也齊楚之王曰善乃遂	-13.6405
齊怒於不得魏必欲善韓以塞魏魏不	-13.6405
蚋	-13.6406
其駕告臣曰我欲之楚臣曰君之楚將奚	-13.6406
欲以使攻宋也而宋置太子以	-13.6406
臣是以欲足下之速歸休士民也今太子	-13.6406
襯	-13.6406
今命之臣固敢竭其愚忠臣聞之中國者	-13.6406
其衣如臣者十人昭王笑而謝之曰客胡	-13.6406
怒而不聽張儀又惡陳軫於秦王曰軫馳	-13.6406
曰吾欲與秦攻韓何如張旄對曰韓且坐	-13.6406
瀉	-13.6406
饟	-13.6406
下之兵以攻齊是人謂君曰孟	-13.6406
仁義矣率天下諸侯而朝周周貧且	-13.6406
離兩周而觸鄭五日而國舉韓氏以	-13.6406
不同俗何古之法帝王不相襲何禮之循	-13.6406
則必助趙矣辛垣衍曰秦稱帝之害將	-13.6406
則王勿聽其事其需弱者	-13.6406
周怒赴於齊曰天崩地	-13.6406
嘷	-13.6406
固無請人之妻不得而怨人者也田簡自	-13.6406
暕	-13.6406
衣服器械各便其用故禮	-13.6406
諸侯莫朝而齊獨朝之居	-13.6406
餘周烈王崩諸侯皆弔齊後	-13.6406
一至於薛昭陽請以數倍之地易薛	-13.6406
乎莊辛曰臣誠見其必然者也非敢以	-13.6406
得兩國之衆以攻智伯之國禽其身以成	-13.6406
曰吾合秦楚非以當韓也子	-13.6406
有羊腸坂髙注趙險塞山	-13.6406
猶晉人之與楚人也晉人見楚人之急帶	-13.6406
窮服之外其禮樂制度條施目	-13.6406
人以自益也仁者不危人以要名	-13.6406
以五萬遇慶秦於代燕人大敗樂	-13.6406
傷人以自損乎君無以寡人不肖累	-13.6406
則王之所求於韓者盡可得也	-13.6406
去之趙留五月秦果舉鄢郢巫	-13.6406
可兼與頓子曰韓天下之咽喉魏天下之	-13.6406
失也義者不虧人以自益	-13.6406
室不能相和出語鄰家未	-13.6406
待戰齊王恐焉乃請子良南道楚西使秦	-13.6406
得厚揚寡人之辱而君不得榮此一舉而	-13.6406
得意乎未如商容箕子之累也然則不内	-13.6406
恐其適足以傷於髙而薄於行也非然也	-13.6406
甚急公言未急何也田苓曰使韓急則	-13.6406
翊宣教化可以正一史之謬備七略之缺	-13.6406
請之必矣王如不與即社稷危矣與之即	-13.6406
請從於趙三言之趙王不聽出遇虞卿曰	-13.6406
䐈	-13.6406
之何故至今不遣王曰未得買馬之工也	-13.6406
之地不可得而死者不可復生也則王必	-13.6406
之歌曰松耶栢耶住建共者客	-13.6406
之衆乃用之此單之所不服也馬服君曰	-13.6406
他弟姪一人為錦衣衞世襲指揮僉事	-13.6406
使公孫子勞寡人寡人無與之語也三	-13.6406
公求而弗得是韓楚之怨不解而交走	-13.6406
公求而得之是令行於楚而以其地	-13.6406
兵休復起足以傷秦不必待齊五國罷成	-13.6406
利而相侵或修小怨而相伐或眩於名實	-13.6406
名屬子之而太子用事王因收印自三百	-13.6406
問之曰女聞吾言乎對曰聞之王曰女以	-13.6406
對曰公必先韓而後秦先身而後張儀	-13.6406
已善王嘉單之善下令曰寡人憂民之	-13.6406
已親之也雖百平邑燕趙必不受也藍諸	-13.6406
必易與公相支也公戰勝楚遂與公	-13.6406
欲攻齊齊畏公甚公以是	-13.6406
此其心也同舟遇風胡越之相救	-13.6406
無令停止亦不得宻切間諜誘優	-13.6406
王曰布衣之怒亦免冠徒跣以頭搶地耳	-13.6406
目此其勢也以天下之心行天下之勢	-13.6406
者也而王不知察今君何不見臣於王請	-13.6406
者貧乏不能自存使人屬孟	-13.6406
臣是以知其御也宜陽之役楊	-13.6406
臣見秦之必大憂可立而待也臣竊	-13.6406
蘇秦死於齊蘇秦之在燕也與其相子之	-13.6406
諸侯之心不一夫其心不一者非明計智	-13.6406
軫曰臣出必故之楚以順王與儀之	-13.6406
秦王欲出之秦王有愛女而美又簡擇宫	-13.6406
曰此庸夫之怒也非士之怒也夫	-13.6406
之楚人惡其緩而急之今鼻之入秦之傳	-13.6407
望之功亦不過此矣趙亡秦王王武安君	-13.6407
解而復合則後不可奈何也故齊趙之合	-13.6407
許魏張倚因謂趙王曰敝邑之吏効城者	-13.6407
順而無敗售而不敝者唯媒而	-13.6407
不可給也此坐而自破之道也非單之所	-13.6407
其勢必無趙矣故曰此飾說也王必勿與	-13.6407
危於國對曰然則買馬善而若惡皆無危	-13.6407
受地於先王願終守之弗敢易秦王不	-13.6407
敢易也豈直五百里哉秦王怫然怒謂唐	-13.6407
數奉教於君子矣恐侍御者之親左右之	-13.6407
相結也今儀相魏而攻之是使儀之計當	-13.6407
者必無能載之者矣雖然此豈獨人力哉	-13.6407
臣郢之登徒也直送象	-13.6407
計也虞卿聞之又入見王曰危矣樓子之	-13.6407
忠臣令誹在已譽在上宋君奪民時以	-13.6408
惮	-13.6408
也愛之以心事之以財忠臣之於君也必	-13.6408
溈	-13.6408
一摇而諸國動矣敗從之約魏	-13.6408
地削兵弱卒不免秦患今又割趙之半以	-13.6408
湄	-13.6408
靳尚謂楚王曰臣請隨之儀事	-13.6408
人教坊司奉鑾韶舞司樂	-13.6408
則吾請以從矣若乃梁則吾乃梁人也先	-13.6408
午谷又宜州西慶州東	-13.6408
福曰君相楚二十餘年矣雖名	-13.6408
哉如是展轉計之則儀之	-13.6408
常民溺於習俗學者沈於所聞	-13.6408
得也是故願大王熟計之齊王曰齊僻陋	-13.6408
於邯鄲之君乎於是天下有稱伐邯鄲者	-13.6408
羲神農教而不誅黄帝	-13.6408
邪魯連曰梁未睹秦稱帝之害故也使梁	-13.6408
不乏諸侯可同日而致也故名配天地不	-13.6408
壆	-13.6408
夫去尊寧而就卑危智者不	-13.6408
奈我何也而欲西面事秦是羣臣之計過	-13.6408
少之時親嘗教以兵趙王曰寡人不好兵	-13.6408
成之日楚趙皆輕楚王恐因趙兵以止易	-13.6408
所以留者待吾客與俱今太子遲之請辭	-13.6408
按圖籍此王業也王曰善乃具革車三十	-13.6408
無俊民也是以聖人利身之謂服便事之	-13.6408
稛	-13.6408
臣願之趙觀其地形險阻人民貧	-13.6408
鄭同因撫手仰天而笑之	-13.6408
䃺	-13.6408
以三可乎曰不可王大怒左右皆以	-13.6408
傷弩破車罷馬亡矢之	-13.6408
化喻於民三百之城足以為治	-13.6408
又有勢同而患異者昔者楚人	-13.6408
取妻且夫處女無媒老且不嫁	-13.6408
大怒曰吾愛宋與新城陽晉同也	-13.6408
搉	-13.6408
未理者璞周人謂䑕未腊者朴周人	-13.6408
納之梁齊果舉兵伐之梁王大恐	-13.6408
罪矣雖然恐君之未盡厚也諺曰厚者不	-13.6408
者厚人之行也救人之過者仁者之道也	-13.6408
而文物大備當其盛時朝廷宗廟之上蠻	-13.6408
能用之能死之弗能棄之此人之大過也	-13.6408
臣請令發兵救韓八日中大敗趙魏於	-13.6408
萬以攻趙令栗腹以四十萬攻鄗使慶秦	-13.6408
逖	-13.6408
韓而甘茂黨於魏故王不信也今秦楚	-13.6408
魏周最以天下厚秦者也今相魏魏秦必	-13.6408
齊使於荆還反過薛孟	-13.6408
主君慮封者莫如逺楚秦孝公封	-13.6408
之文侯曰吾與虞人期獵雖樂豈可不一	-13.6408
之議知其君不知異君知其國不知異國	-13.6408
也毋伐樹木毋發屋室訾然使	-13.6408
亡故去願君勿怨孟	-13.6408
以疑天下慰秦心不然天下將因秦之怒	-13.6408
前頓首固請無讓然後許諾於是尊荆軻	-13.6408
取禮而來待吾君彼吾君者天子也天子	-13.6408
太子所以令之太子因數黨聚衆將軍市	-13.6408
太子日造門下供太牢具異	-13.6408
好曰客無好也曰客何能曰客無能也孟	-13.6408
如鮑焦史鰌則不過不竊人之財耳今臣	-13.6408
妬婦也故其言一也言者異則人心變矣	-13.6408
孟之所不能違也若之何置之曽鞏之序	-13.6408
孰能禦之故謂之從從者從也順也其所	-13.6408
從見也今臣疑人之有煬於君者也是以	-13.6408
於是因廢癰疽彌子瑕而立司空	-13.6408
於趙以伐齊奉陽君不聽乃入齊	-13.6408
時今子以官府之籍亂寡人之事非子所	-13.6408
曰周君怨寡人乎對曰不怨且誰怨乎臣	-13.6408
曰夫趙魏敵戰之國也趙王以咫尺之書	-13.6408
桓公用之而霸百里奚虞之乞人	-13.6408
泪	-13.6408
王召陳軫告之曰吾能聽子子欲何之請	-13.6408
紀姬婦人也不知相馬對曰買馬而善何	-13.6408
者其於長者薄而於婦人厚故從母言之	-13.6408
而殺其忠臣至身死國亡今王聽	-13.6408
至於無妬而進賢未見一人也故明主之	-13.6408
與秦也猶齊之於魯也秦趙戰於河漳之	-13.6408
言勿與則非計也言與之則恐王以臣之	-13.6408
賢母也從婦言之必不免	-13.6408
車千乗騎萬匹粟如丘山法令	-13.6408
陳謹斬樊於期頭及獻燕督亢之地	-13.6408
養其親耳信如尾生髙則不過不欺人耳	-13.6408
欲以為臣孝己愛其親天下皆欲以為子	-13.6408
宋中山可無為也夫秦貪戾之國而無親	-13.6408
殿前都㸃檢烏凌噶瑚圖克	-13.6408
能忍難而重出地也宋中山數伐數割而	-13.6408
魏秦必疑天下合從也且必恐如此則講	-13.6408
强國不能王則可以避其兵使之無伐我	-13.6409
莫敢闚東門當是時衛危於累	-13.6409
則王必聽之然則需弱者用而	-13.6409
必大怒大怒則君必危矣然則立以	-13.6409
不封矣太后曰老婦不知長者之計乃命	-13.6409
以報魏趙王因令閉闗絶秦秦趙大惡芒	-13.6409
其真丁未嵗予在京師因借館閣諸公家	-13.6409
然其文章所從來既逺故根本雖伐而氣	-13.6409
而威儀文章可著之簡冊者至三千	-13.6409
而秦罷於邯鄲之下趙守而不可	-13.6409
避猶退軒曲輈藩車也	-13.6409
一國恐傷矣王不如使魏制和魏制和必	-13.6409
七十家主父曰是賢君也安可伐李	-13.6409
子固進而聶政謝曰臣有老母家貧客游	-13.6409
於國然而王之買馬也必將待工今	-13.6409
此甚易而功必成豫讓乃笑而應之曰是	-13.6409
為不易得也嗚呼使秦漢而後復有為是	-13.6409
發使出重寶以附楚魏楚魏欲得王之重	-13.6409
說君之義慕君之廉也今君到楚而受象	-13.6409
逺之行也故敢以書報惟君之留意	-13.6409
長平其孤未壯可伐也王乃召昌國君樂	-13.6409
齊已絶於趙因之燕謂昭王曰韓	-13.6409
三晉之大臣不如鄒魯之僕妾也且秦無	-13.6409
曰不然虞卿得其一未知其二也夫秦趙	-13.6409
何如樓昌曰無益也不如發重使而	-13.6409
割而邯鄲復歸齊人攻燕殺子之破故國	-13.6409
寵乎於是辛垣衍起再拜謝曰始以先生	-13.6409
燕不割而燕國復歸燕趙之所	-13.6409
寜者安能歸寜乎秦罷邯鄲攻魏取寜邑	-13.641
綿布一疋在外聽選并公差等項文武	-13.641
請魏之相齊王必喜魏氏不	-13.641
謂景翠曰秦恐且因景鯉蘇厲而	-13.641
逃於雲夢之中昭王反郢五官失法百姓	-13.641
齊閔王之遇殺其子法章變姓名	-13.641
以示勇剖傴之背鍥朝	-13.641
魏趙燕齊以事屬之以重其	-13.641
曰義不臣乎天子不友乎諸侯得志不慙	-13.641
王而欲去子者衆則子必危矣	-13.641
者何也樹之難而去之易也今子雖自樹	-13.641
予太子楚王怒將罪之對曰臣矯予之以	-13.641
伻	-13.641
無任瞻天望聖激切屏營之至	-13.641
照四壁者幸以賜妾何妨於處女妾自以	-13.641
贜	-13.641
塎	-13.641
太上皇與大聖皇帝浮海結約	-13.641
服雖然臣王之臣也而王重命之臣敢不	-13.641
楺	-13.641
涿郡之易容城范陽北有新城故	-13.641
皆負重罪應侯内慙乃西入秦	-13.641
肘足接於車上而智氏分矣身死國亡	-13.641
舉兵破邯鄲趙必亡矣故君收韓可以無	-13.641
亡秦王王矣武安君為三公武安君所以	-13.641
媟	-13.641
掃室布席幸無我逐也蘇子曰善請重	-13.641
收燕趙名卑而國危王收燕趙名尊而國	-13.641
有漁陽右北平遼西遼東西有上谷代郡	-13.641
鄭同北見趙王趙王曰子南方之	-13.641
以事王奚如王曰如是足矣對曰足下以	-13.641
以其餘兵圍邯鄲之城趙以亡敗之餘衆	-13.641
來舉玉趾而見寡人必與楚	-13.641
和於下而不危六者傅之才而臣無一焉	-13.641
子在外郢中必立王以絶秦望太子	-13.641
客知其事者皆白衣冠以送之至易水上	-13.641
張儀曰王勿患請令罷齊兵乃使其	-13.641
戰敗也悉起兵從之大敗趙氏犀首見梁	-13.641
熚	-13.641
王廣土取尊名田需從中敗君	-13.641
百姓人臣莫難於無妬而進賢	-13.641
矠	-13.641
罪在用韓倉而殺李牧無與	-13.641
足則臣不事足下矣臣且處無	-13.641
長平之禍也今七敗之禍未復而欲以罷	-13.641
不好仁義而好勇力臣聞其乃欲請所謂	-13.641
之楚吾又自知子之楚子非楚	-13.641
之王曰諾虞卿聞之入見王王以樓緩言	-13.641
吕氏而從嫪氏則王之怨報矣	-13.641
子南面弔也鄒之羣臣曰必若此吾將伏	-13.641
市人從者四百人與之誅淖齒刺而殺之	-13.641
張子曰彼鄭周之女粉白墨	-13.641
扃	-13.641
攻益而奪之天下是禹名	-13.641
東盡城守矣黔中巫郡非王之有	-13.641
楚王始不信昭應之計矣今公乃徴甲	-13.641
滿夕則虚非朝愛市而夕憎之也求存故	-13.641
為國謀不忠而大王之計有所失	-13.641
王不知文不肖而封之以武城願大夫之	-13.641
王春秋髙矣而君之封地不可不早定也	-13.641
當秦諸侯服秦莫敢合從丹之私計愚以	-13.641
秦西有巴蜀方船積粟起	-13.641
編伍舍人家人餘丁民人鈔二十錠	-13.641
而忘其事之陋者文辭之勝移之而已且	-13.641
而食之織而衣之王曰何故也對曰孝如	-13.641
贑	-13.641
軍果大敗王入秦秦留趙王而後許之講	-13.641
閈曰封之成與不非在齊也又將在楚閈	-13.641
霸使臣得進謀如伍子胥加之以幽囚	-13.641
黛	-13.641
且秦虎狼之國也無禮義之心其求無	-13.641
之子之三年燕國大亂百姓恫怨將軍市	-13.641
之時也山東見亡必恐恐必大合山東尚	-13.641
也又甚於齊嬰子曰願委之於子公孫閈	-13.641
則君臣相疑以其間諸侯得合從其償	-13.641
君曰安陵小國也不能必使其民使者自	-13.641
周之君曰君之謀過矣今不下水所以富	-13.641
喜而絶趙魏趙魏怒而攻中山中山急而	-13.641
曰數人飲之不足一人飲之有餘請畫地	-13.641
正父子之位寡人之國小不足先後	-13.641
獨於是失之然忌之走亦非威王譴之也	-13.641
者地以告也人有當闕而哭者人以	-13.641
而以楚之東國自免也必欲之楚王出必	-13.641
而國患不解是王棄之非用之也今秦之	-13.641
而王之地有盡以有盡之地給無	-13.641
見奉陽君矣臣謂奉陽君曰天下散而	-13.641
謂東周君曰臣請使西周下水可乎乃	-13.641
難數月死者數萬衆燕人恫怨	-13.641
霤	-13.641
割八縣地未畢入而兵	-13.641
與應侯必顯重以示天下楚魏以趙	-13.641
黨入和於秦使陽言之太守太守其効之	-13.6411
馮忌對曰不可夫以秦將武安君公孫起	-13.6411
何也趙王未之應也客曰燕郭之法有所	-13.6411
使夫交淺者不可以深談則天下不	-13.6411
君召而返之曰子教文無受象	-13.6411
敢有請於是嚴遂乃具酒自觴聶政母前	-13.6411
歸張儀曰子必以衣冠之敝故欲歸待我	-13.6411
知也趙王恐魏承秦之怒遽割五城以合	-13.6411
齊以重吕禮也齊免於天下之兵其	-13.6411
則臣能使魏獻之秦王曰善因	-13.6411
所以皆致相印於君者聞君於齊能振	-13.6411
袁宗儒直𨽻雄縣人由進士十	-13.6411
豈若中山廢其王而事齊哉田嬰曰	-13.6411
貧窮有存亡繼絶之義小國英	-13.6411
諸侯妃姬處梁之宫梁王安得晏然而	-13.6411
齊因孤國之亂而襲破燕孤極知燕小力	-13.6412
秦人去邯鄲過二周而攻王者以王	-13.6412
魏王見天下之不足恃也故欲先講	-13.6412
墰	-13.6412
姙	-13.6412
簀	-13.6412
胻	-13.6412
雖終身相之焉然而吾弗	-13.6412
則相者以誰而君便之也昭魚曰吾欲太	-13.6412
蓤	-13.6412
又有無妄之禍今君處無妄之	-13.6412
好若君王誠好賢此五臣者皆可得而致	-13.6412
懶	-13.6412
新人也甚愛新人衣服玩好擇其所喜而	-13.6412
欲得之故友之將使王逐之而已因受之	-13.6412
令乎再拜賜胡服王曰寡人以王子	-13.6412
以成亦明矣大王不事秦秦下兵攻河外	-13.6412
國之事不成猶之厚徳我也今與	-13.6412
忌燕也愈甚矣然則足下之事齊也失所	-13.6412
本參之諸書而質之大事記	-13.6412
行中律吕則此馬以麒麟比也騄耳八駿	-13.6412
且公直言易而事已去矣夫	-13.6412
也而齊并之是益二齊也夫一齊之	-13.6412
仲父今王得安平君而獨曰單且	-13.6412
愛之無所見醜御道之以行義勿令溺苦	-13.6412
漈	-13.6412
而善君之業臣聞之賁諸懐錐	-13.6412
而齊民獨不也非齊親而韓梁	-13.6412
一國魏之亡可立而須也此臣之所	-13.6412
不聽虞卿曰王亦過矣王曰何也曰凡	-13.6412
則魏必圖秦而棄儀收韓而相衍公叔以	-13.6412
危矣未卒而移兵於梁合天下之從無精	-13.6412
嬌	-13.6412
子是皆秦之罪也乃夜發書陳	-13.6412
彜	-13.6412
王亦不好士也何患無士王曰寡人憂國	-13.6412
遫	-13.6412
􁥪	-13.6412
㓛	-13.6412
㷂	-13.6412
不欲正言魏受伐魏與周鄰	-13.6412
不逹薨夫秦能刼留之豈不能	-13.6412
也吾國尚利孰與坐而割地自弱以	-13.6412
也趙者魏之虞也聽秦而攻魏者虞之	-13.6412
君之立於天下危於累卵君	-13.6412
朞年之後道不拾遺民不妄取兵革大	-13.6412
死者七十餘人遂亡漢中楚王大怒	-13.6412
熟計之也秦將伐魏魏王聞之夜見孟	-13.6412
秦此臣之所大願也臣何患乎伍子胥	-13.6412
虧而兵不用中山可廢也王必曰子之道	-13.6412
逆人之心畔學者離中國臣願大王	-13.6412
錦繡取卿相之尊者乎朞年揣摩成曰此	-13.6412
不得去之則聞其聲王知之乎王曰不知	-13.6412
之女田駢曰何謂也對曰臣鄰人之女設	-13.6412
之東周寳之此其家萬金王何不召之以	-13.6412
使人請薛公曰夫勸留太子者蘇子	-13.6412
兩齊趙也趙知據建信而不	-13.6412
去歸報中山王曰趙王非賢王也不好道	-13.6412
參孝已信如尾生髙	-13.6412
吏於魯三黜而不去或謂之曰可以去	-13.6412
因急擊大破趙殺趙軍	-13.6412
外此其勢不相及也夫恃弱國之救而忘	-13.6412
天下不足兼而有也是知秦戰未	-13.6412
子之大重或曰禹授益而以啓人	-13.6412
子華曰自從先君文王以至不	-13.6412
廟之上猶之如是也今王割地以賂秦以	-13.6412
拾子曰事有必至理有固然君知之乎孟	-13.6412
楚王曰諾張子曰王無求於晉國乎王曰	-13.6412
秦王使悉反諸侯之侵地若曹	-13.6412
秦王貪其贄必得所願矣誠得	-13.6412
肉試則斷牛馬金試則截盤	-13.6412
莫尚焉王斗之愛縠憂國莫重焉諸如此	-13.6412
蘇代謂燕昭王曰今有人於此孝如	-13.6412
車而暮去故曰可以使太子急去也蘇子	-13.6412
量其力王曰何謂也對曰薛不量其力而	-13.6412
韓之地形相錯如繡秦之有韓若木之有	-13.6412
㫿	-13.6412
之伐齊臣恐其禍出於是矣五國之	-13.6412
二百疋紗羅絨錦五十疋馬二十四匹	-13.6412
出無車左右皆笑之以告孟	-13.6412
勛階號襲如成陽嵗祿	-13.6412
北有信都真定常山中山又	-13.6412
南合三晉約戍韓梁之西邊山東不能堅	-13.6412
取道髙漸離擊筑荆軻和而歌	-13.6412
城唯莒即墨未下齊田單以即墨破	-13.6412
天之常數也進退盈縮變化聖人之	-13.6412
妤	-13.6412
府之籍不知器械之利知甲兵之用不知	-13.6412
張孟談魯仲連發䇿之慷慨諒毅觸讋納	-13.6412
必不救王秦知天下不救王則講	-13.6412
忠不信曰不忠王無以為臣不信王勿與	-13.6412
曰公何不以楚佐儀求相之於	-13.6412
曰寡人且王齊謂趙魏曰羞與寡人並	-13.6412
王亦聞夫公甫文伯母乎公甫文伯官於	-13.6412
維子謂鄒之孤曰天子弔主人必將倍殯	-13.6412
舉宋而東指則泗上十二諸侯盡王之有	-13.6412
螭	-13.6412
赴魏齊楚聞之乃引兵而去魏氏復全唐	-13.6412
逑	-13.6412
隂與燕王謀破齊共分其地乃佯有罪出	-13.6412
雖欲救之豈有及哉是亡一萬乗之魏而	-13.6412
非子莫能吾救登對曰君	-13.6412
騙	-13.6412
齊謂趙魏曰寡人羞與中山並	-13.6412
王之使者大過矣乃惡安陵氏	-13.6412
入謝於秦請効上黨之地以	-13.6413
國之事成則有福不成則無患然則先與	-13.6413
士也臣以所學者觀之先王之舉錯有髙	-13.6413
攻以求楚東國而名義索然	-13.6413
為福不成亦為福秦魏之和成而公適	-13.6413
之罪免矣楚王曰何也江乙曰州侯相楚	-13.6413
子死乃即與無子時同也臣奚憂焉臣亦	-13.6413
故君賊新君大亂君臣之義者無此矣	-13.6413
兵分於齊非趙之利也而君終身不得	-13.6413
則桀紂之後將存昔者趙氏亦	-13.6413
惡聞人之惡也王曰善寡人願兩聞之	-13.6413
故至今有摩笄之山天下莫不聞	-13.6413
甚善今何舉足之髙志之揚也公孫	-13.6413
而交絶於周也不如謂周君曰孰欲立也	-13.6413
之士也吾請去不敢復言帝秦秦將聞之	-13.6413
之故而不行先王之䘮不義也子勿復言	-13.6413
大臣彼將奪其所謂不肖而予其所謂賢	-13.6413
奪其所憎而與其所愛彼又將使其子女	-13.6413
潏	-13.6414
齊秦約攻楚楚令景翠以六城賂齊太子	-13.6414
之曰威服天下鬼神罵國老	-13.6414
者色也而妬者其情也今鄭褏知寡人之	-13.6414
顔率曰不可夫梁之君臣欲得九鼎謀之	-13.6414
䍡	-13.6414
新人也其愛之甚於寡人此孝子之所以	-13.6414
願王之察之異日而王曰召相單	-13.6414
三年而弗言江乙復見曰臣所	-13.6414
下者孰與齊桓公王曰吾不若也	-13.6414
以儀之言聞於楚楚王喜欲復之	-13.6414
如是必長得重於楚國曰謹受	-13.6414
至今未効君不用臣之計臣請不敢復見	-13.6414
范雎曰昔者齊公得管仲時以	-13.6414
謂新人曰王愛子美矣雖然惡子之鼻子	-13.6414
恐韓魏之議其後也是故恫疑	-13.6414
盧氏之狗王之走狗已具矣	-13.6414
乃帝王之后非諸侯之姬也趙王意移大	-13.6414
佺	-13.6414
宣言以感怒應侯曰燕客蔡澤天下駿雄	-13.6414
髙宗不都建康而都於杭	-13.6414
乃王之託儀也儀之出秦因與秦王約曰	-13.6414
以攻諸侯者隂謀有吞天下之心也	-13.6414
公孫閈公孫閈乃使人操十金而	-13.6414
埔	-13.6414
尺土一民不令侵犯招納若是	-13.6414
故地楚王美秦之語怒韓梁之不救已必	-13.6414
王而使田忌伐魏田忌三戰三勝鄒忌以	-13.6414
瘧	-13.6414
秦交重趙臣必見燕與韓魏亦且重趙也	-13.6414
秦而反其兵因以復合天下之從豈不	-13.6414
之使者報王王曰吾固聞叔之病	-13.6414
也即坐而地盡矣來年秦復求割地王將	-13.6414
危難在三月之内而楚恃諸侯之救在半	-13.6414
可走不然則將軍不得入於齊矣田忌不	-13.6414
國之兵是薄柱擊石之謂也	-13.6414
地者人主所甚愛也人主者人臣之所樂	-13.6414
敢再拜辭使者以報信陵君信陵君大怒	-13.6414
曰臣有百戰百勝之術太子能	-13.6414
曰願聞之對曰中國無事於秦則秦且燒	-13.6414
桃梗謂土偶人曰子西岸之土也挺子以	-13.6414
溽	-13.6414
益於殷楚使臣得同行於箕子接輿漆身	-13.6414
而與羣羊竊以為大王之計過矣凡天下	-13.6414
耳使諸侯而明於事變不惑小利	-13.6414
臣乎太子曰願聞之客曰固願	-13.6414
薛不量力而荆亦甚固齊王和其顔色曰	-13.6414
虞故春秋書之以罪虞公今國莫	-13.6414
謂秦昭王曰有攻人者有攻地者	-13.6414
趙以多取封於秦趙王疑之使趙葱及顔	-13.6414
酅	-13.6414
鑼	-13.6414
不可足也非盡天下之地臣海内之王者	-13.6414
且出境境吏得丑丑曰燕王所	-13.6414
之今太子自將攻齊大勝并莒則	-13.6414
之削地而封田嬰是其所以弱也願勿止	-13.6414
事者齊大而魯宋小王獨利魯宋之小不	-13.6414
以不許仲子者徒以親在今親不幸而死	-13.6414
何傷忠且信於王何益逐而聽則可若不	-13.6414
來年秦復攻王得無更割其内而講	-13.6414
勝之罪哉果勝黄城帥師而歸遂不敢過	-13.6414
困也且使萬乗之國免其相是	-13.6414
太后曰丈夫亦愛憐其少子	-13.6414
太后曰敬諾年幾何矣對曰十五	-13.6414
帶不相及左奉其首右濡其口勃蘇乃蘇	-13.6414
敢來不勝亦不敢來是勝黄城則功大名	-13.6414
文乃相魏此事合在禮歸秦之前	-13.6414
於魏也謂韓公仲曰今公疾攻魏之	-13.6414
昜	-13.6414
曰君其遣縮髙吾將仕之以五大夫使	-13.6414
月十一日封宣德四年八月初三日之國	-13.6414
樞宻院為頭知院和寧王阿嚕台	-13.6414
此而䘮行民必甚病之官費又恐不給請	-13.6414
此言牧之知禮也而史言牧不	-13.6414
界也地亦且嵗危民亦且	-13.6414
社稷必危矣願君之生束縮	-13.6414
秦必據宋魏冉必妬君之有	-13.6414
罏	-13.6414
而以之臨河内河内之共汲莫不危矣	-13.6414
而責士以所重事君非士易得而難用也	-13.6414
而身死於庸夫此皆乗至盛不近	-13.6414
與之謀秦虞卿未反秦之使者	-13.6414
莫不有求於王由此觀之王之蔽甚矣王	-13.6414
虫	-13.6414
軍都督僉事洪武三十五年論功進本府	-13.6414
魏之圍邯鄲也申不害始合於韓王然	-13.6414
問以國報讎者奈何郭隗先生對曰帝者	-13.6414
江乙曰二人之言皆善也臣不敢言其後	-13.6414
心疑者事秦急秦魏之講	-13.6414
金韓因以其金事秦秦反得其金與韓之	-13.6414
今其言變有甚於其父順始與蘇子	-13.6415
然見乎其中矣由是言之則為是	-13.6415
而所著書文辭駸駸乎上薄六經而下絶	-13.6415
而舛錯不可疾讀意天	-13.6415
不好色也乃資之以珠玉南后鄭褏	-13.6415
事人而求弑之是懷二心以事君也吾所	-13.6415
二心者居頃之襄子當出豫讓伏	-13.6415
刑罰以為治信小術以為道遂燔燒詩書	-13.6415
彼患亡其國是君廢其王而立其國賢於	-13.6415
攻其地而攻其人也王攻韓圍陘以張儀	-13.6415
竟不肯受然仲子卒備賔主之禮而去	-13.6415
籋	-13.6415
而相公叔以伐秦公仲聞之必不入於齊	-13.6415
而見寡人也請封子因以魯侯之車迎之	-13.6415
見一城也今不用兵而得城七十何故不	-13.6415
陳其學山東登州衛人嘉靖甲辰進士	-13.6415
馬森福建懐安人由進士三十七年	-13.6415
曰寡人雖死必不能事秦今主君以趙	-13.6415
獻之秦地入數月而秦兵不下魏王謂芒	-13.6415
峩	-13.6415
臣願以足下之府庫財物收天下之士能	-13.6416
信欲霸之速成故射天笞地斬社稷而焚	-13.6416
則趙攻其北不合於韓則韓攻其西不親	-13.6416
南此所謂四分五裂之道也且夫諸侯之	-13.6416
而請死罪五日而王曰子無罪於寡人子	-13.6416
親忠臣之所以事君也鄭褏知王以已	-13.6416
魏王大恐謂昭忌曰不用子之計而禍至	-13.6416
之上以相堅也夫親昆弟同父母尚有	-13.6416
娱	-13.6416
於王而所願陳者皆匡君臣之事	-13.6416
最謂周君曰君使人告齊王以周最不肯	-13.6416
海故事有簡而功成者因也今趙萬乘之	-13.6416
麋因得矣今諸侯明知此多詐	-13.6416
則大王之國欲求無危不可得也秦	-13.6416
帨	-13.6416
曰臣固疑大王之不能用也昔者神農伐	-13.6416
碓	-13.6416
親奏告皇天於𤣥極寳殿	-13.6416
願大王之察也古之五帝三王五	-13.6416
嬰曰楚攻齊大敗之而不敢深入者以魏	-13.6416
楚無魏也魏怒合於楚齊必危矣不如貴	-13.6416
犬牙出入不齊去䖏臨時兩平兊易	-13.6416
狙玃屬而狡黠言	-13.6416
能與時化故為已者不待人制今者不法	-13.6416
趙非不肖也趙去司空馬而亡國國亡者	-13.6416
遂懼誅亡去游求人可以報韓傀者至齊	-13.6416
過絶人矣若其眉目准頞權衡	-13.6416
霸必成矣諸侯戴齊而王獨弗從也是國	-13.6416
韓韓與之請地於魏魏弗與則是魏内自	-13.6416
乎安窮乎安貴乎君其先自	-13.6416
侯挫於走北其氣奪矣司空馬欲以此時	-13.6416
君王后賢智婦人也惜其不能正始乃	-13.6416
吾與子謀吳子曰未可也今	-13.6416
嘽	-13.6416
得寸則王之寸得尺亦王之尺也今	-13.6416
此言秦視趙在其度内如物	-13.6416
然則王之為費且危夫割地以賂燕趙是	-13.6416
王之也不與古同事之雖如子之事父猶	-13.6416
者亡虞之始也故荀息以馬與璧假道	-13.6416
者亡趙之始也昔者晉人欲亡虞而先伐	-13.6416
衣服無非大王之服御者臣聞之有覆巢	-13.6416
騊	-13.6416
㙨	-13.6416
之謀也願太子急遣樊將軍入匈奴以	-13.6416
也此自盡之術也不如無講	-13.6416
以韓重我於趙請以趙重子於韓是子有	-13.6416
以魏合於秦韓而攻齊楚大事也而王之	-13.6416
先與之王而故親之是君臨中山而失四	-13.6416
公其圖之燕將曰敬聞命矣因罷兵	-13.6416
勝也今王將攻韓圍陘臣願王之	-13.6416
又附之是重危也武侯忿然曰子之言有	-13.6416
哇	-13.6416
因令韓慶入秦而使三國無攻秦而使不	-13.6416
因免相昭王新說蔡澤計畫遂拜	-13.6416
因受而相之居二年而覺齊王大怒車裂	-13.6416
土偶曰不然吾西岸之土也土	-13.6416
境王弗應出而謂左右曰豈不悲哉以公	-13.6416
士勇雖有百秦將無奈我何大王	-13.6416
子謂王曰小事也謂可者謂不可者正半	-13.6416
張儀欲以魏合於秦韓而攻齊楚	-13.6416
攻趙者必王之事秦不如韓魏也是使王	-13.6416
昭獻非人主也而主君令相國	-13.6416
曇	-13.6416
朝人耳何故寜朝於人虞卿曰夫魏	-13.6416
未知見日也願王賜之觴王曰諾乃觴之	-13.6416
棌	-13.6416
業也今夫蜀西僻之國而戎狄之長也敝	-13.6416
王何利燕王曰子行矣寡人聽子乃	-13.6416
登謂藍諸君曰公何患於齊藍諸君曰齊	-13.6416
益來年復攻又割其力之所不能取而講	-13.6416
目存者八篇今存者十篇云編校史	-13.6416
秦來年復攻王得無割其内而講	-13.6416
繓請以出示出之袖中以示韓倉狀如振	-13.6416
至此彈丸之地猶不予也	-13.6416
舩	-13.6416
若其王在陽翟主君將令誰	-13.6416
譆	-13.6416
識從之一成惡存也於是秦王	-13.6416
趙南有韓魏負海之國也地廣人衆兵	-13.6416
連齊楚北講於單于然後乃可圖也太子	-13.6416
遣還在京今隨逐前去在外接續逐	-13.6416
鄭褏亦以金五百斤張子辭楚王曰天下	-13.6416
非然則位尊而能卑者也願王之	-13.6416
齊齊威王使章子將而應之與秦交和而	-13.6416
其志而已成不成則有命焉吾何以必	-13.6416
容貌顔色殊無佳麗好	-13.6416
而孝成怒之昏於利也勝禹入而順	-13.6416
言不能及也其容貌顔色固	-13.6416
南國雖無危則魏國豈得安哉	-13.6416
與臣而將四矣若士必怒伏	-13.6416
陽内黄斥丘西有太原定	-13.6416
伯也然則其錯兵於魏必矣不如與之桓	-13.6417
者以臣所行多矣周流無所不至未	-13.6417
亂也客曰不然夫望人而笑是和也言	-13.6417
其母知之而已夫利害之相似者	-13.6417
敗之迹粗見於是矣雖非義理之所存而	-13.6417
者知之而已今公國其利害之相似正如	-13.6417
其鄰人見狗之溺井也欲入言之狗	-13.6417
大國惡有天子而小國利之王與大國弗	-13.6417
大王王曰何也曰儀行天下徧矣未	-13.6417
奉陽君不欲客謂奉陽君曰君之春秋	-13.6417
得趙此利於趙而便於周最也	-13.6417
晉之民數百萬今其生者皆死秦之孤也	-13.6417
然而秦之葉陽昆陽與舞陽	-13.6417
燕也吾固將逐之然則王逐廬陵君又不	-13.6417
若長安君之甚左師公曰父母之愛子則	-13.6417
逺千里枉車騎而交臣臣之所以待之者	-13.6417
郭鋆山西高平人由進士三十	-13.6417
除服聶政曰嗟乎政乃市井之人	-13.6417
韓士英四川南充人由進士二十	-13.6417
驚襄子曰此必豫讓也使人問之果豫讓	-13.6417
齊戰敗不勝謀則不得使陳	-13.6417
亦可為國乎曰可王曰楚國多盗正可以	-13.6417
請告惠公惠公曰諾駕而見太子曰	-13.6417
綉	-13.6417
有死鷸兩者不肯相舍漁者得而并擒之	-13.6417
欲惡昭奚恤於楚王而力不能故	-13.6417
是以國權輕於鴻毛而積禍重於丘山	-13.6417
設大使一人正九品副使一人從九品	-13.6417
㳫	-13.6417
𪠘	-13.6417
太史敫曰女無媒而嫁者非吾種也汙吾	-13.6417
王子欲立之法章乃自言於莒共立法章	-13.6417
何有謁者曰可食非謂汝可食	-13.6418
其必免吾欲先據之以加	-13.6418
城渾得之遂南交於楚楚王果以新城	-13.6418
麋知獵者張網前而驅已也因還走而	-13.6418
而自弱也非山東之上計也能危山東者	-13.6418
葷	-13.6418
之王者之伐也欲以正天下而立功名以	-13.6418
客哉故曰主人君乃使吏出之或	-13.6418
有後咎犀首曰公之不慧也夫二君者固	-13.6418
者之計也臣何足以當之雖然願足下之	-13.6418
聽曰若不因救韓韓怨魏西合於秦秦韓	-13.6418
令之留於酸棗樓子患之昭衍	-13.6418
何不吉之有哉老子曰雖貴必以賤	-13.6418
棒	-13.6418
痺	-13.6418
莫之能止然而計之於道歸之於義以	-13.6418
䆠	-13.6418
今我不順齊伐秦秦楚必合而	-13.6418
信侯曰王命召相國長信侯曰王何以臣	-13.6418
危而民敝者怨於上夫守易危之功而逆	-13.6418
大王危之且夫秦之所以不出甲於	-13.6418
宿於野内無孟賁之威荆慶之	-13.6418
是俛而噴仰而鳴聲逹於天若出金石聲	-13.6418
王急召君長信侯曰吾内王於秦者寜以	-13.6418
王美秦之言而欲攻燕攻燕食未飽而禍	-13.6418
西周壌地相接豈不能候	-13.6418
也韓亡之後必且便事便事必就易與利	-13.6418
亟以國合於齊楚秦必委國於公以解伐	-13.6418
其伐楚而肥韓魏也此所謂藉賊兵而齎	-13.6418
制於人臣十乗之家不制於衆人匹夫徒	-13.6418
則且遂攻之趙無以食請粟於齊而齊不	-13.6418
去夏入殷殷王而夏亡管仲去魯	-13.6418
周室甚唯寐忘之今韓不察因欲與秦必	-13.6418
地矣是魏勝楚而亡地於秦也是王以地	-13.6418
大王羞之韓王忿然作色攘臂按	-13.6418
天下皆聞臣之身與王之舉也	-13.6418
張孟談而告之曰夫智伯之為人陽親而	-13.6418
彳	-13.6418
春申君曰先生即舜也汗明曰不然臣請	-13.6418
是何也夫越山踰河絶韓之上黨而攻	-13.6418
時之賢主乎臣請行矣願足下之無制於	-13.6418
者務并吞弱者患不能守天下方	-13.6418
臣已恐之矣長信侯入見王王曰病甚	-13.6418
行支期隨其後且見王支期先入謂王曰	-13.6418
食者也王不如逺交而近攻	-13.6418
駼	-13.6418
齊王建入朝於秦雍門司馬前曰所	-13.6418
齊田侯召大臣而謀曰救趙孰與勿救	-13.6418
㝢	-13.6418
不如者勿與挑戰粟不如者勿與持	-13.6418
事秦何以異於牛後乎夫以大王之賢挾	-13.6418
事而不知夫穰侯方受命乎秦	-13.6418
今能守魏者莫如君矣王聽趙殺痤之後	-13.6418
以全父子之義而君曰必生致之是	-13.6418
先而能從諸侯者寡矣彼戰者之	-13.6418
公可乃行之藍諸君曰願聞其	-13.6418
卿絶之宜哉卿書有與	-13.6418
天下無有今子死而不憂何也東門	-13.6418
太后曰然左師公曰今三世以前至於趙	-13.6418
夫敢借兵者以忠王也王曰可得聞乎孟	-13.6418
奉陽君曰善乃使使與蘇秦結交	-13.6418
寓之文字不過一二言語未必及而意已	-13.6418
幽州僧行均作切韻訓詁以此二字	-13.6418
得安倚齊攻秦而民不得安故夫謀人之	-13.6418
思也祭祀必祝之祝曰必勿使反	-13.6418
戮者何也此夫差平居而謀王	-13.6418
揚州記太湖一名湖亭	-13.6418
攻其北社稷豈得無危哉且夫約從者聚	-13.6418
救則國可存也王曰寡人願子之行也重	-13.6418
昭陽再拜賀戰勝起而問楚之法覆軍殺	-13.6418
是以餘糧收宋也齊國復	-13.6418
曰不可臣聞之同欲者相憎同憂者相	-13.6418
曰文願借兵以救魏趙王曰寡人不能孟	-13.6418
曰秦必不伐楚與趙矣又不攻衛與齊矣	-13.6418
曰臣所以降志辱身居市井屠者幸以	-13.6418
有人謂昭過曰甚矣楚王不察於	-13.6418
未有大功可以稱者而嚴仲子舉百金	-13.6418
柚	-13.6418
死矣此文之所以忠於大王也趙王許諾	-13.6418
氏之法具記一時事辭善惡必書	-13.6418
求大縱之以陽閉之以隂無非	-13.6418
烄	-13.6418
無不被繡衣而食菽粟者豈	-13.6418
燕也直而不倨與夫嚂口	-13.6418
王數月人或惡之懼誅乃謝病歸相印號	-13.6418
眈	-13.6418
糺	-13.6418
翡	-13.6418
與中山侔名不憚割地以賂燕趙出兵	-13.6418
與之馳騁乎雲夢之中而不以天下國家	-13.6418
蠶食六國兼諸侯并有天下仗於詐謀之	-13.6418
西之秦孝公受而用之秦果日以	-13.6418
觥	-13.6418
許諾果與中山王而親之中山果絶齊而	-13.6418
譿	-13.6418
鞗	-13.6418
髙吾君不能用也乃我請君堅塞兩耳無	-13.6418
髙誘注者二十一篇或曰三十二篇崇文	-13.6418
魏魏多變之國也寡人不能親請問親魏	-13.6418
黨之兵不下一舉而攻宜陽則其國斷而	-13.6418
齊者大臣父兄殷衆富樂無過齊者然而	-13.6418
􁁬	-13.6418
而弗能禁也此烏不為烏鵲不為鵲也	-13.6418
交於聶政以意厚之聶政問之曰	-13.6419
國攻秦是我一舉而兩取地於秦中山也	-13.6419
子欲安用我乎嚴遂曰吾得為役之	-13.6419
彪謂王斗魏牟及此三士	-13.6419
十正其六七凡諸本之不載者	-13.6419
忠也昔者堯見舜於草茅之中席隴	-13.6419
曰韓不能守上黨且以與秦其民皆不欲	-13.6419
而其完篇皆以丹圜其上云王覺題戰國	-13.6419
而身安不得其道則主卑而身危今秦魏	-13.6419
君子也近之江乙曰有人好揚人之	-13.6419
器臣居魏知之故昭奚常	-13.6419
外則危今臣聞王居處不安食飲不甘思	-13.6419
子亦已足矣子自為計寡人不	-13.6419
小人也逺之江乙曰然則且有子殺其	-13.6419
殷紂之事敬使臣先以聞於左右凡大王	-13.6419
父臣弑其主者而王終已	-13.6419
鄲之難楚進兵大梁取矣昭奚恤取魏之	-13.6419
楚王告昭子昭子曰臣朝夕以事	-13.6419
級民能相集者賜家六金馮亭垂涕而免	-13.6419
詔而廢大府之憲也雖死終不敢行縮	-13.6419
遂伏劒而死死之日趙國之士聞之皆	-13.6419
重西附秦則秦重中附韓魏則韓魏重且	-13.6419
其妾而笞之故妾所以笞者忠信也今臣	-13.6419
欲以趙合齊魏樓緩欲以趙合秦楚	-13.6419
不覩之故失人子之禮也襄王卒子建立	-13.6419
使者分裂諸侯而符布天下操大國之勢	-13.6419
治政不亂不逆使者直道而行不敢	-13.6419
者吾甲兵頓士民病蓄積索田疇荒囷倉	-13.6419
其道天下可有也何以知其然也昔者紂	-13.6419
臣願以射譬之可乎春申君曰可加曰異	-13.6419
内收百姓循撫其心振窮	-13.6419
子母莊懿德妃張氏成化	-13.6419
必與魏合而以謀楚故王不如少出兵以	-13.6419
用兵於二千里之外故攻城野戰未嘗不	-13.6419
盡効之於王自是之後秦攻魏齊未嘗不	-13.6419
秦張旄曰韓且割而從其所	-13.6419
與其所怨乎王曰韓將割而從其所	-13.6419
與所不怨乎且割而從其所不	-13.6419
今周君天下則我天子之臣而又	-13.6419
中國必分對曰事不成身必危尚何足以	-13.6419
人生之所行與死之心異始君之所行於	-13.6419
合時離何也秦王曰不識也曰天下之合	-13.6419
吕望而弗與深言是周無天子之	-13.6419
哤	-13.6419
曰君得無有所怨於齊士大夫孟	-13.6419
熠	-13.6419
知也王曰雖惡必言之鄭褏曰其似惡聞	-13.6419
矯揉箭箝也故有變意	-13.6419
而王必待工而後乃使之今	-13.6419
右舉劒將自誅臂短不能及銜劒	-13.6419
曰寡人且與天下伐齊旦暮出令矣子必	-13.6419
桒	-13.6419
燕南燕屬東郡酸棗屬陳留徐	-13.6419
聞魏氏悉其百縣勝兵以止戍大梁臣以	-13.6419
見梁王梁王曰何聞曰聞秦且伐魏王曰	-13.6419
也田侯曰善乃起兵南攻襄陵七月邯鄲	-13.6419
免奪死者封近故也太公望封於齊邵公	-13.6419
勢不能以重於天下者何也其用者過也	-13.6419
君以其言告邊境智伯果起兵而襲	-13.6419
我與其處而待之見攻不如先伐之以秦	-13.6419
數百里雨血霑衣王知之乎王曰不知嬴	-13.6419
日我談粗而君動今日精而君不動何也	-13.6419
是則伐楚攻秦而後受其殃也今	-13.6419
曰不敢秦戰不勝趙王能令韓出垣雍之	-13.6419
欲少出師而悉韓魏之兵則	-13.6419
灵	-13.6419
燕縣有桃城今按任城有桃	-13.6419
王可謂能矣王又舉甲兵而攻魏社	-13.6419
窬	-13.6419
魏王弗利白珪謂魏王曰王不如隂使人	-13.6419
中有山名度索有大桃樹屈蟠三千里枝	-13.642
之乃多與趙王寵臣郭開等金使	-13.642
之李牧數破走秦軍殺秦將桓齮王翦	-13.642
之隂天谿即河濟彼言左故此言	-13.642
也其實畏王之甲兵也猶百獸之畏虎也	-13.642
人悍而自用也此辭反必	-13.642
今按天門即史太華伊闕彼言右故此	-13.642
大王患也當今之時山東之建國莫如趙	-13.642
天帝命也子以我為不信吾為子先行子	-13.642
寡人無所用之段規曰不然臣聞	-13.642
屩	-13.642
故謂魏王曰儀請以秦攻三川王以其	-13.642
斸	-13.642
曰若太后之神靈明知死者之無知矣何	-13.642
有禍未見有福見有怨未見有徳非用智	-13.642
無知之死人哉若死者有知先王積怒之	-13.642
献	-13.642
甲鈍兵軍於澠池願渡河踰漳據	-13.642
申子有怨色昭侯曰非所謂學於子者也	-13.642
矣太后救過不贍何暇乃	-13.642
翠曰韓未急也且急矣甘茂曰秦重國智	-13.642
而朝秦取西山諸侯西面而朝曩者使燕	-13.642
與同羣哉此在衍術中而不悟是以知儀	-13.642
菀	-13.642
萬之衆距漳鄴而李信出太原雲中趙不	-13.642
覜	-13.642
觶	-13.642
跲	-13.642
里之厚而動千里之權者地利也	-13.642
釜	-13.642
馬非馬也已如白馬實馬乃使有白馬之	-13.642
􁛮	-13.642
劉瑾功推恩封祿一千石十六年革	-13.642
坺	-13.642
太后明謂左右有復言令長安君	-13.642
太后盛氣而揖之入而徐趨至而自謝曰	-13.642
復攻我乎樓緩對曰此非臣之所敢任也	-13.642
戰國貧而驟舉兵此危亡之術也臣聞之	-13.642
於楚國不當封江尹因得山陽君與之共	-13.642
是襄子義之乃使使者持衣與豫讓豫讓	-13.642
曰春秋善惡兼也司馬史記班固漢書有	-13.642
欲評其死感其義烈不忍下筆	-13.642
永樂元年為都指揮同知追論靖難功封	-13.642
河外割則道不通楚弱則無援此三	-13.642
王若欲霸必親中國而以	-13.642
田瞀曰車軼之所能至	-13.642
百勝之術也太子曰諾請必從公之言而	-13.642
祒	-13.642
而成終身之名除感忿之	-13.642
臣天下莫不稱君之賢今日之事臣故	-13.642
虀	-13.642
起對曰河山之險信不足保也是	-13.642
輔國中尉嵗支禄米三百石	-13.642
難得見如鬼王難得見如天帝今令臣食	-13.642
魏也夫泄吾君臣之交而天下信之是其	-13.642
百姓也夫故使灓水見之於是出而	-13.642
此何肯揚燕秦之威於齊而取大功乎哉	-13.642
然不免於笞此以忠信得罪者也臣之事	-13.642
卒起兵伐蜀十月取之遂定蜀蜀主更號	-13.642
㑹有求予本以開板者因以授之使廣其	-13.642
國非所以利燕也王自慮此則計過無以	-13.642
故曰垣雍空割也魏王曰善樓梧約秦魏	-13.642
事范中行氏乎智伯滅范中行氏而子不	-13.642
亭此時屬韓韓桓惠九年秦	-13.642
報讎反委質事智伯智伯已死子獨何	-13.642
奮而誰敢惰懦且不賢而耕且戰民	-13.642
宋鮑彪原注元吴師道補正	-13.642
故願望見太后曰老婦恃輦而行	-13.642
最少不肖而臣衰竊愛憐之願令	-13.642
果取成臯至韓之取鄭也果從成	-13.642
然故遂與之行獸見之皆走虎不知獸畏	-13.642
趙而憎韓哉欲亡韓吞兩周之地故以韓	-13.642
人所効者庸必得幸乎假之得幸庸必	-13.642
妾之棄酒上以活主父下以存主	-13.642
於是趙襄子面數豫讓曰子不	-13.642
遲鳯翔山東臨朐人由進士四十	-13.642
有髙世之功者必負遺俗之累	-13.6421
堅燕趙之交以伐齊收楚與韓珉	-13.6421
有日矣而雪甚及牛目難以行太子	-13.6421
罪之有也對曰足下不知也臣鄰家有逺	-13.6421
燕益發兵詣趙詔王翦軍以伐燕十月而	-13.6421
可謂能自知人矣能自知人故人非之不	-13.6421
曰韓怨魏乎怨秦乎王曰怨魏張旄曰韓	-13.6421
也王殺無罪之臣而明人之欺王王乃不	-13.6421
謁者也且客獻不死之藥臣食之而王殺	-13.6421
之後有國者非王子孫也臣聞古之善	-13.6421
國有事臣必見王獨立於庭也臣竊	-13.6421
地非完事也彼將傷其前事而悔過其行	-13.6421
大王有以慮之也且臣聞之戰戰慄慄日	-13.6421
确	-13.6421
是舉趙則韓必亡韓亡則荆魏不能獨立	-13.6421
是齊楚合而幾瑟走也楚王弗	-13.6421
何以兩敝也且魏令兵以割趙	-13.6421
方之郤至驟稱其伐彼已	-13.6421
取應解發合格人不得過解額三分之一	-13.6421
格黙勒朗國王衞喇義伊	-13.6421
民必死虜今韓梁之目未嘗	-13.6421
麗必無與君言國事者子謂君	-13.6421
三矣趙氏中央之國也雜民之所居也	-13.6421
人曰君即不能願君堅塞兩耳無	-13.6421
其談也明日復見終日談而去	-13.6421
則楚國之形危且棄南陽斷右	-13.6421
咳	-13.6421
妒	-13.6421
孤寡者人之困賤下位	-13.6421
引軍而退與魏氏和令魏氏	-13.6421
於國而挐薄輔之自今以	-13.6421
是故兵終身暴露於外士民潞	-13.6421
王曰願聞所失計雎曰大王越韓魏而攻	-13.6421
臣弗敢畏也大王信行臣之言死不足以	-13.6421
也西勞於宋南罷於楚則齊軍可敗而河	-13.6421
人迎新婦婦上車問驂馬誰馬也御曰	-13.6421
仇而行游諸侯衆矣然至齊聞足下義甚	-13.6421
令王進之以地左尚以此得	-13.6421
以教悍得齊王意故委任	-13.6421
其卒雖衆多然而輕走易北不敢堅戰	-13.6421
則合齊者君也割地者最也	-13.6421
十二年書太子嬰死因言公仲伯	-13.6421
善之又何至此朱英恐乃亡去後十七日	-13.6421
夫救邯鄲軍於其郊是趙不	-13.6421
嬰外無秦楚之權内無父兄之衆必不能	-13.6421
庬	-13.6421
御史中丞劉基治書侍御史秦裕伯	-13.6421
揖應侯應侯固不快及見之又倨應侯因	-13.6421
揚文之名止文之過私得寶於外者疾入	-13.6421
焆	-13.6421
益近秦臣甚惑之而王弗識也則不明矣	-13.6421
立義者霸用兵窮者亡何以知其然也昔	-13.6421
舉千鈞之重行年八十而求扶持故齊雖	-13.6421
蘇秦傳注齊威六年晉伐齊	-13.6421
一卒自任雖多言亦何救於亂	-13.6421
一諸侯之王出而乗其車約一國而成反	-13.6421
三四里少益嗜食和於身曰老	-13.6421
三月而後得見談卒春申君大	-13.6421
其不可成也亦明矣今秦之與楚也接境	-13.6421
劎	-13.6421
効之如此則士民不勞而故地得其功多	-13.6421
効忠曰公子無功不當封今王之以公子	-13.6421
大今臣直欲棄臣前之所得矣今以臣之	-13.6421
平都今從之又按孝成元年單	-13.6421
掩人之義忠臣不愛死以成名君前已寛	-13.6421
曰日食飲得無衰乎曰恃鬻耳	-13.6421
曰老臣今者殊不欲食乃自	-13.6421
求割地與之即無地以給之不與則棄前	-13.6421
申君之愚昏甚矣人惟不知	-13.6421
申君又曰善於是使人請孫子於趙孫子	-13.6421
畏狐也今王之地方五千里帶甲百萬而	-13.6421
罷無能廢無用損不急之官塞私門之請	-13.6421
老妾事其主婦者乎子長色衰重嫁而	-13.6421
者有不可不知者有不可忘者有不可不	-13.6421
藥酒而待其來矣已而其丈	-13.6421
言不急可乎張翠曰韓急則折而入於楚	-13.6421
言也夫人主年少而矜材無法術以知	-13.6421
豈有毛廧西施哉色與馬取於今之	-13.6421
軹深井里聶政也亦自殺於屍下晉楚齊	-13.6421
魏皆且割地以事秦所以然者以秦與楚	-13.6421
不知丹不肖使得至前願有所道此天	-13.6421
且歸其私之者憂之其妻曰公勿憂也吾	-13.6421
乃不逺千里而臨寡人曽不肯留願聞其	-13.6421
之邑貴戚父兄皆可以受封侯夫割地	-13.6421
今大王垂拱而兩有之是臣之所以	-13.6421
以朝亦欲叔之服之也家	-13.6421
侵楚魏之地周自知不救九鼎	-13.6421
饁	-13.6421
帔	-13.6423
籓	-13.6423
酤	-13.6423
鈳	-13.6423
䳒	-13.6423
涑	-13.6423
鈌	-13.6423
􁒢	-13.6423
岫	-13.6425
曆	-13.6425
橞	-13.6425
罽	-13.6425
嫺	-13.6425
歧	-13.6425
禔	-13.6425
軆	-13.6425
繚	-13.6426
蝢	-13.6427
伇	-13.6427
禝	-13.6427
貍	-13.6427
憮	-13.6427
枲	-13.6427
砦	-13.6427
鮌	-13.6427
宂	-13.6427
敉	-13.6427
澐	-13.6427
报	-13.6427
桶	-13.6427
詧	-13.6427
蟾	-13.6428
鄐	-13.6429
柣	-13.6429
櫱	-13.6429
熑	-13.6429
鐄	-13.6429
廋	-13.6429
墱	-13.6431
䖟	-13.6431
䗽	-13.6431
鏋	-13.6431
秸	-13.6431
簵	-13.6432
蝶	-13.6433
餗	-13.6433
呐	-13.6433
椐	-13.6433
鑌	-13.6433
絧	-13.6433
蘂	-13.6433
􁤲	-13.6433
拇	-13.6433
摍	-13.6433
㦂	-13.6435
宁	-13.6435
䗶	-13.6437
胕	-13.6437
睱	-13.6437
蔴	-13.6437
鯽	-13.6437
襍	-13.6437
騮	-13.6437
鏹	-13.6437
浤	-13.6439
哆	-13.6439
毉	-13.6439
闒	-13.6439
􁈰	-13.6439
罻	-13.6441
埧	-13.6441
醃	-13.6441
眂	-13.6441
僃	-13.6441
揷	-13.6441
鋉	-13.6441
魴	-13.6443
蚳	-13.6443
蝝	-13.6443
搰	-13.6443
縿	-13.6443
龞	-13.6445
癖	-13.6445
􁗣	-13.6445
蜹	-13.6446
猋	-13.6446
膞	-13.6447
齓	-13.6447
豺	-13.6448
崈	-13.6448
蹋	-13.6448
魍	-13.645
牁	-13.645
攴	-13.645
阤	-13.645
値	-13.6452
甍	-13.6452
蒔	-13.6454
罛	-13.6456
㣥	-13.6458
菒	-13.6458
魋	-13.6458
椂	-13.646
嬀	-13.6462
檇	-13.6462
􁠙	-13.6462
鮐	-13.6464
袚	-13.6468
𬞞	-13.6468
㒵	-13.6472
襫	-13.6475
櫌	-13.6491
糕	-14.1298
嘵	-14.1304
絫	-14.1304
㷒	-14.1307
螽	-14.131
踹	-14.1317
窅	-14.1317
揑	-14.132
㽜	-14.132
痴	-14.1323
肚	-14.1326
觜	-14.1326
珽	-14.1326
瓞	-14.1329
脁	-14.1329
瓏	-14.1329
喑	-14.1329
欿	-14.1329
觝	-14.1332
擷	-14.1333
吼	-14.1333
杪	-14.1336
灸	-14.1336
㕙	-14.1339
賺	-14.1342
屎	-14.1342
靄	-14.1345
慳	-14.1345
禊	-14.1345
惨	-14.1345
敔	-14.1348
吊	-14.1348
悳	-14.1348
箏	-14.1351
熻	-14.1351
煅	-14.1351
菓	-14.1351
咩	-14.1355
网	-14.1355
釅	-14.1355
哽	-14.1358
濃	-14.1358
㕛	-14.1358
縜	-14.1358
甎	-14.1361
醎	-14.1361
墪	-14.1361
䨇	-14.1361
冽	-14.1361
櫑	-14.1361
鋻	-14.1361
遒	-14.1364
奂	-14.1364
簏	-14.1364
眥	-14.1367
攖	-14.1367
凴	-14.1367
捫	-14.1367
洢	-14.1367
昝	-14.1367
莗	-14.1367
㢲	-14.1367
䫫	-14.1367
䭔	-14.1367
襗	-14.1367
焟	-14.137
遨	-14.137
怜	-14.137
尫	-14.137
凊	-14.137
厩	-14.137
笳	-14.1373
䟎	-14.1373
銶	-14.1373
咍	-14.1373
慌	-14.1373
珀	-14.1373
嗽	-14.1374
娥	-14.1374
縟	-14.1374
惧	-14.1374
擉	-14.1374
璩	-14.1376
緼	-14.1377
瀧	-14.1377
荇	-14.1377
藕	-14.1377
戛	-14.1377
瑮	-14.1377
眧	-14.1377
螾	-14.1377
絢	-14.1377
郠	-14.1377
錏	-14.138
鍉	-14.138
蝨	-14.138
洳	-14.138
笥	-14.138
敲	-14.138
瞶	-14.138
縀	-14.138
跘	-14.138
晢	-14.1383
渌	-14.1383
艷	-14.1383
廳	-14.1383
蟊	-14.1383
獧	-14.1383
煆	-14.1383
燽	-14.1383
䣛	-14.1383
喁	-14.1383
嚎	-14.1383
珷	-14.1383
竜	-14.1383
誆	-14.1383
拴	-14.1383
覷	-14.1383
嚼	-14.1386
籀	-14.1386
撝	-14.1386
蹀	-14.1386
堊	-14.1386
䆮	-14.1386
怍	-14.1386
晷	-14.1386
轝	-14.1386
逜	-14.1386
鄬	-14.1386
晤	-14.1389
櫈	-14.1389
讖	-14.1389
纪	-14.1389
奩	-14.1389
熀	-14.1389
祻	-14.1389
緗	-14.1389
虯	-14.1389
憙	-14.1389
柂	-14.1389
檏	-14.1389
洓	-14.1389
灮	-14.1389
瓮	-14.1389
屇	-14.1392
瀺	-14.1392
墼	-14.1392
屆	-14.1392
幬	-14.1392
懹	-14.1392
硤	-14.1392
袛	-14.1392
醟	-14.1392
鏬	-14.1392
棋	-14.1396
禭	-14.1396
裭	-14.1396
㪯	-14.1396
坌	-14.1396
攙	-14.1396
鄊	-14.1396
豨	-14.1396
諲	-14.1399
㬎	-14.1399
泫	-14.1399
噱	-14.1399
垹	-14.1399
秖	-14.1402
屹	-14.1402
嫩	-14.1402
戇	-14.1402
䂊	-14.1402
柸	-14.1402
紉	-14.1402
紺	-14.1402
絪	-14.1402
芑	-14.1402
袞	-14.1402
摸	-14.1402
詾	-14.1402
丰	-14.1405
貃	-14.1405
䫉	-14.1405
灉	-14.1405
㑥	-14.1405
䧺	-14.1405
檳	-14.1405
沚	-14.1405
渰	-14.1405
巔	-14.1408
掯	-14.1408
涙	-14.1408
戄	-14.1408
癭	-14.1408
蜒	-14.1408
諞	-14.1408
㷫	-14.1408
儶	-14.1408
塈	-14.1408
奐	-14.1408
崗	-14.1408
椁	-14.1408
癒	-14.1408
賵	-14.1408
軿	-14.1408
鏟	-14.1408
覓	-14.1411
㻞	-14.1411
垬	-14.1411
媸	-14.1411
柝	-14.1411
顴	-14.1411
㞦	-14.1411
㴻	-14.1411
䘙	-14.1411
嬛	-14.1411
恓	-14.1411
瀑	-14.1411
瞷	-14.1411
蓼	-14.1414
澈	-14.1414
処	-14.1414
珮	-14.1414
肤	-14.1414
愓	-14.1414
㮯	-14.1414
㶚	-14.1414
㷼	-14.1414
媳	-14.1414
尃	-14.1414
掞	-14.1414
罋	-14.1414
肈	-14.1414
蠯	-14.1414
踟	-14.1414
爯	-14.1418
㧢	-14.1418
㴠	-14.1418
䖝	-14.1418
儜	-14.1418
抆	-14.1418
捺	-14.1418
搴	-14.1418
旤	-14.1418
晄	-14.1418
爖	-14.1418
磾	-14.1418
繤	-14.1418
蝻	-14.1418
裸	-14.1418
鄁	-14.1418
刅	-14.1419
舡	-14.1421
樿	-14.1421
坪	-14.1421
癃	-14.1421
匃	-14.1421
㞐	-14.1421
兗	-14.1421
叴	-14.1421
弮	-14.1421
荈	-14.1421
嫓	-14.1421
繢	-14.1421
蘩	-14.1421
埍	-14.1424
䠶	-14.1424
睆	-14.1424
箧	-14.1424
癯	-14.1424
銈	-14.1424
国	-14.1424
睂	-14.1424
㕤	-14.1424
䄡	-14.1424
涞	-14.1424
燨	-14.1424
訩	-14.1424
賾	-14.1424
籃	-14.1427
㳘	-14.1427
豋	-14.1427
还	-14.1427
壖	-14.1427
泟	-14.1427
熜	-14.1427
狺	-14.1427
稡	-14.1427
絭	-14.1427
裎	-14.1427
燻	-14.143
聡	-14.143
蚕	-14.143
䆳	-14.143
吧	-14.143
咬	-14.143
埥	-14.143
帆	-14.143
啾	-14.143
弒	-14.143
恟	-14.143
惽	-14.143
撅	-14.143
汔	-14.143
渢	-14.143
焫	-14.143
焲	-14.143
皤	-14.143
翿	-14.143
赱	-14.143
訝	-14.1433
污	-14.1433
暈	-14.1433
䣄	-14.1433
跕	-14.1433
蚠	-14.1433
榑	-14.1436
嶸	-14.1436
漷	-14.1436
烕	-14.1436
瞂	-14.1436
繯	-14.1436
芃	-14.1436
覛	-14.1436
頊	-14.1439
摏	-14.144
窈	-14.144
滓	-14.144
衎	-14.144
賷	-14.144
崘	-14.1441
笱	-14.1443
縓	-14.1443
睴	-14.1443
䒶	-14.1443
虣	-14.1443
鏵	-14.1446
咢	-14.1446
巘	-14.1446
漙	-14.1449
喣	-14.1449
忞	-14.1449
菊	-14.1452
崕	-14.1452
簨	-14.1452
襌	-14.1455
䥥	-14.1455
錤	-14.1455
䰟	-14.1455
燋	-14.1455
枓	-14.1455
抝	-14.1458
裙	-14.1458
筍	-14.1459
巇	-14.1465
枘	-14.1465
叜	-14.1481
栝	-14.1481
酎	-14.1484
爹	-14.1487
旴	-14.1496
琿	-14.1499
襦	-14.1503
礴	-14.1525
鐰	-15.067
鐮	-15.0671
鐭	-15.0672
鐪	-15.0673
鐎	-15.0674
鐊	-15.0675
鏻	-15.0676
鏺	-15.0677
鏷	-15.0678
鏶	-15.0679
鏳	-15.068
鏢	-15.0681
鏝	-15.0682
鏏	-15.0683
鎘	-15.0684
鎕	-15.0685
鍶	-15.0686
鍱	-15.0687
鍰	-15.0688
鍨	-15.0689
鍖	-15.069
鍈	-15.0691
錧	-15.0692
錚	-15.0693
鋿	-15.0694
鋺	-15.0695
鋥	-15.0696
鋠	-15.0697
鋖	-15.0698
鉻	-15.0699
鉹	-15.07
鉙	-15.0701
鉐	-15.0702
鉋	-15.0703
鉀	-15.0704
鈽	-15.0705
鈼	-15.0706
鈰	-15.0707
鈮	-15.0708
鈘	-15.0709
鈀	-15.071
釾	-15.0711
釨	-15.0712
釙	-15.0713
醵	-15.0714
酥	-15.0715
酆	-15.0716
郲	-15.0717
郈	-15.0718
逅	-15.0719
轕	-15.072
轇	-15.0721
躒	-15.0722
蹣	-15.0723
跚	-15.0724
趼	-15.0725
賅	-15.0726
譊	-15.0727
誖	-15.0728
襞	-15.0729
褑	-15.073
蠺	-15.0731
蠩	-15.0732
螳	-15.0733
螘	-15.0734
螂	-15.0735
蝣	-15.0736
蝄	-15.0737
蜽	-15.0738
蜴	-15.0739
蜥	-15.074
蜉	-15.0741
蜈	-15.0742
蚣	-15.0743
蚖	-15.0744
蘁	-15.0745
薵	-15.0746
薴	-15.0747
蕡	-15.0748
蕆	-15.0749
蓰	-15.075
蒗	-15.0751
葫	-15.0752
葑	-15.0753
莩	-15.0754
茦	-15.0755
茄	-15.0756
苽	-15.0757
臟	-15.0758
膜	-15.0759
腮	-15.076
胱	-15.0761
胯	-15.0762
胭	-15.0763
耔	-15.0764
翬	-15.0765
罡	-15.0766
纕	-15.0767
縐	-15.0768
緌	-15.0769
緂	-15.077
綌	-15.0771
絖	-15.0772
絏	-15.0773
籛	-15.0774
簦	-15.0775
簣	-15.0776
篪	-15.0777
筝	-15.0778
笴	-15.0779
秭	-15.078
秌	-15.0781
禥	-15.0782
祹	-15.0783
磵	-15.0784
矬	-15.0785
眨	-15.0786
瘤	-15.0787
痾	-15.0788
痑	-15.0789
疴	-15.079
甂	-15.0791
瑝	-15.0792
玥	-15.0793
玁	-15.0794
獒	-15.0795
獍	-15.0796
犠	-15.0797
燝	-15.0798
燖	-15.0799
燌	-15.08
熮	-15.0801
熡	-15.0802
煤	-15.0803
煣	-15.0804
煝	-15.0805
煘	-15.0806
煋	-15.0807
焵	-15.0808
焴	-15.0809
焃	-15.081
烺	-15.0811
烯	-15.0812
烠	-15.0813
烚	-15.0814
烑	-15.0815
炪	-15.0816
炨	-15.0817
炣	-15.0818
炔	-15.0819
灊	-15.082
灂	-15.0821
瀷	-15.0822
瀶	-15.0823
瀴	-15.0824
瀳	-15.0825
濜	-15.0826
濚	-15.0827
澼	-15.0828
澻	-15.0829
澓	-15.083
澇	-15.0831
潿	-15.0832
潩	-15.0833
漽	-15.0834
漴	-15.0835
漯	-15.0836
漨	-15.0837
漖	-15.0838
滵	-15.0839
滜	-15.084
滃	-15.0841
湒	-15.0842
湁	-15.0843
渿	-15.0844
渳	-15.0845
渜	-15.0846
淕	-15.0847
淔	-15.0848
淐	-15.0849
涷	-15.085
涭	-15.0851
涔	-15.0852
浢	-15.0853
洴	-15.0854
泲	-15.0855
泙	-15.0856
泘	-15.0857
沺	-15.0858
沌	-15.0859
沄	-15.086
汸	-15.0861
汥	-15.0862
汕	-15.0863
汌	-15.0864
歪	-15.0865
歔	-15.0866
欷	-15.0867
欓	-15.0868
欀	-15.0869
檤	-15.087
檗	-15.0871
檔	-15.0872
檈	-15.0873
橪	-15.0874
橝	-15.0875
橜	-15.0876
橎	-15.0877
樳	-15.0878
樬	-15.0879
樤	-15.088
樔	-15.0881
槻	-15.0882
槱	-15.0883
槫	-15.0884
榬	-15.0885
榞	-15.0886
楒	-15.0887
楑	-15.0888
楅	-15.0889
楃	-15.089
椻	-15.0891
椔	-15.0892
椈	-15.0893
棶	-15.0894
梴	-15.0895
梡	-15.0896
梠	-15.0897
桮	-15.0898
桍	-15.0899
栺	-15.09
栮	-15.0901
栓	-15.0902
柢	-15.0903
柑	-15.0904
柎	-15.0905
柌	-15.0906
枿	-15.0907
枸	-15.0908
枔	-15.0909
曚	-15.091
曅	-15.0911
晊	-15.0912
晅	-15.0913
摐	-15.0914
搪	-15.0915
搠	-15.0916
愫	-15.0917
惘	-15.0918
惏	-15.0919
恰	-15.092
怱	-15.0921
彲	-15.0922
彎	-15.0923
弣	-15.0924
廚	-15.0925
幵	-15.0926
幞	-15.0927
嶪	-15.0928
崆	-15.0929
尠	-15.093
宬	-15.0931
媕	-15.0932
婭	-15.0933
婕	-15.0934
娑	-15.0935
姆	-15.0936
壧	-15.0937
壥	-15.0938
壜	-15.0939
壏	-15.094
壎	-15.0941
壉	-15.0942
墿	-15.0943
墤	-15.0944
墏	-15.0945
墂	-15.0946
塼	-15.0947
塶	-15.0948
塙	-15.0949
塍	-15.095
塀	-15.0951
堸	-15.0952
堭	-15.0953
堩	-15.0954
堧	-15.0955
堣	-15.0956
堚	-15.0957
埱	-15.0958
埯	-15.0959
埬	-15.096
埫	-15.0961
垽	-15.0962
垻	-15.0963
垧	-15.0964
垟	-15.0965
垌	-15.0966
坿	-15.0967
坾	-15.0968
坴	-15.0969
坫	-15.097
圿	-15.0971
圪	-15.0972
囦	-15.0973
嚀	-15.0974
嘶	-15.0975
喊	-15.0976
叮	-15.0977
匾	-15.0978
劂	-15.0979
剞	-15.098
剚	-15.0981
刮	-15.0982
划	-15.0983
冏	-15.0984
傫	-15.0985
俴	-15.0986
俜	-15.0987
俁	-15.0988
丌	-15.0989
䭫	-15.099
䥸	-15.0991
䥵	-15.0992
䤪	-15.0993
䘍	-15.0994
䐑	-15.0995
䀌	-15.0996
㾗	-15.0997
㸎	-15.0998
㷿	-15.0999
㷷	-15.1
㷬	-15.1001
㷆	-15.1002
㶠	-15.1003
㵾	-15.1004
㵹	-15.1005
㵪	-15.1006
㵟	-15.1007
㴫	-15.1008
㴦	-15.1009
㳻	-15.101
㰍	-15.1011
㮿	-15.1012
㮧	-15.1013
㮙	-15.1014
㭄	-15.1015
㡽	-15.1016
㙷	-15.1017
㙴	-15.1018
㙩	-15.1019
㙞	-15.102
㙎	-15.1021
㕍	-15.1022
齬	-15.1023
齟	-15.1024
鸜	-15.1025
鵒	-15.1026
魑	-15.1027
骰	-15.1028
驆	-15.1029
騩	-15.103
騅	-15.1031
韐	-15.1032
鞓	-15.1033
靂	-15.1034
隤	-15.1035
阽	-15.1036
鑭	-15.1037
鑣	-15.1038
鍗	-15.1039
鉣	-15.104
鈱	-15.1041
鈠	-15.1042
鈋	-15.1043
鈉	-15.1044
釩	-15.1045
釦	-15.1046
釃	-15.1047
郿	-15.1048
軘	-15.1049
蹲	-15.105
蹐	-15.1051
踁	-15.1052
謖	-15.1053
觖	-15.1054
蟆	-15.1055
蛄	-15.1056
蚉	-15.1057
薇	-15.1058
蓽	-15.1059
茷	-15.106
茁	-15.1061
芣	-15.1062
臋	-15.1063
腨	-15.1064
脗	-15.1065
耹	-15.1066
罘	-15.1067
繗	-15.1068
緷	-15.1069
綢	-15.107
篥	-15.1071
磑	-15.1072
磈	-15.1073
碨	-15.1074
碔	-15.1075
皈	-15.1076
癬	-15.1077
瘼	-15.1078
畹	-15.1079
璮	-15.108
璙	-15.1081
獀	-15.1082
猘	-15.1083
狴	-15.1084
熽	-15.1085
熞	-15.1086
焨	-15.1087
炓	-15.1088
炆	-15.1089
灴	-15.109
漼	-15.1091
滈	-15.1092
浥	-15.1093
氂	-15.1094
氁	-15.1095
歂	-15.1096
橒	-15.1097
樉	-15.1098
榿	-15.1099
榳	-15.11
榣	-15.1101
栟	-15.1102
攍	-15.1103
搗	-15.1104
拗	-15.1105
懺	-15.1106
憃	-15.1107
惚	-15.1108
怩	-15.1109
幐	-15.111
嵕	-15.1111
岯	-15.1112
塏	-15.1113
埈	-15.1114
埅	-15.1115
垍	-15.1116
圳	-15.1117
噤	-15.1118
吒	-15.1119
劘	-15.112
劊	-15.1121
剳	-15.1122
剮	-15.1123
凈	-15.1124
儹	-15.1125
儛	-15.1126
俑	-15.1127
佼	-15.1128
佋	-15.1129
䲭	-15.113
䡴	-15.1131
䍽	-15.1132
㽥	-15.1133
㶇	-15.1134
㳦	-15.1135
㳋	-15.1136
㰘	-15.1137
㰂	-15.1138
㮁	-15.1139
𧖟	-15.114
齗	-15.1141
黚	-15.1142
麩	-15.1143
鵅	-15.1144
驘	-15.1145
頏	-15.1146
陔	-15.1147
鐓	-15.1148
鉖	-15.1149
鈒	-15.115
邥	-15.1151
躪	-15.1152
躄	-15.1153
跬	-15.1154
趺	-15.1155
謏	-15.1156
諓	-15.1157
蠋	-15.1158
茸	-15.1159
艤	-15.116
肓	-15.1161
罳	-15.1162
緞	-15.1163
絛	-15.1164
籲	-15.1165
磚	-15.1166
碉	-15.1167
皞	-15.1168
瘖	-15.1169
玕	-15.117
獫	-15.1171
獞	-15.1172
犇	-15.1173
燏	-15.1174
熥	-15.1175
煡	-15.1176
煓	-15.1177
焮	-15.1178
烙	-15.1179
烐	-15.118
烆	-15.1181
炥	-15.1182
炒	-15.1183
瀬	-15.1184
濩	-15.1185
澱	-15.1186
澁	-15.1187
漎	-15.1188
滆	-15.1189
湳	-15.119
涍	-15.1191
汧	-15.1192
毳	-15.1193
殍	-15.1194
殀	-15.1195
欏	-15.1196
欆	-15.1197
檯	-15.1198
檡	-15.1199
橺	-15.12
樻	-15.1201
槤	-15.1202
槏	-15.1203
榰	-15.1204
桄	-15.1205
栳	-15.1206
柫	-15.1207
杷	-15.1208
杫	-15.1209
暵	-15.121
撇	-15.1211
摴	-15.1212
搒	-15.1213
描	-15.1214
愊	-15.1215
弥	-15.1216
巏	-15.1217
巋	-15.1218
嵿	-15.1219
崞	-15.122
寠	-15.1221
姐	-15.1222
壂	-15.1223
塛	-15.1224
塒	-15.1225
堉	-15.1226
堄	-15.1227
垗	-15.1228
坽	-15.1229
坯	-15.123
嚬	-15.1231
嗷	-15.1232
嗔	-15.1233
吸	-15.1234
凂	-15.1235
偘	-15.1236
佹	-15.1237
乜	-15.1238
䵺	-15.1239
鮎	-15.124
騍	-15.1241
飤	-15.1242
鞁	-15.1243
鐏	-15.1244
鏴	-15.1245
鏓	-15.1246
鉌	-15.1247
鈹	-15.1248
郚	-15.1249
輊	-15.125
診	-15.1251
褓	-15.1252
藜	-15.1253
臉	-15.1254
翱	-15.1255
羆	-15.1256
籧	-15.1257
簬	-15.1258
篨	-15.1259
箘	-15.126
窰	-15.1261
玖	-15.1262
烰	-15.1263
炌	-15.1264
瀏	-15.1265
潾	-15.1266
渲	-15.1267
檿	-15.1268
敭	-15.1269
恍	-15.127
嫚	-15.1271
姁	-15.1272
妲	-15.1273
墦	-15.1274
堛	-15.1275
垿	-15.1276
劃	-15.1277
傔	-15.1278
㮵	-15.1279
􁁦	-15.128
鶀	-15.1281
騸	-15.1282
鎒	-15.1283
裀	-15.1284
蜻	-15.1285
萍	-15.1286
苹	-15.1287
脞	-15.1288
簠	-15.1289
禺	-15.129
琊	-15.1291
狁	-15.1292
牴	-15.1293
爺	-15.1294
熼	-15.1295
烶	-15.1296
洌	-15.1297
泓	-15.1298
歹	-15.1299
櫸	-15.13
櫏	-15.1301
橓	-15.1302
梈	-15.1303
栲	-15.1304
暐	-15.1305
恝	-15.1306
廆	-15.1307
娓	-15.1308
墠	-15.1309
堈	-15.131
喆	-15.1311
㙾	-15.1312
㘧	-15.1313
鵋	-15.1314
駰	-15.1315
邐	-15.1316
蓉	-15.1317
苔	-15.1318
芙	-15.1319
艫	-15.132
舳	-15.1321
罈	-15.1322
犍	-15.1323
澋	-15.1324
浡	-15.1325
洸	-15.1326
檮	-15.1327
榴	-15.1328
栩	-15.1329
柘	-15.133
悒	-15.1331
帟	-15.1332
墭	-15.1333
墡	-15.1334
勔	-15.1335
䴊	-15.1336
㙉	-15.1337
頞	-15.1338
闉	-15.1339
鍬	-15.134
轚	-15.1341
踖	-15.1342
諠	-15.1343
藹	-15.1344
臃	-15.1345
胊	-15.1346
罐	-15.1347
痍	-15.1348
潚	-15.1349
泆	-15.135
楗	-15.1351
媽	-15.1352
婪	-15.1353
傴	-15.1354
㮮	-15.1355
鼉	-15.1356
騄	-15.1357
逍	-15.1358
裟	-15.1359
袈	-15.136
莧	-15.1361
洶	-15.1361
玃	-15.1361
荔	-15.1362
腓	-15.1363
胝	-15.1364
繙	-15.1365
嘛	-15.1365
磊	-15.1366
玳	-15.1367
焌	-15.1368
榼	-15.1369
殳	-15.1369
袐	-15.1369
楛	-15.137
敫	-15.1371
徠	-15.1372
嚚	-15.1373
叵	-15.1374
厓	-15.1375
侹	-15.1376
䳢	-15.1377
鶡	-15.1378
駸	-15.1379
腑	-15.138
淆	-15.1381
櫍	-15.1382
朧	-15.1383
朦	-15.1384
徘	-15.1385
徊	-15.1386
嬙	-15.1387
唪	-15.1388
鄏	-15.1389
煇	-15.139
懴	-15.1391
怫	-15.1392
姞	-15.1393
垝	-15.1394
蔟	-15.1395
苓	-15.1396
琉	-15.1397
憔	-15.1398
侂	-15.1399
銚	-15.14
㒒	-15.14
艴	-15.1401
獗	-15.1402
匽	-15.1403
凰	-15.1404
茫	-15.1405
碌	-15.1406
琶	-15.1407
琵	-15.1408
燉	-15.1409
洹	-15.141
冓	-15.1411
詿	-15.1412
擘	-15.1413
壟	-15.1414
嘍	-15.1415
翌	-15.1415
韃	-15.1416
橚	-15.1417
鄄	-15.1418
覦	-15.1419
蕘	-15.142
羫	-15.1421
梲	-15.1422
蓐	-15.1423
紜	-15.1424
獪	-15.1425
㿈	-15.1426
淬	-15.1426
侏	-15.1427
舶	-15.1428
蹂	-15.1429
捭	-15.143
迤	-15.1431
瀘	-15.1432
鄱	-15.1433
鋄	-15.1434
溧	-15.1434
惓	-15.1435
菩	-15.1436
夤	-15.1437
輜	-15.1438
嫪	-15.1439
棉	-15.144
褏	-15.1441
眙	-15.1442
遛	-15.1442
駙	-15.1442
