<unk>	0
<s>	0
</s>	0
之	-4.3491
(	-4.94498
/	-5.07235
有	-5.09768
為	-5.1301
云	-5.21651
人	-5.23187
也	-5.24101
以	-5.2814
詩	-5.28405
不	-5.32646
而	-5.34695
)	-5.38792
一	-5.46444
其	-5.48636
中	-5.60254
者	-5.66267
無	-5.70103
曰	-5.72404
山	-5.76597
如	-5.82184
作	-5.839
子	-5.87345
此	-5.87992
與	-5.89186
自	-5.8938
於	-5.91523
時	-5.91954
/)	-5.94015
上	-6.01228
在	-6.02271
天	-6.03446
公	-6.05707
書	-6.05724
王	-6.06868
字	-6.0705
)(	-6.08478
文	-6.10196
言	-6.12691
見	-6.13181
得	-6.15044
大	-6.16342
風	-6.1839
事	-6.21855
水	-6.2204
日	-6.22172
是	-6.23249
則	-6.23773
行	-6.24534
出	-6.26132
三	-6.26138
亦	-6.26766
又	-6.26771
來	-6.26947
生	-6.27577
花	-6.27689
名	-6.28883
長	-6.32717
雲	-6.33061
下	-6.33433
道	-6.33438
至	-6.35851
所	-6.36154
然	-6.36582
後	-6.36839
相	-6.37239
皆	-6.37416
知	-6.37509
春	-6.38298
多	-6.3853
歸	-6.3915
故	-6.40036
入	-6.43631
矣	-6.47766
清	-6.47856
非	-6.50489
君	-6.5054
前	-6.50742
家	-6.52439
語	-6.52668
去	-6.54026
詩云	-6.54403
李	-6.54985
州	-6.55158
老	-6.55802
意	-6.56439
同	-6.57737
未	-6.585
成	-6.58924
玉	-6.59021
心	-6.59191
可	-6.59795
月	-6.60319
乃	-6.60677
用	-6.60817
欲	-6.61505
明	-6.62234
石	-6.62503
今	-6.62558
金	-6.63083
正	-6.63153
何	-6.6337
聲	-6.6495
謂	-6.6616
若	-6.68241
已	-6.68662
方	-6.68877
髙	-6.69168
傳	-6.69763
▁	-6.69769
客	-6.70194
小	-6.70672
官	-6.70974
于	-6.71379
元	-6.71839
我	-6.72148
深	-6.72349
題	-6.73133
因	-6.73325
初	-6.73363
白	-6.73396
張	-6.74198
新	-6.7426
集	-6.75319
古	-6.77134
盡	-6.77641
門	-6.77975
空	-6.78036
能	-6.79391
過	-6.79488
二	-6.79842
世	-6.79861
寒	-6.80116
南	-6.80522
當	-6.80751
江	-6.8123
飛	-6.81629
酒	-6.82053
聞	-6.82192
秋	-6.83381
西	-6.85949
雨	-6.85987
句	-6.86362
復	-6.88254
朝	-6.88307
東	-6.88359
平	-6.88872
歌	-6.89015
黄	-6.89361
唐	-6.89679
思	-6.89951
年	-6.89979
從	-6.90468
開	-6.90897
龍	-6.91653
夜	-6.92159
和	-6.92437
五	-6.92863
香	-6.92898
重	-6.9303
馬	-6.93454
及	-6.93985
爲	-6.94018
逺	-6.94555
國	-6.94632
處	-6.94943
似	-6.95234
陳	-6.95264
好	-6.96126
本	-6.9677
使	-6.97255
獨	-6.97972
賦	-6.98812
光	-6.99595
舊	-6.99682
氣	-6.99738
林	-6.99836
將	-7.0028
耳	-7.00358
觀	-7.00563
青	-7.00673
流	-7.01472
四	-7.01749
雪	-7.02306
起	-7.02331
樂	-7.02569
令	-7.03292
地	-7.03516
城	-7.03657
先	-7.0374
學	-7.04179
居	-7.04296
頭	-7.04565
更	-7.04693
劉	-7.04823
應	-7.05503
間	-7.06046
雖	-7.06633
問	-7.07316
對	-7.07784
還	-7.08957
漢	-7.09127
難	-7.09262
紅	-7.09945
望	-7.11362
落	-7.12143
安	-7.12272
色	-7.12516
送	-7.12935
真	-7.12977
華	-7.13024
取	-7.14736
兩	-7.14843
數	-7.15006
少	-7.15434
即	-7.15465
衣	-7.1574
論	-7.15764
辭	-7.15971
樹	-7.16168
别	-7.16694
曲	-7.17755
情	-7.17911
猶	-7.18088
身	-7.18332
路	-7.18458
稱	-7.18497
外	-7.18575
經	-7.18594
乎	-7.18595
志	-7.1883
宫	-7.19029
常	-7.19245
竹	-7.19556
莫	-7.19959
分	-7.20089
寄	-7.20094
高	-7.20246
嘗	-7.20347
遂	-7.20609
始	-7.20668
仙	-7.21996
氏	-7.2209
海	-7.22385
九	-7.22754
女	-7.22825
到	-7.2291
僧	-7.23144
臣	-7.23603
遊	-7.24161
惟	-7.24236
立	-7.24276
草	-7.24876
師	-7.25228
坐	-7.25561
士	-7.25768
神	-7.25923
詞	-7.26124
命	-7.26157
萬	-7.26316
或	-7.26941
畫	-7.27306
吾	-7.27627
死	-7.28556
謝	-7.28571
物	-7.28811
向	-7.28919
巻	-7.2917
通	-7.29227
夢	-7.29464
手	-7.29576
周	-7.30137
章	-7.30502
善	-7.30644
絶	-7.30675
贈	-7.30775
興	-7.31048
閒	-7.31418
景	-7.31556
滿	-7.32173
野	-7.32315
宋	-7.32493
餘	-7.32986
寺	-7.33802
六	-7.33866
巳	-7.34232
合	-7.34289
法	-7.34322
異	-7.3442
北	-7.35088
帝	-7.352
陽	-7.3538
直	-7.36614
愁	-7.36727
且	-7.36785
溪	-7.3714
夫	-7.37653
百	-7.38306
記	-7.38357
東坡	-7.38658
千	-7.38774
韻	-7.38778
不可	-7.38877
終	-7.39086
宗	-7.39111
載	-7.39151
易	-7.39206
豈	-7.39404
首	-7.40225
甚	-7.40379
體	-7.40547
喜	-7.40803
近	-7.40843
發	-7.41118
葉	-7.41131
以為	-7.41278
楊	-7.41341
誰	-7.41421
看	-7.41816
亭	-7.42166
余	-7.42352
必	-7.42411
才	-7.43485
舉	-7.43502
遺	-7.4412
定	-7.44727
醉	-7.44889
樓	-7.44966
魚	-7.45231
尚	-7.45456
但	-7.45526
松	-7.45805
實	-7.46095
臺	-7.46173
隨	-7.46473
留	-7.4651
諸	-7.48009
筆	-7.48827
㑹	-7.4905
鳥	-7.49452
登	-7.50542
理	-7.50605
半	-7.50732
焉	-7.51318
極	-7.51652
不知	-7.51678
堂	-7.51719
勝	-7.51809
音	-7.51834
秦	-7.52922
吟	-7.53328
信	-7.53364
孫	-7.53456
號	-7.53852
驚	-7.54528
十	-7.54815
篇	-7.54944
輕	-7.55362
著	-7.55646
義	-7.55722
史	-7.55883
徳	-7.5622
守	-7.56426
武	-7.5869
求	-7.58814
泉	-7.58975
仲	-7.59304
八	-7.59389
影	-7.59503
楚	-7.59571
池	-7.5984
引	-7.59874
七	-7.60266
既	-7.60505
愛	-7.60926
塵	-7.61465
連	-7.61526
笑	-7.6162
主	-7.62097
父	-7.62775
病	-7.62801
殿	-7.6307
許	-7.63122
郎	-7.6335
節	-7.63382
詠	-7.64313
予	-7.64337
曉	-7.64359
度	-7.64432
朱	-7.64686
閣	-7.65092
足	-7.65487
亂	-7.66039
幽	-7.66324
俗	-7.66335
盖	-7.66357
伯	-7.66608
舞	-7.66742
食	-7.66817
圖	-7.67192
梅	-7.67234
不能	-7.67442
工	-7.6786
致	-7.68254
爾	-7.68549
梁	-7.68607
河	-7.68705
隂	-7.6874
竒	-7.68814
田	-7.69208
邊	-7.6926
如此	-7.69458
靈	-7.69578
杜	-7.69941
葢	-7.70054
目	-7.7008
民	-7.70152
露	-7.70298
臨	-7.70563
都	-7.70944
鄭	-7.71002
祖	-7.71163
要	-7.7132
鳴	-7.71328
共	-7.71416
動	-7.71806
進	-7.7192
解	-7.72269
孤	-7.72325
注	-7.72343
卿	-7.72465
燕	-7.72476
太	-7.72668
吳	-7.72748
碧	-7.73142
蓋	-7.7316
翠	-7.73171
霜	-7.7333
精	-7.73467
回	-7.73562
齊	-7.73595
苦	-7.73701
便	-7.7398
車	-7.74188
休	-7.74371
先生	-7.7449
陵	-7.74555
烟	-7.75117
按	-7.75162
改	-7.76123
尤	-7.76124
說	-7.76152
變	-7.76191
疑	-7.76426
微	-7.76912
裏	-7.77106
讀	-7.77116
哉	-7.77258
失	-7.77404
離	-7.77543
内	-7.7757
枝	-7.77658
美	-7.77693
韓	-7.77879
禮	-7.781
府	-7.78319
力	-7.78386
斷	-7.78478
飲	-7.78509
恨	-7.78674
全	-7.78898
雙	-7.79073
凡	-7.79141
宜	-7.79422
胡	-7.79439
詩話	-7.79551
比	-7.79572
縣	-7.79658
詩曰	-7.79701
翁	-7.80317
栁	-7.80379
紫	-7.80407
指	-7.80418
却	-7.80515
口	-7.80678
錢	-7.80833
徐	-7.81032
沙	-7.8108
轉	-7.81124
趙	-7.81198
羅	-7.81547
照	-7.81653
雅	-7.81817
波	-7.81909
幾	-7.82143
賜	-7.82158
録	-7.82196
賢	-7.82219
獻	-7.82243
蜀	-7.82273
郡	-7.82293
兮	-7.82453
垂	-7.82892
鶴	-7.83009
尋	-7.8315
眼	-7.83153
聖	-7.83207
調	-7.83507
宿	-7.83515
浮	-7.83656
貴	-7.83702
素	-7.83751
破	-7.83874
嵗	-7.84216
識	-7.84293
窮	-7.84376
盛	-7.8471
火	-7.84955
庭	-7.8524
又云	-7.85279
星	-7.8543
卒	-7.85613
忽	-7.8688
親	-7.87112
蘇	-7.87259
最	-7.87498
院	-7.8759
廣	-7.8766
舟	-7.87716
放	-7.87741
懐	-7.88094
曾	-7.88261
悲	-7.88296
任	-7.88642
容	-7.88654
謂之	-7.88974
散	-7.89082
只	-7.89146
次	-7.89408
湖	-7.89574
佳	-7.89705
来	-7.89944
結	-7.90096
端	-7.90242
昔	-7.90384
夏	-7.90494
川	-7.90827
固	-7.90895
曽	-7.90996
止	-7.91025
移	-7.91282
所謂	-7.91352
游	-7.91393
説	-7.91441
殘	-7.91851
試	-7.92002
等	-7.92167
代	-7.92178
緑	-7.92435
英	-7.92682
化	-7.92693
須	-7.92719
叔	-7.92819
覺	-7.92852
表	-7.92942
碑	-7.92954
封	-7.93031
末	-7.93841
木	-7.93887
兵	-7.94469
晚	-7.94475
煙	-7.94789
隱	-7.94933
之句	-7.95187
皇	-7.95322
永	-7.95387
麗	-7.95629
晉	-7.95771
齋	-7.9607
良	-7.96282
請	-7.96385
感	-7.96489
交	-7.96545
序	-7.96581
功	-7.96752
兒	-7.97296
妙	-7.97502
久	-7.97927
教	-7.98449
類	-7.98868
拜	-7.99226
每	-7.99268
橋	-7.99286
園	-7.99376
里	-7.99457
土	-7.9954
嚴	-7.99707
奏	-7.99863
衆	-8.00036
軍	-8.00131
面	-8.00171
不得	-8.0037
洞	-8.00556
汝	-8.0057
德	-8.00996
適	-8.01002
鄉	-8.01013
期	-8.01094
並	-8.01246
帶	-8.01413
藏	-8.01494
此詩	-8.01562
忠	-8.01849
持	-8.02039
天下	-8.02109
吹	-8.02211
薄	-8.02338
幸	-8.02672
待	-8.02843
逢	-8.02844
早	-8.03004
聽	-8.03011
羣	-8.03098
横	-8.03245
雜	-8.03337
宴	-8.0351
耶	-8.03677
紀	-8.03736
暮	-8.04079
顧	-8.04145
罷	-8.04324
呉	-8.05169
呼	-8.05206
骨	-8.05479
律	-8.05974
冠	-8.05992
宣	-8.06023
扵	-8.06221
服	-8.06347
遇	-8.06374
切	-8.06572
存	-8.06661
就	-8.06802
建	-8.07601
茶	-8.07838
廟	-8.07922
原	-8.08039
巖	-8.08075
沈	-8.08146
俱	-8.08281
當時	-8.08283
屋	-8.08378
谷	-8.08535
虚	-8.08547
陶	-8.08567
珠	-8.0859
傷	-8.08789
制	-8.08938
承	-8.08997
修	-8.09117
丹	-8.09565
寧	-8.09624
侯	-8.09629
燈	-8.10375
簡	-8.10464
逰	-8.10716
魏	-8.11089
秀	-8.11266
再	-8.11308
作詩	-8.11389
羽	-8.1143
御	-8.11743
文章	-8.1221
恩	-8.12288
錦	-8.12323
隠	-8.12489
進士	-8.12583
除	-8.12789
倚	-8.12793
蘭	-8.13126
逸	-8.13153
船	-8.13193
友	-8.1325
壁	-8.13566
仁	-8.13622
召	-8.13645
頗	-8.13698
奉	-8.13762
山谷	-8.1379
孟	-8.13871
牛	-8.13874
角	-8.13916
各	-8.14223
恐	-8.14375
淚	-8.14891
闕	-8.14917
絲	-8.14952
曹	-8.15278
越	-8.1571
崔	-8.15754
閑	-8.15875
賞	-8.15879
軒	-8.1602
益	-8.16096
哀	-8.16367
憶	-8.16386
房	-8.16442
詔	-8.16596
陸	-8.16691
逐	-8.17137
忘	-8.17156
芳	-8.17269
冷	-8.17414
政	-8.17517
果	-8.17555
兼	-8.17603
反	-8.17721
列	-8.17957
細	-8.1807
亡	-8.18405
一日	-8.1844
墨	-8.18443
隔	-8.19101
戲	-8.19373
京	-8.19424
寳	-8.19561
形	-8.1959
顔	-8.19688
怨	-8.1973
晴	-8.20039
荒	-8.20224
性	-8.21098
季	-8.21181
不見	-8.21363
徒	-8.21386
關	-8.21422
殊	-8.21605
萬里	-8.21665
吏	-8.21687
以上	-8.21886
盤	-8.22262
琴	-8.22595
而不	-8.22631
闗	-8.2273
味	-8.22803
願	-8.23189
藥	-8.23362
右	-8.23557
象	-8.23838
延	-8.23892
寫	-8.24086
遣	-8.24218
屬	-8.24305
室	-8.24466
第	-8.24516
村	-8.24918
折	-8.25026
朩	-8.25296
浪	-8.25693
偶	-8.2577
憂	-8.25775
被	-8.26215
往	-8.26334
特	-8.26343
業	-8.2653
省	-8.27202
雄	-8.27331
春風	-8.28096
勢	-8.28143
韋	-8.28157
昭	-8.28189
置	-8.28213
報	-8.28268
選	-8.2845
峯	-8.28743
收	-8.28797
母	-8.28931
千里	-8.29035
急	-8.2927
約	-8.29393
議	-8.2962
考	-8.30146
江南	-8.30229
談	-8.30273
市	-8.30344
榮	-8.30368
迎	-8.3037
盧	-8.30426
銘	-8.30475
遷	-8.30706
乗	-8.30794
烏	-8.30897
尊	-8.30926
源	-8.31148
古人	-8.3133
厚	-8.31334
追	-8.31515
晩	-8.32016
斯	-8.32103
念	-8.32141
短	-8.32206
徑	-8.32448
疎	-8.32636
柳	-8.32672
接	-8.32723
格	-8.32749
治	-8.32952
受	-8.33188
司	-8.33202
依	-8.33245
訪	-8.33294
辨	-8.33327
投	-8.33432
是也	-8.33503
惠	-8.33518
禪	-8.33537
儒	-8.33779
管	-8.33805
暗	-8.33844
編	-8.33891
擬	-8.33899
種	-8.34162
歎	-8.34201
薦	-8.344
嘉	-8.34582
澤	-8.34639
視	-8.34695
孝	-8.35013
翻	-8.35147
懷	-8.35259
妻	-8.35296
采	-8.35386
眉	-8.35399
巧	-8.35593
含	-8.35675
鼓	-8.35728
井	-8.36123
郭	-8.3627
毛	-8.36344
補	-8.3657
歡	-8.37251
刻	-8.37293
退	-8.37295
加	-8.37354
虎	-8.37399
㸃	-8.37491
康	-8.37519
商	-8.37791
利	-8.3787
疾	-8.37876
騎	-8.37914
吕	-8.38069
歳	-8.3834
昌	-8.38361
惡	-8.38373
某	-8.38626
唯	-8.38693
造	-8.38873
子美	-8.38873
荆公	-8.38988
述	-8.39164
蔡	-8.39222
今日	-8.39516
苑	-8.39948
斜	-8.40182
鴈	-8.40321
儀	-8.40377
具	-8.40417
老杜	-8.40523
借	-8.40576
唱	-8.40642
附	-8.40898
洪	-8.40959
典	-8.41066
桂	-8.41129
歴	-8.41158
甫	-8.41482
根	-8.41505
鳯	-8.41603
雞	-8.41687
誠	-8.4169
鼎	-8.41847
銀	-8.41928
乆	-8.42189
殺	-8.42218
崇	-8.42304
他	-8.42337
誤	-8.42441
總	-8.42484
禁	-8.42526
夕	-8.42616
夷	-8.42655
吳旦生曰	-8.42883
貧	-8.42989
𤣥	-8.42994
所以	-8.43184
左	-8.43193
坡	-8.43602
唐人	-8.4363
退之	-8.43801
衰	-8.4385
卧	-8.44164
了	-8.44215
乞	-8.4423
姓	-8.44236
鴻	-8.44331
推	-8.44392
弟	-8.44521
凝	-8.44671
人間	-8.44735
遲	-8.44788
鬼	-8.44948
計	-8.45057
何處	-8.45115
惜	-8.45302
佛	-8.45311
慶	-8.45596
邪	-8.46419
郊	-8.46465
住	-8.46678
程	-8.46691
㡬	-8.46702
塞	-8.46822
品	-8.46857
負	-8.46886
眠	-8.47044
蕭	-8.47341
例	-8.47373
授	-8.47504
權	-8.47654
歩	-8.47674
之意	-8.47702
㣲	-8.47755
蒼	-8.47794
濟	-8.4781
赴	-8.47957
鍾	-8.47983
堪	-8.48017
低	-8.48101
妾	-8.48245
索	-8.48349
泥	-8.48492
二十	-8.48562
養	-8.48617
静	-8.48918
温	-8.49024
婦	-8.49116
敢	-8.49166
長安	-8.49229
侍	-8.49379
駕	-8.49593
錄	-8.4965
撰	-8.49668
丘	-8.49741
古今	-8.49907
平生	-8.50089
鳳	-8.50099
簾	-8.50327
謁	-8.50335
避	-8.50395
告	-8.50451
危	-8.50648
勞	-8.50751
倒	-8.50846
靜	-8.50881
墓	-8.50955
降	-8.51065
范	-8.51107
熟	-8.51132
樂天	-8.51197
館	-8.51207
位	-8.51249
舍	-8.51426
可以	-8.51656
備	-8.51784
淡	-8.51785
嶺	-8.52048
潮	-8.52075
續	-8.52078
賀	-8.52486
爭	-8.52631
條	-8.53142
漸	-8.53247
淺	-8.53252
彼	-8.53394
偏	-8.53406
繼	-8.53515
誦	-8.53522
由	-8.53691
博	-8.53736
廢	-8.54125
歲	-8.54246
魯	-8.54324
綠	-8.54412
鏡	-8.54502
峰	-8.546
狂	-8.54726
岸	-8.54785
底	-8.54806
妓	-8.55
竟	-8.55051
冬	-8.55144
宅	-8.55184
丁	-8.55195
豪	-8.55288
洛	-8.55424
敬	-8.5549
懸	-8.55636
機	-8.55698
背	-8.55778
怪	-8.5591
步	-8.55949
想	-8.56035
累	-8.56086
孔	-8.56329
甲	-8.56671
尚書	-8.56713
赤	-8.56787
達	-8.56798
傾	-8.57102
仍	-8.57107
畧	-8.57314
亦有	-8.57416
尺	-8.57793
浦	-8.57811
學士	-8.58003
無人	-8.58051
籍	-8.58503
戰	-8.58539
狀	-8.58751
紙	-8.58952
詩人	-8.59092
夫人	-8.59235
征	-8.5929
絶句	-8.59533
拂	-8.59574
揚	-8.59588
質	-8.59594
中有	-8.59604
招	-8.59899
枕	-8.59951
霞	-8.60014
弄	-8.60228
乾	-8.60301
龜	-8.60512
怒	-8.60699
者也	-8.60701
鎮	-8.61015
席	-8.61293
祠	-8.61343
掩	-8.61559
愈	-8.62365
答	-8.6259
器	-8.62607
十二	-8.62619
衡	-8.62697
棄	-8.631
十年	-8.63202
賈	-8.63253
戒	-8.63259
太白	-8.63292
以詩	-8.63377
尾	-8.63385
兄	-8.63559
羊	-8.63586
嗟	-8.64573
顯	-8.64575
争	-8.64594
薛	-8.64703
棲	-8.64738
将	-8.6504
魂	-8.65175
謀	-8.65245
甘	-8.65308
福	-8.65343
樂府	-8.65352
莊	-8.65367
明月	-8.65463
之曰	-8.65635
渾	-8.6599
黃	-8.66177
桃	-8.6619
施	-8.66453
映	-8.66462
天子	-8.66562
寶	-8.66631
釋	-8.66644
縁	-8.66758
虞	-8.66997
又有	-8.67015
僕	-8.67065
后	-8.67114
扶	-8.6775
啼	-8.67799
白雲	-8.67907
希	-8.67943
積	-8.68003
執	-8.68076
部	-8.68093
屏	-8.6821
况	-8.6826
鐘	-8.68302
云云	-8.68661
漫	-8.68699
五言	-8.68764
頌	-8.69219
境	-8.6927
斗	-8.69325
憐	-8.69533
跡	-8.69603
虛	-8.69636
迷	-8.69843
頻	-8.69971
暖	-8.70012
話	-8.70141
童	-8.70179
枯	-8.70329
兹	-8.70516
富	-8.70557
三年	-8.70647
伏	-8.70715
不及	-8.70735
詳	-8.70854
㸔	-8.70925
繁	-8.71159
把	-8.71196
抱	-8.7134
不敢	-8.71409
霧	-8.71443
泣	-8.71581
叢	-8.71715
傍	-8.72267
卷	-8.72428
響	-8.72469
哭	-8.72495
符	-8.72504
圓	-8.72606
遥	-8.72878
示	-8.73257
三十	-8.73296
釣	-8.73392
洗	-8.7345
環	-8.73621
社	-8.73676
悟	-8.73757
遠	-8.74042
睡	-8.74096
布	-8.74308
不如	-8.74407
徃	-8.74434
燭	-8.74465
聊	-8.74573
第一	-8.74585
閩	-8.74604
雷	-8.74634
巢	-8.74649
息	-8.74741
毎	-8.74792
豐	-8.74915
不同	-8.75093
天地	-8.75229
稍	-8.75352
堅	-8.75528
術	-8.75561
菊	-8.75609
參	-8.7581
未嘗	-8.76051
假	-8.76055
渡	-8.76168
夀	-8.76226
壯	-8.76356
阿	-8.76459
走	-8.76519
刺	-8.76583
着	-8.76667
漁	-8.76737
杯	-8.76989
䇿	-8.77
禽	-8.77033
不復	-8.77264
裴	-8.77401
畢	-8.77616
罪	-8.77675
潘	-8.77708
彦	-8.77726
側	-8.77743
監	-8.77775
諷	-8.77938
勿	-8.78123
鶯	-8.78331
履	-8.78333
迹	-8.78394
一篇	-8.7843
輩	-8.78544
風吹	-8.78669
買	-8.78704
奇	-8.78871
日月	-8.78912
射	-8.78914
窗	-8.78999
一時	-8.79044
略	-8.79118
屈	-8.79151
消	-8.79252
湘	-8.79299
飄	-8.79443
梅花	-8.79465
崖	-8.79567
氷	-8.79696
伴	-8.80615
鬢	-8.80773
之語	-8.81142
傅	-8.81164
强	-8.81209
升	-8.81281
腰	-8.81315
縱	-8.81323
據	-8.81402
融	-8.81638
眞	-8.81759
繫	-8.81794
資	-8.81958
耕	-8.8214
丞相	-8.82291
催	-8.82365
驅	-8.824
凉	-8.82423
賔	-8.82425
春秋	-8.8269
班	-8.82748
畏	-8.82767
劍	-8.82774
户	-8.82917
採	-8.83282
訓	-8.83591
雁	-8.83759
之詩	-8.83784
否	-8.84156
巾	-8.8433
掌	-8.84354
窺	-8.84527
效	-8.84531
順	-8.84542
彈	-8.84548
沉	-8.84609
故人	-8.84657
奴	-8.84727
振	-8.84743
之類	-8.85122
妃	-8.85184
瑞	-8.85201
咸	-8.85225
粉	-8.85275
仰	-8.85349
蓬	-8.85365
午	-8.85549
寓	-8.85696
牧	-8.85751
刀	-8.85786
荷	-8.85874
又曰	-8.85977
趣	-8.86188
扇	-8.86316
運	-8.86335
舒	-8.86343
踈	-8.86475
湯	-8.8657
率	-8.86583
評	-8.86627
穿	-8.86701
桑	-8.86704
鄰	-8.86766
瓊	-8.86821
宻	-8.86992
輔	-8.86994
藻	-8.87017
注云	-8.8709
旁	-8.87193
農	-8.87375
威	-8.87408
不足	-8.877
昏	-8.87712
蓮	-8.8785
翰	-8.88063
馳	-8.88222
干	-8.88606
印	-8.88651
神仙	-8.88978
貢	-8.89076
覆	-8.89283
勸	-8.89399
貶	-8.89489
維	-8.89495
謫	-8.89663
掃	-8.89836
仕	-8.89839
吐	-8.89949
習	-8.90128
務	-8.9013
大夫	-8.90357
漏	-8.90407
戴	-8.9055
職	-8.9055
圍	-8.90574
笛	-8.9058
覽	-8.90728
諱	-8.90747
聚	-8.90779
詩有	-8.9085
肅	-8.9086
旋	-8.90954
侵	-8.91011
旦	-8.91016
辰	-8.91148
態	-8.91208
披	-8.91212
擁	-8.91423
製	-8.91471
血	-8.91632
燒	-8.91635
旗	-8.91658
用事	-8.91742
潤	-8.91858
涼	-8.92035
錫	-8.92277
賊	-8.923
輿	-8.92471
賦詩	-8.92541
岳	-8.9255
至今	-8.92707
蕩	-8.92732
酬	-8.92744
敗	-8.92745
葬	-8.92751
絃	-8.92782
堯	-8.92839
没	-8.92941
設	-8.93128
鸞	-8.93151
其後	-8.93267
袖	-8.93368
風雨	-8.93584
幕	-8.93586
湏	-8.93614
淵明	-8.93724
差	-8.93746
繡	-8.93818
邑	-8.93897
供	-8.93928
晝	-8.94021
鐵	-8.94037
君子	-8.94044
殆	-8.94142
帳	-8.94312
宰	-8.9444
險	-8.94484
劒	-8.94502
七言	-8.94526
壽	-8.94672
泛	-8.94681
恭	-8.94715
輪	-8.94756
鹿	-8.94794
道士	-8.94798
凌	-8.94938
晨	-8.94979
飯	-8.95145
甞	-8.95162
淮	-8.95382
一作	-8.95489
厭	-8.95495
穆	-8.95594
粧	-8.95652
姑	-8.95885
肯	-8.95894
二年	-8.96035
竊	-8.96057
叟	-8.96231
邉	-8.96285
片	-8.96292
爐	-8.96471
脫	-8.96686
私	-8.96724
譏	-8.96756
髪	-8.9681
驛	-8.96952
太守	-8.97382
旣	-8.97452
候	-8.97702
淵	-8.97703
操	-8.97838
寛	-8.97861
鮮	-8.97893
免	-8.98016
山中	-8.98116
而已	-8.98169
青山	-8.98266
牀	-8.98293
羞	-8.98301
渠	-8.9834
尉	-8.98372
寸	-8.98429
叙	-8.98477
京師	-8.98527
壺	-8.98586
潭	-8.98619
科	-8.98694
申	-8.98753
少年	-8.98774
猿	-8.99084
如何	-8.99176
乘	-8.99229
盈	-8.99233
座	-8.9927
㫁	-8.99338
四十	-8.9943
金陵	-8.99447
案	-8.99526
荆	-8.99696
裁	-8.99744
㫖	-8.99842
誌	-8.99844
充	-8.99951
翼	-8.99979
宮	-8.99983
并	-8.99991
壓	-9.00408
規	-9.00412
添	-9.00428
旅	-9.0046
吉	-9.00563
晦	-9.00596
杖	-9.00669
何人	-9.00792
納	-9.00891
撫	-9.0109
磨	-9.01116
譜	-9.01132
李白	-9.0114
將軍	-9.01377
健	-9.0138
纔	-9.01388
帥	-9.01593
嫌	-9.0161
巴	-9.0165
可謂	-9.01696
貫	-9.01792
寵	-9.01841
讀書	-9.01965
至於	-9.01972
憲	-9.02044
族	-9.02094
綺	-9.0231
智	-9.0232
其詩	-9.0236
蟬	-9.02368
所作	-9.02382
衛	-9.02577
姬	-9.02626
十五	-9.02808
排	-9.02809
於此	-9.02869
塘	-9.02964
司馬	-9.03005
暫	-9.03078
助	-9.03088
辟	-9.0309
元年	-9.03268
籠	-9.03322
蒲	-9.03328
委	-9.03336
茅	-9.0348
屢	-9.03534
揺	-9.03626
𥘉	-9.03642
秋風	-9.03762
洲	-9.03842
廬	-9.03873
介	-9.03986
魯直	-9.04027
貌	-9.0404
鹽	-9.04169
材	-9.04271
之後	-9.04289
流水	-9.04345
愚	-9.04398
臯	-9.04504
酌	-9.04509
宇	-9.04744
換	-9.04758
戎	-9.04776
荅	-9.04866
領	-9.05009
題詩	-9.05087
牽	-9.05233
獲	-9.0524
碎	-9.05255
之所	-9.05295
百年	-9.05344
式	-9.05445
見之	-9.05618
夕陽	-9.05649
營	-9.05694
繞	-9.05766
十八	-9.0592
煩	-9.05982
滅	-9.05989
為詩	-9.06
託	-9.06252
弓	-9.06275
佩	-9.06279
渚	-9.06282
安得	-9.06362
奔	-9.06483
保	-9.06582
菴	-9.06636
苔	-9.06638
䝉	-9.0673
肥	-9.06755
銷	-9.06773
筵	-9.06775
巨	-9.06982
競	-9.06984
打	-9.06986
銅	-9.07186
擊	-9.07214
弱	-9.0723
戸	-9.07255
踏	-9.07257
澗	-9.07258
腹	-9.0746
植	-9.07481
洞庭	-9.07639
風流	-9.0768
疊	-9.07686
柱	-9.07744
俊	-9.07747
濃	-9.07768
歸來	-9.07802
咏	-9.07966
邦	-9.07974
彌	-9.07975
佐	-9.08
彩	-9.08022
靡	-9.08027
古詩	-9.08066
佳句	-9.08183
稀	-9.08269
牙	-9.08271
明皇	-9.0835
冰	-9.08458
濤	-9.08478
藝	-9.08497
伊	-9.08528
潛	-9.0865
簷	-9.08757
諫	-9.08968
支	-9.08987
蟲	-9.09015
禹	-9.09271
尹	-9.09548
津	-9.0955
聨	-9.09591
攜	-9.0977
嗣	-9.09778
校	-9.09797
束	-9.10051
齒	-9.10087
厯	-9.10088
侍郎	-9.10157
皮	-9.10295
奪	-9.10585
妄	-9.10592
呉旦生曰	-9.10615
廻	-9.10679
嘆	-9.10755
姚	-9.10775
脱	-9.10812
寂	-9.10855
泊	-9.10863
後人	-9.10875
一字	-9.1125
茂	-9.11329
西湖	-9.11343
炎	-9.11589
澹	-9.1165
腸	-9.11821
喧	-9.11913
廷	-9.11958
陰	-9.12099
寜	-9.12145
輒	-9.12151
詩也	-9.12288
忍	-9.12388
壇	-9.1241
敏	-9.12544
喚	-9.12584
舎	-9.12638
喻	-9.12927
穴	-9.12973
饒	-9.13047
網	-9.13183
挂	-9.13203
擇	-9.13232
賣	-9.13243
曰此	-9.13244
肉	-9.13247
鱗	-9.13381
忌	-9.13457
隋	-9.13486
迴	-9.13509
江湖	-9.13724
自是	-9.13842
優	-9.14278
沒	-9.14291
桃花	-9.14459
郎中	-9.14462
鑑	-9.14547
雕	-9.14622
隆	-9.14804
馮	-9.14848
澄	-9.15031
占	-9.15079
文字	-9.15385
徹	-9.15386
卻	-9.15605
塔	-9.15635
困	-9.15664
染	-9.15695
丈	-9.15764
洛陽	-9.15805
呈	-9.15944
聴	-9.15993
東風	-9.16052
預	-9.16184
錯	-9.16186
築	-9.16214
敵	-9.16248
杜詩	-9.16273
璧	-9.1648
慕	-9.1649
落花	-9.1661
為之	-9.16804
有詩云	-9.16824
窓	-9.16849
夣	-9.16932
亦不	-9.16995
悉	-9.17046
濕	-9.17089
開元	-9.17265
勤	-9.17287
琵琶	-9.17349
攀	-9.17621
韓退之	-9.17709
醒	-9.17791
柔	-9.17865
疏	-9.17878
遶	-9.17907
太宗	-9.17908
諸公	-9.18075
囊	-9.18083
拙	-9.18102
旌	-9.18176
未有	-9.18351
五年	-9.18393
脚	-9.18397
之言	-9.1841
有餘	-9.18426
辛	-9.18642
㳺	-9.18653
慈	-9.1869
貞	-9.18694
害	-9.18739
杜甫	-9.18802
以此	-9.18819
標	-9.18999
階	-9.19006
祭	-9.19156
激	-9.19256
會	-9.19269
黒	-9.19317
愧	-9.19414
觧	-9.19586
嫁	-9.19611
憑	-9.19842
舜	-9.1985
樵	-9.19851
烈	-9.19876
姿	-9.20111
克	-9.20131
少陵	-9.2017
白樂天	-9.20212
往往	-9.20214
用之	-9.20214
孰	-9.20459
宰相	-9.20522
超	-9.20552
山水	-9.20554
篆	-9.20652
鞭	-9.20756
停	-9.20763
渭	-9.20925
毫	-9.20993
帖	-9.20996
桐	-9.21028
島	-9.21035
瓦	-9.21076
左右	-9.21125
壑	-9.21215
戯	-9.2128
寒食	-9.21288
麥	-9.21323
陪	-9.21325
其所	-9.21365
其意	-9.21465
集中	-9.21575
有所	-9.21686
織	-9.21796
祥	-9.21843
/)(	-9.21874
伐	-9.21884
塗	-9.21896
犯	-9.21916
此語	-9.22303
那	-9.22637
處士	-9.22725
層	-9.22759
無所	-9.232
提	-9.23299
囘	-9.23306
鑿	-9.23313
圃	-9.23332
知其	-9.23337
兄弟	-9.23406
啟	-9.23603
趨	-9.23655
黨	-9.2366
自然	-9.23686
庶	-9.2389
太子	-9.23921
杜子美	-9.23953
頃	-9.2418
朝廷	-9.24417
飽	-9.24492
密	-9.24827
鈎	-9.24851
墮	-9.25163
葛	-9.25405
硯	-9.25413
輦	-9.2547
子瞻	-9.25644
禍	-9.25727
局	-9.25739
專	-9.25784
雀	-9.25951
卑	-9.26013
滴	-9.26032
途	-9.2626
米	-9.26334
阮	-9.26343
婉	-9.26367
娥	-9.26399
可憐	-9.26631
麻	-9.26663
契	-9.26675
寢	-9.26696
嬌	-9.26696
之子	-9.26697
殷	-9.267
墜	-9.26756
朔	-9.2689
珍	-9.26897
際	-9.26984
冩	-9.26985
曠	-9.27005
挽	-9.27021
別	-9.27025
逹	-9.27294
随	-9.27325
謬	-9.2734
籬	-9.27492
一人	-9.27722
紹興	-9.27773
閉	-9.27826
暉	-9.27861
嘲	-9.2788
弔	-9.2789
芙蓉	-9.27898
元和	-9.28043
年年	-9.28086
飾	-9.28198
慮	-9.28236
晏	-9.28269
䑓	-9.28285
詞云	-9.2832
邀	-9.28527
界	-9.28691
像	-9.28733
帆	-9.28779
偉	-9.28785
傑	-9.28819
竿	-9.28892
彭	-9.28934
飢	-9.29118
付	-9.29141
當年	-9.2915
快	-9.29165
清風	-9.29379
講	-9.29436
遽	-9.29461
董	-9.29464
潜	-9.2949
婦人	-9.29557
霄	-9.29603
三月	-9.29656
人生	-9.29684
敎	-9.29779
違	-9.29799
強	-9.29823
九日	-9.29996
曰吾	-9.30041
返	-9.30093
綴	-9.30095
汗	-9.30115
牆	-9.30376
墳	-9.30413
襲	-9.3071
娘	-9.30736
泰	-9.30857
太平	-9.30898
觴	-9.3101
觸	-9.31095
落日	-9.31122
翰林	-9.31215
貪	-9.31337
白日	-9.31404
䕶	-9.3168
促	-9.31692
誅	-9.31711
故事	-9.31839
髮	-9.31939
祀	-9.31987
瘦	-9.32
麟	-9.32027
岑	-9.32028
謹	-9.32308
紛	-9.32332
韶	-9.32357
巷	-9.32359
牡丹	-9.32376
絳	-9.32412
明年	-9.32456
不是	-9.32667
缺	-9.32669
啓	-9.32693
歐公	-9.32742
二字	-9.32796
成都	-9.32831
袁	-9.32898
卜	-9.3291
歸去	-9.32924
倦	-9.32972
誇	-9.32992
一首	-9.33006
倫	-9.33032
得之	-9.33163
鎖	-9.33195
皇帝	-9.33288
南山	-9.33332
十四	-9.33408
江上	-9.33442
其事	-9.33513
純	-9.33549
朋	-9.33552
輝	-9.3356
主人	-9.33593
僅	-9.33623
慙	-9.33673
詩集	-9.33704
騰	-9.33958
五十	-9.34018
緩	-9.34032
道人	-9.34169
祝	-9.34276
藉	-9.34304
翔	-9.34304
庸	-9.34337
一句	-9.34463
之間	-9.34509
欽定四庫全書	-9.3463
而後	-9.3464
活	-9.34641
摘	-9.34677
量	-9.34863
千載	-9.34952
榜	-9.34974
均	-9.35293
鄙	-9.353
襟	-9.35325
綵	-9.354
學者	-9.35448
箇	-9.35618
一巻	-9.35782
何以	-9.35887
銜	-9.35944
居士	-9.36167
熙	-9.36216
時人	-9.3623
庾	-9.36257
徙	-9.36303
瞻	-9.3633
其間	-9.3657
蠻	-9.36585
自有	-9.36596
註	-9.36614
黄金	-9.36673
何事	-9.36714
蝶	-9.36715
押	-9.3683
祐	-9.36854
喬	-9.36902
几	-9.3695
灰	-9.36987
詣	-9.36994
擢	-9.36999
十里	-9.37212
遭	-9.37291
臥	-9.37296
桞	-9.37333
不然	-9.37362
役	-9.3743
弗	-9.37659
携	-9.37715
寂寞	-9.37729
乃知	-9.37854
使君	-9.37898
徧	-9.37939
陋	-9.37965
以其	-9.38251
堆	-9.38349
歟	-9.38377
如今	-9.38555
▁(	-9.38561
廬山	-9.38574
芝	-9.38605
緣	-9.38646
防	-9.38687
何如	-9.38701
證	-9.38707
悠悠	-9.38715
熊	-9.38725
隣	-9.38768
宏	-9.38996
責	-9.3905
十六	-9.3921
黙	-9.39325
刑	-9.39361
勒	-9.39398
二人	-9.39545
相思	-9.39622
場	-9.39714
鄧	-9.39735
出於	-9.39871
竇	-9.40133
東南	-9.4038
策	-9.40429
厥	-9.4046
探	-9.40469
皷	-9.40494
两	-9.40527
亮	-9.40551
山川	-9.40618
東坡云	-9.4074
頓	-9.4076
揚州	-9.40796
膏	-9.40804
乳	-9.40806
吴	-9.40832
判	-9.40913
天上	-9.40914
亦可	-9.41096
仗	-9.41538
剪	-9.41549
千古	-9.41555
第三	-9.41586
埋	-9.41846
也然	-9.41965
富貴	-9.42096
脩	-9.4217
綿	-9.42235
悞	-9.42241
隴	-9.42387
語也	-9.42394
月明	-9.42502
板	-9.4253
瑶	-9.42546
欺	-9.4256
獄	-9.42563
鮑	-9.42563
剛	-9.42595
唐詩	-9.42696
見其	-9.42895
費	-9.42912
之義	-9.42929
序云	-9.42935
之以	-9.42953
獵	-9.42956
四海	-9.43056
千年	-9.43103
藍	-9.43244
不用	-9.43247
欽	-9.43283
卓	-9.43287
庚	-9.43289
記云	-9.43387
御史	-9.43467
州刺史	-9.43518
團	-9.43648
賤	-9.43756
亞	-9.44003
凍	-9.44054
床	-9.44071
致仕	-9.44097
浩	-9.44103
府志	-9.4418
鷗	-9.44257
嶽	-9.44295
焚	-9.44313
明日	-9.44315
宦	-9.44329
揮	-9.4434
雍	-9.44372
乾坤	-9.4439
媚	-9.44395
閨	-9.44414
盃	-9.44425
贊	-9.44437
諧	-9.44439
練	-9.44472
而去	-9.4457
用此	-9.4466
也又	-9.44704
警	-9.44732
衢	-9.44758
肆	-9.45089
於是	-9.45102
徘徊	-9.45162
羙	-9.45212
筍	-9.45457
不為	-9.45501
何時	-9.45526
今人	-9.4553
白頭	-9.45541
西山	-9.45649
不成	-9.45744
晁	-9.459
蕭蕭	-9.45904
軰	-9.46113
笙	-9.46164
偃	-9.46223
震	-9.46258
然後	-9.46313
未必	-9.46317
給	-9.46383
有詩	-9.46469
之事	-9.46481
行人	-9.46558
以來	-9.4656
畔	-9.46633
其二	-9.4672
汪	-9.46909
遍	-9.47041
之作	-9.47182
弦	-9.4733
憤	-9.47378
讀之	-9.47417
虹	-9.47426
詩云云	-9.4743
郷	-9.47443
江山	-9.47447
冥	-9.47688
痕	-9.47688
僻	-9.47697
吞	-9.47709
裘	-9.4772
蒙	-9.47741
乍	-9.47741
掛	-9.47783
春色	-9.47824
其名	-9.4797
春日	-9.48026
霽	-9.48089
岐	-9.48094
一聲	-9.4828
是時	-9.4828
君王	-9.48375
能詩	-9.48397
四句	-9.48404
悔	-9.48458
藤	-9.4846
展	-9.48475
拍	-9.48495
賛	-9.48503
偷	-9.48517
有一	-9.48552
宛	-9.48608
痛	-9.4886
蓬萊	-9.4891
暇	-9.4891
之文	-9.48927
登第	-9.48996
十三	-9.49202
灑	-9.49209
茍	-9.49256
海棠	-9.49273
相見	-9.49423
時有	-9.49545
救	-9.49611
包	-9.49612
筠	-9.49638
州人	-9.49769
畱	-9.49953
俯	-9.49955
簫	-9.50202
峽	-9.50243
使人	-9.50299
戚	-9.50379
況	-9.50391
西風	-9.50405
美人	-9.50419
倉	-9.50421
襄	-9.5047
中書	-9.50642
值	-9.50804
審	-9.50825
纎	-9.50858
統	-9.51207
玄	-9.51232
騷	-9.51398
蛇	-9.51473
相逢	-9.51555
人家	-9.51647
日暮	-9.5166
錢塘	-9.5167
字子	-9.51773
暑	-9.5183
數十	-9.51868
姓名	-9.51891
芳草	-9.51921
故曰	-9.51999
江西	-9.52101
勲	-9.52355
讓	-9.52355
徵	-9.52366
得其	-9.5238
拘	-9.5239
徴	-9.52401
損	-9.52423
戀	-9.52439
相如	-9.52448
五代	-9.52476
非也	-9.5262
媿	-9.52736
脂	-9.52759
舌	-9.53159
潁	-9.53166
托	-9.53166
欄	-9.53181
喪	-9.53182
皆有	-9.53186
扉	-9.53189
垣	-9.53211
棹	-9.53243
終日	-9.5342
坊	-9.53478
犬	-9.5355
四年	-9.53564
灘	-9.53572
熈	-9.5358
鬚	-9.53585
惆悵	-9.53652
幹	-9.53713
徽	-9.53888
弼	-9.53938
爛	-9.53959
豈不	-9.54334
乖	-9.5438
言之	-9.5438
慎	-9.54394
自號	-9.54422
二公	-9.54524
宵	-9.54689
邵	-9.54704
士大夫	-9.54722
肩	-9.54758
丞	-9.54837
回首	-9.54838
文選	-9.54904
八月	-9.55076
逆	-9.55168
陣	-9.55186
苕溪漁隱曰	-9.55191
整	-9.55198
敷	-9.55202
惟有	-9.55394
世間	-9.55436
鷺	-9.55512
廊	-9.55561
患	-9.55577
棊	-9.55586
遜	-9.5562
駐	-9.55638
杭	-9.55767
後主	-9.55854
是以	-9.55915
李太白	-9.5593
摩	-9.55937
𢎞	-9.55957
削	-9.55972
箋	-9.55994
鋪	-9.56015
諌	-9.5602
晋	-9.56059
遙	-9.56309
夾	-9.56406
謙	-9.5641
圗	-9.5642
忙	-9.56427
墻	-9.56439
羡	-9.5645
衍	-9.56804
勉	-9.56812
循	-9.56819
寡	-9.5682
塲	-9.56824
浴	-9.56844
一枝	-9.56855
十七	-9.57145
眀	-9.57164
爽	-9.5718
宣和	-9.57184
汲	-9.57201
閲	-9.57209
娶	-9.57212
朴	-9.57226
誥	-9.57255
菜	-9.57263
賓	-9.57555
衫	-9.57574
淳	-9.57588
其言	-9.5762
分明	-9.57634
涉	-9.57655
不識	-9.57679
裙	-9.57716
閩書	-9.57738
或云	-9.57985
前輩	-9.57998
饑	-9.58008
蒸	-9.58061
蕪	-9.58073
辱	-9.58087
𤓰	-9.58087
寅	-9.58099
檻	-9.58114
一笑	-9.58134
余觀	-9.58332
女子	-9.58333
門外	-9.58412
允	-9.58432
槐	-9.58478
配	-9.58487
偽	-9.58499
子厚	-9.58536
辯	-9.5856
涕	-9.58783
闌	-9.58876
蘿	-9.58894
群	-9.58915
焦	-9.58921
播	-9.58985
兩句	-9.5913
老人	-9.59216
淨	-9.59301
榻	-9.59315
禄	-9.59317
桓	-9.59342
濶	-9.59383
舘	-9.59394
者皆	-9.59482
未知	-9.59509
他人	-9.59518
十餘	-9.59519
後世	-9.59595
然則	-9.59713
檄	-9.59729
哲	-9.59753
爵	-9.59756
認	-9.59776
誕	-9.59781
察	-9.60126
軸	-9.60163
緯	-9.60192
攻	-9.60201
歇	-9.60207
山下	-9.60432
拾遺	-9.60436
行云	-9.60487
綸	-9.60548
暴	-9.60595
抛	-9.60672
不必	-9.60679
花落	-9.60726
不堪	-9.60827
頂	-9.60923
其詞	-9.60926
律詩	-9.60977
人皆	-9.60985
從此	-9.61016
獸	-9.61035
袍	-9.61055
鴛鴦	-9.61119
門前	-9.61141
邁	-9.61443
抑	-9.61512
諡	-9.61594
飲酒	-9.61767
絮	-9.61852
懼	-9.61905
臂	-9.61921
子孫	-9.61924
署	-9.61932
紗	-9.61954
杭州	-9.62065
可見	-9.62128
桃李	-9.62319
鴉	-9.62347
二首	-9.62348
鬱	-9.62348
羮	-9.62352
𦵏	-9.62361
槩	-9.62367
笑曰	-9.62415
陌	-9.62619
遮	-9.62781
價	-9.62808
紛紛	-9.62819
王荆公	-9.62911
多少	-9.63102
閱	-9.63242
斧	-9.63263
覩	-9.6327
點	-9.63277
不盡	-9.63523
輸	-9.63675
荀	-9.63692
七十	-9.63721
男	-9.63742
公子	-9.63794
他日	-9.64081
譽	-9.64114
裂	-9.6413
躍	-9.64165
蕃	-9.64189
其人	-9.64313
二子	-9.64477
料	-9.6452
綱	-9.64525
橘	-9.64539
李杜	-9.6458
暢	-9.64586
隅	-9.64588
河南	-9.64589
令人	-9.64661
熱	-9.65001
帛	-9.65002
蘓	-9.6502
峭	-9.65034
栽	-9.65052
艶	-9.65058
其中	-9.65086
属	-9.65087
拾	-9.65394
慚	-9.6544
檢	-9.65453
項	-9.65459
慘	-9.65477
作者	-9.65726
紹	-9.65745
俞	-9.65796
歐陽	-9.65806
昇	-9.65829
世人	-9.65862
單	-9.6587
幼	-9.65907
靄	-9.65924
的	-9.6594
勇	-9.65941
鈞	-9.65977
白髪	-9.66163
無復	-9.6619
涵	-9.66345
瑩	-9.66376
衮	-9.66387
樊	-9.66411
浸	-9.66421
苕溪漁隠曰	-9.66441
人以	-9.6647
三百	-9.66478
襄陽	-9.66479
禪師	-9.6669
誓	-9.66789
蹤	-9.66817
顛	-9.6682
較	-9.66833
街	-9.66906
録云	-9.66932
佳人	-9.67
箴	-9.67172
増	-9.67281
汴	-9.67304
玩	-9.67315
武帝	-9.6733
一名	-9.67446
涯	-9.67667
丙	-9.6775
限	-9.67865
句法	-9.67888
之士	-9.68009
以爲	-9.68086
歌舞	-9.6811
歌云	-9.68219
區	-9.68244
蔽	-9.68245
鼻	-9.68255
割	-9.68256
児	-9.68273
絶句云	-9.68307
司空	-9.68383
靖	-9.68388
酣	-9.68432
不覺	-9.6853
萬古	-9.68571
氣象	-9.68649
耀	-9.68688
扁舟	-9.68689
鬬	-9.68692
訛	-9.68704
何必	-9.68769
不在	-9.68804
梢	-9.69143
一夜	-9.69248
元祐	-9.69269
一曲	-9.69332
東西	-9.69354
樽	-9.69407
玉堂	-9.69431
言其	-9.69568
瓶	-9.696
彥	-9.69603
速	-9.69642
頴	-9.69647
豫章	-9.69661
番	-9.69666
三千	-9.69674
不忍	-9.69688
豆	-9.69703
艸	-9.69729
春水	-9.69773
六年	-9.69776
七年	-9.69793
古今詩話	-9.6985
抵	-9.69903
詩話云	-9.70019
岡	-9.7007
妍	-9.70073
逼	-9.70081
峻	-9.70085
拔	-9.70095
雉	-9.70098
遵	-9.70105
研	-9.70124
蜂	-9.70128
擲	-9.70132
閭	-9.70133
夢中	-9.70208
聞之	-9.70284
浮雲	-9.70493
一片	-9.70522
祗	-9.7059
臘	-9.70602
攷	-9.70611
戍	-9.70624
不相	-9.70767
也故	-9.70798
援	-9.70826
仄	-9.70923
聫	-9.70983
刋	-9.71002
鷹	-9.7103
藩	-9.71039
世傳	-9.71053
従	-9.71066
闊	-9.71083
各有	-9.71263
酸	-9.71487
慰	-9.71491
僚	-9.71509
圭	-9.71543
弟子	-9.7187
有人	-9.71896
二月	-9.71919
句云	-9.71934
衝	-9.71957
褒	-9.71979
楓	-9.71986
榖	-9.72031
書云	-9.72166
二詩	-9.72205
楊栁	-9.72248
丹青	-9.72437
摧	-9.72454
濯	-9.72457
蟠	-9.72476
夫子	-9.72492
斑	-9.72493
阻	-9.72514
箭	-9.72535
無事	-9.7265
長沙	-9.72746
上有	-9.72774
議論	-9.72822
而巳	-9.72878
建安	-9.72898
柯	-9.72947
屯	-9.72964
䖍	-9.72967
樞	-9.72968
霑	-9.72992
余謂	-9.73002
鯨	-9.73021
蠶	-9.73039
本朝	-9.7314
不勝	-9.73205
花開	-9.73225
謨	-9.73268
魄	-9.73335
栢	-9.73361
鑄	-9.73433
聮	-9.73441
搜	-9.73443
磬	-9.73444
俄	-9.73445
余嘗	-9.73457
鵲	-9.7348
傲	-9.73507
為文	-9.73552
上人	-9.73743
次韻	-9.73781
中興	-9.73838
䦨	-9.73909
劇	-9.73918
壁間	-9.73969
貽	-9.73993
障	-9.74445
踰	-9.74454
繩	-9.74466
風月	-9.74636
大抵	-9.74655
鉤	-9.74873
杳	-9.74931
挾	-9.74936
無窮	-9.74956
劉禹錫	-9.7499
誰能	-9.75064
今朝	-9.75153
嗜	-9.75285
跋	-9.75418
捨	-9.75433
决	-9.75434
栖	-9.75479
參差	-9.75505
者如	-9.75776
粟	-9.75801
其一	-9.75813
簿	-9.75843
亦云	-9.75873
嗚呼	-9.75915
烹	-9.75921
有此	-9.75924
滄浪	-9.75928
秉	-9.75943
厲	-9.75944
潔	-9.75944
牋	-9.75974
檀	-9.76007
其文	-9.76039
蟾	-9.76428
巡	-9.76444
堤	-9.76451
玊	-9.76561
互	-9.76659
臨川	-9.7673
三日	-9.76891
史記	-9.76896
奚	-9.76899
䨇	-9.76904
以下	-9.76916
王維	-9.76978
八十	-9.76981
也其	-9.77405
幅	-9.77418
文公	-9.77423
一百	-9.77424
鄴	-9.77439
妖	-9.77459
葵	-9.77486
不過	-9.77527
六朝	-9.77593
得意	-9.77745
所居	-9.7775
不若	-9.77776
搖	-9.7792
詩中	-9.77929
䑕	-9.77933
聖俞	-9.77942
跨	-9.77943
進士第	-9.77959
勁	-9.77973
其子	-9.77976
黑	-9.78039
必有	-9.78226
詩句	-9.78359
乙	-9.78372
少游	-9.78375
癡	-9.78398
揖	-9.78422
此事	-9.78481
撥	-9.78499
昔人	-9.78816
人也	-9.78833
草堂	-9.78859
不肯	-9.78933
矯	-9.78948
餅	-9.79013
輙	-9.79034
匹	-9.79057
布衣	-9.79206
此意	-9.79226
天涯	-9.79252
近世	-9.79264
者為	-9.79338
太祖	-9.79349
江東	-9.79353
鴨	-9.79473
釵	-9.79478
俟	-9.79523
左傳	-9.79532
汀	-9.79536
五月	-9.79542
滋	-9.79543
十九	-9.79562
靣	-9.79563
縷	-9.79565
旬	-9.79566
揚雄	-9.796
㝷	-9.796
永叔	-9.79714
三尺	-9.79804
漢書	-9.79835
嬾	-9.79948
枚	-9.79988
羲	-9.79998
甚多	-9.8
滑	-9.80014
之詞	-9.8003
矜	-9.80034
艾	-9.80076
徃徃	-9.80088
歛	-9.80106
冝	-9.80122
蘇州	-9.80126
八年	-9.80132
此時	-9.80365
嘗有	-9.80468
四方	-9.80502
黎	-9.80523
遼	-9.80591
李義山	-9.80653
從來	-9.8073
諸侯	-9.80852
確	-9.81036
稻	-9.81067
正月	-9.81084
曙	-9.81085
則有	-9.81105
宫中	-9.81107
縈	-9.81111
取其	-9.81141
二句	-9.81226
千金	-9.81451
詩一	-9.81532
柏	-9.81535
清明	-9.81547
嵩	-9.81563
南唐	-9.81573
乏	-9.81577
躬	-9.81585
礙	-9.81617
二十年	-9.81754
此句	-9.81782
韓愈	-9.8181
昨夜	-9.81871
毅	-9.82045
名曰	-9.82068
覓	-9.82086
杏	-9.82087
淑	-9.82103
討	-9.82127
逝	-9.82135
其家	-9.82152
驗	-9.82166
塵埃	-9.82186
伸	-9.82623
山谷云	-9.82663
怕	-9.82677
範	-9.82686
混	-9.82713
掖	-9.8273
台	-9.82738
廵	-9.82746
而無	-9.82813
翰林學士	-9.82895
鄭谷	-9.82938
豔	-9.83105
毁	-9.83181
額	-9.83185
犀	-9.83191
派	-9.83205
盟	-9.83205
併	-9.83214
砌	-9.83235
肇	-9.83237
及第	-9.83282
聯	-9.83299
㢤	-9.83319
亥	-9.83321
相公	-9.83321
上下	-9.83343
何所	-9.83427
人多	-9.83461
草木	-9.8347
一生	-9.83496
之說	-9.83588
如是	-9.83676
䟦	-9.837
誣	-9.83706
欠	-9.83711
拱	-9.83713
悦	-9.83716
逃	-9.83716
山寺	-9.83742
謾	-9.83746
基	-9.83774
薨	-9.8378
者以	-9.8387
曲江	-9.84056
蘆	-9.84074
前人	-9.8413
刺史	-9.84134
捲	-9.84194
杜鵑	-9.84211
賴	-9.84276
産	-9.84311
則曰	-9.8432
造化	-9.84463
秀才	-9.84617
語意	-9.84679
鞍	-9.84731
敲	-9.84772
儲	-9.84813
鑒	-9.84817
囬	-9.84828
蔣	-9.84832
與之	-9.84952
無限	-9.85271
九月	-9.85324
敦	-9.85379
恵	-9.85389
鷄	-9.8539
嘗作	-9.85395
崩	-9.85407
寕	-9.85417
叠	-9.8547
六月	-9.85477
淮南	-9.85509
仙人	-9.85633
出處	-9.85748
副	-9.85851
衣冠	-9.85854
湛	-9.85939
堦	-9.85942
諭	-9.85948
謔	-9.85954
斥	-9.85959
餞	-9.85963
鸚鵡	-9.85999
鎻	-9.86006
功名	-9.86064
諸人	-9.86298
由是	-9.86374
梧	-9.8645
札	-9.86465
南北	-9.86475
森	-9.8648
鼔	-9.86499
驕	-9.86502
陛下	-9.86558
詰	-9.86654
不應	-9.8675
裳	-9.86761
黄昏	-9.86807
蘂	-9.86956
珊瑚	-9.87008
兆	-9.8703
蕙	-9.87033
岩	-9.87043
渉	-9.87056
栗	-9.8708
惑	-9.8709
珪	-9.87105
六十	-9.87144
百餘	-9.87151
祕	-9.8734
杜牧之	-9.87365
二年進士	-9.87368
天台	-9.87399
杜牧	-9.87441
稽	-9.87472
顔色	-9.87536
弊	-9.87575
宸	-9.8759
㦸	-9.87616
張籍	-9.87621
紳	-9.87622
離騷	-9.87672
鵠	-9.87683
第二	-9.87775
對曰	-9.87801
之妙	-9.87814
孔子	-9.87819
事也	-9.87868
樓臺	-9.88087
狐	-9.88116
漲	-9.88141
叚	-9.88144
擅	-9.88148
戈	-9.8816
透	-9.88172
迥	-9.88183
姦	-9.8822
艷	-9.88229
者亦	-9.88577
丸	-9.887
歷	-9.88708
叅	-9.88748
誠齋	-9.8875
奮	-9.88751
簮	-9.88762
悽	-9.8877
四時	-9.88803
公主	-9.88972
柴	-9.89202
溫	-9.89295
匠	-9.89298
梅聖俞	-9.89315
篤	-9.89316
鋒	-9.89321
枉	-9.89349
胥	-9.89384
觀其	-9.89423
誰家	-9.89423
豈非	-9.89451
盡日	-9.89565
一絶	-9.89664
介甫	-9.89717
醫	-9.89839
架	-9.89849
風雅	-9.89885
誄	-9.89891
狼	-9.899
淫	-9.89913
䘮	-9.89915
享	-9.89937
作也	-9.89944
子由	-9.89964
三十六	-9.90022
逈	-9.90054
倡	-9.90391
恠	-9.90476
山人	-9.90484
緒	-9.905
傳云	-9.90506
懶	-9.90529
則知	-9.90536
舍人	-9.9065
何足	-9.90657
元豐	-9.90812
青青	-9.90843
嘯	-9.90939
纂	-9.9102
協	-9.9102
叩	-9.91031
稷	-9.91069
突	-9.91131
江水	-9.91132
大笑	-9.91146
昆	-9.91155
送人	-9.91179
㟁	-9.91196
王建	-9.91258
其語	-9.91304
之辭	-9.91313
太學	-9.91426
或曰	-9.91426
前後	-9.91469
濁	-9.91522
不到	-9.91596
婢	-9.91605
茗	-9.91616
壻	-9.91628
谿	-9.91634
虜	-9.91641
從事	-9.91646
瑟	-9.91665
帷	-9.91677
梓	-9.91688
滄海	-9.91717
不書	-9.91891
往來	-9.91954
聖人	-9.91991
王直方詩話云	-9.92007
士人	-9.92096
萬事	-9.92121
莽	-9.92199
収	-9.92202
梵	-9.92202
十月	-9.9221
橫	-9.92225
所得	-9.92229
謡	-9.92239
槎	-9.92278
斤	-9.92293
不待	-9.92364
上元	-9.92541
元作	-9.92579
華山	-9.92599
同上	-9.92661
艱	-9.92738
秩	-9.92778
盜	-9.92807
滯	-9.92838
精神	-9.92852
覔	-9.92862
數日	-9.92899
城南	-9.92932
武夷	-9.92957
可喜	-9.9297
相似	-9.93015
去年	-9.93082
亦自	-9.93146
皆以	-9.93344
庵	-9.93357
模	-9.93377
衾	-9.93409
芒	-9.93411
魁	-9.93413
遐	-9.93427
㑹稽	-9.93453
出門	-9.93521
年少	-9.93565
不自	-9.937
秘	-9.93761
摹	-9.93979
鍊	-9.93987
苗	-9.93991
啄	-9.94021
冦	-9.94029
逾	-9.94032
嵐	-9.94043
祈	-9.94045
閤	-9.94084
湖州	-9.94111
詩者	-9.94382
雖有	-9.94386
夜深	-9.94399
爾雅	-9.9443
稱其	-9.94442
煮	-9.94557
酷	-9.94578
儉	-9.94584
甕	-9.94603
昉	-9.94604
毒	-9.94605
眺	-9.94621
詢	-9.94621
椒	-9.9463
贈之	-9.94666
瀟湘	-9.94668
百里	-9.94677
十一	-9.94786
誰知	-9.94819
齡	-9.94821
數百	-9.94839
不須	-9.95041
友人	-9.95072
節度	-9.95072
測	-9.952
倍	-9.95226
茫茫	-9.95238
詎	-9.95254
鬟	-9.95269
之外	-9.95285
公之	-9.95338
縱横	-9.95339
青雲	-9.95362
十巻	-9.95408
東山	-9.95434
山色	-9.95456
題云	-9.9554
見於	-9.95563
而意	-9.95714
亷	-9.95777
懿	-9.95779
革	-9.95793
窟	-9.95817
所載	-9.95827
専	-9.95834
綬	-9.95834
淪	-9.95858
裝	-9.95878
宋玉	-9.95974
之名	-9.95987
舉進士	-9.96146
鬼神	-9.96181
楊柳	-9.96229
所見	-9.96267
奈何	-9.96322
麓	-9.96426
蜀人	-9.96433
竄	-9.96446
旨	-9.96447
五色	-9.96454
眷	-9.96462
駭	-9.96475
論詩	-9.96523
㠶	-9.96528
墓誌	-9.96539
盛唐	-9.9658
唯有	-9.9688
棠	-9.96996
醜	-9.97034
髯	-9.97048
下句	-9.97053
毬	-9.97056
自謂	-9.97057
恥	-9.97061
㡌	-9.97064
陂	-9.97064
俾	-9.97068
朶	-9.97073
髻	-9.97081
斬	-9.97089
壘	-9.97123
詩家	-9.97131
景物	-9.97414
蛟	-9.97553
謗	-9.97668
猶未	-9.97688
滕	-9.97691
㓜	-9.97692
創	-9.97698
武陵	-9.97702
仇	-9.97706
呌	-9.9771
電	-9.97723
主簿	-9.97726
鳬	-9.97736
舂	-9.97748
君不見	-9.97796
足以	-9.9782
不當	-9.97873
天寳	-9.97896
車馬	-9.98002
零	-9.98045
諸生	-9.98092
域	-9.98172
子羙	-9.98184
牢	-9.9825
五更	-9.98251
愛其	-9.98251
一絶云	-9.9826
捧	-9.98283
亟	-9.98287
偕	-9.98287
畵	-9.98294
踐	-9.98303
登臨	-9.98309
衞	-9.98312
拳	-9.98331
一曰	-9.98357
呂	-9.98357
夢得	-9.98418
桃源	-9.98441
中原	-9.98515
無心	-9.98606
猶有	-9.98652
諸子	-9.98728
好事者	-9.98768
昻	-9.98896
有時	-9.98905
而卒	-9.98926
裹	-9.98934
匪	-9.9894
粗	-9.98942
紋	-9.98946
闢	-9.98952
黯	-9.98966
朗	-9.98966
鷓鴣	-9.98992
奈	-9.99019
黄州	-9.99032
升菴	-9.99049
白髮	-9.99158
亦無	-9.99233
欣	-9.99322
唐書	-9.99372
䕫	-9.9944
二十四	-9.99486
肝	-9.99551
兎	-9.99595
盆	-9.99598
株	-9.99709
鵝	-10.0015
相對	-10.0015
庫	-10.0016
碣	-10.0017
皓	-10.0018
旱	-10.0019
俚	-10.0021
洎	-10.0022
沼	-10.0022
岫	-10.0023
孟浩然	-10.0024
賈島	-10.0025
未能	-10.0028
不知其	-10.0029
終不	-10.0029
杏花	-10.0029
歌行	-10.0034
鸖	-10.0035
唐末	-10.0059
第四	-10.0072
嶠	-10.0073
淳熙	-10.0077
猨	-10.0077
鳳凰	-10.0078
山林	-10.0078
中丞	-10.0081
琳	-10.0082
琢	-10.0082
函	-10.0083
其實	-10.0085
様	-10.0085
欵	-10.0086
韵	-10.009
金石	-10.009
與君	-10.0104
英雄	-10.0104
今年	-10.0128
閻	-10.0145
究	-10.0145
顏	-10.0146
鄒	-10.0148
郤	-10.0148
蜜	-10.0149
膽	-10.015
人所	-10.0151
莖	-10.0154
處處	-10.0162
零落	-10.017
公曰	-10.017
三十年	-10.0174
隠居	-10.0195
蜨	-10.0206
政和	-10.021
壤	-10.0212
灣	-10.0214
芽	-10.0214
霍	-10.0214
冶	-10.0215
无	-10.0215
員外	-10.0219
夭	-10.022
東都	-10.0228
自古	-10.0229
一夕	-10.0232
譬	-10.0235
無一	-10.0238
上林	-10.0239
有意	-10.0244
梨花	-10.0245
可知	-10.0256
一朝	-10.0267
瑤	-10.0273
蟻	-10.0275
捕	-10.0275
裕	-10.0276
出入	-10.028
畝	-10.0281
姪	-10.0281
忩	-10.0282
闈	-10.0282
蔓	-10.0282
小人	-10.0283
逕	-10.0283
簟	-10.0283
人心	-10.03
猶在	-10.0303
久之	-10.0306
同時	-10.0307
公卿	-10.0326
古樂府	-10.0326
遂以	-10.0331
屠	-10.0341
𨽻	-10.0343
牕	-10.0344
嶂	-10.0347
衙	-10.0347
螢	-10.0348
箕	-10.035
抽	-10.0351
劔	-10.0354
參軍	-10.036
有集	-10.0361
夜雨	-10.0367
形容	-10.0369
家有	-10.0375
斜陽	-10.0379
别離	-10.0381
段	-10.039
宫詞	-10.0392
姜	-10.0404
猛	-10.0407
漠漠	-10.0411
秪	-10.0411
詩如	-10.0412
覧	-10.0412
腐	-10.0412
纓	-10.0413
福州	-10.0413
倅	-10.0413
膺	-10.0414
溢	-10.0415
小兒	-10.0422
無情	-10.043
判官	-10.0443
人物	-10.0447
鵬	-10.0472
詩以	-10.0473
䜟	-10.0475
絡	-10.0477
繪	-10.048
洽	-10.048
蠟	-10.0481
韋蘇州	-10.0482
是非	-10.0488
當以	-10.0503
丈夫	-10.0505
全篇	-10.0518
也今	-10.0527
秋色	-10.0529
復齋漫録云	-10.0533
沖	-10.0536
遁	-10.0539
無不	-10.0539
壊	-10.0539
尼	-10.0539
聳	-10.0541
未可	-10.0543
駒	-10.0545
戊	-10.0545
亦何	-10.0547
牓	-10.0547
奕	-10.0549
道中	-10.0549
凋	-10.0551
寂寥	-10.0557
裡	-10.0559
翫	-10.0561
有三	-10.0581
變化	-10.0582
廣陵	-10.0582
得一	-10.0596
相與	-10.0602
邕	-10.0606
鼇	-10.0608
膝	-10.0609
笠	-10.061
棟	-10.0612
捷	-10.0613
知制誥	-10.0614
知之	-10.0615
减	-10.0618
昨	-10.0629
可惜	-10.0638
天寶	-10.0642
䖏	-10.0648
字韻	-10.065
新詩	-10.0664
視之	-10.0665
官至	-10.0669
長江	-10.0671
為一	-10.0677
犢	-10.0679
舅	-10.0681
也按	-10.0682
貯	-10.0682
梯	-10.0682
帽	-10.0683
恃	-10.0683
苐	-10.0684
落葉	-10.0684
汾	-10.0686
京兆	-10.0688
間有	-10.0697
麾	-10.0697
詩文	-10.0698
逮	-10.0704
世所	-10.0709
後漢	-10.0711
為人	-10.0722
西清詩話云	-10.0731
百尺	-10.0734
彬	-10.0745
蹟	-10.0746
帯	-10.0746
頼	-10.0749
億	-10.075
導	-10.0752
溝	-10.0753
績	-10.0755
慢	-10.0757
孟郊	-10.0764
之則	-10.0772
字仲	-10.0779
歐	-10.0779
浙	-10.0791
有云	-10.0792
筆力	-10.0806
漆	-10.0814
侈	-10.0816
兔	-10.0817
墀	-10.0817
綽	-10.0818
痩	-10.0818
屐	-10.0818
壬	-10.0818
罕	-10.0819
增	-10.082
竭	-10.0822
叶	-10.0823
稱之	-10.0827
嫩	-10.0828
自言	-10.0829
屈原	-10.0832
未易	-10.0842
以後	-10.0846
不歸	-10.0848
有二	-10.0855
故鄉	-10.0868
依舊	-10.0872
李公	-10.0874
唱和	-10.088
秖	-10.0881
驢	-10.0883
猷	-10.0886
千秋	-10.0886
相傳	-10.0887
訴	-10.0887
驥	-10.089
鳯凰	-10.089
豹	-10.089
靖康	-10.0893
通判	-10.0896
春草	-10.0898
禮部	-10.0904
不以	-10.0917
九重	-10.0924
白首	-10.0928
白石	-10.0932
一聨	-10.0935
一㸃	-10.0936
以文	-10.0942
匡	-10.095
不出	-10.0956
門下	-10.0957
薰	-10.0957
嘉祐	-10.0959
訝	-10.0959
忤	-10.0959
截	-10.0959
㝠	-10.096
怯	-10.096
咽	-10.096
卒贈	-10.0964
汎	-10.0966
紀事	-10.0968
然而	-10.097
閉門	-10.098
作詩云	-10.0984
至此	-10.0988
童子	-10.0989
林下	-10.0999
十日	-10.1006
州府志	-10.1009
姑蘇	-10.1013
柄	-10.1016
出知	-10.1019
轡	-10.1021
煎	-10.1026
挺	-10.1029
㧞	-10.103
媒	-10.1032
此地	-10.1032
細雨	-10.1055
燕子	-10.1068
則是	-10.1071
相國	-10.1077
減	-10.1083
癸	-10.1097
始知	-10.1098
李賀	-10.1098
薪	-10.1098
漢魏	-10.1099
歴代詩話巻	-10.1101
霖	-10.1102
抗	-10.1102
恣	-10.1102
凄	-10.1103
四月	-10.1122
最為	-10.1124
之上	-10.1129
漁父	-10.1129
半夜	-10.1144
上句	-10.1148
檜	-10.1164
㕔	-10.1166
状	-10.1169
逄	-10.1169
萍	-10.1169
慵	-10.117
臨安	-10.1171
梧桐	-10.1171
薫	-10.1173
数	-10.1173
洋	-10.1173
睿	-10.1173
篋	-10.1174
棘	-10.1174
屑	-10.1176
翳	-10.118
而有	-10.1181
者曰	-10.1182
未幾	-10.1187
空山	-10.1218
李氏	-10.1225
三人	-10.1226
后山	-10.1227
世俗	-10.123
之地	-10.1234
洞霄	-10.1235
仲宣	-10.1238
又一例也	-10.1239
慧	-10.124
澁	-10.124
措	-10.1243
驟	-10.1243
纒	-10.1244
衲	-10.1245
悼	-10.1245
簪	-10.1246
冲	-10.1246
詭	-10.1247
世事	-10.1247
欹	-10.1249
夜半	-10.125
流落	-10.1251
太師	-10.1251
旌旗	-10.1252
其上	-10.1262
不言	-10.1263
之氣	-10.127
黄魯直	-10.1271
或謂	-10.1273
石林詩話云	-10.1274
白雪	-10.1277
其辭	-10.1279
巫山	-10.1294
聞道	-10.1304
未見	-10.1304
妝	-10.1307
化為	-10.1308
郢	-10.1314
邸	-10.1314
嘗為	-10.1318
繇	-10.1319
凢	-10.132
汚	-10.1321
造語	-10.1321
牒	-10.1322
城中	-10.1322
同前	-10.1327
幾時	-10.1328
楊花	-10.1343
不合	-10.1359
山河	-10.1371
絹	-10.138
祿	-10.1382
督	-10.1385
儼	-10.1386
版	-10.1387
湧	-10.1387
完	-10.1388
厨	-10.1388
伎	-10.1391
梳	-10.1392
南史	-10.1393
何也	-10.1394
黍	-10.14
𬒳	-10.14
綉	-10.1401
稚子	-10.1407
者有	-10.1411
今古	-10.1416
兒童	-10.1417
浩然	-10.1421
上書	-10.1422
歐陽公	-10.1423
為主	-10.1425
金華	-10.1436
者謂	-10.1445
謠	-10.1452
粹	-10.1454
粒	-10.1462
轂	-10.1463
批	-10.1463
也余	-10.1464
詩亦	-10.1467
馭	-10.1467
紹聖	-10.1469
雌	-10.1473
云此	-10.1477
沾	-10.1478
義山	-10.1485
海上	-10.1495
不解	-10.1503
賔客	-10.1508
同年	-10.1514
茫	-10.1515
之故	-10.1516
置酒	-10.1517
荆州	-10.1523
插	-10.1529
矣然	-10.1529
煖	-10.1532
浄	-10.1533
庠	-10.1536
禦	-10.154
毋	-10.1541
湖上	-10.1544
自稱	-10.1544
河東	-10.1545
之徒	-10.1548
劉夢得	-10.1549
秋日	-10.1553
之際	-10.1556
昔年	-10.1562
志云	-10.1569
下有	-10.1575
父子	-10.1588
王氏	-10.1588
君臣	-10.1588
碧雲	-10.1592
得名	-10.1602
埃	-10.1605
蔚	-10.1607
溼	-10.1607
迫	-10.1608
鬭	-10.1609
以自	-10.161
侣	-10.1611
雛	-10.1612
線	-10.1612
膠	-10.1614
邈	-10.1614
濫	-10.1615
藴	-10.1615
穀	-10.1618
嵓	-10.1618
巫	-10.1641
文士	-10.1644
又作	-10.1646
錢唐	-10.1651
不聞	-10.1658
七月	-10.1658
池上	-10.1663
西南	-10.167
誦之	-10.167
甲子	-10.1676
釀	-10.1679
使者	-10.1679
瑣	-10.1679
店	-10.168
摶	-10.1685
頰	-10.1685
咎	-10.1685
陟	-10.1686
耿	-10.169
俠	-10.1694
不減	-10.1699
而成	-10.1705
和云	-10.1707
更無	-10.1709
莫不	-10.1717
也若	-10.1721
可笑	-10.1742
之法	-10.1748
寐	-10.1755
隙	-10.1758
軟	-10.176
偈	-10.1761
煥	-10.1763
所稱	-10.177
不知何	-10.1771
曰我	-10.1772
北山	-10.1773
太尉	-10.1775
草朩	-10.1777
觀之	-10.1781
吏部	-10.1785
用意	-10.1791
求之	-10.1798
豈無	-10.1799
一年	-10.181
江海	-10.181
牧之	-10.1818
識者	-10.1826
樞密	-10.183
濵	-10.1831
挑	-10.1835
榭	-10.1835
鳩	-10.1836
蘇子瞻	-10.1838
育	-10.1839
鞏	-10.1839
聰	-10.184
賈誼	-10.1843
鈿	-10.1845
時時	-10.1846
沐	-10.1846
失之	-10.1847
匣	-10.185
平地	-10.1851
蕭條	-10.1852
于此	-10.1858
賦云	-10.1861
相望	-10.1871
二百	-10.1892
第五	-10.1899
則又	-10.1902
孟子	-10.191
羨	-10.191
斂	-10.1913
拆	-10.1914
詹	-10.1917
讒	-10.1918
贍	-10.1918
蔡寛夫詩話云	-10.1919
鏤	-10.1919
雋	-10.1919
一詩	-10.1935
周禮	-10.194
般	-10.194
依然	-10.1949
老子	-10.196
稚	-10.1961
皆可	-10.1965
之盛	-10.1971
一二	-10.1974
知名	-10.1979
其下	-10.1981
狎	-10.1986
蟹	-10.1987
何日	-10.1989
決	-10.199
便是	-10.199
綃	-10.199
握	-10.199
撲	-10.199
冀	-10.1991
凭	-10.1992
捐	-10.1992
做	-10.1992
翩翩	-10.1993
中書舍人	-10.1993
䕃	-10.1994
肖	-10.1996
多用	-10.1997
日日	-10.2002
千萬	-10.2012
從容	-10.2016
三山	-10.2025
偶然	-10.2026
國史	-10.204
呼為	-10.2046
謂其	-10.2047
他年	-10.205
宫人	-10.2052
此二	-10.206
青天	-10.2063
方知	-10.2064
尸	-10.2067
攝	-10.2067
填	-10.2069
稾	-10.207
轍	-10.2073
瘴	-10.2073
憔悴	-10.2073
括	-10.2074
擔	-10.2075
恕	-10.2077
飬	-10.2079
䄂	-10.2079
韓偓	-10.2081
而言	-10.2086
諸家	-10.2094
不忘	-10.2108
孺	-10.2111
五湖	-10.2117
不受	-10.2121
摭	-10.2123
衣裳	-10.2127
之説	-10.2136
雜記	-10.2139
之功	-10.2144
秋月	-10.2145
優劣	-10.2147
裔	-10.215
洒	-10.215
貂	-10.215
黔	-10.215
鐡	-10.2151
粘	-10.2151
㱕	-10.2154
肌	-10.2154
尔	-10.2155
無處	-10.2156
問之	-10.2166
西清詩話	-10.217
笙歌	-10.2171
寺僧	-10.2185
王孫	-10.2187
嘗以	-10.2188
我來	-10.2195
當作	-10.2199
丹陽	-10.2202
文學	-10.2208
蹄	-10.2215
耆	-10.2218
尚有	-10.2219
為君	-10.2221
自注	-10.2223
􁀙	-10.2225
膚	-10.2225
蠅	-10.2227
拈	-10.2227
蓄	-10.2228
惱	-10.2229
刪	-10.223
疆	-10.223
漿	-10.2231
渙	-10.2232
笳	-10.2234
瓠	-10.2234
謫仙	-10.2235
䟽	-10.2238
無定	-10.2243
宫殿	-10.2259
山頭	-10.2265
粲	-10.2288
臧	-10.2301
抹	-10.2302
世孫	-10.2304
馬上	-10.2307
蘚	-10.2309
溺	-10.2309
殷勤	-10.2309
淸	-10.2309
咫尺	-10.231
赦	-10.231
此類	-10.2316
提舉	-10.2316
莊子	-10.2319
嘉定	-10.2329
楚辭	-10.2343
白玉	-10.235
自此	-10.2352
蓮花	-10.2355
郡守	-10.2364
而下	-10.2375
叛	-10.2385
末云	-10.2385
疇	-10.2386
蓑	-10.2386
此乃	-10.2386
褐	-10.2386
普	-10.2388
腥	-10.2389
稜	-10.2389
頑	-10.2389
棗	-10.239
嬰	-10.239
紆	-10.2391
皆不	-10.2394
漾	-10.2395
考之	-10.2401
余以	-10.2401
太后	-10.2405
駢	-10.2405
重陽	-10.2405
别有	-10.2406
白鳥	-10.2415
其父	-10.2418
送客	-10.2419
五日	-10.242
髙宗	-10.2424
太原	-10.2435
梨	-10.2436
無可	-10.2437
宋人	-10.2438
風俗	-10.2454
淹	-10.2457
駿	-10.246
不與	-10.2466
鐫	-10.2466
瀾	-10.2466
沿	-10.2471
蹙	-10.2471
幻	-10.2471
榆	-10.2472
罵	-10.2473
狗	-10.2473
趂	-10.2474
穎	-10.2475
四字	-10.2479
盞	-10.2479
晚年	-10.2482
歌詩	-10.2485
至于	-10.2494
不容	-10.2498
乃云	-10.2509
所著	-10.2517
不獨	-10.252
冷齋夜話云	-10.252
系	-10.2537
未得	-10.254
坦	-10.2542
纖	-10.2544
邇	-10.2546
誰與	-10.2547
什	-10.2548
倩	-10.2551
揷	-10.2552
庻	-10.2553
冊	-10.2553
賦詩云	-10.2553
不動	-10.2557
尋常	-10.2559
之時	-10.2562
馨	-10.2564
朱子	-10.2571
依依	-10.2579
再拜	-10.2582
少時	-10.2591
一身	-10.2599
明朝	-10.2608
二十八	-10.2608
文忠	-10.2609
故國	-10.2611
說文	-10.2613
陜	-10.2625
鼠	-10.2626
漳	-10.2628
員	-10.2629
滑稽	-10.2629
喫	-10.2632
荔枝	-10.2632
演	-10.2633
豁	-10.2633
愴	-10.2636
奥	-10.2637
熙寧	-10.2637
聘	-10.264
黛	-10.2642
幃	-10.2646
斾	-10.2649
之工	-10.2661
織女	-10.2668
山居	-10.2671
古之	-10.2674
東坡詩	-10.2679
因以	-10.268
亦是	-10.2685
名也	-10.2689
雖不	-10.2691
大臣	-10.2696
自知	-10.2708
蹈	-10.2709
翟	-10.2715
巒	-10.2715
卽	-10.2716
渺	-10.2717
懽	-10.2718
隄	-10.2719
疲	-10.272
盗	-10.272
籌	-10.2721
矢	-10.2721
護	-10.2722
遯	-10.2725
春來	-10.2726
相類	-10.2726
臉	-10.2732
席上	-10.274
集有	-10.2744
羈	-10.2745
乃是	-10.2752
朽	-10.2755
本無	-10.2756
平聲	-10.276
只是	-10.2766
之體	-10.2767
而為	-10.2772
己	-10.2795
課	-10.2796
文昌	-10.2798
崑崙	-10.28
五百	-10.28
祇	-10.28
藁	-10.2801
青春	-10.2801
掉	-10.2803
菱	-10.2804
聼	-10.2805
希夷	-10.2806
矩	-10.2806
韓子蒼	-10.2807
有司	-10.2809
沛	-10.2809
鎭	-10.281
父母	-10.2811
翹	-10.2811
待制	-10.282
開封	-10.2822
余按	-10.2822
赤壁	-10.2831
西北	-10.2839
博士	-10.2839
還家	-10.284
意也	-10.2842
下第	-10.2847
書生	-10.2849
之變	-10.2856
不起	-10.286
年來	-10.2866
扈	-10.2873
此言	-10.2878
冢	-10.2878
才子	-10.288
碩	-10.2882
翦	-10.2884
縮	-10.2884
胡苕溪云	-10.2884
組	-10.2885
其義	-10.2886
繆	-10.2886
斟	-10.2887
炙	-10.2887
緋	-10.2888
深處	-10.2888
叢話	-10.2889
氛	-10.2889
娛	-10.289
瓢	-10.2892
太常	-10.2896
二十五	-10.2899
陶淵明	-10.29
篇云	-10.2901
貫休	-10.2902
侍御	-10.2903
禁中	-10.2906
狀元	-10.2909
舎人	-10.2913
也苕溪漁隱曰	-10.292
嘗謂	-10.292
秋水	-10.2921
生涯	-10.2924
野人	-10.2927
以示	-10.2929
三峽	-10.2932
也如	-10.2933
此身	-10.2935
陌上	-10.2939
為誰	-10.2955
不作	-10.2957
本草	-10.2963
咸淳	-10.2964
籟	-10.2966
涇	-10.2968
泗	-10.2969
白居易	-10.297
蛾	-10.297
吳越	-10.2972
江頭	-10.2972
南渡	-10.2973
袂	-10.2973
天聖	-10.2974
之下	-10.2975
儻	-10.2975
祁	-10.2975
灌	-10.2979
墓誌銘	-10.2992
昨日	-10.2997
閩中	-10.2998
為我	-10.2999
摩詰	-10.3009
荘	-10.3012
夜月	-10.3023
憶昔	-10.3025
鄉人	-10.3026
中人	-10.3031
相識	-10.3037
羣臣	-10.3037
斛	-10.304
瀛	-10.3046
警句	-10.3048
郁	-10.3052
稼	-10.3054
羌	-10.3054
牖	-10.3055
漕	-10.3055
迂	-10.3057
軀	-10.3057
郵	-10.306
霸	-10.306
坐客	-10.3062
婆	-10.3062
江陵	-10.3063
萬物	-10.3063
囚	-10.3063
想見	-10.3065
噐	-10.3067
惹	-10.3073
後來	-10.3073
一章	-10.3074
仁宗	-10.3092
消息	-10.3104
不遇	-10.3108
人有	-10.3109
今之	-10.3127
貨	-10.3139
抄	-10.3139
脈	-10.3139
昬	-10.314
敘	-10.314
豫	-10.3142
擕	-10.3144
恍	-10.3145
闋	-10.3145
炳	-10.3146
財	-10.3146
臨水	-10.3147
它	-10.3148
晚唐	-10.315
巵	-10.315
峩	-10.315
航	-10.3154
牽牛	-10.3163
人事	-10.3166
百篇	-10.3167
朕	-10.3168
三百篇	-10.3171
諺	-10.3172
冷齋夜話	-10.3174
無言	-10.3177
而死	-10.318
環溪	-10.3182
五字	-10.3182
表云	-10.3187
元白	-10.319
周公	-10.3202
白馬	-10.3209
由來	-10.3219
國公	-10.322
艇	-10.3222
甌	-10.3225
龍門	-10.3228
頤	-10.3229
濺	-10.3229
鬻	-10.3231
冕	-10.3233
溜	-10.3234
瑕	-10.3237
緘	-10.3238
滿地	-10.3239
不載	-10.3245
月下	-10.3246
副使	-10.3247
節度使	-10.3247
右丞	-10.3247
一聨云	-10.3248
刻石	-10.3249
其餘	-10.3258
累官	-10.3261
本作	-10.328
百官	-10.3291
蒼蒼	-10.3302
黄花	-10.3304
子弟	-10.3307
飛來	-10.3307
而作	-10.331
絕	-10.3313
王子	-10.3314
蔬	-10.3316
穏	-10.3318
析	-10.3321
闔	-10.3321
悅	-10.3322
曜	-10.3324
鶻	-10.3325
溟	-10.3326
泪	-10.3326
鈴	-10.3327
有感	-10.3328
翰墨	-10.3331
昌黎	-10.3334
者多	-10.3335
錄云	-10.3335
廬陵	-10.3339
江淮	-10.334
亦以	-10.3342
不可以	-10.3347
長短句	-10.3348
不失	-10.3349
尤為	-10.3358
者乃	-10.3359
知音	-10.3364
秘書	-10.3365
水心	-10.3374
隱居	-10.3389
皎	-10.339
次第	-10.339
詩史	-10.3391
一事	-10.3396
禾	-10.3407
不免	-10.3408
老翁	-10.3409
夙	-10.341
禱	-10.3411
胎	-10.3412
恱	-10.3413
从	-10.3414
笋	-10.3414
隐	-10.3415
櫻桃	-10.3415
窻	-10.3416
蓴	-10.3417
茅屋	-10.3418
苖	-10.3418
只有	-10.3418
伍	-10.3419
羸	-10.3422
後集	-10.3423
可愛	-10.3428
海内	-10.3428
為工	-10.3435
應制	-10.3442
日夜	-10.3445
之大	-10.3457
此篇	-10.3459
當是	-10.346
上天	-10.3463
孤舟	-10.3464
何須	-10.3472
聞者	-10.3477
工部	-10.348
故有	-10.3481
江左	-10.3485
貞元	-10.3485
月中	-10.3486
雨露	-10.3491
頷	-10.3494
其他	-10.3495
餐	-10.3498
吳興	-10.3498
綜	-10.3499
到此	-10.3499
頽	-10.35
區區	-10.35
閬	-10.35
餌	-10.3502
後村詩話	-10.3502
棋	-10.3502
忝	-10.3502
彫	-10.3503
貼	-10.3503
軾	-10.3504
何妨	-10.3505
侍中	-10.3506
傷心	-10.3507
躡	-10.3507
胸	-10.3512
蛟龍	-10.3516
然其	-10.352
東海	-10.3521
東野	-10.3525
豈知	-10.3528
武昌	-10.3533
人情	-10.3538
無以	-10.3543
何為	-10.3544
王公	-10.3548
一種	-10.3551
離别	-10.3551
作此	-10.3553
一聮	-10.3562
多矣	-10.3569
應制云	-10.3574
文宗	-10.3575
四六	-10.3578
於詩	-10.3581
芬	-10.359
後山	-10.3591
訖	-10.3592
僊	-10.3592
婚	-10.3593
鏗	-10.3594
乃以	-10.3594
韻語陽秋	-10.3595
讌	-10.3595
囀	-10.3599
漁隠	-10.3602
不至	-10.3605
魯公	-10.3605
黄河	-10.3608
稱賞	-10.3618
王直方詩話	-10.3623
即事	-10.3624
許渾	-10.3627
昔日	-10.363
真宗	-10.3631
新月	-10.3636
舉子	-10.3636
眼前	-10.3637
非是	-10.3637
水流	-10.3644
一家	-10.3645
魏公	-10.3646
菊花	-10.3646
政事	-10.3653
長卿	-10.3657
十萬	-10.3673
南海	-10.3673
鉢	-10.3678
記其	-10.3679
怡	-10.368
蛙	-10.3681
晏元獻	-10.3682
彚	-10.3684
彰	-10.3684
妹	-10.3685
乃為	-10.3685
慿	-10.3686
諒	-10.3687
爰	-10.3687
元微之	-10.3688
麝	-10.3689
狄	-10.3692
断	-10.3695
潘岳	-10.3699
之心	-10.3699
珠簾	-10.37
執政	-10.3703
登科	-10.3706
雲雨	-10.3711
有客	-10.3721
咸陽	-10.3723
得此	-10.3724
文集	-10.3727
府君	-10.3729
曲云	-10.373
山東	-10.3742
之矣	-10.3747
不可得	-10.3751
杜陵	-10.3751
金山	-10.3753
可也	-10.3757
不許	-10.3757
風塵	-10.3767
寂寂	-10.377
髙祖	-10.3773
風雲	-10.3773
佇	-10.3774
鞠	-10.3774
蹇	-10.3774
謳	-10.3775
先後	-10.3776
陷	-10.3778
玲瓏	-10.3779
田園	-10.378
黜	-10.3781
倣	-10.3781
畦	-10.3781
悶	-10.3785
吉甫	-10.3787
嶼	-10.3789
珮	-10.3793
陸機	-10.3798
小詩	-10.3798
不甚	-10.38
漢武	-10.3812
水中	-10.3813
歌曰	-10.3815
北斗	-10.3826
老僧	-10.3826
花枝	-10.3829
草書	-10.3832
詩書	-10.3836
歌聲	-10.3842
七夕	-10.3842
中宗	-10.3847
一杯	-10.3854
杞	-10.3869
藕	-10.3869
儂	-10.3869
偓	-10.387
盧仝	-10.3871
噪	-10.3871
夸	-10.3871
門人	-10.3872
衘	-10.3874
鈔	-10.3874
岑參	-10.3876
正元	-10.3877
隊	-10.3877
弃	-10.3877
幢	-10.3878
不類	-10.3886
登髙	-10.3888
嘗與	-10.389
班固	-10.3894
龍蛇	-10.3895
園林	-10.3901
漢家	-10.3904
於世	-10.3912
氏之	-10.3913
蒼苔	-10.3915
終身	-10.3928
之孫	-10.3939
之美	-10.3941
書其	-10.3953
倪	-10.3957
墟	-10.3958
概	-10.3959
瓌	-10.3961
韋應物	-10.3963
些	-10.3963
慷慨	-10.3964
漠	-10.3965
誼	-10.3966
擾	-10.3966
四明	-10.3967
觀者	-10.3968
一旦	-10.3968
鴛	-10.3971
煉	-10.3973
馬蹄	-10.3982
容易	-10.3983
白鷗	-10.3995
歸田	-10.4006
武后	-10.401
師道	-10.4012
太史	-10.4014
翠微	-10.402
借問	-10.4028
以譏	-10.4029
然亦	-10.4031
體也	-10.4032
恰	-10.4048
滔	-10.4052
跳	-10.4053
鉉	-10.4053
塢	-10.4053
贊曰	-10.4054
漂	-10.4057
遒	-10.4058
沃	-10.4059
晞	-10.4059
覊	-10.4062
係	-10.4064
恒	-10.4064
畜	-10.4064
闌干	-10.4064
杜荀鶴	-10.4065
監察御史	-10.4065
建炎	-10.4067
好事	-10.407
幕府	-10.4077
但見	-10.4085
詩所謂	-10.4086
文帝	-10.409
雖然	-10.41
久矣	-10.4101
字元	-10.4107
妻子	-10.4117
月照	-10.4122
帝王	-10.4134
那得	-10.4136
未歸	-10.4148
中秋	-10.4151
又如	-10.4151
壮	-10.4153
伶	-10.4154
不似	-10.4154
穹	-10.4154
孚	-10.4155
頸	-10.4156
惻	-10.4156
仕至	-10.4157
佞	-10.4159
簇	-10.4162
吴旦生曰	-10.4168
反覆	-10.417
一見	-10.4171
不可及	-10.4175
釣臺	-10.4181
洞天	-10.4185
或有	-10.4188
昭君	-10.4189
王介甫	-10.419
紅塵	-10.4194
之論	-10.4199
十國	-10.4201
松風	-10.421
忠義	-10.4219
嘶	-10.4226
用韻	-10.4229
滄	-10.4234
江城	-10.4237
九年	-10.4243
剡	-10.4245
稿	-10.4248
奉使	-10.4248
劾	-10.425
靑	-10.4251
嗔	-10.4252
捫	-10.4254
訣	-10.4255
醇	-10.4257
彪	-10.4258
畨	-10.4259
糧	-10.426
歎息	-10.426
榛	-10.4261
秦少游	-10.4261
年七十	-10.4268
妨	-10.4271
留題	-10.4272
皇甫	-10.4287
時為	-10.4287
豈能	-10.429
東方	-10.4292
著書	-10.4292
其三	-10.4297
三代	-10.43
容齋	-10.4301
酒酣	-10.4301
此詞	-10.4305
者謂之	-10.4307
古來	-10.4322
何用	-10.4326
所能	-10.4331
滌	-10.4331
齊名	-10.4332
萬年	-10.4335
篷	-10.4346
龎	-10.4347
拗	-10.4347
相隨	-10.4348
爪	-10.4349
繭	-10.4349
何由	-10.435
書曰	-10.435
西京	-10.4351
詆	-10.4351
掾	-10.4351
泉州	-10.4351
窘	-10.4352
挈	-10.4352
針	-10.4354
葩	-10.4354
蹕	-10.4356
苕溪	-10.4358
天寒	-10.4359
涙	-10.4359
庾信	-10.4362
御製	-10.4364
名士	-10.4366
藝苑雌黄云	-10.4374
辛苦	-10.4383
給事中	-10.4389
所云	-10.4393
安國	-10.4394
初無	-10.4396
中間	-10.4416
言語	-10.4419
古木	-10.4425
雨過	-10.4426
學詩	-10.4431
貴人	-10.4432
真人	-10.444
欲以	-10.444
都賦	-10.4442
構	-10.4444
林寺	-10.4445
貎	-10.4446
𣺌	-10.4446
技	-10.4446
驂	-10.4449
玉川子	-10.4449
宋胡仔撰	-10.445
輟	-10.445
油	-10.445
災	-10.445
砧	-10.4451
無聲	-10.4451
葦	-10.4452
敞	-10.4454
笻	-10.4454
替	-10.4456
百家	-10.4458
翅	-10.4458
時事	-10.4461
霓	-10.4465
作詩曰	-10.4467
故云	-10.4478
渡江	-10.448
老夫	-10.4486
雞鳴	-10.4489
羅隠	-10.4495
通志	-10.4498
三巻	-10.4499
經年	-10.45
從之	-10.4505
兒女	-10.4509
西施	-10.451
詩格	-10.4512
到處	-10.452
華陽	-10.4521
溪上	-10.4525
皆用	-10.4526
此日	-10.4528
錢塘厲鶚撰	-10.4538
寮	-10.4543
拭	-10.4547
窄	-10.4547
楷	-10.4547
鵞	-10.4548
蒿	-10.4548
睦	-10.4548
訟	-10.4549
酉	-10.455
瀛奎	-10.4551
駁	-10.4552
字也	-10.4553
阜	-10.4553
謝靈運	-10.4554
以謂	-10.4555
湖南	-10.4557
未央	-10.4557
朱文公	-10.4561
殘月	-10.4568
直學士	-10.4584
錢起	-10.4585
山僧	-10.4588
正是	-10.4604
逺矣	-10.4605
塵土	-10.4605
入蜀	-10.4608
和尚	-10.4627
獨自	-10.4632
秋聲	-10.4632
臨江	-10.4636
蘋	-10.4637
宋詩紀事巻	-10.4639
欽定四庫全書宋詩紀事巻	-10.4639
疑是	-10.4641
世上	-10.4645
既而	-10.4648
湍	-10.465
虬	-10.4652
璘	-10.4655
隻	-10.4657
劉長卿	-10.4659
亦未	-10.4661
豈可	-10.4663
風光	-10.4668
斷腸	-10.4673
登樓	-10.4677
甘泉	-10.468
失其	-10.4681
子曰	-10.4685
未足	-10.4685
生死	-10.4687
豈有	-10.4692
九華	-10.4694
不樂	-10.4695
者其	-10.4703
皇后	-10.4706
見一	-10.4712
不妨	-10.4712
問曰	-10.4714
故也	-10.4715
功成	-10.4719
號為	-10.4724
之才	-10.4731
何不	-10.4731
神女	-10.4738
石刻	-10.474
縑	-10.4747
一葉	-10.4747
辦	-10.475
櫓	-10.475
侮	-10.475
忿	-10.475
感慨	-10.4751
尖	-10.4751
龔	-10.4751
旄	-10.4751
閙	-10.4751
敝	-10.4751
蔵	-10.4752
對偶	-10.4752
掲	-10.4754
奠	-10.4759
噴	-10.476
答曰	-10.4763
幽人	-10.4764
平原	-10.4764
有情	-10.4769
温公	-10.4773
焚香	-10.4774
長於	-10.4783
沈約	-10.4784
画	-10.4787
食之	-10.4793
前軰	-10.4795
燈火	-10.4795
安知	-10.4795
畫圖	-10.4796
知有	-10.4799
北征	-10.48
聞見	-10.4803
城西	-10.4807
子蒼	-10.4809
嶺南	-10.4814
法也	-10.4824
碧玉	-10.4826
嵗月	-10.4831
三四	-10.4833
蘭亭	-10.4836
何當	-10.4841
遂為	-10.4843
岀	-10.4844
鄭公	-10.4847
槃	-10.4847
河豚	-10.4849
瀑	-10.4849
江流	-10.4853
丹砂	-10.4853
掠	-10.4856
翡翠	-10.4858
譚	-10.4858
乂	-10.4858
萋	-10.4859
凖	-10.4859
膩	-10.4859
韜	-10.4861
謚	-10.4862
逍遥	-10.4864
飛鳥	-10.4864
邠	-10.4866
廖	-10.4868
飜	-10.4869
竹枝	-10.4875
青瑣	-10.4875
其聲	-10.4877
春光	-10.4895
大家	-10.4895
乾道	-10.4904
三首	-10.4904
方言	-10.4905
難得	-10.4905
思歸	-10.4917
故園	-10.4925
乃作	-10.4934
楸	-10.494
不死	-10.4947
一言	-10.4948
起於	-10.495
嬉	-10.4955
陀	-10.4955
俸	-10.4956
腴	-10.4957
剥	-10.4957
余曰	-10.4958
湜	-10.4959
扣	-10.4959
自從	-10.496
儔	-10.496
距	-10.4962
竈	-10.4962
堯舜	-10.4965
炭	-10.4965
篁	-10.4966
廉	-10.4966
誨	-10.4966
蟄	-10.4967
敕	-10.4967
𥿄	-10.4972
六經	-10.4973
愛之	-10.4976
木蘭	-10.4978
此皆	-10.4984
王摩詰	-10.4987
驪	-10.4987
中山	-10.5
樓上	-10.5002
𤣥宗	-10.5004
向來	-10.5007
本傳	-10.501
田家	-10.5016
景陽	-10.5018
即今	-10.5021
不平	-10.5022
平淡	-10.5028
齊梁	-10.5034
所作也	-10.5051
勃	-10.5052
佑	-10.5053
斯文	-10.5055
暝	-10.5057
耐	-10.5058
腳	-10.5059
穩	-10.5061
叱	-10.5061
寇	-10.5062
詩人玉屑	-10.5063
穠	-10.5064
□	-10.5064
恬	-10.5064
熏	-10.5064
漢宫	-10.5064
牘	-10.5065
誚	-10.5065
亦非	-10.5066
貝	-10.5068
暮年	-10.5073
數年	-10.5075
月夜	-10.5079
宛轉	-10.5079
一代	-10.508
崇寧	-10.5087
妙處	-10.509
烟霞	-10.5093
南遷	-10.5094
山上	-10.5096
不問	-10.5102
不易	-10.5108
元宗	-10.5115
朱門	-10.5119
大中	-10.5122
部員外郎	-10.5127
不傳	-10.5128
有句云	-10.5133
起居	-10.5135
宣城	-10.5142
禄山	-10.5146
宣宗	-10.5146
其為	-10.5148
昧	-10.5149
風波	-10.5153
曼卿	-10.5153
胸中	-10.5154
不著	-10.5157
亦然	-10.516
騎馬	-10.5164
太平興國	-10.5165
越王	-10.5166
四人	-10.5166
巔	-10.5167
顆	-10.5168
凶	-10.5169
吁	-10.517
齊已	-10.517
鋤	-10.5171
王母	-10.5171
夔	-10.5172
論文	-10.5172
贄	-10.5173
控	-10.5173
蛾眉	-10.5173
液	-10.5173
殁	-10.5174
琯	-10.5175
恢	-10.5176
詩意	-10.5176
迢迢	-10.5176
參寥	-10.5177
喉	-10.5177
㓕	-10.5177
呵	-10.5177
後生	-10.5178
開元中	-10.5181
據此則	-10.5182
初不	-10.5183
筝	-10.5184
翰苑	-10.5184
石林	-10.5185
髙樓	-10.5185
半山	-10.5187
司徒	-10.5196
未免	-10.5207
閩人	-10.5218
太和	-10.523
二三	-10.5232
清新	-10.5237
未盡	-10.5238
大喜	-10.5239
玉樹	-10.5246
得句	-10.5249
鍾山	-10.5263
夜來	-10.5273
瀑布	-10.5273
憚	-10.5274
邱	-10.5275
兀	-10.5276
迄	-10.5276
氊	-10.5277
安能	-10.5279
梭	-10.5279
餳	-10.5279
干戈	-10.5281
萊公	-10.5283
䴡	-10.5289
神宗	-10.5295
飄飄	-10.5297
當世	-10.5299
僕射	-10.5303
人言	-10.5304
人閒	-10.5308
獨立	-10.5311
父老	-10.5311
人意	-10.5316
山隂	-10.5322
家貧	-10.5337
登山	-10.534
荆南	-10.534
紫微	-10.5341
有功	-10.5345
建陽	-10.5347
明主	-10.5348
百花	-10.535
雲山	-10.5351
雜録	-10.5354
呉興	-10.5358
不食	-10.5363
其地	-10.5372
寥	-10.5374
以前	-10.5374
吟詩	-10.5381
廸	-10.5382
沸	-10.5382
庭堅	-10.5382
意氣	-10.5383
雙聲	-10.5383
昂	-10.5383
禧	-10.5386
禮樂	-10.5386
琉璃	-10.5387
馴	-10.5387
霓裳	-10.5389
黄門	-10.5392
悮	-10.5392
紫芝	-10.5392
鴟	-10.5393
岷	-10.5396
舊時	-10.5407
波濤	-10.5407
黄帝	-10.5415
荷花	-10.5417
自得	-10.5422
三字	-10.5425
欣然	-10.5425
懐古	-10.5433
聲律	-10.5436
絶唱	-10.5442
其才	-10.545
謝公	-10.5453
止於	-10.5455
而歸	-10.5466
幾度	-10.5467
歴官	-10.5467
張衡	-10.5475
天下之	-10.5477
又以	-10.5481
有詩曰	-10.5488
緇	-10.5491
澆	-10.5493
輯	-10.5494
長慶	-10.5494
賡	-10.5495
歐陽永叔	-10.5495
渇	-10.5496
泉石	-10.5497
楹	-10.5497
唐史	-10.5498
暈	-10.5498
藝文志	-10.5498
冒	-10.5499
拒	-10.5501
夘	-10.5502
祚	-10.5504
勾	-10.5506
軻	-10.5506
譙	-10.5508
渥	-10.5508
栁子厚	-10.5511
之樂	-10.5513
風動	-10.5514
少卿	-10.552
子雲	-10.5536
古風	-10.5536
出守	-10.5539
中流	-10.5539
頭上	-10.5539
青州	-10.554
千山	-10.5545
重來	-10.5547
禮記	-10.5549
走馬	-10.5563
九州	-10.557
不通	-10.5571
多情	-10.5582
雲中	-10.5584
何耶	-10.5589
何年	-10.5591
參知政事	-10.5594
先君	-10.5601
脉	-10.5604
等語	-10.5604
棺	-10.5606
諤	-10.5608
温庭筠	-10.5608
詞人	-10.5611
慣	-10.5612
芍藥	-10.5613
璫	-10.5613
胄	-10.5613
𣣔	-10.5615
諾	-10.5616
鸎	-10.5617
家家	-10.5618
含蓄	-10.5621
台州	-10.5622
有詩名	-10.5624
字伯	-10.5624
近時	-10.5629
紹興中	-10.563
功甫	-10.5632
岳陽	-10.5634
花間	-10.5635
甘露	-10.5638
殊不	-10.5643
釣魚	-10.5647
秋夜	-10.5648
不知所	-10.5649
何物	-10.565
千餘	-10.5651
嘗見	-10.5655
道路	-10.567
淮西	-10.5671
萬頃	-10.5671
何其	-10.5675
尤工	-10.5679
百首	-10.568
君家	-10.568
十餘年	-10.5681
沈宋	-10.5689
得詩	-10.5694
逺山	-10.5696
後村	-10.5699
都官	-10.5704
大厯	-10.5709
七日	-10.571
烽	-10.571
憎	-10.5714
渴	-10.5716
十一年	-10.5716
瓜	-10.5717
虧	-10.5718
裾	-10.5719
亨	-10.572
黄山谷	-10.572
戌	-10.572
哦	-10.5723
坤	-10.5723
磯	-10.5724
螭	-10.5726
閒居	-10.5728
勑	-10.573
大師	-10.5731
蔡邕	-10.5732
月落	-10.5732
風起	-10.5738
飛去	-10.574
過之	-10.5749
縣令	-10.5749
啼鳥	-10.576
秦王	-10.5762
或作	-10.5769
清江	-10.5772
子美詩	-10.5779
安在	-10.5779
肅宗	-10.5781
大觀	-10.5782
女郎	-10.5786
文辭	-10.5787
卒有	-10.5792
春雨	-10.5796
曲折	-10.58
有大	-10.5801
金人	-10.5811
暗香	-10.5813
苦吟	-10.5814
八句	-10.5817
荻	-10.5827
心事	-10.5829
十二月	-10.5831
滛	-10.5831
全芳備祖	-10.5831
猪	-10.5832
杉	-10.5833
縫	-10.5833
壞	-10.5834
藜	-10.5834
嚼	-10.5834
城人	-10.5835
牟	-10.5835
炊	-10.5836
㾗	-10.5837
沮	-10.5837
暄	-10.5837
莎	-10.5839
㶚	-10.5839
之道	-10.5842
奢	-10.5843
椀	-10.5843
徃來	-10.5847
卦	-10.5849
青衫	-10.5856
名家	-10.5859
縣志	-10.586
公孫	-10.5861
玉蘂	-10.5863
姚合	-10.5867
五馬	-10.587
袁州	-10.5876
舟中	-10.588
五六	-10.589
石林詩話	-10.5896
左氏	-10.5915
聖賢	-10.5918
詩成	-10.592
猶存	-10.5929
安人	-10.5937
掘	-10.5938
曷	-10.5939
潄	-10.594
夲	-10.594
屨	-10.5942
髓	-10.5943
愜	-10.5946
濡	-10.5947
畆	-10.5948
粥	-10.5949
蜀中	-10.5949
事實	-10.5949
嘏	-10.595
耒	-10.5951
郴	-10.5951
揆	-10.5951
寃	-10.5951
擎	-10.5951
幄	-10.5953
堵	-10.5954
男兒	-10.5955
罰	-10.5955
題詩云	-10.5956
同一	-10.5957
不止	-10.5958
律髓	-10.5958
三更	-10.5959
両	-10.5967
之流	-10.5971
薛能	-10.5973
時節	-10.5978
南陽	-10.5979
云昔	-10.5984
集句	-10.5992
蘆花	-10.5993
首尾	-10.5996
北風	-10.5999
詩思	-10.6013
未成	-10.6015
不逮	-10.6017
我欲	-10.6021
工於	-10.6021
相從	-10.6028
長城	-10.6033
花發	-10.6049
詩人之	-10.6052
誤矣	-10.6054
有神	-10.6056
蝸	-10.6058
回頭	-10.6058
九江	-10.6058
瞰	-10.6059
攬	-10.6062
勅	-10.6063
挹	-10.6063
并序	-10.6064
萌	-10.6066
攸	-10.6067
雞犬	-10.6067
䦨干	-10.6067
縹緲	-10.6068
準	-10.6069
者非	-10.607
颺	-10.6071
巫峽	-10.6072
萹	-10.6077
天竺	-10.6078
山志	-10.6081
灮	-10.6083
叅軍	-10.6084
北海	-10.6085
法度	-10.6087
之類是也	-10.6088
何在	-10.609
也予	-10.6091
萊	-10.6093
太真	-10.6097
不可不	-10.61
侍兒	-10.6102
都下	-10.6105
者是也	-10.6108
供奉	-10.6114
日出	-10.6115
後有	-10.6115
永嘉	-10.6117
胷	-10.6135
男子	-10.6143
未識	-10.6145
則云	-10.6154
七字	-10.6161
浣	-10.6165
集云	-10.6169
趁	-10.6174
誌例也	-10.618
軌	-10.618
無疑	-10.618
餓	-10.6183
窈窕	-10.6183
足下	-10.6184
縉	-10.6184
比之	-10.6185
浩蕩	-10.6185
戮	-10.6185
膳	-10.6185
筯	-10.6186
門生	-10.6186
禎	-10.6186
魚龍	-10.6187
楚詞	-10.619
翩	-10.6191
斜日	-10.6192
誰謂	-10.6193
文正公	-10.6197
筆記	-10.6198
星辰	-10.6201
議者	-10.6207
已而	-10.6207
皆為	-10.6208
嗣宗	-10.6212
我心	-10.6215
封禪	-10.6215
談笑	-10.622
爲詩	-10.6221
金谷	-10.6234
壯士	-10.6236
筆談	-10.6239
知者	-10.6242
自憐	-10.6242
林泉	-10.6247
嚴武	-10.6254
行行	-10.6257
文王	-10.6264
對酒	-10.627
古文	-10.6272
二十七	-10.6276
工夫	-10.6278
不已	-10.6281
至如	-10.6285
浚	-10.6285
南浦	-10.6286
此等	-10.6287
髣髴	-10.6292
杪	-10.6295
此心	-10.6296
槽	-10.6297
歐陽文忠公	-10.6297
餉	-10.6298
沆	-10.6298
獨有	-10.6298
奎	-10.63
皺	-10.6301
琅	-10.6301
俯仰	-10.6302
刹	-10.6302
鯉	-10.6302
噫	-10.6302
琪	-10.6303
昊	-10.6304
該	-10.6304
琰	-10.6304
也又云	-10.6305
刃	-10.6305
皇祐	-10.6305
大雅	-10.6306
効	-10.6306
孤雲	-10.6307
四言	-10.6307
蒼梧	-10.6308
鞋	-10.6308
千尺	-10.6312
参	-10.6312
孤山	-10.6313
唐詩紀事巻第	-10.6313
觀此	-10.6314
累遷	-10.6316
鬂	-10.6317
錦繡	-10.6317
其妻	-10.6318
江邊	-10.632
光禄	-10.6322
談苑	-10.6329
白鷺	-10.6329
右軍	-10.633
給事	-10.6331
月上	-10.6336
予嘗	-10.6344
家詩	-10.6344
國初	-10.635
罷相	-10.6351
物外	-10.6352
宫女	-10.6353
放翁	-10.6356
坐中	-10.6357
校書	-10.6358
石上	-10.6362
相去	-10.6365
也而	-10.6367
何異	-10.6367
君誌	-10.6371
洪州	-10.6378
左丞	-10.6378
題名	-10.6379
驪山	-10.6396
若此	-10.6398
不禁	-10.6399
潤州	-10.6405
金縷	-10.6411
跪	-10.6417
子建	-10.6418
韓文	-10.6418
饌	-10.6419
粤	-10.6419
娯	-10.6419
寰	-10.6419
卯	-10.642
算	-10.6422
灼	-10.6422
筋	-10.6423
碁	-10.6424
穢	-10.6424
囂	-10.6425
麒麟	-10.6425
曩	-10.6425
笏	-10.6427
須臾	-10.6427
仙翁	-10.6427
突兀	-10.6428
杵	-10.6429
眇	-10.6429
兩三	-10.6437
也唐	-10.6441
老去	-10.6446
杜少陵	-10.6447
芲	-10.6449
郡人	-10.6449
八分	-10.645
許彦周詩話云	-10.6455
兩字	-10.6455
長樂	-10.6462
竟不	-10.6466
不厭	-10.647
書畫	-10.6471
員外郎	-10.6477
更有	-10.6493
故名	-10.6497
白樂天詩	-10.6506
知已	-10.6509
此體	-10.6513
寄語	-10.6517
佳處	-10.6517
五巻	-10.6525
載酒	-10.6526
潭州	-10.6529
推官	-10.6531
無他	-10.6534
近日	-10.6536
風景	-10.6536
莫能	-10.6536
逋	-10.6536
厓	-10.6539
氣味	-10.654
南朝	-10.654
鶚	-10.654
暮雲	-10.6541
卞	-10.6543
义	-10.6543
迅	-10.6544
咨	-10.6545
仲尼	-10.6545
紈	-10.6546
遯叟	-10.6547
幡	-10.6547
熒	-10.6548
邢	-10.6548
疵	-10.6549
或以	-10.6549
綘	-10.6549
舸	-10.6551
浮屠	-10.6551
秋雨	-10.6551
曵	-10.6552
㕘	-10.6553
啇	-10.6554
校書郎	-10.6555
巗	-10.6557
墓誌銘右誌	-10.656
倡和	-10.6565
令狐	-10.6566
若是	-10.6567
吹笛	-10.6568
四年進士	-10.6568
長史	-10.6572
一聯	-10.6574
君恩	-10.6575
暮雨	-10.6576
可與	-10.6581
松江	-10.6588
陳思	-10.6593
黄庭	-10.6595
彭城	-10.6595
之屬	-10.6596
題壁	-10.6599
自序	-10.66
大江	-10.6603
卒章	-10.6612
侍宴	-10.6614
羅浮	-10.6615
古者	-10.6618
為正	-10.662
挽詞	-10.6621
劉氏	-10.6627
之甚	-10.6629
雖無	-10.6632
安可	-10.6636
小詞	-10.6649
詩評	-10.6649
髙下	-10.6655
無力	-10.6656
盼	-10.6657
鄉里	-10.6659
莭	-10.6661
戢	-10.6661
嗤	-10.6662
鑰	-10.6663
雨中	-10.6663
螺	-10.6665
彷彿	-10.6666
弁	-10.6666
曇	-10.6667
脣	-10.6673
元稹	-10.6673
逺近	-10.6673
未詳	-10.6675
麴	-10.6675
青箱雜記	-10.6675
波瀾	-10.6675
冉冉	-10.6676
蓼	-10.6676
洛中	-10.6676
虎丘	-10.6677
遲遲	-10.669
墓銘	-10.6694
清香	-10.6703
字字	-10.671
月滿	-10.6717
孤城	-10.6718
堂上	-10.6724
數聲	-10.6725
愚謂	-10.6733
歸去來	-10.6735
孝宗	-10.6738
雜志	-10.6739
予曰	-10.6739
未及	-10.674
公幹	-10.6741
功業	-10.6746
三千里	-10.6761
銀河	-10.6765
復有	-10.6767
始於	-10.6776
不曽	-10.6776
殊不知	-10.6777
吟詠	-10.6777
蚊	-10.6783
送之	-10.6784
鐸	-10.6793
古寺	-10.6794
試問	-10.6795
撼	-10.6796
凱	-10.6796
渝	-10.6798
儷	-10.6798
彎	-10.6799
狹	-10.6799
莱	-10.68
勻	-10.68
筭	-10.6801
宇宙	-10.6802
荼	-10.6802
熖	-10.6802
此生	-10.6806
暁	-10.6807
生於	-10.681
博學	-10.6811
其體	-10.6811
圖畫	-10.6812
牛羊	-10.6818
百萬	-10.6819
而今	-10.682
湖山	-10.6822
中郎	-10.6824
用字	-10.6827
後為	-10.6831
别後	-10.6831
不暇	-10.6833
樓閣	-10.6835
宜春	-10.6837
寓居	-10.684
而不能	-10.6841
風騷	-10.6844
道者	-10.6844
諡文	-10.6852
秋草	-10.6853
問其	-10.6857
百姓	-10.6858
風味	-10.6858
其身	-10.686
不朽	-10.6864
之誤	-10.687
元符	-10.6876
雲間	-10.6879
玉樓	-10.6883
昭陽	-10.689
悵	-10.6896
淳祐	-10.6901
集賢	-10.6904
延年	-10.6905
萼	-10.6907
壁上	-10.6908
箱	-10.691
筒	-10.6912
藪	-10.6913
匿	-10.6914
江漢	-10.6916
瀉	-10.6916
峨	-10.6916
凛	-10.6917
稅	-10.6918
綯	-10.6918
濛	-10.6918
勘	-10.6918
是日	-10.6918
騫	-10.692
樞宻	-10.692
帙	-10.6921
萬人	-10.6921
趾	-10.6922
奬	-10.6922
售	-10.6922
租	-10.6924
税	-10.6924
翊	-10.6924
翮	-10.6924
檣	-10.6925
蠧	-10.6927
刼	-10.6929
鎔	-10.6932
凄凉	-10.6932
樓前	-10.6938
李長吉	-10.694
烟雨	-10.694
朝士	-10.694
餘杭	-10.694
皎然	-10.6944
内翰	-10.6947
方外	-10.6956
中夜	-10.6956
後山詩話云	-10.6956
四面	-10.6957
眼看	-10.6962
無異	-10.6979
求其	-10.698
無由	-10.699
萬象	-10.6999
卒於	-10.7002
空餘	-10.7003
溪水	-10.7005
古意	-10.7008
詩有云	-10.7008
自唐	-10.7016
即位	-10.7017
朝陽	-10.7018
今夜	-10.7021
不第	-10.7022
有味	-10.7026
上皇	-10.7028
南昌	-10.7028
春歸	-10.7029
安仁	-10.7029
咸淳臨安志	-10.7033
流傳	-10.7034
及其	-10.7035
二巻	-10.7036
城東	-10.7036
沽	-10.7038
幾人	-10.7038
意在	-10.704
城郭	-10.704
謝安	-10.7041
弇	-10.7042
去國	-10.7043
八九	-10.7043
説文	-10.7043
璠	-10.7044
進退	-10.7045
竦	-10.7045
高宗	-10.7046
鼓吹	-10.7047
戱	-10.7047
諳	-10.7049
行樂	-10.7049
漪	-10.705
甥	-10.705
狩	-10.7052
廹	-10.7052
繹	-10.7053
伺	-10.7053
千門	-10.7054
中書舎人	-10.7054
芳菲	-10.7055
忻	-10.7055
侍從	-10.7055
頋	-10.7056
之情	-10.7056
花下	-10.7056
鶯啼	-10.7061
並同前	-10.7062
羽翼	-10.7064
李陵	-10.7066
鐘聲	-10.7068
丈人	-10.7068
數千	-10.707
不入	-10.707
之難	-10.7072
嘆曰	-10.7074
都尉	-10.7075
紀聞	-10.7075
二篇	-10.708
長篇	-10.7082
魏晉	-10.7083
單于	-10.7086
胷中	-10.7095
隨風	-10.7102
之類皆	-10.7106
故山	-10.7108
昭宗	-10.7113
陳氏	-10.7114
屏風	-10.7116
近臣	-10.712
常侍	-10.7121
與客	-10.7126
泰山	-10.7126
收拾	-10.7128
幾回	-10.713
何曽	-10.713
那知	-10.713
㡬時	-10.7133
先王	-10.7137
夏日	-10.7139
北人	-10.7143
改為	-10.7146
看花	-10.7152
翺	-10.7162
不信	-10.7167
酥	-10.717
六一居士	-10.717
題詠	-10.7171
醖	-10.7172
腦	-10.7172
豈復	-10.7172
默	-10.7173
搔	-10.7174
踵	-10.7176
歙	-10.7176
翌日	-10.7178
社稷	-10.7178
抑揚	-10.7179
塜	-10.718
揭	-10.718
奄	-10.718
迨	-10.718
肺	-10.7181
赫	-10.7181
蝴蝶	-10.7182
賖	-10.7183
妥	-10.7184
豕	-10.7185
芋	-10.7186
陳無已	-10.7186
越州	-10.7186
霏	-10.7186
剰	-10.7188
詩話總龜	-10.7188
不惜	-10.7188
明帝	-10.7188
彭澤	-10.7193
次之	-10.7201
九天	-10.7202
年五十	-10.7203
萬壑	-10.7204
春寒	-10.7205
卜居	-10.7209
崑	-10.7211
臺上	-10.7212
池塘	-10.7214
遊人	-10.7216
歎曰	-10.7222
昭陵	-10.7225
歳月	-10.7241
傳誦	-10.7244
造物	-10.7247
揚子	-10.7254
長吉	-10.7256
超然	-10.7259
東林	-10.7267
某官	-10.7274
曰某	-10.728
事見	-10.7283
七言律	-10.7285
九十	-10.7286
祜	-10.7289
鄂	-10.729
篇章	-10.7292
溥	-10.7297
櫂	-10.7302
紫薇	-10.7303
薇	-10.7303
樣	-10.7304
成都文類	-10.7304
物色	-10.7305
苞	-10.7306
唾	-10.7306
者惟	-10.7308
恤	-10.7309
誡	-10.7309
御史中丞	-10.7309
闥	-10.731
蹊	-10.7311
扃	-10.7311
郭璞	-10.7311
蕉	-10.7312
下馬	-10.7312
覇	-10.7313
妬	-10.7313
奸	-10.7313
潺湲	-10.7313
皮日休	-10.7313
無數	-10.7314
耘	-10.7314
沈佺期	-10.7314
璋	-10.7314
漣	-10.7315
牡	-10.7316
摽	-10.7316
○	-10.7317
芭蕉	-10.7317
蘇黄	-10.7318
慶厯	-10.7319
䧟	-10.7319
廼	-10.7319
関	-10.7323
秋來	-10.7324
石曼卿	-10.7325
劉後村	-10.7325
惜其	-10.7329
四朝	-10.733
亭亭	-10.7337
日落	-10.7337
李後主	-10.7353
與世	-10.7357
獨坐	-10.7359
當日	-10.736
章句	-10.7365
蒼生	-10.7366
得罪	-10.7367
永州	-10.7367
笑語	-10.7382
千丈	-10.7383
以獻	-10.7384
便覺	-10.7386
殺之	-10.7387
自負	-10.7388
戰國	-10.739
漫録	-10.7391
襄王	-10.7391
之音	-10.7391
號曰	-10.7392
譬如	-10.7402
小集	-10.7402
至是	-10.7407
乆之	-10.7411
萬國	-10.7412
筆精	-10.7414
悠	-10.7428
扁	-10.7429
鉛	-10.7431
㵎	-10.7432
㝛	-10.7434
擒	-10.7437
椽	-10.7438
逵	-10.7438
芻	-10.7438
尚未	-10.7438
埽	-10.7439
南方	-10.744
蕋	-10.744
迺	-10.744
天外	-10.744
蔗	-10.744
十二年	-10.7441
飱	-10.7441
寘	-10.7442
比興	-10.7442
徐鉉	-10.7442
朝夕	-10.7443
銓	-10.7445
旃	-10.7446
罔	-10.7447
寤	-10.7447
劉郎	-10.745
葱	-10.7451
鳶	-10.7452
甚矣	-10.7452
闘	-10.7453
鵶	-10.7453
栁絮	-10.7455
叙事	-10.7456
不來	-10.7459
雲夢	-10.7459
騶	-10.7467
李端	-10.7468
長短	-10.7471
下同	-10.7472
煙霞	-10.7477
讀者	-10.7477
憲宗	-10.7483
雲外	-10.7486
漁陽	-10.7488
不足以	-10.7495
出塞	-10.7504
暇日	-10.7508
自在	-10.7514
仁義	-10.7516
大父	-10.7517
宗室	-10.7518
數篇	-10.7523
其詩曰	-10.7525
荆公詩	-10.7528
取之	-10.753
青松	-10.754
不去	-10.7546
不宜	-10.7549
猶自	-10.7551
暮春	-10.7551
者乎	-10.7552
可乎	-10.7556
陵陽	-10.7562
多病	-10.7563
嵇	-10.7571
猫	-10.7571
騁	-10.7571
卵	-10.7572
曼	-10.7573
册	-10.7574
俎	-10.7574
眸	-10.7574
趺	-10.7575
塩	-10.7575
卉	-10.7576
鄕	-10.7576
煑	-10.7576
贏	-10.7576
奩	-10.7577
款	-10.7578
箔	-10.7579
醪	-10.7579
袴	-10.7579
窠	-10.758
姊	-10.7581
泠	-10.7581
㳂	-10.7582
暨	-10.7583
鏘	-10.7585
隂陽	-10.7585
離離	-10.7586
顛倒	-10.7586
野水	-10.7587
晩唐	-10.7589
玉山	-10.759
河漢	-10.7591
潯陽	-10.7592
劉向	-10.7592
杜云	-10.7595
司馬相如	-10.7598
未嘗不	-10.7601
貴妃	-10.7601
教授	-10.7607
福建	-10.7607
開門	-10.7614
東陽	-10.7615
經史	-10.7619
喚起	-10.7622
故實	-10.7622
東北	-10.7624
其說	-10.7627
京口	-10.7629
水邊	-10.763
師古	-10.7633
相遇	-10.7637
南風	-10.7638
疊韻	-10.7641
置之	-10.7648
五雲	-10.7653
輕薄	-10.7655
開花	-10.7667
黄葉	-10.7668
不幸	-10.7678
飲食	-10.7682
即此	-10.7684
國風	-10.7688
雲卿	-10.769
家人	-10.7691
文定	-10.7697
南京	-10.7699
慶元	-10.77
鑾	-10.7702
明矣	-10.7703
枝上	-10.7705
覲	-10.7708
吕居仁	-10.7708
臻	-10.7709
譎	-10.7712
莓苔	-10.7714
煬帝	-10.7714
蝕	-10.7714
風骨	-10.7714
蹈襲	-10.7714
閔	-10.7715
骸	-10.7717
軫	-10.7719
搏	-10.772
終南	-10.772
勵	-10.772
蘇軾	-10.772
疋	-10.7721
虢	-10.7721
曹子建	-10.7721
圎	-10.7721
冥冥	-10.7722
其先	-10.7725
迭	-10.7725
净	-10.7726
丐	-10.7726
十首	-10.7726
白水	-10.7726
雲氣	-10.7728
在焉	-10.773
悠然	-10.7739
松栢	-10.774
從軍	-10.7743
河陽	-10.7744
柴門	-10.7745
太初	-10.7749
尚可	-10.7755
東門	-10.776
十分	-10.7764
之狀	-10.7765
石壁	-10.7766
去聲	-10.7767
死生	-10.778
夢魂	-10.7782
工詩	-10.7799
注謂	-10.78
崑山	-10.7808
其一云	-10.7816
河北	-10.782
下筆	-10.7822
論語	-10.7833
不拘	-10.7845
陽春	-10.7845
褰	-10.7849
魴	-10.7849
複	-10.785
避暑	-10.785
樸	-10.7853
咸通	-10.7854
轅	-10.7856
掬	-10.7856
衷	-10.7856
檢校	-10.7856
証	-10.7857
不仕	-10.7857
此曲	-10.7857
巽	-10.7858
斫	-10.7858
文潛	-10.7858
膓	-10.7858
𥙷	-10.7861
陸放翁	-10.7861
張文潛	-10.7864
瑜	-10.7866
頃刻	-10.7868
肱	-10.787
雅言	-10.7871
可觀	-10.7878
十載	-10.7881
近體	-10.7894
竟何	-10.7911
新安	-10.7914
澄江	-10.7917
無消息	-10.794
嘗言	-10.7941
白鶴	-10.7942
清光	-10.7945
三朝	-10.7953
州司馬	-10.7955
末句	-10.7966
後見	-10.7969
一半	-10.7976
伽	-10.7978
上疏	-10.7984
僮	-10.7986
牌	-10.7986
蔡寛夫	-10.7987
惇	-10.7987
遨	-10.799
諛	-10.799
花影	-10.7991
濱	-10.7992
贖	-10.7992
禮部侍郎	-10.7994
萃	-10.7994
捉	-10.7994
隗	-10.7994
規模	-10.7999
力士	-10.8
嬴	-10.8002
潦	-10.8002
梨園	-10.8006
沽酒	-10.8009
酒樓	-10.8013
少府	-10.8018
前賢	-10.8018
顧况	-10.802
徐州	-10.8029
老杜詩	-10.8038
才力	-10.8041
草色	-10.8045
即是	-10.805
二絶	-10.8057
歸路	-10.8057
子華	-10.806
月令	-10.8069
不顧	-10.807
入室	-10.8075
固有	-10.8077
當國	-10.8077
以詩寄	-10.8079
宗廟	-10.8079
易簡	-10.808
句句	-10.8082
石室	-10.8083
舊居	-10.8083
年八十	-10.8086
閏	-10.8097
相憶	-10.8098
繼之	-10.8101
郎官	-10.8105
聖主	-10.8107
草草	-10.8109
天際	-10.8109
衆人	-10.8111
第進士	-10.8115
風物	-10.8116
枕上	-10.8122
肎	-10.8124
亦不能	-10.8125
汙	-10.8128
蕨	-10.813
讐	-10.813
墨莊漫録	-10.8131
姻	-10.8131
翎	-10.8132
洪駒父	-10.8132
憩	-10.8133
顰	-10.8133
祔	-10.8133
吸	-10.8134
昶	-10.8135
璞	-10.8135
擘	-10.8136
擺	-10.8137
莘老	-10.8137
劣	-10.8138
吟曰	-10.8138
詐	-10.8138
鋭	-10.8138
鎬	-10.8138
壠	-10.8139
覃	-10.8139
訊	-10.8141
拯	-10.8141
癖	-10.8142
黄鸝	-10.8143
倖	-10.8144
杜䳌	-10.8144
劉貢父	-10.8147
自注云	-10.8148
其妙	-10.8151
無乃	-10.8151
王元之	-10.8154
管絃	-10.8163
圖經	-10.8164
李嶠	-10.8167
李斯	-10.8167
妙絶	-10.817
淮海	-10.8187
之㫖	-10.8189
内人	-10.8191
忽見	-10.8191
景文	-10.8194
史館	-10.8196
謫居	-10.8197
神道碑	-10.8199
子儀	-10.8201
異日	-10.8204
一物	-10.8206
林間	-10.8216
烟波	-10.8223
考功	-10.8226
雲門	-10.8229
一世	-10.8231
平甫	-10.8235
何曾	-10.8238
韻者	-10.8248
飛燕	-10.825
文武	-10.8256
國朝	-10.8261
所言	-10.8262
忠臣	-10.8264
略云	-10.8269
遞	-10.8275
南宫	-10.8275
愍	-10.8277
頒	-10.8279
鳧	-10.828
坎	-10.8281
鄱陽	-10.8281
蔡君謨	-10.8283
掇	-10.8284
笥	-10.8284
戾	-10.8285
嬋娟	-10.8287
唇	-10.8288
舛	-10.8288
甲科	-10.8289
鼉	-10.829
徤	-10.8291
山海經	-10.8292
饗	-10.8293
蒼茫	-10.8293
張祜	-10.8296
無奈	-10.8296
耆舊	-10.8301
斯人	-10.8304
幾年	-10.8305
江淹	-10.8308
相繼	-10.8309
䡖	-10.8315
一段	-10.8317
新聲	-10.8319
四十年	-10.832
醉中	-10.8321
寒暑	-10.8322
昇平	-10.8324
溪山	-10.8331
東坡作	-10.8333
日斜	-10.834
身後	-10.8341
維揚	-10.8342
也至於	-10.8343
主客	-10.8345
所至	-10.8347
六言	-10.835
清河	-10.8353
余讀	-10.8354
小舟	-10.8371
學問	-10.8374
秦漢	-10.8375
性情	-10.8383
無功	-10.8387
路傍	-10.839
處厚	-10.8394
䂬溪	-10.8404
左思	-10.8406
陛	-10.8407
其次	-10.8416
璣	-10.8423
葺	-10.8423
屍	-10.8424
彊	-10.8425
李商隠	-10.8426
晶	-10.8426
撞	-10.8427
憫	-10.8427
縦	-10.8429
現	-10.8429
龕	-10.8429
張氏	-10.8429
殯	-10.843
晉書	-10.8431
襪	-10.8432
佚	-10.8432
庇	-10.8433
嬪	-10.8433
韓魏公	-10.8434
滄溟	-10.8434
璩	-10.8435
核	-10.8435
倘	-10.8435
豈是	-10.8436
悪	-10.8438
䆫	-10.844
搆	-10.844
夜夜	-10.8445
各自	-10.8448
牎	-10.8449
口占	-10.8453
冬至	-10.8454
漁舟	-10.8461
諸葛	-10.8461
将軍	-10.8462
星斗	-10.8465
落落	-10.8465
㕠	-10.8467
湘水	-10.8468
泉聲	-10.8474
太史公	-10.8476
若夫	-10.8476
送李	-10.8481
吹簫	-10.8481
河中	-10.8498
紅粉	-10.85
光武	-10.8503
兩岸	-10.8505
積雪	-10.8512
縣尉	-10.8516
仙家	-10.8521
渡頭	-10.8526
蘇公	-10.8527
萬巻	-10.8529
玉壺	-10.8539
使事	-10.8539
尚存	-10.8543
畧云	-10.8553
西蜀	-10.8555
予謂	-10.8558
白蓮	-10.8562
明珠	-10.8563
等句	-10.8566
幾何	-10.8566
臭	-10.8572
炬	-10.8574
浯溪	-10.8574
廓	-10.8575
詩選	-10.8576
璟	-10.8577
徐師川	-10.8577
釐	-10.8577
成章	-10.8578
鉅	-10.8579
也苕溪漁隠曰	-10.858
宋之問	-10.858
仕宦	-10.858
侔	-10.8581
磴	-10.8581
逞	-10.8583
焙	-10.8583
銖	-10.8583
剖	-10.8584
鬛	-10.8585
俛	-10.8585
拖	-10.8585
凌雲	-10.8585
腕	-10.8585
蚤	-10.8586
所藏	-10.8587
目前	-10.8588
蕚	-10.8589
紱	-10.8589
皂	-10.8592
旭	-10.8593
得失	-10.8599
和靖	-10.86
枇杷	-10.8605
茂陵	-10.8606
景祐	-10.8609
叙其	-10.8611
是年	-10.8612
十字	-10.8614
白衣	-10.8614
蕭然	-10.8615
十一月	-10.8625
新法	-10.8627
紫雲	-10.8632
封侯	-10.8636
只恐	-10.8638
墓表	-10.8658
友善	-10.8665
語録	-10.8669
及觀	-10.867
陽秋	-10.8676
赤城	-10.8681
堂前	-10.8687
碧落	-10.8692
宗即位	-10.8696
銘曰	-10.8704
字叔	-10.8704
溪集	-10.871
方輿勝覽	-10.8719
西川	-10.872
拄	-10.8723
詮	-10.8724
畿	-10.8724
大理	-10.8725
馥	-10.8726
驄	-10.8727
濠	-10.8728
梗	-10.8729
讎	-10.8729
少師	-10.873
警䇿	-10.873
驤	-10.873
籃	-10.8731
筆端	-10.8731
轉運使	-10.8732
垢	-10.8732
礪	-10.8734
躋	-10.8734
鱸魚	-10.8736
睢陽	-10.8738
萱	-10.8738
洩	-10.8738
麤	-10.8738
曲盡	-10.874
賁	-10.874
滄洲	-10.8741
摇	-10.8741
館職	-10.8746
湘江	-10.8751
艱難	-10.8751
浣花	-10.8751
十九首	-10.8758
觀察	-10.8758
傍人	-10.8758
雙飛	-10.8758
建康	-10.876
如許	-10.8764
西園	-10.8766
復齋	-10.8768
功父	-10.877
綺羅	-10.877
底事	-10.8778
援筆	-10.8778
忽然	-10.8781
世界	-10.8788
一條	-10.879
張祐	-10.879
掃地	-10.8793
衡陽	-10.8794
李益	-10.8797
幽居	-10.8798
骨肉	-10.8801
耳目	-10.8802
文詞	-10.8807
體製	-10.8815
嶺外	-10.8817
尤多	-10.882
原上	-10.8823
興亡	-10.8825
南豐	-10.883
唐虞	-10.8833
始見	-10.8834
石門	-10.8836
氣格	-10.8841
北方	-10.885
無端	-10.8858
柰	-10.8859
第十	-10.8859
晩年	-10.8862
垂楊	-10.8863
騷人	-10.8869
最後	-10.887
槀	-10.8871
睨	-10.8871
璉	-10.8873
鶴林玉露	-10.8874
庚溪詩話	-10.8874
燎	-10.8876
亳	-10.8877
砂	-10.8879
肘	-10.8881
遣使	-10.8881
猜	-10.8882
炯	-10.8883
靚	-10.8883
冨	-10.8884
耿耿	-10.8887
叨	-10.8887
馬嵬	-10.8887
月華	-10.8887
經過	-10.8888
唐詩紀事卷第	-10.8888
躁	-10.8888
叫	-10.8889
杜子羙	-10.8889
燃	-10.8889
鈍	-10.8889
股	-10.889
滎陽	-10.8892
儘	-10.8892
嵇康	-10.8892
沈存中	-10.8893
撚	-10.8894
阮籍	-10.8896
逸少	-10.8898
零陵	-10.8899
猿啼	-10.8902
喬木	-10.8903
吳江	-10.8904
感激	-10.8907
賢者	-10.8912
無益	-10.8915
清溪	-10.8917
朋友	-10.8918
十數	-10.892
畫馬	-10.8926
後村千	-10.8928
杜子美詩	-10.893
盛事	-10.8933
光輝	-10.8936
楊妃	-10.8939
乃謂	-10.8939
孺子	-10.8946
竹林	-10.8948
徽宗	-10.8952
還鄉	-10.8953
侍臣	-10.8961
妃子	-10.8961
江州	-10.8965
莫道	-10.8967
相看	-10.8971
雅頌	-10.898
方干	-10.8982
鏡中	-10.8997
誦其	-10.8998
首句	-10.9
元祐中	-10.9006
屬對	-10.9008
希文	-10.9008
疑其	-10.9009
煙雨	-10.9013
百草	-10.9015
竅	-10.9029
秃	-10.903
滿目	-10.9033
匝	-10.9035
鱸	-10.9035
罍	-10.9036
侯鯖録	-10.9036
凄涼	-10.9038
寒泉	-10.9038
潼	-10.904
麈	-10.9041
澈	-10.9042
慟哭	-10.9042
㓂	-10.9042
趍	-10.9043
秧	-10.9043
姥	-10.9043
縠	-10.9043
邯鄲	-10.9044
宋子京	-10.9044
林和靖	-10.9044
犬吠	-10.9044
留守	-10.9046
銳	-10.9047
南國	-10.9049
奔走	-10.9049
鵰	-10.9051
㤗	-10.9053
茱茰	-10.9053
契丹	-10.9055
築室	-10.9056
塞上	-10.9057
誤也	-10.9058
夜坐	-10.9061
雪浪齋日記云	-10.9061
楊文公	-10.9064
宋史	-10.9065
滿城	-10.9066
梦	-10.9067
泛舟	-10.907
渭水	-10.908
朩蘭	-10.9081
摭言	-10.9081
吾廬	-10.9081
中書令	-10.9082
省試	-10.9084
四百	-10.9092
日照	-10.9096
唐人詩	-10.9103
所記	-10.9103
贈張	-10.9105
曹公	-10.9109
無一字	-10.9114
校官	-10.9115
白晝	-10.9121
修撰	-10.9126
荅曰	-10.9127
石橋	-10.913
也吳旦生曰	-10.9134
朝野	-10.9138
桂林	-10.9146
誰是	-10.9149
是嵗	-10.9149
何許	-10.915
作此詩	-10.9153
十五年	-10.9154
臨風	-10.9164
者多矣	-10.9166
林甫	-10.917
寺丞	-10.9179
羅衣	-10.9184
女兒	-10.9185
才思	-10.9187
芥	-10.919
一麾	-10.9191
瀛奎律髓	-10.9194
庖	-10.9196
小樓	-10.9196
檝	-10.9196
甜	-10.9196
機杼	-10.9197
臆	-10.9197
旒	-10.9198
清淺	-10.9198
庭前	-10.9199
畋	-10.9199
浙東	-10.92
勰	-10.92
巘	-10.92
掣	-10.92
觚	-10.92
隸	-10.9202
髭	-10.9203
愼	-10.9204
猴	-10.9204
斵	-10.9204
秦檜	-10.9206
禹錫	-10.9206
重重	-10.9207
恊	-10.9208
橈	-10.9209
集中有	-10.921
柳子厚	-10.9211
存者	-10.9213
剌	-10.9214
慨然	-10.9217
司空圖	-10.922
壁云	-10.9221
舒王	-10.9223
嗜酒	-10.923
早朝	-10.9232
悲風	-10.9241
補闕	-10.9243
善為	-10.9246
帶雨	-10.9254
千家	-10.9257
太清	-10.9257
途中	-10.9259
常州	-10.9262
燕公	-10.9274
獨孤	-10.9276
開府	-10.9276
浮生	-10.9284
功曹	-10.9295
若干	-10.9305
筆墨	-10.9307
雲根	-10.9316
西溪	-10.9322
注引	-10.9326
格律	-10.9327
龍虎	-10.9332
燕語	-10.9334
遺恨	-10.9337
厄	-10.9342
千尋	-10.9343
縛	-10.9351
苕	-10.9351
張仲	-10.9352
屹	-10.9352
冗	-10.9353
寔	-10.9353
鬰	-10.9354
弩	-10.9354
柑	-10.9356
硬	-10.9357
鑠	-10.9357
瀆	-10.9358
耽	-10.9359
㨗	-10.936
頥	-10.9361
盂	-10.9362
吻	-10.9364
魏文帝	-10.9364
贅	-10.9364
翥	-10.9365
冤	-10.9365
騐	-10.9366
覺範	-10.9366
太湖	-10.9367
蕭瑟	-10.9368
石榴	-10.9369
杼	-10.9369
縟	-10.9369
怜	-10.9369
東方朔	-10.9369
吃	-10.937
瀝	-10.9371
称	-10.9374
悵望	-10.9375
十四年	-10.9378
絶頂	-10.9381
音律	-10.9382
高祖	-10.9385
王平甫	-10.9386
雲霞	-10.939
白蘋	-10.9391
雲霄	-10.9396
少㳺	-10.9398
貞觀	-10.9409
押韻	-10.9409
南園	-10.941
嘗有詩云	-10.9413
一洗	-10.9414
盧橘	-10.9419
廟碑	-10.942
祕書	-10.9421
夜夢	-10.9427
聖朝	-10.943
相顧	-10.9432
晝夜	-10.9437
類此	-10.9446
末句云	-10.9447
葉落	-10.9457
使我	-10.9462
為翰林學士	-10.9463
往事	-10.9475
希聲	-10.9486
紅葉	-10.9492
落筆	-10.9494
寓意	-10.9496
廟堂	-10.95
嵗時	-10.9501
詠史	-10.9504
入貢	-10.9504
天柱	-10.9511
今觀	-10.9516
崢嶸	-10.9516
麄	-10.9517
芸叟	-10.9518
廡	-10.9518
虐	-10.9518
杳杳	-10.9519
這	-10.9519
敖	-10.9519
薤	-10.952
堕	-10.9521
崔嵬	-10.9521
緗素雜記	-10.9522
啜	-10.9523
飄零	-10.9523
鉏	-10.9523
禮部尚書	-10.9525
羇	-10.9526
涎	-10.9527
矛	-10.9527
迪	-10.9527
榔	-10.9527
鹵	-10.9528
㽞	-10.9528
唳	-10.9528
慟	-10.9528
灔	-10.9529
意思	-10.9529
張文潜	-10.9529
飈	-10.9531
汀洲	-10.9531
憾	-10.9532
霏霏	-10.9533
應聲曰	-10.9533
貳	-10.9533
百家詩話總龜後集卷之	-10.9535
閶闔	-10.9539
詠物	-10.9544
侍御史	-10.9544
士毅	-10.9546
那堪	-10.9546
邵武	-10.955
舉世	-10.9554
奉和	-10.9554
門户	-10.956
音韻	-10.9561
漢武帝	-10.9565
金吾	-10.9566
堂堂	-10.9567
金釵	-10.9569
蘇東坡	-10.9572
朔方	-10.9597
松竹	-10.9608
最多	-10.962
建州	-10.9624
城頭	-10.9625
宫商	-10.9628
萬世	-10.9629
公神道碑	-10.963
此格	-10.964
城北	-10.9657
惜哉	-10.9669
百丈	-10.9673
青絲	-10.9679
牲	-10.968
兵部	-10.9681
僖	-10.9682
琥珀	-10.9686
蝦	-10.9686
杖藜	-10.9686
四首	-10.9687
綾	-10.9687
緱	-10.9687
蘄	-10.9687
糟	-10.9687
鑚	-10.9688
駱	-10.9688
胡元瑞	-10.9688
嫗	-10.9688
粱	-10.9689
償	-10.9689
者甚衆	-10.9689
諶	-10.969
釘	-10.969
濬	-10.969
峙	-10.9692
曦	-10.9692
搗	-10.9692
渤	-10.9692
愕	-10.9692
霅	-10.9692
棧	-10.9692
孜	-10.9693
隕	-10.9693
薑	-10.9695
啾	-10.9695
遯齋閒覽	-10.9695
声	-10.9696
耻	-10.9696
茵	-10.9696
終始	-10.9697
贈詩曰	-10.9698
侃	-10.97
体	-10.9703
觀察使	-10.9703
太液	-10.9704
内外	-10.9706
誰復	-10.9712
六義	-10.972
靈運	-10.9722
漫叟詩話云	-10.9726
吟咏	-10.9727
經營	-10.9749
穿花	-10.975
髙妙	-10.9756
珍重	-10.9758
老病	-10.9758
相親	-10.9762
早晚	-10.9765
新竒	-10.9767
㑹昌	-10.9774
受命	-10.9779
州縣	-10.9786
不悟	-10.9786
或問	-10.979
閑居	-10.9793
小説	-10.9796
玉皇	-10.9801
饒州	-10.9803
海外	-10.9814
漢陽	-10.9827
閫	-10.985
擢第	-10.9851
音節	-10.9853
諫議大夫	-10.9853
仔	-10.9853
譏其	-10.9854
東京	-10.9854
隘	-10.9855
用兵	-10.9855
醴	-10.9856
蔟	-10.9857
猗	-10.9857
晦庵	-10.9859
棃	-10.9859
貺	-10.9859
蛻	-10.9859
鷁	-10.9859
罨	-10.986
篙	-10.9861
盍	-10.9862
漁隠叢話	-10.9862
耆卿	-10.9862
坑	-10.9863
繋	-10.9863
兢	-10.9865
簧	-10.9866
脊	-10.9866
松下	-10.9866
讚	-10.9866
瞑	-10.9867
缸	-10.9868
亢	-10.9868
彤	-10.9868
辞	-10.9872
形於	-10.9874
御覽	-10.9887
庶幾	-10.9888
賈生	-10.9892
貢父	-10.9896
平仄	-10.9896
細看	-10.99
工拙	-10.9904
侍讀	-10.9908
黄鶴	-10.9909
勸君	-10.9913
荷葉	-10.9917
餘話	-10.9917
誰憐	-10.9918
十三年	-10.9921
二十六	-10.9922
哀哉	-10.9922
北門	-10.9929
未㡬	-10.9932
忽聞	-10.9936
絶倒	-10.9944
繁華	-10.9946
自由	-10.9949
莆田人	-10.9949
荘子	-10.9953
北苑	-10.9955
光照	-10.9956
于鱗	-10.9964
荆門	-10.9967
分司	-10.9967
他時	-10.9969
丁謂	-10.9971
蒼龍	-10.9973
太過	-10.9976
又嘗	-10.9983
官職	-11.0001
九歌	-11.0007
白露	-11.0017
即席	-11.0017
猶能	-11.0023
踞	-11.0024
嵩山	-11.0025
緻	-11.0025
淩	-11.0028
宋文鑑	-11.0028
鱠	-11.0029
址	-11.003
喙	-11.003
僑	-11.0031
潑	-11.0033
俶	-11.0033
滂	-11.0034
杲	-11.0034
儋	-11.0035
太甚	-11.0035
珠璣	-11.0036
鼈	-11.0037
貸	-11.0038
江村	-11.004
剝	-11.004
鬱鬱	-11.0041
四皓	-11.0043
桑麻	-11.0043
把酒	-11.0043
拗律	-11.0044
楊大年	-11.0044
涪翁	-11.0045
銅雀	-11.0047
嘉靖	-11.0049
願得	-11.0051
廣州	-11.0052
可知矣	-11.0054
歴歴	-11.0059
亷夫	-11.0061
宫詞云	-11.0062
漁翁	-11.0068
惠崇	-11.007
翠華	-11.008
王粲	-11.0081
七十二	-11.0083
冷齋	-11.0097
思量	-11.0099
六合	-11.0107
莆田	-11.0117
珠玉	-11.0118
須知	-11.012
邑人	-11.0129
乗興	-11.0133
一般	-11.0142
學詩者	-11.0155
長洲	-11.0165
賜號	-11.0174
華亭	-11.018
賢良	-11.0185
右僕射	-11.0185
磊	-11.0187
五言律	-11.019
亡國	-11.0192
鄞	-11.0197
頓挫	-11.0199
墅	-11.0199
沂	-11.02
菖蒲	-11.0201
褊	-11.0202
歆	-11.0202
柘	-11.0202
哺	-11.0203
襍	-11.0204
最佳	-11.0204
歸安吳景旭撰	-11.0205
二十二	-11.0205
四巻	-11.0205
攄	-11.0206
黼	-11.0206
絛	-11.0207
漁隱叢話前集巻	-11.0207
檐	-11.0207
涓	-11.0207
靴	-11.0208
昀	-11.0209
月恭校上	-11.0209
臼	-11.021
珊	-11.021
薺	-11.021
個	-11.021
槿	-11.0211
蹤跡	-11.0211
嫉	-11.0212
抉	-11.0212
拊	-11.0213
崕	-11.0214
漁樵	-11.0215
舄	-11.0216
貧賤	-11.0217
嫖姚	-11.0217
桒	-11.0217
黄鶴樓	-11.0218
琨	-11.0219
大率	-11.022
或以為	-11.0222
太乙	-11.0223
依稀	-11.0223
罇	-11.0225
藝苑	-11.0225
楼	-11.0226
落魄	-11.0226
虗	-11.0229
腸斷	-11.0234
行於世	-11.0248
龍池	-11.0256
沙門	-11.026
簡齋	-11.0266
親切	-11.0278
敏中	-11.0283
湘中	-11.0302
拂衣	-11.0303
羅隱	-11.0303
并州	-11.0342
張說	-11.0348
元豐中	-11.0359
應詔	-11.036
極目	-11.0361
陸放翁詩	-11.037
賸	-11.0373
早春	-11.0378
璽	-11.0379
人舉進士	-11.038
曝	-11.038
涪	-11.038
詩林萬選	-11.0381
紅兒	-11.0382
遏	-11.0383
盻	-11.0384
欽定四庫全書集部九	-11.0384
禀	-11.0384
頲	-11.0385
綰	-11.0385
甄	-11.0385
萬嵗	-11.0386
淒	-11.0386
拓	-11.0386
彛	-11.0386
蔕	-11.0387
舡	-11.0388
姝	-11.0389
匈奴	-11.039
藹	-11.039
撮	-11.039
羔	-11.039
薊	-11.0391
哥	-11.0391
唐子西	-11.0391
人不識	-11.0391
琮	-11.0394
華清宫	-11.0394
御溝	-11.0397
僖宗	-11.0399
蘇子美	-11.0399
王昌齡	-11.0404
紫宸	-11.0405
中宵	-11.0407
情性	-11.0407
崇安	-11.041
日夕	-11.0412
承㫖	-11.0415
駿馬	-11.0415
此二句	-11.0423
元祐初	-11.0428
少保	-11.0431
賓客	-11.0443
館閣	-11.0444
待詔	-11.0454
酒醒	-11.0456
康節	-11.0456
洪武	-11.046
千峯	-11.048
聮句	-11.0493
衡州	-11.0511
德宗	-11.0513
魏野	-11.0516
意味	-11.0517
往還	-11.0518
諺云	-11.0519
京華	-11.052
短長	-11.0529
一株	-11.053
永嘉人	-11.0533
何䖏	-11.0542
歲月	-11.055
庚申	-11.0554
洶	-11.0556
汶	-11.0557
芸	-11.0558
滓	-11.0562
楞	-11.0562
紇	-11.0563
濮	-11.0563
聾	-11.0563
劭	-11.0564
糞	-11.0565
鶩	-11.0565
聨句	-11.0566
詫	-11.0566
閟	-11.0567
涌	-11.0568
賽	-11.0568
黏	-11.0568
剔	-11.0568
欽定四庫全書漁隱叢話前集巻	-11.0568
吼	-11.0568
襦	-11.0569
碾	-11.0569
髩	-11.0569
花蘂夫人	-11.057
厮	-11.057
瘡	-11.057
舫	-11.057
漬	-11.0571
弋	-11.0571
禰衡	-11.0571
誘	-11.0572
苓	-11.0573
瞿	-11.0573
爱	-11.0574
攅	-11.0575
摸	-11.0576
轆轤	-11.0576
殘紅	-11.0579
隈	-11.058
𤨏	-11.0581
榕	-11.0582
杓	-11.0584
楊誠齋	-11.0584
終篇	-11.0588
厺	-11.0593
山頂	-11.0593
王建宫詞	-11.0596
字彦	-11.0609
景純	-11.061
峴山	-11.0611
羽毛	-11.0611
語錄	-11.062
沈沈	-11.062
傾城	-11.062
夜宿	-11.0621
左司	-11.0623
承恩	-11.063
赤松	-11.0647
夫婦	-11.0649
熟讀	-11.0666
流俗	-11.0677
其姓名	-11.0677
無愧	-11.0691
渡河	-11.0696
忽驚	-11.0698
五品	-11.0705
第六	-11.0707
濟南	-11.0721
淺深	-11.0721
形似	-11.0744
攘	-11.0745
蠡	-11.0745
柘枝	-11.0746
白骨	-11.0746
稹	-11.0746
顚	-11.0747
洙	-11.0748
帬	-11.0749
愔	-11.0749
級	-11.075
楫	-11.075
肻	-11.0751
嵒	-11.0751
幣	-11.0752
聶	-11.0752
串	-11.0752
蹴	-11.0752
鏁	-11.0753
泠泠	-11.0754
何遜	-11.0755
泌	-11.0755
吠	-11.0756
幙	-11.0756
汩	-11.0756
沫	-11.0756
夢裏	-11.0756
禊	-11.0757
太常博士	-11.0758
詩一首	-11.0759
扄	-11.076
閽	-11.076
撾	-11.0762
籙	-11.0762
廽	-11.0764
娱	-11.0764
逗	-11.0766
万	-11.077
奉詔	-11.0771
文潞公	-11.0771
夢寐	-11.0771
旂	-11.0771
磊落	-11.0773
漫漫	-11.0774
聲調	-11.078
男女	-11.0784
晦翁	-11.0785
故其詩	-11.0785
漫錄	-11.0789
韋莊	-11.0791
第二句	-11.0794
公誌	-11.0795
益州	-11.0796
升堂	-11.0806
王右丞	-11.0811
召試	-11.0818
諸賢	-11.082
吉州	-11.0822
桃葉	-11.083
夏侯	-11.0833
表聖	-11.0848
煙波	-11.0852
隴西	-11.0855
表裏	-11.0856
行役	-11.0859
武侯	-11.086
細細	-11.0876
張説	-11.0894
近代	-11.0898
杯酒	-11.0904
如練	-11.0906
京城	-11.0907
蔥	-11.0919
北固	-11.0923
尚書郎	-11.0927
前賢小集拾	-11.093
亶	-11.0935
桐江詩話	-11.0935
駟	-11.0936
膾炙人口	-11.0936
殻	-11.0936
㤀	-11.0939
﨑嶇	-11.0939
道傍	-11.094
炷	-11.0941
吏部尚書	-11.0941
鉞	-11.0942
塋	-11.0942
摯	-11.0943
債	-11.0943
灞	-11.0943
稔	-11.0944
娃	-11.0944
貔	-11.0945
黄常明	-11.0946
阡	-11.0947
咸平	-11.0948
泳	-11.0948
囿	-11.095
㤙	-11.0951
洞霄宫	-11.0953
韓翃	-11.0953
令狐楚	-11.0953
麻姑	-11.0955
燼	-11.0955
褭	-11.0956
蒨	-11.0956
郵亭	-11.0958
元㣲之	-11.0958
五侯	-11.096
招魂	-11.0962
鯉魚	-11.0964
大暦	-11.0973
露布	-11.0975
數枝	-11.0978
太息	-11.098
后土	-11.0981
蔡京	-11.0981
牝	-11.0983
横斜	-11.0987
樽酒	-11.0988
潛夫	-11.099
瓊花	-11.0993
文忠公	-11.0995
瑶池	-11.0998
今宵	-11.1014
疎影	-11.1016
醉眠	-11.1018
蘇武	-11.1027
碧桃	-11.1029
萬丈	-11.1031
太虚	-11.1032
歌扇	-11.1037
陳迹	-11.1039
南岳	-11.105
九霄	-11.1071
退居	-11.108
口號	-11.109
獨步	-11.1092
慨	-11.1105
殘陽	-11.1113
滿眼	-11.1114
格調	-11.1116
莘	-11.1119
訂	-11.1128
唐音癸籖巻	-11.1129
苕溪漁隱叢話	-11.1129
皁	-11.113
槖	-11.1131
訕	-11.1132
葫蘆	-11.1132
傚	-11.1133
攲	-11.1133
詩其源出於	-11.1134
熙寜	-11.1134
徂	-11.1134
掀	-11.1134
摛	-11.1135
吏部侍郎	-11.1135
撑	-11.1135
淋漓	-11.1135
觜	-11.1135
茘枝	-11.1136
覿	-11.1136
瞳	-11.1136
瓘	-11.1136
迸	-11.1136
蜻	-11.1136
孟東野	-11.1137
泄	-11.1137
自成一家	-11.1137
岱	-11.1139
球	-11.114
潘子真詩話	-11.114
曄	-11.1141
桑柘	-11.1142
沓	-11.1143
司馬温公	-11.1143
棣	-11.1144
亹	-11.1144
范蠡	-11.1145
困學紀聞	-11.1146
烱	-11.1149
司農	-11.115
烏鬼	-11.1151
烏鵲	-11.1152
總龜	-11.1156
岳陽樓	-11.1157
年六十	-11.1161
僧孺	-11.1163
召還	-11.1166
經綸	-11.1169
沉沉	-11.1176
悲壯	-11.1181
參政	-11.1185
長嘯	-11.1195
也復齋漫録云	-11.1199
詩亦云	-11.1201
酒杯	-11.1206
詠懐	-11.1213
屈宋	-11.1213
明月照	-11.1217
願君	-11.1241
白鹿	-11.1247
北闕	-11.1267
東萊	-11.1269
淮南子	-11.1271
峴	-11.1282
廣韻	-11.1291
元夕	-11.1313
遥知	-11.1315
茅山	-11.1318
喝	-11.1319
駝	-11.1323
子規	-11.1324
歿	-11.1324
躑躅	-11.1325
丕	-11.1325
颯	-11.1326
戸部	-11.1326
湄	-11.1326
犂	-11.1326
觥	-11.1326
凜	-11.133
邃	-11.133
崛	-11.1331
王弇州	-11.1332
晁無咎	-11.1332
脆	-11.1332
稗	-11.1333
覈	-11.1334
鯽	-11.1335
鐃	-11.1335
虎豹	-11.1335
飡	-11.1336
揮毫	-11.1337
擣	-11.1337
笞	-11.1337
蹉跎	-11.1338
團扇	-11.1339
鑪	-11.1339
杜工部	-11.134
濳	-11.134
瘧	-11.134
繚	-11.134
鄜	-11.134
緫	-11.1341
欒	-11.1341
賀知章	-11.1341
然後知	-11.1343
集附	-11.1345
悄	-11.1347
鷰	-11.1347
偶題	-11.1347
弟兄	-11.1353
燕雀	-11.1356
蕭何	-11.1359
曹植	-11.1362
宏詞	-11.1367
王勃	-11.137
紙筆	-11.1376
流涕	-11.1383
車駕	-11.1384
太學生	-11.1385
裴度	-11.1388
忘機	-11.1392
三百年	-11.1393
㸃化	-11.1397
茫然	-11.1399
維摩	-11.1399
祭酒	-11.1415
昌齡	-11.1416
浙江	-11.1454
别業	-11.1472
數里	-11.1495
曹劉	-11.1507
菩薩	-11.1521
􁁊	-11.1526
暎	-11.1526
茸	-11.1528
泯	-11.1529
槍	-11.1529
訶	-11.1529
謂此也	-11.153
軋	-11.153
壚	-11.1531
茲	-11.1531
祓	-11.1532
屣	-11.1532
禾黍	-11.1533
絢	-11.1533
工部尚書	-11.1534
小草齋	-11.1534
貲	-11.1534
斃	-11.1535
麋鹿	-11.1536
幔	-11.1536
逆旅	-11.1536
猥	-11.1537
皇甫冉	-11.1537
䜛	-11.1538
皋	-11.1538
盪	-11.1539
汁	-11.1539
縳	-11.1539
埀	-11.1539
曳	-11.1539
䰟	-11.154
弘	-11.1541
矧	-11.1542
霹	-11.1543
譴	-11.1544
訥	-11.1544
廊廟	-11.1546
蹲	-11.1546
蘇子由	-11.1546
䖝	-11.1547
迁	-11.1548
嘲之曰	-11.1549
邨	-11.1549
郊祀	-11.1549
林逋	-11.1553
司馬遷	-11.1556
鴻鴈	-11.156
九鎖	-11.1561
章子厚	-11.1562
浙西	-11.1564
嚴維	-11.1564
䂬溪詩話	-11.1567
杜宇	-11.1573
李嘉祐	-11.1573
玉簫	-11.1576
忠孝	-11.1579
倚樓	-11.1589
連珠	-11.1612
隱隱	-11.1623
汝隂	-11.1637
嘉興	-11.1642
宛然	-11.1643
中秋月	-11.1659
為人所	-11.1673
嘉祐中	-11.1683
絲竹	-11.1687
實録	-11.1713
始覺	-11.1716
錦江	-11.1717
煜	-11.1718
許昌	-11.1721
王禹玉	-11.1724
籜	-11.1725
茹	-11.1729
王安石	-11.173
嶷	-11.173
洵	-11.1731
菰	-11.1731
嚮	-11.1731
秣	-11.1731
泚	-11.1731
勛	-11.1732
筌	-11.1733
籖	-11.1733
厦	-11.1734
僞	-11.1734
鶉	-11.1734
曛	-11.1735
鞦韆	-11.1735
襖	-11.1737
企	-11.1737
扆	-11.1738
瑰	-11.1739
塚	-11.174
逶迤	-11.174
錬	-11.174
稠	-11.1742
冐	-11.1742
磧	-11.1742
琦	-11.1743
宋景文	-11.1745
献	-11.1745
莒	-11.1745
瑾	-11.1746
幌	-11.1746
亊	-11.1749
九齡	-11.175
挿	-11.1751
伊尹	-11.1752
牧童	-11.1754
咲	-11.1754
系述	-11.1756
水濵	-11.1761
呉越	-11.1761
第七	-11.1765
銀燭	-11.1773
秦淮	-11.1775
脩竹	-11.1777
伯夷	-11.1803
鳥啼	-11.1806
方丈	-11.1816
范陽	-11.1825
精切	-11.1827
兩浙	-11.1856
不羈	-11.1861
寸心	-11.1864
兒孫	-11.1866
避地	-11.1867
互相	-11.1879
元亮	-11.1885
虎頭	-11.1886
潞公	-11.193
舶	-11.1932
沅	-11.1932
榴	-11.1933
聲畫集	-11.1933
甸	-11.1934
婁	-11.1934
詩林廣記	-11.1934
榦	-11.1936
俳	-11.1936
能改齋漫録	-11.1936
提刑	-11.1938
豚	-11.1939
揮麈	-11.1939
渺渺	-11.1939
瀟灑	-11.194
冡	-11.1941
夷堅志	-11.1941
豺	-11.1941
剽	-11.1942
湮	-11.1943
陸士衡	-11.1943
玷	-11.1945
燾	-11.1945
燄	-11.1945
竽	-11.1945
两句	-11.1947
寥寥	-11.1947
処	-11.1947
咄	-11.1947
文心雕龍	-11.1948
愿	-11.1948
㪚	-11.1949
憇	-11.195
葆	-11.195
脅	-11.195
揔	-11.1952
囯	-11.1956
東甌	-11.1957
細腰	-11.1959
曆	-11.196
秉燭	-11.1961
皇太子	-11.1961
疇昔	-11.1961
么	-11.1962
孔融	-11.1962
雍容	-11.1965
扶桑	-11.197
青箱	-11.1973
恰似	-11.1973
鴻漸	-11.1978
畫像	-11.1982
馮夷	-11.1989
偶談	-11.1994
䕫州	-11.1999
落暉	-11.2
翠屏	-11.2005
翠㣲	-11.2009
周旋	-11.2017
聯句	-11.2024
孤村	-11.2027
良久	-11.2032
幽谷	-11.2052
主司	-11.2067
盧氏	-11.2067
謫官	-11.2069
婺州	-11.2099
糖	-11.2135
齧	-11.2136
燧	-11.2138
簽	-11.2139
鸕鷀	-11.2143
泓	-11.2145
件	-11.2145
斸	-11.2146
紐	-11.2148
嫋	-11.2148
眩	-11.215
顥	-11.2151
嘉禾	-11.2151
芮	-11.2151
蒯	-11.2152
抒	-11.2152
瀟	-11.2152
槁	-11.2153
譯	-11.2153
缾	-11.2154
袋	-11.2154
辜	-11.2154
苧	-11.2155
繒	-11.2155
緜	-11.2156
薔薇	-11.2157
亘	-11.2157
麽	-11.2158
張子野	-11.2158
皇甫湜	-11.2159
豊	-11.2159
竹莊詩話巻	-11.216
翕	-11.2161
賂	-11.2161
㵼	-11.2162
筐	-11.2163
壙	-11.2163
怏	-11.2165
酴醿	-11.2165
陸龜䝉	-11.2166
翛然	-11.2167
羿	-11.2167
稽首	-11.2173
教坊	-11.2176
今何在	-11.2184
中央	-11.2185
挽歌	-11.2189
司户	-11.219
擊節	-11.2195
結廬	-11.2199
君謨	-11.2235
兩鬢	-11.2255
愁殺	-11.2267
滁州	-11.2274
重疊	-11.2293
神宗朝	-11.2295
霄漢	-11.2298
曰朕	-11.2311
夜話	-11.2318
茨	-11.2364
劄	-11.2365
帚	-11.2365
李伯時	-11.2367
鮫	-11.2367
邏	-11.2367
懋	-11.2369
箠	-11.2369
罅	-11.2369
湫	-11.2369
澣	-11.237
塟	-11.237
潘邠老	-11.237
坂	-11.237
楨	-11.2372
偁	-11.2372
啖	-11.2373
懇	-11.2374
眄	-11.2375
窣	-11.2377
塊	-11.2378
騎驢	-11.2378
罹	-11.2378
靨	-11.2378
荆棘	-11.2379
盈盈	-11.2379
慈恩寺	-11.2379
刁	-11.2381
巉	-11.2382
蘖	-11.2382
所據	-11.2382
姢	-11.2383
嗚咽	-11.2384
詩眼云	-11.2385
愽	-11.2386
淳化	-11.2387
查	-11.2387
渌	-11.2388
櫟	-11.2388
學林新編	-11.2388
㫁腸	-11.2389
祥符	-11.2389
慱	-11.2394
琚	-11.2395
靖節	-11.2397
金鑾	-11.2399
畫屏	-11.2402
彈琴	-11.2404
檀弓	-11.2405
李翺	-11.2405
露滴	-11.2411
漁隱	-11.2412
懐抱	-11.2424
清濁	-11.2433
蕭散	-11.2433
樽前	-11.2437
南嶽	-11.2443
百戰	-11.2464
朱顔	-11.2473
兵火	-11.2478
殆不可	-11.2486
問其故	-11.2516
許彦周詩話	-11.2539
後漢書	-11.2573
臞	-11.2579
酺	-11.258
綦	-11.2582
毘陵	-11.2584
襯	-11.2586
种	-11.2586
楮	-11.2586
丑	-11.2589
知貢舉	-11.259
琅玕	-11.259
珏	-11.259
攽	-11.2591
抝	-11.2592
詁	-11.2592
鰲	-11.2592
國子監	-11.2592
輞川	-11.2594
燥	-11.2594
緝	-11.2595
甃	-11.2595
兵部侍郎	-11.2595
漉	-11.2595
欸	-11.2596
汪彦章	-11.2596
皎皎	-11.2596
吁嗟	-11.2596
滕王閣	-11.2596
香奩集	-11.2596
港	-11.2597
詩案云	-11.2597
灼灼	-11.2599
崗	-11.2599
綻	-11.2599
浩浩	-11.26
猛虎	-11.26
舩	-11.26
瘠	-11.26
椎	-11.2601
釣磯	-11.2601
李商隱	-11.2601
盌	-11.2602
彧	-11.2602
朝散大夫	-11.2603
氲	-11.2603
菁	-11.2604
蠙	-11.2605
殿中侍御史	-11.2606
顒	-11.2606
縞	-11.2608
駟馬	-11.2614
都督	-11.2619
登進士第	-11.2621
漚	-11.2622
伉	-11.2623
鳥獸	-11.2623
叢談	-11.2627
西域	-11.2633
支離	-11.2634
媵	-11.2635
延夀	-11.2642
大滌	-11.2645
婺	-11.2654
堯夫	-11.2656
黄雀	-11.2672
可謂善	-11.2679
感歎	-11.2682
咸通中	-11.2685
苕溪漁隱曰余	-11.2732
千頃	-11.2733
後山詩話	-11.2778
君墓誌銘右誌	-11.2789
畬	-11.2807
鼙	-11.2814
禁臠	-11.2815
陳去非	-11.2816
𣲖	-11.2816
穰	-11.2817
羯	-11.2818
迓	-11.2819
霰	-11.2821
恪	-11.2822
等謹案	-11.2822
躭	-11.2823
擾擾	-11.2823
獅	-11.2823
驃	-11.2823
蠏	-11.2823
萎	-11.2823
籀	-11.2823
溧	-11.2824
澀	-11.2825
珥	-11.2825
捲簾	-11.2827
隱居詩話云	-11.2827
糓	-11.2829
盎	-11.283
樗	-11.2831
燦	-11.2831
禇	-11.2832
濓	-11.2832
媪	-11.2832
勺	-11.2832
楊升庵	-11.2833
嚬	-11.2833
譌	-11.2836
鮑昭	-11.2837
集賢院	-11.2838
左拾遺	-11.2838
豪傑	-11.2839
嘆息	-11.2841
梳洗	-11.2842
泮	-11.2845
想像	-11.2848
陜西	-11.2848
鄂州	-11.285
扈從	-11.285
藍田	-11.2856
雎	-11.2857
弱冠	-11.2859
筆硯	-11.2861
靈均	-11.2864
太傅	-11.2872
群臣	-11.2875
湖湘	-11.2877
紫㣲	-11.2888
太夫人	-11.289
韓文公	-11.289
籬落	-11.2895
七尺	-11.2916
釋氏	-11.2955
觀此則	-11.2958
評論	-11.2983
沾衣	-11.3015
祠部	-11.3034
仁宗朝	-11.3039
啞	-11.3044
鍇	-11.3046
同中書門下平章事	-11.3046
緬	-11.3047
荔支	-11.3047
蟾蜍	-11.3047
竹坡詩話	-11.3048
廷珪	-11.305
饋	-11.3051
詩文評類提要	-11.3052
荔	-11.3052
瀛洲	-11.3053
衿	-11.3054
嚶	-11.3054
逓	-11.3054
苜蓿	-11.3055
錐	-11.3055
爍	-11.3055
煌煌	-11.3056
玠	-11.3056
閎	-11.3056
匱	-11.3056
隼	-11.3058
幘	-11.3058
詬	-11.3058
吕氏童䝉訓	-11.3058
衒	-11.3058
瞿塘	-11.3059
溶溶	-11.306
雷霆	-11.306
鐺	-11.306
螯	-11.306
蝨	-11.3061
跌	-11.3061
祝融	-11.3062
穿鑿	-11.3063
增修詩話總龜卷之	-11.3064
工部侍郎	-11.3064
苒	-11.3064
篇什	-11.3065
肌膚	-11.3066
抔	-11.3068
㓗	-11.3068
堯佐	-11.3069
子規啼	-11.3069
曺	-11.307
李煜	-11.3071
張九齡	-11.3072
貫穿	-11.3072
沈彬	-11.3073
展轉	-11.3073
庭筠	-11.3077
韓幹	-11.3082
指揮	-11.3083
百餘篇	-11.3084
綺麗	-11.3086
宣撫	-11.3088
折腰	-11.3089
諫議	-11.3094
太保	-11.3098
西涯	-11.3099
三昧	-11.3101
市井	-11.3102
金粟	-11.3121
建寧	-11.3128
揺落	-11.3269
攢	-11.3279
芰	-11.3281
偃蹇	-11.3282
椿	-11.3282
郇	-11.3284
懌	-11.3287
嶧	-11.3287
穗	-11.3289
丁晉公	-11.3289
輭	-11.329
魔	-11.329
郝	-11.329
刷	-11.3291
寖	-11.3292
箵	-11.3292
療	-11.3292
踪	-11.3293
昱	-11.3293
猱	-11.3293
廨	-11.3293
爺	-11.3293
鍾嶸	-11.3293
婆娑	-11.3293
宕	-11.3293
豳	-11.3295
金石例	-11.3295
艮	-11.3295
糊	-11.3295
卭	-11.3296
會稽	-11.3296
泝	-11.3297
赭	-11.3297
潰	-11.3298
鐙	-11.3298
悴	-11.3298
錦瑟	-11.3299
無名子	-11.3299
腔	-11.33
佯	-11.33
頡	-11.3301
欝	-11.3301
蜀道難	-11.3301
㢘	-11.3303
醺	-11.3303
白紵	-11.3306
劃	-11.3306
募	-11.3306
縂	-11.3306
嘘	-11.3307
御史大夫	-11.3307
水晶宫	-11.3308
箏	-11.3308
闇	-11.3309
禍福	-11.331
小艇	-11.3329
希逸	-11.3333
靈芝	-11.3336
爽氣	-11.3344
萬斛	-11.3346
桑田	-11.3348
柰何	-11.3348
食肉	-11.3363
貴賤	-11.3447
礬	-11.3519
羶	-11.3523
望夫石	-11.3527
浹	-11.3529
釁	-11.353
謝康樂	-11.3531
滚	-11.3531
裊	-11.3532
齊東野語	-11.3532
檠	-11.3533
駮	-11.3533
孱	-11.3533
磔	-11.3534
躅	-11.3534
嗚	-11.3534
愆	-11.3535
蚌	-11.3535
暌	-11.3535
嵯峨	-11.3535
揀	-11.3536
入黨籍	-11.3536
圯	-11.3538
櫻	-11.3538
瀬	-11.3538
酪	-11.3538
瀨	-11.3539
嘔	-11.354
著作郎	-11.354
形骸	-11.354
𦂳	-11.354
曖	-11.354
篔	-11.3541
溶	-11.3541
滔滔	-11.3541
吕氏春秋	-11.3541
梟	-11.3541
詩家鼎臠	-11.3542
葑	-11.3542
李山甫	-11.3542
薜蘿	-11.3542
月蝕詩	-11.3543
騖	-11.3543
遑	-11.3544
鵩	-11.3544
玳瑁	-11.3544
軍節度使	-11.3544
骰	-11.3545
苟	-11.3546
愠	-11.3547
巍	-11.3547
芹	-11.3548
紹熙	-11.3548
貟外	-11.3548
顔師古	-11.3549
團團	-11.3549
典刑	-11.3549
耦	-11.3549
秦少㳺	-11.3552
朅來	-11.3554
栢梁	-11.3557
重複	-11.3562
無恙	-11.3562
水經注	-11.3563
諱某	-11.3564
阿母	-11.3572
逢吉	-11.3575
鞍馬	-11.3576
紹定	-11.3578
種種	-11.3587
屈指	-11.3587
元豐間	-11.3589
徽宗朝	-11.3692
歐陽修	-11.372
肚	-11.3775
潺潺	-11.3777
米元章	-11.3778
慳	-11.3778
閃	-11.3779
僉	-11.3779
晡	-11.3779
巍巍	-11.378
蒲萄	-11.378
癯	-11.3781
瀟瀟	-11.3782
蛛	-11.3783
瞥	-11.3783
坼	-11.3783
詵	-11.3784
飼	-11.3784
瑒	-11.3784
大中祥符	-11.3785
擷	-11.3785
莆	-11.3785
攪	-11.3785
未知孰是	-11.3786
圜	-11.3787
藿	-11.3787
懦	-11.3787
媛	-11.3787
糾	-11.3787
諍	-11.3788
畹	-11.3788
需	-11.3788
祕書監	-11.3789
筮	-11.379
隷	-11.379
餒	-11.379
黠	-11.379
李頎	-11.3791
炫	-11.3791
楊升菴云	-11.3791
酤	-11.3791
峡	-11.3793
杜審言	-11.3793
復齋漫錄云	-11.3793
濛濛	-11.3794
讃	-11.3795
酉陽雜爼	-11.3795
潼闗	-11.3797
蟋蟀	-11.38
垍	-11.3801
千仞	-11.3802
蛩	-11.3803
葛常之	-11.3803
暝色	-11.3804
耒陽	-11.3805
丹竈	-11.3806
禹貢	-11.3806
淹留	-11.3811
瑟瑟	-11.3816
蒼崖	-11.3818
優游	-11.3818
悵然	-11.3823
良辰	-11.3831
卒諡文	-11.3887
進士及第	-11.3926
卒諡	-11.3946
暦	-11.4025
臠	-11.4026
妒	-11.4035
暘	-11.4037
耗	-11.4037
装	-11.4037
甎	-11.4037
褥	-11.4038
烘	-11.4038
汰	-11.4038
森森	-11.4038
猩猩	-11.404
呀	-11.404
穉	-11.4041
芾	-11.4041
荇	-11.4041
准	-11.4041
棐	-11.4042
泫	-11.4042
肴	-11.4042
孩	-11.4043
听	-11.4043
筑	-11.4044
躋攀	-11.4044
箸	-11.4044
汨	-11.4045
夢溪筆談	-11.4046
綏	-11.4046
南部新書	-11.4047
裊裊	-11.4047
窈	-11.4047
門下侍郎	-11.4048
膾	-11.4048
京兆尹	-11.4049
纎纎	-11.4049
鹹	-11.405
陸費墀欽定四庫全書	-11.405
珂	-11.405
无咎	-11.4051
軼	-11.4051
剏	-11.4051
堞	-11.4051
欄干	-11.4051
斍	-11.4052
䋲	-11.4052
甲乙	-11.4052
爛漫	-11.4052
閹	-11.4053
柟	-11.4053
徼	-11.4053
纜	-11.4053
兖	-11.4054
淘	-11.4054
孕	-11.4054
稗史	-11.4054
佀	-11.4055
暾	-11.4055
弛	-11.4056
涸	-11.4058
陳無巳	-11.4059
匀	-11.406
醮	-11.4063
榕隂	-11.4067
离	-11.4069
苕溪漁隱曰東坡	-11.4074
世系	-11.4077
柳絮	-11.4078
月泉吟社第	-11.4093
十九年	-11.4105
萬年枝	-11.4129
採蓮	-11.4182
劫	-11.429
糜	-11.4291
鞵	-11.4293
呻	-11.4296
老學菴筆記	-11.4296
謝無逸	-11.4298
惲	-11.4299
繳	-11.43
菌	-11.43
駘	-11.4301
娟娟	-11.4303
蛤	-11.4303
㐮	-11.4304
培	-11.4304
罩	-11.4305
盲	-11.4305
跛	-11.4305
鞅	-11.4306
澥	-11.4307
橘柚	-11.4307
殞	-11.4307
崐	-11.4307
焰	-11.4307
澠水燕談	-11.4308
婿	-11.4308
漁隱叢話後集巻	-11.4308
不知何許人	-11.4308
蒹葭	-11.4308
撩	-11.4308
斐	-11.4309
詩押二	-11.431
冺	-11.431
元遺山	-11.4311
瑗	-11.4311
苛	-11.4312
覬	-11.4313
𥙿	-11.4313
㡳	-11.4313
㝡	-11.4313
咨嗟	-11.4313
楊巨源	-11.4313
礼	-11.4314
博物志	-11.4314
芷	-11.4314
顔延年	-11.4314
紂	-11.4314
瞞	-11.4315
别墅	-11.4315
舟楫	-11.4315
冨貴	-11.4316
瀧	-11.4317
長恨歌	-11.4317
寝	-11.4318
苔蘚	-11.4318
軒轅	-11.432
韓吏部	-11.432
䏻	-11.4321
煎茶	-11.4322
籥	-11.4322
罘罳	-11.4322
綿綿	-11.4323
延祐	-11.4324
梁簡文	-11.433
懿宗	-11.4338
曹操	-11.434
不多見	-11.4364
馬嘶	-11.4402
潞	-11.4539
端明殿學士	-11.4563
棱	-11.4564
棨	-11.4568
揄	-11.4569
晟	-11.4569
袒	-11.457
合璧事類	-11.4571
室中語	-11.4571
澦	-11.4571
元次山	-11.4572
虫	-11.4573
周益公	-11.4573
禆	-11.4573
戎昱	-11.4573
涴	-11.4573
玻	-11.4574
裒	-11.4574
莆陽	-11.4574
菡	-11.4575
嘻	-11.4575
晁以道	-11.4575
儲光羲	-11.4576
湓	-11.4576
懲	-11.4576
塵寰	-11.4576
睢	-11.4577
蹋	-11.4577
岌	-11.4578
肢	-11.4578
璨	-11.4579
熾	-11.4579
膾炙	-11.4579
翬	-11.4579
樷	-11.458
桐廬	-11.458
平章事	-11.4581
鄭毅夫	-11.4581
塍	-11.4581
釋褐	-11.4582
麑	-11.4582
惋	-11.4582
撓	-11.4582
隳	-11.4582
殫	-11.4582
蔡元長	-11.4582
懃	-11.4583
娉婷	-11.4586
㺯	-11.4586
騏	-11.4587
擅塲	-11.4587
笄	-11.4588
括蒼	-11.4588
閶	-11.4589
逖	-11.4589
丹鉛	-11.459
鳳翔	-11.4591
戴叔倫	-11.4592
枚乗	-11.4594
馳騁	-11.4594
珎	-11.4596
眉黛	-11.4598
丘壑	-11.4598
俯視	-11.4601
孽	-11.4601
盧綸	-11.4602
黃昏	-11.4605
錦囊	-11.4606
宗朝累官	-11.4614
剡溪	-11.4617
年月日	-11.465
竹枝詞	-11.4683
理宗朝	-11.4712
半夜鐘	-11.4751
漫叟詩話	-11.4804
輈	-11.4841
仆	-11.4846
鍼	-11.4847
娼	-11.4848
螻	-11.4848
橐	-11.4849
郞	-11.4849
文苑英華	-11.485
未第時	-11.485
鸛	-11.485
顗	-11.4852
太學博士	-11.4852
饕	-11.4853
東軒筆録	-11.4853
矮	-11.4855
譁	-11.4856
覯	-11.4856
佺	-11.4857
宓	-11.4857
侑	-11.4857
宥	-11.4857
一篇押二	-11.4857
抃	-11.4858
沿襲	-11.4858
螟	-11.4858
煌	-11.4858
溉	-11.4858
郡閣雅談	-11.4859
鍳	-11.4859
枯槁	-11.486
悍	-11.4861
駙馬	-11.4862
睛	-11.4862
榿	-11.4863
蝉	-11.4864
瓦礫	-11.4864
蹔	-11.4865
蚩	-11.4866
武元衡	-11.4867
𥙷闕	-11.487
滄波	-11.4873
項斯	-11.4874
裕陵	-11.4874
利害	-11.4875
憂患	-11.4876
杏園	-11.4881
蜺	-11.4882
淚痕	-11.4897
河南府	-11.5011
第二十	-11.5016
苕溪漁隠	-11.5101
罄	-11.5131
輟耕	-11.5131
范石湖	-11.5132
淇	-11.5132
灾	-11.5133
刮	-11.5133
麋	-11.5134
妣	-11.5134
嵌	-11.5134
磵	-11.5134
垠	-11.5134
个	-11.5135
紘	-11.5135
鑣	-11.5136
肈	-11.5136
釡	-11.5136
段成式	-11.5137
建中靖國	-11.5138
臨淄	-11.5138
𦍑	-11.5138
廿	-11.5139
韈	-11.5139
陲	-11.5139
桑榆	-11.514
嗅	-11.5141
沱	-11.5141
拏	-11.5141
腋	-11.5141
呑	-11.5141
儕	-11.5141
晉江人	-11.5141
虯	-11.5142
蕊	-11.5142
輓	-11.5142
唐彦謙	-11.5142
甍	-11.5142
鈆	-11.5143
廐	-11.5143
厠	-11.5144
李徳裕	-11.5144
柩	-11.5144
璇	-11.5144
蒂	-11.5145
襃	-11.5145
蓍	-11.5145
諮	-11.5145
闡	-11.5145
淅	-11.5146
瀼	-11.5146
弹	-11.5146
楠	-11.5146
瘁	-11.5147
啣	-11.5147
虱	-11.5147
萬仞	-11.5148
囑	-11.5148
禅	-11.5148
兇	-11.5149
隲	-11.5149
葭	-11.5149
峯巒	-11.515
■	-11.515
蓂	-11.515
変	-11.5151
負薪	-11.5151
愬	-11.5152
纍纍	-11.5153
五臣注	-11.5153
趙嘏	-11.5154
鑾輿	-11.5157
甘棠	-11.5158
楊亷夫	-11.5159
柴桑	-11.5161
慎勿	-11.5162
大明宫	-11.5166
滁	-11.5265
蜩	-11.5397
芙蕖	-11.542
䲭	-11.542
晃	-11.5421
讜	-11.5422
彞	-11.5424
帕	-11.5424
缶	-11.5426
杖屨	-11.5427
東臯雜録云	-11.5428
䆳	-11.5428
遡	-11.5428
飴	-11.5428
碍	-11.543
王直方	-11.5431
繕	-11.5431
鑱	-11.5431
闐	-11.5431
稳	-11.5433
鄆	-11.5433
刳	-11.5433
轄	-11.5433
跂	-11.5434
廩	-11.5434
代吟譜	-11.5434
瓚	-11.5434
鏐	-11.5435
安樂公主	-11.5435
笈	-11.5435
警策	-11.5435
怠	-11.5436
朂	-11.5436
州安置	-11.5436
秦始皇	-11.5436
周世宗	-11.5437
兠	-11.5437
殄	-11.5437
慄	-11.5437
簾櫳	-11.5437
毳	-11.5437
悰	-11.5438
孑	-11.5438
呪	-11.5438
汲汲	-11.5438
挫	-11.5439
訾	-11.5439
梁元帝	-11.5439
户部侍郎	-11.5439
齎	-11.544
散騎常侍	-11.544
踟蹰	-11.544
縹	-11.5441
隰	-11.5442
嫵	-11.5442
陳子昻	-11.5442
琬	-11.5442
侶	-11.5443
熊羆	-11.5443
􁊨	-11.5446
鵷	-11.5447
冠冕	-11.5447
淼	-11.5448
颭	-11.5448
𣑽	-11.5448
謝𤣥暉	-11.5451
霓裳羽衣曲	-11.5452
糕	-11.5452
脛	-11.5455
歐陽詹	-11.546
輟耕録	-11.5464
斗柄	-11.5482
欷	-11.5721
緡	-11.5721
賚	-11.5725
㮣	-11.5726
資政殿學士	-11.5727
躔	-11.5727
輅	-11.5727
五月五日	-11.5728
喘	-11.573
酹	-11.5731
賭	-11.5732
韭	-11.5732
明胡震亨撰	-11.5733
曬	-11.5734
䘏	-11.5734
痴	-11.5734
宝	-11.5735
菲	-11.5735
元厚之	-11.5735
砥	-11.5736
搥	-11.5736
聆	-11.5736
兵部尚書	-11.5736
春帖子	-11.5737
寞	-11.5737
綮	-11.5737
殉	-11.5737
寥廓	-11.5738
岧嶤	-11.5738
梔	-11.5738
槳	-11.5738
械	-11.5738
殤	-11.5738
汜	-11.5738
僭	-11.5739
哂	-11.574
妺	-11.574
狸	-11.574
粉黛	-11.574
咄咄	-11.574
乱	-11.574
虀	-11.5741
湊	-11.5741
駰	-11.5741
鯁	-11.5741
徇	-11.5742
雩	-11.5743
躓	-11.5743
靳	-11.5743
魅	-11.5743
凛凛	-11.5743
瑀	-11.5744
芟	-11.5744
纈	-11.5744
搢紳	-11.5746
蹀	-11.5746
捍	-11.5746
刑獄	-11.5747
姮娥	-11.5747
鍵	-11.5748
治平中	-11.5748
惚	-11.5748
褒貶	-11.575
撒	-11.575
行路難	-11.5752
癭	-11.5752
蓬瀛	-11.5752
屛	-11.5752
倐忽	-11.5752
坌	-11.5753
雌雄	-11.5754
攺	-11.5754
巴峽	-11.5754
羃	-11.5756
簾捲	-11.5792
仞	-11.6026
騣	-11.6035
賈似道	-11.6041
尭	-11.6041
販	-11.6041
駑	-11.6041
瞽	-11.6043
髭鬚	-11.6043
睥睨	-11.6043
陸魯望	-11.6043
壟	-11.6044
罘	-11.6044
瘞	-11.6044
煨	-11.6044
皦	-11.6046
復齋謾録	-11.6046
瑯	-11.6046
賞花釣魚	-11.6047
澧	-11.6048
郛	-11.6048
賀方回	-11.6049
半山老人	-11.6049
瞬	-11.6049
冽	-11.6049
塹	-11.6049
嬈	-11.6049
裛	-11.605
荣	-11.605
淋	-11.605
冥搜	-11.605
倐	-11.6051
獬	-11.6051
僣	-11.6052
錢昭度	-11.6052
𬋩	-11.6052
斡	-11.6052
撐	-11.6052
鷗鷺	-11.6052
墩	-11.6053
砑	-11.6053
桀	-11.6054
劉夣得	-11.6054
刑部侍郎	-11.6054
秫	-11.6054
翰府名談	-11.6055
帔	-11.6055
兾	-11.6055
庚戌	-11.6055
瓣	-11.6056
窅	-11.6056
釜	-11.6056
纊	-11.6057
辜負	-11.6058
匆匆	-11.6058
徉	-11.6059
左僕射	-11.6059
淂	-11.6059
嬖	-11.6059
㬰	-11.606
蔔	-11.606
摠	-11.606
紺	-11.606
蜕	-11.6061
努力	-11.6061
陔	-11.6061
橙	-11.6062
濁醪	-11.6062
酢	-11.6063
𫀆	-11.6064
㗸	-11.6064
帰	-11.6065
潘閬	-11.6066
峨眉	-11.6067
姫	-11.6069
譲	-11.6076
藝苑雌黄	-11.6328
闚	-11.634
苕溪漁隱	-11.6349
劉原父	-11.6358
廚	-11.6359
梅磵詩話	-11.636
伋	-11.636
謎	-11.6361
犁	-11.6361
垓	-11.6362
讖	-11.6365
怳	-11.6365
苴	-11.6366
鷲	-11.6369
毗	-11.6369
辛酉	-11.6369
軿	-11.637
辛丑	-11.6371
太常少卿	-11.6371
酩	-11.6371
袈裟	-11.6371
馗	-11.6372
謟	-11.6372
崔顥	-11.6372
駞	-11.6372
茆	-11.6372
潢	-11.6373
坰	-11.6373
癢	-11.6373
徨	-11.6373
韓侂胄	-11.6373
怖	-11.6374
東觀餘論	-11.6374
錯綜	-11.6374
圉	-11.6374
欎	-11.6375
頺	-11.6375
揉	-11.6375
鬪	-11.6375
禋	-11.6375
陸龜蒙	-11.6376
劈	-11.6376
二千石	-11.6376
濫觴	-11.6376
東西南北	-11.6376
譏誚	-11.6376
仝	-11.6376
豎	-11.6376
隍	-11.6377
蜃	-11.6377
劵	-11.6378
韓致光	-11.6378
鏃	-11.6378
產	-11.6379
脞	-11.6379
夤	-11.6379
蹶	-11.6379
顔延之	-11.6379
蘸	-11.6379
籹	-11.6381
西京雜記	-11.6382
大理評事	-11.6382
芊	-11.6382
篠	-11.6382
毗陵	-11.6383
騘	-11.6387
謪	-11.6388
彤管	-11.639
㘴	-11.6391
羗	-11.6396
夢英大師	-11.6684
直祕閣	-11.6686
瘞鶴銘	-11.6688
翃	-11.6689
沔	-11.669
茄	-11.6691
蛆	-11.6698
天慶觀	-11.6698
紛紜	-11.6699
廌	-11.6699
詡	-11.67
曽子固	-11.67
脾	-11.67
謐	-11.67
隧	-11.6701
癸丑	-11.6701
涓涓	-11.6701
蠲	-11.6702
縻	-11.6702
拄杖	-11.6702
蔭	-11.6702
櫺	-11.6703
嫣	-11.6703
詈	-11.6703
柿	-11.6703
甑	-11.6704
崧	-11.6705
濆	-11.6705
百家詩選	-11.6705
蓉	-11.6706
贔	-11.6706
購	-11.6706
陳文惠	-11.6706
晤	-11.6706
任天社云	-11.6706
嶮	-11.6706
蕖	-11.6706
乙丑	-11.6707
爇	-11.6707
葛常之韻語陽秋曰	-11.6707
拚	-11.6707
菰蒲	-11.6708
蹬	-11.6708
斑斑	-11.6708
稻粱	-11.6708
朅	-11.6708
涔	-11.6708
睫	-11.6709
𢾗	-11.6709
柝	-11.6709
撃	-11.6709
鮓	-11.671
鍜	-11.671
禺	-11.671
紓	-11.671
褁	-11.6711
司空曙	-11.6711
羹	-11.6711
俘	-11.6711
煤	-11.6711
旟	-11.6711
朦朧	-11.6712
臍	-11.6712
仭	-11.6713
綢繆	-11.6713
歘	-11.6714
𦙍	-11.6714
䌫	-11.6715
碌碌	-11.6715
霆	-11.6715
熹	-11.672
郄	-11.672
鍚	-11.6722
八哀詩	-11.6722
蛮	-11.6723
州别駕	-11.6735
股肱	-11.674
頎	-11.7031
中呉紀聞	-11.7032
髠	-11.7033
莢	-11.7034
襠	-11.7034
枰	-11.7035
䍦	-11.7039
呉郡志	-11.7042
攣	-11.7042
腮	-11.7042
簸	-11.7043
丰	-11.7044
溷	-11.7045
娟	-11.7045
峒	-11.7045
籌筆驛	-11.7045
糚	-11.7045
瀰	-11.7045
堠	-11.7046
驩	-11.7046
鱣	-11.7046
瑛	-11.7046
孥	-11.7047
慾	-11.7047
噱	-11.7047
僦	-11.7047
烝	-11.7048
礴	-11.7048
餽	-11.7048
諦	-11.7048
王審知	-11.7048
賄	-11.7049
合璧事類前集	-11.7049
梅堯臣	-11.705
掌書記	-11.705
楊文公談苑	-11.705
㳟	-11.7051
酈	-11.7051
粲粲	-11.7051
爼	-11.7051
王君玉	-11.7052
李德裕	-11.7052
脯	-11.7053
轢	-11.7053
忱	-11.7053
蜘蛛	-11.7053
継	-11.7053
描	-11.7054
韞	-11.7054
聒	-11.7055
緗	-11.7055
苕溪漁隠叢話	-11.7055
浥	-11.7055
綆	-11.7056
黷	-11.7056
悖	-11.7056
壹	-11.7056
赫赫	-11.7058
咀嚼	-11.7059
扳	-11.706
尽	-11.7061
馹	-11.7061
峥嶸	-11.7062
駸駸	-11.7063
菩薩蠻	-11.7063
狖	-11.7063
刈	-11.7063
躰	-11.7064
能改齋	-11.7064
芰荷	-11.7065
䍐	-11.7065
野客樷書	-11.7065
洮	-11.7066
詼諧	-11.7066
漱	-11.7067
拽	-11.7068
惨	-11.707
蕡	-11.707
滻	-11.707
李善注	-11.7085
箬	-11.7388
徊	-11.7389
肄	-11.739
櫛	-11.739
墉	-11.7391
㠀	-11.7392
縝	-11.7392
竝	-11.7393
兕	-11.7394
侯鯖錄	-11.7398
捄	-11.7399
俳優	-11.74
殖	-11.74
蒐	-11.74
淄	-11.74
埜	-11.7402
轟	-11.7402
卸	-11.7402
蘇子卿	-11.7403
慥	-11.7403
譔	-11.7403
嚢	-11.7403
楯	-11.7403
驊騮	-11.7403
綂	-11.7403
宋齊丘	-11.7403
滇	-11.7403
歔	-11.7404
皇朝類苑	-11.7404
漁隱叢話	-11.7404
桷	-11.7407
䧏	-11.7407
増修詩話總龜卷	-11.7407
曾子固	-11.7407
楊徽之	-11.7408
權徳輿	-11.7408
飫	-11.7408
䔥	-11.7408
䭾	-11.7408
夏英公	-11.7408
褚	-11.7408
葡萄	-11.7408
凄凄	-11.7408
癘	-11.7408
菟	-11.7408
椶	-11.7409
畛	-11.7409
埸	-11.7409
皤	-11.741
壅	-11.741
胸臆	-11.7411
紉	-11.7411
璜	-11.7411
㽔	-11.7411
文獻通考	-11.7411
劳	-11.7412
礫	-11.7412
蝦蟇	-11.7412
刑部尚書	-11.7413
酉陽雜俎	-11.7413
惶	-11.7413
郎士元	-11.7413
歧	-11.7413
麫	-11.7414
容齋隨筆	-11.7415
温飛卿	-11.7415
睇	-11.7416
髙齋詩話云	-11.7416
埭	-11.7416
陡	-11.7417
摵	-11.742
郗	-11.742
閼	-11.7421
太平廣記	-11.7422
陁	-11.7424
黿	-11.7425
迢逓	-11.7425
庄	-11.7426
輻	-11.7427
王逸注	-11.7427
竺	-11.7718
曹能始	-11.7756
宋藝圃集	-11.7757
氍	-11.776
全蜀藝文志	-11.7764
髏	-11.7765
紿	-11.7766
瀹	-11.7767
陸務觀	-11.7767
婪	-11.7768
吒	-11.7768
壕	-11.7768
壷	-11.7769
荳	-11.7771
髀	-11.7772
矗	-11.7773
釧	-11.7773
虞伯生	-11.7773
駱賔王	-11.7773
雯	-11.7774
匏	-11.7774
錚	-11.7774
後庭花	-11.7775
鬆	-11.7775
霓裳羽衣	-11.7775
王逢原	-11.7775
錮	-11.7775
礀	-11.7775
西崑體	-11.7775
灝	-11.7775
高仲武	-11.7776
娑	-11.7776
北夢瑣言	-11.7776
灧	-11.7777
戛	-11.7777
紬	-11.7777
髦	-11.7777
姜堯章	-11.7779
洧	-11.7779
𢷬	-11.7779
覘	-11.778
貍	-11.778
攫	-11.778
埤	-11.778
錡	-11.778
煒	-11.7781
虵	-11.7781
乾隆四十六年	-11.7782
剗	-11.7782
艘	-11.7782
蛬	-11.7783
緊	-11.7783
穡	-11.7784
全閩詩話	-11.7784
豉	-11.7785
暹	-11.7785
潯	-11.7785
狥	-11.7785
䌓	-11.7785
纍	-11.7786
凈	-11.7786
酧	-11.7786
曁	-11.7786
蔑	-11.7787
釭	-11.7787
琱	-11.7788
恚	-11.7788
飃	-11.7788
䛒	-11.7789
嶸	-11.7789
譛	-11.779
叡	-11.7791
啚	-11.7791
爆	-11.7791
騮	-11.7792
藁砧	-11.7793
凾	-11.7793
青城山	-11.7794
棚	-11.7795
燿	-11.7797
滳	-11.7798
鯢	-11.7798
王勉夫	-11.7804
𧺫	-11.7823
復齋漫録	-11.8121
淞	-11.8139
窶	-11.8142
楊仲𢎞	-11.8146
榼	-11.8147
酲	-11.8151
滿城風雨近重陽	-11.8151
陞	-11.8152
簌	-11.8153
蓽	-11.8154
飇	-11.8154
换	-11.8156
囷	-11.8157
趙章泉	-11.8157
池塘生春草	-11.8158
百斛明珠	-11.8158
估	-11.8159
傭	-11.8159
卲	-11.8159
勍	-11.8159
韉	-11.816
杰	-11.816
斲	-11.8161
沁	-11.8162
瓮	-11.8162
徂徠	-11.8162
青玉案	-11.8162
㳙	-11.8162
壼	-11.8162
咳	-11.8162
愉	-11.8163
鷙	-11.8163
旻	-11.8163
蘧	-11.8163
噉	-11.8164
昵	-11.8165
捴	-11.8165
柁	-11.8166
李建勲	-11.8166
閩縣人	-11.8166
駈	-11.8166
沌	-11.8166
謩	-11.8166
鑽	-11.8166
糝	-11.8166
碓	-11.8166
嫂	-11.8167
葳蕤	-11.8167
賒	-11.8167
殃	-11.8168
嘈	-11.8168
頡頏	-11.8168
湟	-11.8168
仙都山	-11.8168
國子司業	-11.8168
傴	-11.8168
郭茂倩	-11.8169
藹藹	-11.8169
龍圖閣直學士	-11.8169
脉脉	-11.8169
善屬文	-11.817
桔橰	-11.817
鯤	-11.8171
崆峒	-11.8171
挼	-11.8172
怱	-11.8174
匕	-11.8174
勣	-11.8175
槌	-11.8176
聿	-11.8176
颯颯	-11.8177
江南野録	-11.8177
皆佳句也	-11.8178
漁隠樷話	-11.8178
咬	-11.8178
葛立方	-11.8179
幟	-11.8179
芊芊	-11.818
鮑明逺	-11.8181
鶒	-11.8181
弈	-11.8187
𬒮	-11.8189
廂	-11.8545
翛	-11.8548
屯田員外郎	-11.8549
枘	-11.855
籞	-11.855
雲溪友議	-11.855
能改齋漫錄	-11.8551
攤	-11.8551
蝦蟆	-11.8551
氈	-11.8552
聦	-11.8552
汭	-11.8553
澶	-11.8553
鯖	-11.8554
戞	-11.8555
癸辛雜識	-11.8556
墓誌右誌	-11.8556
吊	-11.8557
殽	-11.8557
䂓	-11.8558
闉	-11.8559
王禹偁	-11.8561
璿	-11.8561
輾	-11.8562
魏慶之	-11.8562
風月堂詩話	-11.8562
园	-11.8563
覉	-11.8563
醯	-11.8565
櫪	-11.8565
薜荔	-11.8566
怎	-11.8566
文昌雜録云	-11.8566
盾	-11.8566
燔	-11.8566
寗	-11.8566
囝	-11.8566
狡	-11.8566
戡	-11.8566
臾	-11.8567
茜	-11.8567
彷	-11.8567
訐	-11.8568
陳子昂	-11.8568
杇	-11.8568
堰	-11.8568
旰	-11.8568
濩	-11.8569
左氏傳曰	-11.8569
莾	-11.8569
樛	-11.8569
虺	-11.8569
蚓	-11.857
三山老人語録云	-11.857
閗	-11.857
絆	-11.8572
齷	-11.8572
擯	-11.8572
騾	-11.8573
樂府解題	-11.8573
雨初晴	-11.8573
施肩吾	-11.8573
蘇味道	-11.8573
鈐	-11.8573
滉	-11.8574
蚕	-11.8575
悄悄	-11.8576
滸	-11.8576
繍	-11.8576
韋嗣立	-11.8577
颶	-11.8578
沈休文	-11.8578
鄭康成	-11.8578
凹	-11.8578
迢遞	-11.8579
叚成式	-11.8588
㴱	-11.8598
窑	-11.8622
寧宗朝	-11.8678
跗	-11.8955
珉	-11.8964
磁	-11.8965
迤邐	-11.8966
寨	-11.8966
瀘	-11.8966
紅兒㒵	-11.8967
貴耳集	-11.8968
撤	-11.8969
畎	-11.8969
莧	-11.897
确	-11.8971
脇	-11.8971
券	-11.8971
鼯	-11.8972
珣	-11.8972
渊	-11.8972
蝗	-11.8973
摻	-11.8973
厝	-11.8973
佃	-11.8973
晳	-11.8974
名自署	-11.8975
贑	-11.8975
跣	-11.8976
晏叔原	-11.8976
李方叔	-11.8976
璃	-11.8977
㒺	-11.8977
鯿	-11.8977
櫚	-11.8978
韓熙載	-11.8978
姨	-11.8979
鷦鷯	-11.8979
摰	-11.8979
穫	-11.8979
嫡	-11.8979
灯	-11.898
肓	-11.898
煇	-11.898
臚	-11.8981
覷	-11.8981
王伯厚	-11.8981
燠	-11.8981
魑魅	-11.8982
袵	-11.8982
豬	-11.8982
鴿	-11.8983
銛	-11.8984
薏苡	-11.8984
曈	-11.8985
畊	-11.8985
弭	-11.8985
公羊傳	-11.8985
蠢	-11.8985
蓀	-11.8985
龐	-11.8985
范蜀公	-11.8985
張為取作主客圖	-11.8986
蕤	-11.8986
蒱	-11.8986
旴	-11.8986
西溪叢語	-11.8986
媍	-11.899
菩	-11.899
杌	-11.899
㝎	-11.899
聀	-11.899
裋	-11.8991
䬃	-11.8991
埒	-11.8992
䛕	-11.8992
雲齋廣録	-11.8992
扺	-11.8993
奐	-11.8994
撻	-11.8994
徐興公	-11.8995
考工記	-11.8997
凸	-11.8998
蜾蠃	-11.9
𥚑	-11.9003
茰	-11.9004
眈	-11.9387
殂	-11.9393
蘊	-11.9398
銍	-11.94
勗	-11.9402
𦕈	-11.9403
遘	-11.9403
天章閣待制	-11.9403
惰	-11.9404
塼	-11.9405
盱	-11.9405
獺	-11.9405
鵒	-11.9406
柬	-11.9406
纏	-11.9407
倭	-11.9409
踘	-11.9409
王仁裕	-11.9409
駉	-11.9409
搦	-11.9409
迦	-11.941
悚	-11.941
兜	-11.941
清波雜志	-11.941
饞	-11.9411
喟	-11.9411
毉	-11.9412
爻	-11.9412
鷖	-11.9412
僵	-11.9413
媧	-11.9413
弥	-11.9413
樾	-11.9413
礎	-11.9413
喏	-11.9414
丁晋公	-11.9414
窩	-11.9414
氅	-11.9414
閴	-11.9414
籩	-11.9414
宼	-11.9414
艤	-11.9415
鍛	-11.9415
文心雕龍輯注	-11.9415
适	-11.9415
肺腑	-11.9415
鋋	-11.9416
𡨕	-11.9416
匙	-11.9416
双	-11.9416
蜉	-11.9416
天津橋	-11.9416
噓	-11.9416
㝢	-11.9416
嬙	-11.9416
瀦	-11.9417
侂	-11.9417
擴	-11.9417
觱篥	-11.9417
冉	-11.9418
磚	-11.9418
迍	-11.9418
樊宗師	-11.9419
閧	-11.9419
旡	-11.9419
你	-11.9419
㯽	-11.942
噬	-11.942
洄	-11.942
楩	-11.9421
槱	-11.9421
蛉	-11.9422
矚	-11.9422
荑	-11.9423
簞	-11.9423
蓞	-11.9423
蹭	-11.9423
蠒	-11.9424
秘書少監	-11.9424
竪	-11.9426
表而出之	-11.9426
慤	-11.9426
徭	-11.9426
躞	-11.9427
搴	-11.9427
棅	-11.9427
醢	-11.9428
雅言雜載	-11.9428
饅	-11.9428
盥	-11.9429
州剌史	-11.9429
鑊	-11.943
憀	-11.943
堯山堂外紀	-11.9431
㽵	-11.9432
鵉	-11.9433
喈	-11.9433
鄖	-11.9434
簔	-11.9434
罏	-11.9438
菽	-11.9441
央	-11.9781
雪浪齋日記	-11.9822
蚋	-11.9856
睂	-11.9856
貟	-11.9856
煦	-11.9858
武林舊事	-11.9858
剩	-11.9859
惘	-11.9859
罝	-11.9861
嘖	-11.9861
罌	-11.9861
國子博士	-11.9861
陬	-11.9862
彖	-11.9862
慶歴中	-11.9863
頔	-11.9863
鵑	-11.9863
悤悤	-11.9864
跼	-11.9865
四六談麈	-11.9865
詛	-11.9865
瓉	-11.9866
咮	-11.9866
餙	-11.9866
蔡天啟	-11.9866
銑	-11.9867
嶙峋	-11.9867
賜進士出身	-11.9867
毘	-11.9867
豋	-11.9867
匳	-11.9867
夐	-11.9867
氤	-11.9867
澑	-11.9867
頳	-11.9867
霤	-11.9868
晷	-11.9868
瓈	-11.9868
幷	-11.9869
䑛	-11.9869
皖	-11.9869
凑	-11.9869
蜿蜒	-11.9869
鉗	-11.987
肋	-11.987
搨	-11.987
蹉	-11.9871
鴞	-11.9872
飭	-11.9872
愷	-11.9872
磐	-11.9872
頹	-11.9873
䆠	-11.9873
蘅	-11.9874
錢惟演	-11.9874
駃	-11.9874
鄊	-11.9874
舷	-11.9875
椅	-11.9875
咫	-11.9875
黻	-11.9875
誑	-11.9876
茘	-11.9877
桴	-11.9877
僥	-11.9878
沈傳師	-11.9879
飰	-11.9879
顇	-11.988
櫸	-11.988
扼	-11.9882
熠燿	-11.9884
埤雅云	-11.9884
泱	-11.9886
皛	-11.9887
繽	-11.9889
野客叢書云	-11.9893
圏	-11.9896
伾	-11.9903
芡	-12.0324
烏夜啼	-12.0328
紵	-12.0331
髫	-12.0332
國子祭酒	-12.0334
璵	-12.0335
宋蔡正孫編	-12.0335
倜	-12.0336
罟	-12.0336
甬	-12.0337
懊	-12.0337
嚥	-12.0338
容齋三筆	-12.0338
曰琯按	-12.0338
篝	-12.0338
珝	-12.0339
暐	-12.0339
週	-12.0339
賑	-12.034
漈	-12.0341
茱萸	-12.0341
豸	-12.0341
捿	-12.0341
鋩	-12.0342
鏞	-12.0342
孌	-12.0343
薝	-12.0343
淙	-12.0345
灵	-12.0345
璆	-12.0346
橡	-12.0346
辣	-12.0346
猝	-12.0346
裦	-12.0346
煅	-12.0347
槊	-12.0347
纛	-12.0347
㩀	-12.0347
执	-12.0348
醸	-12.0348
採菊東籬下悠然見南山	-12.0348
咿	-12.0349
著作佐郎	-12.0349
昜	-12.0349
駛	-12.035
春入燒痕	-12.035
闍	-12.035
軺	-12.0351
迢	-12.0352
瀣	-12.0352
麞	-12.0352
謝疊山云	-12.0352
璹	-12.0352
顦	-12.0352
蕳	-12.0352
瓏	-12.0353
鳥鳴山更幽	-12.0353
吕洞賓	-12.0353
楊汝士	-12.0354
左太冲	-12.0354
唧唧	-12.0354
謇	-12.0354
酋	-12.0354
磻	-12.0354
响	-12.0355
醅	-12.0355
豢	-12.0356
堙	-12.0357
蝀	-12.0357
迤	-12.0357
泠齋夜話云	-12.0358
箆	-12.0359
糅	-12.036
莹	-12.036
胃	-12.0361
凬	-12.0363
跖	-12.0363
慈恩寺九日應制云	-12.0366
浣溪沙	-12.0368
翶	-12.0369
花間集卷	-12.0383
楙	-12.0822
宗朝累遷	-12.0825
皴	-12.0827
隆興元年進士	-12.0828
許彥周詩話	-12.0828
湼	-12.0829
髄	-12.083
憮	-12.0832
謌	-12.0833
塡	-12.0833
墨莊漫錄	-12.0833
掞	-12.0834
幰	-12.0834
趙徳麟	-12.0834
歉	-12.0836
端午帖子	-12.0836
鷂	-12.0836
賢良方正	-12.0836
繰	-12.0837
尹師魯	-12.0837
巏	-12.0838
顱	-12.0838
𣙜	-12.0838
釂	-12.0838
罽	-12.0838
鰥	-12.0839
拉	-12.084
挍	-12.084
鍪	-12.084
煞	-12.084
悌	-12.084
祕書省正字	-12.084
蝎	-12.0841
蒋	-12.0841
弧	-12.0842
龍圖閣學士	-12.0842
怛	-12.0842
鴂	-12.0842
寰宇記	-12.0842
頫	-12.0842
瑪	-12.0843
阼	-12.0843
曰璐按	-12.0843
爕	-12.0843
懵	-12.0844
瘢	-12.0844
窆	-12.0844
闖	-12.0844
僂	-12.0845
洗兵馬	-12.0845
疫	-12.0845
劑	-12.0845
贛	-12.0845
扎	-12.0845
崘	-12.0846
媟	-12.0846
惕	-12.0846
緹	-12.0847
暖鳥聲碎日髙花影重	-12.0847
鴆	-12.0847
甓	-12.0847
搭	-12.0849
襶	-12.0849
鞚	-12.0849
撿	-12.0849
瀕	-12.085
臈	-12.085
甿	-12.085
涘	-12.0851
櫽	-12.0851
鋏	-12.0851
集賢校理	-12.0852
王楊盧駱	-12.0853
沄	-12.0854
攴	-12.0854
贓	-12.0855
珩	-12.0856
㶑	-12.0857
縊	-12.0857
眥	-12.0858
穆天子傳	-12.086
佖	-12.086
淥	-12.0861
捋虎鬚	-12.0861
畤	-12.0862
嶇	-12.0862
鱓	-12.0863
鵜	-12.0875
椰	-12.0876
直龍圖閣	-12.133
妳	-12.1342
反其意而用之	-12.1349
荃	-12.1355
彴	-12.1357
窰	-12.1358
醍	-12.1359
喑	-12.1359
珙	-12.136
偪	-12.136
沚	-12.136
塾	-12.136
景定建康志	-12.136
毆	-12.1361
澳	-12.1361
銀青光禄大夫	-12.1362
湘山野録	-12.1362
氓	-12.1363
韓熈載	-12.1363
醽	-12.1364
睹	-12.1365
飣	-12.1365
槧	-12.1366
毿	-12.1366
錦繡萬花谷	-12.1366
權德輿	-12.1366
唐宋遺史	-12.1366
兖州府知府鄭方坤撰	-12.1367
舲	-12.1367
犍	-12.1368
知鄆州	-12.1368
鼐	-12.1368
榱	-12.1368
疴	-12.1369
痊	-12.1369
鮪	-12.1369
葉少藴	-12.137
鈇	-12.137
儗	-12.1371
犹	-12.1371
鞮	-12.1371
凰	-12.1371
貓	-12.1371
娜	-12.1371
穷	-12.1371
佗	-12.1372
烏衣巷	-12.1372
壖	-12.1373
唐子西語録云	-12.1373
閈	-12.1374
廪	-12.1374
玦	-12.1374
慝	-12.1374
旛	-12.1374
飮	-12.1374
薜	-12.1375
藂	-12.1375
抱朴子	-12.1375
顓	-12.1375
邅	-12.1375
褦	-12.1375
竚	-12.1376
狠	-12.1376
詼	-12.1377
㩦	-12.1377
蚪	-12.1377
罥	-12.1377
塤	-12.1377
傀	-12.1377
破陣樂	-12.1378
捶	-12.1378
篘	-12.1378
蒔	-12.1379
値	-12.138
朧	-12.138
頊	-12.138
儁	-12.138
蕭頴士	-12.1381
諲	-12.1382
禕	-12.1382
絺	-12.1382
倨	-12.1383
柞	-12.1383
嵲	-12.1385
珦	-12.1385
攔	-12.1385
犧	-12.1385
頁	-12.1386
遅	-12.1387
𡵨	-12.1387
張蕭亭答	-12.1388
欽定四庫全書韻語陽秋巻	-12.1388
鵾	-12.1389
郃	-12.1389
崎	-12.1389
鶡	-12.1391
奨	-12.1391
河南少尹	-12.1392
嫰	-12.1392
篸	-12.1394
張厯友答	-12.1394
淬	-12.1397
蠣	-12.1895
瘖	-12.1899
蠔	-12.1906
猩猩毛筆	-12.191
邽	-12.1911
廛	-12.1912
鶺	-12.1912
褪	-12.1912
闞	-12.1913
揣	-12.1914
西崑酬唱集	-12.1916
姸	-12.1916
褘	-12.1917
磷	-12.1917
薩	-12.1918
另	-12.1918
舁	-12.1919
呂氏童䝉訓	-12.1919
敖陶孫	-12.1919
窒	-12.192
穽	-12.192
菑	-12.192
燮	-12.1921
諠	-12.1921
劉孝綽	-12.1922
餻	-12.1922
春渚紀聞	-12.1922
疉	-12.1923
葷	-12.1923
櫝	-12.1923
縶	-12.1924
陸費墀	-12.1924
犖	-12.1924
鬧	-12.1924
膜	-12.1925
聱	-12.1925
案此詩刋本	-12.1925
湔	-12.1926
耄	-12.1926
䙝	-12.1926
鑷	-12.1926
鼂	-12.1926
無斧鑿痕	-12.1926
㒷	-12.1927
㸑	-12.1927
搶	-12.1927
袤	-12.1927
勔	-12.1927
迯	-12.1927
蓊	-12.1928
魃	-12.1928
樟	-12.1928
塑	-12.1929
鳷	-12.1929
杆	-12.1929
獠	-12.193
澌	-12.193
鍔	-12.193
弑	-12.193
窖	-12.1931
狙	-12.1931
佻	-12.1931
郾	-12.1931
驊	-12.1931
䆒	-12.1932
号	-12.1932
纇	-12.1933
萁	-12.1933
鱉	-12.1933
猒	-12.1934
琛	-12.1934
栩	-12.1934
董仲舒	-12.1934
鑑戒録	-12.1934
㨿	-12.1934
醑	-12.1935
􁌲	-12.1935
霾	-12.1935
鎰	-12.1936
抜	-12.1936
罾	-12.1937
异	-12.1937
駱賓王	-12.1937
薩天錫	-12.1937
含不盡之意	-12.1937
盧延遜	-12.1937
狷	-12.1938
痺	-12.1938
满	-12.1938
枳	-12.1938
茟	-12.1938
帘	-12.1939
觔	-12.194
鎗	-12.1941
瓔	-12.1941
𥚹	-12.1942
橊	-12.1946
粮	-12.1947
喔	-12.1948
荆楚嵗時記	-12.1952
燖	-12.1953
捩	-12.1953
潾	-12.1957
亀	-12.196
癩	-12.2482
醉翁亭記	-12.2482
蕘	-12.2491
蠁	-12.2496
噎	-12.2497
青苗助役	-12.2497
翾	-12.2498
莠	-12.25
蟇	-12.2501
髽	-12.2501
詘	-12.2502
阨	-12.2502
入元祐黨籍	-12.2502
垜	-12.2503
糴	-12.2503
山房隨筆	-12.2503
資治通鑑	-12.2504
訃	-12.2505
昕	-12.2505
瀍	-12.2506
訔	-12.2506
朏	-12.2507
㒵	-12.2507
皐	-12.2508
蠱	-12.2508
䕷	-12.2508
鱻	-12.2509
瘳	-12.2509
琖	-12.2509
薌	-12.2509
崔豹古今注	-12.251
夬	-12.251
揩	-12.2511
晻	-12.2511
轔	-12.2511
優古堂詩話	-12.2511
蔻	-12.2511
榘	-12.2512
疚	-12.2513
矦	-12.2513
綫	-12.2513
邴	-12.2513
颸	-12.2513
柵	-12.2513
槪	-12.2513
祕書少監	-12.2514
姹	-12.2514
偹	-12.2514
藺	-12.2514
惬	-12.2514
舠	-12.2515
熨	-12.2516
遄	-12.2516
杠	-12.2516
瞪	-12.2517
烜	-12.2518
玫	-12.2518
睠	-12.2518
醋	-12.2518
玉臺新詠	-12.2519
顫	-12.2519
鏑	-12.252
皮襲美	-12.252
逶	-12.252
㯶	-12.2521
摴	-12.2521
刄	-12.2521
秤	-12.2521
締	-12.2521
絪	-12.2521
搘	-12.2522
爨	-12.2522
鶠	-12.2522
戦	-12.2522
醁	-12.2522
捋	-12.2522
諂	-12.2523
劬	-12.2523
趋	-12.2523
圻	-12.2524
騑	-12.2524
鶬	-12.2524
掺	-12.2524
畀	-12.2525
噀	-12.2526
鼾	-12.2526
屡	-12.2527
幞	-12.2527
儺	-12.2527
琹	-12.2528
艦	-12.2529
捻	-12.2529
諼	-12.2529
顙	-12.253
驀	-12.253
鱖	-12.2531
貿	-12.2532
晰	-12.2532
斎	-12.2533
繢	-12.2533
湋	-12.2535
旤	-12.2541
嚏	-12.2573
月泉吟社	-12.2979
恙	-12.3103
踆	-12.3114
肸	-12.3121
衎	-12.3121
嶓	-12.3122
鏜	-12.3125
莪	-12.3125
挟	-12.3125
奭	-12.3125
据	-12.3126
黽	-12.3127
至元嘉禾志	-12.3129
紕	-12.313
㪯	-12.3131
怙	-12.3131
崒	-12.3132
挐	-12.3132
鐶	-12.3132
彝	-12.3133
彗	-12.3133
澄心堂紙	-12.3133
􁇟	-12.3134
紹興十五年進士	-12.3134
霈	-12.3134
齬	-12.3134
齟	-12.3135
麁	-12.3135
􁱘	-12.3135
㐫	-12.3135
彜	-12.3135
赧	-12.3136
雒	-12.3136
蜑	-12.3136
漁隠叢話後集巻	-12.3137
噤	-12.3137
繂	-12.3137
斈	-12.3137
澠	-12.3138
無銘詩畧也	-12.3138
㒒	-12.3138
羆	-12.3139
斕	-12.3139
斿	-12.3139
薿	-12.3139
踔	-12.3139
㕓	-12.3139
菉	-12.314
葳	-12.314
荏	-12.314
詒	-12.314
馺	-12.314
艫	-12.3141
毀	-12.3141
璡	-12.3141
寀	-12.3141
泡	-12.3141
螘	-12.3141
悒	-12.3142
轎	-12.3143
倏	-12.3144
腎	-12.3144
庿	-12.3144
新安文獻志	-12.3144
湎	-12.3144
溆	-12.3144
糺	-12.3144
屩	-12.3145
垤	-12.3145
祛	-12.3145
翰林侍讀學士	-12.3145
東軒筆錄	-12.3145
砍	-12.3147
懾	-12.3148
嵎	-12.3148
爬	-12.3148
苻	-12.3149
迃	-12.3149
楣	-12.3149
憊	-12.3149
邢敦夫	-12.3149
懟	-12.315
稟	-12.315
簏	-12.315
辤	-12.3151
累舉不第	-12.3151
襜	-12.3151
鄭嵎津陽門	-12.3151
櫳	-12.3152
鷴	-12.3152
上官昭容	-12.3152
炉	-12.3152
姒	-12.3153
恧	-12.3154
䜿	-12.3154
藎	-12.3156
㕍	-12.3156
北夣瑣言	-12.3159
丼	-12.316
蠹	-12.316
攏	-12.3161
廱	-12.3164
韐	-12.3173
蒜	-12.3178
偎	-12.3179
虡	-12.3187
簻	-12.3191
左思吳都賦	-12.376
踢	-12.377
駔	-12.3779
棫	-12.378
胛	-12.3784
苹	-12.3787
瀲	-12.3791
邛	-12.3792
槨	-12.3793
奪胎換骨	-12.3793
麛	-12.3794
筇	-12.3794
廙	-12.3794
雞肋編	-12.3794
輕燕受風斜	-12.3795
獰	-12.3796
綳	-12.3797
同知樞密院事	-12.3797
餔	-12.3797
廳	-12.3797
簴	-12.3797
集賢殿修撰	-12.3797
枿	-12.3798
蹁	-12.3798
丏	-12.3798
檇	-12.3799
玳	-12.38
删	-12.38
斁	-12.38
驍	-12.3801
鵊	-12.3801
蠆	-12.3801
驌	-12.3802
皃	-12.3802
栟	-12.3802
郡齋讀書志	-12.3802
㗖	-12.3802
嶄	-12.3803
鞾	-12.3803
騕	-12.3803
吝	-12.3803
汍	-12.3803
襌	-12.3803
鍋	-12.3804
佶	-12.3804
嚲	-12.3804
嫚	-12.3805
淆	-12.3805
驎	-12.3806
禳	-12.3806
鬯	-12.3806
妲	-12.3806
唫	-12.3806
賺	-12.3806
楛	-12.3806
復齋謾錄	-12.3806
砲	-12.3807
臊	-12.3807
諢	-12.3808
柢	-12.3809
臟	-12.3809
熺	-12.3809
檥	-12.3809
嘱	-12.3809
甖	-12.381
薙	-12.381
巇	-12.381
捃	-12.381
獨破受凍死	-12.381
詩話類編曰	-12.381
餗	-12.381
傖	-12.381
彀	-12.3811
刘	-12.3811
􁑱	-12.3811
悱	-12.3811
簒	-12.3811
幛	-12.3811
譖	-12.3811
堊	-12.3811
蔞	-12.3811
璚	-12.3812
剃	-12.3813
吿	-12.3813
撝	-12.3814
僧敲月下門	-12.3814
淦	-12.3814
舖	-12.3814
濊	-12.3815
哥舒翰	-12.3815
澡	-12.3815
耨	-12.3815
萟	-12.3815
鄼	-12.3816
瓴	-12.3816
嘒	-12.3816
箎	-12.3816
玖	-12.3816
蜚	-12.3817
榧	-12.3817
釃	-12.3817
蘤	-12.3818
猖	-12.3819
遯齋閑覽	-12.3819
騤	-12.382
陳輔之詩話	-12.382
對床夜語	-12.3821
玢	-12.3821
尓	-12.3822
韁	-12.3822
刚	-12.3822
東臯雜錄	-12.3822
蓐	-12.3822
豗	-12.3822
眘	-12.3823
晦日林亭云	-12.3823
螫	-12.3823
蘺	-12.3823
縢	-12.3824
撗	-12.3824
熬	-12.3824
䜴	-12.3826
鷟	-12.3826
珞	-12.3826
㷑	-12.3827
縚	-12.3828
送金城公主云	-12.383
荆溪林下偶談	-12.3834
汧	-12.3834
漁隱樷話	-12.3835
跕	-12.3838
張衡西京賦	-12.3844
蹻	-12.3847
濾	-12.387
圛	-12.3872
儈	-12.4491
佾	-12.45
騅	-12.45
空梁落燕泥	-12.4503
瑚	-12.4503
贋	-12.4504
箧	-12.4505
揶	-12.4507
一唱三歎	-12.4508
匐	-12.451
宋劉克莊編	-12.451
糶	-12.451
緌	-12.451
瞋	-12.4511
縲	-12.4511
嵬	-12.4512
阬	-12.4512
嘹	-12.4513
霎	-12.4513
州團練副使	-12.4513
唼	-12.4513
鍤	-12.4514
鶗	-12.4514
搬	-12.4514
幀	-12.4514
秭	-12.4514
咤	-12.4514
餮	-12.4514
餧	-12.4515
細數落花因坐久緩尋芳草得歸遲	-12.4515
殪	-12.4515
嵊	-12.4515
㓙	-12.4516
傘	-12.4516
鬐	-12.4516
騂	-12.4516
攙	-12.4516
忮	-12.4516
屭	-12.4517
漙	-12.4517
曨	-12.4517
麏	-12.4517
痾	-12.4517
揜	-12.4517
言有盡而意無窮	-12.4517
讙	-12.4518
蝣	-12.4518
禰	-12.4518
騃	-12.4518
娠	-12.4518
崚	-12.4519
鸚	-12.4519
鏖	-12.4519
祲	-12.4519
㨂	-12.4519
蒍	-12.4519
廏	-12.452
蝇	-12.452
帀	-12.452
桃花亂落如紅雨	-12.452
籐	-12.452
洼	-12.452
跟	-12.4521
詩說雋永云	-12.4521
飲中八仙歌	-12.4521
閘	-12.4521
洟	-12.4522
单	-12.4522
擦	-12.4522
陕	-12.4523
壈	-12.4523
哽	-12.4524
瓿	-12.4524
坏	-12.4524
酎	-12.4525
捎	-12.4525
􁁃	-12.4525
窪	-12.4525
崦	-12.4525
茒	-12.4526
硤	-12.4526
袪	-12.4526
紊	-12.4526
咒	-12.4526
齊民要術	-12.4526
庙	-12.4526
踴	-12.4527
尙	-12.4527
誠哉是言	-12.4528
撏	-12.4528
溱	-12.4528
埏	-12.4528
衽	-12.4529
塘春水慢花塢夕陽遲	-12.453
邳	-12.453
祟	-12.4531
菀	-12.4531
撇	-12.4532
夥	-12.4532
詶	-12.4532
渦	-12.4533
綣	-12.4534
紅綾餅餤	-12.4534
飲馬長城窟	-12.4536
鎡	-12.4537
捜	-12.4537
堡	-12.4538
蝟	-12.4538
懣	-12.4538
螳	-12.4539
鉄	-12.454
渟	-12.454
萇	-12.454
悸	-12.4541
票	-12.4541
鉶	-12.4542
俙	-12.4543
扞	-12.4544
膻	-12.4544
憨	-12.4549
碭	-12.4627
毹	-12.5255
蠭	-12.5262
斝	-12.5264
裨	-12.5269
挨	-12.5269
灩	-12.527
觀文殿大學士	-12.527
謻	-12.5271
鼃	-12.5271
粽	-12.5271
縋	-12.5271
麯	-12.5271
野火燒不盡春風吹又生	-12.5272
昴	-12.5273
腿	-12.5274
陳郁話腴	-12.5275
籋	-12.5275
湘山野錄	-12.5276
鷃	-12.5276
忒	-12.5276
黥	-12.5277
敧	-12.5277
砢	-12.5277
墨客揮犀	-12.5278
瀏	-12.528
語不驚人死不休	-12.528
嶔	-12.528
㫄	-12.5281
諄	-12.5281
奧	-12.5281
蜡	-12.5282
圈	-12.5282
懈	-12.5283
菓	-12.5284
悝	-12.5284
踣	-12.5284
醲	-12.5284
郜	-12.5284
璀	-12.5284
轓	-12.5285
鮒	-12.5285
鵯	-12.5285
裩	-12.5286
繅	-12.5286
芙	-12.5287
繄	-12.5287
臛	-12.5287
猊	-12.5287
澒	-12.5287
譍	-12.5288
劚	-12.5288
隤	-12.5289
鈎輈格磔	-12.5289
势	-12.5289
韙	-12.5289
戩	-12.5289
匄	-12.529
咀	-12.529
萬姓統譜	-12.529
蓓	-12.529
枌	-12.529
嶲	-12.5291
煆	-12.5291
娛書堂詩話	-12.5291
敷文閣待制	-12.5291
輜	-12.5291
籤	-12.5292
李肇國史補	-12.5293
摺	-12.5293
筦	-12.5293
字學集要云	-12.5294
礱	-12.5294
凇	-12.5295
篲	-12.5295
鰕	-12.5295
閥	-12.5295
狨	-12.5296
老學庵筆記	-12.5296
𣏌	-12.5296
萬國衣冠拜冕旒	-12.5296
恁	-12.5296
樺	-12.5297
鎪	-12.5297
嫠	-12.5297
偘	-12.5298
􁰽	-12.5298
䗶	-12.5298
觫	-12.5299
术	-12.5299
茁	-12.5299
晒	-12.5299
瀚	-12.53
繾	-12.53
𥜗	-12.53
秔	-12.53
今附于左附	-12.53
瑄	-12.53
䘖	-12.5301
徽猷閣待制	-12.5301
党	-12.5302
菅	-12.5302
报	-12.5302
斚	-12.5303
絞	-12.5303
畚	-12.5303
風定花猶落	-12.5303
珵	-12.5303
逥	-12.5304
倕	-12.5304
䣛	-12.5304
法藏碎金云	-12.5305
茭	-12.5305
觱	-12.5306
馘	-12.5307
竢	-12.5307
􁈡	-12.5308
厖	-12.5308
燻	-12.5309
墫	-12.5313
砅	-12.5313
毯	-12.5313
㛰	-12.5314
賃	-12.5315
慼	-12.5318
营	-12.5324
嫜	-12.5326
瓻	-12.6087
􁇪	-12.6089
趯	-12.6092
嗇	-12.6098
珧	-12.6101
字韻一篇詩而用	-12.6101
靃	-12.6102
野客叢書曰	-12.6103
翌	-12.6105
雖紀實又一例也	-12.6106
唶	-12.6107
焱	-12.6107
済	-12.6107
祧	-12.6109
焦仲卿妻	-12.611
吮	-12.611
﨑	-12.6111
羅湖野錄	-12.6112
戕	-12.6112
苽	-12.6112
旐	-12.6112
疥	-12.6113
溽	-12.6113
喁	-12.6114
姐	-12.6114
孃	-12.6114
筩	-12.6115
菘	-12.6115
鄔	-12.6115
鞶	-12.6115
砭	-12.6115
㴠	-12.6115
舀	-12.6116
抖	-12.6116
唤	-12.6116
春洲生荻芽春岸飛楊花	-12.6116
踊	-12.6116
宷	-12.6116
耑	-12.6117
搓	-12.6117
金碾畔緑塵飛碧玉甌中翠濤起	-12.6117
郯	-12.6118
塌	-12.6118
開府儀同三司	-12.6118
瑋	-12.6118
娯書堂詩話	-12.6118
蠖	-12.6118
鸝	-12.6119
絏	-12.6119
繙	-12.612
儆	-12.612
昃	-12.612
瞭	-12.612
雲麓漫抄	-12.612
糠	-12.612
樅	-12.6121
扛	-12.6121
炮	-12.6121
褓	-12.6121
齅	-12.6121
吕氏童蒙訓	-12.6122
喃	-12.6122
春水船如天上坐	-12.6122
莬	-12.6122
耋	-12.6122
紹興二十一年進士	-12.6122
繻	-12.6123
嬃	-12.6123
擠	-12.6123
煬	-12.6123
昩	-12.6123
攖	-12.6123
錘	-12.6123
槐花黄舉子忙	-12.6124
禁林讌㑹之什	-12.6124
褎	-12.6124
醬	-12.6124
祅	-12.6124
篾	-12.6124
憧	-12.6124
同知樞宻院事	-12.6125
𬗟	-12.6126
鄠	-12.6126
蜍	-12.6126
醻	-12.6126
式古堂書考	-12.6127
栝	-12.6127
瘥	-12.6127
匜	-12.6127
紏	-12.6127
椹	-12.6127
溯	-12.6127
篚	-12.6127
枸	-12.6127
齏	-12.6127
掄	-12.6128
􁗁	-12.6128
憒	-12.6128
事文類聚前集	-12.6128
擡	-12.6129
颷	-12.6129
魍	-12.6129
椁	-12.613
雹	-12.613
琵	-12.613
洸	-12.613
炅	-12.6131
唐音癸籤巻十	-12.6131
孳	-12.6132
采菊東籬下悠然見南山	-12.6132
嚙	-12.6132
藐	-12.6132
窕	-12.6133
𬞞	-12.6133
餤	-12.6133
簑	-12.6133
氣蒸雲夢澤波撼岳陽城	-12.6134
蚯	-12.6134
倔	-12.6134
寬	-12.6134
斌	-12.6134
壌	-12.6134
磋	-12.6134
鉦	-12.6134
欽定四庫全書漁隱叢話後集卷	-12.6134
蟪	-12.6134
珓	-12.6135
点	-12.6135
薖	-12.6135
粳	-12.6135
雱	-12.6135
疽	-12.6136
楝	-12.6136
戶	-12.6138
炤	-12.6138
朞	-12.6139
毶	-12.6139
孔平仲談苑	-12.6139
璁	-12.6139
璐	-12.6139
碏	-12.6139
屓	-12.614
夹	-12.614
亾	-12.6142
辝	-12.6142
膞	-12.6143
縵	-12.6143
俻	-12.6143
遹	-12.6143
喓	-12.6143
㙜	-12.6144
㴩	-12.6146
楽	-12.6147
悲獲麟西狩	-12.6149
蒭	-12.615
枽	-12.6151
輶	-12.6154
粔	-12.6155
鸒	-12.6155
鵂	-12.6157
惴	-12.616
鮆	-12.6178
龍圖閣待制	-12.6181
郅	-12.7003
留青日札云	-12.7004
墊	-12.7005
襴	-12.7006
憶長安十二詠云憶長安	-12.7006
汞	-12.7009
熂	-12.7009
昺	-12.701
巓	-12.701
剜	-12.7014
抺	-12.7014
骼	-12.7015
啁	-12.7018
勳	-12.7019
酡	-12.7021
􁁜	-12.7021
枻	-12.7021
貰	-12.7021
元城先生語録云	-12.7022
琲	-12.7022
鎚	-12.7022
枋	-12.7022
箒	-12.7023
帑	-12.7023
巋	-12.7023
幵	-12.7023
闌更秉燭相對如夢寐	-12.7024
搊	-12.7024
孀	-12.7024
戣	-12.7025
璪	-12.7025
宁	-12.7025
絀	-12.7026
刲	-12.7026
䔩	-12.7026
旎	-12.7026
涿	-12.7026
醞	-12.7027
磎	-12.7027
葅	-12.7027
醵	-12.7028
旖	-12.7028
耜	-12.7028
沲	-12.7028
咋	-12.7028
嘴	-12.7029
媸	-12.7029
蔲	-12.7029
鈕	-12.7029
潸	-12.7029
迕	-12.7029
濞	-12.7029
禿	-12.7029
賙	-12.7029
奡	-12.703
㫪	-12.703
枵	-12.703
言之者無罪聞之者足以	-12.7031
歊	-12.7031
冇	-12.7031
琤	-12.7031
羝	-12.7031
乾隆四十二年	-12.7031
鰻	-12.7032
皿	-12.7032
頠	-12.7033
犇	-12.7033
泂	-12.7033
讀書破萬巻下筆如有神	-12.7033
蒺	-12.7034
纚	-12.7034
碗	-12.7034
敇	-12.7034
鏟	-12.7034
赬	-12.7034
胙	-12.7034
嵍	-12.7034
漭	-12.7034
青青河畔草	-12.7035
鬒	-12.7035
蝤	-12.7035
猾	-12.7035
恋	-12.7035
鶼	-12.7035
呶	-12.7036
誹	-12.7036
哇	-12.7036
遝	-12.7036
絙	-12.7036
䂖	-12.7037
廈	-12.7037
粢	-12.7037
嶒	-12.7038
滎	-12.7038
焜	-12.7038
秇	-12.7038
賫	-12.7038
擫	-12.7038
歜	-12.7039
痁	-12.7039
澎	-12.704
元潘昻霄撰	-12.704
蹰	-12.704
沬	-12.7041
湃	-12.7041
郟	-12.7041
郍	-12.7041
滙	-12.7041
嶢	-12.7041
檟	-12.7042
総	-12.7042
仿	-12.7042
簋	-12.7042
璅	-12.7042
膂	-12.7042
蓺	-12.7043
醆	-12.7043
俜	-12.7043
嚇	-12.7044
祉	-12.7044
紼	-12.7044
枍	-12.7045
檉	-12.7046
蒞	-12.7046
馿	-12.7046
袞	-12.7046
戟	-12.7048
司馬光洛中耆英	-12.7048
魘	-12.7049
􁶁	-12.7049
籕	-12.7049
涖	-12.705
㪷	-12.705
漑	-12.705
穂	-12.705
藟	-12.7053
珖	-12.7053
嘿	-12.7054
緼	-12.7055
嫪	-12.7055
纁	-12.7058
右張爲取作主客圖	-12.7061
鸑	-12.7062
崪	-12.7063
鍠	-12.7064
彂	-12.7069
炰	-12.7069
蔌	-12.7073
䣜	-12.7075
啉	-12.7973
墄	-12.7996
裯	-12.8001
硎	-12.8002
坻	-12.8003
佔	-12.8006
礧	-12.8006
猋	-12.8008
竣	-12.801
㓛	-12.8012
梅林分韻得	-12.8012
睎	-12.8013
刊	-12.8014
媼	-12.8015
貊	-12.8016
嫓	-12.8016
洳	-12.8016
螽	-12.8017
讞	-12.8017
秬	-12.8017
磈	-12.8017
酃	-12.8017
送鈐轄館使王公	-12.8018
喋	-12.8019
恡	-12.8019
荂	-12.8019
犒	-12.802
螀	-12.802
爚	-12.802
䙀	-12.8021
蘼	-12.8021
長如白練飛一條界破青山色	-12.8021
硃	-12.8021
志雅堂雜鈔	-12.8021
膴	-12.8022
燬	-12.8022
螿	-12.8022
熠	-12.8023
水田飛白鷺夏木囀黄鸝	-12.8023
攧	-12.8024
祙	-12.8024
郫	-12.8025
髥	-12.8025
鹺	-12.8025
哮	-12.8025
罸	-12.8025
檀閣醉倚王家玳瑁筵	-12.8025
籯	-12.8025
櫩	-12.8026
坳	-12.8026
櫬	-12.8026
欽定四庫全書詩林廣記後集巻	-12.8026
跬	-12.8026
搃	-12.8027
宙	-12.8027
蒻	-12.8028
柈	-12.8028
饜	-12.8028
鋼	-12.8028
麰	-12.8029
戇	-12.8029
醎	-12.8029
欬	-12.8029
凴	-12.8029
㧾	-12.803
㕑	-12.803
㮚	-12.803
逌	-12.803
􁧐	-12.803
麕	-12.803
蘩	-12.803
四更山吐月殘夜水明樓	-12.8031
藳	-12.8031
歃	-12.8031
帟	-12.8031
紈袴不餓死儒冠多誤身	-12.8031
蜥	-12.8031
瘟	-12.8031
潏	-12.8031
豨	-12.8031
淛	-12.8032
苾	-12.8032
谺	-12.8032
梁通事舍人東莞劉勰撰	-12.8032
詹事府詹事加吏部侍郎銜黄叔琳撰	-12.8033
䂬	-12.8033
恂	-12.8033
水荇牽風翠帶長	-12.8033
啗	-12.8034
知風雨夜復此對床眠	-12.8034
黟	-12.8034
聃	-12.8034
簀	-12.8035
猩	-12.8035
蹌	-12.8035
汐	-12.8036
涅	-12.8036
轝	-12.8036
毡	-12.8036
洺	-12.8036
悛	-12.8036
若教解語應傾國任是無情也動人	-12.8036
薳	-12.8036
澷	-12.8037
难	-12.8037
繖	-12.8037
鵕	-12.8037
嶱	-12.8037
鑛	-12.8037
刓	-12.8037
梏	-12.8039
瞠	-12.8039
礦	-12.8039
􁐻	-12.8039
梨花一枝春帶雨	-12.8039
崱	-12.8039
儇	-12.804
敻	-12.804
㳫	-12.804
櫨	-12.804
䧺	-12.804
蚨	-12.804
紡	-12.804
戅	-12.804
漠漠水田飛白鷺隂隂夏木囀黄鸝	-12.804
莞	-12.8041
陴	-12.8041
阪	-12.8041
句向夜深得心從天外歸	-12.8041
錠	-12.8041
敭	-12.8042
鱷	-12.8042
苣	-12.8042
僶	-12.8043
邯	-12.8043
姆	-12.8043
唄	-12.8043
瓷	-12.8044
䂊	-12.8044
鶵	-12.8044
涂	-12.8045
麦	-12.8045
吟成五字句用破一生心	-12.8045
膇	-12.8045
厨船進食簇時新	-12.8045
諗	-12.8045
􁩑	-12.8046
何郎試湯餅日烘荀令炷爐香	-12.8046
芔	-12.8046
蘢	-12.8046
譟	-12.8046
袠	-12.8046
耼	-12.8046
更無一箇是男兒	-12.8047
鄣	-12.8047
氐	-12.8047
毓	-12.8047
㘭	-12.8047
脗	-12.8047
唁	-12.8048
煽	-12.8048
萦	-12.8048
牗	-12.8049
繊	-12.8049
橦	-12.8049
齕	-12.805
匾	-12.805
踈影横斜水清淺暗香浮動月黄昏	-12.8051
㢠	-12.8053
􁮺	-12.8054
洫	-12.8054
惣	-12.8056
热	-12.8056
雊	-12.8057
螂	-12.8058
䄡	-12.8058
玲	-12.8059
鯀	-12.8059
綍	-12.8062
峘	-12.8063
窳	-12.8068
冏	-12.8068
滈	-12.807
鷕	-12.8076
闓	-12.8091
盬	-12.9021
家家養烏鬼頓頓食黄魚	-12.9102
輗	-12.9104
鋟	-12.911
份	-12.9111
王文孺臞菴	-12.9115
吭	-12.912
庐	-12.9121
榾	-12.9123
侁	-12.9124
篨	-12.9125
牥	-12.9125
淖	-12.9128
揑	-12.9129
缷	-12.9129
糲	-12.9129
珌	-12.9129
喆	-12.913
岵	-12.913
黁	-12.9131
無邊落木蕭蕭下不盡長江	-12.9131
胆	-12.9131
尻	-12.9131
蜴	-12.9131
簘	-12.9132
玘	-12.9132
帊	-12.9132
揎	-12.9133
樞密院編修官	-12.9133
骳	-12.9133
薾	-12.9134
鞲	-12.9135
彘	-12.9135
跧	-12.9135
餐秋菊之落英	-12.9135
灊	-12.9135
墾	-12.9136
眙	-12.9136
瞢	-12.9136
䳵	-12.9136
簽書樞密院事	-12.9136
三朝北盟㑹編	-12.9137
嗺	-12.9137
北闕休上書南山歸	-12.9137
瑑	-12.9137
桶	-12.9137
泬	-12.9137
發乎情止乎禮義	-12.9138
桁	-12.9138
痼	-12.9139
窿	-12.9139
睽	-12.9139
蹂	-12.9139
驁	-12.9139
隂垂野草青青時有幽花一樹明	-12.9139
百家詩話総龜後集卷之三十	-12.9139
􁒽	-12.914
之景如在目前含不盡之意見	-12.914
韝	-12.914
驑	-12.914
荆楚歲時記	-12.9141
粟粒芽前丁後蔡相	-12.9141
惧	-12.9141
黮	-12.9141
菼	-12.9141
祺	-12.9141
欻	-12.9141
穱	-12.9142
冄	-12.9142
孤忠自許衆不與	-12.9142
諴	-12.9142
轘	-12.9143
薬	-12.9143
㲲	-12.9143
袷	-12.9143
憂不足東老雖貧樂有餘白酒	-12.9143
鬉	-12.9143
哈	-12.9143
㾕	-12.9143
楊大年錢文僖晏元獻劉子儀	-12.9143
䙚	-12.9144
囓	-12.9144
擿	-12.9144
侗	-12.9144
蛑	-12.9144
鋸	-12.9144
碨	-12.9145
琶	-12.9145
鬲	-12.9145
汃	-12.9145
奘	-12.9145
自縁今日人心别未必秋香一夜衰	-12.9146
侠	-12.9146
囦	-12.9146
寫留行道影焚却坐禪身	-12.9146
蜋	-12.9147
掊	-12.9147
剬	-12.9147
棒	-12.9147
筏	-12.9148
韀	-12.9148
鄷	-12.9148
叵	-12.9148
贗	-12.9148
耡	-12.9148
麒	-12.9148
謀身拙為安蛇足報國	-12.9148
昪	-12.9149
遟	-12.9149
􁂴	-12.9149
裸	-12.9149
兌	-12.9149
廕	-12.915
聡	-12.915
苕溪漁隐叢話	-12.915
熲	-12.915
聲也躋攀分寸不可上	-12.9151
賨	-12.9151
帨	-12.9151
急野渡無人舟自横	-12.9151
谽	-12.9152
濘	-12.9152
蹷	-12.9152
廋	-12.9152
墁	-12.9153
荄	-12.9153
谹	-12.9153
力通青海求龍種死諱文成食	-12.9153
瑁	-12.9153
姙	-12.9154
宴安樂公主新宅云	-12.9154
榰	-12.9154
鉤輈格磔	-12.9154
襞	-12.9154
糗	-12.9155
為他人作嫁衣裳	-12.9155
氂	-12.9155
􁣉	-12.9155
年去年來來去忙	-12.9155
沭	-12.9155
邰	-12.9156
勲業頻看鏡行藏獨倚樓	-12.9156
鞬	-12.9156
杕	-12.9157
甆	-12.9157
梠	-12.9157
砯	-12.9158
痒	-12.9158
殱	-12.9158
昼	-12.9158
蟁	-12.9159
鏌	-12.9159
渰	-12.9159
趕	-12.9159
柤	-12.916
筴	-12.9161
惎	-12.9162
䮧	-12.9162
胤	-12.9162
囁	-12.9163
鶄	-12.9163
縆	-12.9163
􁜣	-12.9163
綌	-12.9164
𫾣	-12.9164
親朋無一字老病有孤舟	-12.9164
谸	-12.9164
尅	-12.9165
娩	-12.9165
晢	-12.9165
筳	-12.9165
蓆	-12.9166
沗	-12.9167
冣	-12.9167
罼	-12.9168
􁀒	-12.9168
汛	-12.9168
㦲	-12.917
道之難難於上青天	-12.9171
𬗋	-12.9174
芧	-12.9174
崤	-12.9174
爹	-12.9175
穜	-12.9178
桺	-12.918
五更鼓角聲悲壯三峽星河影動揺	-12.918
嶪	-12.9182
彳	-12.9182
鐐	-12.9182
鎩	-12.9183
滮	-12.9194
􁎃	-12.9199
涊	-12.9245
淟	-12.9247
袜	-13.0318
丫	-13.0359
柎	-13.0362
㷀	-13.0365
蛸	-13.0365
鰂	-13.0366
㿿	-13.0366
眊	-13.0366
僩	-13.0369
冋	-13.0369
鄱	-13.0371
谷口未斜日數峯生夕隂	-13.0372
焯	-13.0372
蠨	-13.0372
峪	-13.0374
頏	-13.0375
蜒	-13.0375
滾	-13.0376
鞛	-13.0376
㩁	-13.0377
謄	-13.0378
虒	-13.0378
桃李春風一杯酒江湖夜雨十年燈	-13.0378
鐔	-13.0378
花院落溶溶月栁絮池塘淡淡風	-13.0379
貉	-13.0379
哢	-13.038
䈔	-13.038
甦	-13.0381
入門下馬氣如虹	-13.0381
磽	-13.0381
胞	-13.0381
裀	-13.0381
烟波與風雨載將離恨過江南	-13.0381
奠桂酒兮椒漿	-13.0382
灸	-13.0382
訢	-13.0383
醨	-13.0383
㬉	-13.0383
晬	-13.0383
軆	-13.0383
愀	-13.0383
滹	-13.0384
䓗	-13.0384
禡	-13.0384
酇	-13.0384
篡	-13.0384
按唐三家及歐尹	-13.0384
暍	-13.0385
鎧	-13.0385
疣	-13.0385
髹	-13.0385
饉	-13.0385
怊	-13.0386
侄	-13.0386
野水無人渡孤舟盡日横	-13.0386
西飛一片東自是桃花貪結子錯	-13.0386
玭	-13.0386
刖	-13.0387
錙	-13.0387
眼前有景道不得崔顥題詩	-13.0387
新詩改罷自長吟	-13.0387
䨥	-13.0388
炒	-13.0388
送張説上集賢學士	-13.0388
莩	-13.0388
兗	-13.0388
嵸	-13.0388
鷸	-13.0389
柂	-13.0389
橛	-13.0389
幪	-13.039
檗	-13.039
潩	-13.039
國風好色而不淫小雅怨誹	-13.039
淤	-13.0391
堂前燕飛入尋常百姓家	-13.0391
燀	-13.0391
不才明主棄多病故人踈	-13.0391
􁈍	-13.0391
歈	-13.0391
㭊	-13.0391
町	-13.0391
眡	-13.0391
殛	-13.0391
暕	-13.0392
鍍	-13.0392
可忍風敲竹飲散那堪月在花	-13.0392
雰	-13.0392
蚶	-13.0392
撦	-13.0392
鮭	-13.0393
蜿	-13.0393
囹	-13.0393
殳	-13.0393
清風明月不用一錢買玉山自倒非人推	-13.0393
矱	-13.0393
鏹	-13.0394
媮	-13.0394
圄	-13.0394
幬	-13.0394
轆轤韻者雙出雙入	-13.0394
皚	-13.0394
腫	-13.0394
盩	-13.0394
送李愿歸盤谷	-13.0394
型	-13.0395
𠂻	-13.0395
㣧	-13.0395
沴	-13.0395
鋌	-13.0395
公若登台輔臨危莫愛身	-13.0395
庀	-13.0395
炁	-13.0396
侹	-13.0396
堦碧草自春色隔葉黄鸝空好音	-13.0396
水流心不競雲在意俱遲	-13.0396
瞶	-13.0396
硉	-13.0396
不伐有巢樹多移無主花	-13.0396
虖	-13.0397
睞	-13.0397
蕾	-13.0397
噩	-13.0397
褌	-13.0397
郁氏書畫題跋記	-13.0398
棼	-13.0398
渲	-13.0398
訏	-13.0398
蠺	-13.0398
月頭支給買花錢滿殿宫人近	-13.0398
倧	-13.0398
獮	-13.0399
麪	-13.0399
飀	-13.0399
不聞夏商衰中自誅褒妲	-13.0399
耴	-13.0399
人具雞黍稚子摘楊梅	-13.0399
夛	-13.04
雘	-13.04
㳒	-13.04
屢薦不入官一麾乃出守	-13.04
侫	-13.0401
今朝臘月春意動	-13.0401
䗫	-13.0402
楂	-13.0403
戺	-13.0403
泐	-13.0403
洊	-13.0404
瞍	-13.0404
柸	-13.0404
櫜	-13.0404
眦	-13.0404
靦	-13.0405
薈	-13.0405
貙	-13.0405
􁓨	-13.0405
睚	-13.0405
嚻	-13.0406
何四紀為天子不及盧家有莫愁	-13.0406
睍	-13.0406
鞞	-13.0406
日暮碧雲合佳人殊未來	-13.0406
窹	-13.0407
詖	-13.0407
獪	-13.0407
諏	-13.0407
內	-13.0407
餞唐州髙使君云	-13.0407
咀五色之靈芝香生九竅咽三危之瑞露	-13.0407
岏	-13.0407
乹	-13.0408
􁃜	-13.0408
噲	-13.0409
㒹	-13.0409
届	-13.0409
皜	-13.0409
明朝有封事數問夜如何	-13.0409
㱀	-13.0409
飥	-13.041
𨗳	-13.041
倆	-13.041
巃	-13.0411
篿	-13.0411
暠	-13.0411
儐	-13.0412
簦	-13.0413
耍	-13.0413
犮	-13.0413
脰	-13.0414
之詩而熟參之次取	-13.0414
纘	-13.0414
眂	-13.0415
纉	-13.0415
麵	-13.0415
䥫	-13.0415
錞	-13.0415
柚	-13.0416
鑿開魚鳥忘情地展盡江湖極目天	-13.0416
凟	-13.0417
虙	-13.0417
獷	-13.0418
腓	-13.0418
蹏	-13.0418
𪷟	-13.042
慊	-13.042
祸	-13.0421
􁐓	-13.0421
埴	-13.0422
婣	-13.0424
纆	-13.0425
勮	-13.0427
棻	-13.0428
褉	-13.0429
琥	-13.0433
芎	-13.0434
望春宫迎春應制云	-13.0438
薁	-13.0445
閜	-13.0457
􁇳	-13.1734
狒	-13.175
柷	-13.1777
捭	-13.1784
糭	-13.1786
題招提院静照堂	-13.1793
轆	-13.1794
厅	-13.1794
紞	-13.1795
虹收千嶂雨潮展半江天	-13.1798
丱	-13.1798
吳姬壓酒勸客嘗	-13.1798
陘	-13.1799
暵	-13.1799
襕	-13.1799
顐	-13.18
漵	-13.1801
芑	-13.1801
和潘良貴題明州三江亭韻	-13.1801
苕溪胡元任叢話曰	-13.1801
樂意相闗禽對語生香不斷樹交花	-13.1802
浯	-13.1804
悁	-13.1804
幐	-13.1805
花滿眼淚不共楚王言	-13.1805
以染黄不借礬而成色故	-13.1805
淝	-13.1806
婐	-13.1806
庳	-13.1807
栲	-13.1807
嘐	-13.1807
灕	-13.1807
䞇	-13.1807
宣室召徒有茂陵求	-13.1807
矼	-13.1807
槲	-13.1807
當時諸葛成何事只合終身作卧龍	-13.1807
溵	-13.1808
桔	-13.1809
稊	-13.1809
鄽	-13.1809
主管台州崇道觀	-13.1809
楪	-13.1809
俌	-13.1809
嘬	-13.1809
恟	-13.181
曙催歸日未西無心花裏鳥更與盡情啼	-13.181
鞫	-13.181
喌	-13.181
嵯	-13.181
闟	-13.181
稲	-13.181
脁	-13.181
曲譜金書字樹記花名玉篆牌	-13.181
垕	-13.181
杜詩韓筆愁來讀似倩麻姑癢處	-13.1811
詅	-13.1811
􁅉	-13.1811
膊	-13.1811
柙	-13.1812
䄄	-13.1812
蕞	-13.1812
裓	-13.1812
􁗀	-13.1813
朢	-13.1813
扑	-13.1813
眤	-13.1814
望夷宫中鹿為馬秦人半死長城下	-13.1814
茝	-13.1814
􁩪	-13.1814
傪	-13.1815
題錢公輔衆樂亭	-13.1815
噍	-13.1815
鬖	-13.1815
襁	-13.1816
敺	-13.1816
昞	-13.1816
腊	-13.1816
艎	-13.1816
趐	-13.1816
騄	-13.1817
公獨未知其趣耳臣今時復一中之	-13.1817
矰	-13.1817
鶴一去不復返白雲千載空悠悠	-13.1818
俁	-13.1819
讔	-13.1819
箝	-13.1819
饘	-13.1819
盒	-13.1819
卬	-13.1819
溘	-13.1819
粃	-13.1819
歌蛙兩部山中奴	-13.182
賾	-13.182
分岡勢司空曙春入燒痕劉長卿不是師	-13.182
瑶池飲日宴崑崙丘	-13.182
礲	-13.182
堋	-13.182
裠	-13.1822
漘	-13.1822
衖	-13.1822
黄鵠去不息哀鳴何所投	-13.1822
掐	-13.1822
趠	-13.1822
酴	-13.1822
婷	-13.1822
萸	-13.1823
菰蒲深處疑無地忽有人家笑語聲	-13.1823
拐	-13.1823
甯	-13.1823
第一云山頭日日風和雨行人歸	-13.1823
軛	-13.1823
襫	-13.1823
㢮	-13.1824
侲	-13.1824
虔	-13.1824
捽	-13.1824
華堂今日綺筵開誰喚分司御史來忽發	-13.1824
跑	-13.1824
棖	-13.1824
縧	-13.1824
燕體輕弱風猛則不能勝惟	-13.1824
燁	-13.1825
為浮雲能蔽日長安不見使人愁	-13.1825
􁁧	-13.1825
颿	-13.1825
顧命有治亂臣子得從違	-13.1826
到江吳地盡隔岸越山	-13.1826
瀋	-13.1827
日出霧露餘青松如膏沐	-13.1827
兑	-13.1827
枲	-13.1827
有幾多愁恰似一江春水向東流	-13.1827
芭	-13.1827
荈	-13.1828
後來者當與此心期	-13.1828
籝	-13.1828
咆	-13.1828
楦	-13.1828
􁡯	-13.1828
琉	-13.1829
鷇	-13.1829
惸	-13.1829
椵	-13.1829
去心今既不如昔後當不如今	-13.1829
言隨意遣渾然天成殆不見有牽	-13.1829
渡桑乾水却望并州是故鄉	-13.1829
箔輕明拂玉墀披香新殿	-13.183
矇	-13.183
埠	-13.183
胝	-13.183
栗爆燒氊破猫跳觸鼎	-13.183
當君白首同歸日是我青山獨往時	-13.183
暗飛螢自照水宿鳥相呼	-13.1831
桃無緑葉辨杏有青枝	-13.1831
沜	-13.1831
麚	-13.1831
剉	-13.1831
矞	-13.1831
一水䕶田將緑遶兩山排闥送青來	-13.1831
笮	-13.1831
歌聲無歡出門即有礙誰謂天地寛	-13.1831
菖	-13.1832
山圍故國周遭在潮打空城寂寞	-13.1832
緦	-13.1832
落日照大旗馬鳴風蕭蕭	-13.1833
天闕象緯逼雲卧衣裳冷	-13.1834
芼	-13.1834
臓	-13.1834
晼	-13.1834
裲	-13.1834
溲	-13.1835
羑	-13.1835
瀵	-13.1835
卿絶世無既稱絶世無天子何不喚取守	-13.1835
搯	-13.1835
裏日光飛野馬案頭筠管長蒲盧	-13.1835
洴	-13.1836
碻	-13.1836
禖	-13.1836
嬲	-13.1836
椘	-13.1837
蘗	-13.1837
磝	-13.1837
鞘	-13.1837
吳楚東南坼乾坤日夜浮	-13.1837
嘷	-13.1837
怍	-13.1837
臣日午殿頭宣索膾隔花催喚打魚人	-13.1838
饟	-13.1839
戹	-13.1839
砰	-13.1839
囱	-13.1839
喊	-13.184
斉	-13.184
燐	-13.184
香飄合殿春風轉花覆千官淑景移	-13.184
懔	-13.184
灂	-13.184
煢	-13.184
躑	-13.1841
飛花寒食東風御栁斜日暮漢宫傳	-13.1841
葯	-13.1841
太液波翻披香簾捲	-13.1842
踟	-13.1843
􁯣	-13.1843
云張公一生江海客身長九尺鬚眉蒼	-13.1844
唉	-13.1846
露濕寒塘草月映清淮流	-13.1846
腑	-13.1847
邐	-13.1847
輳	-13.1847
恓	-13.1847
頵	-13.1847
价	-13.1847
湾	-13.1848
􁦚	-13.1849
鞉	-13.185
魖	-13.1851
煖鳥聲碎日髙花影重	-13.1852
䥴	-13.1852
皱	-13.1853
娉	-13.1854
穭	-13.1854
諜	-13.1857
梴	-13.1861
臀	-13.1864
瀌	-13.1866
痎	-13.1867
薠	-13.1871
娣	-13.1875
􁆱	-13.1901
縩	-13.1912
篊	-13.3409
瑴	-13.3424
艛	-13.3434
鮠	-13.344
櫃	-13.3447
稭	-13.3448
送何水部蒙出牧袁州	-13.3449
櫧	-13.345
澉	-13.345
禜	-13.3452
閿	-13.3462
隩	-13.3462
眐	-13.3462
㓨	-13.3463
碪	-13.3463
㲄	-13.3463
𫝊	-13.3464
嶙	-13.3465
相送欲行不行各盡觴	-13.3465
佼	-13.3465
广	-13.3467
旼	-13.3467
堇	-13.3467
犴	-13.3467
螗	-13.3467
暱	-13.3467
酖	-13.3468
千門次第開一騎紅塵妃子笑無人知	-13.3468
剙	-13.3468
意各極其長雖善論者不能優劣	-13.3469
空盤硬語妥帖力排奡	-13.3469
鱔	-13.3469
喇	-13.3469
咈	-13.347
􁈼	-13.347
焼	-13.347
次袁尚書巫山十二峯二十五韻	-13.347
桮	-13.347
艓	-13.3471
瘼	-13.3471
城外寒山寺夜半鐘聲到客船	-13.3471
澮	-13.3471
㱿	-13.3472
煗	-13.3472
㢲	-13.3472
君不見阮嗣宗臧否不挂口莫	-13.3473
爝	-13.3473
袐	-13.3473
杻	-13.3473
溈	-13.3473
㰂	-13.3473
漓	-13.3474
鬌	-13.3474
蕕	-13.3475
冷徹骨四十餘萬屯	-13.3475
渑	-13.3476
崟	-13.3476
兒童悞喜朱顔在一笑那知是酒紅	-13.3476
天下蒼生待霖雨不知龍向此中蟠	-13.3476
澱	-13.3476
新霜染楓葉皓月借蘆花	-13.3477
瘉	-13.3477
勦	-13.3477
黝	-13.3477
賻	-13.3477
薅	-13.3477
沇	-13.3477
徔	-13.3477
柮	-13.3477
畸	-13.3478
郸	-13.3478
春風年年花鳥無窮恨盡在蒼梧夕照中	-13.3478
圑	-13.3478
姍	-13.3478
䥥	-13.3478
枒	-13.3478
忉	-13.3478
㷔	-13.3478
七言五言之間除去五字三字外精神	-13.3478
水暖鳬鷖行哺子春深桃李卧開花	-13.3478
􁨂	-13.3478
薏	-13.3479
蚍蜉撼大樹可笑不自量	-13.3479
肪	-13.3479
㸦	-13.3479
思君如流水既是即目	-13.3479
多依效舊文未盡所趣	-13.3479
不寄一枝梅塵泥自與雲霄隔駑馬難追	-13.348
㞐	-13.348
餼	-13.348
翰林風月三千首吏部文章二百年	-13.348
一聲何處送書鴈百丈誰家上	-13.348
嬗	-13.348
尢	-13.348
鶪	-13.348
䚦	-13.348
邾	-13.3481
日月籠中鳥乾坤水上萍	-13.3481
莫能定其後得一善本乃是身輕一鳥	-13.3481
旌旗日暖龍蛇動宫殿風微燕雀髙	-13.3481
桉	-13.3481
莊生曉夢迷蝴蝶望帝春心	-13.3481
雪後園林纔半樹水邊籬落忽横枝	-13.3481
銚	-13.3481
髣	-13.3482
艣	-13.3482
僴	-13.3482
哤	-13.3482
宴優人有為義山者衣服敗	-13.3482
歐陽文忠公稱其張僕射園中一	-13.3482
糉	-13.3482
蠋	-13.3482
雍端年十三不識六與七通子垂九齡但	-13.3482
鐍	-13.3482
鏝	-13.3483
尠	-13.3483
春深遊寺客花落閉門僧	-13.3483
楶	-13.3483
𬈑	-13.3483
手兩語最當人意初日芙	-13.3483
洏	-13.3483
讀魯直詩如見魯仲連李	-13.3483
匹阿宣行志學而不	-13.3483
不書諱同韓文息國夫人誌例也	-13.3483
跚	-13.3484
礙然其精圓快速發之在手筠亦未能盡	-13.3484
縰	-13.3484
樨	-13.3484
簣	-13.3484
輠	-13.3484
㱔	-13.3484
游絲白日静鳴鳩乳燕青春深	-13.3484
逢人問梓州長江那可到行客替生愁	-13.3484
麀	-13.3485
銀燭秋光冷畫屏輕羅小扇撲流螢天	-13.3485
靈運諸詩可以當此者亦無幾彈丸	-13.3485
嚞	-13.3485
城中寸土如寸金幽軒種竹只十箇春風	-13.3485
晚泊孤舟古祠下滿川風雨看潮生	-13.3485
篩	-13.3485
賍	-13.3485
遣亂蛙成兩部更邀明月作三人	-13.3485
殆不可拘以常格如此日足可惜之類是	-13.3485
曕	-13.3485
餡	-13.3485
情忘形得意知者寡不若見詩如見	-13.3485
添漠漠隂隂四字此乃摩詰	-13.3485
管城子無食肉相孔方兄有絶交書精妙	-13.3486
云古畫畫意不畫形梅詩詠物無	-13.3486
天為吾君扶社稷肯教夫子不生還	-13.3486
斜日杏花飛江南春盡離	-13.3486
錦瑟無端五十絃一絃一柱思華年	-13.3486
疾病思田里邑有流亡愧俸錢	-13.3486
鵡	-13.3487
鳥歸花影動魚没浪痕圓	-13.3487
善馭良馬者通衢廣	-13.3487
加矣當以此語反三隅也	-13.3487
相逢盡道休官去林下何曾見一人	-13.3487
邜	-13.3487
白摧朽骨龍虎死黒入太隂雷雨垂	-13.3488
嚵	-13.3488
䑃	-13.3488
勌	-13.3488
遴	-13.3488
沙墩至梁苑二十五長亭	-13.3488
思卒然遇之而莫遏有物敗之則失之矣	-13.3488
蚿	-13.3488
滏	-13.3488
𧖟	-13.3488
春水船如天上坐老年花似霧中看	-13.3489
石吾甚愛之勿使牛礪角牛礪角尚可牛	-13.3489
三山半落青天外二水中分白鷺洲	-13.3489
經櫽括權衡者其用意亦深刻矣	-13.3489
㻛	-13.3489
抓	-13.349
追逐採蓮時驚起沙鷗兩岸飛蘭	-13.349
前有所思不學漢臣栽苜蓿空教楚客	-13.349
蹉跌乃天下之至工也	-13.349
篥	-13.349
諝	-13.349
澹自成一家之體今之秉筆者誰能及之	-13.349
舊國别多日故人無少年	-13.349
本朝故善陳時事句律精深超古作者	-13.349
崙	-13.3491
黌	-13.3491
孟明豈有死之日而忍用其良乃知三子	-13.3491
剰得月地少不生塵	-13.3491
滃	-13.3491
義山號西崑體後進效之多竊取義山	-13.3491
豈意青州六從事化為烏有一先生	-13.3491
鱮	-13.3492
曉風飄磬逺暮雪入廊深	-13.3492
筥	-13.3492
崿	-13.3492
蔦	-13.3492
魏顆真孝愛三良安足希	-13.3492
踳	-13.3492
餈	-13.3492
縁好客黄金散盡為收書	-13.3492
逤	-13.3492
倀	-13.3492
薧	-13.3492
護田將綠遶兩山排闥送青來	-13.3492
􁥽	-13.3492
眎	-13.3492
鰈	-13.3493
窯	-13.3493
耰	-13.3493
舳	-13.3493
墦	-13.3493
嶁	-13.3493
昭宗時以翰林承㫖謫嶺表道湖南謝人	-13.3493
學詩渾似學㕘禪	-13.3493
和呉公仲庶遊海雲寺	-13.3493
曰未如陛下小樓吹徹玉笙寒	-13.3493
儵	-13.3493
信手拈來頭頭是道	-13.3493
燋	-13.3493
安得廣厦千萬間大庇天下寒士	-13.3493
饁	-13.3494
独	-13.3494
蘃	-13.3494
媯	-13.3494
蹠	-13.3494
鉸	-13.3494
盭	-13.3495
公擇以為謝家兄弟得意不能過也	-13.3495
斆	-13.3495
緐	-13.3495
聲長在耳山色不離門	-13.3495
鴛鴦如今重到抛毬處不是金爐舊日香	-13.3495
栻	-13.3495
香霧雲鬟濕清輝玉臂寒	-13.3495
􁡸	-13.3495
之屬不可勝數何獨蜀也	-13.3495
謫仙此語誰解道請君見月時登樓	-13.3495
套	-13.3496
歸萬年樹月滿九重城	-13.3496
礶	-13.3496
立蜻蜓不自由五月臨平山下路藕花無	-13.3496
厭就成都卜休為吏部眠	-13.3496
氣劘屈賈壘目短	-13.3497
劼	-13.3497
雞聲茅店月人跡板橋霜	-13.3497
無復李杜豪放之格然亦務以精意相	-13.3497
全似未嘗用力此所以不礙其氣格超勝	-13.3497
雕梁畫未落先愁玉笛吹	-13.3497
洛邑得休告華山窮絶陘倚	-13.3497
焞	-13.3497
妷	-13.3498
歕	-13.3498
樓臺側畔楊花過簾幕中間燕子飛	-13.3498
跽	-13.3498
鄶	-13.3498
厎	-13.3498
夜色月如流朝來自覺承恩	-13.3498
殮	-13.3498
籮	-13.3498
􁝜	-13.3498
剸	-13.3499
牂	-13.3499
䓁	-13.3499
江山有巴蜀棟宇自齊梁	-13.3499
㫤	-13.35
與數客各用一字補之或云疾或云落	-13.35
殘夢依依酒力餘城頭批頰伴啼烏	-13.35
奉和御製送張尚書廵邊	-13.35
飯顆山頭逢杜甫頭戴笠子日卓午	-13.35
文章舊價留鸞掖桃李新隂在鯉庭	-13.35
罳	-13.35
人皆苦炎熱我愛夏日長	-13.3501
吚	-13.3501
韤	-13.3501
􁪽	-13.3501
滿世可能無黙識未知誰擬試齊竽	-13.3501
笙先按拍海棠花下合梁州	-13.3501
柅	-13.3501
罣	-13.3501
􁈋	-13.3501
沍	-13.3501
扯	-13.3501
瘵	-13.3502
矻	-13.3502
曀	-13.3502
甚嚴尤精於對偶嘗云用漢人語止可以	-13.3502
穸	-13.3502
參差始至若有得稍深遂忘疲	-13.3502
大江流日夜客心悲未央	-13.3502
穨	-13.3502
曲終人不見江上數峰青	-13.3503
春草秋更緑公子未西歸	-13.3503
年虬髯十八九子等成大名皆因此人手	-13.3504
憶昔霓旌下南苑苑中萬物生	-13.3504
漁翁夜傍西巖宿曉汲清湘	-13.3504
鶊	-13.3504
活火烹自臨釣石	-13.3504
魚龍戯終遣君王怒偃師	-13.3505
膀	-13.3505
閣深去住彼此無消息人生有情	-13.3505
動七情秀實云勸不得也勸不得也	-13.3505
虓	-13.3506
經來白馬寺僧到赤烏年	-13.3506
壒	-13.3506
澼	-13.3506
朦	-13.3506
袿	-13.3506
㯭	-13.3506
沾臆江水江花豈終極黄	-13.3506
飩	-13.3506
胖	-13.3506
剛腸欺竹葉衰鬢怯菱花	-13.3507
愎	-13.3507
予愛其詞氣如百金戰馬注坡驀澗	-13.3507
舵	-13.3507
砦	-13.3507
兊	-13.3508
費氏蜀之青城人以才色入蜀	-13.3508
瞀	-13.3508
磅	-13.3508
及乎貞觀初尚書踐台斗	-13.3508
姱	-13.3508
昏胡騎塵滿城欲往城南	-13.3508
􁑼	-13.3508
千山送客東西路一樹照人南北枝	-13.3508
腠	-13.3508
墮危芳風軒納飛絮	-13.3508
窱	-13.3508
年抛造物甄陶外春在先生杖屨中	-13.3509
芦	-13.3509
鏕	-13.3509
腷	-13.3509
妁	-13.351
嗉	-13.351
堠東溟邀鶴駕窮兵西極待龍媒	-13.351
粛	-13.3511
雝	-13.3512
竹徑通幽處禪房花木深	-13.3512
隨日化身已要人扶	-13.3512
胚	-13.3513
凂	-13.3513
竊以為字字當活活則字字	-13.3513
因過竹院逢僧話又得浮生半日閒	-13.3513
妊	-13.3514
殍	-13.3514
解忘憂憂底事花名含笑笑何人	-13.3515
臬	-13.3516
凨	-13.3518
孑孑干旟在浚之都素絲組之良馬五之	-13.3519
歪	-13.3521
稀孤城向水閉獨鳥背人飛渡口月初上	-13.3523
酔	-13.3523
蕐	-13.3523
欤	-13.3523
变	-13.3523
頖	-13.3523
斥八極隘九州化為	-13.3524
窀	-13.3524
讟	-13.3524
埓	-13.3525
蘦	-13.3525
瀃	-13.3526
机	-13.3529
呷	-13.3533
萝	-13.3535
唧	-13.3538
不行一萬里不讀萬巻書不可	-13.354
皞	-13.3596
蛓	-13.3609
隝	-13.3652
行到水窮處坐看雲起時	-13.5333
毈	-13.5363
魨	-13.5413
秕	-13.5435
駙	-13.5437
帢	-13.5438
􁀺	-13.544
皭	-13.5447
旉	-13.5447
泑	-13.5449
瘏	-13.5449
贜	-13.5452
蛈	-13.5452
鸝三兩聲荆公命工繪	-13.5454
㫋	-13.5456
棉	-13.5457
皥	-13.5458
蜇	-13.5458
溍	-13.5458
蔫	-13.5459
遲遲不忍之意故曰尚憐終南山	-13.5459
問子為誰歟田父有好	-13.5459
宂	-13.5459
􁰻	-13.5459
􁆩	-13.546
鰋	-13.546
有文章妙一世而詩句不逮古	-13.546
冰肌玉骨清無汗水殿風來暗香滿	-13.546
蝓	-13.546
澹之趣兼峻潔之姿備藻麗之態而諸家	-13.546
釴	-13.546
能無望故曰竊效貢公喜難甘原憲貧果	-13.5461
笠澤鱸肥人膾玉洞庭橘熟客分金	-13.5461
見分鳴鞭走送憐漁父洗盞開嘗對馬軍	-13.5462
隮	-13.5462
所以真知者謂傳誦其詩也然宰相職在	-13.5463
臕	-13.5464
子百鳥巢百鳥不敢嗔	-13.5464
又曰隔林彷彿聞機杼知有人家	-13.5465
㲪	-13.5465
竿懶眠沙草愛風湍莫倚善題鸚鵡賦何	-13.5465
幾人代蕩子長不歸山椒	-13.5465
薯	-13.5465
社稷存亡生靈塗炭都不問只恐捉了二	-13.5465
炕	-13.5466
愓	-13.5466
桃李春風一盃酒江湖夜雨十年燈	-13.5466
浩浩長江入海流舞罷青	-13.5466
悃	-13.5466
道士如相訪為寫黄庭換白鵝	-13.5466
椑	-13.5467
哆	-13.5467
惠泉未向人間殺風景更持醪醑醉花前	-13.5467
老妻畫紙為棊局稚子敲針作釣鈎	-13.5467
觀洞古今象外逐幽好	-13.5467
疁	-13.5467
聪	-13.5468
蛟龍得雲雨鵰鶚在秋天	-13.5468
搤	-13.5468
瀫	-13.5468
􁛙	-13.5469
他日若能窺孟子終身何敢望韓公	-13.5469
壎	-13.5469
新沙換故洲結綺臨春無處	-13.547
齁	-13.547
􁆍	-13.547
若能者則出入縱横何可拘礙	-13.5471
體衆共守之然不若時用變體如兵之出	-13.5471
無聲時見疎星渡河漢屈指西風幾時來	-13.5471
限之才追無窮之意雖淵明	-13.5471
鱟	-13.5471
吳楚東南拆乾坤日夜浮	-13.5471
碟	-13.5471
閠	-13.5471
揺落深知宋玉悲風流儒雅亦吾師	-13.5472
淚滿羅巾夢不成夜深前殿按歌聲紅	-13.5472
藍尾忽驚新火後遨頭要及浣花前	-13.5472
撘	-13.5473
欲與見素别則曰常擬報一飯	-13.5473
當中殿前作賦聲摩空筆補造化天無功	-13.5473
詩有一篇命意有句中命意如	-13.5473
狺	-13.5473
茞	-13.5473
化行禹貢山川外人在周公禮樂中	-13.5473
各據槁梧同不寐偶然聞雨落階除	-13.5473
海鵬共擊三千里鐵馬同歸十二閑	-13.5473
則所知不可以不别故曰常擬報一	-13.5474
素詩布置如此是一篇命意也至其道	-13.5474
而才短如造内法酒手而無材料	-13.5474
主思悠悠青鳥不傳雲外信丁香	-13.5474
壡	-13.5474
待伴不禁鴛瓦冷羞明	-13.5474
不能薦賢則去之可也故曰焉能心怏怏	-13.5475
入海而去秦也然其去也必有	-13.5475
嶻	-13.5475
為揚瀾左蠡兮洪濤巨浪日夕相舂撞雲	-13.5475
海秋光上下磨青銅鳥飛不盡暮天碧漁	-13.5475
白首困一邦寵榮聲利不可以	-13.5475
硏	-13.5475
紫陌紅塵拂面來無人不道	-13.5475
誰能窮百年形影浪自苦便欲此地安	-13.5475
咻	-13.5475
眉山月半輪秋影入平羌江水流	-13.5476
鉌	-13.5476
惏	-13.5476
玉女來看玉樹花異香先引七	-13.5476
世俗不辨珉與玒䇿名為吏二十載青	-13.5476
枝春江水暖鴨先知蔞蒿滿地蘆芽短正	-13.5476
馬玉堂三學士清風明月兩閒人	-13.5476
舉世徒驚駭梅窮獨我知古	-13.5476
為曹公奪二喬置之銅雀臺上也孫氏	-13.5476
借車載家具家具少於車	-13.5476
庯	-13.5476
至若鋪陳終始排比聲韻	-13.5476
鄮	-13.5477
丈夫壯節似君少嗟我欲	-13.5477
嫺	-13.5477
響松檜懸崖巨石飛流淙水聲聒聒亂人	-13.5477
兮自非青雲白石有深趣其氣兀硉何由	-13.5477
浩蕩萬里誰能馴終焉此詩前賢録	-13.5477
絃五十其柱如之其聲也適怨清和	-13.5477
只恐夜深花睡去髙燒銀燭照紅粧	-13.5477
觟	-13.5477
珤	-13.5478
韌	-13.5478
夜起避暑摩訶池上作	-13.5478
衂	-13.5478
骭	-13.5478
其意後以問東坡東坡云此出古今樂志	-13.5478
再誦不覺心醉遂置酒又再誦	-13.5478
匭	-13.5478
神武門先尋水竹渭南村	-13.5478
君家把酒盃六年波浪與塵埃不知烏石	-13.5478
壁時加竄定有終篇不留一字者	-13.5478
槮	-13.5478
璈	-13.5478
訇	-13.5479
云莫辭終夕看動是隔年期	-13.5479
其名兮風吹露濕香澗谷時有白鶴飛來	-13.5479
山上望羡君時復見王喬	-13.5479
山無夕陽寄言嘉遯客此處是仙鄉	-13.5479
下國難留金馬客新詩傳與竹枝	-13.5479
陊	-13.5479
卹	-13.5479
字書未備既多假借而音無反切平	-13.5479
家射獵為俗泉甘草美無常處鳥驚獸駭	-13.5479
風雅頌深之以離騷九歌安能咀嚼其	-13.548
𤯝	-13.548
上簾額獨鵲裊庭柯	-13.548
匊	-13.548
滲	-13.548
夢和殘月過樓西月過樓西夢已迷	-13.548
看玉宇浮中流中流蕩漾翠綃舞	-13.548
絶古今以其盡得西山之景趣也金山寺	-13.548
天人恍然坐我水仙府蒼	-13.548
雖同君臣有舊禮骨肉滿眼身	-13.5481
得似張公子千首詩輕萬户侯	-13.5481
華實相副顧非佳句耶	-13.5481
嗽	-13.5481
播人口其名重當時如此而今不復傳矣	-13.5481
簉	-13.5481
𢥠	-13.5481
􁑾	-13.5481
怨也滄海月明珠有淚清也藍田日	-13.5481
笙歌歸院落燈火下樓臺此善言富貴者	-13.5481
綰霧青條弱牽風紫蔓長	-13.5481
手倦抛書午夢長睡	-13.5481
氳	-13.5481
顔色不堪誇牡丹芍藥人題徧自分身如	-13.5481
𫐠	-13.5481
㰖	-13.5481
嘉祐㸃化以自見其妙如李光弼	-13.5481
按新聲譜遺恨已深聲更苦	-13.5481
摩詰竊取之非也此兩句好處正	-13.5481
茔	-13.5481
蠝	-13.5481
青山影坐學白塔骨又獨行潭	-13.5481
岧	-13.5482
傞	-13.5482
梲	-13.5483
縯	-13.5483
矹	-13.5483
趼	-13.5483
再使風俗淳皆儒冠事業也自此意竟	-13.5483
為曹子建作似矣然其中云可汗	-13.5483
耕田欲雨刈欲晴去得順風來者怨	-13.5483
許身一何愚自比稷與契	-13.5483
如玉身行不遇中國人馬上自作	-13.5483
為人傳誦要亦未為至工若用	-13.5483
立敢言人所難去國一身輕似葉髙名千	-13.5483
苦吟而成觀其句法格力可見矣	-13.5483
縡	-13.5483
緍	-13.5484
江東子弟多才俊巻土重來未可知	-13.5484
廬山髙贈同年劉凝之歸南康	-13.5484
恼	-13.5484
晨風懐苦心蟋蟀傷局促	-13.5484
莞然成獨笑數聲漁笛在滄浪	-13.5484
詩必此詩定知非詩人此或一道也魯直	-13.5484
但見舒閒容與之態耳而字字細	-13.5484
窮佳期從莫再脫如魯秋氏妄結	-13.5484
不欲以常語雜之然魯直自有	-13.5484
手生洞房學得琵琶不下堂不識黄雲出	-13.5484
暮雲收盡溢清寒銀漢無聲	-13.5484
長安衆富兒盤饌羅羶葷不	-13.5484
字二眠字二天字三前字	-13.5484
四海空無人大兒汾陽中令君小兒天台	-13.5485
衱	-13.5485
新年納餘慶嘉節號長春	-13.5485
边	-13.5485
陌縱横馳逐惟意所之至於	-13.5485
船月龍出曉堂雲樹影中流見	-13.5485
玅	-13.5485
􁒷	-13.5485
欲其思之來而所謂亂思蕩思者言敗之	-13.5485
狶	-13.5485
託杜鵑滄海月明珠有淚藍田日	-13.5485
如空中之音相中之色水中之月鏡中之	-13.5485
年司制誥共嘉藻思類相如蓬山	-13.5485
漢人語對若參以異代語便不相類	-13.5485
郊居云百草千花路斜風細雨天	-13.5485
霜皮溜雨四十圍黛色參天二千尺	-13.5485
但苦世論隘聒耳如蜩蟬	-13.5485
侍郎拜右相中使押赴文昌	-13.5485
望中黄勾引蟬聲送夕陽憶得	-13.5485
邲	-13.5485
長年方悟少年非人道新詩勝舊詩十	-13.5485
雀橋邊野草花烏衣巷口夕陽斜舊時王	-13.5485
之曰入公門猶鞠躬如	-13.5485
也天門豈可掉臂入乎此人	-13.5485
蠓	-13.5486
以自抗擅軍旅絶貢賦如杜克遜在梓州	-13.5486
蕣	-13.5486
􁚐	-13.5486
望夫處江悠悠化為石不	-13.5486
蝪	-13.5486
怫	-13.5486
鶋	-13.5486
兵衞森畫㦸燕寢凝清香	-13.5486
糒	-13.5486
橅	-13.5486
龏	-13.5486
抌	-13.5486
第為福州古田尉既至官惑一	-13.5486
進退韻者一進一退失此則繆矣余按倦	-13.5486
又云曉來山鳥閙雨過杏花稀誠佳句也	-13.5487
一度新翠光長得照龍津君王自愛天然	-13.5487
晨詣超師院讀禪經	-13.5487
底有天春寂寂人間無路月茫茫	-13.5487
為漚魚常上浮而淰若大雨則伏而不出	-13.5487
三百騎盡提金勒向雲看	-13.5487
橋風雪中驢子上唐求詩所	-13.5487
狴	-13.5487
伐叛弔民何謂有巢無主二子正坐詩窮	-13.5487
曼卿自少以詩酒豪放自得其氣	-13.5487
鞓	-13.5487
又赴長江道中詩曰䇿杖	-13.5487
怒謫英州别駕朝中士大夫以詩送行	-13.5487
相就飲一斗恰有三百青銅錢	-13.5487
絶色天下無一失難再得雖能殺畫工	-13.5487
讀書不作儒生酸躍馬西入金城	-13.5487
讕	-13.5487
幸因腐草出敢近太陽飛	-13.5488
禩	-13.5488
過誰家燕驀地香來甚處花深院日	-13.5488
橑	-13.5488
簳	-13.5488
兩屐身後五車書其必此詩哉	-13.5488
磨洗認前朝東風不與周郎便銅雀春深	-13.5488
僰	-13.5488
此正所謂進退韻格也按韻	-13.5488
病於聲律比興深者通物理用事工者如	-13.5488
粕	-13.5488
虤	-13.5488
人終日苦憐才雲軒飄去無消息	-13.5489
愒	-13.5489
村數家殘雪擁籬根	-13.5489
覼	-13.5489
長短句云平山欄檻倚晴空山色有無中	-13.5489
黦	-13.5489
古不鄰於怪僻題詠不窘於物象	-13.5489
栫	-13.5489
蒟	-13.5489
青龍五年三月改為景初元年	-13.5489
一身去國六千里萬死投荒十二年	-13.549
得意馬蹄疾一日看盡長安花	-13.549
天雪鞋香楚地花他年訪禪室	-13.549
浼	-13.549
辮	-13.549
逺是生離來春縱有相思字三月天南無	-13.549
山落盡黄榆葉駐馬誰家唱石州	-13.549
不見鄭谷所定詩格有進退之	-13.549
息亡縁底事可憐金谷墜	-13.549
却千家作一池不栽桃李種薔薇薔薇花	-13.549
日作詩有丈夫出處非無意猿鶴	-13.549
翻凍影飛鴻摩月墮孤音推愁不去如相	-13.549
茅簷相對坐終日一鳥不鳴山更幽	-13.549
鴦	-13.5491
惆	-13.5491
筆下龍蛇似有神天池雷雨變逡	-13.5491
大江東去浪淘盡千古風流人物	-13.5491
二曰笑傲東軒下聊復得此生三曰客	-13.5491
者出語自然超詣非常人能蹈其軌轍也	-13.5491
褕	-13.5491
掩扉梁燕不知人事改雨中猶作一雙飛	-13.5491
甔	-13.5491
齡墨以傳千古文章之印歌以寫	-13.5491
吾詩廬山髙今人莫能為惟	-13.5491
木森森白玉堂長年來此試文章日斜奏	-13.5491
滷	-13.5491
載斷碑人膾炙不知世有段文昌	-13.5491
馬肝待詔先生齒編貝忍令	-13.5491
悲而哀耳目聞見而哀口歎而哀鼻酸而	-13.5491
用商鞅法令如牛毛	-13.5491
紅顔勝人多薄命莫怨春風當自嗟	-13.5491
紗紅映肉林深霧暗曉光遲日	-13.5491
腥涎不滿殻聊足以自濡	-13.5491
貴雕琢又畏有斧鑿痕貴破的又畏粘皮	-13.5491
闔開黄道衣冠拜紫宸而語益工	-13.5491
風冷今夜故人來不來教人立盡梧桐影	-13.5491
黕	-13.5491
潗	-13.5492
亡矣人言靖節不知道吾不信也	-13.5492
莫打鴨打鴨驚鴛鴦鴛鴦新	-13.5492
毋華寧粗毋弱寧僻毋俗	-13.5492
庭下弱翁異之指牧童曰道人頗	-13.5492
乗馬必中官馭以進謂之過馬既乗之	-13.5492
閾	-13.5492
地濶逺隨飛揚此泛聲也謂輕非絲重非	-13.5492
氷肌玉骨清無汗水殿	-13.5492
汳	-13.5492
鐻	-13.5492
夜南風變成竹喬年㸃化乃爾精巧	-13.5492
書後欲題三百顆洞庭須待滿林霜	-13.5492
窞	-13.5492
綈	-13.5492
嵂	-13.5492
草枯鷹眼疾雪盡馬	-13.5492
肬	-13.5493
榨	-13.5493
春不老素娥何惜月長圓	-13.5493
眉君王若問妾顔色莫道不如宫裏時	-13.5493
用事琢句妙在言其用而不言其名	-13.5493
邍	-13.5493
有時俗事不稱意無限好山都上心	-13.5493
醼	-13.5493
鯈	-13.5493
黟川㸃漆之墨送君以陽	-13.5493
搉	-13.5493
墐	-13.5494
釆	-13.5494
到枯松亦大夫白石道人新拜號斷無繳	-13.5494
灺	-13.5494
正明帝子西飛仙馭逺不知何處夜吹笙	-13.5494
觧語應傾國任是無情也動人	-13.5494
故常非墨工槧人所可擬議	-13.5494
僧歸夜船月龍出曉堂雲	-13.5495
千巻手校韋編三十秋相知四海孰青眼	-13.5495
白頭襄陽耆舊節獨苦只有龎公不入州	-13.5495
也鉉内不服謂大言無實可窮也	-13.5496
公自以此句語人曰窮人家有此景否	-13.5496
粵	-13.5496
休罪明皇與貴妃大都衰盛	-13.5496
撎	-13.5496
言唐人皆苦思作詩所謂吟安一箇字撚	-13.5496
江涵帝子翬飛閣山際真君鶴馭天	-13.5496
楢	-13.5497
山勢蜂腰斷溪流燕尾分	-13.5497
汊	-13.5497
祼	-13.5497
还	-13.5497
韲	-13.5497
麟既鰥居因見此篇遂與之為親余以為	-13.5497
俱歡顔風雨不動安如山	-13.5497
兩箇黄鸝鳴翠柳一行白鷺上青天	-13.5497
壁隙透燈光籬根	-13.5497
歌行才麗之外頗近興諷其五言	-13.5497
紅稻啄餘鸚鵡粒碧梧棲老鳯凰枝	-13.5497
僇	-13.5498
筧	-13.5498
道人庭宇靜苔色連深竹	-13.5498
馬遵謫守宣州及其去也郡僚軍民	-13.5498
􁁅	-13.5498
雇	-13.5498
深明無人矣花鳥平時可	-13.5498
萬嶺動雲去天一色長嘯	-13.5498
落之酒泛君以湘纍秋菊之英贈君以	-13.5498
分井口徐鉉亦有喜李少保卜	-13.5498
懍	-13.5498
河中府法曹張君墓碣銘	-13.5498
而弄斤操斧太甚所謂七日而混沌死也	-13.5499
嚦	-13.5499
琇	-13.5499
籛	-13.5499
旗妾在深宫那得知十四萬人齊	-13.5499
賅	-13.5499
醤	-13.5499
洑	-13.5499
隟	-13.5499
則時可知矣他皆類此不可徧舉	-13.5499
工世固知之惟老杜變化開闔出	-13.5499
蓬萊如可到衰白問羣仙	-13.5499
唘	-13.5499
矲	-13.5499
攃	-13.55
梨花院落溶溶月柳絮池塘淡淡風	-13.55
訕也故不敢作而詩之一義廢矣	-13.55
挽之力不及處分寸不可强若出塞曲	-13.55
而無車馬喧問君何能爾心逺地自偏	-13.55
鞸	-13.55
樁	-13.55
未落其葉沃若他木	-13.5501
癡兒不了公家事男子要為天下竒	-13.5501
紲	-13.5501
貧是病神仙可學道之餘但知白酒	-13.5501
襆	-13.5501
鑴	-13.5501
魈	-13.5501
圩	-13.5501
立當青草人先見行傍白蓮魚未知	-13.5502
擄	-13.5502
孛	-13.5502
蘭氣當馥歸去來山中山中酒應熟	-13.5502
蜣	-13.5502
轤	-13.5502
人如天上坐魚似鏡中懸	-13.5502
怵	-13.5502
書當快意讀易盡客有可人期不	-13.5502
軋軋度寒梭臘天日短不盈尺何似	-13.5502
呉楚東南坼乾坤日夜浮	-13.5503
帝出詩示羣臣次第屬和	-13.5503
騞	-13.5503
蠕	-13.5503
無家對寒食有淚如金波	-13.5503
礟	-13.5503
倬	-13.5503
學詩如學仙時至骨自換	-13.5503
巫峽見巴東迢迢出半空雲藏神女	-13.5503
時挑野菜和根煑旋斫	-13.5503
蛰	-13.5504
君侍君側輦前才人帶弓箭白馬嚼	-13.5504
漼	-13.5504
佽	-13.5504
朝暮泉聲落寒暄樹色同清猿不可	-13.5504
齗	-13.5504
惝	-13.5505
䓤	-13.5505
早被嬋娟誤欲粧臨鏡慵承恩不在	-13.5505
屼	-13.5505
聖朝無闕事自覺諫書稀	-13.5505
鷫	-13.5505
􁰵	-13.5505
乃和凝所作凝後貴悔其少作故嫁名	-13.5505
依山盡黄河入海流欲窮千里目更上一	-13.5505
榞	-13.5505
嫫	-13.5506
傾我當發城市多囂塵還山弄明月	-13.5506
虽	-13.5506
四顧疑無地中流忽有山鳥飛應畏墮	-13.5506
篳	-13.5506
有規矩故可學退之於詩本無解處以才	-13.5506
苫	-13.5506
大瓢貯月歸春甕小杓分江入夜瓶	-13.5506
所謂不煩繩削而自合者	-13.5506
𥅆	-13.5506
麩	-13.5507
牣	-13.5507
闤	-13.5507
曉来山鳥閙雨過杏花稀	-13.5507
鬃	-13.5507
泉雨一溪霜葉風業在有山	-13.5507
光弼將郭子儀之軍重經號令精彩數倍	-13.5507
妙茍不當理則一切皆	-13.5507
長語上自齊梁諸公下至劉夢得	-13.5507
璙	-13.5508
解造逡巡酒能開頃刻花	-13.5508
不惜捲簾通一顧怕君着眼未分明	-13.5508
与	-13.5508
聞犬吠聲更入青蘿去	-13.5508
臏	-13.5508
船如天上坐人似鏡中行	-13.5508
饔	-13.5509
姣	-13.5509
老身倦馬河堤永踏盡黄榆	-13.5509
宄	-13.551
律尤精嚴造語用字間不容髪然意與言	-13.551
㘽	-13.551
筈	-13.551
舊居東城尋春西樓委順竹	-13.551
後生好風花老大即厭之然文章論當理	-13.551
耳茍當於理則綺麗風花同入	-13.551
子眉宇真天人虬髯似太宗色映塞外春	-13.551
虚前席不問蒼生問鬼神	-13.5511
春生桂嶺外人在海門西	-13.5511
荐	-13.5511
細烹還好鐺新味更全	-13.5511
語言少味無阿堵氷雪相看有此君	-13.5511
望明月不學山翁醉似泥到得城中燈火	-13.5511
履常俱謁法雲禪師于城南夜歸過龍眠	-13.5511
忽然湖上片雲飛不覺舟中雨	-13.5511
嗑	-13.5511
如我按指海印發光汝暫舉心塵勞先起	-13.5511
婟	-13.5511
豝	-13.5512
頩	-13.5512
屴	-13.5512
臨淮政成有餘暇坐令華	-13.5512
愛竹時來野寺獨尋春偶過	-13.5512
者曰若以法眼觀無俗不	-13.5512
㴞	-13.5512
多疑其拙窘於檢括者輒病其放孔子曰	-13.5512
飪	-13.5513
鰐	-13.5513
䈥	-13.5513
鎛	-13.5514
笔	-13.5514
􁅔	-13.5514
篱	-13.5514
􁖔	-13.5514
䘵	-13.5515
島嶼分諸國星河共一天	-13.5515
䶵	-13.5516
酆	-13.5516
蟊	-13.5516
殢	-13.5516
􁰈	-13.5516
担	-13.5516
䃱	-13.5516
深山更深處也應無計避征徭	-13.5516
臝	-13.5517
卨	-13.5517
輟耕扶日月起廢極吹	-13.5517
漁翁醉著無人喚過午醒來雪滿船	-13.5518
毖	-13.5518
癃	-13.5518
塵撲面而今始得碧紗籠	-13.5518
譊	-13.5519
熄	-13.552
榝	-13.552
箐	-13.552
聓	-13.552
蛇磨牙吮血殺人如麻錦城雖云樂不如	-13.552
奉和明皇荅張説南出雀䑕谷詩云	-13.552
䲹	-13.552
彡	-13.5521
拇	-13.5521
亜	-13.5521
輩往往以綺麗風花累其正	-13.5521
􁛲	-13.5522
􁧥	-13.5524
够	-13.5524
正是江南好風景落花時節又逢君	-13.5525
佷	-13.5526
西湖處士骨應槁只有此詩君壓倒	-13.5527
􁌀	-13.5527
㐀	-13.5528
睩	-13.5528
處其東萬古永相望七夕誰見同神光	-13.5529
藙	-13.553
長官清平太守好揀選皆言由相公	-13.5531
觿	-13.5531
橪	-13.5532
檛	-13.5532
誶	-13.5533
茅屋斜連隔松葉主人聞語未開門	-13.5533
穋	-13.5537
靉	-13.554
琭	-13.5546
搰	-13.5546
埛	-13.5548
槬	-13.5557
逴	-13.5596
孴	-13.5606
㲉	-13.7834
翡	-13.7921
埈	-13.7924
衵	-13.7932
織女渡河橋家家乞巧望秋月穿盡紅絲	-13.7935
可憐無定河邊骨猶是春閨夢裡人	-13.7937
邭	-13.7938
刅	-13.794
踼	-13.794
脹	-13.7941
未嫌長夜作衣稜却怕初陽生眼纈	-13.7943
攡	-13.7946
勿受外嫌猜同姓古所敦	-13.7947
狭	-13.7949
筓	-13.7949
施其姓也是時有東施家西施家故	-13.7949
蔾	-13.7949
無定枝陽臺雲雨夢中歸他年蓬島音塵	-13.795
覌	-13.795
芳辰丞相園林潩水濵虎節麟符抛不得	-13.7952
叉	-13.7952
玉雙飛水滿塘菰蒲深處浴鴛鴦白蘋滿	-13.7952
矴	-13.7952
􁂁	-13.7953
婦開大瓶盆中為吾取二公皆有位者也	-13.7954
氄	-13.7954
䁀	-13.7954
上座君猶求舊管城公文章不	-13.7954
踦	-13.7956
膈	-13.7956
布置最得正體如官府甲第	-13.7956
之詩長於峻潔徐陵庾信之詩長於藻麗	-13.7956
刈葵莫放手放手傷葵根	-13.7956
媾	-13.7956
取其沐浴新凉曲名賀新凉	-13.7957
冱	-13.7957
前若問舊時黄庭堅謫在人間今八年此	-13.7957
花識者鄙之此宫妾愛君之意也故	-13.7957
年幾五十始以尊夫人之命来集京師	-13.7957
半吐紅巾蹙待浮花浪	-13.7958
因知此恨人多積悔讀南華第二篇	-13.7958
壝	-13.7958
胊	-13.7959
鮹	-13.7959
都盡伴君幽獨濃艶一枝細	-13.7959
咂	-13.796
譾	-13.796
抨	-13.796
暖風抽宿麥清雨巻歸旗	-13.796
花枝滿空迷處所揺動繁英墜紅雨劉李	-13.796
搒	-13.7961
癰	-13.7961
求其疵而去之等閒一字放過則不可	-13.7961
瀠	-13.7961
忽聞河東獅子吼拄杖落手心茫然	-13.7961
玉衣晨自舉鐵馬汗常趨	-13.7961
壁空殘月曙門掩候蟲秋	-13.7961
異而意同不可盡牽出處語而意不顯也	-13.7961
召客治具大合樂至夜分果月出遂樂飲	-13.7961
觶	-13.7961
鶱	-13.7962
淯	-13.7963
撙	-13.7963
自然不做底語到極至處者	-13.7963
為詩以才學為詩以議論為詩夫豈不工	-13.7963
魚出清波庖膾玉菊含寒露酒浮金	-13.7963
而買牛犢則民自力耕不	-13.7963
故人天上有書來責我疎愚喚不	-13.7964
求過人如此少有至者疵病不必待人指	-13.7964
㑹能馳駿馬終須重到使君灘	-13.7964
藋	-13.7964
旁圍欲窮源而不得竟悵望	-13.7964
亂落如紅雨之句以此名世余觀劉禹錫	-13.7964
深刻其後法席盛行海内稱為江	-13.7964
魯直詩文如蝤蛑江珧柱	-13.7964
大或千言次猶數百詞氣豪邁	-13.7964
疢	-13.7964
鋗	-13.7964
時來天地皆同力運去英雄不自由	-13.7965
戃	-13.7965
萬里悲秋常作客百年多病獨登臺	-13.7965
悵望千秋一灑淚蕭條異代不同時	-13.7965
軍功骨肉且相薄他人安得忠	-13.7965
颾	-13.7965
褶	-13.7965
不洗千年恨留與行人戒覆車害理尤甚	-13.7965
覽此編輒悵然終日殆忘食事邈	-13.7965
􁄺	-13.7965
也兩人對踢為白打三人角踢為官	-13.7965
今難賣語雖非工謂粗得	-13.7965
李詩莊生曉夢迷蝴蝶適也望帝春	-13.7965
鬨	-13.7965
狌	-13.7965
瞎	-13.7965
秋英不比春花落為報詩人子細看	-13.7965
經數月若古之聖賢則能聞韶忘味山中	-13.7965
一舉首登龍虎榜十年身到鳯凰池	-13.7967
石補天處石破天驚逗秋雨	-13.7967
筞	-13.7967
帝遣銀河一派垂古來惟有謫仙詞	-13.7967
蕆	-13.7967
自古以直道見黜者多矣豈皆貪寵	-13.7967
鱏	-13.7967
濼	-13.7967
韓退之古詩梅聖俞學唐人平澹處至東	-13.7967
奠桂酒今倒用之謂之蹉對	-13.7967
􁬁	-13.7967
􁱝	-13.7968
孟子七篇論君與民者居半其	-13.7968
躠	-13.7968
桕	-13.7968
飛啞啞枝上啼機中織錦秦川女碧紗如	-13.7968
栱	-13.7968
酒且莫猖狂愛詠詩今日捉	-13.7968
辰年此乃天生作對不假人力	-13.7968
夢得多為累情似安仁久悼亡	-13.7968
屈曲自世間安能從汝巢神山	-13.7968
平治險穢非無力潤澤焦枯是有	-13.7968
題後更誰題此衛子詩也不然安有四蹄	-13.7968
懺	-13.7968
徠	-13.7969
洿	-13.797
釄	-13.797
􁭤	-13.797
世網中語殊不知本分家風水邉林下氣	-13.797
䰅	-13.797
有是詩矣然必言其所以見韋者於是	-13.797
魚龍窟秀出羊城翰墨塲滄海何	-13.797
湖之外雖見素亦不得而見矣故曰白鷗	-13.797
弸	-13.797
韻使與俗同科又何足尚齊已云	-13.797
平生謬作安昌客略遣彭宣到後堂	-13.797
斷豈足數往往霹靂搥蛟龍寒蟾八月蕩	-13.797
蟛	-13.797
怤	-13.797
曼卿卒後其故人有見之者云恍惚	-13.797
栅	-13.797
蜞	-13.797
退之煌煌東方星奈此衆客醉	-13.797
文秀而質羸在曹劉間别構一體方陳思	-13.797
始見天水性澄光與粹容上下相涵映乃	-13.797
定林後詩精深華妙非少作之比嘗作	-13.797
自朱耶之狼狽致赤子之流離	-13.797
自謂之唐宗不知止入聲聞辟支之果豈	-13.797
貴賤賢愚而與之然吾特疑端為我輩設	-13.797
輕隂閣小雨深院晝慵開坐	-13.797
􁑞	-13.797
儓	-13.797
後誰知榮與辱但恨在世時飲酒不得足	-13.7971
禘	-13.7971
風流稷下古諸姜適從瓊	-13.7971
王璘之辟璘敗當誅郭子儀請解官以贖	-13.7971
識汾陽王納官貰死義難忘今觀郭裔	-13.7971
鰓	-13.7971
不類其為人乃知能賦梅花不獨宋廣平	-13.7971
西東我泛靈槎出塵世搜索異境窺神	-13.7971
軍軍亦有天幸未嘗困絶意有大將軍字	-13.7971
凋零萬木見青松公能不逺來千里我病	-13.7971
杏有青枝恨其粘皮骨也能	-13.7971
照耀萬物皆鮮瑩矧夫人之靈豈不醒視	-13.7971
莫知誰作或云鄭兵部仲賢也然集中無	-13.7971
言冀可冥繕性何由熟	-13.7971
抛離本集或有事疏斯亦見之本傳	-13.7972
幺	-13.7972
日新惟有碧霄雲裏月共君孤影最相親	-13.7972
矌	-13.7972
愛月江底懸以手弄月身翻然不應暴落	-13.7972
欣然操觚染翰傍若無人仍名曰髙軒過	-13.7972
篛	-13.7972
謁恭敏李公席中賦詩云穹	-13.7972
巧愈險愈竒如病中贈張十八之類是也	-13.7972
泖	-13.7972
䦧	-13.7972
似朱雲人至今折檻空嶙峋	-13.7972
入吾室者但有清風對吾飲者惟當明月	-13.7972
古來交道愧難終此㑹今時豈易	-13.7972
山谷言詩意無窮而人才有限以有	-13.7972
返蟻難尋穴歸禽易見	-13.7972
都觀裏桃千樹盡是劉郎去後栽	-13.7972
陵不得工也不易其意而造其語謂之	-13.7972
臺追次李太白韻援筆立成一座盡傾	-13.7972
􁜡	-13.7972
他年記憶憐衰老為報西川引一班	-13.7972
冷於陂水淡於秋逺陌初窮到渡頭	-13.7972
㟽	-13.7972
城響濤頭入江昏雨脚斜	-13.7972
時作此題榜一傳不可追改大抵少年題	-13.7972
襇	-13.7972
龢	-13.7972
􁰙	-13.7972
摫	-13.7972
鈲	-13.7972
中散大夫少府監胡良公墓神道碑	-13.7973
長短之製名動京華時韓文公與皇甫湜	-13.7974
猺	-13.7974
一朝登臨重歎息四時想像何其雄	-13.7974
據唐紀明皇以十月幸驪山至春即還	-13.7974
頮	-13.7974
邢居實字惇夫年少豪邁所與	-13.7974
靠	-13.7974
忖	-13.7974
柱懸簷一千丈之語豪則豪矣然安得	-13.7974
頂浮新紫龍脫香髯帶舊涎玉割鱸魚迎	-13.7974
殊不塵埃使之不倦雖競爽者未易追也	-13.7974
相思若將此恨同芳草却恐青青有盡時	-13.7974
褧	-13.7974
始大出而力振之抑揚反覆盡兼衆體	-13.7974
承餘烈江南廣舊恩一朝人事	-13.7974
毫意足不求顔色似前身相馬九方臯	-13.7974
洗滌俯仰恣涵泳人心曠而閒月色	-13.7974
聞過仲舒報政列城歸覲後疏恩髙閣拜	-13.7974
蔀	-13.7974
詩禁體物語此學詩者類能言之	-13.7974
􁂫	-13.7974
􁞠	-13.7974
賀所作竒之因連騎造門求見賀	-13.7975
噣	-13.7975
墢	-13.7975
干移曉柄有似佳期常不定	-13.7975
其騣一躍而上不用銜勒馳數十里而還	-13.7975
字凡亭子皆可用不必滕王也	-13.7975
彯	-13.7975
月落烏啼霜滿天江楓漁火對愁眠姑	-13.7975
無不愛者便知不曉矣識文章者當如	-13.7975
籌筆驛銅雀臺留侯廟詩為一集之冠	-13.7975
要悟入處悟入必自工夫中	-13.7975
道直身還在恩深命轉輕	-13.7975
陽嚼枯草近來問喘更	-13.7975
䰞	-13.7975
一僧率爾云何不曰一方明月滿中庭	-13.7975
所謂四韻全使淵明詩者即此詩是也	-13.7975
文字頻改工夫自出近世歐公作文先貼	-13.7975
節若前有浮聲則後須切響一	-13.7975
選其佳者亦自少得只世所膾炙者數詞	-13.7975
閡	-13.7975
須嘗陽羡茶百草不敢先開花	-13.7975
劖	-13.7975
挽周原道銘旌鄭國門此生雖未死寂寞	-13.7975
耳聞明主提三尺眼見愚民盜一抔	-13.7975
鬍	-13.7976
絜	-13.7976
餕	-13.7976
蕝	-13.7977
鐮	-13.7977
舋	-13.7977
色絢爛漸老漸熟乃造平	-13.7977
不敢復論鄙事雖若不適用然不為無補	-13.7977
於七字之中婉麗雄勝字字不失相對雖	-13.7977
然則近代之詩無取乎曰有之吾取其合	-13.7977
千錢買一窠今朝始得分明見也共戎葵	-13.7977
搽	-13.7977
眠落葉不知數一鳥忽飛來啼破幽絶處	-13.7977
袨	-13.7977
靼	-13.7977
伐木丁丁鳥鳴嚶嚶出自幽谷遷	-13.7977
如金銅仙人辭漢歌補梁庾肩吾	-13.7977
嫮	-13.7977
子固皆在選中亦不可謂不得人矣	-13.7977
煙萬頃波粼粼玉堂學士今劉向禁直	-13.7977
齖	-13.7977
亭亭畫舸繫寒潭直到行人酒半酣不管	-13.7977
及唐人諸詩無不如此但晉宋間人	-13.7977
禁當南市津頭有船賣無錢即買繫籬傍	-13.7978
營地創獨樂園自傷不得與衆同也	-13.7978
看弄漁舟移白日老農何有罄交歡	-13.7978
蝱	-13.7978
飛流直下三千尺疑是銀河落九天	-13.7978
不畔於理方善如東坡觀崔白	-13.7978
地然公詩好處豈專在此如崇徽公主手	-13.7978
尤多而鄭句不惟當時人莫及雖其集中	-13.7978
惟公用之不覺拘窘卑凡如周顒宅	-13.7978
暢律詩意所到處雖語有不倫亦	-13.7978
獐	-13.7978
誦薛能詩云青春背我堂堂去白	-13.7978
云東風不與周郎便銅雀春深鎖二	-13.7978
劃然變軒昻勇士赴敵	-13.7978
終元豐末幾三十年元祐初雖稍稍	-13.7978
總不好紙筆阿舒已二八懶惰	-13.7978
自平朝宗心本切願向急流傾自	-13.7978
興水利因作此詩言東海若知明主意應	-13.7978
嘉祐本句但是詠景耳人皆可到要之當	-13.7978
執牙尺回刀剪破澄江色愁捻	-13.7978
夫人感極則悲悲定而後喜忽聞大	-13.7978
樓寒起粟光揺銀海眩生花	-13.7978
盆攪夜眠聞道狸奴將數子買魚穿栁聘	-13.7978
蹡	-13.7978
間用俗語尤見工夫雪止未消者俗謂之	-13.7978
鷓鴣云方穿詰曲﨑嶇路又	-13.7978
論詩平仲曰當作不經人道語曰斜拖闕	-13.7978
漰	-13.7979
蛹	-13.7979
歸老守故林戀闕悄延頸	-13.7979
子美詩妙處乃在無意於文夫無意而意	-13.7979
蠟屐舊痕尋不見東風先為我開門	-13.7979
雪心腸好不是膏油首面新	-13.7979
每哦此詩而了不解其意自謫峽川	-13.7979
胹	-13.7979
賂園吏得一枝分接由是都下	-13.7979
荷戈士窮年守邊疆此仁人君子之用心	-13.7979
云扶桑大繭如甕盎天女織綃雲漢上	-13.7979
假繩削故非常情之所能到詩家妙處當	-13.7979
去暮汲井泉歸無人不看妾不使見蛾眉	-13.7979
肫	-13.7979
芃	-13.7979
被兩鬢肌膚不復實雖有五男兒	-13.7979
龍歸曉洞雲猶濕麝過春山草自香	-13.7979
子厚詩在陶淵明下韋蘇州上退之豪放	-13.7979
文錦錦似文君别恨深頭白自吟悲賦客	-13.7979
浥浥爐香初泛夜離離花影欲揺春	-13.7979
竹影横斜水清淺桂香浮動月黄昏	-13.7979
紅手素絲千字錦故人新曲九	-13.7979
郭子儀軍一號令之精彩數倍不然	-13.7979
之至也不知手之舞之足之蹈之故曰漫	-13.7979
室復見太平顧視妻子知免流離故曰却	-13.7979
詩曰客舍并州三十霜歸心日夜憶咸陽	-13.7979
衣兒啼真自樂從師學道	-13.7981
騧	-13.7981
谷李栖逺温憲李昌符謂之十哲	-13.7981
曉陪鴛鷺正差池共愛朝來何處雪蓬萊	-13.7981
桃花流水杳然去别有天地非人間	-13.7981
經妙誰傳與肘後方新自寫將百尺松梢	-13.7981
藷	-13.7981
嫻	-13.7981
以是論賢不肖之實亦何可欺乎	-13.7981
大凡立意之初必有難易二塗學者不能	-13.7981
一時而二家詩體特異子美筆力豪	-13.7981
公所忌一日真宗賦御溝栁詩宣示宰相	-13.7981
弮	-13.7981
河上因言古人章句中全用平聲製	-13.7981
飛流濺沫知多少不為徐凝洗惡詩	-13.7981
䄖	-13.7981
中人飛空本無迹此非才不逮	-13.7981
俗人便謂淵明諸子皆不肖而淵明	-13.7981
刻者皆黜之時范景仁王禹玉梅公儀	-13.7981
碧波間還與容光共憔悴不堪	-13.7981
調笑追尋壑稚子歡呼出候門遥謝載醪	-13.7981
仙掌月明孤影過長門燈暗	-13.7981
合體格豈率爾而為之哉近閱冷齋夜話	-13.7981
後轉輕身嚴更未報皇城裏勝賞時	-13.7981
禄直諫犯顔無一人歌未闋	-13.7981
言則虐生類以飽口腹刻疲民以肥權	-13.7981
凙	-13.7981
言滯留之勢當自冬過春始終見梅	-13.7981
超然飛動何害其言玉樓銀海	-13.7981
䳌	-13.7982
也得韻窄則不復傍出而因	-13.7982
無心播物祖師有記傳衣白雲横而不度	-13.7982
絇	-13.7982
如束一幅烏紗裹寒玉超然自有姑射姿	-13.7982
掃葉林風後拾薪山雨前	-13.7982
猻	-13.7982
病起深居簡出終日曝背晴簷萬事不到	-13.7982
觀唐人詩觀此足矣詎不然乎集中佳句	-13.7982
養千金軀臨化消其寳皆以為知道之言	-13.7982
失須憑塞上翁引取碧油紅斾去鄴王臺	-13.7982
過梅聖俞曰近得永叔書方作廬山髙詩	-13.7982
院似禪心靜花如覺性圓	-13.7982
厦豈云缺葵藿傾太陽物性固莫奪	-13.7982
宗奢靡云聞得禁中老宫人	-13.7982
渾一樹髙花明逺村雲意不知殘照好却	-13.7982
長句波瀾浩大變化不測如作雜劇打猛	-13.7982
侯門一入深如海從此蕭郎是路人	-13.7982
還者其失人心為甚誰肯復附之其不能	-13.7982
一字人以私意竄易遂失古人一篇之意	-13.7982
井泉分地脉砧杵共秋聲	-13.7982
倥	-13.7982
峕	-13.7982
恩自淺胡自深人生樂在相知心可憐青	-13.7982
政山自少雲霞居物外不多塵土到人間	-13.7982
氣接巫峽長月出寒通雪山白	-13.7982
江南李氏時物在廬山東林寺曹翰下江	-13.7982
獨往勝事空自知行到水窮處坐	-13.7982
祻	-13.7982
語池上吟從白鷺窺大道不將爐冶	-13.7982
鷦	-13.7982
回安河水水從樓前來中有美人淚	-13.7982
敳	-13.7982
皆在其中矣以此益念故國思朝廷故曰	-13.7982
去年今日此門中人面桃花相映紅人面	-13.7983
韻寛則波瀾横溢泛入傍韻	-13.7983
家有王建集載望夫石詩乃知非况作	-13.7983
畷	-13.7983
又云傳語風光共流轉暫時相賞莫相違	-13.7983
誇舌在牙齒牢是中惟可飲醇酒	-13.7983
頭相並鴨水深紅尾自跳魚	-13.7983
墖	-13.7983
壁歸雲擁樹失山村翻字失字是響字	-13.7983
背且獨與婦飲頗勝俗客對月漸上我席	-13.7983
黄冠者十之八九時有女冠暢道姑姿色	-13.7983
􁥫	-13.7983
戭	-13.7983
楗	-13.7983
珈	-13.7983
貴客至則鳴志完將至而狐	-13.7983
亦多而絶少佳句惟寺影中流見鐘聲兩	-13.7983
郭璞言多騐老比顔含意更	-13.7983
不指言時事是非意言時事多不便不得	-13.7983
半雨溪橋畔間杏間桃山路中	-13.7983
帝澤無處濯塵纓鳥道來雖險龍池到	-13.7983
是一體唐人用此甚多但今人少用耳如	-13.7983
牯	-13.7983
糶新榖醫得眼前瘡剜却心頭肉	-13.7983
聞嶺外大雪作二偈寄之曰傳聞嶺	-13.7983
莅	-13.7983
萤	-13.7983
不在孫出見之索筆書壁上云一别人間	-13.7983
䊋	-13.7985
掁	-13.7985
褫	-13.7985
之岸山川共澄澈光彩交	-13.7985
浩浩復湯湯灘聲抑更揚	-13.7985
狂垢汚而詩語清婉嘗書湖上一山寺壁	-13.7985
落日寒蟬鳴獨歸林下寺柴扉夜	-13.7985
憸	-13.7985
抆	-13.7985
紗秋意應憐我憶家極目江山千萬恨依	-13.7985
蓧	-13.7985
厩	-13.7985
匯	-13.7985
正爾填塞故實舊謂之㸃鬼簿今謂之	-13.7985
未愛京師傳谷口但知鄉里勝壺頭	-13.7985
乍見翻疑夢相悲各問年	-13.7985
才莫謂無心向門下也曾終夕望三台	-13.7985
斜時可憐雨歇東風定萬樹千條各自垂	-13.7985
無餘聲山童隔竹敲茶臼	-13.7985
備後宫太祖聞之召使陳詩誦其國亡詩	-13.7985
問之坡曰七分來是讀三分來是詩豈不	-13.7985
外忽傳收薊北初聞涕淚滿衣裳	-13.7985
宋地僧生涯三事衲故舊一枝	-13.7985
數聲最難工自文忠公與東坡論此詩作	-13.7985
樹對酒長年身醉貌如霜葉雖紅不是春	-13.7985
見雨一冬無雪却聞雷離宫紫氣生冠冕	-13.7985
鎣	-13.7985
介甫明妃曲二首辭格超逸誠不下永叔	-13.7985
含情欲語獨無處傳與琵琶心自知黄金	-13.7985
有之土人取以供染事不甚惜也則知瑒	-13.7985
潮頭潮中有妾相思淚流到樓前更不流	-13.7985
甫衢州人博學善譏謔嘗舉制科不中與	-13.7985
色新勸君更盡一杯酒西出陽關無故人	-13.7985
草根南澗水泠泠繰成白雪桑重	-13.7985
英俊顔何厚未死姦諛骨已寒	-13.7986
瑊	-13.7986
楮為冠子布為裳吞得丹霞	-13.7986
海棠黙黙要詩催日暮紫綿	-13.7986
澇	-13.7986
風滿棹收綸了漁童拍手樵青笑明月太	-13.7986
新園吏無端偷折去鳯城從此有雙身	-13.7986
袈	-13.7986
二子有靈應撫掌吾孫還有獨醒時	-13.7986
天下無綱紀文章而上都亦然故曰俯	-13.7986
抶	-13.7986
白當險阻艱難流離困躓	-13.7986
虞舜蒼梧雲正愁是時明皇方	-13.7986
􁂶	-13.7986
唐𤣥宗聞之曰卿自棄朕朕何	-13.7986
年最得意每舉以教人而終不能成篇	-13.7986
新然余讀後梁沈君攸臨水詩云花	-13.7986
枤	-13.7986
竒變化無窮以驚世駭目如老杜	-13.7986
㙮	-13.7986
京師一日於驢上得句云鳥宿池	-13.7986
出詩一軸示東坡先自吟誦聲振左右	-13.7986
却怪丹青手入眼平生未曽有意態由來	-13.7986
宵皆佳句也鄭谷掇取而用之乃云睡	-13.7986
寄巢生子不自啄羣鳥至今與哺雛	-13.7986
左右擁至尹前島具對所得詩句	-13.7986
張華因觀異代前賢帖知是唐昌玉蘂花	-13.7986
惟有門前鑑池水春風不改舊時波投筆	-13.7986
比瑒更礬總未佳要須博物	-13.7986
無心與物競鷹隼莫相猜	-13.7986
璧門金闕倚天開五見宫花落	-13.7986
畮	-13.7986
盡漢宫衣寄聲欲問塞南事只有年年鴻	-13.7986
藏異書古刻至多有楊汝士與白二	-13.7986
蠵	-13.7986
語意輕淺一時慕之號西崑體識者病之	-13.7986
閱編皇明宗室月窓道人刋鄱陽程珖校	-13.7986
鴻鵠不易得便令作對隨家	-13.7986
直揖陶謝然似入武庫但覺森嚴	-13.7987
接席顧介甫曰宜對太液池故	-13.7988
池亭云嘉魚在深處幽鳥立多時	-13.7988
噭	-13.7988
袚	-13.7988
語工而意足了無鑱斧之迹真削鐻手也	-13.7988
曰公做詩費許多氣力做甚此語切當	-13.7988
山忽破碎則人君失道矣賢不肖混	-13.7988
平生出處事跡悉能道盡乃詩中傳也	-13.7988
揲	-13.7988
有布衣老大意轉拙許身一何愚	-13.7988
名花傾國兩相歡長得君王	-13.7988
啐	-13.7988
天末海門横北固烟中沙岸似西興	-13.7988
孟嘉嗜酒桓温笑徐邈狂言孟	-13.7988
三代以來金石遺文一千巻有琴一張有	-13.7988
事竟何益耳目所及尚如此萬里安能制	-13.7988
引頸以承戈披襟而受矢以快一	-13.7988
敢下筆知誰哉梅聖俞云寒溪浸	-13.7988
日斵而鼻不傷終日射而鵠必中終日行	-13.7988
聚放開在我掌握與劉所論殆一轍矣	-13.7988
薮	-13.7988
零落埋黄埃君家雖有澄心紙有	-13.7988
髐	-13.7988
鸞青冥風露非人世鬢亂釵横特地寒	-13.7988
口舌解圍謂太祖不文盛稱其主博學多	-13.7988
歠	-13.7988
經舉果知因譬如蓮花方其吐花而果具	-13.7988
舉旗為風偃為雨灑掃九廟無塵埃	-13.7988
蓪	-13.7988
阽	-13.7988
圬	-13.7988
岐王宅裏尋常見崔九堂前幾度聞	-13.7989
句非不竒也而牛鬼蛇神太甚	-13.7989
嚱	-13.7989
杜荀鶴詩鄙俚近俗惟宫詞為唐第一	-13.7989
㚄	-13.7989
壄	-13.7989
句法希文排比故實巧欲形容宛成有	-13.7989
行爛窺紅紫厭平生而今眼底無姚魏浪	-13.7989
言慈母溪與望夫山相對望夫山詩甚多	-13.7989
曰梁苑隋堤事已空萬條猶舞舊春風	-13.7989
􁲍	-13.7989
水見瑩中姪勝柔自九江來出	-13.7989
涕泗流推公之心古亦少願起公死從之	-13.7989
詩所謂公詩何以解人愁初日芙	-13.7989
重慵便玉枕凉未是富貴語不如	-13.7989
不忍去之意則曰尚憐終南山回首清渭	-13.7989
不顧龍鱗逆風雲感㑹雖有時顧此定知	-13.7989
乾染以翠色然後知此語能傳造化之妙	-13.7989
勝七字張籍王建詩格極相似李益古律	-13.7989
家舊有大松偶見露洗而霧披	-13.7989
徐君猷孟亨之皆不飲酒不止天生	-13.7989
是終焉其本末立意遣詞可謂曲盡其妙	-13.7989
焭	-13.7989
間覺而月出有句曰未離海底千山	-13.7989
魚鳥猶疑畏簡書風雲長為䕶儲胥	-13.7989
士衡文賦云立片言以居要乃一篇之警	-13.7989
日費醉吟於市負其子以行歌江端禮以	-13.7989
江天漠漠鳥飛去風雨時時龍一吟	-13.7989
漢宫有佳人天子初未識一朝隨漢使	-13.7989
者未嘗不絶倒也梅聖俞和晏相詩云因	-13.7989
長安南山下一書生作小圃蒔花	-13.7989
難也所以贈杜挺之詩有作詩無古今欲	-13.7989
雲安縣前江可憐此詩立意念	-13.7989
使賀且未死少加以理奴僕命騷可也	-13.7989
嗈	-13.7989
稱白樂天孟東野詩又愛元微之詩而取	-13.7989
船鷗鳥近人渾不畏一雙飛下鏡中天	-13.7989
詩謂之句中眼學者不知此妙韻終不勝	-13.7989
雨前也佳品其色白若碧緑者乃常品也	-13.7989
遰	-13.799
餘年西復東勞生薄宦等飛蓬所存舊業	-13.799
胠	-13.799
瑇	-13.799
且酌清濁麒麟閣懶畫丹青	-13.799
元日示宗武云汝啼吾手戰	-13.799
信有格也哉殆天所賦不可及也	-13.799
其佳句可得聞乎曰吾見其作温公挽	-13.799
燕燕于飛差池其羽之子于歸	-13.799
與題合者類之如此乃是編事雖工何益	-13.799
曲徑通幽處禪房花木深	-13.799
􁵨	-13.799
㬢	-13.799
籒	-13.799
一篇皆工拙相半古人文章類如此皆拙	-13.799
冥鴻惜羽毛世祖功臣三十六雲	-13.799
又有詩百篇在其四世孫奕處見之豈非	-13.799
而舉一夜風吹一寸長之句以為茶之精	-13.799
腯	-13.799
薦華屋朱唇得酒暈生臉翠	-13.799
雲想衣裳花想容春風拂檻露華濃若非	-13.799
一字其字乃山水風雲竹石花草雪霜星	-13.799
健終不工望嶽詩無第二句而云岱宗夫	-13.799
存中此論曲矣盧仝茶詩曰開緘宛見	-13.799
形容便見妙處如魯直酴醿詩云露	-13.799
後之傳者甚失其源惟足下制其横流師	-13.799
惠院院之東小山上有海棠一株特繁茂	-13.799
拙女色難自誇明妃去時淚	-13.799
於言外浩然不可屈盡心於詩守此勿失	-13.799
時士人皆可喜而不多得近城人虎雜居	-13.799
枅	-13.799
桃源人落葉為秋花作春但恨未能與世	-13.799
檿	-13.799
酘	-13.799
􁡷	-13.799
輞	-13.7991
䀻	-13.7991
坪	-13.7992
暖玉生煙此情可待成追憶只	-13.7992
風吹客衣日杲杲樹攪離思花	-13.7992
予與鄉人翁行可同舟泝汴因談及	-13.7992
青山在屋上流水在屋下中有五	-13.7992
嶤	-13.7992
犬吠竹籬沽酒客鶴隨苔岸洗衣僧	-13.7992
詩價滿江南長為邑令情終屈縱處	-13.7992
以谷口對壺頭其精切如此後數	-13.7992
但得一知半解之悟漢魏尚矣不假悟也	-13.7992
哀帝天祐二年其序所謂丙寅	-13.7992
待爾嗔烏鵲抛書示鶺鴒	-13.7992
很	-13.7992
游歴不出二百里則所謂思者豈尋常	-13.7992
潠	-13.7992
致逺諸人和頭字韻詩往返數四其末篇	-13.7992
㦸門前蠟燭紅非富貴語看人富貴者也	-13.7992
率中原流寓之人同歸以青春和暖之時	-13.7992
透徹之悟也他雖有悟者皆非第一義也	-13.7992
卾	-13.7992
後又寄黄充前四句云俗子推不去可人	-13.7992
李賀之流是也然後世學者當先學其工	-13.7992
稻啄殘鸚鵡粒碧梧棲老鳯凰枝	-13.7992
釗	-13.7992
五山字第二十七寒字又在二十五而還	-13.7992
來石應語語意皆工江南有望夫石	-13.7992
凘	-13.7992
子棐以烏絲欄絹一軸求子厚書文忠	-13.7992
或似無倫次而意若貫珠十二月一日詩	-13.7992
春睡無人喚撩亂楊花繞夢飛	-13.7992
是形似之微妙者但學者不能味其言耳	-13.7992
正素處士張子厚善書余嘗於其家見歐	-13.7992
閣自松聲若不用猶與自兩字則餘八	-13.7992
坐半甌輕泛緑開緘數片淺含香鄭雲叟	-13.7992
堂房室各有定處不可亂也韓文公原道	-13.7992
屝	-13.7992
憂碧粉散嘗見緑花生沈存中論茶謂	-13.7992
餘妖鍾此根光華日已盛	-13.7992
㟧	-13.7992
銙	-13.7993
胔	-13.7993
㕥	-13.7993
伯仲之間見伊吕指揮若定失蕭曹	-13.7993
殉公意亦如齊之二子從田横	-13.7993
夜天香入巖谷西風吹落嶺頭蓮空愛掌	-13.7993
圓荷浮小葉細麥落輕花	-13.7993
是着題然語皆歇後一抔事無兩出或可	-13.7993
毎過其下不風即雨疑况得句處也	-13.7993
舐	-13.7993
褾	-13.7993
壯而肆老而嚴非妙於文章不足以至此	-13.7993
旺	-13.7993
有數妾四五年相繼辭去獨朝雲	-13.7993
標名第十三昔日聲塵喧洛下近	-13.7993
聞因悲在朝市終日醉醺醺	-13.7993
韔	-13.7993
曰朝日上團團照見先生盤盤中	-13.7993
淡之宗詩家視淵明猶孔門視伯夷也	-13.7993
舉以問山谷山谷云取其字製之新	-13.7993
兩日若活七十年便是百四十	-13.7993
獗	-13.7993
稱之以為郊詩髙處在古無上平處猶下	-13.7993
作文工於命意必超然獨立於衆人之上	-13.7993
句極佳意在言外而幽怨之情自見	-13.7993
弆	-13.7993
所以忘憂今皆不能如意則犯三	-13.7993
旨取其發興於所遇林泉人物草	-13.7993
片時惆悵深閨獨歸處曉鶯啼	-13.7993
華裾織翠青如葱金環壓轡	-13.7993
遺物者要當如是而後可也觀三人之詩	-13.7993
須上畨看成竹客至從嗔不出迎	-13.7993
嚗	-13.7993
律詩有扇對格第一與第三句對第二與	-13.7993
某惶懼惶懼頓首頓首	-13.7993
用之偃蹇狹陋盡成死法不知意與境㑹	-13.7993
者頗衆獨李師中待制一篇為人傳誦	-13.7993
葫	-13.7994
磕	-13.7994
匈	-13.7994
簪冷江光逼履清侵簪逼履皆	-13.7994
啅	-13.7995
三首皆韻險而語工非大手筆不能到也	-13.7995
押二州字二頭字二秋字二休字	-13.7995
三十六鱗充使時數番猶得	-13.7995
有叟君知否抱甕區區亦未貧	-13.7995
朝行在人應問老夫髭鬚衰白盡痩地日	-13.7995
售一幅澄心堂中千萬軸後人聞名	-13.7995
如此蒼生困未蘇今年起安石不用	-13.7995
定悠悠夜雨今蕭瑟其同轉對有云對	-13.7995
常歌舞筵中救火忙乞得金陵	-13.7995
雨又云對床老兄弟夜雨鳴竹屋	-13.7995
九江垂死病中驚起坐暗風吹雨入寒	-13.7995
寧初荆公以翰林學士被召前此屢召不	-13.7995
居飲食有戚戚之憂是以卒窮以死而李	-13.7995
無熖影幢幢此夕聞君	-13.7995
自昔騷人墨客題之者衆矣如水涵天影	-13.7995
長安城頭烏欲棲長安道上行人稀浮雲	-13.7995
㴻	-13.7995
不多見然精深有味語不徒發正類其文	-13.7995
作醉鄉今園中大堂遂以醉鄉名之	-13.7995
叀	-13.7995
咍	-13.7995
意願預斯㑹李馳書杜聞	-13.7995
曰聞有紫雲者孰是李指示之杜凝睇良	-13.7995
湞	-13.7995
當年不嫁惜娉婷傅白施朱作後生	-13.7995
監詩云得罪台州去時危棄碩儒移官蓬	-13.7995
花開蝶滿枝花謝蝶還稀	-13.7995
語亦難若意新語工得前人所未道者斯	-13.7995
獨立敢言人所難去國一身輕似葉	-13.7995
謦	-13.7996
萬里傷心嚴譴日百年垂死中興時	-13.7996
為上破碎雕鎪為下如楊大年西	-13.7996
扠	-13.7996
村居云黄蜂衙退海潮上白蟻戰酣山雨	-13.7996
水暖鳬鷖行哺子溪深桃李卧開花	-13.7996
姉	-13.7996
盡絮飛留不得隨風好去落誰家樂天亦	-13.7996
春白日卧多嬌似病隔簾教喚女醫人	-13.7996
罶	-13.7996
之風大得建安體論者推李翰林杜工部	-13.7996
屇	-13.7996
秋草不如回首謝秋風分作尹邢來漢宫	-13.7996
不虞王至亟取紙屏障風王顧屏	-13.7996
不見其用力處今人多取其已用字模	-13.7996
其他所作當憂則憂遇喜則喜忽然憂樂	-13.7996
唐人與親别而復歸謂之拜家慶盧	-13.7996
州三月作小盡梧州三月作大盡哀哉官	-13.7996
按唐書韓偓傳偓嘗與崔嗣定	-13.7996
春光冉冉歸何處更向花前把	-13.7996
時走馬回北人初識越人梅清香莫把酴	-13.7996
窈窕一川花謂包含數箇意	-13.7996
茶之佳品造在社前其次則火前	-13.7996
袖塵埃何處洗李家池上海棠洲	-13.7996
語僻難曉殊不知自是學者之弊如	-13.7996
雞聲茅店月人迹板橋霜	-13.7996
㧕	-13.7996
歡華不滿眼咎責塞兩儀	-13.7996
世上小兒誇疾走如君相待今安有	-13.7996
千金軀臨化消其寳寳不過軀軀化則寳	-13.7997
漢使却回憑寄語黄金何日贖	-13.7997
嶕	-13.7997
阯	-13.7997
聖俞家郡人皆不疑其去也遵夜使人絶	-13.7997
間品第胡能欺十目視而十手指勝若登	-13.7997
年子厚拜相亦不通問寄書誚其相忘逺	-13.7997
句令人坐想輞川春日之勝此老傲睨	-13.7997
太液池邊看月時好風吹動萬年枝	-13.7997
曲盡一時之意愜當衆人之情通暢	-13.7997
荗	-13.7997
䄜	-13.7997
側畔楊花過簾幙中間燕子飛	-13.7997
君臣猶在醉鄉中一面已無陳日月	-13.7997
落魄劉郎作帝歸樽前感慨大風詩淮	-13.7997
覡	-13.7997
集句詩每一句取一家詩今亞卿全用致	-13.7997
風絶塵亦少衰矣李杜之後詩人繼出雖	-13.7997
作無題詩十四韻故奉常王公内翰	-13.7997
作阿蘭若婁約身歸窣堵波	-13.7997
埵	-13.7997
婉而不迫哀而不傷所作自不必多也	-13.7997
子厚樂府云楊白華風吹渡江水坐令	-13.7997
將相功名終若何不堪急景似	-13.7997
帋	-13.7997
楊華既奔梁元魏胡武靈	-13.7997
老杜云王侯與螻蟻同盡隨丘墟	-13.7997
葵藿資何如廟堂肉則近乎訕矣作詩者	-13.7997
吟繹聲也失勢一落千丈强順下聲也	-13.7997
抏	-13.7997
無堊目無膜爾鼻無堊斤將曷運目無膜	-13.7997
詩云浮雲時事改孤月此心明語意髙妙	-13.7997
門外鸕鷀久不來沙頭忽見眼相猜	-13.7997
鳴榔莫觸蛟龍睡舉網時聞魚	-13.7997
鴻毛更疾呼柱下杲卿存	-13.7997
紅葉稀山路元無雨空翠濕人衣此	-13.7998
衆作等蟬噪此語吾不敢議亦不敢從	-13.7999
吁嗟天産石上英論功不愧	-13.7999
字韻詠梅詩二首東坡在嶺南有暾字韻	-13.7999
杜俱交友長者來在門荒年自餬口家貧	-13.7999
物有感焉則有興今之作詩者以興近乎	-13.7999
以為極至魯直自以此猶砌合須	-13.7999
嬀	-13.7999
清千日之醉我可醒屈原試與招魂魄劉	-13.7999
螬	-13.7999
世亂憐渠小家貧仰母慈	-13.7999
仙山一啜好泠然便欲乗風飛君莫	-13.7999
子由云寒燈相對記疇昔夜雨何時	-13.7999
巨細千萬殊竟莫見以何雕鎪惜	-13.7999
惟文選載其百一詩一篇所謂下流不可	-13.7999
毅色不可求浩蕩八極中生物豈不稠醜	-13.7999
猶在琵琶事已非傷心瘴江水同渡不同	-13.7999
至矣而杜子美李太白以英偉絶世之	-13.7999
觀少陵詩謂與元氣侔力能排天斡九地	-13.7999
態浩乎不失自然也喧啾百鳥羣忽見孤	-13.7999
河嶽英靈集首列常建詩愛其山光	-13.7999
深深字若無穿字欵欵字若無㸃字	-13.7999
玉樓金殿鴛鴦翡翠等語社稷蒼生何	-13.7999
磑	-13.7999
耳或以問海海曰歐陽公一代英偉然斯	-13.7999
名千古重於山並游英俊顔何厚未死	-13.7999
君亦讀老杜詩觀其用月字乎其曰二月	-13.7999
巴蜀愁誰語吳門興杳然	-13.7999
暉在宣城因登三山遂有澄江	-13.7999
楸樹馨香倚釣磯斬新花	-13.7999
然天成天球不琢者歟靈運	-13.7999
蚧	-13.7999
詩相示首篇第一句云十月寒者	-13.7999
佩冷臨江失金谷樓危到地香	-13.8
瀁	-13.8
哨	-13.8
園林換葉梅初熟池館無人燕學飛	-13.8
能之牧童乃操筆大書云草鋪	-13.8
里珠簾捲髣髴三生杜牧之紅藥梢頭初	-13.8
唐山人詩瓢也接得十纔二三題鄭處士	-13.8
北都使宅舊有過馬㕔按唐韓	-13.8
玃	-13.8
之管酒如長虹飲滄海筆若駿馬馳平坂	-13.8
似聞青秧底復作龜兆坼乃前人所	-13.8
先生則有荷風送香氣竹露滴清	-13.8
席客盈位如星占野人若月分卿極醉巫	-13.8
森戈矛吟哦當此時不廢朝廷憂嘗願天	-13.8
至所居乃烏衣國也以女妻之	-13.8
功臣與令狐渙同為中書舎人其後韓全	-13.8
椓	-13.8
清江萬里天一村桑柘一村煙漁翁醉睡	-13.8
名世六一居士嘗問東坡琴詩孰優東坡	-13.8
在永嘉因夢惠連遂有池塘生春草之句	-13.8
薪爆竹聲風簾官燭淚縱横木穿石	-13.8
警䇿歐公又愛建竹徑通幽處禪房花	-13.8
不知羣兒愚那用故謗傷	-13.8001
魚戲新荷動鳥散餘花落	-13.8001
蒳	-13.8001
斮	-13.8001
瞩	-13.8001
鄢	-13.8001
偈曰千尺絲綸直下垂一波纔動萬波	-13.8001
可如此論彼自詠檜何預朕事時相語塞	-13.8001
固忌用巧太過然縁情體物自有天然工	-13.8001
忠州論國政字字坦夷前身非篙師沙户	-13.8001
公寄茶詩曰兩串春團敵夜光名題天柱	-13.8001
天祐二年挈其族依王審知而卒以紀運	-13.8001
彃	-13.8001
渚在湖常二境之間當採茶時	-13.8001
笠一鈎絲金鱗正在深處千尺也	-13.8001
等刼帝西幸偓夜追及鄠見帝慟哭至	-13.8001
花檣燕也詩在優柔感諷不在逞豪放而	-13.8001
道山新聞云李後主宫嬪窅娘	-13.8001
酌君以荆州魚枕之蕉贈君以宣城	-13.8001
丘園無起日江漢有東流近世詩人	-13.8001
唏	-13.8001
噏	-13.8001
小徑升堂舊不斜五株桃樹亦從遮	-13.8001
引子鳴鶴不歸林下食遭泥去髙飛恨	-13.8001
時僧洪覺範頗能詩其題李愬畫像云淮	-13.8001
縐	-13.8001
詩當與黔安並驅也頃年僕在長沙相從	-13.8001
閉門覔句陳無已對客揮毫秦少游	-13.8001
韓之文法也詩文各有體韓以文	-13.8001
儀鸞供帳饕蝨行翰林	-13.8002
娵	-13.8002
山不至於此明年此㑹知誰健醉把茱萸	-13.8002
竁	-13.8002
為得此生則見役於物者非失此生	-13.8003
霂	-13.8003
愞	-13.8003
葛洪丹經用雲子碎雲母	-13.8003
衰蘭送客咸陽道天若有情天亦老	-13.8003
憺	-13.8003
湘潭雲盡暮山出巴蜀雪消春水	-13.8003
家何事春風容不得和鶯吹折數枝花	-13.8003
源春欲暮白水青山起煙霧竹杖芒	-13.8003
里天地隔江山十書九不到何用一開顔	-13.8003
慴	-13.8003
杙	-13.8003
甫奏賦三篇帝竒之使待制集賢院	-13.8003
裌	-13.8003
辱得失之際銖銖校量而自矜其	-13.8003
之辛酉乃昭宗天復元年丙寅乃	-13.8003
亨衢照紫泥靈虬傳夕箭	-13.8003
因舉伯淳和温公諸人禊飲	-13.8003
堤築處迎丞相驛吏催時送逐臣到了輸	-13.8003
有明月流清輝君獨騎驢向何處頭上倒	-13.8003
茗暮江寒蒼龍不復從天下拭淚看君小	-13.8003
載始末曰引體如行書曰行放情曰歌	-13.8003
錦江春色來天地玉壘浮雲變古今	-13.8003
塈	-13.8003
學士也故末句云謬稱三賦在難述二公	-13.8003
亟欲奏御得披香殿字未有對時鄭毅夫	-13.8004
攟	-13.8004
江聲秋入寺雨氣夜侵樓	-13.8004
令琵琶馬上作樂以慰其道路之思	-13.8004
茂陵劉郎秋風客夜聞馬嘶曉無	-13.8004
六宫師柔順法則化妃后至尊均	-13.8004
欄桂樹懸秋香三十六宫土花碧魏	-13.8004
漢月出宫門憶君清淚如鉛水	-13.8004
牽車指千里東闗酸風射眸子空	-13.8004
綴玉含珠散嘉樹終朝采掇未盈	-13.8004
取靈武指揮猛士驅貔虎胡為脚	-13.8004
坊雷大使之舞雖極天下之工要非本色	-13.8004
嵪	-13.8004
光千萬里茫茫曉日下長秋哀歌未	-13.8004
膰	-13.8004
荷浮小葉細麥落輕花浮字落字是響字	-13.8004
固君子所不免然亦何至是卒以憤死未	-13.8004
杖挾囊于後一市大驚以為異人伯時因	-13.8004
諉	-13.8004
遂令天下父母心不重生男重生女	-13.8004
川風月笛聲中句法雖可及而意甚委曲	-13.8004
復憶襄陽孟浩然清詩句句盡堪傳	-13.8004
曰虞芮質厥成文王蹶厥生予曰有	-13.8004
有箇長松樹半夜子規來上啼	-13.8004
樂天為後進敢期杜甫是前身卒	-13.8004
軄	-13.8004
􁏢	-13.8004
十暑岷山葛三霜楚户	-13.8006
袛	-13.8006
貴衆中傑出如同賦一事工拙尤易見	-13.8006
睱	-13.8006
覻	-13.8006
獨當省署開文苑兼泛滄浪學釣翁	-13.8006
低折向塵埃青山得去且歸去官職有來	-13.8006
何從短翎水鴨飛不逺那經細雨山重重	-13.8006
吼願展丈夫雄得辭兒女醜秦王時在坐	-13.8006
囋	-13.8006
子厚亦從旁解之遂薄其罪子厚嘗	-13.8006
三軍晦光彩烈士痛稠	-13.8006
發何處家家嬉笑穿雲去露芽錯落一	-13.8006
雙飛翼明眸皓齒今何在血汚	-13.8006
張文定及進士楊正倫詩最佳	-13.8006
稌	-13.8006
醿	-13.8006
夕陽徘徊作行雨婉孌逐荆王電影江前	-13.8006
清時有味是無能閒愛孤雲静愛僧	-13.8006
相欺得夜來吹折數枝花之句語頗相	-13.8006
司空圖唐末竟能全節自守其詩有	-13.8006
最為妙法藍水逺從千澗落玉山髙並兩	-13.8006
祖述佺期之語也繼之以老年花似霧中	-13.8006
澂	-13.8006
㰱	-13.8006
笪	-13.8007
贒	-13.8007
慍	-13.8007
江嶺之南凡是資於適口者若	-13.8007
軏	-13.8007
枷	-13.8007
篷底獨斟時醉來睡著無人喚流下前	-13.8007
糵	-13.8007
譸	-13.8007
不信最清曠及來愁已空數	-13.8007
地下之蟄龍非不臣而何神宗曰	-13.8007
蒼蒼菰蒲纔熟楊栁黄扁舟繫岸不忍去	-13.8007
𤣥齡杜如晦過之母曰汝貴無疑	-13.8007
仵	-13.8007
千里名山都未逢泊舟潯陽郭始見香	-13.8007
求精粹不敢貪研膏焙乳有雅製方中圭	-13.8007
近世詩人惟杜子美最得詩人之體如	-13.8007
宰相試文章故有贈集賢崔于二學士詩	-13.8007
秋氣集南澗獨遊亭午時	-13.8007
美人顔色嬌如花今日美人棄我去青樓	-13.8007
擪	-13.8008
􁪄	-13.8008
扮	-13.8008
撅	-13.8008
胼	-13.8008
􁆠	-13.8008
㭒	-13.8008
銕	-13.801
嚘	-13.801
裵	-13.801
伷	-13.801
揃	-13.801
韎	-13.801
鷊	-13.801
玕	-13.8011
崆	-13.8011
樑	-13.8011
烺	-13.8011
狃	-13.8012
絨	-13.8013
眚	-13.8014
蜮	-13.8014
􁐨	-13.8014
䓻	-13.8014
洌	-13.8014
隽	-13.8014
詧	-13.8014
蠐	-13.8015
蛭	-13.8015
壩	-13.8015
祫	-13.8015
踠	-13.8015
瞹	-13.8017
煴	-13.8017
笆	-13.8017
姤	-13.8017
鞦	-13.8017
仾	-13.8017
厰	-13.8018
欑	-13.8018
鏽	-13.8018
淈	-13.8018
鄗	-13.8018
廁	-13.8018
𪠘	-13.8019
䍡	-13.802
磹	-13.802
駓	-13.8021
杈	-13.8021
鷿	-13.8022
􁌽	-13.8022
䲛	-13.8022
輢	-13.8022
椏	-13.8024
薗	-13.8024
眶	-13.8024
朙	-13.8025
愾	-13.8028
㘅	-13.8029
罋	-13.8029
躐	-13.8029
仡	-13.803
􁥀	-13.8036
􁀼	-13.8039
𩕳	-13.8039
荩	-13.8039
􁱪	-13.8039
寠	-13.8044
旧	-13.8046
菔	-13.8051
􁓁	-13.8051
曎	-13.8057
舼	-13.8057
靁	-13.8061
齼	-13.8061
辠	-13.8065
蓱	-13.8083
黶	-13.8086
鷉	-13.8093
􁛀	-13.8149
爥	-13.8165
謖	-14.1211
柹	-14.123
蔴	-14.1234
蝝	-14.1241
娙	-14.1245
􁤃	-14.1247
鎌	-14.1255
睥	-14.1257
僔	-14.1265
佈	-14.1266
嬛	-14.1268
甪	-14.1268
竷	-14.127
蓤	-14.127
嘨	-14.1272
畐	-14.1272
歋	-14.1274
轑	-14.1276
鵙	-14.1276
霪	-14.1278
鑼	-14.1278
浞	-14.1278
拮	-14.128
灃	-14.128
烖	-14.1282
吷	-14.1284
糈	-14.1284
鱘	-14.1284
􁞎	-14.1284
䏑	-14.1286
徯	-14.1286
衹	-14.1286
搢	-14.1287
芉	-14.1287
呤	-14.1288
擗	-14.1288
盝	-14.1288
陒	-14.1288
尫	-14.129
鵓	-14.129
􁀨	-14.129
頬	-14.1291
堄	-14.1291
崢	-14.1291
靸	-14.1291
讁	-14.1291
摟	-14.1291
蔿	-14.1292
噂	-14.1292
􁑖	-14.1292
䨴	-14.1293
驆	-14.1293
溳	-14.1293
􁉔	-14.1293
䖟	-14.1295
惮	-14.1295
鼪	-14.1295
擥	-14.1295
肧	-14.1295
􁑕	-14.1295
瘕	-14.1297
褵	-14.1297
曚	-14.1297
圮	-14.1297
憙	-14.1297
䱹	-14.1297
荖	-14.1297
朌	-14.1299
儤	-14.1299
桹	-14.1299
卣	-14.1299
麨	-14.1299
棬	-14.1299
㩎	-14.1299
郔	-14.1299
􁕓	-14.1299
鬘	-14.1301
努	-14.1301
偵	-14.1301
煁	-14.1301
顋	-14.1301
趫	-14.1301
㬌	-14.1301
庩	-14.1301
􁁄	-14.1301
􁍋	-14.1301
絫	-14.1303
犛	-14.1303
茀	-14.1303
衕	-14.1303
衚	-14.1303
嗢	-14.1303
咥	-14.1303
怲	-14.1303
摒	-14.1303
黳	-14.1303
褣	-14.1303
猢	-14.1305
痿	-14.1305
耉	-14.1305
鄘	-14.1305
嗒	-14.1305
俵	-14.1305
訦	-14.1305
鞹	-14.1305
齦	-14.1305
翆	-14.1307
斒	-14.1307
刎	-14.1307
檍	-14.1307
㽦	-14.1307
䰀	-14.1307
玿	-14.1307
鶿	-14.1309
眵	-14.1309
砠	-14.1309
􁯘	-14.1309
籪	-14.1309
㟭	-14.1309
籚	-14.1309
蜆	-14.1309
輀	-14.1309
嶫	-14.1309
鄄	-14.131
㠯	-14.1311
縗	-14.1311
闃	-14.1311
珽	-14.1311
􁄂	-14.1311
枹	-14.1311
骫	-14.1311
綢	-14.1312
痡	-14.1313
鞻	-14.1313
蓏	-14.1313
蘌	-14.1313
嵠	-14.1313
豭	-14.1313
痞	-14.1313
僨	-14.1313
欏	-14.1313
駴	-14.1313
睅	-14.1313
鮐	-14.1313
擂	-14.1313
浡	-14.1313
渫	-14.1313
澞	-14.1313
輛	-14.1313
酗	-14.1313
鰣	-14.1313
齔	-14.1315
訧	-14.1315
暏	-14.1315
韰	-14.1315
畯	-14.1315
拕	-14.1315
鬣	-14.1315
怔	-14.1315
悊	-14.1315
鯫	-14.1317
箾	-14.1317
哄	-14.1317
詿	-14.1317
篪	-14.1317
㢸	-14.1317
噦	-14.1317
煼	-14.1317
黱	-14.1317
緄	-14.1317
祊	-14.1318
蓘	-14.1318
蕷	-14.1318
俲	-14.1318
嘩	-14.1318
獶	-14.1318
獧	-14.1318
柪	-14.1318
􁀫	-14.1318
厪	-14.1318
𣪚	-14.1318
滫	-14.1319
㬠	-14.1319
㴲	-14.1319
徕	-14.1319
㮄	-14.1319
􁲕	-14.132
銮	-14.132
璲	-14.132
斻	-14.132
贐	-14.132
􁔡	-14.132
􁡡	-14.132
􁸕	-14.132
伃	-14.132
睆	-14.132
􁒍	-14.132
瑱	-14.1322
朐	-14.1322
窊	-14.1322
庍	-14.1322
忪	-14.1322
笱	-14.1322
圁	-14.1322
莛	-14.1322
讇	-14.1322
鬮	-14.1322
歗	-14.1323
萯	-14.1323
掆	-14.1324
饊	-14.1324
堲	-14.1324
鷓	-14.1324
灎	-14.1324
腆	-14.1324
觹	-14.1324
鉒	-14.1324
糸	-14.1324
餛	-14.1324
􁴝	-14.1325
恆	-14.1326
溔	-14.1326
㕁	-14.1326
訿	-14.1326
扸	-14.1326
㐲	-14.1326
姧	-14.1326
栯	-14.1326
䴵	-14.1326
玗	-14.1326
脔	-14.1326
脽	-14.1326
㡡	-14.1326
訽	-14.1326
誾	-14.1326
迆	-14.1326
餱	-14.1326
􁟆	-14.1326
䠞	-14.1326
玹	-14.1328
婭	-14.1328
豩	-14.1328
卺	-14.1328
躧	-14.1328
諟	-14.1328
竑	-14.1328
飊	-14.1328
煓	-14.1328
禝	-14.1328
騭	-14.1328
齠	-14.1328
噇	-14.1328
矅	-14.1328
𣆀	-14.1328
􁒓	-14.1328
屺	-14.133
餵	-14.133
碕	-14.133
苙	-14.133
靘	-14.133
蠃	-14.133
湌	-14.133
荊	-14.133
􁭀	-14.133
晌	-14.133
滍	-14.133
澨	-14.133
禈	-14.133
卅	-14.133
囉	-14.133
礭	-14.133
劌	-14.133
褻	-14.1331
􁋊	-14.1332
徘	-14.1332
䭀	-14.1332
匼	-14.1332
罙	-14.1332
罛	-14.1332
霶	-14.1332
亰	-14.1332
㢧	-14.1332
繿	-14.1332
菹	-14.1332
輤	-14.1332
怦	-14.1332
擑	-14.1332
訌	-14.1332
兟	-14.1332
螹	-14.1332
鮀	-14.1332
鷳	-14.1332
萑	-14.1332
墪	-14.1334
翯	-14.1334
滀	-14.1334
踉	-14.1334
㧝	-14.1334
柺	-14.1334
菶	-14.1334
赱	-14.1334
鋣	-14.1334
􁏠	-14.1336
簵	-14.1336
翀	-14.1336
􁎾	-14.1336
橜	-14.1336
脑	-14.1336
踡	-14.1336
靷	-14.1336
昫	-14.1336
讋	-14.1336
㺄	-14.1338
划	-14.1338
茇	-14.1338
硌	-14.1338
偰	-14.1338
婬	-14.1338
㢗	-14.1338
鴃	-14.1338
睟	-14.1338
蟋	-14.1338
䋄	-14.1338
㻦	-14.134
巀	-14.134
鎸	-14.134
笁	-14.134
饙	-14.134
䗁	-14.134
慁	-14.134
涬	-14.134
迩	-14.134
餹	-14.134
禬	-14.134
誺	-14.134
霙	-14.1341
霣	-14.1342
迮	-14.1342
甀	-14.1342
厈	-14.1342
崈	-14.1342
槗	-14.1342
瑭	-14.1342
䮍	-14.1342
俅	-14.1342
齩	-14.1342
刧	-14.1343
㫺	-14.1343
㲹	-14.1344
餺	-14.1344
鰌	-14.1344
䒹	-14.1344
穊	-14.1344
偒	-14.1344
嚩	-14.1344
焕	-14.1344
愰	-14.1345
涷	-14.1345
呆	-14.1345
穄	-14.1345
軧	-14.1346
鴝	-14.1346
祹	-14.1346
蘘	-14.1346
􁈠	-14.1346
撡	-14.1346
弢	-14.1347
窃	-14.1347
縭	-14.1347
郿	-14.1347
橩	-14.1347
湨	-14.1347
䫫	-14.1349
凥	-14.1349
墠	-14.1349
劎	-14.1349
逑	-14.1349
餫	-14.1349
鱨	-14.1351
呫	-14.1351
魑	-14.1351
䣃	-14.1351
㽜	-14.1351
剋	-14.1351
􁈓	-14.1351
屦	-14.1351
􁵉	-14.1351
憕	-14.1351
橆	-14.1351
偲	-14.1352
緉	-14.1353
攎	-14.1353
轕	-14.1353
䀨	-14.1353
診	-14.1353
殕	-14.1355
緖	-14.1355
岣	-14.1355
毐	-14.1355
衊	-14.1355
觭	-14.1355
􁈇	-14.1355
鰷	-14.1357
芘	-14.1357
駏	-14.1357
獒	-14.1357
槦	-14.1357
砉	-14.1357
晜	-14.1359
愡	-14.1359
薉	-14.1359
醝	-14.1361
鎁	-14.1361
恫	-14.1361
嫖	-14.1362
嗛	-14.1363
䯻	-14.1363
塛	-14.1363
碇	-14.1363
穪	-14.1363
䆮	-14.1365
鈒	-14.1365
揵	-14.1365
婥	-14.1365
垀	-14.1369
􁣌	-14.1369
綖	-14.1372
碌	-14.1372
䏶	-14.1373
嘽	-14.1374
䕩	-14.1374
熥	-14.1374
鴸	-14.1374
􁵹	-14.1376
橰	-14.1376
潬	-14.138
簨	-14.1382
崞	-14.1382
􁂼	-14.1384
赩	-14.1386
鼗	-14.1386
蘡	-14.1386
綄	-14.1388
痰	-14.1388
􁊋	-14.1388
孏	-14.1388
墆	-14.1388
葴	-14.1388
蚖	-14.1392
菥	-14.1396
㿥	-14.1409
湿	-14.1413
皉	-14.1415
髟	-14.1427
搪	-14.1464
㪍	-14.6203
喤	-14.6203
㨖	-14.6215
䔧	-14.6218
甽	-14.6222
棕	-14.6224
茈	-14.6224
峱	-14.6231
慽	-14.6243
璂	-14.6244
䕺	-14.6247
䞉	-14.625
荚	-14.625
㘈	-14.625
蚻	-14.6253
簃	-14.6253
芿	-14.6253
灋	-14.6256
埕	-14.6256
慆	-14.6259
䔖	-14.6259
璝	-14.6259
甗	-14.6259
礜	-14.6259
囏	-14.6262
摚	-14.6266
帴	-14.6266
巹	-14.6266
旿	-14.6266
湱	-14.6266
褷	-14.6269
琫	-14.6269
䆗	-14.6272
䰒	-14.6272
嶝	-14.6272
枑	-14.6272
梐	-14.6272
椗	-14.6272
烔	-14.6272
燝	-14.6272
㻫	-14.6275
兪	-14.6275
愊	-14.6275
爞	-14.6275
岹	-14.6278
筶	-14.6278
葊	-14.6278
掏	-14.6278
瑨	-14.6278
笨	-14.6278
纕	-14.6278
䶉	-14.6278
儜	-14.6278
㗁	-14.6278
旈	-14.6278
洍	-14.6278
芵	-14.6278
茩	-14.6278
薢	-14.6278
杷	-14.6281
稈	-14.6281
瓞	-14.6281
璛	-14.6281
疃	-14.6281
䁆	-14.6281
䃘	-14.6281
菄	-14.6281
牸	-14.6284
劓	-14.6285
猕	-14.6285
眯	-14.6285
㜘	-14.6285
喣	-14.6285
噆	-14.6285
枓	-14.6285
璏	-14.6285
芓	-14.6285
緺	-14.6288
矟	-14.6288
瞾	-14.6288
䭔	-14.6288
䯀	-14.6288
䱥	-14.6288
榎	-14.6288
籊	-14.6288
籄	-14.6288
碙	-14.6291
莔	-14.6291
艅	-14.6291
䃁	-14.6294
硝	-14.6294
媱	-14.6294
壾	-14.6294
昷	-14.6294
潴	-14.6294
瘤	-14.6294
艼	-14.6294
蕰	-14.6294
灤	-14.6294
窽	-14.6294
䉫	-14.6294
䜪	-14.6294
摝	-14.6297
㲚	-14.6297
幧	-14.6297
䘚	-14.6297
晹	-14.6297
柧	-14.6297
椾	-14.6297
櫕	-14.6297
澾	-14.6297
犠	-14.6297
䆷	-14.63
拷	-14.63
篹	-14.63
蕈	-14.63
坱	-14.63
敤	-14.63
旜	-14.6301
蟆	-14.6303
弯	-14.6303
埊	-14.6303
圀	-14.6303
㠎	-14.6303
䈂	-14.6303
禂	-14.6303
薹	-14.6303
汋	-14.6303
澭	-14.6303
炖	-14.6303
獾	-14.6303
盋	-14.6303
紶	-14.6303
哳	-14.6307
孼	-14.6307
岊	-14.6307
恇	-14.6307
宀	-14.6307
帤	-14.6307
愐	-14.6308
塪	-14.6309
捺	-14.631
喀	-14.631
䫈	-14.631
磥	-14.631
彔	-14.631
椚	-14.631
臿	-14.631
庬	-14.631
怐	-14.631
曅	-14.631
碼	-14.631
㦧	-14.631
堮	-14.631
焠	-14.631
峚	-14.631
捱	-14.631
橮	-14.631
汔	-14.631
繤	-14.631
罐	-14.631
蔇	-14.631
蘀	-14.631
跎	-14.6313
䵎	-14.6313
㬱	-14.6313
喩	-14.6313
嘑	-14.6313
珀	-14.6313
庂	-14.6313
鄲	-14.6313
扂	-14.6313
氾	-14.6313
碯	-14.6313
甒	-14.6313
㓪	-14.6313
㩧	-14.6313
䖳	-14.6313
劲	-14.6313
嘄	-14.6313
壉	-14.6313
竆	-14.6313
縴	-14.6313
羖	-14.6313
莵	-14.6313
鑕	-14.6313
莓	-14.6315
䋣	-14.6316
冪	-14.6316
仉	-14.6316
痣	-14.6316
罡	-14.6316
硨	-14.6316
磲	-14.6316
侻	-14.6316
庥	-14.6316
樝	-14.6316
蓛	-14.6316
壳	-14.6316
尨	-14.6316
揫	-14.6316
杅	-14.6316
簬	-14.6316
僛	-14.6316
噞	-14.6316
掦	-14.6316
梱	-14.6316
眴	-14.6316
婞	-14.6319
茱	-14.6319
凃	-14.6319
桅	-14.6319
嶭	-14.6319
杀	-14.6319
儌	-14.6319
柫	-14.6319
瞱	-14.6319
硿	-14.6319
苡	-14.6319
䊸	-14.6319
䡾	-14.6319
呾	-14.6319
嚃	-14.6319
娄	-14.6319
宧	-14.6319
悻	-14.6319
惷	-14.6319
糯	-14.6319
苪	-14.6319
蒢	-14.6319
薕	-14.6319
蘠	-14.6319
㠖	-14.6321
剟	-14.6322
嵾	-14.6322
撨	-14.6322
渣	-14.6322
腪	-14.6322
憪	-14.6322
睪	-14.6322
葘	-14.6322
㘖	-14.6322
䬘	-14.6322
伈	-14.6322
偼	-14.6322
卌	-14.6322
嬿	-14.6322
桿	-14.6322
櫋	-14.6322
櫑	-14.6322
潙	-14.6322
潨	-14.6322
獍	-14.6322
竞	-14.6322
筰	-14.6322
箟	-14.6322
艐	-14.6322
葚	-14.6322
狁	-14.6324
獫	-14.6324
蟈	-14.6325
㒰	-14.6325
㔾	-14.6325
䰙	-14.6325
笴	-14.6325
岝	-14.6325
潺	-14.6325
涒	-14.6326
㗋	-14.6326
殚	-14.6326
玆	-14.6326
罦	-14.6326
㴾	-14.6326
噳	-14.6326
娰	-14.6326
惄	-14.6326
懥	-14.6326
槯	-14.6326
沠	-14.6326
箙	-14.6326
簩	-14.6327
丅	-14.6328
嗾	-14.6328
枮	-14.6329
蓰	-14.6329
鸕	-14.6329
炲	-14.6329
摉	-14.6329
狔	-14.6329
磜	-14.6329
㙱	-14.6329
㢝	-14.6329
䛏	-14.6329
䬪	-14.6329
佅	-14.6329
呐	-14.6329
嘍	-14.6329
屮	-14.6329
幂	-14.6329
廜	-14.6329
斨	-14.6329
歹	-14.6329
矉	-14.6329
蒹	-14.6332
䃜	-14.6332
匆	-14.6332
摳	-14.6332
旯	-14.6332
珫	-14.6332
䁥	-14.6332
蕸	-14.6332
㟝	-14.6332
䆟	-14.6332
䲧	-14.6332
傔	-14.6332
厶	-14.6332
唑	-14.6332
唽	-14.6332
嘅	-14.6332
囤	-14.6332
揠	-14.6332
楔	-14.6332
疻	-14.6332
蓿	-14.6332
薶	-14.6332
䒠	-14.6333
朮	-14.6333
藑	-14.6335
梃	-14.6335
㟴	-14.6335
毌	-14.6335
疼	-14.6335
岨	-14.6335
罃	-14.6335
胯	-14.6335
缽	-14.6335
䏰	-14.6335
嚄	-14.6335
稡	-14.6335
藖	-14.6335
泞	-14.6335
䪗	-14.6335
丗	-14.6335
塒	-14.6335
墼	-14.6335
嬭	-14.6335
庨	-14.6335
戬	-14.6335
洔	-14.6335
瞤	-14.6335
繶	-14.6335
㹠	-14.6338
亝	-14.6338
厘	-14.6338
鴣	-14.6338
罗	-14.6338
獃	-14.6338
罻	-14.6338
荽	-14.6338
葡	-14.6338
䘨	-14.6338
祢	-14.6338
菣	-14.6338
歅	-14.6341
㵸	-14.6341
矑	-14.6341
㡩	-14.6341
卥	-14.6341
焻	-14.6341
栾	-14.6341
琁	-14.6341
㠝	-14.6341
㷆	-14.6341
喞	-14.6341
枏	-14.6341
渢	-14.6341
旹	-14.6344
䟃	-14.6344
壜	-14.6344
泆	-14.6344
藇	-14.6344
䫙	-14.6344
熯	-14.6344
筤	-14.6344
繗	-14.6344
倮	-14.6344
傒	-14.6344
塠	-14.6344
朒	-14.6344
疹	-14.6344
祍	-14.6344
峦	-14.6344
廦	-14.6344
憁	-14.6347
蒌	-14.6347
汸	-14.6347
漩	-14.6348
髴	-14.6348
抚	-14.6348
澴	-14.6348
皡	-14.6348
竜	-14.6348
㜷	-14.6348
嗡	-14.6348
樀	-14.6348
歀	-14.6348
洭	-14.6348
烻	-14.6348
虉	-14.6348
瑠	-14.6351
忺	-14.6351
䦞	-14.6351
媺	-14.6351
亐	-14.6351
㬇	-14.6351
嶅	-14.6351
惔	-14.6351
昈	-14.6351
榽	-14.6351
残	-14.6351
毵	-14.6351
烬	-14.6351
畞	-14.6351
秸	-14.6351
経	-14.6351
萄	-14.6353
蛣	-14.6354
嵕	-14.6354
抬	-14.6354
扒	-14.6354
壍	-14.6354
揾	-14.6354
篏	-14.6354
蘜	-14.6354
嬝	-14.6354
皬	-14.6354
曯	-14.6357
晛	-14.6357
帡	-14.6357
燹	-14.6357
珷	-14.6357
䫤	-14.6357
墙	-14.6357
橀	-14.6357
璬	-14.6357
腭	-14.6357
莝	-14.6357
猰	-14.636
瑘	-14.636
刜	-14.636
妮	-14.636
懘	-14.636
籲	-14.636
媢	-14.636
摐	-14.636
淀	-14.636
淰	-14.636
猬	-14.636
玞	-14.636
盔	-14.636
嚭	-14.6363
睁	-14.6363
斘	-14.6363
㪇	-14.6363
峿	-14.6363
㧓	-14.6366
浰	-14.6366
綝	-14.6366
楖	-14.6369
薔	-14.6369
絅	-14.637
傎	-14.637
䁱	-14.637
浻	-14.637
艴	-14.6373
亸	-14.6373
症	-14.6373
㥄	-14.6373
撈	-14.6373
棁	-14.6373
菻	-14.6373
杶	-14.6376
㠋	-14.6376
㭿	-14.6376
毰	-14.6376
淊	-14.6376
濰	-14.6376
琡	-14.6379
湩	-14.6382
㥀	-14.6382
稑	-14.6382
綐	-14.6382
翣	-14.6382
叄	-14.6385
疪	-14.6385
挣	-14.6385
娽	-14.6385
嵘	-14.6385
硜	-14.6385
蓡	-14.6385
凮	-14.6389
孶	-14.6392
憭	-14.6392
丨	-14.6392
濉	-14.6392
熿	-14.6395
罫	-14.6395
㟠	-14.6395
㞦	-14.6398
捘	-14.6398
槏	-14.6398
蒓	-14.6401
脤	-14.6401
扢	-14.6404
堶	-14.6407
䤥	-14.6411
瑲	-14.6411
爟	-14.6414
伭	-14.6414
慺	-14.6414
綥	-14.6417
蛪	-14.6417
箑	-14.642
篐	-14.6426
唪	-14.6436
聎	-14.6439
㵫	-14.6442
䔍	-14.6445
䠂	-14.6455
蕢	-14.6499
蛱	-15.6036
蘷	-15.6037
艨	-15.6038
艟	-15.6039
耇	-15.604
粦	-15.6041
稃	-15.6042
磌	-15.6043
砒	-15.6044
癉	-15.6045
痔	-15.6046
璸	-15.6047
犝	-15.6048
牁	-15.6049
燡	-15.605
焴	-15.6051
烙	-15.6052
澐	-15.6053
漊	-15.6054
滬	-15.6055
殭	-15.6056
梆	-15.6057
栘	-15.6058
旆	-15.6059
扐	-15.606
彲	-15.6061
庲	-15.6062
峗	-15.6063
媕	-15.6064
娿	-15.6065
塐	-15.6066
埂	-15.6067
嚌	-15.6068
嗍	-15.6069
啀	-15.607
冓	-15.6071
丿	-15.6072
䞼	-15.6073
㷏	-15.6074
鬿	-15.6075
骾	-15.6076
騵	-15.6077
饠	-15.6078
饆	-15.6079
顣	-15.608
頞	-15.6081
頀	-15.6082
霡	-15.6083
鐩	-15.6084
鋙	-15.6085
鉘	-15.6086
轣	-15.6087
軹	-15.6088
趻	-15.6089
谾	-15.609
諿	-15.6091
觕	-15.6092
蠈	-15.6093
蟭	-15.6094
蝘	-15.6095
蝒	-15.6096
蝃	-15.6097
蜊	-15.6098
蜈	-15.6099
蛜	-15.61
蚣	-15.6101
藘	-15.6102
蕯	-15.6103
蓲	-15.6104
葓	-15.6105
茿	-15.6106
芫	-15.6107
艧	-15.6108
臮	-15.6109
耤	-15.611
罱	-15.6111
繯	-15.6112
籓	-15.6113
篖	-15.6114
筕	-15.6115
竮	-15.6116
竤	-15.6117
竛	-15.6118
瓃	-15.6119
瑻	-15.612
玎	-15.6121
犄	-15.6122
燫	-15.6123
漶	-15.6124
楳	-15.6125
扊	-15.6126
扅	-15.6127
憗	-15.6128
悺	-15.6129
怩	-15.613
忸	-15.6131
弨	-15.6132
幗	-15.6133
帩	-15.6134
嫄	-15.6135
婵	-15.6136
娬	-15.6137
囅	-15.6138
嗊	-15.6139
喨	-15.614
啽	-15.6141
咷	-15.6142
卟	-15.6143
匃	-15.6144
勷	-15.6145
劻	-15.6146
劂	-15.6147
剞	-15.6148
佘	-15.6149
䳰	-15.615
䳘	-15.6151
䱎	-15.6152
䮂	-15.6153
䢴	-15.6154
䜈	-15.6155
䚮	-15.6156
䌨	-15.6157
䈣	-15.6158
㯝	-15.6159
㕳	-15.616
麐	-15.6161
鸘	-15.6162
鶢	-15.6163
鬙	-15.6164
鬅	-15.6165
骩	-15.6166
靿	-15.6167
闠	-15.6168
軔	-15.6169
趦	-15.617
趄	-15.6171
譓	-15.6172
觖	-15.6173
蠛	-15.6174
蝮	-15.6175
蝛	-15.6176
蜷	-15.6177
虥	-15.6178
蕺	-15.6179
膨	-15.618
脝	-15.6181
胱	-15.6182
筅	-15.6183
窸	-15.6184
磳	-15.6185
睊	-15.6186
癐	-15.6187
痝	-15.6188
琕	-15.6189
犵	-15.619
滆	-15.6191
洓	-15.6192
毾	-15.6193
殑	-15.6194
槸	-15.6195
槔	-15.6196
楀	-15.6197
桎	-15.6198
朣	-15.6199
憖	-15.62
慌	-15.6201
忼	-15.6202
忭	-15.6203
巑	-15.6204
嵽	-15.6205
嵳	-15.6206
嵑	-15.6207
坷	-15.6208
囧	-15.6209
嚀	-15.621
噅	-15.6211
叮	-15.6212
厔	-15.6213
儃	-15.6214
僝	-15.6215
䙰	-15.6216
㶀	-15.6217
㵧	-15.6218
𥝧	-15.6219
鷘	-15.622
髒	-15.6221
骯	-15.6222
驔	-15.6223
鞨	-15.6224
靺	-15.6225
鋹	-15.6226
銼	-15.6227
鄯	-15.6228
蹯	-15.6229
襏	-15.623
袙	-15.6231
蠮	-15.6232
蟢	-15.6233
螉	-15.6234
藗	-15.6235
蕎	-15.6236
芄	-15.6237
碔	-15.6238
玒	-15.6239
獝	-15.624
牱	-15.6241
洹	-15.6242
捆	-15.6243
弜	-15.6244
嵫	-15.6245
崓	-15.6246
啑	-15.6247
䬙	-15.6248
䍧	-15.6249
㶏	-15.625
鶖	-15.6251
鮎	-15.6252
鬳	-15.6253
餭	-15.6254
餦	-15.6255
遛	-15.6256
轗	-15.6257
蹺	-15.6258
蹣	-15.6259
詄	-15.626
覦	-15.6261
蜲	-15.6262
紃	-15.6263
箛	-15.6264
筲	-15.6265
窬	-15.6266
蜘	-15.6266
窫	-15.6267
矂	-15.6268
狻	-15.6269
燉	-15.627
槭	-15.6271
戔	-15.6272
悢	-15.6273
崷	-15.6274
娓	-15.6275
嚅	-15.6276
噰	-15.6277
仳	-15.6278
䴊	-15.6279
䭿	-15.628
䕡	-15.6281
㬅	-15.6282
韆	-15.6282
㟳	-15.6283
龑	-15.6284
鐲	-15.6285
跫	-15.6286
藭	-15.6287
蕒	-15.6288
萵	-15.6289
菂	-15.629
峋	-15.629
苜	-15.629
蜾	-15.629
繐	-15.6291
稂	-15.6292
痏	-15.6293
涑	-15.6294
欃	-15.6295
塿	-15.6296
圞	-15.6297
唃	-15.6298
裟	-15.6298
俑	-15.6299
䐁	-15.63
䆉	-15.6301
𧦬	-15.6302
鵁	-15.6303
輊	-15.6304
跏	-15.6305
螃	-15.6306
蟀	-15.6306
醱	-15.6306
蛚	-15.6307
砆	-15.6308
嶰	-15.6309
媫	-15.631
塏	-15.6311
囈	-15.6312
亍	-15.6313
姮	-15.6313
蟣	-15.6314
彿	-15.6314
懴	-15.6314
蝙	-15.6315
蝌	-15.6316
綷	-15.6317
牾	-15.6318
牴	-15.6319
牏	-15.632
毺	-15.6321
婀	-15.6322
峥	-15.6322
掙	-15.6322
奫	-15.6323
呿	-15.6324
􁋃	-15.6325
鸇	-15.6326
餬	-15.6327
蹐	-15.6328
濂	-15.6329
渼	-15.633
憔	-15.633
棓	-15.633
徬	-15.6331
娀	-15.6332
呱	-15.6333
鶹	-15.6334
魎	-15.6335
躕	-15.6336
苢	-15.6337
芣	-15.6338
籧	-15.6339
栴	-15.634
掎	-15.6341
嚳	-15.6342
鼕	-15.6343
驦	-15.6344
饀	-15.6345
餖	-15.6346
蟺	-15.6346
蝠	-15.6347
聵	-15.6348
羚	-15.6349
稏	-15.635
皪	-15.6351
擻	-15.6352
嗷	-15.6353
劘	-15.6354
悤	-15.6355
眢	-15.6355
匍	-15.6356
韡	-15.6357
觳	-15.6358
瑙	-15.6359
獼	-15.636
惺	-15.6361
㶁	-15.6362
㮴	-15.6363
鸊	-15.6364
螮	-15.6365
蚍	-15.6366
茉	-15.6367
痍	-15.6368
檳	-15.6369
莉	-15.637
糢	-15.6371
簁	-15.6372
硫	-15.6373
檎	-15.6374
呢	-15.6375
醐	-15.6376
鸜	-15.6377
蛄	-15.6378
忡	-15.6379
垞	-15.638
屧	-15.6381
儡	-15.6382
侏	-15.6383
簹	-15.6384
磾	-15.6385
檮	-15.6386
桯	-15.6387
惓	-15.6388
躇	-15.6389
桄	-15.639
躚	-15.6391
萏	-15.6392
矍	-15.6393
呦	-15.6394
颻	-15.6395
舴	-15.6396
貅	-15.6397
艋	-15.6398
熳	-15.6399
澘	-15.64
徜	-15.6401
紜	-15.6402
婕	-15.6402
鷯	-15.6403
鴒	-15.6403
狽	-15.6404
臙	-15.6405
酊	-15.6406
嵋	-15.6407
鷥	-15.6408
齪	-15.6409
鸂	-15.641
駸	-15.6411
髑	-15.6411
茯	-15.6412
妤	-15.6413
邙	-15.6414
躊	-15.6415
胭	-15.6416
粼	-15.6417
笭	-15.6418
欖	-15.6419
琊	-15.642
慇	-15.6421
蜓	-15.6422
橄	-15.6423
朓	-15.6424
挲	-15.6425
靂	-15.6426
燂	-15.6427
鷀	-15.6427
嫦	-15.6428
啻	-15.6429
篌	-15.643
箜	-15.6431
邂	-15.6432
逅	-15.6433
逡	-15.6434
枇	-15.6435
蛺	-15.6436
湲	-15.6437
颼	-15.6438
嬋	-15.6439
芍	-15.644
蝴	-15.6441
慷	-15.6442
緲	-15.6443
逍	-15.6443
