<unk>	0
<s>	0
</s>	0
。	-2.3395
,	-3.48793
者	-4.26094
、	-4.50455
▁	-4.72266
也	-4.7486
故	-4.92424
是	-5.01913
*	-5.09599
二	-5.16525
為	-5.22393
有	-5.27096
以	-5.40308
之	-5.43911
無	-5.46333
(	-5.49931
)	-5.50727
不	-5.54407
名	-5.54887
中	-5.55016
!	-5.57066
即	-5.57245
下	-5.5817
三	-5.59222
一	-5.59736
若	-5.63447
非	-5.70732
如	-5.74357
於	-5.76015
法	-5.77991
此	-5.79438
善男子	-5.7945
心	-5.86976
生	-5.89424
得	-5.91896
如來	-5.92803
佛	-5.9331
人	-5.94363
等	-5.94548
說	-5.95325
明	-5.96683
而	-5.9851
因	-6.0596
義	-6.08232
見	-6.08346
行	-6.09013
四	-6.09217
我	-6.10255
言	-6.10941
?	-6.11844
;	-6.13628
菩薩	-6.15347
謂	-6.15419
初	-6.18125
至	-6.18306
眾生	-6.18336
相	-6.19567
身	-6.20093
時	-6.20629
則	-6.23089
其	-6.25768
涅槃	-6.28365
大	-6.30459
如是	-6.31039
常	-6.33014
經	-6.33638
後	-6.33755
知	-6.38139
今	-6.41446
從	-6.41892
所	-6.42367
譬	-6.42998
果	-6.4501
作	-6.45135
。】「	-6.45363
即是	-6.46577
受	-6.4691
問	-6.47055
前	-6.47451
亦	-6.49278
。」【	-6.50412
能	-6.51698
:「	-6.52161
觀	-6.52527
釋	-6.52631
云	-6.53893
次	-6.56013
解	-6.56461
自	-6.57765
彼	-6.58365
諸	-6.58572
已	-6.59559
一切	-6.5967
皆	-6.60254
定	-6.61255
佛性	-6.62501
空	-6.62728
上	-6.62933
滅	-6.63082
善	-6.63412
與	-6.64752
在	-6.65025
。「	-6.65131
又	-6.6577
喻	-6.66812
道	-6.67617
云何	-6.68206
出	-6.69015
應	-6.69199
世尊	-6.70064
修	-6.70589
五	-6.71811
故云	-6.7233
名為	-6.72808
耶	-6.73821
無常	-6.7482
樂	-6.75503
苦	-6.75885
破	-6.7595
難	-6.7622
及	-6.76745
性	-6.77331
意	-6.78137
同	-6.80803
成	-6.81472
入	-6.82229
▁二	-6.8228
:『	-6.82661
正	-6.84734
先	-6.84981
王	-6.85069
案	-6.85112
煩惱	-6.85232
智	-6.85528
教	-6.85716
合	-6.85897
復	-6.86737
色	-6.86754
。」	-6.86758
是故	-6.87408
戒	-6.87547
理	-6.88142
欲	-6.88302
雖	-6.88373
斷	-6.88618
通	-6.88619
事	-6.90225
用	-6.90858
當	-6.90995
別	-6.91424
起	-6.92454
處	-6.92456
文	-6.92995
令	-6.93014
眾	-6.93501
答	-6.94309
異	-6.94352
緣	-6.94776
既	-6.94868
多	-6.95417
本	-6.96
業	-6.96238
住	-6.96796
顯	-6.975
分	-6.99699
爾時	-6.99908
惡	-7.00594
離	-7.01642
巳	-7.02085
取	-7.02787
具	-7.03311
經云	-7.03357
聞	-7.05812
實	-7.06578
淨	-7.06985
舉	-7.08364
體	-7.08802
然	-7.10067
乃至	-7.10168
汝	-7.10477
但	-7.10529
六	-7.10679
無有	-7.13265
可	-7.14031
天	-7.14394
真	-7.14529
約	-7.15257
地	-7.15462
▁初	-7.15653
依	-7.16435
施	-7.16839
論	-7.17286
因緣	-7.18505
或	-7.18529
僧亮曰	-7.18601
。』	-7.19123
生死	-7.19763
想	-7.20679
何以故	-7.20791
過	-7.20902
來	-7.20988
結	-7.21047
由	-7.21239
解脫	-7.21279
第三	-7.21995
未	-7.221
重	-7.22514
不能	-7.22569
就	-7.22688
證	-7.23002
對	-7.23525
師	-7.23551
第二	-7.23831
食	-7.24098
現	-7.24815
去	-7.25997
求	-7.28327
迦葉	-7.28609
盡	-7.28936
識	-7.30076
子	-7.31084
慧	-7.31508
不得	-7.31515
是名	-7.31803
八	-7.32767
亦復如是	-7.33384
無量	-7.33476
語	-7.33481
捨	-7.33521
不見	-7.33973
世	-7.34323
三昧	-7.34746
病	-7.34778
愛	-7.34884
俱	-7.35001
他	-7.36756
念	-7.37523
水	-7.37733
小	-7.37855
世間	-7.38656
開	-7.39372
七	-7.39462
德	-7.41325
執	-7.41564
不同	-7.41983
唯	-7.42012
分別	-7.42848
除	-7.43208
功德	-7.43226
耳	-7.43327
所以	-7.43671
外	-7.4412
一切眾生	-7.45752
悉	-7.46114
餘	-7.46219
廣	-7.46282
方便	-7.46408
比丘	-7.47641
請	-7.48968
具足	-7.49822
譬如	-7.50258
示	-7.51067
隨	-7.51104
惑	-7.51166
力	-7.51897
失	-7.52436
信	-7.52489
兩	-7.53377
持	-7.53925
勝	-7.53929
字	-7.5488
物	-7.55594
圓	-7.55869
阿難	-7.5598
故言	-7.56171
復次	-7.56725
凡夫	-7.56787
曰	-7.56908
還	-7.5696
十	-7.57414
更	-7.57621
深	-7.58418
何	-7.59615
化	-7.60047
大乘	-7.60737
慈	-7.61829
便	-7.61864
無明	-7.61927
不知	-7.62309
立	-7.6232
報	-7.62795
數	-7.62836
門	-7.63094
無我	-7.6327
等者	-7.63345
內	-7.63366
聲聞	-7.63509
共	-7.63766
第四	-7.64056
因果	-7.65996
故名	-7.66071
所謂	-7.66092
治	-7.66116
聖	-7.66252
智慧	-7.66349
方	-7.66447
不應	-7.66538
不可	-7.66614
僧	-7.66681
清淨	-7.67059
死	-7.68006
若有	-7.69025
第一	-7.70152
稱	-7.70796
法身	-7.71065
昔	-7.71074
乃	-7.71564
攝	-7.7157
度	-7.71806
根	-7.72228
邪	-7.72528
僧宗曰	-7.72593
菩薩摩訶薩	-7.73179
二乘	-7.73194
歎	-7.73839
壞	-7.73846
諸佛	-7.74573
轉	-7.74712
:	-7.74946
略	-7.74998
凡	-7.7524
不定	-7.75831
外道	-7.75907
辨	-7.76193
純陀	-7.76362
疑	-7.77034
種種	-7.77521
向	-7.77733
境	-7.77796
中道	-7.7841
一者	-7.78678
覺	-7.78793
藥	-7.78843
將	-7.7997
現在	-7.80264
光	-7.80299
未來	-7.80325
聲	-7.80707
成就	-7.80984
五陰	-7.81292
不生	-7.81337
魔	-7.81524
次第	-7.81657
陰	-7.81804
供養	-7.82015
指	-7.82414
命	-7.8259
反	-7.82614
位	-7.82704
乳	-7.82823
引	-7.82852
何故	-7.83229
集	-7.83824
發	-7.84399
火	-7.84404
罪	-7.84591
總	-7.84642
會	-7.84883
寶亮曰	-7.86068
始	-7.86097
歸	-7.86196
常住	-7.86309
猶如	-7.87236
二者	-7.87602
勸	-7.87731
菩提	-7.8855
必	-7.88582
以是義故	-7.89879
願	-7.90477
?」	-7.91441
各	-7.91506
云云	-7.91852
少	-7.92075
虛空	-7.92755
利	-7.92986
佛言	-7.93208
妙	-7.93657
遍	-7.94123
是人	-7.94178
日	-7.94428
猶	-7.94609
著	-7.94756
修習	-7.94958
計	-7.95137
之人	-7.95593
味	-7.96011
我今	-7.96033
樹	-7.96572
往	-7.96875
當知	-7.97202
國	-7.9762
若言	-7.97683
使	-7.97748
殺	-7.98126
無漏	-7.98194
須	-7.99029
觸	-7.9909
障	-7.993
偏	-7.99546
寶	-8.00154
貪	-8.00315
過去	-8.00678
▁三	-8.01001
之法	-8.01496
亦名	-8.01523
滿	-8.01534
九	-8.01716
藏	-8.0193
下明	-8.0241
遠離	-8.02414
類	-8.02427
安	-8.03033
家	-8.03649
學	-8.03974
照	-8.04552
自在	-8.04742
足	-8.04839
品	-8.06458
終	-8.06943
復有	-8.07747
辯	-8.08739
果報	-8.08817
乘	-8.08932
據	-8.09505
大涅槃	-8.09547
遠	-8.10022
女	-8.10044
以為	-8.10374
▁初分科	-8.10484
亦不	-8.10795
正法	-8.11415
主	-8.11666
邊	-8.11718
諸法	-8.12181
流	-8.12331
覆	-8.12475
益	-8.12519
音	-8.12547
動	-8.1275
大眾	-8.12996
諦	-8.13044
偈	-8.14883
翻	-8.15354
第五	-8.15489
屬	-8.15574
亦是	-8.15643
莊嚴	-8.15657
長	-8.15879
不淨	-8.16517
夫	-8.16652
俗	-8.16877
持戒	-8.1709
斯	-8.17121
亦爾	-8.17587
護	-8.17731
輕	-8.17857
假	-8.18369
所說	-8.18447
小乘	-8.18485
究竟	-8.18573
眼	-8.18929
名曰	-8.19288
地獄	-8.19369
闡提	-8.19462
雙	-8.19517
大王	-8.20187
白	-8.21085
月	-8.21254
表	-8.21374
直	-8.21766
之所	-8.21872
了	-8.21952
況	-8.22148
對治	-8.22175
止	-8.22206
口	-8.22302
例	-8.22303
般若	-8.22397
名之為	-8.22489
種	-8.22727
機	-8.22789
之義	-8.23204
近	-8.23371
喜	-8.23633
人天	-8.24023
如文	-8.24479
到	-8.2504
極	-8.25072
宗	-8.25401
山	-8.26117
衣	-8.2614
城	-8.26564
順	-8.26768
出家	-8.26843
善哉	-8.27014
父母	-8.27178
香	-8.27245
所有	-8.27505
畢竟	-8.28126
不可思議	-8.28177
華	-8.28687
無所	-8.2871
三種	-8.29085
界	-8.29292
修行	-8.29333
付	-8.29415
智者	-8.29521
四句	-8.29643
句	-8.2975
真實	-8.29894
非是	-8.30364
四諦	-8.30456
豈	-8.30625
害	-8.30722
風	-8.3085
無上	-8.3099
三寶	-8.31055
莫	-8.313
示現	-8.31986
金	-8.32764
能生	-8.33242
列	-8.33495
絕	-8.34041
章	-8.34234
亦無	-8.3439
親	-8.34488
亦有	-8.34569
說法	-8.34623
毒	-8.34816
要	-8.35027
簡	-8.35415
復次善男子	-8.35487
爾	-8.36018
光明	-8.36336
世界	-8.36465
平等	-8.36477
佛法	-8.37103
竟	-8.37225
可見	-8.37251
故知	-8.3726
此經	-8.37266
神	-8.37283
皆是	-8.3736
且	-8.37454
可知	-8.37699
文殊	-8.37774
酪	-8.37919
形	-8.38058
達	-8.38554
思惟	-8.386
法門	-8.38939
善法	-8.39066
者即	-8.39079
沒	-8.39168
倒	-8.39183
又二	-8.39371
河	-8.39788
墮	-8.40059
縛	-8.40127
四大	-8.40506
遮	-8.40876
者謂	-8.41152
聽	-8.41261
增	-8.41294
有人	-8.41844
文云	-8.41899
之中	-8.42077
常樂我淨	-8.42181
是常	-8.42185
尚	-8.42457
造	-8.42788
無為	-8.43303
已下	-8.43335
利益	-8.43352
劫	-8.43466
思	-8.43536
第六	-8.43991
亦如是	-8.4409
尋	-8.44297
目	-8.4443
三世	-8.44636
?』	-8.44891
百	-8.45215
並	-8.45217
十二	-8.45364
發心	-8.45459
法界	-8.45786
息	-8.4579
告	-8.45926
雖復	-8.45948
悟	-8.45981
器	-8.46046
不為	-8.46068
悲	-8.46319
而不	-8.46325
兼	-8.46426
卷	-8.46427
恒	-8.46462
望	-8.46558
婆羅門	-8.4693
和合	-8.47009
故名為	-8.47379
此是	-8.47482
妄	-8.47758
二種	-8.47802
於中	-8.47805
誰	-8.47921
制	-8.48051
出世	-8.48166
差別	-8.48228
只	-8.48389
三界	-8.48916
不受	-8.49303
高	-8.49706
亂	-8.49983
長者	-8.50038
易	-8.50339
下隨釋	-8.50575
有二	-8.50615
者即是	-8.50702
福	-8.50764
法性	-8.50884
弟子	-8.51105
梵行	-8.51199
何者	-8.51374
一切法	-8.51466
故也	-8.51611
金剛	-8.517
迷	-8.51913
頭	-8.52627
亦應	-8.52813
漏	-8.53587
雜	-8.53657
故曰	-8.53679
許	-8.53749
如彼	-8.53795
瞿曇	-8.53866
權	-8.53956
修道	-8.53966
乎	-8.54147
於此	-8.54179
羅	-8.54203
顛倒	-8.54252
服	-8.54696
下釋	-8.54863
則無	-8.54881
若不	-8.55036
有三	-8.55447
說言	-8.55454
母	-8.5588
花	-8.55932
文中	-8.56178
《	-8.56201
宣說	-8.5633
此中	-8.5639
年	-8.56546
有為	-8.56715
問答	-8.5689
好	-8.57019
一時	-8.57246
尊	-8.57251
有漏	-8.57362
有二種	-8.57459
不名	-8.57527
》	-8.57859
習	-8.58224
汝今	-8.58758
虗空	-8.5878
似	-8.58857
我等	-8.58869
終不	-8.58959
獨	-8.59091
律	-8.59095
經文	-8.59184
牛	-8.5922
善根	-8.59287
居	-8.59406
忍	-8.59588
不作	-8.599
犯	-8.60082
判	-8.60306
二諦	-8.60641
師子	-8.60651
欲界	-8.60674
增長	-8.60743
皆悉	-8.60761
破戒	-8.61039
是其	-8.61203
其義	-8.6178
記	-8.61824
眷屬	-8.61831
存	-8.61852
生滅	-8.62172
今經	-8.62217
聖人	-8.62237
亦非	-8.62244
情	-8.62393
雖有	-8.62482
加	-8.62598
次明	-8.62621
三乘	-8.6298
細	-8.63201
散	-8.63417
宜	-8.63681
有無	-8.63736
老	-8.63766
歡喜	-8.63814
今明	-8.6415
沙門	-8.64161
」	-8.64299
初明	-8.64477
趣	-8.64567
海	-8.64734
一闡提	-8.64902
而有	-8.6511
壽	-8.65126
備	-8.65203
三者	-8.65368
怨	-8.65487
如是等	-8.65896
并	-8.65991
三諦	-8.66045
如經	-8.6623
設	-8.66297
寄	-8.66461
千	-8.66823
致	-8.66833
有四	-8.67358
根本	-8.67426
一一	-8.6759
那	-8.67769
生於	-8.6828
中有	-8.68366
本有	-8.68452
舊	-8.68898
標	-8.68912
諸眾生	-8.6895
嘆	-8.69002
第七	-8.69035
矣	-8.69056
內外	-8.69261
明其	-8.6948
迹	-8.69643
師子吼	-8.69718
佛說	-8.69759
久	-8.698
手	-8.6997
下結	-8.69993
禪	-8.70226
如此	-8.70234
真諦	-8.70952
彰	-8.71014
半	-8.71483
退	-8.71528
供	-8.7157
以是因緣	-8.71589
十二因緣	-8.71627
脫	-8.71635
善惡	-8.71722
名字	-8.71912
慢	-8.71954
斥	-8.71974
「	-8.72289
邪見	-8.72374
漸	-8.72426
不聞	-8.72456
遣	-8.72553
羅漢	-8.72587
推	-8.72647
若無	-8.72711
甘露	-8.72843
汝等	-8.72959
感	-8.73083
被	-8.73139
聚	-8.7326
一人	-8.73331
己	-8.73346
寂	-8.73369
舍	-8.73405
象	-8.73479
永	-8.73493
大小	-8.74153
責	-8.74158
阿	-8.7416
答言	-8.74198
護法	-8.742
草	-8.74421
遇	-8.74533
三德	-8.7466
序	-8.74676
有我	-8.75075
本無	-8.75126
坐	-8.75329
受持	-8.75337
部	-8.75577
前後	-8.75767
癡	-8.75887
進	-8.75958
熱	-8.76183
只是	-8.76218
今日	-8.76336
財	-8.76568
而得	-8.76645
淺	-8.76795
了因	-8.77047
伏	-8.77461
義也	-8.77618
之時	-8.7765
甚深	-8.77669
世諦	-8.77721
為三	-8.77843
所作	-8.78079
旨	-8.78111
隱	-8.78292
量	-8.78726
號	-8.7903
全	-8.79046
女人	-8.79165
患	-8.79179
讚	-8.79205
是無常	-8.7931
大涅槃經	-8.79323
寂靜	-8.7978
。△	-8.79898
土	-8.79939
無作	-8.80052
無相	-8.80209
呵	-8.80498
佛答	-8.80499
乃是	-8.80632
父	-8.80668
像	-8.80753
陀	-8.80825
若能	-8.80832
疏	-8.809
阿羅漢	-8.80986
或有	-8.81399
相似	-8.81441
壽命	-8.81779
興	-8.81785
是則	-8.81813
互	-8.81917
法者	-8.8236
馬	-8.8254
上來	-8.82681
能斷	-8.82738
單	-8.8312
緣覺	-8.83139
亡	-8.83152
無生	-8.83175
決定	-8.83338
而生	-8.83367
如人	-8.83385
普	-8.83393
之相	-8.83654
聖行	-8.8366
諸天	-8.83881
一明	-8.83926
變	-8.84074
述	-8.84131
畏	-8.84734
無礙	-8.85045
染	-8.85285
所得	-8.85381
未得	-8.85525
嚴	-8.85965
不說	-8.86056
損	-8.86114
不善	-8.8621
以此	-8.86264
不斷	-8.86372
末	-8.86404
醫	-8.86405
竝	-8.86454
解釋	-8.86565
神通	-8.86697
生善	-8.86778
精進	-8.87065
之心	-8.87224
麁	-8.87353
敬	-8.87387
大般涅槃	-8.87442
聲聞緣覺	-8.87452
獲	-8.8749
闇	-8.875
徧	-8.87612
亦復	-8.87892
新	-8.8822
常無常	-8.8826
各有	-8.88371
伹	-8.88622
次釋	-8.88778
燈	-8.88842
悉皆	-8.88907
訖	-8.8912
下第二	-8.89146
經中	-8.89313
智秀曰	-8.89372
微	-8.89717
路	-8.89859
木	-8.89861
安樂	-8.90232
待	-8.90559
違	-8.90697
摩	-8.90779
故得	-8.91005
石	-8.91122
能知	-8.91262
不出	-8.91359
呪	-8.91374
窮	-8.91517
為二	-8.91618
諸比丘	-8.91641
第一義	-8.91662
林	-8.91759
不動	-8.91803
不滅	-8.91867
▁二答	-8.9187
賊	-8.91906
自性	-8.92004
差	-8.92279
境界	-8.9239
中間	-8.92427
瞋	-8.92506
調	-8.92605
▁四	-8.92732
收	-8.92745
徵	-8.92924
歸依	-8.93314
刀	-8.93435
則不	-8.93782
第八	-8.9388
微妙	-8.93992
不信	-8.94076
不思議	-8.94119
婆	-8.94487
佛果	-8.94648
梵	-8.94873
故不	-8.95024
應當	-8.95082
知見	-8.95092
寧	-8.95117
何等	-8.95152
最後	-8.95444
怖	-8.95569
懷	-8.9563
初地	-8.9567
演說	-8.95799
恐	-8.9583
盛	-8.95906
密	-8.95918
所見	-8.96011
蓋	-8.96019
劣	-8.96125
肉	-8.962
此即	-8.96583
力士	-8.96618
之言	-8.9668
為四	-8.96721
醍醐	-8.96751
憍慢	-8.96754
入涅槃	-8.96774
得阿耨多羅三藐三菩提	-8.96783
法華	-8.96887
法中	-8.96892
古	-8.96915
四依	-8.97019
則有	-8.97043
奉	-8.97127
不退	-8.97131
不離	-8.97243
又復	-8.97442
十方	-8.97699
放逸	-8.978
橫	-8.97826
縱	-8.98083
塵	-8.98251
即便	-8.98686
二十五有	-8.98866
十六	-8.98883
畜生	-8.98982
奪	-8.9913
四種	-8.99175
速	-8.99195
又云	-8.99242
我當	-8.99305
其心	-8.99323
及以	-8.99599
傳	-8.99697
無有是處	-8.99769
成佛	-8.99817
牒	-8.9999
故非	-8.99994
)。】「	-9.00009
珠	-9.00032
諸行	-9.00094
然後	-9.00294
安住	-9.00401
大悲	-9.00495
化他	-9.00733
大海	-9.00871
無色	-9.00939
咸	-9.00948
一句	-9.00957
燒	-9.00965
提	-9.01235
能令	-9.01308
和	-9.0155
正因	-9.01568
惱	-9.01666
龍	-9.01686
故無	-9.01832
是時	-9.01898
夜	-9.01984
正明	-9.02092
支	-9.02256
滅度	-9.02331
非色	-9.02365
唱	-9.02455
▁初問	-9.02775
無邊	-9.02952
我所	-9.03036
疾	-9.03059
良醫	-9.03115
毀	-9.03119
比	-9.03139
冥	-9.03269
科	-9.03321
威儀	-9.03581
或說	-9.03699
惡業	-9.03797
諸佛世尊	-9.03801
無畏	-9.03849
住處	-9.03927
信心	-9.0397
二邊	-9.03992
乖	-9.04097
假名	-9.04123
最	-9.04219
領	-9.04248
虛	-9.0433
十地	-9.04419
因緣故	-9.04679
萬	-9.04713
日月	-9.04731
置	-9.04772
實相	-9.04854
唯有	-9.05035
如佛所說	-9.05178
周	-9.05187
謗	-9.05257
強	-9.05401
慈悲	-9.05701
譬如有人	-9.05868
而言	-9.05922
五行	-9.06227
資	-9.06376
雨	-9.06568
非不	-9.0663
姓	-9.06885
有佛性	-9.07075
所言	-9.07232
何得	-9.0737
恭敬	-9.07456
下約	-9.07458
人中	-9.07514
遂	-9.076
二明	-9.07681
諸菩薩	-9.07683
首	-9.08221
布施	-9.08405
一切諸法	-9.08547
得果	-9.08583
拔	-9.0878
或言	-9.08806
章門	-9.09319
所生	-9.09363
救	-9.09365
舍利	-9.09428
辭	-9.096
三結	-9.09634
迦	-9.09717
者以	-9.09994
消	-9.10021
不解	-9.10026
先明	-9.10111
相對	-9.10195
而為	-9.1024
方等	-9.10254
相應	-9.1041
甚	-9.10414
梵天	-9.1043
鳥	-9.10449
若是	-9.10592
不可得	-9.10748
此云	-9.11014
專	-9.11308
段	-9.11377
第十	-9.11461
一心	-9.11506
安隱	-9.11651
為說	-9.11751
逆	-9.11979
有餘	-9.12163
此下	-9.12268
吾	-9.12339
臣	-9.12374
種子	-9.12459
頂	-9.12462
皆有	-9.12495
波	-9.12588
助	-9.12601
導	-9.12721
一體	-9.12822
。」「	-9.12936
為一	-9.12981
中陰	-9.13062
厭	-9.1308
如來亦爾	-9.13117
之身	-9.13282
廣說	-9.13355
常樂	-9.13673
若爾	-9.13691
七寶	-9.13772
十二部經	-9.13803
五根	-9.13989
所以者何	-9.14116
祕藏	-9.14132
始終	-9.14142
不具	-9.14393
脩	-9.14449
若依	-9.14896
大慈	-9.14898
故須	-9.15065
而無	-9.15222
棄	-9.15226
善業	-9.15243
之處	-9.15314
苦行	-9.15333
何以	-9.15437
自行	-9.15557
車	-9.15675
骨	-9.15732
不二	-9.15802
是故名	-9.16223
面	-9.16439
五事	-9.16449
優婆塞	-9.16452
此文	-9.16547
實無	-9.16745
超	-9.16852
廣明	-9.16973
齊	-9.17079
斷煩惱	-9.17095
文殊師利	-9.17143
一向	-9.17181
非無	-9.17332
下文	-9.17489
悔	-9.17934
不住	-9.17939
二人	-9.18098
不異	-9.18098
誡	-9.18157
實非	-9.18293
悉是	-9.18536
五種	-9.18544
勤	-9.18617
迦葉菩薩白佛言	-9.18642
是義不然	-9.18691
?」「	-9.18794
永斷	-9.18855
得名	-9.1911
四德	-9.19238
▁初明	-9.19272
聞法	-9.19421
苦樂	-9.19437
為欲	-9.19438
繫	-9.19445
寂滅	-9.19522
書	-9.1961
亦可	-9.19711
穢	-9.19844
純	-9.19862
見佛	-9.20144
四者	-9.20152
長壽	-9.20261
熟	-9.20317
非法	-9.20388
論云	-9.20508
愚癡	-9.20518
自然	-9.2053
十住	-9.2062
向前	-9.20639
三藏	-9.20829
兒	-9.20854
十一	-9.20994
之理	-9.21069
見佛性	-9.21168
黑	-9.21259
等也	-9.21338
則是	-9.21413
星	-9.21513
不失	-9.21585
是名為	-9.21631
之性	-9.21839
法瑤曰	-9.22041
緣因	-9.22085
般涅槃	-9.22101
其人	-9.22365
准	-9.228
曾	-9.22841
讀誦	-9.22968
此二	-9.23203
須陀洹	-9.23209
當知是人	-9.23229
親近	-9.23306
不然	-9.23462
其中	-9.2349
傷	-9.23772
盲	-9.24019
調伏	-9.24101
容	-9.24131
受者	-9.24136
則得	-9.2435
改	-9.24353
清	-9.24383
得解脫	-9.2444
▁二初	-9.2452
故以	-9.24747
不修	-9.2476
能見	-9.24837
何以下釋	-9.2488
則為	-9.24959
四倒	-9.24986
諸佛菩薩	-9.25288
是為	-9.2529
視	-9.25497
鬼	-9.25947
若見	-9.25991
五欲	-9.26272
能為	-9.26324
宮	-9.26414
於是	-9.26466
六道	-9.26483
白佛言	-9.26569
含	-9.26668
幻	-9.26681
命終	-9.26712
觀察	-9.26796
飲	-9.26898
我於	-9.26955
大臣	-9.27225
四禪	-9.27378
輪	-9.2742
飲食	-9.27488
此義	-9.27627
印	-9.2763
諸煩惱	-9.2773
北	-9.2774
爾時世尊	-9.27851
初文	-9.27924
相續	-9.28012
偽	-9.28055
瞋恚	-9.2815
積	-9.28164
說有	-9.28294
十三	-9.28437
童子	-9.28577
此約	-9.28613
故說	-9.28618
敘	-9.28632
亦如	-9.28638
無樂	-9.28703
知足	-9.28783
之行	-9.28906
東	-9.28974
佛告迦葉	-9.28995
畜	-9.29231
之事	-9.29261
西	-9.29272
不壞	-9.29273
嬰兒	-9.29307
未有	-9.29458
是經	-9.29525
怖畏	-9.29537
不爾	-9.29568
佛性者	-9.29697
道生曰	-9.29726
但有	-9.2986
一云	-9.29888
六度	-9.29892
瓶	-9.30076
正是	-9.30119
是身	-9.30137
行者	-9.30236
塗	-9.3028
三法	-9.30348
是佛	-9.30447
。」【(	-9.30492
義者	-9.30544
辟支佛	-9.30694
初問	-9.30714
禪定	-9.31205
檀	-9.31207
放	-9.31257
以顯	-9.31288
隨順	-9.31301
此三	-9.31313
憂	-9.31322
。』「	-9.31363
堅	-9.31434
今此	-9.31465
諸惡	-9.31788
世人	-9.31828
二云	-9.31903
他人	-9.31984
接	-9.31994
遊	-9.32113
臥	-9.32246
一乘	-9.32261
一念	-9.32345
各各	-9.32351
後一	-9.3242
又三	-9.32502
是名菩薩	-9.32518
受樂	-9.32626
定有	-9.32747
美	-9.32802
我見	-9.32811
虗	-9.33024
雙非	-9.3304
此之	-9.33049
福德	-9.33069
則能	-9.33106
本無今有	-9.33118
禮	-9.33147
伽	-9.3317
南	-9.3353
億	-9.33571
先舉	-9.33591
是事	-9.33642
氣	-9.33705
尼	-9.34233
切	-9.34246
非有非無	-9.34377
麤	-9.34419
非有	-9.34616
能破	-9.34636
第二明	-9.34709
是一	-9.34766
無餘	-9.34822
青	-9.34833
下合	-9.35013
正答	-9.35025
於諸	-9.35066
料簡	-9.35172
宿	-9.35195
見者	-9.35258
召	-9.35262
有性	-9.35352
諍	-9.35745
於我	-9.35902
虛妄	-9.36024
三句	-9.36032
常者	-9.36064
惡心	-9.36085
領解	-9.36115
自他	-9.36197
若有眾生	-9.36283
非我	-9.36292
第九	-9.36347
閻浮提	-9.36406
降	-9.36491
大般涅槃經	-9.36581
如上	-9.36671
一切諸	-9.36692
云何名為	-9.367
中云	-9.3673
欲令	-9.36873
不須	-9.36895
旃陀羅	-9.36917
得聞	-9.3701
破壞	-9.37023
阿耨多羅三藐三菩提	-9.37024
五百	-9.37054
生生	-9.37064
此品	-9.37176
間	-9.3726
宣	-9.37433
身心	-9.37451
默然	-9.37585
初住	-9.37604
當有	-9.37635
十力	-9.37669
無差別	-9.37784
心無	-9.37925
田	-9.38057
鉢	-9.38065
以是	-9.38073
十四	-9.38147
三業	-9.38183
我亦	-9.38236
無二	-9.38249
善知識	-9.38275
或時	-9.38317
可得	-9.3834
此明	-9.38342
不識	-9.38404
于	-9.38455
無盡	-9.38458
靜	-9.38492
讚歎	-9.38569
大雲	-9.3889
前三	-9.38901
為是	-9.39009
心不	-9.39026
此乃	-9.39057
談	-9.39136
佛言善男子	-9.39144
六師	-9.39374
為因	-9.39411
入於涅槃	-9.39443
法故	-9.39499
短	-9.39528
多聞	-9.39542
為難	-9.39876
貪欲	-9.39898
應云	-9.3993
值	-9.4001
佛所	-9.40061
之名	-9.40282
三歸	-9.40296
豈非	-9.40475
不盡	-9.4049
甘	-9.40566
而復	-9.40617
解云	-9.40721
開善	-9.40841
但是	-9.40949
四法	-9.41041
哀	-9.41045
作如是言	-9.41107
恩	-9.41235
若使	-9.41238
佛告	-9.41242
為本	-9.41399
於彼	-9.4156
是因	-9.41699
如前	-9.41768
所行	-9.41834
中初	-9.41866
玄	-9.41939
油	-9.42253
如其	-9.42459
養	-9.42462
不了	-9.42467
十八	-9.4253
無別	-9.42611
善知	-9.42625
最勝	-9.42691
堅固	-9.42747
國土	-9.42904
多有	-9.42922
聞已	-9.42928
無記	-9.42971
巧	-9.43012
天人	-9.43041
頓	-9.43097
人也	-9.43156
初禪	-9.43189
復言	-9.43295
餓鬼	-9.43519
文為二	-9.43577
能壞	-9.43595
我為	-9.43612
歷	-9.43616
繫縛	-9.43624
謝	-9.43653
以明	-9.43734
而作	-9.4374
不從	-9.43815
是故如來	-9.43828
無差	-9.43833
初果	-9.43962
眼見	-9.43991
音聲	-9.43996
亦云	-9.44125
何不	-9.44146
為眾生	-9.44197
釋迦	-9.44205
黃	-9.44314
苦惱	-9.44412
垂	-9.44527
雖無	-9.44828
之果	-9.44852
在於	-9.44985
昔教	-9.45033
不取	-9.45061
承	-9.45285
論義	-9.45374
色界	-9.45403
明佛	-9.45456
正見	-9.45472
有三種	-9.45574
說為	-9.45756
於佛	-9.45781
真我	-9.45833
淨戒	-9.45862
故有	-9.46056
志	-9.46278
勿	-9.46514
令人	-9.4657
無所有	-9.46591
授	-9.4662
不成	-9.46807
德王	-9.46867
若人	-9.46974
初中	-9.46978
見性	-9.47136
為體	-9.47154
男女	-9.47159
期	-9.47262
假使	-9.47303
是以	-9.47322
相違	-9.47421
平	-9.47522
一往	-9.47605
元	-9.47808
而說	-9.47813
念處	-9.48058
得見	-9.48095
懸	-9.48098
然此	-9.48101
六種	-9.48138
都	-9.48143
有一	-9.48144
無量眾生	-9.4823
▁二釋	-9.48305
決	-9.48337
○	-9.48525
定慧	-9.48526
三事	-9.48571
恐怖	-9.48785
為眾生故	-9.48893
不起	-9.48922
垢	-9.48945
亦得	-9.49007
仰	-9.49091
意者	-9.49092
男	-9.49387
前二	-9.49542
何處	-9.49737
亦然	-9.4978
比丘尼	-9.49836
不復	-9.49889
四悉	-9.50169
不聞聞	-9.50219
座	-9.50264
斷惑	-9.50359
貧	-9.50714
其所	-9.50787
丈夫	-9.50869
池	-9.50923
賢	-9.5093
名色	-9.51013
文為三	-9.51071
何所	-9.51091
若以	-9.51157
愚	-9.51237
葉	-9.51353
令其	-9.51456
無數	-9.51473
十住菩薩	-9.51518
富	-9.51538
是果	-9.51688
忘	-9.51748
大地	-9.51754
無性	-9.51809
守	-9.51881
復作是念	-9.51899
殊	-9.5205
我說	-9.52068
無異	-9.52224
驗	-9.52264
舍利弗	-9.52281
諸師	-9.52328
云何言	-9.52332
慈心	-9.52342
聽法	-9.52446
今文	-9.52448
合前	-9.52477
而是	-9.52637
興皇	-9.52641
濁	-9.52654
諸有	-9.5267
應有	-9.52729
優婆夷	-9.5276
那含	-9.52911
受苦	-9.52968
當得	-9.53064
二十	-9.53103
不求	-9.53167
舊云	-9.53178
作業	-9.53196
赤	-9.53234
枯	-9.53312
留	-9.53339
呼	-9.53406
下是	-9.53426
下舉	-9.53475
則非	-9.5353
貪著	-9.53563
別教	-9.53656
云何為	-9.53673
輕重	-9.53673
曲	-9.53742
任	-9.53752
功	-9.53779
實諦	-9.53786
何因緣故	-9.53874
生因	-9.53905
為他	-9.54082
無量無邊	-9.54108
如何	-9.54125
因中	-9.54236
牽	-9.54316
試	-9.54318
典	-9.54632
此身	-9.54659
魚	-9.54715
貧窮	-9.54737
少分	-9.54792
鐵	-9.54809
非非	-9.54882
以其	-9.55045
意云	-9.55064
福田	-9.55237
諸根	-9.55303
有五	-9.55314
是涅槃	-9.55329
初句	-9.55354
聖道	-9.55395
總結	-9.55453
審	-9.55513
果也	-9.55646
四人	-9.55757
節	-9.55888
無不	-9.55984
不空	-9.56154
關	-9.56265
之意	-9.56281
三明	-9.56317
影	-9.56357
未能	-9.56368
彌	-9.56415
滿足	-9.56419
果者	-9.5642
二句	-9.5654
士	-9.56629
不可見	-9.56638
何況	-9.56652
意也	-9.56749
泥洹	-9.56764
不名為	-9.56798
一切煩惱	-9.56811
五者	-9.56947
難也	-9.57054
人民	-9.57147
有六	-9.57193
此則	-9.57225
惡人	-9.57247
故今	-9.57377
枝	-9.5775
非想	-9.57758
謬	-9.57778
異法	-9.57925
天眼	-9.57971
二字	-9.58081
却	-9.58132
礙	-9.58138
釋之	-9.58168
悅	-9.58217
此言	-9.58362
所知	-9.58363
▁二合	-9.5869
問曰	-9.58714
修多羅	-9.58798
力故	-9.58838
諸佛如來	-9.58854
仍	-9.58871
譯	-9.5903
能除	-9.59078
是苦	-9.59092
逐	-9.59204
造作	-9.59525
能治	-9.59578
二解	-9.59605
斷善	-9.59675
通別	-9.5973
雲	-9.59747
鏡	-9.59828
能得	-9.59892
傍	-9.60262
是故當知	-9.60303
帝釋	-9.60391
如佛	-9.60457
四相	-9.60666
相即	-9.60791
酒	-9.60838
騰	-9.60846
法也	-9.60865
二義	-9.60913
肉眼	-9.60944
自知	-9.61273
雪山	-9.61308
可解	-9.61393
斷善根	-9.61415
流通	-9.61466
身口	-9.6147
解脫者	-9.6148
獲得	-9.61659
得菩提	-9.619
沙	-9.61987
其餘	-9.61998
及諸	-9.62009
夢	-9.62111
此人	-9.6219
王子	-9.62268
▁○	-9.62284
不可說	-9.623
利根	-9.62352
正道	-9.62377
般	-9.62401
常為	-9.62403
名無	-9.62413
利他	-9.62494
▁三結	-9.62536
汝等比丘	-9.62584
實不	-9.62652
以下	-9.62681
十五	-9.627
吉	-9.62708
冷	-9.62807
半字	-9.62873
八種	-9.62968
瘡	-9.62972
次答	-9.62976
發阿耨多羅三藐三菩提心	-9.63067
所證	-9.63078
一法	-9.63128
無因	-9.63191
義故	-9.63241
唯願	-9.6327
題	-9.63352
慚愧	-9.63391
一切皆	-9.6344
令得	-9.63571
歲	-9.63581
不久	-9.63604
其身	-9.6388
自下第二	-9.63906
牙	-9.63909
」【	-9.6392
去是	-9.63942
際	-9.64158
後明	-9.64189
契	-9.64323
國王	-9.6436
不放逸	-9.64521
徒	-9.64588
為我	-9.64598
羅剎	-9.64619
由旬	-9.6462
寶藏	-9.64831
大士	-9.64882
圓教	-9.64893
文字	-9.6492
得涅槃	-9.64971
五大	-9.6504
負	-9.65062
血	-9.65146
弘	-9.65147
迦葉菩薩白佛言世尊	-9.65181
非常	-9.65291
憐愍	-9.65351
都無	-9.65352
法說	-9.65448
滅盡	-9.65455
秊	-9.65488
帝	-9.65508
唱言	-9.65597
是故名為	-9.65618
善星	-9.65716
竪	-9.65742
若我	-9.65802
斷常	-9.65882
變易	-9.65985
摩訶	-9.66049
四教	-9.66097
那羅延	-9.66105
能作	-9.6612
若欲	-9.66137
拘	-9.66142
昔日	-9.66149
術	-9.66167
勸修	-9.66174
無罪	-9.66198
焉	-9.66283
四重	-9.66346
大師	-9.66423
是有	-9.66481
佛為	-9.66636
遺	-9.66637
毛	-9.66743
階	-9.66748
狂	-9.66786
是我	-9.66885
會通	-9.66946
緣起	-9.66961
非一	-9.67131
相者	-9.67191
毗	-9.67261
堪	-9.67512
不共	-9.67567
後二	-9.67571
第一義諦	-9.67584
時節	-9.67634
聞見	-9.6768
請佛	-9.67686
三十七品	-9.67795
觀行	-9.67824
天子	-9.67826
法相	-9.67848
詮	-9.6788
鹽	-9.67949
得道	-9.68046
醉	-9.68148
有所	-9.68305
端	-9.68329
是實	-9.68337
生者	-9.6836
廣釋	-9.68421
降伏	-9.68438
道者	-9.68466
所問	-9.68477
二釋	-9.68587
今云	-9.68595
云何菩薩	-9.68616
濟	-9.68806
融	-9.68841
四門	-9.68937
汝言	-9.68948
經律	-9.69054
二隨釋	-9.69065
病人	-9.69075
法師	-9.69077
六入	-9.69089
即得	-9.69151
說之	-9.6925
我言	-9.69295
三品	-9.69327
第一義空	-9.69356
是中	-9.69455
涅槃者	-9.69494
毘	-9.69533
迴	-9.69542
顯示	-9.69705
勅	-9.69915
不以	-9.69964
難破	-9.69973
畢	-9.69979
云何說言	-9.69983
常法	-9.69987
華嚴	-9.69998
妨	-9.70057
捨離	-9.70191
乃名	-9.70209
能滅	-9.70325
二法	-9.70403
受生	-9.70456
之本	-9.70484
七日	-9.70502
若得	-9.70622
隨意	-9.70628
入於	-9.70662
愍	-9.70667
皮	-9.70699
草木	-9.7077
病者	-9.70781
名大涅槃	-9.70816
既無	-9.7083
滅諦	-9.70982
是則名為	-9.70982
背	-9.71167
苦諦	-9.71309
角	-9.71323
少欲	-9.7137
苦集	-9.7147
其性	-9.71521
三千大千世界	-9.7156
若有比丘	-9.71652
更無	-9.71794
▁二明	-9.71829
訓	-9.71976
病苦	-9.72018
既云	-9.72053
別有	-9.72143
護持	-9.72336
合譬	-9.72402
之與	-9.72435
四果	-9.72506
無復	-9.72513
何緣	-9.72514
微塵	-9.72556
一偈	-9.7256
若論	-9.72589
之用	-9.72641
覩	-9.7269
無學	-9.72817
如是之人	-9.72886
聽受	-9.72891
云何名	-9.72902
諸人	-9.72934
泥	-9.73017
懺悔	-9.73027
準	-9.73071
伴	-9.73076
建立	-9.7308
訶	-9.73134
三番	-9.73247
當知是	-9.73288
辦	-9.73321
凡聖	-9.73519
不樂	-9.73627
痛	-9.7363
空空	-9.73643
昇	-9.73643
下就	-9.73643
喪	-9.73677
依止	-9.73822
書寫	-9.73981
佛所說	-9.74169
不言	-9.74181
蒙	-9.74289
鹿	-9.74305
如來藏	-9.74388
天上	-9.74397
教化	-9.74401
云何而言	-9.74401
之體	-9.7442
何故不	-9.74456
轉法輪	-9.7454
仙	-9.74589
過患	-9.74601
世法	-9.74633
鈍	-9.74688
累	-9.74688
各異	-9.74769
蜜	-9.74769
之教	-9.74807
是諸	-9.74808
付囑	-9.74839
八十	-9.74963
四事	-9.74974
應供	-9.75027
空中	-9.75067
非因	-9.75068
空者	-9.75089
不依	-9.75095
中有四	-9.75112
今以	-9.75133
非實	-9.75175
況復	-9.75182
未生	-9.75184
葢	-9.7532
倍	-9.75336
在家	-9.754
?「	-9.75412
諸經	-9.75574
配	-9.75591
之說	-9.75638
十種	-9.75645
所為	-9.75744
天行	-9.75859
諸外道	-9.75999
招	-9.76026
洗	-9.76037
跡	-9.76055
非常非無常	-9.76098
不食	-9.76139
或云	-9.76164
又解脫者	-9.76231
破之	-9.76454
乞	-9.76662
貴	-9.76662
夏	-9.76667
應知	-9.76671
不實	-9.76676
此亦	-9.76874
精	-9.77051
此釋	-9.77109
。」【△	-9.77113
憂悲	-9.7713
行人	-9.77195
喻中	-9.77208
如來世尊	-9.77239
彌勒	-9.77265
所成	-9.77291
彼岸	-9.77512
為實	-9.77576
兵	-9.77604
通達	-9.77617
斷除	-9.7762
別體	-9.77687
善男子譬如	-9.77694
自下第三	-9.77721
有法	-9.7773
真解脫者即是如來	-9.77766
初文者	-9.77868
豈可	-9.78003
蛇	-9.78072
應身	-9.78165
有大	-9.78181
佛身	-9.78193
今言	-9.78195
生疑	-9.78251
云何得	-9.78261
身中	-9.78334
不著	-9.78372
師子吼言	-9.78373
同於	-9.78387
為諸眾生	-9.78438
俗諦	-9.78474
四眾	-9.78487
祕密	-9.78511
申	-9.78536
無所得	-9.78557
得自在	-9.78558
一切凡夫	-9.78567
亦能	-9.78602
為緣	-9.78648
無能	-9.78726
明了	-9.78769
疏主	-9.78781
善女人	-9.78823
心者	-9.7893
作者	-9.78941
通教	-9.79076
而今	-9.79084
樓	-9.79111
言無	-9.79181
若有說言	-9.79205
受報	-9.79236
注	-9.79348
四方	-9.79435
獄	-9.79472
此等	-9.79486
酬	-9.79492
一切世間	-9.79702
盜	-9.79753
修善	-9.79762
投	-9.79768
佛意	-9.79981
因也	-9.80027
一種	-9.80052
三塗	-9.80083
念念	-9.80114
前文	-9.80136
九界	-9.80196
十二緣	-9.80329
舍宅	-9.80351
衰	-9.80368
纏	-9.80382
我者	-9.80397
無始	-9.80434
復作是言	-9.80447
希有	-9.80541
酥	-9.80558
不與	-9.80586
不在	-9.80747
又二先	-9.80808
有罪	-9.80833
詣	-9.80857
暫	-9.81016
自有	-9.81042
弱	-9.81049
懼	-9.81051
六波羅蜜	-9.81058
闕	-9.81076
渡	-9.81079
借	-9.81097
是無	-9.81156
之異	-9.81229
薄	-9.81249
雖不	-9.8147
阿修羅	-9.81538
胎	-9.81564
毒藥	-9.81578
潤	-9.81615
併	-9.81634
為兩	-9.81637
誠	-9.81658
守護	-9.81676
衣服	-9.81733
折	-9.81745
悉能	-9.81767
陳	-9.81826
長行	-9.8189
而能	-9.81934
公	-9.81955
正義	-9.81958
及與	-9.8198
適	-9.82016
不見佛性	-9.82021
語言	-9.82066
臨	-9.82075
憍陳如	-9.82106
眾生佛性	-9.82159
今初	-9.82174
捨身	-9.82215
瓔珞	-9.82223
河西	-9.82233
善哉善哉	-9.82356
今昔	-9.82391
阿含	-9.82394
髮	-9.82402
之因	-9.82442
正解	-9.82451
諸弟子	-9.82475
龍王	-9.8258
復有二種	-9.82775
離諸	-9.82861
耆婆	-9.82915
▁「	-9.82924
六根	-9.82945
複	-9.82964
床	-9.82972
蓮華	-9.8302
滅惡	-9.83108
道品	-9.83136
蘇	-9.83137
我身	-9.83174
一切智	-9.83418
請住	-9.83478
其實	-9.83557
尊重	-9.83612
善能	-9.83657
喻於	-9.83662
問也	-9.83691
是知	-9.83743
自身	-9.83781
入滅	-9.83831
邪正	-9.83953
▁初譬	-9.83953
作如是	-9.84036
不捨	-9.84038
無緣	-9.84104
無定	-9.84238
御	-9.84265
次從	-9.84282
交	-9.84351
有十	-9.84381
是義云何	-9.8441
明無	-9.84587
梵志	-9.84638
若有菩薩	-9.84639
正念	-9.84715
施主	-9.84768
七種	-9.84915
無病	-9.84943
何須	-9.84998
無非	-9.85067
發菩提心	-9.85101
佛性亦爾	-9.85186
說無	-9.8522
猶是	-9.85266
半偈	-9.85305
摧	-9.85593
初一	-9.85603
嗔	-9.85625
乏	-9.85633
為涅槃	-9.8571
虗妄	-9.85748
以釋	-9.85826
惡法	-9.85967
智斷	-9.86099
一諦	-9.86153
般若波羅蜜	-9.86219
往昔	-9.86283
太	-9.86286
運	-9.86293
上上	-9.86313
前四	-9.86328
非眾生	-9.86329
前中	-9.86531
得失	-9.86703
番	-9.86782
次合	-9.86788
生貪	-9.86914
受身	-9.86918
委	-9.86944
笑	-9.86946
我於爾時	-9.87052
呵責	-9.87054
將欲	-9.87068
是色	-9.87115
釋中	-9.87125
▁五	-9.87232
三義	-9.87375
無果	-9.87447
之道	-9.87484
箭	-9.87584
初云	-9.87646
無住	-9.87666
於諸眾生	-9.87671
一切眾生悉有佛性	-9.87676
講	-9.87693
彈	-9.87721
覺知	-9.87738
帶	-9.87747
所依	-9.87837
名義	-9.87848
恒河沙	-9.87856
驚	-9.87871
釋義	-9.87965
後結	-9.87967
即以	-9.88103
智人	-9.88103
正釋	-9.88151
一闡提輩	-9.88198
取著	-9.8827
為人	-9.8827
不自	-9.88297
底	-9.88318
令彼	-9.88368
居士	-9.88389
下正	-9.88424
一子	-9.88435
唯佛	-9.88439
事理	-9.88462
我是	-9.88484
三十二相	-9.88488
不至	-9.88526
誓	-9.88649
。】	-9.88709
遷	-9.88783
一行	-9.88811
巳上	-9.88907
十善	-9.88959
灰	-9.8899
正遍知	-9.89038
但云	-9.89272
不犯	-9.89346
涅槃經	-9.89364
故能	-9.89397
煖	-9.89404
默	-9.89457
百千	-9.89502
計我	-9.89524
未盡	-9.89544
無法	-9.89594
是大涅槃	-9.89636
中說	-9.89644
懈怠	-9.89665
壯	-9.89681
捉	-9.89699
步	-9.89726
幾	-9.89736
木叉	-9.89747
隔	-9.89751
為喻	-9.89855
住於	-9.89883
彰其	-9.89893
不及	-9.89942
凡有	-9.89988
舊解	-9.90081
誦	-9.9026
是故我	-9.90306
生故	-9.90329
眾苦	-9.90362
亦當	-9.90368
下示	-9.90382
賢聖	-9.90395
東方	-9.90534
所修	-9.90542
太子	-9.90566
則應	-9.90586
勢	-9.90666
必有	-9.90677
毒蛇	-9.90812
譏	-9.90856
眠	-9.91013
既不	-9.91023
琉璃	-9.91079
從此	-9.91085
前品	-9.91097
有異	-9.91098
堂	-9.91114
不能得	-9.91172
分真	-9.91221
觀於	-9.91413
解脫亦爾	-9.91437
此法	-9.91488
五塵	-9.91515
心生	-9.91517
復以	-9.91582
污	-9.91713
惠	-9.91723
真俗	-9.91783
為大	-9.9182
言我	-9.91829
免	-9.91864
名不	-9.91881
闍	-9.91882
登	-9.91932
義同	-9.92081
必定	-9.92154
無知	-9.92164
下別	-9.92373
尸	-9.92423
十界	-9.92531
右	-9.92538
佛道	-9.92542
而說偈言	-9.92578
涅槃是	-9.92616
心中	-9.92617
讓	-9.92629
微密	-9.92649
〔	-9.92663
食肉	-9.92664
實有	-9.92801
於如來	-9.92818
一實	-9.9282
代	-9.92868
恒河	-9.93036
問言	-9.93076
生天	-9.93208
民	-9.93215
泉	-9.93233
醎	-9.93241
大品	-9.9327
五道	-9.93359
眾生有	-9.93401
密語	-9.93433
一體三寶	-9.93438
去來	-9.93448
第二段中	-9.93511
兩句	-9.9358
第三明	-9.9362
阿那含	-9.93621
還是	-9.93657
今者	-9.93665
稟	-9.9372
是大	-9.93759
是法	-9.93766
儀	-9.93778
▁初釋	-9.93787
答中	-9.93948
乳中	-9.93965
野	-9.94017
源	-9.94025
所須	-9.94156
難得	-9.94291
耶答	-9.94307
大德	-9.94357
之善	-9.94371
無疑	-9.94431
見已	-9.94534
吐	-9.94655
五戒	-9.94676
此翻	-9.94694
防	-9.9472
秘藏	-9.94805
榮	-9.94871
二事	-9.94911
疏云	-9.94946
自生	-9.95054
之物	-9.95055
之後	-9.95202
尚不	-9.95212
二果	-9.95276
愚人	-9.95309
色心	-9.95324
生不生	-9.95331
亦名為	-9.95385
舌	-9.95419
信受	-9.95458
不聽	-9.95617
有此	-9.95659
夫人	-9.95686
淺深	-9.95694
知是	-9.95793
諍論	-9.95797
諦聽	-9.95894
落	-9.96011
不來	-9.96086
五時	-9.96087
沈	-9.96109
惜	-9.96136
善心	-9.96216
涉	-9.96239
特	-9.96259
羯磨	-9.96259
常故	-9.9627
契經	-9.96296
有時	-9.96349
不覺	-9.96442
生信	-9.9645
謂之	-9.96456
豈得	-9.96458
互相	-9.96684
恚	-9.96758
而來	-9.96822
呪術	-9.96881
載	-9.96921
見諦	-9.96953
狗	-9.96999
若約	-9.97038
未曾	-9.97056
演	-9.97092
有四種	-9.97095
作佛	-9.97102
之德	-9.9712
權實	-9.97199
神力	-9.97243
果性	-9.97338
於一	-9.97473
可斷	-9.9752
雖知	-9.9752
答問	-9.97684
虫	-9.97761
久住	-9.97833
了了	-9.97833
眾中	-9.97846
下對	-9.97895
以無	-9.97912
五逆	-9.97925
如我	-9.97963
我亦如是	-9.98096
佛教	-9.98096
道理	-9.98096
本性	-9.98132
四念處	-9.98246
布	-9.9826
從緣	-9.98332
炷	-9.98368
無所畏	-9.98396
慧眼	-9.98406
下正釋	-9.98426
槃	-9.98453
漸漸	-9.98504
端正	-9.98621
等是	-9.98624
殺害	-9.98628
不變	-9.98697
中無	-9.98783
三點	-9.9881
番問答	-9.98823
今教	-9.98855
云何當	-9.98904
處處	-9.9893
質	-9.98952
方名	-9.98979
禁	-9.99022
昔說	-9.99081
若聞	-9.99124
得名為	-9.99162
觀師	-9.99174
上文	-9.99179
故稱	-9.99202
中先	-9.99212
春	-9.99218
浮	-9.99278
財物	-9.99284
我時	-9.99338
自利	-9.99394
無想	-9.99399
應是	-9.99403
墮地獄	-9.99417
須彌	-9.99421
煞	-9.99431
下答	-9.99469
令我	-9.99472
見有	-9.99547
不思	-9.99614
惡道	-9.99666
群	-9.9968
稱為	-9.99738
一名	-9.99757
不用	-9.99775
道諦	-9.99812
船	-9.99821
故使	-9.99872
伊	-9.99903
玅	-9.99907
如來說	-9.99914
賣	-9.99921
戰	-9.99934
提婆達多	-9.99959
茲	-9.99964
極果	-9.99998
曇	-10.0001
病行	-10.0014
就前	-10.0015
私謂	-10.0016
在此	-10.0023
中有三	-10.0027
離於	-10.0027
同一	-10.0034
亦說	-10.0035
誹謗	-10.0037
不相	-10.0053
是故下結	-10.0056
作惡	-10.0059
一相	-10.0062
牒前	-10.0062
顧	-10.0066
所受	-10.0068
乾	-10.0072
穀	-10.0076
曉	-10.0078
於生死	-10.008
到彼岸	-10.008
愧	-10.008
附	-10.0081
放光	-10.0087
初番	-10.0087
無智	-10.0091
等覺	-10.0095
臥具	-10.0095
出生	-10.0096
檀波羅蜜	-10.0117
釋言	-10.0119
最上	-10.0131
妄語	-10.0141
先問	-10.0141
瑞	-10.0142
知識	-10.0145
鈍根	-10.0157
不別	-10.0158
皆得	-10.016
何謂	-10.0165
是有為	-10.0168
聞不聞	-10.0173
不到	-10.0176
能問	-10.0177
有苦	-10.0184
止觀	-10.0189
初段	-10.0191
我即	-10.0195
唯願如來	-10.0197
我若	-10.0204
婬	-10.0206
無閡	-10.0207
略說	-10.0207
敷	-10.0213
誑	-10.0217
作是念	-10.0219
飛	-10.0227
次列	-10.0229
汙	-10.0232
善修	-10.0233
戒定慧	-10.0233
古人	-10.0241
如來性	-10.0241
抑	-10.0242
其文	-10.0243
小兒	-10.0245
所計	-10.0245
有八	-10.0248
世王	-10.0252
三觀	-10.0261
亦復不	-10.0271
有兩	-10.028
初先	-10.0287
相也	-10.029
三毒	-10.029
苦者	-10.0292
樹木	-10.0293
謂佛	-10.0295
見道	-10.0296
九十	-10.0298
而非	-10.0301
則知	-10.0302
即真解脫	-10.0304
如法	-10.0307
積聚	-10.0311
竭	-10.0313
不如	-10.0313
藉	-10.0314
測	-10.0319
謙	-10.0323
且約	-10.0324
▁初標	-10.0324
諸菩薩等	-10.0325
此四	-10.0327
雙照	-10.0328
波羅蜜	-10.0333
唯除	-10.0333
其相	-10.0336
續	-10.034
一問	-10.0346
明有	-10.0356
般泥洹	-10.036
有得	-10.0373
能說	-10.0376
有因	-10.0381
受用	-10.0381
打	-10.0384
罵	-10.0387
割	-10.0388
無淨	-10.0389
寒	-10.039
祕密藏	-10.039
迦葉復言	-10.0395
室	-10.0396
多少	-10.0403
欲明	-10.0405
修學	-10.0408
見色	-10.0409
是非	-10.0409
戒律	-10.0414
何等名為	-10.0421
答上	-10.0422
法寶	-10.0423
七人	-10.0432
滅者	-10.0442
嬰兒行	-10.0449
善解	-10.0453
聞佛	-10.0454
作是言	-10.046
咎	-10.0462
王舍城	-10.0462
若定	-10.0464
其體	-10.0466
所持	-10.0468
▁初約	-10.0471
憑	-10.0472
廢	-10.0474
八萬四千	-10.0475
機緣	-10.048
四心	-10.0486
已得	-10.0487
度脫	-10.0487
知見覺	-10.0495
初依	-10.0496
猶未	-10.0505
樂者	-10.0511
不生生	-10.0511
▁初正	-10.0513
則名	-10.0523
約就	-10.0526
王言	-10.0539
十二部	-10.0541
.	-10.0543
栴檀	-10.0545
涅槃之	-10.0547
鼓	-10.0548
塔	-10.0555
〕	-10.0567
聚落	-10.0567
慮	-10.0569
河西云	-10.0571
正覺	-10.0574
少見	-10.0598
可以	-10.0601
五果	-10.0602
得脫	-10.0602
▁二譬	-10.0607
五十	-10.0607
即為	-10.0616
初後	-10.0618
彼佛	-10.0622
停	-10.0625
為正	-10.0625
惟	-10.0626
羊	-10.0629
侍	-10.0638
濫	-10.0642
疑網	-10.0642
寺	-10.065
眾僧	-10.0651
二約	-10.0652
斷見	-10.0654
見聞	-10.0656
集諦	-10.0657
即空	-10.066
解義	-10.0661
汝當	-10.0661
如來所	-10.0675
九地	-10.0677
依法	-10.0677
難可	-10.0679
良	-10.0682
斷一切	-10.0682
就初	-10.0683
廣大	-10.069
喻佛	-10.069
不許	-10.069
定無	-10.0696
該	-10.0708
陀羅尼	-10.0714
剎利	-10.0715
之力	-10.0717
下隨文釋義	-10.0723
分段	-10.0723
非但	-10.0728
緣生	-10.0734
勢力	-10.0738
實是	-10.0741
禁戒	-10.0748
是義	-10.0749
煗	-10.0751
依正	-10.0751
斷結	-10.0758
羅睺羅	-10.077
修慧	-10.0771
得入	-10.0773
如來之身	-10.078
定執	-10.0782
須陀洹人	-10.0782
索	-10.0795
無色界	-10.0795
中有二	-10.0795
轉輪聖王	-10.0797
愛念	-10.0806
建	-10.0808
佛以	-10.0809
知法	-10.0812
愁	-10.0818
逼	-10.0819
今說	-10.0821
破其	-10.0825
境智	-10.0841
不答	-10.0841
勤修	-10.0846
亦同	-10.0851
二十五	-10.0855
既是	-10.086
非涅槃	-10.0866
犯四重禁	-10.0872
同體	-10.0874
輩	-10.0876
無窮	-10.0877
與前	-10.0877
不現	-10.0877
畫	-10.0881
時有	-10.0882
甜	-10.0883
對前	-10.0887
令他	-10.0888
欲得	-10.0889
下破	-10.0891
下佛答之	-10.0892
園	-10.0892
異解	-10.0893
願諸眾生	-10.0897
心數	-10.0899
了知	-10.0899
發起	-10.0907
不令	-10.0908
界外	-10.0917
善不善	-10.092
如來常	-10.092
隨其	-10.0931
與彼	-10.0931
心故	-10.0933
二俱	-10.0941
方得	-10.0946
若從	-10.0949
地動	-10.095
略舉	-10.0957
人法	-10.096
作譬	-10.0964
豎	-10.0967
急	-10.0968
菓	-10.0968
睡眠	-10.0968
博	-10.097
復說	-10.0971
連	-10.0971
清涼	-10.0972
住世	-10.0972
漿	-10.0974
解說	-10.0981
戲論	-10.0981
如來為	-10.0982
行也	-10.0983
下文云	-10.0984
手足	-10.0984
有為法	-10.0985
金剛三昧	-10.0988
能令眾生	-10.0991
乳酪	-10.0992
若說	-10.0995
成道	-10.0995
岸	-10.1001
別釋	-10.1009
結成	-10.1012
今謂	-10.1013
總別	-10.1014
餘人	-10.102
明佛性	-10.1024
與佛	-10.1026
有生	-10.103
是菩薩	-10.1037
不具足	-10.104
常修	-10.1041
即前	-10.1044
生起	-10.1045
然後乃	-10.105
芽	-10.1051
獼猴	-10.1053
客	-10.1057
卑	-10.106
越	-10.1063
三十二	-10.1072
善友	-10.1072
名為佛性	-10.1076
未見	-10.1085
不敢	-10.1086
常也	-10.1094
別相	-10.1094
獻供	-10.1101
因是	-10.1102
疑心	-10.1105
得度	-10.1112
說我	-10.1116
地前	-10.1119
左右	-10.1122
目連	-10.1133
當來	-10.1133
如來身	-10.1134
飢渴	-10.1137
杖	-10.1137
是故我說	-10.1137
相貌	-10.1139
帖	-10.1145
徹	-10.1146
無間	-10.1146
師云	-10.1166
解者	-10.1178
初總	-10.1182
又言	-10.1194
雖見	-10.1203
十七	-10.1211
因性	-10.1215
五難	-10.1218
棺	-10.1219
猶有	-10.122
蓮花	-10.1223
三千	-10.1224
流轉	-10.1225
療治	-10.1225
追	-10.1229
空寂	-10.1229
靈	-10.123
一切諸佛	-10.1231
稍	-10.1232
烏	-10.1232
既有	-10.1234
僧寶	-10.1236
鬼神	-10.1237
放捨	-10.1241
慶	-10.1248
不堪	-10.1251
隨機	-10.1253
非三世	-10.1263
真常	-10.1276
眼識	-10.1289
修集	-10.129
豈有	-10.1291
悉得	-10.1293
無得	-10.131
作是說	-10.1316
體性	-10.1319
其意	-10.1319
為五	-10.1323
化眾生	-10.1326
非道	-10.1338
六者	-10.1339
阿闍世王	-10.134
之文	-10.1341
不觀	-10.1363
後三	-10.1366
能觀	-10.1367
通名	-10.1374
受持讀誦	-10.1374
暴	-10.1376
今家	-10.1377
一品	-10.1378
念佛	-10.1382
成論	-10.1385
至於	-10.1388
詞	-10.14
渴	-10.1401
鹹	-10.1402
男子	-10.1403
納	-10.1404
束	-10.1405
預	-10.1406
毛孔	-10.1406
大人	-10.1409
圓融	-10.1415
常見	-10.1416
不足	-10.1416
則不能	-10.1418
天王	-10.1418
天魔	-10.142
後之	-10.143
意業	-10.1443
立名	-10.1445
異者	-10.1449
三十	-10.1452
啼哭	-10.1462
諸天人	-10.1469
大智	-10.1478
二因	-10.1484
實法	-10.1484
下引	-10.1484
佛菩薩	-10.1485
乾闥婆	-10.1489
天中天	-10.1493
莖	-10.1496
三惡	-10.1497
以喻	-10.1501
財寶	-10.1504
三障	-10.1504
寶珠	-10.1506
名須陀洹	-10.1514
左	-10.1522
身命	-10.1522
萬行	-10.1523
說者	-10.153
世俗	-10.1539
故如經	-10.155
合上	-10.1553
非真	-10.1554
未至	-10.1572
再	-10.1577
撿	-10.1579
金銀	-10.1585
君	-10.1586
八聖道	-10.1588
大乘經典	-10.1604
若非	-10.1609
初心	-10.1612
果故	-10.1614
不論	-10.1615
而此	-10.162
我昔	-10.162
從初	-10.1622
缺	-10.1625
淨土	-10.1631
共行	-10.1637
之業	-10.1651
哉	-10.1651
【	-10.1651
名也	-10.1653
今有	-10.1665
非因非果	-10.1669
戒者	-10.167
應作	-10.1671
忽	-10.1674
善逝	-10.1675
鼻	-10.1679
歎經	-10.1679
六行	-10.168
梨	-10.1683
如來所說	-10.1685
於法	-10.1697
聞者	-10.1698
其子	-10.1702
流布	-10.1704
今當	-10.1706
禮拜	-10.1717
他方	-10.1718
色相	-10.1719
出世間	-10.172
獸	-10.1725
於中初先	-10.1732
成前	-10.1735
故屬	-10.1746
初釋	-10.175
空無	-10.175
入地獄	-10.1756
不入	-10.1759
次舉	-10.1759
飢	-10.1765
此意	-10.1766
合掌	-10.1772
巳得	-10.1772
隨順世間	-10.1777
還生	-10.178
或復	-10.1785
不生不滅	-10.1796
偏說	-10.1796
隱顯	-10.1812
分明	-10.1818
詐	-10.1848
喻如	-10.1856
本有今無	-10.1856
犢子	-10.1857
不次第	-10.1857
秋	-10.1859
人所	-10.1859
微細	-10.1867
精勤	-10.187
合為	-10.1871
想者	-10.1875
難意	-10.1884
圓常	-10.1892
色者	-10.1893
滅後	-10.1897
不死	-10.1901
初標	-10.1901
觀智	-10.1912
我已	-10.1913
犯戒	-10.1915
仁者	-10.1917
為義	-10.192
『	-10.1921
頌	-10.1921
妙藥	-10.1922
知其	-10.1927
口業	-10.1929
後四	-10.1933
因緣者	-10.1934
滿月	-10.1938
諸凡夫	-10.1941
果果	-10.1953
非苦	-10.1953
諸結	-10.1954
魔波旬	-10.1954
問中	-10.1958
揚	-10.1963
妙覺	-10.1966
空也	-10.198
點	-10.1987
聲聞弟子	-10.1994
先釋	-10.1995
為勝	-10.1996
譬喻	-10.2001
移	-10.2003
獻	-10.2009
之想	-10.2013
言有	-10.2016
有七	-10.2018
觀身	-10.2026
有何	-10.2027
菩提心	-10.2032
之色	-10.2035
良以	-10.204
性故	-10.2044
結前	-10.205
下以	-10.2053
醫藥	-10.2053
孔	-10.2053
為常	-10.2055
疎	-10.2056
天竺	-10.2058
老死	-10.2061
體用	-10.2063
常義	-10.2072
若佛	-10.2074
佛是	-10.2081
快樂	-10.2084
法要	-10.2085
六塵	-10.2089
得住	-10.2089
上下	-10.2099
法體	-10.2109
一義	-10.2111
諸苦	-10.2113
常身	-10.2118
說偈	-10.2119
初舉	-10.2121
異故	-10.2125
橫計	-10.2134
研	-10.214
當果	-10.2141
聞是	-10.2141
相故	-10.2142
讀	-10.2142
懺	-10.2147
墜	-10.2153
第三段中	-10.2154
長養	-10.2154
滅故	-10.2155
先牒	-10.2156
問者	-10.216
除滅	-10.2161
此方	-10.2161
見思	-10.2179
此事	-10.2181
一事	-10.2181
上妙	-10.2183
不退轉	-10.2186
例如	-10.2187
非內非外	-10.2189
正難	-10.2196
以之為	-10.2209
得罪	-10.2217
一就	-10.2219
亦為	-10.2219
異也	-10.222
聞說	-10.2221
三問	-10.2224
於常	-10.2226
餘三	-10.2231
狹	-10.2234
此理	-10.2234
是真	-10.2235
共相	-10.2235
本來	-10.2235
云何菩薩摩訶薩	-10.224
驅	-10.224
章安	-10.224
前明	-10.2242
我以	-10.2264
相成	-10.2272
不絕	-10.2281
當為	-10.2284
依經	-10.2287
重罪	-10.2304
後釋	-10.2306
之問	-10.2315
而巳	-10.2316
陳如	-10.2319
迦葉菩薩復白佛言	-10.2319
業果	-10.2321
所明	-10.2322
勸問	-10.2323
以理	-10.2324
有智之人	-10.2324
初言	-10.2325
能持	-10.2329
如來常住	-10.2332
行苦	-10.2335
汝今不應	-10.2339
先問次答	-10.2341
利鈍	-10.2342
心性	-10.2343
一字	-10.2353
相生	-10.2355
神足	-10.2357
次別	-10.2359
百年	-10.237
但以	-10.237
無常等	-10.2371
是第二	-10.2378
分證	-10.2386
樹下	-10.2389
是無為	-10.2397
梵王	-10.2398
六句	-10.2401
濕	-10.2405
迦葉言	-10.2409
雙樹	-10.2425
奴婢	-10.2426
此土	-10.243
刺	-10.2431
有樂	-10.2433
卒	-10.2434
四魔	-10.2435
不悔	-10.2442
故不可	-10.2443
而起	-10.2446
貫	-10.2446
】	-10.2448
為苦	-10.2451
先喻後合	-10.2451
波羅	-10.2452
若知	-10.2457
十德	-10.2459
名涅槃	-10.2462
一邊	-10.2463
雙結	-10.2471
正觀	-10.2473
意在	-10.2474
三教	-10.2476
還得	-10.2483
若言如來	-10.249
趣向	-10.249
滿字	-10.2494
慳	-10.2495
此名	-10.2498
以大	-10.25
意謂	-10.25
或有說言	-10.2514
令汝	-10.252
幡蓋	-10.2526
詳	-10.2526
炎	-10.2527
賤	-10.2528
不墮	-10.2529
薪	-10.2531
滯	-10.2532
愁惱	-10.2534
不畏	-10.2534
初又二	-10.2534
孝	-10.2538
令諸眾生	-10.2538
▁釋	-10.2539
慧命	-10.2539
遲	-10.2541
已下明	-10.2552
界內	-10.2554
性空	-10.2555
樂受	-10.2555
應以	-10.2563
文略	-10.2572
苦因	-10.2574
唯一	-10.2578
非一切	-10.2583
具足成就	-10.2589
種性	-10.2598
引證	-10.2599
於前	-10.26
聞巳	-10.2601
定相	-10.2604
無垢	-10.2606
我無我	-10.2607
作因	-10.261
首楞嚴	-10.2614
問佛	-10.2615
不必	-10.2617
非時	-10.2619
明菩薩	-10.2621
稽首佛足	-10.2622
降魔	-10.2623
十法	-10.2623
單疏	-10.2624
常等	-10.2626
殘	-10.2626
不生不生	-10.2627
其有	-10.2629
熏	-10.2631
吼	-10.2633
苦果	-10.2637
現報	-10.2638
為最	-10.2639
是空	-10.2644
故此	-10.2658
言說	-10.266
謗法	-10.2665
列名	-10.2665
隨緣	-10.2671
種智	-10.2676
▁二問	-10.2677
威	-10.2679
減	-10.2681
有果	-10.2691
皆云	-10.2693
體是	-10.2701
三惡道	-10.2703
二禪	-10.2707
大河	-10.271
謂是	-10.271
若作	-10.271
門中	-10.2712
能所	-10.2713
乃能	-10.2713
字義	-10.2716
下明其	-10.2716
有本	-10.2724
水中	-10.2727
四十	-10.2727
碎	-10.2729
妻子	-10.2729
頗	-10.2734
調御	-10.2734
擬	-10.2739
先尼	-10.2739
局	-10.2739
斷疑	-10.2741
之類	-10.2742
為上	-10.2744
乞食	-10.2746
聞經	-10.2752
六法	-10.2752
道場	-10.2754
定說	-10.2758
我弟子	-10.2772
作此	-10.2773
諸漏	-10.2776
三解	-10.2777
譬也	-10.2782
菩薩爾時	-10.2783
無著	-10.2784
斯陀含	-10.2789
下重	-10.2793
即無	-10.2793
四住	-10.2797
得大涅槃	-10.2797
但為	-10.2805
圓滿	-10.2811
令眾生	-10.2811
外人	-10.2816
無上道	-10.2817
周遍	-10.282
活	-10.2821
增上	-10.2823
蘭	-10.2827
誤	-10.2827
蟲	-10.2833
塞	-10.2835
復為	-10.2841
皆以	-10.2842
根性	-10.2842
補註	-10.2843
性是	-10.2846
冠	-10.2846
陵	-10.2847
隨逐	-10.2848
常在	-10.285
八正道	-10.2855
諸佛境界	-10.2855
不殺	-10.2859
或作	-10.286
珍寶	-10.2864
初譬	-10.2866
』	-10.2873
皆名	-10.2875
常果	-10.2881
初如文	-10.2888
稱歎	-10.2895
化生	-10.2897
釋也	-10.29
下地	-10.2901
十九	-10.2905
所聞	-10.2906
魔說	-10.291
上說	-10.2919
剎	-10.2926
論之	-10.2927
▁初科分	-10.2928
即是如來	-10.2928
法王	-10.2929
生煩惱	-10.2931
開善云	-10.2931
我聞	-10.2932
為眾	-10.2933
羸	-10.2937
領旨	-10.2939
悉有	-10.2941
敗	-10.2941
婦	-10.2943
總以標舉	-10.2945
抱	-10.2947
愛樂	-10.2948
句別有	-10.295
里	-10.2953
誓願	-10.2966
而作是言	-10.2967
非外	-10.297
不假	-10.2972
說之為	-10.2977
色陰	-10.2985
八倒	-10.2986
名大	-10.2991
滅已	-10.2991
利養	-10.3005
難解	-10.3009
眾德	-10.301
滅也	-10.302
覺觀	-10.302
之過	-10.3023
行法	-10.3031
後身	-10.3031
得解	-10.3031
統	-10.3035
正破	-10.304
仙人	-10.3041
所起	-10.3041
恒沙	-10.3042
下辯	-10.3042
孤	-10.3043
屈	-10.3043
證成	-10.3048
說也	-10.3048
歌	-10.3048
異說	-10.305
惠施	-10.3052
:「『	-10.3056
清淨梵行	-10.306
翻為	-10.306
眾人	-10.3061
有退	-10.3063
顯之	-10.3071
真法	-10.3072
以有	-10.3075
所解	-10.3077
七善	-10.3095
性者	-10.3108
外國	-10.311
及餘	-10.311
同前	-10.3111
皆由	-10.3124
在後	-10.3127
!」	-10.3133
ā	-10.3137
不能自	-10.3139
祕	-10.314
憶念	-10.3142
不解我意	-10.3143
金剛身	-10.3154
初約	-10.3154
十五日	-10.3156
顯前	-10.3158
苦哉	-10.316
不破	-10.316
句也	-10.3168
總明	-10.3168
須陀	-10.3168
唯在	-10.3174
北方	-10.3175
涅槃亦爾	-10.3176
己身	-10.3191
餘處	-10.3194
復名	-10.3198
無煩惱	-10.32
釋經	-10.3201
四天王	-10.3202
不能知	-10.3207
私	-10.3215
常存	-10.3215
佛弟子	-10.3216
用也	-10.322
五人	-10.3222
即時	-10.3223
菩薩摩訶薩亦復如是	-10.3224
經典	-10.3235
展轉	-10.3244
三十三天	-10.325
今解	-10.3251
遺教	-10.3253
漂	-10.3254
吸	-10.3257
雖說	-10.3258
來者	-10.3259
略不	-10.3261
汝所	-10.3261
唯是	-10.3262
二別釋	-10.3262
錄	-10.3266
互無	-10.3268
途	-10.3274
業因緣	-10.3278
文也	-10.3279
是大乘	-10.3282
有因緣故	-10.3285
皆具	-10.3288
之旨	-10.3289
聞之	-10.3292
倒想	-10.3302
次辨	-10.3304
消滅	-10.3307
不達	-10.3319
聖諦	-10.3321
下即	-10.3323
幢	-10.333
得知	-10.3331
先說	-10.3332
佛眼	-10.3334
白佛	-10.3338
見一切法	-10.334
下顯	-10.3343
上來第一	-10.3347
回	-10.3349
而行	-10.335
糞	-10.336
無上士	-10.336
麻	-10.3361
忍辱	-10.3361
務	-10.3365
延	-10.3366
天下	-10.3366
譬中	-10.3366
大論	-10.3367
為樂	-10.3368
商主	-10.3372
破煩惱	-10.3374
天人師	-10.338
佛語	-10.3382
從因	-10.3393
自下	-10.3396
聖王	-10.3398
斷滅	-10.3398
等四	-10.3399
何能	-10.3404
意同	-10.3408
有其	-10.3408
四趣	-10.3412
而見	-10.3413
又如	-10.3423
理也	-10.3423
於眾生	-10.3424
廣辨	-10.3436
世間解	-10.3437
後合	-10.3443
之益	-10.3445
度者	-10.3457
五章	-10.3466
辛	-10.3471
偈中	-10.3475
又四	-10.3475
三惑	-10.3476
理性	-10.3477
因緣生	-10.3477
菩提之心	-10.3479
必當	-10.3481
船師	-10.3486
四無量心	-10.3495
未知	-10.3496
相待	-10.3497
佛世尊	-10.35
四分	-10.3502
為證	-10.351
謂如來	-10.3516
復問	-10.3518
凡夫之人	-10.352
是道	-10.3525
非謂	-10.353
了義	-10.3531
眾多	-10.3533
第四句	-10.3533
性淨	-10.3535
三禪	-10.354
我實	-10.3541
俱是	-10.3544
入道	-10.3546
疏文	-10.3546
阿闍世	-10.3548
別圓	-10.355
有煩惱	-10.3551
近因	-10.3551
六事	-10.3556
作大	-10.3566
寤	-10.3569
a	-10.3569
有常	-10.357
色法	-10.3574
下佛	-10.3577
柔軟	-10.3577
習氣	-10.358
而白佛言	-10.3582
正說	-10.3582
總標	-10.3583
赴	-10.3584
胡	-10.3585
充滿	-10.3586
催	-10.3586
出入	-10.3597
永滅	-10.3598
西方	-10.3599
八苦	-10.3601
如羅睺羅	-10.3602
例爾	-10.3603
譬之	-10.3604
則成	-10.3617
是業	-10.3618
修因	-10.3619
得成	-10.362
一處	-10.3622
▁初法	-10.3623
中初言	-10.3631
妄想	-10.3636
得生	-10.3643
先有	-10.3643
現世	-10.3647
所由	-10.3654
之慈	-10.3655
悅可	-10.3661
至心	-10.3665
心則	-10.3675
難見	-10.3681
真如	-10.3681
亦空	-10.3681
嫉妬	-10.3682
大慈大悲	-10.3683
如汝所說	-10.3684
因中說果	-10.3686
之難	-10.3686
皆為	-10.3687
我諸弟子聞是說已	-10.3688
若離	-10.3689
一分	-10.3691
修定	-10.3692
一切悉	-10.3692
豆	-10.3693
焰	-10.3695
發露	-10.3698
香花	-10.3698
氏	-10.3698
狀	-10.3698
託	-10.37
睡	-10.3701
死者	-10.3704
龜	-10.3704
此解	-10.3716
經說	-10.3717
八萬	-10.3721
法藏	-10.3723
次說	-10.3725
魔王	-10.3735
下次	-10.374
已有	-10.3741
具有	-10.3744
三十六	-10.3744
五味	-10.3748
今欲	-10.3749
貪心	-10.3752
非內	-10.3754
煖法	-10.3762
變化	-10.3763
未來世	-10.3765
彼此	-10.3774
惡知識	-10.3776
萬善	-10.3777
其事	-10.3778
乃得	-10.3779
念念滅	-10.378
後世	-10.3783
五句	-10.3785
執著	-10.3787
此問	-10.3787
荊溪	-10.3791
若就	-10.3791
從緣生	-10.3793
諦聽諦聽	-10.3799
行道	-10.3799
憐	-10.38
無常故	-10.3803
尺	-10.3805
▁六	-10.3807
壞苦	-10.3808
次譬	-10.3808
固	-10.3809
復當	-10.3815
生相	-10.3818
故說為	-10.3822
障礙	-10.3822
彼土	-10.3829
空故	-10.3834
悉令	-10.3844
無常想	-10.3849
即能	-10.3853
諸善	-10.3857
對上	-10.3857
約理	-10.386
有二義	-10.3862
觀心	-10.3863
既非	-10.3864
翻前	-10.3869
若於	-10.3877
受化	-10.3884
悉無	-10.3889
即是涅槃	-10.3896
證得	-10.3899
。』「『	-10.3904
他解	-10.3904
離欲	-10.3907
僧祇	-10.3907
奉行	-10.391
三相	-10.391
析	-10.391
前問	-10.3912
繩	-10.3912
晝	-10.3915
勞	-10.3916
煩	-10.3919
銀	-10.392
經中說	-10.3923
釋論	-10.3923
即成	-10.3924
暗	-10.3926
毘曇	-10.3929
彼人	-10.3931
迴向	-10.3934
如汝所言	-10.3942
二死	-10.3943
至此	-10.3944
為果	-10.3944
故經云	-10.3944
起惑	-10.3945
以破	-10.3951
三因	-10.3952
五法	-10.3952
生後	-10.3953
二問	-10.3956
無苦	-10.3961
皆謂	-10.3967
十六行	-10.3968
遍滿	-10.3971
七者	-10.3977
有佛	-10.3983
限	-10.3988
得阿羅漢果	-10.3994
佛告阿難	-10.3996
現前	-10.3998
則便	-10.4007
無上菩提	-10.4008
造業	-10.4013
未發心	-10.4013
明如來	-10.402
前云	-10.4024
兔角	-10.4027
宮殿	-10.4027
須䟦	-10.4028
缾	-10.403
今約	-10.4032
起惡	-10.4033
於世	-10.4034
婆伽婆	-10.4035
淚	-10.4035
官	-10.4037
攝取	-10.4037
賴	-10.4037
生死涅槃	-10.4038
明駿	-10.4039
生子	-10.4041
異相	-10.4041
今無	-10.4043
一期	-10.4043
至心聽	-10.4044
佛土	-10.4045
知時	-10.4054
豈是	-10.4054
為八	-10.4056
須彌山	-10.4073
合中	-10.4074
開合	-10.4077
護正法	-10.4078
就初段中	-10.4079
大力	-10.409
答之	-10.4091
事者	-10.4093
修空	-10.4096
更有	-10.41
都不	-10.4101
三修	-10.4101
妙有	-10.4103
定者	-10.4108
無常者	-10.412
邪法	-10.4123
一劫	-10.4124
說於	-10.4125
諸聲聞	-10.4129
所求	-10.4129
生解	-10.413
有益	-10.4131
四陰	-10.4132
波旬	-10.4137
云何如來	-10.4137
文義	-10.4137
一舉	-10.4139
多諸	-10.414
而去	-10.414
啼	-10.414
中初明	-10.4141
震	-10.4146
澤	-10.4147
昏	-10.4149
滅罪	-10.415
來至	-10.4152
正問	-10.4153
無過	-10.4154
諸大眾	-10.4154
長短	-10.4156
隣	-10.4156
鄙	-10.4156
八地	-10.4159
腹	-10.4159
悉名	-10.4164
拘尸城	-10.4165
一切種智	-10.4165
我之	-10.4165
難陀	-10.4167
俱無	-10.4167
癡人	-10.4169
善見	-10.417
施與	-10.4172
復更	-10.4172
白衣	-10.4176
入般涅槃	-10.418
為佛	-10.4183
當觀	-10.4183
高下	-10.4184
凡所	-10.4186
無貪	-10.419
萬法	-10.4191
答前	-10.4193
有情	-10.4204
文別有	-10.4205
自相	-10.4208
可畏	-10.423
貧人	-10.423
敢	-10.4231
佛智	-10.4236
因此	-10.4238
法空	-10.4239
是故菩薩	-10.4243
如來涅槃	-10.4245
補	-10.4246
給	-10.4254
迦葉白佛下	-10.4259
欣	-10.4262
酢	-10.4265
齒	-10.4267
得益	-10.4274
初二	-10.4275
不入涅槃	-10.4275
中初先	-10.4275
重明	-10.4277
已還	-10.4279
生老病死	-10.4282
但言	-10.4287
支佛	-10.4288
我能	-10.4289
時眾	-10.4291
犯四重	-10.4294
非為	-10.4294
安置	-10.4294
因於	-10.4296
深觀	-10.4298
昔所	-10.4308
無量功德	-10.4316
多羅	-10.4318
涅槃也	-10.4323
一切有	-10.4327
無憂	-10.4328
諸見	-10.4345
語者	-10.4348
十惡	-10.4349
有病	-10.435
陀羅	-10.4351
等三	-10.4351
上品	-10.4351
能解	-10.4357
功用	-10.4357
為作	-10.4358
與樂	-10.436
非生	-10.4362
廣辯	-10.4363
▁【	-10.4372
信者	-10.4374
破邪	-10.4375
佛寶	-10.4377
曠野	-10.4378
自體	-10.4384
伎樂	-10.4385
井	-10.4387
七地	-10.4389
則不得	-10.439
憂愁	-10.439
勝鬘	-10.4393
不遍	-10.4394
拂	-10.4395
中先舉	-10.4403
亦有亦無	-10.4407
自下第四	-10.4411
法僧	-10.4412
則生	-10.4414
略明	-10.4425
於中初	-10.4426
四義	-10.4429
方等經	-10.4439
只由	-10.444
未聞	-10.4443
□	-10.4445
如意	-10.4451
說無我	-10.4452
受畜	-10.4453
大法	-10.4461
依人	-10.4465
除斷	-10.4466
仁	-10.4467
得大	-10.4473
相好	-10.448
因故	-10.4484
險	-10.4489
五門	-10.4493
釋提桓因	-10.4496
調御丈夫	-10.4498
互融	-10.4499
惡果	-10.4501
既其	-10.4502
未必	-10.4502
有因緣	-10.4503
初生	-10.4506
得是	-10.4506
護持正法	-10.4506
或見	-10.4506
擁護	-10.4507
摩訶衍	-10.4508
吒	-10.4509
軟	-10.4509
即於	-10.4512
欲使	-10.4513
滅除	-10.4517
薰	-10.4518
觀方	-10.4524
三漏	-10.4525
三人	-10.4527
上半	-10.4532
上中下	-10.4537
愚智	-10.4538
次就	-10.4544
如說	-10.4544
初難	-10.4551
等正覺	-10.4552
若菩薩摩訶薩	-10.4559
就人	-10.456
為六	-10.4561
▁二初文下隨	-10.457
所可	-10.4572
為王	-10.4579
上界	-10.4581
即生	-10.4591
業緣	-10.4598
吹	-10.4598
舉其	-10.46
為道	-10.4604
六卷	-10.4613
次破	-10.4616
四無量	-10.4618
多人	-10.4619
往來	-10.462
檀越	-10.462
無身	-10.4621
見之	-10.4622
明行足	-10.4623
而實	-10.4624
少欲知足	-10.4626
夷	-10.4626
非人	-10.4627
充	-10.4628
閻浮	-10.4628
菩薩行	-10.4629
冬	-10.463
小大	-10.4631
唐	-10.4634
寬	-10.4636
文顯可知	-10.4637
別明	-10.4642
還復	-10.4645
宋	-10.4647
何等為	-10.4655
修戒	-10.4659
次觀	-10.4664
古來	-10.4664
無常也	-10.4666
若為	-10.4667
問意	-10.4672
明知	-10.4673
非三世攝	-10.4675
破惡	-10.4676
身業	-10.4676
猶如虛空	-10.4678
執持	-10.468
論曰	-10.4682
其數	-10.4684
諸王	-10.4687
所化	-10.4688
無人	-10.469
威神	-10.4691
不行	-10.4695
二就	-10.4698
有無量	-10.4699
更互	-10.4701
受安樂	-10.4702
如是等法	-10.4705
三釋	-10.4705
犯重	-10.4709
不相應	-10.4712
生處	-10.4724
偏執	-10.4726
可尋	-10.4726
有佛性者	-10.4732
三從	-10.4734
下總結	-10.4737
供給	-10.4743
發言	-10.4745
先合	-10.4745
八十種好	-10.4748
不定故	-10.4751
裏	-10.4751
心常	-10.4759
鉤鎖	-10.476
是諸眾生	-10.4761
侵	-10.4763
即非	-10.4763
無有變易	-10.4766
肇	-10.4767
者即是如來	-10.4769
律儀	-10.4774
不安	-10.4775
無自性	-10.4784
前中初言	-10.4785
云何而得	-10.4787
所斷	-10.4788
色無色	-10.4797
總相	-10.4798
法輪	-10.48
如虛空	-10.4824
為性	-10.4826
佛今	-10.4827
四明	-10.4828
即指	-10.4843
戒定	-10.4849
次結	-10.4867
稽首	-10.4871
受供	-10.4871
廣略	-10.4871
以是業緣	-10.4872
甘蔗	-10.4872
先譬次合	-10.4874
迦葉問	-10.4875
復次迦葉	-10.4876
之始	-10.4877
符	-10.4877
麥	-10.4878
厚	-10.4878
薩	-10.4878
原	-10.4881
柱	-10.4882
錢	-10.4886
出於	-10.4886
四番	-10.4886
旁	-10.4887
行處	-10.4889
秦	-10.4889
見空	-10.4893
此說	-10.4895
出假	-10.4903
興皇云	-10.4904
常沒	-10.4904
族姓子	-10.4906
如來之性	-10.4913
難知	-10.4914
不合	-10.4915
若有人	-10.4917
迦葉菩薩	-10.4922
是生死	-10.4924
之智	-10.4927
為說法	-10.4928
亦知	-10.4929
熱病	-10.4937
開示	-10.494
分別說	-10.4943
貪愛	-10.4949
如幻	-10.4951
性相	-10.4955
先王	-10.4957
亦無常	-10.4958
以譬	-10.4959
此初	-10.4961
住者	-10.4963
斷絕	-10.4965
世有	-10.4967
住前	-10.497
苦想	-10.4973
教法	-10.4975
▁二今	-10.498
憶	-10.4981
諸魔	-10.4982
同異	-10.4989
恨	-10.499
受戒	-10.4991
護持禁戒	-10.4995
拘尸那城	-10.4995
能發	-10.4998
名一闡提	-10.4999
族	-10.4999
晝夜	-10.5
之別	-10.5001
摧伏	-10.5001
勇	-10.5002
所攝	-10.5002
豐	-10.5005
猶故	-10.5011
若有善男子	-10.5018
通於	-10.5027
以是下結	-10.503
四天下	-10.5036
下苦	-10.5037
雖得	-10.5042
是諸外道	-10.5043
約教	-10.5043
是名下結	-10.5049
出其	-10.5056
有邊	-10.5057
有為無為	-10.5058
初答	-10.5059
始從	-10.5061
所召	-10.5063
釋云	-10.5063
為譬	-10.5073
轉輪王	-10.5073
無對	-10.5083
空處	-10.5087
威德	-10.5099
女身	-10.5099
不能見	-10.5101
種姓	-10.5106
實無有	-10.5107
為斷	-10.5109
殺生	-10.5113
不遇	-10.5118
之語	-10.5119
以偈	-10.5119
紙巳下	-10.512
其解脫者即是如來	-10.5122
優	-10.5123
正定	-10.5124
墮於地獄	-10.5126
敵	-10.5127
臭	-10.5128
一味	-10.5129
早	-10.5131
並是	-10.5131
却坐一面	-10.5131
紙	-10.5132
善星比丘	-10.5134
眾生佛性亦復如是	-10.5134
從佛	-10.5136
雖未	-10.5136
撰	-10.5137
常住不變	-10.5139
曠	-10.5139
幽	-10.514
順召	-10.514
心生歡喜	-10.5148
兼答	-10.5153
八法	-10.5153
所以不	-10.5155
半滿	-10.516
偏教	-10.5167
成實	-10.5167
實義	-10.5168
質直	-10.517
當知如來	-10.5175
火聚	-10.5178
救護	-10.5184
修治	-10.5185
不云	-10.5186
口密	-10.5194
大意	-10.5198
供具	-10.5202
佛地	-10.5204
覩見	-10.5206
眾生亦爾	-10.5208
有能	-10.5212
飾	-10.5213
應生	-10.5215
受記	-10.5226
第三句	-10.5228
數數	-10.523
如下	-10.5234
猛	-10.5236
佛滅後	-10.5236
一約	-10.5243
却住一面	-10.5244
說此	-10.5245
答曰	-10.5245
即是佛性	-10.5246
未曾有	-10.5246
弟	-10.5246
之境	-10.5258
誰能	-10.5259
軍	-10.5261
是故復名不可思議	-10.5263
坑	-10.5264
如來無常	-10.5265
三受	-10.5266
占	-10.5267
波羅提木叉	-10.5268
增減	-10.5269
文有	-10.5269
漢	-10.527
通論	-10.5275
中明	-10.5277
下今師	-10.5282
餘皆	-10.5285
大慈悲	-10.5302
雜食	-10.5307
正性	-10.531
三學	-10.5312
亦常	-10.5315
等皆	-10.532
釋上	-10.5332
有貪	-10.5332
真空	-10.5333
正他	-10.5334
善者	-10.5334
尊者	-10.5342
於一切法	-10.5346
現身	-10.5348
亦以	-10.5349
前之	-10.5354
無根	-10.5354
非空	-10.5359
有五種	-10.5361
釋名	-10.5361
施者	-10.5367
等法	-10.5367
小異	-10.5373
一闡提等	-10.5374
上座	-10.5375
斫	-10.5384
說是	-10.5384
是故說	-10.5384
議	-10.5386
嫌	-10.5387
閑	-10.5388
故云無	-10.5389
於閻浮提	-10.539
毒箭	-10.5393
闡	-10.5394
卷第十	-10.5398
奢	-10.5406
崩	-10.5406
是煩惱	-10.5408
舊醫	-10.541
梨車	-10.541
取其	-10.5415
我我所	-10.5416
如來何故	-10.5418
下辨	-10.5419
為有	-10.5424
南方	-10.5428
兩問	-10.5432
前五	-10.5432
九品	-10.5434
忉利天	-10.5437
為彼	-10.5439
而自	-10.5441
此偈	-10.5445
者即經云	-10.5449
我諸弟子	-10.545
成佛道	-10.5455
遍一切處	-10.5458
徵問	-10.5458
新伊	-10.5459
以成	-10.546
之外	-10.5465
見法	-10.5469
不變易	-10.547
世智	-10.5474
擇	-10.5475
五通	-10.5477
破無明	-10.5479
諸子	-10.5481
四等	-10.5486
二舉經	-10.5488
淨故	-10.5491
令諸	-10.5492
不貪	-10.5493
雖同	-10.5498
有酪	-10.5499
但說	-10.5501
於涅槃	-10.5503
不當	-10.5506
佛界	-10.5514
不能得見	-10.5514
品中	-10.5517
更不	-10.5517
不可盡	-10.5518
說此偈	-10.552
灌	-10.5521
緊那羅	-10.5521
翳	-10.5522
毫	-10.5523
結歎	-10.5525
一番	-10.5526
掘	-10.5527
喚	-10.5527
耆	-10.5528
實語	-10.5528
竹	-10.5528
虎	-10.5529
須跋	-10.5532
為破	-10.5532
鹿苑	-10.5533
每	-10.5534
慕	-10.5535
調達	-10.5537
哭	-10.554
白佛言世尊	-10.5542
殺人	-10.5542
自在天	-10.5542
即有	-10.5545
自正	-10.5548
讚嘆	-10.5551
萬物	-10.5551
經言	-10.5552
同是	-10.5555
但取	-10.556
滅煩惱	-10.5563
以說	-10.5563
縛解	-10.5565
若如是者	-10.5565
如世間	-10.5569
解也	-10.5574
欲見	-10.5575
定性	-10.5575
不吉	-10.5583
取相	-10.5584
不可壞	-10.5586
法華云	-10.559
可說	-10.5591
約三諦	-10.5598
諮	-10.5599
外凡	-10.56
住法	-10.5602
復是	-10.5606
如我所說	-10.5606
不能令	-10.5607
大城	-10.5609
重病	-10.561
淨行	-10.5611
所在	-10.562
有實	-10.5622
是真實	-10.5626
噉	-10.5633
下品	-10.5633
故舉	-10.5637
巳還	-10.5644
羣	-10.5652
發願	-10.5655
定知	-10.5655
買	-10.5656
得如是	-10.566
身智	-10.5662
條	-10.5663
雙遊	-10.5663
生苦	-10.5664
牧	-10.5664
得成阿耨多羅三藐三菩提	-10.5665
踰	-10.5665
妄計	-10.5667
諸功德	-10.5668
於理	-10.5668
滋	-10.5668
齋	-10.5668
善男子菩薩摩訶薩	-10.5669
與其	-10.5671
怒	-10.5672
現病品	-10.5673
任運	-10.5677
之樂	-10.5681
初出	-10.5683
良由	-10.5687
無量劫	-10.5692
解了	-10.5693
乳藥	-10.5693
尚無	-10.5694
喻明	-10.5699
篇	-10.57
所離	-10.57
緣者	-10.57
俱有	-10.5703
無佛性	-10.5705
眾惡	-10.5705
與我	-10.5711
意識	-10.5713
於人	-10.5715
而我	-10.5717
三云	-10.5717
同時	-10.5722
所覆	-10.5726
教者	-10.5727
不可以	-10.5728
說無常	-10.573
此第一	-10.5731
本是	-10.5732
十一空	-10.5734
述成	-10.5735
無善	-10.5736
各別	-10.5737
王三昧	-10.5738
薩婆多	-10.5739
所觀	-10.5745
變異	-10.5747
為宗	-10.5747
今則	-10.5748
貧女	-10.5752
廣上	-10.5753
依此	-10.5759
八事	-10.5772
磨	-10.5772
六十	-10.5775
即名	-10.5775
拘尸	-10.5775
一身	-10.5777
佛即	-10.5779
一生	-10.5782
有相	-10.5783
三譬	-10.5784
行七步	-10.5785
以何因緣	-10.5792
親近善友	-10.5792
阿鼻地獄	-10.5792
訶責	-10.5794
道也	-10.5795
餘經	-10.5796
逸	-10.5797
產	-10.5798
了了見	-10.58
截	-10.5808
無益	-10.5811
起於	-10.5812
緣了	-10.5814
譬佛	-10.5816
燈明	-10.5817
今更	-10.5823
▁初牒	-10.5826
第二句	-10.5826
六住	-10.5837
中亦有	-10.5839
明矣	-10.584
動轉	-10.5846
若其	-10.585
輪王	-10.5854
後總結	-10.5855
唯見	-10.5864
論師	-10.5865
辨異	-10.5868
顯其	-10.5869
為令眾生	-10.5873
或謂	-10.5879
即涅槃	-10.5879
內心	-10.5881
餘二	-10.5884
慚	-10.5887
經論	-10.5888
修慈	-10.589
歸伏	-10.5891
無名	-10.5891
為生	-10.5895
如向	-10.5895
未斷	-10.5896
十事	-10.5901
便言	-10.5907
不聞不聞	-10.5909
於中有三	-10.5909
其旨	-10.591
王所	-10.5911
色非色	-10.5913
盲人	-10.5918
生已	-10.592
怨親	-10.5926
釋疑	-10.5927
復示	-10.5928
此五	-10.5929
閉	-10.5934
石蜜	-10.5934
悲哀	-10.5935
以法	-10.594
業報	-10.5942
一一皆	-10.5942
走	-10.5944
非有為	-10.5944
五十二眾	-10.5947
不去	-10.5947
別論	-10.5948
多者	-10.5949
涅槃之體	-10.5951
之解	-10.5952
於汝	-10.5956
初發心	-10.5956
於其	-10.5956
等視	-10.5956
重說	-10.5967
萬德	-10.5969
一切善法	-10.597
若不能	-10.5971
真是	-10.5979
分齊	-10.5983
下結示	-10.5985
諸眾生故	-10.599
上明	-10.5991
問其	-10.5992
正為	-10.6
巳身	-10.6
三身	-10.6002
於中有二	-10.6003
頂生	-10.6004
所不能	-10.6009
大仙	-10.6009
為問	-10.601
道滅	-10.6014
闍王	-10.6014
設難	-10.602
喻之	-10.6021
八正	-10.6025
亦不得	-10.6026
修者	-10.6027
於中先明	-10.6029
云何復	-10.6035
前難	-10.6039
則失	-10.6041
請答	-10.6044
於阿耨多羅三藐三菩提	-10.6046
有緣	-10.6048
有自性	-10.6048
於中初明	-10.6051
是名菩薩摩訶薩	-10.6051
所詮	-10.6052
正以	-10.6054
非滅	-10.6055
第四明	-10.6057
掌	-10.606
住大涅槃	-10.6062
略無	-10.6063
身體	-10.6064
怨憎	-10.6066
罰	-10.6067
如實	-10.607
宛然	-10.607
今品	-10.6071
相資	-10.6072
勒	-10.6075
黑闇	-10.6079
。』」「	-10.6079
處所	-10.6079
色身	-10.608
有疑	-10.6081
立義	-10.6081
有九	-10.6081
參	-10.6085
化作	-10.6086
玉	-10.609
性也	-10.6094
解脫不爾	-10.6094
如諸	-10.6096
汝說	-10.6097
先標	-10.6098
家之	-10.6101
作善業	-10.6102
明涅槃	-10.6103
聞聲	-10.611
先尼言	-10.6113
求佛	-10.6115
六地	-10.6121
涅槃義	-10.6127
既得	-10.6127
所施	-10.6134
度眾生	-10.6135
以自	-10.6138
是三昧	-10.6138
三有	-10.6139
經歷	-10.6142
如是如是	-10.6145
文為四	-10.6145
具二	-10.6149
爾乃	-10.6153
迦葉品	-10.6155
值遇	-10.6158
不等	-10.6158
聞此	-10.6162
無滅	-10.6163
用此	-10.6163
為求	-10.6165
持諸	-10.6172
瞻	-10.6173
善也	-10.6175
無諸	-10.6179
婆羅門等	-10.618
之極	-10.6183
色等	-10.6185
愈	-10.6185
譬說	-10.6188
事也	-10.6189
先答	-10.6192
弊	-10.6194
見巳	-10.6194
得見佛性	-10.6194
聽許	-10.6195
輪轉	-10.6197
▁初舉	-10.6198
得之	-10.6201
重釋	-10.6204
經法	-10.6208
還成	-10.6208
別答	-10.6209
人間	-10.6213
兄弟	-10.6214
封	-10.6215
藏通	-10.6218
怪	-10.622
扶	-10.6221
所能	-10.6224
為其	-10.6224
佉	-10.6225
卿	-10.6225
張	-10.6225
▁初敘	-10.6228
同歸	-10.6228
鬪	-10.6229
▁三合	-10.6233
復生	-10.6233
為七	-10.6233
九部	-10.6242
我經中說	-10.6244
顯法	-10.6245
王宮	-10.625
句中	-10.6252
無主	-10.6252
內有	-10.6256
教也	-10.6256
如世	-10.6264
總舉	-10.6273
通前	-10.6274
芥子	-10.6275
導師	-10.628
能了	-10.628
文明	-10.6281
起行	-10.6286
上流	-10.6288
云何知	-10.6294
次一	-10.6297
無量煩惱	-10.63
知義	-10.6304
與此	-10.6305
三雙	-10.6306
所破	-10.631
滿故	-10.6311
三就	-10.6311
名解脫	-10.6316
化身	-10.6316
之子	-10.6318
或為	-10.632
文別有四	-10.6321
異名	-10.6323
昧	-10.6326
因成	-10.6328
十功德	-10.6328
不應說	-10.6329
世尊告	-10.633
苦也	-10.633
為化眾生	-10.6333
有信	-10.6334
永離	-10.6336
作難	-10.6336
辯中	-10.6338
作如是說	-10.6339
求利	-10.6347
今依	-10.6348
三四	-10.6351
叢林	-10.6351
兩譬	-10.6352
為一切	-10.6354
即是無常	-10.6357
迦羅	-10.6358
波斯匿王	-10.6359
青黃赤白	-10.6361
如下文	-10.6362
祇	-10.6362
價	-10.6362
哀愍	-10.6363
包	-10.6365
驢	-10.6365
歎其	-10.6366
壁	-10.6366
佛性是	-10.6367
圍繞	-10.637
貌	-10.637
淵	-10.637
今師	-10.637
無始終	-10.637
聞慧	-10.6371
八萬劫	-10.6374
究	-10.6374
善方便	-10.6375
依報	-10.6376
是別	-10.6376
象力	-10.6378
必得	-10.6378
師子吼言世尊	-10.6379
論中	-10.6379
醫王	-10.638
有法譬合	-10.638
進止	-10.6381
省	-10.6382
堪任	-10.6384
所居	-10.6385
隨所	-10.6385
欲知	-10.6386
行於	-10.6388
遠因	-10.6389
增益	-10.6391
有為之法	-10.6395
頌曰	-10.6402
學者	-10.6414
▁初總	-10.6415
金色	-10.6417
聞聞	-10.6423
此譬	-10.6424
一切處	-10.6426
如來法身	-10.643
若據	-10.6433
勝修	-10.6435
繫心	-10.6437
能答	-10.6438
正意	-10.644
等無差別	-10.644
而亦	-10.6442
常當	-10.6444
約事	-10.6448
身見	-10.645
答云	-10.645
之辭	-10.6453
三約	-10.6455
不疑	-10.6468
迦葉白佛	-10.6468
雷	-10.6469
不由	-10.6469
六即	-10.6475
若當	-10.6476
令一切	-10.6476
破執	-10.6478
父王	-10.6482
盡滅	-10.6485
又有	-10.6486
此語	-10.6486
作種種	-10.6489
爭	-10.6491
為異	-10.6492
中先明	-10.6495
必死	-10.6496
別異	-10.6496
由此	-10.6497
祕密之藏	-10.6497
必須	-10.6499
第二難	-10.65
生樂想	-10.6502
村	-10.6506
娑羅林	-10.6507
第二番	-10.6509
故成	-10.6509
的	-10.651
以何義故	-10.6511
佛出世	-10.6512
送	-10.6512
荒	-10.6513
我涅槃後	-10.6514
市	-10.6515
後時	-10.6516
亦無是處	-10.6516
尾	-10.6517
諂	-10.6517
如水	-10.6522
皆約	-10.6522
若能如是	-10.6522
保	-10.6522
故名大	-10.6531
總以結之	-10.6537
非聖	-10.6542
有諸眾生	-10.6543
皆同	-10.6544
我性	-10.6547
然今	-10.6554
隨文	-10.6564
於無量劫	-10.657
地持	-10.657
第	-10.6571
其言	-10.6572
破惑	-10.6573
離相	-10.6575
為顯	-10.6578
要須	-10.6579
譬如良醫	-10.6588
世出世	-10.6592
下半	-10.6593
若在	-10.6596
所立	-10.6597
即佛性	-10.6598
或以	-10.6599
畢竟空	-10.6599
為得	-10.66
教行	-10.6604
如言	-10.6606
顯現	-10.6607
燈滅	-10.6609
無此	-10.661
真金	-10.6615
為利	-10.6615
八者	-10.6617
大段	-10.6619
此為	-10.6622
食者	-10.6622
百非	-10.6625
中先問	-10.6626
無師	-10.6636
所治	-10.6638
又三一	-10.664
我復	-10.6647
顯發	-10.6647
射	-10.6652
陰界入	-10.6654
識處	-10.6656
戲	-10.6659
肥	-10.666
鈔	-10.6661
欝	-10.6661
或在	-10.6661
瓦石	-10.6662
得佛	-10.6663
屋	-10.6664
除一闡提	-10.6664
獵師	-10.6664
以前	-10.6665
教誨	-10.6665
幼	-10.6666
沙門瞿曇	-10.6667
自恣	-10.6667
丈六	-10.667
之義也	-10.6675
後兩	-10.6677
異於	-10.6678
各具	-10.6678
文意	-10.6679
踊	-10.6681
業障	-10.6681
難言	-10.6687
敘意分科	-10.6694
治病	-10.6694
行惡	-10.6697
次問	-10.6699
別義	-10.6701
之間	-10.6707
因緣和合	-10.6709
十想	-10.6709
互現	-10.6711
生此	-10.6711
是所	-10.6714
現有	-10.6717
學人	-10.6722
彰己	-10.6723
發問	-10.6724
滅時	-10.6724
以上	-10.6734
對破	-10.6736
得成佛	-10.6737
無實	-10.6739
外法	-10.6748
已來	-10.675
具三	-10.6755
快	-10.6755
緣於	-10.6762
以何	-10.6765
次復	-10.6768
功能	-10.6768
淨名	-10.6769
逮	-10.6771
經明	-10.6773
此地	-10.678
摩羅	-10.6786
所出	-10.6787
憐憫	-10.6792
為眾生說	-10.6793
則生不動國	-10.6796
應言	-10.6803
汝意若謂	-10.6804
內法	-10.6804
妻	-10.6805
便得	-10.6805
健	-10.6805
性非	-10.6808
焚	-10.6808
緩	-10.6809
名無常	-10.6809
宅	-10.681
軌	-10.681
偈頌	-10.681
摩睺羅伽	-10.681
瑠璃	-10.681
佛法中	-10.6812
▁二正	-10.6813
如地	-10.6813
返	-10.6816
以是義下	-10.6819
捨心	-10.682
堅持	-10.6823
無義	-10.6825
得樂	-10.6826
出聲	-10.6828
洲	-10.6829
難中	-10.6834
迦葉菩薩言	-10.6835
州	-10.6836
過也	-10.6836
貪求	-10.6837
一切大眾	-10.6841
四種人	-10.6842
密藏	-10.6849
食身	-10.685
一則	-10.6852
瞻病	-10.6853
喻顯	-10.6855
可作	-10.686
二乘人	-10.6861
戒是	-10.6863
凡夫二乘	-10.6866
計有	-10.6868
隨他	-10.6877
名為大	-10.6882
直是	-10.6883
幻化	-10.6884
但明	-10.6888
中二先	-10.6888
一雙	-10.6892
名為涅槃	-10.6894
說常	-10.6896
法忍	-10.6897
明非	-10.6902
言是	-10.6905
以佛	-10.6907
所引	-10.6907
敬信	-10.6909
不染	-10.6909
閡	-10.6911
菩薩亦爾	-10.6913
不同也	-10.6913
諸業	-10.6914
之苦	-10.6915
白言	-10.6919
未免	-10.692
破戒者	-10.6922
得安隱	-10.6922
思之	-10.6925
為首	-10.6926
有作	-10.693
若斷	-10.6931
婆羅	-10.6934
絕待	-10.6943
九住	-10.6952
No	-10.6956
愚者	-10.6957
真性	-10.696
災	-10.696
不淨之物	-10.696
於意云何	-10.6962
飯	-10.6964
不得名為	-10.6965
如月	-10.6965
別惑	-10.6965
眾生心	-10.6965
毗曇	-10.6965
雙釋	-10.6968
均	-10.6969
祖	-10.697
鮮	-10.697
催供	-10.6971
夜叉	-10.6972
淡	-10.6972
丸	-10.6972
採	-10.6973
方便道	-10.6974
暢	-10.6975
須臾	-10.6975
所造	-10.6977
遭	-10.6977
十相	-10.6982
名相	-10.6982
啟	-10.6984
行故	-10.6988
圓頓	-10.6989
答第三	-10.6991
位也	-10.6991
武	-10.6991
既言	-10.6993
深淺	-10.6997
識心	-10.6999
後問	-10.7001
治之	-10.7005
應無	-10.7005
離苦	-10.7007
內空	-10.7009
偏明	-10.7015
不肯	-10.7015
汝若	-10.7016
三智	-10.7016
推求	-10.7021
弘廣	-10.7021
於一切	-10.7026
造惡	-10.7027
故先	-10.7031
如空	-10.7031
故爾	-10.7032
之上	-10.7041
我常	-10.7046
三無為	-10.7047
藥草	-10.7049
六念	-10.7053
佛剎	-10.7056
習因	-10.7059
離惡	-10.7061
隨時	-10.7064
明義	-10.7066
直心	-10.7069
現在世	-10.7077
為定	-10.7078
清淨戒	-10.709
見其	-10.7091
文釋義	-10.7092
網	-10.7092
佛法僧	-10.7095
類顯	-10.7096
不還	-10.7097
退失	-10.7098
廣破	-10.7104
牀	-10.711
二門	-10.711
然其	-10.7113
登地	-10.7114
是魔眷屬	-10.7114
明見	-10.7115
是善	-10.7116
乳中有酪	-10.7116
勇健	-10.7118
跋	-10.7119
能度	-10.7121
世第一法	-10.7122
生時	-10.7122
圍遶	-10.7122
如汝所問	-10.7123
偷	-10.7123
擯	-10.7124
熾盛	-10.7124
拒	-10.7125
獲得解脫	-10.7127
脚	-10.7128
雖非	-10.7132
是總	-10.7133
煩惱障	-10.7134
避	-10.7138
今既	-10.7139
朝	-10.7142
對曰	-10.7142
我心	-10.7143
體一	-10.7143
哀歎	-10.7144
皆空	-10.7145
而彼	-10.7146
諮問	-10.7147
於他	-10.7147
名同	-10.7149
開發	-10.7158
赤色	-10.716
不用處	-10.7163
三月	-10.7164
天女	-10.7167
能以	-10.7175
次論義	-10.7176
非身	-10.7177
即說	-10.7178
何等為四	-10.7178
次正答	-10.7181
唯然	-10.7182
又是	-10.7186
生業	-10.7188
須依	-10.7195
成阿耨多羅三藐三菩提	-10.7196
即名為	-10.7197
計常	-10.7201
理即	-10.7201
中上	-10.7203
更無別	-10.7207
下句	-10.7209
若有人能	-10.7209
恒河沙等	-10.721
但見	-10.721
是我所	-10.7211
即第一義	-10.722
堪忍	-10.7224
不從因緣	-10.7228
第三結	-10.7234
隨有	-10.7241
終無	-10.7242
非作	-10.7246
愁苦	-10.7247
初正明	-10.725
證知	-10.725
卷第二十	-10.7255
一日	-10.7257
中人	-10.7257
是名上智	-10.7261
悟解	-10.7264
菩薩品	-10.7267
理同	-10.7268
正顯	-10.7268
生果	-10.7269
我於往昔	-10.727
不違	-10.7272
當於	-10.7272
善思念之	-10.7274
恃	-10.7275
四顛倒	-10.7275
值佛	-10.7276
雅	-10.7278
不忘	-10.7279
未出	-10.7279
如是解脫即是如來	-10.7281
房舍	-10.7281
習果	-10.7282
奇	-10.7282
此皆	-10.7283
法雨	-10.7284
不知足	-10.7284
憍	-10.7286
內凡	-10.7286
馳	-10.7287
混	-10.7289
下別顯之	-10.7289
鑒	-10.7292
何用	-10.7292
雙明	-10.7298
以別	-10.7299
未解	-10.7299
至彼	-10.73
陽	-10.7301
揀	-10.7305
同聞	-10.7307
雖是	-10.7307
門者	-10.731
因滅	-10.7313
弊惡	-10.7313
答意	-10.7315
不真	-10.7317
舉佛	-10.7318
空門	-10.7321
外緣	-10.7329
者由	-10.733
何異	-10.7332
即入	-10.7333
義釋	-10.7334
象馬	-10.7336
多分	-10.734
次辯	-10.7348
善人	-10.7357
譬合	-10.7357
四段	-10.7358
善行	-10.736
塵沙	-10.736
當體	-10.7361
汝於	-10.7361
何因緣	-10.7363
下喻	-10.7368
空三昧	-10.7369
生盲	-10.7369
不因	-10.7375
合為一	-10.738
釋成	-10.738
能受持	-10.7381
益物	-10.7381
離過	-10.7386
為諸	-10.7387
諸力士	-10.7388
樂見	-10.739
薄福	-10.7391
大聖	-10.7392
大乘經	-10.7394
永無	-10.7395
身口意	-10.7397
不得言	-10.7402
六識	-10.7404
所愛	-10.7406
為惡	-10.7406
巳前	-10.7408
叵	-10.741
體同	-10.7415
不攝	-10.7418
亦具	-10.7424
為真	-10.7426
破於	-10.7426
他國	-10.7431
瞿	-10.7435
】【	-10.7435
趣入	-10.7436
菩薩應當	-10.7437
百句	-10.7443
未成	-10.7443
裂	-10.7443
地人	-10.7444
憙	-10.7444
擲	-10.7444
超越	-10.7446
所執	-10.7448
綿	-10.7449
甲	-10.745
亦不可思議	-10.745
若無我者	-10.7452
合掌恭敬	-10.7453
因中有果	-10.7454
舉譬	-10.7454
觀受	-10.7456
梁	-10.746
名為見	-10.7462
佛讚	-10.7462
分科	-10.7464
非鬼	-10.7464
惡趣	-10.7465
明中道	-10.7468
五譬	-10.7468
三慧	-10.7472
何者是	-10.7474
寶幢	-10.7475
第三番	-10.7476
下別釋	-10.7481
諸惡比丘	-10.7482
實性	-10.7487
隨情	-10.7489
婆羅門言	-10.749
同彼	-10.7491
罪人	-10.7492
門也	-10.7495
。』」	-10.7498
生瞋	-10.75
須菩提	-10.7504
歎德	-10.7506
處者	-10.7508
神我	-10.7511
二教	-10.7512
聽我	-10.7513
淨居	-10.7518
諸婆羅門	-10.7529
今且	-10.7534
》,	-10.7537
以示	-10.754
阿僧祇劫	-10.7541
三道	-10.7542
大覺	-10.7542
其理	-10.7543
修羅	-10.7548
長老	-10.7548
遊行	-10.7551
三意	-10.7551
隨喜	-10.7551
開宗	-10.7552
江	-10.7557
彼經	-10.7563
其過	-10.7564
思慧	-10.7564
來至此	-10.7565
報障	-10.7566
初略	-10.7568
合之	-10.7572
正報	-10.7572
人多	-10.7572
後難	-10.7576
療	-10.7578
死苦	-10.7581
先出	-10.7585
厭離	-10.759
律中	-10.7592
首陀	-10.7594
憂喜	-10.7595
詐親	-10.7596
▁七	-10.7596
不虛	-10.7598
蔽	-10.7599
又問	-10.7599
佛及	-10.76
祠	-10.76
繞	-10.76
即一而三	-10.7602
校	-10.7604
燃	-10.7605
米	-10.7606
邊地	-10.7606
右膝著地	-10.7606
茂	-10.7608
穿	-10.7608
不忘念	-10.7609
車乘	-10.7609
伺	-10.761
逆罪	-10.7611
不一	-10.7611
梁武	-10.7611
遊戲	-10.7611
楊	-10.7612
一切眾生亦復如是	-10.7613
貢高	-10.7617
寸	-10.7617
住是三昧	-10.7618
即真	-10.7619
依教	-10.7623
梵行品	-10.7624
復得	-10.7634
云何說	-10.7634
體也	-10.7635
如來真實	-10.7638
四聖諦	-10.7645
雖在	-10.7647
一門	-10.7649
縱廣	-10.7649
若遇	-10.765
皆爾	-10.7651
得稱	-10.7651
具足檀波羅蜜	-10.7651
諦觀	-10.7652
八智	-10.7653
而成	-10.7657
修梵行	-10.7657
共住	-10.7661
之病	-10.7664
染著	-10.7664
聞是經	-10.7665
信解	-10.7665
之地	-10.767
便謂	-10.767
我欲	-10.7671
是理	-10.7671
佛性也	-10.7672
非相	-10.7681
即知	-10.7688
一家	-10.7692
在前	-10.7695
果上	-10.77
果實	-10.7703
其本	-10.7716
總名	-10.7717
善說	-10.7718
得作	-10.7718
有門	-10.7727
知根	-10.773
即是法身	-10.7731
心懷	-10.7742
汎	-10.7745
光宅	-10.7748
即事	-10.7751
有善	-10.7751
又此	-10.7751
解惑	-10.7754
離陰	-10.7754
是名中智	-10.7758
會疏	-10.776
法華玄	-10.7762
前說	-10.7764
菩薩摩訶薩修大涅槃	-10.7764
陰入界	-10.7768
▁初敘古	-10.7768
剋	-10.7768
伐	-10.7769
墮三惡道	-10.7769
富那	-10.777
庶	-10.7771
黨	-10.7772
欺	-10.7772
拔濟	-10.7772
曜	-10.7772
倚	-10.7773
具四	-10.7773
童	-10.7774
從彼	-10.7776
亦應如是	-10.7776
浴	-10.7778
為根本	-10.7778
聾	-10.7779
工巧	-10.7779
金剛之身	-10.778
如火	-10.778
教他	-10.7782
於中先	-10.7783
如法修行	-10.7783
品云	-10.7784
今但	-10.7785
作五逆罪	-10.7789
殊勝	-10.7791
惡比丘	-10.7794
愛者	-10.7795
只是一	-10.78
愛取	-10.7801
何為	-10.7802
百億	-10.7803
三段	-10.7807
無餘涅槃	-10.7809
二十一	-10.7811
不應作	-10.7818
以諸	-10.7818
如王	-10.7824
更問	-10.7826
▁初正釋	-10.7827
三途	-10.7828
久住於世	-10.7829
之眾	-10.783
欲求	-10.783
妙理	-10.7831
業行	-10.7832
兩難	-10.7837
忘失	-10.7839
弘誓	-10.7844
於過去	-10.7845
入定	-10.7848
為汝	-10.7849
廣顯	-10.785
諸臣	-10.7853
治國	-10.7853
至于	-10.7857
一子地	-10.7858
餘四	-10.7861
分為二	-10.7862
證也	-10.7865
道前	-10.7867
亦應有	-10.7873
無勝	-10.7874
佛境界	-10.7875
當以	-10.7878
即是中道	-10.7879
理無	-10.7881
答第五	-10.7881
亦見	-10.7883
其義云何	-10.7886
大喜	-10.7888
本迹	-10.7899
無邊身	-10.7901
察	-10.7905
應說	-10.7915
依義	-10.7916
失也	-10.7916
具論	-10.7923
此非	-10.7925
非諸聲聞緣覺所知	-10.7928
或復有說	-10.7929
遶	-10.7931
願諸眾生得	-10.7934
營	-10.7935
結勸	-10.7936
慎	-10.7938
夭	-10.7939
正因性	-10.7939
第一明	-10.794
最初	-10.7941
其名	-10.7941
娑羅雙樹間	-10.7941
悞	-10.7943
自是	-10.7943
便是	-10.7944
經教	-10.7945
雙樹間	-10.7945
即其義也	-10.7947
是內	-10.7948
非有無	-10.7949
無數劫	-10.7949
自能	-10.7951
而住	-10.7952
流轉生死	-10.7952
湛然	-10.7953
體相	-10.7955
報身	-10.7955
之殊	-10.7956
下正明	-10.7958
百福	-10.7958
聞其	-10.7959
能如是	-10.7961
有三義	-10.7962
眾魔	-10.7971
作此說	-10.7975
其猶	-10.7977
無方	-10.798
無量阿僧祇	-10.7984
無因緣	-10.7985
入理	-10.7986
應須	-10.7986
下牒	-10.7987
先歎	-10.7988
第十一	-10.7993
諸佛之	-10.7995
覆藏	-10.7995
沙門果	-10.7997
觀師云	-10.8003
自心	-10.8004
歸依處	-10.801
以無常	-10.8015
無犯	-10.8019
向佛	-10.8023
二乘之人	-10.8024
不應言	-10.8032
何故名	-10.8033
正應	-10.8037
果亦	-10.8039
苦受	-10.8041
大苦	-10.8043
如是無量	-10.8045
娑羅	-10.8045
亦得名為	-10.8047
令知	-10.8048
以求	-10.8048
入證	-10.8048
斥古	-10.8054
七方便	-10.8059
佛答為二	-10.8059
生長	-10.8061
是謂	-10.8065
阿僧祇	-10.8066
墮於	-10.8067
彼彼	-10.8067
皆當	-10.8073
五品	-10.8074
娑	-10.8074
三十七	-10.8076
所釋	-10.8077
無量百千	-10.8077
所感	-10.8082
亦二	-10.8086
初標章	-10.8088
受我	-10.8088
例然	-10.8089
隨義	-10.8091
無情	-10.8092
上求	-10.8093
菴羅	-10.8096
往佛所	-10.8096
邊見	-10.8102
咨	-10.8106
開顯	-10.8106
攬	-10.8108
日光	-10.8109
出現於世	-10.8109
兩義	-10.8111
怨敵	-10.8111
芭蕉	-10.8111
不有	-10.8112
度眾生故	-10.8113
下化	-10.8113
所以然者	-10.8113
顏	-10.8114
刀杖	-10.8114
釋迦牟尼	-10.8115
粟	-10.8116
恥	-10.8116
下徵	-10.8116
招提	-10.8119
憂惱	-10.8119
行慈	-10.812
猒	-10.812
設有	-10.8121
此以	-10.8123
理具	-10.8123
尼拘陀子	-10.8123
不畢竟	-10.8124
偏小	-10.8125
先列	-10.8129
通釋	-10.8129
本末	-10.8129
素	-10.813
之惑	-10.8132
無信	-10.8134
一面	-10.8136
勝劣	-10.8136
遍照	-10.8138
下正示	-10.814
護戒	-10.8145
樂因	-10.8145
大樂	-10.8147
有二意	-10.8148
我今當	-10.8148
可依	-10.8152
四無所畏	-10.8158
真解	-10.816
剎土	-10.8166
梵語	-10.8166
還家	-10.8168
非本	-10.8168
其味	-10.8169
繫屬	-10.8179
知之	-10.8179
明己	-10.818
能詮	-10.8183
造色	-10.8183
真正	-10.8185
於世間	-10.8188
佛力	-10.8188
此第二	-10.8192
未足	-10.8192
故令	-10.8193
上云	-10.8193
示同	-10.8197
兩教	-10.8197
將來	-10.8198
初門	-10.8198
如來今者	-10.82
是故汝等	-10.8204
法非法	-10.8204
妙法	-10.8205
所念	-10.8208
無報	-10.8208
最為	-10.8214
今釋	-10.8219
攝心	-10.8221
以彼	-10.8221
勸令	-10.8224
一切聖人	-10.8226
淨不淨	-10.823
阿難言	-10.8233
時彼	-10.8235
同故	-10.8237
大論云	-10.824
那得	-10.8241
即開	-10.8241
命盡	-10.8242
卷第三十	-10.8242
常命	-10.8243
結難	-10.8244
一實諦	-10.8247
▁初示	-10.8254
理實	-10.8255
常以	-10.8257
無所著	-10.8259
住持	-10.8259
非諦	-10.8262
象王	-10.8264
注云	-10.8267
其地	-10.8274
佛自	-10.8277
先喻	-10.8277
果地	-10.8277
久遠	-10.828
北涼天竺三藏曇無讖譯	-10.828
不可稱計	-10.8281
狼	-10.8282
i	-10.8283
丈	-10.8286
我當云何	-10.8286
亦不可	-10.8287
邏	-10.8288
分陀利	-10.829
聞所不聞	-10.829
尼乾	-10.8291
育	-10.8294
梵本	-10.8294
有何差別	-10.8294
已上	-10.8295
迴轉	-10.8295
善果	-10.8298
藍	-10.8298
升	-10.8299
諂曲	-10.8299
䨱	-10.83
作是願	-10.83
須達多	-10.8303
就佛	-10.8304
釋文	-10.8304
次約	-10.8306
名聞	-10.8313
惡因	-10.8313
佛在	-10.8314
四十年	-10.8316
速往	-10.8319
非無常	-10.832
深義	-10.832
此難	-10.8321
無想天	-10.8321
玄義	-10.8331
障故	-10.8331
復次善男子譬如	-10.8333
令生	-10.8333
作是	-10.8334
誼	-10.8334
背捨	-10.8336
行施	-10.8339
終日	-10.8341
四毒蛇	-10.8343
多種	-10.8349
是有漏	-10.835
乃有	-10.835
前六	-10.8351
上至	-10.8354
中文別有	-10.8355
淨心	-10.836
今舉	-10.8361
寂然	-10.8363
我法	-10.8364
大機	-10.8367
離生死	-10.837
身有	-10.837
食之	-10.8371
▁初略	-10.8374
雖聞	-10.8375
三性	-10.8379
無處	-10.8382
其名曰	-10.8389
八味	-10.8398
戒取	-10.84
依於	-10.8402
要當	-10.8403
三苦	-10.8407
讚言	-10.8407
一切外道	-10.8407
善男子譬如有人	-10.842
樂想	-10.8424
此間	-10.8424
合文	-10.8427
重顯	-10.8429
已盡	-10.8432
為世	-10.8434
雖異	-10.8441
常說	-10.8442
行中	-10.8444
非過去	-10.8447
第四禪	-10.8447
露	-10.845
捨相	-10.8451
或有眾生	-10.8452
勤精進	-10.8454
憎	-10.8455
故云非	-10.8458
若修	-10.8458
若復有人	-10.8458
總持	-10.8458
詶	-10.8459
▁疏總釋	-10.8459
地獄畜生餓鬼	-10.846
菩薩摩訶薩修大涅槃微妙經典	-10.8461
是大涅槃微妙經典	-10.8464
憍尸迦	-10.8465
稗	-10.8466
訛	-10.8468
遵	-10.8468
臭穢	-10.8469
涅槃體	-10.8469
臂	-10.847
評	-10.847
我等今者	-10.8471
看	-10.8474
道慧記曰	-10.8474
等者即	-10.8474
鳩	-10.8475
爾雅	-10.8475
二根	-10.8476
後分	-10.8479
大會	-10.8483
電光	-10.8486
方乃	-10.8488
縱橫	-10.849
哀歎品	-10.8494
之意也	-10.8496
施食	-10.8501
及其	-10.8504
無明漏	-10.8505
第三段	-10.8507
若具	-10.851
眾生不見	-10.8513
於未來世	-10.8515
善道	-10.8515
數息	-10.8516
常無常等	-10.8518
顯實	-10.8525
邊際	-10.8527
得羅漢	-10.8528
正辨	-10.8529
煗法	-10.853
不明	-10.8531
徒眾	-10.8532
制戒	-10.8534
欲為	-10.8536
初就	-10.8537
相關	-10.8546
得法	-10.855
有頂	-10.8552
於上	-10.8553
分之	-10.8555
退轉	-10.8555
別說	-10.8557
云何復言	-10.8559
根緣	-10.8566
波若	-10.8566
非其	-10.8573
汝可	-10.8575
菩薩如是	-10.8577
大千	-10.8579
釋種	-10.8583
何名	-10.8584
為一雙	-10.8586
慧行	-10.8589
若諸眾生	-10.859
治者	-10.8594
得須陀洹果	-10.8596
我既	-10.8597
無量世	-10.8599
召請	-10.8605
故不名	-10.8607
為十	-10.8607
▁二又	-10.8608
斷德	-10.8611
四部	-10.8615
而修	-10.8617
餘者	-10.862
行陰	-10.8621
四問	-10.8621
亦言	-10.8621
之罪	-10.8622
▁二結	-10.8623
於今	-10.8624
中夜	-10.8624
其聲	-10.8624
圓極	-10.8625
得此	-10.8625
重問	-10.8627
九種	-10.8627
始有	-10.8627
非真實	-10.8627
得好	-10.8629
偏圓	-10.863
末後	-10.863
大身	-10.8638
五分	-10.8639
偈半	-10.864
焦	-10.8643
熾	-10.8643
下廣	-10.8643
列其名	-10.8645
作是思惟	-10.8645
其色	-10.8647
響	-10.865
潤生	-10.8651
孫	-10.8651
佛旨	-10.8651
臺	-10.8651
徐	-10.8652
巨	-10.8652
發意	-10.8652
袈裟	-10.8653
諍訟	-10.8654
中初法次喻後合	-10.8654
三門	-10.8657
馬鳴	-10.8659
奉召	-10.866
瞿曇沙門	-10.866
首楞嚴三昧	-10.8661
如來如是	-10.8661
亮	-10.8663
論議	-10.8663
逗	-10.8665
淨者	-10.8672
什	-10.8677
墮落	-10.8678
聲光	-10.8678
能自	-10.868
十四音	-10.8682
如是我聞	-10.8683
罪報	-10.8683
聲聞辟支佛	-10.8684
見諸眾生	-10.8685
未入	-10.8686
專念	-10.8687
所得功德	-10.8687
地上	-10.8688
四王	-10.8701
三倒	-10.8708
此業	-10.871
從因緣	-10.8715
不可量	-10.8725
應先	-10.8726
即如來	-10.8727
重惡	-10.8728
皆從	-10.8728
諸藥	-10.873
有滅	-10.873
名通	-10.8737
不久當	-10.8749
于時	-10.8751
此論	-10.8751
緣中	-10.8752
執有	-10.8753
釋論云	-10.8755
有色	-10.8759
光召	-10.8762
若自	-10.8764
外空	-10.8766
煩惱業	-10.8769
與之	-10.8769
非果	-10.877
真理	-10.877
即當	-10.8771
無諍	-10.8778
生酥	-10.8778
若常	-10.8781
法眼	-10.8781
如來不爾	-10.8782
則不如是	-10.8784
引經	-10.8785
即法身	-10.8786
方能	-10.8786
入空	-10.8788
修得	-10.8789
勸捨	-10.879
三行	-10.8797
亦不見	-10.8801
重故	-10.8807
修成	-10.8808
聖行品	-10.8812
衣食	-10.8815
對之	-10.8816
吾今	-10.8822
正理	-10.8824
證實	-10.8829
饑	-10.8831
即解脫	-10.8834
迦樓羅	-10.8835
流淚	-10.8835
醒	-10.8835
無是處	-10.8836
那忽	-10.8836
▁二就	-10.8837
後句	-10.8838
莊	-10.8838
自見	-10.8839
佛國	-10.8839
蚊	-10.884
阿鼻	-10.8841
大眾問品	-10.8841
大雲密藏菩薩	-10.8841
注云云者	-10.8842
無見	-10.8843
說是偈	-10.8843
慧朗	-10.8843
錯	-10.8845
此就	-10.8845
妙義	-10.8846
即般若	-10.8847
辯才	-10.8847
善思惟	-10.8849
前三教	-10.8851
就此	-10.8852
子想	-10.8852
皆無	-10.8852
我今已	-10.8853
即理	-10.8854
進退	-10.8855
三世攝	-10.8859
嗚呼	-10.8859
晉	-10.8862
下彰	-10.8864
兩意	-10.8864
苦無常	-10.8865
不可治	-10.8865
疑惑	-10.8866
今意	-10.8867
經力	-10.8869
時異	-10.887
水草	-10.8873
眾生悉有佛性	-10.8874
釋前	-10.8878
第一義天	-10.8883
▁二舉	-10.8884
兩章門	-10.8887
為答	-10.889
兩偈	-10.8891
而論	-10.8891
梵志言	-10.8891
常為眾生	-10.8893
如是等人	-10.8893
十行	-10.8895
兩種	-10.8903
行善	-10.8903
五眼	-10.8907
二語	-10.8911
數人	-10.8912
中論	-10.8914
如似	-10.8914
但約	-10.8915
不動地	-10.8921
千世界	-10.8923
以種種	-10.8925
佛常	-10.8928
有所得	-10.8929
色力	-10.8934
▁初答	-10.8948
初偈	-10.895
不欲	-10.8951
弘經	-10.8952
一對	-10.8954
眾罪	-10.8957
故生	-10.8958
大樹	-10.8959
四結	-10.896
為非	-10.8961
五色	-10.8961
初發	-10.8968
中作	-10.8968
分二	-10.8969
能燒	-10.897
是等	-10.8975
如來出世	-10.8976
希	-10.8977
未具	-10.8977
即離	-10.8977
經書	-10.8979
佛乘	-10.898
分文	-10.8982
不了義	-10.8984
第二段	-10.8985
故名為大	-10.8987
所緣	-10.8989
不次	-10.899
樂說	-10.8992
非諸聲聞	-10.8992
我本	-10.8994
牒問	-10.8994
威力	-10.8998
功德成就	-10.9
不正	-10.9001
誰有	-10.9002
善知識者	-10.9004
於義	-10.9005
冤	-10.9008
兩章	-10.9008
炭	-10.902
貝	-10.9022
柔	-10.9024
寫	-10.9024
能遮	-10.9025
朽	-10.9025
舉偈	-10.9027
月愛三昧	-10.9027
何法	-10.9028
蔭	-10.9028
牧牛	-10.9028
禮敬	-10.9029
聞是語已	-10.9029
競	-10.9029
壞滅	-10.9029
霧	-10.903
汁	-10.903
哀哉	-10.9031
無央數	-10.9031
熾然	-10.9032
寂定	-10.9033
役	-10.9035
第四段中	-10.9035
群賊	-10.9036
顯正	-10.9037
三舉	-10.9038
防護	-10.9038
憶想	-10.9038
自行化他	-10.9042
三十四問	-10.9044
雙林	-10.9047
龍樹	-10.9048
為主	-10.9053
言語	-10.9057
各自	-10.9058
能破壞	-10.9058
及佛	-10.9059
上根	-10.9061
教門	-10.9063
方廣	-10.9063
雖殊	-10.9064
豈同	-10.9066
是何	-10.907
純陀品	-10.9072
此句	-10.9081
全是	-10.9082
明常	-10.9082
如本	-10.9082
從於	-10.9082
對於	-10.9085
外有	-10.9086
言之	-10.9088
能斷善根	-10.9089
為利養故	-10.9091
如來性品	-10.9092
未了	-10.9094
文亦	-10.9094
邪我	-10.91
同也	-10.9102
菩提道	-10.9107
毀戒	-10.9107
兩番	-10.9107
陰身	-10.9111
不移	-10.9111
顯今	-10.9112
之功	-10.9116
一道	-10.912
攝一切法	-10.9121
別離	-10.9123
夢中	-10.9124
名異	-10.9124
經意	-10.9126
不但	-10.9127
悉為	-10.9128
。」《	-10.9128
極愛	-10.9131
令出	-10.9135
古今	-10.9135
二月	-10.914
舉體	-10.9142
四無礙	-10.9144
我想	-10.9144
一塵	-10.9145
二用	-10.9147
大王當知	-10.9147
正因佛性	-10.9148
智德	-10.915
有道	-10.9154
文殊師利言	-10.9154
為法	-10.9155
即此	-10.9157
佛昔	-10.9161
珍	-10.9161
愁憂	-10.9166
頃	-10.9167
無定相	-10.9177
五性	-10.9177
一部	-10.9178
言教	-10.9179
後邊	-10.918
對辨	-10.9187
是故說言	-10.9193
既盡	-10.9199
勸信	-10.9199
所疑	-10.9203
說偈言	-10.9204
下復	-10.9206
大梵天王	-10.9207
不隨	-10.921
嫉	-10.9211
勸請	-10.9211
佛與	-10.9212
驚怪	-10.9213
伽陀	-10.9213
淫	-10.9213
牛羊	-10.9213
快哉	-10.9213
常與無常	-10.9214
陸	-10.9214
即事而理	-10.9215
即三而一	-10.9215
熙連	-10.9216
例前	-10.9216
欺誑	-10.9217
低	-10.9217
充足	-10.9217
三世有法無有是處	-10.9217
來至佛所	-10.9219
自說	-10.9219
近善友	-10.922
蕩	-10.9224
爛	-10.9225
但合	-10.9225
檢	-10.9229
觀漏	-10.923
定也	-10.9231
楚	-10.9233
以佛神力	-10.9233
第二釋	-10.9235
成熟	-10.9236
顯勝	-10.9236
三世所攝	-10.924
就其	-10.9242
四姓	-10.9242
不污	-10.9242
心法	-10.9244
名果	-10.9246
除愈	-10.9247
何以故下	-10.925
而未	-10.9251
現病	-10.9252
若云	-10.9257
是了因	-10.9258
難佛	-10.9258
真應	-10.9258
有四句	-10.9259
等者謂	-10.9259
序品	-10.9268
聽畜	-10.927
五義	-10.9272
持犯	-10.9279
逮得	-10.9279
友	-10.9285
涅槃果	-10.9286
以論	-10.929
本際	-10.9292
論其	-10.9293
諸佛世界	-10.9293
四相品	-10.9295
臨終	-10.9296
無字	-10.9304
小教	-10.9304
為度	-10.9306
作罪	-10.9307
引昔	-10.9308
下出	-10.931
苦苦	-10.9312
歎教	-10.9314
滅則	-10.9315
他云	-10.9319
常行	-10.9324
經家	-10.9325
全無	-10.9335
假我	-10.9337
久已	-10.9341
遮止	-10.9342
因果性	-10.9349
諸病	-10.9355
是處	-10.9356
身子	-10.9358
時王	-10.936
諸句	-10.936
已說	-10.9369
到彼	-10.937
難辭	-10.937
能離	-10.9371
當作	-10.9372
戒也	-10.9372
體非	-10.9373
此舉	-10.9373
師子王	-10.9377
翻名	-10.9386
若取	-10.9391
理事	-10.9391
及一闡提	-10.9394
可壞	-10.9397
與汝	-10.94
金翅鳥	-10.9401
諸眾生等	-10.9402
四偈	-10.9404
中有一	-10.9405
匝	-10.9407
煙	-10.9407
出離	-10.9408
傾	-10.9411
隨自意語	-10.9412
辯釋	-10.9413
我於一時	-10.9413
或是	-10.9413
一闡提者	-10.9414
促	-10.9416
鷲	-10.9416
今復	-10.9417
默然不受	-10.9417
括	-10.9417
溺	-10.9417
有去來	-10.9419
城邑	-10.9419
飽	-10.942
非想非非想處	-10.942
織	-10.9421
銅	-10.9422
▁二約	-10.9422
苟	-10.9422
泛	-10.9422
短壽	-10.9424
斗	-10.9425
結使	-10.9428
往至佛所	-10.9428
於大乘	-10.9428
無常即常	-10.9429
中根	-10.9429
忽然	-10.943
中品	-10.943
同學	-10.9431
空有	-10.9433
五千	-10.9434
空無所有	-10.9435
下根	-10.9436
七事	-10.9437
益也	-10.9441
安眠	-10.9444
於無量阿僧祇劫	-10.9444
觀苦	-10.9447
無上正法	-10.9448
威儀具足	-10.945
第四段	-10.945
非大涅槃	-10.9452
五眾	-10.9452
前兩	-10.9462
偏就	-10.9463
不淨觀	-10.947
舉昔	-10.9471
智臣	-10.9474
次廣	-10.9475
四兵	-10.948
得善	-10.9481
受於	-10.9483
還以	-10.9492
巳下	-10.9492
解脫處	-10.9495
而已	-10.9496
即問	-10.9498
用之	-10.95
非倒	-10.9503
定業	-10.9505
無動	-10.9507
上句	-10.9509
滅壞	-10.951
二地	-10.9516
下合譬	-10.9517
次以	-10.9522
經本	-10.9523
增過	-10.9529
須達	-10.9532
行相	-10.9539
化佛	-10.954
以顯之	-10.9542
約法	-10.9544
世間法	-10.9545
法無礙	-10.9548
更生	-10.9551
助道	-10.9553
生報	-10.9555
阿那含人	-10.9564
無受	-10.9566
不得名	-10.9571
義說	-10.9572
無明為	-10.9576
歸命	-10.9579
皆言	-10.9581
俱名	-10.9586
十方佛	-10.9588
漏盡	-10.9589
圓修	-10.959
亦不能	-10.9597
屋宅	-10.9601
一切人	-10.9603
鉤	-10.9604
脂	-10.9607
唯願大王	-10.9608
嶮	-10.9609
則不爾	-10.961
誹謗正法	-10.9611
盧	-10.9611
祇陀	-10.9611
百二十	-10.9612
幡	-10.9612
翅	-10.9613
所有眾生	-10.9614
瑕	-10.9615
不聞而聞	-10.9615
若因	-10.9616
曉了	-10.9617
二智	-10.9619
賞	-10.9622
殖	-10.9622
氷	-10.9623
怨賊	-10.9625
搆	-10.9626
豫	-10.9627
何等為五	-10.9627
涼	-10.9627
盈	-10.9628
性地	-10.963
總釋	-10.9632
今問	-10.9632
起發	-10.9633
宿命	-10.9637
名分別答	-10.9637
恭敬供養	-10.9637
是外	-10.9641
勝負	-10.9644
念慧	-10.9644
號哭	-10.9644
文句	-10.9646
真身	-10.9646
而諸眾生	-10.965
不畜	-10.9651
未達	-10.9653
唯願世尊	-10.9658
能證	-10.9659
亦無有	-10.9659
十誦	-10.9662
能信	-10.967
實行	-10.9674
憂苦	-10.9674
不免	-10.9682
不得自在	-10.9682
生歡喜	-10.9683
先總	-10.9686
一佛	-10.9686
而云	-10.9686
三時	-10.969
寧得	-10.9694
華果	-10.9694
道果	-10.9696
▁三釋	-10.9699
此即第一	-10.97
毀禁	-10.9706
觀也	-10.9706
江河	-10.9707
人謂	-10.9707
以證	-10.9711
受果	-10.9715
塵垢	-10.9721
深密	-10.9722
既自	-10.9723
▁二正答	-10.9723
不過	-10.9725
遍知	-10.9727
決定說	-10.9727
非我弟子	-10.973
即具	-10.9736
能通	-10.9736
永盡	-10.9737
悲喜	-10.9745
□□	-10.9746
而般涅槃	-10.9751
上首	-10.9753
通舉	-10.9756
發聲	-10.9763
即滅	-10.9767
大神通	-10.9768
先後	-10.978
若此	-10.978
拔苦	-10.9782
之緣	-10.9789
月光	-10.9789
廣答	-10.9792
餘法	-10.9796
成上	-10.9798
恣	-10.9803
不果所願	-10.9806
義當	-10.9808
躡	-10.9809
直以	-10.9809
受想行識亦復如是	-10.9809
非想非非想	-10.981
無常苦空無我	-10.9813
餓	-10.9814
娑羅雙樹	-10.9816
目犍連	-10.9816
倡	-10.9817
三難	-10.9818
逢	-10.982
鶴	-10.9822
旋	-10.9823
顧命	-10.9824
因生	-10.9824
沈沒	-10.9824
頭面作禮	-10.9825
雞	-10.9825
明闡提	-10.9827
瘡疣	-10.9829
極重	-10.9829
崇	-10.9831
沮	-10.9831
十八界	-10.9833
正使	-10.9835
求索	-10.9839
了達	-10.984
善護	-10.9841
是以言	-10.9844
前言	-10.9846
為第一	-10.9849
▁初唱	-10.985
本自	-10.9852
▁初正明	-10.9853
本為	-10.9855
今世	-10.9863
復云	-10.9865
五番	-10.9865
為言	-10.9867
為度眾生	-10.9867
後更	-10.9868
善五陰	-10.9872
王者	-10.9874
即中	-10.9876
知我	-10.9877
覺悟	-10.9879
之惡	-10.9881
冥真	-10.9882
悟道	-10.9882
望前	-10.9883
展轉相	-10.9885
眼根	-10.9886
國人	-10.9888
初教	-10.9893
無常無我	-10.9894
若我弟子	-10.9901
而當	-10.9903
化人	-10.9906
醉人	-10.9907
不能分別	-10.9914
之疑	-10.9915
中又二	-10.9921
邪常	-10.9923
▁二論義	-10.9924
正直	-10.9926
皆可	-10.9928
勸也	-10.9929
得生天	-10.9933
破也	-10.9934
德王品	-10.9934
離煩惱	-10.994
覺了	-10.9941
示義	-10.9941
戒體	-10.9945
而言之	-10.9954
定意	-10.9965
正言	-10.9966
除惑	-10.9968
眾生故	-10.997
今從	-10.997
次佛答	-10.9971
為師	-10.9972
位中	-10.9974
下第三結	-10.9976
中有五	-10.9976
食已	-10.9976
能破煩惱	-10.9976
第二人	-10.9977
▁初敘意	-10.9978
此據	-10.998
不待	-10.998
理體	-10.9981
下廣釋	-10.9982
火燒	-10.999
心神	-10.9993
經旨	-10.9998
如止觀	-10.9999
攝一切	-11.0001
莫生	-11.0003
四弘	-11.0004
凡夫人	-11.0006
合成	-11.0014
斧	-11.0014
譽	-11.0018
鑽	-11.0021
常無	-11.0021
今正是時	-11.0021
毘舍	-11.0022
未來之世	-11.0022
總非	-11.0023
各相謂言	-11.0023
死屍	-11.0023
某	-11.0024
王今	-11.0025
陋	-11.0025
腦	-11.0026
伴侶	-11.0028
神通變化	-11.0029
迦葉白下	-11.0029
不平	-11.0029
奢摩他	-11.003
逆流	-11.0032
抄	-11.0034
圖	-11.0034
進趣	-11.0034
授記	-11.0035
大迦葉	-11.0037
藏教	-11.0037
前七	-11.0037
佛告純陀	-11.0038
婆沙	-11.0038
邪惡	-11.0039
摩尼	-11.0039
奴	-11.0039
津	-11.004
納衣	-11.004
惟願如來	-11.0042
鳴	-11.0044
邪曲	-11.0045
是誰	-11.0045
變為	-11.0046
阿羅漢果	-11.0046
常有	-11.0047
無邊身菩薩	-11.0049
修苦行	-11.0049
無退	-11.0051
云何得名	-11.0052
嘆其	-11.0052
下廣顯	-11.0055
後五	-11.0056
泥曰	-11.0058
淨名云	-11.0058
第二論義	-11.0058
二解一云	-11.006
七覺	-11.0065
無漏果	-11.0065
是故為常	-11.0066
百歲	-11.0067
置答	-11.0068
一切眾	-11.0068
諸過	-11.0069
婬欲	-11.0069
亦無所	-11.007
而出	-11.0073
遙見	-11.0073
則見	-11.0077
一性	-11.0077
凡有二種	-11.0078
心識	-11.0079
觀解	-11.008
第三人	-11.008
觀法	-11.0081
悉知	-11.0081
無染	-11.0089
不差	-11.0093
離車	-11.0094
地者	-11.0097
能救	-11.0097
不調	-11.0101
四字	-11.0103
此兩	-11.0108
假設	-11.0113
為內	-11.0113
色是無常	-11.0116
見於佛性	-11.0123
摩耶	-11.0125
無累	-11.0125
開權	-11.0125
空義	-11.0126
能調	-11.0132
願力	-11.0136
亦通	-11.0136
王位	-11.0138
是經典	-11.0143
性理	-11.0144
得差	-11.0149
證果	-11.0149
何故如來	-11.015
羞	-11.0154
樹林	-11.0155
非善	-11.0157
想倒	-11.0166
亦作	-11.0166
聲聞乘	-11.0167
無為空	-11.0171
向云	-11.0172
深樂	-11.0172
常樂等	-11.0178
之主	-11.0186
五住	-11.0188
下明今	-11.0189
相與	-11.0194
是名中道	-11.0194
香氣	-11.0199
持法	-11.0202
啟請	-11.0206
能成	-11.0214
當其	-11.0216
合云	-11.022
遠離一切	-11.022
爾時佛告	-11.0223
逼切	-11.0227
六通	-11.0228
藥樹	-11.0228
▁二番	-11.0229
饑渴	-11.0229
漫	-11.0229
置之	-11.023
剛	-11.023
微妙經典	-11.023
喻真解脫	-11.0231
炬	-11.0231
篌	-11.0233
觀境	-11.0234
身戒心慧	-11.0234
香象	-11.0235
▁初番	-11.0235
穴	-11.0236
能起	-11.0237
髓	-11.0237
蜂	-11.0238
無物	-11.0238
猪	-11.0238
亦斷	-11.0238
五見	-11.0239
圍	-11.0239
此經中	-11.024
誘	-11.024
弗	-11.0241
泯	-11.0241
羸劣	-11.0241
綱	-11.0241
悲泣	-11.0242
辱	-11.0242
奇特	-11.0242
毗尼	-11.0243
鬪諍	-11.0244
由前	-11.0246
怯	-11.0247
山林	-11.0247
如燈	-11.0248
齎	-11.0248
滅道	-11.0248
頻	-11.0249
則得安樂	-11.025
危	-11.025
色像	-11.025
下云云者	-11.025
凡愚	-11.0251
別也	-11.0252
晨朝	-11.0252
感應	-11.0253
筆	-11.0256
中道也	-11.0258
雖念念滅	-11.0264
有憂	-11.0266
磨滅	-11.0266
自稱	-11.0268
為阿耨多羅三藐三菩提	-11.0268
私云	-11.027
慈愍	-11.0271
眼目	-11.0278
不會	-11.028
如子	-11.0282
非虛妄	-11.0286
不見性	-11.0287
終不能	-11.0292
十號	-11.0292
是權	-11.0295
而為說法	-11.0296
我見我	-11.0297
且舉	-11.0298
捨去	-11.0298
真道	-11.03
可信	-11.0301
甚多	-11.0307
是故不得	-11.0309
水性	-11.031
三根	-11.031
正在	-11.0312
我巳	-11.0317
慳貪	-11.0318
度生死	-11.0324
法施	-11.0328
不可聞	-11.0329
真偽	-11.0329
答初問	-11.0332
至佛所	-11.0334
亦於晨朝	-11.0336
驗知	-11.0336
生愛	-11.0337
是佛境界	-11.0342
三十心	-11.0344
以手	-11.0345
要因	-11.0349
如是菩薩	-11.0349
月喻	-11.0353
不可斷	-11.0353
詣佛	-11.0354
去住	-11.0355
不知如來	-11.0357
隨宜	-11.0359
施化	-11.0361
下第	-11.0367
愛心	-11.0368
正取	-11.0368
辟支	-11.0368
何有	-11.0369
攝法	-11.0379
如須彌山	-11.0381
安樂性	-11.0382
彰彼	-11.0387
所逼	-11.0388
為化	-11.0391
有犯	-11.0392
維	-11.0397
乃知	-11.04
方等經典	-11.0404
相續不斷	-11.0404
為小	-11.0406
奉持	-11.0407
餘義	-11.0407
莫作	-11.0408
無分	-11.041
棄捨	-11.0411
無厭	-11.0414
不遠	-11.0415
初先正	-11.0419
義通	-11.0422
巳來	-11.0423
等相	-11.0426
反顯	-11.0429
主人	-11.0435
舉彼	-11.0436
眾生壽命	-11.0438
隨自意	-11.0439
大功德	-11.0441
可生	-11.0443
法緣	-11.0445
菩薩不爾	-11.0445
入水	-11.0446
他土	-11.0448
弓	-11.0449
五逆罪	-11.045
報因	-11.0451
供養佛	-11.0451
廁	-11.0452
額	-11.0453
篋	-11.0454
妃	-11.0455
嗅	-11.0456
標釋結	-11.0456
偷蘭遮	-11.0457
田宅	-11.0458
頗梨	-11.0458
大事	-11.046
精舍	-11.0461
為利養	-11.0461
空空空	-11.0462
殿	-11.0463
灼	-11.0464
無量諸佛	-11.0464
周匝	-11.0465
靈味	-11.0466
星宿	-11.0467
為物	-11.0468
安穩	-11.0471
聰明	-11.0471
慰喻	-11.0475
過於	-11.0475
大般泥洹	-11.0478
皇	-11.0482
愚癡之人	-11.0483
是故我今	-11.0492
改悔	-11.0492
正受	-11.0495
光照	-11.0496
是故得名	-11.0496
方知	-11.0497
金剛心	-11.0497
迦葉領解	-11.05
與眾生	-11.051
說文	-11.0512
俱舍	-11.0513
師長	-11.0518
受法	-11.0519
利益眾生	-11.0522
汝諸比丘	-11.0528
則墮	-11.053
罪福	-11.0533
重復	-11.0538
十信	-11.0539
令入	-11.0541
長壽品	-11.0546
如是之義	-11.0547
貪等	-11.055
無殊	-11.0554
巳去	-11.0557
我先	-11.0569
十使	-11.0577
雖多	-11.0584
圓義	-11.0585
無救	-11.0587
相從	-11.0588
無明愛	-11.059
上言	-11.0594
正請	-11.0595
由於	-11.0596
隨其所	-11.06
不修身	-11.0601
滅巳	-11.0601
小果	-11.0602
請佛住	-11.0603
既爾	-11.0604
有餘無餘	-11.0604
我慢	-11.0605
心念	-11.0606
弘法	-11.0612
無變	-11.0612
先解	-11.0616
正教	-11.0618
未發	-11.0621
無終	-11.0622
名稱	-11.0623
頓漸	-11.0624
分果	-11.0634
非世間	-11.0636
愛著	-11.0638
正慧	-11.0651
淨信	-11.0651
無慚愧	-11.0652
香華	-11.0654
先破	-11.0654
復能	-11.0654
棃	-11.0658
來至我所	-11.0659
初譬中	-11.066
如幻化	-11.066
下明佛	-11.0665
不曉	-11.0666
鬱	-11.0667
當知即是	-11.0668
悶	-11.0669
得壽命長	-11.0669
無始無終	-11.067
來詣佛所	-11.0672
允	-11.0673
三趣	-11.0673
幸	-11.0674
從乳生	-11.0676
堅牢	-11.0676
出世法	-11.0676
挍	-11.0677
三聚	-11.0679
供養如來	-11.068
見月	-11.068
吉祥	-11.068
膝	-11.0682
休	-11.0682
摩訶摩耶	-11.0682
咽	-11.0682
跳	-11.0682
生悔心	-11.0682
佗	-11.0683
斬	-11.0683
支節	-11.0683
十方諸佛	-11.0684
正當	-11.0685
如前記	-11.0686
種植	-11.0686
十六心	-11.0687
故下文言	-11.069
以表	-11.0694
迎	-11.0695
席	-11.0696
本具	-11.0696
最為第一	-11.0698
譬如虛空	-11.0698
今亦	-11.07
觀色	-11.0704
教修	-11.0704
香山	-11.0709
述其	-11.0711
以標舉	-11.0716
不念	-11.0718
消文	-11.0718
所度	-11.0722
親屬	-11.0727
化物	-11.0728
河沙	-11.073
其土	-11.0733
生空	-11.0735
似解	-11.0738
能發心	-11.0743
密教	-11.0744
第二問	-11.0748
已滅	-11.075
如是經典	-11.0751
觀慧	-11.0755
數論	-11.0761
是倒	-11.0764
第五明	-11.0766
今答	-11.0767
十六分	-11.0767
一途	-11.0774
八難	-11.0774
共成	-11.0775
持戒比丘	-11.078
便應	-11.0782
從戒	-11.0784
知已	-11.0785
次難	-11.0786
惡象	-11.0787
易見	-11.0789
現文	-11.0791
教化眾生	-11.0792
一境	-11.0794
深奧	-11.0794
易解	-11.0797
眾寶	-11.0798
顯中道	-11.0799
出生死	-11.0801
悉是無常	-11.0801
種善根	-11.0803
八不淨	-11.0803
座上	-11.0804
離一切	-11.0804
違經	-11.0804
捨身命	-11.0805
先問後	-11.0805
不能破	-11.0807
未顯	-11.0809
如經中說	-11.0809
火滅	-11.0816
生巳	-11.0821
不無	-11.0827
不得稱	-11.0831
由心	-11.0831
性體	-11.0832
一切佛法	-11.0833
遠近	-11.0834
此閻浮提	-11.0835
遙	-11.0838
必能	-11.0841
之要	-11.0844
其母	-11.0845
所奉	-11.0848
未明	-11.0852
大智慧	-11.0853
前中初先	-11.0858
得無漏	-11.086
色香	-11.0868
善趣	-11.0868
容受	-11.087
長大	-11.0885
一色	-11.089
狐	-11.0891
開常	-11.0892
應用	-11.0892
冶城	-11.0895
鷄	-11.0895
窟宅	-11.0898
兔	-11.0899
法與非法	-11.09
駕	-11.0901
無常苦無我	-11.0902
虧	-11.0902
種諸善根	-11.0902
甞	-11.0903
覆蔽	-11.0904
綺	-11.0904
問何故	-11.0904
二品	-11.0905
良田	-11.0905
筋	-11.0906
無為法	-11.0906
丘	-11.0906
膏	-11.0906
洗浴	-11.0907
撥	-11.0907
祿	-11.0907
靡	-11.0909
若具應言	-11.091
叉	-11.0911
后	-11.0912
慇懃	-11.0914
傾動	-11.0915
率	-11.0915
折伏	-11.0916
崖	-11.0918
入大涅槃	-11.0921
名為解脫	-11.0922
後報	-11.0926
中句別有	-11.0927
縣	-11.0927
燸	-11.0928
三千大千世界所有	-11.0931
迦葉先問	-11.0934
勸人	-11.0937
如虗空	-11.0943
當得阿耨多羅三藐三菩提	-11.0944
以是義下結	-11.0944
當相	-11.0944
相似法故	-11.0945
各執	-11.0946
不消	-11.0948
首楞嚴定	-11.0949
善權	-11.0953
猛火	-11.0956
雖有佛性	-11.0956
常住無變	-11.0957
反問	-11.0958
如是等物	-11.0958
使人	-11.0967
下簡	-11.0968
畢竟涅槃	-11.0969
身色俱空	-11.097
先就	-11.0976
或可	-11.0977
不善思惟	-11.098
等事	-11.0986
服乳	-11.0989
悉有佛性	-11.0992
如日	-11.0994
施設	-11.0995
不忍	-11.0996
頂法	-11.0997
福盡	-11.0999
不發	-11.1006
不獨	-11.1009
正路	-11.1011
如其不	-11.1012
是故我言	-11.1022
無明觸	-11.1023
前譬	-11.1027
非唯	-11.1028
以辨	-11.1029
千萬	-11.1031
具說	-11.1032
獨處	-11.1032
六番	-11.1036
王而為上首	-11.1037
生死苦	-11.1037
能轉	-11.1041
為第一義	-11.1045
六十二	-11.1048
如金剛	-11.1048
一切聲聞	-11.1053
所顯	-11.1059
三釋義	-11.1064
供養恭敬	-11.1066
甘露味	-11.1068
深廣	-11.1073
能忍	-11.1074
世流布	-11.1075
驚怖	-11.1076
能入	-11.1077
生死無常	-11.1078
似如	-11.1079
異物	-11.1081
遇善友	-11.1083
一化	-11.1083
則通	-11.1087
之徒	-11.109
色性	-11.1098
則不名	-11.1099
大捨	-11.1103
散心	-11.1105
▁三明	-11.1105
修習道	-11.1106
別歎	-11.111
以來	-11.1112
所歸	-11.1121
行業	-11.1122
如一子	-11.1124
心若常者	-11.1125
無瘡疣	-11.1127
添	-11.1128
諸相	-11.1128
知根力	-11.1129
無生滅	-11.1129
不更	-11.1129
不苦不樂	-11.1129
祇夜	-11.1129
名善知識	-11.1129
自滅	-11.113
鴿	-11.1132
因緣力故	-11.1132
今涅槃	-11.1132
▁二歎	-11.1133
䟦	-11.1133
悋	-11.1134
罵辱	-11.1135
次句	-11.1136
一切眾生悉有	-11.1136
紺	-11.1137
名號	-11.1138
吞	-11.1141
衛	-11.1142
面像	-11.1142
驅遣	-11.1142
何由	-11.1143
膚	-11.1143
優劣	-11.1143
問答重顯	-11.1143
優波	-11.1144
諸文	-11.1144
竊	-11.1145
式	-11.1146
墨	-11.1147
即假	-11.1148
修伽陀	-11.1148
東西	-11.1148
辨之	-11.115
裁	-11.115
起見	-11.1152
輒	-11.1153
衣鉢	-11.1154
斯等	-11.1154
縷	-11.1155
故名涅槃	-11.1156
悲感	-11.1157
則不生	-11.1158
還歸	-11.1158
法味	-11.1158
廣博	-11.1159
三勸	-11.1159
摩訶迦葉	-11.116
現見	-11.1163
生死河	-11.1164
十二字	-11.1168
大醫	-11.1169
受學	-11.1176
親友	-11.1176
初正答	-11.1177
莊嚴云	-11.1177
末代	-11.1179
不墮地獄	-11.118
往詣	-11.1181
菩提涅槃	-11.1184
等一	-11.1186
至極	-11.1187
除無明	-11.119
能化	-11.1191
正命	-11.1199
又一解	-11.1203
五識	-11.1204
今已	-11.1208
段食	-11.1215
習學	-11.1216
為我說	-11.1218
由佛	-11.1219
三領解	-11.1222
四依品	-11.1225
四月	-11.1229
不生滅	-11.1231
消經	-11.1231
不可思	-11.1232
憐愍眾生	-11.1239
復有比丘	-11.1239
常教	-11.124
分別解說	-11.1243
乃說	-11.1243
未說	-11.1246
六趣	-11.1247
無限	-11.1254
餘有	-11.1256
巳說	-11.1259
為諸菩薩	-11.1263
空行	-11.1266
復有四	-11.1269
流出	-11.1274
悉共	-11.1275
梵云	-11.1276
因因性	-11.1278
所照	-11.1278
即無常	-11.1281
通示	-11.1282
見佛性故	-11.1286
不明了	-11.1287
伊字	-11.1287
所住處	-11.1289
六人	-11.129
大雨	-11.1291
二家	-11.1291
異義	-11.1292
又為二	-11.1297
善因	-11.13
結上	-11.1306
報果	-11.1312
常解	-11.1312
除煩惱	-11.1312
自立	-11.1313
一切諸法皆	-11.1315
境界性	-11.1322
遠行	-11.1324
見倒	-11.1327
義理	-11.1329
無因果	-11.1334
苦滅	-11.1344
一明如來	-11.1346
化益	-11.1347
畢竟無	-11.1348
通明	-11.1357
刑	-11.1361
書寫解說	-11.1361
困	-11.1361
南本大般涅槃經會疏	-11.1362
今取	-11.1366
逝	-11.1366
初牒	-11.1366
蝕	-11.1366
二段	-11.1368
天龍	-11.1369
稻	-11.1369
坦	-11.1369
巨富	-11.137
屠	-11.137
二鳥	-11.137
端嚴	-11.1371
嗜	-11.1373
倫	-11.1373
迦毗羅	-11.1373
如是等輩	-11.1374
僕使	-11.1374
籌量	-11.1374
鬘	-11.1375
伸	-11.1375
孰	-11.1375
麗	-11.1376
勇猛	-11.1378
所得福德	-11.1378
劍	-11.1379
總以結	-11.138
多欲	-11.138
安慰	-11.1381
荼	-11.1381
如法華	-11.1382
等無有異	-11.1382
悔恨	-11.1382
念念生滅	-11.1382
▁初標示	-11.1383
削	-11.1384
履	-11.1384
頑	-11.1385
塵勞	-11.1385
策	-11.1386
谷	-11.1386
德行	-11.1388
求於	-11.1388
從他聞	-11.1388
俟	-11.139
出入息	-11.1392
盛滿	-11.1396
思惟其義	-11.1396
捉持	-11.1396
南山	-11.1396
恭敬禮拜	-11.1397
自下第二明	-11.1399
對問	-11.14
報佛	-11.1402
遺餘	-11.1402
長夜	-11.1403
高廣	-11.1404
奔	-11.1405
多食	-11.1411
既同	-11.1418
不自在	-11.1419
有漏之法	-11.1419
現滅	-11.1422
猶如虗空	-11.1423
以自在故	-11.1426
同一佛性	-11.1429
起諍	-11.143
不妨	-11.1433
未來有	-11.1436
偏據	-11.1439
酬其	-11.1439
在生死	-11.1439
得人身	-11.144
相隨	-11.1441
那由他	-11.1441
佛答中	-11.1444
多含	-11.1448
釋所以	-11.1449
不能治	-11.1454
明無我	-11.1457
所讚	-11.1461
廣出	-11.1463
剎那	-11.1466
常不變易	-11.1466
常住之法	-11.1467
則易	-11.1469
能知如來	-11.147
如來知時	-11.147
更舉	-11.1473
歸佛	-11.1473
傳云	-11.148
廣前	-11.1482
歎佛	-11.1492
昔為	-11.1496
師子吼品	-11.1497
佛性體	-11.1505
皆是無常	-11.1507
可救	-11.1508
道路	-11.151
辦供	-11.1511
界內外	-11.1526
猶在	-11.1533
眾生不解	-11.1535
得安樂	-11.154
其家	-11.1545
誰是	-11.1545
辨釋	-11.1546
約之顯	-11.1549
勤苦	-11.1551
水火	-11.1552
▁初歎	-11.1553
受果報	-11.1558
論人	-11.1558
吾我	-11.1558
遇緣	-11.156
意根	-11.1568
通惑	-11.1571
前起後	-11.1573
爾時大眾	-11.1584
內證	-11.1585
別人	-11.1587
以況	-11.1591
理應	-11.1597
醫師	-11.1597
不殊	-11.1599
師子吼菩薩言	-11.1601
且就	-11.1605
其間	-11.1605
心懷愁惱	-11.1606
提婆達	-11.1606
攀	-11.1612
暫出還沒	-11.1612
突吉羅	-11.1613
紫	-11.1614
周旋	-11.1614
文為兩	-11.1614
如來常住不變	-11.1614
邑	-11.1614
欲漏	-11.1615
第十二	-11.1615
是人雖	-11.1616
擊	-11.1616
生大苦惱	-11.1616
苦味	-11.1619
在在處處	-11.162
革	-11.1622
意密	-11.1622
螫	-11.1623
軸	-11.1624
▁初引	-11.1624
黎	-11.1624
結前生後	-11.1625
若有沙門	-11.1627
否	-11.1627
勝三修	-11.1629
三世諸佛	-11.163
枝葉	-11.1631
上求下化	-11.1632
士夫	-11.1636
贊	-11.1637
沈水	-11.1639
癈	-11.1641
不虗	-11.1643
顯露	-11.1644
佛德	-11.1649
爭論	-11.165
□□□□	-11.1651
今論	-11.1652
樹神	-11.1655
誡聽	-11.1655
人師	-11.1656
能害	-11.1657
入胎	-11.1659
醫方	-11.1662
何故不見	-11.1663
譬如父母	-11.1663
m	-11.1663
一千	-11.1666
出家人	-11.1668
照了	-11.1669
妄心	-11.1676
淨天	-11.1676
且置	-11.1677
瑞應	-11.1678
前中初	-11.1679
所失	-11.1681
之根本	-11.1681
有三意	-11.1689
意如何	-11.169
甚深義	-11.169
物情	-11.1692
初總示	-11.1702
亦隨	-11.1702
莫不	-11.1703
有大威德	-11.1705
正智	-11.1716
如海	-11.1716
思量	-11.1717
文廣	-11.172
善巧	-11.172
中最	-11.172
信根	-11.1721
在何處	-11.1725
諸山	-11.1725
法藥	-11.1728
前白佛言	-11.1728
述意	-11.1728
者只是	-11.1729
無形	-11.1736
來問	-11.1739
九法	-11.1739
譬如國王	-11.174
屬於	-11.1741
又兩	-11.1742
結盡	-11.1742
無比	-11.1742
人情	-11.1744
城內	-11.1745
故名如來	-11.175
▁二別	-11.1755
如前說	-11.1756
於此處	-11.1758
絕名	-11.1764
諸餘	-11.1765
滅處	-11.1766
先唱	-11.1767
只此	-11.1772
為他說	-11.1773
妙色	-11.1775
廣宣	-11.1779
聖果	-11.178
無所不	-11.1787
經曰	-11.1788
昔言	-11.1789
如是之言	-11.179
不應說言	-11.1791
未見佛性	-11.1791
亦須	-11.1793
分舍利	-11.1794
受五欲	-11.1794
今於此	-11.1797
方法	-11.1798
結業	-11.1798
豪	-11.1799
聞佛說	-11.1802
為世諦	-11.1803
極惡	-11.1817
心得解脫	-11.1819
度人	-11.1819
涅槃是常	-11.1822
地已上	-11.1823
生蘇	-11.1825
何益	-11.1827
總答	-11.1829
就後	-11.1831
之位	-11.1831
空慧	-11.1834
所趣	-11.1835
無餘義	-11.1837
偈文	-11.1837
斷處	-11.1839
無去來	-11.1842
慰	-11.1843
又為三	-11.1845
死魔	-11.1847
憫	-11.1849
兩亦	-11.1856
有七種	-11.1858
凍	-11.1859
奪其	-11.1861
空不空	-11.1861
作是觀時	-11.1861
橋	-11.1861
於四諦	-11.1863
鄭	-11.1865
朗	-11.1866
後方	-11.1867
寶物	-11.1867
如前釋	-11.1867
甚奇	-11.1868
光明遍照高貴德王菩薩摩訶薩	-11.1869
是第一義	-11.1869
疲	-11.1869
不可翻	-11.187
即從坐起	-11.187
損減	-11.187
當知是輩	-11.187
精勤修習	-11.1871
第二廣	-11.1871
次解	-11.1872
錢財	-11.1872
瓦	-11.1874
救濟	-11.1874
高貴	-11.1875
等侶	-11.1876
我亦不說	-11.1876
坻	-11.1876
悕	-11.1876
能為眾生	-11.1877
逃	-11.1878
死想	-11.1878
震動	-11.1879
億那術百千	-11.1879
前八	-11.188
客醫	-11.188
▁初合	-11.1881
緣覺所知	-11.1881
修敬已畢	-11.1882
開權顯實	-11.1882
紹	-11.1885
橫竪	-11.189
斷諸煩惱	-11.1891
六難	-11.1892
今開	-11.1893
中初一	-11.1894
梵音	-11.1895
文中初言	-11.1897
嘿	-11.1897
百千億	-11.1899
空閑	-11.1899
如法住	-11.19
普照	-11.1903
結示	-11.1904
如師子王	-11.1904
是世諦	-11.1905
常應	-11.1907
本處	-11.1909
十秊	-11.191
無辜	-11.1911
所污	-11.1911
略標	-11.1913
摩訶薩	-11.1918
百千萬	-11.1919
面門	-11.1921
識支	-11.1921
不曾	-11.1923
法服	-11.1925
有十二	-11.1928
障法	-11.1931
八相	-11.1931
亦不定	-11.1932
顯性	-11.1933
成無上道	-11.1933
不造	-11.1934
□□□□□□□□□□	-11.1934
出家之人	-11.1934
不害	-11.1937
象牙	-11.1938
佛號	-11.1939
神變	-11.1942
無親	-11.1942
七句	-11.1943
右脇	-11.1945
之稱	-11.1952
佛性非內非外	-11.1962
娑羅樹	-11.1964
自害	-11.1966
記論	-11.1969
第七人	-11.1969
日出	-11.198
如來密語	-11.1988
悲心	-11.1988
眾會	-11.1991
何因	-11.1991
宜應	-11.1993
所欲	-11.1996
不改	-11.1997
於父母	-11.2004
能增長	-11.2006
歸於	-11.2015
之失	-11.2017
正體	-11.2018
天地	-11.2019
禮佛	-11.2019
始自	-11.2021
假說	-11.203
釋題	-11.2031
現用	-11.2031
標列	-11.2032
雜色	-11.204
釋迦文	-11.2048
▁二今明下	-11.2048
不從緣生	-11.2052
何別	-11.2066
還入	-11.2075
實智	-11.2077
正約	-11.2077
斥他	-11.2078
惑盡	-11.2089
三十四	-11.2091
當機	-11.2093
來去	-11.2098
作菩提因	-11.2099
百八	-11.2103
第三重	-11.2104
大歡喜	-11.2105
攝盡	-11.2105
知幻	-11.2106
潔	-11.2109
既具	-11.211
後就	-11.2111
劫數	-11.2111
便成	-11.2111
更無異	-11.2112
羅睺	-11.2113
即真解脫真解脫者即是如來	-11.2114
鼠	-11.2114
下結成	-11.2115
整	-11.2116
真解脫者則不如是	-11.2117
摩醯首羅	-11.2117
胡麻	-11.2119
舍衛	-11.212
不可說言	-11.2121
嬰	-11.2122
側	-11.2123
穀米	-11.2123
爪	-11.2124
熟酥	-11.2124
神明	-11.2125
牟尼	-11.2126
唯有一子	-11.2126
渧	-11.2127
啼泣	-11.2127
嬈	-11.2129
不縱不橫	-11.2129
陶	-11.2129
有問有答	-11.2129
不惜身命	-11.2129
之日	-11.213
右手	-11.2131
妬	-11.2132
迫	-11.2132
勵	-11.2132
地水火風	-11.2133
寡	-11.2133
常壽	-11.2133
非內外	-11.2135
非物	-11.2135
欽	-11.2135
陷	-11.2135
此經復有諸佛菩薩	-11.2135
所作已辦	-11.2135
秉	-11.2135
賢劫	-11.2137
迦葉菩薩言世尊	-11.2138
籍	-11.2139
筏	-11.2139
儒	-11.2141
匿	-11.2144
佛性是常	-11.2146
青黃	-11.2146
開敷	-11.2147
速疾	-11.2148
下第三明	-11.2148
阿耨菩提	-11.2148
軟語	-11.2148
蘊	-11.2151
是真諦	-11.2153
聲召	-11.2154
特勝	-11.2156
良藥	-11.2159
六十二見	-11.216
長存	-11.2164
皆歸	-11.2166
巳破	-11.217
報恩	-11.217
無所有處	-11.2171
緣盡	-11.2172
所犯	-11.2177
但舉	-11.218
下合可知	-11.218
法譬合	-11.2182
億劫	-11.2185
即三德	-11.219
章句	-11.2193
唯除菩薩	-11.2195
甚難	-11.2196
得福	-11.2198
日夜	-11.2199
師子座	-11.2203
如來正覺	-11.2204
犯罪	-11.2207
偏真	-11.2208
諮受	-11.2209
無始空	-11.2209
教令	-11.221
內外空	-11.222
利益安樂	-11.2222
不息	-11.2222
機感	-11.2224
歸戒	-11.2226
大施	-11.2228
敬重	-11.2236
圓人	-11.224
二十四	-11.2241
沙門婆羅門	-11.2242
結集	-11.2244
性滅	-11.2247
告阿難言	-11.2247
常理	-11.2248
與奪	-11.2248
平等心	-11.2252
隨化	-11.2255
下釋疑	-11.2255
堅實	-11.226
大火	-11.2261
古師	-11.2266
諸陰	-11.2269
教勅	-11.227
善本	-11.227
法爾	-11.2272
從因生	-11.2279
能益	-11.2283
故名為常	-11.2284
告諸比丘	-11.2293
文中先	-11.2296
偏舉	-11.2303
句義	-11.2303
之福	-11.2305
惡世	-11.2305
具十	-11.2306
未熟	-11.2308
成正覺	-11.2315
歷別	-11.2315
須彌山王	-11.2316
所以言	-11.2321
權智	-11.2322
終不為	-11.2322
老病死	-11.2325
道力	-11.233
徵破	-11.2333
起卷	-11.2334
然後得	-11.2336
隨我	-11.2349
五德	-11.2357
稱曰	-11.2364
慈即如來	-11.2364
生怖畏	-11.2366
因滅是色	-11.2368
戀	-11.2369
真實法	-11.2372
成菩提	-11.2374
阿耨	-11.2375
智者當觀	-11.2376
佛入涅槃	-11.2378
無障礙	-11.2378
白王	-11.2378
非色非非色	-11.2379
第二第三	-11.2379
無上正真道	-11.2381
觀五陰	-11.2381
先陀婆	-11.2382
可數	-11.2383
證道	-11.2385
一音	-11.2386
八大人覺	-11.2388
因緣故生	-11.2389
諸優婆塞	-11.2389
勉	-11.239
克	-11.2393
斤	-11.2393
伎藝	-11.2394
洹	-11.2394
壓	-11.2395
扣	-11.2395
調柔	-11.2395
才	-11.2396
舉聲	-11.2397
飲酒	-11.2398
婬女	-11.2399
世性	-11.2399
從他生	-11.2399
左傳	-11.24
繼	-11.24
又二先明	-11.24
初示	-11.2402
渠	-11.2403
涅槃河	-11.2404
發誓願	-11.2404
讖	-11.2411
無緣慈	-11.2415
別舉	-11.2416
險難	-11.2417
以不見故	-11.2418
無因無果	-11.242
墮獄	-11.2423
度無極	-11.2426
都盡	-11.2435
念戒	-11.2438
不謗	-11.2438
就文為二	-11.244
文中云	-11.2455
自地	-11.2456
七支	-11.2458
中四句	-11.2469
立喻	-11.2473
遮請	-11.2475
亦曰	-11.248
快說	-11.248
餘方	-11.248
迷惑	-11.2481
斥非	-11.2483
菩薩所行	-11.2488
即三諦	-11.2489
解脫德	-11.2494
應化	-11.2495
眾鳥	-11.2503
迷悶	-11.2516
如來境界	-11.2519
之門	-11.2522
次科	-11.2522
勿令	-11.2524
悶絕	-11.2531
不習	-11.2531
之屬	-11.2532
何必	-11.2563
於如來所	-11.2566
既然	-11.257
欲令眾生	-11.2571
物機	-11.2577
未除	-11.2581
示滅	-11.2583
十地菩薩	-11.2585
諸方	-11.2587
如來正法	-11.2593
更不復	-11.2595
十萬	-11.2601
有餘涅槃	-11.2606
天神	-11.2609
答第二問	-11.2611
何妨	-11.2618
以大涅槃心修	-11.2618
第十六	-11.2619
十恒河沙	-11.2624
須知	-11.2627
專心	-11.263
如是安樂亦名涅槃	-11.2638
且據	-11.2643
現果	-11.2646
共貪生	-11.2648
果中說因	-11.2649
刈	-11.2649
已有還無	-11.2651
為他廣說	-11.2651
毘婆舍那	-11.2651
乃云	-11.2651
陣	-11.2653
在地獄	-11.2653
苦痛	-11.2654
矜	-11.2654
凝	-11.2654
念天	-11.2654
囑	-11.2655
名字功德品	-11.2656
懈	-11.2656
牢	-11.2656
唱如是言	-11.2656
湯	-11.2657
註	-11.2657
次解釋	-11.2659
纖	-11.2661
我滅度後	-11.2661
逼迫	-11.2662
具煩惱性	-11.2663
販賣	-11.2664
裹	-11.2664
仲	-11.2668
犬	-11.2668
離垢威	-11.2668
五盛陰苦	-11.2669
謗方等經	-11.267
飯食	-11.267
膩	-11.2671
無作無受	-11.2672
相望	-11.2674
動地	-11.2679
字誤	-11.2679
題品	-11.268
約位	-11.268
秀	-11.2684
七譬	-11.2684
忻	-11.2685
苦本	-11.2689
方言	-11.2689
滅不滅	-11.269
千倍	-11.269
十方世界	-11.2691
若干	-11.2691
逆順	-11.2692
無作四諦	-11.2693
四章	-11.2693
末香	-11.2695
常即無常	-11.2696
外計	-11.2696
六卷云	-11.2697
雜華	-11.2698
悉當	-11.2698
無際	-11.2703
傍論	-11.2703
潤業	-11.2703
多羅樹	-11.2704
是義不然何以故	-11.2706
是名知足	-11.2708
無有一法	-11.2711
至不至	-11.2712
汎明	-11.2712
世事	-11.2713
不可言	-11.2716
雙用	-11.2716
億百千	-11.2718
智度	-11.272
還來	-11.2724
非二乘所	-11.2724
略不論	-11.273
次何以故下	-11.2733
常住二字	-11.2735
住一劫	-11.274
教授	-11.274
墮惡	-11.2741
出三界	-11.275
濕生	-11.2761
成就具足	-11.2764
身密	-11.2764
濁水	-11.2765
未久	-11.2766
或說有	-11.2766
雖不見	-11.2768
長者子	-11.277
惡獸	-11.2774
却後	-11.2776
如來滅後	-11.2777
隨俗	-11.2786
於諸法	-11.279
和上	-11.2791
安止	-11.2793
如是說者	-11.2807
斷肉	-11.2815
故不可說	-11.2818
不可依	-11.2819
上文云	-11.2821
無慚	-11.2824
無目	-11.2826
今入涅槃	-11.2829
彼國	-11.2834
斯乃	-11.284
非獨	-11.2841
十戒	-11.2843
先勸	-11.2851
亦常無常	-11.2853
讚問	-11.2853
其所立	-11.2858
放光明	-11.2863
三總結	-11.2864
重難	-11.2866
八戒	-11.2866
明佛無	-11.2869
下引證	-11.2873
集眾	-11.2873
出沒	-11.2879
慧解脫	-11.2879
初中二	-11.2881
正信	-11.2898
寧非	-11.2898
照境	-11.2898
除去	-11.2901
往彼	-11.2902
何故不說	-11.2902
不倒	-11.2904
真寶	-11.2906
阿脩羅	-11.2907
自然而	-11.2909
身內	-11.2909
婆私吒	-11.291
入海	-11.2913
形色	-11.2914
悲號	-11.2915
八住	-11.2917
日東天台沙門本	-11.2923
若佛初出得阿耨多羅三藐三菩提	-11.2923
疾病	-11.2924
窟	-11.2925
過去現在未來	-11.2925
寂滅為樂	-11.2927
尸波羅蜜	-11.2928
能消	-11.2928
乳有酪	-11.293
宋代沙門慧嚴等依泥洹經加之	-11.293
犢	-11.2931
聞是事已	-11.2932
啖	-11.2933
覓	-11.2933
醜陋	-11.2934
算數	-11.2934
闊	-11.2935
茶毘	-11.2935
悲惱	-11.2935
是亦不然	-11.2935
寒熱	-11.2935
有譬有合	-11.2936
吾當為汝分別解說	-11.2936
醪	-11.2937
昔來	-11.2937
眴	-11.2938
說無量名	-11.2939
二施果報等無差別	-11.2939
憒閙	-11.294
秘密	-11.294
奈	-11.2942
右遶三匝	-11.2942
彩	-11.2942
金剛三昧亦復如是	-11.2943
毘尼	-11.2944
在胎	-11.2944
純善	-11.2945
南無	-11.2945
覽	-11.2946
浴池	-11.2946
音樂	-11.2947
定知無我	-11.2951
橫豎	-11.2953
受持禁戒	-11.2953
談常	-11.2953
常樂我	-11.2954
毘舍離	-11.2954
持禁戒	-11.2955
魏	-11.2956
貯	-11.2957
譬如有王	-11.2958
消除	-11.2959
香木	-11.2959
能伏	-11.2959
琉光	-11.2959
𤏙	-11.296
塗香	-11.296
堪忍地	-11.2961
止悲	-11.2962
生死即涅槃	-11.2964
我今此身	-11.2964
得阿那含	-11.2966
補處	-11.2971
出家修道	-11.2973
列章	-11.2975
利刀	-11.2976
若有我者	-11.2976
舊釋	-11.2977
方所	-11.2977
稱美	-11.2977
淺近	-11.2978
未證	-11.2981
之末	-11.2981
伹是	-11.2983
猶存	-11.2984
下約顯法	-11.2985
生死之中	-11.2987
昔無常	-11.299
執小	-11.2992
得善果	-11.2992
不燒	-11.2993
遺教經	-11.2993
寶蓋	-11.2993
無妨	-11.2994
邪業	-11.2997
頓制	-11.2998
大婆羅門	-11.2998
害父	-11.3005
迦葉白佛言	-11.3006
下合顯	-11.3012
論家	-11.3022
轉障	-11.3023
喜心	-11.3025
種種示現	-11.3026
惑亂	-11.3027
略而不	-11.3029
何等四	-11.303
求那	-11.303
未脫	-11.3032
乃可	-11.3032
而為上首	-11.3036
問為二	-11.3038
乖理	-11.3042
悉入	-11.3047
法印	-11.305
利智	-11.305
生梵天	-11.3051
之首	-11.3058
四無閡	-11.3059
諸外道等	-11.3065
無有差別	-11.3066
修習智慧	-11.3075
過現	-11.3075
河水	-11.3075
邪命	-11.3083
犯波羅夷	-11.3093
次一行	-11.3097
開解	-11.31
思議	-11.3103
邊無邊	-11.3105
有二解	-11.3107
勸學	-11.3108
下彰其	-11.3108
通序	-11.3112
隨事	-11.3113
苦治	-11.3113
四悉意	-11.3118
機宜	-11.3118
無我想	-11.3126
自度	-11.3129
佛復告	-11.3133
斷命	-11.3141
結請	-11.3146
苦海	-11.3147
隨文正釋	-11.3149
其始	-11.315
皆有佛性	-11.3154
當知是等	-11.3158
為欲利益	-11.3159
大山	-11.3166
兩解	-11.3182
開密	-11.3191
溼	-11.3199
旦	-11.3201
文為四一	-11.3202
敕	-11.3204
各各自	-11.3206
當知是慈是聲聞慈	-11.3207
雄	-11.3208
所宜	-11.3209
晉沙門慧嚴慧觀謝靈運重治	-11.321
諫	-11.3211
庫藏	-11.3211
剃髮	-11.3212
文殊師利法王子	-11.3213
出家學道	-11.3214
佉陀羅	-11.3216
賈	-11.3217
滓	-11.3217
苦集滅道	-11.3217
輔	-11.3218
優鉢羅	-11.3219
揣食	-11.3219
練	-11.322
慄	-11.3221
彗星	-11.3221
能隨問答	-11.3221
摩訶衍般泥洹經	-11.3222
具足無缺	-11.3222
禽獸	-11.3222
後段	-11.3222
償	-11.3223
波羅㮈	-11.3224
是故菩薩名無所得	-11.3224
重擔	-11.3225
布薩	-11.3226
忿	-11.3226
房	-11.3226
人中象王	-11.3227
澡	-11.3228
同於諸行	-11.3229
生惡國	-11.323
虛偽	-11.3232
政	-11.3233
潛	-11.3233
牛馬	-11.3234
好醜	-11.3235
蹈	-11.3235
如其有者	-11.3236
反說文	-11.3237
頂戴	-11.3237
消息	-11.3239
上二界	-11.324
自了	-11.324
劫奪	-11.3241
心心數法	-11.3241
惡口	-11.3242
重請	-11.3242
教誡	-11.3242
勸觀	-11.3245
執無常	-11.3247
琉璃光	-11.3247
主親師	-11.3247
華香	-11.3248
如夢	-11.3249
迷悟	-11.3249
兩舌	-11.325
無非法界	-11.3251
善巧方便	-11.3251
義說為	-11.3252
稱理	-11.3253
是名少欲	-11.326
阿羅漢人	-11.326
知有我者	-11.326
真解脫者	-11.3262
行般	-11.3267
明醫	-11.3267
徵責	-11.3268
八番	-11.3268
隱沒	-11.3269
灰斷	-11.3271
處胎	-11.3271
其餘諸	-11.3272
正示	-11.3272
歡喜踊躍	-11.3274
好惡	-11.3278
兜率天	-11.328
諸比丘等	-11.3281
凡有五	-11.3282
常念	-11.3285
合會	-11.3287
外化	-11.3288
涅槃無因	-11.3292
全同	-11.3294
所縛	-11.3297
如法華中	-11.3298
華嚴云	-11.3299
悔過	-11.3299
帝王	-11.3305
無作戒	-11.3311
徵起	-11.3312
聞正法	-11.3314
黃金	-11.3314
告言	-11.3315
例知	-11.3322
此三千大千世界	-11.3324
妙覺如來	-11.3333
解脫三昧	-11.3335
波羅夷	-11.3336
是名顛倒	-11.3336
聖教	-11.3342
作禮	-11.3349
不關	-11.3356
一萬	-11.3357
巳證	-11.3371
待對	-11.3372
若無常者	-11.3378
先立	-11.3381
百論	-11.3385
愛樂大乘	-11.3389
即作是念	-11.3391
入無餘	-11.3392
斷善根人	-11.3394
忉利	-11.3397
初先法說	-11.3403
正宗	-11.3407
第二句中	-11.3411
實理	-11.3414
深信	-11.3418
大般涅槃經卷第	-11.3422
忍法	-11.3424
無量劫中	-11.3429
簡出	-11.3429
譯人	-11.3435
何獨	-11.3438
諸仙	-11.3439
二十八	-11.344
有為空	-11.344
過去諸佛	-11.3448
□□□□□□□□□	-11.3458
普為	-11.346
力用	-11.3461
菩薩大士	-11.3466
終始	-11.3466
服毒	-11.3475
得長壽	-11.3478
善性	-11.3484
電	-11.3486
耎	-11.3498
不能發	-11.35
與上樂	-11.35
得入涅槃	-11.3502
誨	-11.3502
證信	-11.3502
尼犍	-11.3504
唾	-11.3504
歡	-11.3505
各隨	-11.3506
復有諸佛菩薩大雲不退	-11.3506
鎖	-11.3508
有病行處	-11.3508
二論義	-11.3508
敦	-11.3509
耕	-11.351
族姓	-11.3511
犯重禁	-11.3511
渴乏	-11.3512
是大乘典大涅槃經	-11.3513
宰	-11.3513
雄猛	-11.3515
毀呰	-11.3516
欝單越	-11.3516
祐	-11.3516
淨威力士	-11.3516
屍	-11.3516
飛鳥	-11.3519
愛別離苦	-11.352
無瞋	-11.352
還生善根	-11.352
粮	-11.3521
饒益	-11.3521
債	-11.3521
倉	-11.3521
辰	-11.3521
深邃	-11.3523
卵生	-11.3523
輪迴	-11.3525
伽羅	-11.3525
下就設難	-11.3526
魚肉	-11.3526
如其無者	-11.3526
淪	-11.3526
坐臥	-11.3527
喧	-11.3528
娛樂	-11.3528
從因至果	-11.3529
不相關	-11.3529
悕望	-11.353
無常苦等	-11.3531
生老死	-11.3532
凡夫愚人	-11.3533
從禪定起	-11.3533
通利	-11.3534
紅	-11.3535
沙門那	-11.3535
野干	-11.3536
深智	-11.3536
差別之相	-11.3538
按	-11.3538
▁初正答	-11.354
標舉	-11.354
二十五諦	-11.3541
康	-11.3543
修八聖道	-11.3543
金沙	-11.3543
絲	-11.3549
一旦	-11.355
澤州云	-11.3551
貪瞋	-11.3556
根塵	-11.3563
五趣	-11.3565
毀壞	-11.3565
一切諸行	-11.3575
六味	-11.3576
讚曰	-11.3578
不如一	-11.3579
食噉	-11.3582
何曾	-11.3582
輪轉生死	-11.3583
緣宜	-11.3591
平正	-11.3593
何意	-11.3594
名大法師	-11.3597
此亦不可	-11.3598
敘意	-11.3601
漸頓	-11.3603
總歎	-11.3609
審定	-11.361
違順	-11.3623
空無我	-11.3628
初中先	-11.3629
約顯法	-11.3631
無量無邊眾生	-11.3636
無盡意	-11.3637
聞思	-11.3638
十句	-11.3641
無量劫來	-11.3641
十月	-11.3649
轉變	-11.3665
簡異	-11.3667
能障	-11.3671
眾生有佛性	-11.3678
毀犯	-11.3682
如是等事	-11.3688
非短	-11.3689
法身德	-11.369
答前問	-11.369
謂一闡提	-11.3697
種類	-11.3702
喜樂	-11.3706
大海水	-11.3707
世間之人	-11.3714
五蓋	-11.372
當為汝說	-11.3723
句句	-11.3726
皆須	-11.3729
嘆經	-11.3731
顯了	-11.3736
中有六	-11.3737
名之為常	-11.3743
善男子如汝所言	-11.3747
風雨	-11.3752
供佛	-11.3753
取滅度	-11.3755
三德涅槃	-11.3757
現化	-11.376
近遠	-11.3767
及諸菩薩	-11.377
實無所	-11.3771
前進	-11.3788
來詣	-11.3791
鎌	-11.3791
力強	-11.3796
共俱	-11.3797
蟁	-11.3803
諸眾生皆有佛性	-11.3804
純分會南本大般涅槃經會疏卷第	-11.3807
六位	-11.3809
是因非果	-11.3811
如佛言曰	-11.3812
剃除鬚髮	-11.3812
𦦨	-11.3812
或時說言	-11.3815
天主	-11.3815
伎樂以供養佛	-11.3815
先譬後合	-11.3816
眉間	-11.3816
涅	-11.3817
跋提	-11.3818
先徵後	-11.3818
杜	-11.3819
踐	-11.382
暹	-11.382
如王所言	-11.382
却後三月	-11.3821
聞法已	-11.3821
解苦無苦	-11.3821
虎狼	-11.3822
何時當	-11.3823
破空是	-11.3823
復有人言	-11.3823
珊	-11.3824
若不爾者	-11.3826
隋章安頂法師撰唐天台沙門湛然再治	-11.3827
爽	-11.3828
辭無礙	-11.3828
學法	-11.3829
輻	-11.3829
貿易	-11.3829
無罣礙	-11.383
鵝	-11.383
拙	-11.383
婦女	-11.3831
余	-11.3833
因中無果	-11.3833
隻	-11.3834
舒	-11.3834
水陸	-11.3834
汝不應言	-11.3834
不放逸法亦復如是	-11.3835
賓	-11.3835
輕賤	-11.3836
教主	-11.3836
名第一義空	-11.3837
迦葉佛時	-11.3837
枕	-11.3838
下對釋之	-11.3838
貪恚	-11.384
下對前	-11.384
身口意業	-11.3843
十億	-11.3844
何關	-11.3846
苦忍	-11.3847
之所恭敬	-11.3849
終不生於	-11.385
停住	-11.385
敷演	-11.3852
凡有三種	-11.3856
虛假	-11.3858
自己	-11.3858
下辯其相	-11.3859
比丘僧	-11.3862
非無因	-11.3863
十二年	-11.3864
陳如品	-11.3865
斯陀含果	-11.3868
修捨	-11.387
阿修羅王	-11.3871
惡鬼	-11.3878
異凡	-11.3878
八術	-11.3879
弘通	-11.3879
遣使	-11.3883
為諸聲聞	-11.3892
爾時童子	-11.3893
能感	-11.3894
縛著	-11.3899
流動	-11.3903
方便示現	-11.3903
真珠	-11.3904
三密	-11.3912
疏中	-11.3917
畢定	-11.3923
惡友	-11.3923
眾中有	-11.3923
觀十二因緣	-11.3925
何等為三	-11.3926
十卷	-11.3926
加水	-11.3927
悲苦	-11.3932
十法界	-11.3934
簡闡提	-11.3935
二十年	-11.3935
諸苦惱	-11.3944
內外俱	-11.3945
群生	-11.3946
第二番問答	-11.3953
所有功德	-11.3962
九句	-11.3969
善惡業	-11.3969
方始	-11.3972
不至至	-11.3974
辨其相	-11.3978
諸大菩薩	-11.3979
契理	-11.3982
不全	-11.3984
增數	-11.3985
謗佛	-11.3992
消釋	-11.3992
易知	-11.3993
隨類	-11.3996
破遣	-11.3996
次正釋	-11.3998
兩門	-11.4002
n	-11.4005
受快樂	-11.4005
一代	-11.4011
大龍	-11.4016
重舉	-11.402
花香	-11.4022
世間虛空	-11.4027
於自身	-11.4029
退不退	-11.4032
亦不離	-11.4039
兩足	-11.4049
果果性	-11.4053
呵其	-11.4055
詣佛所	-11.4057
常不變	-11.406
高山	-11.406
諸善根	-11.4066
周徧	-11.4067
無有自性	-11.4071
復有無量	-11.4071
念僧	-11.4071
天雨	-11.4073
福報	-11.4077
小機	-11.408
四無礙智	-11.4089
下釋經	-11.4094
尸羅	-11.4097
變易生死	-11.4098
偈答	-11.4103
滅沒	-11.4105
遇斯光	-11.4105
蒼	-11.4106
疏釋	-11.4108
同虗空	-11.4112
六萬	-11.4116
討	-11.4118
牆壁	-11.4122
川	-11.4122
s	-11.4123
垢穢	-11.4123
矟	-11.4123
王即答言	-11.4124
捕	-11.4125
牢獄	-11.4125
坐起	-11.4125
毱多	-11.4126
鎧	-11.4127
澄	-11.4127
牛糞	-11.4127
摩伽陀國	-11.4128
放大光明	-11.4128
礦	-11.4128
被破	-11.4129
春秋	-11.4129
徑	-11.413
及其眷屬	-11.4131
姊	-11.4131
仗	-11.4131
器仗	-11.4131
怪哉	-11.4131
淳	-11.4131
虧盈	-11.4133
掉	-11.4133
喉	-11.4134
分為三	-11.4134
即於佛前	-11.4134
片	-11.4134
良福田	-11.4134
軀	-11.4135
即從座起	-11.4135
皮肉	-11.4136
昔所不聞而今得聞	-11.4136
農夫	-11.4136
羊角	-11.4136
嗟	-11.4137
又二初正	-11.4139
本自有之	-11.414
學大乘者	-11.414
先舉次列	-11.4141
無明所覆	-11.4141
掃	-11.4142
當勤精進	-11.4145
自念言	-11.4146
平等無二	-11.4147
囑累	-11.4149
空假中	-11.4151
可殺	-11.4152
冶城云	-11.4153
拍	-11.4153
給施	-11.4154
乘船	-11.4154
神呪	-11.4155
三十六物	-11.4156
一道清淨	-11.416
首羅	-11.4162
迦葉菩薩復白佛言世尊	-11.4164
緣覺之人	-11.4166
金剛身品	-11.4167
雙亡	-11.4168
斯陀	-11.4172
厭患	-11.4174
如來對破	-11.4179
平聲	-11.4179
得二十五三昧	-11.4181
凡有三	-11.4182
▁初正示	-11.4189
觀機	-11.419
居家	-11.4192
不為利養	-11.4193
牒上	-11.4193
如世間人	-11.4194
未曾聞	-11.4201
所傳	-11.4206
上來第二	-11.4206
雙流	-11.4214
令諸菩薩	-11.4224
彰已	-11.4227
佛讚迦葉	-11.4227
鬼王	-11.423
畢竟清淨	-11.4232
橫死	-11.4233
尊勝	-11.4235
假實	-11.4243
分章	-11.4245
譬如長者	-11.4246
同類	-11.4246
寂滅樂	-11.425
稱機	-11.4254
寶城	-11.4261
四十九	-11.4262
作是念言	-11.4266
五部	-11.4275
法身常住	-11.428
聲聞之人	-11.4288
哀請	-11.4294
胎生	-11.4294
自活	-11.4295
r	-11.4329
若諸外道	-11.433
法華疏	-11.4333
正翻	-11.4333
三藏菩薩	-11.4342
邪執	-11.4344
寧當	-11.436
生敬信	-11.436
倒亂	-11.4365
藏法門	-11.4368
假令	-11.4388
譬如大地	-11.4389
踊躍無量	-11.4396
生死大海	-11.4397
王法門	-11.44
萬億	-11.4411
准此	-11.4419
互顯	-11.442
敬禮	-11.4429
集一切福德三昧	-11.4434
踊躍	-11.4437
無所知	-11.4438
昔所不知而今得知	-11.4439
哀受我等最後供養	-11.4439
訟	-11.444
刪	-11.4441
諛諂	-11.4444
白色	-11.4444
d	-11.4445
e	-11.4445
羂	-11.4446
瘧	-11.4446
剩	-11.4446
不般涅槃	-11.4446
化主	-11.4447
光明遍照高貴德王	-11.4447
魔王波旬	-11.4448
赦	-11.4448
互為因果	-11.4449
格	-11.445
云何如來說言	-11.4451
拘物頭	-11.4452
珂貝	-11.4453
命終之後	-11.4453
須跋陀羅	-11.4453
刻	-11.4454
杌	-11.4454
養育	-11.4455
盤	-11.4456
蠟	-11.4456
阿那律	-11.4456
梯	-11.4457
凶	-11.4458
伊蘭	-11.4458
恕	-11.4458
怠	-11.4458
耽	-11.446
艸木	-11.446
盜賊	-11.446
肩	-11.4461
四衢	-11.4462
湯藥	-11.4463
下愚	-11.4463
以不知故	-11.4463
褒	-11.4463
尼拘陀樹	-11.4464
基	-11.4464
廣為人說	-11.4464
力士生地	-11.4466
今明不爾	-11.4469
鈎	-11.447
偶	-11.447
三世有法	-11.447
熱鐵	-11.447
是謂人種	-11.4471
不須修道	-11.4471
建大義	-11.4471
節節	-11.4473
畜養	-11.4473
乳糜	-11.4474
染淨	-11.4475
孟	-11.4477
復有二人	-11.4478
委悉	-11.4479
菴羅果	-11.4479
略示	-11.448
修無常想	-11.4482
毒草	-11.4484
一時佛在	-11.4486
心大歡喜	-11.4488
匡	-11.4491
說此偈已	-11.4496
隱覆	-11.4502
到不到	-11.4504
徧一切處	-11.4504
我今當說	-11.4504
天帝釋	-11.4505
且止	-11.4511
花果	-11.4513
具足應云	-11.4513
風吹	-11.4516
維摩	-11.4517
下次合	-11.452
自慶	-11.4537
受大苦	-11.454
第十地	-11.4545
眾生身中	-11.455
種種說法	-11.4551
虛實	-11.4553
有漏無漏	-11.4572
初文又二	-11.4575
第三句中	-11.4581
將護	-11.4586
種種異	-11.4587
圓機	-11.459
五旃陀羅	-11.4595
約四教	-11.4597
大自在	-11.4599
不厭	-11.4604
問意者	-11.4605
熱惱	-11.4608
神通力	-11.4612
深重	-11.4612
若有修習	-11.4612
說妙法	-11.4617
不生生等	-11.4621
無減	-11.4624
受我供	-11.4627
且依	-11.4628
辟支佛等	-11.4631
疏記	-11.4632
攀緣	-11.4633
空聚	-11.4641
伹云	-11.4651
羅云	-11.4652
譬如二人	-11.4652
阿那含果	-11.4654
沙彌	-11.4657
無缺	-11.4663
此童子	-11.4663
應迹	-11.4664
何故爾	-11.4671
問為三	-11.4672
諸龍	-11.4684
四面	-11.4692
活命	-11.4693
先牒問	-11.4699
生死大河	-11.4701
千年	-11.4704
去聲	-11.4727
無量阿僧祇劫	-11.4727
是常住法	-11.4728
舉數	-11.473
論主	-11.4749
下疏主	-11.476
我諸弟子聞是說巳不解我意唱言如來	-11.4766
哀憫	-11.4773
斥小	-11.4773
挑	-11.4773
戀慕	-11.4776
顛	-11.4777
恒河沙等世界	-11.478
旱	-11.478
為人說	-11.4781
顏貌	-11.4781
起塔供養	-11.4782
即體而用	-11.4782
工匠	-11.4783
薩婆	-11.4783
寢	-11.4784
鴈	-11.4784
溢	-11.4785
植	-11.4785
浮囊	-11.4785
韋	-11.4785
衣服飲食	-11.4786
溫	-11.4786
不得相離	-11.4787
菴	-11.4788
故注云云	-11.4788
貶	-11.4788
一面住	-11.4789
從淺至深	-11.4789
苗稼	-11.4789
如佛先說	-11.479
沉	-11.479
澁	-11.4791
卜	-11.4792
荷負	-11.4793
輿	-11.4793
雀	-11.4794
淨潔	-11.4794
峻	-11.4794
蒲	-11.4795
師子吼菩薩言世尊	-11.4795
曇濟曰	-11.4795
捐	-11.4796
迦隣提	-11.4797
紛	-11.4797
貧賤	-11.4798
較	-11.4798
為人廣說	-11.4798
庸	-11.4799
茶	-11.4799
反質	-11.48
精血	-11.48
駈	-11.48
輕躁	-11.48
次喻後合	-11.48
如上所說	-11.4801
廣雅	-11.4802
不欣	-11.4802
嘉	-11.4803
法同喻	-11.4803
僕	-11.4804
醜	-11.4804
掘地	-11.4804
先問後辯	-11.4805
難可得	-11.4805
四部眾	-11.4806
塵土	-11.4807
戒定智慧	-11.4808
躬	-11.4808
經疏	-11.4811
云何知耶	-11.4811
辯後結	-11.4812
大般泥洹經	-11.4818
暴惡	-11.4819
當於爾時	-11.482
諸仁者	-11.4822
其心平等	-11.4824
罪垢	-11.4826
善解因緣	-11.4826
第三總結	-11.4827
仁王	-11.4829
有無量相	-11.483
辯其相	-11.4837
假緣	-11.4837
到岸	-11.4838
雲集	-11.4838
修慈心	-11.4839
得羅漢果	-11.4839
微少	-11.484
融通	-11.4843
形像	-11.4843
分別廣說	-11.4844
發迹	-11.4853
直爾	-11.4854
檀度	-11.486
繫念	-11.4864
勸持	-11.4867
實不實	-11.4868
悅樂	-11.4875
不擇	-11.4878
復次善男子菩薩摩訶薩	-11.4882
相似相續	-11.4884
道聖諦	-11.4885
遍法界	-11.4888
尚未	-11.4893
患苦	-11.4894
作了因	-11.4895
斯陀含人	-11.4898
非一切智	-11.4899
舊師	-11.4905
得四無礙	-11.4908
無量無邊阿僧祇	-11.4913
七漏	-11.4914
適時	-11.4918
所談	-11.4923
奉事	-11.4925
是故應當	-11.4927
思想	-11.4928
往反	-11.493
方等大乘經典	-11.4934
有五句	-11.4936
必由	-11.4941
指歸	-11.4953
非波羅蜜	-11.4955
始末	-11.4956
住於大乘大般涅槃	-11.4959
結嘆	-11.4963
如淨名	-11.497
後身菩薩	-11.4972
不斷佛性	-11.4985
半句	-11.4993
則見佛性	-11.5006
如芥子	-11.5015
如來法僧	-11.5021
歸三寶	-11.5021
初轉法輪	-11.5027
勸供養	-11.5041
譬如日出	-11.5042
五篇	-11.5044
佛告諸比丘	-11.5046
兜率	-11.5054
法雲	-11.5057
須陀洹果	-11.5067
憂畏	-11.508
必定當得	-11.5096
惡覺觀	-11.5106
利物	-11.5106
惟願	-11.5112
偷蘭	-11.5112
師弟	-11.5114
生死海	-11.5115
下明今釋	-11.5117
書寫經卷	-11.5118
佛言善哉善哉善男子	-11.5121
作是語已	-11.5122
6	-11.5125
醋	-11.5125
頻婆娑羅	-11.5127
受想行識	-11.5128
他心智	-11.5128
尼陀那	-11.5129
若減一劫	-11.5129
慎莫	-11.5129
唱言如來說	-11.5129
刀劍	-11.5129
技藝	-11.5129
右脇而臥	-11.513
披	-11.513
爐	-11.513
秖	-11.5131
秘	-11.5131
非雜食身	-11.5132
謗佛法僧	-11.5132
雖見佛性而不明了	-11.5132
汝莫憂悲	-11.5132
解脫即是如來	-11.5132
逾	-11.5132
及正解脫	-11.5133
不可窮盡	-11.5133
其後不久	-11.5134
紹繼	-11.5134
勿懷	-11.5134
貪瞋癡	-11.5135
病瘦	-11.5135
恭	-11.5135
偷狗	-11.5136
先法後喻	-11.5136
到於彼岸	-11.5137
悼	-11.5137
諮啟	-11.5137
婢	-11.5137
慚恥	-11.5138
完	-11.5138
算	-11.5139
復有二種一者	-11.5139
阿闍	-11.514
糧	-11.514
國王大臣	-11.514
拾	-11.5141
富蘭那	-11.5141
帳	-11.5141
盈滿	-11.5141
狸	-11.5142
褒貶	-11.5142
携	-11.5142
驅逐	-11.5142
鞞	-11.5144
衰老	-11.5144
非色非心	-11.5146
灌頂	-11.5146
卷第四	-11.5147
佛涅槃後	-11.5148
聞香	-11.5148
謀	-11.5148
高原	-11.5148
僮僕	-11.5149
工	-11.5149
敬遺記	-11.515
三惡趣	-11.515
下次明其	-11.5152
端坐	-11.5152
荊	-11.5153
金剛不壞	-11.5154
惱害	-11.5154
十一部經	-11.5157
夫涅槃者	-11.516
丹	-11.5162
點示	-11.5162
俱舍云	-11.5166
未詳	-11.5166
隨自他	-11.5168
水精	-11.5168
以此善根	-11.5169
光宅云	-11.5169
第五段	-11.5172
▁四結	-11.5172
三蒼	-11.5173
蒙佛	-11.5174
不應親近	-11.5177
千億	-11.5177
單疏第十	-11.5178
甚深之義	-11.518
調適	-11.5187
法身常身	-11.5198
設使	-11.5198
當入涅槃	-11.5199
若有人言	-11.5201
牛食	-11.5202
老少	-11.5205
涅槃是果	-11.5206
末世	-11.5231
前中先喻	-11.5232
如上說	-11.5238
譏請	-11.524
發菩提之心	-11.5243
稟教	-11.5247
問起發	-11.5249
兩番問答	-11.5273
aṃ	-11.5279
所供	-11.5279
諸天眾	-11.5297
一切知見	-11.5298
無明闇	-11.53
初二句	-11.5316
譬如大海	-11.533
佛性不斷	-11.5331
第一句	-11.5336
不依於	-11.5348
一切諸惡	-11.5352
譬如金剛	-11.5354
在一處	-11.5363
香味	-11.5372
無四無礙	-11.5377
復告阿難	-11.5386
如是展轉	-11.5398
猶如大海	-11.543
奉施	-11.5436
商人	-11.5437
搖	-11.5455
慈悲喜捨	-11.5471
叢	-11.5474
乃得安隱眠	-11.5474
錯謬	-11.5475
饑饉	-11.5476
閒	-11.5478
1	-11.5478
帀	-11.5479
我從今日	-11.548
却後三月當般涅槃	-11.5481
妹	-11.5481
身心寂靜	-11.5482
優陀那	-11.5483
貴賤	-11.5483
見是事已	-11.5483
六塵惡賊	-11.5484
奇哉	-11.5484
▁初分科敘意	-11.5484
右繞	-11.5485
釋梵	-11.5485
釧	-11.5485
柳	-11.5485
迦毘羅城	-11.5486
哽咽	-11.5486
樂說無礙	-11.5486
二鳥雙遊	-11.5486
嬰孩	-11.5487
受大苦惱	-11.5487
奉獻	-11.5487
療眾病	-11.5488
同於子想	-11.5488
汝等今者	-11.5488
映	-11.5489
當爾之時	-11.5489
我與無我	-11.549
針鋒	-11.549
四十里	-11.549
酵	-11.5491
罷	-11.5491
遷變	-11.5491
三世不攝	-11.5492
籠	-11.5492
無常苦空	-11.5492
範	-11.5493
選擇	-11.5493
涯	-11.5493
毗舍	-11.5494
戮	-11.5495
環	-11.5495
團	-11.5495
耆婆答言	-11.5495
即其人也	-11.5495
諸佛法爾	-11.5495
不可稱量	-11.5496
阿須倫	-11.5496
仙豫	-11.5496
廣行流布	-11.5497
編	-11.5497
梵網	-11.5498
澄清	-11.5498
最為殊勝	-11.5499
萬八千	-11.5499
受三歸	-11.55
形貌	-11.55
為護法故	-11.55
毘伽羅論	-11.55
次番	-11.55
四悉檀	-11.5501
十一部	-11.5501
五分法身	-11.5501
暇	-11.5501
稚	-11.5502
如來證涅槃	-11.5502
休息	-11.5504
金翅鳥王	-11.5506
良師	-11.5512
云何得長壽	-11.5513
略而不合	-11.5515
諸善根本	-11.5516
所不能及	-11.5517
深坑	-11.552
名第一義諦	-11.5525
今以何故	-11.5529
暴風	-11.5529
君子	-11.5529
所得果報	-11.5531
不可破壞	-11.5543
語勢	-11.5547
從初發心	-11.5547
迦葉白佛去	-11.5547
不從因生	-11.555
速滅	-11.5572
論人云	-11.5578
號曰	-11.5584
卷第一	-11.5586
一切人民	-11.5587
如下文說	-11.5594
三重明	-11.5596
供養父母	-11.5601
從佛聞	-11.5605
佛性之理	-11.5609
嚴淨	-11.5626
本誓	-11.5643
如轉輪王	-11.5666
能得見	-11.567
思食	-11.567
有羞	-11.5673
答為二	-11.5675
一一分別	-11.5689
當與汝	-11.5696
互舉	-11.5706
舉三譬	-11.5709
久巳	-11.5732
提婆	-11.5743
八部	-11.5746
四蛇	-11.576
徵文	-11.5773
無受者	-11.5773
最妙	-11.5777
金藏	-11.5803
先舉後	-11.5804
餘勢	-11.5817
善根人有	-11.5825
經題	-11.5837
一義說無量名	-11.584
釋妨	-11.5842
核	-11.5844
繒	-11.5847
嘲	-11.5847
我又示現於閻浮提	-11.5847
一切眾生身亦如是	-11.5848
知諸根力	-11.5848
於未來世成佛之時	-11.5848
可思議	-11.5849
波頭摩	-11.5851
▁初懸示	-11.5851
捔	-11.5852
不但獨為	-11.5852
彊	-11.5852
羅剎復言	-11.5853
鳥獸	-11.5855
長跪	-11.5856
繫念思惟	-11.5857
內善思惟	-11.5857
而行布施	-11.5858
兜羅	-11.5858
有始有終	-11.5859
聽是經者	-11.5859
次觀果報	-11.5859
專心聽法	-11.5859
吾曾為	-11.586
頂禮佛足	-11.586
頻婆娑羅王	-11.586
䟦提	-11.586
斫伐	-11.586
苗	-11.5861
默然而住	-11.5861
轉輪	-11.5861
偏袒右肩	-11.5862
如來在世	-11.5862
則得近於大般涅槃	-11.5862
淤泥	-11.5863
雹	-11.5864
唯佛能知	-11.5865
巖	-11.5865
中具有	-11.5866
臘	-11.5867
非學非無學	-11.5867
聊	-11.5867
衍	-11.5867
四部之眾	-11.5868
嗣	-11.5868
佛受供	-11.5869
僧殘	-11.587
曇無德	-11.587
非是非不是	-11.587
十號具足	-11.5871
五無間罪	-11.5871
詔	-11.5871
徵前起後	-11.5872
探	-11.5873
乳有酪性	-11.5873
耀	-11.5874
歡樂	-11.5875
奏	-11.5875
白淨法	-11.5875
名字觀行	-11.5876
受諸苦惱	-11.5876
洞	-11.5878
邪歸正	-11.5879
無有邊際	-11.588
興廢	-11.5882
。』『	-11.5882
數人云	-11.5883
云何名常	-11.5884
拯	-11.5884
忠	-11.5885
學無學	-11.5886
摩訶般若	-11.5887
十仙	-11.5893
害其父	-11.59
大自在天	-11.5901
藏積	-11.5903
躡前	-11.5906
三種病人	-11.5912
十一事	-11.5912
無間罪	-11.5915
畢竟滅	-11.5916
久近	-11.5917
今此文中	-11.5918
一切諸漏	-11.5919
汝等當知	-11.5923
百界	-11.5925
諸法實相	-11.5926
汝所作	-11.5934
以明常	-11.5934
云何言住	-11.5937
即說偈言	-11.5939
佛答為三	-11.5941
之頃	-11.5944
能斷煩惱	-11.5946
仁等	-11.5949
承事	-11.595
不得言無	-11.5964
九法界	-11.5968
叵得	-11.597
慧命阿難	-11.5971
▁二初如下隨	-11.5975
千歲	-11.5984
念漏	-11.6
傳曰	-11.6003
生亦不可說	-11.6016
樹間	-11.6028
第二門	-11.6053
失旨	-11.6054
歸趣	-11.6061
金輪	-11.6087
伏惑	-11.6103
最後供	-11.6107
一剎那	-11.6109
答為三	-11.6114
惱亂	-11.612
喻之如	-11.615
兩段	-11.6177
思惑	-11.6189
光明照	-11.6193
所侵	-11.6203
從因緣生	-11.622
冶	-11.6228
引偈	-11.6228
伎	-11.6228
一行半	-11.6229
龍象	-11.623
南無佛陀	-11.6231
菩薩摩訶薩於慈心中	-11.6231
糠	-11.6232
五盛陰	-11.6233
河沙諸如來所發菩提心	-11.6235
c	-11.6236
渴仰	-11.6236
瘦	-11.6236
尼拘陀	-11.6236
顯發如來方便密教	-11.6237
=	-11.6238
如來畢竟入於涅槃	-11.6238
尤	-11.6238
我念往昔	-11.6239
不與世諍	-11.6239
頭面禮足	-11.624
信等五根	-11.624
忍辱草	-11.624
㝹	-11.624
毉	-11.6241
貪欲瞋恚愚癡	-11.6241
一空一切空	-11.6241
從無明生	-11.6242
癩	-11.6242
樹葉	-11.6242
惶怖	-11.6242
擇滅	-11.6242
聞是已	-11.6243
派	-11.6243
炙	-11.6243
水陸俱行	-11.6243
飜	-11.6243
常破無常	-11.6244
雪	-11.6244
毒樹	-11.6244
優鉢羅花	-11.6244
如世人言	-11.6245
擾	-11.6245
三千大千	-11.6245
即理而事	-11.6246
亦見亦知	-11.6246
怨憎會苦	-11.6246
不即不離	-11.6248
闇鈍	-11.6248
囹圄	-11.6249
塔廟	-11.6249
冀	-11.6249
波羅奈	-11.6249
求不得苦	-11.6249
匠	-11.6249
焚燒	-11.6249
慼	-11.6249
鉾	-11.625
椎	-11.625
常當一心	-11.625
厄	-11.6251
近友	-11.6251
創	-11.6252
魯	-11.6252
昌	-11.6253
悉無有我	-11.6253
所言大者	-11.6253
繁	-11.6253
秘密藏	-11.6253
脣	-11.6253
金錍	-11.6254
迦旃延	-11.6254
少不足	-11.6254
須跋陀	-11.6255
包含	-11.6255
脩多羅	-11.6255
往返	-11.6255
攢	-11.6255
修無我想	-11.6255
南無純陀	-11.6256
求覓	-11.6257
絡	-11.6257
罸	-11.6257
下舉喻以	-11.6257
六種震動	-11.6258
言本有者	-11.6259
菩提樹下	-11.6261
挫	-11.6262
相續假	-11.6264
血肉	-11.6265
僧佉	-11.6267
宰主	-11.6268
穢土	-11.6272
彌滿	-11.6273
身得安樂	-11.6273
是謂菩薩摩訶薩	-11.6277
鄣	-11.628
阿那	-11.628
麁細	-11.6281
被服	-11.6281
影響	-11.6282
無二無別	-11.6282
一切諸眾生故	-11.6283
憐愍一切眾生	-11.6283
大香象	-11.6283
酬請	-11.6283
飲乳	-11.6284
?』「	-11.6285
困苦	-11.6286
四沙門果	-11.6288
而說是偈	-11.629
輕微	-11.6295
是名眼見	-11.6302
下答釋	-11.6308
佛及菩薩	-11.6309
文為五	-11.6316
我佛法中	-11.6317
何容	-11.6319
止息	-11.6321
翻譯	-11.6322
出世之法	-11.6325
以大涅槃心	-11.6326
佛告文殊師利	-11.6328
牛乳	-11.6328
豈況	-11.6331
何等為十	-11.6332
終沒	-11.6338
皆不可說	-11.634
冷病	-11.634
修空三昧	-11.634
梵世	-11.6342
合可知	-11.6345
得道果	-11.6354
涅槃無名	-11.6357
世間出世間	-11.6357
先問次辯	-11.6364
於諸佛所	-11.637
名置答	-11.6381
實不滅	-11.6382
萬歲	-11.6383
山河	-11.639
云何能得	-11.6391
審實	-11.6393
謗正法	-11.6402
次第五行	-11.6404
濟度	-11.6409
出於世	-11.643
無攀緣	-11.644
非無因緣	-11.6447
不可定說	-11.6447
菩	-11.6452
開示分別	-11.6459
服甘露	-11.6475
曼陀	-11.6484
示正義	-11.6506
天廟	-11.6514
就初段中先	-11.6538
下今破	-11.6592
羅婆	-11.6595
修道品	-11.66
療病	-11.6602
先舉昔	-11.6608
無酪性	-11.6615
實不虛	-11.6617
答初難	-11.6618
袒	-11.662
名義俱異	-11.6623
此與止觀	-11.6624
告憍陳如	-11.6624
三十二相八十種好	-11.6625
光明徧照高貴德王菩薩	-11.6626
敬重大乘	-11.6627
我於彼經亦不說之	-11.6629
目楗連	-11.663
他化自在天	-11.6631
終不生念	-11.6632
於一念中	-11.6632
不住不不住	-11.6632
怙	-11.6635
拄	-11.6636
囊	-11.6638
三藐三佛陀	-11.6638
烈	-11.664
粗	-11.664
領旨仰非	-11.664
樓逗	-11.6641
鬬	-11.6641
鎮頭迦	-11.6641
殿堂	-11.6641
屋舍	-11.6642
巡	-11.6642
優樓	-11.6644
俯	-11.6644
金棺	-11.6645
滑	-11.6646
下正釋經文	-11.6646
鬚	-11.6646
膜	-11.6646
我今始知	-11.6647
下重顯之	-11.6647
群萌	-11.6648
迦毘羅	-11.6648
無明住地	-11.6648
矛	-11.6648
晚	-11.6649
謹	-11.6649
生不自生	-11.6649
噵	-11.665
菟角	-11.665
迭	-11.6651
資糧	-11.6651
!」「	-11.6651
是大乘典	-11.6651
振	-11.6652
亦是亦不是	-11.6652
在文可見	-11.6652
十二支	-11.6653
凡聞起諍	-11.6653
得福無量	-11.6653
殃	-11.6653
勤加	-11.6656
即寂而照	-11.6657
渾	-11.6657
倚臥	-11.6658
哲	-11.6659
如來述讚	-11.666
皰	-11.6661
如意語	-11.6661
闍維	-11.6663
韻	-11.6665
音響	-11.6665
游	-11.6665
吳	-11.6666
普賢	-11.6666
抗	-11.6666
涌	-11.6667
再治	-11.6668
死尸	-11.6671
淨威	-11.6671
隋	-11.6671
修習聖道	-11.6674
史	-11.6674
何殊	-11.6675
成就阿耨多羅三藐三菩提	-11.6679
父母和合	-11.6679
守護大乘	-11.668
枯樹	-11.6683
散亂	-11.6684
四維	-11.6686
過人法	-11.6698
我見無我	-11.67
普告	-11.6701
生滅四諦	-11.6704
復有說言	-11.671
非擇滅	-11.6721
終乎	-11.6741
不生怖畏	-11.6746
佛在世	-11.6752
文中有三	-11.6754
豪貴	-11.6755
恩愛	-11.6761
先問後答	-11.6765
出胎	-11.6791
初先立喻	-11.6801
遷流	-11.6822
嚴飾	-11.684
總斥	-11.6848
悉發阿耨多羅三藐三菩提心	-11.6867
為菩提因	-11.6868
殺父	-11.6892
違反	-11.6901
謗方等	-11.6942
已下就	-11.6945
山頂	-11.6955
機發	-11.6966
還沒	-11.6974
初題目	-11.6994
是故說言一切眾生悉有佛性	-11.7044
斯有是處	-11.7045
婆藪	-11.7045
若有隨順魔所說者	-11.7046
是名菩薩摩訶薩非現生後受是惡業	-11.7047
先尼言瞿曇	-11.7047
以是誓願因緣力故	-11.7049
身異命異	-11.705
干	-11.7051
寶貨	-11.7051
出佛身血	-11.7051
猴	-11.7052
疾至佛所	-11.7052
u	-11.7052
膳	-11.7053
非六師也	-11.7054
華臺	-11.7054
煩惱在先	-11.7054
如去不如去	-11.7054
當知是則為如來也	-11.7054
闍那	-11.7054
浪	-11.7056
如恒河邊第	-11.7056
酒糟	-11.7056
不決定故	-11.7057
膠	-11.7057
聰	-11.7057
棘	-11.7057
歟	-11.7057
以方便力	-11.7057
聽其出家	-11.7058
阿波陀那	-11.7058
茶毗	-11.7058
說十三偈	-11.7059
迦羅迦	-11.7059
考	-11.7059
拜	-11.7059
祈	-11.7059
涕唾	-11.706
吉凶	-11.7061
脈	-11.7061
八種術	-11.7061
倦	-11.7061
言語道斷心行處滅	-11.7061
熟蘇	-11.7062
大小便利	-11.7063
匹	-11.7063
言本無者	-11.7063
棘刺	-11.7063
管	-11.7064
予	-11.7064
先受施者	-11.7065
若乳無酪	-11.7066
胡麻油	-11.7066
燋	-11.7066
懃	-11.7066
吝	-11.7067
毘跋致	-11.7067
翼	-11.7067
發無上正真道意	-11.7068
讎	-11.7068
填	-11.7069
儲君	-11.7069
無明緣行	-11.7069
一種二種	-11.7069
殘害	-11.7069
貿	-11.707
遍觀四方	-11.7071
自利利他	-11.7071
文皆可知	-11.7071
灑	-11.7071
門戶	-11.7071
憎愛	-11.7073
煩惱即菩提	-11.7073
若得此意	-11.7073
菩薩修大涅槃	-11.7074
扶律	-11.7074
遇惡友	-11.7074
燭	-11.7074
詩云	-11.7075
敗壞	-11.7076
八味具足	-11.7077
憍陳如品	-11.7077
於是經中	-11.7077
扇	-11.7078
瑜伽	-11.7078
釜	-11.7078
被接	-11.7079
慧朗述	-11.7079
諸天世人	-11.7083
而亦是有	-11.7083
具二莊嚴	-11.7086
頂禮	-11.7087
聞是經已	-11.7088
福德莊嚴	-11.7088
推功	-11.7089
發意欲	-11.7091
▁會疏第	-11.7092
縛脫	-11.7094
四重五逆	-11.7094
㓨	-11.7095
京	-11.7095
加功	-11.7096
一闡提輩亦復如是	-11.7098
悲戀	-11.7098
佛答有二	-11.71
五行十德	-11.7101
苦法忍	-11.7102
燒香	-11.7104
是果非因	-11.7105
住法記	-11.711
遮羅	-11.7112
劉	-11.7112
招苦	-11.7112
殺賊	-11.7116
愚惑	-11.7118
頌云	-11.7118
豈獨	-11.712
文選	-11.7123
佛性因故	-11.7128
傷歎	-11.7135
寂默	-11.714
為魔所	-11.7161
憂怖	-11.7166
□□□□□□□□□□□	-11.7169
知如來是常住法	-11.7171
懷慚愧	-11.7185
不可一向	-11.7205
分段變易	-11.7206
無所獲	-11.725
百千萬億	-11.7267
呵勸	-11.7267
題目	-11.7281
品題	-11.7283
聞思修	-11.7286
y	-11.7301
▁二此初下隨	-11.7301
億那由他	-11.7314
四種四諦	-11.7359
萬二千	-11.7361
我樂淨	-11.7361
富貴	-11.7368
隨意所	-11.7376
故是故非	-11.7389
能堪忍	-11.7406
佛神力故	-11.7459
場	-11.7466
駛	-11.7477
泡	-11.7479
弗婆提	-11.7479
哀嘆	-11.7482
爾時佛讚迦葉菩薩	-11.7483
優波提舍	-11.7485
𧂐	-11.7486
芥	-11.7486
然後乃能於惡世中不謗是法	-11.7487
5	-11.7487
智者復觀	-11.7487
多饒財寶	-11.7488
齧	-11.7488
▁二本文	-11.7488
司	-11.7489
沫	-11.749
終不能得阿耨多羅三藐三菩提	-11.7491
正法欲滅	-11.7491
禪波羅蜜	-11.7491
冰	-11.7492
是魔所說	-11.7492
廣宣流布	-11.7492
西域記	-11.7492
等集眾德三昧	-11.7493
佛復告迦葉	-11.7493
煮	-11.7494
涕	-11.7494
又無住者	-11.7494
娑婆世界	-11.7494
客塵	-11.7495
戲笑	-11.7495
撲	-11.7495
纔	-11.7496
飢饉	-11.7496
受純陀供	-11.7496
竺	-11.7497
是汝所化	-11.7497
俾	-11.7497
身壞命終	-11.7497
多所利益	-11.7497
叉手	-11.7497
項	-11.7497
鸚	-11.7498
菩薩摩訶薩復作是願	-11.7498
背痛	-11.7498
沾	-11.7499
鍮	-11.7499
一日一夜	-11.7499
一切行無常	-11.75
鎮	-11.75
瞻仰	-11.75
不相捨離	-11.7501
輸	-11.7501
於我滅後	-11.7501
懶	-11.7501
差即無差	-11.7501
中初科	-11.7501
饍	-11.7502
蟻子	-11.7503
從本已來	-11.7503
屠割	-11.7504
滑草	-11.7504
汲	-11.7504
非身是身	-11.7504
此義不然	-11.7504
五戒十善	-11.7504
八斛	-11.7505
伯	-11.7505
黠慧	-11.7505
知而不見	-11.7506
大異小	-11.7507
賜	-11.751
各作是念	-11.751
激	-11.7511
禮記	-11.7511
餘類可知	-11.7511
雙游	-11.7512
輪迴生死	-11.7514
婆私吒言	-11.7515
毘沙門	-11.7517
恐畏	-11.7517
意在於此	-11.7517
栴陀羅	-11.7518
荷	-11.7519
𨷂	-11.7522
從心起	-11.7522
華葉	-11.7523
世雄	-11.7524
蠲除	-11.7525
季	-11.7527
染污	-11.753
修行布施	-11.7532
地人云	-11.7538
有五復次	-11.754
云何難言	-11.7542
退菩提心	-11.7554
救療	-11.756
佛滅度後	-11.7563
能仁	-11.7575
敘古	-11.7578
受持是經	-11.7591
□□□□□□	-11.7601
諸商人	-11.7607
答第三難	-11.7624
無等等	-11.7627
能破闇	-11.7629
今當為汝	-11.7658
聞是語	-11.7666
初經家敘	-11.7681
我說是人	-11.7687
第四番	-11.772
性無二	-11.7721
當知必定有	-11.7741
答此問	-11.7845
無與等	-11.787
第二段中初	-11.7877
百由旬	-11.7914
如來終不為諸眾生作煩惱因緣	-11.7923
二十五三昧	-11.7929
陰界諸入	-11.7932
有篤信白衣檀越敬重佛法	-11.7933
虵	-11.7937
非有想非無想	-11.7939
親近惡友	-11.7939
白四羯磨	-11.7939
我法亦爾	-11.794
浣	-11.7941
▁初總別分科	-11.7942
-	-11.7943
罽賓	-11.7943
北凉	-11.7943
艸	-11.7943
無常無樂無我無淨	-11.7943
貪恚癡	-11.7943
不可說言如來法滅	-11.7944
與百萬億	-11.7944
如優曇花	-11.7944
篤	-11.7945
饒	-11.7945
報佛恩	-11.7946
非適今也	-11.7947
車匿	-11.7947
周帀	-11.7947
塹	-11.7948
寐	-11.7948
謙下供養	-11.7948
芻	-11.7949
佐	-11.7949
祈請	-11.7949
孤露	-11.7949
如我先說	-11.795
二百五十	-11.795
聞是語巳	-11.7951
王舍大城	-11.7951
是名十法門	-11.7951
頭面禮	-11.7951
揵	-11.7951
不斷不常	-11.7951
言象如	-11.7952
阿鼻獄	-11.7953
浩	-11.7953
瞿師羅	-11.7953
蝮	-11.7953
牟	-11.7954
耘	-11.7954
兄	-11.7955
隅	-11.7955
真解脫者亦復如是	-11.7955
馳走	-11.7955
栰	-11.7956
祥	-11.7956
偏露右臂	-11.7956
料	-11.7956
無有方所	-11.7956
蚊虻	-11.7957
燈炷	-11.7957
鬪戰	-11.7957
介	-11.7957
微薄	-11.7958
炳	-11.7958
義皆不然	-11.7959
愁毒	-11.7959
住世一劫	-11.7959
大王今者	-11.7959
唼	-11.796
指雜華	-11.796
智者了達	-11.796
毘婆沙	-11.7961
牆	-11.7961
安隱快樂	-11.7962
飽滿	-11.7963
啞	-11.7964
碩	-11.7965
函	-11.7965
方便密教	-11.7966
右繞三匝	-11.7966
開身密	-11.7967
群臣	-11.7968
渴仰大乘	-11.7968
乍	-11.7968
覈	-11.7968
瓦礫	-11.7969
若本有者	-11.7969
生住滅	-11.7971
是故已下結	-11.7971
橫加逆害	-11.7973
儉	-11.7973
離八難	-11.7974
師子先問	-11.7975
耻	-11.7976
汎舉	-11.7978
八十年	-11.7978
女人答言	-11.7979
縱奪	-11.7979
正因之性	-11.798
不得安眠	-11.798
狐疑	-11.798
寶亮	-11.7981
此下訖	-11.7983
尚書	-11.7984
佛答有三	-11.7986
何等為八	-11.7989
何勞	-11.7989
黑白	-11.7992
哀嘆品	-11.8005
豈容	-11.8005
若然者	-11.801
小非大	-11.8014
不墮三惡	-11.8051
化儀	-11.8052
止不啼	-11.8057
力勢	-11.806
廟	-11.8079
最第一	-11.8135
誹謗方等	-11.8176
為惑所	-11.8206
為解脫故	-11.8214
泣	-11.8345
又嬰兒者	-11.8401
修悲心者	-11.8403
多受苦惱	-11.8406
是亦有餘	-11.8408
簫	-11.8408
亦內亦外	-11.8411
世間不可樂想	-11.8411
以此善根願與一切眾生共之	-11.8412
有為無為且共置之	-11.8412
三一互融	-11.8412
榛	-11.8412
釋摩男	-11.8413
闍陀伽	-11.8413
蟻	-11.8413
當來之世	-11.8413
毗婆舍那	-11.8413
秋耕	-11.8415
騾	-11.8416
聽法因緣則得近於大般涅槃	-11.8416
而演說法	-11.8417
k	-11.8418
是名菩薩修大涅槃	-11.8418
人民熾盛	-11.8418
鐵圍山	-11.8418
悲泣流淚	-11.8418
叫喚	-11.8418
旛	-11.8419
其性廣博	-11.8419
毗舍離	-11.8421
當知是人真我弟子	-11.8421
大設供養	-11.8422
斷諸善根	-11.8422
是故稱佛	-11.8422
桓	-11.8422
大般涅槃經疏卷第十	-11.8423
栗	-11.8424
初出胎時	-11.8425
鵲	-11.8425
禍	-11.8425
空平等地	-11.8425
世間不知見覺	-11.8425
殷勤	-11.8425
不自覺知	-11.8425
而語之言	-11.8426
以利根故	-11.8426
如六大賊	-11.8426
世尊說此頌	-11.8426
販	-11.8426
華鬘	-11.8427
吸鐵	-11.8427
我於經中說	-11.8427
世諦死時	-11.8427
叫	-11.8427
牒佛前言	-11.8428
疣	-11.8428
殄	-11.8428
一切眾生皆有佛性	-11.8428
糞穢	-11.8429
膿血	-11.8429
犢子梵志	-11.843
螢	-11.843
作是觀已	-11.843
我今定知	-11.8431
甘露法味	-11.8431
醯	-11.8431
鋒	-11.8433
遶百千匝	-11.8433
洛	-11.8433
咄	-11.8433
非三非一	-11.8434
所以成諍	-11.8434
經中復說	-11.8434
閣	-11.8435
猫	-11.8435
諱	-11.8435
怖懼	-11.8435
皆從因緣	-11.8436
甘美	-11.8436
缺減	-11.8437
所不能壞	-11.8438
病愈	-11.8438
託胎	-11.8439
躄地	-11.844
凝然	-11.844
諸菩薩摩訶薩等	-11.8441
則有壞滅	-11.8441
芰角	-11.8442
象跡	-11.8442
園林	-11.8442
悵	-11.8443
如說修行	-11.8443
効	-11.8444
分真究竟	-11.8445
瞬	-11.8445
墓	-11.8445
故下文中	-11.8445
以是緣下	-11.8445
難思議	-11.8445
牒舉前	-11.8446
故今不用	-11.8446
七覺分	-11.8446
駭	-11.8446
涅槃疏私記卷第	-11.8447
別教地前	-11.8448
貪婬	-11.8449
次第相生	-11.8452
舍衛城	-11.8455
何等為六	-11.8456
賣乳	-11.8457
二月十五日	-11.8457
說是語已	-11.8457
兩教二乘	-11.8459
遊居	-11.8461
微弱	-11.8462
當為汝分別解說	-11.8463
麤細	-11.8465
十六知見	-11.8465
修持淨戒	-11.8467
闇冥	-11.8467
絹	-11.8467
若言有者	-11.8472
引昔證	-11.8476
性自空	-11.848
說是語	-11.8492
自下第五	-11.8536
旨趣	-11.8557
書寫讀誦	-11.8602
三千界	-11.8613
禮拜供養	-11.8617
大般涅槃經集解卷第	-11.8618
劣三修	-11.8667
高座	-11.8712
說如是言	-11.8721
文相可	-11.8761
次善男子下	-11.8764
涅槃經疏三德指歸卷第	-11.8784
輪回	-11.8901
所不應依	-11.8904
如來者即是法也	-11.8908
地獄餓鬼畜生	-11.8911
囚	-11.8911
盡涅槃際	-11.8911
共貪俱滅	-11.8912
羼	-11.8913
當知是人能斷善根	-11.8913
轉正法輪	-11.8913
蠲	-11.8913
願諸眾生悉得	-11.8913
二人俱有	-11.8914
橋梁	-11.8914
願佛開微密	-11.8915
愁遂增長	-11.8916
大般涅槃經集解卷第五十	-11.8916
禿居士	-11.8916
謬領	-11.8916
若常愁苦	-11.8917
答後問	-11.8917
剝	-11.8917
乃至識亦如是	-11.8917
涅槃經治定疏科卷	-11.8918
然我已於無量劫中	-11.8918
怡	-11.8918
拘尸那	-11.8919
采	-11.8919
不得安隱眠	-11.8919
沙礫	-11.892
酥油	-11.892
無量無邊不可稱計	-11.892
無明與愛	-11.892
若男若女	-11.892
錢塘沙門釋智圓述	-11.8921
即於胎中	-11.8921
踈	-11.8921
九部經中	-11.8921
姊妹	-11.8921
或復說言	-11.8921
祠祀	-11.8921
如法而住	-11.8922
祀	-11.8922
有無作色	-11.8922
乳中定有酪性	-11.8922
吾當為汝	-11.8923
智者了達其性無二	-11.8923
阿羅訶	-11.8924
盂	-11.8924
逃走	-11.8924
廓	-11.8924
樓櫓	-11.8924
勤修精進	-11.8924
城郭	-11.8924
絺	-11.8924
怱	-11.8925
乃至醍醐亦復如是	-11.8925
無二之性即是實性	-11.8925
復有一行是如來行	-11.8925
庫	-11.8925
陀羅驃	-11.8926
交露	-11.8926
起七寶塔	-11.8927
嘗	-11.8927
所入法門	-11.8927
牛若食者	-11.8927
戶	-11.8927
下佛為釋	-11.8927
如棄涕唾	-11.8927
提名不具	-11.8927
不墮惡道	-11.8927
象馬車乘	-11.8928
替	-11.8928
貨	-11.8928
𦘕	-11.8928
劇	-11.8928
不死之藥	-11.8928
創疣	-11.8929
後受施者	-11.8929
不一不異	-11.893
咄哉	-11.893
獎	-11.893
行住坐臥	-11.893
果性果果性	-11.8931
尊重讚歎	-11.8931
博叉	-11.8932
若從是義	-11.8932
雜食之身	-11.8932
殷	-11.8932
二牒釋	-11.8933
有兩問答	-11.8933
斷三世因	-11.8933
蘇油	-11.8933
不修慧者	-11.8933
宇	-11.8933
正異邪	-11.8934
雷震	-11.8934
鑿	-11.8934
名大地動	-11.8935
乃知非真	-11.8935
昨	-11.8935
嶷然	-11.8936
稱譽	-11.8936
法攝此集一切福德三昧	-11.8936
衛世師	-11.8936
胞	-11.8936
認	-11.8936
瘂	-11.8937
烟	-11.8937
校量	-11.8938
嚮	-11.8938
優鉢羅華	-11.8939
上來一段	-11.8939
大般涅槃經集解卷第六十	-11.894
小入大	-11.894
何故復名	-11.894
或有說者	-11.894
株	-11.8941
色香味觸	-11.8941
佛法眾僧	-11.8942
稽	-11.8942
礫	-11.8943
綠	-11.8944
汰	-11.8944
大般涅槃經疏卷第二十	-11.8945
憂悲苦惱	-11.8946
遺教經論	-11.8946
茅	-11.8951
以是之故	-11.8952
撿驗	-11.8953
俄	-11.8956
宣演	-11.8962
苦空無常	-11.8965
三德秘藏	-11.8966
大般涅槃經集解卷第四十	-11.8967
無作道品	-11.8971
有佛無佛	-11.8972
以修習故	-11.8981
哀泣	-11.8982
廬	-11.899
譬真解脫真解脫者即是如來	-11.8992
大般涅槃經集解卷第二十	-11.8996
▁二初問下隨	-11.8996
大般涅槃經集解卷第三十	-11.8999
見生死過	-11.9008
宛轉	-11.9031
眾中有一天	-11.9034
所至處	-11.9044
娑婆	-11.9055
ya	-11.9137
奧	-11.9176
脇	-11.9296
ma	-11.9334
持淨戒者	-11.936
宛	-11.9365
離是之外更無別	-11.9429
肎	-11.943
依智不依識	-11.9432
躄	-11.9433
鄰	-11.9434
區	-11.9436
與增上樂	-11.9438
大眾悲歎	-11.9439
鞭	-11.9439
我又示現閻浮提中	-11.9439
而供養之	-11.944
鬱單越	-11.9441
冤親	-11.9441
如彼醉人	-11.9441
帛	-11.9441
涎	-11.9442
如來常住無有變易	-11.9442
煩惱覆故	-11.9442
兜率陀天	-11.9444
▁初破古	-11.9444
貧窮困苦	-11.9445
為世間依	-11.9445
是故名為戒不具足	-11.9445
氀	-11.9446
滅除有餘	-11.9446
亦於晨朝日初出時	-11.9447
作不定說	-11.9447
獵	-11.9447
以其常故	-11.9448
盈縮	-11.9448
慳悋	-11.9448
萬劫修行菩薩力	-11.9449
所應度者	-11.9449
氣噓	-11.945
今現在說法	-11.945
修者必得	-11.945
▁初正釋經文	-11.945
瞻婆	-11.945
g	-11.9451
食子肉	-11.9451
毘佛略	-11.9451
壅	-11.9451
立喻顯法	-11.9451
漢書	-11.9452
瓜	-11.9452
八戒齋	-11.9452
終不畢竟入於涅槃	-11.9452
鏤	-11.9452
昔所不得而今得之	-11.9452
圓澄	-11.9453
成就如是無量功德	-11.9453
夫無量者	-11.9454
見不了了	-11.9454
埿	-11.9454
是凡夫相	-11.9454
+	-11.9454
我從昔來	-11.9454
舉劣顯勝	-11.9454
破壞四魔	-11.9455
所作巳辦	-11.9455
此初段竟	-11.9455
針	-11.9455
斛	-11.9455
豹	-11.9456
誦習	-11.9456
時王答言	-11.9456
悴	-11.9456
如世伊字	-11.9457
修熏禪	-11.9457
遏	-11.9457
是事不然	-11.9457
明與無明	-11.9457
我亦有分	-11.9458
口爽	-11.9458
線	-11.9458
優婆	-11.9458
歌舞	-11.9458
得無生忍	-11.9458
印印泥	-11.9458
忽然不現	-11.9459
即用而體	-11.9459
車𤦲	-11.9459
疱	-11.9459
不修戒者	-11.9459
行已復住	-11.946
何用修道	-11.946
髦	-11.946
次以喻顯	-11.946
拳	-11.946
迦留羅	-11.9461
五停心	-11.9461
痛哉	-11.9461
傅	-11.9461
曹	-11.9461
佛所發菩提心	-11.9461
論語云	-11.9461
與二乘共	-11.9462
屏	-11.9463
眾中有一天子	-11.9463
不修心者	-11.9463
即此義也	-11.9463
受持五戒	-11.9463
常得無量樂	-11.9463
舞	-11.9465
詰	-11.9465
胸	-11.9465
桑	-11.9465
无	-11.9465
雨法雨	-11.9466
適悅	-11.9466
挾	-11.9466
贖命	-11.9467
一中無量	-11.9467
作得度因緣	-11.9469
亘	-11.9469
而三而一	-11.9469
故偏舉之	-11.947
蠶	-11.947
細軟	-11.9471
髣髴	-11.9472
穀貴	-11.9472
枚	-11.9472
丁	-11.9473
觀已行	-11.9475
脚足	-11.9479
靈運	-11.9479
一心三智	-11.9481
水泡	-11.9482
無厭足	-11.9482
細分有	-11.9489
姚	-11.9492
盾	-11.9494
非凡夫相	-11.9496
動搖	-11.9514
為此義故	-11.9522
△	-11.9553
曼	-11.967
慶悅	-11.9789
初歎問	-11.979
五色光	-11.9847
文殊師利白佛言	-11.9917
▁二初明下隨	-11.9973
侶	-11.9975
糜	-11.9983
施眾生無量壽命	-11.9983
波闍波提	-11.9985
姉	-11.9987
若如是說無因	-11.9987
有諸弟子解甚深義	-11.9992
綺飾	-11.9992
千子具足	-11.9992
諾	-11.9992
當知是法不久住世	-11.9994
芬陀利	-11.9994
有名無實	-11.9994
出興於世	-11.9994
邁	-11.9994
終不念言	-11.9995
紹王位	-11.9996
先無後有	-11.9996
復次不修身者	-11.9996
沙鹵	-11.9997
天竺三藏曇無讖譯	-11.9998
陀那婆王	-11.9998
阬	-11.9998
龜毛	-11.9998
碎身舍利	-11.9999
心性本淨	-11.9999
在大眾中	-11.9999
凉	-11.9999
當知皆是慈善根力	-11.9999
霜雹	-12
過去未來現在	-12.0001
胝	-12.0001
毗伽羅論	-12.0001
貪欲瞋癡	-12.0001
瑠	-12.0001
非長非短	-12.0002
他解今解	-12.0002
俯仰	-12.0002
抵	-12.0002
斷常二見	-12.0002
空無相願	-12.0002
是名世間義	-12.0002
倍勝於前	-12.0002
三乘若無性	-12.0003
謹慎	-12.0003
伴黨	-12.0003
娛	-12.0003
度未度者	-12.0003
千輻輪	-12.0003
所設供具	-12.0004
諸根完具	-12.0004
幢幡	-12.0004
能見難見性	-12.0005
地獄劫住	-12.0005
同時舉聲悲泣雨淚以手抆淚	-12.0005
喘	-12.0006
非有為非無為	-12.0006
湛	-12.0006
白虎通	-12.0006
疊	-12.0007
毛髮	-12.0007
覲	-12.0007
葦	-12.0007
如芭蕉樹	-12.0007
煩惱餘報	-12.0007
自正正他	-12.0007
發斯問	-12.0007
泥犁	-12.0008
如是比丘則能莊嚴娑羅雙樹	-12.0008
乃名為常	-12.0008
猗	-12.0008
溝	-12.0009
雖有煩惱如無煩惱	-12.0009
別接通	-12.0009
蘆	-12.001
同其事業	-12.001
繒綵	-12.001
擎	-12.001
心無退轉	-12.0011
衡	-12.0011
疲極	-12.0011
若復說言	-12.0011
枷	-12.0011
駝	-12.0011
各有所據	-12.0012
膽	-12.0012
筩	-12.0013
床座	-12.0013
犯四禁	-12.0013
無生法忍	-12.0013
無生無滅	-12.0013
鍑	-12.0013
爵	-12.0013
三千大千剎土	-12.0014
凡夫謂二	-12.0014
堅持禁戒	-12.0014
蒸	-12.0014
婁	-12.0015
天龍鬼神	-12.0015
出息入息	-12.0015
勳	-12.0015
亦常亦無常	-12.0016
候	-12.0016
東方去此	-12.0016
先辨諍	-12.0016
央	-12.0017
憔悴	-12.0017
就初句中	-12.0018
皆先立喻	-12.0018
亦因因	-12.0018
馬瑙	-12.0018
彫	-12.0019
增上慢	-12.002
得非想定	-12.002
言語道斷	-12.0021
深心供養	-12.0022
桃	-12.0023
無食三昧	-12.0023
認歸	-12.0023
般涅	-12.0023
穿鑿	-12.0023
尅	-12.0024
濃	-12.0024
所作已辦究竟成就	-12.0024
皮革	-12.0024
叉手合掌	-12.0024
麟	-12.0024
沸	-12.0025
自事我來	-12.0025
旃陀	-12.0026
自作自受	-12.0026
域	-12.0026
定樂行	-12.0027
轍	-12.0027
於諸善法為最	-12.0027
扼	-12.0027
不教菩薩	-12.0029
洋	-12.0029
因顯果	-12.0029
舟航	-12.0029
本性空寂	-12.0029
起信論	-12.003
迸	-12.003
不增不減	-12.003
復有菩薩摩訶薩住大涅槃	-12.003
於虛空中	-12.003
鏘	-12.0032
郡	-12.0032
道共戒	-12.0033
是有是無	-12.0033
詠	-12.0034
蹔	-12.0034
乳中無酪	-12.0035
詎	-12.0035
刃	-12.0037
太速	-12.0039
初住巳上	-12.004
棠	-12.0043
號泣	-12.0045
獄卒	-12.0047
爾時佛告迦葉菩薩	-12.005
虛誑	-12.0079
大般涅槃經集解卷第十	-12.0137
▁二初譬下隨	-12.017
闍提	-12.024
菩薩摩訶薩住於大乘大般涅槃	-12.0273
淨名疏	-12.0298
va	-12.0358
先喻次合	-12.0365
壜	-12.0563
名一義異	-12.057
澤州	-12.0574
復有二十恒河沙	-12.0575
淨根戒	-12.0575
給侍	-12.058
恡	-12.0581
羆	-12.0582
難作能作	-12.0582
涕泣盈目	-12.0583
依義不依語	-12.0583
常恒無變	-12.0584
西域	-12.0584
付囑於汝	-12.0585
親戚	-12.0585
尼連禪河	-12.0585
心共貪生不共貪滅	-12.0586
佛讚迦葉善哉善哉	-12.0586
安隱豐樂	-12.0586
馥	-12.0587
禦	-12.0587
殯	-12.0588
跨節	-12.0588
ni	-12.0588
非自非他	-12.0589
非相非非相	-12.0589
肌	-12.0589
下依科	-12.0589
云何於此經	-12.0589
如是經律是佛所說	-12.0589
多陀阿伽度	-12.0589
甚可愛樂	-12.0589
無無作色	-12.059
能大利益	-12.059
疫	-12.059
拔苦與樂	-12.059
非滅非不滅	-12.059
根深難拔	-12.059
我及我所	-12.059
劒	-12.0591
一切諸法中悉有安樂性	-12.0591
如優曇華	-12.0591
脊	-12.0591
非喻為喻	-12.0591
白㲲	-12.0592
名色繫縛眾生	-12.0592
堤塘	-12.0593
雉	-12.0593
傴	-12.0593
欣厭	-12.0594
今此所論	-12.0594
嵐	-12.0594
迴向阿耨多羅三藐三菩提	-12.0594
童蒙	-12.0595
愽	-12.0595
孔雀	-12.0595
妾	-12.0595
逃避	-12.0596
危脆	-12.0596
骸	-12.0596
撫	-12.0597
纏裹	-12.0597
饌	-12.0598
枳	-12.0598
為譬作譬	-12.0598
解未解者	-12.0599
無惡不造	-12.06
唯願哀愍	-12.06
不上不下	-12.06
苞	-12.06
澆	-12.0601
淑	-12.0601
有同有異	-12.0601
麁獷	-12.0601
〕-【	-12.0601
以當見故	-12.0601
馳騁	-12.0601
花鬘	-12.0601
埵	-12.0601
侯	-12.0602
憍奢耶衣	-12.0602
一中一切中	-12.0602
則得名為常樂我淨	-12.0602
禰	-12.0602
淨飯王	-12.0602
色聲香味觸	-12.0602
擘	-12.0602
蓬	-12.0602
媟	-12.0602
有知法者	-12.0603
昔所不見而今得見	-12.0603
無差即差	-12.0604
濤	-12.0604
栖	-12.0604
互舉一邊	-12.0605
快哉我今得	-12.0605
得須陀洹果至阿羅漢果	-12.0605
旃	-12.0605
故經說言	-12.0606
一何疾哉	-12.0606
與羅漢等	-12.0606
眾生福力	-12.0606
躁	-12.0607
諸結火滅	-12.0607
砂	-12.0607
此經復有諸佛菩薩十種	-12.0607
姨	-12.0607
規	-12.0608
枯悴	-12.0608
心善解脫	-12.0609
輙	-12.061
義如別章	-12.061
闥	-12.061
隷	-12.061
賦	-12.0611
吾從無數阿僧祇劫	-12.0611
心如佛心	-12.0612
訪	-12.0612
鑊	-12.0613
諸行性相	-12.0617
寱	-12.0617
搥胸	-12.0617
寇	-12.0617
貞	-12.0618
▁初引古	-12.0618
隆	-12.0619
如是觀已	-12.062
賖	-12.062
緒	-12.0623
泰	-12.0631
此二一對	-12.0632
第二對中	-12.0636
爾時會中	-12.0638
奚	-12.0638
世尊復告	-12.0661
極愛一子	-12.0697
月八日	-12.0701
四識住	-12.074
涅槃經疏三德指歸卷第十	-12.074
ṃ	-12.0934
樂我淨	-12.0974
經家敘	-12.1023
卵	-12.1199
正徧知	-12.1204
燼	-12.1204
鞭撻	-12.1205
梯隥	-12.1205
曼殊沙花	-12.1205
菩薩摩訶薩住是地	-12.1206
熊	-12.1207
非通非別	-12.1207
轉大法輪	-12.1207
金銀瑠璃	-12.1207
吾當涅槃	-12.1207
曼陀羅花	-12.1208
知尊卑	-12.1208
是賢劫中	-12.1209
我今所施悉與一切眾生共之	-12.1209
讀誦通利	-12.1209
斬首	-12.1209
爪上土	-12.1209
從地獄出	-12.121
須䟦陀羅	-12.121
姦	-12.121
跱	-12.121
轉於法輪	-12.121
巾	-12.121
如恒河中	-12.121
腹痛	-12.1211
了知諸緣	-12.1211
杭	-12.1211
綵	-12.1211
雌	-12.1212
麞	-12.1212
揣	-12.1212
魁膾	-12.1212
城邑聚落	-12.1213
唯除菩薩住於大乘大般涅槃	-12.1213
歡娛受樂	-12.1213
成就具足無量功德	-12.1213
夫修慈者	-12.1213
以是緣故	-12.1213
柔耎	-12.1213
南西北方	-12.1214
妓	-12.1214
依法不依人	-12.1215
九部經典	-12.1215
壽命短促	-12.1215
圓接通	-12.1215
芬	-12.1215
如來視一切	-12.1215
證道同圓	-12.1215
鱗	-12.1216
是故非漏	-12.1216
詺	-12.1216
自了了他	-12.1217
除無利益	-12.1217
受畜生身	-12.1217
猶如車輪	-12.1218
經曰汝等比丘	-12.1218
槊	-12.1218
諸佛世尊有三昧名	-12.1218
如世人說	-12.1218
肆	-12.1218
無情之物	-12.1218
䇿	-12.1219
罥	-12.1219
阿耨達池	-12.1219
假眾緣	-12.1219
非諸聲聞緣覺所及	-12.1219
結加趺坐	-12.122
三解脫門	-12.122
如龜藏六	-12.122
謀議	-12.122
如乳成酪	-12.122
構	-12.122
得不起法忍	-12.122
如三禪樂	-12.1221
一行一切行	-12.1221
床帳	-12.1221
嘴	-12.1221
畜養奴婢	-12.1221
是沙門法	-12.1222
鳳	-12.1222
飄	-12.1222
誰之所作	-12.1223
轉重為輕	-12.1223
飢餓	-12.1223
漬	-12.1223
云何共聖行	-12.1223
為調眾生	-12.1223
甘嗜	-12.1223
邦	-12.1223
自覺覺他	-12.1224
墻	-12.1224
當斷汝命	-12.1224
約喻顯法	-12.1224
即我身是	-12.1224
無愛想	-12.1224
制之一處	-12.1224
不與聲聞辟支佛共	-12.1224
譬如幻師	-12.1224
了了分明	-12.1225
從頭至足	-12.1225
得不壞眾	-12.1225
如我上說	-12.1225
迦蘭陀	-12.1225
佛臨涅槃	-12.1225
閻	-12.1225
閻浮檀金	-12.1226
暖	-12.1226
耐	-12.1226
讐	-12.1226
亦可得說	-12.1227
憚	-12.1227
突	-12.1227
艱	-12.1227
係	-12.1228
天然之理	-12.1228
捨相入證	-12.1228
摶	-12.1228
惻	-12.1228
悶絕躄地	-12.1229
應法師云	-12.1229
階級	-12.1229
嬪	-12.1229
辟	-12.1229
信首五根	-12.1229
身口二業	-12.1229
撓	-12.1229
即邊而中	-12.123
脅	-12.123
人中之龍	-12.123
聞此語已	-12.123
鬱多羅	-12.123
鄉	-12.123
駕駟	-12.123
順動召	-12.1231
璧玉	-12.1231
詩	-12.1231
欠	-12.1231
雨大法雨	-12.1231
欣慶	-12.1231
身不在先	-12.1232
一問二答	-12.1232
祚	-12.1232
臥糞穢	-12.1232
深難得底	-12.1233
爾時光明下	-12.1233
不有不無	-12.1234
皎	-12.1234
就初對中	-12.1234
六年苦行	-12.1234
所以爾者	-12.1234
謟曲	-12.1234
遺囑	-12.1234
瞢	-12.1234
循	-12.1235
製	-12.1235
今所不用	-12.1235
脚跌	-12.1239
剌	-12.1239
父王無辜	-12.1242
裸形	-12.1243
捲	-12.1246
常治無常	-12.1247
霜	-12.1247
定共戒	-12.1248
景	-12.1249
處非處	-12.125
蠱	-12.1251
旅	-12.1256
說言如來去	-12.1256
賣買	-12.1257
甚深祕密之	-12.126
遜	-12.1274
蚕	-12.129
答第一難	-12.1296
初疑問	-12.1317
當知是法久住	-12.1416
ra	-12.1446
na	-12.1457
v	-12.1463
作是誓	-12.1478
三釋義二初	-12.1562
於晨朝時	-12.1612
緣覺所及	-12.1648
誠如聖教	-12.1763
說四真諦	-12.18
裔	-12.1853
囊括	-12.186
兕	-12.1863
輭	-12.1864
生大怖畏	-12.1864
旛葢	-12.1865
以見我故	-12.1866
因見我故	-12.1867
若能隨順佛所說者	-12.1868
我常宣說一切眾生悉有佛性	-12.1868
鐮	-12.187
難施能施	-12.187
尉	-12.1871
常住之法不從因緣	-12.1872
心性差別障	-12.1872
糾	-12.1872
㲲	-12.1873
定當得成阿耨多羅三藐三菩提	-12.1873
如來遮此二邊	-12.1873
聞是事巳	-12.1874
為欲隨順世間法故	-12.1874
五種牛味	-12.1875
婆枳多城	-12.1875
9	-12.1875
非如去非不如去	-12.1876
便當得成阿耨多羅三藐三菩提	-12.1878
亦緣四諦	-12.1878
捨慈得慈	-12.1878
堅住信慧	-12.1879
憒	-12.188
摩樓迦子	-12.188
火不能燒	-12.188
警	-12.1881
異生異滅	-12.1881
藐	-12.1881
界知心	-12.1881
當堅發如是	-12.1881
我等從今	-12.1882
▁37	-12.1882
眾生佛性離眾生有	-12.1882
必死不疑	-12.1882
娉	-12.1883
名不修心	-12.1883
常恒無有變易	-12.1883
成就大乘第一空行	-12.1883
色從煩惱生	-12.1883
鼈	-12.1883
最尊最勝	-12.1884
籌	-12.1884
堆	-12.1884
蛣	-12.1884
伊字三點	-12.1884
位階十地	-12.1884
為身痛耶	-12.1884
妖	-12.1884
失諸功德障	-12.1885
非身非口	-12.1886
將滅不久	-12.1886
當制五根	-12.1886
有因緣故亦可得說	-12.1887
傾側	-12.1887
厥	-12.1887
攻	-12.1887
具大威力	-12.1887
萌	-12.1887
裸	-12.1887
以定得故	-12.1888
天中之天	-12.1888
僻	-12.1888
惓	-12.1888
賢者阿難	-12.1888
煎	-12.1888
身諸毛孔	-12.1888
無問自說	-12.1889
阜	-12.1889
七日七夜	-12.1889
惰	-12.189
鵄	-12.189
周易云	-12.189
銷	-12.1891
哽	-12.1891
郭璞云	-12.1891
褥	-12.1892
汝向所問	-12.1892
報定時不定	-12.1892
晦	-12.1892
鍊	-12.1892
爰	-12.1892
暑	-12.1892
副	-12.1893
頸	-12.1893
七十三人	-12.1893
柝	-12.1893
乃至老時	-12.1893
知止足	-12.1893
如瞿曇說	-12.1893
壽命極長	-12.1894
􂌞	-12.1894
佛在舍衛	-12.1894
糞掃	-12.1894
遊諸覺華	-12.1894
異口同音	-12.1895
斷其命	-12.1895
置毒乳中	-12.1895
一假一切假	-12.1896
假令縱之	-12.1896
承佛神力	-12.1896
具八自在	-12.1897
澹	-12.1897
菩薩名無所得	-12.1898
摩竭提	-12.1898
捨欲界身	-12.1898
此障對治	-12.1898
髻	-12.1898
紀	-12.1898
敏	-12.1899
自作他受	-12.1899
漱	-12.1899
常觀涅槃行道	-12.1899
人非人等	-12.1899
境發智	-12.19
雇	-12.19
怛	-12.19
諸佛世尊知其非真	-12.19
涅槃經疏私記卷第	-12.19
彼有菩薩名	-12.19
洪	-12.1901
諷	-12.1902
傲	-12.1903
輦	-12.1903
跛	-12.1903
棊	-12.1904
眉	-12.1904
凡夫謂實	-12.1904
已合共合	-12.1905
猿	-12.1905
犍	-12.1906
蒼頡篇	-12.1907
絃	-12.1907
貪嗔癡	-12.1907
囉	-12.1908
躍	-12.1909
庵	-12.1914
感應道交	-12.1915
皷	-12.1917
四意止	-12.1918
職	-12.1919
疾能獲得無生法忍	-12.1919
曆	-12.1919
暮	-12.192
覔	-12.1922
琴	-12.1922
臰	-12.1925
愆	-12.1927
是謂有盡	-12.1932
如畫石	-12.1936
氈	-12.1967
百千億那由他	-12.1974
乃有無量諸	-12.1995
應更云	-12.2007
雲雷	-12.207
舉事類	-12.2132
牒以總	-12.2314
真解脫者即是如來又解脫者名曰	-12.2485
商	-12.2551
選	-12.2554
琉	-12.2573
怨詐親者	-12.2573
八十種好莊嚴其身	-12.2575
是故號佛為無上士	-12.2577
憲	-12.258
是故名為信不具足	-12.258
胤	-12.2581
螘	-12.2582
浸	-12.2584
妒	-12.2584
無常無我無樂無淨	-12.2584
毗佛略	-12.2586
舫	-12.2586
如是等義我於彼經亦不說之	-12.2586
化地部	-12.2587
三十七助道法	-12.2588
願諸佛土所有眾生	-12.2588
酪不先	-12.2588
云何如來為常住法	-12.2588
慙愧	-12.2589
2	-12.2589
非有漏非無漏	-12.259
巳有還無	-12.259
師子吼菩薩摩訶薩言	-12.259
菩薩摩訶薩住是地中亦復如是	-12.259
非此非彼	-12.259
八十七億恒河沙數	-12.2591
誅	-12.2591
為佛及僧	-12.2591
羽	-12.2592
眩	-12.2592
技	-12.2592
繁茂	-12.2592
楗	-12.2594
示人天魔道	-12.2594
諭	-12.2594
藝	-12.2594
往至王所	-12.2594
形貌端正	-12.2595
舉佛昔言	-12.2595
不觀福田及非福田	-12.2595
鑞	-12.2595
綜	-12.2595
現世輕受	-12.2596
脹	-12.2596
尼𤘽陀	-12.2596
菩薩定慧亦復如是	-12.2596
等視眾生如羅睺羅	-12.2597
四維上下	-12.2597
即空即假即中	-12.2597
耨	-12.2597
受具足戒	-12.2597
偃	-12.2597
錐	-12.2598
萌芽	-12.2598
應如是學	-12.2598
無父無母	-12.2598
堂閣	-12.2598
非如來咎	-12.2598
我於經中作如是說	-12.2598
度疑彼岸	-12.2598
四如意足	-12.2599
頂法師撰天台沙門湛然再治	-12.2599
舉非顯是	-12.2599
拘耶尼	-12.2599
以大莊嚴而自莊嚴	-12.26
欠呿	-12.26
於未來世當轉法輪	-12.26
非我非無我	-12.26
把	-12.26
初問次辯後結	-12.26
得宿命智	-12.26
彼若見答	-12.2601
勘	-12.2601
澣	-12.2601
揵沓和	-12.2601
紐	-12.2601
而是菩薩所知見覺	-12.2602
緊	-12.2602
悉達太子	-12.2602
費	-12.2603
所謂大乘大般涅槃	-12.2603
長跪叉手	-12.2603
願樂欲聞	-12.2603
隱沒太速	-12.2603
掩	-12.2604
不黑不白	-12.2604
間無空處	-12.2604
篡	-12.2604
涕泣	-12.2605
喻以䱜魚	-12.2605
偪	-12.2605
蚌	-12.2605
顯異惑眾	-12.2605
灰身滅智	-12.2605
通致使命	-12.2606
長跪合掌	-12.2607
正善具成就	-12.2607
溉	-12.2607
解有兩義	-12.2607
耗	-12.2607
隱時一體	-12.2608
煑	-12.2608
厲	-12.2608
次列兩名	-12.2608
且共置之	-12.2608
拘睒彌	-12.2609
仰觀星宿	-12.2609
字非字	-12.2609
廿	-12.2609
虞	-12.2609
獨一無侶	-12.2609
譬如金師	-12.2609
開譬合譬	-12.2609
髀	-12.2609
墾	-12.261
掠	-12.261
亭	-12.261
綖	-12.261
以藥力故	-12.261
朱	-12.261
五法佐助	-12.2611
巨細相容	-12.2611
朴	-12.2611
紫磨黃金色身	-12.2612
忌	-12.2612
摩睺勒	-12.2612
婬怒癡	-12.2612
紳	-12.2613
當廣流布	-12.2613
劓	-12.2614
早晚	-12.2615
洎	-12.2615
生奇特想	-12.2616
幹	-12.2616
得法眼淨	-12.2616
捷	-12.2617
至無至處	-12.2617
諸佛所師所謂法也	-12.2618
疵	-12.2618
下佛先嘆	-12.2618
廣如別章	-12.2618
撥無因果	-12.2619
不白不黑	-12.2619
除一法相	-12.2619
臨涅槃時	-12.2619
不活畏	-12.262
舉凡顯聖	-12.2621
未入上上證	-12.2622
拒抗	-12.2622
恠	-12.2622
慘	-12.2622
示教利喜	-12.2624
層	-12.2624
聞惡聲	-12.2627
縫	-12.2627
𢙣	-12.2628
珮	-12.2629
毘舍佉	-12.263
依理起	-12.2631
錫	-12.2632
下入文解釋	-12.2633
如是自在名為大我	-12.2633
化樂天	-12.2633
先法次譬	-12.2634
趙	-12.2635
筮	-12.2635
辯供奉佛	-12.2635
初唱兩章門	-12.2638
戈	-12.2641
不果却住	-12.2642
魯留盧樓	-12.2649
脉	-12.2653
嶺	-12.2685
前類後	-12.2706
胄	-12.3331
粖	-12.3337
能諦了	-12.3346
况	-12.3346
云何得廣大為眾作依止	-12.3348
䟽	-12.3348
若有如是見者	-12.3349
霑	-12.335
僧名和合	-12.3352
供養恭敬尊重讚歎	-12.3353
厭離食想	-12.3354
毀破淨戒	-12.3355
為欲調伏諸眾生故	-12.3355
非是聲聞緣覺所知	-12.3355
不醎之物	-12.3356
過三月已	-12.3356
是故名為聞不具足	-12.3357
亦不念言	-12.3357
生菴摩羅樹	-12.3357
伇	-12.3357
是義不然牒以總非	-12.3357
鑛	-12.3357
碯	-12.3358
4	-12.3359
如告比丘	-12.3359
嫉妒	-12.3359
繞百千匝	-12.3359
必懷諂曲	-12.336
蹉	-12.336
無諸雲翳	-12.336
得正法眼	-12.336
異法無故異法滅壞	-12.336
乳中定無酪	-12.3361
剎帝利	-12.3361
尋文可見	-12.3361
薑	-12.3362
乃至算數譬喻	-12.3362
洲渚	-12.3362
我作我受	-12.3362
侘	-12.3362
開空法道	-12.3362
▁38	-12.3362
以呪力故	-12.3363
世無良醫	-12.3363
夕	-12.3363
宏	-12.3363
▁初科文	-12.3363
鳧	-12.3364
異法有故異法出生	-12.3364
𤚼	-12.3365
蠅	-12.3365
潘	-12.3365
脣口乾焦	-12.3365
熈	-12.3365
正念求度	-12.3366
見諸色像	-12.3366
逃至他國	-12.3366
緻	-12.3366
開演涅槃施	-12.3366
善能隨順一切世間	-12.3367
釐	-12.3367
豕	-12.3367
耆闍崛山	-12.3367
四分律云	-12.3367
鈴	-12.3368
常翹一脚	-12.3368
輕動不調障	-12.3368
寞	-12.3368
慙	-12.3368
規矩	-12.3369
五體投地	-12.3369
六大賊者	-12.3369
悉不復現	-12.3369
略廣門	-12.3369
無所復用	-12.337
離種種自性清淨無我分	-12.337
列其二名	-12.337
畔	-12.3371
譬如鑽火	-12.3371
潮	-12.3371
佛初成道	-12.3371
六十四能	-12.3371
甚可怖畏	-12.3371
淨佛國土	-12.3372
涉路而去	-12.3372
瀉	-12.3372
淋	-12.3372
擔	-12.3372
尖	-12.3372
餘殘果	-12.3372
釆	-12.3373
顯示畢竟甚深功德分	-12.3373
八功德水	-12.3373
慟	-12.3373
罄	-12.3373
心喜說真諦	-12.3373
世間空虛	-12.3373
畜不淨物	-12.3374
二施無差	-12.3374
怏	-12.3374
縮	-12.3374
非漏非無漏	-12.3374
其林變白	-12.3375
羮	-12.3375
罵詈	-12.3375
綆	-12.3375
十六大國	-12.3376
因家之果	-12.3376
梟	-12.3376
煩惱覆障	-12.3376
亦二亦一	-12.3377
命將不全	-12.3377
曼陀羅華	-12.3377
捧	-12.3377
懌	-12.3377
彼作彼受	-12.3378
瞥	-12.3378
甚奇甚特	-12.3378
隄塘	-12.3378
攪	-12.3378
無明全在	-12.3378
炤	-12.3378
故不應食肉	-12.3378
復告女人	-12.338
嵩	-12.338
心行處滅	-12.338
軫	-12.338
下佛為辯	-12.3381
在家二眾	-12.3381
昆	-12.3381
着	-12.3381
如水上泡	-12.3382
涇渭	-12.3382
誥	-12.3383
思滅苦本	-12.3383
先順後反	-12.3383
有樹無影	-12.3383
棗	-12.3385
賒	-12.3385
住壽一劫	-12.3385
寂然無聲	-12.3385
銜	-12.3386
机	-12.3386
頰	-12.3386
毳	-12.3386
鵒	-12.3387
帥	-12.3388
抄掠	-12.3388
宜審記	-12.3388
唯應度者	-12.3389
捺	-12.3389
岳	-12.339
桴	-12.339
摘	-12.339
如蛇脫皮	-12.339
姝	-12.339
腰	-12.3391
穌	-12.3391
有通有別	-12.3392
鴟	-12.3393
唯應度者乃能見之	-12.3393
凡異聖	-12.3394
此不應爾	-12.3395
覩相增悲	-12.3397
来	-12.3399
管窺	-12.3399
坎	-12.3401
戴	-12.3402
莫大愁苦	-12.3403
李	-12.3404
初結前標後	-12.3405
澤洲云	-12.3408
自我招殃	-12.3415
沃	-12.3419
如闇夜	-12.3662
下隨文正解	-12.3762
隨御者意	-12.4157
至茶毘所	-12.4162
億那由他阿僧祇劫所習	-12.4178
嬾	-12.4178
令其安住阿耨多羅三藐三菩提	-12.4179
於無量歲	-12.4181
伊帝目多伽	-12.4185
難忍能忍	-12.4185
而此月性	-12.4186
云何如來便欲放捨	-12.4186
不共貪滅	-12.4186
躃	-12.4186
心不隨身	-12.4187
當有何罪	-12.4187
排	-12.4187
馬中無牛	-12.4188
云何如來問於因緣	-12.4188
摩利迦	-12.4188
真解脫中無如是事	-12.4189
有諦有實	-12.4189
義異名異	-12.4189
語耆婆言	-12.4189
不得名為淨戒具足	-12.4189
如是菩薩成就欲法	-12.4189
為欲度脫諸眾生故	-12.419
令戒雜穢	-12.419
污辱梵行	-12.419
悉滅無餘	-12.419
壇	-12.419
行巳復住	-12.419
為阿闍世王作決定心	-12.4191
懅	-12.4191
波羅奢樹	-12.4191
比丘比丘尼優婆塞優婆夷	-12.4191
若知如來常不說法	-12.4192
𨳝	-12.4192
出無佛世	-12.4192
擣	-12.4192
號釋迦牟尼如來	-12.4192
舉身毛竪	-12.4193
戾	-12.4193
如影隨形	-12.4193
螳	-12.4193
3	-12.4194
槩	-12.4194
世無良醫治身心	-12.4194
當自端心	-12.4194
呂	-12.4194
娶	-12.4194
國土所有一切眾生	-12.4195
即能利益一切人天	-12.4195
一名四實	-12.4195
王語耆婆	-12.4195
有始無終	-12.4196
是名眾生毒身之中有妙藥王	-12.4196
一切諸藥悉入其中	-12.4196
斜	-12.4196
ś	-12.4196
b	-12.4197
ṣ	-12.4197
不老不死	-12.4197
若有隨順佛所說者	-12.4197
雖修一切契經諸定	-12.4197
▁176	-12.4197
晃	-12.4197
拱	-12.4197
一人當千	-12.4197
如是之言亦是如來祕密之教	-12.4197
瀑	-12.4197
體血現如波羅奢	-12.4198
是六大賊	-12.4198
一經於耳	-12.4198
乘如實道來成正覺	-12.4198
解苦無苦而有真諦	-12.4198
受畜八種不淨之物	-12.4198
是人亦名謗佛法僧	-12.4198
為心痛乎	-12.4199
澍	-12.4199
三藐三菩提	-12.4199
繇	-12.4199
普賢觀云	-12.42
引說證成	-12.42
笛	-12.42
乃得名為大涅槃	-12.42
眠則滋多	-12.42
竅	-12.42
泊	-12.4201
钁	-12.4201
所患得除	-12.4201
醻	-12.4201
圊	-12.4201
從座而起	-12.4202
藕	-12.4202
紹三寶種使不斷絕	-12.4202
轉輕為重	-12.4202
服與不服	-12.4202
菩薩摩訶薩修是二法	-12.4202
阿伽陀藥	-12.4203
漸盈大器	-12.4203
旬	-12.4203
慨	-12.4203
令法毀滅	-12.4203
儲	-12.4204
中初先開列	-12.4204
農	-12.4204
專著邪見	-12.4204
如鳥飛空	-12.4205
舉其喻事	-12.4205
斷於疑網	-12.4205
阿尼婁陀	-12.4205
箕	-12.4205
強為立名	-12.4205
坌	-12.4206
見他得利	-12.4206
身毛皆竪	-12.4206
院	-12.4206
斂	-12.4207
具受乃得	-12.4207
兆	-12.4207
禱	-12.4207
䴬	-12.4207
若一切業定得果者	-12.4207
互相執手	-12.4208
胸臆	-12.4208
北方去此	-12.4208
窈	-12.4208
以藥塗	-12.4208
是六塵賊亦復如是	-12.4208
如視一子	-12.4209
肝	-12.421
欝單曰	-12.421
瑟	-12.421
大如車輪	-12.4211
作是觀巳	-12.4211
怜	-12.4211
恒非恒	-12.4211
我親從佛聞如是義	-12.4212
不聞而能得聞	-12.4212
流血灑地	-12.4213
異因異果	-12.4213
趨	-12.4213
燥	-12.4213
薄拘羅	-12.4213
炮	-12.4213
今以何義	-12.4213
夾	-12.4213
猨	-12.4213
罔	-12.4214
息世譏嫌戒	-12.4214
與理相應	-12.4214
獲得常色	-12.4215
非異色因	-12.4215
舍利乃可得	-12.4215
萎	-12.4215
逮得己利	-12.4215
非新非故	-12.4216
疆	-12.4216
臆	-12.4216
三諦即一諦	-12.4216
中迦葉先問起發	-12.4217
恬	-12.4217
郭	-12.4217
下明觀利益	-12.4218
智者了達知其非	-12.4218
剃	-12.4219
飡	-12.4219
多犯禁戒	-12.4219
曇無讖	-12.4219
府	-12.4219
僅	-12.422
誕	-12.422
受想觸欲	-12.4221
先別後結	-12.4222
蔓	-12.4222
奮	-12.4222
峯	-12.4223
無終而終	-12.4224
中文殊先問	-12.4224
邊即中故	-12.4225
幔	-12.4226
鹵	-12.4226
從性生大	-12.4227
棲	-12.4228
未捨憍慢	-12.423
剖	-12.4233
昭	-12.4234
法蓮記	-12.4236
裨	-12.4242
磐	-12.4248
臧	-12.4254
生公曰	-12.4254
庭	-12.4257
文自為四	-12.4271
讒	-12.4295
住大般泥洹菩薩	-12.4402
即便命終生人天中	-12.506
鉞	-12.5083
贅	-12.5085
啝	-12.5086
是名菩薩知時非時	-12.5087
阿羅羅	-12.5089
一子遇病	-12.509
四大毒蛇亦復如是	-12.5091
頭目髓腦	-12.5092
轉下作中	-12.5092
酷	-12.5093
粘	-12.5096
百分不及一	-12.5096
𦀟	-12.5096
如來應供正徧知	-12.5097
蠭	-12.5097
士屈伸臂頃	-12.5098
文殊師利菩薩摩訶薩白佛言	-12.5098
非苦非諦是實	-12.5099
性自能持	-12.5099
蓊	-12.5099
波利質多羅樹	-12.5099
懼其有盡	-12.51
]	-12.51
蓐	-12.51
無常色獲得常色	-12.5101
毘梨耶波羅蜜	-12.5101
錠	-12.5101
薺	-12.5101
肅	-12.5102
汝言眾生若有佛性	-12.5102
波逸提	-12.5103
不共貪生不共貪滅	-12.5103
偈後長行	-12.5103
發大誓願	-12.5103
儼	-12.5104
禽	-12.5104
水即為清	-12.5104
非律不證	-12.5105
化周掩迹	-12.5105
度阿若憍陳如	-12.5105
常當攝念在心	-12.5105
胲	-12.5106
f	-12.5106
▁釋德王品之	-12.5106
▁釋梵行品之	-12.5106
初總別科分	-12.5106
閱	-12.5107
生信敬心	-12.5107
朕	-12.5107
𢇲	-12.5107
非字非非字	-12.5107
睺	-12.5107
伊帝曰多伽	-12.5108
設諸供具	-12.5109
非此作此受	-12.5109
弗于逮	-12.5109
涅槃經疏卷第十	-12.5109
為不斷絕種種說法	-12.511
譬如春月	-12.511
7	-12.511
不為世法之所沾污	-12.511
病之良藥	-12.511
身為在先	-12.511
名色六入觸受	-12.5111
從牛出乳	-12.5111
猶如白鶴	-12.5111
欄楯	-12.5111
受畜一切不淨之物	-12.5111
如來常存不變	-12.5111
王復得病	-12.5112
郎	-12.5112
與百萬億夜叉眾	-12.5112
躭	-12.5112
大眾所問品	-12.5112
脾	-12.5112
䗍	-12.5112
募	-12.5113
請決所疑	-12.5113
􂎔	-12.5113
先牒直非	-12.5113
埤	-12.5113
艾	-12.5113
卝	-12.5113
合和湯藥	-12.5114
得大堅固力	-12.5114
轉無上法輪	-12.5114
臻	-12.5114
無二念三昧	-12.5114
陂	-12.5114
倣	-12.5115
甚可憐愍	-12.5115
跪	-12.5115
路值一河	-12.5115
我今身心豈得不痛	-12.5115
娠	-12.5115
栽	-12.5115
郁	-12.5115
因滅故果滅	-12.5115
隨汝意答	-12.5116
作惡不即受	-12.5116
餘例可知	-12.5116
如薪盡火滅	-12.5117
森	-12.5117
貢	-12.5117
舟	-12.5117
呿	-12.5117
攜	-12.5117
肺	-12.5117
效	-12.5118
枉	-12.5118
高七多羅樹	-12.5118
四百四病	-12.5118
恣汝所問	-12.5118
菩薩聞說深法	-12.5119
在在生處	-12.5119
衣纏身	-12.512
從今已往	-12.512
鷸	-12.512
莫知所在	-12.512
七滅諍法	-12.512
娑伽羅龍王	-12.512
文非泥出	-12.512
汗	-12.512
劫掠群牛	-12.512
從始至終	-12.512
處在高樓沐浴受齋	-12.512
轂	-12.512
哮	-12.512
今悉可問	-12.512
非青見青	-12.512
喑	-12.512
必定當墮阿鼻地獄	-12.512
戚	-12.5121
肘	-12.5121
摸	-12.5121
十八不共法	-12.5122
夸	-12.5122
為眾作依止	-12.5122
禿	-12.5122
阿那波那	-12.5122
糺	-12.5122
駟	-12.5123
棋	-12.5123
監	-12.5123
忖	-12.5123
煥	-12.5124
還從口入	-12.5124
不宿死尸	-12.5124
黑黑果報	-12.5124
搜	-12.5124
從乳出酪	-12.5125
玄而復玄	-12.5125
筒	-12.5125
?』」「	-12.5125
押	-12.5126
所迷沒處	-12.5126
撾	-12.5126
無事不辦	-12.5127
撮	-12.5127
杳	-12.5127
遽	-12.5128
從無常因生	-12.5128
北遠云	-12.5128
無縛無脫	-12.5128
迂	-12.5128
隋淨影寺沙門釋慧遠述	-12.5128
與速記	-12.5129
即照而寂	-12.5129
紫磨金	-12.5129
自識宿命	-12.5129
痾	-12.5129
寄生一子	-12.5129
䥫	-12.513
腸	-12.513
方便顯發門	-12.5131
叡	-12.5132
非枯非榮	-12.5133
癕	-12.5133
付嚴師	-12.5134
結以顯過	-12.5135
涉公云	-12.5137
讇	-12.5137
不可說空及以不空	-12.5138
換	-12.5141
逕	-12.5141
樞	-12.5141
頞	-12.5141
破邪通正	-12.5142
示生示滅	-12.5143
鐘	-12.5143
乙	-12.5146
箇	-12.5147
捨飾好	-12.515
薦	-12.5151
執持應器	-12.5151
殆	-12.5151
以乞自活	-12.5154
著壞色衣	-12.5154
𤚲	-12.5158
笈	-12.5166
偉	-12.5184
姬	-12.5223
當持淨戒	-12.5224
蓮	-12.601
前是弟子位	-12.6062
復次善男子菩薩摩訶薩復作是願寧	-12.6065
非淨非不淨	-12.6081
常伺人便	-12.6085
是故名為施不具足	-12.6086
豬	-12.6086
然我巳於無量劫中	-12.6087
纂	-12.6089
呵以顯過	-12.609
復次瞋有二種	-12.6091
吾聖教中	-12.6092
欲求正法應如是學	-12.6092
刊	-12.6093
三種藥中無三種病	-12.6094
動見修道品	-12.6094
彌沙塞	-12.6095
湖	-12.6095
英	-12.6097
氎	-12.6097
截其手足	-12.6097
誡勸捨著	-12.6097
不少欲不知足	-12.6098
私謂下荊溪	-12.6098
汝今不應作如是難	-12.6098
毱	-12.6099
亦因亦果	-12.6099
搥	-12.61
成就如是無量無邊功德	-12.61
未治本云	-12.61
唅	-12.61
眄	-12.6101
絍	-12.6101
佛性之性不生涅槃	-12.6101
械	-12.6101
得名薩婆若智	-12.6102
迦鄰提	-12.6103
人中之雄	-12.6103
莎	-12.6103
鵠	-12.6103
菩薩百三十億	-12.6104
穉	-12.6104
則不得名一闡提也	-12.6104
烝	-12.6104
8	-12.6105
溪	-12.6105
o	-12.6106
風所吹	-12.6106
ḥ	-12.6106
▁釋師子吼品之	-12.6106
▁ka	-12.6106
得斷除一切煩惱	-12.6106
襯	-12.6106
麵	-12.6106
殺闡提無罪	-12.6106
噓	-12.6107
師子吼菩薩摩訶薩白佛言	-12.6107
云何復示現究竟於涅槃	-12.6107
為諸眾生調伏因緣故	-12.6107
十六惡律儀	-12.6107
渚	-12.6107
影現於外	-12.6108
錢塘沙門釋智圓	-12.6108
折攝涅槃用	-12.6108
智慧臺殿	-12.6108
清冷水	-12.6108
勤求出道	-12.6108
遇與不遇	-12.6108
上妙甘饍	-12.6109
拭	-12.6109
持刀仗	-12.6109
牛頭栴檀	-12.6109
以偈讚佛	-12.6109
亦有差別亦無差別	-12.6109
於自身中觀如來性	-12.6109
是故當知無善惡果	-12.6109
是則於我法中能得解脫	-12.611
調婆達	-12.611
璞	-12.611
梗	-12.611
鏃	-12.611
若老若少	-12.611
如子肉想	-12.611
無上正真之道	-12.611
持如是等供養之具	-12.6111
雪山甘藥	-12.6111
六反震動	-12.6111
婚	-12.6112
未得第二第三住處	-12.6112
胃	-12.6112
蝶	-12.6112
信順一實	-12.6112
日可令冷	-12.6112
纓	-12.6112
心共貪生心共貪滅	-12.6113
敝	-12.6113
闍提首那	-12.6113
諸法悉有自性	-12.6113
卅	-12.6113
邈	-12.6113
貰	-12.6113
邃	-12.6113
趺	-12.6113
其犢調善	-12.6113
秤	-12.6114
迅	-12.6114
㭊	-12.6114
蔑	-12.6114
壞命根死	-12.6114
住在異處	-12.6114
二舉譬帖	-12.6114
入禪定窟	-12.6115
姓瞿曇氏	-12.6115
如娑羅娑鳥	-12.6115
隙	-12.6116
攝惡攝邪	-12.6116
何以故下釋以顯	-12.6116
可疾問之	-12.6116
苑	-12.6116
兩因兩果	-12.6116
是續待二假	-12.6116
鵰	-12.6116
五熱炙身	-12.6116
五顯示入證決定分	-12.6117
弈	-12.6117
生育諸子	-12.6117
綴	-12.6117
不牢固	-12.6117
如蟲食木	-12.6117
波利質多樹	-12.6118
云何未發心而名為菩薩	-12.6118
催令速	-12.6118
一因生一切果	-12.6118
㮏	-12.6118
云何當言如來祕藏	-12.6118
受我微供	-12.6118
恍	-12.6119
墟	-12.6119
於前義中有難解者	-12.6119
潮不過限	-12.6119
字悉達多	-12.6119
末利夫人	-12.6119
吾今此身即是法身	-12.6119
深固難拔	-12.612
以法常故諸佛亦常	-12.612
從遠方來	-12.612
今於此間拘尸那城	-12.612
拏	-12.612
媱	-12.612
盆	-12.6121
鍼	-12.6121
忍之為德	-12.6121
褐	-12.6122
非變易法非磨滅法	-12.6122
避苦求樂	-12.6122
作倡伎樂	-12.6122
蛤	-12.6123
還其所止	-12.6123
秋收冬藏	-12.6123
成就出世間大人功德	-12.6123
驃	-12.6124
帝釋諸天所共敬重	-12.6124
出已即住	-12.6124
推步盈虛	-12.6125
譬如聖王所有輪寶	-12.6125
楹	-12.6125
如乳即成酪	-12.6125
腋	-12.6125
阿竭陀	-12.6126
牒以直非	-12.6126
即實而權	-12.6127
緣合則受	-12.6127
佛之真子	-12.6127
霄	-12.6127
轡	-12.6128
邏時乃至老時	-12.6128
巷	-12.6129
嚚	-12.6129
牒以結之	-12.613
九十八使	-12.6131
酉	-12.6131
冥初生覺	-12.6131
勑	-12.6131
兜	-12.6132
訥	-12.6132
塘	-12.6132
色香味具	-12.6132
䆳	-12.6132
閙	-12.6133
九孔常流	-12.6133
牒佛上言	-12.6135
碁	-12.6135
裝	-12.6136
仞	-12.6141
囈	-12.6141
姑	-12.6142
漸漸轉深	-12.6143
𤘽	-12.6143
庾	-12.6145
於母生愛	-12.6145
擅	-12.6145
魯流盧樓	-12.6146
泝	-12.6147
從真起應	-12.6147
當自摩頭	-12.615
熙	-12.615
饕	-12.6152
瀾	-12.6152
餮	-12.6153
嶽	-12.6156
書缺二字	-12.6156
祭	-12.6168
▁二初法下隨	-12.6251
肯	-12.6949
菩薩觀此煩惱猶如大河	-12.719
是故稱佛為無上醫	-12.7196
士調御丈夫天人師佛世尊	-12.7197
今者近在王舍城住	-12.7197
圓光一尋	-12.7199
於無量義說無量名	-12.7199
菩薩觀於五陰如旃陀羅	-12.7199
聞者亦解說於眾生	-12.7201
有菩薩安住如是金剛三昧	-12.7201
是故名為智不具足	-12.7202
為諸弟子說如是法	-12.7203
增過如經不得	-12.7204
瑰	-12.7206
身中有妙藥王	-12.7206
我諸弟子聞是說巳不解我意唱言佛說	-12.7207
我於處處經中說	-12.7207
是故汝等當好制心	-12.7208
復加二分	-12.7208
愛之甚重	-12.7208
亟	-12.7209
燈之與油	-12.7209
置寒林中	-12.7209
偏袒右臂	-12.7209
羅閱祇	-12.7209
復有菩薩自言戒淨	-12.7209
舂	-12.721
雖不常住非念念滅	-12.7211
神通窟法門	-12.7211
雖有弟子解甚深義	-12.7211
呪術仙藥	-12.7212
手自作食	-12.7213
如雪山中雖有毒草亦有妙藥	-12.7213
若有經律作是說者	-12.7213
從須陀洹至辟支佛	-12.7213
見世間常乃至非如去非不如去	-12.7213
所不便食而強食之	-12.7213
唯願為我分別解說	-12.7213
販賣市易	-12.7214
我說是慈有無量	-12.7214
杵	-12.7214
乳中先有酪性	-12.7214
大河水亦無量	-12.7214
若以滅目無以度目有	-12.7214
歒	-12.7214
如十方界所有	-12.7214
滴	-12.7214
攘	-12.7214
佛眼乃至慧眼	-12.7215
叔	-12.7215
憤	-12.7215
阿叔迦樹	-12.7216
企	-12.7216
世尊欲令此諸大眾皆得堅固	-12.7216
陛	-12.7216
聽食三種淨肉	-12.7216
咸言一切悉是無常	-12.7216
霔	-12.7216
云何復名一切義乎	-12.7217
斑	-12.7217
睫	-12.7217
舁	-12.7217
若有沙門若婆羅門若天若魔若梵若人	-12.7217
最尊最上	-12.7217
亦當修習如是二法	-12.7217
我捨家法	-12.7217
訂	-12.7217
凡夫之人不攝五根	-12.7218
占相吉凶	-12.7218
佛世難值	-12.7218
生死大海中云何作船師	-12.7218
不造新業	-12.7218
沒水而死	-12.7218
若人有智慧之照	-12.7218
黏	-12.7219
病去藥亡	-12.7219
云何而言願如來住	-12.722
二修習世間功德分	-12.722
馬師滿宿	-12.722
豺	-12.722
亦因亦因因亦果亦果果	-12.7221
酸	-12.7221
我諸弟子展轉行之	-12.7221
砧	-12.7221
診	-12.7221
若念力堅強	-12.7221
展	-12.7221
如闇遇明	-12.7222
僂	-12.7222
獨處閑居	-12.7222
五住至初住	-12.7222
一詐親善及六大賊	-12.7222
皆是敗壞不安之相	-12.7222
如於掌中觀阿摩勒	-12.7222
懈怠睡眠苦對治	-12.7222
蠆	-12.7223
為欲化度諸眾生故	-12.7223
令我正法廣行流布	-12.7223
尿	-12.7223
灰覆火上	-12.7223
悲近召遠	-12.7224
匪	-12.7224
如鹽性醎	-12.7224
明與闇共住	-12.7224
若汝欲得寂滅樂者	-12.7224
瓌	-12.7224
阻	-12.7224
勿令毀缺	-12.7224
疼	-12.7224
箏	-12.7224
聘	-12.7224
非男非女	-12.7224
汝等所行是菩薩道	-12.7224
處在深宮	-12.7224
以今難昔	-12.7224
月可令熱	-12.7224
當急捨離亂心戲論	-12.7224
反通俗文	-12.7225
依邪人語	-12.7225
訾	-12.7225
若有初入法者	-12.7225
崔	-12.7225
白㲲千張	-12.7225
寓	-12.7225
二十五有有我不耶	-12.7225
汝今不應發如是言	-12.7225
壺	-12.7225
如龜陸生	-12.7225
蕀	-12.7226
以手捧鉢	-12.7226
非醫咎也	-12.7226
是則能有善法	-12.7226
茸	-12.7226
陰無繫者	-12.7226
斷塞諸道	-12.7226
於四供養知量知足	-12.7227
一切世間動不動法	-12.7227
諸善功德皆不得生	-12.7227
厨	-12.7227
從初一日至十五日	-12.7227
無量恒河沙等眾生發	-12.7227
售	-12.7228
如蠶處繭	-12.7228
調柔不動三昧	-12.7228
不見空與不空	-12.7228
互為藥病	-12.7228
我今定是轉輪聖王	-12.7229
瓔	-12.7229
非智緣滅	-12.7229
加二分水	-12.7229
能制人非法	-12.7229
此則略說持戒之相	-12.7229
舡	-12.7229
名色繫縛名色	-12.7229
去地七多羅樹	-12.7229
譬如黑蚖在汝室睡	-12.723
猶如天意樹	-12.723
雙破兩執	-12.723
當有何咎	-12.723
擒	-12.723
是故智者制而不隨	-12.723
臣來朝白	-12.723
慧朗別述	-12.723
䭾	-12.7231
塊	-12.7231
復能充足餘渴仰者	-12.7231
舶	-12.7231
提舍尼	-12.7232
有翻無翻	-12.7232
燈生闇滅	-12.7232
當順僧命	-12.7232
蒱	-12.7232
愜	-12.7232
苦止一世	-12.7232
儻	-12.7233
嘖	-12.7233
頹	-12.7233
我昔曾聞五通仙說	-12.7233
此彼之彼岸	-12.7233
不名入道智慧人也	-12.7233
栴	-12.7233
髮毛爪齒	-12.7233
爆	-12.7234
奄	-12.7234
隨其類音普告眾生	-12.7234
持戒苦行所不能及	-12.7234
右膝著地而發誓言	-12.7234
㪷	-12.7234
冊	-12.7235
拆	-12.7235
勁	-12.7235
悒	-12.7235
蟄	-12.7236
閇	-12.7236
袪	-12.7236
蚖	-12.7236
痢	-12.7236
迢	-12.7236
煩惱毒蛇睡在汝心	-12.7236
如老象溺泥	-12.7236
猥	-12.7237
無得多求壞其善心	-12.7237
欝頭藍弗	-12.7237
厚八十四萬億里	-12.7237
則有枯折之患	-12.7237
自見面貌	-12.7237
王髻中明珠	-12.7238
穽	-12.7238
降神母胎	-12.7238
如羅剎女婦	-12.7238
無所嬈害	-12.7238
揖	-12.7238
是時中夜寂然無聲	-12.7238
知是菩薩所作已辦	-12.7238
迄	-12.7239
佞	-12.7239
郭璞注	-12.724
糅	-12.724
從大生慢	-12.724
今試言之	-12.724
開半明滿	-12.724
藪	-12.7241
競捉瓦石	-12.7241
運手動足	-12.7241
曀	-12.7241
刖	-12.7241
槍	-12.7241
役力農作	-12.7242
菩薩摩訶薩安住具足如是十法	-12.7242
依根本清淨戒	-12.7242
鳩槃荼	-12.7242
􂌤	-12.7242
趣得支身	-12.7242
所演教誨	-12.7243
我婦懷妊	-12.7243
臍	-12.7243
狎	-12.7244
生必是女	-12.7244
鑄	-12.7244
是諸國王及四部眾	-12.7244
瞽	-12.7244
昴	-12.7245
若有不能如是觀者	-12.7245
兢	-12.7246
參預世事	-12.7246
非想非不想處	-12.7246
止行二善	-12.7246
燕	-12.7247
呻	-12.7247
貼	-12.7247
曝	-12.7248
舉小顯大	-12.7248
冑	-12.7248
埋	-12.7248
徙	-12.7249
欲欺我耶	-12.725
駱	-12.7251
蹤	-12.7252
舉手拍頭	-12.7252
它	-12.7252
拂權顯實	-12.7253
是故宜應質直其心	-12.7254
員	-12.7255
阿彌陀	-12.7255
譬如清冷雲中	-12.7256
佩	-12.7256
收光入口	-12.7257
楔	-12.7257
芝	-12.7258
淮	-12.7259
耿	-12.726
隴	-12.7261
寮	-12.7263
下出能空體	-12.7263
中得十一空解	-12.7263
寅	-12.7269
惛	-12.727
虔	-12.7299
▁二初正下隨	-12.7407
▁二此即下隨	-12.7502
▁二初云下隨	-12.771
眼耳鼻舌	-12.8109
來詣佛所稽首請佛	-12.844
欲放逸苦對治	-12.8441
卿若不能犯	-12.8447
乃至一花散於空中	-12.8448
應供正徧知明行足善逝世間解無上	-12.8448
令現輕報轉地獄受	-12.845
珂	-12.8451
剎利婆羅門毗舍首陀	-12.8451
若言乳中定有酪者	-12.8454
如來正爾當般涅槃	-12.8454
其味極甜	-12.8455
根淺易動	-12.8455
寱言刀刀	-12.8455
硨	-12.8456
國王大臣長者居士	-12.8456
鑑	-12.8457
若有瞻病隨意醫藥	-12.8457
駿	-12.8457
摩訶薩修大涅槃行於布施亦復如是	-12.8458
榻	-12.8458
澀	-12.8459
於是義中不能分別	-12.846
復於佛前而說偈言	-12.846
魂	-12.846
非淨淨非不淨淨	-12.846
洽	-12.846
􂍾	-12.846
敲	-12.846
劈	-12.8461
眾中皆悉了達四聖諦義	-12.8461
堀	-12.8461
云何諸調御心喜說真諦	-12.8461
非過去非未來非現在	-12.8461
能為無漏道相	-12.8461
因果自相成就畢竟功德	-12.8461
􂌰	-12.8461
阿浮陀達磨	-12.8462
皃	-12.8462
三請佛正義如來為	-12.8462
家屬修治產業	-12.8462
未聞如是大涅槃時	-12.8462
初牒執非之	-12.8463
羨	-12.8463
復示摩訶衍方便道	-12.8463
一人各有一我	-12.8463
二述事奉答	-12.8463
三合譬作解	-12.8463
嘶	-12.8464
吾當為汝分別宣	-12.8464
夫解脫中無如是事	-12.8464
開法門成就畢竟功德	-12.8465
如由乾陀	-12.8465
云何捨生死如蛇脫故皮	-12.8465
丙	-12.8466
巳合共合	-12.8466
弑	-12.8466
文字品第十三	-12.8466
大總相成就畢竟功德	-12.8466
當以聞思修慧而自增益	-12.8466
縱此心者喪人善事	-12.8466
文殊師利語純陀言	-12.8466
麾	-12.8466
餌	-12.8467
l	-12.8467
ṛ	-12.8467
鴆	-12.8467
▁二六道下歷十界釋義	-12.8467
若言乳中定有酪相	-12.8467
當急挫之	-12.8467
坐於道場菩提樹下	-12.8467
黜	-12.8467
後夜當般涅槃	-12.8468
謟	-12.8468
挽	-12.8468
肢	-12.8468
鉗	-12.8468
著想故倒	-12.8468
駁	-12.8468
則是如來法身常在而不滅也	-12.8469
從凡入聖	-12.8469
魅	-12.8469
矇	-12.8469
如來有憂及以無憂	-12.8469
如牛中無馬	-12.8469
是我最後之所教誨	-12.8469
零	-12.847
當尊重珍敬波羅提木叉	-12.847
和伽羅那	-12.847
不得包藏瑕疵	-12.847
鼉	-12.847
稻米末	-12.847
鳩槃茶	-12.847
勿得復語	-12.847
六分別未入上上證為斷疑分	-12.8471
痒	-12.8471
一切諸法性本自空	-12.8471
地獄重報現世輕受	-12.8471
如是之言即是如來祕密之教	-12.8471
後世諸善種子	-12.8471
舉淺況深	-12.8471
漸次而制	-12.8472
等觀眾生如視一子	-12.8472
分別總相成就畢竟功德	-12.8472
液	-12.8472
四向顧望	-12.8472
百獸孚乳	-12.8472
轉得無上利	-12.8472
水渧雖微	-12.8473
鬼魅所著	-12.8473
云何而言可得見聞	-12.8473
濯	-12.8473
若行者之心數數懈廢	-12.8473
梓	-12.8473
尠	-12.8473
殃及累世	-12.8473
懈怠懶惰	-12.8473
以大悲心復為眾說	-12.8473
常自省察不令有失	-12.8474
憋	-12.8474
餐	-12.8474
起多功德三昧	-12.8474
衿	-12.8474
鏁	-12.8474
願與一切眾生共之	-12.8474
燒香散華	-12.8474
善始令終	-12.8474
當知是經為無威力	-12.8474
若有智慧則無貪著	-12.8474
肥已轉賣	-12.8474
遁	-12.8475
萊	-12.8475
云何於今乃名為生	-12.8475
亢	-12.8475
黿	-12.8475
帚	-12.8475
無副軸	-12.8475
稠	-12.8476
勗	-12.8476
觸事有餘常無不足	-12.8476
蚤	-12.8476
甘味多故不能自變	-12.8476
暨	-12.8476
嫁	-12.8476
澗	-12.8477
一色一香無非	-12.8477
晝則勤心修習善法	-12.8477
善言誘喻	-12.8477
分別校計有無量種	-12.8477
悉皆當得不動果報	-12.8477
迦葉如來有是經不	-12.8477
云何解滿字及與半字義	-12.8477
塼	-12.8478
瘖	-12.8478
踔	-12.8478
賸	-12.8478
阿摩勒果	-12.8478
悉與一切眾生共之	-12.8479
跨	-12.8479
遞	-12.8479
雕	-12.8479
初夜後夜亦勿有廢	-12.8479
若有人來節節支解	-12.8479
蒭	-12.848
剝皮為紙	-12.848
投淵赴火	-12.848
當斬其首	-12.848
答知法性問	-12.848
輕業重受	-12.848
以佛道聲令一切聞	-12.848
麋	-12.848
操	-12.8481
迦葉復白去	-12.8481
兜術天	-12.8481
汝等但當勤而行之	-12.8481
慈光善巧住持分	-12.8482
優曇鉢華	-12.8482
後致有悔	-12.8482
菩薩知於僧相	-12.8482
從微至著	-12.8482
貸	-12.8482
一切眾生無不瞻仰	-12.8483
得廣長舌	-12.8483
羈	-12.8483
撥亂反正	-12.8483
淚下如雨	-12.8483
諸佛法應爾	-12.8483
咀	-12.8483
承佛聖旨	-12.8484
糟	-12.8484
正助合行	-12.8484
懸繒幡蓋	-12.8484
止他客舍	-12.8484
於諸常中最為第一	-12.8484
戒是正順解脫之本	-12.8484
阿㝹樓䭾	-12.8485
𦟛	-12.8485
籌量牛力所堪多少	-12.8485
常為無量煩惱所覆	-12.8485
常當自勉精進修之	-12.8485
則自妨道	-12.8486
不令過分以竭其力	-12.8486
亦如惡馬不以轡制	-12.8486
薉	-12.8486
暉	-12.8486
膿	-12.8487
提頭賴吒	-12.8487
觜	-12.8487
為斷彼彼疑	-12.8487
阿尼樓馱	-12.8487
亦當護口勿出惡言	-12.8488
儔	-12.8488
柵	-12.8489
蟬	-12.8489
受諸飲食當如服藥	-12.8489
黠	-12.8489
細相習障	-12.8489
翫	-12.8489
弶	-12.8489
梵佉婁	-12.8489
餧	-12.849
〈	-12.849
嚼	-12.849
〉	-12.849
有難解者問答重	-12.8491
菜	-12.8491
入道之人則無是處	-12.8491
延年益壽	-12.8491
革凡成聖	-12.8491
翔	-12.8492
箱	-12.8492
芸	-12.8492
藿	-12.8492
世智辯聰	-12.8493
琦	-12.8493
訴	-12.8493
概	-12.8493
四不疲倦功德	-12.8493
板	-12.8493
䅎	-12.8493
搥胸大叫	-12.8494
如雜血乳	-12.8494
牛無損命	-12.8494
破其滯邊失理	-12.8495
皺	-12.8495
節身時食	-12.8495
舉劣況勝	-12.8495
菟	-12.8495
璽	-12.8495
巨億萬倍	-12.8496
瘠	-12.8496
騃	-12.8497
矚	-12.8498
卷成部第	-12.8499
晨	-12.8499
恒河中七種眾生	-12.8499
鍋	-12.8501
峙	-12.8502
楷	-12.8504
亦復不為諸根所牽	-12.8505
吼通兩處	-12.8509
驕	-12.8509
蹋	-12.851
煬	-12.8511
抽	-12.8514
沐	-12.8514
先出所空境	-12.8516
頭蒙塵土	-12.8523
釰	-12.853
甫	-12.8534
惺	-12.8538
▁二初標下隨	-12.8551
常命色力安無礙辯	-12.8558
一列眾歎德	-12.857
▁二法說下隨	-12.8585
▁二初番下隨	-12.8596
▁二就初下隨	-12.8728
菊	-12.9869
是名隨他意說	-12.987
祗	-12.9873
於下苦中而生樂想	-12.9876
於方等經不起誹謗	-12.9877
禾	-12.9878
鬱頭藍弗	-12.9878
心好修善修福極	-12.9878
雖無此岸而有彼岸	-12.9879
樏	-12.988
不縱不橫不竝不別	-12.988
不能暫時親近五陰	-12.988
而修捨想是第	-12.988
漓	-12.9882
三種病中無三種藥	-12.9882
用僧鬘物	-12.9882
是故號佛為世間解	-12.9883
姚秦涼州沙門竺佛念譯	-12.9883
不知親近善知識故	-12.9883
譬如有人身被毒箭	-12.9884
想及以命想	-12.9884
云何諸菩薩遠離一切病	-12.9884
獲有餘無餘涅槃之名	-12.9885
懦	-12.9886
城內一切士女	-12.9886
根深難可傾拔	-12.9886
令彼女人見如是事	-12.9887
毼	-12.9887
所設供養倍勝於前	-12.9888
燄	-12.9888
舜	-12.9888
噎	-12.9888
涱	-12.9889
琅	-12.9889
人與獼猴俱不	-12.989
狩	-12.989
弟子成就畢竟功德	-12.989
輕報地獄重受	-12.989
於自身中生決定	-12.989
一切眾生等共有之	-12.989
是大眾中有此光明	-12.989
矩	-12.9891
煩惱果非煩惱因	-12.9891
餘緣亦一境	-12.9891
時憍陳如受佛勅	-12.9891
谿	-12.9891
咤	-12.9891
是故菩薩名無所得有所得者名	-12.9892
熠	-12.9892
𧑃	-12.9892
眼識應獨緣一切	-12.9892
不解如來微密藏故	-12.9892
軄	-12.9892
嬰兒行品第二十一	-12.9892
如蚊子澤	-12.9892
奕	-12.9893
如蛇脫故皮	-12.9893
地平如掌	-12.9893
緣是輕毀涅槃經故	-12.9893
於他語言隨順不逆	-12.9893
若攝心者心則在定	-12.9893
癃	-12.9893
猿猴得樹	-12.9894
左脇出水	-12.9894
旋還赴救	-12.9895
j	-12.9895
木牛木馬	-12.9895
唯觀白骨	-12.9895
▁bhag	-12.9895
ṇ	-12.9895
後宮妃后	-12.9896
征	-12.9896
不縱不橫不並不別	-12.9896
藂	-12.9896
黐	-12.9896
天降甘雨	-12.9896
螺	-12.9897
楯	-12.9897
右脅而臥	-12.9897
優曇鉢花	-12.9897
稽首請我轉	-12.9897
我今得滅如除惡病	-12.9897
阿浮陀達摩	-12.9897
踝	-12.9897
則是度老病死海堅牢船也	-12.9898
從漸入頓	-12.9898
抆	-12.9898
如來終不作如是計	-12.9898
戮之都市	-12.9898
施一闡提得千倍報	-12.9898
綌	-12.9898
若失念者則失諸功德	-12.9899
若我久住更無所益	-12.9899
揩	-12.9899
發心畢竟二不別	-12.9899
菩薩摩訶薩修於淨身	-12.9899
苦若滅者即是因滅	-12.9899
童男童女	-12.9899
阿迦尼吒	-12.9899
擇法覺分	-12.99
於非轉處而生轉想	-12.99
汝等若於苦等四諦有所疑者	-12.99
姿	-12.99
一人得時應多人得	-12.99
無以睡眠因緣令一生空過無所得也	-12.99
會而不離終不可得	-12.99
舉身毛豎	-12.9901
􂚭	-12.9901
云何於大眾而得無所畏	-12.9901
直是諸佛斷煩惱處	-12.9901
雖入五欲賊中不為所害	-12.9901
我佛法中其誰是耶	-12.9901
云何知天魔為眾作留難	-12.9901
初重敘前難	-12.9901
我今為汝除斷貧窮	-12.9902
能明見涅槃無相	-12.9902
腑	-12.9902
中夜誦經以自消息	-12.9902
會三寶歸一寶	-12.9902
譬如惜水之家	-12.9902
跌	-12.9902
蔡	-12.9903
噁	-12.9903
家姓尊貴	-12.9903
法師成就畢竟功德	-12.9903
智者見空及與不空	-12.9903
若我住世一劫會亦當滅	-12.9903
自墜高巖	-12.9904
有少欲者則有涅槃	-12.9904
髠	-12.9904
佷	-12.9904
槌	-12.9904
縵	-12.9904
吏	-12.9905
執杖視之	-12.9905
㿇	-12.9905
亨	-12.9905
這	-12.9905
惶	-12.9905
非一切果從一因生	-12.9905
飼	-12.9906
早求自度勿睡眠也	-12.9906
飛鳥走獸	-12.9906
不令縱逸犯人苗稼	-12.9906
若勤精進則事無難者	-12.9906
無得懷疑不求決也	-12.9906
眉間有金剛珠	-12.9906
買已屠殺	-12.9906
當念無常之火燒諸世間	-12.9906
大火越逸	-12.9906
若言因中先定有果	-12.9906
滅苦之道實是真道更無餘道	-12.9906
是故我於契經中說	-12.9906
蔔	-12.9906
一切聖人隱不現時	-12.9906
熬	-12.9906
不生煩惱乃名涅槃	-12.9907
何因緣故而作是難	-12.9907
其不能歡喜忍受惡罵之毒如飲甘露者	-12.9908
踏	-12.9908
則不應求修習聖道	-12.9908
難陀龍王及婆難陀	-12.9908
唯除助道常樂善法	-12.9909
刁	-12.9909
歛	-12.9909
轅	-12.9909
飲以清水	-12.9909
是呪能令諸失心者	-12.9909
主諦依諦	-12.9909
舛	-12.991
內無色相外觀色	-12.991
一切三昧悉入其中	-12.991
琪	-12.991
為知足者之所憐愍	-12.9911
中初問次辨後結	-12.9911
於師子床上右脇倚臥	-12.9911
㿃	-12.9911
儭	-12.9911
凡夫有苦無諦	-12.9911
有諸外道復言有樂	-12.9911
無明憍慢及無常想	-12.9911
插	-12.9912
柯	-12.9912
能吼無量師子吼	-12.9912
菔	-12.9912
熨	-12.9912
輞	-12.9912
結好貴人	-12.9912
舌爛口中	-12.9912
坻羅婆夷	-12.9912
邠	-12.9912
駮	-12.9912
琳	-12.9913
湎	-12.9913
父名淨飯	-12.9913
佛告定化王菩薩	-12.9913
睒	-12.9913
所召有數類名	-12.9914
世間縛著沒於眾苦	-12.9914
於好於惡勿生增減	-12.9914
洟	-12.9914
腎	-12.9914
苐	-12.9914
皆當遠離如避火坑	-12.9914
歇	-12.9915
呾	-12.9915
俸	-12.9915
時有無量諸大弟子	-12.9915
得生諸禪定及滅苦智慧	-12.9915
持之如賊不令縱逸	-12.9915
祁	-12.9915
殺亦如是凡夫謂實諸佛世尊知其非真	-12.9916
而為我等之所瞻仰	-12.9916
彗	-12.9916
班	-12.9916
剪	-12.9916
颺	-12.9917
萍	-12.9918
汝等深心看我	-12.9918
倪	-12.9918
厝	-12.9918
酌	-12.9918
如被劫害	-12.9918
自淺階深	-12.9918
樗	-12.9919
賊來侵國	-12.9919
兩本兩末	-12.992
弄	-12.992
逈	-12.992
衝	-12.9921
窓	-12.9921
阿耆多翅舍	-12.9921
芳	-12.9921
從慢生十六法	-12.9921
眊	-12.9921
捨諸放逸如離怨賊	-12.9921
餘命無幾	-12.9922
鍾	-12.9923
沓	-12.9923
駃	-12.9923
廢半明滿	-12.9923
丑	-12.9923
虻	-12.9924
琰	-12.9924
若起憍慢當疾滅之	-12.9925
復倍上數	-12.9925
濡	-12.9926
陜	-12.9926
斲	-12.9926
匂	-12.9928
搏	-12.9929
糩	-12.993
窘	-12.993
松	-12.993
當知諂曲但為欺誑	-12.9931
猶如拍毱	-12.9933
瞋猶可恕	-12.9934
匐	-12.9934
兩羊相觸	-12.9934
俊	-12.9935
卓	-12.9937
模	-12.9939
燎	-12.9944
朔	-12.9947
壬	-12.9948
灾	-12.995
撝	-12.9951
何況出家入道之人	-12.9952
尚非世俗白衣所宜	-12.9952
繕	-12.9954
憊	-12.9963
賀	-12.9972
穆	-12.9973
裕	-12.9992
墳	-13.0031
如是如是誠如聖	-13.0169
耳鼻舌身	-13.0347
□□□□□□。□□□	-13.0441
菩提眾生如來等無二行	-13.1511
是光明中亦說如來祕密之藏	-13.1515
既能還自照	-13.1519
一切因地草木葉多	-13.1528
人者發意欲度生死大河斷善根故	-13.1531
世間智人說五欲樂有	-13.1534
𢷤	-13.1534
迦枳樓伽	-13.1535
出生妙善甘露法味	-13.1539
不見於我及以我所	-13.1539
樂於慧施修習智慧	-13.154
當知爾時不宜修捨	-13.154
嘻	-13.1542
指舉此大石	-13.1542
几	-13.1542
橫興逆害	-13.1542
那睺沙王	-13.1542
審有是師能除我罪	-13.1543
不失所作自利益事	-13.1543
亦復不應戲論諍訟	-13.1544
亦不言我能自生	-13.1544
木男木女	-13.1545
云何方欲為我給使	-13.1545
菩薩觀察五陰如旃陀羅	-13.1545
如人喜眠眠則滋多貪淫嗜酒亦復如是	-13.1546
恕己可為譬	-13.1546
虎豹豺狼	-13.1547
以是等譬及餘無量無邊譬喻	-13.1548
碓	-13.1548
為五陰之所賊害	-13.1548
隨我所行至我至處	-13.1548
二語了於一語	-13.1549
此五根者心為其主	-13.1549
然後為說微妙正法	-13.1549
埽	-13.155
我雖為是善星說法	-13.155
為有婚姻歡樂會乎	-13.155
云何如日月太白與歲星	-13.155
柹	-13.155
不可以譬喻為比	-13.155
襦	-13.155
若我住世無異此也	-13.1551
善知眾生諸根利鈍	-13.1551
􂎟	-13.1551
迦陵頻伽	-13.1552
摩訶薩修大涅槃成就具足第四功德	-13.1552
云何當是佛之正典	-13.1552
躳	-13.1552
推步盈虗	-13.1552
若有能持如是呪者	-13.1552
銘	-13.1553
乃至意界性分	-13.1553
若有菩薩具足如是二莊嚴者	-13.1553
雖復不與女人和合	-13.1553
是名暫出還復沒	-13.1553
乃至熾然世法而說	-13.1554
陟	-13.1554
心動者即五逆因	-13.1554
勿殺勿行杖	-13.1554
若能斷除三十七品所行之事	-13.1554
是法雖復性是五陰	-13.1554
諸智者而作佛事	-13.1554
撻	-13.1555
我今於此非色法中	-13.1555
髮白面皺	-13.1555
云何佛問何因緣故有是光明	-13.1555
生於食吐鬼中	-13.1555
犁	-13.1555
噦	-13.1556
單俗複真	-13.1556
一往結撮是問	-13.1556
於乘緩者乃名為緩	-13.1556
麤垢自落	-13.1556
十住菩薩於如來性知見少分亦復如是	-13.1556
澓	-13.1557
云何而得近最勝無上道	-13.1557
以大願力願生其中	-13.1557
安置諸子祕密藏中	-13.1557
以智慧明滅諸癡暗	-13.1557
嶷	-13.1557
竢	-13.1557
騰躍踔躑	-13.1557
不能造作大小諸事	-13.1557
壞欲界結獲得四禪	-13.1557
迦尼迦樹	-13.1557
我今甚樂出家修道	-13.1558
鎔	-13.1558
隨宜方便開示三乘	-13.1558
汝等遇我不應空過	-13.1558
又從地獄乃至於佛	-13.1558
寶貨求而得脫	-13.1558
鷹	-13.1559
菩薩摩訶薩修行如是大涅槃者	-13.1559
如是女人慈念功德	-13.1559
平處顛墜	-13.1559
捨身直入阿鼻地獄	-13.1559
痰	-13.1559
北印度健陀羅國	-13.156
撤	-13.156
顇	-13.156
如彼老人受他寄	-13.156
投巖赴火	-13.156
曷	-13.156
雖無形色而可護持	-13.156
唯不能治必死之人	-13.156
善星比丘為我給使	-13.1561
虱	-13.1561
遊步強耶	-13.1561
檻	-13.1562
品之二會疏第	-13.1562
乾闥婆阿脩羅迦樓羅緊那羅摩睺羅伽	-13.1562
我本修行菩薩行時	-13.1562
即得斷除一切色欲	-13.1562
我今當往至如來所	-13.1562
𠍴	-13.1562
毘摩質多阿修羅王	-13.1562
若離慚恥則失諸功德	-13.1563
如囚趣市	-13.1563
汝欲令我久住世者	-13.1563
伎樂不鼓自鳴	-13.1563
於此最後供養我者	-13.1563
𠲿	-13.1563
伐煩惱樹之利斧也	-13.1563
於是母子遂共俱沒	-13.1564
本有那得有始有	-13.1564
雪山有草名曰肥膩	-13.1564
一切病者之良藥也	-13.1564
亦是無明黑暗大明燈也	-13.1564
此空中無佛法僧及與佛性	-13.1564
心在定故能知世間生滅法相	-13.1564
洄	-13.1565
若以身先無因緣故名為無者	-13.1565
亦即非鬼非非鬼	-13.1565
除諸滓穢	-13.1565
無悔恨心自然而生	-13.1565
則不得稱我為如來具	-13.1565
拯及無量苦惱眾生	-13.1565
智上意地能緣	-13.1565
視諸眾生同於一子	-13.1565
如是之人甚為希有	-13.1566
昂	-13.1566
啑	-13.1566
三約諸法廣明中道	-13.1566
朋友二人度數三十	-13.1566
羹	-13.1566
殞	-13.1566
若有隨順佛經律者	-13.1566
冀得充足如來大眾	-13.1566
卿若遲晚	-13.1566
悲泣雨淚以手抆淚	-13.1566
謔	-13.1566
審能如是除滅我罪	-13.1567
我當終身為汝弟子	-13.1567
汝不可以有退心故	-13.1567
能令樂業受苦果不	-13.1567
我未獲得正解脫時	-13.1567
涼天竺三藏曇無讖譯如來性品第四之	-13.1567
於今中夜當般涅槃	-13.1567
如雪山中雖有毒草	-13.1568
眾生非具以不具故云何可斷一闡名	-13.1568
博達今古	-13.1568
金剛寶藏滿足無缺	-13.1568
以是因緣喪失身命	-13.1568
禹	-13.1568
號佛為無上師	-13.1568
復次世尊世有病者	-13.1568
誣	-13.1568
沒在老病生死大海	-13.1569
如是四法所應依止	-13.1569
菩薩摩訶薩以能修習大涅槃故	-13.1569
不為世法之所滯	-13.1569
令嬰兒安樂無患	-13.1569
菩薩摩訶薩於慈心中布施漿時	-13.1569
弘廣菩薩當能流布	-13.1569
勿令放逸入於五欲	-13.1569
孱	-13.157
吹香山中種種香藥	-13.157
狂象無鉤	-13.157
現在諸佛所制禁戒	-13.157
桁	-13.157
於六神中我為最	-13.157
苨	-13.157
醘	-13.157
深進大海水潮三昧	-13.157
若種種戲論其心則亂	-13.157
是則名為心隨於身	-13.157
法亦復如是於諸善法為最為上善男子	-13.157
▁375]	-13.1571
現在世中雖無利益	-13.1571
阿泥樓豆	-13.1571
受觸識六入等	-13.1572
譬如夜見電光即得見道	-13.1572
王覺瘡愈	-13.1572
譬如小水常流則能穿石	-13.1572
剎那羅婆牟休多	-13.1572
課	-13.1572
聯	-13.1572
於下苦中橫生樂想	-13.1573
如因乳生酪	-13.1573
昔所不到而今能到	-13.1573
見佛滅度當有悲感	-13.1573
無量無數阿僧祇恒河沙微塵等世界	-13.1573
瑋	-13.1573
阿竭多星	-13.1573
要因煩惱而得有身	-13.1573
葵	-13.1573
贍	-13.1574
駄	-13.1574
爾時聖王復與七寶一切營從	-13.1574
膾	-13.1574
貍	-13.1574
挍計有無量種	-13.1574
是時寶珠猶在水中	-13.1574
一摩睺多頃	-13.1574
復令無量無邊眾生墮於地獄	-13.1574
渜	-13.1574
猶如河岸臨峻大樹	-13.1574
身瘡增劇	-13.1575
腫	-13.1575
阿尼樓駄	-13.1575
深樂觀察諸對治門	-13.1575
􂚉	-13.1575
恊	-13.1575
糓	-13.1575
詣師學書	-13.1575
闚	-13.1575
如來今者在我前住	-13.1575
若得定者心則不散	-13.1575
菩薩摩訶薩於慈心中施車乘時	-13.1575
於無數劫修習淨戒	-13.1575
如步屈蟲	-13.1576
知足之人雖貧而富	-13.1576
內有色相外觀色	-13.1576
牡	-13.1576
不知足者雖富而貧	-13.1576
潰	-13.1577
施畜生得百倍報	-13.1577
無業無結而轉二果	-13.1577
帙	-13.1577
雖臥地上猶為安樂	-13.1578
當自攝心無令瞋恨	-13.1578
涕淚交流	-13.1578
皆亦不久見其磨滅	-13.1578
猶如仰觀虛空月形	-13.1578
於其家掘出金藏	-13.1578
雖處天堂亦不稱意	-13.1578
復得難得無上之利	-13.1578
純以惡人而為眷屬	-13.1578
從其面門放種種光	-13.1579
一切諸業悉得現報	-13.1579
燿	-13.1579
􂙻	-13.1579
會漸歸頓	-13.158
迦陵伽衣	-13.158
聖慧日光從今永滅	-13.158
我等為佛及比丘僧設是供具	-13.158
家人大小無有知者	-13.158
將當牽人墜於坑陷	-13.1581
為佛及僧辦諸供具	-13.1581
𨵗	-13.1581
折骨為筆	-13.1581
鎻	-13.1581
不見我刀真實之相	-13.1581
阿薩闍病	-13.1581
定化王菩薩白	-13.1581
畜養人民奴婢畜生	-13.1582
睡蛇既出乃可安眠	-13.1582
鬧	-13.1582
初不同凡夫增過護	-13.1582
何故不生佉陀羅樹	-13.1582
於諸梵行說法不倦	-13.1582
徤	-13.1582
牖	-13.1583
太子未紹位	-13.1583
如觀掌中菴摩勒果	-13.1583
當以持戒之鉤早	-13.1583
所不愛者而共聚集	-13.1583
若於山間若空澤中	-13.1584
所可示化無量形類	-13.1585
橛	-13.1585
其人愛心習猶未盡	-13.1585
我庫藏中無如是刀	-13.1585
若縱五根非唯五欲	-13.1585
珠陷入體	-13.1585
初根欲放逸苦	-13.1585
厚賜俸祿	-13.1585
閑處靜室	-13.1585
栴檀貿易凡木	-13.1585
曩	-13.1586
急乘緩戒	-13.1586
於此眾中所作未辦者	-13.1586
痴	-13.1586
若依今義只是所離	-13.1586
惚	-13.1586
咲	-13.1587
法印權大僧都賢寶	-13.1587
騎	-13.1587
十因緣法為生作因	-13.1587
如彼小兒及常患者	-13.1587
𨷲	-13.1588
無有我作他人受果	-13.1588
為正法除諸結使	-13.1588
瓫	-13.1588
諂曲之心與道相違	-13.1588
計空不及無以為喻	-13.1588
眷	-13.1588
樣	-13.1588
如是等疑亦得永斷	-13.1588
示一身以為多身	-13.1589
若樂眾者則受眾惱	-13.1589
二不同外道損智護	-13.159
匱	-13.159
如斧伐樹	-13.159
佛出世難如優曇	-13.1592
法及僧而作常想	-13.1592
魁	-13.1592
䗶	-13.1592
外道之人先斷煩惱至無所有處	-13.1592
紏	-13.1593
云何說有十時別異	-13.1593
應如過去轉輪聖王所行道	-13.1593
不能善攝此五根者	-13.1594
斷取十方三千大千諸佛世界	-13.1594
得以果家之果為果果	-13.1594
圭	-13.1595
能行忍者乃可名為有力大人	-13.1596
巴	-13.1596
是乳雖從草血	-13.1596
𪉖	-13.1597
且各裁抑	-13.1599
葬	-13.1599
兇	-13.1601
措	-13.1601
筞	-13.1601
􂙾	-13.1601
凌	-13.1602
詭	-13.1602
尒	-13.1602
䩸	-13.1603
矢	-13.1603
餔	-13.1604
菩薩如是淨持戒聚	-13.1605
握	-13.1607
青黑木蘭	-13.1609
掣	-13.161
少欲之人無求無欲則無此患	-13.1612
緯	-13.1612
脆	-13.1613
囂	-13.1614
薊	-13.1617
筭	-13.1617
双	-13.1619
𤛓	-13.1622
自降其身而行乞	-13.1625
叨	-13.1625
乱	-13.1629
浦	-13.1629
壹	-13.1661
宍	-13.1678
辜	-13.3376
我今施汝常命色力	-13.3402
凖	-13.3507
晏	-13.3518
法即是僧僧即是慈慈即如來善男子慈	-13.3518
衢	-13.3525
八師子七寶之座	-13.3531
俞	-13.3533
我諸弟子聞是說巳不解我意	-13.3536
我時即為如應說法	-13.3536
徃	-13.3537
結跏趺坐	-13.3538
𣄢	-13.3538
云何了因而獨有二	-13.354
我所立我亦在作中	-13.3545
毅	-13.3546
岐	-13.3546
罻	-13.3546
宙	-13.3547
始於今日乃得真智	-13.3547
尼拘陀子無五丈性	-13.3547
諸憶念法不應忘失	-13.3547
朋友三人度數	-13.3547
非現生後受是惡業	-13.3548
知其地當有是藥	-13.3548
藥真味停留在山猶如滿月	-13.3548
如來今當施我法藥	-13.3548
後解脫時乃能證知	-13.3548
若一經耳即生天上	-13.3548
云何為生盲而作眼目導	-13.3548
蹄	-13.355
若無瞻病隨意醫藥	-13.355
眾生薄福不見是草	-13.3551
於一法中作二種說	-13.3551
額上珠為何所在	-13.3551
一切憍慢勢極暴惡	-13.3551
杯	-13.3551
緇	-13.3551
依了義經不依不了義經	-13.3552
如來波旬說云何分別知	-13.3552
猶如彼人當受千罰	-13.3552
若使虛空離空有住	-13.3552
信六部不信六部	-13.3552
蟠	-13.3552
崔豹古今注	-13.3553
獷	-13.3553
不能自了亦不了他	-13.3553
修大涅槃成就具足第三功德	-13.3553
薳	-13.3554
蒂	-13.3554
賢善之人一切愛念	-13.3554
骨節疼痛	-13.3554
堂下多有流泉浴池	-13.3554
非陰界入之所攝持	-13.3554
姧	-13.3554
寧抱是熾然火聚	-13.3554
渙	-13.3555
人與獼猴能行處者	-13.3555
方等經者猶如甘露亦如毒藥	-13.3555
簡起中道見故不見	-13.3555
能摧波旬所立勝幢	-13.3555
坁	-13.3555
摛	-13.3556
世實危脆無牢強者	-13.3557
聽是梵志出家受戒	-13.3557
若佛祕藏大涅槃經有威力者	-13.3557
淤	-13.3557
有妙甘藥出於雪山	-13.3557
烟雲塵霧	-13.3558
如諸迹中象迹為	-13.3558
陿	-13.3558
依邪藥作世辯不正語	-13.3559
得供事不應畜積	-13.3559
梏	-13.3559
剜	-13.3559
是佛法中非一二三乃至五百	-13.3559
貽	-13.3559
大般涅槃經高貴德王菩薩品之	-13.3559
祝	-13.3559
璀	-13.356
璨	-13.356
世間之法有定用處	-13.356
如殺怨賊而不歡喜	-13.356
聾盲瘖瘂	-13.356
而未能知所因云何	-13.356
於戒緩者不名為緩	-13.356
譬如有人沒圊廁中	-13.356
瑜	-13.356
疇	-13.3561
若有不知苦集諦處	-13.3561
將非如來虛妄說耶	-13.3561
我亦不能久住毒身	-13.3561
於無我中而生我想	-13.3561
丞	-13.3561
不為世法之所霑汙	-13.3561
ī	-13.3562
品之三會疏第	-13.3562
結好貴人親厚媟慢皆不應作	-13.3562
凞	-13.3562
璫	-13.3562
若天上人間皆悉已度	-13.3562
懟	-13.3562
窻	-13.3562
嘔	-13.3562
瓮	-13.3562
▁釋獅子吼品之	-13.3562
當知此則是汝大師	-13.3562
虺	-13.3562
舍譯提耶舍譯	-13.3562
䩕	-13.3563
嚙	-13.3563
所食之物亦無差別	-13.3563
虐	-13.3563
謂從一地乃至十地	-13.3563
知煩惱煩惱因煩惱果報煩惱輕重	-13.3564
援	-13.3564
能令無報作定報不	-13.3564
唯願大王寬意莫愁	-13.3564
椽	-13.3564
蜫	-13.3564
兼答第一第二罪人問	-13.3565
善修禪定令不漏失	-13.3565
托	-13.3565
是時客醫復語王	-13.3565
唯當善滅戲論之患	-13.3565
何緣獨稱諸佛有之	-13.3565
如發心向佛舉足一步	-13.3565
僧是發心善修行者	-13.3565
至第十六道比智時	-13.3565
隨問而施對此土菩薩眾	-13.3565
肴	-13.3566
無上法雨雨汝身田	-13.3566
世界名意樂美音	-13.3566
屎	-13.3566
雕文刻鏤	-13.3566
若業定得現世報者	-13.3566
謚	-13.3566
高齊天竺三藏那連提	-13.3567
佛具一味大慈心	-13.3567
汝今現世得大名利	-13.3568
集真是因更無異因	-13.3568
不為陰魔所墮	-13.3568
瓠	-13.3568
而彼父母欲教其語	-13.3568
蜣	-13.3568
復不能知身有樂性	-13.3568
巢	-13.3568
說有東西南北	-13.3568
乳不假緣必當成酪	-13.3569
翦	-13.3569
不應以親認佛	-13.3569
如醫療病不為病	-13.3569
從信根等至八聖道	-13.3569
復見大眾悉發誓願	-13.3569
淘	-13.3569
乃至不欲眼見是王	-13.3569
於三界中不生愛著	-13.3569
還自墜落墮凡夫地	-13.3569
以道力故不作惡業	-13.357
猶如樂未生云何名受樂	-13.3571
時將欲過我欲滅度	-13.3571
覇	-13.3571
設有疑惑當復問誰	-13.3571
卍	-13.3571
世若無佛非無二乘得二涅槃	-13.3571
如栴檀林栴檀圍	-13.3571
師子奮迅三昧	-13.3571
諧	-13.3571
𨍮	-13.3571
以金剛杵碎之如塵	-13.3572
仕	-13.3572
或復有人破一切戒	-13.3572
惋	-13.3572
不與特牛同共一群	-13.3572
展轉常生安樂之處	-13.3572
氍	-13.3572
版	-13.3572
現在苦行復以何破	-13.3572
雖非內外而不失壞	-13.3572
我等當復更供養誰	-13.3572
云何當有諸病苦耶	-13.3572
西晉月氏三藏竺法護譯	-13.3572
三明亦是因果亦非因果	-13.3573
𠻳	-13.3573
貧愚人不欲服之	-13.3573
􂎫	-13.3574
抉	-13.3574
能如是知得何等利	-13.3574
闢	-13.3574
何有智者得除滅之	-13.3574
如有人勇健威猛	-13.3574
怳	-13.3574
扄	-13.3574
若人具足如上六想	-13.3574
宜當速奉最後	-13.3574
如闇室中井	-13.3574
慧心正直無曲	-13.3574
欲得真實修諸想者	-13.3574
咸令眾生悉得知見	-13.3574
五受陰洞達空無所起是苦義	-13.3575
殮	-13.3575
我與仁者俱行顛倒	-13.3575
當知乳中先有酪相	-13.3575
剡	-13.3576
沖	-13.3576
王雖許我一切身分	-13.3576
衒	-13.3576
是諸比丘於四諦中決定無疑	-13.3576
籤	-13.3576
而於未來不失業果	-13.3577
譬如著鎧入陣	-13.3577
一何駃哉世間眼滅	-13.3577
霸	-13.3577
與其同類十五人俱	-13.3577
十六日至三十日	-13.3577
若欲得合彼燈喻	-13.3577
具足百福成於一相	-13.3578
知足之法即是富樂安隱之處	-13.3578
吁	-13.3578
國王遇病崩亡	-13.3578
以金貿易鍮石	-13.3578
設使得乳無安置處	-13.3578
愧者發露向人	-13.3579
估	-13.3579
嬉	-13.3579
相合似連理	-13.3579
從此右臂及餘身分	-13.3579
矬	-13.3579
駞	-13.3579
觚	-13.3579
五欲障道不障道	-13.358
瑙	-13.358
不得斬伐草木墾土掘地	-13.358
狢	-13.358
二六復次明無父母	-13.358
東晉平陽沙門法顯譯	-13.358
玩	-13.358
我亦不說置而不答乃說置答	-13.3581
父精出時謂是	-13.3581
顯示平等觀功德相似成就	-13.3581
於世間事能速了知	-13.3581
憩	-13.3581
當知瞋心甚於猛火	-13.3581
食肉之人不應施肉	-13.3582
翹	-13.3582
亦令眾生於我身中起塔廟想	-13.3582
亦欲樂聞無上大乘	-13.3582
倒想因緣便生於受	-13.3582
麇	-13.3582
鐶	-13.3583
若縱恚心則自妨道失功德利	-13.3584
踞	-13.3584
歘	-13.3585
旻	-13.3585
鹽亦應有微不醎性	-13.3585
𣸪	-13.3585
同共一樹棲	-13.3585
是知法人言行相違	-13.3585
蜱	-13.3585
蕭	-13.3585
陪	-13.3586
是以當知戒為第一安隱功德住處	-13.3586
其心雖在惡無記中	-13.3586
距	-13.3587
如日初出照青樹葉赤脈悉現	-13.3587
㲉	-13.3587
來索悉皆還之	-13.3587
亦當為汝先說甘露	-13.3587
琢	-13.3587
𥢶	-13.3587
街	-13.3587
於佛法中取少許分	-13.3588
不知病起根原	-13.3588
無牽申等滿	-13.3588
<	-13.3588
將無崖畔不可制也	-13.3588
収	-13.3589
終不為彼蛇賊所害	-13.3589
常常見者不得為無	-13.3589
有有見者得果報故	-13.3589
甕	-13.3589
拔淵泉之下	-13.3589
腥	-13.3589
漁	-13.3589
佳	-13.3589
慇	-13.359
抧	-13.359
翏	-13.359
承保四年五月	-13.359
旭	-13.359
邇	-13.359
䉈	-13.3591
即將客醫共入見	-13.3591
屆	-13.3592
凋	-13.3592
庚	-13.3592
廂	-13.3592
籬	-13.3593
阿難比丘今在他處	-13.3593
瞿曇又說從因故生	-13.3594
如王夷坦道	-13.3594
遼	-13.3594
蚶	-13.3595
於非滅中而生滅想	-13.3595
随	-13.3595
垢修前來所明	-13.3595
少欲之人則無諂曲以求人意	-13.3596
鋪	-13.3596
礪	-13.3597
棟	-13.3597
轝	-13.3598
因樹則有樹影	-13.3598
大般涅槃經義記卷第	-13.3599
汝先言毒今云何服	-13.3599
藻	-13.36
出家行道無欲之人	-13.36
𨽻	-13.3602
先王自作還自受	-13.3605
摒	-13.3605
刧	-13.3605
摩鍮羅道人	-13.3607
慓	-13.3607
漠	-13.3607
粥	-13.3607
墮墜樓殿	-13.3608
戊	-13.3611
當知多欲之人多求利故苦惱亦多	-13.3613
挐	-13.3614
誇	-13.3615
銳	-13.3616
羯	-13.362
膊	-13.3622
雖喪三子我終不恨	-13.3622
褁	-13.3625
蕖	-13.3626
芙	-13.363
跏	-13.3637
磬	-13.3639
蠒	-13.364
婉	-13.3641
穎	-13.3641
郊	-13.3643
喁	-13.6002
芮	-13.6011
歕	-13.6016
如彼人畏四毒蛇五旃陀羅	-13.602
言識作識受無和合僧	-13.6026
問何眼有了不了	-13.6027
芰	-13.6029
粹	-13.603
即命良醫而為拔箭	-13.603
柟	-13.603
𢉆	-13.603
從無明行及諸煩惱得善五陰	-13.6031
柿	-13.6031
是經即是毀戒眾生之明鏡也	-13.6032
剔	-13.6034
穄	-13.6035
懲	-13.6036
須陀洹斯陀含阿那含阿羅漢辟支佛	-13.6036
煩惱為薪智慧為火以是因緣成涅槃食	-13.6037
朋友四人度數三十	-13.6037
引諸譬喻得知實法	-13.6038
令我還吐煩惱惡酒	-13.6038
弦	-13.6038
𠿘	-13.6038
莫非救衰世也	-13.6038
如人執鎌則能刈草	-13.604
譬如雪山懸峻之處	-13.604
依因父母愛欲和合生育是身	-13.604
姚秦三藏法師鳩摩羅什譯	-13.604
正復值我能善解說	-13.604
墯	-13.6041
纛	-13.6042
從其面門出種種光	-13.6042
此觀亦破五住惑能見佛性	-13.6043
一者近因二者遠因近因者	-13.6043
解陰無有某甲名字	-13.6043
吠	-13.6044
貓	-13.6044
強欲分別令易解故	-13.6044
酪中亦應定有乳性	-13.6044
闐	-13.6044
猶如羸人因之得起	-13.6045
於善道中六觸受樂	-13.6045
汝等比丘若欲脫諸苦惱當觀知足	-13.6045
空業合物空則無常	-13.6045
亦莫專執一切法相	-13.6045
㬉	-13.6045
修諸善法為受天身	-13.6045
初釋偈疑兼遣上問	-13.6045
汝言五大有定堅性	-13.6045
𧎮	-13.6045
帆	-13.6046
不能令此大地沾洽	-13.6046
臈	-13.6046
大般涅槃經玄義文句會本	-13.6047
脯	-13.6047
令深行者受持奉修	-13.6047
如帝王知命將終	-13.6047
舊邦安隱豐熟	-13.6047
酖	-13.6047
說是法時十千菩薩	-13.6047
於中怨所與中品樂	-13.6048
何因緣故波動之時不名為風	-13.6048
復加二分詣市賣之	-13.6048
十住菩薩雖於己身見如來性	-13.6048
幻有幻有即空共為俗	-13.6048
未是親中三種之樂	-13.6049
璃	-13.6049
優鉢羅華拘物頭華波頭摩華芬陀利華	-13.6049
或有重業可得作輕	-13.6049
若說從外四大增內四大	-13.6049
荂	-13.6049
􂌦	-13.6049
􂚌	-13.6049
我今始知如來至處為無有盡	-13.6049
葌	-13.6049
朦	-13.605
亦復多賣其餘雜藥	-13.605
罕	-13.6051
生於土石瓦礫之相	-13.6051
乃至不共一河飲水	-13.6051
答第五有五果無五果難	-13.6051
十住菩薩於己身中見如來性	-13.6051
轉復賣與近城女人	-13.6052
碧	-13.6052
如大師子殺香象時	-13.6052
未見有人當受千罰	-13.6052
云何佛說一切智者應斷果報	-13.6052
十住菩薩若能修行是三行處	-13.6052
猶能摧壞無量煩惱如須彌山	-13.6052
鄴	-13.6052
復次瞿曇堅是地性	-13.6052
批	-13.6052
外道邪見可說如來同於有為	-13.6053
慈氏菩薩以誓願故	-13.6053
時有諸人咸皆欲買	-13.6053
復有一臣名悉知義	-13.6053
汝可往彼發大聲言	-13.6054
韓	-13.6054
終不敢以破戒之身受信心檀越	-13.6054
即命良醫欲自療治	-13.6054
是名世間之所不知不見不覺	-13.6054
智臣當知此是如來說於常法	-13.6054
住鳩尸那城	-13.6054
未受戒者即與大眾俱共受請	-13.6054
譬如城市有賣藥人	-13.6054
醫占王病定須服乳	-13.6054
稽首佛足繞百千帀而白佛言世尊	-13.6054
我佛法中非一二三乃至五百	-13.6054
汝復云何受是師語	-13.6055
桎	-13.6055
何等人能轉地獄報現世輕受	-13.6055
為除世間諸妄見故	-13.6055
當以苦行自試其心	-13.6055
父母即以楊樹黃葉	-13.6056
蕪	-13.6056
狡	-13.6056
瞑	-13.6056
如此大地可令反覆	-13.6056
弩	-13.6056
鷂	-13.6056
是故汝等常當精勤修習諸定	-13.6057
示現煩惱過從苦生故	-13.6057
而此去者為至何方	-13.6058
蒜	-13.6058
廉	-13.6058
造作木筩以接是藥	-13.6058
來詣市而衒賣之	-13.6058
譬如著鎧入陣則無所畏是名不忘念	-13.6058
勤行道盡壽得般名	-13.6058
當患宿食腹痛而死	-13.6058
臣與王子素為親厚	-13.6058
趍	-13.6058
遠酒不飲而心亦動	-13.6058
修大涅槃微妙經典具足成就第五功德	-13.6058
謁	-13.6058
行惡法者為作悔心	-13.6058
菱	-13.6059
隟	-13.6059
今欲問諸陰而我無智慧	-13.6059
今將後人來問前法	-13.6059
以解一句至半句故見少佛性	-13.6059
大乘望之子果俱縛	-13.6059
亦願與俱生地獄中	-13.6059
蟒	-13.6059
黃昏夜半復齊何文	-13.6059
不空非空非不空乃至二不二	-13.6059
肖	-13.6059
如彼健人不從他習	-13.6059
如牧牛女多加水乳	-13.6059
是人具以上事答王	-13.6059
0	-13.606
懇	-13.606
絓	-13.606
不應受持如凡愚人所知	-13.606
若眾緣中本無生性而能生者	-13.606
莖節枝葉華實	-13.6061
忽遷神命生閻浮提	-13.6061
蔚	-13.6061
啄	-13.6061
有能為我作灌頂師	-13.6061
此是雪山甘好妙藥	-13.6061
滌	-13.6061
為諸獸來依附	-13.6061
請諸大臣而共食之	-13.6061
魄	-13.6061
尼乾立拒舉瓶	-13.6061
若有服者眾病皆除	-13.6061
𠻬	-13.6061
圄	-13.6062
斌	-13.6062
亦不聞有如來出世大乘經名	-13.6062
凡夫若遇身心苦惱起種種惡	-13.6062
又於四眾亦同遠離行故	-13.6062
智臣當知此是如來為計常者說無常	-13.6062
酧	-13.6062
蓽	-13.6062
貧人於後寄宿他家	-13.6062
▁tathāgata	-13.6062
人命不停過於山水	-13.6062
兵已集行列在	-13.6062
品施勝三修對此土聲聞眾	-13.6062
如水乳雜臥至一月終不成酪	-13.6062
安撫生死怖畏之眾	-13.6062
猶如盲龜值浮木孔	-13.6062
涅槃經會疏條目卷	-13.6062
􂚊	-13.6062
大集經亦預指五部	-13.6063
熒	-13.6063
是識決定不在眼中	-13.6063
嫚	-13.6063
囹	-13.6063
歔	-13.6063
衷	-13.6063
何緣復納耶輸陀羅	-13.6063
復轉修習得異耳根	-13.6063
睛	-13.6063
修大涅槃微妙經典具足成就第七功德	-13.6063
如來在中以方便力無所染著	-13.6063
時有明醫善知方藥	-13.6063
答第一有智斷無智斷難	-13.6063
若此土則福勝慧	-13.6063
如來今日普示眾生諸覺寶藏	-13.6063
愞	-13.6063
方天王第一輔臣	-13.6063
蚩	-13.6064
何故修習八聖道分為斷眾苦	-13.6064
有智之臣善知此名	-13.6064
毋	-13.6064
盡大海際還住本處	-13.6065
示住持利益人法相似故	-13.6065
如來初開涅槃經時說有三種	-13.6065
茇	-13.6065
尋與文殊從座而去	-13.6065
不能令此大地潤洽	-13.6065
云何復言眾生苦樂皆過去業	-13.6065
亦當視佛如父母想	-13.6065
修大涅槃微妙經典具足成就第八功德	-13.6065
放牧之處不在高原	-13.6065
是珠今者為何所在	-13.6065
榮枯似交讓	-13.6065
除別相被頌長行	-13.6065
即知是瘡因珠入體	-13.6065
孕	-13.6065
是經難遇過優曇	-13.6065
有餘涅槃既未究竟止可是滅	-13.6065
畵	-13.6065
正示現勸修利益勝義	-13.6065
舍利弗等以小涅槃而般涅槃	-13.6065
卯	-13.6065
善惡之業終不敗亡	-13.6065
級	-13.6065
佛垂般涅槃略說教誡經	-13.6066
生身陷入墮阿鼻	-13.6066
持四重禁及突吉羅	-13.6066
唯至金剛不能穿徹	-13.6066
實不能量如來涅槃及非涅槃	-13.6066
施汝常命色力安無閡辯	-13.6066
瀝	-13.6066
國人聞之皆生瞋恨	-13.6066
師子以其緣正二因證	-13.6066
與後顯時淨德為本	-13.6066
蒔	-13.6066
品施常住五果對此土雜眾	-13.6066
大德之人乃能得聞如是大事	-13.6066
如來法身皆悉成就如是無量微妙功德	-13.6066
栒	-13.6066
者為利買巳屠殺	-13.6066
此閻浮提林微尼園	-13.6067
動時能令眾生心動名大地動	-13.6067
我終不與世間共諍	-13.6067
抂	-13.6067
衣服離身四寸不墮	-13.6067
𧹞	-13.6067
尋時宣令一切國內	-13.6067
羇	-13.6067
尋立餘子紹繼王位	-13.6067
從海此岸至於彼岸	-13.6067
我曾何處見是人耶	-13.6067
或復有人純食粟米	-13.6067
既至河上取草為	-13.6067
癖	-13.6067
麃	-13.6068
不作魔心及自樂心	-13.6068
先治王身然後及心	-13.6068
我今要當自往試之	-13.6069
水陸空行有命之類	-13.6069
我之不平破汝不平	-13.6069
筌	-13.6069
汝今欲知如來祕藏真實義不	-13.6069
汝若能示我子金藏	-13.6069
犀	-13.6069
笙	-13.6069
篾	-13.6069
詼	-13.6069
迨	-13.6069
裴	-13.6069
眾生壽命復速堅疾	-13.6069
鉛	-13.607
悷	-13.607
或有眾生貪於財貨	-13.607
答第二有尊號無尊號難	-13.607
頺	-13.607
劬	-13.607
如是比丘不能自利及利眾生	-13.607
慌	-13.607
於非牛馬作牛馬想	-13.607
若斯陀含乃至諸佛無須陀洹	-13.607
一切眾生身及煩惱俱無先	-13.607
定復不從餘處來也	-13.607
黮	-13.6071
綸	-13.6071
潭	-13.6072
噬	-13.6072
我庫藏中都無是刀	-13.6072
是律非律亦復不識	-13.6072
猶如仰觀虗空月形	-13.6072
䩭	-13.6072
有怯弱者常來依附	-13.6072
欬	-13.6072
誌	-13.6072
鐇	-13.6072
或有比丘實不毀犯波羅夷罪	-13.6072
皆因舌齒而有差別	-13.6072
万	-13.6073
當先教誰知世間事	-13.6073
檐	-13.6073
隄	-13.6073
鈍根薄福不樂聽聞	-13.6073
喪身殞命及以財寶	-13.6073
攙	-13.6073
汝今莫入甚深空定	-13.6073
臼	-13.6073
狀貌端嚴如白蓮	-13.6073
不能變身如細微塵	-13.6074
初一偈合成兩問開成四問	-13.6074
拊	-13.6074
剬	-13.6074
佛性者有因有因因有果有果果	-13.6074
入大三昧深禪定窟	-13.6074
如是等獸見彼善呪即便調	-13.6074
如菴羅樹及閻浮樹	-13.6074
已於先佛殖眾德本	-13.6074
於是大眾乃見寶珠故在水下	-13.6074
以一心如實慧難可得故	-13.6075
亥	-13.6076
安可睡眠不自驚悟	-13.6076
是藥真味停留在山	-13.6076
三雙就生死涅槃以明苦樂	-13.6076
兼復廣知無量呪術	-13.6076
餘無能見是菩薩身其量邊際	-13.6076
唯當速滅戲論之患	-13.6076
悚	-13.6076
穮	-13.6076
隋天台沙門灌頂撰	-13.6076
善治眾生熱惱亂心	-13.6076
如無想天成就色陰而無色想	-13.6076
若有眾生於非道中作真道想	-13.6076
槁	-13.6077
我時即復語羅剎言	-13.6077
梐	-13.6077
人屈伸臂頃	-13.6077
復於門外更見一女	-13.6077
世人何故更求鹽耶	-13.6077
云何貪結能繫於心	-13.6077
取著於色乃至著識	-13.6077
戍	-13.6077
協	-13.6077
跋陀羅竟安居已	-13.6078
於此東方過二十恒河沙等世界	-13.6078
示求禪定智慧度所度故	-13.6078
扁	-13.6079
汝復何緣俱請我住	-13.6079
秋是陰時月是陰精	-13.6079
其餘在者如一毛渧	-13.6079
如有女人入於他舍	-13.6079
醫占王病應用乳	-13.6079
其水漂疾而不放捨	-13.6079
獨以愛性為五陰因	-13.6079
譬如水泡速起速滅	-13.6079
一智三智三智一智	-13.6079
千世界梵王慈心亦遍滿此	-13.6079
囄	-13.6079
世有三人其病難治	-13.6079
悉謂我得沙門道果	-13.6079
如彼嬰兒於非金中而生金想	-13.6079
𠷐	-13.608
時阿㝹樓馱觀察眾心	-13.608
佛及菩薩雖有五眼所不見	-13.608
竣	-13.608
投之淤泥不能令清	-13.608
相師占之有短壽相	-13.608
唯願為我宣暢解說	-13.608
洩	-13.608
世第一在欲界通三界	-13.6081
侈	-13.6081
於受用眾具中無限無厭足	-13.6081
󰑁	-13.6081
喏	-13.6081
如八大河悉歸大海	-13.6081
我此生死未得調順	-13.6081
慧心正直無邪曲者	-13.6081
湊	-13.6081
所愛之物破壞離散	-13.6081
瑩	-13.6083
鶹	-13.6083
蠖	-13.6083
通論一言一事皆施眾生	-13.6083
了因所了即同了不	-13.6083
咳	-13.6083
以絹貿易氀褐	-13.6083
而為六萬四千億魔之所嬈亂	-13.6083
聞聲嗅香別味覺觸知法	-13.6083
是中可畏求自正覺故	-13.6084
非謂猶是問境之一	-13.6084
心亦不為貪結所繫	-13.6084
人向異故見內見外	-13.6084
尚不欲受天上妙食	-13.6084
泄	-13.6084
葛	-13.6085
不出而眠是無慚人	-13.6085
經所有滋味悉皆永斷	-13.6085
既有是非故不言捨智	-13.6085
受用諸見門常縛故	-13.6085
時彼眾盲各以手觸	-13.6085
捋	-13.6085
霍	-13.6086
暄	-13.6086
何故不引畢竟無者以喻涅槃	-13.6086
蛻	-13.6086
柏	-13.6087
餅	-13.6087
今教若是何不早說	-13.6087
我今唱是斷肉之制	-13.6087
如來何故記彼當墮阿鼻地獄	-13.6087
本所受戒為具在不	-13.6087
各有十八黃金梯陛	-13.6087
捶	-13.6087
例推智斷乃至五果亦應各異	-13.6087
股	-13.6088
摠	-13.6088
欲從如來求將來食	-13.6088
唯有皮囊可以盛之	-13.6088
汝牽一象以示盲者	-13.6088
療治眾病純以乳藥	-13.6088
聞醫教及藥名字不能愈病	-13.6088
不得以因家之因為因因	-13.6088
能令眾生生顛倒心謂是涅槃	-13.6088
讀誦世典不敬佛經	-13.6089
須達家內有二鸚鵡	-13.6089
瓨	-13.609
乘壞驢車正南而遊	-13.609
如妙花莖毒蛇纏之	-13.609
飫	-13.609
是客舍主驅逐令去	-13.609
姻	-13.6091
欻	-13.6091
廷	-13.6092
慚者內自羞恥	-13.6092
兮	-13.6092
老時作惡生地獄中	-13.6092
播	-13.6092
薗	-13.6092
普及一切造五逆者	-13.6094
我今請仁以為師範	-13.6094
決定重業可使輕受	-13.6094
戎	-13.6095
因無明生亦因而死	-13.6095
獦	-13.6095
文字半滿只是鳥喻常無常	-13.6095
或名為犯或名不犯	-13.6095
上果不伏聽下果法	-13.6095
云何處濁世不污如蓮華	-13.6095
鼎	-13.6096
䏶	-13.6096
又如醫師有一祕方	-13.6097
出家行道無欲之人而懷瞋恚甚不可也	-13.6097
屢	-13.6097
行少欲者心則坦然無所憂畏	-13.6097
饉	-13.6097
囓	-13.6098
捫	-13.6098
四知覺無諸障畢竟相	-13.6099
蠻	-13.6099
我又一時為跋波	-13.6099
誂	-13.6099
但是治內之流滯	-13.6099
深入水底譬親益	-13.6101
若勅侍臣立斬王	-13.6101
丐	-13.6101
從旦至夕周遍八方	-13.6101
愷	-13.6101
午	-13.6101
古佛道法過中不食	-13.6102
属	-13.6102
社	-13.6103
話	-13.6103
尺蠖之屈以求	-13.6103
督	-13.6105
臠	-13.6105
空境空智此猶是偏	-13.6105
𠁅	-13.6106
臗	-13.6107
笠	-13.6107
櫼	-13.6109
如王宮中常勅屠	-13.611
呈	-13.611
何故如來自期三月當般涅槃	-13.611
阿利羅跋提河邊	-13.6111
隕	-13.6112
鞠	-13.6113
翠	-13.6113
梱	-13.6114
陁	-13.6116
爍	-13.6119
壤	-13.6121
贖	-13.6124
護自善法如防火	-13.6124
孃	-13.6127
􂚏	-13.6128
初生次住終異後滅	-13.6128
擗	-13.613
驛	-13.6132
怕	-13.6133
繪	-13.6134
𢍉	-13.6134
殫	-13.6141
峰	-13.6145
串	-13.615
栢	-13.6155
昉	-13.6155
寘	-13.6159
簦	-13.6166
是香山中有諸仙人五萬三千	-13.9321
掖	-13.9326
於百千歲未曾得聞漿水之名	-13.9326
次第二百年大眾部中復出一部	-13.933
是經能為貧善法者作大財寶	-13.9333
是經能為渴法眾生作甘露漿	-13.9334
爾時五萬三千諸仙即來我所	-13.9335
如世雹雨壞諸果實	-13.9336
是經能為壞戒目者作大良藥	-13.9336
我今當往至世尊所聽受正法	-13.9336
如世衣裳障蔽形體	-13.9336
能令眾生隨其方面各各而見	-13.934
而心初無斷諸眾生煩惱之想	-13.9343
次第三百年從說一切有部	-13.9343
我因智知同華喻壞	-13.9347
是經能為病苦眾生作大良藥	-13.935
如大導師引諸商人趣向大海	-13.935
汝今云何謂我等輩為童子耶	-13.935
如香山中微妙藥王能治眾病	-13.9351
瞿曇今說我等眾中無有沙門及婆羅門	-13.9353
雖見一切煩惱諸結亦無一切煩惱之相	-13.9353
昔佛一時在恒河岸尸首林中	-13.9353
是中眾生常為寒苦之所逼惱	-13.9357
如佛昔日為諸比丘說契經竟	-13.9357
化制互陳戒定齊舉	-13.9357
云若法為待成是法還成待	-13.9361
推徵解釋開誘行業	-13.9361
菩薩摩訶薩觀此愛結如怨詐親	-13.9362
菩薩觀陰成就種種諸不善法	-13.9362
或有說言八戒齋法優婆塞戒具足受得	-13.9362
若世間中無有一處當得離於生	-13.9362
龍泉流水清淨香潔	-13.9362
幸莫令彼波斯匿王知我此事	-13.9364
如須那剎多等應墮地獄	-13.9364
雖復得受梵天之身乃至非想非非想天	-13.9364
埃	-13.9366
叶	-13.9366
惡獸怨賊大火越逸未足喻也	-13.9366
摩訶薩思惟諸佛所可說法最妙最上	-13.9366
求酪之人何故求乳而不取角	-13.9367
卿若必能示吾消滅惡相處者	-13.9368
我等悉當得滅無量熾然煩惱	-13.9368
臣當示王除衰相處	-13.9368
惡知識者能壞淨身及以淨心	-13.9368
是惡象等唯能破壞不淨臭身	-13.9368
此經明初心菩薩未入位時不可思議	-13.9368
令無量眾得受如是大乘法味	-13.9368
智臣當知此是如來為計我者說無我相	-13.9368
汝今復能移徙此石	-13.9368
啇	-13.9368
廌	-13.9368
有阿僧祇恒河沙等四大海神及諸河神	-13.9368
觀一地獄乃至一百三十六所	-13.9369
內其兩手餓師子口	-13.9369
三十心十地斷別惑作三依者	-13.937
譬如雪山有一味藥名曰樂味	-13.937
父王使人將詣天祠	-13.937
若水凍時不名為地故名水者	-13.937
其乳流滿拘尸那城所有溝坑	-13.937
復有二十恒河沙等四天下中諸神仙人	-13.937
如世間中一切四兵隨主將意	-13.937
我於其人無量歲中為作僕使	-13.937
糞掃衣能治比丘為衣惡欲	-13.937
而地堅性乃至風動性	-13.937
或因世間豪貴之人所恭敬故而生憍慢	-13.9371
十住菩薩得首楞嚴等三昧三千法門	-13.9371
悸	-13.9372
勿謂世尊無有因緣而逆說也	-13.9372
於佛法中能捨一切金銀寶物	-13.9372
時憍陳如在彼眾中來白我言	-13.9372
是出家病有四良藥能療是病	-13.9372
我今於是大眾之中說如是等諸空義時	-13.9373
是故我先於餘經中告舍利弗	-13.9373
用六障四濁為法計	-13.9374
大小圊廁無不備足	-13.9374
為佛及僧敷置七寶師子之座	-13.9374
王之功德如昔長壽安樂時	-13.9374
至舍衛城祇陀園林須達精舍	-13.9374
須達長者以其所設奉施於我	-13.9374
今此眾中誰能為我受持如來十二部經	-13.9374
來月七日必定命終墮阿鼻獄	-13.9374
亦於如來隨宜方便所說法中不生執著	-13.9374
能以如來最上誓願而發願者	-13.9374
吾欲與汝同載一象	-13.9374
嘢	-13.9374
守攝諸根不令馳散	-13.9374
然其黃色初無改易	-13.9375
菩薩諦觀六塵過彼六賊	-13.9375
夫有心者皆當作佛未來當得常樂	-13.9375
彼中何緣不說八道為道聖諦	-13.9375
窺	-13.9375
汝等何故從於因緣求解脫耶	-13.9376
云何能知現在苦行定能破壞過去業耶	-13.9376
臨陣恐怖則便退散	-13.9376
云何如來稱讚魚肉為美食耶	-13.9376
十種不淨乃至九種清淨而復不聽	-13.9376
我亦不說魚肉之屬為美食也	-13.9376
如形殘人如外道論等	-13.9376
禪房靜處六十三所	-13.9376
而此老人復無繼嗣	-13.9376
須達長者七日之中成立大房	-13.9376
剗	-13.9376
欽婆羅衣及繒綵衣而覆	-13.9376
我今寧持如是禁戒墮阿鼻獄	-13.9376
曾從先舊智人邊聞	-13.9376
須達長者即時使人車馬載負	-13.9376
瞿伽離比丘生身入地至阿鼻獄	-13.9376
吾昔曾聞得道之人不入地獄	-13.9376
如八不淨儉畜非犯豐則成	-13.9376
其守門者聰明有智能善分別	-13.9377
非但我身獨於此中現轉法輪	-13.9377
飛空而往西瞿陀尼	-13.9378
故使斯人輕寶乃爾	-13.9378
自念當出何藏金足	-13.9378
我於往昔乃與是人十劫壽命	-13.9378
通為聲聞未除兩惑者作請	-13.9378
不遵遺囑不依念處修道不依木叉而住	-13.9378
如來今者雖不答汝盡與不盡	-13.9378
宦	-13.9378
得照鏡三昧能斷淨居阿那含有	-13.9378
摩訶薩尚憶過去如是等輩愛別離苦	-13.9378
最短者周圍四海	-13.9378
是婆羅門非適今日發是心也	-13.9378
我憶往昔於福田所生一惡念	-13.9379
定知一切有入出者皆由此門	-13.9379
復至他方有諸煩惱毒箭之處	-13.9379
如貧窮人獲七寶物則得安樂	-13.9379
欲於無明黑闇之中然大法炬	-13.9379
西瞿陀尼猶未歸德	-13.938
又復示現閻浮提中刀兵劫起	-13.938
我自為佛造立門樓	-13.938
示有父母依因愛欲和合而生	-13.938
譬如雹雨傷壞穀苗	-13.938
一切菩薩及諸如來無有不修是十事者	-13.938
何憂不能受持如是大涅槃典	-13.938
尋即放身自投樹下	-13.938
是醫即便遊於城邑及諸聚落	-13.938
眾生佛性則不如是假於文字然後清淨	-13.938
姚秦三藏鳩摩羅什譯	-13.938
能說十善增上功德及其義味	-13.9381
為欲度彼諸鳥鷲故	-13.9381
智臣應知此是如來為計樂者說於苦相	-13.9381
一切菩薩常善修習空性相故	-13.9381
真解脫中無有如是不適意事	-13.9381
弁	-13.9382
諸臣即以先王舊法而為說	-13.9382
如是示現壞僧斷法而作留難	-13.9382
如欲以手觸灰覆火	-13.9382
欲以口齒齚齧金剛	-13.9382
汝等今者欲以手爪鉋須彌山	-13.9382
唯有智者乃能解我甚深佛法	-13.9382
如墮深泥無救拔者	-13.9382
如人小時拾取土塊	-13.9382
寄止長者珊檀那舍	-13.9382
是生盲人雖聞如是四種譬喻	-13.9382
云何教我諸弟子等自受其法	-13.9382
亦不見聞金翅鳥王與烏共諍	-13.9382
修捨心者能斷貪恚及眾生相	-13.9382
如折翼鳥不能飛行	-13.9382
欲請摩伽陀王頻婆娑羅耶	-13.9382
聞乳毒氣便遠捨去	-13.9382
菩薩摩訶薩於是微小諸戒律中	-13.9382
上至阿迦膩吒天	-13.9383
若不為是三種惡欲之所害者	-13.9383
如是諸人於未來世亦當定得信是經典	-13.9383
悉皆知我得初住地乃至十住	-13.9383
而是林木當於誰所生瞋	-13.9383
犢子言瞿曇置一比丘一比丘尼	-13.9383
如來所以與謗法者作如是等降伏羯磨	-13.9384
梅	-13.9384
瞿曇沙門所作幻術到汝邊耶	-13.9384
若未訖者要待日明	-13.9384
要必宣說大乘方等如來祕藏	-13.9384
明當選擇良日吉星	-13.9384
是壽命常為無量怨讎所	-13.9384
譬如犢子其生未久若不得乳必死	-13.9384
共止住摩伽陀國瞻婆大城	-13.9384
時有獵師追逐一鴿	-13.9384
梁武勅學士撰天地義有三	-13.9384
不見不聞大師子王殘害小鼠	-13.9384
乃見白鶴及以叢樹	-13.9384
便當與汝金錢五枚	-13.9384
卿若能以身肉三兩日日見給	-13.9384
天人身設使得之者心亦不甘樂	-13.9384
如諸小王悉來歸屬轉輪聖王	-13.9384
我都不見十二部經能離惡漏如此方等	-13.9384
若有說言沙門瞿曇不為世間八法所染	-13.9384
穩	-13.9384
眾生以殷重心習近瞋恚	-13.9385
一切眾生何故不以菩薩威力等受快樂	-13.9385
云何不退菩薩自知決定有不退心	-13.9385
如以刀割及香塗身	-13.9385
其家眷屬為請醫師令拔是箭	-13.9386
當於無量阿僧祇劫在大地獄受無量苦	-13.9386
若有病人得良醫藥及瞻病者	-13.9386
其未度者皆亦巳作得度因緣	-13.9386
菩薩於是一一諸光明中見有佛像	-13.9386
以一種金隨意造作種種瓔珞	-13.9386
汝今若復不能與我如手許者	-13.9386
如來法中無有選擇良日吉	-13.9386
娙	-13.9386
䴰	-13.9386
不能利安饒益一切苦惱眾生	-13.9386
中品淨定堅守自地不為下地煩惱所敗	-13.9386
亦如有人以一掬水投於大海	-13.9386
假使我今得與梵王釋提桓因坐起飲食	-13.9386
六師所說不聽弟子畜一切物	-13.9386
各各拔取無量無邊諸妙蓮	-13.9386
我於一時在迦尸國尸婆富羅城	-13.9386
我未如是脫五十七煩惱繫縛	-13.9386
持得勝堂并諸小堂	-13.9386
是時女人即以苦味用塗其乳	-13.9386
汝常不聞諸佛如來誠言無二	-13.9386
然一小燈助百千日	-13.9386
菩薩不制弟子斷牛五味及以食肉	-13.9386
於無量百千萬億那由他劫發是誓願	-13.9386
擁	-13.9386
不以染心貪嗅諸香	-13.9387
我今亦當廣為眾生顯揚如是如來祕藏	-13.9387
得一切法不動三昧能斷四天處有	-13.9387
得難伏三昧能斷三十三天處有	-13.9387
是故不得定言乳中無有酪相	-13.9387
是諸魔眾悉自變身為如來像	-13.9387
讚說不清淨物應受用者	-13.9387
涅槃時一足黑黮一足光淨	-13.9387
若聞如來授諸聲聞速疾記者	-13.9387
須那剎多親近外道尼	-13.9387
初入觀時三親與三樂	-13.9387
此南天竺有一大城名首波羅	-13.9387
就應身為論此當示畏	-13.9388
或受迦賓闍羅鳥身	-13.9388
不以染心視他好色	-13.9388
吾當於彼拘尸那竭娑羅雙樹	-13.9388
以大願力為眾生故而悉受之	-13.9388
依因足骨以拄踝骨	-13.9388
安置諸子秘密藏中我亦不久自住其中	-13.9388
而是葵藿亦無敬心	-13.9388
若未來世有微塵等惡業果報不定受者	-13.9388
令彼取者不生殺害疑網之想	-13.9388
值天炎旱將欲枯死	-13.9388
和合共往摩伽陀王阿闍世所	-13.9388
招提僧物及僧鬘物	-13.9388
不但獨聽煩惱薄者優樓頻螺	-13.9388
云何與是毒身同共止住	-13.9388
得雷音三昧能斷三禪有	-13.9388
我於賢劫復習外道尼乾子法	-13.9388
方於未來當涉無邊險遠之路	-13.9388
未熱而息雖欲得火火難可得是名精進	-13.9388
此亦是無我苦味與常相違	-13.9388
汝從今日常當專心思惟此義	-13.9388
波旬悉以大火焚燒一切所有經典	-13.9388
獨聽大迦葉等無貪之性出家求道	-13.9388
緣覺雖能化身令如三千大千世界	-13.9388
而不能以如此大身入微塵身	-13.9388
能多利益憐憫世間為世間依安樂人天	-13.9388
輸頭檀王是我之父	-13.9388
不能光顯三寶亦乃破佛法也	-13.9388
亦不自言得須陀洹乃至得阿羅漢	-13.9388
又願眾生得入如來智慧大藥	-13.9388
尋即還遣諸旃陀羅守邏諸道	-13.9388
我昔曾從先舊智人聞說是事	-13.9388
是諸外道雖欲往至正解脫中	-13.9388
烏鵲之聲比命命等	-13.9388
阿闍世王即放護財狂醉之象	-13.9388
願我常得親近諸佛及佛弟子	-13.9388
得黃色三昧能斷化樂天有	-13.9389
況有持刀臨之剃髮	-13.9389
是人善解如來微密深奧藏故	-13.9389
假使純陀所奉飯食碎如微塵	-13.9389
是佛法中頗有一比丘尼能盡如是貪欲	-13.9389
於四諦外更有一種神我諦在	-13.9389
我今產業粗自供足	-13.9389
依因臗骨以拄腰骨	-13.9389
導從馬騎有十八萬	-13.9389
念無量眾生常為諸有毒箭所中	-13.9389
謂冶城於文為得於理為失	-13.9389
譬如葵藿隨日而轉	-13.9389
一一寶車復有五十微妙寶	-13.9389
何故酒後荒醉迷亂	-13.9389
增長眾生如世父母教於初生十六月兒	-13.9389
如是比丘不名於食得厭離想	-13.9389
如過去轉輪聖王所行道法作是誓巳是	-13.9389
如闇室中然一燈時照則不了	-13.9389
妨於大後用破小初	-13.9389
復有十萬億恒河沙主雲雨神	-13.9389
我於賢劫生屠膾家	-13.9389
或因布施所重之物而生憍慢	-13.9389
或因親近惡知識故而生憍慢	-13.9389
或因解義善問答時而生憍慢	-13.9389
眾生若有貪恚愚癡則不得稱為樂見	-13.9389
乃至能捨內外財物及其身命	-13.9389
則應分別愛之與受在何處滅	-13.9389
即往苦得尼乾子所語言	-13.9389
我於其人自化其身作轉輪王	-13.9389
我時住在優禪尼城	-13.9389
所將營從十二萬人得須陀洹果	-13.9389
旃陀羅人唯能殺戮有罪之人	-13.9389
是故常為一切三昧之所宗敬	-13.9389
是諸外道雖為四大毒蛇所纏	-13.9389
而反抱持五欲霜毒	-13.9389
我於往昔尼連河邊告魔波旬	-13.939
我為弟子十二部中說繫著者名為魔縛	-13.939
水性之屬潛沒深淵	-13.939
汝今與我俱破無量諸惡煩惱	-13.939
行人在下憩駕止息	-13.939
陸行之類藏伏窟穴	-13.939
大風卷霧清漢昞然	-13.9391
諸菩薩繫心思惟十二部經所有深義	-13.9391
與善見太子共為親厚	-13.9391
見有結繩橫佩身上	-13.9391
依因脊骨以拄肋骨	-13.9391
依因項骨以拄頷骨	-13.9391
依因頷骨以拄牙齒	-13.9391
其人本來敬信三寶及以諸天	-13.9391
四心是十二門禪即定也	-13.9391
復因脊骨上拄項骨	-13.9391
汝可取衣及以澡豆	-13.9391
㲪	-13.9391
其王始初造立此城	-13.9391
如人涉路值空曠處	-13.9391
懺四重禁除謗法心盡五逆罪滅一闡提	-13.9391
而如來者實無惡心欲令他伏	-13.9391
亦聽煩惱深厚造重罪者波斯匿王弟	-13.9391
佛以四事止華氏之悲	-13.9391
常來伺求我之過失	-13.9391
我時雖復日日與三兩肉	-13.9391
然我久於無量劫中離於魔事	-13.9391
肋	-13.9391
謂色聚心聚非色非心聚	-13.9391
今者如來欲為未來無量眾生作大明故	-13.9391
佛先聽食五種牛味及以油	-13.9391
外道眾中復有梵志姓迦葉氏	-13.9391
如尸利沙果先無形質	-13.9391
憍薩羅國有諸群賊	-13.9391
我今若當在於汝前聽受法者	-13.9391
摩伽陀國所有人民及其大王頻婆娑羅	-13.9391
旃陀羅人於四時中不必常殺	-13.9391
是佛法中頗有一比丘能盡如是貪欲	-13.9391
是諸外道漂沒生死無邊大河	-13.9391
樂在三界無常熾然大火之中	-13.9391
此光何來照觸吾身	-13.9391
汝於佛性猶未明了我有慧炬能為照明	-13.9391
王國多財無所愛戀	-13.9391
終不敢於如來所說十二部經及祕密藏	-13.9391
至佛所稽首佛足繞百千帀合掌恭敬却	-13.9391
識食猶如三百鑽矛	-13.9391
阿㝹樓駄雖說此語	-13.9391
雖有無量億千魔眾欲來侵嬈	-13.9391
伽耶迦葉兄弟二人及五百弟子	-13.9392
復有五百梵志來在河邊	-13.9392
不如有人發心向佛舉足一步	-13.9392
意若謂是人先來未見濁水	-13.9392
羅惡心欲害捨而不救	-13.9392
唯有一髮毛頭未沒	-13.9392
雖復一髮毛頭未沒	-13.9392
當為外道九十五種之所輕慢	-13.9392
除斷貧窮無上法雨雨汝身田令生法芽	-13.9392
非生非出非作非造非有為法	-13.9392
昔人既破昔法亦除	-13.9393
一切施主恒於我所起赤子想	-13.9393
復欲為郁伽長者等五十人	-13.9393
次復欲為優樓頻螺迦葉門徒五百比丘	-13.9393
至存彌亡至亡彌存	-13.9393
一切天人及五通仙悉當證知	-13.9393
令彼聞法速得轉離畜生身故	-13.9393
如來世尊永斷色縛乃至識縛	-13.9393
我聞諸天具足成就極妙快樂	-13.9393
世相如是當勤精進早求解脫	-13.9393
依因腰骨以拄脊骨	-13.9393
能拔大智舍利弗等無上深固菩提根	-13.9393
其帳四邊懸諸金鈴	-13.9393
其額上珠尋沒膚中	-13.9393
復有十萬億恒河沙等諸天子及諸天王	-13.9393
春陽之月皆共集彼阿耨達池	-13.9393
七萬五千菩薩得師子吼三昧	-13.9393
令我今日於大眾中為諸天人具足宣說	-13.9393
伊連禪河有婆羅門姓迦葉氏	-13.9393
何緣乃更見他過咎	-13.9393
壯色不停猶如奔馬	-13.9393
如來或時分此一身為無量身	-13.9393
如摩醯首羅面上三目乃得成伊	-13.9393
捨壞小船得堅牢船	-13.9393
摩訶薩悉觀一切無量眾生無非福田	-13.9393
與五百弟子在彼河側	-13.9393
若此人民定知瞿曇功德勝我	-13.9393
受使隣國通致信命	-13.9394
復有一億恒河沙貪色鬼魅	-13.9394
以是藥力能除一切無量惡毒	-13.9394
假使復以象車百乘載大秦國種種珍寶	-13.9394
智者應當觀是三漏所有罪過	-13.9394
譬如醫師先診病脈	-13.9394
亦以針刺箭毛鬼身	-13.9394
以修慧故所受持戒牢固	-13.9394
時大眾中忽然之頃有大光明	-13.9394
智者若為是五種人說是五事	-13.9394
汝今實謂如來正覺受斯食耶	-13.9394
罽	-13.9395
而彼婬女巧作種種諂媚現親	-13.9395
譬如二人俱聞他方有七寶山	-13.9395
一念瞋心起百萬障門開	-13.9395
依因腕骨以拄掌骨	-13.9395
依因臂骨以拄腕骨	-13.9395
寧以此口吞熱鐵丸	-13.9395
darśay	-13.9395
不但獨令出家之人得四道果	-13.9395
不聞婆藪仙人為自在天作三眼耶	-13.9395
如來大師永離貧窮受第一樂	-13.9395
婆達多即便往至三十三天	-13.9395
密遣一人詐為親善	-13.9395
我等四箭俱發俱墮	-13.9395
乃是種種微妙上藥根本之處	-13.9395
我今欲為無上法王造立僧坊	-13.9395
我當從其啟受齋法	-13.9395
煩惱大河乃能漂沒三界人天	-13.9395
犯說非犯非犯說犯	-13.9395
ṭ	-13.9395
假使一月常以衣食供養恭敬一切眾生	-13.9395
如來善知一闡提輩能於現在得善根者	-13.9395
復於七日擊鼓唱令	-13.9395
ñ	-13.9395
▁śrāvak	-13.9395
▁ṣaḍras	-13.9395
四百四病及餘外來侵損身者	-13.9395
如勇健人乃能摧伏是六大賊	-13.9395
寧言以索繫縛猛風	-13.9395
或見白象及白馬像	-13.9395
於巳身中見如來性亦復如是不大明了	-13.9395
是菩薩復當與我興大戰	-13.9395
有一妖祥幻化物出	-13.9395
汝若於我不生殷重大瞋恨者	-13.9395
現身當為無量病苦之所惱害	-13.9395
ū	-13.9395
不但獨受波斯匿王上饌甘味	-13.9396
亦受長者尸利毱多雜毒之食	-13.9396
尸利毱多往昔亦作逆罪之因	-13.9396
躑	-13.9396
云何菩薩思惟因緣而得近於大般涅槃	-13.9396
復有十萬億恒河沙等四方風神	-13.9396
其王普皆宣告內外人民	-13.9396
寧說口吹須彌散壞	-13.9396
為欲調伏無量眾生故現女像	-13.9396
能拔煩惱毒刺等箭	-13.9396
隨所應見而為示現種種形像	-13.9396
使金剛神怖薩遮尼犍	-13.9396
修餘法常者是則名曰如來祕藏	-13.9396
冥持此本得免灰颺	-13.9397
依因掌骨以拄指骨	-13.9397
其上舉向為譬今還難之	-13.9397
為此眾生修八十好以自莊嚴	-13.9397
國一切人民悉共奉事六師之徒	-13.9397
作千女根在釋身耶	-13.9397
若至他界則遇惡魔	-13.9397
一切外人所計不過二天三仙	-13.9397
何不如彼一根之中俱伺諸塵	-13.9397
嚴設種種供養之具而供養之	-13.9397
是故當知世皆無常會必有離勿懷憂惱	-13.9397
示現於此處勸修世間生厭離行故	-13.9397
能令無苦無樂業作不受果不	-13.9397
若一根中不能一時聞見六塵	-13.9397
云何而能於地獄中救苦眾生	-13.9397
利刀割舌誓不邪說	-13.9397
十德聚功獎勸行因	-13.9397
見其先伴獲寶而還	-13.9397
諸論各異端修行理無二	-13.9397
一切眾生遇是四毒故喪其命	-13.9397
不可復說從此四事應生耳識	-13.9397
云何大師獨與諸臣服食甘露	-13.9397
五萬五千菩薩得不退忍	-13.9397
如阿羅漢不行生死險惡之道	-13.9397
寧言佉陀羅火中生蓮	-13.9397
若我所有聲聞弟子說言如來入涅槃者	-13.9397
莫輕小惡以為無殃水渧雖微	-13.9397
不得妄語乃至夢中不念妄語	-13.9397
是一一馬駿疾如風	-13.9397
欲貪男時身即為男	-13.9397
牟尼佛侍者弟子名曰蘇坻	-13.9397
真金羅網彌覆其上	-13.9397
示諸眾生及四部眾諸道通塞	-13.9397
菩薩觀是四大與四毒蛇同其	-13.9397
迦葉佛侍者弟子名葉婆	-13.9397
願我此身悉代眾生受大苦惱	-13.9397
摩訶薩亦復不為諸煩惱魔之所傾動	-13.9398
若有人能以藕根絲懸須彌山	-13.9398
菩薩摩訶薩於財物中生四怖心	-13.9398
唯除龜甲及白羊角	-13.9398
如十小牛力不如一大牛力	-13.9398
云何菩薩聽法因緣而得近於大般涅槃	-13.9398
為令正見四部之眾於彼邪見四部徒	-13.9398
雖負眾生出世之法而亦不藏	-13.9398
不但獨為入禪定者離婆多等	-13.9399
亦為頻婆娑羅王等統領國事	-13.9399
王時復遣五旃陀羅拔刀隨	-13.9399
B	-13.9399
槹	-13.9399
稼	-13.9403
帋	-13.9403
嫡	-13.9403
啅	-13.9405
享	-13.9407
唄	-13.9407
喫	-13.9407
奠	-13.9407
撩	-13.9409
曚	-13.9409
勌	-13.9409
嗚	-13.941
垣	-13.9411
奎	-13.9411
揄	-13.9413
俠	-13.9413
摾	-13.9413
錍	-13.9414
嗽	-13.9415
彪	-13.9415
斆	-13.9415
蔗	-13.9416
堤	-13.9416
撈	-13.9416
姟	-13.9418
忉	-13.9419
伍	-13.942
搘	-13.9422
凸	-13.9424
屒	-13.9424
腷	-13.9424
諛	-13.9426
僥	-13.9426
姜	-13.9427
廅	-13.9428
冲	-13.9428
匏	-13.9428
屑	-13.943
壑	-13.943
卉	-13.943
儛	-13.9432
唇	-13.9432
岡	-13.9434
俻	-13.9436
倨	-13.9438
宴	-13.9442
凹	-13.9443
慜	-13.9443
嵇	-13.9445
涇	-13.9445
惒	-13.9448
旌	-13.9449
渭	-13.9449
齚	-13.9449
吟	-13.9453
㢡	-13.9453
昞	-13.9457
忤	-13.9461
侫	-13.9463
噞	-13.9467
婿	-13.9472
匈	-13.9474
摚	-13.9474
架	-13.948
戟	-13.9526
萇	-13.9545
斃	-13.9548
鎞	-14.4354
隥	-14.437
璧	-14.4392
欄	-14.4392
媒	-14.4398
掬	-14.4414
呰	-14.4426
航	-14.4427
醍	-14.443
騁	-14.4445
鉋	-14.4446
櫓	-14.4461
憔	-14.4465
䰒	-14.4465
霞	-14.448
孩	-14.4483
桂	-14.4493
葩	-14.4505
𤦲	-15.4322
忝	-15.4363
㮈	-15.4371
ḍ	-15.4396
裟	-15.4397
僮	-15.4411
珞	-15.4411
芭	-15.4411
詈	-15.4443
楓	-15.4447
桵	-15.4448
曄	-15.4449
暐	-15.445
揮	-15.4451
徘	-15.4452
徊	-15.4453
巫	-15.4454
妷	-15.4455
夗	-15.4456
嚀	-15.4457
呞	-15.4458
叮	-15.4459
髣	-15.446
努	-15.446
刵	-15.4461
俜	-15.4462
你	-15.4463
伶	-15.4464
臾	-15.4464
㸌	-15.4465
㰦	-15.4466
㖒	-15.4467
驎	-15.4468
髴	-15.4468
騲	-15.4469
騏	-15.447
馚	-15.4471
頒	-15.4472
鞏	-15.4473
鑰	-15.4474
鐹	-15.4475
鋼	-15.4476
鄔	-15.4477
轟	-15.4478
蹟	-15.4479
踡	-15.448
跣	-15.4481
豌	-15.4482
螟	-15.4483
蛉	-15.4484
蘿	-15.4485
羔	-15.4486
簧	-15.4487
穬	-15.4488
痕	-15.4489
牉	-15.449
沛	-15.4491
椒	-15.4492
柄	-15.4493
晡	-15.4494
摽	-15.4495
搗	-15.4496
捃	-15.4497
扈	-15.4498
態	-15.4499
愴	-15.45
悠	-15.4501
恪	-15.4502
弼	-15.4503
奩	-15.4504
墋	-15.4505
堄	-15.4506
坥	-15.4507
嗤	-15.4508
劭	-15.4509
凰	-15.451
僊	-15.4511
傑	-15.4512
㼑	-15.4513
㳂	-15.4514
鵂	-15.4515
魎	-15.4516
魍	-15.4517
頴	-15.4518
靻	-15.4519
鄧	-15.452
邕	-15.4521
蠃	-15.4522
蜾	-15.4523
蛊	-15.4524
茹	-15.4525
苽	-15.4526
肪	-15.4527
翩	-15.4528
罐	-15.4529
瑪	-15.453
牓	-15.4531
漚	-15.4532
沽	-15.4533
歿	-15.4534
斟	-15.4535
帑	-15.4536
埳	-15.4537
啻	-15.4538
咫	-15.4539
匍	-15.454
▲	-15.4541
>	-15.4542
鍛	-15.4543
釘	-15.4544
邵	-15.4545
蹲	-15.4546
蠕	-15.4547
莠	-15.4548
茫	-15.4549
綈	-15.455
皴	-15.4551
玫	-15.4552
狷	-15.4553
樝	-15.4554
昺	-15.4555
摴	-15.4556
䳒	-15.4557
㓟	-15.4558
鴝	-15.4559
蜋	-15.456
萄	-15.4561
縚	-15.4562
紜	-15.4563
紆	-15.4564
磲	-15.4565
磋	-15.4566
痍	-15.4567
疽	-15.4568
疐	-15.4569
沼	-15.457
掁	-15.4571
惆	-15.4572
庠	-15.4573
哺	-15.4574
冕	-15.4575
𧄼	-15.4576
麒	-15.4577
頷	-15.4578
釣	-15.4579
苾	-15.458
瞎	-15.4581
睨	-15.4582
睥	-15.4583
渟	-15.4584
杻	-15.4585
寥	-15.4586
鏗	-15.4587
牸	-15.4588
材	-15.4589
髑	-15.459
髏	-15.4591
鄲	-15.4592
邯	-15.4593
蝱	-15.4594
獅	-15.4595
彭	-15.4596
媚	-15.4597
蛾	-15.4598
茯	-15.4599
碼	-15.46
琥	-15.4601
燧	-15.4602
拇	-15.4603
叛	-15.4604
匃	-15.4605
㽄	-15.4606
𦭽	-15.4607
藶	-15.4608
蓏	-15.4609
菅	-15.461
瀆	-15.4611
孚	-15.4612
閫	-15.4613
葶	-15.4614
橙	-15.4615
榴	-15.4616
曳	-15.4617
咷	-15.4618
菀	-15.4619
羝	-15.462
稊	-15.4621
腐	-15.4622
瘜	-15.4623
涸	-15.4624
棱	-15.4625
餚	-15.4626
橘	-15.4627
廝	-15.4628
𧏙	-15.4629
繭	-15.463
硬	-15.4631
[	-15.4632
羖	-15.4633
柰	-15.4634
駒	-15.4635
洮	-15.4636
閦	-15.4637
豁	-15.4638
揆	-15.4639
頡	-15.464
壙	-15.4641
靂	-15.4642
霹	-15.4643
馱	-15.4644
莂	-15.4645
珀	-15.4646
鵡	-15.4647
隘	-15.4648
瑚	-15.4649
懊	-15.465
崛	-15.4651
蚋	-15.4652
甄	-15.4653
屣	-15.4654
坏	-15.4655
䱜	-15.4656
p	-15.4657
裳	-15.4658
癰	-15.4659
婇	-15.466
訊	-15.4661
朋	-15.4662
磁	-15.4663
塚	-15.4664
粳	-15.4665
溥	-15.4666
箜	-15.4667
巍	-15.4668
坊	-15.4669
迮	-15.467
妊	-15.4671
袈	-15.4672
h	-15.4673
鴛	-15.4674
罣	-15.4675
N	-15.4676
蕉	-15.4677
鴦	-15.4678
t	-15.4679
獼	-15.468
台	-15.4681
誹	-15.4682
瑤	-15.4683
楞	-15.4684
醐	-15.4685
—	-15.4686
腕	-15.4686
