<unk>	0
<s>	0
</s>	0
/	-4.01982
之	-4.23741
(	-4.34342
也	-4.56948
)	-4.59622
為	-4.67616
)(	-4.83212
者	-4.86817
而	-4.88691
有	-5.01692
以	-5.05149
則	-5.16589
日	-5.40843
不	-5.4133
其	-5.44992
一	-5.5202
主	-5.53167
中	-5.64405
無	-5.67346
在	-5.73631
如	-5.74327
人	-5.74766
於	-5.74949
/)	-5.77376
星	-5.78655
□	-5.7994
若	-5.8244
生	-5.82853
水	-5.84731
故	-5.86233
三	-5.88897
與	-5.89458
見	-5.89642
月	-5.90003
天	-5.9303
上	-5.9453
子	-5.95495
大	-5.9553
得	-5.96408
四	-5.97456
火	-5.98737
二	-6.02125
金	-6.02536
行	-6.07738
是	-6.0811
陽	-6.08198
曰	-6.08873
至	-6.11213
土	-6.1186
合	-6.12763
五	-6.12997
多	-6.14598
相	-6.14784
木	-6.15171
入	-6.15391
或	-6.16208
又	-6.16366
時	-6.16714
自	-6.1697
用	-6.19342
下	-6.23102
貴	-6.24331
出	-6.24555
吉	-6.26106
氣	-6.28275
此	-6.29532
地	-6.30326
命	-6.30573
神	-6.31572
分	-6.33461
皆	-6.35327
隂	-6.35515
▁	-6.3615
凶	-6.39595
所	-6.3961
六	-6.42272
位	-6.43956
乃	-6.45253
年	-6.46922
亦	-6.4976
宫	-6.50364
居	-6.50872
正	-6.55168
官	-6.5564
後	-6.55884
成	-6.5635
事	-6.57022
未	-6.576
明	-6.58844
同	-6.59395
王	-6.59707
煞	-6.61384
作	-6.63033
當	-6.63499
言	-6.64321
死	-6.64577
數	-6.64588
辰	-6.65275
必	-6.65456
來	-6.66024
方	-6.67686
起	-6.68731
九	-6.69541
矣	-6.70508
財	-6.70591
身	-6.71069
從	-6.73519
八	-6.76265
于	-6.76365
遇	-6.77302
宜	-6.77715
論	-6.77897
心	-6.78563
國	-6.79402
七	-6.79665
元	-6.79764
及	-6.81404
平	-6.82551
兩	-6.83722
忌	-6.83851
度	-6.85018
臨	-6.85435
運	-6.87453
更	-6.87462
巳	-6.88266
寅	-6.88311
福	-6.88649
道	-6.8867
外	-6.88785
名	-6.89248
非	-6.89538
亥	-6.89765
即	-6.90627
加	-6.91364
前	-6.91543
卦	-6.91601
逢	-6.92671
定	-6.92905
兵	-6.93281
長	-6.93723
甲	-6.93976
可	-6.94215
重	-6.94227
申	-6.94585
内	-6.9466
雖	-6.96082
喜	-6.96129
午	-6.96755
難	-6.96933
乾	-6.96994
占	-6.98024
刑	-6.98411
處	-6.98689
旺	-6.98827
十	-6.9897
龍	-6.99355
小	-6.9971
丑	-7.01181
將	-7.01361
山	-7.01714
守	-7.01986
易	-7.02948
禄	-7.02984
取	-7.03596
乎	-7.0422
家	-7.04684
然	-7.05655
本	-7.05855
立	-7.06278
交	-7.06624
傷	-7.06755
馬	-7.075
反	-7.07863
破	-7.08428
尅	-7.08836
嵗	-7.08851
應	-7.08947
已	-7.0968
君	-7.09912
戌	-7.0994
酉	-7.09951
去	-7.10816
離	-7.10888
始	-7.12028
干	-7.12107
南	-7.12269
㑹	-7.12362
變	-7.12499
動	-7.13076
法	-7.13422
失	-7.13469
門	-7.14068
謂	-7.14099
夫	-7.14312
物	-7.14547
鬼	-7.14815
災	-7.1558
食	-7.15644
通	-7.15868
臣	-7.16086
先	-7.16777
安	-7.1698
徳	-7.17089
化	-7.17152
凡	-7.17198
東	-7.1734
亡	-7.18271
憂	-7.18637
象	-7.18674
復	-7.18769
西	-7.19285
能	-7.1932
女	-7.19602
五行	-7.20453
周	-7.21309
北	-7.22611
文	-7.22808
坤	-7.23535
爲	-7.23808
發	-7.24484
何	-7.24928
俱	-7.25963
不可	-7.26343
又曰	-7.27094
要	-7.27127
風	-7.2777
髙	-7.28128
餘	-7.2857
利	-7.28889
宿	-7.29396
天下	-7.29952
禍	-7.30389
足	-7.30814
形	-7.31645
空	-7.31875
○	-7.32155
終	-7.32559
公	-7.32599
云	-7.32603
限	-7.32764
卯	-7.33098
常	-7.33708
角	-7.33839
庚	-7.34137
白	-7.34586
隂陽	-7.34645
丁	-7.35181
衝	-7.352
虚	-7.35292
殺	-7.35347
初	-7.35366
好	-7.37331
少	-7.38148
須	-7.38328
體	-7.38871
謂之	-7.38873
各	-7.38962
知	-7.39238
我	-7.39428
病	-7.39607
經	-7.3994
犯	-7.40144
光	-7.40562
十二	-7.41173
坐	-7.41548
格	-7.42423
耳	-7.42644
丙	-7.42941
局	-7.43123
推	-7.44407
休	-7.44557
乙	-7.44686
向	-7.44922
因	-7.45579
直	-7.45758
陰	-7.46057
欲	-7.46633
全	-7.46894
春	-7.47108
頭	-7.47952
夏	-7.48001
壬	-7.48048
敗	-7.48129
絶	-7.48552
日月	-7.48607
盡	-7.49077
歸	-7.49475
順	-7.50072
極	-7.50497
過	-7.5195
亂	-7.51983
震	-7.52145
危	-7.52198
理	-7.52577
民	-7.53021
害	-7.53045
辛	-7.53612
受	-7.53624
實	-7.53701
夜	-7.54086
性	-7.54338
祿	-7.54428
德	-7.54923
進	-7.54948
止	-7.557
祥	-7.56067
一曰	-7.56109
縣	-7.5612
萬	-7.56345
帝	-7.57101
今	-7.57335
伏	-7.58088
貴人	-7.5815
和	-7.58382
義	-7.5848
天地	-7.58482
次	-7.58621
惡	-7.58824
咎	-7.59584
艮	-7.5994
建	-7.60076
印	-7.60088
甲子	-7.60366
流	-7.6048
求	-7.60658
帶	-7.60831
支	-7.61214
黄	-7.61624
癸	-7.61727
到	-7.62379
善	-7.62714
右	-7.62961
疾	-7.63022
母	-7.63273
乗	-7.63372
字	-7.63452
左	-7.636
節	-7.63604
却	-7.63736
使	-7.64389
令	-7.64974
清	-7.65479
秋	-7.65723
首	-7.65867
惟	-7.65996
百	-7.66332
妻	-7.6637
張	-7.66481
冬	-7.66846
世	-7.67027
制	-7.67096
退	-7.67167
軍	-7.67315
目	-7.67372
强	-7.68023
屬	-7.68082
近	-7.68332
坎	-7.68487
照	-7.68713
戊	-7.68862
齊	-7.69052
逺	-7.69235
音	-7.69251
書	-7.69401
灾	-7.69639
色	-7.69835
歲	-7.70725
晉	-7.70782
虎	-7.71256
藏	-7.71602
所以	-7.71641
焉	-7.71708
悔	-7.71837
傳	-7.71847
損	-7.72427
富貴	-7.72554
逆	-7.73249
乘	-7.73493
己	-7.74258
聲	-7.75058
開	-7.75117
且	-7.75223
觀	-7.75966
半	-7.76759
之象	-7.77139
不能	-7.77165
墓	-7.77198
既	-7.78047
諸	-7.78053
井	-7.78273
天子	-7.78738
盛	-7.78809
圖	-7.79096
太	-7.80093
兼	-7.80241
是也	-7.80557
興	-7.80693
口	-7.80733
太陽	-7.81027
榮	-7.81161
巽	-7.81207
漢	-7.81271
龜	-7.81586
夘	-7.81596
萬物	-7.81757
别	-7.81805
君子	-7.82262
謀	-7.82526
克	-7.82609
異	-7.82953
等	-7.82997
計	-7.83159
治	-7.83179
樂	-7.83509
衰	-7.83604
精	-7.83688
散	-7.83691
猶	-7.83928
隨	-7.84023
吝	-7.84332
朝	-7.84483
莫	-7.84496
秦	-7.8451
深	-7.84535
竒	-7.84805
獨	-7.84856
刻	-7.85235
故曰	-7.85627
之地	-7.85698
赤	-7.85722
聚	-7.85984
富	-7.86061
賊	-7.86185
飛	-7.86413
但	-7.87371
弱	-7.87403
暗	-7.883
解	-7.88385
斗	-7.8866
勝	-7.88728
真	-7.88898
戰	-7.89446
曜	-7.89839
類	-7.89975
並	-7.90097
牛	-7.90148
除	-7.90459
比	-7.90587
衆	-7.90799
葢	-7.90964
生人	-7.91135
雨	-7.91282
背	-7.91642
孤	-7.91719
武	-7.91937
男	-7.91951
三合	-7.92203
太隂	-7.9251
尾	-7.92722
以為	-7.92947
甲寅	-7.92948
丙寅	-7.93281
偏	-7.94528
而不	-7.94865
權	-7.95245
室	-7.95319
便	-7.95962
配	-7.9611
期	-7.96343
石氏曰	-7.96401
參	-7.96652
斷	-7.96672
被	-7.96789
厯	-7.9752
顯	-7.98306
積	-7.9919
視	-7.99211
晝	-7.99738
州	-8.00156
并	-8.00287
畢	-8.00698
意	-8.00908
吉凶	-8.01254
還	-8.01332
河	-8.01492
房	-8.01817
城	-8.02275
轉	-8.02351
輕	-8.02504
夀	-8.02761
師	-8.02829
不宜	-8.02899
千	-8.03212
不得	-8.0328
氏	-8.033
壬子	-8.03378
助	-8.03423
舉	-8.03801
伐	-8.03934
太白	-8.04112
骨	-8.04424
益	-8.04597
之類	-8.04935
原	-8.05482
併	-8.05502
㐫	-8.05951
高	-8.06033
厚	-8.06199
按	-8.06234
間	-8.06446
親	-8.06572
之數	-8.06893
客	-8.06944
最	-8.07039
信	-8.07243
剛	-8.07283
石	-8.07368
課	-8.07759
所謂	-8.07887
横	-8.0841
兵起	-8.08597
宋	-8.08731
切	-8.08811
甲申	-8.08931
歳	-8.09075
力	-8.09175
甲戌	-8.0924
丙午	-8.09305
政	-8.09375
只	-8.0954
上下	-8.09715
十一	-8.09874
其國	-8.10092
修	-8.10297
之中	-8.10301
玉	-8.1077
丙丁	-8.10886
老	-8.11197
青	-8.12136
之氣	-8.12192
羅	-8.12292
值	-8.1235
就	-8.12487
留	-8.12593
中有	-8.12688
靈	-8.12998
癸亥	-8.13003
車	-8.1344
致	-8.13587
降	-8.13871
空亡	-8.13898
對	-8.14313
稱	-8.14497
指	-8.14503
孛	-8.14923
甲午	-8.15075
不利	-8.15211
白虎	-8.15317
宅	-8.15637
十六	-8.15729
望	-8.15759
田	-8.16021
庫	-8.16029
府	-8.1646
父	-8.16479
辰戌	-8.16753
穴	-8.17365
甚	-8.17402
滅	-8.17442
蓋	-8.1745
滿	-8.17591
丁巳	-8.17639
戊寅	-8.17918
年月	-8.18172
之所	-8.18264
之位	-8.18927
輔	-8.18964
再	-8.19095
宮	-8.19357
蛇	-8.19544
丙子	-8.19552
勢	-8.19686
二十	-8.19753
尊	-8.19796
庚寅	-8.19918
怕	-8.2015
微	-8.20317
雲	-8.20395
三十	-8.2056
看	-8.20798
説	-8.20971
庚午	-8.2117
賤	-8.21173
爻	-8.21333
垣	-8.21392
共	-8.21422
乙丑	-8.21578
禮	-8.21727
詳	-8.21767
戊午	-8.21773
楚	-8.22057
甲乙	-8.22089
落	-8.22615
四時	-8.2271
遂	-8.23116
乙酉	-8.23453
眼	-8.2347
宗	-8.23666
壬午	-8.23886
寒	-8.23973
兮	-8.23997
五星	-8.24011
章	-8.24586
都	-8.2487
𤣥	-8.251
財官	-8.25149
走	-8.25205
三月	-8.25253
載	-8.25568
甘氏曰	-8.25636
金水	-8.25684
置	-8.25723
長生	-8.25796
由	-8.25864
炁	-8.25948
己巳	-8.26142
美	-8.26182
正月	-8.26302
翼	-8.2638
他	-8.26391
胎	-8.26533
古	-8.26628
太嵗	-8.26667
納音	-8.2668
小人	-8.26877
鄉	-8.26928
尤	-8.27063
五十	-8.27228
虛	-8.27252
熒惑	-8.27351
戊子	-8.27395
庚申	-8.27569
十三	-8.27623
壬寅	-8.27638
伯	-8.27659
列	-8.27773
戊辰	-8.27926
庚子	-8.28375
窮	-8.28592
紀	-8.28663
海	-8.28757
差	-8.28827
左右	-8.28998
測曰	-8.2902
可以	-8.29074
父母	-8.29188
拱	-8.29347
魏	-8.29405
官星	-8.2951
柔	-8.30024
疑	-8.30025
舍	-8.30062
總	-8.3015
己亥	-8.30175
癸丑	-8.30509
丙戌	-8.30562
不見	-8.30862
誅	-8.30897
似	-8.30902
秀	-8.30937
辛未	-8.30996
貞	-8.3115
庚辛	-8.31337
邑	-8.31524
升	-8.31568
任	-8.31617
辰巳	-8.31793
壬癸	-8.31944
身命	-8.32093
衛	-8.32191
庚辰	-8.32304
消	-8.32361
刃	-8.32488
丁亥	-8.32576
執	-8.32695
端	-8.32716
生旺	-8.32758
癸酉	-8.32853
仁	-8.33087
乙亥	-8.33146
逄	-8.33202
薄	-8.33315
根	-8.33717
急	-8.33864
箕	-8.33942
昌	-8.33947
壬申	-8.34
商	-8.34087
豐	-8.34171
移	-8.34232
陳	-8.34329
辛酉	-8.34432
面	-8.34438
息	-8.34579
兌	-8.3468
諸侯	-8.3468
貧	-8.34824
之事	-8.35026
學	-8.35094
甲辰	-8.35187
生於	-8.35284
折	-8.3537
戊申	-8.35453
十月	-8.35465
者也	-8.35486
又云	-8.3567
王者	-8.35822
廣	-8.35822
逆行	-8.35964
依	-8.36174
黒	-8.36365
干上	-8.365
司	-8.36521
辛亥	-8.36631
四柱	-8.36698
▁(	-8.36991
必有	-8.37179
丁丑	-8.37228
十五	-8.37386
否	-8.37419
奎	-8.37443
将	-8.37484
軫	-8.37492
露	-8.37614
盖	-8.37768
驚	-8.381
短	-8.38201
路	-8.38614
丁未	-8.3866
賢	-8.38688
兄弟	-8.3869
己丑	-8.38826
功	-8.38889
乙未	-8.3898
威	-8.39204
丙申	-8.39486
壽	-8.395
景	-8.39609
祖	-8.39627
志	-8.39699
雷	-8.3993
引	-8.39955
癸巳	-8.40191
兆	-8.40266
表	-8.40284
己未	-8.40354
朔	-8.4055
養	-8.40558
暴	-8.40613
候	-8.4068
進士	-8.40797
眉	-8.40931
細	-8.41227
亢	-8.41426
卷	-8.41553
丁酉	-8.41554
有兵	-8.41648
也故	-8.41701
律	-8.41735
壬辰	-8.41754
囚	-8.41791
純	-8.41855
西北	-8.41889
二十四	-8.41945
哉	-8.41946
后	-8.41968
大貴	-8.42014
辛丑	-8.4202
日時	-8.42174
著	-8.42266
咸	-8.42413
癸未	-8.42569
傷官	-8.42751
太乙	-8.42786
戊戌	-8.42835
訟	-8.42889
庚戌	-8.42944
辛巳	-8.43048
魚	-8.43111
士	-8.43122
壬戌	-8.43244
陰陽	-8.43295
考	-8.43395
六合	-8.44085
固	-8.44125
燕	-8.44194
不同	-8.44262
䘮	-8.44543
闗	-8.44571
語	-8.44765
是謂	-8.44778
東南	-8.4479
卜	-8.44911
尚書	-8.45116
例	-8.45253
遊	-8.45352
胃	-8.45478
遲	-8.45523
雜	-8.45824
己酉	-8.45916
畏	-8.46002
梁	-8.46241
存	-8.46337
登	-8.46469
手	-8.46753
妙	-8.47148
之間	-8.47174
㣲	-8.47578
十二月	-8.47753
聖人	-8.47983
侯	-8.47984
八卦	-8.48065
尚	-8.48271
代	-8.48334
辨	-8.48376
㓙	-8.48542
氐	-8.48607
躔	-8.4867
野	-8.48707
三十六	-8.48772
澤	-8.4919
情	-8.49467
干支	-8.49681
乙巳	-8.49763
二月	-8.50102
專	-8.50119
喪	-8.50199
蝕	-8.50363
夾	-8.50721
太極	-8.5075
序	-8.50798
旺相	-8.50826
遷	-8.50948
火土	-8.51026
㸔	-8.51079
封	-8.51135
華	-8.51357
趙	-8.517
二十五	-8.5181
則為	-8.52086
末	-8.52145
漸	-8.52233
救	-8.52324
備	-8.52437
四月	-8.52612
丙辰	-8.52682
舊	-8.52866
卒	-8.5289
強	-8.52986
鳴	-8.53172
聖	-8.53258
蒙	-8.53264
夭	-8.53422
術	-8.53458
十一月	-8.53529
至於	-8.53536
恩	-8.53899
晦	-8.5411
禽	-8.54118
血	-8.54158
永	-8.54224
枝	-8.54346
一生	-8.54657
泰	-8.54783
詩	-8.5479
逐	-8.54807
為福	-8.54855
不出	-8.54912
圓	-8.55182
来	-8.55188
鼻	-8.55359
人之	-8.55381
減	-8.55392
納	-8.55456
昴	-8.55476
不足	-8.55764
說	-8.55767
一日	-8.55773
東方	-8.55795
名曰	-8.55842
聞	-8.56373
平丅	-8.56454
符	-8.56707
戊巳	-8.56744
智	-8.56749
服	-8.56754
六十	-8.57091
防	-8.57114
元年	-8.57547
八月	-8.57734
相生	-8.5775
印綬	-8.57781
職	-8.57807
荆州占曰	-8.57821
歴	-8.5787
日辰	-8.58079
獲	-8.58332
自然	-8.5834
辰酉	-8.58724
問	-8.58796
三年	-8.58866
部	-8.59239
舉人	-8.59306
保	-8.59392
十八	-8.59536
淫	-8.59549
五月	-8.59557
陷	-8.59577
春秋	-8.59892
旱	-8.60044
十四	-8.60282
紋	-8.60346
郗萌曰	-8.60366
魯	-8.60409
隔	-8.60478
將軍	-8.60669
濟	-8.60824
辰未	-8.60824
乾坤	-8.60879
困	-8.6092
連	-8.61155
青龍	-8.61175
爭	-8.61292
關	-8.6149
唐	-8.61522
為主	-8.61523
出入	-8.61565
結	-8.61574
廟	-8.61727
雄	-8.61733
邪	-8.61741
縱	-8.61825
婁	-8.6184
季	-8.61842
辰辰	-8.61911
改	-8.62098
盈	-8.62189
六月	-8.62245
新	-8.62251
侵	-8.62378
互	-8.62432
往	-8.62487
辰午	-8.62711
陵	-8.62717
花	-8.62819
而後	-8.63165
布	-8.63186
夜生	-8.63249
者為	-8.63508
十七	-8.63678
發用	-8.63679
奪	-8.63754
統	-8.6376
持	-8.6377
不成	-8.63813
久	-8.63971
才	-8.63992
二十八	-8.64086
攻	-8.64115
冬至	-8.64164
號	-8.64334
西方	-8.64401
辰星	-8.64412
月建	-8.64528
天乙	-8.64826
李	-8.64965
辰丑	-8.64981
以上	-8.65028
幽	-8.65054
之人	-8.65067
豈	-8.65214
羣	-8.65363
辰亥	-8.65454
辰申	-8.65506
機	-8.65603
鳥	-8.65723
貫	-8.65738
堂	-8.6588
篇	-8.66081
斯	-8.66096
言之	-8.66329
早	-8.66375
不知	-8.66575
十九	-8.66705
辰卯	-8.66708
廢	-8.66725
扶	-8.66898
軌	-8.66964
愛	-8.67105
履	-8.67106
獄	-8.67219
駕	-8.6738
承	-8.67402
乙卯	-8.67941
靜	-8.67964
日蝕	-8.68097
思	-8.68141
江	-8.68184
革	-8.68319
辰子	-8.68604
辰寅	-8.68663
吾	-8.68665
子孫	-8.68841
施	-8.68979
覆	-8.69072
西南	-8.69381
得地	-8.69513
不用	-8.69536
二年	-8.69551
揚	-8.69556
九月	-8.70052
衣	-8.70259
林	-8.70396
劉	-8.70404
婦	-8.70568
質	-8.70574
日干	-8.70759
柱	-8.70807
會	-8.71061
曲	-8.71165
鄭	-8.71337
擊	-8.71447
為官	-8.71698
申酉	-8.72249
察	-8.7229
有憂	-8.72332
産	-8.72364
之義	-8.72417
皇	-8.72473
恐	-8.72612
闕	-8.72657
大臣	-8.72747
七月	-8.72814
避	-8.7283
良	-8.72854
刼	-8.72911
造化	-8.73011
招	-8.73221
羊	-8.73562
申子辰	-8.73592
造	-8.73634
旬	-8.73682
湏	-8.73803
患	-8.73815
身旺	-8.74066
南方	-8.74072
遭	-8.74277
天之	-8.74643
達	-8.74732
為用	-8.74902
丁卯	-8.75103
進退	-8.75258
同宫	-8.75661
附	-8.76162
夷	-8.76211
經云	-8.76269
延	-8.76336
具	-8.76433
昏	-8.76488
二十一	-8.76737
兊	-8.76888
仲	-8.77111
鼎	-8.77139
殃	-8.77265
黑	-8.77326
不然	-8.77521
市	-8.77621
之道	-8.77632
東北	-8.77656
包	-8.77767
越	-8.77934
順行	-8.7801
厄	-8.78465
男女	-8.78573
冲	-8.78578
太陰	-8.78676
識	-8.78708
朱雀	-8.79064
不明	-8.79564
吏	-8.79914
辛卯	-8.80199
教	-8.80326
康	-8.80374
又為	-8.80431
四十	-8.80539
掌	-8.80865
之理	-8.80911
里	-8.81079
屯	-8.81131
而無	-8.81189
業	-8.81229
不吉	-8.81258
三日	-8.81304
假	-8.81317
文章	-8.81342
管	-8.81431
勞	-8.81529
也若	-8.81551
前後	-8.81656
先天	-8.81725
收	-8.81921
際	-8.81949
耗	-8.81954
怒	-8.81976
如此	-8.82217
每	-8.82302
卑	-8.82367
食神	-8.82639
隠	-8.82652
資	-8.82802
北方	-8.83072
四方	-8.8308
二十二	-8.83089
之法	-8.83147
填星	-8.83254
决	-8.83309
彼	-8.83361
水火	-8.83445
金木	-8.8348
禄馬	-8.83538
魁	-8.83566
晝夜	-8.83778
四季	-8.83781
屋	-8.83887
死絶	-8.83956
己卯	-8.84013
暈	-8.84073
盗	-8.84084
財帛	-8.84109
尋	-8.84117
敵	-8.84397
孝	-8.84418
恒	-8.84451
缺	-8.84532
一名	-8.84696
泉	-8.84778
假令	-8.84795
火羅	-8.84822
倍	-8.84933
繼	-8.84951
偶	-8.84996
二十六	-8.85071
營	-8.85238
集	-8.8538
不安	-8.85386
仍	-8.85402
幹	-8.8547
魄	-8.85619
奔	-8.85657
私	-8.85949
者主	-8.85993
愈	-8.86043
四正	-8.86219
辰戌丑未	-8.86317
福禄	-8.86372
濁	-8.8644
孟	-8.86489
邊	-8.86544
旦	-8.86646
柱中	-8.8669
儀	-8.86713
寅午戌	-8.86827
行年	-8.8683
三十二	-8.86865
是為	-8.87209
舎	-8.87271
休囚	-8.87348
二十七	-8.87399
閏	-8.87405
二十三	-8.87992
犬	-8.88148
運行	-8.88179
貪	-8.88266
為吉	-8.88278
葬	-8.88339
驛馬	-8.88547
官禄	-8.88666
狼	-8.88729
皆為	-8.88766
第	-8.88775
脱	-8.8906
雙	-8.89142
注	-8.89272
詩斷	-8.89279
賦	-8.8946
垂	-8.89538
一年	-8.89806
棄	-8.89856
羊刃	-8.89955
泊	-8.90095
三百六十	-8.90099
愚	-8.90103
嵗星	-8.90615
其所	-8.90941
容	-8.90964
温	-8.91147
寳	-8.91186
癸卯	-8.91209
静	-8.91382
奸	-8.91383
玄	-8.91387
透	-8.9165
苦	-8.91683
源	-8.91712
滯	-8.91802
禍福	-8.91814
羽	-8.9188
木星	-8.91884
嫌	-8.92
三傳	-8.92083
草	-8.92261
日在	-8.92477
夏至	-8.92533
女主	-8.92673
緯	-8.92724
若有	-8.92776
黄帝占曰	-8.92853
免	-8.93149
戍	-8.93154
𤣥武	-8.93221
崩	-8.9327
敬	-8.93288
畫	-8.93385
勾陳	-8.93462
特	-8.93491
繫	-8.93682
各有	-8.93727
紫	-8.9383
一度	-8.94127
雞	-8.94144
黃	-8.94268
巫咸曰	-8.94514
豫	-8.94566
栁	-8.95133
也如	-8.95135
堅	-8.95157
䑕	-8.95158
生氣	-8.9527
遁	-8.95279
二十九	-8.95313
嘉	-8.95363
低	-8.95586
宫主	-8.95589
謙	-8.95594
歌	-8.95622
子午	-8.95701
壁	-8.95785
月令	-8.95838
牽牛	-8.95957
昭	-8.96035
其中	-8.96101
隆	-8.96138
三竒	-8.96181
命宫	-8.96194
而為	-8.96308
亦有	-8.96579
蹇	-8.96581
徒	-8.96958
孫	-8.97065
三元	-8.97105
傍	-8.97107
衡	-8.9711
郡	-8.97127
七煞	-8.97159
星入	-8.97288
筭	-8.9744
七星	-8.97462
四十九	-8.97542
争	-8.97549
而成	-8.97579
不及	-8.97632
剥	-8.97633
速	-8.97921
有氣	-8.97921
旅	-8.9802
用事	-8.98211
驗	-8.98303
無氣	-8.98415
赦	-8.98761
亥子	-8.98766
而已	-8.98943
之神	-8.98957
係	-8.99031
占曰	-8.99315
扵	-8.99388
倚	-8.99392
相逢	-8.99396
臨官	-8.9944
之象也	-8.99531
二星	-8.99537
迎	-8.99608
婦人	-8.99713
假如	-8.99945
器	-8.99966
則有	-9.00031
率	-9.00238
腹	-9.00373
唯	-9.00531
金星	-9.00591
春夏	-9.00613
木炁	-9.00684
辭	-9.00766
丑未	-9.00771
誠	-9.00857
秋冬	-9.009
福徳	-9.01098
寧	-9.0124
六害	-9.01294
星辰	-9.01315
則吉	-9.01316
又有	-9.01495
烏	-9.01542
果	-9.01596
中央	-9.01602
天干	-9.01792
枯	-9.02174
步	-9.02251
内外	-9.02472
寅卯	-9.02538
/□	-9.02684
之時	-9.02755
壯	-9.02777
少年	-9.03061
不相	-9.03613
命主	-9.03688
谷	-9.03748
姤	-9.03797
邦	-9.03881
故也	-9.03886
九十	-9.03955
為財	-9.03968
地支	-9.04106
享	-9.04253
人命	-9.04376
土計	-9.04393
段	-9.04442
虧	-9.04443
殿	-9.04478
兵大起	-9.04533
千里	-9.04543
是以	-9.04555
㢲	-9.04561
感	-9.04627
吉星	-9.04633
閉	-9.04691
寡	-9.04748
䧟	-9.04835
第一	-9.0487
亦不	-9.04882
雖有	-9.04943
功名	-9.05059
距	-9.05149
水土	-9.05226
丘	-9.05274
爾	-9.0535
亦主	-9.05396
之宫	-9.05498
珠	-9.05502
為人	-9.05693
不過	-9.05792
姓	-9.0588
曹震圭曰	-9.05882
抱	-9.06023
變化	-9.06053
人君	-9.06109
故以	-9.06147
弟	-9.0629
得之	-9.06302
浮	-9.06378
怪	-9.06386
許	-9.06412
天地之	-9.06489
鎮	-9.06573
必主	-9.06646
天門	-9.06835
圍	-9.07058
支干	-9.07079
維	-9.07195
崇	-9.07224
韓	-9.07244
黄道	-9.07266
潤	-9.07303
太歲	-9.07306
官煞	-9.07312
寶	-9.07455
者乃	-9.075
沉	-9.07524
約	-9.0757
朱	-9.07785
妄	-9.07959
火星	-9.08101
錯	-9.08197
然後	-9.08337
均	-9.08351
條	-9.08411
支上	-9.08528
塞	-9.08672
咸池	-9.08791
女人	-9.08828
忽	-9.09084
誤	-9.09085
胡	-9.09096
貌	-9.09215
之上	-9.09259
所在	-9.09282
鬬	-9.09337
三方	-9.09359
御	-9.09507
在寅	-9.09805
毛	-9.09872
南北	-9.09894
射	-9.09901
奉	-9.09971
中孚	-9.09985
淺	-9.1017
慶	-9.10208
之説	-9.10213
三十日	-9.10213
十日	-9.10268
流星	-9.10301
衍	-9.1062
十干	-9.10638
天元	-9.10725
宫中	-9.10981
殊	-9.11061
冠	-9.11421
仰	-9.1145
裏	-9.11609
主星	-9.11684
宣	-9.11747
肉	-9.11857
一星	-9.1193
返	-9.11942
兑	-9.11963
主人	-9.12078
田宅	-9.1208
之命	-9.12126
了	-9.1235
魂	-9.12366
金神	-9.12498
天道	-9.12729
星主	-9.1274
一百	-9.1289
侍郎	-9.12994
日生	-9.13002
縮	-9.13048
緩	-9.13099
専	-9.13154
用神	-9.13168
險	-9.13203
熒惑犯	-9.13204
縁	-9.1345
英	-9.13503
人得	-9.13518
接	-9.13527
不通	-9.13738
人主	-9.13758
逃	-9.13765
之鄉	-9.1377
邜	-9.13802
出於	-9.13822
稍	-9.14347
審	-9.14396
疾病	-9.14429
官印	-9.14563
陽刃	-9.14628
釋	-9.14799
據	-9.14806
鬼神	-9.14833
水星	-9.14833
生時	-9.14911
以其	-9.15021
停	-9.15021
酒	-9.15055
兒	-9.15166
庭	-9.15262
戒	-9.15298
東西	-9.15306
亥卯未	-9.15377
不為	-9.15423
亦可	-9.15581
罪	-9.15774
辰為	-9.15801
東井	-9.15934
陽氣	-9.15987
口舌	-9.16044
遺	-9.16063
的	-9.16093
北斗	-9.16302
二千一百	-9.16479
木火	-9.16685
一云	-9.16787
𫝊	-9.16834
貧賤	-9.16841
蟲	-9.1686
二千二百	-9.16903
陸	-9.16931
無所	-9.17097
爵	-9.17101
若是	-9.17197
負	-9.17221
補	-9.17241
註	-9.17362
隱	-9.17382
五年	-9.17474
推之	-9.17584
饑	-9.17672
金火	-9.17715
夬	-9.17718
者以	-9.17769
營室	-9.17824
平生	-9.17874
七日	-9.17898
額	-9.18012
徙	-9.18109
五日	-9.18176
君臣	-9.18239
七十	-9.18306
大吉	-9.18361
歳星	-9.18463
小過	-9.18528
勾	-9.18533
授	-9.1855
夢	-9.18595
黨	-9.18598
巧	-9.1861
適	-9.18636
刑衝	-9.18639
需	-9.18948
輪	-9.18962
閒	-9.18996
子丑	-9.19005
愁	-9.19018
在於	-9.19314
行人	-9.19367
丈	-9.19392
慎	-9.19397
旁	-9.19407
得其	-9.19442
為貴	-9.19456
尺	-9.19514
辛夘	-9.19706
傾	-9.19882
經曰	-9.19916
大小	-9.19945
為天	-9.2001
㫁	-9.20284
臺	-9.20297
數也	-9.20323
界	-9.20334
庶	-9.20345
分野	-9.2058
川	-9.20634
齒	-9.20673
俗	-9.20736
乖	-9.20798
消息	-9.20832
太子	-9.20833
大水	-9.21403
箇	-9.21561
起於	-9.21627
相尅	-9.21697
婚	-9.21744
太白犯	-9.21848
巳酉丑	-9.21926
霜	-9.22016
樞	-9.22346
人生	-9.22418
史	-9.22437
祿馬	-9.22448
比肩	-9.2256
環	-9.22578
又如	-9.22876
没	-9.22903
征	-9.2297
抵	-9.22983
蠱	-9.23011
用之	-9.23078
發福	-9.23173
後天	-9.23389
徵	-9.23458
地之	-9.23566
之說	-9.23611
孔	-9.23727
刼煞	-9.23758
究	-9.23868
羅㬋	-9.23895
聰明	-9.23947
芒	-9.24075
不可以	-9.24289
設	-9.24382
淵	-9.2442
而言	-9.24485
為陽	-9.24617
奴	-9.24691
三公	-9.24715
閑	-9.24756
絲	-9.24819
柳	-9.24827
懼	-9.24885
坎離	-9.24887
明堂	-9.25036
六十四	-9.25217
大人	-9.25315
己夘	-9.25413
之星	-9.25449
拜	-9.2568
盜	-9.25698
量	-9.25703
水孛	-9.25835
三陽	-9.26058
粟	-9.26075
畜	-9.26144
卿	-9.26275
彗星	-9.26368
神煞	-9.26461
六甲	-9.26464
基	-9.26497
賦云	-9.2684
日主	-9.26893
歸妹	-9.26965
螣蛇	-9.27117
四象	-9.27332
傳曰	-9.27355
之始	-9.27452
阻	-9.27568
禁	-9.27607
三十一	-9.27622
脉	-9.27661
多死	-9.27951
而生	-9.28008
在申	-9.28013
池	-9.28042
沒	-9.28058
觜	-9.28262
天罡	-9.28318
皆以	-9.28385
毒	-9.28496
之日	-9.28503
漏	-9.28579
混	-9.28581
含	-9.28625
彗星出	-9.28803
之意	-9.28854
人民	-9.28951
大將	-9.28954
脫	-9.29064
住	-9.29086
便是	-9.2911
佐	-9.29157
日之	-9.29198
品	-9.29391
楊	-9.2942
狀	-9.29834
相合	-9.29894
單	-9.2995
輿鬼	-9.29959
賁	-9.29984
奴僕	-9.30013
墜	-9.3002
况	-9.30038
待	-9.30099
天后	-9.30115
紅	-9.30147
榖	-9.30189
陳卓曰	-9.30195
大將軍	-9.30206
四分	-9.30279
亦是	-9.3035
南斗	-9.30499
循	-9.30523
河圖	-9.30671
甲巳	-9.30679
旗	-9.30897
上有	-9.30924
呼	-9.3098
烈	-9.31005
蔽	-9.31044
有所	-9.31154
熟	-9.31161
為禍	-9.31257
桓	-9.31307
舌	-9.3138
二分	-9.31392
厥	-9.31458
京房曰	-9.31461
熒惑守	-9.31579
在子	-9.31695
在午	-9.31772
海中占曰	-9.31777
觀之	-9.31861
晷	-9.31865
狐	-9.31922
懐	-9.31934
之變	-9.31959
属	-9.32008
本命	-9.32042
太守	-9.32263
妖	-9.32281
帝座	-9.32282
沈	-9.32404
何以	-9.32527
而得	-9.32527
三分	-9.32661
盤	-9.32855
儒	-9.32943
鹿	-9.32966
嫁	-9.32969
燥	-9.32991
吉神	-9.33047
紫炁	-9.33059
為一	-9.33232
天空	-9.33389
䇿	-9.3339
迍	-9.33455
之月	-9.33499
哭	-9.33499
彗	-9.33584
二宫	-9.33648
一陽	-9.3372
土星	-9.33792
殘	-9.33822
飢	-9.33829
雀	-9.33884
禹	-9.33947
客星犯	-9.34108
五行之	-9.34141
徐	-9.3419
遇之	-9.34285
案	-9.34368
謹	-9.34405
在亥	-9.34648
三十三	-9.34691
流年	-9.34769
詩曰	-9.34782
大抵	-9.34787
若遇	-9.34814
輕重	-9.34858
御史	-9.34864
超	-9.34885
炎	-9.34942
凌	-9.34953
懸	-9.34959
増	-9.34966
屈	-9.34979
八十	-9.35023
渾	-9.35193
乙夘	-9.35204
晝生	-9.35221
之下	-9.35386
徃	-9.35419
不忌	-9.35607
其君	-9.35694
精神	-9.35723
一位	-9.35788
而有	-9.35884
犯守	-9.35893
肥	-9.35973
狗	-9.36005
當生	-9.36061
學堂	-9.36117
凡事	-9.36276
刀	-9.36437
期三年	-9.36457
掩	-9.36508
倒	-9.36783
腰	-9.36791
五穀	-9.36858
提	-9.37002
厭	-9.3706
寸	-9.37067
脈	-9.37102
其數	-9.37132
亦然	-9.37235
不和	-9.37376
名利	-9.37453
叔	-9.37519
行限	-9.3754
索	-9.37549
也其	-9.37646
始於	-9.3769
分明	-9.37747
妨	-9.38033
貴賤	-9.38047
夕	-9.38055
務	-9.38153
寄	-9.38213
主有	-9.38231
妻子	-9.3842
鷄	-9.38505
叅	-9.38603
違	-9.38688
郎	-9.38911
同人	-9.38941
未濟	-9.38981
測	-9.39021
獻	-9.39052
萃	-9.39103
側	-9.39208
族	-9.39237
焦	-9.39305
畧	-9.39627
鳯	-9.39656
旋	-9.39736
丁夘	-9.39797
占病	-9.39989
在未	-9.40087
軒轅	-9.40114
笑	-9.40254
遷移	-9.40269
悲	-9.40275
四星	-9.40328
丙火	-9.40418
三十四	-9.40438
恭	-9.4045
中國	-9.40591
在酉	-9.40677
八十一	-9.40695
寛	-9.40719
科	-9.40734
遯	-9.40765
姑	-9.40788
其餘	-9.40806
四十五	-9.40921
洛書	-9.40929
在上	-9.40964
兄	-9.4121
猪	-9.41231
亦為	-9.41269
天上	-9.4129
途	-9.41295
偏官	-9.41296
回	-9.41313
鍾	-9.41395
少隂	-9.41591
人見	-9.41613
之精	-9.41643
者皆	-9.41678
計都	-9.41709
無光	-9.41722
孕	-9.41781
游	-9.41887
四十八	-9.41988
氏曰	-9.42058
大夫	-9.42232
吳	-9.42286
惑	-9.42367
戴	-9.42402
巳午	-9.42566
而下	-9.427
吕	-9.42945
倉	-9.42979
之物	-9.43125
顧	-9.43168
六年	-9.43205
四位	-9.43222
正官	-9.43242
故名	-9.43288
須女	-9.43352
獸	-9.43382
工	-9.43412
為水	-9.43496
蒼	-9.43536
皆是	-9.43539
決	-9.43586
一月	-9.43623
奇	-9.43749
草木	-9.43933
若逢	-9.43984
請	-9.43986
一偏	-9.44049
丙辛	-9.4405
嚴	-9.44058
嵗星犯	-9.4428
乙木	-9.44449
勿	-9.44547
交於	-9.44555
九宫	-9.44569
填星犯	-9.44578
竊	-9.44771
二十八宿	-9.44809
為隂	-9.44892
十分	-9.44926
太常	-9.4497
八字	-9.44981
在天	-9.44998
唇	-9.45001
句	-9.45108
趨	-9.45149
茂	-9.45198
活	-9.45243
小畜	-9.45258
拘	-9.45259
春秋緯曰	-9.45265
妾	-9.45581
乙庚	-9.45609
見之	-9.45627
蓍	-9.45646
剛柔	-9.45658
仇	-9.45706
暮	-9.45711
虞	-9.45717
哀	-9.45732
不盡	-9.45811
户	-9.4584
逢之	-9.45924
百事	-9.4599
叛	-9.46147
逰	-9.46162
立春	-9.46164
魁罡	-9.46221
擇	-9.46267
祭	-9.46283
卯酉	-9.46348
水木	-9.46406
晚	-9.46644
一分	-9.4666
蜀	-9.46756
大運	-9.46811
慮	-9.46854
不行	-9.46967
四年	-9.47144
穀	-9.47284
賜	-9.47287
呉	-9.47347
祀	-9.47362
渙	-9.47412
春分	-9.47441
饒	-9.47447
聽	-9.47479
大過	-9.4751
居之	-9.47527
宗廟	-9.47546
又以	-9.47652
丁壬	-9.47839
婚姻	-9.47872
凶神	-9.47894
荒	-9.48042
辰星犯	-9.48102
女子	-9.48102
若見	-9.48109
少陽	-9.48121
嵗運	-9.48127
一氣	-9.48367
遠	-9.48606
骨肉	-9.48626
既濟	-9.48629
如何	-9.4864
在丑	-9.48654
三十七	-9.48664
蠶	-9.48695
之用	-9.48706
故言	-9.4877
尖	-9.48884
凶星	-9.48946
陣	-9.49095
迺	-9.49121
丞相	-9.49152
斜	-9.49203
乆	-9.49269
於此	-9.49294
於是	-9.49421
為凶	-9.49456
秒	-9.49637
色赤	-9.49673
剝	-9.49768
者必	-9.49829
鼓	-9.49857
甲木	-9.49878
天牢	-9.49901
無疑	-9.49943
不如	-9.49947
霧	-9.50205
稽	-9.5023
二日	-9.50283
訣	-9.50303
兎	-9.50415
將相	-9.50817
歩	-9.5083
續	-9.5088
沐浴	-9.50922
名為	-9.50934
一嵗	-9.50937
農	-9.50944
觸	-9.50951
最為	-9.50952
只是	-9.50956
賔	-9.51026
天乙貴人	-9.51027
有餘	-9.51119
刑害	-9.51163
三𫝊	-9.51339
六爻	-9.51352
更有	-9.51368
朱子	-9.51392
而行	-9.51408
加臨	-9.51434
在巳	-9.51483
月蝕	-9.51557
腎	-9.51585
數之	-9.51605
三十五	-9.51661
第三	-9.51789
北極	-9.51793
年月日時	-9.51847
此宫	-9.51927
其下	-9.51954
京	-9.51977
五車	-9.52053
靣	-9.52077
知其	-9.52134
璧	-9.52161
榮華	-9.52239
改元	-9.52269
罷	-9.52384
記	-9.52472
朱子曰	-9.52514
大有	-9.52665
若在	-9.52756
為正	-9.53397
葉	-9.534
省	-9.53436
身弱	-9.5347
衝破	-9.53485
不動	-9.53554
不欲	-9.53578
逹	-9.53665
寅為	-9.53883
亨	-9.53918
作事	-9.54003
脚	-9.54007
域	-9.5404
財星	-9.54271
之後	-9.54465
曹	-9.54509
珥	-9.54515
歡	-9.54528
赤道	-9.54539
騰	-9.54586
凖	-9.54699
育	-9.54851
忠	-9.54898
太過	-9.54922
津	-9.54987
可知	-9.55044
天下有	-9.55123
中年	-9.55153
蓬	-9.55172
墨	-9.5521
滛	-9.55229
馳	-9.5524
秋分	-9.55301
其上	-9.5536
准	-9.55369
風雨	-9.5559
財物	-9.55597
煞星	-9.55674
議	-9.5572
甘	-9.55803
種	-9.55818
累	-9.5583
徴	-9.55881
振	-9.55935
荆	-9.55953
寅申	-9.56008
醫	-9.56018
日行	-9.56078
戌亥	-9.56154
夭折	-9.56155
當之	-9.56259
天目	-9.5627
悉	-9.56399
狂	-9.56564
三百	-9.56701
仙	-9.56833
天馬	-9.5684
終於	-9.56919
也又	-9.56992
二交	-9.56996
月中	-9.57
百二十	-9.57054
投	-9.57066
猛	-9.57069
同行	-9.57074
醜	-9.57078
刺	-9.5708
錢	-9.57315
此乃	-9.57362
之内	-9.57479
病者	-9.57489
健	-9.57527
得時	-9.57558
充	-9.577
徑	-9.57737
送	-9.57755
上見	-9.57794
星出	-9.57831
懷	-9.57838
上元	-9.57895
天倉	-9.57921
相應	-9.57962
土為	-9.57996
夫婦	-9.58181
竹	-9.58324
毫	-9.58335
格局	-9.58431
味	-9.58481
昔	-9.5849
戊癸	-9.58501
三度	-9.58648
臨之	-9.5892
无妄	-9.58978
財旺	-9.58979
貴顯	-9.58983
牙	-9.59029
有大	-9.59089
泥	-9.59099
故有	-9.59128
妻妾	-9.59176
日為	-9.59291
之妙	-9.59438
豪	-9.59488
三煞	-9.59616
司馬	-9.59617
大旱	-9.59647
家人	-9.59658
欺	-9.59658
為害	-9.59662
男子	-9.59715
凝	-9.59726
其氣	-9.59732
博	-9.59741
之兆	-9.59754
之方	-9.59944
七十二	-9.60013
幸	-9.60032
戎	-9.601
四十四	-9.60204
一宫	-9.60219
姦	-9.60271
丹	-9.60288
牽	-9.60299
耶	-9.60302
官符	-9.60318
玉堂	-9.60334
屬木	-9.60368
午未	-9.60458
貴神	-9.6054
求財	-9.60559
三刑	-9.60579
有三	-9.60587
者如	-9.60588
四十二	-9.60649
之體	-9.60669
癸水	-9.60744
見於	-9.60826
亥為	-9.60843
嫁娶	-9.60878
於天	-9.60909
項	-9.60925
官福	-9.60927
幾	-9.61008
孰	-9.61043
天庭	-9.61123
東壁	-9.6116
隂氣	-9.61164
寅時	-9.6123
月暈	-9.61441
貴格	-9.61471
故為	-9.61487
癸夘	-9.6154
廷	-9.61549
髪	-9.61618
嗣	-9.61635
湯	-9.61643
余	-9.61671
録	-9.61682
堪	-9.61856
女命	-9.619
砂	-9.61969
六日	-9.62092
立命	-9.62094
不正	-9.62125
無成	-9.62143
五鬼	-9.62205
値	-9.6234
凡占	-9.62366
四仲	-9.62394
盗賊	-9.6242
辟	-9.62422
制伏	-9.62438
般	-9.62448
十年	-9.62494
羅計	-9.62535
不必	-9.62719
是非	-9.62728
簡	-9.629
五榖	-9.62923
頤	-9.62934
舒	-9.62978
二百	-9.63152
九星	-9.63207
無窮	-9.63211
皆主	-9.63244
甲日	-9.63247
木為	-9.63324
子曰	-9.63499
算	-9.63572
减	-9.63581
六分	-9.6361
詔	-9.63624
賴	-9.63629
藝	-9.63637
驛	-9.63658
屬火	-9.63671
慈	-9.63689
黄帝曰	-9.63796
五度	-9.63904
以此	-9.63911
長官司	-9.63926
不合	-9.63978
在辰	-9.64043
嘗	-9.64144
凢	-9.64228
圗	-9.64236
殷	-9.64249
宻	-9.64274
去其	-9.64298
僧道	-9.64392
縱有	-9.64405
流行	-9.64427
之處	-9.64628
路空	-9.647
次之	-9.64715
若無	-9.64754
官事	-9.64856
之辰	-9.64857
溢	-9.6498
班	-9.65014
滋	-9.65026
大敗	-9.6506
撰	-9.65063
辱	-9.65069
疾厄	-9.65071
五十五	-9.65105
厲	-9.65108
色青	-9.65149
往來	-9.65257
在戌	-9.65332
則以	-9.65367
明夷	-9.65382
耀	-9.65452
刑囚	-9.65555
沙	-9.65579
太微	-9.65584
卦氣	-9.65621
善惡	-9.65662
迷	-9.65721
較	-9.65731
其間	-9.65732
辛金	-9.65868
者是	-9.65969
平常	-9.66002
惡死	-9.66047
十二辰	-9.66209
戊己	-9.66236
鬭	-9.66261
猴	-9.66285
此格	-9.66289
都憲	-9.66299
以成	-9.66331
巢	-9.6636
五分	-9.66363
倣此	-9.66396
契	-9.66412
桃花	-9.66415
戾	-9.66494
華葢	-9.66527
座	-9.66533
日出	-9.66568
則不	-9.666
古人	-9.66606
且如	-9.66736
化為	-9.66742
三十九	-9.66766
也此	-9.66788
此言	-9.66835
亡神	-9.66845
厯例曰	-9.66911
二十日	-9.66998
蔡	-9.67058
噬嗑	-9.67085
追	-9.67098
杜	-9.67107
四十三	-9.67129
其義	-9.67184
素	-9.67259
衣食	-9.67278
月厭	-9.67385
為鬼	-9.67486
孔子	-9.67493
天下之	-9.67512
動靜	-9.67513
為兵	-9.67537
流星犯	-9.67551
濶	-9.67677
地鏡曰	-9.67712
皇后	-9.67737
肩	-9.67762
麥	-9.67772
三星	-9.67797
末傳	-9.67799
蕃	-9.67804
禀	-9.67835
安命	-9.67841
國有	-9.67844
生物	-9.67847
元武	-9.67873
人也	-9.68142
也凡	-9.68153
惡星	-9.68162
子時	-9.68213
未為	-9.68234
屬金	-9.6825
變而	-9.68266
有四	-9.6828
鋒	-9.68436
洞	-9.68439
死於	-9.68457
頥	-9.68489
眀	-9.68529
弓	-9.68555
所生	-9.68607
三十八	-9.68631
六親	-9.68681
月犯	-9.68697
敢	-9.68797
第二	-9.68857
萬里	-9.6886
庚金	-9.69001
𦂳	-9.69051
領	-9.69141
促	-9.69167
正月起	-9.69206
夫妻	-9.69249
裁	-9.6928
借	-9.69328
為妻	-9.69346
是故	-9.695
損益	-9.69541
父子	-9.69572
人事	-9.69818
底	-9.70094
己午	-9.70099
或有	-9.7013
大衍	-9.70167
冥	-9.70231
倫	-9.70291
死氣	-9.70405
若得	-9.70544
錫	-9.70678
堯	-9.70683
取其	-9.70692
居中	-9.70705
巳為	-9.70712
萌	-9.70718
㸃	-9.70778
午為	-9.70802
易之	-9.70812
相刑	-9.70874
通書	-9.70951
百里	-9.71095
戮	-9.71117
隂陽之	-9.71147
泄	-9.71197
梟	-9.71208
已上	-9.71348
雉	-9.7137
文王	-9.71383
換	-9.71383
荆州占曰太白	-9.71407
終始	-9.7147
百姓	-9.71527
亦吉	-9.71624
午時	-9.71673
四十六	-9.71729
大畜	-9.71821
侍	-9.71972
去之	-9.7202
曉	-9.72112
典	-9.72126
㫖	-9.72148
塵	-9.72179
纒	-9.72183
眞	-9.72191
冝	-9.72246
屬水	-9.72254
筮	-9.72255
雲氣	-9.72339
失其	-9.72586
秉	-9.72801
規	-9.72949
廟旺	-9.72969
分為	-9.73013
加亥	-9.73096
六畜	-9.731
守之	-9.73142
不敢	-9.73357
周天	-9.73405
以下	-9.73464
一刻	-9.73532
與日	-9.73538
蕩	-9.73551
期一年	-9.73575
毁	-9.73593
子午卯酉	-9.73609
睽	-9.73627
旬空	-9.73659
二氣	-9.73679
溺	-9.73691
不以	-9.73703
抑	-9.73713
大凶	-9.73798
流星入	-9.73837
重重	-9.73841
可見	-9.73981
月在	-9.73986
客星	-9.74033
又名	-9.74039
司命	-9.74056
不免	-9.74091
星在	-9.74222
不論	-9.74279
佳	-9.74321
也夫	-9.74335
選	-9.74353
睛	-9.74354
則凶	-9.74365
放	-9.74399
潛	-9.744
生死	-9.74408
怨	-9.74409
絡	-9.74411
物之	-9.74411
更得	-9.74431
大煞	-9.74543
其年	-9.74715
先生	-9.7493
雌	-9.74994
之分	-9.75048
年命	-9.75069
焚	-9.75085
影	-9.7513
談	-9.75148
太㣲	-9.7515
完	-9.75166
皆有	-9.75206
一世	-9.75219
者亦	-9.75252
之士	-9.7533
亥子丑	-9.75343
此是	-9.75343
不言	-9.75575
丑為	-9.75678
之謂	-9.75684
氣之	-9.75714
戌為	-9.75763
初傳	-9.75776
不出其年	-9.75819
彗孛犯	-9.75855
兔	-9.7586
天下大亂	-9.7586
矢	-9.7591
材	-9.75917
瑞	-9.75954
慢	-9.75978
肺	-9.76004
脩	-9.76008
迫	-9.7604
其人	-9.76199
不定	-9.76325
子息	-9.76478
洪範	-9.76499
僧	-9.76638
客星出	-9.76644
排	-9.76654
之數也	-9.76691
膽	-9.76726
述	-9.76788
貴氣	-9.76903
何曰	-9.77106
月將	-9.7716
大壯	-9.77184
色白	-9.77262
更加	-9.77324
匿	-9.77349
乏	-9.77357
時上	-9.7738
麗	-9.77398
穿	-9.77405
鷹	-9.77425
肅	-9.77463
惠	-9.77471
擬	-9.77508
坐命	-9.77564
寅夘	-9.77609
光明	-9.77646
有一	-9.77752
則主	-9.77764
而用	-9.7782
戊土	-9.77826
願	-9.77831
月行	-9.77847
八百	-9.77951
自刑	-9.7796
此二	-9.78069
無不	-9.78099
聳	-9.78102
切忌	-9.78138
四十一	-9.78154
昧	-9.78175
期二年	-9.78214
壞	-9.78242
合於	-9.78297
不喜	-9.78303
某	-9.78324
火木	-9.78337
者謂	-9.78401
不在	-9.78482
申時	-9.78561
騎	-9.78567
疫	-9.78645
有水	-9.78649
也假令	-9.78653
虹	-9.7877
刄	-9.78776
二千四百	-9.78871
三千六百	-9.78903
寵	-9.78982
準	-9.78988
友	-9.79024
頼	-9.79043
㓜	-9.7905
有情	-9.79057
也然	-9.79057
旺氣	-9.79123
告	-9.79212
若還	-9.79239
始終	-9.79325
主貴	-9.79346
綱	-9.79401
故云	-9.79529
矣故	-9.79627
十二宫	-9.79652
天狗	-9.79675
淮	-9.7969
火為	-9.79753
謝	-9.79774
制之	-9.79774
之象象曰	-9.79778
凉	-9.79805
十五度	-9.79844
濕	-9.79846
有用	-9.79873
大赦	-9.79875
五十六	-9.79895
體用	-9.79952
顔曰	-9.79995
密	-9.80088
非常	-9.80107
然則	-9.80189
天徳	-9.80401
吟	-9.80509
壓	-9.8052
伏吟	-9.80525
晨	-9.8055
勇	-9.80564
繁	-9.80591
竟	-9.80606
一時	-9.80621
須要	-9.80631
一千二百	-9.8073
出行	-9.80884
截	-9.80946
刑尅	-9.81006
四度	-9.81028
有救	-9.81037
在下	-9.81064
一名天	-9.8114
歌曰	-9.81151
有喜	-9.81291
酉為	-9.81438
舞	-9.81451
召	-9.81451
德合	-9.81467
剋	-9.81517
覺	-9.81519
上神	-9.8153
丁火	-9.81621
官祿	-9.81684
雪	-9.81761
生子	-9.81788
第四	-9.81805
皆不	-9.81956
夘酉	-9.82019
邵子	-9.82067
賈	-9.82093
至于	-9.82106
得位	-9.82169
觧	-9.82194
擾	-9.82232
廬	-9.82275
肝	-9.82289
學者	-9.82297
予	-9.82299
頑	-9.82314
見金	-9.82385
熱	-9.82401
月為	-9.82471
日中	-9.82486
無有	-9.82556
洛	-9.82585
將死	-9.82785
即是	-9.8287
十二支	-9.8288
而復	-9.82903
一千八百	-9.82921
二度	-9.83007
桑	-9.8302
伸	-9.83028
捕	-9.83037
中間	-9.8306
言其	-9.83077
麻	-9.83079
童	-9.832
一千三百	-9.83261
格如	-9.83276
公卿	-9.83279
内有	-9.83291
氣如	-9.83404
一作	-9.83556
書曰	-9.83566
熒	-9.83611
爻變	-9.83688
裂	-9.83773
斷之	-9.8381
為上	-9.83878
詞	-9.83881
邉	-9.83889
鈎	-9.83913
壊	-9.83915
功曹	-9.83925
灰	-9.83947
頂	-9.83981
左角	-9.84006
其位	-9.84029
田財	-9.84051
而上	-9.84054
最怕	-9.84089
不祥	-9.84128
之例	-9.84145
五十一	-9.84155
隅	-9.84166
亥時	-9.8443
有財	-9.84471
三千五百	-9.84473
最忌	-9.84508
申為	-9.84583
僕	-9.84655
在外	-9.84656
此星	-9.84659
秘	-9.84663
祭祀	-9.84667
月孛	-9.84677
吉將	-9.8469
當以	-9.84705
讒	-9.84714
仕	-9.84731
日忌	-9.84731
金匱	-9.84733
茍	-9.84745
顛	-9.84775
八分	-9.84873
亦無	-9.84907
黄帝	-9.8494
之前	-9.85057
二位	-9.85097
年正月	-9.8518
牧	-9.85268
主事	-9.85298
未有	-9.85346
以生	-9.8535
道也	-9.85366
一千四百	-9.85421
四維	-9.85444
坤之	-9.85472
監	-9.85516
互換	-9.8553
希	-9.85536
掛	-9.85547
波	-9.85558
郭	-9.85558
牢	-9.8563
其星	-9.85662
而終	-9.85731
疊	-9.85879
孛星	-9.85888
六十日	-9.86151
遥	-9.86156
五十二	-9.86238
不死	-9.86292
随	-9.86292
洪	-9.86308
欽定四庫全書	-9.86336
此為	-9.8634
毎	-9.86341
奴婢	-9.86421
下有	-9.86425
火金	-9.86434
納甲	-9.86446
削	-9.86454
八煞	-9.86504
動摇	-9.86518
門户	-9.86519
丑時	-9.86557
在地	-9.86581
之學	-9.86604
非其	-9.86644
如是	-9.86839
一千五百	-9.86932
聖人之	-9.87007
二千五百	-9.87022
㧞	-9.87025
誰	-9.87027
六陽	-9.87087
唐開元占經卷	-9.87133
益之	-9.87135
不出三年	-9.8714
無情	-9.8717
此卦	-9.87186
帶煞	-9.87216
托	-9.87236
易曰	-9.87239
責	-9.87248
郗萌曰熒惑	-9.87274
明年	-9.87299
快	-9.87318
着	-9.87355
認	-9.87371
立秋	-9.87419
如甲	-9.87539
十五日	-9.87569
調	-9.87572
豕	-9.87671
二千九百	-9.87686
相去	-9.87782
無子	-9.87802
京氏曰	-9.87855
一千一百	-9.87889
吉曜	-9.87916
不來	-9.8796
失地	-9.88068
酉時	-9.88124
自立	-9.88162
之本	-9.88164
於上	-9.88218
清明	-9.88234
惡之	-9.88254
為亂	-9.88333
反覆	-9.88399
顔	-9.8849
巳時	-9.88495
也又曰	-9.88514
帛	-9.88534
地下	-9.88558
有力	-9.88686
生成	-9.88842
五十四	-9.88871
詐	-9.88873
判	-9.88918
終身	-9.88922
時逢	-9.88936
藥	-9.89044
天市	-9.89051
两	-9.89059
即為	-9.89154
壬水	-9.89163
病符	-9.89282
入於	-9.8933
度主	-9.89497
二千六百	-9.89517
道路	-9.89603
合而	-9.89671
聖洽符曰	-9.8973
植	-9.89752
熊	-9.89775
闢	-9.898
金土	-9.89808
熈	-9.89821
泛	-9.89833
踈	-9.89835
蔵	-9.89868
把	-9.89872
役	-9.89877
𢃄	-9.89893
旣	-9.89901
同類	-9.90002
癸日	-9.90073
三千	-9.90085
手足	-9.90195
弦	-9.9024
雨水	-9.90258
金局	-9.90259
河圖曰	-9.90271
水局	-9.90295
五十七	-9.90326
直符	-9.90391
諸星	-9.90489
樹	-9.90596
成敗	-9.90608
辰上	-9.90708
己酉丑	-9.90713
頗	-9.90736
三千二百	-9.9075
涉	-9.9077
舜	-9.90795
耕	-9.90815
孤寡	-9.90821
河魁	-9.90854
二者	-9.90888
之水	-9.9093
百八十	-9.90939
三台	-9.9094
生日	-9.91022
定主	-9.91047
天中	-9.9108
身宫	-9.9109
破敗	-9.91249
三位	-9.91478
子為	-9.91478
釐	-9.91488
天盤	-9.91497
而蝕	-9.91504
吞	-9.91553
討	-9.91589
騐	-9.9159
日暈	-9.91606
二千八百	-9.91608
莊	-9.91622
㓕	-9.91631
反為	-9.91661
也此課	-9.91667
起兵	-9.91688
岳	-9.91694
氷	-9.91716
十度	-9.91718
若守之	-9.91844
乃是	-9.91925
文昌	-9.91959
入墓	-9.92028
二千七百	-9.92057
九分	-9.92127
示	-9.92187
木局	-9.92266
取用	-9.92269
之次	-9.9235
牛馬	-9.92372
憲	-9.92375
喜神	-9.92385
之火	-9.92392
三千三百	-9.9243
經辰之	-9.92457
日躔	-9.92457
見火	-9.92466
太歳	-9.92467
織女	-9.92486
鶴	-9.92492
奏	-9.92499
弔客	-9.92521
不生	-9.92526
娶	-9.92538
寜	-9.9255
此時	-9.92564
翻	-9.92582
三才	-9.92626
六百	-9.92856
而反	-9.92883
九度	-9.92949
勝光	-9.92979
中之	-9.93089
不遇	-9.93138
有福	-9.93204
資財	-9.93284
犯之	-9.93286
四十七	-9.93302
戌時	-9.93316
本宫	-9.93334
唐瞿曇悉達撰	-9.93354
乙日	-9.93355
惡曜	-9.93357
中宫	-9.93369
拆	-9.93405
皆吉	-9.93492
左旋	-9.93531
得失	-9.93542
其説	-9.9355
小兒	-9.93646
山林	-9.93696
髙强	-9.9373
又是	-9.93757
潤澤	-9.93767
立夏	-9.93817
五十九	-9.93849
火旺	-9.9393
必是	-9.93946
無咎	-9.94022
逺行	-9.94046
二千三百	-9.94157
一字	-9.94191
聰	-9.94201
者貴	-9.94256
為災	-9.94294
故曰云云劉曰	-9.9432
刑傷	-9.94355
一千七百	-9.94397
鉞	-9.94405
舟	-9.9441
䕃	-9.94443
庸	-9.94463
股	-9.94477
九年	-9.9456
六隂	-9.9464
占事	-9.94681
他人	-9.94715
未嘗	-9.9476
故稱	-9.94804
於下	-9.94851
之言	-9.94864
地盤	-9.94923
變為	-9.94945
逢生	-9.94958
一千九百	-9.95195
社	-9.95237
叚	-9.95247
揲	-9.95261
官貴	-9.95294
報	-9.95353
三千四百	-9.95354
播	-9.95374
熒惑入	-9.95391
狀元	-9.95398
式	-9.95424
右行	-9.95453
煩	-9.9546
日月星辰	-9.95467
罔	-9.95483
歲運	-9.95567
月日時	-9.95579
三千七百	-9.95652
生者	-9.9566
其理	-9.95705
故謂之	-9.95819
之序	-9.9587
福星	-9.9587
四孟	-9.95923
死者	-9.95953
九百	-9.95959
四千一百	-9.95962
三千一百	-9.95985
一千六百	-9.96069
祖業	-9.96102
萬事	-9.9615
方為	-9.96157
乍	-9.96167
則無	-9.96204
階	-9.96214
寅申巳亥	-9.96228
奮	-9.96247
四日	-9.96275
三千九百	-9.96284
仲尼	-9.96291
行運	-9.96293
者多	-9.96349
不失	-9.96397
為火	-9.96494
有兵起	-9.96506
之木	-9.96587
者是也	-9.96647
妻財	-9.96662
天文	-9.96701
六度	-9.96779
角亢	-9.96929
必然	-9.96982
夜半	-9.97031
日月之	-9.97041
三千八百	-9.97069
一尺	-9.97092
倘	-9.97188
鐘	-9.97196
偽	-9.97199
也故曰	-9.97272
亥加	-9.9737
萬物之	-9.97407
弑	-9.97459
為妙	-9.97484
正印	-9.97488
執法	-9.97491
必定	-9.97561
七年	-9.97808
氣也	-9.97832
賞	-9.98031
之國	-9.98034
在卯	-9.98038
方可	-9.98042
郗萌曰太白	-9.98053
至此	-9.98058
車騎	-9.98078
皮	-9.98135
人物	-9.98177
尤甚	-9.98192
乗之	-9.98194
峯	-9.9823
安身	-9.98268
今日	-9.98282
相對	-9.98327
自有	-9.98353
之外	-9.98362
夘時	-9.98492
喪門	-9.98537
相㑹	-9.98633
閣	-9.98727
亦貴	-9.98727
妻宫	-9.98771
賛	-9.98798
二百四十	-9.98811
則是	-9.99019
主死	-9.9902
申酉戌	-9.99052
圎	-9.99054
五十三	-9.99074
宇	-9.99096
悦	-9.99136
脾	-9.99148
有二	-9.99156
克日	-9.99166
十二度	-9.99169
若不	-9.9921
先後	-9.99264
客星守	-9.9928
建禄	-9.99286
甘氏讃曰	-9.99298
曰天	-9.99351
有謀	-9.9938
古今	-9.99419
世之	-9.99424
文武	-9.99454
官職	-9.99529
受制	-9.99627
之道也	-9.9972
土功	-9.99738
其法	-9.99754
四千二百	-9.99846
者謂之	-9.99862
之極	-9.99959
七宿	-9.99977
科名	-9.99983
天鏡曰	-10.0001
恃	-10.0004
埋	-10.0008
破碎	-10.0009
一元	-10.001
庚日	-10.001
灼	-10.0011
拱夾	-10.0012
最喜	-10.0012
融	-10.0015
六星	-10.0018
周而復始	-10.0023
與月	-10.0024
入廟	-10.0029
陽貴	-10.0033
受尅	-10.0034
之謂也	-10.0047
主客	-10.0069
生我	-10.0079
小吉	-10.0084
格也	-10.0086
攝提	-10.0091
三四	-10.0092
丅	-10.0099
祠	-10.0101
香	-10.0101
大富	-10.0102
謬	-10.0104
彌	-10.0106
雅	-10.0107
之名	-10.0107
吐	-10.0107
流血	-10.0108
之䇿	-10.0109
習	-10.011
晴	-10.0114
官鬼	-10.0117
之性	-10.0117
網	-10.0129
孤獨	-10.013
或曰	-10.0131
是主星	-10.0132
之卦	-10.0135
為地	-10.0138
六十四卦	-10.0142
春生	-10.0142
四課	-10.0145
宫室	-10.0155
丗	-10.0156
常人	-10.0174
為金	-10.0179
多主	-10.018
餘分	-10.0183
人所	-10.0185
秋生	-10.0186
師之	-10.0195
罰	-10.0195
冦	-10.02
陶	-10.0201
布政	-10.0202
繩	-10.0203
隣	-10.0204
磨	-10.0206
憑	-10.0206
喻	-10.0209
寒暑	-10.021
臣下	-10.0215
晚年	-10.0227
郗萌曰嵗星	-10.0234
不勝	-10.0236
其邑	-10.024
所居	-10.0241
第五	-10.0242
一百八十	-10.0248
消長	-10.0257
辰時	-10.0267
京房	-10.0275
二千	-10.0277
相貌	-10.0279
員	-10.0286
天官書曰	-10.0294
籍	-10.0295
恣	-10.0299
欽	-10.0299
屠	-10.0301
是時	-10.0301
驅	-10.0301
針	-10.0304
添	-10.0304
現	-10.0307
未時	-10.0309
無官	-10.031
有五	-10.031
冠帶	-10.0311
人多	-10.0311
題	-10.0312
升降	-10.0332
之土	-10.0333
生尅	-10.0337
有罪	-10.0342
火局	-10.0348
正位	-10.0353
天下大	-10.0354
一身	-10.0367
程	-10.0367
守禦千户所	-10.0377
不貴	-10.0377
中元	-10.038
天下有兵	-10.0382
贏	-10.0385
之官	-10.0386
校	-10.0388
天喜	-10.0388
諸事	-10.0391
為煞	-10.0397
遣	-10.0399
豹尾	-10.0399
為竒	-10.0402
斬	-10.0403
福德	-10.0405
哭泣	-10.0405
委	-10.0406
之際	-10.0414
尅制	-10.0415
竈	-10.0423
以正	-10.0424
入太微	-10.0426
方位	-10.0431
隂陽相	-10.0434
欽定四庫全書唐開元占經卷	-10.0437
運至	-10.0448
未免	-10.0453
為四	-10.0468
者非	-10.0469
有官	-10.0474
二三	-10.0485
必死	-10.0495
廼	-10.0497
所忌	-10.0498
肆	-10.0498
法推	-10.05
之餘	-10.0501
羽林	-10.0501
溪	-10.0502
操	-10.0503
貢	-10.0506
有喪	-10.0508
象也	-10.0514
人有	-10.0521
之災	-10.0524
太后	-10.0537
金為	-10.0539
節之	-10.0543
寅午	-10.055
王良	-10.055
之情	-10.0557
大寒	-10.0573
亦名	-10.0591
除之	-10.0592
屬土	-10.0596
妃	-10.0603
命坐	-10.0604
賣	-10.0605
劒	-10.0606
其道	-10.0607
在前	-10.0609
貫索	-10.0611
紫宫	-10.0611
迹	-10.0617
括	-10.0618
荆州占曰熒惑	-10.0619
天津	-10.063
佛	-10.0631
身命主	-10.0639
之運	-10.0644
足以	-10.0648
居於	-10.0648
寅亥	-10.0653
無救	-10.0659
六壬	-10.0662
身主	-10.0664
者其	-10.0665
荆州	-10.0682
死亡	-10.0686
析	-10.0692
如逢	-10.0692
日入	-10.0697
水為	-10.0705
藉	-10.0714
内亂	-10.0717
或以	-10.072
身衰	-10.0721
演	-10.0721
不至	-10.0723
四夷	-10.0732
同位	-10.0733
襄	-10.0738
得一	-10.0744
所求	-10.0747
首尾	-10.0751
第六	-10.0752
月生	-10.0755
不順	-10.0758
巫	-10.0759
辛日	-10.0763
餘倣此	-10.0773
無破	-10.0773
大角	-10.0775
孚	-10.0788
五色	-10.0788
破財	-10.0791
八宫	-10.0795
吴	-10.0798
身强	-10.0803
鑑	-10.0813
優	-10.0818
者即	-10.0819
禾	-10.0821
乂	-10.0821
木生	-10.0824
也今	-10.0827
柄	-10.0839
六丁	-10.0846
日雨	-10.0847
十里	-10.0849
節氣	-10.0849
成就	-10.086
未可	-10.0862
客星入	-10.0886
丙日	-10.0889
催官	-10.0892
之貴	-10.0893
也或	-10.0897
一千	-10.0898
公侯	-10.0899
長安	-10.0903
相扶	-10.0908
用數	-10.0913
攝	-10.0914
而言之	-10.0918
佞	-10.0919
誕	-10.0923
零	-10.0924
郊	-10.0924
曇瑩曰	-10.0925
五位	-10.0925
見水	-10.0926
動而	-10.0927
飾	-10.0928
瑩	-10.0929
於地	-10.0931
麟	-10.0932
忽然	-10.0945
官旺	-10.0948
三宫	-10.0949
武帝	-10.0964
乾亥	-10.0965
五十八	-10.0969
互相	-10.097
大戰	-10.097
其次	-10.0977
起例	-10.0984
荆州占曰月	-10.0995
暑	-10.0996
木旺	-10.0997
又名天	-10.0998
榮貴	-10.101
能生	-10.1012
七政	-10.1012
廿	-10.1016
占之	-10.1023
豆	-10.1023
觀其	-10.1024
潔	-10.1027
弗	-10.1027
筋	-10.1029
九州	-10.1029
乳	-10.103
禱	-10.1031
輿	-10.1037
躍	-10.1038
蚓	-10.1039
生月	-10.104
以五	-10.1043
循環	-10.1043
戈	-10.1043
時日	-10.1059
十二分	-10.106
陳曰	-10.1067
柱有	-10.1076
日上	-10.1076
而論	-10.1077
命中	-10.1088
立冬	-10.1088
大利	-10.1089
天獄	-10.109
入垣	-10.1098
北辰	-10.1112
火孛	-10.1112
如甲子	-10.1115
四百	-10.1116
填星守	-10.112
墮	-10.1131
訖	-10.1135
穆	-10.1135
綿	-10.1136
峻	-10.1138
次三	-10.1139
竭	-10.1139
鸞	-10.1141
卧	-10.1141
乾之	-10.1142
得此	-10.1142
跡	-10.1143
寃	-10.1143
橋	-10.1144
盈縮	-10.1146
不變	-10.1146
百日	-10.1147
多則	-10.1157
純陽	-10.1157
歟	-10.1159
初年	-10.1161
飛鳥	-10.1162
有變	-10.1168
寅卯辰	-10.1169
山崩	-10.117
後有	-10.1178
如人	-10.1201
對衝	-10.1202
成功	-10.1204
不寧	-10.1207
居官	-10.1223
行度	-10.1224
無傷	-10.1224
樓	-10.1227
七分	-10.1235
莫不	-10.1239
四九	-10.1241
百六	-10.1245
該	-10.1247
而出	-10.1249
朝廷	-10.125
午加	-10.1252
杖	-10.1254
虎豹	-10.1257
奥	-10.1258
赤色	-10.1261
伏羲	-10.1264
之義也	-10.1268
翕	-10.127
忘	-10.1271
元辰	-10.1272
清貴	-10.1273
而未	-10.1278
顯達	-10.1278
彊	-10.1286
見其	-10.1294
尒	-10.1297
不妨	-10.1299
相連	-10.1301
之患	-10.1303
月徳	-10.1304
二隂	-10.1306
十三度	-10.1307
一般	-10.1316
人道	-10.1316
水之	-10.1316
四海	-10.1317
故主	-10.1321
小運	-10.1324
牛生	-10.1333
建星	-10.134
敦	-10.1353
媒	-10.1353
策	-10.1359
筆	-10.136
失位	-10.1361
緒	-10.1363
財禄	-10.1364
銜	-10.1364
淳	-10.1364
曽	-10.1365
計孛	-10.1365
證	-10.1367
文書	-10.1368
徤	-10.137
之交	-10.1371
勤	-10.1372
壬日	-10.1373
地上	-10.1379
尅我	-10.1393
旺於	-10.1395
銳	-10.1402
金牛	-10.1405
陽明	-10.1409
七十六	-10.1421
朔日	-10.1425
丙戊	-10.1434
太白入	-10.1436
東行	-10.1437
死符	-10.1443
此課	-10.1454
初度	-10.1455
帥	-10.1461
當權	-10.1464
范	-10.147
俯	-10.1472
尸	-10.1473
糧	-10.1473
道之	-10.1474
頓	-10.1475
稷	-10.1476
逸	-10.1477
不從	-10.1478
俊	-10.148
大饑	-10.1485
無極	-10.1486
那	-10.1487
上九	-10.1487
㑹於	-10.1492
尅妻	-10.1493
台	-10.1499
已為	-10.1501
月破	-10.1507
變色	-10.1509
丑月	-10.151
尾箕	-10.1514
財庫	-10.1515
巳土	-10.1519
六儀	-10.153
地户	-10.1533
偏財	-10.1534
十二年	-10.1535
三辰	-10.1544
註曰	-10.1546
天下亂	-10.1554
在内	-10.1555
見木	-10.1563
卯為	-10.1564
不去	-10.1567
民多	-10.1569
一十	-10.1571
土也	-10.1572
天一	-10.1574
耦	-10.1575
宰	-10.1575
百六十	-10.1578
戊日	-10.158
㝛	-10.1581
貨	-10.1584
祐	-10.1587
飛亷	-10.1591
黄白	-10.1595
獅子	-10.1599
五六	-10.1601
夲	-10.1608
獨火	-10.1615
以定	-10.1627
艮之	-10.1628
詩云	-10.1629
其形	-10.1632
其主	-10.1637
相克	-10.1639
有八	-10.164
初一	-10.1648
去極	-10.1654
凡人	-10.1658
見土	-10.1662
其色	-10.1665
俱吉	-10.1671
吉㐫	-10.1678
百一十	-10.1683
亦如	-10.1684
尹	-10.1687
鵲	-10.1691
閣老	-10.1692
失時	-10.1695
鼠	-10.1695
䕶	-10.1698
億	-10.17
浪	-10.17
費	-10.1706
鴻	-10.1706
之初	-10.1707
沖	-10.1707
鮮	-10.1709
雍	-10.1715
亡地	-10.1721
一卷	-10.1725
天刑	-10.1725
六十三	-10.1728
生枝	-10.1732
無用	-10.1738
入宫	-10.1741
秀氣	-10.1745
不是	-10.1753
亦以	-10.1762
隂府	-10.1763
老陽	-10.1769
郗萌曰填星	-10.1772
三命	-10.1789
嶽	-10.1803
發財	-10.1803
朋	-10.1807
用兵	-10.1809
燭	-10.181
子午夘酉	-10.1812
繇	-10.1813
黍	-10.1813
七百二十	-10.1814
狹	-10.1815
従	-10.1819
箭	-10.182
稟	-10.182
亥夘未	-10.1821
坼	-10.1822
於寅	-10.1823
塗	-10.1825
園	-10.1826
木土	-10.1826
珍	-10.183
昆	-10.1839
八度	-10.184
對照	-10.1842
正東	-10.1845
威權	-10.1846
太𤣥	-10.1851
之君	-10.1852
夫人	-10.1854
天雨	-10.1858
言之則	-10.186
無害	-10.1866
值此	-10.187
次四	-10.1871
次五	-10.1875
燒	-10.1877
無故	-10.188
巳亥	-10.1881
喜忌	-10.1884
相配	-10.1888
自旺	-10.1889
之形	-10.1889
無力	-10.1889
相衝	-10.1892
古今同	-10.1904
船	-10.1911
喜見	-10.1914
干頭	-10.1915
叠	-10.1919
陽也	-10.1924
有疾	-10.1926
袁	-10.1926
大耗	-10.1928
形者	-10.193
天官符	-10.1931
勲	-10.1931
掃	-10.1932
略	-10.1933
初初	-10.1936
響	-10.1938
無定	-10.194
寡宿	-10.1947
為重	-10.1954
武曲	-10.1958
須知	-10.1958
山川	-10.1973
土木	-10.1975
之疾	-10.1976
有權	-10.1977
之終	-10.1979
申加	-10.198
成數	-10.1986
歲星	-10.1988
凶惡	-10.1994
平平	-10.1996
求之	-10.2007
無形	-10.201
十二日	-10.2012
當時	-10.2018
凶煞	-10.2023
傷殘	-10.2025
之功	-10.2027
月值	-10.2027
衆星	-10.2028
帝王	-10.2037
寇	-10.2045
胷	-10.2048
月宿	-10.205
疎	-10.2051
麄	-10.2053
貎	-10.2054
編	-10.2055
飄	-10.2056
八年	-10.2057
徹	-10.2058
劣	-10.2059
驟	-10.206
不犯	-10.206
囊	-10.206
痛	-10.2061
有䘮	-10.2062
無財	-10.2064
縱横	-10.2064
繞	-10.2064
託	-10.2065
之辰也	-10.2065
斂	-10.2067
七度	-10.2073
戌加	-10.2082
所臨	-10.2084
色黄	-10.2085
一白	-10.2088
左行	-10.2103
一丈	-10.2104
衣禄	-10.2108
玉女	-10.2112
用也	-10.2115
引從	-10.213
巳日	-10.2132
六庚	-10.2134
之所以	-10.2136
無憂	-10.2139
二陽	-10.2145
出軍	-10.2146
金旺	-10.2146
天官	-10.2147
在其中	-10.2149
各以	-10.2152
其性	-10.2167
象數	-10.217
五穀不成	-10.2171
薦	-10.2172
蘇	-10.2173
苗	-10.2173
宰相	-10.2174
多是	-10.2178
彰	-10.2181
撓	-10.2182
割	-10.2184
下賤	-10.2185
午月	-10.2186
屏	-10.2187
巨門	-10.2187
冷	-10.2188
之首	-10.219
有功	-10.2191
有急	-10.2193
得令	-10.2194
原有	-10.2209
蒙之	-10.221
遇此	-10.2213
七百	-10.2215
仁義	-10.2218
十有二	-10.2219
次六	-10.2223
八日	-10.2225
為本	-10.2227
家性爲	-10.2227
次七	-10.223
一卦	-10.2232
九十六	-10.2247
中和	-10.2253
占者	-10.2258
此論	-10.2261
性情	-10.2266
金玉	-10.2274
豹	-10.2282
有赦	-10.2285
邱	-10.2286
財印	-10.2287
曾	-10.229
其後	-10.2291
給	-10.2291
墻	-10.2292
披	-10.2295
逼	-10.2296
嗔	-10.2298
錄	-10.2298
𦵏	-10.2302
醉	-10.2302
欠	-10.2302
之應	-10.2305
混雜	-10.2306
纔	-10.2306
襲	-10.2306
辯	-10.2307
傳送	-10.2307
受福	-10.2312
勸	-10.2315
則應	-10.2316
志曰	-10.2327
物也	-10.2339
大雪	-10.2342
洛書曰	-10.2347
在命	-10.2349
周禮	-10.2354
由是	-10.2362
斗杓	-10.2363
大星	-10.2367
一箇	-10.2372
以水	-10.2375
一百二十	-10.238
再見	-10.2389
天數	-10.2389
摇	-10.239
若守	-10.2395
天赦	-10.2397
不畏	-10.2403
二字	-10.2405
家宅	-10.2411
勃	-10.2412
不要	-10.2413
成器	-10.2414
庻	-10.2414
風憲	-10.2414
岐	-10.2419
六辛	-10.242
湖	-10.2422
不易	-10.2424
淡	-10.2424
祝	-10.2426
奏書	-10.2426
三光	-10.2427
皆在	-10.2433
右角	-10.2434
律吕	-10.2436
尅害	-10.2437
常居	-10.2439
上安命	-10.2439
之臣	-10.2441
最宜	-10.2442
歸於	-10.2442
盲	-10.2443
星明	-10.2444
金生	-10.2444
道不通	-10.2447
歳運	-10.2448
為我	-10.245
侯王	-10.2454
日者	-10.246
兵革	-10.2463
則曰	-10.2468
今以	-10.2472
陽干	-10.2474
為真	-10.2477
禄主	-10.2481
周公	-10.2486
公子	-10.2488
數至	-10.2489
忌星	-10.2506
細推	-10.251
若居	-10.2513
故不	-10.2524
炎上	-10.2526
一星在	-10.2536
日十二時	-10.2536
塡星	-10.2538
五諸侯	-10.2541
霹靂	-10.2542
踰	-10.2543
猿	-10.2545
齋	-10.2546
疏	-10.2548
戸	-10.2551
導	-10.2553
圭	-10.2555
六十二	-10.2555
盜賊	-10.2556
鄙	-10.2556
匹	-10.2556
飲食	-10.2557
酉加	-10.2559
經緯	-10.256
不復	-10.2564
效	-10.2567
往亡	-10.2567
移徙	-10.2571
厨	-10.2571
上文	-10.2575
此理	-10.2586
諸家	-10.2586
曲直	-10.2588
文學	-10.2595
有土功	-10.2595
之㑹	-10.2606
逺近	-10.2607
後宫	-10.2611
神明	-10.2613
六十七	-10.2614
於外	-10.2614
如遇	-10.262
巳午未	-10.2621
彼此	-10.2633
地官符	-10.2633
時干	-10.2637
二刻	-10.2639
在夘	-10.264
黄色	-10.2641
享福	-10.2641
丁日	-10.265
六位	-10.265
三限	-10.2652
蝗	-10.2656
六十六	-10.2659
入格	-10.2662
妬	-10.2667
競	-10.2668
館	-10.267
啟	-10.2671
化氣	-10.2674
殆	-10.2674
竅	-10.2675
甲戊庚	-10.2675
博士	-10.2675
鐵	-10.2675
腦	-10.2676
鳳	-10.2677
黙	-10.2678
大人憂	-10.2683
逆數	-10.2684
相助	-10.2684
尅身	-10.2686
之正	-10.2687
貧窮	-10.2689
必得	-10.2692
扶持	-10.2695
於人	-10.2696
也言	-10.2698
忌見	-10.2701
在後	-10.2703
地動	-10.2703
三尺	-10.2706
善星	-10.2716
七十一	-10.272
郗萌曰熒惑守	-10.2721
以後	-10.2723
巳上	-10.2724
寅宫	-10.2724
糴貴	-10.2728
以前	-10.2735
以三	-10.2736
夘加	-10.274
中末	-10.2746
受命	-10.2751
六十一	-10.2757
寅月	-10.2763
性命	-10.2769
入命	-10.2781
丑寅	-10.2782
卓	-10.2783
命之	-10.2786
巨	-10.2788
南極	-10.279
萬民	-10.2793
聲名	-10.2794
返吟	-10.2794
天德	-10.2795
奎婁	-10.2798
悖	-10.2799
犴	-10.28
隋	-10.2803
地中	-10.2807
獵	-10.281
取象	-10.2811
洩	-10.2812
􁀙	-10.2816
芒角	-10.2819
九五	-10.2825
癸為	-10.2825
立身	-10.2825
天時	-10.2828
傷身	-10.2832
積筭起	-10.284
日月五星	-10.2844
經世之	-10.2845
下臨	-10.2845
其日	-10.2848
七八	-10.2851
為母	-10.2853
丙為	-10.2854
封侯	-10.2854
破軍	-10.2855
四十日	-10.2859
丨悔	-10.2867
天皇	-10.2874
大而	-10.2892
限行	-10.2893
白色	-10.2896
風從	-10.2913
单	-10.2916
刼財	-10.2918
酒色	-10.2923
皆可	-10.2923
天羅	-10.2924
必為	-10.2924
福星貴人	-10.2924
申宫	-10.2925
多病	-10.2925
媚	-10.2929
瘦	-10.2933
攸	-10.2935
日破	-10.2936
增	-10.2936
蠶室	-10.2937
渠	-10.2937
更兼	-10.2942
逃亡	-10.2946
逢金	-10.2947
動也	-10.2947
㝠	-10.2951
庚申辛酉	-10.2952
四廢	-10.2952
之度	-10.2955
又占曰	-10.2967
文曲	-10.2969
此則	-10.2983
水旺	-10.299
此四	-10.3
下元	-10.3006
何如	-10.3013
不當	-10.3016
陽縣	-10.3016
旅之	-10.3023
酉戌	-10.3029
入酉	-10.3029
隂貴	-10.3034
人元	-10.3042
論之	-10.3042
牀	-10.3045
班固天文志曰	-10.3048
其實	-10.3049
選擇	-10.305
皆得	-10.3052
龍虎	-10.3053
然而	-10.3053
死神	-10.3057
五墓	-10.3057
遵	-10.3058
太平	-10.3059
偷	-10.3062
窺	-10.3064
迭	-10.3066
念	-10.3067
極品	-10.3067
官魁	-10.3067
學士	-10.3069
禪	-10.3069
以土	-10.3073
武王	-10.3075
讓	-10.3076
若臨	-10.3076
初九	-10.3078
月德	-10.308
有竒	-10.3081
魯齋	-10.3083
史記	-10.3084
九日	-10.3086
受傷	-10.3086
不全	-10.3089
不可不	-10.3099
禍患	-10.3108
舊本	-10.3113
六四	-10.3117
大飢	-10.3118
之隂	-10.3119
為體	-10.3122
過於	-10.3123
取之	-10.3124
日馬	-10.3127
徳合	-10.3129
週	-10.313
其說	-10.313
其神	-10.3134
震巽	-10.3136
弧	-10.3152
食禄	-10.3152
壬癸日	-10.3165
太白守	-10.3168
之宿	-10.3168
為君	-10.3169
飲	-10.3169
雖然	-10.3174
則可	-10.3177
層	-10.3181
期不出年	-10.3183
狠	-10.3185
出西方	-10.3186
姬	-10.3186
人相食	-10.3186
姜	-10.319
翔	-10.319
又占曰熒惑	-10.3194
郗萌曰月	-10.3195
纂	-10.3197
尼	-10.3199
祟	-10.3199
根基	-10.32
兊之	-10.3204
暢	-10.3204
嗟	-10.3205
拔	-10.3209
衝刑	-10.3212
照臨	-10.3214
不入	-10.3224
有死者	-10.3224
後世	-10.3225
臨於	-10.3238
定是	-10.3243
氣色	-10.3246
隂也	-10.3247
最吉	-10.3248
可謂	-10.3251
不問	-10.3251
三五	-10.3253
糴	-10.3254
破祖	-10.3254
向背	-10.3258
卦之	-10.3259
司空	-10.3259
日禄	-10.3265
此謂	-10.3267
受氣	-10.3274
之徒	-10.328
此皆	-10.3286
本年	-10.3288
壬為	-10.3289
石氏曰嵗星	-10.3291
此以	-10.3292
生火	-10.3294
為土	-10.3302
守命	-10.3307
頃	-10.3317
午上	-10.3324
貴命	-10.3327
吹	-10.3329
淮南子曰	-10.3331
輩	-10.3331
熾	-10.3333
屬陽	-10.3334
入卦	-10.3334
有吉星	-10.3334
純粹	-10.3335
難星	-10.3339
粗	-10.3341
三隂	-10.3344
衞	-10.3347
凍	-10.3348
旺地	-10.3349
而死	-10.3356
對待	-10.3356
常以	-10.3357
虵	-10.336
國家	-10.3372
六十八	-10.3373
子年	-10.3378
不化	-10.3381
兩儀	-10.3384
當有	-10.3401
庶人	-10.3408
黃帝占曰	-10.3413
土孛	-10.3418
以應	-10.3422
年上	-10.3424
彩	-10.3425
晝見	-10.3426
丨凶	-10.3432
無根	-10.3442
大風	-10.3445
賀	-10.3451
呪	-10.3452
輝	-10.3453
于天	-10.3456
艱難	-10.3461
懽	-10.3462
藩	-10.3462
所為	-10.3463
九十一	-10.3464
寅上	-10.3464
蕭	-10.3465
阿	-10.3466
流星出	-10.3466
墳	-10.3467
悟	-10.3468
煞旺	-10.3469
凡命	-10.347
辰戌丑未月	-10.347
鑿	-10.3471
子上	-10.3472
修造	-10.3477
者言	-10.3478
做	-10.3478
吉慶	-10.3482
術士	-10.3482
元戎	-10.3484
宫安命	-10.3487
五音	-10.3487
爽	-10.3489
交而	-10.349
大忌	-10.349
孤辰	-10.3491
甲乙日	-10.3492
柱無	-10.3495
上吉	-10.3496
有憂若	-10.3505
郎中	-10.3509
康節	-10.351
健旺	-10.351
干合	-10.3512
配合	-10.3516
出東方	-10.3522
四餘	-10.3528
比刼	-10.353
根本	-10.3536
四宫	-10.3537
之心	-10.3547
七十五	-10.355
亥上	-10.355
而止	-10.3564
不應	-10.3567
不齊	-10.3571
八十四	-10.3575
使我	-10.3584
本家	-10.3586
中道	-10.3586
更逢	-10.3589
齊伯曰	-10.3592
疾疫	-10.3598
洎	-10.3598
天官貴人	-10.3598
狀如	-10.3599
訂訛	-10.3599
築	-10.3601
招摇	-10.3602
春秋潛潭巴曰	-10.3603
在中	-10.3603
標	-10.3604
有此	-10.3605
謁	-10.3605
野獸	-10.3605
髮	-10.3606
寅加	-10.3607
収	-10.3611
驚恐	-10.3613
惟有	-10.3615
亦能	-10.3619
力士	-10.3623
順逆	-10.3624
月内	-10.3625
寧按	-10.3626
大亂	-10.3637
一隂	-10.3638
尅破	-10.364
亥月	-10.3642
不善	-10.3651
留守	-10.3652
之人也	-10.3659
日光	-10.3663
罡	-10.3663
以水為	-10.3664
辰宫	-10.3667
庚酉	-10.3671
無道	-10.3676
填	-10.3682
以象	-10.3685
水中	-10.3695
相得	-10.3704
休咎	-10.3705
也天	-10.3707
不離	-10.3711
限主	-10.3719
疆	-10.372
桂	-10.3733
黜	-10.3735
十二萬九千六百	-10.3738
之福	-10.3741
籌	-10.3741
使人	-10.3743
順數	-10.3743
協	-10.3745
行也	-10.3745
溝	-10.3749
頻	-10.3751
以明	-10.3751
薨	-10.3752
伍	-10.3753
始生	-10.3754
英雄	-10.3755
奔走	-10.3756
國君	-10.3757
一二	-10.3757
連珠	-10.3757
水也	-10.3759
印堂	-10.376
汝	-10.3761
此例	-10.3765
禄位	-10.3767
他鄉	-10.3769
禄馬貴人	-10.377
歸禄	-10.3772
七十四	-10.3777
大發	-10.378
八十七	-10.3781
倒食	-10.3784
斗建	-10.3796
皆然	-10.381
而非	-10.3818
過房	-10.382
丨祥	-10.3823
八十三	-10.383
丨休	-10.383
有光	-10.3837
之神也	-10.3842
九十二	-10.3842
財多	-10.385
小滿	-10.3853
為大	-10.3854
坤為	-10.3862
白衣	-10.3866
觜觹	-10.3867
配之	-10.3873
中犯乗守	-10.3875
四煞	-10.3875
相見	-10.3876
價	-10.3877
枉	-10.3882
木之	-10.3884
蘭	-10.3884
禦	-10.3884
到此	-10.3885
攢	-10.3885
劫	-10.3886
祈	-10.3886
妹	-10.3887
淹	-10.3888
豈不	-10.389
芳	-10.3891
敏	-10.3892
心鏡	-10.3893
囚死	-10.3894
壘	-10.3894
棺	-10.3896
芒種	-10.3896
大陵	-10.3896
奢	-10.3896
激	-10.3897
錦	-10.3897
靡	-10.3897
檢	-10.3906
造化之	-10.3911
體也	-10.3914
不測	-10.3916
生焉	-10.3921
白羊	-10.3924
六十五	-10.3926
反復	-10.3929
乘之	-10.3932
法也	-10.3933
得力	-10.3935
矣若	-10.3941
定知	-10.3946
神仙	-10.3958
天機	-10.3963
孛羅	-10.3967
應之	-10.3971
是知	-10.3971
如木	-10.3973
丨吝	-10.3974
隂生	-10.3976
丨咎	-10.3977
占主	-10.3978
則一	-10.398
其方	-10.398
帝旺	-10.3985
生意	-10.3985
豈能	-10.3985
修方	-10.3988
不食	-10.3989
只宜	-10.3998
此法	-10.3999
强弱	-10.3999
丞	-10.4003
酉月	-10.4007
槩	-10.401
則不能	-10.4019
竒門	-10.4024
正直	-10.4024
乎天	-10.4029
稀	-10.4029
得用	-10.4033
相攻	-10.4034
遞	-10.4036
烟	-10.4038
瘡	-10.4042
則氣	-10.4046
言也	-10.4047
不居	-10.4047
三品	-10.4051
尊卑	-10.4056
火也	-10.406
福祿	-10.406
之端	-10.4062
一變	-10.4062
華蓋	-10.4063
有星	-10.407
上生	-10.4073
老隂	-10.4076
不仁	-10.4095
吉日	-10.4096
所主	-10.4097
對宫	-10.4098
城縣	-10.4099
青雲	-10.4099
石氏曰太白	-10.4102
雙女	-10.4105
之行	-10.4111
邵子曰	-10.4112
高强	-10.4116
其體	-10.4118
不克	-10.4124
四卦	-10.413
逆順	-10.4134
地數	-10.4141
金氣	-10.4155
次八	-10.4164
體數	-10.4167
憲副	-10.4168
偃	-10.4168
入局	-10.4169
和氣	-10.4172
允	-10.4173
慕容	-10.4177
援	-10.4177
績	-10.4177
后妃	-10.4178
蓄	-10.4181
翁	-10.4182
鳩	-10.4182
僅	-10.4182
揆	-10.4182
米	-10.4183
聴	-10.4183
澗	-10.4184
發於	-10.4185
黒氣入	-10.4186
使者	-10.4186
生也	-10.4189
缺陷	-10.4189
緣	-10.419
淺深	-10.419
灸退	-10.4191
鼔	-10.4192
天河	-10.4194
絶嗣	-10.4196
中氣	-10.4199
士卒	-10.4199
太史	-10.4201
官爵	-10.4207
閑極	-10.4207
為隂陽	-10.4208
八十八	-10.421
無星	-10.4217
大暑	-10.4221
事也	-10.4223
酉丑	-10.423
之金	-10.4234
亡刼	-10.4238
蠶命	-10.4238
生來	-10.424
相交	-10.4252
安得	-10.4256
各自	-10.4257
亦曰	-10.4265
福神	-10.4278
無功	-10.4278
命限	-10.428
六六	-10.4288
無常	-10.4291
辛戌	-10.4295
數而	-10.4298
重見	-10.4298
求官	-10.43
為旱	-10.4301
小而	-10.431
隕	-10.4313
成名	-10.4313
言語	-10.4316
不戰	-10.432
又占曰熒惑守	-10.4322
同居	-10.4323
賓	-10.4324
境	-10.4327
兹	-10.4328
呂	-10.4329
與天	-10.433
犀	-10.4331
試	-10.4331
喬	-10.4332
渉	-10.4332
須是	-10.4332
範	-10.4333
倉庫	-10.4333
摧	-10.4334
瓦	-10.4334
恵	-10.4334
艮為	-10.4336
硬	-10.4336
初𫝊	-10.4336
頸	-10.4336
暗昧	-10.4339
有亡國	-10.4339
蛟龍	-10.434
腐	-10.4343
旬中	-10.4344
臨身	-10.4344
華盖	-10.4344
老人	-10.4351
衝尅	-10.4352
先儒	-10.4356
之禍	-10.4357
天命	-10.4359
正二刻	-10.4361
相當	-10.4367
甲子日	-10.4368
蠶官	-10.4372
財鄉	-10.4372
或問	-10.4376
人中	-10.4378
木氣	-10.438
七十九	-10.4386
乙為	-10.4389
青色	-10.4393
天下兵起	-10.4401
第十	-10.4402
無禮	-10.4406
三三	-10.4415
天庫	-10.4419
來者	-10.4419
二百九十	-10.4426
為憂	-10.4427
土旺	-10.443
入中宫	-10.4436
八十五	-10.4447
小限	-10.4451
亦宜	-10.4451
尅子	-10.4454
不息	-10.4455
漢書	-10.4457
一家	-10.4466
第七	-10.4467
卷舌	-10.4474
成家	-10.4475
桀	-10.4477
四千三百二十	-10.4478
酌	-10.4481
驚蟄	-10.4481
卦為	-10.4483
擢	-10.4483
攷	-10.4484
涸	-10.4485
家之	-10.4485
諫	-10.4485
城郭	-10.4486
銅	-10.4486
像	-10.4486
潜	-10.4487
石氏曰熒惑守	-10.4488
㡬	-10.4488
介	-10.4488
嵩	-10.4489
戌月	-10.449
闔	-10.449
廉	-10.4495
數者	-10.4499
合格	-10.4505
無妨	-10.4507
冬月	-10.4509
遇火	-10.4511
六五	-10.4512
壠	-10.4513
行者	-10.4518
隨之	-10.452
歲破	-10.4521
血光	-10.4524
明矣	-10.4531
艮寅	-10.4531
也葢	-10.4534
未必	-10.4539
神將	-10.4539
却有	-10.454
國亡	-10.454
八際	-10.4541
無依	-10.4545
他星	-10.4548
喜慶	-10.4549
官宫	-10.455
江河	-10.4554
神后	-10.4555
六七	-10.4557
人馬	-10.4561
神也	-10.4577
日合	-10.4577
守照	-10.4577
知縣	-10.4583
未加	-10.4584
者吉	-10.4585
為夫	-10.459
所宜	-10.4591
命同	-10.4597
不堪	-10.4603
此三	-10.4605
則其	-10.4608
惡煞	-10.4611
上下相	-10.4615
之陽	-10.4616
鄧	-10.4625
泣	-10.4626
和合	-10.4626
渡	-10.4627
照命	-10.4628
刪	-10.4628
鈇鑕	-10.4628
戚	-10.4628
踐	-10.4629
狄	-10.4629
霸	-10.463
亷	-10.4631
而去	-10.4634
浮天空亡	-10.4636
冰	-10.4637
訛	-10.4639
巡山羅㬋	-10.464
寺	-10.464
訓	-10.4641
下生	-10.4643
田園	-10.4644
末𫝊	-10.4646
極而	-10.4647
陽建	-10.4651
原本	-10.4654
石氏曰熒惑	-10.4662
陽而	-10.4662
孤貧	-10.4665
為僧道	-10.4665
鎮星	-10.4674
之世	-10.4684
餘氣	-10.4686
戊為	-10.4687
甲為	-10.469
從魁	-10.4692
須防	-10.4705
郄萌曰客星入	-10.4713
藏於	-10.4713
者天	-10.4722
潤下	-10.4725
其名	-10.4725
得財	-10.4727
古之	-10.4738
命逢	-10.4739
福力	-10.4739
八專	-10.4739
丨吉	-10.4741
也是故	-10.4747
地以	-10.4748
太初	-10.475
遼	-10.4752
一物	-10.4756
帝崩	-10.4758
合照	-10.476
夏月	-10.476
於中	-10.4762
乾為	-10.4763
中傳	-10.4765
當為	-10.477
否則	-10.4775
而又	-10.4777
紹	-10.4782
璚	-10.4783
正財	-10.4783
生人見	-10.4785
定其	-10.4788
八九	-10.4792
生木	-10.4793
濫	-10.4794
助之	-10.4794
席	-10.4796
通月氣	-10.4797
一周天	-10.4798
圖書	-10.4798
憎	-10.4799
相近	-10.4803
填實	-10.4803
反吟	-10.4804
跛	-10.4804
淪	-10.4806
無制	-10.4806
不可得	-10.4807
天苑	-10.4809
臭	-10.481
小雪	-10.4811
將有	-10.4811
日以	-10.4812
初三	-10.4815
八門	-10.4815
不久	-10.4816
數以	-10.4818
其身	-10.4824
清濁	-10.4824
龍之	-10.4825
玉井	-10.4826
吉昌	-10.4827
落空亡	-10.4828
加時	-10.483
救助	-10.4832
形而	-10.4839
南門	-10.4841
災殃	-10.4841
以至	-10.4845
盪	-10.4845
之職	-10.4853
日有	-10.4859
相加	-10.4859
孛計	-10.4861
重則	-10.4865
其事	-10.4866
又見	-10.4868
為木	-10.4881
長短	-10.4885
水流	-10.4886
各有所	-10.4886
其用	-10.4886
臣謀主	-10.489
七十八	-10.4892
登明	-10.4893
之事也	-10.4895
在東方	-10.4897
交互	-10.4901
若生	-10.4902
諧	-10.4909
分離	-10.4913
且有	-10.4917
孝武	-10.4923
加申	-10.4925
受之	-10.4926
羣隂	-10.4935
匈奴	-10.4936
其地	-10.4936
歴例曰	-10.4938
洎此宮	-10.4941
雹	-10.4942
見財	-10.4943
翰林	-10.4944
覽	-10.4945
期百八十日	-10.4947
文曜鈎曰	-10.4948
釣	-10.4948
蟾	-10.4949
噐	-10.4951
件	-10.4951
大臣有	-10.4951
唱	-10.4954
八八	-10.4954
啓	-10.4954
以金為	-10.4956
豐隆	-10.4956
終是	-10.4957
獨行	-10.4959
拂	-10.4963
萬物不成	-10.4964
膏	-10.4965
郗萌曰熒惑入	-10.497
抽	-10.4972
一寸	-10.4975
大梁	-10.4983
相宜	-10.4987
以致	-10.4991
甲乙丙丁	-10.4999
有大兵	-10.5005
欲知	-10.502
荆州占曰填星	-10.5023
遁得	-10.5024
乃為	-10.5025
天心	-10.5032
天醫	-10.504
之財	-10.5042
人倫	-10.5045
支神	-10.5045
以次	-10.505
日建	-10.5051
震為	-10.5053
胎月	-10.5057
木金	-10.5064
為灾	-10.5074
所屬	-10.5075
坤申	-10.5078
之年	-10.5078
其本	-10.5087
房心	-10.5088
枉矢	-10.5088
九三	-10.5089
七十七	-10.5092
成形	-10.5095
濛	-10.5096
為印	-10.5097
男女宫	-10.5099
虚危	-10.5101
荆州占曰月暈	-10.5102
七十三	-10.5104
京氏	-10.5104
事多	-10.5104
亮	-10.5105
占人	-10.5105
孽	-10.5106
探	-10.5106
儲	-10.5107
期不出三年	-10.5108
京房易傳曰	-10.5109
綂	-10.511
不窮	-10.5111
明也	-10.5112
夷狄	-10.5112
塲	-10.5115
躁	-10.5116
經星	-10.5117
弊	-10.5118
𢎞	-10.5118
韻	-10.5118
羙	-10.5119
阜	-10.512
燈	-10.5128
跌	-10.5128
卵	-10.5128
大勝	-10.5133
日鬼	-10.5139
其他	-10.5147
故其	-10.5147
月刑	-10.515
四四	-10.5151
病死	-10.5151
身居	-10.5151
有制	-10.517
丑加	-10.517
形也	-10.5173
十八日	-10.5174
比和	-10.518
二至	-10.5185
六十九	-10.5186
無益	-10.5187
㑹合	-10.5195
形如	-10.5199
加酉	-10.5199
一百四十	-10.5201
大凡	-10.5202
或在	-10.5206
改正	-10.5207
地而	-10.5208
四隂	-10.521
星明大	-10.521
也又如	-10.5213
丙丁日	-10.5214
主本	-10.5224
之嵗	-10.523
其光	-10.5237
次二	-10.5241
木也	-10.5248
决主	-10.5249
忌曜	-10.525
必以	-10.5251
六癸	-10.5251
甲卯	-10.5252
之權	-10.5257
夫子	-10.5259
奈	-10.5259
之應也	-10.5263
鏡	-10.5266
黎	-10.5268
擅	-10.5269
自是	-10.5269
劍	-10.527
武職	-10.5272
撫	-10.5274
董	-10.5274
終不	-10.5275
太旺	-10.5275
幣	-10.5275
壅	-10.5276
不出一年	-10.5277
金木水火土	-10.5279
太元	-10.5279
四利三元	-10.5279
駁雜	-10.5282
臂	-10.5282
聾	-10.5282
若夫	-10.5286
打	-10.5288
陽貴人	-10.5288
懸針	-10.529
而見	-10.5291
興隆	-10.5293
婦女	-10.5294
敷	-10.5294
五嶽	-10.5296
貧寒	-10.5296
匪	-10.5301
爲飛伏	-10.5308
先天圖	-10.5309
赤氣入	-10.5311
方也	-10.5313
地理	-10.5314
入傳	-10.532
人心	-10.5323
本是	-10.5327
一方	-10.5328
刑破	-10.5329
視其	-10.5333
君死	-10.5334
司徒	-10.5345
南至	-10.5348
生萬物	-10.5356
淮南	-10.5361
寅戌	-10.5364
大海	-10.5378
强宫	-10.5381
酉宫	-10.5387
五爲	-10.5389
無禄	-10.5389
有人	-10.5392
不好	-10.5393
收日	-10.5399
夫星	-10.54
之候	-10.541
昴星	-10.541
子平	-10.5412
六宫	-10.5416
卯月	-10.5416
而不知	-10.5422
視之	-10.5422
喜行	-10.5423
辰加	-10.5423
絀	-10.5424
變易	-10.5425
為六	-10.5429
弔	-10.5434
變也	-10.5435
稻	-10.5436
止於	-10.5438
祚	-10.5438
遍	-10.5439
雖是	-10.5439
叙	-10.544
大者	-10.5442
様	-10.5443
科甲	-10.5445
破敗五鬼	-10.5445
晋	-10.5446
驕	-10.5447
採	-10.545
讀	-10.545
浸	-10.5455
不雨	-10.5455
愆	-10.5457
朝陽	-10.5465
地平	-10.5466
千八十	-10.5466
在日	-10.5473
有大喪	-10.5477
五星從位起	-10.5479
全無	-10.5479
京氏曰日	-10.5485
福夀	-10.5495
天文志曰	-10.551
必須	-10.5518
所以為	-10.5528
之半	-10.553
難得	-10.553
復還	-10.5533
隂謀	-10.5533
八白	-10.5535
陽遁	-10.5536
從革	-10.5537
夀星	-10.5539
之門	-10.5541
天柱	-10.5544
其國有	-10.5548
本位	-10.5553
千五百	-10.5553
年六月	-10.5555
以日	-10.5568
又按	-10.5569
紋者	-10.5577
也盖	-10.5578
砂水	-10.558
隂建	-10.5596
有聲	-10.5596
㤗	-10.5598
近臣	-10.56
刑煞	-10.56
經世	-10.56
乙辰	-10.56
杵	-10.5601
立成	-10.5601
偹	-10.5602
於内	-10.5602
黄幡	-10.5605
二百七十	-10.5609
之徳	-10.5609
惹	-10.5609
坑	-10.561
五合	-10.5613
函	-10.5614
突	-10.5615
九十八	-10.5616
腫	-10.5617
其北	-10.5619
昇	-10.5621
寂	-10.5624
雙魚	-10.5626
定位	-10.5627
屍	-10.5629
屬隂	-10.5629
子月	-10.563
䏻	-10.563
者天之	-10.5631
飛入	-10.5632
八十二	-10.5635
生財	-10.5637
大如	-10.564
八方	-10.564
寒露	-10.5643
生金	-10.5651
文星	-10.5652
不與	-10.5652
魁星	-10.5654
亥宫	-10.5654
洛陽	-10.5655
陽生	-10.5663
而知	-10.5665
及其	-10.5667
隂貴人	-10.5668
一命	-10.5669
日用	-10.5669
狼星	-10.5674
一周	-10.5675
六戊	-10.5676
入首	-10.5682
相隨	-10.5687
於未	-10.5687
入于	-10.569
也謂	-10.5691
位居	-10.5692
五常	-10.5692
而能	-10.5693
之書	-10.5694
為子	-10.5695
大兵起	-10.5695
皇帝	-10.5696
受其	-10.5705
本主	-10.5706
總論	-10.5711
或如	-10.5712
則知	-10.5712
太公	-10.5717
閉日	-10.572
伏逆	-10.5721
尤為	-10.5722
寅午戌月	-10.5725
建始	-10.5735
北河	-10.5742
而作	-10.5756
刑星	-10.576
制煞	-10.5762
不熟	-10.5763
冬夏	-10.5769
只有	-10.577
則貴	-10.577
出入留舍	-10.577
考原曰	-10.5771
譽	-10.5775
午戌	-10.5775
馬生人	-10.5775
嬴	-10.5777
䜛	-10.5778
刑衝破害	-10.5778
宏	-10.578
冇	-10.5781
䝉	-10.5781
窠	-10.5783
奚	-10.5783
甫	-10.5784
軒	-10.5786
坦	-10.5787
屢	-10.5791
鄰	-10.5791
盆	-10.5792
霜降	-10.5794
無所不	-10.5795
二星在	-10.5795
計羅	-10.5795
卜筮	-10.5796
貪狼	-10.5799
隂人	-10.5799
出走	-10.58
胥	-10.5802
亨通	-10.5803
尤妙	-10.5804
所指	-10.5805
分數	-10.5809
運限	-10.5814
而取	-10.5815
復生	-10.5817
忌之	-10.5819
便為	-10.5821
無患	-10.5837
純隂	-10.5837
臣有謀	-10.5842
石氏曰太白守	-10.5842
形體	-10.5843
子母	-10.5845
休廢	-10.5845
旺處	-10.5846
列宿	-10.585
初六	-10.5854
西行	-10.5856
旺則	-10.5859
無實	-10.5861
不止	-10.5861
九四	-10.5864
其南	-10.5868
衆人	-10.5875
平日	-10.5888
不實	-10.5889
龍徳	-10.5891
子位	-10.59
妻兒	-10.5908
一切	-10.5911
十八度	-10.5917
邵	-10.5917
可取	-10.5918
甲辰乙巳	-10.5922
吉丅	-10.5923
其鄉	-10.593
三百六十日	-10.5932
諸侯有	-10.5933
陽極	-10.5933
以火為	-10.5933
雜氣	-10.5936
二尺	-10.5942
定吉凶	-10.5942
丑宫	-10.5944
聚於	-10.5949
彭	-10.5953
陞	-10.5953
玉歴曰	-10.5954
囘	-10.5956
碧	-10.5956
期六十日	-10.5956
下賊上	-10.5957
𨽻	-10.5957
下弦	-10.5958
一二三四	-10.5959
成帝	-10.596
買	-10.596
朗	-10.5962
灌	-10.5962
坐煞向煞	-10.5963
勞苦	-10.5964
洋	-10.5965
歛	-10.5965
斧	-10.5966
毅	-10.5966
水火土石	-10.5967
二十四氣	-10.5967
恨	-10.597
胸	-10.5971
極則	-10.5976
在東	-10.5977
的煞	-10.5978
此人	-10.598
甲申乙酉	-10.5981
八十六	-10.5988
俾	-10.5988
天關	-10.599
九醜	-10.599
子宫	-10.5992
酒食	-10.5999
修方凶	-10.6004
獲福	-10.6009
留逆	-10.6011
得水	-10.6011
偏正	-10.6012
太一	-10.6018
逢火	-10.6019
此名	-10.602
同躔	-10.6021
九紫	-10.6024
舉兵	-10.6027
或見	-10.6039
乘旺	-10.6043
枕	-10.6043
天地之數	-10.6044
時有	-10.6045
正也	-10.6045
中外	-10.6046
透出	-10.6051
二七	-10.6053
稱王	-10.6056
其一	-10.606
始也	-10.606
動則	-10.6062
戌上	-10.6067
其勢	-10.6068
未申	-10.6068
相同	-10.6069
巳酉	-10.607
金多	-10.6072
而明	-10.6073
凶將	-10.6077
土金	-10.6077
我尅	-10.6079
嵗中	-10.6083
命者	-10.6084
為父	-10.6086
上起	-10.6093
三曰	-10.6096
不怕	-10.6098
而發	-10.6099
春月	-10.61
二曰	-10.6104
五五	-10.6104
日刑	-10.6108
相侵	-10.6115
鴈	-10.612
貼	-10.6124
嬰	-10.6124
南行	-10.6125
地道	-10.6128
身坐	-10.6129
飽	-10.6129
霍	-10.613
仕宦	-10.6132
期二十日	-10.6134
参	-10.6135
傅	-10.6135
朽	-10.6137
從之	-10.6137
夀夭	-10.6139
慕	-10.6141
誇	-10.6143
寓	-10.6143
通天竅	-10.6146
煞神	-10.6146
雌雄	-10.6147
多有	-10.6149
丸	-10.615
表裏	-10.6151
實沈	-10.6153
圖曰	-10.6156
廓	-10.616
小暑	-10.6161
挨	-10.6161
貧夭	-10.6163
歎	-10.6166
八十九	-10.6167
火居	-10.6175
顚	-10.6176
天將	-10.6177
發達	-10.6177
九十九	-10.6178
此等	-10.618
九二	-10.6181
大兵	-10.6183
注云	-10.6184
法令	-10.6188
十有八	-10.6192
九十三	-10.6206
之用也	-10.6206
動静	-10.6212
未宫	-10.6217
相遇	-10.622
天府	-10.6222
二二	-10.6226
用財	-10.6232
成王	-10.6232
合局	-10.6232
外有	-10.6237
上弦	-10.6237
及第	-10.6239
髙強	-10.624
生數	-10.624
九十四	-10.6242
有大水	-10.6244
酉上	-10.6244
元氣	-10.6245
早年	-10.6248
不須	-10.6249
天地人	-10.6249
一説	-10.6255
戌宫	-10.6266
一曰有	-10.6266
豈可	-10.6271
局中	-10.6272
發明	-10.6274
腸	-10.6277
反此	-10.6277
更無	-10.628
望之	-10.628
苑	-10.6284
火入	-10.6293
加寅	-10.6294
利用	-10.6294
郄萌曰客星	-10.6294
吉㓙	-10.6301
荘	-10.6302
陽中	-10.6303
巳未	-10.6305
禳	-10.631
鶉火	-10.6311
鶉首	-10.6312
巽巳	-10.6313
郗萌曰月暈	-10.6313
石氏曰辰星	-10.6313
此之謂也	-10.6313
一品	-10.6315
誣	-10.6318
與人	-10.6319
輔弼	-10.6321
社稷	-10.6321
昻	-10.6323
銷	-10.6324
壇	-10.6325
喉	-10.6327
分别	-10.6327
火生土	-10.6328
登科	-10.6328
為佳	-10.6329
鬚	-10.6329
太蔟	-10.633
贅	-10.633
天棓	-10.633
土司空	-10.6333
璣	-10.6333
䰟	-10.6333
不起	-10.6334
剛日	-10.6334
九坎	-10.6335
哲	-10.6336
申上	-10.6337
珞琭子	-10.6338
聲音	-10.6343
躬	-10.6343
萬人	-10.6344
尺二寸	-10.6352
之機	-10.6354
此又	-10.636
次第	-10.6361
彗孛	-10.6363
皆自	-10.6365
戮死	-10.6372
得火	-10.6374
逄之	-10.6379
七宫	-10.638
可畏	-10.6381
落空	-10.6383
右轉	-10.6384
甲子乙丑	-10.6387
遷官	-10.6392
當年	-10.6409
氣從	-10.6413
氣運	-10.6417
不作	-10.6423
襄王	-10.6425
官至	-10.6428
又何	-10.6431
有成	-10.6433
陽宫	-10.6435
者所以	-10.6441
更在	-10.6445
繫者	-10.6447
太極之	-10.6448
人身	-10.6449
破家	-10.6458
今按	-10.6459
五帝	-10.6463
王侯	-10.6465
福壽	-10.6466
為命主	-10.6466
冬至後	-10.6471
為身	-10.6472
方是	-10.6473
卒子	-10.6474
命曰	-10.6475
弑其君	-10.6477
交易	-10.6479
未能	-10.6482
州府	-10.6482
明而	-10.6482
作用	-10.6487
棟	-10.6489
河南	-10.649
書云	-10.649
熙	-10.6496
八節	-10.6497
在北	-10.6499
兇	-10.6499
布帛	-10.65
臣欲	-10.65
刪去	-10.6501
殘疾	-10.6501
難成	-10.6501
擒	-10.6502
佑	-10.6502
墟	-10.6502
趣	-10.6503
桃	-10.6504
有大䘮	-10.6504
拙	-10.6505
為陰	-10.6505
迴	-10.6505
娘	-10.6506
臧	-10.6507
預	-10.6507
不知其	-10.6508
佩	-10.6509
理也	-10.651
緊	-10.651
抝	-10.6511
娼	-10.6511
潰	-10.6511
鬼賊	-10.6512
漫	-10.6513
隂極	-10.6515
其常	-10.6515
妨夫	-10.6517
壬申癸酉	-10.6517
橫	-10.6517
采	-10.6519
勝負	-10.6519
頌	-10.6523
類也	-10.6523
尅山家	-10.6525
度半	-10.6526
講	-10.6529
爪	-10.6531
宿從位降	-10.654
多者	-10.6545
然也	-10.6548
今人	-10.6548
二百二十	-10.655
生而	-10.6555
各得	-10.6555
自此	-10.6556
反吉	-10.6557
可知也	-10.6559
以來	-10.6571
山水	-10.6572
之類是也	-10.6572
加之	-10.6575
亥中	-10.6576
國有憂	-10.6577
道理	-10.6577
賢人	-10.6577
矣此	-10.6583
富而	-10.6586
值之	-10.6587
九天	-10.6589
求其	-10.659
同度	-10.6595
有殃	-10.6601
白露	-10.6617
星不明	-10.6625
權貴	-10.6626
夏令	-10.6627
星紀	-10.663
卯加	-10.663
所得	-10.6637
耳目	-10.6643
而起	-10.6644
渾天	-10.665
豈有	-10.6651
本身	-10.6651
赤氣	-10.6653
五緯	-10.6657
利名	-10.6657
上盤	-10.666
逢空	-10.6663
在黄道内	-10.6664
初生	-10.6669
殺人	-10.6669
無差	-10.667
相似	-10.6674
旺鄉	-10.6678
副	-10.6678
進人口	-10.668
隨時	-10.6683
不待	-10.6685
所作	-10.6689
衰敗	-10.6689
如甲日	-10.6689
暇	-10.669
虐	-10.669
十一度	-10.6693
欄	-10.6693
鋭	-10.6694
隄防	-10.6697
於心	-10.6697
懦	-10.6698
可言	-10.67
不善終	-10.6702
稼穡	-10.6704
不滿	-10.6704
閣道	-10.6704
天闗	-10.6705
秋月	-10.6706
天下兵	-10.6712
丁為	-10.6717
勉	-10.6718
此煞	-10.6721
隂遁	-10.6722
將星	-10.6722
所見	-10.6723
宣王	-10.6726
申月	-10.6726
亦得	-10.6726
正西	-10.6728
馴	-10.673
小耗	-10.673
二八	-10.6731
來尅	-10.6732
十六卦	-10.6742
寅辰	-10.6745
旺而	-10.6745
隔角	-10.6745
輕則	-10.6747
亦同	-10.6752
隂徳	-10.6756
臨財	-10.6761
而立	-10.6761
始出	-10.6762
死生	-10.6765
小分	-10.6766
天街	-10.6767
隂主	-10.6767
故易	-10.6768
第八	-10.6772
變通	-10.6772
酉亥	-10.6772
腰金	-10.6776
一際	-10.6778
重犯	-10.678
禮樂	-10.6783
見則	-10.6787
午宫	-10.6789
天理	-10.6789
之命也	-10.6797
於前	-10.6799
而實	-10.6803
二五	-10.6805
出門	-10.6809
不已	-10.6813
在南	-10.6816
交加	-10.682
相從	-10.6822
其禍	-10.6823
辛為	-10.6829
死囚	-10.6831
從來	-10.6831
十三年	-10.6833
用起	-10.6834
是年	-10.684
四千三百	-10.6847
在天為	-10.6848
度數	-10.6849
九十七	-10.6852
是也如	-10.6852
小者	-10.6855
為權	-10.6856
巽為	-10.6857
春秋緯	-10.686
三百三十	-10.686
不常	-10.686
不義	-10.6865
令不行	-10.6866
吊	-10.6869
蔀	-10.6871
絞	-10.6871
怯	-10.6872
又謂	-10.6873
黄帝占曰填星	-10.6873
神樞經曰	-10.6874
伏兵	-10.6874
亦須	-10.6875
穏	-10.6876
巳月	-10.6876
嵗月	-10.6876
不遂	-10.688
义	-10.6883
不發	-10.6883
官居	-10.6885
淨	-10.6885
乞	-10.6886
況	-10.6887
澄	-10.6887
圜	-10.6889
伊	-10.6889
奔波	-10.689
夘為	-10.689
培	-10.6891
答曰	-10.6891
蛟	-10.6891
三合前方	-10.6891
闊	-10.6892
三合後方	-10.6892
年干	-10.6893
瑕	-10.6894
電	-10.6897
天槍	-10.6897
區	-10.6899
敎	-10.6899
紛	-10.69
水金	-10.6903
權星	-10.6908
榮顯	-10.691
翼軫	-10.6914
虚實	-10.6914
黄泉	-10.6918
合化	-10.692
石氏曰填星	-10.6921
辛苦	-10.6921
臨照	-10.6922
自生	-10.6928
稱意	-10.6929
俱在	-10.6936
止有	-10.6938
亥未	-10.6941
人間	-10.6942
其象	-10.6944
大雨	-10.6946
愚謂	-10.6946
盛則	-10.6946
尋常	-10.6949
男命	-10.6958
以知	-10.6962
星孛	-10.697
災煞	-10.6978
七爲	-10.6979
黄鐘	-10.6979
天下大水	-10.6984
隂隂	-10.6985
便以	-10.6991
何謂	-10.6993
離為	-10.6994
其室	-10.6994
嵗破	-10.6994
又五日	-10.7005
生逢	-10.7008
災禍	-10.7008
大司馬	-10.7013
重逢	-10.7018
一百五十	-10.7019
丨災	-10.7023
不宜見	-10.7026
無兵	-10.7027
金紫	-10.7031
一旬	-10.7038
傷妻	-10.7039
依此	-10.7042
譬	-10.7051
利害	-10.7052
其時	-10.7056
中下	-10.7062
之論	-10.7063
餘倣此推	-10.7067
義也	-10.7067
韋	-10.7069
宋均曰	-10.7071
運斗樞曰	-10.7072
冊	-10.7075
牆	-10.7075
蜂	-10.7077
婢	-10.7077
相反	-10.7077
畨	-10.7077
鈍	-10.7079
擁	-10.708
優游	-10.708
戲	-10.7081
上克下	-10.7083
評	-10.7083
腑	-10.7085
握	-10.7086
儉	-10.7086
吸	-10.7087
衢	-10.7087
爍	-10.7088
巡	-10.7089
立向凶	-10.709
最凶	-10.7093
岡	-10.7098
青黒	-10.7099
白氣	-10.71
六三	-10.7102
流星抵	-10.7102
戰不勝	-10.7104
飛來	-10.7106
二百五十六	-10.7106
有印	-10.7107
申子	-10.7117
公孫	-10.7118
四肢	-10.7119
亦不能	-10.7128
故自	-10.7134
水旱	-10.714
察其	-10.7141
甲寅乙卯	-10.7144
成都	-10.7148
民飢	-10.715
若更	-10.715
從此	-10.7152
三交	-10.7155
可知矣	-10.7156
如此則	-10.7157
喜怒	-10.7157
東門	-10.7158
隂位	-10.716
本於	-10.7167
四寸	-10.7169
行疾	-10.718
丈夫	-10.718
杓	-10.718
交㑹	-10.7183
兵罷	-10.7184
坎為	-10.7186
之理也	-10.7192
豕生	-10.7192
王死	-10.7192
子日	-10.7196
其吉凶	-10.7198
輔星	-10.7201
一本	-10.7208
四五	-10.7211
黒色	-10.7212
之屬	-10.7214
坎艮	-10.7217
注曰	-10.7221
九十五	-10.7228
長女	-10.724
日夜	-10.7241
天體	-10.7245
能制	-10.7246
黃帝占曰嵗星	-10.725
於物	-10.7251
之差	-10.7252
安縣	-10.7253
帝覽嬉曰	-10.7253
等事	-10.7259
以木為	-10.7263
梗河	-10.7263
必能	-10.7268
苻	-10.7272
鶉尾	-10.7273
環繞	-10.7275
攙	-10.7277
大參	-10.7279
碍	-10.7279
當雨不雨	-10.7279
挺	-10.728
鼈	-10.7281
巳丑	-10.7281
㦸	-10.7283
輸	-10.7285
圓而	-10.7286
捨	-10.7287
江湖	-10.7289
走馬六壬神后	-10.729
火氣	-10.7291
征伐	-10.7292
煙	-10.7292
火神	-10.7293
堆	-10.7294
郷	-10.7296
晏	-10.7299
紫㣲	-10.7301
經營	-10.7303
孝服	-10.7303
不逺	-10.7303
在人	-10.7305
矩	-10.7306
貧薄	-10.7309
日出夘	-10.7314
有理	-10.7315
禄貴	-10.7317
又主	-10.7323
九九	-10.7333
日害	-10.7337
多少	-10.7338
申亥	-10.7339
五者	-10.7341
斗牛	-10.7341
之體乃	-10.7344
郄萌曰	-10.7346
未上	-10.7352
而南	-10.7353
也詩曰	-10.7354
二卷	-10.7355
吉利	-10.7355
天願	-10.7361
赤星	-10.7364
不備	-10.7365
偏印	-10.7365
天下多	-10.7366
雲如	-10.7377
不逢	-10.738
不時	-10.7381
動者	-10.7381
邦國	-10.7384
亦不可	-10.7384
君王	-10.7389
十六日	-10.7389
厠	-10.739
一百三十	-10.7392
大明	-10.7397
其子	-10.7398
三十年	-10.7399
者名曰	-10.74
可也	-10.7405
六丙	-10.7407
師于	-10.7408
貴臣	-10.7413
直難	-10.7414
卯未	-10.7418
西門	-10.7424
至老	-10.7425
正垣	-10.7426
夏生	-10.7426
皆從	-10.7427
平滿	-10.7431
旺之地	-10.7437
須看	-10.7441
十四年	-10.7446
積水	-10.7446
安寧	-10.745
端門	-10.7455
六氣	-10.7459
盟	-10.7461
相害	-10.7464
二六	-10.7466
小寒	-10.7469
臨日	-10.7469
主妻	-10.7472
尉	-10.7475
盛而	-10.7478
纎	-10.7479
馮	-10.748
虜	-10.7482
棲	-10.7483
萬五千	-10.7485
火炎	-10.7485
線	-10.7485
芝	-10.7486
汚	-10.7486
利以	-10.7486
朝元	-10.7487
百二十占曰	-10.7487
東西南北	-10.7488
期三十日	-10.7489
匏𤓰	-10.749
河鼓	-10.7491
畔	-10.7491
黄帝座	-10.7491
開元	-10.7492
絆	-10.7492
幼	-10.7492
叢	-10.7493
三九	-10.7493
開山凶年	-10.7494
軰	-10.7494
月朔	-10.7495
天吏	-10.7495
髓	-10.7496
矛	-10.7497
後人	-10.7497
罕	-10.7497
大火	-10.7499
一體	-10.7499
欲得	-10.75
夾拱	-10.7502
柔日	-10.7502
為客	-10.7504
多招	-10.7505
近於	-10.7505
寶光	-10.7506
天氣	-10.7508
辰星守	-10.7508
鱗	-10.7509
無一	-10.7509
孤神	-10.7512
得土	-10.7515
丙午丁未	-10.7517
而退	-10.7518
註云	-10.7523
聖賢	-10.7526
未來	-10.7531
二十七日	-10.7534
大將出	-10.7535
徃來	-10.7535
巫咸曰太白	-10.7535
福厚	-10.754
亦難	-10.754
所載	-10.7549
衰旺	-10.7549
治也	-10.7557
陰神	-10.7562
相望	-10.7563
廟堂	-10.7574
子加	-10.7577
風雲	-10.7581
隂中	-10.7583
也且	-10.7584
各得其	-10.759
干犯	-10.759
存乎	-10.7591
正氣	-10.7595
天紀	-10.7595
易云	-10.7597
主命	-10.7599
極於	-10.7606
三奇	-10.7606
離宫	-10.7611
也餘倣此	-10.7615
更看	-10.7617
四者	-10.762
商王	-10.7626
六二	-10.7627
備矣	-10.7628
不惟	-10.7629
最重	-10.7633
無水	-10.7636
陽神	-10.7636
不可言	-10.7643
各以其	-10.7645
荆州占曰嵗星	-10.7647
十有五	-10.7648
夜生人	-10.7649
見貴	-10.7651
者歟	-10.7656
青赤	-10.766
譌	-10.7666
隂道	-10.7666
壬戌癸亥	-10.7669
骨起	-10.7673
一百六十	-10.7677
三八	-10.7678
鄴	-10.7679
觀月經	-10.7687
富貴雙全	-10.7688
又無	-10.7688
正南	-10.7689
跳	-10.7689
盧	-10.7689
洪潤	-10.7689
漂	-10.7691
滑	-10.7692
曠	-10.7693
旌旗	-10.7694
匡	-10.7695
星入命	-10.7696
穢	-10.7698
臻	-10.7699
獬	-10.7699
查	-10.7699
萬九千	-10.77
普	-10.77
石氏讚曰	-10.7701
提綱	-10.7701
李仝曰	-10.7701
紂	-10.7701
松	-10.7701
㺄	-10.7701
堡	-10.7702
開山立向修方凶太	-10.7702
丙申丁酉	-10.7703
二爻	-10.7704
前程	-10.7704
秤	-10.7705
降婁	-10.7705
闇	-10.7706
贊	-10.7706
水位	-10.7706
大神	-10.7707
寢	-10.771
閭	-10.771
火羅計孛	-10.771
大限	-10.771
然亦	-10.7711
動作	-10.7712
所用	-10.7714
支為	-10.7714
互垣	-10.7716
九流	-10.7718
忠臣	-10.7718
以十二	-10.7719
兩頭	-10.7722
墓絶	-10.7724
庚辛日	-10.7728
朔望	-10.773
民流亡	-10.773
更遇	-10.7731
這	-10.7732
死敗	-10.7734
平地	-10.7737
鬼旺	-10.7737
歌云	-10.7738
星占三	-10.7738
以道	-10.774
逢財	-10.7741
人情	-10.7744
一例	-10.7745
飛宫	-10.7748
凶禍	-10.7754
生處	-10.7757
三代	-10.776
宫分	-10.7763
入此	-10.7766
坐山	-10.7767
為殃	-10.7769
六乙	-10.7774
失道	-10.7775
者何也	-10.7778
大事	-10.7778
七七	-10.778
少女	-10.778
不臨	-10.7782
不良	-10.7794
乙辛	-10.7794
嵗君	-10.7795
制化	-10.78
大禍	-10.7802
重者	-10.7806
運氣	-10.7812
冬至日	-10.7814
俱貴	-10.7815
漢中	-10.7815
令星	-10.7823
天火	-10.7826
十八年	-10.7828
原守	-10.7829
坐禄	-10.7834
天禄	-10.7835
初爻	-10.7835
則非	-10.7838
七公	-10.7842
未發	-10.7842
之厄	-10.7846
不長	-10.7853
地四	-10.7854
貴禄	-10.7854
近貴	-10.7856
諭	-10.7857
兵死	-10.786
斗柄	-10.786
官鄉	-10.7861
見官	-10.7862
出乎	-10.7863
是何	-10.7863
天地間	-10.7867
解之	-10.7872
陽徳	-10.7874
之勢	-10.7874
解元	-10.7885
山向	-10.7886
亦自	-10.7886
長年	-10.7886
金鄉	-10.7886
陽道	-10.7887
如無	-10.7889
性剛	-10.7892
濃	-10.7896
不絶	-10.7897
方成	-10.7898
天星	-10.7899
天地萬物	-10.7902
五品	-10.7903
苖	-10.7903
不救	-10.7906
忙	-10.7908
上官	-10.7908
宛	-10.7909
生貴子	-10.7911
暗合	-10.7912
所出	-10.7912
拒	-10.7913
肇	-10.7913
㢘	-10.7915
霽	-10.7916
前一辰	-10.7917
岸	-10.7919
別	-10.7919
戀	-10.792
蟄	-10.7921
性急	-10.7921
若非	-10.7922
藝術	-10.7922
殊不知	-10.7922
有土功事	-10.7923
趾	-10.7923
鈞	-10.7924
懶	-10.7924
小餘	-10.7925
光輝	-10.7925
主大貴	-10.7929
䟽	-10.793
財祿	-10.793
髀	-10.7932
上元甲子	-10.7934
牛羊	-10.7936
長沙	-10.7937
有形	-10.7938
主人勝	-10.7943
故爲	-10.7947
之位也	-10.7948
在其中矣	-10.7949
歲枝	-10.7951
大槩	-10.7952
昔王由是	-10.7953
一六	-10.7958
諸煞	-10.7958
主富	-10.7959
通變	-10.7961
此書	-10.7962
成象	-10.7964
者死	-10.7965
甲子旬	-10.7969
代立	-10.7971
蛇虎	-10.7972
木盛	-10.7973
地閣	-10.7973
將兵	-10.7973
四隅	-10.798
聚散	-10.7981
由此	-10.7983
難免	-10.7984
通書曰	-10.7989
年四月	-10.7998
三十度	-10.8002
恩星	-10.8006
術家	-10.8009
天有	-10.8009
禄元	-10.8011
乙丙丁	-10.8016
者以其	-10.8025
要知	-10.8025
無故自	-10.8026
騎官	-10.8027
何所	-10.8029
尅夫	-10.8038
入東井	-10.8041
坤艮	-10.8041
論其	-10.8046
當頭	-10.8052
徙居	-10.8053
陰人	-10.8065
六變	-10.8066
詳其	-10.8067
文帝	-10.8067
水多	-10.8068
日下	-10.8068
能尅	-10.8069
五際	-10.8076
居家	-10.8078
支辰	-10.8079
陽數	-10.808
不能自	-10.8082
繼是謂	-10.8091
矣然	-10.8091
見庚	-10.8103
五十日	-10.8111
石勒	-10.8112
离	-10.8117
窄	-10.8119
駟	-10.812
其分	-10.8121
重權	-10.8121
驀	-10.8122
司馬彪天文志曰孝	-10.8122
數曰	-10.8123
占訟	-10.8124
巨富	-10.8127
研	-10.8128
蔭	-10.813
山縣	-10.813
膠	-10.813
巨蟹	-10.8131
王廷光曰	-10.8131
顛倒	-10.8133
豁	-10.8133
歷	-10.8136
河皷	-10.8136
荆州占曰熒惑守	-10.8136
无咎	-10.8137
專政	-10.8137
壮	-10.8137
創	-10.8138
軸	-10.8138
日子時	-10.8138
干神	-10.8146
夜貴	-10.8149
世子	-10.815
故能	-10.8151
三百二十	-10.8153
苟	-10.8154
氣候	-10.8156
祖宗	-10.8157
陰私	-10.8159
貴格云	-10.8159
疾厄宫	-10.816
此數	-10.8164
嗚呼	-10.8165
應在	-10.8166
七九	-10.8166
四六	-10.8166
庫樓	-10.8168
宦者	-10.817
孤尅	-10.8177
人主憂	-10.818
進神	-10.818
信也	-10.8181
干透	-10.8182
蒼龍	-10.8184
生于	-10.8185
除之得	-10.8186
所由	-10.8192
中分	-10.8195
眼目	-10.8196
星曜	-10.8197
一歲	-10.8198
犯乗	-10.8198
事不成	-10.8199
十六度	-10.8212
八風	-10.8213
解神	-10.8214
建除	-10.822
為患	-10.8223
晦日	-10.8224
竒偶	-10.8225
古者	-10.8229
九賛	-10.8229
三卷	-10.8232
昭明	-10.8232
不受	-10.8233
為救	-10.8234
火多	-10.8238
嵗星守	-10.8242
不雜	-10.8243
所云	-10.8243
第九	-10.8244
兩宫	-10.8244
之聲	-10.8244
交差	-10.8247
文明	-10.8251
又曰嵗星	-10.8254
餘年	-10.8257
又得	-10.8258
同前	-10.8262
遁甲	-10.8266
胎元	-10.8278
大熟	-10.828
亦當	-10.8281
在乎	-10.8281
問曰	-10.8282
慾	-10.8282
四刻	-10.8282
為性	-10.8284
俟	-10.8287
謀事	-10.829
終無	-10.8293
有誅者	-10.8294
在南方	-10.8296
巳巳	-10.8299
凖頭	-10.83
之力	-10.8302
六十甲子	-10.8303
不得其	-10.8304
者勝	-10.8304
睦	-10.8306
寅木	-10.8307
金剛	-10.8308
九地	-10.8316
惡弱	-10.832
頭髙	-10.8323
山之	-10.8326
木木	-10.8328
十有九	-10.8329
刑獄	-10.833
冀	-10.833
子雲	-10.8331
在腹	-10.8331
寅巳	-10.8333
羲	-10.8333
在西方	-10.8333
憂患	-10.8335
天魁	-10.8337
歇	-10.8338
二十四度	-10.8338
十七度	-10.8339
効	-10.8339
杪	-10.834
謀反	-10.8341
狡	-10.8343
八尺	-10.8343
大人當之	-10.8343
木生火	-10.8344
緑	-10.8346
詭	-10.8347
蘭臺	-10.8348
為天之	-10.8349
終日	-10.8349
巫咸曰填星	-10.8349
軟	-10.835
尚有	-10.8352
兵出	-10.8352
汨	-10.8353
欣	-10.8354
蓍龜	-10.8355
午中	-10.8356
瞽	-10.8357
茅	-10.8357
藴	-10.8357
謹按	-10.8359
姑洗	-10.8362
玩	-10.8363
天以	-10.8365
第二星	-10.8365
睡	-10.8366
十五年	-10.8369
荆州占曰辰星	-10.8373
山根	-10.8376
千六十	-10.8377
明帝	-10.8377
酋	-10.8378
進而	-10.8378
破散	-10.8381
不見其	-10.8382
能知	-10.8383
此命	-10.8385
其凶	-10.8395
順布	-10.8401
不可見	-10.8401
晦朔	-10.8402
前一位	-10.8403
大小運	-10.8403
南河	-10.8412
少㣲	-10.8413
壬子癸丑	-10.8416
嵗駕	-10.842
乘白虎	-10.8421
尅日	-10.8423
心腹	-10.8423
地網	-10.8425
火盛	-10.8429
皆言	-10.843
甲庚	-10.8432
為太尉	-10.8434
以别	-10.8436
坤乙	-10.8439
有倚托	-10.844
安居	-10.844
貴乎	-10.8441
盛衰	-10.8441
不富	-10.8444
金生水	-10.8445
盛也	-10.8446
只為	-10.8448
時刻	-10.8449
六辛日	-10.8455
欲其	-10.8456
納財	-10.8457
災福	-10.8461
百世	-10.8466
無非	-10.847
三變	-10.8472
火燒	-10.8474
生扶	-10.8487
不能制	-10.849
千五十	-10.8491
清秀	-10.8494
在斗	-10.8496
莫能	-10.8497
月煞	-10.8498
而進	-10.8503
坐實	-10.8505
一十二	-10.8513
五千	-10.8514
兵權	-10.8518
筭得	-10.8518
三百五十	-10.8519
辛癸	-10.8523
周子	-10.8531
隂干	-10.8535
家道	-10.8537
之墓	-10.8538
風流	-10.8541
無以	-10.8545
遇金	-10.8546
至午	-10.8546
不得力	-10.8552
千户所	-10.8556
主夀	-10.8559
不失其	-10.8559
墓庫	-10.856
僉憲	-10.856
中犯乘守	-10.8564
皷	-10.8567
之家	-10.8567
勞碌	-10.8569
甸	-10.8569
鑄	-10.8571
鈎鈐	-10.8571
株	-10.8571
猜	-10.8573
麤	-10.8574
六七八九	-10.8575
旨	-10.8575
媾	-10.8577
膺	-10.8577
惜	-10.8578
斛	-10.8578
帝覽嬉曰月	-10.8579
酷	-10.8579
也其日忌	-10.8579
痣	-10.8579
蒸	-10.858
綸	-10.858
確	-10.8581
附路	-10.8581
鳯凰	-10.8581
𫝊送	-10.8583
女牀	-10.8583
整	-10.8585
状	-10.8587
煉	-10.8588
薪	-10.8589
束	-10.8589
又值	-10.859
枝葉	-10.8591
壬癸亥子	-10.8594
主富貴	-10.86
相犯	-10.8608
程子	-10.8617
天首	-10.8618
晷長	-10.8619
遲疾	-10.862
千四十	-10.8621
主政	-10.8624
海中占曰熒惑	-10.8625
禽獸	-10.8628
丑戌	-10.863
巳宫	-10.8634
四星在	-10.8634
他宫	-10.8635
數十	-10.8635
人主有憂	-10.8642
稱帝	-10.8643
生於申	-10.865
順而	-10.8652
民人	-10.8652
福氣	-10.8657
孟子	-10.8657
形神	-10.8657
滿日	-10.8658
先生曰	-10.8666
羣臣	-10.8667
等日	-10.8669
之氣也	-10.867
賢者	-10.8677
有異	-10.8677
詳之	-10.8677
一週	-10.8681
財神	-10.8686
同論	-10.8694
四金	-10.8701
直符加	-10.8704
今測	-10.8705
古法	-10.8705
若逄	-10.8706
風雷	-10.871
戰於	-10.8711
例推	-10.8712
郗萌曰嵗星守	-10.8717
大起	-10.8717
日支	-10.8725
云云	-10.8731
田宅宫	-10.8732
者正	-10.8732
靜而	-10.8733
亦猶	-10.8742
五氣	-10.8747
國有大	-10.8752
失勢	-10.8753
大義	-10.8753
千萬	-10.8759
分隂陽	-10.876
右旋	-10.8762
正北	-10.8767
文字	-10.8772
流水	-10.8774
巫咸	-10.8776
道徳	-10.8776
入宅	-10.8779
季月	-10.8782
七十日	-10.8783
幷	-10.8792
潦	-10.8793
南官候曰	-10.8794
西官候曰	-10.8794
破害	-10.8795
崇勲	-10.8795
考異郵曰	-10.8797
㕘	-10.8797
蒲	-10.8798
年五月	-10.88
明萬民英撰	-10.8802
天下安	-10.8803
文公	-10.8803
足肣	-10.8804
副使	-10.8805
𤣥枵	-10.8805
臯	-10.8806
黒道	-10.8807
覩	-10.8808
疲	-10.8808
積尸	-10.8809
艱辛	-10.8809
轄	-10.881
瘟	-10.8812
春夏秋冬	-10.8813
京師	-10.8813
石氏讃曰	-10.8813
攘	-10.8813
玉管照神	-10.8813
壺中子云	-10.8813
寅申己亥	-10.8815
堯舜	-10.8817
瓶	-10.8817
架	-10.8818
市賈	-10.8819
有傷	-10.8819
産厄	-10.8828
庚午辛未	-10.8831
天髙	-10.8833
是書	-10.8834
嵗星犯守	-10.8834
不甚	-10.8838
酉金	-10.8839
門戸	-10.8841
四瀆	-10.8842
九卿	-10.8843
土宿	-10.8849
發生	-10.8851
金石	-10.8851
震艮	-10.8855
葬造後	-10.886
爵禄	-10.8861
四百八十	-10.8862
吕申	-10.8876
正當	-10.8877
必敗	-10.8881
入南斗	-10.8885
王莽	-10.8893
四體	-10.8897
不容	-10.89
離祖	-10.8901
王室	-10.8902
皆同	-10.8903
子云	-10.8904
小星	-10.8905
禄命	-10.8907
孝經	-10.8918
先看	-10.8921
一半	-10.8931
經天	-10.8938
尤重	-10.8943
嵗星入	-10.8943
天廟	-10.8944
天恩	-10.8945
此即	-10.8949
中藏	-10.8952
作六合	-10.8953
遇煞	-10.8958
之辭	-10.8958
居上	-10.8961
街	-10.8961
春令	-10.8966
此限	-10.8967
號天	-10.8968
相逄	-10.8968
而自	-10.897
平行	-10.897
一一	-10.897
冬生	-10.897
長而	-10.8988
併則	-10.8998
四際	-10.9
十二位	-10.9003
得志	-10.9011
喜事	-10.9012
隂盛	-10.9014
天厨	-10.9018
虚名	-10.9018
不能生	-10.902
相資	-10.9022
銀	-10.9024
玉厯曰	-10.9025
瀆	-10.9031
黒氣	-10.9032
𤣥冥占曰	-10.9033
隴	-10.9034
不顯	-10.9036
涼	-10.9037
无	-10.9037
溫	-10.9039
綏	-10.9041
毋	-10.9041
壺	-10.9042
􁁿	-10.9043
潮	-10.9043
𤓰	-10.9044
蝠	-10.9045
伴	-10.9045
廵	-10.9045
漢書五行志曰	-10.9046
恰	-10.9047
八爲	-10.9047
運到	-10.9048
屯之	-10.9048
膚	-10.9049
靠	-10.905
水火木金	-10.905
秩	-10.905
駁	-10.905
彪	-10.9051
雷霆	-10.9052
燋	-10.9053
竇	-10.9053
亦非	-10.9053
在已	-10.9054
臨官帝旺	-10.9054
為尊	-10.9055
朋友	-10.9056
粹	-10.9057
牡	-10.9058
督	-10.906
多疾	-10.906
衣服	-10.9061
術數類	-10.9062
粉	-10.9062
商賈	-10.9063
匠	-10.9063
挾	-10.9064
賢愚	-10.9064
鑒	-10.9066
羡	-10.9068
斗魁	-10.9072
尅戰	-10.9074
甲戌乙亥	-10.9075
丙寅丁卯	-10.9077
甲己	-10.9079
■	-10.9081
郎將	-10.9083
郄萌曰客星守	-10.9089
滿用	-10.9089
無間	-10.9092
只以	-10.9096
徒流	-10.9097
榮昌	-10.9097
皇極	-10.9098
一爻	-10.9103
對曰	-10.9103
背禄	-10.9108
後二辰	-10.9112
三百八十四	-10.9113
又逢	-10.9113
五星在	-10.9114
程子曰	-10.9116
盈虚	-10.9118
四爲	-10.9121
未當	-10.9122
金絶	-10.9126
謀望	-10.9128
帶疾	-10.9128
觜參	-10.9131
制其	-10.9133
假令甲子	-10.9135
其書	-10.9135
胎神	-10.9136
甘氏曰熒惑	-10.9147
不嫌	-10.9147
申金	-10.9147
星戊	-10.9162
秋令	-10.9164
更㸔	-10.9165
之時也	-10.9166
之相也	-10.9166
最要	-10.9167
不可用	-10.9169
次吉	-10.9193
大吕	-10.9194
之正位	-10.9195
遇火羅	-10.9196
三際	-10.9197
積日	-10.9199
至今	-10.92
扶身	-10.9209
化成	-10.9211
以待	-10.9214
遊年	-10.9215
民流	-10.9216
歲徳	-10.9217
有慶	-10.9217
以理	-10.922
𫝊曰	-10.9221
歲月	-10.9222
者天地之	-10.9225
積隂	-10.9226
帝覽嬉曰月暈	-10.9226
流亡	-10.9236
赤黄	-10.9241
多憂	-10.9242
五十有五	-10.9246
官訟	-10.9246
曹震圭	-10.9247
倣	-10.9255
怕逢	-10.9256
六癸日	-10.9258
嵗時	-10.9259
成立	-10.926
兩重	-10.9262
反是	-10.9265
年少	-10.9265
邊兵	-10.9268
伐鄭	-10.9272
崔	-10.9273
二曜	-10.9273
春秋圗曰	-10.9274
懿	-10.9276
弱宫	-10.9276
歲刑	-10.9277
甄曜度曰	-10.9279
翌	-10.9281
虚中	-10.9281
呈	-10.9284
生尅制化	-10.9285
迅	-10.9285
嫩	-10.9286
眠	-10.9287
蠻	-10.9287
翰	-10.9288
訪	-10.9288
之源	-10.9289
踵	-10.929
宴	-10.9291
並起	-10.9291
猾	-10.9291
超羣	-10.9295
北河戍	-10.9295
群	-10.9295
辜	-10.9296
石氏曰客星守	-10.9296
掠	-10.9297
啞	-10.9297
大臣誅	-10.9298
鬱	-10.9299
伶	-10.9299
佚	-10.9299
建元	-10.93
寳瓶	-10.9301
色黒	-10.9301
羅網	-10.9302
芮	-10.9304
鞭	-10.9305
田蠶	-10.9306
又遇	-10.9306
水鄉	-10.9307
脊	-10.9307
旌	-10.9308
朦	-10.9309
胎養	-10.9311
涵	-10.9312
處暑	-10.9313
十二㑹	-10.9314
否泰	-10.9316
荆州占曰熒惑入	-10.9317
㑹稽	-10.9318
甲午乙未	-10.9318
深淺	-10.932
殿駕	-10.932
豐厚	-10.932
破蕩	-10.932
減力	-10.9321
倒限	-10.9327
時臨	-10.9328
石氏曰填星守	-10.9331
二百八十	-10.9336
仲春	-10.9336
順數至	-10.9336
夷則	-10.9345
寅午戌火	-10.9348
附耳	-10.9351
九六	-10.9354
義例	-10.936
取義	-10.9362
私門	-10.9363
郎位	-10.9365
軍市	-10.9365
天尾	-10.9366
太白犯守	-10.9368
情性	-10.9369
宰輔	-10.9369
宫度	-10.9371
而不用	-10.9372
主夭	-10.9374
入箕	-10.9379
死䘮	-10.9382
之末	-10.9383
神氣	-10.9383
少微	-10.9386
世人	-10.9389
之體也	-10.9399
牢獄	-10.94
行南	-10.9403
方能	-10.9403
為政	-10.9412
不識	-10.9416
在黄道外	-10.9417
大㑹	-10.9418
二百三十	-10.942
十四度	-10.9427
相濟	-10.9432
相傷	-10.944
而已矣	-10.9446
年七月	-10.9448
卯宫	-10.9455
之器	-10.9457
之所由	-10.9462
司天	-10.9469
二百六十	-10.947
告貴	-10.9472
上應	-10.9475
)(□/□)	-10.9481
但得	-10.9489
寅夘辰	-10.9489
宋書天文志曰晉	-10.9492
繫於	-10.9508
坐貴	-10.9509
白雲	-10.9514
宋書天文志曰	-10.9518
詞訟	-10.952
撃	-10.9522
綬	-10.9526
袖中金	-10.9528
堪輿經曰	-10.953
更帶	-10.953
破軍殺將	-10.953
星占十	-10.953
空虚	-10.9531
榜	-10.9532
厯例曰凡	-10.9533
二句	-10.9533
蚩尤	-10.9533
春秋感精符曰	-10.9534
未央	-10.9534
訂	-10.9535
元命包曰	-10.9536
那堪	-10.9537
霞	-10.9537
𤣥齋曰	-10.9537
好色	-10.9538
駒	-10.9538
簒	-10.9539
嬪	-10.9541
另	-10.9541
邀	-10.9541
氐房心	-10.9543
有德令	-10.9543
𤣥戈	-10.9544
耿	-10.9544
逢土	-10.9545
院	-10.9545
相承	-10.9546
遮	-10.9546
膝	-10.9547
戊子己丑	-10.9547
爛	-10.9547
圏	-10.9548
閉塞	-10.9549
遶	-10.9551
陋	-10.9551
羸	-10.9552
相和	-10.9552
䖏	-10.9552
升殿	-10.9553
間量	-10.9557
蟠	-10.9559
洗	-10.9562
稍輕	-10.9564
宇宙	-10.9565
摇動	-10.9567
寧縣	-10.9569
昴畢	-10.9572
歲徳合	-10.9573
賤人	-10.9576
若犯	-10.9578
校官	-10.9578
入輿鬼	-10.9579
紫白	-10.9582
魂魄	-10.9584
天船	-10.959
譬如	-10.9592
三合六合	-10.9592
遼東	-10.9593
不可犯	-10.9594
水生木	-10.9597
頁	-10.9599
後一辰	-10.9601
淫亂	-10.9604
不親	-10.9605
上總	-10.9605
雲雨	-10.9608
重叠	-10.9609
絶命	-10.961
王道	-10.9615
入命宫	-10.9617
所傷	-10.9622
三百一十	-10.9626
午酉	-10.9631
一十五	-10.9634
九十日	-10.9637
柔順	-10.9639
之基	-10.9639
精氣	-10.9641
天厠	-10.9642
五尺	-10.9646
紀法	-10.965
天樞	-10.9654
其類	-10.9663
三百八十	-10.9664
萬八千	-10.9665
元首	-10.9669
色黃	-10.9677
弑君	-10.9679
此説	-10.9681
神靈	-10.9683
太尉	-10.9685
十十	-10.9687
公卒子	-10.9694
隂私	-10.9698
井鬼	-10.9716
東海	-10.9718
午火	-10.9727
豫州	-10.9728
非惟	-10.973
亢金	-10.973
二宿	-10.9731
丙寅日	-10.9733
金孛	-10.9736
頭低	-10.9742
離鄉	-10.9744
和徳	-10.975
雨露	-10.9753
他禽	-10.9758
運喜	-10.9763
復歸	-10.9767
取諸	-10.9774
尤忌	-10.9774
致富	-10.9775
日月㑹於	-10.9779
艱	-10.9782
裔	-10.9785
迍邅	-10.9786
有反臣	-10.9786
荆州占曰客星守	-10.9787
財旺生官	-10.9787
開物	-10.9788
霖	-10.9789
稜	-10.979
乾坤坎離	-10.979
靖	-10.9792
糴大貴	-10.9792
亾	-10.9793
獐	-10.9793
亭	-10.9794
伺	-10.9794
篤	-10.9795
肘	-10.9795
昀	-10.9795
孫士毅	-10.9796
疵	-10.9796
沛	-10.9798
臍	-10.9798
恤	-10.9799
汪	-10.9799
國易政	-10.9799
喜逢	-10.9799
濡	-10.9801
梅	-10.9802
白虹	-10.9802
大臣為亂	-10.9802
慝	-10.9803
筐	-10.9803
模	-10.9805
三元紫白上元一白	-10.9805
茫	-10.9806
庚寅辛卯	-10.9808
又占曰嵗星守	-10.9808
日行一度	-10.981
忍	-10.9811
床	-10.9812
豐盈	-10.9813
行藏	-10.9813
閉口	-10.9815
學問	-10.9816
畝	-10.9818
壬辰癸巳	-10.9821
丈人	-10.9821
爭訟	-10.9822
夜將	-10.9824
富貴榮華	-10.9827
背祿	-10.9828
異姓	-10.9829
五事	-10.9829
其日宜	-10.983
格縁	-10.9835
虎狼	-10.9835
積筭	-10.9838
二象	-10.9843
艮丙	-10.9844
龜卜	-10.9849
六際	-10.9854
避之	-10.9854
五不遇	-10.9858
起于	-10.9862
六甲日	-10.9863
萬物皆	-10.9866
年九月	-10.9867
南吕	-10.9868
十九年	-10.987
十倍	-10.9871
艮巽	-10.9877
室家	-10.9878
催	-10.9887
多因	-10.9889
細詳	-10.9889
吉㑹	-10.9893
九爲	-10.9894
縱然	-10.9894
神為用	-10.9896
納音為	-10.9896
王孫	-10.9897
存亡	-10.99
大恭	-10.9906
損傷	-10.9907
端正	-10.9907
當作	-10.9908
輔臣	-10.9911
執政	-10.9912
百二十日	-10.9919
巳卯	-10.9931
人主有	-10.9932
伏藏	-10.9939
成局	-10.994
於天地	-10.9941
生我者	-10.9945
十四日	-10.9949
為福徳	-10.9958
亦不宜	-10.9964
龍穴	-10.9968
東山	-10.9972
臣謀	-10.9988
平生多	-10.999
北落	-10.9991
庚辰辛巳	-10.9993
丙壬	-11.0002
易政	-11.0005
莽	-11.0006
三十分	-11.0009
必先	-11.001
本乎	-11.0011
開門	-11.002
以候	-11.0022
皆由	-11.0022
作福	-11.0025
外國	-11.0033
事業	-11.0037
俱全	-11.0038
為禄主	-11.0039
碎	-11.0042
胃昴畢	-11.0042
月支	-11.0042
淫泆	-11.0044
曹操	-11.0047
董仲舒	-11.0049
魚鹽	-11.005
迷惑	-11.0051
丙丁火	-11.0051
齡	-11.0052
五寸	-11.0054
嘆	-11.0055
謗	-11.0056
期九十日	-11.0056
身命二主	-11.0057
太重	-11.0057
驪	-11.0057
每月	-11.0057
慿	-11.0057
逞	-11.0059
葛	-11.006
九寸	-11.006
夾貴	-11.0061
號曰	-11.0063
嶺	-11.0064
百年	-11.0064
䨇	-11.0065
弟兄	-11.007
怠	-11.0072
九疇	-11.0074
璇	-11.0074
皇帝王伯	-11.0074
雷電	-11.0074
冶	-11.0075
凶曜	-11.0077
著於	-11.0077
游魂	-11.0078
失度	-11.008
陂	-11.0088
榮枯	-11.0091
同到	-11.0108
析木	-11.0113
喜身旺	-11.0115
庚辛壬癸	-11.0118
不肯	-11.0125
将軍	-11.0125
本象	-11.0128
木羅	-11.0134
以此為	-11.0134
母星	-11.0134
孤寒	-11.0134
日禽	-11.0135
財喜	-11.014
化象	-11.0141
竒數	-11.0144
在震	-11.0147
得貴人	-11.0147
上旬	-11.015
黄赤	-11.015
困於	-11.0152
天潢	-11.0157
土生金	-11.0167
長男	-11.0177
三百四十	-11.0178
失財	-11.0179
乾兌	-11.0194
巽辛	-11.0198
直使	-11.0198
月陽建	-11.0199
煞刃	-11.0202
而守之	-11.0206
二十年	-11.0208
春秋分	-11.0229
守東井	-11.0231
本末	-11.0231
夏至後	-11.0239
未知	-11.0242
者皆為	-11.0254
兩府	-11.0256
三合五行	-11.0257
三旬	-11.026
獨立	-11.0278
六十日内	-11.0281
入獄	-11.0282
内戰	-11.0286
宫殿	-11.0288
肢	-11.0289
血氣	-11.0297
織	-11.0302
傍有	-11.0303
爐	-11.0304
石氏曰熒惑入	-11.0306
姻	-11.0311
蒼白氣入	-11.0311
河間	-11.0315
將來	-11.0317
逓	-11.0321
廪	-11.0322
摩	-11.0323
蠢	-11.0323
鬢	-11.0323
恊	-11.0323
巖	-11.0324
尤凶	-11.0325
煇	-11.0325
雛	-11.0326
雁	-11.0328
駭	-11.0328
也且如	-11.0328
刀砧	-11.0329
概	-11.0329
妃后	-11.0329
七十二候	-11.0329
忠孝	-11.0329
昂	-11.0329
翳	-11.033
傑	-11.0331
忻	-11.0331
功成	-11.0332
太和	-11.0332
如甲人	-11.0332
貝	-11.0332
慘	-11.0333
錯綜	-11.0333
惻	-11.0333
大林	-11.0334
想	-11.0334
來臨	-11.0335
汲	-11.0335
戊午己未	-11.0335
籥	-11.0336
聊	-11.0336
燦	-11.0337
磨蝎	-11.0337
一隂一陽	-11.0337
蓋山黄道貪	-11.0338
徧	-11.0338
赫	-11.0339
荆州占曰客星入	-11.034
等謹案	-11.034
䖝	-11.034
虢	-11.034
縈	-11.0341
墳墓	-11.0341
㳺	-11.0342
巷	-11.0343
减半	-11.0343
片	-11.0347
鎖	-11.0348
貧苦	-11.0349
不收	-11.0353
期六月	-11.0358
坐下	-11.0359
戊辰己巳	-11.036
主文章	-11.0363
荆州占曰太白守	-11.0364
玉衡	-11.0365
帶殺	-11.0365
我禽	-11.0369
井泉	-11.0371
害子	-11.0373
天廐	-11.0375
只怕	-11.0378
難逃	-11.0382
山頭	-11.0382
柔剛	-11.0386
極貴	-11.0388
無他	-11.0394
富足	-11.04
存其	-11.0407
夀考	-11.0412
民多疾	-11.0413
赤氣出	-11.0416
限逢	-11.042
朝天	-11.042
剛柔相	-11.0427
不具	-11.0433
輕清	-11.0438
逆則	-11.044
逐月	-11.0442
平頭	-11.0444
禮義	-11.0448
可免	-11.0451
錢財	-11.0453
厥隂	-11.0456
徳神	-11.046
國有兵	-11.0462
延年	-11.0471
又曰熒惑	-11.0473
武徳	-11.0491
季夏	-11.0493
伐木	-11.0496
之所生	-11.0505
職位	-11.0505
來侵	-11.0508
為司空	-11.0508
黄鐘之	-11.0509
戊巳日	-11.0509
夘上	-11.051
度距	-11.0511
足開	-11.0512
馬元	-11.052
在北方	-11.0522
煞印	-11.0522
天地之心	-11.0527
不能尅	-11.055
昭公	-11.0558
七元	-11.0563
為人性	-11.057
安能	-11.0571
己申	-11.0572
豈非	-11.0576
色黑	-11.0578
好殺	-11.0579
堪輿	-11.0583
觜觿	-11.0586
等事宜	-11.0588
卿相	-11.0589
萬象	-11.059
螣	-11.059
蜺	-11.0591
茀	-11.0591
穩	-11.0592
神白經云	-11.0592
六日七分	-11.0593
李鼎祚曰	-11.0594
姚	-11.0594
而後有	-11.0596
劈	-11.0597
銓	-11.0597
潭	-11.0598
瘥	-11.0603
菽	-11.0603
虗	-11.0603
春秋運斗樞曰	-11.0604
元㑹運世	-11.0604
梗	-11.0604
蹻	-11.0605
勾絞	-11.0606
傷官傷盡	-11.0606
彈	-11.0607
天囷	-11.0607
秘訣	-11.0608
浩	-11.0608
處世	-11.0609
刺史	-11.0609
巴	-11.0613
細推詳	-11.0614
廉貞	-11.0614
娶婦	-11.0615
級	-11.0615
湛	-11.0615
星躔	-11.0615
漁	-11.0616
浄	-11.0618
弄	-11.0618
歐	-11.0618
蹄	-11.062
珞琭子云	-11.0621
出師	-11.0622
交戰	-11.0622
此圖	-11.0624
十日不下	-11.0625
其野	-11.0626
自縊	-11.0626
大武	-11.0627
三十日不下	-11.0627
名譽	-11.0627
麒麟	-11.0628
尺五寸	-11.0629
天下大旱	-11.063
諸儒	-11.0634
少卿	-11.0636
權柄	-11.0638
後學	-11.064
毀	-11.0641
興造	-11.0641
不違	-11.0641
因妻	-11.0641
益州	-11.0642
交數	-11.0643
末年	-11.0643
可得而	-11.0645
星占四	-11.065
尅我者	-11.0654
禮記	-11.0654
積卒	-11.0656
黄鍾	-11.0661
柔弱	-11.0661
消詳	-11.0668
又曰嵗星守	-11.0672
死喪	-11.0675
運轉	-11.069
相停	-11.0693
亥將	-11.0698
氐宿	-11.0699
形貌	-11.07
閏月	-11.07
不肖	-11.0701
今厯	-11.0702
時支	-11.0704
旬首	-11.0704
乎此	-11.0708
隂陽和	-11.0719
又看	-11.0723
二百五十	-11.0724
會於	-11.0728
再行	-11.0731
和平	-11.0731
畫卦	-11.0733
刃煞	-11.0737
分晝五十	-11.0738
周易	-11.075
如正月	-11.0757
申辰	-11.0764
不純	-11.0769
宅經	-11.077
官禄宫	-11.0772
更值	-11.0784
飛天	-11.0786
推太乙	-11.0787
門庭	-11.0788
天田	-11.079
潢	-11.0796
家室	-11.0796
羅孛	-11.0797
行遲	-11.0799
囚星	-11.0805
一㸃	-11.0807
到頭	-11.0808
冨	-11.0817
肖	-11.082
並見	-11.0829
不能勝	-11.0839
二十四山	-11.0844
不拘	-11.0869
妨害	-11.0871
日必有灾雲	-11.0872
未盡	-11.0872
印旺	-11.0874
七曜	-11.0874
天文志	-11.0877
昏迷	-11.0878
繋	-11.088
戯	-11.0882
羞	-11.0884
為生氣	-11.0884
奸淫	-11.0884
時憲書	-11.0884
囬	-11.0885
不出百八十日	-11.0885
必致	-11.0885
都督	-11.0886
巍	-11.0887
凸	-11.0888
甘露	-11.0888
之課也象曰	-11.0888
道路不通	-11.0888
岱	-11.0889
蠻夷	-11.0889
殂	-11.0889
一百七十	-11.089
爾雅曰	-11.0891
渉害	-11.0891
不露	-11.0891
性情形體	-11.0892
展	-11.0893
紛紛	-11.0894
者此人君	-11.0894
癆	-11.0895
祕	-11.0895
琴堂	-11.0895
廊廟	-11.0895
石氏曰流星入	-11.0896
宗鏡	-11.0896
閻	-11.0896
郭璞	-11.0897
休旺	-11.0897
皓	-11.0897
警	-11.0898
寫	-11.0898
坡	-11.0899
淑	-11.0899
供	-11.0899
弼	-11.09
甞	-11.09
稼	-11.09
系	-11.0901
巻	-11.0902
奸邪	-11.0903
瞻	-11.0903
屈伸	-11.0903
焰	-11.0904
淺薄	-11.0905
鈎陳	-11.0908
鎭	-11.0909
揖	-11.091
尤的	-11.091
裘	-11.0913
裳	-11.0914
侮	-11.0915
最嫌	-11.0917
聘	-11.0919
牝	-11.092
修營	-11.092
遭刑	-11.0925
絶處	-11.0931
死絶則	-11.0937
敵人	-11.0937
貴人禄馬	-11.0939
張衡	-11.0941
妻位	-11.0941
自古	-11.0946
號令	-11.0947
加盤	-11.0947
二百五十二	-11.0951
分而為	-11.0957
妨妻	-11.0958
三星在	-11.0964
穀貴	-11.0969
政令	-11.0978
獄訟	-11.0982
青州	-11.0985
矣今	-11.0995
中𫝊	-11.0997
路傍	-11.1002
隂建於	-11.1003
入亢	-11.101
夭夀	-11.1016
太師	-11.1021
庶出	-11.1025
光芒	-11.1026
二際	-11.1029
大衍之數	-11.1031
水盛	-11.1032
揚州	-11.1036
熒惑逆行	-11.104
歳月	-11.104
得意	-11.1051
原無	-11.1053
老人星	-11.1058
一百一十	-11.1062
初一日	-11.1066
為司徒	-11.1069
三爻	-11.1081
相雜	-11.1102
參將	-11.1108
商人	-11.1109
其力	-11.1119
紫微	-11.112
福徳宫	-11.1134
乘氣	-11.1135
惟宜	-11.1143
山家	-11.1148
不敬	-11.1148
無所得	-11.1154
悼	-11.1157
穰	-11.1166
日其未出	-11.1168
臟	-11.1171
給諫	-11.1172
五行生旺	-11.1175
皇極經世書	-11.1177
絮	-11.1177
天江	-11.1177
閩	-11.1178
捧	-11.1178
渭	-11.1178
甲戌旬	-11.1178
天下和平	-11.118
七赤	-11.1181
皇太子	-11.1182
縦	-11.1184
棘	-11.1184
叶	-11.1184
譬之	-11.1184
孝經章句曰	-11.1185
順行十二辰	-11.1185
販	-11.1185
積薪	-11.1186
讐	-11.1186
二四六八	-11.1187
乾隆四十六年	-11.1187
撞	-11.1188
沸	-11.1188
卯戌	-11.1188
両	-11.1189
煦按	-11.119
扐	-11.1191
不出二年	-11.1191
較量	-11.1192
攀	-11.1194
暫	-11.1195
班固	-11.1195
杵臼	-11.1196
壤	-11.1196
竿	-11.1196
倪	-11.1197
近侍	-11.1197
狸	-11.12
雞鳴	-11.12
隂府太	-11.12
鳥獸	-11.1201
籠	-11.1203
強宫	-11.1203
楊柳	-11.1203
風塵	-11.1206
賢良	-11.1206
夹	-11.1209
搜	-11.1209
記曰	-11.1209
聦	-11.1209
板	-11.121
尊貴	-11.1212
闡	-11.1212
世俗	-11.1213
拾	-11.1213
雙親	-11.1215
甡	-11.1216
怪異	-11.1217
巫咸曰熒惑守	-11.1219
尤吉	-11.1221
奈何	-11.1225
官庫	-11.1229
四柱中	-11.1229
兖州	-11.1232
小腸	-11.1232
朝堂	-11.1234
參差	-11.124
歸魂	-11.1245
存焉	-11.1248
宜詳	-11.1254
之卦也	-11.1254
臨支	-11.1255
光澤	-11.1259
顯貴	-11.1261
補龍	-11.1263
求事	-11.1264
六尺	-11.1265
黄帝占曰月	-11.1266
相距	-11.1274
分晝夜	-11.1275
七寸	-11.1291
通闗	-11.1296
火制	-11.13
清竒	-11.1314
刻八分	-11.1316
不顧	-11.1319
次看	-11.1325
舉事	-11.1333
治亂	-11.1338
景長	-11.1347
相親	-11.1348
六壬日	-11.1355
龍蛇	-11.1363
本數	-11.1365
失禮	-11.1368
正廟	-11.1368
次序	-11.1371
重濁	-11.1397
祗	-11.1403
三合局	-11.1404
大率	-11.1411
后族	-11.1419
星入月中	-11.1419
財官印綬	-11.143
犬生子	-11.1433
不得地	-11.1434
室壁	-11.1435
其國有憂	-11.1436
產	-11.145
天地之中	-11.1471
釁	-11.1472
必因	-11.1473
逾	-11.1474
浙	-11.1475
疇	-11.1477
贏縮	-11.1477
甲辰旬	-11.1478
鎻	-11.148
悴	-11.1482
兹謂	-11.1482
鄕	-11.1483
揮	-11.1483
破印	-11.1485
未有不	-11.1487
塡實	-11.1487
天乙貴	-11.1488
簿	-11.1488
天徳月徳	-11.1489
匝	-11.1489
稚	-11.1489
窩	-11.149
燃	-11.149
霄	-11.1491
㓂	-11.1492
縷	-11.1492
洽	-11.1492
骸	-11.1492
廏	-11.1494
松柏	-11.1496
数	-11.1496
湧	-11.1497
噬	-11.1498
古歌云	-11.1498
羊刄	-11.1499
荅	-11.1499
漠	-11.1501
鰥寡	-11.1501
朴	-11.1501
蝦	-11.1501
森	-11.1502
拓	-11.1503
障	-11.1506
暖	-11.1507
石氏曰客星入	-11.1508
闗梁	-11.1509
十二宫中	-11.1511
壽夭	-11.1511
三百六十五日	-11.1512
脇	-11.1513
戰鬬	-11.1514
纍	-11.1517
客大勝	-11.1517
惕	-11.1517
炁孛	-11.1521
黒雲	-11.1521
庚子辛丑	-11.1522
宿一偏西二度	-11.1528
六府	-11.153
滿野	-11.1532
雙全	-11.1533
逐年	-11.1533
六甲生人	-11.1533
人民飢	-11.1534
為官印	-11.1535
江縣	-11.1537
屋上	-11.1541
再遇	-11.1552
太玄	-11.1557
出羣	-11.1571
誰知	-11.1575
蒼白	-11.1578
變異	-11.158
惠帝	-11.1585
篇云	-11.1586
天將軍	-11.1589
有白衣	-11.1603
下盤	-11.1612
四尺	-11.162
虎視	-11.1621
民饑	-11.1623
六乙日	-11.1652
雙生	-11.1657
堂堂	-11.1659
車馬	-11.1663
最𦂳	-11.1665
十有一	-11.1669
以諭	-11.1669
暴死	-11.1675
石氏曰嵗星守	-11.1677
三百七十	-11.1685
何憂	-11.169
須㸔	-11.1694
嵗徳	-11.1706
永平	-11.1708
郗萌占曰月	-11.1715
清髙	-11.1725
此之謂	-11.1725
生育	-11.1726
郗萌曰太白守	-11.1726
寄生	-11.1734
七八月	-11.1741
七十二日	-11.1747
最難	-11.1748
周流	-11.1749
福慶	-11.1753
生旺之地	-11.1764
河内	-11.1765
無射	-11.1771
好惡	-11.1771
六十年	-11.1777
石氏曰太白入	-11.1778
建破平收	-11.1779
療	-11.1781
答	-11.1782
郗萌曰辰星	-11.1783
所指之國	-11.1786
春秋緯曰彗星出	-11.179
總要厯曰	-11.1791
天地之間	-11.1791
所理之方	-11.1792
短命	-11.1793
悞	-11.1793
探花	-11.1794
技	-11.1794
㪚	-11.1796
有黒痣	-11.1797
官煞混雜	-11.1798
鑄印	-11.1798
吁	-11.1799
慳	-11.1799
暌	-11.1799
南河戍	-11.18
遏	-11.18
卽	-11.18
建武	-11.1801
智慧	-11.1801
走失	-11.1801
庾	-11.1801
邊境	-11.1801
仗	-11.1802
栽	-11.1802
遙	-11.1802
綠	-11.1803
誥	-11.1804
雕	-11.1804
壬午癸未	-11.1805
菓	-11.1805
僵	-11.1805
朞	-11.1806
待時	-11.1807
堅牢	-11.1808
髙祖	-11.1808
勒	-11.181
客星干犯	-11.1811
兵起宫中	-11.1812
嘯	-11.1814
𠖇	-11.1815
參旗	-11.1815
秀麗	-11.1818
螟蛉	-11.1819
所居之	-11.1819
音聲	-11.182
虧盈	-11.1821
巫咸讃曰	-11.1821
置閏	-11.1822
貴人多死	-11.1824
尺六寸	-11.1824
伏尸	-11.1826
餙	-11.1828
經絡	-11.183
究其	-11.1832
偏枯	-11.1834
失次	-11.1834
太冲	-11.1835
門具將發	-11.1836
丙子丁丑	-11.1838
萬二千	-11.1841
濳	-11.1842
漸漸	-11.1842
兩般	-11.1843
反背	-11.1846
睟	-11.1846
飲酒	-11.1848
首仰	-11.1851
本原	-11.1854
災咎	-11.186
星學大成卷	-11.1865
威武	-11.1867
逢生旺	-11.1879
異常	-11.1881
入天市	-11.1887
十一曜	-11.1891
客勝	-11.1893
庫墓	-11.1897
帶刃	-11.1898
色惡	-11.1899
楊氏	-11.1899
留止	-11.1907
炎炎	-11.1908
兩邊	-11.1912
泄氣	-11.1924
五殘	-11.1937
徐州	-11.1937
顯逹	-11.1944
見火羅	-11.1947
耳假令	-11.1951
交錯	-11.1952
在東井	-11.1956
荆州占曰流星	-11.1964
天干透	-11.1971
榖貴	-11.1972
豈知	-11.1991
河圖帝覽嬉曰月	-11.1994
有反者	-11.2
少男	-11.2014
海中占曰填星	-11.2014
三焦	-11.2035
之為言	-11.2036
有憂一曰	-11.2037
將軍死	-11.2044
此條	-11.2047
肯	-11.2048
卦變	-11.2063
軍在外	-11.2067
兖	-11.207
輔佐	-11.2073
欲求	-11.2076
文曜鈎曰熒惑	-11.2084
方圓	-11.2088
如甲子日	-11.2089
被傷	-11.2091
匱	-11.2094
江南	-11.2097
州刺史	-11.2099
為正官	-11.2099
河海	-11.2101
胞	-11.2102
絳	-11.2109
元士	-11.2109
有白衣之㑹	-11.211
赴任	-11.211
筭外即	-11.2113
旬内	-11.2113
赴	-11.2113
翹	-11.2114
期百八十日逺一年	-11.2115
褒	-11.2115
斧鉞	-11.2116
翟	-11.2116
忒	-11.2117
鹽	-11.2117
成勾己	-11.2117
婢妾	-11.2117
易緯曰	-11.2118
煌	-11.2119
齧	-11.212
覇	-11.2121
麋	-11.2121
乙竒	-11.2122
合誠圖曰	-11.2122
惶	-11.2122
臓	-11.2122
鑰	-11.2123
打頭火	-11.2124
援神契曰	-11.2125
憕	-11.2126
摶	-11.2127
天月二徳	-11.2127
廕	-11.2128
煎	-11.2128
駝	-11.213
藁	-11.213
崖	-11.2131
穎	-11.2131
溝瀆	-11.2131
軀	-11.2132
替	-11.2134
臆	-11.2135
乘軒	-11.2135
庖	-11.2135
鯉	-11.2136
紀綱	-11.2136
註文	-11.2137
劒鋒	-11.2137
扇	-11.2139
蹇滯	-11.214
主為人	-11.214
逃走	-11.2141
費力	-11.2142
鑚	-11.2143
昊天	-11.2144
母倉	-11.2144
天下大赦	-11.2144
蹤	-11.2144
耶律	-11.2145
軍上氣	-11.2145
戰鬭	-11.2146
讀書	-11.2146
自子至	-11.2147
顯赫	-11.2148
兒孫	-11.215
鳴吠對	-11.2152
根源	-11.2155
京氏曰日蝕	-11.2155
丙辰丁巳	-11.2161
庶民	-11.2165
石氏	-11.217
囦	-11.2172
悦喜	-11.2176
傾危	-11.2177
莫教	-11.2177
受殃	-11.2179
厚薄	-11.218
巳酉丑月	-11.2181
宫立命	-11.2184
期三月	-11.2185
東方木	-11.2186
太卜	-11.2188
朱子謂	-11.2188
縱使	-11.2191
尊長	-11.2193
法經曰	-11.2198
飛刃	-11.22
古今同一星	-11.221
安静	-11.2211
雲漢	-11.2213
梟神	-11.2218
歸根	-11.2218
婁宿	-11.2219
忠直	-11.222
天子失	-11.2222
陽刄	-11.2224
妖星	-11.2225
觀物	-11.2231
郗萌曰填星守	-11.2232
欽定四庫全書欽定協紀辨方書卷	-11.2235
聚衆	-11.2239
相迎	-11.2241
黃帝占曰熒惑	-11.2242
又次之	-11.2245
六戊日	-11.2246
奎宿	-11.2246
併臨	-11.2252
神將吉	-11.2259
血忌	-11.2263
病訟	-11.2279
滅亡	-11.2284
内篇	-11.2285
十六位	-11.229
示人	-11.2293
黑道	-11.2303
交車	-11.2304
二百一十六	-11.2306
舉動	-11.231
室宿	-11.2312
衰弱	-11.2318
此說	-11.2334
蝕神	-11.2336
萬三千	-11.2346
庶子	-11.2351
性格	-11.2355
艮兊	-11.2357
涯	-11.2374
必招	-11.2384
支干上	-11.2388
無衝破	-11.2391
形勢	-11.2417
和順	-11.2424
滂	-11.2438
相錯	-11.244
蔡氏	-11.2443
丙申丁酉戊戌己亥庚子辛丑壬寅癸卯	-11.2443
腥	-11.2444
正月建寅	-11.2446
頦	-11.2446
井欄	-11.2448
海中占曰太白	-11.2448
偕	-11.2449
捉	-11.245
洫	-11.245
紐	-11.245
結婚姻	-11.2451
謡	-11.2451
感精符曰	-11.2451
横吉安	-11.2452
瞳	-11.2452
榆	-11.2452
逮	-11.2452
禄馬同鄉	-11.2453
聮	-11.2453
瑞應圖曰	-11.2453
有黜者	-11.2453
娵訾	-11.2455
術數	-11.2455
䑓	-11.2455
俞	-11.2455
閔	-11.2455
趕	-11.2455
海中占曰嵗星	-11.2456
祉	-11.2456
肚	-11.2457
顴	-11.2457
礙	-11.2457
親戚	-11.2458
憐	-11.2459
煖	-11.2459
淫慾	-11.2459
斤	-11.246
吳越	-11.246
六十日不下	-11.2461
皇極經世	-11.2462
咽	-11.2462
劍鋒	-11.2463
日丙寅時	-11.2464
染	-11.2464
淋	-11.2465
坎癸申辰	-11.2465
囿	-11.2467
黍稷	-11.2467
峙	-11.2467
爰	-11.2467
不見之形	-11.2467
天蝎	-11.2468
冡	-11.2468
搏	-11.2469
轅	-11.2469
天淵	-11.247
菜	-11.2471
詰	-11.2472
團	-11.2472
汗	-11.2473
靈臺	-11.2477
五行要論云	-11.2479
鑑云	-11.248
獨歩	-11.2481
戊戌己亥	-11.2485
踦	-11.2485
窟	-11.2487
喧	-11.249
𤣥胎	-11.2495
晶	-11.2495
屵	-11.2497
愚按	-11.2498
不調	-11.251
刼殺	-11.252
於西方	-11.252
甘氏曰熒惑守	-11.2525
惠王	-11.2526
甲申旬	-11.2528
離珠	-11.253
唫	-11.2531
長生之地	-11.2533
牛女	-11.254
無疆	-11.2551
震雷	-11.2552
雜氣財官	-11.2557
人民饑	-11.256
白手	-11.2562
以俟	-11.257
小旱	-11.2577
孝經内記曰日	-11.2588
黃帝	-11.2594
入貴格	-11.2597
六旬	-11.2602
又占曰太白	-11.2603
天綱	-11.2604
山澤	-11.2607
寅巳申	-11.2608
兩濟	-11.2616
六丙日	-11.263
祖父	-11.2633
長垣	-11.2633
甲寅旬	-11.2642
專論	-11.2645
戰尅	-11.2647
丙竒	-11.265
起筭	-11.2665
兵在外	-11.2671
主宰	-11.2677
有急令	-11.2682
截路	-11.2685
舊事	-11.2691
臨身命	-11.2692
郗萌曰嵗星入	-11.2695
忌土計	-11.2717
建祿	-11.2746
鳴吠	-11.2748
格葢	-11.2752
受胎	-11.2757
屬翼軫分	-11.2759
有聲名	-11.2762
桓公	-11.2765
不為凶	-11.2772
二品	-11.2774
黑色	-11.2779
色三物厭日之光	-11.2782
郄萌曰有星入	-11.2784
期不出二年	-11.2786
有亂臣	-11.2789
廣聖厯曰	-11.2789
桐	-11.2791
赤星入	-11.2791
廷尉	-11.2792
相盪	-11.2793
狐狢	-11.2793
屛	-11.2793
水火相	-11.2794
宿一偏東三度	-11.2794
竄	-11.2794
櫃	-11.2795
妓	-11.2796
製	-11.2796
管攝	-11.2796
冀州	-11.2796
罹	-11.2797
恠	-11.2797
謾	-11.2797
僻	-11.2798
護	-11.2798
牧養	-11.2799
敗臼	-11.2799
豺	-11.2799
遽	-11.28
壽促	-11.28
飬	-11.2802
衣裳	-11.2802
傲	-11.2802
有始無終	-11.2802
泛濫	-11.2803
股肱	-11.2804
鄒	-11.2804
掌握	-11.2804
鐡	-11.2805
諌	-11.2805
隘	-11.2806
蒙昧	-11.2807
二千石	-11.2808
河圖帝覽嬉曰月犯	-11.2809
枯槁	-11.2809
敘	-11.2809
景帝	-11.281
行財運	-11.281
繹	-11.281
蒿	-11.281
泗	-11.281
莭	-11.2811
映	-11.2811
個	-11.2812
漂流	-11.2812
嚮	-11.2813
枚	-11.2813
嗇	-11.2813
鈐	-11.2814
沐	-11.2815
聨	-11.2816
喘	-11.2818
霆	-11.2818
庶幾	-11.2819
吉陳曰	-11.282
焦延夀曰	-11.2821
脛	-11.2822
恥	-11.2822
通判	-11.2825
五臟	-11.283
刑罰	-11.2832
何疑	-11.2837
耆	-11.2837
劇	-11.2838
將帥	-11.2839
秦伐	-11.2839
必遭	-11.2842
嘻	-11.2845
鴈行	-11.2846
耗散	-11.2849
案宋書天文志曰	-11.2851
釋氏	-11.2853
血支	-11.2856
分氣候	-11.2857
廟樂	-11.2863
邑有兵	-11.2864
遷轉	-11.2864
爐中	-11.2865
人民流亡	-11.2871
寅邜	-11.2881
禍殃	-11.2881
百事皆	-11.2885
郗萌曰客星	-11.2886
閉物	-11.2892
貧富	-11.2896
和諧	-11.2896
宅墓	-11.2897
度去極	-11.2897
熒或	-11.2907
夘戌	-11.2914
休息	-11.2914
二寸	-11.2916
義理	-11.2925
豐足	-11.2931
色蒼	-11.2932
開龜	-11.2942
弧星	-11.2949
可見矣	-11.2951
巫咸曰熒惑	-11.2951
天下有急	-11.2955
妙用	-11.2964
二十有四	-11.2969
泰山	-11.2973
天巫	-11.2979
倚托	-11.2983
重疊	-11.2984
扶助	-11.2991
有出者	-11.2995
窮通	-11.2999
㑹諸侯	-11.301
精微	-11.3033
夾禄	-11.3038
丨	-11.3044
改元永	-11.305
宦	-11.3071
躔度	-11.309
切不可	-11.3094
六巳日	-11.3107
頭圓	-11.311
東西咸	-11.3119
廩	-11.3121
槍	-11.3128
屏星	-11.3139
出月左方日在	-11.3139
司馬彪天文志曰	-11.3145
豎	-11.3146
榜眼	-11.3149
鱉	-11.315
蟄蟲	-11.3151
琅	-11.3151
頷	-11.3151
其國有兵	-11.3152
期百二十日	-11.3153
輻	-11.3154
蠡	-11.3156
欽天監	-11.3156
旡妄	-11.3157
弓弩	-11.3157
以五色占	-11.3158
寤	-11.3158
靈棋	-11.3159
北官候曰	-11.316
頰	-11.3161
荆州曰客星	-11.3161
廊	-11.3161
倡	-11.3161
儘	-11.3162
海中占曰熒惑守	-11.3162
帯	-11.3162
隊	-11.3163
摺	-11.3164
春秋合誠圖曰	-11.3164
希夷	-11.3164
苛	-11.3165
僚	-11.3165
鎔	-11.3165
裹	-11.3166
鏘	-11.3167
離壬寅戌	-11.3168
分刺灸之	-11.3168
翰苑	-11.3169
楊筠松	-11.3169
九百四十	-11.317
痕	-11.317
輯	-11.317
魯衛	-11.3171
遊魂	-11.3171
斬闗	-11.3171
荷	-11.3172
態	-11.3172
疼	-11.3172
何也曰	-11.3174
不為害	-11.3174
姚興	-11.3175
裕	-11.3175
次舍	-11.3177
圓圖	-11.3178
帳	-11.3181
忠良	-11.3181
石氏曰彗星出	-11.3181
元命苞曰	-11.3181
五子元	-11.3182
奠	-11.3183
丙丁巳午	-11.3183
金尅木	-11.3183
財官印	-11.3183
遲速	-11.3184
炳	-11.3187
麓	-11.3188
天地之氣	-11.3189
又占曰嵗星	-11.3195
天涯	-11.3195
卓立	-11.3196
孤苦	-11.3197
攜	-11.3201
留連	-11.3204
金銀	-11.3204
見義例	-11.3208
嵗月日時	-11.321
河洛	-11.3212
一陽生	-11.3217
灾殃	-11.322
馬生子	-11.3226
出端門	-11.3227
金錢	-11.3229
形容	-11.3232
􁎮	-11.3234
紫氣	-11.3237
清華	-11.3248
眉目	-11.3251
開市	-11.3253
巫咸曰太白守	-11.3253
其星不明	-11.3254
病患	-11.3255
武庫	-11.3262
色黄白	-11.3266
雷公	-11.3269
尺三寸	-11.327
暴敗	-11.3271
為上格	-11.3274
爻象	-11.3277
富豪	-11.3292
合此格	-11.3293
己午未	-11.3293
遥克	-11.3299
二十日以上	-11.3304
天網	-11.3306
風伯	-11.3311
方隅	-11.3311
王者有憂	-11.3313
殃咎	-11.3327
𤣥妙	-11.3332
青黄	-11.3333
黄帝占曰太白	-11.3336
只要	-11.3343
只取	-11.3351
往往	-11.3353
午未申酉戌亥	-11.3357
石氏曰太白犯	-11.3359
六十卦	-11.3362
冲破	-11.3371
占婚	-11.3381
但知	-11.3385
命裏	-11.3386
財帛宫	-11.3396
失政	-11.3404
南方運	-11.3412
一百九十	-11.3424
辰巳午未	-11.3429
者此也	-11.3431
千二百	-11.3436
北陸	-11.3452
辛為官	-11.3452
巫咸曰辰星	-11.3465
巫咸曰嵗星	-11.3486
二十一度	-11.3491
并屬井鬼分	-11.3491
參伐	-11.35
桴	-11.3509
貴登天門	-11.351
六庚日	-11.3514
孝經雌雄圖曰	-11.3517
顓頊	-11.3518
狭	-11.352
丁壬化木	-11.352
修倉庫	-11.3521
受其殃	-11.3522
瘵	-11.3523
潘	-11.3526
恬	-11.3526
多火災	-11.3527
駿	-11.3527
啼	-11.3527
何承天	-11.3528
汾	-11.3528
有徳令	-11.3528
有戮死者	-11.3528
閼	-11.3528
癡	-11.3528
太宰	-11.3529
選擇宗鏡曰	-11.3529
太簇	-11.3529
璋	-11.3529
頒	-11.3529
拖	-11.353
一元之	-11.353
石氏曰月暈	-11.3531
偉	-11.3533
躓	-11.3533
膀胱	-11.3533
太傅	-11.3534
玅	-11.3534
坤地西南	-11.3534
黄帝占曰熒惑守	-11.3535
河圖洛書	-11.3535
捐	-11.3536
跨	-11.3538
碩	-11.3539
鮑	-11.3539
震庚亥未	-11.354
綴	-11.354
徽	-11.3541
寅刑巳	-11.3541
閙	-11.3541
劔	-11.3542
袍	-11.3543
梯	-11.3544
太過不及	-11.3544
清潔	-11.3545
詘	-11.3546
昬	-11.3548
吠	-11.3548
牝牡	-11.3549
鉤	-11.3549
毫釐	-11.3549
繭	-11.3549
甑	-11.3551
栗	-11.3552
閨	-11.3552
走獸	-11.3555
改元建	-11.3555
有火災	-11.3556
虚詐	-11.3557
其人必	-11.356
受賜	-11.3562
氏崩	-11.3563
燕趙	-11.3564
幽州	-11.3566
口訣	-11.3567
困窮	-11.3568
雒書	-11.3572
造父	-11.3572
生涯	-11.3576
星不具	-11.3578
真假	-11.3582
仲秋	-11.3586
隂陽升降	-11.3586
倒衝	-11.3588
西没	-11.359
庚戌辛亥	-11.3596
一尺五寸	-11.36
難測	-11.3614
餘奴	-11.3615
失脱	-11.3623
樹木	-11.3626
男兒	-11.3627
侍從	-11.3627
鄭氏	-11.3629
有水災	-11.3634
七百六十	-11.3635
憂疑	-11.3639
虛危	-11.364
災厄	-11.3645
在陽宫	-11.3645
枕主	-11.3648
紫微宫	-11.3648
昴宿	-11.3649
刀兵	-11.3661
大臣謀	-11.3688
中台	-11.369
五百四十	-11.3703
天徳合	-11.3708
遇土計	-11.3726
妙理	-11.3734
一隂生	-11.3747
𦂳要	-11.3748
如甲子年	-11.3754
四百九十	-11.3763
月徳合	-11.3767
侯伯	-11.379
尅竊	-11.379
午未申酉	-11.3822
六百四十	-11.383
相貌宫	-11.3834
丨灾	-11.3847
哀帝	-11.3861
傷妻子	-11.3865
句為一條	-11.3888
捕捉	-11.3898
陷弱	-11.3899
􁵸	-11.39
棗	-11.3901
睿	-11.3902
悍	-11.3902
紊	-11.3903
踏	-11.3904
恱	-11.3904
荀	-11.3906
北斗魁中	-11.3906
金木水火	-11.3907
觴	-11.3909
謫	-11.3909
洞微	-11.391
碌碌	-11.3911
前五辰	-11.3911
天子有喜	-11.3911
截路空亡	-11.3911
村	-11.3912
驂	-11.3912
䖍	-11.3912
祖暅	-11.3913
䜟	-11.3913
顴骨	-11.3914
伏犀	-11.3915
海中占曰太白守	-11.3915
守禦	-11.3916
行人未至	-11.3916
𨼆	-11.3916
澁	-11.3916
殞	-11.3917
肌	-11.3917
姿	-11.3917
石榴	-11.3917
虹蜺	-11.3918
珪	-11.3918
匀	-11.3918
冕	-11.3918
滄海	-11.3918
姊妹	-11.3919
狡猾	-11.3919
燔	-11.3919
撮	-11.392
僣	-11.392
斥	-11.3921
紅鸞	-11.3921
啄	-11.3922
陟	-11.3922
搆	-11.3922
文曜鈎曰太白	-11.3923
牲	-11.3923
胎孕	-11.3923
酸	-11.3923
呼吸	-11.3924
一晝一夜	-11.3924
凑	-11.3925
症	-11.3925
娣	-11.3926
天原發微	-11.3926
術曰置	-11.3926
造𦵏	-11.3927
藻	-11.3927
句為一條言	-11.3927
十二吉山宜寅午戌申子辰年月日時	-11.3929
鑠	-11.3929
堤	-11.3929
古今同二星	-11.393
裝	-11.3931
林鐘	-11.3931
在何宫	-11.3932
脂	-11.3933
歡樂	-11.3934
腕	-11.3934
貳	-11.3935
䘮弔	-11.3936
蟬	-11.3936
榖雨	-11.3937
恐懼	-11.3938
胃昴	-11.3938
咸恒	-11.3938
龜蓍	-11.394
思慮	-11.394
雨雪	-11.3941
天弁	-11.3942
威儀	-11.3943
秋冬夜生	-11.3945
賢士	-11.3947
黄帝占曰熒惑	-11.3947
毒害	-11.3951
江海	-11.3952
吉凶禍福	-11.3952
恢	-11.3953
困苦	-11.3954
莘	-11.3956
郗萌曰熒惑犯	-11.3957
發逹	-11.396
百川	-11.3963
進賢	-11.3971
孟春	-11.3982
夭亡	-11.3993
工夫	-11.3996
者言萬物	-11.3996
大腸	-11.3999
日卯時	-11.4001
小赦	-11.4005
北夷	-11.4007
小衍	-11.4008
大臣有誅	-11.4009
白氣入	-11.4019
荆州占曰嵗星守	-11.402
萬物之所	-11.402
不可擊	-11.4023
郗萌曰流星	-11.403
巳刑申	-11.4041
頭尖	-11.4061
雷雨	-11.4062
羅計孛	-11.4066
尺七寸	-11.409
淮南子	-11.41
假使	-11.4148
石氏曰熒惑犯	-11.4157
地煩	-11.4159
收藏	-11.4162
七百七十	-11.417
七百三十	-11.4185
甘氏曰嵗星	-11.4203
遂意	-11.4207
尺一寸	-11.4207
雍州	-11.421
安命在	-11.4231
名之曰	-11.4242
衝擊	-11.4254
能發福	-11.4263
安撫司	-11.4266
穆帝	-11.4276
十有七	-11.4276
囷	-11.428
邾	-11.4288
赧王	-11.429
黔	-11.4294
成鈎己	-11.4299
箕尾	-11.4301
頽	-11.4301
樞要厯曰	-11.4301
所理之地	-11.4301
蹉	-11.4302
付	-11.4303
夏氏曰日	-11.4303
熹	-11.4303
浴盆	-11.4304
闌	-11.4304
摘	-11.4305
輙	-11.4305
朔旦冬至	-11.4306
輪廓	-11.4306
糓	-11.4307
淸	-11.4307
轂	-11.4307
芻	-11.4308
當至不至	-11.4309
喚	-11.4309
輒	-11.4309
兜財	-11.431
准上文	-11.431
拳	-11.4311
壬騎龍背	-11.4311
携	-11.4312
黃帝占曰客星入	-11.4313
髙叢	-11.4313
日庚辰時	-11.4313
繒	-11.4313
鎗	-11.4314
走飛草木	-11.4315
庇	-11.4315
傅說	-11.4316
赤雲氣入	-11.4316
與德神併	-11.4316
日生刺是謂	-11.4317
裸	-11.4317
開山立向	-11.4317
纓	-11.4317
悠	-11.4318
十二吉山宜亥卯未巳酉丑年月日時	-11.4318
文耀鈎曰	-11.4318
譎	-11.4318
猖狂	-11.4318
闘	-11.4319
鵝	-11.4319
渴	-11.432
欽定四庫全書子部七	-11.432
右掖門	-11.432
眷屬	-11.4321
大臣當之	-11.4321
盃	-11.4321
冒	-11.4321
臼	-11.4321
剪	-11.4322
浮沉	-11.4322
踝	-11.4322
行南運	-11.4322
湊	-11.4322
誼	-11.4322
閫	-11.4323
彫	-11.4323
貶	-11.4323
鵠	-11.4323
汙	-11.4323
唐沈芝云	-11.4324
五虎遁	-11.4324
三日以上	-11.4324
章閏	-11.4325
旄	-11.4325
三百六十五度四分度之一	-11.4325
漏闗	-11.4325
瑞應圖曰王者	-11.4325
喜忌篇云	-11.4326
兌丁巳丑	-11.4326
晚景	-11.4326
螟	-11.4326
㨿	-11.4327
怡	-11.4329
寕	-11.4329
墀	-11.433
五十日不下	-11.433
冢	-11.4331
桑柘	-11.4332
攀鞍	-11.4334
危殆	-11.4335
矜	-11.4337
一動一靜	-11.4338
日甲子時	-11.4339
僭	-11.4339
餓死	-11.4341
露齒	-11.4342
霜雪	-11.4344
荆州占曰嵗星入	-11.4345
咬	-11.4345
星臨之	-11.4346
𤣥機	-11.435
貞雜	-11.4352
兵革起	-11.4354
旺相休囚	-11.4355
精誠	-11.4357
古今同三星	-11.436
忠信	-11.4362
六爲宗廟	-11.4362
逝	-11.4362
甲午旬	-11.4365
去極九十	-11.4367
與日同	-11.4368
師巫	-11.4369
林鍾	-11.4371
張良	-11.4379
不離乎	-11.438
堅剛	-11.4389
丑戌未	-11.4389
議論	-11.4392
横列	-11.4398
季春	-11.4405
熒惑逆行守	-11.4414
救解	-11.4418
衰鄉	-11.4419
源流	-11.442
神祗	-11.4429
冨貴	-11.4442
顔色	-11.4443
度今在	-11.4456
星守照	-11.4472
五百七十	-11.4492
幸臣	-11.4493
三十有六	-11.4494
四百四十	-11.4513
吉星照	-11.4563
大衍之數五十	-11.457
以庚為	-11.4591
值空亡	-11.4601
紅潤	-11.4612
三百九十	-11.4614
搖	-11.4673
時上偏官	-11.4701
孳	-11.4706
畋獵	-11.471
佈	-11.4713
鴛	-11.4715
粧	-11.4716
喙	-11.4717
鑰匙	-11.4717
關梁不通	-11.4717
僖公	-11.4718
陞遷	-11.4719
杼	-11.472
四更子正二刻	-11.4721
先起兵者	-11.4722
欹	-11.4724
石氏占曰月	-11.4724
自上而下	-11.4725
眥	-11.4725
綿綿	-11.4725
兩角間	-11.4726
梧	-11.4726
伊尹	-11.4727
塵埃	-11.4728
驥	-11.4728
沃	-11.4729
潁	-11.4729
眸	-11.4729
宵	-11.473
狩	-11.473
羿	-11.473
藝文志	-11.473
萍	-11.4731
絕	-11.4731
少人知	-11.4732
縫	-11.4732
禾稼	-11.4733
臥	-11.4733
財多身弱	-11.4734
宫起甲子	-11.4734
丐	-11.4735
揲蓍	-11.4735
檀	-11.4735
蕪淫	-11.4736
几	-11.4736
孀	-11.4737
乖違	-11.4737
十二吉山宜申子辰寅午戌年月日時	-11.4737
艾	-11.4737
一三五七九	-11.4738
瞻視	-11.4738
黄氣入	-11.4738
措	-11.4739
孩	-11.474
塊	-11.474
沾	-11.474
煥	-11.474
挫	-11.474
負海	-11.4742
酒旗	-11.4742
水火既濟	-11.4742
請謁	-11.4743
悅	-11.4743
邑且	-11.4744
饗	-11.4744
痩	-11.4744
嘘	-11.4744
尤佳	-11.4744
四千九十六	-11.4744
飄蓬	-11.4745
唐虞	-11.4746
穽	-11.4747
聾啞	-11.4747
旣濟	-11.4747
剖	-11.4747
誘	-11.4747
宸	-11.4747
脾胃	-11.4751
罵	-11.4752
康寧	-11.4752
施恩	-11.4752
開闢	-11.4754
天下大飢	-11.4759
傅説	-11.4759
争訟	-11.4765
父母兄弟	-11.4773
貧困	-11.4778
挟	-11.4781
只恐	-11.4782
太康	-11.4784
胞胎	-11.4786
徒配	-11.479
最妙	-11.4794
浮雲	-11.4796
和睦	-11.4797
提要	-11.4801
甘氏曰嵗星守	-11.4809
臣為亂	-11.4813
甘氏曰熒惑入	-11.4819
權衡	-11.4819
一百九十二	-11.4834
太白晝見	-11.4847
部郎	-11.4854
十日以上	-11.4865
民多死	-11.487
光耀	-11.4883
六百七十	-11.4906
調和	-11.4975
荆州占曰彗星	-11.5047
星入垣	-11.5048
春秋緯曰熒惑	-11.5052
襄公	-11.5054
甘氏曰辰星	-11.5065
巫咸曰熒惑入	-11.5083
刑戮	-11.5113
邯	-11.5129
觀物篇	-11.5141
莒	-11.5143
翁姑	-11.5144
結婚姻納采問名嫁娶	-11.5148
轝	-11.5148
璽	-11.5149
餓	-11.515
京房易候曰	-11.515
虫	-11.5151
蠅	-11.5151
呻吟	-11.5151
諸事皆忌	-11.5153
課凡課	-11.5153
勵	-11.5154
韓魏	-11.5155
䫫	-11.5156
通身旺月	-11.5156
浦	-11.5157
求醫療病	-11.5157
鍵閉	-11.5157
期一年逺二年	-11.5157
孟康曰	-11.5158
甄	-11.5158
掖	-11.5158
繕	-11.5158
圉	-11.5159
彭城	-11.516
扺	-11.516
瘳	-11.516
沿	-11.516
連茹	-11.5161
瓮	-11.5161
餌	-11.5162
寐	-11.5162
蚩尤旗	-11.5162
有女䘮	-11.5163
筵	-11.5164
茹	-11.5164
刑囚暗耗	-11.5165
首仰足肣	-11.5166
鞍	-11.5166
馭	-11.5166
甘氏曰太白守	-11.5166
后夫人	-11.5166
漁獵	-11.5166
敝	-11.5166
玷	-11.5167
耐	-11.5167
淫蕩	-11.5167
蹈	-11.5169
不貴即富	-11.5169
他皆倣此	-11.5169
姊	-11.5169
鵬	-11.517
譯	-11.517
釵釧	-11.517
鮮卑	-11.517
灘	-11.517
徘徊	-11.517
日乙丑時	-11.5171
錦衣	-11.5172
臣謀其主	-11.5172
首仰足開	-11.5173
厭對	-11.5173
慳吝	-11.5173
開山立向修方吉太歲	-11.5174
繡	-11.5174
襟	-11.5174
軻	-11.5174
鈇鉞	-11.5174
溷	-11.5174
鬲	-11.5175
壅塞	-11.5175
任督	-11.5175
不可執一	-11.5176
缶	-11.5177
竪	-11.5177
伎	-11.5177
理愚歌云	-11.5177
攔	-11.5178
覃	-11.5178
犬吠	-11.5178
海中占曰嵗星守	-11.5179
鍵	-11.5179
收斂	-11.5179
閃	-11.5179
區區	-11.518
燠	-11.518
吞㗖	-11.518
天市垣	-11.518
遐	-11.5181
淵源	-11.5181
天廩	-11.5182
糞	-11.5182
讎	-11.5184
容貌	-11.5184
膿血	-11.5185
悚	-11.5186
油	-11.5186
恃勢	-11.5186
嬌	-11.5187
叫	-11.5188
石氏曰客星出	-11.5188
毒藥	-11.5189
岀	-11.5189
弓矢	-11.5189
噪	-11.5189
國有大䘮	-11.519
壬寅癸卯	-11.5191
堅固	-11.5191
聲譽	-11.5192
此氣見	-11.5192
鬬訟	-11.5193
竒耦	-11.5194
國有喪	-11.5194
不出五年	-11.5195
瞢	-11.52
徐揚人	-11.52
吉詩曰	-11.5202
狐疑	-11.5203
孫權	-11.5205
動植	-11.5206
萬户	-11.5207
溟	-11.5207
風吹	-11.5211
蔡氏曰	-11.5216
加十五日指	-11.5222
洪範五行	-11.5231
宀	-11.5232
亥為天門	-11.5235
卿大夫	-11.5245
富貴貧賤	-11.5248
郗萌曰月犯	-11.5253
光彩	-11.5272
日戊辰時	-11.5304
王卒子	-11.5334
永嘉	-11.5354
八百三十	-11.5388
寸二分	-11.5391
十餘日	-11.5399
欽定協紀辨方書卷	-11.5437
黄帝占曰熒惑入	-11.5477
民多病	-11.5498
昊	-11.5584
珞琭	-11.5591
嘷	-11.5592
薛	-11.5593
填星出入留舎	-11.5593
禽在天號	-11.5597
帷	-11.5601
卅	-11.5602
寅與亥合	-11.5606
在都司城	-11.5606
遜	-11.5608
乾坤艮巽	-11.5608
覔	-11.5608
澮	-11.5609
輅	-11.561
鑾	-11.561
伏兵大禍	-11.5612
孤辰寡宿	-11.5613
含文嘉曰	-11.5613
貯	-11.5614
谿	-11.5614
洪範五行傳曰	-11.5614
結喉	-11.5616
靑	-11.5617
巾	-11.5617
孕生男	-11.5617
舅	-11.5618
簾	-11.5618
祁	-11.5619
采真歌云	-11.5619
梓	-11.5619
斗罡	-11.562
時上偏財	-11.562
天月二德	-11.5623
灸	-11.5624
腋	-11.5624
黯	-11.5624
財官印食	-11.5625
自下而上	-11.5625
畢月烏	-11.5626
丙與辛合	-11.5626
鋪	-11.5626
日己巳時	-11.5627
黄帝占曰太白守	-11.5627
七八九六	-11.5627
釜	-11.5627
彚	-11.5627
勅	-11.5628
幕	-11.5628
彖	-11.5628
扁	-11.5628
熖	-11.5628
嗜	-11.5629
日辰年命	-11.563
睢	-11.563
開倉庫	-11.5631
陛	-11.5631
索隠曰	-11.5632
一丈三尺	-11.5632
踞	-11.5633
巫咸曰嵗星守	-11.5633
初行其道起於	-11.5633
迂	-11.5633
灑	-11.5634
寒熱	-11.5634
松栢	-11.5634
皇恩	-11.5635
頴	-11.5635
掀	-11.5636
祼	-11.5636
弋	-11.5636
謨	-11.5637
菑	-11.5637
垢	-11.5637
亘	-11.5638
偃蹇	-11.5638
弩	-11.5638
孕婦	-11.5638
婆	-11.5638
穉	-11.5644
螻	-11.5646
悖逆	-11.5646
規矩	-11.5646
漆	-11.5647
箱	-11.5648
伊川	-11.5648
桓𤣥	-11.5648
朱子語	-11.5649
垠	-11.565
卦氣圖	-11.565
日庚申時	-11.5651
釡	-11.5651
灼龜	-11.5652
缺唇	-11.5653
娶妻	-11.5653
晨昏	-11.5656
最佳	-11.5664
木火土金	-11.5664
青囊	-11.5665
匿謀	-11.5668
自一至	-11.5677
貞正也	-11.5682
張子曰	-11.5685
􁀴	-11.571
陸費墀	-11.5781
四百三十	-11.5798
民疾疫	-11.5816
刼的	-11.5898
女虚危	-11.6037
觸水龍	-11.6069
蠻夷長官司	-11.607
萬年書	-11.6079
寨	-11.6079
羖首	-11.608
踐位是謂	-11.608
官福田財	-11.6081
贅壻	-11.6083
葆	-11.6083
𤣥㝠占曰	-11.6084
共合數二十	-11.6086
魴	-11.6086
飛㢘	-11.6087
飛廉	-11.6088
選擇通書	-11.6089
項羽	-11.6089
海中占曰月犯	-11.609
敖	-11.609
腮	-11.6091
枵	-11.6091
阿脩	-11.6092
蒿矢	-11.6092
徭	-11.6093
斬刈	-11.6093
晨出東方	-11.6094
些	-11.6095
漿	-11.6095
翊	-11.6095
日丙申時	-11.6096
咽喉	-11.6096
礪	-11.6097
漢文帝	-11.6098
僕射	-11.6098
戊癸化火	-11.6098
甌	-11.6099
甲禄在寅	-11.6099
拗	-11.6099
亞	-11.61
躡	-11.61
尺是中道	-11.61
蟹	-11.6101
萊	-11.6101
䎡	-11.6102
鴨	-11.6103
醒	-11.6103
日戊申時	-11.6104
侈	-11.6104
挈	-11.6105
丙辛化水	-11.6105
銖	-11.6105
蘓	-11.6105
戕	-11.6105
鬪	-11.6106
炭	-11.6106
六庚生人	-11.6106
弹	-11.6106
吊客	-11.6106
日日鬬者	-11.6106
輔臣有誅	-11.6107
紆	-11.6107
技藝	-11.6107
滔	-11.6108
争競	-11.6108
𣺌	-11.6108
燎	-11.6109
陳蔡	-11.6109
揚子雲	-11.6109
粘	-11.6109
愧	-11.611
秃	-11.611
烹	-11.6111
譖	-11.6111
殽	-11.6112
傷官見官	-11.6112
療病	-11.6113
廹	-11.6113
服藥	-11.6113
賜諸侯	-11.6113
盈虧	-11.6113
欺詐	-11.6113
頡	-11.6114
期不出一年	-11.6114
疽	-11.6116
天一生水	-11.6116
貉	-11.6118
日庚午時	-11.6118
一本云	-11.6118
展轉	-11.612
仲吕	-11.6122
六乙生人	-11.6122
棟梁	-11.6123
委曲	-11.6127
朱鳥	-11.6128
花酒	-11.6128
偏官有制	-11.613
恁地	-11.613
亢池	-11.6132
豪富	-11.6133
産業	-11.6133
通火氣	-11.6138
分氣候三十六	-11.6142
孤鸞	-11.6145
懲	-11.6146
迤	-11.6151
宿一偏西一度	-11.6151
樸	-11.6154
州牧	-11.6233
事皆吉	-11.6283
百二十里	-11.6303
七百五十	-11.6369
石氏曰填星犯	-11.6431
眡	-11.657
横吉下有柱	-11.6572
掃舍宇	-11.6574
浴	-11.6578
栽種牧養納畜	-11.658
嵬	-11.6581
有囚色	-11.6581
有相色	-11.6582
賾	-11.6582
凋	-11.6582
神煞起例	-11.6582
留二十日以上	-11.6583
卿監	-11.6584
永樂大典	-11.6584
黄白氣入	-11.6584
㽔賓	-11.6585
斵輪	-11.6585
乾鑿度	-11.6586
戌酉申	-11.6586
擔	-11.6586
畿	-11.6587
縊	-11.6587
北落師門	-11.6587
朒	-11.6588
一百六十七億九千六百一十六萬	-11.6588
飯	-11.6588
塌	-11.6589
太乙抱蟾	-11.6589
匙	-11.6589
廵狩	-11.659
忿	-11.659
皎	-11.659
粒	-11.659
餘皆倣此	-11.6591
校尉	-11.6591
莖	-11.6591
奕	-11.6592
營室東壁	-11.6592
癱	-11.6592
窒	-11.6593
枷	-11.6593
邁	-11.6593
躭	-11.6594
慷慨	-11.6594
豳	-11.6594
㕑	-11.6595
逡	-11.6595
弃	-11.6596
行身旺運	-11.6596
枯朽	-11.6597
净	-11.6597
宥	-11.6597
獐鹿	-11.6598
學憲	-11.6598
粮	-11.6599
斧斤	-11.6599
醴	-11.6599
挑	-11.6599
甲丙戊庚壬	-11.6599
掘	-11.6599
亹	-11.66
亡神刼煞	-11.66
造微賦云	-11.66
槐	-11.66
驚惶	-11.6601
鳧	-11.6601
乙庚化金	-11.6602
柯	-11.6602
驢	-11.6602
玉枕	-11.6602
璇璣	-11.6602
開山立向修方吉開山凶	-11.6603
顓	-11.6603
承漿	-11.6603
慧	-11.6603
偕老	-11.6604
慎勿	-11.6604
棒	-11.6604
贛	-11.6604
嬰兒	-11.6605
禹貢	-11.6605
廻	-11.6605
醇	-11.6605
鑞	-11.6606
春秋感精符曰日蝕	-11.6606
訴	-11.6606
第一段	-11.6606
怙	-11.6607
連綿	-11.6607
巽坎艮坤	-11.6607
日壬寅時	-11.6607
暉	-11.6608
星欲明	-11.6609
朓	-11.6609
繆	-11.6609
紳	-11.661
駟馬	-11.661
早晚	-11.661
鈴	-11.661
輦	-11.661
昨	-11.6611
劉向以為	-11.6611
綱紀	-11.6611
燼	-11.6612
掇	-11.6612
寅午戌火局	-11.6612
慶賀	-11.6613
兾	-11.6613
痊	-11.6613
匣	-11.6614
腧	-11.6614
芽	-11.6615
嫡	-11.6615
蕪	-11.6616
俛	-11.6617
日戊寅時	-11.6618
渾儀	-11.6619
絃	-11.6619
派	-11.662
咨	-11.662
猪羊	-11.6624
火尅金	-11.6627
胄	-11.6629
尤𦂳	-11.663
蛛	-11.6635
倦	-11.6639
􁂂	-11.6645
去極七十	-11.6647
以木論	-11.6656
七爲失志	-11.6664
動搖	-11.6667
有死色	-11.6668
五爲天位	-11.667
崩太子	-11.6673
哇	-11.6673
韓楊曰熒惑	-11.6716
八百四十	-11.6735
去極一百	-11.6757
入畢中	-11.6835
欽定四庫全書唐開元占經卷一百	-11.6889
韓楊曰	-11.6983
嗣位是謂	-11.7079
春秋潜潭巴曰	-11.7083
曲沃	-11.7084
亭亭	-11.7092
有休色	-11.7095
爾雅	-11.71
逰魂	-11.7102
横吉揄仰	-11.7103
曺	-11.7103
以㑹經運	-11.7104
宓	-11.7104
宴樂	-11.7106
鴈侣	-11.7106
上表章	-11.7108
綵	-11.7109
祇	-11.7109
沱	-11.711
與太白合	-11.711
五穀不登	-11.7112
賦歛	-11.7112
夰	-11.7112
竝	-11.7113
靨	-11.7113
少昊	-11.7113
陽男隂女	-11.7113
栢	-11.7114
涿	-11.7114
未當至而至多病	-11.7114
不出九十日	-11.7115
瀝	-11.7115
用四十有九	-11.7115
鉅	-11.7116
日禄歸時	-11.7116
徐廣曰	-11.7116
儻	-11.7116
有星孛于	-11.7116
斧鑕	-11.7116
丕	-11.7117
春秋元命包曰	-11.7117
按周髀長	-11.7117
塜	-11.7117
徭役	-11.7117
月恩四相時徳	-11.7117
啇	-11.7118
婁金狗	-11.7118
哺	-11.7119
憤	-11.7119
潛潭巴曰	-11.7119
宜天徳月徳天徳合月徳合天赦天願	-11.7119
日壬申時	-11.712
疋	-11.712
相為表裏	-11.712
三百八十四爻	-11.712
雞雉	-11.7121
喝	-11.7121
石氏曰有星入	-11.7121
恪	-11.7121
巔	-11.7122
鰥	-11.7122
考靈曜	-11.7122
瀛	-11.7122
蘆	-11.7122
日癸亥時	-11.7122
娼妓	-11.7122
日辛巳時	-11.7122
利見大人	-11.7123
蜚	-11.7124
穹	-11.7124
揑	-11.7124
雲氣在敵陣上	-11.7124
都尉	-11.7124
搃	-11.7124
行人未還	-11.7124
彘	-11.7125
抗	-11.7125
婿	-11.7125
白日生人	-11.7125
徼	-11.7125
液	-11.7125
債	-11.7125
暴虐	-11.7126
燿	-11.7126
扶桑	-11.7126
天羅地網	-11.7126
崢	-11.7128
聰慧	-11.7128
樞紐	-11.7128
苞	-11.7129
滎	-11.7129
迄	-11.7129
咀	-11.7129
乙與庚合	-11.7129
其救也	-11.7129
辰午酉亥	-11.7129
痔	-11.7129
寅午戍	-11.7129
愽	-11.713
猿猴	-11.713
洪範傳曰	-11.713
上尅下	-11.713
攴	-11.713
柴	-11.7131
諒	-11.7131
爐冶	-11.7131
朕	-11.7131
勁	-11.7132
釵	-11.7132
兀	-11.7133
下獄死	-11.7134
萬有一千五百二十	-11.7135
恍	-11.7136
丁與壬合	-11.7137
棿擬之	-11.7137
紫綬	-11.7138
瓜	-11.7138
螫	-11.7138
萌芽	-11.714
抛	-11.714
閻東叟云	-11.7141
鋤	-11.7141
刀劍	-11.7141
湘	-11.7141
笏	-11.7142
歇滅	-11.7143
場	-11.7143
日甲寅時	-11.7144
李淳風	-11.7144
這裏	-11.7144
六丙生人	-11.7147
四分之一	-11.7147
萬五千里	-11.7149
滋潤	-11.7149
蹶	-11.7149
暨	-11.7149
隐	-11.7151
妖孽	-11.7153
揭	-11.7155
傒	-11.7156
九百七十	-11.7164
瘋	-11.7167
立劵交易	-11.7187
昦	-11.7196
宿一偏東二度	-11.7208
之貌也	-11.7223
色慾	-11.7271
婺女	-11.728
四十九内減之餘二十	-11.7289
又占曰填星	-11.7477
四百五十	-11.7502
下尅上	-11.7552
廐	-11.757
弁	-11.7641
栁星張	-11.765
棓	-11.7652
臉	-11.7652
招搖	-11.7654
首仰足肣身折内外相應	-11.7654
滄	-11.7656
河圗曰	-11.7659
冉	-11.766
茶	-11.7661
上官赴任臨政親民	-11.7662
赤地千里	-11.7662
瘧	-11.7664
衙	-11.7664
蕾	-11.7664
邢	-11.7664
峽	-11.7665
行幸遣使安撫邊境選將訓兵	-11.7665
易妖占曰	-11.7665
朔日有食之	-11.7667
辦	-11.7667
晉陽秋曰	-11.7668
妻賢子孝	-11.7668
皮膚	-11.7669
譚	-11.7669
日戊午時	-11.767
外髙内下	-11.767
亳	-11.7671
舟船	-11.7671
晉灼曰	-11.7671
天德月德天德合月德合	-11.7672
姨	-11.7672
分三更亥正三刻	-11.7672
員郎	-11.7673
𧺫	-11.7673
僉	-11.7674
五百一十二	-11.7674
劉歆	-11.7674
坤艮坎巽	-11.7674
嘴	-11.7675
悶	-11.7675
徐子平	-11.7675
眷	-11.7675
聞喜不喜	-11.7675
有黒子	-11.7676
痢	-11.7676
漤	-11.7676
逈	-11.7676
北極出地	-11.7676
搶	-11.7676
氣質之性	-11.7676
分一更戌初	-11.7676
齋戒	-11.7677
桞	-11.7677
倖	-11.7677
穿鑿	-11.7677
熄	-11.7677
鬼旺身衰	-11.7677
郵	-11.7677
惆悵	-11.7678
淚	-11.7678
伶俐	-11.7678
日丙午時	-11.7679
甲丙庚壬	-11.7679
戌刑未	-11.7679
梵	-11.7679
􁁊	-11.768
汜	-11.768
隂男陽女	-11.768
琴瑟	-11.768
娛	-11.768
韶	-11.768
撒	-11.768
日庚子時	-11.768
秀而不實	-11.7681
濤	-11.7682
淆	-11.7682
垓	-11.7682
磑	-11.7683
畱	-11.7683
濵	-11.7683
鴉	-11.7683
巽離兊	-11.7683
澆	-11.7683
尺有五寸	-11.7684
聰俊	-11.7684
甲巳化土	-11.7684
尅妻害子	-11.7684
掲	-11.7684
啖	-11.7684
所喜者	-11.7685
俯仰	-11.7685
日壬辰時	-11.7685
滴	-11.7685
隤	-11.7686
噫	-11.7687
日癸巳時	-11.7687
渝	-11.7688
眇	-11.7689
豎造	-11.7689
嘔	-11.7689
㨗	-11.7689
眩	-11.769
市樓	-11.7691
龎	-11.7691
西王母	-11.7691
帑	-11.7692
日庚寅時	-11.7692
姒	-11.7693
乾亥兌丁	-11.7693
翅	-11.7693
禎祥	-11.7694
洋洋	-11.7694
沮	-11.7695
牖	-11.7695
羨	-11.7696
行西運	-11.7697
恕	-11.7697
山澤通氣	-11.7698
誓	-11.7698
動而生陽	-11.7698
左掖門	-11.77
𡨕	-11.7701
叩	-11.7701
碓	-11.7701
日甲申時	-11.7701
尢	-11.7702
晡	-11.7703
財生官	-11.7705
螽	-11.7705
蔓	-11.7708
冀雍	-11.7708
呈兆	-11.7711
弇	-11.7717
尺八寸	-11.7768
榦	-11.7773
陳卓曰客星	-11.7869
河圖帝覽嬉曰	-11.797
孝經内記曰	-11.8009
四十九内減之餘	-11.8064
陸費墀欽定四庫全書	-11.8069
辛巳壬午癸未甲申乙酉丙戌丁亥戊子	-11.8193
四千六	-11.8213
襯	-11.8241
以元經㑹	-11.8242
褰	-11.8242
首仰足肣有内無外	-11.8244
閱	-11.8244
瘢	-11.8247
郢	-11.8247
孝經内記圖曰日	-11.8247
隲	-11.8247
潜潭巴曰	-11.8251
矛盾	-11.8251
秦始皇	-11.8252
行惠愛雪寃枉緩刑獄	-11.8252
丑刑戌	-11.8253
彦	-11.8253
辰與酉合	-11.8253
高宗日傍氣圖曰日	-11.8254
天寶厯曰	-11.8255
迤邐	-11.8256
三命通㑹卷	-11.8256
黃帝曰客星	-11.8257
泆	-11.8258
轉禍為福	-11.8258
韋昭洞紀曰	-11.8259
一萬八百	-11.8259
騷	-11.8259
分旦刻卯初	-11.8259
財命有氣	-11.826
司馬遷天官書曰	-11.8261
塟	-11.8261
宜天徳月徳天徳合月徳合	-11.8261
丰	-11.8261
俸	-11.8262
鳳凰	-11.8262
憚	-11.8262
丙合辛	-11.8262
參天兩地	-11.8262
冡宰	-11.8262
鰲	-11.8262
涂	-11.8262
凹	-11.8263
誦	-11.8263
龔	-11.8263
侏	-11.8263
壻	-11.8263
天馬地驛	-11.8264
鬼谷子云	-11.8264
官至三品	-11.8264
先難後易	-11.8265
巡狩	-11.8265
皂	-11.8265
窮理盡性	-11.8266
杯	-11.8266
尚書中候曰	-11.8266
先貧後富	-11.8266
戊與癸合	-11.8266
尠	-11.8266
忌月破平日收日	-11.8266
諷	-11.8267
璞	-11.8267
隂陽老少	-11.8267
日乙亥時	-11.8267
焦延壽曰	-11.8267
咳	-11.8267
袁天綱云	-11.8268
日乙巳時	-11.8268
閹	-11.8268
日癸未時	-11.8268
天網四張	-11.8268
劉裕	-11.8268
門為直使	-11.8269
靈憲曰	-11.8269
泓	-11.8269
聼	-11.8269
粱	-11.8269
緇	-11.8269
日丁亥時	-11.8269
日甲午時	-11.827
去煞留官	-11.827
日丁未時	-11.827
峰	-11.827
鉛	-11.8271
日辛酉時	-11.8271
瀦	-11.8271
嫉	-11.8271
堕	-11.8271
鴛鴦	-11.8271
不註宜	-11.8272
貪婪	-11.8272
犧牲	-11.8272
夙	-11.8273
魅	-11.8273
亟	-11.8273
寥	-11.8274
元一白乾六白坤八白巽九紫中	-11.8274
背禄逐馬	-11.8274
三方對照	-11.8274
陌	-11.8274
隧	-11.8274
囂	-11.8274
琢	-11.8274
洲	-11.8275
室火猪	-11.8275
正謂此也	-11.8275
跖	-11.8276
飛天禄馬	-11.8276
吉無不利	-11.8276
日辛未時	-11.8276
炤	-11.8276
前二辰為	-11.8277
元一白巽六白離八白坤九紫震	-11.8277
田庄	-11.8277
蟻	-11.8278
怖	-11.8278
肣	-11.8278
巫醫	-11.828
癰	-11.828
鳳閣	-11.8281
攅	-11.8282
瀉	-11.8283
司馬懿	-11.8283
渚	-11.8284
易書詩春秋	-11.8285
睹	-11.8286
衷	-11.8286
九九八十一	-11.8287
只是一箇	-11.8288
獺	-11.8288
刻及分	-11.8289
絓	-11.8291
卲	-11.8291
無極而太極	-11.8291
碣	-11.8292
濯	-11.8296
焱	-11.8296
淄	-11.8301
從中起	-11.8309
痼	-11.8309
翠	-11.831
𬎼	-11.8311
三爲進人	-11.8323
壬申癸酉甲戌乙亥丙子丁丑戊寅己卯	-11.8335
四爲公侯	-11.8348
百四十有四	-11.8536
四百七十	-11.8575
星學大成卷十	-11.8752
五百五十	-11.8798
雒	-11.8801
簇長官司	-11.8829
軍民府	-11.8855
横吉上有仰下有柱	-11.8862
册	-11.8865
平治道塗	-11.8869
文志曰晉	-11.8871
彎	-11.8872
中伺其出日而數之	-11.8875
急急如律令	-11.8875
近中宫故為	-11.8875
故所忌如此	-11.8875
乾兊离震	-11.8876
栽種	-11.8876
三四品貴	-11.8877
洮	-11.8877
謫戍	-11.8877
出師上官赴任臨政親民	-11.8878
直之日宜	-11.8878
鄂	-11.8878
日乙酉時	-11.8879
舘	-11.8879
行東南運	-11.888
不貴則富	-11.888
榭	-11.888
陪	-11.8881
春秋圖曰嵗星	-11.8881
番	-11.8882
耽	-11.8882
御定星厯考原	-11.8882
誡	-11.8882
啾	-11.8883
止忌安撫邊境選將訓兵出師	-11.8883
者言乎其	-11.8883
嫉妬	-11.8883
姚萇	-11.8884
日丙子時	-11.8884
出貨財	-11.8885
隄	-11.8885
三易洞璣卷	-11.8885
黿	-11.8886
期八十日	-11.8886
仁義禮智	-11.8886
話	-11.8887
甦	-11.8888
聫	-11.8888
值之日宜	-11.8889
寔	-11.8889
病者瘥	-11.8889
財官雙美	-11.8889
涇	-11.889
阡	-11.889
有千里之行	-11.889
炙	-11.889
隗	-11.889
撥	-11.889
日丙戌時	-11.8892
迯	-11.8892
如前説	-11.8892
冏	-11.8893
日乙未時	-11.8893
勘	-11.8893
日甲辰時	-11.8893
貿	-11.8893
璺	-11.8894
日戊子時	-11.8894
尾火虎	-11.8894
溝渠	-11.8894
直足直	-11.8895
核	-11.8895
日丁酉時	-11.8895
蔚	-11.8895
窘	-11.8896
影響	-11.8896
豺狼	-11.8896
讙	-11.8896
釀	-11.8896
𠻳	-11.8897
當憂不憂	-11.8897
蛤	-11.8897
隂中之陽	-11.8898
惱	-11.8898
岷	-11.8899
仆	-11.8899
勑	-11.8899
杏	-11.89
六壬大全	-11.8901
日壬午時	-11.8902
炬	-11.8902
京房妖占曰	-11.8902
五總龜	-11.8902
滚	-11.8902
噎	-11.8903
日己亥時	-11.8903
貸	-11.8903
竺	-11.8903
誌	-11.8903
宿雲氣干犯占	-11.8904
常居月建前	-11.8904
去官留煞	-11.8905
䆒	-11.8905
胎生元命	-11.8905
蔑	-11.8905
軒昻	-11.8906
岑	-11.8906
怎	-11.8907
汎	-11.8907
矯	-11.8907
裡	-11.8907
羔	-11.8907
繳	-11.8908
栖	-11.8909
轡	-11.8909
飄蕩	-11.891
署	-11.891
魏氏圖曰	-11.8911
藪	-11.8912
詣	-11.8912
日辛亥時	-11.8912
猫	-11.8913
頺	-11.8914
沽	-11.8914
祛	-11.8915
荄	-11.8915
甲與巳合	-11.8915
蛾	-11.8916
祸	-11.8918
犧	-11.8919
顙	-11.8921
斡	-11.8922
閎	-11.8925
􁃦	-11.8926
摹	-11.8927
日壬子時	-11.8939
曆	-11.894
年乙丑丙寅丁卯戊辰己巳庚午辛未	-11.8941
訾	-11.8943
之初一日入	-11.8953
􁜤	-11.8964
日癸丑時	-11.8993
有暴兵	-11.9001
度半在黄道	-11.9336
丅凶丅凶丅凶丅凶	-11.9495
五百九十	-11.9524
横吉内外自橋	-11.9526
郤	-11.9529
譜	-11.9533
選擇宗鏡	-11.9534
月恩四相	-11.9534
安撫邊境選將訓兵出師	-11.9534
抱朴子曰	-11.9535
船渡水	-11.9535
横吉内外相應自橋揄仰上柱足足肣	-11.9536
脁	-11.9537
臀	-11.9538
曇瑩	-11.9541
羌	-11.9541
解除求醫療病	-11.9542
營建宫室	-11.9542
枲	-11.9542
宓圗	-11.9543
髭	-11.9543
赫赫	-11.9543
㝷	-11.9544
子與丑合	-11.9545
聲如雷	-11.9546
詔命公卿招賢	-11.9546
諏訾	-11.9546
天下更政	-11.9547
神藏煞沒	-11.9547
九州殊口	-11.9547
綰	-11.9548
醮	-11.9549
市賈有利	-11.9549
三更子初一刻	-11.9549
行木火運	-11.955
聖人作易	-11.955
蹙	-11.955
愍	-11.9551
乙巳丙午丁未戊申己酉	-11.9551
羗	-11.9551
乾兊離震	-11.9551
子寅辰午申戌	-11.9551
楯	-11.9552
噀	-11.9552
摘亡辟曰	-11.9552
診	-11.9552
四大吉時	-11.9552
殖	-11.9553
甕	-11.9553
雒罪級曰	-11.9553
舟楫	-11.9553
羲軒	-11.9554
與填星合	-11.9554
樞要歴曰	-11.9554
鬼金羊	-11.9555
樊	-11.9555
日辛丑時	-11.9556
以入日占	-11.9556
一看命	-11.9556
欽定四庫全書三易洞璣卷	-11.9556
天統乎體	-11.9556
蓐	-11.9556
㐮	-11.9557
綜	-11.9557
揷	-11.9557
浚	-11.9557
騮	-11.9557
土埋雙女	-11.9558
葦	-11.9558
井木犴	-11.9559
坊	-11.9559
涌	-11.9559
人生子無	-11.9559
琴	-11.9559
月金水運	-11.956
分隂分陽	-11.956
陜	-11.956
㓗	-11.956
􁁜	-11.956
税	-11.9561
日丁丑時	-11.9561
車騎滿野	-11.9561
狢	-11.9562
遡	-11.9562
殻	-11.9562
店	-11.9562
妒	-11.9562
斵削	-11.9562
縉	-11.9563
天一地二天	-11.9563
曷	-11.9563
焌	-11.9563
悮	-11.9563
寰	-11.9564
艮六白巽八白乾九紫兌	-11.9564
瓠	-11.9564
血支血忌	-11.9564
日癸酉時	-11.9565
昩	-11.9565
中六白坎八白震九紫巽	-11.9565
寂寞	-11.9565
日己酉時	-11.9565
日戊戌時	-11.9565
舂	-11.9566
日己未時	-11.9566
異苑曰	-11.9566
坤六白兌八白離九紫坎	-11.9566
戶	-11.9567
日丙辰時	-11.9567
蓮	-11.9567
十二吉山宜巳酉丑亥卯未年月日時	-11.9568
攣	-11.9569
鎬	-11.9569
插	-11.9569
妍	-11.9569
化煞為權	-11.957
凋零	-11.957
嗑	-11.957
瑜	-11.957
凡㸔命	-11.9571
角木蛟	-11.9571
舛	-11.9571
匏	-11.9571
愎	-11.9571
覊絆	-11.9571
襦	-11.9572
苫	-11.9574
韜	-11.9575
㵼	-11.9575
鵰	-11.9575
外頗同	-11.9576
蒭	-11.9577
理之自然	-11.9577
牟	-11.9579
换	-11.9579
鴟	-11.9582
曽文辿	-11.9582
孥	-11.9583
礥	-11.9583
日己丑時	-11.9589
漣	-11.9592
暘	-11.9592
㽔	-11.9595
人生六畜有	-11.9598
闈	-11.96
顒	-11.96
太玄經卷第	-11.9604
韯	-11.9623
丮	-11.964
赤如血	-11.9641
亥戊子己丑庚寅辛卯壬辰癸巳經世之	-11.965
甲辰乙巳丙午丁未戊申己酉庚戌辛亥	-11.9733
星占五十	-11.9895
衛軍民指揮使司	-12.0225
峒	-12.0232
時月将申加	-12.0237
其進舍也	-12.0238
整容剃頭整手足甲	-12.0247
蛀	-12.0248
僖	-12.025
中赤外青	-12.0251
蝀	-12.0252
外卦初爻	-12.0253
演孔圖曰	-12.0254
總要歴曰	-12.0255
各從其類	-12.0255
職元局主	-12.0255
兵發伺始入處之率一日期十日軍罷	-12.0256
慶賜賞賀宴㑹	-12.0256
居其旁則取	-12.0256
鷙	-12.0257
納采問名	-12.0257
䕫	-12.0258
砧	-12.0259
瑯琊王	-12.0259
所宿之國	-12.0259
牂	-12.0259
踒	-12.0261
鄭𤣥注	-12.0261
施恩封拜	-12.0261
鄆	-12.0261
日暈而珥	-12.0261
日有食之	-12.0262
東官候曰	-12.0262
行金水運	-12.0262
殤	-12.0262
嫗	-12.0264
六千五百六十一	-12.0264
恓惶	-12.0264
兩干不雜	-12.0265
幙	-12.0265
分今厯景長	-12.0265
贈	-12.0265
順飛九宫	-12.0265
酆	-12.0265
奄	-12.0266
侣	-12.0267
詹	-12.0267
修造動土	-12.0267
求財物買臣妾馬牛	-12.0267
赫奕	-12.0268
䧏	-12.0269
啣	-12.0269
始擊將	-12.0269
唾	-12.0269
撲	-12.027
阪	-12.027
鼐	-12.027
棺槨	-12.0271
冗	-12.0271
挽	-12.0271
稅	-12.0271
當此之時	-12.0271
沓	-12.0271
脅	-12.0271
凡所忌者則不註宜所宜者亦不註忌	-12.0271
捷	-12.0272
罟	-12.0272
冽	-12.0272
鍼	-12.0272
駢	-12.0273
金騎人馬	-12.0273
石氏曰彗孛干犯	-12.0273
四分度之一	-12.0274
遐齡	-12.0274
賄	-12.0274
謐	-12.0274
梏	-12.0275
溶	-12.0275
欽定四庫全書子部七提要	-12.0275
㤙	-12.0275
壬禄在亥	-12.0276
衮	-12.0276
緋	-12.0276
弦望晦朔	-12.0276
巒	-12.0277
簷	-12.0277
麞	-12.0277
髻	-12.0277
宜守舊	-12.0278
畛	-12.0278
二十八宿山經曰	-12.0278
剗	-12.0279
加一級	-12.0279
終而復始	-12.0279
痰	-12.0279
星伴月	-12.0279
旛	-12.028
䋲	-12.028
漳	-12.028
僮	-12.0281
冐	-12.0281
鶚	-12.0281
茲	-12.0281
為應造葬後	-12.0281
飭	-12.0282
斵	-12.0282
禍百端	-12.0282
孟仲季	-12.0283
昱	-12.0283
轍	-12.0283
杭	-12.0284
滔滔	-12.0284
騁	-12.0284
燧	-12.0285
刋	-12.0287
笙	-12.0288
隼	-12.0288
磬	-12.0288
揫	-12.0289
佐助期曰	-12.029
愕	-12.029
姙	-12.029
燾	-12.0291
幃	-12.0291
跙	-12.0292
脹	-12.0292
犢	-12.0292
惰	-12.0292
涕	-12.0293
虓	-12.0295
㕔	-12.0295
蹲	-12.0296
原發㣲	-12.0297
膻	-12.0297
金白水清	-12.03
粥	-12.03
殄	-12.0301
螮	-12.0301
翮	-12.0306
么	-12.0306
滓	-12.0308
兟	-12.0309
轟	-12.031
幂	-12.031
溝壑	-12.031
之謂也修夫	-12.0314
寘	-12.0315
日酌行	-12.0317
槽	-12.0319
臣中兵也	-12.032
竦	-12.032
攡	-12.0322
辵	-12.0334
眎	-12.0335
六爲上禄	-12.0347
郗萌占曰	-12.0433
時月将戌加	-12.0962
犬生六畜	-12.0985
周顯王	-12.0986
嚎	-12.0996
宣撫司	-12.0999
四千九十	-12.1
占卷一百	-12.1001
公卒世子	-12.1002
土符地囊土王用事後	-12.1002
首仰足肣内髙外下	-12.1006
扈	-12.1009
時月将午加	-12.1015
欒	-12.1021
晨見東方	-12.1022
易飛候曰天雨	-12.1022
兕	-12.1023
時月将未加	-12.1023
期三年逺五年	-12.1024
盻	-12.1025
土王用事	-12.1026
沈芝云	-12.1026
跎	-12.1027
螢	-12.1028
○○/○○○○○○)	-12.1028
未可便言	-12.1028
參同契	-12.1028
太乙金鏡式經	-12.1028
軍民宣慰使司	-12.1029
破土安葬啟攢	-12.1029
猷	-12.103
土厚地方	-12.103
土能生金	-12.103
妁	-12.1031
杞	-12.1031
卯與戌合	-12.1031
一南一北	-12.1031
衘	-12.1031
午與未合	-12.1031
煦	-12.1031
隂陽二遁	-12.1031
巳與申合	-12.1032
甲與己合	-12.1032
岩	-12.1032
東海王越	-12.1032
不貧則夭	-12.1032
麦	-12.1033
跪	-12.1033
蜜	-12.1034
組	-12.1034
行東北運	-12.1034
劉向洪範傳曰	-12.1034
薊	-12.1035
下一爻變	-12.1035
葵	-12.1036
鰍	-12.1036
諸葛亮	-12.1037
乙丁己辛癸	-12.1037
臰	-12.1037
末助初	-12.1037
饕	-12.1037
什	-12.1038
俠	-12.1038
芬	-12.1038
疉	-12.1038
羈	-12.1039
瞭	-12.1039
八尺之表	-12.104
鱔	-12.104
儔	-12.104
石氏外官	-12.104
熬	-12.104
癩	-12.104
窈窕	-12.104
羮	-12.1041
煆煉	-12.1041
琨	-12.1041
囹圄	-12.1042
紙	-12.1042
鰌	-12.1042
猩	-12.1042
歆	-12.1043
五位相得而各有合	-12.1043
塘	-12.1043
死於非命	-12.1043
槖	-12.1044
邃	-12.1045
迨	-12.1046
邕	-12.1047
生生不窮	-12.1047
翩	-12.1047
鬛	-12.1047
闓	-12.1048
晦朔弦望	-12.1048
癰疽	-12.1048
慵	-12.1048
邇	-12.1048
駙	-12.1048
弛	-12.1048
恙	-12.1049
膈	-12.1049
雨風露雷	-12.1049
譙	-12.105
窰	-12.105
人倫風鑑云	-12.105
臣不忠	-12.105
建子之月	-12.1052
甲寅辰巽戌坎辛申丑癸坤	-12.1053
悠悠	-12.1053
咋	-12.1053
料	-12.1054
覓	-12.1054
氛	-12.1054
貲	-12.1054
諾	-12.1054
瞿	-12.1055
痍	-12.1055
雷風相薄	-12.1056
濓溪	-12.1056
瓊	-12.1056
毬	-12.1056
作日之財	-12.1057
攬	-12.1058
昃	-12.1058
斿	-12.1059
玉霄寶鑑	-12.106
婉	-12.106
晁	-12.106
在赤道外	-12.1061
甲以辛為官	-12.1061
揣	-12.1061
呵	-12.1062
一隂一陽之謂道	-12.1062
三三而九	-12.1063
彬	-12.1063
侔	-12.1064
埃	-12.1065
太白與歳星	-12.1065
焯	-12.1066
九千九百	-12.1067
互為其根	-12.1069
艶	-12.1069
尭	-12.1071
鹹	-12.1075
齦	-12.1076
悸	-12.1076
昔人所謂	-12.1079
棿	-12.1084
侖	-12.1095
茾	-12.1097
兢	-12.1098
慙	-12.1102
睒	-12.1107
徇	-12.1114
舩	-12.1123
囧	-12.1125
百五十里	-12.1247
文志曰孝	-12.1549
劫煞災煞月煞月刑月害月厭	-12.1804
周敬王	-12.182
旭	-12.1824
丨凶丨凶丨凶丨凶	-12.1825
時月将巳加	-12.1831
韓趙魏	-12.1833
霰	-12.1835
月日蝕不見光	-12.1836
􁃽	-12.1839
盾	-12.1841
在壬亥之間	-12.1842
豸	-12.1846
潼	-12.1847
首仰足開有内	-12.185
春秋漢含孳曰	-12.1851
倐	-12.1852
行幸遣使	-12.1852
幡	-12.1854
棋	-12.1855
嶠	-12.1856
女人入此相者	-12.1857
度於辰在	-12.1857
鴞	-12.1858
天子自將兵	-12.1858
朢	-12.1859
猬	-12.1859
五六品貴	-12.1859
裒	-12.186
諱	-12.1861
簪	-12.1862
長星短星	-12.1862
禎	-12.1863
河鼓二偏東	-12.1864
破屋壞垣	-12.1864
喆	-12.1864
叨	-12.1864
羆	-12.1864
臑	-12.1864
握鏡曰	-12.1864
兩軍相當	-12.1865
嬉	-12.1866
姐	-12.1867
薫	-12.1868
以月建入中宫	-12.1868
長數丈	-12.1869
用事宜忌具於表欽定協紀辨方書卷	-12.1869
日右六十干支從建	-12.187
日壬戌大海水伐	-12.187
日戊午天上火義	-12.187
裴	-12.187
卬	-12.187
日甲辰覆燈火制	-12.187
日戊子霹靂火制	-12.1871
日甲寅大溪水專	-12.1871
星命溯源	-12.1871
日乙酉井泉水伐	-12.1871
日庚戌釵釧金義	-12.1871
日癸丑桑柘木伐	-12.1871
日丁亥屋上土伐	-12.1871
日丁酉山下火制	-12.1871
日丙申山下火制	-12.1871
日甲申井泉水伐	-12.1871
日癸巳長流水制	-12.1871
萬一千五百二十	-12.1871
日壬辰長流水伐	-12.1871
日丙寅鑪中火義	-12.1871
憒	-12.1872
日乙丑海中金制	-12.1872
日己巳大林木義	-12.1872
日庚辰白鑞金義	-12.1872
日辛未路傍土義	-12.1872
日己亥平地木制	-12.1872
日甲戌山頭火制	-12.1872
房日兎	-12.1872
拱禄拱貴	-12.1872
日丙子澗下水伐	-12.1872
日庚午路傍土伐	-12.1872
日戊寅城頭土伐	-12.1872
綉	-12.1872
甘氏占曰	-12.1872
王者以赦除咎	-12.1873
宿雲氣干犯占蒼白雲氣入	-12.1873
圡	-12.1874
宮初度是為	-12.1874
趂	-12.1874
之課象曰	-12.1875
控	-12.1875
譛	-12.1875
殫	-12.1875
十惡大敗	-12.1875
元一白震六白艮八白坎九紫坤	-12.1875
幟	-12.1876
堦	-12.1877
張月鹿	-12.1877
䍧	-12.1877
縛	-12.1877
牒	-12.1877
杳	-12.1878
箒	-12.1878
勹	-12.1878
邈	-12.1878
糠	-12.1878
膩	-12.1878
呌	-12.1879
五榖不登	-12.1879
躔斗宿號天	-12.1879
寂然至無	-12.1879
一中一下	-12.1879
地分乎用	-12.188
袤	-12.1881
蚕	-12.1881
元之元之元	-12.1881
懈	-12.1881
一寒一暑	-12.1881
旻	-12.1881
旡	-12.1882
瞬	-12.1882
蘖	-12.1882
嵗枝德	-12.1882
守窮途而恓惶	-12.1882
天目外迫	-12.1883
躔婁宿號天	-12.1883
苐	-12.1883
擎	-12.1883
蔣	-12.1884
軋	-12.1884
門為直使管十時	-12.1884
襍	-12.1884
迥	-12.1885
藜	-12.1885
羝	-12.1886
星神常居其上	-12.1886
䲭	-12.1887
䟦	-12.1887
誨	-12.1887
觀物内篇之	-12.1888
趯	-12.1888
癘	-12.1889
有吉有凶	-12.1889
賭	-12.189
􁈯	-12.189
耜	-12.189
抄	-12.1892
萬無一失	-12.1893
逵	-12.1894
蠧	-12.1894
一動一静	-12.1894
離壬丙乙	-12.1894
兠	-12.1895
方州部家	-12.1895
擺	-12.1896
閲	-12.1896
堰	-12.1897
害命坐人	-12.1898
千變萬化	-12.1898
嚚	-12.1899
沂	-12.19
譏	-12.19
噴	-12.1901
沼	-12.1901
馬生六畜	-12.1902
脆	-12.1902
廣雅曰	-12.1903
鯨	-12.1903
螺	-12.1906
雙山五行	-12.1906
渥	-12.1907
杲	-12.1908
磊	-12.1909
廖	-12.1912
詎	-12.1917
輟	-12.1923
人生六畜無	-12.1926
奧	-12.1926
蛙	-12.1934
䦯	-12.1946
壬子癸丑甲寅乙卯丙辰丁巳戊午	-12.2021
巳戊午己未庚申辛酉壬戌癸亥經世之	-12.2082
度少去極	-12.2499
丙寅丁卯戊辰己巳庚午辛未壬申癸酉	-12.2673
鶉	-12.2687
翦	-12.2709
月災祥見在	-12.272
獅	-12.2722
湣	-12.2746
逋	-12.2746
鞅	-12.2753
煇夢契響	-12.2753
州按禹貢	-12.2754
先富後貧	-12.2755
謂年月日時胎	-12.2757
四中一下	-12.2759
墓神覆日	-12.2759
卭	-12.276
厯上元甲子至今	-12.276
時斷六庚日生時	-12.2761
陳卓曰彗孛干犯	-12.2762
滕	-12.2762
濮	-12.2763
顆	-12.2764
兵喪並起	-12.2765
星隕如雨	-12.2765
晃	-12.2765
𠂻	-12.2766
唐瞿曇悉逹撰	-12.2766
顗	-12.2766
屬尾箕分	-12.2766
塩	-12.2768
楫	-12.2768
讚	-12.2768
期一年逺三年	-12.2769
武后改元	-12.2769
者月中凶神也其日忌	-12.2769
時斷六丙日生時	-12.2769
時斷六壬日生時	-12.277
唐王希明撰	-12.277
𣲖	-12.277
薇	-12.277
忌祈福求嗣上册進表章	-12.277
毌	-12.2771
駮	-12.2771
隙	-12.2771
鸜	-12.2771
儋	-12.2772
痺	-12.2772
蜮	-12.2772
時時日併衝憂傷妻子	-12.2773
膓	-12.2773
彛	-12.2773
發屋折木	-12.2773
共合數三十	-12.2773
沅	-12.2774
祿馬同鄕	-12.2774
時斷六戊日生時	-12.2774
其於十二子為	-12.2775
長十餘丈	-12.2775
君臣慶㑹	-12.2775
稳	-12.2775
槁	-12.2776
斃	-12.2776
三台八座	-12.2776
月也律中	-12.2776
朧	-12.2776
祲	-12.2777
天衝地擊	-12.2777
成變化而行鬼神	-12.2778
暝	-12.2778
一行禪師	-12.2778
樑	-12.2778
自將兵於野	-12.2778
𦙍	-12.2779
辰戍丑未	-12.2779
扛	-12.2779
日庚申石榴木專	-12.2779
卜法詳考	-12.2779
日辛酉石榴木專	-12.2779
晨出夕	-12.278
賂	-12.278
譲	-12.278
日己未天上火專	-12.278
娠	-12.278
鹵	-12.278
宋均注曰	-12.278
蠲	-12.278
亂臣在内	-12.278
日戊戌平地木專	-12.278
日辛丑壁上土義	-12.2781
塔	-12.2781
日出入晝夜時刻	-12.2781
袴	-12.2781
求醫療病餘皆不忌	-12.2781
乘軒衣冕	-12.2781
用癸乙丁辛時	-12.2781
膞	-12.2781
日乙亥山頭火義	-12.2782
日乙未砂石金制	-12.2782
日辛巳白鑞金伐	-12.2782
躔畢宿號天	-12.2782
箕水豹	-12.2782
札	-12.2782
毓	-12.2783
月中日躔在	-12.2783
柰	-12.2783
二中二下	-12.2783
用艮巽坤乾時	-12.2784
月波洞中記	-12.2784
塚	-12.2784
而蝕戒之在	-12.2784
吃	-12.2784
擕	-12.2785
湎	-12.2785
叟	-12.2785
飡	-12.2785
槎	-12.2785
儈	-12.2785
躔張宿號天	-12.2785
躔心宿號天	-12.2786
詢	-12.2786
疴	-12.2786
踪	-12.2786
峩	-12.2786
弱喜旺忌	-12.2787
天數五地數五	-12.2787
騫	-12.2787
掉	-12.2788
臚	-12.2788
筥	-12.2788
庄	-12.2788
剃	-12.2788
出辰初初刻	-12.2789
脯	-12.2789
思過半矣	-12.2789
躔箕宿號天	-12.2789
欽定四庫全書六壬大全卷	-12.2789
沴	-12.2789
神頭祿乃	-12.2789
燭神經云	-12.2789
訥	-12.2789
納音屬水開山立向修方吉	-12.2789
泯	-12.2789
暑寒晝夜	-12.279
養命之源	-12.279
臘	-12.279
三中一下	-12.2791
燄	-12.2791
愷	-12.2792
蜒	-12.2792
將太衝天馬方	-12.2792
到山到向	-12.2793
欽天監時憲科天文生	-12.2793
録尚書事	-12.2793
蚩	-12.2793
猥	-12.2793
耄	-12.2793
納音屬木開山立向修方吉	-12.2793
蝶	-12.2794
隸	-12.2794
嬖	-12.2794
麾	-12.2795
氏欲為天子魏氏圖曰	-12.2795
捲	-12.2795
棠	-12.2795
滙	-12.2796
秭	-12.2796
罙	-12.2796
擲	-12.2797
揜	-12.2797
耻	-12.2797
天包地外	-12.2797
躔軫宿號天	-12.2797
躔牛宿號天	-12.2798
俄	-12.2798
孺	-12.2799
弭	-12.2799
離六白中八白兌九紫艮	-12.2799
頬	-12.28
詩㫁太陽	-12.28
𤯝	-12.2801
霹	-12.2801
福無涯	-12.2801
娥	-12.2801
揄	-12.2801
嶓	-12.2801
穫	-12.2801
嘶	-12.2802
笠	-12.2803
姪	-12.2803
簮	-12.2803
霽不霽	-12.2804
天皇大帝	-12.2804
日晝㝠者	-12.2805
眚	-12.2805
緜	-12.2805
太極是生兩儀兩儀生四象四象生八卦	-12.2806
瘖	-12.2806
塋	-12.2806
鑪	-12.2807
天地定位山澤通氣	-12.2807
天目内迫	-12.2808
償	-12.2809
萬六千二百	-12.2809
劑	-12.281
卸	-12.2812
蛄	-12.2812
摭	-12.2813
侃	-12.2813
蚤	-12.2815
艻	-12.2816
聿	-12.2817
以卜有求	-12.2817
交退伏神	-12.2817
飍	-12.2817
杠	-12.2817
俘	-12.2818
耑	-12.2818
賑	-12.2819
瘞	-12.2821
豬	-12.2822
宼	-12.2824
庡	-12.2829
窖	-12.2844
造葬後	-12.2857
百四十里	-12.292
丅吝丅吝丅吝丅吝丅吝丅吝丅吝丅吝	-12.3718
時月将酉加	-12.3718
丨咎丨咎丨咎丨咎丨咎丨咎丨咎丨咎	-12.3726
丨休丨休丨休丨休丨休丨休丨休丨休	-12.3728
時月将辰加	-12.3733
十三萬一千	-12.3735
丅休丅休丅休丅休丅休丅休丅休丅休	-12.3741
蝎	-12.3742
丨祥丨祥丨祥丨祥丨祥丨祥丨祥丨祥	-12.3742
蝟	-12.3749
噩	-12.3751
曀	-12.3752
贓	-12.3753
九經星之癸二百	-12.3754
一經星之乙二百	-12.3754
四經星之戊二百	-12.3754
二經星之丙二百	-12.3754
三經星之丁二百	-12.3755
五經星之己二百	-12.3755
經星之甲二百	-12.3755
六經星之庚二百	-12.3755
七經星之辛二百	-12.3756
賖	-12.3757
京氏易傳曰	-12.3758
也費直曰自	-12.3759
剩	-12.3761
經日之甲一經月之	-12.3761
不可舉事用兵	-12.3762
邊夷兵起	-12.3762
童謡曰	-12.3765
上册進表章	-12.3767
舡	-12.3767
柏	-12.3767
袪	-12.3767
祭祀祈福求嗣	-12.3768
禝	-12.3768
券	-12.3768
寅丑子亥	-12.3769
俚	-12.3769
時斷六丁日生時	-12.3769
翺	-12.3769
吻	-12.3769
尺而至於泉	-12.377
時斷六癸日生時	-12.377
期百八十日若一年	-12.377
大衍索隠	-12.377
劫煞災煞月煞月刑月害月厭大時天吏	-12.377
君弱臣强	-12.3771
三爻俱變為	-12.3771
欽定四庫全書太乙金鏡式經卷	-12.3771
三傳戌午寅	-12.3772
自左而右	-12.3772
䛕	-12.3773
殛	-12.3773
檀道鸞晉陽	-12.3773
晞	-12.3773
呻	-12.3774
和碩莊親王	-12.3774
漲	-12.3774
捕捉畋獵取魚	-12.3774
胙	-12.3774
京房易飛候曰	-12.3774
䦨	-12.3775
躔亢宿號天	-12.3775
躔氐宿號天	-12.3775
一萬七千二十四	-12.3776
皇甫謐曰	-12.3776
篇其次又當	-12.3776
髃	-12.3776
簇	-12.3777
臣弑其主	-12.3777
隻	-12.3777
械	-12.3777
騂	-12.3777
刑冲破害	-12.3777
軒轅十四偏西	-12.3777
除舊布新	-12.3778
旬尾加旬首	-12.3778
悵	-12.3778
其失次見於	-12.3778
洒	-12.3779
日丁巳沙中土專	-12.3779
日丙午天河水專	-12.3779
日己丑霹靂火專	-12.3779
証	-12.3779
明時總要曰	-12.3779
躔觜宿號天	-12.3779
日壬子桑柘木專	-12.3779
複	-12.378
日戊辰大林木專	-12.378
唆	-12.378
禮斗威儀曰	-12.378
日癸亥大海水專	-12.378
時月将子加	-12.378
諂	-12.378
六儀擊刑	-12.3781
桎	-12.3782
生人以為暗星	-12.3782
躔房宿號天	-12.3782
僊	-12.3782
各具一太極	-12.3782
歙	-12.3782
躔胃宿號天	-12.3782
熒惑出入留舎	-12.3782
汶	-12.3783
瑶	-12.3783
石氏曰他星守	-12.3783
襲爵受封	-12.3783
太白出入留舎	-12.3784
乑	-12.3784
大衍之數五十其用四十有九	-12.3784
仝	-12.3784
雋	-12.3784
搔	-12.3785
猱	-12.3785
稠	-12.3785
爟	-12.3785
蘊	-12.3785
琅玕經節要	-12.3786
踴	-12.3786
遅	-12.3786
郭景純	-12.3787
劭	-12.3788
搜神記曰	-12.3788
惨	-12.3788
春木夏火秋金冬水	-12.3789
離東坎西	-12.3789
逥	-12.3789
三地四天五地六天七地八天九地十	-12.379
躔尾宿號天	-12.379
邳	-12.379
畆	-12.379
魔	-12.3791
􁁆	-12.3791
跗	-12.3791
躔翼宿號天	-12.3791
脣	-12.3791
葭	-12.3792
蜃	-12.3792
納音屬土開山立向修方吉	-12.3792
贍	-12.3792
欽定四庫全書星學大成卷二十	-12.3792
犇	-12.3793
諤	-12.3793
媵	-12.3793
藍	-12.3793
撩	-12.3794
遁甲演義	-12.3794
躔室宿號天	-12.3794
衾	-12.3794
漬	-12.3795
水泛木浮	-12.3795
出辰入申	-12.3795
島	-12.3795
夏草遭霜	-12.3795
閤	-12.3796
騶	-12.3796
貪財壞印	-12.3796
擘	-12.3796
忤	-12.3796
漾	-12.3797
乾南坤北	-12.3797
錮	-12.3798
春夏為水秋冬為	-12.3798
儼	-12.3798
磁	-12.3798
樵	-12.3798
仿	-12.3799
躔璧宿號天	-12.3799
行不遇盗雨不雨	-12.3799
揺	-12.38
龍吟虎嘯	-12.38
潯	-12.38
宫欄駕經	-12.3801
棣	-12.3802
亶	-12.3802
濱	-12.3802
第一百零	-12.3802
日九百四十分日之	-12.3802
皿	-12.3803
雖生干而	-12.3803
糊	-12.3803
痴	-12.3803
酬	-12.3804
帝出乎震	-12.3805
烜	-12.3806
練	-12.3806
淊	-12.3806
邠	-12.381
祓	-12.3811
刅	-12.3812
元亨利貞	-12.3812
富貴䨇全	-12.3812
欵	-12.3815
螳	-12.3816
兖青人	-12.3817
豚	-12.3819
漚	-12.382
砭	-12.3821
嚨	-12.3827
鍊	-12.3834
􁃭	-12.3835
瘀	-12.3838
挹	-12.3838
銘	-12.3842
烘	-12.3842
丅吉丅吉丅吉	-12.3848
爇	-12.3849
爨	-12.3866
鎣	-12.3867
卉	-12.3867
嘬	-12.387
甲戌乙亥丙子丁丑戊寅己卯庚辰	-12.428
宿一偏東五度	-12.449
斗宿一偏西	-12.4671
丅吉丅吉丅吉丅吉	-12.475
庚戌辛亥壬子癸丑甲寅乙卯丙辰	-12.4807
丨悔丨悔丨悔丨悔丨悔丨悔丨悔丨悔	-12.4819
日安撫邊境	-12.4845
補垣塞穴	-12.4858
鴽	-12.4859
雎	-12.4862
八經星之壬二百	-12.4865
上取籌閉地户	-12.4866
天寳歴曰	-12.4868
八龍七鳥九虎六蛇	-12.4869
峨	-12.4872
時斷六乙日生時	-12.4874
洵	-12.4876
贖	-12.4876
捄	-12.4877
它	-12.4877
時月将丑加	-12.4877
鋩	-12.4877
鄊	-12.4877
春丑夏辰秋未	-12.4878
頒詔施恩封拜詔命公卿招賢舉正直	-12.4878
鳬	-12.4879
己丑庚寅辛卯壬辰癸巳經辰之	-12.4879
時斷六辛日生時	-12.488
七經星之辛一百	-12.4881
霾	-12.4881
凡吉凶相抵不註忌	-12.4882
期一年中二年逺三年	-12.4882
五姓修宅	-12.4882
禧	-12.4883
坪	-12.4884
腰金衣紫	-12.4884
郗	-12.4884
門具将發	-12.4884
棄命就財	-12.4884
綘	-12.4884
詛	-12.4884
娄	-12.4884
汭	-12.4885
八經星之壬一百	-12.4885
流亡去其鄉	-12.4886
蟊	-12.4886
潞	-12.4887
九八七六	-12.4887
六經星之庚一百	-12.4887
橿	-12.4887
五經星之己一百	-12.4887
可坐不可向	-12.4887
四經星之戊一百	-12.4888
三經星之丁一百	-12.4888
褚	-12.4888
一經星之乙一百	-12.4889
二經星之丙一百	-12.4889
鉏	-12.4889
窬	-12.4889
剉	-12.4889
經星之甲一百	-12.4889
謟	-12.4889
慄	-12.4889
聖祖仁皇帝	-12.4889
禺	-12.489
虺	-12.489
宫車晏駕	-12.489
相死不死出走	-12.489
詁	-12.489
夫榮子貴	-12.489
子旺母衰	-12.489
日戊申大驛土寳	-12.4891
百戰百勝	-12.4891
中爻變復為	-12.4891
咄	-12.4891
經日之甲一經月之午七經星之	-12.4892
生人以為印星	-12.4893
懋	-12.4893
日庚寅松柏木制	-12.4893
兗	-12.4893
生人以為䕃星	-12.4894
澹	-12.4894
斫	-12.4894
揉	-12.4894
幻	-12.4895
躔參宿號天	-12.4895
綽	-12.4895
猛虎伏岡	-12.4895
淬	-12.4896
彷	-12.4896
𥪡	-12.4896
背禄而不貧	-12.4897
頗宜時帶偏官	-12.4897
又曰䑕齧	-12.4898
曇	-12.4898
咫	-12.4898
蹰	-12.4898
度日出辰初一刻	-12.4898
椎	-12.4899
瞶	-12.4899
沁	-12.4899
臨衝窵合	-12.4899
蚌	-12.4899
藿	-12.4899
滌	-12.4899
烽	-12.4899
易水育吾子識	-12.4899
廡	-12.49
遨	-12.49
凈	-12.49
嵐	-12.4901
五臟六腑	-12.4901
琭	-12.4901
邅	-12.4901
莾	-12.4902
吕氏春秋曰	-12.4902
納音屬火開山立向修方吉	-12.4902
簞	-12.4903
穣	-12.4903
聯	-12.4904
瘤	-12.4904
巫咸占曰月暈	-12.4904
天元羸弱	-12.4904
曵	-12.4905
五帝内座	-12.4905
欻	-12.4905
煅	-12.4905
十二吉山宜己酉丑亥卯未年月日時	-12.4906
莢	-12.4906
躔危宿號天	-12.4906
肓	-12.4906
胚	-12.4907
在宣府東	-12.4907
躔女宿號天	-12.4907
幇	-12.4907
㤀	-12.4908
壬與丁合	-12.4908
餘可類推	-12.4908
臨朝稱制	-12.4908
六萬四千	-12.4909
西門出東門	-12.491
琮	-12.491
覧	-12.491
倂	-12.491
㗖	-12.491
壑	-12.491
痿	-12.4911
咥	-12.4911
鬍	-12.4912
癶	-12.4913
諍	-12.4913
串	-12.4914
疥	-12.4914
仰觀俯察	-12.4915
觸類而長	-12.4915
龞	-12.4915
嚘	-12.4916
掣	-12.4916
煨	-12.4916
雷乃發聲	-12.4917
憙	-12.4918
瘠	-12.4918
纏	-12.4918
帙	-12.4919
絹	-12.4919
諡	-12.492
多學少成	-12.492
禇	-12.492
疣	-12.4921
膂	-12.4924
凛	-12.4925
勛	-12.4926
薆	-12.4926
炊	-12.4926
犯軒轅大星	-12.4927
縞	-12.4931
扆	-12.4932
咏	-12.4934
膊	-12.4935
跋	-12.4938
盼	-12.4939
臸	-12.4941
僑	-12.4942
劘	-12.4945
溥	-12.4949
佷	-12.4949
缾	-12.4956
巟	-12.4961
熏	-12.4968
楨	-12.4974
惢	-12.4978
䘏	-12.4981
㗊	-12.4991
庚辰辛巳壬午癸未甲申乙酉丙戌	-12.4993
喁	-12.4994
鞶	-12.5002
開倉庫出貨財修置產室	-12.5051
壁宿一偏東	-12.5093
厭大時天吏四廢	-12.5793
運身旺喜財身弱喜旺	-12.6076
丅灾丅灾丅灾丅灾丅灾丅灾丅灾丅灾	-12.6079
塡	-12.6085
并屬斗牛分	-12.6092
靚	-12.6104
觽	-12.6104
犍	-12.6105
瀘	-12.6106
涪	-12.6108
其陘道於	-12.611
劫煞災煞月煞月刑月厭四廢	-12.611
其俞注於	-12.6112
其滎流於	-12.6112
驁	-12.6112
時月将寅加	-12.6113
堵	-12.6114
茨	-12.6117
土符地囊	-12.6117
夏氏日暈圖曰日	-12.6119
與德合併猶忌	-12.612
易坤靈圖曰	-12.612
忉	-12.612
漓	-12.6122
躔角宿號天	-12.6123
廣聖歴曰	-12.6123
日伏夜遊	-12.6123
曝	-12.6123
彤	-12.6124
宣布政事慶賜賞賀宴㑹	-12.6126
軹	-12.6127
玊	-12.6127
賒	-12.6127
偏陰偏陽	-12.6128
邵泰衢	-12.6129
五億五千九百八十七萬二千	-12.613
一二三四五六七八	-12.613
迸	-12.613
三爻皆變而之	-12.613
趍	-12.6131
甘氏曰彗孛干犯	-12.6131
時斷六巳日生時	-12.6131
二十八宿山經注曰	-12.6131
陬	-12.6131
時斷六甲日生時	-12.6131
欽定四庫全書卜法詳考卷	-12.6132
禮部侍郎胡煦撰	-12.6132
分五更丑正初刻	-12.6132
歉	-12.6132
分二更亥初三刻	-12.6132
頭伏足伏	-12.6132
得位行不失勝行失敗色	-12.6133
飛走木草	-12.6133
覃恩肆赦施恩惠恤孤惸	-12.6133
六神悉伏	-12.6134
分二更戌正三刻	-12.6134
金神入火鄕	-12.6134
猝	-12.6134
方以牛脯	-12.6134
幢	-12.6135
泳	-12.6135
生人以為耗星	-12.6135
瘁	-12.6135
鑽	-12.6135
鐸	-12.6135
鴿	-12.6136
郟	-12.6136
財官無氣雖得滋助亦輕	-12.6136
卒在前車騎次之大將居中出門無剽掠	-12.6136
太乙萬神䕶吾三軍令敵莫敢當我筭得	-12.6136
萬七千四百五十六億	-12.6137
九經星之癸一百	-12.6137
㺯	-12.6137
二萬八千二百一十一兆九百九十	-12.6138
憾	-12.6138
龢	-12.6138
度日出寅正三刻	-12.6138
宿一偏東一度四十	-12.6139
佗	-12.6139
雊	-12.6139
租	-12.6139
一百五十五萬五千二百	-12.6139
不與德合併如常例	-12.6139
坏	-12.6139
鏃	-12.6139
鄢	-12.614
扣	-12.614
侑	-12.614
閶闔風	-12.614
天赦天願月恩四相時徳王日	-12.614
袖	-12.6141
稔	-12.6141
度日出寅正二刻	-12.6141
日癸酉劒鋒金義	-12.6141
磔	-12.6141
覿	-12.6141
日丙辰沙中土寳	-12.6141
日己酉大驛土寳	-12.6141
日辛亥釵釧金寳	-12.6141
日乙巳覆燈火寳	-12.6142
日丁未天河水寳	-12.6142
蕡	-12.6142
俎	-12.6142
右四象八卦六	-12.6142
日癸未楊栁木伐	-12.6142
蜉	-12.6142
饌	-12.6143
日壬午楊栁木制	-12.6143
耋	-12.6143
鈎命决曰	-12.6144
分二更亥正初刻	-12.6144
與德願併	-12.6144
窻	-12.6144
茆	-12.6144
鷂	-12.6144
一十三億九千九百六十八萬	-12.6145
蓼	-12.6145
湮	-12.6145
也孫炎曰	-12.6145
櫪	-12.6145
躔昴宿號天	-12.6146
捍	-12.6146
躔栁宿號天	-12.6146
柝	-12.6146
罘	-12.6147
䜿	-12.6147
腿	-12.6147
喑	-12.6147
餒	-12.6147
俗諺云	-12.6147
帝加元服	-12.6147
觭	-12.6147
嶷	-12.6147
䄂	-12.6148
躔星宿號天	-12.6148
朱漢上曰	-12.6149
柢	-12.6149
躔鬼宿號天	-12.6149
蹊	-12.6149
躔井宿號天	-12.6149
鑕	-12.6149
礦	-12.6149
劃	-12.6149
納音屬金開山立向修方吉	-12.6149
喫	-12.6149
賺	-12.615
珞	-12.615
刖	-12.615
庵	-12.615
塹	-12.6151
贄	-12.6151
梳	-12.6151
鴆	-12.6152
金寒水冷	-12.6152
砌	-12.6153
眊	-12.6153
犂	-12.6153
粲	-12.6154
淘	-12.6155
呴	-12.6155
瘂	-12.6155
汐	-12.6155
京房對災異曰	-12.6155
嬗	-12.6155
罄	-12.6156
晉中興徵祥説曰	-12.6156
聵	-12.6156
跟	-12.6156
郄	-12.6157
鸇	-12.6157
沍	-12.6157
盂	-12.6158
欝	-12.6158
沮渠蒙遜	-12.6158
矗	-12.6158
瀾	-12.6158
貽	-12.6158
昕	-12.6158
碭	-12.6159
讃	-12.6159
衫	-12.6159
遄	-12.616
淮南鴻烈	-12.616
訐	-12.616
椿	-12.6161
夣	-12.6161
嚼	-12.6162
馨	-12.6162
歿	-12.6162
餐	-12.6163
隳	-12.6163
菟	-12.6164
忩	-12.6164
蒂	-12.6164
肱	-12.6164
在天成象在地成形	-12.6165
慨	-12.6165
蜋	-12.6165
杌	-12.6166
裙	-12.6166
躔奎宿號天	-12.6166
遘	-12.6167
褓	-12.6167
莱	-12.6167
堆金積玉	-12.6168
戱	-12.6168
褐	-12.6169
愼	-12.6169
戢	-12.617
貍	-12.617
陰錯陽差	-12.617
罇	-12.617
出地上三十六度	-12.6171
廞	-12.6171
遟	-12.6171
删	-12.6172
滲	-12.6173
糺	-12.6176
圃	-12.6178
溱	-12.6179
瑯	-12.6183
宙	-12.6184
筠	-12.6184
襁	-12.6187
鯁	-12.6187
輆	-12.6188
蜈	-12.619
蚣	-12.6191
元包經傳卷	-12.6192
褁	-12.6194
瑣	-12.62
躋	-12.62
艸	-12.6207
媐	-12.6215
滿日閉日劫煞災煞月煞月刑月	-12.6241
𧖟	-12.6242
􁤽	-12.6242
忌月建月破平日收日	-12.7264
開市立劵交易納財開倉庫出貨財	-12.7347
柳宿一偏西	-12.7395
吉凶悔吝生乎動	-12.7474
嗉	-12.752
蹷	-12.7525
利有攸往	-12.7526
隂貴午加亥壬日	-12.7529
璜	-12.753
旂	-12.7534
利渉大川	-12.7536
隂貴子加亥丙日	-12.7537
舜置十二牧其一也	-12.7541
咮	-12.7541
四十六日内暈者赤	-12.7541
赤色之星有兩赤方在其旁出而生	-12.7541
丙寅熒惑將出而不出其與日合	-12.7542
斁	-12.7542
鞏	-12.7542
横吉上柱外内自舉柱足以作	-12.7542
瓘	-12.7543
涖	-12.7543
畤	-12.7544
罦	-12.7545
經元之甲一經㑹之午七經運之	-12.7546
犖	-12.7547
䖟	-12.7547
春辰夏未秋戌冬丑	-12.7547
天子為軍自守	-12.7547
應改條目	-12.7547
樽	-12.7548
易萌氣樞曰	-12.7548
銕	-12.7549
噲	-12.755
内髙外下疾輕足發	-12.755
嫂	-12.755
挺詐有内	-12.7551
星變色而白期	-12.7552
庚寅太白將出而不出其與日合	-12.7553
己未庚申辛酉壬戌癸亥經辰之	-12.7553
慰	-12.7553
絺	-12.7553
出月左方日在甲寅歳星將出而不出	-12.7554
青色之星有兩青方在其旁出而生	-12.7554
嗤	-12.7554
凡觀是書須	-12.7554
為反臣中外兵以德令解之	-12.7554
㐲	-12.7555
皝	-12.7555
横吉内外自舉	-12.7556
元時禽起例	-12.7556
縑	-12.7556
詆	-12.7556
元日禽日月火水木金土	-12.7556
正月起辰逆行十二辰	-12.7556
妊	-12.7557
駱	-12.7557
僥	-12.7557
吕氏春秋曰亂國之妖	-12.7557
髙宗占曰月暈	-12.7557
益後續世	-12.7558
河圖曰太白之精散為	-12.7558
首仰足肣内外自隨	-12.7558
棊	-12.7558
都指揮使司	-12.7558
摯	-12.7558
石之山谷中	-12.7558
移根換葉	-12.7558
二十六萬二千一百四十四	-12.7559
姥	-12.7559
霑	-12.7559
譁	-12.756
度日出卯正三刻	-12.756
鳶	-12.7561
春戌夏丑秋辰冬未	-12.7561
㓛	-12.7561
緫	-12.7561
㳟	-12.7561
行南河戍中若留止	-12.7562
宜安撫邊境	-12.7562
迓	-12.7562
芸	-12.7562
顰	-12.7563
有兵兵罷無兵兵起	-12.7563
昏刻酉正一刻	-12.7563
星變色而黄期	-12.7563
鏗	-12.7564
分攢㸃寅初三刻	-12.7564
檜	-12.7564
狐假虎威	-12.7564
昉	-12.7565
屎	-12.7565
十不用餘五屬土土生金故曰金	-12.7565
擄	-12.7565
熨	-12.7565
鬯	-12.7565
砥	-12.7565
汀	-12.7565
犯甘氏外官三	-12.7565
騏	-12.7565
絹為藉大將再拜祝曰	-12.7565
綝	-12.7565
文曜鉤曰	-12.7566
安帝義熙	-12.7566
誑	-12.7566
南河三偏東	-12.7566
噣	-12.7567
郁	-12.7567
芟	-12.7567
厦	-12.7568
暐	-12.7568
罅	-12.7568
扞	-12.7568
俱比俱不比	-12.7568
懾	-12.7568
溜	-12.7568
絛	-12.7569
日丙戌屋上土寳	-12.7569
罌	-12.7569
扉	-12.7569
劵	-12.7569
刁	-12.7569
撼	-12.757
樗	-12.757
貂	-12.757
溯	-12.757
分四更子正一刻十	-12.757
靳	-12.757
瑟	-12.757
尙	-12.757
墾	-12.757
憧	-12.7571
嗃	-12.7571
一百七萬一千里	-12.7571
竒門大全云	-12.7571
軨	-12.7571
日丁丑澗下水寳	-12.7571
朏	-12.7571
囓	-12.7571
日甲午砂石金寳	-12.7571
日庚子壁上土寳	-12.7572
嚙	-12.7572
日丁夘鑪中火義	-12.7573
萇	-12.7573
娱	-12.7573
駃	-12.7573
駞	-12.7573
筒	-12.7573
靁	-12.7574
蝸	-12.7574
兼三才而兩之	-12.7574
止忌軍事療病餘皆不忌	-12.7574
綦	-12.7574
兜	-12.7574
尻	-12.7574
紏	-12.7574
衿	-12.7574
殁	-12.7574
仄	-12.7574
譴	-12.7574
悽	-12.7575
摸	-12.7575
鵓鴿駝鈴	-12.7575
扄	-12.7576
羖	-12.7576
革故鼎新	-12.7577
照臨十二宫命宫守照命宫	-12.7577
彀	-12.7577
𦦨	-12.7578
艷	-12.7578
耒	-12.7578
癭	-12.7579
輗	-12.7579
磉	-12.7579
鉄	-12.7579
葺	-12.7579
甜	-12.758
岌	-12.758
縻	-12.758
韁	-12.758
欽天監時憲科博士	-12.758
涎	-12.758
道德功力	-12.758
扃	-12.758
腴	-12.7581
糜	-12.7581
宄	-12.7581
劾	-12.7581
老當益壯	-12.7581
餘命用並亦准前	-12.7581
鯀	-12.7582
吼	-12.7583
縲	-12.7583
橘	-12.7583
詡	-12.7583
屑	-12.7583
蜾	-12.7583
拯	-12.7584
氂	-12.7584
癤	-12.7584
矞	-12.7584
妣	-12.7584
篡	-12.7585
坂	-12.7585
齎	-12.7585
葱	-12.7585
沔	-12.7585
觔	-12.7586
狴	-12.7586
濬	-12.7586
蠏	-12.7587
飱	-12.7587
鷁	-12.7587
帝王世紀曰	-12.7588
斌	-12.7588
春秋繁露曰	-12.7588
黽	-12.7589
渇	-12.7589
彞	-12.7589
縵	-12.7589
塑	-12.7589
酢	-12.7589
顕	-12.759
愿	-12.759
之能事畢矣	-12.759
按星經步天歌	-12.759
侗	-12.7591
冄	-12.7591
抉	-12.7592
蔟	-12.7592
繪	-12.7592
浹	-12.7592
渤	-12.7593
熛	-12.7593
装	-12.7593
今之談命者	-12.7593
珂	-12.7593
蒔	-12.7594
縳	-12.7594
也此課㓜明曰	-12.7594
槃	-12.7594
逅	-12.7594
矮	-12.7595
饋	-12.7595
燮	-12.7595
西山真氏曰	-12.7597
嘍	-12.7598
鄖	-12.7599
蜩	-12.76
𥘉	-12.76
䣛	-12.7601
壹	-12.7601
萬六千六百	-12.7602
焼	-12.7602
扮	-12.7603
䍚	-12.7603
児	-12.7603
曳	-12.7604
𤨏	-12.7604
髯	-12.7605
徂	-12.7605
欎	-12.7609
嘖	-12.7609
一等右純乎	-12.7613
嶮	-12.7618
耼	-12.7622
炫	-12.7622
憩	-12.7622
􁀾	-12.7623
挂	-12.7623
進德修業	-12.7624
仡	-12.7629
眵	-12.763
圈	-12.7631
覞	-12.7632
偪	-12.7636
汁	-12.7636
絜	-12.7637
睚	-12.7641
拑	-12.7642
㒁	-12.7643
軔	-12.7652
踖	-12.7655
䀠	-12.7659
靈城精義	-12.7664
䇂	-12.7683
吭	-12.7689
撣	-12.7712
劫煞災煞月煞月刑月厭大時天吏	-12.7998
婺	-12.8711
己丑庚寅辛卯壬辰癸巳經世之	-12.893
央	-12.9035
上一蔀首為	-12.9139
宕	-12.9158
丨凶丨凶丨大丨凶	-12.9175
睂	-12.9197
纛	-12.9201
河圖曰辰星之精散為	-12.9202
四十五度五物各九	-12.9202
諸述譔之所經説亦十二開别	-12.9206
隂貴丑加亥乙日	-12.9207
匆	-12.9208
藺	-12.9209
七宿之域有謀反若	-12.9209
正月在辰逆行四季	-12.921
☷	-12.9211
汧	-12.9212
千倉萬箱	-12.9212
惷	-12.9214
抜	-12.9214
挺詐内外自垂	-12.9214
☵	-12.9215
君臣失禮而輔臣有誅者若免罷去	-12.9215
星犯石氏中官	-12.9217
奭	-12.9217
土符土府地囊	-12.9217
佃	-12.9217
赧	-12.9217
迪	-12.9217
挺詐内外自舉	-12.9218
殯	-12.9218
内自舉外來正足發	-12.9218
上宋邵雍撰觀物篇	-12.9218
經絡醞釀開市立劵交易納財	-12.9219
沭	-12.9219
檻	-12.9219
白赤黒色三物厭日之光白色之星有兩	-12.9219
壬寅辰星將出而不出其與日合	-12.922
喃	-12.922
奉㫖依議欽	-12.922
荔	-12.922
開物成務冒道	-12.922
修築園圃	-12.922
十七萬七千一百四十七	-12.9221
雨霽蒙驛克	-12.9222
剔	-12.9222
德合赦願併猶忌	-12.9222
詮	-12.9222
䴡	-12.9223
攢㸃寅初初刻	-12.9223
珎	-12.9223
鄩	-12.9223
瑤	-12.9224
聒	-12.9224
發伺始入處之率一日	-12.9224
栽植種蒔	-12.9225
鄫	-12.9225
頒詔覃恩肆赦施恩封拜	-12.9225
元禽星㑹者稀日	-12.9225
公卿招賢舉正直施恩惠恤孤惸宣政事	-12.9226
犯甘氏中官二	-12.9227
羂	-12.9227
有不然者是之謂抝斯為動矣	-12.9227
甲十干支所納之音也	-12.9228
四千六百六十五萬六千	-12.9228
國不可舉事用兵必受其殃	-12.9228
洹	-12.9228
分一更戌正初刻	-12.9228
陀	-12.9229
洿	-12.9229
躔宿俱出玉關經玉關歌	-12.9229
帝座偏西二度	-12.9229
頭起身重足發如仰月	-12.923
塡星將出而不出其與日合	-12.923
𣪚	-12.9231
?	-12.9231
諜	-12.9231
將以順性命之理	-12.9231
齊伯五星占曰嵗星出入留舍	-12.9231
廸	-12.9231
行狠了戾孤辰	-12.9232
慶賜賞賀	-12.9232
當憂不憂頼五行之救助	-12.9232
售	-12.9233
河出圖洛出書	-12.9233
澇	-12.9233
河圖曰填星之精散為	-12.9233
覷	-12.9233
下元一白離六白中八白兌九紫艮蓋山	-12.9233
始勤終怠	-12.9233
犯平星三石氏曰	-12.9234
筦	-12.9234
洙	-12.9234
櫟	-12.9234
構	-12.9234
涓	-12.9234
瞞	-12.9234
雑	-12.9234
分攢㸃寅正二刻	-12.9234
賚	-12.9235
☲	-12.9235
惆	-12.9235
灞	-12.9235
親姻哭送	-12.9235
用者三不用者一	-12.9236
寗	-12.9236
以支為命詳逆順以循環	-12.9236
泌	-12.9236
耍	-12.9236
攪	-12.9237
日己卯城頭土伐	-12.9237
窓	-12.9237
椒	-12.9237
鶡	-12.9237
丼	-12.9237
刎	-12.9237
日壬申劒鋒金義	-12.9237
汰	-12.9237
詠	-12.9237
髙足直諸事利益頭	-12.9238
日壬申劔鋒金義	-12.9238
窑	-12.9239
蟈	-12.9239
晁公武讀書志	-12.9239
珊	-12.9239
四以減二十九餘二十五也	-12.9239
日己夘城頭土伐	-12.9239
日辛夘松柏木制	-12.9239
否則如常例也	-12.9239
哮	-12.924
溼	-12.924
蹟	-12.924
喨	-12.924
☱	-12.924
齎貝贖狸不聽我辭繫於虎鬚牽不得來	-12.9241
娟	-12.9241
年登故宜獲福	-12.9241
韞	-12.9241
盞	-12.9241
迦	-12.9241
囉	-12.9242
立人之道曰仁與義	-12.9242
宮初度日出卯	-12.9242
水一火二木三金四土五	-12.9242
鏤	-12.9242
閡	-12.9242
壙	-12.9242
絣	-12.9243
纉	-12.9243
􁐍	-12.9243
閠	-12.9243
榴	-12.9244
春夏為火秋冬為水	-12.9244
昏刻酉正三刻	-12.9244
訝	-12.9245
雉入大水為蜃	-12.9245
忖	-12.9245
櫽	-12.9245
碌	-12.9245
晰	-12.9246
黷	-12.9246
爆	-12.9246
小盈大虧恐是刼財之地	-12.9246
鶻	-12.9247
涘	-12.9247
珮	-12.9247
膳	-12.9247
寧按月令註陳氏云	-12.9247
墊	-12.9247
寮	-12.9248
生人以為禄主星甲生人以為	-12.9248
加艮則艮臨	-12.9248
時以初昏候之月見	-12.9248
禍敗發於元亡	-12.9248
服又其外方五百里曰	-12.9248
聶	-12.9249
虬	-12.9249
凄	-12.9249
期三年中五年逺七年	-12.9249
昜	-12.925
酥	-12.925
爼	-12.9251
窩鉗乳突	-12.9251
籬	-12.9251
俶	-12.9251
荼	-12.9251
乾道成男坤道成女	-12.9251
鋸	-12.9252
刈	-12.9252
二十四山並無尅冬至後尅乾亥兌丁	-12.9252
豊	-12.9252
頫	-12.9252
弘	-12.9252
矰	-12.9252
袵	-12.9253
魍	-12.9253
隍	-12.9253
寖	-12.9254
篾	-12.9254
𦕈	-12.9254
捽	-12.9254
界之此一際也	-12.9254
飫	-12.9254
天尊地卑乾坤定矣	-12.9254
璃	-12.9255
泠	-12.9255
坎六白乾八白艮九紫離中元一白	-12.9256
下元一白坎六白乾八白艮九紫離	-12.9256
蕕	-12.9256
飴	-12.9256
本類星末類彗	-12.9256
巽五坎六艮七坤八	-12.9257
愴	-12.9257
术	-12.9257
閽	-12.9257
戴九履一左三右七二四為肩六八為足	-12.9257
初爻納甲也其明堂之	-12.9257
篁	-12.9258
禿	-12.9258
憊	-12.9258
翫	-12.9259
瞀	-12.9259
洧	-12.9259
疚	-12.9259
孱	-12.9259
牧羊稻園聞虎	-12.9259
粤	-12.9259
崛	-12.926
莅	-12.926
稗	-12.926
㦯	-12.9261
今儀象志無	-12.9261
藕	-12.9261
卻	-12.9262
笞	-12.9262
瓢	-12.9263
八十二度八分度之五	-12.9263
㬥	-12.9263
堠	-12.9264
儕	-12.9264
癎	-12.9264
眂	-12.9265
枳	-12.9265
渺	-12.9265
槨	-12.9266
愠	-12.9266
裨	-12.9266
憶	-12.9267
愀	-12.9267
撝	-12.9268
􁡍	-12.9268
演禽通纂	-12.9268
萼	-12.9268
侟	-12.9269
鍬	-12.9269
瘍	-12.927
球	-12.927
綺	-12.927
鄗	-12.9271
嚢	-12.9271
寝	-12.9271
琬	-12.9271
㒺	-12.9273
廂	-12.9274
袂	-12.9275
橈	-12.9277
鞠	-12.9277
倨	-12.9277
佀	-12.9278
壟	-12.9278
羶	-12.9279
欱	-12.928
麒	-12.9282
樣	-12.9282
祺	-12.9282
漦	-12.9282
(●●●●/●●●●)	-12.9282
皃	-12.9284
穡	-12.9284
袋	-12.9285
炟	-12.9285
蠒	-12.9287
溉	-12.9287
山其澤藪曰	-12.9289
瞑	-12.9291
簟	-12.9293
挍	-12.9293
蛡	-12.9294
湫	-12.9298
螾	-12.9299
詈	-12.93
揔	-12.93
覘	-12.9301
忝	-12.9303
惓	-12.9307
鱻	-12.9308
轎	-12.9313
倔	-12.9319
菲	-12.932
眦	-12.9321
鶤	-12.9321
􁏹	-12.9326
䭾	-12.9331
室繕城郭築隄防興造動土豎柱上梁	-12.9332
赥	-12.9335
踤	-12.9338
巓	-12.934
悔吝生乎動者也	-12.9342
􁜳	-12.9342
藐	-12.9349
姝	-12.9354
譶	-12.9358
􁛜	-12.9365
乙亥丙子丁丑戊寅己卯庚辰辛巳壬午	-12.9968
劫煞災煞月煞月刑月	-13.0225
乙卯丙辰丁巳戊午己未庚申辛酉	-13.0444
更詳日干於所生月内有	-13.1142
陘	-13.1179
算外章嵗十九章閏七	-13.1186
又曰鷄不卵而生子	-13.1193
觥	-13.12
凱	-13.12
巂	-13.1201
頭見足發内外相應	-13.1203
春酉夏子秋卯冬午	-13.1205
褭	-13.1207
☰	-13.1207
𤾉	-13.121
燬	-13.121
當其囚也而有王色	-13.1212
易象圖說外篇卷	-13.1212
毆	-13.1212
𬒳	-13.1214
天刑朱雀白虎天牢元武勾陳	-13.1214
緝	-13.1215
春夏旺秋冬衰泊巳曰	-13.1215
臏	-13.1216
覲	-13.1217
躔宿俱出玉闗經玉闗歌	-13.1217
顋	-13.1218
去其上下不可以為兆可開	-13.1218
黒色之星有兩黒方在其旁出而生天	-13.1218
如羊投虎口	-13.1219
萹	-13.122
白方在其旁出而生	-13.122
倩	-13.122
中道天下太平出陽道旱	-13.122
普䕶福生聖心	-13.122
申二己酉三庚戌四辛亥五壬子六癸丑	-13.122
傕	-13.122
猗	-13.1221
四煞五鬼六害七傷	-13.1221
撿	-13.1222
垁	-13.1222
阯	-13.1223
入東門出西門大國破亡若順入西	-13.1223
如遇徳猶忌之日則仍註忌	-13.1223
者月中善神也所直之日宜	-13.1223
御史大臣有死者若入端門守	-13.1223
有命將征伐之事一曰大赦可以解其患	-13.1223
髦	-13.1224
倀	-13.1224
佯	-13.1225
攫	-13.1225
蹐	-13.1225
入積卒若守之兵大起士卒大行若多死	-13.1225
仞	-13.1225
螟蟲為賊害我	-13.1225
餗	-13.1225
筍	-13.1225
○○○○○○)	-13.1226
誹	-13.1226
豋	-13.1226
卞	-13.1226
臣在内天下有兵而倉庫之户	-13.1226
刻一週天又二變	-13.1226
二七為火三八為木四九為金五十為土	-13.1226
沫	-13.1226
值月刑從月刑論	-13.1226
締	-13.1227
每見貴人食禄無非	-13.1227
其國以土起兵若有土功之事天下旱	-13.1227
守墳墓為人主有哭泣	-13.1227
以甲丙戊庚壬五陽干係之以五	-13.1227
物不成魚鹽貴一曰以水為敗糴大貴	-13.1228
蒯	-13.1228
子才略美好求我長女賤薄不與反得醜	-13.1228
星其宿有六星位居	-13.1228
獰	-13.1228
瓉	-13.1229
倜	-13.1229
瑾	-13.1229
名士有憂王者任用小人忠臣被害有死	-13.1229
軄	-13.123
河圖曰嵗星之精流為	-13.123
大風寒大貴小風寒小貴	-13.123
宿一偏東四度十	-13.123
赶	-13.123
黄色之星有兩黄方在其旁出而生天	-13.1231
縂	-13.1231
􁁃	-13.1232
下宋邵雍撰觀物篇	-13.1232
盱	-13.1232
蘄	-13.1232
行軒轅中犯女主女主失勢	-13.1232
低頭竊視有所畏避行	-13.1232
拈	-13.1232
跼	-13.1232
不仁不義庚辛與甲乙交差	-13.1232
漕	-13.1232
隰	-13.1232
害津關不通一曰大水入城郭	-13.1232
四耗四廢四忌四窮	-13.1233
列大夫有放逐者五官	-13.1233
糾	-13.1233
旃	-13.1233
濞	-13.1233
殮	-13.1233
丙年在辛丁年在	-13.1233
忌月建土府月破平日收日	-13.1233
棧	-13.1233
娉	-13.1233
日乙卯大溪水專	-13.1234
根在苗先實從花後	-13.1234
詿	-13.1234
啗	-13.1234
正日景以求地中	-13.1234
十七十不用餘七屬火火生土故曰土	-13.1234
嵓	-13.1235
開渠穿井安碓磑補垣塞穴修飾垣墻	-13.1235
狷	-13.1235
懌	-13.1236
崧	-13.1236
薰	-13.1236
踊	-13.1236
日丁卯鑪中火義	-13.1236
羊禽獸多疾疫若守之二十日	-13.1236
茸	-13.1236
窕	-13.1237
臨昴胃之鄉人元有害	-13.1237
日乙夘大溪水專	-13.1237
据	-13.1238
龠	-13.1238
日壬寅金箔金寳	-13.1238
磕	-13.1238
日丙戌屋上土寶	-13.1238
日壬寅金箔金寶	-13.1238
咿	-13.1239
霣	-13.1239
黧	-13.1239
伋	-13.1239
敞	-13.1239
日丁丑澗下水寶	-13.1239
摽	-13.1239
灣	-13.124
鯽	-13.124
沬	-13.124
河圖洛書相為經緯八卦九章相為表裏	-13.124
河圖曰熒惑之精流為	-13.124
釗	-13.124
懇	-13.124
樛	-13.1241
筌	-13.1241
一白坎六白乾八白艮九紫離下元一白	-13.1241
圵	-13.1241
淶	-13.1241
苴	-13.1241
苔	-13.1241
若乃身旺鬼絶雖破命而長年	-13.1242
麈	-13.1242
𥙿	-13.1242
宿一偏西五度三十	-13.1242
欽定四庫全書三命通會卷	-13.1242
理於賢人亂於不肖成於妙用敗於不能	-13.1242
笋	-13.1242
祫	-13.1243
貔	-13.1243
徨	-13.1243
縠	-13.1243
鬻	-13.1243
旱一曰大水道不通貴人死以入日占國	-13.1244
出東掖門為相受命東南出	-13.1244
夥	-13.1244
髙宗日傍氣圖曰日暈	-13.1244
分一更戌正三刻	-13.1244
埜	-13.1244
㛰	-13.1245
泝	-13.1245
王者發之不出七十日	-13.1245
春桃生花季女宜家受福	-13.1245
酗	-13.1245
甹	-13.1245
椹	-13.1246
氾	-13.1246
萎	-13.1246
怪九身無頭魂驚魄去不可以居	-13.1246
水運忌用土年月日時	-13.1246
火運忌用水年月日時	-13.1246
霈	-13.1246
旒	-13.1247
矚	-13.1247
下於空亡自乾南首	-13.1247
黻	-13.1247
一六二七三八四九	-13.1247
儗	-13.1247
攄	-13.1247
鵞	-13.1247
䈥	-13.1247
天有三辰地有四行	-13.1247
偎	-13.1247
􁞳	-13.1248
春戊寅夏甲午秋戊申冬甲子	-13.1248
數驚鷙鳥為我心憂	-13.1248
生夕死名曰嬰鬼不可得祀	-13.1248
篋	-13.1248
戻	-13.1248
摠	-13.1249
諑	-13.125
明程道生撰	-13.125
去地可六丈大而赤	-13.125
度日出卯初一刻	-13.125
簧	-13.1251
䷗	-13.1251
懝	-13.1251
李巡曰言萬物	-13.1251
婬	-13.1251
老曰河圖將來告帝	-13.1251
丙加甲兮鳥跌穴	-13.1251
哂	-13.1252
歘	-13.1252
周子曰陽變隂合而生水火木金土	-13.1252
妻灾課以夫年	-13.1252
孃	-13.1252
氏欲為天子孝經雌雄圖曰	-13.1252
浼	-13.1252
赤雲氣如波揚入	-13.1252
侶	-13.1253
㩣	-13.1253
畺	-13.1254
瀰	-13.1254
鞋	-13.1254
鈕	-13.1254
很	-13.1254
䌓	-13.1255
一陰一陽之謂道	-13.1255
溽	-13.1255
金運忌用火年月日時	-13.1255
行纒鞋袴	-13.1255
紡	-13.1256
義不勝情以欲自	-13.1256
百足俱行相輔為强三聖翼事王室寵光	-13.1256
不得行不行來不來擊盗	-13.1256
司馬遷班固竝以	-13.1256
殉	-13.1257
赭	-13.1257
膀	-13.1257
隂中有陽陽中有隂	-13.1257
産遺季紵衣	-13.1257
妭	-13.1257
日忌為凶事利為吉事	-13.1257
隷	-13.1258
貊	-13.1258
梢	-13.1258
􁟧	-13.1258
䟎	-13.1258
捴	-13.1258
潄	-13.1258
衎	-13.1258
厝	-13.1258
訽	-13.1258
土運忌用木年月日時	-13.1258
殍	-13.1258
颺	-13.1259
揀	-13.1259
䷋	-13.1259
嬃	-13.126
楓	-13.126
延頸望酒不入我口	-13.126
行者不行來者不來	-13.126
摓	-13.126
蜴	-13.1261
立天之道曰隂與陽立地之道曰柔與剛	-13.1261
罩	-13.1261
渫	-13.1261
禆	-13.1261
􁁇	-13.1261
赤道二出黄道南白道二出黄道西	-13.1262
癃	-13.1263
氏欲為天子雌雄圖曰	-13.1263
濆	-13.1263
鷺	-13.1263
嘲	-13.1264
䷫	-13.1264
蠓	-13.1264
木運忌用金年月日時	-13.1264
褥	-13.1265
震六白艮八白坎九紫坤	-13.1265
鬩	-13.1265
幄	-13.1266
北辰紫宫衣冠立中含	-13.1267
天數中於五地數中於六	-13.1267
圯	-13.1267
貟	-13.1267
曄	-13.1267
崗	-13.1267
五氣順布四時行焉	-13.1268
旉	-13.1269
嘿	-13.127
蝮	-13.127
怏	-13.127
驩	-13.1272
雷風相薄水火不相射八卦相錯	-13.1272
軾	-13.1272
否則抝鄉其抝處	-13.1272
歾	-13.1272
疝	-13.1272
敜	-13.1272
碑	-13.1273
庒	-13.1274
有物混成先天地生	-13.1275
磚	-13.1275
闚	-13.1276
行不行來不來見人不見	-13.1277
濩	-13.1278
焍	-13.1278
湍	-13.1279
尫	-13.1279
昆侖旁薄	-13.1279
菙	-13.1279
皬	-13.128
閶	-13.1281
繘	-13.1282
棹	-13.1282
藹	-13.1283
扸	-13.1283
鉗	-13.1284
籟	-13.1284
煆	-13.1285
熿	-13.1285
仮	-13.1287
嶂	-13.1288
貓	-13.1288
牌	-13.129
於是日月迺次於	-13.129
磤	-13.129
隟	-13.1291
慽	-13.1291
琯	-13.1292
毉	-13.1296
弈	-13.1297
緘	-13.1297
一曰水二曰火三曰木四曰金五曰土	-13.1299
縶	-13.13
紗	-13.1301
飪	-13.1304
怫	-13.1304
唁	-13.1305
瓏	-13.1305
玲	-13.1307
噂	-13.1308
􁁾	-13.131
僞	-13.131
闐	-13.131
噉	-13.1313
囤	-13.1313
躆	-13.1314
􁌫	-13.1316
砉	-13.1316
忪	-13.1317
夸	-13.1318
讕	-13.1318
嫚	-13.1319
㳅	-13.1324
驫	-13.1325
摎	-13.1331
雺	-13.1331
𠢐	-13.1334
求財物買臣妾馬牛請謁追亡人漁獵	-13.1336
鍜	-13.1337
匕	-13.1338
氓	-13.1339
臮	-13.134
身旺喜財身弱喜旺忌刼	-13.1349
觚	-13.135
炵	-13.135
鷕	-13.1374
蛁	-13.1375
櫴	-13.1378
嚌	-13.1421
丁未戊申己酉庚戌辛亥壬子癸丑甲寅	-13.2979
請謁追亡人漁獵不得	-13.3661
欨	-13.3663
齮	-13.3672
丅凶丅凶丅大丅凶丅凶	-13.3672
之月下旬二十五日下價為本以建	-13.3672
嫪	-13.3687
至今二百七十六萬一千	-13.3687
畀	-13.3691
鐃	-13.3693
陕	-13.3693
本無吉日以王日代之	-13.3696
罃	-13.3697
前六限為長後六限為消	-13.37
横吉上柱内外自舉	-13.3701
廋	-13.3701
歹	-13.3704
蠪	-13.3705
大月從夫順數小月從婦逆	-13.3708
修飾垣墻平治道塗破屋壞垣伐木	-13.3708
義不相屬故與併猶忌	-13.3708
感暑而變者性之	-13.3708
感寒而變者情之	-13.3709
橑	-13.371
跂	-13.371
王日官日相日民日守日	-13.371
為傍風皆以甲配之者	-13.371
醬	-13.371
守入土司空有土徭之事	-13.371
歳位歳後歳對歳前	-13.3711
該館詳核訂正	-13.3711
阱	-13.3711
臣弑其君子弑其父	-13.3712
椀	-13.3712
近於庚支干相配為庚	-13.3712
琳	-13.3713
逕	-13.3714
朶	-13.3714
當其死也而有王色	-13.3714
餘與瑋琳洞	-13.3714
厭後枝幹自相配者為隂將	-13.3714
尸流血不可當也期百八十日若一年	-13.3714
歲後歲對歲前歲位	-13.3714
逆行變色成勾己天下大兵關梁不通	-13.3714
初傳已加子末傳卯加戌	-13.3714
歳前歳位歳後歳對	-13.3714
歳對歳前歳位歳後	-13.3714
邴	-13.3715
厭前枝幹自相配者為陽將	-13.3715
國有謀兵四夷兵起來侵中國邊境有憂	-13.3715
磾	-13.3715
謀上一曰大臣有戮死者石氏曰	-13.3716
援神契曰神靈孳液百寳為用則	-13.3716
讌	-13.3716
罸	-13.3717
䑛	-13.3717
晴明物不成風從乾來	-13.3718
廚	-13.3718
殪	-13.3718
應露而化者草之	-13.3718
三月戊辰四月己巳五月戊午八月己	-13.3719
九月戊戌十月己亥十一月戊子	-13.3719
大流太后宗有誅者若有罪中犯	-13.3719
宫中天子自出行誅期百八十日逺一年	-13.3719
庀	-13.3719
十九分三更子初初刻	-13.3719
厪	-13.3719
色不明主人勝客明客勝主人巫咸	-13.3719
恁	-13.372
平星執政臣憂若有罪誅者期一年	-13.372
人主憂王者戒慎左右期不出百八十日	-13.372
白鳥銜餌鳴呼其子旋枝張翅來從其母	-13.3721
躑	-13.3721
彝	-13.3721
岵	-13.3721
菊	-13.3721
䏴	-13.3721
丙戌三丁亥四戊子五己丑六	-13.3721
吉方起手連及修之無害	-13.3721
犯氐左星左中郎將誅死	-13.3721
☶	-13.3721
入犯上台司命近臣有	-13.3721
歲對歲前歲位歲後	-13.3721
惇	-13.3722
澶	-13.3722
􁂫	-13.3722
萬物者土也土之所居者四季也	-13.3722
􁟎	-13.3722
壬寅癸卯甲辰乙巳丙午	-13.3722
天地始肅禾乃登	-13.3722
守魚星之陽為大旱魚行人道	-13.3722
無力助分輕重言之運喜忌同上	-13.3722
皇極經世觀物外篇衍義	-13.3722
☳	-13.3722
􁃰	-13.3723
易象圖說内篇卷	-13.3723
命起武徳順行十六神	-13.3724
王者不宜出宫下殿有謀匿於	-13.3724
甲年在己乙年在	-13.3724
䒶	-13.3724
至足分别論之如不與正形同是為抝動	-13.3724
蕃而留不去楚國凶殃	-13.3724
靷	-13.3724
入天囷天下兵起囷倉儲積之物	-13.3724
萱	-13.3724
三十不用餘三屬木木生火故曰火如	-13.3724
僂	-13.3725
絪	-13.3725
凥	-13.3725
守天紀幸臣執權有兵起王者有憂	-13.3725
磐	-13.3725
問病尋醫弔孝送喪	-13.3725
望尚阿衡太宰周公藩	-13.3725
氣合於壬辰為天羅貴人不居故戊跨在	-13.3725
酺	-13.3725
十九十不用餘九屬金金生水故曰水如	-13.3726
大臣有誅若諸侯戮死期二年石氏曰	-13.3726
䷒	-13.3726
有佞臣謀其君以口舌為害人主有憂	-13.3726
宗正左右羣臣多死若更政令人主有憂	-13.3726
天坤位相對名曰天空貴人有獨無對故	-13.3726
妥	-13.3726
曹震圭曰小耗者小損也乃	-13.3726
産室開渠穿井安碓磑補垣	-13.3726
精休旺以為妙窮通變以為	-13.3726
一十不用餘一屬水水生木故曰木如	-13.3727
囏	-13.3727
歲位歲後歲對歲前	-13.3727
歲前歲位歲後歲對	-13.3727
鵩	-13.3728
刮	-13.3728
剛柔相呼二姓為家霜降既同惠我以仁	-13.3728
憫	-13.3728
牘	-13.3728
劉向鴻範傳曰	-13.3728
剽	-13.3728
守營室為大人忌以赦令解之	-13.3728
􁇨	-13.3728
晩	-13.3728
䷠	-13.3729
蜣	-13.3729
幘	-13.3729
崆	-13.3729
未起失利後市不得	-13.3729
拘制籠檻不得	-13.3729
星總龜筭法置積日加	-13.3729
僮妾獨宿長女未室利無所得	-13.3729
期三年中期六年逺期九年而災至	-13.3729
臣中外兵以德令解謂赦令也	-13.3729
長大成就柔順利貞君臣	-13.3729
命起一宫順行八宫不遊中五筭外	-13.3729
土潤溽暑大雨時行	-13.3729
天之氣經于角軫其歳得	-13.3729
整容剃頭整手足甲求醫療病裁製營建	-13.3729
築隄防興造動土修倉庫修置	-13.3729
行犯守軒轅女主失政若失	-13.3729
煬	-13.373
鍳	-13.373
入房三道為天子有子	-13.373
懵	-13.373
盥	-13.373
無合有合後學難知得一分三前賢不載	-13.373
䷪	-13.373
戊申巳酉庚戌辛亥壬子癸丑甲寅乙卯	-13.373
欽定四庫全書欽定恊紀辨方書卷	-13.373
氣合於丙戌為地網貴人不居故壬跨在	-13.373
瓚	-13.373
蓬瀛書曰子年在	-13.373
九月陽建於戌隂建於寅	-13.3731
之支配當方之干隂陽自相配合為日以	-13.3731
諛	-13.3731
夕多風日西則景朝多隂	-13.3732
槌	-13.3732
拊	-13.3732
蕚	-13.3732
入畢中各伺其出日而數之	-13.3732
秫	-13.3732
娯	-13.3732
庚寅二辛卯三壬辰四癸巳	-13.3732
豎柱上梁修倉庫鼓鑄	-13.3732
禰	-13.3732
斲	-13.3732
宗星宗室之臣有分離者	-13.3733
蛆	-13.3733
媱	-13.3733
為将星利用四金時吉元	-13.3733
江河淮海天之都市商人受福國家	-13.3733
矅	-13.3733
壬寅二癸卯三甲辰四乙巳	-13.3733
熯	-13.3733
籙	-13.3733
在五星皆從而聚于一舍其下之國可以	-13.3733
太陽少陽太剛少剛之用數	-13.3733
犯守騎官有兵起馬多發若多死	-13.3733
而五與之俱其數十有	-13.3733
菓貴一曰魚鹽貴價十倍不出	-13.3733
懸象著明莫大乎日月	-13.3734
譔	-13.3734
瀚	-13.3734
蘭蕙出蓬蒿	-13.3734
聞朝歡而旋泣	-13.3735
噓	-13.3735
淩	-13.3735
悝	-13.3735
之時以平明候之月見	-13.3735
日乙巳覆燈火寶	-13.3735
騋	-13.3735
入五諸侯伺其出日而數之	-13.3735
八孤臨於五墓戌未東行	-13.3736
當其相也而有王色	-13.3736
疒	-13.3736
讁	-13.3736
若平直洪潤動而旺相	-13.3736
𩔖	-13.3736
入奎有偽令來者若出奎有偽令出使者	-13.3737
其為常也立仁立義其為事也或見或聞	-13.3737
日入酉正二刻九分夜四十二刻十二分	-13.3737
鐔	-13.3737
以天月將加所用正時	-13.3737
入南斗天下受爵禄期六十日若九十日	-13.3737
當其休也而有王色	-13.3737
忡	-13.3737
丁遁得丙午為干支同體故即用	-13.3737
太隂少隂太柔少柔之用數	-13.3737
如蛇在灰如鱔在塵	-13.3737
皥	-13.3737
酒旗天下大酺有酒肉財物賜若爵宗室	-13.3738
初一刻六分晝五十三刻三分	-13.3738
日甲午砂石金寶	-13.3738
正初刻晝四十八刻	-13.3738
胖	-13.3739
錡	-13.3739
咆	-13.3739
人君不安欲求賢佐有入中	-13.3739
笥	-13.3739
不用宫數與長星同	-13.3739
估	-13.3739
元甲午為将星利用四	-13.3739
帚	-13.3739
孿	-13.3739
駈	-13.3739
三月陽建於辰隂建於申	-13.3739
蟇	-13.374
欽定四庫全書焦氏易林卷	-13.374
埀	-13.374
萬物之所成終而所成始也	-13.374
陡	-13.374
則景短多暑日北則景長多寒日東則景	-13.374
土圭之法測土深	-13.374
故二十八宿半見半隠	-13.374
舉照臨東海尨降庭堅為陶叔後	-13.374
衆鳥所翔中有大	-13.374
鋻	-13.374
勾陳得位不虧小信以成仁	-13.374
欽定協紀辨方書	-13.3741
交與奏事郎中張文彬等轉奏本日奉㫖	-13.3742
忱	-13.3742
東隣嫁女為王妃后莊公築館以尊	-13.3742
倉盈庾億宜稼黍稷年	-13.3742
獷	-13.3742
上土微微布散作界連接	-13.3742
五神相尅三生定命	-13.3742
日癸酉劔鋒金義	-13.3742
晒	-13.3742
者自建辰向前數之春夏至	-13.3742
入天庭色白潤澤為期百八十日有赦	-13.3742
隔位之干配隂建者為	-13.3743
酒酸魚敗衆莫貪嗜	-13.3743
企	-13.3743
𠫭	-13.3743
下宋鮑雲龍撰明鮑寧辨正	-13.3743
多言少實語無成事	-13.3743
帔	-13.3743
曼	-13.3743
禋	-13.3743
莠	-13.3743
首俯足肣身節折	-13.3744
命西南出刑事也期以春夏	-13.3744
宂	-13.3744
荳	-13.3744
跣	-13.3744
聪	-13.3744
泪	-13.3744
長陳蔡之患賴楚以安	-13.3744
䃧	-13.3744
方以類聚物以羣分	-13.3744
梨	-13.3744
聖人南面而聽天下	-13.3744
䃔	-13.3744
則止其本節所當之卦則取其宫數	-13.3744
法書藏在蘭臺雖遭亂潰獨不遇	-13.3744
建除滿平定執破危成收開閉	-13.3745
悋	-13.3745
遫	-13.3746
穪	-13.3746
蔕	-13.3746
龍吟虎嘯風雨助其休祥	-13.3746
度距西南星先至去極	-13.3746
糗	-13.3746
其餘辰則一辰當一得數	-13.3746
巽朱雀坤太隂乾太	-13.3746
甲娶乙妻隔八	-13.3746
以當一杪十二杪計	-13.3746
灊	-13.3747
押	-13.3747
過時不歸雌雄苦悲徘徊外國與	-13.3747
衆神集聚相與議語南國虐亂百姓	-13.3747
息一氣以凝神消五行而通道	-13.3747
穄	-13.3747
勻	-13.3747
鑛	-13.3747
嚇	-13.3748
奩	-13.3748
噂噂所言莫如我垣	-13.3748
鵙	-13.3748
一旬之内於年中而問干一	-13.3748
澤為矢所射傷我	-13.3748
懃	-13.3748
日以下為受制三日以上為兵為賊為亂	-13.3749
翬	-13.375
窈	-13.375
晅	-13.375
除之得度餘以六十乗之	-13.375
洶	-13.375
舜升大禹石夷之野徵詣	-13.375
綪	-13.375
嗚	-13.375
鼉	-13.3751
窪	-13.3751
在吾右身安吉不危殆	-13.3751
淇	-13.3751
顏	-13.3751
日入申正二刻八分夜五十八刻十四分	-13.3751
蚪	-13.3751
屩	-13.3751
杅	-13.3751
凰	-13.3751
价	-13.3751
秬	-13.3753
運初至於衰鄉猶披	-13.3753
㝡	-13.3753
㢤	-13.3753
跛踦相隨日暮牛罷陵遲後旅失利亡雌	-13.3753
低足飄諸事蹊蹺	-13.3753
春卯夏午秋酉冬子	-13.3753
藳	-13.3753
六害之徒命有七傷之事	-13.3753
耘	-13.3753
貧鬼守門日破我盆	-13.3753
路多枳棘步刺我足不利旅客為心作毒	-13.3753
嶇	-13.3753
芑	-13.3754
肪	-13.3754
你	-13.3754
畏懼悚息終無	-13.3754
票	-13.3754
赤憂兵積尸成山	-13.3754
崒	-13.3754
唐開元十二年甲子嵗積得	-13.3754
溧	-13.3754
莩	-13.3754
㕈	-13.3754
䷊	-13.3755
汴	-13.3755
䇿以四約之歸扐得	-13.3755
筴	-13.3757
恓	-13.3757
霓	-13.3757
萑	-13.3757
琦	-13.3757
癖	-13.3757
穗	-13.3757
魒	-13.3757
拭	-13.3758
敕	-13.3758
天之所予福禄常在不憂危殆	-13.3758
紱	-13.3758
蠟	-13.3758
峕	-13.3758
钁	-13.3758
閥	-13.3758
黥	-13.3758
杻	-13.3758
錘	-13.3758
魑	-13.3758
櫜	-13.3758
用無定體惟化是體	-13.3758
琁	-13.3758
柚	-13.3758
丙為勃兮庚為格格則不通勃亂逆	-13.3759
䪼	-13.376
稂	-13.376
天氣上騰地氣下降	-13.376
太陽為日太隂為月少陽為星少隂為辰	-13.376
霚	-13.376
䆕	-13.376
臝	-13.376
豨	-13.3761
上宋鮑雲龍撰明鮑寧辨正	-13.3761
剛太柔少剛少柔	-13.3761
諦	-13.3761
㷔	-13.3761
坎納戊離納己	-13.3761
廄	-13.3761
銍	-13.3761
􁄄	-13.3761
撻	-13.3762
斑	-13.3762
崇釋則離宫修定歸道乃水府求𤣥	-13.3762
凜	-13.3762
印綬逢華尊居翰苑	-13.3762
稿	-13.3762
剛中有柔柔中有剛	-13.3762
㹠	-13.3762
屾	-13.3762
㩀	-13.3764
積不善之家必有餘殃	-13.3764
醖	-13.3764
於調絃難希律吕	-13.3764
罝	-13.3765
姤遯否觀剥坤	-13.3765
叡	-13.3765
扎	-13.3765
奥府衆利所聚可以饒有樂我君子	-13.3765
㕓	-13.3766
搬	-13.3766
垜	-13.3766
霿	-13.3766
駑	-13.3766
以為進退去合伏之日餘	-13.3768
髠	-13.3768
太柔為水太剛為火少柔為土少剛為石	-13.3768
得行者行來者來擊盗	-13.3768
之形非在其一有𢃄	-13.3768
怵惕惻隱於赤	-13.3768
䷓	-13.3769
䷖	-13.3769
作建論不作德論	-13.3769
潑	-13.3769
李花再實鴻卵降集仁	-13.3771
鐏	-13.3771
抹	-13.3772
盍	-13.3772
䷀	-13.3772
早霜晚雪傷害禾麥損功棄力	-13.3772
澡	-13.3772
天光下臨地徳上載	-13.3772
儆	-13.3773
紘	-13.3773
咠	-13.3773
擯	-13.3773
清人髙子久屯外野逍遥不歸思我	-13.3773
墩	-13.3773
鐶	-13.3773
厰	-13.3775
殳	-13.3775
范望字叔明解賛	-13.3775
􁌏	-13.3775
淖	-13.3776
瑰	-13.3776
緡	-13.3776
防患憂禍不存	-13.3776
褊	-13.3778
𤼵	-13.3779
礫	-13.3779
牧野甲子平旦天下	-13.378
􁅨	-13.378
䷏	-13.378
矦	-13.378
蔴	-13.378
訊	-13.3782
文山紫芝雍梁朱草	-13.3782
飊	-13.3782
君君臣臣父父子子	-13.3783
狥	-13.3783
欋	-13.3783
杆	-13.3784
謔	-13.3786
讟	-13.3786
瘴	-13.3787
嗄	-13.3787
歸焉所以聖人有言曰	-13.3789
嘹	-13.379
䋚	-13.379
默	-13.379
鷸	-13.379
䷁	-13.3791
淲	-13.3793
蓏	-13.3793
敺	-13.3793
﨑	-13.3794
餁	-13.3795
㽞	-13.3798
地夫一廛田百畝菜	-13.3798
聆	-13.3801
㗇	-13.3801
弸	-13.3802
觝	-13.3802
臬	-13.3803
螭	-13.3804
酇	-13.3805
笛	-13.3805
擣	-13.3807
龖	-13.3808
之上生一竒一偶則為	-13.3808
㐜	-13.3812
㥷	-13.3814
㤰	-13.3815
鏩	-13.3818
為財為馬以代其勞	-13.3818
絝	-13.3819
諏	-13.382
㩴	-13.3822
於四立之前各旺一十八日	-13.3823
䁲	-13.3823
􁆅	-13.3826
餔	-13.3829
􁃵	-13.3832
日干於所生月内有力無力有	-13.3833
䷂	-13.3833
鼦	-13.3833
膎	-13.3834
熸	-13.3836
磹	-13.3836
䃸	-13.3839
弜	-13.3858
𥙷	-13.3861
誩	-13.3861
扢	-13.3862
瀏	-13.3865
鼷	-13.388
趹	-13.3882
迃	-13.3882
狧	-13.3902
麃	-13.3912
纗	-13.3925
破平日收日閉日劫煞災煞月煞月刑月	-13.4289
宮室修宮室繕城郭築隄防興造動土	-13.6834
鄄	-13.7003
天徳月徳天徳合月徳合天赦母倉天願	-13.7005
伻	-13.7008
齕	-13.7008
虹見城上其下必大戰流血	-13.7008
本一錢貴之以五并本價以為来年春夏	-13.7008
月日色如正月旬朢以上	-13.701
并屬斗牛分州一屬斗牛分縣	-13.7012
帀	-13.7016
豢	-13.7018
入殮安葬的呼日	-13.702
覊	-13.7024
蚩尤飛流天棒隂私土勃	-13.7024
媪	-13.7024
惲	-13.7026
戡	-13.7027
娵	-13.7028
嶲	-13.7028
入天廐十日以上廐馬有食變	-13.7028
帝元女文王周公孔子天老董仲舒	-13.7029
􁏋	-13.7032
謂之兆廣若裂其旁岐細出則謂之璺拆	-13.7033
數自倍倍之為五十而一無倍為四十九	-13.7033
閘	-13.7035
鴣	-13.7035
曈	-13.7035
客動侵地欲為君王崇禮以制義則國安	-13.7035
蛬	-13.7035
鞮	-13.7037
鐫	-13.7037
阨	-13.7037
十三辰九分三釐三毫三	-13.7037
道南蕃入留止南門為大臣有憂	-13.7038
㳙	-13.7039
其非縱羣曜吉而莫能為福	-13.7039
丙申庚申壬申乙酉丁酉己酉辛酉癸酉	-13.7039
幅	-13.7039
瑋	-13.7039
郾	-13.7039
玉女戌上取籌閉天門巳上取籌閉地户	-13.7039
呦	-13.704
必有破國亂君伏死其辜	-13.7041
版	-13.7042
兵起星若當户守之將受命不為主用	-13.7042
用一曰御物多有出者庫藏空虚期二年	-13.7042
郴	-13.7043
二億三萬三千五百里七十五步	-13.7043
僃	-13.7043
笈	-13.7043
節氣淺深輕重言之喜行身旺鬼衰運忌	-13.7043
牢日獄日徒隷死别伏罪不舉罪刑	-13.7043
掜	-13.7043
尾皇后有以珠玉簮珥惑天子者	-13.7043
綻	-13.7043
拿	-13.7043
鵠思其雄欲隨鳯東順理	-13.7043
黶	-13.7044
㑹也十一月隂陽二建俱㑹於子	-13.7044
种	-13.7044
積卒主失位天下亂兵大起期百	-13.7044
㸑	-13.7045
娩	-13.7045
曖	-13.7045
遹	-13.7045
一九五六二絳九五一五一九	-13.7045
瞰	-13.7045
處定求動尅未盡而難遷	-13.7045
犯五車大旱若有䘮一曰犯庫星兵起	-13.7046
帝座而還有謀不成以其入日占國	-13.7046
馥	-13.7047
入天門過糟丘宿玉泉開惠觀見仁君	-13.7047
得以更迭為主而為五行之綱	-13.7047
武英殿刋刻頒行	-13.7047
臚列伏乞皇上睿鑒勅部定議	-13.7047
戌九月巳十月亥十一月午十二月子	-13.7047
文王四乳仁愛篤厚子畜十男	-13.7047
此王氣色當如其常色變則失所也	-13.7047
者正月丑二月未三月寅四月申五月	-13.7047
凶除為四利太陽小吉滿為土瘟為四利	-13.7047
又為天富小吉平為三台又為土曲	-13.7047
菰	-13.7047
後立春前宜畋獵雨水後立夏前宜取魚	-13.7047
玉女丑上取籌閉天門	-13.7047
辰破丑而丑衝未亥破寅而寅衝申	-13.7047
歳後歳對歳前歳位	-13.7048
王者簡宗廟廢五祀後宫凶一曰有絶嗣	-13.7048
關係神煞及合婚俗論應行刪去之處	-13.7049
畫龍頭頸文章不成甘言	-13.7049
輜	-13.7049
國投杼之憂不成禍災	-13.7049
睪	-13.7049
俲	-13.7049
有十忌一忌破禄二忌空亡	-13.7049
二絳六七三明絳六二六二絳	-13.7049
君子居則觀其象而玩其	-13.7049
君為元神為吉凶衆神之主	-13.7049
在山在方疊吉星則大吉疊凶星則	-13.7049
守參有赤星出參中邊有兵	-13.7049
日在子月在寅為上日在寅月在子次	-13.7049
福臻成慶禍併危疑扶兮速速抑乃遲遲	-13.7049
瞎	-13.7049
畋	-13.705
衒	-13.705
破為大耗大凶危為極富星為谷	-13.705
攻伐宜背之不可抵向	-13.7051
伏斷日宻日裁衣日	-13.7051
厭後幹配厭前枝者為隂陽俱將	-13.7051
苽	-13.7051
䂓	-13.7051
媞	-13.7051
宮室繕城郭興造動土豎柱上梁	-13.7051
自奢生迷而不返禍從惑起	-13.7051
蚗	-13.7051
居於此為伏吟偏於寅則為不入局偏於	-13.7052
十四乙亥十五丙子十六丁丑十七戊寅	-13.7052
守犯天關道絶天下相疑有關梁之令	-13.7052
民不安其室憂失其釡甑若流移去其鄉	-13.7052
貴在干前事不宜迫迫	-13.7052
類大過之初爻福淺禍深喻同人之九五	-13.7052
狁	-13.7053
松喬彭祖西遇王母道路夷易無敢難者	-13.7053
上吉又為四利弔客小凶閉為病符凶	-13.7053
國有水旱之災守陽則旱守陰則水	-13.7053
☴	-13.7053
䜛大起后相貴臣誅宫人出走兵起宫門	-13.7053
且於時憲書内多所更定大典攸關	-13.7053
入天倉中主財寶出主憂	-13.7053
叄	-13.7053
欬	-13.7053
纊	-13.7053
蓆	-13.7053
興造動土豎柱上梁開市	-13.7053
宗人親族貴人有憂若有死者一曰人主	-13.7054
平成開危最吉定除次吉破大凶	-13.7054
大禍至入南門出東門國大旱若入南門	-13.7054
戍之南刑法峻暴誅伐不當經北	-13.7054
日貴在夜開眼作暗夜貴在日自暗而明	-13.7054
犯黄帝座改政易王天下亂存亡半	-13.7054
絳六二三明七六二絳二一六	-13.7054
四柱純煞有制定居一品之尊畧	-13.7055
地營造宫闕開拓封疆不可向之	-13.7055
居赫奕之尊重犯竒儀藴藉抱出羣之	-13.7055
綈	-13.7055
􁁣	-13.7055
指金虚實五星天機七五賦	-13.7055
邶	-13.7055
伏見留退一終之數除之不滿者為餘日	-13.7055
傭	-13.7055
嗷	-13.7055
宅墓受煞落梁塵以呻吟	-13.7055
崇禮以制義則國安	-13.7055
皆為大臣假主之威而不從主命	-13.7055
萬家邑拔千家邑	-13.7055
九五一二絳六五一九一九五	-13.7055
入若守輿鬼為主憂財寶出	-13.7055
居安問危可凶中而卜吉	-13.7055
與天恩併宜頒詔宣政事	-13.7055
與月恩四相時德併宜修倉庫	-13.7055
篆	-13.7055
壬寅十四癸卯十五甲辰十六乙巳十七	-13.7056
八四玉一九五四玉八玉八四	-13.7056
處之率一日期十日軍罷	-13.7056
鈇	-13.7056
必倍載喜抱子與利為友	-13.7057
監副李廷耀專司	-13.7057
空其數天道惡盈滿則覆	-13.7057
脘	-13.7057
嵇	-13.7057
斗運樞順天無憂與樂並	-13.7057
生後三日宫月到何星分度中金	-13.7057
歬	-13.7057
冩	-13.7057
己卯二庚辰三辛巳四壬午五癸未	-13.7057
牛驥同堂郭氏以亡國破	-13.7057
與胡冦戰平城道西七日絶糧身幾不全	-13.7057
色赤言兵黄言土白言義青言憂黒言	-13.7057
十日秀六十日熟凡一百三十日成忌於	-13.7057
又鎮北將軍劉隗出奔四月又殺	-13.7057
命前五辰為宅命後五辰為墓	-13.7057
海陸行不止自令枯槁失其都市憂	-13.7057
行役未已新事復起姬姜勞苦不得	-13.7057
遑	-13.7057
怒見其妖祥中國隔絶道路不通	-13.7058
扳	-13.7058
甲寅三乙卯四丙辰五丁巳六戊午	-13.7058
營建宮室修宮室繕城郭	-13.7058
逆行入左掖門為臣刼其主	-13.7058
銑	-13.7058
難解嫫母衒嫁媒不得坐自為身禍	-13.7058
有廟殘之事吏不去則死	-13.7058
淦	-13.7058
右星右中郎將誅死皆期三年	-13.7059
掌符信之官文權之職也常居三合前辰	-13.7059
惘	-13.7059
殊常易舊變處為萌福善禍	-13.7059
㜸	-13.7059
河間王顒成都王穎	-13.7059
營建宮室修宫室繕城郭	-13.7059
禮斗威儀曰君乗火而王其政	-13.7059
運怕官煞混雜有煞無制鬼論制太過	-13.7059
鷇	-13.7059
太乙所在及入宫以来年數也	-13.7059
孶	-13.7059
微門為受制當左執法為受事左執法當	-13.7059
明七三四玉八七三明三二七	-13.7059
蓁	-13.7059
逐狐東山水遏我前深不可涉失利後	-13.7059
運行則一辰十嵗折除乃三日為年	-13.7059
守織女天下有女憂有兵起不出其年	-13.7059
天下有水旱之災守陽則旱守陰則水	-13.7059
七三明玉八四三明七明七三	-13.7059
六二絳明七三二絳六絳六二	-13.7059
守下台司禄近臣有罪若出走色黑者死	-13.7059
樂聲是土金木火水洪範是水火木金土	-13.7059
錝	-13.7059
宷	-13.706
僨	-13.706
刑不宜戰戰則必刑三刑帶	-13.706
嗌	-13.706
甲庚丙壬乙辛丁癸乾坤艮巽	-13.706
薩	-13.706
陰䑕棲氷神龜宿火	-13.706
其温即賤不風寒自如常以	-13.706
天子不尊事天者致火災於宗廟	-13.706
師以息勞疲役夫嘉喜入戸見妻	-13.706
徊	-13.706
滃	-13.706
醢	-13.706
五一九絳六二一九五九五一	-13.706
先須掌上排九宫縱横十五在其中	-13.706
出齊見役説戰勞成	-13.706
初憂後喜與福為市八佾列陳飲御	-13.706
壌	-13.706
天弁若守之則囚徒起兵一曰五穀不成	-13.706
民莫處其室養者星在箕南旱在箕北有	-13.706
犯守匏𤓰天下有憂若有遊兵名	-13.706
虹貫抱中日順虹擊者	-13.706
貫抵觸光芒相及有兵大戰破軍殺將伏	-13.706
閗	-13.706
陶朱白圭善賈息	-13.706
㬋	-13.7061
十二戊戌十三己亥十四庚子十五辛丑	-13.7061
四庚寅五辛卯六壬辰七癸巳八經辰之	-13.7061
四玉八九五一玉八四八四玉	-13.7061
犯左右執法執法者誅若有罪	-13.7062
繽	-13.7062
增修時憲算書館和碩莊親王	-13.7062
之文景純仲舒不載比形之妙	-13.7062
戦	-13.7062
桃雀竊脂巢於小枝	-13.7062
去之不盡以元法七十二去之又不盡以	-13.7062
四辛卯五壬辰六癸巳七經辰之	-13.7062
崇為寳也竒為貴也將星扶徳天乙加臨	-13.7062
彩鳯銜書碧雲裏因命風后演成文遁甲	-13.7062
憨	-13.7062
成減又以一相加日出相位	-13.7062
星若守之天下有急發米之事不出其年	-13.7062
璉	-13.7062
秋生而冬旺亥子同途甲乙	-13.7062
而能制羣動至尊而能鎮	-13.7062
薑	-13.7062
見凶中有吉吉乃先凶吉中有凶凶為	-13.7062
進愛所奏之外而必不可不改者	-13.7062
酉二戊戌三己亥四庚子五辛丑六壬寅	-13.7062
倭	-13.7063
真武當權知是大才而分瑞	-13.7063
修倉庫鼓鑄經絡醞釀開市立劵交	-13.7063
合在乙月空在甲宜修造取土月建在	-13.7063
太陽守大臣戮死若有誅期不出年	-13.7063
犯離珠宫中有事若有亂宫者若宫	-13.7063
三明七八四玉明七三七六明	-13.7063
月將宜用甲丙庚壬時甲子海中金義	-13.7063
滁	-13.7064
䷬	-13.7064
姣	-13.7064
男取尅干為嗣女取干生為	-13.7064
呑	-13.7064
更得直符直使利兵家用事最為貴	-13.7064
車鄰白顛知秦興起卒兼其國一統為主	-13.7064
雄聖伏名人匿麟	-13.7064
伯夷叔齊貞㢘之師以德防患憂禍不存	-13.7064
痡	-13.7064
雨師灑道風伯逐殃巡狩封禪以告成功	-13.7064
危坐至暮請求不得膏澤不降政戾民忒	-13.7064
月酉四月申五月未六月午七月巳八月	-13.7064
五日六月六日七月七日八月八日九月	-13.7064
便不是長生財只是傷官背禄月令	-13.7064
十四丁巳十五戊午十六己未十七庚申	-13.7064
雩	-13.7064
鼗	-13.7064
二絳六七三明絳六二六五絳	-13.7064
光明道逢淑女與我驥子	-13.7064
十一分七釐五毫則夏至之晷	-13.7064
四玉八九五一玉八四八七玉	-13.7064
見不見之形無時不有抽不抽之緒萬古	-13.7065
守閣道而絶漢者為九州異政各主其	-13.7065
犯守天江天下有水若入之大水齊城郭	-13.7065
一九五六二絳九五一五四九	-13.7065
七三明玉八四三明七明絳三	-13.7065
五一九絳六二一九五九八一	-13.7065
八四玉一九五四玉八玉明四	-13.7065
六二絳明七三二絳六絳九二	-13.7065
合在辛月空在壬宜修造取土月建在	-13.7065
玉八四五一九八四玉四三八	-13.7065
鏜	-13.7065
若守之兵大起將士出諸侯有憂若有死	-13.7066
鄜	-13.7066
哥	-13.7066
物有鬼物人有鬼人逢之為	-13.7066
禮記威儀曰君乗金而王其政	-13.7066
天地配享六位光明陰陽順序以成厥功	-13.7066
或約文而切理多或少剩二義難精	-13.7066
蓍一根百莖可當大衍之數	-13.7066
靄	-13.7066
飜	-13.7066
堅氷黄鳥常哀悲愁不見	-13.7066
火勢將興故先煙而後熖	-13.7066
盭	-13.7066
衣裳顛倒為王來呼成就東周	-13.7066
騅	-13.7066
喜居六陽之宫夜生從月利見六陰之地	-13.7066
太陽少陽太剛少剛之體數	-13.7066
抱子見蛇何咎室家俱在不失其所	-13.7066
犯天津關道絶不通有兵起若關吏	-13.7066
紇	-13.7066
行十二辰筭外即計神所在也推	-13.7066
言宫不知度言度不知宫	-13.7066
詧	-13.7066
遇隂徳大武重留一筭外即天目所在	-13.7066
慇	-13.7067
棍	-13.7067
休門六丁共太隂欲求人遁無過此	-13.7067
假令直符居離九天英坐	-13.7067
天乙之神所在宫大將宜居擊對	-13.7067
天牢王者以獄為弊貴人多	-13.7067
凡課有二上克下或二下克上	-13.7068
㝎	-13.7068
摴	-13.7068
咒	-13.7068
先推胎息之由次入變通	-13.7068
旗兵大起弓弩用士將出行一曰弓矢貴	-13.7068
窌	-13.7068
經心清明烈照天下内奉明王帝必延年	-13.7068
冺	-13.7068
昵	-13.7068
治者色悴為憂為疾其所中犯	-13.7068
當膺藩輔之權煞後主前必有徒流之患	-13.7068
金木未能成器聽哀樂以難名	-13.7068
驕胡火形造惡作凶無所能成還自滅身	-13.7068
龍作災盜堯衣裳聚跖荷兵青禽照夜三	-13.7068
七丁卯八戊辰九己巳十庚午十一辛未	-13.7068
名成徳就項領不試景公	-13.7068
太隂少隂太柔少柔之體數	-13.7068
巉	-13.7068
怛	-13.7068
戴盆望天不見星辰顧小失大福逃墻外	-13.7068
所出非其方為其下有兵衝不利	-13.7068
桃李花實纍纍日息長大成	-13.7068
胎生元命三獸定其門宗律	-13.7068
見是謂爭明大國弱小國强	-13.7068
道從太微西蕃北南方星間入	-13.7069
戩	-13.7069
驤	-13.7069
若守之敵人敗若其王死期不出二年	-13.7069
五墓兵禁大煞往亡八專專日伐日	-13.7069
煞在亥災煞在子月煞在丑忌修造取土	-13.7069
路太僕有罪若有誅一曰馬多死道無乗	-13.7069
敇	-13.707
瀑	-13.707
以六而變六十變通餘分亦成三百六十	-13.707
酖	-13.707
於外左手執籥公言錫爵	-13.707
四柱煞旺運純身旺為官清貴	-13.707
申七丁壬卯酉六戊癸辰戌五巳亥	-13.707
睨	-13.707
乾一兊二离三震四	-13.707
或是或非壬癸與丙丁相畏	-13.707
鷰	-13.707
三千南上蒼梧與福為婚道理	-13.707
六人俱行各遺其囊黄鵠失珠無以為明	-13.707
壬申癸酉乙亥庚辰辛丑庚戌戊午制日	-13.707
子至辰自辰至申自申至子	-13.707
誚	-13.707
鶴盜我珠逃於東	-13.707
侠	-13.707
屹	-13.707
德行不失理民賴恩福	-13.707
戍之北以女子金錢貪色奢侈失治道	-13.707
有誅若戮死人民死者大半皆不出其年	-13.707
泮	-13.707
籩	-13.707
諳	-13.707
青牛白咽呼我俱田歴山之下可以多耕	-13.707
潢中為人主以水為害若以井為害以	-13.7071
滇	-13.7072
戊日午月勿作刃看時	-13.7072
蜥	-13.7072
以六十而變六變通餘分得三百六十六	-13.7072
嶧	-13.7072
老楊日衰條多枯枝爵級不	-13.7072
瀼	-13.7072
木斜向經者為金背經者為火因兆而細	-13.7072
儌	-13.7072
哨	-13.7072
方嫁娶修營路登黄黒	-13.7072
佇	-13.7072
天孫帝子與日月處光榮於世福禄	-13.7072
號閑極五星不得纎毫力惟有月	-13.7072
次七曰明用稽疑次八曰念用庶	-13.7072
次九曰嚮用五福威用六極	-13.7072
煞在巳災煞在午月煞在未忌修造取土	-13.7072
用五紀次五曰建用皇極次六曰乂用三	-13.7072
避患東西反入禍門糟糠不足憂	-13.7072
六十日不還以初去日六月	-13.7072
芖	-13.7072
逢於沐浴之鄉骨肉中道分離孤宿尤嫌	-13.7072
闋	-13.7072
黠	-13.7072
徉	-13.7073
月空在庚宜修造取土月建在	-13.7073
煞在申災煞在酉月煞在戌忌修造取土	-13.7073
土王用事後忌修造動土巳午日添母倉	-13.7073
春多膏澤夏潤優渥稼穡	-13.7074
戹	-13.7074
胗	-13.7074
濘	-13.7074
葛藟蒙棘花不得實讒佞亂政使	-13.7074
㜑	-13.7074
凡十二日周而復始觀所值以定吉凶每	-13.7074
凶甲子直符愁向東戌刑在未申刑虎寅	-13.7074
解除喜至慶來坐立	-13.7074
先論二氣次課延生父病推其子	-13.7074
求乳母歸其子黄麑悦喜	-13.7074
子相與為友明允篤誠升擢薦舉	-13.7074
峭	-13.7074
旺忌七煞傷官歲運傷為福之地	-13.7074
獹	-13.7074
麒麟鳯凰善政得祥陰陽和調國無	-13.7074
㤅	-13.7074
合在丁月空在丙宜修造取土月建在	-13.7074
囑	-13.7074
睫	-13.7074
前二後一宫中為九天後二之神為九地	-13.7075
蚡	-13.7075
旴	-13.7076
東西二萬八千里南北二萬六千里	-13.7076
戰乎乾勞乎坎成言乎艮	-13.7076
九年夏宋公伐鄭秋晉鞅卜救鄭遇水適	-13.7076
黄帝所生伏羲之宇兵刃不至利以居止	-13.7076
官煞兩停喜者存之憎者	-13.7076
敲	-13.7076
吉凶僅足相抵故忌則不宜宜則不忌	-13.7076
禘	-13.7076
翰大舉就温昧過我邑羿無所得	-13.7076
䧺	-13.7076
入輿鬼為大人卒事以命終	-13.7076
國雄勇鬭死滎陽	-13.7076
暦	-13.7076
蕢	-13.7076
㘩	-13.7076
三百六旬有六日以閏月定四時成嵗	-13.7076
不知互加為妙若在外而實在内也	-13.7076
猋	-13.7076
甲巳還加甲乙庚丙作初丙辛從戊	-13.7076
磧	-13.7076
開市納財立券交易裁衣	-13.7076
出右掖門為大臣假主之威而不從主命	-13.7077
郇	-13.7078
瀋	-13.7078
輿鬼出其南水出其北旱	-13.7078
鉢	-13.7078
光第一至第四為魁第五至第七為杓合	-13.7078
葩	-13.7078
上配太極皇靈建中授我以福	-13.7078
皁	-13.7078
胱	-13.7078
癸未九甲申十乙酉十一丙戌十二丁亥	-13.7078
罾	-13.7078
春巳夏申秋亥冬寅	-13.7078
最喜者四角之有星所忌者三	-13.7078
憑陰察其陽禍歲星莫犯於孤辰	-13.7078
所蔽當日則光盈就日則光盡	-13.7078
日甲六合丙六合庚元武壬天后	-13.7078
薈	-13.7078
螟蟲為賊害我稼穡盡禾殫麥秋無所得	-13.7078
重數政為民賊杼軸空	-13.7078
煜	-13.7078
財官印綬全備藏蓄於四	-13.7079
十四戊午十五己未十六庚申十七辛酉	-13.7079
者子以後六月為長午以後六月為消	-13.708
駛	-13.708
未見氣太初者氣之始太始者形之	-13.708
芙	-13.708
蓉	-13.708
濰	-13.708
區脱康居慕仁入朝湛露之	-13.708
妺	-13.708
不長為虎所得死於牙腹	-13.708
勺	-13.708
囁	-13.708
王良善御伯樂知馬	-13.708
鏞	-13.708
頞	-13.708
天之奥隅堯舜所居可以存身保我	-13.708
就中伏吟為最凶天蓬加著地天蓬	-13.708
從魁抵蒼龍之宿財自天來	-13.708
蕖	-13.708
命羲和欽若昊天厯象日月星辰	-13.708
年之位内發覺由日時之擊揚	-13.708
馬之鄉源濁伏吟惆悵歇宫之	-13.708
當天街為諸侯自立為王一曰大水	-13.7081
詵	-13.7081
下元一氣周居去住之期	-13.7082
柩	-13.7082
万	-13.7082
難窮大抵三冬暑少九夏陽多禍福有若	-13.7082
拏	-13.7082
日望月則月食月掩日則日食	-13.7082
競至若人疲馬劣猶託財旺之鄉	-13.7082
隱處不見日月與死為伍	-13.7082
鬼論要分身鬼强弱定其吉㓙壽夭制伏	-13.7082
守之為大旱行房北犯守之為大水	-13.7082
定侯伯之遷榮支作人元運商徒而得失	-13.7082
左輔右弼金玉滿匱常盈不亡富如	-13.7082
誾	-13.7082
鄶	-13.7082
鑼	-13.7082
離無罪被辜長舌	-13.7082
􁀸	-13.7082
暴怒壊梁折柱稽難行旅留連愁苦	-13.7082
疾貧望幸使伯行販	-13.7082
榮華有凖若見財星得所發積成家倘或	-13.7083
猖	-13.7083
宣父畏其元辰峨眉闡以三生無全士	-13.7083
鬼谷播其九命約以星觀今集諸家之要	-13.7083
曙	-13.7083
見於國不出三年必有大禍野人為政	-13.7084
灾宜其逆課男迎女送否泰交居	-13.7084
膿	-13.7084
刹	-13.7084
呆	-13.7084
處於旺鄉晚遇衰年運恰宜於困地	-13.7084
鬰	-13.7084
倘同生氣閫外持權	-13.7084
勦	-13.7084
坯	-13.7084
丙䑕猴六丁玉女騎龍虎	-13.7084
坵	-13.7084
安息康居異國穹廬非吾	-13.7084
弱足刖跟不利出門	-13.7084
扒	-13.7084
牸	-13.7084
獒	-13.7084
衲	-13.7084
伯仲叔季日暮寢寐	-13.7084
倮	-13.7084
廽	-13.7084
日甲六合丙六合庚元武壬白虎	-13.7084
日甲天乙丙天乙庚天乙壬太	-13.7084
隂計陽羅怕在二三躔之内	-13.7084
偵	-13.7084
扉若作隂私和合事請君但向此中推	-13.7085
而後如常例否則諸事皆忌也	-13.7085
加一宫兮戰在野同一宫兮戰於國庚加	-13.7085
蕙	-13.7085
仁而不仁慮傷伐於戊巳	-13.7085
殱	-13.7085
長樂行觴千秋起舞拜受大福	-13.7085
硃	-13.7085
也從立冬以至冬之盡其色	-13.7086
木星秉春月之令晝生合從木	-13.7086
入玉井國有水憂若以水為敗水物	-13.7086
定其剛柔晝夜互為君臣青赤時為父子	-13.7086
無處不成仇讐行解却去	-13.7086
頭直足髙下生枝諸事不宜	-13.7086
㳫	-13.7086
人廟中將幣三享王禮	-13.7086
加臨若還得二亦為吉舉措行藏必遂心	-13.7086
天蓬若到天英上須知即是反吟宫	-13.7086
嵗暮花落陽入陰室萬物伏匿	-13.7086
日甲勾陳丙勾陳庚太常壬天	-13.7086
清要職便居帥府擁旌旗	-13.7086
煮	-13.7086
天元羸弱宫吉不及以為榮中下興隆卦	-13.7086
㠶	-13.7086
鹿得美草鳴呼其友九族和睦不	-13.7087
砍	-13.7087
関	-13.7087
初齊王冏定京都因留輔政	-13.7087
瑀	-13.7087
羇	-13.7087
備火近期一年中期三年逺期九年一曰	-13.7087
劓	-13.7087
水壞我里東流為海龜	-13.7087
𥚹	-13.7087
䷈	-13.7087
在璿璣玉衡以齊七政	-13.7087
猇	-13.7087
藤	-13.7087
閧	-13.7087
駐	-13.7087
日甲天空丙天空庚天空壬太	-13.7087
二千一十五億五千三百九十二萬	-13.7088
􁁎	-13.7088
茗	-13.7089
戞	-13.7089
潾	-13.7089
痾	-13.7089
緍	-13.7089
足息肩有所忌難金城	-13.7089
㲻	-13.7089
官星主執兵權助聖明不怒而威人仰慕	-13.7089
甲辰丙午己酉庚戌丙辰己未庚申辛酉	-13.7089
羊腸九縈相推稍前止須王孫	-13.7089
舉袂覆目不見日月衣	-13.7089
孑	-13.7089
無星居此位更於三合細推排天盤加得	-13.7089
開牢擇羊多得大䍧	-13.7089
庚重辛輕木人困於金鄉寅深卯淺	-13.7089
惬	-13.7089
臣出自蘭野㓜慕真風入肆無懸壺之妙	-13.7089
譺	-13.7089
五行質具於地而氣行於天	-13.7091
航	-13.7091
叧	-13.7091
則隨方而定動則依數而行	-13.7091
丙寅乙亥甲申癸巳壬寅辛亥庚申	-13.7091
也從立夏以至夏之盡其色	-13.7091
己巳戊寅丁亥丙申乙巳甲寅癸亥	-13.7091
身尅煞而尚輕煞尅身而尤重	-13.7091
追亡失其和節憂心惙惙	-13.7091
緬	-13.7091
羣虎入邑求索肉食大人	-13.7091
諺	-13.7091
踐履危難脱厄去患入	-13.7091
錯者交而互之一左一右	-13.7091
戊辰丁丑丙戌乙未甲辰癸丑壬戌	-13.7092
逃避但當乘取天馬行劍㦸如山不足畏	-13.7092
恡	-13.7093
鶯	-13.7093
垤	-13.7093
載金販狗利棄我走藏匿淵	-13.7093
患輕身命若還居此地貧窮蹇滯過平生	-13.7093
火雖熾在吾後冦雖	-13.7093
與生地之相逢宜退身而避位	-13.7093
龡	-13.7093
裊	-13.7095
䷐	-13.7095
湓	-13.7095
竭百川歸注足以相補故旱不	-13.7095
胯	-13.7095
蚊	-13.7095
配唐虞天命為子保佑歆享身受大慶	-13.7095
險難登澗中多石車馳轊擊	-13.7095
定一生職位髙低支作命基布三限	-13.7095
玦	-13.7095
禱祀鬼神祈求福願	-13.7095
讞	-13.7095
可一途而取軌不可一理而推之時有冬	-13.7095
天照四國也後入于地失則也	-13.7095
尘	-13.7095
鰓	-13.7095
妙在識其通變拙説猶神巫瞽	-13.7095
東壁餘光數暗不明主母嫉妒亂我事業	-13.7095
鉉	-13.7095
天三門兮地四户問君此法	-13.7096
此時諸事不須為更兼六乙來臨	-13.7096
蹢	-13.7097
筩	-13.7097
天下危二星去天下亂三星去天下不治	-13.7097
異國殊俗情不相得金木為仇	-13.7097
䷶	-13.7097
鞴	-13.7097
公孫駕車載遊東齊延陵	-13.7097
日月生四時四時生五行五行生十二月	-13.7097
枝兆交雜女必帶疾	-13.7097
椷	-13.7097
六合忌七煞傷官官愛多合運身旺喜財	-13.7097
庚辛臨於甲乙君子可以求官北人運	-13.7097
胏	-13.7097
輓	-13.7097
甬	-13.7097
二十生毫三十死三十生毫	-13.7098
掬	-13.7099
日景於地千里而差一寸	-13.7099
濁兮自然著三才以成象播四氣以為年	-13.7099
夆	-13.7099
三河俱合水怒踴躍壞我王室民	-13.7099
地地法天天法道道法自然	-13.7099
笱	-13.7099
蹛	-13.7099
厮	-13.7099
媲	-13.7099
鮪	-13.7099
君三辰元是地私門更得竒門相照耀出	-13.71
僇	-13.7101
謠	-13.7101
浥	-13.7101
占除望拜甲午以四八為期口舌文書	-13.7101
嗅	-13.7101
霩	-13.7101
攤	-13.7101
楮	-13.7101
陽則用其顯隂則用其幽	-13.7102
庚加日干為伏干日干加庚飛干格	-13.7102
濓	-13.7102
㩦	-13.7103
登几上輿駕駟南遊合	-13.7103
皺	-13.7103
个	-13.7103
刓	-13.7103
立營伏兵但向太隂位若逢六合利逃	-13.7103
兩足四翼飛入家國寧我伯姊與母相得	-13.7103
地户除危定與開舉事皆從此中去	-13.7103
伯夷叔齊貞廉之師以	-13.7103
茵	-13.7103
稲	-13.7103
九天之上好揚兵九地潛藏	-13.7104
諿	-13.7104
師娶婦黄巖季子成禮既婚相呼南上膏	-13.7105
濂	-13.7105
疤	-13.7105
蒜	-13.7105
裾	-13.7105
霜擊其芒疾君敗國使	-13.7105
豉	-13.7105
瀕	-13.7105
逐羊不見所望徑涉虎廬亡	-13.7105
飇	-13.7105
也從仲夏以至夏之盡及四季	-13.7105
其退舍也五星及之不可舉事用兵	-13.7105
居家室不吉嵗稼不熟民	-13.7105
袚	-13.7105
百足俱行相輔為強三聖翼事王室寵光	-13.7107
煞淺假煞為權煞重身輕終身有損	-13.7107
屭	-13.7107
或時藏刃入於胎日刃或朝時上來更若	-13.7109
劌	-13.7109
䷃	-13.7109
媿	-13.7109
時下忌相逢戊戌壬辰兼丙戌癸未丁丑	-13.7109
毗	-13.7109
天刺政閔身疾悲無辜背憎為仇	-13.7109
椅	-13.7109
䘚	-13.7109
嘈	-13.7109
狎	-13.7109
韮	-13.711
恟	-13.711
易曰積善之家必有餘慶	-13.711
妝	-13.7111
縹	-13.7111
坟	-13.7111
為陽賊萬物空枯藏於北陸	-13.7111
故有先賢謙巳處俗求仙	-13.7111
氊	-13.7111
瞤	-13.7111
衞侯東遊惑於少姬亡我考妣	-13.7111
斾	-13.7111
繈	-13.7112
矍	-13.7112
風擺荷水漾荷弄珠荷	-13.7112
春灼後左夏灼前左秋灼前右冬灼後右	-13.7112
肛	-13.7112
恚	-13.7113
㾓	-13.7113
餉	-13.7113
逢時俱行先至多得大利	-13.7114
造化之樞紐品彚之根柢	-13.7114
十分為寸十寸為尺十尺為丈十丈為引	-13.7114
精傷莫使為明不見日光	-13.7114
䷮	-13.7114
堯扶禹從喬彭祖西	-13.7114
覬	-13.7114
人為旅俱歸北海入門上堂拜謁	-13.7114
渣	-13.7115
奐	-13.7116
淼	-13.7116
王母道路夷易無敢難者	-13.7116
腯	-13.7116
酣	-13.7116
水火相射既濟未濟四象相交成十六事	-13.7118
满	-13.7118
明黄道周撰孔圖經	-13.7118
洊	-13.7118
瘕	-13.7118
郯	-13.7118
甲寅辰巽戌坎辛申八	-13.7118
瘇	-13.7118
䙝	-13.712
撐	-13.712
吽	-13.712
愬	-13.712
芡	-13.712
折三輕慎禍於股肱之内	-13.7122
埻	-13.7122
俿	-13.7122
陽無可盡之理變於上則生於下	-13.7122
巵	-13.7122
臞	-13.7123
汞	-13.7124
紕	-13.7124
變者化之漸化者變之成	-13.7124
霅	-13.7124
阧	-13.7124
捶	-13.7124
長生無極子孫千億柏柱載梁堅固不傾	-13.7124
奯	-13.7124
者順知來者逆是故易逆數也	-13.7126
簀	-13.7126
下一文斜出而抱尾	-13.7126
憇	-13.7126
淤	-13.7126
扼	-13.7126
箋	-13.7126
敧	-13.7128
繚	-13.7128
以欲動情勝利害相攻	-13.7128
詶	-13.7128
酈	-13.713
鋋	-13.713
鵾	-13.7132
纆	-13.7132
䷟	-13.7132
疹	-13.7132
勮	-13.7132
􁐘	-13.7132
懸天之景薄地之儀皆移千里而差一寸	-13.7134
隂静陽動静者常偏居動者常去来	-13.7134
吅	-13.7134
牋	-13.7135
䷕	-13.7136
哆	-13.7136
嚻	-13.7136
渰	-13.7137
邸	-13.7138
𣙗	-13.7138
儷	-13.7139
錙	-13.714
軺	-13.7141
卝	-13.7141
刳	-13.7141
敝笱在梁魴逸不禁漁父勞苦	-13.7141
陳媯敬仲兆興齊姜乃適營丘八世大昌	-13.7141
𬋩	-13.7145
㐬	-13.7145
柘	-13.7152
䷌	-13.7153
䷇	-13.7153
囮	-13.7153
䷥	-13.7157
洼	-13.7157
鎧	-13.7157
𥜗	-13.7161
藂	-13.7161
攓	-13.7161
窴	-13.7161
噭	-13.7163
渦	-13.7163
儛	-13.7165
䐜	-13.7172
顇	-13.7176
㕹	-13.718
吪	-13.7182
䩜	-13.7186
緰	-13.7188
緺	-13.7193
鑢	-13.7194
􁢾	-13.7194
勼	-13.7201
􁀨	-13.7203
晣	-13.7205
傘	-13.7205
餕	-13.7213
跰	-13.7215
骩	-13.7215
佅	-13.7221
傠	-13.7223
摐	-13.7225
䪻	-13.7226
䂄	-13.7232
􁭽	-13.7238
狊	-13.7244
磎	-13.7248
唳	-13.7254
日入戌初一刻七分夜三十七刻一分	-14.1747
唯洛食我又卜瀍水東亦唯洛食	-14.1893
見壬得九數乾元用九也夫婦配合故甲	-14.1965
之中又有金輪火輪水輪天乙太乙諸名	-14.1968
帝星紫㣲鑾駕北辰帝星撼龍帝星都天	-14.1971
馬貴人既非實有此星又且必無此理且	-14.1971
故壬子之水應北方之坎丙午之火實南	-14.1984
之九尺畢北七尺觜參北一丈三尺貫	-14.1987
出栁北六尺出七星張北一丈三尺出	-14.1987
女主亂政家則妻妾奸謀女人憂	-14.1987
曰日月五星行歴左角内行左亢外四尺	-14.1987
惋	-14.199
四孟之正煞辰戌各五丑未各八總二十	-14.1993
為衝是水火相濟之源有夫婦配合之理	-14.1993
四仲之正煞寅申各七己亥各四總二十	-14.1996
既登以成嘉功尨降庭堅國無災凶	-14.1996
不宜傷相貌心神漂泊水孛最忌入遷移	-14.1996
宅遷移出行交易合藥問病百事不宜按	-14.1996
井中行鬼外十四尺行栁内九尺行	-14.1996
尺行奎外十三尺行婁外九尺行胃外十	-14.1996
恣虐為害主失冬政者期如上占禍應之	-14.1999
河間姹女工數錢以錢為室金為堂	-14.1999
之世如夏三王之世如秋五伯之世如冬	-14.1999
凡十數則曰一十洛書數始於一終於九	-14.1999
四也數止於九不言十者十則又起一	-14.1999
外六尺行危外十三尺行室外十六尺行	-14.1999
至未得八故丑未二支皆得八也以寅加	-14.1999
凾	-14.2002
不明徳氣在内刑氣在外利于居家不	-14.2006
平直洪潤不宜輕㣲摺折生枝	-14.2006
所在法推天目所在法推計神所在法推	-14.2006
故羲文因之而造易禹箕叙之而作範也	-14.2009
幞	-14.2012
外邦相連以兵陽與陽合兵謀在國隂與	-14.2012
以墨畫龜以求吉兆乃鑚之以觀其所	-14.2012
兙	-14.2014
䘮出外宜遷葬以禳之日墓加酉為内䘮	-14.2015
墓加酉為外䘮入内宜合夀木以禳之	-14.2015
不然則多憂少樂生平成敗碌碌到老	-14.2015
一變盖天道以六而變必有餘分小則六	-14.2015
為青穰者明日大寒小雨見此者	-14.2015
如俯者福相也或屈而視下頭低	-14.2018
崿	-14.2018
上須得豐隆不俗如龜背而廣厚	-14.2018
此王氣當如其常色變則失所也	-14.2018
革之象曰澤中有火革君子以治厯明時	-14.2018
一位十二年一週若國家巡狩省方出師	-14.2018
身度主如上弦望前望後及下弦生者看	-14.2018
年則六日為六年進之而六十年在小運	-14.2018
杰	-14.202
或自墓𫝊生或鬼墓有克制冲破	-14.2021
梁下有懸鼓我欲擊之丞卿怒	-14.2021
建祿切忌㑹煞為凶官星七煞交差却	-14.2021
宫逆行零順㡬年終若見逺時數二節零	-14.2021
甘露醴泉太平機闗仁徳感應嵗樂民安	-14.2021
前無孟之可隠後無季之可奔	-14.2023
我卜河朔黎水我乃卜澗水東瀍水西	-14.2024
如龍行雨降虎嘯風生又如火旺先有其	-14.2024
且貪丙丁或遇多貧病庚辛格號母生兒	-14.2024
者其中有一星得用坐煞得時及官禄有	-14.2024
上山髙仰重難終日至暮不見阜	-14.2025
巋	-14.2025
楬	-14.2025
迫而不能烝于是有地震今三川實震	-14.2025
分每運得三百六十元分總一元之分數	-14.2025
外鎮行都指揮使司一屬井鬼分外鎮衛	-14.2025
舍逺就近舍疎就親恩中	-14.2025
善歌者有遶梁之聲善唱者合宫	-14.2025
則氣卦候卦運經世則日卦時卦之數	-14.2025
宫上將居之用兵而擊其沖百勝	-14.2025
祔	-14.2025
局一則生二二則生三生生無窮宫神震	-14.2026
出自黃帝無疑矣再考太𤣥數如何以甲	-14.2028
天地之數是也子一陽屬乾父道也甲壬	-14.2028
鄭曹邾杞八國之君盟于	-14.2028
王求申中庚金相益故曰餘盛此其義也	-14.2028
痏	-14.2028
道之國日月過之即明人君吉昌人民安	-14.2028
四自十四至二十三皆距九日世不敢用	-14.2028
聃	-14.2028
蝕法減阿脩訖餘者即是間量	-14.2028
上古穴居而野處後世聖人易之以宫室	-14.2028
地子為支神之首以此加之是為諸局之	-14.2029
陽甲隂戌支干相和㑹故甲戌為正月大	-14.2029
之包五行也以其流通貫徹而無不在也	-14.2031
左左倪也右右倪也隂後弇也陽前弇也	-14.2031
在甲三七十一月在壬四八十二月在庚	-14.2031
春木王生丙丁夏火王生戊巳秋金王生	-14.2031
日啓攢用丙子庚子壬子甲寅丙寅乙	-14.2031
四月巳中之丙不能配隂建之未是也小	-14.2031
聚東郭衆犬俱獵圍缺不成無所能獲	-14.2031
長子入獄婦饋母哭霜降旬	-14.2031
喭	-14.2031
多寒民病瘧若病瘟赤雲覆之	-14.2031
天之道也所理之方可舉賢能於國有益	-14.2031
紫炁星禹門先躍化凡鱗威	-14.2031
菷	-14.2031
近於乙陽乙隂酉故乙酉為二月大	-14.2031
隂絶之辰以四時旺干臨之故曰四窮所	-14.2031
齊桓公㑹宋陳魯衛鄭許曹之君盟于	-14.2031
所領日為十月絶陽所領日立成	-14.2032
下忌壬癸巳午之方時遇子申其福減半	-14.2032
正取用最為𦂳切此宫體認與四正四刑	-14.2032
九坎天下旱名水不流五穀不登人民大	-14.2032
横吉上柱足肣内自舉外自垂	-14.2034
横吉上柱載正身節折内外自舉	-14.2034
坎一坤二震三巽四中五乾六	-14.2034
多小星三五在東早夜晨行勞苦無功	-14.2034
港	-14.2034
生甲乙惟庚辛者金也能殺萬物故不用	-14.2034
終竟落風塵合絶莫合貴此法人難	-14.2034
起丙子從甲至巳越五日共六十時花甲	-14.2034
張度徐徐之福星度木惡南奔	-14.2034
羭	-14.2034
以丁配之存其溫和之氣也立冬建亥以	-14.2034
寛下之辰也天有四禁常開一門甲為陽	-14.2034
藏吉内駁雜生於純粹比和出於戰争故	-14.2034
言福可以迎推纔入衰鄉論災宜其逆課	-14.2034
䷸	-14.2034
元武門午為明堂門卯為日門酉為月門	-14.2034
數盡而將分也又得休干臨之故曰耗	-14.2034
遇巷在陽君子季姬並坐鼓簧	-14.2034
八月隂陽二建對衝故相易也其月無小	-14.2034
則眡髙作龜大祭祀則眡髙命龜	-14.2034
唶	-14.2034
子午卯酉四敗之局男犯興衰女犯孤獨	-14.2034
年在辰酉年在亥戌年在子亥年在丑也	-14.2034
曹震圭曰小時者是當時之旺辰也忌結	-14.2034
至老耳目聰明火孛臨坤未免腰背屈曲	-14.2034
親上支合者得衆人之心本乎地者親下	-14.2034
赦其日可以緩刑獄雪寃枉施恩惠若與	-14.2034
進五辰而不及六者謂五為君位中央之	-14.2034
丑近於癸以癸配亥故癸亥為十二月大	-14.2034
仁昌金虧則義寡餘皆象事知	-14.2034
文曲五廉貞六武曲七破軍八左輔九右	-14.2034
配之取溫和之意也以酉為傍風配之以	-14.2034
雌單獨居歸其本巢毛羽憔悴志如死灰	-14.2034
類屬從化格判旺衰照伏拱遥局分	-14.2034
行是為難星得助此宫三宿如房度太陽	-14.2036
失明之象前有功徳虚喜後復抑塞難通	-14.2036
絶陽者謂九月十月陽氣絶也故九月小	-14.2036
己未近於丁以丁配巳故丁巳為六月大	-14.2036
辰陽建近庚以庚配辰故庚辰為七月大	-14.2036
無外卷之無内體諸造化而不可遺者乎	-14.2037
木音三八水音五十火音一六土音二七	-14.2037
命貴人一者為良若叢雜合多不	-14.2037
咺	-14.2037
旺産死遭人謗帶禄入衰鄉雖禍未為殃	-14.2037
及以甲丙戊配寅則不合故庚寅為行	-14.2037
廨	-14.2037
者致火災於宗廟王者不冝出宫下殿有	-14.2037
辛配丑則不從以癸配丑則不及以乙丁	-14.2037
宿起算查二十八宿選擇之法來自西域	-14.2037
捫	-14.2037
殺氣故不可用也各以四時所生之陽辰	-14.2037
衛鄭曹莒邾滕薛杞小邾	-14.2037
也故各配五日合之成一十有五為天恩	-14.2037
人名之曰道聖人見道然後知王治之象	-14.2037
以季辰收殺萬物是其逆也五六七八為	-14.2037
厯陳成敗以視賢者名之曰經賢者見經	-14.2037
月布星辰分隂陽定四時列五行以視聖	-14.2037
殺神逆天地之道者也假令正二三四為	-14.2037
與其生焉有成熟哉九十十一十二月為	-14.2037
虎卧山隅鹿過後胊弓矢	-14.2037
金生子水冬水生寅木也四相取天干時	-14.2037
陽火土計羅臨照視英雄難保少年郎	-14.2037
雄狐綏綏登山崔嵬昭告顯功大福允興	-14.2037
髙明為福必矣晝生則用輕晝生若木土	-14.2037
主禮戊己土主信庚辛金主義壬癸	-14.2037
亦或居蔡未聞其以死龜卜也况	-14.2037
偟	-14.2037
入萬物凋隂氣南出麻麥生此隂陽出入	-14.2037
午午近於丙以丙配午故丙午為五月大	-14.2037
天乾居正南後天離居正南故以甲配子	-14.2037
後情情然後事事然後徳徳然後家家然	-14.2037
徒隸死别伏罪不舉罪刑	-14.2037
微中華東西門若左右掖門而南出端門	-14.2037
日用夘七月壬癸日用午占妻懐孕無疑	-14.2037
旺氣也忌開倉庫者是旺氣發而不收也	-14.2037
絶胎為白虎自墓為大墓衝墓為小墓尅	-14.2037
經云火不尅金何旺土生金火亦生金也	-14.2037
臨時選用詳萬年書鋪註條例	-14.2037
采薇出車魚麗思初上下	-14.2037
金旺則火土耗冬水旺則金耗故曰四耗	-14.2037
不動不克無所取擇自任其已之剛進用	-14.2038
於子午故無隂錯陽錯隂陽俱錯	-14.2039
合木木能生火乃絶而復續也若助之金	-14.2039
生不為忌夜更有功一火滿用此為最切	-14.2039
財之用而為陽明之助火為本領與木相	-14.2039
於后族羣妃之黨横僭為害則月盈	-14.2039
上為君中為臣下為民四以一為少陽	-14.204
宫主者州郡也度主者縣令也由縣而州	-14.204
曰天下和平王道得而蓍莖長丈其叢生	-14.204
湟	-14.204
監當年編校亦止照依舊本	-14.204
能飛翺翔桂林為衆鳥雄	-14.204
短而蠢六爻不動凡事宜遲不宜速若頭	-14.204
之君仁政且温伊吕股肱國富	-14.204
人為人性必端厚量必寛洪仁慈處世無	-14.204
其法以甲丙庚壬四干配午申得八日避	-14.204
圻	-14.204
墓於未加以乙未是自臨墓辰也餘倣此	-14.204
恃隂邪故陽氣刑之使不復歸所以子刑	-14.204
禄居福身主命主入福又有日月照福	-14.204
衝散也申子辰月水墓在辰戌能衝散也	-14.204
兵大起車騎用將軍出若騎士憂郗萌曰	-14.204
侯王不寧用兵進吉退凶日方南太白居	-14.204
在玉宇之前似王公建修宅第之次序也	-14.204
小運有進退無消長消長者進退之積也	-14.204
局登籍坐貴與宫神太嵗相闗	-14.204
巳辰年在午巳年在未午年在寅未年在	-14.204
時為進午以後六時為退大運有消長	-14.204
之春起甲戌秋起甲辰丑未者隂土也以	-14.204
二太陽三喪門四太隂五官符六死符七	-14.204
又為四利白虎小凶收為四利福徳小吉	-14.204
大吉定為歳三合為顯星吉又為地官符	-14.204
守房心天子被藥酒死一曰宫人食糟糠	-14.204
日土計犯月皆損害六親朔日蝕望月蝕	-14.204
曹震圭曰天賊者盜神也常居天倉後辰	-14.204
滿野天下半傾百姓徙居去其土期三年	-14.204
為入紀實置入紀實以太乙周法	-14.204
生育哉是逆天地之道萬物無能成就也	-14.204
纖	-14.204
赦過之辰則非以子午寅申為罪過也	-14.204
辰極隂之位以四時隂干配之故曰四窮	-14.204
屯需師小畜泰同人謙隨臨噬	-14.204
晝生以土水木為三限主如晝之木土本	-14.204
水流趨下遂成東海求我所有	-14.204
立九侯置三王取與必當無逆天殃熒惑	-14.204
苪	-14.204
建於酉近於辛支干相配為辛酉日酉衝	-14.2042
絶隂者謂三月四月隂氣絶也故三月小	-14.2042
陰為主金火助之吉見土計為忌葢夜生	-14.2042
以標本論詩曰十二宫中不言主强云晝	-14.2042
見日月妙不可言或限中日月夾拱皆致	-14.2042
艱難蛟龍得意興雲雨一上青霄便不凡	-14.2043
之宗四維八方並須停正左耳為東	-14.2043
方鼻為南方玉枕為北方左頰為東南角	-14.2043
難入貴所謂九骨者一曰顴骨二曰驛馬	-14.2043
無門脩短有數脩為由命倚伏在人	-14.2043
事多重叠憂喜再來干渉婦人乆而反	-14.2043
偏之亥為三合偏之丑為不入局四正是	-14.2043
福三合是三合灾福一星稍異理皆不然	-14.2043
僧道如更入廟旺及生時在貴科必主為	-14.2043
幬	-14.2043
玉堅不可得盡我筋力胝胼為疾	-14.2043
等恭編御製算法律吕諸書	-14.2043
蒨	-14.2043
及以己辛癸配未則不合故乙未為行	-14.2043
石門晨門荷蕢食貧遁世隠居竟不逢時	-14.2043
若無揚子天人學安有荘生内外篇	-14.2043
長城既立四夷賔服交和結好昭君是福	-14.2043
不及以戊庚壬配申則不合故甲申為行	-14.2043
丑旺而反衰則不能為江河故曰澗下水	-14.2043
得五日避未土不用共十三日為鳴吠日	-14.2043
比如身在亥有木臨照為禍尤甚縱無木	-14.2043
禁神也其日忌獻封章興詞訟赴任征討	-14.2043
若限見火羅作黨則不吉也他土亦然謂	-14.2043
海水出江河决溢若海魚出	-14.2043
為帝旺之地氐土近房亦居明堂出政之	-14.2043
霧露雪霜日暗不明隂孽為疾年榖大傷	-14.2043
之精符會為合也所理之地衆惡皆消所	-14.2043
其體如龍一生一殺相戰于門故名龍戰	-14.2043
分之陽則置右而揲左隂則置左而揲右	-14.2043
及金土局亦作財官論見甲乙奪財丙	-14.2043
合者將離居者將徙欲行莫行欲止莫止	-14.2043
喋	-14.2043
四時絶辰也其日忌開倉庫營種蒔出財	-14.2043
夭即盲啞之人日月同在命宫其人多貴	-14.2043
巢芳蓮旋卷耳處嘉林	-14.2043
帽	-14.2043
從火中出必有火而後有土以氐為土度	-14.2043
必自十二月生日後實經厯過二十有一	-14.2043
日食朔月食望如日正食之時而人生	-14.2043
析薪熾酒使媒求婦和合齊宋姜子悦喜	-14.2043
欒子作殃伯氏誅傷州犂奔楚	-14.2043
湄	-14.2043
生旺論之不可一槩言也庚人得之而為	-14.2043
用約法論以一嵗竒八月起運便以二嵗	-14.2043
載璧秉珪請命于河周公	-14.2043
逐家人犬者夷狄且來入君邑中又曰	-14.2043
㡳	-14.2044
失日為主躔木度月為主躔土度皆失也	-14.2044
弟謀其兄是謂無理諸侯不通天下易政	-14.2044
杝	-14.2044
洞源經曰對七為衝隔三為破	-14.2044
者明堂也所理之方可進賢能於國有益	-14.2044
覆為先互加次之此宫立命以太陰為官	-14.2044
陽否其氣又同隂陽各半亦同藏於申也	-14.2044
刑夘戌己子辰申午丑寅酉未亥	-14.2044
招摇邊兵大起敵人為冦若守之敵人敗	-14.2045
方以木為碍終無傷人元氣若春夏之際	-14.2045
丙辰干上皆午是為親辛丑辛未各二日	-14.2047
支為地有母道焉萬物生於土有藏道焉	-14.2047
戊庚隨時轉行不失常節萌芽律屈咸逹	-14.2047
烏雉戌人狗狼豺亥人猪豕㺄	-14.2047
羸弱之名日干旺甚無依若不為僧即道	-14.2047
㫖改正外其餘參差錯誤之處甚多因係	-14.2047
九月譌戊辰戊子十月譌庚戌庚子十一	-14.2047
俗如犯刑煞主徒流歸俗如有救神即免	-14.2047
六月譌癸未癸巳七八月互易丁亥譌丁	-14.2047
安牀厚褥不得久宿棄我	-14.2047
已存以庫水而逢生金則泉源	-14.2047
常從此地擊其沖百戰百勝君須記	-14.2047
怕火以土性存焉若秋冬得金獨垣	-14.2047
應爻辛酉十二月用坤世爻癸酉應爻乙	-14.2047
者金之母二者不可離若夏令以火行權	-14.2047
吟局人多不足若得火羅十分為上有木	-14.2047
陽建於辰隂建於申陽前不及於丙隔於	-14.2047
首羲前所立非諸述譔之所	-14.2047
不可犯之動土興工亦須迴避犯之多	-14.2047
以木為本元若或戊巳生及納音土安命	-14.2047
㮣	-14.2047
一白貪狼至十四二十三又值五黄廉貞	-14.2047
五陽之月夬五陽之卦故以配之四月建	-14.2047
例假令辛卯年八月初八日子時生人不	-14.2047
午旬用子甲辰甲寅旬用亥此為旬三竒	-14.2047
君也所在之方可詔此方之臣以誅有罪	-14.2047
太素者質之始此四句者同論天地之前	-14.2047
故以配之十一月建子復卦月令仲冬鄭	-14.2047
斕	-14.2047
止即得所領日數也隂陽小㑹堪輿經曰	-14.2047
水命火同在命或三合或十五度之内相	-14.2047
無氣乃天之凶吏全無生意也其忌可知	-14.2047
煞臨乾坤艮巽之位為四煞沒於四維正	-14.2047
爭言戰於龍門搆怨結禍三世不安	-14.2047
牣	-14.2047
生三秋四季及金土局財官有用如不透	-14.2047
者太白之精白獸之神主兵戈喪亂水旱	-14.2047
至十丈期七年十丈以上期九年	-14.2047
虚者四時逢絶之辰也物絶則損朽其中	-14.2047
酉乙庚之年在辰巳丙辛之年在子丑寅	-14.2047
頭平身直足管如蛾眉覆月	-14.2047
館奉㫖重修選擇通書萬年書先據	-14.2047
魅之神也其性暗昧私邪不正故各忌之	-14.2047
㘁	-14.2047
一十二辰至五月夏至二氣又同建而相	-14.2047
乃符先到而節後到當用超法	-14.2047
之辰也所理之方可以禳災祈福避病所	-14.2047
也人生以百二十嵗為周天論折除之法	-14.2047
二月隂陽氣離則建事於前私藏於後故	-14.2047
以生日前過去節氣日時為數逆而行之	-14.2047
多居之陽分人多貪吝如逢水孛則以為	-14.2047
夜墓昏昧自甚日墓坐夜亦然辰戌墓主	-14.2047
摰	-14.2047
瓿	-14.2048
瑙	-14.205
曎	-14.205
刊	-14.205
憬	-14.205
擴	-14.205
碁	-14.205
箠	-14.2053
癢	-14.2053
㭿	-14.2053
䷛	-14.2053
徘	-14.2053
丄	-14.2053
皚	-14.2053
簦	-14.2056
濠	-14.2056
劬	-14.2056
煽	-14.2056
葶	-14.2056
涔	-14.2056
纑	-14.2056
肈	-14.2056
蒍	-14.2056
晟	-14.2058
䘵	-14.2058
䷎	-14.2059
圮	-14.2059
柈	-14.2059
齚	-14.2059
楹	-14.2059
墬	-14.2059
撑	-14.2059
肋	-14.2059
皋	-14.2059
纇	-14.206
爌	-14.206
櫂	-14.2061
媯	-14.2062
甔	-14.2062
䀨	-14.2062
芋	-14.2062
䓆	-14.2062
哈	-14.2062
奬	-14.2062
姫	-14.2062
桺	-14.2062
麑	-14.2062
"	-14.2064
3	-14.2064
錠	-14.2065
剜	-14.2065
藘	-14.2065
廥	-14.2065
曦	-14.2066
愉	-14.2066
摛	-14.2066
筏	-14.2066
晻	-14.2066
䥴	-14.2066
龕	-14.2068
嵕	-14.2069
鴦	-14.2069
刧	-14.2069
痒	-14.2069
莪	-14.2069
喊	-14.2069
竢	-14.2069
悪	-14.2069
曶	-14.2069
炌	-14.2069
祏	-14.2069
賡	-14.2069
婪	-14.207
篙	-14.2071
筑	-14.2072
倬	-14.2072
慣	-14.2072
楞	-14.2072
喔	-14.2072
篷	-14.2072
櫛	-14.2075
頊	-14.2075
秪	-14.2075
箎	-14.2075
恆	-14.2075
梃	-14.2075
咢	-14.2075
悤	-14.2075
挐	-14.2075
菶	-14.2075
羃	-14.2076
菁	-14.2077
椽	-14.2078
侫	-14.2078
甥	-14.2078
嘵	-14.2078
檄	-14.2078
肄	-14.2078
捬	-14.2078
杷	-14.2078
箑	-14.2078
姸	-14.2081
縢	-14.2081
塢	-14.2081
洳	-14.2081
靂	-14.2081
忮	-14.2081
㡌	-14.2081
塤	-14.2081
㷀	-14.2081
䖡	-14.2081
嗹	-14.2081
埶	-14.2081
夤	-14.2081
烝	-14.2081
禴	-14.2081
綳	-14.2081
羵	-14.2081
苕	-14.2084
枇	-14.2084
漑	-14.2084
痁	-14.2084
簸	-14.2084
儁	-14.2085
届	-14.2087
牕	-14.2087
攛	-14.2088
呢	-14.2088
桶	-14.2088
氶	-14.2088
峴	-14.2088
愾	-14.2088
筈	-14.2088
圊	-14.2088
憃	-14.2088
昶	-14.2088
洌	-14.2088
甓	-14.2088
紉	-14.2091
矱	-14.2091
喩	-14.2091
劄	-14.2091
慁	-14.2091
㾿	-14.2091
籓	-14.2091
甯	-14.2091
笄	-14.2091
䷢	-14.2091
塾	-14.2091
摻	-14.2091
暒	-14.2091
穂	-14.2094
庠	-14.2094
䷩	-14.2094
癈	-14.2094
溆	-14.2094
緧	-14.2094
蕘	-14.2097
荐	-14.2097
峪	-14.2097
媸	-14.2097
彧	-14.2097
抆	-14.2097
楠	-14.2097
皤	-14.21
溠	-14.21
涙	-14.21
尿	-14.21
畵	-14.2103
蛉	-14.2103
厘	-14.2103
澌	-14.2103
甪	-14.2103
紵	-14.2103
套	-14.2103
漶	-14.2103
瑁	-14.2103
蕨	-14.2103
埓	-14.2106
燐	-14.2106
䷄	-14.2106
䷯	-14.2106
䷽	-14.2106
枘	-14.2106
瀐	-14.2106
徯	-14.2106
疸	-14.2106
胼	-14.2108
瞋	-14.211
璟	-14.211
囱	-14.211
䷳	-14.211
䷘	-14.211
彴	-14.211
樟	-14.211
盎	-14.2113
幔	-14.2113
痪	-14.2113
溳	-14.2113
綫	-14.2113
焫	-14.2113
曕	-14.2113
箣	-14.2113
洄	-14.2116
帖	-14.2116
剏	-14.2116
歠	-14.2116
棚	-14.2116
晬	-14.2116
嚾	-14.2116
㬉	-14.2119
䷧	-14.2119
筯	-14.2119
繄	-14.2121
寞	-14.2122
䷿	-14.2122
㳂	-14.2122
烖	-14.2122
䷦	-14.2122
䷍	-14.2122
眄	-14.2122
沇	-14.2122
葰	-14.2122
确	-14.2125
絙	-14.2125
揵	-14.2125
簋	-14.2125
窾	-14.2125
妳	-14.2125
芥	-14.2125
柵	-14.2128
蒐	-14.2128
耎	-14.2128
皈	-14.2129
簫	-14.2129
泡	-14.2129
濇	-14.2129
䷜	-14.2131
噋	-14.2132
噏	-14.2132
嚶	-14.2132
囈	-14.2135
棃	-14.2135
榘	-14.2135
●	-14.2135
喟	-14.2138
磽	-14.2138
夽	-14.2138
皞	-14.2138
籧	-14.2138
尔	-14.2141
圄	-14.2144
澧	-14.2144
慱	-14.2144
厖	-14.2147
䷚	-14.2147
丱	-14.2147
䷲	-14.2147
啑	-14.215
䷞	-14.215
璿	-14.2151
堁	-14.2151
簼	-14.2151
綆	-14.2151
繀	-14.2151
舖	-14.2151
箴	-14.2154
揩	-14.2154
喖	-14.2154
緻	-14.2154
䷔	-14.2154
䷼	-14.2157
䷆	-14.2157
䷤	-14.2157
壼	-14.2157
堙	-14.216
䷾	-14.216
畬	-14.2166
䷴	-14.2166
䷣	-14.217
盒	-14.217
屨	-14.2173
潺	-14.2176
拍	-14.2179
繖	-14.2182
藎	-14.2182
䷅	-14.2182
宍	-14.2182
䷙	-14.2185
䷹	-14.2189
柿	-14.2189
毈	-14.2189
涑	-14.2192
㱕	-14.2192
吿	-14.2192
䷝	-14.2195
薉	-14.2195
㒧	-14.2198
偈	-14.2198
沚	-14.2207
瞴	-14.2211
絭	-14.2217
戁	-14.2217
獪	-14.2226
崟	-14.2226
朂	-14.2226
㓻	-14.2239
舄	-14.2283
蕆	-15.1892
营	-15.1893
莧	-15.1894
荻	-15.1895
荏	-15.1896
茒	-15.1897
苧	-15.1898
臃	-15.1899
腔	-15.19
肸	-15.1901
聱	-15.1902
翎	-15.1903
繅	-15.1904
縯	-15.1905
緲	-15.1906
綾	-15.1907
糢	-15.1908
箬	-15.1909
窞	-15.191
稊	-15.1911
秧	-15.1912
禖	-15.1913
硯	-15.1914
硫	-15.1915
硖	-15.1916
眙	-15.1917
眕	-15.1918
盩	-15.1919
癧	-15.192
瘰	-15.1921
痞	-15.1922
畯	-15.1923
璠	-15.1924
獫	-15.1925
猙	-15.1926
狳	-15.1927
犰	-15.1928
爕	-15.1929
熲	-15.193
焬	-15.1931
灝	-15.1932
漱	-15.1933
漪	-15.1934
漙	-15.1935
滍	-15.1936
泲	-15.1937
毖	-15.1938
殢	-15.1939
歜	-15.194
欛	-15.1941
榬	-15.1942
榛	-15.1943
楘	-15.1944
楔	-15.1945
棼	-15.1946
桼	-15.1947
柅	-15.1948
枹	-15.1949
朡	-15.195
朐	-15.1951
斐	-15.1952
擐	-15.1953
揶	-15.1954
挿	-15.1955
拌	-15.1956
担	-15.1957
懆	-15.1958
慚	-15.1959
悛	-15.196
彲	-15.1961
彜	-15.1962
廆	-15.1963
庳	-15.1964
幓	-15.1965
嶰	-15.1966
罍	-15.1966
蹺	-15.1966
嶤	-15.1967
嵖	-15.1968
岧	-15.1969
岢	-15.197
岟	-15.1971
岍	-15.1972
岈	-15.1973
屼	-15.1974
孜	-15.1975
嬾	-15.1976
媳	-15.1977
媧	-15.1978
姹	-15.1979
妲	-15.198
壈	-15.1981
埭	-15.1982
垝	-15.1983
坻	-15.1984
嚭	-15.1985
厔	-15.1986
卨	-15.1987
劊	-15.1988
刦	-15.1989
儓	-15.199
僽	-15.1991
僝	-15.1992
倥	-15.1993
侂	-15.1994
佖	-15.1995
伾	-15.1996
乚	-15.1997
䷵	-15.1998
䷨	-15.1999
䷉	-15.2
䴸	-15.2001
䳌	-15.2002
䗫	-15.2003
㴞	-15.2004
㮦	-15.2005
㕛	-15.2006
㓨	-15.2007
〇	-15.2008
黛	-15.2009
黓	-15.201
鸛	-15.2011
鷖	-15.2012
鳲	-15.2013
騕	-15.2014
鍋	-15.2014
騊	-15.2015
駼	-15.2016
馹	-15.2017
饞	-15.2018
餞	-15.2019
頠	-15.202
鎩	-15.2021
鎌	-15.2022
俐	-15.2022
擿	-15.2022
釘	-15.2023
邂	-15.2024
逌	-15.2025
轊	-15.2026
輥	-15.2027
蹕	-15.2028
豌	-15.2029
蝌	-15.203
蜲	-15.2031
蜎	-15.2032
蚰	-15.2033
虱	-15.2034
蘧	-15.2035
蕤	-15.2036
菉	-15.2037
艫	-15.2038
艇	-15.2039
舳	-15.204
肻	-15.2041
肬	-15.2042
联	-15.2043
翡	-15.2044
粕	-15.2045
竑	-15.2046
邐	-15.2046
礴	-15.2047
磅	-15.2048
眹	-15.2049
眶	-15.205
璆	-15.2051
琰	-15.2052
猳	-15.2053
爹	-15.2054
覈	-15.2054
滹	-15.2055
渗	-15.2056
欃	-15.2057
榨	-15.2058
桌	-15.2059
暠	-15.206
掊	-15.2061
彳	-15.2062
慷	-15.2062
嶒	-15.2063
嵂	-15.2064
崚	-15.2065
崐	-15.2066
屆	-15.2067
嬙	-15.2068
嬈	-15.2069
婷	-15.207
窵	-15.207
唭	-15.2071
匭	-15.2072
儱	-15.2073
亍	-15.2074
䷻	-15.2075
䷡	-15.2076
䷑	-15.2077
㘈	-15.2078
􁈓	-15.2079
鸎	-15.208
魃	-15.2081
驊	-15.2082
駸	-15.2083
餼	-15.2084
鑊	-15.2085
鄱	-15.2086
廛	-15.2086
醲	-15.2086
鄘	-15.2087
邽	-15.2088
辡	-15.2089
轔	-15.209
輳	-15.2091
躐	-15.2092
躅	-15.2093
蹏	-15.2094
跦	-15.2095
贔	-15.2096
貅	-15.2097
諄	-15.2098
裎	-15.2099
蠛	-15.21
蟋	-15.2101
蟀	-15.2102
蝝	-15.2103
蓑	-15.2104
萋	-15.2105
莞	-15.2106
茘	-15.2107
芭	-15.2108
膴	-15.2109
觿	-15.211
膜	-15.211
胊	-15.2111
胝	-15.2111
耨	-15.2112
翶	-15.2113
罳	-15.2114
綢	-15.2115
絏	-15.2116
糝	-15.2117
粢	-15.2118
籃	-15.2119
瞪	-15.212
眈	-15.2121
牁	-15.2122
炷	-15.2123
歍	-15.2124
暅	-15.2125
曩	-15.2125
晹	-15.2126
昺	-15.2127
攧	-15.2128
搢	-15.2129
拇	-15.213
悻	-15.2131
帆	-15.2132
娑	-15.2133
喓	-15.2134
哅	-15.2135
厫	-15.2136
勳	-15.2137
佾	-15.2138
䷷	-15.2139
䉔	-15.214
㾮	-15.2141
㸦	-15.2142
黅	-15.2143
麴	-15.2144
鴠	-15.2145
鱣	-15.2146
魎	-15.2147
鏝	-15.2148
逯	-15.2149
轘	-15.215
軏	-15.2151
貆	-15.2152
豷	-15.2153
謌	-15.2154
薺	-15.2155
蒺	-15.2156
菌	-15.2157
繰	-15.2158
琉	-15.2159
猊	-15.216
狻	-15.2161
煤	-15.2162
氤	-15.2163
搐	-15.2164
捏	-15.2165
崥	-15.2166
匐	-15.2167
匍	-15.2168
􁬗	-15.2169
髴	-15.217
髣	-15.2171
雝	-15.2172
郃	-15.2173
訩	-15.2174
覡	-15.2175
蠺	-15.2176
蝣	-15.2177
蜿	-15.2178
綎	-15.2179
禨	-15.218
盬	-15.2181
瓞	-15.2182
瑚	-15.2183
狽	-15.2184
燉	-15.2185
澈	-15.2186
浞	-15.2187
泱	-15.2188
楩	-15.2189
慊	-15.219
彿	-15.2191
尨	-15.2192
嫫	-15.2193
刲	-15.2194
䦕	-15.2195
蠆	-15.2196
蝃	-15.2197
紿	-15.2198
秣	-15.2199
焞	-15.22
氲	-15.2201
楷	-15.2202
枋	-15.2203
姮	-15.2204
壷	-15.2205
㬰	-15.2206
霏	-15.2207
輾	-15.2208
踟	-15.2209
螂	-15.221
蜘	-15.2211
蜍	-15.2212
脗	-15.2213
牾	-15.2214
牴	-15.2215
爝	-15.2216
款	-15.2217
昳	-15.2218
戔	-15.2219
娌	-15.222
妯	-15.2221
址	-15.2222
䂦	-15.2223
釧	-15.2223
螗	-15.2223
㲄	-15.2224
鵡	-15.2225
鵓	-15.2226
謳	-15.2227
蟆	-15.2228
碗	-15.2229
砒	-15.223
瘓	-15.2231
獼	-15.2232
唧	-15.2233
㕧	-15.2234
臊	-15.2235
瀟	-15.2236
涒	-15.2237
惙	-15.2238
彡	-15.2239
咷	-15.224
鸚	-15.2241
鵒	-15.2242
饉	-15.2243
錐	-15.2244
羑	-15.2245
漉	-15.2246
扦	-15.2247
媦	-15.2248
啻	-15.2249
驃	-15.225
跃	-15.2251
臾	-15.2252
墉	-15.2253
嚳	-15.2254
傉	-15.2255
藟	-15.2256
齬	-15.2256
齟	-15.2257
􁥰	-15.2258
惺	-15.2259
惚	-15.226
醞	-15.2261
薤	-15.2262
悌	-15.2263
峥	-15.2264
紜	-15.2265
怵	-15.2266
糟	-15.2267
逶	-15.2268
辿	-15.2269
坷	-15.227
爺	-15.2271
瀍	-15.2272
鄲	-15.2273
琊	-15.2274
憔	-15.2275
蹭	-15.2276
蹬	-15.2277
匃	-15.2278
逍	-15.2279
迢	-15.228
沌	-15.2281
惸	-15.2282
仃	-15.2283
鎡	-15.2284
玕	-15.2285
箔	-15.2286
蚯	-15.2287
喈	-15.2288
炅	-15.2289
嶸	-15.229
斟	-15.2291
崙	-15.2292
崑	-15.2293
觹	-15.2294
仔	-15.2295
匈	-15.2296
囹	-15.2296
