<unk>	0
<s>	0
</s>	0
。	-1.68261
,	-4.2316
者	-5.05016
佛	-5.30386
不	-5.57037
故	-5.67833
菩薩	-5.6786
也	-5.73057
之	-5.78194
有	-5.81939
為	-5.82634
無	-5.82687
、	-5.86132
若	-5.93645
中	-5.93905
心	-5.94828
法	-5.99443
如	-6.08937
如來	-6.1016
以	-6.10948
世尊	-6.11381
人	-6.12367
善男子	-6.12772
是	-6.15116
南無	-6.1706
我	-6.17673
言	-6.21305
於	-6.25331
相	-6.25374
身	-6.2788
一	-6.28344
眾生	-6.28476
得	-6.31288
行	-6.32346
時	-6.39372
大	-6.3952
生	-6.42495
說	-6.43063
即	-6.4364
從	-6.44784
如是	-6.45792
▁	-6.46158
一切	-6.48896
其	-6.50604
名	-6.50678
或	-6.5577
而	-6.5638
曰	-6.59276
等	-6.59997
見	-6.6052
及	-6.60873
自	-6.63152
爾時	-6.67804
復	-6.68658
作	-6.68862
;	-6.70113
上	-6.70954
亦	-6.71346
所	-6.71836
無量	-6.74341
何以故	-6.75466
道	-6.7664
白佛言	-6.76934
經	-6.7737
皆	-6.78494
善	-6.79141
三	-6.79457
出	-6.80257
能	-6.81922
已	-6.82198
當	-6.82819
下	-6.83042
若有	-6.83586
二	-6.83593
非	-6.8414
!	-6.85047
此	-6.85438
入	-6.8746
四	-6.87961
諸	-6.89561
常	-6.90503
。「	-6.91158
佛言	-6.92908
天	-6.92922
眾	-6.96223
王	-6.96268
令	-6.96506
欲	-6.9736
一切眾生	-6.97856
願	-6.99033
五	-6.99495
來	-7.00855
名為	-7.01421
處	-7.017
苦	-7.03105
食	-7.03492
王佛	-7.03636
盡	-7.05219
水	-7.05956
:「	-7.07446
在	-7.07517
(	-7.07605
惡	-7.0801
受	-7.08141
空	-7.0818
意	-7.08793
)	-7.09536
無有	-7.09992
多	-7.10216
與	-7.10221
難	-7.1267
汝	-7.12687
知	-7.13124
地	-7.14235
故言	-7.15246
語	-7.15279
色	-7.15379
子	-7.15521
義	-7.16539
樂	-7.18706
成	-7.19815
則	-7.20031
明	-7.20227
取	-7.21415
供養	-7.21487
死	-7.21935
解脫	-7.24794
諸佛	-7.24869
□	-7.25006
」	-7.2548
起	-7.25622
定	-7.25868
至	-7.26082
今	-7.26722
為人	-7.28147
眼	-7.29073
問	-7.29329
功德	-7.30395
煩惱	-7.31521
力	-7.33354
觀	-7.34112
念	-7.34476
識	-7.35364
生死	-7.35757
正	-7.36343
淨	-7.36625
六	-7.38229
用	-7.38609
罪	-7.39084
智	-7.39146
長	-7.4007
由	-7.41087
應	-7.41682
云何	-7.41935
聞	-7.41939
因	-7.42254
外	-7.42657
事	-7.42943
後	-7.43042
好	-7.43653
彼	-7.44991
病	-7.45431
可	-7.45615
是故	-7.45849
求	-7.4662
施	-7.47032
。」	-7.47228
門	-7.47279
鬼	-7.4749
此經	-7.48584
真	-7.4868
世間	-7.48915
劫	-7.48944
著	-7.49097
又	-7.49121
滅	-7.50996
修	-7.51207
住	-7.52697
方	-7.53029
神	-7.5325
是人	-7.53517
清淨	-7.53604
山	-7.54021
轉	-7.54741
前	-7.54764
隨	-7.55755
口	-7.56214
譬如	-7.56218
本	-7.56422
持	-7.56656
光佛	-7.57381
實	-7.57733
地獄	-7.57917
中來	-7.58129
不得	-7.58211
師	-7.58211
緣	-7.58393
大乘	-7.58453
?	-7.5945
重	-7.5979
七	-7.59873
教	-7.59914
日	-7.60041
然	-7.6078
內	-7.61284
但	-7.6148
乃至	-7.61558
國	-7.61669
智慧	-7.63139
福	-7.63517
寶	-7.63656
.	-7.6463
捨	-7.64922
雖	-7.64968
去	-7.65328
依	-7.65682
除	-7.65886
N	-7.66354
o	-7.66355
佛告	-7.66379
使	-7.66647
亦復如是	-7.67012
第二	-7.6714
同	-7.67643
乃	-7.6839
理	-7.68643
二者	-7.68761
種	-7.69717
解	-7.70232
少	-7.71019
便	-7.71144
現	-7.71272
性	-7.71367
安	-7.71781
是名	-7.72229
何	-7.72239
命	-7.72573
不能	-7.72589
具	-7.72866
種種	-7.73382
各	-7.73705
未	-7.75083
德	-7.75087
過	-7.75215
果	-7.75494
三寶	-7.7559
父母	-7.75655
火	-7.7576
自在	-7.7662
既	-7.77036
破	-7.77147
光明	-7.77655
頭	-7.78256
離	-7.78449
白	-7.78756
自然	-7.79252
俱	-7.79767
懺悔	-7.79858
受持	-7.80001
聲	-7.80158
覺	-7.80383
涅槃	-7.80862
報	-7.80952
深	-7.82427
形	-7.82702
小	-7.82961
異	-7.83154
初	-7.83556
菩提	-7.83587
華	-7.83916
分	-7.8403
莫	-7.84154
一者	-7.84308
因緣	-7.84517
還	-7.84653
不見	-7.86853
唯	-7.86895
勝	-7.87432
名之為	-7.87873
城	-7.87992
動	-7.89457
音	-7.89557
僧	-7.90278
斷	-7.90494
乘	-7.90558
利	-7.90822
八	-7.90864
一心	-7.90942
十	-7.91056
合	-7.91361
造	-7.91953
母	-7.92149
普	-7.92176
吾	-7.9241
信	-7.92456
耳	-7.92876
通	-7.93328
化	-7.93403
愛	-7.93425
將	-7.93732
先	-7.94526
悉	-7.94555
度	-7.94702
不可思議	-7.94774
根	-7.95218
物	-7.953
年	-7.95547
即是	-7.95583
尊	-7.95685
香	-7.95716
戒	-7.95905
數	-7.96165
歡喜	-7.9658
他	-7.97419
謂	-7.97802
爾時世尊	-7.98133
女	-7.98236
沙門	-7.9842
體	-7.98525
業	-7.98537
百	-7.98555
之時	-7.98724
文	-7.98778
廣	-7.989
光	-7.99774
向	-7.99782
精進	-8.00514
第三	-8.00569
想	-8.00801
亦不	-8.0138
土	-8.01517
歲	-8.01713
妙	-8.01716
恒	-8.02078
遍	-8.02534
共	-8.03285
萬里	-8.03596
風	-8.03657
開	-8.0394
亦無	-8.04019
足	-8.04294
方便	-8.04298
並	-8.04706
證	-8.05609
發	-8.05707
極	-8.06051
餘	-8.06164
分別	-8.06329
布施	-8.06493
家	-8.07146
月	-8.08084
學	-8.08489
邪	-8.08569
虛空	-8.08815
說法	-8.09158
是經	-8.09339
照	-8.09514
皆悉	-8.09947
悉皆	-8.10176
法身	-8.10849
所以	-8.10907
汝等	-8.10921
達	-8.112
歸	-8.11306
具足	-8.11589
慧	-8.11917
名字	-8.12195
立	-8.12259
世	-8.12624
眷屬	-8.12908
我今	-8.13159
弟子	-8.1403
結	-8.14214
置	-8.14388
沒	-8.14431
遠	-8.14494
興	-8.14556
和	-8.14623
男女	-8.14652
唯有	-8.14763
平等	-8.1493
名曰	-8.15157
金	-8.15203
夫	-8.15356
會	-8.15677
及以	-8.15982
□□□	-8.16464
悟	-8.16603
重罪	-8.16657
比丘	-8.17011
以為	-8.17451
貪	-8.17466
海	-8.17721
修行	-8.17817
千	-8.18256
失	-8.18352
十方	-8.18479
別	-8.18658
復次	-8.18756
久	-8.18849
魔	-8.18922
萬	-8.18932
誦	-8.19463
猶如	-8.19792
壽	-8.19819
執	-8.19828
莊嚴	-8.20168
目	-8.20263
佛告阿難	-8.20389
護	-8.20427
順	-8.20588
佛性	-8.20792
聽	-8.20833
金剛	-8.21442
三者	-8.21444
須	-8.21499
像	-8.22628
不生	-8.22677
示	-8.22682
馬	-8.23489
云	-8.23763
到	-8.2398
□□	-8.24969
肉	-8.25291
手	-8.25674
更	-8.25866
之法	-8.25901
藏	-8.26135
氣	-8.26153
遂	-8.26662
大眾	-8.26735
流	-8.26819
坐	-8.27099
復有	-8.27843
持戒	-8.27852
虛	-8.27861
聖	-8.28091
不識	-8.28197
是非	-8.28369
稱	-8.28729
往	-8.292
爾	-8.29307
善哉善哉	-8.29615
呪	-8.29691
阿難	-8.29723
復次善男子	-8.29839
凡	-8.30224
日月	-8.30612
一時	-8.30667
凡夫	-8.30669
己	-8.30819
喻	-8.30957
所有	-8.30963
喜	-8.31206
高	-8.31308
治	-8.31358
害	-8.31526
不知	-8.32237
藥	-8.32616
益	-8.32668
殺	-8.33228
犯	-8.33259
我等	-8.33343
善知識者	-8.33545
今身	-8.33663
天地	-8.34006
諸天	-8.34024
請	-8.34049
三界	-8.34083
故曰	-8.34091
若不	-8.34304
賢	-8.34451
四者	-8.34468
衣	-8.35323
□□□□□□□□□□□□□□□	-8.35412
服	-8.35923
攝	-8.36082
賊	-8.36295
鐵	-8.36389
或復	-8.36393
七寶	-8.36656
墮	-8.36926
無礙	-8.36975
寂	-8.37649
無明	-8.38
之人	-8.3822
聲聞	-8.38363
善惡	-8.38541
未來世中	-8.39036
面	-8.39091
慈心	-8.39222
不應	-8.39305
散	-8.39615
讀誦	-8.39784
亦名	-8.39919
即飽	-8.39955
究竟	-8.40044
終	-8.40128
境	-8.40242
師子	-8.40261
毀	-8.40383
南無寶	-8.40528
夢	-8.40809
善男子善女人	-8.41062
忍	-8.41227
樹	-8.41232
□□□□	-8.41484
字	-8.41768
慈悲	-8.41939
王菩薩	-8.4195
諸法	-8.42083
天王	-8.42135
佛法	-8.42233
無邊	-8.42374
不可	-8.42483
世界	-8.42485
善友	-8.42705
呪魅人	-8.43008
亂	-8.43048
□□□□□□□	-8.43188
下明	-8.43199
顛倒	-8.43314
夜	-8.43346
鳥	-8.43477
答	-8.435
蓮華	-8.43573
餓鬼	-8.43711
畜生	-8.43736
父	-8.43784
第一	-8.43792
障	-8.43909
九	-8.44189
是事	-8.44296
惑	-8.4441
近	-8.44741
竟	-8.44853
塵	-8.44869
禮拜	-8.45025
思	-8.45043
出世	-8.45326
財	-8.45356
那	-8.45596
味	-8.4579
說之	-8.46111
速	-8.4641
官	-8.46507
燈	-8.4663
路	-8.46934
十八	-8.47097
頭破作七分	-8.47345
未來	-8.47366
第四	-8.47444
清	-8.47447
厭	-8.47599
身心	-8.4786
初明	-8.48056
不同	-8.48471
止	-8.48534
之所	-8.48544
惠	-8.48712
故得	-8.48779
菩薩摩訶薩	-8.49105
斯	-8.49116
而白佛言	-8.49277
窮	-8.49428
告	-8.49757
一一	-8.49861
花	-8.50052
道人	-8.5016
成就	-8.50212
境界	-8.5023
龍	-8.50585
患	-8.50596
息	-8.50665
情	-8.50718
恩	-8.50726
即便	-8.50831
獲	-8.50934
舌	-8.51
恭敬	-8.51015
顯	-8.51058
居	-8.51141
禪定	-8.51143
如阿梨樹枝	-8.51355
虛空藏菩薩白佛言	-8.51432
不動	-8.51553
耶	-8.51664
釋迦	-8.51685
并	-8.51814
唯願世尊	-8.52002
無所	-8.5208
稽首	-8.52105
甚	-8.52257
勸	-8.52324
無常	-8.52713
違	-8.52822
放	-8.52881
兩	-8.52884
衣食	-8.53201
必	-8.53403
妄	-8.53505
次	-8.5353
被	-8.53835
汝今	-8.53911
正法	-8.53997
要	-8.54711
對	-8.5472
五逆	-8.54783
陰	-8.54802
亡	-8.55107
如此	-8.55349
疾	-8.55454
酒	-8.55509
受苦	-8.55594
如是受持	-8.55772
受持讀誦	-8.56146
類	-8.56208
始	-8.56229
却	-8.56312
其人	-8.56371
黃	-8.56681
之中	-8.56733
若有眾生	-8.56813
悔	-8.56936
迷	-8.56973
死墮	-8.57369
而不	-8.57862
親	-8.57984
趣	-8.58133
不信	-8.58224
論	-8.58394
奉	-8.58512
南	-8.5852
聚	-8.58793
染	-8.59348
正念	-8.59384
平	-8.59394
存	-8.59579
草	-8.5969
習	-8.59705
座	-8.5974
大士	-8.59795
怨	-8.59804
旬	-8.60018
改	-8.6008
衰	-8.60404
釋	-8.60704
一切大眾	-8.60723
西	-8.60777
眾僧	-8.61297
絕	-8.61533
之處	-8.61579
血	-8.61677
出家	-8.61781
不住	-8.61937
值	-8.62088
或作	-8.62471
摩	-8.62886
然後	-8.62896
集	-8.63006
闇	-8.63089
地獄中	-8.6325
里	-8.63314
善知識	-8.63575
以是因緣	-8.63699
舉	-8.6371
不令	-8.63754
五陰	-8.64173
北	-8.6429
車	-8.64454
善哉	-8.64641
懷	-8.64686
收	-8.64754
呼	-8.64861
大仙	-8.65168
七日	-8.65845
飲食	-8.65967
謗	-8.66068
彌勒	-8.66082
諸眾生	-8.66429
強	-8.66526
真實	-8.6666
不淨	-8.66679
波	-8.66979
慧法	-8.66992
滿	-8.67251
五百	-8.67449
一卷	-8.6752
守	-8.67974
普賢菩薩	-8.68012
唯願	-8.68039
奉行	-8.68047
敬	-8.68054
若人	-8.68165
邊	-8.68298
得解脫	-8.68369
虫	-8.68393
羅	-8.68493
常住	-8.68624
悲	-8.68648
有三	-8.68751
文字	-8.68861
如是之人	-8.68883
法界	-8.68922
最	-8.68938
走	-8.69101
三昧	-8.69104
災	-8.69155
宮	-8.6954
亦爾	-8.69547
於彼	-8.69582
善法	-8.69683
當知	-8.69932
量	-8.70071
救	-8.70294
行者	-8.70385
東	-8.70463
有一	-8.7106
其義	-8.71093
故名	-8.71447
則無	-8.72034
河	-8.72153
輕	-8.72449
人民	-8.72537
幢	-8.72793
起入	-8.72927
似	-8.73182
於中	-8.73367
神通	-8.73394
釋迦牟尼佛	-8.73843
狗	-8.73887
誹謗	-8.73954
燒	-8.7396
勿	-8.74111
阿	-8.74157
外道	-8.74195
福德	-8.74251
八萬	-8.74303
玄	-8.74445
縛	-8.74611
今當請	-8.747
大仙答曰	-8.7471
不離	-8.74835
□□□□□□	-8.74893
亦非	-8.75319
永	-8.75856
是以	-8.75901
此人	-8.75961
皆得	-8.76072
癡	-8.76085
直	-8.76114
疑	-8.76476
頂	-8.7663
光明佛	-8.76875
阿羅漢	-8.76965
何況	-8.77038
雨	-8.77431
故知	-8.77774
過去	-8.77854
令得	-8.77861
果報	-8.78102
兒	-8.78291
□□□□□	-8.78348
變	-8.78401
活	-8.78488
致	-8.78562
敬禮	-8.78884
半	-8.7892
及諸	-8.78935
其身	-8.79043
宜	-8.79222
際	-8.79304
舍	-8.79362
陀	-8.79482
期	-8.79665
迦	-8.79688
井	-8.79718
?」	-8.79816
:	-8.79828
若有善男子善女人	-8.79849
至心	-8.80124
妻	-8.80167
化城	-8.80578
之事	-8.80695
又法	-8.80793
痛	-8.81449
進	-8.81626
為說	-8.81673
亦如是	-8.81807
毒	-8.8188
善思念之	-8.82018
愚癡	-8.82117
佛說	-8.82404
尼	-8.82428
無異	-8.82592
見食	-8.82598
處處	-8.82711
壞	-8.82716
加	-8.82811
不起	-8.83247
計	-8.83288
西方	-8.83593
就	-8.84125
飲	-8.84269
已下	-8.84499
十里	-8.84561
遇	-8.84668
引	-8.85009
怖畏	-8.85068
何等為	-8.85147
臣	-8.8518
一闡提	-8.85245
尚	-8.85259
殃	-8.85282
佛告無礙菩薩摩訶薩	-8.85292
若欲	-8.85319
污	-8.85353
示現	-8.8536
幻惑	-8.85376
內外	-8.85484
危	-8.85503
思惟	-8.85508
無為	-8.85789
不久	-8.86135
其心	-8.8632
我當	-8.86326
文殊師利菩薩	-8.86561
各各	-8.86586
一切法	-8.86599
堅	-8.8666
輪	-8.86791
觸	-8.86932
殺生	-8.86956
所說	-8.8734
主	-8.8746
白銀	-8.8782
寧	-8.88051
垢	-8.88127
皆是	-8.88297
俗	-8.88444
無二	-8.88482
終不	-8.88753
了	-8.8899
諦聽諦聽	-8.88998
濟	-8.89026
影	-8.89046
拔	-8.89665
甚深	-8.89739
瞋恚	-8.8976
愚	-8.89865
亦當	-8.89952
辨	-8.89958
譬如有人	-8.90042
遠離	-8.9008
望	-8.90309
老	-8.9046
諦	-8.90482
落	-8.90536
第五	-8.90592
七佛	-8.90611
尋	-8.90619
辯	-8.90716
生滅	-8.90736
今日	-8.90762
歸依	-8.90772
牛	-8.90817
髮	-8.90835
蓋	-8.90862
大聖	-8.91127
音聲	-8.91171
貧窮	-8.91173
承	-8.91218
爾時阿難	-8.91347
間	-8.91412
皆由	-8.91477
信受	-8.91534
多欲	-8.91622
壽命	-8.91626
守護	-8.92037
形像	-8.92246
文殊師利	-8.92295
棄	-8.92296
國王	-8.92495
為作	-8.92543
亦如	-8.92646
徹	-8.92658
中有二	-8.93276
功	-8.93393
不解	-8.93543
無心	-8.93901
或有	-8.94184
界	-8.9432
國土	-8.94373
□□□□□□□□	-8.94415
萬歲	-8.94784
可得	-8.94884
諸大菩薩	-8.94994
□□□□□□□□□□□□□	-8.95079
故云	-8.95086
與我	-8.95245
冥	-8.9546
財物	-8.9554
若能	-8.95586
即得	-8.95905
樓	-8.96062
首	-8.96253
告迦葉	-8.96288
貧	-8.9644
假	-8.96533
所作	-8.96583
喻如	-8.96609
者少	-8.96665
號	-8.96699
非法	-8.9671
鼻	-8.96715
猶	-8.96745
新	-8.96808
諸惡	-8.96814
他人	-8.96875
不聽	-8.96953
骨	-8.97049
許	-8.97058
當來	-8.9711
而無	-8.97131
離諸	-8.97201
禁	-8.97205
招	-8.97294
減	-8.97298
應當	-8.97346
婆羅門	-8.97362
木	-8.97413
十二部經	-8.97421
無礙菩薩摩訶薩	-8.97425
打	-8.97444
備	-8.97497
乎	-8.97501
此法	-8.97558
須彌	-8.97651
得道	-8.97711
得聞	-8.97805
造作	-8.97827
前白佛言	-8.97874
佛語	-8.98048
吾今	-8.98179
作是言	-8.98207
普光	-8.98257
十方諸佛	-8.98308
十二	-8.98321
和合	-8.98383
若見	-8.98592
知識	-8.98798
墮於地獄	-8.98977
不名	-8.99139
人身	-8.99561
欲求	-8.99717
尊者	-8.99719
以不	-8.99746
若在	-8.99809
者多	-8.99847
圓滿	-9.00309
不滅	-9.01059
惡人	-9.01117
器	-9.01833
遊	-9.01848
決定	-9.02072
幡	-9.02184
寂滅	-9.02594
之者	-9.02641
是真	-9.02737
用布施	-9.02766
其中	-9.028
恒河沙	-9.0293
積	-9.03232
讚歎	-9.03277
二種	-9.03295
善根	-9.03373
融	-9.03388
五戒	-9.03489
任	-9.0352
末	-9.03581
宿	-9.03615
當爾之時	-9.03637
驅	-9.03759
背	-9.0376
若復有人	-9.03784
教化	-9.03798
歎	-9.03813
三十	-9.03824
繼	-9.03834
端	-9.03883
不如有人	-9.03884
恐	-9.03909
說偈言	-9.03916
步	-9.03994
指	-9.04004
盛	-9.04019
急	-9.04055
盜	-9.04056
<	-9.0407
g	-9.04071
i	-9.04071
m	-9.04071
:>	-9.04073
裏	-9.04078
豐	-9.04095
元	-9.04102
網	-9.04115
歷	-9.04139
佛道	-9.04144
首羅	-9.04149
塞	-9.04153
齊	-9.0418
索	-9.04301
有二	-9.04502
法性	-9.0456
亦然	-9.04574
女人	-9.04606
第六	-9.04677
罪福	-9.047
句	-9.04736
三世	-9.049
信心	-9.04929
合掌	-9.04954
度脫	-9.05009
帝	-9.05026
無生	-9.05316
諸佛如來	-9.05362
有無	-9.05649
之罪	-9.05742
憂	-9.05799
曾	-9.06015
光菩薩	-9.06622
大海	-9.0667
殊	-9.07353
念佛	-9.0743
心生	-9.07452
林	-9.07571
了知	-9.07736
不覺	-9.07773
「	-9.08006
遣	-9.08011
□□□□□□□□□□□□□□	-9.0804
制	-9.08194
比丘尼	-9.08214
逆	-9.08232
慈	-9.0825
捉	-9.08589
惱	-9.0864
四大	-9.08662
者從	-9.08737
是諸	-9.08866
屬	-9.09016
得福	-9.09124
衣服	-9.09169
世世	-9.09209
石	-9.09239
邪見	-9.0932
相佛	-9.09476
此是	-9.09587
說是法	-9.09834
法藏	-9.10082
寶明	-9.10146
性空	-9.10166
雲	-9.1019
受持是經	-9.10439
實相	-9.1045
隱	-9.10529
百億	-9.10533
方等	-9.10546
聲聞緣覺	-9.10597
天下	-9.10711
況	-9.10725
調	-9.10741
宅	-9.10748
無間	-9.1082
君	-9.10821
人間	-9.1089
得度	-9.10923
修善	-9.10927
諍	-9.10938
拘	-9.10948
墮地獄	-9.1097
畢竟	-9.10984
若無	-9.11002
咸	-9.11012
忽然	-9.11093
室	-9.11121
矣	-9.11152
放逸	-9.11231
榮	-9.1126
敬重	-9.11269
福田	-9.11277
因果	-9.11311
易	-9.1135
都	-9.11366
旨	-9.11433
】	-9.11437
陳	-9.11473
我慢	-9.11486
先世	-9.11493
入涅槃	-9.11565
星	-9.11577
總	-9.11743
可知	-9.11757
五者	-9.11763
佛身	-9.11857
惡病	-9.1197
今當	-9.11991
五欲	-9.12073
於此	-9.12218
杖	-9.12247
授記	-9.12366
禮	-9.12936
是也	-9.12992
人天	-9.13129
四方	-9.13268
復白佛言	-9.1332
聞佛所說	-9.1337
□□□□□□□□□	-9.13779
熱	-9.13901
何者為	-9.13912
惡心	-9.13947
最勝	-9.14009
菩薩來	-9.14129
於諸	-9.14177
得見	-9.1432
律	-9.14323
軌	-9.1444
差	-9.1449
賤	-9.14724
陽	-9.14856
不為	-9.14879
大慈	-9.15999
靜	-9.16087
云何名為	-9.16157
忍辱	-9.16202
此事	-9.16227
覩	-9.16406
未曾	-9.16433
一日一夜	-9.16479
利益	-9.16532
沙	-9.16587
大悲	-9.1662
苦行	-9.16734
八萬四千	-9.16782
損	-9.169
惡業	-9.16926
即為	-9.16955
眾中	-9.17034
覆	-9.17067
二同號	-9.17233
飛	-9.17302
不可得	-9.17571
視	-9.17863
蛇	-9.17893
誑	-9.18153
鬼神	-9.18188
無上	-9.18221
逢	-9.18287
不能自	-9.18341
增	-9.18458
生信	-9.18465
良	-9.18485
怖	-9.18515
師子吼	-9.18613
盲	-9.18617
男	-9.18622
導	-9.18625
詣	-9.18633
我等今者	-9.18706
不敢	-9.18709
周	-9.18713
晝夜	-9.18713
伽	-9.18752
不從	-9.1877
銅	-9.18811
屋	-9.18818
如是等人	-9.18835
雙	-9.1884
位	-9.18853
消滅	-9.1886
虛妄	-9.18862
看	-9.18877
威儀	-9.18918
遭	-9.18927
喚	-9.18937
當知是人	-9.18948
三十三天	-9.18951
乾	-9.18951
感	-9.18966
弘	-9.18998
放大光明	-9.19032
儀	-9.19041
破戒	-9.19062
乳	-9.19067
以印印之	-9.1911
他方	-9.19118
誰	-9.19246
見佛性	-9.1927
隨喜	-9.19455
□□□□□□□□□□□□	-9.19507
月光	-9.19526
休息	-9.1953
隨意	-9.19624
六度	-9.19626
在世	-9.19645
為說之	-9.19678
記	-9.19717
共相	-9.19764
十惡	-9.19844
多有	-9.19984
復有四	-9.20062
名為四	-9.20079
法門	-9.20294
之心	-9.20544
憶念	-9.20561
令諸眾生	-9.2076
相違	-9.20818
宗	-9.20881
身相	-9.20919
志	-9.21051
即無	-9.21146
不善	-9.21545
珍寶	-9.22042
圓	-9.22128
一乘	-9.22168
不觀	-9.22337
東方	-9.22352
倍	-9.22503
而得	-9.22514
言教	-9.2257
微	-9.22585
如如	-9.22833
心中	-9.23073
三世諸佛	-9.2316
千佛	-9.23271
空寂	-9.23313
法王	-9.23313
坐禪	-9.23336
讚	-9.2341
忽	-9.23433
瞋	-9.23638
而生	-9.23839
迦葉菩薩	-9.23956
百千	-9.24104
中間	-9.24243
群生	-9.24283
無量無邊	-9.24424
三乘	-9.24515
心無	-9.24606
登	-9.24627
炎	-9.24659
有人	-9.2492
反	-9.25008
甲	-9.25119
以此	-9.25206
有緣	-9.25588
上下	-9.25657
聞此	-9.25945
脫	-9.25948
嚴	-9.25956
消	-9.25986
爾時除疑大士	-9.25994
獨	-9.26387
奉持	-9.26461
行道	-9.26479
牽	-9.26593
遶	-9.26595
成熟	-9.26612
五道	-9.26755
金華	-9.26851
阿鼻地獄	-9.26902
腹	-9.26916
刀	-9.26923
禪小增得生其中	-9.27028
澤	-9.27033
牙	-9.27041
迴	-9.27052
月光童子	-9.27066
歸依真善知識	-9.27088
威神之力	-9.2709
五體投地	-9.27135
是故今敬禮	-9.27152
魚	-9.27155
得法眼淨	-9.27164
眾聖	-9.27166
張	-9.2718
優婆塞	-9.27184
仰	-9.27189
啟	-9.27193
青	-9.27241
作佛	-9.27246
救護	-9.27254
浮	-9.27263
露	-9.27263
此印	-9.27269
非有非無	-9.27277
村	-9.27289
鉢	-9.27339
三十日	-9.27346
八難	-9.27365
禍	-9.27386
舍利弗	-9.27402
爾時普賢菩薩	-9.27406
莫如常意	-9.27406
美	-9.27416
辭	-9.27438
擁護	-9.27443
公	-9.27497
并及	-9.27567
萬億	-9.27649
六師	-9.27705
長者	-9.27711
一佛性	-9.27724
如車	-9.27781
廣說	-9.27875
有能	-9.2788
下方	-9.27884
於是	-9.27991
化生	-9.27995
献佛	-9.28058
二明	-9.28188
廣大	-9.28279
無始已來	-9.28344
無上菩提	-9.28536
微妙	-9.28553
往生阿彌陀	-9.2856
捨身	-9.28716
□□□□□□□□□□	-9.29117
偈	-9.29184
婆	-9.29446
諸佛菩薩	-9.29837
如是等	-9.29839
池	-9.29849
眾魔	-9.29956
三毒	-9.29967
即名	-9.30019
亦得	-9.30161
得見彌勒	-9.3023
譬	-9.30277
之身	-9.30373
使人	-9.30391
左	-9.3059
天人	-9.30765
毛	-9.30777
南無慧	-9.30867
枯	-9.309
傷	-9.30965
海中	-9.31014
不如	-9.31054
塔	-9.31158
昔	-9.31279
亦為	-9.31487
圍繞	-9.31778
羅漢	-9.31895
一處	-9.31907
三明	-9.3234
一念	-9.32371
度者	-9.32386
雜	-9.32395
書寫	-9.32484
說經	-9.32598
諸行	-9.33042
臥	-9.33215
訖	-9.33498
帝釋	-9.33663
容	-9.33784
得罪	-9.33871
不盡	-9.34026
無盡	-9.34559
如是我聞	-9.3457
漸	-9.34668
善知識者是汝	-9.34754
諸善男子	-9.3481
快樂	-9.34931
熟	-9.35369
注	-9.35445
退	-9.35648
苦惱	-9.35671
南方	-9.35682
缺	-9.35762
竭	-9.35815
安隱	-9.35909
一相	-9.35941
赤	-9.3596
於其	-9.35979
洗	-9.36087
羅剎	-9.36117
運	-9.36133
哀	-9.36148
田	-9.36151
狐	-9.36155
角	-9.36164
橫	-9.36179
北方	-9.36224
力士	-9.36236
尺	-9.36255
穢惡	-9.36264
涌	-9.36268
乖	-9.36272
柱	-9.36294
黑	-9.3635
死入地獄	-9.36365
小乘	-9.36365
六根	-9.36381
食噉	-9.36388
或時	-9.36393
狼	-9.36418
吞	-9.36422
賣	-9.3643
越	-9.36442
猶如虛空	-9.36448
辟支佛	-9.36473
託	-9.3648
含	-9.36492
得正解脫	-9.36509
不肯	-9.36509
請問	-9.36536
太子	-9.36552
樹下	-9.366
去地	-9.36644
今世	-9.36648
振	-9.36668
疾病	-9.3667
不飢	-9.36696
益算	-9.36808
不問	-9.36823
何所	-9.36844
為是	-9.36927
變化	-9.36984
男子	-9.36994
漸漸	-9.3709
萬法	-9.37122
者今作	-9.37129
正見	-9.37451
發願	-9.37456
聞法	-9.37484
所見	-9.37704
而死	-9.37759
精	-9.37782
應以	-9.37798
病死	-9.37895
四十	-9.37984
阿難白佛言	-9.38112
之理	-9.38139
眾惡	-9.38177
大王	-9.38182
是處	-9.3839
妙法	-9.38451
一切諸法	-9.38486
之故	-9.38513
行布施	-9.38597
珠	-9.38606
本無	-9.38749
成佛	-9.38894
則為	-9.39151
三塗	-9.39231
作如是	-9.39376
者何	-9.39627
聞之	-9.39641
十善	-9.3983
黃金	-9.40044
豈	-9.4066
讀此經	-9.40694
之物	-9.40761
遺	-9.41039
護持	-9.41195
所求	-9.41211
見我	-9.41222
一切諸	-9.41448
無實	-9.41681
寫	-9.41741
自心	-9.41781
唱	-9.42071
正明	-9.42146
右	-9.42211
金色	-9.4244
避	-9.42479
道場	-9.42548
增長	-9.42591
傳	-9.42887
一人	-9.42898
藉	-9.43025
印	-9.4308
天魔	-9.43192
為我	-9.43595
眾生身	-9.43619
何故	-9.43789
遠行	-9.43973
短	-9.43984
響	-9.44093
宣	-9.44122
讀	-9.44204
一月	-9.44323
一偈	-9.44422
富	-9.44578
由此	-9.44619
經典	-9.44669
士	-9.4467
我以	-9.44702
累	-9.44845
天上	-9.44919
堂	-9.45066
法輪	-9.45178
仙人	-9.45256
與人	-9.45463
養	-9.45499
是空	-9.45526
縱	-9.45537
大小	-9.45562
滅罪	-9.45568
齋	-9.45577
且	-9.45654
設	-9.45657
剛	-9.45689
婬	-9.4571
慢	-9.45712
貴	-9.45746
地藏菩薩	-9.45784
復能	-9.45834
婦	-9.45882
不修	-9.45899
爭	-9.45966
誹謗正法	-9.46038
勅	-9.4605
巧	-9.46066
獄	-9.46074
如人	-9.46091
洗浴	-9.46107
寒	-9.46111
緣覺	-9.4613
軍	-9.46135
異口同音	-9.46154
於大眾中	-9.4618
蜜	-9.46194
無所畏	-9.46209
如說修行	-9.46215
錯	-9.4624
勤	-9.46244
燒香	-9.46257
▁289	-9.46276
富貴	-9.46287
從坐而起	-9.46287
領	-9.4629
頂禮佛足	-9.46291
天真菩薩摩訶薩	-9.46302
隔	-9.46305
書	-9.46305
噉	-9.46308
厨	-9.46313
▁287	-9.46338
或犯	-9.46348
▁288	-9.4635
傍	-9.46363
助	-9.46369
睡	-9.4637
夜叉	-9.46385
十二月為	-9.46405
爾時復有	-9.46405
犯戒	-9.46405
發菩提心	-9.4642
磨	-9.46422
維	-9.46428
縱廣正等	-9.4643
及諸大眾	-9.46446
斫	-9.46451
一切道俗	-9.46472
細	-9.46477
四天王	-9.46481
悅	-9.46488
授與	-9.46496
端政	-9.46522
幽	-9.46554
常當	-9.46582
瑞	-9.46585
【	-9.46594
明了	-9.46634
極樂	-9.46659
若生人中	-9.46687
我說	-9.46745
像法	-9.46753
度世	-9.46778
殊勝	-9.46828
八者	-9.46948
事同	-9.47001
令人	-9.47053
三業	-9.47059
不自生	-9.47104
非解脫	-9.47181
心性	-9.47305
龍王	-9.47418
所由	-9.47433
捨離	-9.47499
除罪	-9.47543
水精	-9.4767
無極	-9.4768
為一切眾生	-9.47877
一切諸佛	-9.47915
今是	-9.47925
除滅	-9.48107
分別解說	-9.48192
無不	-9.48369
佛告文殊師利	-9.48436
即是空	-9.48534
當今人間	-9.48661
能使	-9.49256
不現	-9.49392
無相	-9.49839
須彌山	-9.50016
雖復	-9.50026
不可稱	-9.50061
食肉	-9.50132
億	-9.50231
罪人	-9.50253
是吾	-9.50321
不與	-9.50332
說是	-9.50396
汝當諦聽	-9.50461
作福	-9.50558
見佛	-9.50746
應如是	-9.50839
不聞	-9.5089
聞說	-9.50906
自身	-9.51046
滅盡	-9.51103
或見	-9.51214
原	-9.51344
取捨	-9.51394
道俗	-9.51418
山林	-9.5142
是時	-9.51466
大地	-9.5192
生天	-9.51929
心不	-9.52143
入於	-9.5218
無過	-9.52311
三十二相	-9.52489
有何	-9.52529
願佛	-9.52911
諸菩薩	-9.52913
六者	-9.52917
已來	-9.5321
法要	-9.53272
以來	-9.5337
永無	-9.53452
故名為	-9.53642
節	-9.53718
諸根	-9.53818
所願	-9.53911
現前	-9.54111
隨其	-9.54425
惡道	-9.54633
於心	-9.54673
不說	-9.54871
所謂	-9.54991
常處	-9.55265
無能	-9.5531
不行	-9.5532
若有人	-9.55348
一佛	-9.55379
王如來	-9.55669
空王	-9.56096
待	-9.56152
威德	-9.56178
渴	-9.56206
濁	-9.56216
箭	-9.56254
第七	-9.56273
得達	-9.56504
聞經	-9.56575
光如來	-9.56621
仙	-9.5664
禪	-9.56686
安穩	-9.56711
談	-9.5675
南無淨	-9.56761
心心	-9.56762
寺	-9.56795
定光佛	-9.5684
最上	-9.56846
觀世音	-9.56846
流轉	-9.56888
限	-9.56914
簡	-9.56967
臂	-9.56972
短命	-9.57032
憙	-9.57044
或有菩薩得	-9.5708
諦聽	-9.57154
慎莫	-9.5717
威	-9.57217
即從坐起	-9.57222
此者為難	-9.57223
繫	-9.57237
金剛照菩薩摩訶薩	-9.57263
猪	-9.57281
優婆夷	-9.57283
于	-9.57298
二十億	-9.57301
威神	-9.57306
厚	-9.57309
菓	-9.57315
薄	-9.57321
米	-9.57322
屍	-9.57347
防	-9.57363
清涼	-9.57378
受其大	-9.57395
嚮	-9.57406
機	-9.57419
發露懺悔	-9.57426
兵	-9.57444
▁290	-9.57449
方便菩薩摩訶薩	-9.57464
脚	-9.57468
留	-9.57473
烟	-9.57487
鏡	-9.57488
嘆	-9.57498
推	-9.57504
狀	-9.57505
遮	-9.57518
閻浮履地	-9.57564
弊	-9.57567
本雖	-9.57573
▁291	-9.57591
載	-9.57604
鳴	-9.57616
慳貪	-9.57618
調伏	-9.5762
保	-9.57622
假使	-9.57627
炭	-9.57638
受記	-9.57648
欺	-9.5765
奴婢	-9.57658
利益眾生	-9.5767
敷演	-9.57687
方廣經典	-9.57688
彰	-9.57765
無分別	-9.57775
汝當	-9.57795
一歲	-9.57804
而說偈言	-9.57821
三藏	-9.57863
唯願如來	-9.57883
首羅問	-9.57883
妻子	-9.57918
將軍	-9.57937
能除	-9.57958
受報	-9.58012
者死作	-9.58014
多少	-9.58038
顯為	-9.58041
謗毀	-9.58087
不可以	-9.58101
眾罪	-9.58109
說佛性	-9.5813
若能如是	-9.58171
安住	-9.58267
競	-9.58293
謗方等	-9.58418
穴	-9.58452
諸大眾	-9.58475
山中	-9.58511
常行	-9.58517
十六	-9.58529
草木	-9.58594
下至	-9.58697
自念	-9.58698
淨莊嚴	-9.58745
時有	-9.58821
常得	-9.5883
不實	-9.58852
一劫	-9.58924
空無	-9.58955
當敬禮	-9.5909
法者	-9.59092
一切眾生皆	-9.59133
阿修羅	-9.59148
大利益	-9.59325
我身	-9.59337
一切世界	-9.59503
亦可	-9.59895
三千大千世界	-9.59963
行菩薩	-9.60057
鼓	-9.60218
四時	-9.6022
鐵圍山	-9.60542
信敬	-9.60601
寶車菩薩	-9.60663
南無華	-9.6083
有心	-9.60934
人受	-9.61101
得生	-9.61214
無智	-9.61235
人之	-9.61246
得值	-9.61272
空中	-9.61305
能令	-9.6135
為有	-9.61399
皆由禮是	-9.61551
修道	-9.6159
吾當為汝分別解	-9.61603
□□□□□□□□□□□	-9.61874
藏菩薩	-9.61898
得失	-9.62096
亦復	-9.62154
為說法	-9.62207
破壞	-9.62356
百日	-9.62881
行來	-9.62991
大福	-9.63221
即從座起	-9.63256
希有	-9.634
無別	-9.63534
其子	-9.63669
我若	-9.63856
所得	-9.63876
者皆	-9.63961
身長	-9.63995
愚者	-9.64065
惡世	-9.64121
大菩薩	-9.6414
宣說	-9.64235
白衣	-9.64349
不能得	-9.64369
慚愧	-9.64404
一日	-9.64438
飢	-9.64465
愍	-9.64471
等也	-9.64696
不入	-9.64751
由如	-9.648
何者	-9.64807
修學	-9.64923
諸比丘	-9.65001
身中	-9.65013
不壞	-9.65045
欲令	-9.6507
正道	-9.65089
教人	-9.65538
其有	-9.65613
之言	-9.65881
根本	-9.65906
所在	-9.66049
解說	-9.66053
迦葉	-9.6625
南無善	-9.66419
有情	-9.66466
山海慧菩薩	-9.66575
非有	-9.66576
見有	-9.66662
我見	-9.66688
無染	-9.66753
閻浮提	-9.66758
交	-9.66817
處在	-9.66948
食之	-9.6697
惡事	-9.67052
還復	-9.67169
不除	-9.67212
駕	-9.67275
寶物	-9.67373
而起	-9.67475
之後	-9.67524
塗	-9.67717
何處	-9.67725
超	-9.67743
泥	-9.67747
而為	-9.67816
宿命	-9.67923
文殊	-9.67948
聞如是	-9.68041
令眾生	-9.68132
是為	-9.68151
潤	-9.68213
闡提	-9.68367
群	-9.68394
恒沙	-9.684
徒	-9.68415
一性	-9.68454
南無月	-9.68492
無數	-9.68527
次有	-9.68582
佛前	-9.68598
產	-9.68634
至於	-9.68636
無垢	-9.68852
逕	-9.68862
不二	-9.68877
善女人	-9.68943
剋	-9.6896
十者	-9.69023
飽	-9.69042
臨	-9.69045
明如來	-9.69147
南無須彌	-9.69149
斷絕	-9.69201
不異	-9.69244
弱	-9.69304
永離	-9.69352
微塵	-9.69372
驚	-9.69379
聽許	-9.69393
礙	-9.69459
比	-9.69469
長養	-9.69473
行五戒十善加行	-9.69479
幻	-9.69533
彌	-9.69536
象	-9.69567
級	-9.69573
密	-9.69586
漢	-9.69591
混融	-9.69598
沙彌	-9.69632
猛	-9.69652
上首	-9.69668
帶	-9.69675
默	-9.6968
風起吹水沫化為	-9.69703
無上道	-9.69712
受大苦惱	-9.69723
孝順	-9.69732
在在處處	-9.69745
鑒照菩薩摩訶薩	-9.69749
正觀	-9.69754
畢	-9.69768
六波羅蜜	-9.69785
其中亦有	-9.69801
星宿	-9.69817
應作是念	-9.6982
思議	-9.69826
喪	-9.69831
不求	-9.69834
虎	-9.69839
決	-9.69854
祕	-9.69875
來詣佛所	-9.69879
波旬	-9.69886
靈	-9.69886
毘	-9.699
蕩	-9.69908
貢高	-9.6991
溫	-9.69911
資	-9.69917
略說	-9.69921
曠野	-9.69924
行五戒十善得生其中	-9.69932
源	-9.69934
繫縛	-9.69947
放光	-9.69951
說是語	-9.69958
逼	-9.69959
俗人	-9.69962
維摩	-9.69963
苦哉	-9.69963
恐怖	-9.69964
如此之人	-9.69973
表	-9.69977
威力	-9.6998
弄	-9.69983
尾	-9.69989
灰	-9.69992
瘡	-9.69993
金銀	-9.69996
序	-9.69997
穀	-9.69999
射	-9.70001
儞	-9.70003
金剛密迹	-9.70003
流通	-9.70006
供	-9.70024
章	-9.7003
慮	-9.70033
東西	-9.70033
勒	-9.70037
願佛慈悲	-9.70037
妄生	-9.70074
蘭	-9.70081
續	-9.70094
輩	-9.70105
私	-9.70116
負	-9.70121
申	-9.70149
無有窮	-9.70152
無量大眾	-9.70161
昏	-9.70165
諂曲	-9.70171
得佛	-9.70192
三百三十六萬里	-9.70194
乳蜜	-9.70197
良由	-9.70207
吉凶	-9.7023
無行菩薩	-9.70231
眼不自見	-9.70241
充滿	-9.70242
今悉	-9.70246
發心	-9.7031
憍慢	-9.70334
尊王佛	-9.70365
愛樂	-9.70373
觀世音菩薩	-9.70439
能使人	-9.70441
從空而	-9.70444
論言	-9.70451
將來	-9.70464
何以	-9.70468
隱為	-9.70518
多聞	-9.70536
或作人	-9.70563
不得自在	-9.70574
我遣	-9.70646
何用	-9.70648
天神	-9.70649
四毒	-9.7065
破汝	-9.70672
慈愍	-9.70683
三事	-9.7074
六識	-9.70758
月光出世	-9.7076
不失	-9.70791
如其一	-9.70814
萬相	-9.70848
大劫	-9.70871
流行	-9.70874
但有	-9.70965
成熟者	-9.71054
智者	-9.71111
無礙菩薩	-9.71244
天真	-9.71261
勝佛	-9.71263
法相	-9.71269
教門	-9.7132
慧法菩薩	-9.71355
是故名為	-9.7137
不犯	-9.71472
病人	-9.71516
即有	-9.71524
不成	-9.71526
無窮	-9.71534
違順	-9.71562
行人	-9.7161
一身	-9.7164
一切煩惱	-9.71726
惡鬼	-9.71731
聞知	-9.71761
紫金	-9.71814
南無德	-9.71829
汝若	-9.71912
是一	-9.71958
一子	-9.71979
專行	-9.72015
佛母	-9.72111
分身	-9.72177
故則無	-9.72221
布	-9.7234
不用	-9.72601
大法	-9.72635
無由	-9.7292
勇	-9.73101
為汝	-9.73124
明佛	-9.7316
三有	-9.73241
海水	-9.73494
能滅	-9.73525
如其	-9.73617
身體	-9.73793
於後	-9.73909
迦葉佛	-9.7418
之與	-9.74302
見他	-9.74445
明菩薩	-9.74469
頓	-9.74487
慧菩薩	-9.74517
爾時如來	-9.74748
是大	-9.75041
不相	-9.75242
亦不見	-9.75266
即以	-9.75636
彼此	-9.7565
明師	-9.75661
戶	-9.75662
說言	-9.75683
一種	-9.75748
神力	-9.75796
得此	-9.75797
寶塔	-9.75899
能迴	-9.76074
自體	-9.76282
其地	-9.76497
有無量	-9.76622
其福	-9.76794
自性	-9.76913
悉得	-9.77046
或在	-9.77049
在於	-9.77091
小兒	-9.77102
日出時	-9.77174
大明	-9.77181
有八	-9.77219
九者	-9.77327
卷	-9.7745
下賤	-9.77564
離苦	-9.77574
聞者	-9.7773
不定	-9.77734
阿彌陀佛	-9.77813
復不	-9.78053
部	-9.78082
南無海	-9.78222
七者	-9.78329
如上	-9.78339
不染	-9.7839
禁戒	-9.78465
作惡	-9.78546
言說	-9.78574
說此	-9.78863
得入	-9.7888
不捨	-9.7889
吐	-9.79033
善能	-9.7907
比丘比丘尼優婆塞優婆夷	-9.79199
前後	-9.79292
充	-9.79412
見惡	-9.79583
此等	-9.79638
行善	-9.79755
妄想	-9.79832
八百萬	-9.79895
蘇	-9.80031
世尊如來	-9.80066
不斷	-9.80136
憶	-9.80145
惡眾生	-9.80445
若作	-9.80667
安置	-9.80682
亦有	-9.80886
垂	-9.80942
說其	-9.81057
怒	-9.81064
見者	-9.81202
有十	-9.81256
必有	-9.81458
可見	-9.81467
輒	-9.81548
發露	-9.81588
魅	-9.81597
不得停止	-9.8167
但以	-9.81764
氷	-9.8188
略	-9.82197
紫	-9.82243
悲田	-9.82443
來世	-9.82444
皮	-9.82477
眾人	-9.8294
飲酒	-9.8296
南無常	-9.83032
能斷	-9.83043
亦令	-9.83084
梵	-9.83314
告諸大眾	-9.83431
察	-9.83433
為一	-9.83439
憐愍	-9.83645
慎	-9.83651
如上所說	-9.83669
下第二	-9.83716
葉	-9.83781
冷	-9.83812
大火	-9.83823
丈	-9.83834
太	-9.8386
為難	-9.83899
閻浮	-9.83901
摧	-9.83935
臭	-9.83942
除無量劫以來	-9.83942
亦復歸命	-9.83962
為他	-9.83967
狂	-9.83969
穢	-9.83983
作是念	-9.83991
諸惡苾芻	-9.84001
汝等今者	-9.84001
閉	-9.84005
基	-9.84008
誓	-9.8402
大通方廣	-9.84027
佛告無行菩薩	-9.84038
六種震動	-9.84042
入般涅槃	-9.84043
其人命終	-9.84046
哀愍	-9.84049
清信女	-9.8405
寶車	-9.84053
住於	-9.84055
奪	-9.84056
所生之處	-9.84057
阿者言	-9.84057
羊	-9.84058
抄	-9.84072
摩尼	-9.84078
住心	-9.8408
昇	-9.84083
姓	-9.84087
八十億	-9.84095
四天王宮	-9.84105
是故今日	-9.84106
萬善	-9.84109
如此人輩	-9.84117
闍	-9.84118
多寶佛	-9.84118
隨文取義	-9.8412
天龍夜叉	-9.84121
雀	-9.84123
苦厄	-9.84128
掌	-9.8413
麻	-9.84132
受樂	-9.84136
十方世界	-9.84143
聰明	-9.84145
每	-9.84147
皆來集會	-9.84148
揚	-9.84152
六賊	-9.84156
乘六牙白象	-9.84158
佛告虛空藏菩薩言	-9.84158
佛告智度菩薩摩訶薩	-9.84162
不惜身命	-9.84166
逐	-9.84167
瓦	-9.84169
詐	-9.84176
蟻子	-9.84177
天龍八部	-9.84177
奈	-9.84181
百千萬分	-9.84183
如我所說	-9.84188
崇	-9.8419
若有入人	-9.84192
為度眾生	-9.842
雷	-9.84202
術	-9.84207
當知此人	-9.84207
附	-9.8421
困厄	-9.84214
州	-9.84219
或取人家	-9.84222
乾闥婆	-9.84225
謝	-9.84225
瑠璃作	-9.84227
默然	-9.84229
須臾	-9.8423
乍	-9.84237
皆大歡喜	-9.84245
真善知識	-9.84248
朝	-9.84252
契	-9.84253
勇猛	-9.84255
解了	-9.84256
擬	-9.84267
壁	-9.8427
快	-9.8427
曲	-9.84271
給	-9.84277
忌	-9.84286
辟	-9.84286
頭陀	-9.84287
埿	-9.84293
式	-9.84301
怪	-9.84304
皆當	-9.8431
盧	-9.8431
迭相	-9.84312
歡喜奉行	-9.84312
適	-9.84314
乏	-9.84327
碎	-9.84333
得是五	-9.84335
斗	-9.84337
今身喜	-9.84345
卑	-9.84346
沈	-9.84349
痛哉	-9.84364
速疾	-9.84365
錢	-9.84368
盈	-9.84375
摩訶	-9.84377
返	-9.84387
符	-9.84389
頌	-9.8439
枝葉	-9.84391
健	-9.84397
早	-9.84398
無生無滅	-9.844
唱言	-9.84401
文中初	-9.84403
常為	-9.84404
菩薩漏盡和	-9.84409
囚	-9.84416
吹	-9.84418
不生不滅	-9.8442
扶	-9.84424
衛	-9.84433
隣	-9.84435
剝	-9.84439
階	-9.84439
伯	-9.8444
算	-9.84466
億千萬歲	-9.84472
四天下	-9.84474
陀羅尼菩薩	-9.84485
咎	-9.84487
安樂	-9.84493
顯示	-9.84507
教化眾生	-9.84544
咽	-9.84573
通達	-9.84578
無自性	-9.84608
讀經	-9.84613
天中即現	-9.84634
遂便	-9.84634
以偈	-9.84659
宿世	-9.84662
體解	-9.84666
」「	-9.84671
號曰	-9.84694
道士	-9.84701
若人聞是	-9.84719
飢渴	-9.84732
師長	-9.84766
毒蛇	-9.84797
為諸眾生	-9.84846
自守	-9.84857
莫問	-9.84863
自在佛	-9.84908
設有	-9.84915
不安	-9.84948
縱廣	-9.84964
我獨	-9.85013
之間	-9.85036
此之	-9.85057
亦未	-9.85096
萬行	-9.85099
消除	-9.851
教令	-9.85106
得無生法忍	-9.85176
得免	-9.85187
宮殿	-9.85187
滅我法	-9.85208
而言	-9.85224
大道	-9.85234
形質	-9.85258
救濟	-9.85288
汝應	-9.85301
王子	-9.85311
悉皆消滅	-9.85315
好惡	-9.85343
聽法	-9.8535
云何五	-9.85351
不著	-9.85404
諸苦	-9.85429
無厭	-9.85435
聖人	-9.85506
不審	-9.85521
集會	-9.85524
大德	-9.85561
要須	-9.85601
即現	-9.85652
而住	-9.8576
南無大	-9.85788
首佛	-9.8582
所須	-9.85851
白言	-9.85925
佛告大眾	-9.85998
下生	-9.86006
潤澤	-9.86018
我於	-9.86097
降注	-9.86116
而求	-9.86133
念念	-9.86138
之子	-9.86145
證之	-9.86371
往昔	-9.86408
道德	-9.86475
既無	-9.86505
共佛	-9.86548
即起	-9.86559
出入	-9.86587
見之	-9.86618
皆為	-9.86623
次第	-9.86629
鑛	-9.86633
解脫用	-9.86673
前中初	-9.86717
下第二明	-9.86736
得人身	-9.86766
汝今諦聽	-9.8684
身則	-9.86888
貪求	-9.86895
口中	-9.8706
遊行	-9.87064
離有	-9.87179
病苦	-9.87221
毀壞	-9.8723
者云何	-9.87273
經像	-9.87306
實法	-9.87362
水火	-9.87679
成佛道	-9.87697
空即是	-9.87735
及與	-9.8774
復問	-9.87751
之鬼	-9.87793
而便	-9.87849
於大乘	-9.87877
此義	-9.87919
為眾生	-9.87956
當時	-9.88126
劫中	-9.88221
法聚	-9.88265
親近	-9.88357
無量天人	-9.885
千年	-9.88712
人俱	-9.88739
斷除	-9.8882
下有	-9.88861
怨家	-9.88907
為諸大眾	-9.89004
分別說	-9.89134
而復	-9.89159
信解	-9.89313
寶光明	-9.89406
三尊	-9.89783
依止	-9.89901
離煩惱	-9.89907
何得	-9.9017
或是	-9.90317
伏	-9.90513
終無	-9.90548
度人	-9.90574
凡人	-9.90603
梵音	-9.90792
不出	-9.90871
我法	-9.90899
菩提道	-9.90942
尊重	-9.90945
六百	-9.91
淺	-9.91002
陀羅尼	-9.91114
不了	-9.91143
有瑞應	-9.91258
其意	-9.91281
二十	-9.91486
吾今為汝	-9.9152
說是經	-9.91753
佛像	-9.91806
求法	-9.91812
普遍	-9.91864
塔寺	-9.91869
生彼	-9.91913
百萬	-9.92094
而有	-9.9223
底	-9.92455
一名	-9.92469
相好	-9.92617
一切眾	-9.92752
阿耨多羅三藐三菩提心	-9.92838
大水	-9.92876
一年	-9.92915
命終	-9.92979
諸塵	-9.93131
勞	-9.93325
造立	-9.93532
水中	-9.93669
疑惑	-9.93692
化之	-9.93761
非常	-9.93941
具說	-9.94051
門戶	-9.94056
大慈大悲	-9.94095
三十二	-9.94239
天子	-9.9438
滅度	-9.94414
染著	-9.94603
叉	-9.94775
無量眾生	-9.94981
不有	-9.95025
寶池	-9.9505
問佛	-9.95068
四重	-9.95146
上至	-9.95295
便得	-9.95308
生時	-9.9543
如是說	-9.95501
得除滅	-9.95514
人相	-9.95522
莫不	-9.95542
空者	-9.95564
枚	-9.95573
得作佛	-9.95762
心相	-9.95794
深法	-9.95843
令我	-9.96072
暫	-9.96084
乃能	-9.9614
現在	-9.96297
唯有一	-9.96362
明王	-9.96418
淨土	-9.96431
法師	-9.96502
無人	-9.96532
覩見	-9.96535
度眾生	-9.96538
南無法	-9.96605
忘	-9.96611
無量諸佛	-9.96679
專	-9.96692
責	-9.96769
良藥	-9.96791
賢聖	-9.96835
身是	-9.9686
住處	-9.97129
出時	-9.97195
三日	-9.97232
諸罪	-9.97315
尸	-9.97328
飛行	-9.97344
作善	-9.97352
一時佛在	-9.97369
彼人	-9.97407
剎那	-9.97523
修治	-9.97529
即生	-9.97532
善心	-9.97621
修福	-9.97668
不須	-9.97894
與說	-9.97904
如虛空	-9.97983
所知	-9.98164
如法	-9.98221
二年	-9.98236
迴向	-9.98273
有實	-9.98333
者即	-9.98365
岸	-9.98404
諸大菩薩摩訶薩	-9.98441
隨順	-9.9847
光照	-9.98496
剎	-9.98535
無非	-9.98622
提	-9.98686
得無	-9.98748
體性	-9.98795
萬物	-9.98898
南無龍	-9.98903
仁	-9.99039
臺	-9.99043
黑闇	-9.99074
於我	-9.99104
吾當為汝分別	-9.99166
一體	-9.99222
甚多	-9.99365
齒	-9.9937
我聞	-9.99465
心念	-9.99474
無所不	-9.99483
得脫	-9.99632
品第	-9.99821
泥洹	-9.99935
買	-9.99958
更相	-9.99982
學者	-10.0004
罵	-10.0009
質	-10.0015
有五	-10.0021
發問	-10.0021
泯	-10.0024
困	-10.0038
大覺世尊	-10.0049
五百世	-10.0051
厄	-10.0052
隨所	-10.0056
飯	-10.0056
枝	-10.0056
軟	-10.0058
為佛作禮	-10.0059
汝向所問	-10.0059
導師	-10.006
之因	-10.0063
十五日	-10.0063
純	-10.0067
百歲	-10.0068
除一闡提	-10.0068
戲	-10.0069
八十種好	-10.007
偏	-10.007
歸伏	-10.007
八禁	-10.0071
外而無	-10.0071
智度菩薩摩訶薩	-10.0071
床	-10.0071
讀持是經	-10.0071
5	-10.0072
龍種上尊王佛	-10.0075
語阿難	-10.0075
敷	-10.0075
身口意	-10.0076
受諸苦惱	-10.0077
以是義故	-10.0077
餅	-10.0077
齎	-10.0077
三千大千世界六種震動	-10.0078
弓	-10.0078
中有	-10.008
整理衣服	-10.008
折	-10.0081
族	-10.0081
勢力	-10.0082
三匝	-10.0082
付囑	-10.0082
我等徒眾	-10.0082
嬈	-10.0083
博	-10.0083
牆	-10.0084
胎	-10.0084
柔軟	-10.0084
濕	-10.0084
沸	-10.0085
消供養	-10.0085
頗梨	-10.0085
縣官	-10.0085
畔	-10.0086
麴	-10.0086
五濁惡世	-10.0086
佛告虛空藏菩薩	-10.0086
9	-10.0087
移	-10.0087
覓	-10.0087
八邪	-10.0087
甚大吉利	-10.0087
嚙	-10.0087
2	-10.0088
昭文館學士	-10.0088
殘	-10.0089
窟	-10.0089
剃除鬚髮	-10.0089
渾	-10.009
種種無盡	-10.009
摧伏	-10.009
云何而言	-10.009
諍訟	-10.009
作禮而去	-10.0091
四部弟子	-10.0091
詳定奉勅	-10.0091
『	-10.0091
不墮地獄苦	-10.0091
降	-10.0091
0	-10.0092
涕	-10.0092
歡喜踊躍	-10.0092
周匝	-10.0092
為我解說	-10.0093
身長二	-10.0093
浴	-10.0093
奇	-10.0094
市	-10.0094
穿	-10.0094
枷鎖	-10.0094
皆是普賢菩薩	-10.0094
6	-10.0095
糞	-10.0095
長跪叉手	-10.0095
槃	-10.0095
粳米	-10.0095
焉	-10.0095
熾然	-10.0095
8	-10.0095
熾盛	-10.0096
嗔	-10.0096
平正	-10.0096
孤	-10.0096
妨	-10.0097
妙香	-10.0097
攀緣	-10.0097
膝	-10.0098
墮落	-10.0098
搗	-10.0098
脈	-10.0099
倉	-10.0099
塚	-10.0099
諂	-10.01
據	-10.01
唐	-10.01
堪	-10.0101
最為第一	-10.0101
發大乘心	-10.0101
祇	-10.0101
名號	-10.0101
妖邪	-10.0102
五十三佛	-10.0102
設復有人	-10.0102
納	-10.0102
結跏趺坐	-10.0103
虎狼	-10.0103
精舍	-10.0103
左右	-10.0103
端坐	-10.0103
滋	-10.0104
莫令	-10.0104
望欲令	-10.0105
養育	-10.0105
驢	-10.0105
是經亦如大	-10.0105
飲酒食肉	-10.0105
啼哭	-10.0106
殃禍	-10.0106
暗	-10.0106
南北	-10.0107
我等眷屬	-10.0108
約	-10.0109
還歸	-10.0109
此難	-10.011
泉	-10.011
吉	-10.0111
茲	-10.0111
接	-10.0111
六趣	-10.0112
武	-10.0112
一心苦行	-10.0112
抱	-10.0113
第一義	-10.0114
車馬	-10.0114
歷劫	-10.0115
聞已	-10.0115
光觸	-10.0115
財貨	-10.0116
但看	-10.0118
夢見自身	-10.0118
豈非	-10.0119
出世時	-10.0119
聞是語	-10.012
六塵	-10.0121
繼結	-10.0121
顯現	-10.0123
懸	-10.0123
一升	-10.0123
縱令	-10.0124
魔王	-10.0125
實無	-10.0125
七十二	-10.0125
宜應	-10.0128
貪著	-10.0128
三名	-10.0129
白骨	-10.0129
四面	-10.013
此女人	-10.0132
無比	-10.0132
聞深法	-10.0132
更無別	-10.0133
受持此經	-10.0134
正士	-10.0134
而能	-10.0135
毀損	-10.0136
性體空	-10.0137
佛語阿難	-10.0139
其妻	-10.014
前中復	-10.014
高下	-10.0141
化作	-10.0141
肉眼	-10.0142
作禮	-10.0142
道邊	-10.0143
想念	-10.0146
修習	-10.0151
滅沒	-10.0155
我於此劫	-10.0158
師子吼菩薩	-10.0162
復有五	-10.0162
得須陀洹	-10.0163
答曰	-10.0164
往來	-10.0165
故論言	-10.0165
淨潔	-10.0167
經卷	-10.0172
受五戒	-10.0172
誦經	-10.0174
其人功德	-10.0175
百鬼	-10.0176
恣	-10.0176
善人	-10.0177
自覺	-10.0178
滿中	-10.0178
往詣	-10.0181
欲入涅槃	-10.0182
閻浮提人	-10.0184
六國	-10.0184
愚人	-10.0185
天女	-10.0186
尊者問	-10.0187
心心念	-10.0187
大自在	-10.019
已度	-10.0192
其夫	-10.0192
發起	-10.0194
苦事	-10.0194
普賢	-10.0195
□□□□□□□□□□□□□□□□	-10.0199
非非	-10.0199
惡口	-10.0203
道教	-10.0204
所有言說	-10.021
諸有情	-10.0212
乃可	-10.0224
方有佛名	-10.0229
學道	-10.023
復有眾生	-10.023
漏	-10.0237
舉高	-10.0245
向人	-10.0245
為家	-10.0245
上方	-10.0245
世間人	-10.0246
品	-10.0247
其形	-10.0254
失心	-10.0256
教戒	-10.0256
因此	-10.0257
三毒箭	-10.0258
如汝所	-10.0261
服之	-10.0262
亦應	-10.0267
三千人	-10.027
懃修	-10.027
無量菩薩	-10.0282
夜半	-10.0282
正身	-10.0282
不得解脫	-10.0284
法忍	-10.0286
大師	-10.0286
當與	-10.0291
過去世	-10.0293
不使	-10.031
身如	-10.0311
不別	-10.0313
見已	-10.0314
當觀	-10.0318
四果	-10.0319
七百	-10.0325
相隨	-10.0337
聞此經	-10.0337
所請	-10.0351
又復	-10.0358
真法	-10.0365
於世	-10.037
無所不為	-10.037
蒙佛	-10.0385
少分	-10.0392
誰為	-10.0392
無著	-10.0395
如太山	-10.0399
若得	-10.0411
直心	-10.0414
是實	-10.0418
法中	-10.0421
或復一時讚歎	-10.0423
已上	-10.0426
即不得	-10.0429
二名	-10.0436
有二種	-10.0442
二見	-10.0446
藥王菩薩	-10.0463
足下	-10.0463
先當	-10.0471
賢者	-10.0477
語言	-10.048
還入	-10.0483
相行	-10.0495
各有	-10.0495
普光莊嚴菩薩	-10.0505
無性	-10.0506
普淨	-10.0511
非時	-10.0512
吾當	-10.0516
八百	-10.0533
佛告山海慧	-10.0543
中虫	-10.0562
亦是	-10.0581
廣宣流布	-10.0582
悉令	-10.0584
即問	-10.06
向者	-10.0603
同歸	-10.0613
朗	-10.0616
聞是經	-10.0622
眾多	-10.0627
不還	-10.0627
偈明	-10.0634
大智	-10.0643
橋梁	-10.0665
行世間	-10.0696
銷融	-10.0709
意菩薩	-10.0719
九十	-10.0719
畏	-10.0723
令還	-10.0728
皆以	-10.0743
若當	-10.0772
寂靜	-10.0777
曠劫	-10.0779
身命	-10.0786
奉事	-10.0791
金山	-10.0793
塵不染	-10.0804
乞	-10.0812
後世	-10.0814
此經者	-10.0827
比丘比丘尼	-10.0837
恩愛	-10.0845
舉身	-10.0851
爾乃得	-10.0856
今復	-10.0865
本來	-10.0866
不在	-10.0887
見人	-10.0893
光相	-10.0913
出三界	-10.0915
四眾	-10.0925
以是	-10.0932
甚可	-10.0936
而是	-10.0943
一百二十	-10.0966
亦當讀	-10.0968
觀佛	-10.0987
同行	-10.1018
身故	-10.102
真人	-10.1023
有如	-10.1026
不受	-10.1046
即知	-10.106
皆令	-10.1066
無體	-10.1078
色界	-10.1084
天雨	-10.109
惺悟	-10.1101
若心	-10.1111
佛所	-10.1121
割	-10.1127
妄見	-10.1133
於空中	-10.1146
或為	-10.1147
之日	-10.1148
於如來	-10.1155
能知	-10.1157
淨心	-10.1158
修理	-10.1169
不過	-10.1187
或見如來	-10.1191
針	-10.1192
聚集	-10.1203
為汝宣說	-10.1204
欲界	-10.1215
一清淨	-10.1231
都無	-10.1248
行惡	-10.1263
從此	-10.1264
是則	-10.127
但當	-10.1276
我本	-10.1278
所行	-10.1308
為一切	-10.1321
還得	-10.1325
出已	-10.1325
日夜	-10.1329
無量佛	-10.1333
是我	-10.1335
故即是	-10.1338
如來世尊	-10.1347
事云何	-10.1353
四種	-10.1364
雖得	-10.1379
復倍	-10.1384
變成	-10.1393
封	-10.1396
造罪	-10.1402
為母	-10.1434
教我	-10.1447
第	-10.1456
免	-10.1457
若善男子	-10.1464
施與	-10.1471
若此	-10.1471
假使有人	-10.1473
自說	-10.1473
是邪	-10.1476
死人	-10.1508
我常	-10.1516
諸見	-10.1516
南無無量	-10.153
功德山	-10.1537
人皆	-10.1541
或殺	-10.1555
解脫者	-10.1556
覺者	-10.1559
六神	-10.1565
無法	-10.1574
有我	-10.1589
十億	-10.1595
侵	-10.1596
慳	-10.1601
將至	-10.1604
菩薩行	-10.1609
三途	-10.1619
於一切	-10.1626
自下	-10.1655
齋戒	-10.1671
若是	-10.1673
諸功德	-10.1674
於涅槃	-10.1676
或復一時	-10.1688
南無山	-10.1689
自責	-10.1709
外求	-10.1724
名之	-10.1725
生死涅槃	-10.1733
登王	-10.1739
無住	-10.174
徒眾	-10.1741
故不	-10.1744
能生	-10.1752
是不	-10.1754
福業	-10.1763
塔廟	-10.1764
如幻	-10.1767
此心	-10.1769
夢見	-10.1773
蒙	-10.1778
不能解	-10.1784
悲號	-10.1785
所問	-10.179
那含	-10.1799
見此經	-10.182
而作	-10.1822
起立	-10.1829
不可具	-10.1831
劫名	-10.1835
覺知	-10.184
百年	-10.1857
念心	-10.1864
吾當為汝	-10.1872
了了	-10.1875
分明	-10.1876
此經典者	-10.188
之由	-10.1881
何等	-10.1882
修諸	-10.1885
以何	-10.1892
即於	-10.1897
自滅	-10.1902
審	-10.1912
若離身心	-10.1915
十方佛	-10.1928
是經能與眾生	-10.1929
皆從	-10.193
五十歲	-10.1936
那由他	-10.1937
經教	-10.1938
是經者	-10.1943
立名	-10.1949
受大	-10.1953
光明照	-10.1964
偽	-10.1965
汝等諦聽	-10.1967
不及	-10.1969
在心	-10.1969
惜	-10.1976
病本	-10.1978
堅固	-10.1981
號為	-10.1986
聾	-10.1986
無量功德	-10.1992
倒	-10.1993
法喜	-10.1996
思量	-10.1997
上生	-10.2003
懈	-10.2005
十惡五逆	-10.2005
可得見	-10.2006
作是觀	-10.2012
燃燈	-10.2016
牟尼佛	-10.2023
無生法忍	-10.2028
罪畢	-10.2031
獻	-10.2032
迎	-10.2034
惟	-10.2034
師云	-10.2036
擁	-10.2039
阿難白佛	-10.2044
傾	-10.2046
違背	-10.205
謗是經故	-10.205
功德復多	-10.2051
百千萬倍	-10.2054
銀	-10.2055
野	-10.2055
行五戒十善加行四禪小增得生其中	-10.2056
蓮花	-10.2056
孔	-10.2056
坊	-10.2057
如佛所說	-10.2058
講	-10.2058
增上慢	-10.2059
諸最勝	-10.206
值佛	-10.206
煩	-10.206
未得	-10.2061
快問是義	-10.2063
九百萬	-10.2064
我若廣說	-10.2065
鼻者言	-10.2066
停	-10.2066
瞻仰	-10.2067
殿	-10.2067
吒	-10.2068
圍	-10.207
嫌	-10.2071
我諸弟子	-10.2071
我於往昔	-10.2072
太極	-10.2072
甘	-10.2072
佛滅後	-10.2073
虛凝	-10.2073
勉	-10.2073
欲得	-10.2073
百六十八	-10.2074
指授	-10.2075
親近善知識	-10.2075
劍樹	-10.2075
我觀如來	-10.2076
鎮	-10.2076
愁	-10.2076
敢	-10.2076
八十四	-10.2077
城邑聚落	-10.2077
粟	-10.2077
我滅度後	-10.2077
悶絕	-10.2078
以偈讚	-10.2078
局	-10.2078
拯濟	-10.2078
瘂	-10.208
殷勤	-10.208
歸真	-10.208
弓刀	-10.2081
▁286	-10.2081
如來應供正遍知	-10.2082
四大五陰	-10.2082
涸	-10.2082
纏	-10.2082
塚間	-10.2083
3	-10.2083
胡	-10.2083
食肉之人	-10.2083
運載汝等	-10.2084
雞	-10.2084
遍敬菩薩摩訶薩	-10.2084
作是語者	-10.2084
信相菩薩	-10.2084
從地獄出	-10.2084
崖	-10.2084
無量慚愧	-10.2085
四道果	-10.2085
戰	-10.2085
雅	-10.2085
翻	-10.2085
何須	-10.2085
五百萬世	-10.2086
悉談婆也	-10.2086
髻	-10.2086
以不淨手	-10.2086
憐	-10.2086
耗	-10.2087
如水中月	-10.2087
敬信	-10.2087
歡	-10.2087
麁	-10.2087
梁	-10.2088
獄卒	-10.2088
隱在	-10.2088
鮮	-10.2088
紙	-10.2088
皇	-10.2089
容受	-10.2089
篤	-10.2089
決疑	-10.2089
娑婆世界	-10.209
房	-10.209
胸	-10.2091
誠	-10.2091
鹿	-10.2091
姦	-10.2091
靡	-10.2091
嬰	-10.2091
悲泣	-10.2091
墮餓鬼中	-10.2092
脣	-10.2092
奢	-10.2092
縣	-10.2092
洪	-10.2092
以此類之	-10.2092
慇懃	-10.2092
苾芻及苾芻尼	-10.2092
作佛形像世世	-10.2092
懊惱	-10.2092
不可量	-10.2093
昌	-10.2093
懃苦	-10.2093
給與	-10.2093
於我滅後	-10.2093
恚	-10.2094
繩	-10.2094
無量阿僧祇佛	-10.2094
魚鱉	-10.2094
承佛神力	-10.2094
暮	-10.2094
涼	-10.2094
攬	-10.2095
7	-10.2095
大臣	-10.2095
鼓擊	-10.2095
成正覺	-10.2095
足指	-10.2095
暉	-10.2096
點	-10.2096
六百七十二	-10.2097
=	-10.2097
夜叉羅剎	-10.2097
爐	-10.2097
猪狗	-10.2097
賈	-10.2097
連	-10.2098
承佛威神	-10.2098
擾	-10.2098
除愈	-10.2098
濡	-10.2098
竹	-10.2098
腰	-10.2099
青黃赤白	-10.2099
閑居	-10.2099
枉	-10.2099
殊別	-10.2099
伎樂	-10.2099
辯才	-10.2099
柔	-10.2099
殺害	-10.21
寬	-10.21
造惡業	-10.21
效	-10.21
狗入舍則	-10.21
隨機	-10.21
心生歡喜	-10.21
莎訶	-10.2101
浴池	-10.2101
穢濁	-10.2101
出家在家	-10.2102
憍尸迦	-10.2102
四諦	-10.2102
戀	-10.2102
鷄	-10.2102
支	-10.2103
女言	-10.2103
五丈	-10.2103
鷹	-10.2103
叵	-10.2103
光澤	-10.2103
永除	-10.2104
夫婦	-10.2104
墜	-10.2104
如是之人等亦不	-10.2104
建	-10.2104
冬	-10.2104
怨憎	-10.2104
無障礙	-10.2104
烈	-10.2105
埋	-10.2105
策	-10.2105
任縱	-10.2105
驚怖	-10.2105
得未曾有	-10.2105
4	-10.2105
天龍鬼神	-10.2106
摩訶般若波羅蜜	-10.2106
曠	-10.2106
燃	-10.2106
喪失	-10.2106
腸	-10.2106
罔	-10.2106
罵詈	-10.2106
善友功能	-10.2106
所逼	-10.2107
〔	-10.2107
四禪	-10.2107
諸波羅蜜	-10.2107
滑	-10.2107
憎嫉	-10.2108
地水火風	-10.2108
婬欲	-10.2108
媚	-10.2108
行五戒十善加行一	-10.2108
爛	-10.2109
七佛名字	-10.2109
日月燈明	-10.2109
錄	-10.211
無始	-10.211
慈氏	-10.211
手足	-10.211
漢言	-10.2111
洞	-10.2111
南無妙色	-10.2111
無所不作	-10.2112
輔	-10.2112
犬	-10.2112
賜	-10.2113
空無所有	-10.2113
沈溺	-10.2113
赫	-10.2113
者作	-10.2113
著淨	-10.2114
開通	-10.2114
寂然	-10.2114
吼	-10.2115
此鬼神	-10.2115
錯用	-10.2116
不食肉者	-10.2118
七寶莊嚴	-10.2119
汝等大眾	-10.212
貞	-10.212
列	-10.2121
釜	-10.2121
祿	-10.2121
偷	-10.2122
不懈	-10.2122
真際	-10.2122
飲水	-10.2122
解脫門	-10.2126
臭穢	-10.2126
久住	-10.2126
眾生見之	-10.2127
行欲之法	-10.2128
難量	-10.213
七遍	-10.213
流水	-10.2131
更無餘	-10.2131
貪財	-10.2132
南無寶月	-10.2133
合為一	-10.2134
其婦	-10.2134
不忘	-10.2135
從無始已來	-10.2135
力故	-10.2136
上士	-10.2137
師僧	-10.2137
福報	-10.2138
耳目	-10.2138
靈真	-10.214
心垢	-10.2141
妄起	-10.2143
慈念	-10.2143
除去	-10.2147
信施	-10.2147
無諍	-10.2147
問之	-10.2148
作留難	-10.2149
言得之	-10.215
遍十方	-10.2151
此三種人	-10.2151
如空中	-10.2152
一句	-10.2154
南無光	-10.2156
自在力	-10.2157
不利	-10.2157
得成佛	-10.2157
啄	-10.2159
雨大	-10.2159
羝	-10.2162
聽受	-10.2162
有如是等	-10.2163
一毫	-10.2163
野狐	-10.2163
緣生	-10.2163
必當	-10.2164
八解脫	-10.2164
香火	-10.2165
曾聞	-10.2165
空王如來	-10.2166
三稱	-10.217
德本	-10.217
菩提樹	-10.2171
嗚呼	-10.2171
離垢	-10.2171
葉佛	-10.2173
藥上	-10.2177
終時	-10.2177
則是	-10.2184
良以	-10.2186
地動	-10.2188
妙樂	-10.2189
受種種	-10.2189
知之	-10.2191
得聞此經	-10.2192
不渴	-10.2198
將欲	-10.2198
違於	-10.2199
即得解脫	-10.2201
小子	-10.2201
出沒	-10.2203
大慈悲	-10.2204
外緣	-10.2209
善解	-10.2211
常修	-10.2212
難得	-10.2218
眾邪蠱毒	-10.222
至涅槃	-10.2223
多羅	-10.2223
大藏	-10.2224
作微塵	-10.2224
日日	-10.2225
樂著	-10.2226
化眾生	-10.2227
我是	-10.2227
信邪	-10.2228
一切諸眾生	-10.223
聖道	-10.2231
道理	-10.2233
異同	-10.2236
無願	-10.2237
存心	-10.2241
其名曰	-10.2243
得授記	-10.2245
不敬	-10.2246
會說法	-10.2248
藏中	-10.225
善神	-10.225
罪報	-10.225
實如聖教	-10.2251
四門	-10.2254
典	-10.2264
一心諦聽	-10.2266
涅槃時	-10.2268
清淨莊嚴	-10.2269
皆共	-10.2272
常念	-10.2273
南無日月	-10.2275
自知	-10.2278
事故	-10.2281
來至	-10.2282
六道	-10.2283
明珠	-10.2284
城中	-10.2287
地中	-10.2289
女身	-10.2293
自活	-10.2296
皆因	-10.2296
其唯	-10.2296
不恭敬	-10.2299
諸業	-10.2302
而去	-10.2307
在前	-10.2308
萬劫	-10.2312
成欲	-10.2314
是佛名	-10.2315
五色	-10.2316
將我	-10.2325
為弟子	-10.234
聽之	-10.2346
世間眾生	-10.2351
是我弟子	-10.2352
我愛	-10.2359
人思得	-10.2362
為人所	-10.2368
諸行者	-10.2371
寶勝佛	-10.2378
大好	-10.2384
如本	-10.2385
墮惡道	-10.2386
為初	-10.2388
是不可	-10.2388
大罪	-10.2389
不可說	-10.2398
八億	-10.2399
何人	-10.2403
發阿耨多羅三藐三菩提心	-10.2407
令出	-10.2409
愛之	-10.241
疑心	-10.2412
如海	-10.2425
為因	-10.2442
不以為	-10.2449
不濟	-10.2454
起行	-10.2457
解無	-10.2458
今時	-10.2462
此者	-10.2463
心淨	-10.2465
一切有情	-10.2465
十佛	-10.2466
不可計	-10.2478
乃是	-10.248
有大	-10.248
即用	-10.2482
惠方便	-10.2488
教以	-10.2489
三品	-10.2492
出生	-10.2493
萬佛	-10.2499
菩提樹下	-10.2522
為父	-10.253
欲作	-10.2546
一切佛	-10.2546
惠施	-10.2548
此名	-10.2548
今身作	-10.2549
地獄第十	-10.256
亦見	-10.2561
不解我意	-10.2574
眼中	-10.2583
手捉	-10.2587
兄弟	-10.2597
百佛	-10.2605
南無無	-10.2611
相菩薩	-10.2622
能得	-10.2627
我欲	-10.2638
轉讀	-10.2639
一食	-10.2648
等覺	-10.2656
令使	-10.2662
生信心	-10.2665
大力	-10.2677
死墮鐵	-10.2678
見菩薩	-10.268
妙藥	-10.2695
須彌山南	-10.2701
已訖	-10.2703
念之	-10.2705
亦難	-10.2712
狩	-10.2718
集在	-10.272
復無	-10.2723
殯葬之	-10.2726
佛即	-10.2727
滅門	-10.2736
聖眾	-10.2751
觀行	-10.2756
歸命	-10.276
非母不	-10.2768
生此	-10.2768
在何處	-10.2778
十八地獄	-10.2782
持淨戒	-10.2787
若有善男子	-10.2793
南無妙	-10.2801
諸苾芻	-10.2804
味相	-10.2812
真如	-10.2822
正是	-10.2831
南無普	-10.2841
時節	-10.2845
常以	-10.285
常生	-10.2879
所為	-10.2887
改換	-10.289
隨人	-10.2901
者喻如	-10.2902
永不	-10.2903
色相	-10.2906
三人	-10.291
壽五百	-10.2912
汝能	-10.2921
我心	-10.2936
欲度	-10.2938
為法	-10.2941
南無普光	-10.2942
又如	-10.2943
山頂	-10.2952
以自	-10.2955
梵天	-10.2967
延壽菩薩	-10.2971
出世間	-10.2977
財寶	-10.2982
斷善根	-10.2987
是世間	-10.2987
身為	-10.2992
無行	-10.2992
彼國	-10.2999
獲得	-10.3007
難可	-10.3008
一生	-10.3009
善住	-10.304
此則	-10.3041
無以	-10.3041
眾病	-10.3047
多饒	-10.3072
已後	-10.3079
空理	-10.3086
無道	-10.309
之上	-10.3103
寶藏	-10.3113
無自體	-10.3121
已為	-10.3122
五種	-10.3139
地上與	-10.3144
不食	-10.3144
捨命	-10.3146
內有	-10.3163
一切世間	-10.317
常見	-10.3176
離於	-10.3176
善逝	-10.3177
音菩薩	-10.3184
獲福	-10.3188
者眾	-10.3188
出地獄	-10.319
淚	-10.3199
來下	-10.3208
四億	-10.3225
聞是	-10.3243
有形	-10.3246
於一切眾生	-10.3248
說經法	-10.3259
世尊欲重宣此義	-10.3274
得見佛	-10.3289
說此法	-10.3291
若於	-10.3305
不足	-10.3317
法雨	-10.3318
達摩	-10.333
自見	-10.334
動地	-10.3352
所不能	-10.336
無我	-10.3369
事事	-10.3371
佛告諸	-10.3381
來去	-10.3387
所生	-10.3395
哭	-10.3406
南無師子	-10.3412
饒	-10.3413
悟解	-10.3419
肉者	-10.3424
諸世間	-10.3431
惡法	-10.3431
不死	-10.3437
復欲	-10.3447
金剛藏	-10.3447
依理	-10.3451
今者	-10.3453
至梵天	-10.3465
以是之故	-10.3468
世人	-10.3473
演說	-10.3485
慧命	-10.3487
迷惑	-10.3488
人得	-10.349
觀身	-10.3495
諸惡比丘	-10.3515
竟無	-10.3516
長跪	-10.3524
信之	-10.3526
名者	-10.353
悔過	-10.3536
生於	-10.3537
作諸	-10.3549
心是	-10.3549
月光菩薩	-10.3552
不樂	-10.3553
入地獄	-10.3581
後生	-10.3585
供養三寶	-10.3622
五百歲	-10.3628
常施	-10.3628
天眾	-10.3668
教法	-10.3671
能救	-10.3673
雖有	-10.3681
不絕	-10.3687
生天上	-10.3689
在其	-10.3726
自生	-10.3729
若離	-10.3733
無覺	-10.3751
實非	-10.3762
十二部	-10.3768
其事	-10.3769
神王	-10.3775
得知	-10.3783
為眾	-10.3787
繼縛	-10.38
令彼	-10.3801
久長	-10.3804
說三	-10.3811
之業	-10.3819
殯葬	-10.3831
同一	-10.3842
欲聞	-10.3849
頂上	-10.3855
不可言	-10.3859
兄	-10.3879
死亡	-10.3882
謬	-10.3885
更莫	-10.389
其所	-10.3892
緣起	-10.3905
為無	-10.3932
今說	-10.3937
一面	-10.3944
爾時佛告	-10.3946
大願	-10.3949
地大	-10.3951
天名	-10.3962
是何	-10.3963
亦不得	-10.3968
得生天	-10.397
莫作	-10.3973
止不	-10.3979
多人	-10.3992
語寶車	-10.3994
長大	-10.4001
不隨	-10.4001
佛事	-10.4002
種人	-10.4006
見彌勒	-10.4012
得是	-10.4014
南無金剛	-10.4032
遂成	-10.4034
此呪者	-10.404
此皆	-10.4061
於一	-10.4096
間無	-10.4097
一無	-10.4115
召	-10.4119
之過	-10.412
是魔	-10.4128
南無光明	-10.413
復見	-10.4132
往生	-10.4133
善聽	-10.4145
誦之	-10.415
降伏	-10.4156
無邊身菩薩	-10.4156
五百世中	-10.4159
墮於	-10.4163
鞞	-10.4165
諸女	-10.4174
法而	-10.4175
其父	-10.4182
必得	-10.4185
更有	-10.4193
我觀	-10.4198
趣向	-10.42
懃	-10.4203
迫迮	-10.4214
有物	-10.4222
度一切	-10.4223
即滅	-10.4228
為體	-10.4236
延	-10.4238
之徒	-10.425
刀山	-10.4258
性相	-10.4264
饒益	-10.4266
死生	-10.4275
不施	-10.4277
心常	-10.428
種樹	-10.4283
一切眾生身內	-10.4283
民	-10.4284
文字即解脫用	-10.4286
及所	-10.4289
嚴菩薩	-10.4299
得住	-10.4299
聞佛	-10.4304
僧中	-10.4305
閉目	-10.4312
諸佛名	-10.4319
本心	-10.432
自至	-10.433
若說	-10.433
明呪	-10.4335
真實法	-10.4341
千歲	-10.4351
人能	-10.4352
非無	-10.4358
於外	-10.4367
自得	-10.4368
常施菩薩	-10.4368
邪正	-10.4379
一實	-10.4397
』	-10.4405
孝	-10.4407
無有疑	-10.4416
炬	-10.4416
如實	-10.4419
匝	-10.4426
即見	-10.4426
師教	-10.4434
僧物	-10.4436
人前	-10.4436
真金	-10.4436
瓶	-10.4438
業者	-10.4439
一千	-10.4443
無餘	-10.4444
廣長	-10.4444
未見	-10.4444
日光	-10.4446
與諸	-10.4447
雖聞	-10.4451
一分	-10.4453
無量壽佛	-10.4454
愍念	-10.4455
遊戲	-10.4459
切	-10.4462
不虛	-10.4467
何為	-10.4474
惡夢	-10.4476
如是諸	-10.448
難可得	-10.4484
盧舍那	-10.4495
毫	-10.4498
於俗	-10.4499
如夢	-10.4499
恭	-10.4505
滅度後	-10.4514
船	-10.4519
議	-10.4519
眾苦	-10.4521
知汝姓	-10.4522
諸有	-10.4523
懺	-10.4524
此三人	-10.4524
差別	-10.4525
乞食	-10.4525
最清淨	-10.4532
坑	-10.4533
老病死	-10.4535
地獄中治罪	-10.4536
本師釋迦牟尼佛	-10.4536
長生	-10.4536
墮大地獄	-10.454
毛孔	-10.454
為我宣說	-10.454
迦葉波	-10.4542
智惠	-10.4544
屍陀林	-10.4544
常樂我淨	-10.4545
琉璃光	-10.4545
全	-10.4547
非色非	-10.4547
干	-10.4549
未悟	-10.455
心相續	-10.4551
佛世尊	-10.4551
不如有人一發善心	-10.4551
投	-10.4553
我等或從無量劫來	-10.4553
布施者	-10.4554
跡	-10.4555
驗	-10.4556
入諸	-10.4557
知見	-10.4557
或取人	-10.4557
欝	-10.4558
心生重悔	-10.456
彼岸	-10.456
千是萬非	-10.456
說涅槃	-10.4561
得阿那含道	-10.4562
千鐵圍山高至第	-10.4562
豆	-10.4562
為名利故	-10.4562
光音天	-10.4562
娑羅雙樹間	-10.4563
行五戒十善四禪	-10.4563
南無佛陀	-10.4563
八萬劫中	-10.4563
命終生天	-10.4564
額	-10.4564
五分法身	-10.4565
捻	-10.4565
獨行布施	-10.4565
讀此經三遍	-10.4565
燋	-10.4565
奴	-10.4565
普照十方	-10.4566
復以此經	-10.4566
當何名此經	-10.4567
貧賤	-10.4567
水行天子樹音天子	-10.4567
滿阿鼻城	-10.4567
爾時世尊告諸大眾	-10.4568
侍	-10.4568
輪迴六趣	-10.4568
諸大	-10.4568
何故今日	-10.4569
軀	-10.4569
㪷	-10.4569
迷悶	-10.4569
於其中間	-10.4569
或見此處	-10.4569
下火徹上	-10.457
波羅提木叉	-10.457
沽	-10.4571
醒	-10.4571
上火徹下	-10.4571
訶	-10.4571
呵	-10.4571
願除無量劫以來	-10.4571
》	-10.4571
得往生	-10.4572
圍遶	-10.4572
號哭	-10.4572
天上人中	-10.4572
行五戒十善四禪具	-10.4572
大地震動	-10.4572
命終之後	-10.4573
育	-10.4573
三惡道	-10.4574
稱揚	-10.4574
亭	-10.4574
調御	-10.4575
凡夫身中具有八	-10.4575
煮	-10.4575
參	-10.4575
誡	-10.4576
來食魅人	-10.4576
涉	-10.4576
屈	-10.4576
懷慚愧	-10.4576
阿閦	-10.4576
飲酒醉亂	-10.4577
從繼業	-10.4577
浮圖	-10.4577
蟲	-10.4578
杵	-10.4578
修梵行	-10.4578
竝	-10.4578
皆由恭敬禮十方三世佛	-10.4578
劍	-10.4578
歡欣	-10.4578
得斯陀含	-10.4578
貪瞋	-10.4578
心中憶念普賢菩薩	-10.4578
迦樓羅	-10.4579
此呪	-10.4579
刺	-10.458
奔	-10.458
阿鼻	-10.458
憧	-10.458
啼	-10.458
悲啼	-10.458
輕賤	-10.458
如是苾芻	-10.458
作是語已	-10.458
結縛	-10.458
建立	-10.4581
忘失	-10.4581
諸鬼神王	-10.4581
眉	-10.4581
住於世	-10.4582
阿闍世王	-10.4582
怕	-10.4583
豁然意解	-10.4583
蒸	-10.4583
檀越	-10.4583
古	-10.4583
休	-10.4584
譬如一人	-10.4584
罷	-10.4584
十地菩薩	-10.4584
黿	-10.4584
萬萬	-10.4584
貪嗔癡	-10.4585
汝於來世	-10.4585
丈夫	-10.4585
昨	-10.4585
衣裳	-10.4585
貪瞋癡	-10.4585
乾闥婆阿修羅	-10.4585
永沈苦海	-10.4585
狗得死	-10.4585
付	-10.4586
固	-10.4586
曇	-10.4586
爾時佛告除疑大士	-10.4586
苾芻苾芻尼	-10.4586
無等等	-10.4586
城郭	-10.4587
慧命法身	-10.4587
寄	-10.4587
影嚮	-10.4587
繼業	-10.4587
幻化	-10.4587
群盲	-10.4587
金棺	-10.4587
非諸聲聞緣覺	-10.4587
下劣	-10.4588
以此證知	-10.4588
比校	-10.4588
嗜	-10.4588
隸	-10.4588
一切眾生皆有佛性	-10.4588
之頃	-10.4588
冥識菩薩摩訶薩	-10.4588
心是無為	-10.4588
無有能知	-10.4588
禽獸	-10.4588
翻此八	-10.4588
薛	-10.4589
無有一念	-10.4589
為生子	-10.4589
神仙	-10.4589
換	-10.4589
八部大眾	-10.4589
同聲白佛言	-10.4589
零	-10.459
嶮	-10.459
薩婆	-10.459
坐臥	-10.459
春	-10.4591
恨	-10.4591
棘	-10.4591
稽	-10.4591
猶亦不如有人能斷酒肉	-10.4592
逮	-10.4592
告常施菩薩	-10.4592
迦難羅比丘	-10.4592
國王亦主	-10.4592
逍遙	-10.4592
沒溺	-10.4592
而殖	-10.4592
哽咽	-10.4592
人面似地形	-10.4592
非定有	-10.4592
辱	-10.4593
𠥱	-10.4593
東西南北	-10.4593
若人因禮拜	-10.4593
得幾	-10.4593
1	-10.4593
橋	-10.4593
郡	-10.4593
爾時眾中有一菩薩	-10.4593
􄞢	-10.4593
占	-10.4593
憂苦	-10.4593
截	-10.4594
散亂	-10.4594
慶	-10.4594
姿	-10.4594
謗方等經	-10.4594
成等正覺	-10.4594
聲聞弟子	-10.4594
蔟	-10.4595
佛告混融菩薩摩訶薩	-10.4595
牛頭	-10.4595
竪	-10.4595
得受供養	-10.4595
頭破作七分如阿梨樹枝	-10.4595
二萬億同號	-10.4595
千尺	-10.4595
鈴	-10.4595
飲食衣服	-10.4596
一一毛孔	-10.4596
於彼岸	-10.4596
雖是凡夫	-10.4596
南無離垢	-10.4596
爪	-10.4596
般若波羅蜜	-10.4596
伺	-10.4596
丹	-10.4596
斬截	-10.4596
自恣	-10.4596
上半正明	-10.4596
糧食	-10.4596
軸	-10.4596
復過此劫	-10.4597
猛火	-10.4597
佛說是經時	-10.4597
樓秦佛	-10.4597
擔	-10.4597
緊那羅	-10.4597
荒	-10.4597
劣	-10.4598
燋爛	-10.4598
專精	-10.4598
調適	-10.4598
浩	-10.4598
自今以後	-10.4598
嫉	-10.4598
幾	-10.4598
臥具	-10.4598
寶珠	-10.4598
支節	-10.4598
雜毒	-10.4599
醉	-10.4599
滿月	-10.4599
天人師	-10.4599
太陽真極	-10.4599
次一偈明	-10.4599
熊	-10.4599
諍論	-10.4599
無數劫	-10.46
大魔	-10.46
毛髮	-10.46
一生補處	-10.46
長短	-10.46
睡眠	-10.46
偷盜	-10.46
清淨處	-10.46
一千同號	-10.46
誑惑	-10.46
殃咎	-10.4601
當得作佛	-10.4601
笛	-10.4601
麗	-10.4601
延年益壽	-10.4601
舒	-10.4601
借	-10.4601
熾	-10.4601
競起	-10.4601
譯	-10.4601
叫	-10.4601
忿	-10.4602
掃	-10.4602
漿	-10.4602
把	-10.4602
蒙光	-10.4603
打罵	-10.4603
ィ	-10.4603
唯願世尊為我解說	-10.4603
十一者	-10.4603
泣	-10.4603
鬪諍	-10.4603
卵	-10.4603
磨滅	-10.4603
貫	-10.4603
陸地名	-10.4603
黨	-10.4603
無有能知受持此經之人功德	-10.4603
從本已來	-10.4604
尸羅	-10.4604
造新	-10.4604
垢淨	-10.4604
譬如有人依	-10.4604
遇善知識	-10.4604
來聽法	-10.4605
餌	-10.4605
眠	-10.4605
湛然	-10.4605
伊	-10.4605
澄	-10.4606
值善知識	-10.4606
柳	-10.4606
要期	-10.4606
囓	-10.4606
定光如來	-10.4606
善知識者亦復如是	-10.4606
引導	-10.4606
轉輪聖王	-10.4606
迫	-10.4606
梨	-10.4606
萬民	-10.4606
嗔恚	-10.4607
良田	-10.4607
魍魎	-10.4607
往返	-10.4607
疲	-10.4607
頂戴	-10.4607
無慧目	-10.4607
罰	-10.4607
互相	-10.4607
初首	-10.4608
俠	-10.4608
卒	-10.4608
亦復然	-10.4608
於未來世	-10.4608
〕-【	-10.4609
大菩薩眾	-10.4609
定墮地獄	-10.4609
誓願	-10.4609
符厭	-10.4609
至心受持	-10.461
油	-10.461
一心奉行	-10.461
正宗	-10.461
辰	-10.461
屏處	-10.461
寅	-10.461
田作	-10.461
橫死	-10.461
世尊大慈悲	-10.4611
消伏	-10.4611
絲	-10.4611
陀羅尼神呪	-10.4611
燈明	-10.4611
噓	-10.4612
娑婆	-10.4612
悟正菩薩摩訶薩	-10.4612
誦五十遍	-10.4612
羅網	-10.4612
淵	-10.4612
厄難	-10.4612
霜	-10.4613
引喻	-10.4613
血肉	-10.4613
覆藏	-10.4613
統	-10.4613
消息	-10.4614
權	-10.4614
愚夫	-10.4614
聖教	-10.4614
雜類	-10.4614
屬諸因緣	-10.4614
內外推求	-10.4614
施主	-10.4614
此三厨法	-10.4614
慧方便	-10.4615
身口意業	-10.4615
唯除菩薩	-10.4615
曉	-10.4615
萬五千	-10.4616
日月五星二十八宿	-10.4616
入人舍	-10.4616
善友功力	-10.4616
庶	-10.4616
束	-10.4616
丘	-10.4617
三十二瑞應	-10.4617
敵	-10.4617
飾	-10.4617
默念	-10.4617
后	-10.4618
僧藏	-10.4618
種種方便	-10.4618
若有智者	-10.4618
寶相佛言	-10.4618
弱水	-10.4618
諸天宮殿	-10.4619
送	-10.4619
不令他	-10.4619
憑	-10.4619
殿前	-10.4619
西國	-10.4619
不自名	-10.462
躍	-10.462
以偈歎	-10.462
商	-10.462
翳	-10.462
生一男	-10.4621
為眾生說法	-10.4621
汝所問者	-10.4621
智度論	-10.4621
累劫	-10.4621
除却	-10.4621
振動	-10.4621
內著心中	-10.4621
尊貴	-10.4621
寫却	-10.4621
我於爾時	-10.4622
洛	-10.4623
條	-10.4623
香象	-10.4623
居士	-10.4623
圓教	-10.4624
陰陽	-10.4624
夷	-10.4624
縱廣高下	-10.4624
作如是問	-10.4624
僧尼	-10.4625
吸	-10.4625
棖公	-10.4626
戾	-10.4626
一芥子	-10.4627
壬	-10.4627
真珠	-10.4627
影現	-10.4627
首羅比丘	-10.4627
盜賊	-10.4628
汝等離	-10.4628
覆蓋	-10.4628
墮畜生	-10.4628
受持經人	-10.4629
散花	-10.4629
馳	-10.4629
爾時山海慧菩薩	-10.463
背正	-10.463
因緣幻起	-10.463
󰝟	-10.463
天中天	-10.463
處處皆	-10.4631
某	-10.4631
轉法輪	-10.4631
符之後	-10.4631
履	-10.4632
主一切	-10.4632
若有女人	-10.4633
瞻	-10.4634
諸徒眾	-10.4634
拔苦	-10.4634
暢	-10.4634
汝等菩提	-10.4634
六親	-10.4635
所有功德	-10.4636
棄捨	-10.4636
食肉者	-10.4636
竊	-10.4636
佛法僧	-10.4636
同流	-10.4637
說其意	-10.4637
倒見	-10.4638
用寂	-10.4639
而以	-10.464
去離	-10.464
耳聽	-10.464
刀兵	-10.4641
清淨信	-10.4641
忽然至	-10.4641
其印	-10.4642
無疑	-10.4643
是故汝等	-10.4643
飛空	-10.4643
樓觀	-10.4644
不肖	-10.4645
億像	-10.4646
十二入	-10.4646
長壽	-10.4647
若干	-10.4647
寶幢	-10.4647
星主	-10.4648
應化	-10.4648
謂呼	-10.4649
執持	-10.4649
南無百億	-10.465
南無那羅延	-10.4651
中品	-10.4651
處天	-10.4651
還家	-10.4652
以彼	-10.4653
誑或	-10.4654
踊躍	-10.4654
福德可	-10.4655
諸人	-10.4655
義味	-10.4656
今身作師	-10.4657
等法性	-10.4658
色像	-10.4658
有罪	-10.4659
邊作	-10.4659
佛現在	-10.4659
三十六	-10.466
同異	-10.466
人貴	-10.466
及善知識	-10.466
雖未	-10.4661
勇猛菩薩摩訶薩	-10.4662
寫此經	-10.4662
執著	-10.4662
深廣	-10.4663
不畏	-10.4666
境智	-10.4667
遍觀	-10.4668
根塵	-10.4668
利他	-10.4668
緣動	-10.4668
其志	-10.4669
小弱	-10.467
風起	-10.467
性命	-10.4671
千五百	-10.4671
水災	-10.4671
世尊所說	-10.4672
滅除	-10.4673
結願	-10.4673
藥叉	-10.4673
利物	-10.4674
初云	-10.4677
藏識	-10.4677
六通	-10.4678
如海令	-10.4679
書寫讀誦	-10.468
行此法	-10.468
必作	-10.468
所有善根	-10.4682
南無無上	-10.4683
者即是	-10.4684
奉法	-10.4684
遠來	-10.4685
火車地獄	-10.4685
熱惱	-10.4686
低頭	-10.4686
甚善	-10.4687
不熱	-10.4687
三障	-10.4687
正信	-10.4687
迷闇	-10.4689
二諦	-10.469
八種人	-10.4691
修集	-10.4691
同前	-10.4691
此經名為	-10.4692
無作解脫	-10.4693
三災	-10.4693
今已	-10.4695
天名梵	-10.4695
懺悔者	-10.4695
食肉者墮	-10.4695
音樂	-10.4695
太山崩	-10.4696
真理	-10.4696
信樂	-10.4696
值遇	-10.47
過惡	-10.4701
等諸法	-10.4703
重病	-10.4706
有三種	-10.4707
一心好	-10.4707
恒在	-10.4709
護念	-10.4712
腹中	-10.4712
所造	-10.4712
汝之所	-10.4713
所護	-10.4713
如來所說	-10.4714
為首	-10.4716
作惡業	-10.4718
本覺	-10.4718
使汝	-10.4718
從座	-10.472
始從	-10.4721
不閑	-10.4723
未來眾生	-10.4725
貪欲	-10.4727
彌勒佛	-10.4727
求福	-10.4728
出於世	-10.4728
證信	-10.4729
慈父	-10.473
復有無量	-10.473
行菩薩道	-10.4731
非斷	-10.4732
悲心	-10.4733
於僧	-10.4734
善說	-10.4735
思見	-10.4735
解義	-10.4735
從緣生	-10.4735
眼所見	-10.4735
無量世界	-10.4736
不傳	-10.4737
修持	-10.4738
十恒河沙菩薩	-10.4742
自致	-10.4743
飲之	-10.4743
千萬劫	-10.4747
愛欲	-10.4747
未能	-10.4747
富者	-10.4749
受教	-10.4751
深入	-10.4753
相應	-10.4754
無色界	-10.4754
如似	-10.4756
即不生	-10.4756
莫知	-10.4756
不自	-10.4758
至十	-10.4758
猶如一	-10.4759
千世界	-10.4763
復告常施菩薩	-10.4763
不免	-10.4767
修持十善	-10.477
悔心	-10.4771
取用	-10.4771
雖與	-10.4771
此地獄	-10.4772
師子遊戲	-10.4772
修多羅	-10.4775
下第三	-10.4776
寶明菩薩	-10.4777
天堂	-10.4778
吾見	-10.4779
觀智	-10.4781
最為	-10.4781
眾生佛性	-10.4782
於諸眾生	-10.4783
貌	-10.4784
所解	-10.4784
其母	-10.4788
皆自然	-10.479
舉手	-10.479
其數	-10.4791
無愧	-10.4793
得出	-10.4793
出離	-10.4795
手菩薩	-10.4795
淨天	-10.4797
汝等眾生	-10.4798
大精進	-10.4799
於一切法	-10.48
善師	-10.4802
皆一心	-10.4803
不會	-10.4803
來集	-10.4804
念處	-10.4805
出家人	-10.4808
如來藏	-10.4814
如是不可思議	-10.4815
時至	-10.4816
諸天人	-10.4816
觀察	-10.4817
四道	-10.4821
不調	-10.4822
以是因緣故	-10.4825
大涅槃	-10.4825
療	-10.4825
在地	-10.4828
常起	-10.4828
世俗	-10.4829
從一	-10.4829
於其中	-10.483
處生死	-10.4834
億歲	-10.4835
性力	-10.4836
心王菩薩	-10.4842
謂為	-10.4842
諸山	-10.4846
護法	-10.4847
各自	-10.4847
義故	-10.4849
如是種種	-10.485
者死墮	-10.4854
意識	-10.4856
南來	-10.4857
苦樂	-10.4857
並悉	-10.4857
不來	-10.486
師所	-10.486
一遍	-10.486
崩	-10.4861
生離	-10.4862
值我	-10.4862
更觀	-10.4863
佛說經	-10.4865
現身	-10.4866
食子	-10.4868
無有異	-10.4868
其福甚	-10.4869
八萬四千徒眾	-10.4875
入定	-10.4875
欲知	-10.4876
爾時世尊告	-10.4877
黑闇地獄	-10.4881
常明	-10.4882
聖心	-10.4885
不可度量	-10.4889
其口	-10.4893
非實	-10.4893
不時	-10.4894
除其	-10.4899
得活	-10.4902
一大城	-10.4905
流布此經	-10.4907
有九	-10.491
人形	-10.491
不止	-10.4912
具相	-10.4912
法力	-10.4913
由有	-10.4914
自裁	-10.4915
不散	-10.4917
即成	-10.4922
滅也	-10.4923
無想	-10.4923
或欲	-10.4924
造過	-10.4925
惡處	-10.4931
語之	-10.4932
受持是經者	-10.4934
生處	-10.4935
法律	-10.4942
利人	-10.4944
大國王	-10.4947
此三	-10.4948
外有	-10.4949
法王菩薩	-10.4949
利眾生	-10.4954
業所	-10.496
斷壞	-10.4962
非為	-10.4964
願皆	-10.4968
世尊說	-10.4969
恒為	-10.4973
在下	-10.4975
日闇	-10.4975
無戒	-10.4978
心無形	-10.498
彼時	-10.4981
生身	-10.4985
謂之	-10.4986
使我	-10.4989
譬如有人身	-10.499
緣是	-10.4993
無形	-10.4994
不可不	-10.5002
無根	-10.5004
未聞	-10.5006
有數	-10.5008
兩目	-10.501
見無量佛	-10.5015
夢中	-10.5018
上來	-10.502
作食	-10.5023
本是	-10.5023
人所	-10.5024
食魅人	-10.503
若欲求	-10.503
得本心	-10.5036
何謂	-10.5039
入已	-10.5045
兩舌	-10.505
百二十	-10.5056
栴檀香	-10.5057
亡失財	-10.5063
無求	-10.5074
之形	-10.5077
於地	-10.5084
塵勞	-10.5086
悉知	-10.5086
如幻如	-10.5087
法故	-10.5089
是正	-10.509
住一	-10.5091
為大眾	-10.5107
以後	-10.5108
千人	-10.5112
佛所說	-10.5114
及此	-10.5115
人不	-10.5117
身天	-10.5118
爾乃	-10.5122
深淺	-10.5123
佛教	-10.5137
信順	-10.5144
無對	-10.5152
餘緣	-10.5158
南無功德	-10.5159
如是願	-10.5169
如前	-10.5182
以淨	-10.5187
正心	-10.5188
諸邪見	-10.5189
今得聞	-10.519
如何	-10.519
惡身	-10.5194
生誹謗	-10.5195
作是	-10.52
見色	-10.5203
為大	-10.5206
之內	-10.521
永斷	-10.5214
如空	-10.5214
言語	-10.5224
色身	-10.5225
一石	-10.523
與之	-10.523
功力	-10.5235
坐者	-10.5236
為我說之	-10.5244
常無	-10.5249
十四者	-10.5249
色力	-10.525
乘者	-10.5252
所住	-10.5253
寶王	-10.526
有病	-10.5268
或以	-10.527
得菩提	-10.5276
說無	-10.528
在會	-10.5286
我所	-10.5286
云何有	-10.5299
其上	-10.5302
之方	-10.5306
令其	-10.5307
佛果	-10.5308
未曾有	-10.5313
吾當為汝說	-10.5313
世時	-10.5315
不蒙	-10.5318
歸家	-10.5318
不住心	-10.533
佛智	-10.5335
是經中	-10.5343
如大地	-10.5343
二十八	-10.5345
以水	-10.535
妙花	-10.5351
眾邪	-10.5355
此中	-10.5356
之力	-10.5359
為天	-10.5371
南無明	-10.5374
所犯	-10.5387
莫造	-10.5392
不寫	-10.5395
決定說	-10.5398
百歲於	-10.5401
諸國土	-10.5402
受持經	-10.5403
▁爾時	-10.5405
爾時彌勒	-10.5408
法施	-10.5408
從意	-10.5413
一切皆	-10.542
此身	-10.5425
不飲酒	-10.5425
三萬	-10.5428
授	-10.544
為汝說	-10.5446
常處於	-10.5454
皆獲	-10.5464
若名字	-10.5469
無地	-10.5488
無生滅	-10.5489
心王	-10.5494
自高	-10.5496
我能	-10.5501
一枚	-10.5503
心亂	-10.5508
無量阿僧祇	-10.5516
無難	-10.5518
乃有	-10.5519
住在	-10.5521
百味	-10.5524
焰	-10.553
那羅	-10.5533
從生	-10.5534
名聞	-10.5537
俱空	-10.5539
諸佛之	-10.554
即入	-10.5565
心神	-10.5566
眼菩薩	-10.5566
心如	-10.5567
若求	-10.557
大弟子	-10.5571
殺父母	-10.5576
發慈心	-10.558
爾時大眾	-10.5581
若起	-10.5588
金師	-10.5588
又觀	-10.5592
修行菩提	-10.5596
知有	-10.5597
百里	-10.5602
南無上	-10.5602
神變	-10.5609
身者	-10.5616
自無	-10.5619
善業	-10.5621
故能	-10.5623
十七者	-10.5632
能破	-10.564
除疑	-10.5643
於眾生	-10.5654
非他	-10.5658
不可見	-10.5661
其實	-10.5661
誦此經	-10.5673
一切眾生身是	-10.5682
一如	-10.5684
之來	-10.5684
法衣	-10.5685
修觀	-10.569
一根	-10.569
何者是	-10.5694
而此	-10.5716
佛光	-10.5717
有如是	-10.5721
演	-10.5724
佛子	-10.5736
非虛	-10.5753
有七	-10.5755
分別名為	-10.5757
心者	-10.5758
著地	-10.5777
滅之	-10.5779
若其	-10.5781
教命	-10.5784
護三寶	-10.5786
及人	-10.5793
聞佛說	-10.5793
說為	-10.5796
從何	-10.5801
佛因	-10.5804
人多	-10.5808
所持	-10.5809
以方便	-10.5813
聰	-10.5816
當令	-10.5833
禮拜供養	-10.5833
使者	-10.5837
有苦	-10.5838
彌勒菩薩	-10.5838
戒者	-10.585
佛在世	-10.5857
見此	-10.5863
能壞	-10.5866
則名	-10.5866
未來世	-10.5869
此為	-10.5873
得清淨	-10.5875
緣諸境	-10.5884
願我	-10.589
人身命	-10.589
無主	-10.5898
不持	-10.5899
悉是	-10.5906
受持三歸五戒	-10.5912
土地	-10.5915
破煩惱	-10.5916
其光	-10.5917
持齋戒	-10.5922
心定	-10.5925
神性	-10.5926
無所依	-10.5942
鎧仗	-10.5943
二俱	-10.595
謗法	-10.5955
頂受	-10.5956
獸	-10.5956
不退	-10.5962
便生	-10.5974
如故	-10.5976
願悉得	-10.5977
雖在	-10.5979
中害	-10.6012
功德故	-10.6013
得之	-10.6016
謗正法	-10.602
隨我	-10.6027
樹王	-10.604
誰能	-10.6054
山神	-10.6059
餘人	-10.6066
自言	-10.6066
希有之	-10.6068
得惺悟	-10.6072
三千	-10.6084
止住	-10.6089
日光明	-10.609
現世	-10.6094
若生	-10.6097
現在諸佛	-10.6113
諸尊	-10.6117
空故	-10.6119
萬倍	-10.612
為外	-10.6126
世尊云何	-10.6146
如水	-10.6158
眾善	-10.6161
南無一	-10.6166
十三者	-10.6168
之令	-10.6184
勸人	-10.6202
見多	-10.621
毀謗	-10.6227
則生	-10.6231
即是法	-10.6261
善行	-10.6275
寂照	-10.6275
益人	-10.6284
法軌	-10.6307
不念	-10.631
香臭	-10.6342
其理	-10.6358
生歡喜	-10.6364
願所	-10.6375
唯佛	-10.6378
瑞應	-10.6384
敬三寶	-10.6393
是菩薩行	-10.6394
破其	-10.6394
六欲	-10.6399
三月	-10.6399
獲大	-10.6402
佛是	-10.6424
魔外道	-10.6441
有信	-10.6454
之行	-10.6455
天龍	-10.6462
十方各有	-10.6476
大城	-10.6486
合成	-10.6489
善果	-10.6489
日三	-10.6495
為害	-10.6499
其功德	-10.6499
本緣	-10.6509
若與	-10.651
佛國	-10.6521
須彌山王	-10.6522
不殺	-10.6529
自稱	-10.6531
為己	-10.6538
彼佛	-10.655
人中	-10.6552
所欲	-10.6558
神明	-10.6563
捨身命	-10.6568
珠光	-10.6571
手摩	-10.6574
力菩薩	-10.6577
雲集	-10.6598
皆各	-10.6624
立其	-10.6633
莊嚴佛	-10.6634
端正	-10.6644
說真	-10.666
願世尊	-10.6694
貪佛	-10.6695
昔日	-10.6705
無畏	-10.6718
功德無量無邊不可思議	-10.6726
悉不	-10.6739
食自然	-10.674
空有	-10.6746
其一一	-10.6751
為正	-10.6752
眾會	-10.6763
能行	-10.677
乃自然	-10.6781
一切眾生若	-10.6784
還能	-10.6787
寸	-10.6804
欲滅	-10.6809
言無	-10.681
勸修	-10.6821
則非	-10.6822
大海水	-10.6843
說眾生	-10.6844
專求	-10.6845
與此	-10.6847
但見	-10.6847
是諸比丘	-10.6857
十五者	-10.6871
實不可	-10.6876
後復	-10.6879
空王佛	-10.6885
唯見	-10.6887
防護	-10.6895
當為	-10.6899
皆見	-10.69
唯是	-10.6906
經者	-10.6906
皆盡	-10.6912
自空	-10.6917
救度眾生	-10.6918
其法	-10.6922
甘露	-10.6923
南無琉璃	-10.6925
阿彌陀國	-10.6946
於此經中	-10.6953
無量劫	-10.6955
教授	-10.6955
十指	-10.697
此無上	-10.6972
人者	-10.6973
退轉	-10.6979
及作	-10.6988
普照一切	-10.6998
若有比丘	-10.7003
文相	-10.7004
會當	-10.7006
有漏	-10.7008
大河	-10.702
於諸法	-10.7033
增減	-10.7043
魔事	-10.7044
非我	-10.7046
空無相	-10.7047
之相	-10.7053
所聞	-10.7056
有出	-10.7057
說法度	-10.7062
近善友	-10.7063
擲	-10.7073
如起	-10.7077
即菩提	-10.7089
恃	-10.709
火光	-10.7095
兜率	-10.7116
大光明	-10.7117
不貪	-10.7119
慧法白佛	-10.7126
廣度	-10.7134
南無彌勒	-10.7136
不復	-10.7146
現有	-10.7147
七珍	-10.7148
為色	-10.715
太山	-10.715
諸方	-10.7152
英	-10.7154
惡趣	-10.7157
來歸	-10.716
二劫	-10.7172
亦滅	-10.7173
勝王佛	-10.7176
人見	-10.7179
正說	-10.7193
山下	-10.7197
與佛	-10.7207
實不	-10.7214
復令	-10.7215
除疑大士	-10.7215
為利	-10.723
漂	-10.7235
有佛性	-10.7237
意而	-10.7266
囑	-10.7273
無量眾	-10.7274
南無栴檀	-10.7276
無明之	-10.7278
法句	-10.728
亦復不	-10.7283
比丘僧	-10.7285
并諸	-10.729
三惡	-10.7293
毒中	-10.7297
汝問	-10.7301
勸諸	-10.7304
空相	-10.7309
心為	-10.7315
不思議	-10.7316
金光明	-10.7323
寶樹	-10.7326
無病	-10.7327
有十八	-10.7332
名字空	-10.7341
自在王如來	-10.7342
若遇	-10.7345
衣不	-10.7346
下盡	-10.7348
分身諸	-10.7357
却坐	-10.7361
念往昔	-10.7364
斷諸	-10.7368
分別是	-10.7371
父母者	-10.7372
即非	-10.7377
天衣	-10.738
呪術	-10.7384
我語者	-10.7391
上佛	-10.7394
八識	-10.7398
無憂	-10.74
九十遍	-10.7405
作大	-10.7407
者以	-10.7411
南無十	-10.7417
寶華	-10.7423
善女人等	-10.7428
常使	-10.7429
初正	-10.7429
以自性	-10.7438
阿彌陀	-10.7439
生在	-10.7439
敬是經	-10.7446
南無不	-10.7451
四十萬	-10.7454
作何	-10.7458
無量無邊眾生	-10.7472
常淨	-10.7484
手把	-10.7485
會中	-10.7487
天之	-10.7499
八風	-10.75
法亦復如是	-10.75
所囑	-10.7503
所受	-10.7518
悉能	-10.7524
子者	-10.7529
二萬	-10.7531
告諸	-10.7532
心住	-10.7533
於世間	-10.7533
世間法	-10.7534
方便說	-10.7541
若行	-10.7545
道法	-10.7552
無有二	-10.7553
乃成	-10.7559
六萬	-10.7565
無礙智	-10.7573
淨光	-10.7575
訕謗	-10.758
畜	-10.7581
敢發問	-10.7589
如意	-10.759
說諸	-10.7595
第九	-10.76
以用	-10.761
空空	-10.7611
經一卷	-10.7612
二十五菩薩	-10.7615
即病	-10.7616
是如如說	-10.7616
▁切	-10.7623
匿	-10.7626
不動地	-10.7629
同號	-10.7634
以通	-10.764
相貌	-10.7646
魅人	-10.7646
涌出	-10.7653
今明	-10.7654
己身	-10.7661
至道	-10.7665
度量	-10.7676
大乘人	-10.7679
即不可說	-10.7683
告言	-10.7686
道者	-10.7688
諸鬼神	-10.77
泡	-10.7702
性理	-10.7711
能見	-10.7715
所得功德	-10.7721
復有八萬四千	-10.7724
與心	-10.7727
則不能	-10.773
閑	-10.7733
臍	-10.7734
代	-10.7738
常住不	-10.7743
理教	-10.7745
東南	-10.775
中宮	-10.7753
同塵	-10.7755
我及	-10.7755
寶衣	-10.7757
學人	-10.776
住一劫	-10.7761
作功德	-10.7772
六種	-10.7775
若聞	-10.778
昔來	-10.778
爾時眾中	-10.7782
日日禮	-10.7788
其名	-10.7788
為人說	-10.7789
空慧	-10.7791
有願	-10.7795
焚燒	-10.7796
小劫	-10.7798
墜落	-10.7798
動轉	-10.7798
兼	-10.7798
一佛身	-10.7801
虛空藏菩薩	-10.7802
癩	-10.7803
潔	-10.7811
行不	-10.7812
人壽	-10.7813
鑊湯	-10.7813
校量	-10.7815
以是故名佛	-10.7817
父母兄弟	-10.7821
此大乘	-10.7822
係念	-10.7823
諸天人民	-10.7823
勸近	-10.7829
故則	-10.7833
知法	-10.7833
盲聾	-10.7835
八陽經	-10.7836
地獄受苦	-10.7836
山海慧	-10.7837
升	-10.7839
即於佛前	-10.7842
問者	-10.7842
鬲	-10.7842
電	-10.7842
有法	-10.7843
我滅後	-10.7846
無起	-10.7849
龍神八部	-10.7849
顧	-10.7851
百千萬億	-10.7853
爾時世尊復	-10.7854
本空	-10.7855
豈得	-10.7857
場	-10.7857
我等神	-10.7859
十萬	-10.7859
形相	-10.7861
作罪	-10.7863
簡擇	-10.7864
心起	-10.7864
能翻一切惡為一切善	-10.7865
憎	-10.7865
禮佛	-10.7867
不自知	-10.7871
恐懼	-10.7872
力應求	-10.7873
醫	-10.7873
此土	-10.7875
陸地	-10.7875
遞相	-10.7875
演出	-10.7876
欲向	-10.7877
献	-10.7877
闕	-10.7879
療治	-10.788
政	-10.7881
乘定國師子	-10.7881
降伏諸魔	-10.7882
弟	-10.7883
周圍	-10.7883
方天王宮舍治須彌山半腰	-10.7883
又莫更	-10.7883
寒氷地獄	-10.7883
行此行	-10.7885
翼	-10.7887
持火燒之	-10.7887
求覓	-10.7888
一體三寶	-10.7888
繫閉	-10.7889
川	-10.7889
尋教會理	-10.7889
頑	-10.7889
營	-10.7889
飢餓	-10.789
持齋	-10.789
語已	-10.789
一句一偈	-10.7891
善見王子三千人	-10.7891
潰	-10.7891
世間死尸	-10.7891
逝	-10.7891
雨寶蓮華	-10.7892
刀輪	-10.7892
從初成道乃至	-10.7892
滿中珍寶	-10.7892
善寂月音	-10.7893
譬如有人造純	-10.7893
開闡	-10.7893
植	-10.7893
迦難羅	-10.7893
無量比丘斷	-10.7894
突吉羅	-10.7895
去蜂	-10.7895
惱熱	-10.7895
震	-10.7895
旦	-10.7895
齋食	-10.7895
妬	-10.7895
四維	-10.7896
再	-10.7896
一字一句	-10.7896
渧	-10.7896
護惜	-10.7897
我於處處經中說	-10.7897
若見有人	-10.7897
萬惡之所	-10.7897
天王名毘	-10.7897
恐人	-10.7897
如此人等	-10.7898
善巧方便	-10.7898
梳	-10.7898
疾妬	-10.7898
恚怒	-10.7899
姊	-10.7899
邊際	-10.7899
啼泣	-10.79
惡疾重病	-10.79
先無	-10.79
遍滿虛空	-10.79
灰河地獄	-10.7901
檀波羅蜜	-10.7901
法性法身	-10.7901
斯陀含	-10.7901
一切明呪	-10.7901
床地獄	-10.7901
案	-10.7901
猪羊	-10.7901
彌輪	-10.7901
淨持戒行	-10.7901
貧窮乞人	-10.7901
廁	-10.7902
爾時文殊師利菩薩重白釋迦牟尼佛	-10.7902
單	-10.7902
無因無果	-10.7902
墻	-10.7902
快哉	-10.7902
我見樹	-10.7902
役	-10.7903
友	-10.7903
刀劍	-10.7903
七重城內	-10.7903
句偈	-10.7903
哉	-10.7903
仗	-10.7904
斂	-10.7904
須彌山東	-10.7904
尖石地獄	-10.7904
破戒五逆	-10.7904
虛通無礙	-10.7904
存志	-10.7905
福德力	-10.7905
及以三千人	-10.7905
積聚	-10.7905
不令惡人侵	-10.7906
嫉姤	-10.7906
往古來今	-10.7906
炬照	-10.7906
若有眾生入寺之時	-10.7906
來世成佛道	-10.7906
本性清淨	-10.7906
得生其中	-10.7906
持佛身	-10.7907
千數至千	-10.7907
八邪之所牽	-10.7907
客塵煩惱	-10.7907
悴	-10.7907
旃檀	-10.7907
屏	-10.7908
冠	-10.7908
寶蓋照空	-10.7908
若有具犯四重	-10.7908
欲有所問	-10.7908
生身觀	-10.7908
不觀他	-10.7908
佛世界所有珍寶	-10.7908
如鏡中	-10.7909
時欲將至	-10.7909
伽陀	-10.7909
以佛神力	-10.7909
三十二種惡相	-10.7909
信邪倒見	-10.7909
日夜六時	-10.7909
淨得生其中	-10.7909
頭目髓腦	-10.7909
那羅延	-10.791
稅	-10.791
持戒者	-10.791
首楞嚴三昧	-10.791
了達諸法	-10.791
次作第	-10.791
瓮	-10.791
頭面禮佛	-10.791
無慈悲者	-10.791
垢穢	-10.7911
緊	-10.7911
蠢	-10.7911
不食酒肉	-10.7911
不如聞此經名	-10.7911
四萬八千	-10.7911
白淨天中	-10.7911
痢	-10.7912
旋	-10.7912
煙	-10.7912
十二因緣	-10.7912
波羅提木叉大藏	-10.7912
觀一實諦	-10.7912
淚下如雨	-10.7912
空無所得	-10.7912
諮請	-10.7912
調暢	-10.7912
一一世界	-10.7912
一經於耳	-10.7912
於虛空中	-10.7912
死尸	-10.7912
衣帶	-10.7913
四輩弟子	-10.7913
生在人中	-10.7913
屠	-10.7913
一億十億百億千億萬億那由他恒河沙	-10.7913
房舍	-10.7913
百千萬劫	-10.7913
東方阿閦佛	-10.7913
泉源	-10.7913
渡	-10.7913
腐	-10.7913
素	-10.7914
提頭賴吒	-10.7914
煮肉	-10.7914
殄	-10.7914
栰樹	-10.7914
流布是經	-10.7914
佛告文殊	-10.7914
千五百歲後	-10.7914
孤窮	-10.7914
性用心	-10.7914
漫	-10.7914
裸	-10.7914
當何名	-10.7914
秦	-10.7915
雀梨浮圖	-10.7915
沸屎地獄	-10.7915
自己身	-10.7915
般若波羅蜜大藏	-10.7915
色受想行識	-10.7915
名薩婆若	-10.7915
圓明顯	-10.7915
往生阿彌陀佛國	-10.7915
說者聽者	-10.7915
首楞嚴定	-10.7915
優	-10.7915
說是如如說	-10.7915
悲哭	-10.7915
呪魅經	-10.7915
婢	-10.7916
帛	-10.7916
醜陋	-10.7916
湛	-10.7916
腦	-10.7916
栖	-10.7916
為我演說	-10.7916
喜悅	-10.7916
妃	-10.7916
存志功德	-10.7916
心用性	-10.7916
目之為	-10.7916
混融菩薩摩訶薩	-10.7916
五穀	-10.7917
南無雷音	-10.7917
改悔	-10.7917
簷	-10.7917
赦	-10.7917
鄔波索迦	-10.7917
又於後時	-10.7918
規	-10.7918
不遷	-10.7918
兩卷	-10.7918
正衣服	-10.7918
毘婆尸佛	-10.7918
筆	-10.7918
不欲是其	-10.7918
怜	-10.7918
五百同號	-10.7918
設會	-10.7918
跪	-10.7919
滅於諸行	-10.7919
遊於三界	-10.7919
吐毒	-10.7919
從何方來	-10.7919
懃流布此經	-10.7919
於是普光莊嚴菩薩	-10.7919
吞熱鐵丸	-10.7919
於中初明	-10.7919
親友	-10.7919
為見	-10.7919
救度	-10.7919
世世生生	-10.7919
修多羅大藏	-10.792
諸天善神	-10.792
不可比	-10.792
得羅漢道	-10.792
爾時寶明菩薩	-10.792
情貪	-10.792
汁	-10.792
相空等觀	-10.792
遍滿三千大千世界	-10.792
給孤獨園	-10.792
飲銅地獄	-10.7921
皆有佛性	-10.7921
嶮路	-10.7921
生生之處	-10.7921
說其因緣	-10.7921
常住僧物	-10.7921
蹈	-10.7921
迹	-10.7921
如大海	-10.7921
牛羊	-10.7922
一心禮	-10.7922
猫	-10.7922
虔	-10.7922
兔角	-10.7922
冥會	-10.7922
蓬	-10.7922
須彌山西	-10.7922
何用布施	-10.7922
南無佛陀南無達摩南無僧伽	-10.7922
必定解脫	-10.7922
海陵	-10.7922
澄清	-10.7922
三歸五戒	-10.7922
谷	-10.7922
右膝著地	-10.7922
行住坐臥	-10.7923
荷負	-10.7923
無簡擇故	-10.7923
怙	-10.7923
押	-10.7923
踏	-10.7923
凍	-10.7923
真實佛性	-10.7923
衛護	-10.7923
孫	-10.7923
娑羅	-10.7923
三萬六千	-10.7923
於一切怖畏	-10.7923
悶	-10.7923
摩睺羅伽	-10.7923
諸神王等	-10.7924
夭	-10.7924
毀禁	-10.7924
毒龍	-10.7924
譬喻	-10.7924
例	-10.7924
湯藥	-10.7924
君子國	-10.7924
暴	-10.7924
愛心是	-10.7924
景	-10.7924
清潔	-10.7924
練	-10.7924
功德無量無邊	-10.7924
彌陀	-10.7924
銷	-10.7924
筋骨	-10.7924
汝今所問	-10.7925
心開意解	-10.7925
念此金有明呪	-10.7925
耳聾	-10.7925
茂	-10.7925
險	-10.7925
髓	-10.7925
癡愛	-10.7925
大勢至菩薩	-10.7925
無上正真	-10.7925
塝	-10.7925
今為汝等	-10.7926
時長者子即	-10.7926
㵱	-10.7926
牛馬	-10.7926
共內人	-10.7926
方虛空界悉作	-10.7926
若念三寶	-10.7926
順順於	-10.7926
􅶑	-10.7926
李	-10.7926
片	-10.7926
銅柱地獄	-10.7926
四面一時	-10.7926
師僧父母	-10.7927
南無難勝	-10.7927
珍	-10.7927
受天尊教	-10.7927
法音	-10.7927
十千比丘	-10.7927
香熏	-10.7927
焚	-10.7927
南無寶印	-10.7927
箜篌	-10.7927
不能吹動	-10.7928
何況讀誦	-10.7928
泥洹後	-10.7928
恭敬圍繞	-10.7928
正習內	-10.7928
倍報	-10.7928
資糧	-10.7928
混沌	-10.7928
受二百五十戒	-10.7928
慈悲喜捨	-10.7928
沈淪苦海	-10.7928
常安樂	-10.7928
不墮三塗	-10.7928
不經八難	-10.7928
唾	-10.7928
末代	-10.7928
妾	-10.7929
自觀身	-10.7929
為人喜	-10.7929
勸請	-10.7929
辛	-10.7929
隱覆	-10.7929
他化自在天	-10.7929
唇	-10.7929
膊	-10.7929
闇鈍	-10.7929
動不動	-10.7929
若無所得	-10.7929
溫和	-10.7929
綺語	-10.7929
唯願仁者	-10.7929
天帝百施	-10.7929
師子虎狼	-10.7929
施功	-10.7929
株杌	-10.7929
佛說此經已	-10.7929
心即是病	-10.7929
有大功德	-10.7929
訶那訶那	-10.7929
閻羅王	-10.7929
領納	-10.7929
偏袒右肩	-10.793
憂波梨	-10.793
緣境	-10.793
過去未來現在諸佛	-10.793
已過	-10.793
牢	-10.793
至彼岸	-10.793
忖	-10.793
八十同號	-10.793
四十同號	-10.793
犲狼	-10.793
等觀菩薩	-10.793
我聞是已	-10.7931
狐王	-10.7931
疏	-10.7931
無量劫來	-10.7931
南無總持	-10.7931
體泯	-10.7931
夭命	-10.7931
生蘇煎煮	-10.7931
線	-10.7931
不知何者是	-10.7931
介	-10.7931
入寺者今作	-10.7931
為人演說	-10.7931
鑪炭	-10.7932
鑵湯	-10.7932
由人所	-10.7932
大力神王	-10.7932
滿虛空	-10.7932
七日七夜	-10.7932
憐愍眾生故	-10.7932
一旦	-10.7932
詐稱	-10.7932
過去七佛	-10.7932
南無寶檀	-10.7932
此老病死	-10.7932
淨佛知見廣開	-10.7932
嗅	-10.7933
騰	-10.7933
工	-10.7933
狹	-10.7933
閉塞	-10.7933
下至風	-10.7933
斧	-10.7933
師子奮迅三昧	-10.7933
踐	-10.7933
嬰兒	-10.7933
腋	-10.7933
自下大文第二	-10.7933
佉	-10.7933
千差	-10.7933
噉人精氣	-10.7933
嚴淨	-10.7933
拍	-10.7933
財富	-10.7933
零宅	-10.7933
佛說高王觀世音經	-10.7934
雙泯	-10.7934
祥	-10.7934
然後得出	-10.7934
灌	-10.7934
得無生忍	-10.7934
從地踊出	-10.7934
踴	-10.7934
噎	-10.7934
增益	-10.7934
狂亂	-10.7934
金翅鳥	-10.7934
如影隨形	-10.7934
無價	-10.7935
釋迦涅槃後	-10.7935
以印印	-10.7935
疋	-10.7935
突	-10.7935
拂	-10.7935
無真無	-10.7935
折伏	-10.7935
佛說七女觀經	-10.7935
婚	-10.7935
迦樓羅緊那羅摩睺羅伽人非人等	-10.7935
通免	-10.7935
勢	-10.7935
濩湯	-10.7936
採	-10.7936
若化眾生	-10.7936
湧	-10.7937
皆發	-10.7937
受吾勅者	-10.7937
玉	-10.7937
詐偽	-10.7937
冲	-10.7937
盲者不見	-10.7937
風吹	-10.7937
如是人輩	-10.7937
生大歡喜	-10.7937
苗稼	-10.7937
憍	-10.7937
乃至今日	-10.7937
標	-10.7937
亦為謗佛	-10.7937
即名清淨	-10.7937
目連	-10.7937
稟	-10.7937
苾芻雖	-10.7937
鬪戰	-10.7937
卿	-10.7938
歌	-10.7938
株	-10.7938
莖	-10.7938
心心相續	-10.7938
瞻視	-10.7938
即入三昧	-10.7938
無明世界	-10.7938
去三尸	-10.7938
齋訖	-10.7938
擇	-10.7938
牒	-10.7939
繞佛	-10.7939
流傳	-10.7939
耽	-10.7939
鼠	-10.7939
朱	-10.7939
被法服	-10.7939
須彌山北	-10.7939
其下有	-10.7939
如來清淨眾	-10.7939
如金剛不壞	-10.7939
無縫	-10.7939
來至此	-10.7939
奧	-10.7939
憐愍一切眾生	-10.7939
橫增我見	-10.7939
甛	-10.7939
繩墨	-10.7939
薄福	-10.7939
獲益	-10.7939
諦觀	-10.7939
百千萬人	-10.794
伏藏	-10.794
隨心所	-10.794
在大眾中	-10.794
隱顯	-10.794
大坑	-10.794
彼土人民	-10.794
疽	-10.794
舍宅	-10.794
遍覆	-10.794
十九者世世	-10.7941
輸	-10.7941
汎	-10.7941
化樂天	-10.7941
初一日	-10.7941
詠	-10.7941
親屬	-10.7941
癡心是	-10.7941
秀	-10.7941
潤益	-10.7941
順教修行	-10.7941
斤	-10.7941
擊	-10.7941
震動	-10.7942
十六者世世	-10.7942
志性	-10.7942
狐狼	-10.7942
煎	-10.7942
俗官	-10.7942
象馬	-10.7943
人非人等	-10.7943
務	-10.7943
眼住於內	-10.7943
金剛力士	-10.7943
召有緣	-10.7943
出大音聲	-10.7943
唼	-10.7943
毒氣	-10.7943
繒綵	-10.7943
㨶	-10.7943
諭	-10.7943
三人共	-10.7943
噉僧食	-10.7943
爵位	-10.7943
而披法服	-10.7943
魏	-10.7943
胡跪合掌	-10.7944
俱喪	-10.7944
於三處中	-10.7944
模	-10.7944
黃精	-10.7944
本際	-10.7944
棒	-10.7945
判	-10.7945
四八三十二	-10.7945
即告阿難	-10.7945
惶	-10.7945
賢士	-10.7945
鵝鴨	-10.7945
依友	-10.7945
夏	-10.7945
辛苦	-10.7945
陵	-10.7945
憐愍眾生	-10.7945
證菩提	-10.7946
犁	-10.7946
幡蓋	-10.7946
說是語已	-10.7946
台	-10.7946
遂增	-10.7946
凶	-10.7946
何以然者	-10.7946
貪善棄惡	-10.7947
懃精進	-10.7947
輪迴生死	-10.7947
不覺不知	-10.7947
於善於惡不生分別	-10.7947
催	-10.7947
寺舍	-10.7947
攝持	-10.7947
諸天伎樂	-10.7948
末後	-10.7948
一性清淨	-10.7948
不知何者為	-10.7948
普覆	-10.7948
福德具足	-10.7948
地獄餓鬼	-10.7948
琴	-10.7948
呪誓	-10.7948
犯四重	-10.7948
備受眾苦	-10.7949
凡夫之人	-10.7949
􂌤	-10.7949
三藏法師	-10.7949
敬之如	-10.7949
未曾同	-10.7949
云何可報	-10.7949
來侵	-10.7949
共食之	-10.7949
局教經文	-10.7949
成萬斛	-10.7949
明君	-10.7949
鉢受成萬斛	-10.7949
十者世世	-10.7949
白蜜	-10.7949
青黃	-10.7949
寶莊嚴	-10.7949
三枚	-10.795
兩足	-10.795
專欲	-10.795
持帶	-10.795
爾時迦難羅比丘	-10.795
似如	-10.795
爾時世尊答	-10.795
鬼兵	-10.795
六齋	-10.795
隨逐	-10.795
無學解脫	-10.7951
精神	-10.7951
椒	-10.7951
巾	-10.7951
令無量大眾	-10.7951
憂愁	-10.7951
淨滿	-10.7951
若生人間	-10.7951
是故當知	-10.7951
謂之生	-10.7951
作佛形像	-10.7951
光普遍	-10.7951
必獲	-10.7952
善權	-10.7952
津	-10.7952
血流	-10.7952
渠	-10.7952
順風	-10.7952
寶蓮花	-10.7952
父本	-10.7952
五百餘	-10.7952
染污	-10.7952
慈孝	-10.7952
不可為無	-10.7952
勸捨著	-10.7952
青白	-10.7952
五無間	-10.7953
一心無二	-10.7953
厭足	-10.7953
憎惡	-10.7953
外道六師	-10.7953
夫妻	-10.7953
却後數日	-10.7953
自利德	-10.7953
蜚	-10.7953
誹謗不信	-10.7953
校	-10.7953
償	-10.7953
厭離	-10.7953
生埋	-10.7954
由如虛空	-10.7954
謗報	-10.7954
五濁	-10.7954
水泡	-10.7954
無想解脫	-10.7954
牢獄	-10.7954
收獲	-10.7954
好醜	-10.7954
瑟	-10.7954
依因父母如	-10.7955
剋印	-10.7955
書寫此經	-10.7955
衣毛	-10.7955
在於世間	-10.7955
濟度	-10.7955
弘誓	-10.7955
一斤	-10.7955
國界	-10.7956
熱鐵	-10.7956
顛	-10.7956
寺廟	-10.7956
鄉	-10.7956
五辛	-10.7956
慾	-10.7956
根機	-10.7956
欝單越	-10.7956
疑網	-10.7956
四無所畏	-10.7956
海龍王	-10.7956
渴仰	-10.7956
順便	-10.7956
混	-10.7957
其福無量	-10.7957
安居	-10.7957
久遠	-10.7958
覆護	-10.7958
薩埵	-10.7958
百千萬億阿僧祇	-10.7958
巧便	-10.7958
治國	-10.7958
爾時常施菩薩	-10.7958
調順	-10.7958
遭遇	-10.7958
當來之世	-10.7958
陰入界	-10.7958
四輩	-10.7959
試	-10.7959
最後	-10.7959
天中	-10.796
汝今應當	-10.796
創	-10.796
諸法亦然	-10.796
粉	-10.796
狸	-10.796
言枝	-10.796
多者教以	-10.796
空處	-10.7961
色亦如是	-10.7961
功用	-10.7961
立塔	-10.7961
見是事已	-10.7961
身光尋滅	-10.7961
本來空寂	-10.7961
我今說之	-10.7961
狐疑	-10.7961
處中間	-10.7961
十號	-10.7961
伽藍	-10.7962
四種解脫	-10.7962
所作眾罪	-10.7962
橫官	-10.7962
白象	-10.7962
四毒蛇	-10.7962
纔	-10.7962
妄計	-10.7962
猛狗	-10.7962
等無有異	-10.7962
如所言	-10.7962
如此之徒	-10.7962
建福	-10.7962
投海	-10.7962
日三時	-10.7963
輕微	-10.7963
天厨	-10.7964
一一鬲	-10.7964
照寂	-10.7964
自下第二	-10.7964
挽拔	-10.7964
其狐王	-10.7964
天中尊	-10.7965
多寶如來	-10.7965
婆伽婆	-10.7965
釋提桓因	-10.7965
諸宮殿	-10.7965
刑	-10.7966
及其覺	-10.7966
非定一	-10.7966
隱藏	-10.7966
體解歸真	-10.7966
鸚鵡	-10.7966
事友	-10.7966
放光明	-10.7966
輕慢	-10.7966
隨順眾生	-10.7966
如來僧寶眾	-10.7966
炎摩天	-10.7966
破眾生愚癡之	-10.7966
御	-10.7967
一切聖眾	-10.7967
經書	-10.7967
深宮	-10.7967
若教他作	-10.7968
世界中	-10.7968
世尊我等	-10.7968
社	-10.7968
無量音	-10.7968
先須	-10.7968
崑	-10.7968
賴	-10.7968
憂悲	-10.7968
聖主	-10.7968
諸佛菩薩能	-10.7968
偕偶	-10.7968
天厨名字	-10.7968
琢	-10.7968
滿足	-10.7969
諸菩薩等	-10.7969
如甘露	-10.7969
總結	-10.7969
人身難得	-10.7969
唯除	-10.797
崙	-10.797
魂魄	-10.797
吾告	-10.797
酬	-10.797
解脫三昧	-10.7971
讀此呪	-10.7972
三十五佛	-10.7972
宿罪所追	-10.7972
諸乘中	-10.7972
神符	-10.7972
五十遍	-10.7973
忻	-10.7973
面像	-10.7973
水精作	-10.7973
色不自名	-10.7973
西面	-10.7973
四月一	-10.7973
說四解脫	-10.7974
甚重	-10.7974
黃金作	-10.7974
或占	-10.7974
候	-10.7974
常為一切眾生	-10.7974
之為實	-10.7975
八萬億	-10.7976
飛鳥	-10.7976
太一	-10.7976
眾僧物	-10.7976
佛性真金	-10.7976
願無不獲	-10.7976
心如虛空	-10.7977
郭	-10.7977
若有退落	-10.7978
下約	-10.7978
次別	-10.7978
南無師子音	-10.7979
所覆	-10.7979
歸命十方	-10.7979
厨神名	-10.798
又生人間	-10.798
寫三	-10.798
修福德	-10.798
心無形質	-10.7981
動亂	-10.7981
無命	-10.7981
若受	-10.7981
四角	-10.7981
得阿耨菩提	-10.7981
梟	-10.7982
為諸眾生說	-10.7982
復得人身	-10.7982
彼土	-10.7982
豆留	-10.7982
南無勇施	-10.7982
但寶明	-10.7982
當知即是	-10.7982
噤南無	-10.7983
善持守護	-10.7983
故知無性	-10.7983
脇	-10.7983
作諸不	-10.7983
歸命佛	-10.7984
五逆罪	-10.7985
五蓋	-10.7985
大慈父	-10.7985
菓實	-10.7985
迷子	-10.7985
勅聽	-10.7985
四蛇	-10.7985
罪了	-10.7985
誰知	-10.7985
不得見此	-10.7985
山陵	-10.7985
死者多	-10.7985
矚	-10.7985
違理	-10.7985
復牽	-10.7985
始可	-10.7986
菩薩名者	-10.7987
崩倒	-10.7987
國主	-10.7987
論義	-10.7987
心生疑	-10.7988
皆圓滿	-10.7988
遊觀	-10.7988
口舌	-10.7989
總成	-10.7989
述	-10.7989
此屋	-10.7989
起信論	-10.7989
阿梨耶龍	-10.7989
眾人所	-10.7989
非有相	-10.799
大豆	-10.7991
同虛空	-10.7991
次合	-10.7991
三百日	-10.7991
廣度一切	-10.7991
得道果	-10.7992
爾時會中有	-10.7993
意樂	-10.7993
始終	-10.7993
作銀	-10.7993
取黃	-10.7994
應往	-10.7994
若沙彌	-10.7994
復告	-10.7995
香花	-10.7995
無邊際	-10.7995
強力	-10.7995
七寶華	-10.7996
安立	-10.7996
天神王	-10.7996
案行	-10.7997
前進	-10.7997
是故我今	-10.7997
起請	-10.7997
若有人能	-10.7998
善惡雙泯	-10.7998
財利	-10.7999
世尊如上所說	-10.7999
始知	-10.7999
青色	-10.7999
齋食者	-10.7999
甲子	-10.8
諸佛亦如是	-10.8001
非無相	-10.8001
至三年	-10.8002
滿願	-10.8003
開化	-10.8003
常滿	-10.8003
千二百	-10.8003
司	-10.8003
十戒	-10.8004
永盡	-10.8004
等視	-10.8004
不可為有	-10.8005
得吾經者	-10.8005
本坐	-10.8005
以訖	-10.8005
一丈	-10.8005
兩遍	-10.8005
觀十方佛	-10.8005
病患	-10.8006
獨處	-10.8006
真照	-10.8006
利根	-10.8007
現報	-10.8007
深妙	-10.8008
生希有	-10.8008
從東方	-10.8008
經論	-10.801
破邪	-10.801
暫時	-10.8011
從佛聞	-10.8012
多端	-10.8012
云何得	-10.8013
功能	-10.8013
難禁	-10.8013
金口	-10.8013
正等覺	-10.8014
六情	-10.8014
無有量	-10.8014
天宮	-10.8015
啞	-10.8015
攝受	-10.8016
金剛三昧	-10.8016
生疑	-10.8017
超出	-10.8017
說呪曰	-10.8017
邪師	-10.8018
況復	-10.802
實也	-10.802
一切大地	-10.8021
令一切眾生	-10.8021
無明煩惱	-10.8022
末劫	-10.8022
念三寶	-10.8022
一世界	-10.8026
一倍	-10.8027
之不	-10.8027
極果	-10.8028
如是之人等	-10.8029
而啟	-10.8029
根門	-10.8029
若病	-10.803
明知	-10.8031
▁「	-10.8031
小便	-10.8032
命不久	-10.8033
未知	-10.8033
行乞食	-10.8033
則夢見	-10.8033
最下	-10.8034
明淨	-10.8034
旃檀香	-10.8034
證明	-10.8035
妄生追	-10.8035
定執	-10.8035
墜落三塗	-10.8036
不能分別	-10.8036
相牽	-10.8036
後結	-10.8038
招生	-10.8038
共同	-10.8038
南無喜見	-10.8039
佛圖	-10.804
一切聲聞	-10.8041
現生	-10.8041
窮子	-10.8041
無累	-10.8041
空夜叉	-10.8041
應須	-10.8042
或逢	-10.8042
行步	-10.8042
善友慈悲	-10.8043
以我無	-10.8043
一切身相	-10.8043
觀實諦	-10.8044
馱囉	-10.8044
火然	-10.8045
於中一切眾生	-10.8045
用僧	-10.8045
癩病	-10.8046
了達	-10.8046
大眾意	-10.8046
應當如是	-10.8047
七千佛	-10.8047
十力	-10.8047
終不能	-10.8047
肉食	-10.8048
佛告常施菩薩	-10.8048
萬惡	-10.805
一切佛身	-10.8051
眾疑	-10.8054
違名	-10.8056
八正	-10.8056
體同	-10.8057
耕田	-10.8057
不見施	-10.8057
賢德	-10.8058
先觀	-10.8058
是誰	-10.8058
墮地	-10.8058
南無光嚴	-10.8058
坐處	-10.8059
能見也	-10.8059
假名	-10.806
係念在	-10.806
今覩	-10.8061
與賊	-10.8063
了無	-10.8064
齋日	-10.8064
之士	-10.8065
四十九	-10.8065
晝夜相	-10.8066
現作	-10.8067
隨分	-10.8068
或有眾生	-10.8068
何等人	-10.8069
香水	-10.8069
不得輒	-10.8069
種福	-10.8069
來迎	-10.8069
離波	-10.807
藉緣生	-10.807
不簡	-10.807
愛念	-10.8071
四攝	-10.8072
皆由此	-10.8072
菩薩之道	-10.8074
澤中	-10.8074
我所說	-10.8074
得阿羅漢	-10.8077
發善心	-10.8077
利養	-10.8078
少聞	-10.8078
到彼	-10.8079
諸菩薩眾	-10.8079
七識	-10.8079
隨緣	-10.8079
虛偽	-10.8079
病困	-10.808
勿得	-10.808
一心淨	-10.8081
轉動	-10.8084
明月	-10.8084
苦海	-10.8085
經云	-10.8085
遍滿	-10.8086
後合	-10.8086
雜寶	-10.8087
但彼	-10.8087
獲如是	-10.8087
三乘人	-10.8087
初文	-10.8088
能消	-10.8088
何緣	-10.809
狗即	-10.809
避我	-10.8092
功德種	-10.8093
不相見	-10.8093
信用	-10.8094
諸餘	-10.8094
吾經	-10.8094
如是七日	-10.8095
此女	-10.8095
大力菩薩	-10.8095
要當	-10.8095
所照	-10.8096
明照	-10.8097
不在中間	-10.8098
三乘之	-10.8098
僧寶	-10.8099
聖果	-10.8099
自作教	-10.8099
云何可	-10.81
五體	-10.81
未飽	-10.8101
愛惜	-10.8103
何由	-10.8105
於五陰	-10.8105
相似	-10.8107
稱名	-10.8109
解之	-10.811
廣明	-10.8111
誦此呪	-10.8111
視之	-10.8111
自居	-10.8111
前所	-10.8111
如此眾生	-10.8111
說於	-10.8112
真處	-10.8112
諸戒	-10.8113
觀此	-10.8114
救療	-10.8116
常使不	-10.8116
諸煩惱	-10.8119
既空	-10.812
主人	-10.8124
多解	-10.8132
燃燈佛	-10.8133
一切眾生心性	-10.8134
勸眾生	-10.8135
不寒	-10.8136
白色	-10.8138
所證	-10.8138
開解	-10.814
無愚	-10.8142
和上	-10.8142
者善能	-10.8144
二百五十	-10.8146
猶是	-10.8146
更說	-10.8146
非但	-10.8146
枯竭	-10.8146
佛法僧寶	-10.8147
既盡	-10.8148
我亦如是	-10.8148
觀緣	-10.8148
取受	-10.8148
頭戴地	-10.8149
正問	-10.8149
入城	-10.8149
是大士	-10.815
二十五	-10.815
此鳥	-10.8152
照曜	-10.8152
佛剎	-10.8153
自共	-10.8155
吾道	-10.8155
是患	-10.8155
者專行	-10.8155
不亂	-10.8159
遠意	-10.8159
何以不	-10.816
其體	-10.8161
之主	-10.8165
將入	-10.8166
在一處	-10.8166
五百人	-10.8169
多方	-10.8169
空解	-10.817
文中有	-10.8172
理處	-10.8175
食中來	-10.8175
如來出世	-10.8176
三界眾生	-10.8177
別教	-10.8181
三遍	-10.8182
福盡	-10.8182
臨欲	-10.8182
大慧	-10.8184
或有人	-10.8184
得成	-10.8185
順從	-10.8185
頭上	-10.8185
與福	-10.8186
二十四天	-10.8187
深經	-10.8188
讀者	-10.8188
或造	-10.8189
斯法	-10.8189
但能	-10.8192
在彼	-10.8192
有文字	-10.8192
魂神	-10.8192
知情	-10.8194
信佛	-10.8194
歡喜無量	-10.8194
風大	-10.8194
遶佛	-10.8196
眼識	-10.8196
所以然	-10.8198
高於	-10.8202
觀音	-10.8203
令清淨	-10.8206
似有	-10.8206
凡夫人	-10.8207
空宗	-10.8207
入大乘	-10.8208
值善	-10.8209
豈得為	-10.821
復具	-10.821
之報	-10.8212
稱之為	-10.8212
煩惱與	-10.8214
相待	-10.8215
起於	-10.8216
不望	-10.8216
中出	-10.8217
一會	-10.8217
大富	-10.8219
必為	-10.8226
竟無所	-10.8228
乃當	-10.8229
得見我身	-10.8231
不落	-10.8232
悉以	-10.8232
不假	-10.8234
少欲	-10.8234
一切分別	-10.8235
合上	-10.8235
審此理	-10.8237
之際	-10.8239
其根	-10.8239
妙性常	-10.8239
方所	-10.824
復過	-10.8241
示人	-10.8241
隱匿	-10.8241
不加	-10.8241
眼色	-10.8242
或現	-10.8242
常轉	-10.8243
觀眾生相	-10.8244
皆生	-10.8244
永離生死	-10.8244
畜八	-10.8247
夫言	-10.8247
為怨	-10.8248
雖無量	-10.825
慈仁	-10.8252
死後	-10.8252
語汝	-10.8252
臍中	-10.8254
喻若	-10.8257
行非	-10.8258
作此	-10.8259
服一	-10.8261
水不	-10.8262
妙華	-10.8264
自現	-10.8268
常應	-10.8268
重白佛言	-10.8269
所向	-10.827
五門	-10.8271
亦隨	-10.8275
菩提行	-10.8277
如此之	-10.8278
求出世	-10.8281
空明	-10.8285
文殊師利菩薩摩訶薩	-10.8286
十年	-10.8286
慈力	-10.8286
說此語	-10.8287
於佛法	-10.8288
又當	-10.8289
吾身	-10.829
世尊我今	-10.8293
火大	-10.8293
所可	-10.8296
道意	-10.8298
供養十方一切諸	-10.8299
家人	-10.8302
妄說	-10.8304
道鬼	-10.8304
覺力	-10.8304
諸弟子	-10.8306
我向	-10.8307
但作	-10.8308
言音	-10.8312
國名	-10.8313
迷故	-10.8314
不計	-10.8314
初說	-10.8314
目如	-10.8316
心則	-10.8316
此二種	-10.8317
波提	-10.8318
出外	-10.8318
大果	-10.832
一音	-10.8321
佛形像	-10.8321
產生	-10.8321
門上	-10.8322
惡意	-10.8323
恒以	-10.8325
為可見	-10.8326
生大	-10.8328
不毀	-10.8331
小時	-10.8333
與汝	-10.8333
從空	-10.8334
額上	-10.8338
佛力	-10.8338
西北	-10.8339
能報	-10.834
金海	-10.834
天種	-10.834
手把金剛	-10.8342
一切地獄	-10.8344
作五逆	-10.8347
少說	-10.8347
則常	-10.8348
自有	-10.835
盡來	-10.835
見彼	-10.8352
復聞	-10.8352
劫盡時	-10.8355
可思量	-10.8358
此經名	-10.8367
同時	-10.8367
施與一切	-10.8367
一一一	-10.8371
從本	-10.8374
重說	-10.8374
如文	-10.8376
安行	-10.838
多劫受	-10.8384
成已	-10.8384
得果	-10.8384
等者	-10.8387
解脫知見	-10.8388
自求	-10.8388
法僧	-10.839
我解	-10.839
無學	-10.8394
說清淨	-10.8394
家中	-10.8394
頂禮	-10.8395
不相應	-10.8396
意常	-10.8398
即離	-10.8399
者喻於	-10.8399
可得免	-10.8401
將以	-10.8407
如來正答	-10.8408
遍法界	-10.8408
無色相	-10.8409
身雖	-10.841
一切萬物	-10.8411
性常淨	-10.8411
者喻	-10.8412
眾生未	-10.8412
百千眾生皆發	-10.8412
阿那含	-10.8416
本從	-10.8417
心滅	-10.8421
有所	-10.8423
行法	-10.8426
身充滿一切世界	-10.843
求菩提	-10.8431
及諸菩薩	-10.8431
大國	-10.8434
一切智	-10.8435
正等	-10.8435
盡入	-10.8439
鬼神王	-10.8439
則止	-10.844
明行	-10.8443
說世間	-10.8443
見一	-10.8443
得滅	-10.8448
來生	-10.8449
地出	-10.845
之地	-10.845
殺人	-10.8451
顏	-10.8452
種性	-10.8452
是故智者	-10.8454
復作	-10.8456
尊如來	-10.8457
後得	-10.8459
欲入	-10.8459
心恒	-10.846
身內	-10.8462
南無依	-10.8463
法藥	-10.8465
第八	-10.8466
小法	-10.847
從此經	-10.847
恒蒙	-10.847
侵害	-10.8475
無漏	-10.8477
藥力	-10.8477
無光	-10.8479
我教法	-10.8479
雙融	-10.8485
博叉天	-10.8486
淨食	-10.8487
動心	-10.849
解自身	-10.849
解脫果	-10.8491
貧者	-10.8495
初心	-10.8497
善不	-10.8504
樂禪定	-10.8506
雖是	-10.8507
向之	-10.8508
前文有	-10.8508
善來	-10.851
心中所	-10.8511
闇中	-10.8512
則無有	-10.8513
化為	-10.8513
前人	-10.8514
諸道俗	-10.8514
得過	-10.8515
著我	-10.8516
方鞞樓	-10.8517
日中	-10.8518
應時	-10.8521
誦偈	-10.8522
為沙門	-10.8522
爾時除疑大士復	-10.8523
道也	-10.8525
六時	-10.8527
汝等菩薩	-10.853
要法	-10.853
不達	-10.853
無住無	-10.8532
願常	-10.8533
法愛	-10.8534
或樂	-10.8536
上有	-10.8538
性淨	-10.8543
過去諸佛	-10.8543
布施貧窮孤老	-10.8543
多所	-10.8544
是故名	-10.8549
應身	-10.8549
重為	-10.8557
之根	-10.8559
南無神通	-10.856
惡言	-10.8564
坐一面	-10.8571
心解	-10.8572
而來	-10.8572
過百	-10.8573
婆樓	-10.8576
今生	-10.8577
方計	-10.8578
皆作	-10.8579
明法王	-10.8582
涅槃為	-10.8587
吾今為汝說	-10.859
前身	-10.8593
十三	-10.8596
上盡	-10.8602
即信	-10.8604
五百劫	-10.8604
然以	-10.861
是為三	-10.8613
故智	-10.8618
不忍見	-10.862
皆能	-10.8623
此大魔	-10.8624
能度	-10.8625
不動故	-10.8626
上品	-10.8627
如須彌山	-10.8627
無所在	-10.8628
佛告寶明	-10.8633
一一佛	-10.8633
云何是	-10.8633
為異	-10.8643
有命	-10.8647
及水	-10.8648
超生死	-10.8649
是人現世	-10.865
修者	-10.865
行至	-10.8653
積行	-10.8654
是滅	-10.8655
無定	-10.8657
年已	-10.866
好人	-10.8661
受大苦	-10.867
以好	-10.8673
得起	-10.8674
由是	-10.8675
無利	-10.8677
故有	-10.8683
此本	-10.8687
不自覺	-10.8688
大難	-10.8689
善願	-10.8691
心隨	-10.8691
不度	-10.8698
服者	-10.87
如死	-10.8701
復非	-10.8701
不通	-10.8701
其水	-10.8701
能作	-10.8706
我法者	-10.8708
不識真	-10.8708
惡行	-10.8708
眼即	-10.8708
無捨	-10.8709
從順	-10.8709
復為	-10.8709
不信者	-10.8711
發是	-10.8712
之德	-10.8715
無緣	-10.8718
語則	-10.8721
定自在王	-10.8726
二月十五日	-10.8727
為無福	-10.8727
性本	-10.8728
福者	-10.8733
之具	-10.8738
南無普明	-10.8739
若住	-10.8742
久不得	-10.8743
開悟	-10.8746
使之	-10.8747
拔刀	-10.875
何因緣	-10.8751
近者	-10.8751
禮拜者	-10.8753
死門	-10.8754
寶英	-10.8756
即是佛	-10.8758
性天真	-10.876
○	-10.8761
若滅	-10.8762
自當	-10.8762
若遇大	-10.8764
有垢	-10.8766
是名報佛恩復次善見王	-10.8769
合為	-10.877
善善	-10.8772
自非	-10.8775
法及	-10.8777
人民皆	-10.878
修十善	-10.8781
者正念	-10.8782
此二	-10.8782
未來世中諸惡比丘	-10.8784
而於	-10.8786
本自	-10.8789
如是諸人等	-10.8793
以一	-10.8795
則有	-10.88
成辨	-10.8801
我今為汝	-10.8802
惡物	-10.8802
白玉	-10.8805
觀臍	-10.8806
不在內	-10.8808
四名	-10.8816
如見	-10.8817
若施	-10.8818
非意	-10.882
思得	-10.882
中後	-10.8822
何法	-10.8824
棄之	-10.8826
兜率天	-10.8826
生淨土	-10.8836
戒法	-10.8838
諸佛子	-10.8845
行處	-10.8846
讚毀	-10.8851
有限際	-10.8854
戲論	-10.8855
正覺	-10.8856
自性清淨	-10.8858
俱寂	-10.8858
南無現	-10.8861
果者	-10.8862
南無樂	-10.8862
與我同	-10.8863
品第十	-10.8864
觀者	-10.8865
今言	-10.8865
當即	-10.8869
誰於	-10.8876
爾者	-10.8879
即說	-10.8885
盡相	-10.8892
與道	-10.8895
世燈	-10.8896
無利益	-10.8896
汝言	-10.8901
聖者	-10.8903
相處	-10.8905
持禁戒	-10.8915
求之	-10.8925
令法	-10.8925
終不見	-10.8928
成如來	-10.893
雲雷音	-10.8931
今蒙善友	-10.8932
諮問	-10.8933
和合僧	-10.8936
無外	-10.8936
自莊嚴	-10.8938
祖	-10.8939
知其	-10.8944
犯重罪	-10.8946
如是已	-10.8947
而語之	-10.8947
見也	-10.8949
億萬	-10.8955
有惡魔	-10.8957
慈母	-10.8959
之福	-10.8966
應是	-10.8967
化佛	-10.8969
不在外	-10.897
無益	-10.8977
世間無	-10.8979
當生	-10.898
是我子	-10.8981
說三乘	-10.8984
妙尊	-10.8984
無淨	-10.8985
無令	-10.8988
觀之	-10.899
從無量	-10.899
大善	-10.8993
寂空	-10.8993
不退轉	-10.8994
乃遠	-10.8994
指甲	-10.8995
見作	-10.9
定心	-10.9009
南無水	-10.901
方可	-10.9011
唯有此	-10.9012
施故	-10.9023
若定	-10.903
應於一	-10.903
十遍	-10.9034
攝諸眾生	-10.9037
萬八千	-10.9053
獲罪無量	-10.9055
不謬	-10.9067
非一	-10.907
十方諸	-10.9076
願共	-10.9076
得四	-10.9076
言道	-10.9079
惠心	-10.9085
雖不	-10.9088
經義	-10.909
佛名	-10.9094
我爾時	-10.9098
惡毒	-10.9107
身非	-10.9109
苦眾生	-10.9109
明經	-10.9115
及其	-10.9117
反更	-10.9119
今為	-10.9125
破魔	-10.9131
無足	-10.9135
云何名	-10.915
令諸	-10.9157
四千	-10.9161
神通威德	-10.9162
見是	-10.9162
百國	-10.9164
中義	-10.9165
世尊一切眾生	-10.9173
即自	-10.9177
是中	-10.9187
菩提妙	-10.9193
一寸	-10.9194
好莊嚴	-10.9194
之身能	-10.9195
讀誦書寫	-10.9198
此經語	-10.9202
若多	-10.9205
更不	-10.9209
是三歸	-10.9221
他物	-10.9228
鐵叉	-10.9229
二同號功德	-10.9232
之難	-10.9239
別離	-10.9239
南無清淨	-10.924
於道場	-10.9249
無上法	-10.9251
有見	-10.9257
者在所	-10.9267
盡心	-10.9282
各有一	-10.9282
身中不	-10.9285
得名	-10.9288
疑或	-10.9294
無知	-10.9294
三世諸佛所	-10.9295
諸相	-10.9298
心不二	-10.9302
不正	-10.9304
則無智慧	-10.9305
千人俱	-10.9306
人心	-10.9306
等法	-10.9307
口說	-10.931
藉此	-10.9316
如入	-10.9319
普濟	-10.9327
南無定	-10.9327
無水	-10.9328
數千萬歲	-10.9333
說一乘法	-10.9337
文中	-10.935
此諸	-10.9353
於三寶	-10.9355
能以	-10.936
聖慧	-10.9368
不能救	-10.9374
無福	-10.9375
方始	-10.9378
說大辯邪正	-10.9378
以下	-10.9383
皆如	-10.9387
飢貧	-10.9387
甚深妙法	-10.9401
之外	-10.9401
得涅槃	-10.9402
當自	-10.9406
心心不	-10.9407
或得	-10.9412
我昔	-10.9421
皆有	-10.9422
一念善	-10.9423
寶積	-10.9423
當受	-10.9427
得無上道	-10.943
至三	-10.9432
為他所	-10.9439
或行	-10.9439
無雜	-10.9445
治罪	-10.9456
記之	-10.9461
自相	-10.9463
南無梵	-10.9464
皆言	-10.9473
若一	-10.9476
國人民	-10.9486
十方三世諸佛	-10.9496
為欲	-10.9497
諸俗人	-10.9504
常行善	-10.9507
心則不	-10.9509
或弟	-10.9512
聞便	-10.9513
如是懺悔	-10.9513
身命財	-10.9519
五心	-10.952
常精進	-10.9526
復告阿難	-10.9526
若入	-10.9535
偈已	-10.9535
真佛	-10.9538
入中	-10.9543
乃見	-10.9543
受其	-10.9546
從著	-10.9547
無量劫中	-10.9551
若無有	-10.9553
為解	-10.9553
實體	-10.9559
守戒	-10.956
所護持	-10.9563
右手	-10.9567
眾生未有	-10.9568
得阿耨多羅三藐三菩提	-10.9572
難見	-10.9575
塵垢	-10.9577
中皆有	-10.958
隨行	-10.9582
諸緣	-10.9589
不輕	-10.9592
得大利益	-10.9597
得其中	-10.9603
唱滅	-10.9607
具者	-10.961
諸眷屬	-10.9616
眾生忍	-10.9623
斷佛性	-10.9641
▁如是	-10.9649
次復	-10.965
名目	-10.9654
無慚愧	-10.9655
如日月	-10.9655
法體	-10.9674
百人	-10.9675
十方各有十	-10.9689
毘尼藏	-10.9696
大身	-10.9707
中王	-10.9708
無復	-10.971
貪窮	-10.9717
佛剎微塵數同號	-10.9718
此三事	-10.972
名利	-10.9721
復更	-10.9722
去來	-10.9725
叫喚	-10.9725
流布	-10.9731
或見如來住	-10.9738
性不生	-10.9742
以施	-10.9747
世有	-10.9749
三同號	-10.9756
外更無	-10.9763
是心	-10.9766
為內	-10.9766
二人	-10.978
善事	-10.9782
若人聞	-10.9782
不見如來	-10.9784
人共	-10.9787
性無	-10.9788
飡	-10.9791
又以	-10.9791
第二天	-10.9795
以法	-10.9795
非空	-10.9799
周遍	-10.9803
並是	-10.981
未有	-10.9813
勝妙	-10.9822
南無莊嚴	-10.9831
以非	-10.985
三歸	-10.9859
一心性	-10.986
苦報	-10.9863
色界天	-10.9869
是義	-10.987
欲殺	-10.9878
大熱	-10.9882
鐵網彌覆	-10.9884
何況未來	-10.9887
諸穢惡	-10.9887
於時	-10.9891
療除	-10.9902
能入	-10.9906
身被	-10.9908
無無覺	-10.9908
以大	-10.9936
登正	-10.9946
大哭	-10.996
之名	-10.9962
眾生皆悉聞知	-10.9963
餘殘	-10.9969
須得	-10.9977
唯願慈尊	-10.9978
恩深	-10.9985
理路	-10.9988
若我	-11.0005
大乘經	-11.0006
甚深法	-11.0008
定光	-11.0013
罪故	-11.0024
欲行	-11.0047
不和合	-11.0049
是佛法	-11.0049
隨身	-11.0052
有八萬四千	-11.0057
不取	-11.0058
隨念	-11.0059
於閻浮提	-11.006
得差	-11.0062
福勝	-11.0076
既自	-11.009
氣微	-11.0102
常生下	-11.0109
雨華	-11.011
必竟不	-11.0117
必竟	-11.012
欲重宣此義	-11.0124
為求	-11.0127
乃至一	-11.0133
不欲	-11.0142
未來世中像法	-11.015
我得	-11.0154
以求	-11.0155
文殊師利菩薩又問	-11.0165
陽氣	-11.0168
失本	-11.0179
但於	-11.018
中常	-11.0191
輪王	-11.0207
懃行	-11.0213
無上之	-11.0249
是聲	-11.0251
盡不	-11.0276
世尊一切	-11.028
普光大眾	-11.0282
八種	-11.0283
摩訶薩	-11.0283
眾生之相	-11.0285
無得	-11.0291
能迴八	-11.0292
皆悉聞知	-11.0314
福多於	-11.0316
道中	-11.0318
有自體	-11.0321
則不	-11.0329
而現	-11.034
彌覆	-11.0343
若能一	-11.0351
於大海	-11.0352
於惡世	-11.0355
釋梵	-11.0363
即當	-11.0367
別有	-11.0374
退心	-11.0376
不得成	-11.0383
離此	-11.0388
取他	-11.04
前中	-11.0403
若人不	-11.0411
善力	-11.0413
若人以	-11.0414
莫不歡喜	-11.0417
正者	-11.0422
其樹	-11.0428
本願	-11.0434
諦聽善思念之	-11.0439
無取捨	-11.0441
乃得	-11.0444
三百	-11.0444
如生	-11.045
所至	-11.0452
有常	-11.0454
常能	-11.0461
悉除	-11.0467
故生	-11.0472
於生死	-11.0487
取者	-11.0488
萬四千	-11.0495
無取	-11.0502
持此經者	-11.0507
為諸	-11.0514
必墮	-11.0529
我言	-11.0547
乃出	-11.0552
度有	-11.0574
一部	-11.0581
若不問	-11.0587
煩惱不生	-11.0592
身毛	-11.0606
有身	-11.0611
見天	-11.0611
常懷	-11.0611
本淨	-11.0612
合掌向佛	-11.0628
八大	-11.0629
愈	-11.0632
得成就	-11.0647
一觀	-11.0656
不周	-11.0669
能開	-11.067
作罪不	-11.0671
眾生者	-11.0681
土地多	-11.0696
弓箭	-11.0701
閻浮提中	-11.0724
我皆	-11.0728
不能為	-11.0743
盡諸	-11.075
無量恒河沙	-11.075
自利	-11.0751
見此地	-11.0763
皆除滅	-11.0764
頂天下盡	-11.0781
一故	-11.0786
來到	-11.0788
餘人不	-11.0796
我亦	-11.0803
成身	-11.0808
日月光	-11.0815
離眾苦	-11.0816
王名	-11.0829
而說	-11.0832
三世十方	-11.0836
告阿難言	-11.0845
本來無	-11.0847
大辯邪正甚深	-11.0848
左手	-11.0851
如我	-11.0861
得千	-11.0884
豈有	-11.0887
說偈	-11.0894
名無生	-11.0895
為實	-11.09
香光	-11.0917
能護	-11.0923
時雨	-11.094
地獄苦	-11.0942
若一切眾生身	-11.0945
坐於	-11.0959
凡無	-11.0963
已曾	-11.0963
能持戒	-11.0966
受我	-11.0966
小千	-11.0969
八千	-11.0992
由於	-11.101
歸空	-11.1013
諮	-11.1027
不自見	-11.1031
方是	-11.1036
二心	-11.1037
苾芻眾	-11.104
慧力	-11.1043
為親	-11.1043
是文殊師利	-11.1059
意欲	-11.1064
令我生生世世	-11.1081
處於	-11.1082
我之	-11.1092
金床	-11.1095
見如來說	-11.1105
受戒	-11.111
本國	-11.1113
眼者	-11.1114
為非無	-11.1121
亦與	-11.1122
苦痛	-11.1143
教汝	-11.1147
照真	-11.1149
見諸	-11.115
王語	-11.1154
斬	-11.1165
得禪定	-11.1171
眾生類	-11.1172
味飲食	-11.1178
如須彌	-11.1207
世尊云何名為	-11.1214
其外	-11.1218
欲受	-11.1226
物作	-11.1227
淨戒	-11.124
有長	-11.1248
水際	-11.1262
爾時大眾聞	-11.1264
無邊身	-11.127
令得正	-11.1273
入聖	-11.1287
我有	-11.1289
下此經	-11.129
人無	-11.1293
除煩惱	-11.1294
諸聖	-11.1296
地生	-11.1296
名摩	-11.1301
有十六	-11.1302
是真人	-11.1307
我從	-11.1311
在所	-11.1316
受者	-11.1317
何名	-11.1318
心用	-11.133
舉目	-11.1339
南無金	-11.1349
還受	-11.135
用法	-11.1351
見阿彌陀	-11.1353
普攝	-11.1355
是罪	-11.1361
之路	-11.1366
南無雲雷	-11.1377
佛臍	-11.1378
八月	-11.141
無一	-11.1413
云何能	-11.1414
虛空藏菩薩摩訶薩	-11.1421
生一念	-11.1424
既不	-11.1439
無去來	-11.1439
四方僧	-11.1446
此城	-11.1449
大妻	-11.145
是故得	-11.1452
欲來	-11.1459
獲罪	-11.1465
不染塵	-11.1471
復現	-11.1472
施故得	-11.1478
授記已	-11.1487
二種心	-11.1495
復有三	-11.1504
不明	-11.1509
法時	-11.1515
佛時	-11.1523
始得見	-11.1524
威德自在	-11.1534
願生	-11.1535
皆集	-11.1538
而立	-11.1545
堅持	-11.1548
忍也	-11.1554
邪魔	-11.1556
毒病	-11.1558
當至心	-11.1562
今日如來	-11.1564
流淚	-11.1565
行我	-11.1567
照境	-11.1569
為此人	-11.157
所念	-11.1587
一女	-11.1589
生死流	-11.1619
飲酒者	-11.1621
正受	-11.1621
水東	-11.1629
真淨	-11.1629
無同	-11.1629
皆是一	-11.1629
復次善見王	-11.1643
稱如來	-11.1654
理無	-11.1661
樹上	-11.1662
觀世	-11.1666
用功	-11.1668
於無	-11.1679
光中	-11.1689
慈悲心	-11.1693
向佛	-11.1694
數百	-11.17
南無勝	-11.1705
離恩愛	-11.1713
一淨	-11.1713
證得	-11.1715
前世	-11.1719
寶火	-11.1722
汝今所	-11.1724
是相	-11.1727
同體	-11.1729
化身	-11.1732
十夢	-11.174
自讚	-11.1741
性則	-11.175
壽八	-11.1756
鋸	-11.1761
一菩提樹	-11.1762
豈不	-11.1789
不覩	-11.179
我為	-11.1801
以此三	-11.1803
與他	-11.1814
亦不在	-11.1817
俱融	-11.1824
不在有	-11.1828
得安樂	-11.183
現世得	-11.1838
溺	-11.1838
所施	-11.185
當為汝說	-11.1859
生分別	-11.1864
長命	-11.1874
已還	-11.1882
此乃	-11.1894
所住處	-11.1901
眼目	-11.1906
行十惡	-11.1913
謂為是	-11.1913
於空	-11.1919
在空	-11.1919
作諸惡	-11.1925
從心	-11.193
得為有	-11.1934
餓鬼畜生	-11.194
十方一切	-11.1942
吾為	-11.1953
失其	-11.1958
生盲	-11.196
力所	-11.1961
是八	-11.1969
至地	-11.1971
得上	-11.1972
即發	-11.1977
有緣者	-11.1984
神足	-11.1985
未成	-11.1989
祕密之	-11.1991
此大眾	-11.1993
小世界	-11.1993
五百萬	-11.1994
恒修	-11.2007
法性自	-11.2011
亡失	-11.2016
充滿一切世界	-11.2023
心現	-11.2026
如盲人	-11.203
一億	-11.2031
非無故	-11.2037
明王佛	-11.2041
如電	-11.2042
則得	-11.2047
性平等	-11.2047
深坑	-11.205
知足	-11.2058
得金剛三昧	-11.2065
第十	-11.2065
而作是言	-11.2067
來入	-11.2069
眾寶	-11.2073
法坐	-11.2074
悟道	-11.2076
一切惡	-11.2081
得自在	-11.2086
常被	-11.2087
於十方	-11.209
某甲等	-11.2096
常定	-11.2096
三難	-11.2102
及菩薩	-11.2109
世諦	-11.2124
有兩	-11.2129
佛之	-11.2134
汝莫	-11.2134
真妙	-11.2136
無念	-11.2137
明觀	-11.214
北方水	-11.2143
天名無量	-11.2148
鎖	-11.2151
天人發	-11.2157
善見王	-11.2158
法不知	-11.2161
無故	-11.2163
故使	-11.2168
得愈	-11.2173
即與	-11.2174
法空	-11.218
雪	-11.2182
十一天名	-11.2182
江	-11.2193
腫	-11.2193
妙寶	-11.2196
河大海	-11.2205
使一切	-11.2207
思念	-11.2208
終不相	-11.2212
百四十	-11.2213
報佛恩	-11.2217
得見我	-11.2219
為分別	-11.2221
師子王	-11.2225
不能捨	-11.2229
皆無	-11.2234
阿耨多羅三藐三菩提	-11.2244
十七者世世	-11.2249
云何世尊	-11.2252
南無慈	-11.2255
如是觀	-11.2258
說正	-11.2263
口而	-11.2264
救眾生	-11.2264
復何	-11.2282
裁	-11.2283
名為邪	-11.2286
心大歡喜	-11.2292
有潤澤	-11.2305
法中無	-11.2313
出家眾	-11.2314
神通自在	-11.2314
萬天人	-11.2319
中尊	-11.2328
頭戴	-11.2328
七千	-11.2329
四海	-11.2333
說理	-11.2338
說為解脫	-11.2338
生長	-11.2339
動時	-11.234
為之	-11.2344
一切眾生聞	-11.2345
百千眾生	-11.2346
即是一	-11.2347
說妙法	-11.2351
發無上菩提善	-11.2352
有可	-11.2356
水漸	-11.2357
多諸	-11.2359
善思	-11.236
不得出	-11.2361
波羅蜜	-11.2364
以還	-11.2369
相光	-11.2372
便為	-11.2374
六者不	-11.2376
十方一切諸佛	-11.2381
塵無	-11.239
於一心中	-11.2391
及謗	-11.2401
劫人	-11.2405
四日	-11.2408
若有東	-11.2409
一氣	-11.241
此經法	-11.2421
地獄門	-11.2424
佛出世	-11.2425
師子吼菩薩摩訶薩	-11.2437
安得	-11.2443
長受	-11.2445
行違	-11.2451
慧者	-11.2454
名之為師	-11.2454
世尊實如聖	-11.2454
一切眾生從無始	-11.2456
後更	-11.2457
鐵窟地獄	-11.2464
初總	-11.2464
是緣	-11.2471
觀其	-11.2481
善法故得	-11.2482
鐵床	-11.2483
復從	-11.2484
普為	-11.2487
相中	-11.2491
二十四	-11.2498
說甚深	-11.2506
得無為	-11.2508
法身常	-11.2512
六度之	-11.2515
曜	-11.2518
教之	-11.2519
年後	-11.2519
八十	-11.2522
無目	-11.2523
人意	-11.2539
皆悉一心	-11.2544
多生	-11.2545
明解	-11.2549
挽	-11.255
六十	-11.2553
所有一切	-11.2555
壽二百五十	-11.2555
受諸苦	-11.2555
一切眾生身	-11.2557
去惡	-11.256
見我身	-11.2567
大人	-11.2568
菩提之	-11.2573
上半牒	-11.2576
摩訶薩言	-11.2579
測	-11.258
若未	-11.258
無量無邊不可思議	-11.2582
何有	-11.2585
無有限	-11.2592
不審此	-11.2592
南無炎	-11.2595
為可	-11.2604
若有西	-11.2606
自下第三	-11.2606
次有金	-11.2606
須清淨	-11.2607
貧人	-11.261
聞天	-11.2617
須陀洹	-11.2619
歌舞	-11.2624
本壽	-11.2629
可度量	-11.263
如炎	-11.2642
發聲	-11.2647
夢所見	-11.2652
六時行道	-11.2652
豪	-11.2655
知聞	-11.2657
及邪	-11.2659
超世	-11.2666
不離身	-11.2667
尊豐	-11.2672
依法	-11.2672
能測	-11.2681
其食	-11.2682
世尊食肉者	-11.2682
經藏	-11.2684
縱廣八萬	-11.2685
苦空	-11.2686
金剛師子	-11.2687
言正	-11.2692
烏	-11.2697
山谷	-11.2698
須疑	-11.2705
拜	-11.2707
興盛	-11.2708
一切俗人	-11.271
縱廣八	-11.2714
良師	-11.2715
諸惱	-11.2718
障礙	-11.2719
如空谷	-11.2722
等輩	-11.2722
罪苦	-11.2726
呪曰	-11.2727
入山	-11.2727
是非無	-11.2735
斷惡	-11.2735
信三寶	-11.2737
十九者	-11.2739
垢性	-11.2739
辟支	-11.2741
大乘方廣經	-11.2742
不生信	-11.2748
三種人	-11.2749
百億釋迦	-11.275
愍眾生故	-11.2758
何心	-11.2761
當取	-11.2763
云修	-11.2766
初普光	-11.2767
復稱	-11.2768
一事	-11.2772
定生	-11.2775
所從來	-11.2775
香積如來	-11.2777
亂世	-11.2779
無礙神性	-11.2785
慈悲愍念	-11.2787
黠	-11.2789
噤	-11.279
從心生	-11.2791
毘奈耶	-11.2799
無上正等	-11.2799
善持	-11.2799
南無歡喜	-11.28
有異	-11.2802
火車	-11.2802
八千同號	-11.2807
貧苦	-11.2814
一門	-11.2814
千里	-11.2815
得離	-11.2816
白師	-11.2817
普賢行	-11.2817
祕密	-11.282
病之	-11.2821
八地	-11.2823
字槃	-11.2825
有少	-11.2825
百病	-11.2827
投陀	-11.2828
立即	-11.2831
愍而	-11.2832
魂	-11.2835
性常	-11.2835
一切言教	-11.2836
山澤	-11.2836
餓	-11.2838
第十二	-11.2839
常樂	-11.284
陀羅尼呪	-11.2841
自滅亡	-11.2842
作是語	-11.2842
下者	-11.2843
頃	-11.2844
初舉	-11.2845
斬肉	-11.2846
末法中	-11.2846
本來無所動	-11.2848
善惡苦樂果報	-11.2848
天帝	-11.2849
為心	-11.2849
或魅蠱人	-11.285
過去未來現在	-11.2852
叉加天魔	-11.2853
普及有情	-11.2853
知苦盡	-11.2853
急去千里	-11.2855
請北方黑帝神王來	-11.2855
請東方青帝神王來	-11.2855
以是故名佛以為	-11.2855
波若之利	-11.2856
請南方赤帝神王來	-11.2856
抽	-11.2856
請西方白帝神王來	-11.2858
而說呪曰	-11.2859
威神力	-11.2859
一者離體求相	-11.2859
於此眾中欣然而	-11.2859
阿僧祇	-11.286
只	-11.286
得道迹	-11.2861
一切世界入一	-11.2862
名為正中	-11.2863
於其淨處	-11.2863
有瑠璃七寶	-11.2863
牆壁	-11.2863
端身而	-11.2863
諸方菩薩盡來集會	-11.2863
身下出	-11.2863
身相是文字	-11.2863
願與彼等常相	-11.2863
希	-11.2863
《	-11.2864
亦從布施	-11.2864
或針人	-11.2864
不信身中有	-11.2866
供養彼等諸最勝	-11.2866
即除	-11.2866
惡苾芻	-11.2866
然燈佛	-11.2867
心相是言教	-11.2867
著相求	-11.2867
唯願世尊為眾宣說	-11.2869
從餓鬼出	-11.2869
一便聞香	-11.2869
本來無所動一切諸	-11.2869
此訕謗之人	-11.2869
諮稟道教	-11.2869
諸有智	-11.2869
聖說	-11.287
出現	-11.287
急去他方	-11.287
經歷多劫	-11.287
多虛少實	-11.2871
或刺人	-11.2871
無善無	-11.2871
處而求佛身	-11.2871
詳共譏	-11.2871
湯	-11.2871
才	-11.2871
第二正	-11.2872
大會	-11.2872
不離而問	-11.2872
四者常能	-11.2872
百千萬世未曾聞有	-11.2872
若能心不妄精進無有	-11.2872
諸惡重病	-11.2872
𦟛	-11.2872
摩尼幢	-11.2872
見他施時	-11.2874
及花鬘	-11.2874
塗香及寶蓋	-11.2874
三千界滿中一切人	-11.2874
南無過去無量	-11.2874
在毘耶離城中	-11.2874
如是諸人等亦名報佛恩若	-11.2874
汝能善問	-11.2874
釵	-11.2874
飲我血	-11.2874
意欲遠	-11.2875
定墮三惡道	-11.2875
一病比丘	-11.2875
可窮盡	-11.2875
上至第七	-11.2875
亦名報佛恩復次善見王於我	-11.2875
便昏醉	-11.2875
是經能與眾生開大	-11.2875
身上出	-11.2875
食我肉	-11.2875
抃	-11.2876
我若解說食肉	-11.2877
或見報身坐蓮華藏	-11.2877
偷蘭遮	-11.2877
優鉢羅華	-11.2877
其火盛熱	-11.2877
大辯邪正法門品第	-11.2877
謗禪壞亂眾	-11.2877
南無持	-11.2878
殺良善	-11.2878
皆從布施	-11.2878
流傳此法遞相囑付不使間斷	-11.2878
妙衣服及薰香	-11.2878
一日一宿中受持	-11.2878
三大阿僧祇劫	-11.2878
修此功德得生	-11.2878
及以讚譽	-11.2878
大磨尼寶	-11.2878
身業口業及意業	-11.2878
陸	-11.2879
世界海	-11.2879
定自在	-11.2879
出家之人	-11.2879
南無僧伽	-11.288
亦復不離世間	-11.288
醯	-11.288
法身同於虛空	-11.288
一日二日三日四日五日六日七日	-11.288
日出時天下	-11.288
而求佛者	-11.288
諸法義願所希望	-11.288
還得活者	-11.288
諸來菩薩	-11.288
栰	-11.2881
眾生見三	-11.2881
笑	-11.2881
紛	-11.2881
樂波羅蜜	-11.2881
淨波羅蜜	-11.2881
然不名為	-11.2881
爾時南方復有十恒河沙	-11.2881
於有覺性	-11.2882
是人有慧	-11.2882
是經能度八難	-11.2882
汝今善聽	-11.2882
百歲不死	-11.2882
觀身正念	-11.2882
諸德海	-11.2882
以諸法無	-11.2882
以飲食衣服布施	-11.2882
動其水	-11.2882
及餘他方	-11.2882
所可說者	-11.2882
違為繼結	-11.2882
非人等	-11.2882
我等從今	-11.2882
符書厭禱呪	-11.2882
段	-11.2882
三事俱	-11.2882
久停	-11.2883
抓	-11.2883
皆見化佛	-11.2883
周匝圍繞	-11.2883
執己見	-11.2883
其餘法師	-11.2883
爾時如童菩薩	-11.2883
或有見我	-11.2883
此人邪命諂曲	-11.2883
此安心妙法	-11.2883
鳩槃荼人及	-11.2883
妹	-11.2883
優婆塞優婆夷	-11.2884
咽如針	-11.2885
河神王	-11.2885
稱是經中	-11.2885
提婆	-11.2885
參羅及萬像一法之所印	-11.2885
汝等眾生皆當一心	-11.2885
身毛皆竪	-11.2885
一一門外	-11.2885
善精勤修	-11.2885
天下萬物	-11.2885
情者以貪為	-11.2885
憒	-11.2885
無上廣大	-11.2885
皆是違情	-11.2885
順為體解	-11.2885
吹令微塵	-11.2885
恭敬供養一切佛	-11.2885
樂好衣服	-11.2885
無瑕穢	-11.2885
菩提過去十方	-11.2885
菩薩觀身二種	-11.2885
請轉於無上輪	-11.2885
入禪	-11.2886
除滅四重禁	-11.2886
佛說要行捨身經	-11.2886
樹神王	-11.2886
顯示實相	-11.2886
我諸善友開	-11.2886
行願為一	-11.2886
諸苾芻苾芻尼烏波索迦烏波斯	-11.2886
身命皮肉	-11.2886
不著於水	-11.2886
亦復歸命諸餘經法	-11.2886
惡趣眾苦	-11.2886
無礙如日月所有	-11.2886
萬行圓備	-11.2886
諸魔道	-11.2886
不如修故	-11.2886
五部僧	-11.2886
因地初發心時	-11.2886
寂照照寂	-11.2886
忘菩提心所有諸	-11.2886
十方諸剎土	-11.2886
在除去	-11.2886
者服之即	-11.2886
洲	-11.2887
印三昧	-11.2887
勸觀	-11.2887
以何相觀	-11.2888
程	-11.2888
萬億等方便	-11.2888
云何一法中如生種種見	-11.2888
大梵天王釋提桓因四天大王	-11.2888
橫羅	-11.2888
都無此肉	-11.2888
十千比丘得阿羅漢	-11.2888
猛火入心	-11.2888
當淨洗浴	-11.2888
何故如來今日說道	-11.2888
便生嗤咲	-11.2888
修福者是	-11.2888
出現於世間	-11.2888
大光普照	-11.2888
婉	-11.2888
惡見塵勞	-11.2888
懸繒幡蓋	-11.2888
或有外現	-11.2888
或見此地	-11.2888
汝以何相觀如來	-11.2888
灌注	-11.2888
用何法得	-11.2888
積集少善根皆	-11.2888
貧富貴賤	-11.2888
薩	-11.2888
五升	-11.2888
宜速	-11.2888
客	-11.2889
或取五綵	-11.2889
佛告常施	-11.2889
願大慈尊	-11.2889
受持及讀誦	-11.2889
必得成佛道	-11.2889
安住清淨地	-11.2889
肉不從四大	-11.2889
一生命	-11.2889
中建立佛	-11.2889
癡狂修福	-11.2889
者正念若能	-11.2889
諸來大眾	-11.2889
護法善神	-11.2889
違背實相	-11.2889
題諸法	-11.2889
諸子	-11.2889
受想行識	-11.289
二十九	-11.289
犯十惡	-11.289
解我意	-11.2891
五波羅蜜	-11.2891
樂行惡行	-11.2891
海神王	-11.2891
風神王	-11.2891
不從卵生	-11.2891
不從胎生	-11.2891
施福如野馬	-11.2891
講說經律	-11.2891
爭骨各各貪多	-11.2891
百福莊嚴	-11.2891
皆是宿世久遠	-11.2891
行大供養盡未來劫	-11.2891
別教之中	-11.2891
及見貧窮孤獨	-11.2891
在於東海	-11.2891
天名密	-11.2891
是非恗談自所顯已濁他我慢陵欺謗毀	-11.2891
欻	-11.2891
浸	-11.2891
皆由久修大乘	-11.2891
眾生與法一如無二	-11.2891
究其玄旨	-11.2891
舍婆提國有吉槃陀女	-11.2891
否	-11.2891
敗壞	-11.2891
鐵丸地獄	-11.2892
鐵圍	-11.2892
熏	-11.2892
惡人惡鬼	-11.2892
大通智勝	-11.2893
汲	-11.2893
自得利益	-11.2893
說義不說文	-11.2893
住於外不應從	-11.2893
來至佛所	-11.2893
助其勢力	-11.2893
周匝鐵	-11.2893
常住二字	-11.2893
度願常	-11.2893
應勸此人	-11.2893
有大風	-11.2893
若能如是觀身	-11.2893
諸梵天王及以	-11.2893
非相非非相	-11.2893
弗	-11.2893
我從成佛	-11.2893
海藏	-11.2893
持是經者	-11.2893
流浪生死	-11.2894
四天龍王	-11.2894
一亦不為一	-11.2894
俱同一寂滅	-11.2894
淺智之所聞見一以為一	-11.2894
為欲破諸數	-11.2894
珠作上	-11.2894
知行亦寂滅是	-11.2894
破壞四魔	-11.2894
人手脚	-11.2894
尋光雲集	-11.2894
下有無極大風	-11.2894
劍林	-11.2894
妙良藥	-11.2894
貪欲恚癡	-11.2894
云何而有眾生聞即	-11.2894
人中最勝	-11.2894
今身好喜	-11.2894
合掌禮我	-11.2894
布薩	-11.2894
復過此劫劫名	-11.2894
投身於中	-11.2894
早亡	-11.2894
普收歸	-11.2894
有德無德	-11.2894
歇	-11.2894
此經者即名	-11.2894
汗	-11.2894
用名為病元	-11.2894
眾蜂	-11.2894
蜜自恭已用	-11.2894
設名題	-11.2894
說不可說是如如說	-11.2894
雖曰凡夫	-11.2894
炙肉	-11.2894
醜	-11.2895
檀	-11.2895
初牒	-11.2895
脂	-11.2896
我若具說	-11.2896
偷僧祇物	-11.2896
善學諸方便度脫於群生	-11.2896
火神王	-11.2896
生滅即涅槃本來無所動	-11.2896
是汝絙繩	-11.2896
獨處遠離	-11.2896
萬死萬生	-11.2896
專施敬田	-11.2896
有中輪轉時	-11.2896
內懷不	-11.2896
各隨力分	-11.2896
念念之中	-11.2896
與彌勒尊佛	-11.2896
若有兒啼	-11.2896
諸根塵門	-11.2896
連年累	-11.2896
一時之間	-11.2896
延壽	-11.2897
吾教	-11.2897
欲懺	-11.2897
羅雙樹間	-11.2897
槃荼	-11.2897
二乘之行	-11.2897
炎忍亦無所忍	-11.2897
淳	-11.2897
若無我見者究竟無	-11.2897
南無雲自在	-11.2897
從此已上四天	-11.2897
阿羅羅	-11.2897
不壞諸法	-11.2897
其光明中	-11.2897
十人之力	-11.2897
十六天名	-11.2897
唯有一乘	-11.2897
大慈所薰	-11.2897
度諸生死	-11.2897
我於一時	-11.2897
有空有無	-11.2897
未解安心者	-11.2897
未證菩提者	-11.2897
未通者	-11.2897
眾人敬仰	-11.2897
膩吒利	-11.2897
見無上尊	-11.2897
辰星	-11.2897
令出三有	-11.2897
偈胡音	-11.2897
前禮佛足	-11.2897
如是十方三世諸佛名	-11.2897
我今普禮一切十方三世諸佛	-11.2897
讚嘆	-11.2897
佐助	-11.2898
縫	-11.2898
藐	-11.2899
若有有情能施身分	-11.2899
煩惱至涅槃故	-11.2899
修何行	-11.2899
多饒財物	-11.2899
為闡提人說	-11.2899
一切佛境界海三昧	-11.2899
一切諸佛解脫解脫知見海三昧	-11.2899
如此設會	-11.2899
我有方便令入	-11.2899
此輩眾生	-11.2899
獲四如意	-11.2899
眾邪惡鬼	-11.2899
知斤兩	-11.2899
紛動	-11.2899
見他作善	-11.2899
證無著	-11.2899
大病本亦有百一	-11.2899
詮	-11.2899
澍	-11.29
心是妄非精	-11.29
無央數	-11.29
常處於三毒長養於	-11.29
與奪顯	-11.29
作何方便令	-11.29
敬田者	-11.29
正憶正念	-11.29
解脫願成	-11.29
佛告善見王子	-11.29
內外表	-11.29
則同一十	-11.29
南無才	-11.29
及佛菩薩	-11.29
唯然世尊	-11.29
四攝法中	-11.29
寂意滅意三昧	-11.29
形狀大小	-11.29
慈心養命	-11.29
慳惜	-11.29
旱	-11.29
泡體	-11.29
父慈子孝	-11.29
與他作	-11.29
諸惡比丘亦復	-11.29
迎其精神不	-11.29
頰	-11.29
心求	-11.29
詣佛所	-11.29
比丘尼優婆塞優婆夷	-11.2901
耳鼻舌身意	-11.2901
鑪	-11.2901
莎	-11.2902
輻	-11.2902
三千六百	-11.2902
受其殃	-11.2902
無出無沒	-11.2902
根不具	-11.2902
射殺汝等煩惱賊故	-11.2902
成熟汝等涅槃食故	-11.2902
眾生人及非人	-11.2902
得足下平	-11.2902
消滅永無餘	-11.2902
輕笑	-11.2902
一微塵上	-11.2902
剎塵劫	-11.2902
普廣菩薩	-11.2902
牢強	-11.2902
雙泯是非	-11.2902
食肉之時	-11.2902
鼈	-11.2902
七殺之所	-11.2902
七重鐵城	-11.2902
具足十力	-11.2902
喪飲食	-11.2902
宇	-11.2902
持經之人	-11.2902
是諸行人	-11.2902
為利一切有情故	-11.2902
瑠璃城	-11.2902
盡施與人	-11.2902
舍利形像	-11.2902
作諸惡業	-11.2902
助其少	-11.2902
建立一切法	-11.2902
殖	-11.2902
百年後	-11.2902
惡瘡膿血遍體	-11.2903
哆	-11.2903
落毀壞	-11.2903
於一塵上微塵	-11.2903
九十五道雜類鬼神	-11.2903
入人身內	-11.2903
上有白銀	-11.2903
我是律師	-11.2903
是大神呪	-11.2903
阿伽	-11.2903
懸遠	-11.2903
諸佛名乃至	-11.2903
接引	-11.2904
能破汝等生死軍故	-11.2904
南無無垢藏	-11.2904
十方佛土	-11.2904
唯除不信者	-11.2904
從畜生中來	-11.2904
成就無量功德	-11.2904
無智慧故	-11.2904
行五戒十善然燈照	-11.2904
食眾生肉	-11.2904
不聽酌酒與	-11.2904
六種見趣	-11.2904
共一國同住	-11.2904
十千菩薩得無生	-11.2904
奄	-11.2904
悟第一義	-11.2904
此人愚癡	-11.2904
油殃	-11.2904
當如如相說	-11.2904
白淨王如來	-11.2904
眾生雖無	-11.2904
秤	-11.2904
難踰	-11.2904
一切眾生身內二種法身	-11.2904
十八阿鼻地獄	-11.2904
名為邪中	-11.2904
我又一時讚歎	-11.2904
有貧窮而	-11.2904
東西南北四維上下虛空	-11.2904
燃燈續明	-11.2904
色究竟天	-11.2904
大般涅槃	-11.2904
遙	-11.2904
西方胡國中來	-11.2905
俯身量等剎土塵虔心	-11.2905
㝹	-11.2905
我是法師	-11.2905
摩睺羅伽人非人等	-11.2905
割斷汝等諸愛網故	-11.2905
是汝薪火	-11.2905
潤清汝等菩提	-11.2905
療治汝等煩惱病故	-11.2905
菜	-11.2905
汝向所說	-11.2905
信力故	-11.2905
十九天名	-11.2905
所須之物	-11.2905
歎未曾有	-11.2905
為汝問故	-11.2905
皆大歡喜踊躍	-11.2905
趣菩提樹	-11.2905
一人獨	-11.2905
是故我來欲	-11.2905
假披法服	-11.2905
堰	-11.2905
或見我身	-11.2905
諸三昧海門	-11.2905
龍華樹下	-11.2905
如是之人等亦	-11.2906
脛	-11.2906
手把金	-11.2906
甞	-11.2907
毘舍闍鬼	-11.2907
得見彼佛	-11.2907
菴	-11.2907
輕呰不	-11.2907
奴婢牛羊	-11.2907
妙法蓮華經	-11.2907
悲啼懊惱	-11.2907
文字章句	-11.2907
普賢之行	-11.2907
千千萬	-11.2907
如斯之徒	-11.2907
居中佛子眾圍繞	-11.2907
求名譽	-11.2907
見僧恭敬	-11.2907
五敬順	-11.2907
六欲天中	-11.2907
則我身是	-11.2907
如是展轉	-11.2907
如風火	-11.2907
延壽經一百卷	-11.2907
心懷歡喜	-11.2907
我所出法	-11.2907
求名求利求勝他	-11.2907
無言無說	-11.2907
猶為無	-11.2907
眾生性皆同	-11.2907
蕩蕩而無	-11.2907
諍不茹	-11.2907
讀經不解	-11.2907
阿賴耶識	-11.2907
雙泯善惡	-11.2907
驢馬	-11.2907
冥理奉	-11.2907
宿世久遠造五逆行	-11.2907
復以此經大智	-11.2907
抃斗	-11.2907
拪	-11.2907
滅故不住生	-11.2907
生故不住滅	-11.2907
至於今日	-11.2907
釀	-11.2907
餘如上說	-11.2907
能為諸眾生問如	-11.2907
󰪠	-11.2907
佛還正坐告阿難言	-11.2908
荼	-11.2908
跋	-11.2908
鎧	-11.2908
地芝	-11.2908
沾	-11.2908
釋迦文佛	-11.2908
於畢竟空中熾然建立	-11.2908
能破汝等五蓋	-11.2908
地神王	-11.2908
鬘	-11.2908
學無學	-11.2908
眾中復有菩薩名曰	-11.2908
僧殘	-11.2908
尤	-11.2908
成佛亦不久	-11.2908
旃檀窟	-11.2908
東方王明諸佛	-11.2908
灑	-11.2908
生死諸難	-11.2908
禮是三世佛	-11.2908
𣏌	-11.2908
劫海修行	-11.2908
戰懼	-11.2908
淨瑠璃	-11.2908
燒其脂火	-11.2908
直心具說	-11.2908
處處村落	-11.2908
長夜受苦	-11.2908
隨分修習	-11.2908
非出非	-11.2908
一百九	-11.2908
僧中施	-11.2908
即名虛妄	-11.2908
唯願大慈尊	-11.2908
在家出家	-11.2908
天名少	-11.2908
寧以利刀	-11.2908
文字所由	-11.2908
諦聽諦受	-11.2908
北方有	-11.2908
劍樹地獄	-11.2909
銜	-11.2909
朋	-11.2909
諸神	-11.291
夭喪	-11.291
胞胎	-11.291
橫害	-11.291
世世值	-11.291
他方地獄中受罪	-11.291
應以辟支佛	-11.291
法身壯大	-11.291
與一切眾生作	-11.291
藪	-11.291
多摩羅跋	-11.291
多諸過	-11.291
屋宅	-11.291
掘	-11.291
轉近轉滅	-11.291
三菩提心	-11.291
共相勸	-11.291
受持陀羅尼呪	-11.291
名為顛倒作	-11.291
含藏識	-11.291
喜聞法	-11.291
慮為想	-11.291
普賢菩薩行願王經	-11.291
有能讀誦此經	-11.291
無起作	-11.291
罵辱	-11.291
而常流轉	-11.291
自撲	-11.291
若在大火中	-11.291
諸賢聖等	-11.291
遍滿閻浮	-11.291
雪山	-11.291
不到彼岸	-11.291
以是故名佛為	-11.291
又會結願	-11.291
囑當	-11.291
地能生	-11.291
執取正法	-11.291
姉	-11.291
慧炬三昧	-11.291
我應入	-11.291
於先甞	-11.291
會結願紫微山	-11.291
本來無所動諸佛	-11.291
材	-11.291
水若無風	-11.291
無始復無終	-11.291
而無伴	-11.291
蜂子	-11.291
許護持此經	-11.291
隨從大仙	-11.291
行入	-11.291
熱鐵丸	-11.291
憐貧念	-11.2911
漬	-11.2911
項	-11.2911
踊	-11.2911
癖	-11.2911
護世四	-11.2911
將法逐法	-11.2911
有如來性	-11.2911
此音聲者	-11.2911
何況揣財	-11.2911
哀戀	-11.2911
脫諸難	-11.2911
作十惡業	-11.2911
南無普現色身	-11.2911
如起貪著	-11.2911
掛	-11.2911
不中夭	-11.2911
希求	-11.2911
得不退轉	-11.2911
服於法藥消煩惱病	-11.2911
楞	-11.2911
盪	-11.2911
不敢違犯	-11.2911
功用絕	-11.2911
十八不共法	-11.2911
即不攀緣	-11.2911
如世生盲	-11.2911
忍受他惱	-11.2911
手脚中	-11.2911
未覺者	-11.2911
百劫千劫百千	-11.2911
菩薩摩訶薩金剛相三昧	-11.2911
金剛頂三昧	-11.2911
龜	-11.2912
普賢行願力	-11.2912
八萬四千人俱	-11.2912
又生蠶	-11.2912
急難中	-11.2912
一乘道	-11.2912
經卷唯	-11.2913
聽受經法	-11.2913
我今如實說	-11.2913
唯從眾僧乞索	-11.2913
或求僧長短	-11.2913
眾寶莊嚴	-11.2913
菜茹懷	-11.2913
怖迫	-11.2913
證實相者知此陰中本來無色	-11.2913
一異俱	-11.2913
不起異念	-11.2913
佛去世後	-11.2913
悟無生忍	-11.2913
為我徒眾	-11.2913
眼耳鼻舌名為	-11.2913
僧伽梨衣	-11.2913
吉祥	-11.2913
壽終之後	-11.2913
求作沙門	-11.2913
深入無量	-11.2913
為謗此	-11.2913
行正真	-11.2913
不可謂之	-11.2913
兢	-11.2913
初明炎隨	-11.2913
則千萬不	-11.2913
合掌作禮	-11.2913
善神加護	-11.2913
四寶涌成高出一切	-11.2913
大斗重秤	-11.2913
強勸比丘酒者	-11.2913
得失是非	-11.2913
懷抱	-11.2913
是生滅法	-11.2913
燝	-11.2913
當何所歸	-11.2913
百千萬億日月	-11.2913
眾人所棄	-11.2913
瞿曇	-11.2913
破滅三寶	-11.2913
童男童女	-11.2913
而至佛所	-11.2913
身犯如是	-11.2913
過無量壽	-11.2913
閔	-11.2913
阿迦貳吒天	-11.2913
饌	-11.2913
骸	-11.2913
高遷富貴	-11.2913
總持	-11.2913
耆	-11.2913
+	-11.2913
放光之時	-11.2914
泣淚	-11.2914
為欲調伏	-11.2914
金剛杵	-11.2914
善棄惡	-11.2914
舒金色	-11.2914
所能知	-11.2914
照曜汝等離黑	-11.2914
佛及僧	-11.2915
善於伎藝	-11.2915
恃託一人	-11.2915
鬼神形	-11.2915
在在處處廣宣流布	-11.2915
正觀正念	-11.2915
滅除十惡業	-11.2915
不可測	-11.2915
堅牢	-11.2915
得悋惜	-11.2915
曼	-11.2915
兀	-11.2915
如是遇者	-11.2915
常求諸	-11.2915
應除諸見	-11.2915
於阿僧祇劫中	-11.2915
是佛真	-11.2915
為諸煩惱弊於	-11.2915
非我力能	-11.2915
世間一切人心	-11.2915
以智慧力	-11.2915
功德之所不	-11.2915
四大五陰三毒羅剎文字	-11.2915
大林藪	-11.2915
如法作齋	-11.2915
如電久住	-11.2915
廣長舌	-11.2915
於毒害	-11.2915
正直菩薩	-11.2915
為小乘人說	-11.2915
無功之功	-11.2915
無德之德	-11.2915
牢固	-11.2915
知心住處	-11.2915
鋤	-11.2915
阿素洛	-11.2915
一時聽法	-11.2915
十方剎土中	-11.2915
祕密圓教	-11.2915
大通方廣經卷中	-11.2915
雜佛同號	-11.2915
靈鷲山	-11.2915
遊於三世諸最勝	-11.2915
世尊大聖	-11.2916
墨	-11.2916
佛說妙好寶車經	-11.2916
槃龍	-11.2916
絞	-11.2916
一上廁一	-11.2916
字句其以久如	-11.2916
捨身受身	-11.2916
譏呵	-11.2916
重劇	-11.2916
中究竟清涼樂	-11.2916
我恒在其中為護如是人令得無上道	-11.2916
措	-11.2916
身諸毛孔	-11.2916
是大菩薩摩訶薩	-11.2916
煩惱交會	-11.2916
生貧賤	-11.2916
瞋喜之心	-11.2916
譬如陽炎	-11.2916
都無所得	-11.2916
金剛之體	-11.2916
受戒懺悔	-11.2916
天堂自來	-11.2916
如樹提伽	-11.2916
專念	-11.2916
忻仰	-11.2916
我從昔來	-11.2916
捨於財物	-11.2916
有學有	-11.2916
經營三寶	-11.2916
舉足一步	-11.2916
虛無湛	-11.2916
或造塔廟	-11.2916
毀罵	-11.2916
澄澄	-11.2916
為等侶	-11.2916
競來前	-11.2916
鹿苑	-11.2916
一日之中	-11.2916
乃至千佛出世	-11.2916
亦同然	-11.2916
今身劫剝	-11.2916
今身畜多	-11.2916
令賊入	-11.2916
何不開	-11.2916
佛性海藏	-11.2916
佛說智慧海藏經卷下	-11.2916
俱發聲言	-11.2916
南無摩尼幢	-11.2916
厭惡身	-11.2916
嗽	-11.2916
大智舍利弗	-11.2916
天繒寶	-11.2916
如來應正等覺	-11.2916
娑訶世界	-11.2916
形更受	-11.2916
必定獲得無	-11.2916
憍陳如	-11.2916
戒不淳	-11.2916
撾打	-11.2916
暫讀此經三遍	-11.2916
有深有淺	-11.2916
歎娛	-11.2916
此諸鬼神	-11.2916
沖	-11.2916
為人喜婬	-11.2916
粗	-11.2916
若受持若讀誦	-11.2916
若有病痛	-11.2916
若能有一人	-11.2916
萬七千人	-11.2916
觀心住處	-11.2916
豪富	-11.2916
輸稅	-11.2916
遍一切處色身三昧	-11.2916
雖於深法	-11.2916
食地芝	-11.2916
香湯	-11.2916
騎	-11.2916
急去	-11.2916
親侍	-11.2917
城池巷陌	-11.2917
無男無女無貴無賤	-11.2917
現在十方千五百佛名	-11.2917
府	-11.2917
佛說現報當受經	-11.2917
白衣舍	-11.2918
何況入中	-11.2918
九十九	-11.2918
生住滅	-11.2918
四天下須彌山	-11.2918
危脆	-11.2918
善力自然	-11.2918
摩訶迦葉	-11.2918
曼多隸	-11.2918
臨般涅槃	-11.2918
䠒合掌	-11.2918
八陽之經	-11.2918
各有異見	-11.2918
土沙	-11.2918
阿含經	-11.2918
僧伽和尚	-11.2918
博學	-11.2918
及見未來	-11.2918
善根為修普賢行迴向	-11.2918
國城妻子	-11.2918
塔廟形像	-11.2918
大通方廣懺悔滅罪莊嚴成佛經卷	-11.2918
小乘四果	-11.2918
師子音聲三昧	-11.2918
或妹	-11.2918
拘尸那	-11.2918
滅意定	-11.2918
者歸依佛	-11.2918
肌	-11.2918
若聞此法	-11.2918
行來出入	-11.2918
豁然	-11.2918
鳥鳴百怪	-11.2918
龍花初首	-11.2918
􂎕	-11.2918
侶	-11.2918
耕	-11.2918
一時佛住	-11.2918
佛告信相菩薩摩訶薩	-11.2918
生大憂惱	-11.2918
難化難育	-11.2918
阿羅	-11.2919
人精氣	-11.2919
半月	-11.2919
樓上有	-11.2919
毀呰誹謗	-11.2919
嬉怡微笑	-11.2919
床敷	-11.2919
病不愈	-11.2919
阿婆	-11.2919
普潤	-11.2919
劫欲盡	-11.2919
四十九年	-11.2919
守護心城	-11.2919
帖	-11.2919
括	-11.2919
海皆是諸佛	-11.2919
生販賣	-11.2919
􅶊	-11.2919
一切經一部	-11.2919
以百億世界土石諸山	-11.2919
倚	-11.2919
假使有人純以	-11.2919
優丘尼	-11.2919
光耀	-11.2919
則種種法	-11.2919
力普及諸	-11.2919
半佐也	-11.2919
哆梨	-11.2919
啟發	-11.2919
在虛空中	-11.2919
天龍藥叉	-11.2919
如此夢事	-11.2919
威勢	-11.2919
恚恨	-11.2919
悕	-11.2919
意是分別識	-11.2919
招集	-11.2919
捉得此人	-11.2919
擾多務	-11.2919
有形之類	-11.2919
未來諸劫	-11.2919
正議大夫	-11.2919
此亦不應買	-11.2919
淡	-11.2919
牟訶儞	-11.2919
王及大臣	-11.2919
破齋之人	-11.2919
破齋者墮	-11.2919
能擁護我百千萬億劫中	-11.2919
薄伽跋羝	-11.2919
薩呼	-11.2919
身中放日光	-11.2919
迷心波浪求	-11.2919
還來人身	-11.2919
離名數故	-11.2919
須申	-11.2919
高下不淨	-11.2919
鼻者言極	-11.2919
率	-11.2919
過去未來	-11.292
篩	-11.292
佐	-11.2921
萬同號	-11.2921
數千萬	-11.2921
皆歸一	-11.2921
是汝梯橙	-11.2921
決所疑	-11.2921
五通仙人	-11.2921
壽萬六千	-11.2921
狹劣	-11.2921
破寺破	-11.2921
住於內	-11.2921
眾魔外道	-11.2921
世間空虛無	-11.2921
名終日名猶為無名	-11.2921
若善知識諸有所作	-11.2921
貪欲瞋恚愚癡	-11.2921
妄渴心息	-11.2921
恐畏	-11.2921
當觀三處	-11.2921
不住諸惡	-11.2921
修集大乘	-11.2921
封執	-11.2921
於無量阿僧祇劫	-11.2921
普賢菩薩亦如是我	-11.2921
裂	-11.2921
七十同號	-11.2921
中有一老	-11.2921
佛說如來成道經	-11.2921
元年六月二十	-11.2921
坐禪念定	-11.2921
大辨邪正	-11.2921
如石女兒	-11.2921
摧折	-11.2921
次有銀	-11.2921
此經尊猛	-11.2921
殯	-11.2921
汝好受持	-11.2921
法僧不滅	-11.2921
濁翳	-11.2921
熱得清涼	-11.2921
眾聖明了	-11.2921
究竟無實	-11.2921
綴	-11.2921
耳飡法音	-11.2921
苦樂之事	-11.2921
行檀	-11.2921
衣鉢自隨	-11.2921
親覩彌陀	-11.2921
髮文相	-11.2921
斷疑	-11.2921
非見非	-11.2921
為欲攝取諸惡眾生令住善	-11.2922
以不淨食	-11.2922
就聖道	-11.2922
互	-11.2922
與奪	-11.2922
為大眾說	-11.2922
一時佛在王舍	-11.2922
寧喪身命	-11.2922
鬚	-11.2922
拘物頭華	-11.2922
波頭摩華	-11.2922
棺	-11.2922
以邪定法	-11.2922
大明種智	-11.2922
常來營護	-11.2922
從三昧起	-11.2922
暝	-11.2922
萬段	-11.2922
先栰	-11.2922
眼色與心	-11.2922
佛說法句經	-11.2922
剔除鬚髮	-11.2922
四重五逆	-11.2922
大臣宰相一切士官	-11.2922
席	-11.2922
易救可懺	-11.2922
一切眾生無始以來	-11.2922
不敢忘失	-11.2922
不涼不熱	-11.2922
不肖子者	-11.2922
主之金	-11.2922
乃知此非常	-11.2922
佛說無量大慈教經	-11.2922
作七結	-11.2922
億諸佛所說	-11.2922
卉木	-11.2922
可丸如	-11.2922
呪七遍已而	-11.2922
啼過度	-11.2922
圓滿諸佛子中最	-11.2922
大興善寺翻經	-11.2922
如幻解脫力	-11.2922
宿王華	-11.2922
建立一塵上如是無	-11.2922
得佛法分	-11.2922
從何所來欲	-11.2922
愁憂	-11.2922
慶喜	-11.2922
我願行於	-11.2922
捨邪歸正	-11.2922
攝持正法	-11.2922
是故號之為普賢	-11.2922
是故諸大眾	-11.2922
曼哆羅	-11.2922
月光明王	-11.2922
沙門師利	-11.2922
滅諸魔相三昧	-11.2922
照境分明	-11.2922
狼狐來	-11.2922
獵	-11.2922
申酉年	-11.2922
真金羅網彌覆	-11.2922
稱揚諸佛功德經	-11.2922
聞祕密圓教喜踊	-11.2922
若人一聞	-11.2922
若有比丘比丘尼清信士	-11.2922
融銅灌口	-11.2922
赤骨	-11.2922
逢大師已	-11.2922
逾	-11.2922
選是擇非	-11.2922
酸	-11.2922
陀羅尼印三昧	-11.2922
願以此功德普及於一切	-11.2922
食米蕩盡	-11.2922
騁	-11.2922
黑繩	-11.2922
凝	-11.2923
一法即	-11.2923
普賢菩薩說證明經	-11.2923
符厭星死之鬼	-11.2923
車渠馬瑙珊瑚虎珀	-11.2923
造作魅蠱	-11.2923
心意緣慮	-11.2923
幽冥	-11.2924
坐金棺楯上	-11.2924
迭	-11.2924
救攝汝等	-11.2924
以大願船	-11.2924
到涅槃岸	-11.2924
燒香散花	-11.2924
不起一心得大功德	-11.2924
不溢	-11.2924
五蓋五欲	-11.2924
汝之世尊氣力安	-11.2924
皆悉遠離	-11.2924
圓寂	-11.2924
十那由他	-11.2924
南無善宿	-11.2924
從本已來未曾報恩	-11.2924
捨棄我	-11.2924
三家使一牛五男同一婦僧尼巡門	-11.2924
之果報唯佛知	-11.2924
九十同號	-11.2924
作福彌積	-11.2924
偏袒右肩右膝著地	-11.2924
南無金剛不壞	-11.2924
召集	-11.2924
各隨所修	-11.2924
含識有形	-11.2924
壽百二十	-11.2924
容貌	-11.2924
對治	-11.2924
常聞正法	-11.2924
成等正覺轉法輪降伏一切魔軍眾	-11.2924
救諸眾生一切苦難經	-11.2924
有苑園浴	-11.2924
未得無生	-11.2924
殊特	-11.2924
無明不起	-11.2924
熾然流浪生死	-11.2924
獲報甚	-11.2924
當來值彌勒	-11.2924
瞻仰常於	-11.2924
符厭客死之鬼	-11.2924
經書幡花	-11.2924
若共此人同住	-11.2924
萬刀輪一時來下	-11.2924
蠢動	-11.2924
賣與他人	-11.2924
陣	-11.2924
顏容	-11.2924
佛說法王經	-11.2924
大方廣華嚴十惡品經	-11.2924
朽	-11.2924
死者變成活	-11.2924
舞	-11.2924
肥	-11.2925
加葉菩薩	-11.2925
千遍重罪皆消滅	-11.2925
城東門	-11.2925
微細	-11.2925
收槐子	-11.2925
散騎常侍昭文館學士權兼檢校	-11.2925
珍寶瓔珞	-11.2925
羽林將軍上柱國	-11.2925
苅	-11.2925
闍維之具	-11.2925
若欲摧	-11.2925
大方廣佛花嚴經普賢菩薩行願王品	-11.2925
救疾經一卷	-11.2925
縣開國	-11.2925
詳定奉勅銀青光祿大夫	-11.2925
綵	-11.2925
國王大臣	-11.2925
人非人	-11.2925
兜率天宮	-11.2925
睞	-11.2925
除滅宿罪	-11.2925
六天皆盡	-11.2926
子見母	-11.2926
大彊精進勇	-11.2926
邪正真偽	-11.2926
供給	-11.2926
若有所疑	-11.2926
寶冠瓔珞	-11.2926
當於來世	-11.2926
碓磨	-11.2926
聰慧辯才	-11.2926
闇室	-11.2926
以斯空眼常看空色	-11.2926
劉	-11.2926
及國內人民	-11.2926
敷具	-11.2926
於無量百千萬億恒河沙不可算數佛	-11.2926
未蒙	-11.2926
渴愛	-11.2926
碓磑	-11.2926
讀誦講說	-11.2926
驅使三寶奴婢	-11.2926
龜毛	-11.2926
㖒	-11.2926
不一不二	-11.2926
乃能解心之	-11.2926
五陰三毒	-11.2926
以惠力	-11.2926
以自防	-11.2926
佐曳	-11.2926
佛說七千佛神符經	-11.2926
佛說山海慧菩薩經	-11.2926
共同一處	-11.2926
勿有量	-11.2926
句樓秦佛	-11.2926
命終之日	-11.2926
哆訶	-11.2926
嚧難悉談婆也	-11.2926
大般涅槃經	-11.2926
天眼者	-11.2926
如波羅奢花	-11.2926
妙高山	-11.2926
嬈惱	-11.2926
寫一本免一	-11.2926
屋裏	-11.2926
常使是人臥	-11.2926
悉無殊	-11.2926
慈仁問八十種好經	-11.2926
懈怠者	-11.2926
我實未能	-11.2926
拔箭	-11.2926
攢婆也攢婆也	-11.2926
於此法中	-11.2926
是太一洪源神變	-11.2926
晃	-11.2926
普賢行等覺已	-11.2926
會吾意	-11.2926
月殿	-11.2926
欝離	-11.2926
正修內	-11.2926
波佐	-11.2926
無本無住	-11.2926
百二十賢君	-11.2926
符厭兵	-11.2926
第一虐病	-11.2926
緋	-11.2926
緯	-11.2926
解脫之果	-11.2926
言語道斷	-11.2926
變顯現	-11.2926
迴向願我亦同於	-11.2926
遙聞	-11.2926
錫杖	-11.2926
馱也牟訶也牟訶也	-11.2926
黃金水精作	-11.2926
侍郎昭文館學士	-11.2926
本免一	-11.2926
勸善經一卷	-11.2926
娑婆訶	-11.2926
寫兩本免	-11.2926
方寸七	-11.2926
每日念阿彌陀佛一千	-11.2926
眾生故即現	-11.2926
符厭日遊土氣之鬼	-11.2926
頒下諸州	-11.2926
伎	-11.2927
章句	-11.2927
金有陀羅尼經	-11.2927
佛說父母恩重經	-11.2927
雷鳴雨	-11.2927
遊於三世人師子	-11.2927
覆蓋汝等功	-11.2927
毀辱	-11.2927
▁薩	-11.2927
近惡友	-11.2927
常得聞正法	-11.2927
如汝所問	-11.2927
文勢	-11.2927
毘舍	-11.2927
為法喪身	-11.2927
萬倍報	-11.2927
一心一佛一性	-11.2927
云何可度	-11.2927
亦當讀誦此經典	-11.2927
南無普攝	-11.2927
卜問	-11.2927
同號普	-11.2927
坐寶蓮華	-11.2927
無染常淨	-11.2927
十方無量剎	-11.2927
如似俗人	-11.2927
年此日	-11.2927
恒常術	-11.2927
所作法事	-11.2927
於是道人	-11.2927
破封	-11.2927
說不退法	-11.2927
阿彌陀佛處於	-11.2927
麥	-11.2927
五無間等諸	-11.2927
佛說天公經	-11.2927
依經我略	-11.2927
六十萬世	-11.2927
十方各有十佛剎微塵數同號	-11.2927
受持此經之人	-11.2927
受持此經典者	-11.2927
常與明師相	-11.2927
彼行是等諸善	-11.2927
新菩薩經一卷	-11.2927
此普賢願	-11.2927
海令圓滿諸佛	-11.2927
海令清淨諸	-11.2927
海令解脫	-11.2927
淨普賢如何	-11.2927
滂	-11.2927
種種諸形相	-11.2927
舟	-11.2927
覺轉法輪示	-11.2927
譬如春月	-11.2927
輪輻	-11.2927
譏	-11.2927
統領	-11.2928
入阿鼻地	-11.2928
佛說善惡因果經	-11.2928
如來弟子眾	-11.2928
常願與	-11.2928
亦作紫磨金色	-11.2928
他軍眾	-11.2928
併	-11.2928
十五同號	-11.2928
汝諦聽受持	-11.2928
綖	-11.2928
雷電霹靂	-11.2928
兒息	-11.2928
作魅蠱	-11.2928
荷	-11.2928
若讀	-11.2928
從畜生出	-11.2928
出現於世	-11.2929
開示普賢	-11.2929
暖	-11.2929
勸請隨喜	-11.2929
四維上下	-11.2929
二億一千	-11.2929
但自觀身	-11.2929
作無量形	-11.2929
南無海德	-11.2929
四天大王	-11.2929
地自然生	-11.2929
孝順父母	-11.2929
眼耳鼻舌身意	-11.2929
碁	-11.2929
見佛禮拜	-11.2929
阿毘	-11.2929
以何等隨隨自性流	-11.2929
冶	-11.2929
從索物	-11.2929
復言隨自性流	-11.2929
心滅意	-11.2929
悼	-11.2929
愚夫不了	-11.2929
此父母出生應佛緣佛報佛	-11.2929
爾時除疑大士蒙佛	-11.2929
真實不虛	-11.2929
知眼屬緣	-11.2929
羯磨布薩	-11.2929
翁	-11.2929
豹	-11.2929
非無非不	-11.2929
餘習未	-11.2929
高貴	-11.2929
不動身心	-11.2929
亦復歸命下方	-11.2929
佛說延壽命經	-11.2929
佛說無常三啟經	-11.2929
像法決疑經	-11.2929
允	-11.2929
六百同號	-11.2929
去世後我等當流布	-11.2929
同下方名	-11.2929
哺	-11.2929
在中住	-11.2929
執仗	-11.2929
姊妹相將	-11.2929
婆毘	-11.2929
已即時	-11.2929
彼方眾生謂言	-11.2929
懃行精進	-11.2929
於光中觀	-11.2929
智慧隨身	-11.2929
果生方	-11.2929
死獄死之	-11.2929
瀅	-11.2929
為壞貪	-11.2929
煩惱際我之願際量亦	-11.2929
瑋	-11.2929
百日之中	-11.2929
眾魔比丘	-11.2929
聞法因緣	-11.2929
能得佛意	-11.2929
自然來至	-11.2929
誘教法	-11.2929
諸佛人及諸	-11.2929
陰氣漸	-11.2929
頻那	-11.2929
鬪	-11.2929
摩頂	-11.2929
▁2917	-11.2929
一切眾生身內二種	-11.2929
得大陀羅尼	-11.2929
震大法雷	-11.293
光焰	-11.293
入佛知見	-11.293
生懈怠	-11.293
符厭比舍五土	-11.293
鈍	-11.293
世尊今欲	-11.293
大眾及寶明菩薩	-11.293
復入諸小	-11.293
爾時迦難羅	-11.293
鴦	-11.293
令失道	-11.293
我不應得佛	-11.293
鬼神妖魅	-11.293
南無二萬	-11.293
譽	-11.293
如護眼	-11.293
如是等菩薩摩訶薩	-11.293
為貪命	-11.293
若有依者	-11.293
令其官	-11.293
勢力自在	-11.293
不如復有	-11.293
亦復歸命北方	-11.293
兩片	-11.293
十同號光明	-11.293
唵	-11.293
得無漏	-11.293
所造佛像	-11.293
盡於虛空	-11.293
縠	-11.293
諸惡友是人速見阿彌陀	-11.293
無別心	-11.293
寶蓋	-11.2931
一時薄伽梵	-11.2931
隨次	-11.2931
五十同號	-11.2931
令此眾生	-11.2931
前以頭面著地	-11.2931
真佛弟子	-11.2931
絕穀	-11.2931
講堂	-11.2931
芝	-11.2931
山西日	-11.2931
莊	-11.2931
漏盡	-11.2931
鉢羅華	-11.2932
娑	-11.2932
忉利天	-11.2932
奸	-11.2932
七重寶山及	-11.2932
志誠	-11.2932
持者為	-11.2932
是即名為	-11.2932
解一句	-11.2932
妻兒	-11.2932
媒	-11.2932
嫁得夫主	-11.2932
汝向所問云何	-11.2932
良久	-11.2932
誇	-11.2932
亡心息意	-11.2932
修何功德	-11.2932
債	-11.2932
十八者見女人	-11.2932
如斯人	-11.2932
我等眷屬常來	-11.2932
揵	-11.2932
本無所有	-11.2932
沙訶	-11.2932
第十五天上人	-11.2932
置三乘	-11.2932
萬代	-11.2932
請僧在寺	-11.2932
三千餘人	-11.2932
不洗一切	-11.2932
五百同號日	-11.2932
佛說地藏菩薩經	-11.2932
作義井	-11.2932
力圓滿普賢行行力諸	-11.2932
助三厨	-11.2932
十方各有萬佛剎微塵數同號	-11.2932
取得一	-11.2932
吉日然始	-11.2932
名為經卷亦名法	-11.2932
名為繼縛	-11.2932
哆滿怛囉阿地	-11.2932
大乘最為	-11.2932
大智力智	-11.2932
如上之罪	-11.2932
富㝹尼	-11.2932
希儞希儞希	-11.2932
從頂至下根凡高	-11.2932
微罪所追	-11.2932
忙	-11.2932
慎勿	-11.2932
慧眼故	-11.2932
所謂依	-11.2932
斷諸煩惱	-11.2932
智明三昧	-11.2932
水大病本亦有百一	-11.2932
法明三昧	-11.2932
波叫聲	-11.2932
泯歸	-11.2932
獲如是福	-11.2932
畔佐也	-11.2932
等相無故斷	-11.2932
而此功德	-11.2932
色聲香味	-11.2932
若作他	-11.2932
著綵色衣	-11.2932
親駄	-11.2932
言語此人	-11.2932
訖梨	-11.2932
訶婆	-11.2932
這	-11.2932
進力不敢停	-11.2932
鐵山王	-11.2932
陰垢	-11.2932
惺	-11.2932
決罪福經	-11.2932
短小	-11.2932
太子右	-11.2932
佛語不虛	-11.2933
呪水七遍	-11.2933
符厭赤舌之鬼	-11.2933
符厭遊天之	-11.2933
芽	-11.2933
為其說法斷諸結漏得羅漢道	-11.2933
常得親	-11.2933
彈指	-11.2933
交報	-11.2933
有情類	-11.2933
於僧中起邪見	-11.2933
是名為實	-11.2933
祀	-11.2933
鎌	-11.2933
教化諸眾生	-11.2933
破落毀壞	-11.2933
諦信之	-11.2933
七殺如	-11.2933
南無山海慧	-11.2933
南無弗沙	-11.2933
四毒惡	-11.2933
圓具	-11.2933
身皮肉筋	-11.2933
不如早	-11.2933
亦復歸命南方	-11.2933
今當請龍	-11.2933
佛為心王菩薩說投陀經	-11.2933
供齋	-11.2933
信即成最勝功德聚	-11.2933
呼呼	-11.2933
太府	-11.2933
年歲次	-11.2933
或有闇取	-11.2933
故號世尊	-11.2933
於其住處	-11.2933
於勝菩提	-11.2933
是汝明燈	-11.2933
枯木	-11.2933
目錄	-11.2933
老病死苦常	-11.2933
豚	-11.2933
銅柱	-11.2933
隨逐是人	-11.2933
惡心瞋心	-11.2934
鷄子	-11.2934
貸	-11.2934
兔	-11.2934
如不諍	-11.2934
跋陀羅	-11.2934
匙	-11.2934
畫	-11.2934
絹帛	-11.2934
如無簡擇	-11.2934
讚僧寶	-11.2934
二千	-11.2934
此印便	-11.2934
敬仰	-11.2934
佛說語已	-11.2934
山北日	-11.2935
而說偈	-11.2935
不授我記及汝名	-11.2935
填	-11.2935
此會眾及未來	-11.2935
爾時雀梨浮圖	-11.2935
四十二億諸	-11.2935
圓融	-11.2935
如無授者	-11.2935
熒惑星	-11.2935
金剛堅彊	-11.2935
頑愚	-11.2935
護身命經	-11.2935
郡縣	-11.2935
散著無極之	-11.2935
疫氣	-11.2935
稱為解脫	-11.2935
初誦至第三日	-11.2935
得失交競	-11.2935
終朝	-11.2935
身意快然	-11.2935
伐樹不去	-11.2935
墓	-11.2935
契要	-11.2935
疾疫	-11.2935
總持無量	-11.2935
見一道人	-11.2935
針炙	-11.2935
上持五戒得生其國	-11.2935
億劫受	-11.2935
媾	-11.2935
故云皆得	-11.2935
是時大婦	-11.2935
毀譽	-11.2935
躁	-11.2935
雖造塔寺	-11.2935
頹	-11.2935
一切皆心心	-11.2935
不住明空	-11.2935
不畏諸魔外道之難	-11.2935
二千同號	-11.2935
五百仙人	-11.2935
仲	-11.2935
修慈悲心	-11.2935
內朗	-11.2935
及諸尊菩薩	-11.2935
受持者書寫	-11.2935
囹圄繫閉	-11.2935
大因大	-11.2935
天眼觀	-11.2935
宿基	-11.2935
屠兒行上	-11.2935
從心化生	-11.2935
從是已後	-11.2935
悉皆諍	-11.2935
悉能容受	-11.2935
愛見等者	-11.2935
我於千劫中算	-11.2935
我滅度已	-11.2935
是波浪	-11.2935
晨夜	-11.2935
普賢此行願	-11.2935
歡欣無量	-11.2935
氣多則多見	-11.2935
法身惠命	-11.2935
湛然常一	-11.2935
為我廣分別	-11.2935
無始無明	-11.2935
無學無憂	-11.2935
發無上菩提心	-11.2935
眾故非生	-11.2935
知嗔等	-11.2935
秡	-11.2935
纏縛	-11.2935
習行離欲	-11.2935
膠	-11.2935
苞羅	-11.2935
解空相三昧	-11.2935
論肉價	-11.2935
諸餘外道行者遍遊罣形	-11.2935
變為狐	-11.2935
身根具足	-11.2935
身長丈	-11.2935
還喚	-11.2935
闕於方便	-11.2935
阿脩羅	-11.2935
體融大寂相即	-11.2935
懃心精進	-11.2935
口銜	-11.2935
倦	-11.2935
得何等	-11.2936
奉勅	-11.2936
火焰	-11.2936
伴	-11.2936
於我法中	-11.2936
但求名聞	-11.2937
忉利天宮	-11.2937
溝	-11.2937
雨華動地	-11.2937
▁2901	-11.2937
美味	-11.2937
爾時乾闥婆王	-11.2937
甦	-11.2937
知此光	-11.2937
繭	-11.2937
行知語應受	-11.2937
解人疑難	-11.2937
誦此偈	-11.2937
部洲	-11.2937
三月四月	-11.2937
不求多文以取證義	-11.2937
亦無增減	-11.2937
以一味	-11.2937
常生邪見	-11.2937
得好衣	-11.2937
此大眾中	-11.2937
此經一名	-11.2937
漸沒	-11.2937
火焚燒	-11.2937
災變	-11.2937
牛驢	-11.2937
療諸	-11.2937
釧	-11.2937
經今	-11.2937
犁耕	-11.2937
妙良	-11.2937
及諸天龍八部鬼神	-11.2938
山南日	-11.2938
白銀作中	-11.2938
在所墮生常	-11.2938
縣官水火	-11.2938
甚難甚難	-11.2938
炙肉之人	-11.2938
卦	-11.2938
即與我受記	-11.2938
第十七	-11.2938
覺已知無	-11.2938
降伏外道	-11.2938
仙人玉女	-11.2938
或作畫師	-11.2938
智慧勇健	-11.2938
號明法王如來	-11.2938
阿波	-11.2938
屠兒	-11.2938
無定所	-11.2938
逆風	-11.2938
云何更作心	-11.2938
借取乞	-11.2938
兩膝	-11.2938
役使	-11.2938
或在巷路	-11.2938
朋友知識	-11.2938
枝條因	-11.2938
繼繼	-11.2938
迦羅	-11.2938
、《	-11.2938
一千同號離	-11.2938
一月六齋年	-11.2938
九十日	-11.2938
今復自在	-11.2938
他所敵軍不能侵	-11.2938
佛欲出世懃	-11.2938
佛言下答	-11.2938
六十二億	-11.2938
其土人民	-11.2938
南無妙德	-11.2938
受持讀誦書寫流通	-11.2938
塼	-11.2938
墮落三塗	-11.2938
大士菩薩等	-11.2938
太寧寺	-11.2938
妄生染著	-11.2938
妨害	-11.2938
宿種善	-11.2938
小鐵圍小	-11.2938
巷巷相當門門相	-11.2938
帶印人	-11.2938
床蓐	-11.2938
得大總持	-11.2938
從何所出	-11.2938
惡虫入	-11.2938
或兄	-11.2938
於此中生	-11.2938
時節欲到	-11.2938
此印便得	-11.2938
涅槃非有	-11.2938
無中夭	-11.2938
無礙菩薩摩訶薩聞法歡喜	-11.2938
無處不遍	-11.2938
狂花	-11.2938
痒	-11.2938
百億世界	-11.2938
皆使聞之	-11.2938
眾生見之心生	-11.2938
稱讚	-11.2938
若自求者	-11.2938
觀益中有	-11.2938
諸聲聞凡夫	-11.2938
諾	-11.2938
鎧仗防	-11.2938
餘糧	-11.2938
鬚眉	-11.2938
百億須彌山	-11.2938
色與心	-11.2939
駄	-11.2939
死墮飲銅地獄中	-11.2939
伏連之鬼	-11.2939
符厭死喪新舊注雌雄破	-11.2939
交流	-11.2939
流涕	-11.2939
三升	-11.2939
世榮	-11.2939
糧	-11.2939
誘	-11.2939
墮黑闇地獄	-11.2939
號釋迦牟尼	-11.294
惻	-11.294
若知心	-11.294
七十萬	-11.294
照東方	-11.294
唯除一闡提	-11.294
威儀具足	-11.294
諸樹行列	-11.294
一時成佛	-11.294
以善意	-11.294
得菩薩身	-11.294
愕	-11.294
聲聞二乘	-11.294
佛說齋法清淨經	-11.294
修道之人	-11.294
膿血	-11.294
願諸福	-11.294
家富	-11.294
無以可	-11.294
諸惡鬼神	-11.294
作畜	-11.294
四部眾	-11.294
重禁	-11.294
貪嗔	-11.294
度苦難	-11.2941
甘雨	-11.2941
人當	-11.2941
山東日	-11.2941
有為空	-11.2941
紫金作中	-11.2941
和九流	-11.2941
南無龍種	-11.2941
群品	-11.2941
脫亦難	-11.2941
臨命終時	-11.2941
饍	-11.2941
造此經一	-11.2941
信實者少	-11.2941
安住佛法中	-11.2941
市肆販賣	-11.2941
含笑	-11.2941
斷惡從善	-11.2941
是四依	-11.2941
比婆	-11.2941
經莫不開解	-11.2941
醉酒	-11.2941
阿闍梨	-11.2941
三萬佛同根本神	-11.2941
係心在	-11.2941
傾動	-11.2941
初偈明	-11.2941
勿於僧中	-11.2941
周旋	-11.2941
墮泥犁	-11.2941
大小悉皆為火	-11.2941
峪	-11.2941
巡	-11.2941
得出火宅	-11.2941
心生慈悲	-11.2941
性一性	-11.2941
智者呵責	-11.2941
正真路	-11.2941
此經多饒	-11.2941
法句經疏	-11.2941
無上慈父將	-11.2941
當努力	-11.2941
盡欲大樂	-11.2941
空寂無生	-11.2941
行同凡夫	-11.2941
變作人像	-11.2941
辦	-11.2941
逕年度月	-11.2941
違理太甚	-11.2941
顛倒情奢	-11.2941
飽滿	-11.2941
二萬同號	-11.2941
何況有人而得	-11.2941
作是說	-11.2941
刀杖	-11.2941
初舉果勸	-11.2941
十方各有百萬佛剎微塵數同號金剛	-11.2941
取水三升	-11.2941
大法聚池	-11.2941
如種菓	-11.2941
妬磨	-11.2941
常住湛然不動累劫慈悲	-11.2941
懃行勸	-11.2941
椀	-11.2941
欲意者變	-11.2941
無心無心	-11.2941
種姓	-11.2941
空無相無作	-11.2941
羆	-11.2941
莫呼洛迦	-11.2941
行行如海	-11.2941
諸惡毒	-11.2941
賢者阿難	-11.2941
身心是佛法器	-11.2941
輕衣	-11.2941
離希	-11.2941
非是生滅之	-11.2941
雖無	-11.2942
即授	-11.2942
伐	-11.2942
佛在舍衛國	-11.2943
九百九十九	-11.2943
憎愛	-11.2943
達深義	-11.2943
如是說者是	-11.2943
南無三萬	-11.2943
受畜生身	-11.2943
寥	-11.2943
不懈怠	-11.2943
不得嬈	-11.2943
裹	-11.2943
輕賤我法	-11.2943
阿彌陀佛現大神通	-11.2943
雜藥	-11.2943
一心合掌白佛言	-11.2943
不能隨喜	-11.2943
携	-11.2943
流離光	-11.2943
無明力所	-11.2943
窖	-11.2943
華臺	-11.2943
陀婆羅	-11.2943
𣿖	-11.2943
授我	-11.2943
觀世音菩薩摩訶薩	-11.2943
所有珍寶	-11.2944
壽二千	-11.2944
若有有情	-11.2944
要藉	-11.2944
欺誑	-11.2944
憂怖	-11.2944
更無外	-11.2944
縱廣三十	-11.2944
其聲遍滿	-11.2944
勵	-11.2944
律儀	-11.2944
諸魔外道	-11.2944
喻彰	-11.2944
壽命延長	-11.2944
如來慧光	-11.2944
心不緣	-11.2944
文字經教	-11.2944
於三寶所	-11.2944
更相依持	-11.2944
死墮毒蛇	-11.2944
殞	-11.2944
生滅不住	-11.2944
緣外境界	-11.2944
萬法緣生	-11.2944
認	-11.2944
鬪亂人	-11.2944
世有十倍	-11.2944
二鼠嚙	-11.2944
佛復語	-11.2944
倫	-11.2944
八輩	-11.2944
前中初牒	-11.2944
喜養	-11.2944
囉佐也	-11.2944
如赤子	-11.2944
妙色三昧	-11.2944
妾母	-11.2944
并諸寶物	-11.2944
幻師弟子	-11.2944
張眼	-11.2944
我見顛倒	-11.2944
所有餘食	-11.2944
昊	-11.2944
明流通分	-11.2944
有六千四百種	-11.2944
板	-11.2944
槃馬	-11.2944
欲知比	-11.2944
沾及	-11.2944
湧泉	-11.2944
炳	-11.2944
疽恚嫉妬	-11.2944
眾生死盡	-11.2944
種族	-11.2944
箜	-11.2944
維摩度人	-11.2944
耳眼鼻舌身意	-11.2944
若有見聞	-11.2944
諸道義	-11.2944
諸陽漸	-11.2944
護持禁戒	-11.2944
象應	-11.2944
選	-11.2944
都無生處	-11.2944
香林三昧	-11.2944
龍王降雨	-11.2944
破滅	-11.2945
加羅	-11.2945
現見	-11.2945
土不相刻符	-11.2945
第三救護身命符	-11.2945
第五注生人阿姬死鬼秏	-11.2945
第四金木水	-11.2945
仰請	-11.2945
在閻浮	-11.2945
不遠	-11.2945
壽四千	-11.2946
終日竟夜	-11.2946
縣官口舌	-11.2946
第十四	-11.2946
如法住	-11.2946
發無上菩提之心	-11.2946
相續不	-11.2946
蠲除	-11.2946
讚誦	-11.2946
鄭	-11.2946
倍增疑	-11.2946
償宿	-11.2946
刀林	-11.2946
教如實觀	-11.2946
百姓	-11.2946
第一心開符	-11.2946
第二益算符	-11.2946
佛道場生	-11.2946
分段	-11.2946
流通此經	-11.2946
莊嚴妙好	-11.2946
七寶宮殿	-11.2946
南無阿閦	-11.2946
惡國不	-11.2946
日服三	-11.2946
正真之道	-11.2946
菩提行願	-11.2946
一移	-11.2946
雲自在	-11.2946
懊	-11.2946
撲	-11.2946
衣覆	-11.2947
種植	-11.2947
不復覩見如來	-11.2947
月八日	-11.2947
六十日	-11.2947
空王佛時	-11.2947
漸衰	-11.2947
說食與人	-11.2947
西廂	-11.2948
促短	-11.2948
撮	-11.2948
殺數千人	-11.2948
躄	-11.2948
三寶奴婢	-11.2948
客僧	-11.2948
無動亂故則	-11.2948
朦	-11.2948
獄囚	-11.2948
眾塵勞	-11.2948
第十三	-11.2948
良賢	-11.2948
走避	-11.2948
三事空	-11.2948
刀山地獄	-11.2948
諸龍鬼神	-11.2948
二乘所	-11.2948
任他	-11.2948
名之為偽	-11.2948
掩	-11.2948
湛然不動	-11.2948
無明根本	-11.2948
百日已來每夢見得世間上味	-11.2948
究竟大悲經卷第四	-11.2948
諸導師	-11.2948
鴿	-11.2948
令修解行	-11.2948
僧菓子者	-11.2948
墮於惡道	-11.2948
并無兒	-11.2948
未滿十	-11.2948
生疑不信	-11.2948
鞍	-11.2948
□□□,□□□□□□□,	-11.2948
一味之雨	-11.2948
三長齋	-11.2948
下類凡夫	-11.2948
了了見	-11.2948
今世數逢	-11.2948
借貸	-11.2948
傷已迷	-11.2948
其狀如	-11.2948
初明普光大眾	-11.2948
去地一千尺	-11.2948
吾今為汝廣開	-11.2948
嘷	-11.2948
孚	-11.2948
寶明請問	-11.2948
并及國界臣	-11.2948
心妬心殺	-11.2948
懃心作	-11.2948
是以故天下	-11.2948
洞好	-11.2948
淩	-11.2948
無同無不同	-11.2948
無義語	-11.2948
無量無邊恒沙	-11.2948
男陽	-11.2948
癡愛欲	-11.2948
第四句釋	-11.2948
絞假	-11.2948
維摩朔	-11.2948
緻	-11.2948
聖君	-11.2948
胭	-11.2948
能為父母作福造經	-11.2948
與眾生作	-11.2948
若不發問	-11.2948
若老若少皆	-11.2948
莖節	-11.2948
蕩除	-11.2948
見一老	-11.2948
雖不是於	-11.2948
非異非	-11.2948
預	-11.2948
來詣佛	-11.2948
卜	-11.2948
不聞真法	-11.2948
種種形	-11.2949
說斯決定	-11.2949
射箭	-11.2949
能依本師	-11.2949
於是眾中	-11.2949
祭	-11.2949
其身長大	-11.2949
能令汝等	-11.2949
譬如盲人	-11.2949
鐵鉤	-11.2949
一佛境界百億	-11.2949
特	-11.2949
一心奉行作禮而去	-11.2949
初不聞	-11.2949
婬女	-11.2949
百節	-11.2949
匃	-11.2949
如此經教	-11.2949
從今無有或	-11.2949
怯	-11.2949
斷攀緣	-11.2949
聞種種法	-11.2949
一切眾生造立	-11.2949
濟拔	-11.2949
色亦有	-11.2949
說是大乘	-11.2949
雜物	-11.2949
斂治	-11.2949
止宿	-11.2949
超過	-11.2949
與藥	-11.2949
人名字	-11.295
有一童子	-11.295
澡	-11.295
首羅比丘經	-11.295
長齋	-11.295
教他	-11.2951
下地菩薩之所	-11.2951
魄	-11.2951
在日月宮中	-11.2951
門戶井竈	-11.2951
滿七日	-11.2951
譬如慈母	-11.2951
均	-11.2951
成大樹	-11.2951
披折	-11.2951
炒	-11.2951
隻	-11.2951
他婦女	-11.2951
動之類	-11.2951
涉路	-11.2951
諱	-11.2951
不得顯用	-11.2951
其池四岸有種種	-11.2951
唯願指授	-11.2951
對眼為	-11.2951
并共	-11.2951
徐	-11.2951
恒受快樂	-11.2951
方便隨宜	-11.2951
歌舞作	-11.2951
說有鬼	-11.2951
負重	-11.2951
妄識不	-11.2951
容顏	-11.2951
徑	-11.2951
無數精進	-11.2951
熏習	-11.2951
越三界	-11.2951
不能解我	-11.2951
其罪亦	-11.2951
吾當出世	-11.2951
禱	-11.2951
綿	-11.2951
翅	-11.2951
蒙度	-11.2951
一切諸魔	-11.2951
下對境修	-11.2951
不可為實	-11.2951
亦有亦無	-11.2951
伏圖	-11.2951
但叉	-11.2951
信聖情慇	-11.2951
吾為汝說	-11.2951
哀愍我等	-11.2951
嗅香	-11.2951
圜中	-11.2951
地肥	-11.2951
士庶	-11.2951
天地破壞	-11.2951
展轉三	-11.2951
從因緣生	-11.2951
復作何	-11.2951
心自忓清	-11.2951
忱	-11.2951
愆	-11.2951
懃行流布	-11.2951
應佛緣佛報佛	-11.2951
戒定智慧	-11.2951
戚	-11.2951
所同無異	-11.2951
本來不動也	-11.2951
求其長短	-11.2951
無是可是	-11.2951
聰明智慧	-11.2951
自下大文第三	-11.2951
若持明呪	-11.2951
菩薩辟支	-11.2951
處於大眾中	-11.2951
說大乘法	-11.2951
貪嗔等或	-11.2951
賢善大士	-11.2951
闇誦棄惡從善	-11.2951
馳散	-11.2951
體性清淨	-11.2951
與無量菩薩	-11.2951
七月十	-11.2951
受持讀誦書寫	-11.2952
娑羅樹王	-11.2952
亦復不為	-11.2952
雲除	-11.2952
一百八	-11.2952
不得橫來	-11.2952
冥覺	-11.2952
數千萬劫	-11.2952
無能勝	-11.2952
燒香請	-11.2952
娛	-11.2952
奉詔譯	-11.2953
係	-11.2953
無倦	-11.2953
巷	-11.2953
究竟大悲經卷第二	-11.2953
佛說天地八陽神呪經	-11.2953
黑風	-11.2953
莫使	-11.2953
藝	-11.2954
兜	-11.2954
光輝	-11.2954
破齋夜食	-11.2954
破我法者	-11.2954
色亦無實	-11.2954
作車牛	-11.2954
密教	-11.2954
并聞正法	-11.2954
怨親	-11.2954
爛壞	-11.2954
人二十萬	-11.2954
名稱遠聞	-11.2954
欲言其	-11.2954
水煮之	-11.2954
用無窮盡	-11.2954
粟深	-11.2954
貢高自恃	-11.2954
前後圍繞	-11.2954
十二因緣法	-11.2954
小教法	-11.2954
彌勒出世	-11.2954
復離此	-11.2954
憶想	-11.2954
搏	-11.2954
柱上懸金	-11.2954
泆	-11.2954
背負	-11.2954
轉名無	-11.2954
陰陽氣以	-11.2954
丁香	-11.2954
七寶瓔珞	-11.2954
上三句明	-11.2954
五陰有故	-11.2954
取蜜	-11.2954
可受不	-11.2954
妄心無本	-11.2954
己身明淨如	-11.2954
并餘	-11.2954
於我滅度後	-11.2954
明呪祕呪一切諸藥	-11.2954
棗	-11.2954
業而生	-11.2954
無所罣礙	-11.2954
珠珍瓔珞	-11.2954
琶	-11.2954
真容	-11.2954
眾多劫	-11.2954
祐	-11.2954
而立呪誓	-11.2954
若如是者	-11.2954
說此過現未來三世諸佛	-11.2954
讓利先人自居不足	-11.2954
貪法愛道順善	-11.2954
顯發	-11.2954
凶禍	-11.2955
追	-11.2955
飲噉	-11.2955
三法衣	-11.2955
崇重	-11.2955
吐火	-11.2955
復以香	-11.2955
無垢清淨	-11.2955
作是觀已	-11.2955
尅	-11.2955
皆由寶車	-11.2955
唯願世尊分明	-11.2955
樹木	-11.2955
菩提無上	-11.2955
得阿羅漢身	-11.2956
慈光	-11.2956
或自己身	-11.2956
若侵損	-11.2956
象王	-11.2956
淨穢	-11.2956
不生邪見	-11.2956
蓋障	-11.2956
補	-11.2956
尋光	-11.2957
手把金杖	-11.2957
曳	-11.2957
東廂	-11.2957
怛	-11.2957
蜂王	-11.2957
下第三總結	-11.2957
混融大寂	-11.2957
劬	-11.2957
究之無實	-11.2957
二十三日	-11.2957
或尊或	-11.2957
不淨以為	-11.2957
彰善友功能	-11.2957
忉利天王	-11.2957
殘罪所追	-11.2957
水火盜賊	-11.2957
須彌山頭	-11.2957
鼓舞	-11.2957
以慈悲故影現	-11.2957
依之修習	-11.2957
俱遊	-11.2957
八功德水	-11.2957
對十方一切諸佛	-11.2957
對機說授	-11.2957
小乘九部	-11.2957
悟達本無	-11.2957
揣食入口	-11.2957
未來諸佛名	-11.2957
此八種人	-11.2957
死墮鐵丸地獄	-11.2957
獲得無量	-11.2957
秋	-11.2957
聽食肉者	-11.2957
至于	-11.2957
都由	-11.2957
項背光明	-11.2957
願畢	-11.2957
鼻香	-11.2957
下明寂滅	-11.2957
千支	-11.2957
南無善德	-11.2957
太和	-11.2957
寶塔今	-11.2957
尅印	-11.2957
想牽	-11.2957
教汝處	-11.2957
法第一世尊	-11.2957
流星	-11.2957
略舉	-11.2957
眾魔惡鬼	-11.2957
聲聞凡夫人	-11.2957
蠶蟲	-11.2957
觚	-11.2957
訊	-11.2957
試印	-11.2957
轉輪座	-11.2957
飢餓眾生	-11.2957
鳩槃荼鬼	-11.2957
廟	-11.2958
五大城	-11.2958
赤白	-11.2958
安穩處	-11.2959
寶明名字	-11.2959
須彌山頂	-11.2959
十方三世佛	-11.2959
西俱耶尼	-11.2959
大導師	-11.2959
生善道	-11.2959
鉢盂	-11.2959
恒居	-11.2959
如法修行	-11.2959
一性金剛	-11.2959
大浮圖	-11.2959
誦讀	-11.2959
雖蒙	-11.2959
達縛	-11.2959
陀伽	-11.2959
舍利	-11.2959
恒寂	-11.2959
幽幽	-11.2959
甑	-11.2959
自恃	-11.2959
人輕賤	-11.296
稷	-11.296
招禍	-11.296
或正月	-11.296
罵僧	-11.296
黑暗	-11.296
皆不具足	-11.296
空無有無	-11.296
捕	-11.296
精微	-11.296
靉靆垂布	-11.296
三毒中修	-11.296
公卿	-11.296
增壽益算	-11.296
孝養	-11.296
拱	-11.296
未曾暫	-11.296
萬法平等	-11.296
一切檀越	-11.296
信女等	-11.296
光照獄門開	-11.296
已下舉	-11.296
於虛空中凝然	-11.296
法觀者	-11.296
濁水	-11.296
盻	-11.296
趙	-11.296
身處光明臺炎赫如	-11.296
上中下	-11.296
他心智	-11.296
吾欲畏是故求道	-11.296
問八十種好	-11.296
土地出	-11.296
在閻浮提	-11.296
如是難知	-11.296
妄情	-11.296
妻婦	-11.296
愚癡之人	-11.296
捉波梨	-11.296
時即名為	-11.296
最居	-11.296
汝當受持	-11.296
沈沒	-11.296
獨覺	-11.296
花菓	-11.296
訶烏那致	-11.296
諸惡獸	-11.296
身中事	-11.296
手觸	-11.2961
淨慧	-11.2961
能於此經	-11.2962
除斷無量	-11.2962
晝夜擁護令	-11.2962
備足	-11.2962
廣博	-11.2962
中見	-11.2962
東弗	-11.2962
慈愍一切眾生	-11.2962
歎息	-11.2962
無有彼此	-11.2962
盡消除	-11.2962
輝	-11.2962
妖	-11.2962
諸波羅	-11.2962
得瑜伽	-11.2963
世尊云何名	-11.2963
得生其中從此已下	-11.2963
所饒	-11.2963
逕歷	-11.2963
受持五戒	-11.2963
寶明大眾聞法慶喜	-11.2963
值佛聞法	-11.2963
初明眼色	-11.2963
相依二俱	-11.2963
九十地獄	-11.2963
從狗中來	-11.2963
獨語	-11.2963
盲病	-11.2963
若不布施	-11.2963
韻	-11.2963
雜華	-11.2963
地獄刑竟	-11.2963
持具戒	-11.2963
曉了	-11.2963
神州	-11.2963
至誠	-11.2963
誰肯	-11.2963
醫藥	-11.2963
上奏天	-11.2963
低突	-11.2963
役力	-11.2963
彼阿彌陀佛國	-11.2963
聞我說	-11.2963
苦痛難可	-11.2963
中央土	-11.2963
五陰不聽	-11.2963
住持建立	-11.2963
八尺	-11.2963
劫沈淪	-11.2963
動舌轉斷默	-11.2963
員	-11.2963
好勝欺人	-11.2963
封惡	-11.2963
急依	-11.2963
持將去	-11.2963
月英	-11.2963
有津液	-11.2963
正法不識	-11.2963
氣絕	-11.2963
為人黑	-11.2963
當付	-11.2963
病是病	-11.2963
皆枯竭	-11.2963
紀不同	-11.2963
絃	-11.2963
緣在橋	-11.2963
翔	-11.2963
聖志	-11.2963
自然三厨	-11.2963
至人定分	-11.2963
蔽	-11.2963
觀一佛性	-11.2963
設教	-11.2963
陵奪所愛蔓陷師長	-11.2963
非見非說	-11.2963
須彌寶山	-11.2963
若復有人能	-11.2963
久存	-11.2964
音聲三昧	-11.2964
出地獄苦	-11.2964
挾	-11.2964
苞	-11.2964
毘耶	-11.2964
敗	-11.2965
要請	-11.2965
整理威儀	-11.2965
四天王等	-11.2965
皂王神通	-11.2965
而復始	-11.2965
況餘	-11.2965
同號蓮華香	-11.2965
強精進	-11.2965
何期	-11.2965
有罪業	-11.2965
無處所	-11.2965
體一相	-11.2965
勸學	-11.2965
受持守護	-11.2965
紅	-11.2965
從今以	-11.2966
菩薩僧者	-11.2966
橫來	-11.2966
廢	-11.2966
精懃	-11.2966
白疊	-11.2966
觀心相三昧	-11.2966
壞魔	-11.2966
入一乘道	-11.2966
安樂國	-11.2966
日月歲數	-11.2966
力力中力	-11.2966
災殃	-11.2966
離眼之	-11.2966
冥寂	-11.2966
巨	-11.2966
我今語汝	-11.2966
我智慧身	-11.2966
二十日	-11.2967
瘻	-11.2967
若有體應有	-11.2967
死墮蟒蛇	-11.2967
若食肉者	-11.2967
鐘	-11.2967
今現在	-11.2967
令一切皆各	-11.2967
女婦	-11.2967
無目之人	-11.2967
與上同	-11.2967
一切皆如是	-11.2967
七寸	-11.2967
不久速	-11.2967
不大不小	-11.2967
世尊慰問	-11.2967
世間愚癡人不信寶車經	-11.2967
乘空而	-11.2967
兩肩	-11.2967
古今	-11.2967
只為	-11.2967
心行莫緣	-11.2967
念佛三昧	-11.2967
怏	-11.2967
有能受持寶車菩薩經	-11.2967
杜	-11.2967
此二菩薩	-11.2967
盈滿	-11.2967
稱謂斯斷	-11.2967
自固	-11.2967
若不持齋	-11.2967
若提子等	-11.2967
誨	-11.2967
防護口業	-11.2967
鴛鴦	-11.2967
冥冥	-11.2968
棄惡從善	-11.2968
難解難	-11.2968
乃知虛妄	-11.2968
謂呼為實	-11.2968
燒香供養	-11.2968
死而復	-11.2968
海令得	-11.2968
無量音樂	-11.2968
蒲	-11.2969
死墮寒氷地獄	-11.2969
朔	-11.2969
真佛智	-11.297
同一病	-11.297
大陀羅尼呪	-11.297
琉璃作	-11.297
巖	-11.297
懷挾	-11.297
譬之如	-11.297
雨淚	-11.297
寒熱	-11.297
逮無所得	-11.297
午時	-11.297
如半月	-11.297
心自起	-11.297
洗浣	-11.297
重任	-11.297
從心意緣慮中修道	-11.297
竊盜	-11.297
箱	-11.297
三惡趣	-11.297
出一切眾生身內慧命法身	-11.297
又初欲	-11.297
古月	-11.297
在海水中	-11.297
天竺	-11.297
得聞寶車經	-11.297
所觀理顯	-11.297
普容	-11.297
毒乳相和	-11.297
用忍辱作	-11.297
用財貨	-11.297
疫病	-11.297
真金之法	-11.297
祠	-11.297
老不聞	-11.297
耽見之	-11.297
自下第二次	-11.297
至心懺悔	-11.297
舉世無量	-11.297
違彼丘埌	-11.297
邪偽	-11.297
酉子午	-11.297
附傍鬼	-11.297
隆滿	-11.297
雙結	-11.297
靜室	-11.297
非不得樂	-11.297
精氣	-11.297
三種	-11.297
慎水	-11.297
天下大	-11.2971
及七世	-11.2971
若色如是	-11.2971
佛說觀經	-11.2971
輪轉	-11.2971
虛空無礙	-11.2971
摧伏諸	-11.2971
方圓	-11.2971
甘露法	-11.2971
皆現身	-11.2971
量久	-11.2971
作是念已	-11.2972
生老病死	-11.2972
叉手	-11.2972
唯說一	-11.2973
奮迅	-11.2973
當證知	-11.2973
仍	-11.2973
將領	-11.2973
混沌流	-11.2973
總持之	-11.2973
蝎	-11.2973
蹤緒無	-11.2973
平旦時	-11.2973
濁世	-11.2973
百千劫	-11.2973
福盡罪	-11.2973
但以無明	-11.2973
入惡趣	-11.2973
其臭	-11.2973
了境	-11.2973
事興請	-11.2973
以為毒	-11.2973
共坐	-11.2973
即讀此經三遍	-11.2973
壤	-11.2973
如此之事	-11.2973
妙伽他	-11.2973
實諦諸罪	-11.2973
懇悅心	-11.2973
是度眾生	-11.2973
欲求度世道	-11.2973
此飯	-11.2973
沙土	-11.2973
燒好	-11.2973
癸	-11.2973
第六天上	-11.2973
肉髻	-11.2973
讀是經者	-11.2973
過咎	-11.2973
靜住	-11.2973
延年益	-11.2973
施佛	-11.2973
赤眼	-11.2974
誦滿	-11.2974
延長	-11.2974
究竟平等	-11.2974
圓光	-11.2974
與日月同	-11.2974
亡夫	-11.2974
受勅	-11.2974
安得有	-11.2974
小疑	-11.2974
目覩	-11.2975
尚書	-11.2975
爵	-11.2975
九部	-11.2975
生人中	-11.2975
可憐	-11.2975
是空滅	-11.2976
若在病困中	-11.2976
初偈	-11.2976
下正觀中	-11.2976
傷嘆	-11.2976
於是東方	-11.2976
何況凡夫	-11.2976
青龍	-11.2976
成無上道	-11.2976
無不歡喜	-11.2976
豐盈	-11.2976
不動不住	-11.2976
當爾時人	-11.2976
若有奪人	-11.2976
凡愚	-11.2976
損害	-11.2976
星辰	-11.2976
滅福生	-11.2976
聾聽	-11.2976
護諸眾生	-11.2976
長歎	-11.2976
來降伏	-11.2976
借問	-11.2976
前件法	-11.2976
南無法自在	-11.2976
厲	-11.2976
口常說	-11.2976
同輩	-11.2976
土木	-11.2976
如此體解	-11.2976
宮殿樓閣	-11.2976
帝王臣民	-11.2976
師子坐	-11.2976
從地湧出	-11.2976
從穿	-11.2976
急疾	-11.2976
愛敬	-11.2976
普載	-11.2976
汝今應當教諸眾生	-11.2976
法成不	-11.2976
生時不受戒	-11.2976
稍	-11.2976
詮之	-11.2976
遣使者	-11.2976
顛狂	-11.2976
難思	-11.2976
逆罪	-11.2976
千遍	-11.2977
梵釋	-11.2977
未來人天	-11.2977
南無達摩	-11.2977
飯食	-11.2977
轉不退	-11.2977
大乘經典	-11.2978
縱多	-11.2978
世尊我觀如來	-11.2978
是出家人	-11.2978
最尊	-11.2978
縱取	-11.2978
肩	-11.2978
兩金	-11.2978
受供養	-11.2978
者世世見人	-11.2979
於如來滅後	-11.2979
嶮難	-11.2979
鳥鳴	-11.2979
象馬牛羊驢	-11.2979
山林社稷	-11.2979
堂堂	-11.2979
自下別中有	-11.2979
隨其力	-11.2979
智者能	-11.2979
聖尊	-11.2979
虱	-11.2979
逕年	-11.2979
須飲	-11.2979
一切苦厄	-11.2979
二事相須	-11.2979
亦念人	-11.2979
南無電	-11.2979
四十億	-11.2979
已下次	-11.2979
帝釋承書關下	-11.2979
愛網	-11.2979
放恣	-11.2979
毀犯	-11.2979
犬亡	-11.2979
當何以知	-11.2979
百億鐵圍地獄	-11.2979
芒	-11.2979
衰老	-11.2979
鬼獄	-11.2979
晝	-11.298
有愚癡眾生	-11.2981
此諸大眾	-11.2981
一切法定	-11.2981
二明因	-11.2981
作諸功德	-11.2981
方四佛	-11.2981
神器	-11.2981
禪師	-11.2981
迴向經	-11.2981
五星	-11.2981
不合	-11.2981
發菩提	-11.2982
何等功德	-11.2982
善破此	-11.2982
十八界	-11.2982
此上基	-11.2982
面體	-11.2982
邊地下賤	-11.2982
二十二者	-11.2982
賞	-11.2982
雖眾無	-11.2982
心王自在	-11.2982
白虎	-11.2982
面目	-11.2982
功德林	-11.2982
唯願世尊為說	-11.2982
惡罵	-11.2982
歸寂	-11.2982
衰喪	-11.2982
過故得	-11.2982
鬼所病	-11.2982
一震	-11.2982
不老不	-11.2982
修學大乘	-11.2982
出生諸	-11.2982
十善八齋	-11.2982
如願悉得	-11.2982
後世受	-11.2982
我於末世	-11.2982
我能知	-11.2982
欲來時	-11.2982
燒殺	-11.2982
狐魅妖術	-11.2982
真金色	-11.2982
究竟大悲經卷第三	-11.2982
聾盲瘖瘂	-11.2982
赤繩	-11.2982
食粳米	-11.2982
二升	-11.2983
伏地	-11.2983
遍緣	-11.2983
吏	-11.2984
橫病	-11.2984
遠近	-11.2984
婦女	-11.2984
爾時觀世音	-11.2985
終日	-11.2985
不持齋	-11.2985
應立塔廟	-11.2985
有無皆空	-11.2985
則兄弟	-11.2985
當知世間	-11.2985
若無煩惱	-11.2985
亂之世	-11.2985
二明眼色既空	-11.2985
則易	-11.2985
嘉	-11.2985
說行法	-11.2985
隨意所喜	-11.2985
不見諸法	-11.2985
世帝	-11.2985
何得不空	-11.2985
作塔者	-11.2985
出於世間	-11.2985
問深法	-11.2985
天神地	-11.2985
小吏	-11.2985
擲在	-11.2985
沙門梵志	-11.2985
法船	-11.2985
琴戲	-11.2985
相諦觀	-11.2985
礔	-11.2985
自然消滅	-11.2985
若有一人	-11.2985
默誦	-11.2985
決定大乘	-11.2986
作佛事	-11.2986
使諸眾生	-11.2986
梵王	-11.2986
自纏	-11.2987
普示	-11.2987
修行善法	-11.2987
至老	-11.2987
廓	-11.2987
風不動	-11.2987
向所說	-11.2988
到涅槃	-11.2988
食及衣服	-11.2988
乞願	-11.2988
體融	-11.2988
長者子	-11.2988
人發意	-11.2988
惡獸	-11.2988
不孝父母	-11.2988
如是之徒	-11.2989
能因道	-11.2989
那致	-11.2989
大聖垂慈	-11.2989
故言色亦如是	-11.2989
為諸大眾說	-11.2989
醫師	-11.2989
七百年	-11.2989
縱使	-11.2989
若行此行	-11.2989
邪婬	-11.2989
一大城中如是取盡名一	-11.2989
修善奉	-11.2989
健瞋	-11.2989
唵急速訶尼攝	-11.2989
序義	-11.2989
從夢心而現	-11.2989
復問其	-11.2989
忠信孝順	-11.2989
愛喜生	-11.2989
當奈何	-11.2989
當遠求	-11.2989
破塔壞寺	-11.2989
薄德	-11.2989
超勝	-11.2989
顯佛德	-11.2989
破齋	-11.2989
未解	-11.2989
有菩提因	-11.299
迷於正	-11.299
逕生死	-11.299
乃至一闡提	-11.299
存立	-11.299
昇天	-11.299
無能過	-11.299
隨宜	-11.2991
常以軟	-11.2992
塵數	-11.2992
我初聞	-11.2992
從心出	-11.2992
三世諸佛之所	-11.2992
上至諸佛	-11.2992
念妄心	-11.2992
仙賢	-11.2992
先世犯	-11.2992
濟物	-11.2992
熱氣	-11.2992
坐中有	-11.2992
從緣起	-11.2992
割肉	-11.2992
死墮糞	-11.2992
五穀不	-11.2992
幡綵花蓋	-11.2992
人受四	-11.2992
今身禮佛	-11.2992
仙能	-11.2992
大眾之中	-11.2992
室然	-11.2992
平除罪	-11.2992
復有十八	-11.2992
微漸	-11.2992
心明觀察	-11.2992
死墮斬	-11.2992
殺害眾生	-11.2992
誑他取物	-11.2992
謗因緣	-11.2992
貧病	-11.2992
雜香	-11.2992
入一乘	-11.2993
舉足	-11.2993
八種微妙	-11.2993
殿上	-11.2993
所說毘奈耶	-11.2993
火輪	-11.2993
豈能	-11.2993
佛是眾生	-11.2993
眾人樂	-11.2993
不闕	-11.2993
夫天地	-11.2993
如是等罪	-11.2993
能制	-11.2993
離諸著	-11.2993
至他方	-11.2993
廂	-11.2994
了了分明	-11.2995
米五升	-11.2995
百一同號	-11.2995
良善	-11.2995
收萬法	-11.2995
諸法實相	-11.2995
必致	-11.2995
推尋	-11.2995
不相識	-11.2995
輕罪	-11.2995
鐵圍山百億	-11.2995
隱士	-11.2995
方術	-11.2995
求目前	-11.2995
一切混融	-11.2995
七百七十佛下生	-11.2995
不是異	-11.2995
作餅	-11.2995
兩手	-11.2995
其鑛	-11.2995
可得識	-11.2995
喻正明	-11.2995
在北斗星注	-11.2995
如是種種思之念之	-11.2995
實相亦	-11.2995
惡得惡	-11.2995
死墮肉山地獄中	-11.2995
法難聞	-11.2995
生毀謗	-11.2995
者夢墮	-11.2995
而無方便	-11.2995
說所為	-11.2995
負處	-11.2995
佛復告	-11.2995
見振旦國	-11.2995
不須食	-11.2996
聲聞之人	-11.2996
速往	-11.2996
可說百千億那由他佛剎微塵數同號普	-11.2996
禪定智慧	-11.2996
勸諸眾生	-11.2997
大乘決定	-11.2997
令眾得	-11.2998
為作清淨	-11.2998
亦空故	-11.2998
慇重之心	-11.2998
序分	-11.2998
為人奴婢	-11.2998
燃燈燒香	-11.2998
妄繼	-11.2998
屬眼	-11.2998
昔由	-11.2998
東南方	-11.2998
甫	-11.2998
發意作	-11.2998
若名字定無	-11.2998
虎食	-11.2998
赤光	-11.2998
二卷	-11.2998
兜率天上	-11.2998
內外清淨	-11.2998
大海智	-11.2998
扭	-11.2998
毀破	-11.2998
白石	-11.2998
眾寶普集	-11.2998
要他	-11.2998
謂之為實	-11.2998
雜毒善	-11.2998
治化時	-11.3
所度眾生	-11.3
像法時	-11.3
欝金	-11.3
塵勞中	-11.3
為眾生說	-11.3
伏諸魔	-11.3001
心若不	-11.3001
皆同一	-11.3001
以此取	-11.3001
持律	-11.3001
怖魔	-11.3001
身毛孔	-11.3001
萬字	-11.3001
世尊如佛所說	-11.3001
秦言	-11.3001
信誑	-11.3001
公司	-11.3001
如寡女	-11.3001
定無故	-11.3001
寶器	-11.3001
對面	-11.3001
導首	-11.3001
水渧	-11.3001
水穀	-11.3001
無恐懼	-11.3001
萬罪	-11.3001
頭看	-11.3001
父母恩	-11.3002
雲中	-11.3002
惠通	-11.3002
南無照	-11.3002
須九	-11.3002
二十三者	-11.3003
喚聲	-11.3003
會之中	-11.3003
何憂	-11.3003
莊嚴具	-11.3003
閻浮眾生	-11.3003
最是	-11.3003
不得妄	-11.3003
慈哀愍	-11.3004
大威神力	-11.3004
說不以	-11.3004
梨耶	-11.3004
南無慈力	-11.3004
三事俱空	-11.3004
郎	-11.3004
來無所從	-11.3004
幡綵	-11.3004
積著	-11.3004
作何法	-11.3004
是故上盡	-11.3004
示信相	-11.3004
羅大王	-11.3004
諸有智者	-11.3004
以何因緣	-11.3004
來奉佛	-11.3004
假他	-11.3004
初始	-11.3004
千佛符打鍛眾魔	-11.3004
心不隨染	-11.3004
罪垢	-11.3004
覩色	-11.3004
走地	-11.3004
菩薩觀身	-11.3004
於深法	-11.3005
爾時眾中有	-11.3005
竈	-11.3005
入阿鼻地獄	-11.3005
教諸眾生	-11.3006
罪者悉皆	-11.3006
見性	-11.3006
法身光明	-11.3006
此語	-11.3006
吾經者	-11.3007
屬緣	-11.3007
所有未來諸世	-11.3007
與其	-11.3007
畢竟不生	-11.3007
戰鬪	-11.3007
池水	-11.3007
常奉持	-11.3007
理俗	-11.3007
涅槃舍	-11.3007
自下第二以	-11.3007
檀施	-11.3008
空中語	-11.3008
近遠	-11.3008
二事者	-11.3008
呪咀	-11.3008
四天王各	-11.3008
宿業	-11.3008
岸上	-11.3008
悟覺	-11.3008
改形	-11.3008
明八部眾	-11.3008
曲星主	-11.3008
未聞是	-11.3008
棄凡	-11.3008
禍福	-11.3008
積罪	-11.3008
積習	-11.3008
處處皆有	-11.3008
𠿇	-11.3008
萬世	-11.3008
一千五百	-11.3009
消世間	-11.3009
得成已	-11.3009
西北方	-11.3009
及現在	-11.3009
云何於中	-11.3009
兩頭	-11.3009
咸供養	-11.3009
平安	-11.3009
得授記我	-11.3009
方三十八佛	-11.3009
水洗	-11.301
故罪性	-11.301
明呪祕呪藥	-11.301
明深法	-11.301
正念解脫	-11.301
當得菩提	-11.3011
施設	-11.3011
于時	-11.3011
佛即是法	-11.3011
六甲	-11.3011
純一	-11.3011
七尺	-11.3011
之四喻	-11.3011
入三塗	-11.3011
則文義	-11.3011
南無現在	-11.3011
百官	-11.3011
繫念	-11.3011
致苦	-11.3011
蚖	-11.3011
蠱道	-11.3011
資容	-11.3011
資成	-11.3011
地藏菩薩經	-11.3012
假名字	-11.3012
樹根	-11.3012
二十一者	-11.3012
聖僧	-11.3012
諸善根	-11.3012
爾時東方	-11.3012
淨洗手	-11.3013
身長三	-11.3014
初一偈	-11.3014
不可止	-11.3014
妄執	-11.3014
眾生不達	-11.3014
暫停	-11.3014
不復生	-11.3014
厭安行	-11.3014
寧可	-11.3014
縣官事	-11.3014
見臍中	-11.3014
謂五陰	-11.3014
四方有	-11.3014
不信正法	-11.3014
妻不識	-11.3015
數息	-11.3015
乞人	-11.3015
可意之	-11.3015
此人功德	-11.3015
逕得	-11.3015
長養眾生	-11.3015
勝藏	-11.3016
所勅	-11.3016
定得滅	-11.3017
父母之恩	-11.3017
所生子	-11.3017
無量經教	-11.3017
多陀	-11.3017
何所至	-11.3017
可救者	-11.3017
廣莊嚴	-11.3017
欲得菩提	-11.3017
為可不	-11.3017
之獲益	-11.3017
不得大富	-11.3017
入海水	-11.3017
蓮花臺	-11.3017
令消滅	-11.3017
佛世難	-11.3017
則無煩惱	-11.3017
上尸	-11.3017
何得言	-11.3017
常樂我淨故	-11.3017
月月	-11.3017
殺業	-11.3017
燒盡	-11.3017
盲冥	-11.3017
眼能見	-11.3017
外境	-11.3017
病痛	-11.3017
識合	-11.3018
即於佛前而說呪	-11.3018
千萬歲	-11.3018
所愛之	-11.3018
順性	-11.3018
化主	-11.3019
四鎮	-11.3019
爾時佛在娑羅雙樹	-11.3019
七百七十佛	-11.3019
十一者世世	-11.302
不請之	-11.302
造十惡業	-11.302
德滿	-11.302
是非性	-11.302
類釋	-11.302
亦無菩提	-11.302
持五戒者	-11.302
故稱為	-11.302
眼視	-11.302
設入	-11.302
不見何況	-11.302
不識尊	-11.302
俱共	-11.302
明雜眾	-11.302
用財	-11.302
畢竟空	-11.302
遠行他	-11.302
同學	-11.3021
無緣觀菩薩	-11.3021
精進軍	-11.3021
寶蓮華	-11.3022
性海	-11.3022
斯由	-11.3022
明星	-11.3022
能洗	-11.3022
遍莊嚴	-11.3022
如何於	-11.3022
十億菩薩	-11.3022
或繫	-11.3023
兄弟姊妹	-11.3023
南無無勝	-11.3023
途生死	-11.3023
於佛	-11.3023
息諍	-11.3023
獨自	-11.3023
老不能	-11.3023
若不分別	-11.3023
遍照	-11.3023
遠離生死	-11.3023
重玄	-11.3023
風災	-11.3023
胡言	-11.3025
鐙	-11.3025
是人即得	-11.3025
伺人	-11.3025
二恒河沙	-11.3025
此閻浮提	-11.3025
重障	-11.3025
阿修	-11.3025
若有比	-11.3026
持此呪	-11.3026
臥則	-11.3026
一一地獄中	-11.3026
應機	-11.3026
無量大眾於	-11.3026
婦曰	-11.3026
就文分別	-11.3026
欲求解脫	-11.3026
闡提眾生	-11.3026
一心垢	-11.3026
或在人	-11.3026
禪照	-11.3026
空際	-11.3026
舍在	-11.3026
鬼軍	-11.3026
為功德	-11.3027
遊步	-11.3027
菩薩住不退	-11.3028
月九月	-11.3029
諸境	-11.3029
欲度眾生	-11.3029
作他	-11.3029
佛名寶	-11.3029
禪聚	-11.3029
印帶	-11.3029
侍從	-11.3029
無本即	-11.3029
異類	-11.3029
請命	-11.303
南無自在王	-11.303
爾時下方	-11.303
隨諸眾生	-11.303
雖犯	-11.303
復逕	-11.303
赤色	-11.303
文書	-11.303
若我此生	-11.303
實際	-11.303
未知者	-11.303
濟諸	-11.303
結氣	-11.303
者不少	-11.303
圓明	-11.303
遍此十	-11.303
老病	-11.3031
名出世人	-11.3031
憶我	-11.3031
化物	-11.3031
寶服	-11.3031
十月	-11.3031
善知識力	-11.3031
▁男子	-11.3031
不解此	-11.3031
如針	-11.3032
分別八識	-11.3032
信順之	-11.3033
恒寂滅	-11.3033
如是見者	-11.3033
若繫閉	-11.3033
能書寫	-11.3033
後末世時	-11.3033
聖化	-11.3033
去影	-11.3033
南無阿彌陀佛	-11.3033
世間多有	-11.3033
傾心	-11.3033
共會	-11.3033
名為六國	-11.3033
狐眾	-11.3033
當墮地獄	-11.3033
南無金藏	-11.3033
能解	-11.3033
命終時	-11.3034
波迸	-11.3034
觀諸眾生	-11.3034
要應	-11.3034
四聖	-11.3035
墮阿鼻獄	-11.3035
經歷	-11.3036
目之徒	-11.3036
名無自體	-11.3036
縱廣四	-11.3036
佛性未	-11.3036
驅出	-11.3036
一切草木	-11.3036
分布	-11.3036
教化一切眾生	-11.3036
聲聞緣覺及	-11.3036
輕重	-11.3036
麻子	-11.3036
用真	-11.3036
梵行	-11.3036
虛通	-11.3036
了義	-11.3037
作五逆罪	-11.3037
我波羅蜜	-11.3037
大空智三昧	-11.3037
妙色	-11.3037
十三者世世	-11.3037
如是無量無邊	-11.3037
譬如高	-11.3037
尊像	-11.3037
是名出家	-11.3037
此普賢行	-11.3039
宮城	-11.3039
一佛一	-11.3039
汝等眷屬	-11.3039
告普賢菩薩	-11.3039
驗知	-11.3039
復五百世	-11.3039
日滿	-11.3039
法輕慢此法	-11.3039
轉強	-11.3039
遍體	-11.3039
真實義	-11.3041
南無超	-11.3041
如病得	-11.3041
善巧	-11.3042
隨師教	-11.3042
來奉	-11.3042
奉教	-11.3042
上位	-11.3042
行四等心	-11.3042
要先	-11.3042
一逕	-11.3042
死趣	-11.3042
餘化	-11.3042
同聚	-11.3042
慧日	-11.3042
方便造	-11.3042
見月光童子	-11.3042
善牙	-11.3043
與剎土	-11.3043
得成佛道	-11.3044
八戒	-11.3044
不捨眾生	-11.3044
日光如來	-11.3044
願滿	-11.3044
萬二千	-11.3044
讀誦經	-11.3044
者悉能	-11.3045
力普及普	-11.3045
羅王	-11.3045
止聲	-11.3045
薰我	-11.3045
談說	-11.3045
身心本來	-11.3045
半明	-11.3045
問道人	-11.3045
多逢	-11.3045
好婬	-11.3045
始方	-11.3045
悉現	-11.3045
故言眼不自見	-11.3045
若前人	-11.3045
覺悟	-11.3045
飢時	-11.3045
詣於	-11.3046
目前	-11.3046
諸行願	-11.3047
諸三昧	-11.3047
遂使	-11.3047
開目	-11.3047
自作	-11.3048
皆以一心	-11.3048
手執波若之	-11.3048
中泣血	-11.3048
有三品	-11.3048
為人貧窮	-11.3048
殺母	-11.3048
渴得	-11.3048
身法聚	-11.3049
亦名智慧	-11.3049
水火相	-11.3049
福德除	-11.3049
香華	-11.3049
五姓	-11.3049
壽命盡	-11.3049
染淨	-11.3049
諸天童子	-11.3049
寺中	-11.3049
南無日	-11.305
此等眾生	-11.305
諸佛出世	-11.305
無偏	-11.305
汝當如是	-11.305
立福	-11.3051
布施畜生	-11.3051
河水	-11.3052
各將	-11.3052
不顧	-11.3052
不全	-11.3052
五陰煩惱	-11.3052
在人間	-11.3052
背非	-11.3052
解窮	-11.3052
以逕	-11.3052
南無善遊步	-11.3053
如雀	-11.3053
遍虛空	-11.3054
喜見城	-11.3055
一者離	-11.3055
性流	-11.3055
深信	-11.3055
若聞此經	-11.3055
離一心	-11.3055
可得福	-11.3055
或君	-11.3055
承事	-11.3055
黃門	-11.3055
年十一月	-11.3056
八部神	-11.3056
方等經	-11.3056
等須彌	-11.3056
龍種上尊王佛法	-11.3056
貴於	-11.3056
藥王	-11.3057
無欲無	-11.3058
及彌	-11.3058
二十九者	-11.3058
藥病	-11.3058
無所著	-11.3058
)+	-11.3058
一事者	-11.3058
云何可得	-11.3058
何為不	-11.3058
或逕	-11.3058
橫死不遭	-11.3058
無量人天	-11.3058
造業	-11.3058
釋迦得道	-11.3058
未得道	-11.3058
治化	-11.3058
名為一	-11.3059
邊地	-11.3059
誰遊三世	-11.3059
恭敬供養	-11.3059
以潤	-11.306
至心願	-11.306
南無上首	-11.306
上所說	-11.306
理是一	-11.306
父母眷屬	-11.3061
八陽經者	-11.3061
一切天人	-11.3061
受誑	-11.3061
樹性	-11.3061
花香	-11.3061
慧水	-11.3062
五帝	-11.3062
語論	-11.3063
高聲	-11.3063
無量壽	-11.3063
有眾多	-11.3064
若有惡人	-11.3064
一有心	-11.3064
如來何故	-11.3064
殺生求	-11.3064
破家	-11.3064
如人在	-11.3064
成佛時	-11.3064
成親	-11.3064
戴山谷	-11.3066
法名號	-11.3066
七寶山	-11.3066
六味	-11.3066
具足大乘	-11.3066
中不得解脫	-11.3066
結解	-11.3066
傷害眾生	-11.3067
者野虫	-11.3067
魔神	-11.3067
二十七者	-11.3067
順理	-11.3067
煩惱亂	-11.3067
證理	-11.3067
世尊聽許	-11.3067
五尺	-11.3067
今始	-11.3067
十善作	-11.3067
地夜叉	-11.3067
寧神	-11.3067
故眉	-11.3067
萬德	-11.3067
要由	-11.3067
譬如金剛	-11.3067
雨師	-11.3067
飛來	-11.3067
一在地	-11.3067
第一用	-11.3067
智慧方便	-11.3068
往生無量壽	-11.3068
皆遊	-11.3068
順如	-11.3069
雖先	-11.3069
大池	-11.3069
王大臣	-11.3069
長夜	-11.307
捨無常	-11.3071
不聽入	-11.3071
居處	-11.3071
微妙上	-11.3071
應思	-11.3071
佛滅度後	-11.3071
即是菩提	-11.3071
無垢如	-11.3071
盧舍那佛	-11.3071
障修	-11.3071
而要	-11.3071
於諸功德	-11.3072
或犯十惡	-11.3073
苦惱眾生	-11.3073
致此	-11.3073
五毒	-11.3074
能牽	-11.3074
睡時	-11.3074
却後	-11.3074
其蛇	-11.3074
合口	-11.3074
差後	-11.3074
悟理	-11.3074
不習外	-11.3075
不覆藏	-11.3075
此諸惡	-11.3075
大方等	-11.3075
次後	-11.3075
無上果	-11.3076
行布施時	-11.3076
離之	-11.3076
餘念攝	-11.3077
大經卷	-11.3077
文中初明	-11.3077
失聲	-11.3077
子息	-11.3077
可却	-11.3077
尋後	-11.3077
義不同	-11.3077
萬年	-11.3077
守真	-11.3077
老苦	-11.3077
令諸弟子	-11.3077
相值	-11.3078
如佛前	-11.3079
七日不得	-11.3079
為初心	-11.3079
諸類	-11.3079
以上	-11.3079
道心眾生	-11.308
過度	-11.308
不見八難	-11.308
婬行	-11.308
無性則	-11.308
醫王	-11.3081
免墮惡	-11.3081
不違背	-11.3082
流生死	-11.3082
親知	-11.3082
行業	-11.3082
上方香積如來	-11.3082
偈次明	-11.3082
八音	-11.3083
身心起	-11.3083
共分	-11.3083
但造	-11.3083
其器	-11.3083
即是涅槃	-11.3083
平地	-11.3083
無心意	-11.3083
煩惱之中	-11.3083
父母家	-11.3083
結實	-11.3083
自然去	-11.3085
未度	-11.3085
八分	-11.3085
不勉	-11.3085
一佛二	-11.3085
中尸	-11.3085
南無金華	-11.3085
知世	-11.3086
漸自	-11.3086
二際	-11.3086
轉變	-11.3086
現在十方	-11.3087
未合	-11.3087
僧力	-11.3088
二十四者	-11.3088
無礙解脫	-11.3089
救苦	-11.3089
何得定	-11.3089
為我說	-11.3089
為演說	-11.309
妄念	-11.309
一百日	-11.309
咸令	-11.309
未悟者	-11.309
覺性	-11.3091
方十八地獄中	-11.3091
自融	-11.3091
身心定	-11.3091
病冷	-11.3091
作是見	-11.3092
度眾生令	-11.3092
譬如凡夫	-11.3093
乃至十方	-11.3093
如上法	-11.3093
我身體	-11.3093
同共	-11.3093
法王子	-11.3093
餘念	-11.3093
持此經	-11.3093
日照	-11.3094
八十萬劫	-11.3094
相屬	-11.3094
生信解	-11.3094
歸理	-11.3094
蛇身	-11.3096
地味	-11.3096
損身	-11.3096
乘白	-11.3096
藏用	-11.3097
千由	-11.3097
皆從一	-11.3097
刀利天	-11.3097
復似	-11.3097
不久皆	-11.3097
恒持	-11.3097
軍眾	-11.3098
國城	-11.3098
流布故	-11.3098
兩眼	-11.3099
無心非	-11.3099
先去	-11.3099
六根是	-11.3099
普同	-11.3099
示教	-11.3099
人之命	-11.31
聾者	-11.3101
在其中	-11.3101
三歸依	-11.3101
故是名非	-11.3101
拔舌地獄	-11.3102
唯然	-11.3102
此間	-11.3102
貧人得	-11.3102
分別性	-11.3102
未來當	-11.3102
依法行	-11.3103
萬鬼	-11.3103
誦七	-11.3103
二邊	-11.3103
最勝樂	-11.3103
諸菩薩摩訶薩	-11.3104
或臣	-11.3104
付囑於汝	-11.3104
如師子王	-11.3104
久後	-11.3105
黠人	-11.3105
報德	-11.3105
空花	-11.3105
常近	-11.3105
隨業	-11.3105
印人	-11.3106
況能	-11.3107
不久得阿耨多羅三藐三菩提	-11.3107
命根	-11.3107
度脫眾生	-11.3107
於一劫	-11.3107
其功	-11.3108
華香	-11.3109
解吾	-11.3109
隨流	-11.3109
變為	-11.3109
無障無礙	-11.311
若見此經	-11.311
須食	-11.3111
長發	-11.3111
別識	-11.3112
黃色	-11.3112
且如	-11.3112
並由	-11.3112
宜令	-11.3112
有出生	-11.3112
自歸	-11.3112
還著	-11.3113
墮在	-11.3113
南無珠	-11.3113
眾患	-11.3113
正答	-11.3113
有富	-11.3114
孝子	-11.3115
妙性	-11.3115
大法王	-11.3115
導從	-11.3115
種種乘	-11.3115
是則是	-11.3115
正想	-11.3115
處處在	-11.3115
不孝	-11.3116
修福不	-11.3116
雖小	-11.3117
為無罪	-11.3117
所誑	-11.3118
大船	-11.3118
色財	-11.3118
道人死	-11.3118
劫數	-11.3118
屬於	-11.3118
制得	-11.3118
最勝大	-11.3118
何時	-11.3118
諸障礙	-11.3118
如羅剎	-11.312
魔力	-11.312
名名之	-11.3121
識了	-11.3121
息惡	-11.3121
金用	-11.3121
受斯	-11.3121
吾後	-11.3121
妙用	-11.3121
法忍也	-11.3121
菩薩聖眾	-11.3122
念前	-11.3122
二十五者	-11.3123
聲聞眾	-11.3123
善根眾生	-11.3123
一切外道	-11.3123
平等供養	-11.3123
以求人	-11.3123
聽聞	-11.3124
重光	-11.3124
頭白	-11.3124
四辯	-11.3124
形命	-11.3124
有八菩薩	-11.3124
君即	-11.3124
居空	-11.3126
從蛇	-11.3127
諸賊	-11.3127
還國	-11.3127
邪神	-11.3127
父子	-11.3128
不見愛	-11.3128
老子	-11.3128
可名	-11.3128
外事	-11.3128
現泡	-11.3129
烏呼	-11.3129
便捨	-11.3129
右手指	-11.3129
伏身	-11.313
名曰大乘	-11.3131
尊長	-11.3131
成千	-11.3131
所有諸	-11.3131
處世	-11.3131
求利	-11.3133
不能受	-11.3133
後代眾生離	-11.3134
常居	-11.3134
皆悉解脫	-11.3134
行偈	-11.3134
隨世	-11.3134
世淨	-11.3135
種種光明	-11.3135
頭火	-11.3135
百神	-11.3135
南無寶蓮華	-11.3135
潤枯	-11.3135
可謂	-11.3136
從心性本際	-11.3136
一切國王	-11.3137
非犯	-11.3137
釋有	-11.3137
二字	-11.3138
得見世尊	-11.3139
門開	-11.3139
當懃	-11.3139
異香	-11.314
外現	-11.314
謂實	-11.314
光明中來	-11.314
法即名	-11.314
獲無量	-11.314
為眾生故	-11.3141
塔中	-11.3142
便有之	-11.3142
歸處	-11.3143
妄語	-11.3143
心是空	-11.3143
念念不	-11.3143
立死	-11.3143
斷煩惱	-11.3145
於身上	-11.3145
無限	-11.3145
父母兄弟妻子	-11.3146
一種人	-11.3146
今身多	-11.3146
深解	-11.3146
如視	-11.3146
重不能	-11.3146
明已	-11.3147
在先	-11.3147
其毒	-11.3148
劫破	-11.3148
釋迦牟尼佛所	-11.315
異去	-11.315
諸患	-11.315
取金	-11.315
已然後	-11.315
欲酒	-11.315
誰以	-11.315
兼復	-11.3151
應斷疑	-11.3152
十地	-11.3152
少福	-11.3153
年至	-11.3153
運行	-11.3153
求此	-11.3154
遣人	-11.3154
守善	-11.3156
乃使	-11.3156
自燒	-11.3156
一切眾生具足	-11.3156
共成	-11.3156
喜樂	-11.3156
見狗	-11.3156
怖心	-11.3158
如熱	-11.3158
捨去	-11.3158
邪徒	-11.3158
賢善	-11.3158
豈是	-11.3159
斯經	-11.3159
此餓鬼	-11.3159
身觸	-11.3161
一闡提人	-11.3161
蓮華中	-11.3161
依我	-11.3161
等無差	-11.3161
相泯	-11.3162
專心	-11.3162
所縛	-11.3162
復放	-11.3162
所以名為	-11.3162
衣則	-11.3162
隨因緣	-11.3162
斷三寶種	-11.3163
行惡道	-11.3164
佛神力	-11.3164
而致	-11.3165
入律	-11.3165
然既	-11.3165
得視	-11.3165
雖施	-11.3165
人命	-11.3166
令他	-11.3167
亦不求	-11.3167
勝因	-11.3167
若書寫	-11.3167
慢法	-11.3168
如來嚴	-11.3169
作是觀者	-11.3169
四怨	-11.3169
菩薩緣覺	-11.3169
為垣	-11.3169
清淨諸業力	-11.317
不得隨	-11.317
安著	-11.3171
親自	-11.3171
前中初明	-11.3171
心堅固	-11.3171
寶山	-11.3172
其髮	-11.3172
一心智慧	-11.3172
廣起	-11.3172
四魔	-11.3173
人命終已	-11.3173
大悲世尊	-11.3173
界相	-11.3173
緣性	-11.3174
普現色身三昧	-11.3174
一豪	-11.3174
今年	-11.3175
常爾	-11.3175
是經名為	-11.3175
破諸煩惱	-11.3175
無量比丘	-11.3176
國內	-11.3176
見他舊	-11.3176
能同凡	-11.3176
爾時一切大眾	-11.3177
除此	-11.3177
哀愍眾生	-11.3177
即是妙	-11.3177
一切諸天人民	-11.3177
火滅	-11.3178
一惡言	-11.3178
惠及	-11.3178
縱有	-11.3178
且觀	-11.3179
南無拘	-11.3179
罪根	-11.318
諸佛說法	-11.318
不少	-11.318
罵人	-11.3181
十善為	-11.3181
七種	-11.3181
依他	-11.3181
臂菩薩	-11.3181
聲性空	-11.3182
久受	-11.3183
是故是人	-11.3183
不用法	-11.3184
口不能	-11.3184
同修	-11.3184
如來大慈	-11.3185
常安隱	-11.3185
智覺	-11.3185
諸妄想	-11.3186
菩薩大士	-11.3188
飽也	-11.3188
遣我	-11.3188
普功德	-11.3188
惑復	-11.3189
我當行	-11.3189
眾生著	-11.3189
甘露味	-11.3191
難分別	-11.3191
勿生	-11.3191
城地獄	-11.3191
南無妙意	-11.3192
行人觀	-11.3193
是經能與眾生作	-11.3193
輪相	-11.3193
憶是	-11.3194
其癡	-11.3194
兒即	-11.3194
鼻是	-11.3194
無與等	-11.3194
唯願世尊為諸邪見	-11.3195
之印	-11.3195
一功	-11.3196
眾海	-11.3196
遊於	-11.3196
後代	-11.3196
常波羅蜜	-11.3196
誑人	-11.3197
如雲	-11.3198
來時	-11.3198
若有清信士	-11.3198
空谷嚮	-11.3199
可說	-11.32
貪取	-11.32
莫念	-11.32
邪見人	-11.32
教除	-11.32
論其	-11.32
佛子圍繞	-11.32
香供養	-11.3201
無量聲聞	-11.3202
五馬	-11.3202
愚者入	-11.3202
宿命罪	-11.3202
依持	-11.3203
離本	-11.3203
處虛空	-11.3203
同師	-11.3203
常和	-11.3203
俱世間	-11.3203
半見	-11.3203
我當於	-11.3203
見實諦	-11.3206
初正勸	-11.3207
祕密藏	-11.3208
如來今日	-11.3208
求報	-11.3208
三毒之	-11.3208
真教	-11.3208
能知見	-11.321
子孫興	-11.321
千同號	-11.3211
十小劫	-11.3211
或被	-11.3211
本師	-11.3213
意想	-11.3213
乃觀	-11.3213
則分別	-11.3213
過此	-11.3213
而告	-11.3215
身滿	-11.3215
尋時	-11.3216
信知	-11.3216
是故大乘	-11.3216
或父	-11.3216
汝等諸	-11.3216
彼等諸佛	-11.3217
昔來所	-11.3217
圓滿如	-11.3218
為宗	-11.3218
已白師	-11.3218
大聖圓	-11.3218
老人	-11.3218
持此	-11.3219
此云	-11.3219
使用	-11.3219
無所知	-11.3221
作畜生	-11.3221
乃起	-11.3221
體明	-11.3221
日之	-11.3222
大功	-11.3223
經文	-11.3224
念命	-11.3225
若逢	-11.3226
名義	-11.3226
南無辯	-11.3227
樓至	-11.3228
能爾	-11.3229
福智	-11.3229
非日月	-11.3229
從竟	-11.3229
應重	-11.3229
等類	-11.3229
如聾人	-11.323
何罪	-11.323
獸中	-11.3231
喜歌舞	-11.3231
顯名	-11.3232
諸天所	-11.3232
上者	-11.3233
正寶	-11.3234
涅槃樂	-11.3235
下有一	-11.3236
在地上	-11.3236
世間所有	-11.3236
深著	-11.3236
絕大	-11.3237
修證	-11.3238
前而不	-11.3238
四向	-11.324
法雲	-11.324
自然解脫	-11.324
如牛	-11.3241
脈為水	-11.3241
別世間	-11.3241
自近	-11.3241
若其有	-11.3241
能向	-11.3241
諸乘	-11.3243
數匝	-11.3244
令其人	-11.3245
眾香	-11.3245
若見佛性	-11.3245
爾來	-11.3245
絕於	-11.3245
食他	-11.3245
施悲田	-11.3245
地藏菩薩摩訶薩	-11.3245
牽挽	-11.3245
所憙	-11.3248
南無頂	-11.3248
云何除	-11.3248
大災	-11.3248
利益無	-11.3249
難化	-11.3249
雖滅	-11.3249
法界眾生	-11.3249
是故則無	-11.3251
無禮	-11.3251
云道	-11.3251
音聲如來	-11.3251
今既	-11.3251
慈恩	-11.3251
罪畢復	-11.3252
若住一劫	-11.3253
一天堂	-11.3253
理觀	-11.3254
既至	-11.3254
理成	-11.3254
福罪	-11.3254
病愈	-11.3254
勝樂	-11.3254
阿難及	-11.3255
廣為一切	-11.3255
犯三寶	-11.3255
令安穩	-11.3256
歲以上	-11.3256
三處	-11.3256
種智	-11.3256
三人病	-11.3257
不可復	-11.3257
應同	-11.3257
人骨	-11.3257
度難	-11.3257
者勞	-11.3257
我於此	-11.3258
時受苦	-11.3258
悲田者	-11.3259
如是禮拜	-11.3259
無缺	-11.3259
與眾生	-11.326
見智惠	-11.326
走人	-11.326
五陰身	-11.3262
驚恐	-11.3263
說不可	-11.3263
用何	-11.3264
法幡	-11.3264
前念	-11.3264
普及	-11.3264
生死苦	-11.3266
多將	-11.3266
心趣向	-11.3266
如文殊師利	-11.3267
極苦	-11.3267
即見佛	-11.3267
又因	-11.3267
汝信	-11.3267
當爾之時一切俗	-11.3267
救人	-11.3268
異意	-11.3268
欲利	-11.3268
盡唯	-11.3268
時大迦葉	-11.3268
如百	-11.3269
五者見	-11.3269
歸依法	-11.327
瓶中	-11.3272
買者	-11.3273
眾中有	-11.3275
者輒	-11.3275
佛說三厨經	-11.3275
杵碎其	-11.3276
不覩真	-11.3276
依因	-11.3276
通天	-11.3276
但聞	-11.3276
示所犯者瑜伽法鏡經	-11.3277
一一蓮華	-11.3278
是非不非	-11.3278
一清淨處	-11.3279
離身心而	-11.3279
鼻中	-11.3279
五逆大	-11.3279
情生	-11.3279
歲三月六	-11.328
一佛國	-11.328
精進故	-11.3281
樂作	-11.3281
大眾等	-11.3281
而說之	-11.3281
取寶	-11.3281
上半牒其	-11.3282
學所	-11.3282
當為汝分別	-11.3283
同色	-11.3283
六賊者	-11.3283
宅中	-11.3283
寂滅為	-11.3283
引我	-11.3283
佛性常	-11.3283
所學	-11.3283
還來	-11.3284
惱之	-11.3284
乃知	-11.3285
名為空	-11.3285
轉用	-11.3286
智慧眼	-11.3286
受果	-11.3286
體常	-11.3286
分身者	-11.3286
觀外	-11.3287
上妙	-11.3287
人壽二百五	-11.3287
無量方便	-11.3287
更復	-11.3289
如是大士	-11.3289
愍念眾生	-11.3289
是故應	-11.3289
彼亦無	-11.3289
九同號	-11.329
前功德	-11.3291
大菩提	-11.3291
作業	-11.3292
不容	-11.3292
心遊	-11.3292
正心正	-11.3293
後念	-11.3294
正智	-11.3294
四歲	-11.3295
佛自說	-11.3295
受苦眾生	-11.3295
色同	-11.3295
豐嚴王	-11.3296
失善	-11.3297
地菩薩之	-11.3298
非謂	-11.3299
真用	-11.3299
志願	-11.33
離疑惑	-11.3301
佛說決罪福經卷	-11.3303
癡心	-11.3303
寂體	-11.3303
而命	-11.3303
五逆等	-11.3304
便覺	-11.3304
眼山	-11.3304
待佛	-11.3305
但諸佛	-11.3305
別作	-11.3305
眾聲	-11.3305
惡性	-11.3305
向刀山	-11.3306
見於彼	-11.3306
知何	-11.3307
許心	-11.3308
五香	-11.3308
南無妙音	-11.3308
南無喜	-11.3308
諸佛剎	-11.3309
當復	-11.3309
南無釋	-11.331
一切凡夫	-11.331
事力	-11.331
一兩	-11.3311
大鳥	-11.3311
離諸有	-11.3311
自下第三偈	-11.3312
無住故	-11.3312
得泥洹	-11.3312
三寶處	-11.3313
不出世間	-11.3313
七地	-11.3314
無二心	-11.3314
真成	-11.3314
受命	-11.3314
同光	-11.3315
正因	-11.3316
現受	-11.3316
斷常	-11.3318
病眼	-11.3318
明蒙記	-11.3318
病熱	-11.3318
到佛所	-11.3318
水乃	-11.3319
其山四	-11.332
無相空	-11.332
觸而	-11.332
用好	-11.3321
門觀	-11.3321
所起	-11.3322
未曾有一	-11.3322
盛之	-11.3322
或夫	-11.3322
佛即以	-11.3322
終身	-11.3322
人下	-11.3323
無寂靜故	-11.3324
順名	-11.3324
小惡	-11.3324
應念	-11.3324
無為則	-11.3326
能勝	-11.3326
從何所	-11.3327
使知	-11.3327
未盡	-11.3327
諸惡人	-11.3327
金炎	-11.3327
勞疲	-11.3329
波若	-11.3329
不獨	-11.333
眾共	-11.333
常性	-11.333
多種	-11.3333
進心	-11.3333
至彼	-11.3336
事多	-11.3336
三十二者	-11.3337
常聞	-11.3338
不時來	-11.3338
亦不可得	-11.3338
說言有	-11.3339
見塵	-11.3339
一切諸佛菩薩	-11.334
一切眾生既	-11.334
二形	-11.334
常命	-11.334
常覺	-11.334
闇故	-11.3341
如五百	-11.3341
一佛道場	-11.3342
使受	-11.3343
似而	-11.3343
其中有	-11.3343
夫欲	-11.3343
高大	-11.3343
斷上	-11.3343
八萬七千	-11.3344
願捨	-11.3345
法河	-11.3346
想見	-11.3346
南無萬萬	-11.3347
盡得見	-11.3347
先非	-11.3349
疾人	-11.3349
不妄	-11.3351
境相	-11.3352
下根	-11.3352
即須	-11.3352
彌勒言	-11.3354
』,	-11.3354
千三百	-11.3355
成實	-11.3356
則便	-11.3356
妄言	-11.3356
上人	-11.3356
智炬	-11.3356
囑善	-11.3358
諸病	-11.3358
智起	-11.3359
相對	-11.3359
事用	-11.3359
能造	-11.3359
時薄伽梵說	-11.3359
佛告師子吼菩薩	-11.336
至佛	-11.3361
出城	-11.3361
則利	-11.3362
會宗	-11.3362
安在	-11.3362
口語	-11.3362
流轉諸	-11.3363
佛塔	-11.3363
應供養	-11.3364
時宜	-11.3364
刀山劍樹	-11.3365
菩薩大士亦	-11.3365
不差	-11.3365
無量數	-11.3365
有疑惑	-11.3366
修正觀	-11.3367
此土之	-11.3367
樂好	-11.3367
但空	-11.3368
談法性	-11.3369
十六者舉	-11.3371
為妻	-11.3372
死墮鐵窟	-11.3373
護正法	-11.3373
受佛教	-11.3374
鐵床地獄	-11.3374
治一	-11.3375
非聲	-11.3375
無分別相	-11.3375
聞此語	-11.3376
求涅槃	-11.3377
是味	-11.3378
諸佛前	-11.3378
諸佛功德	-11.3378
雨潤	-11.3379
淨明	-11.3379
宣佛	-11.3381
不任	-11.3381
不住不	-11.3382
此理	-11.3383
七處	-11.3384
眾生求	-11.3385
眾生肉	-11.3385
過去有	-11.3387
最上者	-11.3387
等虛空	-11.3387
無兒	-11.3388
求名聞	-11.3389
四依	-11.339
佛還入第	-11.339
不屬	-11.3391
須說	-11.3391
大寂	-11.3392
為人短	-11.3393
實事	-11.3393
所生處	-11.3393
無記心	-11.3394
南無無邊	-11.3394
為善	-11.3394
而共	-11.3395
願住	-11.3395
有四	-11.3396
及餘	-11.3397
癡故	-11.3399
案教奉	-11.3401
所見定	-11.3402
相殺	-11.3402
各出	-11.3405
謗是	-11.3405
謹慎	-11.3406
夫即	-11.3406
他自	-11.3407
長則	-11.3407
亦無異	-11.3409
因義	-11.341
癡住	-11.3411
生無量壽	-11.3412
見沙門	-11.3413
無縛	-11.3413
於三界	-11.3413
度生死流	-11.3415
望之	-11.3416
定起	-11.3418
一者守	-11.3419
我等天人	-11.3419
汝眼	-11.3421
三千大千	-11.3421
七天	-11.3422
非同	-11.3422
根方	-11.3423
來出	-11.3424
亦莫	-11.3424
百六十	-11.3425
但成	-11.3425
明施	-11.3425
佛讚	-11.3426
時會	-11.3427
害眾生	-11.3427
根不具足者從	-11.3428
佛母聞此	-11.3428
相惑	-11.3429
力多	-11.3429
萬劫不	-11.3429
惱亂	-11.343
共生	-11.343
地涌出	-11.343
普見	-11.3432
出過三	-11.3432
有為他	-11.3433
空淨	-11.3434
大千	-11.3435
常受苦	-11.3436
時眾中有一大士	-11.3437
亦深	-11.3437
阿難我	-11.3437
莫復	-11.3438
因受	-11.3438
一人能却	-11.3439
皆除	-11.3439
說世	-11.344
歸一	-11.344
勝菩薩	-11.3441
無智人	-11.3441
無滿	-11.3441
常隨	-11.3443
口食	-11.3445
者是為	-11.3445
鬼語	-11.3445
來前	-11.3446
此行	-11.3446
十歲	-11.3447
眾生病	-11.3447
地方	-11.3448
心存	-11.3448
悉見	-11.3448
訕謗者	-11.3449
時至即	-11.3449
之物入手	-11.3451
從無始以來	-11.3451
種惡夢	-11.3454
命經	-11.3454
信等	-11.3454
在後	-11.3454
不濁	-11.3455
可滅	-11.3455
侵損	-11.3455
佛藏	-11.3457
持五戒	-11.3457
為妄	-11.3458
念定	-11.346
炎邊	-11.3461
示眾生	-11.3462
樂求	-11.3462
官法	-11.3462
法喜三昧	-11.3463
末世時	-11.3464
若父	-11.3465
南無須	-11.3466
苦因	-11.3467
又願	-11.3467
等利	-11.3468
如金剛	-11.3469
六惡	-11.347
或信	-11.347
心無心	-11.3471
皆使	-11.3471
如是布施	-11.3473
令除	-11.3476
上廣	-11.3476
名數	-11.3476
在世間	-11.3477
時女	-11.3477
業行	-11.3478
常在	-11.3478
觀空	-11.3478
於一心中而	-11.3479
法性無	-11.3479
願聞	-11.348
此內	-11.348
手是	-11.348
緣非	-11.3481
甚深要	-11.3483
不積	-11.3483
為六	-11.3487
大威德	-11.3488
淨國	-11.3489
廣長三十	-11.3489
▁垢	-11.349
剋不	-11.3491
今諸佛	-11.3492
覺了	-11.3492
小善	-11.3492
不信有	-11.3492
立得	-11.3492
意淨	-11.3494
道師	-11.3494
耳中	-11.3495
故致	-11.3495
不飲	-11.3495
而還	-11.3496
八萬菩薩	-11.3496
諸鬼	-11.3496
并法	-11.3499
不習	-11.3499
無量苦惱	-11.35
故得齒	-11.35
心境	-11.3501
意定	-11.3501
人應善	-11.3502
亦名法	-11.3502
請如來	-11.3502
相次	-11.3503
力無有	-11.3504
能施	-11.3504
其頭	-11.3507
若犯	-11.3507
求三	-11.3508
所依	-11.3508
子至	-11.3508
手如	-11.3508
世界能入	-11.3509
師法	-11.3509
訶帝	-11.3509
死不	-11.351
是外道眷屬	-11.3512
色塵	-11.3513
護我	-11.3514
為顛倒	-11.3514
鬼王	-11.3515
名法行	-11.3515
眾智	-11.3518
新發	-11.3519
佛土	-11.3519
炎幢	-11.3519
作懺悔	-11.3521
時開	-11.3521
所種	-11.3521
大尊	-11.3522
見白	-11.3523
讀誦此經典	-11.3523
言文字即解脫用	-11.3524
非真	-11.3524
便能	-11.3524
取義	-11.3524
生物	-11.3524
號為釋迦牟尼	-11.3525
不起二	-11.3525
意用	-11.3526
熟者	-11.3526
志者	-11.3527
滅已	-11.3527
七下	-11.3527
得百	-11.3527
心悔	-11.3527
內道	-11.3529
身力	-11.353
沙門大	-11.3531
性相是	-11.3531
德亦	-11.3532
仙人所	-11.3533
一切眾生云何	-11.3534
不信三寶	-11.3538
無思	-11.354
已前	-11.3542
依何	-11.3542
著善	-11.3544
不平	-11.3545
文明	-11.3546
或果	-11.3547
當清淨	-11.3548
非去	-11.3549
則知	-11.355
云何如	-11.3551
罪除	-11.3553
十恒河沙	-11.3553
無量寶	-11.3556
爾時世尊即	-11.3556
其道	-11.3558
了了明	-11.3559
國人	-11.3561
南無虛空	-11.3561
智慧無量	-11.3562
證於	-11.3562
其命	-11.3564
色與	-11.3565
令觀	-11.3566
則起	-11.3566
因緣生	-11.3568
測佛	-11.357
皆滅	-11.3571
當因	-11.3572
皆清淨	-11.3572
住也	-11.3573
如來弟子	-11.3574
重復	-11.3578
南無寶莊嚴	-11.3582
不得金	-11.3583
諸識	-11.3584
妙相	-11.3585
經名	-11.3587
為益	-11.3588
不定無	-11.3588
不救	-11.3588
聽是經	-11.3588
教亦	-11.359
未來之	-11.359
無能壞	-11.359
二十七	-11.359
而覺	-11.3591
是光	-11.3592
志明	-11.3593
無智者	-11.3596
得物	-11.3596
已心大歡喜	-11.3596
勝如	-11.3598
非我先	-11.36
如來終	-11.3602
斷惡趣	-11.3604
以不知	-11.3604
如是之人不	-11.3604
斷得	-11.3604
與子	-11.3604
善因	-11.3607
有言說	-11.3608
唯有如來	-11.3609
知意	-11.361
於先	-11.3612
生者皆	-11.3614
印之	-11.3614
是人爾時	-11.3615
知三界	-11.3616
之道	-11.3616
面無	-11.3617
外經	-11.3617
前中有	-11.3617
今於	-11.3619
從頭	-11.362
何其	-11.362
以妙	-11.3622
手中	-11.3622
死苦	-11.3622
即受持	-11.3623
短長	-11.3624
淨行尼僧	-11.3632
不信我	-11.3632
理融	-11.3634
起煩惱	-11.3635
壽八千	-11.3636
於耳	-11.3636
壽六十	-11.3639
師子王三昧	-11.3641
諸定	-11.3641
求短	-11.3642
作七	-11.3643
欲死	-11.3643
爾時遣	-11.3644
南無百	-11.3645
捨諸	-11.3647
故知此	-11.3648
先身	-11.3649
有善惡	-11.3649
相即是	-11.3649
異於	-11.3649
道真	-11.3651
因得	-11.3652
當云何	-11.3652
雖復受	-11.3655
囑累	-11.3656
自隨	-11.3657
謂言	-11.3662
自然而	-11.3664
名字我	-11.3665
食則	-11.3665
寂無	-11.3665
欲取	-11.3666
明願	-11.3668
法護	-11.3668
江河	-11.3671
行道者	-11.3671
世尊向	-11.3671
無常住	-11.3672
聲聞之	-11.3672
真語	-11.3672
即解	-11.3674
寶相	-11.3675
明王雖	-11.3677
令知	-11.3677
為凡	-11.3678
成一切眾生	-11.3684
皆現前	-11.3685
一異	-11.3687
此經語可	-11.3689
定相	-11.369
歲於	-11.369
報恩	-11.3692
即白	-11.3693
共人	-11.3693
寶勝菩薩	-11.3694
即使	-11.3694
從今日	-11.3695
如雪	-11.3695
若人無善根不得聞是	-11.3696
無作	-11.3696
即覺	-11.3696
意在	-11.3697
即去	-11.3698
我先	-11.3699
令惡	-11.3699
無量生死	-11.37
現在世	-11.3701
三喻明	-11.3701
學法	-11.3702
七十七	-11.3703
日行	-11.3703
能問	-11.3703
不被	-11.3706
女等	-11.3708
受持得	-11.3709
方六佛	-11.3709
於無上	-11.371
得何	-11.3711
現則	-11.3712
迴向我	-11.3712
其身心	-11.3716
於父母	-11.3716
我亦不	-11.3717
見聞	-11.3718
自體非	-11.3718
九佛名	-11.372
損己	-11.372
腫病	-11.3721
不息	-11.3721
由延	-11.3721
不知有	-11.3722
即是我	-11.3723
如善見王	-11.3723
死作	-11.3728
於塔寺	-11.373
不得自	-11.373
是乘	-11.373
不患	-11.3732
生死大	-11.3732
行何	-11.3733
取之	-11.3734
有目	-11.3734
若別	-11.3735
三念	-11.3735
地上	-11.3736
之智	-11.3737
十二天名	-11.3737
不思	-11.3738
劫等	-11.3741
饒益諸	-11.3742
世諦之	-11.3744
初一	-11.3744
稱之	-11.3745
一者於	-11.3745
所觀	-11.3745
是眼	-11.3746
從日	-11.3748
於白	-11.3748
心而	-11.3749
不相知	-11.3751
兩耳	-11.3752
一切眾生身內佛	-11.3753
念中即	-11.3753
出為人	-11.3754
虛無	-11.3757
治之	-11.3757
光炎	-11.376
不應有	-11.3761
水則	-11.3763
不墮	-11.3764
色界天人	-11.3764
以是因緣令	-11.3766
我想	-11.3766
功德無量	-11.377
解是	-11.377
遂有	-11.377
無盡藏	-11.3772
福生	-11.3773
山石	-11.3776
共法	-11.3777
聖之	-11.3777
如佛	-11.3777
千一	-11.3777
惡皮	-11.3779
大寶	-11.378
其神	-11.378
慈藏	-11.3781
聞法者	-11.3782
善智	-11.3784
問我	-11.3785
寫經	-11.3786
而後	-11.3787
治道	-11.3787
深難為	-11.3788
大菩薩摩訶薩及	-11.3788
一心法	-11.3788
分明解	-11.379
之要	-11.379
第一不	-11.3793
思而	-11.3794
十方人	-11.3794
眾生命	-11.3794
常意	-11.3796
知宿命	-11.3797
善知	-11.3797
淨行	-11.3799
無勞	-11.38
初住	-11.38
我國	-11.3802
知如來常	-11.3802
而著	-11.3802
魔為	-11.3805
見道	-11.3807
邪中	-11.381
子若得	-11.3813
制諸	-11.3813
欲求者	-11.3814
歡喜藏	-11.3814
是氷	-11.3818
西方阿彌陀佛	-11.3818
文大	-11.3818
一切病	-11.3819
岸無	-11.3819
別之	-11.3821
會空解	-11.3823
中略	-11.3825
由何	-11.3827
諸下	-11.3831
定意	-11.3832
何處有	-11.3832
南無深	-11.3833
魅人不得停止	-11.3834
法水	-11.3834
佛下生	-11.3836
色青黑	-11.3837
於夜	-11.3841
生迫迮	-11.3843
南無淨光	-11.3844
如僧	-11.3848
所成	-11.385
復至	-11.385
有好	-11.3853
七佛在	-11.3858
二子	-11.386
功德經	-11.3861
入盡	-11.3862
十二者人	-11.3862
勸令	-11.3863
於諸身	-11.3865
大神	-11.3865
今見	-11.3866
墮鑊湯地獄	-11.3867
以覺	-11.387
於理	-11.387
行十善	-11.387
常食	-11.3871
生施	-11.3871
彼地獄	-11.3874
此諸佛	-11.3875
如母	-11.3875
屬意	-11.3876
有執	-11.3876
願一切眾生	-11.3882
地下	-11.3887
乃敢發	-11.3888
飛騰	-11.3889
可生	-11.3889
寂不	-11.3889
夢見四	-11.3895
出在	-11.3895
故今	-11.3896
及今	-11.3897
聲悲號	-11.3897
以復得	-11.3899
幻惑呪術	-11.3902
南無普賢菩薩	-11.3903
南無大光	-11.3908
手捉金	-11.391
勝法	-11.3911
則有身	-11.3912
用心無	-11.3915
南無日光	-11.3916
乃成四	-11.3916
維摩文殊	-11.3918
因其	-11.3918
之眷屬	-11.3918
清淨行	-11.3919
能解了	-11.392
故不識	-11.3921
能救他	-11.3923
不奉	-11.3923
地獄行	-11.3929
若謂	-11.3931
南無寶嚴	-11.3932
佛弟子	-11.3933
身上	-11.3935
一切諸法無我	-11.3939
無方便	-11.3941
聞而	-11.3943
受此	-11.3943
殺之	-11.3944
無量阿僧祇劫	-11.3945
無垢光	-11.3945
受禁戒	-11.3948
一心若	-11.3948
際眾生無	-11.3949
已盡	-11.3951
無得無	-11.3953
何故自	-11.3956
但眾生	-11.3956
及至	-11.3956
心是無	-11.3958
而至	-11.3958
見日月光	-11.396
求一	-11.3961
從一小	-11.3962
出處	-11.3963
乘之	-11.3964
名為二	-11.3964
四天	-11.3965
達菩薩	-11.3967
出世故	-11.397
語故	-11.397
人自作	-11.3971
墮鐵輪地獄	-11.3971
用我語	-11.3973
云何生	-11.3976
在空處	-11.3976
是同	-11.3979
除不至心	-11.3981
我念	-11.3981
分別五	-11.3982
如電光	-11.3982
受快樂	-11.3983
我實	-11.3986
與作	-11.3989
供養無量恒	-11.3992
眾等	-11.3994
樂見	-11.3995
懺悔法	-11.3998
身清淨	-11.3998
彼行	-11.3999
深心	-11.4
謂無	-11.4001
住菩薩	-11.4004
得病	-11.4005
於定光佛	-11.4006
應有	-11.4007
水大	-11.401
作地	-11.4011
心還	-11.4011
乃以	-11.4013
身滅	-11.4013
罪生	-11.4014
分中	-11.4016
五百世中常	-11.4016
周圍三千	-11.4017
小心	-11.4018
兒者	-11.4019
以去	-11.4021
生信復能解	-11.4021
復有十恒河沙	-11.4023
南無教	-11.4024
但言	-11.4024
二眾	-11.4029
身神	-11.403
之文	-11.403
諸非	-11.403
相依	-11.4032
法自在	-11.4032
安寧	-11.4032
如種	-11.4033
汝復	-11.4037
自取	-11.4038
亦空	-11.4039
召諸	-11.404
而取	-11.4044
能降伏	-11.4045
時來	-11.4045
以修	-11.4048
知非非非	-11.4049
道之	-11.4049
從九十	-11.405
之香	-11.4053
戒之	-11.4055
受其苦	-11.4056
大明呪	-11.4059
生滅苦	-11.4065
但是	-11.4066
證也	-11.4066
者有罪	-11.4066
坑泥	-11.4067
得最勝	-11.4068
實如	-11.4069
此一	-11.407
難心	-11.4071
大功德	-11.4072
立塔廟	-11.4073
應一	-11.4075
受諸	-11.4081
若人有	-11.4081
口言	-11.4082
水上	-11.4082
是汝善標	-11.4086
復入	-11.4086
聽食肉	-11.409
地獄人	-11.4092
盡時	-11.4092
無物	-11.4098
三尸	-11.41
或不見	-11.41
是汝脚足	-11.41
眾剎	-11.4107
入善	-11.4108
皆不實	-11.4109
為無相	-11.4109
中作	-11.4111
先有	-11.4111
東北	-11.4113
分別也	-11.4114
即至	-11.4114
覆障	-11.4114
都不	-11.4117
上服	-11.4118
地獄餓鬼畜生	-11.4118
▁□	-11.4124
之耳	-11.4124
當如是	-11.413
乘於	-11.413
氣和	-11.413
持世	-11.413
如汝	-11.4131
為小	-11.4134
大地獄	-11.4136
有如是無量	-11.4141
不能自見	-11.4148
還無	-11.4153
病不生	-11.4159
諸經	-11.4159
難解	-11.416
心緣	-11.416
四出	-11.416
為果	-11.4161
是汝利刀	-11.4164
作何善	-11.4167
自在心	-11.4169
殺佛	-11.4169
我今如盲	-11.4171
鐵鋸	-11.4174
不共	-11.4178
常作	-11.418
有因緣	-11.418
轉身	-11.4181
焚漂	-11.4182
如是今	-11.4185
無報	-11.4187
我今涅槃時	-11.4187
佛即見	-11.4189
像佛	-11.419
道皆	-11.419
即是菩薩	-11.4192
者都	-11.4192
善友亦爾	-11.4193
施我	-11.4198
現世不	-11.4203
空慧三昧	-11.4203
生果	-11.4205
死時	-11.4206
或受	-11.4208
天下人	-11.4208
多於	-11.4209
相識	-11.4211
因是	-11.4214
下下	-11.4214
遍至	-11.4215
以清淨	-11.4217
大空	-11.4217
告除疑大士	-11.4221
從何而	-11.4223
體即	-11.4226
佛之因	-11.4227
分之	-11.4229
得無盡	-11.4229
同號不思議	-11.4233
不動圓	-11.4234
未得道者皆	-11.4234
南無度	-11.4236
求佛	-11.4237
捨心	-11.4241
在時	-11.4241
惡不造	-11.4244
理無不	-11.4246
心也	-11.4246
香臭俱	-11.4246
一切義	-11.425
不分別	-11.4252
言此經	-11.4253
界性三昧	-11.4255
並得成	-11.4255
頭有	-11.4263
二相	-11.4263
性如虛空	-11.4265
之深	-11.4266
是響	-11.4267
所生之	-11.4267
住如來	-11.4269
善入	-11.4275
即語	-11.4277
中國	-11.4282
生其中	-11.4283
定無	-11.4285
能所	-11.4286
南無智	-11.4286
所出	-11.4286
我聞一時佛在	-11.4287
開導	-11.4291
覺有	-11.4291
皆出	-11.4292
知行違	-11.4298
能如是	-11.4298
聞如來	-11.4301
不歡喜	-11.4302
所聞法	-11.4304
以應	-11.4305
說一偈	-11.4305
││	-11.4308
離諸惡趣	-11.4308
人事	-11.4323
無內	-11.4323
之果	-11.4325
身色	-11.4327
色而	-11.433
行千里	-11.4331
生死故	-11.4339
容有	-11.434
解脫相	-11.4341
不能依	-11.4345
刀擲	-11.436
稱佛	-11.4362
生慳	-11.4363
人財	-11.4364
者使得	-11.4365
無量能	-11.4366
▁意	-11.4367
嚴駕	-11.4369
命也	-11.437
解者	-11.4371
同心	-11.4376
在三途	-11.4377
聞此呪	-11.4378
鏡中面	-11.4378
有雖	-11.4383
聞是已	-11.4384
亦願	-11.4385
心口	-11.4388
大作	-11.4389
發來	-11.439
多者為說	-11.4391
所及	-11.4403
有力	-11.4405
行則	-11.4405
碓地獄	-11.4406
無量菩薩得	-11.4407
而行	-11.4409
理為	-11.4409
有情安樂	-11.4409
立功德	-11.4409
四等	-11.4416
依恃	-11.4419
當善聽	-11.4421
乘人說	-11.4421
以因	-11.4423
珍寶物	-11.4424
因緣故	-11.4424
正以	-11.4425
耳不	-11.4425
身死	-11.4428
來隨順	-11.443
能自	-11.4431
不如至心	-11.4433
告除疑	-11.4433
人惡	-11.4434
悉解脫	-11.4436
忿怒	-11.4437
凡有	-11.4438
而下	-11.4438
平等不二	-11.4439
七女	-11.4441
弟子某甲	-11.4442
不得觸	-11.4443
金光流	-11.4443
之命	-11.4453
速問	-11.4453
大自在王	-11.4454
來惱亂	-11.4455
何福德	-11.4456
世尊前	-11.4461
說食	-11.4462
色從	-11.4465
為福	-11.4469
若有能	-11.4474
又無	-11.4477
生苦	-11.4478
色有	-11.4478
心意	-11.4483
是聲聞	-11.4485
有國	-11.4489
施立	-11.449
小垂	-11.449
然為	-11.4493
有四種	-11.4493
▁五	-11.4496
我觀諸	-11.4497
和合同	-11.45
前世之	-11.4505
幡勝	-11.4505
非色	-11.4511
及非	-11.4513
交通	-11.4516
利益無量	-11.4519
眾生之性	-11.4522
南無解脫	-11.4527
自出	-11.4529
制心	-11.4532
彼心	-11.4532
故言一切眾生	-11.4534
能遣	-11.4538
世尊今	-11.4541
為本	-11.4544
本為	-11.4545
一切俗官不	-11.4555
名梵音	-11.4556
盡無遺	-11.4558
賢劫千佛	-11.456
世尊雖	-11.457
常一	-11.4572
法智	-11.4573
能飛行	-11.4575
下及	-11.4576
令說	-11.4576
諸小	-11.4578
六十五	-11.458
淚而言	-11.458
令得度	-11.4581
甘露妙	-11.4584
受善惡	-11.4585
以惡	-11.4585
山幢	-11.4587
告虛空藏菩	-11.4589
瞋恚者	-11.4589
云何三	-11.4591
食之無	-11.4595
日月光明	-11.4596
佛說是經	-11.4596
而非	-11.4597
無方	-11.4608
此之謂	-11.4612
我因	-11.4615
修有	-11.4617
道心	-11.4621
而諸	-11.4622
得水	-11.463
無禪定	-11.4632
順者	-11.4632
中劫	-11.4632
於一心	-11.4633
世間行	-11.4634
唯願為我	-11.4636
修道作	-11.4643
明人	-11.4646
安置法	-11.4648
香臭一	-11.465
知其妄	-11.4652
不暫	-11.4663
整衣	-11.4666
各發	-11.4667
行行	-11.4667
為非	-11.4672
三千世界	-11.4674
眾生空	-11.4681
盡於	-11.4681
時得出	-11.4686
自上	-11.469
莫於此經	-11.4694
在賢聖	-11.4694
此三種	-11.4708
非色非知	-11.4716
南無金光	-11.4723
緣在水	-11.4725
妙道	-11.473
樂人	-11.4736
苦毒	-11.4737
意是	-11.4738
五百生	-11.4745
緣者	-11.4752
一眾生	-11.4754
不種	-11.4757
無不獲	-11.4766
佛告菩薩	-11.4767
日月普照	-11.477
割其	-11.4773
一時者	-11.4774
法眼	-11.4776
無不實	-11.478
汝好諦聽諦聽	-11.478
南無琉璃光	-11.4781
莫見	-11.4781
名經	-11.4782
觀法	-11.479
南無千	-11.4791
有因	-11.4793
經法	-11.4794
相因	-11.4795
心亦	-11.4799
聽者	-11.48
知而	-11.4803
藏所謂	-11.4805
今人	-11.4805
病之良	-11.4806
者不形咲	-11.4808
身常住	-11.4816
若知	-11.4816
之藏	-11.4817
佛者多	-11.4819
之神	-11.4819
正破	-11.482
當至心念	-11.4824
如今	-11.4835
長眼	-11.4838
必至	-11.4842
淨故	-11.4847
云何今日	-11.4848
性是為	-11.4855
方便救度	-11.4861
有智	-11.4864
五陰山	-11.4867
防護法	-11.487
阿蘇	-11.4873
無用	-11.4875
眾生無明之	-11.4877
不去	-11.488
者所有	-11.4891
有樂	-11.4891
為利益	-11.4893
住忍	-11.4893
初我	-11.4894
煩惱若	-11.4895
其人即	-11.4897
言在	-11.4903
即食	-11.4906
如是皆	-11.4908
若眼	-11.491
萬者	-11.4911
盡皆	-11.4915
雨寶天	-11.4915
在心不令	-11.4916
尊佛	-11.4917
生不信	-11.4923
真行	-11.4927
語人	-11.4927
汝所問	-11.4931
海意三昧	-11.4931
無遺	-11.4933
目覩見	-11.494
金剛手	-11.4946
目者	-11.4946
壞善惡	-11.4948
一切諸天	-11.4949
有父母	-11.4954
作自得	-11.4955
空寂無	-11.4959
命者從	-11.4968
從見	-11.497
是繼縛	-11.4971
假使有人造	-11.4979
第三會上	-11.498
難我	-11.4985
同名為	-11.4993
不見有	-11.4996
三相	-11.5004
信者	-11.5008
之病	-11.5012
性非有	-11.5019
取真	-11.5028
修故	-11.5034
冥心	-11.5039
名出家	-11.504
則法	-11.5041
一人三	-11.5041
善相	-11.5045
如在	-11.5046
南無五	-11.5046
當讚	-11.5048
可能	-11.505
精專	-11.505
無功德	-11.5054
天大	-11.5054
日天	-11.5055
心無念	-11.5056
爾應	-11.5061
皆違	-11.5064
有三十二	-11.5066
傳法	-11.5069
起慈悲	-11.5069
食器	-11.5075
得如是	-11.5086
法服	-11.5089
名離	-11.5092
邪者	-11.5098
斬其	-11.5101
諸佛不	-11.5109
佛菩提	-11.5119
若取	-11.5128
銷融是非	-11.5137
除我	-11.5144
病不	-11.5149
有百千	-11.5153
問為	-11.516
但為	-11.516
不求自	-11.5162
違性	-11.5173
意即	-11.5175
不語	-11.5179
喜見	-11.5179
是行	-11.518
見自身	-11.5186
一切眾生而	-11.5188
名及	-11.5189
餘者	-11.5191
一切諸法無	-11.5195
無本處	-11.5196
中一日一夜	-11.5196
床臥	-11.5199
涅槃者	-11.5205
能於	-11.5208
佛告諸大眾	-11.5217
因故	-11.5221
水之	-11.5223
是影	-11.5223
貪利	-11.5224
得充	-11.5229
目而	-11.523
罪從心	-11.5231
生生世世還受	-11.5233
以封	-11.5235
前僧物	-11.5235
與法	-11.5236
中為人	-11.5237
無照境	-11.5237
皆是眾	-11.5237
煩惱心	-11.5238
外請	-11.5241
修慈悲	-11.5247
法教	-11.5248
龍自在王	-11.5251
能說	-11.5254
法則	-11.5256
我此	-11.526
文字根本	-11.5262
世間之	-11.5262
此身心	-11.5264
得無量	-11.5265
誹謗之	-11.5265
如王	-11.5274
欲遠行	-11.5281
現小	-11.5282
久長大	-11.5285
觸相	-11.5286
寧以	-11.529
清淨心	-11.5293
能分別	-11.5298
金剛慧	-11.5317
如本無	-11.5323
非其	-11.5324
南無寶藏	-11.5324
世尊說為	-11.5335
倍加	-11.5336
如來所	-11.5338
如其三	-11.5339
得同	-11.5344
止之	-11.5359
欲說	-11.5361
起福	-11.5364
是佛性	-11.5367
勝力	-11.5369
心盡意	-11.5372
共為	-11.5373
相當	-11.5378
起大悲	-11.5382
千國土	-11.5383
四十八	-11.5384
等一淨	-11.5388
為令	-11.5388
爾時眾中有一菩薩摩訶薩	-11.5392
比丘比丘尼優婆塞優婆夷國王大臣	-11.5401
名波	-11.5413
如理	-11.5419
非理	-11.5424
令無	-11.5425
不離心	-11.5429
四人	-11.5431
與無	-11.5431
名稱	-11.5432
是即	-11.5437
離文	-11.5441
如法奉	-11.5454
或生	-11.5462
依智	-11.5463
體空	-11.5469
若意	-11.5472
三寶者	-11.5475
可避	-11.5476
一逆	-11.548
將內人入	-11.5491
無忍辱	-11.5497
當得罪	-11.5505
動搖	-11.5516
吐法	-11.5519
黃末	-11.5529
有心即	-11.553
相或	-11.5531
念故	-11.5532
我從過去	-11.5538
求見	-11.5545
金偈	-11.5551
惡魔	-11.5554
地之	-11.5557
南方來	-11.5568
生果報	-11.5568
為王	-11.557
卷上	-11.5571
非銷融	-11.5577
不過有	-11.5582
是眾聖	-11.5586
現佛	-11.5591
道成	-11.5592
所得功德無量無邊	-11.5593
定菩薩	-11.5594
吾今為汝解	-11.5596
日夜增	-11.5596
也今	-11.56
眾生皆	-11.56
云何名為善	-11.5602
為苦	-11.5604
願心	-11.5605
不作	-11.561
生不死	-11.5611
復如故	-11.5614
見他修	-11.5618
真空	-11.562
是空於	-11.5626
如能	-11.5631
安住不動	-11.5634
名為究竟大悲哀戀	-11.5634
惡業捨	-11.5635
滅乃	-11.5638
會歸	-11.564
即無所	-11.5644
眾心	-11.5652
之精	-11.5653
賢劫	-11.5654
聲聞身	-11.5665
成聖道	-11.5672
觸之	-11.5677
十八者世世教	-11.5678
所說教	-11.5684
身中能生一	-11.5689
是眾生	-11.5691
成人	-11.5691
修修	-11.5695
無惡	-11.5698
是汝時雨	-11.5699
無受	-11.5699
頂名	-11.5702
見一佛	-11.5703
復於	-11.5707
無所染	-11.5708
中亦有	-11.5714
萬死	-11.572
多為	-11.5729
上至頂天	-11.573
學大慈大悲	-11.5739
帝釋之	-11.5742
上境界	-11.5744
五光	-11.5746
有色	-11.5752
四十五	-11.5752
故言無	-11.5753
十種	-11.5758
佛為	-11.5767
上事	-11.5769
故空	-11.5771
三塗變	-11.5778
道俗作	-11.5782
毒心	-11.5788
是汝弓箭	-11.5789
語說	-11.5791
最勝妙	-11.5793
亦不離	-11.5798
但唯	-11.5804
他故	-11.5808
起處	-11.5809
淺漸	-11.5819
故能入世間	-11.5823
但見現	-11.5825
佛日	-11.5828
一子者	-11.5831
大道之	-11.5833
汝罪	-11.5836
畏故	-11.5839
知身中具有	-11.5839
三寶物	-11.5843
人道	-11.5847
夫至	-11.5852
子不	-11.586
為三	-11.5869
能奉行	-11.5884
所言說	-11.5893
名無間	-11.5907
關門	-11.591
邊沙	-11.5911
恒無	-11.5911
乃能除	-11.5918
施用	-11.5919
功不	-11.592
子不識	-11.5927
滅佛	-11.5933
合掌向佛而	-11.5933
邪歸入八正道	-11.5934
所不	-11.5936
跪合掌	-11.5938
未覩	-11.5944
是有住	-11.5948
時行	-11.5956
諸惡趣	-11.596
行一切	-11.5965
見十方佛	-11.5967
若不見	-11.5968
說邪	-11.5973
令一切	-11.5975
十方無量佛	-11.5979
過自責	-11.5984
住佛	-11.6
鐵針	-11.6002
達深	-11.6002
以得	-11.6003
永斷疑	-11.6009
以何為	-11.601
生瞋	-11.601
過於此	-11.6024
多人聚	-11.6027
隨佛	-11.6029
不傷	-11.6031
除疑復	-11.6033
入深	-11.6034
是故學	-11.6034
山間	-11.6059
是爾時	-11.6063
親善	-11.6068
一者常	-11.6069
然者	-11.6074
禮敬	-11.6074
下釋	-11.6074
立塔寺	-11.6078
入手	-11.6079
大雨	-11.608
復自稱	-11.6083
二百	-11.6089
懷歡喜	-11.609
不須除	-11.609
惑立名	-11.609
護人身	-11.6094
一切相	-11.6095
之語	-11.6101
今現	-11.6102
則名為	-11.6105
八同號	-11.6107
滅亡	-11.6112
以是之故心	-11.6118
第二十	-11.6136
正理衣	-11.6137
合成一	-11.6142
度群生	-11.6145
之愚者	-11.6154
自然生	-11.6159
在三塗	-11.6161
是一者即	-11.6165
命無窮	-11.6168
爾乃命	-11.617
當隨	-11.6181
食不	-11.6191
得至佛	-11.6205
我弟子	-11.6213
若持此經	-11.6214
為人不	-11.6216
受之	-11.6222
邪見煩惱	-11.6224
眾生作諸煩惱	-11.6227
名為覺	-11.6232
順情	-11.6232
唯願佛世尊為我	-11.624
南無佛	-11.6241
龍馬	-11.6248
律清淨	-11.6249
俱為	-11.6255
造罪不	-11.626
近惡	-11.6275
心坐禪	-11.629
若王	-11.6292
大利益者	-11.6299
生寶	-11.6312
人民莫不	-11.6316
為自	-11.6319
若不動	-11.6324
性各	-11.6332
情稱	-11.6333
凡欲	-11.634
如凡夫夜夢見身	-11.6344
不定有	-11.6347
我作	-11.6351
善答	-11.6351
忽悟	-11.6352
諸羅漢	-11.6364
天神明	-11.6376
諸白衣	-11.6376
眾圍繞	-11.6389
生乃	-11.6393
以名	-11.6394
復次迦葉	-11.6398
免斯	-11.6408
亦愈	-11.641
蒙記	-11.641
天世人	-11.6413
普智三昧	-11.6438
南方火	-11.6441
從眾生	-11.645
下若	-11.6451
妙聲	-11.6453
為人身	-11.648
開智慧	-11.6486
三昧起入	-11.6491
照諸根	-11.6497
若能如	-11.6497
聞聲不	-11.6501
願悉	-11.652
理志	-11.6537
無殊	-11.6552
師子依	-11.6553
四大天	-11.6573
▁人	-11.6574
香積	-11.6575
如馬	-11.6576
物以用	-11.658
無稱	-11.6593
進而	-11.6594
亂起	-11.6594
木偈	-11.6601
見他人	-11.6607
邊地不生	-11.661
又問三十二相	-11.6617
說而	-11.6623
羅漢果	-11.6634
無量力	-11.6635
令圓滿	-11.6639
從彼	-11.6649
得見此	-11.6651
毒善	-11.6661
一聞	-11.6669
眾生行	-11.6672
順教	-11.6677
能破壞	-11.6679
隨力	-11.6684
不當	-11.6685
之理圓	-11.6686
經中所說	-11.6687
說一	-11.6693
四十四	-11.6693
佛答	-11.6697
盡諸有	-11.6701
常得見佛	-11.6702
救護身命經	-11.6703
像法末	-11.6706
樂中	-11.6709
摩尼寶	-11.671
其正	-11.6712
是病本	-11.6721
人出家	-11.6731
入水	-11.6733
住立	-11.6741
名為解脫	-11.6744
菩薩眾	-11.6746
彼等	-11.6756
有大神	-11.6769
七重	-11.6779
懃行此	-11.678
佛語故	-11.6785
持者	-11.6791
相三昧起入	-11.6791
昔蒙	-11.6796
如凡夫	-11.6804
以生	-11.6805
違如	-11.6807
行苦行	-11.6811
身得	-11.6811
水底	-11.6822
處處經中	-11.6823
小兒謂	-11.6824
所行之	-11.6824
此罪	-11.6825
護身命經一卷	-11.6835
名為甘	-11.6835
一百三十	-11.6837
汝名	-11.6838
甘水	-11.6847
體無	-11.6849
從我	-11.6849
此法從	-11.6852
者死	-11.686
與不	-11.6864
有道	-11.6867
生西方	-11.687
王名不	-11.688
日出時大	-11.6895
從座起而白佛言	-11.6896
實相之理	-11.691
住著	-11.691
見佛聞法	-11.6911
光光	-11.6916
罪已	-11.6927
轉輪	-11.6936
是非則	-11.6938
不開	-11.6944
諸四眾	-11.695
直事	-11.6956
人如	-11.6958
自在者	-11.6961
修道者	-11.6983
為枯	-11.6998
佛後	-11.7
及彼	-11.7008
末香	-11.7016
家者	-11.7017
當行	-11.703
不生邊地	-11.7037
諸善逝	-11.7038
其語	-11.7049
二境	-11.705
為上	-11.7065
妄見諸	-11.7066
如能滅	-11.7067
東方木	-11.7079
有二種人	-11.7081
苦不	-11.7086
人當來	-11.7093
所有未來	-11.7102
十方現在	-11.7102
若有學	-11.7103
即便止	-11.7108
心若有	-11.7109
等皆是	-11.711
善見	-11.7125
殘飲食	-11.7128
者不貪	-11.7142
體既不	-11.7146
是汝鎧仗	-11.7151
有誹謗	-11.7152
唯願慈尊為	-11.7154
七重鐵網	-11.716
與聖	-11.7164
人受七	-11.7167
剎那我	-11.7176
行施	-11.7179
慈母亦	-11.7208
是天之	-11.7219
善友恩	-11.7234
為汝分別解	-11.7241
百餘年	-11.7252
無有緣	-11.7255
捨身故	-11.7261
由如雲	-11.7276
於惡世中	-11.7296
無生無	-11.7306
得心	-11.7311
一切眾生如	-11.7329
日伏	-11.7332
皆與	-11.7337
火偈	-11.7337
彼愚癡	-11.7344
名法	-11.7346
百二十種	-11.7376
實是	-11.7381
原之	-11.7385
可畏	-11.7415
大名	-11.7443
除諸穢惡	-11.7447
大眾蒙	-11.7477
叫喚大	-11.7482
之謂	-11.7485
隨所住	-11.7491
住無量劫	-11.7494
云何如能	-11.7495
從他	-11.7497
有性	-11.7501
如慈母	-11.7501
猶如大	-11.7521
說正法	-11.7537
飲食隨	-11.7542
不修外	-11.7543
理衣服	-11.7552
性空寂	-11.7554
同號離	-11.7554
此念	-11.7556
中生	-11.7559
稱為	-11.7564
眾不	-11.757
故言有	-11.7575
銀地上與	-11.7582
道若	-11.7584
捨命之	-11.7593
三歸五戒奉行	-11.7598
如是眾生	-11.7608
所棄	-11.7613
能生善	-11.7633
刀而欲	-11.7639
不入地獄	-11.7643
說大乘	-11.765
十方諸大	-11.7653
離一切	-11.7664
兩山	-11.7665
眼是有	-11.7665
更無他	-11.7674
不可得見	-11.7682
身中具有	-11.7682
關	-11.7685
心不起	-11.7687
放大	-11.7701
我時	-11.771
於毘尼	-11.7713
除此心	-11.7719
願佛世尊為我解	-11.7728
於此劫	-11.7743
河邊	-11.7773
業則生	-11.7784
起瞋	-11.779
說大乘經	-11.7794
猶未	-11.782
諸珍寶	-11.785
受人	-11.7855
法即是	-11.7857
於一身中	-11.7894
品第三	-11.7902
二俱空	-11.7917
之非	-11.7934
能入世間不	-11.7942
復二	-11.7948
過無量	-11.7954
體一	-11.7957
剎土	-11.7965
可得度	-11.797
爾時延壽	-11.7988
皆由禮是十方	-11.7997
塵垢不	-11.8004
教我捨	-11.8013
六百萬	-11.8051
究竟大悲哀戀	-11.8053
來無	-11.8054
墮諸惡	-11.8063
十八者世世	-11.8066
七百餘	-11.8067
是名第	-11.8087
日已後	-11.809
見心相	-11.8098
本來寂	-11.8105
是汝財寶	-11.8114
即得見	-11.8149
華光菩薩	-11.817
或用	-11.8172
是汝妙藥	-11.8179
說心	-11.8195
亦不教我	-11.8219
有說言	-11.8223
此布施	-11.8237
世人民	-11.8237
得免此	-11.8242
搖	-11.8244
在處	-11.8267
或將內人	-11.8287
名改換	-11.8312
一聞名	-11.8318
重之心	-11.8321
末和	-11.8321
是動	-11.8349
南無無量音	-11.8354
法漸	-11.8378
使不斷	-11.8391
西方金	-11.8398
國王大臣長者	-11.84
是謂	-11.8408
一淨法	-11.8417
事明師	-11.8426
緣諸境不	-11.8431
然後即	-11.8432
即成聖	-11.8436
時眾中有一菩薩摩訶薩名曰	-11.8448
與父母	-11.8516
諸法相三昧	-11.8519
所宗	-11.852
於無量劫	-11.853
我說一乘	-11.8541
過去無量阿僧祇	-11.8564
六日	-11.8597
壽數千萬	-11.8597
焰光	-11.8626
貧頓	-11.8631
羅帝	-11.8651
守戒清	-11.8655
法更不	-11.8664
大乘心	-11.8672
四十二	-11.8674
云何能見	-11.8686
身血	-11.8706
明不修	-11.8708
寶輪	-11.8751
從無本	-11.8766
為度	-11.8774
是非得失	-11.8798
有益	-11.8804
是觸	-11.8821
是汝橋梁	-11.8839
有能讀誦	-11.8847
會上神	-11.886
從心意緣慮中	-11.892
為真	-11.8923
聲朗	-11.8943
得聞此	-11.8964
言教文字	-11.8964
日時	-11.8973
是汝身命	-11.8997
整	-11.9311
│	-12.0137
蠶	-12.0547
謹	-12.1772
愧	-12.1881
舊	-12.2293
嗚	-12.2338
垣	-12.2408
馱	-12.2418
碓	-12.2506
低	-12.2522
圖	-12.253
迸	-12.2599
件	-12.264
薰	-12.2641
藍	-12.2678
蜂	-12.2724
炙	-12.2742
肯	-12.2749
咀	-12.2822
弩	-12.2837
矛	-12.2837
觜	-12.2837
悋	-12.2841
䩭	-12.2845
奎	-12.2845
慴	-12.2845
戟	-12.2845
昴	-12.2845
胃	-12.2845
苗	-12.2845
軫	-12.2845
慄	-12.2849
亢	-12.2853
嬾	-12.2853
慵	-12.2853
楯	-12.2853
殤	-12.2853
氐	-12.2853
礫	-12.2853
箕	-12.2853
縕	-12.2853
肘	-12.2853
萇	-12.2853
鄒	-12.2853
壯	-12.2857
椃	-12.2857
痔	-12.2857
訕	-12.2859
攢	-12.286
撓	-12.2861
跟	-12.2861
蹇	-12.2861
途	-12.2864
埵	-12.2869
㨯	-12.2869
憔	-12.2869
攞	-12.2869
栽	-12.2869
沼	-12.2869
縵	-12.2869
纖	-12.2869
荔	-12.2869
輿	-12.2869
逃	-12.2869
鈕	-12.2869
鉫	-12.2869
陷	-12.2869
繞	-12.2869
剔	-12.287
圜	-12.287
卛	-12.2873
拏	-12.2873
泗	-12.2873
派	-12.2873
涯	-12.2873
劇	-12.2875
洹	-12.2877
䤤	-12.2877
僕	-12.2877
沃	-12.2877
爽	-12.2877
獎	-12.2877
羸	-12.2877
蔭	-12.2877
薜	-12.2877
豁	-12.2879
鳩	-12.2881
咨	-12.2881
庭	-12.2881
掬	-12.2881
畟	-12.2881
簇	-12.2881
茹	-12.2883
促	-12.2884
遷	-12.2885
姤	-12.2885
䋧	-12.2885
䩞	-12.2885
冀	-12.2885
剉	-12.2885
呈	-12.2885
噀	-12.2885
坌	-12.2885
妯	-12.2885
姑	-12.2885
姙	-12.2885
娌	-12.2885
擯	-12.2885
痿	-12.2885
罹	-12.2885
踞	-12.2885
酪	-12.2885
鋒	-12.2885
泰	-12.2889
眄	-12.2889
瞼	-12.2889
蜈	-12.2889
詃	-12.2889
披	-12.2893
偶	-12.2893
乀	-12.2893
僂	-12.2893
夾	-12.2893
寵	-12.2893
摶	-12.2893
煻	-12.2893
狠	-12.2893
猖	-12.2893
猗	-12.2893
紹	-12.2893
縮	-12.2893
肝	-12.2893
脊	-12.2893
蚣	-12.2893
蠍	-12.2893
跳	-12.2893
咏	-12.2897
惛	-12.2897
拾	-12.2897
掖	-12.2897
擠	-12.2897
杯	-12.2897
涅	-12.2901
㥽	-12.2901
僻	-12.2901
儐	-12.2901
咬	-12.2901
圂	-12.2901
墾	-12.2901
忔	-12.2901
忠	-12.2901
扇	-12.2901
拳	-12.2901
攪	-12.2901
梚	-12.2901
槨	-12.2901
欄	-12.2901
滴	-12.2901
燻	-12.2901
畵	-12.2901
筏	-12.2901
築	-12.2901
纓	-12.2901
舡	-12.2901
萎	-12.2901
蟬	-12.2901
謀	-12.2901
貂	-12.2901
閦	-12.2904
䠒	-12.2904
溢	-12.2905
疫	-12.2905
尠	-12.2906
杈	-12.2906
槌	-12.2906
瀾	-12.2906
痍	-12.2906
螺	-12.2906
蟸	-12.2906
赴	-12.2906
跛	-12.2906
午	-12.2906
綺	-12.2909
絹	-12.2909
虐	-12.2909
磑	-12.2909
㒓	-12.291
仕	-12.291
坂	-12.291
堀	-12.291
堝	-12.291
奘	-12.291
悸	-12.291
扴	-12.291
揆	-12.291
揭	-12.291
斥	-12.291
杼	-12.291
桎	-12.291
滯	-12.291
灼	-12.291
熒	-12.291
熬	-12.291
祁	-12.291
糠	-12.291
羽	-12.291
耀	-12.291
脅	-12.291
膚	-12.291
董	-12.291
價	-12.291
蠱	-12.2911
溜	-12.2912
撾	-12.2912
眷	-12.2912
奏	-12.2914
京	-12.2914
嚼	-12.2914
姝	-12.2914
晴	-12.2914
梅	-12.2914
沐	-12.2914
焦	-12.2914
燉	-12.2914
瓫	-12.2914
籍	-12.2914
粒	-12.2914
萩	-12.2914
蘺	-12.2914
誚	-12.2914
蹤	-12.2914
醍	-12.2914
醐	-12.2914
竺	-12.2914
昧	-12.2915
縷	-12.2916
詛	-12.2916
禽	-12.2916
逸	-12.2916
㒃	-12.2918
儼	-12.2918
刊	-12.2918
剡	-12.2918
叺	-12.2918
循	-12.2918
恥	-12.2918
按	-12.2918
捺	-12.2918
槍	-12.2918
歟	-12.2918
泊	-12.2918
泳	-12.2918
煌	-12.2918
牕	-12.2918
犍	-12.2918
狎	-12.2918
琥	-12.2918
環	-12.2918
瘴	-12.2918
監	-12.2918
祝	-12.2918
窺	-12.2918
羞	-12.2918
腥	-12.2918
臊	-12.2918
衍	-12.2918
襄	-12.2918
讁	-12.2918
迄	-12.2918
采	-12.2918
鎚	-12.2918
肖	-12.2919
浣	-12.2919
戴	-12.2919
忉	-12.292
刃	-12.292
映	-12.292
繚	-12.292
貢	-12.292
珀	-12.2921
鵝	-12.2922
仚	-12.2922
企	-12.2922
俄	-12.2922
函	-12.2922
宋	-12.2922
榻	-12.2922
瑩	-12.2922
疼	-12.2922
荊	-12.2922
蟹	-12.2922
蹹	-12.2922
邑	-12.2922
鑄	-12.2922
題	-12.2923
㲉	-12.2924
亥	-12.2924
冑	-12.2924
懿	-12.2924
擐	-12.2924
楔	-12.2924
癰	-12.2924
稻	-12.2924
侯	-12.2925
彥	-12.2925
疊	-12.2925
蓐	-12.2925
偕	-12.2926
A	-12.2926
B	-12.2926
[	-12.2926
c	-12.2926
f	-12.2926
亶	-12.2926
伶	-12.2926
佺	-12.2926
侫	-12.2926
傘	-12.2926
嘶	-12.2926
嚇	-12.2926
域	-12.2926
堯	-12.2926
塠	-12.2926
峯	-12.2926
崔	-12.2926
恍	-12.2926
慞	-12.2926
懆	-12.2926
戌	-12.2926
拒	-12.2926
挑	-12.2926
捭	-12.2926
捶	-12.2926
掠	-12.2926
摸	-12.2926
暇	-12.2926
樵	-12.2926
款	-12.2926
淤	-12.2926
湜	-12.2926
澒	-12.2926
濛	-12.2926
炆	-12.2926
猲	-12.2926
琰	-12.2926
癭	-12.2926
睒	-12.2926
磪	-12.2926
秘	-12.2926
笠	-12.2926
箸	-12.2926
膺	-12.2926
艱	-12.2926
蓼	-12.2926
蛐	-12.2926
蛾	-12.2926
蟮	-12.2926
裝	-12.2926
褾	-12.2926
訓	-12.2926
誌	-12.2926
讎	-12.2926
貲	-12.2926
躃	-12.2926
遵	-12.2926
籬	-12.2926
搔	-12.2927
癢	-12.2927
丞	-12.2928
凉	-12.2928
團	-12.2928
姪	-12.2928
掐	-12.2928
搯	-12.2928
擣	-12.2928
袚	-12.2928
蠲	-12.2928
荳	-12.2929
䐗	-12.293
侹	-12.293
剄	-12.293
喉	-12.293
喘	-12.293
槦	-12.293
游	-12.293
皷	-12.293
眴	-12.293
禾	-12.293
肚	-12.293
苟	-12.293
蜋	-12.293
蜣	-12.293
趁	-12.293
鎘	-12.293
鏗	-12.293
鉤	-12.2931
囉	-12.2931
踰	-12.2932
欣	-12.2932
薪	-12.2933
牟	-12.2934
㮈	-12.2934
䛴	-12.2934
亮	-12.2934
倖	-12.2934
僥	-12.2934
准	-12.2934
凌	-12.2934
包	-12.2934
咄	-12.2934
嘲	-12.2934
圈	-12.2934
夯	-12.2934
娶	-12.2934
憤	-12.2934
扣	-12.2934
捍	-12.2934
援	-12.2934
松	-12.2934
柴	-12.2934
桃	-12.2934
渟	-12.2934
澪	-12.2934
燭	-12.2934
爍	-12.2934
爼	-12.2934
瑁	-12.2934
疆	-12.2934
瞽	-12.2934
矢	-12.2934
碑	-12.2934
笙	-12.2934
籠	-12.2934
紐	-12.2934
罕	-12.2934
膂	-12.2934
臘	-12.2934
蝦	-12.2934
蟆	-12.2934
覲	-12.2934
諧	-12.2934
謔	-12.2934
謾	-12.2934
軼	-12.2934
轓	-12.2934
逈	-12.2934
酢	-12.2934
鍍	-12.2934
閃	-12.2934
萠	-12.2936
墐	-12.2938
慘	-12.2938
範	-12.2938
荑	-12.2938
蕪	-12.2938
鐶	-12.2938
奮	-12.2942
〕	-12.2942
䟡	-12.2942
丙	-12.2942
佯	-12.2942
儲	-12.2942
刻	-12.2942
効	-12.2942
區	-12.2942
吻	-12.2942
嗣	-12.2942
弦	-12.2942
彩	-12.2942
揀	-12.2942
搜	-12.2942
擒	-12.2942
斑	-12.2942
曆	-12.2942
桂	-12.2942
槊	-12.2942
沱	-12.2942
瑣	-12.2942
瓷	-12.2942
番	-12.2942
篡	-12.2942
紵	-12.2942
綩	-12.2942
莂	-12.2942
莠	-12.2942
覃	-12.2942
誕	-12.2942
謨	-12.2942
蹶	-12.2942
輟	-12.2942
轄	-12.2942
酉	-12.2942
酣	-12.2942
釭	-12.2942
銘	-12.2942
遞	-12.2945
寡	-12.2946
呴	-12.2946
註	-12.2946
闡	-12.2946
膿	-12.2948
筋	-12.2948
卉	-12.2948
㲪	-12.295
削	-12.295
屣	-12.295
岨	-12.295
慺	-12.295
抑	-12.295
拆	-12.295
拭	-12.295
捐	-12.295
撰	-12.295
攎	-12.295
斛	-12.295
机	-12.295
朾	-12.295
杆	-12.295
檛	-12.295
欓	-12.295
毾	-12.295
氍	-12.295
洇	-12.295
淫	-12.295
溉	-12.295
瓠	-12.295
科	-12.295
稗	-12.295
翫	-12.295
腩	-12.295
蝮	-12.295
諷	-12.295
謟	-12.295
讒	-12.295
豺	-12.295
貿	-12.295
蹬	-12.295
剃	-12.295
頻	-12.2955
盂	-12.2957
桓	-12.2957
埌	-12.2957
魍	-12.2958
魎	-12.2958
*	-12.2958
㯹	-12.2958
䑜	-12.2958
叢	-12.2958
喫	-12.2958
征	-12.2958
悵	-12.2958
摘	-12.2958
晚	-12.2958
柏	-12.2958
桑	-12.2958
氈	-12.2958
泄	-12.2958
洋	-12.2958
獷	-12.2958
珂	-12.2958
盆	-12.2958
省	-12.2958
瞎	-12.2958
穆	-12.2958
管	-12.2958
簫	-12.2958
糸	-12.2958
繁	-12.2958
聊	-12.2958
腏	-12.2958
芳	-12.2958
苽	-12.2958
蝙	-12.2958
蝠	-12.2958
褥	-12.2958
蹄	-12.2958
躬	-12.2958
遁	-12.2958
遐	-12.2958
鐃	-12.2958
氏	-12.2959
彈	-12.2964
┌	-12.2966
┐	-12.2966
壇	-12.2966
夙	-12.2966
娥	-12.2966
峻	-12.2966
巢	-12.2966
怗	-12.2966
慕	-12.2966
探	-12.2966
潘	-12.2966
澗	-12.2966
獐	-12.2966
琵	-12.2966
縳	-12.2966
考	-12.2966
腕	-12.2966
蘊	-12.2966
衢	-12.2966
診	-12.2966
贍	-12.2966
踝	-12.2966
轅	-12.2966
紀	-12.2971
鱉	-12.2973
殷	-12.2973
胞	-12.2973
頗	-12.2974
]	-12.2974
└	-12.2974
┘	-12.2974
嘔	-12.2974
囊	-12.2974
態	-12.2974
抗	-12.2974
柝	-12.2974
沇	-12.2974
淥	-12.2974
璧	-12.2974
痑	-12.2974
祚	-12.2974
蟣	-12.2974
諛	-12.2974
鐖	-12.2974
雌	-12.2974
蟻	-12.2974
隆	-12.298
犲	-12.2981
杌	-12.2982
鴛	-12.2982
丑	-12.2982
卯	-12.2982
吳	-12.2982
嘴	-12.2982
坎	-12.2982
戊	-12.2982
攻	-12.2982
沿	-12.2982
燧	-12.2982
狄	-12.2982
班	-12.2982
睇	-12.2982
矩	-12.2982
秉	-12.2982
粜	-12.2982
糴	-12.2982
綠	-12.2982
縹	-12.2982
翱	-12.2982
薗	-12.2982
蜫	-12.2982
蠡	-12.2982
訪	-12.2982
貯	-12.2982
農	-12.2982
釘	-12.2982
鏤	-12.2982
鑽	-12.2982
丁	-12.2986
裳	-12.2987
閻	-12.2989
苑	-12.2989
佞	-12.299
佳	-12.299
兮	-12.299
勳	-12.299
匠	-12.299
垠	-12.299
塊	-12.299
壃	-12.299
庚	-12.299
敲	-12.299
沮	-12.299
淹	-12.299
添	-12.299
疷	-12.299
綾	-12.299
芸	-12.299
蚑	-12.299
蜎	-12.299
懼	-12.2996
㖿	-12.2998
喬	-12.2998
噠	-12.2998
埠	-12.2998
堆	-12.2998
夕	-12.2998
拉	-12.2998
曷	-12.2998
櫓	-12.2998
矇	-12.2998
磬	-12.2998
街	-12.2998
脆	-12.3004
淪	-12.3006
墦	-12.3006
廋	-12.3006
擺	-12.3006
楊	-12.3006
疎	-12.3006
瘦	-12.3006
矜	-12.3006
錫	-12.3013
䛟	-12.3014
䞦	-12.3014
僚	-12.3014
吊	-12.3014
嘑	-12.3014
噵	-12.3014
壓	-12.3014
寘	-12.3014
搭	-12.3014
格	-12.3014
澇	-12.3014
癃	-12.3014
的	-12.3014
睛	-12.3014
碣	-12.3014
磊	-12.3014
礰	-12.3014
禰	-12.3014
緒	-12.3014
蚊	-12.3014
蚤	-12.3014
蝱	-12.3014
詩	-12.3014
趐	-12.3014
遜	-12.3014
錦	-12.3014
靉	-12.3014
鸚	-12.3014
秏	-12.3018
晨	-12.3019
迅	-12.3022
墳	-12.3022
廉	-12.3022
晈	-12.3022
窓	-12.3022
莝	-12.3022
丐	-12.303
俯	-12.303
呃	-12.303
喧	-12.303
嘊	-12.303
宛	-12.303
怉	-12.303
捷	-12.303
沬	-12.303
賀	-12.303
陌	-12.303
鴨	-12.3038
絡	-12.3038
繹	-12.3038
豕	-12.3038
鑊	-12.304
揣	-12.3042
瞿	-12.3046
沛	-12.3046
肇	-12.3046
躡	-12.3046
僮	-12.3062
撩	-12.3062
虧	-12.3062
乙	-12.307
錠	-12.307
蚔	-12.3091
鼉	-13.6242
鷲	-13.6243
騾	-13.6244
駈	-13.6245
鐸	-13.6246
酌	-13.6247
辜	-13.6248
轂	-13.6249
費	-13.625
貳	-13.6251
讓	-13.6252
誤	-13.6253
詔	-13.6254
訾	-13.6255
蠕	-13.6256
螫	-13.6257
蕉	-13.6258
蔓	-13.6259
菟	-13.626
茯	-13.6261
苓	-13.6262
膖	-13.6263
脹	-13.6264
脩	-13.6265
胝	-13.6266
肆	-13.6267
署	-13.6268
絙	-13.6269
紺	-13.627
籌	-13.6271
箏	-13.6272
睦	-13.6273
盟	-13.6274
皂	-13.6275
灸	-13.6276
激	-13.6277
澁	-13.6278
漉	-13.6279
毳	-13.628
殑	-13.6281
橙	-13.6282
槐	-13.6283
椽	-13.6284
梯	-13.6285
晉	-13.6286
攕	-13.6287
搪	-13.6288
懇	-13.6289
惔	-13.629
惓	-13.6291
恗	-13.6292
忓	-13.6293
彫	-13.6294
帳	-13.6295
寔	-13.6296
孩	-13.6297
嫁	-13.6298
姬	-13.6299
委	-13.63
奕	-13.6301
墟	-13.6302
墎	-13.6303
塢	-13.6304
堤	-13.6305
嚧	-13.6306
嗤	-13.6307
哮	-13.6308
叩	-13.6309
叔	-13.631
剪	-13.6311
刈	-13.6312
倡	-13.6313
䬽	-13.6314
䩛	-13.6315
䕪	-13.6316
䓾	-13.6317
㰅	-13.6318
㘁	-13.6319
㗛	-13.632
鵡	-13.6321
鳳	-13.6322
飄	-13.6323
頒	-13.6324
靆	-13.6325
靂	-13.6326
霹	-13.6327
陋	-13.6328
閣	-13.6329
鑵	-13.633
鍛	-13.6331
逋	-13.6332
裟	-13.6333
袈	-13.6334
萌	-13.6335
芭	-13.6336
膩	-13.6337
篌	-13.6338
稼	-13.6339
瑚	-13.634
瑕	-13.6341
珊	-13.6342
獼	-13.6343
猨	-13.6344
濩	-13.6345
液	-13.6346
慰	-13.6347
怡	-13.6348
廻	-13.6349
庫	-13.635
尖	-13.6351
宰	-13.6352
嬉	-13.6353
妷	-13.6354
圄	-13.6355
囹	-13.6356
嘗	-13.6357
凰	-13.6358
側	-13.6359
䝱	-13.636
逍	-13.6361
羯	-13.6362
瘖	-13.6363
瑙	-13.6364
洽	-13.6365
檢	-13.6366
棖	-13.6367
戮	-13.6368
彊	-13.6369
岳	-13.637
婇	-13.6371
努	-13.6372
豫	-13.6373
詈	-13.6374
蟒	-13.6375
聳	-13.6376
罣	-13.6377
沌	-13.6378
曹	-13.6379
拯	-13.638
屎	-13.6381
-	-13.6382
駱	-13.6383
駝	-13.6384
雄	-13.6385
鄔	-13.6386
迮	-13.6387
訟	-13.6388
袒	-13.6389
枷	-13.639
崛	-13.6391
哽	-13.6392
咲	-13.6393
販	-13.6394
繒	-13.6395
栴	-13.6396
鑒	-13.6397
跏	-13.6398
趺	-13.6399
貨	-13.64
芥	-13.6401
臾	-13.6402
粳	-13.6403
瑜	-13.6404
猴	-13.6405
怠	-13.6406
園	-13.6407
呰	-13.6408
睺	-13.6409
旃	-13.641
攀	-13.6411
展	-13.6412
─	-13.6413
葬	-13.6414
瓔	-13.6415
珞	-13.6416
沫	-13.6417
慇	-13.6418
館	-13.6419
浪	-13.642
昭	-13.6421
闥	-13.6422
穩	-13.6423
央	-13.6424
巍	-13.6425
丸	-13.6426
>	-13.6427
詳	-13.6428
慚	-13.6429
瑠	-13.643
耨	-13.6431
童	-13.6432
琉	-13.6433
般	-13.6434
誹	-13.6435
璃	-13.6436
究	-13.6437
蓮	-13.6438
苾	-13.6439
芻	-13.644
菩	-13.6441
