<unk>	0
<s>	0
</s>	0
。	-1.84467
之	-4.62228
▁	-5.09113
以	-5.23324
曰	-5.2351
為	-5.29412
也	-5.29796
而	-5.33643
有	-5.34069
於	-5.40799
者	-5.41753
其	-5.51765
)	-5.55124
(	-5.55681
不	-5.59165
人	-5.62778
一	-5.69477
,	-5.80603
無	-5.84793
大	-5.88033
至	-5.91194
師	-5.91562
道	-5.95353
*	-5.99306
見	-6.02225
中	-6.03342
時	-6.05074
自	-6.05604
云	-6.09044
王	-6.09525
此	-6.1787
行	-6.1921
即	-6.20379
心	-6.21791
所	-6.21956
得	-6.22796
則	-6.23451
寺	-6.23835
生	-6.24847
如	-6.25176
法	-6.25281
乃	-6.25655
是	-6.25895
言	-6.28276
出	-6.29901
與	-6.30344
三	-6.312
經	-6.31552
在	-6.34532
山	-6.34835
上	-6.36212
後	-6.36223
佛	-6.36535
故	-6.41573
僧	-6.4234
來	-6.43295
明	-6.44226
又	-6.44766
事	-6.45225
我	-6.47693
若	-6.48987
及	-6.50886
子	-6.52459
名	-6.53284
天	-6.54118
相	-6.54183
非	-6.54297
皆	-6.54542
入	-6.57627
矣	-6.59832
因	-6.607
然	-6.61093
遂	-6.61462
今	-6.61951
公	-6.63079
二	-6.64673
從	-6.68101
問	-6.68123
作	-6.69608
聞	-6.70413
文	-6.71206
可	-6.7123
同	-6.71429
下	-6.73395
當	-6.74123
等	-6.74613
眾	-6.74869
成	-6.75503
身	-6.75536
亦	-6.75953
四	-6.76378
世	-6.76443
日	-6.76668
令	-6.79489
知	-6.796
乎	-6.79857
復	-6.79979
諸	-6.81961
處	-6.82185
去	-6.83088
國	-6.83557
本	-6.83813
善	-6.841
吾	-6.84151
方	-6.845
汝	-6.84557
傳	-6.86001
欲	-6.86483
說	-6.8673
初	-6.86802
將	-6.8727
多	-6.87281
神	-6.87288
帝	-6.88438
前	-6.88516
五	-6.90545
光	-6.91579
高	-6.92464
請	-6.92558
論	-6.92954
通	-6.93529
正	-6.93786
禪師	-6.94219
安	-6.94359
常	-6.94389
焉	-6.9444
義	-6.94513
既	-6.94806
未	-6.96269
居	-6.96325
或	-6.97122
謂	-6.97753
德	-6.98288
歸	-6.98369
何	-6.99081
法師	-7.00021
立	-7.00803
教	-7.00831
能	-7.01057
觀	-7.02762
地	-7.04958
書	-7.05073
會	-7.05461
宗	-7.05651
命	-7.0567
真	-7.06667
水	-7.06712
住	-7.08308
往	-7.09433
便	-7.09896
學	-7.10832
門	-7.11445
化	-7.11457
年	-7.1153
語	-7.1214
雖	-7.12273
使	-7.126
盡	-7.13202
于	-7.14411
重	-7.14551
用	-7.14834
元	-7.14864
已	-7.14907
起	-7.15653
遠	-7.15683
還	-7.17037
▁|	-7.17627
禮	-7.17737
開	-7.18672
長	-7.19111
聖	-7.19406
求	-7.20052
空	-7.2104
受	-7.21845
深	-7.21932
州	-7.23333
先	-7.23423
祖	-7.23463
理	-7.24152
家	-7.24406
應	-7.24751
意	-7.24835
智	-7.25107
耳	-7.25393
信	-7.25747
修	-7.27083
巳	-7.27398
願	-7.27426
過	-7.27872
著	-7.28056
難	-7.28671
必	-7.30143
慧	-7.30331
造	-7.30585
清	-7.31078
金	-7.3146
主	-7.3147
依	-7.31701
始	-7.32066
死	-7.32732
發	-7.32804
定	-7.33093
異	-7.33144
風	-7.33537
取	-7.33603
寶	-7.33663
坐	-7.34244
雲	-7.34816
隨	-7.34906
周	-7.35319
南	-7.35534
稱	-7.35649
物	-7.36419
舉	-7.36518
解	-7.36815
聲	-7.38176
業	-7.38402
度	-7.38523
字	-7.38538
食	-7.38987
石	-7.39319
廣	-7.40443
白	-7.40628
.	-7.40817
西	-7.41034
集	-7.41247
分	-7.42504
悟	-7.42693
出家	-7.4314
實	-7.4327
思	-7.4331
八	-7.43444
且	-7.43988
別	-7.44048
七	-7.44246
玄	-7.44464
持	-7.445
夫	-7.44501
彼	-7.4451
內	-7.45085
靈	-7.4527
沙門	-7.45487
果	-7.455
詔	-7.45611
六	-7.46706
流	-7.46979
奉	-7.47464
藏	-7.47826
東	-7.48646
弟子	-7.49123
更	-7.49392
向	-7.49618
耶	-7.4968
合	-7.4983
凡	-7.50071
外	-7.50121
小	-7.50473
妙	-7.50475
十	-7.51064
覺	-7.51115
菩薩	-7.51208
志	-7.51338
頭	-7.51465
力	-7.51874
像	-7.5233
釋	-7.52405
興	-7.52473
念	-7.5295
氏	-7.53279
止	-7.53612
少	-7.5428
數	-7.54761
尋	-7.55243
禪	-7.55338
並	-7.55423
唐	-7.55513
華	-7.55603
具	-7.55962
忽	-7.55982
性	-7.56438
斯	-7.56518
衣	-7.56587
甚	-7.56673
○	-7.56963
號	-7.57008
塔	-7.58535
形	-7.58598
九	-7.60258
月	-7.60261
記	-7.60776
兩	-7.60895
滅	-7.609
朝	-7.61312
和尚	-7.61379
海	-7.61552
但	-7.61578
建	-7.62304
遊	-7.62364
龍	-7.62496
戒	-7.62883
色	-7.63238
絕	-7.63381
次	-7.63401
淨	-7.63867
施	-7.63926
終	-7.64238
俗	-7.64601
惟	-7.65243
元年	-7.65752
哉	-7.65766
君	-7.65794
間	-7.65917
齊	-7.65923
唯	-7.66046
識	-7.6648
福	-7.6656
親	-7.66756
不可	-7.6719
共	-7.67648
遇	-7.67926
猶	-7.67934
感	-7.68519
陳	-7.6883
夜	-7.68997
勝	-7.69272
莫	-7.69555
情	-7.69609
講	-7.6962
懷	-7.69723
足	-7.69975
現	-7.69977
顯	-7.70138
達	-7.70202
城	-7.7027
苦	-7.70477
火	-7.7054
各	-7.70685
餘	-7.70794
樂	-7.71435
要	-7.71729
一日	-7.72131
宜	-7.72182
體	-7.72282
好	-7.7249
每	-7.72918
緣	-7.7312
手	-7.7346
母	-7.73478
辭	-7.73708
官	-7.73814
老	-7.74046
錄	-7.7435
爾	-7.7471
俱	-7.7475
於是	-7.74784
蓋	-7.75026
致	-7.75368
被	-7.75404
照	-7.7573
敬	-7.76132
萬	-7.76306
指	-7.77318
如來	-7.77415
失	-7.77651
不能	-7.77678
佛法	-7.77707
惡	-7.77772
古	-7.77814
北	-7.78128
獨	-7.78162
路	-7.78208
進	-7.78715
極	-7.79148
漢	-7.79364
女	-7.79659
以為	-7.79772
豈	-7.801
隱	-7.80537
服	-7.80542
口	-7.80813
三年	-7.81344
甞	-7.82004
二年	-7.82132
到	-7.82499
天下	-7.82515
院	-7.82799
益	-7.8302
宋	-7.83422
夢	-7.83492
不得	-7.83894
參	-7.83939
和	-7.84085
誦	-7.84468
聽	-7.84675
由	-7.84839
林	-7.85089
師云	-7.85106
樹	-7.85178
昔	-7.85686
香	-7.85738
師曰	-7.8584
歲	-7.86258
張	-7.8651
就	-7.86577
對	-7.87041
百	-7.87124
報	-7.8727
告	-7.87277
姓	-7.87303
久	-7.87336
勅	-7.87749
病	-7.87752
氣	-7.87835
誠	-7.88036
梁	-7.88443
利	-7.88729
目	-7.88922
平	-7.89045
尚	-7.89381
加	-7.89576
首	-7.89799
他	-7.90094
滿	-7.90264
治	-7.90449
弘	-7.90625
宣	-7.9095
部	-7.92422
賢	-7.92582
臣	-7.92664
新	-7.93235
斷	-7.9331
離	-7.93335
留	-7.9334
守	-7.93426
民	-7.93471
李	-7.93699
望	-7.93906
父	-7.94098
盛	-7.94162
精	-7.94433
咸	-7.94483
却	-7.9495
疑	-7.95026
登	-7.95355
易	-7.95609
賜	-7.95753
一切	-7.96
堂	-7.96121
千	-7.96277
許	-7.96468
羅	-7.96534
寂	-7.96956
濟	-7.96963
都	-7.9719
承	-7.97224
如是	-7.97408
供養	-7.97585
引	-7.97727
尊	-7.97842
素	-7.98312
動	-7.98383
永	-7.98583
置	-7.9866
證	-7.98809
轉	-7.99432
殿	-7.99692
嚴	-8.0099
士	-8.01265
執	-8.01307
表	-8.01519
須	-8.0167
遷	-8.01742
乘	-8.01881
降	-8.02025
玉	-8.02425
壽	-8.0244
延	-8.02997
直	-8.03017
遣	-8.03606
密	-8.03842
捨	-8.03969
了	-8.04249
臨	-8.04501
崇	-8.04889
馬	-8.05036
悉	-8.05108
破	-8.05143
夏	-8.05265
代	-8.05488
圓	-8.05655
存	-8.0598
律	-8.06339
宮	-8.06365
位	-8.06377
并	-8.06523
靜	-8.06928
亡	-8.07195
仁	-8.07509
眼	-8.07728
近	-8.08294
載	-8.08346
疾	-8.08372
慈	-8.08382
習	-8.08649
機	-8.08906
改	-8.09149
魏	-8.09256
辯	-8.09432
晉	-8.09622
惠	-8.10105
卒	-8.1037
送	-8.10629
制	-8.10922
示	-8.11168
備	-8.11191
境	-8.1131
設	-8.11673
順	-8.11895
太子	-8.11994
授	-8.12515
舊	-8.12652
兵	-8.12736
罪	-8.12858
土	-8.12946
召	-8.12988
念佛	-8.13082
除	-8.13192
答	-8.13677
結	-8.1368
遺	-8.13886
室	-8.13953
眾生	-8.13988
愛	-8.14299
音	-8.14379
任	-8.14811
謝	-8.16123
變	-8.16413
略	-8.17103
功	-8.17297
寧	-8.1731
黃	-8.17439
旨	-8.17478
容	-8.17484
嗣	-8.17633
固	-8.17715
微	-8.17727
木	-8.17875
如此	-8.18399
而不	-8.18709
譯	-8.18884
孝	-8.19021
經一卷	-8.19336
齋	-8.19391
不知	-8.19498
陽	-8.19924
人也	-8.20053
所以	-8.20401
府	-8.21267
比丘	-8.2135
殺	-8.21479
章	-8.21609
兼	-8.21841
啟	-8.2187
江	-8.21889
垂	-8.21989
放	-8.22065
詣	-8.22382
群	-8.22484
散	-8.22776
宿	-8.22821
畢	-8.22925
普	-8.23036
超	-8.23115
交	-8.23169
屬	-8.23396
運	-8.23994
景	-8.2404
遍	-8.24335
反	-8.24686
虎	-8.24715
伏	-8.24908
種	-8.25029
息	-8.25566
河	-8.25696
類	-8.25959
說法	-8.2635
尊者	-8.26494
末	-8.26518
舍利	-8.26814
草	-8.27415
獲	-8.27782
毀	-8.28313
慶	-8.28392
恒	-8.28494
皇	-8.28647
拜	-8.28793
花	-8.28853
亂	-8.28878
曾	-8.28921
面	-8.29134
吳	-8.29136
總	-8.29267
鬼	-8.29571
太	-8.29587
蒙	-8.29642
器	-8.29713
節	-8.2991
卷	-8.30021
殊	-8.30087
端	-8.30098
徒	-8.30499
接	-8.30706
忘	-8.3075
法華	-8.30938
仰	-8.30947
巖	-8.30959
迎	-8.30973
投	-8.30983
視	-8.30985
菴	-8.312
全	-8.31318
塵	-8.31344
四年	-8.31345
雨	-8.31564
看	-8.31683
仙	-8.31719
恐	-8.31738
落	-8.31947
儀	-8.32009
護	-8.32089
期	-8.323
舍	-8.32312
窮	-8.32325
廢	-8.32387
武	-8.32641
印	-8.32676
軍	-8.328
虛	-8.32845
恩	-8.32905
述	-8.33114
累	-8.33322
邪	-8.33476
右	-8.33534
喜	-8.3354
才	-8.33557
淨土	-8.33737
峯	-8.33899
錢	-8.34076
資	-8.34135
泉	-8.3431
圖	-8.34396
越	-8.34459
之所	-8.34713
歷	-8.35058
幽	-8.35207
妄	-8.35394
封	-8.35425
推	-8.35472
儒	-8.35918
答曰	-8.35924
大師	-8.35931
仍	-8.36124
秦	-8.3626
似	-8.36265
座	-8.36571
關	-8.3668
象	-8.36963
飛	-8.37034
追	-8.37653
疏	-8.37748
回	-8.37812
比	-8.38032
政	-8.3805
專	-8.38357
布	-8.38433
迹	-8.387
謁	-8.38774
奏	-8.3885
七日	-8.38962
待	-8.39109
源	-8.39246
適	-8.3938
幸	-8.39581
尼	-8.39621
彌	-8.39686
特	-8.39787
青	-8.39856
臺	-8.39966
品	-8.40177
秀	-8.40221
美	-8.40235
乞	-8.40371
三藏	-8.41084
貴	-8.41274
半	-8.4143
縣	-8.41725
再	-8.41747
簡	-8.42248
華嚴	-8.42481
劫	-8.4254
勤	-8.42807
勸	-8.4296
議	-8.42977
辨	-8.42989
那	-8.43049
覩	-8.43126
御	-8.43388
史	-8.43519
父母	-8.43722
涅槃	-8.43748
驗	-8.43748
漸	-8.43891
澄	-8.44372
冥	-8.44717
功德	-8.4473
胡	-8.45001
劉	-8.45453
良	-8.45488
榮	-8.45605
奇	-8.45665
供	-8.45734
救	-8.45773
典	-8.45822
雜	-8.45989
問曰	-8.4621
嘗	-8.46227
撰	-8.46251
兒	-8.46252
積	-8.4644
談	-8.47037
列	-8.47337
迷	-8.47501
道士	-8.47625
計	-8.47637
愈	-8.48053
田	-8.481
陵	-8.48318
顧	-8.4848
棄	-8.48554
退	-8.4875
根	-8.49086
否	-8.49295
竟	-8.49419
牛	-8.49429
誰	-8.49446
沒	-8.49527
休	-8.49534
客	-8.49686
序	-8.49926
賊	-8.5001
邊	-8.50025
世尊	-8.50093
輕	-8.50368
有一	-8.50528
隋	-8.50698
珠	-8.50796
愚	-8.51042
侍	-8.51106
脫	-8.51112
威	-8.5123
提	-8.51234
打	-8.51382
切	-8.51468
今日	-8.51593
左	-8.51961
移	-8.51988
增	-8.52016
忠	-8.52032
隆	-8.52382
只	-8.52478
臥	-8.52563
覆	-8.52593
朗	-8.52718
洞	-8.52866
務	-8.52887
藥	-8.52931
生死	-8.53061
春	-8.53094
聖人	-8.53099
五年	-8.53221
郡	-8.5327
無所	-8.53497
省	-8.53653
據	-8.54286
徵	-8.54397
契	-8.54444
約	-8.54464
患	-8.54507
讀	-8.54811
阿	-8.54871
詳	-8.5489
谷	-8.55017
池	-8.55426
領	-8.55547
句	-8.55658
里	-8.55663
惑	-8.55801
悲	-8.56206
徹	-8.56259
陰	-8.56396
一曰	-8.56921
想	-8.56941
害	-8.56976
紀	-8.5702
付	-8.57199
詩	-8.57221
頓	-8.57377
波	-8.57555
六年	-8.57799
影	-8.5793
房	-8.58163
權	-8.58336
於此	-8.58337
燈	-8.58389
游	-8.58513
不見	-8.58608
假	-8.58878
聚	-8.59061
攝	-8.591
光明	-8.59126
況	-8.59181
量	-8.59362
卿	-8.59492
道場	-8.59549
偈	-8.59781
梵	-8.59915
般若	-8.60257
、	-8.60495
天竺	-8.60529
余	-8.60748
負	-8.60768
悅	-8.60804
英	-8.60829
步	-8.6089
味	-8.60915
寄	-8.61332
恭	-8.61466
喪	-8.61756
潛	-8.61855
堅	-8.61934
庵	-8.62028
欽	-8.62268
界	-8.62393
所謂	-8.62528
繼	-8.62859
而去	-8.62908
曉	-8.6292
預	-8.63028
如何	-8.63294
茲	-8.63461
頂	-8.63521
底	-8.63524
大士	-8.63622
勿	-8.63881
孫	-8.64189
寒	-8.6433
大乘	-8.64491
導	-8.64614
連	-8.64704
充	-8.64705
松	-8.64821
幾	-8.65471
骨	-8.6565
揚	-8.6575
試	-8.66065
養	-8.66103
統	-8.66116
摩	-8.66141
十二	-8.66211
續	-8.66276
曇	-8.66441
金剛	-8.66455
跡	-8.66458
尤	-8.66603
注	-8.66907
博	-8.67303
司	-8.67353
趙	-8.6747
禁	-8.67537
符	-8.67552
原	-8.67674
訓	-8.67757
冠	-8.68134
道俗	-8.68167
慕	-8.6829
婆	-8.69187
涉	-8.69557
勞	-8.69793
收	-8.70011
昭	-8.70231
晚	-8.7048
舟	-8.70483
至於	-8.70489
西方	-8.70888
壞	-8.70969
早	-8.71177
輒	-8.7126
哀	-8.71273
迴	-8.71297
雪	-8.71322
居士	-8.71556
者也	-8.7203
獻	-8.72129
縱	-8.72151
裏	-8.72153
笑	-8.7216
露	-8.72309
屈	-8.72519
葉	-8.72535
附	-8.72693
驚	-8.73179
京師	-8.73234
朕	-8.73272
幼	-8.73492
給	-8.73617
三日	-8.73662
夷	-8.73713
營	-8.73771
呼	-8.73807
天台	-8.73809
基	-8.73811
趣	-8.73969
學者	-8.73971
車	-8.74026
免	-8.74282
一人	-8.74439
背	-8.7458
七年	-8.74651
懼	-8.74757
三昧	-8.74823
諸佛	-8.74981
唱	-8.75022
嘉	-8.75107
閑	-8.75131
考	-8.75456
孤	-8.75634
訪	-8.75743
莫不	-8.76145
。】「	-8.76192
阿難	-8.76363
曲	-8.76704
鐵	-8.76784
昌	-8.76799
溪	-8.76892
忍	-8.76925
沈	-8.76989
十年	-8.77031
鄉	-8.77069
浮	-8.77268
之後	-8.77305
率	-8.77466
朱	-8.77576
衛	-8.77583
折	-8.77609
詞	-8.77669
謂之	-8.77736
碑	-8.77825
支	-8.77833
輪	-8.77839
狀	-8.77983
伯	-8.78023
闕	-8.78082
急	-8.7819
融	-8.78413
某	-8.78716
雅	-8.78764
讚	-8.78906
翻	-8.7892
沙	-8.78931
赤	-8.79309
私	-8.79349
老子	-8.79379
助	-8.79407
寫	-8.79415
野	-8.79696
蘇	-8.79886
遵	-8.79989
質	-8.80221
厚	-8.80392
鎮	-8.80602
廟	-8.80717
爭	-8.80754
希	-8.80811
一時	-8.80871
謹	-8.80913
因緣	-8.80984
洪	-8.81007
默	-8.81364
強	-8.81546
川	-8.81576
頌	-8.81665
鼓	-8.82019
慮	-8.82036
魔	-8.82469
皇帝	-8.82544
貫	-8.82642
躬	-8.82684
鏡	-8.8274
魚	-8.83143
三寶	-8.83197
拔	-8.83275
頗	-8.83339
之道	-8.83492
屋	-8.835
。」【	-8.83614
值	-8.84
觀音	-8.84027
履	-8.84036
虗	-8.84064
西域	-8.84102
弟	-8.84284
楊	-8.84385
最	-8.84655
葬	-8.84672
庭	-8.84686
決	-8.84713
之曰	-8.84731
清淨	-8.84808
赴	-8.84823
術	-8.84862
誓	-8.84872
律師	-8.84883
五百	-8.84924
席	-8.85102
筆	-8.85206
二十	-8.85223
峰	-8.85415
納	-8.85525
自然	-8.85729
釋迦	-8.8578
澤	-8.85821
呪	-8.85926
雙	-8.85963
刀	-8.8598
」	-8.86028
傷	-8.86083
迦葉	-8.86197
出世	-8.86228
走	-8.86265
世間	-8.86508
違	-8.86656
泰	-8.86934
天子	-8.87087
:「	-8.87212
鳥	-8.87275
剎	-8.8737
秋	-8.87573
經云	-8.87992
鳴	-8.88042
烏	-8.88255
逢	-8.88257
嶺	-8.88316
橫	-8.88373
蜀	-8.885
畫	-8.88609
髮	-8.88699
痛	-8.89106
鉢	-8.89298
演	-8.89391
損	-8.89457
徐	-8.89477
究	-8.89544
索	-8.89589
一卷	-8.8962
楚	-8.89812
文殊	-8.89827
星	-8.89831
兄	-8.9037
輩	-8.90396
乃至	-8.9041
祖曰	-8.90536
智者	-8.90543
薄	-8.90783
勢	-8.90787
標	-8.90808
黑	-8.90824
閱	-8.90909
返	-8.90928
墮	-8.91037
瑞	-8.91042
委	-8.91135
憂	-8.91177
大眾	-8.91287
友	-8.91504
傾	-8.91521
天地	-8.91587
擬	-8.91751
弗	-8.91761
無量	-8.91763
童子	-8.91776
徧	-8.91831
禮拜	-8.9203
訖	-8.92075
左右	-8.9235
苟	-8.92462
題	-8.92499
法門	-8.92581
大德	-8.92598
犯	-8.92822
誦經	-8.92862
纔	-8.92886
可以	-8.92923
歎	-8.92955
覽	-8.92996
予	-8.93102
旦	-8.9312
振	-8.93145
對曰	-8.93151
其所	-8.9316
稟	-8.93204
申	-8.93283
偏	-8.93472
邑	-8.93509
補	-8.93521
肉	-8.93523
財	-8.9362
莊嚴	-8.93947
戶	-8.94348
陀	-8.94425
刻	-8.94465
妻	-8.94557
第一	-8.94666
己	-8.94685
不敢	-8.94792
閣	-8.94937
門人	-8.95107
喻	-8.95387
懺	-8.95717
升	-8.95879
方便	-8.95905
敘	-8.96067
保	-8.96261
陛下	-8.96462
由是	-8.96479
宅	-8.96485
外道	-8.96495
園	-8.96624
廬山	-8.96927
贊	-8.96968
速	-8.97012
第	-8.9704
是以	-8.97092
地獄	-8.97258
昇	-8.9726
披	-8.97346
又曰	-8.9736
偽	-8.97591
淵	-8.98013
富	-8.98015
康	-8.9805
冬	-8.98071
觸	-8.98094
罷	-8.98194
岸	-8.98783
經論	-8.98931
怪	-8.98986
箇	-8.99081
屢	-8.9912
停	-8.9929
你	-8.99305
刑	-8.99306
上座	-8.99341
角	-8.99669
杖	-8.99824
避	-9.00266
童	-9.0046
菩提	-9.00497
馳	-9.00497
飲	-9.00504
錫	-9.00666
市	-9.00706
製	-9.00834
工	-9.01129
責	-9.01458
擊	-9.01535
條	-9.01598
泥	-9.01644
合掌	-9.01665
敢	-9.01682
樓	-9.01711
吏	-9.01937
掌	-9.01942
飾	-9.02256
顏	-9.02417
庶	-9.0243
十八	-9.02521
▁|(	-9.02719
壁	-9.02753
懸	-9.02755
逐	-9.02757
不同	-9.03495
什	-9.03516
側	-9.03769
篇	-9.03822
差	-9.03877
鑒	-9.0414
為之	-9.04306
祥	-9.04356
何以	-9.04366
讓	-9.04374
老僧	-9.04761
招	-9.04795
八年	-9.04886
莊	-9.04901
無不	-9.05081
按	-9.05129
伊	-9.0523
昏	-9.05481
諱	-9.05523
溫	-9.05619
夫人	-9.05693
飯	-9.05715
僧云	-9.0591
競	-9.05989
京	-9.06008
迦	-9.06045
潔	-9.06092
仲	-9.06127
伽藍	-9.06259
久之	-9.06617
正法	-9.06621
倒	-9.06698
酒	-9.06742
紫	-9.06764
舌	-9.07032
爾時	-9.07066
侯	-9.07107
而逝	-9.07467
竹	-9.07794
臨濟	-9.07834
宇	-9.07852
怒	-9.07868
亦不	-9.07935
精舍	-9.07954
夕	-9.08053
遽	-9.08167
染	-9.08361
當時	-9.08568
魯	-9.08803
湖	-9.09138
聞之	-9.09241
案	-9.09288
熟	-9.09404
即是	-9.09472
曹	-9.09643
奪	-9.09838
族	-9.09858
恨	-9.09922
宏	-9.09997
丘	-9.10058
途	-9.10097
蓮華	-9.101
崩	-9.10201
十六	-9.10223
道人	-9.10296
自是	-9.10326
壇	-9.10344
逸	-9.10631
伐	-9.10707
逆	-9.10921
倫	-9.10934
祐	-9.1095
貞	-9.11191
中有	-9.11213
船	-9.1127
不為	-9.11416
話	-9.11532
乖	-9.11574
含	-9.11602
羅漢	-9.1166
燕	-9.11738
克	-9.1177
內外	-9.11958
偶	-9.1206
麼	-9.12248
。「	-9.12661
不是	-9.12661
祇	-9.1269
紙	-9.12745
未甞	-9.12748
陸	-9.12748
網	-9.12845
長安	-9.12878
輔	-9.12937
役	-9.12953
盜	-9.13006
然後	-9.1336
血	-9.1342
創	-9.13559
其事	-9.13614
三月	-9.13653
乾	-9.13738
世界	-9.13742
孔	-9.13794
第二	-9.13829
凝	-9.13921
未幾	-9.13978
諸天	-9.14001
竊	-9.14184
憑	-9.1423
點	-9.14254
五十	-9.14307
我今	-9.14368
喚	-9.14417
紹	-9.14427
託	-9.14431
毛	-9.14464
獄	-9.14578
塗	-9.14605
時有	-9.14943
毒	-9.14963
婆羅門	-9.14965
敷	-9.1506
一部	-9.15151
科	-9.15205
誕	-9.1527
解脫	-9.15272
焚	-9.15332
先生	-9.15421
繫	-9.15631
蛇	-9.15789
繁	-9.15951
三十	-9.15952
綱	-9.16061
歡喜	-9.16062
趨	-9.16071
歌	-9.16092
亮	-9.16095
操	-9.16198
珍	-9.16314
為人	-9.16686
季	-9.16705
之間	-9.16874
燒	-9.17044
何不	-9.17178
僧尼	-9.17234
日月	-9.17268
行道	-9.17346
駕	-9.17576
明日	-9.17705
洗	-9.17822
活	-9.18038
鍾	-9.18093
其人	-9.18099
五月	-9.1817
之言	-9.18256
瞻	-9.183
無有	-9.18309
滯	-9.18323
侍者	-9.18374
而巳	-9.18432
盈	-9.18719
尺	-9.18959
師子	-9.19054
勒	-9.1914
逾	-9.19301
孔子	-9.19313
空中	-9.19358
肅	-9.19398
響	-9.19598
俄	-9.19892
二人	-9.19918
住持	-9.19925
謀	-9.20075
帶	-9.20075
震	-9.20339
氏子	-9.20378
蘭	-9.20402
六月	-9.20492
籍	-9.20495
抱	-9.20522
細	-9.20641
往生	-9.20717
潤	-9.20941
龕	-9.21491
旋	-9.21509
修行	-9.21575
脩	-9.21579
巨	-9.21758
見之	-9.218
可謂	-9.21832
叔	-9.22099
既而	-9.22104
悔	-9.22261
)○	-9.22276
謙	-9.22351
之人	-9.2243
賓	-9.22519
暫	-9.2252
貪	-9.22563
十二年	-9.22583
洲	-9.22712
吉	-9.22886
調	-9.22895
沙彌	-9.23034
聰	-9.23119
拘	-9.23144
戲	-9.23155
不識	-9.23188
法界	-9.23259
井	-9.23276
而化	-9.23287
消	-9.2345
戰	-9.23568
商	-9.2359
有大	-9.23686
道者	-9.23767
扶	-9.23796
蕭	-9.23895
謬	-9.23911
津	-9.24013
之事	-9.24106
遣使	-9.24122
丹	-9.24123
稍	-9.24177
長者	-9.2423
齒	-9.24263
塞	-9.24269
豐	-9.24359
杜	-9.24731
盤	-9.24831
又問	-9.24833
三千	-9.24982
九年	-9.24997
村	-9.2507
洛	-9.25091
自在	-9.25139
貌	-9.25202
範	-9.25226
岳	-9.25244
翁	-9.2532
衰	-9.25383
以此	-9.25447
純	-9.25567
四月	-9.2574
雄	-9.25783
選	-9.25794
欣	-9.25817
后	-9.25864
偈曰	-9.2592
晝夜	-9.26002
九月	-9.26041
甘	-9.26144
鑑	-9.26434
是故	-9.26436
厭	-9.26468
麗	-9.26545
云云	-9.26587
又云	-9.2667
障	-9.26839
傍	-9.26962
雲門	-9.26987
幻	-9.27024
十方	-9.27129
八月	-9.27217
君子	-9.27331
眾僧	-9.27472
俊	-9.27789
臨終	-9.27951
米	-9.28056
須臾	-9.28153
如何是	-9.28165
禍	-9.28183
相見	-9.28206
茂	-9.28274
彌勒	-9.28374
荷	-9.28604
逝	-9.28609
諫	-9.28738
尚書	-9.28859
晦	-9.29087
佛教	-9.29134
狂	-9.29258
旁	-9.2932
脚	-9.29535
十月	-9.29673
際	-9.29758
暢	-9.2987
祈	-9.29912
是也	-9.29961
昧	-9.30049
。」	-9.30162
擇	-9.30169
十四	-9.30185
寢	-9.30232
這	-9.30336
畏	-9.30397
監	-9.30444
採	-9.30529
靡	-9.30566
十五	-9.30683
盧	-9.30699
遭	-9.30771
諸方	-9.30862
賞	-9.30885
不信	-9.3094
危	-9.30971
寺僧	-9.30986
檀	-9.31088
前後	-9.31138
郎	-9.31235
種種	-9.3125
穢	-9.31256
騰	-9.31287
佛經	-9.31294
之時	-9.31351
袈裟	-9.3142
韓	-9.31467
峻	-9.31539
撫	-9.31615
精進	-9.31822
十一年	-9.32
吐	-9.3205
例	-9.32057
彥	-9.32157
鬼神	-9.32169
七月	-9.32222
縛	-9.32301
革	-9.32313
十三	-9.32393
之中	-9.32622
慈悲	-9.32627
竭	-9.32683
婦	-9.32784
徑山	-9.32832
不復	-9.33105
敗	-9.33201
寬	-9.33327
之心	-9.33373
陶	-9.33469
云何	-9.336
浮圖	-9.3367
床	-9.33758
頃	-9.33826
乳	-9.34002
燭	-9.34155
篤	-9.34162
堪	-9.34395
是時	-9.34409
其道	-9.34482
葢	-9.34511
橋	-9.34597
十一	-9.34624
不及	-9.34798
編	-9.3483
殷	-9.34866
烈	-9.35003
曠	-9.35103
四方	-9.35149
示寂	-9.35151
謗	-9.3518
貧	-9.35268
三界	-9.35421
抗	-9.35459
嵩	-9.35659
武帝	-9.35704
不許	-9.35766
貞觀	-9.35912
彌陀	-9.35962
誡	-9.35973
之法	-9.36048
干	-9.36157
無生	-9.36169
孰	-9.36259
徑	-9.36269
檢	-9.36285
奔	-9.36346
受戒	-9.36366
兮	-9.36434
銀	-9.36525
是年	-9.36707
法身	-9.36712
規	-9.36721
佛像	-9.36744
太祖	-9.36802
見一	-9.36805
十七	-9.36875
山中	-9.36877
有所	-9.36954
答言	-9.37042
怨	-9.37175
頻	-9.37176
遁	-9.37209
譽	-9.37322
二十年	-9.37404
歎曰	-9.37488
管	-9.37534
無常	-9.37781
勑	-9.37857
遙	-9.38021
普賢	-9.38078
彰	-9.38128
浪	-9.38139
無為	-9.38193
荒	-9.38255
候	-9.38272
智慧	-9.38416
端坐	-9.3856
翼	-9.38621
此是	-9.38628
即位	-9.3873
亭	-9.38792
階	-9.38828
帝曰	-9.39043
減	-9.39261
十二月	-9.39424
三十年	-9.396
有人	-9.39686
高祖	-9.39834
郭	-9.39969
天人	-9.39975
未有	-9.40068
文字	-9.40131
淳	-9.40141
羊	-9.40169
大聖	-9.4019
臂	-9.40196
賴	-9.40199
釋氏	-9.40245
敏	-9.4034
式	-9.40427
鐘	-9.40527
祭	-9.4067
在位	-9.40773
甲	-9.40845
亦有	-9.40958
國王	-9.40986
隔	-9.41063
鹿	-9.41108
懺悔	-9.41377
暮	-9.41437
大王	-9.41517
達磨	-9.41656
亦無	-9.41747
展	-9.41883
見佛	-9.41896
而已	-9.42071
隣	-9.42144
湯	-9.42181
】	-9.42183
暗	-9.42229
之說	-9.42325
寡	-9.42395
錯	-9.42449
譯經	-9.42486
謂曰	-9.42504
晝	-9.42582
緒	-9.42601
柱	-9.42626
歟	-9.42659
恁麼	-9.42777
倍	-9.4281
虗空	-9.42821
長老	-9.42872
于時	-9.42891
叢林	-9.42937
一念	-9.43057
薦	-9.43218
至是	-9.43309
函	-9.43348
逮	-9.43403
殘	-9.43413
崖	-9.43735
煩惱	-9.43789
弊	-9.4387
誤	-9.43892
豈不	-9.4406
哲	-9.44254
俾	-9.44798
瓶	-9.44878
軌	-9.44958
十五年	-9.4498
竺	-9.45157
域	-9.45162
見其	-9.4528
皮	-9.45325
茶	-9.45352
卓	-9.45359
此云	-9.45427
植	-9.45478
騎	-9.45479
汝等	-9.4548
暴	-9.45488
大法	-9.45517
四十	-9.4557
知其	-9.45607
惜	-9.45616
銅	-9.4566
之徒	-9.45782
若不	-9.45814
闡	-9.45853
祀	-9.45871
億	-9.45908
其中	-9.46007
舜	-9.46018
歡	-9.46023
驅	-9.46371
芳	-9.46414
掩	-9.46473
至今	-9.46516
第三	-9.4653
諦	-9.46555
後世	-9.46608
察	-9.46631
鳳	-9.4664
額	-9.46716
匠	-9.46813
大小	-9.46821
墜	-9.46937
銘	-9.46947
十四年	-9.46969
審	-9.47227
僧道	-9.47362
醫	-9.47365
胎	-9.47377
誨	-9.47393
大悲	-9.4748
混	-9.47532
憶	-9.4766
其後	-9.47749
十一月	-9.47804
費	-9.47888
呈	-9.48166
誅	-9.48199
災	-9.48294
蓮	-9.48301
允	-9.48401
正月	-9.4842
斥	-9.48427
尸	-9.48433
止觀	-9.48511
浴	-9.48581
不覺	-9.48586
所居	-9.48975
枯	-9.49051
何處	-9.49054
殆	-9.49058
呂	-9.49076
抵	-9.49099
蘊	-9.49153
熱	-9.49207
)(	-9.4924
思惟	-9.4925
勇	-9.49347
穴	-9.49386
太宗	-9.49465
僧問	-9.49536
詮	-9.49604
八十	-9.49639
校	-9.49824
所見	-9.49863
太守	-9.50016
衡	-9.5017
言訖	-9.503
渡	-9.50333
丈	-9.50361
短	-9.50523
琳	-9.50542
平生	-9.50569
囑	-9.50636
僧曰	-9.50638
老人	-9.50645
人間	-9.50649
開皇	-9.50669
孟	-9.5073
遮	-9.50742
具足	-9.50754
不足	-9.50863
場	-9.50888
作禮	-9.50919
眉	-9.50987
灰	-9.51031
以其	-9.51041
蕩	-9.51056
贈	-9.5106
之士	-9.51064
何為	-9.5111
祠	-9.51156
射	-9.51209
逼	-9.51221
二月	-9.51348
廬	-9.51382
紅	-9.51534
不動	-9.51546
金色	-9.51592
輿	-9.51633
冀	-9.51673
黨	-9.51687
毘	-9.51957
軀	-9.51994
舒	-9.52062
感應	-9.52143
優	-9.52283
禱	-9.52294
作麼生	-9.52315
甘露	-9.52356
改元	-9.52415
枝	-9.52607
社	-9.5266
之日	-9.52664
道德	-9.5267
有僧	-9.52788
古今	-9.5291
洞山	-9.52924
首座	-9.52963
腹	-9.5309
王曰	-9.53249
爽	-9.53438
法華經	-9.53499
環	-9.53549
一心	-9.53918
罕	-9.53921
有二	-9.5423
將軍	-9.54323
愧	-9.54356
十三年	-9.54361
爰	-9.54371
煩	-9.54387
崔	-9.54395
萬物	-9.54418
厥	-9.54444
酬	-9.54515
四明	-9.54611
擲	-9.54741
之地	-9.54761
從之	-9.54817
踰	-9.54823
渠	-9.54846
均	-9.54857
此經	-9.54863
龜	-9.54867
數日	-9.54948
棲	-9.54963
整	-9.55039
往來	-9.55051
維	-9.55065
儼	-9.5521
然則	-9.55282
入室	-9.55293
韋	-9.55387
某甲	-9.55472
鼎	-9.55513
名曰	-9.55657
抑	-9.55674
之教	-9.55716
偉	-9.5582
朔	-9.56271
為僧	-9.56379
藉	-9.56463
不出	-9.56517
鄙	-9.56602
疎	-9.56643
職	-9.56652
單	-9.56667
而無	-9.56744
彩	-9.56801
鄭	-9.56967
黃龍	-9.57006
屏	-9.5706
南嶽	-9.57086
笑曰	-9.57119
遐	-9.57303
視之	-9.57399
測	-9.57416
丁	-9.57584
猛	-9.5763
所說	-9.57693
討	-9.57729
鑄	-9.57779
逃	-9.57792
自此	-9.57981
辱	-9.58049
異之	-9.58062
而出	-9.58212
三百	-9.58251
夙	-9.58258
陷	-9.5831
棺	-9.58377
而為	-9.58508
其言	-9.58514
國師	-9.58553
寓	-9.58555
禹	-9.58588
戴	-9.58603
洛陽	-9.58686
扣	-9.58744
遲	-9.58925
吞	-9.58975
栖	-9.59
霜	-9.59056
放光	-9.59082
劍	-9.59135
古人	-9.59166
荊	-9.59172
家人	-9.59235
中國	-9.59266
淺	-9.59274
穆	-9.59385
欺	-9.5945
策	-9.59497
磨	-9.59583
忌	-9.59613
鼻	-9.59617
皓	-9.59637
和上	-9.5964
喝	-9.59718
慎	-9.59776
濫	-9.598
漏	-9.59896
苑	-9.59946
白雲	-9.59976
趙州	-9.60008
之旨	-9.60144
猷	-9.60183
遠近	-9.60236
產	-9.6029
鮮	-9.60322
稽首	-9.60331
曜	-9.60417
誘	-9.60463
何所	-9.60494
蔽	-9.60622
之際	-9.60738
詢	-9.60829
辰	-9.60979
險	-9.61149
十九	-9.61266
韶	-9.61278
何故	-9.61288
嗟	-9.61443
男	-9.61474
詠	-9.61519
伽	-9.61557
斬	-9.61699
祖師	-9.61768
春秋	-9.61824
圍	-9.6184
忽見	-9.61856
數十	-9.61887
妖	-9.62012
襲	-9.62051
會稽	-9.62096
又有	-9.62241
金陵	-9.62255
厲	-9.62285
溈山	-9.62374
嶽	-9.62394
練	-9.62403
判	-9.62473
因果	-9.62508
雷	-9.62531
無礙	-9.62583
神通	-9.62593
岩	-9.62599
受持	-9.62626
良久	-9.62671
佛道	-9.6275
庸	-9.62773
侶	-9.62773
馬祖	-9.62929
限	-9.6294
七寶	-9.63026
勵	-9.63086
徙	-9.63092
千里	-9.63151
禪定	-9.63229
學士	-9.63342
哭	-9.63352
壯	-9.63445
人之	-9.6346
受具	-9.63465
祿	-9.63567
從此	-9.63584
格	-9.63605
祕	-9.63799
檀越	-9.64006
告曰	-9.64035
荊州	-9.64086
的	-9.64138
訶	-9.64221
罔	-9.6426
互	-9.64492
裕	-9.64498
探	-9.64503
何得	-9.64541
德山	-9.64565
開元	-9.64736
甫	-9.64837
羽	-9.64987
肆	-9.65175
佛之	-9.65178
遠公	-9.65325
貧道	-9.65416
駭	-9.65466
征	-9.65569
晨	-9.65734
即便	-9.65803
;	-9.65865
百年	-9.66078
刃	-9.66098
邁	-9.66112
拂	-9.66168
奧	-9.662
頴	-9.66226
牧	-9.66251
蟲	-9.66276
閩	-9.66335
諭	-9.66441
不以	-9.66525
三世	-9.66541
借	-9.66658
之意	-9.66693
兆	-9.66984
其徒	-9.66986
諸人	-9.67058
明年	-9.67118
居之	-9.67196
󲊛	-9.67214
必有	-9.67269
大業	-9.67308
與之	-9.67315
羣	-9.67356
祚	-9.67446
懇	-9.67446
映	-9.6756
曆	-9.67789
過去	-9.6782
有三	-9.67839
祝	-9.67867
一千	-9.67867
涼	-9.67896
之功	-9.67918
建塔	-9.67989
釋慧	-9.68012
成就	-9.68202
館	-9.68286
冷	-9.68314
七十	-9.68336
育	-9.68338
東南	-9.68373
所在	-9.68413
數百	-9.68433
窺	-9.68454
鋒	-9.68648
肯	-9.68659
佛性	-9.68684
之義	-9.68699
石頭	-9.68772
四海	-9.68791
宰	-9.68878
困	-9.6901
樹下	-9.69012
此事	-9.69042
次第	-9.69052
之外	-9.69076
聲聞	-9.69134
割	-9.69195
不肯	-9.69279
帛	-9.6929
程	-9.69359
萬里	-9.69361
㵎	-9.69378
奘	-9.69425
僕	-9.69565
擁	-9.69586
小乘	-9.69596
不然	-9.6987
大道	-9.69924
無相	-9.69959
豈非	-9.69967
西南	-9.6997
諮	-9.69994
築	-9.70132
棒	-9.70156
傑	-9.7016
不如	-9.70169
墨	-9.70307
不食	-9.70321
防	-9.70327
纏	-9.70364
邦	-9.7049
慚	-9.70503
發願	-9.70524
鶴	-9.70605
而至	-9.70663
蹤	-9.7074
買	-9.70742
所得	-9.70828
耀	-9.7088
無人	-9.70932
百丈	-9.71053
若有	-9.7108
番	-9.71098
名為	-9.71134
研	-9.71376
麻	-9.71412
焚香	-9.71486
其身	-9.71514
傳燈	-9.7171
溺	-9.71827
復有	-9.71906
有司	-9.7207
倚	-9.72072
謚	-9.72183
旬	-9.72368
大明	-9.72395
以來	-9.724
韻	-9.72428
占	-9.72455
杭州	-9.72559
答云	-9.72585
而後	-9.72706
佛祖	-9.72752
堯	-9.72756
敕	-9.72832
善惡	-9.72846
尾	-9.72974
十七年	-9.73001
捉	-9.73022
成佛	-9.73085
繞	-9.73176
警	-9.73218
拈	-9.73255
怖	-9.73289
排	-9.73326
江陵	-9.73358
人天	-9.73358
摧	-9.73541
靈隱	-9.73584
暉	-9.73616
二百	-9.73676
百餘	-9.73737
丞相	-9.73755
不應	-9.73761
天王	-9.73818
僅	-9.73969
范	-9.7399
無盡	-9.7402
阿羅漢	-9.74045
窟	-9.74092
十地	-9.74097
西北	-9.74127
翻譯	-9.74148
勉	-9.74162
】【	-9.74199
三人	-9.74264
竝	-9.74405
一夕	-9.74512
秉	-9.74555
鑿	-9.74572
睡	-9.74601
巧	-9.74635
是非	-9.74741
先師	-9.74794
使人	-9.74872
法眼	-9.74888
冲	-9.74982
浩	-9.75004
誦法華	-9.75013
薪	-9.75163
虛空	-9.75284
司馬	-9.75448
歸依	-9.75501
或云	-9.75505
爛	-9.75564
辦	-9.75587
箭	-9.75606
虔	-9.75731
卜	-9.75768
午	-9.75872
十六年	-9.75905
清涼	-9.75973
覓	-9.75985
發心	-9.76003
龍王	-9.76044
弱	-9.76119
泣	-9.76119
奴	-9.76126
準	-9.76389
曹溪	-9.764
僧徒	-9.76436
不生	-9.76443
東西	-9.76539
群臣	-9.76545
一生	-9.76548
巳而	-9.76556
一句	-9.7666
碎	-9.76756
捧	-9.76761
携	-9.76773
把	-9.76793
巡	-9.76866
繩	-9.76941
黃檗	-9.7701
時人	-9.77018
使者	-9.77026
有省	-9.77031
紹興	-9.77118
牽	-9.77149
至此	-9.77153
蔭	-9.7716
攻	-9.77167
儉	-9.77181
忽然	-9.77333
凌	-9.77343
分別	-9.77385
第四	-9.77445
諸經	-9.77507
寔	-9.77744
准	-9.77747
踐	-9.77748
鈔	-9.77775
台	-9.77779
賦	-9.78051
王子	-9.78065
雞	-9.78123
扇	-9.78175
慢	-9.78268
威儀	-9.78396
本無	-9.78425
虞	-9.78439
而卒	-9.78554
缺	-9.7858
齎	-9.786
循	-9.78601
百姓	-9.78695
氷	-9.787
䇿	-9.78978
畜	-9.79005
廓	-9.79031
不絕	-9.79112
五日	-9.79124
讖	-9.79167
誌	-9.79172
言之	-9.79249
傳法	-9.79276
粒	-9.79297
炎	-9.79346
二卷	-9.79353
竪	-9.7937
闍維	-9.7941
衍	-9.79414
上下	-9.79535
太平	-9.79573
而生	-9.79682
或有	-9.79701
上堂	-9.79727
誦法華經	-9.79795
龍樹	-9.79946
段	-9.80018
慰	-9.80042
安樂	-9.80099
聖賢	-9.80111
終日	-9.80113
其心	-9.80136
六十	-9.8034
至于	-9.80353
圓通	-9.80401
異香	-9.80421
囊	-9.80425
掃	-9.80546
偃	-9.80636
而來	-9.80733
飲食	-9.80777
癡	-9.8082
闍	-9.80826
該	-9.80832
洽	-9.80853
懿	-9.80937
屍	-9.80998
語言	-9.81017
一名	-9.81022
礙	-9.81065
釋道	-9.8108
侍郎	-9.81101
熙	-9.81166
奚	-9.81242
賣	-9.81283
肇	-9.81291
猶如	-9.81324
南山	-9.8138
碧	-9.81439
戎	-9.81454
譬	-9.81523
凡夫	-9.8157
仙人	-9.81607
煙	-9.81647
洎	-9.81685
是為	-9.8171
犬	-9.81856
班	-9.8189
不受	-9.82016
鴻	-9.82053
仕	-9.82061
捐	-9.82119
阿育王	-9.82186
太后	-9.82192
先是	-9.82295
朝廷	-9.8237
姑	-9.82457
知之	-9.82483
莫能	-9.82691
常住	-9.82705
身心	-9.82743
入滅	-9.82764
【	-9.8278
受業	-9.82781
無以	-9.82852
坊	-9.82876
皆有	-9.82891
寸	-9.82959
仰山	-9.83055
愍	-9.83059
乞食	-9.83073
副	-9.83099
湘	-9.83143
然而	-9.83155
釋僧	-9.83166
炬	-9.83177
油	-9.83204
佛言	-9.83215
釋法	-9.83417
斗	-9.8356
牀	-9.83637
臻	-9.83646
皆是	-9.83713
牒	-9.83744
生於	-9.83857
牙	-9.83865
剌	-9.83965
佐	-9.84024
淨業	-9.84081
不在	-9.84183
介	-9.8423
滅度	-9.84244
門外	-9.84273
非常	-9.843
妃	-9.84323
在此	-9.84354
四眾	-9.84361
行者	-9.84384
飢	-9.84425
我等	-9.84435
蓮花	-9.84582
利益	-9.84788
諸國	-9.84858
不會	-9.84943
五臺	-9.85001
此人	-9.8527
百千	-9.85277
罵	-9.85343
苦行	-9.85394
而終	-9.85407
十卷	-9.85499
般	-9.85639
可得	-9.85701
得其	-9.85733
譏	-9.85751
喫	-9.85807
不相	-9.85834
湛	-9.85855
方等	-9.85891
華嚴經	-9.85997
吟	-9.85998
桓	-9.86201
將來	-9.86204
遶	-9.8622
天寶	-9.86246
文帝	-9.86251
請師	-9.86273
賜號	-9.8635
兄弟	-9.86354
法藏	-9.86359
南岳	-9.86388
幢	-9.86396
他日	-9.86447
方丈	-9.86448
大覺	-9.86573
維摩	-9.86582
罰	-9.86639
軒	-9.86654
課	-9.8666
撥	-9.86702
甲子	-9.86724
付囑	-9.86745
淮	-9.86783
紛	-9.86814
帝王	-9.86823
豪	-9.86869
天童	-9.86977
釋教	-9.87027
伸	-9.87102
板	-9.87136
不起	-9.8718
教化	-9.87224
起塔	-9.87265
世之	-9.87276
驢	-9.8729
瓦	-9.87313
構	-9.8734
國人	-9.87344
眠	-9.87356
大臣	-9.87419
阿彌陀佛	-9.87485
綿	-9.87671
播	-9.87749
若是	-9.87768
東北	-9.87784
俗姓	-9.87792
乃曰	-9.87902
無心	-9.87947
講說	-9.8798
獵	-9.87987
入道	-9.8806
禮佛	-9.88094
無異	-9.8815
大夫	-9.88184
肩	-9.882
天宮	-9.88202
此土	-9.88292
南北	-9.88401
嫌	-9.88434
以手	-9.88505
譬如	-9.88595
眷屬	-9.88679
州刺史	-9.88842
毗	-9.88844
隅	-9.88873
遼	-9.88953
其家	-9.88979
慈雲	-9.88979
▁宋	-9.89082
沉	-9.89112
墳	-9.89125
邀	-9.89334
菜	-9.89354
搜	-9.89374
一百	-9.8939
闇	-9.89392
賤	-9.89405
得道	-9.89469
與麼	-9.89713
憲	-9.89772
巾	-9.89782
勘	-9.89786
敦	-9.89799
三教	-9.89857
之子	-9.89857
有異	-9.89912
三卷	-9.89962
人皆	-9.89972
得一	-9.89993
削	-9.90007
誣	-9.90028
聞者	-9.90079
屠	-9.90134
金剛經	-9.90243
透	-9.90254
豈有	-9.90309
辛	-9.90393
區	-9.90415
激	-9.9045
諸法	-9.90497
柳	-9.90497
俄而	-9.9055
為我	-9.90634
女人	-9.90636
卑	-9.90662
之門	-9.90745
儲	-9.90749
二十四	-9.90823
▁唐	-9.90887
詰	-9.90942
灌	-9.90946
歇	-9.90951
替	-9.90951
吹	-9.91023
育王	-9.91081
兜率	-9.91095
若此	-9.91138
示眾	-9.91139
傅	-9.91147
武德	-9.9115
膝	-9.91184
所有	-9.91323
姚	-9.91351
跪	-9.91362
巢	-9.91377
上人	-9.91414
雲居	-9.91426
男女	-9.91461
明帝	-9.91482
帥	-9.91529
藝	-9.91548
分明	-9.91552
爐	-9.91588
坐禪	-9.91601
各有	-9.91611
呵	-9.91639
閉	-9.91649
十萬	-9.91788
命終	-9.91967
出入	-9.92024
實相	-9.92104
歿	-9.92117
觀之	-9.92144
不可以	-9.9216
境界	-9.92253
裂	-9.92317
毫	-9.92325
之處	-9.92381
杲	-9.92494
未嘗	-9.92561
庫	-9.92604
蒼	-9.92618
衣服	-9.92671
且道	-9.92688
十八年	-9.92743
匹	-9.92753
入定	-9.92819
枕	-9.92832
真如	-9.92839
已來	-9.92863
新羅	-9.92889
盖	-9.93065
有何	-9.93171
贊曰	-9.93222
潭	-9.93229
南泉	-9.93241
弓	-9.93278
較	-9.93278
巴	-9.93323
高宗	-9.93408
豫	-9.93451
掘	-9.93464
什麼	-9.93472
拒	-9.93507
涌	-9.93609
西天	-9.93624
王公	-9.93629
幡	-9.93699
這箇	-9.93712
享	-9.93731
臘	-9.93733
一切眾生	-9.93754
世祖	-9.93767
墓	-9.93785
穿	-9.93786
入山	-9.93811
學徒	-9.93885
寤	-9.9399
牢	-9.93996
虧	-9.94057
終不	-9.94117
壽七十	-9.94138
二十五	-9.94312
嘆	-9.94393
宗旨	-9.94426
刺	-9.94455
梅	-9.94491
三十二	-9.94619
耕	-9.94721
刊	-9.94758
識者	-9.9482
問道	-9.94833
包	-9.94979
襄	-9.95001
凶	-9.9514
醉	-9.95175
嗚呼	-9.95184
拳	-9.95213
俟	-9.95218
咨	-9.95231
佛事	-9.95235
大慧	-9.95265
京兆	-9.95288
揖	-9.95447
雪竇	-9.95477
穀	-9.95558
得度	-9.95592
衢	-9.956
忽有	-9.95641
之下	-9.95679
効	-9.9568
賀	-9.95682
江南	-9.95789
成都	-9.95789
陋	-9.95907
五色	-9.95908
侵	-9.95931
不聞	-9.95937
旻	-9.95949
祥符	-9.96017
山寺	-9.96075
大曆	-9.96108
即以	-9.96123
匪	-9.96143
多羅	-9.96146
仁義	-9.96178
語曰	-9.96279
羅什	-9.96343
芝	-9.96352
叩	-9.96367
四大	-9.96391
隷	-9.96447
耆	-9.96462
第十	-9.96546
高僧	-9.96548
不勝	-9.96566
淪	-9.96652
裴	-9.96681
垢	-9.96728
截	-9.9679
仁壽	-9.96844
為大	-9.96846
敵	-9.96875
說偈曰	-9.9688
藏經	-9.9699
淫	-9.97086
摩訶	-9.97327
瑩	-9.97392
寵	-9.97404
法王	-9.9741
霞	-9.97436
所作	-9.9747
本傳	-9.97522
十九年	-9.97568
玅	-9.97654
價	-9.97657
膺	-9.97825
束	-9.97858
發明	-9.97951
劒	-9.97952
高僧傳	-9.98031
胸	-9.98042
滋	-9.98108
珪	-9.98133
等經	-9.9814
石室	-9.9815
算	-9.98165
不離	-9.98182
之風	-9.98237
外國	-9.9826
污	-9.98414
未知	-9.98525
是佛	-9.98537
太原	-9.98539
未能	-9.986
嚮	-9.98658
輝	-9.98706
問之	-9.98708
師乃	-9.98866
軸	-9.98884
則有	-9.98935
之上	-9.98958
年二十	-9.98975
汝當	-9.99073
快	-9.99092
擾	-9.99129
正覺	-9.99199
諡	-9.99224
陰陽	-9.99242
三乘	-9.99246
一一	-9.99254
淚	-9.99315
乏	-9.9937
往往	-9.99458
奉佛	-9.99492
高座	-9.99522
護法	-9.99628
薛	-9.99637
高麗	-9.99868
柔	-9.9987
褒	-9.99876
齡	-9.99886
為師	-10.0004
籠	-10.0013
緇	-10.002
群生	-10.0022
小兒	-10.0039
弄	-10.0042
閒	-10.0046
瓊	-10.0046
不空	-10.0052
國公	-10.0053
其志	-10.0054
江西	-10.006
仁者	-10.0069
數年	-10.0089
麁	-10.009
顒	-10.0093
擔	-10.0096
觀世音	-10.0098
梵僧	-10.01
來迎	-10.0103
不久	-10.0104
何人	-10.0107
囚	-10.0114
辟	-10.0115
相與	-10.0117
亟	-10.0118
烟	-10.0118
焰	-10.0119
咎	-10.012
有情	-10.0127
七歲	-10.0128
本來	-10.0138
旌	-10.0139
伴	-10.0142
布施	-10.0143
故也	-10.0149
顗	-10.0151
生滅	-10.0152
國家	-10.016
蔡	-10.0169
未審	-10.0187
之內	-10.0189
訥	-10.0199
陀羅尼	-10.02
不壞	-10.02
諍	-10.0201
匡	-10.0201
圓覺	-10.0201
狗	-10.0202
究竟	-10.0203
偕	-10.0214
汝今	-10.0217
局	-10.0219
自稱	-10.0219
乙	-10.0221
法雲	-10.0224
玄奘	-10.0225
年七十	-10.0236
殃	-10.0242
鸞	-10.0244
錦	-10.0244
臭	-10.0244
無上	-10.0254
貞元	-10.0255
坑	-10.0273
神力	-10.0282
多少	-10.0289
師因	-10.0295
之理	-10.0295
叟	-10.0298
善知識	-10.0302
與汝	-10.0303
若能	-10.0311
夜夢	-10.0312
不遠	-10.0318
濕	-10.0319
雪峯	-10.0325
年正月	-10.0337
俯	-10.0339
貢	-10.0345
時如何	-10.0353
惱	-10.0357
四月八日	-10.0357
叡	-10.0364
見者	-10.0368
楞嚴	-10.0371
葛	-10.0376
為業	-10.0377
靖	-10.0378
閻浮提	-10.0379
東山	-10.0381
不自	-10.0388
建立	-10.0391
闢	-10.0392
戀	-10.0403
覲	-10.0404
搆	-10.0404
無窮	-10.0422
天下之	-10.0423
出於	-10.0424
十餘	-10.0424
師之	-10.0427
其上	-10.0428
白衣	-10.0435
而行	-10.0437
《	-10.0447
絹	-10.0453
輸	-10.0456
許之	-10.0457
成道	-10.0457
其間	-10.0463
元和	-10.0469
之名	-10.0471
矜	-10.0481
六祖	-10.0491
捕	-10.0506
溢	-10.0508
埋	-10.051
得法	-10.051
無明	-10.051
仗	-10.0511
沐浴	-10.0532
括	-10.0534
署	-10.0537
獎	-10.0537
挺	-10.0539
灌頂	-10.0539
僧伽	-10.0541
集眾	-10.0552
詐	-10.056
掛	-10.0564
寶塔	-10.0575
榻	-10.0591
提婆	-10.0596
燒香	-10.0598
員	-10.0602
四部	-10.0606
二十八	-10.0609
徒眾	-10.061
頃之	-10.0611
欝	-10.0614
遜	-10.0615
落髮	-10.0616
搖	-10.0628
於中	-10.0635
獸	-10.0636
盲	-10.0642
=	-10.0644
何如	-10.0651
報恩	-10.0652
剛	-10.0655
山林	-10.0661
殺之	-10.0661
諾	-10.0663
寇	-10.0668
叱	-10.067
糧	-10.0671
讀誦	-10.0691
賈	-10.0695
聊	-10.0697
永明	-10.0697
衣鉢	-10.0698
書曰	-10.0701
將欲	-10.0712
真實	-10.0714
雪山	-10.0715
蹈	-10.0721
現前	-10.0723
東林	-10.0725
千餘	-10.0739
□	-10.0748
輙	-10.0749
杭	-10.0753
其國	-10.0767
無數	-10.0771
八萬四千	-10.0773
示疾	-10.0775
几	-10.0776
粥	-10.0777
姿	-10.078
既至	-10.0781
如今	-10.0784
不輟	-10.0796
不用	-10.0798
翠	-10.08
歸宗	-10.0807
其母	-10.082
聰明	-10.0822
所造	-10.0834
頭陀	-10.0837
不言	-10.0838
之類	-10.0842
饒	-10.0851
如意	-10.0852
大地	-10.0855
豁然	-10.0874
法席	-10.0882
層	-10.0885
裁	-10.0886
護持	-10.0888
併	-10.0889
耶舍	-10.0892
雖有	-10.0894
吉祥	-10.0895
一字	-10.0898
有餘	-10.0898
襄陽	-10.0899
永嘉	-10.0907
之前	-10.0915
自知	-10.0919
壑	-10.0919
付法	-10.0925
窣堵波	-10.0928
此山	-10.0938
趺坐	-10.0941
其文	-10.0943
劣	-10.0943
大千	-10.0945
諸僧	-10.0948
元嘉	-10.0953
貨	-10.0968
壤	-10.0969
平等	-10.0972
粗	-10.0974
諷	-10.0974
悉皆	-10.0986
有四	-10.099
大海	-10.0996
灑	-10.0998
州人	-10.1003
恥	-10.1022
冤	-10.1025
逈	-10.1027
亦云	-10.1028
天上	-10.1042
安置	-10.1045
援	-10.1055
阻	-10.1058
其意	-10.1062
公卿	-10.1066
玄宗	-10.1069
魂	-10.1078
藍	-10.1079
)。(	-10.108
子孫	-10.108
福田	-10.1082
當有	-10.1083
帙	-10.109
優波笈多	-10.1094
稽	-10.1098
剪	-10.11
之者	-10.1106
尹	-10.1109
項	-10.1112
如故	-10.1114
之文	-10.1116
桂	-10.1117
老君	-10.1122
十日	-10.1126
不解	-10.1128
泛	-10.1129
衲	-10.1133
未來	-10.1134
未盡	-10.1142
材	-10.1142
靈山	-10.1146
京城	-10.116
恣	-10.1168
湧	-10.1169
持戒	-10.117
片	-10.1184
漫	-10.1195
大慈	-10.1197
之禮	-10.12
及諸	-10.121
嗜	-10.1213
入涅槃	-10.1219
茅	-10.1224
遊方	-10.1225
號曰	-10.1225
帳	-10.1226
稠	-10.1231
梵本	-10.1234
授以	-10.1237
而立	-10.1253
筆受	-10.1253
邈	-10.1255
柴	-10.1259
知見	-10.126
一言	-10.1263
之力	-10.1276
非一	-10.1276
豈可	-10.1283
數千	-10.1289
蘇州	-10.1292
所著	-10.1293
始得	-10.1295
妾	-10.1308
藻	-10.1309
無著	-10.1309
三十六	-10.131
定慧	-10.1314
王氏	-10.1319
得之	-10.1319
亦非	-10.1337
鄴	-10.1341
暨	-10.1343
寂滅	-10.1344
上有	-10.1352
最後	-10.1356
無畏	-10.1358
翰	-10.1359
奢	-10.1364
派	-10.1366
道也	-10.1366
寒暑	-10.1371
析	-10.1373
號為	-10.1374
噉	-10.1389
奮	-10.1395
跋	-10.1398
冊	-10.1399
迫	-10.14
而死	-10.14
不須	-10.1408
徽	-10.1408
入內	-10.1418
人民	-10.1424
倉	-10.1428
慧日	-10.143
馮	-10.1431
河東	-10.1437
暇	-10.1441
謂其	-10.1443
躍	-10.145
帝釋	-10.1457
甚麼	-10.1461
公曰	-10.1463
舞	-10.1464
一僧	-10.1469
君臣	-10.1472
四人	-10.1476
故知	-10.1479
妻子	-10.1481
鼠	-10.1482
註	-10.1489
轍	-10.1489
瑜伽	-10.1489
填	-10.149
邃	-10.1492
大笑	-10.1493
汗	-10.1493
宴坐	-10.1495
之盛	-10.1499
皎	-10.1503
效	-10.1512
五人	-10.1513
蒲	-10.1515
訣	-10.1518
雍	-10.1519
五祖	-10.152
難陀	-10.1521
五千	-10.1526
之流	-10.1549
信心	-10.1552
全身	-10.1566
國土	-10.1569
饑	-10.1572
翹	-10.1577
戒行	-10.1577
霄	-10.1577
聖教	-10.1588
於世	-10.1606
知識	-10.161
而成	-10.1619
四百	-10.1624
瘡	-10.1631
飄	-10.1639
踏	-10.1641
由此	-10.1644
今之	-10.1645
欣然	-10.1646
名僧	-10.1647
十人	-10.165
終於	-10.1653
眾人	-10.1666
叛	-10.1667
丈六	-10.1674
未聞	-10.1675
郊	-10.1676
其年	-10.1688
是歲	-10.1688
更無	-10.1701
邪見	-10.1706
皇后	-10.171
主人	-10.171
與諸	-10.1711
道之	-10.1714
二十七	-10.172
相似	-10.1729
報應	-10.1737
大事	-10.1741
暑	-10.1749
設齋	-10.1752
握	-10.1753
甲寅	-10.176
拄杖	-10.1763
萬法	-10.1764
彭城	-10.1768
生淨土	-10.1769
世人	-10.1777
一乘	-10.1779
傳云	-10.1782
岐	-10.1785
大品	-10.1793
其僧	-10.1803
飽	-10.1813
憤	-10.1815
而退	-10.1824
刺史	-10.1836
仲尼	-10.1838
奕	-10.184
沐	-10.1843
為法	-10.1844
撿	-10.1847
鎖	-10.1848
坦	-10.1865
不思議	-10.187
恃	-10.1873
無間	-10.1873
庚申	-10.1882
少時	-10.1885
道安	-10.1888
不定	-10.1901
宰相	-10.1905
頌曰	-10.1905
毋	-10.1907
又見	-10.1911
會昌	-10.1915
相國	-10.1916
不忘	-10.193
諸子	-10.1935
作佛	-10.1941
經二卷	-10.1946
夫子	-10.195
叉	-10.1954
總持	-10.1954
眾皆	-10.1956
胤	-10.1969
故曰	-10.1972
開悟	-10.198
其地	-10.1988
龍門	-10.1988
佛日	-10.1993
佩	-10.1998
為一	-10.1998
認	-10.2001
旱	-10.2004
震旦	-10.2004
庚子	-10.201
法嗣	-10.2013
七卷	-10.2021
自爾	-10.2026
其本	-10.2028
虜	-10.203
乃以	-10.2036
南海	-10.2038
默然	-10.2038
所至	-10.2041
其法	-10.2044
嘆曰	-10.2051
年八十	-10.2055
沼	-10.2057
一年	-10.2059
秘	-10.206
說偈	-10.206
之世	-10.2064
道理	-10.2074
足以	-10.2079
麟	-10.2081
和尚者	-10.2086
銷	-10.2088
矯	-10.209
農	-10.2103
室中	-10.2106
二日	-10.2117
彭	-10.2117
卒於	-10.212
其子	-10.2121
爵	-10.2122
輦	-10.2126
柏	-10.2126
級	-10.2127
吳越	-10.2133
父子	-10.2133
觀其	-10.2137
奈何	-10.214
草木	-10.2142
山谷	-10.2147
顛	-10.2151
綜	-10.2152
五卷	-10.2154
模	-10.2156
皆悉	-10.2163
第五	-10.2169
山僧	-10.217
所知	-10.2201
而言	-10.2204
廉	-10.2208
死生	-10.2214
愁	-10.2221
藥山	-10.2241
一見	-10.2247
拾	-10.2256
而坐	-10.2257
壽八十	-10.2262
羅國	-10.2263
聞其	-10.2273
霑	-10.2273
蕃	-10.2278
愆	-10.2278
健	-10.2281
鷄	-10.2283
禪師者	-10.2284
其教	-10.2288
論曰	-10.2293
變化	-10.2299
妙法	-10.2302
未曾	-10.2308
頂禮	-10.2312
神明	-10.2321
令人	-10.2323
其義	-10.2332
〕	-10.2339
九十	-10.2343
憫	-10.2343
頹	-10.2344
文章	-10.2345
晏	-10.2347
淹	-10.2347
纂	-10.2347
不與	-10.2357
法智	-10.2366
桑	-10.2367
唯識	-10.2367
電	-10.2377
鈍	-10.2378
更有	-10.2379
系	-10.2381
不殺	-10.2382
流通	-10.2385
廣大	-10.2406
醒	-10.2406
嬰	-10.2407
係	-10.2407
狐	-10.2407
弼	-10.2411
而有	-10.2415
後於	-10.2418
揮	-10.2424
去也	-10.2434
餅	-10.2439
朽	-10.2443
由旬	-10.2445
山川	-10.2449
其說	-10.245
無復	-10.2451
具戒	-10.2453
大悟	-10.2455
漁	-10.2456
度僧	-10.2457
石霜	-10.2458
百餘里	-10.2469
行業	-10.247
恢	-10.2472
剋	-10.2477
不顧	-10.2478
以聞	-10.248
學人	-10.2487
無事	-10.2492
其名	-10.2494
述曰	-10.2494
略曰	-10.2498
心要	-10.2499
傲	-10.2503
揭	-10.2507
未至	-10.2509
倦	-10.2511
二教	-10.2514
禪宗	-10.252
後人	-10.2523
不合	-10.2533
唐言	-10.2536
方知	-10.2539
悼	-10.254
侍中	-10.2542
五戒	-10.2544
慈氏	-10.2547
之書	-10.2565
鄧	-10.2575
至德	-10.2586
建康	-10.2594
贍	-10.2598
我當	-10.2598
噫	-10.2601
鄰	-10.2602
焦	-10.2605
門下	-10.2607
只是	-10.2608
生而	-10.2608
同學	-10.2608
璉	-10.261
不行	-10.2613
風雨	-10.2622
何必	-10.2626
金像	-10.2629
爪	-10.263
行脚	-10.2636
益州	-10.2636
不滅	-10.2636
涯	-10.2637
不忍	-10.2643
未及	-10.2645
何者	-10.2649
僧眾	-10.2652
筵	-10.2672
其為	-10.2674
玄沙	-10.2676
當知	-10.2686
與我	-10.2695
經行	-10.2701
銳	-10.2702
佛寺	-10.2705
示之	-10.2705
舍利弗	-10.2719
其先	-10.273
戮	-10.2732
神人	-10.2748
有聲	-10.2755
經像	-10.2755
東都	-10.2759
旅	-10.2765
城中	-10.2767
絲	-10.2769
須彌	-10.2773
有緣	-10.2775
安得	-10.2777
佛祖統紀	-10.278
丞	-10.2785
未見	-10.2785
濁	-10.2786
二十一	-10.2793
及其	-10.2796
斂	-10.28
法性	-10.2801
擅	-10.2802
別有	-10.2802
瞋	-10.2806
無邊	-10.281
禮敬	-10.2812
了也	-10.2818
如前	-10.2824
經律	-10.2826
神異	-10.2832
中夜	-10.2842
佛為	-10.2842
維那	-10.2843
二千	-10.2847
夢見	-10.2859
泯	-10.2867
戒律	-10.2868
亦名	-10.2871
拙	-10.2874
而能	-10.2874
自號	-10.2875
詎	-10.2876
二十餘	-10.2877
丁未	-10.288
住處	-10.2884
泊	-10.289
子之	-10.2891
不二	-10.2891
道行	-10.2892
其餘	-10.2896
朴	-10.2904
廊	-10.2905
四卷	-10.2908
不異	-10.2908
壬申	-10.291
六日	-10.2916
太和	-10.2919
又以	-10.292
諸寺	-10.2925
豁	-10.2928
袁	-10.2935
醜	-10.2937
陟	-10.2941
為道	-10.2942
為善	-10.2949
訛	-10.2951
後有	-10.2953
同時	-10.2961
聖人之	-10.2964
當為	-10.2964
一旦	-10.2965
法輪	-10.2966
謂眾曰	-10.2967
長生	-10.2969
女子	-10.297
而下	-10.2972
完	-10.2973
亘	-10.2976
衲子	-10.2979
圓悟	-10.2981
眾經	-10.2991
日夜	-10.2992
者乎	-10.2993
致敬	-10.2996
艱	-10.2998
無對	-10.2999
梨	-10.3004
泥洹	-10.3005
枉	-10.3008
宮殿	-10.3013
淨慈	-10.3022
河南	-10.3028
古之	-10.3029
韓子	-10.303
令其	-10.303
恭敬	-10.3031
精勤	-10.3034
度人	-10.3036
飡	-10.3037
於大	-10.304
配	-10.3042
昨	-10.3055
經典	-10.3061
是知	-10.3065
夾	-10.3066
之相	-10.3069
禮懺	-10.3071
故名	-10.3074
宵	-10.3074
拯	-10.3075
於佛	-10.3085
尉	-10.3085
而歸	-10.3087
吒	-10.3109
吼	-10.3109
剡	-10.3114
錢唐	-10.3114
淨名	-10.3116
不從	-10.3122
西山	-10.3125
梵語	-10.313
此乃	-10.3132
相傳	-10.3133
宴	-10.3136
眷	-10.3142
護國	-10.3142
孕	-10.3144
用心	-10.3145
長慶	-10.3145
斫	-10.3148
舶	-10.315
大教	-10.3152
之罪	-10.3153
慧遠	-10.3158
九歲	-10.3167
亦可	-10.3172
求之	-10.3173
忿	-10.3176
百餘人	-10.3176
沸	-10.3177
記云	-10.3177
麤	-10.3182
修道	-10.3184
相應	-10.3201
明州	-10.3201
西來	-10.3204
詭	-10.321
琴	-10.3214
粲	-10.3215
狹	-10.3216
修淨業	-10.3218
唯有	-10.322
至矣	-10.3223
於彼	-10.3228
其父	-10.3233
怠	-10.3237
入城	-10.3239
不可得	-10.324
廣州	-10.3242
入京	-10.3246
子也	-10.325
挽	-10.3251
嵩山	-10.3256
太尉	-10.3257
目前	-10.326
華言	-10.3263
霧	-10.3273
山下	-10.3275
不淨	-10.3279
剖	-10.3282
是何	-10.3286
縱橫	-10.3288
甲午	-10.3289
相好	-10.3292
雖復	-10.3295
不容	-10.3295
一喝	-10.3298
未詳	-10.3303
神光	-10.3311
翔	-10.3313
熏	-10.3314
汝可	-10.3315
又於	-10.3316
夭	-10.3319
乍	-10.3319
禦	-10.3321
豫章	-10.3327
十歲	-10.3332
拂子	-10.3341
百官	-10.3342
詔曰	-10.3344
贖	-10.3351
猪	-10.3354
幹	-10.3355
京邑	-10.3358
所住	-10.3359
緇素	-10.336
諸侯	-10.3364
化為	-10.3367
四日	-10.3368
罽賓	-10.3373
處處	-10.3376
個	-10.3382
無知	-10.3382
匿	-10.3386
鱗	-10.3388
枚	-10.3391
佳	-10.3394
不亦	-10.3403
太史	-10.3407
何能	-10.3407
第六	-10.3412
戚	-10.3419
現在	-10.3424
攸	-10.3427
不著	-10.3429
薨	-10.3429
辛酉	-10.3431
大唐	-10.3434
菩提樹	-10.3441
叢	-10.3452
天尊	-10.3453
之志	-10.3453
伹	-10.3459
關中	-10.3461
朋	-10.3461
綴	-10.3461
渾	-10.3462
挾	-10.3464
少林	-10.3466
何事	-10.347
法堂	-10.3471
寺中	-10.348
無我	-10.349
安養	-10.3497
潮	-10.3497
憩	-10.3499
架	-10.3499
不知何許人	-10.3501
至元	-10.3507
長沙	-10.3512
諸王	-10.3512
百歲	-10.3519
凡聖	-10.3524
腰	-10.3529
償	-10.353
翳	-10.3532
剃髮	-10.3544
北齊	-10.3551
吳興	-10.3551
或曰	-10.3552
南方	-10.3557
講經	-10.3558
食肉	-10.356
托	-10.3568
涅槃經	-10.3569
天監	-10.3573
》	-10.3578
受之	-10.358
抄	-10.358
微妙	-10.3584
僧傳	-10.3584
十三日	-10.3584
言語	-10.3585
還有	-10.3591
請益	-10.3591
決定	-10.36
并州	-10.3603
疲	-10.3605
綽	-10.3605
行於世	-10.3605
王者	-10.3607
抽	-10.3607
偷	-10.3609
其一	-10.3611
剏	-10.3612
街	-10.3612
白馬	-10.3617
慨	-10.3629
富貴	-10.3629
是日	-10.363
不樂	-10.3631
厨	-10.3638
造寺	-10.3639
渴	-10.3643
捷	-10.3644
跏趺	-10.3645
壬午	-10.3646
千餘里	-10.3646
真諦	-10.3648
戊申	-10.3649
文殊師利	-10.365
壽六十	-10.3656
之宗	-10.3661
粟	-10.3665
之號	-10.3668
則不	-10.3669
學道	-10.3672
遂以	-10.3675
五臺山	-10.368
董	-10.3681
丙子	-10.3694
六百	-10.37
不測	-10.3707
釋門	-10.3708
婬	-10.371
裔	-10.3714
此則	-10.3716
五部	-10.3716
庚戌	-10.3723
之本	-10.3731
念念	-10.3735
微言	-10.3743
以示	-10.3744
便是	-10.375
裝	-10.3751
真人	-10.3752
大集	-10.3754
供給	-10.3768
行至	-10.3769
多聞	-10.3771
後學	-10.3775
沙門釋	-10.3778
存焉	-10.3779
疊	-10.378
大通	-10.3781
涕	-10.3782
酷	-10.3785
曷	-10.3786
乙未	-10.3786
誥	-10.3787
舘	-10.3787
茶毗	-10.379
沙門法	-10.3792
奄	-10.3805
則無	-10.3809
二子	-10.3814
郁	-10.3819
晃	-10.3825
迺	-10.3828
興化	-10.3831
此身	-10.3833
凡有	-10.3836
天神	-10.3849
豈得	-10.3858
袖	-10.3861
玉泉	-10.3861
璧	-10.3864
六時	-10.3864
歛	-10.3864
何也	-10.3866
聯	-10.3866
闍黎	-10.3867
壬辰	-10.3868
不入	-10.3872
雖然	-10.3875
建元	-10.3878
揚州	-10.3885
大同	-10.3886
弘法	-10.3894
善根	-10.3896
雀	-10.3899
婢	-10.39
淡	-10.3901
能仁	-10.3905
丁卯	-10.3905
癸亥	-10.3906
之聲	-10.3907
嗣法	-10.391
擬議	-10.3914
彼國	-10.3915
帝師	-10.3917
僧正	-10.3917
禪者	-10.3921
然其	-10.3923
有道	-10.3924
致書	-10.3927
行之	-10.3929
愽	-10.3935
耽	-10.3935
論云	-10.3938
鍾山	-10.3939
靈巖	-10.394
雉	-10.3942
此言	-10.3944
於地	-10.3947
承天	-10.3947
問訊	-10.3954
善哉	-10.3959
於前	-10.3962
因而	-10.3969
擒	-10.3976
促	-10.3977
夢中	-10.3977
蔬食	-10.3978
芬	-10.3979
乙卯	-10.3982
不易	-10.3983
展轉	-10.3984
代宗	-10.3986
二十三	-10.3987
久矣	-10.3996
不過	-10.3997
石門	-10.4007
行矣	-10.4008
神仙	-10.4009
希有	-10.4011
林中	-10.4011
擎	-10.4012
之謂	-10.4012
煥	-10.4012
薰	-10.4015
邕	-10.4015
恕	-10.4017
十善	-10.4023
六道	-10.4025
釋智	-10.403
馬鳴	-10.4032
即為	-10.4035
不聽	-10.404
宮中	-10.404
作佛事	-10.4042
而未	-10.4044
糞	-10.4049
若無	-10.4049
黃金	-10.4049
刪	-10.4052
貽	-10.4053
跨	-10.4056
然也	-10.4058
無二	-10.4058
學佛	-10.4064
匝	-10.4068
與人	-10.407
行化	-10.4079
驛	-10.4088
銜	-10.4089
不可思議	-10.409
不盡	-10.4092
乙酉	-10.4094
千載	-10.4097
諸弟子	-10.4102
千餘人	-10.4105
所生	-10.4107
五里	-10.4107
丁巳	-10.4111
般涅槃	-10.4112
皇太子	-10.4114
蔬	-10.4118
子曰	-10.4119
司徒	-10.4119
三皇	-10.412
琉璃	-10.4122
寶林	-10.4124
自謂	-10.4125
終身	-10.4125
玩	-10.4127
乾坤	-10.4128
綸	-10.4128
誦金剛經	-10.4138
適來	-10.4145
佛心	-10.4151
年中	-10.4152
晚年	-10.4163
綵	-10.4166
觀者	-10.4166
丁亥	-10.4168
戊午	-10.4169
吾將	-10.4184
豆	-10.4198
南陽	-10.4199
仁宗	-10.42
至道	-10.42
旛	-10.4203
百里	-10.4203
以自	-10.4205
蔚	-10.4206
靈異	-10.4211
荊溪	-10.4211
壬子	-10.4213
龍宮	-10.4214
齋戒	-10.4215
有旨	-10.4216
稱為	-10.422
此處	-10.4222
宗本紀	-10.423
禪寺	-10.4232
明旦	-10.4234
驚異	-10.4235
名山	-10.4238
饌	-10.4238
牆	-10.4238
亦是	-10.4239
募	-10.4241
盆	-10.4243
𦘕	-10.4244
有無	-10.4248
二十二	-10.425
三載	-10.4253
繇	-10.4257
蜜	-10.4257
寂然	-10.4259
為國	-10.4264
故能	-10.4269
釋曇	-10.4269
三聖	-10.4273
老師	-10.4276
可知	-10.4277
師事	-10.4279
之學	-10.4279
踞	-10.4279
做	-10.428
讚曰	-10.428
嫉	-10.4281
矢	-10.4281
浦	-10.4282
其旨	-10.4285
佛者	-10.429
何謂	-10.4295
福州	-10.4308
面西	-10.4309
願力	-10.4316
一萬	-10.4318
波羅	-10.4319
塚	-10.432
曳	-10.4321
娑婆	-10.4322
楷	-10.4323
受苦	-10.4334
乙巳	-10.4337
湛然	-10.4347
東土	-10.4354
畔	-10.4357
受具戒	-10.4358
戊辰	-10.4363
水中	-10.4365
猶未	-10.4371
為說	-10.4374
國清	-10.4375
本紀	-10.4375
彈	-10.4378
洪武	-10.4378
隨緣	-10.4379
與師	-10.4387
綺	-10.4393
耳目	-10.4394
衣冠	-10.4395
也無	-10.4395
儼然	-10.4397
岡	-10.4398
?」	-10.44
釆	-10.44
丙辰	-10.4404
賢首	-10.4408
但以	-10.441
輟	-10.4411
第七	-10.4413
無餘	-10.4419
若以	-10.442
金銀	-10.4427
堯舜	-10.4428
此國	-10.4433
績	-10.4434
謾	-10.4437
七百	-10.4437
覧	-10.4438
丁酉	-10.4443
未可	-10.4445
福德	-10.4446
之德	-10.4449
故有	-10.445
夾山	-10.4455
一物	-10.4462
名字	-10.4464
欲以	-10.4467
佛殿	-10.4467
梵志	-10.4475
終于	-10.4477
入寺	-10.4479
東方	-10.4479
羯磨	-10.4481
恰	-10.4481
印度	-10.4487
一行	-10.4496
每日	-10.4496
大興	-10.4498
大智	-10.4501
奉勅	-10.4508
以事	-10.4508
不曾	-10.4512
寐	-10.4517
多有	-10.4524
故來	-10.4525
乃問	-10.4533
舉似	-10.4534
之初	-10.4538
化之	-10.4545
姦	-10.4552
丈夫	-10.4553
其書	-10.4557
挹	-10.4559
庚午	-10.4561
陞座	-10.4561
丁丑	-10.4563
錢塘	-10.4566
之語	-10.4568
有五	-10.4578
別傳	-10.4585
而得	-10.4587
始終	-10.459
見聞	-10.4593
斤	-10.4596
問其故	-10.4598
彈指	-10.46
手執	-10.4601
賢聖	-10.4602
癸未	-10.4602
有佛	-10.4605
而止	-10.4606
甲申	-10.4607
終南山	-10.461
其德	-10.4611
士庶	-10.4625
王宮	-10.4627
其有	-10.4629
巷	-10.4633
厄	-10.4637
捨身	-10.4638
至如	-10.464
飲酒	-10.464
辭去	-10.4646
中興	-10.4646
無一	-10.4647
賢者	-10.4651
將終	-10.4655
中間	-10.4655
次日	-10.4656
自有	-10.4659
或問	-10.4669
不免	-10.4675
蚤	-10.4676
療	-10.4676
癸丑	-10.4683
禮樂	-10.4685
是名	-10.4686
乃云	-10.4686
師問	-10.4698
故云	-10.4701
寺主	-10.4704
皆為	-10.4705
大中	-10.4706
生平	-10.4708
千人	-10.4714
萬歲	-10.4715
餐	-10.4718
這僧	-10.4722
辛丑	-10.4725
戒壇	-10.4727
知是	-10.473
之術	-10.4741
自性	-10.4744
諸比丘	-10.4747
娶	-10.4749
塔於	-10.475
無方	-10.4752
城西	-10.4757
昂	-10.476
乃是	-10.4761
龜茲	-10.4761
名德	-10.4763
丙午	-10.4765
壬寅	-10.4765
辛亥	-10.4766
閻浮	-10.4767
根本	-10.4773
禪林	-10.4775
御史	-10.478
若人	-10.4784
翻經	-10.479
食之	-10.4792
阜	-10.4796
所感	-10.4797
之情	-10.4798
僉	-10.48
綠	-10.4802
鞭	-10.4803
我是	-10.4804
庚辰	-10.4805
受菩薩戒	-10.4806
無疾	-10.481
骸	-10.4824
庾	-10.483
會麼	-10.4832
憚	-10.4835
於人	-10.4839
尊宿	-10.4839
麓	-10.484
鈴	-10.4841
禽	-10.4841
毱多	-10.4843
拋	-10.4847
謂之曰	-10.4847
此間	-10.4854
赦	-10.4856
雪峰	-10.4857
相繼	-10.486
憐	-10.4861
無言	-10.4862
六度	-10.4862
一月	-10.4865
此語	-10.4865
瞻禮	-10.4867
香氣	-10.4872
果報	-10.4874
僚	-10.4878
斧	-10.488
書云	-10.4881
評	-10.4882
?	-10.4882
遷化	-10.4887
薩	-10.489
神曰	-10.4899
靡不	-10.4904
大迦葉	-10.4908
一食	-10.4913
西京	-10.4914
梵天	-10.4915
之性	-10.4915
顏色	-10.4917
甦	-10.4918
措	-10.4918
澆	-10.4919
隙	-10.4921
勃	-10.4923
癸卯	-10.4926
丙寅	-10.4928
相續	-10.4929
無他	-10.4931
遙見	-10.4935
聞法	-10.4937
不死	-10.4941
三觀	-10.4943
蔣山	-10.4947
見有	-10.4948
王聞	-10.4954
便打	-10.4957
桃	-10.4961
以偈	-10.4964
了無	-10.4965
諧	-10.4966
節度使	-10.4975
金山	-10.4985
得舍利	-10.4988
碩	-10.4989
城南	-10.4996
二十一年	-10.5
辛未	-10.5003
第八	-10.5004
虐	-10.5005
汎	-10.5005
訴	-10.5006
三十餘	-10.5007
躡	-10.5009
汪	-10.501
不失	-10.5014
二師	-10.5022
不必	-10.5024
之西	-10.5025
大興善寺	-10.5029
鄉里	-10.5031
文王	-10.5038
道家	-10.5039
鄉人	-10.5041
潭州	-10.5042
不知其	-10.5042
此地	-10.5045
廁	-10.5045
一切法	-10.5045
永安	-10.5047
磬	-10.5048
琛	-10.5051
論師	-10.5053
而復	-10.5054
丙申	-10.5055
未得	-10.5055
眾咸	-10.5056
大義	-10.5062
則天	-10.5063
所言	-10.5063
不通	-10.5082
貶	-10.5083
無益	-10.5084
鍊	-10.5085
為眾	-10.5087
瑞應	-10.5089
儻	-10.509
從容	-10.5092
開法	-10.5092
求出家	-10.5096
乙亥	-10.5096
之業	-10.51
二十九	-10.5101
白蓮	-10.5101
悲泣	-10.5105
是則	-10.5106
辛巳	-10.5108
佛號	-10.511
畢竟	-10.5114
師資	-10.5118
瞿	-10.5119
宗門	-10.5124
踵	-10.5124
麥	-10.5128
緩	-10.5129
苗	-10.5131
斛	-10.5134
既無	-10.5135
孚	-10.5136
癸酉	-10.5137
萬人	-10.5137
而入	-10.5138
教之	-10.5141
司空	-10.5148
有時	-10.5151
指示	-10.5155
足下	-10.5158
貴賤	-10.5159
心法	-10.5159
之妙	-10.5168
通達	-10.5169
洋	-10.5172
真宗	-10.5175
諒	-10.5177
我心	-10.5178
寫經	-10.5181
喜曰	-10.5183
奏曰	-10.5191
大驚	-10.5196
恬	-10.52
律儀	-10.5206
釋種	-10.5209
沮	-10.5211
大悅	-10.5213
攀	-10.5213
栴檀	-10.5219
詩云	-10.5221
上表	-10.5221
勗	-10.5222
教法	-10.5223
精神	-10.5223
庚寅	-10.5224
曾無	-10.5226
消息	-10.5228
毘尼	-10.5231
為沙門	-10.5238
(〔	-10.5241
年六十	-10.5244
二親	-10.5246
如常	-10.5247
二十六	-10.5248
形像	-10.5248
是什麼	-10.5248
一聲	-10.5248
十五日	-10.5253
姬	-10.5254
心地	-10.5257
換	-10.5262
無語	-10.5265
戊子	-10.5266
甲辰	-10.5268
不取	-10.5269
作麼	-10.5272
即今	-10.5275
十里	-10.5275
隱居	-10.5277
著述	-10.5282
少年	-10.5285
廷	-10.5294
乃於	-10.5299
武宗	-10.5299
棘	-10.53
咄	-10.5301
翌日	-10.5307
吾今	-10.5307
永平	-10.5308
十餘里	-10.5308
睿	-10.5308
奇之	-10.531
都督	-10.5318
故其	-10.5318
入宮	-10.5319
文宣	-10.5324
之境	-10.5326
鹽	-10.5331
守護	-10.5331
熈	-10.5334
禁中	-10.5334
聖旨	-10.5336
國之	-10.5336
吾師	-10.5337
莫之	-10.5345
漆	-10.5346
竇	-10.5347
圍繞	-10.5347
事之	-10.5347
迨	-10.5347
甲戌	-10.5351
至期	-10.5353
遣人	-10.5354
不獲	-10.5361
文義	-10.5364
再三	-10.5366
者皆	-10.5366
為本	-10.5379
覔	-10.5387
縷	-10.5388
沖	-10.5388
餌	-10.5388
眾中	-10.5389
闊	-10.5391
不巳	-10.5391
僻	-10.5392
戊寅	-10.5392
黎	-10.5394
毗尼	-10.5396
開寶	-10.5403
書偈	-10.5404
周公	-10.5407
圓明	-10.5408
在家	-10.5414
熾	-10.5415
知有	-10.5416
喚作	-10.5422
優劣	-10.543
頑	-10.5431
士大夫	-10.5432
甚多	-10.5433
再拜	-10.5434
御製	-10.5434
歸心	-10.5434
比丘尼	-10.5435
頓悟	-10.5436
在於	-10.5445
開示	-10.5449
地藏	-10.5455
天皇	-10.5459
罪福	-10.546
蘭若	-10.546
萬年	-10.5463
偈云	-10.5463
目連	-10.5463
感通	-10.5464
師以	-10.5471
樞	-10.5473
孟子	-10.5473
僧祇	-10.5475
便喝	-10.5475
太上	-10.5476
婁	-10.5477
驟	-10.548
鷹	-10.548
桐	-10.548
何有	-10.5481
諸眾生	-10.5482
至誠	-10.5486
其數	-10.549
去來	-10.5495
尋常	-10.5499
坐具	-10.5512
萬行	-10.5517
聾	-10.5519
所能	-10.552
西夏	-10.552
宸	-10.5521
顛倒	-10.5522
乙丑	-10.5523
不欲	-10.5524
寮	-10.5524
戊戌	-10.5526
丙戌	-10.5527
二十四年	-10.5531
山云	-10.5534
宗師	-10.5534
一云	-10.5536
示滅	-10.5542
於我	-10.5546
妙喜	-10.555
吳郡	-10.555
公之	-10.5553
二乘	-10.5558
越州	-10.5558
鬱	-10.5562
仆	-10.5563
料	-10.5563
織	-10.5564
擯	-10.5565
數萬	-10.5565
瞎	-10.5566
祖云	-10.5566
萃	-10.5566
汰	-10.5567
春秋七十	-10.5569
挂	-10.557
猿	-10.5571
十餘年	-10.5574
元祐	-10.5588
年二月	-10.5593
心印	-10.5599
胥	-10.56
無得	-10.56
貯	-10.5605
熊	-10.5607
窓	-10.5614
建寺	-10.5623
公案	-10.5628
猶有	-10.5632
自古	-10.5632
州剌史	-10.5635
至一	-10.5637
自言	-10.564
為佛	-10.5642
針	-10.5649
邵	-10.5652
妹	-10.5652
西歸	-10.5652
鳩	-10.5653
門徒	-10.5653
闔	-10.5655
斌	-10.5656
喧	-10.5659
癸巳	-10.5659
之始	-10.5665
魔王	-10.5665
景德	-10.5665
吾當	-10.5671
即於	-10.5671
事佛	-10.5679
簿	-10.5684
四十九	-10.5692
請僧	-10.5692
雍州	-10.5695
行人	-10.5695
沃	-10.5696
梯	-10.5696
父王	-10.5696
侮	-10.5697
向上	-10.5697
誑	-10.5697
而自	-10.57
差別	-10.5701
憲宗	-10.5703
無遺	-10.5705
禪觀	-10.5706
此寺	-10.571
山水	-10.5715
頒	-10.5717
不思	-10.5719
不成	-10.5721
八歲	-10.5724
行世	-10.5724
楞伽	-10.5726
自得	-10.5728
有疾	-10.5735
風俗	-10.5736
珍寶	-10.5737
寶雲	-10.574
籌	-10.5741
叫	-10.5742
殺人	-10.5744
廼	-10.5745
老宿	-10.5748
辛卯	-10.5749
皆以	-10.5766
文武	-10.5767
海內	-10.5779
▁齊	-10.578
佛所	-10.5785
北山	-10.5788
佛理	-10.5791
之餘	-10.5797
昨日	-10.5808
白佛言	-10.5809
李氏	-10.5811
稱之	-10.5813
二字	-10.582
我身	-10.5822
襟	-10.5835
上竺	-10.5836
壬戌	-10.584
極樂	-10.5849
妨	-10.5849
忽聞	-10.5859
結集	-10.5861
於後	-10.5861
普照	-10.5862
放下	-10.587
周孔	-10.5871
放生	-10.5871
低	-10.5874
陣	-10.5874
請住	-10.5875
緘	-10.5876
岑	-10.5877
不斷	-10.5877
參禪	-10.5877
聳	-10.5879
添	-10.5879
忤	-10.5879
福業	-10.5883
沙門慧	-10.5893
所出	-10.5893
以成	-10.5894
數人	-10.5894
四分	-10.5895
剌史	-10.5902
師為	-10.5904
人心	-10.5907
神變	-10.5911
有一人	-10.5921
閻	-10.5922
丹陽	-10.5924
畜生	-10.5924
翫	-10.5925
鬪	-10.5926
佛陀	-10.5926
竦	-10.593
聞而	-10.593
忉利天	-10.5932
法者	-10.5934
山神	-10.5936
已後	-10.5942
年三十	-10.5943
日用	-10.5944
無法	-10.5954
林寺	-10.5962
戈	-10.5964
澡	-10.5965
唾	-10.5969
梁武	-10.5971
大將軍	-10.5975
鳳翔	-10.5975
與其	-10.5979
始知	-10.5981
四諦	-10.5982
敬之	-10.5983
昔有	-10.5984
東晉	-10.5985
眾曰	-10.5986
自非	-10.5988
悔過	-10.5989
翰林	-10.5989
金輪	-10.6002
拏	-10.6008
莖	-10.6011
雕	-10.6011
罄	-10.6011
陪	-10.6016
啼	-10.6016
公主	-10.602
不少	-10.6026
當來	-10.6031
講法華	-10.6031
可為	-10.6034
光照	-10.6034
振錫	-10.6037
去矣	-10.6042
膚	-10.6044
座下	-10.6045
西向	-10.605
諸師	-10.6054
告眾曰	-10.6057
上曰	-10.6061
撲	-10.6061
確	-10.6062
峙	-10.6063
其神	-10.6066
今者	-10.6067
開元寺	-10.6074
正念	-10.6075
弘道	-10.6081
佛說	-10.6083
還家	-10.6085
以求	-10.6085
朝夕	-10.6088
禪門	-10.6088
焚之	-10.609
慈明	-10.6091
寺院	-10.6096
白言	-10.6098
常以	-10.6108
瓔珞	-10.6109
黃帝	-10.6111
餓鬼	-10.6113
語錄	-10.6117
一家	-10.6119
天祠	-10.6126
不住	-10.6128
生天	-10.6131
彼此	-10.6131
聽者	-10.6132
奈	-10.6137
久而	-10.6138
四天王	-10.614
千年	-10.6141
相承	-10.6143
羲	-10.6148
今此	-10.6149
有窣堵波	-10.6149
無別	-10.6161
遂得	-10.6161
東坡	-10.6163
千萬	-10.6164
如生	-10.6167
言曰	-10.6167
時號	-10.6169
流布	-10.6171
狀如	-10.6178
白馬寺	-10.618
是我	-10.6182
福寺	-10.6182
彼岸	-10.6182
蔣	-10.6184
明月	-10.6184
佛名	-10.6185
三衣	-10.6188
迴向	-10.6194
老氏	-10.6194
延慶	-10.6194
中宗	-10.6195
肥	-10.6198
慚愧	-10.6204
咸通	-10.6206
下有	-10.6216
見性	-10.6219
法華三昧	-10.6219
隨喜	-10.6222
攝論	-10.6234
可見	-10.6236
法寶	-10.6237
掖	-10.624
槃	-10.6245
伺	-10.6246
谿	-10.6248
七佛	-10.6248
諸部	-10.6249
蒼生	-10.6249
空寂	-10.6249
漂	-10.625
同歸	-10.6251
為王	-10.6252
弱冠	-10.6254
龍象	-10.6255
讀書	-10.6255
天寧	-10.6255
入門	-10.6259
專心	-10.626
心念	-10.6262
虎丘	-10.6263
六根	-10.6264
文句	-10.6272
牛頭	-10.6274
雙林	-10.6279
邪正	-10.6284
炳	-10.6287
炭	-10.6291
劇	-10.6294
煬帝	-10.6297
零	-10.63
迎之	-10.6304
歷代	-10.6309
衣食	-10.631
乃為	-10.631
達摩	-10.6313
開堂	-10.6315
向西	-10.6316
震動	-10.6321
不善	-10.6322
世俗	-10.6327
一室	-10.6331
不契	-10.6333
為其	-10.6335
遠曰	-10.6338
來也	-10.634
惶	-10.6341
為什麼	-10.6342
持經	-10.6343
端正	-10.6344
鉤	-10.6345
各各	-10.635
二十三年	-10.6354
六卷	-10.6359
雲棲	-10.636
罽賓國	-10.6367
機緣	-10.6367
所傳	-10.638
尊者曰	-10.6388
疆	-10.639
媼	-10.639
一法	-10.639
頸	-10.6391
裹	-10.6391
因此	-10.6392
傳之	-10.6396
回向	-10.6397
其門	-10.6397
安曰	-10.6398
亦然	-10.6398
寺塔	-10.6407
十六日	-10.641
萬壽	-10.641
心不	-10.6412
四生	-10.6412
江州	-10.6413
一代	-10.6416
四面	-10.6418
者多	-10.6418
中印度	-10.6422
放光明	-10.6424
坐逝	-10.6427
二僧	-10.6432
垣	-10.6433
褐	-10.6434
掠	-10.6439
咽	-10.644
頤	-10.6441
袍	-10.6442
百家	-10.6442
丹霞	-10.6445
如初	-10.6449
而起	-10.6459
塔曰	-10.6459
既不	-10.646
奉詔	-10.6462
肅宗	-10.6463
因問	-10.6464
都無	-10.6468
周武	-10.6469
穆王	-10.6475
四十年	-10.648
豈能	-10.6481
䖍	-10.6485
為先	-10.6487
問云	-10.6489
失其	-10.6491
敬禮	-10.6493
禪院	-10.6495
與佛	-10.65
可乎	-10.6505
長子	-10.6506
呼為	-10.6508
聲色	-10.6511
今以	-10.6511
兜率天	-10.6512
其實	-10.6518
二部	-10.6519
謂人曰	-10.6519
此二	-10.6523
後住	-10.6529
瞿曇	-10.653
大鑒之	-10.6531
百萬	-10.6532
無何	-10.6534
伍	-10.6536
邇	-10.6537
宦	-10.6538
告之曰	-10.6544
摩羅	-10.6547
轉法輪	-10.6548
山之	-10.6554
菩薩戒	-10.6554
天樂	-10.6569
因以	-10.6576
之至	-10.6576
即得	-10.6579
狼	-10.658
為宗	-10.6582
八日	-10.6583
月十五日	-10.6583
釋典	-10.6584
羸	-10.6584
未足	-10.6585
九流	-10.6585
榜	-10.6585
立寺	-10.6586
沾	-10.6587
法要	-10.6588
問答	-10.6588
藹	-10.6589
念誦	-10.6589
繪	-10.659
柯	-10.6596
傳授	-10.6597
若夫	-10.6597
寺觀	-10.6608
唯願	-10.6611
死者	-10.6614
此方	-10.6616
怡	-10.6618
已上	-10.6622
讚歎	-10.6627
塔于	-10.6627
彫	-10.6632
卵	-10.6633
無可	-10.6634
懃	-10.6635
生時	-10.6636
采	-10.6637
嗔	-10.6637
莫測	-10.6638
無佛	-10.6642
欲得	-10.6643
迄	-10.6645
大溈	-10.6653
西國	-10.6656
進士	-10.6657
聽法	-10.6658
至理	-10.6658
卒于	-10.6658
汝能	-10.6668
講堂	-10.6674
觀察	-10.6677
手足	-10.6678
兔	-10.6682
債	-10.6683
殞	-10.6684
胄	-10.6685
揆	-10.6685
本國	-10.6687
得免	-10.6687
庶幾	-10.6689
總管	-10.6691
婦人	-10.6696
日誦	-10.6702
教門	-10.6703
少出家	-10.6705
當生	-10.6705
寶藏	-10.6707
佛牙	-10.6709
世宗	-10.6711
不拜	-10.6712
年十三	-10.6719
梵王	-10.6722
謨	-10.6728
髻	-10.6729
草堂	-10.673
有神	-10.6734
藤	-10.6738
靈寶	-10.6739
葱嶺	-10.6739
如其	-10.6742
故得	-10.6746
歸命	-10.6747
香爐	-10.675
壽命	-10.6752
投子	-10.6754
雲集	-10.6754
舉手	-10.6755
取之	-10.6758
二者	-10.676
求法	-10.676
三歲	-10.6762
印可	-10.677
無量壽	-10.6772
互相	-10.6774
圓滿	-10.678
談論	-10.678
萌	-10.6781
泰山	-10.6784
杳	-10.6785
株	-10.6785
琰	-10.6786
衝	-10.6786
惡業	-10.6786
第九	-10.6786
不堪	-10.6787
〔	-10.6797
入寂	-10.68
叅	-10.6803
六經	-10.6803
宣宗	-10.6803
沙門道	-10.6808
人來	-10.681
赫	-10.6813
之東	-10.6814
長齋	-10.6816
人事	-10.6821
八萬	-10.6822
又復	-10.6822
所行	-10.6824
無由	-10.6825
見在	-10.6827
無能	-10.6833
蓄	-10.6833
殺生	-10.6836
丕	-10.6837
西明寺	-10.6837
不明	-10.6843
詩曰	-10.6843
謝曰	-10.6855
得此	-10.6859
二十卷	-10.6862
最為	-10.6869
奇特	-10.687
梵行	-10.6872
莫知	-10.6876
其處	-10.6876
誦持	-10.6878
繡	-10.6878
為汝	-10.6879
隴	-10.6879
稜	-10.6882
賾	-10.6882
粉	-10.6884
璨	-10.6885
突	-10.6886
王舍城	-10.6886
內典	-10.689
便出	-10.6891
安隱	-10.6893
來者	-10.6893
以法	-10.6902
王之	-10.6917
塔寺	-10.6918
頂上	-10.6919
乃見	-10.6919
蓮社	-10.6921
阿彌陀	-10.6922
佇	-10.6928
濯	-10.6929
優婆塞	-10.693
絃	-10.6933
復何	-10.6933
灾	-10.6935
歐陽	-10.6936
所聞	-10.6936
取其	-10.6939
水陸	-10.6942
太常	-10.6942
問如何是	-10.6943
乃知	-10.6944
有此	-10.695
無極	-10.6961
能知	-10.6968
遂使	-10.697
百億	-10.6976
精誠	-10.6978
諗	-10.6978
旬日	-10.6979
栗	-10.6984
獅子	-10.6988
閔	-10.6988
觀心	-10.699
圓光	-10.699
己酉	-10.6991
飯僧	-10.6993
悟入	-10.7001
天帝	-10.7009
帝崩	-10.7009
年十五	-10.701
不至	-10.7014
鬚	-10.7015
住世	-10.7019
郡守	-10.7019
得生	-10.7019
而還	-10.702
何其	-10.7026
即日	-10.7027
一分	-10.7029
更不	-10.703
冐	-10.7033
樵	-10.7035
燃	-10.7036
縫	-10.7037
栢	-10.7037
己丑	-10.7041
正法眼藏	-10.7042
其風	-10.7046
商量	-10.7048
所願	-10.705
衲僧	-10.705
何足	-10.7054
般若經	-10.7059
儒者	-10.7063
而不能	-10.7065
當世	-10.7071
宛	-10.7071
未始	-10.7072
可也	-10.7075
或以	-10.7079
畵	-10.7082
月八日	-10.7082
一箇	-10.7084
葷	-10.7085
欵	-10.7087
帖	-10.7088
巫	-10.7088
禪法	-10.7089
浮屠	-10.7089
廿	-10.7089
團	-10.709
于闐	-10.7095
後漢	-10.7096
萬曆	-10.71
中庸	-10.7101
見此	-10.7109
多所	-10.711
中書	-10.7111
身命	-10.7112
並是	-10.7129
天之	-10.7133
成實	-10.7137
下勅	-10.7137
鋪	-10.7138
四十八	-10.7138
廳	-10.714
杵	-10.7141
汴	-10.7142
稅	-10.7142
永徽	-10.7143
言說	-10.7143
竟不	-10.7144
死心	-10.7154
▁晉	-10.7156
「	-10.7159
升座	-10.7162
輪王	-10.7163
士女	-10.7163
己未	-10.7165
時至	-10.717
所為	-10.7173
不變	-10.7175
辯才	-10.7176
王即	-10.7178
非是	-10.718
講席	-10.7181
既是	-10.7182
至正	-10.7185
旗	-10.7186
勳	-10.7188
挫	-10.7188
樊	-10.719
則是	-10.719
雖不	-10.7191
誓願	-10.7192
弘明集	-10.7194
佛光	-10.7201
竺法	-10.7207
上元	-10.7209
所由	-10.7211
德行	-10.7213
奄然	-10.7217
且曰	-10.7217
九日	-10.722
先後	-10.7224
之甚	-10.7226
以是	-10.7227
龍興寺	-10.7228
欲求	-10.7228
大寶	-10.7237
在前	-10.7242
聞空中	-10.7243
僊	-10.7243
於道	-10.7244
相去	-10.725
爾時世尊	-10.7251
右脇	-10.7254
之美	-10.7259
大喜	-10.726
二公	-10.726
八卷	-10.7264
玄旨	-10.7264
所立	-10.7265
增長	-10.7271
僕射	-10.7271
言也	-10.7274
其所出法嗣	-10.7276
如法	-10.7277
教授	-10.7278
亦復	-10.728
二十五年	-10.7281
王言	-10.7284
汲	-10.7286
五帝	-10.7292
二十六年	-10.7294
戾	-10.7295
甄	-10.7296
蠻	-10.7296
梁武帝	-10.7297
廣陵	-10.7302
安能	-10.7304
終南	-10.7307
至心	-10.7311
大人	-10.7311
西湖	-10.7318
城東	-10.7319
猶在	-10.732
月餘	-10.7321
汝若	-10.7323
即往	-10.7323
我以	-10.7324
無敢	-10.7325
何用	-10.7326
與語	-10.7328
其時	-10.7331
來至	-10.7332
道林	-10.7333
山頂	-10.7334
此子	-10.7338
參軍	-10.7338
堂中	-10.7344
姊	-10.7345
作偈	-10.7346
三種	-10.7347
溟	-10.7348
自餘	-10.7348
己卯	-10.7351
鈞	-10.7352
無始	-10.7352
三論	-10.7354
金剛般若	-10.736
僧祐	-10.7364
末年	-10.7365
禍福	-10.7365
陳氏	-10.7373
化作	-10.7373
示現	-10.7373
十二卷	-10.7374
請為	-10.7376
用之	-10.7376
剃	-10.7377
故不	-10.7378
習禪	-10.7379
羅剎	-10.7382
生也	-10.7383
威德	-10.7385
十七日	-10.7385
建武	-10.7386
後因	-10.7387
非我	-10.7391
不息	-10.7391
奏聞	-10.7392
莊子	-10.7392
本心	-10.7393
聘	-10.7396
元帝	-10.7397
法道	-10.7397
性命	-10.7401
化人	-10.7402
祖宗	-10.7403
後生	-10.7407
今當	-10.7411
祕密	-10.7414
力士	-10.7414
襄州	-10.7429
譯出	-10.7432
為說法	-10.7434
經文	-10.7438
說之	-10.7443
森	-10.745
沿	-10.7452
以杖	-10.7452
萬象	-10.7454
有功	-10.7454
踊	-10.7455
大會	-10.7455
椎	-10.7457
之談	-10.7459
釋子	-10.7462
出門	-10.7471
一身	-10.7471
便問	-10.7475
其前	-10.7477
西行	-10.7477
延壽	-10.7478
依止	-10.748
三十一	-10.748
右手	-10.7482
祝髮	-10.7493
武王	-10.7493
音樂	-10.7495
价	-10.7497
不問	-10.7497
浙	-10.75
經教	-10.7502
明矣	-10.7502
闍梨	-10.7506
荼	-10.7506
法服	-10.7507
難提	-10.7508
四時	-10.7508
迅	-10.751
十四日	-10.7511
都城	-10.7513
不止	-10.7515
化胡	-10.7528
二十二年	-10.7528
輕重	-10.753
自後	-10.753
此皆	-10.7533
誦之	-10.7535
頭上	-10.7535
識之	-10.7535
一十	-10.7541
之謂也	-10.7544
法會	-10.7551
本朝	-10.7552
授記	-10.7553
重之	-10.7559
篆	-10.7559
恠	-10.7561
慘	-10.7561
深入	-10.7561
釣	-10.7562
潘	-10.7563
只如	-10.7564
斯言	-10.7569
這裏	-10.7572
本寺	-10.7573
歸真	-10.7573
巳後	-10.7574
籤	-10.7577
度牒	-10.7587
古佛	-10.7587
不求	-10.7589
白光	-10.7597
親見	-10.7604
受教	-10.7605
粹	-10.761
慾	-10.7612
竹林	-10.7612
塑	-10.7612
璋	-10.7612
圓照	-10.7612
靈鷲	-10.7613
自今	-10.7613
無情	-10.7615
端坐而逝	-10.7615
屯	-10.7616
汾陽	-10.7617
懶	-10.7618
拍	-10.7621
翊	-10.7621
樓閣	-10.7623
退之	-10.7623
太平興國	-10.7623
不答	-10.7624
正宗	-10.7625
後至	-10.7628
大統	-10.7628
前身	-10.7629
變為	-10.7645
誌公	-10.7646
下座	-10.7647
無非	-10.765
設教	-10.7651
時王	-10.7652
繫念	-10.766
安居	-10.7661
道吾	-10.7663
動靜	-10.7663
寺宇	-10.7664
霸	-10.7668
屆	-10.7671
於斯	-10.7672
驀	-10.7672
師號	-10.7676
佗	-10.7677
阿毘曇	-10.7679
流水	-10.768
輪迴	-10.7682
非有	-10.7684
流沙	-10.769
至大	-10.769
我於	-10.7691
昆	-10.7693
自心	-10.7697
霍	-10.7698
金光明	-10.7707
之極	-10.7708
)。○	-10.7708
語云	-10.7711
欲界	-10.7715
乃令	-10.7716
禽獸	-10.7719
蓬	-10.772
謫	-10.772
釋氏之	-10.7721
燾	-10.7722
住山	-10.7722
秩	-10.7723
慈恩	-10.7723
閏	-10.7724
珣	-10.7727
從師	-10.7727
可不	-10.7727
件	-10.7728
跋陀	-10.773
海中	-10.7735
曰汝	-10.7738
可觀	-10.774
於寺	-10.7742
近前	-10.7749
城內	-10.7752
妄想	-10.7755
此理	-10.7758
須達	-10.7759
夜半	-10.776
縣人	-10.7765
往還	-10.7765
甯	-10.7766
淮南	-10.7769
香山	-10.7772
韜	-10.7772
不能自	-10.7772
穩	-10.7777
見於	-10.7778
無名	-10.7778
二三	-10.7779
宣帝	-10.7782
軫	-10.7784
一百二十	-10.7786
三十七	-10.7787
之要	-10.7792
國中	-10.7793
三十卷	-10.7799
一二	-10.7808
因名	-10.7813
滅後	-10.7819
其下	-10.782
於天下	-10.782
珍重	-10.7821
祗	-10.7826
楊州	-10.7828
馱	-10.7829
貝	-10.7831
吉凶	-10.7833
壓	-10.7833
上生	-10.7835
詵	-10.7836
錐	-10.7837
惻	-10.7838
泐潭	-10.7839
東夏	-10.784
杯	-10.7842
之化	-10.7845
祈請	-10.7845
佛身	-10.7855
白日	-10.7857
其理	-10.7858
佛乘	-10.7862
仁王	-10.7863
之論	-10.7864
以道	-10.7873
稚	-10.7874
亦以	-10.7879
之恩	-10.7886
盂	-10.7886
憎	-10.7887
最勝	-10.7887
炙	-10.7888
石上	-10.7891
喬	-10.7893
璟	-10.7896
黃梅	-10.7898
大小乘	-10.7898
則知	-10.7898
不去	-10.7899
天龍	-10.7905
有七	-10.7906
佛語	-10.7907
同志	-10.7912
出山	-10.7916
之歲	-10.7918
論議	-10.792
王臣	-10.792
臺山	-10.7922
明珠	-10.7928
凡所	-10.793
什麼處	-10.7932
若欲	-10.7937
皆得	-10.7938
聖道	-10.794
年十二	-10.7941
訟	-10.7943
逍遙	-10.7943
出現	-10.7944
仇	-10.7947
其形	-10.7957
四十二	-10.7959
三部	-10.796
之苦	-10.7963
神僧	-10.7965
接引	-10.7965
勅令	-10.7966
不妄	-10.7966
釋迦如來	-10.7972
男子	-10.7973
藏之	-10.7973
及至	-10.7974
未免	-10.7975
以表	-10.7981
數十人	-10.7997
瞽	-10.7998
一首	-10.7998
恪	-10.7999
閭	-10.7999
中天竺	-10.8
秊	-10.8001
魁	-10.8006
龍泉	-10.8009
是汝	-10.8009
和南	-10.8015
本姓	-10.8022
年四十	-10.8022
無憂	-10.8025
鬚髮	-10.8028
之南	-10.8028
由來	-10.8033
微疾	-10.8036
諸山	-10.8038
而寂	-10.8044
猶是	-10.8045
大怒	-10.8045
一也	-10.8045
慟	-10.8046
授戒	-10.8047
末後	-10.8056
丸	-10.8056
諲	-10.8058
渭	-10.8059
邸	-10.8059
侃	-10.806
平日	-10.8062
須是	-10.8062
清風	-10.8064
傳記	-10.8064
蜜多	-10.8066
此非	-10.8075
隨機	-10.808
深信	-10.8082
難得	-10.8087
年五十	-10.8089
安國	-10.809
無緣	-10.8095
下詔	-10.8098
是謂	-10.8104
欲往	-10.8105
之表	-10.8113
晉王	-10.8114
無形	-10.8115
肘	-10.8116
膠	-10.8116
亞	-10.8116
而作	-10.8116
瓚	-10.8118
蟒	-10.8118
土地	-10.8121
敬信	-10.8122
不就	-10.8122
泗	-10.8125
初住	-10.8126
不違	-10.8129
至夜	-10.8136
高行	-10.814
堅固	-10.814
王侯	-10.814
不作	-10.8147
三學	-10.8149
龍潭	-10.8157
常在	-10.8158
佛告	-10.816
普通	-10.8162
渡江	-10.8162
之行	-10.8166
鬻	-10.817
竄	-10.8173
元豐	-10.8173
鵲	-10.8174
欠	-10.8174
官人	-10.8174
將去	-10.8174
龐	-10.8175
三業	-10.8176
人多	-10.8177
無過	-10.8182
將至	-10.8191
音聲	-10.8193
所致	-10.8195
今欲	-10.8195
當以	-10.8197
天福	-10.8203
帝以	-10.8206
是甚麼	-10.8207
論義	-10.8208
時節	-10.821
風吹	-10.8211
淨飯王	-10.8214
苾芻	-10.8216
歲月	-10.8218
縣令	-10.822
見而	-10.8222
教觀	-10.8222
主之	-10.8222
曩	-10.8223
凉	-10.8226
忝	-10.8229
當此	-10.823
受其	-10.8233
芙蓉	-10.8233
不赴	-10.8234
加以	-10.8234
不疑	-10.8238
直指	-10.8238
雁	-10.8242
觀經	-10.8248
教也	-10.8252
兩手	-10.8254
非法	-10.8256
不知所	-10.8257
作什麼	-10.8257
至京師	-10.8261
香花	-10.8263
經中	-10.8264
初參	-10.8268
陜	-10.8271
塵勞	-10.8274
果有	-10.8275
化去	-10.8276
五歲	-10.8282
馭	-10.8283
聖者	-10.8284
蒸	-10.8287
暖	-10.8287
羞	-10.8287
塊	-10.8288
枷	-10.8288
戒法	-10.8288
其像	-10.8289
摸	-10.8289
嘉禾	-10.8291
瓜	-10.8291
玉尺	-10.8291
稔	-10.8291
無漏	-10.8298
若干	-10.8298
生處	-10.8304
東京	-10.8312
諸州	-10.8313
首楞嚴	-10.8317
三七日	-10.832
得見	-10.8321
成正覺	-10.8322
三十五	-10.8323
是誰	-10.8328
佉	-10.8338
鐸	-10.8339
人有	-10.8339
盥	-10.834
本末	-10.8341
茹	-10.8342
禳	-10.8344
啖	-10.8345
岫	-10.8345
聞見	-10.8345
中道	-10.8346
弔	-10.8346
概	-10.8347
倏	-10.8347
殂	-10.8348
錫杖	-10.8348
霽	-10.8349
虫	-10.835
晴	-10.8352
以疾	-10.8352
一員	-10.8358
之異	-10.8363
與夫	-10.8363
百二十	-10.8365
來此	-10.8366
為弟子	-10.8367
而求	-10.8372
何異	-10.8375
八百	-10.8375
明之	-10.8376
人物	-10.8376
:	-10.8378
須彌山	-10.8379
大藏	-10.8379
有光	-10.8383
所歸	-10.8385
孰能	-10.8387
六合	-10.8389
神足	-10.839
五十餘	-10.839
孤山	-10.8392
此為	-10.8397
東宮	-10.8399
是一	-10.8401
事也	-10.8402
區區	-10.8403
醮	-10.8404
四祖	-10.8406
作何	-10.8407
臘五十	-10.8407
釘	-10.8407
葺	-10.8407
示微疾	-10.8408
台州	-10.841
放還	-10.841
長壽	-10.8411
復來	-10.8414
所重	-10.8416
每至	-10.8418
東海	-10.8422
曹洞	-10.8422
怡然	-10.8424
所未	-10.8424
吾道	-10.8425
諸公	-10.8425
祈福	-10.8429
傳燈錄	-10.8429
荊南	-10.8436
義學	-10.8438
必當	-10.8439
與眾	-10.8442
孺	-10.8446
至京	-10.8448
真淨	-10.845
授之	-10.8451
媿	-10.8458
滌	-10.846
腸	-10.8462
滑	-10.8463
煉	-10.8463
勇猛	-10.8465
數珠	-10.8465
蹟	-10.8467
建大	-10.8469
長蘆	-10.8471
往復	-10.8472
白象	-10.8475
秦王	-10.8475
東陽	-10.8478
甚處	-10.8485
摩尼	-10.8485
博士	-10.849
緣起	-10.8491
不了	-10.8492
賢劫	-10.8496
何時	-10.8498
山門	-10.8499
人情	-10.8505
母夢	-10.8506
正是	-10.851
如斯	-10.8511
者哉	-10.8511
月二十三日	-10.8515
以上	-10.8517
鑊	-10.8519
縮	-10.8522
跳	-10.8523
冶	-10.8523
幣	-10.8524
修善	-10.8524
譜	-10.8524
西竺	-10.8524
今古	-10.8526
敲	-10.8527
葬於	-10.8527
化身	-10.8528
己亥	-10.8529
頂戴	-10.8531
天后	-10.8533
波旬	-10.8533
石壁	-10.8534
揀	-10.8534
病者	-10.8537
於言下	-10.854
不由	-10.8541
果然	-10.8541
而不知	-10.8542
慨然	-10.8544
七人	-10.8552
石窟	-10.8553
餓	-10.8554
不捨	-10.8555
八部	-10.8556
目錄	-10.8556
章安	-10.8557
現身	-10.856
奉法	-10.856
香華	-10.8571
教者	-10.8571
通鑑	-10.8572
初至	-10.8575
修習	-10.8576
讀經	-10.8576
罪人	-10.8578
陞	-10.8579
脂	-10.8582
衷	-10.8583
言下	-10.8584
璞	-10.8587
契悟	-10.8596
他人	-10.8597
梓	-10.8599
之末	-10.8601
明道	-10.8603
靈瑞	-10.8604
有疑	-10.861
經史	-10.861
佛在	-10.8612
於心	-10.8616
報曰	-10.8616
高尚	-10.8617
帝問	-10.8619
悚	-10.862
者必	-10.8621
忻	-10.8621
儔	-10.8623
而今	-10.8623
請問	-10.8623
督	-10.8624
羯	-10.8625
面目	-10.8631
兇	-10.8631
己巳	-10.8633
所須	-10.8634
四十餘	-10.8635
而非	-10.8636
和合	-10.8636
聖寺	-10.8636
衫	-10.8636
不宜	-10.8637
從來	-10.8637
悖	-10.8639
殯	-10.864
俞	-10.8642
篋	-10.8642
五經	-10.8643
収	-10.8644
迭	-10.8644
竿	-10.8645
又作麼生	-10.8646
真身	-10.8647
二十日	-10.8652
唯心	-10.8655
人身	-10.8655
送之	-10.8659
剎那	-10.8661
我所	-10.8661
薦福	-10.8662
姓名	-10.8662
詣闕	-10.8663
元來	-10.8667
生靈	-10.8669
臨川	-10.8669
天地之	-10.867
化佛	-10.8673
何可	-10.8676
身體	-10.8677
巳來	-10.8678
道得	-10.8682
餘杭	-10.8684
已下	-10.8684
不安	-10.8686
諸菩薩	-10.8686
母曰	-10.8686
不待	-10.8687
一遍	-10.8689
書寫	-10.8692
道無	-10.8693
應聲	-10.8693
拱	-10.8696
洪州	-10.8697
歲時	-10.8698
亨	-10.8699
駐	-10.87
獼猴	-10.87
忙	-10.8701
塘	-10.8701
簪	-10.8703
鳥獸	-10.8704
柄	-10.8705
踈	-10.8705
十八日	-10.8708
形骸	-10.8711
或謂	-10.8713
山陰	-10.8717
三百餘	-10.8726
律藏	-10.8728
聞此	-10.8739
欲令	-10.874
千僧	-10.8741
天保	-10.8747
詔天下	-10.8747
心無	-10.8748
▁隋	-10.8749
史記	-10.8752
狄	-10.8757
迸	-10.8759
應當	-10.8759
裘	-10.876
瘳	-10.876
故使	-10.8761
誇	-10.8762
李公	-10.8762
未必	-10.8765
博通	-10.8766
禾	-10.8767
北面	-10.8768
登座	-10.8769
其師	-10.8769
服勤	-10.8776
遺教	-10.8779
大弘	-10.879
何曾	-10.8792
苦海	-10.8796
詔住	-10.8803
奉行	-10.8803
吾聞	-10.8804
方得	-10.8806
城北	-10.881
日課	-10.8811
化導	-10.8818
唄	-10.8819
籙	-10.8821
皷	-10.8822
擢	-10.8824
褚	-10.8827
是夕	-10.8832
晟	-10.8835
流行	-10.8836
如人	-10.8836
津梁	-10.884
下山	-10.8841
念阿彌陀佛	-10.8848
同行	-10.8848
周氏	-10.885
千古	-10.8854
青衣	-10.8856
隱顯	-10.886
出來	-10.8866
士云	-10.8868
不說	-10.8869
道路	-10.887
多矣	-10.8873
嫁	-10.8875
神龍	-10.8876
大顛	-10.8877
懈	-10.8878
舁	-10.8881
作是念	-10.8882
已而	-10.8885
愜	-10.8885
槌	-10.8886
改為	-10.8886
瀆	-10.8888
塢	-10.889
清凉	-10.8893
後事	-10.8893
中書令	-10.89
其室	-10.89
江左	-10.8901
在世	-10.8902
婆羅	-10.8905
萬億	-10.8907
道教	-10.8922
佛子	-10.8927
二祖	-10.8927
龍華	-10.8936
持誦	-10.8938
尚書令	-10.8942
倡	-10.8944
政和	-10.8945
帽	-10.8945
五十年	-10.895
復問	-10.895
金臺	-10.8952
我若	-10.8958
而往	-10.8959
瞻仰	-10.8961
乃與	-10.8961
昔日	-10.8965
王名	-10.8965
今時	-10.8967
固辭	-10.8971
自若	-10.8971
香火	-10.8973
安坐	-10.8976
內有	-10.8983
忽夢	-10.8984
布衣	-10.8986
四分律	-10.8991
上首	-10.8994
此中	-10.9006
莽	-10.9006
潰	-10.9007
冒	-10.9007
鵝	-10.9007
𦦨	-10.9009
嘯	-10.9009
布袋	-10.9009
德宗	-10.9009
漠	-10.901
伏惟	-10.901
遐邇	-10.901
賷	-10.901
狎	-10.9012
笠	-10.9015
酒肉	-10.9016
陀羅	-10.9017
惡之	-10.9019
僧統	-10.9019
入地獄	-10.9021
摩騰	-10.9023
兩街	-10.9023
摩訶迦葉	-10.9028
儒釋	-10.9029
異僧	-10.903
既得	-10.9033
淺深	-10.9033
一片	-10.9035
常有	-10.9037
見師	-10.9041
君親	-10.9049
其語	-10.9051
上品	-10.9056
三尺	-10.9058
生安養	-10.906
之夕	-10.9066
烹	-10.9068
恤	-10.9068
肝	-10.9069
沛	-10.907
濤	-10.9071
繕	-10.9071
緝	-10.9072
作是言	-10.9073
云某甲	-10.9073
疋	-10.9073
兀	-10.9073
栽	-10.9075
王問	-10.9075
大寂	-10.9077
洒	-10.9078
先聖	-10.9079
南湖	-10.908
以身	-10.9081
並皆	-10.9084
入關	-10.9088
之興	-10.9089
東行	-10.9092
好學	-10.9093
真偽	-10.9093
受法	-10.9097
以告	-10.9097
東流	-10.9098
三代	-10.9099
之域	-10.91
孔子曰	-10.9109
寂靜	-10.9111
作大	-10.9119
數里	-10.912
戒本	-10.9123
僣	-10.9127
異人	-10.913
蔑	-10.9132
空有	-10.9132
汝何	-10.9133
坡	-10.9133
吾有	-10.9135
屑	-10.9136
張氏	-10.9139
以書	-10.9142
還山	-10.9144
鼻孔	-10.9144
今在	-10.9146
大振	-10.9146
廣智	-10.9148
知者	-10.9151
甞於	-10.9154
從其	-10.9159
諸聖	-10.916
受生	-10.9162
所及	-10.9162
遂往	-10.9168
和元年	-10.9169
古德	-10.9172
當得	-10.9173
阿含	-10.9175
三塗	-10.9178
中使	-10.9179
從上	-10.9183
安公	-10.9184
囉	-10.9192
鑽	-10.9194
膽	-10.9195
線	-10.9197
娘	-10.9197
一朝	-10.9199
懲	-10.9199
峽	-10.92
豎	-10.9204
持齋	-10.9205
所問	-10.9207
乃止	-10.9211
沙門僧	-10.9214
宇文	-10.9216
求道	-10.9217
本性	-10.9219
著書	-10.9221
商人	-10.9224
過於	-10.9225
止之	-10.923
思量	-10.9234
北方	-10.9237
火燒	-10.9238
何由	-10.9242
師於	-10.9242
拾得	-10.9247
▁慧	-10.9249
若使	-10.9249
俗人	-10.925
卷第十	-10.925
之深	-10.9251
金字	-10.9253
之氣	-10.9254
者矣	-10.9256
緯	-10.9257
壽五十	-10.9257
姪	-10.9261
正當	-10.9262
矩	-10.9262
漿	-10.9262
無所不	-10.9266
此心	-10.9266
講肆	-10.9267
二月八日	-10.9271
姑蘇	-10.9271
何在	-10.9272
不假	-10.9275
傳譯	-10.9277
甚深	-10.9279
門弟子	-10.928
金華	-10.928
詩書	-10.928
明智	-10.9282
有箇	-10.9286
初無	-10.9293
雪竇顯云	-10.9294
二十餘年	-10.9298
瑞像	-10.9312
一點	-10.9314
兒孫	-10.9314
於時	-10.9316
杭之	-10.9317
五天	-10.9318
應真	-10.9319
青州	-10.9324
鹿苑	-10.9329
丈餘	-10.933
琦	-10.933
聖德	-10.9332
逝矣	-10.9337
口中	-10.934
直須	-10.9343
龍朔	-10.9344
名號	-10.9345
祈雨	-10.9346
二世	-10.9347
阿育	-10.935
雲巖	-10.9351
尺許	-10.9355
拈起	-10.9356
我不	-10.9357
律部	-10.9358
之年	-10.9364
問其	-10.9365
其寺	-10.9367
海東	-10.9368
一方	-10.9369
持鉢	-10.9369
事理	-10.937
曰我	-10.9372
能言	-10.9372
亦爾	-10.9373
江都	-10.9374
金剛般若經	-10.9375
娑羅	-10.9376
渚	-10.9379
飲水	-10.9379
豕	-10.9386
漱	-10.9387
滅之	-10.9387
撞	-10.9388
名也	-10.9388
訝	-10.9388
駿	-10.939
咲	-10.9391
依舊	-10.9391
峭	-10.9393
沙汰	-10.9394
此書	-10.9397
教人	-10.9399
非人	-10.94
再來	-10.94
開口	-10.9401
葬于	-10.9402
石像	-10.9403
四句	-10.9405
大如	-10.9406
言畢	-10.9408
復見	-10.9409
即入	-10.9425
遠矣	-10.9425
留心	-10.9427
九州	-10.9428
不退	-10.9432
天雨	-10.9435
後來	-10.9436
無際	-10.9438
僧錄	-10.9438
遑	-10.944
諸大	-10.944
天界	-10.9443
年十八	-10.9444
脇	-10.9444
聞已	-10.9445
同異	-10.9445
於東	-10.9452
棗	-10.9453
之源	-10.9453
琮	-10.9454
撓	-10.9454
之儀	-10.9454
絡	-10.9455
修淨土	-10.9457
簾	-10.9457
煎	-10.9458
萬言	-10.9465
宋元嘉	-10.9466
侯景	-10.947
建炎	-10.9471
進曰	-10.9472
有兩	-10.9472
萬劫	-10.9473
遠來	-10.9473
賜紫	-10.9479
本自	-10.9485
異常	-10.9485
但有	-10.9488
青原	-10.9488
不足以	-10.9489
欲使	-10.949
者眾	-10.9492
無垢	-10.9493
是真	-10.9496
剃落	-10.9497
吾宗	-10.9501
若言	-10.9501
其性	-10.9502
於天	-10.9503
毅	-10.9509
右脇而	-10.9512
超然	-10.9515
昭王	-10.9516
師因僧問	-10.9516
唐書	-10.9517
殮	-10.9518
聖僧	-10.9518
娠	-10.952
袋	-10.9522
弑	-10.9522
分身	-10.9522
筠	-10.9524
到此	-10.9526
十一日	-10.9527
茫然	-10.9528
阿闍世王	-10.953
習定	-10.9531
將何	-10.9533
陽人	-10.954
應諾	-10.9542
隨其	-10.9543
下生	-10.9543
于今	-10.9552
以下	-10.9553
實無	-10.9555
乃有	-10.9557
其可	-10.956
大行	-10.9567
議論	-10.9575
為甚麼	-10.9578
但見	-10.958
紂	-10.958
趾	-10.958
拭	-10.9585
腦	-10.9586
樣	-10.9586
燼	-10.9588
瑜	-10.9589
告眾	-10.9589
大乘經	-10.959
眾聖	-10.959
於朝	-10.9591
雙樹	-10.9591
府君	-10.9592
舍利塔	-10.9592
所載	-10.9597
佛以	-10.9598
以何為	-10.9606
幼而	-10.9608
如雲	-10.9609
率眾	-10.961
天師	-10.9618
還俗	-10.9622
今見	-10.9624
我聞	-10.9626
未易	-10.9627
三十餘年	-10.9627
何名	-10.9627
水火	-10.9628
十五卷	-10.9628
唯一	-10.9628
亦同	-10.9628
趺	-10.963
勤苦	-10.9631
開山	-10.9631
心性	-10.9637
一者	-10.9641
丙	-10.9642
纖	-10.9643
造像	-10.9645
攝受	-10.9645
常州	-10.9645
徽宗	-10.9647
看經	-10.9648
太白	-10.965
墟	-10.9651
鞠	-10.9652
慇懃	-10.9654
巍巍	-10.9655
不改	-10.9655
何須	-10.9657
央	-10.9657
爾後	-10.966
示以	-10.966
藥王	-10.966
闡揚	-10.966
河北	-10.966
道法	-10.9662
乾元	-10.9663
問僧	-10.9664
於法	-10.9668
臣等	-10.9669
修多羅	-10.9677
三十三	-10.9682
流俗	-10.9683
供奉	-10.9687
受用	-10.9688
勸請	-10.9688
所宜	-10.9691
云和尚	-10.9692
殺害	-10.9695
分為	-10.9696
州縣	-10.9696
殊不知	-10.9697
曹山	-10.9698
三藏法師	-10.9701
遂與	-10.9702
誰能	-10.9702
之北	-10.9703
髓	-10.9706
像前	-10.9707
直下	-10.9709
竊以	-10.971
證果	-10.971
國有	-10.9712
未了	-10.9713
荀	-10.9715
浸	-10.9716
拓	-10.9719
而食	-10.972
呌	-10.972
遏	-10.972
商那和修	-10.972
絳	-10.9721
湖州	-10.9722
楊岐	-10.9724
退居	-10.9726
之力也	-10.9728
巖頭	-10.9734
淨行	-10.9735
高聲	-10.9741
師一日	-10.9747
為務	-10.9749
一處	-10.9752
見解	-10.9753
躬自	-10.9753
生子	-10.9753
孔老	-10.9755
遊戲	-10.9755
臨海	-10.9759
亦隨	-10.9761
充滿	-10.9761
侍衛	-10.9763
韶州	-10.9764
精苦	-10.9765
法事	-10.9766
微笑	-10.9768
直饒	-10.9773
呪願	-10.9774
寶集作	-10.9775
有法	-10.9776
距	-10.9779
法器	-10.978
聖迹	-10.978
佛菩薩	-10.9781
梵經	-10.9782
臧	-10.9783
工夫	-10.9783
俸	-10.9784
生民	-10.9786
酌	-10.9786
槩	-10.9787
發菩提心	-10.9792
聖眾	-10.9792
俄有	-10.9793
見僧	-10.9794
天聖	-10.9794
悟曰	-10.9795
影響	-10.9798
涼州	-10.9807
神秀	-10.9807
宗風	-10.9813
駕幸	-10.9817
經卷	-10.9818
坐化	-10.9821
二種	-10.9832
即時	-10.9832
天命	-10.9836
靈應	-10.9839
二百五十	-10.9839
楊氏	-10.984
如幻	-10.9844
觀世音菩薩	-10.9845
黜	-10.9846
大安	-10.9847
伎	-10.9848
春秋八十	-10.9849
持金剛經	-10.9849
二經	-10.9851
狩	-10.9852
銓	-10.9852
瞬	-10.9853
挑	-10.9854
心生	-10.9854
舛	-10.9855
犢	-10.9856
稻	-10.9856
琅	-10.9856
搭	-10.9858
謐	-10.9858
不知何	-10.9858
作家	-10.9862
勝鬘	-10.9863
問言	-10.9865
萬世	-10.9866
老病	-10.9868
愚癡	-10.9868
於上	-10.9869
奉之	-10.9871
進具	-10.9872
晦堂	-10.9872
曰如何是	-10.9874
願生	-10.9877
佛眼	-10.988
江東	-10.9885
如我	-10.9886
怖畏	-10.9887
主事	-10.9887
自云	-10.9891
目之	-10.9893
生西方	-10.9896
何況	-10.9899
人壽	-10.9899
官至	-10.9902
度脫	-10.9902
召見	-10.9905
之體	-10.9907
葱	-10.9909
千佛	-10.9914
寶曇	-10.9917
藩	-10.9918
溝	-10.9919
控	-10.9919
剝	-10.9921
撮	-10.9923
窆	-10.9923
二萬	-10.9925
威神	-10.9926
華藏	-10.9929
有六	-10.993
復以	-10.9931
太傅	-10.9936
為天下	-10.9936
日日	-10.9938
其夜	-10.9939
念佛三昧	-10.9941
汾州	-10.9942
性相	-10.9945
可知矣	-10.9947
圓頓	-10.9951
江表	-10.9952
華亭	-10.9953
投身	-10.9953
閣下	-10.9954
湖南	-10.9957
保寧	-10.9959
示眾云	-10.9959
不達	-10.9963
天目	-10.9966
枝葉	-10.9969
與同	-10.9971
遠法師	-10.9973
篤信	-10.9974
所證	-10.9982
能為	-10.9983
眇	-10.9986
欲見	-10.9987
像法	-10.9988
怕	-10.999
怛	-10.9992
鐫	-10.9993
青山	-10.9995
玄門	-10.9995
文公	-10.9997
演說	-11.0002
紹隆	-11.0002
以待	-11.0003
驚曰	-11.0004
其側	-11.0006
親近	-11.0007
隋開皇	-11.0007
出沒	-11.0008
實錄	-11.001
神呪	-11.0014
相隨	-11.0014
春正月	-11.0023
處也	-11.0036
服之	-11.0041
觀音像	-11.0041
何以故	-11.0041
萬八千	-11.0042
感悟	-11.0045
在焉	-11.0048
博學	-11.0051
書之	-11.0051
直得	-11.0051
殄	-11.0052
所譯	-11.0052
魅	-11.0054
之物	-11.0054
瘦	-11.0054
大意	-11.0055
普門品	-11.0056
協	-11.0057
覈	-11.0058
顯慶	-11.0058
潞	-11.006
舍人	-11.006
屨	-11.006
馴	-11.006
堆	-11.006
股	-11.0061
覃	-11.0062
竈	-11.0063
良由	-11.0063
長史	-11.0067
忍辱	-11.0067
饒益	-11.0068
年少	-11.0072
得法於	-11.0072
靈源	-11.0075
降伏	-11.0076
中原	-11.0079
春秋七十有	-11.008
山曰	-11.0081
賜紫衣	-11.0081
所撰	-11.0081
所獲	-11.0083
如雨	-11.009
䟦	-11.0094
又甞	-11.0095
其妻	-11.0095
天衣	-11.0095
大寺	-11.0095
帝大悅	-11.0098
漢書	-11.0098
一鉢	-11.0111
大愚	-11.0112
太極	-11.0117
佛國	-11.0119
猥	-11.0121
壘	-11.0122
譚	-11.0123
膳	-11.0123
瞑目	-11.0125
永寧	-11.0127
諸惡	-11.0127
一下	-11.013
謂弟子曰	-11.0131
夫婦	-11.0131
繹	-11.0133
鎻	-11.0134
行法	-11.0136
大雨	-11.0137
郡人	-11.0138
法喜	-11.0139
來參	-11.014
闡提	-11.014
幽州	-11.0147
跋摩	-11.0148
元魏	-11.015
師與	-11.0151
義理	-11.0152
禮謝	-11.0155
若見	-11.0157
法座	-11.0165
出處	-11.0165
之迹	-11.0166
而說偈言	-11.0175
十九日	-11.0175
五色光	-11.0176
夏四月	-11.0176
於西	-11.0177
經書	-11.0178
不載	-11.018
朝野	-11.018
□□	-11.0186
牲	-11.0197
努力	-11.02
徘徊	-11.02
袒	-11.02
或作	-11.0202
恂	-11.0203
炤	-11.0203
旃檀	-11.0204
方外	-11.0204
宣和	-11.0204
諸祖	-11.0204
同一	-11.0205
名相	-11.0207
意欲	-11.0211
皆如	-11.0212
朱氏	-11.0214
九百	-11.0216
以資	-11.0221
左溪	-11.0225
四禪	-11.0225
篤志	-11.0225
塔銘	-11.0226
雲峯	-11.0229
四十餘年	-11.0232
乃作	-11.0234
孝宗	-11.0234
然燈	-11.0236
一門	-11.0239
斯乃	-11.0239
或見	-11.0239
遠離	-11.0241
有頃	-11.0242
僧俗	-11.0243
平元年	-11.0245
我有	-11.0246
南遊	-11.0248
泉州	-11.0251
而住	-11.0254
崇寧	-11.0256
諷誦	-11.0256
詔以	-11.0257
微塵	-11.0259
之與	-11.026
分衛	-11.026
字子	-11.0261
不倦	-11.0261
親承	-11.0262
往彼	-11.0262
不朽	-11.0262
老莊	-11.0266
膏	-11.0266
悠悠	-11.0267
隨意	-11.0267
徇	-11.0269
艾	-11.0269
長樂	-11.027
秖	-11.0274
一日忽	-11.0275
迦羅	-11.0276
曾不	-11.0277
甞有	-11.0277
文宗	-11.0277
勸人	-11.0278
晉陽	-11.0278
靈驗	-11.0281
車匿	-11.0281
不妨	-11.0283
却後	-11.0289
三者	-11.029
有小	-11.0295
專精	-11.0296
道流	-11.0297
淨因	-11.0302
會中	-11.0303
佛堂	-11.0307
日本	-11.0307
即此	-11.031
別立	-11.0311
而返	-11.0312
卷第二	-11.0314
之所以	-11.0314
未終	-11.0315
人倫	-11.0315
黃老	-11.032
治之	-11.0327
身長	-11.0327
寺有	-11.0329
春秋六十	-11.033
魄	-11.0332
饗	-11.0332
置於	-11.0332
煖	-11.0334
慧解	-11.0335
何因	-11.0336
耿	-11.034
􃕝	-11.0341
孔雀	-11.0342
梵音	-11.0345
一里	-11.0346
猶存	-11.0355
所成	-11.0355
劉氏	-11.0356
故事	-11.0356
禪誦	-11.0361
姚興	-11.0363
異日	-11.0367
幾何	-11.0367
之像	-11.0369
大定	-11.037
相望	-11.0373
我為	-11.0375
造塔	-11.0376
之狀	-11.0381
賓主	-11.0383
內道場	-11.0388
遞	-11.0391
神化	-11.0393
為心	-11.0393
善財	-11.0398
一枝	-11.0403
侈	-11.0405
推之	-11.0406
奠	-11.0407
貸	-11.0407
法名	-11.0407
爇	-11.0408
優波毱多	-11.0409
二十八年	-11.041
蘿	-11.041
島	-11.041
勤修	-11.0411
倘	-11.0411
租	-11.0416
不爾	-11.0416
笛	-11.0416
拽	-11.0417
訛也	-11.0417
聖人之道	-11.0418
萬機	-11.0419
通曰	-11.0421
摩頂	-11.0424
信之	-11.0426
意在	-11.0429
即有	-11.0431
平王	-11.0432
加趺	-11.0432
同居	-11.0432
無憂王	-11.0433
小人	-11.0435
送至	-11.0436
亦如	-11.0439
為文	-11.0439
欲為	-11.0441
云爾	-11.0443
無聞	-11.0444
永泰	-11.0445
林下	-11.0447
弘贊	-11.0447
文集	-11.0447
入海	-11.0448
俱舍	-11.0448
非真	-11.0448
通玄	-11.0455
日光	-11.0458
一體	-11.0459
二門	-11.0463
證明	-11.0464
時時	-11.0465
異端	-11.0467
復為	-11.0467
佛生	-11.0468
法相	-11.0469
六歲	-11.0469
奉表	-11.047
卦	-11.047
復生	-11.0471
百步	-11.0474
二十七日	-11.0476
六十餘	-11.0476
諸臣	-11.0479
藪	-11.0479
甎	-11.048
敬王	-11.0482
箴	-11.0482
不暇	-11.0482
又聞	-11.0484
晤	-11.0484
逕	-11.0485
聰敏	-11.0486
利物	-11.0487
具說	-11.0488
如佛	-11.049
聖像	-11.0492
不令	-11.0492
止於	-11.0496
天台山	-11.05
崇信	-11.0504
即見	-11.0506
尚不	-11.0508
金銅	-11.0509
神州	-11.0511
高昌	-11.0511
安國寺	-11.0511
內侍	-11.0512
等論	-11.0512
箇什麼	-11.0514
如夢	-11.0519
五六	-11.052
千歲	-11.0524
未曾有	-11.0525
家世	-11.0533
萬餘	-11.0537
大丈夫	-11.0539
所疑	-11.0541
入水	-11.0546
妙用	-11.0547
釐	-11.0547
不散	-11.0548
又何	-11.0549
蟻	-11.0549
吾教	-11.0549
智藏	-11.055
攘	-11.0551
鏤	-11.0551
太元	-11.0551
蜂	-11.0553
▁法	-11.0553
蠲	-11.0555
軟	-11.0556
缾	-11.0558
紺	-11.0558
大藏經	-11.0561
以問	-11.0565
吾欲	-11.0566
舊曰	-11.0566
佛前	-11.0568
林泉	-11.0569
三世諸佛	-11.057
喫茶	-11.0571
葬之	-11.0572
有言	-11.0572
為作	-11.0573
果得	-11.0574
忠孝	-11.0576
斯人	-11.0576
經疏	-11.058
不已	-11.0587
之句	-11.0587
既見	-11.0588
城門	-11.0589
十二部	-11.0593
續高僧傳	-11.0599
受命	-11.0603
寶珠	-11.0605
江淮	-11.0608
真言	-11.0609
興福	-11.0609
慈心	-11.0611
復還	-11.0614
皆從	-11.0617
經藏	-11.0619
法度	-11.0619
始末	-11.0623
倐	-11.0623
隘	-11.0623
朵	-11.0624
年十六	-11.0625
婚	-11.0625
堵	-11.0627
歸寂	-11.0627
諠	-11.0629
有娠	-11.0629
澹	-11.0629
太師	-11.0629
貲	-11.063
之數	-11.063
國清寺	-11.063
山居	-11.0631
未明	-11.0631
瑠璃	-11.0633
辟支佛	-11.0635
棄之	-11.064
名利	-11.064
太山	-11.0643
少有	-11.0644
數百人	-11.0644
讀之	-11.0645
歸家	-11.0647
三萬	-11.0649
自幼	-11.0651
兩卷	-11.0659
龍山	-11.0663
得脫	-11.0664
不悟	-11.0668
中有一	-11.067
一本	-11.0671
年十七	-11.0673
侍立	-11.0674
不來	-11.0677
日夕	-11.0677
年月	-11.0679
宋高僧傳	-11.0679
四種	-11.0682
則曰	-11.0683
安在	-11.0683
州郡	-11.0683
十力	-11.0687
此兒	-11.0688
少而	-11.0689
義疏	-11.0689
沐浴更衣	-11.0698
苦節	-11.0699
憨	-11.07
詆	-11.07
技	-11.0702
禮誦	-11.0703
異香滿室	-11.0706
2	-11.0716
到處	-11.0716
久住	-11.0716
百人	-11.0717
沙門曇	-11.072
貴人	-11.0721
末法	-11.0723
無住	-11.0724
十誦	-11.0728
隨時	-11.073
之家	-11.0744
師遂	-11.0747
施行	-11.0751
二十七年	-11.0754
一寺	-11.0757
茫	-11.076
灼	-11.076
會元	-11.0761
正觀	-11.0761
子弟	-11.0762
厲聲	-11.0762
百濟	-11.0765
神道	-11.0766
王及	-11.0767
祝曰	-11.0768
相州	-11.0769
老漢	-11.0769
棟	-11.077
鴈	-11.0771
七十二	-11.0773
不亂	-11.0774
突厥	-11.0774
戍	-11.0774
讒	-11.0775
佞	-11.0776
徙居	-11.0776
着	-11.0778
梗	-11.0778
餉	-11.0779
論語	-11.078
瑤	-11.0781
建中	-11.0782
佛舍利	-11.0783
百僚	-11.0784
一小	-11.0785
繩床	-11.0786
所司	-11.0789
招提	-11.079
牟子曰	-11.0791
而上	-11.0795
未之	-11.0797
閻羅王	-11.0798
率土	-11.08
主者	-11.08
遊學	-11.0801
滴	-11.0802
聚落	-11.0803
七十餘	-11.0804
天然	-11.0805
是如來	-11.0807
宣律師	-11.0813
論一卷	-11.0818
聞異香	-11.0823
無定	-11.0824
一夜	-11.0828
師友	-11.0834
裳	-11.0838
疇	-11.0838
天眼	-11.0842
此三	-11.0842
每歲	-11.0843
拊	-11.0843
腥	-11.0843
一丈	-11.0843
受禪	-11.0847
怙	-11.0847
內殿	-11.0847
讎	-11.0847
𨽻	-11.0847
支那	-11.0849
在彼	-11.0849
筋	-11.085
衡嶽	-11.085
冀州	-11.0852
沙門智	-11.0852
唱言	-11.0852
懈怠	-11.0853
个	-11.0853
筌	-11.0854
臣聞	-11.0855
自念	-11.0856
平時	-11.0858
都尉	-11.0859
奔走	-11.0859
最初	-11.086
法流	-11.086
無用	-11.0865
以報	-11.0867
瓦官寺	-11.0869
不現	-11.0869
君王	-11.0871
統紀	-11.0872
其所以	-11.0872
十餘人	-11.0872
不孝	-11.0875
稱名	-11.0876
此法	-11.0879
寶積	-11.088
成帝	-11.088
乃自	-11.0882
參差	-11.0887
香水	-11.0888
宗教	-11.0897
法照	-11.0897
王位	-11.0898
聽受	-11.09
于此	-11.0904
不避	-11.0906
忽遇	-11.0908
丈室	-11.0908
問何	-11.0912
蠶	-11.0912
供佛	-11.0916
嶺南	-11.0916
後唐	-11.0919
殫	-11.0921
過人	-11.0922
斜	-11.0924
汙	-11.0924
隻	-11.0925
濱	-11.0925
其首	-11.0925
叶	-11.0928
脣	-11.0928
罹	-11.0929
炫	-11.0929
汁	-11.093
視聽	-11.093
艸	-11.093
後魏	-11.0935
入藏	-11.0936
莫有	-11.0938
南天竺	-11.0943
善男子	-11.0946
法化	-11.0948
主上	-11.0949
宛然	-11.095
雲霧	-11.0951
百餘年	-11.0952
首山	-11.0954
隨眾	-11.0956
驗之	-11.0956
佛書	-11.0958
因號	-11.0958
上疏	-11.0962
南屏	-11.0962
無量壽佛	-11.0965
昔如來	-11.0966
之期	-11.0968
別錄	-11.097
十四卷	-11.097
寒山	-11.0973
始興	-11.0977
禪床	-11.0977
菓	-11.0984
乃命	-11.0986
仞	-11.0987
靈骨	-11.0993
金石	-11.0994
疾病	-11.0996
此時	-11.0998
纓	-11.0998
化緣	-11.0999
瀉	-11.0999
扈	-11.1
之路	-11.1002
示人	-11.1002
塔廟	-11.1002
其功	-11.1003
▁梁	-11.1004
還見	-11.1004
誓曰	-11.1005
藍田	-11.1005
衡山	-11.1011
此等	-11.1012
焚身	-11.1012
引入	-11.1014
坐脫	-11.1017
冬十月	-11.102
西土	-11.1024
九品	-11.1025
國號	-11.1025
得解脫	-11.1027
水上	-11.1028
降魔	-11.1028
此其	-11.1029
靈芝	-11.1036
南無	-11.1039
莊嚴寺	-11.1042
年十九	-11.1042
釋之	-11.1042
遂成	-11.1042
異道	-11.1044
玄義	-11.1045
資福	-11.1048
莫知所	-11.1054
法和	-11.1055
三峯	-11.1057
卷下	-11.1057
亦如是	-11.106
領徒	-11.106
服其	-11.1061
所施	-11.1063
幽明	-11.1067
不立	-11.1067
法衣	-11.1068
修福	-11.1068
何物	-11.107
凍	-11.107
一偈	-11.107
正教	-11.1071
璣	-11.1072
衙	-11.1076
痕	-11.1076
瘞	-11.1077
賚	-11.1078
箱	-11.1079
婉	-11.1079
以奉	-11.108
賁	-11.108
上柱國	-11.1083
檢校	-11.1085
即皇帝位	-11.1086
梵夾	-11.1086
叉手	-11.1089
其能	-11.1099
一音	-11.1105
見人	-11.1106
謚曰	-11.1106
廣說	-11.1106
生生	-11.1106
苦惱	-11.1107
出俗	-11.1113
登山	-11.1114
事畢	-11.1116
世號	-11.1122
稱善	-11.1123
傾心	-11.1125
居焉	-11.1126
而致	-11.1126
孰為	-11.113
我欲	-11.1138
寺內	-11.114
涅槃後	-11.1141
肌	-11.1148
之難	-11.1148
口出	-11.1148
幽顯	-11.115
莊老	-11.1151
煮	-11.1152
淑	-11.1154
桀	-11.1155
薙染	-11.1156
臯	-11.1156
謝靈運	-11.1156
具陳	-11.1157
六人	-11.1159
畝	-11.116
報云	-11.1164
真容	-11.1166
叩頭	-11.1169
祿山	-11.1171
大和	-11.1172
諸苦	-11.1172
帝幸	-11.1173
了義	-11.1174
小劫	-11.1176
終始	-11.1177
為主	-11.1178
自念言	-11.118
昨夜	-11.118
出城	-11.1183
不得巳	-11.1187
又言	-11.1189
平地	-11.1193
居山	-11.1193
泣曰	-11.1196
略無	-11.1201
僧等	-11.1203
昔者	-11.1207
始於	-11.1209
我亦	-11.121
講演	-11.1213
摩耶	-11.1213
聞師	-11.1214
裙	-11.1214
太虗	-11.1216
驕	-11.1222
墮地	-11.1224
一面	-11.1224
抃	-11.1225
漢明帝	-11.1228
嘉定	-11.1229
螺	-11.123
一宿	-11.123
此意	-11.1231
犀	-11.1231
澄觀	-11.1231
取一	-11.1231
宼	-11.1232
縈	-11.1233
雌	-11.1233
版	-11.1233
裨	-11.1233
那國	-11.1233
萎	-11.1235
摘	-11.1236
哥	-11.1237
明白	-11.1239
汝既	-11.1242
杖錫	-11.1243
遊行	-11.1245
滿足	-11.1248
年三月	-11.1248
頗有	-11.1249
引見	-11.1251
白王	-11.1252
閉目	-11.1252
圓相	-11.1252
莫知其	-11.126
不能得	-11.126
真俗	-11.1262
不修	-11.1262
諸有	-11.1262
行願	-11.1264
遂為	-11.127
不喜	-11.1272
所不能	-11.1274
在什麼處	-11.1275
上方	-11.1277
二寺	-11.128
無疑	-11.128
大論	-11.1285
風穴	-11.1287
舒州	-11.1287
房中	-11.1287
無損	-11.1288
經律論	-11.1289
恒沙	-11.129
後進	-11.1291
廓然	-11.1292
彌陀經	-11.1297
覺而	-11.1298
禮部	-11.1298
呼曰	-11.1301
糜	-11.1305
以金	-11.1305
明教	-11.1306
瑟	-11.1306
吸	-11.1306
札	-11.1307
涕泣	-11.1308
匱	-11.131
掉	-11.131
轉輪王	-11.1313
茫茫	-11.1314
座主	-11.1314
濬	-11.1314
以此為	-11.1315
貝葉	-11.1316
歸戒	-11.1317
秪	-11.1317
有僧問	-11.1317
澗	-11.1319
打破	-11.1319
拂袖	-11.1322
開導	-11.1322
施主	-11.1323
異於	-11.1324
共相	-11.1325
將謂	-11.1326
而歎曰	-11.1329
睦	-11.133
分座	-11.133
三里	-11.1331
受五戒	-11.1332
得疾	-11.1334
去世	-11.1339
調達	-11.1342
至尊	-11.1345
救護	-11.1346
天祐	-11.135
先有	-11.1351
皎然	-11.1352
一毫	-11.1353
世稱	-11.1353
殿前	-11.1357
以詩	-11.1362
崇敬	-11.1363
入廬山	-11.1367
以為常	-11.137
所夢	-11.1372
初生	-11.1372
嘉興	-11.1374
又從	-11.1375
謂是	-11.1375
世世	-11.1378
手書	-11.1379
恚	-11.1385
稀	-11.1385
弉	-11.1385
嚼	-11.1385
當年	-11.1386
龔	-11.1388
湊	-11.1388
皐	-11.1389
巋	-11.1391
章句	-11.1392
撤	-11.1392
不勞	-11.1392
國史	-11.1393
啄	-11.1394
亦復如是	-11.1396
脉	-11.1396
龍池	-11.1399
尹喜	-11.14
高下	-11.14
枯木	-11.1404
本願	-11.1405
夜中	-11.1407
翠巖	-11.1409
海上	-11.141
各自	-11.1414
乾道	-11.1418
法海	-11.1419
既久	-11.1423
南院	-11.1423
大善	-11.1425
興元	-11.143
伏願	-11.1435
莫敢	-11.144
火焚	-11.1444
假名	-11.1446
乃往	-11.1446
其聲	-11.1449
上書	-11.1449
令我	-11.1451
相顧	-11.1451
亦猶	-11.1451
倭	-11.1454
怪之	-11.1456
之身	-11.1456
石塔	-11.1457
至聖	-11.1457
羈	-11.1458
曼	-11.146
南康	-11.1462
嫗	-11.1462
老聃	-11.1464
天親	-11.1466
挈	-11.1467
興善	-11.1467
涇	-11.1467
維摩經	-11.1468
甕	-11.147
暹	-11.147
相公	-11.147
前代	-11.147
半月	-11.1471
渥	-11.1471
崑崙	-11.1471
箕	-11.1472
增減	-11.1473
左僕射	-11.1474
見一人	-11.1479
飛來	-11.1479
為惡	-11.148
得麼	-11.1481
樞密	-11.1482
常侍	-11.1482
鼓山	-11.1485
敷演	-11.1486
識得	-11.1487
金粟	-11.1489
山龍	-11.1496
三十九	-11.15
度僧尼	-11.1502
定業	-11.1502
息心	-11.1506
高明	-11.1507
真佛	-11.1507
危坐	-11.1508
今朝	-11.1509
精微	-11.1515
聽之	-11.1516
五世	-11.1521
多寶	-11.1521
何言	-11.1522
之福	-11.1524
二十八日	-11.1527
氣力	-11.1529
若斯	-11.1532
鎮州	-11.1535
置之	-11.1536
諸沙門	-11.1536
殑伽河	-11.1536
凡三	-11.1537
至彼	-11.1537
邏	-11.1538
竹林寺	-11.1539
師至	-11.154
㲲	-11.154
沓	-11.154
腐	-11.154
悠	-11.1543
冕	-11.1543
氈	-11.1544
肖	-11.1545
土木	-11.1545
勾	-11.1545
䭾	-11.1546
祭祀	-11.1547
社稷	-11.1547
亦何	-11.1548
扁	-11.1548
每以	-11.1549
林間	-11.1549
趍	-11.1549
劄	-11.1549
禎	-11.1549
芻	-11.155
端坐而化	-11.155
濂	-11.1551
醍	-11.1551
南印度	-11.1552
撒	-11.1552
住此	-11.1552
蟠	-11.1553
死後	-11.1555
在乎	-11.1556
名教	-11.1557
金人	-11.1558
大宋	-11.1566
一世	-11.1566
四十里	-11.1569
以至	-11.1573
大石	-11.1573
九十六	-11.1579
不下	-11.1583
擊之	-11.1586
武皇帝	-11.1586
宗乘	-11.1593
故以	-11.1594
節度	-11.1594
為物	-11.1596
婦女	-11.1597
人人	-11.1598
僧法	-11.1599
真覺	-11.16
即遣	-11.1601
佛出世	-11.1603
召入	-11.1603
佛記	-11.1604
付之	-11.1606
傍有	-11.1609
出自	-11.1614
得聞	-11.1617
廢教	-11.162
吳越王	-11.162
卿等	-11.1621
吾子	-11.1621
興善寺	-11.1623
鑪	-11.1624
香嚴	-11.1624
二諦	-11.1625
苞	-11.1625
回首	-11.1625
鎧	-11.1626
晞	-11.1626
況復	-11.1627
蕪	-11.1627
又勅	-11.1627
廩	-11.1628
晨夕	-11.1628
師兄	-11.163
揵	-11.163
願師	-11.163
鑰	-11.1632
敞	-11.1632
摩訶衍	-11.1633
鍼	-11.1635
第一座	-11.1635
臨安	-11.1637
自立	-11.1639
遊化	-11.1643
諫曰	-11.1643
一指	-11.1644
入見	-11.1645
遊歷	-11.1646
悟道	-11.1647
與僧	-11.1648
手中	-11.1652
作此	-11.1658
東歸	-11.1664
厥後	-11.1667
將入	-11.1668
三十四	-11.1668
歸方丈	-11.1668
前行	-11.1671
幽微	-11.1672
長短	-11.1672
一夕夢	-11.1677
豈無	-11.1677
度眾生	-11.1678
自覺	-11.1685
一所	-11.1686
得失	-11.1687
天堂	-11.1689
起信	-11.169
謹言	-11.169
寂照	-11.1692
應物	-11.1692
流轉	-11.1693
本是	-11.1694
給侍	-11.1695
一百五十	-11.1695
夷狄	-11.17
不願	-11.17
道經	-11.17
若非	-11.1701
厝	-11.1706
佛果	-11.1707
之報	-11.1708
楹	-11.1708
慍	-11.1709
琢	-11.171
孩	-11.171
皈	-11.171
宥	-11.1711
萬卷	-11.1711
篡	-11.1712
皆由	-11.1713
潯陽	-11.1713
阿師	-11.1716
圜悟	-11.1719
以明	-11.1721
有一僧	-11.1721
請佛	-11.1724
每見	-11.1728
五欲	-11.1732
中外	-11.1733
懺法	-11.1733
玄風	-11.1734
於洛陽	-11.1736
夜叉	-11.1738
為上	-11.174
法花	-11.1743
不一	-11.1746
辨正	-11.1746
秦主	-11.1751
法顯	-11.1753
華嚴寺	-11.1755
作麼生會	-11.1756
書生	-11.176
代云	-11.1768
子云	-11.177
亦當	-11.177
開講	-11.1772
異類	-11.1772
師便打	-11.1774
漢地	-11.1776
傳教	-11.1777
延之	-11.1781
藥師	-11.1783
來問	-11.1784
以供	-11.1785
誚	-11.1789
見處	-11.1789
駒	-11.179
鑾	-11.1792
燉煌	-11.1793
〕-【	-11.1795
起居	-11.1795
馨	-11.1798
亦應	-11.1799
時諸	-11.18
後以	-11.18
還宮	-11.1802
神功	-11.1803
了然	-11.1804
許多	-11.1805
箇甚麼	-11.1808
1	-11.1808
天禧	-11.1809
從前	-11.1809
諸生	-11.1809
尚有	-11.1812
典籍	-11.1812
符堅	-11.1816
真空	-11.1818
不減	-11.182
實際	-11.1827
聖壽	-11.1832
始也	-11.1836
世事	-11.1836
汾	-11.1839
大有	-11.1842
天女	-11.1842
錢氏	-11.1842
寰	-11.1844
豈以	-11.1848
覺禪師	-11.1849
上都	-11.1849
如有	-11.185
建業	-11.1851
處士	-11.1856
苦樂	-11.1863
稷	-11.1864
白鶴	-11.1868
駝	-11.1868
斃	-11.187
筭	-11.1871
凋	-11.1872
釋道安	-11.1872
致禮	-11.1873
販	-11.1874
逞	-11.1875
詬	-11.1876
教義	-11.1878
獄卒	-11.1879
初見	-11.1879
臼	-11.1879
邢	-11.188
阮	-11.1881
雲中	-11.1883
無恙	-11.1884
不虛	-11.1887
每有	-11.1889
二百餘	-11.189
隱士	-11.1891
請居	-11.1891
皇甫	-11.1892
視其	-11.1893
契丹	-11.1898
能令	-11.1898
補處	-11.1901
寺門	-11.1902
尚未	-11.1906
楊都	-11.1917
龍興	-11.192
可惜	-11.1926
沙門惠	-11.1927
之暇	-11.1928
二月十五日	-11.1929
城人	-11.193
信受	-11.1931
乃謂	-11.1931
僧也	-11.1935
院主	-11.1936
造次	-11.1939
名聞	-11.1939
娑	-11.194
永興	-11.194
以施	-11.1944
金光	-11.1945
年九十	-11.1946
破戒	-11.1949
住徑山	-11.195
舅	-11.195
腋	-11.1951
知事	-11.1952
獲舍利	-11.1953
繒	-11.1953
聦	-11.1954
九江	-11.1954
還歸	-11.1955
昱	-11.1955
是何人	-11.1956
漲	-11.1958
緬	-11.1959
廡	-11.1959
犍	-11.1961
泄	-11.1962
之資	-11.1962
報應記	-11.1963
良久曰	-11.1964
寺東	-11.1966
珠林	-11.1966
隨處	-11.1967
真性	-11.1973
婺州	-11.1973
流出	-11.1974
流汗	-11.1976
天性	-11.1977
一切智	-11.1977
宗廟	-11.1979
入朝	-11.1981
彈曰	-11.1981
出塵	-11.1981
業報	-11.1991
神宗	-11.1994
即令	-11.1994
䟦陀	-11.1995
溫州	-11.1997
志在	-11.2
戒定慧	-11.2002
上古	-11.2003
北行	-11.2007
議者	-11.2008
我師	-11.2009
後還	-11.2014
給事	-11.2014
佛意	-11.2015
天台教	-11.2019
宿命	-11.2025
不移	-11.2028
能行	-11.2029
獨坐	-11.2032
若其	-11.2036
之瑞	-11.2036
蘆	-11.2037
峯頂	-11.2038
盍	-11.2039
悋	-11.204
廣慧	-11.2042
忽一日	-11.2042
師子國	-11.2043
昉	-11.2043
態	-11.2044
庠	-11.2044
矧	-11.2044
掇	-11.2045
至若	-11.2048
不載按佛祖統紀	-11.2051
阿誰	-11.2051
此即	-11.2054
無滯	-11.2056
二名	-11.2056
義熙	-11.2056
二菩薩	-11.2058
伏膺	-11.2062
眾請	-11.2064
居此	-11.2066
北天竺	-11.207
佛是	-11.2074
方始	-11.2074
相從	-11.2074
衡陽	-11.2076
已得	-11.2077
金錢	-11.2078
前世	-11.208
經七日	-11.2084
未悟	-11.2084
全無	-11.2087
無所得	-11.2089
秋七月	-11.2096
一條	-11.2096
敬重	-11.2097
不落	-11.2098
之命	-11.2098
妙理	-11.21
聞巳	-11.21
漢明	-11.2102
有詔	-11.2104
道生	-11.2104
相對	-11.2104
更相	-11.2106
大似	-11.211
通身	-11.2111
十載	-11.2114
行事	-11.2115
盟	-11.2119
導師	-11.212
方來	-11.2121
侔	-11.2122
僧伽藍	-11.2122
癘	-11.2123
吻	-11.2124
疑其	-11.2124
臘四十	-11.2124
必以	-11.2124
七尺	-11.2125
嵓	-11.2125
岱	-11.2126
大願	-11.2126
摩竭	-11.2126
食時	-11.2128
大旱	-11.2128
爍	-11.2128
冰	-11.2128
時彼	-11.213
當作	-11.213
琬	-11.2133
憲章	-11.2137
弘濟	-11.2137
黃巾	-11.2137
囑累	-11.2138
譬喻	-11.2139
百尺	-11.214
應機	-11.2143
賓客	-11.2145
無學	-11.2146
觀音大士	-11.2146
第一義	-11.2148
些子	-11.2149
之室	-11.215
不墮	-11.2151
圓融	-11.2163
勿令	-11.2165
瑞相	-11.2168
如其言	-11.2168
須知	-11.2169
白鹿	-11.217
著論	-11.2172
為期	-11.2172
之首	-11.2173
已前	-11.2181
無差	-11.2186
諸賢	-11.2187
滿室	-11.2189
示其	-11.219
甞與	-11.2191
錢塘人	-11.2192
入此	-11.2196
投之	-11.2197
所修	-11.2197
天中	-11.22
之季	-11.22
路逢	-11.22
無上道	-11.2202
結茅	-11.2203
之亂	-11.2205
瞑	-11.2207
建德	-11.2209
翅	-11.221
鴿	-11.2211
西河	-11.2212
作麼生是	-11.2213
鄒	-11.2213
不語	-11.2214
飜	-11.2215
衒	-11.2215
意旨如何	-11.2216
緣覺	-11.2216
􂎫	-11.2216
礪	-11.2217
妙覺	-11.2218
拶	-11.2219
輯	-11.222
聖跡	-11.2225
服膺	-11.2231
有奇	-11.2231
民間	-11.2232
唱佛	-11.2233
為國師	-11.2234
莫大	-11.2236
又夢	-11.2238
都不	-11.2238
桓玄	-11.2239
為太子	-11.224
一口	-11.2243
一宗	-11.2246
少室	-11.2246
五道	-11.2247
道成	-11.2247
續高僧傳卷第	-11.2251
萬計	-11.2253
形貌	-11.2254
當陽	-11.2254
之典	-11.2255
山河	-11.2255
!	-11.2255
賜額	-11.2257
口誦	-11.2258
形容	-11.2258
如上	-11.2258
太清	-11.226
清河	-11.226
僖宗	-11.2261
和尚住	-11.2264
祖道	-11.2266
絕倫	-11.2268
五載	-11.227
訪道	-11.2271
」【	-11.2272
萬乘	-11.2275
過此	-11.2277
不昧	-11.228
馬氏	-11.228
曇摩	-11.2281
吳主	-11.2281
五更	-11.2282
之民	-11.2283
修證	-11.2283
風流	-11.2285
躁	-11.2286
八十一	-11.2286
念觀音	-11.2286
殖	-11.2291
獲免	-11.2292
隕	-11.2293
猴	-11.2296
隊	-11.2298
張公	-11.2298
瓦礫	-11.2299
牌	-11.2299
郎中	-11.2301
暠	-11.2301
照禪師	-11.2303
脈	-11.2303
山東	-11.2305
乘空	-11.2305
長阿含	-11.2306
瑗	-11.2308
慎勿	-11.2309
道術	-11.231
齊王	-11.2313
肅然	-11.2314
一百七十	-11.2316
飲之	-11.2318
不敬	-11.2322
復往	-11.2322
之音	-11.2325
三下	-11.2327
方廣	-11.2329
證義	-11.2336
尊像	-11.2336
不輕	-11.2336
經義	-11.2336
昔在	-11.2336
知名	-11.2338
慕容	-11.2339
普度	-11.2339
域中	-11.2342
之位	-11.2342
梵文	-11.2343
柰	-11.2344
晨起	-11.2345
賦詩	-11.2347
昭宗	-11.2347
西晉	-11.2349
十數	-11.2353
無虧	-11.2356
騰空	-11.2357
遷都	-11.2359
慧觀	-11.236
神氣	-11.2362
萬國	-11.2363
眼目	-11.2363
南京	-11.2367
難以	-11.2368
進退	-11.2368
浮山	-11.2372
虹	-11.2374
乃可	-11.2374
而亡	-11.2375
普濟	-11.2376
令旨答	-11.2376
𡨥	-11.2382
毘婆沙	-11.2382
搏	-11.2384
奉迎	-11.2384
掬	-11.2385
漚	-11.2386
普明	-11.2386
勁	-11.2387
劈	-11.2388
閫	-11.239
洗浴	-11.2391
愴	-11.2391
終無	-11.2391
現形	-11.2392
六通	-11.2392
陞堂	-11.2395
色身	-11.2395
後主	-11.2397
因即	-11.2399
名稱	-11.24
說偈言	-11.2401
者歟	-11.2404
天柱	-11.2405
顆	-11.2405
流涕	-11.2406
却問	-11.2406
大略	-11.2407
請和尚	-11.2409
調伏	-11.241
盛德	-11.2412
燒身	-11.2412
斷絕	-11.2413
之側	-11.2413
青蓮	-11.2413
同參	-11.2416
撰碑	-11.2418
少頃	-11.2418
漸漸	-11.2422
遂令	-11.2424
非凡	-11.2424
良久云	-11.2426
空門	-11.2426
徧參	-11.2427
功成	-11.243
菩薩像	-11.243
吉州	-11.2442
參學	-11.2444
色界	-11.2445
今年	-11.2446
六十四	-11.2447
因地	-11.245
後身	-11.245
四十九年	-11.2453
日輪	-11.2454
百餘卷	-11.2455
焉能	-11.2457
聖人也	-11.2463
騁	-11.2464
聽經	-11.2464
吳氏	-11.2465
棄去	-11.2468
令出家	-11.2469
瞋恚	-11.247
吝	-11.247
薙落	-11.2471
丐	-11.2471
貳	-11.2471
深山	-11.2472
賑	-11.2473
當下	-11.2473
未久	-11.2475
嶷	-11.2475
不窮	-11.2475
致使	-11.2476
三度	-11.2476
矚	-11.2476
二曰	-11.2478
檗	-11.2478
洛下	-11.2481
爭奈	-11.2483
西去	-11.2488
之君	-11.2488
嘉祐	-11.2489
左手	-11.2489
是夜	-11.2491
開士	-11.2494
望見	-11.2494
達觀	-11.2495
五濁	-11.2495
如舊	-11.2496
江湖	-11.2496
請講	-11.2496
或言	-11.2496
先王之	-11.2497
國主	-11.2499
奏云	-11.25
僧史	-11.2501
永樂	-11.2504
無念	-11.2507
念經	-11.2509
冬夏	-11.251
村人	-11.251
上帝	-11.2512
外護	-11.2517
建安	-11.252
演法	-11.2522
舊史	-11.2525
終焉	-11.2528
應時	-11.2533
亦能	-11.2538
因明	-11.2544
三途	-11.2545
畢集	-11.2546
略云	-11.2547
禪悅	-11.2547
睿宗	-11.2552
定光	-11.2554
序曰	-11.2554
法護	-11.2555
教主	-11.2558
所推	-11.2559
蹲	-11.2559
必須	-11.2561
械	-11.2561
鴨	-11.2561
瞥	-11.2562
佑	-11.2563
浚	-11.2563
目為	-11.2565
芒	-11.2566
北印度	-11.2568
杉	-11.2569
不納	-11.2569
襄王	-11.2579
孝子	-11.258
不傷	-11.2585
不逮	-11.2589
聖王	-11.259
智論	-11.259
堂前	-11.259
無厭	-11.2594
指歸	-11.2597
奉持	-11.26
竹園	-11.2601
禮義	-11.2614
可愛	-11.2616
恐怖	-11.262
相逢	-11.2621
賢愚	-11.2621
其類	-11.2622
何緣	-11.2623
本空	-11.2623
立精舍	-11.2623
刻石	-11.2624
獨步	-11.2626
慧命	-11.2629
信向	-11.2636
既成	-11.2636
氏族	-11.2639
其源	-11.264
百五十	-11.2641
不加	-11.2642
紛然	-11.2643
今生	-11.2643
忽起	-11.2644
便去	-11.2644
甚矣	-11.2645
悲夫	-11.2645
酪	-11.2647
媚	-11.2647
帝親	-11.2648
瓌	-11.2648
簷	-11.2648
迦葉佛	-11.2651
宇宙	-11.2651
圃	-11.2652
恒河沙	-11.2652
浹	-11.2652
炷香	-11.2652
它	-11.2652
靄	-11.2653
盞	-11.2654
橛	-11.2655
阿修羅	-11.2656
祥雲	-11.2659
修羅	-11.2659
達于	-11.2659
講涅槃	-11.266
泓	-11.266
四王	-11.2661
雖然如是	-11.2666
無物	-11.2668
權實	-11.2672
聲教	-11.2672
大慈恩寺	-11.2677
直至	-11.2677
成實論	-11.2681
放逸	-11.2681
胡僧	-11.2688
太武	-11.2688
遺法	-11.269
聞其名	-11.2692
養之	-11.2694
法琳	-11.2697
中夏	-11.2698
呼之	-11.2699
梵云	-11.2705
火宅	-11.2706
後居	-11.2713
書記	-11.2715
僧堂	-11.2717
佛塔	-11.272
發言	-11.2721
深加	-11.2724
詰之	-11.2726
金玉	-11.2727
禪經	-11.2729
吠	-11.2729
噉食眾生是	-11.273
流支	-11.2731
誓不	-11.2734
傅奕	-11.2736
佛隴	-11.2738
羅浮	-11.274
嫡	-11.274
姜	-11.274
翰林學士	-11.274
聽吾偈曰	-11.274
而行之	-11.274
定林寺	-11.2741
彝	-11.2741
惕	-11.2741
噬	-11.2742
戟	-11.2742
黷	-11.2743
銕	-11.2744
竅	-11.2746
無倦	-11.2746
妬	-11.2746
銘曰	-11.2746
砂	-11.2746
賜名	-11.2746
不懈	-11.2746
溥	-11.2746
掣	-11.2747
崔浩	-11.2747
從事	-11.2748
四世	-11.275
禿	-11.275
拈拄杖	-11.2752
天下人	-11.2754
醫藥	-11.2755
以神力	-11.2756
月十二日	-11.2756
景雲	-11.2758
本起	-11.2761
無功	-11.2761
異相	-11.2763
持律	-11.2764
誰知	-11.2765
神照	-11.2765
隴西	-11.2768
可畏	-11.2769
下詔曰	-11.277
謂其徒曰	-11.2772
行香	-11.2772
相遇	-11.2774
辭眾	-11.2778
因甚	-11.278
放之	-11.2785
于地	-11.279
萬古	-11.2793
常樂	-11.2793
歲次	-11.2794
為尼	-11.2799
此義	-11.2799
新譯	-11.2799
還鄉	-11.2805
忽見一	-11.281
遺書	-11.2811
一切諸	-11.2814
證聖	-11.2814
本行經	-11.2814
武林	-11.2815
必能	-11.2818
妄語	-11.2819
不虗	-11.282
眾苦	-11.2821
聞此語	-11.2821
隨順	-11.2823
裸	-11.2825
郢	-11.2826
繆	-11.2827
放大光明	-11.2829
嘲	-11.283
痊	-11.2831
惰	-11.2832
經歷	-11.2832
瑯	-11.2834
存乎	-11.2834
性空	-11.2834
佛圖澄	-11.2835
眩	-11.2835
鈎	-11.2835
所記	-11.2835
毘盧遮那	-11.2836
屎	-11.2837
龍猛	-11.2838
非吾	-11.2842
至長安	-11.2843
按宋史	-11.2843
寶蓋	-11.2845
斬之	-11.2845
0	-11.2847
孝武	-11.285
流淚	-11.2854
克勤	-11.2857
鹽官	-11.2857
甞問	-11.2858
指南	-11.2858
我來	-11.286
昊	-11.287
二十餘里	-11.2872
三國	-11.2876
言已	-11.2882
太始	-11.2885
聰慧	-11.2887
吏曰	-11.2891
何等	-11.2891
其體	-11.2891
即命	-11.2891
乃復	-11.2893
辜	-11.2896
黑白	-11.2897
聞風	-11.2898
三祖	-11.2898
不廢	-11.29
足矣	-11.2906
恍	-11.2907
些	-11.2909
容貌	-11.291
漢魏	-11.291
然乎	-11.2911
鷲	-11.2912
轉讀	-11.2915
壺	-11.2916
閑居	-11.2917
悶	-11.2919
收舍利	-11.2919
扉	-11.2921
大和上	-11.2921
地下	-11.2921
入中國	-11.2922
皂	-11.2922
吁	-11.2923
剃染	-11.2927
需	-11.2927
天竺沙門	-11.2929
庇	-11.2929
宛轉	-11.2929
野狐	-11.2931
分付	-11.2931
韓愈	-11.2935
北臺	-11.2936
天花	-11.2939
取捨	-11.2939
又作	-11.294
玉女	-11.294
上皇	-11.2943
九部	-11.2943
佛老	-11.2943
付汝	-11.2944
今已	-11.2949
以手指	-11.2958
為最	-11.296
待之	-11.2961
法音	-11.2964
堂堂	-11.2965
累日	-11.2965
勝業	-11.2968
百王	-11.2971
修禪	-11.2971
顧視	-11.2971
來朝	-11.2976
二篇	-11.2978
諸君	-11.2982
年十四	-11.2983
五百年	-11.2985
大赦	-11.2988
放過	-11.2988
語之曰	-11.2989
立碑	-11.2989
不甚	-11.2989
淨覺	-11.2993
第三子	-11.2993
二十六日	-11.2994
始皇	-11.2995
佛印	-11.2997
不肖	-11.3005
衿	-11.3007
禮謁	-11.301
怯	-11.301
燎	-11.3012
迂	-11.3014
諺	-11.3014
河西	-11.3014
鉅	-11.3015
倣	-11.3015
墻	-11.3016
唐太宗	-11.3018
髭	-11.3019
布薩	-11.3019
喉	-11.3021
崇禎	-11.3022
巳得	-11.3024
二里	-11.3024
始自	-11.3025
奉安	-11.3025
翕然	-11.3026
旦夕	-11.3027
專志	-11.3028
夢覺	-11.3029
內史	-11.3029
築室	-11.3031
得旨	-11.3033
洛京	-11.3033
惑眾	-11.3033
出家學道	-11.3034
施食	-11.3036
善友	-11.3038
其弟	-11.3039
撫州	-11.3041
即起	-11.3044
開發	-11.3044
其要	-11.3048
講道	-11.3049
三十餘里	-11.3051
聽講	-11.3051
靈感	-11.3052
剃度	-11.3053
清虛	-11.3054
石橋	-11.306
臘六十	-11.3064
獄中	-11.3067
一期	-11.3067
地上	-11.3068
扶風	-11.3068
如是等	-11.3069
何耶	-11.307
得往生	-11.307
訊	-11.3075
商主	-11.3076
道化	-11.3078
什公	-11.3079
悲喜	-11.3082
財物	-11.3082
定林	-11.3085
本州	-11.3087
每於	-11.3088
皇極	-11.3089
物外	-11.309
坐夏	-11.3093
焚燒	-11.3093
睦州	-11.3098
真常	-11.31
菴主	-11.3101
煑	-11.3104
憾	-11.3105
寶應	-11.3107
睹	-11.3108
泡	-11.3109
峨	-11.3109
猛獸	-11.3109
袪	-11.3109
駢	-11.3111
三千大千世界	-11.3111
遯	-11.3112
瑯瑘	-11.3112
奏請	-11.3112
散騎常侍	-11.3112
平章事	-11.3112
拆	-11.3113
椀	-11.3113
髣髴	-11.3114
姑臧	-11.3114
般若波羅蜜	-11.3115
鋤	-11.3115
剔	-11.3117
舊名	-11.3118
保福	-11.312
青龍	-11.3121
無主	-11.3122
九卷	-11.3124
鄴都	-11.3125
州牧	-11.3126
故號	-11.3127
至極	-11.313
雷震	-11.3134
胡人	-11.3143
驚怖	-11.3146
光相	-11.3148
升堂	-11.3149
寺額	-11.315
五行	-11.3151
殷勤	-11.3152
汝身	-11.3153
方可	-11.3155
西僧	-11.3155
非但	-11.3157
群品	-11.3158
念金剛經	-11.3159
宣揚	-11.3161
玄理	-11.3161
十種	-11.3168
手持	-11.318
禁戒	-11.3182
四天下	-11.3183
姓氏	-11.3183
天竺國	-11.3184
講論	-11.3184
建興	-11.3185
山南	-11.3185
芥	-11.3192
在何處	-11.3194
𢹂	-11.3195
浣	-11.3198
餞	-11.3199
避地	-11.32
幅	-11.32
賓頭盧	-11.3201
五萬	-11.3202
五十三	-11.3202
逗	-11.3202
十六觀	-11.3204
羨	-11.3205
來儀	-11.3205
笏	-11.3206
五品	-11.3209
來日	-11.3209
還復	-11.321
何法	-11.3211
善導	-11.3212
研究	-11.3212
莊周	-11.3216
離俗	-11.3216
時阿育王	-11.3219
尚在	-11.3222
直入	-11.3225
數月	-11.3228
野人	-11.3231
徐氏	-11.3232
其略曰	-11.3232
面前	-11.3233
相識	-11.3237
程之	-11.3239
惡人	-11.3239
欲識	-11.324
百有餘	-11.3241
太虛	-11.3244
百八	-11.3246
數載	-11.3247
大陽	-11.3252
八九	-11.3253
可往	-11.3256
久遠	-11.3259
金帛	-11.3261
二十里	-11.3263
究其	-11.3264
五嶽	-11.3265
世緣	-11.3268
正統	-11.3271
禪學	-11.3272
諸書	-11.3273
大象	-11.3277
佛土	-11.3278
便行	-11.3278
昭玄	-11.3284
其罪	-11.3286
頌云	-11.3293
十方諸佛	-11.3293
第二出	-11.3293
梟	-11.3295
形如	-11.3298
別號	-11.3298
懊惱	-11.3298
隨方	-11.3298
休去	-11.3299
鬘	-11.33
挍	-11.33
樸	-11.3301
聆	-11.3301
囂	-11.3303
液	-11.3304
咬	-11.3305
喫飯	-11.3306
太宰	-11.3309
相國寺	-11.3309
遣中使	-11.3309
裴休	-11.3313
僧問如何是	-11.3316
慧林	-11.3317
百日	-11.3329
海水	-11.3331
午時	-11.3331
咸謂	-11.3332
中路	-11.3342
先帝	-11.3342
四事	-11.3348
今既	-11.335
講涅槃經	-11.3352
春秋六十有	-11.3357
五寸	-11.336
金氏	-11.3361
斯則	-11.3361
講華嚴	-11.3362
講授	-11.3365
呾	-11.3367
辭親	-11.3367
四果	-11.3375
高士	-11.3376
十八卷	-11.3376
作亂	-11.3378
昭覺	-11.3381
開化	-11.3381
重譯	-11.3383
焉知	-11.3384
殿上	-11.3385
三百六十	-11.3385
鴻臚	-11.3386
尸羅	-11.3389
中丞	-11.339
涸	-11.339
貿	-11.3391
千五百	-11.3392
飼	-11.3392
殊勝	-11.3394
領眾	-11.3396
複	-11.3396
利生	-11.3397
阿闍梨	-11.3397
嶠	-11.3398
弭	-11.3398
紳	-11.3398
鎔	-11.34
授與	-11.3404
剩	-11.3405
一味	-11.3405
尊卑	-11.3409
廬陵	-11.341
梵網	-11.3413
三毒	-11.3414
往詣	-11.3415
白佛	-11.3416
發揮	-11.3416
六塵	-11.3417
皇太后	-11.3417
設會	-11.3419
法主	-11.3424
棲賢	-11.3425
奉全身	-11.3426
法雨	-11.3431
源流	-11.3432
九世	-11.3433
城外	-11.3441
後不知所終	-11.3442
釋惠	-11.3443
之孫	-11.3444
隨從	-11.3444
流血	-11.3445
法教	-11.3448
寢疾	-11.3451
堂宇	-11.3453
五色雲	-11.3455
故經云	-11.3456
惜哉	-11.3458
趂	-11.3459
中興寺	-11.3459
佛祖統紀卷第	-11.3463
日久	-11.3464
恩愛	-11.3464
開元中	-11.3467
勝負	-11.3468
馬大師	-11.3471
後代	-11.3472
興國	-11.3475
清泰	-11.348
天華	-11.3482
大涅槃	-11.3485
舡	-11.3488
不覩	-11.3489
泗州	-11.349
攬	-11.3491
愿	-11.3491
濡	-11.3491
力故	-11.3492
祁	-11.3492
嘿	-11.3492
巒	-11.3493
彊	-11.3493
店	-11.3494
薙髮	-11.3494
麈尾	-11.3495
匣	-11.3495
悽	-11.3495
俱胝	-11.3496
迪	-11.3496
特來	-11.3497
啞	-11.3501
圍遶	-11.3501
俄見	-11.3501
生緣	-11.3502
祈禱	-11.3503
之道也	-11.3504
南臺	-11.3505
稱佛名	-11.3507
卷第一	-11.3508
莫測其	-11.3511
池中	-11.3511
具如	-11.3511
是否	-11.3513
報慈	-11.3513
肉身	-11.3514
人主	-11.3515
一滴	-11.3515
一篇	-11.3515
洞庭	-11.3519
一歲	-11.3519
善信	-11.352
十住	-11.3524
年老	-11.3525
》,	-11.353
西林	-11.3532
含識	-11.3534
化胡經	-11.3538
萬善	-11.3541
神遊	-11.3543
田地	-11.3544
─	-11.3549
供施	-11.3553
性海	-11.3553
惡趣	-11.3554
在其中	-11.3555
殿下	-11.3555
有罪	-11.3559
底人	-11.356
月二十一日	-11.3561
祠部	-11.3566
既非	-11.3566
毀佛	-11.3567
蒨	-11.3569
信士	-11.3572
明鏡	-11.3583
受罪	-11.3583
脊	-11.3585
厭離	-11.3585
穹	-11.3585
卞	-11.3586
寅	-11.3587
棹	-11.359
企	-11.359
入堂	-11.3591
戢	-11.3591
酸	-11.3592
裡	-11.3594
佛化	-11.3595
甚眾	-11.3596
嶮	-11.3596
汲引	-11.3596
弘福寺	-11.3596
白居易	-11.3596
椒	-11.3597
舉前話	-11.36
佛弟子	-11.36
禪師諱	-11.3601
五百人	-11.3604
機鋒	-11.3605
用處	-11.3605
湛堂	-11.3606
宗炳	-11.3608
不祥	-11.3608
千數	-11.3611
造作	-11.3612
諸外道	-11.3613
所未聞	-11.3616
胸中	-11.3616
者甚眾	-11.3622
四遠	-11.3627
奉旨	-11.363
大力	-11.3632
陳留	-11.3636
君子之	-11.364
中臺	-11.3641
西域記	-11.3642
聚徒	-11.3645
家貧	-11.3648
所殺	-11.3649
漢武	-11.3656
一塵	-11.3656
燈錄	-11.3659
端嚴	-11.3661
紫金	-11.3665
所執	-11.3666
三十二相	-11.3666
側有	-11.3669
重閣	-11.3671
開門	-11.3674
妙道	-11.3675
歎異	-11.3678
寥	-11.3682
聃	-11.3683
玄妙	-11.3684
烽	-11.3684
加敬	-11.3687
涓	-11.3687
菽	-11.3688
干戈	-11.3688
不可勝數	-11.3689
謂左右曰	-11.369
󰢍	-11.369
近日	-11.3691
濵	-11.3692
批	-11.3693
濛	-11.3693
數丈	-11.3694
有五百	-11.3696
山河大地	-11.3696
萊	-11.3696
崑山	-11.3698
常誦	-11.37
行于世	-11.3701
為侍者	-11.3701
照耀	-11.3702
無傷	-11.3702
鸚鵡	-11.3703
六萬	-11.3707
留意	-11.3708
不墜	-11.3709
語默	-11.3709
一笑	-11.371
調御	-11.3711
誅之	-11.3712
不負	-11.3721
罪過	-11.3725
梵書	-11.3725
病死	-11.3725
那裏	-11.3728
紫衣	-11.3729
目擊	-11.373
會下	-11.3732
行路	-11.3733
受報	-11.3735
入蜀	-11.3736
出遊	-11.3739
惟願	-11.3739
極樂世界	-11.3739
日照	-11.374
億劫	-11.374
相接	-11.3744
氣絕	-11.3746
稱旨	-11.3749
帝悅	-11.376
四門	-11.376
二十九年	-11.3761
尋訪	-11.3762
五陰	-11.3763
以居之	-11.3768
送舍利	-11.377
巳上	-11.377
穆宗	-11.3771
執事	-11.3781
孫氏	-11.3783
漕	-11.3784
庭前	-11.3785
鞋	-11.3786
尿	-11.3786
相次	-11.3786
船子	-11.3786
疫	-11.3787
聿	-11.3787
三十里	-11.3788
渺	-11.3789
饋	-11.3789
晁	-11.379
在京	-11.3792
幕	-11.3792
往昔	-11.3793
抑揚	-11.3793
弈	-11.3795
湮	-11.3795
君父	-11.3797
鎚	-11.3797
帆	-11.3797
削髮	-11.3798
如彼	-11.3802
魚肉	-11.3804
尚存	-11.3805
弘宣	-11.3812
匹夫	-11.3814
卓然	-11.3815
何益	-11.3816
二十人	-11.3817
州人也	-11.3817
思議	-11.382
迄今	-11.382
給事中	-11.3822
彌勒佛	-11.3823
佛頂	-11.3825
後果	-11.3828
異域	-11.3829
平昔	-11.3833
問之曰	-11.3833
在甚處	-11.3835
萬戶	-11.3836
歷年	-11.3836
黎明	-11.3837
深遠	-11.384
儒道	-11.3845
寺釋慧	-11.3846
弘教	-11.3848
復次	-11.385
初學	-11.3851
靈照	-11.3851
未達	-11.3852
慧光	-11.3862
罪業	-11.3865
經三卷	-11.3865
知音	-11.3872
夜則	-11.3875
老和尚	-11.3879
醇	-11.3881
紐	-11.3882
地藏菩薩	-11.3882
醯	-11.3883
秣	-11.3884
綾	-11.3884
得阿羅漢	-11.3884
廢帝	-11.3885
剗	-11.3887
澈	-11.3887
文中子	-11.3887
景福	-11.3887
九天	-11.3888
覿	-11.3889
釁	-11.3889
轡	-11.389
長夜	-11.389
茆	-11.3892
躅	-11.3894
豁然大悟	-11.3894
濃	-11.3895
興皇	-11.3897
曠劫	-11.3901
僧寶傳	-11.3904
擁護	-11.3904
恁麼道	-11.3906
彌陀佛	-11.3907
阿鼻	-11.3909
嘉祥	-11.3909
便下座	-11.3911
遺命	-11.3913
白毫	-11.3914
赤烏	-11.3917
定州	-11.3918
以充	-11.3918
有差	-11.392
誦習	-11.3924
而言曰	-11.3928
善能	-11.3929
愛其	-11.3933
提起	-11.3936
漁人	-11.3938
智通	-11.3945
壽昌	-11.3946
到來	-11.3947
願我	-11.3949
不測其	-11.3949
豈不是	-11.395
月二十二日	-11.3952
頒行	-11.3952
慈恩寺	-11.3952
不審	-11.3953
孝經	-11.3955
對眾	-11.3959
游方	-11.396
向甚處	-11.396
理會	-11.3961
繇是	-11.3964
無病	-11.3967
吾徒	-11.3969
製序	-11.397
而笑	-11.3972
幾人	-11.3972
禧	-11.3973
那箇	-11.3974
信施	-11.3977
渤	-11.3978
別眾	-11.3979
大劫	-11.3979
宮人	-11.398
下語	-11.398
月輪	-11.3981
唇	-11.3987
𥨊	-11.399
儞	-11.3991
麵	-11.3991
轉輪聖王	-11.3992
鄞	-11.3994
迷悟	-11.3995
瓘	-11.3995
穎	-11.3996
決疑	-11.3996
献	-11.3998
牧牛	-11.4
沙門玄奘	-11.4
師子吼	-11.4001
帀	-11.4001
不可得而	-11.4004
往參	-11.4006
二大士	-11.4007
祥瑞	-11.4008
積善	-11.4008
恍然	-11.4008
不平	-11.401
自他	-11.401
鉢盂	-11.401
為誰	-11.4015
散華	-11.4017
波若	-11.4019
三寸	-11.402
彼土	-11.402
罔極	-11.4022
里人	-11.4022
玄化	-11.4023
孤負	-11.4026
小異	-11.4026
說戒	-11.4026
眾共	-11.4028
監護	-11.403
化城	-11.4031
承當	-11.4032
重興	-11.4032
經籍	-11.4033
不殊	-11.4034
尋陽	-11.4036
周旋	-11.4051
又諮	-11.4054
頓首	-11.4056
初祖	-11.4056
僧無對	-11.4058
上堂曰	-11.406
自誓	-11.406
金口	-11.4061
壽量	-11.4065
五蘊	-11.4067
如何是佛	-11.4068
文學	-11.4068
光宅	-11.4073
出迎	-11.4077
滅佛法	-11.4082
遇疾	-11.4083
羅睺羅	-11.4085
天魔	-11.4085
押	-11.4087
不犯	-11.4091
玄微	-11.4091
鷲嶺	-11.4092
一切種智	-11.4093
自己	-11.4093
寂寥	-11.4093
檜	-11.4094
觀音勢至	-11.4095
三七	-11.4095
無染	-11.4096
不染	-11.4097
鳩摩羅什	-11.4098
兢	-11.4099
澡浴	-11.4099
汝輩	-11.4101
明了	-11.4103
授菩薩戒	-11.4103
錠	-11.4103
宗匠	-11.4105
伎樂	-11.4106
出離	-11.4107
話頭	-11.4108
不任	-11.4109
乎哉	-11.4112
薩婆多	-11.4113
疏鈔	-11.4115
此像	-11.4116
春秋五十	-11.4116
中郎	-11.4118
莫非	-11.412
東禪	-11.412
誦彌陀經	-11.4121
拂衣	-11.4126
精修	-11.4126
崇重	-11.4127
一百一十	-11.4127
波羅蜜	-11.4129
世家	-11.413
經營	-11.4135
與俱	-11.4138
普請	-11.4143
含靈	-11.4146
至孝	-11.4146
異乎	-11.4151
金棺	-11.4153
萬二千	-11.4155
萬餘人	-11.4156
致拜	-11.4158
二儀	-11.4159
海印	-11.416
妙果	-11.4161
必欲	-11.4162
方寸	-11.4163
明暗	-11.4167
哀帝	-11.417
一千年	-11.4177
豈容	-11.4178
白黑	-11.4179
文忠	-11.4181
崇福	-11.4181
為沙彌	-11.4184
必死	-11.4188
日本國	-11.4189
崛	-11.419
則不然	-11.4192
優婆夷	-11.4192
弦	-11.4193
璽	-11.4195
置塔	-11.4196
圭	-11.4196
講法華經	-11.4198
悴	-11.4198
臆	-11.4198
椽	-11.4198
憍	-11.4198
曄	-11.4199
趺坐而化	-11.4199
綏	-11.42
蚊	-11.42
泌	-11.4202
撼	-11.4202
鄮	-11.4204
泠	-11.4206
千遍	-11.4206
昶	-11.4206
擲筆	-11.4207
炊	-11.4207
芭蕉	-11.4207
光孝	-11.4209
三十八	-11.421
西蜀	-11.421
六七	-11.4213
貞觀中	-11.4213
璪	-11.4213
宋齊	-11.4214
口授	-11.4215
行狀	-11.4223
將盡	-11.4224
高安	-11.4224
至洛陽	-11.4225
制度	-11.4225
高峯	-11.4228
晉宋	-11.423
座上	-11.4235
須菩提	-11.4235
最上	-11.4236
歸信	-11.4241
幽冥	-11.4244
都盡	-11.4247
達多	-11.4248
必先	-11.425
門戶	-11.4251
當是時	-11.4251
長往	-11.4255
習學	-11.4256
堂內	-11.4256
宗統	-11.4258
善惡之	-11.426
太陽	-11.426
散花	-11.426
香積	-11.4262
大都	-11.4265
嗟乎	-11.4269
五尺	-11.427
心源	-11.427
開目	-11.4279
他方	-11.4279
本迹	-11.4281
萬松	-11.4283
自思惟	-11.4284
以法付	-11.4286
佛滅後	-11.4289
衣物	-11.429
孟軻	-11.429
亥	-11.4294
十方佛	-11.4295
鳩摩羅	-11.4295
建隆	-11.4295
法筵	-11.43
塗炭	-11.43
佚	-11.4301
吏部	-11.4301
縑	-11.4302
鮑	-11.4303
柩	-11.4305
諳	-11.4305
躭	-11.4307
沫	-11.4308
罔措	-11.4308
瀛	-11.4308
闡化	-11.4308
望風	-11.4309
滄海	-11.431
隸	-11.431
竹篦	-11.4311
杏	-11.4311
起坐	-11.4311
崇福寺	-11.4313
莫是	-11.4314
於茲	-11.4317
毘曇	-11.4322
五代	-11.4322
不空三藏	-11.4323
憂惱	-11.4326
不敢違	-11.4328
判官	-11.4329
大雄	-11.4329
歎其	-11.433
誦呪	-11.4331
苦痛	-11.4333
長跪	-11.4333
忻然	-11.4335
車駕	-11.4336
送還	-11.4336
無怠	-11.4337
十念	-11.4338
徐州	-11.4342
謙之	-11.4344
泉云	-11.4347
國內	-11.4349
四十五	-11.4349
五穀	-11.4349
還國	-11.435
更衣	-11.4356
八尺	-11.4356
真乘	-11.4357
夢幻	-11.4359
敢不	-11.4363
等覺	-11.4365
如何得	-11.4365
之侶	-11.4373
開成	-11.4374
德音	-11.4378
特賜	-11.4379
於長安	-11.438
大聖人	-11.4381
遺言	-11.4383
僧房	-11.4385
門前	-11.4387
漳	-11.4388
)【	-11.4393
陛	-11.4399
居民	-11.4403
禪師示寂	-11.4403
智海	-11.4404
獨處	-11.4406
盛行	-11.4406
欄	-11.441
袂	-11.4411
領悟	-11.4411
迦毘羅	-11.4413
聻	-11.4414
祭酒	-11.4415
渙	-11.4416
精嚴	-11.4416
頴川	-11.4417
驪	-11.4417
光武	-11.4418
龍神	-11.442
思禪師	-11.4421
普化	-11.4422
歸向	-11.4423
且喜	-11.4424
可憐	-11.4425
積年	-11.4425
菩提達磨	-11.4426
善業	-11.4428
都講	-11.443
六齋	-11.443
得箇	-11.4432
尺餘	-11.4433
失所在	-11.4436
密語	-11.4436
羣臣	-11.4436
勉之	-11.4437
重罪	-11.444
伯陽	-11.444
還都	-11.4441
波斯	-11.4443
鉢羅	-11.4447
何哉	-11.4449
林木	-11.4451
曾到	-11.4455
五通	-11.4455
泊然	-11.446
齋日	-11.4465
破壞	-11.4466
食訖	-11.4471
神悟	-11.4474
狗子	-11.4475
尊重	-11.4476
太初	-11.4476
自茲	-11.4481
莊宗	-11.4481
作甚麼	-11.4481
甚麼處	-11.4482
其徒曰	-11.4482
李榮	-11.4484
宗即位	-11.4487
楚王	-11.4487
先覺	-11.4488
千聖	-11.449
同侶	-11.4491
善權	-11.4491
并諸	-11.4496
見一僧	-11.4498
汝宜	-11.4499
甚處來	-11.4501
淨戒	-11.4504
歌曰	-11.4508
來謁	-11.4508
教乘	-11.4509
踊躍	-11.451
先德	-11.4511
悞	-11.4513
二載	-11.4514
缽	-11.4514
滄	-11.4515
槐	-11.4516
窠	-11.4518
湫	-11.4518
半日	-11.4519
舂	-11.452
踪	-11.4521
羌	-11.4521
歆	-11.4521
畿	-11.4522
楞嚴經	-11.4523
簫	-11.4523
中書舍人	-11.4523
所述	-11.4524
欻	-11.4524
功德使	-11.4525
雒陽	-11.4525
汝但	-11.4527
嘉靖	-11.4528
不惑	-11.453
數百年	-11.453
三十棒	-11.4532
黃蘗	-11.4533
明達	-11.4534
支遁	-11.4534
觀察使	-11.4536
絕粒	-11.4538
厭世	-11.454
衡州	-11.4541
拈香	-11.4542
無所見	-11.4546
千七百	-11.4547
萬五千	-11.4551
近世	-11.4553
一棒	-11.456
瑕	-11.456
一切諸法	-11.4567
園中	-11.4567
長者子	-11.4568
六十卷	-11.4568
莊王	-11.4569
能誦	-11.457
感動	-11.457
非唯	-11.4571
不畏	-11.4574
那箇是	-11.4574
吾昔	-11.4576
其夕	-11.4578
立塔	-11.4578
波利	-11.4584
頂骨	-11.4586
印土	-11.4587
忠信	-11.459
法侶	-11.4591
有人問	-11.4592
嗣位	-11.4593
參究	-11.4594
驚起	-11.4594
旁出	-11.4596
愛敬	-11.4601
財寶	-11.4605
鉢中	-11.461
卷上	-11.4611
流傳	-11.4611
七里	-11.4612
數尺	-11.4613
含生	-11.4613
江海	-11.4613
凱	-11.462
畫像	-11.462
揣	-11.4621
稼	-11.4621
而已矣	-11.4622
睛	-11.4624
耐	-11.4626
所從來	-11.4627
旃	-11.4628
蛙	-11.4628
逡巡	-11.4629
釜	-11.4629
毳	-11.4629
穿鑿	-11.463
行住坐臥	-11.463
姜斌	-11.463
規矩	-11.4631
赤城	-11.4632
輕慢	-11.4632
訂	-11.4637
瞞	-11.4639
報身	-11.4639
垂拱	-11.464
還京	-11.4643
記莂	-11.4644
悉達	-11.4644
正宗記	-11.4646
修念佛三昧	-11.4646
在甚麼處	-11.4646
宰輔	-11.4647
康居	-11.4648
總是	-11.4651
溈	-11.4657
東明	-11.4658
建初	-11.4658
甘泉	-11.4659
桑門	-11.4659
東門	-11.4661
金剛窟	-11.4664
京都	-11.4667
薩婆	-11.467
奉事	-11.4673
淨住	-11.4675
吳王	-11.4675
一品	-11.4676
要且	-11.4679
居止	-11.4681
新安	-11.4682
待制	-11.4691
臨行	-11.4696
碑文	-11.4699
城邑	-11.47
隆安	-11.4706
勸令	-11.4707
極多	-11.471
大旨	-11.4711
春風	-11.4717
萬歷	-11.4718
不差	-11.4718
一隻	-11.4721
羅山	-11.4723
百年後	-11.4724
忽不見	-11.4724
蓮池	-11.4724
慕道	-11.4728
年代	-11.4728
磧	-11.4729
䞋	-11.473
螢	-11.4733
冏	-11.4734
傭	-11.4735
坎	-11.4735
彪	-11.4737
庖	-11.4737
舉頭	-11.4737
閙	-11.4738
插	-11.4739
髑髏	-11.4739
嬉	-11.474
杓	-11.4741
催	-11.4743
塼	-11.4743
即心即佛	-11.4744
蘄州	-11.4745
淨居天	-11.4746
太極殿	-11.4746
回頭	-11.4749
潤文	-11.475
頃刻	-11.4751
呪術	-11.4751
而弗	-11.4751
次年	-11.4754
隋文帝	-11.4754
俄頃	-11.4755
快樂	-11.4759
風雲	-11.476
有子名	-11.4763
以偈曰	-11.4766
辭歸	-11.4778
嚴飾	-11.4778
忍大師	-11.4779
序云	-11.478
神色	-11.4787
囑曰	-11.4788
昭慶	-11.479
師範	-11.4793
無量壽經	-11.4793
僧叡	-11.4796
庭中	-11.4796
舍衛國	-11.4796
抑亦	-11.4797
攝心	-11.4802
大眾部	-11.4803
建國	-11.4826
乞歸	-11.483
又喝	-11.4835
化物	-11.4837
孔子之	-11.4839
圓寂	-11.4839
禪牀	-11.4839
渝	-11.484
法界觀	-11.4843
麾	-11.4844
峯下	-11.4845
酥	-11.4845
蚩	-11.4846
頰	-11.4847
姻	-11.4848
駁	-11.4849
有異香	-11.4849
貪欲	-11.4851
滕	-11.4851
葷血	-11.4852
坐亡	-11.4853
塔院	-11.4854
而為說法	-11.4854
便禮拜	-11.4854
於言下大悟	-11.4855
法嗣會元	-11.4856
及期	-11.4856
遘疾	-11.4856
金襴	-11.4858
即帝位	-11.4858
罔知	-11.4862
瑞光	-11.4863
昭然	-11.4863
往返	-11.4863
貧窮	-11.4865
不憚	-11.4868
治國	-11.4872
鄭氏	-11.4872
吳中	-11.4875
一百八	-11.4877
輪轉	-11.4879
上京	-11.4879
甞著	-11.4887
後如何	-11.4887
宗杲	-11.4889
辭還	-11.489
列子	-11.4896
治平	-11.4896
分散	-11.4897
法師法嗣	-11.4898
南面	-11.4901
四寸	-11.4901
又問曰	-11.4908
西堂	-11.491
諦觀	-11.4919
尤善	-11.4919
應詔	-11.492
苦空	-11.4933
松江	-11.4934
大抵	-11.4938
至於此	-11.4939
數歲	-11.4939
鶴林	-11.494
普門	-11.4945
妍	-11.495
見阿彌陀佛	-11.4954
蠧	-11.4954
謝安	-11.4955
腫	-11.4956
馥	-11.4957
驥	-11.4957
千二百	-11.4957
豹	-11.4958
揑	-11.4959
袞	-11.4959
敝	-11.4959
官府	-11.4959
拄	-11.4961
堦	-11.4961
不生不滅	-11.4962
德業	-11.4963
梧	-11.4963
甚盛	-11.4963
謠	-11.4963
球	-11.4967
坐道場	-11.4967
壯麗	-11.4968
愕然	-11.497
霖	-11.4972
般舟	-11.4974
海鹽	-11.4977
宗極	-11.498
無上菩提	-11.4988
其所出法嗣一	-11.4989
開演	-11.4989
洞明	-11.4991
香湯	-11.4991
儒家	-11.4991
棄家	-11.4994
為皇太子	-11.4996
巖下	-11.4998
贊寧	-11.5002
華夏	-11.5014
南昌	-11.5015
那羅	-11.5018
異光	-11.5021
親友	-11.5025
不復見	-11.5028
元帥	-11.503
千部	-11.5031
宗仰	-11.5031
祖父	-11.5032
言句	-11.5033
幾時	-11.5042
信敬	-11.5045
婆子	-11.505
參政	-11.5053
懿宗	-11.5055
華頂	-11.5058
表請	-11.506
有什麼	-11.506
冥福	-11.506
院事	-11.5064
無諍	-11.5065
捫	-11.5065
石函	-11.507
憍陳如	-11.507
范陽	-11.5074
蝦	-11.5075
中書侍郎	-11.5076
碓	-11.5077
瑀	-11.5077
法苑珠林	-11.5077
跏趺而逝	-11.5078
繕寫	-11.5079
所以者何	-11.508
眸	-11.5082
蒲州	-11.5085
據此	-11.5085
禪室	-11.5087
嵩嶽	-11.5087
珪曰	-11.509
6	-11.5091
于闐國	-11.5091
上堂云	-11.5095
宮室	-11.5095
勘破	-11.5099
託生	-11.51
應對	-11.51
碩德	-11.5105
乘馬	-11.5107
福嚴	-11.5109
俯仰	-11.5111
友人	-11.5111
檀施	-11.5117
含笑	-11.5118
八戒	-11.512
遺身	-11.5122
形神	-11.5122
一毛	-11.5123
脫去	-11.5125
初禪	-11.5126
戒賢	-11.5127
石城	-11.513
周遍	-11.5131
不拘	-11.5131
百川	-11.5134
銅像	-11.5136
虛妄	-11.5137
原夫	-11.5139
方圓	-11.5141
來至此	-11.5142
深淺	-11.5145
致遠	-11.5147
平陽	-11.5153
六部	-11.5156
初夜	-11.5157
九重	-11.5163
雁門	-11.5167
普光	-11.5172
上乘	-11.5172
矛	-11.518
年登	-11.5181
并答	-11.5182
懌	-11.5183
往生淨土	-11.5184
戒德	-11.5186
嚴淨	-11.5186
福慧	-11.5186
薩埵	-11.5186
曙	-11.5187
像一軀	-11.5187
耄	-11.5188
慳	-11.5189
負笈	-11.5189
火化	-11.519
耗	-11.519
貺	-11.519
迎請	-11.5191
宿緣	-11.5192
勅旨	-11.5192
珂	-11.5192
禪客	-11.5195
如何是祖師西來意	-11.5195
正法眼	-11.5195
南郊	-11.5195
嚫	-11.5196
蹋	-11.5196
罷翁	-11.5197
初謁	-11.5199
一百卷	-11.5201
合掌而逝	-11.5201
如是如是	-11.5201
般若多羅	-11.5201
離生死	-11.5202
嬰兒	-11.5203
周昭王	-11.5205
師云我	-11.5205
怤	-11.5206
誰是	-11.5207
猛虎	-11.5214
武后	-11.5216
應化	-11.5217
面壁	-11.5217
斯須	-11.5217
得否	-11.522
改名	-11.5222
隆興	-11.5225
太康	-11.5227
獨立	-11.5228
三十三天	-11.523
臨壇	-11.5232
離苦	-11.5235
聞聲	-11.5237
舍衛	-11.5237
康王	-11.5238
三十人	-11.5239
者多矣	-11.5241
固請	-11.5241
文皇帝	-11.5241
鄴下	-11.5242
庵主	-11.525
經四卷	-11.5251
親臨	-11.5251
七歲出家	-11.5253
貞明	-11.5255
佛圖	-11.5258
甚嚴	-11.5258
佛鑑	-11.526
同遊	-11.5261
最高	-11.5266
禪寂	-11.5267
兩箇	-11.5267
世諦	-11.5273
海會	-11.5274
庶子	-11.5275
言笑	-11.5277
邊事	-11.5278
金光明經	-11.5279
試經	-11.5286
驚覺	-11.529
者是也	-11.529
信宿	-11.5291
未暇	-11.5292
庚	-11.5294
脅	-11.5296
出世法	-11.5298
浮雲	-11.5299
艶	-11.5301
譴	-11.5301
劃	-11.5303
六十年	-11.5303
寘	-11.5304
寶唱	-11.5306
噓	-11.5306
寺側	-11.5307
伏惟陛下	-11.5307
倩	-11.5307
尖	-11.5308
緡	-11.5308
顧問	-11.5308
專修淨業	-11.5309
垂手	-11.5309
筏	-11.5309
覷	-11.5309
鵬	-11.5309
箋	-11.5309
禮足	-11.531
閉戶	-11.5312
漉	-11.5312
金剛智	-11.5315
潤州	-11.5318
孔丘	-11.532
乾祐	-11.5321
百千萬億	-11.5321
留守	-11.5325
五百里	-11.5328
南史	-11.5328
感夢	-11.5328
相率	-11.5328
熏修	-11.533
慧覺	-11.533
二寸	-11.5331
解衣	-11.5334
勝地	-11.5335
以師禮	-11.5338
眉間	-11.5339
十六卷	-11.534
我慢	-11.534
昇天	-11.5346
白王言	-11.5347
柰何	-11.535
掘地	-11.5352
性好	-11.5355
具載	-11.5355
施設	-11.5359
隱隱	-11.5359
熟視	-11.5361
寧可	-11.5365
坦然	-11.5366
牛頭山	-11.5367
捨家	-11.5368
何獨	-11.5368
四十卷	-11.5371
弘通	-11.5378
凡百	-11.5383
張氏子	-11.5384
弟子慧	-11.5387
接物	-11.5388
尊貴	-11.5393
梓州	-11.5394
僧錄司	-11.5394
長興	-11.5395
林野	-11.5396
中天竺國	-11.5398
百氏	-11.54
王氏子	-11.5403
牟	-11.5404
字仲	-11.5405
卯	-11.541
蔓	-11.5416
黍	-11.5416
紆	-11.5417
預知	-11.5417
弛	-11.5419
帔	-11.542
壅	-11.542
鼈	-11.542
檻	-11.5421
陂	-11.5422
蹇	-11.5424
䆳	-11.5424
憍慢	-11.5425
向汝道	-11.5425
糠	-11.5426
具述	-11.5426
鳳凰	-11.5427
瑛	-11.5428
本源	-11.5428
毗盧	-11.5429
那爛陀寺	-11.5429
睡眠	-11.543
掌中	-11.543
以拄杖	-11.5431
嘔	-11.5431
親屬	-11.5431
飛空	-11.5434
每夜	-11.5438
麻谷	-11.5438
傅大士	-11.5439
紛紛	-11.5442
龍翔	-11.5443
婆沙	-11.5447
年號	-11.5447
移住	-11.5448
晦迹	-11.5449
骨肉	-11.545
隻履	-11.545
自然之	-11.5451
主簿	-11.5454
九旬	-11.5457
五百羅漢	-11.5459
辛苦	-11.546
宰臣	-11.5461
死屍	-11.5462
北禪	-11.5464
謹啟	-11.5464
之儔	-11.5464
西遊	-11.5466
殿宇	-11.5469
執筆	-11.5469
聞天樂	-11.547
滿月	-11.5471
十一卷	-11.5473
方外之	-11.5475
年十一	-11.5477
右僕射	-11.5478
功臣	-11.5482
宋太祖	-11.5484
姓張氏	-11.5487
志存	-11.5489
武陵	-11.5489
戶外	-11.5494
利養	-11.5494
兩目	-11.5496
宿世	-11.5504
閻王	-11.5506
供僧	-11.5509
衲衣	-11.551
末代	-11.5519
三百年	-11.5519
救苦	-11.5522
千金	-11.5535
褰	-11.5535
黃門侍郎	-11.5538
訾	-11.5539
沂	-11.5539
室利	-11.5539
圈	-11.5539
南華	-11.554
與道士	-11.554
叨	-11.5541
鐺	-11.5542
按唐書	-11.5542
兜	-11.5542
璿	-11.5542
鑊湯	-11.5543
知歸子	-11.5543
丱	-11.5545
嚙	-11.5545
彬	-11.5545
諂	-11.5546
奯	-11.5546
亢旱	-11.5547
衣裳	-11.5547
內翰	-11.5547
淘	-11.5549
說話	-11.5549
受記	-11.555
斑	-11.555
豐干	-11.5551
京輦	-11.5552
溈仰	-11.5554
呵呵大笑	-11.5557
低頭	-11.5558
十方世界	-11.5558
齋僧	-11.5559
到這裏	-11.5561
普賢菩薩	-11.5561
虗席	-11.5563
悔謝	-11.5567
十二因緣	-11.5571
醴泉	-11.5571
治世	-11.5572
得須陀洹	-11.5573
中途	-11.5574
洞然	-11.5576
指揮	-11.5579
皇祐	-11.5579
寰中	-11.5583
熾然	-11.5586
家風	-11.5587
數十萬	-11.5588
性命之	-11.5593
幽谷	-11.5593
顏子	-11.5597
不允	-11.5597
學侶	-11.5603
草菴	-11.5612
淨土法門	-11.5615
執持	-11.5615
爭得	-11.562
五岳	-11.5621
咸共	-11.5624
捨命	-11.5627
賜謚	-11.563
稍長	-11.5634
況乎	-11.5636
甞謂	-11.5636
之始也	-11.564
凡情	-11.564
觀自在菩薩	-11.565
相違	-11.5651
廣濟	-11.5651
趙郡	-11.5651
饉	-11.5654
提婆達多	-11.5655
爻	-11.5657
纘	-11.5657
閤	-11.5659
忉利	-11.5659
事迹	-11.566
俛	-11.5661
尅	-11.5661
倪	-11.5661
壁間	-11.5662
鵠	-11.5663
佛祖綱目	-11.5663
豈復	-11.5664
各異	-11.5664
滅罪	-11.5665
牖	-11.5665
窗	-11.5666
異哉	-11.5667
钁	-11.5667
榆	-11.5667
軾	-11.5667
彚	-11.5669
亢	-11.567
宣政院	-11.567
燦	-11.5671
國王大臣	-11.5674
入冥	-11.5674
」「	-11.5676
眉毛	-11.5678
悶絕	-11.5682
魏主	-11.5684
萬由旬	-11.569
唐虞	-11.5691
研精	-11.5692
溈云	-11.5692
喜怒	-11.5694
辭別	-11.5694
宣譯	-11.5698
英宗	-11.5698
終身不	-11.5705
武昌	-11.5706
持佛名	-11.5707
這漢	-11.5709
平復	-11.571
保壽	-11.572
之咎	-11.5723
奧義	-11.5726
恒河	-11.5726
遺迹	-11.5727
八千	-11.573
石柱	-11.573
遍歷	-11.5734
我輩	-11.5736
尊勝	-11.5737
改正	-11.5738
寶誌	-11.5738
執侍	-11.5741
念觀世音	-11.5743
玄奧	-11.5751
數千人	-11.5752
陳氏子	-11.5759
無限	-11.5759
驚問	-11.5764
東遊	-11.5766
勅謚	-11.5769
月二十五日	-11.5771
進修	-11.5772
十有八	-11.5774
不畜	-11.5774
鄭州	-11.5775
士民	-11.5775
新到	-11.5776
膩	-11.5777
子厚	-11.5777
詶	-11.5779
貞觀初	-11.578
渡河	-11.578
帷	-11.5781
帝諱	-11.5783
詹	-11.5783
哺	-11.5784
耻	-11.5785
報佛恩	-11.5785
康熈	-11.5785
教外別傳	-11.5786
巔	-11.5786
不退轉	-11.5786
驚喜	-11.5786
循環	-11.5787
刈	-11.5787
蓮經	-11.5788
燋	-11.5788
迢	-11.579
颺	-11.579
縉雲	-11.5792
修功德	-11.5794
蹤跡	-11.5794
汝等諸人	-11.5795
呈偈曰	-11.5796
苕	-11.5796
領解	-11.5797
江浙	-11.5801
撫掌	-11.5802
優波離	-11.5803
諸大德	-11.5803
耆宿	-11.5804
旨趣	-11.5804
吳江	-11.5811
徒侶	-11.5814
資聖	-11.5823
驚歎	-11.5829
虎溪	-11.5831
臥疾	-11.5837
數十年	-11.5838
五篇	-11.5843
容止	-11.5843
休息	-11.5844
江寧	-11.585
遍參	-11.5852
神武	-11.5856
永絕	-11.5863
淳化	-11.5863
友善	-11.5866
公私	-11.5876
剎利	-11.5876
何以知	-11.5886
窟中	-11.5887
諸根	-11.5888
十丈	-11.5893
上根	-11.5895
承風	-11.59
告弟子	-11.5902
瑾	-11.5904
唐史	-11.5904
翱	-11.5904
㳂	-11.5906
孜孜	-11.5906
頔	-11.5907
陌	-11.5907
鶴勒那	-11.5907
釋迦文	-11.5907
湘東王	-11.5908
砌	-11.5909
可得聞乎	-11.5909
阿耨多羅三藐三菩提	-11.591
奴婢	-11.591
摭	-11.5911
瓦官	-11.5911
吐蕃	-11.5912
荼毘	-11.5912
牓	-11.5912
羶	-11.5912
擕	-11.5913
兩儀	-11.5913
締	-11.5915
籬	-11.5916
森羅	-11.5917
萇	-11.5918
禪那	-11.5918
白虹	-11.5921
秘密	-11.5924
紫雲	-11.5925
十三卷	-11.593
清信士	-11.5931
委曲	-11.5931
敷揚	-11.5931
疑惑	-11.5932
義熈	-11.5935
丈許	-11.5936
在茲	-11.5939
弘護	-11.5941
夙夜	-11.5946
青蓮華	-11.5946
國界	-11.5952
棲止	-11.5955
若有人	-11.5957
靈塔	-11.5957
里許	-11.5961
氣序	-11.5963
寶座	-11.5965
歷歷	-11.5973
亦如之	-11.5973
自焚	-11.5975
佛骨	-11.5977
尤多	-11.5977
達旦	-11.598
金城	-11.5986
頷之	-11.5986
月二十四日	-11.5988
姓李氏	-11.599
頗多	-11.599
東平	-11.5994
誦華嚴	-11.6001
陳郡	-11.6004
好惡	-11.6008
木石	-11.6008
仁王經	-11.601
專念	-11.6012
徒勞	-11.6012
歷劫	-11.6017
全真	-11.6021
九十日	-11.6025
全體	-11.6026
縉	-11.6026
妙旨	-11.6028
䂮	-11.6029
冉	-11.6031
懸記	-11.6032
追福	-11.6032
陀國	-11.6032
搢紳	-11.6032
釋提桓因	-11.6033
謂門人曰	-11.6033
暄	-11.6034
殿庭	-11.6036
一轉語	-11.6036
以是因緣	-11.6036
躄	-11.6037
摹	-11.6037
煦	-11.6038
沙界	-11.6038
平居	-11.6038
比邱	-11.6039
檄	-11.6039
雋	-11.604
贄	-11.604
不載按	-11.604
眼睛	-11.604
智者大師	-11.6041
無為之	-11.6041
所害	-11.6044
商英	-11.6045
仰視	-11.6047
得阿羅漢果	-11.6048
蕭然	-11.6055
河沙	-11.6055
北斗	-11.6055
夜分	-11.6057
魏晉	-11.6057
活計	-11.6059
平江	-11.6062
齊永明	-11.6062
殊途	-11.6062
寶覺	-11.6063
境內	-11.6067
春秋八十有	-11.6073
衢州	-11.6076
靜慮	-11.6078
門庭	-11.6078
儒教	-11.6082
都邑	-11.6084
墮落	-11.6086
佛所說	-11.6087
辨才	-11.6091
頓漸	-11.6092
暴風	-11.6095
三匝	-11.6098
表裏	-11.6099
意識	-11.6099
法苑	-11.61
別駕	-11.6105
壽春	-11.6108
閉門	-11.611
未敢	-11.6116
老婆	-11.6119
正殿	-11.6121
諸經論	-11.6121
周武帝	-11.6129
釋迦文佛	-11.6134
供具	-11.6136
埃	-11.6145
濟物	-11.6146
五味	-11.6152
讐	-11.6152
察其	-11.6154
捶	-11.6154
愷	-11.6154
寂寞	-11.6158
纖毫	-11.6158
圓教	-11.6158
有異僧	-11.6158
舟航	-11.6159
譖	-11.6159
慄	-11.6159
鯨	-11.616
軻	-11.6161
莒	-11.6162
鳩那羅	-11.6162
學小乘	-11.6163
髫	-11.6163
見文殊	-11.6164
岷	-11.6164
鏗	-11.6165
硬	-11.6165
設食	-11.6165
賞罰	-11.6165
放生池	-11.6166
蘇軾	-11.6169
面門	-11.6169
摩偷羅國	-11.617
救世	-11.617
由斯	-11.6173
白淨王	-11.6173
荷澤	-11.6174
十有餘	-11.6174
月二十九日	-11.6178
天台教觀	-11.6185
入禁中	-11.6186
雲門偃	-11.6187
何謂也	-11.6191
豈止	-11.6194
弘闡	-11.6195
悚然	-11.6196
龍牙	-11.62
竭誠	-11.6203
百餘步	-11.6203
承旨	-11.6206
終不能	-11.6208
匡山	-11.6208
延祐	-11.6208
長丈餘	-11.621
宣武	-11.6211
帝即位	-11.6216
永和	-11.6217
曰不會	-11.6217
車馬	-11.6219
虛空中	-11.622
隋末	-11.6222
南平	-11.6225
祕書	-11.6226
治天下	-11.6226
靜坐	-11.6228
假使	-11.6235
暮年	-11.6235
十五里	-11.6235
三十三年	-11.6236
偽經	-11.6237
問道於	-11.6239
三百餘里	-11.6244
老母	-11.6245
僧無語	-11.6245
諸佛菩薩	-11.625
歎息	-11.626
鹿門	-11.626
釋老	-11.6266
靈跡	-11.6272
六趣	-11.6272
秋八月	-11.6274
萬數	-11.6275
師子座	-11.6276
李氏子	-11.6277
豈獨	-11.6279
氛	-11.6282
潦	-11.6282
弁	-11.6285
褥	-11.6285
痾	-11.6285
嵐	-11.6288
蠅	-11.6288
忠懿王	-11.629
不茹葷	-11.629
高陽	-11.629
葦	-11.629
妊	-11.629
十二時中	-11.6291
藥叉	-11.6291
黔	-11.6291
康僧會	-11.6291
耶輸陀羅	-11.6292
龍圖	-11.6292
閃	-11.6292
喆	-11.6292
決擇	-11.6292
縻	-11.6292
床上	-11.6293
寶冠	-11.6295
披剃	-11.6295
菩提心	-11.6295
言訖而逝	-11.6295
腹中	-11.6296
嵬	-11.6296
棟宇	-11.6296
衡岳	-11.6298
逍遙園	-11.6299
伊尹	-11.63
拾遺	-11.63
孫綽	-11.63
淳熙	-11.63
溈山喆云	-11.6306
梁天監	-11.6307
十有二	-11.6311
隋大業	-11.6312
形服	-11.6313
不踰	-11.6313
分布	-11.6314
形色	-11.6315
談笑	-11.6332
天帝釋	-11.6342
童女	-11.6346
此偈	-11.6347
清涼山	-11.6353
西川	-11.6353
業障	-11.6354
智顗	-11.6355
玄素	-11.6356
起信論	-11.6356
武平	-11.6357
點頭	-11.6357
各一卷	-11.6358
祖述	-11.6359
念彌陀	-11.636
夢梵僧	-11.6362
江河	-11.6364
恭帝	-11.6365
詔迎	-11.6369
光宅寺	-11.637
城郭	-11.6374
姓李	-11.6376
厲聲曰	-11.6378
雖殊	-11.6383
娛	-11.6384
瑞巖	-11.6385
勸化	-11.6388
法鼓	-11.6395
行頭陀	-11.6396
往視之	-11.6396
入大藏	-11.6399
智度	-11.6403
鏡清	-11.6406
戒品	-11.6408
袴	-11.6408
燧	-11.6408
闍夜多	-11.6411
脛	-11.6411
窘	-11.6412
鳧	-11.6413
善誘	-11.6414
疑情	-11.6415
洛州	-11.6415
儕	-11.6418
祖示寂	-11.6419
崗	-11.642
淳熈	-11.642
二年三月	-11.642
撝	-11.6421
煌	-11.6421
謔	-11.6421
蠡	-11.6422
莾	-11.6424
瀑布	-11.6424
舊唐史	-11.6424
文昌	-11.6424
峨眉	-11.6425
霹	-11.6426
末後句	-11.6427
西魏	-11.6427
往謁	-11.6428
柔軟	-11.6429
庾信	-11.643
露柱	-11.6432
感通錄	-11.6436
元和中	-11.6437
五種	-11.6437
一段	-11.6438
彌篤	-11.6439
七載	-11.6441
□□□	-11.6442
歎未曾有	-11.6442
九十九	-11.6443
汗流	-11.6446
常誦法華	-11.645
兩京	-11.6452
根器	-11.6453
為汝說	-11.6453
卷第三	-11.6456
創寺	-11.6456
孫權	-11.6458
俱舍論	-11.6458
五百餘里	-11.6458
淨瓶	-11.6459
祇洹	-11.6462
一粒	-11.6464
澧州	-11.6469
唱導	-11.6469
順化	-11.649
於佛前	-11.6492
資給	-11.6493
慈忍	-11.6497
善巧	-11.6499
三諦	-11.6499
東魏	-11.6506
移居	-11.6509
五峯	-11.6509
象馬	-11.6511
宿習	-11.6512
陽縣	-11.6515
千百	-11.6516
太學	-11.6518
國大都城	-11.652
說法要	-11.6529
存亡	-11.6533
彌勒菩薩	-11.6535
威力	-11.6541
蓬萊	-11.6543
卉	-11.6547
芽	-11.655
百部	-11.655
重瞳	-11.6552
涵	-11.6553
章疏	-11.6553
善哉善哉	-11.6555
慙	-11.6555
緊	-11.6555
拖	-11.6557
白㲲	-11.6558
紇	-11.6559
姓陳氏	-11.6563
東林寺	-11.6564
摧伏	-11.6565
璽書	-11.6567
遞相	-11.6569
卷第四	-11.6569
翠微	-11.6569
熙寧	-11.6572
哀愍	-11.6572
丹青	-11.6575
塵垢	-11.6577
暴亡	-11.6581
八萬四千塔	-11.6582
沙門釋法	-11.6589
至佛所	-11.659
乾寧	-11.659
上虞	-11.6594
師子尊者	-11.6598
五十里	-11.6602
與麼道	-11.6602
仁慈	-11.6608
剪髮	-11.661
南㵎	-11.661
季龍	-11.6611
暴死	-11.6611
謚文	-11.6613
入長安	-11.6616
福報	-11.6618
靜室	-11.6619
夫妻	-11.662
臘三十	-11.6621
石勒	-11.6623
薦福寺	-11.6624
留連	-11.6626
顧謂	-11.6633
姓王氏	-11.6634
福利	-11.6635
百千萬	-11.6636
豈敢	-11.6639
臣民	-11.6644
敢問	-11.6648
諸郡	-11.6652
十有五	-11.6653
尤甚	-11.6657
稼穡	-11.6658
旽	-11.6658
冥官	-11.6661
得生天	-11.6665
勿復	-11.6668
騫	-11.6673
蹄	-11.6677
不能動	-11.6677
泚	-11.6678
遘	-11.668
殉	-11.668
粮	-11.6682
𨤲	-11.6682
長沙寺	-11.6684
毒龍	-11.6685
荐	-11.6685
諸軍事	-11.6685
大愛道	-11.6686
灰燼	-11.6686
提多迦	-11.6687
有梵僧	-11.6688
長干寺	-11.669
晶	-11.6691
茗	-11.6692
楊傑	-11.6692
聶	-11.6692
曠野	-11.6694
圭峯	-11.6694
鄂州	-11.6696
熾盛	-11.6696
貌如生	-11.6699
詳定	-11.6703
安樂行	-11.6708
尸利	-11.6716
跪拜	-11.6717
立誓	-11.6718
官吏	-11.6719
神農	-11.672
步步	-11.6721
奇異	-11.6722
首尾	-11.6722
神祇	-11.6726
經十卷	-11.6728
曾孫	-11.6732
間斷	-11.6736
玄奘法師	-11.6738
毛孔	-11.6739
名之為	-11.674
王之子	-11.6743
血流	-11.6746
咸陽	-11.6747
秀才	-11.6748
大莊嚴寺	-11.6749
外典	-11.6752
十餘丈	-11.6754
釋迦牟尼佛	-11.6754
霍山	-11.6754
昊天	-11.6756
數十里	-11.6758
聲震	-11.6759
一百三十	-11.6762
浙江	-11.6773
》、《	-11.6781
投機	-11.6783
毘舍	-11.6791
疾苦	-11.6793
一顆	-11.6794
房內	-11.6795
把住	-11.6796
得成佛	-11.6799
師示眾云	-11.6809
導引	-11.681
童真	-11.6813
祉	-11.6814
航	-11.6815
樓炭	-11.6815
巽	-11.6816
筮	-11.6817
一曰福州	-11.6817
跛	-11.6818
蕩蕩	-11.6818
劉遺民	-11.6818
翛然	-11.6819
舫	-11.682
滔	-11.682
筒	-11.6821
竟陵王	-11.6821
猜	-11.6821
㝢	-11.6821
彌遮迦	-11.6822
菩提流支	-11.6823
員外郎	-11.6823
階級	-11.6824
求哀	-11.6825
柳子厚	-11.6825
韶國師	-11.6826
繢	-11.6826
其辭曰	-11.6827
使持節	-11.6827
樓觀	-11.6828
鐵輪	-11.6828
籃	-11.6828
筯	-11.6829
屈膝	-11.6829
鵞	-11.683
咸亨	-11.683
舍那婆私	-11.683
維摩詰	-11.6831
第十三	-11.6832
無量劫	-11.6834
言訖不見	-11.6834
雙徑	-11.6835
歲餘	-11.6836
笈多	-11.6837
一心念佛	-11.6838
忠國師	-11.6843
乘輿	-11.6843
塵埃	-11.6844
徧歷	-11.6851
為大僧	-11.686
僧臘五十	-11.6862
赫然	-11.6863
陜西	-11.6865
在這裏	-11.6868
勞苦	-11.6868
了了	-11.6869
懷抱	-11.6871
慈濟	-11.6874
玉京	-11.6876
惑亂	-11.6876
難測	-11.6877
宋文帝	-11.6879
日暮	-11.6883
掃地	-11.6884
靈祐	-11.6889
遺風	-11.6891
名剎	-11.6892
疏記	-11.6893
乃歎曰	-11.6906
溫公	-11.6908
結菴	-11.6909
消滅	-11.691
三層	-11.6918
嘉州	-11.692
楊枝	-11.692
花嚴	-11.6923
飄然	-11.6926
清虗	-11.6933
遍滿	-11.694
泉石	-11.694
堤	-11.6941
凜	-11.6942
鐘聲	-11.6943
大阿羅漢	-11.6946
誹謗	-11.6949
詔入內	-11.695
酋	-11.6951
工部	-11.6951
廻	-11.6952
刳	-11.6952
胃	-11.6953
鍵	-11.6954
晷	-11.6954
閬	-11.6954
歐	-11.6956
鹵	-11.6956
楮	-11.6957
行七步	-11.6957
訃	-11.6958
悛	-11.6959
酧	-11.696
叵	-11.6961
執弟子禮	-11.6961
光祿大夫	-11.6961
劉向	-11.6962
伽陀	-11.6964
盧舍那	-11.6967
雪竇顯	-11.6967
奔赴	-11.6969
飲光	-11.6975
奧旨	-11.6977
七月十五日	-11.6978
粥飯	-11.698
居第一座	-11.698
阿恕伽王	-11.698
經同本別譯異名	-11.6985
許詢	-11.6988
頂門	-11.6993
拈出	-11.6993
開闢	-11.6995
竊聞	-11.6996
無辜	-11.7002
麻衣	-11.7003
頴悟	-11.7004
摩訶般若	-11.7007
泰始	-11.701
黃冠	-11.7016
回顧	-11.7017
所不及	-11.7019
入三昧	-11.7024
偶然	-11.703
怪問	-11.703
遣弟子	-11.7034
討論	-11.7035
并序	-11.7036
動搖	-11.7041
永劫	-11.7042
貪著	-11.7044
寓居	-11.7047
冥司	-11.7048
盧氏	-11.7051
三十萬	-11.7053
祇洹寺	-11.7054
絕塵	-11.7054
慶壽	-11.7059
南天竺國	-11.7066
西印度	-11.7067
威靈	-11.7067
機辯	-11.7069
元徽	-11.707
近代	-11.7076
氣息	-11.7081
未決	-11.7081
根源	-11.7082
十萬偈	-11.7082
餧	-11.7085
第二子	-11.7086
剎帝利	-11.7086
巖谷	-11.7088
新羅國	-11.7089
軒轅	-11.709
擘	-11.709
羹	-11.7091
逵	-11.7091
五體投地	-11.7092
橘	-11.7093
霈	-11.7093
繩牀	-11.7093
一千五百	-11.7093
擡	-11.7094
鉗	-11.7096
玷	-11.7096
冥報記	-11.7096
楫	-11.7099
帚	-11.7099
伎倆	-11.71
荊棘	-11.71
冠冕	-11.71
優波	-11.71
趺坐而逝	-11.71
端拱	-11.7101
瘂	-11.7102
博達	-11.7103
左街	-11.7103
殺戮	-11.7103
伏牛	-11.7103
般泥洹	-11.7106
異迹	-11.7108
塵劫	-11.7109
剃頭	-11.711
航海	-11.711
崛多	-11.7111
豈直	-11.7111
末田地	-11.7111
龐居士	-11.7111
一莖	-11.7112
學大乘	-11.7112
稱佛號	-11.7112
鷲峯	-11.7117
頭面	-11.7118
遍照	-11.7122
致仕	-11.7122
博覽	-11.7123
棲心	-11.7124
吾滅後	-11.7125
即不然	-11.7125
赴闕	-11.7125
舌根	-11.7129
香林	-11.7129
從何而	-11.7133
忽有一	-11.7134
君臨	-11.7135
魏太武	-11.7137
秦州	-11.7138
漳州	-11.7139
嘉慶	-11.7139
佛入涅槃	-11.7141
老翁	-11.7143
拜伏	-11.7144
孝廉	-11.7146
山之陽	-11.715
雷雨	-11.7155
汗下	-11.7155
尼乾	-11.7157
結庵	-11.7158
驚駭	-11.7159
刑部	-11.7161
清規	-11.7163
玄暢	-11.7167
納衣	-11.7185
張陵	-11.7186
降雨	-11.719
因循	-11.7197
談玄	-11.7209
泰定	-11.7212
相謂曰	-11.7214
詈	-11.7228
說一切有部	-11.7229
傳於世	-11.723
撿挍	-11.723
千由旬	-11.7231
狥	-11.7231
蹙	-11.7232
粘	-11.7233
秤	-11.7233
蒞	-11.7234
攢	-11.7235
椿	-11.7235
壽終	-11.7236
蛻	-11.7236
召對	-11.7236
頵	-11.7236
劾	-11.7237
四十二章經	-11.7238
壹	-11.7238
虬	-11.7238
鳥窠	-11.7239
伽羅	-11.7241
廬阜	-11.7242
興隆	-11.7242
蕭衍	-11.7243
聽習	-11.7244
屠兒	-11.7245
祝融	-11.7246
尊敬	-11.7247
熈寧	-11.7248
索筆	-11.7255
羽儀	-11.7255
簡文帝	-11.7257
陵遲	-11.7257
譙王	-11.7262
表一首	-11.7263
小品	-11.7268
仰惟	-11.7271
提唱	-11.7272
商那	-11.7272
如之何	-11.7272
塵俗	-11.7274
輪回	-11.7278
地震	-11.7285
身毒	-11.7286
上座部	-11.7297
松源	-11.7298
五十餘年	-11.7299
喪亂	-11.7299
報恩寺	-11.7299
千有餘	-11.7307
娛樂	-11.7315
城東南	-11.7328
甚厚	-11.7339
華夷	-11.734
一切諸佛	-11.7345
容易	-11.735
普寂	-11.7354
磐	-11.7354
勅賜	-11.7357
出家受具	-11.7365
入內殿	-11.7366
高百餘尺	-11.7366
道德經	-11.7369
餒	-11.7369
洩	-11.7372
八十卷	-11.7372
串	-11.7372
滓	-11.7373
鞍	-11.7374
五逆	-11.7374
珉	-11.7375
訢	-11.7376
摛	-11.7376
揩	-11.7377
林靈素	-11.7377
蹶	-11.7378
躋	-11.7378
虎豹	-11.7379
闥	-11.738
廊廡	-11.738
𡉏	-11.7381
綬	-11.7381
眄	-11.7381
摩突羅國	-11.7382
蠕	-11.7382
燬	-11.7382
松柏	-11.7382
年二十五	-11.7383
棟梁	-11.7383
目視	-11.7387
跋陀羅	-11.7388
喫棒	-11.7392
補陀	-11.7402
散亂	-11.7409
白雲端	-11.7411
五祖戒	-11.7412
早晚	-11.7412
東掖	-11.7413
智度論	-11.7414
符契	-11.7415
具威儀	-11.7418
偕行	-11.7419
鐵牛	-11.7421
宗派	-11.7422
百六十	-11.7425
排佛	-11.7433
此云覺	-11.7438
反覆	-11.744
金剛座	-11.7442
鄴城	-11.7444
遺跡	-11.7444
法幢	-11.7446
哲宗	-11.7449
特進	-11.745
揚都	-11.7453
事作麼生	-11.7458
作舞	-11.7465
迎接	-11.7468
宏智	-11.748
紹聖	-11.7483
就座	-11.7491
燈燭	-11.7492
牟子	-11.7495
殿堂	-11.7505
萬回	-11.7506
惡鬼	-11.751
甘蔗	-11.751
穌	-11.7511
酉	-11.7514
囿	-11.7518
髠	-11.7519
冢	-11.7519
堯封潛曰	-11.7519
鄭公	-11.752
駄	-11.752
旋繞	-11.752
閭里	-11.7521
俠	-11.7522
璩	-11.7522
惋	-11.7522
恍惚	-11.7523
塟	-11.7523
稿	-11.7523
膜拜	-11.7523
奸	-11.7524
滂	-11.7524
梵唄	-11.7525
冡	-11.7525
御史中丞	-11.7525
榛	-11.7526
奮迅	-11.7526
靖康	-11.7526
嘻	-11.7527
摩耶夫人	-11.7527
潑	-11.7527
朋友	-11.7529
大中祥符	-11.753
牟尼	-11.753
疇昔	-11.7531
迦維	-11.7531
螺溪	-11.7533
咨決	-11.7533
卷第五	-11.7534
桃花	-11.7534
忽然不見	-11.7536
角干	-11.754
祇園	-11.7542
劉曜	-11.7543
文殊普賢	-11.7546
冬十一月	-11.7547
子貢	-11.7547
乾符	-11.7548
掩關	-11.7549
袁州	-11.7549
▁第二十	-11.7552
西方聖人	-11.7553
求生淨土	-11.7558
緇白	-11.7558
虗妄	-11.756
令侍者	-11.7563
噉食	-11.7564
願陛下	-11.7565
太保	-11.7569
孝武帝	-11.7571
與同學	-11.7581
巡禮	-11.7581
九峯	-11.7586
楞伽經	-11.7587
龍飛	-11.7587
無色界	-11.7587
彌勒像	-11.7588
脫衣	-11.7589
迄于	-11.7589
何妨	-11.759
變易	-11.759
扶持	-11.7594
少選	-11.7594
萬七千	-11.7595
叔父	-11.7597
奘法師	-11.7599
般若心經	-11.7603
俗諦	-11.7613
歎服	-11.7623
利根	-11.7624
浩然	-11.7629
茨	-11.7636
朕意	-11.7638
七廟	-11.764
年七歲	-11.7641
修梵行	-11.7643
投誠	-11.7644
浙西	-11.7645
鄔	-11.7652
璹	-11.7654
萱	-11.7655
真際	-11.7656
注解	-11.7658
遼東	-11.7659
東臺	-11.7659
西涼	-11.766
講華嚴經	-11.766
聞鐘聲	-11.766
靴	-11.7661
誰敢	-11.7661
􂌞	-11.7661
樂邦文類	-11.7662
孑	-11.7663
髦	-11.7663
遊京師	-11.7663
燥	-11.7664
樹木	-11.7664
顏延之	-11.7665
睠	-11.7666
咫尺	-11.7667
一千二百	-11.7668
吊	-11.7668
弋	-11.7669
笥	-11.7669
屣	-11.767
郝	-11.7671
閭丘	-11.7671
騷	-11.7672
佛滅度後	-11.7672
肢	-11.7672
吏部尚書	-11.7672
莞	-11.7673
鍛	-11.7673
徤	-11.7674
嬈	-11.7674
紋	-11.7675
卍	-11.7676
愔	-11.7676
𤀹	-11.7676
月氏國	-11.7676
童稚	-11.7678
浩浩	-11.7678
毫髮	-11.7679
眺	-11.7679
鑽仰	-11.7679
摶	-11.768
中書省	-11.768
拓跋	-11.7681
翰墨	-11.7682
棲霞	-11.7683
聲振	-11.7683
大雲寺	-11.7684
誑惑	-11.7684
快活	-11.7684
僧伽黎	-11.7685
東印度	-11.7685
勝光寺	-11.7686
飛錫	-11.7689
擊鼓	-11.7692
拈花	-11.7693
建鄴	-11.7697
結壇	-11.7709
不可測	-11.7713
祕藏	-11.7719
黃金色	-11.7723
厭惡	-11.7728
六寸	-11.7737
染衣	-11.7738
總統	-11.7739
倍加	-11.7739
擬對	-11.774
族姓	-11.7748
梁肅	-11.7751
寫法華經	-11.7756
雅好	-11.7759
大般若經	-11.7761
偈頌	-11.7765
利害	-11.7768
十八部	-11.7774
得生淨土	-11.7774
淨飯	-11.7774
師便喝	-11.7776
幡蓋	-11.7776
氣象	-11.7788
冥府	-11.779
遁去	-11.7795
生極樂	-11.7802
餘姚	-11.7809
蘄	-11.7813
看他	-11.7814
鯉	-11.7815
箸	-11.7816
誼	-11.7816
抉	-11.7816
輻湊	-11.7816
勅召	-11.7816
炷	-11.7816
沽	-11.7816
疽	-11.7817
雒	-11.7817
五燈會元	-11.7819
姥	-11.782
睫	-11.782
盃	-11.7821
塔全身於	-11.7821
屐	-11.7821
祖嗣宗統	-11.7822
郗	-11.7822
飢渴	-11.7823
賄	-11.7824
砥	-11.7825
鉗鎚	-11.7826
詣佛所	-11.7826
儀軌	-11.7827
大興國寺	-11.7828
激揚	-11.7828
驚愕	-11.7828
檐	-11.7828
這老漢	-11.783
淨穢	-11.783
編戶	-11.7832
嵒	-11.7833
閉關	-11.7836
芥子	-11.7839
指掌	-11.784
鴻漸	-11.7844
清濁	-11.7845
昭昭	-11.7849
賔	-11.7849
奏對	-11.7856
涅槃經云	-11.7861
還會麼	-11.7863
汝諸人	-11.7863
持犯	-11.7866
誦蓮經	-11.7867
毀壞	-11.7874
執卷	-11.788
求解脫	-11.7884
典座	-11.7884
僧伽羅	-11.7887
未來世	-11.7891
五層	-11.7896
敬仰	-11.7901
永康	-11.7903
慰問	-11.7908
僖	-11.791
孔氏	-11.791
二青衣	-11.7911
強記	-11.7916
避難	-11.7932
詎可	-11.7937
澄照	-11.7945
北涼	-11.795
翕	-11.7953
翌	-11.7957
迦葉波	-11.7959
三年三月	-11.796
乾德	-11.7963
稟受	-11.7964
颯	-11.7964
泳	-11.7967
坤	-11.7967
徂	-11.7968
弃	-11.7968
塹	-11.7969
汀	-11.7969
俶	-11.797
俚	-11.797
鴆	-11.7971
峴	-11.7972
灘	-11.7972
欒	-11.7972
毬	-11.7975
絮	-11.7975
顥	-11.7978
豬	-11.7979
薊	-11.7984
雹	-11.8116
跣	-11.8117
衾	-11.8117
齓	-11.8121
轂	-11.8121
爆	-11.8121
塋	-11.8121
苾	-11.8122
瓢	-11.8122
釵	-11.8122
痢	-11.8123
叚	-11.8124
蟬	-11.8125
纍	-11.8127
雇	-11.8128
愉	-11.8129
蒿	-11.813
甜	-11.813
扃	-11.813
桶	-11.813
斡	-11.8131
苔	-11.8135
闐	-11.8263
哆	-11.8275
僮	-11.8276
壟	-11.8277
酣	-11.828
緋	-11.828
纊	-11.8281
銑	-11.8282
慼	-11.8282
磚	-11.8283
甌	-11.8284
嬪	-11.8286
郄	-11.8292
緫	-11.8294
禰	-11.843
癩	-11.8433
燔	-11.8435
迁	-11.8436
迥	-11.8437
裒	-11.8437
佯	-11.8439
牘	-11.8439
粵	-11.844
碣	-11.844
搥	-11.8441
靳	-11.8441
肚	-11.8442
紵	-11.8444
氤	-11.8444
銖	-11.8445
敻	-11.8446
譙	-11.8581
瀝	-11.8594
譎	-11.8595
窄	-11.8595
亳	-11.86
脆	-11.8601
侫	-11.8601
饍	-11.8601
貼	-11.8602
啜	-11.8602
嶼	-11.8602
瞰	-11.8604
賺	-11.8605
懵	-11.8605
<	-11.861
m	-11.861
i	-11.861
g	-11.8611
鞞	-11.8753
溉	-11.8757
奐	-11.8758
懾	-11.8759
䟽	-11.876
夔	-11.8761
廈	-11.8761
殤	-11.8761
迤	-11.8761
胞	-11.8762
廝	-11.8764
雛	-11.8765
掦	-11.8766
翦	-11.8766
噎	-11.8766
泐	-11.8766
褁	-11.8767
斐	-11.8767
拉	-11.8767
譁	-11.8768
迓	-11.8768
乂	-11.8769
哽	-11.877
猗	-11.8772
涅	-11.8772
哩	-11.8773
潁	-11.8778
胝	-11.8915
婺	-11.8917
淩	-11.8919
售	-11.8924
糅	-11.8925
闈	-11.8928
騖	-11.8929
氳	-11.893
捔	-11.8932
訕	-11.8932
褊	-11.8933
曦	-11.8934
弩	-11.8935
􂍓	-11.8936
查	-11.8937
泝	-11.8937
爺	-11.8938
捺	-11.8943
黿	-11.9085
惛	-11.9094
珙	-11.9094
顙	-11.9096
窣	-11.91
銛	-11.9101
郵	-11.9101
盎	-11.9101
笙	-11.9102
捲	-11.9102
糺	-11.9102
壙	-11.9103
彗	-11.9103
蠟	-11.9103
抹	-11.9104
縊	-11.9104
掀	-11.9104
菊	-11.9104
灯	-11.9105
蠱	-11.9105
窈	-11.9106
奩	-11.9107
懽	-11.9108
鏐	-11.911
㕘	-11.9118
晡	-11.9266
壬	-11.9269
婿	-11.9269
徼	-11.927
翟	-11.9271
𣏌	-11.9271
猫	-11.9273
冗	-11.9274
煞	-11.9275
撾	-11.9275
捍	-11.9276
瓮	-11.9276
踢	-11.9277
奎	-11.9279
嬾	-11.9281
𧦬	-11.9293
睢	-11.9431
枳	-11.9441
喘	-11.9443
瘠	-11.9445
僵	-11.9446
憧	-11.9447
褫	-11.9447
泮	-11.9447
涪	-11.9449
鐙	-11.9453
虱	-11.9454
鞏	-11.9454
槖	-11.9454
牕	-11.9458
霏	-11.9459
瑣	-11.9463
頷	-11.9518
怱	-11.9612
孽	-11.9616
蠢	-11.9616
襍	-11.962
虢	-11.9622
翥	-11.9622
懋	-11.9623
麋	-11.9623
湍	-11.9623
廛	-11.9624
隳	-11.9625
薜	-11.9625
賒	-11.9625
徃	-11.9627
籥	-11.9628
旒	-11.9628
匙	-11.9629
薑	-11.963
礫	-11.9632
巍	-11.9633
琇	-11.9636
濮	-11.9636
磵	-11.9639
嬴	-11.9804
疼	-11.9805
鄂	-11.9807
趁	-11.9808
淆	-11.9809
昕	-11.9809
羡	-11.981
盪	-11.981
杼	-11.9812
怳	-11.9812
漬	-11.9813
惲	-11.9814
瑫	-11.9815
屙	-11.9819
芮	-11.9819
愕	-11.9961
隍	-11.9964
夸	-11.9976
衎	-11.9978
畋	-11.9982
蒜	-11.9985
糟	-11.9989
培	-11.9989
悰	-11.9989
飈	-11.999
悍	-11.9991
閨	-11.9991
瀾	-11.9991
紊	-11.9992
菲	-11.9993
噴	-11.9993
嶂	-11.9994
肱	-11.9994
蟄	-11.9995
虵	-11.9995
轟	-11.9996
鷺	-11.9997
咀	-12
凾	-12.0176
丑	-12.0178
欹	-12.0178
覇	-12.0181
槨	-12.0181
澁	-12.0182
羿	-12.0183
卻	-12.0184
寖	-12.0184
鬢	-12.0187
甸	-12.0187
喏	-12.0187
溷	-12.0187
磁	-12.0187
誄	-12.0189
摑	-12.0192
襯	-12.0193
磕	-12.0193
悵	-12.0346
慊	-12.0363
芟	-12.0365
幘	-12.0366
醬	-12.0366
爼	-12.0368
恧	-12.0369
紈	-12.0369
蛟	-12.0369
頎	-12.0371
閟	-12.0371
怏	-12.0372
縶	-12.0374
逋	-12.0374
熹	-12.0375
觜	-12.0375
攪	-12.0376
闌	-12.0377
頞	-12.0377
爝	-12.0377
澍	-12.0378
胷	-12.0379
刮	-12.0379
鱉	-12.0381
墅	-12.0565
棊	-12.0566
隰	-12.0566
驍	-12.0566
腴	-12.0567
藁	-12.0567
兕	-12.0568
駱	-12.0569
瘖	-12.0569
鎗	-12.057
狸	-12.057
覘	-12.057
穉	-12.057
毓	-12.0571
噪	-12.0571
羗	-12.0571
尠	-12.0571
葵	-12.0571
駛	-12.0572
鋸	-12.0573
岌	-12.0573
宕	-12.0574
𠃔	-12.0574
鉉	-12.0574
糓	-12.0575
琯	-12.0578
懍	-12.058
腕	-12.0581
4	-12.0584
槁	-12.0759
祟	-12.0762
坂	-12.0764
悸	-12.0767
洙	-12.0768
鬬	-12.0769
咏	-12.0773
檝	-12.0773
霔	-12.0773
淅	-12.0773
蒭	-12.0774
歘	-12.0774
夥	-12.0774
臍	-12.0775
砧	-12.0777
慤	-12.0777
僭	-12.0779
孛	-12.078
蓼	-12.078
帑	-12.0782
藜	-12.0784
獅	-12.0961
諛	-12.0966
噩	-12.0966
苛	-12.0968
笞	-12.097
核	-12.097
牝	-12.0971
坌	-12.0971
觴	-12.0972
閽	-12.0972
罩	-12.0973
祛	-12.0973
劬	-12.0973
矍	-12.0973
淋	-12.0974
跑	-12.0974
閹	-12.0974
朞	-12.0975
睨	-12.0975
槽	-12.0976
贇	-12.0976
盻	-12.0976
鹹	-12.0976
兖	-12.0976
汶	-12.0977
款	-12.0977
杪	-12.0977
戌	-12.0977
閶	-12.0978
旭	-12.0979
縞	-12.0979
閴	-12.0979
鬧	-12.0979
轢	-12.098
窹	-12.0981
昺	-12.0986
鷂	-12.0987
囀	-12.1124
獷	-12.1166
媒	-12.1173
糲	-12.1175
搉	-12.1176
菁	-12.1177
臠	-12.1179
蹴	-12.1179
蝕	-12.118
黯	-12.118
芋	-12.1181
遒	-12.1181
鴉	-12.1181
廂	-12.1182
址	-12.1183
溜	-12.1183
潼	-12.1183
癈	-12.1184
踴	-12.1184
蹊	-12.1185
戡	-12.1185
縝	-12.1185
賻	-12.1186
覬	-12.1186
机	-12.1186
涎	-12.1186
逅	-12.1187
疵	-12.1188
奭	-12.1188
贅	-12.1189
脯	-12.1191
蘖	-12.1191
忞	-12.1195
悝	-12.1196
猨	-12.1383
鎬	-12.1388
莎	-12.1389
鏘	-12.139
嗚	-12.1391
娉	-12.1391
螫	-12.1392
鷙	-12.1392
憙	-12.1393
蛤	-12.1394
喙	-12.1395
殻	-12.1395
簣	-12.1396
螟	-12.1396
柘	-12.1397
鍬	-12.1399
紿	-12.1401
惹	-12.1401
譔	-12.1402
駟	-12.1404
錍	-12.1406
棧	-12.1407
縗	-12.1598
犧	-12.1598
孥	-12.16
邱	-12.1607
瀑	-12.1607
詡	-12.1609
蔔	-12.1609
櫓	-12.1609
凄	-12.1611
掾	-12.1611
毱	-12.1612
賂	-12.1613
巗	-12.1613
𧹞	-12.1613
撻	-12.1613
轅	-12.1613
傘	-12.1613
甓	-12.1614
匃	-12.1615
粃	-12.1615
彖	-12.1615
搊	-12.1617
鶻	-12.1619
淤	-12.162
軼	-12.162
穗	-12.1621
劭	-12.1624
3	-12.1628
崑	-12.1802
偁	-12.1826
炮	-12.1826
墾	-12.183
窶	-12.1831
劵	-12.1831
刷	-12.1831
棠	-12.1831
珮	-12.1833
躓	-12.1835
陁	-12.1835
瘁	-12.1835
沔	-12.1836
淄	-12.1836
襦	-12.1837
頡	-12.1837
剽	-12.1839
圌	-12.1839
組	-12.1839
霅	-12.1839
褻	-12.1841
黠	-12.1841
徭	-12.1845
磊	-12.1846
慣	-12.1847
5	-12.1852
亶	-12.1854
騾	-12.2044
痴	-12.2054
膿	-12.2054
嫂	-12.2054
磔	-12.2056
潢	-12.2057
涿	-12.2057
詁	-12.2059
購	-12.206
璀	-12.2061
鴟	-12.2061
扭	-12.2063
輭	-12.2063
瑱	-12.2064
棚	-12.2065
汩	-12.2066
犂	-12.2066
擺	-12.2066
鏃	-12.2067
鑠	-12.2068
勛	-12.2069
扆	-12.2069
紏	-12.207
蹕	-12.2071
璡	-12.2074
恙	-12.2256
瓠	-12.2283
鯁	-12.2287
錮	-12.229
姒	-12.2291
嚚	-12.2292
瘴	-12.2293
剜	-12.2294
諜	-12.2294
爨	-12.2295
韞	-12.2295
齠	-12.2296
梢	-12.2296
攔	-12.2296
劑	-12.2296
瑋	-12.2297
惘	-12.2298
羮	-12.2298
廸	-12.23
廕	-12.23
捃	-12.23
悄	-12.2301
憒	-12.2301
券	-12.2304
猊	-12.2307
拗	-12.2309
兗	-12.2444
蛛	-12.2514
埵	-12.2522
闉	-12.2524
瘥	-12.2524
曝	-12.2524
裩	-12.2525
讜	-12.2526
疹	-12.2526
卭	-12.2527
菌	-12.2528
齧	-12.2528
双	-12.2529
峩	-12.2529
棃	-12.2529
𥧌	-12.2529
彎	-12.253
豺	-12.253
鉞	-12.2533
埏	-12.2534
漓	-12.2534
孜	-12.2534
鉛	-12.2534
蝨	-12.2536
顰	-12.2536
慜	-12.2536
淛	-12.2537
喟	-12.2537
鷃	-12.2537
惇	-12.2539
忒	-12.254
詧	-12.2541
遨	-12.2541
煬	-12.2758
睇	-12.2764
蝶	-12.2768
愻	-12.2768
跌	-12.277
罟	-12.277
唵	-12.2771
薙	-12.2774
紕	-12.2775
甥	-12.2776
邠	-12.2776
䘏	-12.2776
燁	-12.2776
俘	-12.2776
濠	-12.2778
甃	-12.2779
蟾	-12.278
恊	-12.2781
櫛	-12.2781
睒	-12.2781
攣	-12.2781
杻	-12.2782
輅	-12.2782
茵	-12.2782
鞴	-12.2783
碍	-12.2783
嶸	-12.2783
𧂐	-12.2783
彙	-12.2784
幃	-12.2786
』	-12.2983
墀	-12.3017
攫	-12.302
娥	-12.3022
儗	-12.3024
礎	-12.3025
筍	-12.3025
覯	-12.3025
霓	-12.3025
豚	-12.3026
蝗	-12.3027
飭	-12.3027
酤	-12.3029
姙	-12.303
耨	-12.303
嘶	-12.303
鵶	-12.303
縵	-12.303
窅	-12.303
竣	-12.3031
欷	-12.3032
廨	-12.3034
勰	-12.3035
洮	-12.3035
罽	-12.3035
𩬊	-12.3035
藕	-12.3036
硎	-12.3037
皋	-12.3038
閎	-12.3038
嵆	-12.304
9	-12.3043
勌	-12.3278
暐	-12.328
碗	-12.328
蠹	-12.3281
瘵	-12.3282
崙	-12.3283
怎	-12.3283
擿	-12.3284
肺	-12.3284
蛆	-12.3284
釰	-12.3285
禋	-12.3285
歧	-12.3285
罏	-12.3286
贓	-12.3287
𤣱	-12.329
瞪	-12.329
幄	-12.329
碁	-12.3294
搬	-12.3296
慝	-12.3534
顓	-12.3537
粧	-12.3537
痒	-12.3539
羔	-12.3539
驤	-12.3539
皤	-12.354
傚	-12.3542
橈	-12.3542
郍	-12.3543
伶	-12.3543
苴	-12.3543
忖	-12.3544
稗	-12.3544
濶	-12.3544
萍	-12.3545
暎	-12.3545
崕	-12.3545
煅	-12.3546
􂌸	-12.3546
樝	-12.3546
釗	-12.3549
藿	-12.3549
酢	-12.3549
綰	-12.3549
淥	-12.355
怜	-12.355
騐	-12.355
髀	-12.3553
眴	-12.3553
渧	-12.3553
罸	-12.3554
妣	-12.3554
髯	-12.3556
憮	-12.3556
楔	-12.3557
朮	-12.3557
匾	-12.3558
紗	-12.3563
瞳	-12.3802
褶	-12.3808
蘧	-12.3809
殲	-12.3811
堞	-12.3811
儁	-12.3811
艮	-12.3812
袤	-12.3812
罐	-12.3813
苓	-12.3814
礴	-12.3815
估	-12.3816
駮	-12.3816
凭	-12.3816
隄	-12.3817
堙	-12.3817
蕕	-12.3818
縲	-12.3818
闚	-12.3818
捋	-12.3818
鏁	-12.3818
簸	-12.3819
璫	-12.3821
竚	-12.3822
湻	-12.3824
寗	-12.3825
甖	-12.3827
輥	-12.383
洹	-12.383
醴	-12.4018
搔	-12.4083
纜	-12.4083
屹	-12.4084
憊	-12.4085
頫	-12.4087
縟	-12.4087
膊	-12.4088
霆	-12.4089
膜	-12.4089
耘	-12.409
嘴	-12.409
阬	-12.409
脾	-12.4091
嚳	-12.4091
䰂	-12.4091
翮	-12.4092
楞	-12.4092
絢	-12.4092
䑛	-12.4092
磴	-12.4093
巘	-12.4094
趯	-12.4094
茸	-12.4095
氓	-12.4095
泫	-12.4096
躶	-12.4097
幟	-12.4097
顱	-12.4097
惺	-12.4098
佃	-12.4098
贏	-12.4099
皖	-12.4102
蒐	-12.4102
癢	-12.4102
孃	-12.4365
猒	-12.437
陲	-12.4373
肴	-12.4374
紘	-12.4374
癰	-12.4374
綉	-12.4375
碾	-12.4376
曖	-12.4376
驩	-12.4376
鍋	-12.4378
蜆	-12.4378
篁	-12.438
懦	-12.438
誹	-12.4381
嗅	-12.4381
揜	-12.4381
畦	-12.4382
孳	-12.4382
瀕	-12.4382
㒵	-12.4383
糊	-12.4383
狁	-12.4386
僑	-12.4387
糾	-12.4387
滁	-12.4388
逶	-12.4388
牡	-12.439
碌	-12.439
毉	-12.439
甍	-12.4391
卅	-12.4395
唎	-12.466
蘂	-12.4661
恁	-12.4667
妓	-12.4668
蚌	-12.4669
釧	-12.467
繳	-12.467
啗	-12.4671
偘	-12.4672
寨	-12.4673
薇	-12.4673
醻	-12.4674
緜	-12.4676
摽	-12.4676
篩	-12.4676
氐	-12.4677
􃆵	-12.4677
燿	-12.4678
燄	-12.4679
噀	-12.4679
靠	-12.4681
蔕	-12.4681
笻	-12.4681
杙	-12.4686
盾	-12.4687
勦	-12.4688
7	-12.469
8	-12.4691
另	-12.4698
圜	-12.4967
悱	-12.4967
繭	-12.4967
䗍	-12.4968
窒	-12.4968
罅	-12.497
輻	-12.497
琨	-12.4971
襆	-12.4971
讌	-12.4971
詫	-12.4971
苫	-12.4973
縹	-12.4973
跖	-12.4973
麴	-12.4974
謳	-12.4975
斵	-12.4975
翩	-12.4976
轝	-12.4977
皿	-12.4977
琶	-12.4977
擐	-12.4978
訐	-12.4978
膓	-12.4978
豔	-12.4979
鶯	-12.4979
澣	-12.498
麈	-12.498
粳	-12.4981
漣	-12.4981
葩	-12.4982
沱	-12.4982
莠	-12.4983
鄯	-12.4984
鑛	-12.4984
覊	-12.4984
歙	-12.4984
歉	-12.4985
聒	-12.4985
眚	-12.4986
𡩋	-12.4986
璘	-12.4987
珏	-12.4987
楓	-12.4988
蘽	-12.4991
汭	-12.4995
絛	-12.5263
呬	-12.5269
篾	-12.5276
匕	-12.5276
舖	-12.528
嗤	-12.5281
熒	-12.5282
忉	-12.5284
裓	-12.5284
鉏	-12.5285
揄	-12.5285
傉	-12.5286
臟	-12.5287
圊	-12.5287
垠	-12.5289
玻	-12.529
鶉	-12.529
攷	-12.5291
䢼	-12.5291
獠	-12.5291
娩	-12.5291
港	-12.5292
笳	-12.5292
倨	-12.5293
刁	-12.5293
癯	-12.5294
暈	-12.5294
描	-12.5294
扄	-12.5295
籟	-12.5296
癹	-12.5297
窻	-12.5298
屺	-12.5298
蓊	-12.5298
禺	-12.5299
閾	-12.53
蓐	-12.53
癭	-12.5302
瑒	-12.5303
葆	-12.531
舩	-12.5311
殑	-12.532
硯	-12.556
虺	-12.5592
俳	-12.5603
猱	-12.5604
蹉	-12.5605
洄	-12.5605
楯	-12.5606
襪	-12.5606
遄	-12.5606
餽	-12.5607
噤	-12.5608
壻	-12.5608
祜	-12.5608
赭	-12.5609
妥	-12.561
豢	-12.5613
豊	-12.5613
椅	-12.5613
髏	-12.5613
嚬	-12.5614
决	-12.5614
箠	-12.5615
絆	-12.5615
漪	-12.5615
撑	-12.5615
犁	-12.5616
璇	-12.5616
穽	-12.5617
欬	-12.5617
萼	-12.5617
蕘	-12.5618
鄠	-12.5618
紡	-12.5619
餚	-12.562
瑄	-12.562
隈	-12.5621
扼	-12.5623
拷	-12.5624
莆	-12.5625
塏	-12.5628
槍	-12.5628
嗷	-12.5636
挐	-12.5915
閼	-12.5922
柵	-12.5927
霾	-12.5934
戊	-12.5936
牋	-12.5939
珊	-12.5939
鳶	-12.594
諤	-12.594
衮	-12.594
踣	-12.5941
桴	-12.5941
叮	-12.5942
廖	-12.5943
橡	-12.5943
洵	-12.5944
疣	-12.5944
敖	-12.5944
塾	-12.5944
逖	-12.5945
穰	-12.5945
㐫	-12.5945
蹬	-12.5947
槎	-12.5948
滏	-12.5948
勣	-12.5948
杌	-12.5949
邴	-12.5949
蛾	-12.5949
痼	-12.5949
覡	-12.595
祅	-12.595
笋	-12.5951
埿	-12.5951
腑	-12.5951
跂	-12.5951
疚	-12.5953
撩	-12.5954
啇	-12.5954
汨	-12.5955
摵	-12.5955
黥	-12.5955
烱	-12.5956
靚	-12.5958
㮈	-12.596
鰕	-12.5962
愎	-12.6281
暅	-12.6281
哂	-12.6282
狡	-12.6283
蠎	-12.6283
衽	-12.6284
鞅	-12.6284
闋	-12.6286
謊	-12.6286
筐	-12.6287
虀	-12.6287
飴	-12.6287
々	-12.6288
鈸	-12.6288
痺	-12.6288
耋	-12.6288
賽	-12.6289
艤	-12.6289
頺	-12.6291
剞	-12.6291
轆	-12.6292
衘	-12.6292
盋	-12.6292
暝	-12.6293
喇	-12.6293
蟇	-12.6293
擣	-12.6293
峒	-12.6293
黼	-12.6294
盌	-12.6294
斆	-12.6294
軋	-12.6295
膾	-12.6296
肹	-12.6297
轄	-12.6297
鋟	-12.6297
肄	-12.6302
茄	-12.6303
湎	-12.6303
畬	-12.6309
跏	-12.6497
㖿	-12.6617
倖	-12.6634
獘	-12.6635
僂	-12.6637
煒	-12.6642
櫃	-12.6642
鼇	-12.6643
滬	-12.6643
玦	-12.6643
彛	-12.6643
毆	-12.6643
屩	-12.6645
棣	-12.6645
儷	-12.6645
曬	-12.6646
梭	-12.6646
劂	-12.6646
抂	-12.6646
瀘	-12.6647
韙	-12.6647
濩	-12.6647
鎰	-12.6648
縠	-12.6648
溘	-12.6649
滎	-12.6649
吽	-12.6649
嬖	-12.6649
楖	-12.665
飫	-12.665
檉	-12.6651
唼	-12.6651
貂	-12.6651
岵	-12.6651
鞫	-12.6652
簀	-12.6652
舸	-12.6652
捻	-12.6652
醋	-12.6655
矮	-12.6655
玠	-12.6656
蟭	-12.6656
誾	-12.6657
慞	-12.6657
甑	-12.6657
冝	-12.6659
彘	-12.6659
診	-12.6661
湜	-12.6664
閦	-12.6669
嗢	-12.6994
蝠	-12.7004
邐	-12.7005
蹰	-12.7005
蓆	-12.7005
醪	-12.7007
痍	-12.7008
㸑	-12.7008
釀	-12.7009
惔	-12.7009
墖	-12.701
粕	-12.701
舐	-12.701
惚	-12.7011
穫	-12.7011
荻	-12.7012
蚓	-12.7012
韵	-12.7013
絺	-12.7014
猖	-12.7014
烙	-12.7014
鱠	-12.7014
矇	-12.7016
庄	-12.7017
裰	-12.7017
犇	-12.7018
煜	-12.7019
諶	-12.702
慥	-12.702
姉	-12.7022
糍	-12.7022
虓	-12.7023
鍔	-12.7024
哈	-12.7024
鄜	-12.7025
嚕	-12.7027
嘖	-12.7028
嬌	-12.7029
嚥	-12.7031
媳	-12.7032
踟	-12.7389
傴	-12.7392
濾	-12.7392
畺	-12.7392
裾	-12.7393
撈	-12.7397
燠	-12.7398
咦	-12.7398
蕙	-12.74
暘	-12.74
蚋	-12.74
紲	-12.74
蜚	-12.7401
瀚	-12.7401
耒	-12.7402
厓	-12.7403
鐃	-12.7403
巉	-12.7403
刖	-12.7404
熄	-12.7404
珥	-12.7404
坼	-12.7405
阯	-12.7406
伉	-12.7406
梳	-12.7406
媧	-12.7406
墉	-12.7406
遡	-12.7407
莘	-12.7407
誷	-12.7407
觚	-12.7408
廚	-12.7408
鵄	-12.7408
崆	-12.7409
煨	-12.7409
緻	-12.7409
鐔	-12.741
聵	-12.741
蹔	-12.741
鑱	-12.7411
褘	-12.7411
鵒	-12.7412
粱	-12.7412
瓔	-12.7414
瑰	-12.7415
邳	-12.7416
璠	-12.7416
骼	-12.7417
瀟	-12.7421
崎	-12.7758
昵	-12.7787
詛	-12.779
麇	-12.7794
悌	-12.7794
蕚	-12.7795
祔	-12.7797
啐	-12.7798
脹	-12.7799
琚	-12.78
帋	-12.78
蜿	-12.78
阡	-12.7801
瀞	-12.7801
􂑒	-12.7801
頟	-12.7802
汞	-12.7802
悒	-12.7802
悆	-12.7803
㹠	-12.7803
万	-12.7803
觝	-12.7803
黻	-12.7803
旵	-12.7804
坥	-12.7804
稊	-12.7804
剉	-12.7804
簉	-12.7804
錙	-12.7805
恡	-12.7805
瀋	-12.7805
簟	-12.7805
獫	-12.7806
歊	-12.7806
謟	-12.7807
袟	-12.7807
兌	-12.7807
遴	-12.7807
鞵	-12.7808
唳	-12.7808
簇	-12.7808
阪	-12.7809
狠	-12.781
咤	-12.781
庿	-12.781
咋	-12.7811
呻	-12.7811
郯	-12.7812
􂋧	-12.7813
頲	-12.7819
岬	-12.7844
鍮	-12.8187
赧	-12.8188
瑘	-12.8199
熠	-12.82
炁	-12.8203
絰	-12.8203
癸	-12.8207
騏	-12.8208
阨	-12.8209
卸	-12.8209
荏	-12.8209
揉	-12.8209
輞	-12.8211
圉	-12.8212
匏	-12.8212
鯢	-12.8214
啾	-12.8214
厩	-12.8214
洟	-12.8216
筦	-12.8217
瞠	-12.8218
𠕋	-12.8218
蚕	-12.8219
藐	-12.8219
爬	-12.8219
晈	-12.822
飱	-12.822
蕉	-12.822
旹	-12.822
隲	-12.8221
璃	-12.8221
悕	-12.8221
冽	-12.8221
椹	-12.8221
噍	-12.8221
繚	-12.8222
輾	-12.8222
儆	-12.8222
眨	-12.8224
䗫	-12.8224
鬲	-12.8224
隗	-12.8225
喰	-12.8225
囹	-12.8225
儂	-12.8226
愬	-12.8226
洺	-12.8226
漾	-12.8226
辣	-12.8226
媛	-12.8227
窖	-12.8227
擠	-12.8228
繄	-12.8228
嶄	-12.8228
侁	-12.8229
彧	-12.8229
袾	-12.8232
邙	-12.8232
鏌	-12.8238
鎩	-12.8587
呀	-12.8638
鍱	-12.864
貊	-12.864
㝹	-12.8641
尫	-12.8642
緱	-12.8643
攄	-12.8643
瞀	-12.8645
艘	-12.8645
蝟	-12.8646
縢	-12.8646
騶	-12.8647
猾	-12.8647
灝	-12.8647
曛	-12.8647
睎	-12.8648
羂	-12.8649
忱	-12.8649
潄	-12.865
狷	-12.865
昃	-12.8651
萠	-12.8651
軏	-12.8651
蓍	-12.8652
祺	-12.8654
咳	-12.8654
忭	-12.8654
徉	-12.8654
艦	-12.8654
迮	-12.8655
瀅	-12.8655
楩	-12.8655
霰	-12.8655
蹻	-12.8655
拇	-12.8656
䥫	-12.8656
盱	-12.8656
朦	-12.8656
矦	-12.8656
珈	-12.8657
璵	-12.8657
羼	-12.8657
駈	-12.8657
擷	-12.8657
暕	-12.8658
瀨	-12.8658
鎡	-12.866
𢌞	-12.866
懅	-12.866
仄	-12.8661
眹	-12.8661
澠	-12.8661
𣗖	-12.8662
浞	-12.8662
澂	-12.8664
趒	-12.8665
蝸	-12.8665
柿	-12.8665
綫	-12.8665
茘	-12.8666
涂	-12.8668
獰	-12.8668
鴦	-12.8668
灣	-12.8676
噐	-12.8678
塩	-12.8692
澧	-12.8966
炯	-12.9094
蘗	-12.9098
豳	-12.9099
鯤	-12.9099
熬	-12.91
荄	-12.9101
躇	-12.9101
韮	-12.9102
磋	-12.9102
娼	-12.9102
窬	-12.9103
籲	-12.9103
櫺	-12.9105
媲	-12.9105
譌	-12.9105
薀	-12.9106
堰	-12.9106
㦬	-12.9106
磾	-12.9106
腆	-12.9106
謎	-12.9106
畆	-12.9106
莅	-12.9106
皃	-12.9107
螘	-12.9107
鬣	-12.9107
膂	-12.9107
頊	-12.9108
渟	-12.9108
錘	-12.9108
倕	-12.9108
沅	-12.9109
摝	-12.9109
埜	-12.9109
洶	-12.911
惙	-12.911
郤	-12.911
棋	-12.911
􂸝	-12.9111
檮	-12.9111
賡	-12.9111
埒	-12.9112
綢	-12.9112
澇	-12.9113
襖	-12.9114
鷗	-12.9115
沁	-12.9116
鏟	-12.9116
咷	-12.9117
鍇	-12.9117
鎣	-12.9117
齪	-12.9118
犖	-12.912
厖	-12.912
戕	-12.912
躑	-12.9121
P	-12.9125
鎁	-12.9129
荅	-12.9135
瑃	-12.9552
絓	-12.957
臊	-12.9571
藞	-12.9573
侄	-12.9575
鬮	-12.9575
刎	-12.9576
薈	-12.9577
簧	-12.9578
㗖	-12.9579
郴	-12.9579
涖	-12.9579
凞	-12.9579
懡	-12.9579
幔	-12.958
埭	-12.9581
慇	-12.9581
圩	-12.9581
㸦	-12.9581
匇	-12.9582
𣧩	-12.9582
醞	-12.9582
窯	-12.9583
跽	-12.9583
搦	-12.9583
袵	-12.9583
桷	-12.9583
狙	-12.9583
閡	-12.9583
礦	-12.9584
蕤	-12.9585
蜒	-12.9585
滾	-12.9585
乩	-12.9585
髑	-12.9586
󰑁	-12.9587
捩	-12.9587
煆	-12.9588
筴	-12.9588
孱	-12.9589
宄	-12.9589
仝	-12.9589
簦	-12.959
噏	-12.9591
嘷	-12.9592
逭	-12.9593
鰲	-12.9593
騃	-12.9593
驎	-12.9593
玲	-12.9593
焜	-12.9594
鉸	-12.9595
黌	-12.9597
醎	-12.9604
吃	-12.9607
銚	-12.9612
啻	-13.0035
鯀	-13.0058
癊	-13.0073
耜	-13.0074
殛	-13.0076
颶	-13.0077
趕	-13.0077
吮	-13.0078
菩	-13.0079
幞	-13.008
癲	-13.0081
闒	-13.0081
闞	-13.0081
咆	-13.0081
嚧	-13.0083
囷	-13.0083
綻	-13.0083
俻	-13.0083
􂏬	-13.0084
堀	-13.0084
埴	-13.0084
㘞	-13.0084
窰	-13.0085
椶	-13.0086
緗	-13.0086
甬	-13.0087
昞	-13.0087
僶	-13.0087
瀰	-13.0087
栝	-13.0087
箔	-13.0088
烝	-13.0088
榭	-13.0088
彤	-13.0088
倅	-13.0089
刲	-13.009
掊	-13.009
邡	-13.0091
暀	-13.0091
坻	-13.0091
淦	-13.0091
驂	-13.0092
閧	-13.0092
晢	-13.0092
崦	-13.0094
瀏	-13.0094
畊	-13.0095
衂	-13.0095
抒	-13.0095
嶧	-13.0096
柬	-13.0097
栲	-13.0097
蟹	-13.0097
佺	-13.0098
宙	-13.0099
灸	-13.0099
尀	-13.0102
頇	-13.0104
离	-13.0587
讟	-13.0591
蜘	-13.0593
氾	-13.0593
詖	-13.0593
饕	-13.0593
躃	-13.0597
蜃	-13.0597
糖	-13.06
樽	-13.0601
拪	-13.0601
纛	-13.0602
泪	-13.0604
矟	-13.0604
雱	-13.0605
崐	-13.0607
捿	-13.0607
鬀	-13.0607
鞮	-13.0608
嗽	-13.0609
苻	-13.0609
雩	-13.0609
侗	-13.061
胾	-13.0612
滹	-13.0612
彀	-13.0613
黏	-13.0613
縕	-13.0613
藺	-13.0613
斸	-13.0614
皝	-13.0615
唧	-13.0615
曚	-13.0615
玼	-13.0616
淒	-13.0616
鸜	-13.0616
隤	-13.0617
努	-13.0617
楠	-13.0617
擴	-13.0618
瞢	-13.0618
馗	-13.0619
夤	-13.0619
缶	-13.0619
嚩	-13.0619
跟	-13.0619
蒂	-13.062
紱	-13.062
猢	-13.0622
錚	-13.0623
儋	-13.0623
扎	-13.0624
罣	-13.0626
賭	-13.0627
嘛	-13.0627
听	-13.063
怍	-13.063
􂐔	-13.063
漝	-13.063
湓	-13.0633
莂	-13.111
麞	-13.1147
咫	-13.1157
俺	-13.1157
笮	-13.1158
苒	-13.1158
㲉	-13.1158
埽	-13.116
羆	-13.116
斁	-13.116
挨	-13.116
隩	-13.116
祲	-13.1161
拕	-13.1161
攙	-13.1162
躳	-13.1163
槊	-13.1163
枋	-13.1163
栱	-13.1163
昝	-13.1163
闖	-13.1164
磑	-13.1164
皁	-13.1165
媵	-13.1165
侑	-13.1165
樺	-13.1165
菑	-13.1165
鑣	-13.1165
滻	-13.1165
颷	-13.1165
氅	-13.1165
玭	-13.1166
倀	-13.1166
絪	-13.1166
䘖	-13.1166
瘧	-13.1166
紬	-13.1166
硤	-13.1167
樗	-13.1167
讋	-13.1167
轤	-13.1167
嶢	-13.1167
勍	-13.1167
彷	-13.1167
霶	-13.1168
凑	-13.1168
崿	-13.1168
㶚	-13.117
哇	-13.117
畎	-13.117
瘤	-13.117
盩	-13.117
闘	-13.117
顇	-13.117
餈	-13.117
玕	-13.117
𥁞	-13.117
浿	-13.1171
溍	-13.1172
徨	-13.1172
丰	-13.1172
湑	-13.1172
旺	-13.1172
壠	-13.1173
蒺	-13.1173
贐	-13.1173
脗	-13.1174
鄆	-13.1174
􃒲	-13.1174
迯	-13.1174
还	-13.1176
虖	-13.1177
郪	-13.1177
喃	-13.1178
溲	-13.1178
璚	-13.1178
翾	-13.1178
栳	-13.118
滇	-13.1181
鋩	-13.1182
怗	-13.1184
顢	-13.1188
盒	-13.1722
葡	-13.1735
斮	-13.1735
况	-13.1736
駑	-13.1737
榔	-13.1738
薤	-13.1739
楨	-13.174
坩	-13.1741
掐	-13.1742
滸	-13.1742
敺	-13.1744
牗	-13.1745
圻	-13.1745
蓽	-13.1745
牸	-13.1747
鰥	-13.1747
頏	-13.1748
魎	-13.1749
噱	-13.1749
蹂	-13.175
週	-13.175
葭	-13.1752
踝	-13.1752
嵇	-13.1752
鈐	-13.1753
簞	-13.1753
􂏖	-13.1753
喑	-13.1753
斟	-13.1753
廗	-13.1753
袠	-13.1753
㝡	-13.1754
鶩	-13.1755
皺	-13.1756
藂	-13.1756
癱	-13.1757
醲	-13.1757
亹	-13.1757
怫	-13.1758
冑	-13.1758
嵯	-13.1758
辤	-13.1758
􂏈	-13.1758
咯	-13.1758
餬	-13.1758
𧏙	-13.176
摯	-13.1761
蜺	-13.1762
囓	-13.1762
塲	-13.1763
攉	-13.1763
莢	-13.1763
廠	-13.1763
豸	-13.1763
艇	-13.1763
𢤱	-13.1764
刼	-13.1764
􂑱	-13.1764
窪	-13.1765
┤	-13.1765
臰	-13.1766
箜	-13.1766
繖	-13.1767
閈	-13.1767
顫	-13.1767
坪	-13.1767
肻	-13.1768
倔	-13.1768
絞	-13.1768
䴥	-13.1769
澋	-13.1769
栻	-13.177
𦏰	-13.1778
禬	-13.178
笈	-13.2334
玗	-13.2348
梏	-13.2358
疥	-13.2358
橐	-13.2358
諝	-13.2362
嵿	-13.2363
檳	-13.2363
疱	-13.2364
赳	-13.2366
嚭	-13.2366
姆	-13.2366
嘹	-13.2366
蜣	-13.2366
墊	-13.2367
瞭	-13.2368
悃	-13.2368
睟	-13.2368
朅	-13.237
罇	-13.237
猩	-13.237
黧	-13.237
俎	-13.237
壖	-13.2371
礱	-13.2371
篙	-13.2371
垤	-13.2372
蛉	-13.2373
糇	-13.2373
幀	-13.2374
惓	-13.2374
麪	-13.2375
孀	-13.2375
氍	-13.2375
撐	-13.2376
埀	-13.2376
苧	-13.2376
鐶	-13.2376
桉	-13.2376
玳	-13.2377
韃	-13.2377
矗	-13.2377
瑁	-13.2377
腔	-13.2377
倮	-13.2377
栴	-13.2377
喋	-13.2379
罝	-13.2379
邾	-13.2379
鼯	-13.238
窩	-13.238
懣	-13.238
牷	-13.2381
嚗	-13.2381
𢌿	-13.2381
迍	-13.2382
𡎺	-13.2382
涔	-13.2382
濺	-13.2382
劓	-13.2383
歃	-13.2383
弇	-13.2383
櫚	-13.2384
滲	-13.2386
凖	-13.2387
媯	-13.2387
腮	-13.2387
櫬	-13.2388
蚖	-13.2388
牣	-13.2389
𨳝	-13.2389
嗄	-13.2389
玢	-13.2389
綦	-13.2389
殍	-13.239
攛	-13.239
廆	-13.239
笯	-13.239
縳	-13.2392
坏	-13.2392
惴	-13.2394
聱	-13.2395
墼	-13.24
璝	-13.2402
菷	-13.2411
尓	-13.2412
└	-13.2772
侘	-13.302
擗	-13.3022
薯	-13.3024
攞	-13.3026
沴	-13.3028
姝	-13.3031
呫	-13.3031
垓	-13.3032
刧	-13.3032
蘋	-13.3032
槧	-13.3033
珵	-13.3033
菟	-13.3034
蹠	-13.3035
澥	-13.3036
皴	-13.3036
軔	-13.3037
玨	-13.3038
鐍	-13.3038
捽	-13.3038
轎	-13.3039
嗒	-13.3039
榼	-13.304
褓	-13.3041
猝	-13.3042
攖	-13.3042
𨗉	-13.3042
葳	-13.3043
沆	-13.3043
蒔	-13.3043
樾	-13.3044
慺	-13.3044
癖	-13.3045
眎	-13.3045
螄	-13.3045
莓	-13.3045
薝	-13.3045
黛	-13.3045
麕	-13.3045
莪	-13.3046
巵	-13.3046
郫	-13.3046
褎	-13.3046
邛	-13.3046
僦	-13.3046
哮	-13.3046
臈	-13.3047
罌	-13.3047
憕	-13.3047
掞	-13.3047
淖	-13.3048
慴	-13.3048
蝮	-13.3048
瑚	-13.3048
戽	-13.3048
痰	-13.3049
旂	-13.3049
肋	-13.3049
觕	-13.305
偲	-13.305
輓	-13.305
抝	-13.3051
柢	-13.3052
炅	-13.3053
蠁	-13.3054
晰	-13.3054
咍	-13.3054
跱	-13.3054
賖	-13.3054
瀹	-13.3054
泒	-13.3055
鍤	-13.3055
羇	-13.3056
矻	-13.3056
郛	-13.3057
椑	-13.3058
弧	-13.3058
謇	-13.306
詒	-13.3061
柝	-13.3061
殼	-13.3062
筞	-13.3063
懂	-13.3067
鑼	-13.3069
䆫	-13.3072
湲	-13.3073
恱	-13.3076
襵	-13.3714
𠒋	-13.3734
跼	-13.3736
篨	-13.3741
榱	-13.3743
寞	-13.3746
􂖷	-13.3747
魋	-13.3748
洿	-13.375
蜉	-13.3751
婪	-13.3752
昴	-13.3752
覰	-13.3752
櫻	-13.3753
卛	-13.3753
緹	-13.3753
敫	-13.3754
絏	-13.3755
翬	-13.3755
搗	-13.3756
淞	-13.3756
蹌	-13.3756
糴	-13.3757
薌	-13.3757
蜓	-13.3757
磅	-13.3758
鵾	-13.3758
腎	-13.3758
禘	-13.3758
臾	-13.3758
㜸	-13.3759
颻	-13.3759
畟	-13.3759
紓	-13.3759
螭	-13.3759
榴	-13.3759
觔	-13.376
躔	-13.376
斲	-13.376
簽	-13.3761
洫	-13.3762
豉	-13.3762
貍	-13.3762
嗇	-13.3762
靦	-13.3763
譟	-13.3763
憬	-13.3764
盼	-13.3764
鄗	-13.3764
嫩	-13.3764
腨	-13.3764
䆮	-13.3765
櫩	-13.3765
楸	-13.3765
韛	-13.3765
詺	-13.3765
洌	-13.3766
矬	-13.3766
耦	-13.3766
齔	-13.3766
贒	-13.3766
蟣	-13.3767
憺	-13.3767
獃	-13.3768
𩕳	-13.3768
芿	-13.3769
餼	-13.3769
辠	-13.377
醨	-13.377
猻	-13.377
凳	-13.377
琪	-13.377
睞	-13.3771
寀	-13.3771
噇	-13.3771
搯	-13.3771
扳	-13.3771
摐	-13.3772
𠎝	-13.3772
榷	-13.3773
餵	-13.3773
廙	-13.3773
絙	-13.3774
檣	-13.3776
喁	-13.3776
鶖	-13.3777
徠	-13.3777
玫	-13.3777
斾	-13.3778
馹	-13.3778
蠏	-13.3779
璜	-13.3782
頼	-13.3783
芾	-13.3785
朏	-13.3786
溼	-13.4494
柞	-13.451
堊	-13.4512
琉	-13.4513
俵	-13.4514
眥	-13.4514
鋌	-13.4515
噵	-13.4515
酆	-13.4515
墠	-13.4515
勺	-13.4516
蝣	-13.4517
駘	-13.4519
睽	-13.452
怵	-13.452
榾	-13.452
𦵔	-13.4521
忸	-13.4521
墩	-13.4521
揕	-13.4521
﨟	-13.4523
凟	-13.4524
餔	-13.4525
髼	-13.4525
塤	-13.4525
涘	-13.4525
爕	-13.4526
𧮂	-13.4526
拿	-13.4526
垛	-13.4527
賃	-13.4527
媟	-13.4527
蠆	-13.4528
覦	-13.4528
勔	-13.4528
袷	-13.4528
𨅊	-13.4528
閇	-13.4528
嶁	-13.4528
櫝	-13.4528
淬	-13.4529
旄	-13.4529
昳	-13.4529
茁	-13.453
煽	-13.453
媮	-13.453
艫	-13.4531
襠	-13.4531
岣	-13.4531
茜	-13.4532
撇	-13.4532
𤨏	-13.4532
醼	-13.4532
綆	-13.4532
忩	-13.4532
煢	-13.4533
櫨	-13.4533
颼	-13.4533
籜	-13.4534
隧	-13.4535
羃	-13.4535
䨱	-13.4535
墌	-13.4535
摟	-13.4535
髆	-13.4536
嶔	-13.4536
絜	-13.4536
鸇	-13.4536
犒	-13.4537
鸎	-13.4537
岨	-13.4538
鏕	-13.4538
邅	-13.4538
灋	-13.4538
塜	-13.4539
陬	-13.454
稹	-13.454
緉	-13.454
侚	-13.454
玃	-13.4541
樁	-13.4542
悢	-13.4542
佶	-13.4543
菰	-13.4543
蚪	-13.4543
誂	-13.4544
峪	-13.4544
珩	-13.4547
饘	-13.4548
箏	-13.4553
玎	-13.4564
搕	-13.4565
抅	-13.4598
蒱	-13.533
㪷	-13.5332
殀	-13.5336
菱	-13.5337
杈	-13.5342
芷	-13.5342
笔	-13.5344
樻	-13.5344
籧	-13.5345
蛩	-13.5346
餮	-13.5347
躐	-13.5348
臉	-13.5348
緦	-13.535
韭	-13.5351
旰	-13.5351
柮	-13.5353
嘈	-13.5353
搴	-13.5354
泆	-13.5354
淝	-13.5355
爚	-13.5355
廐	-13.5356
呶	-13.5356
苡	-13.5356
腠	-13.5356
癃	-13.5357
堡	-13.5358
韈	-13.5358
𦚾	-13.536
皡	-13.536
皦	-13.5361
淼	-13.5361
齩	-13.5361
鍠	-13.5361
歒	-13.5361
蕳	-13.5361
讁	-13.5362
酇	-13.5362
僨	-13.5362
畚	-13.5362
𩥇	-13.5362
躂	-13.5363
㭊	-13.5363
麝	-13.5363
沍	-13.5363
鍪	-13.5364
饔	-13.5364
儘	-13.5364
仡	-13.5364
栩	-13.5364
緄	-13.5365
嚝	-13.5365
楗	-13.5365
砭	-13.5365
漭	-13.5366
昬	-13.5366
肜	-13.5366
獺	-13.5367
陴	-13.5367
姨	-13.5367
浼	-13.5367
媾	-13.5368
𠻳	-13.5368
惒	-13.5369
哦	-13.5369
貓	-13.5369
嬭	-13.5369
砰	-13.5369
廋	-13.5369
櫟	-13.537
竢	-13.537
忡	-13.537
蕈	-13.5371
捏	-13.5372
洊	-13.5372
匯	-13.5373
嵌	-13.5375
砍	-13.5376
𠲿	-13.5377
肫	-13.5377
呆	-13.5378
𥚚	-13.5378
义	-13.5378
祓	-13.5378
𣗥	-13.5379
蘚	-13.5381
异	-13.5382
裛	-13.5382
枲	-13.5384
蔾	-13.5384
咒	-13.5384
呱	-13.5387
偹	-13.5388
鄢	-13.6212
祧	-13.623
獪	-13.6237
襜	-13.6247
鴞	-13.6247
簋	-13.625
畯	-13.6253
硃	-13.6254
沌	-13.6254
簏	-13.6255
哢	-13.6256
𣵠	-13.6257
嵎	-13.6257
篦	-13.6259
鬯	-13.6259
幪	-13.6259
絀	-13.626
凸	-13.626
蒯	-13.6261
篠	-13.6261
摠	-13.6261
溽	-13.6262
俐	-13.6264
鎦	-13.6264
魘	-13.6264
郇	-13.6264
抳	-13.6265
曯	-13.6265
舃	-13.6265
㢡	-13.6265
郟	-13.6266
皰	-13.6266
駞	-13.6266
帕	-13.6266
雰	-13.6267
騮	-13.6267
圅	-13.6267
彴	-13.6268
舳	-13.6268
姞	-13.6269
岠	-13.627
笄	-13.627
鬍	-13.6271
澒	-13.6271
曀	-13.6272
窳	-13.6272
邽	-13.6272
勠	-13.6272
姐	-13.6273
珀	-13.6273
膴	-13.6274
鼷	-13.6274
黽	-13.6274
咂	-13.6274
瞼	-13.6274
訩	-13.6275
瓴	-13.6276
鉼	-13.6276
糗	-13.6276
狃	-13.6276
謄	-13.6276
瓫	-13.6277
澶	-13.6277
䆊	-13.6278
扞	-13.6278
囅	-13.6278
禕	-13.6278
輶	-13.6279
輠	-13.6279
呿	-13.6279
藟	-13.6279
瑝	-13.6279
扮	-13.6279
点	-13.6279
懟	-13.6279
悷	-13.628
賸	-13.6281
霤	-13.6282
膈	-13.6282
斕	-13.6283
麑	-13.6283
螻	-13.6283
鵰	-13.6283
鴛	-13.6284
琁	-13.6284
朧	-13.6284
􃒤	-13.6285
澘	-13.6285
塐	-13.6286
鈿	-13.6286
a	-13.6286
穡	-13.6287
婕	-13.6287
孾	-13.6287
狶	-13.6288
熨	-13.6289
綣	-13.6289
玁	-13.6291
儐	-13.6292
橾	-13.6293
渦	-13.6293
抖	-13.6303
仵	-13.6318
𢂁	-13.7206
珞	-13.724
睚	-13.7248
慠	-13.7251
檇	-13.7251
𨶳	-13.7252
漶	-13.7253
躰	-13.7254
𥪰	-13.7254
癬	-13.7255
鱔	-13.7258
妒	-13.7259
驊	-13.726
瞶	-13.726
齕	-13.726
澀	-13.726
蜾	-13.726
醢	-13.726
涶	-13.726
芭	-13.7261
眡	-13.7261
酈	-13.7262
穸	-13.7263
䆠	-13.7263
觱	-13.7263
韲	-13.7263
眙	-13.7263
伋	-13.7264
蕖	-13.7264
赩	-13.7264
湣	-13.7265
戞	-13.7265
戔	-13.7265
槀	-13.7265
栰	-13.7265
腲	-13.7265
芹	-13.7266
脮	-13.7266
鏵	-13.7266
晬	-13.7266
詿	-13.7267
壍	-13.7267
蹀	-13.7267
稂	-13.7267
馘	-13.7268
眯	-13.7268
汐	-13.7268
鑵	-13.7268
慵	-13.7269
殪	-13.727
蓑	-13.727
瀦	-13.727
耑	-13.727
覻	-13.727
硋	-13.7271
綈	-13.7271
囤	-13.7271
愓	-13.7271
塌	-13.7271
󰝟	-13.7271
㽵	-13.7271
喎	-13.7272
祑	-13.7272
瓷	-13.7272
鍍	-13.7272
媸	-13.7273
柁	-13.7273
𩯭	-13.7273
噦	-13.7273
舷	-13.7273
儇	-13.7274
妷	-13.7274
疴	-13.7274
磷	-13.7274
閥	-13.7274
蛭	-13.7275
惧	-13.7275
諟	-13.7275
偪	-13.7276
涑	-13.7276
揬	-13.7276
肎	-13.7276
偵	-13.7277
陡	-13.7277
犴	-13.7277
鶋	-13.7277
鷦	-13.7277
𢏺	-13.7278
烜	-13.7278
嚇	-13.7278
澓	-13.7278
嫚	-13.7278
㘅	-13.7279
竉	-13.7279
鬆	-13.7279
纁	-13.7279
逴	-13.7279
􂩇	-13.728
崒	-13.7281
鬅	-13.7281
銍	-13.7281
痿	-13.7282
憃	-13.7282
𨍏	-13.7283
郃	-13.7283
龑	-13.7283
杷	-13.7284
杰	-13.7284
訏	-13.7284
姤	-13.7285
𨈭	-13.7285
灤	-13.7285
囦	-13.7287
舄	-13.7287
鎌	-13.7287
芸	-13.7287
爥	-13.7287
瀍	-13.7288
乱	-13.7288
獦	-13.7289
鰻	-13.7289
豓	-13.7289
蹭	-13.729
餿	-13.7292
甿	-13.7292
屇	-13.7292
𧷤	-13.7292
踳	-13.7293
柚	-13.7294
噠	-13.7295
􂨊	-13.7295
晒	-13.7301
熅	-13.7302
荔	-13.7304
鞁	-13.7314
􃒙	-13.8153
潯	-13.8351
宓	-13.836
-	-13.8361
羚	-13.8363
栓	-13.8363
誶	-13.8365
狴	-13.8365
嫋	-13.8366
籓	-13.8368
眦	-13.8368
軛	-13.8368
晣	-13.8368
鮌	-13.8369
鄽	-13.8369
濆	-13.837
莚	-13.8371
靸	-13.8371
匆	-13.8371
鉄	-13.8372
㗚	-13.8373
澮	-13.8373
戇	-13.8373
訒	-13.8374
珎	-13.8376
踉	-13.8377
踔	-13.8377
酎	-13.8377
窑	-13.8377
凹	-13.8378
鱓	-13.8379
橧	-13.8379
賝	-13.8379
柸	-13.8379
緰	-13.838
扑	-13.838
軆	-13.838
頠	-13.838
饜	-13.838
𥧲	-13.838
囋	-13.838
蜎	-13.8381
傜	-13.8381
萸	-13.8381
崧	-13.8381
丫	-13.8382
羝	-13.8382
𣯃	-13.8382
餝	-13.8382
跗	-13.8382
霪	-13.8382
哿	-13.8382
踧	-13.8383
嘵	-13.8383
鶵	-13.8383
䓗	-13.8383
窀	-13.8383
隒	-13.8383
紼	-13.8383
􂜉	-13.8383
桁	-13.8383
荳	-13.8383
燮	-13.8384
𨶮	-13.8384
飃	-13.8384
墯	-13.8384
讙	-13.8384
􂔇	-13.8384
腊	-13.8385
繈	-13.8385
擦	-13.8385
襁	-13.8386
轕	-13.8386
摺	-13.8386
帊	-13.8386
卬	-13.8386
妝	-13.8387
犙	-13.8387
喔	-13.8387
䏶	-13.8387
瓛	-13.8387
响	-13.8388
昪	-13.8388
踖	-13.8388
捎	-13.8388
娟	-13.8388
骰	-13.8388
搶	-13.8389
搨	-13.8389
薗	-13.8389
箬	-13.839
櫪	-13.839
瑳	-13.839
罥	-13.8391
軬	-13.8391
趼	-13.8391
邨	-13.8392
号	-13.8392
莧	-13.8392
剴	-13.8393
杇	-13.8393
崤	-13.8393
􂖄	-13.8394
厰	-13.8394
蝎	-13.8395
悳	-13.8395
汛	-13.8395
秕	-13.8395
鎛	-13.8395
蕋	-13.8396
􂔿	-13.8396
𨷂	-13.8396
庀	-13.8397
湄	-13.8397
餗	-13.8398
芘	-13.8398
臬	-13.8399
鋹	-13.84
硜	-13.84
姹	-13.8401
𨿅	-13.8403
鯽	-13.8403
鏨	-13.8404
碼	-13.8405
葑	-13.8406
柟	-13.8407
􂎶	-13.8412
忮	-13.8414
柑	-13.8414
円	-13.8431
縚	-13.9571
牴	-13.9604
箍	-13.9605
竑	-13.9608
騑	-13.9609
膻	-13.961
躲	-13.961
隥	-13.9613
歬	-13.9613
懊	-13.9614
芦	-13.9617
瀲	-13.9618
􂩗	-13.9618
迃	-13.9619
蓻	-13.9619
窊	-13.9619
艙	-13.9619
礭	-13.962
綌	-13.962
涴	-13.962
晹	-13.9621
攧	-13.9621
薺	-13.9624
㠋	-13.9624
蜋	-13.9625
鑴	-13.9625
􂗓	-13.9625
焞	-13.9625
佪	-13.9625
窂	-13.9625
聀	-13.9625
焴	-13.9625
缸	-13.9625
嘅	-13.9626
慓	-13.9626
梠	-13.9626
咈	-13.9627
眘	-13.9628
蜯	-13.9628
􂁭	-13.9628
鍜	-13.9628
縡	-13.9628
饀	-13.9628
􂍨	-13.9629
襴	-13.9629
𠗦	-13.963
霫	-13.963
旴	-13.963
勻	-13.963
糶	-13.963
𢪛	-13.963
􂐈	-13.963
粤	-13.9631
鑷	-13.9631
柈	-13.9631
臛	-13.9631
汧	-13.9631
䔧	-13.9632
埠	-13.9632
餙	-13.9632
羑	-13.9632
鄘	-13.9632
袱	-13.9632
腯	-13.9633
蘸	-13.9633
躧	-13.9633
搢	-13.9634
懱	-13.9634
淙	-13.9634
蜻	-13.9634
盔	-13.9634
樅	-13.9634
湏	-13.9634
忓	-13.9634
𠏉	-13.9634
灨	-13.9634
畛	-13.9635
𨵃	-13.9635
㒒	-13.9636
倧	-13.9636
毯	-13.9636
墎	-13.9636
扯	-13.9636
楣	-13.9636
烋	-13.9636
枿	-13.9636
牾	-13.9637
腿	-13.9638
謌	-13.9638
鏹	-13.9638
鼉	-13.9638
蓁	-13.9638
䖃	-13.9639
侏	-13.9639
儭	-13.9639
瀁	-13.9639
唶	-13.9639
篷	-13.964
晧	-13.964
枻	-13.9641
滉	-13.9641
𨫼	-13.9641
偎	-13.9641
刓	-13.9641
很	-13.9641
樑	-13.9641
󳯟	-13.9642
繙	-13.9642
宁	-13.9642
嫰	-13.9642
檛	-13.9642
竁	-13.9643
胙	-13.9643
磎	-13.9643
鵷	-13.9643
鉦	-13.9643
僥	-13.9643
岾	-13.9643
苪	-13.9643
沗	-13.9644
崟	-13.9644
溯	-13.9644
獽	-13.9644
皙	-13.9644
歹	-13.9645
馝	-13.9645
殽	-13.9645
瘀	-13.9646
漼	-13.9647
𢬵	-13.9647
蔥	-13.9648
肪	-13.9648
畀	-13.9648
諏	-13.9649
跎	-13.9649
鶚	-13.9649
􃓛	-13.9649
檎	-13.965
糝	-13.965
c	-13.965
􂨨	-13.9651
齗	-13.9652
鷓	-13.9652
桅	-13.9653
𦣱	-13.9653
砲	-13.9654
籀	-13.9654
璲	-13.9655
幖	-13.9655
鴣	-13.9655
蜫	-13.9656
鼐	-13.9656
鬨	-13.9656
碯	-13.9658
獹	-13.9658
􂯰	-13.9659
仾	-13.966
􃒟	-13.9665
糕	-13.9665
誧	-13.9666
胔	-13.9668
䂓	-13.9703
𩚅	-14.1016
坳	-14.1018
噽	-14.1022
扛	-14.1024
碏	-14.1024
臏	-14.1027
篹	-14.1028
醭	-14.1036
賙	-14.1037
坯	-14.1038
篪	-14.1039
縧	-14.104
旍	-14.104
篅	-14.1041
贛	-14.1041
蠖	-14.1042
徊	-14.1042
毺	-14.1042
瞍	-14.1044
邰	-14.1045
鋼	-14.1045
鈆	-14.1045
䞉	-14.1046
𢫫	-14.1046
驄	-14.1046
鉀	-14.1047
敭	-14.1047
迕	-14.1048
瓿	-14.1048
鴂	-14.105
儱	-14.105
籕	-14.105
黶	-14.105
竽	-14.1051
鏻	-14.1051
𧩙	-14.1052
𡺸	-14.1052
紉	-14.1053
塈	-14.1054
嵫	-14.1054
胊	-14.1054
笴	-14.1054
舋	-14.1054
綯	-14.1054
邗	-14.1054
滙	-14.1055
髣	-14.1055
幌	-14.1055
酔	-14.1055
蓂	-14.1056
喈	-14.1056
琓	-14.1057
瘍	-14.1057
蔘	-14.1057
惽	-14.1057
嵸	-14.1057
趄	-14.1057
酊	-14.1057
篲	-14.1057
捱	-14.1058
瑊	-14.1058
鞔	-14.106
鍚	-14.106
螮	-14.106
焭	-14.106
嘩	-14.106
呴	-14.106
䋏	-14.1061
䰟	-14.1061
綝	-14.1061
旆	-14.1062
妲	-14.1062
匄	-14.1062
屧	-14.1062
緍	-14.1063
术	-14.1063
箎	-14.1063
襞	-14.1063
狌	-14.1064
樛	-14.1064
釅	-14.1066
𨓍	-14.1066
筧	-14.1066
驁	-14.1066
吧	-14.1066
揶	-14.1066
套	-14.1066
瓣	-14.1067
遹	-14.1067
搘	-14.1067
摳	-14.1067
勐	-14.1067
謩	-14.1068
湩	-14.1068
鸚	-14.1068
囁	-14.1068
桔	-14.1068
礡	-14.1069
綖	-14.1069
鬐	-14.1069
􂫓	-14.1069
厮	-14.1069
壜	-14.1069
𥘿	-14.1069
庋	-14.1069
𣣋	-14.1069
丳	-14.1069
缻	-14.1069
陊	-14.1069
痘	-14.107
确	-14.107
巇	-14.107
汹	-14.107
碪	-14.107
鼾	-14.107
怌	-14.107
苽	-14.1071
惸	-14.1071
轔	-14.1071
鎪	-14.1072
厶	-14.1072
􂨘	-14.1072
娜	-14.1072
迊	-14.1073
攜	-14.1073
狢	-14.1074
熸	-14.1074
瘼	-14.1074
嗈	-14.1075
棕	-14.1075
唔	-14.1075
釭	-14.1075
矰	-14.1075
瑎	-14.1075
獯	-14.1077
譊	-14.1077
濊	-14.1078
韁	-14.1078
籮	-14.1078
b	-14.1078
訇	-14.1079
醺	-14.1079
庥	-14.1079
柹	-14.108
耹	-14.108
笊	-14.1081
鬙	-14.1081
榸	-14.1082
溶	-14.1083
鄣	-14.1083
佼	-14.1084
􂜪	-14.1084
㴱	-14.1086
峘	-14.1088
袈	-14.1089
瘢	-14.109
劊	-14.109
棱	-14.1092
鄖	-14.1093
秏	-14.1093
􂒖	-14.1105
愒	-14.1114
𠒎	-14.2673
邯	-14.2695
詘	-14.2697
蹎	-14.2698
𦨣	-14.2698
絁	-14.2701
悊	-14.2703
堠	-14.2703
秔	-14.2703
䮚	-14.2703
觳	-14.2707
阼	-14.2708
螳	-14.2709
糩	-14.2709
螽	-14.271
譸	-14.271
㡧	-14.271
焙	-14.271
勖	-14.2711
酗	-14.2711
餁	-14.2712
蔗	-14.2712
亐	-14.2712
􂎈	-14.2712
曒	-14.2713
焱	-14.2714
槵	-14.2714
虅	-14.2715
胗	-14.2715
砒	-14.2716
綃	-14.2716
璆	-14.2716
酩	-14.2716
罡	-14.2717
轀	-14.2717
蠃	-14.2717
闃	-14.2717
癉	-14.2717
嚌	-14.2718
掄	-14.2718
樟	-14.2718
症	-14.2718
螂	-14.2719
䫻	-14.2719
陗	-14.2719
嘏	-14.2719
潠	-14.2719
醵	-14.2719
轘	-14.2719
臚	-14.272
搽	-14.272
菅	-14.272
輳	-14.272
蛄	-14.272
隟	-14.272
姧	-14.272
葊	-14.2721
宷	-14.2721
噲	-14.2722
胛	-14.2722
壩	-14.2722
蠓	-14.2722
懆	-14.2723
欖	-14.2723
獮	-14.2724
跧	-14.2724
搪	-14.2724
磉	-14.2724
􂸹	-14.2725
賵	-14.2725
鉠	-14.2726
嶪	-14.2726
衋	-14.2726
篚	-14.2726
拼	-14.2727
訹	-14.2727
隼	-14.2727
頮	-14.2727
𠁼	-14.2727
匳	-14.2727
屁	-14.2727
磣	-14.2727
槹	-14.2727
枵	-14.2727
爞	-14.2727
罋	-14.2727
騄	-14.2727
杞	-14.2727
礰	-14.2728
淈	-14.2728
䗈	-14.2728
畹	-14.2728
㬭	-14.2728
餕	-14.2728
撚	-14.2728
𨚗	-14.2729
蕨	-14.2729
洧	-14.2729
鷰	-14.2729
櫂	-14.2729
蘩	-14.2729
郕	-14.2729
灊	-14.2729
蹐	-14.273
眭	-14.273
阱	-14.273
𡑞	-14.2731
囕	-14.2731
刵	-14.2731
㟧	-14.2731
馚	-14.2731
儺	-14.2732
擄	-14.2732
塍	-14.2732
騣	-14.2732
珽	-14.2733
𤼭	-14.2733
瓏	-14.2733
壈	-14.2733
昫	-14.2733
䢴	-14.2733
螾	-14.2733
糵	-14.2734
膖	-14.2734
闤	-14.2734
麏	-14.2734
𢯱	-14.2734
畤	-14.2735
剸	-14.2735
掙	-14.2735
鄺	-14.2735
匈	-14.2736
癥	-14.2736
輈	-14.2736
瀧	-14.2736
圞	-14.2737
盇	-14.2737
辮	-14.2737
􃒞	-14.2738
淀	-14.2739
藋	-14.2739
棍	-14.2739
燀	-14.2739
玘	-14.2739
鶿	-14.2739
揁	-14.274
襃	-14.274
蝍	-14.2741
岏	-14.2741
侖	-14.2741
惄	-14.2741
禔	-14.2741
篝	-14.2741
祩	-14.2741
犲	-14.2742
蔴	-14.2742
炟	-14.2743
晳	-14.2743
霂	-14.2743
檠	-14.2743
堛	-14.2743
鼕	-14.2743
鴝	-14.2743
侻	-14.2744
桌	-14.2744
筩	-14.2744
􃒼	-14.2744
筈	-14.2746
旙	-14.2746
鷖	-14.2747
剳	-14.2747
蚡	-14.2748
獗	-14.2748
鞟	-14.2749
澉	-14.275
鍰	-14.275
敀	-14.275
槱	-14.2751
嘮	-14.2752
棼	-14.2753
㶑	-14.2753
呦	-14.2753
晼	-14.2754
䑳	-14.2755
艨	-14.2755
摣	-14.2755
鶡	-14.2756
䈥	-14.2757
誖	-14.2763
潀	-14.2764
枘	-14.2765
狺	-14.2766
㓨	-14.2767
髹	-14.2769
𢤁	-14.2772
􂷿	-14.28
擪	-14.4652
『	-14.4668
𠷐	-14.4674
棉	-14.4676
𪗋	-14.468
𥿭	-14.4684
鞘	-14.4684
鞕	-14.4688
麀	-14.4689
儵	-14.4692
爓	-14.4693
㯭	-14.4694
𢥠	-14.4695
鈇	-14.4696
胭	-14.4697
𣇄	-14.4698
桎	-14.4699
盰	-14.4701
僱	-14.4702
届	-14.4703
瞖	-14.4703
裎	-14.4704
𧦪	-14.4704
筊	-14.4704
酲	-14.4704
䬸	-14.4705
琲	-14.4705
抔	-14.4705
尒	-14.4706
甆	-14.4706
烘	-14.4707
鮭	-14.4708
沬	-14.4708
倛	-14.4708
噁	-14.4708
咃	-14.4709
詗	-14.4711
憝	-14.4711
荈	-14.4711
嚅	-14.4712
鏞	-14.4712
􂰜	-14.4712
泖	-14.4712
黲	-14.4712
㖀	-14.4712
掎	-14.4712
蛺	-14.4712
鷸	-14.4713
巃	-14.4713
輜	-14.4713
蒻	-14.4713
諉	-14.4713
剺	-14.4713
胖	-14.4713
趲	-14.4714
柅	-14.4714
荇	-14.4714
蟪	-14.4714
鵂	-14.4714
􃓖	-14.4714
㸌	-14.4714
抓	-14.4714
耰	-14.4714
蜩	-14.4714
屼	-14.4715
唅	-14.4715
弒	-14.4716
匊	-14.4716
槥	-14.4716
瞾	-14.4716
綘	-14.4716
蘤	-14.4717
膋	-14.4717
噭	-14.4717
帒	-14.4718
帢	-14.4718
㴾	-14.4718
灞	-14.4718
畸	-14.4718
胠	-14.4718
𩭄	-14.4719
𨂲	-14.4719
痬	-14.4719
瘻	-14.4719
孠	-14.4719
糙	-14.4719
䅳	-14.472
洼	-14.472
葫	-14.472
艑	-14.472
鬷	-14.472
莛	-14.4721
鵡	-14.4721
鉾	-14.4721
洳	-14.4721
爹	-14.4721
戹	-14.4721
顴	-14.4721
罾	-14.4721
𢁈	-14.4722
齆	-14.4722
苣	-14.4722
蝥	-14.4722
􂙠	-14.4722
躕	-14.4722
逍	-14.4723
坈	-14.4724
繻	-14.4724
廌	-14.4724
昰	-14.4724
澌	-14.4725
捄	-14.4725
梃	-14.4725
弶	-14.4725
珦	-14.4726
窴	-14.4726
窞	-14.4726
鷁	-14.4726
嚑	-14.4726
􂖂	-14.4726
婭	-14.4726
幙	-14.4727
㪍	-14.4727
檏	-14.4727
儈	-14.4727
頙	-14.4727
嗛	-14.4727
萹	-14.4727
酖	-14.4727
熛	-14.4728
礘	-14.4728
从	-14.4728
􂑓	-14.4728
爟	-14.4728
佷	-14.4728
寉	-14.4728
壼	-14.4728
愞	-14.4729
菸	-14.4729
􃐓	-14.4729
愾	-14.4729
揲	-14.4729
驃	-14.4729
偓	-14.473
夌	-14.473
眊	-14.473
彯	-14.473
儅	-14.473
遝	-14.473
俍	-14.473
憇	-14.4731
胼	-14.4731
殢	-14.4731
獍	-14.4731
蠛	-14.4731
峇	-14.4731
湟	-14.4732
玖	-14.4732
暍	-14.4732
蹣	-14.4732
􂢄	-14.4732
楪	-14.4733
䠒	-14.4733
瓖	-14.4733
齅	-14.4733
鮪	-14.4733
鸑	-14.4733
𥇒	-14.4733
䭔	-14.4733
佰	-14.4733
汜	-14.4733
諐	-14.4733
鞱	-14.4733
橇	-14.4734
么	-14.4734
瞹	-14.4734
褪	-14.4734
􂗘	-14.4734
湢	-14.4734
瑠	-14.4735
𦤎	-14.4735
礨	-14.4735
适	-14.4736
仼	-14.4736
楂	-14.4736
堲	-14.4736
蟟	-14.4736
旟	-14.4737
檟	-14.4737
貙	-14.4737
玡	-14.4737
闓	-14.4737
壃	-14.4738
穠	-14.4738
站	-14.4738
橙	-14.4739
籞	-14.4739
构	-14.4739
𢠵	-14.4739
痁	-14.474
瑙	-14.474
种	-14.474
囱	-14.474
挌	-14.474
蹍	-14.474
懞	-14.4741
騙	-14.4741
廑	-14.4741
軄	-14.4742
麩	-14.4742
糒	-14.4742
蓰	-14.4742
谹	-14.4742
郿	-14.4742
佈	-14.4742
𩅦	-14.4742
穅	-14.4743
軺	-14.4743
仿	-14.4743
圬	-14.4743
訽	-14.4743
磽	-14.4744
坵	-14.4744
荂	-14.4744
呷	-14.4745
賕	-14.4745
䧟	-14.4745
㨗	-14.4745
蓉	-14.4745
戱	-14.4746
岊	-14.4746
柎	-14.4746
嵋	-14.4747
咼	-14.4747
囏	-14.4747
睪	-14.4747
餱	-14.4748
啁	-14.4748
瞙	-14.4748
𨏦	-14.4748
髴	-14.4748
戩	-14.4748
攤	-14.4748
濰	-14.4748
熲	-14.4748
蓀	-14.4749
堇	-14.4749
靶	-14.4749
菘	-14.4749
䴏	-14.4749
脰	-14.475
虻	-14.475
礚	-14.475
摻	-14.4751
唍	-14.4751
渣	-14.4751
􃒻	-14.4751
糸	-14.4752
􃒵	-14.4752
纇	-14.4752
鬂	-14.4753
㓟	-14.4754
𦭞	-14.4754
霛	-14.4755
沚	-14.4755
嶋	-14.4755
劘	-14.4755
琱	-14.4755
纈	-14.4756
亷	-14.4756
塸	-14.4757
蘘	-14.4757
簑	-14.4758
剿	-14.4758
貰	-14.4758
豏	-14.4758
躞	-14.4759
矌	-14.4759
幰	-14.476
阽	-14.476
諴	-14.4762
坰	-14.4763
􂞲	-14.4765
𤓰	-14.4767
喀	-14.4769
󳼶	-14.4772
玞	-14.4772
軰	-14.4788
𧩰	-14.7044
C	-14.7091
B	-14.7095
—	-14.7101
凷	-14.7161
襻	-14.7162
黈	-14.7168
銃	-14.7177
汏	-14.718
癤	-14.7181
閿	-14.7184
麂	-14.7184
牂	-14.7185
鄶	-14.7185
耎	-14.7188
蟜	-14.7188
䏑	-14.7188
嵦	-14.7192
庙	-14.7193
繯	-14.7194
𢍉	-14.7194
鄷	-14.7194
㑺	-14.7195
㦎	-14.7197
䥴	-14.7199
洴	-14.7199
蠭	-14.7201
倥	-14.7201
飥	-14.7201
覉	-14.7201
縋	-14.7201
踽	-14.7202
𡨔	-14.7202
諄	-14.7202
蚘	-14.7204
墄	-14.7204
票	-14.7204
斖	-14.7204
罻	-14.7206
鮐	-14.7206
暾	-14.7206
囌	-14.7206
彡	-14.7207
𢎿	-14.7208
飧	-14.7208
錡	-14.7208
斝	-14.7208
琡	-14.7208
𥉌	-14.7208
濘	-14.7209
㗸	-14.7209
峧	-14.7209
翎	-14.7209
𦙁	-14.7209
懨	-14.7209
泞	-14.721
祫	-14.721
荽	-14.721
褌	-14.7211
撅	-14.7212
拚	-14.7212
踹	-14.7212
墪	-14.7212
憜	-14.7212
獐	-14.7213
藮	-14.7213
虯	-14.7213
暯	-14.7213
茇	-14.7215
榍	-14.7215
鏖	-14.7215
贜	-14.7215
嘇	-14.7215
醆	-14.7215
魈	-14.7215
賮	-14.7215
𦵮	-14.7215
荑	-14.7216
蕢	-14.7216
𣃆	-14.7216
惷	-14.7216
慌	-14.7216
萋	-14.7217
稾	-14.7217
鋈	-14.7217
缼	-14.7217
∴	-14.7217
楛	-14.7217
殳	-14.7217
焯	-14.7217
鵑	-14.7217
籄	-14.7217
蓱	-14.7219
●	-14.7219
㘁	-14.7219
齲	-14.7219
燻	-14.7219
㗋	-14.7219
篱	-14.7219
証	-14.7219
矱	-14.7219
褲	-14.7219
綩	-14.7219
拐	-14.7219
搠	-14.7219
𢼨	-14.7219
瞱	-14.7219
仔	-14.7219
囲	-14.722
靘	-14.722
嫫	-14.722
㸐	-14.722
偰	-14.7221
焂	-14.7221
岺	-14.7222
杅	-14.7222
芙	-14.7222
茱	-14.7222
菆	-14.7222
蔌	-14.7222
飤	-14.7222
㶦	-14.7222
鞶	-14.7223
贋	-14.7223
㔁	-14.7223
渰	-14.7223
㞧	-14.7223
𦤞	-14.7223
餤	-14.7223
抦	-14.7223
掁	-14.7223
𧜼	-14.7223
轥	-14.7224
痞	-14.7224
霣	-14.7224
栍	-14.7224
袜	-14.7224
鞲	-14.7224
餳	-14.7226
繾	-14.7226
鷴	-14.7226
譍	-14.7226
䍧	-14.7226
縆	-14.7226
剄	-14.7226
繐	-14.7227
禊	-14.7227
蚿	-14.7227
剠	-14.7227
鍑	-14.7227
韡	-14.7227
傖	-14.7227
𡱰	-14.7227
湔	-14.7227
軿	-14.7227
鎞	-14.7228
泅	-14.7228
們	-14.7228
矝	-14.7228
礿	-14.7229
曤	-14.7229
粇	-14.7229
詃	-14.7229
鬟	-14.7229
虣	-14.7229
煗	-14.7229
絫	-14.7229
欀	-14.7229
𨵗	-14.7229
壎	-14.723
𣔻	-14.723
陝	-14.723
馞	-14.7231
毖	-14.7231
婣	-14.7231
庳	-14.7231
柂	-14.7231
螗	-14.7231
䂐	-14.7231
愶	-14.7231
榦	-14.7231
趐	-14.7231
𦟛	-14.7231
渢	-14.7231
鮫	-14.7231
䩫	-14.7233
煠	-14.7233
啝	-14.7233
駃	-14.7233
灔	-14.7233
薉	-14.7233
蔀	-14.7233
蕂	-14.7233
吨	-14.7234
磈	-14.7234
暵	-14.7234
扙	-14.7234
嶲	-14.7234
榧	-14.7234
銼	-14.7234
寑	-14.7235
慱	-14.7235
巑	-14.7235
榘	-14.7235
枸	-14.7235
衖	-14.7235
嚏	-14.7235
殭	-14.7235
鬖	-14.7235
𢷤	-14.7235
埸	-14.7237
舀	-14.7237
鏺	-14.7237
䠱	-14.7237
寠	-14.7237
痂	-14.7237
贗	-14.7238
熢	-14.7238
翷	-14.7238
鯹	-14.7238
栟	-14.7238
槳	-14.724
臞	-14.724
罘	-14.724
鬭	-14.724
擭	-14.7241
礓	-14.7241
狖	-14.7241
葪	-14.7241
裊	-14.7241
喨	-14.7241
淇	-14.7241
薾	-14.7241
𥢶	-14.7241
𧩡	-14.7241
𩗺	-14.7241
饈	-14.7242
𨺗	-14.7242
皭	-14.7242
輛	-14.7242
塠	-14.7242
慁	-14.7242
秫	-14.7242
犳	-14.7242
昀	-14.7243
穪	-14.7243
颸	-14.7244
茞	-14.7244
懕	-14.7244
棐	-14.7244
靃	-14.7244
溱	-14.7245
韌	-14.7245
礲	-14.7245
嫠	-14.7245
磻	-14.7245
f	-14.7245
曮	-14.7246
頥	-14.7247
䀸	-14.7247
耡	-14.7247
鼃	-14.7247
㥏	-14.7247
鞾	-14.7248
猘	-14.7248
䵟	-14.7249
麫	-14.7249
璁	-14.7249
竮	-14.7249
䃜	-14.7249
攎	-14.7251
睍	-14.7251
僜	-14.7252
芰	-14.7252
匜	-14.7252
燖	-14.7252
厈	-14.7253
倜	-14.7255
悏	-14.7255
慽	-14.7255
氊	-14.7255
哳	-14.7256
汔	-14.7257
鐲	-14.7258
餂	-14.7259
挪	-14.7259
枰	-14.726
煇	-14.726
鯈	-14.726
噞	-14.7262
搓	-14.7262
鷇	-14.7263
秸	-14.7263
哪	-14.7264
芊	-14.7266
騅	-14.7266
錞	-14.7267
圝	-14.7276
姍	-14.7277
籛	-14.7294
彿	-15.0521
凰	-15.0545
憔	-15.0553
魑	-15.0555
匐	-15.0563
慷	-15.057
靺	-15.0571
氀	-15.0575
肓	-15.0587
擻	-15.0623
惆	-15.5525
鄱	-15.5534
鄲	-15.5538
誵	-15.5547
瑪	-15.5553
倆	-15.5559
翛	-15.5564
獼	-15.5578
繽	-15.5584
匍	-15.5591
闠	-15.5597
嶇	-15.5616
綂	-15.5626
𦳃	-16.5379
𤛆	-16.538
鷟	-16.5381
鶹	-16.5382
骾	-16.5383
馟	-16.5384
餛	-16.5385
飩	-16.5386
雘	-16.5387
鑕	-16.5388
遛	-16.5389
趑	-16.539
蚑	-16.5391
蕷	-16.5392
菉	-16.5393
芍	-16.5394
耙	-16.5395
簌	-16.5396
畐	-16.5397
珷	-16.5398
烊	-16.5399
炆	-16.54
瀜	-16.5401
淴	-16.5402
浺	-16.5403
樨	-16.5404
嶀	-16.5405
婓	-16.5406
妁	-16.5407
墡	-16.5408
剟	-16.5409
僬	-16.541
倻	-16.5411
䤬	-16.5412
䙡	-16.5413
䖟	-16.5414
䍌	-16.5415
㨖	-16.5416
┼	-16.5417
鞨	-16.5418
𢈔	-16.5418
𡵙	-16.5419
𡵆	-16.542
𠿒	-16.5421
𠺕	-16.5422
麛	-16.5423
輬	-16.5424
贑	-16.5425
觽	-16.5426
蟋	-16.5427
蟀	-16.5428
蕝	-16.5429
蕅	-16.543
莩	-16.5431
臙	-16.5432
胯	-16.5433
糢	-16.5434
粢	-16.5435
簠	-16.5436
痏	-16.5437
濙	-16.5438
歅	-16.5439
枇	-16.544
戄	-16.5441
恓	-16.5442
怩	-16.5443
岧	-16.5444
孌	-16.5445
咿	-16.5446
伅	-16.5447
䓻	-16.5448
𣱦	-16.5449
𠽋	-16.545
鷯	-16.5451
鱍	-16.5452
饡	-16.5453
颰	-16.5454
鋙	-16.5455
輊	-16.5456
襮	-16.5457
蜱	-16.5458
蜍	-16.5459
蘅	-16.546
蒹	-16.5461
脞	-16.5462
磲	-16.5463
硿	-16.5464
硨	-16.5465
棻	-16.5466
栂	-16.5467
抆	-16.5468
惵	-16.5469
庬	-16.547
幵	-16.5471
呰	-16.5472
儴	-16.5473
䳌	-16.5474
𡽀	-16.5475
鱷	-16.5476
顦	-16.5477
蝴	-16.5478
薔	-16.5479
蒢	-16.548
熳	-16.5481
溧	-16.5482
毹	-16.5483
撙	-16.5484
徬	-16.5485
㗭	-16.5486
𩜁	-16.5487
轇	-16.5488
茢	-16.5489
逡	-16.549
蟆	-16.549
磤	-16.549
潸	-16.5491
椸	-16.5492
徜	-16.5493
嵊	-16.5494
媽	-16.5495
剚	-16.5496
鸝	-16.5497
鷥	-16.5498
鶗	-16.5499
螃	-16.55
睥	-16.5501
挲	-16.5502
彔	-16.5503
妤	-16.5504
嚷	-16.5505
㔜	-16.5506
𢶍	-16.5507
𠢐	-16.5508
饅	-16.5509
蜈	-16.551
蚣	-16.5511
撕	-16.5512
薏	-16.5512
纚	-16.5513
磓	-16.5514
琥	-16.5515
櫳	-16.5516
齬	-16.5517
齟	-16.5518
狻	-16.5519
涬	-16.552
厔	-16.5521
馲	-16.5522
菖	-16.5523
覼	-16.5524
綮	-16.5525
搐	-16.5526
奝	-16.5527
塿	-16.5528
齁	-16.5529
靼	-16.553
茯	-16.5531
翡	-16.5532
篌	-16.5533
娓	-16.5534
儡	-16.5535
𥦽	-16.5536
魍	-16.5537
蜊	-16.5538
鈯	-16.5538
襤	-16.5539
瓈	-16.554
傀	-16.5541
靉	-16.5542
靆	-16.5543
緲	-16.5544
痆	-16.5545
麒	-16.5546
齷	-16.5546
鏑	-16.5547
跬	-16.5548
燹	-16.5549
椰	-16.555
鵓	-16.5551
窕	-16.5552
萏	-16.5553
菡	-16.5554
圄	-16.5555
嚀	-16.5556
躊	-16.5557
棙	-16.5558
蚯	-16.5559
瑭	-16.556
蝙	-16.5561
蛣	-16.5562
窿	-16.5563
狽	-16.5564
俙	-16.5565
駸	-16.5566
潺	-16.5567
琵	-16.5568
謦	-16.5569
𨁝	-16.557
歔	-16.557
愀	-16.5571
萄	-16.5572
瞌	-16.5573
崢	-16.5574
邂	-16.5575
┐	-16.5576
┘	-16.5577
>	-16.5578
牯	-16.5579
駙	-16.558
婇	-16.5581
┌	-16.5582
靂	-16.5583
琊	-16.5584
紜	-16.5585
醐	-16.5586
+	-16.5587
│	-16.5588
徘	-16.5589
o	-16.559
N	-16.5591
睺	-16.5592
裟	-16.5593
|	-16.5594
燉	-16.5594
