<unk>	0
<s>	0
</s>	0
。	-2.08575
,	-3.57353
者	-4.48865
、	-4.88059
若	-5.00284
也	-5.02824
故	-5.10378
:「	-5.24356
不	-5.25994
(	-5.29942
為	-5.43017
二	-5.44499
一	-5.49651
之	-5.49714
有	-5.49772
是	-5.50982
以	-5.5321
法	-5.56454
中	-5.60088
。」	-5.61738
人	-5.65663
此	-5.69891
時	-5.70579
)	-5.7065
即	-5.71835
言	-5.73766
三	-5.74123
無	-5.79137
謂	-5.79339
得	-5.82937
作	-5.83477
如	-5.8643
於	-5.88375
等	-5.88615
心	-5.92056
▁*	-5.99108
行	-5.99215
比丘	-6.0404
非	-6.05517
四	-6.07277
說	-6.08411
而	-6.10062
戒	-6.10885
我	-6.14819
云	-6.15928
應	-6.16304
與	-6.16409
受	-6.17055
下	-6.17267
佛	-6.18481
名	-6.22429
其	-6.22998
生	-6.25037
自	-6.2553
彼	-6.25866
▁	-6.27642
食	-6.27762
或	-6.2819
大	-6.28258
事	-6.29283
相	-6.30005
僧	-6.31118
見	-6.33016
問	-6.33448
五	-6.34219
至	-6.34402
不得	-6.35542
後	-6.36234
所	-6.37093
當	-6.37415
及	-6.38186
處	-6.38277
上	-6.39869
衣	-6.41427
今	-6.45069
已	-6.45854
前	-6.46565
身	-6.46951
巳	-6.50785
!	-6.51292
亦	-6.53075
;	-6.54335
)。	-6.54376
?」	-6.54453
在	-6.54881
欲	-6.57255
令	-6.58152
則	-6.58384
同	-6.58641
出	-6.59663
諸	-6.59968
犯	-6.60064
又	-6.60255
明	-6.6088
從	-6.61949
義	-6.62073
入	-6.62454
分	-6.62918
多	-6.64199
知	-6.64866
取	-6.66158
通	-6.67194
成	-6.679
:『	-6.67935
語	-6.68711
罪	-6.68983
初	-6.69303
汝	-6.71193
皆	-6.7152
用	-6.71987
來	-6.72788
能	-6.74006
隨	-6.74091
答	-6.7473
佛言	-6.75846
教	-6.76733
眾	-6.76912
緣	-6.7771
乃至	-6.78271
一切	-6.78284
王	-6.79729
可	-6.803
道	-6.81072
意	-6.81089
經	-6.81418
過	-6.82027
物	-6.82309
因	-6.83312
本	-6.83522
先	-6.83788
便	-6.83877
解	-6.84578
文	-6.85367
起	-6.85631
?	-6.86039
餘	-6.87451
持	-6.8817
次	-6.88374
。」【	-6.88964
重	-6.90691
曰	-6.9176
如是	-6.92295
別	-6.93116
復	-6.93977
開	-6.95222
師	-6.9559
觀	-6.96061
須	-6.96356
六	-6.96403
正	-6.96424
捨	-6.98048
羯磨	-6.9806
善	-6.9807
但	-6.98888
尼	-6.99186
菩薩	-6.99491
。】「	-6.99812
著	-7.00441
然	-7.01192
釋	-7.01658
住	-7.02783
。』	-7.02939
未	-7.03335
淨	-7.03355
具	-7.03778
結	-7.04639
聽	-7.0494
地	-7.06461
定	-7.07528
由	-7.07933
還	-7.08104
制	-7.09188
難	-7.09237
依	-7.09296
舉	-7.09844
求	-7.1056
他	-7.10841
共	-7.11082
雖	-7.11873
七	-7.12501
既	-7.13998
去	-7.14091
耶	-7.1452
施	-7.16143
除	-7.17095
請	-7.20084
世尊	-7.20157
聞	-7.20284
坐	-7.21192
常	-7.21327
十	-7.21775
盡	-7.2385
論	-7.24207
第二	-7.2493
業	-7.2514
斷	-7.25155
立	-7.25167
使	-7.25611
八	-7.25688
水	-7.26203
對	-7.2713
異	-7.27256
竟	-7.27259
想	-7.27282
破	-7.30389
滅	-7.30978
色	-7.31092
不應	-7.31205
日	-7.31966
俱	-7.32107
小	-7.32159
離	-7.32295
合	-7.32617
失	-7.32741
果	-7.32768
惡	-7.32829
若比丘	-7.33378
門	-7.33632
白	-7.33918
往	-7.34387
向	-7.34759
體	-7.34917
答言	-7.35563
乃	-7.35864
內	-7.36103
約	-7.36331
理	-7.36443
:	-7.37667
方	-7.37911
更	-7.38944
念	-7.39004
外	-7.39209
比丘尼	-7.3961
兩	-7.40174
出家	-7.40373
律	-7.40796
】	-7.40879
願	-7.41381
諸比丘	-7.42431
子	-7.43065
。「	-7.43375
鉢	-7.43381
天	-7.43436
女	-7.43447
修	-7.43604
將	-7.43727
眾生	-7.44077
空	-7.44561
樂	-7.45114
數	-7.45209
境	-7.4552
如來	-7.45663
並	-7.46134
苦	-7.46481
長	-7.46507
方便	-7.48021
各	-7.48034
不犯	-7.48511
學	-7.48975
家	-7.49207
何	-7.50413
第三	-7.50647
智	-7.51358
顯	-7.51359
唯	-7.51679
報	-7.51865
界	-7.52165
死	-7.53303
實	-7.53551
發	-7.53802
輕	-7.54201
疏	-7.54526
苾芻	-7.54632
故云	-7.55023
位	-7.5569
足	-7.55749
引	-7.55843
主	-7.559
疑	-7.55957
是名	-7.56039
突吉羅	-7.56269
廣	-7.56382
攝	-7.57284
波逸提	-7.57818
識	-7.58091
必	-7.58335
殺	-7.58367
利	-7.5925
清淨	-7.59546
云何	-7.59579
現	-7.60059
度	-7.60361
藥	-7.60473
不可	-7.62152
勝	-7.62366
覆	-7.62698
集	-7.6304
供養	-7.63175
沙彌	-7.63453
證	-7.6354
不同	-7.63638
性	-7.6423
安	-7.64689
國	-7.64738
不知	-7.65955
指	-7.66035
病	-7.66157
口	-7.66877
壞	-7.67442
就	-7.68054
止	-7.68207
名為	-7.68316
少	-7.68724
要	-7.6927
寶	-7.70572
不能	-7.71422
護	-7.71476
爾時	-7.72122
即是	-7.72189
頭	-7.73102
某甲	-7.73169
乞	-7.74517
略	-7.74935
直	-7.74969
治	-7.75462
好	-7.75759
九	-7.76849
世	-7.77113
示	-7.77175
品	-7.78587
轉	-7.78758
邊	-7.79584
禮	-7.80001
滿	-7.80013
信	-7.8008
耳	-7.80364
弟子	-7.80413
根	-7.81943
字	-7.83098
量	-7.83309
凡	-7.83513
聖	-7.8387
如法	-7.84183
藏	-7.84208
外道	-7.84916
俗	-7.84951
德	-7.85079
懺	-7.85591
盜	-7.85733
命	-7.85743
差	-7.86007
宗	-7.86468
故曰	-7.86721
第一	-7.86977
總	-7.87784
斯	-7.88183
觸	-7.8855
畜	-7.88814
所以	-7.89178
力	-7.90106
反	-7.90179
深	-7.90295
違	-7.90551
遮	-7.90584
說法	-7.90711
大德	-7.90873
聲	-7.90917
辨	-7.91508
誦	-7.91914
化	-7.92295
▁二	-7.92906
情	-7.9336
慧	-7.93541
種	-7.93615
歸	-7.93736
莫	-7.93768
稱	-7.93876
加	-7.94636
恐	-7.94818
受戒	-7.9542
此是	-7.96306
光	-7.96494
覺	-7.96604
宿	-7.9772
若有	-7.98023
自恣	-7.98125
等者	-7.98578
非法	-7.98823
手	-7.98943
音	-7.99398
是故	-7.99701
屬	-7.99925
被	-8.00023
墮	-8.00051
一人	-8.00316
執	-8.00528
因緣	-8.01115
房	-8.0176
樹	-8.01768
會	-8.01884
眾僧	-8.0237
真	-8.03214
器	-8.03916
遂	-8.03935
類	-8.04178
次第	-8.04451
據	-8.05529
若不	-8.05589
四分	-8.05643
染	-8.05682
山	-8.057
造	-8.05812
形	-8.05891
增	-8.05917
障	-8.06285
許	-8.06544
如上	-8.06762
第四	-8.06921
望	-8.07
妄	-8.07063
到	-8.07133
猶	-8.07457
高	-8.07549
說戒	-8.07993
女人	-8.0894
極	-8.09136
告	-8.0969
羅	-8.09852
流	-8.09907
懺悔	-8.09945
我今	-8.10256
句	-8.10276
且	-8.1132
功德	-8.11568
遠	-8.1163
和	-8.11728
沙門	-8.11926
妙	-8.12355
半	-8.12556
不成	-8.131
悉	-8.13506
提	-8.13922
不淨	-8.14096
父母	-8.14286
夜	-8.14483
雜	-8.15078
火	-8.15167
▁初	-8.15172
喻	-8.15283
篇	-8.15369
上座	-8.15715
我等	-8.1591
母	-8.16076
服	-8.16547
謗	-8.16688
賊	-8.16973
福	-8.17171
無罪	-8.17488
准	-8.17489
易	-8.17753
爾	-8.17782
打	-8.17828
部	-8.18101
涅槃	-8.18208
財	-8.18556
煩惱	-8.1861
悔	-8.18659
親	-8.18959
神	-8.19125
無量	-8.19179
設	-8.19869
種種	-8.20152
香	-8.20162
草	-8.20701
捉	-8.20872
安居	-8.21396
并	-8.21426
如前	-8.21497
年	-8.21604
授	-8.21778
勸	-8.22169
一一	-8.22446
作法	-8.22533
標	-8.22778
記	-8.22805
順	-8.23197
齊	-8.2327
貪	-8.23671
傳	-8.24018
諫	-8.24278
解脫	-8.24296
諍	-8.24309
寺	-8.24634
某	-8.25596
波羅夷	-8.25755
塔	-8.26555
獨	-8.26649
列	-8.26774
宜	-8.26803
大乘	-8.26804
居士	-8.27109
趣	-8.27475
佛法	-8.27645
答曰	-8.27801
圓	-8.28221
無犯	-8.28222
損	-8.29475
分別	-8.29587
矣	-8.29622
忍	-8.29734
阿難	-8.29899
看	-8.29986
思	-8.30148
亦如是	-8.30476
索	-8.30508
月	-8.31154
三寶	-8.312
了	-8.31347
。」「	-8.31355
汝等	-8.31389
敬	-8.31658
假	-8.31959
故名	-8.32157
無有	-8.32642
具足	-8.32655
十二	-8.32688
居	-8.32699
金	-8.32943
息	-8.33039
簡	-8.33211
例	-8.33292
舍	-8.33451
近	-8.33514
根本	-8.33561
計	-8.33857
而不	-8.33923
邪	-8.34236
長者	-8.34431
尊	-8.34568
置	-8.34568
經云	-8.34952
?』	-8.3523
書	-8.35412
十誦	-8.3579
棄	-8.35938
益	-8.36051
二者	-8.36408
動	-8.36619
然後	-8.36634
。○	-8.37267
華	-8.37379
若比丘尼	-8.37484
住處	-8.37594
。】「【	-8.37719
愛	-8.37895
不受	-8.37978
迷	-8.38384
聚	-8.38714
全	-8.38904
夫	-8.39125
一者	-8.39482
和合	-8.3971
互	-8.39748
似	-8.3979
那	-8.39818
乘	-8.39881
成就	-8.40092
眼	-8.40108
摩	-8.40158
可知	-8.40249
僧祇	-8.4042
夏	-8.40474
新	-8.40633
飲食	-8.40724
誰	-8.41143
遣	-8.4154
吉	-8.41574
於此	-8.41625
兼	-8.4175
酒	-8.41925
現前	-8.41964
習	-8.42545
和尚	-8.42553
有二	-8.42869
飲	-8.4315
儀	-8.43294
致	-8.43867
第五	-8.43951
表	-8.44051
強	-8.44166
應當學	-8.44238
城	-8.44241
終	-8.44244
婆羅門	-8.44341
威儀	-8.44485
座	-8.4453
土	-8.44553
唱	-8.44629
五分	-8.45072
木	-8.45143
目	-8.45204
照	-8.45735
大德僧聽	-8.46019
劫	-8.46114
大眾	-8.46173
七日	-8.46576
慈	-8.46726
此云	-8.47022
三衣	-8.47045
尚	-8.47197
諸佛	-8.472
惱	-8.47333
!」	-8.47621
呵	-8.47731
害	-8.48198
世間	-8.4837
待	-8.48474
受持	-8.48889
輕重	-8.49189
陀	-8.49255
瞋	-8.49843
長老	-8.50288
飯	-8.5053
風	-8.50632
婆	-8.50642
久	-8.50926
喜	-8.51084
白衣	-8.51239
首	-8.51845
準	-8.51895
尋	-8.51966
覆藏	-8.51985
巳下	-8.5221
又云	-8.52623
始	-8.52667
機	-8.52999
像	-8.53232
百	-8.53242
禪	-8.53297
拜	-8.53719
古	-8.53894
婬	-8.53913
聚落	-8.54203
容	-8.54321
判	-8.54722
譯	-8.54901
遍	-8.54935
一切眾生	-8.55034
奉	-8.55102
毗尼	-8.55156
收	-8.55174
決	-8.55256
乎	-8.55328
石	-8.55476
興	-8.55619
若無	-8.55631
阿	-8.55699
持戒	-8.55715
詣	-8.55808
供	-8.55927
波夜提	-8.55929
妄語	-8.56164
何故	-8.5623
之人	-8.56659
龍	-8.56946
不犯者	-8.57215
況	-8.57327
迦	-8.57333
豈	-8.57584
堂	-8.5764
此戒	-8.57729
奪	-8.57845
聲聞	-8.59035
所有	-8.59077
臥	-8.59293
▁三	-8.59312
正法	-8.59316
是比丘	-8.5933
所說	-8.59338
乞食	-8.59382
施主	-8.59436
伹	-8.59803
達	-8.60047
非時	-8.60086
尊者	-8.60137
衣鉢	-8.60319
不見	-8.60539
肉	-8.60617
脚	-8.60736
男	-8.6081
路	-8.60959
患	-8.60972
蘭	-8.60979
洗	-8.61317
有三	-8.61317
限	-8.61497
存	-8.61626
序	-8.61749
布薩	-8.61968
細	-8.62128
乖	-8.62223
放	-8.62333
作是念	-8.62415
千	-8.62434
殘	-8.62659
進	-8.62683
是也	-8.62765
海	-8.62918
闕	-8.63107
僧中	-8.63151
散	-8.63758
局	-8.63771
毛	-8.63781
何以故	-8.63812
比	-8.63832
法者	-8.63874
翻	-8.64129
亦爾	-8.64297
面	-8.64515
偷蘭遮	-8.64532
曾	-8.64719
味	-8.65042
亦不	-8.65387
勿	-8.65686
婦	-8.65688
如此	-8.65755
亂	-8.66198
和上	-8.66291
否	-8.66313
却	-8.66499
十六	-8.66565
呪	-8.6685
村	-8.66906
馬	-8.67018
不聽	-8.67022
文中	-8.67144
葉	-8.67481
癡	-8.67755
語言	-8.67907
。【	-8.68008
○	-8.68044
懷	-8.68114
三昧	-8.68301
或有	-8.68425
間	-8.68581
讚	-8.69
生死	-8.69114
牛	-8.69132
不須	-8.695
舊	-8.69881
問言	-8.70008
隨意	-8.70325
菩提	-8.70385
依止	-8.70523
塵	-8.70573
象	-8.7064
此中	-8.70679
畜生	-8.71144
不定	-8.71296
應與	-8.71305
輪	-8.71315
以此	-8.71353
雙	-8.71537
無作	-8.71694
僧伽	-8.72191
縱	-8.72253
十八	-8.72295
車	-8.72497
三種	-8.72505
歡喜	-8.72645
五百	-8.72678
號	-8.72951
卷	-8.72955
兒	-8.7306
末	-8.73083
期	-8.73233
偈	-8.73405
男子	-8.73581
以為	-8.73599
臥具	-8.73835
喚	-8.73918
彰	-8.73987
留	-8.741
錢	-8.74149
惑	-8.74192
沙彌尼	-8.74253
之法	-8.74481
脫	-8.74713
支	-8.74751
忘	-8.74758
所謂	-8.74789
即便	-8.75528
梵	-8.75535
燒	-8.75538
大小	-8.75994
「	-8.7634
蓋	-8.76566
述	-8.7673
切	-8.76957
林	-8.76962
守	-8.77019
檀越	-8.77245
昔	-8.77251
多少	-8.77347
減	-8.77511
故知	-8.77733
而去	-8.77896
三者	-8.77968
皮	-8.78151
莊嚴	-8.78309
自言	-8.78399
受用	-8.78501
防	-8.7862
迦葉	-8.78856
有一	-8.7886
自然	-8.78941
我當	-8.78948
得罪	-8.79076
毀	-8.79097
律云	-8.7948
甚	-8.79568
父	-8.79672
四句	-8.80018
逆	-8.80048
陳	-8.80096
不與	-8.80168
毘尼	-8.80184
僧伽婆尸沙	-8.80361
不善	-8.8045
獲	-8.80699
悟	-8.80746
惟	-8.81052
同前	-8.81175
若言	-8.81448
復有	-8.81507
戒本	-8.8157
訶	-8.81664
智慧	-8.82078
二人	-8.82474
咸	-8.82537
急	-8.82605
第六	-8.82665
恒	-8.83221
何以	-8.83236
中間	-8.8328
周	-8.83348
地獄	-8.83381
屋	-8.83382
十一	-8.83666
資	-8.83679
敷	-8.83907
繫	-8.83955
越	-8.84041
齋	-8.84249
濟	-8.84346
如何	-8.84408
亦名	-8.84599
盛	-8.8479
科	-8.84961
普	-8.8502
問曰	-8.85025
白佛	-8.85071
單	-8.85808
之時	-8.85948
律中	-8.85993
一心	-8.8606
伴	-8.86128
非人	-8.86272
微	-8.8643
白言	-8.86446
變	-8.86534
雨	-8.86576
.	-8.86855
鈔	-8.86918
法界	-8.86934
漸	-8.87049
絕	-8.87055
魔	-8.87076
苾芻尼	-8.872
永	-8.87455
背	-8.87459
呵責	-8.87472
破僧	-8.87519
污	-8.87605
波	-8.87845
私	-8.88044
之中	-8.88176
多論	-8.88301
彼比丘	-8.88638
與我	-8.88713
備	-8.88906
泥	-8.88941
前後	-8.89347
報言	-8.89401
故言	-8.895
伽	-8.89827
隔	-8.89903
慢	-8.89935
付	-8.90145
十方	-8.90238
段	-8.90298
二種	-8.90613
破戒	-8.90671
當知	-8.90672
黑	-8.90777
亦得	-8.9079
時有	-8.9092
不許	-8.91088
五種	-8.91125
十三	-8.91385
下明	-8.91608
亦有	-8.91737
牒	-8.91754
默然	-8.9201
作羯磨	-8.92042
教人	-8.92325
遇	-8.92348
條	-8.92413
功	-8.9253
偏	-8.92804
床	-8.92896
四人	-8.93121
章	-8.93141
注	-8.93239
云云	-8.93245
不作	-8.93463
禁	-8.93583
救	-8.93672
一時	-8.93789
得戒	-8.93907
迴	-8.94136
專	-8.94226
犯重	-8.94384
布	-8.94429
平	-8.9462
是以	-8.94684
改	-8.94771
河	-8.94836
憶	-8.94902
前人	-8.94982
諸苾芻	-8.95239
送	-8.95255
金剛	-8.9538
于	-8.95401
故制	-8.95406
含	-8.95495
有四	-8.95739
法師	-8.95798
感	-8.95851
隨順	-8.95949
毒	-8.96137
有人	-8.96157
老	-8.96182
夷	-8.96361
濫	-8.9652
虗	-8.96825
精	-8.96943
熱	-8.96947
究竟	-8.96994
志	-8.97143
助	-8.97208
殊	-8.97212
刀	-8.97244
南	-8.97279
恭敬	-8.97288
今日	-8.97538
隱	-8.97579
聖者	-8.97647
故須	-8.97742
差別	-8.97832
田	-8.97842
舍利弗	-8.9796
大臣	-8.98044
犯罪	-8.98226
西	-8.98243
敘	-8.9832
十四	-8.98533
吉羅	-8.98581
亡	-8.98612
伏	-8.98625
恩	-8.98736
噉	-8.98791
訖	-8.98806
不捨	-8.98837
猶如	-8.99082
諸天	-8.99083
是時	-8.99177
熟	-8.99269
男女	-8.99292
白如是	-8.99493
徧	-8.99539
爾時世尊	-8.9963
第七	-8.9975
賣	-8.99804
俗人	-8.99852
釋迦	-8.99871
布施	-8.99921
教授	-8.99941
園	-9.0007
是為	-9.00108
清	-9.00122
歲	-9.00128
無所	-9.00336
節	-9.00521
煞	-9.0066
視	-9.00667
推	-9.0107
任	-9.01603
結界	-9.0165
寧	-9.01668
鳥	-9.01727
三藏	-9.01846
花	-9.01876
觀同上	-9.01963
善法	-9.02005
交	-9.02355
三說	-9.02365
》	-9.02504
怨	-9.02514
淨人	-9.02534
此人	-9.02754
不為	-9.02756
法中	-9.02823
詳	-9.02833
應作	-9.02893
律儀	-9.02908
落	-9.03057
半月	-9.03163
行者	-9.03212
十五	-9.036
身口	-9.03648
相應	-9.0413
沙	-9.04271
結罪	-9.04462
元	-9.0472
不生	-9.04825
呼	-9.04942
傷	-9.04971
平等	-9.05033
初明	-9.05192
是中	-9.05242
邪見	-9.05451
常住	-9.05454
別眾	-9.05457
養	-9.0547
一日	-9.05705
法身	-9.05877
客	-9.05903
杖	-9.05939
一月	-9.06012
承	-9.06085
遊	-9.06106
之義	-9.06214
寄	-9.06232
光明	-9.06409
縛	-9.06411
僧殘	-9.06412
房舍	-9.06433
之心	-9.06669
思惟	-9.06692
師子	-9.06858
應知	-9.06876
官	-9.06896
無常	-9.06935
心念	-9.06946
四者	-9.06981
二十	-9.07083
合掌	-9.07218
截	-9.07255
若作	-9.07626
氣	-9.07791
食者	-9.07989
病人	-9.08118
鬼	-9.08223
一比丘	-9.08252
皆是	-9.0831
愚	-9.08499
萬	-9.08606
露	-9.08745
辭	-9.0881
誠	-9.08869
疾	-9.09045
之所	-9.09291
律文	-9.09313
答云	-9.09325
擯	-9.09696
讚歎	-9.09729
眠	-9.10043
竝	-9.10082
是人	-9.10118
修行	-9.1012
己	-9.10189
穢	-9.10261
東	-9.10472
補	-9.10645
怖	-9.10773
是事	-9.10907
故也	-9.10961
亦應	-9.11064
辦	-9.11088
最	-9.1116
於中	-9.11186
目連	-9.11218
代	-9.11312
或云	-9.11478
宣	-9.11691
持犯	-9.11844
偷	-9.11868
眾中	-9.11894
五戒	-9.1202
廣說	-9.12097
因果	-9.12301
發心	-9.12502
髮	-9.12553
堅	-9.12659
油	-9.12788
弘	-9.12843
問訊	-9.12892
缺	-9.13094
受者	-9.13108
瓶	-9.13151
眾多	-9.13431
都	-9.13435
悔過	-9.13635
有比丘	-9.13747
不合	-9.13811
吾	-9.13861
各有	-9.13899
命終	-9.13979
註	-9.14024
名曰	-9.14105
不失	-9.14278
凡夫	-9.14332
曲	-9.14369
價	-9.14454
無明	-9.14623
利益	-9.14628
張	-9.14649
靜	-9.14778
浴	-9.14793
《	-9.14852
貴	-9.14943
三人	-9.15033
沒	-9.15037
作是言	-9.15173
歎	-9.15213
優婆塞	-9.15322
第八	-9.1534
別住	-9.15448
有情	-9.15456
六群比丘	-9.1549
廢	-9.15587
四種	-9.15656
中有	-9.15721
畢	-9.15781
難陀	-9.15826
過去	-9.15852
嫌	-9.15871
無漏	-9.16063
餘人	-9.16344
佛在	-9.1643
雲	-9.1664
預	-9.16851
式叉摩那	-9.16886
招	-9.16938
若佛子	-9.17139
諸比丘尼	-9.17165
青	-9.1721
不足	-9.17293
頂	-9.17649
軍	-9.17706
畏	-9.1771
界內	-9.17711
罵	-9.1773
移	-9.178
麤	-9.17979
巳上	-9.18018
速	-9.18064
薄	-9.18106
諸人	-9.1826
佛說	-9.18275
今時	-9.18366
犯者	-9.18418
律師	-9.1851
誤	-9.18631
佛南無	-9.18758
有二種	-9.18886
自在	-9.18909
是非	-9.18914
遺	-9.18926
衣服	-9.19055
善根	-9.19083
蟲	-9.19159
所作	-9.19164
退	-9.19202
憶念	-9.19309
報曰	-9.19344
錄	-9.19379
帝	-9.19425
此二	-9.19563
頓	-9.1977
船	-9.1981
現在	-9.19842
勤	-9.19984
增長	-9.19992
暫	-9.20103
骨	-9.20149
徒	-9.20366
告諸比丘	-9.20395
頌	-9.20526
有五	-9.20607
三界	-9.2067
悉皆	-9.21126
嚴	-9.21258
擬	-9.21259
角	-9.21323
是事如是持	-9.21385
悲	-9.21392
作衣	-9.21416
步	-9.21426
若以	-9.21441
避	-9.21462
室	-9.21908
▁|	-9.21918
未來	-9.21946
誡	-9.2195
礙	-9.22135
中初	-9.22187
此比丘	-9.22188
仍	-9.22304
白佛言	-9.22522
秉	-9.22631
諸法	-9.22714
若欲	-9.22812
緣起	-9.22922
不敢	-9.22935
之處	-9.23041
法門	-9.23067
密	-9.23079
燈	-9.23103
今此	-9.23143
脩	-9.23296
分齊	-9.23396
世界	-9.23538
精進	-9.23594
制戒	-9.2366
美	-9.23796
接	-9.23828
人天	-9.23878
國王	-9.2393
祇	-9.24002
臨	-9.24175
倒	-9.24254
亦是	-9.24392
何等	-9.24464
犯戒	-9.24629
堪	-9.24672
諦	-9.24791
降	-9.24829
大師	-9.25112
若人	-9.25306
委	-9.25506
結戒	-9.25551
大王	-9.25601
若爾	-9.2585
善惡	-9.26018
捨墮	-9.26053
餘比丘	-9.26073
珠	-9.26108
為說	-9.2617
買	-9.26235
誓	-9.26361
小乘	-9.26369
太	-9.26391
調	-9.26486
瞋恚	-9.26489
疏云	-9.26723
投	-9.26876
梵行	-9.27077
狂	-9.27104
受食	-9.27104
不問	-9.27144
胎	-9.27467
羅漢	-9.27545
發露	-9.27827
若為	-9.28022
三十	-9.28071
五人	-9.28154
與欲	-9.28211
院	-9.28297
良	-9.28337
教誡	-9.28359
由此	-9.28391
錯	-9.28402
。△	-9.28424
身心	-9.28443
」	-9.28549
亦無	-9.28661
續	-9.28772
時彼	-9.28777
論云	-9.2886
善來	-9.28983
真實	-9.29054
文云	-9.29117
網	-9.29242
祖	-9.29394
一心奉請	-9.29413
福田	-9.29555
太子	-9.29642
守護	-9.29718
責	-9.29723
。』」	-9.29794
漏	-9.29822
果報	-9.29832
宮	-9.30042
十五日	-9.30046
黃	-9.30067
姓	-9.30227
諸大德	-9.30316
受具	-9.30327
壇	-9.30344
乳	-9.30386
繁	-9.30514
神通	-9.30595
善男子	-9.30813
披	-9.30884
仰	-9.3095
歷	-9.31343
下至	-9.31402
輒	-9.3141
亦可	-9.31421
捨戒	-9.31481
譬如	-9.31538
如文	-9.31654
唐	-9.31695
務	-9.31791
池	-9.31863
忽	-9.31864
拘	-9.3207
利養	-9.32115
有無	-9.32154
仁	-9.32184
十九	-9.32235
童子	-9.32258
慈悲	-9.32439
說淨	-9.32527
覓	-9.3264
逐	-9.3265
橫	-9.327
有罪	-9.32724
問答	-9.32808
籌	-9.33072
衣食	-9.33134
憂	-9.33212
僧物	-9.33392
財物	-9.33666
借	-9.33671
鬼神	-9.33687
不解	-9.33922
不相	-9.33926
阿羅漢	-9.33959
而為	-9.34013
信心	-9.34099
若僧時到僧忍聽	-9.34143
拔	-9.34156
鐵	-9.34179
不出	-9.34258
壽	-9.34305
阿闍梨	-9.34396
聞已	-9.34491
十七	-9.34653
印	-9.34732
勅	-9.34738
積	-9.34896
審	-9.34948
尺	-9.3501
出界	-9.35029
垂	-9.35049
消	-9.35065
於彼	-9.35141
必須	-9.35159
遣使	-9.35323
四月	-9.35329
勞	-9.35389
偷蘭	-9.35524
十日	-9.35571
眷屬	-9.35601
而住	-9.35646
處分	-9.35652
受具足戒	-9.35759
戲	-9.35855
不以	-9.36029
塗	-9.3607
之相	-9.36161
牽	-9.36168
若自	-9.36225
具壽	-9.36262
亦云	-9.36337
止持	-9.36349
成佛	-9.36438
金銀	-9.36509
之事	-9.36514
遊行	-9.36557
幾	-9.36561
汝今	-9.36565
五者	-9.36675
▁四	-9.36893
納	-9.36935
繩	-9.36937
六群	-9.36945
次明	-9.36953
陰	-9.37094
供給	-9.37161
內外	-9.3719
浣	-9.37276
三業	-9.37315
夢	-9.37648
作如是	-9.37788
長衣	-9.37938
厭	-9.38027
抄	-9.38107
垢	-9.3851
超	-9.38528
又復	-9.38566
途	-9.38594
袈裟	-9.38602
粥	-9.38633
上品	-9.38651
餘處	-9.38674
共住	-9.38882
關	-9.38966
觀察	-9.38984
戒者	-9.39106
鳴	-9.39139
不說	-9.39224
載	-9.39506
三世	-9.39536
詞	-9.39659
大僧	-9.3984
寂	-9.39881
在家	-9.40032
哉	-9.40069
不起	-9.40217
焉	-9.40328
默	-9.4054
禮拜	-9.40543
此律	-9.40604
有所	-9.4063
靈	-9.40747
樹下	-9.40764
此事	-9.40907
北	-9.40931
無相	-9.40981
無異	-9.40991
展轉	-9.41007
謝	-9.41007
不復	-9.41091
安樂	-9.41154
尼薩耆波逸提	-9.41156
五法	-9.41284
二乘	-9.41501
登	-9.41545
一切法	-9.41602
見已	-9.41646
再	-9.41665
寒	-9.41806
調達	-9.41835
他人	-9.42146
夫人	-9.42239
牀	-9.4224
僧尼	-9.42417
三句	-9.42432
短	-9.42437
漿	-9.42558
佛告	-9.42645
十戒	-9.42688
領	-9.42699
走	-9.42879
士	-9.42927
蜜	-9.43062
公	-9.43351
上下	-9.43363
講	-9.43369
相似	-9.43405
佛子	-9.43417
赤	-9.43619
權	-9.43811
不識	-9.43983
仙	-9.43987
調伏	-9.44104
聖人	-9.44111
比丘言	-9.44212
懸	-9.44287
白四羯磨	-9.44306
無過	-9.44307
受法	-9.44642
此之	-9.44712
知是	-9.44755
出罪	-9.44863
菩薩戒	-9.44891
彼此	-9.44975
住持	-9.45075
對首	-9.45081
生疑	-9.45286
謂是	-9.45329
影	-9.45367
停	-9.454
痛	-9.45433
若過	-9.45488
無病	-9.45511
善哉	-9.45557
若干	-9.45616
談	-9.45741
無知	-9.46
各各	-9.46007
彌	-9.46096
賢	-9.46213
際	-9.46219
恐怖	-9.46255
負	-9.46326
相續	-9.46386
譏	-9.46467
鹿	-9.46518
樓	-9.46572
精舍	-9.46599
妨	-9.46777
讀	-9.46801
屏處	-9.46847
圓滿	-9.46859
毗	-9.46882
曉	-9.46919
惡心	-9.4693
不滿	-9.46967
法也	-9.46977
擔	-9.47201
銅	-9.47207
運	-9.4725
野	-9.47323
可得	-9.47405
婬欲	-9.47565
有犯	-9.47586
臣	-9.4761
明日	-9.47618
囑	-9.47701
端	-9.47725
名字	-9.47728
不信	-9.4781
無上	-9.4784
梨	-9.47912
涉	-9.47933
縫	-9.48238
犯捨墮	-9.48259
慚愧	-9.48291
何處	-9.48456
瓔珞	-9.48596
及以	-9.48658
非是	-9.48668
解云	-9.48696
戶	-9.48699
底	-9.48758
出世	-9.48788
何不	-9.48846
欲令	-9.48875
迎	-9.48879
不學	-9.48882
文言	-9.4892
訓	-9.48993
善見	-9.49128
教化	-9.49143
大界	-9.49267
五眾	-9.49268
之意	-9.49638
經律	-9.49641
累	-9.49643
帶	-9.49709
種子	-9.49859
同上	-9.49942
州	-9.49989
召	-9.50015
無人	-9.50067
慈心	-9.50108
笑	-9.50233
坐具	-9.50254
佛教	-9.5029
熏	-9.5037
受大戒	-9.50418
僧祇云	-9.50517
血	-9.50524
以是白佛	-9.50534
希	-9.50608
此即	-9.5062
乾	-9.50639
之類	-9.50641
沙門釋子	-9.50684
如下	-9.50704
決定	-9.50776
犯輕垢罪	-9.50852
連	-9.50943
睡	-9.51064
而生	-9.51066
纏	-9.51222
免	-9.51283
戒法	-9.51308
彼云	-9.51365
令其	-9.51515
為我	-9.5154
作持	-9.51543
一是	-9.51684
倍	-9.51713
五德	-9.51734
二部	-9.51771
案	-9.51818
梵語	-9.51845
何得	-9.51968
旨	-9.52021
僧坊	-9.52105
窮	-9.52176
立謂	-9.52185
一句	-9.52233
劣	-9.52271
織	-9.52457
上來	-9.5261
下文	-9.52634
一處	-9.52659
三歸	-9.5273
迦留陀夷	-9.52839
一念	-9.52841
瘡	-9.53014
應當	-9.53028
行法	-9.53087
准此	-9.53251
魚	-9.53272
名之為	-9.53275
蘇	-9.53331
多聞	-9.53335
不爾	-9.5335
十誦云	-9.53411
亦不得	-9.53413
亦復如是	-9.53569
而行	-9.53708
豈非	-9.53764
鼻	-9.53799
迹	-9.53835
附	-9.5388
不樂	-9.53884
親里	-9.53895
第九	-9.53983
妻	-9.54012
闇	-9.54028
某甲比丘	-9.54055
申	-9.54078
白四	-9.54198
訶責	-9.54323
不如法	-9.54374
點	-9.54604
譏嫌	-9.54742
時諸苾芻	-9.54782
參	-9.54823
所為	-9.54859
行事	-9.55046
實爾	-9.55101
有三種	-9.55167
按	-9.5519
掌	-9.55343
下釋	-9.55358
愚癡	-9.55441
正明	-9.55468
蘭若	-9.5547
作如是語	-9.55497
食時	-9.55548
自身	-9.55595
如是等	-9.556
使人	-9.55654
朝	-9.55702
惡作	-9.55841
衣物	-9.55848
彼人	-9.55877
輙	-9.55933
戒體	-9.56007
自作	-9.56037
過量	-9.56149
惡業	-9.56246
不還	-9.56525
。」【【	-9.56708
僧伽梨	-9.56717
每	-9.56765
諸部	-9.56781
即以	-9.56848
恚	-9.5687
說者	-9.56949
撿	-9.5696
餅	-9.56969
肘	-9.56972
義也	-9.57027
令彼	-9.57132
不名	-9.57237
除病	-9.57435
斥	-9.57513
虗空	-9.57552
源	-9.57561
不如	-9.57692
對治	-9.58086
默然故	-9.58095
多人	-9.5816
託	-9.58249
者默然	-9.58336
四大	-9.5835
悅	-9.58466
右	-9.5855
活	-9.58559
作淨	-9.58598
若能	-9.5861
孔	-9.5861
集僧	-9.58624
波逸底迦	-9.58682
下示	-9.58706
知識	-9.58714
孝	-9.58815
修道	-9.58867
者謂	-9.58886
此衣	-9.58973
心地	-9.59013
不了	-9.59207
至於	-9.59262
又問	-9.59331
黃門	-9.59414
六十	-9.59445
諸菩薩	-9.59601
境界	-9.59643
犯波羅夷	-9.59807
坐禪	-9.59807
酥	-9.59962
剃髮	-9.60009
不及	-9.60107
王舍城	-9.60128
只	-9.60139
學處	-9.6014
不用	-9.60267
我某甲	-9.60347
客比丘	-9.60402
又如	-9.60403
復次	-9.60547
受日	-9.60683
以其	-9.60769
藍	-9.60799
迴向	-9.60939
為僧	-9.60955
告言	-9.60995
大士	-9.61036
固	-9.6111
此三	-9.61112
若見	-9.61234
仙人	-9.61235
禪定	-9.61319
鬪諍	-9.615
所得	-9.61599
如上說	-9.61648
出家人	-9.61652
遙	-9.61669
飲酒	-9.61726
狹	-9.6173
舍利	-9.61837
為體	-9.61886
洗浴	-9.61945
值	-9.62018
汁	-9.62039
麁	-9.62173
得食	-9.6218
告曰	-9.62233
恣	-9.62238
中道	-9.62382
無礙	-9.62535
是比丘尼	-9.62622
遠離	-9.62676
應受	-9.62801
佛性	-9.62813
驗	-9.63153
此法	-9.6318
戒場	-9.63312
腹	-9.63353
三乘	-9.63365
共相	-9.63366
制意	-9.63452
特	-9.63458
無生	-9.63608
國土	-9.63684
白二	-9.63748
逼	-9.63829
塞	-9.63837
若是	-9.64002
亦同	-9.64044
時諸比丘	-9.64181
典	-9.64186
中初科	-9.64214
皆悉	-9.64262
蓮華	-9.64308
病比丘	-9.64359
界外	-9.64482
割	-9.64513
廁	-9.64515
與人	-9.64551
第十	-9.64613
百千	-9.6465
營	-9.64762
更有	-9.6478
之罪	-9.64874
獄	-9.64905
多有	-9.64987
初句	-9.65013
病者	-9.65039
一分	-9.6514
從今是戒應如是說	-9.65169
尼薩耆波夜提	-9.65173
卑	-9.65219
可解	-9.65222
有漏	-9.65334
故名為	-9.65342
純	-9.65346
題	-9.65355
及諸	-9.6546
止犯	-9.65463
茲	-9.65506
而言	-9.6552
冥	-9.65526
畫	-9.65537
擲	-9.65647
體性	-9.6579
若得	-9.65819
無記	-9.65852
受請	-9.65886
作如是言	-9.66004
謬	-9.66004
蛇	-9.66126
十地	-9.66137
九十	-9.66226
米	-9.66241
寬	-9.66315
竹	-9.66358
勢	-9.66436
從此	-9.66437
而作	-9.66554
為一	-9.66567
餓鬼	-9.66621
辯	-9.66697
左	-9.66832
所犯	-9.66843
屏	-9.66857
遵	-9.66858
舌	-9.66973
葢	-9.67045
驅	-9.67172
天子	-9.67201
皆得	-9.67223
有餘	-9.67247
聖教	-9.67319
喪	-9.67385
福德	-9.67474
雖有	-9.67606
語諸比丘	-9.67743
原	-9.67765
鏡	-9.67793
􂌞	-9.67841
弱	-9.67985
虫	-9.67996
六夜	-9.6806
於是	-9.68118
有異	-9.68169
徵	-9.68177
適	-9.68275
導	-9.68432
有何	-9.68529
有大	-9.68831
令他	-9.68924
縷	-9.68937
但有	-9.6894
滿足	-9.68965
囉	-9.69091
律攝云	-9.69241
人間	-9.69295
大小便	-9.69336
軌	-9.69393
不肯	-9.69409
其事	-9.69413
席	-9.69419
應語	-9.69522
惡人	-9.6954
自他	-9.69608
大悲	-9.69839
傍	-9.69855
八十	-9.69871
三月	-9.69874
統	-9.70024
而得	-9.70158
兵	-9.70181
君	-9.70218
不堪	-9.70246
得名	-9.70285
:「『	-9.70307
佛制	-9.70403
玄	-9.70449
見佛	-9.70487
無別	-9.70579
折	-9.70622
其中	-9.70728
道俗	-9.70779
真言	-9.70788
不離	-9.70857
醫	-9.70872
博	-9.70883
若彼	-9.70894
吒	-9.70989
壁	-9.71034
在前	-9.7107
有五種	-9.71087
增上	-9.71102
日月	-9.71115
單白	-9.71198
三時	-9.71246
五錢	-9.71385
善心	-9.71396
歸依	-9.71418
場	-9.71435
此方	-9.7153
不聞	-9.71731
得衣	-9.71742
鼓	-9.71788
心亂	-9.71813
親近	-9.71895
奴	-9.71966
與之	-9.71975
行道	-9.72003
作此	-9.7204
若苾芻	-9.72096
浮	-9.72123
未得	-9.72242
經中	-9.72244
漢	-9.72247
飛	-9.72394
扇	-9.72406
四方	-9.72423
刺	-9.72556
赴	-9.72603
結犯	-9.72616
釋曰	-9.72642
驚	-9.72648
不然	-9.72884
優波離	-9.72902
所言	-9.72935
修習	-9.72975
欲界	-9.73036
於我	-9.73117
水中	-9.73142
淨地	-9.73432
階	-9.73552
教他	-9.73561
我於	-9.73685
持律	-9.73873
穀	-9.73894
殿	-9.73922
毘	-9.73934
便犯	-9.73942
此文	-9.73945
隨所	-9.73982
經行	-9.74003
發起	-9.74004
從今	-9.7403
欺	-9.74105
令人	-9.74112
智者	-9.74148
不壞	-9.74152
安隱	-9.74225
販賣	-9.74254
及餘	-9.74256
輩	-9.74372
繇	-9.74426
具戒	-9.7445
二句	-9.74477
何況	-9.74507
眾法	-9.74527
有緣	-9.74544
闍	-9.74599
漫	-9.74862
是我	-9.74899
而食	-9.75085
充	-9.75169
磨	-9.752
道場	-9.75204
圖	-9.75222
巧	-9.75236
【	-9.75266
行婬	-9.7527
二俱	-9.75334
提婆達多	-9.75441
囊	-9.75466
是事白佛	-9.75597
所依	-9.75731
佛告諸比丘	-9.75805
宅	-9.75805
之言	-9.75922
能持	-9.75958
當與	-9.76188
殺生	-9.76266
作如是念	-9.76313
配	-9.76361
慳	-9.76381
褥	-9.76394
誑	-9.76454
王子	-9.76457
無盡	-9.76464
我是	-9.76488
臘	-9.76534
此則	-9.76536
結集	-9.76546
箋	-9.7657
二明	-9.76713
僧伽藍	-9.76864
鬪	-9.76874
放逸	-9.76882
貧	-9.76986
】【	-9.77046
我不	-9.77088
烏	-9.7709
億	-9.77109
五分云	-9.77164
而坐	-9.77315
六道	-9.77319
無間	-9.77348
故不	-9.77362
道行	-9.7738
不開	-9.77432
延	-9.77521
返	-9.77535
四分律	-9.77581
餘者	-9.77582
經論	-9.77586
蒙	-9.77588
侍	-9.77633
白二羯磨	-9.77674
無邊	-9.7777
同一	-9.77853
羊	-9.77864
或可	-9.77901
早	-9.77915
並是	-9.77928
此謂	-9.78038
則無	-9.78114
)。」【	-9.78142
)。(	-9.78201
井	-9.78216
龍王	-9.78434
麥	-9.78488
五十	-9.78511
諸眾生	-9.78524
成犯	-9.78753
若在	-9.78799
無心	-9.78839
!』	-9.78857
嗔	-9.7888
若僧	-9.78903
膝	-9.78975
不動	-9.79045
規	-9.79116
不應爾	-9.79117
下座	-9.79131
有十	-9.79169
勿令	-9.79209
盡形	-9.79401
遙見	-9.79416
誦經	-9.79437
得受	-9.79443
從僧乞	-9.79485
宋	-9.795
若依	-9.79517
比丘僧	-9.79645
得惡作罪	-9.79718
佛語	-9.79816
勢分	-9.79827
犯墮	-9.79859
下品	-9.79888
得突吉羅	-9.79914
不共	-9.80064
給	-9.80119
能令	-9.80157
是法	-9.80389
般若	-9.80413
別人	-9.80434
其所	-9.8049
作是語	-9.80539
賢聖	-9.80541
分二	-9.80561
自知	-9.80578
應問	-9.80583
二眾	-9.80593
寂靜	-9.80649
所須	-9.80688
菜	-9.80728
十種	-9.80876
吐	-9.80927
不來	-9.80942
富	-9.80991
諍事	-9.81129
疊	-9.81161
頗	-9.81239
無主	-9.81251
僧忍	-9.81256
終不	-9.81372
汝可	-9.81432
梵志	-9.81509
之文	-9.81521
業道	-9.8155
契	-9.81656
遭	-9.81736
因此	-9.81842
誰不忍者說	-9.81951
之物	-9.81992
二法	-9.81998
戒中	-9.82064
要須	-9.82074
革屣	-9.82173
作白	-9.82232
學戒	-9.8228
波羅	-9.82285
閉	-9.82374
皆有	-9.82452
入聚落	-9.82458
若先	-9.82533
汝非	-9.82563
貫	-9.82591
死者	-9.82593
而無	-9.82604
大海	-9.82772
相違	-9.82778
有四種	-9.82795
慮	-9.8286
非謂	-9.8286
佛在舍衛國	-9.82901
虛	-9.82974
汝當	-9.83005
綿	-9.83017
壞色	-9.83115
不著	-9.83177
戒也	-9.83189
不依	-9.83204
餘三	-9.83227
眾人	-9.83277
得成	-9.83292
濁	-9.83459
次科	-9.83536
禮佛	-9.83619
僧與	-9.83644
該	-9.83644
三毒	-9.83709
舊比丘	-9.83832
然此	-9.83868
察	-9.83886
與比丘	-9.83925
發隱	-9.83953
唯識	-9.84053
或復	-9.84109
以是	-9.84166
諸惡	-9.84184
此處	-9.84343
五事	-9.8438
一向	-9.84437
揚	-9.8449
淨施	-9.84503
臺	-9.84532
渡	-9.84608
謂此	-9.84649
聖道	-9.84675
誦戒	-9.84746
自性	-9.8477
八戒	-9.84787
有主	-9.84883
薩	-9.84913
古人	-9.84927
臂	-9.84976
狗	-9.8498
式	-9.85001
菓	-9.85111
撰	-9.85128
僧事	-9.8513
稅	-9.8519
心中	-9.85298
冬	-9.8546
不具	-9.8548
婬女	-9.85539
賤	-9.85615
不斷	-9.85682
聽法	-9.857
謂之	-9.85783
皆名	-9.85792
此明	-9.85853
受具足	-9.85861
更無	-9.85867
左右	-9.85868
淨戒	-9.85907
應言	-9.85958
陵	-9.86066
心生	-9.86166
僧今	-9.86214
必有	-9.86216
足食	-9.86376
得道	-9.8648
三法	-9.86581
草木	-9.86602
稟	-9.86759
此言	-9.86765
戒相	-9.8685
便作是念	-9.86916
盡形壽	-9.86977
心不	-9.87293
不取	-9.87354
不憶	-9.87388
優婆夷	-9.87455
斗	-9.87507
跋難陀	-9.87668
真如	-9.87711
與他	-9.87728
者即	-9.8775
滅諍	-9.87751
履	-9.87956
閑	-9.87993
羊毛	-9.88107
處所	-9.88142
佛為	-9.88171
其人	-9.88182
聞法	-9.88233
〔	-9.8826
春	-9.88327
為作	-9.88479
暗	-9.88563
華嚴	-9.88572
波羅提木叉	-9.88612
往彼	-9.88681
以手	-9.88753
與僧	-9.88755
詮	-9.88769
議	-9.888
故得	-9.8889
線	-9.88943
穿	-9.88984
威	-9.89035
是則	-9.89038
過失	-9.89058
來至	-9.89111
)(	-9.89111
拭	-9.89122
亦非	-9.89178
以上	-9.89208
不通	-9.89218
不言	-9.89267
不行	-9.89272
)「	-9.89273
弟	-9.89356
須臾	-9.89445
重物	-9.89454
戲笑	-9.89506
肩	-9.89538
同犯	-9.89579
覩	-9.89647
重輕	-9.89781
為他	-9.8979
主人	-9.89812
▁○	-9.89815
有病	-9.89828
斫	-9.8994
若於	-9.90126
顧	-9.90136
昏	-9.9023
罰	-9.90309
究	-9.9031
出離	-9.90339
重罪	-9.90405
最勝	-9.90426
閏	-9.90494
癡狂	-9.90495
露地	-9.90496
我欲	-9.90611
淺	-9.9062
南山	-9.90623
掘	-9.90708
婆沙	-9.90828
恨	-9.90859
抱	-9.90865
護持	-9.90915
讀誦	-9.90974
見聞	-9.91033
牙	-9.91097
蘊	-9.91107
逢	-9.91149
南無	-9.91151
共行	-9.91237
自說	-9.91275
前二	-9.91305
隨事	-9.91334
不論	-9.91335
擊	-9.91347
尼眾	-9.91397
星	-9.91439
尸	-9.91455
滅擯	-9.91517
犍度	-9.91665
數數	-9.91679
非威儀	-9.9169
此等	-9.91692
崇	-9.91879
發願	-9.91884
伐	-9.91921
勒	-9.91953
我已	-9.92047
人中	-9.92155
倚	-9.92158
小兒	-9.92171
屈	-9.92261
洲	-9.92392
始終	-9.92463
秉法	-9.92529
醉	-9.92532
房中	-9.92562
境想	-9.92568
流通	-9.92572
作犯	-9.92573
卒	-9.92618
兩舌	-9.92636
此物	-9.92653
鹽	-9.92726
彌勒	-9.92761
為說法	-9.92791
束	-9.92829
五句	-9.92866
顛倒	-9.92908
群	-9.9297
貿	-9.9298
湯	-9.92986
折伏	-9.93071
于時	-9.93214
林中	-9.93314
如律	-9.93318
發菩提心	-9.93414
有一比丘	-9.93548
知足	-9.93669
石蜜	-9.93669
應先	-9.93808
無學	-9.93888
衰	-9.93891
牆	-9.93902
堅固	-9.93912
四重	-9.93953
日日	-9.93984
不自	-9.93991
乏	-9.94014
所明	-9.94049
建	-9.94071
最後	-9.94177
若據	-9.94207
即得	-9.94215
鄔波難陀	-9.94225
四諦	-9.94263
自有	-9.94272
糞掃衣	-9.94311
懈怠	-9.94419
」【	-9.94462
貯	-9.94525
可以	-9.94561
誘	-9.94581
出入	-9.94645
帝釋	-9.94661
定慧	-9.94774
端正	-9.94923
以明	-9.94934
七日藥	-9.95006
其心	-9.95058
飾	-9.95304
度人	-9.9539
若復苾芻	-9.95421
憑	-9.95452
償	-9.95473
世人	-9.95485
齒	-9.95611
分之	-9.95632
三品	-9.95632
之本	-9.95767
里	-9.95767
修梵行	-9.95769
聽受	-9.95806
應如是	-9.95832
試	-9.95875
成道	-9.95894
人所	-9.95969
廣大	-9.95974
出家者	-9.95999
五陰	-9.96026
六句	-9.96033
或以	-9.96155
但是	-9.96216
法故	-9.96243
本無	-9.96283
又解	-9.96287
是衣	-9.96319
能生	-9.96326
於諸	-9.9635
▁「	-9.96355
尊重	-9.964
一說	-9.96426
而說	-9.96431
或時	-9.96448
其義	-9.96593
質	-9.96617
得解脫	-9.96629
為人	-9.96635
不在	-9.96656
無畏	-9.96683
持衣	-9.96686
施與	-9.9669
盧	-9.9673
岸	-9.96806
苦惱	-9.96845
人民	-9.96894
在此	-9.96916
盜心	-9.97004
不喜	-9.97044
即名	-9.97108
道中	-9.97187
竭	-9.97261
離衣	-9.97314
不應作	-9.97325
煮	-9.97369
阿難陀	-9.97476
扶	-9.9748
可見	-9.97482
作是	-9.97492
多羅	-9.97541
姊妹	-9.97713
安置	-9.97754
且如	-9.9779
婦女	-9.978
廣如	-9.97851
四眾	-9.97861
以是因緣	-9.97934
一戒	-9.97987
五部	-9.98013
久住	-9.981
弓	-9.98161
寺中	-9.98203
二師	-9.98233
今詳	-9.98235
敷具	-9.98269
衣者	-9.98295
心故	-9.98303
即成	-9.98348
灰	-9.98382
亦復	-9.98402
等事	-9.98505
王曰	-9.98562
替	-9.98571
綱	-9.98615
佛所	-9.98634
幸	-9.98662
側	-9.98669
七寶	-9.98761
啟	-9.98804
亦然	-9.98806
未成	-9.98926
受具戒	-9.98957
中說	-9.98966
不白	-9.99024
佛法僧	-9.99083
舍那	-9.9912
長短	-9.99205
由是	-9.99219
唵	-9.99244
剋	-9.9936
枝	-9.99382
之後	-9.995
難得	-9.99604
有六	-9.99642
釋子	-9.99672
咽	-9.99911
不異	-9.99938
著衣	-9.99947
疎	-9.99951
乃是	-9.99983
酬	-10.0014
何所	-10.0017
不令	-10.0018
昇	-10.0023
此約	-10.0028
或言	-10.003
竪	-10.003
徹	-10.0032
不欲	-10.0032
故有	-10.0032
智論	-10.0038
汙	-10.0049
當來	-10.0049
余	-10.0066
身業	-10.0071
料簡	-10.0071
諸戒	-10.0072
自餘	-10.0078
前文	-10.0085
天眼	-10.009
最初	-10.0097
銀	-10.0099
受樂	-10.0105
有疑	-10.0113
下次	-10.0116
賞	-10.0132
瞻	-10.0134
梵天	-10.0139
不入	-10.0146
剃	-10.016
掃	-10.0164
坑	-10.0165
看病	-10.0165
自取	-10.0167
婢	-10.0179
加法	-10.018
出界外	-10.0194
:)	-10.0206
片	-10.0208
白衣家	-10.0221
巳後	-10.0222
二十一	-10.0223
善見云	-10.0224
?」「	-10.0224
寂滅	-10.0229
十善	-10.0233
此翻	-10.0235
一部	-10.0236
天人	-10.0236
受菩薩戒	-10.0238
前三	-10.0239
不清淨	-10.0241
碎	-10.0242
諸弟子	-10.025
別眾食	-10.0253
鉢中	-10.0253
兄	-10.0253
法事	-10.0255
他物	-10.0267
摩觸	-10.027
佛以是事集比丘僧	-10.0274
針	-10.0277
其罪	-10.0284
不盡	-10.0285
道路	-10.0289
亦如	-10.0304
二戒	-10.0311
瓦	-10.0313
廣說如上	-10.0313
在後	-10.032
獼猴	-10.0325
淨法	-10.0328
下三	-10.033
檀	-10.0336
寫	-10.0337
謹	-10.0343
其身	-10.0348
餘二	-10.0349
鈍	-10.0352
▁五	-10.0352
一名	-10.0355
應可	-10.0356
有此	-10.0359
怖畏	-10.0359
夏安居	-10.0362
同異	-10.0363
初中	-10.0363
述曰	-10.0374
饒益	-10.0385
御	-10.0389
若與	-10.0391
冷	-10.0393
睡眠	-10.0394
分三	-10.0397
十四日	-10.0399
作禮	-10.0402
演	-10.0402
方得	-10.0403
術	-10.0407
四事	-10.0415
為欲	-10.0416
為三	-10.0428
作者	-10.0433
解釋	-10.0457
丈夫	-10.0462
正見	-10.0466
八事	-10.0467
唱言	-10.0467
昧	-10.0471
▁初標	-10.0471
若知	-10.0474
無我	-10.0477
處處	-10.0477
一種	-10.0478
維那	-10.0479
八種	-10.05
三事	-10.0501
正念	-10.0505
佛塔	-10.0511
十人	-10.0527
自行	-10.0532
亦須	-10.0543
戒師	-10.0551
淨行	-10.0551
毀呰	-10.0553
別請	-10.0555
奇	-10.0555
番	-10.0563
或作	-10.0563
諸比丘白佛	-10.0565
梁	-10.0569
行之	-10.0576
濕	-10.0577
相對	-10.0584
少欲	-10.0586
詐	-10.0586
便得	-10.0591
七種	-10.0608
得波羅夷	-10.0609
市	-10.0618
不語	-10.0621
均	-10.0622
既無	-10.0624
受之	-10.0628
此義	-10.0635
未竟	-10.0639
素	-10.064
生天	-10.0641
一法	-10.0642
潤	-10.0643
比丘比丘尼	-10.0644
建立	-10.0647
窟	-10.0651
二合	-10.0654
狀	-10.0666
空中	-10.0668
奢	-10.0671
所行	-10.0678
釋名	-10.0678
侵	-10.0678
未有	-10.0682
盤	-10.0684
入道	-10.0684
所攝	-10.0686
誹謗	-10.069
隨喜	-10.0692
未滿	-10.0701
真諦	-10.0703
如是三說	-10.0703
所生	-10.0707
授與	-10.071
闡陀	-10.0717
下次明	-10.0729
我亦	-10.0732
不忍	-10.0745
不覺	-10.0746
無緣	-10.0753
障道	-10.0754
我所	-10.0757
時節	-10.0759
有如是	-10.0764
唯有	-10.077
不退	-10.0771
親友	-10.0772
應如是說	-10.0781
二十八	-10.0782
糞	-10.0783
比尼	-10.0783
隨時	-10.079
凡聖	-10.0792
基	-10.0792
若僧時到	-10.0793
若復苾芻尼	-10.0795
廣明	-10.0802
口業	-10.0809
有難	-10.081
命過	-10.0819
三日	-10.0824
念言	-10.0826
心者	-10.0834
波羅提提舍尼	-10.0834
城中	-10.084
尾	-10.0846
釋云	-10.0846
藉	-10.0852
頭陀	-10.0861
盲	-10.0865
遶	-10.0868
式叉摩尼	-10.0876
聽作	-10.0878
增減	-10.0882
見論	-10.0885
雖復	-10.0887
音聲	-10.0888
中品	-10.0894
不共住	-10.0896
為本	-10.0899
別釋	-10.0901
重犯	-10.0904
呪願	-10.0907
摩那埵	-10.0907
文也	-10.0911
稍	-10.0912
大衣	-10.0919
竊	-10.0923
非時食	-10.0923
是誰	-10.0927
一百	-10.0936
甘露	-10.0938
柱	-10.0945
是中犯者	-10.0953
是佛	-10.0955
民	-10.096
爾許	-10.0964
義故	-10.0964
敢	-10.0964
明相	-10.0968
八敬	-10.0968
巾	-10.0969
下二句	-10.097
天下	-10.0974
獸	-10.0975
有七	-10.0982
無根	-10.0982
失衣	-10.0992
豈可	-10.0992
破壞	-10.0993
求寂	-10.0995
與女人	-10.1001
舒	-10.1002
應量	-10.1003
諸根	-10.1008
若論	-10.101
某處	-10.101
三語	-10.1023
立云	-10.1025
追	-10.1038
神力	-10.1038
則有	-10.1045
時諸	-10.1051
百年	-10.1055
能所	-10.1056
食已	-10.1059
學者	-10.1062
自手	-10.1069
慈愍故	-10.1076
繞	-10.108
拒	-10.1082
天竺	-10.1087
任運	-10.1104
何須	-10.1109
不可得	-10.1116
令知	-10.1132
將來	-10.1134
若至	-10.1135
入定	-10.1143
惜	-10.1147
或為	-10.1151
憍慢	-10.1158
為因	-10.1164
王言	-10.1176
兄弟	-10.1194
四法	-10.1198
律藏	-10.12
可學	-10.1204
而巳	-10.1217
奉行	-10.1221
持去	-10.1231
之名	-10.1232
非親里	-10.1234
文殊	-10.1239
非道	-10.1244
生滅	-10.1245
而起	-10.1247
四禪	-10.125
若復	-10.1258
未曾	-10.1259
則不	-10.1261
先明	-10.1262
掩	-10.1265
整	-10.1271
古師	-10.1274
豆	-10.1274
弊	-10.1274
偷羅遮	-10.1278
須知	-10.1279
能持不	-10.1291
實相	-10.1291
知而故問	-10.1292
不妨	-10.1294
波羅蜜	-10.13
豈不	-10.1301
恭	-10.1307
無不	-10.1309
威德	-10.1314
虛空	-10.1328
都無	-10.1334
今師	-10.1335
。』」「	-10.1344
胡	-10.1346
應捨	-10.1347
八萬四千	-10.1352
禮敬	-10.1361
枯	-10.1361
心無	-10.1362
二十四	-10.1364
優	-10.1367
意也	-10.137
戰	-10.1371
裏	-10.1384
受苦	-10.1393
諸居士	-10.1395
友	-10.1399
戒疏云	-10.1401
為汝	-10.1402
解者	-10.1405
以下	-10.1415
初至	-10.1417
意云	-10.1418
戒律	-10.1419
攝受	-10.1423
應以	-10.1434
。』『	-10.1437
臭	-10.1438
不食	-10.1442
師云	-10.1446
跡	-10.1446
即往	-10.145
侍者	-10.1451
賢首	-10.1452
爭	-10.1456
聞佛	-10.1459
緩	-10.1466
抑	-10.1468
行籌	-10.1468
囑授	-10.1471
是謂	-10.1479
煩	-10.148
瑜伽	-10.1481
升	-10.1483
暮	-10.1485
反上	-10.1494
七眾	-10.1495
準此	-10.1495
惡行	-10.1496
沈	-10.1504
墜	-10.1508
犯相	-10.1509
往來	-10.1513
有其	-10.1521
裹	-10.1522
明相出	-10.1523
恃	-10.1523
斬	-10.1524
庶	-10.1524
施僧	-10.1524
受戒者	-10.1524
小界	-10.1529
手捉	-10.154
即為	-10.1548
族	-10.1549
厚	-10.1556
我見	-10.1563
晝夜	-10.1566
初篇	-10.1573
犯提	-10.1575
不應與	-10.1576
了知	-10.1585
融	-10.1589
割截	-10.1594
四十	-10.1596
應云	-10.1598
三明	-10.1608
五欲	-10.161
互相	-10.1615
下引	-10.1615
人也	-10.1623
今解	-10.1628
無餘	-10.1634
諸師	-10.1642
淨心	-10.1644
無疑	-10.1652
文二	-10.1655
懼	-10.1656
受衣	-10.166
我為	-10.1662
慚	-10.1662
汝是	-10.167
依此	-10.1672
纔	-10.1674
自受	-10.1675
摩訶	-10.1677
人法	-10.1678
與汝	-10.1678
後安居	-10.168
時有比丘	-10.1689
惡見	-10.1707
九句	-10.1709
惡口	-10.1713
一夜	-10.1716
伽藍	-10.172
故開	-10.1723
若病	-10.1724
何者	-10.1727
畢竟	-10.173
無始	-10.1736
應取	-10.1737
五篇	-10.1738
佛聽	-10.1743
非親	-10.1745
後時	-10.1746
大地	-10.1755
不敬	-10.1761
人說法	-10.1763
不久	-10.1766
行人	-10.1767
不明	-10.1769
弄	-10.1769
長養	-10.1776
拂	-10.1778
緣處同前	-10.1786
渠	-10.1796
今言	-10.1796
無非	-10.1804
妙法	-10.1805
痛惱所纏	-10.1809
是謂為犯	-10.181
不可學	-10.1813
何為	-10.1826
未至	-10.1849
二日	-10.1851
於佛	-10.186
師僧	-10.1861
受他	-10.1865
與彼	-10.1866
妹	-10.1867
此乃	-10.1869
但云	-10.1871
我某甲比丘	-10.1871
所受	-10.1872
注云	-10.1879
可爾	-10.1889
由旬	-10.1898
若受	-10.1899
此四	-10.1906
麻	-10.1908
三聚	-10.1909
此亦	-10.1916
阿含	-10.1922
作惡	-10.1932
擇	-10.1934
離本處	-10.1944
脂	-10.1946
佛弟子	-10.1949
通塞	-10.1954
滯	-10.1965
教法	-10.1965
復問	-10.1968
薪	-10.1969
舍衛國	-10.1969
辱	-10.1972
即日	-10.1979
佛住舍衛城	-10.1979
從今日	-10.1987
思之	-10.1991
自稱	-10.2002
更受	-10.2005
語者	-10.2006
閻浮提	-10.2013
一拜	-10.2014
生善	-10.2022
〕	-10.2042
驅出	-10.2045
分明	-10.205
秦	-10.2055
非犯	-10.2056
今以	-10.2058
至心	-10.2063
違教	-10.2066
有過	-10.2076
足數	-10.2077
死屍	-10.2087
有八	-10.2095
怪	-10.2096
僧法	-10.2097
總結	-10.2111
六法	-10.2119
迦羅	-10.212
罪者	-10.2122
如人	-10.2124
除滅	-10.213
尼薩耆	-10.2141
斷事	-10.2141
具緣	-10.2144
既不	-10.2156
不從	-10.2157
▁初明	-10.2166
保	-10.2169
而菩薩	-10.217
煑	-10.2172
若未	-10.2173
鼠	-10.2176
事者	-10.2178
欲心	-10.218
僧殘罪	-10.2184
飯食	-10.2191
往昔	-10.2192
四依	-10.2196
不必	-10.2203
時藥	-10.2211
羸	-10.2214
十重	-10.2221
隨行	-10.2227
一罪	-10.2227
五條	-10.2228
揀	-10.2235
不遠	-10.2236
手足	-10.2236
若犯	-10.2245
採	-10.2247
西方	-10.2254
言諍	-10.2255
食之	-10.2257
若准	-10.2258
幽	-10.2262
織師	-10.2264
文殊師利	-10.2266
變化	-10.2267
說欲	-10.2269
氏	-10.227
叉	-10.2272
回	-10.2275
神足	-10.2275
三中	-10.228
下二	-10.229
幢	-10.2292
着	-10.2293
羯磨者	-10.2295
佛令	-10.2295
封	-10.2299
汝莫	-10.2299
信樂	-10.2306
不制	-10.2309
二根	-10.2316
戒疏	-10.2317
一切智	-10.2318
六種	-10.2326
便成	-10.233
說戒時	-10.2335
大德一心念	-10.2338
泉	-10.2352
造作	-10.2359
了了	-10.2368
後來	-10.2371
既是	-10.2375
展	-10.2379
伺	-10.2383
八難	-10.2389
微塵	-10.239
信施	-10.2396
犯吉	-10.2397
一食	-10.2397
十六日	-10.2406
善知識	-10.2414
所不應為	-10.2415
若下	-10.2417
受戒人	-10.2418
省	-10.2419
頭面禮足	-10.242
澆	-10.2423
快	-10.2424
略說	-10.2424
名也	-10.2433
明了	-10.2435
今既	-10.2437
依法	-10.2438
應為	-10.2442
競	-10.2451
勤修	-10.2452
鈔云	-10.2459
尸羅	-10.246
賓	-10.2463
名利	-10.2468
禁戒	-10.2471
即於	-10.2473
敗	-10.2478
但以	-10.2478
更不	-10.2483
筆	-10.2487
一心奉請佛說	-10.2497
未知	-10.25
潔	-10.2501
愧	-10.2506
不實	-10.2507
如實	-10.2512
法律	-10.2515
想疑	-10.2526
先作	-10.253
共語	-10.2533
邑	-10.2535
聽畜	-10.2537
行相	-10.2538
苦行	-10.2538
應用	-10.2547
如彼	-10.2549
倫	-10.2549
輪王	-10.2551
翻為	-10.2558
頻	-10.2559
僧差	-10.2562
六根	-10.2563
貧窮	-10.2567
為異	-10.2567
虧	-10.257
即犯	-10.2573
俱舍	-10.2576
隨機	-10.2579
無為	-10.2583
𠎝	-10.2583
先有	-10.2588
佛世尊	-10.2588
薩婆多	-10.2589
貨	-10.2589
以法	-10.2593
逸	-10.2594
愆	-10.2597
已來	-10.26
裙	-10.2602
次釋	-10.2605
此經	-10.2607
天王	-10.2607
未必	-10.2611
文句	-10.2611
陀羅	-10.2613
不得與	-10.2617
應更	-10.2626
文義	-10.2627
年少	-10.263
癡人	-10.2631
𨷂	-10.2632
旋	-10.2634
獨覺	-10.2635
雖是	-10.2639
不正	-10.2639
三學	-10.2651
頗有	-10.2657
作如是白	-10.2658
園中	-10.2664
傾	-10.2665
盡壽	-10.2669
諸比丘言	-10.2679
取衣	-10.2684
莫不	-10.2685
謂於	-10.2687
惡法	-10.2689
染心	-10.2691
理應	-10.2692
豐	-10.2695
世尊告曰	-10.2696
衣界	-10.2699
二事	-10.2701
安陀會	-10.2703
一衣	-10.2704
其家	-10.2708
歡	-10.271
門中	-10.2711
司	-10.2712
是其	-10.2719
事法	-10.2721
黨	-10.2722
初果	-10.2731
護法	-10.2732
唯願	-10.2734
明知	-10.2736
當作	-10.2747
曠野	-10.2749
摧	-10.2751
壽命	-10.2751
六年	-10.2755
不住	-10.2762
練	-10.2764
等也	-10.2769
非沙門法	-10.2779
我先	-10.2784
自心	-10.2788
四方僧	-10.2796
江	-10.2797
澡	-10.2803
七十	-10.2806
律本	-10.2806
馳	-10.2808
人作	-10.281
□	-10.281
玉	-10.2813
欲得	-10.2818
增一	-10.2819
作是說	-10.2823
如常	-10.2824
羯磨疏云	-10.2827
圍	-10.2827
見有	-10.2832
隨其	-10.2834
制斯學處	-10.2834
守持	-10.2834
梵網	-10.2837
於一	-10.2844
䇿	-10.2846
二字	-10.2846
考	-10.2853
希有	-10.2858
二處	-10.2867
得作	-10.2875
經宿	-10.2877
而有	-10.2879
哀	-10.288
來者	-10.288
母論	-10.2889
苾芻白佛	-10.2893
不隨	-10.2896
而受	-10.2901
彼比丘尼	-10.2914
不止	-10.2915
聾	-10.2916
第三句	-10.2918
】「	-10.2919
寸	-10.292
此土	-10.2927
修多羅	-10.2927
通達	-10.293
僧祗	-10.2933
知之	-10.2935
意者	-10.2936
坐臥	-10.2944
般	-10.2945
三位	-10.2945
晝	-10.2946
自今已去	-10.2948
圍繞	-10.2958
尅	-10.2958
媒嫁	-10.296
藥叉	-10.2963
念念	-10.2963
裁	-10.2967
作聲	-10.2968
殊勝	-10.2969
跋	-10.2972
日中	-10.2973
釋義	-10.2976
諦聽	-10.2977
身體	-10.298
捨者	-10.2981
二罪	-10.2985
應語言	-10.2988
身命	-10.2991
道理	-10.2994
比丘尼僧	-10.2995
商人	-10.3004
為言	-10.3004
僧房	-10.3006
阿闍黎	-10.3011
無上菩提	-10.3013
一切菩薩	-10.3014
五月	-10.3021
若說	-10.3022
既有	-10.3023
唾	-10.3023
羣	-10.3024
三根	-10.3026
慎	-10.3027
憍	-10.3033
故作	-10.3035
共作	-10.3035
薩婆多云	-10.3036
口中	-10.3037
暴	-10.3038
月十五日	-10.3039
是罪	-10.3039
自為	-10.3039
衣價	-10.3043
後世	-10.3047
欲求	-10.305
)。】「	-10.3058
與食	-10.3064
甘	-10.3065
而反	-10.3071
不分	-10.3073
義同	-10.3073
慶	-10.3084
為法	-10.309
創	-10.3091
方可	-10.3097
力故	-10.3098
爛	-10.31
高聲	-10.31
上坐	-10.3101
問云	-10.3102
棄捨	-10.3103
尼師壇	-10.3107
東方	-10.3109
揲	-10.3112
六眾	-10.3123
記云	-10.3128
即應	-10.3129
得偷蘭遮	-10.3132
雖不	-10.3135
▁初釋	-10.3135
羞	-10.3151
非情	-10.3152
珍	-10.3154
知事	-10.3155
法輪	-10.3155
過限	-10.3159
不能得	-10.3163
羯磨竟	-10.3163
行頭陀	-10.3166
何謂	-10.3171
一事	-10.3187
歌	-10.3189
至彼	-10.3198
將去	-10.3201
奴婢	-10.3213
世俗	-10.3215
初二	-10.3217
此名	-10.3222
色心	-10.3223
念佛	-10.3231
商主	-10.3249
皆應	-10.325
引證	-10.325
汝實爾不	-10.3251
醜	-10.3254
腰	-10.3262
便生	-10.3262
板	-10.3265
茶	-10.3272
䟦難陀	-10.3273
見者	-10.3274
唯除	-10.3275
卿	-10.3277
頂禮	-10.3278
共宿	-10.3279
鉤	-10.3284
爪	-10.3286
獻	-10.3287
同學	-10.3289
殺人	-10.3303
方法	-10.3306
弗	-10.3308
之理	-10.3311
為師	-10.3326
五日	-10.3329
彼言	-10.334
不應受	-10.334
之道	-10.3341
還報	-10.3343
遠行	-10.3353
不疑	-10.3358
老病	-10.3373
約勅	-10.3375
掘地	-10.3375
幻	-10.3383
料理	-10.3383
入白衣舍	-10.3398
初禪	-10.3403
使者	-10.3408
四邊	-10.3409
刑	-10.3413
評	-10.3414
不去	-10.3414
陀羅尼	-10.3415
紙	-10.3422
有事	-10.3428
為利	-10.343
學人	-10.3434
吹	-10.3437
開緣	-10.3437
說言	-10.3438
符	-10.3439
惡道	-10.3441
是名為	-10.3442
經文	-10.3443
此某甲	-10.3445
立明	-10.3445
沉	-10.3446
射	-10.3446
法寶	-10.3447
墮落	-10.3455
所引	-10.3464
行時	-10.3469
餘如	-10.3473
佛所說	-10.3478
其餘	-10.3484
糞掃	-10.3485
眾多比丘	-10.3486
四果	-10.3488
作業	-10.349
染著	-10.3493
雖無	-10.3494
教授師	-10.3494
長壽	-10.3496
善知	-10.3503
天神	-10.3506
冠	-10.3513
淫	-10.3514
罪也	-10.3515
等法	-10.3518
△	-10.3522
能為	-10.353
虎	-10.3537
鐘	-10.354
犯緣	-10.3549
二十五	-10.355
三處	-10.355
行摩那埵	-10.3551
初夜	-10.3554
火燒	-10.3559
辟支佛	-10.3561
如斯	-10.3562
訛	-10.3568
重者	-10.357
亦當	-10.3573
上句	-10.3573
飢	-10.3578
突	-10.358
頃	-10.3584
於其	-10.3584
應教	-10.3586
困	-10.3586
各別	-10.3586
現身	-10.3593
誨	-10.3594
揵度	-10.3595
理須	-10.3596
無由	-10.3596
揵	-10.3597
本日治	-10.3599
六者	-10.36
有兩	-10.36
六羣	-10.3603
於他	-10.3605
天上	-10.3606
隨處	-10.3617
諸長老	-10.3622
城邑	-10.3626
貪著	-10.363
愛樂	-10.3631
檢	-10.364
鄙	-10.364
隨身	-10.3642
羹	-10.3642
彼便	-10.365
惠	-10.3652
輸	-10.3656
授戒	-10.3657
巳去	-10.3659
樂學戒	-10.3665
惱他	-10.3672
比丘某甲	-10.3682
一家	-10.3683
二界	-10.369
僧忍默然故	-10.3692
近圓	-10.3703
貪欲	-10.3703
後二	-10.3704
之過	-10.3705
枕	-10.3708
薩婆多論云	-10.3713
憐愍	-10.3714
悞	-10.372
手受	-10.3725
從坐起	-10.3729
異處	-10.3732
洗足	-10.3733
清淨比丘	-10.3737
離欲	-10.3739
邪命	-10.3741
佛在王舍城	-10.3746
亦犯	-10.3747
上二句	-10.3753
注中	-10.3757
色界	-10.3762
寺內	-10.3767
此非	-10.3771
最初未制戒	-10.378
擎	-10.3787
佛問	-10.379
六度	-10.3793
膩	-10.3797
不容	-10.3799
體是	-10.3801
看病人	-10.3802
從他	-10.3805
為眾	-10.3805
不過	-10.3809
往詣	-10.3813
違犯	-10.3814
下結	-10.3814
聖法	-10.3814
少分	-10.3814
欣	-10.3815
我巳	-10.382
諸尼	-10.382
巳來	-10.3828
當以	-10.3834
比丘應	-10.3836
有五事	-10.3837
菩提心	-10.3837
坐處	-10.3837
汝不	-10.384
咎	-10.384
團	-10.3844
放光	-10.3845
聽諸比丘	-10.3846
所詮	-10.3849
人物	-10.3849
儒	-10.385
仁等	-10.3855
所見	-10.3855
初文	-10.3857
大會	-10.3859
大戒	-10.3866
今當	-10.3866
愍	-10.3867
初標	-10.3867
親厚	-10.3869
七條	-10.3873
作念	-10.3874
三十二	-10.3877
童女	-10.3885
伽論	-10.3887
作房	-10.3888
佛道	-10.389
終身	-10.3894
修善	-10.3895
蕩	-10.39
盜戒	-10.3903
鄔陀夷	-10.3904
輔	-10.3907
甲	-10.3911
氈	-10.392
前安居	-10.3921
二諦	-10.3924
此釋	-10.3926
不殺	-10.3929
羅剎	-10.393
見諦	-10.3932
中國	-10.3935
離處	-10.394
迦絺那衣	-10.3945
百一	-10.3947
我身	-10.3955
惡事	-10.3955
二十七	-10.3956
安居竟	-10.3957
知法	-10.396
心也	-10.3962
險	-10.3966
與作	-10.3968
受教	-10.3974
偽	-10.3975
則是	-10.3975
範	-10.398
舍利子	-10.398
共為	-10.3981
一邊	-10.3982
至誠	-10.3982
制教	-10.3983
右手	-10.3983
以成	-10.3984
絹	-10.3984
正釋	-10.3987
殺盜	-10.3989
剎利	-10.3991
未盡	-10.3995
不得作	-10.3998
何用	-10.4
若教人	-10.4005
鈔文	-10.4011
閣	-10.4013
降伏	-10.402
此罪	-10.4022
為二	-10.4023
微妙	-10.4023
勇	-10.4028
聚落中	-10.4033
如佛	-10.4033
常行	-10.4034
本處	-10.4036
紐	-10.4037
無益	-10.4038
泥洹	-10.4043
僧祇律云	-10.4043
轉法輪	-10.4043
今欲	-10.4049
以無	-10.4049
雞	-10.405
以自	-10.4054
若約	-10.4056
剎	-10.4057
百億	-10.4058
彈指	-10.4061
▁六	-10.4068
相者	-10.4069
是何	-10.4069
下顯	-10.4074
如法治	-10.4077
災	-10.4078
應還	-10.4082
集眾	-10.4085
猛	-10.4086
第二句	-10.4089
僧次	-10.41
豈得	-10.4107
不修	-10.4108
捨去	-10.4113
令僧	-10.4114
一偈	-10.4115
浣染	-10.412
羯	-10.4125
丈	-10.4127
多論云	-10.4128
舍衛城	-10.4132
不得食	-10.4135
毫	-10.4137
曇	-10.4138
貪心	-10.414
止作	-10.4144
高座	-10.4145
不得受	-10.4146
渴	-10.4156
伸	-10.4157
四緣	-10.4158
無事	-10.4163
故爾	-10.4166
屍	-10.4168
非一	-10.4168
不假	-10.4171
二十二	-10.4178
釜	-10.418
此某甲比丘	-10.4181
皆由	-10.4181
佛物	-10.4182
不差	-10.4184
▁二若下	-10.4187
嚼	-10.4191
利他	-10.4195
示現	-10.4196
之緣	-10.4201
蓮花	-10.4202
又言	-10.4203
槃	-10.4208
種種呵責	-10.421
乞求	-10.4215
懺法	-10.4217
至此	-10.4222
箭	-10.4223
惡觸	-10.4228
休	-10.4231
梵音	-10.4232
下句	-10.4236
過人法	-10.4236
說此	-10.4243
無難	-10.4243
教令	-10.4247
非也	-10.4247
僧忍聽	-10.4248
晉	-10.4249
祖師	-10.4251
處者	-10.4254
墮罪	-10.4254
僧眾	-10.4257
隨相	-10.426
與此	-10.426
非淨行	-10.4261
知者	-10.4262
即前	-10.4264
遠近	-10.4265
僧寶	-10.4266
難處	-10.4268
揩	-10.4277
初門	-10.4282
此一	-10.4285
當時	-10.4285
當還	-10.4288
捨離	-10.4295
工	-10.4296
必當	-10.4298
贊	-10.4302
綴	-10.4306
如前說	-10.4306
自巳	-10.4311
八日	-10.4314
聖制	-10.4317
媒	-10.4325
施衣	-10.4328
受體	-10.4329
障礙	-10.4334
四戒	-10.4335
別有	-10.4337
如後	-10.4341
爾時諸比丘	-10.4345
令得	-10.4351
胸	-10.4351
自下	-10.4355
怒	-10.4355
報恩	-10.4356
之語	-10.436
爾所	-10.4361
白僧	-10.4362
入城	-10.4363
知其	-10.4364
美食	-10.4366
時中	-10.4366
前事	-10.4369
食肉	-10.4369
作是念已	-10.4369
牒釋	-10.4371
毒蛇	-10.4372
受近圓	-10.4375
瞋心	-10.4378
故今	-10.4382
彼即	-10.4384
言說	-10.4387
宜應	-10.4388
過十日	-10.4388
雨衣	-10.4391
依教	-10.4394
於後	-10.4395
種類	-10.4396
意業	-10.4398
而來	-10.4399
因緣故	-10.4401
取食	-10.4402
無表	-10.4407
故律云	-10.4418
此下	-10.4419
祇律	-10.4424
今從僧乞	-10.4425
應供	-10.443
蔽	-10.4434
肆	-10.4435
前明	-10.4438
時王	-10.4441
方成	-10.4445
勢力	-10.4448
十誦律云	-10.4456
產	-10.4458
不至	-10.4459
與尼	-10.4473
次句	-10.4473
欲使	-10.4475
維	-10.448
犯不犯	-10.4481
若取	-10.4485
不癡	-10.4489
違諫	-10.4489
阿蘭若	-10.4491
而非	-10.4491
謂以	-10.4496
於前	-10.4497
旦	-10.45
但得	-10.4501
可信	-10.4501
佛前	-10.4501
為是	-10.4506
哀愍	-10.4508
篇聚	-10.4516
請佛	-10.4523
㲲	-10.4527
逆罪	-10.4532
不滅	-10.4535
千佛	-10.4537
再三	-10.4537
僧應	-10.4537
正道	-10.4538
甚深	-10.4538
孤	-10.4538
一日一夜	-10.4539
珍寶	-10.4542
令我	-10.4542
此五	-10.4546
浴室	-10.455
本源	-10.4552
爾時有	-10.4555
一劫	-10.4555
五分律云	-10.456
鬬	-10.4561
恥	-10.4564
脫革屣	-10.4566
軟	-10.4567
二三	-10.4572
木叉	-10.4574
唄	-10.4575
分衣	-10.4576
僧得	-10.4576
本是	-10.4578
畔	-10.458
嘉	-10.4582
卷第十	-10.4586
當為	-10.4596
漸漸	-10.4596
立名	-10.4598
第四句	-10.46
增益	-10.4601
䟦	-10.4603
一宿	-10.461
漉	-10.461
而出	-10.4618
灑	-10.4619
假名	-10.4619
以此因緣	-10.4619
他部	-10.4621
本律	-10.4621
北方	-10.4622
第	-10.4624
應須	-10.4624
夜叉	-10.4624
來入	-10.4626
今依	-10.463
津	-10.4631
二名	-10.4634
說也	-10.4634
其相	-10.4641
時六群比丘	-10.4642
無犯者	-10.4643
觀行	-10.4647
不稱	-10.4648
時世尊	-10.4662
內宿	-10.4665
後生	-10.4665
二教	-10.4666
著衣持鉢	-10.467
諸外道	-10.4689
佛法中	-10.4689
與某甲	-10.469
偈云	-10.4691
復言	-10.4695
攝頌曰	-10.4702
正是	-10.4703
是菩薩	-10.4703
論中	-10.4713
裂	-10.4714
出家受具足戒	-10.472
殄	-10.472
以衣	-10.4721
有人言	-10.4723
破夏	-10.4723
辨相	-10.4725
無二	-10.4726
明其	-10.473
大迦葉	-10.4734
庫	-10.4734
欲說戒者當如是說	-10.4734
洗手	-10.4738
請僧	-10.4739
結重	-10.4741
前四	-10.4741
之行	-10.4741
括	-10.4747
絲	-10.475
後夜	-10.4752
言無	-10.4753
娑	-10.4756
受生	-10.4771
非隨順行	-10.4773
加行	-10.4773
一年	-10.4773
日暮	-10.4775
儉	-10.4778
殺者	-10.4783
右膝著地	-10.4786
而成	-10.4788
在於	-10.4789
知他	-10.4799
等是	-10.4801
發戒	-10.4801
禪師	-10.4803
六日	-10.4804
問佛	-10.4815
無厭	-10.4815
入村	-10.4818
迦攝波	-10.4818
從彼	-10.4818
緣中	-10.4819
溫	-10.4824
無數	-10.4826
見之	-10.4827
去者	-10.4833
越比尼罪	-10.4834
一鉢	-10.4839
一云	-10.4842
頌曰	-10.4851
故下	-10.4852
病時	-10.4852
上文	-10.4854
聞之	-10.4854
非沙門	-10.4865
十惡	-10.4875
我有	-10.4877
即入	-10.4885
大比丘	-10.4896
善戒	-10.4896
先後	-10.4897
地中	-10.4899
將此	-10.4901
應差	-10.4906
瞿	-10.4908
盈	-10.4911
三戒	-10.4918
灌頂	-10.4934
了論	-10.4935
健	-10.4938
大聖	-10.4943
通於	-10.4944
怛	-10.4946
教者	-10.4948
耶舍	-10.4948
尤	-10.4951
盆	-10.4961
棄之	-10.4968
去時	-10.4968
獵師	-10.4969
嫉	-10.4969
斧	-10.4972
旁	-10.4979
西域	-10.4983
墮地獄	-10.4984
有智	-10.4989
▁初標名	-10.4989
所制	-10.4989
灌	-10.4995
入重	-10.4998
戒是	-10.5
通局	-10.5001
佛果	-10.5002
隨緣	-10.5004
用者	-10.5006
彼論	-10.5009
誰諸長老忍	-10.5012
知時	-10.5016
大姊僧聽	-10.5018
於一切	-10.5021
秋	-10.5028
故曰也	-10.503
或是	-10.5031
六塵	-10.5031
為王	-10.5041
置地	-10.5046
無因緣	-10.5046
估客	-10.505
不可思議	-10.5053
汝所為非	-10.5054
欲作	-10.5054
佛戒	-10.5056
童	-10.5063
換	-10.5064
同住	-10.5065
混	-10.5066
的	-10.5067
不忘	-10.5079
物者	-10.508
語已	-10.5082
二十三	-10.5085
廣說如前	-10.5094
結使	-10.5096
有心	-10.5098
僧和合	-10.5102
遂便	-10.5102
籌量	-10.5104
不和合	-10.5106
俱有	-10.511
集十句義乃至正法久住	-10.5112
得一	-10.5113
誓願	-10.512
亦成	-10.5123
譬	-10.5136
十住	-10.5141
自利	-10.5144
名稱	-10.5145
冀	-10.5148
有因緣	-10.515
指授	-10.5153
便即	-10.5157
不得戒	-10.5158
不求	-10.5167
顏	-10.517
知慚愧者	-10.5171
一切佛	-10.5173
為大	-10.5177
者善	-10.5178
侶	-10.5179
佛告諸苾芻	-10.518
釋種	-10.5184
將欲	-10.5186
諸比丘聞	-10.5191
西國	-10.5192
)。「	-10.5199
不捨者	-10.5201
莊	-10.5203
邊地	-10.5204
但言	-10.5205
當願眾生	-10.5207
前行	-10.5207
不作淨	-10.521
憙	-10.5213
況復	-10.5213
齊整	-10.5215
禍	-10.5217
包	-10.5218
歸依佛	-10.522
此據	-10.5223
入眾	-10.5224
呪術	-10.5226
何有	-10.5229
本意	-10.5233
好心	-10.5236
出外	-10.5239
靜慮	-10.5241
善業	-10.5249
復更	-10.5251
實語	-10.5252
陽	-10.5254
更加	-10.5254
夢中	-10.5261
▁【	-10.5261
不覆藏	-10.5266
不往	-10.5269
最上	-10.5272
對僧	-10.5274
和合僧	-10.5275
苟	-10.5275
心境	-10.5276
憎	-10.5277
來已	-10.5279
律制	-10.528
漂	-10.5282
善能	-10.5282
戒品	-10.5286
爐	-10.5289
堪能	-10.5289
麤罪	-10.529
當於	-10.529
所證	-10.5292
比丘所	-10.5294
吉祥	-10.5294
並皆	-10.5296
禮足	-10.5297
一卷	-10.5298
諸文	-10.5298
勵	-10.5302
而能	-10.5304
三重	-10.5307
戒行	-10.5309
製	-10.5309
遣人	-10.5309
法藏	-10.5311
為名	-10.5312
捨者善	-10.5312
出生	-10.5313
妻子	-10.5313
受懺	-10.5314
結大界	-10.5316
法華	-10.5319
酪	-10.5325
警	-10.5327
収	-10.5336
下指	-10.5336
澄	-10.5338
微細	-10.5342
無窮	-10.5343
俱是	-10.5344
癈	-10.5345
無文	-10.535
衣時	-10.5351
孝順	-10.5353
金色	-10.5353
輿	-10.5355
最初犯戒	-10.5355
排	-10.5359
釋中	-10.536
若使人	-10.536
有云	-10.5363
忍辱	-10.5364
厨	-10.5364
聰明	-10.5365
正行	-10.5366
更相	-10.5369
𦦨	-10.5371
有多	-10.5375
不違	-10.5376
止宿	-10.5383
班	-10.5387
見其	-10.5388
不知云何	-10.5389
食竟	-10.5392
裸形	-10.5392
明之	-10.5394
要期	-10.5396
共期	-10.5397
功德衣	-10.5398
獵	-10.5398
紫	-10.54
使淨人	-10.5401
有五法	-10.5402
信者	-10.5402
非無	-10.5403
同意	-10.5405
▁二就下	-10.5406
玄云	-10.5408
入涅槃	-10.541
一界	-10.5411
知事人	-10.5413
犯何事	-10.5414
不現	-10.5419
五逆	-10.542
天台	-10.542
八萬	-10.5426
梵云	-10.5432
智論云	-10.5434
輕慢	-10.5439
跪	-10.5439
驢	-10.5447
紹	-10.5448
繼	-10.5449
溺	-10.545
遲	-10.5455
撥	-10.5458
餘事	-10.546
何時	-10.5461
憂惱	-10.5467
犯僧伽婆尸沙	-10.547
為彼	-10.5472
初約	-10.5473
大慈	-10.5478
著地	-10.5479
籬	-10.5482
即此	-10.5487
故出精	-10.549
作意	-10.5491
今為	-10.5497
波斯匿王	-10.55
个	-10.5501
約義	-10.5508
二形	-10.5512
象馬	-10.5515
汎	-10.5522
香華	-10.5524
左手	-10.5527
緣者	-10.5529
被舉	-10.5531
於人	-10.5531
知見	-10.5534
梵網經	-10.5536
業報	-10.5542
三塗	-10.5545
率	-10.5545
此心	-10.5546
剌	-10.5549
一品	-10.5551
詰	-10.5551
不絕	-10.5553
身分	-10.556
上明	-10.5568
活命	-10.5568
婦人	-10.5568
亦不應	-10.5571
刻	-10.5573
婬戒	-10.5577
風吹	-10.5579
僻	-10.558
十律	-10.5582
和僧	-10.5583
能除	-10.5584
者無犯	-10.5587
現相	-10.5589
比丘尼言	-10.559
蒜	-10.5592
之境	-10.5593
往世尊所	-10.5595
祇桓	-10.5601
注文	-10.5602
淨土	-10.5602
語彼	-10.5607
一切諸佛	-10.5613
違制	-10.5617
犯突吉羅	-10.562
苦樂	-10.5623
施者	-10.5625
事鈔	-10.5626
闍梨	-10.5627
為此	-10.5629
若聞	-10.5634
等正覺	-10.5637
取者	-10.5639
費	-10.5644
施物	-10.5645
急施衣	-10.5647
善生	-10.5649
總舉	-10.565
則為	-10.5652
住者	-10.5652
重受	-10.5656
人間遊行	-10.5658
皆犯	-10.5662
阿那律	-10.5663
即須	-10.5663
向佛廣說	-10.5664
為宗	-10.5671
入僧	-10.5672
拾	-10.5674
形像	-10.5676
聽許	-10.5676
二持	-10.5677
餘衣	-10.5681
三諫	-10.5683
魏	-10.5684
法性	-10.5686
戒經	-10.5687
舊云	-10.5688
持此	-10.5688
身中	-10.5689
有諸比丘	-10.5693
論文	-10.5696
頰	-10.5697
耕	-10.5698
嫌責	-10.57
戾	-10.57
殺心	-10.57
十誦律	-10.5701
此句	-10.5704
分為二	-10.571
自殺	-10.571
語比丘言	-10.5711
雨浴衣	-10.5711
若苾芻尼	-10.5712
凡有	-10.5718
千歲	-10.5718
摘	-10.573
梵王	-10.5732
依律	-10.5733
繫縛	-10.5733
四五	-10.5738
界者	-10.5739
入寺	-10.5742
本罪	-10.5744
坊	-10.5747
未能	-10.575
生起	-10.5755
治之	-10.5755
綺	-10.5756
把	-10.5759
修學	-10.576
何事	-10.5763
化身	-10.5763
本宗	-10.5765
不與取	-10.5765
為緣	-10.5772
得果	-10.5774
羅睺羅	-10.578
違逆	-10.5782
各自	-10.5786
為求	-10.5788
孫	-10.5789
下正	-10.579
刀杖	-10.5792
賜	-10.5793
能破	-10.5797
二歲學戒	-10.581
王所	-10.5811
歸命	-10.5817
往白世尊	-10.5817
麁罪	-10.5818
差人	-10.5819
奉持	-10.5823
時到	-10.5825
請食	-10.5825
僧者	-10.5826
慈悲心	-10.5828
椎	-10.5828
心所	-10.5828
澤	-10.583
雅	-10.5833
優劣	-10.5836
立法	-10.5838
作布薩	-10.584
尚不	-10.584
中初明	-10.5843
先受	-10.5845
以此因緣具白世尊	-10.5848
故無	-10.5851
得物	-10.5854
亦通	-10.5854
騰	-10.5855
徒眾	-10.5857
覆頭	-10.5859
焚	-10.5861
受三歸	-10.5862
楊枝	-10.5865
舉罪	-10.5869
惡趣	-10.587
後更	-10.587
所造	-10.5872
懺罪	-10.5874
犯也	-10.5874
巳成	-10.588
非理	-10.588
誕	-10.5882
與衣	-10.5883
隣	-10.5889
又下	-10.589
意在	-10.589
三千	-10.5891
一切僧	-10.5891
去聲	-10.5897
殃	-10.5897
莖	-10.5898
無能	-10.5909
如世尊說	-10.591
僧食	-10.591
不別	-10.5911
須陀洹	-10.5913
惟願	-10.5914
是諸	-10.5915
未曾有	-10.5919
良由	-10.5921
十三難	-10.5922
應分	-10.5927
內有	-10.5927
但為	-10.5928
晨朝	-10.5931
對境	-10.5933
盡集	-10.5933
高下	-10.5935
知不	-10.5935
法師曰	-10.5935
頗有比丘	-10.5944
針筒	-10.5945
往至	-10.5949
如是白	-10.5951
甘蔗	-10.5955
愈	-10.5957
是知	-10.5958
過者	-10.5962
慕	-10.5963
無違	-10.5963
行處	-10.5965
嫁	-10.5968
如大	-10.597
所防	-10.5971
明了論	-10.5972
共同	-10.5973
此身	-10.5974
成正覺	-10.5975
賊住	-10.5978
淚	-10.598
正受	-10.5982
諸有	-10.5987
在地	-10.5994
罪過	-10.5995
中初示	-10.5996
受五戒	-10.5998
散亂	-10.6
惱亂	-10.6004
不處分	-10.6005
猪	-10.6009
乃至已聞者當重	-10.6009
即與	-10.6017
疏中	-10.602
受欲	-10.6022
學家	-10.6029
山林	-10.603
若食	-10.6032
之間	-10.6034
共分	-10.6037
現前僧應分	-10.6039
百歲	-10.6039
種姓	-10.6041
貿易	-10.6043
摩羅	-10.6044
便言	-10.6047
好惡	-10.6053
開遮	-10.6055
夏中	-10.6059
僧數	-10.606
遮難	-10.6064
持鉢	-10.6065
受迦絺那衣	-10.6068
犯輕	-10.6068
後於異時	-10.607
授記	-10.6072
得大	-10.6075
次科初	-10.6078
結前	-10.6079
佗	-10.6082
僧界	-10.6082
罪報	-10.6083
淨者	-10.6083
遷	-10.6085
無垢	-10.6086
候	-10.6087
初釋	-10.6088
靜處	-10.6089
廣說乃至	-10.6095
捨衣	-10.6097
之功	-10.6099
越毘尼罪	-10.6099
即當	-10.6101
午	-10.6101
不立	-10.6106
羮	-10.6108
意欲	-10.6109
有蟲	-10.6115
脇	-10.6115
燒香	-10.6117
普賢	-10.6123
上中下	-10.6128
怨家	-10.6133
▁初引	-10.6134
作如是說	-10.6137
小罪	-10.6137
躬	-10.6145
四天王	-10.6151
對人	-10.6156
救護	-10.6159
大沙門	-10.6167
所用	-10.6168
堅持不捨	-10.6172
應往	-10.6175
難事	-10.6177
釋名者	-10.6177
奔	-10.618
方丈	-10.6181
是一	-10.6185
罪名	-10.6186
滅度	-10.6187
身口意	-10.6187
准前	-10.6188
汝云何	-10.6195
但使	-10.6199
作大	-10.6201
之內	-10.6206
三眾	-10.6209
六親	-10.621
屠	-10.6214
非親里比丘尼	-10.6215
僧已與	-10.6217
捨心	-10.6218
一切皆	-10.6219
轉想	-10.622
苗	-10.622
籠	-10.6222
暢	-10.6222
戒壇	-10.6223
能詮	-10.6225
惡說	-10.6225
能作	-10.6229
見道	-10.6234
故非	-10.6234
以水	-10.6237
療	-10.6238
三十六	-10.6242
疾病	-10.6245
如佛所說	-10.6246
翅	-10.6248
烟	-10.6248
煖	-10.6249
現前僧	-10.6249
危	-10.6251
作方便	-10.6253
且約	-10.6254
還至	-10.6256
善行	-10.6257
正覺	-10.6261
不答	-10.6261
於上	-10.6266
更增	-10.6267
而立	-10.6267
復作是念	-10.627
諸佛子	-10.627
實作	-10.6271
家中	-10.6281
祈	-10.6282
兩句	-10.6288
為佛	-10.6288
八法	-10.6289
受已	-10.6292
則知	-10.6293
無法	-10.6294
事故	-10.63
僧已忍	-10.63
隨心	-10.6301
不輕	-10.6301
行來	-10.6303
具說	-10.6303
種種因緣呵已	-10.6311
般涅槃	-10.6312
受取	-10.6317
諸經	-10.6319
僧集	-10.632
二十六	-10.632
成業	-10.6321
陷	-10.6322
汝等苾芻	-10.6325
又以	-10.6329
治罰	-10.6331
方能	-10.6336
說之	-10.6338
優婆塞戒	-10.634
唯一	-10.634
二年	-10.6341
為正	-10.6344
安住	-10.6347
事理	-10.6353
彼苾芻	-10.6355
以何	-10.6357
謙	-10.636
殺害	-10.636
之外	-10.6362
見此	-10.6362
鄣	-10.6364
作食	-10.6366
巳竟	-10.6369
式叉	-10.6369
佉	-10.6375
言我	-10.6375
稽首	-10.6375
同時	-10.6377
在下	-10.6382
漏盡	-10.6383
命根	-10.6384
且據	-10.6384
由彼	-10.6389
講堂	-10.6389
皆須	-10.639
大愛道	-10.6391
等物	-10.6391
之體	-10.6391
手執	-10.6394
若多	-10.6396
犯殘	-10.6399
重故	-10.6402
皆為	-10.6403
彈	-10.6404
即上	-10.6409
五根	-10.6422
帛	-10.6422
此比丘尼	-10.6424
墨	-10.6427
有德	-10.6427
開導	-10.6428
中初文	-10.643
招譏	-10.643
耆	-10.643
五緣	-10.6432
四位	-10.6432
一生	-10.6434
緣覺	-10.6435
若其	-10.6439
居士婦	-10.6441
有愛	-10.6445
辛	-10.6445
釋相	-10.6448
四部	-10.6453
名義	-10.6455
自持	-10.646
成重	-10.6464
善友	-10.6464
懺者	-10.647
少欲知足	-10.647
滿五	-10.6474
若衣	-10.6476
越毗尼罪	-10.6482
第一義諦	-10.6484
所起	-10.6488
三拜	-10.6495
火淨	-10.6497
萬行	-10.65
而取	-10.6506
偏袒右肩	-10.6506
便是	-10.6508
東西	-10.6509
▁初問	-10.651
意謂	-10.6511
滿二十	-10.6512
既爾	-10.6513
地上	-10.6513
二義	-10.6517
廟	-10.6521
同宿	-10.6524
便往	-10.6533
衛	-10.6536
諸有情	-10.6537
乃至佛言	-10.6538
所緣	-10.654
取其	-10.6544
次辨	-10.6545
校	-10.6545
不待	-10.6547
惡獸	-10.6548
諸煩惱	-10.6551
一重	-10.6552
所以者何	-10.6552
飡	-10.6552
役	-10.6553
三世諸佛	-10.6555
與前	-10.6556
義通	-10.6558
死人	-10.6559
此諸	-10.6561
小者	-10.6564
前戒	-10.6565
四明	-10.6566
我比丘某甲	-10.6568
。』「	-10.6569
五利	-10.6572
異境	-10.6572
日夜	-10.6575
比丘得	-10.6575
貌	-10.6576
十二年	-10.6581
二十九	-10.6581
曬	-10.6582
知而	-10.6583
祭	-10.6585
閱	-10.6586
彼岸	-10.6594
重也	-10.6596
結小界	-10.6599
不教	-10.66
成實	-10.66
▁七	-10.6601
No	-10.6603
至僧中	-10.6607
遣信	-10.6609
毒藥	-10.661
犯重罪	-10.661
不了了	-10.6615
言語	-10.6616
已下	-10.6616
瑞	-10.6618
施食	-10.6619
以不	-10.6621
摶	-10.6622
梯	-10.6623
出去	-10.6626
革	-10.6626
諸善	-10.6628
事竟	-10.6631
之因	-10.6632
引禮	-10.6632
室羅伐城	-10.6634
人多	-10.6634
或因	-10.6634
此為	-10.6643
巡	-10.665
年滿二十	-10.6651
埋	-10.6656
寡	-10.6656
本心	-10.6658
粟	-10.6662
得脫	-10.6664
出家菩薩	-10.6666
色身	-10.6667
敷座	-10.6667
同行	-10.667
譽	-10.6671
慧命	-10.6674
既云	-10.6675
五中	-10.6679
能得	-10.6679
頂戴	-10.6681
相也	-10.6684
後有	-10.6684
所應	-10.6685
可食	-10.6687
正理	-10.669
相好	-10.6694
所成	-10.6695
無戒	-10.6696
命難	-10.6698
佛身	-10.6706
若有人	-10.6708
雖非	-10.6714
此住處	-10.6715
浣衣	-10.6715
入於	-10.6717
帖	-10.6718
債	-10.6726
又有	-10.6728
契經	-10.6731
聽者	-10.6733
罪福	-10.6733
現行	-10.6737
有法	-10.6738
上二	-10.6739
取物	-10.6741
三百	-10.6743
菩薩摩訶薩	-10.6746
喜樂	-10.6749
語云	-10.6753
見他	-10.6753
商	-10.6761
應得	-10.6761
婆羅	-10.6764
失受	-10.6766
白王	-10.6767
肅	-10.6767
不思議	-10.6779
餘法	-10.6779
有二義	-10.6781
羯磨師	-10.6785
中夜	-10.6786
境差	-10.6787
晚	-10.6788
王即	-10.679
何名	-10.679
湯藥	-10.6792
道者	-10.6793
七者	-10.6794
歸依法	-10.6796
四波羅夷	-10.6797
剝	-10.6798
剎那	-10.68
本師	-10.6802
武	-10.6803
得法	-10.6804
小便	-10.6805
王聞	-10.6808
據此	-10.6811
食處	-10.6811
與比丘尼	-10.6813
或於	-10.6813
見彼	-10.6817
多種有漏處	-10.682
答中	-10.6821
略舉	-10.6821
能斷	-10.6824
為初	-10.6825
得入	-10.6827
經說	-10.6828
徐	-10.6831
諸佛菩薩	-10.6835
靡	-10.6835
皷	-10.6837
後人	-10.6838
王臣	-10.6839
彼處	-10.6841
還家	-10.6844
非畜	-10.6854
鄔波馱耶	-10.6858
餓	-10.6858
敬重	-10.6858
汝能	-10.6862
若少	-10.6866
不請	-10.6869
皆共	-10.6872
所以爾者	-10.6875
闕緣	-10.6875
意樂	-10.6876
作諸	-10.688
占	-10.688
所對	-10.688
能治	-10.6881
儀式	-10.6882
初示	-10.6884
毘舍離	-10.6888
夫婦	-10.689
七支	-10.6892
學法	-10.6896
非正	-10.6898
楚	-10.69
無量無邊	-10.6905
豎	-10.6906
苦痛	-10.6909
五蘊	-10.6915
已說	-10.6919
崩	-10.6926
聞是語已	-10.6926
華言	-10.6926
染衣	-10.6926
逃	-10.6928
如其	-10.6929
忿	-10.6929
飽	-10.6933
拏	-10.6934
風雨	-10.6939
無慚愧	-10.694
隆	-10.694
說偈	-10.694
進趣	-10.6943
龜	-10.6946
為道	-10.6947
人女	-10.6948
粗	-10.696
瓶沙王	-10.6963
心行	-10.6965
受巳	-10.6968
曳	-10.6971
振	-10.6971
中前	-10.6972
醫藥	-10.6981
結成	-10.6981
宣說	-10.6985
自恣竟	-10.6986
托	-10.6987
三年	-10.6988
式叉迦羅尼	-10.6991
四分云	-10.6993
不染	-10.6993
六夜摩那埵	-10.6995
邪正	-10.7
偷盜	-10.7001
本為	-10.7002
不集	-10.7003
稻	-10.7005
比丘來	-10.7007
哩	-10.7007
釋文	-10.7007
受七日	-10.7008
求覓	-10.7009
界相	-10.701
實無	-10.7012
皆以	-10.7012
三結	-10.7013
此解	-10.7013
內心	-10.7016
上座前	-10.7017
應隨	-10.7023
知彼	-10.7025
文意	-10.7026
得與	-10.7027
受大	-10.7028
上三	-10.703
由斯	-10.703
說波羅提木叉	-10.7035
陣	-10.7035
於佛法中	-10.7036
得重	-10.7042
既至	-10.7043
顏色	-10.7045
匠	-10.7046
覽	-10.705
所持	-10.705
▁二初下	-10.7052
五衣	-10.7053
云何為	-10.7058
根本說一切有部毘奈耶	-10.706
然燈	-10.7062
相見	-10.7063
在中	-10.7066
搖	-10.7071
說十	-10.7071
豫	-10.7075
不現前	-10.7075
無著	-10.7076
屐	-10.7076
罸	-10.7077
復以	-10.708
轉輪王	-10.7081
空無	-10.7082
測	-10.7082
何意	-10.7084
事諍	-10.7087
十歲	-10.7089
倉	-10.709
七逆	-10.709
新學	-10.7096
眾學	-10.7097
見我	-10.7098
為四	-10.7104
餘四	-10.7105
理無	-10.7106
玅	-10.7108
可為	-10.7109
功能	-10.7117
釋此	-10.7118
為其	-10.712
相攝	-10.7124
儀軌	-10.7126
能滅	-10.7127
種性	-10.7127
之業	-10.7128
法相	-10.713
如經	-10.7132
說是	-10.7136
俗家	-10.7136
何物	-10.7137
斯陀含	-10.714
干	-10.7141
發言	-10.7142
遊戲	-10.7143
云何名	-10.7144
加持	-10.7146
合有	-10.7146
心心	-10.715
成論	-10.7152
入輕	-10.7152
若不爾者	-10.7153
不發	-10.7153
前境	-10.7156
同法	-10.7156
不放逸	-10.7157
而入	-10.7157
一切諸	-10.7157
諱	-10.7161
鬘	-10.7162
修羅	-10.7162
根本律云	-10.7163
持食	-10.7164
縵	-10.7164
九品	-10.7168
聖賢	-10.7171
已上	-10.7177
有諸	-10.718
總別	-10.7182
相貌	-10.7182
他勝	-10.7183
其意	-10.7184
父王	-10.7185
十力	-10.7186
錢寶	-10.7188
隅	-10.7188
犯僧殘	-10.7191
夫主	-10.7191
佛告阿難	-10.7191
難提	-10.7193
佛像	-10.7193
求利	-10.7194
得越法罪	-10.72
餘有	-10.7202
而自	-10.7204
篇中	-10.7212
八者	-10.7214
無有是處	-10.7216
不舉	-10.7219
至佛所	-10.7225
地持	-10.7226
價直	-10.7226
見聞疑	-10.7227
佛即	-10.7228
史	-10.7229
未見	-10.7231
住此	-10.7232
無數方便	-10.7234
佛答	-10.7235
即如	-10.7235
何因	-10.724
若更	-10.724
罷	-10.7241
聽我	-10.7247
販	-10.7251
同類	-10.7252
敕	-10.7257
白云	-10.7261
蒲	-10.7263
相與	-10.7265
不淨觀	-10.7267
樹葉	-10.728
後方	-10.7281
總名	-10.7283
殺戒	-10.7285
之教	-10.7288
八句	-10.7289
彩	-10.7292
有九	-10.7292
為五	-10.7293
戀	-10.7295
罔	-10.7297
意識	-10.73
三緣	-10.73
雷	-10.7301
攬	-10.7303
有力	-10.7304
本境	-10.7306
作佛	-10.7308
下別釋	-10.731
未詳	-10.731
義云	-10.7311
今則	-10.7315
通名	-10.7318
虗妄	-10.7319
謂無	-10.732
三由旬	-10.732
野干	-10.7322
難緣	-10.7328
瞋恨	-10.733
如意	-10.7334
編	-10.7335
所出	-10.7336
悲心	-10.7338
除去	-10.734
受施	-10.7341
財寶	-10.7342
所求	-10.7345
宿命	-10.7345
二篇	-10.7346
應在	-10.7352
繩床	-10.7354
則成	-10.7354
本迷	-10.7354
入佛	-10.7355
一切處	-10.7356
長淨	-10.7357
殘食	-10.7361
我聞	-10.7362
如是語	-10.7362
有殘	-10.7362
資身	-10.7368
於法	-10.7369
故犯	-10.7369
著袈裟	-10.7381
以辨	-10.7383
總標	-10.7387
覆鉢	-10.7388
外相	-10.7393
說恣	-10.7393
今云	-10.7395
非我	-10.7395
材	-10.7403
衣財	-10.7404
阿修羅	-10.7406
鞭	-10.7407
才	-10.741
無妨	-10.7411
寶物	-10.7416
怠	-10.7418
勸令	-10.7424
提罪	-10.7427
祗	-10.7429
罷道	-10.7432
作餘食法	-10.7433
即生	-10.7434
為比丘	-10.7434
勇猛	-10.7445
行也	-10.745
飲水	-10.745
二重	-10.7452
十里	-10.7456
三宿	-10.7458
萬歲	-10.7462
鈍根	-10.7462
責心	-10.7462
釋上	-10.7466
常為	-10.7467
用之	-10.7467
從座起	-10.7468
床上	-10.7469
非色	-10.7471
無衣	-10.7473
此是共戒	-10.7475
過患	-10.7476
彼律	-10.7478
雪	-10.7479
罪相	-10.7481
二門	-10.7483
貝	-10.7484
立制	-10.7487
請法	-10.7489
天女	-10.7489
故稱	-10.7489
猒	-10.7489
略教	-10.749
當言	-10.7497
法式	-10.7499
行乞食	-10.7501
還復	-10.7506
謂比丘	-10.7507
餘皆	-10.7508
自恣時	-10.7509
肥	-10.7513
十門	-10.752
三途	-10.752
界中	-10.7521
付囑	-10.7521
祇洹	-10.7521
勉	-10.7524
煎	-10.7524
嘆	-10.7526
雪山	-10.7528
阿練若	-10.7528
具儀	-10.7531
受隨	-10.7534
更作	-10.7536
共一	-10.7537
為首	-10.7542
逝多林	-10.7542
損害	-10.7546
既得	-10.7547
對面	-10.7547
隨覆藏日	-10.7549
文三	-10.7549
作時	-10.755
佛及僧	-10.7554
響	-10.7557
離衣宿	-10.7558
傍生	-10.7558
餘物	-10.756
指示	-10.756
毀犯	-10.7561
園林	-10.7564
忌	-10.7564
者何	-10.7566
無住處	-10.7569
所列	-10.757
淨故	-10.7573
無染	-10.758
亦如上說	-10.7581
豈有	-10.7586
甞	-10.7587
人說	-10.7587
應畜	-10.7588
礪云	-10.7589
男根	-10.7589
得生	-10.7594
無想	-10.7598
若不能	-10.7599
謀	-10.76
福業	-10.7612
祇云	-10.7614
道法	-10.7625
受歲	-10.7629
其中有少欲知足	-10.763
若檀越	-10.7638
引文	-10.7638
蠶	-10.7641
促	-10.7642
為難	-10.7646
種種因緣	-10.7648
皆突吉羅	-10.7651
受十戒	-10.7654
既非	-10.7654
別相	-10.7657
胡跪合掌	-10.7663
稱為	-10.7663
還來	-10.7664
不得為	-10.7664
非餘	-10.7666
不結	-10.7666
故妄語	-10.7672
為之	-10.7675
丸	-10.7675
不宜	-10.7676
常生	-10.7678
與佛	-10.7679
頭上	-10.768
箇	-10.7684
一千	-10.7685
覺知	-10.7689
四十九	-10.7689
之具	-10.7692
娶	-10.7695
作非法	-10.7696
已還	-10.7698
軍中	-10.7698
別行	-10.77
墮惡道	-10.7701
方成本	-10.7703
長大	-10.7706
盡未來際	-10.7707
同一說戒	-10.7708
器中	-10.7711
行惡行	-10.7711
露形	-10.7712
亦如上	-10.7716
智人	-10.7717
正義	-10.7722
刪	-10.7723
為義	-10.7725
淨水	-10.7726
信敬	-10.773
能受	-10.7731
成者	-10.7732
得提	-10.7733
啼	-10.7739
身語	-10.774
所修	-10.7742
洗鉢	-10.7744
端嚴	-10.7745
相從	-10.7746
之益	-10.7746
捺	-10.7746
道果	-10.7749
爾時六群比丘	-10.775
捕	-10.775
於此處	-10.7754
欲殺	-10.7755
宇	-10.7756
重病	-10.7757
大歡喜	-10.7758
吞	-10.7758
▁初敘	-10.7768
捨財	-10.7771
謂前	-10.7771
以無根	-10.7774
著用	-10.7775
持刀	-10.7778
如是言	-10.7781
在何處	-10.7783
本法	-10.7784
柔軟	-10.7786
如鈔	-10.7789
為巳	-10.779
則非	-10.7793
功用	-10.7796
互用	-10.7797
師曰	-10.78
三舉	-10.7805
取水	-10.781
號為	-10.781
污他家	-10.7814
殘宿	-10.7815
第一義	-10.7815
劍	-10.7816
古今	-10.7818
修治	-10.7818
誰能	-10.7819
制令	-10.782
業疏	-10.782
七非	-10.7821
閻浮	-10.7822
我以	-10.7828
所居	-10.7834
諸苾芻尼	-10.7836
不應畜	-10.7837
往語	-10.7844
初二句	-10.7845
立義	-10.7849
琉璃	-10.785
是大	-10.7853
業障	-10.7854
餘之	-10.7854
無力	-10.7855
應法	-10.7856
汝實作是事不	-10.7858
五年	-10.786
聖種	-10.7866
一乘	-10.7868
制限	-10.7869
輕者	-10.7869
具足戒	-10.787
云何名比丘	-10.7873
離過	-10.7874
撮	-10.7874
為最	-10.7874
妙覺	-10.7877
入地獄	-10.7879
應持	-10.788
僧巳忍	-10.7882
然而	-10.7882
文字	-10.7883
諮	-10.7884
初科	-10.7886
制也	-10.7887
僧今與	-10.7891
有益	-10.7892
須提那	-10.7892
慇懃	-10.7893
今有	-10.7895
明相未出	-10.7898
所在	-10.7902
穴	-10.7903
晨	-10.7903
孝順心	-10.7905
『	-10.7912
何者是	-10.7913
秊	-10.7922
等三	-10.7925
思念	-10.7927
分物	-10.7929
以一	-10.7931
此女	-10.7932
聞是事心不喜	-10.7936
堅持	-10.7939
為我作	-10.794
未起	-10.794
領受	-10.7941
未作	-10.7941
佛在舍衛	-10.7942
苑	-10.7944
其文	-10.7946
欲明	-10.7951
三性	-10.7952
不成就	-10.7957
執事人	-10.7961
四指	-10.7962
與諸	-10.7964
伎樂	-10.7967
聖眾	-10.7967
安樂住	-10.7968
後明	-10.797
告諸苾芻	-10.7971
大同	-10.7973
初地	-10.7973
餘一切	-10.7978
受佛戒	-10.798
酤酒	-10.798
戒德	-10.7983
若實	-10.7988
京	-10.7989
問其	-10.799
通別	-10.7994
順教	-10.7995
是名五	-10.7996
受戒時	-10.7998
開解	-10.7999
優陀夷	-10.8004
笈多	-10.8005
唯局	-10.8005
盧舍那	-10.8006
三身	-10.8007
偏露右肩	-10.8008
從生	-10.8008
說罪	-10.8009
策	-10.8013
上事	-10.8014
古來	-10.8015
當受	-10.8017
躡	-10.8021
偈曰	-10.8024
故經云	-10.8026
名色	-10.8026
欺誑	-10.8027
克	-10.8027
不死	-10.8027
環	-10.8029
當得	-10.8029
從初	-10.8034
知有	-10.8037
三十日	-10.8042
有幾	-10.8047
大德僧伽聽	-10.8048
突吉羅罪	-10.8049
所住	-10.8049
百二十	-10.8052
破和合僧	-10.8054
然則	-10.8056
佛出世	-10.8057
拳	-10.8059
稀	-10.8062
性空	-10.8062
行別住	-10.8062
「『	-10.8062
犍	-10.8063
信受	-10.8063
譬喻	-10.8063
八指	-10.8065
則能	-10.8068
輕物	-10.8068
若用	-10.807
梵行難	-10.807
過中	-10.8071
空處	-10.8072
惡性	-10.8074
圍遶	-10.8074
不學無知	-10.8076
本性	-10.8077
利根	-10.8079
文相	-10.808
嚴飾	-10.8083
叫	-10.8084
日得衣	-10.8088
所被	-10.8089
二比丘	-10.8091
我若	-10.8092
並同	-10.8096
眾苦	-10.8096
神變	-10.8099
教行	-10.8101
籍	-10.8102
不免	-10.8103
為成	-10.8103
壓	-10.8104
當須	-10.8112
不成受	-10.8112
化作	-10.8113
王位	-10.8115
比丘舉過	-10.8116
正信	-10.8117
勝妙	-10.8119
與某甲比丘	-10.8121
進修	-10.8124
本來	-10.8126
耆婆	-10.8131
初敘	-10.8132
起過	-10.8134
言之	-10.8135
人等	-10.8137
人來	-10.8143
將至	-10.8145
有十種	-10.8146
偶	-10.8147
中初科初	-10.815
解界	-10.8151
回向	-10.8152
不得著	-10.8155
隨情	-10.8156
多種	-10.8156
全無	-10.8163
在界內	-10.8166
焰	-10.8169
僧臥具	-10.8174
捨與僧	-10.8176
漏失	-10.8176
地了時	-10.8176
門外	-10.8177
二部僧	-10.8179
疲極	-10.818
反此	-10.8181
麁惡	-10.8183
人言	-10.8187
濟云	-10.8188
用也	-10.819
若從	-10.8191
以是事	-10.8193
不恭敬	-10.8194
彼文	-10.8195
不攝	-10.8195
別解脫	-10.8197
白衣舍	-10.8197
不能自	-10.8205
別解	-10.8207
損壞	-10.8207
合成	-10.821
炎	-10.8216
坐者	-10.8217
植	-10.8219
上有	-10.822
得突吉羅罪	-10.8221
巨	-10.8225
耻	-10.8226
府	-10.8231
疾疾	-10.8231
今且	-10.8237
傳云	-10.8238
上妙	-10.8239
涅槃云	-10.8239
應起	-10.824
中有二	-10.8245
教誡比丘尼	-10.8246
毘奈耶	-10.8246
生生	-10.8246
三四	-10.8247
應生	-10.8249
和上尼某甲	-10.8251
白諸比丘	-10.8253
從今日後	-10.8254
自念	-10.8255
今初	-10.8255
習學	-10.8256
二禪	-10.8256
殺母	-10.8257
具云	-10.8259
異熟	-10.8259
咽咽	-10.8259
跳	-10.8263
未受	-10.8264
即指	-10.8265
塚間	-10.8266
以顯	-10.8268
樹上	-10.8271
是戒	-10.8271
管	-10.8271
求出家	-10.8272
皆從	-10.8274
隨有	-10.828
制其學處	-10.8281
先解	-10.8283
得窣吐羅底也	-10.8293
作三衣	-10.8294
表白	-10.8296
能知	-10.8297
敬禮	-10.8301
問難	-10.8301
食後	-10.8303
筒	-10.8303
開示	-10.8303
滅罪	-10.8306
更得	-10.8312
自誓	-10.8312
即非	-10.8313
身相觸	-10.8314
證明	-10.8316
剪	-10.8322
俱得	-10.8322
耆闍崛山	-10.8328
在世	-10.8328
頸	-10.833
用此	-10.8334
荼	-10.8334
憶持	-10.8337
▁初標示	-10.8338
上聲	-10.8339
三問	-10.834
鞞	-10.8341
負債	-10.8343
之日	-10.8343
既知	-10.8344
贖	-10.8344
已後	-10.8345
禽獸	-10.8347
直五錢	-10.8348
是故說	-10.8351
噉食	-10.8354
欲往	-10.8355
然火	-10.836
十方諸佛	-10.836
故說	-10.8362
情過	-10.8365
大姊	-10.8369
六聚	-10.837
日數	-10.8371
慈愍	-10.8371
共諍	-10.8371
世尊制戒	-10.8376
比丘戒	-10.8379
應從	-10.8379
誰諸長老忍僧	-10.8381
鮮	-10.8382
瞻視	-10.8383
當自	-10.8384
暇	-10.8384
後至	-10.8385
嚩	-10.8388
相傳	-10.8388
諸臣	-10.8392
巖	-10.8393
得此	-10.8398
名相	-10.84
得阿羅漢	-10.8403
不乞	-10.8403
真俗	-10.8403
善解	-10.8405
異故	-10.8405
業疏云	-10.8408
新衣	-10.8412
別房	-10.8413
非比丘	-10.8414
為淨	-10.8416
死後	-10.8418
不和	-10.8419
作憶念	-10.842
何謂為	-10.8422
十二因緣	-10.8424
錫杖	-10.8431
小小	-10.8432
受功德衣	-10.8432
即取	-10.8433
滴	-10.8433
兩邊	-10.8435
唱相	-10.8438
四門	-10.8439
並須	-10.8439
磔手	-10.844
精勤	-10.8443
汝所	-10.8444
長者子	-10.8445
來求	-10.8446
師資	-10.8448
或名	-10.8448
不重	-10.845
沙門婆羅門	-10.8451
強力	-10.8452
非律	-10.8453
浣染打	-10.8454
疲	-10.8456
駕	-10.8462
初緣	-10.8464
為護	-10.8464
軸	-10.8467
搏	-10.8468
文略	-10.847
七佛	-10.8473
得安樂	-10.8474
通結	-10.8477
事也	-10.848
或自	-10.8481
始從	-10.8483
別列	-10.8487
九月	-10.8489
兩頭	-10.849
唯是	-10.8492
之儀	-10.8494
十事	-10.8495
枝葉	-10.8495
嫉妬	-10.8495
著革屣	-10.8499
罪業	-10.8502
熾盛	-10.8503
等四	-10.8505
身上	-10.8508
蹈	-10.8509
生時	-10.851
榮	-10.851
六念	-10.8512
鑒	-10.8514
起心	-10.8514
快樂	-10.8515
邪婬	-10.8516
親族	-10.8519
奪取	-10.852
國中	-10.852
此意	-10.8522
因制	-10.8523
便以	-10.8526
朱	-10.8528
彼有	-10.8532
綺語	-10.8532
今從	-10.8532
僧伽伐尸沙	-10.8535
謂從	-10.8536
三鉢	-10.8537
不悔	-10.8541
縱有	-10.8542
床座	-10.8544
不息	-10.8545
二緣	-10.8548
鳩	-10.8549
層	-10.8552
賴	-10.8552
俾	-10.8553
或在	-10.8553
有違	-10.8558
見比丘	-10.8558
滅後	-10.8558
若入	-10.8561
惡比丘	-10.8566
辛苦	-10.8566
應自	-10.8566
輪迴	-10.8568
此間	-10.857
具三	-10.857
戒為	-10.8573
若非	-10.8575
受我	-10.8578
得福	-10.8581
得利	-10.8582
變為	-10.8586
菴	-10.8586
五百人	-10.8587
禮佛足	-10.8588
炙	-10.8591
▁初正明	-10.8593
威力	-10.8593
王宮	-10.8595
成佛道	-10.8598
滋	-10.8602
聖諦	-10.8603
而今	-10.8604
四十二	-10.8605
罪處所	-10.8606
床褥	-10.8608
如法懺悔	-10.861
相承	-10.8611
時婆羅門	-10.8611
皆同	-10.8615
人皆	-10.8617
七月	-10.8617
答中初	-10.8621
淨飯王	-10.8622
蟲水	-10.8622
巳得	-10.8623
長夜	-10.8624
三有	-10.8626
體相	-10.8626
比丘不得	-10.8626
同於	-10.863
到彼	-10.8631
不作餘食法	-10.8633
奏	-10.8633
僕	-10.8633
反前	-10.8635
洪	-10.8636
研	-10.864
荒	-10.8642
捨懺	-10.8647
永斷	-10.8647
好者	-10.8648
▁二釋	-10.865
當先	-10.8654
我知	-10.8654
緣境	-10.8655
必無	-10.8662
諸餘	-10.8663
一子	-10.8664
不覆	-10.8664
頭面禮足在一面坐	-10.8666
麤惡	-10.8667
覔	-10.8667
以此事	-10.8669
所知	-10.867
醯	-10.867
如來所	-10.8672
露處	-10.8673
正解	-10.8673
柔	-10.8675
添	-10.8676
解義	-10.8677
一脚	-10.8677
中下	-10.8678
緣故	-10.8681
諸比丘不知云何	-10.8685
為勝	-10.8686
還本	-10.8692
金錢	-10.8697
得用	-10.8699
中後	-10.8702
力士	-10.8704
應白	-10.8704
釋之	-10.8705
布薩時	-10.8706
礪	-10.8709
隨逐	-10.8709
飢渴	-10.8715
同此	-10.8715
造房	-10.8716
易得	-10.8717
容有	-10.8719
他方	-10.8719
何能	-10.8722
即無	-10.8723
受人	-10.8726
刃	-10.8727
對眾	-10.8727
不周	-10.8729
以緣白佛	-10.8733
集會	-10.8735
涅槃經	-10.8737
先須	-10.8741
得清淨	-10.8742
生信	-10.8743
所宜	-10.8748
污家	-10.8748
廣釋	-10.875
一身	-10.8751
諸比丘以是因緣往白世尊	-10.8751
所由	-10.8752
淨信	-10.8752
令出	-10.8753
無色界	-10.8753
仗	-10.8755
悶	-10.8757
化眾生	-10.8758
牢	-10.8759
槌	-10.876
為己	-10.8763
完	-10.8764
第三十	-10.8765
斷除	-10.8765
雜事	-10.8766
事須	-10.8766
嘿	-10.8767
正業	-10.8767
流出	-10.877
作婬	-10.8771
二分	-10.8775
䨱	-10.8777
不好	-10.8779
緣成	-10.8783
諸白衣	-10.8784
雜心	-10.8788
自稱言	-10.8794
孔雀	-10.8795
二約	-10.8796
章中	-10.8798
為和尚	-10.8799
清涼	-10.8801
汝應	-10.8803
宰	-10.8807
六識	-10.8808
聞此	-10.881
結之	-10.881
所立	-10.8813
又二	-10.8819
何人	-10.8819
不妄語	-10.882
以事	-10.8821
知非	-10.8823
寶藏	-10.8828
正宗	-10.8831
水火	-10.8831
止惡	-10.8834
凡所	-10.8834
一住處	-10.8838
常有	-10.884
獲得	-10.884
娛樂	-10.8842
又此	-10.8844
雄	-10.8844
討	-10.8851
朗	-10.8854
隋	-10.8858
足者	-10.8858
粒	-10.8858
云何名比丘尼	-10.8861
報身	-10.8866
僧為	-10.8868
不由	-10.8871
蓮	-10.8873
羅云	-10.8882
羅閱城	-10.8883
無色	-10.8884
蟻	-10.8885
缽	-10.8886
唯願世尊	-10.8887
水洗	-10.8891
懃	-10.8892
宜可	-10.8893
為僧作	-10.89
釋也	-10.89
承事	-10.8901
之異	-10.8902
約事	-10.8902
有人云	-10.8902
解也	-10.8905
說悔	-10.8906
疑心	-10.891
理合	-10.8911
。『	-10.8912
極重	-10.8916
失戒	-10.8918
愛念	-10.8918
達摩	-10.8921
不病	-10.8924
故成	-10.8927
是犯	-10.893
涕唾	-10.893
杙	-10.893
集一處	-10.8931
茂	-10.8932
歸依僧	-10.8933
戒定慧	-10.8934
香花	-10.8934
允	-10.8935
映	-10.8937
具白世尊	-10.8937
縱廣	-10.8937
口說	-10.8938
自分	-10.8939
更互	-10.8944
緣也	-10.8946
水陸	-10.8947
略也	-10.895
二宿	-10.8951
離合	-10.8956
正文	-10.8956
今若	-10.8956
得畜	-10.8958
慰	-10.896
相應法	-10.8962
年歲	-10.8963
少年	-10.8963
如佛所教	-10.8964
若捉	-10.8965
跋難陀釋子	-10.8966
斷命	-10.8967
聰	-10.8968
不得入	-10.8972
挽	-10.8974
為主	-10.8978
得吉	-10.8979
阿難言	-10.8982
過受	-10.8982
今下	-10.8988
皆無	-10.8988
法服	-10.8993
即還	-10.9002
更有餘	-10.9008
乞食比丘	-10.9009
在一面坐	-10.9009
恐有	-10.901
忍可	-10.9016
故令	-10.9017
修證	-10.9017
莫令	-10.9019
薑	-10.902
熾然	-10.9021
今僧	-10.9022
誣	-10.9023
喻如	-10.9024
染污	-10.9026
廣略	-10.9026
善見律云	-10.9026
逕	-10.9027
月八日	-10.903
不破	-10.9031
之詞	-10.9031
得上人法	-10.9034
肩上	-10.9034
故使	-10.9036
在一處	-10.9046
下坐	-10.9046
除餘時	-10.9048
事訖	-10.905
四面	-10.905
亂心	-10.906
業者	-10.9061
。」【○	-10.9064
師教	-10.9065
庭	-10.9066
蹲	-10.9067
紛	-10.9069
徑	-10.907
下正明	-10.9071
無智	-10.9076
詩	-10.9077
座上	-10.9079
而死	-10.9079
▁初約	-10.9079
何等為	-10.9082
墻	-10.9082
動身	-10.9084
昔有	-10.9084
犯諍	-10.9085
鉢羅	-10.9086
八月	-10.9088
自然界	-10.909
二歲	-10.9093
思量	-10.9094
生於	-10.9095
鎖	-10.9098
過七日	-10.9098
生處	-10.9103
與出家	-10.9104
瘦	-10.9104
溢	-10.9104
挑	-10.9108
皆成	-10.9108
伽他	-10.9109
故此	-10.911
菩提樹下	-10.911
設有	-10.9112
七夜	-10.9112
須彌山	-10.9115
見罪	-10.9116
有斯	-10.9118
比丘在	-10.912
滅盡	-10.9125
依文	-10.913
我說	-10.9132
1	-10.9134
善巧	-10.9138
伎	-10.914
泥薩祇波逸底迦	-10.9141
若死	-10.9143
=	-10.9145
染污心	-10.9147
以佛	-10.9147
低	-10.9147
性戒	-10.9148
別明	-10.915
尖	-10.9152
提舍尼	-10.9157
淪	-10.9159
諸篇	-10.9159
非梵行	-10.9161
醫人	-10.9163
初舉	-10.9169
勝法	-10.9171
律教	-10.9172
稱量	-10.9173
損減	-10.9173
盧舍那佛	-10.9174
糧	-10.918
正教	-10.918
實有	-10.918
其過	-10.9181
一肘	-10.9182
爾時世尊在	-10.9182
若就	-10.9183
道人	-10.9183
之性	-10.9183
之身	-10.9184
鈔中	-10.9184
輕垢	-10.9189
五百問	-10.919
防護	-10.9192
尼寺	-10.9192
更求	-10.9194
為伴	-10.9194
不順	-10.9199
昭	-10.9199
浪	-10.9201
者是也	-10.9202
庫藏	-10.9202
示教利喜	-10.9206
令生	-10.9209
七歲	-10.921
性罪	-10.9214
麼	-10.9217
律論	-10.922
門徒	-10.9221
中央	-10.9224
滿者	-10.9225
狂癡	-10.9227
諂	-10.9234
防非	-10.9237
級	-10.9244
在家菩薩	-10.9245
求索	-10.9247
等是也	-10.9249
谷	-10.9251
。●	-10.9254
楊	-10.9255
所執	-10.9259
其母	-10.927
心懷	-10.9271
巳前	-10.9272
法體	-10.9272
天地	-10.9272
菩提樹	-10.9278
三果	-10.9281
無慚	-10.9283
尼僧	-10.9285
標相	-10.9286
皇	-10.9287
阿毗曇	-10.9289
古云	-10.929
此是我	-10.9291
震	-10.9292
緒	-10.9292
得好	-10.9297
十夜	-10.9301
而用	-10.9309
護戒	-10.9309
違理	-10.9315
皆言	-10.9317
阿那含	-10.9319
經營	-10.9319
初心	-10.9322
欲樂	-10.9323
不思	-10.9323
三分	-10.9324
辯才	-10.9325
問諸比丘	-10.9325
羯磨法	-10.9326
汝自	-10.9327
厄	-10.9331
廣長	-10.9335
處坐	-10.9335
八人	-10.9335
佛陀	-10.9336
佛知	-10.9337
不犯中	-10.9339
少許	-10.934
羯磨人	-10.9342
三十三天	-10.9342
百官	-10.9344
比丘犯	-10.9345
多人語	-10.9353
前來	-10.9356
天龍	-10.9367
一切突吉羅	-10.9368
虫水	-10.9369
分與	-10.9371
次解	-10.9372
億耳	-10.9376
相觸	-10.9383
成受	-10.9384
問所以	-10.9385
正食	-10.9385
監	-10.9386
達多	-10.9387
吳	-10.9388
如是事	-10.9393
方等	-10.94
半月半月	-10.9404
即失	-10.9408
所立戒	-10.9413
疑惑	-10.9414
稚	-10.9415
潛	-10.9424
得取	-10.9425
結者	-10.9429
者不犯	-10.943
低頭	-10.9431
南方	-10.9431
昌	-10.9433
黑白	-10.9437
詰問	-10.9438
疑悔	-10.9443
二衣	-10.9446
何異	-10.945
無差別	-10.9451
由心	-10.9452
利生	-10.9453
良以	-10.9454
翻譯	-10.946
住世	-10.946
犯捨	-10.9464
而未	-10.9466
今鈔	-10.9467
送食	-10.9469
白法	-10.9469
域	-10.947
開聽	-10.9474
塵沙	-10.9478
懺主	-10.9479
大小乘	-10.9482
大願	-10.9483
秦言	-10.9486
是初羯磨	-10.9487
舊住	-10.9489
)。○	-10.949
相接	-10.949
四諍	-10.9491
提婆達	-10.9492
六物	-10.9495
殺父	-10.9497
得墮罪	-10.9498
天雨	-10.9499
不安	-10.95
二不定	-10.9502
拍	-10.9508
請佛及僧	-10.9511
念處	-10.9511
四藥	-10.9516
名聞	-10.9516
淨潔	-10.9518
止息	-10.9518
隱沒	-10.9525
約心	-10.9526
往看	-10.953
大目連	-10.9535
便去	-10.954
若如是者	-10.9543
出血	-10.9544
汝實	-10.9544
具有	-10.9547
故立	-10.9547
亦隨	-10.9552
三十九	-10.9552
事同	-10.9557
空地	-10.9557
緣事	-10.9561
二犯	-10.9561
論議	-10.9562
此篇	-10.9563
如非	-10.9568
出體	-10.9571
希望	-10.9571
為先	-10.9572
總示	-10.9573
饑	-10.9573
同見	-10.9573
時至	-10.9574
一面	-10.9577
波夜提者	-10.958
經行處	-10.9585
佛寶	-10.9596
漬	-10.9598
捨與	-10.9599
師所	-10.9604
九者	-10.9606
准律	-10.9607
者得越法罪	-10.9607
奪衣	-10.9608
他比丘	-10.9608
駈	-10.961
為受	-10.961
大集	-10.9611
於戒	-10.9619
聖果	-10.962
波離	-10.962
初發心	-10.9624
授具足戒	-10.9624
捨法	-10.963
四中	-10.9631
所發	-10.9631
三寶物	-10.9632
破見	-10.9632
身子	-10.9632
手印	-10.9632
內凡	-10.9633
行覆藏	-10.9633
三義	-10.9635
白巳	-10.9636
止觀	-10.9637
其婦	-10.9637
小食	-10.9638
受時	-10.964
七聚	-10.964
父母兄弟	-10.964
同心	-10.9644
淨穢	-10.9645
不愛	-10.9647
淳	-10.9652
不得過	-10.9656
後得	-10.9656
墮三惡道	-10.9656
苦海	-10.9658
我家	-10.9661
常法	-10.9662
通明	-10.9663
三惡道	-10.9666
不應為	-10.9667
略無	-10.9669
明也	-10.9677
畜長衣	-10.9683
四天下	-10.9684
人之	-10.9684
犯長	-10.9684
姉	-10.9684
譯為	-10.9686
律儀戒	-10.9688
下出	-10.9689
種種因緣呵責	-10.9692
作何	-10.9692
大界內	-10.9695
姑	-10.9696
即下	-10.9697
煙	-10.97
佛語諸比丘	-10.97
在彼	-10.9701
軀	-10.9701
欲與	-10.9702
選	-10.9703
韋	-10.9706
有住處	-10.9707
康	-10.9707
病苦	-10.9711
最為	-10.9713
中之	-10.9714
發生	-10.9714
起立	-10.9715
有為	-10.9716
夜分	-10.9717
酥油	-10.9717
賈客	-10.9719
別者	-10.9724
化教	-10.9727
此十	-10.9728
四生	-10.9729
文可知	-10.973
稱之	-10.973
人眾	-10.9733
十法	-10.9734
世世	-10.9735
掉	-10.9736
沙門瞿曇	-10.9736
與諸比丘	-10.9737
處也	-10.9737
請問	-10.9738
無此	-10.9739
俱無	-10.9741
虎狼	-10.9743
次問	-10.9743
倒地	-10.9744
流轉	-10.9744
白已	-10.9744
觀心	-10.9745
第十一	-10.9745
搆	-10.9745
即同	-10.9746
一切有情	-10.9746
三禪	-10.9746
不失衣	-10.9749
搩手	-10.975
佛因	-10.9751
勝義	-10.9757
後一	-10.9758
受此	-10.9759
不同者	-10.9759
富羅	-10.976
謂能	-10.9761
物主	-10.9764
答此	-10.9765
在上	-10.9767
理觀	-10.9768
往白佛	-10.9768
華果	-10.9768
諸國	-10.9769
二十人	-10.977
破威儀	-10.977
房內	-10.977
乞衣	-10.9771
能教	-10.9774
頂上	-10.9776
學悔	-10.9777
位中	-10.9777
三十五	-10.9778
理實	-10.9778
兩手	-10.9779
得波夜提	-10.978
大意	-10.9784
牽出	-10.9787
伊	-10.9787
所施	-10.9788
即能	-10.9789
以心	-10.9791
共成	-10.9792
饒	-10.9793
忉利天	-10.9794
壯	-10.9794
賀	-10.9796
汝何	-10.9797
一體	-10.9798
觸惱	-10.9799
不受持	-10.9801
不殊	-10.9801
模	-10.9802
若一人	-10.9804
當云何	-10.9805
縣	-10.9806
一往	-10.9806
於世	-10.9808
五六	-10.9808
說伽他曰	-10.9814
若不知	-10.9814
何由	-10.9816
摩竭	-10.982
生草	-10.9821
為惡	-10.9822
色相	-10.9824
應滅擯	-10.9825
二百五十	-10.9825
都不	-10.9825
事起	-10.9826
大乘同學	-10.9827
不看	-10.9827
涼	-10.983
能持否	-10.9832
有五百	-10.9834
反抄衣	-10.9837
方為	-10.9839
是別	-10.9839
沙彌戒	-10.9841
決斷	-10.9844
削	-10.9845
而後	-10.9847
過也	-10.985
鬬諍	-10.9853
貸	-10.9855
何等五	-10.9856
白色	-10.9858
相望	-10.9861
所教	-10.9861
准上	-10.9862
不應為說法	-10.9865
不見罪	-10.9865
一切諸法	-10.9866
未足	-10.9867
不除	-10.9871
簡異	-10.9872
清淨者	-10.9873
阿浮呵那	-10.9873
難可	-10.9877
色聲	-10.9878
便起	-10.9881
不名為	-10.9882
於僧	-10.9883
後三	-10.9884
是實	-10.9885
旃陀羅	-10.9886
若捨	-10.9888
循	-10.9889
義者	-10.9892
入手	-10.9893
對事	-10.9896
我自	-10.9898
作事	-10.9899
戒羸	-10.99
犯盜	-10.9901
請師	-10.9904
異者	-10.9907
捨迦絺那衣	-10.9912
邊方	-10.9912
同界	-10.9913
圓具	-10.9915
心悔	-10.9916
而復	-10.9916
本制	-10.992
舉手	-10.9921
牛羊	-10.9922
共坐	-10.9925
尼師檀	-10.9927
不應分	-10.9929
執持	-10.993
五夏	-10.993
位也	-10.9931
共食	-10.9931
我今當	-10.9931
兩重	-10.9933
合作	-10.9935
絡	-10.9937
繫念	-10.9938
來往	-10.9939
好相	-10.994
我今欲	-10.9941
七眾同犯	-10.9942
惡言	-10.9944
具壽阿難陀	-10.9947
欲取	-10.9948
山中	-10.9948
不足數	-10.995
下三眾	-10.9951
與上	-10.9951
長老比丘	-10.9951
女根	-10.9956
句義	-10.9957
雖然	-10.9959
但取	-10.9967
提舍	-10.9969
能發	-10.9974
四行	-10.9975
如是如是	-10.9976
年少比丘	-10.9979
阿梨耶	-10.998
為諸比丘	-10.998
廣解	-10.9981
摩那	-10.9981
懺悔者	-10.9981
三心	-10.9983
儻	-10.9984
衣竟	-10.9986
取他	-10.9987
賓云	-10.9988
定心	-10.9989
利物	-10.9991
各異	-10.9994
同戒	-10.9995
離諸	-10.9996
聞巳	-10.9997
若他	-11.0003
之地	-11.0005
不勞	-11.0009
作戒	-11.001
證得	-11.0011
起去	-11.0012
所聞	-11.0012
軌則	-11.0012
乃至三諫	-11.0014
僧伽胝	-11.0015
六人	-11.0015
二三人	-11.0015
勸化	-11.0016
一字	-11.0019
妨難	-11.0019
設食	-11.002
架	-11.0022
捐	-11.0022
具如	-11.0023
身相	-11.0023
當取	-11.0024
迦提	-11.0024
持來	-11.0025
雖多	-11.0025
眼見	-11.0027
食噉	-11.0031
三摩地	-11.0031
行善	-11.0031
愚人	-11.0031
愛道	-11.0034
未具	-11.0035
錫	-11.0036
章云	-11.0037
體也	-11.0037
多生	-11.0038
巷	-11.004
犯夷	-11.0041
破僧事	-11.0042
通收	-11.0042
領納	-11.0044
四十八	-11.0046
那羅	-11.0047
資具	-11.0047
方犯	-11.0047
隨覆藏	-11.0048
同僧	-11.0051
中文二	-11.0051
話	-11.0054
城門	-11.0054
熱時	-11.0058
苦報	-11.0058
相去	-11.0059
頂禮佛足	-11.0062
起塔	-11.0065
隨力	-11.0067
得越比尼罪	-11.0068
敬信	-11.0069
鵝	-11.0071
之甚	-11.0072
摩訶羅	-11.0072
朽	-11.0075
得見	-11.0075
善人	-11.0076
寮	-11.0076
次下	-11.0079
應學	-11.0079
憍薩羅國	-11.0079
大賊	-11.008
哭	-11.008
巳說	-11.008
舞	-11.008
祿	-11.0081
圓教	-11.0082
互跪	-11.0082
踏	-11.0082
自往	-11.0091
陀那	-11.0093
之前	-11.0095
內無	-11.0098
亦能	-11.0108
舍羅	-11.0109
欽	-11.011
出門	-11.011
謂佛	-11.0111
涅槃經云	-11.0113
捨罪	-11.0114
即今	-11.0116
成熟	-11.0116
以事白佛	-11.0126
作成	-11.0126
證知	-11.0127
堅牢	-11.0129
其名	-11.013
百劫	-11.0131
惰	-11.0132
舉他	-11.0132
長跪	-11.0133
嗅	-11.0134
蔭	-11.0135
顯示	-11.0136
讓	-11.0139
唯佛	-11.0139
川	-11.0141
千年	-11.0148
設供	-11.0148
戒文	-11.0148
九日	-11.015
若不捨者	-11.0152
出罪羯磨	-11.0154
洗淨	-11.0155
二邊	-11.0155
不受諫	-11.0157
度眾生	-11.0159
重戒	-11.016
不飲酒	-11.016
別立	-11.0163
如我	-11.0165
未出	-11.0166
破安居	-11.0169
下舉	-11.0171
算	-11.0173
千百億釋迦	-11.0173
嚼楊枝	-11.0175
嗣	-11.0176
今世	-11.0179
枉	-11.0179
額	-11.0179
等緣	-11.018
請者	-11.0183
犯輕垢	-11.0183
厭離	-11.0183
▁初列	-11.0185
業力	-11.0188
孰	-11.0188
遮罪	-11.0194
非但	-11.0195
賢善	-11.0197
出息	-11.0202
釋迦牟尼	-11.0202
先以	-11.0204
上卷	-11.0205
偷蘭罪	-11.0207
還歸	-11.0208
猶有	-11.0209
並無	-11.021
時諸苾芻以緣白佛	-11.0213
栴檀	-11.0216
在道	-11.0216
三十二相	-11.0217
凡是	-11.0221
幡	-11.0222
空慧	-11.0223
至也者	-11.0224
住於	-11.0226
法竟	-11.0228
指廣	-11.0228
襵	-11.0232
。」』	-11.0232
咸皆	-11.0232
說文云	-11.0234
熱鐵	-11.0236
若不問	-11.0237
轉根	-11.0238
彌陀	-11.0238
虵	-11.0238
阿蘭若處	-11.0241
在界外	-11.0243
陶	-11.0243
後悔	-11.0246
初日	-11.0254
伽陀	-11.0257
先與	-11.0258
為善	-11.0258
竺	-11.0258
眾行	-11.0265
不與欲	-11.0265
阿姨	-11.0268
之果	-11.0268
往詣佛所	-11.0269
緣起處	-11.027
滅法	-11.0271
敷臥具	-11.0274
不與人	-11.0275
佛菩薩	-11.0277
時有一	-11.0279
之上	-11.028
飽滿	-11.0287
直爾	-11.0289
第十三	-11.029
吐羅難陀	-11.0292
髻	-11.0294
態	-11.0294
法衣	-11.0295
善說	-11.0295
制止	-11.0299
生長	-11.03
觀此	-11.0306
西土	-11.0306
治罸	-11.0308
三十七	-11.0309
取之	-11.0309
誦者	-11.031
十信	-11.0312
後四	-11.0315
三節	-11.0315
阿毘曇	-11.0315
持衣鉢	-11.0318
富貴	-11.0319
禿	-11.032
病壞心	-11.032
無問	-11.032
上法	-11.0322
得聞	-11.0323
蜂	-11.0331
若菩薩	-11.0331
臭穢	-11.0332
汗	-11.0332
法謗	-11.034
今文	-11.0341
客比丘來	-11.0343
八部	-11.0344
鬱多羅僧	-11.0346
一錢	-11.0346
果也	-11.0348
正示	-11.0357
歌舞	-11.0364
此門	-11.0365
異界	-11.0366
故文云	-11.0366
食巳	-11.0367
則通	-11.0369
助成	-11.0371
所化	-11.0371
村外	-11.0372
得不	-11.0373
入水	-11.0373
汝諸苾芻	-11.0374
屑	-11.0374
准知	-11.0375
三十一	-11.0377
燥	-11.0379
欲去	-11.0379
在心	-11.038
大千	-11.0381
數也	-11.0382
作之	-11.0383
匿	-11.0383
人語	-11.0386
中有三	-11.0387
宏	-11.0387
析	-11.0388
在空	-11.039
難知	-11.0391
我慢	-11.0392
且止	-11.0392
事非	-11.0392
▁二四下	-11.0393
不得畜	-11.0394
一苾芻	-11.04
可悔	-11.0403
用心	-11.0408
莫作是語	-11.0411
優波難陀	-11.0413
謗三寶	-11.0416
▁二問	-11.0422
劇	-11.0428
雖未	-11.0429
願我	-11.043
徐徐	-11.043
鎮	-11.0431
併	-11.0431
匙	-11.0433
但令	-11.0434
逾	-11.0434
且舉	-11.0436
浮囊	-11.0436
漸次	-11.0438
能防	-11.0443
方軌	-11.0444
如似	-11.0447
本主	-11.0447
法王	-11.0448
犯人	-11.0455
若坐	-11.0456
之徒	-11.0459
逝	-11.0462
華鬘	-11.0463
有輕重	-11.0466
善比丘	-11.0466
得度	-11.0467
有別	-11.0468
故重	-11.0469
迦攝	-11.0469
大智	-11.0475
便於	-11.0475
劫貝	-11.0476
是心	-11.0477
霑	-11.0478
犯境	-11.0479
無復	-11.048
慳貪	-11.0482
倣	-11.0483
」「	-11.0484
結勸	-11.0485
惠施	-11.0486
外國	-11.0488
欠	-11.0491
貪愛	-11.0493
聞者	-11.0496
餘文	-11.0496
去來	-11.0497
入城乞食	-11.0502
國人	-11.0503
靈山	-11.0503
離宿	-11.0507
慢心	-11.0507
所問	-11.0508
教相	-11.0508
比丘尼波逸提	-11.051
早起	-11.0512
還衣	-11.0514
出家之人	-11.0514
爾者	-11.0514
罪重	-11.0515
前云	-11.0515
布薩日	-11.0518
餘戒	-11.052
忽然	-11.0521
非釋種女	-11.0522
無失	-11.0522
鄉	-11.0526
未可	-11.0526
楞嚴	-11.0529
沸	-11.0529
餘方	-11.053
聖凡	-11.053
朋	-11.0531
自念言	-11.0532
訪	-11.0532
資持	-11.0532
日沒	-11.0533
在道行	-11.0533
銅鐵	-11.0533
澡豆	-11.0536
泛	-11.0536
聚落界	-11.054
鷄	-11.0541
踐	-11.0541
波羅市迦	-11.0542
總是	-11.0542
假使	-11.0543
▁二今下	-11.0546
若不悔過	-11.0546
受戒法	-11.055
教師	-11.0553
根性	-11.0554
生種	-11.0558
斷惑	-11.0559
新者	-11.056
即有	-11.056
已便	-11.0561
得失	-11.0566
未生	-11.0567
俱非	-11.057
起緣人	-11.057
罵詈	-11.0574
螺	-11.0575
為樂	-11.0575
棺	-11.0578
明白	-11.058
癰	-11.058
偷蘭難陀比丘尼	-11.0582
世中	-11.0582
舟	-11.0584
施衣時	-11.0585
洛	-11.0586
十年	-11.0587
五歲	-11.0587
麗	-11.059
十一日	-11.059
阿練若處	-11.0591
若準	-11.0591
斯事	-11.0592
妄想	-11.0592
通示	-11.0593
須依	-11.0593
欲來	-11.0593
妄言	-11.0594
依正	-11.0599
眾集	-11.0603
之辭	-11.0607
與女	-11.0608
禮僧足	-11.0608
除罪	-11.0612
正制	-11.0616
羯磨文	-11.0617
有四句	-11.0617
義理	-11.0617
別示	-11.0617
筋	-11.0622
開制	-11.0623
六入	-11.0623
誰當	-11.0625
心念口言	-11.0627
塹	-11.0627
黎	-11.0629
胡麻	-11.0629
曜	-11.063
不憶數	-11.0631
顛狂	-11.0631
得波羅市迦	-11.0635
知我	-11.0635
到已	-11.0635
不被	-11.0636
紅	-11.0637
不得以	-11.0637
象王	-11.0641
在外	-11.0643
隨彼	-11.0644
寬狹	-11.0644
有一長者	-11.0645
不禮	-11.0647
本文	-11.0649
詣佛所	-11.0649
時尊者	-11.065
同一住處	-11.0651
不墮	-11.0652
之德	-11.0658
斷絕	-11.0658
覆瘡衣	-11.0668
皆不犯	-11.067
向人說	-11.0672
自今巳去	-11.0674
佛以種種因緣呵責	-11.0677
啼哭	-11.0678
約人	-11.0678
罪人	-11.0679
生厭離	-11.068
嗟	-11.0683
示相	-11.0683
文四	-11.0683
緣生	-11.0684
逮	-11.0684
佛世	-11.0686
一切時	-11.0687
謂上	-11.0688
其本	-11.0689
往到	-11.0689
致敬	-11.0693
遂即	-11.0693
食家	-11.0694
三十四	-11.0694
耶答	-11.0695
王家	-11.0697
邊罪	-11.0698
謂非	-11.0699
懺謝	-11.0703
舉事	-11.0706
應如是作	-11.071
受得	-11.071
七百	-11.0711
好食	-11.0713
樹皮	-11.0717
未來世	-11.0719
入房	-11.072
欝	-11.072
相隨	-11.0721
俗諦	-11.0723
千里	-11.0724
▁初標章	-11.0725
化生	-11.0726
後心	-11.0726
治病	-11.0727
以物	-11.0732
覓諍	-11.0736
自求	-11.0737
聞聲	-11.0739
業故	-11.0739
濾	-11.0739
項	-11.074
格	-11.0741
實是	-11.0743
請比丘	-11.0744
小眾	-11.0744
大乘經律	-11.0745
染汙	-11.0746
持欲	-11.0746
漸頓	-11.075
亦為	-11.0752
為業	-11.0759
生地	-11.076
軟語	-11.0761
經典	-11.0761
別也	-11.0765
後學	-11.0765
充滿	-11.0766
勿使	-11.0772
第三亦如是說	-11.0773
染淨	-11.0773
不具足	-11.0774
花果	-11.0775
同室宿	-11.0778
池水	-11.0778
開緣不犯者	-11.078
便與	-11.0781
雇	-11.0781
敵	-11.0781
塵垢	-11.0781
嬰	-11.0783
持戒者	-11.0784
指前	-11.0785
耀	-11.0786
跛	-11.0787
瑟	-11.0789
淨主	-11.0792
趨	-11.0792
中初敘	-11.0796
下引證	-11.0798
乞縷	-11.0798
圓融	-11.0798
手中	-11.0799
須彌	-11.08
不受食	-11.0801
遇緣	-11.0802
不相應	-11.0812
昔解	-11.0816
癩	-11.0821
咄	-11.0822
告諸	-11.0823
蓬	-11.0825
枝條	-11.0825
之子	-11.0825
實非	-11.0827
瀉	-11.0828
盡突吉羅	-11.0828
已得	-11.0829
末世	-11.0833
輦	-11.0834
分也	-11.0835
遺教	-11.0835
云何得	-11.084
夕	-11.084
之士	-11.084
抖擻	-11.0841
劉	-11.0842
沓婆	-11.0844
別緣具	-11.0844
矛	-11.0845
振鈴	-11.0848
口法	-11.0849
好衣	-11.0851
彼國	-11.0852
不盜	-11.0853
初標人	-11.0854
猶未	-11.0855
如是展轉	-11.0856
晝日	-11.0856
若有比丘	-11.0858
多分	-11.0858
財法	-11.0859
大尼	-11.086
無殘	-11.0862
掃地	-11.0863
既言	-11.0866
出要	-11.0869
依本	-11.0871
要心	-11.0873
欝多羅僧	-11.0875
人情	-11.0876
覺悟	-11.0877
居士家	-11.0881
可分	-11.0886
供佛	-11.0886
何別	-11.089
廣教	-11.0891
裝	-11.0893
職	-11.0893
已作	-11.0894
總有	-11.0897
聞知	-11.0901
等覺	-11.0905
洞	-11.0906
以非	-11.0907
時非時	-11.0907
驚怖	-11.0907
乃得	-11.091
乞法	-11.0912
形相	-11.0912
我等當	-11.0913
之戒	-11.0914
總明	-11.0914
別緣	-11.0914
某甲比丘尼	-11.0915
證果	-11.0919
犯蘭	-11.092
必定	-11.0928
祠	-11.0929
正遍知	-11.093
之力	-11.0933
第十二	-11.0933
予	-11.094
厥	-11.0942
擘	-11.0945
千百億	-11.0947
僧用	-11.0947
設諫	-11.0948
對此	-11.0948
若望	-11.0949
應問言	-11.095
聲聞弟子	-11.0952
不念	-11.096
論說	-11.0961
品云	-11.0961
不殺生	-11.0964
常應	-11.0965
什	-11.0966
之別	-11.0967
我無	-11.0969
是處	-11.0971
不簡	-11.0973
治罪	-11.0975
行路	-11.0976
遠去	-11.0977
實力子	-11.098
卷中	-11.0981
莎訶	-11.0984
無淨人	-11.0985
鉢食	-11.0987
十夏	-11.0988
清旦	-11.0989
等類	-11.099
福慧	-11.099
僧別	-11.0991
尼來	-11.0992
然於	-11.0993
叛	-11.0993
制此戒	-11.0997
中有一	-11.0998
僧伽藍中	-11.0998
尊敬	-11.0999
若不捨	-11.1
下賤	-11.1
若王	-11.1
銷	-11.1
若上座	-11.1001
二人共	-11.1005
鞋	-11.1006
長貪	-11.1007
李	-11.1008
卜	-11.1008
認	-11.1008
深信	-11.1008
先來	-11.1011
諸家	-11.1011
致使	-11.1013
理宜	-11.1014
苦果	-11.1014
度生	-11.1015
常在	-11.1018
休道	-11.102
腋	-11.1021
三觀	-11.1021
向上	-11.1023
空觀	-11.1024
列緣	-11.1025
臨終	-11.1032
毘舍佉	-11.1032
不遮	-11.1033
波逸提罪	-11.1036
識者	-11.1036
即時	-11.1037
供養佛	-11.1038
大姉	-11.1039
諸律	-11.104
割截衣	-11.1043
月一日	-11.1045
重閣	-11.1046
胡跪	-11.1049
呈	-11.1049
謂有	-11.1054
盜取	-11.1055
禱	-11.1055
為重	-11.106
如法僧事	-11.106
盜賊	-11.1061
使他	-11.1062
可取	-11.1063
法爾	-11.1064
舉過	-11.1066
持物	-11.107
隨犯	-11.1072
摩尼	-11.1079
眾多人	-11.108
教興	-11.108
不囑	-11.108
瞿曇	-11.1084
無記心	-11.1084
臨時	-11.1086
說法者	-11.1087
得何罪	-11.1091
詣彼	-11.1095
應著	-11.1098
善事	-11.11
今但	-11.1101
皆當	-11.1106
坌	-11.1106
我得	-11.1107
袋	-11.1108
母論云	-11.1109
逈	-11.111
從僧乞六夜摩那埵	-11.1111
葬	-11.1115
入家內	-11.1118
雖同	-11.1121
匡	-11.1121
身口業	-11.1121
是色	-11.1124
諸長者	-11.1125
序云	-11.1125
正說	-11.1126
欽婆羅	-11.1127
相狀	-11.1128
教門	-11.113
盡形藥	-11.1132
是外道	-11.1138
餘殘	-11.1138
比丘尼某甲	-11.1141
拘睒彌	-11.1143
奉施	-11.1143
正觀	-11.1144
語我	-11.1144
之聲	-11.1147
能解	-11.1147
還本處	-11.1148
陸	-11.1149
舍內	-11.115
嶮	-11.1151
大論云	-11.1152
鸚鵡	-11.1152
佐	-11.1153
擾	-11.1153
出佛身血	-11.1154
說戒日	-11.1154
其實	-11.1157
明文	-11.1158
後還	-11.1162
諸物	-11.1166
葱	-11.1166
海中	-11.1167
過此	-11.1168
大藥	-11.1173
器物	-11.1175
永無	-11.1176
被賊	-11.1177
牒名	-11.1179
作是語已	-11.118
樓閣	-11.118
其子	-11.118
四念處	-11.1181
從何	-11.1182
畜長	-11.1183
嗔恚	-11.1187
羅怙羅	-11.1188
毀他	-11.1188
入巳	-11.1189
文列	-11.1194
準下	-11.1195
兩種	-11.1198
復有五事	-11.1199
時有苾芻	-11.1203
重重	-11.1204
脊	-11.1206
能障礙道	-11.1207
有賊	-11.1207
大慈悲	-11.1208
弑	-11.1209
名體	-11.121
闡提	-11.1211
一犯人	-11.1213
號曰	-11.1213
處住	-11.1214
明矣	-11.1216
蚊	-11.1217
吉凶	-11.1221
帳	-11.1221
義竟	-11.1222
鈎	-11.1223
何緣	-11.1224
何罪	-11.1226
白衣舍坐	-11.1226
皆令	-11.1227
便為	-11.1229
王問	-11.123
資生	-11.123
結戒場	-11.123
不但	-11.123
▁二問答	-11.1233
輕罪	-11.1233
命斷	-11.1234
應去	-11.1236
水瓶	-11.1237
無貪	-11.1238
如是種種	-11.1239
未了	-11.1239
此苾芻	-11.1239
諸大	-11.1246
教意	-11.1251
覺觀	-11.1252
地者	-11.1252
鄔波離	-11.1252
百四十	-11.1252
犯此僧伽婆尸沙罪	-11.1253
勸持	-11.1254
鬱	-11.1258
般若波羅蜜	-11.1259
賣買	-11.1259
作殘食	-11.126
箱	-11.1266
翹	-11.1266
別離	-11.1267
荷	-11.1267
見而	-11.1267
耽	-11.1268
填	-11.1268
忘失	-11.1268
曠	-11.1269
出城	-11.1269
苦諦	-11.127
瑠璃	-11.1273
彼比丘應	-11.1275
不犯耶	-11.1275
淨厨	-11.1275
釋迦牟尼佛	-11.1279
甄	-11.1281
觀其	-11.129
往問	-11.1301
擯出	-11.1301
懺悔主	-11.1302
告諸苾芻曰	-11.1303
欲入	-11.1305
隨境	-11.1306
此中犯相其事	-11.1307
利鈍	-11.1309
妨處	-11.1313
論其	-11.1313
人邊	-11.1317
妃	-11.1317
吉也	-11.1318
修福	-11.1321
勘	-11.1323
冐	-11.1326
殯	-11.1326
所歸	-11.1328
自言治	-11.1329
賢愚	-11.1331
正因	-11.1332
佛地	-11.1333
忠	-11.1336
來意	-11.1337
亡人	-11.1341
育	-11.1345
必是	-11.1346
賢者	-11.1347
隨愛	-11.1347
流布	-11.1349
自恃	-11.1353
十萬	-11.1354
道業	-11.1355
性相	-11.1358
下卷	-11.136
令使	-11.1362
地菩薩	-11.1363
隙	-11.137
兩足	-11.1372
四百	-11.1374
獨行	-11.1375
祥	-11.1377
十二部經	-11.1377
不畏	-11.1378
對首心念	-11.1379
第四禪	-11.1381
齒木	-11.1383
此國	-11.1385
當用	-11.1389
喫	-11.139
展轉相	-11.139
得勝	-11.1392
被擯	-11.1392
趣向	-11.1394
故違	-11.1398
之衣	-11.1402
未聞	-11.1403
還得	-11.1404
若女人	-11.1404
中初句	-11.1408
世法	-11.1411
一罪不覆藏	-11.1417
乳酪	-11.1417
皆云	-11.1418
於外	-11.1419
族姓	-11.1421
復有三	-11.1423
闡陀比丘	-11.1423
是菩薩波羅夷罪	-11.1424
正等覺	-11.1426
兩緣	-11.1427
釘	-11.1427
莊飾	-11.1428
牟尼	-11.143
皆非	-11.1431
行願	-11.1431
制底	-11.1433
無定	-11.1436
冤	-11.1437
四相	-11.1438
庸	-11.1439
艸	-11.1439
顯非	-11.144
□□□□□□□□□□□	-11.1442
爽	-11.1442
十方佛	-11.1448
若使	-11.145
亡者	-11.1451
文證	-11.1454
伏藏	-11.1457
雖殊	-11.1458
堂中	-11.1458
向佛	-11.1458
捨此事故	-11.146
若我	-11.1463
實答	-11.1465
為性	-11.1467
開通	-11.147
僧聽	-11.1471
十句	-11.1472
不說淨	-11.1473
五塵	-11.1474
賊心	-11.1476
便止	-11.1482
威神	-11.1484
捧	-11.1485
斂	-11.1487
以彰	-11.1489
醋	-11.1489
空空	-11.149
非法羯磨	-11.1491
正命	-11.1492
習近住	-11.1492
如法如律	-11.1492
隨宜	-11.1493
激	-11.1493
論義	-11.1498
紀	-11.1498
更須	-11.15
二百	-11.1501
舍衛	-11.1502
與五百	-11.1504
為定	-11.1504
不觸	-11.1507
積聚	-11.1509
凡欲	-11.151
以表	-11.1512
得惡作	-11.1514
入僧中	-11.1517
我能	-11.1517
時阿難陀	-11.1522
王大臣	-11.1523
純黑	-11.1525
立誓	-11.1529
識知	-11.153
得證	-11.153
觀法	-11.1532
分四	-11.1534
若疑	-11.1534
少多	-11.1536
多諸	-11.154
舒手	-11.154
趺	-11.1542
自煑	-11.1543
乞戒	-11.1543
非法別眾	-11.1545
狼	-11.1545
無蟲	-11.1546
幾許	-11.1548
頑	-11.1549
焚燒	-11.1551
義須	-11.1551
盖	-11.1555
阿羅漢果	-11.1555
當與汝	-11.1556
十卷	-11.1557
覈	-11.1558
得自在	-11.1559
如佛教	-11.1559
迴與	-11.1568
五分法身	-11.1569
前說	-11.1571
十二月	-11.1572
近事	-11.1574
門人	-11.1574
檀越家	-11.1577
愁	-11.1578
正定	-11.158
若問	-11.158
捨身	-11.158
約法	-11.1586
皆不得	-11.1586
▁二初下隨釋	-11.1586
往觀	-11.1586
及與	-11.1588
所欲	-11.1589
第四十	-11.1591
七法	-11.1591
若作淨	-11.1592
可依	-11.1592
亦皆	-11.1594
諳	-11.16
他家	-11.1602
現世	-11.1605
善修	-11.1606
比丘義如上	-11.1607
中分二	-11.1608
第二門	-11.1609
有一住處	-11.1609
所以然者	-11.1611
䭾	-11.1613
長鉢	-11.1615
犯此戒	-11.1615
之極	-11.1615
爾時諸比丘尼	-11.1619
又二初	-11.1624
上至	-11.1625
登壇	-11.1625
四日	-11.1629
宮中	-11.1629
道士	-11.1635
諸居士見	-11.1635
及最初未制戒等	-11.1643
不達	-11.1649
與其	-11.1649
娑婆	-11.1652
坐已	-11.1653
居士譏嫌	-11.1653
四威儀	-11.1654
辰	-11.1655
甎	-11.1659
若向	-11.1659
即知	-11.166
十七群比丘	-11.166
鬪亂	-11.166
而臥	-11.166
能秉	-11.1661
踰	-11.1662
滌	-11.1663
▁二有下	-11.1666
今約	-11.1666
若無人	-11.1668
外人	-11.1669
和尚阿闍梨	-11.1671
可畏	-11.1672
優婆	-11.1672
牧牛	-11.1673
法師想	-11.1673
秤	-11.1675
堪忍	-11.1675
異相	-11.1675
隨後	-11.1676
錦	-11.1677
十行	-11.1681
專精	-11.1682
白羯磨	-11.1689
若優婆塞	-11.169
無差	-11.169
木石	-11.1692
問汝	-11.1696
婆羅門居士	-11.1697
舅	-11.1699
又可	-11.17
宮殿	-11.1705
餘食	-11.1705
弓箭	-11.1707
魔王	-11.1707
氣力	-11.171
聽汝	-11.1711
授人具足戒	-11.1712
對前	-11.1713
雨時	-11.1714
於我法中	-11.1714
佛以是事集二部僧	-11.1714
自恣請	-11.1717
乞得	-11.1718
迦旃延	-11.1718
俱犯	-11.172
其父	-11.172
戴	-11.1721
事相	-11.1721
酤	-11.1722
讀經	-11.1722
為證	-11.1723
複	-11.1724
獨住	-11.1725
無欲	-11.1725
不可說	-11.1727
並有	-11.1728
餘緣	-11.1732
瞻病	-11.1732
二月	-11.1733
滅諦	-11.1736
別緣有	-11.1739
受八戒	-11.1745
俗服	-11.1746
善神	-11.1747
倒說	-11.175
然彼	-11.175
比丘答言	-11.1751
以戒為	-11.1752
覆者	-11.1756
作種種	-11.1758
足下	-11.1759
阿遮利耶	-11.176
無所知	-11.176
村中	-11.1761
犯不可悔	-11.1761
餘時者	-11.1763
〕-【	-11.1764
貞	-11.1765
是中有	-11.1766
工巧	-11.1768
事業	-11.177
隨我	-11.1771
吼	-11.1773
除僧羯磨	-11.1774
合為一	-11.1774
毗尼藏	-11.1777
懇	-11.1777
九種	-11.1779
作白二羯磨	-11.1782
楷	-11.1783
倘	-11.1784
集比丘僧	-11.1784
先請	-11.1785
不曉	-11.179
令淨	-11.1791
起行	-11.1791
乃可	-11.1792
香爐	-11.1794
喬答摩	-11.1794
品中	-11.1796
所作事	-11.1798
周遍	-11.1802
如法諫	-11.1803
師長	-11.1806
。」《	-11.1807
詞句	-11.1808
無限	-11.1812
道諦	-11.1814
二夜	-11.1815
能說	-11.1816
勤求	-11.1816
能成	-11.1819
深重	-11.182
護衣	-11.182
即持	-11.182
世尊爾時以此因緣集比丘僧	-11.1822
妬	-11.1825
闡	-11.1827
天宮	-11.1829
熊	-11.1829
別名	-11.1832
口受	-11.1832
瞻波	-11.1834
祐	-11.1836
犯吉羅	-11.1836
諸方	-11.1837
魚肉	-11.1838
若對	-11.1838
常樂	-11.184
故下引證	-11.1841
青色	-11.1842
如幻	-11.1844
造業	-11.1849
塔寺	-11.185
上首	-11.1853
了義	-11.1855
憐愍故	-11.1855
犯根本	-11.1857
不獲	-11.1861
體用	-11.1862
阿羅	-11.1863
貴人	-11.1866
即起	-11.1867
雖在	-11.1867
無憂	-11.1868
惡戒	-11.187
異見	-11.1874
私云	-11.1879
自今已去與比丘結戒	-11.1881
復作是願	-11.1882
瑜	-11.1883
敬法	-11.1883
佛住	-11.1885
攝心	-11.1886
襍	-11.1886
俟	-11.1887
喧	-11.1887
緻	-11.1889
嚙	-11.1889
詔	-11.189
二道	-11.189
攝僧	-11.1892
?(	-11.1892
我實	-11.1893
善逝	-11.1895
等並	-11.1896
常懷	-11.1896
引論	-11.1897
蓐	-11.1898
前言	-11.1899
初受	-11.19
犬	-11.1902
演說	-11.1906
居士言	-11.1906
常以	-11.1907
說戒法	-11.1909
而制	-11.1912
淺深	-11.1913
聞說	-11.1915
從緣	-11.1916
並得	-11.1916
亦以	-11.1919
無可	-11.1921
賢劫	-11.1922
八正	-11.1923
六月	-11.1925
教我	-11.1925
既見	-11.1928
作衣時	-11.193
殺之	-11.193
見論云	-11.1932
出家五眾	-11.1933
下列	-11.1934
如是諫時	-11.1935
使我	-11.1935
十眾	-11.1936
釋疑	-11.1937
作不淨行	-11.1937
不得在	-11.1939
机	-11.1941
親教師	-11.1942
行菩薩道	-11.1944
減五錢	-11.1944
汝以何心	-11.1946
還取	-11.1946
不收	-11.1947
深心	-11.1951
攝衣	-11.1951
怯	-11.1951
諸苦	-11.1952
今乃	-11.1952
是真	-11.1953
如是乃至	-11.1953
眾具	-11.1953
今明	-11.1958
四角	-11.1959
一心念	-11.196
對法	-11.1967
四攝	-11.1968
中初引	-11.1969
餘時	-11.1974
得本罪	-11.1975
之餘	-11.1979
制罪	-11.198
景云	-11.1981
當學	-11.1982
木蘭	-11.1985
如今	-11.1985
梵本	-11.1987
樂欲	-11.199
迷忘	-11.1992
作新臥具	-11.1992
鄔波索迦	-11.1994
非真	-11.1995
贍部洲	-11.1995
掃灑	-11.1998
品第十	-11.2001
便利	-11.2004
無師	-11.2005
之苦	-11.2007
能與	-11.2009
邏	-11.2012
聽用	-11.2013
曹	-11.2014
治法	-11.2015
作舉	-11.2017
勝處	-11.2018
不應食	-11.2022
納衣	-11.2022
季	-11.2025
嘿然	-11.2025
為除	-11.2025
是物	-11.2026
口言	-11.2027
屏諫	-11.2028
多云	-11.2034
見世尊	-11.2036
盡形壽不得	-11.2036
說而了了	-11.2036
得蘭	-11.2036
頌云	-11.2042
貧人	-11.2042
清淨故	-11.2043
五色	-11.2043
蘇油	-11.2044
自手取	-11.2046
故畜	-11.2047
順從	-11.2048
向說	-11.205
列釋	-11.205
皆悉令集	-11.2055
餘三眾突吉羅	-11.2056
炬	-11.2059
今更	-11.2063
賓頭盧	-11.2063
不誦	-11.2064
揭	-11.2066
德衣	-11.2066
若破	-11.2068
是中清淨	-11.2068
天帝釋	-11.2069
凝	-11.207
搜	-11.2071
淡	-11.2073
六和	-11.2076
來問	-11.208
僧得施	-11.2081
在眾	-11.2083
不受樂	-11.2085
年滿	-11.2087
長者家	-11.2089
而言之	-11.209
三卷	-11.2091
古德	-11.2096
往返	-11.2101
無比	-11.2104
下生	-11.2105
有想	-11.2105
非人女	-11.2106
作福	-11.211
傳授	-11.211
大世主	-11.2111
作屋	-11.2115
之始	-11.2115
老死	-11.2117
信解	-11.2117
師友	-11.2118
我曹	-11.2119
伴黨	-11.212
屣	-11.2122
嬈	-11.2122
尼白苾芻	-11.2123
六群比丘尼	-11.2124
犢子	-11.2124
為好故	-11.2124
叉手	-11.2126
叉腰	-11.2128
蹋	-11.2128
諸漏	-11.213
佩	-11.213
鍼	-11.2131
即名為	-11.2134
▁初制意	-11.2135
歟	-11.2135
分通	-11.2137
俱突吉羅	-11.2139
不滿二十	-11.2142
隨文	-11.2144
論師	-11.2151
婬盜	-11.2152
不變	-11.2158
白世尊	-11.216
二百五十戒	-11.2161
引律	-11.2163
搖身	-11.2168
增上慢	-11.218
安坐	-11.2181
置於	-11.2181
倩	-11.2181
初總	-11.2182
牌	-11.2184
搭	-11.2185
垢膩	-11.2185
語令	-11.2185
牛糞	-11.2186
拄	-11.2189
周匝	-11.219
剃頭	-11.2192
毗舍離	-11.2193
是賊	-11.2195
伽羅	-11.2197
句法	-11.2199
今取	-11.2199
先當	-11.22
若減	-11.2202
下眾	-11.2217
五分律	-11.2224
諸大眾	-11.2226
九戒	-11.2227
啼泣	-11.2228
乞鉢	-11.2228
流水	-11.223
所住處	-11.2232
背請	-11.2233
擊攊	-11.2234
稱讚	-11.2234
震動	-11.2237
殺阿羅漢	-11.2239
乍	-11.224
抽	-11.2241
池中	-11.2244
極大	-11.2244
於理	-11.2247
壇上	-11.2247
襯	-11.2247
上音	-11.2248
被他	-11.2248
長行	-11.225
洒	-11.225
一提	-11.2251
燭	-11.2253
惡名	-11.2255
形體	-11.2255
溫室	-11.2256
蔓	-11.226
我弟子	-11.2262
一尋	-11.2265
成不成	-11.2265
亦開	-11.2265
十師	-11.2266
由其	-11.2267
來世	-11.2267
如世	-11.2271
滅惡	-11.2272
於僧中	-11.2277
方名	-11.2277
中廣說	-11.228
常得	-11.2281
可愛	-11.2285
景	-11.2287
更請	-11.229
與餘人	-11.229
應作白	-11.2292
□□	-11.2292
華光	-11.2293
眾事	-11.2294
示之	-11.2294
叩	-11.2299
境上	-11.23
消滅	-11.23
服之	-11.2301
大明	-11.2302
千釋迦	-11.2306
痴	-11.2318
猶是	-11.2318
尊卑	-11.232
叢林	-11.2322
由前	-11.2323
田宅	-11.2323
即將	-11.2326
作無作	-11.2332
輕毀	-11.2333
不能男	-11.2334
除此	-11.2342
學道	-11.2342
處安居	-11.2345
其夫	-11.2345
後結	-11.2346
敬心	-11.2347
依止羯磨	-11.2348
得法眼淨	-11.235
和合眾	-11.2351
巳還	-11.2352
義鈔	-11.2354
羸瘦	-11.2355
應安	-11.2356
復至	-11.2357
栗	-11.236
少時	-11.236
杵	-11.2364
未斷	-11.2365
羯恥那衣	-11.2365
言教	-11.2365
於其中間	-11.2366
琴	-11.2368
閙	-11.2369
二尺	-11.237
未犯	-11.237
今可	-11.2371
不護	-11.2373
俱舍云	-11.2374
樹神	-11.2374
闍黎	-11.2376
次至	-11.2377
重制	-11.2377
郭	-11.2379
憶念毘尼	-11.2379
不得用	-11.238
雜色	-11.2382
受學	-11.2385
夏坐	-11.2389
讚戒	-11.2395
盛滿	-11.2396
塵土	-11.2397
致令	-11.2398
於斯	-11.2399
淨不淨	-11.2401
閉戶	-11.2403
河邊	-11.2407
四儀	-11.2412
波羅夷罪	-11.2412
此界	-11.2414
智度論	-11.2418
天魔	-11.2419
隨釋	-11.2421
如有	-11.2421
過五六語	-11.2422
憐	-11.2422
若云	-11.2423
教主	-11.2426
海水	-11.2429
雌	-11.2431
十利	-11.2432
次約	-11.2433
焦	-11.2434
是中清淨不	-11.2434
九條	-11.2434
政	-11.2436
增一阿含	-11.2436
覆處	-11.2436
欲出家	-11.2436
不可以	-11.2437
自用	-11.2437
故次	-11.244
一房	-11.2441
七滅諍法	-11.2448
家業	-11.2456
姊	-11.246
僧祇中	-11.2461
自相	-11.2466
勸學	-11.2469
丘	-11.247
與白衣	-11.248
三約	-11.248
卵	-11.2483
來至此	-11.2483
恕	-11.2485
十號	-11.2485
善道	-11.2486
炭	-11.2489
非重	-11.2489
為諸比丘尼結戒	-11.2489
三師	-11.2491
多欲	-11.2492
醒	-11.2493
今捨與僧	-11.2494
未審	-11.2496
陛	-11.2497
勑	-11.2497
但約	-11.2499
取捨	-11.25
閒	-11.2502
自恣法	-11.251
草葉	-11.2511
爾時比丘	-11.2512
之器	-11.2513
事成	-11.2513
大道	-11.2514
非常	-11.2515
一足	-11.252
放生	-11.252
無所著	-11.2524
已去	-11.2528
▁初示	-11.2528
不淨施	-11.2528
得僧伽婆尸沙	-11.2529
入室	-11.2533
向下	-11.2534
秉羯磨	-11.2538
受齋	-11.254
未分	-11.2541
遮說戒	-11.2543
首座	-11.2543
出不淨	-11.2545
三結罪	-11.2548
半偈	-11.2549
其形	-11.2554
幼	-11.2554
壅	-11.2554
眉	-11.2556
橋	-11.2557
憂愁	-11.2559
佛土	-11.2559
理事	-11.256
往佛所	-11.2561
同誦	-11.2562
洗脚	-11.2566
不曾	-11.2567
一切羯磨	-11.2568
皆依	-11.2572
百六十	-11.2574
若與人	-11.2578
不局	-11.2581
苾芻眾	-11.2583
善女人	-11.2583
如法者	-11.2583
第四分	-11.2586
善護	-11.2593
疏文	-11.2594
作前方便	-11.2594
就座而坐	-11.2595
體非	-11.2596
常所行	-11.26
曼	-11.2601
惡友	-11.2603
叔	-11.2604
別異	-11.2604
若被	-11.2606
具明	-11.2607
白王言	-11.2609
駱駝	-11.261
摩納	-11.2611
芽	-11.2613
枚	-11.2614
滓	-11.2617
剛	-11.2618
繒	-11.2618
廣如上說	-11.2618
膏	-11.2618
係	-11.2622
▁二又下	-11.2623
賞勞	-11.2624
緩急	-11.2629
誦習	-11.263
娑羅	-11.2631
一尺	-11.2632
在露地	-11.2634
便自	-11.2637
牛馬	-11.2644
報云	-11.2646
後因	-11.2647
得吉羅	-11.265
善財	-11.265
尼等	-11.2652
損他	-11.2653
相連	-11.2655
力勢	-11.2661
大乘同制	-11.2663
施心	-11.2663
最下	-11.2664
欲出	-11.2666
作迦絺那衣	-11.2667
若受持	-11.2669
無情	-11.267
鋪	-11.267
未受具戒人	-11.2672
執事	-11.2675
不淨物	-11.2677
堪為	-11.2678
僧伽黎	-11.2678
德行	-11.2678
少欲知足行頭陀	-11.2679
薰	-11.268
屠兒	-11.2681
讖	-11.2681
比丘白佛	-11.2682
隻	-11.2682
性惡	-11.2683
三遍	-11.2683
斛	-11.2684
峰	-11.2685
非色非心	-11.2685
桃	-11.2686
一坐食	-11.2686
戒本云	-11.2687
釋通	-11.269
縮	-11.2691
犯僧殘罪	-11.2692
末代	-11.2693
無德	-11.2694
當更	-11.2695
未制	-11.2695
人壽	-11.2695
入界	-11.2696
計直	-11.2696
諸佛常法	-11.2696
彼既	-11.2696
口出	-11.27
各得	-11.2703
迴轉	-11.2705
醉人	-11.2707
劫賊	-11.2708
提婆	-11.2709
應如法	-11.2712
不應共住	-11.2712
地獄中	-11.2712
比座	-11.2713
問何故	-11.2716
說竟	-11.272
還主	-11.2721
或用	-11.2722
兩分	-11.2729
愁憂	-11.2729
羣生	-11.273
時六眾苾芻	-11.2731
嫌恨	-11.2735
悉是	-11.2738
綖	-11.274
如是一切	-11.2742
先說	-11.2743
亦如是說	-11.2745
損益	-11.2747
輪轉	-11.2748
不怖	-11.2751
鋒	-11.2752
答下	-11.2752
結法	-11.2752
就中	-11.2757
就初	-11.2758
鄰	-11.2759
諸比丘不知	-11.276
色等	-11.276
覺分	-11.2761
屬巳	-11.2761
乘船	-11.2767
餘比丘尼	-11.2767
生疑悔	-11.2768
得偷蘭罪	-11.2769
非法語	-11.2777
病緣	-11.2778
非時衣	-11.2778
世諦	-11.278
供養三寶	-11.2781
犯棄	-11.2783
能障	-11.2783
貴價	-11.2784
香味	-11.2785
生死之	-11.2787
衣藥	-11.2787
食訖	-11.2788
赤色	-11.2791
萬物	-11.2792
稱名	-11.2794
末法	-11.2795
顯相	-11.2795
迷心	-11.2796
嚴身	-11.2796
妨道	-11.2798
刮	-11.2802
耆宿	-11.2803
曆	-11.2805
函	-11.2807
錯誤	-11.281
不虗	-11.281
無所畏	-11.2811
乃至廣說	-11.2812
膚	-11.2813
一一皆	-11.2819
鳴磬	-11.2819
六百	-11.2822
惡邪見	-11.2822
非時漿	-11.2824
住止	-11.2826
破法	-11.2827
本業	-11.2827
初後	-11.283
恭敬供養	-11.2832
與男子	-11.2832
僧羯磨	-11.2834
但由	-11.2835
本非	-11.2839
單提	-11.284
▁初標分	-11.284
當體	-11.2846
今受	-11.2846
大聲	-11.2846
營事	-11.2849
三藏法師義淨奉制譯	-11.2853
必先	-11.2854
真言曰	-11.2857
轉輪聖王	-11.2858
先住	-11.2859
眾善	-11.286
▁二言下	-11.2861
在屏處	-11.2866
但明	-11.2866
埵	-11.2867
漉水囊	-11.2868
犯婬	-11.2869
椀	-11.287
叢	-11.2871
所願	-11.2872
拔濟	-11.2873
三十八	-11.2874
諾	-11.2874
出眾	-11.2875
慈地比丘	-11.2876
你	-11.2877
離地	-11.2879
新學菩薩	-11.2882
諸聲聞	-11.2883
屬僧	-11.2883
大樹	-11.2884
充足	-11.2884
不應量	-11.2885
作何等	-11.2887
真空	-11.2892
六道眾生	-11.2892
若比丘知	-11.2893
易知	-11.2894
浴衣	-11.2894
四十八輕	-11.2894
身死	-11.2896
相近	-11.2898
羯磨疏	-11.2899
言詞	-11.29
過分	-11.2906
若須	-11.2909
心地戒	-11.2909
奈	-11.2909
來去	-11.291
是為犯	-11.2914
不懺悔	-11.2917
初中後	-11.2918
髀	-11.2918
背捨	-11.2923
塼	-11.2923
服藥	-11.2924
沓婆摩羅子	-11.2924
尼曰	-11.2925
佛知而故問	-11.2926
巳身	-11.2927
杓	-11.2929
其處	-11.2929
十方僧	-11.2935
此是惡事	-11.2936
有佛性	-11.2936
祀	-11.2937
輝	-11.2939
乞食時	-11.2939
共立	-11.294
布薩說戒	-11.2941
燃	-11.2942
左肩	-11.2942
轍	-11.2944
盜心取	-11.2945
至今	-11.2946
造寺	-11.2946
講說	-11.2947
入聚	-11.2947
略示	-11.2948
初戒	-11.2949
九十日	-11.2952
墮地	-11.2953
就文	-11.2954
六七	-11.2956
日應作衣	-11.2962
身形	-11.2967
生念	-11.2967
我常	-11.2968
常用	-11.2968
違背	-11.2972
莫作	-11.2973
犯事	-11.2973
三趣	-11.2979
還俗	-11.2979
隨人	-11.298
汝先	-11.2981
挂	-11.2984
」【【	-11.2985
藝	-11.2986
羞恥	-11.2987
通用	-11.2987
居家	-11.2988
入宮	-11.299
教授比丘尼	-11.2993
又比丘得不具足衣	-11.2995
私通	-11.2996
化導	-11.2998
無遮	-11.3002
仁者	-11.3002
以此為	-11.3002
首疏	-11.3004
圓宗	-11.3004
上座應	-11.3005
亦知	-11.3006
四月十六日	-11.3009
種種訶責	-11.301
列名	-11.301
書寫	-11.301
與藥	-11.3011
鳥獸	-11.3014
莫非	-11.3015
麁惡語	-11.3017
壞生	-11.3017
本末	-11.3018
貴賤	-11.3019
佛種	-11.3021
八聖道	-11.3021
暫時	-11.3021
汝去	-11.3024
第十五	-11.3027
不繁	-11.3032
持此衣	-11.3037
病差	-11.304
苾芻曰	-11.3044
反顯	-11.3044
方便罪	-11.3046
在僧中	-11.3046
嘗	-11.3048
今何	-11.3051
炷	-11.3054
人畜	-11.3056
直至	-11.3059
倦	-11.306
陋	-11.3061
凶	-11.3063
來詣	-11.3065
虔	-11.3065
與欲清淨	-11.3065
揣	-11.3067
僧祇律	-11.3067
禮拜問訊	-11.3067
虗實	-11.3067
佛言聽	-11.3073
方始	-11.3076
寔	-11.3079
之屬	-11.3082
真理	-11.3083
切音	-11.3088
陀婆	-11.3089
直言	-11.309
前坐	-11.3092
六師	-11.3097
隨戒	-11.3097
大妄語	-11.3098
難云	-11.3099
歸敬	-11.31
下結示	-11.3102
五百比丘	-11.3102
瘂	-11.3103
巳物	-11.3106
五辛	-11.3106
喜心	-11.3107
大經云	-11.3107
手脚	-11.3111
嗔心	-11.3112
得羅漢	-11.3119
龕	-11.3119
邊受	-11.312
成立	-11.312
駄	-11.3124
一剎那	-11.3129
佛意	-11.3129
筭	-11.3129
五停	-11.3129
嚕	-11.3131
甜	-11.3131
休息	-11.3132
若遣使	-11.3133
求得	-11.3134
三千威儀	-11.3135
日用	-11.3136
課	-11.3137
化為	-11.3139
闊	-11.3139
一切煩惱	-11.3139
安慰	-11.314
而退	-11.3145
柳	-11.3146
法明門	-11.3146
群臣	-11.3149
銜	-11.3149
五肘	-11.315
在內	-11.315
淨洗	-11.3151
收攝	-11.3152
作不作	-11.3154
日光	-11.3154
行入白衣舍	-11.3159
參差	-11.316
告云	-11.3162
藏舉	-11.3162
清淨戒	-11.3165
所獲	-11.3165
呵諫	-11.3166
過量作	-11.3166
生子	-11.3167
何以不	-11.3168
不慎	-11.3177
鹿王	-11.3177
陀驃	-11.3178
婇女	-11.318
所學	-11.3185
章門	-11.3186
言辭	-11.3187
今復	-11.3188
佛種種呵責已	-11.3188
佛知故問	-11.3189
犯過	-11.3189
菴羅	-11.3191
佛滅度後	-11.3193
白眾	-11.3194
僅	-11.3194
假令	-11.3195
揖	-11.3196
三德	-11.3199
帽	-11.3201
伯	-11.3203
溝	-11.3204
以盜心	-11.3204
丹	-11.3206
非想	-11.321
舍衛國祇樹給孤獨園	-11.321
當部	-11.321
譌	-11.3211
萬善	-11.3211
跋提	-11.3212
之流	-11.3213
非親尼	-11.3214
屏露	-11.3215
十方三世	-11.3215
音樂	-11.3216
隨其所	-11.3217
看病比丘	-11.322
阿闍世王	-11.3222
七月十五日	-11.3224
如下引	-11.3224
諸女	-11.3225
情非情	-11.3227
草覆	-11.323
七句	-11.3233
同事	-11.3235
立教	-11.3243
讚毀	-11.3247
癲狂	-11.3249
取用	-11.3251
成否	-11.3252
捨置	-11.3252
貿衣	-11.3254
腫	-11.3255
遮性	-11.326
三段	-11.3261
臍	-11.3264
諍訟	-11.3264
手持	-11.3264
搥	-11.3265
棗	-11.3267
證成	-11.3267
隨從	-11.3268
僧地	-11.3271
越毗尼	-11.3271
唯在	-11.3276
以種種	-11.3276
真珠	-11.3279
佛塔中	-11.328
遂令	-11.3281
有客比丘來	-11.3283
給與	-11.3283
置衣	-11.3285
從今聽	-11.3286
散華	-11.3291
僧中捨	-11.3295
之要	-11.3297
時諸比丘尼	-11.3298
隨用	-11.3299
十誦中	-11.33
為二部	-11.3303
除村	-11.3304
有二十	-11.3305
別處	-11.3306
巳過	-11.3307
諸緣	-11.331
亦同此	-11.3314
若有犯	-11.3315
能忍	-11.3315
在眾中	-11.3315
著泥洹僧	-11.3317
出世間	-11.3321
不癡毘尼	-11.3322
無利	-11.3325
所解	-11.3325
覲	-11.3325
標名	-11.3325
澡浴	-11.3326
毳	-11.3328
囚	-11.3329
麤語	-11.3329
國主	-11.3329
雜亂	-11.333
強奪	-11.333
踝	-11.333
三十三	-11.3331
熱惱	-11.3331
毀戒	-11.3335
柵	-11.3336
躭	-11.3336
農	-11.3339
別顯	-11.3339
侯	-11.3339
正語	-11.3342
毋	-11.3343
十金剛	-11.3343
時鄔陀夷	-11.3349
獲罪	-11.3351
不淨食	-11.3355
準前	-11.3357
亦名為	-11.3361
告知	-11.3361
通論	-11.3363
誦之	-11.3365
作自恣	-11.3366
具四緣	-11.3367
殷	-11.337
城內	-11.337
十三事	-11.3375
過去世時	-11.3375
善學	-11.3379
得重罪	-11.3382
不囑授	-11.3382
戒序	-11.3382
毀訾	-11.3383
眷	-11.3383
戒學	-11.3384
相濫	-11.3384
惡律儀	-11.3385
總持	-11.3385
空寂	-11.3387
和上尼	-11.3388
便能	-11.3388
犍度中	-11.3389
比坐	-11.3389
惶	-11.3392
橛	-11.3393
可共	-11.3393
狼藉	-11.3394
檀越施	-11.3396
日出	-11.3396
五體投地	-11.3398
點淨	-11.3398
和上阿闍梨	-11.3399
形色	-11.3399
未久	-11.34
燋	-11.34
楞伽	-11.3403
亦不可	-11.3409
星宿	-11.341
歸本	-11.3413
名號	-11.3414
飲用	-11.3415
還成	-11.3418
覆障	-11.3418
往取	-11.3419
入海	-11.3421
自捉	-11.3425
復何	-11.343
子曰	-11.3432
自手與	-11.3437
覆上	-11.3438
沙門釋	-11.3441
眼識	-11.3443
如是第二	-11.3443
佛聞故制	-11.3445
則失	-11.3446
擯比丘	-11.3448
若不作	-11.3453
往還	-11.3454
竹園	-11.3456
小鉢	-11.3456
光從	-11.3459
畜養	-11.3459
讎	-11.3459
偏袒	-11.3461
十重四十八輕	-11.3461
迦葉佛	-11.3461
邊際	-11.3462
其間	-11.3462
正當	-11.3462
泣	-11.3463
柄	-11.3467
十方世界	-11.3469
是中有比丘尼	-11.3469
躑	-11.3469
限齊	-11.3477
法師云	-11.348
汝等當	-11.3482
違順	-11.3483
三十心	-11.3486
自覺	-11.3493
結淨地	-11.3496
自活	-11.3497
當起	-11.3498
猛火	-11.3502
不審	-11.3503
受報	-11.3503
其體	-11.3503
一二三	-11.3505
目揵連	-11.3506
不改	-11.3513
結解	-11.3515
故稱為	-11.3516
有命	-11.3516
滅滅	-11.3516
自相謂言	-11.3519
商旅	-11.352
五百問云	-11.3521
有主物	-11.3521
薄伽梵	-11.3523
屬於	-11.3523
第三諫	-11.3524
如水乳合	-11.3524
是阿羅漢	-11.3524
店	-11.3527
諸比丘往白世尊	-11.3527
千二百五十	-11.3528
訟	-11.3529
褰	-11.3529
枳	-11.353
室中	-11.353
守園人	-11.3532
相染	-11.3534
有虫	-11.3535
故特	-11.3535
毀辱	-11.3535
苾蒭	-11.3537
俗舍	-11.3539
左右顧視	-11.3539
次引	-11.354
大富	-11.3542
羽	-11.3543
房舍臥具	-11.3544
苦集	-11.3546
強弱	-11.3546
百千萬	-11.3547
無諍	-11.3548
智力	-11.355
稱之為	-11.3553
千世界	-11.3555
此是時	-11.356
易解	-11.3562
。」【△	-11.3564
救濟	-11.3565
眾中有	-11.3566
千人	-11.3574
長財	-11.3574
白師	-11.3578
乃知	-11.3579
餘部	-11.3579
摩納婆	-11.358
形如	-11.3582
別教	-11.3584
▁二如下	-11.3584
紺	-11.3589
妙行	-11.359
第三門	-11.3591
永離	-11.3591
爾時佛在舍衛國祇樹給孤獨園	-11.3594
行住坐臥	-11.3594
剎帝利	-11.3596
具列	-11.3597
令正法久住	-11.3597
氷	-11.3599
白世尊言	-11.3601
月半	-11.3603
賈人	-11.3604
鷲	-11.3604
鈔主	-11.3606
人趣	-11.3606
揀擇	-11.3607
惡作罪	-11.3607
床坐	-11.3607
所為事	-11.3609
踞	-11.3609
稽	-11.361
二房	-11.3613
丁	-11.3614
嶽	-11.3614
阻	-11.3616
阿鼻	-11.3618
生酥	-11.3618
初列	-11.3619
仲	-11.362
能使	-11.3621
聖僧	-11.3623
至于	-11.3624
次二句	-11.3624
岸上	-11.3627
奉佛	-11.3628
如是說	-11.3632
造立	-11.3634
求聽	-11.3634
分為三	-11.3637
天授	-11.364
而論	-11.364
八正道	-11.3642
任情	-11.3649
業體	-11.3653
黑色	-11.3656
不善心	-11.3657
前緣	-11.3657
堪任	-11.366
陀羅尼經	-11.366
熾	-11.3661
佛告比丘	-11.3662
此翻為	-11.3664
貪瞋癡	-11.3664
得波逸底迦	-11.3664
螫	-11.3665
輭	-11.3665
裸	-11.3667
僧常聞	-11.3668
諸罪	-11.3669
顛	-11.3673
水灑	-11.3675
所感	-11.3676
毗舍	-11.3677
鴿	-11.3677
歸依三寶	-11.3678
張手	-11.368
攝取	-11.368
糖	-11.368
豈能	-11.3681
外凡	-11.3682
謂此菩薩	-11.3683
所收	-11.3685
故不須	-11.3685
至道	-11.3693
智度論云	-11.3693
三匝	-11.3695
無損	-11.3696
第十四	-11.3697
助道	-11.3698
深生	-11.3699
衣被	-11.3701
罵辱	-11.3704
竹木	-11.3704
作人想	-11.3709
煩惱障	-11.3712
第四門	-11.3714
四方僧物	-11.3715
內色	-11.3717
▁初通釋	-11.3726
義門	-11.3729
餘義如上	-11.3729
讚持戒	-11.3731
詣世尊所	-11.3731
謗僧	-11.3731
所逼	-11.3732
習氣	-11.3732
撿挍	-11.3733
得波羅夷罪	-11.3733
供給所須	-11.3736
度脫	-11.3737
淨物	-11.3742
曇無德	-11.3745
自讚毀他	-11.3745
郡	-11.3747
指上	-11.3749
掛	-11.3749
或有罪	-11.3752
體狀	-11.3752
進不	-11.3755
以之為	-11.3755
恒沙	-11.3758
十方法界	-11.3758
化佛	-11.3759
世事	-11.3761
鬚髮	-11.3762
深淺	-11.3766
瓦石	-11.3772
斥非	-11.3773
中初二句	-11.3776
夷罪	-11.378
有眾多	-11.3783
權實	-11.3785
約境	-11.3786
依他	-11.3787
飲之	-11.3787
鈔引	-11.3789
犯波逸提	-11.3791
攝一切	-11.3793
改悔	-11.3793
畏慎	-11.3799
對上	-11.3801
膿血	-11.3801
染色	-11.3802
金翅鳥	-11.3803
共議	-11.3803
有智慧	-11.3806
竹林	-11.3808
祝	-11.3809
前方便	-11.381
作斯	-11.3811
戶鉤	-11.3812
時鄔波難陀	-11.3812
髓	-11.3813
撫	-11.3813
電	-11.3813
夏三月	-11.3816
八重	-11.382
聖言	-11.3821
變易	-11.3821
時彼長者	-11.3821
膠	-11.3821
磬	-11.3823
聚集	-11.3824
以繩	-11.3825
樹下坐	-11.3828
鎧	-11.3828
受畜	-11.383
四周	-11.383
客來	-11.3831
如法滅	-11.3833
堪受	-11.3835
化人	-11.3837
僧祗律云	-11.3839
憶念毗尼	-11.3841
有主想	-11.3846
可懺	-11.3848
央	-11.3851
慎勿	-11.3853
縱使	-11.3854
具德	-11.3855
不列	-11.3857
終無	-11.3858
每日	-11.3858
解了	-11.3858
一歲	-11.3865
披著	-11.3865
從今已去	-11.3871
害心	-11.3871
共女人	-11.3871
毘耶離	-11.3872
引請	-11.3873
不淨行	-11.3874
羅國	-11.3875
故論云	-11.3876
默然而住	-11.3877
自今已去與比丘尼結戒	-11.3877
若不如是	-11.3879
鼈	-11.388
渧	-11.388
十七群	-11.3881
同梵行者	-11.3882
大涅槃	-11.3883
義准	-11.3884
故下引	-11.3885
極多	-11.3885
授食	-11.3886
嗜	-11.389
擅	-11.3891
別界	-11.3891
第十六	-11.3892
心地法門	-11.3895
玄記	-11.3897
一一衣	-11.3899
捉手	-11.3901
墮胎	-11.3904
爾時尊者	-11.3908
遮戒	-11.391
檀越請	-11.3912
同伴	-11.3912
蓮華色	-11.3914
窣吐羅	-11.3915
六波羅蜜	-11.3919
偈呪	-11.392
三諦	-11.392
指印	-11.3923
七遮	-11.3924
田地	-11.3924
有妨	-11.3928
離見聞	-11.3933
理體	-11.3935
雲集	-11.3935
此頌	-11.3935
為利養故	-11.3937
婚	-11.3937
式叉摩那沙彌沙彌尼突吉羅	-11.3939
斯乃	-11.3943
初總標	-11.3944
賊難	-11.3946
豈容	-11.3949
泥犁	-11.395
雜物	-11.3951
在家人	-11.3951
一搩手	-11.3952
斤	-11.3953
不淨地	-11.3954
泄	-11.3954
惡見不捨	-11.3954
柴	-11.3957
多畜	-11.3958
遂生	-11.3961
來集	-11.3963
親屬	-11.3963
閏月	-11.3964
以神力	-11.3967
皆得墮罪	-11.3969
不漏	-11.3969
第二明	-11.397
說戒堂	-11.397
虱	-11.3972
脫衣	-11.3972
平地	-11.3973
西域記云	-11.3973
衣裳	-11.3973
無障	-11.398
離苦	-11.3981
安居中	-11.3984
傷害	-11.3984
隨舉	-11.3985
得夷	-11.3987
下隨釋	-11.3987
頗比丘	-11.3988
寒熱	-11.3989
翻名	-11.3994
蘭罪	-11.3999
任持	-11.4001
不飲	-11.4004
沙彌沙彌尼	-11.4008
褒灑陀	-11.4008
長者曰	-11.4009
之義也	-11.4009
受想行識	-11.4011
烏迴鳩羅	-11.4014
作淨施	-11.4015
三輪	-11.4015
內煑	-11.4015
執持衣鉢	-11.4016
希求	-11.4019
若有所	-11.4022
見思	-11.4022
戮	-11.4025
毗盧遮那	-11.4026
攀	-11.4029
砂	-11.4032
若過者	-11.4033
不識事	-11.4034
神呪	-11.4037
魯	-11.4037
掉臂	-11.404
發無作	-11.4042
戒本三句	-11.4042
轉側	-11.4043
從乞	-11.4048
古解	-11.4049
一磔手	-11.4049
至涅槃	-11.405
告眾	-11.4051
互有	-11.4051
破法輪	-11.4053
正顯	-11.4053
白㲲	-11.4054
殘宿食	-11.4056
僧應與	-11.4058
同居	-11.4061
體同	-11.4061
所宗	-11.4065
西北	-11.4066
大綱	-11.4066
相謂曰	-11.4067
不應取	-11.407
勝光王	-11.4071
塗身	-11.4073
今從眾僧乞	-11.4079
以是事白佛	-11.4079
隨開	-11.408
若僧伽時至聽者	-11.4086
定罪此中犯者	-11.4087
戲論	-11.4087
和尚尼	-11.4087
令淨人	-11.4088
流入	-11.409
佛滅後	-11.409
揀非	-11.4091
教化眾生	-11.4092
有娠	-11.4092
大眾集	-11.4094
粳米	-11.4095
覓罪相	-11.4097
鈴	-11.4097
河水	-11.4097
無量功德	-11.4097
捨此事	-11.4098
昔時	-11.4098
寢	-11.4099
選擇	-11.41
右遶	-11.4101
疲苦	-11.4103
迫	-11.4104
誥	-11.4105
細滑	-11.4105
說戒經	-11.4107
進止	-11.4108
好織	-11.4113
與沙彌	-11.4116
蒼	-11.4119
毱多	-11.4119
須達	-11.412
疑犯	-11.4122
不來者	-11.4123
以慈心	-11.4124
半月半月說	-11.4124
卷上	-11.4124
近住	-11.4133
金銀錢	-11.4138
容儀	-11.4138
圓成	-11.4138
不呵	-11.4138
今准	-11.4143
有慚愧	-11.4143
有檀越	-11.4145
皆無犯	-11.4146
誦持	-11.4149
水澆	-11.4149
擁	-11.4151
一角	-11.4152
例此	-11.4155
羯磨說戒	-11.4159
耆舊	-11.4163
擗	-11.4163
自恣日	-11.4167
篤信	-11.4168
青黃赤白	-11.4169
深防	-11.4169
畏慎不敢	-11.4169
珊	-11.417
萬二千	-11.417
云何為五	-11.4171
羯磨不成	-11.4173
靴	-11.4173
佛問言	-11.4174
淵	-11.4175
得人身	-11.4176
湖	-11.4176
柰	-11.4177
驅出羯磨	-11.4177
過去諸佛	-11.4177
諸大菩薩	-11.418
評論	-11.4181
哆	-11.4182
法堂	-11.4184
血肉	-11.4185
一切世間	-11.4186
雙足	-11.4187
結罪是中犯	-11.4187
下斥	-11.4192
石上	-11.4198
頭面	-11.4198
惡知識	-11.4205
捨家	-11.4206
不婬	-11.4212
唱云	-11.4219
依止師	-11.422
若不作衣	-11.4221
劫盜	-11.4229
是為不犯	-11.4229
戒總釋	-11.423
隨開不犯者	-11.423
前引	-11.4237
僧寺	-11.4238
摩耶	-11.4238
攝善法戒	-11.424
絃	-11.4244
我知正法	-11.4245
築	-11.4247
餘並	-11.4247
滿數	-11.4247
屎	-11.4248
糓	-11.4248
斷其命	-11.4248
嫌罵	-11.4249
坐家內	-11.4249
霜	-11.4253
涌	-11.4254
歸戒	-11.4256
旛	-11.4256
此偈	-11.4259
無所有處	-11.426
八年	-11.4261
種種方便	-11.4262
婆提	-11.4262
為他作	-11.4264
一百二十	-11.4264
擁護	-11.4267
導師	-11.4269
一味	-11.4271
情生	-11.4272
專心	-11.4272
殺業	-11.4275
別乞	-11.4276
通夜	-11.4277
發露懺悔	-11.428
略明	-11.428
供具	-11.4281
準知	-11.4288
不共語	-11.429
宮人	-11.4295
爾時有比丘	-11.4296
若干日	-11.4297
伹有	-11.43
生草木	-11.4301
村落	-11.4301
具陳	-11.4302
作四句	-11.4305
來至我所	-11.4306
豈是	-11.4307
和尚尼某甲	-11.4307
進退	-11.4309
惡邪不除擯	-11.4312
長跪合掌	-11.4313
百五十	-11.4313
鼻舌身	-11.4315
六齋日	-11.4315
未明	-11.4316
▁一心頂禮	-11.4316
分臥具	-11.4316
杭	-11.4316
何容	-11.4318
向彼說	-11.432
倚傍	-11.432
迮	-11.432
g	-11.4321
im	-11.4321
粉	-11.4324
經卷	-11.4325
不救	-11.4325
猴	-11.4327
悕	-11.4328
酌	-11.4328
鷹	-11.4329
▁初總標	-11.4329
衣角	-11.4329
疫	-11.433
懈	-11.4331
中陰	-11.4331
』	-11.4335
讐	-11.4338
要假	-11.4338
與眾僧	-11.4338
若爾何故	-11.4341
十三日	-11.4341
一切功德	-11.4345
失不淨	-11.4348
善生經	-11.4348
勸修	-11.4351
語諸比丘言	-11.4352
三障	-11.4355
五識	-11.4357
下文云	-11.4357
辟支	-11.4358
不失衣界	-11.4359
有所須	-11.4361
五正食	-11.4361
吾祖	-11.4362
客作	-11.4362
下正釋	-11.4363
脩道	-11.4364
白佛結戒	-11.4364
大略	-11.4365
隨順行	-11.4367
機緣	-11.4368
出三界	-11.4368
豪	-11.4373
我昔	-11.4376
下音	-11.4376
令去	-11.4377
結業	-11.4377
願僧與我	-11.4378
一類	-11.438
摩訶迦葉	-11.4382
營作	-11.4384
貼	-11.4385
有怖	-11.4386
牟	-11.4387
并諸眷屬	-11.4388
毗婆沙	-11.4389
比丘尼義如上	-11.4389
一夏	-11.4389
木作	-11.439
師子吼	-11.439
飢餓	-11.4391
翻前	-11.4391
<	-11.4396
歇	-11.4396
釋迦如來	-11.44
親附	-11.4404
瓜	-11.4406
難思	-11.4407
見聞知	-11.4408
約教	-11.4409
時彼苾芻	-11.4409
願力	-11.4411
見好相	-11.4414
所傳	-11.4415
自讚	-11.4416
愛欲	-11.4418
受別請	-11.4418
開門	-11.4424
苾芻不應	-11.4426
阿耨多羅三藐三菩提	-11.4427
聖位	-11.4428
◎	-11.4429
母曰	-11.4434
之謂也	-11.4439
秉白	-11.4439
聲聞眾	-11.4439
戒本疏	-11.4443
婆羅痆斯	-11.4444
我當云何	-11.4447
生慚愧	-11.4452
說是戒經	-11.446
於三寶	-11.4461
到佛所	-11.4462
半月摩那埵	-11.4463
一吉	-11.4463
沐浴	-11.4463
夏衣	-11.4466
若不解	-11.4467
滑	-11.4468
之根本	-11.4469
述意	-11.4473
飄	-11.4475
耄	-11.4475
前人領解	-11.4476
沾	-11.448
必假	-11.448
酸	-11.4481
矜	-11.4481
象鼻	-11.4485
據理	-11.4487
異道	-11.4487
摩竭國	-11.4494
捉寶	-11.4494
▁九	-11.4497
疏鈔	-11.4497
二十年	-11.4499
亦失	-11.45
所應作	-11.4502
如昔	-11.4506
有六種	-11.4508
消息	-11.4509
戒緣中	-11.451
教誨	-11.451
牧	-11.4513
維摩	-11.4515
現在前	-11.4516
無量劫	-11.4517
從僧乞覆藏羯磨	-11.4517
有八種	-11.4519
造一切罪	-11.452
過罪	-11.4529
三賢	-11.4534
十界	-11.4535
斷惡	-11.4536
世尊以此因緣集比丘僧	-11.4538
終至	-11.4539
復有五種	-11.454
阿耨	-11.4542
兩班	-11.4542
於一切眾生	-11.4543
妄心	-11.4543
慈氏	-11.4547
祇文	-11.4548
眾鳥	-11.4548
眾學法	-11.455
大家	-11.455
剩	-11.4553
觀想	-11.4556
道器	-11.4557
卷第五	-11.4557
楗	-11.4558
畜眾	-11.4558
岳	-11.456
第三分	-11.4561
狂心	-11.4561
標示	-11.4561
疑不識	-11.4563
輕賤	-11.4563
卷下	-11.4565
塔物	-11.4571
佛未聽	-11.4577
道品	-11.4578
諸界	-11.458
入王宮	-11.4586
衣鉢等	-11.4588
別住人	-11.4596
為人所	-11.4597
卷第二十	-11.4597
大功德	-11.4598
誰諸長老	-11.4599
犯此罪	-11.46
正表	-11.4601
百八	-11.4606
無主物	-11.4606
宿食	-11.4606
如是思惟	-11.4608
沐	-11.4612
福利	-11.4612
舍宅	-11.4614
淨居天	-11.4614
停更望得	-11.4617
念曰	-11.4618
濯	-11.462
以十利故與比丘尼結戒	-11.462
法毗尼	-11.4622
巢	-11.4625
不發露	-11.4625
核	-11.4625
佛在舍衛城	-11.4628
廣誦	-11.463
鑽	-11.4631
無所得	-11.4634
語業	-11.4637
而不知	-11.464
引十誦	-11.4641
十七日	-11.4645
又無犯者	-11.4646
觀智	-11.4647
黑月	-11.4648
數數食	-11.4649
第二第三	-11.4649
慧心	-11.465
會通	-11.4652
諸比丘以是白佛	-11.4654
分衛	-11.4655
佛在世時	-11.4656
牒前	-11.4659
誦律	-11.4663
一丈	-11.4664
大喚	-11.4665
沙彌十戒	-11.4666
嫌言	-11.4673
寧可	-11.4675
彼宗	-11.468
僧伽應許僧伽今	-11.4684
犯緣此戒具足	-11.4685
是比丘應	-11.4687
入佛法	-11.4687
復次佛住舍衛城	-11.4687
▁初分文	-11.4688
二序事	-11.469
扣	-11.4691
尊貴	-11.4691
簷	-11.4695
數滿	-11.4695
共行弟子	-11.4696
未受具人	-11.4702
現前比尼	-11.4703
劒	-11.4705
解脫知見	-11.4706
效	-11.4709
引導	-11.4711
汝等莫	-11.4715
自作教人	-11.4716
諸雜	-11.4718
汙家	-11.4718
惱害	-11.4719
了達	-11.4728
交會	-11.4729
萬法	-11.473
高勝	-11.473
出家受具足	-11.4731
集諦	-11.4732
客僧	-11.4736
極少	-11.4742
僧祇支	-11.4745
家內	-11.4746
福報	-11.4747
任意	-11.4748
諸沙彌	-11.4754
戒本中	-11.4755
▁一心奉請	-11.4761
虛妄	-11.4763
憍陳如	-11.4764
位別	-11.4765
通利	-11.4765
聞此語已	-11.4766
引用	-11.4766
后	-11.4769
最為第一	-11.4769
怙	-11.4771
炤	-11.4771
教勅	-11.4774
相助	-11.4774
斷滅	-11.4775
生歡喜	-11.4776
無上道	-11.4778
修伽陀	-11.4778
所敬	-11.4779
開十日	-11.478
鍾	-11.4781
祕	-11.4782
不見擯	-11.4786
錢財	-11.4787
變成	-11.4787
聞疑	-11.4788
急施	-11.4788
來到	-11.4789
僧不差	-11.479
諸具壽	-11.4798
總相	-11.48
光照	-11.4801
來報	-11.4801
空理	-11.4804
為始	-11.4808
殺父母	-11.4811
依報	-11.4819
齊限	-11.4822
得安隱	-11.4822
且依	-11.4826
水器	-11.483
陶師	-11.4832
孔子	-11.4836
▁初牒章	-11.4838
下四句	-11.4838
飽足	-11.4838
大小行	-11.484
七眾同	-11.4842
復有五法	-11.4843
時諸比丘聞	-11.4843
惡心出佛身血	-11.4846
慈悲喜捨	-11.4847
汝何故	-11.4849
阿鼻地獄	-11.4849
杜	-11.4851
霧	-11.4852
觀音	-11.4852
綵	-11.4852
所屬	-11.4853
翳	-11.4855
五支	-11.4855
▁二五下	-11.4861
不得為說法	-11.4861
十發趣	-11.4862
欲害	-11.4866
下二衣	-11.4866
欲清淨	-11.4869
向外	-11.4871
衫	-11.4872
妄說	-11.4876
由延	-11.4877
譏呵言	-11.488
末後	-11.4881
有婆羅門	-11.4882
皈	-11.4883
時具壽	-11.4886
地敷	-11.4886
華嚴云	-11.4888
小房	-11.489
若過五錢	-11.4895
君子	-11.49
軍陣	-11.4905
十八界	-11.4905
持禁戒	-11.4907
文可解	-11.4918
五邪	-11.4919
剃除鬚髮	-11.4922
人現前	-11.4925
為防	-11.4925
手巾	-11.4925
印度	-11.4926
征	-11.4928
腦	-11.493
瓮	-11.4931
瑕	-11.4932
彌沙塞	-11.4935
勸受	-11.4935
泯	-11.4937
區	-11.494
不作擯	-11.4942
臆	-11.4944
▁二答	-11.4944
佛菩薩形像	-11.4945
離垢	-11.4945
瘥	-11.4947
無根謗	-11.4948
審諦	-11.4949
此律云	-11.4952
轉變	-11.4953
憂婆	-11.4954
殷勤	-11.4955
五十八	-11.4955
將護	-11.4959
優波	-11.4959
▁二引	-11.496
大小便處	-11.4963
甚多	-11.4965
所害	-11.4966
授受	-11.4968
傍人	-11.497
觀自在	-11.4972
斯則	-11.4974
四兵	-11.4976
而為出家	-11.4976
惑業	-11.4977
始得	-11.4986
寺門	-11.499
略釋	-11.4992
破羯磨僧	-11.4994
具修威儀	-11.4997
奪命	-11.4999
離染	-11.5
地藏	-11.5004
身亡	-11.5004
▁二僧下	-11.5004
群生	-11.5006
廣辨	-11.5006
惡邪	-11.5007
我等今	-11.5007
中路	-11.5008
正法久住	-11.5009
三羯磨竟	-11.501
佐助	-11.5012
拈	-11.5012
別諫	-11.5014
蟻子	-11.5016
較	-11.5017
吽	-11.5018
鑊	-11.502
柯	-11.5022
圓明	-11.5023
操	-11.5026
準上	-11.5026
唯有一	-11.5037
諮問	-11.5044
南北	-11.5047
辦種種	-11.5059
六欲天	-11.5065
正智	-11.5066
承上	-11.5066
諦觀	-11.5068
云何汝等	-11.5069
五十七	-11.5071
所語言	-11.5072
旗	-11.5072
幻化	-11.5072
種族	-11.5076
迦維羅衛	-11.5079
劫奪	-11.5082
殘罪	-11.5083
▁二此下	-11.5084
獷	-11.5084
結示	-11.5085
大仙	-11.5086
更無餘	-11.5086
時舍利弗	-11.5086
波羅奈	-11.509
經中說	-11.509
葦	-11.5091
檢校	-11.5092
地水火風	-11.5092
挍	-11.5093
芳	-11.5094
酢	-11.5094
迦提月	-11.5095
筏	-11.5098
乙	-11.5099
至于今日	-11.51
不識犯	-11.51
下次約	-11.51
急事	-11.5105
麴	-11.5106
和尚阿闍黎	-11.5107
摸	-11.5112
入白衣舍坐	-11.5113
菩薩藏	-11.5116
正翻	-11.5118
十迴向	-11.5121
是為五	-11.5125
十日內	-11.5128
五里	-11.5128
獨處	-11.513
一節	-11.513
縵衣	-11.513
離惡	-11.5131
勝劣	-11.5134
自下第二	-11.514
大力	-11.5141
放火	-11.5149
供僧	-11.516
狂人	-11.516
飢儉	-11.5163
為三寶	-11.5165
方廣	-11.5165
薦	-11.5165
窮盡	-11.517
讚嘆	-11.5171
入村乞食	-11.5176
猫	-11.5177
慈念	-11.5177
非時入聚落	-11.5178
嚮	-11.5178
半由旬	-11.5182
八支	-11.5183
掠	-11.5183
像前	-11.5184
例同	-11.5188
疋	-11.5191
不可盡	-11.5194
出家受戒	-11.5196
決通	-11.5199
梵行人	-11.5202
對一人	-11.5203
受籌	-11.5206
思惑	-11.5212
屏處坐	-11.5218
四十五	-11.5222
爾時長老	-11.5228
引僧祇	-11.523
終日	-11.5232
瞻病人	-11.5233
其福	-11.5237
六眾苾芻	-11.5241
漉水	-11.5242
酒色	-11.5244
宴	-11.5246
己身	-11.5246
窣堵波	-11.5248
曩	-11.5249
迭	-11.5251
褋	-11.5252
受殘食法	-11.5252
嚼齒木	-11.5253
得安樂住	-11.5254
目犍連	-11.5254
輸稅	-11.5254
峯	-11.5255
瓫	-11.5255
贈	-11.5257
發趣	-11.5264
陰陽	-11.5264
忻	-11.5265
壇場	-11.5266
有多種	-11.5266
緇	-11.5266
未證	-11.5267
爾時世尊告	-11.5269
長老一心念	-11.5271
合注	-11.5271
四人巳上	-11.5273
▁初標舉	-11.5275
聖智	-11.5277
進道	-11.5283
百一羯磨	-11.5288
當機	-11.5288
生年	-11.5294
前世	-11.5294
持淨戒	-11.5295
戒佛在舍衛	-11.5299
極小	-11.53
幾時	-11.5301
次列	-11.5304
曇摩	-11.5304
除疑	-11.5305
無村	-11.5309
麻衣	-11.5311
得須陀洹	-11.5318
成等正覺	-11.5318
不敢受	-11.532
懷憂	-11.5321
杖絡囊	-11.5324
布薩羯磨	-11.5325
畜寶	-11.5326
財施	-11.5328
從今日後不聽	-11.5329
不持戒	-11.5329
第十七	-11.533
駝	-11.5332
末利夫人	-11.5332
梳	-11.5333
不顧	-11.5333
非時藥	-11.5334
▁南無	-11.5334
軌範	-11.5334
竄	-11.5335
聞是語	-11.5335
繫心	-11.5335
腸	-11.5335
多美飲食	-11.5335
無量眾生	-11.5336
追悔	-11.5336
不消	-11.5337
糜	-11.5338
右脇	-11.534
閑靜	-11.5342
攻	-11.5342
不須更	-11.5343
故下文云	-11.5345
亦不成	-11.5348
四篇	-11.5348
麵	-11.5349
超越	-11.5349
有三義	-11.5349
勝鬘	-11.5351
美味	-11.5353
塵勞	-11.5353
覆不覆	-11.5356
財利	-11.5356
開許	-11.5359
金寶	-11.5367
無容	-11.5369
上半	-11.537
簡餘	-11.5372
損惱	-11.5372
則不爾	-11.5374
瑜伽論	-11.5375
二十九日	-11.5376
苦切	-11.5379
此癡人	-11.5381
捨威儀	-11.5397
呵責六群比丘	-11.5398
兜率	-11.54
道行時	-11.5404
官人	-11.5408
犯者突吉羅	-11.5413
四寸	-11.5414
有瘡	-11.5416
開悟	-11.5417
作務	-11.5417
貢高	-11.5421
性本	-11.5422
作白四羯磨	-11.5424
步步	-11.5424
洟唾	-11.5424
繡	-11.5425
天帝	-11.5428
吸	-11.5428
階降	-11.543
情懷	-11.543
護主	-11.5433
下引示	-11.5433
搜玄	-11.5433
閇	-11.5433
六十三步	-11.5434
生死海	-11.5435
二不定法	-11.5436
自作教他	-11.5437
火坑	-11.5438
現前毘尼	-11.5441
共鬪	-11.5445
摩夷	-11.5446
亦無犯	-11.5448
根塵	-11.545
至僧伽藍中	-11.545
獲大	-11.545
渡水	-11.5459
念誦	-11.546
猶故不	-11.5463
無利益	-11.5466
作隨意	-11.5467
中亦有	-11.547
諸比丘白佛言	-11.547
▁二十下	-11.547
持三衣	-11.5473
而白佛言	-11.5473
亦不能	-11.5474
持誦	-11.5474
於眾中	-11.5478
大集經	-11.5479
廣嚴城	-11.5486
簡別	-11.5487
作學家羯磨	-11.5487
釧	-11.5489
惡報	-11.5491
躄	-11.5492
狐	-11.5492
瞿曇彌	-11.5492
忿怒	-11.5493
齎	-11.5495
定力	-11.5496
出現於世	-11.5497
第七日	-11.5499
憫	-11.55
婆沙云	-11.5501
俱胝	-11.5501
諸居士呵責	-11.5502
澁	-11.5502
始知	-11.5503
以十利故與諸比丘	-11.5503
晦	-11.5506
秘	-11.5506
夏安居竟	-11.5507
義加	-11.5508
何處得	-11.5508
一月五月	-11.5509
斥古	-11.5509
生老病死	-11.551
兜率天	-11.551
律部	-11.5511
塊	-11.5512
酪漿	-11.5513
殷重	-11.5515
得阿羅漢果	-11.5515
在王舍城	-11.5517
鳴鐘	-11.5517
閣上	-11.5517
離見聞處	-11.5517
鉢多羅	-11.552
曾嫁	-11.552
個	-11.5526
興方便	-11.5526
於何處	-11.5527
婆論云	-11.5532
過去世	-11.5535
自今已去聽	-11.5537
著三衣	-11.5537
以無數方便呵責已	-11.5541
顯現	-11.5545
師子座	-11.5546
伽論云	-11.5548
無滯	-11.5548
妄計	-11.5554
內懷	-11.5562
作淨地	-11.5562
打破	-11.5563
四聖諦	-11.5564
十長養	-11.5565
出精	-11.5567
餘如上說	-11.5569
授人大戒	-11.557
留難	-11.5573
微笑	-11.5576
百七十	-11.5576
種種因緣訶責	-11.5579
僧尼同犯	-11.558
呼為	-11.5581
蹤	-11.5581
脣	-11.5582
隨瞋	-11.5584
勸信	-11.5586
不敢覆藏	-11.5586
拘薩羅國	-11.5588
下次釋	-11.5588
為賊所	-11.5588
毘舍	-11.5588
決疑	-11.5588
三眾突吉羅	-11.5589
出家學道	-11.559
儲	-11.5593
兆	-11.5593
傲	-11.5593
株	-11.5596
諷誦	-11.5596
有欲心	-11.5597
耎	-11.5598
翻經	-11.56
刀子	-11.56
簡擇	-11.5604
莫放逸	-11.5606
釋注	-11.5612
更乞	-11.5613
在家出家	-11.5615
呵責羯磨	-11.5615
四錢	-11.5617
隨癡	-11.562
十五種	-11.5622
長安	-11.5622
尊者阿難	-11.5625
獨頭	-11.5627
造罪	-11.563
作法界	-11.5633
犯四重	-11.5637
五緣成	-11.5638
攝衣界	-11.5644
毀謗	-11.5648
二三四	-11.5651
得具足戒	-11.5657
作大房	-11.5657
顏貌端正	-11.5658
狀如	-11.5659
受具戒時	-11.5661
曝	-11.5662
我今寧可	-11.5663
且就	-11.5663
畢陵伽婆蹉	-11.5663
乞食難得	-11.5664
祕密	-11.5666
非望而得	-11.5667
棘	-11.5667
有三品	-11.5671
資糧	-11.5673
隨怖	-11.5674
竿	-11.5675
迴僧物	-11.5675
著一處	-11.5677
矯	-11.5678
遮自恣	-11.5682
匪	-11.5683
受得戒	-11.5686
以刀	-11.5689
同活	-11.5692
嶺	-11.5692
迦葉佛時	-11.5697
作訶諫	-11.5701
遮止	-11.5703
汝等當知	-11.5704
四事供養	-11.5709
喚來	-11.5709
俗女	-11.5717
中文三	-11.5718
一者當	-11.572
所犯罪	-11.5721
七遍	-11.5726
六趣	-11.5728
僧中乞	-11.5738
羂	-11.5739
鐵鉢	-11.5739
汝等云何	-11.5739
商客	-11.574
不犯者最初未制戒等	-11.574
優婆私	-11.5742
根本說一切有部	-11.5743
二入文	-11.5746
引示	-11.5747
無妨處	-11.5747
毗婆尸	-11.5747
先世	-11.5748
散亂心	-11.5748
是中有比丘少欲知足行頭	-11.5749
無所有	-11.5749
艱	-11.575
䠒	-11.5752
鄔陀夷苾芻	-11.5752
奧	-11.5753
曼荼羅法	-11.5754
有七種	-11.5755
踈	-11.5757
當知是人	-11.5759
三十九夜	-11.5759
烈	-11.5761
翼	-11.5763
律師云	-11.5763
纖	-11.5764
擣	-11.5765
初舉略	-11.5765
二十五肘	-11.5765
好色	-11.5766
本部	-11.5766
並同前	-11.5767
而說偈言	-11.5767
七門	-11.5767
單白羯磨	-11.5768
至八月十五日	-11.577
對手	-11.5772
摩頂	-11.5776
隨一一	-11.5778
盡形壽藥	-11.5782
爛壞	-11.5784
衣鉢具足	-11.5784
實覓	-11.5787
不與汝	-11.5787
會採	-11.5788
南山云	-11.579
律宗	-11.5799
解擯	-11.5801
五法成就	-11.5803
為他所	-11.5803
生淨土	-11.5805
諸女人	-11.5807
腋下	-11.5807
大象	-11.5812
偷羅難陀	-11.5813
平聲	-11.5816
四人僧	-11.5819
上人法	-11.582
不悅	-11.5822
九百	-11.5824
和南	-11.5825
佛在給孤獨園	-11.5827
生熟	-11.5828
若得長利	-11.5829
踊	-11.5829
驛	-11.5829
以惡心故	-11.5837
作是思惟	-11.5837
帒	-11.5837
鍼筒	-11.5838
佛不聽	-11.5841
剃刀	-11.5842
五十五	-11.5842
効	-11.5843
諸龍	-11.5844
大小俱制	-11.5845
夾	-11.5845
悋	-11.5846
九十六種	-11.5846
諂曲	-11.5847
脈	-11.5848
得罪同前	-11.5848
誌	-11.5849
旬	-11.5849
喜悅	-11.585
五十六	-11.5851
譏訶	-11.5852
穀米	-11.5852
援	-11.5853
生厭	-11.5857
弘誓	-11.5859
船上	-11.586
奉教	-11.5862
犯二事	-11.5869
乾飯	-11.5869
寄衣	-11.587
相待	-11.5871
復有五	-11.5872
自性清淨	-11.5872
犯邊罪	-11.5873
瓦鉢	-11.5873
門戶	-11.588
▁初正	-11.5884
犯偷羅遮	-11.5892
惑盡	-11.5895
六品	-11.5896
不可悔	-11.5896
我今如是	-11.5898
毀破	-11.59
將軍	-11.59
施設	-11.59
夷殘	-11.5903
能造	-11.5907
耶輸伽	-11.5907
從僧伽乞	-11.5913
有信心	-11.5914
我今宜可	-11.5915
迦蘭陀	-11.5917
五十二	-11.5918
傘蓋	-11.592
崛	-11.5922
香水	-11.5922
誅	-11.5924
懶惰	-11.5925
得須陀洹果	-11.5928
應如法治	-11.593
吠	-11.5932
薩埵	-11.5932
鑿	-11.5932
濃	-11.5933
稠	-11.5937
塚	-11.5937
恐懼	-11.5938
抵	-11.5941
諸婆羅門	-11.5942
四十一	-11.5944
蜀	-11.5948
袖	-11.5949
最重	-11.5951
除因緣	-11.5953
▁二然下	-11.5955
見聞疑罪	-11.5956
鉢盂	-11.5959
若不得衣	-11.5963
觀看	-11.5966
來索	-11.5971
善見論	-11.5973
懺摩	-11.5975
畜生女	-11.5978
三十事	-11.598
花鬘	-11.5981
若下次明	-11.5982
正辨	-11.5987
根莖	-11.5991
議曰	-11.5991
結吉	-11.5992
方圓	-11.5997
塔廟	-11.5999
却坐一面	-11.6001
此等諸	-11.6001
阿育王	-11.6003
種種因緣訶已	-11.6007
皆爾	-11.6009
惡名流布	-11.601
乃至共畜生	-11.6012
八關齋	-11.6013
安穩	-11.6014
穀貴	-11.6015
燒煮覆障	-11.6015
品第二十	-11.6018
潮	-11.602
部別	-11.6021
成實論	-11.6026
憚	-11.6027
諸功德	-11.6028
止持作犯	-11.6033
我比丘尼某甲	-11.6041
薩婆多論	-11.6043
八百	-11.6049
眾法對首	-11.6051
應如是與	-11.6052
比丘住處	-11.6052
是名有犯	-11.6054
佛聽我	-11.6063
以神通力	-11.6066
初牒	-11.6067
卷第三	-11.607
師徒	-11.6075
病因緣	-11.6077
反上句是	-11.6081
在一面立	-11.6087
分為四	-11.6088
波利	-11.6089
却住一面	-11.609
趣涅槃	-11.609
何妨	-11.6091
勇健	-11.6091
不捨惡見	-11.6092
雁	-11.6095
勸喻	-11.6095
乘車	-11.6098
萬劫	-11.6099
舡	-11.6102
成辦	-11.6103
聊	-11.6103
私房	-11.6103
番羯磨	-11.6104
四無量心	-11.6105
遐	-11.6106
緯	-11.6109
努	-11.611
如來出世	-11.611
孝順父母	-11.6113
送與	-11.6114
涕	-11.6116
斷事人	-11.612
有三句	-11.612
圓寂	-11.6121
至明相出	-11.6122
夭	-11.6122
有染心	-11.6122
勞苦	-11.6124
減六年	-11.6125
作餘語	-11.6128
迦絺那	-11.6133
生天上	-11.6136
從初至	-11.6136
如比尼	-11.614
聽僧與	-11.614
明旦	-11.6141
惡馬	-11.6141
提吉	-11.6143
不得自在	-11.6153
若非衣	-11.6157
彰名	-11.6157
佛問比丘	-11.616
曾聞	-11.6162
張口	-11.6162
諦理	-11.6162
調戲	-11.6163
露坐	-11.6164
分段	-11.6164
未受大戒人	-11.6165
差互	-11.6169
行不淨行	-11.6169
與大比丘	-11.6173
▁二一下	-11.6173
極惡	-11.6173
門屋	-11.6179
妙果	-11.618
善賢	-11.6181
油塗	-11.6184
不能斷	-11.6186
證真	-11.6187
瞎	-11.6187
端坐	-11.6187
東南角	-11.6191
𦘕	-11.6195
俯	-11.6197
根本部	-11.6197
斷煩惱	-11.6197
廼	-11.6198
蠶綿	-11.6198
九十中	-11.6199
今問諸大德	-11.6199
游	-11.62
萎	-11.6203
展轉食	-11.6205
波利婆沙	-11.6205
結不失衣界	-11.6206
至二十	-11.6208
居止	-11.6215
諦視	-11.6217
樹木	-11.622
化制	-11.6222
阿那	-11.6228
百由旬	-11.6231
復白佛言	-11.624
騎	-11.625
方堪	-11.6254
勤學	-11.6255
九十六	-11.6257
躡前	-11.6262
離車	-11.6266
婿	-11.6269
佛在室羅伐城給孤獨園	-11.627
七年	-11.627
無諸難事	-11.6271
毀壞	-11.6274
給孤獨	-11.6275
押	-11.6276
阿僧祇劫	-11.6276
脹	-11.6279
疥	-11.6279
得免	-11.6281
郎	-11.6281
不得所望	-11.6282
莊嚴具	-11.6282
子孫	-11.6285
鹿苑	-11.6285
咨	-11.6287
僧與某甲比丘	-11.6287
慨	-11.629
魂	-11.6291
歎身	-11.6294
敏	-11.6295
腐	-11.6296
㝡	-11.6297
慰問	-11.6298
生善滅惡	-11.6299
三舉非結過	-11.6299
可呵	-11.63
木床	-11.6303
衲	-11.6306
若有犯者	-11.6306
劫初	-11.6314
獲福	-11.6314
請教授	-11.6316
親疎	-11.6318
受七日法	-11.6319
上下衣	-11.6321
阿僧祇	-11.6325
資財	-11.6326
有一居士	-11.6327
驅遣	-11.6328
生活	-11.6329
村間	-11.6335
犯不淨行	-11.6337
形俱	-11.6341
每於	-11.6341
捨棄	-11.6343
蘭吉	-11.6347
約界	-11.6348
供養眾僧	-11.6349
時諸比丘尼聞	-11.6352
宗親	-11.6353
記識	-11.6353
而說頌曰	-11.6354
制學處	-11.6358
土地	-11.6359
鄔波	-11.6363
衢	-11.6366
料	-11.6366
大姉僧聽	-11.6369
器盛	-11.6369
逼迫	-11.637
菴婆羅	-11.6371
慳惜	-11.6374
覆肩衣	-11.6376
繭	-11.6377
往大僧中	-11.6377
毗曇	-11.638
發大心	-11.638
波羅提木叉戒	-11.6381
奮	-11.6383
奚	-11.6383
國界	-11.6384
▁初正釋	-11.6385
鳴磬振鈴	-11.6385
五大色	-11.6386
拱	-11.6386
恠	-11.6389
噫	-11.639
謹當宣誦	-11.6392
異耳	-11.6392
我佛如來	-11.6396
□□□	-11.6397
九十九	-11.6401
出沒	-11.6403
云何名為	-11.6406
卷第二	-11.6407
臣曰	-11.6409
詐現	-11.6411
轉增	-11.6413
渡河	-11.6423
一切善法	-11.6429
畜長鉢	-11.6431
天人師	-11.6432
金剛手	-11.6434
舉例	-11.6436
自言我	-11.6437
華嚴經	-11.6443
本期	-11.6444
無生智	-11.6447
第十九	-11.6448
熙	-11.6458
無慚無愧	-11.6459
爾時婆伽婆在	-11.6461
三聚戒	-11.6461
遊行人間	-11.6461
十臘	-11.6463
蠅	-11.6463
旃	-11.6463
得生天上	-11.6464
暖	-11.6465
裘	-11.6466
盛水	-11.6469
兔	-11.6469
結蘭	-11.6469
如是至三	-11.647
蠲	-11.6471
諸蟲	-11.6472
指略	-11.6472
受持讀誦	-11.6474
在家二眾	-11.6474
偷羅難陀比丘尼	-11.6475
寶珠	-11.6477
手觸	-11.6477
賊盜	-11.6478
坐床	-11.648
凌	-11.648
荊	-11.6482
巳上論文	-11.6485
圓覺	-11.6485
。」)「	-11.6485
嫌責六群比丘	-11.6486
怨逼	-11.6486
樞	-11.6488
極樂	-11.6493
以此白佛	-11.6495
得成佛	-11.6495
顯露	-11.6497
▁二律下	-11.65
華香	-11.6503
下釋相	-11.651
吉罪	-11.6511
金輪	-11.6512
為利養	-11.6512
行舍羅	-11.6516
五百羅漢	-11.6519
財色	-11.6519
敬儀	-11.6523
營事比丘	-11.6527
之旨	-11.6528
色力	-11.6528
引多論	-11.6533
本座	-11.6534
動身口	-11.6536
西天	-11.6538
技	-11.6545
是迦留陀夷比丘	-11.6545
浣染擘	-11.6545
結跏趺坐	-11.6547
愛敬	-11.6547
撫尺云	-11.6551
篋	-11.6553
過五錢	-11.6554
撲	-11.6557
隨病食	-11.6557
前食後食	-11.6559
翁	-11.6561
極果	-11.6562
瑜伽云	-11.6563
粮	-11.6564
槩	-11.6565
▁丘	-11.6568
東北	-11.6568
一升	-11.6569
一切種智	-11.6571
泰	-11.6572
樣	-11.6572
!」「	-11.6575
臈	-11.6577
毘羅	-11.6579
貪求	-11.6579
漆	-11.658
成就五法	-11.6582
迦留	-11.6583
作何事	-11.6583
四姓	-11.6584
未許	-11.6584
僧巳與	-11.6587
十二種	-11.6588
非人畜生	-11.659
四十七	-11.6595
尼犍	-11.6597
右肩	-11.6598
作不見擯	-11.6598
青黃	-11.66
貯畜	-11.66
列示	-11.6609
譏呵	-11.661
十八種	-11.6613
減量	-11.6617
難調	-11.6618
敷僧臥具	-11.6621
不擇	-11.6623
退失	-11.6623
正月	-11.6624
塵境	-11.6629
兵眾	-11.663
經像	-11.6633
自敷	-11.6634
諭	-11.6646
各及眷屬	-11.665
□□□□□□□□□□□□	-11.665
材木	-11.665
菩提薩埵	-11.6651
般陀	-11.6651
二人俱	-11.6652
毗尼母云	-11.6652
陞	-11.6654
肯	-11.6655
波旬	-11.6656
叵	-11.6656
尸棄	-11.6658
今日道場同業大眾	-11.6659
沽酒	-11.6659
賦	-11.6659
䥫	-11.666
零	-11.666
寂然	-11.6663
下次示	-11.6663
豐樂	-11.6667
鉢囊	-11.6668
羈	-11.6668
秪	-11.6669
汝等實爾	-11.667
支節	-11.667
和泥	-11.6677
?』」	-11.6678
闍王	-11.6682
說偈言	-11.6683
所著衣	-11.6684
世出世間	-11.6685
慧眼	-11.6685
覆護	-11.6688
制不聽	-11.669
百萬	-11.6691
廣博	-11.6691
乃至十日	-11.6693
多羅樹	-11.6695
獲益	-11.6707
一拘盧舍	-11.671
隱顯	-11.6712
妻曰	-11.6722
無愧	-11.6723
不隨語者	-11.6726
迎逆	-11.6726
金口	-11.6728
而告曰	-11.6728
傘	-11.6733
佛在世	-11.6736
牆壁	-11.674
佛住王舍城	-11.674
之一字	-11.6741
瓨	-11.6742
遞相	-11.6743
自手受食	-11.6746
八十八	-11.6747
齧	-11.6748
篤	-11.6749
增戒學	-11.6749
遮不至白衣家羯磨	-11.675
跏趺	-11.675
紵	-11.6751
耐	-11.6752
佛性常住	-11.6754
好覆身	-11.6754
蒱	-11.6754
儼	-11.6755
啞	-11.6757
失依止	-11.6758
若眾多人	-11.6761
薩婆	-11.6762
與受具足	-11.6764
塗香	-11.6766
清眾	-11.6766
教授尼	-11.677
了別	-11.677
驅擯	-11.6772
本所受	-11.6774
五穀	-11.678
慎之	-11.6782
大智慧	-11.6783
車乘	-11.6786
婆沙論云	-11.6787
隔障	-11.6788
僧已忍與	-11.679
戒場上	-11.6791
豈唯	-11.6794
在阿蘭若	-11.6797
父子	-11.68
蘇摩	-11.6801
寄物	-11.6809
六羣比丘	-11.681
毒龍	-11.6812
此住處比丘	-11.6812
清淨持戒	-11.6818
終歸	-11.6819
三皈	-11.6822
如實知	-11.6824
我我所	-11.6827
未免	-11.6828
窣覩波	-11.6829
劫比羅城	-11.6829
雙結	-11.683
雹	-11.683
我今問汝	-11.6833
醎	-11.6838
依止舍衛城	-11.6838
調御	-11.684
僧坊內	-11.6844
秘密	-11.6846
默妄	-11.6846
遙擲	-11.6847
七滅諍	-11.6847
作如是事	-11.6848
罐	-11.6849
雀	-11.685
云二至	-11.6852
臭氣	-11.6853
集在一處	-11.6853
錯亂	-11.6855
棃	-11.6855
貪瞋	-11.6856
聲聞緣覺	-11.686
種種飲食	-11.6862
敗壞	-11.6865
十方常住	-11.6865
求寂女	-11.6866
卷第四	-11.6866
絮	-11.6867
若不故作	-11.6868
布薩自恣	-11.6877
晡時	-11.6878
嬉戲	-11.688
布薩說波羅提木叉	-11.6887
一百三十	-11.6889
羹飯	-11.6893
總攝	-11.6894
極苦	-11.69
良藥	-11.6901
在門外	-11.6902
注曰	-11.6902
肉眼	-11.6905
即說頌曰	-11.692
和上某甲	-11.6923
故有此	-11.6925
作婬欲	-11.6926
蹲踞	-11.6928
大自在	-11.6929
諸長老比丘聞	-11.6929
飢饉	-11.693
宗旨	-11.6931
與諸比丘結戒	-11.6931
十種衣	-11.6931
白王曰	-11.6932
不見言見	-11.6933
此是不共戒	-11.6933
以是義故	-11.6935
舐	-11.6937
廢立	-11.6939
警覺	-11.6939
愛盡	-11.694
摩揭陀國	-11.694
睒	-11.6941
鈸	-11.6943
長四肘	-11.6943
比丘尼亦如是	-11.6944
懶	-11.6944
拯	-11.6945
自思惟	-11.6945
茅	-11.6947
毗奈耶	-11.6948
昨日	-11.6949
而菩薩下	-11.6949
因是死	-11.6951
沙門喬答摩	-11.6951
種種不共住	-11.6952
誑惑	-11.6953
捉籌	-11.6956
八解脫	-11.6956
此戒體	-11.6956
猶豫	-11.6956
震旦	-11.6959
得道果	-11.6959
遺落	-11.696
獄卒	-11.696
二人三人	-11.6965
集僧已	-11.6965
若比丘受迦絺那衣	-11.6966
佛剎	-11.6968
著內衣	-11.6969
為我說	-11.6971
敷坐具	-11.6972
羅網	-11.6973
勸請	-11.6979
諸大姊	-11.6979
八齋	-11.698
於此住處	-11.6983
身肉	-11.6987
十月	-11.6988
比丘尼犯者	-11.6989
和合一處	-11.6996
謗他	-11.6997
積集	-11.6997
病患	-11.6998
三十篇	-11.7008
解大界	-11.7009
六十四	-11.7014
鬼畜	-11.7016
惡鬼	-11.7019
今正是時	-11.7019
4	-11.702
一月日	-11.702
今向大德	-11.7024
第二上座	-11.7024
乾闥婆	-11.7027
牢固	-11.7028
饌	-11.7029
釋提桓因	-11.703
鄙惡	-11.7031
鬧	-11.7032
匹	-11.7032
裁割	-11.7032
貧乏	-11.7034
兜	-11.7034
三千大千世界	-11.7035
犁	-11.7036
慈愍心	-11.7036
離婆多	-11.7036
蹉	-11.7036
因茲	-11.7037
鶴	-11.7038
告阿難陀曰	-11.704
肇	-11.704
生譏	-11.7043
律本云	-11.7044
開戶	-11.7044
探	-11.7044
皎	-11.7045
象牙	-11.7045
鹹	-11.7046
準律	-11.7047
英	-11.705
稱歎	-11.7052
五十三	-11.7052
是犯不	-11.7053
身口意業	-11.7054
一百一十	-11.7056
是障礙	-11.7056
衣架	-11.7057
形儀	-11.7058
王夫人	-11.7061
戒本四句	-11.7064
妄執	-11.7065
稱揚	-11.7067
教他作	-11.707
手摩	-11.7071
與受具足戒	-11.7072
佛祖	-11.7076
厭患	-11.7079
濟度	-11.7082
雜碎	-11.7086
入己	-11.7087
小軍	-11.7094
譏過	-11.7102
比丘𡰱	-11.7111
乃往古昔	-11.7113
大笑	-11.7113
第十八	-11.7116
浣故衣	-11.7116
有不驅者	-11.7116
頭面禮佛足	-11.7121
下總結	-11.7121
五百歲	-11.7122
我觀十利	-11.7123
寺外	-11.7123
闡那	-11.7126
十二日	-11.7128
膳	-11.713
蓮華臺藏世界	-11.713
自慶	-11.7131
摩摩帝	-11.7132
七月十六日	-11.7134
弊衣	-11.7134
白癩	-11.7135
真性	-11.7136
生生世世	-11.7137
夙	-11.7139
名捨迦絺那衣	-11.714
千萬	-11.7141
揮	-11.7144
壍	-11.7146
閡	-11.7148
衡	-11.715
如意足	-11.715
穆	-11.7152
趙	-11.7152
婆羅門種	-11.7154
垢穢	-11.7155
天祠	-11.7155
安詳	-11.7161
受依止	-11.7163
▁二問下	-11.717
引古	-11.7171
神通力	-11.7172
怨親	-11.7176
具述	-11.7193
遣去	-11.7194
過午	-11.7199
石室	-11.7199
段文	-11.7202
犯決斷	-11.7202
不懈	-11.7202
清白	-11.7202
指歸	-11.7204
生人天	-11.721
未生怨王	-11.7211
令諸眾生	-11.7211
自責汝心	-11.7213
通三性	-11.7217
草覆地	-11.7219
起迎	-11.722
7	-11.7222
鴈	-11.7222
解戒場	-11.7223
藪	-11.7224
感報	-11.7225
仇	-11.7228
糠	-11.7228
膿	-11.7231
彼於異時	-11.7233
黃金	-11.7234
擾亂	-11.7237
芥子	-11.7238
請世尊曰	-11.724
尋伺	-11.7241
徃	-11.7241
遜	-11.7243
春秋	-11.7245
我與汝	-11.7251
軌儀	-11.7255
棊	-11.7259
傷損	-11.7262
阿闍世	-11.7263
呂	-11.7264
尼同制	-11.7265
自煮	-11.7265
酒味	-11.7267
種善根	-11.7269
利刀	-11.727
七徧	-11.7274
甚難	-11.7275
親愛	-11.7275
慈濟	-11.7277
說戒自恣	-11.7277
列數	-11.7282
請喚	-11.7294
揩身	-11.7295
熏鉢	-11.7295
何者為	-11.7297
匝	-11.7303
寺沙門	-11.7306
劫比羅	-11.7307
死人衣	-11.7307
成論云	-11.7309
緊那羅	-11.7312
宮內	-11.7315
藥草	-11.7315
愍念	-11.7317
舁	-11.7318
凡情	-11.7318
般泥洹	-11.7322
跋陀羅	-11.7322
是沙彌戒	-11.7323
吐羅尼	-11.7327
大鈔云	-11.7331
祭祀	-11.7331
閻	-11.7334
松	-11.7335
啄	-11.7335
疲勞	-11.7337
香塗身	-11.7337
若故作者	-11.7338
舂	-11.7338
牢獄	-11.734
宛	-11.734
打罵	-11.7342
韻	-11.7343
撩	-11.7343
三十七品	-11.7343
更索	-11.7344
歡樂	-11.7344
啟白	-11.7352
經律論	-11.7358
諍競	-11.7359
生死苦	-11.7359
下三明	-11.736
母胎	-11.7363
嚴淨	-11.7364
大利益	-11.7364
至之者	-11.7364
不復更	-11.7366
不應與出家	-11.7367
聞此語	-11.7367
現前毗尼	-11.7377
放捨	-11.7388
教誡尼	-11.739
汝今可	-11.739
行波利婆沙	-11.7392
晡	-11.7392
共道行	-11.7392
增廣	-11.7395
東南	-11.7396
卷第一	-11.7397
自他俱	-11.74
動轉	-11.7402
語大愛道	-11.7407
鬚	-11.7407
若隨語者善	-11.7407
退坐一面	-11.7412
半擇迦	-11.7418
卷第三十	-11.7422
我將無得波羅夷	-11.7422
存念	-11.7426
醍	-11.7426
於人間數	-11.7427
筩	-11.7427
非菩薩行	-11.7428
觀世音	-11.743
不教人舉	-11.7436
能仁	-11.7436
滿二十歲	-11.7437
姉妹	-11.7437
灑掃	-11.7438
孟	-11.7439
䞋	-11.744
闢	-11.7442
窺	-11.7442
苾芻尼僧伽	-11.7443
長五肘	-11.7446
悲泣	-11.7447
仍須	-11.7449
栖	-11.745
可捨此事	-11.745
作持止犯	-11.7451
弃	-11.7452
被差	-11.7453
終身藥	-11.7454
擲石	-11.7455
件	-11.7455
恩德	-11.7455
過咎	-11.7457
與授具足戒	-11.746
水精	-11.7471
減少	-11.7473
和會	-11.7476
說四依	-11.7477
居士舍	-11.748
二部僧中	-11.7485
別眾羯磨	-11.7489
習近	-11.7492
恒河	-11.7492
咸共	-11.7493
舊住比丘	-11.7497
諸病比丘	-11.7509
龍女	-11.7514
娠	-11.7515
是我所	-11.752
無量百千	-11.7525
敬心奉持	-11.7528
歡喜奉行	-11.7533
乾痟	-11.7534
羅閱祇	-11.7535
阿彌陀佛	-11.7538
牛屎	-11.7539
腰帶	-11.7539
大梵天王	-11.754
甕	-11.754
云四至	-11.7542
罕	-11.7543
妨廢	-11.7543
刊	-11.7544
弊惡	-11.7544
非法非律	-11.7545
湛然	-11.7545
樹根	-11.7547
法華經	-11.755
南洲	-11.7553
不生不滅	-11.7553
停息	-11.7554
持戒清淨	-11.7555
誦呪	-11.7556
心生歡喜	-11.7556
城邑聚落	-11.7558
五篇戒	-11.756
香湯	-11.7562
九十事	-11.7572
作舉羯磨	-11.7573
貴價衣	-11.7573
時世尊以無數方便呵責	-11.7576
稟性	-11.7577
城外	-11.7585
臥床	-11.7587
盂	-11.7588
佛圖	-11.7589
出家為道	-11.7593
萬德	-11.7597
同遵	-11.7598
為我說法	-11.7598
飽食	-11.7608
冬分	-11.7611
薩婆若	-11.7615
頂禮雙足	-11.7616
𢦶	-11.7618
是中盡形壽不得犯	-11.7622
菴沒羅	-11.7622
初制意者	-11.7626
汝某甲聽	-11.7627
同制同學	-11.7627
或時有如是病	-11.7627
懷妊	-11.7627
僧中唱	-11.763
知而妄語	-11.7631
能變形	-11.7632
為世人所譏	-11.7633
引五分	-11.7636
風病	-11.7637
優鉢羅	-11.7637
下意羯磨	-11.7638
悲愍	-11.7638
高聲大喚	-11.7638
摩訶男	-11.7638
儐	-11.7639
羺	-11.764
形貌	-11.7643
餐	-11.7643
蔗	-11.7645
喉	-11.7646
貪嗔癡	-11.7648
衍	-11.7651
几	-11.7654
右邊	-11.7656
屏覆	-11.7657
有難緣	-11.7658
達磨	-11.7661
被褥	-11.7663
四分戒本	-11.7668
烏鳥	-11.7669
作佛事	-11.7669
苾芻以緣白佛	-11.767
足食巳	-11.7671
與出罪	-11.7672
從此巳下	-11.7672
諸商人	-11.7673
敷設	-11.769
迷惑	-11.7691
文義俱	-11.7699
得漏盡	-11.77
愛染	-11.771
敷坐	-11.7713
自為巳	-11.7724
生嫌賤	-11.773
壯士	-11.773
與六夜摩那埵	-11.7731
鬪諍相言	-11.7731
孤獨	-11.7734
不苦不樂	-11.7735
善好有德	-11.7736
他勝處法	-11.7737
養育	-11.7738
袒	-11.774
兜羅	-11.774
筵	-11.7741
五百問事云	-11.7741
那含	-11.7742
右繞	-11.7743
委寄	-11.7745
依教奉行	-11.7751
▁二所下	-11.7752
父母師長	-11.7754
豐足	-11.7758
淨洗手	-11.7758
凍	-11.7759
增養	-11.7759
武帝	-11.7759
萬境	-11.776
萬億	-11.7762
作坑	-11.7762
眼根	-11.7765
白時到	-11.7766
麤惡語	-11.7768
式叉尼	-11.7772
得新衣	-11.7773
摩得勒伽	-11.7776
春冬	-11.778
已從僧乞	-11.7781
謗毀	-11.7783
縫衣	-11.7795
看視	-11.7799
比丘六夜摩那埵	-11.7805
犯小罪	-11.7805
一切世界	-11.781
感果	-11.7813
有何過	-11.7813
摩哂陀	-11.7818
毗羅	-11.7818
利益眾生	-11.7827
犯某僧殘罪	-11.7828
佛世尊遊舍衛國祇樹給孤獨園	-11.7833
鄔波斯迦	-11.7836
狂亂	-11.7837
娛	-11.7838
總收	-11.7841
刷	-11.7841
腕	-11.7844
廊	-11.7844
詣餘家	-11.7845
是故世尊說	-11.7845
憒	-11.7846
六尺	-11.7847
解其義	-11.7849
餘食法	-11.7849
呾	-11.7849
㝹	-11.7849
捷	-11.785
讒	-11.785
此苾芻某甲	-11.785
瞋怒	-11.7852
瞻仰	-11.7853
師範	-11.7853
杌	-11.7854
媿	-11.7854
作留難	-11.7857
眾僧和合	-11.7859
來詣佛所	-11.7864
鑑	-11.7864
標宗	-11.7869
鬪戰	-11.787
薀	-11.7874
銅錢	-11.7877
以盜心取	-11.7877
有如是病	-11.7878
領解	-11.788
佛默然受	-11.7882
破戒之人	-11.7883
牀座	-11.7884
僧次請	-11.7886
著口中	-11.7888
善生經云	-11.7893
恐畏	-11.7894
咸悉	-11.7905
犯突吉羅罪	-11.7907
輕偷蘭	-11.7907
與摩那埵	-11.791
上二句明	-11.7912
至八月	-11.7914
無間業	-11.7918
二眾生想	-11.7919
愛憎	-11.7921
三歸五戒	-11.7924
不退轉	-11.7927
一切賢聖	-11.7928
作呵責羯磨	-11.793
影勝王	-11.7933
含識	-11.7942
有所違越	-11.7942
波利迦羅	-11.7948
誰諸大姊忍僧	-11.7948
崖	-11.795
車匿	-11.7953
邁	-11.7953
自利利他	-11.7954
遘	-11.7954
欄	-11.7954
骸	-11.7955
廣三肘	-11.7955
白一羯磨	-11.7958
悶絕	-11.796
兜羅綿	-11.796
給孤獨長者	-11.7962
惛	-11.7963
呵不止	-11.7964
壺	-11.7965
享	-11.7968
行摩那埵竟	-11.797
開章	-11.7974
決擇	-11.7975
娜	-11.7977
瓔珞經云	-11.7978
辦具	-11.7979
惡罵	-11.7985
呵罵	-11.7989
長阿含	-11.7991
非親里尼	-11.7993
華嚴經云	-11.7998
神州	-11.8
支提	-11.8001
占相	-11.8003
黃色	-11.8004
准多論	-11.8012
露現	-11.8018
杖頭	-11.802
摩得勒伽云	-11.8025
說法要	-11.8028
於我所	-11.8047
下二句明	-11.8047
有驅者	-11.8049
第五句	-11.805
阿㝹	-11.8051
戒經中來	-11.8056
窓	-11.8056
漲	-11.8058
道路不疲	-11.8059
漁	-11.806
麁語	-11.806
綱目	-11.806
煞盜	-11.8061
繫閉	-11.8061
並餘四眾	-11.8062
五百金錢	-11.8063
匱	-11.8063
於後時	-11.8064
鑷	-11.8064
憍奢耶	-11.8068
佉闍尼	-11.8069
故所以制	-11.8072
和上闍梨	-11.8072
挾	-11.8072
八寸	-11.8079
作羯磨說戒	-11.8079
前文復二	-11.808
皆得惡作	-11.808
遊方	-11.8082
質直	-11.8087
卷第六	-11.8091
苦切羯磨	-11.8093
退沒	-11.8093
虛實	-11.8094
皆悉懺悔	-11.81
織師織	-11.81
種植	-11.8102
佛語阿難	-11.8106
普照	-11.8106
助表	-11.8117
是我世尊	-11.812
諸眷屬	-11.8121
初句可知	-11.8128
赤白	-11.8129
不癡毗尼	-11.8148
及摩那埵本日治羯磨	-11.8149
復有二見	-11.815
觀軍	-11.8155
恩愛	-11.8158
誑他	-11.8158
逃走	-11.8159
受過七日法	-11.816
九十八	-11.816
戶鑰	-11.8162
有知男子	-11.8166
醜陋	-11.8168
嬾	-11.8168
銘	-11.8171
獨宿	-11.8173
得越毘尼罪	-11.8174
灾	-11.8174
恒河沙	-11.8174
尼拘律	-11.8176
聞磬聲	-11.8177
愽	-11.8177
枷	-11.8177
桑	-11.8179
灼	-11.818
皂	-11.818
揩摩	-11.8182
無餘涅槃	-11.8182
寒暑	-11.8183
殆	-11.8185
東晉	-11.8188
著肩上	-11.8189
高僧傳	-11.819
貞觀	-11.8191
短命	-11.8192
招提	-11.8193
無障礙	-11.8202
諸根不具	-11.8205
即說偈言	-11.8207
難消	-11.8211
修善法	-11.8213
求哀	-11.8219
千華	-11.8225
床脚	-11.8229
二十五條	-11.823
居士居士婦	-11.8238
恐濫	-11.824
節量	-11.8247
鑰	-11.8259
│	-11.8262
勤精進	-11.8267
緣在室羅伐城	-11.8273
此壞敗人	-11.8274
諸釋種	-11.8274
瓔	-11.8274
八十種好	-11.8277
年老	-11.8279
猪狗	-11.8279
曷	-11.8284
本源心地	-11.8286
毛孔	-11.8289
阿毗達磨	-11.8291
罽	-11.8294
舛	-11.8295
不攝耳	-11.8297
衣已竟	-11.83
伊羅	-11.83
機宜	-11.8303
何勞	-11.8306
愛惜	-11.8306
元年	-11.8313
從他受	-11.8315
老母	-11.8323
禪思	-11.8323
結輕垢	-11.8326
具五緣	-11.833
能令眾生	-11.8331
何益	-11.8338
貪嗔	-11.8357
幡蓋	-11.8365
▁三若下	-11.8365
限約	-11.8368
於異時	-11.8369
決了	-11.8372
山頂	-11.8373
跋耆	-11.8375
當應量作	-11.838
樵	-11.8383
鳴槌	-11.8386
佛因制戒	-11.8387
思議	-11.8388
橋梁	-11.8392
冊	-11.8393
澡罐	-11.8395
一心和合僧	-11.8397
瀆	-11.8398
褁	-11.8399
若得衣者	-11.84
吏	-11.8401
禦	-11.8402
咽喉	-11.8402
戒本五句	-11.8404
常途	-11.8409
寺舍	-11.8411
今為諸比丘結戒	-11.8414
純白	-11.8415
無生忍	-11.8416
調和	-11.8424
搖頭	-11.8427
觀軍陣	-11.8427
與看病人	-11.8432
功力	-11.8434
五月一日	-11.8436
加口法	-11.8444
十六句	-11.8447
世尊無數方便	-11.8451
駈出	-11.8453
雜碎戒	-11.8455
無別體	-11.8459
什師	-11.8465
華梵	-11.847
鄔波離請世尊曰	-11.8473
西南	-11.8474
坐道場	-11.8479
給孤長者	-11.8485
樹林	-11.8485
無此理	-11.8491
豈異人乎	-11.8493
怡	-11.8495
作新敷具	-11.8498
尺量	-11.8498
牽挽	-11.8498
以十利故與比丘結戒	-11.8499
盞	-11.85
副	-11.8501
姚秦	-11.8501
非有非無	-11.8501
憶識	-11.8502
倡	-11.8502
拘留孫	-11.8504
淹	-11.8504
更犯重罪	-11.8504
打揵椎	-11.8505
儔	-11.8505
禮三拜	-11.8506
芻	-11.8506
頗梨	-11.8506
墓	-11.8506
今解不然	-11.8509
無上士	-11.851
朋友	-11.851
象力	-11.8512
迅	-11.8514
蠱	-11.8519
祇支	-11.8519
章疏	-11.852
指甲	-11.852
摩訶僧祇律	-11.8521
褒	-11.8522
佳	-11.8522
違佛制	-11.8524
捉杖	-11.8525
或命難	-11.8532
年月日	-11.8532
此某甲比丘尼	-11.8533
名譽	-11.8547
云問至	-11.8556
兇	-11.8568
二十億	-11.8569
鉢底	-11.857
菩薩大戒	-11.8574
遣書	-11.8579
下次引	-11.8579
老少	-11.858
火聚	-11.8586
敬順	-11.8588
可知矣	-11.8595
驅使	-11.8597
給孤獨園	-11.8606
不惜身命	-11.8607
贍部	-11.8608
擿	-11.8608
破沙門法	-11.8609
怱	-11.8609
調弄	-11.8611
婆伽婆	-11.8611
歸依佛法僧	-11.8611
離聞處	-11.8611
𢷤	-11.8615
鉾	-11.8616
惻	-11.8618
●	-11.8621
奇特	-11.8621
獎	-11.8621
辜	-11.8622
醫師	-11.8623
醫王	-11.8625
佛為結戒	-11.8625
棲	-11.8626
性遮二業	-11.8626
秀	-11.8626
亭	-11.8627
三衣鉢具	-11.8627
刳	-11.8628
屢	-11.8629
信敬心	-11.8629
三十捨墮	-11.8629
鄭	-11.8631
裔	-11.8631
十二句	-11.8632
侮	-11.8634
䑛	-11.8634
題目	-11.8638
所及處	-11.8643
得阿耨多羅三藐三菩提	-11.8645
不應戒行	-11.865
國王大臣	-11.8652
三月夏安居	-11.8656
戶外	-11.8659
犯突	-11.8663
樹枝	-11.8666
乞詞	-11.8672
作白羯磨	-11.8673
勤苦	-11.8675
雜含	-11.8683
左邊	-11.8684
從今日聽	-11.8699
速疾	-11.8702
年月	-11.8703
波羅痆斯	-11.8705
皮革	-11.8712
行六夜摩那埵竟	-11.8712
優波離問佛	-11.8712
受作功德衣	-11.8714
一心頂禮	-11.8722
願大德為我作	-11.8723
如是世尊與比丘結戒	-11.8724
未藏寶	-11.8726
常樂我淨	-11.8727
帔	-11.8729
阿闍棃	-11.8729
三聚淨戒	-11.873
偷蘭難陀	-11.8731
不受後有	-11.8731
不見不聞	-11.8731
珂	-11.8732
三二一	-11.8732
謁	-11.8733
襆	-11.8736
▁二犯緣	-11.8736
脉	-11.8737
斜	-11.8737
是名為犯眾多犯	-11.8738
愚路	-11.874
從佛聞	-11.874
餘四眾	-11.874
廬	-11.8741
糞穢	-11.8741
▁二文下	-11.8742
篇第十	-11.8744
串	-11.8745
皇帝	-11.8747
蹔	-11.8749
無礙智	-11.8756
除貿易	-11.8756
佛像前	-11.8756
杜多	-11.8761
參禪	-11.8764
厭惡	-11.8768
欲破和合僧	-11.8768
作禮三拜	-11.8769
園田	-11.8774
騎乘	-11.8776
墮惡趣	-11.8779
共鬪諍	-11.8781
貧苦	-11.8786
大迦攝波	-11.8795
無量壽	-11.8806
香氣	-11.8815
五綴	-11.8816
一是眾生	-11.8817
出功德衣	-11.8821
憍薩羅	-11.8826
周徧	-11.8828
痔	-11.8829
咸得惡作	-11.883
煮燒覆	-11.8837
犢	-11.8841
年未滿二十	-11.8842
身壞命終	-11.8842
形勢	-11.8843
缾	-11.8844
狐疑	-11.8845
萬年	-11.8846
床榻	-11.8847
謦欬	-11.8847
攝眾生戒	-11.8848
襞	-11.8849
程	-11.8849
申手內	-11.885
旱	-11.8851
見言不見	-11.8852
除增上慢	-11.8854
寅	-11.8855
過三夜	-11.8856
□□□□	-11.8856
猷	-11.8857
若不許者	-11.8858
卓	-11.8858
盥	-11.8858
曹魏	-11.886
毀禁	-11.8861
人非人想	-11.8861
十二頭陀	-11.8863
飛鳥	-11.8865
古記	-11.8867
非想非非想	-11.8873
羅什	-11.8873
逗	-11.8876
卷第七	-11.8881
羮飯	-11.8884
無涯	-11.8887
說法示教利喜	-11.8891
皮肉	-11.8893
九十一劫	-11.8894
外典	-11.8899
學無學	-11.8901
我某甲比丘尼	-11.8914
無有慚愧	-11.8915
色陰	-11.8921
訶諫	-11.8923
始末	-11.8923
不自舉	-11.8928
舶	-11.8942
手捉衣	-11.8946
餘四眾突吉羅	-11.895
餉	-11.8952
是染違犯	-11.8952
顏貌	-11.8954
弶	-11.8954
於意云何	-11.8956
0	-11.8956
我苾芻某甲	-11.8956
若遣與人	-11.8956
除時因緣	-11.8958
行覆藏竟	-11.8962
踰繕那	-11.8963
水陸道斷	-11.8964
自今已去當如是說	-11.8965
宵	-11.8966
熈	-11.8966
湛	-11.8967
園民	-11.8967
佛告目連	-11.8968
偃	-11.897
跋陀	-11.8971
囑累	-11.8976
嬰兒	-11.8978
廓	-11.8979
紊	-11.8979
五月十六日	-11.8979
薩婆多部	-11.8981
如草覆地	-11.8983
綾	-11.8983
毒害	-11.8983
曇無德部	-11.8983
求雨浴衣	-11.899
九旬	-11.8992
縱橫	-11.8993
衣纏頸	-11.8993
麤細	-11.8996
尸利	-11.9
有一婆羅門	-11.9007
東夏	-11.9011
調順	-11.9012
寧容	-11.9017
知友	-11.902
諸比丘聞已	-11.9025
受三歸五戒	-11.9027
滿十歲	-11.9033
一百八十	-11.9038
刀劍	-11.905
謹慎	-11.9051
行遍住	-11.9063
所作已辦	-11.9064
旃檀	-11.9075
妓	-11.9077
三菩伽	-11.9078
頭面作禮	-11.9078
破內外道	-11.9081
阿梨吒	-11.9081
慇重	-11.9082
嗢	-11.9083
白鑞	-11.9085
生敬信	-11.9086
弭	-11.9088
飜	-11.9089
斟酌	-11.909
埿	-11.909
喝	-11.909
受戒犍度	-11.9091
用出家受戒	-11.9091
北洲	-11.9093
垣	-11.9093
姬周	-11.9094
纏縛	-11.9095
膊	-11.9096
阿那含果	-11.9096
圭	-11.9097
措	-11.9098
逕宿	-11.9099
慚恥	-11.9103
展轉相教	-11.9105
立大小便	-11.9106
思擇	-11.9109
世出世	-11.9109
夏四月	-11.9112
五六語	-11.9113
右旋	-11.912
屍林	-11.9121
最尊	-11.9148
律語比丘	-11.9149
染汙心	-11.9157
犯提罪	-11.9162
看守	-11.9163
受我請	-11.9164
別緣具四	-11.9166
育王	-11.9168
肘量	-11.9169
尚書	-11.9175
何因緣故	-11.9179
寡婦	-11.9181
為二初	-11.9182
孩	-11.9183
僧應分	-11.9189
市肆	-11.9195
庫司	-11.9196
躍	-11.9197
從非親里居士	-11.9199
佛在室羅伐城逝多林給孤獨園	-11.92
梐	-11.9201
企	-11.9203
唼	-11.9203
春夏冬	-11.9204
其事實爾	-11.9204
為飲食故	-11.9204
水所漂	-11.9205
殞	-11.9205
摩訶衍	-11.9208
鼎	-11.9208
溪	-11.9209
蕪	-11.921
剏	-11.9214
險難	-11.9216
玩	-11.9217
五篇七聚	-11.9217
違教結罪	-11.9219
䟦闍	-11.922
煩惑	-11.9222
當先白師	-11.9225
姚	-11.9225
畵	-11.9228
好醜	-11.9229
善惡業	-11.9233
真偽	-11.9236
顯揚	-11.9253
逆順	-11.9259
居士婦乞衣	-11.9259
東土	-11.9259
說此偈	-11.9265
佛告阿難陀	-11.93
招提僧	-11.93
疑不敢	-11.9303
丈六	-11.9305
波羅㮈	-11.9309
於日初分	-11.9317
輕慢佛語	-11.9319
七日服	-11.9319
滿十二歲	-11.932
見聞觸知	-11.9321
依止舍衛城住者皆悉令集	-11.9321
呼六群比丘來	-11.9322
吟	-11.9323
涅	-11.9324
失譯人名	-11.9324
鉛錫	-11.9324
振動	-11.9325
庠	-11.9326
芻摩	-11.9326
證阿羅漢果	-11.9327
依閏	-11.9328
惟願不違本誓	-11.9328
百里千里	-11.9328
浸	-11.9329
迸	-11.933
減五綴	-11.9331
勳	-11.9332
檀尼迦	-11.9332
國王王子	-11.9333
髑髏	-11.9333
疆	-11.9333
檀波羅蜜	-11.9333
此是遮業	-11.9334
元魏	-11.9336
校量	-11.9337
凉	-11.9338
刪補	-11.9339
攝律儀戒	-11.9339
卷第八	-11.934
左臂	-11.9341
振手	-11.9341
某姓	-11.9342
▁二次下	-11.9344
二道合	-11.9352
灰土	-11.9352
白二差	-11.9354
弁	-11.9355
唐三藏	-11.9356
文可見	-11.936
三諫不捨	-11.9364
路糧	-11.9364
過二夜	-11.9366
神廟	-11.9368
雙牒	-11.9369
如是我聞	-11.9369
池邊	-11.9374
亡人物	-11.9377
釋氏	-11.9378
佛所制	-11.9381
拘盧舍	-11.9387
白三羯磨	-11.9389
計錢	-11.9391
諍事滅	-11.9396
至王所	-11.9428
守門者	-11.9436
為諸苾芻制其學處	-11.9436
美飲食	-11.9438
尨	-11.9438
草布地	-11.9438
懊惱	-11.944
妊	-11.944
帀	-11.944
阿摩勒	-11.9442
辦衣價	-11.9444
囊盛	-11.9444
令捨是事	-11.9448
呵嘖	-11.9449
爰	-11.945
慘	-11.9454
徙	-11.9456
妖	-11.9457
咽咽波逸提	-11.9457
無數劫	-11.9457
斷人命	-11.9459
莎伽陀	-11.9459
啖	-11.9459
不與而取	-11.946
共相問訊	-11.946
糟	-11.9461
三諫不止	-11.9462
靜默	-11.9462
饑渴	-11.9463
鴦	-11.9464
釆	-11.9464
床席	-11.9465
戚	-11.9466
慾	-11.9466
敦	-11.9471
無瑕	-11.9476
在不淨地	-11.9478
法說非法	-11.948
茶湯	-11.9485
諸大德是中清淨	-11.9486
一面坐	-11.9491
期限	-11.9493
若先不知	-11.9493
多人中三諫	-11.9498
譏謗	-11.9502
舍夷	-11.9504
怖懼	-11.9527
形露	-11.953
怨賊	-11.9533
引文證	-11.9547
諸比丘往白佛	-11.9549
希奇	-11.9561
犯重垢罪	-11.9561
劬	-11.9562
大小乘俱制	-11.9566
由其默然故	-11.9569
▁初總示	-11.957
虛誑	-11.957
無違犯者	-11.9571
癰疽	-11.9571
燈燭	-11.9572
蔔	-11.9576
捻	-11.9576
已下正明戒本	-11.9577
派	-11.9579
雲棲	-11.958
彫	-11.958
穌	-11.9581
底沙	-11.9582
奪三十五事	-11.9582
出入息	-11.9582
愚夫	-11.9583
搖動	-11.9584
阿含經云	-11.9584
虗誑	-11.9585
棒	-11.9586
牛驢	-11.9586
洋	-11.9587
詺	-11.9588
黑闇	-11.9589
淮	-11.9589
弟子制其學處	-11.9594
無厭足	-11.9595
禾	-11.9595
打拍	-11.9595
拘睒彌國	-11.9596
利益安樂	-11.9596
歷代	-11.9598
色無色	-11.9601
市易	-11.9602
良久	-11.9606
打鐘	-11.9613
禮世尊足	-11.9615
修諸善	-11.9616
簡濫	-11.9625
此等皆	-11.9628
」。)	-11.9633
十三條	-11.9648
俗士	-11.9652
帥	-11.9677
即我身是	-11.968
天竺國	-11.9685
匁	-11.9688
著入聚落衣	-11.9689
▁初戒緣	-11.9689
携	-11.9691
可信優婆夷	-11.9694
路逢	-11.9694
屬和上尼羯磨	-11.9695
旅	-11.9696
不可以是長養善法	-11.9697
天龍八部	-11.9697
他化自在天	-11.9697
若不即死	-11.9698
庵	-11.9698
輻	-11.9698
信樂受持	-11.9699
威儀庠序	-11.9699
歛	-11.9699
娑婆訶	-11.9701
於此城中	-11.9702
寤	-11.9702
復有二法	-11.9705
別經名	-11.9707
沙糖	-11.9708
斑	-11.9709
邦	-11.9709
皈依	-11.9709
粗惡	-11.9709
嗚呼	-11.9709
算數	-11.971
婆娑	-11.9712
棄擲	-11.9713
尺二寸	-11.9713
獅子	-11.9714
無色定	-11.9714
亘	-11.9719
和尚闍梨	-11.972
語居士言	-11.9724
目錄	-11.9728
故須聖制	-11.9728
水漂	-11.973
不受法比丘	-11.973
有異住處	-11.9732
暴惡	-11.9739
無作戒體	-11.974
方便救護	-11.9741
兩膝	-11.9755
向暮	-11.9761
撰述	-11.9763
尊者舍利弗	-11.9777
宿煑	-11.9783
十三僧殘	-11.9815
指授處所	-11.9815
從今已後	-11.9815
忉利	-11.9817
同一住處同一說戒	-11.9817
以是因緣具白世尊	-11.9823
若放恣諸根	-11.9824
牻	-11.9824
耶輸陀羅	-11.9825
壘	-11.9826
汝等諦聽	-11.9827
廉	-11.9828
知水有蟲	-11.9828
宅舍	-11.9829
碧	-11.9829
佛未聽我等	-11.9832
慼	-11.9832
新受戒比丘	-11.9835
稽留	-11.9835
佛性種子	-11.9836
泥塗	-11.9837
與波利婆沙	-11.9837
未受具戒者	-11.9838
恡	-11.9839
貧賤	-11.984
播	-11.9841
嚫	-11.9842
如之何	-11.9844
概	-11.9845
繩牀	-11.9849
褻	-11.9851
訃	-11.9853
所須之物	-11.9857
讚美	-11.9857
髮爪	-11.9858
花嚴	-11.987
甚麼	-11.9872
北天竺	-11.99
高床	-11.9909
喬答彌	-11.9944
是中量者	-11.9945
心地法門品	-11.9945
若諸菩薩安住菩薩淨戒律儀	-11.9947
食前食後	-11.9948
昨夜	-11.995
守門人	-11.9951
眼見耳不聞處	-11.9952
尸叉罽賴尼	-11.9953
愁惱	-11.9953
水中戲	-11.9954
畜眾羯磨	-11.9955
惡心瞋心	-11.9956
氈褥	-11.9958
罽賓	-11.9959
臼	-11.996
為比丘尼僧故	-11.996
遽	-11.9962
諸長老比丘尼聞	-11.9962
漉囊	-11.9963
苫	-11.9963
魅	-11.9965
合掌恭敬	-11.9965
估	-11.9966
釀	-11.9967
灌鼻	-11.9967
無分別智	-11.9967
祠祀	-11.9969
妓樂	-11.9971
鴻	-11.9971
並皆無犯	-11.9973
即其義也	-11.9975
譬如有人	-11.9977
為菩薩時	-11.998
濾水	-11.9985
㒵	-11.9986
綱領	-11.9987
療治	-12.0007
瓦器	-12.0015
會採僧祗	-12.0027
行惡行亦見亦聞	-12.0074
我捨佛	-12.0077
鍛	-12.0077
發歡喜心	-12.0078
▁二就下別釋	-12.008
闥賴吒	-12.0081
不忍便說	-12.0081
犯非威儀突吉羅	-12.0083
結加趺坐	-12.0083
箭射	-12.0083
化樂天	-12.0083
頞	-12.0084
是障道法	-12.0085
為女人說法	-12.0086
8	-12.0087
以過白佛	-12.0088
以故作故	-12.009
作覆藏心	-12.009
蔑	-12.009
勞倦	-12.0091
同一利養	-12.0091
瘖瘂	-12.0093
要見好相	-12.0098
舟航	-12.0099
屏處三諫	-12.0099
佛告舍利弗	-12.01
帚	-12.0101
遞	-12.0102
賃	-12.0102
是名悔過法	-12.0102
搩	-12.0103
慙	-12.0103
營造	-12.0106
駮	-12.0109
哲	-12.0109
眾法心念	-12.011
表裏	-12.0112
深厚	-12.0115
猛利	-12.0122
按摩	-12.0124
未甞	-12.0134
盜五錢	-12.0139
往至佛所	-12.0143
出家近圓	-12.0162
技術	-12.0201
迦多演那	-12.0206
詠	-12.0211
此戒具三緣	-12.0211
9	-12.0214
謗世尊者不善	-12.0215
或復餘尼	-12.0215
先不受自恣請	-12.0216
浴池	-12.0217
擲石所及處	-12.0218
拘那含牟尼	-12.0218
無沙門行	-12.0222
迦蘭陀竹園	-12.0223
隨佛出家	-12.0223
歎譽	-12.0224
知是看是	-12.0224
幹	-12.0224
隨病藥	-12.0225
令法久住	-12.0225
非人人想	-12.0227
色聲香味觸	-12.0227
天龍鬼神	-12.023
▁二多下	-12.023
股	-12.0231
藤	-12.0231
群賊	-12.0231
紛紜	-12.0232
為諸比丘結戒	-12.0232
具六緣	-12.0234
詢	-12.0234
奄	-12.0235
𣰽	-12.0236
歡喜踊躍	-12.0237
詎	-12.0237
娑訶	-12.0238
銳	-12.0238
萬里	-12.0239
杌木	-12.024
簾	-12.0246
榻	-12.0247
為眾生故	-12.0248
蔬	-12.0251
形狀	-12.0253
刀兵	-12.0269
二十部	-12.0277
心境俱	-12.028
慳悋	-12.0295
百里	-12.0303
龍宮	-12.0309
前犯中間重犯某僧殘罪	-12.0315
兩个	-12.0325
室羅筏城	-12.0338
告諸人曰	-12.0342
阿若憍陳如	-12.0342
歡喜不諍	-12.0344
放大光明	-12.0347
佛住毘舍離	-12.035
頭面禮足却坐一面	-12.035
金剛杵	-12.035
犯應懺突吉羅	-12.0352
卷第九	-12.0355
生疑問佛	-12.0356
瘀	-12.0356
餘皆虛妄	-12.0356
乞求難得	-12.0357
眉間	-12.0359
火所燒	-12.0359
搦	-12.0361
毘舍佉母	-12.0361
胤	-12.0362
藕	-12.0362
闍維	-12.0362
▁初列示	-12.0362
捔	-12.0363
豁	-12.0364
人在高	-12.0365
跨	-12.0366
一心奉供	-12.0366
莎	-12.0366
無始以來	-12.0367
浩	-12.0367
酷	-12.0367
捫摸	-12.0367
蘆	-12.0368
往到佛所	-12.0368
詳審	-12.0369
畦	-12.0369
蕭	-12.037
汝是中盡形壽不得犯	-12.0371
上中下座	-12.0372
迦毗羅	-12.0373
闕初緣	-12.0373
周旋	-12.0374
邀	-12.0374
咳	-12.0381
决	-12.0383
清潔	-12.0384
掉舉	-12.0384
餘比丘語言	-12.0387
田園	-12.0401
林野	-12.0412
汲水	-12.0424
威勢	-12.0427
僧常食	-12.044
娉	-12.0478
多犯眾罪	-12.048
兮	-12.0482
諷經	-12.0486
佛以此緣	-12.0488
第二第三亦如是說	-12.0489
傭	-12.0489
捨之而去	-12.049
蒲闍尼	-12.0491
諸惡莫作	-12.0491
如是何有正法	-12.0492
版	-12.0492
骨牙角	-12.0493
非法和合眾	-12.0495
斷惡修善	-12.0497
三月十六日	-12.0497
越學法	-12.0497
尺六寸	-12.0498
呬	-12.0498
無二無別	-12.0498
上某下某	-12.0499
鼻奈耶	-12.0499
命終之後	-12.05
牖	-12.05
隸	-12.0502
堤	-12.0503
萌	-12.0503
葷	-12.0508
溼	-12.0508
京兆	-12.0508
軌範師	-12.0508
姨母	-12.0508
憂波離	-12.0509
呵責六群比丘尼	-12.0509
獨與一	-12.051
有幾種	-12.051
入聚落乞食	-12.0512
禽	-12.0513
盾	-12.0513
氍氀	-12.0515
法得久住	-12.0518
入室坐	-12.0522
𡰱	-12.0524
統收	-12.0527
澡漱	-12.0529
陸地	-12.054
奈何	-12.0549
前犯中間重犯覆藏	-12.0568
祇園	-12.0574
動搖	-12.0578
妨礙	-12.0579
慎莫	-12.0587
闥利吒比丘不能滅諍	-12.0609
闥利吒比丘能滅諍	-12.0609
如來至真等正覺	-12.0624
佉陀尼	-12.0626
毗舍佉母	-12.0627
㥲恚	-12.0628
忙	-12.0628
釋罪相等	-12.0632
罄	-12.0633
頭面禮	-12.0633
授事人	-12.0634
若比丘知是物向	-12.0637
錐	-12.0638
慊	-12.0639
▁初正示	-12.0639
癬	-12.0639
怕	-12.064
迄	-12.0642
貝齒	-12.0645
文殊問經	-12.0646
舍婆提	-12.0647
黜	-12.0647
光澤	-12.0649
卯	-12.0651
交絡	-12.0652
妙吉祥	-12.0652
唇	-12.0656
誇	-12.0659
堯	-12.066
按此戒	-12.0664
光潔	-12.0672
手捧	-12.0678
生是念	-12.0697
又三初	-12.0701
江南	-12.0704
作擯羯磨	-12.0705
以何因緣	-12.0735
日更得	-12.0739
迦留陀比丘	-12.0755
惡聲流布	-12.0755
作新坐具	-12.0758
咤	-12.0759
佛在舍衛國給孤獨園	-12.0759
共相覆罪	-12.0761
中有少欲知足	-12.0766
汝愚癡人	-12.0768
序事三階	-12.0771
閻羅王	-12.0771
十夜別住	-12.0771
我依大德故	-12.0771
頭面禮足却住一面	-12.0771
明行足	-12.0772
台	-12.0772
百萬億	-12.0775
挫	-12.0775
閾	-12.0779
有多勢分	-12.0779
伎術	-12.078
綠	-12.0782
堀	-12.0783
鹿子母	-12.0783
磔	-12.0783
報佛恩	-12.0783
某甲為鄔波馱耶	-12.0784
辟	-12.0784
摧伏	-12.0784
宛轉	-12.0785
尠	-12.0785
調適	-12.0786
忤	-12.0786
周帀	-12.0787
闐	-12.0788
慶喜	-12.0789
沙門釋子自言	-12.0791
帙	-12.0791
籤	-12.0792
五戒十戒	-12.0795
攝生戒	-12.0796
一體三寶	-12.0797
度令出家	-12.0805
舍利弗問經	-12.0815
薩羅	-12.0833
勤䇿	-12.0843
君父	-12.0845
未嘗	-12.0848
俱舍論	-12.0866
給侍	-12.0869
僧差某甲比丘	-12.0872
覆藏本日治羯磨	-12.0885
不名受具足	-12.0888
瞋忿	-12.0889
毛緂	-12.0905
如來無所著等正覺	-12.0905
▁初總分	-12.0906
銖	-12.0908
十七羣	-12.0908
嗚	-12.0908
補特伽羅	-12.091
羖	-12.091
薜舍	-12.0913
釋義文分	-12.0913
瑙	-12.0914
坻	-12.0915
兼制比丘尼波逸提	-12.0915
媚	-12.0915
此是性罪	-12.0916
時與非時	-12.0917
容恕	-12.0917
非法非毗尼	-12.0918
十方盡虛空界	-12.0919
以下訖	-12.0919
釋義緣處發起	-12.0919
疲倦	-12.092
生多功德	-12.0922
跟	-12.0922
諸比丘以是事白佛	-12.0922
黠	-12.0923
彼非比丘尼	-12.0924
褊	-12.0926
鑪	-12.0926
豪貴	-12.0927
墼	-12.0927
岐	-12.0928
㓨	-12.0928
藕根	-12.093
賒	-12.0931
絛	-12.0933
如意珠	-12.0934
章服儀	-12.0934
求哀懺悔	-12.0935
村坊	-12.0936
箸	-12.0936
逼惱	-12.0937
幾歲	-12.0938
蒸	-12.0939
檀那	-12.094
亮	-12.0946
發大願	-12.0949
街	-12.0952
刀割	-12.097
燃火	-12.0976
悋惜	-12.0982
恃勢	-12.0988
迎接	-12.099
懺悔則安樂	-12.1044
當如是說戒	-12.1046
作覆鉢羯磨	-12.1047
而告之曰	-12.1048
胝	-12.105
憔悴	-12.1052
春殘一月	-12.1053
栴	-12.106
器仗	-12.1061
金銀寶物	-12.1061
於此四方相內	-12.1062
▁二釋注	-12.1062
彝	-12.1062
阿耆	-12.1062
是沙彌尼戒	-12.1066
毗柰耶	-12.1066
輕躁	-12.1068
知止足	-12.1068
跋闍	-12.1068
六十二見	-12.1068
不名捨戒	-12.107
於大眾中	-12.107
真實淨施	-12.1073
與覆藏羯磨	-12.1073
呌	-12.1075
習種性	-12.1078
清濁	-12.1078
摩尼寶	-12.1082
肝	-12.1082
三門分別	-12.1082
僧今與某甲比丘	-12.1085
從今不聽	-12.1085
澄清	-12.1086
衝	-12.1089
籬障	-12.1091
天王宮	-12.11
尼犯亦	-12.1122
露地敷	-12.1125
百三十	-12.113
花菓	-12.1136
□□□□□□□	-12.1137
塗拭	-12.114
以十利故為諸比丘	-12.1155
默然受請	-12.116
廣如鈔	-12.1175
兼制比丘尼	-12.1189
即於座上	-12.1191
作突吉羅懺	-12.1192
從座而起	-12.1195
梵行已立	-12.1198
調柔	-12.1199
具壽存念	-12.12
隨汝意	-12.1201
僧伽已聽許	-12.1203
尸利耶婆	-12.1205
阿耆達	-12.1206
恭敬尊重	-12.1209
悴	-12.121
社	-12.121
獨坐床	-12.121
峻	-12.1211
蚊虻	-12.1211
構	-12.1214
纓	-12.1214
摩醯首羅	-12.1215
尿	-12.1215
戟	-12.1215
菩薩心地法門戒心中	-12.1216
茫	-12.1216
鍵𨩲	-12.1216
䟦陀羅	-12.1218
鏁	-12.1218
誐	-12.1219
捶	-12.1219
耆域	-12.122
俳	-12.122
懲	-12.122
罽賓國	-12.122
蒲萄	-12.1221
殖	-12.1222
相續不斷	-12.1222
無上福田	-12.1223
抒	-12.1224
打犍椎	-12.1224
棟	-12.1225
洽	-12.1225
故須制也	-12.1225
爾雅云	-12.1227
葛	-12.1231
䟦提	-12.124
作初羯磨	-12.1269
商賈	-12.1282
戶扇	-12.1298
竹林園	-12.1312
生悔恨	-12.1339
羅睺	-12.1342
緂	-12.1343
貳	-12.1355
詭	-12.1356
筌	-12.1358
旭	-12.1363
森	-12.1364
鐶	-12.1365
昆	-12.1366
抗	-12.1366
猥	-12.1367
轝	-12.1367
賭	-12.1371
躁	-12.1372
戈	-12.1373
麟	-12.1376
杏	-12.1382
a	-12.1501
矟	-12.1506
誹	-12.1507
姿	-12.1507
脯	-12.1509
幔	-12.1509
雉	-12.151
驕	-12.1511
孕	-12.1514
雕	-12.1515
痒	-12.1516
餮	-12.1517
攪	-12.1517
鐃	-12.1518
拙	-12.1519
忖	-12.1522
菁	-12.1522
贍	-12.1526
剖	-12.1528
諷	-12.1608
闥	-12.1653
馱	-12.166
菩	-12.1663
賖	-12.1664
芬	-12.1665
鋸	-12.1665
盟	-12.1666
捫	-12.1668
噏	-12.1671
羆	-12.1672
員	-12.1673
謫	-12.1673
灒	-12.1674
傅	-12.1675
憲	-12.1675
燕	-12.1675
摴	-12.1679
諒	-12.1683
覧	-12.1694
窣	-12.1742
渚	-12.1817
諠	-12.1819
挃	-12.1819
鵄	-12.182
扉	-12.1822
咀	-12.1824
叱	-12.1825
瞥	-12.1826
蚕	-12.1826
纂	-12.1828
鍮	-12.183
瑩	-12.1831
壤	-12.1831
赦	-12.1838
扂	-12.1839
桓	-12.1842
禹	-12.1845
窂	-12.1846
2	-12.1969
轅	-12.1973
做	-12.1977
堈	-12.1977
瀑	-12.1978
睛	-12.1986
遏	-12.1988
秖	-12.1988
闌	-12.1988
臰	-12.1989
笛	-12.1993
榴	-12.1994
瓠	-12.1994
轄	-12.1995
幅	-12.1996
朔	-12.1998
舜	-12.2011
掬	-12.2133
姨	-12.214
扠	-12.2141
絺	-12.2142
蓏	-12.2146
膽	-12.2147
妒	-12.2148
絞	-12.215
萃	-12.215
尉	-12.2151
厲	-12.2154
圊	-12.2154
樗	-12.2156
聯	-12.2158
暉	-12.2158
狎	-12.216
襪	-12.2164
俄	-12.2166
狸	-12.2167
㭊	-12.2169
蹄	-12.2295
歿	-12.2295
薜	-12.2298
噎	-12.2298
膺	-12.2309
𧂐	-12.231
鑛	-12.231
窄	-12.2312
蛾	-12.2312
陪	-12.2312
儭	-12.2313
竈	-12.2314
刈	-12.2315
氎	-12.2316
獺	-12.2316
握	-12.2318
貶	-12.2319
瞬	-12.232
肖	-12.2326
濶	-12.2327
巴	-12.2334
騾	-12.2462
掖	-12.2465
矩	-12.2466
蹴	-12.2468
檐	-12.2471
貽	-12.2471
閫	-12.2473
確	-12.2477
暑	-12.2479
攞	-12.2479
䖍	-12.248
鎔	-12.248
碁	-12.248
鑄	-12.2481
插	-12.2482
胃	-12.2483
呻	-12.2483
戊	-12.2483
賄	-12.2484
陁	-12.2484
眄	-12.2486
偕	-12.2489
碩	-12.2492
醬	-12.2495
─	-12.2626
喘	-12.2629
綜	-12.264
諄	-12.2642
馥	-12.2642
彊	-12.2642
詛	-12.2648
簿	-12.2648
冶	-12.2652
双	-12.2653
翫	-12.2665
鋤	-12.2666
這	-12.2669
棋	-12.267
6	-12.2803
駛	-12.2807
鞕	-12.2808
勃	-12.281
泊	-12.2813
鄔	-12.2813
鍊	-12.2815
坎	-12.2817
槽	-12.2821
胞	-12.2821
嗤	-12.2822
矢	-12.2823
豺	-12.2824
鞠	-12.2825
炊	-12.2827
沃	-12.2828
冰	-12.2829
沿	-12.283
墾	-12.2833
漠	-12.2835
弦	-12.2838
瑣	-12.2848
碗	-12.285
騫	-12.2976
牸	-12.2979
邇	-12.2987
晃	-12.2988
稼	-12.2992
庚	-12.2995
壬	-12.2999
猿	-12.2999
餌	-12.3002
芒	-12.3002
拽	-12.3005
殑	-12.3005
雍	-12.301
献	-12.3161
筐	-12.3166
湧	-12.3169
懿	-12.3173
咲	-12.3174
熨	-12.3176
􂌦	-12.3177
邨	-12.3177
撓	-12.3178
漱	-12.3179
憤	-12.3181
汪	-12.3181
豬	-12.3181
嵩	-12.3182
需	-12.3183
杯	-12.3188
䔉	-12.3196
涯	-12.3314
膾	-12.3339
貲	-12.3339
趁	-12.3344
誚	-12.3344
篦	-12.3346
轂	-12.3346
慇	-12.3347
麞	-12.3349
輯	-12.3351
頹	-12.3353
剔	-12.3355
捲	-12.3357
慜	-12.3358
腨	-12.336
諧	-12.336
梗	-12.336
塲	-12.3361
榜	-12.3361
齅	-12.3363
紗	-12.3364
疵	-12.3371
咬	-12.3371
劵	-12.3372
汲	-12.3482
賈	-12.3506
緊	-12.3529
濡	-12.3529
勗	-12.353
批	-12.353
昨	-12.3531
沫	-12.3537
嘴	-12.3538
竇	-12.3539
訂	-12.354
肢	-12.3542
鬻	-12.3542
撤	-12.3547
頡	-12.3549
搗	-12.3549
蝕	-12.3557
䏶	-12.356
捍	-12.3562
裳	-12.3671
蠍	-12.3721
芝	-12.3724
迊	-12.3727
飼	-12.373
赫	-12.3732
猗	-12.3732
謨	-12.3734
渾	-12.3741
┘	-12.3742
乱	-12.3743
├	-12.3744
萍	-12.3748
蓼	-12.3762
5	-12.3907
姦	-12.3914
拼	-12.3915
钁	-12.3916
劈	-12.3919
鹵	-12.3919
涎	-12.392
└	-12.392
催	-12.392
惹	-12.392
棱	-12.3922
癸	-12.3923
剗	-12.3924
鬲	-12.3926
介	-12.3934
螢	-12.3936
嚏	-12.3946
潄	-12.3947
譚	-12.4111
叟	-12.4112
藐	-12.4116
棚	-12.4117
謟	-12.4119
耗	-12.4119
疼	-12.4123
拋	-12.4124
脛	-12.4124
况	-12.4126
蚤	-12.4126
桄	-12.4128
澀	-12.413
幞	-12.413
炒	-12.4133
嘔	-12.4148
摽	-12.4292
疱	-12.4298
佞	-12.4303
栽	-12.4305
鍱	-12.4313
跣	-12.4313
遑	-12.4314
翰	-12.4314
液	-12.4316
婁	-12.4318
募	-12.4318
踵	-12.4319
墳	-12.432
爵	-12.432
儛	-12.4322
彚	-12.4323
坏	-12.4323
氍	-12.4323
寓	-12.4325
髭	-12.4332
璧	-12.4335
璫	-12.4493
听	-12.4496
洹	-12.451
挺	-12.4512
械	-12.4515
寐	-12.4515
券	-12.4518
脾	-12.4522
楯	-12.4525
幟	-12.4527
聳	-12.4527
椉	-12.4532
鵽	-12.4534
亞	-12.4536
悚	-12.4537
鳳	-12.4537
虞	-12.4537
剡	-12.4549
3	-12.4711
禰	-12.4718
轡	-12.472
絣	-12.4724
仞	-12.4725
𤙖	-12.4726
坦	-12.4728
珀	-12.4731
砌	-12.4732
犂	-12.4734
箕	-12.4735
弒	-12.4736
恰	-12.4737
另	-12.4738
彷	-12.4739
梟	-12.474
袴	-12.474
煗	-12.474
唎	-12.474
貢	-12.4741
薤	-12.4742
㟧	-12.4749
豕	-12.4751
牡	-12.4754
𠗦	-12.4757
溈	-12.4764
艶	-12.4769
鎡	-12.491
姝	-12.4932
㮈	-12.4937
蠟	-12.4939
壑	-12.494
嗽	-12.4941
霹	-12.4945
蓍	-12.4946
椽	-12.4946
蛆	-12.4947
冒	-12.4947
箴	-12.4948
吻	-12.4949
緘	-12.4949
釐	-12.495
筞	-12.4951
塑	-12.4951
攘	-12.4952
穬	-12.4952
慣	-12.4952
𨽻	-12.4961
谿	-12.4962
蔡	-12.4965
粧	-12.4966
噴	-12.4972
售	-12.5143
儞	-12.5147
駃	-12.5152
㵎	-12.5153
沼	-12.5153
陟	-12.5155
盋	-12.5155
穩	-12.5155
控	-12.5157
絆	-12.5158
鏤	-12.5159
椒	-12.5161
皺	-12.5162
冢	-12.5163
閃	-12.5164
簧	-12.5165
狄	-12.5165
廚	-12.5167
癢	-12.5168
揉	-12.5168
拆	-12.5171
駭	-12.5171
㗱	-12.5174
糅	-12.5175
艾	-12.5179
煉	-12.5183
恁	-12.5188
豹	-12.5373
鉛	-12.5374
哺	-12.5375
簪	-12.5376
嘯	-12.5376
佇	-12.5377
丑	-12.5377
眇	-12.5378
𨳝	-12.5379
尻	-12.538
虐	-12.538
篅	-12.538
裨	-12.5381
撚	-12.5382
簸	-12.5385
蝎	-12.5385
饍	-12.5386
睇	-12.5386
韁	-12.5388
摺	-12.5389
斟	-12.5393
慠	-12.5394
啻	-12.5395
晏	-12.5395
吝	-12.5396
桌	-12.5406
茹	-12.5406
臟	-12.5412
輅	-12.5582
梓	-12.5594
旹	-12.5598
楞	-12.5602
糴	-12.5602
翔	-12.5608
凸	-12.5608
稗	-12.5609
裕	-12.561
鞾	-12.5611
弩	-12.5611
敞	-12.5611
鍚	-12.5612
酉	-12.5616
堵	-12.5617
𣯫	-12.5618
簫	-12.5618
㗚	-12.5619
頒	-12.562
鯨	-12.562
剉	-12.5622
脅	-12.5624
呰	-12.5624
汰	-12.5631
濺	-12.5652
僉	-12.5835
蕅	-12.5838
撾	-12.5838
湊	-12.5841
紡	-12.5842
僣	-12.5842
蛤	-12.5844
鱗	-12.5847
硨	-12.5848
𠄎	-12.585
炳	-12.5851
茜	-12.5851
巫	-12.5851
郊	-12.5851
緝	-12.5853
擡	-12.5853
瘧	-12.5854
緋	-12.5855
糺	-12.5855
蹙	-12.5859
┤	-12.586
駒	-12.6064
袱	-12.6067
彪	-12.6068
捩	-12.6071
犛	-12.6072
啑	-12.6075
盪	-12.6078
航	-12.6079
孽	-12.608
椰	-12.608
寵	-12.6082
蟒	-12.6084
狩	-12.6086
翠	-12.6087
渺	-12.6087
𤏙	-12.6087
沽	-12.6088
郁	-12.6088
跌	-12.6088
采	-12.6092
綸	-12.6093
斐	-12.6095
抓	-12.6095
肌	-12.6096
培	-12.6097
紬	-12.6097
璞	-12.611
蘿	-12.6303
𤦲	-12.6311
拓	-12.6312
琶	-12.6317
癭	-12.6318
沓	-12.6319
績	-12.632
戌	-12.632
陂	-12.6321
肴	-12.6321
硬	-12.6322
紉	-12.6323
饕	-12.6324
廂	-12.6326
嵐	-12.6326
玷	-12.6328
鍵	-12.6331
臧	-12.6332
縳	-12.6334
痰	-12.6339
逞	-12.6343
躰	-12.6345
瓊	-12.6353
癹	-12.6355
暎	-12.6366
愕	-12.6561
呞	-12.6562
穽	-12.6564
繀	-12.6564
糒	-12.6565
繹	-12.6571
甫	-12.6572
􂌴	-12.6573
牓	-12.6574
矚	-12.6576
狠	-12.6576
悖	-12.6582
牝	-12.6583
囂	-12.6583
梅	-12.6584
蠢	-12.6585
趍	-12.6585
透	-12.6588
黏	-12.6588
瞞	-12.6592
屆	-12.6819
毱	-12.682
鐸	-12.6821
泮	-12.6822
肋	-12.6823
桶	-12.6826
僮	-12.6827
姙	-12.683
橙	-12.6835
涸	-12.6836
抳	-12.6837
訴	-12.6838
銓	-12.6838
勺	-12.6838
莂	-12.6838
芥	-12.6839
謦	-12.684
廻	-12.684
皿	-12.6849
黍	-12.6849
釁	-12.685
伍	-12.6853
􂬎	-12.6867
坂	-12.7078
輞	-12.7081
膜	-12.7082
恬	-12.7085
戍	-12.7085
閤	-12.7085
瑪	-12.7089
妾	-12.709
攸	-12.7091
詶	-12.7091
戎	-12.7094
槨	-12.7095
餧	-12.7096
肺	-12.7097
坼	-12.7097
鵬	-12.7098
侈	-12.7098
撻	-12.7101
揬	-12.7102
掣	-12.7103
笙	-12.7103
碯	-12.7104
鑵	-12.7105
蕃	-12.7105
磐	-12.7108
藂	-12.711
煬	-12.7113
拇	-12.7114
庖	-12.7114
霞	-12.7114
夅	-12.7115
馮	-12.7115
釣	-12.7117
㰤	-12.7123
碑	-12.7126
􂠜	-12.7339
墯	-12.7346
佯	-12.7347
衒	-12.7349
睺	-12.7354
搔	-12.7357
痟	-12.7361
淋	-12.7364
寥	-12.7364
擒	-12.7364
軒	-12.7365
贅	-12.7365
怜	-12.7365
琢	-12.7365
蹊	-12.7365
蓄	-12.7366
罹	-12.7367
袍	-12.7367
揆	-12.7369
顆	-12.7372
賷	-12.7377
倨	-12.738
􂏬	-12.7386
烊	-12.7386
奕	-12.7391
檗	-12.7426
熬	-12.7621
隥	-12.7623
撝	-12.7624
寇	-12.7626
裾	-12.7636
騃	-12.7637
灯	-12.7637
箏	-12.7638
虜	-12.764
麝	-12.764
淤	-12.7641
臻	-12.7642
沮	-12.7643
莢	-12.7643
桁	-12.7644
兀	-12.7646
碾	-12.7646
鉗	-12.7647
晴	-12.7647
絳	-12.7648
泆	-12.7648
藻	-12.765
膞	-12.765
魄	-12.7651
烹	-12.7653
諺	-12.7653
匕	-12.7655
亥	-12.7658
駁	-12.766
䓗	-12.7661
卦	-12.7667
盌	-12.7667
嫂	-12.7898
漚	-12.7901
齗	-12.7912
喃	-12.7915
讟	-12.7916
徽	-12.7918
旌	-12.7918
塘	-12.792
襲	-12.7921
恤	-12.7923
韈	-12.7923
諛	-12.7925
疇	-12.7925
痤	-12.7926
傑	-12.7926
痢	-12.7928
竅	-12.7928
𢍉	-12.7928
迯	-12.793
鬀	-12.7931
屯	-12.7931
燧	-12.7932
馨	-12.7932
𦆠	-12.7932
恪	-12.7934
屨	-12.7934
僂	-12.7936
崔	-12.7936
輟	-12.7938
欵	-12.7938
霍	-12.7939
儜	-12.7939
澇	-12.7939
傚	-12.794
胄	-12.7941
磲	-12.7943
燸	-12.7944
涵	-12.7945
隴	-12.7945
螘	-12.7945
篆	-12.7949
逍	-12.7952
褐	-12.7963
壹	-12.8189
粖	-12.8196
奠	-12.8196
荅	-12.8201
甥	-12.8203
c	-12.8204
哽	-12.8208
觝	-12.8215
碓	-12.8216
墖	-12.822
苾	-12.8222
茖	-12.8222
幕	-12.8223
畋	-12.8224
潦	-12.8225
疣	-12.8227
縠	-12.8229
鬢	-12.8229
瓷	-12.8229
歒	-12.823
燄	-12.823
洩	-12.823
些	-12.823
奸	-12.823
从	-12.8231
媟	-12.8234
毹	-12.8235
癘	-12.8235
蒿	-12.8235
殻	-12.8236
醞	-12.8236
􂎫	-12.8238
桂	-12.8242
溷	-12.8246
謚	-12.8252
惺	-12.8254
牲	-12.8258
畝	-12.8266
匃	-12.8513
聦	-12.8514
蟣	-12.8517
輾	-12.852
叨	-12.852
羨	-12.8521
訕	-12.8523
邃	-12.8524
滔	-12.8524
恢	-12.8525
朴	-12.8525
洎	-12.8526
莠	-12.8527
矧	-12.8529
凹	-12.8529
襟	-12.853
嘲	-12.853
霄	-12.8532
昵	-12.8535
腎	-12.8536
𨤲	-12.8538
磚	-12.8538
痕	-12.8538
菽	-12.8538
㳂	-12.8539
聿	-12.8539
帷	-12.8539
玦	-12.8541
泠	-12.8541
弋	-12.8553
紂	-12.8568
睞	-12.882
鞍	-12.8823
稊	-12.8829
瘙	-12.883
叡	-12.8831
餝	-12.8833
姤	-12.8836
攢	-12.8839
庾	-12.8841
窻	-12.8841
鎻	-12.8842
址	-12.8843
蚩	-12.8844
衷	-12.8844
𩍓	-12.8844
樊	-12.8845
窠	-12.8845
悛	-12.8845
掐	-12.8845
眩	-12.8846
詁	-12.8846
黷	-12.8847
襖	-12.8847
敝	-12.8848
饉	-12.8849
韮	-12.8849
迂	-12.885
躐	-12.8851
仕	-12.8851
赭	-12.8853
拖	-12.8853
┐	-12.8854
邈	-12.8854
姬	-12.8878
蠕	-12.9143
皤	-12.9144
謾	-12.9144
督	-12.9146
]	-12.9149
无	-12.915
毺	-12.9151
縈	-12.9151
鞮	-12.9153
囓	-12.9153
䗍	-12.9154
脆	-12.9155
翮	-12.9155
澱	-12.9155
鎚	-12.9156
癊	-12.916
瓣	-12.9162
栰	-12.9163
奩	-12.9167
碼	-12.9167
蝨	-12.9167
堆	-12.9167
靖	-12.9168
蓆	-12.9169
瞽	-12.9169
擪	-12.917
薗	-12.9171
骰	-12.9172
韓	-12.9173
顒	-12.9174
徤	-12.9178
查	-12.9181
廿	-12.9189
嬉	-12.939
泔	-12.9459
鞘	-12.9464
▲	-12.947
俵	-12.9472
𥨊	-12.9473
礦	-12.9473
叚	-12.9475
訥	-12.9482
瘳	-12.9482
义	-12.9484
橝	-12.9486
凋	-12.949
掍	-12.949
彥	-12.9492
窶	-12.9492
孚	-12.9492
闚	-12.9494
歠	-12.9494
抆	-12.9495
㿈	-12.9495
蚋	-12.9495
𥯤	-12.9497
紋	-12.9498
袪	-12.9498
騁	-12.9499
溉	-12.9499
趂	-12.95
搪	-12.9501
筯	-12.9502
荻	-12.9503
愜	-12.9503
腥	-12.9504
拉	-12.9505
笞	-12.9505
繳	-12.9505
炮	-12.9508
釰	-12.9516
体	-12.9518
丞	-12.9521
酖	-12.9523
鬮	-12.9808
跏	-12.9817
貰	-12.9818
f	-12.982
㲉	-12.9821
嚀	-12.9822
媾	-12.9824
豌	-12.983
悼	-12.9831
婉	-12.9831
羼	-12.9831
丙	-12.9835
䩙	-12.9836
棧	-12.9837
繕	-12.9839
隷	-12.9843
懦	-12.9843
慞	-12.9843
拷	-12.9845
吊	-12.9846
纜	-12.9846
淘	-12.9846
鈕	-12.9847
斵	-12.9848
譜	-12.985
檻	-12.9853
减	-12.9854
宦	-12.9855
裰	-12.9855
抖	-12.9859
拊	-12.9859
襻	-12.9863
䩛	-12.9869
綫	-12.9871
膖	-13.0172
妷	-13.0177
箄	-13.0177
𡖦	-13.018
槊	-13.018
邠	-13.0181
泡	-13.0181
鼾	-13.0186
柁	-13.0187
痿	-13.0188
蜎	-13.019
榰	-13.0192
煨	-13.0194
齡	-13.0198
袈	-13.0199
襄	-13.02
柏	-13.0201
埀	-13.0202
哥	-13.0206
疽	-13.0206
鞔	-13.0207
鵞	-13.0208
鷗	-13.0213
羲	-13.0216
懾	-13.0217
翦	-13.022
嚧	-13.0281
嘷	-13.0546
襦	-13.0548
兢	-13.0549
叮	-13.0551
隘	-13.0552
躓	-13.0554
距	-13.0555
肚	-13.0555
煥	-13.0559
躃	-13.0559
觴	-13.056
堦	-13.0561
妍	-13.0562
簏	-13.0563
蹬	-13.0564
湔	-13.0564
瞑	-13.0565
忩	-13.0565
坯	-13.0566
䟽	-13.0567
鵲	-13.057
蹇	-13.0571
篲	-13.0571
屩	-13.0573
軫	-13.0574
哮	-13.0574
晈	-13.0577
匣	-13.0578
驟	-13.0579
臚	-13.0582
扈	-13.0583
蝙	-13.0587
蝠	-13.0587
粘	-13.0589
俛	-13.0922
悒	-13.0926
丐	-13.0931
𠲿	-13.0933
祚	-13.0937
懅	-13.0938
秫	-13.0939
閦	-13.0939
鵂	-13.094
窒	-13.0943
瘢	-13.0943
剜	-13.0945
悵	-13.0946
胥	-13.0946
繪	-13.0947
麈	-13.0949
霆	-13.0949
窖	-13.0951
薝	-13.0952
𣫍	-13.0953
擕	-13.0956
榆	-13.0957
蝦	-13.0958
墡	-13.0959
膓	-13.096
礫	-13.096
租	-13.096
厩	-13.096
邸	-13.096
迥	-13.096
欹	-13.0962
蛹	-13.0962
褶	-13.0963
𦮽	-13.0963
噬	-13.0963
蜋	-13.0965
訝	-13.0965
猩	-13.0968
敲	-13.0968
潑	-13.0969
袁	-13.097
㝵	-13.0971
軼	-13.0978
闑	-13.1328
盃	-13.1328
蔥	-13.1331
抧	-13.1332
皰	-13.1333
喇	-13.1333
癖	-13.1337
猜	-13.1337
燼	-13.1343
曀	-13.1343
撈	-13.1345
亢	-13.1345
餚	-13.1346
鍬	-13.1346
毅	-13.1346
褺	-13.1348
鏗	-13.1349
鑞	-13.1349
隄	-13.135
苽	-13.135
鎗	-13.135
跢	-13.135
駐	-13.1351
琳	-13.1353
爇	-13.1354
蒺	-13.1356
倏	-13.1356
憾	-13.1356
芋	-13.1357
毬	-13.1358
罅	-13.1358
晒	-13.1359
蘖	-13.1359
鴨	-13.1362
甦	-13.1364
擺	-13.1365
罟	-13.1371
仆	-13.1372
訣	-13.1377
菌	-13.1378
槐	-13.1381
遁	-13.1381
𤛆	-13.1739
緜	-13.1746
潰	-13.1746
圃	-13.1748
訊	-13.1752
隤	-13.1753
惓	-13.1754
怗	-13.1755
櫨	-13.1758
冑	-13.1759
摭	-13.1762
枮	-13.1762
閹	-13.1765
吃	-13.1766
軻	-13.1767
竦	-13.1768
稔	-13.1768
嫡	-13.1769
鄧	-13.1769
讁	-13.1769
􂌶	-13.177
窬	-13.1771
淑	-13.1772
橘	-13.1773
壻	-13.1773
鏢	-13.1774
寰	-13.1774
縟	-13.1775
猨	-13.1775
僚	-13.1776
魁	-13.1777
鄴	-13.1777
爨	-13.1778
稜	-13.1782
穫	-13.1783
嗗	-13.1784
蠒	-13.1784
苓	-13.1785
筮	-13.1786
洟	-13.1789
撞	-13.1793
鴆	-13.1796
䬸	-13.1798
砒	-13.1799
羝	-13.2144
霤	-13.2158
𣣋	-13.2179
粵	-13.218
忝	-13.219
歐	-13.2191
惒	-13.2192
蜇	-13.2192
憩	-13.2192
廠	-13.2194
畟	-13.2196
徘	-13.2199
歆	-13.2201
紳	-13.2201
翊	-13.2202
徊	-13.2202
崙	-13.2203
䩭	-13.2203
咒	-13.2203
廗	-13.2203
蝅	-13.2204
贓	-13.2204
䞈	-13.2204
俊	-13.2205
潭	-13.2205
踴	-13.2206
滄	-13.2206
漓	-13.2207
館	-13.2207
麋	-13.2208
嗌	-13.2208
噓	-13.221
堰	-13.2211
嵓	-13.2212
署	-13.2212
范	-13.2213
徉	-13.2213
帋	-13.2215
蹂	-13.2216
汾	-13.2216
捃	-13.2217
卛	-13.2217
啜	-13.2218
秔	-13.2219
𠹀	-13.2219
鈷	-13.2221
洮	-13.2221
劑	-13.2223
灸	-13.2223
匏	-13.2225
𣽈	-13.2225
躶	-13.2226
冲	-13.2231
勾	-13.224
𧜟	-13.225
癲	-13.2633
𡂠	-13.2635
溥	-13.264
釿	-13.2645
迨	-13.2646
菟	-13.2649
𨷲	-13.265
禳	-13.2651
䘢	-13.2652
葺	-13.2653
觚	-13.2653
閭	-13.2654
衾	-13.2654
朕	-13.2655
抂	-13.2655
𡱁	-13.2656
癕	-13.2656
嘖	-13.2657
銚	-13.2657
喑	-13.2659
廩	-13.2661
釵	-13.2662
弉	-13.2662
晷	-13.2662
欬	-13.2662
𤘽	-13.2665
轢	-13.2665
盎	-13.2665
糾	-13.2665
筴	-13.2665
蹶	-13.2666
弼	-13.2666
芿	-13.2667
桎	-13.2667
爬	-13.2668
𤨏	-13.2668
蕉	-13.2669
豉	-13.2669
玻	-13.267
彭	-13.2672
狽	-13.2672
喟	-13.2679
頴	-13.268
┌	-13.268
縊	-13.2681
啗	-13.2683
蕤	-13.2684
𠻳	-13.2686
薙	-13.2686
缸	-13.2692
噤	-13.3105
驃	-13.3111
醪	-13.3112
詈	-13.3116
𨄔	-13.3118
姪	-13.312
埃	-13.312
𢌞	-13.3123
痊	-13.3125
庇	-13.3126
鵒	-13.3127
㵱	-13.3127
霅	-13.3128
協	-13.313
傴	-13.3131
誼	-13.3131
篙	-13.3132
㸑	-13.3133
甌	-13.3133
佑	-13.3133
犀	-13.3133
皃	-13.3134
簁	-13.3134
祟	-13.3136
琰	-13.3136
偉	-13.3138
芸	-13.3138
樸	-13.3138
睫	-13.3139
咏	-13.3139
㓟	-13.314
浙	-13.314
系	-13.3141
胯	-13.3141
氀	-13.3141
絁	-13.3142
宍	-13.3143
苔	-13.3143
縹	-13.3144
舫	-13.3145
挈	-13.3145
董	-13.3145
碍	-13.3148
𥢶	-13.3148
壃	-13.3149
荽	-13.3149
帊	-13.315
臊	-13.315
玲	-13.3156
捋	-13.3157
弔	-13.3158
􂎾	-13.3165
溜	-13.3591
轎	-13.3592
廐	-13.3611
篸	-13.3619
軛	-13.3619
垛	-13.362
僭	-13.362
櫃	-13.3622
繆	-13.3624
罥	-13.3624
苧	-13.3625
异	-13.3626
瑤	-13.3626
稕	-13.3627
卍	-13.3627
劖	-13.3627
耨	-13.3631
暄	-13.3632
昴	-13.3632
㖒	-13.3632
灘	-13.3632
燎	-13.3633
鐺	-13.3633
誷	-13.3634
眴	-13.3634
紕	-13.3635
徼	-13.3635
笮	-13.3636
韜	-13.3636
𢂁	-13.3637
鷂	-13.3639
牕	-13.364
饗	-13.364
鷺	-13.3641
蟄	-13.3641
巔	-13.3642
濵	-13.3642
鴟	-13.3643
彗	-13.3643
詫	-13.3644
喬	-13.3645
晁	-13.3646
搘	-13.3647
裟	-13.3647
廷	-13.3647
瀝	-13.3647
賽	-13.3648
冕	-13.3648
奘	-13.3649
厝	-13.3651
苞	-13.3653
苕	-13.3657
笠	-13.3663
菔	-13.4114
鏂	-13.4127
摒	-13.414
㘓	-13.414
椅	-13.4141
啇	-13.4145
糸	-13.4149
皴	-13.4151
埒	-13.4151
悽	-13.4151
濤	-13.4152
㘕	-13.4152
糶	-13.4153
嚬	-13.4154
𦟛	-13.4154
驎	-13.4155
𢆯	-13.4156
吁	-13.4157
臛	-13.4157
豚	-13.4158
黿	-13.4159
滲	-13.416
溟	-13.416
蝗	-13.4161
耘	-13.4161
扴	-13.4161
笋	-13.4162
宙	-13.4163
萇	-13.4163
倖	-13.4165
屧	-13.4165
蓽	-13.4166
唆	-13.4169
皓	-13.4172
荳	-13.4172
䆳	-13.4172
槁	-13.4173
擂	-13.4174
鎌	-13.4175
慝	-13.4177
𠾱	-13.4177
緞	-13.4178
鼉	-13.4178
侏	-13.4179
鉄	-13.4179
􂪮	-13.418
昂	-13.4181
盼	-13.4186
珮	-13.4186
腑	-13.4192
𥱼	-13.4193
桐	-13.4194
榔	-13.4199
𢹂	-13.4205
柈	-13.4678
㪷	-13.4683
玔	-13.469
鋌	-13.4691
刖	-13.4694
柿	-13.4694
扼	-13.4696
幃	-13.4699
𧹞	-13.4702
禎	-13.4704
俠	-13.4705
隊	-13.4706
羔	-13.4706
倪	-13.4707
𨲙	-13.4708
蒭	-13.4708
莛	-13.4709
詆	-13.4713
咷	-13.4714
亟	-13.4714
荏	-13.4715
磋	-13.4715
霖	-13.4716
𤬪	-13.4716
刎	-13.4717
湏	-13.4717
痍	-13.4718
沖	-13.4718
恊	-13.4718
捼	-13.4721
羇	-13.4721
睦	-13.4721
爍	-13.4721
咩	-13.4722
砧	-13.4724
袂	-13.4724
靠	-13.4725
邕	-13.4725
韭	-13.4725
惕	-13.4726
蹹	-13.4728
俞	-13.4729
罩	-13.4731
㗘	-13.4733
喙	-13.4735
肱	-13.4735
爼	-13.4737
楮	-13.4739
潘	-13.4741
迬	-13.4743
杳	-13.4744
桀	-13.4746
挨	-13.4746
湻	-13.4749
裴	-13.477
𨚗	-13.5267
裿	-13.5268
嬭	-13.5275
勁	-13.528
墟	-13.5282
賾	-13.5283
劓	-13.5284
h	-13.5286
笐	-13.5289
呿	-13.5293
馭	-13.5293
扟	-13.5293
顙	-13.5294
巵	-13.5294
崑	-13.5295
嬌	-13.5295
伇	-13.5296
卉	-13.5296
勦	-13.5296
髆	-13.5296
侘	-13.5297
蜫	-13.5299
愴	-13.53
卅	-13.53
廛	-13.5301
􂍨	-13.5301
栓	-13.5301
蘂	-13.5302
圈	-13.5303
辮	-13.5303
掇	-13.5304
鵰	-13.5304
迺	-13.5305
覿	-13.5305
繚	-13.5305
匐	-13.5306
萠	-13.5307
閨	-13.5307
趾	-13.5307
悳	-13.5308
嫗	-13.5308
栢	-13.5309
匇	-13.531
娘	-13.5312
讌	-13.5312
顰	-13.5312
站	-13.5312
醘	-13.5313
倮	-13.5314
蚌	-13.5314
椑	-13.5315
寞	-13.5316
恍	-13.5317
稷	-13.5318
臠	-13.5318
鱉	-13.5322
哯	-13.5323
酣	-13.5325
悌	-13.5326
籾	-13.5328
丕	-13.5329
棉	-13.5338
㯹	-13.589
艷	-13.589
㖿	-13.5896
鸜	-13.5907
柘	-13.5908
鏃	-13.5909
s	-13.5909
罣	-13.591
鍋	-13.5913
帆	-13.5913
魍	-13.5914
魎	-13.5914
葫	-13.5915
疹	-13.5915
醇	-13.5916
嚝	-13.5918
靳	-13.5918
􂖂	-13.5918
蝡	-13.5919
弈	-13.5919
宥	-13.5919
陜	-13.592
菖	-13.5921
票	-13.5922
芟	-13.5923
㐫	-13.5925
磽	-13.5925
慟	-13.5926
篾	-13.5927
驀	-13.5927
煻	-13.5928
蟆	-13.5928
涓	-13.593
旻	-13.593
廕	-13.593
蝶	-13.593
軄	-13.5932
懵	-13.5932
偪	-13.5935
淆	-13.5935
舘	-13.5935
匍	-13.5935
殮	-13.5936
擴	-13.5936
蠧	-13.5936
􂎔	-13.5937
甑	-13.5937
虹	-13.5938
銕	-13.5938
暨	-13.5938
頤	-13.5938
坡	-13.5939
𡂡	-13.5939
塍	-13.5941
竽	-13.5944
錍	-13.5944
窨	-13.5945
覊	-13.5946
穄	-13.5948
抹	-13.5948
鴝	-13.5949
茯	-13.5949
􂫷	-13.595
鉏	-13.595
蛟	-13.5953
牘	-13.5954
觜	-13.5958
䊩	-13.5963
烘	-13.5976
餒	-13.5978
枲	-13.5984
剽	-13.6551
裒	-13.6571
樁	-13.6575
蚖	-13.6579
澍	-13.658
烝	-13.658
𩕳	-13.658
譁	-13.6581
顗	-13.6582
貍	-13.6583
貓	-13.6584
週	-13.6584
撅	-13.6586
甯	-13.6587
佷	-13.6588
崎	-13.659
逋	-13.659
櫚	-13.6591
暈	-13.6591
𢤱	-13.6593
酧	-13.6594
亶	-13.6594
絨	-13.6595
紏	-13.6596
叶	-13.6596
㲪	-13.6596
磕	-13.6596
錠	-13.6597
靿	-13.6598
杲	-13.6598
佃	-13.6599
黤	-13.6599
瑳	-13.6601
仿	-13.6601
𥼆	-13.6601
磧	-13.6601
謄	-13.6601
窳	-13.6601
聟	-13.6602
瘞	-13.6603
挵	-13.6603
鯉	-13.6603
躅	-13.6604
咋	-13.6604
鳧	-13.6604
懽	-13.6605
渭	-13.6605
蔴	-13.6606
蝮	-13.6606
岩	-13.6606
晶	-13.6607
麪	-13.6608
滾	-13.6608
頷	-13.6608
騐	-13.6609
𩬊	-13.6609
籥	-13.6609
琅	-13.6609
爆	-13.661
蛭	-13.661
𣚦	-13.6613
踦	-13.6613
捒	-13.6615
葵	-13.6615
雒	-13.6616
茆	-13.6616
癃	-13.6617
謔	-13.6618
菀	-13.6619
渝	-13.6622
檳	-13.663
墎	-13.6634
𡞞	-13.6636
榛	-13.7285
􂏨	-13.7286
濱	-13.7288
敧	-13.7288
􂞅	-13.729
臾	-13.729
ā	-13.7293
覘	-13.7293
𪾼	-13.7294
祁	-13.7296
埽	-13.7298
瞢	-13.7302
湮	-13.7303
𢯱	-13.7303
卻	-13.7303
􂪷	-13.7304
坤	-13.7306
抨	-13.7307
燦	-13.7308
髦	-13.7308
蹻	-13.7309
攣	-13.731
𧿟	-13.731
穰	-13.731
吮	-13.731
愔	-13.7311
猖	-13.7312
軆	-13.7313
裩	-13.7313
躋	-13.7314
梏	-13.7315
齩	-13.7315
蔚	-13.7315
姻	-13.7315
螻	-13.7316
罾	-13.7317
熒	-13.7318
惣	-13.7319
万	-13.732
𢷡	-13.732
褲	-13.7323
廈	-13.7325
鏇	-13.7326
撒	-13.7328
綰	-13.7328
昳	-13.7329
髴	-13.7331
舋	-13.7331
澹	-13.7334
俚	-13.7335
捄	-13.7335
芹	-13.7336
纊	-13.7337
羗	-13.7337
詹	-13.7341
黔	-13.7341
烙	-13.7343
驪	-13.7349
焙	-13.7361
孺	-13.7365
𦀟	-13.8026
肪	-13.804
琮	-13.8044
㗨	-13.8048
憺	-13.8051
疿	-13.8058
鑠	-13.8059
𧙕	-13.806
𨫼	-13.8061
懊	-13.8062
擋	-13.8063
n	-13.8063
謎	-13.8063
悷	-13.8063
囕	-13.8064
鵠	-13.8065
獘	-13.8066
幣	-13.8067
蒠	-13.8067
坫	-13.8068
港	-13.8069
擢	-13.807
鉞	-13.8071
冗	-13.8074
顇	-13.8074
黛	-13.8074
𨵗	-13.8075
皁	-13.8075
盔	-13.8075
樔	-13.8075
噵	-13.8076
狡	-13.8076
袾	-13.8076
鶉	-13.8077
蠻	-13.8078
朦	-13.8078
縢	-13.8079
㺲	-13.808
轤	-13.8081
璺	-13.8082
秕	-13.8082
郤	-13.8082
蛙	-13.8082
櫺	-13.8082
謠	-13.8082
僱	-13.8083
硯	-13.8083
璽	-13.8083
摙	-13.8084
􂪳	-13.8084
鐼	-13.8085
凾	-13.8085
它	-13.8086
擻	-13.8086
姧	-13.8086
癤	-13.8087
慄	-13.8087
楣	-13.8089
苣	-13.8089
雛	-13.8089
粱	-13.8089
戕	-13.809
賂	-13.8091
髣	-13.8091
塜	-13.8094
硎	-13.8094
氐	-13.8094
毉	-13.8094
鵅	-13.8095
墀	-13.8095
磑	-13.8096
饋	-13.81
柚	-13.81
佚	-13.8101
薛	-13.8102
薨	-13.8103
踪	-13.8103
𠍴	-13.8105
甖	-13.8107
莽	-13.8108
扁	-13.8109
鴞	-13.8109
椹	-13.8112
宼	-13.8112
䍲	-13.8113
獅	-13.8115
𦚾	-13.8117
鐏	-13.8121
昶	-13.8149
蒟	-13.8156
𤛓	-13.8877
㮏	-13.8888
杅	-13.8889
瀾	-13.8889
劂	-13.889
綣	-13.8891
坋	-13.8893
陌	-13.8893
靨	-13.8895
簞	-13.8895
眸	-13.8897
藺	-13.8897
棹	-13.8898
闘	-13.8898
菊	-13.8899
搯	-13.8899
跽	-13.89
很	-13.89
孃	-13.8901
抉	-13.8903
袜	-13.8903
梢	-13.8903
儗	-13.8904
蟠	-13.8904
駿	-13.8905
寘	-13.8905
汩	-13.8907
驍	-13.8907
徇	-13.8908
拕	-13.8908
澗	-13.8909
檝	-13.8909
笏	-13.891
蠡	-13.891
獦	-13.891
瘟	-13.8911
櫪	-13.8911
杷	-13.8912
殂	-13.8912
􂱁	-13.8912
紆	-13.8912
孑	-13.8912
黮	-13.8913
餔	-13.8914
痺	-13.8915
迤	-13.8916
駟	-13.8916
忒	-13.8916
碣	-13.8917
𢇲	-13.8917
疴	-13.8919
揜	-13.8919
綃	-13.892
硃	-13.892
欓	-13.8921
篩	-13.8922
餞	-13.8922
樺	-13.8923
磁	-13.8924
謐	-13.8924
虬	-13.8924
侗	-13.8925
遼	-13.8926
耑	-13.8926
絓	-13.8926
𠬧	-13.8927
櫓	-13.8927
䖟	-13.8927
聆	-13.8929
凳	-13.893
聘	-13.893
爺	-13.8931
洄	-13.8932
嬪	-13.8933
筥	-13.8934
庿	-13.8934
瞰	-13.8935
鐫	-13.8935
綽	-13.8937
柂	-13.8937
賕	-13.8937
頺	-13.8937
隈	-13.8938
攜	-13.8939
幰	-13.894
倐	-13.894
狙	-13.894
􂪵	-13.8941
韛	-13.8944
樟	-13.8944
幬	-13.8944
𠺕	-13.8944
朵	-13.8947
飴	-13.8955
扑	-13.8978
𨃥	-13.898
崐	-13.9775
鋡	-13.978
覃	-13.9781
痏	-13.9783
笈	-13.9786
衙	-13.9792
璿	-13.9794
衦	-13.9796
簣	-13.9799
烋	-13.9804
鉸	-13.9805
埳	-13.9807
劄	-13.9808
爴	-13.9808
髠	-13.9809
𩰖	-13.9811
颺	-13.9812
犲	-13.9814
瘓	-13.9814
挹	-13.9814
􂌯	-13.9814
殫	-13.9815
廳	-13.9815
穉	-13.9816
裡	-13.9816
蕀	-13.9817
䆿	-13.9817
淩	-13.9817
泌	-13.9817
沛	-13.9819
蚓	-13.9819
薹	-13.9819
軔	-13.982
毯	-13.982
杼	-13.982
苻	-13.9821
粤	-13.9821
璃	-13.9822
騖	-13.9822
挊	-13.9822
磓	-13.9823
毾	-13.9823
羶	-13.9823
𣛰	-13.9823
匾	-13.9824
昉	-13.9824
搋	-13.9825
黐	-13.9826
婀	-13.9826
枇	-13.9827
鏘	-13.9827
型	-13.9827
砥	-13.9828
㲩	-13.9828
伶	-13.9829
踉	-13.9829
吧	-13.9829
彳	-13.9831
蝱	-13.9831
􂚒	-13.9832
兌	-13.9832
淄	-13.9832
𨒬	-13.9834
𣰆	-13.9835
㹀	-13.9837
柝	-13.9837
駱	-13.9839
穹	-13.9839
苛	-13.984
騷	-13.984
蔣	-13.984
綊	-13.9842
犧	-13.9843
浦	-13.9844
儈	-13.9844
軾	-13.9845
凑	-13.9845
札	-13.9845
秸	-13.9846
鋧	-13.9846
厓	-13.9847
鞚	-13.985
邯	-13.985
魘	-13.9851
煅	-13.9853
稭	-13.9855
𤍜	-13.9855
珪	-13.9856
茨	-13.9859
絫	-13.9863
禺	-13.9865
龐	-13.9865
黯	-13.9867
贄	-13.9872
蘸	-13.9887
崘	-14.0777
締	-14.0787
麌	-14.0788
睿	-14.0789
𤴲	-14.079
􂏆	-14.0791
眵	-14.0794
峙	-14.0794
蔫	-14.0795
芉	-14.08
拌	-14.08
喡	-14.0801
k	-14.0802
悠	-14.0802
i	-14.0802
𣏾	-14.0802
飫	-14.0806
瘠	-14.0806
瞼	-14.0807
軃	-14.0807
凖	-14.0808
俸	-14.0809
孀	-14.081
扞	-14.081
紇	-14.0811
逭	-14.0812
秩	-14.0812
瀘	-14.0813
聶	-14.0813
􂪃	-14.0813
粆	-14.0814
孳	-14.0814
勛	-14.0814
𨓍	-14.0815
痶	-14.0815
咥	-14.0816
莾	-14.0817
皐	-14.0817
亨	-14.0817
虺	-14.0818
𤚲	-14.0818
簟	-14.0818
棬	-14.0818
侫	-14.0819
𧏙	-14.0819
魑	-14.0819
噠	-14.0819
狚	-14.0819
浹	-14.0819
杴	-14.0819
瞖	-14.082
㲖	-14.0821
緉	-14.0821
鈆	-14.0822
套	-14.0822
爻	-14.0822
􂎹	-14.0822
醻	-14.0825
鞏	-14.0825
飤	-14.0826
稿	-14.0826
匳	-14.0828
噦	-14.0828
晤	-14.0828
劾	-14.0828
獐	-14.0828
萊	-14.0828
恙	-14.0829
殼	-14.0829
颯	-14.0829
瓈	-14.0829
忓	-14.0829
穡	-14.083
嘻	-14.0831
稈	-14.0831
姜	-14.0831
媵	-14.0833
抅	-14.0833
倆	-14.0834
蠆	-14.0834
逶	-14.0835
𣏌	-14.0835
盻	-14.0835
蟬	-14.0835
窈	-14.0836
岡	-14.0836
顓	-14.0837
菲	-14.0837
婪	-14.0837
扙	-14.0838
鏟	-14.0839
阜	-14.0841
蜣	-14.0841
睢	-14.0841
縶	-14.0842
㡘	-14.0843
黻	-14.0843
拗	-14.0843
􂒀	-14.0843
痾	-14.0843
藹	-14.0844
堓	-14.0845
薯	-14.0846
􂬴	-14.0846
購	-14.0847
摡	-14.0848
餳	-14.0848
瓢	-14.0848
匈	-14.085
墊	-14.085
鋋	-14.085
祛	-14.0852
蹟	-14.0853
䩸	-14.0858
霓	-14.0858
謳	-14.0862
鄲	-14.0864
尹	-14.0867
櫰	-14.0872
紜	-14.1875
倰	-14.1896
撢	-14.1896
仝	-14.1905
燾	-14.1907
聒	-14.1907
鱣	-14.1908
麾	-14.1909
鋟	-14.1911
栱	-14.1912
泗	-14.1913
𥪰	-14.1913
㢡	-14.1914
壟	-14.1914
孛	-14.1915
䐡	-14.1915
妣	-14.1916
蠓	-14.1916
忪	-14.1916
凜	-14.1918
詃	-14.1919
䘖	-14.1919
􂱈	-14.1919
仄	-14.1919
凭	-14.192
号	-14.192
譴	-14.192
渙	-14.192
閔	-14.192
餻	-14.192
歧	-14.1921
秏	-14.1921
訾	-14.1921
繖	-14.1921
亷	-14.1921
媱	-14.1922
𦶇	-14.1923
跬	-14.1923
辞	-14.1923
嘶	-14.1924
歉	-14.1924
粹	-14.1924
幮	-14.1925
刼	-14.1926
綩	-14.1927
襜	-14.1927
㵪	-14.1927
胷	-14.1928
􂏓	-14.1928
褌	-14.1929
瀨	-14.193
粲	-14.1931
脬	-14.1931
箔	-14.1931
摾	-14.1931
跎	-14.1931
劃	-14.1932
瘤	-14.1932
𤥭	-14.1932
醴	-14.1934
霏	-14.1934
懱	-14.1934
島	-14.1934
殳	-14.1935
桷	-14.1935
殉	-14.1935
𨍮	-14.1936
槍	-14.1937
馴	-14.1938
瑯	-14.1938
圜	-14.1938
滇	-14.1938
涇	-14.1938
嬻	-14.1939
荀	-14.1939
彛	-14.1939
蘧	-14.1939
紃	-14.194
枓	-14.1941
徂	-14.1941
楔	-14.1942
翎	-14.1942
臉	-14.1942
歘	-14.1942
蟾	-14.1943
擐	-14.1943
郗	-14.1944
矃	-14.1944
梭	-14.1945
墁	-14.1946
鱠	-14.1946
錘	-14.1946
鸞	-14.1946
琛	-14.1947
侃	-14.1947
廡	-14.1947
煌	-14.1947
塟	-14.1948
斆	-14.1948
覼	-14.1949
髼	-14.1949
闠	-14.195
靸	-14.195
宬	-14.195
憨	-14.1951
􂔾	-14.1951
昞	-14.1952
艮	-14.1952
蜆	-14.1952
𤚥	-14.1953
昊	-14.1953
謌	-14.1953
錞	-14.1955
儱	-14.1955
頵	-14.1955
㡿	-14.1956
𢪛	-14.1957
榖	-14.1957
薶	-14.1958
峨	-14.1958
僵	-14.1958
辣	-14.1958
啾	-14.1965
蕷	-14.1965
矬	-14.1967
柹	-14.1969
璅	-14.197
蕂	-14.1975
辤	-14.1977
㧺	-14.1981
餽	-14.1985
褚	-14.1985
姒	-14.1989
籢	-14.3116
摋	-14.3139
漩	-14.3142
鍤	-14.3143
獰	-14.3144
喎	-14.3144
虅	-14.3147
揄	-14.3151
䩕	-14.3151
噪	-14.3152
䴬	-14.3154
挐	-14.3154
􂫖	-14.3155
迁	-14.3158
䗈	-14.3158
閼	-14.3159
聃	-14.316
珞	-14.316
筈	-14.316
惋	-14.316
賑	-14.3162
楹	-14.3163
𣑽	-14.3163
褓	-14.3164
鏵	-14.3164
曦	-14.3165
t	-14.3165
瘕	-14.3165
栿	-14.3167
𠃔	-14.3168
拶	-14.3168
渄	-14.3169
塢	-14.317
邵	-14.317
葡	-14.317
懌	-14.317
綢	-14.3171
滂	-14.3171
鷰	-14.3171
喰	-14.3171
攉	-14.3172
杻	-14.3172
𥧌	-14.3172
㬉	-14.3173
蚰	-14.3174
癎	-14.3175
躊	-14.3175
渥	-14.3175
彎	-14.3175
𣐍	-14.3175
闔	-14.3176
捿	-14.3176
瞷	-14.3176
𢩁	-14.3176
靄	-14.3176
遴	-14.3177
顫	-14.3177
瘨	-14.3178
閩	-14.3179
攊	-14.318
綆	-14.318
𣝕	-14.318
慍	-14.3181
矴	-14.3181
鬥	-14.3181
摑	-14.3181
貺	-14.3182
昱	-14.3182
萄	-14.3183
楝	-14.3183
檛	-14.3183
礓	-14.3183
覬	-14.3183
麒	-14.3184
撗	-14.3184
窰	-14.3184
咫	-14.3184
𥇒	-14.3188
唧	-14.3188
衽	-14.3188
曯	-14.3188
譎	-14.3189
璣	-14.3189
耿	-14.3189
迪	-14.319
賻	-14.319
忱	-14.319
臀	-14.3191
蛛	-14.3192
豸	-14.3193
聻	-14.3193
腿	-14.3195
慓	-14.3195
惙	-14.3195
駞	-14.3196
襌	-14.3196
𨰭	-14.3197
蓊	-14.3197
䐗	-14.3197
瘁	-14.3199
翱	-14.3199
綏	-14.3199
毆	-14.32
盒	-14.32
樑	-14.32
􂭛	-14.32
朞	-14.32
蘗	-14.3201
悍	-14.3201
鋺	-14.3201
蟹	-14.3201
糩	-14.3202
榱	-14.3202
𦬔	-14.3202
駢	-14.3203
笇	-14.3203
菱	-14.3203
扸	-14.3205
黲	-14.3206
膀	-14.3207
羌	-14.3207
藟	-14.3209
韶	-14.3209
㗛	-14.321
棍	-14.321
敖	-14.3213
迢	-14.3213
矗	-14.3214
椿	-14.3214
棠	-14.3215
燔	-14.3215
傎	-14.3215
獃	-14.3215
鯀	-14.3216
糝	-14.3218
琉	-14.3218
湎	-14.3221
㗖	-14.3224
繅	-14.3224
槹	-14.3228
梆	-14.3229
眤	-14.3232
揃	-14.3235
賠	-14.3249
暠	-14.326
囇	-14.4553
㝢	-14.4556
咃	-14.4566
贒	-14.4571
遨	-14.4572
塤	-14.4575
蚑	-14.4582
𨩲	-14.4583
岫	-14.4584
揑	-14.4587
茵	-14.4588
瞪	-14.459
畸	-14.4591
簀	-14.4592
䘏	-14.4594
炯	-14.4594
袞	-14.4594
ī	-14.4594
苃	-14.4596
醭	-14.4596
纑	-14.4597
-	-14.4598
l	-14.4599
攫	-14.4599
蘋	-14.46
蜒	-14.46
欶	-14.46
扛	-14.4602
翟	-14.4602
煏	-14.4603
圿	-14.4603
瓌	-14.4604
儸	-14.4604
鉅	-14.4604
惽	-14.4605
莚	-14.4606
啐	-14.4606
籃	-14.4606
躇	-14.4608
摳	-14.4609
衿	-14.4609
欻	-14.4609
煤	-14.4609
覡	-14.4609
傀	-14.4609
踔	-14.4609
篡	-14.461
籴	-14.461
腭	-14.461
暝	-14.4611
稸	-14.4611
寱	-14.4612
惲	-14.4612
澓	-14.4612
噆	-14.4612
劭	-14.4613
詬	-14.4613
醮	-14.4614
舀	-14.4615
慵	-14.4615
睚	-14.4615
茸	-14.4616
妳	-14.4616
笱	-14.4616
悃	-14.4617
牃	-14.4617
鈞	-14.4618
鋼	-14.4618
緬	-14.4618
跂	-14.4619
䰂	-14.462
弛	-14.462
宕	-14.4621
嘵	-14.4621
牗	-14.4622
摓	-14.4622
奎	-14.4623
僊	-14.4623
搶	-14.4624
呫	-14.4624
璟	-14.4624
竣	-14.4626
朧	-14.4626
筠	-14.4626
搨	-14.4626
淼	-14.4627
㨗	-14.4627
戞	-14.4628
塠	-14.4628
翩	-14.463
迃	-14.463
箅	-14.463
訐	-14.463
仔	-14.4632
嚟	-14.4632
橿	-14.4632
瑗	-14.4632
縧	-14.4632
踟	-14.4632
擭	-14.4633
謇	-14.4635
螳	-14.4636
粳	-14.4636
湘	-14.4636
諡	-14.4636
嵬	-14.4637
耒	-14.4637
睹	-14.4637
蕖	-14.4638
秧	-14.4638
胱	-14.4638
檽	-14.464
撑	-14.4641
盍	-14.4642
蹏	-14.4646
菉	-14.4647
柞	-14.4648
劊	-14.4648
嚇	-14.4651
窗	-14.4651
蒂	-14.4653
纘	-14.4654
肎	-14.4654
蒨	-14.4654
浟	-14.4657
渣	-14.4664
痆	-14.6272
憔	-14.6278
瑠	-14.6284
髏	-14.6308
茇	-14.6312
瘖	-14.8193
婇	-14.8238
m	-14.8258
㥲	-14.826
獼	-14.8295
隍	-15.0741
僥	-15.0758
虻	-15.078
忉	-15.0785
鸚	-15.0807
篌	-15.408
芭	-15.4103
髑	-15.4111
巍	-15.4111
幖	-15.4134
鴛	-15.4159
哂	-15.9073
o	-15.9091
蜈	-15.918
蚣	-15.9183
荔	-16.9099
蟇	-16.91
渒	-16.9133
㚲	-16.9134
P	-16.9135
蚯	-16.9136
蕾	-16.9137
蓓	-16.9138
惚	-16.9139
䔧	-16.914
譺	-16.9141
裓	-16.9142
啁	-16.9143
㒓	-16.9144
泝	-16.9145
蛺	-16.9146
茘	-16.9147
鵡	-16.9148
确	-16.9148
玼	-16.9149
剞	-16.915
邂	-16.9151
逅	-16.9152
轆	-16.9153
彿	-16.9154
椶	-16.9155
祩	-16.9156
靉	-16.9157
靆	-16.9158
蘡	-16.9159
藶	-16.916
葶	-16.9161
圄	-16.9162
囹	-16.9163
薁	-16.9164
槵	-16.9165
瓏	-16.9166
肨	-16.9167
𩦾	-16.9168
鶹	-16.9169
孜	-16.917
琥	-16.9171
[	-16.9172
苷	-16.9173
洴	-16.9174
琵	-16.9175
犴	-16.9176
鶖	-16.9177
靂	-16.9178
—	-16.9179
犙	-16.918
瑚	-16.9181
醐	-16.9182
+	-16.9183
>	-16.9184
邱	-16.9185
N	-16.9186
|	-16.9187
*	-16.9188
箜	-16.9188
