<unk>	0
<s>	0
</s>	0
之	-3.87236
以	-4.47552
為	-4.65852
也	-4.86397
而	-5.03247
曰	-5.1044
者	-5.18158
其	-5.23691
不	-5.2414
於	-5.28675
有	-5.3408
人	-5.54168
自	-5.6332
與	-5.63613
王	-5.70695
使	-5.72916
皆	-5.7528
(	-5.79196
上	-5.81064
/)	-5.81377
言	-5.84972
及	-5.86646
事	-5.88339
無	-5.89409
所	-5.94492
則	-5.95993
大	-5.9692
至	-5.97187
今	-6.06683
欲	-6.06779
乃	-6.07878
謂	-6.10269
一	-6.10915
臣	-6.13035
令	-6.17748
行	-6.18068
故	-6.18424
出	-6.23034
等	-6.23551
時	-6.25201
得	-6.26796
此	-6.28149
在	-6.2965
復	-6.32929
將	-6.32935
矣	-6.33035
公	-6.34079
兵	-6.34918
又	-6.38124
非	-6.38505
見	-6.39853
當	-6.40331
下	-6.40789
亦	-6.41037
子	-6.41089
中	-6.42823
多	-6.43506
相	-6.43577
請	-6.44336
如	-6.47034
命	-6.47889
可	-6.51691
用	-6.52668
從	-6.53154
入	-6.54651
▁	-6.55969
已	-6.5602
因	-6.60065
官	-6.60588
乎	-6.61211
必	-6.61377
天下	-6.6146
若	-6.61632
三	-6.62086
知	-6.62442
何	-6.6429
死	-6.6502
耳	-6.6582
軍	-6.66284
道	-6.66965
陛下	-6.67091
奏	-6.68125
立	-6.68312
雖	-6.68972
民	-6.69476
遂	-6.70019
宜	-6.70537
國	-6.70631
李	-6.72647
然	-6.74008
師古曰	-6.74946
以為	-6.75049
州	-6.75309
吾	-6.75959
安	-6.76188
數	-6.76532
常	-6.7691
馬	-6.77364
二	-6.77881
門	-6.78847
重	-6.78881
日	-6.79232
天	-6.80333
平	-6.81378
帝	-6.81725
張	-6.81737
聞	-6.81884
生	-6.82746
未	-6.83617
問	-6.84186
注云	-6.8427
漢	-6.84431
詔	-6.84806
歸	-6.85169
居	-6.85191
遣	-6.85573
後	-6.86269
既	-6.86416
書	-6.86436
求	-6.86829
或	-6.87553
初	-6.8785
反	-6.87856
我	-6.88534
文	-6.88595
進	-6.89535
長	-6.90251
方	-6.90784
法	-6.91593
取	-6.91855
君	-6.92026
家	-6.92356
先	-6.93302
明	-6.93362
城	-6.93574
陳	-6.93956
能	-6.95159
不可	-6.96134
成	-6.97062
太子	-6.97079
不能	-6.97103
前	-6.97719
名	-6.97824
去	-6.97953
意	-6.9809
且	-6.98715
髙	-6.9882
還	-6.99117
周	-6.99238
元	-6.99456
殺	-6.99583
四	-7.0002
始	-7.00525
作	-7.00724
衆	-7.00877
服	-7.02462
稱	-7.03532
主	-7.04216
五	-7.04521
地	-7.047
劉	-7.04722
卿	-7.05113
唐	-7.05646
正	-7.05934
是	-7.0712
邪	-7.08248
徳	-7.0842
舉	-7.08885
守	-7.09074
善	-7.09146
置	-7.09303
内	-7.09571
朕	-7.09665
諸	-7.09719
太后	-7.09785
猶	-7.10054
禮	-7.10086
即	-7.10843
議	-7.11659
心	-7.12499
魏	-7.12645
山	-7.13836
同	-7.14929
發	-7.15503
外	-7.15638
分	-7.15784
親	-7.16264
東	-7.16742
賜	-7.17048
實	-7.1721
小	-7.17406
受	-7.17753
失	-7.18054
秦	-7.18096
盡	-7.18161
朝	-7.18442
吏	-7.18886
深	-7.19135
傳	-7.19215
召	-7.193
制	-7.19352
信	-7.20257
士	-7.21284
南	-7.21974
坐	-7.22435
過	-7.23502
錢	-7.23616
起	-7.23897
水	-7.23958
計	-7.24073
來	-7.24224
世	-7.24268
武	-7.24418
云	-7.24507
食	-7.24942
通	-7.25034
于	-7.25308
引	-7.25598
獨	-7.25759
興	-7.26505
北	-7.27335
朝廷	-7.27355
齊	-7.28182
封	-7.28312
本	-7.28668
直	-7.28972
好	-7.29176
武帝	-7.29285
少	-7.29474
左右	-7.29799
甚	-7.29839
卒	-7.29871
更	-7.29988
太宗	-7.30001
難	-7.30602
趙	-7.31827
嘗	-7.31987
由是	-7.32104
白	-7.33356
賊	-7.33502
天子	-7.34221
思	-7.34347
任	-7.34725
逺	-7.35298
宰相	-7.36084
身	-7.36314
亂	-7.36381
論	-7.36563
陽	-7.36686
易	-7.36797
度	-7.36808
降	-7.3689
權	-7.37467
尚	-7.38308
恐	-7.38842
賢	-7.38988
晉	-7.40091
定	-7.40168
罪	-7.40169
加	-7.40243
謀	-7.40271
西	-7.40278
將軍	-7.41037
奉	-7.41268
六	-7.4131
宫	-7.4154
望	-7.41586
但	-7.41691
諫	-7.4186
二年	-7.43299
建	-7.4366
羣臣	-7.43749
車	-7.43773
戰	-7.44987
惡	-7.45134
明皇	-7.45372
義	-7.45549
位	-7.47124
拜	-7.47207
益	-7.47435
物	-7.47533
應	-7.47539
留	-7.47757
共	-7.4917
光	-7.49362
於是	-7.49586
亡	-7.49636
石	-7.49885
政	-7.50277
樂	-7.50615
三年	-7.50861
陵	-7.51229
幸	-7.51434
威	-7.52161
流	-7.52308
誅	-7.52415
表	-7.52585
夫	-7.52905
汝	-7.52907
年	-7.5343
府	-7.53579
功	-7.53631
誠	-7.53713
悉	-7.54145
元年	-7.54294
各	-7.54394
素	-7.54559
焉	-7.54646
每	-7.54667
音	-7.5467
處	-7.5467
終	-7.55307
辭	-7.55423
固	-7.55513
致	-7.55708
輕	-7.55806
告	-7.55842
才	-7.56216
不得	-7.56479
私	-7.56625
清	-7.56784
利	-7.57084
怒	-7.57143
勸	-7.59545
除	-7.59847
髙祖	-7.60166
后	-7.60423
文帝	-7.60523
豈	-7.608
節	-7.608
力	-7.60874
經	-7.60876
梁	-7.61117
疾	-7.61128
景	-7.61508
對曰	-7.61673
和	-7.62666
詣	-7.62784
鎮	-7.6291
楊	-7.62957
侯	-7.62991
治	-7.63071
廣	-7.63229
性	-7.63502
語	-7.64033
承	-7.64074
九	-7.64075
間	-7.64187
惟	-7.64364
爲	-7.64599
金	-7.64787
備	-7.64843
氏	-7.64933
哉	-7.65148
刑	-7.6519
彼	-7.65627
近	-7.65685
理	-7.65856
不敢	-7.67043
代	-7.67149
異	-7.67379
凡	-7.67647
新	-7.67821
收	-7.68312
怨	-7.68672
擊	-7.68768
百	-7.69175
執	-7.69414
萬	-7.69592
容	-7.69652
敗	-7.69679
德	-7.69794
衣	-7.69875
選	-7.69899
攻	-7.69936
郡	-7.70649
忠	-7.70749
契丹	-7.71239
志	-7.71285
楚	-7.71372
廢	-7.71433
口	-7.71517
風	-7.71693
章	-7.71723
比	-7.71735
對	-7.72
解	-7.72035
獻	-7.72126
崇	-7.72206
恩	-7.72275
絶	-7.72499
師	-7.72522
四年	-7.72893
就	-7.73187
勝	-7.73273
並	-7.73415
懼	-7.73656
百姓	-7.73745
母	-7.73924
臨	-7.74006
宣	-7.74283
所以	-7.74518
止	-7.7487
遺	-7.74974
徳宗	-7.7536
舊	-7.75526
願	-7.75537
兩	-7.75615
㑹	-7.75747
土	-7.76027
田	-7.76114
州刺史	-7.76144
帥	-7.76157
延	-7.76165
氣	-7.76235
貴	-7.76377
責	-7.76642
足	-7.76645
光武	-7.76672
許	-7.76876
七	-7.7724
神	-7.7749
𢎞	-7.77725
務	-7.77782
十	-7.78002
盛	-7.78179
首	-7.78675
父	-7.78888
曰吾	-7.79119
往	-7.7919
退	-7.79581
説	-7.79667
開	-7.79874
破	-7.80137
太	-7.80185
女	-7.80286
華	-7.80769
聲	-7.80777
宋	-7.81279
老	-7.81979
遇	-7.81996
敕	-7.8228
厚	-7.82612
從之	-7.82831
觀	-7.82987
疑	-7.83348
夜	-7.83525
聞之	-7.83544
謝	-7.83605
薦	-7.83706
附	-7.83729
禁	-7.83749
合	-7.83785
免	-7.84001
隂	-7.84073
嚴	-7.84157
會	-7.84193
如此	-7.84353
屬	-7.84361
憲宗	-7.85111
蜀	-7.85155
營	-7.85634
變	-7.85871
殿	-7.86107
動	-7.86149
改	-7.86239
唯	-7.86285
御	-7.86369
河	-7.86561
業	-7.86567
勿	-7.86831
縣	-7.86832
給	-7.87216
騎	-7.87335
賞	-7.88067
左	-7.88111
八	-7.88136
爭	-7.88634
省	-7.88684
愛	-7.89121
諸將	-7.89297
而已	-7.89632
顧	-7.89836
尚書	-7.89893
古	-7.90007
宗	-7.90122
獄	-7.90166
布	-7.9053
修	-7.9069
𫝊	-7.90742
貶	-7.90955
頗	-7.91016
為之	-7.91161
斬	-7.91532
不知	-7.91616
職	-7.91736
敬	-7.91799
聽	-7.918
伏	-7.92136
嵗	-7.92403
憂	-7.92561
集	-7.92844
徴	-7.92881
急	-7.93112
教	-7.93606
美	-7.93629
迎	-7.93711
吳	-7.93912
都	-7.94089
堅	-7.94098
昔	-7.94201
保	-7.94679
器	-7.94877
謂之	-7.9545
滅	-7.95466
由	-7.95756
徐	-7.95865
無所	-7.96205
罷	-7.96212
載	-7.96432
委	-7.96604
徒	-7.96758
設	-7.96771
遷	-7.96778
送	-7.96847
害	-7.97124
永	-7.97249
聖	-7.9726
指	-7.97272
全	-7.97356
輒	-7.97362
據	-7.97399
彊	-7.9797
毎	-7.97978
乞	-7.97995
燕	-7.98103
𤣥	-7.98333
久	-7.98358
胡	-7.98427
手	-7.9891
虜	-7.99312
存	-7.99797
酒	-7.9981
授	-7.99854
屢	-7.99912
視	-7.99913
俱	-7.99933
傷	-7.99957
者皆	-8.00377
交	-8.00497
說	-8.00931
勞	-8.01424
黄	-8.01554
明帝	-8.01577
諌	-8.01647
負	-8.02075
榮	-8.02227
兼	-8.02509
圖	-8.02547
百官	-8.02648
讓	-8.02722
遣使	-8.02871
國家	-8.02933
討	-8.02986
勢	-8.0315
縱	-8.03221
著	-8.03837
納	-8.03959
寧	-8.04023
然後	-8.04069
追	-8.04309
喜	-8.04445
并	-8.04607
棄	-8.04748
江	-8.05077
極	-8.05248
昭	-8.05456
尊	-8.05478
孝	-8.05517
司	-8.05736
便	-8.05838
被	-8.05921
仁	-8.06829
敵	-8.06874
邊	-8.0698
決	-8.074
號	-8.07516
咸	-8.07884
以來	-8.08002
世宗	-8.08121
皇后	-8.08362
救	-8.08509
公主	-8.08676
木	-8.09074
顯	-8.09276
孫	-8.09367
操	-8.09509
宦官	-8.09735
長安	-8.09902
戒	-8.10128
温	-8.10193
茍	-8.10313
五年	-8.10628
養	-8.11257
待	-8.11283
具	-8.11349
登	-8.11436
良	-8.11478
順	-8.11503
走	-8.1151
龍	-8.12143
韓	-8.12188
頭	-8.12227
郭	-8.12259
匈奴	-8.12424
族	-8.12593
積	-8.1295
曲	-8.13156
專	-8.1325
竟	-8.13262
别	-8.13318
大臣	-8.13402
面	-8.13493
赦	-8.13548
充	-8.13724
第	-8.13843
薄	-8.13848
隨	-8.13861
密	-8.13887
推	-8.14021
連	-8.14148
海	-8.14351
部	-8.14577
餘	-8.14708
己	-8.15384
月	-8.15483
宻	-8.15534
學	-8.15654
雲	-8.16067
要	-8.16095
徙	-8.16189
考	-8.16239
羣	-8.1627
獲	-8.16291
文宗	-8.16308
曹	-8.16469
參	-8.16736
化	-8.16757
髙宗	-8.17043
也師古曰	-8.17301
言於	-8.17729
須	-8.17754
俗	-8.18411
果	-8.18665
乆	-8.19274
逆	-8.19274
寵	-8.19374
不從	-8.19648
真	-8.20036
室	-8.20065
客	-8.20081
朱	-8.20292
情	-8.20351
契丹主	-8.20358
移	-8.20844
强	-8.20856
六年	-8.2106
路	-8.21305
危	-8.21308
崔	-8.21567
持	-8.21585
塞	-8.21599
字	-8.21662
患	-8.21714
不如	-8.21753
節度使	-8.21837
結	-8.22222
列	-8.22293
畏	-8.22339
暴	-8.22453
造	-8.22556
次	-8.22804
聚	-8.23036
病	-8.23082
歡	-8.23127
聴	-8.23277
史	-8.23335
侍中	-8.23626
禍	-8.2369
懐	-8.237
而不	-8.2449
識	-8.24528
擇	-8.24567
謹	-8.24648
草	-8.24702
有司	-8.24756
慮	-8.24835
遽	-8.24934
報	-8.24957
䇿	-8.24977
右	-8.25004
嘉	-8.25126
不許	-8.25258
為相	-8.25594
克	-8.25784
遊	-8.2636
乘	-8.26397
乗	-8.26489
夷	-8.2649
殷	-8.26535
簡	-8.26579
太守	-8.26983
察	-8.27141
殺之	-8.27189
蕭	-8.27241
運	-8.27347
今日	-8.27427
虎	-8.2747
徵	-8.27478
入朝	-8.27484
資	-8.27524
向	-8.27571
費	-8.28073
色	-8.28123
太祖	-8.28345
儀	-8.28506
市	-8.28542
達	-8.28938
笑	-8.2905
杜	-8.29081
欲以	-8.29086
夏	-8.29164
斷	-8.29172
曰此	-8.29437
息	-8.29452
領	-8.29474
財	-8.29743
使者	-8.29953
休	-8.30052
仍	-8.30161
唐主	-8.30698
散	-8.30859
違	-8.3093
超	-8.31006
體	-8.31212
郎	-8.31366
衛	-8.31476
誰	-8.31515
宴	-8.31993
賀	-8.32168
伐	-8.32433
甞	-8.32701
奈何	-8.32843
上言	-8.32868
毁	-8.332
亮	-8.33348
諸侯	-8.33463
尤	-8.33676
精	-8.33869
政事	-8.34071
臺	-8.34097
典	-8.34247
姦	-8.34335
鄭	-8.34455
火	-8.34618
昭宗	-8.34731
牛	-8.35325
施	-8.3533
四方	-8.35347
甲	-8.35508
叛	-8.35519
莊宗	-8.35546
約	-8.35722
役	-8.36067
濟	-8.36218
弱	-8.36398
孤	-8.36407
傾	-8.36494
也今	-8.36508
曰陛下	-8.3682
弟	-8.37068
不足	-8.37124
子孫	-8.37272
注	-8.37389
不肯	-8.37734
犯	-8.37774
昌	-8.38098
丞相	-8.38675
率	-8.38943
不復	-8.38947
掌	-8.39355
圍	-8.3945
士卒	-8.39861
質	-8.40135
災	-8.40256
屯	-8.40284
兄弟	-8.40325
千	-8.40441
呼	-8.40451
肅宗	-8.40525
恭	-8.40704
冠	-8.41092
期	-8.4123
富	-8.41243
投	-8.41336
寺	-8.41372
明宗	-8.41476
輔	-8.41981
愈	-8.42294
京師	-8.42392
兒	-8.42604
爾	-8.42901
泰	-8.42916
至於	-8.42945
曰今	-8.42997
曰朕	-8.43141
機	-8.43156
苦	-8.43216
按	-8.43256
莫	-8.43273
皇帝	-8.43318
豐	-8.43355
𩔖	-8.43667
依	-8.43742
傅	-8.43983
微	-8.44019
敢	-8.44068
康	-8.44121
専	-8.44277
籍	-8.44302
司馬	-8.44306
/)(	-8.44534
侍	-8.44783
目	-8.45082
即位	-8.45117
屈	-8.4517
襲	-8.45184
俟	-8.45198
優	-8.45292
自是	-8.4558
滿	-8.45723
循	-8.45804
援	-8.46064
裕	-8.46068
監	-8.46578
中國	-8.46789
黨	-8.46802
儉	-8.47011
何以	-8.47058
上書	-8.47114
福	-8.47233
祖	-8.47243
險	-8.47322
堂	-8.4755
洛陽	-8.47671
户	-8.47688
妻	-8.47854
導	-8.47929
皇	-8.47995
輸	-8.48238
船	-8.48282
韋	-8.48299
奴	-8.48395
愚	-8.48494
避	-8.4869
成帝	-8.48987
門漢	-8.49013
記	-8.49211
沈	-8.49252
伯	-8.49344
星	-8.49372
鄉	-8.49434
刻	-8.4947
大怒	-8.49642
者也	-8.49784
爵	-8.49903
飲	-8.50146
宿	-8.50225
隋	-8.50257
撫	-8.50264
竊	-8.50268
使人	-8.50375
奔	-8.50523
畫	-8.50572
策	-8.50588
符	-8.50602
恨	-8.50612
寛	-8.50688
許之	-8.50738
二人	-8.5076
射	-8.508
繼	-8.5116
齊王	-8.51261
横	-8.51292
累	-8.51407
是以	-8.51513
勤	-8.51553
公卿	-8.5157
宣宗	-8.51766
呉	-8.51909
漢王	-8.52324
樓	-8.52436
大將軍	-8.52519
勲	-8.52598
隆	-8.52667
㫖	-8.52708
囚	-8.52732
之後	-8.52867
廟	-8.53011
紀	-8.53421
原	-8.53584
空	-8.53745
繫	-8.53746
斬之	-8.53864
單于	-8.53875
辟	-8.53894
八年	-8.53958
人主	-8.54146
有所	-8.54196
越	-8.54499
博	-8.54602
内外	-8.54651
曰臣	-8.54771
懷	-8.54772
特	-8.54805
疏	-8.54813
狀	-8.54815
覆	-8.54822
紹	-8.54899
况	-8.55031
嗣	-8.55158
假	-8.55741
廷	-8.55749
妄	-8.55753
杖	-8.55891
虚	-8.55965
林	-8.56036
尋	-8.56086
雜	-8.56136
關	-8.56143
細	-8.56145
奪	-8.56217
代宗	-8.56245
慶	-8.56289
應劭曰	-8.56312
未嘗	-8.56407
青	-8.56534
願陛下	-8.56749
智	-8.5687
雅	-8.5712
玉	-8.57218
總	-8.57228
季	-8.57241
魯	-8.57296
故事	-8.5736
惜	-8.57414
之士	-8.57929
窮	-8.57932
校	-8.58117
寳	-8.58196
曰卿	-8.583
申	-8.58326
中宗	-8.58471
歎曰	-8.58589
既而	-8.58607
中外	-8.58813
魏主	-8.58918
刺史	-8.59069
邑	-8.59256
形	-8.59271
恱	-8.59418
諸軍	-8.59448
竒	-8.59466
賈	-8.59515
賦	-8.59518
兄	-8.59582
拒	-8.59617
漸	-8.59623
之間	-8.5986
元帝	-8.59876
略	-8.59952
知其	-8.60211
峻	-8.60273
與之	-8.60617
有功	-8.60663
殊	-8.60707
貪	-8.60735
歲	-8.60753
飾	-8.60804
歴	-8.60816
角	-8.60857
社稷	-8.60891
盗	-8.61069
一人	-8.61133
闗	-8.61169
天后	-8.61184
其子	-8.61217
舍	-8.61497
藩	-8.61708
況	-8.6197
林甫	-8.61983
候	-8.62013
材	-8.62014
貞	-8.62578
習	-8.62598
之地	-8.63074
灋	-8.63145
督	-8.63162
辨	-8.63186
釋	-8.63312
不聽	-8.63321
不為	-8.63377
庶	-8.63852
是時	-8.63965
衡	-8.64285
試	-8.64322
勇	-8.6437
律	-8.64371
祭	-8.64413
用之	-8.64453
敬宗	-8.64567
宣帝	-8.64755
之心	-8.64957
將士	-8.64987
乃止	-8.64993
象	-8.65079
為人	-8.6512
減	-8.65163
商	-8.65209
可以	-8.65254
損	-8.6529
何如	-8.65381
之事	-8.6544
戍	-8.65625
衰	-8.65637
寃	-8.6565
喪	-8.65665
藏	-8.65711
父子	-8.66098
野	-8.66296
豈可	-8.66741
忌	-8.66744
速	-8.66876
阿	-8.66903
侵	-8.66915
不及	-8.66984
稍	-8.66987
垂	-8.66995
案	-8.67004
驚	-8.67169
决	-8.67721
接	-8.67831
淵	-8.6795
適	-8.68014
步	-8.68041
盧	-8.68067
冀	-8.68131
禄	-8.68174
署	-8.68182
似	-8.68192
逼	-8.68271
放	-8.6831
溫	-8.68362
十年	-8.68395
誣	-8.68546
知之	-8.68696
術	-8.68986
不過	-8.69058
示	-8.69095
霸	-8.6918
不宜	-8.69225
冦	-8.69393
煬帝	-8.69448
謙	-8.69477
突厥	-8.69513
浩	-8.69514
歌	-8.69518
妾	-8.69528
吉	-8.69549
希	-8.69579
落	-8.6963
謁	-8.69645
賣	-8.69658
之言	-8.70152
御史	-8.703
震	-8.70497
畢	-8.70612
如淳曰	-8.7072
捕	-8.70805
僧	-8.7082
踰	-8.70835
戲	-8.70862
裴	-8.70897
虛	-8.70911
里	-8.70913
争	-8.70927
拔	-8.70951
馳	-8.71303
先帝	-8.71413
征	-8.71564
泣	-8.71725
敦	-8.71849
七年	-8.71872
以此	-8.71973
逃	-8.71976
掠	-8.71982
赴	-8.72145
引兵	-8.72166
量	-8.72177
付	-8.72204
之所	-8.72292
糧	-8.72377
無不	-8.72733
叔	-8.73316
效	-8.7339
雄	-8.7344
盜	-8.73493
寇	-8.73507
述	-8.73536
恥	-8.7354
䝉	-8.7361
蜀主	-8.73639
大王	-8.73766
明日	-8.74265
世祖	-8.74368
孔	-8.74628
靈	-8.74645
佐	-8.74656
農	-8.7477
全忠	-8.74806
秋	-8.74955
刀	-8.74957
鼓	-8.74993
佛	-8.75018
夫人	-8.75103
庭	-8.75213
不以	-8.75228
揚	-8.75285
悦	-8.75305
再	-8.75613
河南	-8.75758
同平章事	-8.7603
統	-8.76105
訓	-8.7614
米	-8.76224
衞	-8.76234
融	-8.76255
覽	-8.76261
采	-8.76331
薛	-8.76386
離	-8.77077
均	-8.77466
榖	-8.77521
将	-8.77522
高	-8.77549
隱	-8.776
寢	-8.7763
趣	-8.77688
詐	-8.77704
祠	-8.7773
雨	-8.77758
哀	-8.77888
短	-8.7815
忘	-8.78209
太尉	-8.78212
境	-8.78317
君子	-8.78658
秀	-8.7869
之功	-8.78758
壽	-8.78998
馮	-8.80423
幽	-8.80484
感	-8.80571
豪	-8.80623
樹	-8.80627
煩	-8.8064
調	-8.80663
宦者	-8.80728
一旦	-8.80766
武宗	-8.80811
軍士	-8.80965
曰昔	-8.80981
諭	-8.81046
二十	-8.81252
友	-8.81257
曰我	-8.81641
允	-8.8165
丁	-8.81896
擾	-8.81954
用事	-8.81964
班	-8.81977
補	-8.82023
干	-8.82035
蓋	-8.82075
大夫	-8.82253
不應	-8.82597
後漢	-8.82653
十二	-8.82771
供	-8.82839
晏	-8.8292
切	-8.83011
副	-8.83214
姓	-8.83272
升	-8.83432
羊	-8.83543
莫不	-8.83557
背	-8.83569
肉	-8.83605
辱	-8.83637
不受	-8.83839
逐	-8.84477
牙	-8.8455
赤	-8.84869
増	-8.85041
最	-8.85048
澤	-8.8507
審	-8.8509
乾	-8.85097
斯	-8.85144
所在	-8.85258
所言	-8.8527
弼	-8.85457
至是	-8.85793
死者	-8.85848
中書	-8.86003
上表	-8.86131
三公	-8.86161
敏	-8.86205
寶	-8.86293
詩	-8.8648
禹	-8.86508
貢	-8.86521
英	-8.86535
竭	-8.86557
血	-8.86606
匿	-8.86617
倫	-8.86625
僕	-8.86694
恃	-8.86819
不欲	-8.87182
州縣	-8.87217
戮	-8.87344
助	-8.87473
人皆	-8.87786
虞	-8.8779
尉	-8.87803
淮	-8.87884
顔	-8.88086
宅	-8.88141
戴	-8.88189
銅	-8.88236
髙帝紀	-8.88257
藥	-8.88301
軍中	-8.88759
末	-8.88955
蘇	-8.89443
曰公	-8.8949
舟	-8.89637
貨	-8.89661
浮	-8.897
工	-8.89724
寒	-8.8973
稅	-8.89739
巧	-8.8977
羽	-8.89794
盈	-8.89831
小人	-8.90067
諫曰	-8.90465
又曰	-8.90518
焚	-8.9073
之時	-8.90854
京	-8.90876
仲	-8.90931
慎	-8.91034
雍	-8.91197
黜	-8.91221
卑	-8.91228
差	-8.91401
畜	-8.91416
十二年	-8.9142
奏事	-8.9142
毛	-8.91427
先是	-8.91969
詔曰	-8.91999
築	-8.9226
其所	-8.92299
九年	-8.9239
必有	-8.92495
澄	-8.92787
振	-8.92832
橋	-8.92951
君臣	-8.92956
印	-8.92966
惠	-8.92985
荒	-8.93032
索	-8.93035
前後	-8.93173
天下之	-8.93323
歎	-8.94007
託	-8.94121
其言	-8.94189
夀	-8.94271
尺	-8.94318
幾	-8.94458
驕	-8.94499
園	-8.94562
規	-8.94593
丘	-8.94594
春	-8.94642
抑	-8.9467
鑄	-8.94678
館	-8.94718
偽	-8.9474
捨	-8.94769
四海	-8.94865
書曰	-8.95022
其家	-8.95237
闕	-8.95264
儒	-8.95359
頃	-8.95429
誅之	-8.95449
官爵	-8.95476
招	-8.95607
監軍	-8.95661
未有	-8.9569
彦	-8.95745
丹	-8.9594
乏	-8.95999
而去	-8.96011
徃	-8.96241
旁	-8.96326
丞	-8.96331
帶	-8.96355
輿	-8.96361
裁	-8.96372
困	-8.96383
祚	-8.96419
骨	-8.96434
逸	-8.96451
海内	-8.96635
故曰	-8.96795
之子	-8.96928
等皆	-8.97231
半	-8.9725
輩	-8.97418
側	-8.97567
所謂	-8.97652
惡之	-8.9766
下詔	-8.97669
翰林學士	-8.97683
之罪	-8.97785
驅	-8.97866
賂	-8.97905
轉	-8.97937
飛	-8.97941
穆	-8.97955
貞觀	-8.98024
雞	-8.98049
所為	-8.98204
國之	-8.98275
晉王	-8.98368
魏徴	-8.98414
竹	-8.98489
以示	-8.98821
不已	-8.99015
子弟	-8.99207
相與	-8.99375
魚	-8.99469
北魏	-8.99469
猛	-8.9958
判	-8.99628
預	-8.9965
竇	-8.9971
讒	-8.99725
到	-8.99788
故也	-8.99807
㣲	-8.99822
斗	-8.99869
穆宗	-8.99879
趙王	-8.99883
游	-8.999
烈	-8.99907
割	-8.99914
訪	-8.99917
吐蕃	-8.99964
高祖	-8.99981
其後	-9.00006
駕	-9.01117
之意	-9.01378
之人	-9.0139
戎	-9.01415
趨	-9.01423
擊之	-9.01469
惑	-9.01575
雪	-9.01595
種	-9.01624
誤	-9.01656
席	-9.01664
壁	-9.0167
忽	-9.01678
羅	-9.01704
削	-9.01737
驗	-9.01746
念	-9.01967
堪	-9.02372
宫中	-9.02395
文武	-9.02727
得失	-9.02829
言之	-9.03049
儲	-9.03233
莫敢	-9.03288
閉	-9.03351
劒	-9.03383
孟	-9.03398
㧞	-9.03418
扶	-9.03445
哭	-9.03478
卧	-9.03515
折	-9.03529
諸王	-9.0368
競	-9.03921
諸道	-9.04312
後唐	-9.04509
擒	-9.04521
上下	-9.04604
品	-9.047
廷尉	-9.04764
悔	-9.04939
雖有	-9.0495
豫	-9.04975
縁	-9.04976
朔	-9.0499
不至	-9.0507
倉	-9.05081
肅	-9.05152
粟	-9.05181
池	-9.05184
潞王	-9.05199
支	-9.05212
談	-9.05239
屋	-9.05298
其罪	-9.05306
流涕	-9.05317
嬰	-9.05353
鳯	-9.05367
條	-9.0537
崩	-9.05381
覺	-9.05384
袁	-9.05384
藩鎮	-9.05412
如是	-9.05863
將兵	-9.06115
募	-9.06186
階	-9.06551
用兵	-9.0666
憚	-9.07019
陸	-9.07068
驛	-9.07129
獵	-9.07133
鹽	-9.07141
𦙍	-9.07165
它	-9.07167
濫	-9.07183
構	-9.07232
裴度	-9.07234
抗	-9.0725
德宗	-9.07303
不用	-9.07592
端	-9.08443
襄	-9.08466
佞	-9.08757
妃	-9.08775
谷	-9.08999
歳	-9.09024
弓	-9.09075
凶	-9.09102
鄙	-9.09104
上疏	-9.09128
舒	-9.0916
譽	-9.09163
式	-9.09172
蔡	-9.09186
遣中使	-9.09229
詔書	-9.09388
河東	-9.09452
東都	-9.09491
自古	-9.09648
之臣	-9.09704
太宗曰	-9.09803
時人	-9.0997
萬人	-9.10004
以下	-9.10065
功臣	-9.10183
早	-9.10286
憲	-9.10535
俊	-9.1055
桓	-9.1063
舎	-9.10649
聰	-9.10818
憤	-9.10878
人情	-9.10898
啓	-9.11017
伺	-9.11043
藉	-9.11062
貌	-9.11115
回	-9.11119
翼	-9.11131
防	-9.11147
緩	-9.1116
何為	-9.11201
彈	-9.11215
執政	-9.11356
御史大夫	-9.11426
順帝	-9.1147
諸州	-9.1164
大司馬	-9.11726
此乃	-9.12231
足以	-9.12277
荆	-9.12319
不然	-9.12479
王者	-9.12508
劾	-9.12882
苑	-9.12896
檢	-9.13008
愧	-9.13032
露	-9.13041
贊	-9.13066
廬	-9.13068
度支	-9.13078
祀	-9.13082
昏	-9.13083
倚	-9.13094
迹	-9.13095
蔽	-9.13111
塗	-9.13124
鹿	-9.13136
卷	-9.13145
狂	-9.13152
皮	-9.1316
疎	-9.13164
富貴	-9.1321
李林甫	-9.13283
從容	-9.13402
宮	-9.13418
其事	-9.13902
豈得	-9.14053
主上	-9.14058
傳二十	-9.14242
傳四十	-9.14257
淮南	-9.14302
匹	-9.14321
殆	-9.14552
夕	-9.14645
有餘	-9.14684
洛	-9.1475
弊	-9.14814
侯景	-9.14831
租	-9.15019
彌	-9.15035
董	-9.15059
綱	-9.15078
録	-9.15079
􁰎	-9.15085
饑	-9.15111
濬	-9.15115
謗	-9.15118
停	-9.15126
房	-9.15147
匡	-9.15159
厲	-9.15178
殘	-9.15188
薨	-9.15224
笑曰	-9.15272
禦	-9.15835
是日	-9.15889
他	-9.15897
不得已	-9.15934
之禮	-9.16042
貧	-9.16059
山東	-9.16199
上疏以為	-9.16231
讀	-9.16266
傳三十	-9.16334
婦	-9.16386
讎	-9.16546
出入	-9.1662
是也	-9.16654
勒	-9.16968
冬	-9.16974
徽	-9.17072
䕶	-9.17102
增	-9.17116
無復	-9.17118
刺	-9.17121
痛	-9.17133
吕	-9.17178
朗	-9.17194
柱	-9.17198
畧	-9.172
譖	-9.17213
尸	-9.17217
弗	-9.17229
序	-9.17237
尹	-9.17251
譏	-9.17266
春秋	-9.17279
倍	-9.1729
葬	-9.17317
馮道	-9.17336
東宫	-9.17355
履	-9.17361
顥	-9.17368
錯	-9.1741
内史	-9.17533
中原	-9.1763
晉陽	-9.17803
羌	-9.17815
大事	-9.17821
發兵	-9.18127
髙帝	-9.18289
三十	-9.18312
河北	-9.18404
牧	-9.18523
晟	-9.18687
借	-9.18945
其人	-9.19048
曰君	-9.19168
祐	-9.19191
仰	-9.19235
璽	-9.19245
醉	-9.1928
屠	-9.19282
沖	-9.19307
源	-9.19337
擢	-9.19341
金帛	-9.19365
玊	-9.19365
曹操	-9.1951
開元	-9.19595
中書令	-9.19654
太平	-9.19877
蕭何	-9.19878
衍	-9.19941
臣竊	-9.20083
自今	-9.20125
曰汝	-9.20364
大梁	-9.20561
為太子	-9.20804
之志	-9.21123
十一年	-9.21195
㓜	-9.21363
矯	-9.21398
擁	-9.21404
絹	-9.21406
辯	-9.21438
二千石	-9.21452
隠	-9.21476
顯祖	-9.21478
阻	-9.21515
詳	-9.21527
遭	-9.21565
取之	-9.21576
賔客	-9.21587
格	-9.21608
革	-9.21863
傳六十	-9.21928
而無	-9.21928
民間	-9.22191
見之	-9.22298
庫	-9.22407
一日	-9.22827
將帥	-9.22827
十萬	-9.22888
無以	-9.2307
吴	-9.23242
重誨	-9.23328
彭	-9.23486
哀帝	-9.23563
茂	-9.23585
巡	-9.23595
屏	-9.23607
根	-9.23662
贈	-9.23673
鳥	-9.23681
程	-9.23713
姚	-9.23716
/	-9.23723
奮	-9.23748
科	-9.23765
長史	-9.23774
巢	-9.23778
恒	-9.23787
講	-9.23796
繁	-9.23798
謀反	-9.2382
學士	-9.23826
鼎	-9.23854
蕩	-9.23862
天地	-9.24028
古者	-9.24223
不忍	-9.24265
郡國	-9.24378
江淮	-9.24427
數百	-9.246
渾	-9.25046
郡縣	-9.25061
城中	-9.25105
朝臣	-9.25165
吏民	-9.25347
以其	-9.25557
範	-9.25562
旦	-9.2557
何不	-9.25791
湯	-9.25835
斥	-9.2585
協	-9.25917
収	-9.25929
舞	-9.25941
盖	-9.25957
邀	-9.2602
妖	-9.26021
而後	-9.26021
慕	-9.26022
遵	-9.26031
貫	-9.26042
燒	-9.26052
其意	-9.26103
瑞	-9.26147
齎	-9.26154
劉裕	-9.26179
明堂	-9.26181
中尉	-9.26241
固辭	-9.26474
諸子	-9.2652
數十	-9.26551
入見	-9.26573
而死	-9.2674
豈不	-9.27174
千里	-9.27182
十五	-9.27275
詰	-9.27536
祥	-9.27569
以問	-9.27773
貴人	-9.27869
矜	-9.27959
不當	-9.27979
州郡	-9.28075
建康	-9.28104
賤	-9.28105
牢	-9.28162
仗	-9.28185
税	-9.28185
限	-9.28256
以聞	-9.2826
浸	-9.28287
柔	-9.28291
突	-9.28293
䧟	-9.28349
潛	-9.28381
侍御史	-9.28386
車駕	-9.28407
府庫	-9.28494
有罪	-9.28776
人臣	-9.28919
代之	-9.29047
泌	-9.29142
不出	-9.29251
數千	-9.29476
司徒	-9.29488
十三年	-9.29521
訴	-9.29992
終不	-9.3005
旬	-9.30485
幼	-9.306
舅	-9.30621
泉	-9.30632
朝士	-9.30648
郊	-9.30668
給事中	-9.30683
没	-9.30687
宋璟	-9.30738
誘	-9.3074
整	-9.30742
陷	-9.30744
卜	-9.30744
鍾	-9.30748
侍郎	-9.30779
朱全忠	-9.30792
管	-9.30801
以為然	-9.30807
王莽	-9.30938
士大夫	-9.31006
不勝	-9.31566
忍	-9.31633
言其	-9.32234
傳十	-9.32371
殺人	-9.32444
庸	-9.32695
毅	-9.32826
晦	-9.32831
聖人	-9.32837
鄧	-9.32915
彪	-9.32978
蠻	-9.32997
烏	-9.33029
都督	-9.33048
珍	-9.33052
警	-9.33079
墮	-9.33093
罰	-9.33105
攝	-9.33127
諷	-9.3315
亟	-9.33153
頓	-9.33167
訟	-9.33174
院	-9.33187
服䖍曰	-9.3319
校尉	-9.33197
不免	-9.33209
至此	-9.33234
張晏曰	-9.33244
李徳裕	-9.33263
駢	-9.33324
不若	-9.33379
怪	-9.33478
之命	-9.33514
曰夫	-9.33544
判官	-9.33565
關中	-9.33601
宗廟	-9.33713
賞賜	-9.33736
元載	-9.33753
無罪	-9.33823
其餘	-9.34068
朋黨	-9.34074
大喜	-9.3418
皆為	-9.34368
道路	-9.34413
怨望	-9.3443
僕射	-9.34438
之法	-9.34497
皆有	-9.34564
諡	-9.34987
望之	-9.35216
之衆	-9.35256
陳平	-9.35272
帳	-9.35273
禪	-9.35336
歩	-9.35457
沙	-9.35466
東晉	-9.35486
潰	-9.3554
悟	-9.35547
吏部尚書	-9.3556
入宫	-9.35566
段	-9.35567
甫	-9.35572
恣	-9.35581
掩	-9.35597
瞻	-9.35627
擅	-9.35627
沮	-9.35627
挾	-9.35633
配	-9.35634
懿	-9.35642
環	-9.35653
旗	-9.35662
𦵏	-9.35662
叱	-9.35693
熟	-9.35703
排	-9.35711
彰	-9.35731
篇	-9.35783
外戚	-9.35882
參軍	-9.35903
元嘉	-9.35916
門唐	-9.35937
不與	-9.35984
十餘	-9.36075
孟康曰	-9.36631
忠臣	-9.3683
寡	-9.36982
人心	-9.37321
何所	-9.3744
久之	-9.37705
逢吉	-9.37975
𨽻	-9.3802
三日	-9.38065
靖	-9.38086
减	-9.3809
却	-9.38128
閩	-9.38171
効	-9.38174
京兆	-9.38193
怒曰	-9.38208
牒	-9.38208
壞	-9.38221
禄山	-9.38236
擬	-9.38239
懸	-9.38247
粲	-9.38254
掾	-9.38256
悲	-9.38265
穿	-9.38273
奢	-9.38278
中郎將	-9.3831
埶	-9.38343
卓	-9.38367
慰	-9.38405
四夷	-9.38479
不悦	-9.38546
彭城	-9.38548
其衆	-9.38788
無事	-9.38872
厭	-9.38959
之義	-9.39081
三百	-9.39102
衆心	-9.39191
視之	-9.39203
足下	-9.39248
鐵	-9.39654
百餘	-9.39777
自謂	-9.4006
渡	-9.40429
絳	-9.40571
十五年	-9.406
范	-9.40652
甘	-9.40663
贄	-9.40719
銀	-9.40749
産	-9.4075
勉	-9.4075
莊	-9.4075
豈有	-9.40773
賔	-9.40779
何必	-9.40783
涉	-9.40794
鳴	-9.40823
侃	-9.40823
晝夜	-9.40826
勅	-9.40827
珠	-9.40828
舜	-9.40832
亭	-9.40839
淺	-9.40845
皆以	-9.4085
躬	-9.4085
尚書令	-9.40853
忿	-9.40855
御史中丞	-9.40874
通鑑總𩔖卷	-9.40882
昶	-9.40909
謬	-9.40941
項羽	-9.4095
李絳	-9.40951
太原	-9.41046
鈞	-9.41091
江南	-9.41102
二千	-9.41129
盗賊	-9.41199
宿衛	-9.41203
大將	-9.41298
韓信	-9.41329
婦人	-9.41565
殿下	-9.41586
綽	-9.41623
數人	-9.41631
黙然	-9.41669
建武	-9.41765
不可以	-9.4182
之際	-9.41908
視事	-9.42036
數日	-9.42135
自稱	-9.42321
之中	-9.42481
精兵	-9.42765
其父	-9.42796
後世	-9.43007
隙	-9.43072
未可	-9.43095
宗室	-9.43126
厯	-9.43232
戚	-9.43297
壯	-9.43353
男	-9.43404
賛	-9.43416
耕	-9.43429
剛	-9.43434
翰	-9.43479
之勢	-9.43482
崇韜	-9.43486
纔	-9.43517
待之	-9.43521
盟	-9.43522
介	-9.43528
膳	-9.43539
懲	-9.43542
宏	-9.43565
耗	-9.43565
麗	-9.4357
縛	-9.43571
級	-9.43578
臂	-9.43582
侈	-9.4359
睿	-9.43599
者多	-9.43619
郭崇韜	-9.43622
完	-9.43639
括	-9.43671
黒	-9.43682
南唐	-9.43693
五十	-9.43882
上疏曰	-9.44097
問之	-9.44186
博士	-9.44211
之徒	-9.44395
戸	-9.4446
後晉	-9.44628
置酒	-9.45032
上曰	-9.4504
士民	-9.45107
不堪	-9.45151
魏王	-9.45377
之世	-9.45392
人君	-9.45448
王公	-9.45745
官軍	-9.45832
腹	-9.45909
妻子	-9.46034
莽	-9.46039
旱	-9.46051
慙	-9.46055
叔文	-9.46145
巴	-9.4615
紫	-9.46155
毋	-9.46159
什	-9.46174
咎	-9.46248
廵	-9.46303
襃	-9.46304
占	-9.46307
譛	-9.46316
淫	-9.46317
寸	-9.46317
欺	-9.46319
麻	-9.46319
亷	-9.4633
徇	-9.46343
柳	-9.4635
植	-9.46353
臣等	-9.46363
誓	-9.46367
穀	-9.46403
秩	-9.46407
蕃	-9.46419
陜	-9.46442
陶	-9.46485
它日	-9.46514
從榮	-9.46933
可謂	-9.47132
無功	-9.47188
三思	-9.47427
之日	-9.47481
三人	-9.47539
之外	-9.47581
大驚	-9.47609
抵	-9.47697
奏請	-9.47703
不言	-9.47746
所宜	-9.47764
建安	-9.47945
十四年	-9.47996
後宫	-9.48041
珪	-9.48156
釋之	-9.48187
號曰	-9.48195
十四	-9.4832
朝政	-9.48443
斤	-9.48471
勃	-9.48858
和親	-9.48862
除之	-9.48923
上皇	-9.48992
閣	-9.48996
瓊	-9.49063
湛	-9.49098
人也	-9.49104
激	-9.49116
亦不	-9.49126
弩	-9.49137
寄	-9.4915
璟	-9.49152
逹	-9.49155
蒲	-9.49172
牀	-9.49173
荅	-9.49182
紙	-9.49188
𤣥齡	-9.49195
衝	-9.49195
社	-9.49198
巨	-9.49201
西域	-9.49213
詭	-9.49217
李泌	-9.49226
郭威	-9.49228
蝗	-9.49249
乖	-9.4925
徧	-9.49253
可汗	-9.49253
葢	-9.49268
裂	-9.49283
數萬	-9.49355
臣恐	-9.49376
項王	-9.49406
災異	-9.49421
耳目	-9.49593
闗中	-9.49736
數年	-9.50005
帝王	-9.50101
以上	-9.50291
十餘人	-9.50369
輔國	-9.50379
不行	-9.50392
答	-9.50414
宫人	-9.50616
千餘人	-9.50696
千人	-9.5078
司空	-9.50794
来	-9.50937
也言	-9.51099
不見	-9.51183
京兆尹	-9.5119
臣下	-9.51558
自言	-9.51651
湖	-9.51711
川	-9.51833
曰若	-9.51876
肆	-9.51936
仁傑	-9.51952
仕	-9.51997
嫌	-9.52007
斂	-9.52011
歛	-9.52012
辛	-9.52045
徑	-9.52063
冒	-9.52099
價	-9.52122
恂	-9.52122
靡	-9.52134
無益	-9.52135
午	-9.52147
鳯翔	-9.5215
不聴	-9.52151
閒	-9.52152
鑿	-9.52155
捷	-9.52156
宥	-9.52167
昆	-9.52196
巾	-9.52227
贖	-9.52249
監察御史	-9.52263
詣闕	-9.52268
自以	-9.52283
宫室	-9.52288
㦸	-9.5231
桓帝	-9.52362
皇子	-9.52509
秦王	-9.52537
逺近	-9.52561
元忠	-9.52709
羣下	-9.52719
日夜	-9.5276
得之	-9.52905
於此	-9.53225
以求	-9.53367
對曰臣	-9.53406
也夫	-9.53519
之道	-9.5382
鄴	-9.53856
飲酒	-9.54126
軌	-9.54709
乃以	-9.54769
篤	-9.54954
毒	-9.55038
抱	-9.55091
倒	-9.55096
凝	-9.55111
恪	-9.55112
曉	-9.55114
璋	-9.55116
恕	-9.55118
弄	-9.55142
亊	-9.55147
叙	-9.5516
㓂	-9.55164
栁	-9.55164
頴	-9.55169
啟	-9.55177
以備	-9.55187
偏	-9.55188
閩主	-9.55189
壊	-9.55212
踐	-9.55216
課	-9.55239
愷	-9.55242
騰	-9.55246
幹	-9.55249
齊丘	-9.55258
疲	-9.55261
堯	-9.55271
琛	-9.55275
黄巢	-9.5533
呉主	-9.55388
安得	-9.55509
其黨	-9.55569
元和	-9.55637
未能	-9.55654
知誥	-9.55676
至于	-9.55682
曾	-9.55748
數千人	-9.55764
自殺	-9.55882
行之	-9.5592
對曰陛下	-9.55933
百萬	-9.56009
荆州	-9.56045
為政	-9.5609
三千	-9.56303
即日	-9.56509
王導	-9.56582
皇太子	-9.56732
後周	-9.56785
如故	-9.56848
大敗	-9.56926
於外	-9.56968
必不	-9.57056
名也	-9.57265
竟不	-9.57646
百餘人	-9.57662
員	-9.57743
暉	-9.57796
何得	-9.58001
帛	-9.58068
兆	-9.58128
傳五十	-9.58149
筆	-9.58164
贍	-9.58193
禁中	-9.58201
井	-9.58228
貴妃	-9.58231
柄	-9.58252
不服	-9.58253
坊	-9.58269
含	-9.58269
藝	-9.5828
夢	-9.58291
垣	-9.58294
弔	-9.5834
料	-9.58341
渉	-9.58348
辰	-9.58348
予	-9.5835
樊	-9.58365
臣光曰	-9.58377
懿宗	-9.58378
安能	-9.58388
劍	-9.5839
腹心	-9.58522
不在	-9.58585
莫能	-9.58661
相繼	-9.58757
一切	-9.58891
太常	-9.58967
之術	-9.59296
之名	-9.59392
洪	-9.59639
攻之	-9.59667
如此則	-9.59891
三十六	-9.59898
荀	-9.60077
又以	-9.60184
古之	-9.60499
不恱	-9.60514
五千	-9.60522
江東	-9.60557
也若	-9.60763
丈	-9.60791
南北	-9.60962
敞	-9.61357
暮	-9.61367
䘮	-9.61384
顗	-9.61419
枉	-9.61426
臧	-9.61443
旣	-9.61466
陸贄	-9.61479
鄰	-9.61483
肥	-9.61501
崔𦙍	-9.61505
婢	-9.61517
諫議大夫	-9.61539
謂侍臣曰	-9.61557
童	-9.61568
距	-9.61578
故人	-9.61581
遲	-9.61588
俠	-9.61599
活	-9.61599
貴戚	-9.61609
娶	-9.61617
咨	-9.61666
不可不	-9.61712
之官	-9.61736
五百	-9.61739
往往	-9.6176
幽州	-9.61841
萬餘人	-9.61954
隂陽	-9.61964
諌曰	-9.61965
四十	-9.62055
將佐	-9.62098
為宰相	-9.62105
劉氏	-9.6211
明公	-9.62148
留守	-9.62232
遂以	-9.62346
更名	-9.62723
非所以	-9.62817
遣人	-9.62821
當時	-9.63165
疑之	-9.63305
悉以	-9.63447
先生	-9.6357
仙	-9.63611
何也	-9.63616
不疑	-9.63934
請以	-9.64023
國忠	-9.64114
之禍	-9.64159
都尉	-9.64177
不利	-9.64189
孰	-9.64397
者以	-9.64416
十六	-9.6443
)	-9.64556
告之	-9.64559
贓	-9.64564
簿	-9.64607
豎	-9.64635
矢	-9.64642
祿	-9.64664
隔	-9.647
亦有	-9.64712
銓	-9.6478
敬瑭	-9.64792
即皇帝位	-9.64802
苛	-9.64829
蘭	-9.64834
脅	-9.64837
泄	-9.6484
虧	-9.64843
李竒曰	-9.64852
黃	-9.64854
姚崇	-9.64855
創	-9.64865
練	-9.64872
缺	-9.64873
沒	-9.6489
漏	-9.649
䖍	-9.64911
喻	-9.64911
時人謂之	-9.64918
麟	-9.6493
黎	-9.64958
秦王堅	-9.65001
朝夕	-9.65008
召見	-9.65067
朝野	-9.65093
賞罰	-9.65109
斛	-9.65158
直言	-9.65192
其母	-9.65296
成都	-9.65447
於上	-9.6553
汴	-9.65566
義府	-9.65623
所欲	-9.65636
彦卿	-9.65764
東魏	-9.6579
將相	-9.65906
進士	-9.6608
以是	-9.66278
舊臣	-9.66308
六十	-9.66315
河中	-9.66472
二百	-9.66608
十三	-9.6666
漢主	-9.66698
使之	-9.66756
日月	-9.66834
中山	-9.66949
十七	-9.67007
之家	-9.6706
愛之	-9.67169
取其	-9.67198
卿等	-9.67234
見其	-9.6728
魏人	-9.67459
棄之	-9.67464
下獄	-9.67484
罵	-9.67492
寨	-9.6754
鑄錢	-9.67569
宰	-9.67582
一朝	-9.67614
將吏	-9.6772
皆不	-9.67735
也故	-9.67759
大功	-9.67781
不同	-9.68004
欽	-9.68047
圜	-9.68098
姬	-9.68123
泚	-9.68127
静	-9.68164
滯	-9.68181
韜	-9.68187
遁	-9.68189
佳	-9.68222
輦	-9.68232
盤	-9.68236
桑	-9.68244
傑	-9.68268
蘇林曰	-9.6827
中使	-9.68276
葉	-9.68283
算	-9.68285
誕	-9.68285
餉	-9.68304
曠	-9.68309
厥	-9.68315
堯舜	-9.68319
十七年	-9.68325
粗	-9.68328
例	-9.6833
凖	-9.68331
鑒	-9.68332
親戚	-9.68343
璘	-9.68376
諸葛亮	-9.68395
節度	-9.68399
馬援	-9.68412
旬日	-9.68439
京城	-9.68455
不顧	-9.68503
風俗	-9.68579
衣冠	-9.68588
如何	-9.68722
未至	-9.6875
所居	-9.68803
張良	-9.68979
稱臣	-9.69046
之計	-9.69071
無忌	-9.6914
出於	-9.69264
而出	-9.69277
不能用	-9.69287
而還	-9.69332
三萬	-9.69572
有三	-9.69656
諫官	-9.69675
救之	-9.69855
為天子	-9.70225
於前	-9.70389
乃更	-9.70635
之初	-9.70804
房𤣥齡	-9.71026
文學	-9.71145
燕王	-9.71183
父母	-9.71224
慢	-9.71373
太和	-9.71408
百里	-9.71451
賴	-9.71553
十八	-9.71624
㡬	-9.71673
墨	-9.71692
至徳	-9.71696
為嗣	-9.71701
俸	-9.71707
乆之	-9.71707
單	-9.71711
鳳	-9.71734
尾	-9.71791
晩	-9.71795
窺	-9.71807
曰天下	-9.71809
穢	-9.71814
津	-9.71815
鋒	-9.71832
楊國忠	-9.71848
恢	-9.71857
訊	-9.71859
檄	-9.7187
州司馬	-9.71874
觀察使	-9.71875
㢘	-9.71875
域	-9.71876
邸	-9.71876
奚	-9.71877
僖宗	-9.71883
誦	-9.71885
狗	-9.71886
織	-9.71888
饗	-9.71894
句	-9.71897
麥	-9.71902
艱難	-9.71908
買	-9.71909
鞭	-9.71914
貯	-9.71915
捐	-9.71922
耶	-9.71924
寤	-9.71932
棺	-9.71947
憑	-9.71958
促	-9.71969
征伐	-9.71996
不平	-9.72014
荷	-9.72022
崔浩	-9.72031
封禪	-9.72054
以為不可	-9.7222
諸司	-9.72368
門下	-9.72404
少府	-9.72423
舊制	-9.72423
常侍	-9.72534
南陽	-9.72608
數百人	-9.72695
臨朝	-9.72734
武帝曰	-9.72847
或曰	-9.72986
歸之	-9.73095
不絶	-9.73196
獨不	-9.73202
萬一	-9.73289
之憂	-9.73401
是嵗	-9.73422
大業	-9.73432
欲與	-9.73563
常以	-9.7358
得罪	-9.73669
曏	-9.73764
三月	-9.73767
在位	-9.74009
立功	-9.74019
臣聞	-9.74086
為一	-9.74109
拘	-9.74384
多所	-9.74487
可求	-9.7453
無敢	-9.74582
有此	-9.7459
齊主	-9.74627
唐太宗	-9.74883
獸	-9.75052
大軍	-9.7513
五月	-9.7516
否	-9.75274
置之	-9.7529
浚	-9.75317
譴	-9.75328
紳	-9.75382
渠	-9.75401
純	-9.75426
疆	-9.75453
弑	-9.75487
廉	-9.75491
普	-9.75493
械	-9.75494
匱	-9.75512
安重誨	-9.75518
鄭注	-9.75519
蓄	-9.75537
冰	-9.75543
所得	-9.75544
鉤	-9.75545
勁	-9.75556
涕泣	-9.75559
郭子儀	-9.75563
歎息	-9.7557
暑	-9.75572
庻	-9.75572
墜	-9.75576
逰	-9.75579
羸	-9.75614
繩	-9.75614
譚	-9.75621
輪	-9.75624
滋	-9.75634
圗	-9.75647
脩	-9.75662
秀實	-9.75677
犬	-9.75679
仁厚	-9.75685
㑹稽	-9.75693
龜	-9.75718
像	-9.75723
餌	-9.75819
真卿	-9.75906
萬餘	-9.75907
問以	-9.75962
返	-9.76027
黄門	-9.76051
姦臣	-9.76082
三司	-9.7628
奏之	-9.76287
於道	-9.7631
悔之	-9.76322
官屬	-9.76396
克用	-9.76526
降者	-9.76529
為陛下	-9.76813
至尊	-9.76921
欲使	-9.76938
坦	-9.76964
縣令	-9.77007
為國	-9.77095
銜	-9.77196
事之	-9.77351
之患	-9.77384
軍國	-9.77605
者謂之	-9.77661
而退	-9.77801
鮮	-9.78005
之内	-9.78031
不克	-9.78078
楚王	-9.78081
衆皆	-9.78185
為我	-9.78216
議之	-9.78265
兹	-9.78269
之民	-9.78306
有才	-9.78378
何足	-9.78424
何敢	-9.78511
汝曹	-9.78518
後梁	-9.78529
今陛下	-9.78607
所殺	-9.78708
二子	-9.78839
不拜	-9.7886
門外	-9.78917
嵩	-9.7894
髪	-9.79148
九齡	-9.79179
伍	-9.7927
晚	-9.7927
迫	-9.79302
駿	-9.79302
樞	-9.79309
光禄大夫	-9.79312
艾	-9.79317
謟	-9.79321
墓	-9.79329
翁	-9.79334
詞	-9.79335
鬼	-9.79335
區	-9.79346
巖	-9.7935
消	-9.79354
齒	-9.7937
晝	-9.79375
界	-9.79396
飢	-9.79409
邉	-9.79417
伊	-9.7942
雀	-9.79421
頸	-9.79421
吞	-9.79425
都指揮使	-9.79427
之黨	-9.79442
朋	-9.79445
枝	-9.79445
寜	-9.7945
蒙	-9.7945
瓦	-9.79452
鬬	-9.79455
中書舎人	-9.79459
儻	-9.79463
弛	-9.79474
袁紹	-9.79474
滎陽	-9.7949
禽	-9.79514
淑妃	-9.79519
髮	-9.79526
悅	-9.79528
洽	-9.79572
靈帝	-9.79589
禍福	-9.79593
徳裕	-9.79673
家人	-9.79741
沛公	-9.79773
沙門	-9.79781
師傅	-9.79818
得免	-9.79826
術士	-9.79827
謂人曰	-9.7987
有疾	-9.79978
史官	-9.80055
數十人	-9.80292
所親	-9.80298
不盡	-9.80355
甚厚	-9.80373
謝安	-9.8062
法度	-9.80635
愬	-9.80645
賢才	-9.80709
舍人	-9.8076
制度	-9.80836
乃命	-9.80877
宗族	-9.81175
不報	-9.8124
道子	-9.81523
不取	-9.81661
帥衆	-9.81842
不願	-9.81945
諸君	-9.82121
一時	-9.8217
功名	-9.82182
議者	-9.82278
皆以為	-9.82495
其實	-9.82579
叩頭	-9.82751
遜	-9.82778
駭	-9.8281
患之	-9.82813
人所	-9.82842
受命	-9.8289
郎中	-9.82891
豈非	-9.82897
出兵	-9.82968
蒼	-9.83002
大小	-9.83059
稽	-9.83131
汗	-9.83155
其才	-9.83192
冊	-9.83193
𨼆	-9.83227
不食	-9.8326
翔	-9.8327
幕	-9.83285
靜	-9.83304
辦	-9.83322
銖	-9.83352
護	-9.83359
譙	-9.8336
撰	-9.83366
囊	-9.83368
囘	-9.83368
詢	-9.83375
二十四	-9.83379
吏部侍郎	-9.8338
桑維翰	-9.8338
提	-9.83382
羽林	-9.83402
雉	-9.83408
釁	-9.8341
披	-9.83422
壘	-9.83438
邦	-9.83444
聘	-9.83467
撓	-9.83471
愍	-9.83484
頡利	-9.83509
及其	-9.83515
祜	-9.83532
鼔	-9.83561
貢獻	-9.8357
隱帝	-9.83572
享	-9.83575
板	-9.83597
慕容	-9.83665
神仙	-9.83696
隋文帝	-9.83862
河陽	-9.83902
軍旅	-9.83987
之才	-9.83997
之弊	-9.84015
往來	-9.84026
不聞	-9.84031
威權	-9.84085
數月	-9.84177
東西	-9.84285
子儀	-9.84305
不息	-9.84365
賜之	-9.84376
不自安	-9.84444
作亂	-9.84509
守光	-9.84603
李固	-9.84606
六軍	-9.84672
一年	-9.84973
不能自	-9.85006
信之	-9.85132
公私	-9.85237
三年初	-9.85307
遣之	-9.8534
自然	-9.85345
既至	-9.8536
表請	-9.85557
深入	-9.85614
曽	-9.85658
不相	-9.85913
古今	-9.85949
列侯	-9.8603
臣請	-9.86034
中常侍	-9.86046
乃出	-9.86159
者為	-9.8631
賜死	-9.86373
王氏	-9.86564
軍府	-9.8671
慶之	-9.86747
樞宻使	-9.86989
以事	-9.87102
詡	-9.87118
仇	-9.87125
其中	-9.87175
衛士	-9.8718
而立	-9.87222
播	-9.87292
長者	-9.87333
媚	-9.87342
忌之	-9.87366
散騎常侍	-9.87386
幣	-9.87445
踈	-9.87494
續	-9.87513
乂	-9.87517
嫁	-9.87535
育	-9.87539
快	-9.87544
宗閔	-9.87545
納之	-9.87549
強	-9.87554
晞	-9.87554
邕	-9.87557
二月	-9.87559
乘輿	-9.87565
嶺南	-9.87569
旋	-9.87573
恵帝	-9.87587
罕	-9.8759
村	-9.8759
鋭	-9.8759
貸	-9.87595
脱	-9.87596
諱	-9.876
惲	-9.876
枕	-9.87605
踵	-9.87614
仁軌	-9.87616
躁	-9.87618
乗輿	-9.87619
吉凶	-9.87623
骨肉	-9.87625
秦始皇	-9.87628
梟	-9.87637
脫	-9.87639
豫章	-9.87641
祗	-9.87646
糾	-9.87646
琮	-9.8765
犇	-9.87652
夾	-9.87652
睿宗	-9.87657
準	-9.87658
座	-9.87662
皓	-9.87662
太師	-9.87667
丕	-9.87675
中書舍人	-9.87677
李德裕	-9.87678
泣曰	-9.8768
台	-9.87695
編	-9.87697
昱	-9.8771
泥	-9.87722
屯田	-9.87725
繇	-9.87799
男女	-9.87799
户口	-9.87828
元振	-9.87898
之故	-9.87915
江陵	-9.87918
也且	-9.87937
布衣	-9.87947
吏部	-9.87953
魏徵	-9.88017
北伐	-9.88084
泰山	-9.88216
不死	-9.8822
言曰	-9.88254
大明	-9.8832
年少	-9.88385
處分	-9.88396
均王	-9.88418
進退	-9.88483
耳今	-9.88515
討賊	-9.88592
留之	-9.88594
不安	-9.88803
百人	-9.88984
悰	-9.89041
之國	-9.89136
於天下	-9.89137
是非	-9.89213
然則	-9.89306
世民	-9.89385
改元	-9.89415
不足以	-9.89436
之恩	-9.89437
孔子	-9.89471
之過	-9.89529
頃之	-9.89541
之謀	-9.89619
各有	-9.89698
第一	-9.89769
魏世祖	-9.89918
極言	-9.90003
中興	-9.90098
以後	-9.90147
北齊	-9.90167
多不	-9.90191
可乎	-9.90392
何故	-9.90554
欲立	-9.90594
晉灼曰	-9.90618
或以	-9.90692
孝武帝	-9.90789
禁軍	-9.90825
大中	-9.9092
也陛下	-9.90965
無度	-9.90985
也又	-9.91073
天命	-9.91091
閤	-9.91153
以爲	-9.91238
元帥	-9.91366
逮	-9.91385
膺	-9.91412
為天下	-9.91421
一舉	-9.91426
項	-9.91458
邠	-9.91501
曰臣聞	-9.91648
之美	-9.91695
茂貞	-9.91755
道士	-9.91775
攜	-9.918
璨	-9.91852
指揮使	-9.91854
唱	-9.9187
濤	-9.91877
顔真卿	-9.91902
街	-9.91919
桀	-9.91929
醜	-9.91938
劇	-9.91945
鴻	-9.91948
謐	-9.9195
郁	-9.91952
姪	-9.91956
侮	-9.91961
麾下	-9.91967
稼	-9.91971
塵	-9.91971
染	-9.91973
嶠	-9.91975
蠲	-9.91975
岳	-9.91977
壹	-9.91978
賜以	-9.91978
拯	-9.91982
敇	-9.91984
岐	-9.92006
李晟	-9.92008
犀	-9.92025
壯士	-9.92036
遮	-9.9204
叡	-9.92042
偶	-9.92043
右僕射	-9.92045
偃	-9.92065
契	-9.92075
姑	-9.92097
既得	-9.92149
劭	-9.92166
朔方	-9.92227
勿以	-9.92245
其上	-9.9225
百司	-9.92272
黄金	-9.92309
禍亂	-9.9232
河西	-9.9245
已下	-9.92568
在外	-9.92623
黄帝	-9.9263
俊臣	-9.92677
王猛	-9.92681
十里	-9.92719
其志	-9.92752
處之	-9.92759
方士	-9.9277
永平	-9.92785
髙祖曰	-9.92894
君集	-9.92983
謂之曰	-9.93004
武徳	-9.93056
景帝	-9.93056
中人	-9.93066
攻城	-9.93125
遣使者	-9.93208
除官	-9.93249
或謂	-9.93267
女子	-9.93403
再拜	-9.93463
萬緡	-9.9366
之制	-9.93862
守之	-9.9389
書奏	-9.94114
稱帝	-9.94134
乃遣	-9.94261
坦之	-9.94526
不必	-9.94546
吳王	-9.94547
大厯	-9.9462
十一	-9.94701
乃得	-9.9491
恤	-9.9495
人以	-9.9497
授之	-9.9499
十二月	-9.9506
不納	-9.95252
於下	-9.95253
恐其	-9.95255
可得	-9.95402
之屬	-9.9558
入城	-9.95659
更相	-9.95714
建武元年	-9.95813
古人	-9.95895
頼	-9.95904
弟子	-9.95912
太傅	-9.96027
其功	-9.96055
嗟	-9.96064
中丞	-9.96104
從者	-9.96164
察其	-9.96212
逢	-9.96213
元元年	-9.96271
臯	-9.96289
狎	-9.96313
庾	-9.96332
蛇	-9.96355
蔣	-9.9636
諂	-9.96376
秉	-9.96377
霍	-9.96381
饋	-9.96385
郢	-9.96398
凢	-9.96403
跪	-9.96422
欵	-9.96426
戈	-9.96427
雷	-9.96431
醫	-9.96432
巳	-9.96436
𢎞肇	-9.96439
倦	-9.96445
器械	-9.96453
摧	-9.96453
慟哭	-9.96458
祝	-9.96458
綜	-9.9646
不問	-9.96462
潜	-9.96462
榜	-9.96465
閭	-9.9647
遥	-9.96474
遠	-9.96474
溺	-9.96483
酬	-9.96487
掃	-9.96495
轡	-9.96501
乎對曰	-9.96502
殂	-9.9651
狐	-9.96511
懦	-9.96515
驢	-9.96519
綺	-9.96522
熊	-9.96526
矣今	-9.96539
酷	-9.96545
相見	-9.96551
鐡	-9.96551
妙	-9.96551
飽	-9.96556
印綬	-9.96558
錦	-9.96558
稷	-9.96559
嬖	-9.96567
虐	-9.96571
食貨志	-9.96596
齋	-9.96619
狄仁傑	-9.96622
張九齡	-9.96628
可否	-9.96636
鮮卑	-9.96644
鼂錯	-9.96653
芝	-9.96653
太妃	-9.96655
泓	-9.96669
萬嵗	-9.96723
是夕	-9.96728
境内	-9.96759
飲食	-9.96805
八月	-9.96807
戍卒	-9.96819
李克用	-9.96858
專權	-9.96887
不暇	-9.96945
武王	-9.96953
交通	-9.96964
未知	-9.96988
望風	-9.97073
議以為	-9.97103
二十年	-9.97141
出為	-9.97143
廣陵	-9.97147
三輔	-9.97187
前漢	-9.97255
有隙	-9.97255
欲令	-9.97258
少年	-9.97298
山陵	-9.97389
後患	-9.97413
以待	-9.97444
舉兵	-9.97448
於市	-9.97553
輕重	-9.97709
皆出	-9.97742
金吾	-9.97759
謂左右曰	-9.97785
為治	-9.97803
惟陛下	-9.97831
更始	-9.979
前世	-9.98036
中書侍郎	-9.98192
得志	-9.98221
公孫	-9.98284
此言	-9.98367
不信	-9.98379
不下	-9.98385
衆人	-9.98448
已定	-9.98451
未及	-9.98472
不失	-9.98544
城下	-9.98599
而止	-9.98617
文書	-9.98734
也遂	-9.98743
者必	-9.98811
為左	-9.98833
五日	-9.9889
其心	-9.99063
者甚衆	-9.9908
詔以	-9.99104
言事	-9.99104
文帝曰	-9.99134
若有	-9.99331
無異	-9.99391
銜之	-9.99462
觀其	-9.99492
思之	-9.99606
獻之	-9.99662
安帝	-9.99737
隴	-9.99912
未定	-9.99964
所用	-9.99994
拜謝	-10.0027
𤣥宗	-10.004
之業	-10.0043
至長安	-10.0053
失其	-10.0061
暉等	-10.0066
熲	-10.0085
軍事	-10.0095
琅邪	-10.0099
希烈	-10.01
謨	-10.0103
渭	-10.0106
百官公卿表	-10.0107
為亂	-10.0111
值	-10.0111
遼	-10.0112
宇	-10.0112
滉	-10.0112
桓𤣥	-10.0114
扇	-10.0114
䞇	-10.0114
徹	-10.0114
叚	-10.0117
皇甫	-10.0118
壇	-10.0118
汙	-10.0119
障	-10.0119
濳	-10.0119
閑	-10.012
㨗	-10.0121
錫	-10.0121
貽	-10.0122
隗囂	-10.0122
碑	-10.0122
庾亮	-10.0123
褒	-10.0124
怯	-10.0124
曦	-10.0124
標	-10.0124
友珪	-10.0125
曜	-10.0125
㪚	-10.0125
戎狄	-10.0126
黄門侍郎	-10.0126
商賈	-10.0126
證	-10.0127
奬	-10.0127
鄧禹	-10.0127
鎛	-10.0128
薪	-10.0128
劫	-10.0129
潁川	-10.013
縣官	-10.0131
吐	-10.0132
秘	-10.0133
而更	-10.0133
示之	-10.0133
駮	-10.0134
搏	-10.0134
繡	-10.0135
傳七十	-10.0136
萌	-10.0136
綱紀	-10.0136
把	-10.0136
跡	-10.0137
李茂貞	-10.0139
延壽	-10.0139
風雨	-10.0139
琦	-10.014
行逢	-10.0146
飬	-10.0146
敎	-10.0147
未幾	-10.0148
守貞	-10.015
李榖	-10.0155
之𩔖	-10.0158
文帝紀	-10.0163
髙歡	-10.0169
待罪	-10.017
數十萬	-10.018
梁武帝	-10.0187
萬物	-10.0193
得人	-10.0196
但以	-10.0197
曰天子	-10.0198
死於	-10.0198
其略曰	-10.0208
張說	-10.0214
襄陽	-10.0217
甲兵	-10.0222
不加	-10.0225
在於	-10.0241
五萬	-10.0246
東南	-10.0257
外人	-10.0267
委之	-10.0268
詰之	-10.0271
禮義	-10.0275
受其	-10.028
拒之	-10.0282
進奉	-10.0295
善惡	-10.0305
之於是	-10.0308
追之	-10.0309
號令	-10.0311
國人	-10.0356
大呼	-10.0356
北面	-10.0361
是為	-10.0369
起居	-10.0369
入相	-10.0373
若不	-10.0382
以成	-10.0385
亦無	-10.0389
無私	-10.0393
聞而	-10.0398
何憂	-10.0398
固請	-10.0398
之情	-10.0399
泌曰	-10.0401
治之	-10.041
於人	-10.0418
書生	-10.0422
自陳	-10.0427
用人	-10.0432
多矣	-10.0439
問其故	-10.0442
以待之	-10.0448
黙	-10.0452
百匹	-10.0456
殿中	-10.0458
緡	-10.046
猶未	-10.0473
自餘	-10.0474
疾之	-10.0483
五人	-10.0489
漢中	-10.0499
未聞	-10.0502
某	-10.0502
以白	-10.0505
畏之	-10.0512
不可復	-10.0515
徐州	-10.0524
門晉	-10.0532
宦	-10.0533
此皆	-10.0534
李膺	-10.0541
競為	-10.0547
奉詔	-10.0551
成功	-10.0572
有寵於	-10.0579
起兵	-10.0581
於後	-10.0581
重之	-10.0581
東昏侯	-10.0598
䜟	-10.0599
譬	-10.0604
基	-10.0608
札	-10.0608
僧孺	-10.0609
状	-10.0614
朴	-10.0617
饒	-10.0617
隐	-10.0618
李吉甫	-10.0618
綬	-10.0618
款	-10.0618
翦	-10.0619
絲	-10.0619
題	-10.062
壻	-10.062
諮	-10.0621
揺	-10.0621
畿	-10.0621
旌	-10.0621
鄭覃	-10.0622
冢	-10.0623
潘	-10.0623
菜	-10.0623
隣	-10.0624
羞	-10.0625
僚屬	-10.0626
褚	-10.0627
斧	-10.0627
閱	-10.0628
諸公	-10.0628
牆	-10.0628
狡	-10.0628
㫁	-10.0629
汲黯	-10.0631
姊	-10.0631
滂	-10.0633
倖	-10.0634
掖庭	-10.0635
祈	-10.0636
熱	-10.0636
畋	-10.0636
萬機	-10.0638
上意	-10.0639
十人	-10.064
先王	-10.064
上封事	-10.064
賓客	-10.0641
山谷	-10.0646
叔父	-10.0646
雋	-10.0647
武三思	-10.0648
承業	-10.0652
霍光	-10.0654
聰明	-10.0656
迎之	-10.0656
天寶	-10.0657
涼	-10.0663
䕶軍	-10.0664
永和	-10.0666
縱横	-10.0668
克寧	-10.067
平原	-10.0671
好學	-10.0673
獲罪	-10.0675
憚之	-10.0676
得進	-10.0683
委任	-10.0686
顧謂	-10.069
安危	-10.0694
武氏	-10.0697
時有	-10.0697
十九	-10.0697
有變	-10.0718
神明	-10.0728
河内	-10.0733
禮樂	-10.0733
和帝	-10.0748
方今	-10.0752
平生	-10.0754
及即位	-10.077
語曰	-10.0781
甚盛	-10.0781
上書言	-10.0786
死不	-10.0786
處士	-10.0788
何謂	-10.079
母子	-10.079
奏言	-10.0792
盡誅	-10.0808
性剛	-10.0814
其地	-10.0814
罪人	-10.082
曰王	-10.0868
謁者	-10.087
大行	-10.0881
以給	-10.0882
以致	-10.0884
萬里	-10.0895
碎	-10.09
在此	-10.0906
引見	-10.0919
不識	-10.0923
善之	-10.0927
十八年	-10.0933
八十	-10.0949
觀之	-10.0954
大舉	-10.0964
李逢吉	-10.0965
有寵	-10.0967
擢為	-10.098
乃使	-10.1007
天意	-10.1008
嘗與	-10.1012
討之	-10.1012
王嘉	-10.1039
褚遂良	-10.1052
四時	-10.1058
之盛	-10.107
之風	-10.1071
樞宻	-10.1083
則有	-10.1092
旅	-10.1096
乃復	-10.1102
六月	-10.1105
瑜	-10.1107
從官	-10.111
卿言	-10.1111
太宗謂	-10.112
不知其	-10.112
得無	-10.1122
闔	-10.1125
無可	-10.1127
彦澤	-10.1127
恵	-10.1131
溪	-10.1134
仙芝	-10.1135
猜	-10.1136
詬	-10.1138
賄	-10.1139
瓘	-10.114
舌	-10.114
昨	-10.1141
必無	-10.1142
腰	-10.1142
寘	-10.1144
晨	-10.1145
祿山	-10.1145
慈	-10.1146
禳	-10.1146
貂	-10.1147
揖	-10.1147
裒	-10.1149
百僚	-10.1149
典籖	-10.1149
日磾	-10.115
束	-10.115
朱泚	-10.1151
香	-10.1151
韶	-10.1152
禀	-10.1153
延齡	-10.1153
翰林	-10.1153
閲	-10.1154
究	-10.1154
湘	-10.1155
弁	-10.1156
陰	-10.1156
霑	-10.1156
斃	-10.1157
不肖	-10.1158
裝	-10.1158
忤	-10.1158
籌	-10.1158
擲	-10.116
穴	-10.116
勵	-10.116
謫	-10.116
甘露	-10.116
賦役	-10.1161
裘	-10.1162
狄	-10.1163
茅	-10.1163
淹	-10.1163
李宗閔	-10.1163
馮異	-10.1163
豪傑	-10.1165
淮西	-10.1165
鏐	-10.1167
范陽	-10.1167
德裕	-10.1167
聲色	-10.1169
他日	-10.1169
吹	-10.117
玠	-10.1172
若其	-10.1173
行瑜	-10.1173
湖南	-10.1175
赤眉	-10.1177
西域傳	-10.1179
其弊	-10.1181
傳三十四	-10.1185
武帝紀	-10.1186
都統	-10.1188
揆	-10.1188
江北	-10.1194
輕騎	-10.1198
惠帝	-10.1202
咸通	-10.1202
未甞	-10.1205
副使	-10.1205
楊素	-10.1214
尊號	-10.1218
利害	-10.1224
辭位	-10.1226
曰善	-10.123
自此	-10.123
不遜	-10.1232
安都	-10.1233
酒酣	-10.1236
史記	-10.1237
為丞相	-10.1247
五百人	-10.1248
大恱	-10.1263
章帝	-10.1271
自有	-10.128
西北	-10.1287
人有	-10.1303
國事	-10.1307
少卿	-10.1307
勝之	-10.1308
之路	-10.1312
未得	-10.1312
士良	-10.1313
何益	-10.1332
之役	-10.1337
漢興	-10.1341
所部	-10.1342
而入	-10.1345
行臺	-10.1353
上書曰	-10.1356
拜之	-10.1357
若以	-10.1357
所知	-10.1364
使君	-10.1375
以来	-10.1377
足矣	-10.1389
大赦	-10.1389
水軍	-10.139
未敢	-10.1397
等曰	-10.1401
漢書	-10.1402
近臣	-10.1405
其名	-10.141
先王之	-10.1421
為將	-10.1439
臣之	-10.1447
以避	-10.1452
時事	-10.1463
所能	-10.147
之誅	-10.1474
也謂	-10.1476
為帝	-10.1494
無道	-10.1495
於内	-10.1498
而用之	-10.1537
以安	-10.1538
胡人	-10.1539
自知	-10.1545
則天	-10.1553
者謂	-10.1573
不容	-10.1574
千餘	-10.1578
左右皆	-10.1592
誥	-10.1606
四人	-10.1608
以取	-10.1627
燕人	-10.1629
其首	-10.1648
十餘年	-10.1662
乃與	-10.167
太僕	-10.1671
雕	-10.1678
嶺	-10.1683
惶	-10.1685
孔融	-10.1686
臘	-10.1689
帖	-10.1689
淳	-10.169
閔	-10.169
沛	-10.169
琬	-10.169
熈	-10.1691
觧	-10.1691
寂	-10.1693
混	-10.1694
刃	-10.1694
岸	-10.1695
郊祀	-10.1695
糓	-10.1696
阬	-10.1696
鬻	-10.1696
狼	-10.1698
遏	-10.1698
主者	-10.1698
愔	-10.1699
眀	-10.1699
伎	-10.1699
逞	-10.1699
誡	-10.1699
陛	-10.17
汾	-10.17
攘	-10.17
維	-10.17
稜	-10.17
彧	-10.1701
餐	-10.1701
奄	-10.1702
谿	-10.1702
祕	-10.1703
飯	-10.1703
妹	-10.1703
揮	-10.1704
劔	-10.1706
瑊	-10.1706
耀	-10.1706
玩	-10.1707
義熈	-10.1708
頻	-10.1708
亢	-10.1708
傍	-10.1708
致仕	-10.1708
文頴曰	-10.1709
天成元年	-10.1709
沂	-10.1709
繕	-10.1709
析	-10.1711
堰	-10.1712
石敬瑭	-10.1712
杞	-10.1712
董卓	-10.1712
宇文	-10.1713
健	-10.1713
僚佐	-10.1713
桓温	-10.1714
包	-10.1714
鼻	-10.1714
劉仁軌	-10.1716
九錫	-10.1717
離間	-10.1717
擊毬	-10.1718
腐	-10.1719
水旱	-10.1719
殷浩	-10.1719
逵	-10.172
鄉里	-10.1721
刑罰	-10.1721
網	-10.1723
勲舊	-10.1723
樂工	-10.1723
為大	-10.1724
讀書	-10.1727
北漢主	-10.1727
孔光	-10.1727
衛尉	-10.1728
義康	-10.1729
上宋沈樞撰	-10.1731
氷	-10.1731
御史臺	-10.1734
夏侯	-10.1734
知人	-10.1736
石頭	-10.1736
經略	-10.1742
私第	-10.1742
公綽	-10.1744
建寧	-10.1749
而卒	-10.175
伏兵	-10.1751
勒兵	-10.1755
男子	-10.1755
将軍	-10.1756
方略	-10.1757
石顯	-10.1764
不測	-10.1767
忠義	-10.177
大笑	-10.1771
甚多	-10.1776
左遷	-10.1781
三十年	-10.1788
中有	-10.1792
姦邪	-10.1793
從事	-10.1793
兄子	-10.1795
封侯	-10.1796
忠直	-10.1799
猶有	-10.1799
二十一年	-10.1801
國寶	-10.1804
赦天下	-10.1808
人多	-10.1811
借使	-10.1813
五經	-10.1825
無能	-10.184
為誰	-10.184
三老	-10.185
或勸	-10.1851
皇太后	-10.1853
施行	-10.1854
之政	-10.1861
屬國	-10.1861
賞之	-10.1863
相公	-10.1875
疑其	-10.1878
乃至	-10.1882
皆在	-10.189
主簿	-10.1894
矣乃	-10.1895
卿輩	-10.1895
何力	-10.1899
李石	-10.19
長吏	-10.1913
東方	-10.1924
它人	-10.1929
略曰	-10.1936
一嵗	-10.194
宜加	-10.1943
而行	-10.1944
為司徒	-10.1945
者言	-10.1946
以告	-10.1947
之利	-10.1955
鞫	-10.1958
謂羣臣曰	-10.1962
至公	-10.1964
當以	-10.197
名曰	-10.1971
之處	-10.1976
之變	-10.1978
聞者	-10.1979
我我	-10.1987
者乎	-10.1987
至京師	-10.1987
為盗	-10.1988
因言	-10.1992
有言	-10.1999
三分	-10.2001
天文	-10.2003
曰然則	-10.2029
以書	-10.2031
晉兵	-10.2033
聖王	-10.2033
止之	-10.2046
諸侯王	-10.2053
際	-10.2065
自安	-10.2084
注曰	-10.2091
起於	-10.2093
於朝	-10.2113
問曰	-10.2115
將行	-10.2117
領軍	-10.2118
流言	-10.2132
授以	-10.2132
用法	-10.2139
也音	-10.2145
為名	-10.2145
十萬緡	-10.2155
七十	-10.2155
當今	-10.2176
不忠	-10.2177
不知所	-10.2185
元年初	-10.2185
之餘	-10.2187
杖殺	-10.2194
亡國	-10.2196
盡忠	-10.2202
欲為	-10.2203
而殺之	-10.2204
互	-10.2213
奪其	-10.2221
良久	-10.2221
何用	-10.2224
不由	-10.2251
涯	-10.226
彦章	-10.2263
僅	-10.2263
場	-10.2267
漕	-10.2273
之資	-10.2277
蔡邕	-10.2278
頊	-10.2279
禕	-10.2279
暫	-10.228
罔	-10.2281
辭以	-10.2281
沔	-10.2282
裴延齡	-10.2282
澣	-10.2283
攸	-10.2283
闢	-10.2283
額	-10.2284
戯	-10.2284
蟲	-10.2284
畤	-10.2285
陪	-10.2285
灌	-10.2285
筭	-10.2285
膠	-10.2285
偓	-10.2286
䟽	-10.2286
傲	-10.2288
岑	-10.2288
邢	-10.2288
崧	-10.2289
平章事	-10.2289
出之	-10.2289
悍	-10.2289
伸	-10.229
氐	-10.229
艘	-10.2291
韓滉	-10.2291
觸	-10.2291
濁	-10.2291
壺	-10.2291
鞠	-10.2291
龎	-10.2291
緯	-10.2292
貳	-10.2292
綰	-10.2292
几	-10.2292
鐘	-10.2292
沐	-10.2292
照	-10.2292
中書門下	-10.2293
松	-10.2293
狥	-10.2293
倣	-10.2293
延英	-10.2293
珽	-10.2293
俛	-10.2294
閻	-10.2294
有異志	-10.2294
鼠	-10.2295
厠	-10.2295
羨	-10.2295
柴	-10.2295
余	-10.2296
厨	-10.2296
豆	-10.2296
奇	-10.2296
牽	-10.2296
歆	-10.2297
炭	-10.2297
梁冀	-10.2298
窘	-10.2298
大赦改元	-10.2298
熒惑	-10.2298
下宋沈樞撰	-10.2299
斌	-10.2299
刼	-10.2299
奴婢	-10.2299
宋齊丘	-10.23
填	-10.2301
劣	-10.2302
郊祀志五	-10.2302
兩漢博聞	-10.2302
英雄	-10.2302
都虞候	-10.2302
匹夫	-10.2303
僻	-10.2303
洞	-10.2303
巷	-10.2304
剖	-10.2304
東方朔	-10.2304
桓溫	-10.2304
䧏	-10.2304
栢	-10.2304
版	-10.2305
匠	-10.2306
噬	-10.2306
李靖	-10.2307
従	-10.2307
膏	-10.2307
月餘	-10.2308
烹	-10.2309
隅	-10.2309
交結	-10.2312
懷光	-10.2314
黜陟	-10.2315
輜重	-10.2315
豫州刺史	-10.2317
復有	-10.2317
静帝	-10.2318
魏元忠	-10.232
精騎	-10.2321
水陸	-10.2323
王彦章	-10.2324
輔政	-10.2328
記曰	-10.2335
其身	-10.2338
升平	-10.2339
陳蕃	-10.2339
皆言	-10.2339
有過	-10.234
甲士	-10.2341
小兒	-10.2343
其書	-10.2344
九江	-10.2345
得以	-10.2346
北海	-10.2351
聖朝	-10.2356
羣小	-10.236
之辭	-10.236
反覆	-10.2363
不合	-10.2366
議郎	-10.2367
正月	-10.2372
謂曰	-10.2376
曰吾聞	-10.2381
以俟	-10.2387
便宜	-10.2392
張永	-10.2393
吳主	-10.2394
聖明	-10.2394
六州	-10.2396
奏稱	-10.2402
律令	-10.2402
皆如	-10.2404
喜曰	-10.2411
梁主	-10.2418
卿大夫	-10.2423
即以	-10.2426
戰士	-10.2428
告身	-10.2435
不修	-10.2438
終日	-10.2454
廢立	-10.2456
稱疾	-10.2461
建州	-10.2467
因此	-10.2473
其狀	-10.2473
之物	-10.2481
曰彼	-10.2481
禁兵	-10.249
其主	-10.2494
於禁中	-10.2494
不任	-10.2504
朝服	-10.2506
之末	-10.2506
敢言	-10.2522
北門	-10.2526
親近	-10.2529
太后曰	-10.2536
避之	-10.2538
自若	-10.2545
復為	-10.2552
光武紀	-10.2554
命左右	-10.2557
宫女	-10.2561
府兵	-10.2562
分兵	-10.2565
仁孝	-10.2568
非常之	-10.2575
多事	-10.2577
或有	-10.2578
所舉	-10.2582
白馬	-10.2589
又嘗	-10.2592
義兵	-10.2593
且曰	-10.2597
吾輩	-10.2608
朝堂	-10.2611
於庭	-10.2614
與我	-10.2618
尚未	-10.2618
益州	-10.262
其辭	-10.2624
不治	-10.2628
未平	-10.2632
安王	-10.2633
力爭	-10.2635
無它	-10.264
千金	-10.2644
恐非	-10.2652
亦以	-10.2655
當死	-10.2656
有急	-10.2664
國有	-10.2676
職事	-10.2677
其妻	-10.2696
以實	-10.2697
蜀漢	-10.2701
赦之	-10.2701
以拒	-10.2707
不獲	-10.2708
髙下	-10.2722
北漢	-10.2735
往者	-10.2741
臣子	-10.2744
魏兵	-10.2764
二日	-10.2765
社稷之	-10.2779
曰主上	-10.278
有詔	-10.2786
甚衆	-10.2789
又言	-10.279
而成	-10.2808
過失	-10.2812
勿復	-10.282
握	-10.2824
是故	-10.2831
之主	-10.2847
皆稱	-10.2853
使其	-10.2857
懼而	-10.2858
而不能	-10.2867
時政	-10.2875
拾遺	-10.2877
貲	-10.2881
黨人	-10.2884
偉	-10.2886
之君	-10.2888
吾屬	-10.2891
僚	-10.2895
苞	-10.2896
洎	-10.2897
蘇峻	-10.2897
展	-10.2898
在上	-10.2899
錡	-10.2901
璧	-10.2902
翻	-10.2903
炎	-10.2907
闇	-10.2907
梓	-10.2908
想	-10.2908
迭	-10.2909
榆	-10.2909
諾	-10.291
笞	-10.291
宇文融	-10.291
撤	-10.2911
安在	-10.2911
嚮	-10.2911
尼	-10.2913
繒	-10.2914
太史	-10.2914
柵	-10.2914
糴	-10.2915
恚	-10.2915
琰	-10.2915
眼	-10.2915
嫡	-10.2915
瑶	-10.2916
維翰	-10.2916
酌	-10.2916
耿	-10.2917
牋	-10.2917
敝	-10.2917
陋	-10.2917
巫	-10.2918
兵部尚書	-10.2918
訾	-10.2919
叩	-10.2919
帷	-10.2919
刋	-10.2919
貴賤	-10.292
愆	-10.292
僭	-10.292
戊	-10.292
剽掠	-10.2921
乞骸骨	-10.2921
販	-10.2922
潔	-10.2922
蠶	-10.2922
奸	-10.2923
司𨽻校尉	-10.2923
稽首	-10.2923
乙	-10.2924
棘	-10.2924
篆	-10.2924
甄	-10.2925
尚書左丞	-10.2925
諧	-10.2926
杜預	-10.2926
亡也	-10.2926
征西	-10.2926
併	-10.2927
皇甫鎛	-10.2927
繆	-10.2928
紅	-10.2928
栗	-10.2928
宿衞	-10.2929
癡	-10.2929
箭	-10.293
貨財	-10.293
鏡	-10.2932
恭顯	-10.2932
楷	-10.2933
徼	-10.2933
勃勃	-10.2934
盧杞	-10.2934
東海	-10.2935
車騎將軍	-10.2936
許敬宗	-10.2937
桀紂	-10.2937
义	-10.2937
檢校	-10.2938
武昌	-10.2938
傅太后	-10.2939
逖	-10.2939
永嘉	-10.294
萇	-10.2941
公孫述	-10.2941
李崧	-10.2941
棊	-10.2941
蒼生	-10.2942
李義府	-10.2943
老弱	-10.2944
數百里	-10.2948
忠良	-10.2948
近習	-10.295
壽陽	-10.2951
江都	-10.2953
為庶人	-10.2956
詩云	-10.2957
髙麗	-10.2958
姓名	-10.296
者衆	-10.2962
遷都	-10.2962
張濬	-10.2963
再三	-10.2965
劾奏	-10.2966
帥百官	-10.2968
闗東	-10.2969
毋得	-10.2972
勝負	-10.2973
隋主	-10.2977
固爭	-10.2977
在東宫	-10.2983
泰始	-10.2986
天寳	-10.2986
高帝	-10.2986
孫權	-10.2987
之吏	-10.2988
尤甚	-10.2989
呼曰	-10.299
侍讀	-10.299
父老	-10.2993
漢兵	-10.2993
金陵	-10.2995
已死	-10.2996
監國	-10.2998
聖徳	-10.2999
二萬	-10.3005
入侍	-10.3008
權貴	-10.3008
猶言	-10.3009
比來	-10.3011
事覺	-10.3022
光逺	-10.3022
必克	-10.3028
無他	-10.3028
有異	-10.3033
罷兵	-10.3034
部員外郎	-10.3035
莫敢言	-10.3036
不早	-10.3038
市人	-10.3041
三品	-10.3043
固守	-10.3048
又謂	-10.3053
廢太子	-10.3054
魏髙祖	-10.3058
力戰	-10.3059
還鎮	-10.3065
信任	-10.307
不能制	-10.3072
陽侯	-10.3072
化為	-10.3072
異日	-10.3074
方鎮	-10.3075
免官	-10.3076
表稱	-10.3078
王峻	-10.3081
無狀	-10.3089
舎人	-10.3091
而遣之	-10.3094
李氏	-10.3095
民有	-10.3113
登城	-10.3116
王珪	-10.312
車馬	-10.3123
呉王	-10.3137
南方	-10.314
未嘗不	-10.3144
謀於	-10.3144
先朝	-10.3145
太公	-10.3148
稱善	-10.3154
妄言	-10.3155
又欲	-10.316
功業	-10.3165
上表請	-10.3173
呉越	-10.3176
逐之	-10.3177
景遂	-10.3181
將至	-10.3186
其門	-10.3194
之號	-10.3198
為右	-10.321
人人	-10.3216
嘗謂	-10.3233
日食	-10.3234
又有	-10.3235
不避	-10.3243
生於	-10.3255
承平	-10.3256
平城	-10.3257
來者	-10.3265
肯	-10.3276
憐	-10.3276
專以	-10.3276
鞫之	-10.3281
無遺	-10.3289
求和	-10.3292
齊人	-10.3295
下至	-10.3295
即命	-10.33
毁之	-10.3302
復以	-10.3306
其過	-10.3312
之福	-10.3312
可知	-10.3313
之望	-10.3314
輔之	-10.3314
以報	-10.3315
蜀王	-10.3316
之䇿	-10.3318
禦之	-10.332
後晉天福	-10.3324
欲殺之	-10.3332
傳曰	-10.3342
於路	-10.3348
其謀	-10.3349
長子	-10.335
不豫	-10.3364
退而	-10.3381
行至	-10.3388
謀議	-10.339
道濟	-10.3393
易之	-10.3395
可用	-10.3399
王衍	-10.3407
不止	-10.3409
臣願	-10.3413
憲宗曰	-10.3418
雖不	-10.3421
詐為	-10.3422
其文	-10.3427
一家	-10.3433
汝南	-10.3444
不親	-10.3445
暇	-10.3449
更生	-10.3458
所及	-10.346
唐兵	-10.3485
南向	-10.3486
吏卒	-10.3491
車騎	-10.3498
戰於	-10.3515
止於	-10.3518
詹事	-10.3521
長孫	-10.3528
言事者	-10.3529
也太宗	-10.3533
不改	-10.3536
以兵	-10.3552
燧	-10.3561
故能	-10.3562
竣	-10.3562
歙	-10.3563
欣	-10.3566
億	-10.3567
喬	-10.357
鉞	-10.3572
膝	-10.3572
暨	-10.3572
寔	-10.3573
錄	-10.3573
顧命	-10.3573
球	-10.3573
承璀	-10.3573
綵	-10.3573
薦之	-10.3574
娯	-10.3574
茶	-10.3575
鄆	-10.3576
廹	-10.3576
函	-10.3576
韓偓	-10.3578
綏	-10.3578
償	-10.3579
讜	-10.358
蒸	-10.358
蹙	-10.3581
蕭瑀	-10.3581
妓	-10.3581
頓首	-10.3582
訖	-10.3582
漁	-10.3582
曳	-10.3583
西南夷傳	-10.3583
峴	-10.3584
俯	-10.3585
波	-10.3585
漆	-10.3585
蠧	-10.3586
矩	-10.3587
朱异	-10.3587
亦當	-10.3587
採	-10.3588
狹	-10.3589
纂	-10.3589
李勣	-10.3589
猜忌	-10.3589
牛僧孺	-10.3589
樊噲	-10.3589
趙延壽	-10.359
賓	-10.359
榻	-10.359
朽	-10.3591
藝文志	-10.3591
瑀	-10.3592
俄而	-10.3592
公孫𢎞	-10.3592
甲乙	-10.3593
敬翔	-10.3593
邵	-10.3593
銳	-10.3594
欣然	-10.3594
曰是	-10.3595
之狀	-10.3595
塹	-10.3595
扆	-10.3595
鮪	-10.3595
愁	-10.3595
捶	-10.3596
探	-10.3596
琴	-10.3596
承嗣	-10.3596
衮	-10.3597
花	-10.3598
岑彭	-10.3599
浙	-10.3599
嗜	-10.3601
太廟	-10.3602
李守貞	-10.3603
廖	-10.3604
太中大夫	-10.3604
埋	-10.3604
僧尼	-10.3604
擅權	-10.3607
供奉	-10.3608
雞鳴	-10.3608
尊卑	-10.3609
二十二年	-10.3611
十一月	-10.3611
傳五十四	-10.3611
侍衛	-10.3611
臣愚以為	-10.3614
寢疾	-10.3615
譬如	-10.3616
發言	-10.3619
征討	-10.362
琳	-10.362
其勢	-10.3623
諫者	-10.3624
謂宜	-10.3625
憤怒	-10.3628
郡太守	-10.363
景讓	-10.3631
持節	-10.3635
不亦	-10.3636
晉室	-10.3639
)(	-10.3643
賢良	-10.3651
仇士良	-10.3652
而歸	-10.3654
第五	-10.3655
孝武	-10.3655
無故	-10.3656
仁義	-10.3661
其本	-10.3665
延光	-10.3669
遂為	-10.3669
數十年	-10.3671
是其	-10.3677
女為	-10.3678
堅守	-10.3683
太過	-10.3686
讓能	-10.3687
嘗為	-10.3689
長樂	-10.3699
則無	-10.37
萬匹	-10.3704
楊邠	-10.3711
其間	-10.3718
沈等	-10.3718
成敗	-10.3726
欲殺	-10.3728
各以	-10.3728
失望	-10.3732
非常	-10.3735
開門	-10.3736
誣奏	-10.3738
論議	-10.3743
為國家	-10.3743
豈能	-10.3751
微行	-10.3753
正色	-10.3755
歎曰吾	-10.3756
異於	-10.3758
與人	-10.3763
威名	-10.3765
九州	-10.3767
不意	-10.3777
入謝	-10.3777
南山	-10.3785
修徳	-10.3785
侍宴	-10.3793
大體	-10.3797
一月	-10.3801
罷之	-10.3802
召還	-10.3803
乃下	-10.3804
復何	-10.3805
為侍中	-10.3807
一也	-10.3812
大怒曰	-10.3818
為吏	-10.3819
羣臣皆	-10.3821
百年	-10.3823
請令	-10.3824
死罪	-10.3833
者亦	-10.3837
不可失	-10.3837
周主	-10.3843
有一	-10.3847
六國	-10.3849
行營	-10.3854
人物	-10.3858
亡命	-10.3868
二年以	-10.3868
名士	-10.387
漢髙祖	-10.3872
焚之	-10.3878
金銀	-10.3883
奏以為	-10.3886
此輩	-10.3888
前事	-10.3895
建議	-10.3896
晉齊王	-10.3896
請罷	-10.3896
終不能	-10.3897
悉召	-10.3899
有天下	-10.3903
失之	-10.3915
而罷	-10.3945
城南	-10.3961
四年初	-10.3968
之所以	-10.3985
相國	-10.3991
何可	-10.4002
其弟	-10.4005
稱職	-10.401
惡其	-10.4022
其義	-10.4022
何罪	-10.4024
青州	-10.4027
之徳	-10.403
不滿	-10.4048
長官	-10.405
大位	-10.4056
誅宦官	-10.4062
以謝	-10.4066
周公	-10.4068
謝曰	-10.407
以法	-10.4074
賜爵	-10.4103
多言	-10.4107
為樂	-10.4115
不覺	-10.4122
北方	-10.4136
於魏	-10.414
太皇太后	-10.4145
自負	-10.4146
必敗	-10.4152
清河	-10.4155
失色	-10.4158
事者	-10.4158
居之	-10.4168
選舉	-10.4171
國用	-10.4171
上黨	-10.4172
之下	-10.4173
不附	-10.4179
又遣	-10.4179
文曰	-10.4181
不爾	-10.4181
一名	-10.42
無得	-10.4209
正色曰	-10.4212
第五倫	-10.4214
一門	-10.4214
不易	-10.422
恨之	-10.4221
素與	-10.4223
測	-10.4234
不敢言	-10.4235
不起	-10.4241
謂其	-10.4245
右丞相	-10.4248
載以	-10.4264
聞其	-10.4268
為戒	-10.4271
蜀人	-10.4273
牟	-10.4273
九月	-10.4274
任圜	-10.4275
其財	-10.4278
麾	-10.4279
柏	-10.4279
覃	-10.4279
无忌	-10.428
朱博	-10.4281
寓	-10.4281
兢	-10.4283
執誼	-10.4283
斫	-10.4284
廓	-10.4284
味	-10.4284
苗	-10.4285
袒	-10.4285
吝	-10.4286
爰	-10.4287
二年初	-10.4289
亞	-10.4289
兖州	-10.4289
聚歛	-10.429
潭	-10.429
涕	-10.429
昬	-10.429
稹	-10.4291
慧	-10.4291
寝	-10.4292
軰	-10.4294
膽	-10.4294
哲	-10.4294
暢	-10.4295
太祖皇帝	-10.4295
綿	-10.4295
魂	-10.4295
昌邑	-10.4295
檻車	-10.4296
悼	-10.4296
陶侃	-10.4296
牓	-10.4296
兮	-10.4296
軒	-10.4297
郭璞	-10.4297
鎻	-10.4297
暗	-10.4297
翹	-10.4298
邏	-10.4299
蘇逢吉	-10.4299
蓄積	-10.43
謝之	-10.43
謡	-10.43
嫉	-10.43
葛	-10.43
赫	-10.4301
禱	-10.4301
田令孜	-10.4302
爽	-10.4302
韋昭曰	-10.4302
左拾遺	-10.4303
桃	-10.4303
袍	-10.4304
拱	-10.4304
酋長	-10.4304
𤓰	-10.4304
异	-10.4304
佩	-10.4304
竝	-10.4304
揚雄	-10.4305
豹	-10.4305
鷹	-10.4305
文靜	-10.4306
釐	-10.4306
上䟽	-10.4306
魁	-10.4306
下欽定四庫全書通鑑總𩔖卷	-10.4307
鉗	-10.4307
鞍	-10.4308
奕	-10.4308
璞	-10.431
太上皇	-10.431
苻堅	-10.431
儁	-10.431
胄	-10.4311
慘	-10.4311
租賦	-10.4312
毗	-10.4312
於上前	-10.4312
蠻夷	-10.4312
崔羣	-10.4313
鑑	-10.4314
河東節度使	-10.4315
山川	-10.4315
關内侯	-10.4316
繫獄	-10.4316
髙力士	-10.4316
秦兵	-10.4317
財賦	-10.4317
所過	-10.4317
穎	-10.4317
黄鍾	-10.4319
彗星	-10.432
季布	-10.432
韓愈	-10.4321
部落	-10.4321
驕奢	-10.4322
暐	-10.4323
昭儀	-10.4324
上有	-10.4325
祥瑞	-10.4326
曹參	-10.4327
𢎞農	-10.4327
太常卿	-10.4328
謂宰相曰	-10.4328
西京	-10.4328
奉使	-10.4329
明徹	-10.433
姜	-10.433
田宅	-10.433
無辜	-10.4331
安禄山	-10.4333
河朔	-10.4333
崔光	-10.4333
知祥	-10.4333
貞觀元年	-10.4333
期年	-10.4334
乗間	-10.4336
董賢	-10.434
簡文帝	-10.4342
内侍	-10.4343
輕薄	-10.4344
到官	-10.4346
韓建	-10.4348
收其	-10.4349
西方	-10.4349
佞邪	-10.435
德鈞	-10.435
寵任	-10.4353
善其言	-10.4354
衞將軍	-10.4354
所由	-10.4355
儒生	-10.4356
衆議	-10.4361
之力也	-10.4363
謂我	-10.4363
獨孤	-10.4365
馬氏	-10.4368
獄吏	-10.4368
矣然	-10.437
上表以為	-10.4371
喜怒	-10.4372
京官	-10.4376
厚恩	-10.4377
州長史	-10.4377
咸陽	-10.4378
不正	-10.438
有道	-10.438
大都督	-10.4381
牙將	-10.4383
憂懼	-10.4385
所以為	-10.4396
至者	-10.4398
家事	-10.4399
厚賞	-10.44
昭帝	-10.4404
治亂	-10.4407
長江	-10.4413
所致	-10.4416
殿前	-10.4417
初即位	-10.4418
師徳	-10.4419
奉天	-10.4421
神䇿軍	-10.4422
衣食	-10.4425
兵權	-10.4425
何患	-10.4426
十九年	-10.4427
傳四	-10.4427
其能	-10.443
假子	-10.4431
仲言	-10.4434
曰不然	-10.4434
衣服	-10.4435
久矣	-10.4436
力士	-10.4436
罵曰	-10.4436
三族	-10.4438
莫如	-10.4438
文章	-10.4445
漢室	-10.4446
切諫	-10.4448
行事	-10.4453
𤣥暉	-10.446
加以	-10.446
同年	-10.4461
西南	-10.4465
又與	-10.4466
上聞	-10.4478
公卿以下	-10.4478
白衣	-10.4481
以名	-10.4483
受之	-10.4488
思禮	-10.449
進思	-10.4492
明年	-10.4492
不省	-10.4502
也昔	-10.4507
省中	-10.4508
小吏	-10.4509
其道	-10.4514
也晉灼曰	-10.4521
此所謂	-10.4526
除名	-10.453
建平	-10.4532
稱疾不	-10.4533
隨之	-10.4539
趙張	-10.4543
不幸	-10.4554
率皆	-10.4556
無窮	-10.4559
有五	-10.456
未易	-10.4562
過於	-10.4563
或云	-10.4574
不自	-10.4577
周禮	-10.4577
乎今	-10.458
杖殺之	-10.4582
何由	-10.4584
坐貶	-10.4585
受詔	-10.4587
諭之	-10.4591
義方	-10.4602
者或	-10.4615
是後	-10.4632
軍將	-10.4635
故謂之	-10.4638
慰諭	-10.4639
先帝之	-10.4654
請依	-10.466
官吏	-10.4662
城西	-10.4671
責之	-10.4678
自隨	-10.468
多少	-10.4682
之亂	-10.4682
之任	-10.4702
乃罷	-10.4713
不成	-10.4718
民皆	-10.4719
之節	-10.4722
從而	-10.4723
同心	-10.4723
立太子	-10.4727
至洛陽	-10.4729
且言	-10.4739
户部侍郎	-10.4739
道成	-10.4741
也對曰	-10.4743
軍法	-10.4743
乎且	-10.4749
以利	-10.4755
敕使	-10.4758
將何以	-10.4763
始得	-10.4767
一曰	-10.4767
者乃	-10.4772
人望	-10.4774
以次	-10.4777
克之	-10.4778
為王	-10.4778
武帝時	-10.4779
不可得	-10.4785
不負	-10.4786
少時	-10.4787
不忘	-10.4798
所敗	-10.4804
自請	-10.4814
朝恩	-10.482
不離	-10.4824
之形	-10.4824
不能禁	-10.4835
臣今	-10.4837
一言	-10.4838
制書	-10.4843
何如對曰	-10.4848
危亡之	-10.4855
共為	-10.4856
之難	-10.4857
大亂	-10.4861
其下	-10.4878
非其人	-10.4879
無常	-10.488
於漢	-10.4881
白居易	-10.4889
欲自	-10.4893
中宫	-10.4904
不便	-10.4905
事宜	-10.4907
無一人	-10.4909
相如	-10.4911
至重	-10.4921
何則	-10.4927
學者	-10.4935
進兵	-10.4935
士馬	-10.4937
為節度使	-10.4937
不思	-10.4942
不通	-10.4944
興兵	-10.4946
皆無	-10.4947
鎮之	-10.4967
此非	-10.4973
遂使	-10.4976
議論	-10.4987
廢之	-10.4988
忠於	-10.4992
越王	-10.4994
則為	-10.4994
元和元年	-10.5003
必先	-10.5009
龔	-10.5015
為人臣	-10.5016
食之	-10.5017
鶡	-10.5017
師古曰言	-10.5021
户部	-10.5026
州都督	-10.5031
誨	-10.5034
曰朝廷	-10.5035
乃能	-10.5035
北軍	-10.5037
仁浦	-10.5037
沙鉢略	-10.5039
元光	-10.5043
郵	-10.5044
兖	-10.5044
諭之曰	-10.5046
珣	-10.5046
妬	-10.5048
外官	-10.505
從諫	-10.5051
垍	-10.5051
未必	-10.5051
眩	-10.5051
湊	-10.5052
賈誼	-10.5052
佗	-10.5053
嬖倖	-10.5053
駱	-10.5053
陸䞇	-10.5055
毛仲	-10.5055
長孫无忌	-10.5056
縉	-10.5058
鍾離	-10.5059
扼	-10.5059
諜	-10.506
倨	-10.506
鮑	-10.5061
承訓	-10.5061
旄	-10.5061
腸	-10.5061
鸞	-10.5061
儼	-10.5062
喧	-10.5062
𣙜	-10.5063
翟	-10.5063
参	-10.5063
卭	-10.5064
屑	-10.5064
蹈	-10.5064
彫	-10.5065
績	-10.5065
即帝位	-10.5065
補闕	-10.5065
觴	-10.5065
諌議大夫	-10.5065
禽獸	-10.5065
睦	-10.5065
節度副使	-10.5066
剪	-10.5066
驟	-10.5067
奢侈	-10.5067
忤㫖	-10.5067
庚	-10.5067
者非	-10.5067
隋煬帝	-10.5068
總管	-10.5068
亾	-10.5069
判度支	-10.5069
倩	-10.5069
澤潞	-10.5069
掌書記	-10.507
谷永	-10.507
禮部尚書	-10.507
了	-10.507
拙	-10.5071
弭	-10.5071
洗	-10.5072
擔	-10.5072
朂	-10.5072
愁怨	-10.5072
𨗳	-10.5072
㗖	-10.5072
悖	-10.5073
簒	-10.5073
不可勝紀	-10.5073
切齒	-10.5073
徃徃	-10.5074
邇	-10.5074
饌	-10.5074
敘	-10.5074
椎	-10.5075
輯	-10.5075
轍	-10.5075
鬱林王	-10.5075
驍	-10.5075
千秋	-10.5075
感悟	-10.5075
嗜酒	-10.5075
成臯	-10.5076
迷	-10.5076
枚	-10.5076
刺客	-10.5076
册	-10.5076
稻	-10.5077
巫蠱	-10.5077
掘	-10.5077
魚朝恩	-10.5077
油	-10.5078
髙熲	-10.5078
訣	-10.5078
不敢復言	-10.5078
茹	-10.5078
馭	-10.5079
欺罔	-10.5079
妨	-10.5079
估	-10.5079
留後	-10.5079
不解	-10.508
知逺	-10.508
顯宗紀	-10.508
戀	-10.5081
垂拱	-10.5082
袴	-10.5082
郝	-10.5082
成帝紀	-10.5083
汲	-10.5083
俘	-10.5083
詆	-10.5083
殃	-10.5083
京口	-10.5083
隗	-10.5083
西川	-10.5084
熾	-10.5084
煩擾	-10.5084
裹	-10.5084
箕	-10.5085
別	-10.5086
惶恐	-10.5086
蘇威	-10.5087
稍稍	-10.5088
橫	-10.5088
興元元年	-10.5088
賈誼傳	-10.5089
冶	-10.5089
馬援傳	-10.5089
尚書僕射	-10.5089
冒頓	-10.509
窮極	-10.5091
訓注	-10.5091
王守澄	-10.5092
節儉	-10.5093
鬼神	-10.5093
長也	-10.5095
即今之	-10.5095
肩	-10.5098
號哭	-10.5098
顯宗	-10.5098
酷吏	-10.5098
太弟	-10.5099
閎	-10.51
景達	-10.5101
開元二年	-10.5102
猶豫	-10.5102
二千餘人	-10.5103
李愬	-10.5103
犯法	-10.5104
會昌	-10.5104
知詢	-10.5105
食邑	-10.5105
閉門	-10.5106
李輔國	-10.5108
流血	-10.5109
順宗	-10.5112
仰視	-10.5114
杜威	-10.5115
虚實	-10.5115
咸和	-10.5117
琯	-10.5125
族滅	-10.5125
心腹	-10.5125
延賞	-10.5126
髙允	-10.5127
皆自	-10.5128
三王	-10.513
無禮	-10.513
臺閣	-10.5132
太學	-10.5136
李振	-10.5137
伶人	-10.5137
為社稷	-10.5138
特進	-10.5141
中書侍郎同平章事	-10.5141
之比	-10.5143
擢用	-10.5143
然之	-10.5145
不仁	-10.5149
草制	-10.515
安敢	-10.5152
作大	-10.5152
猶在	-10.5153
為御史大夫	-10.5154
皆非	-10.5158
全義	-10.5159
懐義	-10.5159
責其	-10.5161
髙昌	-10.5164
冬至	-10.5165
解體	-10.5167
元濟	-10.5169
謂所親曰	-10.517
欲反	-10.517
歸第	-10.517
以充	-10.5172
此誠	-10.5178
降於	-10.5179
聖主	-10.5179
乗馬	-10.518
不入	-10.5181
近世	-10.5193
宻謀	-10.5194
上言以為	-10.5195
宿將	-10.5203
横行	-10.5205
累日	-10.5207
盛稱	-10.5208
元素	-10.5213
遂良	-10.5214
大悦	-10.5215
久不	-10.5218
武陵	-10.5219
以西	-10.522
罷相	-10.5221
相聚	-10.5222
但恐	-10.5223
臣愚	-10.5224
郡守	-10.5224
晉州	-10.5226
元帝曰	-10.5227
劉備	-10.5228
使天下	-10.523
吏皆	-10.523
何乃	-10.5231
備徳	-10.5231
公等	-10.5236
吳漢	-10.5237
亦可	-10.5242
兵馬	-10.5242
孫晟	-10.5248
乃爾	-10.5256
郎官	-10.5263
大破之	-10.5268
誅殺	-10.5274
騎兵	-10.5275
獻帝	-10.5275
子良	-10.528
復言	-10.5281
或告	-10.5288
近者	-10.5292
財物	-10.5303
以下皆	-10.5309
徐公	-10.5316
奏罷	-10.5319
逺方	-10.532
國政	-10.5327
與漢	-10.5329
治天下	-10.5331
求之	-10.5333
丹陽	-10.5333
立於	-10.5337
為京兆尹	-10.5337
平日	-10.5344
選用	-10.5345
為司空	-10.5351
私謂	-10.5352
欲以為	-10.5353
取士	-10.5355
驚曰	-10.5356
天地之	-10.5364
貴寵	-10.5365
權重	-10.5366
其數	-10.5367
令人	-10.5372
此人	-10.5374
已而	-10.5377
安世	-10.5377
為僕射	-10.5383
為尚書令	-10.5384
魏州	-10.5391
安樂	-10.5392
天道	-10.5396
以供	-10.5401
明主	-10.5403
魏謩	-10.5405
出師	-10.5407
東北	-10.541
諸生	-10.5414
未盡	-10.5418
得幸	-10.5423
非有	-10.5425
之右	-10.543
乃召	-10.5437
賂遺	-10.5443
者先	-10.545
乃知	-10.5455
之理	-10.5459
顔色	-10.5463
濟南	-10.5466
三秦	-10.5467
寡人	-10.5468
已來	-10.5469
之甚	-10.5474
察之	-10.5475
王室	-10.5486
人以為	-10.5493
之師	-10.5495
大懼	-10.5501
欲用	-10.5521
王師	-10.5522
大理	-10.5524
望見	-10.5527
一國	-10.5528
則彼	-10.5541
罷朝	-10.5549
無比	-10.5551
左軍	-10.5566
用其言	-10.5568
世子	-10.5571
而能	-10.5578
之子也	-10.5582
與諸	-10.5595
吾兒	-10.5602
天福十二年	-10.5621
挺	-10.5622
以厭	-10.5638
權勢	-10.5645
曰願	-10.5655
位在	-10.5655
為姦	-10.5656
守令	-10.5661
然猶	-10.5663
汴州	-10.5671
朕所	-10.5678
即時	-10.5678
曰今日	-10.5684
大義	-10.5702
二十萬	-10.5706
拜為	-10.5709
山中	-10.5719
諭以	-10.5721
歸國	-10.5721
以奉	-10.5725
燕主	-10.5726
梁王	-10.5729
曰凡	-10.5731
之約	-10.5738
稱制	-10.5738
問其	-10.5749
之權	-10.575
無有	-10.5755
主人	-10.5757
居中	-10.5757
自立	-10.5759
愛民	-10.5777
求官	-10.5782
延廣	-10.5787
之累	-10.5793
又聞	-10.5795
怪之	-10.5799
八九	-10.5803
等使	-10.5809
今若	-10.5809
自固	-10.5812
國士	-10.5814
以防	-10.5819
為所	-10.5821
所奏	-10.5827
為人所	-10.5828
不戰	-10.5829
陛下何	-10.5837
但當	-10.5839
大同	-10.5841
上疏言	-10.5846
然而	-10.5852
伶	-10.5856
忝	-10.5856
涼州	-10.5861
懌	-10.5872
勗	-10.5875
譟	-10.5876
北邊	-10.5877
□	-10.5877
塟	-10.588
復與	-10.5883
五十五	-10.5885
李琪	-10.5885
昵	-10.5885
乃令	-10.5886
拳	-10.5886
鄂	-10.5886
瓜	-10.5887
丈夫	-10.5888
峭	-10.5888
贇	-10.5888
都押牙	-10.5889
繼岌	-10.5889
清泰元年	-10.589
淪	-10.589
饑寒	-10.589
彛	-10.589
謀作亂	-10.589
墀	-10.5891
申錫	-10.5891
長興四年	-10.5892
訐	-10.5892
論事	-10.5892
頥	-10.5892
曵	-10.5893
中國之	-10.5893
耆	-10.5893
汎	-10.5893
稽顙	-10.5894
鬭	-10.5894
移檄	-10.5895
樵	-10.5895
渥	-10.5896
裴垍	-10.5896
丙	-10.5896
珍玩	-10.5897
迺	-10.5897
貞元三年	-10.5897
穉	-10.5898
會稽	-10.5898
班固傳三十	-10.5898
緒	-10.5898
訥	-10.5898
邊軍	-10.5898
吐突承璀	-10.5898
雒陽	-10.5898
招討使	-10.5898
守澄	-10.5898
張柬之	-10.5898
兵部侍郎	-10.5899
後周世宗	-10.5899
婁	-10.59
敷	-10.59
扞	-10.59
賑	-10.5901
銘	-10.5901
溝	-10.5901
渙	-10.5901
羯	-10.5901
右補闕	-10.5902
姿	-10.5902
賀若弼	-10.5902
囂	-10.5902
祀南郊	-10.5902
潁	-10.5902
長沙	-10.5902
瓌	-10.5902
太極殿	-10.5903
纎	-10.5903
輟	-10.5903
鍔	-10.5903
婚	-10.5903
疆場	-10.5904
袁盎	-10.5904
闈	-10.5904
驍勇	-10.5904
攀	-10.5904
貝	-10.5904
銷	-10.5904
王莽傳六十九	-10.5904
撞	-10.5905
宋申錫	-10.5905
永貞元年	-10.5905
戾	-10.5906
庇	-10.5906
廣明元年	-10.5906
殖	-10.5906
錮	-10.5906
欽定四庫全書兩漢博聞卷	-10.5906
股肱	-10.5906
矛	-10.5906
潮	-10.5907
羲	-10.5907
燭	-10.5907
隊	-10.5907
畝	-10.5907
胷	-10.5907
太平公主	-10.5908
大厯十四年	-10.5908
頒	-10.5908
宋楊侃輯	-10.5908
廩	-10.5908
司農卿	-10.5908
璽綬	-10.5909
二十餘年	-10.5909
春正月	-10.5909
犢	-10.5909
饋遺	-10.5909
沈慶之	-10.591
面折	-10.591
河南尹	-10.591
免冠謝	-10.591
鶴	-10.591
州司户	-10.5911
禾	-10.5911
來俊臣	-10.5911
肘	-10.5911
嗇夫	-10.5912
遊宴	-10.5912
憾	-10.5912
姦佞	-10.5912
壽春	-10.5913
覩	-10.5913
延夀	-10.5913
瑾	-10.5913
濕	-10.5913
謝晦	-10.5914
盈珍	-10.5914
昧	-10.5915
諸葛	-10.5915
黯	-10.5915
楊綰	-10.5915
烏孫	-10.5915
彞	-10.5916
怒命	-10.5917
縑	-10.5918
金紫	-10.5918
干戈	-10.5919
注云前書	-10.592
錢帛	-10.5922
守宰	-10.5923
鮑宣	-10.5923
隕	-10.5923
萬世	-10.5924
受禪	-10.5924
劉知逺	-10.5924
機務	-10.5924
同列	-10.5924
毆	-10.5925
詣行在	-10.5926
三十萬	-10.5928
酈食其	-10.5928
祭祀	-10.5928
樞密使	-10.5929
婦女	-10.593
李錡	-10.593
傾覆	-10.593
延徽	-10.5931
互相	-10.5931
張敞	-10.5931
校獵	-10.5932
經術	-10.5934
庶政	-10.5935
詣京師	-10.5935
祭酒	-10.5937
毁譽	-10.5938
髙駢	-10.5938
巴蜀	-10.5939
九卿	-10.594
於今	-10.5941
禆將	-10.5941
故云	-10.5942
慕容垂	-10.5942
璽書	-10.5942
諸儒	-10.5945
孝寛	-10.5947
農夫	-10.5948
士開	-10.5949
轉相	-10.5949
教化	-10.595
嵗餘	-10.5952
吕后	-10.5953
明旦	-10.5955
曰吾欲	-10.5956
福建	-10.5957
十月	-10.5958
五銖	-10.5958
不濟	-10.5959
逃亡	-10.5959
皎	-10.596
未可知	-10.5962
兵馬使	-10.5963
王涯	-10.5963
宣示	-10.5964
少傅	-10.5965
不樂	-10.5966
變色	-10.5966
手足	-10.5967
城門	-10.5967
道襲	-10.5968
營田	-10.5968
尊寵	-10.5968
盡殺	-10.597
河南北	-10.5971
辭色	-10.5975
統軍	-10.5978
臨江	-10.5978
伏誅	-10.5979
貧賤	-10.5979
闕下	-10.5982
江西	-10.5982
勞軍	-10.5983
失職	-10.5988
親故	-10.5988
常有	-10.599
殆盡	-10.5991
楊氏	-10.5992
金玉	-10.5994
虚名	-10.5995
所生	-10.5998
車載	-10.6001
萬年	-10.6003
入冦	-10.6004
等謀	-10.6009
死生	-10.6011
内有	-10.6013
擊破	-10.6015
視朝	-10.6016
報之	-10.6018
日中	-10.6019
曰國家	-10.602
太白	-10.6022
也如淳曰	-10.6025
不逮	-10.6026
亂兵	-10.6027
四面	-10.6028
選人	-10.6035
名為	-10.6036
前朝	-10.6038
賢者	-10.6041
因其	-10.6044
握兵	-10.6044
必將	-10.6044
渡江	-10.6045
親屬	-10.605
告宻	-10.6053
盡節	-10.6053
盛徳	-10.6056
非其	-10.6057
雖復	-10.6058
將校	-10.6059
三千人	-10.6062
素所	-10.6062
義士	-10.6064
汝輩	-10.6066
為便	-10.6067
又注	-10.607
武功	-10.6075
不殺	-10.6089
失所	-10.609
相賀	-10.6092
將有	-10.6095
安可	-10.6098
王晏	-10.6102
本朝	-10.6103
仇讎	-10.6103
素服	-10.6103
趙人	-10.6103
為憂	-10.6105
兵敗	-10.6108
行儉	-10.6112
適足	-10.6113
無厭	-10.612
曰爾	-10.6123
竊見	-10.6123
文侯	-10.6131
部郎中	-10.6131
令史	-10.6133
之道也	-10.6135
髙氏	-10.6135
小過	-10.6138
姦人	-10.6145
若今	-10.6156
歸漢	-10.6157
人或	-10.616
陛下之	-10.617
讀曰	-10.6173
故稱	-10.6175
既定	-10.6178
三鎮	-10.6179
胡廣	-10.618
敵國	-10.6181
諸鎮	-10.6182
飲之	-10.6182
端門	-10.6183
臣不敢	-10.6184
太山	-10.6186
之語	-10.6189
而起	-10.6189
安定	-10.6194
召之	-10.6198
嗣復	-10.6204
三子	-10.6208
私鑄	-10.6213
治民	-10.6218
給之	-10.6223
不果	-10.6236
一無所	-10.6239
魏武	-10.6241
宴飲	-10.6259
等並	-10.6259
志在	-10.6265
明皇曰	-10.627
五更	-10.6271
讓之曰	-10.6277
宫闕	-10.628
貧者	-10.6283
皆由	-10.6287
中朝	-10.6292
手詔	-10.6295
用度	-10.6296
為首	-10.6298
論之	-10.6302
為御史	-10.6305
小臣	-10.6305
門地	-10.6306
封之	-10.6314
其徒	-10.6315
所司	-10.6316
擇人	-10.6318
民心	-10.6321
以官	-10.6325
築城	-10.6329
士庶	-10.6332
兵於	-10.6343
何人	-10.6345
終身不	-10.6346
兵少	-10.6348
二十七	-10.6348
數四	-10.6353
行則	-10.6354
千匹	-10.6366
右軍	-10.6367
君長	-10.6377
已成	-10.6386
不對	-10.6387
之賢	-10.6389
如其	-10.6391
朕今	-10.6392
者悉	-10.6392
諸國	-10.6395
五年初	-10.6395
何也對曰	-10.6411
二州	-10.6411
若此	-10.6421
所至	-10.643
詔命	-10.6432
至今	-10.6444
也後	-10.6449
家之	-10.6458
今年	-10.6461
為朋黨	-10.6469
而輕	-10.6469
辭曰	-10.6473
常居	-10.6475
也孟康曰	-10.6485
昔在	-10.6487
功徳	-10.6488
武臣	-10.6489
周勃	-10.649
揚州	-10.6501
於别	-10.6504
下吏	-10.6505
論功	-10.6507
騎士	-10.6509
五帝	-10.6514
軍糧	-10.6521
以授	-10.6522
代王	-10.6525
為太尉	-10.6536
曰方今	-10.6538
請誅	-10.6563
至於此	-10.6567
之明	-10.6568
王侯	-10.6569
以寛	-10.6574
破之	-10.6579
語及	-10.6587
首者	-10.6588
罪惡	-10.6592
怠	-10.6605
而生	-10.6605
各言	-10.6605
從弟	-10.6616
與語	-10.662
而下	-10.662
卒以	-10.6624
非也	-10.6628
三軍	-10.6633
二也	-10.6643
後代	-10.6643
自非	-10.6643
為主	-10.6649
求見	-10.6653
餘皆	-10.6654
以金	-10.6658
送之	-10.6665
兵討	-10.6669
何有	-10.6673
也乃	-10.6677
名臣	-10.6686
天人	-10.6691
又問	-10.6694
禮部侍郎	-10.6696
劉毅	-10.6699
城邑	-10.6699
曰此非	-10.6705
有徳	-10.6705
示以	-10.6706
陽城	-10.6708
常謂	-10.6714
於獄	-10.6715
自矜	-10.6725
大錢	-10.6727
宣徽使	-10.6731
日知	-10.6739
者輒	-10.6744
圖之	-10.6751
江左	-10.6752
及聞	-10.6752
嘗問	-10.6754
四月	-10.6756
髫	-10.6763
裴耀卿	-10.6778
尚在	-10.6778
碣	-10.6779
伐之	-10.678
椒	-10.678
者常	-10.6781
訛	-10.6783
江州	-10.6784
亦猶	-10.6786
蕭望之	-10.6787
蹋	-10.6789
搜	-10.6789
汶	-10.679
二者	-10.679
底	-10.679
溥	-10.6791
以贍軍	-10.6791
讐	-10.6792
頌	-10.6792
閔帝	-10.6793
盡矣	-10.6793
也吾	-10.6794
㩁	-10.6796
槩	-10.6796
諤	-10.6797
交阯	-10.6797
卞	-10.6797
竝同平章事	-10.6798
之期	-10.6798
畔	-10.6798
低	-10.6798
孺	-10.6799
項籍	-10.6799
荀彧	-10.68
嗣源	-10.6801
猝	-10.6802
悛	-10.6802
桓譚	-10.6802
髀	-10.6802
姑息	-10.6803
覘	-10.6803
茲	-10.6803
汚	-10.6803
䛕	-10.6804
帷幄	-10.6804
羽翼	-10.6804
杜黄裳	-10.6804
艦	-10.6804
溢	-10.6804
温嶠	-10.6804
嶷	-10.6805
組	-10.6805
孚	-10.6806
景雲元年	-10.6806
簾	-10.6806
竄	-10.6806
徭	-10.6806
諛	-10.6806
旨	-10.6806
墾	-10.6806
籠	-10.6807
懇	-10.6807
譜	-10.6807
遐	-10.6807
梧	-10.6807
箱	-10.6807
愎	-10.6808
楊光逺	-10.6808
羡	-10.6808
文傑	-10.6808
覈	-10.6808
拊	-10.6808
鵠	-10.6808
塢	-10.6808
翂	-10.6808
不習	-10.6808
賦歛	-10.6809
愕然	-10.6809
開府儀同三司	-10.6809
衷	-10.6809
控	-10.6809
畆	-10.6809
荘宗	-10.6809
裏	-10.6809
同僚	-10.681
諳	-10.681
郊祀志	-10.681
巵	-10.681
開運二年	-10.681
恬	-10.681
滔	-10.6811
渤海	-10.6811
褚淵	-10.6811
駒	-10.6811
芻	-10.6811
䘏	-10.6812
兖州刺史	-10.6812
霜	-10.6812
圓	-10.6813
顯徳元年	-10.6813
癸	-10.6813
束手	-10.6813
幘	-10.6813
魯仲連	-10.6814
擠	-10.6815
洋	-10.6815
又奏	-10.6815
肇	-10.6815
檻	-10.6815
蚡	-10.6815
虢	-10.6816
陌	-10.6816
市井	-10.6816
梁孝王	-10.6816
暠	-10.6817
恣横	-10.6817
枯	-10.6817
旦夕	-10.6817
歸田里	-10.6817
杜悰	-10.6817
貪殘	-10.6817
幡	-10.6818
渴	-10.6818
朱滔	-10.6818
五品以上	-10.6818
係	-10.682
穰	-10.682
撻	-10.682
能否	-10.682
藁	-10.6821
跨	-10.6821
陽平公融	-10.6821
錦繡	-10.6822
複	-10.6822
誇	-10.6822
黄巾	-10.6822
應募	-10.6823
旰	-10.6823
中大夫	-10.6823
褊	-10.6824
呂	-10.6824
旌旗	-10.6824
騶	-10.6824
裔	-10.6824
執金吾	-10.6825
及此	-10.6825
逾	-10.6826
冏	-10.6826
弄權	-10.6826
矢石	-10.6826
師丹	-10.6827
昇	-10.6827
言於上曰	-10.6827
冗	-10.6827
鴈門	-10.6827
宼	-10.6827
甘泉	-10.6827
百餘里	-10.6827
熈先	-10.6827
蔚	-10.6828
疲弊	-10.6828
左藏	-10.6828
嘉貞	-10.6829
布帛	-10.6829
伉	-10.683
或問其故	-10.683
疾篤	-10.683
𫝊瓘	-10.683
宫掖	-10.6831
擊大破之	-10.6831
張湯	-10.6832
依違	-10.6832
廣漢	-10.6832
諸吕	-10.6832
建元元年	-10.6833
以千數	-10.6833
鄆州	-10.6833
范雲	-10.6834
崔祐甫	-10.6834
租庸使	-10.6834
浮華	-10.6835
宣慰	-10.6835
棄市	-10.6836
神龍元年	-10.6837
延熹	-10.6838
常衮	-10.6841
奉朝請	-10.6842
七廟	-10.6842
高宗	-10.6843
雋不疑	-10.6843
十餘日	-10.6844
勇力	-10.6844
食貨志四	-10.6844
鎮戍	-10.6845
承㫖	-10.6845
師厚	-10.6848
蘇武	-10.685
草木	-10.6851
蕭曹	-10.6852
縱火	-10.6852
東京	-10.6853
兩京	-10.6853
内庫	-10.6854
師友	-10.6854
數千里	-10.6855
喪亂	-10.6855
棨	-10.6855
張釋之	-10.6856
韋后	-10.6857
昌宗	-10.6857
宴集	-10.6858
耳非	-10.6858
部曲	-10.6859
訛言	-10.6859
下制	-10.686
貧民	-10.6863
劉晏	-10.6864
五品	-10.6864
胡騎	-10.6865
威福	-10.6865
嚴急	-10.6866
矣夫	-10.6867
諫太宗	-10.6868
儉素	-10.6869
帝王之	-10.687
十日	-10.6871
此則	-10.6873
唐虞	-10.6875
也於是	-10.6877
盜賊	-10.6879
雖貴	-10.688
魏博	-10.688
知卿	-10.6882
門北魏	-10.6885
苑中	-10.6888
斬首	-10.689
八百	-10.6891
正統	-10.6893
封爵	-10.6895
經營	-10.6897
兩省	-10.6898
形勢	-10.6899
年號	-10.6899
名儒	-10.69
直指	-10.6907
諸道兵	-10.6907
禍敗	-10.6908
門户	-10.6912
司刑	-10.6912
意欲	-10.6915
更為	-10.692
謁見	-10.6922
六合	-10.6922
應對	-10.6925
州牧	-10.6926
智光	-10.6935
大司空	-10.694
之威	-10.6942
神武	-10.6945
入關	-10.6947
音樂	-10.6952
服御	-10.6952
待詔	-10.6953
悉罷之	-10.6957
諫曰陛下	-10.6961
大興	-10.6962
李宻	-10.6966
殿庭	-10.6969
諸郡	-10.697
必死	-10.697
申公	-10.6971
之首	-10.6974
北歸	-10.6975
間道	-10.6978
如今	-10.6978
守備	-10.6981
宋王	-10.6981
不知所為	-10.6986
復恭	-10.6986
呼為	-10.6989
盡力	-10.6992
皆殺之	-10.6992
疾病	-10.6992
景延廣	-10.6998
發之	-10.7
或言	-10.7004
託以	-10.7004
大掠	-10.7005
之女	-10.7005
山陽	-10.7005
敏中	-10.7007
獨曰	-10.7009
宋州	-10.701
更衣	-10.7012
相連	-10.7012
侍臣	-10.7017
諸子皆	-10.7024
張華	-10.7024
吏士	-10.7026
遷官	-10.703
乃許之	-10.703
每有	-10.7037
勸進	-10.7044
樓下	-10.7047
師道	-10.7048
唯陛下	-10.7049
降人	-10.7055
甚謹	-10.7056
還宫	-10.7064
天下之士	-10.7064
盡言	-10.7067
萬民	-10.7069
足為	-10.7087
為患	-10.7087
即拜	-10.709
正直	-10.7091
隴西	-10.7094
明白	-10.7101
北周	-10.7106
遣兵	-10.7106
年老	-10.7107
正朔	-10.7108
猶恐	-10.7115
桂	-10.7116
閤門	-10.7129
所費	-10.713
相接	-10.713
且請	-10.7135
西門	-10.7144
曰明公	-10.7146
何事	-10.7149
今欲	-10.7153
求進	-10.7154
省事	-10.7156
朕意	-10.7168
萬國	-10.7184
問其故對曰	-10.7185
之具	-10.7188
同異	-10.7188
大敵	-10.7192
他人	-10.7198
歸心	-10.72
有如	-10.7204
不厭	-10.7212
請與	-10.7223
以鐵	-10.7224
軍食	-10.7236
以文學	-10.7237
太一	-10.7238
親厚	-10.724
不減	-10.7241
何從	-10.7252
請加	-10.7253
曽不	-10.7254
形如	-10.7254
分道	-10.7256
語之曰	-10.7257
何武	-10.7257
上流	-10.726
既成	-10.7267
由此	-10.7269
命有司	-10.7273
以歸	-10.7276
守相	-10.7276
直入	-10.7278
莫有	-10.728
生日	-10.7286
過惡	-10.7287
南漢	-10.7293
王章	-10.7294
百日	-10.7301
息民	-10.7313
已盡	-10.7315
者當	-10.7324
其第	-10.7324
乎於是	-10.7325
昭義	-10.7327
當世	-10.7334
逺矣	-10.7343
多引	-10.7345
非陛下	-10.7345
文帝以	-10.7348
上帝	-10.7348
為皇太子	-10.7349
厯數	-10.735
犯顔	-10.7353
益甚	-10.7353
何異	-10.7362
因謂	-10.737
乃還	-10.7377
光武紀建武	-10.7381
三也	-10.7387
起復	-10.7397
外有	-10.7408
畏死	-10.7419
之族	-10.7434
陽太守	-10.7449
又令	-10.746
遂與	-10.7472
者正	-10.7479
難得	-10.7497
後漢書	-10.7499
而言	-10.7501
藏之	-10.7515
持之	-10.7515
與契丹	-10.7526
朝貴	-10.7529
方與	-10.753
不稱	-10.7531
共事	-10.7542
二王	-10.7559
仍以	-10.7562
自處	-10.7578
執事	-10.7595
丞相御史	-10.7596
乎遂	-10.7601
兵革	-10.7601
肅宗曰	-10.7605
家世	-10.7617
而來	-10.7619
兄也	-10.762
所以不	-10.7622
員外郎	-10.7632
不畏	-10.7639
不預	-10.7641
出降	-10.7642
其議	-10.7648
酣	-10.765
可成	-10.765
善人	-10.7656
此屬	-10.7657
前殿	-10.7657
祖父	-10.7658
死亡	-10.7658
所見	-10.7659
不能得	-10.7665
盡心	-10.7666
十六年	-10.7669
人人自	-10.7684
賢人	-10.7686
太平之	-10.7687
之基	-10.7689
又何	-10.7697
曰茍	-10.7698
者獨	-10.7698
所引	-10.7701
屬吏	-10.7702
神䇿	-10.7703
不能盡	-10.7716
者則	-10.7726
陛下宜	-10.7726
賣官	-10.7738
宴於	-10.775
以助	-10.7752
晏球	-10.7759
肩輿	-10.7762
承偕	-10.7762
潼	-10.7767
定陶	-10.7773
租庸	-10.7775
鹽鐵	-10.7778
家貧	-10.7779
或時	-10.7779
珏	-10.7779
宣帝紀	-10.778
翊	-10.778
辜	-10.7781
浦	-10.7783
李世勣	-10.7785
艱	-10.7786
出家	-10.7788
漕運	-10.7789
涇	-10.7789
虎賁	-10.7789
廣順元年	-10.7791
阜	-10.7791
雙	-10.7792
騫	-10.7793
賦斂	-10.7793
勔	-10.7794
吉甫	-10.7794
取天下	-10.7796
秦王從榮	-10.7796
張衡傳	-10.7796
太常博士	-10.7797
輅	-10.7797
建武二年	-10.7799
孩	-10.7799
誼	-10.7799
致死	-10.78
長興三年	-10.78
叔孫通	-10.78
須臾	-10.78
鉉	-10.78
拂衣	-10.7801
澗	-10.7801
端明殿學士	-10.7801
敺	-10.7801
驩	-10.7802
敵也	-10.7802
較	-10.7802
慟	-10.7802
晡	-10.7802
顓	-10.7803
酉	-10.7803
裴寂	-10.7803
貟	-10.7803
渚	-10.7804
羨餘	-10.7804
桐	-10.7804
悖慢	-10.7804
孟知祥	-10.7804
瑑	-10.7804
窟	-10.7805
崖	-10.7805
旻	-10.7805
沃	-10.7805
防禦	-10.7805
睹	-10.7805
唾	-10.7806
熹	-10.7806
凍	-10.7807
隷	-10.7807
闥	-10.7807
剥	-10.7807
陳天嘉	-10.7807
曷	-10.7808
詠	-10.7808
宣城王	-10.7808
省之	-10.7808
呈	-10.7809
貎	-10.7809
夷狄	-10.7809
項籍傳	-10.781
頰	-10.781
臨軒	-10.781
洲	-10.781
折衝	-10.781
圖䜟	-10.7811
𢎞俶	-10.7811
孔謙	-10.7811
滌	-10.7811
苟	-10.7811
蕭道成	-10.7811
甥	-10.7811
衢	-10.7811
吳越	-10.7812
辟雍	-10.7812
擯	-10.7812
疇	-10.7812
令坤	-10.7812
紈	-10.7812
渾瑊	-10.7812
滑	-10.7812
趾	-10.7813
家給人足	-10.7813
灌嬰	-10.7813
蹕	-10.7813
駟	-10.7813
緑	-10.7813
塗炭	-10.7813
笏	-10.7814
李珏	-10.7814
開運元年	-10.7814
隴右	-10.7814
顛	-10.7814
壓	-10.7814
慄	-10.7815
河間王	-10.7815
闌	-10.7815
三品以上	-10.7815
後唐明宗	-10.7815
嘆	-10.7815
揚雄傳五十七	-10.7815
李綘	-10.7815
光禄勲	-10.7816
苖	-10.7816
蒼頭	-10.7816
梯	-10.7816
鎰	-10.7816
偷安	-10.7816
叟	-10.7816
捉	-10.7817
坤	-10.7817
長城公	-10.7817
購	-10.7818
史𢎞肇	-10.7818
夏四月	-10.7819
模	-10.7819
建中四年	-10.7819
閭閻	-10.7819
酒泉	-10.7819
批	-10.7819
頠	-10.7819
怖	-10.7819
事耳	-10.7819
仆	-10.7819
摶	-10.7819
檀	-10.782
漢主聰	-10.782
倉猝	-10.782
管仲	-10.782
鈔	-10.782
巒	-10.7821
倉庫	-10.7821
張掖	-10.7821
張延賞	-10.7821
褐	-10.7821
佚	-10.7822
翠	-10.7822
節度判官	-10.7822
同光三年	-10.7822
幕府	-10.7822
局	-10.7822
詗	-10.7823
味道	-10.7823
肺	-10.7823
股	-10.7823
騎射	-10.7823
奢靡	-10.7823
墳	-10.7823
瘠	-10.7824
手搏	-10.7824
須㬰	-10.7824
鄴都	-10.7825
元稹	-10.7825
石勒	-10.7825
駐	-10.7825
珉	-10.7825
登樓	-10.7826
諍	-10.7826
虎牢	-10.7827
轉輸	-10.7827
釣	-10.7827
檀道濟	-10.7827
冕	-10.7827
竇憲	-10.7828
絳侯	-10.7828
巨萬	-10.7828
繼嗣	-10.7828
也前書	-10.7828
一等	-10.7828
元和四年	-10.7829
陛下誠能	-10.7829
羊祜	-10.7829
睚眦	-10.7829
冬十月	-10.783
漏泄	-10.7831
復召	-10.7831
慎矜	-10.7831
扈從	-10.7831
斵	-10.7832
作威福	-10.7832
邊境	-10.7832
吐谷渾	-10.7832
鏤	-10.7832
彗	-10.7832
侔	-10.7832
窮困	-10.7832
太夫人	-10.7832
酎	-10.7832
䕫	-10.7833
祐甫	-10.7834
袖	-10.7834
欲去	-10.7835
酺	-10.7835
孟容	-10.7835
旬月	-10.7835
儒學	-10.7836
遁去	-10.7837
賈充	-10.7837
記室	-10.7838
太元十	-10.7838
入禁中	-10.7839
侵暴	-10.7839
蓬	-10.784
太微	-10.784
知古	-10.7841
都䕶	-10.7841
甚重之	-10.7842
領軍將軍	-10.7843
征虜	-10.7843
因請	-10.7844
貞觀二年	-10.7845
大宛	-10.7845
盱眙	-10.7845
璹	-10.7845
楊震	-10.7845
歩騎	-10.7846
轅	-10.7847
幸東都	-10.7847
智伯	-10.7847
冀州刺史	-10.7848
勞苦	-10.7848
王𤣥謨	-10.7849
髙陽	-10.7849
繫囚	-10.785
步騎	-10.785
石虎	-10.7851
揚州刺史	-10.7851
王溥	-10.7851
太史令	-10.7852
微弱	-10.7854
茂陵	-10.7855
談論	-10.7857
鄭𤣥	-10.7858
逆順	-10.7858
爵位	-10.7858
黄龍	-10.7859
累遷	-10.786
朱氏	-10.786
江充	-10.7861
戎服	-10.7861
斷絶	-10.7862
謝病	-10.7863
周兵	-10.7863
尚書郎	-10.7865
黨與	-10.7866
江州刺史	-10.7868
休仁	-10.7868
兼侍中	-10.7869
罪狀	-10.7869
功曹	-10.787
王偉	-10.7871
徐氏	-10.7872
朕欲	-10.7872
所損	-10.7873
在朝	-10.7873
炳之	-10.7875
暴室	-10.7875
兵柄	-10.7877
先驅	-10.7879
而求	-10.7881
錢榖	-10.7887
元達	-10.7887
幾何	-10.7888
連年	-10.7889
累世	-10.789
職業	-10.7893
無賴	-10.7893
宴樂	-10.7894
窮治	-10.7895
理之	-10.7897
外事	-10.7897
五十餘	-10.7898
第舍	-10.7899
諸弟	-10.7899
賊中	-10.7899
其時	-10.79
欲加	-10.79
良將	-10.7901
宫殿	-10.7904
太盛	-10.7905
三十一	-10.7905
劉向	-10.7907
還京師	-10.7908
何能為	-10.791
議事	-10.791
試守	-10.7912
之功也	-10.7913
郭解	-10.7913
宜速	-10.7914
爭權	-10.7914
推心	-10.7915
聚衆	-10.7915
謝𤣥	-10.7919
顧望	-10.792
散騎	-10.7921
上下相	-10.7922
簡易	-10.7922
歴代	-10.7922
誰能	-10.7924
嚴刑	-10.7925
延年	-10.7925
或問	-10.7929
大旱	-10.7929
西河	-10.793
文昌	-10.7932
請託	-10.7932
致治	-10.7934
泣下	-10.7935
若是	-10.7935
昭徳	-10.7936
左丞	-10.7936
遇賢	-10.7939
至建康	-10.7941
福州	-10.7943
當是時	-10.7945
於朝堂	-10.795
疏奏	-10.795
也凡	-10.7953
居上	-10.7955
尺一	-10.7955
復生	-10.7958
親信	-10.7965
莫若	-10.7968
大駕	-10.7969
必能	-10.7971
山下	-10.7973
流亡	-10.7977
之徒皆	-10.7979
在陛下	-10.7979
無主	-10.798
使我	-10.7983
大司徒	-10.7987
右將軍	-10.7988
張昭	-10.7988
怒甚	-10.799
𤣥成	-10.7994
淮南王	-10.7994
至有	-10.7997
自古帝王	-10.7998
相結	-10.8006
急攻	-10.8008
武后	-10.801
丈人	-10.8011
外間	-10.8011
而返	-10.8013
後嗣	-10.8014
師範	-10.8015
盛陳	-10.8017
不軌	-10.8018
失利	-10.8019
復興	-10.8019
直諫	-10.8022
撫之	-10.8023
邪對曰	-10.8023
請罪	-10.8025
尚書省	-10.8026
進止	-10.8028
相持	-10.8031
元禮	-10.8032
之象	-10.8033
髙祖以	-10.8045
損益	-10.8047
懐文	-10.8047
天皇	-10.8059
髙后	-10.8059
更命	-10.8069
景進	-10.8072
厚賜	-10.8073
請誅之	-10.8078
對䇿	-10.8078
諡曰	-10.8079
邊將	-10.8085
繼之	-10.8086
執法	-10.8089
自訴	-10.8091
李廣	-10.8095
車服	-10.8095
號為	-10.8097
其職	-10.8098
王敦	-10.8099
食盡	-10.811
後來	-10.811
内殿	-10.8114
晉國	-10.8114
大破	-10.8116
宻令	-10.8117
力不能	-10.8121
一方	-10.8124
恐有	-10.8127
伏見	-10.8136
日益	-10.8141
挺之	-10.8144
七上	-10.8147
下民	-10.8147
老子	-10.8151
引去	-10.8152
既誅	-10.8169
景文	-10.817
納其言	-10.8175
禍及	-10.8192
一時之	-10.8193
忠貞	-10.8197
羣臣議	-10.82
重任	-10.8201
圍之	-10.8204
素無	-10.8206
前代	-10.8208
相承	-10.8208
晉軍	-10.8209
下殿	-10.8213
仙人	-10.8213
猶能	-10.822
深思	-10.8224
為刺史	-10.8224
曏者	-10.823
人之所	-10.8236
其半	-10.8263
將何	-10.8266
若今之	-10.8269
武庫	-10.828
二十一	-10.8283
擒之	-10.8284
為列侯	-10.8299
安國	-10.8301
寵之	-10.8308
盡殺之	-10.831
相望	-10.831
入闗	-10.831
預政	-10.8311
三世	-10.8313
二十九	-10.8326
憐之	-10.8327
不憂	-10.8333
在前	-10.834
固當	-10.8341
永安	-10.8343
别駕	-10.8353
吳人	-10.8354
於河	-10.8354
凡所	-10.8355
不足為	-10.8357
南面	-10.8361
濮	-10.8362
齊桓	-10.8363
道徳	-10.8367
無疑	-10.837
禮官	-10.837
每見	-10.8378
文帝問	-10.8385
求賢	-10.8388
既失	-10.84
桂州	-10.84
等奏	-10.8403
助之	-10.8404
長生	-10.8408
出門	-10.8409
時望	-10.8411
遂成	-10.8416
責之曰	-10.8418
遺詔	-10.842
既平	-10.843
以木	-10.8433
不答	-10.8436
厚賂	-10.8437
直以	-10.8439
無名	-10.8448
延之	-10.8449
之重	-10.845
不可使	-10.8454
變更	-10.8459
亦以為	-10.8463
曰先帝	-10.8478
致書	-10.8488
大官	-10.8492
孔子曰	-10.8496
罪當死	-10.8498
離宫	-10.8506
軍門	-10.8509
桓公	-10.8516
不得見	-10.8518
鎮撫	-10.8521
之南	-10.8522
相應	-10.8525
大政	-10.8528
聞有	-10.8534
馳入	-10.8542
諸所	-10.8553
常恐	-10.8553
不少	-10.856
▁注云	-10.8562
臣敢	-10.8593
推之	-10.8607
所須	-10.8608
故名	-10.8613
國號	-10.8616
過之	-10.8628
外祖	-10.8631
多疾	-10.8638
是則	-10.8649
此心	-10.8652
西羌	-10.8656
歸命	-10.8663
無過	-10.8666
餘衆	-10.8674
兩人	-10.8675
不善	-10.8676
以竹	-10.8698
二萬人	-10.8699
可立	-10.8699
所對	-10.8712
下詔曰	-10.8718
君侯	-10.8725
止之曰	-10.8728
不次	-10.8743
保全	-10.8758
所聞	-10.8759
也應劭曰	-10.8773
論者	-10.8782
為念	-10.8787
樞密	-10.8807
長孫無忌	-10.8809
二十八	-10.881
稱之	-10.8823
豈宜	-10.8825
武備	-10.8825
何待	-10.8828
書云	-10.8837
左僕射	-10.8841
為變	-10.8852
甑生	-10.8856
今主上	-10.8861
深宫	-10.8861
出遊	-10.8863
中郎	-10.8864
是謂	-10.8872
三十七	-10.8873
先自	-10.8878
之位	-10.8882
王彪之	-10.8886
碧	-10.8887
啗	-10.8888
紿	-10.8889
中官	-10.8889
是使	-10.8891
衆多	-10.8891
猶可	-10.8891
蘓	-10.8892
職在	-10.8895
法令	-10.8896
明矣	-10.8898
司馬遷	-10.89
㤀	-10.8901
勢傾朝野	-10.8901
屈突通	-10.8901
渤	-10.8903
搢紳	-10.8903
范質	-10.8903
藴	-10.8904
名位	-10.8904
杲卿	-10.8905
若能	-10.8906
薊	-10.8906
馮延巳	-10.8908
数	-10.8908
韋澳	-10.8908
嬪	-10.8909
椒房	-10.8909
皁	-10.8909
前書音義曰	-10.8909
餓	-10.891
截	-10.891
紂	-10.891
弋	-10.891
謔	-10.8911
馴	-10.8912
倡	-10.8912
拾	-10.8912
澳	-10.8913
㸃	-10.8913
顯徳二年	-10.8913
陂	-10.8913
蘄	-10.8913
駙馬都尉	-10.8913
士良等	-10.8913
宵	-10.8913
鹽鐵轉運使	-10.8913
襦	-10.8914
芥	-10.8914
刀筆	-10.8914
廣順二年	-10.8914
賁	-10.8914
岡	-10.8914
未央宫	-10.8914
餅	-10.8915
淚	-10.8915
同光元年	-10.8916
欒	-10.8916
綘	-10.8916
兾	-10.8916
幟	-10.8916
鑰	-10.8917
住	-10.8917
倉廪	-10.8917
麤	-10.8917
楊炎	-10.8917
霞	-10.8917
漳	-10.8917
糶	-10.8918
蘇頲	-10.8918
安肯	-10.8918
殄	-10.8918
遑	-10.8918
壼	-10.8919
以萬數	-10.8919
國子祭酒	-10.8919
蔣𤣥暉	-10.8919
剽	-10.8919
猾	-10.8919
豕	-10.892
當是之時	-10.892
閭里	-10.892
毫	-10.892
杜如晦	-10.892
跋扈	-10.892
白敏中	-10.892
挑戰	-10.8921
遍	-10.8921
零	-10.8921
許諾	-10.8921
奭	-10.8921
狼狽	-10.8921
興慶宫	-10.8921
事無大小	-10.8921
謠	-10.8921
酤	-10.8921
厄	-10.8921
為前鋒	-10.8922
随	-10.8923
黙啜	-10.8923
家者流出於	-10.8923
班超	-10.8923
希範	-10.8923
秦人	-10.8923
董仲舒	-10.8923
動揺	-10.8923
厲聲曰	-10.8923
祕書監	-10.8923
侯君集	-10.8924
杜喬	-10.8924
牘	-10.8924
臣瓚曰	-10.8924
遜位	-10.8924
團	-10.8924
慤	-10.8924
劉鄩	-10.8924
霧	-10.8925
賜自盡	-10.8925
繞	-10.8925
牡	-10.8925
至徳元載	-10.8926
杵	-10.8926
宸	-10.8926
憎	-10.8926
孽	-10.8927
晃	-10.8927
驚駭	-10.8927
䑕	-10.8927
堵	-10.8927
紛紜	-10.8927
數十騎	-10.8927
段凝	-10.8927
粉	-10.8927
曰大王	-10.8927
田承嗣	-10.8928
十六宅	-10.8928
萬乘之	-10.8928
緣	-10.8928
羡餘	-10.8928
筮	-10.8928
李昭徳	-10.8928
姬妾	-10.8929
跌	-10.8929
莫肯	-10.8929
欽義	-10.8929
小黄門	-10.8929
草創	-10.8929
沸	-10.8929
雒	-10.893
愿	-10.893
甸	-10.893
寅	-10.893
令狐楚	-10.8931
蹤	-10.8931
有憂色	-10.8931
殽	-10.8931
妃嬪	-10.8931
亘	-10.8932
大秦國	-10.8932
愠	-10.8932
惻	-10.8932
鄭氏曰	-10.8932
焚香	-10.8932
李廣傳	-10.8933
中傷之	-10.8933
東川節度使	-10.8933
後周太祖	-10.8933
遙	-10.8933
天雄節度使	-10.8933
柩	-10.8933
范延光	-10.8933
季述	-10.8933
幢	-10.8933
泰始七年	-10.8933
紛紛	-10.8933
眉	-10.8934
桓靈	-10.8934
挽	-10.8934
遊獵	-10.8934
幅巾	-10.8934
農桑	-10.8935
隸	-10.8935
右拾遺	-10.8935
㳺	-10.8935
回紇	-10.8935
滄	-10.8935
一子	-10.8936
開成元年	-10.8936
京畿	-10.8936
陛下必欲	-10.8936
杯	-10.8936
桓彦範	-10.8936
為唐	-10.8936
躡	-10.8937
逄	-10.8937
漢儀注	-10.8937
科第	-10.8938
司馬懿	-10.8938
荆州刺史	-10.8939
殿中侍御史	-10.8939
下邳	-10.8939
僣	-10.8939
珍寳	-10.8939
側目	-10.8939
盧把	-10.8939
愛憎	-10.8939
琨	-10.8939
貞元十	-10.894
譬猶	-10.894
戰艦	-10.894
祭遵	-10.894
覬	-10.894
謝罪	-10.8941
驃騎大將軍	-10.8941
地震	-10.8941
供奉官	-10.8941
爰盎	-10.8941
夀春	-10.8941
鎧仗	-10.8942
爾雅	-10.8943
東井	-10.8943
高力士	-10.8943
坊市	-10.8943
𢎞冀	-10.8943
孝文	-10.8944
覇	-10.8944
驪山	-10.8944
揔	-10.8944
敦煌	-10.8944
磨	-10.8944
大理卿	-10.8944
儒林傳	-10.8945
運糧	-10.8945
元帝紀	-10.8945
演	-10.8946
深可畏	-10.8947
皇孫	-10.8947
乳母	-10.8949
雍州刺史	-10.8949
濯	-10.8949
元和三年	-10.8949
四十九	-10.895
萬紀	-10.8951
冩	-10.8952
祖仁	-10.8952
盗鑄	-10.8952
甘茂	-10.8952
注云漢官儀曰	-10.8953
李希烈	-10.8953
朱穆	-10.8953
瘞	-10.8953
慙懼	-10.8954
直學士	-10.8955
此其所以	-10.8956
實録	-10.8956
空虛	-10.8957
園陵	-10.8957
博學	-10.8957
羅告	-10.8959
傳七十二	-10.8959
竭力	-10.896
沈約	-10.896
婁敬	-10.896
流汗	-10.8961
白刃	-10.8961
靈運	-10.8962
上尊號	-10.8962
師伯	-10.8963
抑損	-10.8963
東海王	-10.8964
吳越王	-10.8964
李紳	-10.8964
入閤	-10.8965
牛酒	-10.8966
引咎	-10.8966
疾疫	-10.8967
險固	-10.8967
鄭光	-10.897
疑似	-10.897
祖宗	-10.8971
鄉侯	-10.8971
勃然	-10.8971
奔走	-10.8972
根本	-10.8973
伏願	-10.8973
延嗣	-10.8974
陳倉	-10.8974
䝉遜	-10.8974
乗勝	-10.8975
受賂	-10.8975
淮隂	-10.8975
後梁貞明	-10.8975
避位	-10.8976
不降	-10.8976
神色	-10.8977
劉聰	-10.8977
門東晉	-10.8977
勞費	-10.8977
肅然	-10.8979
獲免	-10.8979
司𨽻	-10.8979
陳覺	-10.898
江夏	-10.8982
力役	-10.8983
嗣位	-10.8983
乘間	-10.8983
琅邪王	-10.8984
劉秀	-10.8984
入汴	-10.8985
精神	-10.8986
不懌	-10.8987
酒色	-10.8987
聞之大怒	-10.8988
湯武	-10.8989
矯詔	-10.899
老病	-10.8991
阿母	-10.8991
徐温	-10.8991
開府	-10.8994
推誠	-10.8999
司馬遷傳	-10.9001
廷望	-10.9001
曹氏	-10.9002
就第	-10.9002
後悔	-10.9002
李彪	-10.9004
而行之	-10.9005
寵遇	-10.9005
衛將軍	-10.9007
亦以為然	-10.9007
法駕	-10.9007
宰臣	-10.9009
遂安	-10.9009
元衡	-10.901
復讎	-10.9014
山林	-10.9014
屈身	-10.9017
明君	-10.9017
切責	-10.9018
從容謂	-10.902
後庭	-10.902
革命	-10.902
為左僕射	-10.9021
累朝	-10.9022
詩書	-10.9022
舊恩	-10.9025
被誅	-10.9027
平盧	-10.9028
寵幸	-10.9028
李愚	-10.9033
丁公	-10.9034
而泣	-10.9037
兵力	-10.9039
器物	-10.904
二十三年	-10.9041
永建	-10.9042
方術	-10.9042
禮儀	-10.9044
公輩	-10.9044
和解	-10.905
禁止	-10.9053
甚喜	-10.9053
漢祖	-10.9054
怨怒	-10.9054
嗣君	-10.9056
具陳	-10.906
與之同	-10.9062
一千	-10.9067
分司	-10.9067
千餘里	-10.9068
奉養	-10.9069
而食之	-10.9071
及弟	-10.9073
持重	-10.9073
恃其	-10.9075
聖心	-10.9077
一夕	-10.9078
進賢	-10.9078
所取	-10.9079
今日之事	-10.908
冠軍	-10.9084
方面	-10.9086
出城	-10.9086
並起	-10.9087
朝會	-10.9087
受賞	-10.9087
夫婦	-10.9088
車師	-10.9088
牙兵	-10.9088
改易	-10.909
興元	-10.9093
名器	-10.91
諸胡	-10.9101
其形	-10.9108
明皇命	-10.9112
多詐	-10.9114
語云	-10.9118
元賞	-10.9118
非敢	-10.9118
走馬	-10.912
江漢	-10.9121
𢎞正	-10.913
戒之曰	-10.9131
入境	-10.9135
卿何	-10.9137
入賀	-10.9141
相對	-10.9141
近親	-10.9142
殆非	-10.9147
君父	-10.9148
疑懼	-10.915
獨留	-10.915
危懼	-10.9151
議者以	-10.9154
任使	-10.9157
不能對	-10.9157
吾家	-10.9161
境上	-10.9165
唯有	-10.9166
破家	-10.9171
忠正	-10.9173
太宗曰朕	-10.9173
張説	-10.9177
對曰臣聞	-10.9181
曰卿言	-10.9185
宜早	-10.9186
先除	-10.9186
梁天監	-10.9188
逺來	-10.9195
元后	-10.9195
雲中	-10.9199
王友	-10.9202
士衆	-10.9203
魏晉	-10.9203
劉表	-10.9203
諸大臣	-10.9206
出征	-10.9207
反間	-10.9209
連兵	-10.9213
建武四年	-10.9216
不祥	-10.9219
由是有寵	-10.922
晉主	-10.9221
行道	-10.9222
為害	-10.9223
曰汝曹	-10.9225
太官	-10.9226
興廢	-10.9226
友人	-10.923
文辭	-10.923
霸上	-10.9232
千緡	-10.9233
隨時	-10.9242
給賜	-10.9244
吏部郎	-10.9245
尚不能	-10.9254
二十四年	-10.9258
前將軍	-10.9261
兵勢	-10.9264
皆失色	-10.9266
之象也	-10.9269
關西	-10.9272
義帝	-10.9277
治國	-10.9281
東山	-10.9282
失守	-10.9282
豈敢	-10.9283
南平	-10.9283
止可	-10.9288
國夫人	-10.9307
拜官	-10.9309
當斬	-10.9309
四十二	-10.931
攻取	-10.9314
為郎	-10.9315
思歸	-10.9317
國亡	-10.9317
商人	-10.9322
上欽定四庫全書通鑑總𩔖卷	-10.9328
一體	-10.9331
諸武	-10.9337
豈得以	-10.9337
關東	-10.934
入宮	-10.9355
危亡	-10.936
遂定	-10.9363
相攻	-10.9365
陳留	-10.9376
也一曰	-10.9376
不能守	-10.9391
秦州	-10.9393
决於	-10.9406
何能	-10.941
齊國	-10.9414
招權	-10.9414
秦漢	-10.9414
終當	-10.9418
士人	-10.942
失節	-10.9425
文徳	-10.9426
抵罪	-10.9426
光武令	-10.9429
者也今	-10.9433
雖多	-10.9438
民望	-10.9439
儒者	-10.9447
請降	-10.9449
尚可	-10.9453
戰國	-10.9463
天心	-10.9467
必待	-10.9479
政令	-10.9482
野王	-10.9482
言是也	-10.9488
宜陽	-10.9497
碎之	-10.9498
兵圍	-10.9503
愚謂	-10.9525
能如是	-10.9529
漢家	-10.953
有司奏	-10.954
給事	-10.9545
先後	-10.9546
家國	-10.9547
長安城	-10.9551
作色	-10.9553
得幸於	-10.9553
少子	-10.9555
敬則	-10.9564
為中書侍郎	-10.957
請討	-10.9585
初平	-10.9588
洪州	-10.9594
自誣	-10.9605
所執	-10.9623
殿上	-10.9626
爭論	-10.9633
將卒	-10.9646
西宫	-10.9651
常置	-10.9679
以從	-10.9682
異者	-10.9683
其子孫	-10.9689
悰曰	-10.9693
安知	-10.9694
終身	-10.9703
言其狀	-10.9707
遣軍	-10.9715
公卿議	-10.9753
十二年初	-10.9755
戸部	-10.9757
冊命	-10.9759
七月	-10.9761
百五十	-10.9763
所願	-10.9775
上欽定四庫全書通鑑總𩔖卷十	-10.9776
愬曰	-10.9781
當盡	-10.9782
軍國事	-10.9783
弼曰	-10.9791
乃拜	-10.9791
百緡	-10.9802
自恃	-10.9805
因問	-10.9824
簿書	-10.9857
一錢	-10.987
萬騎	-10.9883
不過三	-10.9884
不決	-10.9887
天福三年	-10.9893
出閤	-10.9901
來朝	-10.9905
初立	-10.9915
報仇	-10.9922
右丞	-10.9922
得其人	-10.9926
各自	-10.9933
之於外	-10.9934
九年初	-10.9939
僧達	-10.9943
更始二年	-10.9955
意甚	-10.9982
反逆	-10.9984
嘉納	-10.9988
王后	-10.999
以為憂	-11.0002
使者至	-11.0005
皇嗣	-11.0007
請改	-11.0023
勞之曰	-11.0024
不得入	-11.0028
朝議	-11.0038
司馬昭	-11.004
益驕	-11.005
殺我	-11.0054
三千餘	-11.0054
宫門	-11.0061
民財	-11.0067
奉迎	-11.0071
可畏	-11.0075
餒	-11.0103
叅	-11.0108
稔	-11.0113
琪	-11.0121
地理志八	-11.0124
宛	-11.0124
對曰昔	-11.0131
修宫室	-11.0132
毬	-11.0133
罘罳	-11.0135
勣	-11.0139
灰	-11.0139
即召	-11.0139
免死	-11.0141
禆	-11.0141
脚	-11.0143
珠玉	-11.0143
絙	-11.0145
鑾	-11.0145
昭帝紀	-11.0146
薛文傑	-11.0149
邯	-11.0149
羅夫子	-11.0149
葺	-11.0149
鴆	-11.015
響	-11.0152
卵	-11.0153
態	-11.0154
孫伏伽	-11.0154
宰輔	-11.0154
杜佑	-11.0155
傳瓘	-11.0155
粤	-11.0156
大司農	-11.0156
鑊	-11.0156
祁	-11.0156
鎧	-11.0156
庭湊	-11.0158
抱真	-11.0158
稚	-11.0158
絢	-11.0158
脉	-11.0159
韋執誼	-11.0159
慧龍	-11.016
竇參	-11.016
蕪	-11.016
毓	-11.0161
勝也紹	-11.0161
熙	-11.0162
髙貴鄉公	-11.0162
縊	-11.0162
知制誥	-11.0162
何面目	-11.0162
鳳翔	-11.0162
慎夫人	-11.0162
乾祐元年	-11.0162
燼	-11.0162
㳙	-11.0162
摘	-11.0162
藺	-11.0163
兖豫	-11.0163
猷	-11.0163
浪	-11.0163
綯	-11.0163
彬	-11.0163
昕	-11.0164
惋	-11.0164
邯鄲	-11.0164
校書郎	-11.0164
跣	-11.0164
楊州	-11.0164
任城王澄	-11.0165
𤣥謨	-11.0165
幄	-11.0165
貶官	-11.0165
咫尺	-11.0165
胥	-11.0165
眠	-11.0166
怡	-11.0166
比肩	-11.0166
鳥獸	-11.0166
芳	-11.0167
訟寃	-11.0167
䍐	-11.0167
嶲	-11.0167
猥	-11.0167
竄匿	-11.0168
貞觀之初	-11.0168
鎖	-11.0168
閹	-11.0169
廼	-11.0169
西京留守	-11.0169
彘	-11.0169
聼	-11.017
營繕	-11.017
榖帛	-11.017
紫宫	-11.017
西域傳六十六	-11.017
後唐同光元年	-11.017
栖	-11.017
忠嗣	-11.017
屣	-11.0171
周赧王	-11.0171
何尚之	-11.0171
精銳	-11.0171
王武俊	-11.0171
顯宗紀永平	-11.0171
祇	-11.0171
申屠嘉	-11.0171
鎔	-11.0171
徼幸	-11.0171
事遂寢	-11.0171
鴟	-11.0172
譴責	-11.0172
揷	-11.0172
播遷	-11.0172
臧否	-11.0172
敖	-11.0172
丙吉	-11.0173
抄掠	-11.0173
於地下	-11.0173
稀	-11.0173
太宰	-11.0173
旗幟	-11.0173
盧坦	-11.0173
樞機	-11.0174
弑逆	-11.0174
誑	-11.0174
亥	-11.0174
牝	-11.0174
酣飲	-11.0175
誣罔	-11.0175
爾朱榮	-11.0175
倓	-11.0175
路巖	-11.0175
師古曰凡言	-11.0175
耆老	-11.0175
羅織	-11.0175
綾	-11.0175
荒淫	-11.0175
燔	-11.0176
叢	-11.0176
貿	-11.0176
輻湊	-11.0176
寐	-11.0176
挂	-11.0176
開皇十	-11.0176
廡下	-11.0176
歐陽	-11.0176
脂	-11.0177
天下幸甚	-11.0177
裸	-11.0177
李巽	-11.0177
尺寸	-11.0177
筩	-11.0177
髠	-11.0177
匡範	-11.0177
拂	-11.0178
不聊生	-11.0178
付廷尉	-11.0178
揣	-11.0178
弇	-11.0178
浴	-11.0179
桞	-11.0179
夙夜	-11.0179
灾	-11.0179
長慶二年	-11.0179
炅	-11.018
范滂	-11.018
𢎞㣲	-11.018
稱尊號	-11.018
刺史縣令	-11.0181
郤	-11.0181
邊鎬	-11.0181
凌	-11.0181
注云説文曰	-11.0181
夭	-11.0181
糜	-11.0181
劉洎	-11.0181
安帝紀	-11.0182
聿	-11.0182
崔駰傳	-11.0182
日有食之	-11.0182
霄	-11.0182
丹陽尹	-11.0182
為青州刺史	-11.0183
軀	-11.0183
庻政	-11.0183
竇融	-11.0183
匪	-11.0183
采訪使	-11.0183
棟	-11.0183
單騎	-11.0184
著作郎	-11.0184
凶逆	-11.0184
楊復恭	-11.0184
層	-11.0184
彦超	-11.0184
晨夜	-11.0184
瑁	-11.0184
鄭畋	-11.0185
平盧節度使	-11.0185
和士開	-11.0185
永徽	-11.0185
酖	-11.0185
韻	-11.0186
不稱㫖	-11.0186
棲	-11.0186
磧	-11.0186
裴行儉	-11.0186
鏖	-11.0186
晙	-11.0186
禹錫	-11.0186
盎	-11.0187
黥	-11.0187
懾	-11.0187
工部尚書	-11.0187
挈	-11.0187
寫	-11.0187
九品	-11.0188
慨然	-11.0188
箴	-11.0188
縉紳	-11.0188
杭	-11.0188
躍馬	-11.0188
虡	-11.0188
約束	-11.0188
袁粲	-11.0188
邠寧	-11.0188
腕	-11.0189
羈	-11.0189
天祿	-11.0189
慰撫	-11.0189
開延英	-11.0189
薛延陁	-11.0189
隘	-11.0189
季良	-11.019
衮冕	-11.019
浮屠	-11.019
攘袂	-11.019
潼闗	-11.019
鄒	-11.019
符瑞	-11.019
黃金	-11.0191
屍	-11.0191
晏駕	-11.0191
大理少卿	-11.0192
廣平王	-11.0192
奨	-11.0192
藻	-11.0192
杜詩	-11.0192
劉仁贍	-11.0192
袁術	-11.0192
馬燧	-11.0192
栁公權	-11.0193
赦其罪	-11.0194
涓	-11.0194
徐知誥	-11.0194
陳希烈	-11.0194
武承嗣	-11.0194
好讀書	-11.0194
趙巖	-11.0194
盪	-11.0194
驕縱	-11.0195
蟬	-11.0195
蕭衍	-11.0195
梓宫	-11.0196
秋冬	-11.0196
釀	-11.0196
黷	-11.0196
冦恂	-11.0196
左馮翊	-11.0196
掾史	-11.0196
大厯元年	-11.0197
不自勝	-11.0197
後唐莊宗	-11.0197
塲	-11.0197
厮	-11.0197
竿	-11.0197
元琰	-11.0197
昆弟	-11.0198
富饒	-11.0198
欽明	-11.0198
襄楷	-11.0199
述律后	-11.0199
萬歳	-11.0199
夏侯勝	-11.0201
漸臺	-11.0201
豫讓	-11.0201
輔導	-11.0201
河洛	-11.0201
闔門	-11.0201
甘心	-11.0202
張遇賢	-11.0202
劉向傳	-11.0203
紞	-11.0203
黄霸	-11.0203
龕	-11.0203
王鉷	-11.0204
沙汰	-11.0204
魯肅	-11.0204
長揖	-11.0205
亷恥	-11.0205
牖	-11.0206
飲藥	-11.0206
資糧	-11.0207
氏為皇后	-11.0208
年八十	-11.0208
祫	-11.0209
僧智	-11.0209
仙客	-11.0209
賜帛	-11.0209
張嘉貞	-11.021
真偽	-11.021
謙退	-11.0211
夜半	-11.0212
山陽王	-11.0212
貨賂	-11.0212
對仗	-11.0212
張承業	-11.0213
班固	-11.0215
未㡬	-11.0216
春夏	-11.0216
案驗	-11.0216
京房	-11.0216
還建康	-11.0218
山名	-11.0218
嫌疑	-11.0219
定襄	-11.0219
勤勞	-11.0219
庭中	-11.022
並同平章事	-11.0222
大丈夫	-11.0223
寳皇	-11.0226
南郊	-11.0226
聞其過	-11.0227
末年	-11.0227
王莽傳	-11.0227
羣盜	-11.0227
要害	-11.0229
容貌	-11.0229
𢎞佐	-11.0229
榮寵	-11.0231
梁冀傳	-11.0233
鍾會	-11.0233
下詔稱	-11.0233
后妃	-11.0233
維州	-11.0234
馬植	-11.0235
恭謹	-11.0235
舊典	-11.0235
被甲	-11.0236
宗實	-11.0237
雄武	-11.0237
李沖	-11.0238
都市	-11.0239
李勉	-11.0239
父兄	-11.024
穆帝	-11.024
追尊	-11.0242
累年	-11.0243
爾曹	-11.0243
倉卒	-11.0244
太子詹事	-11.0244
乘勝	-11.0244
酒食	-11.0245
柔然	-11.0246
集百官	-11.0249
家貲	-11.0249
馮唐	-11.0251
財力	-11.0251
禪代	-11.0252
至城下	-11.0252
曹參軍	-11.0252
承嘉	-11.0255
特加	-11.0255
威儀	-11.0255
長驅	-11.0255
不敢違	-11.0256
莫府	-11.0259
殊禮	-11.0259
年二十	-11.026
禮畢	-11.0263
曹節	-11.0263
太保	-11.0263
雍州	-11.0264
不足懼	-11.0264
前驅	-11.0266
大駭	-11.0266
惑衆	-11.0267
輸錢	-11.0267
王播	-11.0269
積年	-11.027
親黨	-11.0271
孝宣	-11.0272
震駭	-11.0272
李訓	-11.0274
極刑	-11.0277
承勲	-11.0277
積石	-11.0277
府藏	-11.0279
八千	-11.0279
流俗	-11.0279
逺慮	-11.028
改容	-11.0284
三尺	-11.0285
大慙	-11.0286
宫市	-11.0286
中二千石	-11.0288
衆庶	-11.0288
目前	-11.0289
官司	-11.029
韓全誨	-11.0293
佛法	-11.0296
曏使	-11.0297
從容問	-11.0299
五星	-11.0299
後數日	-11.03
北魏主	-11.0301
老母	-11.0301
赤子	-11.0303
何暇	-11.0304
逃歸	-11.0305
建業	-11.0305
終不為	-11.0309
詡曰	-11.031
專制	-11.0312
糧道	-11.0313
王叔文	-11.0314
天下莫不	-11.0315
惟新	-11.0317
信讒	-11.0318
文雅	-11.0318
募民	-11.0319
上書告	-11.032
司馬門	-11.032
山積	-11.032
太和四年	-11.0326
燕趙	-11.0328
文宣	-11.0328
曰嗟乎	-11.033
私恩	-11.0333
隂謀	-11.0335
比年	-11.0337
周師	-11.0338
異同	-11.0338
孝徳	-11.0341
豈惟	-11.0342
解甲	-11.0344
張儀	-11.035
百萬斛	-11.035
龍門	-11.0352
孰與	-11.0352
草詔	-11.0352
北土	-11.0359
不能決	-11.0359
大魚	-11.0362
知其意	-11.0363
内附	-11.0367
太子太傅	-11.0368
嗣子	-11.0374
世基	-11.0376
五色	-11.0377
宗正	-11.0377
乘馬	-11.0377
重榮	-11.038
親舊	-11.038
入援	-11.0384
遂殺之	-11.0391
吴王	-11.0392
召對	-11.0393
立廟	-11.0393
唐室	-11.0393
王傳三十	-11.0396
懐帝	-11.0396
土地	-11.0402
曰自古	-11.0409
金錢	-11.041
坐誅	-11.0413
仍命	-11.0414
私藏	-11.0416
在洛陽	-11.0417
載初	-11.0417
光武紀更始	-11.0419
上疏以為陛下	-11.0421
十餘里	-11.0422
女主	-11.0422
員外	-11.0426
山南	-11.0429
者以其	-11.0429
各置	-11.0431
政治	-11.0437
私謁	-11.0443
五代	-11.0445
潤	-11.0461
不奉詔	-11.0466
諌官	-11.0468
三十人	-11.0469
為樞宻使	-11.0469
廣平	-11.047
内府	-11.047
始終	-11.0473
中華	-11.048
既罷	-11.049
正義	-11.05
養子	-11.0505
王允	-11.0507
曹公	-11.0507
聲名	-11.0509
難制	-11.0514
而釋之	-11.0524
曰此乃	-11.0531
明府	-11.0533
兩軍	-11.0537
在側	-11.0538
同謀	-11.0541
之人也	-11.055
千騎	-11.0551
張騫傳	-11.0561
治道	-11.0562
今兹	-11.0566
乎夫	-11.0571
頗多	-11.0572
於宫中	-11.058
下廷尉	-11.0583
治軍	-11.0583
李陵	-11.0588
平定	-11.0593
任城	-11.0599
小學	-11.0613
敬武	-11.0622
竊議	-11.0624
修復	-11.0627
部將	-11.0628
三府	-11.0632
少長	-11.0634
悉罷	-11.0635
見疑	-11.0636
遂克	-11.0641
百口	-11.0652
大亮	-11.0653
一說	-11.066
求福	-11.0667
𫝊二十	-11.0668
還山	-11.067
來歸	-11.0676
王郎	-11.0679
南燕	-11.0681
若果	-11.0686
受冊	-11.0687
小城	-11.0688
中間	-11.0693
得預	-11.0696
官賞	-11.0697
用刑	-11.07
極諫	-11.0719
潞州	-11.0719
元元	-11.0721
典選	-11.0727
於鄴	-11.0733
輩皆	-11.0745
故舊	-11.0752
屬官	-11.0753
名家	-11.0764
往見	-11.0767
朝臣皆	-11.0803
景從	-11.0814
心動	-11.0816
為第一	-11.0821
勿令	-11.0828
習戰	-11.083
吏職	-11.0832
賜書	-11.0861
七千	-11.0866
澶州	-11.0868
貴盛	-11.0884
者千餘人	-11.0914
怒曰汝	-11.0916
兵甲	-11.0946
合兵	-11.0967
應死	-11.0967
銀器	-11.1022
北宫	-11.1028
優劣	-11.1037
數百萬	-11.106
六萬	-11.1064
民力	-11.1092
五十八	-11.1109
信重	-11.1128
所短	-11.1155
張騫	-11.1155
寧可	-11.1165
所知也	-11.1174
曰自今	-11.1228
委政	-11.1238
宫禁	-11.1239
皆賀	-11.1255
興師	-11.1272
而人不	-11.1319
且夫	-11.1325
庶人	-11.1328
可惜	-11.1339
二十五年	-11.1413
皇天	-11.1426
先斬	-11.1456
曰足下	-11.1473
六十五	-11.1513
霍光傳	-11.1531
嘏	-11.1532
不可勝數	-11.1537
奐	-11.1542
蹶	-11.1547
邳	-11.1559
致亂	-11.156
脽	-11.1563
祔	-11.1566
疫	-11.157
箠	-11.1572
鴻臚	-11.1573
耏	-11.1575
巽	-11.1576
鯨魚	-11.1577
璫	-11.1578
播越	-11.1578
技	-11.1578
僮	-11.1579
羽檄	-11.1579
𢎞肈	-11.1579
安樂公主	-11.158
殷仲文	-11.158
汜水	-11.1581
東平王	-11.1581
搜捕	-11.1581
韋處厚	-11.1581
皇城使	-11.1582
葭莩	-11.1582
野雞	-11.1582
戌	-11.1582
侣	-11.1583
聨	-11.1584
虎魄	-11.1584
為己任	-11.1584
萊	-11.1584
洒	-11.1584
西川節度使	-11.1584
戇	-11.1585
成安君	-11.1585
永光元年	-11.1585
紛	-11.1585
踐阼	-11.1586
穫	-11.1586
宇宙	-11.1587
牲	-11.1587
宇文泰	-11.1587
商旅	-11.1587
曖昧	-11.1587
廬陵王	-11.1587
惕	-11.1587
拓	-11.1589
鄗	-11.1589
鷂	-11.1589
恒州	-11.159
愜	-11.159
永淳元年	-11.159
玫	-11.159
以天下為己任	-11.159
廣順三年	-11.159
㝠	-11.1591
番	-11.1591
神策軍	-11.1591
灑	-11.1591
䙝	-11.1592
軫	-11.1592
僃	-11.1592
冡	-11.1592
品藻	-11.1592
罽	-11.1592
廐	-11.1592
姻	-11.1592
文學之士	-11.1593
轢	-11.1593
耽	-11.1593
泝	-11.1593
醫藥	-11.1593
捽	-11.1593
殯	-11.1593
佃	-11.1594
鄭絪	-11.1594
匄	-11.1594
鴈	-11.1595
暹	-11.1596
鄧艾	-11.1596
窮奢極	-11.1596
首唱	-11.1596
壕	-11.1596
煙	-11.1596
乾祐二年	-11.1596
泗	-11.1596
弈	-11.1596
徐邈	-11.1596
涇原	-11.1596
廊	-11.1597
淮泗	-11.1597
貉	-11.1597
違忤	-11.1597
斜封	-11.1598
㳂	-11.1598
丸	-11.1598
宗楚客	-11.1598
鵲	-11.1598
壮	-11.1598
玘	-11.1598
柬之	-11.1598
拭	-11.1599
鉅萬	-11.1599
稠	-11.1599
腹心之疾	-11.1599
荘	-11.1599
嚴延年	-11.1599
李訓鄭注	-11.1599
并州	-11.16
仄	-11.16
堡	-11.16
叩頭流血	-11.16
薛仁貴	-11.16
垂涕	-11.16
恵妃	-11.16
磐	-11.16
糟	-11.1601
鎬	-11.1601
姦猾	-11.1601
遊畋	-11.1601
姦宄	-11.1601
岑文本	-11.1601
季札	-11.1601
繒帛	-11.1601
琅	-11.1601
蘭陵	-11.1602
樸	-11.1602
王世充	-11.1602
牛仙客	-11.1602
芮	-11.1602
粹	-11.1602
慷慨	-11.1602
凱	-11.1603
漿	-11.1603
炙	-11.1603
鬱	-11.1604
涿	-11.1604
畜養	-11.1604
戢	-11.1604
佩刀	-11.1604
與宰相論	-11.1604
卯	-11.1604
阪	-11.1604
響應	-11.1604
哥	-11.1604
嗚咽	-11.1604
淄青	-11.1604
茸	-11.1604
豹尾	-11.1604
鱣	-11.1604
仁恕	-11.1605
佯	-11.1605
建興元年	-11.1605
區區	-11.1605
伍被	-11.1605
問計於	-11.1605
托	-11.1605
謩	-11.1605
相如傳二十七	-11.1605
嫗	-11.1605
軼	-11.1605
從事中郎	-11.1605
忻	-11.1605
僕𨽻	-11.1605
金日磾	-11.1605
舟艦	-11.1605
確	-11.1605
鳴鏑	-11.1605
虎狼	-11.1606
嶽	-11.1606
峽	-11.1606
閩主曦	-11.1606
天文志	-11.1606
翫	-11.1607
將若之何	-11.1607
畨	-11.1607
匈奴傳六十四	-11.1607
源乾曜	-11.1607
陣	-11.1607
惰	-11.1607
祖珽	-11.1607
孔緯	-11.1607
弓矢	-11.1607
票	-11.1607
悚	-11.1608
頂	-11.1608
匡衡	-11.1608
攬	-11.1608
司馬相如傳二十七	-11.1608
瑩	-11.1608
朝覲	-11.1608
萬石君	-11.1608
以本官	-11.1608
武元衡	-11.1608
淨	-11.1608
輔佐	-11.1608
綸	-11.1608
譯	-11.1608
韓熈載	-11.1608
諒	-11.1609
上疏諫曰	-11.1609
同光二年	-11.1609
單車	-11.1609
天授元年	-11.1609
用度不足	-11.1609
元和十四年	-11.1609
賦詩	-11.1609
瘴	-11.1609
訕	-11.1609
昃	-11.1609
嗇	-11.161
上䟽曰	-11.161
租稅	-11.161
隂狡	-11.161
諸道監軍	-11.161
黑	-11.161
長慶元年	-11.161
者百餘人	-11.161
出入宫掖	-11.1611
百萬之衆	-11.1611
築長城	-11.1611
朱敬則	-11.1611
莫知所	-11.1611
有大功於	-11.1611
勍敵	-11.1611
娱	-11.1611
虖	-11.1611
賑給	-11.1611
魏知古	-11.1611
庶幾	-11.1611
渠犂	-11.1611
租税	-11.1611
塘	-11.1612
殫	-11.1612
縠	-11.1612
診	-11.1613
長壽元年	-11.1614
己亥	-11.1614
鳯翔節度使	-11.1614
令狐綯	-11.1614
為謀主	-11.1614
回鶻	-11.1614
東方朔傳三十五	-11.1615
田蚡	-11.1615
罷遣	-11.1615
宗廟社稷	-11.1615
僮僕	-11.1615
徐湛之	-11.1615
上疏曰臣聞	-11.1615
帯	-11.1615
楚王殷	-11.1615
從誨	-11.1615
亞夫	-11.1615
州安置	-11.1616
閫	-11.1616
悖逆	-11.1616
膚	-11.1616
賈捐之	-11.1616
叙傳七十	-11.1616
岱	-11.1616
項氏	-11.1617
永泰元年	-11.1617
慈愛	-11.1617
陵侮	-11.1617
張湯傳	-11.1617
悴	-11.1617
誚	-11.1617
鼓譟	-11.1617
鴟夷	-11.1617
噲	-11.1617
皝	-11.1617
張揖曰	-11.1618
社稷之福	-11.1618
離散	-11.1618
昆明池	-11.1618
劉盆子	-11.1618
遣其將	-11.1618
周瑜	-11.1618
徭役	-11.1618
財貨	-11.1618
嶺南節度使	-11.1619
延岑	-11.1619
壅	-11.1619
蹴	-11.162
蕭嵩	-11.162
吕䝉	-11.162
聚斂	-11.162
循憲	-11.162
裴炎	-11.162
侍講	-11.162
籯	-11.1621
軺傳	-11.1621
鄜坊	-11.1621
渭水	-11.1621
兜	-11.1621
荆揚	-11.1621
楊再思	-11.1621
韓安國	-11.1621
庶㡬	-11.1622
苛細	-11.1622
郃	-11.1622
衫	-11.1622
嶺外	-11.1623
兩端	-11.1623
盆	-11.1623
賞賚	-11.1623
陸機	-11.1623
病篤	-11.1624
緜	-11.1624
詰責	-11.1624
長慶四年	-11.1624
葦	-11.1624
顒	-11.1624
露布	-11.1624
潁川太守	-11.1624
石渠	-11.1625
捧	-11.1625
紫微	-11.1625
嚴整	-11.1625
譎	-11.1625
動静	-11.1625
槃	-11.1626
六品以下	-11.1626
摩	-11.1626
惶懼	-11.1626
持滿	-11.1626
舛	-11.1626
諭㫖	-11.1626
釋名曰	-11.1626
顯逹	-11.1626
淳于	-11.1627
斥逐	-11.1627
為衆所	-11.1627
震驚	-11.1627
形似	-11.1627
李大亮	-11.1627
邊幅	-11.1628
專横	-11.1628
普思	-11.1628
掖門	-11.1629
靈臺	-11.1629
製	-11.1629
俾	-11.1629
劉更生	-11.163
大譟	-11.163
仕宦	-11.163
幸姬	-11.1631
楊彪	-11.1631
舂	-11.1632
寒微	-11.1632
琇	-11.1632
滋甚	-11.1632
儋	-11.1632
狐疑	-11.1632
悌	-11.1633
麴	-11.1633
蒯	-11.1633
異姓	-11.1633
姦詐	-11.1633
枝葉	-11.1633
旼	-11.1634
廬江	-11.1635
閥	-11.1635
廷英	-11.1635
萬頃	-11.1635
頓首謝	-11.1635
樂毅	-11.1635
吳祐	-11.1635
犍為	-11.1635
阮	-11.1637
衰老	-11.1637
仁逹	-11.1638
百餘年	-11.1638
杜欽	-11.1638
采擇	-11.1638
貪縱	-11.1639
肅清	-11.1639
大鴻臚	-11.1639
建武五年	-11.1639
韋堅	-11.164
驂	-11.164
孛	-11.164
州諸軍事	-11.164
恃恩	-11.1641
秉政	-11.1641
流嶺南	-11.1641
覺寤	-11.1641
相如傳	-11.1642
周顗	-11.1642
顧託	-11.1642
逐捕	-11.1642
鹽鐵使	-11.1642
糒	-11.1643
暴横	-11.1643
繼勲	-11.1643
扇動	-11.1643
天譴	-11.1644
衛青	-11.1644
兆民	-11.1644
月丙	-11.1645
肱	-11.1645
税錢	-11.1645
富室	-11.1646
瓦器	-11.1647
合𦵏	-11.1647
卑辭	-11.1647
𨼆居	-11.1647
都監	-11.1647
定陶王	-11.1647
寛厚	-11.1648
突騎	-11.1648
收捕	-11.1649
遼東	-11.1649
梁震	-11.1649
文場	-11.1649
秦王興	-11.165
致太平	-11.165
二百餘人	-11.165
中央	-11.1651
坐贓	-11.1651
教坊	-11.1651
守珪	-11.1651
深以為然	-11.1651
號泣	-11.1652
屏左右	-11.1653
嚴峻	-11.1653
吳明徹	-11.1653
辛未	-11.1654
李嶠	-11.1655
天監十	-11.1655
房琯	-11.1656
淫亂	-11.1656
北魏髙祖	-11.1656
王徳妃	-11.1657
詐偽	-11.1657
北闕	-11.1657
刓	-11.1657
李陵傳	-11.1658
長沙王	-11.1658
枉法	-11.1659
三百里	-11.166
存孝	-11.166
痛心	-11.166
弗能	-11.1662
督戰	-11.1662
徳妃	-11.1664
谷永傳	-11.1664
公卿大夫	-11.1665
欽陵	-11.1665
㓜主	-11.1665
傳五十三	-11.1665
臺省	-11.1667
接對	-11.1667
榮辱	-11.1668
伐木	-11.1668
靈武	-11.1668
中元元年	-11.1669
不若且	-11.1671
悉輸	-11.1671
叛逆	-11.1672
再思	-11.1673
招諭	-11.1674
優厚	-11.1675
舞文	-11.1675
儀衛	-11.1676
餒死	-11.1677
為賊所	-11.1678
馬歩	-11.168
克敵	-11.168
恐懼	-11.1681
千載	-11.1682
夜郎	-11.1682
慎勿	-11.1682
詔自今	-11.1683
南仲	-11.1684
天下大亂	-11.1685
城旦	-11.1685
鄧通	-11.1686
智力	-11.1686
郎中令	-11.1686
流離	-11.1687
泉明	-11.1688
當為天子	-11.1688
元規	-11.1689
徐有功	-11.169
竇武	-11.169
毎嵗	-11.169
邊郡	-11.1691
擁衆	-11.1692
者不可勝數	-11.1692
太和九年	-11.1692
諫不聽	-11.1693
百官表	-11.1695
威靈	-11.1696
都城	-11.1696
丞相府	-11.1696
重俊	-11.1698
乎對曰臣	-11.1699
豎子	-11.1699
懷義	-11.17
刻石	-11.1701
諸将	-11.1703
結怨	-11.1704
震恐	-11.1704
髙澄	-11.1705
戎馬	-11.1706
李祐	-11.1707
所惡	-11.1708
土著	-11.1708
楚歌	-11.171
牧馬	-11.1712
署名	-11.1713
吳蜀	-11.1714
飛書	-11.1715
紀信	-11.1715
牙門	-11.1716
美女	-11.1716
宣布	-11.1717
不使	-11.1717
賢愚	-11.1717
是歲	-11.1717
宣室	-11.1717
一斤	-11.1718
陵夷	-11.1718
互有	-11.172
懐古	-11.1721
徐州刺史	-11.1721
南康	-11.1724
入粟	-11.1727
竊發	-11.1728
忠孝	-11.1728
逆戰	-11.1731
皇家	-11.1733
未畢	-11.1733
空名	-11.1733
所論	-11.1733
三千餘人	-11.1734
恐非所	-11.1735
以陛下為	-11.1737
數里	-11.1738
存亡	-11.1739
宋𢎞	-11.1739
晏然	-11.174
鄭興	-11.1741
大抵	-11.1744
不肯受	-11.1745
上疏請	-11.1747
帳下	-11.1747
聲樂	-11.1748
伐齊	-11.1749
隂氏	-11.1749
左氏	-11.175
志氣	-11.1755
尚公主	-11.1757
方伯	-11.1758
連坐	-11.1764
陵母	-11.1764
之弟也	-11.1764
無頼	-11.1766
入奏事	-11.1767
塞外	-11.1767
徃來	-11.1772
尚存	-11.1774
家財	-11.1775
從效	-11.1777
使其黨	-11.1778
長孫無忌等	-11.1781
質帝	-11.1784
牧守	-11.1784
趨出	-11.1785
明達	-11.1788
合戰	-11.1792
物貴	-11.1796
武都	-11.1797
叩頭謝	-11.1799
大中元年	-11.18
請謁	-11.1807
晉氏	-11.181
道秀	-11.1812
四十八	-11.1813
益怒	-11.1816
胡服	-11.182
留侯	-11.1822
著名	-11.1824
擊賊	-11.1827
牛馬	-11.1829
五十七	-11.1831
佞臣	-11.1833
武帝從之	-11.1833
步兵	-11.1834
面陳	-11.1836
親臨	-11.1841
舉動	-11.1842
乃擢	-11.1843
長公主	-11.1846
本末	-11.1856
神主	-11.1857
養馬	-11.1861
庸人	-11.1864
何須	-11.1864
軍情	-11.1865
疾甚	-11.1867
勞問	-11.1867
良久乃	-11.187
正殿	-11.1873
十五萬	-11.1879
藩臣	-11.1883
堅城	-11.1883
恩禮	-11.1883
後周顯德	-11.1885
久之乃	-11.1906
河間	-11.1906
無虞	-11.1907
不可得也	-11.1911
曰某	-11.1929
膺等	-11.1936
文獻	-11.195
夀陽	-11.1968
房𤣥齡等	-11.1969
不怠	-11.1979
智淵	-11.198
皆斬之	-11.1992
七十八	-11.2029
預聞	-11.2041
三十里	-11.2065
不拘	-11.2098
不恤	-11.2104
家屬	-11.2111
竊恐	-11.2113
兵守之	-11.2116
族誅	-11.2116
遊幸	-11.2153
七百	-11.2166
召募	-11.2188
爵邑	-11.2196
豫州	-11.2201
鮮有	-11.2203
王渾	-11.228
慰勞	-11.2343
千四百	-11.2346
宮中	-11.2358
州别駕	-11.2419
千斛	-11.2454
萬斛	-11.2481
𢎞昭	-11.2549
敗亡	-11.2575
射殺	-11.2661
迎佛骨	-11.2677
剛直	-11.2683
樂府	-11.274
不返	-11.2765
武皇	-11.2794
朔望	-11.2933
曾無	-11.2963
濟河	-11.2994
起居注	-11.2996
邠等	-11.3019
糧食	-11.302
十萬斛	-11.3047
肅宗紀	-11.3085
縱酒	-11.312
優容之	-11.3125
姨舅	-11.318
議者咸	-11.3205
才智	-11.3205
羣盗	-11.3214
睢	-11.3219
躋	-11.3222
壬	-11.3222
稗	-11.3227
掖	-11.3228
療	-11.3229
燾	-11.3229
隲	-11.3231
犒	-11.3232
敖倉	-11.3233
汝南太守	-11.3234
莋	-11.3235
虞世南	-11.3236
太湖	-11.3236
途	-11.3237
戊巳	-11.324
禖	-11.324
左庶子	-11.3241
紆	-11.3241
蔓	-11.3242
喙	-11.3243
渝	-11.3244
皥	-11.3244
墉	-11.3244
裴矩	-11.3245
諠	-11.3245
李昊	-11.3245
綮	-11.3245
班固傳	-11.3245
姚元之	-11.3247
葵	-11.3247
葱嶺	-11.3247
滛	-11.3247
舁	-11.3247
蘇綽	-11.3247
逮捕	-11.3247
仁矩	-11.3247
張𤣥素	-11.3247
卞壼	-11.3248
承禎	-11.3248
灼	-11.3249
君臣之分	-11.3249
杜正倫	-11.3249
般	-11.3249
韋貽範	-11.3249
乳	-11.325
佑	-11.325
道行軍總管	-11.325
翜	-11.325
黔	-11.325
漢官儀曰	-11.325
嵇	-11.3251
建中元年	-11.3251
筯	-11.3251
踣	-11.3251
謚	-11.3252
豺狼	-11.3252
亨	-11.3252
廣志曰	-11.3252
僵	-11.3252
沈攸之	-11.3252
裴光庭	-11.3252
以私財	-11.3252
鷤	-11.3252
禎	-11.3252
欽緒	-11.3252
𤣥武門	-11.3253
億兆	-11.3254
在相位	-11.3254
蘇味道	-11.3254
求救於	-11.3254
怙	-11.3254
開封尹	-11.3254
魄	-11.3254
秋七月	-11.3255
東昬侯	-11.3255
蔡謨	-11.3255
古人有言	-11.3255
滕公	-11.3255
坏	-11.3255
觀察判官	-11.3255
杜宇	-11.3255
長廣王	-11.3255
賕	-11.3256
有力焉	-11.3256
路温舒	-11.3256
窮覈	-11.3257
贏	-11.3258
詿誤	-11.3258
影	-11.3258
渭橋	-11.3258
換	-11.3259
霍去病	-11.3259
嬉	-11.3259
廣雅曰	-11.3259
劉昫	-11.3259
抽	-11.3259
撟	-11.3259
菑	-11.3259
單弱	-11.3259
襟	-11.3259
言無不從	-11.3259
醒	-11.3259
枌	-11.3259
錢千萬	-11.3259
俶	-11.3259
撾	-11.326
婁師徳	-11.326
輿服志	-11.326
幕僚	-11.326
爪	-11.326
邁	-11.326
成徳節度使	-11.326
王叔文之黨	-11.326
縞	-11.326
叨	-11.3261
魏𤣥同	-11.3261
行軍司馬	-11.3261
賢良方正	-11.3261
偷	-11.3261
紊	-11.3261
刳	-11.3262
叶	-11.3262
婆	-11.3262
以萬計	-11.3262
相表裏	-11.3262
靳	-11.3262
撥	-11.3262
聦	-11.3262
憕	-11.3262
班偼伃	-11.3262
鄂岳	-11.3262
繹	-11.3262
阿房	-11.3262
沉	-11.3262
仁基	-11.3263
盻	-11.3263
門下侍郎同平章事	-11.3263
清泰二年	-11.3263
珍貨	-11.3263
佐命功	-11.3263
蠟	-11.3263
帑	-11.3263
騖	-11.3263
絃	-11.3263
貊	-11.3263
胙	-11.3263
彀	-11.3263
耒	-11.3263
府藏空竭	-11.3263
新津	-11.3263
蓬萊	-11.3263
零陵	-11.3263
粟麥	-11.3263
喉	-11.3264
獠	-11.3264
儲貳	-11.3264
楊嗣復	-11.3264
筏	-11.3264
䟦扈	-11.3264
粟帛	-11.3264
郗超	-11.3264
莢	-11.3264
轉運使	-11.3264
詈	-11.3265
蟠	-11.3265
供億	-11.3265
堞	-11.3265
蔑	-11.3265
衣緋	-11.3265
井幹	-11.3265
康延孝	-11.3265
銛	-11.3265
伾	-11.3266
籍没其家	-11.3266
擿	-11.3266
頽	-11.3266
稟	-11.3266
紿之曰	-11.3266
舋	-11.3266
鐵劵	-11.3266
糲	-11.3266
鉷	-11.3266
邈	-11.3267
聊	-11.3267
訃	-11.3267
嫚	-11.3267
禇	-11.3267
鷹犬	-11.3267
爾朱兆	-11.3267
𫉬	-11.3267
裳	-11.3268
司徒王導	-11.3268
死獄中	-11.3268
綈	-11.3268
壯麗	-11.3268
於便殿	-11.3268
銜枚	-11.3268
袂	-11.3268
絡	-11.3268
輔𨗳	-11.3269
十餘萬人	-11.3269
劉穆之	-11.3269
壤	-11.3269
太康元年	-11.3269
鄣	-11.3269
不亦可乎	-11.327
拓䟦	-11.327
樞宻院	-11.327
鈎	-11.327
醫工	-11.327
𨼆甫	-11.327
綠	-11.327
彦範	-11.3271
滑州	-11.3271
王求禮	-11.3271
㟁	-11.3271
修洛陽宫	-11.3271
太子少保	-11.3271
畋獵	-11.3271
濠	-11.3271
𢎞熈	-11.3271
蔣琬	-11.3272
工部侍郎	-11.3272
忿恚	-11.3272
挫	-11.3272
懈	-11.3272
罪不至死	-11.3272
威震天下	-11.3272
緡錢	-11.3272
荆南節度使	-11.3272
𠫭	-11.3272
封徳彛	-11.3272
蒿	-11.3272
副元帥	-11.3272
廊廟	-11.3273
寇謙之	-11.3273
珙	-11.3273
羆	-11.3273
蹇	-11.3273
揚雄傳	-11.3274
觖望	-11.3274
瘡	-11.3274
竇儼上疏	-11.3274
哂	-11.3274
烝	-11.3274
孝亷	-11.3274
摹	-11.3274
仁贍	-11.3275
門東漢	-11.3275
祕器	-11.3275
臣瓉曰	-11.3275
鍾離意	-11.3275
嬪御	-11.3275
慿	-11.3275
詔報曰	-11.3275
閏月	-11.3275
曰何謂也	-11.3276
所向無前	-11.3276
讒慝	-11.3276
醇	-11.3276
長慶三年	-11.3276
樹機能	-11.3276
繭	-11.3276
數年之後	-11.3277
謟諛	-11.3277
偏禆	-11.3277
李嗣源	-11.3277
珍竒	-11.3277
㒺	-11.3277
架	-11.3277
控鶴	-11.3277
王鐸	-11.3277
絫	-11.3277
翟璜	-11.3277
缿	-11.3277
虓	-11.3277
釗	-11.3277
踊	-11.3277
冲	-11.3278
絮	-11.3278
讟	-11.3278
永徽元年	-11.3278
彝	-11.3278
通事舍人	-11.3278
僧䖍	-11.3278
咽	-11.3278
斜	-11.3278
阨	-11.3278
那	-11.3278
几杖	-11.3278
大王誠能	-11.3278
夸	-11.3278
丘墟	-11.3278
鮑永	-11.3278
驕侈	-11.3278
此兩人	-11.3278
殘忍	-11.3279
顯徳四年	-11.3279
朋友	-11.3279
漂	-11.3279
宿衛之士	-11.3279
戊午	-11.3279
言於明皇曰	-11.3279
道不拾遺	-11.3279
支庶	-11.3279
楊虞卿	-11.3279
玢	-11.3279
胎	-11.3279
紇	-11.328
仲舒	-11.328
呵	-11.328
瘁	-11.328
平帝紀元始	-11.328
米斗	-11.328
蒯通傳	-11.328
陸賈	-11.328
冠冕	-11.328
函谷闗	-11.328
楊愔	-11.328
形迹	-11.328
蠱	-11.3281
稺	-11.3281
迫脅	-11.3281
恃勇	-11.3281
髻	-11.3281
鼓吹	-11.3281
臣忝	-11.3281
計將安出	-11.3281
預朝政	-11.3281
曰卿言是也	-11.3282
甯	-11.3282
欄	-11.3282
耻	-11.3282
闇弱	-11.3282
鄒陽傳	-11.3282
區處	-11.3283
骨鯁	-11.3283
孫皓	-11.3283
粥	-11.3283
蹔	-11.3283
罹	-11.3283
陵遲	-11.3283
趙廣漢	-11.3283
彦饒	-11.3283
涇州	-11.3283
劉頌	-11.3284
大通元年	-11.3284
刪	-11.3284
南粤	-11.3284
神䇿六軍	-11.3284
妙選	-11.3285
迂	-11.3285
彦博	-11.3285
乾曜	-11.3285
以供軍	-11.3285
資産	-11.3286
栅	-11.3286
五湖	-11.3286
氊	-11.3286
築壇	-11.3286
聶	-11.3286
烏桓	-11.3286
陳子昻	-11.3286
黔首	-11.3286
杜弼	-11.3286
周燮	-11.3286
俯仰	-11.3286
諠譁	-11.3286
可其奏	-11.3286
李抱真	-11.3286
趙季良	-11.3286
幸華清宫	-11.3286
筑	-11.3286
河陽節度使	-11.3287
司馬相如傳	-11.3287
鹿盧	-11.3287
械繫	-11.3287
戾太子	-11.3287
旁午	-11.3287
助祭	-11.3287
聞之不恱	-11.3287
軍國大事	-11.3287
晷	-11.3287
驕恣	-11.3288
陘	-11.3288
御座	-11.3288
箸	-11.3288
頑	-11.3288
不可不慎	-11.3288
劉文靜	-11.3288
岱宗	-11.3289
江湖	-11.3289
離叛	-11.3289
中書郎	-11.3289
髙后紀	-11.3289
因泣下	-11.3289
清濁	-11.3289
淄	-11.329
坎	-11.329
帽	-11.329
王忠嗣	-11.329
山之陽	-11.329
張彦澤	-11.329
焚掠	-11.329
馬全節	-11.329
閏	-11.329
注云風俗通曰	-11.3291
光禄卿	-11.3291
太子洗馬	-11.3291
尚書左僕射	-11.3291
吳元濟	-11.3291
亞父	-11.3291
竦	-11.3292
流矢	-11.3292
黔中	-11.3292
幽厲	-11.3292
評	-11.3292
黠	-11.3292
裴均	-11.3292
曩	-11.3293
史丹	-11.3293
張奐	-11.3293
渠帥	-11.3293
中書省	-11.3293
苞苴	-11.3293
馮玉	-11.3293
兵千人	-11.3293
梁松	-11.3293
搒	-11.3294
槐	-11.3294
粱	-11.3294
户部尚書	-11.3294
坐免官	-11.3294
滑臺	-11.3294
縢	-11.3294
魏王豹	-11.3294
郭泰	-11.3295
卓茂	-11.3295
耿弇	-11.3295
丘隴	-11.3295
由是有隙	-11.3295
度遼將軍	-11.3295
有重名	-11.3295
櫂	-11.3295
馥	-11.3295
為諫大夫	-11.3296
儒術	-11.3296
典禁兵	-11.3296
安重榮	-11.3296
怡然	-11.3296
槨	-11.3296
貢賦	-11.3296
幽閉	-11.3297
晩年	-11.3297
百端	-11.3297
乏絶	-11.3297
搤	-11.3297
歌之曰	-11.3297
豹子	-11.3297
璆	-11.3298
餓死	-11.3298
流竄	-11.3299
李師道	-11.3299
困窮	-11.33
中行說	-11.33
到彦之	-11.33
太僕卿	-11.3301
舉措	-11.3301
宮室	-11.3301
鉤弋	-11.3301
縻	-11.3301
城塹	-11.3301
四方貢獻	-11.3301
寳貨	-11.3301
矯制	-11.3301
高氏	-11.3301
石頭城	-11.3302
龍舟	-11.3302
監奴	-11.3303
僅能	-11.3303
埒	-11.3303
紗	-11.3303
五千匹	-11.3303
鯁	-11.3303
劉闢	-11.3304
光庭	-11.3304
殺義帝	-11.3304
廻	-11.3304
伏辜	-11.3305
被黜	-11.3305
迪	-11.3305
半年	-11.3306
知其詐	-11.3306
安祿山	-11.3306
龎萌	-11.3306
旌節	-11.3307
苛政	-11.3307
覆按	-11.3307
少壯	-11.3307
承露	-11.3307
侍側	-11.3308
廟堂	-11.3308
江湛	-11.3308
歸鄉里	-11.3308
無以對	-11.3308
盧龍	-11.3308
騁	-11.3308
渭南	-11.3309
戚夫人	-11.3309
灌夫	-11.3309
注云前書音義曰	-11.3309
侍衞	-11.3309
齊映	-11.331
獿	-11.331
恭儉	-11.3311
深然之	-11.3311
出入禁中	-11.3311
韋温	-11.3311
三十餘年	-11.3312
青徐	-11.3312
垂泣	-11.3312
祖逖	-11.3312
言於太宗曰	-11.3313
錢塘	-11.3313
梅福傳	-11.3313
虚譽	-11.3313
緩急	-11.3314
小却	-11.3314
踰年	-11.3315
鋸	-11.3315
王晏球	-11.3315
招撫	-11.3316
機密	-11.3316
䘮亂	-11.3316
面縛	-11.3316
張蒼	-11.3317
躧	-11.3317
張喬	-11.3317
楊秉	-11.3317
未晚	-11.3318
承宗廟	-11.3318
殷裕	-11.3318
訢	-11.3318
左散騎常侍	-11.3319
素餐	-11.3319
䖍朗	-11.3319
臧質	-11.3319
鄧氏	-11.3319
供給	-11.3321
廢黜	-11.3321
機宻	-11.3322
王庭湊	-11.3322
造次	-11.3323
曰安有	-11.3323
以憂死	-11.3324
孝文時	-11.3324
險要	-11.3325
妃主	-11.3326
軾	-11.3326
百越	-11.3328
姦逆	-11.3328
幼主	-11.3328
七里	-11.3329
尸解	-11.3329
僅得	-11.333
儀衞	-11.333
志趣	-11.3331
貶黜	-11.3331
漢瓊	-11.3331
迎謁	-11.3332
克讓	-11.3332
即墨	-11.3332
次第	-11.3333
翁主	-11.3334
蹻	-11.3335
可圖也	-11.3336
新野	-11.3336
幽鎮	-11.3336
移病	-11.3336
田園	-11.3337
二十餘人	-11.3338
盛飾	-11.3338
爲盜	-11.3339
歸其國	-11.3341
然後可以	-11.3341
淮陽	-11.3341
擾亂	-11.3342
浮圖	-11.3342
赴鎮	-11.3343
便面	-11.3344
什方	-11.3345
本根	-11.3346
止盗	-11.3346
威震	-11.3347
道育	-11.3348
濟江	-11.3348
左雄	-11.3349
三川	-11.3349
辯士	-11.335
趙鳯	-11.3351
逺征	-11.3352
不稔	-11.3353
有過則	-11.3354
攻圍	-11.3355
射聲	-11.3355
王龔	-11.3355
覆視	-11.3355
崇質	-11.3356
比隆	-11.3357
紹宗	-11.3359
小校	-11.336
西突厥	-11.3361
報怨	-11.3361
何忍	-11.3363
竒才	-11.3363
蘇秦	-11.3363
數倍	-11.3363
淮水	-11.3364
賈詡	-11.3365
太史公	-11.3367
丈餘	-11.3368
貴顯	-11.3368
杜絶	-11.3369
王毛仲	-11.3369
四品	-11.337
𢎞讓	-11.337
諸戎	-11.3372
歎服	-11.3373
但恨	-11.3374
敬𤣥	-11.3374
流散	-11.3375
並列	-11.3376
赤心	-11.3378
求媚	-11.3379
爵土	-11.3379
刺殺	-11.3379
灋興	-11.3379
謂同列曰	-11.3382
竒士	-11.3382
南征	-11.3382
數百家	-11.3386
決獄	-11.3388
姦謀	-11.3389
四境	-11.3395
詐稱	-11.3396
甚恱	-11.3399
彦通	-11.3399
李牧	-11.3399
戰船	-11.34
帳中	-11.3401
䇿免	-11.3404
位次	-11.3405
犯罪	-11.3407
宴羣臣	-11.341
與之謀	-11.3411
退保	-11.3413
廷議	-11.3415
楚使者	-11.3417
兵仗	-11.3417
重慎	-11.3419
獨不見	-11.342
物色	-11.3432
使之然	-11.3433
襄子	-11.3434
乘傳	-11.3452
肅宗紀元和	-11.3454
獸名	-11.3473
嵩山	-11.3481
左衛	-11.3485
太宗恱	-11.3485
驕慢	-11.3505
桂陽	-11.3511
儲副	-11.3522
王僧達	-11.3566
寨中	-11.3571
避禍	-11.3582
不自保	-11.3643
負恩	-11.3689
騎都尉	-11.3721
矜伐	-11.3727
相謂曰	-11.3728
開元元年	-11.3767
可乎對曰	-11.3809
唐主怒	-11.3859
謂公卿曰	-11.3879
説之曰	-11.3919
未厭	-11.3919
亂階	-11.3938
未忍	-11.3946
其優劣	-11.4011
仲長統	-11.4084
喜曰吾	-11.4107
鍾謨	-11.4111
撫循	-11.4136
長樂公	-11.4335
皆此𩔖也	-11.4366
戮力	-11.4371
仲長統傳	-11.4392
表賀	-11.4437
作色曰	-11.4445
七十九	-11.4744
百斛	-11.4783
潤州	-11.4795
趙充國	-11.4903
十倍	-11.5033
問之對曰	-11.5051
全誨等	-11.5057
四十六	-11.5065
天福二年	-11.508
建武十三年	-11.5129
百八十	-11.5161
建武三年	-11.5182
鰒	-11.5197
角抵	-11.5209
地理志	-11.5211
狙	-11.5214
奈	-11.5216
蠋	-11.5216
屩	-11.5219
央	-11.5223
籞	-11.5224
婁妃	-11.5225
朱𢎞昭	-11.5225
佽飛	-11.523
萃	-11.5231
孟漢瓊	-11.5231
鷙	-11.5233
廣武君	-11.5233
馮翊	-11.5233
倉廩	-11.5234
惶怖	-11.5234
襁	-11.5234
鼙	-11.5234
杲	-11.5234
炬	-11.5235
韋保衡	-11.5235
髙士廉	-11.5235
昊	-11.5236
朱虚侯	-11.5236
愛能等	-11.5237
赴國難	-11.5238
奉表稱臣	-11.5238
瓉	-11.5239
郗	-11.5239
薛安都	-11.5239
蔡興宗	-11.5239
秭	-11.5239
闊達	-11.524
洮	-11.5241
耐	-11.5242
轝	-11.5242
陳夷行	-11.5242
楊思恭	-11.5242
潼關	-11.5242
累表請	-11.5242
緋	-11.5243
鈴	-11.5243
范延光趙延壽	-11.5243
鄩	-11.5244
絪	-11.5244
矟	-11.5244
傳國寳	-11.5244
娣	-11.5244
傖	-11.5244
維岳	-11.5244
賣官鬻獄	-11.5244
廪	-11.5245
祕書郎	-11.5245
盧懐慎	-11.5246
蒲牢	-11.5246
酋	-11.5247
左金吾大將軍	-11.5247
濵	-11.5247
貪汚	-11.5247
今俗呼	-11.5248
忠武節度使	-11.5248
思潮等	-11.5248
匕	-11.5248
仲尼	-11.5249
絞	-11.5249
􁚫	-11.5249
李斐曰	-11.5249
桄	-11.5249
紬	-11.5249
憬	-11.5249
鴻都門	-11.525
腦	-11.525
喉舌	-11.525
廣徳元年	-11.525
浹	-11.525
多權數	-11.525
旬月之間	-11.525
螟	-11.525
無疆之	-11.5251
餞	-11.5251
鹵簿	-11.5251
卑賤	-11.5251
越騎校尉	-11.5251
得風疾	-11.5251
瞑	-11.5251
斆	-11.5251
李紹宏	-11.5251
秣	-11.5251
此三人者	-11.5252
冊禮使	-11.5252
吾丘壽王	-11.5252
上柱國	-11.5252
刎	-11.5252
餽	-11.5252
槀	-11.5252
瀹	-11.5252
䳏	-11.5252
忽忽不樂	-11.5252
赤仄	-11.5252
燮	-11.5253
不可勝計	-11.5253
昭陽殿	-11.5253
泛	-11.5253
豬	-11.5253
充位而已	-11.5253
鬢	-11.5253
孔目官	-11.5253
陳元達	-11.5253
殱	-11.5253
畦	-11.5253
糞	-11.5253
偕	-11.5253
弦	-11.5254
中庶子	-11.5254
豁	-11.5254
縋	-11.5254
傅燮	-11.5254
店	-11.5254
液	-11.5254
乾祐三年	-11.5254
嶼	-11.5254
僥	-11.5255
㝢	-11.5255
武帝紀元光	-11.5255
掣	-11.5255
嘲	-11.5255
雌雄	-11.5255
湔	-11.5255
䟆	-11.5255
邃	-11.5255
朞	-11.5256
皇甫規	-11.5256
躍	-11.5256
富有四海	-11.5256
盧懷慎	-11.5256
二百九十	-11.5256
肄	-11.5256
冎	-11.5256
蹊	-11.5256
梵	-11.5256
草萊	-11.5256
夢錫	-11.5256
嚴挺之	-11.5256
掩襲	-11.5256
璵	-11.5256
鄭元弼	-11.5256
梁大同	-11.5257
億萬	-11.5257
神龍二年	-11.5257
鄧展曰	-11.5257
檉	-11.5257
荀朂	-11.5257
薛廣徳	-11.5257
蘇安恒	-11.5257
豚	-11.5257
司馬相如	-11.5258
頲	-11.5258
鶻	-11.5258
齊威王	-11.5258
錐	-11.5258
轉禍為福	-11.5258
琅邪王睿	-11.5258
樞密院	-11.5258
綴	-11.5258
平帝紀	-11.5258
拉	-11.5258
山南東道節度	-11.5258
玭	-11.5258
譔	-11.5258
靴	-11.5258
僦	-11.5259
憙	-11.5259
瘦	-11.5259
纊	-11.5259
搔	-11.5259
門外又立	-11.5259
由此觀之	-11.526
什七八	-11.526
有難色	-11.526
娛	-11.526
歸附者	-11.526
衿	-11.526
徭賦	-11.5261
堤	-11.5261
金墉	-11.5261
柴紹	-11.5261
藺相如	-11.5261
江智淵	-11.5261
録事參軍	-11.5261
大中十年	-11.5261
鬱鬱不得志	-11.5261
永昌元年	-11.5261
淡	-11.5261
段秀實	-11.5261
犁	-11.5262
抜	-11.5262
楚王希範	-11.5262
催	-11.5262
碩	-11.5262
元康九年	-11.5262
卜筮	-11.5262
少陽院	-11.5262
颺	-11.5262
驕傲	-11.5262
嬴	-11.5262
泣訴於	-11.5262
賛普	-11.5262
仞	-11.5262
坑	-11.5263
上林苑	-11.5263
嘿然	-11.5263
光祿大夫	-11.5263
宣徽北院使	-11.5263
崔𤣥暐	-11.5263
鳬	-11.5263
𢎞恭石顯	-11.5263
蓄異志	-11.5263
惠達	-11.5263
暱	-11.5263
都官尚書	-11.5264
偃蹇	-11.5264
蠭起	-11.5264
武帝紀元狩	-11.5264
懣	-11.5264
武德元年	-11.5264
瑗	-11.5264
復其位	-11.5264
費禕	-11.5264
撫膺	-11.5264
欠負	-11.5264
鵝	-11.5264
悸	-11.5264
慙而退	-11.5264
慴	-11.5264
朱守殷	-11.5264
董璋	-11.5264
虞世基	-11.5264
陸遜	-11.5264
説文云	-11.5264
納貨賂	-11.5265
俸禄	-11.5265
五品已上	-11.5265
猴	-11.5265
楊釗	-11.5265
雛	-11.5265
太師馮道	-11.5265
管籥	-11.5265
鉅鹿	-11.5265
舒元輿	-11.5265
蠅	-11.5265
崔郾	-11.5265
蛟龍	-11.5265
逓	-11.5265
蹂	-11.5265
雌	-11.5265
鬱鬱	-11.5266
恃寵驕恣	-11.5266
咄	-11.5266
杜重威	-11.5266
無賴子弟	-11.5266
温彦博	-11.5266
糗	-11.5266
辠	-11.5266
義武節度使	-11.5267
領尚書事	-11.5267
夔	-11.5267
夘	-11.5267
滻水	-11.5267
鏁	-11.5267
才兼文武	-11.5267
芻糧	-11.5267
斛律光	-11.5267
歧	-11.5267
莫之能	-11.5267
多祚等	-11.5267
歟	-11.5267
鉏	-11.5268
耕桑	-11.5268
之故吏也	-11.5268
羈縻	-11.5268
倢伃	-11.5268
裴子野論曰	-11.5268
束帛	-11.5268
槽	-11.5268
知上指	-11.5268
蚩	-11.5268
泳	-11.5268
縞素	-11.5269
苗裔	-11.5269
蒱	-11.5269
齧	-11.5269
祕不發喪	-11.5269
顔竣	-11.5269
杼	-11.5269
權傾人主	-11.5269
輦轂	-11.5269
陳大建十三年	-11.5269
党項	-11.5269
棧	-11.5269
宫又自此而從於	-11.5269
尚結賛	-11.5269
知無不言	-11.5269
陳敬瑄	-11.5269
饋運	-11.5269
縊殺之	-11.527
今日之舉	-11.527
翟方進	-11.527
致理之	-11.527
自兵興以來	-11.527
絲竹	-11.527
玖	-11.527
秃	-11.527
長興元年	-11.527
釋其罪	-11.527
長興二年	-11.527
姓武氏	-11.527
弓弩	-11.527
會昌五年	-11.527
輙	-11.527
迴	-11.527
麋鹿	-11.527
噐	-11.527
檝	-11.527
漲	-11.527
程元振	-11.527
籖帥	-11.527
黄裳	-11.5271
元載王縉	-11.5271
門西漢	-11.5271
微賤	-11.5271
累葉	-11.5271
倡優	-11.5271
漫	-11.5271
為謡言	-11.5271
王夷甫	-11.5271
天福元年	-11.5272
慝	-11.5272
箕踞	-11.5272
貪汙	-11.5272
南唐宋齊丘	-11.5273
朝廷肅然	-11.5273
槍	-11.5273
羮	-11.5273
廨	-11.5273
篋	-11.5273
開運三年	-11.5273
丁鴻	-11.5273
恃功驕	-11.5273
都亭	-11.5273
兀	-11.5273
啼	-11.5273
得其情	-11.5273
聞而惡之	-11.5273
韓瑗	-11.5273
纍	-11.5273
撲	-11.5273
説文曰	-11.5273
䕃	-11.5273
謝朏	-11.5274
烏合之衆	-11.5274
隄	-11.5274
韓延徽	-11.5274
酒饌	-11.5274
勾	-11.5274
自即位以來	-11.5274
臻	-11.5274
摩訶	-11.5274
持兩端	-11.5275
三千户	-11.5275
賈山傳	-11.5275
酖殺之	-11.5275
名位素	-11.5275
不亦善乎	-11.5275
困弊	-11.5275
研	-11.5275
飢饉	-11.5275
摛	-11.5275
會稽王昱	-11.5275
壑	-11.5275
橐	-11.5276
梨	-11.5276
高澄	-11.5276
貞觀十七年	-11.5276
貪鄙	-11.5276
巡狩	-11.5276
紏	-11.5276
墳墓	-11.5276
開元二十四年	-11.5276
君子小人	-11.5276
殘虐	-11.5276
永康元年	-11.5276
刑法志	-11.5276
無敢言者	-11.5276
積薪	-11.5276
李晟馬燧	-11.5276
臣不敢奉詔	-11.5276
辟疑赦其罰	-11.5276
醖	-11.5276
狩	-11.5276
瑟	-11.5277
獻替	-11.5277
迭為之	-11.5277
曽孫	-11.5277
臧宫傳	-11.5277
僥倖	-11.5277
敗績	-11.5277
杖一百	-11.5277
旦暮	-11.5277
李寳臣	-11.5277
鉦鼓	-11.5277
勍	-11.5277
兖鄆	-11.5278
句踐	-11.5278
袝	-11.5278
椽	-11.5278
悔之何及	-11.5278
杜篤	-11.5278
讙	-11.5278
吁	-11.5278
詎	-11.5278
曼	-11.5278
為左丞相	-11.5278
轂	-11.5278
道路以目	-11.5279
郭伋	-11.5279
毒藥	-11.5279
鋋	-11.5279
儆	-11.5279
朞年	-11.5279
洪範	-11.5279
甌	-11.5279
緘	-11.5279
史萬歳	-11.5279
橈	-11.5279
繁劇	-11.5279
覲	-11.5279
替	-11.528
壙	-11.528
劵	-11.528
英俊	-11.528
工匠	-11.528
寛宥	-11.528
景帝紀	-11.528
為鄂岳觀察使	-11.528
顛覆	-11.528
貢禹	-11.528
賣買	-11.528
爵闗内侯	-11.528
蜺	-11.528
檢括	-11.528
諶	-11.528
輝	-11.528
感槩	-11.528
様	-11.528
蔕芥	-11.528
啖	-11.5281
刄	-11.5281
揖讓	-11.5281
澧	-11.5281
勮	-11.5281
馬糞	-11.5281
崔湜	-11.5281
斧鉞	-11.5281
諒闇	-11.5281
鬚	-11.5281
宗佶	-11.5281
荆棘	-11.5281
盲	-11.5281
曰要當	-11.5282
羣臣莫及	-11.5282
廐馬	-11.5282
彫弊	-11.5282
周威烈王二十三年	-11.5282
升階	-11.5282
竟陵王子良	-11.5282
駰	-11.5282
么	-11.5282
慧範	-11.5282
規摹	-11.5282
周墀	-11.5282
竇嬰	-11.5282
車騎大將軍	-11.5282
首尾	-11.5282
吠	-11.5282
彭城王義康	-11.5282
惠妃	-11.5282
蘇循	-11.5283
善騎射	-11.5283
頭痛	-11.5283
翕然	-11.5283
南匈奴傳	-11.5283
右衛將軍	-11.5283
永嘉元年	-11.5283
起居郎	-11.5283
鍾離昧	-11.5283
骸	-11.5283
今陛下能乎其不可	-11.5283
狼戾	-11.5283
釂	-11.5283
寖	-11.5284
猪	-11.5284
醴泉	-11.5284
吟	-11.5284
不過二三	-11.5284
公孫氏	-11.5284
雨雪	-11.5284
慈父	-11.5284
南陽太守	-11.5284
虞詡	-11.5284
設壇	-11.5284
註	-11.5284
各得其所	-11.5285
以百數	-11.5285
核	-11.5285
曙	-11.5285
言於徳宗曰	-11.5285
沈醉	-11.5285
并吞	-11.5286
爛	-11.5286
銀臺	-11.5286
七十餘人	-11.5286
猗	-11.5286
挹	-11.5286
紛然	-11.5286
楚元王	-11.5286
武徳元年	-11.5287
楚王英	-11.5287
農隙	-11.5287
幼弱	-11.5287
景龍元年	-11.5287
儲偫	-11.5287
姑臧	-11.5287
得休息	-11.5287
崤	-11.5287
席卷	-11.5287
推轂	-11.5287
棹	-11.5287
皇泰主	-11.5287
軷	-11.5287
燎	-11.5288
甬	-11.5288
音張戀反	-11.5288
太子少師	-11.5288
嫡庶	-11.5288
館陶公主	-11.5288
呪	-11.5288
哀帝紀	-11.5288
婆羅門	-11.5288
莖	-11.5288
郭黙	-11.5288
討澤潞	-11.5288
瀛	-11.5289
嗚	-11.5289
為天下笑	-11.5289
屈原	-11.5289
手筆	-11.5289
親任之	-11.5289
婚姻	-11.5289
感泣	-11.5289
赭	-11.5289
驚擾	-11.5289
専恣	-11.5289
頤	-11.5289
厭苦	-11.5289
江文蔚	-11.5289
阿保機	-11.5289
在河上	-11.529
大不敬	-11.529
以臣觀之	-11.529
兎	-11.529
嗷	-11.529
晝夜不息	-11.529
聳	-11.529
匕首	-11.529
屢以為言	-11.529
陌錢	-11.529
以一人之	-11.5291
中外失望	-11.5291
鉤黨	-11.5291
部伍	-11.5292
厪	-11.5292
礙	-11.5292
垢	-11.5292
被髪	-11.5292
澠	-11.5292
鑄五銖錢	-11.5292
縫	-11.5292
韋厪	-11.5292
為邊患	-11.5292
鱗	-11.5293
櫓	-11.5293
華陽國志	-11.5293
公孫賀	-11.5293
永明二年	-11.5293
為三等	-11.5293
充斥	-11.5293
僧綽	-11.5293
堪猛	-11.5293
斗米	-11.5293
詛	-11.5293
順流而下	-11.5294
姜維	-11.5294
互市	-11.5294
噉	-11.5294
荀朂馮紞	-11.5294
魏博節度使	-11.5295
幅	-11.5295
太和五年	-11.5295
顧左右曰	-11.5295
諸道貢獻	-11.5295
豈肯	-11.5295
郭太傳	-11.5295
隔絶	-11.5295
未足為	-11.5295
由兹	-11.5295
以女妻	-11.5295
蟻	-11.5295
黄仁諷	-11.5295
蹏	-11.5295
盟約	-11.5296
隴右節度使	-11.5296
河源	-11.5296
精鋭	-11.5296
纚	-11.5296
樓櫓	-11.5296
浙西	-11.5296
脈	-11.5296
儒衡	-11.5296
存乂	-11.5296
後晉天福元年	-11.5296
輼輬車	-11.5296
拔擢	-11.5297
渇	-11.5297
藩屏	-11.5297
飛鳥	-11.5297
三年之喪	-11.5297
事皆先白	-11.5297
范增	-11.5297
寛猛	-11.5298
舅姑	-11.5298
燈	-11.5298
縑帛	-11.5298
指麾	-11.5298
甲百萬	-11.5298
垂拱四年	-11.5298
徐勉	-11.5298
苑囿	-11.5298
于定國	-11.5299
韓彭	-11.5299
元狩	-11.5299
此數者	-11.5299
帷帳	-11.53
結髪	-11.53
淖	-11.53
革其弊	-11.5301
劉稹	-11.5301
建緒	-11.5301
皇甫規傳	-11.5302
甘露元年	-11.5302
深相結	-11.5302
五畤	-11.5302
橛	-11.5302
蓋勲	-11.5302
聖躬	-11.5303
叔寳	-11.5303
州團練使	-11.5303
晚節	-11.5303
刷	-11.5303
飛龍	-11.5303
遣中使諭	-11.5304
鄉閭	-11.5304
有異圖	-11.5304
衽	-11.5304
宻啓	-11.5304
鞅	-11.5305
駱谷	-11.5306
瓦石	-11.5306
勇略	-11.5306
淳風	-11.5306
諫而止	-11.5306
䜟文	-11.5306
執筆	-11.5306
周亞夫	-11.5306
併力	-11.5307
黥布	-11.5307
塔廟	-11.5307
畯	-11.5307
鬼物	-11.5308
太和三年	-11.5308
江嶺	-11.5309
録囚	-11.5309
危殆	-11.531
鄧景山	-11.531
圍逼	-11.531
甕	-11.531
謂興曰	-11.531
龎氏	-11.531
玉牒	-11.5311
趨走	-11.5311
思勗	-11.5311
衞青	-11.5311
萬斤	-11.5312
求姑息	-11.5312
守孤城	-11.5312
北狄	-11.5313
筐	-11.5313
錢幣	-11.5313
愁苦	-11.5313
錄尚書事	-11.5313
嘉瑞	-11.5314
伐吴	-11.5314
工商	-11.5314
露臺	-11.5315
李林甫為相	-11.5315
濶	-11.5316
昭穆	-11.5316
游雅	-11.5316
韋帶	-11.5316
伺察	-11.5317
陳寔	-11.5317
景仙	-11.5317
成都侯	-11.5318
洛邑	-11.5318
藏英	-11.5318
謂使者曰	-11.5319
寓居	-11.5319
為善者	-11.5319
智略	-11.5319
禘	-11.5319
疽	-11.5319
魏王操	-11.5319
如反掌耳	-11.532
情不通	-11.532
上陽宫	-11.532
膠葛	-11.532
有事則	-11.5321
渡河	-11.5321
李尋傳	-11.5322
而悦之	-11.5322
崔訓	-11.5322
魏文侯	-11.5322
二十六年	-11.5323
盖由	-11.5323
旋師	-11.5324
孝友	-11.5327
班超傳	-11.5329
草澤	-11.5329
亦如之	-11.533
存朂	-11.533
慢罵	-11.5332
九寸	-11.5332
較然	-11.5332
延篤	-11.5332
州大水	-11.5334
開元四年	-11.5335
稽古	-11.5336
永元十	-11.5336
厲色	-11.5337
戴胄	-11.5342
昭烈	-11.5351
叅軍	-11.5352
抑而不	-11.536
蕭望之傳	-11.536
徐防	-11.5364
展轉	-11.5371
夫復何	-11.5388
五十六	-11.54
辭疾不	-11.5403
謂亮曰	-11.5409
謂仁傑曰	-11.5466
為洛州	-11.55
弟晦	-11.5512
第五倫傳	-11.5512
預謀	-11.552
楊賜傳	-11.5533
陛下不以臣	-11.5567
十餘萬緡	-11.5569
於全忠曰	-11.5605
市里	-11.5646
事不理	-11.5707
褚遂良上疏以	-11.5709
乏糧	-11.5711
迎上皇	-11.572
開元五年	-11.574
縁邊	-11.5764
周勃傳	-11.6132
逢吉之黨	-11.6133
曰何物	-11.6155
𫝊四十	-11.6233
濮州	-11.6414
郴州	-11.6438
酒為樂	-11.7038
曰人生	-11.7447
炳	-11.7479
顯德三年	-11.7571
貞明元年	-11.7636
瞀	-11.7655
宋沈樞撰	-11.7655
十七萬	-11.7674
二十餘萬	-11.7685
欽定四庫全書通鑑總𩔖卷	-11.7689
建初元年	-11.7703
俄	-11.7704
其所以失	-11.7706
亹	-11.7708
􁂥	-11.7716
瓴	-11.7719
禺	-11.7719
湎	-11.772
棱	-11.7722
淖齒	-11.7722
五行志	-11.7723
袁象先	-11.7724
孔奐	-11.7724
武帝紀元封	-11.7724
不世之功	-11.7727
盧從愿	-11.7727
者由妾	-11.7727
西都賦云	-11.773
廣陵思王	-11.773
問誰可	-11.773
敬瑄	-11.773
右庶子	-11.7731
郾	-11.7733
䫇	-11.7733
俞	-11.7733
無𩔖矣	-11.7733
昂	-11.7734
蠡	-11.7735
豆盧革韋説	-11.7736
閽	-11.7736
庾冰	-11.7736
攪	-11.7736
長楊五柞	-11.7736
阹	-11.7736
縯	-11.7736
扼腕	-11.7737
干預朝政	-11.7737
張宗奭	-11.7738
㰱	-11.7738
鏑	-11.7739
莒	-11.774
鄄	-11.774
踊躍	-11.774
傭	-11.774
死無所恨	-11.774
人曰伯蔚	-11.774
四州之地	-11.774
笠	-11.774
齡	-11.774
定陶共皇	-11.7741
胥靡	-11.7741
飭	-11.7741
圯	-11.7741
東鄉君	-11.7741
吳越王鏐	-11.7741
逗	-11.7742
天官侍郎	-11.7742
讇	-11.7742
龎勛	-11.7742
昬姻	-11.7743
堆	-11.7743
怪而問之	-11.7744
長孫嵩	-11.7744
楹	-11.7744
㑹稽王昱	-11.7744
山南西道節度使	-11.7744
遐邇	-11.7744
居中用事	-11.7744
穹	-11.7744
躢	-11.7744
鍉	-11.7744
鷁	-11.7744
狷	-11.7745
張公謹	-11.7745
諮議參軍	-11.7745
元興二年	-11.7745
漕渠	-11.7745
秦主生	-11.7745
隻	-11.7745
𧖟	-11.7745
後周王峻	-11.7747
驕溢	-11.7747
約為兄弟	-11.7747
以社稷大計	-11.7747
盧文紀	-11.7747
以為信然	-11.7747
富商大賈	-11.7747
見怪則修	-11.7747
淑	-11.7747
李光弼	-11.7748
朕之不明	-11.7748
奉辭伐	-11.7748
捃	-11.7748
漬	-11.7748
蝦	-11.7748
昭帝紀元鳳	-11.7748
狠	-11.7748
擐	-11.7748
昆蟲	-11.7748
李彦韜	-11.7748
豆盧革	-11.7748
衒	-11.7749
溷	-11.7749
不亦難乎	-11.7749
夙	-11.7749
島	-11.7749
瀆	-11.7749
芸	-11.7749
景龍二年	-11.7749
髯	-11.7749
璿	-11.7749
蹈藉	-11.7749
州司戸	-11.7749
段文昌	-11.7749
程行湛	-11.7749
陲	-11.775
戣	-11.775
諂䛕	-11.7751
武帝紀元鼎	-11.7751
縶	-11.7751
元康元年	-11.7751
昏姻	-11.7751
禮部尚書蘇循	-11.7751
蚌	-11.7751
以笏擊	-11.7751
枉矢	-11.7751
囿	-11.7751
贅	-11.7752
儀同三司	-11.7752
剔	-11.7752
上官桀	-11.7752
武德九年	-11.7752
烽火	-11.7752
臨終遺	-11.7752
伃	-11.7752
孰大焉	-11.7752
㳟	-11.7752
砂	-11.7752
侯昌業	-11.7752
獻瓜果者	-11.7752
菽	-11.7752
奏封事	-11.7753
武始侯	-11.7753
邊陲	-11.7754
貞元八年	-11.7754
憺	-11.7754
朱友謙	-11.7754
撝	-11.7754
系	-11.7754
繦	-11.7754
伊邪莫演	-11.7754
伽	-11.7754
奥	-11.7754
為刑部尚書	-11.7754
賖	-11.7755
逍遥	-11.7755
籬	-11.7755
申公白生	-11.7755
齓	-11.7755
更思其次	-11.7755
蔡景厯	-11.7755
劉幽求	-11.7755
尾箕	-11.7755
建國門	-11.7755
紫袍	-11.7755
崔潭峻	-11.7755
者浸多	-11.7755
麪	-11.7755
鼐	-11.7755
巫覡	-11.7755
裴諝	-11.7755
嘿	-11.7755
措	-11.7756
煌	-11.7756
光宅元年	-11.7756
狸	-11.7756
都督中外諸軍事	-11.7756
誠如卿言	-11.7756
贅壻	-11.7756
此上䇿也	-11.7756
縌	-11.7756
縣土炭	-11.7756
褎	-11.7756
淮南子曰	-11.7756
盂	-11.7758
必核其真然後	-11.7758
義寧元年	-11.7758
鄭餘慶	-11.7758
亶	-11.7758
富沙王	-11.7758
誹謗朝政	-11.7758
奪民田	-11.7758
殍	-11.7758
沈行思	-11.7758
洛口倉	-11.7758
虫	-11.7758
安審琦	-11.7758
纛	-11.7758
跅	-11.7758
逡廵	-11.7758
諳練	-11.7759
應天順人	-11.7759
慙而止	-11.7759
文穎曰	-11.7759
秩中二千石	-11.7759
嘉平元年	-11.7759
有喜色	-11.7759
芟	-11.7759
齊王縯	-11.7759
蕡	-11.7759
鼒	-11.7759
營陽王	-11.7759
蛟	-11.776
鋤	-11.776
填咽	-11.776
惴	-11.7761
纎介	-11.7761
專制朝政	-11.7761
悽	-11.7761
承平日久	-11.7761
汁	-11.7761
謂宰相曰朕毎	-11.7761
躪	-11.7761
墻	-11.7762
撲殺之	-11.7762
罄	-11.7762
神功元年	-11.7762
泛海	-11.7762
諫議大夫褚遂良曰	-11.7762
閒暇	-11.7762
右賢王	-11.7762
孔戣	-11.7762
瀛洲	-11.7762
善屬文	-11.7762
嗤	-11.7762
棣	-11.7762
薛萬徹	-11.7762
民不堪命	-11.7762
永始元年	-11.7762
糶鹽	-11.7762
顯徳六年	-11.7762
肈	-11.7763
曖	-11.7763
五行志七下之	-11.7763
孝建三年	-11.7763
於天津橋	-11.7763
議者多言	-11.7763
凑	-11.7763
涌	-11.7763
蔬果	-11.7763
中常侍侯覽	-11.7763
庚辰	-11.7763
有國家者	-11.7763
於階下	-11.7763
昉	-11.7763
晉獻公	-11.7763
觀軍容使	-11.7763
趙元楷	-11.7763
刀鋸	-11.7763
咫尺之書	-11.7763
崔昭緯	-11.7763
李懐光	-11.7763
濡	-11.7763
皇甫徳參	-11.7763
直閤將軍	-11.7763
紫陌	-11.7763
蔡邕傳五十下	-11.7763
請昭宗遷都洛陽	-11.7763
販鬻	-11.7763
驪姬	-11.7763
封諸舅	-11.7765
顔師古	-11.7765
姦吏因縁	-11.7765
墯	-11.7765
媯	-11.7765
姑孰	-11.7765
龍驤將軍	-11.7765
戸部侍郎	-11.7765
知貢舉	-11.7765
耿純	-11.7765
努力	-11.7765
同中書門下三品	-11.7765
忿懟	-11.7765
劉景升	-11.7765
咸安元年	-11.7765
後梁貞明五年	-11.7765
劉祥道	-11.7765
張易之兄弟	-11.7765
有儲積	-11.7765
潢	-11.7765
自旦至	-11.7765
亂臣賊子	-11.7765
崔暹	-11.7765
巖廊	-11.7765
蹂踐	-11.7765
葱	-11.7766
蕭至忠	-11.7766
湏	-11.7766
扞禦	-11.7766
𣗳	-11.7766
旒	-11.7766
茅焦	-11.7766
慕容彦超	-11.7766
㑹昌三年	-11.7766
永明元年	-11.7766
城門校尉	-11.7766
崔季舒	-11.7766
斾	-11.7766
穽	-11.7766
函谷	-11.7767
璜	-11.7767
髙行周符彦卿	-11.7767
都官員外郎	-11.7767
呼韓邪	-11.7767
永元二年	-11.7767
盱	-11.7767
蜮	-11.7767
鑣	-11.7767
𨕖	-11.7767
太興三年	-11.7767
宋元嘉八年魏	-11.7767
戱	-11.7767
無虚日	-11.7767
薛文遇	-11.7767
警蹕	-11.7767
跬	-11.7767
長信少府	-11.7767
陴	-11.7767
髙少逸	-11.7767
桑榆	-11.7767
相顧失色	-11.7767
昫	-11.7768
灑掃	-11.7769
鄭普思	-11.7769
霆	-11.7769
媟	-11.7769
漠	-11.7769
簪	-11.7769
變凶逆之族為忠義之門	-11.7769
庾翼	-11.7769
為仇敵	-11.7769
紱	-11.7769
總章二年	-11.7769
蘧	-11.7769
中軍將軍	-11.7769
太宰義恭	-11.7769
櫜鞬	-11.7769
詘	-11.7769
跳	-11.7769
醪	-11.7769
馬服君	-11.7769
髦	-11.777
銀青光禄大夫	-11.777
左軍中尉	-11.777
髓	-11.777
建中三年	-11.777
時人為之語曰	-11.777
圭	-11.777
太寧二年	-11.777
崔安潛	-11.777
以軍功	-11.777
國子監	-11.777
麥飯	-11.777
天復二年	-11.777
薫	-11.777
通事舎人	-11.777
屛	-11.777
侑	-11.777
侲	-11.777
尫	-11.777
庫以掌之	-11.777
籙	-11.777
裴行立	-11.777
陳處堯	-11.777
勛	-11.7771
姜肱	-11.7771
奠	-11.7771
沾	-11.7771
貞元中	-11.7772
赧	-11.7772
飼	-11.7772
暄	-11.7772
將作大匠	-11.7772
㕘	-11.7772
秘書監	-11.7772
摇	-11.7772
煮	-11.7772
麟趾	-11.7772
何時當	-11.7772
獺	-11.7772
大𣗳將軍	-11.7772
必核其真然後授其	-11.7772
拆	-11.7772
柹	-11.7772
皂	-11.7772
禮而歸之	-11.7772
緍	-11.7772
荆南髙季興	-11.7772
葆	-11.7772
饑饉	-11.7772
嚬	-11.7772
姚南仲	-11.7772
婞	-11.7773
請付法	-11.7773
城陽王	-11.7773
姊妹	-11.7773
典樞機	-11.7773
恟恟	-11.7773
莩	-11.7773
棄城走	-11.7773
目不知書	-11.7773
眇	-11.7773
僊	-11.7773
雊	-11.7773
勸課農桑	-11.7773
耗蠧	-11.7773
隧	-11.7773
三老五更	-11.7773
俄頃	-11.7773
李重進	-11.7773
浸潤	-11.7773
玦	-11.7773
理亂之	-11.7773
筠	-11.7773
羇旅	-11.7773
貨賄	-11.7773
迕	-11.7773
鄱	-11.7773
秒	-11.7773
繯	-11.7773
之邵州	-11.7774
有懼色	-11.7774
孝本女	-11.7774
敦睦	-11.7774
軸	-11.7774
澹	-11.7774
虹	-11.7774
王曰寡人	-11.7774
秪	-11.7774
蒱博	-11.7774
勰	-11.7774
馮奉世傳	-11.7774
卦	-11.7774
員外散騎侍郎	-11.7774
禧	-11.7774
肌	-11.7774
以日易月	-11.7774
埃	-11.7774
查文徽	-11.7774
神靈之	-11.7774
醢	-11.7774
子午道	-11.7774
鐫	-11.7776
臣之罪也	-11.7776
袁恕已	-11.7776
跖	-11.7776
郎顗傳二十	-11.7776
拱黙	-11.7776
笥	-11.7776
興寧二年	-11.7776
伊吕	-11.7776
大理丞	-11.7776
狎侮	-11.7776
悔之無及	-11.7776
涕泗	-11.7776
瘢	-11.7776
綃	-11.7776
駑	-11.7776
䊪	-11.7776
以應天心	-11.7776
卬	-11.7776
求援於	-11.7776
牢盆	-11.7776
瘃	-11.7776
皸	-11.7776
蘇瓌	-11.7776
裋	-11.7776
栁璨	-11.7777
墟	-11.7777
舘	-11.7777
咸康元年	-11.7777
孝明皇帝	-11.7777
邰	-11.7777
執失思力	-11.7777
於衆中	-11.7777
郗鑒	-11.7777
之甥也	-11.7777
媿	-11.7777
字或作	-11.7777
尚帝女	-11.7777
貞觀十八年	-11.7777
以是觀之	-11.7777
枸醬	-11.7777
衆十餘萬	-11.7777
麽	-11.7777
元嘉二十八年	-11.7777
元康二年	-11.7777
含章殿	-11.7777
張廷範	-11.7777
汲汲	-11.7777
纒	-11.7777
言於莊宗曰	-11.7777
鋒刃	-11.7777
問所從來	-11.7777
段熲	-11.7777
鍰	-11.7777
黄魯曽	-11.7777
欠	-11.7778
所恃者	-11.7778
馳騁	-11.7778
衰絰	-11.7778
乾符元年	-11.7779
狎暱	-11.7779
秦王世民	-11.7779
趙王鎔	-11.7779
鄠	-11.7779
刻木為	-11.7779
後梁開平二年	-11.7779
甲寅	-11.7779
陀	-11.7779
其二以為	-11.7779
千里馬者	-11.7779
旃	-11.7779
烽燧	-11.7779
寳厯二年	-11.7779
有慙色	-11.7779
權徳輿	-11.7779
者三十餘人	-11.7779
藍田	-11.7779
倚瑟	-11.7779
嶢	-11.7779
憬藏	-11.7779
牛元翼	-11.7779
諦	-11.778
應對如流	-11.778
烱	-11.778
臠	-11.778
間隙而	-11.778
丁酉	-11.778
眷	-11.778
卑辭厚禮	-11.778
娘	-11.778
有令名	-11.778
竄謫	-11.778
鷹隼	-11.778
周興來俊臣	-11.778
陳後主	-11.778
髙行周	-11.778
以輕舟	-11.778
以為己功	-11.778
倪若水	-11.778
曰近日	-11.778
烏秅國	-11.778
畔換	-11.778
白虎通	-11.778
胡盧河	-11.778
魏無知	-11.778
湜	-11.7781
礫	-11.7781
不可忘也	-11.7781
以狀聞	-11.7781
建元二年	-11.7781
戹	-11.7781
鼎沸	-11.7781
軍乏食	-11.7781
溝壑	-11.7781
元嘉二十九年	-11.7781
硤	-11.7781
因以為名	-11.7781
韍	-11.7781
喉咽	-11.7781
鉦	-11.7782
壬午	-11.7783
屨	-11.7783
黙然良久曰	-11.7783
慕容暐	-11.7783
鬌	-11.7783
無益聖徳	-11.7783
繋	-11.7783
鬼薪白粲	-11.7783
乾坤	-11.7783
彩	-11.7783
閹豎	-11.7783
𦕈	-11.7783
侯思止	-11.7783
寥	-11.7783
朱文進	-11.7783
鼲	-11.7783
鉅	-11.7784
權侔人主	-11.7784
狗馬之	-11.7784
起居舎人	-11.7784
太康三年	-11.7784
改容謝之	-11.7784
兔	-11.7784
悔無及矣	-11.7784
錯愕	-11.7784
歸怨於	-11.7784
雇	-11.7784
𤨏	-11.7784
柢	-11.7784
皆曰臣等	-11.7784
鑄鐵錢	-11.7784
引以為相	-11.7785
苴	-11.7785
有離心	-11.7785
照鄰	-11.7785
鄧皇后傳	-11.7785
雩	-11.7785
曰事急矣	-11.7785
涪	-11.7785
令四人擊毬賭三川	-11.7785
的	-11.7785
霍諝	-11.7785
劉屈氂傳	-11.7785
珠玉錦繡	-11.7785
釡	-11.7787
地節三年	-11.7787
不足憂也	-11.7787
㕓	-11.7787
相望於道	-11.7787
獪	-11.7787
槊	-11.7787
古字通	-11.7787
掔	-11.7787
為淮南監軍	-11.7787
觚	-11.7787
摭	-11.7787
没弈于	-11.7787
薛謙光	-11.7787
入蔡州	-11.7787
崔元藻	-11.7787
毐	-11.7787
朕復何憂	-11.7788
曰妾聞	-11.7788
還軍霸上	-11.7788
時和年豐	-11.7788
砥	-11.7788
此始矣	-11.7788
中和二年	-11.7788
陛下富於春秋	-11.7788
炊	-11.7788
䣛	-11.7788
王温舒	-11.7788
范蠡	-11.7788
衛鞅	-11.7788
映	-11.7789
龍鱗	-11.779
姚萇	-11.779
公私困竭	-11.779
為民父母	-11.779
以防壅蔽	-11.779
歸咎於	-11.779
等八人	-11.779
豈可復留	-11.779
韋孝寛	-11.779
其字從	-11.779
洄	-11.779
綆	-11.779
蓺	-11.779
卒於家	-11.779
圍碁	-11.779
蕭摩訶	-11.779
二失也	-11.779
劘	-11.779
司天監	-11.779
臼	-11.779
躅	-11.779
龍紀元年	-11.7791
城旦舂	-11.7791
僉	-11.7791
晉公䕶	-11.7791
三失也	-11.7791
仲瑀	-11.7791
鷇飲	-11.7791
耕稼	-11.7792
出入卧内	-11.7792
杜門不出	-11.7792
帑藏	-11.7792
誰可者	-11.7792
史館修撰	-11.7792
蕞爾	-11.7792
識時務	-11.7792
劓	-11.7792
天復元年	-11.7792
擕	-11.7794
寳應元年	-11.7794
人面獸心	-11.7794
珠璣	-11.7794
睨	-11.7794
芒	-11.7794
中大同元年	-11.7794
之壻也	-11.7794
歷	-11.7794
魁岸	-11.7794
焦	-11.7795
鍛	-11.7795
慕容紹宗	-11.7795
紓	-11.7795
伊洛	-11.7795
昻	-11.7795
續漢書	-11.7795
售	-11.7795
虯	-11.7795
醮	-11.7795
駭愕	-11.7795
墅	-11.7795
螖	-11.7795
軒轅集	-11.7795
湯沐邑	-11.7796
深怨之	-11.7797
舟楫	-11.7797
孝悌	-11.7797
也一説	-11.7797
朓	-11.7797
碁	-11.7797
避嫌疑	-11.7798
慕容皝	-11.7798
此曹皆	-11.7798
丹青之信	-11.7798
裾	-11.7799
曇	-11.7801
開成三年	-11.7801
遞	-11.7801
霓	-11.7801
其四以為	-11.7802
無所忌憚	-11.7802
俎	-11.7802
磬	-11.7802
罽賔國	-11.7802
陳守元	-11.7802
繼珣	-11.7802
鋊	-11.7802
闚	-11.7803
珍羞	-11.7803
索元禮	-11.7803
袐	-11.7803
與其黨謀	-11.7805
召見與語	-11.7805
軹	-11.7805
埆	-11.7805
稾	-11.7805
繻	-11.7805
鉆	-11.7805
衘	-11.7806
無怨言	-11.7806
匣	-11.7806
嶸	-11.7806
柯	-11.7806
年九十	-11.7807
猫	-11.7808
孝成皇帝	-11.7808
起受侯印	-11.7808
韝	-11.7808
扵	-11.7809
契苾何力	-11.7809
有盛名	-11.781
半兩錢	-11.781
枷	-11.781
汴渠	-11.781
簺	-11.781
閼	-11.781
崔慎由	-11.7812
天成二年	-11.7812
混壹	-11.7812
縝	-11.7813
悉怛謀	-11.7815
讞	-11.7815
四鎮十姓	-11.7815
之驚喜	-11.7816
洩	-11.7816
皮幣	-11.7816
餗	-11.7816
杜鴻漸	-11.7817
惔	-11.7817
瞽	-11.7817
言於堅曰	-11.7817
庖	-11.7819
甓	-11.7819
裴伷先	-11.782
駔	-11.782
媒	-11.7821
慈悲	-11.7822
吮	-11.7822
裞	-11.7822
青瑣	-11.7822
曰竊聞	-11.7824
邴	-11.7826
鍛鍊	-11.7827
三覆奏	-11.783
栁泌	-11.7845
駕鶴	-11.7845
謂諸子曰	-11.7846
天復三年	-11.7846
諸將皆曰	-11.7847
此吾所	-11.7856
曰果如	-11.786
兵戍之	-11.7879
有大罪	-11.7885
非錢不	-11.7886
我死汝	-11.7888
肅宗紀建初	-11.7896
者咸以為	-11.791
則誰不	-11.7921
十有二	-11.7926
於太后太后	-11.7957
開元二十	-11.7967
輿入殿	-11.8016
每優容	-11.8018
百斤	-11.8112
趙充國傳	-11.8257
以假人	-11.8315
以儀刑	-11.8369
兵而攻	-11.8504
自以為得	-11.8698
千七百	-11.8753
年不遷	-11.8988
也荀悦	-11.9093
澶	-11.931
朱克融	-11.9633
天監二年	-12.0289
光武紀建武十	-12.0594
顯德元年	-12.0716
神爵元年	-12.0931
在徳不在險	-12.098
擘	-12.1009
賚	-12.1022
皷	-12.1024
猜忌不委任臣下	-12.1026
潘峭毛文錫	-12.1028
秦府功臣	-12.1028
鴩	-12.1032
黨錮傳序	-12.1034
行養老禮	-12.1036
注云東觀記曰	-12.1038
釘	-12.1042
一子不事	-12.1042
去符傳	-12.1042
慕容鎮軍	-12.1043
建初二年	-12.1044
隼	-12.1045
肖	-12.1047
卓英倩等	-12.1047
鳻	-12.1047
崔民幹為第	-12.1049
瓶	-12.1051
安所歸乎	-12.1051
轔	-12.1051
何負於汝而反	-12.1053
張從賔	-12.1053
救時之相	-12.1053
王孫賈	-12.1053
瑨瓆	-12.1053
鬵	-12.1053
埤	-12.1055
太元二年	-12.1055
有謀能斷	-12.1055
确	-12.1055
洋王從璋	-12.1055
締	-12.1057
楯	-12.1059
榛	-12.1059
翳	-12.1059
恃權而貪	-12.1059
風俗通曰	-12.106
溲	-12.106
爵一級	-12.106
絳紗袍	-12.1061
矧	-12.1061
者此之謂也	-12.1061
属	-12.1061
瑨	-12.1061
藪	-12.1061
堂後主書滑渙	-12.1061
員外同正	-12.1061
騊	-12.1061
鄖	-12.1063
三太猛	-12.1063
修國史	-12.1063
卞範之	-12.1063
長十餘丈	-12.1063
駼	-12.1063
蔬	-12.1063
姚璹曰	-12.1065
為日乆矣	-12.1065
瀝	-12.1065
光和元年	-12.1065
宣徽副使	-12.1065
望春樓	-12.1065
槖	-12.1065
潘在迎	-12.1065
仲雅曰	-12.1065
梗槩	-12.1065
扈	-12.1065
以侯就第	-12.1066
朱買臣	-12.1067
聖厯元年	-12.1067
望府廨即拜	-12.1067
作兩稅法	-12.1067
入寢室	-12.1067
孤軍深入	-12.1067
與知樞宻劉	-12.1067
數與近習謀誅大臣	-12.1067
東鄉坐	-12.1067
赤伏符	-12.1067
如反掌	-12.1068
慓	-12.1068
多凝滯	-12.1069
之曰汝輩皆	-12.1069
性傾巧	-12.1069
背水陣	-12.1069
廢昏立明	-12.1069
延皓等	-12.1069
沅	-12.107
驕縱不法	-12.107
平蜀之功	-12.107
閒居私第	-12.107
非不愛也	-12.107
伴	-12.107
憂形於色	-12.107
祁連山	-12.107
井陘口	-12.107
擇禍莫若輕	-12.107
趙武靈王	-12.107
張耳陳餘	-12.107
柘漿	-12.107
毹	-12.107
氍	-12.107
泰階六符	-12.107
焫	-12.107
聃	-12.107
膋	-12.107
著作佐郎	-12.107
軨獵車	-12.107
輜軿	-12.107
邢文偉	-12.107
駍	-12.107
騅	-12.107
鵰	-12.107
騐	-12.1072
疊	-12.1072
望氣者言	-12.1072
楊洞潜	-12.1072
彤	-12.1072
咸寧四年	-12.1072
歇	-12.1072
死者大半	-12.1072
洼	-12.1072
公孫五樓	-12.1072
槥櫝	-12.1072
殪	-12.1072
顯陽殿	-12.1074
馮衍傳十八	-12.1074
盾	-12.1074
尉遲敬徳	-12.1074
不急之務	-12.1074
歸徳節度使	-12.1074
汾陽王	-12.1074
充庭車	-12.1074
蒲禹卿	-12.1074
規畫皆稱上意	-12.1074
呉興太守	-12.1076
師古云	-12.1076
勤政樓	-12.1076
壟	-12.1076
徐孝嗣	-12.1076
豔	-12.1076
以其事訪之	-12.1076
為奇士	-12.1076
三嵗犢	-12.1076
仁夀宫	-12.1076
備法駕迎	-12.1076
怒稍解	-12.1076
罏	-12.1076
自督諸將	-12.1076
愕	-12.1078
内外戒嚴	-12.1078
張弓注矢	-12.1078
虺	-12.1078
嗔	-12.1078
脯	-12.1078
水衡都尉	-12.1078
酸	-12.1078
眤	-12.1078
孝建二年	-12.1078
死者相枕	-12.1078
未審陛下欲何所	-12.1078
殞	-12.1078
永初二年	-12.1078
豢	-12.1078
天䇿府學士	-12.1078
孫光憲	-12.1078
岐靈岳	-12.1078
後周顯徳三年	-12.1078
火耕水耨	-12.1078
蘇世長	-12.1078
郷	-12.1078
骨肉相殘	-12.1078
艫	-12.108
邙	-12.108
自知名位已極	-12.108
鴨	-12.108
募勇士	-12.108
揣知上意	-12.108
澁	-12.108
嚴可求曰	-12.108
扣	-12.108
禪位於	-12.108
其伯父	-12.108
張元徽	-12.108
曰死生有命	-12.108
有怨望語	-12.108
楊惠元	-12.108
自負才地	-12.108
馬希廣	-12.108
臾	-12.1081
汰	-12.1081
可與為善可與為	-12.1082
秦失其鹿	-12.1082
穗	-12.1082
讀貞觀政要	-12.1082
副都統朱瑾	-12.1082
彎	-12.1082
拓跋恒	-12.1082
夏官侍郎姚元崇	-12.1082
徐仲雅	-12.1082
鎮南將軍	-12.1082
令行禁止	-12.1082
旟	-12.1082
率民財以	-12.1082
窈	-12.1082
朕即位以來	-12.1082
社稷危矣	-12.1082
贏縮	-12.1082
餤	-12.1082
䒷	-12.1082
劉齊賢	-12.1082
州防禦使張彦	-12.1082
樊愛能何徽	-12.1082
温依周公居攝	-12.1082
苃	-12.1082
遣督䕶	-12.1084
令如汗	-12.1084
建興三年	-12.1084
乞歸九華舊𨼆	-12.1084
歴五朝	-12.1084
自誇大	-12.1084
金帛賜諸軍	-12.1084
含嘉倉	-12.1084
引兵東出	-12.1084
蝡	-12.1084
何以處之對曰	-12.1084
傳序四十	-12.1084
牛昭容	-12.1084
道病卒	-12.1084
俚	-12.1084
南燕主備徳	-12.1084
同列陳瓌	-12.1084
尺五寸	-12.1084
李金全	-12.1084
羅渾擎	-12.1084
而好賄	-12.1084
逼令自殺	-12.1084
擎	-12.1084
易制故引	-12.1084
甘泉賦云	-12.1084
阿那肱	-12.1084
鴂	-12.1084
盥	-12.1085
大盈庫	-12.1085
諝	-12.1085
柘	-12.1086
亦無及矣	-12.1086
聞而嘉之	-12.1086
卿何為爾	-12.1086
土瘠民	-12.1086
置酒作樂	-12.1086
埸	-12.1086
天平節度使	-12.1086
宗社耳	-12.1086
駁	-12.1086
包藏禍心	-12.1086
息夫躬	-12.1086
惡者則為	-12.1086
相約結	-12.1086
錢五百萬	-12.1086
開皇二十年	-12.1086
上牋勸進	-12.1086
建元四年	-12.1086
張少敵	-12.1086
昭平君	-12.1086
李元紘杜暹	-12.1086
百戰百勝	-12.1086
穆然無間	-12.1086
窖	-12.1086
褘	-12.1086
貟外郎	-12.1086
鐸	-12.1087
鄜	-12.1088
為亂兵所害	-12.1088
陿	-12.1088
浣	-12.1088
北寺獄	-12.1088
抉	-12.1088
盧藏用	-12.1088
竇貞固	-12.1088
伍子胥	-12.1088
出庫錢	-12.1088
於秦川	-12.1088
餙	-12.1088
萬世之利也	-12.1088
大寳元年	-12.1088
河平二年	-12.1088
深歎美	-12.1088
貰	-12.1088
上疏極諌	-12.1088
吕元膺	-12.1088
堊	-12.1088
墍	-12.1088
臣之所憂	-12.1088
謂澳曰	-12.1088
闓	-12.1088
非反而何	-12.1088
髙武子孫	-12.1088
狼子野心	-12.109
訶	-12.109
博王友文	-12.109
氂	-12.109
由是益有寵	-12.109
迎拜於路	-12.109
入牙城	-12.109
勑	-12.109
滁	-12.109
珥	-12.109
讃	-12.109
罷其政事	-12.109
迅	-12.109
陛下即位以來	-12.109
伏儼曰	-12.109
治書侍御史	-12.109
瞶	-12.109
閡	-12.109
附下罔上	-12.109
債	-12.109
儂	-12.109
取之如拾芥耳	-12.109
姜公輔	-12.109
正刑書	-12.109
泊	-12.109
自求多福	-12.109
貞元九年	-12.109
非人主所宜親也	-12.109
馬家口	-12.109
裙	-12.109
見幾而作不俟終日	-12.109
扛	-12.1091
澆訛	-12.1092
除舊布新	-12.1092
括惡錢	-12.1092
磔	-12.1092
周穆王	-12.1092
申屠蟠	-12.1092
白從暉	-12.1092
續漢志曰	-12.1092
殷景仁	-12.1092
翰林學士承㫖韓偓	-12.1092
與王伾相依附	-12.1092
位兼將相	-12.1092
於寢殿	-12.1092
時年十四	-12.1092
為浙西觀察使	-12.1092
煑	-12.1092
不勝其忿	-12.1092
帥衆拒戰	-12.1092
張藴古	-12.1092
捫	-12.1092
李專美	-12.1092
言於武宗曰	-12.1092
豆盧革盧程	-12.1092
鏗	-12.1092
大長秋	-12.1092
安成王頊	-12.1092
帥百餘騎	-12.1092
明徳馬皇后傳十	-12.1092
無復君臣之禮	-12.1092
趙彦深	-12.1092
馬彦珪	-12.1092
麈	-12.1092
休守正不阿	-12.1092
募戍卒耕荒田	-12.1092
増白帝之守	-12.1092
建章宫	-12.1092
張權輿	-12.1092
纆	-12.1092
臣願先賜死	-12.1092
開元十四年明皇	-12.1092
於墓側	-12.1093
在長安城中	-12.1093
盭	-12.1094
縹	-12.1094
六百石	-12.1094
乾封元年	-12.1094
幐	-12.1094
讌	-12.1094
中宗大怒命	-12.1094
失天下之望	-12.1094
孝王傳四	-12.1094
次對官	-12.1094
什不三四	-12.1094
褰	-12.1094
郅	-12.1094
張居翰	-12.1094
武帝紀元朔	-12.1094
沽	-12.1094
縱反間於	-12.1094
中山公護	-12.1094
之獨不降意於	-12.1094
判官髙郁	-12.1094
司徒導以	-12.1094
唐明宗之世	-12.1094
大通二年爾朱榮	-12.1094
寧康元年	-12.1094
并殺其子	-12.1094
循名責實	-12.1094
扺	-12.1094
諸莫弗	-12.1094
逸於任	-12.1094
陛下龍飛	-12.1094
張説欲取立后	-12.1094
彖	-12.1094
房伯玉	-12.1094
掦	-12.1094
武惠妃為皇后	-12.1094
水衡錢	-12.1094
看	-12.1094
諴	-12.1094
閉闗絶約於齊	-12.1094
階上星為	-12.1094
騃	-12.1094
三輔故事云	-12.1095
緝	-12.1095
天子而令諸侯	-12.1095
栩	-12.1095
如草芥	-12.1095
怨嗟盈路	-12.1095
敬暉桓彦範	-12.1096
机	-12.1096
後晉天福八年唐	-12.1096
河間獻王	-12.1096
深溝髙壘	-12.1096
盧從史	-12.1096
脆	-12.1096
鄼	-12.1096
凋	-12.1096
同罪異	-12.1096
後五十年	-12.1096
竇建徳	-12.1096
絶而復蘇	-12.1096
綝	-12.1096
貨賂公行	-12.1096
貸其死	-12.1096
郭威鎮鄴都	-12.1096
可不戒哉	-12.1096
安思閻	-12.1096
實奪之權	-12.1096
峙	-12.1096
檛	-12.1096
羹	-12.1096
事勢如此	-12.1096
入朝于鄴	-12.1096
卉	-12.1096
宇文士及	-12.1096
日不暇給	-12.1096
王子喬	-12.1096
痩	-12.1096
繫國安危	-12.1096
舳艫	-12.1096
趙徳鈞	-12.1096
飡	-12.1096
滕	-12.1096
陟	-12.1096
麀	-12.1096
秋官侍郎	-12.1097
居安思危	-12.1097
乾符五年	-12.1097
元帝器重	-12.1097
中和元年	-12.1097
企	-12.1097
友諒以	-12.1097
為徳宗所親	-12.1097
菁	-12.1097
贄上奏其略曰	-12.1097
韲	-12.1097
江夏王義恭	-12.1097
鄭州防禦使	-12.1097
鏡自照	-12.1097
亳	-12.1097
偪	-12.1097
元始五年	-12.1097
怍	-12.1097
梃	-12.1097
缾	-12.1097
與侍臣論	-12.1097
傕	-12.1097
咀	-12.1097
昭帝紀始元	-12.1097
李栖筠	-12.1097
清江表	-12.1097
熒惑聖聽	-12.1097
珧	-12.1097
白敏中謂同列	-12.1097
眭	-12.1097
葛延遇	-12.1097
越王𢎞昌	-12.1097
髙五十丈	-12.1097
抄	-12.1098
開成二年	-12.1098
朕則不然	-12.1099
礪	-12.1099
相憎疾	-12.1099
為布衣交	-12.1099
登進士第	-12.1099
何足介意	-12.1099
封域之内	-12.1099
於昭宗昭宗	-12.1099
牣	-12.1099
決疑獄	-12.1099
位極人臣	-12.1099
儔	-12.1099
曹參傳九	-12.1099
李仁罕	-12.1099
溺死者甚衆	-12.1099
異物志曰	-12.1099
窒	-12.1099
與盛師友	-12.1099
鐙	-12.1099
𫝊國寳	-12.1099
乃就職	-12.1099
五臺僧	-12.1099
以死報國	-12.1099
伏劍而死	-12.1099
何以處我	-12.1099
元文遥	-12.1099
刈	-12.1099
右驍衛將軍	-12.1099
年十嵗	-12.1099
廏	-12.1099
捲握	-12.1099
甿	-12.1099
知内侍省事	-12.1099
筋	-12.1099
訴於憲宗憲宗	-12.1099
謏	-12.1099
貞元二年	-12.1099
進奏院	-12.1099
鏽	-12.1099
竟不能屈	-12.1101
司馬温公論	-12.1101
猶豫未决	-12.1101
自相魚肉	-12.1101
故以名云	-12.1101
為鎮海節度使	-12.1101
身毒國	-12.1101
待之如初	-12.1101
非良計	-12.1101
今春以來	-12.1101
其門如市	-12.1101
史思明	-12.1101
殁	-12.1101
塤	-12.1101
宋璟疾負罪	-12.1101
徴逺年逋欠	-12.1101
昇明元年	-12.1101
注云爾雅曰	-12.1101
無所控訴	-12.1101
立武昭儀為后	-12.1101
翃	-12.1101
賭	-12.1101
鈇鑕	-12.1101
鎮海鎮東節度	-12.1101
以法度裁制藩鎮	-12.1101
裴度自興元入朝李逢吉之黨百計毁之	-12.1101
見前世帝王	-12.1101
使五官中郎將	-12.1102
天祐二年	-12.1103
氾	-12.1103
未有不亡者	-12.1103
之恐見欺	-12.1103
泣下霑衿	-12.1103
仰天歎曰	-12.1103
熏	-12.1103
爇	-12.1103
耿崇美	-12.1103
遭母憂	-12.1103
僅以身免	-12.1103
國子博士	-12.1103
彰義節度使	-12.1103
敡	-12.1103
荼	-12.1103
諸方鎮刺史	-12.1103
之甚難臣	-12.1103
畮	-12.1103
社稷事重	-12.1103
肝	-12.1103
舉大觴屬	-12.1103
蘆	-12.1103
謚曰文	-12.1103
閻知微	-12.1103
以茅土	-12.1103
宦官勸帝	-12.1103
封十郡	-12.1103
年憲宗問宰相	-12.1103
收散卒	-12.1103
碓	-12.1103
管崇嗣	-12.1103
衆大潰	-12.1103
全忠復書曰	-12.1103
刻石紀功	-12.1103
咸寧五年	-12.1103
妄訴不已	-12.1103
打	-12.1103
楊昭儉諫	-12.1103
班見百僚	-12.1103
笋	-12.1103
聾	-12.1103
能以功名終	-12.1103
許徳勲	-12.1103
各有等差	-12.1105
倪	-12.1105
備位宰相	-12.1105
廙	-12.1105
方宴客	-12.1105
真英主也	-12.1105
者衘寃	-12.1105
自今已後	-12.1105
為之一空	-12.1105
萯	-12.1105
踧	-12.1105
驥	-12.1105
𢃄	-12.1105
諫官要在舉職	-12.1105
辨羣臣之邪正	-12.1105
元帝初元	-12.1105
張仲方	-12.1105
後周廣順二年唐主	-12.1105
後漢天福十二年初	-12.1105
房遺愛	-12.1105
端拱無為	-12.1105
作鄜畤	-12.1105
周昌傳	-12.1105
天授非人力也	-12.1105
撼	-12.1105
柷	-12.1105
翡	-12.1105
陳永定元年	-12.1105
陸象先	-12.1105
挑	-12.1107
弓箭庫使	-12.1107
城拒守	-12.1107
綈厚繒	-12.1107
何嫌何疑	-12.1107
延巳與其黨	-12.1107
扁	-12.1107
子子孫孫	-12.1107
戍南邊	-12.1107
蟊	-12.1107
兇	-12.1107
深自結納	-12.1107
事無巨細	-12.1107
其末流	-12.1107
裂地而封	-12.1107
太白晝見	-12.1107
奏請多踰分	-12.1107
宜為車轂	-12.1107
幻	-12.1107
彭城王勰	-12.1107
景福二年	-12.1107
民甚苦之	-12.1107
犴	-12.1107
盧祖尚	-12.1107
緫	-12.1107
纖	-12.1107
該	-12.1107
農區田法方	-12.1107
鄘	-12.1107
韓昭𦙍	-12.1107
扑	-12.1109
覽而善之	-12.1109
隰	-12.1109
匝	-12.1109
棗	-12.1109
皇甫惟明	-12.1109
傚	-12.1109
濊	-12.1109
獻可替否	-12.1109
避亂者多	-12.1109
國子司業	-12.1109
慰勉之	-12.1109
貪暴不法	-12.1109
勢傾内外	-12.1109
梁天監五年魏	-12.1109
臨平湖	-12.1109
㪚騎常侍	-12.1109
主勞於求	-12.1109
何患不富貴	-12.1109
侍御史周矩	-12.1109
准	-12.1109
凰	-12.1109
喘	-12.1109
岷	-12.1109
怠於政事	-12.1109
抶	-12.1109
拷	-12.1109
有父母妻子	-12.1109
株	-12.1109
溉	-12.1109
禁私度僧尼	-12.1109
軍假吏	-12.1109
㡌	-12.1109
盧度世	-12.1109
果可克	-12.111
瓚	-12.1111
中山靖王	-12.1111
桎	-12.1111
甚敬憚之	-12.1111
安用此為	-12.1111
時人服其明而譏其細	-12.1111
衎	-12.1111
也陛下儻不	-12.1111
賜東園	-12.1111
百姓嗟怨	-12.1111
順國節度使杜威	-12.1111
頹	-12.1111
轉死溝壑	-12.1111
驍騎將軍	-12.1111
以至誠治天下	-12.1111
綏和二年	-12.1111
耦	-12.1111
與民爭利	-12.1111
虗	-12.1111
𢷬	-12.1111
可不慎哉	-12.1111
延載元年	-12.1111
清暑殿	-12.1111
砭	-12.1111
符節臺	-12.1111
謾	-12.1111
司徒左長史	-12.1111
封徳彞	-12.1111
文武兼資	-12.1111
斿	-12.1111
民間疾苦	-12.1111
澡	-12.1111
躬擐甲胄	-12.1111
道士趙歸真	-12.1111
馬𦙍孫	-12.1111
票騎將軍	-12.1112
歐	-12.1112
以距楚	-12.1113
撃	-12.1113
寳厯元年	-12.1113
昔漢光武	-12.1113
真其人也	-12.1113
鄯	-12.1113
為政之要	-12.1113
輒斥去	-12.1113
鈇	-12.1113
用毛錐	-12.1113
三品已上	-12.1113
事各有司存	-12.1113
封德彝	-12.1113
榱	-12.1113
淆	-12.1113
白志貞	-12.1113
韋嗣立	-12.1113
上官昭容	-12.1113
亡略盡	-12.1113
以一幅	-12.1113
恐禍及已	-12.1113
關某張飛	-12.1113
何樂如之	-12.1113
倅	-12.1113
卻	-12.1113
善事上官	-12.1113
成帝紀建始	-12.1113
戬	-12.1113
戰必勝	-12.1113
有土崩之	-12.1113
此曹所為	-12.1113
芋	-12.1113
汜	-12.1113
輜	-12.1113
傅讀曰附	-12.1114
滻	-12.1115
佶	-12.1115
不急之費	-12.1115
曰何故對曰	-12.1115
屏人問	-12.1115
往復數四	-12.1115
至昭應	-12.1115
發連弩射	-12.1115
土崩瓦解	-12.1115
薄其為人	-12.1115
㛰	-12.1115
京兆尹黎幹	-12.1115
冥	-12.1115
所獻錢賜	-12.1115
簋	-12.1115
所施設	-12.1115
殺傷萬計	-12.1115
陛下新即位	-12.1115
黃門侍郎	-12.1115
不如早除之	-12.1115
柳仲郢為	-12.1115
為國計使	-12.1115
為黨友	-12.1115
無為而治	-12.1115
磑	-12.1115
社稷為墟	-12.1115
竒章公	-12.1115
劉黒闥	-12.1115
史在徳	-12.1115
恼	-12.1115
戡	-12.1115
禍亂之興皆由	-12.1115
薳	-12.1115
調兵食	-12.1115
郢王友珪	-12.1115
通鑑總𩔖	-12.1116
斐	-12.1117
託疾不	-12.1117
赴水死	-12.1117
勦	-12.1117
據敖倉之粟塞成臯之	-12.1117
懽	-12.1117
李鷃上慶雲圖	-12.1117
為有司所糾	-12.1117
鞮	-12.1117
中和四年	-12.1117
不宜輕動	-12.1117
孑	-12.1117
同甘苦	-12.1117
蛾	-12.1117
㓗	-12.1117
左司郎中	-12.1117
荻	-12.1117
以褊察	-12.1117
即皇帝位于南郊	-12.1117
髙陽王雍	-12.1117
鷰	-12.1117
五丈原	-12.1117
十為百名曰	-12.1117
子孰與起文曰不如子起曰	-12.1117
拍	-12.1117
曲臺記	-12.1117
氣不和而	-12.1117
江子四	-12.1117
者為正邪則	-12.1117
青葢入洛	-12.1117
黠戛斯	-12.1117
驪	-12.1117
塔	-12.1118
與物無競	-12.1119
洶洶	-12.1119
恭謹自守	-12.1119
復舊業	-12.1119
受詩於浮丘伯	-12.1119
李正巳	-12.1119
肝腦塗地	-12.1119
櫝	-12.1119
常平倉	-12.1119
惡衣菲食	-12.1119
片	-12.1119
元始三年	-12.1119
冉	-12.1119
大事去矣	-12.1119
悔無及也	-12.1119
翅	-12.1119
僂	-12.1119
喑嗚	-12.1119
吾無憂矣	-12.1119
尤無狀者	-12.1119
惀	-12.1119
殺之投尸	-12.1119
舉酒屬	-12.1119
蚤	-12.1119
李嗣真	-12.1119
􁐼	-12.1119
李百藥	-12.112
於厠中	-12.112
自垂拱以來	-12.1121
刑部尚書張	-12.1121
音義云	-12.1121
光祿勲	-12.1121
新垣平	-12.1121
淮陽憲王	-12.1121
逝	-12.1121
燃	-12.1121
行馳道中	-12.1121
鍜	-12.1121
二尺餘	-12.1121
孫叔敖	-12.1121
御史中丞袁淑	-12.1121
無敢違者	-12.1121
陳寵傳	-12.1121
㢘頗李牧	-12.1121
全身逺害	-12.1121
太原周黨	-12.1121
娑婆寐	-12.1121
括民穀	-12.1121
短長術	-12.1121
競為侈靡	-12.1121
豽	-12.1121
踞	-12.1122
鐐	-12.1122
大中四年以	-12.1122
太清元年東魏	-12.1122
其三以為陛下	-12.1122
什二三	-12.1122
姧	-12.1123
等十一人	-12.1123
非人力所及	-12.1123
刑部尚書顔真卿	-12.1123
嘔	-12.1123
宗瞿然曰	-12.1123
昭義節度使劉從諫	-12.1123
上尊酒	-12.1123
中官典兵	-12.1123
傳詩是為	-12.1123
其不可一也	-12.1123
匡國節度使	-12.1123
多忌諱	-12.1123
得免於禍	-12.1123
永元三年	-12.1123
窋	-12.1123
米一斗得酒一斗為	-12.1123
肓	-12.1123
至㶚上	-12.1123
讒夫昌	-12.1123
顯慶二年	-12.1123
烽	-12.1123
醴	-12.1123
意以為何如	-12.1124
倐	-12.1124
紲	-12.1124
立仗馬	-12.1124
即皇帝位國號大	-12.1124
受國厚恩	-12.1124
述律太后	-12.1124
吕霍上官	-12.1124
有功則賞有罪則刑	-12.1124
賜衣一襲	-12.1124
偵	-12.1124
斜封官皆	-12.1124
義不負二陸	-12.1124
賊諜者	-12.1124
朝野推服	-12.1124
痕	-12.1124
開言路	-12.1124
擿觖	-12.1124
橢	-12.1124
注云漢武内傳曰	-12.1124
洺	-12.1124
耄	-12.1124
䯢	-12.1124
專有其功	-12.1126
君不可以不	-12.1126
臍	-12.1126
亦猶是矣	-12.1126
眺	-12.1126
毾	-12.1126
灘	-12.1126
蘇良嗣	-12.1126
褭	-12.1126
宂	-12.1128
於閤中	-12.1128
髙敖曹	-12.1128
交臂事賊	-12.1128
埽	-12.1128
癉	-12.1128
陛下所親見也今	-12.1128
天祐二年栁璨	-12.1128
權盡歸	-12.1128
毁經像	-12.1128
獬	-12.1128
㲪	-12.1128
六玉虯	-12.1128
據采石	-12.1128
田遊巖	-12.1128
眦	-12.1128
黍	-12.1128
安西將軍	-12.113
時年十六	-12.113
使于吐蕃	-12.113
船數十艘	-12.113
荔	-12.113
覦	-12.113
倘	-12.113
命將出師	-12.113
臆	-12.113
覊	-12.113
針	-12.113
時天旱	-12.113
殺之并其	-12.113
陳宣帝大建	-12.113
弧	-12.113
緭	-12.113
閩王延鈞	-12.113
瘳	-12.1132
曰非所及也	-12.1132
秦始皇漢武帝	-12.1132
絭	-12.1132
葛從周	-12.1132
安豐王延明	-12.1132
瑣	-12.1134
田承嗣為安史父子立祠堂	-12.1134
元康七年	-12.1134
千六百	-12.1134
李夷簡	-12.1134
此千載一時	-12.1134
有諍臣風采	-12.1134
涸	-12.1134
至寢殿	-12.1134
黄霧四塞	-12.1134
王吉傳	-12.1134
錚錚	-12.1134
陗	-12.1134
黃頭郎	-12.1134
蕞	-12.1136
丑	-12.1136
八十四調	-12.1136
相汲引	-12.1136
婿	-12.1136
鈐	-12.1136
呌	-12.1136
哺	-12.1136
戎為三公與時浮沈	-12.1136
絀	-12.1136
刮	-12.1136
司冦作	-12.1136
周廣謝惲	-12.1136
砥礪	-12.1136
㥯	-12.1136
嗛	-12.1136
釃	-12.1136
秩比二千石	-12.1137
不閑軍旅	-12.1138
王褒傳三十四	-12.1138
申屠剛	-12.1138
言於曹操曰	-12.1138
讙譁	-12.1138
自校簿書	-12.1138
偃武修文	-12.1138
眄	-12.1138
廷式曰	-12.1138
方目紗	-12.1138
曬	-12.1138
玉門關	-12.1138
薇	-12.1138
甃	-12.114
堕	-12.114
珍禽竒獸	-12.114
考功員外郎	-12.114
以戒不虞	-12.114
諸葛武侯	-12.114
鍖	-12.114
撙	-12.114
紂為無道	-12.114
競為暴刻	-12.114
嚴善思	-12.114
王仲德	-12.114
鑽	-12.114
楫	-12.114
畎	-12.1142
墊	-12.1142
法門寺	-12.1142
刖	-12.1142
受吳降	-12.1142
李必駱甲	-12.1142
鍊	-12.1144
月乙亥	-12.1144
人多怨之	-12.1146
翶	-12.1146
樊豐等	-12.1146
鍠	-12.1146
淮南厲王傳	-12.1146
良家子	-12.1146
襃衣博帶	-12.1146
櫑	-12.1146
綂	-12.1146
螭	-12.1146
鍼	-12.1148
陛下仁恩	-12.1148
必此人也	-12.1148
竹使符	-12.1148
後梁開平元年	-12.1149
武王伐紂	-12.115
橐駝	-12.115
幍	-12.115
開耀元年	-12.115
坱	-12.115
保據江	-12.1151
吾丘夀王	-12.1151
靚	-12.1151
伋	-12.1152
濛	-12.1153
圠	-12.1153
皐	-12.1155
糵	-12.1157
辭氣不屈	-12.1157
晻	-12.1157
佛圖澄	-12.1157
如是則下之	-12.1157
媒糵	-12.1157
苐	-12.1157
黌	-12.1157
為鏡可以	-12.1159
蘇佐明	-12.1159
徹樂減膳	-12.1163
契刀錯刀	-12.1165
襃成君	-12.1165
養死士	-12.1168
蒼梧王	-12.1171
辯士蒯徹	-12.1173
誰敢不	-12.1175
鍤	-12.1175
潾	-12.1175
孫寳傳	-12.1178
粃	-12.1179
曰古者天子	-12.1182
蘇竟傳	-12.1182
鼉	-12.1182
五覆奏	-12.1192
宣帝紀神爵	-12.1246
飾以珠	-12.1246
與朝士相	-12.1248
咸以為寃	-12.1288
盗州縣不能	-12.1307
王商傳	-12.136
法不至死	-12.1382
位至太	-12.1645
年初劉毅	-12.1711
翰林學士白居易上	-12.2079
曰恭皇	-12.2259
克融輩	-12.2813
郴	-12.3307
怨望誹謗	-12.3726
謩綽有祖風	-12.3801
潞	-12.3811
不血食矣	-12.5379
陳宣帝八失	-12.5927
美女以實後宫	-12.5933
謀成尊號事	-12.5952
裴俠清慎	-12.598
太子叔寳欲以江總為詹事	-12.5986
歐陽歙坐	-12.5986
遘	-12.5989
皆小功五月	-12.5992
以寡擊衆	-12.5996
性不喜人諌	-12.5999
蜀中文學復盛	-12.5999
韓暹楊奉	-12.5999
修孔子舊廟	-12.6002
增峻京城	-12.6002
躋僖公	-12.6005
鄭文貞公魏	-12.6011
僰	-12.6011
其君禹後	-12.6011
莋馬僰僮	-12.6011
先破秦入咸陽	-12.6014
張元素諌太子	-12.6014
罪當萬死	-12.6018
角立傑出	-12.6018
宜造運船	-12.6018
習與體成	-12.6018
櫨	-12.602
䇿免光為庶人以	-12.6021
以邙山之㨗	-12.6021
后淫亂干預國政	-12.6021
之罪九年岷州都督	-12.6021
免則人人犯法安可復禁乎我於舊勲未	-12.6021
庶子張元素	-12.6021
徐瑶常謙	-12.6021
此不敢赦耳	-12.6021
無狀甑生坐減死徙	-12.6021
軍期李靖按之甑生恨靖誣告靖謀反按	-12.6021
借吉成昏	-12.6024
尚符璽郎	-12.6024
於凌煙閣	-12.6024
賢女弟為昭儀	-12.6024
永初四年鄧隲	-12.6027
於進用羣材滯淹	-12.6027
㸑	-12.6027
懋	-12.6027
之務習先聖之術者縣次續食令與計偕	-12.6027
輿應機辨畫	-12.6027
兼中書門下之職	-12.6027
威聲太重	-12.6027
張綱獨埋	-12.6027
為書示衆	-12.6027
復收用好以辯給取人不得敦實之士	-12.603
斯須而盡	-12.603
琉璃盤徑	-12.603
第門車馬輻輳	-12.603
詔羣臣極言得失	-12.603
鄭光荘吏	-12.603
在今辰州	-12.6033
仇家爭噉	-12.6033
勿豫人事	-12.6033
安邊為務	-12.6033
浟	-12.6033
魁頭露紒	-12.6033
而欺奪之	-12.6036
之誅豈不哀哉	-12.6036
以忠義感激將	-12.6036
光擅廢立主	-12.6036
名於琉璃瓶	-12.6036
欲示威淮北	-12.6036
歋	-12.6036
涇王從敏	-12.6036
能容賢士	-12.6036
自比晉帝	-12.6036
不識大體求禮曰如姚璹為識大體者邪	-12.604
肴	-12.604
刻板印	-12.604
延載元年豆盧欽望請京官九品	-12.604
禮謂欽望曰明公禄厚輸之無傷卑官貧	-12.604
五藏皆出流血被地	-12.604
兼聽則明偏信則暗	-12.604
威襲父土地	-12.604
序進郎吏	-12.604
處懷期物自有由來	-12.604
輟膳三日	-12.604
廡	-12.6041
諮諏善道	-12.6043
因置笏於	-12.6043
奈何不使其知而欺奪之乎	-12.6043
鞏	-12.6043
請剖心以明皇嗣不反即引佩刀自剖其	-12.6043
鐡鎻横	-12.6043
二算不事	-12.6043
唐莊宗周世宗	-12.6043
師古曰即就也就	-12.6043
把貎醜	-12.6043
晉齊王不勝屈辱	-12.6043
有告皇嗣潛有異謀者	-12.6043
桑維翰從容指畫軍事	-12.6043
楊剥皮	-12.6043
欲起勢立威	-12.6043
跼	-12.6043
過公除即事	-12.6043
魏髙祖以久旱	-12.6043
為共皇立	-12.6046
集王宗翰	-12.6046
時兵火之後	-12.6046
魏邵陵厲公正始七年	-12.6046
使汝至此即命俊臣停推睿宗由是得免	-12.6046
六貴同朝勢必相圖	-12.6046
内五藏以桑皮線縫之傅以藥經宿始蘇	-12.6046
參佐多避事	-12.6046
奏立聖徳碑	-12.6046
家無餘蓄惟一老蒼頭請自鬻以辦喪事	-12.6046
洗禄兒	-12.6046
疾俗吏苛刻	-12.6046
禮院奏禘祭祝文	-12.6046
者小所棄者大望垂矜錄明皇深納之薨	-12.6046
請早立嗣君	-12.6046
以材官蹶張從髙帝	-12.6048
詹	-12.6049
罪誠當死但陛下使人遺之而受乃䧟人	-12.6049
豆盧欽望	-12.6049
北來諸軍乃飛渡江	-12.6049
攤逃之弊	-12.6049
㑹稽王道子專權奢縱	-12.6049
上便宜三事	-12.6049
二祖四宗	-12.6049
以固權寵之術	-12.6049
劉氏當興李氏為輔	-12.6049
匡復之勲	-12.6049
吉甫善逢迎	-12.6049
喜文辭善武藝	-12.6049
太后委政宰輔	-12.6049
奏用循資格	-12.6049
子同産子者	-12.6049
官以補郡吏	-12.6049
宣宗聰察強記	-12.6049
李訓鄭注連逐三相	-12.6049
柸	-12.6049
極傾諂之態	-12.6049
清詔使兾州	-12.6049
稱王莽功徳比周公	-12.6049
絳鯁直	-12.6049
莫敢矯其非	-12.6049
言稅銀之利	-12.6049
誹謗訞言之罪	-12.6049
趙王虎作太武殿	-12.6049
願以昭武讓	-12.6049
犍	-12.6052
者大豈可同之常人也弼乃頓首謝不及	-12.6052
槥	-12.6052
乃已郾至訓卒治兵作	-12.6052
事皆然何憂不治	-12.6052
告之曰裴矩能當官力争不為面從儻	-12.6052
史受絹一匹太宗欲殺之民部尚書裴矩	-12.6052
稱引亡秦	-12.6052
殺受賂之吏	-12.6052
斑	-12.6052
欲誅樊愛能等以肅軍政猶豫未决	-12.6052
縦	-12.6052
罷承璀中尉降	-12.6052
行不易之典使將帥有所懲勸間二日	-12.6052
體幸全亦何所恨弟思自勉勵為國為家	-12.6052
七大夫以上皆	-12.6052
威徳至盛	-12.6052
宰相迭秉筆以處政事	-12.6052
晦日設祭	-12.6052
竇貞固蘇禹珪	-12.6052
絇	-12.6052
門監盧懐慎疾亟上表薦宋璟李傑李朝	-12.6052
開府置官屬	-12.6052
𢎞昭不欲舊人在帝側	-12.6052
有輕朝廷之志	-12.6055
舉刀按矟夾道羅列命弼冒出其間弼戰	-12.6055
母以子貴宜	-12.6055
帝始御中興殿	-12.6055
譲	-12.6055
免冠頓首謝	-12.6055
省集議奏聞	-12.6055
臣各為其主用	-12.6055
蜀主以韓昭	-12.6055
修氏族志	-12.6055
天下咸望治平	-12.6055
宫門銅駝	-12.6055
愴	-12.6055
應無逺特乞降黜以保衰門前後屢陳之	-12.6055
據所有均給	-12.6055
相謂曰吾輩豈可不自愧乎遂相與輯睦	-12.6055
軍器使中外相賀	-12.6055
迹其所以然	-12.6055
以身衞恵帝	-12.6055
侯安都恃功驕	-12.6055
匭	-12.6055
常與宻議天下事	-12.6055
房元齡	-12.6055
景又啟曰臣	-12.6055
書院於蓬萊殿側	-12.6055
李徳裕請置備邊庫	-12.6055
椎冰以備周兵之逼	-12.6055
歲入錢帛十	-12.6055
涉佞䛕	-12.6055
為性命忍須	-12.6055
蕭倣封還	-12.6055
衣紫袍以絶羣疑	-12.6055
詔太廟四時之祭	-12.6055
識悟過人	-12.6055
頭㑹箕斂	-12.6055
㬰	-12.6056
蠭	-12.6057
内侯三老五更皆以二千石禄養終厥身	-12.6058
韋巨源	-12.6058
挟	-12.6058
日磾以上公之尊秉髦節之使	-12.6058
蛤	-12.6058
春秋合誠圖曰	-12.6058
薛訥白衣攝	-12.6058
將惰卒始知所懼不行姑息之政矣世宗	-12.6058
蛉	-12.6058
假子及崇韜存乂得罪從	-12.6058
吏部前有馬裴後有盧李	-12.6058
足畏也返顧外衆舉手大呼亂兵皆潰擒	-12.6058
馬直軍士王温作亂	-12.6058
以柔佞得幸	-12.6058
以死送使者	-12.6058
以重陽宴近臣於宣華苑酒酣嘉王宗夀	-12.6058
南北司如水火	-12.6058
南陽太守成瑨	-12.6058
墀入至敏中㕔問其事見皥	-12.6058
庾傳素等各保寵禄無敢規正	-12.6058
張永徳侍側	-12.6058
李璨與安都	-12.6058
杞忌張鎰	-12.6058
棲金雀	-12.6058
河南南陽不可問	-12.6058
漢舊儀云	-12.6058
為威虐務狥蜀主之欲以盗其權宰相王	-12.6058
眯	-12.6058
簡子以無恤為	-12.6058
縱火焚吴船	-12.6058
臺中皆稱其能	-12.6058
與郭子儀齊名	-12.6058
行婦禮自	-12.6058
賜沁諾爾	-12.6058
運米百艘	-12.6058
開成四年文宗	-12.6058
韓昭潘在迎曰嘉王好酒悲因諧笑而罷	-12.6058
顧私恩毁忠節	-12.6058
不可或曰拒之必為患	-12.6058
外補以避之	-12.6058
拒之止於逺貶從之有不測之禍卒辭之	-12.6058
為宣歙觀察使	-12.6058
與國同體	-12.6058
隤	-12.6058
人莫能窺其	-12.6062
酗	-12.6062
擅廢立之權	-12.6062
大將軍冀河南尹不疑	-12.6062
也從謙益懼	-12.6062
周安王二十五年	-12.6062
聖主不乗危	-12.6062
諸校曰主上以王温之故俟鄴都平定盡	-12.6062
負我附崇韜存乂又教王温反欲何	-12.6062
京兆尹張敞舍鶡雀飛集丞相府	-12.6062
子給事中申議之申招權受賂時人謂之	-12.6062
歸語汝主	-12.6062
用事從謙以叔父事之睦王存乂以從謙	-12.6062
親軍分置四指揮號從馬直	-12.6062
謙自軍使積功至指揮使郭	-12.6062
選諸軍驍勇者	-12.6062
不摧折者	-12.6062
之為宋公也謝瞻為宋臺中書侍	-12.6062
佐請禮部員外郎韋	-12.6062
俚䙝慢無所不至蜀主樂之時樞密使宋	-12.6062
偝	-12.6062
割濠泗	-12.6062
國史于石	-12.6062
堰成而復	-12.6062
奮二郡之兵	-12.6062
嫁之令女	-12.6062
宋謝瞻乞	-12.6062
室之邑必有	-12.6062
廵狩四郊	-12.6062
强弱異勢	-12.6062
恨不斬汝	-12.6062
敕使墓戸	-12.6062
時晦權遇已重自彭城還都迎家賔客輻	-12.6062
有變公先棄衆自去衆將何依知訓乃止	-12.6062
李璋方嚴	-12.6062
楊邠求解樞宻	-12.6062
欲取名家才望之士為	-12.6062
武關山為地門	-12.6062
殷挾震主之	-12.6062
母數戒其	-12.6062
河口置倉	-12.6062
濺	-12.6062
為人望所屬李榖時為轉運使太祖數以	-12.6062
王播進羨餘絹	-12.6062
盡死以報徳	-12.6062
盡節為對太祖以是賢之即位首用為相	-12.6062
省僦車錢	-12.6062
突厥沙鉢略可汗	-12.6062
與諸李叙昭穆	-12.6062
蜀安重霸勸王承休	-12.6062
詔諭兩川	-12.6062
豆盧瑑	-12.6062
起太華殿	-12.6062
跂	-12.6062
踈忌宗室	-12.6062
遂王嫡子	-12.6062
遽廢正嫡之禮乎敏中怒甚皥辭氣愈厲	-12.6062
郅惲說太子	-12.6062
部兵莫敢不盡死	-12.6062
鍾之臧臧繦	-12.6062
闍	-12.6062
陳伐魏取陳蔡之	-12.6062
願備藩國	-12.6062
姨	-12.6064
今幸而破亡	-12.6065
尅	-12.6065
優假將卒	-12.6065
安堵復業	-12.6065
御史中丞徐陵為	-12.6065
當與卿議之	-12.6065
立皇子承祐	-12.6065
胸	-12.6065
自是非人心太猛無上心太猛既而釋之	-12.6065
艶	-12.6065
音工外反	-12.6065
元氣運平四時尚書出納王命賦政四海	-12.6065
擥	-12.6065
若曹家之所有宜盡市酒肉勿	-12.6065
計也由是親軍皆不自安	-12.6065
五日一聽事	-12.6065
光琦相結宰相議事有與光琦異者令渙	-12.6065
捨繩墨而意裁曲直棄權衡而手揣	-12.6065
掘地為阬	-12.6065
揭	-12.6065
雖甚精微不能無謬又曰	-12.6065
入爭之全忠見昭宗曰趙崇輕薄之魁王	-12.6065
初用夏正	-12.6065
匙	-12.6065
天䇿上將	-12.6065
對親舊有怨言	-12.6065
廸	-12.6065
後梁貞明二年吳宿衞將馬謙李球	-12.6065
披輿地圖	-12.6065
敬宗於河橋	-12.6065
有召父後有杜母	-12.6065
海丞果丞	-12.6065
立雖有熊羆之士百萬之衆安得而用之	-12.6065
竒貨賣與劉崇耳悉斬之	-12.6065
累朝宿將非不能戰今望風奔遁者無	-12.6065
維翰有廢立之志	-12.6065
茍得間則	-12.6065
豈從汝反邪	-12.6065
重則多作輕	-12.6065
重征鹽商	-12.6065
陕	-12.6065
餉遺洛中貴要	-12.6065
小才伎數之人	-12.6065
急墀舉手加顙歎皥孤直明日皥坐貶官	-12.6065
曰作事不可在人後故	-12.6065
為守禦之備	-12.6065
發於倉猝決意無疑於是大臣人人莫能	-12.6065
膏粱子弟	-12.6065
軺	-12.6066
儼以諌諍得罪	-12.6068
來朝獻雅樂對三雍宫	-12.6068
為長夜之飲	-12.6068
者且繫由是人多怨者時璟與	-12.6068
閤内奏彈	-12.6068
暝	-12.6068
軿	-12.6068
可平也不作髙鳥盡良	-12.6068
園李中堂	-12.6068
蒼梧王元徽	-12.6068
藏邪熲云必不然	-12.6068
謂侍臣曰弼將伐陳謂髙熲曰陳叔	-12.6068
吾輩位髙責重事亦堪憂衆惕息不敢應	-12.6068
坐不垂堂	-12.6068
士負物而詬曰吾妻子已殍死得此何爲	-12.6068
外無救援	-12.6068
嘯	-12.6068
尚書猶天之有北斗也斗為天喉舌尚書	-12.6068
峯	-12.6068
攤	-12.6068
曰晟山東鄙儒文章不如公詼諧不如公	-12.6068
熒惑入南斗	-12.6068
縈	-12.6068
行進退隨愛憎之情離合繫異同之趣是	-12.6068
詐不如公然主上使公與齊王遊處	-12.6068
捍	-12.6068
與諸相議事渙從旁指陳是非餘慶怒叱	-12.6068
負國生降	-12.6068
􁂄	-12.6068
世宗由是重其器識未幾遷左	-12.6068
事無擁滯	-12.6068
以一身易十囚之死	-12.6068
以仁義為扞蔽	-12.6068
以李綱孫伏伽為第一	-12.6068
作定昆池	-12.6068
其方人以為枕出罽賔	-12.6068
别置推事院	-12.6068
厄三七之間	-12.6068
同光元年晉王即皇帝位國號大唐	-12.6068
嗇夫喋喋利口	-12.6068
封蕭何六世孫	-12.6068
崔元略以諸父事内	-12.6068
嵑	-12.6068
希烈書名而已	-12.6068
師子封牛	-12.6068
庾翼以滅戎取蜀為己任	-12.6068
張邵不徃	-12.6068
心以祭死者	-12.6068
旐	-12.6068
是以職司之内無成功君臣之際無定分	-12.6068
有識以上皆	-12.6068
李倣專制朝政	-12.6068
杜元潁李紳	-12.6068
棓	-12.6068
欲以䜟㫁	-12.6068
毼	-12.6068
沙畫棺	-12.6068
治書侍御史權萬紀	-12.6068
渝關之險	-12.6068
瑒	-12.6068
皆委尚書省奏擬	-12.6068
盡鍾鳴則息	-12.6068
盡鼓鳴則起晝	-12.6068
移鎮樂鄉	-12.6068
統葉䕶	-12.6068
而行之亦不廢	-12.6068
耽之曰蔡	-12.6068
肯随牒舉選	-12.6068
胡藩言於裕曰	-12.6068
茹灋珍	-12.6068
衡山敕郡縣為之築室於山中給三品料	-12.6068
論語孝經	-12.6068
論遷都利害	-12.6068
譙王周戴	-12.6068
豈若東門之	-12.6068
跂行喙息	-12.6068
軨	-12.6068
輣	-12.6068
酲	-12.6068
野盡山窮	-12.6068
非從來征伐之意天下其誰不解體乎王	-12.6068
麫	-12.6068
齊王與太后皇后	-12.6068
􁪒	-12.6068
佽	-12.607
建元三年武帝	-12.6071
専伺時變	-12.6071
不欲朝廷以愛憎行法	-12.6071
使於漢好辭	-12.6071
及聞崇奏喜問卿安從知之對曰知古	-12.6071
始安王遥光	-12.6071
臣未及問之耳明皇始以崇必為其子	-12.6071
以本官為河東節度副使張承業深惡之	-12.6071
惟才是與	-12.6071
朕甚愍之	-12.6071
王偉勸侯景	-12.6071
結同府在己上者延巳稍以計逐之延巳	-12.6071
自代昭宗欲從之崔𦙍惡其分	-12.6071
讒人交構	-12.6071
趙王彭祖傳	-12.6071
以私財饗士天成	-12.6071
何后后泣曰自今大家夫婦委身全忠矣	-12.6071
其道逺多瘴癘宦官董秀掌樞宻少遊請	-12.6071
廆	-12.6071
皇閣徙倚歎息曰客星入翼軫今必敗矣	-12.6071
秉權日乆	-12.6071
三七二百一十嵗	-12.6071
之憲宗命宰相闔中書四門搜掩盡得姦	-12.6071
人之云亡邦國殄	-12.6071
仇士良請以開府廕	-12.6071
以非道取宰相	-12.6071
伊蒲塞	-12.6071
何以取信於後	-12.6071
使袁從範	-12.6071
八年初李仲言流象州	-12.6071
劉蕡對䇿	-12.6071
南宫三品兩省給舎以上各舉	-12.6071
四方賂遺無虚日中書舍人李吉甫言其	-12.6071
壬辰詔	-12.6071
外倚賊勢	-12.6071
太宗厲精求治	-12.6071
奉啟於武帝	-12.6071
子壯則出	-12.6071
庾亮鎮武昌	-12.6071
朔臯不根持論	-12.6071
樠	-12.6071
欒布之儔	-12.6071
武五子傳	-12.6071
毛文錫爭權	-12.6071
渙雷州司户尋賜死籍沒家財凡數千萬	-12.6071
温大陳兵衞延見朝	-12.6071
漢世良吏於是爲盛	-12.6071
火生石中	-12.6071
為八闗十六子	-12.6071
爲政樂不可支	-12.6071
王尊劾奏丞相衡	-12.6071
生猜貳	-12.6071
竸以利進	-12.6071
等欲延唐祚	-12.6071
臨朝日昃不倦	-12.6071
范𢎞之論殷浩	-12.6071
表求封南越王	-12.6071
褉	-12.6071
請定齊律	-12.6071
議大夫知開封府事	-12.6071
議與朱全忠和	-12.6071
麟徳二年髙宗	-12.6071
元嘉十七年彭城王義康	-12.6071
口誦堯舜之言	-12.6071
各將二千人	-12.6071
天下利害嘗有闕求其人未得乃自領之	-12.6071
死矣及永嘉之末何氏無遺種東晉	-12.6071
鞾	-12.6071
曰陛下不以臣不肖置	-12.6074
滇音顛	-12.6074
來乃以泌為江西	-12.6074
官且屬少遊使善待之	-12.6074
少遊所俟朕決意除載當有信報卿可束	-12.6074
惡錢江淮間惡錢尤甚璟以監察御史蕭	-12.6074
入耳無所不盡公終久何必不得弼力何	-12.6074
廣陵又圖荆州皆作亂之地意終不改也	-12.6074
發喪宣遺制	-12.6074
胝	-12.6074
􁊀	-12.6074
三萬兩匹而賞軍之費計應用五十萬緡	-12.6074
執政請據屋為率無問士	-12.6074
常伯侍中也	-12.6074
清泰元年吳蔣延徽敗閩兵	-12.6074
萬嵗舞蹈泣而稱臣翌日又獻大筆三十	-12.6074
請率京城民財以足之數日僅得數萬緡	-12.6074
鳯翔也許軍士以入洛人賞錢百緡既至	-12.6074
不自言陛下誰從得之憲宗曰吉甫宻奏	-12.6074
之然後成喪將士皆感泣	-12.6074
之論稱絪為佳士恐必不然或者同列欲	-12.6074
仁傑曰彼母如此豈可復使之有萬里之	-12.6074
千秋萬嵗後	-12.6074
唐亡不能復取	-12.6074
如公之能適足為國家之禍耳馮延巳等	-12.6074
安金藏剖心	-12.6074
宜立長君	-12.6074
念疇昔之	-12.6074
怒形於色憬黙而無言䞇罷為太子賔客	-12.6074
朝政疾寵忌前願陛	-12.6074
漢主命判六軍秦王𢎞度募宿衛兵千人	-12.6074
王庭湊以節鉞授之由是再失河朔訖	-12.6074
相皆庸才無逺略史憲誠	-12.6074
自居及僦者預借五月僦直從之	-12.6074
諸道兵馬元帥	-12.6074
逼殺田布朝廷不能討遂	-12.6074
魏兵且至元帝	-12.6074
鳳翔欲用偓為相偓薦崇及兵部侍郎王	-12.6074
儉以足用	-12.6074
執左道以亂政	-12.6074
監軍不得預軍政	-12.6074
立子以嫡不以長	-12.6074
螺	-12.6074
載子仲武内外引薦數日改宣歙觀察使	-12.6074
鎮寧節度使郭榮	-12.6074
陳少遊以納賄	-12.6074
䝉衝鬬艦	-12.6074
一篇朕將覽焉比部郎中王朴獻䇿以為	-12.6074
上奏其畧曰	-12.6074
不可以恩信誘必當以强兵制之然彼自	-12.6074
不復任民官	-12.6074
付京兆杖殺之	-12.6074
以問侍中崔光光	-12.6074
以四宅輸官	-12.6074
六年西川節度使崔安潛	-12.6074
冡象祁連	-12.6074
冬夏有雪	-12.6074
凡攻取之道必先其易者唐與吾接境	-12.6074
前有趙張後有三王	-12.6074
勢使氣未嘗更戰陳聞當出征	-12.6074
士皆長安富家子賂宦官竄名軍籍厚得	-12.6074
太白入井自為渇	-12.6074
宋道弼景務脩	-12.6074
州欲宣詔㫖希烈使其養子千餘人環繞	-12.6074
平之敗力竭氣	-12.6074
年晉李太后	-12.6074
弱未須大舉且以輕兵擾之南人懦怯聞	-12.6074
張允上駮赦論	-12.6074
張承範等將神	-12.6074
張藴古上大寶箴	-12.6074
後又云和糴而實强取之	-12.6074
復位宦官之力	-12.6074
意任之訓或在中書或在翰林天下事皆	-12.6074
慮天下不足定	-12.6074
所犯在赦	-12.6074
於人若干年矣李靈曜據汴州作亂公私	-12.6074
有傳禪之志	-12.6074
有司以蕡指切左右不敢以聞	-12.6074
東彼必奔走而救之奔走之間可以知其	-12.6074
柱下方書	-12.6074
樂陵侯史髙以外屬	-12.6074
機失於遙制	-12.6074
歇後鄭五作	-12.6074
歲終獻羨餘	-12.6074
永定二年北齊	-12.6074
法江南亦易取也得江南則嶺南巴蜀可	-12.6074
激濁揚清	-12.6074
為邊患宜且以為後圖俟天下既平然後	-12.6074
牧馬厮役	-12.6074
獻雉頭裘	-12.6074
珍臺閒	-12.6074
瑩在四五之間	-12.6074
璠	-12.6074
百草為不芳	-12.6074
相得甚歡	-12.6074
秣陵老人	-12.6074
立漕法十條	-12.6074
竹林七賢	-12.6074
縣侯位視	-12.6074
聞卿言必相危害尼曰伯蔚比聞我言自	-12.6074
能文而跌蕩不拘武帝初踐阼擢為僕射	-12.6074
自耕百畆	-12.6074
至移兵攻之席卷可平矣惟河東必死之	-12.6074
臺省長官各舉其屬	-12.6074
觀釁而動	-12.6074
誹	-12.6074
請益兵詔	-12.6074
講武於驪山之下	-12.6074
賜但華衣怒馬	-12.6074
起䳨儀殿	-12.6074
輩承順其風指惟恐不逮自中尉樞密禁	-12.6074
遮虜障	-12.6074
避親故之嫌	-12.6074
郭璞復上䟽請	-12.6074
鈍如椎	-12.6074
鍳	-12.6074
開屯田八十餘所	-12.6074
陳蟠叟	-12.6074
陸贄贄上奏以為	-12.6074
霸府元僚	-12.6074
非北司之天	-12.6074
顯徳五年唐主	-12.6074
饟	-12.6074
龍眼荔支	-12.6074
古不墓祭	-12.6076
駝	-12.6077
吾撫之不暇尚恐其驚鄂地險民雜夷俗	-12.6077
闘	-12.6077
不忠之門妾與公何面目見將士乎趣命	-12.6077
人震恐太后及福王繼鵬泣謂璘曰文傑	-12.6077
光和元年初開西邸賣官	-12.6077
咤	-12.6077
城遂圍建州閩主璘遣驃騎大將軍王延	-12.6077
奉璽綬禪位于	-12.6077
宗由是信延齡而不直	-12.6077
曰誠然絪必不至此非卿言朕幾誤處分	-12.6077
更熟察之勿使人謂陛下信讒也憲宗良	-12.6077
淬	-12.6077
目重瞳子	-12.6077
稱上黨乏糧就食山東為人臣負朕乃爾	-12.6077
與憬約至上前極論延齡姦邪	-12.6077
薛宣傳五十三	-12.6077
遵養時賊	-12.6077
馮延巳延魯魏岑	-12.6077
其太鋭䞇曰吾上不負天子下不負所學	-12.6077
恢復前烈身致太平	-12.6077
明皇召宰相謀之	-12.6077
李漢蕭澣為	-12.6077
無所恤裴延齡日短䞇於	-12.6077
論裴延齡姦邪	-12.6077
譏彈延齡事告延齡故延齡益得以為計	-12.6077
賂之注引仲言見王守澄守澄薦於文宗	-12.6077
趙憬之入相也䞇實引之既而有憾於䞇	-12.6077
軍怏怏不得志累	-12.6077
輕蔑禮法	-12.6077
陳少遊為桂管觀察使少遊為吏	-12.6077
䤥	-12.6077
不移色不變希烈遽以身蔽之麾衆令退	-12.6077
之一舉可取	-12.6077
交若飲醇醪	-12.6077
仁罕第仁罕	-12.6077
以聚歛驟遷	-12.6077
作飛山宫	-12.6077
典兵豫政	-12.6077
刺史二千石罷還	-12.6077
剸	-12.6077
北鄉而臣事之	-12.6077
可與謀大事	-12.6077
宗恱為之罷獵	-12.6077
宰士飛禍	-12.6077
帝者諦也	-12.6077
强歛以資㓂敵	-12.6077
待遇日隆欲以仲言為諫官寘之翰林李	-12.6077
必以楚為彊	-12.6077
慙以其衆幸富貴	-12.6077
承嗣權太重	-12.6077
李泌議復府兵	-12.6077
栁範奏彈	-12.6077
潕	-12.6077
爵賞乾祐二年郭威至大梁	-12.6077
禁錮酷吏子孫	-12.6077
絶糧士卒莫有鬬志是日黄巢前鋒軍抵	-12.6077
綏及弟機	-12.6077
翰林侍講學士李	-12.6077
而誅求者殆過於	-12.6077
脊	-12.6077
自稱富平侯家人	-12.6077
自稱荆臺𨼆士	-12.6077
舉繩牀以鬬而死所部千餘人至死無一	-12.6077
觀諸子意識	-12.6077
訓三二日一入翰林講易元輿為中丞凡	-12.6077
諸將見訓皆震慴迎拜叩首	-12.6077
謂當時莫及一二年間即望宰相既而遷	-12.6077
陳壽評曰	-12.6077
頓兵堅城之下	-12.6077
馬辭曰臣受命期年僅克一城何功之有	-12.6077
切諌以為天	-12.6077
大駭曰汝滅吾族神色為之不寧者數日	-12.6077
子璽綬與人雖保富貴奈千載何盍辭之	-12.6077
實强弱然後避實擊	-12.6077
弦露刃	-12.6077
復上疏曰臣伏惟	-12.6077
戚殺戮刑免者二十餘人朝廷震栗姦猾	-12.6077
攢	-12.6077
政以賄成	-12.6077
案無所顧忌數旬之間	-12.6077
殺𦙍及鄭元規陳班并𦙍所親厚者數人	-12.6077
涇原節度使姚令言	-12.6077
王伾王叔文	-12.6077
瓠	-12.6077
皆留之惟子儀物不敢近遣兵衞送出境	-12.6077
紗單衣	-12.6077
老奴矣即歸晉陽邑邑成疾不復起後唐	-12.6077
莫知為計	-12.6077
路不拾遺堅歎曰吾始今知天下之有法	-12.6077
重之然竟以剛直為令狐綯所忌而出之	-12.6077
咫	-12.6079
道安撫大使	-12.608
㶚	-12.608
北廟崇順王	-12.608
江西觀察使魏少遊求	-12.608
葭	-12.608
太后命來俊臣鞫	-12.608
柳元怙	-12.608
主安巴堅	-12.608
使人為之雖云廢后實謀大逆請族誅之	-12.608
士卒殺逐主帥	-12.608
奉使嶺外比至	-12.608
也易曰渙汗其大號言	-12.608
互相譏揣	-12.608
任顗等叩頭	-12.608
受學於甘陵周福及即	-12.608
和帝紀永元	-12.608
天下規矩房伯武因師獲印周仲進二家	-12.608
心無適莫	-12.608
時同郡河南尹房植有名當朝鄉人為之	-12.608
曰承親帥	-12.608
由是甘陵有南北部黨人之議自此始矣	-12.608
芬	-12.608
軍法不可私名節不可虧若貸之則劉氏	-12.608
以諸道十五萬之衆裴度元臣宿望烏重	-12.608
入錢各有差	-12.608
兵請密詔天下軍鎮有兵處	-12.608
分之一於西園立庫以貯之	-12.608
又私令左右賣公卿公千萬卿五百萬	-12.608
四百石四百萬其以德次應選者半之或	-12.608
天下已太平漸宜	-12.608
安危難測	-12.608
屯守踰年竟無成功財竭力盡崔植杜元	-12.608
師不宿飽	-12.608
弄國權枉害無辜上下怨怒	-12.608
徐兖二州刺史	-12.608
悉擇軍中驍勇以自衛遣羸懦者就戰故	-12.608
應天以實不以文	-12.608
李光顔皆當時名	-12.608
狄仁傑請代鄭崇質使絶域儀鳯元年	-12.608
知樞密院殷崇義	-12.608
翬	-12.608
自是稍稍下遷	-12.608
下白旗滿野不見其際	-12.6081
之中限八人逃死穆宗方荒宴不以國事	-12.6081
僱	-12.6081
剉	-12.6081
又使人邀真卿於道不及真卿與其子書	-12.6081
四年議者以唐援兵尚	-12.6081
尤甚與人書疏詞禮簡傲河内王尼見綏	-12.6081
或釋之則誰不保身而玩冦乎願陛下割	-12.6081
擣	-12.6081
殺翰林醫官	-12.6081
沙土曰幕	-12.6081
翁識量耳安足與成大	-12.6081
者旬日此田	-12.6081
計陛下必盡知之豈宜寘之近侍文宗曰	-12.6081
不欲以郭后祔憲宗有司請	-12.6081
之方未得其要寢食不忘又自唐晉以來	-12.6081
京副留守	-12.6081
令刻名印用之	-12.6081
以李徳裕同平章事充	-12.6081
以金帛雇病坊貧人代行往往不能操兵	-12.6081
允歴事五帝	-12.6081
充西川節度使謩為相議事於	-12.6081
周墀以直言入相	-12.6081
四世為天下母	-12.6081
堅馳使赦之不及與鄧羌同志疾惡	-12.6081
如淳曰律諸當	-12.6081
嶬	-12.6081
巂	-12.6081
常夢錫屢言延巳等浮誕不可信唐主不	-12.6081
并袁履謙	-12.6081
廕	-12.6081
愈堅故不染於二公之難文帝聞而嘉之	-12.6081
意遂可其奏軍士落籍者衆皆聚山澤	-12.6081
承範等至潼關	-12.6081
揚雄校獵賦云	-12.6081
撰氏族志	-12.6081
有司奏立長秋宫	-12.6081
有皮裏春秋	-12.6081
氣薄林甫為人竟不之詣林甫恨之益深	-12.6081
為皇太女	-12.6081
相或委曲規諷謩獨正言無所避宣宗	-12.6081
相而國家至此不可謂之無過	-12.6081
禁錮傅遊藝等四人差輕子孫不聽近任	-12.6081
罪實在予	-12.6081
置使以領之	-12.6081
習射於顯徳殿	-12.6081
致君堯舜何意今日自為小朝邪衆黙然	-12.6081
蕡由是不得仕於朝終於使府御史	-12.6081
薛貽矩為押金	-12.6081
蜀幽并皆阻聲教未能混壹宜命近臣著	-12.6081
融速求富貴	-12.6081
言似忠陛下不悟國必亡矣及臣服	-12.6081
詡爲朝歌長	-12.6081
賈父來晚使我先反	-12.6081
適讀曰嫡	-12.6081
鐀	-12.6081
顧王涯涯對曰可	-12.6081
魏魏世祖聞之賜慧龍璽書曰劉義隆畏	-12.6081
上封事者多訐人細事	-12.6081
不勞人以市恩	-12.6081
不得月支要領	-12.6081
乞解使務	-12.6081
代行祭事	-12.6081
伶宦求租庸使	-12.6081
作謗書以傾	-12.6081
使安帝作手詔	-12.6081
元帝命王導升	-12.6081
出畋稍希	-12.6081
功名損於治郡	-12.6081
南燕髙雅之	-12.6081
卞射武戲	-12.6081
各如其帝色	-12.6081
后家犯惡逆	-12.6081
吾與將軍如左右手	-12.6081
呉主頗悟太子和	-12.6081
安重誨恃恩驕横	-12.6081
宿衛之士曰彍騎	-12.6081
專以賣官為事	-12.6081
廢和立亮	-12.6081
引司農金錢繒帛	-12.6081
弮	-12.6081
惎	-12.6081
是吾必死之	-12.6081
李希烈自稱天下都元帥	-12.6081
桓𤣥早受禪	-12.6081
植為安鄉侯	-12.6081
歉	-12.6081
段后生子	-12.6081
沈淵表百官	-12.6081
犒賜不豐	-12.6081
知樞密德裕	-12.6081
縰	-12.6081
胡之強弱	-12.6081
臥	-12.6081
苦河南地熱	-12.6081
詣陸贄求遷	-12.6081
請太宗為天可汗	-12.6081
謂宫之外門為司馬門	-12.6081
造萬金堂於西園	-12.6081
逢吉恐李紳量移	-12.6081
鄭顥營求作相甚切	-12.6081
馬希崇帥	-12.6081
髙宗出畋遇雨	-12.6081
出為武陵内史檀道濟	-12.6082
瞿	-12.6083
詔有司立原廟	-12.6083
滇	-12.6083
之檢柙鄉曲之常人耳惡足以居斯位邪	-12.6083
選三公也務於清慤謹慎循常習故者是	-12.6083
崔廷勲以兵	-12.6084
繒絮食物	-12.6084
大業二年楚景武公楊素雖有大功特為	-12.6084
所猜忌外示殊禮内情甚薄	-12.6084
曰陛下父子之間臣	-12.6084
嬉戲無度	-12.6084
恂守河内以	-12.6084
莫測其所為	-12.6084
非用威刑不能致治政貴知變	-12.6084
鹽鐡轉運	-12.6084
以王伾為左散騎常侍王叔文為起居	-12.6084
供軍國之用	-12.6084
小兒教以戎事過煩公憂終不戒𢎞度洞	-12.6084
注云天官書曰	-12.6084
稍敬之不得如伾出入無阻	-12.6084
都官尚書孔範	-12.6084
食以粱肉	-12.6084
不悦而無如之何	-12.6084
元興三年劉裕	-12.6084
好老荘之書	-12.6084
於嘉徳殿	-12.6084
與矯同其字從手	-12.6084
依伾伾依忠言忠言依牛昭容轉相交結	-12.6084
元和二年李錡以	-12.6084
寛而内忌	-12.6084
悉衆決戰	-12.6084
悉起而用之先是休以才能光晟以節義	-12.6084
揚揚自得	-12.6084
政矣明皇乆乃許之知古罷為工部尚書	-12.6084
汲汲如狂互相推奬曰伊曰周曰管曰葛	-12.6084
煎	-12.6084
絹五十匹	-12.6084
與林甫為敵	-12.6084
虱	-12.6084
行之外黨則韓泰栁宗元劉禹錫等主采	-12.6084
閑廐宫苑使李齊運	-12.6084
齊王景達將兵	-12.6084
世宗留心農事	-12.6084
之𤣥暉與柳璨等	-12.6084
也大戴禮曰	-12.6084
二年賈山上書	-12.6084
以天下與韋𤣥貞何	-12.6084
使帥百官備法駕詣大梁楊	-12.6084
八十餘萬田亦稱是	-12.6084
其所短取其所長	-12.6084
厝	-12.6084
及朱克融王庭湊作亂	-12.6084
善若已有之	-12.6084
夏至隂氣	-12.6084
太子建成齊王元吉	-12.6084
太守慧龍在郡十年農戰並修大著聲	-12.6084
姦臣以謝天下趙張聞之私相謂曰我輩	-12.6084
孝成趙皇后傳	-12.6084
官王皥奏宜合	-12.6084
尋以仲言為四門助教	-12.6084
屢起大獄	-12.6084
恩不加顯戮豈得全不貶黜以謝天下乎	-12.6084
憶	-12.6084
於沙陀不可為彦章所殺相與協力傾之	-12.6084
是後言財利以取貴仕者皆祖於融	-12.6084
景陵外園禮	-12.6084
曄	-12.6084
曰雖大王來亦不可啟乃自	-12.6084
欲遵太伯之事	-12.6084
汀	-12.6084
火浣布	-12.6084
為宰相乃薦姦邪以誤國亦罪人也文宗	-12.6084
爭求親暱唯司徒主簿江湛早能自疎求	-12.6084
相中害朕自知之風塵之言想不足介意	-12.6084
箎	-12.6084
茵	-12.6084
莠	-12.6084
行夜叩北城門吏不肯啟	-12.6084
議郎蔡邕對曰	-12.6084
鄧羌為御史中丞	-12.6084
金匱石室者	-12.6084
鈍	-12.6084
開平元年唐昭宣帝降御札禪位于梁	-12.6084
青龍三年明帝	-12.6084
飲醇酒求醉	-12.6084
髭	-12.6084
鳳鳴朝陽	-12.6084
令史設齋自慶	-12.6084
以盗賊滿闗東而僖宗不親政事專務	-12.6084
何徳以堪之	-12.6084
何承天撰元嘉新厯	-12.6084
再貶常州刺史	-12.6084
勁竟滅吴氏	-12.6084
匡業誦羅	-12.6084
哉東魏崔暹頗挾巧詐梁	-12.6084
在晉陽湛居守於鄴	-12.6084
太后命宰相各舉堪為	-12.6084
好與左右狎暱	-12.6084
安車以𫝊示子孫	-12.6084
定䇿國老	-12.6084
寧為天子死不	-12.6084
張道古上疏	-12.6084
徐知訓驕倨	-12.6084
文始五行武徳之舞	-12.6084
旣平隴復望蜀	-12.6084
晉王還晉陽王	-12.6084
有司請毁錡祖考家廟	-12.6084
李嶼僕夫	-12.6084
植親吏董侔下御史臺鞫之盡得植與元	-12.6084
檉柳胡桐白草	-12.6084
欲自聞其失	-12.6084
歎太樂不備	-12.6084
湛為太弟既而立太子百年湛心不平	-12.6084
禋	-12.6084
移不過三五百里	-12.6084
纓	-12.6084
義康專總朝權	-12.6084
致仕並窮困私門	-12.6084
與人奴並生	-12.6084
處置得宜	-12.6084
裒慙憤發疾	-12.6084
貴戚且斂手	-12.6084
趙光竒家問百姓樂乎對曰不樂上曰今	-12.6084
都䕶督察	-12.6084
金丹性加躁急	-12.6084
陳慶之將兵送	-12.6084
陳日食之變咎在	-12.6084
隻不耦	-12.6084
飲以醇酒	-12.6084
骨咄禄	-12.6084
鸞旗在前屬車在後	-12.6084
黃霸獨用寛和爲名	-12.6084
人伾寢陋	-12.6085
結翰林學士韋執誼及當時朝士有名	-12.6085
進資幣與之相結王叔文等	-12.6085
其所欲不拘程式士大夫畏之道路以目	-12.6085
錢百五十萬緡	-12.6085
判六軍諸衛事	-12.6087
感傷和氣	-12.6087
陛下騁六飛馳	-12.6087
元和十五年穆宗	-12.6087
者什六七	-12.6087
東平憲王蒼	-12.6087
栁宗元劉禹錫等定為死友而凌	-12.6087
為明皇所信任	-12.6087
程异等又因其黨以進日與遊處蹤跡詭	-12.6087
訴歎曰政亂如此安用宰相因謝病歸第	-12.6087
不欲言之朕與鄭絪議敕從史歸上黨續	-12.6087
令還上黨從史託言就食邢洺不時奉詔	-12.6087
克己復禮	-12.6087
囷	-12.6087
忠臣不事二君	-12.6087
持節從中都官徒千二百人	-12.6087
柿	-12.6087
父族母族妻族	-12.6087
王國之冢嫡宜親端士使之治軍已過矣	-12.6087
虎賁中郎將梁松	-12.6087
即位待郭太后禮殊薄郭太后意怏怏	-12.6087
右驍衛大將軍	-12.6087
李克誠襲䧟汝州執别駕李元平	-12.6087
此乃天意非人	-12.6087
為太子賔客分司	-12.6087
穆宗之初即位也兩河略定蕭	-12.6087
號令戰小勝則飛驛奏捷自以	-12.6087
軍其領偏師者亦置中使監陳主將不得	-12.6087
青復將六將軍	-12.6087
不用其一故當時以緋紫為榮	-12.6087
主將出降太宗以公主皇后所生特愛之	-12.6087
之仆地檻車送軍前市人爭持瓦礫擊之	-12.6087
之衆許諾乃遣數百騎迎朱泚於晉昌里	-12.6087
伺彦章過失以聞於梁主	-12.6087
勵精為治	-12.6087
含元殿設警嚴自稱權知六軍源休以使	-12.6087
啞	-12.6087
小人為徒謂之朋黨	-12.6087
彦章動相違戾百方沮撓之惟恐其有功	-12.6087
所止曰廬	-12.6087
春危困破在旦夕若鑾駕親征則將士	-12.6087
李絳奏稱陛下不責承璀	-12.6087
永嘉長公主魏徴	-12.6087
王屢以書勸晉王稱帝	-12.6087
社稷一旦傾覆留文傑何益文傑亦在側	-12.6087
紇還賞薄怨朝廷入見泚屏人	-12.6087
紫叢既謝前言曰臣所服緋刺史所借也	-12.6087
臣雖㣲賤竊	-12.6087
與卿等論天下事	-12.6087
莫窺其際	-12.6087
行姚令言與亂兵謀曰今衆無主不能持	-12.6087
褚亮姚思㢘	-12.6087
諸軍舉白幡降者列於闕前甚衆李忠臣	-12.6087
趙張悉歸功於凝由是彦章功竟無成	-12.6087
逆泚喜然猶未	-12.6087
重惜服章有司常具緋紫衣數襲從行以	-12.6087
不安韓休常力	-12.6087
主使宦者祭廬山還勞之曰卿此行甚精	-12.6087
人苦不自知	-12.6087
以漢為弱也	-12.6087
儒會白虎觀	-12.6087
兵部侍郎判户部	-12.6087
冝	-12.6087
宦者曰臣自奉詔蔬食至今唐主曰卿某	-12.6087
履上殿入朝不趨	-12.6087
市魚為羮某日市	-12.6087
忠於唐室救其患難所以老奴三十餘年	-12.6087
擇修正之士	-12.6087
曰大人為唐宰	-12.6087
曲事近戚	-12.6087
河有兩源	-12.6087
為胾何為蔬食宦者慙服倉吏	-12.6087
璇	-12.6087
當盡忠竭節	-12.6087
石唐主曰出納有數茍非掊民刻軍安得	-12.6087
立嫡以長	-12.6087
親君子逺小人	-12.6087
諸道兵討之諸道兵	-12.6087
謂人曰使吾居此數月則海内無事矣	-12.6087
豪横掠人財貨子女為百姓患猛下車收	-12.6087
蹟	-12.6087
領京兆尹特進	-12.6087
􁐰	-12.6087
㯶	-12.6087
七縱七禽	-12.6087
中外謂之二聖	-12.6087
乃安吾用韓休為社稷耳非為身也	-12.6087
人者固若是乎	-12.6087
什一税法	-12.6087
以孝謹聞乎郡國	-12.6087
作梓人傳	-12.6087
使百官各稱其職	-12.6087
侵契丹之境	-12.6087
停按察使	-12.6087
全忠之黨布列	-12.6087
其舞人執	-12.6087
内不自安問計於髙元海	-12.6087
内求諸己	-12.6087
分野有災	-12.6087
初定均田租庸調灋	-12.6087
劉裕抗表伐南燕	-12.6087
務修徳信以懷吳人	-12.6087
卧病無醫藥	-12.6087
受爵免罪	-12.6087
増新格五十三條	-12.6087
大同十一年東魏丞相	-12.6087
大王宜悉九江之	-12.6087
天平節度使宣宗之立也左軍中尉馬元	-12.6087
太子仁恕實守文之徳	-12.6087
太常少卿祖孝孫	-12.6087
姒	-12.6087
子無廢母之義	-12.6087
宋審䖍等	-12.6087
宗閔百方沮	-12.6087
導虧法從私	-12.6087
居喪無戚容	-12.6087
巍	-12.6087
建大將旗鼓	-12.6087
引輕騎迫敵營	-12.6087
張公藝九世同居	-12.6087
弹	-12.6087
從期門郎	-12.6087
恩遇冠諸宦者植與之叙宗姓宣宗賜元	-12.6087
愚以為宜如舊制	-12.6087
房景伯母	-12.6087
括富商錢	-12.6087
文宗謂宰相薦人勿問親踈	-12.6087
於舊何不逐之明皇歎曰吾貌雖	-12.6087
普思聚黨	-12.6087
李款自代	-12.6087
桓宣鎮襄陽	-12.6087
植服之以朝宣宗見而識之植變色不敢	-12.6087
民入粟於邊	-12.6087
爭棄甲投兵	-12.6087
獻食甚精	-12.6087
瓊林大盈	-12.6087
神器至重不可使負荷非才	-12.6087
神策軍士人賜	-12.6087
積勞成疾	-12.6087
第五琦請税	-12.6087
背闕而坐	-12.6087
能支愁苦如此何樂之有每有詔書優恤	-12.6087
臨鏡黙然不樂左右曰韓休為相陛下殊	-12.6087
落髮為僧	-12.6087
衆執之鏐斬行思以師友為婺州刺史	-12.6087
詔敕皆出其手	-12.6087
諲	-12.6087
諷朝廷求九錫	-12.6087
謂叚氏曰	-12.6087
賀琛啟陳四事	-12.6087
賜無度田令孜專權無上天文變異社稷	-12.6087
賣國求利	-12.6087
超黨於桓	-12.6087
遲鈍質朴	-12.6087
郅惲拒	-12.6087
關侯張飛皆	-12.6087
韓休乃能如是明皇或宫中宴樂及後苑	-12.6087
頗稔何為不樂對曰詔令不信前云兩	-12.6087
髙祖謀南侵	-12.6087
太子言某可為相某可為將幸異日用之	-12.6088
宗所䙝狎而叔文頗任事自許微知文義	-12.6088
殻	-12.609
欲西馳下峻阪	-12.609
元嘉二十七年魏	-12.609
尚方監裴匪躬	-12.609
梁天監十八年魏	-12.609
槎	-12.609
陽縣北有	-12.609
之乃還他日憲宗召李	-12.609
兠	-12.609
副使於是延朗居中用事暠雖為使長其	-12.609
房暠充樞密使	-12.609
王殷趙殷衡	-12.609
竈	-12.609
莫有知其端者藩鎮或	-12.609
冒寒暑	-12.609
劉𢎞逸薛季稜	-12.609
勲非舊濫荷寵榮位髙責重所以憂懼親	-12.609
始建國三年王莽遣	-12.609
州縣官一人不報僚佐相謂曰以令公勲	-12.609
延朗後議貢獻賂厚者先得内地賂薄者	-12.609
文本既拜	-12.609
於紫金山	-12.609
猨	-12.609
甲乙丙丁	-12.609
纇	-12.609
裕入朝至京師以徳裕	-12.609
遹	-12.609
之叢自司勲	-12.609
以絶覬覦	-12.609
外郎出為睦州刺史入謝	-12.609
多所禆益	-12.609
後周顯徳六年唐	-12.609
悃	-12.609
憂憤而卒	-12.609
牛叢趙璘輩數人使朕日聞所不聞足矣	-12.609
飛龍使唐文扆	-12.609
五年吐突承璀自行營還復	-12.609
以感諭憲王	-12.609
務舉大綱	-12.609
受先王大恩	-12.609
后曰欲用為將相仁傑對曰文學緼藉則	-12.609
吸	-12.609
塊然獨處	-12.609
奮援兵震恐城中知亡必可下矣世宗恱	-12.609
如卿何卿自為謀文傑出繼鵬伺之於啓	-12.609
崔鉉為中書侍郎同平章事	-12.609
强音其兩反	-12.609
得賜天子旌旗從千	-12.609
思𤣥賦云	-12.609
應劭曰列仙𫝊	-12.609
曰朕可方自古何等主	-12.609
有司資送倍	-12.609
沈約論曰夫	-12.609
深相結吕氏謀益	-12.609
王守恩性貪鄙專事聚	-12.609
第世宗使范質王溥就與之謀榖上疏以	-12.609
華克讓力戰自午至酉始觧士卒饑甚遂	-12.609
薛綜注西京賦云	-12.609
語移時為泚陳成敗引符命勸之	-12.609
譟燒營而潰	-12.609
金百斤馬五十匹	-12.609
釭以勇略皆為時人所重至是皆為泚用	-12.609
非我族𩔖其心必異	-12.609
鞚	-12.609
下陵上替	-12.609
不吝改過	-12.609
不擾百姓糧食皆足粟麥日賤府兵亦成	-12.609
不用田豐言	-12.609
中大通六年	-12.609
中書舎人武儒衡	-12.609
中食且盡	-12.609
之何如對曰陛下誠能用臣之言可以不	-12.609
之及暹諮事澄不復假以顔色居三日暹	-12.609
之器耶楊子稍沈靜應至令長餘得令終	-12.609
之故永徽之政百姓阜安有貞觀之	-12.609
亂兵若奉以為主則難制矣請召使從行	-12.609
亦尊禮二人恭	-12.609
以省費足食	-12.609
作賦歛出入之法	-12.609
僖宗大怒召昌業至内侍省賜死	-12.609
入仕之塗	-12.609
公備九錫之禮	-12.609
其後幸酒樂燕樂	-12.609
其道也夫人主患不推誠人臣患不竭忠	-12.609
凡天子儀制皆有降損去年號用周正朔	-12.609
分遣諸沈訪求太后	-12.609
刑法不壹	-12.609
勲散爵號	-12.609
南世嫡主上假太后令而奪之今集文武	-12.609
又令巫覡卜之多云不須舉兵自有大慶	-12.609
可輕動哉	-12.609
問泌以復府兵之䇿對曰今	-12.609
堅壁清野	-12.609
外郎者韋嗣立薦廣武令岑	-12.609
天下必肥蕭嵩奏事常順指既退吾	-12.609
太子母沈氏	-12.609
妣	-12.609
安漢公奏立	-12.609
宗曰善即命行之	-12.609
宦官用權自	-12.609
帥歩騎十萬	-12.609
從之既至數日瓌送其家亦至行思恨瓌	-12.609
徴關東卒戍京西者十七萬人計	-12.609
志𤣥閉門不納	-12.609
怨隙者因相䧟害	-12.609
應劭曰天有羽林大將軍之星	-12.609
旰厚斂以賂權貴	-12.609
明帝志慕節儉	-12.609
時人謂之北門學士	-12.609
曰今嵗禮部殊不公所取進士皆子弟無	-12.609
有能出家財助國稍多者賜之	-12.609
李晟斬文武官受朱泚寵任	-12.609
李緯為户部尚書	-12.609
比太公稱尚父	-12.609
漢王爲義帝發喪	-12.609
漢興以為秦錢重難用更令民鑄莢錢	-12.609
父子受誅罪已塞矣昔漢誅霍禹不罪霍	-12.609
牛運糧糧盡牛無所用請發左藏惡繒染	-12.609
王國寶以讒佞有寵於道子	-12.609
用使術士鄭道謙等卜之皆曰不利舉事	-12.609
畋遊無度	-12.609
百計毁裴度寶厯	-12.609
皆大驚憲宗與杜黄裳論及藩鎮黄裳曰	-12.609
皆從初諡	-12.609
盡除髙武之族	-12.609
空文耳恐聖主深居九重皆未知之也	-12.609
立命斬之無忌與褚遂良同心輔政	-12.609
筭罔論	-12.609
納穆宗大喜以示左右曰果然吾不繆知	-12.609
纈	-12.609
自居必不招物議此中䇿也更問下䇿曰	-12.609
自稱權知六軍	-12.609
舍中兒犯灋	-12.609
蕭王推赤心置人腹中	-12.609
蘓綽作大誥	-12.609
視金帛如糞壤	-12.609
觸忌諱	-12.609
詔以東都軍儲不足貸商旅富人錢	-12.609
謂左右曰韓休知否言終諫疏已至明皇	-12.609
謂房𤣥齡曰朕以	-12.609
譏切其父恨之宗閔又與	-12.609
貧不學儉	-12.609
近日官頗易得	-12.609
鎚擊瓌殺之因詣鏐與師友	-12.609
韋保衡挾恩弄權	-12.609
韋執誼為崖州司馬	-12.609
食粟二百四萬斛	-12.609
騎出入市里	-12.609
蕭至忠自託於太平公主	-12.6092
豺	-12.6093
焚香祝天	-12.6093
人建武以後乃悉用宦者自延平以來浸	-12.6093
璫之飾處常伯之任天朝政事一更其手	-12.6093
子崇諫夜泛舟	-12.6093
官罷璟為開府儀同三司頲為禮部尚書	-12.6093
後漢天福十二年唐主	-12.6093
衆決戰齊王景達不許仁贍憤邑成疾其	-12.6093
齊人轅固	-12.6093
二年初憲宗之崩宣宗疑郭太后預其謀	-12.6093
冉祖雍	-12.6093
委棄軍資器械	-12.6093
宋元嘉九年魏	-12.6093
憂公如家	-12.6093
詣許州宣慰希烈詔下舉朝失色真卿	-12.6093
之也諸君可賀矣又何怪焉聞者皆服李	-12.6093
人馬俱驚	-12.6093
以尚書右僕射王	-12.6093
天寳五載以	-12.6093
宰相意故楊嗣復	-12.6093
庸有極乎	-12.6093
戶	-12.6093
有來賀者文本曰今受弔不受賀也	-12.6093
李珏相繼罷去召淮南節度使李	-12.6093
正人如松栢特立不倚邪人如藤蘿非附	-12.6093
注云袁宏漢	-12.6093
由是諸將帥皆怨憤潞王不能察	-12.6093
皇太子春秋鼎盛聖	-12.6093
盗髙廟玉環	-12.6093
租庸副使孔謙	-12.6093
願早降明	-12.6093
也晉太康地	-12.6093
五年命西上	-12.6093
五而終其將佐至大官為名臣者甚衆	-12.6093
以供數月之費仍賜空名	-12.6093
侍太子叔文譎詭多計自言讀書知治道	-12.6093
僑	-12.6093
先帝子比皆令半楚淮陽今資送公主倍	-12.6093
失其職而上心益侈百姓皆怨苦之為人	-12.6093
娠	-12.6093
季良等五留後	-12.6093
宦官俱文珍	-12.6093
小人之幸君子之不幸	-12.6093
屯田者什五六	-12.6093
州之人以富其家或枉殺其身而取其財	-12.6093
巴酋句	-12.6093
張釋之為騎郎	-12.6093
指揮使陳道庠	-12.6093
故能得其死力	-12.6093
未聞姪為天子而	-12.6093
李林甫奏停折衝府	-12.6093
梁中大通二年	-12.6093
楊秉諫桓帝	-12.6093
武帝在江州山隂戴	-12.6093
王叔文善碁俱出入東宫	-12.6093
當州今嵗旱	-12.6093
相國總百揆	-12.6093
而戍卒應募願	-12.6093
臣披荆棘事陛下	-12.6093
蔡閑為典籖及即位	-12.6093
賀㧞岳	-12.6093
越王𢎞俶騎軍鋼甲二百	-12.6093
躁多言好自	-12.6093
軍甲五千及它兵器彬事畢亟	-12.6093
辯給以治財賦得幸於明皇始廣置諸使	-12.6093
進賢退不肖	-12.6093
門使曹彬使于	-12.6093
願以逆人資財賜浙西百姓代今年租賦	-12.6093
不受髙氏辟署	-12.6093
不意頗牧近在禁廷	-12.6093
主之竟代王彦章為北面招討使於是宿	-12.6093
五鐘皆應	-12.6093
以抑人主之情乃知真社稷之臣也妾與	-12.6093
以肥馬給獵騎	-12.6093
作徙戎論以警朝廷	-12.6093
併省内外官	-12.6093
傾巧輕佻	-12.6093
價實比今	-12.6093
入洛陽止于	-12.6093
六萬餘頭又命諸冶鑄農器糴麥種分賜	-12.6093
凍殺雀何不飛去生處樂朕今漂泊不知	-12.6093
凡選授遷徙誅賞大處分	-12.6093
則吉有林慮令潘子宻曉占候	-12.6093
則賜勲加賞	-12.6093
削平天下之志會秦州民夷有詣大梁獻	-12.6093
南山可移此判無動	-12.6093
卭竹杖	-12.6093
周子諒彈牛仙客非才	-12.6093
唱籌量沙	-12.6093
商於之地六百里	-12.6093
問何用此為暹悚然曰未得通公主澄大	-12.6093
嘉祐贓發	-12.6093
四方表奏華而不典	-12.6093
圖王霸之業	-12.6093
土功不時蝗蟲為災	-12.6093
大權悉歸中宫	-12.6093
大駕法駕小駕	-12.6093
太后䇿貢士於洛城殿	-12.6093
失守宗祧	-12.6093
奏前資官	-12.6093
如臣庶之法	-12.6093
威曰今大軍去恒州	-12.6093
威望逺達四夷	-12.6093
子姪皆仕諸朝	-12.6093
孔嚴言於殷浩曰比來衆情良可寒心	-12.6093
季舒語人曰崔暹常忿吾佞在大將軍前	-12.6093
官人猶匠之用木	-12.6093
宜謹選左右	-12.6093
宣宗素惡李徳裕之	-12.6093
對曰此陛下家事	-12.6093
對曰陛下安得亡國之	-12.6093
就使有錢亦無粟可糴未暇議復府兵也	-12.6093
尺籍伍符	-12.6093
崔叔瓉	-12.6093
已爾陛下豈可尚不留意邪梁主皆不聽	-12.6093
張衡西京賦	-12.6093
徐羡之等	-12.6093
德宗自苑北門出姜公輔叩馬言曰朱泚	-12.6093
悉令輸官	-12.6093
憤怒士卒亦不服	-12.6093
戎臣失律并坐監軍	-12.6093
才疎意廣訖無成功	-12.6093
拜伏舞蹈	-12.6093
括逃移户口	-12.6093
排擯李德裕之黨	-12.6093
揚州牧封十郡為	-12.6093
搖	-12.6093
操還軍官渡	-12.6093
明皇思徐有功用法平直	-12.6093
春種禾亦如之關中土沃而	-12.6093
楊光逺䟦扈難制	-12.6093
楊汝士與	-12.6093
楚王殷始建國	-12.6093
殿後四軍	-12.6093
淄青等十五道七十一州不申户口外毎	-12.6093
濡須塢	-12.6093
為涇帥坐弟滔之故廢處京師心	-12.6093
王君公儈	-12.6093
王緘草露布	-12.6093
生子當如孫仲謀	-12.6093
留僧二十人	-12.6093
留真卿不遣	-12.6093
益巴丘之戍	-12.6093
省務錢以足	-12.6093
立宫殿置百官	-12.6093
紳所屬皆不預焉及第者鄭朗覃之弟裴	-12.6093
縱未能推而行之又何忍罪而斥之乎李	-12.6093
羣下稱之曰殿下	-12.6093
耿夀昌	-12.6093
胛	-12.6093
自稱大閩國王	-12.6093
興尚之參懐内外雜事多委明	-12.6093
蒜	-12.6093
蕭衍内有受禪之志	-12.6093
號令天下以順討逆此萬世一時也湛大	-12.6093
西邊鎮守	-12.6093
言突厥可取之狀	-12.6093
詔公主執婦禮	-12.6093
誌	-12.6093
謗訕之罪	-12.6093
足履龜文	-12.6093
車馬填門	-12.6093
軍士月食官糧粟麥無所售其價必賤名	-12.6093
通位帝紀	-12.6093
運米泛海	-12.6093
道曰未審陛下能爲	-12.6093
遙制朝政	-12.6093
鄭顥不樂尚主	-12.6093
金印赤韍	-12.6093
錢徽掌貢舉	-12.6093
隆慮公主子	-12.6093
餐錢奉邑	-12.6093
馬貴人徳冠後宫	-12.6093
髙二十餘丈	-12.6093
髙澄遇諸塗	-12.6093
鬛	-12.6093
魏徴為太子太師	-12.6093
麥熟倍償其種其餘據時價五分増一官	-12.6093
鼠憑社貴狐藉虎威	-12.6093
武帝元封五年	-12.6095
梗	-12.6096
侍御史鄭愔	-12.6096
委任而責成功	-12.6096
何恤人言	-12.6096
傷孝子之心	-12.6096
奉巾櫛	-12.6096
誹謗之木	-12.6096
黥首繫趾	-12.6096
元興三年桓𤣥	-12.6096
之是法不信於	-12.6096
厚以金帛賂	-12.6096
五行志七中之	-12.6096
匃	-12.6096
卒皆朋黨之人良由執心不定故奸邪得	-12.6096
大巵令人破骨出之流血數升神色自若	-12.6096
成德節度使安重榮	-12.6096
着	-12.6096
貞觀十一年馬周上疏	-12.6096
遽以身蔽之	-12.6096
鏃	-12.6096
願棄人間事欲從赤松子游耳	-12.6096
乍	-12.6096
人錢八千緡滿三嵗不償京兆尹許孟容	-12.6096
北方夜半氣也	-12.6096
去則俶益危矣泌曰王但盡人子之孝良	-12.6096
小信棄大信乎憲宗乃命歸所進於有司	-12.6096
尚書令陸叡	-12.6096
支徴當州貞元二年逃户所欠錢四千餘	-12.6096
曰天下貪汙習俗已久今督將家屬多在	-12.6096
歡不治諸勲貴	-12.6096
沐猴而冠	-12.6096
泰始八年武帝與	-12.6096
洫	-12.6096
琢	-12.6096
畫其象於	-12.6096
行臺郎中杜弼以文武在位多貪汙言	-12.6096
謝琰桓伊等	-12.6096
趣讀曰促謂	-12.6096
陛下奈何於大旱中徴三十六年前逋負	-12.6096
魅	-12.6096
不及房𤣥齡康誥曰父子兄弟罪不相及	-12.6096
不效何公往而復返	-12.6096
其材浮渭㳂河而下長安自是遂丘墟矣	-12.6096
崇奨儒官	-12.6096
待詔鄭朋	-12.6096
從容言於敬宗曰	-12.6096
循王𢎞杲	-12.6096
曰設官分職各有	-12.6096
朱全忠逼昭宗遷都洛陽	-12.6096
梁太平元年齊	-12.6096
注李奇曰	-12.6096
為今之計莫若	-12.6096
畜産不可勝	-12.6096
臣得逺貶及死乃幸耳不忍見簒弑之辱	-12.6096
裕宗閔各分朋黨更相傾軋垂四十年	-12.6096
郭者悉不得行	-12.6096
雖不許全忠常令東都留守張全義繕修	-12.6096
非貽厥孫謀之道也	-12.6096
一同家人禮度	-12.6096
一官相買	-12.6096
一門有二台司	-12.6096
三人權重當時而	-12.6096
上疑其下下欺其上將以求理不亦難乎	-12.6096
不如省官省官不如省	-12.6096
不避彊禦	-12.6096
中書門下機要之司	-12.6096
事急矣臣請誑楚	-12.6096
伾叔文之黨	-12.6096
出下計髙帝曰	-12.6096
初梁主遣段凝監大軍於河上敬翔李振	-12.6096
初馮延巳以取中原之	-12.6096
前宫齊府	-12.6096
前稱房杜後稱姚宋	-12.6096
創制立事	-12.6096
勿設戲作樂	-12.6096
卜宅中土	-12.6096
厚賂趙張求為招討使翔振力	-12.6096
取之彬始拜受悉以散於親識家無留者	-12.6096
后怒賜死于家	-12.6096
后老矣不若奉嗣君為耐	-12.6096
呉越王鏐欲立中子𫝊瓘	-12.6096
唐主手表謝恩	-12.6096
唐李吉甫撰元和國計簿元和二年是	-12.6096
嗣源功髙位重	-12.6096
嚴更之署	-12.6096
大秦穆護祅僧	-12.6096
天下兵仰給縣官者八十三萬餘人比天	-12.6096
好以權譎小數接其臣下者常竊恥之卿	-12.6096
嫺	-12.6096
子龍一身都為膽也	-12.6096
孫紹宗嗣主藏奴與吏訟於御史府	-12.6096
宜得實才	-12.6096
屠唐子鄉	-12.6096
屬車八十一	-12.6096
度德量力	-12.6096
張永申坦	-12.6096
往日朝廷豈無法官莫肯糾劾中尉盡心	-12.6096
復自有子若登宸極太子必危明皇乃止	-12.6096
抑損表状	-12.6096
拜韋𤣥成為	-12.6096
括境内民兵	-12.6096
持節奉皇帝璽	-12.6096
文藝為末	-12.6096
昭宗泣謂曰勿呼萬	-12.6096
曰太子仁弱	-12.6096
曲媚姦臣	-12.6096
李吉甫撰元和國計簿上之	-12.6096
櫛	-12.6096
權輿上言度名應圖䜟宅占岡原不召而	-12.6096
欽定四庫全書通鑑總類卷十	-12.6096
歲賜告身以萬數	-12.6096
永昌元年初髙宗之世周興以	-12.6096
漢之㑹土多羣盗剽行舟無老幼必盡殺	-12.6096
為其父謀以財結中外及公武卒𢎞繼薨	-12.6096
為副元帥雖衰朽猶足為陛下扞禦北方	-12.6096
無偏無黨	-12.6096
犖	-12.6096
犬羊相聚	-12.6096
玷	-12.6096
盟而背之	-12.6096
督察吏人居千里之外戰栗如在巽前异	-12.6096
碾	-12.6096
禁錮終身	-12.6096
稱過使客越	-12.6096
笞劉叟于宫門	-12.6096
給事中段平仲	-12.6096
胡太后數幸宗戚勲貴之家	-12.6096
臭	-12.6096
舉貸誅歛	-12.6096
言叔父可殺及其自作乃過於吾	-12.6096
請税茶以足	-12.6096
議事多異同	-12.6096
豈得私出而不避宰相乎命剥色配南牙	-12.6096
貞元十九年初翰林待詔王伾善書山	-12.6096
資一兵其水旱所傷非時調發不在此數	-12.6096
賞告者錢	-12.6096
逐疫侲子之半	-12.6096
遂使逺邇肅清衝鋒䧟陳大有其人	-12.6096
鄔	-12.6096
韋處厚諌敬宗	-12.6096
魏髙陽王斌有庶妹玉儀不為其家所齒	-12.6096
鱓	-12.6096
黻	-12.6096
墠	-12.6098
空竭帑藏	-12.6099
裔宜知禮義	-12.6099
彼喜於免	-12.6099
潦	-12.6099
鑕	-12.6099
凟	-12.6099
計傾之宗泣訴於唐主唐主由是薄齊丘	-12.6099
長江天塹	-12.6099
不肯餌藥亦不將慎謂弟約曰我豈須	-12.6099
子四年周兵圍	-12.6099
投蜺天下怨海内亂	-12.6099
泝淮救之	-12.6099
稱勁才行請解禁錮參其府事朝廷許之	-12.6099
竇太后而以馮貴人配	-12.6099
諸藩鎮所蓄詔募天下	-12.6099
連年未下城中食盡齊王景達自濠州遣	-12.6099
丁士良十二年	-12.6099
京西防秋	-12.6099
徐思其宜	-12.6099
李愬謀襲蔡州	-12.6099
見形容以人自照	-12.6099
亨醢分裂又	-12.6099
免冠頓首曰	-12.6099
劉季述王仲先	-12.6099
勇如信布彊如梁籍	-12.6099
太宗曰魏徴每廷辱我后退具朝服立于	-12.6099
尚不及數子	-12.6099
徴直由陛下之明故也妾敢不賀太宗乃	-12.6099
愚於虞而智於秦	-12.6099
枳	-12.6099
耘	-12.6099
見天下之人乎	-12.6099
五代祖乎乃不毁有司籍錡家財輸京師	-12.6099
先鑿阬於	-12.6099
婦人王委曲順之亦何能為	-12.6099
招誘人情去留未定江東復有一吳翁蕭	-12.6099
梁承聖三年	-12.6099
沓	-12.6099
沼	-12.6099
淮安王神通	-12.6099
為義成節度使	-12.6099
當據吾此座屢薦於文帝文帝擢為内史	-12.6099
糞土之中	-12.6099
鞭二百配甲坊	-12.6099
㠶	-12.6099
一談一笑	-12.6099
三十内望為公輔	-12.6099
之善嫌其風節太峻	-12.6099
互有得失何為而可杜黄裳對曰王者	-12.6099
交驩太尉	-12.6099
什無二三	-12.6099
以儲偫譴官吏	-12.6099
以為人禀命有定分非智力所移唯應恭	-12.6099
以能措刑故也今陛下之政雖盡善矣然	-12.6099
使崔季舒毆	-12.6099
侮唯賞重	-12.6099
傪	-12.6099
僕射均素附宦官得貴顯為僕射自矜大	-12.6099
兵則家國兩危不留則家國兩安𦙍不從	-12.6099
内園使不避宰相	-12.6099
利其死而没	-12.6099
南八道四十九州一百四十四萬户比天	-12.6099
及莽簒位	-12.6099
召朱温來傾覆社稷使我曹流離至此老	-12.6099
可見敬宗雖年少悉察其誣謗待度益厚	-12.6099
司馬程异吏才明辨請以為楊子留後	-12.6099
名田縣道	-12.6099
喪乃以其意命弟子愿著定命論以釋之	-12.6099
器用必為正御副御	-12.6099
坐思政殿	-12.6099
塊	-12.6099
壚	-12.6099
大納貨賄凡所薦	-12.6099
太后以隂陽不和軍旅數興	-12.6099
太液池	-12.6099
契丹舒嚕后愛中子徳光	-12.6099
妄意僥倖徒虧雅道無	-12.6099
姤	-12.6099
威嚴不可仰視	-12.6099
守道而闇者不	-12.6099
室百司及民間廬	-12.6099
寧振武涇原銀夏靈鹽河東易定魏博鎮	-12.6099
帥諸軍掃平闗洛	-12.6099
年太宗問魏徴	-12.6099
延巳常笑烈祖戢兵為齷齪曰安陸所	-12.6099
弟勃與華隂	-12.6099
御延喜樓朱全忠遣牙將冦彦卿奉表	-12.6099
徴不存形迹	-12.6099
恩自恃位兼將相肩輿出迎威怒以為慢	-12.6099
所授以旌蕡直	-12.6099
指授髙崇文方略	-12.6099
推之懿宗令思禮廣引朝士許免其死	-12.6099
揩	-12.6099
數遊宴擊毬	-12.6099
日明皇從容問崇卿子才性何如今何官	-12.6099
曰辛毗有言孫劉不過使吾不為三公耳	-12.6099
有功勤名譽然皆先輸貨財	-12.6099
朋周興奏誣𤣥同言	-12.6099
朕不復為汝主	-12.6099
朱膠綾軸	-12.6099
朱𢎞昭馮贇	-12.6099
李林甫共奏彈	-12.6099
束脩之饋	-12.6099
樣	-12.6099
檢簿籍又精於巽卒獲其用李絳	-12.6099
每上封事輒削其草	-12.6099
法外税民罪同枉法	-12.6099
泛駕之馬	-12.6099
注云間關猶	-12.6099
潘承祐上書陳十	-12.6099
牂柯江江廣	-12.6099
王莽為新都侯	-12.6099
璏	-12.6099
用兵以救人死	-12.6099
畔牢愁	-12.6099
祅	-12.6099
禫	-12.6099
舸	-12.6099
鐃	-12.6099
閨	-12.6099
絰	-12.6101
飈	-12.6103
侫	-12.6103
躓	-12.6103
飄	-12.6103
汪	-12.6103
莞	-12.6103
嚢	-12.6103
埓	-12.6103
訝	-12.6103
踶	-12.6103
郿	-12.6103
􁋙	-12.6103
惬	-12.6103
湫	-12.6103
籩	-12.6103
賻	-12.6103
髐	-12.6103
无	-12.6104
饉	-12.6104
鼂	-12.6105
誎	-12.6106
吃	-12.6106
鞞	-12.6106
疵	-12.6106
航	-12.6106
䦨	-12.6106
啄	-12.6106
掎	-12.6106
楣	-12.6106
榭	-12.6106
淝	-12.6106
滓	-12.6106
熨	-12.6106
礌	-12.6106
吿	-12.6109
插	-12.6109
甖	-12.6109
貼	-12.6109
睡	-12.6109
螫	-12.6109
掬	-12.6109
渦	-12.6109
慊	-12.6109
扉	-12.6109
皛	-12.6109
蝯	-12.6109
詮	-12.6109
懟	-12.6111
縮	-12.6112
踝	-12.6112
笛	-12.6112
鋟	-12.6112
榦	-12.6112
䑛	-12.6112
䜿	-12.6112
傿	-12.6112
嫂	-12.6112
屡	-12.6112
彴	-12.6112
攣	-12.6112
灞	-12.6112
釜	-12.6112
鉥	-12.6112
鋝	-12.6112
𠻳	-12.6112
翕	-12.6115
罌	-12.6115
舳	-12.6115
只	-12.6115
烟	-12.6115
桶	-12.6115
燥	-12.6115
紐	-12.6115
飜	-12.6115
兊	-12.6115
囑	-12.6115
湓	-12.6115
線	-12.6115
謳	-12.6115
蹄	-12.6115
靁	-12.6115
姆	-12.6115
屐	-12.6115
愉	-12.6115
筵	-12.6118
㤗	-12.6118
芰	-12.6118
樽	-12.6118
鋪	-12.6118
紵	-12.6118
醬	-12.6118
鸛	-12.6118
麵	-12.6118
啻	-12.6118
綖	-12.6118
耉	-12.6118
訿	-12.6118
豸	-12.6118
􁋷	-12.6118
朏	-12.6121
茗	-12.6121
䭾	-12.6121
儈	-12.6121
塾	-12.6121
紺	-12.6121
㓕	-12.6121
筒	-12.6121
爨	-12.6121
簮	-12.6121
緬	-12.6121
褌	-12.6121
詁	-12.6121
酪	-12.6121
皦	-12.6121
縓	-12.6121
縷	-12.6121
螢	-12.6121
豉	-12.6121
輬	-12.6121
鴞	-12.6121
仭	-12.6125
淯	-12.6125
藿	-12.6125
戩	-12.6125
襖	-12.6125
㕑	-12.6125
嘖	-12.6125
贜	-12.6125
輼	-12.6125
齗	-12.6125
􁐠	-12.6125
噫	-12.6128
䋁	-12.6128
幔	-12.6128
鍥	-12.6128
絆	-12.6128
鷺	-12.6128
丱	-12.6128
廂	-12.6128
昀	-12.6128
筝	-12.6128
蔵	-12.6128
鶉	-12.6128
啜	-12.613
孱	-12.6131
猒	-12.6131
筲	-12.6131
剴	-12.6131
琱	-12.6131
叉	-12.6131
炫	-12.6131
蹛	-12.6131
璣	-12.6133
妍	-12.6134
蒐	-12.6134
藹	-12.6134
浄	-12.6134
嘶	-12.6134
斮	-12.6134
瘖	-12.6134
磯	-12.6134
迨	-12.6137
匏	-12.6137
岫	-12.6137
憯	-12.6137
疚	-12.6137
碭	-12.6137
鍪	-12.6137
頞	-12.6137
鳩	-12.6137
慨	-12.6137
逡	-12.6139
悶	-12.614
煉	-12.614
衳	-12.614
魔	-12.614
闊	-12.6141
棃	-12.6144
筦	-12.6144
繢	-12.6144
胞	-12.6144
諓	-12.6144
跱	-12.6144
熬	-12.6147
衾	-12.6147
腑	-12.6147
樐	-12.6147
鞪	-12.6147
臚	-12.6149
􁆣	-12.615
掉	-12.615
祧	-12.615
㫿	-12.615
悾	-12.615
濩	-12.615
讚	-12.615
豳	-12.615
魴	-12.6153
捋	-12.6153
篣	-12.6153
蕝	-12.6153
菌	-12.6156
濞	-12.6156
啇	-12.6162
颯	-12.6162
媪	-12.6162
挶	-12.6162
撠	-12.6162
翥	-12.6162
畚	-12.6172
鹵	-12.6174
悒	-12.6175
窗	-12.6175
湧	-12.6188
柬	-13.5844
櫬	-13.5875
𤯝	-13.588
𢡟	-13.5881
齷	-13.5882
齪	-13.5883
鼷	-13.5884
黛	-13.5885
麝	-13.5886
鸂	-13.5887
鶒	-13.5888
鶄	-13.5889
鵁	-13.589
鰥	-13.5891
鯀	-13.5892
頟	-13.5893
靺	-13.5894
阽	-13.5895
闐	-13.5896
閶	-13.5897
鐔	-13.5898
鎚	-13.5899
鎗	-13.59
鋼	-13.5901
銚	-13.5902
鉛	-13.5903
醻	-13.5904
鄢	-13.5905
郄	-13.5906
遨	-13.5907
遛	-13.5908
逷	-13.5909
透	-13.591
蹯	-13.5911
踖	-13.5912
讋	-13.5913
謌	-13.5914
諏	-13.5915
訞	-13.5916
襤	-13.5917
褶	-13.5918
裎	-13.5919
蟹	-13.592
蜣	-13.5921
蜚	-13.5922
蜕	-13.5923
蛣	-13.5924
蘿	-13.5925
薩	-13.5926
薏	-13.5927
蔞	-13.5928
蓼	-13.5929
蒢	-13.593
菱	-13.5931
菩	-13.5932
莪	-13.5933
苡	-13.5934
芡	-13.5935
舷	-13.5936
舶	-13.5937
臝	-13.5938
臏	-13.5939
膜	-13.594
腴	-13.5941
脣	-13.5942
胾	-13.5943
胃	-13.5944
罟	-13.5945
纘	-13.5946
穊	-13.5947
纁	-13.5947
緼	-13.5948
緦	-13.5949
糠	-13.595
糚	-13.5951
粕	-13.5952
篡	-13.5953
笮	-13.5954
窆	-13.5955
礱	-13.5956
磻	-13.5957
盍	-13.5958
癩	-13.5959
疹	-13.596
璡	-13.5961
瑋	-13.5962
琊	-13.5963
琁	-13.5964
熺	-13.5965
炟	-13.5966
灃	-13.5967
瀕	-13.5968
濘	-13.5969
澭	-13.597
潯	-13.5971
溽	-13.5972
溆	-13.5973
湬	-13.5974
洙	-13.5975
泫	-13.5976
泆	-13.5977
沱	-13.5978
沗	-13.5979
汛	-13.598
毳	-13.5981
殤	-13.5982
櫩	-13.5983
阯	-13.5984
櫃	-13.5984
樅	-13.5985
楔	-13.5986
呻	-13.5987
婺	-13.5987
抛	-13.5987
撕	-13.5987
燻	-13.5987
椹	-13.5987
椁	-13.5988
棠	-13.5989
栽	-13.599
晊	-13.5991
旭	-13.5992
擗	-13.5993
摺	-13.5994
㵸	-13.5995
塉	-13.5995
湍	-13.5995
癎	-13.5995
粳	-13.5995
憔	-13.5995
慍	-13.5996
宄	-13.5997
愞	-13.5997
惚	-13.5998
惆	-13.5999
恍	-13.6
徨	-13.6001
彷	-13.6002
䧺	-13.6003
丐	-13.6003
挼	-13.6003
浞	-13.6003
廱	-13.6003
廌	-13.6004
嵬	-13.6005
崛	-13.6006
峘	-13.6007
寀	-13.6008
媛	-13.6009
娬	-13.601
渗	-13.6011
娃	-13.6011
妲	-13.6012
堧	-13.6013
堙	-13.6014
垠	-13.6015
坂	-13.6016
圎	-13.6017
圄	-13.6018
埜	-13.6019
徂	-13.6019
撿	-13.6019
澌	-13.6019
產	-13.6019
眚	-13.6019
囹	-13.6019
唳	-13.602
唇	-13.6021
努	-13.6022
厦	-13.6022
藍	-13.6023
匽	-13.6023
匐	-13.6024
甑	-13.6025
匍	-13.6025
倔	-13.6026
㒞	-13.6027
嘑	-13.6027
欋	-13.6027
瀧	-13.6027
璉	-13.6027
盌	-13.6027
罘	-13.6027
侗	-13.6027
亓	-13.6028
䳨	-13.6029
㽔	-13.603
㼐	-13.6031
㷭	-13.6032
㬋	-13.6033
㢸	-13.6034
恟	-13.6035
尃	-13.6035
帢	-13.6035
撮	-13.6035
攖	-13.6035
敫	-13.6035
旂	-13.6035
洹	-13.6035
涅	-13.6035
禿	-13.6035
竪	-13.6035
笨	-13.6035
筍	-13.6035
簴	-13.6035
紒	-13.6035
㢮	-13.6035
鷃	-13.6036
鬰	-13.6037
髒	-13.6038
驄	-13.6039
騠	-13.604
駃	-13.6041
頔	-13.6042
瓆	-13.6043
㣥	-13.6043
凥	-13.6043
囏	-13.6043
恌	-13.6043
昪	-13.6043
沫	-13.6043
泜	-13.6043
淤	-13.6043
稊	-13.6043
笲	-13.6043
錙	-13.6043
酇	-13.6044
轜	-13.6045
輈	-13.6046
軻	-13.6047
蹲	-13.6048
蹰	-13.6049
踟	-13.605
䘵	-13.6051
僴	-13.6051
劼	-13.6051
塜	-13.6051
妺	-13.6051
媵	-13.6051
嵐	-13.6051
潑	-13.6051
狭	-13.6051
珮	-13.6051
痁	-13.6051
硯	-13.6051
粣	-13.6051
罥	-13.6051
釭	-13.6051
類	-13.6051
詖	-13.6051
褓	-13.6052
裨	-13.6053
蟆	-13.6054
蚶	-13.6055
萴	-13.6056
磾	-13.6057
荃	-13.6057
詿	-13.6058
胏	-13.6058
䄠	-13.6059
倀	-13.6059
娰	-13.6059
廋	-13.6059
彡	-13.6059
憊	-13.6059
暖	-13.6059
檿	-13.6059
氅	-13.6059
洿	-13.6059
澪	-13.6059
痊	-13.6059
礚	-13.6059
稂	-13.6059
窠	-13.6059
箔	-13.6059
絁	-13.6059
緂	-13.6059
耨	-13.6059
羖	-13.606
糅	-13.6061
矅	-13.6062
皿	-13.6063
僖	-13.6064
痍	-13.6064
瑕	-13.6065
瑇	-13.6066
喑	-13.6067
㐲	-13.6067
㕔	-13.6067
㺯	-13.6067
䖵	-13.6067
倮	-13.6067
偹	-13.6067
勠	-13.6067
夣	-13.6067
娒	-13.6067
嬈	-13.6067
开	-13.6067
恊	-13.6067
暌	-13.6067
朘	-13.6067
沭	-13.6067
灕	-13.6067
町	-13.6067
睥	-13.6067
竸	-13.6067
粘	-13.6067
羶	-13.6067
翮	-13.6067
琡	-13.6067
珫	-13.6068
籖	-13.6069
牁	-13.6069
燉	-13.607
炕	-13.6071
澍	-13.6072
澈	-13.6073
鯨	-13.6074
籥	-13.6074
漚	-13.6074
覡	-13.6075
㻡	-13.6075
䦧	-13.6075
叵	-13.6075
媾	-13.6075
寗	-13.6075
慳	-13.6075
憮	-13.6075
揃	-13.6075
搆	-13.6075
撅	-13.6075
撩	-13.6075
柈	-13.6075
栝	-13.6075
栟	-13.6075
櫚	-13.6075
澘	-13.6075
焯	-13.6075
煦	-13.6075
瓮	-13.6075
祍	-13.6075
祼	-13.6075
禒	-13.6075
粒	-13.6075
羗	-13.6075
軋	-13.6075
飱	-13.6075
沁	-13.6075
杻	-13.6076
曮	-13.6077
摸	-13.6078
揄	-13.6079
徘	-13.608
徊	-13.6081
婪	-13.6082
䁬	-13.6083
䂮	-13.6083
仿	-13.6083
僄	-13.6083
儕	-13.6083
冨	-13.6083
刲	-13.6083
券	-13.6083
剺	-13.6083
匊	-13.6083
啎	-13.6083
埇	-13.6083
奩	-13.6083
帕	-13.6083
庳	-13.6083
彄	-13.6083
悺	-13.6083
抒	-13.6083
晴	-13.6083
棻	-13.6083
檣	-13.6083
欹	-13.6083
淘	-13.6083
湼	-13.6083
玳	-13.6083
瑝	-13.6083
睫	-13.6083
祤	-13.6083
祺	-13.6083
粮	-13.6083
縲	-13.6083
藤	-13.6083
邽	-13.6083
墱	-13.6083
劬	-13.6084
剌	-13.6085
凛	-13.6086
儷	-13.6087
倜	-13.6088
丏	-13.6089
鯤	-13.609
阼	-13.6091
譁	-13.6091
倢	-13.6091
櫜	-13.6091
㩧	-13.6091
剿	-13.6091
堇	-13.6091
壄	-13.6091
夲	-13.6091
嫫	-13.6091
峰	-13.6091
彠	-13.6091
忲	-13.6091
忸	-13.6091
怩	-13.6091
怫	-13.6091
憫	-13.6091
扄	-13.6091
抃	-13.6091
掞	-13.6091
搠	-13.6091
携	-13.6091
昜	-13.6091
枹	-13.6091
桮	-13.6091
棼	-13.6091
槁	-13.6091
橑	-13.6091
氓	-13.6091
沇	-13.6091
洵	-13.6091
派	-13.6091
滏	-13.6091
瀘	-13.6091
犛	-13.6091
猿	-13.6091
璙	-13.6091
痼	-13.6091
祟	-13.6091
窀	-13.6091
窕	-13.6091
糇	-13.6091
耎	-13.6091
蜜	-13.6091
騀	-13.6091
駊	-13.6092
霽	-13.6093
雎	-13.6094
鑠	-13.6095
瑄	-13.6096
蹉	-13.6096
踘	-13.6097
蕚	-13.6098
逍	-13.6099
枸	-13.6099
㟭	-13.6099
㰆	-13.6099
㽞	-13.6099
僶	-13.6099
儺	-13.6099
冷	-13.6099
剜	-13.6099
啑	-13.6099
嚼	-13.6099
嬌	-13.6099
宕	-13.6099
尿	-13.6099
嶇	-13.6099
徉	-13.6099
怳	-13.6099
摠	-13.6099
枮	-13.6099
柁	-13.6099
桁	-13.6099
桴	-13.6099
檟	-13.6099
歠	-13.6099
淅	-13.6099
濼	-13.6099
烜	-13.6099
爻	-13.6099
玼	-13.6099
睇	-13.6099
瞬	-13.6099
穸	-13.6099
緻	-13.6099
翷	-13.6099
茯	-13.6099
苓	-13.61
翌	-13.6101
縚	-13.6102
籀	-13.6103
种	-13.6104
祏	-13.6105
璃	-13.6106
党	-13.6107
瑫	-13.6107
㥽	-13.6107
佇	-13.6107
俌	-13.6107
僩	-13.6107
儶	-13.6107
刅	-13.6107
哽	-13.6107
噂	-13.6107
噓	-13.6107
圃	-13.6107
圮	-13.6107
姝	-13.6107
徜	-13.6107
忖	-13.6107
恧	-13.6107
搥	-13.6107
术	-13.6107
杠	-13.6107
栰	-13.6107
椀	-13.6107
椿	-13.6107
殳	-13.6107
沴	-13.6107
洟	-13.6107
爼	-13.6107
珝	-13.6107
甪	-13.6107
癃	-13.6107
眞	-13.6107
礬	-13.6107
礮	-13.6107
窻	-13.6107
籜	-13.6107
紡	-13.6107
緇	-13.6107
羕	-13.6107
瑚	-13.6108
琉	-13.6109
珊	-13.611
牕	-13.6111
湣	-13.6112
榔	-13.6113
桔	-13.6114
宙	-13.6115
澆	-13.6115
柧	-13.6115
䞉	-13.6115
侁	-13.6115
剕	-13.6115
剝	-13.6115
卨	-13.6115
噱	-13.6115
姏	-13.6115
姐	-13.6115
孕	-13.6115
忱	-13.6115
愊	-13.6115
摰	-13.6115
斸	-13.6115
棋	-13.6115
榼	-13.6115
淋	-13.6115
滳	-13.6115
漉	-13.6115
熄	-13.6115
燁	-13.6115
牎	-13.6115
牗	-13.6115
牸	-13.6115
珦	-13.6115
瑰	-13.6115
眊	-13.6115
瞍	-13.6115
祛	-13.6115
禊	-13.6115
秅	-13.6115
竂	-13.6115
絓	-13.6115
緄	-13.6115
查	-13.6116
柞	-13.6117
柙	-13.6118
朐	-13.6119
攄	-13.612
抔	-13.6121
懔	-13.6122
犂	-13.6123
怛	-13.6123
䘖	-13.6124
䵷	-13.6124
両	-13.6124
个	-13.6124
倳	-13.6124
冐	-13.6124
吒	-13.6124
咋	-13.6124
嚚	-13.6124
嚨	-13.6124
塠	-13.6124
屹	-13.6124
峨	-13.6124
幧	-13.6124
忒	-13.6124
忩	-13.6124
憸	-13.6124
掇	-13.6124
搃	-13.6124
搴	-13.6124
摯	-13.6124
昐	-13.6124
橤	-13.6124
殛	-13.6124
氈	-13.6124
洑	-13.6124
溶	-13.6124
瀍	-13.6124
炤	-13.6124
焰	-13.6124
煨	-13.6124
猘	-13.6124
獮	-13.6124
獷	-13.6124
瑳	-13.6124
疣	-13.6124
簫	-13.6124
糊	-13.6124
繚	-13.6124
觖	-13.6124
崙	-13.6124
孥	-13.6125
婕	-13.6126
娥	-13.6127
妤	-13.6128
墝	-13.6129
熒	-13.613
圉	-13.613
羇	-13.6131
捲	-13.6131
圈	-13.6131
洶	-13.6132
鞬	-13.6132
两	-13.6132
僨	-13.6132
勱	-13.6132
咺	-13.6132
喈	-13.6132
囬	-13.6132
坡	-13.6132
坻	-13.6132
培	-13.6132
堉	-13.6132
壖	-13.6132
巔	-13.6132
帟	-13.6132
庵	-13.6132
惣	-13.6132
慾	-13.6132
掀	-13.6132
渒	-13.6132
港	-13.6132
漑	-13.6132
爺	-13.6132
狁	-13.6132
獫	-13.6132
禠	-13.6132
秔	-13.6132
箝	-13.6132
絍	-13.6132
縳	-13.6132
翣	-13.6132
喟	-13.6132
喋	-13.6133
喁	-13.6134
呐	-13.6135
剄	-13.6136
佻	-13.6137
鷇	-13.6137
鸃	-13.6138
搢	-13.6139
鵔	-13.6139
侏	-13.614
厓	-13.614
叄	-13.614
壒	-13.614
嫈	-13.614
帀	-13.614
帚	-13.614
愒	-13.614
慆	-13.614
摴	-13.614
槲	-13.614
氛	-13.614
涖	-13.614
燦	-13.614
瘼	-13.614
癕	-13.614
筴	-13.614
紼	-13.614
馨	-13.614
頵	-13.6141
需	-13.6142
隍	-13.6143
閬	-13.6144
迄	-13.6145
偫	-13.6146
謇	-13.6146
袤	-13.6147
錚	-13.6148
㬺	-13.6148
㮰	-13.6148
䑓	-13.6148
婉	-13.6148
怵	-13.6148
慚	-13.6148
扦	-13.6148
撚	-13.6148
昴	-13.6148
柎	-13.6148
栭	-13.6148
橕	-13.6148
汩	-13.6148
湩	-13.6148
漣	-13.6148
煇	-13.6148
眥	-13.6148
礦	-13.6148
秬	-13.6148
篾	-13.6148
簟	-13.6148
簳	-13.6148
繪	-13.6148
菲	-13.6148
茨	-13.6148
腋	-13.6149
肜	-13.615
矍	-13.6151
盩	-13.6152
瀼	-13.6153
瀣	-13.6154
湟	-13.6155
䄡	-13.6156
倭	-13.6156
冽	-13.6156
勌	-13.6156
噀	-13.6156
噏	-13.6156
嫪	-13.6156
彚	-13.6156
恙	-13.6156
慇	-13.6156
懃	-13.6156
昈	-13.6156
晸	-13.6156
楨	-13.6156
橜	-13.6156
檥	-13.6156
牚	-13.6156
笭	-13.6156
箜	-13.6156
篌	-13.6156
籣	-13.6156
縡	-13.6156
晁	-13.6156
戛	-13.6157
彍	-13.6158
崑	-13.6159
娑	-13.616
厔	-13.6161
闒	-13.6162
麋	-13.6163
鈆	-13.6163
倕	-13.6164
单	-13.6164
吼	-13.6164
咷	-13.6164
夐	-13.6164
姙	-13.6164
幌	-13.6164
抆	-13.6164
揉	-13.6164
摽	-13.6164
晋	-13.6164
柰	-13.6164
桉	-13.6164
殣	-13.6164
濱	-13.6164
盃	-13.6164
磊	-13.6164
箙	-13.6164
詾	-13.6164
話	-13.6165
蓮	-13.6166
苾	-13.6167
艨	-13.6168
艟	-13.6169
綦	-13.617
窬	-13.6171
㢠	-13.6172
䁹	-13.6172
寰	-13.6172
榴	-13.6172
櫻	-13.6172
炷	-13.6172
簠	-13.6172
絛	-13.6172
琚	-13.6172
猖	-13.6173
歔	-13.6174
欷	-13.6175
枋	-13.6176
憒	-13.6177
悵	-13.6178
悠	-13.6179
俔	-13.618
娉	-13.618
婬	-13.618
忼	-13.618
怱	-13.618
擑	-13.618
晶	-13.618
概	-13.618
炔	-13.618
牌	-13.618
瞳	-13.618
羔	-13.618
寮	-13.618
塋	-13.6181
鼈	-13.6182
麒	-13.6183
鵬	-13.6184
頷	-13.6185
邾	-13.6186
蜂	-13.6187
勘	-13.6188
嘻	-13.6188
塈	-13.6188
幃	-13.6188
扎	-13.6188
曕	-13.6188
漼	-13.6188
濃	-13.6188
疋	-13.6188
粢	-13.6188
耇	-13.6188
磝	-13.6188
磁	-13.6189
碻	-13.619
琶	-13.6191
琵	-13.6192
櫟	-13.6193
慺	-13.6194
慷	-13.6195
㹠	-13.6196
嫣	-13.6196
攅	-13.6196
汖	-13.6196
愀	-13.6196
庠	-13.6197
嚕	-13.6198
凉	-13.6199
俳	-13.62
詼	-13.6201
罳	-13.6202
瞋	-13.6203
㢲	-13.6204
偡	-13.6204
僔	-13.6204
垓	-13.6204
歈	-13.6204
璩	-13.6204
簦	-13.6204
瑛	-13.6204
牂	-13.6205
沆	-13.6206
樗	-13.6207
斟	-13.6208
侖	-13.6209
佼	-13.621
輳	-13.6211
㬥	-13.6212
梏	-13.6212
爐	-13.6212
紜	-13.6212
穡	-13.6213
禰	-13.6214
癘	-13.6215
狽	-13.6216
掊	-13.6217
偼	-13.6218
鸚	-13.6219
䟦	-13.622
鵡	-13.622
陁	-13.6221
鄲	-13.6222
紘	-13.6223
竺	-13.6224
眙	-13.6225
忷	-13.6226
伷	-13.6227
窄	-13.6228
篪	-13.6228
霖	-13.6228
謖	-13.6229
倧	-13.623
膂	-13.6231
睚	-13.6232
梅	-13.6233
岌	-13.6234
驤	-13.6235
蔕	-13.6236
笈	-13.6236
跋	-13.6236
蠕	-13.6237
驃	-13.6238
阡	-13.6239
鉢	-13.624
刁	-13.6241
顙	-13.6242
猩	-13.6243
嫠	-13.6244
駙	-13.6244
騷	-13.6245
逋	-13.6246
諺	-13.6247
輻	-13.6248
珂	-13.6249
押	-13.625
頡	-13.6251
滎	-13.6252
酈	-13.6253
璀	-13.6254
苻	-13.6255
瑭	-13.6256
孜	-13.6257
怏	-13.6258
煬	-13.6259
䄛	-13.626
匈	-13.626
