<unk>	0
<s>	0
</s>	0
/	-3.61414
(	-4.05691
)	-4.16427
之	-4.47428
)(	-4.67607
人	-4.8074
以	-5.01313
為	-5.0569
有	-5.26969
山	-5.32837
在	-5.34501
而	-5.38984
其	-5.40411
一	-5.57209
於	-5.61559
縣	-5.65963
不	-5.76311
中	-5.76435
者	-5.79834
大	-5.80303
水	-5.80389
州	-5.8101
也	-5.81129
曰	-5.81445
王	-5.87186
至	-5.9154
自	-5.98107
三	-6.02593
子	-6.06176
南	-6.08137
城	-6.10705
河	-6.11313
上	-6.14224
時	-6.16195
石	-6.16875
二	-6.17201
與	-6.17341
西	-6.20739
又	-6.20799
東	-6.21234
無	-6.21814
明	-6.24492
道	-6.26399
所	-6.27358
/)	-6.27547
文	-6.29139
名	-6.29344
行	-6.30017
事	-6.32047
氏	-6.32307
則	-6.32858
出	-6.33413
入	-6.33997
公	-6.35549
張	-6.41083
如	-6.41597
後	-6.44249
天	-6.44683
下	-6.44734
北	-6.4493
五	-6.45307
元	-6.45378
▁	-6.4609
四	-6.46101
李	-6.47209
平	-6.48803
今	-6.48964
江	-6.50496
民	-6.50688
官	-6.51152
長	-6.51974
志	-6.524
建	-6.5374
安	-6.54006
此	-6.54124
府	-6.55657
皆	-6.56884
兵	-6.58219
地	-6.58701
知	-6.58993
宋	-6.61123
復	-6.62391
金	-6.63749
及	-6.64384
家	-6.64601
陳	-6.64715
日	-6.6588
門	-6.65946
馬	-6.6647
即	-6.67484
成	-6.68005
字	-6.68098
國	-6.68305
書	-6.68594
郡	-6.69055
年	-6.69327
得	-6.70652
生	-6.7308
故	-6.73206
可	-6.77065
周	-6.77554
言	-6.77993
亦	-6.78547
通	-6.78727
經	-6.79068
乃	-6.79494
劉	-6.79628
正	-6.79877
置	-6.80803
唐	-6.81557
見	-6.816
里	-6.82024
多	-6.82077
清	-6.83031
令	-6.83033
黄	-6.83505
等	-6.8359
龍	-6.84137
初	-6.84873
方	-6.86447
作	-6.86574
軍	-6.86589
陽	-6.8722
髙	-6.87247
六	-6.87523
橋	-6.87569
于	-6.87615
相	-6.87911
前	-6.88044
歸	-6.8813
漢	-6.88323
海	-6.88885
士	-6.89276
妻	-6.8982
矣	-6.90507
屬	-6.91808
臣	-6.91987
來	-6.94148
使	-6.94647
從	-6.94934
立	-6.95282
寺	-6.95395
學	-6.95664
遂	-6.96028
應	-6.96583
開	-6.96697
白	-6.9676
雲	-6.96887
九	-6.97769
世	-6.97839
治	-6.98311
居	-6.98316
同	-6.98436
田	-6.98578
分	-6.98677
然	-6.98937
是	-6.98948
將	-6.99056
本	-6.99423
武	-6.99987
去	-7.01539
兩	-7.01673
當	-7.01694
何	-7.01718
都	-7.02058
七	-7.02138
合	-7.02419
溪	-7.028
鎮	-7.03349
新	-7.03517
諸	-7.03726
舊	-7.03991
守	-7.04385
古	-7.04543
云	-7.0465
用	-7.04706
口	-7.04714
若	-7.04813
間	-7.0532
八	-7.0594
因	-7.06107
任	-7.06402
泉	-7.07582
小	-7.07999
風	-7.08422
修	-7.09188
流	-7.099
楊	-7.10448
興	-7.10527
内	-7.10626
湖	-7.10632
林	-7.11268
處	-7.11558
義	-7.1228
詩	-7.12399
高	-7.12425
焉	-7.1319
重	-7.13247
死	-7.14021
路	-7.14437
光	-7.14711
記	-7.1504
萬	-7.15268
廣	-7.16412
夫	-7.16497
賊	-7.17536
俱	-7.19212
宗	-7.19661
徳	-7.19752
亭	-7.1996
土	-7.20219
晉	-7.20818
定	-7.21124
已	-7.21143
鄉	-7.21314
外	-7.21596
命	-7.21845
師	-7.22021
聞	-7.22844
原	-7.2338
心	-7.23427
未	-7.23914
傳	-7.24983
觀	-7.25868
起	-7.26123
趙	-7.26327
始	-7.26691
欲	-7.28262
改	-7.2887
先	-7.28875
法	-7.28887
司	-7.29019
卒	-7.29695
封	-7.29745
梁	-7.29843
非	-7.30244
請	-7.3113
臺	-7.31233
百	-7.31562
進	-7.31625
川	-7.31999
堂	-7.32184
神	-7.32288
十	-7.32356
朝	-7.32591
孫	-7.33465
善	-7.3405
吳	-7.34179
惟	-7.3437
深	-7.35424
玉	-7.36454
嶺	-7.36788
各	-7.36799
常	-7.3682
和	-7.36885
集	-7.37079
知縣	-7.37112
㑹	-7.37538
過	-7.37623
思	-7.38033
舉	-7.38103
實	-7.38691
數	-7.39044
禮	-7.39142
塘	-7.39157
帝	-7.39824
月	-7.40295
齊	-7.40751
遷	-7.41047
能	-7.41126
望	-7.41184
樂	-7.41951
宜	-7.42191
營	-7.42234
木	-7.42443
君	-7.42546
徐	-7.42595
逺	-7.42788
爾	-7.43907
廟	-7.44109
陵	-7.44221
或	-7.44418
必	-7.44663
稱	-7.44727
進士	-7.44784
節	-7.45356
嘗	-7.45375
錢	-7.45551
直	-7.46329
池	-7.46364
界	-7.46959
圖	-7.47021
左	-7.47079
謂	-7.47095
政	-7.47229
侯	-7.47398
由	-7.47653
朱	-7.4781
盡	-7.48014
春	-7.48313
宫	-7.4841
我	-7.48493
省	-7.48604
村	-7.49159
甚	-7.49498
議	-7.49706
詔	-7.49727
女	-7.5016
二年	-7.50471
發	-7.50546
力	-7.50785
取	-7.50874
按	-7.51102
臨	-7.51466
設	-7.51534
邑	-7.51537
沙	-7.51624
華	-7.51753
右	-7.51989
羅	-7.52031
章	-7.52192
登	-7.52236
德	-7.5236
乎	-7.52685
易	-7.53022
永	-7.53024
既	-7.53123
樓	-7.54737
花	-7.55114
陸	-7.55142
丁	-7.55439
少	-7.5606
靈	-7.56721
老	-7.57295
三年	-7.5771
廢	-7.57747
洞	-7.5838
加	-7.58498
銀	-7.59341
聖	-7.59652
秦	-7.59708
青	-7.59764
景	-7.6023
化	-7.60507
築	-7.60592
母	-7.60772
爲	-7.61373
授	-7.6175
父	-7.61822
利	-7.61838
寧	-7.62362
餘	-7.62408
著	-7.62576
引	-7.62957
忠	-7.63349
魏	-7.63357
工	-7.63365
仁	-7.63614
夏	-7.63728
殿	-7.63977
近	-7.64068
首	-7.64188
凡	-7.64362
許	-7.64724
尚	-7.64907
衆	-7.65226
昌	-7.65253
共	-7.65489
元年	-7.65665
奉	-7.65699
信	-7.65729
克	-7.65805
聲	-7.65825
濟	-7.65828
載	-7.65896
還	-7.66073
並	-7.6613
頭	-7.6639
且	-7.66564
伯	-7.6657
墓	-7.6769
十里	-7.68187
孝	-7.68937
理	-7.69156
度	-7.69289
賢	-7.69539
獨	-7.69919
嵗	-7.70039
源	-7.70043
胡	-7.71539
連	-7.71577
衛	-7.71779
號	-7.71787
史	-7.71819
食	-7.71854
祠	-7.71894
計	-7.72168
雖	-7.72623
巖	-7.7263
崇	-7.7321
異	-7.73478
問	-7.74492
功	-7.7463
勝	-7.74817
益	-7.75146
吾	-7.76037
雨	-7.76402
承	-7.7664
主	-7.76724
每	-7.76987
物	-7.78014
祖	-7.78064
奏	-7.78481
賜	-7.78894
院	-7.7898
次	-7.79024
草	-7.79118
部	-7.79488
論	-7.79618
色	-7.79691
太	-7.79801
渠	-7.80098
更	-7.80379
順	-7.80422
受	-7.80775
延	-7.80795
身	-7.80857
谷	-7.81632
關	-7.81724
止	-7.81749
注	-7.82354
解	-7.82457
良	-7.8252
松	-7.82638
以為	-7.82663
難	-7.83468
絶	-7.8367
嚴	-7.83675
秋	-7.83843
井	-7.84194
呉	-7.84394
意	-7.84633
達	-7.84803
飛	-7.84924
郭	-7.85231
僧	-7.85285
邊	-7.85352
峯	-7.85806
闗	-7.85866
仙	-7.85962
移	-7.86121
千	-7.86342
親	-7.86543
吏	-7.86646
固	-7.87395
兼	-7.87621
教	-7.88152
除	-7.8821
隨	-7.88218
布	-7.88766
葉	-7.88785
極	-7.88971
拜	-7.88983
鄭	-7.891
恩	-7.89221
領	-7.89794
紀	-7.89844
終	-7.89858
真	-7.89964
澤	-7.90472
閣	-7.90664
不可	-7.90806
繼	-7.9082
全	-7.91205
歴	-7.91253
留	-7.91357
竹	-7.91364
東南	-7.91462
四年	-7.91469
浦	-7.91518
不能	-7.91649
楚	-7.9197
米	-7.92002
縣界	-7.92052
福	-7.92109
氣	-7.92251
樹	-7.92515
康	-7.92517
堡	-7.93001
遇	-7.93034
宣	-7.93036
洪	-7.93073
於此	-7.93129
遣	-7.93137
特	-7.93332
撫	-7.93475
降	-7.93813
夜	-7.93994
坐	-7.94463
嘉	-7.94475
保	-7.9448
昭	-7.9466
運	-7.94699
尋	-7.94832
語	-7.95421
▁(	-7.95458
慶	-7.95521
祀	-7.95697
仍	-7.9586
沈	-7.95933
戰	-7.96017
備	-7.96543
額	-7.96585
代	-7.97358
率	-7.97399
五年	-7.97432
猶	-7.97657
遺	-7.97947
溝	-7.98049
烏	-7.98436
求	-7.98877
卿	-7.99077
魯	-7.99177
往	-7.99211
曹	-7.9932
舟	-7.99505
魚	-7.99543
空	-7.99874
忽	-8.00084
耳	-8.00089
謝	-8.00186
阿	-8.00206
西南	-8.00352
交	-8.00952
遊	-8.01044
賦	-8.01288
表	-8.01379
蜀	-8.01585
科	-8.01818
韓	-8.02047
悉	-8.02127
存	-8.02422
鹽	-8.02784
向	-8.02844
盛	-8.02871
越	-8.02933
服	-8.02968
蘇	-8.02981
納	-8.03168
業	-8.03421
視	-8.04032
火	-8.04245
香	-8.04428
足	-8.04478
京	-8.04575
升	-8.04579
考	-8.04594
星	-8.04697
會	-8.05272
境	-8.05428
汝	-8.05447
轉	-8.05602
英	-8.05751
牛	-8.05994
敬	-8.06005
閘	-8.06104
制	-8.06306
西北	-8.06401
程	-8.06425
半	-8.06449
列	-8.0664
碑	-8.06697
貴	-8.06724
養	-8.07158
顧	-8.0723
船	-8.0723
仲	-8.07291
疏	-8.07371
渡	-8.07396
夷	-8.07528
秀	-8.08084
獻	-8.08114
塞	-8.08404
縣志	-8.08568
衣	-8.08644
縣西	-8.08757
余	-8.08859
再	-8.09009
别	-8.09314
斯	-8.09338
威	-8.09717
康熙	-8.09848
好	-8.10017
户	-8.10072
給	-8.10086
郎	-8.10414
接	-8.10495
落	-8.10698
惠	-8.10901
堰	-8.11237
務	-8.11301
目	-8.11358
莫	-8.11629
致	-8.11845
東北	-8.12124
市	-8.12235
厯	-8.12577
車	-8.12747
儀	-8.12801
六年	-8.12805
旌	-8.12877
徙	-8.13256
歲	-8.13314
隄	-8.13724
折	-8.13801
虎	-8.14003
曲	-8.14128
要	-8.14326
卷	-8.1435
積	-8.14376
破	-8.1438
據	-8.14576
倉	-8.14583
監	-8.14787
報	-8.1506
廷	-8.15154
就	-8.15325
寨	-8.15459
陂	-8.15492
泰	-8.15535
縣東	-8.15553
造	-8.15562
室	-8.15642
野	-8.15861
豐	-8.1588
攻	-8.15966
糧	-8.16028
誠	-8.16333
杜	-8.16428
涇	-8.16471
果	-8.16512
伏	-8.16666
才	-8.16918
一名	-8.16973
署	-8.17193
州人	-8.17426
昔	-8.17452
客	-8.17595
尤	-8.17617
姑	-8.17695
釐	-8.17831
貢	-8.17895
莊	-8.18124
性	-8.18204
頃	-8.18503
屯	-8.19033
補	-8.19218
手	-8.19223
督	-8.19253
港	-8.19286
精	-8.19445
博	-8.19464
哉	-8.19563
酒	-8.19604
殺	-8.19629
微	-8.19734
〕	-8.19801
病	-8.19816
竒	-8.20013
失	-8.20082
恭	-8.20181
横	-8.20224
照	-8.20376
淮	-8.2055
被	-8.20627
商	-8.20836
孟	-8.20936
咸	-8.21044
具	-8.21174
皇	-8.21543
隆	-8.219
美	-8.21993
簡	-8.22022
斗	-8.22151
衞	-8.22252
對	-8.22691
圍	-8.22891
州刺史	-8.22963
崖	-8.23249
巴	-8.23326
俗	-8.23652
顯	-8.23971
久	-8.24115
畫	-8.24185
宿	-8.24309
隂	-8.24594
支	-8.25118
寳	-8.25199
并	-8.25339
縣南	-8.25434
亂	-8.25465
榮	-8.25489
最	-8.25571
河南	-8.25671
園	-8.25785
役	-8.25946
録	-8.26127
畝	-8.26211
職	-8.26306
撰	-8.26578
五里	-8.26948
管	-8.2701
題	-8.27194
甲	-8.27288
收	-8.27391
步	-8.27533
天下	-8.27673
容	-8.27718
蕭	-8.27775
闕	-8.27857
擢	-8.27924
山東	-8.27946
兮	-8.27968
太守	-8.28525
勒	-8.2853
便	-8.28727
疾	-8.28781
弟	-8.28862
厚	-8.28895
吉	-8.28962
丹	-8.29105
七年	-8.29339
勢	-8.29359
佛	-8.29389
塔	-8.29527
贈	-8.29552
籍	-8.2987
典	-8.29997
御	-8.30039
苦	-8.30462
絲	-8.30692
驛	-8.30826
將軍	-8.31074
盤	-8.31216
謂之	-8.31271
蓋	-8.31509
峰	-8.31538
征	-8.31875
期	-8.31942
面	-8.32105
種	-8.32261
縣人	-8.32372
伍	-8.32658
召	-8.32736
豈	-8.32848
庫	-8.32986
端	-8.33103
位	-8.33582
詳	-8.33806
津	-8.33854
孔	-8.3389
附	-8.33891
陞	-8.33947
儒	-8.33964
末	-8.33987
累	-8.34048
環	-8.34095
雙	-8.34176
調	-8.3419
素	-8.34425
辭	-8.34472
資	-8.34571
増	-8.34625
施	-8.34625
象	-8.34655
八年	-8.34662
維	-8.34767
紫	-8.34863
蔡	-8.34959
徵	-8.35038
寒	-8.35058
藏	-8.35169
紅	-8.35268
寕	-8.35322
比	-8.35368
到	-8.35439
指	-8.35596
江南	-8.35632
孤	-8.35673
似	-8.35679
予	-8.35785
獲	-8.35919
依	-8.36074
罷	-8.36653
送	-8.36672
富	-8.36791
御史	-8.36887
選	-8.36926
寜	-8.36927
一員	-8.36943
約	-8.37024
夢	-8.37223
亡	-8.37333
)〔	-8.37507
費	-8.37785
統	-8.38124
勞	-8.38127
蘭	-8.38223
二十	-8.38277
虞	-8.38292
浮	-8.383
赤	-8.38663
寛	-8.387
燕	-8.38827
熙	-8.3905
夀	-8.39132
疑	-8.39147
塵	-8.39212
肆	-8.39309
動	-8.39325
勤	-8.39795
免	-8.39872
雅	-8.39906
雄	-8.40247
持	-8.40455
滿	-8.40489
房	-8.40722
羣	-8.41105
變	-8.41328
均	-8.4135
知府	-8.41462
告	-8.41601
息	-8.41639
岡	-8.41759
條	-8.41865
適	-8.42035
謀	-8.42053
鼎	-8.42094
散	-8.42354
總	-8.42405
壁	-8.4244
潮	-8.42465
祥	-8.42681
壩	-8.42742
充	-8.42888
幸	-8.43045
刻	-8.43051
喜	-8.43092
愛	-8.43275
縣北	-8.43303
貞	-8.43382
坊	-8.43473
瑞	-8.43562
重修	-8.43819
急	-8.44111
決	-8.44171
茂	-8.44445
之所	-8.44501
先生	-8.44511
堤	-8.44701
雍	-8.44715
仕	-8.44721
擊	-8.44897
盧	-8.44933
懐	-8.45077
執	-8.45168
乾	-8.45284
兒	-8.45292
負	-8.45514
又有	-8.45631
歌	-8.45687
姓	-8.45714
第	-8.45728
雷	-8.45923
但	-8.45934
潭	-8.45977
丈	-8.46183
波	-8.46296
嗣	-8.46367
范	-8.46392
追	-8.4654
隋	-8.46616
諭	-8.46731
嘉靖	-8.46903
葬	-8.47147
鳴	-8.47283
雪	-8.47337
游	-8.47628
岸	-8.47721
權	-8.47758
芳	-8.47836
宅	-8.47858
斷	-8.47952
三十里	-8.4801
浙江	-8.48226
器	-8.48242
防	-8.48581
祭	-8.48712
姚	-8.48775
呼	-8.48819
賈	-8.48862
音	-8.4893
懷	-8.49051
尹	-8.49784
稍	-8.49895
敗	-8.50181
荒	-8.50201
騎	-8.50241
迎	-8.50357
險	-8.50394
説	-8.50523
感	-8.5056
差	-8.50563
試	-8.50571
裁	-8.50584
畧	-8.50779
珠	-8.50815
錫	-8.50847
不得	-8.50876
薦	-8.50881
董	-8.51
鳳	-8.51137
梅	-8.51163
産	-8.51175
陜西	-8.51289
畢	-8.51404
洛	-8.51729
桂	-8.51778
庭	-8.52226
温	-8.523
乾隆	-8.52395
靖	-8.52568
吕	-8.52635
濬	-8.52643
尚書	-8.52712
春秋	-8.53016
於是	-8.53644
以上	-8.53778
結	-8.53796
遠	-8.53974
禁	-8.5407
情	-8.54188
寇	-8.54229
肅	-8.54689
反	-8.54873
垂	-8.54894
山西	-8.5502
體	-8.55178
舍	-8.55184
邦	-8.55311
序	-8.55419
他	-8.55732
甫	-8.55736
甘	-8.55775
雜	-8.55849
屢	-8.55965
覆	-8.56061
三十	-8.56171
申	-8.56285
聚	-8.56502
洋	-8.56609
帶	-8.56716
揚	-8.56877
例	-8.56886
萬厯	-8.56907
振	-8.56918
四十里	-8.57073
寶	-8.57099
習	-8.57157
願	-8.57158
欽	-8.57262
叔	-8.57271
屋	-8.57363
十年	-8.57371
希	-8.57437
齋	-8.57479
彭	-8.57621
編	-8.57639
湯	-8.57642
徴	-8.57775
馮	-8.57814
回	-8.57879
犯	-8.5812
赴	-8.58263
禹	-8.58414
徒	-8.58632
遼	-8.58649
鐵	-8.58808
友	-8.58924
形	-8.59014
一百	-8.59062
壽	-8.59189
罪	-8.5919
退	-8.59328
憲	-8.59496
察	-8.59674
彼	-8.59727
幾	-8.5977
黎	-8.5979
邱	-8.59797
江西	-8.59832
十五里	-8.59863
允	-8.59922
案	-8.60006
敏	-8.6008
葢	-8.6012
相傳	-8.60167
堅	-8.60221
恐	-8.60284
查	-8.60452
汪	-8.60581
九年	-8.60604
丘	-8.60687
休	-8.60701
旗	-8.60849
曽	-8.61095
襲	-8.61113
洲	-8.61143
七十里	-8.61289
旁	-8.6129
将	-8.61559
岳	-8.61629
佐	-8.61652
五十	-8.61998
貳	-8.62262
謹	-8.62381
牧	-8.62411
曾	-8.6243
漕	-8.62672
乞	-8.62823
識	-8.62982
婦	-8.63026
招	-8.63122
基	-8.63297
伊	-8.63403
貫	-8.63557
翁	-8.63655
走	-8.6366
漸	-8.63815
敵	-8.63928
故名	-8.64084
駐	-8.64089
推	-8.64241
盖	-8.64289
員	-8.64362
幽	-8.64372
五十里	-8.64551
徑	-8.64974
角	-8.6523
六十里	-8.65232
兹	-8.65338
輔	-8.65377
所謂	-8.65413
委	-8.65456
抵	-8.6546
私	-8.65462
仰	-8.65481
輕	-8.65542
離	-8.6567
本朝	-8.65898
翼	-8.66236
逆	-8.6639
毛	-8.66499
訓	-8.66809
伐	-8.66992
投	-8.67001
碧	-8.67144
館	-8.67244
縣治	-8.67274
副使	-8.67348
增	-8.6735
慈	-8.67385
銅	-8.67418
隠	-8.67482
奔	-8.67789
陶	-8.67822
鍾	-8.67902
季	-8.67962
澗	-8.68176
藥	-8.68354
左右	-8.68378
淵	-8.6843
鳯	-8.68468
筆	-8.68541
烈	-8.68668
之地	-8.68937
冬	-8.69033
衡	-8.69102
潛	-8.69357
源出	-8.69394
陽縣	-8.69577
袁	-8.69593
獄	-8.69775
峽	-8.69907
狀	-8.69929
窮	-8.6998
戴	-8.69983
循	-8.70083
重建	-8.70114
守節	-8.70347
尊	-8.70461
同知	-8.70466
粟	-8.7052
震	-8.70683
苑	-8.70745
東西	-8.7092
智	-8.71199
上有	-8.71246
鑿	-8.71379
族	-8.71449
二里	-8.71474
避	-8.71525
太平	-8.71653
𨽻	-8.71723
完	-8.71868
側	-8.71951
冠	-8.71975
翠	-8.72005
射	-8.72303
二十里	-8.72308
釋	-8.72533
類	-8.7257
顔	-8.72593
穆	-8.72767
放	-8.72964
澄	-8.73103
乘	-8.73105
像	-8.73123
羊	-8.73165
錦	-8.73411
一里	-8.7348
講	-8.73545
愈	-8.73665
妻王氏	-8.73887
討	-8.74223
該	-8.74247
在縣西	-8.74326
虚	-8.74563
鶴	-8.74571
䝉	-8.74744
通判	-8.74933
俊	-8.74935
導	-8.75048
淺	-8.75403
衝	-8.75524
哈	-8.75787
潘	-8.75791
壹	-8.75818
蠻	-8.75934
巨	-8.75978
帥	-8.76169
十二	-8.76173
鄧	-8.7636
隱	-8.76414
覺	-8.76455
其地	-8.76465
强	-8.76513
而不	-8.76591
患	-8.76623
縣西南	-8.76641
待	-8.76653
䕶	-8.76698
彦	-8.76699
宏	-8.76726
索	-8.76865
薛	-8.76904
飲	-8.76997
庶	-8.77034
創	-8.77378
縣西北	-8.77565
介	-8.77644
長安	-8.77785
蒲	-8.77789
賞	-8.77978
課	-8.78186
勸	-8.7829
鳥	-8.78627
某	-8.78653
竟	-8.78781
縣屬	-8.78885
門外	-8.79055
敢	-8.7907
紹	-8.79179
冦	-8.79502
書院	-8.79514
茶	-8.79558
格	-8.799
副	-8.79947
密	-8.80051
不敢	-8.80129
底	-8.80208
荆	-8.8028
朕	-8.80409
乗	-8.80517
傅	-8.80695
鼓	-8.8073
𢎞	-8.80959
三里	-8.81
貧	-8.81015
農	-8.81322
弗	-8.81495
南北	-8.81577
栁	-8.81952
麟	-8.82146
耶	-8.82158
可以	-8.82287
喪	-8.82437
革	-8.82502
薄	-8.82517
四十	-8.82588
宇	-8.82768
廬	-8.82779
巡撫	-8.82828
順治	-8.82895
耕	-8.82895
枝	-8.82993
在縣東	-8.83004
桑	-8.83056
黄河	-8.83126
黃	-8.8317
汛	-8.8325
憂	-8.83336
惡	-8.83431
玖	-8.83562
知州	-8.83673
印	-8.83796
妻張氏	-8.83831
輒	-8.8384
符	-8.83853
穴	-8.83877
八十里	-8.8389
須	-8.83988
捌	-8.83996
怒	-8.84051
峻	-8.84252
根	-8.84429
掌	-8.84491
叛	-8.84701
普	-8.84703
襄	-8.84735
聽	-8.84813
㫖	-8.84833
盜	-8.84841
歳	-8.85168
鹿	-8.85221
巡	-8.8524
侍	-8.85384
念	-8.85465
懸	-8.85493
麻	-8.8579
害	-8.85817
之後	-8.8582
零	-8.86005
幼	-8.86065
崔	-8.86127
舊志	-8.86134
係	-8.86268
驚	-8.86293
倫	-8.86335
所以	-8.86433
戸	-8.86492
一日	-8.86536
河東	-8.866
南至	-8.86602
縣東北	-8.86782
閒	-8.86796
賀	-8.87088
細	-8.87141
援	-8.8715
減	-8.87197
中有	-8.87312
詞	-8.87359
来	-8.87464
灘	-8.87596
□	-8.87755
福建	-8.87786
訪	-8.8798
陰	-8.87982
殊	-8.88225
救	-8.88271
亷	-8.8835
勇	-8.88438
縣東南	-8.8853
泥	-8.88561
專	-8.88577
湖廣	-8.88731
誰	-8.88768
軒	-8.88865
蕩	-8.88939
輸	-8.89044
植	-8.89067
熊	-8.89078
胥	-8.89116
灣	-8.8931
屏	-8.89398
頂	-8.89511
距	-8.89722
蒼	-8.89813
堯	-8.89857
舒	-8.89955
滅	-8.90041
候	-8.90141
助	-8.90415
壇	-8.90527
跡	-8.90668
哀	-8.908
機	-8.91341
辨	-8.91489
兄	-8.91723
純	-8.91808
税	-8.91834
在縣南	-8.91878
旱	-8.91887
州府	-8.91912
棄	-8.91913
述	-8.91964
逕	-8.9204
續	-8.92212
不知	-8.92406
夾	-8.92562
材	-8.92657
戎	-8.92738
䇿	-8.928
寄	-8.92843
三月	-8.92861
浚	-8.93075
責	-8.93104
露	-8.9323
者也	-8.93267
爵	-8.93507
二十五里	-8.93596
謙	-8.93646
人進士	-8.93777
佳	-8.93801
缺	-8.93806
讀	-8.93839
傷	-8.93868
旋	-8.93869
舉人	-8.94142
危	-8.9416
葛	-8.94246
毫	-8.94478
戍	-8.94506
二百	-8.94661
社	-8.94851
邵	-8.94895
質	-8.94961
菴	-8.95181
侵	-8.95382
九十里	-8.95563
舖	-8.95628
改為	-8.95669
刑	-8.95689
藩	-8.95753
昇	-8.95755
掠	-8.95862
西至	-8.95902
頗	-8.96516
操	-8.96523
妻李氏	-8.9658
故城	-8.96601
瀆	-8.97032
雞	-8.97264
京師	-8.97336
八十	-8.97438
灌	-8.9745
參	-8.97502
柱	-8.9767
項	-8.97843
品	-8.97943
戒	-8.97948
早	-8.97975
趨	-8.98048
覽	-8.98177
詣	-8.98318
陷	-8.98396
蔣	-8.98448
有司	-8.9854
六十	-8.98547
誤	-8.98552
尾	-8.98627
乆	-8.98776
句	-8.98944
倚	-8.98949
績	-8.99047
捕	-8.99211
坡	-8.99248
四川	-8.99257
番	-8.99353
是也	-8.99355
歩	-8.99404
輿	-8.99466
烟	-8.99519
抱	-8.99531
啟	-8.99541
丞	-8.99583
浩	-8.99585
採	-8.99592
羽	-8.99658
七十	-8.997
珍	-8.99796
潤	-8.99885
值	-8.9997
紹興	-9.0005
履	-9.00085
壯	-9.00166
十一年	-9.00195
北至	-9.00305
畏	-9.00343
場	-9.00344
太祖	-9.00348
示	-9.00698
麗	-9.0077
尉	-9.00779
十三年	-9.00843
占	-9.00929
干	-9.0098
朝廷	-9.01055
供	-9.01323
銘	-9.01327
洪武	-9.01334
爭	-9.01438
溢	-9.0144
黨	-9.01603
切	-9.01618
隘	-9.02058
靜	-9.02111
水經注	-9.02132
遵	-9.02153
地方	-9.02303
成化	-9.02476
派	-9.02529
刺史	-9.02689
鴻	-9.02757
崇禎	-9.02843
亮	-9.02859
山下	-9.02916
没	-9.02922
屈	-9.02972
慮	-9.03197
浪	-9.0331
穀	-9.03362
榜	-9.03478
熟	-9.03702
圓	-9.03764
湘	-9.03789
朔	-9.03803
偏	-9.03945
𢎞治	-9.03982
謁	-9.03994
錄	-9.03998
協	-9.04024
毎	-9.04101
逢	-9.04154
東至	-9.04264
慎	-9.04465
妙	-9.04563
淳	-9.04702
廉	-9.0472
讀書	-9.04734
馳	-9.04743
城南	-9.04745
殷	-9.04866
墨	-9.04982
駕	-9.05114
綱	-9.05118
無所	-9.05279
阻	-9.05286
雲南	-9.05319
水出	-9.05349
閩	-9.05418
山在	-9.05437
陽人	-9.05533
段	-9.05559
嘉定	-9.05565
擒	-9.05586
班	-9.0561
十二年	-9.05627
太子	-9.05628
翰	-9.05637
繁	-9.05723
六月	-9.05734
座	-9.05784
恒	-9.05864
曰吾	-9.0593
卓	-9.05949
纎	-9.05999
輝	-9.06166
買	-9.06283
墩	-9.06344
渭	-9.06526
募	-9.06662
奇	-9.06685
如此	-9.06691
之間	-9.06734
苗	-9.06814
縱	-9.06895
僅	-9.06964
巻	-9.06984
㕔	-9.07016
冊	-9.0703
校	-9.07259
秉	-9.07275
拔	-9.07437
斬	-9.07439
吴	-9.07526
國朝	-9.07533
辟	-9.0773
通志	-9.07808
篇	-9.07883
太原	-9.07936
併	-9.07954
百里	-9.08032
静	-9.08124
街	-9.08168
城縣	-9.08287
教諭	-9.08389
有竒	-9.08406
奪	-9.08648
韋	-9.08673
旌表	-9.08714
衍	-9.088
逸	-9.089
量	-9.09085
宻	-9.09138
說	-9.09177
祝	-9.09262
阜	-9.09296
柳	-9.09325
皮	-9.09378
匹	-9.09423
郊	-9.09545
律	-9.09621
踰	-9.09638
諸生	-9.09836
七里	-9.09857
之水	-9.10027
饒	-9.10238
寸	-9.10321
又東	-9.10361
辰	-9.10458
逐	-9.10515
嶽	-9.10522
騰	-9.10752
敦	-9.11081
因之	-9.11311
諫	-9.11359
童	-9.11407
提	-9.11448
餉	-9.11459
大夫	-9.1149
勲	-9.11559
辦	-9.11561
卜	-9.11681
畆	-9.11738
禪	-9.11787
略	-9.11826
十三	-9.11944
瞻	-9.12004
扶	-9.12204
住	-9.12372
康熈	-9.12489
司馬	-9.12491
曉	-9.12615
勅	-9.12651
財	-9.12881
麥	-9.12919
黒	-9.13048
豫	-9.13217
看	-9.13253
贊	-9.13259
禄	-9.13305
拉	-9.13331
規	-9.13427
焚	-9.1346
十六年	-9.13523
標	-9.13697
誅	-9.13704
采	-9.13745
第一	-9.13812
生員	-9.13861
傑	-9.1387
躬	-9.13982
彌	-9.14053
裕	-9.14235
墓在	-9.14236
城東	-9.14237
弊	-9.14242
叄	-9.14249
逼	-9.14462
為之	-9.14498
𤣥	-9.14531
刺	-9.14536
在縣北	-9.14573
即此	-9.1493
垣	-9.15033
厥	-9.15096
三百	-9.15254
桃	-9.15459
宰	-9.15513
骨	-9.156
鋪	-9.1563
巳	-9.15947
夫亡	-9.16142
租	-9.16163
俾	-9.16187
嵩	-9.1633
直𨽻	-9.16351
峪	-9.16641
笑	-9.16707
縣地	-9.1674
勿	-9.16962
八月	-9.17024
府志	-9.17045
巢	-9.17061
假	-9.17067
懼	-9.17233
却	-9.17378
天子	-9.17481
豪	-9.17524
瓦	-9.17532
舜	-9.17535
沒	-9.17664
妻陳氏	-9.17754
十五年	-9.17774
寰宇記	-9.18075
勺	-9.1819
刀	-9.18212
超	-9.18238
城北	-9.18249
州界	-9.18392
羌	-9.18409
式	-9.18466
泊	-9.18674
漫	-9.18674
訟	-9.18695
鐘	-9.1871
傾	-9.18847
后	-9.1893
背	-9.19119
幹	-9.19293
訓導	-9.19499
邑人	-9.19707
妾	-9.19753
毁	-9.19809
己	-9.19812
層	-9.19967
那	-9.19975
價	-9.20022
捐	-9.20243
五月	-9.20402
讓	-9.20495
僉事	-9.20498
暴	-9.20581
檄	-9.20675
喬	-9.2103
盈	-9.21067
城西	-9.21086
賓	-9.21101
徃	-9.21213
鄒	-9.21252
單	-9.21259
㭍	-9.2142
塲	-9.21717
渾	-9.21725
隔	-9.21894
隴	-9.22172
術	-9.22196
山川	-9.22345
影	-9.22506
逹	-9.22576
九月	-9.22632
島	-9.22701
撥	-9.22719
舊名	-9.22742
辛	-9.22888
十四年	-9.22926
奸	-9.22942
區	-9.23133
年任	-9.23179
父母	-9.23216
至於	-9.23279
什	-9.23343
愚	-9.23361
庸	-9.23375
聘	-9.23465
宴	-9.2354
百姓	-9.23699
鑑	-9.23848
俞	-9.24011
激	-9.24164
賑	-9.24223
濶	-9.24364
州縣	-9.2437
頌	-9.24387
殁	-9.24436
舞	-9.24449
蒙	-9.24623
漠	-9.24722
茅	-9.24727
竊	-9.24755
旦	-9.24774
而已	-9.25002
○	-9.25046
明洪武	-9.25187
四月	-9.25232
禦	-9.25282
水利	-9.25294
停	-9.25347
凌	-9.25425
杖	-9.25528
潰	-9.2557
運河	-9.25586
魁	-9.2562
繞	-9.25739
霞	-9.25768
兆	-9.25986
篤	-9.26199
穿	-9.26226
迴	-9.26235
擇	-9.26289
十五	-9.26312
人舉人	-9.26412
謨	-9.26428
偉	-9.26441
儲	-9.26488
人康熙	-9.26595
暮	-9.2667
突	-9.26732
剛	-9.26784
黔	-9.26792
裏	-9.26818
入海	-9.26863
主簿	-9.26888
談	-9.26911
育	-9.27078
以來	-9.27126
稽	-9.2713
七月	-9.27216
含	-9.27327
蓮	-9.27393
尺	-9.27418
其上	-9.27609
二月	-9.27619
㑹稽	-9.27694
上下	-9.27718
繫	-9.27721
束	-9.27786
數十	-9.27787
其中	-9.27931
忘	-9.27997
誦	-9.28253
十八	-9.28383
御製	-9.28388
至今	-9.28464
練	-9.28513
台	-9.28565
巷	-9.28805
流入	-9.28852
成都	-9.28881
其事	-9.28897
跨	-9.28934
隅	-9.29163
拒	-9.29275
正徳	-9.29326
岐	-9.29329
况	-9.29368
至元	-9.29459
裴	-9.2958
夕	-9.29667
芝	-9.29695
包	-9.29904
祚	-9.29955
傍	-9.30089
哨	-9.30116
汴	-9.30128
倍	-9.30163
亨	-9.30182
姜	-9.30307
峙	-9.30332
毅	-9.30354
累遷	-9.30367
祐	-9.3039
砦	-9.30445
泣	-9.30451
永樂	-9.30537
下有	-9.30544
千里	-9.30807
儉	-9.3104
矢	-9.31167
策	-9.31172
牙	-9.31297
災	-9.31462
劾	-9.31628
席	-9.31766
輪	-9.31938
廣西	-9.32017
十六	-9.32048
武帝	-9.32127
教授	-9.32127
血	-9.32191
龜	-9.32224
祁	-9.32417
麓	-9.32498
悟	-9.32521
緑	-9.32613
泗	-9.32695
總督	-9.32736
元和志	-9.33108
慕	-9.33283
唐書	-9.33333
漁	-9.33465
竇	-9.33483
君子	-9.33712
㣲	-9.33771
揚州	-9.33781
其後	-9.33844
弼	-9.33889
潔	-9.3392
舊有	-9.3392
劍	-9.33938
惜	-9.33982
亦有	-9.3405
洩	-9.34062
一在	-9.34143
板	-9.34164
桓	-9.34437
霍	-9.3447
霜	-9.3452
都御史	-9.34535
州治	-9.34548
皇帝	-9.34798
十一	-9.34886
因名	-9.34895
析	-9.34956
陣	-9.3516
榖	-9.35314
縣學	-9.35386
抄	-9.35388
三十五里	-9.35407
味	-9.35569
瓊	-9.35632
明年	-9.35646
等處	-9.35662
學士	-9.35678
級	-9.35772
妻劉氏	-9.35863
于此	-9.3588
賴	-9.35955
隸	-9.36025
闢	-9.36082
鏡	-9.36169
三千	-9.364
脩	-9.36411
奮	-9.3647
逃	-9.36503
縣有	-9.36599
樊	-9.36785
廣東	-9.36801
眼	-9.36835
賔	-9.36936
優	-9.3694
稅	-9.36999
際	-9.37054
迹	-9.37118
圭	-9.37178
臯	-9.37244
一百里	-9.37311
預	-9.37349
壘	-9.37483
韻	-9.37574
平陽	-9.37609
棲	-9.37869
黑	-9.37958
蘆	-9.38032
淤	-9.38074
沿	-9.38129
齡	-9.38271
東流	-9.38321
敷	-9.3836
限	-9.38624
五百	-9.38637
丞相	-9.38649
舎	-9.38731
錢塘	-9.38978
寢	-9.39136
郎中	-9.39159
叢	-9.39267
欽定四庫全書	-9.3932
字子	-9.39612
殘	-9.39887
廵	-9.39965
隆慶	-9.40083
城人	-9.40093
之東	-9.40152
縁	-9.40224
晚	-9.40228
饑	-9.4036
十七年	-9.4045
悲	-9.40469
致仕	-9.40507
清河	-9.40551
漲	-9.40625
堪	-9.40657
滿洲	-9.40672
煙	-9.40732
十月	-9.40769
大同	-9.40997
守備	-9.41019
在縣西南	-9.41024
節度使	-9.41034
料	-9.41147
名曰	-9.41177
復置	-9.41259
百餘	-9.41295
鄰	-9.41405
削	-9.41465
十八年	-9.41595
效	-9.41613
冀	-9.41703
綏	-9.41715
叁	-9.41761
卧	-9.41867
割	-9.41903
都督	-9.42022
又名	-9.42056
蕃	-9.42084
階	-9.42111
柏	-9.42121
從之	-9.42126
唯	-9.42199
徽	-9.42219
弱	-9.42223
遥	-9.42233
正月	-9.42373
哭	-9.42441
艱	-9.42504
遣使	-9.42544
困	-9.42711
懋	-9.4283
浙	-9.42837
啓	-9.42884
太宗	-9.43036
太和	-9.43059
大臣	-9.43089
貯	-9.43119
其所	-9.43172
萬歴	-9.43348
鑄	-9.43353
後魏	-9.43402
判	-9.43466
侍郎	-9.43493
逰	-9.43498
一人	-9.43536
壑	-9.43724
鎭	-9.43764
赫	-9.43767
驅	-9.4383
遜	-9.439
速	-9.43905
寓	-9.43939
審	-9.44222
披	-9.44363
註	-9.44466
在縣	-9.44528
邉	-9.44562
晴	-9.4457
詠	-9.44578
斜	-9.44607
曰此	-9.44693
一時	-9.44715
坑	-9.44799
宋史	-9.44846
一百二十里	-9.44869
漢書	-9.44957
渺	-9.45077
不足	-9.45115
丹陽	-9.45233
鬼	-9.45299
配	-9.45323
鄂	-9.45467
腹	-9.45495
禱	-9.45505
孰	-9.45599
孔子	-9.46148
店	-9.46152
有功	-9.46178
一卷	-9.46246
滋	-9.46338
閲	-9.46384
推官	-9.46387
肉	-9.46496
八百	-9.46542
而死	-9.46637
柴	-9.46671
漳	-9.46752
八里	-9.46802
綿	-9.47004
東北至	-9.47072
汲	-9.47196
逮	-9.47347
倭	-9.47488
璧	-9.47605
蛇	-9.47674
九十	-9.47682
二十年	-9.4783
擾	-9.47905
龍泉	-9.47941
鄉人	-9.48033
郡守	-9.48096
罕	-9.48114
謫	-9.48174
開元	-9.48216
詩云	-9.48262
之西	-9.48296
有石	-9.48312
磨	-9.48338
凉	-9.48351
太湖	-9.48453
不及	-9.48465
頓	-9.48481
沛	-9.4859
累官	-9.48614
燈	-9.48673
貨	-9.48732
鮮	-9.48855
褒	-9.4893
未嘗	-9.49017
水自	-9.4923
新城	-9.49236
歡	-9.49275
訛	-9.49337
障	-9.49348
脱	-9.49372
肇	-9.49396
閉	-9.49403
譚	-9.49481
偶	-9.49544
藉	-9.49606
大小	-9.4966
數百	-9.49775
縣令	-9.49842
偽	-9.49936
吟	-9.49954
厲	-9.49959
奎	-9.49972
凝	-9.5003
弓	-9.50098
借	-9.50134
决	-9.50146
三分	-9.50177
嘉慶	-9.50184
史記	-9.50261
霄	-9.50303
原額	-9.50401
在縣西北	-9.50407
叅	-9.5047
戚	-9.50643
尼	-9.50756
晏	-9.50818
水經	-9.50838
挑	-9.50889
元和	-9.51019
慧	-9.51162
在縣東北	-9.51165
属	-9.51247
在今	-9.51404
五分	-9.51433
南京	-9.51468
𫝊	-9.51642
截	-9.51678
煥	-9.51707
耀	-9.51737
彰	-9.519
聳	-9.51917
絳	-9.51919
在縣東南	-9.51921
甸	-9.51999
雍正	-9.5207
恵	-9.52112
倒	-9.52172
遁	-9.522
整	-9.52234
而後	-9.52427
之南	-9.52459
稿	-9.52554
攝	-9.52594
映	-9.5268
其子	-9.52706
以下	-9.52766
石門	-9.52802
融	-9.52832
衰	-9.52962
邪	-9.52982
風俗	-9.53005
塗	-9.53117
低	-9.53221
冶	-9.53249
嫁	-9.53299
棟	-9.53326
河水	-9.53388
東南至	-9.53391
摩	-9.53418
皆有	-9.53545
亦名	-9.53727
抑	-9.53739
否	-9.5374
勘	-9.53806
勉	-9.53887
豆	-9.53901
濠	-9.53947
荷	-9.54119
三日	-9.5415
喇	-9.54314
拱	-9.54467
𦵏	-9.54542
織	-9.54569
正統	-9.5459
有奇	-9.54767
十餘	-9.55029
醉	-9.55049
哲	-9.55069
閭	-9.55093
杭州	-9.55183
五代	-9.55228
舊作	-9.55235
煩	-9.55297
薩	-9.55306
冷	-9.55336
琴	-9.55409
至此	-9.55471
途	-9.55533
坦	-9.55789
添	-9.55942
午	-9.55987
擬	-9.56165
殺之	-9.56409
亟	-9.56467
國家	-9.56477
眀	-9.56489
大江	-9.56494
驗	-9.56524
扵	-9.56552
卑	-9.5659
滇	-9.5663
僕	-9.56659
奴	-9.56781
寡	-9.56801
河北	-9.56842
遼東	-9.56902
囘	-9.57096
杭	-9.57121
枕	-9.57209
桐	-9.57314
所居	-9.57315
炎	-9.57385
飾	-9.57434
乳	-9.57513
修築	-9.57523
涉	-9.57585
緩	-9.5764
髪	-9.57765
十四	-9.57809
十二月	-9.57829
曠	-9.57856
准	-9.57914
濤	-9.57938
損	-9.5794
祈	-9.58075
森	-9.58178
娶	-9.58308
毋	-9.5835
耿	-9.58362
二員	-9.58383
究	-9.58445
北流	-9.58501
擁	-9.58523
悦	-9.58573
黙	-9.58595
主事	-9.58734
托	-9.58824
斤	-9.5883
闊	-9.58842
寵	-9.58891
土人	-9.59003
志云	-9.59101
今日	-9.59112
叙	-9.59127
壊	-9.59256
安人	-9.59274
縣城	-9.59335
汾	-9.59379
之北	-9.59438
遭	-9.59499
湧	-9.59506
不復	-9.59532
門内	-9.59543
賣	-9.5976
諡	-9.59793
又南	-9.59953
由是	-9.60152
敎	-9.60165
帛	-9.602
醫	-9.6022
子孫	-9.60405
俟	-9.60419
疆	-9.6042
有大	-9.60421
藝	-9.60561
有二	-9.60645
國公	-9.60713
繇	-9.60732
争	-9.60761
自是	-9.60791
遲	-9.60828
旅	-9.60875
炳	-9.60877
秩	-9.60931
官至	-9.6101
山中	-9.61037
汶	-9.61061
宛	-9.61074
蓬	-9.61102
警	-9.61131
男	-9.61244
先是	-9.61244
中書	-9.61253
響	-9.61267
歐陽	-9.6133
綸	-9.61348
晦	-9.61373
呈	-9.61378
而下	-9.61387
盗	-9.61432
翔	-9.61477
庵	-9.61543
指揮	-9.61562
洗	-9.61566
局	-9.61631
虛	-9.61688
朗	-9.61726
不從	-9.61734
白雲	-9.61752
藻	-9.61822
妃	-9.6184
靡	-9.6203
往來	-9.62094
兄弟	-9.62242
徐州	-9.62263
即今	-9.623
韶	-9.62571
不見	-9.62579
之法	-9.62678
俸	-9.62688
消	-9.62712
塢	-9.62722
誣	-9.62734
得其	-9.62739
然後	-9.62741
墜	-9.63111
也今	-9.63121
錯	-9.63272
前後	-9.63272
萬里	-9.63317
域	-9.63366
奚	-9.63457
當時	-9.63484
較	-9.63553
其下	-9.63623
貞觀	-9.63669
鵬	-9.63714
寺在	-9.63769
宮	-9.63971
現	-9.64054
肥	-9.64078
南陽	-9.64087
寂	-9.64101
爽	-9.64108
付	-9.64178
勵	-9.64217
沉	-9.64263
焦	-9.64272
十九年	-9.64274
齒	-9.64324
虜	-9.6437
短	-9.6445
藍	-9.64607
四十五里	-9.64631
未幾	-9.6465
禍	-9.64735
簿	-9.64777
之曰	-9.64892
址	-9.65
抗	-9.65012
蠲	-9.65046
聴	-9.651
㸃	-9.65128
俯	-9.65141
貴州	-9.65146
壺	-9.65307
祿	-9.65314
熈	-9.65363
濱	-9.65378
㡬	-9.65408
緒	-9.65449
下流	-9.65615
安縣	-9.65724
無不	-9.65817
倡	-9.65903
縣丞	-9.66031
猛	-9.66092
洛陽	-9.66129
禹貢	-9.66145
返	-9.66173
繩	-9.66347
都司	-9.66553
飭	-9.66632
葺	-9.66705
製	-9.67013
柔	-9.67042
渚	-9.67051
城内	-9.67282
廬陵	-9.67292
偕	-9.67311
長沙	-9.67445
恃	-9.67461
辱	-9.6747
昆	-9.67539
漏	-9.67551
人物	-9.6768
人丁	-9.67711
九百	-9.67724
耗	-9.67795
閏	-9.67803
斥	-9.67836
記云	-9.67859
懿	-9.67944
隻	-9.67945
輩	-9.68067
架	-9.6821
百餘里	-9.68256
咨	-9.68305
佑	-9.68337
茍	-9.68368
潁	-9.68419
十一月	-9.68529
排	-9.68756
恤	-9.68804
活	-9.6885
山水	-9.68936
妻楊氏	-9.68956
酌	-9.69191
詢	-9.69196
西北至	-9.69246
銷	-9.69352
故道	-9.69353
氷	-9.69429
後漢	-9.69429
蔽	-9.69441
人舉	-9.69518
二十四	-9.69671
燬	-9.69849
紙	-9.69867
吐	-9.69936
會稽	-9.69954
襄陽	-9.69977
禾	-9.70094
夫人	-9.70135
二縣	-9.70171
怪	-9.70201
僉	-9.70231
婁	-9.70279
龍門	-9.70373
山縣	-9.70441
展	-9.70476
廕	-9.70555
答	-9.70605
裔	-9.70613
需	-9.70643
粤	-9.70653
後為	-9.708
恕	-9.7088
進士授	-9.70892
只	-9.70904
南昌	-9.70927
疊	-9.70956
墳	-9.71006
本漢	-9.71099
而去	-9.71157
北直	-9.71272
諱	-9.71317
四方	-9.71338
有三	-9.71363
谿	-9.71447
永安	-9.71475
縣境	-9.71477
南流	-9.71539
十七	-9.71578
郡治	-9.71673
控	-9.71763
景泰	-9.71779
獵	-9.71811
以此	-9.71857
西南至	-9.71894
屯田	-9.7192
粒	-9.71969
鱗	-9.72066
册	-9.72105
在城東	-9.7211
城中	-9.72133
不過	-9.72152
徹	-9.72239
楹	-9.7231
爰	-9.72321
總兵	-9.72362
是以	-9.72372
山南	-9.72382
公之	-9.7248
中建	-9.72542
文帝	-9.72576
提舉	-9.72628
恨	-9.72637
岱	-9.72665
栢	-9.72742
怨	-9.72744
八分	-9.7287
之上	-9.72942
貪	-9.73027
慰	-9.73042
三十年	-9.73179
陛下	-9.73263
範	-9.73319
畨	-9.73322
旬	-9.73325
者皆	-9.73331
蹟	-9.7335
岩	-9.73369
酋	-9.73484
翰林	-9.73608
者為	-9.73618
違	-9.73712
不為	-9.73728
河道	-9.73906
之處	-9.73956
𤓰	-9.73969
弟子	-9.74028
岑	-9.74087
荆州	-9.74132
狄	-9.74166
龍山	-9.74244
暇	-9.74494
二分	-9.74675
墟	-9.74758
坪	-9.74808
崑山	-9.74858
滙	-9.74897
輙	-9.74956
本朝康熙	-9.75
誓	-9.75011
銜	-9.75039
鸞	-9.75125
轄	-9.75132
把總	-9.7517
西安	-9.7517
潞	-9.75224
樞	-9.75254
之意	-9.75259
祥符	-9.7539
逋	-9.75421
四分	-9.75658
痛	-9.75745
居民	-9.75806
王氏	-9.75813
鈔	-9.75881
龔	-9.75914
發源	-9.75943
姪	-9.75996
豫章	-9.76062
享	-9.76066
省入	-9.76101
篆	-9.7625
又東北	-9.76289
匪	-9.76355
宦	-9.76544
西湖	-9.76565
其間	-9.76565
亦曰	-9.76682
掩	-9.76742
聰	-9.76844
瑪	-9.76849
俱在	-9.76866
姦	-9.76868
妄	-9.76876
何以	-9.76893
金華	-9.76905
䖍	-9.76913
邢	-9.76933
毒	-9.76934
訛作	-9.77014
歎	-9.77027
乏	-9.77107
有所	-9.77125
溥	-9.772
二百里	-9.7739
禪師	-9.77568
溉田	-9.77604
箭	-9.77673
忌	-9.77694
脚	-9.77702
陜	-9.77722
典史	-9.77843
水勢	-9.77916
隋開皇	-9.77937
逾	-9.77946
廳	-9.77989
世祖	-9.77994
改曰	-9.78029
人順治	-9.78174
州城	-9.78176
輯	-9.78194
相繼	-9.78279
未有	-9.78294
二十五	-9.7831
鬱	-9.78398
奉天	-9.78426
寅	-9.78468
十八里	-9.7851
臨安	-9.7854
晨	-9.78552
竭	-9.78564
撮	-9.7857
柒	-9.78598
在城西	-9.78628
壤	-9.78667
埽	-9.787
吹	-9.78729
把	-9.78809
四百	-9.78831
沃	-9.78849
人少	-9.7886
年間	-9.79062
廵撫	-9.79129
萊	-9.79259
學宫	-9.7931
少卿	-9.79345
古今	-9.79395
判官	-9.79398
給事中	-9.79447
監察御史	-9.79591
畿	-9.79696
眉	-9.79726
晝	-9.79768
又北	-9.79797
燒	-9.79865
之外	-9.79903
彬	-9.80057
復為	-9.8014
七百	-9.80229
蘇州	-9.80246
樵	-9.80285
四里	-9.803
匠	-9.80357
想	-9.80488
所著有	-9.80521
劇	-9.80595
翟	-9.80651
灌田	-9.80668
六分	-9.80686
打	-9.80748
建昌	-9.80857
濵	-9.80884
躍	-9.80931
蓄	-9.80957
天順	-9.8098
三國	-9.80994
一帶	-9.811
梓	-9.8112
霖	-9.81264
庚	-9.81265
圗	-9.81323
建康	-9.81357
大將軍	-9.81459
捍	-9.81497
又東南	-9.81524
亦不	-9.81546
漆	-9.81766
衢	-9.81924
榆	-9.82016
譜	-9.82061
之利	-9.82121
民田	-9.82374
狼	-9.82412
學校	-9.82445
菜	-9.82469
睿	-9.82532
劒	-9.82566
攀	-9.82573
紳	-9.82575
猷	-9.82596
鐸	-9.82645
若干	-9.82666
天地	-9.82827
本傳	-9.82849
憐	-9.82852
霸	-9.8288
等謹按	-9.829
宗時	-9.82981
所在	-9.83062
正德	-9.83156
按察使	-9.83194
長史	-9.83204
南山	-9.83278
藤	-9.83308
三十六	-9.83328
千餘	-9.83341
匿	-9.83381
閻	-9.83444
愁	-9.83448
圃	-9.83473
道士	-9.83513
郡人	-9.83572
沔	-9.83628
知其	-9.83631
淮南	-9.83648
錢糧	-9.83813
噶	-9.83837
圯	-9.83897
佩	-9.83918
忤	-9.83944
霧	-9.83961
華亭	-9.83963
一分	-9.83965
武昌	-9.84003
刃	-9.84041
枯	-9.84048
牆	-9.84057
中知	-9.84068
檀	-9.84106
大理	-9.8413
陀	-9.842
迷	-9.84354
在城南	-9.84414
三尺	-9.84458
競	-9.84537
總管	-9.8454
風雨	-9.84582
御書	-9.84604
滕	-9.84623
籠	-9.84624
涸	-9.84756
浸	-9.84778
西山	-9.84816
紛	-9.84982
灰	-9.84994
内有	-9.84999
汗	-9.85008
之事	-9.85115
郭勒	-9.85136
漢中	-9.85149
誘	-9.85168
卽	-9.85204
構	-9.85266
十丈	-9.85269
淨	-9.85305
沂	-9.85306
繪	-9.8534
儒學	-9.85352
時有	-9.8541
在府	-9.85442
文章	-9.8546
以其	-9.85492
建炎	-9.85536
廡	-9.85656
也其	-9.85683
湛	-9.85686
數千	-9.85922
十二里	-9.86009
雀	-9.86035
起至	-9.86038
乙	-9.86057
同上	-9.86133
有餘	-9.86145
一丈	-9.86226
元祐	-9.86241
屠	-9.86257
窺	-9.86309
之時	-9.86327
銓	-9.8636
五千	-9.86394
飯	-9.86416
又西	-9.86421
莫不	-9.8643
邁	-9.86451
鮑	-9.86484
眞	-9.86486
縣知縣	-9.86619
遐	-9.86622
甃	-9.86673
嘉興	-9.86722
廟在	-9.86736
岀	-9.86745
攜	-9.86784
槐	-9.86812
溺	-9.86832
皇上	-9.86899
江水	-9.86966
鑒	-9.86969
歙	-9.87007
圮	-9.87011
挺	-9.87066
数	-9.8707
昏	-9.87127
𩔖	-9.87127
聞之	-9.87165
淡	-9.87192
宣和	-9.87202
妻周氏	-9.87298
武進人	-9.87302
淑	-9.87338
東南流	-9.87357
尸	-9.87391
互	-9.87497
之名	-9.87525
士民	-9.87548
自縊	-9.87603
死之	-9.87607
催	-9.8763
廊	-9.87639
萬年	-9.87681
璋	-9.87701
墾	-9.87741
山有	-9.87798
踐	-9.87822
泛	-9.87844
棺	-9.87922
萬餘	-9.87962
一百二十	-9.87982
曰我	-9.87987
至正	-9.88027
新安	-9.88151
艾	-9.88293
金陵	-9.88319
隣	-9.88336
琳	-9.88346
頻	-9.88354
㳺	-9.885
十九	-9.88543
託	-9.88581
憑	-9.88629
不受	-9.88754
使者	-9.88815
鞏	-9.88845
虹	-9.88878
儼	-9.88916
其家	-9.88958
被執	-9.89081
殆	-9.8911
之道	-9.8912
砌	-9.89208
入於	-9.8924
壞	-9.89247
陟	-9.89268
天台	-9.89343
河西	-9.89414
氏女	-9.89458
牌	-9.89459
油	-9.89493
家貧	-9.89514
河自	-9.89558
頒	-9.89592
狹	-9.89635
諸侯	-9.89677
訖	-9.89805
乾道	-9.89813
哩	-9.8983
奕	-9.89835
趣	-9.89873
契	-9.89873
崩	-9.8988
濁	-9.8988
棗	-9.89893
妻徐氏	-9.89932
株	-9.89944
東陽	-9.89961
粮	-9.89964
出為	-9.90002
腰	-9.90128
舉進士	-9.9018
卒贈	-9.90182
二千	-9.90215
六里	-9.90285
白馬	-9.903
涼	-9.90346
将軍	-9.90369
永嘉	-9.90418
河口	-9.90469
壅	-9.90473
巧	-9.9053
髙祖	-9.90559
沁	-9.90559
函	-9.90614
繡	-9.90648
祀之	-9.90724
斂	-9.90729
冲	-9.90785
一千	-9.90825
永豐	-9.90858
祗	-9.90888
觀音	-9.909
諸水	-9.90954
境内	-9.90988
莽	-9.90991
京兆	-9.9103
倪	-9.91034
呂	-9.91176
匡	-9.91285
堆	-9.91307
郡縣	-9.91336
足以	-9.91347
為名	-9.91351
琦	-9.91371
堵	-9.91376
隙	-9.91379
州西	-9.91387
攸	-9.91417
廖	-9.91516
大學士	-9.91536
犬	-9.91614
燭	-9.91691
強	-9.91782
東北流	-9.91804
稻	-9.91808
中為	-9.91843
圩	-9.91879
父老	-9.92002
淹	-9.92035
㓜	-9.92101
畜	-9.92152
北岸	-9.92158
廩	-9.9218
所至	-9.92229
之子	-9.9229
仇	-9.92435
九里	-9.92463
嗟	-9.92564
蔚	-9.92629
其水	-9.92649
天啟	-9.92668
演	-9.9272
了	-9.92739
二丈	-9.92792
有一	-9.92987
軍民	-9.9306
李氏	-9.93062
内外	-9.93072
柯	-9.93141
挾	-9.93202
巫	-9.93202
明一統志	-9.93248
張氏	-9.93276
邀	-9.93286
寃	-9.93286
窟	-9.93296
十餘里	-9.93296
後周	-9.93318
工部	-9.93375
峭	-9.93476
潦	-9.93756
播	-9.93764
海鹽	-9.93828
轉運使	-9.93838
拂	-9.9385
碩	-9.93892
人皆	-9.93903
遍	-9.94039
陋	-9.94068
帝時	-9.94073
龍潭	-9.94148
譽	-9.94159
出入	-9.94214
冢	-9.94246
不同	-9.94308
坤	-9.9432
流賊	-9.94325
學者	-9.94367
峒	-9.94429
而無	-9.94533
培	-9.94558
健	-9.94573
婚	-9.94576
僚	-9.94627
一曰	-9.9464
檢	-9.94661
政和	-9.94747
二十四年	-9.94776
甘泉	-9.94897
初為	-9.949
分防	-9.94934
州東	-9.94964
郝	-9.94992
二十三年	-9.95
偃	-9.95053
十一年任	-9.95202
洽	-9.95213
監生	-9.95245
一十	-9.95294
無子	-9.95312
疎	-9.95378
幕	-9.9539
諾	-9.95397
子弟	-9.95419
貽	-9.95431
滯	-9.95505
厰	-9.9553
城在	-9.9567
嶼	-9.95756
壹拾	-9.95758
節度	-9.95825
清水	-9.95885
孚	-9.95886
廢縣	-9.95897
戲	-9.95923
溉	-9.9594
竈	-9.95946
團	-9.9599
叅政	-9.96042
忍	-9.96183
博士	-9.96187
孺	-9.9621
益州	-9.96212
產	-9.96219
禽	-9.96272
暉	-9.9629
㓂	-9.96305
形如	-9.96448
寫	-9.96492
在府治	-9.96613
二十一年	-9.96708
而東	-9.96792
㢘	-9.96848
二十二年	-9.96858
日月	-9.96858
掖	-9.96943
探	-9.96973
遏	-9.96982
在州東	-9.97057
詹	-9.9711
埃	-9.97168
嬰	-9.97174
暢	-9.97175
勾	-9.97189
之功	-9.97193
巾	-9.97213
陽城	-9.97284
確	-9.97289
官兵	-9.97307
嵐	-9.97311
百丈	-9.97324
憶	-9.97334
晝夜	-9.97388
淳熙	-9.97397
形勢	-9.975
頼	-9.97532
括	-9.97546
宸	-9.97556
明統志	-9.97569
妻趙氏	-9.97639
膏	-9.97697
冕	-9.97725
斌	-9.97733
亞	-9.97736
宰相	-9.97802
數萬	-9.97822
妻朱氏	-9.97892
彩	-9.98046
龎	-9.98092
之士	-9.98094
宣徳	-9.98115
緣	-9.9814
之不	-9.9818
又東逕	-9.98256
地理志	-9.98301
冒	-9.98323
樸	-9.98341
之民	-9.98356
聨	-9.98367
更名	-9.98382
漢置	-9.98409
暫	-9.98524
武功	-9.98574
左傳	-9.98588
云云	-9.986
為一	-9.98621
廨	-9.98649
松江	-9.98694
奠	-9.98816
之患	-9.98856
罔	-9.98913
囊	-9.98935
安福	-9.98957
片	-9.98999
郷	-9.99071
俄	-9.99072
湍	-9.99223
貝	-9.9923
珪	-9.99237
搆	-9.99241
十萬	-9.99268
時任	-9.99308
厭	-9.99329
之日	-9.99332
欺	-9.9935
獸	-9.99381
湖水	-9.99411
擅	-9.99434
在州西	-9.99451
翻	-9.99474
元史	-9.99492
薪	-9.9955
瀛	-9.99577
六百	-9.99604
鄱陽	-9.99662
徧	-9.99666
水合	-9.9968
有聲	-9.9968
帳	-9.99703
盟	-9.99704
滑	-9.99803
元豐	-9.99852
長樂	-9.99874
亘	-10.0006
涵	-10.0006
梵	-10.0008
平縣	-10.0009
一年	-10.0009
是為	-10.0017
以備	-10.0018
觸	-10.0022
不屈	-10.0024
北有	-10.0025
不許	-10.0041
暨	-10.0042
歟	-10.0044
〔	-10.005
貸	-10.006
雍正五年	-10.0063
鬻	-10.0071
撫孤	-10.0074
遽	-10.0075
築城	-10.0085
囚	-10.0096
婆	-10.0097
丙	-10.0097
贍	-10.0101
行省	-10.0102
二十五年	-10.0103
既而	-10.0103
建安	-10.0106
屍	-10.0108
雁	-10.0109
武陵	-10.0109
南海	-10.0113
清江	-10.0117
沐	-10.0118
諸軍	-10.0126
至是	-10.0131
捷	-10.0135
中國	-10.0143
溫	-10.0149
仙人	-10.0153
一百五十	-10.0155
吐蕃	-10.0156
流經	-10.0167
二十八	-10.017
三丈	-10.0177
阮	-10.0179
文學	-10.018
帖	-10.0181
扎	-10.0183
平江	-10.0185
十卷	-10.0199
丕	-10.0203
七分	-10.0203
邇	-10.0203
裂	-10.0205
是時	-10.0207
後人	-10.0215
巡檢	-10.0215
安定	-10.0221
瑾	-10.0253
貌	-10.0258
冰	-10.0261
禎	-10.0276
遶	-10.0283
愧	-10.0284
牢	-10.0289
上書	-10.029
治平	-10.0294
竝	-10.0295
在南	-10.031
疇	-10.0316
版	-10.0319
河内	-10.032
數十里	-10.0321
侍中	-10.0321
〕〔	-10.0324
平原	-10.0327
江陵	-10.0334
上流	-10.0336
諸山	-10.0342
湖南	-10.0348
數年	-10.0355
遙	-10.0356
䑓	-10.0356
近刻	-10.0364
又云	-10.0365
證	-10.0366
繕	-10.0369
站	-10.0369
者曰	-10.0374
膠	-10.0375
恪	-10.038
䧟	-10.0386
荘	-10.0389
覩	-10.0397
西域	-10.0397
鋒	-10.0406
各有	-10.0413
通州	-10.0418
今名	-10.042
喻	-10.0421
掃	-10.043
千户	-10.0431
南岸	-10.0431
在州	-10.0433
貶	-10.0436
壓	-10.0436
二十六年	-10.0437
拾	-10.0439
庾	-10.044
牐	-10.0442
在城北	-10.0443
里自界首至	-10.0444
帑	-10.0447
貲	-10.0447
時為	-10.0454
二萬	-10.0455
流至	-10.0466
人嘉靖	-10.0468
䟽	-10.0478
三百里	-10.0486
狐	-10.0495
狂	-10.0495
從事	-10.0498
里許	-10.0501
則有	-10.0509
朋	-10.0509
海口	-10.0519
憚	-10.0519
鞭	-10.0519
沮	-10.0522
二十六	-10.0528
吏部	-10.053
膺	-10.0541
司空	-10.0542
榆林	-10.0543
文武	-10.0545
四千	-10.0545
家莊	-10.0549
筠	-10.0553
臨川	-10.0563
永昌	-10.0572
明初	-10.0574
䝉古	-10.0581
人父	-10.0581
栗	-10.0583
竄	-10.0589
是年	-10.0596
軌	-10.0596
此山	-10.0602
刼	-10.0616
塩	-10.0622
巡司	-10.0629
鼔	-10.063
巒	-10.0633
蓮花	-10.0634
人監生	-10.064
䕃	-10.0642
杏	-10.065
慶元	-10.0653
詰	-10.0656
山上	-10.0658
唱	-10.0659
漕運	-10.0659
之下	-10.066
山北	-10.0669
潜	-10.067
混	-10.0677
四面	-10.0684
暑	-10.0689
久之	-10.0699
也又	-10.0701
往往	-10.0702
絹	-10.0706
僻	-10.0709
不忍	-10.0713
牟	-10.0714
府治	-10.0716
白石	-10.0721
已上	-10.0725
臂	-10.0726
以功	-10.0729
纂	-10.0729
喀	-10.0736
鋭	-10.0736
九江	-10.0737
間建	-10.0744
鐡	-10.0754
専	-10.0755
脊	-10.0758
長洲	-10.0762
天下之	-10.0765
從征	-10.0768
蘇軾	-10.0769
梯	-10.077
南有	-10.0772
長洲人	-10.0775
二子	-10.0786
記曰	-10.0801
峩	-10.0804
仕至	-10.0807
河決	-10.0811
𣺌	-10.0814
又曰	-10.0814
従	-10.0816
瑜	-10.0819
舅姑	-10.0823
牽	-10.0828
其言	-10.0835
太學	-10.0838
貳拾	-10.0846
而寡	-10.085
者亦	-10.086
碑記	-10.0862
而為	-10.0865
寕縣	-10.087
明嘉靖	-10.0872
部郎中	-10.0873
玩	-10.0877
欄	-10.0879
山隂	-10.0879
案近刻	-10.0881
拓	-10.0888
流逕	-10.0893
瀦	-10.0897
廣州	-10.0901
洪武初	-10.0901
鄴	-10.0904
見其	-10.0909
掘	-10.0915
其餘	-10.092
城外	-10.0933
東海	-10.0938
兵馬	-10.0942
太平興國	-10.0951
鷄	-10.0951
九分	-10.0956
為大	-10.0957
一百五十里	-10.0964
府學	-10.0966
肩	-10.0966
二十七年	-10.0969
對曰	-10.0978
填	-10.0984
天寶	-10.0986
纔	-10.0989
洞庭	-10.0992
貞元	-10.0993
二人	-10.0994
蟠	-10.0996
漂	-10.0998
苦節	-10.1011
今改正	-10.1014
衙	-10.1015
鄞	-10.103
赦	-10.1037
一切	-10.1043
長興	-10.1048
鈞	-10.1049
渤海	-10.1058
瓜	-10.1065
逵	-10.1068
快	-10.1072
而南	-10.1076
敞	-10.108
湖州	-10.1086
觧	-10.1086
户部	-10.1087
綺	-10.1094
核	-10.1097
撤	-10.1099
城西南	-10.11
鉅	-10.1102
綠	-10.1105
南康	-10.1106
提督	-10.1107
者以	-10.1112
新建	-10.1132
永平	-10.1138
世宗	-10.1139
瀘	-10.1142
石城	-10.1146
稼	-10.1156
上疏	-10.1157
在西	-10.1158
綽	-10.1168
楷	-10.1168
泰和	-10.1172
父子	-10.1172
校尉	-10.1175
地名	-10.1178
濕	-10.1186
澹	-10.1187
俗呼	-10.119
匯	-10.12
孝子	-10.1202
江淮	-10.1202
遞	-10.1204
太白	-10.1209
興化	-10.1212
脫	-10.1212
欵	-10.1217
水入	-10.1234
田地	-10.1235
凱	-10.1239
淳祐	-10.1239
䕫	-10.1241
石橋	-10.1243
洪武中	-10.1249
燦	-10.1251
閔	-10.1252
文集	-10.126
飄	-10.1262
為政	-10.1264
猺	-10.1264
故曰	-10.1267
好學	-10.1267
餘姚	-10.1271
誼	-10.1281
嘆	-10.1282
畔	-10.1283
昻	-10.129
辯	-10.1293
㧞	-10.1299
碎	-10.1303
二十七	-10.1304
沖	-10.1318
瀾	-10.1325
卒於	-10.1325
咸陽	-10.1327
白水	-10.1328
暗	-10.1329
城下	-10.1335
即古	-10.1337
二十二	-10.1341
拘	-10.1347
蘓	-10.1349
年二十	-10.135
居之	-10.1359
飢	-10.1364
尚存	-10.1371
江東	-10.1371
見之	-10.1378
永寧	-10.1387
開皇	-10.1388
毓	-10.1389
所築	-10.1391
興國	-10.1393
八尺	-10.1394
長子	-10.1397
新昌	-10.1399
䘮	-10.14
七千	-10.1402
大水	-10.1414
稷	-10.1414
絡	-10.1415
千總	-10.1415
遮	-10.1417
肯	-10.142
邸	-10.1422
郁	-10.1427
之心	-10.143
家口	-10.1432
天文	-10.1443
準	-10.1444
仗	-10.1445
家橋	-10.1452
字仲	-10.1453
睦	-10.1457
誌	-10.1458
嶂	-10.1459
十三年任	-10.146
霽	-10.1461
髮	-10.1476
山麓	-10.1479
罵	-10.148
大業	-10.1485
墮	-10.1494
丑進士	-10.1495
直隸	-10.1497
巔	-10.1497
賤	-10.1497
改屬	-10.1499
軍節度使	-10.1499
王子	-10.15
爛	-10.1501
有小	-10.1503
涪	-10.1505
所屬	-10.1513
妻胡氏	-10.1514
朴	-10.1517
不食	-10.1518
字伯	-10.1523
㨗	-10.1528
墻	-10.1528
詳見	-10.1533
古人	-10.1535
擊之	-10.1537
蛟	-10.155
見前	-10.155
遼陽	-10.1552
而上	-10.1555
諸將	-10.1555
妻黄氏	-10.156
成立	-10.1567
跪	-10.1571
吉水	-10.1575
槩	-10.1576
沅	-10.1577
秘	-10.1578
之則	-10.159
元帥	-10.1595
測	-10.1598
南城	-10.1605
山陽	-10.1607
博學	-10.1616
豁	-10.1622
山谷	-10.163
石室	-10.163
今廢	-10.1631
閱	-10.1641
猿	-10.1641
青山	-10.1644
二十八年	-10.1646
實在	-10.1648
城東南	-10.1651
在府城	-10.1653
改建	-10.1664
水之	-10.1666
揮	-10.1666
染	-10.1682
朱子	-10.1688
凖	-10.1689
川縣	-10.1692
用之	-10.1693
水又東	-10.1696
溜	-10.1701
雕	-10.1701
扼	-10.1701
王莽	-10.1708
樂平	-10.1712
迪	-10.1714
都尉	-10.1716
駭	-10.172
輦	-10.172
駐劄	-10.1724
旣	-10.1726
言之	-10.1727
必有	-10.1727
斛	-10.173
岷	-10.1731
在東	-10.1733
熱	-10.1736
鄉試	-10.1736
元至元	-10.1736
其一	-10.1745
臨江	-10.175
誥	-10.1752
以後	-10.1755
俗名	-10.176
已而	-10.1763
故事	-10.1768
崑崙	-10.1777
欣	-10.1778
訥	-10.178
臨海	-10.1783
無錫人	-10.1787
布政司	-10.1791
璽	-10.1793
芙蓉	-10.1795
司徒	-10.1797
諌	-10.1798
另	-10.1802
之故	-10.1802
後漢書	-10.1807
貢生	-10.1807
常熟	-10.1807
逺近	-10.1809
名宦	-10.1812
郢	-10.1817
淫	-10.1826
分野	-10.1838
開封	-10.1839
餘杭	-10.184
憤	-10.1842
地理	-10.1867
脅	-10.1872
其名	-10.1873
弁	-10.1873
南唐	-10.1875
萬五千	-10.1877
豹	-10.1878
數日	-10.1878
臨清	-10.1879
公主	-10.1888
學正	-10.1888
桃源	-10.189
償	-10.1898
參政	-10.19
南海人	-10.1903
立祠	-10.1904
耆	-10.1907
建武	-10.1908
西有	-10.1908
半里	-10.1908
箕	-10.1909
華山	-10.1909
収	-10.1911
疋	-10.1917
脈	-10.1921
不絶	-10.1925
利害	-10.1926
鄉里	-10.1929
歿	-10.1938
泄	-10.194
不至	-10.1945
勁	-10.1945
西南流	-10.195
歴官	-10.196
沙河	-10.1962
民間	-10.1965
在城	-10.1968
樂安	-10.1974
在州南	-10.1977
贑	-10.1977
不如	-10.1979
官軍	-10.1988
本朝乾隆	-10.1989
臧	-10.1989
戮	-10.199
算	-10.1994
糴	-10.1999
得之	-10.2
長官司	-10.2002
第二	-10.2003
茹	-10.2004
戈	-10.2006
庠生	-10.2008
衮	-10.2013
螺	-10.2018
十七年任	-10.202
駐防	-10.2021
城東北	-10.2028
永興	-10.2029
三萬	-10.2032
率衆	-10.2033
叟	-10.2037
鄙	-10.2039
敝	-10.2045
後以	-10.2051
金人	-10.2053
河源	-10.2056
之中	-10.2056
十八年任	-10.2063
妻吳氏	-10.2071
即位	-10.2072
兩浙	-10.2079
敕	-10.2082
七日	-10.2085
凶	-10.2089
悍	-10.2091
殉	-10.2093
関	-10.2098
几	-10.2101
昆明	-10.2102
蠶	-10.2104
先後	-10.2105
溧陽	-10.2115
緯	-10.2115
妻沈氏	-10.2125
浴	-10.2126
庠	-10.2126
唐書地理志	-10.2131
簾	-10.2134
吏民	-10.2139
平湖	-10.214
諒	-10.2147
未進士	-10.2149
釣	-10.2154
皆以	-10.2156
穎	-10.216
溪水	-10.2169
天寳	-10.2171
水口	-10.2173
誕	-10.2176
樁	-10.218
贖	-10.218
縷	-10.218
牒	-10.2182
線	-10.2184
灑	-10.2184
崑山人	-10.2186
公祠	-10.2189
黍	-10.2191
明萬厯	-10.2211
聊	-10.2216
雍正七年	-10.222
無錫	-10.2221
人心	-10.2225
上元	-10.2228
之亂	-10.2238
二十一	-10.224
襟	-10.2243
𥘉	-10.2246
涯	-10.2263
滄	-10.2267
改名	-10.227
罰	-10.2271
効	-10.2276
籌	-10.2276
晉書	-10.2277
王公	-10.2277
不通	-10.2278
浜	-10.228
之學	-10.2282
琮	-10.2284
契丹	-10.2287
金山	-10.2297
吳越	-10.2304
平地	-10.2323
太尉	-10.2325
劉氏	-10.2325
大定	-10.2325
省志	-10.2326
陽郡	-10.2329
甕	-10.2332
十年任	-10.2336
捨	-10.2336
晩	-10.2337
人萬厯	-10.2338
札	-10.2339
網	-10.2348
年十九	-10.2348
之言	-10.2349
彈	-10.2352
修葺	-10.2358
縛	-10.2359
如故	-10.236
明日	-10.2362
康熙四十	-10.2362
太倉	-10.2364
竣	-10.237
嗜	-10.2371
扁	-10.2384
薨	-10.2387
領縣	-10.2396
迄	-10.2396
府城	-10.2399
渉	-10.2401
東平	-10.2403
罵賊	-10.2407
五丈	-10.2407
迫	-10.241
二十三	-10.2417
訴	-10.2417
扶風	-10.242
鑾	-10.2429
巡按	-10.2431
石壁	-10.2454
剿	-10.2461
山頂	-10.2463
禮部	-10.2465
頴	-10.2465
東山	-10.2469
後世	-10.2469
靣	-10.2473
百年	-10.2473
二州	-10.2484
州知州	-10.2485
神宗	-10.2491
絃	-10.2497
幣	-10.2498
十四年任	-10.2499
常熟人	-10.25
姓名	-10.2505
登進士	-10.2509
兩四錢	-10.2523
嘉靖間	-10.2533
寧人	-10.2539
十餘丈	-10.2541
妖	-10.2547
同州	-10.2549
𣲖	-10.2549
蒸	-10.255
彥	-10.255
十三里	-10.2552
柩	-10.2554
世傳	-10.2556
同縣	-10.2558
挽	-10.2558
州南	-10.2563
太后	-10.2566
布政	-10.2568
萬厯間	-10.257
江都	-10.2575
皇朝	-10.258
奬	-10.2582
戌進士	-10.2588
生子	-10.2589
一百三十	-10.2589
今為	-10.2594
滴	-10.2604
吳興	-10.2616
視之	-10.2621
二十九	-10.2624
弄	-10.2633
百户	-10.2633
水患	-10.2636
之勢	-10.2646
嘉靖中	-10.266
望之	-10.2669
稱其	-10.2679
而卒	-10.268
㟁	-10.2685
陳氏	-10.2689
民之	-10.2701
爐	-10.2701
東坡	-10.2704
濮	-10.2705
應天	-10.2705
宋時	-10.2712
蘿	-10.2713
嘉祐	-10.2718
相對	-10.2718
死者	-10.272
城陷	-10.2721
陪	-10.2721
瓚	-10.2722
也故	-10.2724
電	-10.2726
員外郎	-10.2727
號曰	-10.2727
眷	-10.2747
相與	-10.2748
扇	-10.275
一十里	-10.2752
俘	-10.2755
出於	-10.2757
剡	-10.2761
芒	-10.2761
弔	-10.2762
鉞	-10.2765
經史	-10.2771
五尺	-10.2776
新河	-10.2777
其利	-10.2779
奥	-10.278
眺	-10.2781
地勢	-10.2782
雒	-10.2788
丈餘	-10.2791
揭	-10.2794
裳	-10.2795
股	-10.2797
三江	-10.2799
恬	-10.28
大河	-10.2804
草木	-10.281
忠義	-10.2817
艘	-10.2819
稱為	-10.2832
悔	-10.2835
兵部尚書	-10.2837
三十五	-10.2839
敘	-10.2843
霑	-10.285
副將	-10.2852
坂	-10.2852
光武	-10.2853
而北	-10.2858
兩二錢	-10.2859
泰州	-10.2859
頤	-10.2864
洮	-10.2865
之義	-10.2866
剏	-10.2869
千八百	-10.2871
羲	-10.2873
人進	-10.2876
名勝志	-10.2883
邕	-10.2889
平定	-10.289
愷	-10.2892
刹	-10.2893
卒於官	-10.2899
四十年	-10.2904
東入	-10.2905
閑	-10.2906
如是	-10.2907
百二十里	-10.2944
塟	-10.2945
水也	-10.2947
輿地紀勝	-10.2948
皓	-10.2952
窪	-10.2952
州境	-10.2954
天門	-10.2957
圖經	-10.2962
瑄	-10.2963
在府城東	-10.2966
治之	-10.2966
祠在	-10.2983
緬	-10.2985
伸	-10.2987
駿	-10.2988
四時	-10.2992
臘	-10.2992
伍拾	-10.2993
然則	-10.2994
搜	-10.2995
餘姚人	-10.2996
事聞	-10.2997
前有	-10.3004
桃花	-10.3007
叩	-10.3007
吞	-10.3011
萬四千	-10.3013
肆拾	-10.3014
烏程	-10.3014
䖏	-10.3015
三員	-10.3021
三原	-10.3021
烈婦	-10.3021
鼻	-10.3023
棘	-10.3023
兩岸	-10.3024
瞿	-10.3031
尖	-10.3031
常州	-10.3031
譙	-10.3034
國語	-10.3036
兩五錢	-10.3037
雲中	-10.3037
皇后	-10.3039
西河	-10.3043
梗	-10.3049
咸淳	-10.3049
胄	-10.3052
北齊	-10.3053
兩六錢	-10.3054
戰國	-10.3057
著字	-10.3059
甚多	-10.306
東有	-10.3066
二十九年	-10.3071
工程	-10.3072
雉	-10.3077
者有	-10.3079
河之	-10.308
軍事	-10.3081
多所	-10.3082
夫卒	-10.3084
者不	-10.3084
一百四十	-10.3086
庄	-10.309
熙寧	-10.3094
苔	-10.3096
貝勒	-10.3098
運道	-10.31
妻孫氏	-10.3114
濡	-10.3115
于是	-10.3116
濫	-10.3117
相近	-10.3124
粉	-10.3126
妻子	-10.313
脉	-10.3134
中丞	-10.3138
刋	-10.3141
牲	-10.3143
一百八十里	-10.3146
慶厯	-10.3149
合流	-10.315
積石	-10.3152
二卷	-10.3155
本朝因之	-10.3159
防禦	-10.3161
有詩	-10.3163
衣冠	-10.3164
晟	-10.3165
浙西	-10.3167
十五年任	-10.317
守兵	-10.317
奢	-10.317
平章	-10.3173
杯	-10.3182
在城内	-10.3183
又以	-10.3183
額曰	-10.3184
昨	-10.3184
相望	-10.319
嗚呼	-10.3203
盂	-10.3204
估	-10.3209
入江	-10.3211
埠	-10.3212
五色	-10.3212
一萬	-10.3212
柘	-10.3219
南安	-10.3222
聶	-10.3224
守禦	-10.3226
桂陽	-10.3228
防守	-10.3236
抽	-10.3239
磯	-10.3241
士卒	-10.3253
又西南	-10.3254
謹按	-10.3255
來注之	-10.3257
瑶	-10.326
萬六千	-10.3261
茫	-10.3261
十九年任	-10.3263
以聞	-10.3265
闔	-10.3267
留守	-10.3273
一座	-10.3276
自此	-10.3276
以通	-10.3278
九千	-10.3284
實録	-10.3286
驥	-10.3286
文昌	-10.3291
慟	-10.3295
不必	-10.3302
馴	-10.3307
苖	-10.3312
摧	-10.3313
璫	-10.3313
勃	-10.3313
有記	-10.3325
渝	-10.3327
十二年任	-10.3327
仁和	-10.3331
家人	-10.3331
北三十里	-10.3334
率兵	-10.3337
窩	-10.334
數里	-10.3342
有古	-10.3343
夫子	-10.3349
終身	-10.3351
十六年任	-10.3352
每嵗	-10.3353
城西北	-10.336
寰	-10.3362
華亭人	-10.3363
侃	-10.3363
五日	-10.3365
西流	-10.3371
觀察使	-10.3373
减	-10.3374
順天	-10.3382
顛	-10.3382
東漢	-10.3384
著有	-10.3384
聖人	-10.3387
三楹	-10.3389
賛	-10.3394
州北	-10.3402
布政使	-10.3404
彭城	-10.3405
斧	-10.3406
檜	-10.3409
邃	-10.3412
廬墓	-10.3415
萬安	-10.3416
矯	-10.3418
之制	-10.3421
冉	-10.3421
踏	-10.3427
黜	-10.3429
乂	-10.3435
奉㫖	-10.3436
梧	-10.3437
年建	-10.3439
編户	-10.3441
漾	-10.3441
科給事中	-10.3442
至大	-10.3443
之説	-10.3445
猶存	-10.3451
廣陵	-10.3452
掾	-10.3454
賚	-10.3459
城郭	-10.346
徼	-10.3462
名山	-10.3465
不肯	-10.3466
江寧	-10.3467
販	-10.3471
青州	-10.3473
嶠	-10.3475
仁宗	-10.3477
其父	-10.3484
康熙三十	-10.3486
嘯	-10.3494
可謂	-10.3496
歸安	-10.3497
在縣治東	-10.3497
癸	-10.3499
不然	-10.3501
璉	-10.3504
亢	-10.3505
與之	-10.3509
嚮	-10.3513
椒	-10.3518
魂	-10.3518
内史	-10.3521
宜興	-10.3531
敖	-10.3533
廻	-10.3537
隊	-10.3538
真人	-10.3539
酬	-10.3539
而西	-10.3546
瀑	-10.3546
三年任	-10.3546
以子	-10.3547
五年任	-10.3553
以示	-10.3557
泰山	-10.3563
以待	-10.3566
不出	-10.3567
厯官	-10.3571
陡	-10.3572
文公	-10.3575
湮	-10.3579
剖	-10.3584
來㑹	-10.3588
間任	-10.3589
蔓	-10.359
惑	-10.3592
愍	-10.3594
參軍	-10.3594
郡王	-10.3598
鎬	-10.3604
附郭	-10.3606
陸拾	-10.3613
涇陽	-10.3617
舊址	-10.3619
一十五里	-10.3621
百步	-10.3621
州志	-10.3625
者多	-10.3626
覈	-10.3628
昊	-10.3628
然而	-10.3629
扣	-10.363
長城	-10.3631
萃	-10.3632
不勝	-10.3635
沽	-10.3642
間有	-10.3643
攷	-10.3648
犀	-10.3654
安撫	-10.3665
況	-10.3667
龕	-10.3668
一道	-10.3669
牀	-10.3673
誨	-10.3678
之役	-10.3678
鐫	-10.3679
薊	-10.3682
療	-10.3684
永康	-10.3686
滌	-10.3691
鳯翔	-10.3693
曜	-10.3697
瑛	-10.3697
浮梁	-10.3698
之勝	-10.3698
或曰	-10.3703
懇	-10.3705
政事	-10.3709
僑	-10.3709
啼	-10.3709
蘄	-10.371
在府城西	-10.3713
辰進士	-10.3719
歙縣人	-10.3723
入城	-10.3728
弩	-10.3729
周圍	-10.3729
一百六十	-10.373
羨	-10.3737
大興	-10.3741
鈎	-10.3746
并州	-10.3752
昔有	-10.3758
六合	-10.3759
高祖	-10.3763
之盛	-10.3766
士大夫	-10.377
崇徳	-10.3773
二名	-10.3779
壹千	-10.3781
年八十	-10.3784
江山	-10.3788
臣等	-10.3789
西魏	-10.379
元末	-10.3792
吏部尚書	-10.3794
二水	-10.3795
雍正八年	-10.3799
濯	-10.38
安仁	-10.3803
其先	-10.3807
揆	-10.3807
嘴	-10.3809
踞	-10.3814
廂	-10.3816
㕘	-10.3818
裘	-10.3819
矜	-10.3823
楓	-10.3824
坎	-10.3824
晋	-10.3825
藴	-10.3826
字元	-10.3827
而出	-10.3828
廓	-10.3828
不與	-10.3833
鞍	-10.3834
欠	-10.3835
孝友	-10.3841
詭	-10.3843
一百八十	-10.385
突厥	-10.3851
進賢	-10.3854
安國	-10.3854
七年任	-10.3856
不就	-10.3858
綴	-10.3861
庻	-10.3862
江口	-10.3863
今之	-10.3868
狀如	-10.3878
稀	-10.3879
秀水	-10.388
海寧	-10.3881
永新	-10.3883
者必	-10.3884
講學	-10.3886
於朝	-10.3888
匈奴	-10.3888
皇清	-10.3888
如何	-10.3891
陳留	-10.3895
舌	-10.3896
菊	-10.3904
夔	-10.3905
寥	-10.3913
檢校	-10.3922
西京	-10.3923
旁有	-10.3936
勦	-10.3939
以便	-10.3949
摘	-10.3954
後有	-10.3954
老人	-10.3955
水西	-10.3956
雍正六年	-10.3956
柵	-10.3958
無以	-10.3959
棠	-10.3967
之際	-10.3974
埋	-10.3974
一百三十里	-10.3975
巡檢司	-10.3975
嶺南	-10.398
淮安	-10.3981
瑩	-10.3984
隴西	-10.3984
破之	-10.3994
南昌人	-10.3995
謬	-10.3996
稜	-10.4004
文字	-10.4007
通鑑	-10.4008
延祐	-10.4009
迨	-10.4014
在州北	-10.4015
七尺	-10.4018
其東	-10.4019
濓	-10.4023
汀	-10.4026
彪	-10.4029
王廟	-10.4034
武定	-10.4039
雍正九年	-10.4049
昂	-10.405
國朝順治	-10.4055
人崇禎	-10.4056
谷水	-10.4059
吳江	-10.4061
提學	-10.4063
雍正四年	-10.4065
渭南	-10.4067
蓬萊	-10.4068
両	-10.4084
本朝順治	-10.4086
遇害	-10.4088
奏請	-10.4091
相連	-10.4096
諸葛	-10.4096
㫁	-10.4099
文獻	-10.4102
恥	-10.4102
駐蹕	-10.4105
楫	-10.4107
部主事	-10.4108
之内	-10.4112
江夏	-10.4115
分置	-10.4117
四年任	-10.4117
淪	-10.412
倘	-10.412
其人	-10.4124
侈	-10.4128
邑令	-10.4128
芮	-10.413
陵縣	-10.4131
賜額	-10.4134
弛	-10.4136
暖	-10.4145
上虞	-10.4149
億	-10.4151
南流入	-10.4154
此地	-10.4164
天啓	-10.4167
枚	-10.4184
進士知	-10.4185
諷	-10.4188
癸未	-10.419
改置	-10.4195
有泉	-10.4197
郡志	-10.4201
徴銀	-10.4202
淳化	-10.4207
七十二	-10.4209
朝夕	-10.4211
未婚	-10.4215
門四	-10.4217
漢軍	-10.4224
在府城南	-10.4233
廬江	-10.4233
九域志	-10.4236
南五十里	-10.4241
白鹿	-10.4241
戊	-10.4242
國朝康熙	-10.425
掛	-10.4254
後廢	-10.4256
旨	-10.4257
以致	-10.4265
分司	-10.427
柄	-10.427
以防	-10.4277
譯	-10.4281
蝗	-10.4283
諡曰	-10.4285
第三	-10.429
立廟	-10.4296
鳯凰	-10.4296
鷹	-10.4298
恢	-10.4303
亦可	-10.4308
遊擊	-10.431
郡太守	-10.4312
行之	-10.4312
分為	-10.4318
討之	-10.432
鬬	-10.4323
以死	-10.4326
㤗	-10.4327
遂以	-10.433
叅議	-10.4331
改今名	-10.4332
無窮	-10.4332
也夫	-10.4336
諸郡	-10.4339
徵銀	-10.4343
右翼	-10.4352
宣德	-10.4352
駱	-10.4353
形勝	-10.4353
廬山	-10.4356
異之	-10.4361
淮水	-10.4362
剪	-10.4363
太僕	-10.4369
咸平	-10.437
由此	-10.4372
南入	-10.4378
磚	-10.4379
蟲	-10.4381
詐	-10.4383
縣置	-10.4385
歐	-10.4389
食之	-10.4391
粥	-10.4393
兵部	-10.4398
大徳	-10.44
雍正二年	-10.4402
舟楫	-10.4402
粹	-10.4405
萬八千	-10.4406
保定	-10.4407
北四十里	-10.4411
姬	-10.4413
研	-10.4414
人也	-10.4414
馭	-10.4415
得名	-10.4417
取之	-10.442
踵	-10.4424
召為	-10.4424
廣濟	-10.4429
自古	-10.4431
上黨	-10.4434
二字	-10.4435
穹	-10.4436
刻石	-10.4437
江州	-10.4438
注於	-10.444
寧縣	-10.4443
山隂人	-10.445
黄巖	-10.4456
作亂	-10.4457
管理	-10.4465
靳	-10.4465
禧	-10.4466
岫	-10.4467
昌縣	-10.4468
萬石	-10.4472
石塘	-10.4473
一百四十里	-10.4475
旭	-10.4476
濟南	-10.4479
甲子	-10.4481
璘	-10.4481
致祭	-10.4481
夙	-10.4482
數月	-10.4483
鴨	-10.4487
砂	-10.4493
行宫	-10.4494
盆	-10.4496
灤	-10.4497
居此	-10.4498
二年任	-10.45
婺	-10.4502
府人	-10.451
妻呉氏	-10.4512
呼為	-10.4517
騷	-10.4518
飽	-10.4519
鳳翔	-10.4524
斃	-10.4526
明帝	-10.4528
狗	-10.4531
華陽	-10.4532
錦州	-10.4532
相接	-10.4535
琛	-10.4536
曰汝	-10.4537
官吏	-10.4543
新興	-10.4543
石山	-10.4544
渡江	-10.4546
漢陽	-10.4548
虧	-10.4561
雍正三年	-10.4564
汚	-10.4571
年十八	-10.458
昧	-10.4584
海中	-10.4584
怡	-10.4586
中軍	-10.4588
督撫	-10.4589
水又	-10.4591
梨	-10.4597
經畧	-10.4599
媳	-10.4599
力戰	-10.4602
河在	-10.4603
號為	-10.4604
賦詩	-10.4605
泗州	-10.4607
咎	-10.4607
蕪湖	-10.4611
瘠	-10.4612
何處	-10.4612
所得	-10.4613
府屬	-10.4615
仍舊	-10.4615
太史	-10.4618
人夫	-10.4619
未詳	-10.462
翰林學士	-10.4622
正白旗	-10.4629
藍田	-10.4631
亦以	-10.4631
常山	-10.4632
太師	-10.4636
為記	-10.4636
㝠	-10.4637
丁銀	-10.4645
大中	-10.4645
甞	-10.4648
舊浙江通志	-10.4654
而入	-10.4657
廪	-10.4659
衞人	-10.466
其北	-10.466
安陸	-10.4661
入于	-10.4663
灌溉	-10.4664
額徵	-10.4671
鉉	-10.4675
軾	-10.4676
乍	-10.4677
殮	-10.4679
以疾	-10.4679
零陵	-10.468
羡	-10.4682
把總一員	-10.4684
議者	-10.4694
者則	-10.4696
不相	-10.4703
添設	-10.4704
渡河	-10.4707
蕭山	-10.4708
綵	-10.4709
甘露	-10.4709
處也	-10.4712
錢塘人	-10.4712
綬	-10.4716
六千	-10.4716
朩	-10.4717
四員	-10.4717
稱之	-10.4719
認	-10.4728
中流	-10.4732
叠	-10.4734
之數	-10.4734
綜	-10.4734
禮部尚書	-10.4734
二尺	-10.4741
豐城	-10.4746
撓	-10.4748
延安	-10.4749
詩文	-10.4753
不起	-10.476
國之	-10.4762
護	-10.4768
十餘年	-10.4769
矩	-10.4772
裝	-10.4781
之遂	-10.4781
梁山	-10.4783
縈	-10.4784
峴	-10.4784
河中	-10.4789
萬户	-10.4792
使人	-10.4799
愛民	-10.4803
謚	-10.4805
出知	-10.4813
故址	-10.4813
的	-10.4817
疫	-10.4818
琰	-10.4822
以濟	-10.4822
磴	-10.4826
壬午	-10.483
在縣治	-10.4832
鴈	-10.4837
陽山	-10.4839
婢	-10.4839
軫	-10.4843
三十一年	-10.4843
稔	-10.4847
朝陽	-10.4856
每年	-10.4861
糾	-10.4863
水中	-10.487
定海	-10.4873
慕容	-10.4876
輿地	-10.4883
揖	-10.4885
不以	-10.4888
幽州	-10.4888
獅子	-10.4888
簷	-10.4889
為文	-10.489
北山	-10.4891
淚	-10.4891
東曰	-10.4894
三卷	-10.4896
塹	-10.4896
白鶴	-10.4919
成化間	-10.4921
其南	-10.4923
卞	-10.4924
模	-10.4924
安邑	-10.4924
户口	-10.4925
卭	-10.4929
敗之	-10.4931
盤山	-10.4932
歉	-10.4934
也然	-10.4938
瀕	-10.4939
外委	-10.4946
元初	-10.4948
東逕	-10.4949
帆	-10.4952
匱	-10.4953
翁姑	-10.4953
南北朝	-10.4955
安南	-10.4959
二十餘	-10.496
六尺	-10.4963
聯	-10.4964
睢	-10.4966
秘書	-10.4975
兩一錢	-10.4976
成功	-10.4978
土司	-10.4985
捌拾	-10.4988
玖拾	-10.4989
於上	-10.4992
開化	-10.4993
髙郵	-10.4994
分流	-10.4997
奉天人	-10.4998
自號	-10.5002
繆	-10.5003
二年建	-10.5003
之餘	-10.5004
大旱	-10.5005
髙宗	-10.5007
明月	-10.5011
一百七十	-10.5012
編修	-10.5017
䘏	-10.5017
節婦	-10.5019
扈	-10.5024
疲	-10.5025
府同知	-10.5026
大使	-10.5037
三十二	-10.5037
賽	-10.504
壹百	-10.5042
大觀	-10.5049
随	-10.505
恣	-10.5052
洙	-10.5062
香山	-10.5069
漢水	-10.5071
佃	-10.5073
其勢	-10.5075
妨	-10.5075
詎	-10.5081
一水	-10.5083
新淦	-10.5087
一石	-10.5088
竿	-10.5089
懲	-10.5091
富平	-10.5093
見於	-10.5098
天聖	-10.5098
曰大	-10.51
有異	-10.5104
驕	-10.5106
酉	-10.5112
葵	-10.5117
緝	-10.5118
一方	-10.5119
雖有	-10.512
鎖	-10.5123
佐領	-10.5131
其西	-10.5131
台州	-10.5133
武進	-10.5134
姿	-10.5135
門下	-10.5136
崇寧	-10.5137
兩山	-10.5143
州屬	-10.5145
為民	-10.5148
鴉	-10.5151
兩三錢	-10.5153
坍	-10.5154
城守	-10.5154
西曰	-10.5158
周公	-10.5164
涓	-10.5166
衷	-10.5168
萬世	-10.5168
淇	-10.5172
神仙	-10.5177
叱	-10.5178
倣	-10.518
葦	-10.5184
六年任	-10.5186
建徳	-10.5188
哈喇	-10.5189
壬	-10.52
在州治	-10.5202
縣治東	-10.5205
挹	-10.5205
頽	-10.5207
舅	-10.5208
芻	-10.5208
禱雨	-10.5212
兩九錢	-10.5213
㑹同	-10.5213
四尺	-10.5214
東門	-10.5216
拯	-10.5222
驟	-10.5225
橘	-10.5227
婦人	-10.5228
不便	-10.5229
在縣治西	-10.5235
辛未	-10.5245
清風	-10.5252
而還	-10.5253
衛人	-10.5253
茲	-10.5263
寧州	-10.5264
而行	-10.5264
其母	-10.5264
蕪	-10.5265
僊	-10.5268
膽	-10.5269
透	-10.5272
礪	-10.5272
宋建	-10.5285
自然	-10.5285
羅漢	-10.5289
荀	-10.5291
在焉	-10.5292
伺	-10.5292
觔	-10.5293
孝宗	-10.5296
般	-10.5297
礦	-10.5299
舊傳	-10.53
從此	-10.53
正殿	-10.5301
四十五	-10.5304
共銀	-10.5307
評	-10.5311
宿遷	-10.5311
迺	-10.5313
江隂	-10.5314
滎陽	-10.5325
興安	-10.5327
跋	-10.5334
金史	-10.5336
獠	-10.5336
鳩	-10.5338
等項	-10.5338
莖	-10.5343
字文	-10.5344
掲	-10.5345
韜	-10.5346
妹	-10.5348
華州	-10.5348
次第	-10.5349
郡公	-10.5352
五經	-10.5354
芬	-10.5356
觴	-10.5357
平生	-10.5362
所載	-10.5362
髻	-10.5364
工部尚書	-10.5368
緡	-10.5378
太行	-10.5379
南三十里	-10.538
開封府	-10.5381
有五	-10.5385
大厯	-10.5391
提刑	-10.5392
之類	-10.5396
汝南	-10.5396
歛	-10.5398
東都	-10.5402
娥	-10.5404
武徳	-10.5405
話	-10.5406
妻汪氏	-10.5407
本縣	-10.5408
兵丁	-10.5409
里東至	-10.5411
無事	-10.5414
元年改	-10.5416
彛	-10.5419
臥	-10.542
兵備	-10.5421
鯉	-10.5425
告成	-10.5426
紡績	-10.5426
翳	-10.5429
中外	-10.5435
之難	-10.5436
刷	-10.5436
人知	-10.5442
不可以	-10.5443
檻	-10.5451
要害	-10.5452
相去	-10.5455
逝	-10.5458
浄	-10.5459
丨丨	-10.5461
泓	-10.5464
舶	-10.5465
祕	-10.5466
追封	-10.5469
河間	-10.5472
郡城	-10.5472
怠	-10.5477
地也	-10.5477
奉化	-10.5478
斬之	-10.5478
理志	-10.5479
箐	-10.548
孟子	-10.5481
千載	-10.5484
太常	-10.5491
瀑布	-10.5491
撃	-10.5491
烈女	-10.5493
中興	-10.5495
里人	-10.5502
古之	-10.5505
羣臣	-10.5509
水注之	-10.5513
不用	-10.5513
宵	-10.5513
舊城	-10.5517
常平	-10.5522
都督府	-10.5522
運使	-10.5524
状	-10.5525
唐時	-10.5536
黄金	-10.5546
鎮守	-10.5546
部右侍郎	-10.555
温泉	-10.555
朔方	-10.5556
雍州	-10.5565
軍節度	-10.5568
咸通	-10.5569
濛	-10.5572
土地	-10.5572
巨石	-10.5575
白沙	-10.5579
玠	-10.558
不等	-10.5582
城池	-10.5583
可容	-10.5585
五十年	-10.5586
二百五十	-10.559
管河	-10.5598
分守	-10.5599
騐	-10.56
北入	-10.5603
措	-10.5608
天竺	-10.5611
事母	-10.5613
球	-10.5618
夫死	-10.5618
甲申	-10.5619
所部	-10.5619
磬	-10.5621
僕射	-10.5624
迤	-10.5626
郡邑	-10.5627
換	-10.5631
故城在	-10.5631
隋書	-10.5633
光禄	-10.5633
祇	-10.5635
公孫	-10.5635
絳州	-10.5636
各一	-10.5638
和尚	-10.564
永樂中	-10.5642
四十八	-10.5648
楊氏	-10.5648
行人	-10.5649
翊	-10.5651
鄞人	-10.5655
修撰	-10.566
曲江	-10.5662
雍正十年	-10.5662
地震	-10.5669
虢	-10.5673
墊	-10.5673
以前	-10.5679
筵	-10.5682
吳郡	-10.5691
千人	-10.5692
事之	-10.5698
北曰	-10.5703
俱有	-10.5707
隂陽	-10.5708
世孫	-10.5725
後改	-10.5725
太傅	-10.5728
貴溪	-10.5729
世職	-10.5735
甦	-10.5735
未及	-10.5736
取其	-10.5737
鑰	-10.5737
河工	-10.5738
晉陽	-10.5739
男女	-10.574
安撫使	-10.5742
番禺人	-10.5745
諡忠	-10.5749
悼	-10.5749
寰宇	-10.5751
奈何	-10.5753
鄉薦	-10.5754
航	-10.576
袤	-10.5764
道路	-10.5765
山海經	-10.5768
插	-10.5768
紆	-10.5779
明洪武初	-10.5779
蠧	-10.578
邏	-10.5784
九年任	-10.5791
渭水	-10.5792
經歴	-10.5793
沾	-10.5795
諸臣	-10.5795
越王	-10.5802
在府城北	-10.5806
八年任	-10.5807
貞女	-10.5812
亦無	-10.582
應龍	-10.5824
舊設	-10.5826
鏞	-10.5826
鄖	-10.583
齎	-10.583
涿	-10.5835
躡	-10.5838
民力	-10.5839
瑚	-10.5842
分水	-10.5843
仙居	-10.5845
絶頂	-10.5848
肖	-10.5849
鎮江	-10.5849
三十五年	-10.5854
湖北	-10.5856
繹	-10.5856
西北流	-10.5858
飲食	-10.586
不下	-10.5861
唐武德	-10.5862
杲	-10.5865
纖	-10.5865
積水	-10.5871
治水	-10.5872
畱	-10.5873
之變	-10.5875
系	-10.5876
人多	-10.5877
而止	-10.5878
上言	-10.5882
裹	-10.5885
閑散	-10.589
鵲	-10.5897
山上有	-10.5898
陽曲	-10.5898
五行	-10.59
死於	-10.5901
十七里	-10.5901
鉢	-10.5904
其門	-10.5906
金谿	-10.5907
甎	-10.5907
人夫亡	-10.5908
贛	-10.5911
椿	-10.5912
四海	-10.5912
北海	-10.5912
李白	-10.5913
遺孤	-10.5914
聖祖仁皇帝	-10.5914
引水	-10.5915
宏治	-10.5915
擔	-10.5917
石頭	-10.592
邈	-10.5923
諤	-10.5923
不應	-10.5925
知名	-10.5925
真宗	-10.5928
秦州	-10.5936
旺	-10.594
賁	-10.5941
捧	-10.5943
延綏	-10.5947
吳縣人	-10.5949
矢志	-10.595
南豐	-10.5951
國初	-10.5954
州西南	-10.5955
鹵	-10.5956
三十七	-10.5958
以進	-10.5965
三十二年	-10.597
山下有	-10.5979
題名	-10.5981
壁立	-10.5984
一夕	-10.5985
州廢	-10.5987
頭山	-10.5989
闡	-10.599
宣城	-10.5992
漕河	-10.5992
土官	-10.5994
眠	-10.5997
曲沃	-10.5999
保安	-10.6006
宜春	-10.6007
鞠	-10.6009
蠟	-10.601
民生	-10.6011
其功	-10.6014
創建	-10.6015
河流	-10.6016
寧海	-10.6016
黄岡人	-10.6018
娘	-10.6019
里南北距	-10.6021
塜	-10.6025
仁和人	-10.6026
汾州	-10.6035
於民	-10.6036
所著	-10.6038
同邑	-10.6042
聞其	-10.6047
莫能	-10.6048
瀉	-10.6049
明成化	-10.605
醇	-10.6053
縮	-10.6055
一尺	-10.6056
武德	-10.6057
社稷	-10.6057
水南	-10.6057
妻何氏	-10.606
林志	-10.6064
馨	-10.6065
河渠	-10.6068
至于	-10.6069
不免	-10.6081
癸丑	-10.6086
煮	-10.6095
世襲	-10.6095
天柱	-10.6095
餽	-10.6096
鬭	-10.61
璞	-10.6102
皆為	-10.6103
臻	-10.6104
古蹟	-10.6113
驪	-10.6117
之計	-10.6122
西門	-10.6123
元至正	-10.6125
狩	-10.613
事宜	-10.6131
靈山	-10.614
本州	-10.6143
一百一十	-10.6143
宗室	-10.6144
陛	-10.6148
之句	-10.615
之費	-10.615
甚衆	-10.615
濂	-10.6151
崑	-10.6158
總兵官	-10.616
甌	-10.6164
大者	-10.6165
脂	-10.6165
朝鮮	-10.6168
牘	-10.6169
蒙古	-10.617
舊在	-10.617
不竭	-10.6171
替	-10.6172
震澤	-10.6174
雍正元年	-10.6175
寧夏	-10.6175
桐城人	-10.6175
南曰	-10.6181
聖祖	-10.6181
尚有	-10.6183
沁水	-10.6185
隄防	-10.6189
安得	-10.6193
神廟	-10.6208
之屬	-10.6209
苛	-10.6211
狀元	-10.6212
縉	-10.6214
統志	-10.6215
北流入	-10.6217
本府	-10.6219
慷慨	-10.6221
髙麗	-10.6226
百五十里	-10.6231
淳安	-10.6232
㕘政	-10.6232
百餘丈	-10.6236
中原	-10.6238
員外	-10.6238
郡唐	-10.6245
古城	-10.625
水陸	-10.6253
忠臣	-10.6256
宜興人	-10.6256
宣帝	-10.6256
蹕	-10.6256
入學額數	-10.6257
㸔	-10.6257
全活	-10.6261
之險	-10.6264
元帝	-10.6264
硯	-10.6267
埭	-10.6268
妻郭氏	-10.627
清口	-10.6274
城周	-10.6282
熹	-10.6283
一作	-10.6285
溧水	-10.6285
御史中丞	-10.6286
昔人	-10.6286
蠡	-10.6286
遺址	-10.6292
塊	-10.6293
日夜	-10.6293
築隄	-10.6294
豐城人	-10.6297
集賢	-10.6298
聖賢	-10.6299
無一	-10.6301
甲辰	-10.6301
帝王	-10.6302
曷	-10.6305
九釐	-10.6306
泠	-10.6307
蜜	-10.6315
漣	-10.6317
暹	-10.6319
對峙	-10.632
五毫	-10.6325
部員外郎	-10.6328
宼	-10.6335
青龍	-10.6337
或云	-10.6338
治河	-10.634
恂	-10.6341
大業初	-10.6344
嘉善	-10.635
左翼	-10.6356
鄂拉	-10.6358
王家	-10.6358
倦	-10.638
接界	-10.638
戊戌	-10.6382
司農	-10.6383
戢	-10.6387
小民	-10.6387
北境	-10.6389
冡	-10.6391
國王	-10.6397
太康	-10.64
水旱	-10.6403
一百六十里	-10.6407
都統	-10.6412
洵	-10.6413
請於	-10.6414
開濬	-10.6416
母病	-10.6417
一十五	-10.6417
上海	-10.642
折色	-10.6422
套	-10.6425
人貢生	-10.6429
鄞縣	-10.643
象山	-10.643
上俱	-10.6431
守志	-10.6432
内地	-10.6435
楞	-10.6436
何如	-10.6439
嫌	-10.644
十日	-10.6443
道人	-10.6445
劄	-10.6446
靄	-10.6453
斑	-10.6453
諡文	-10.6457
寳應	-10.6462
天津	-10.6463
山寺	-10.6464
卒諡	-10.6465
初置	-10.6466
遂為	-10.6467
一旦	-10.6469
永和	-10.647
沼	-10.647
山陰	-10.6472
暘	-10.6474
縣治西	-10.6476
蒲城	-10.648
鬚	-10.6487
以資	-10.6494
侍御史	-10.6497
戰於	-10.6498
而成	-10.6499
𠞰	-10.65
州學	-10.6505
沸	-10.6506
最為	-10.6512
行者	-10.6512
蔵	-10.6512
迥	-10.6512
本紀	-10.6513
鼇	-10.6514
東注	-10.6514
以供	-10.6515
衙門	-10.6515
不忘	-10.6517
一出	-10.6518
大破之	-10.6521
周禮	-10.6527
不屈死	-10.6528
公私	-10.6529
或以	-10.6537
移駐	-10.6538
炭	-10.6539
以爲	-10.6542
總河	-10.6543
東岸	-10.6543
台吉	-10.6544
僖	-10.6548
屯兵	-10.6551
冀州	-10.6555
漢志	-10.6557
未能	-10.656
達於	-10.656
之力	-10.656
泮	-10.6562
同時	-10.6562
唐武徳	-10.6569
徽宗	-10.6569
疏請	-10.6572
漢武帝	-10.6573
管轄	-10.6576
金城	-10.6576
徳之	-10.658
戰死	-10.6582
繚	-10.6582
元年任	-10.6585
温州	-10.6587
妻程氏	-10.6588
捐俸	-10.6595
訊	-10.6601
折而東	-10.6605
甘肅	-10.6605
施行	-10.6606
歎曰	-10.6607
袖	-10.6609
景定	-10.6612
彚	-10.6613
豈不	-10.6614
其實	-10.6614
孝義	-10.6621
持節	-10.6623
水又東逕	-10.6623
濟寧	-10.6624
清平	-10.6624
而歸	-10.6627
流水	-10.6631
庚辰	-10.6633
婺源	-10.6633
莘	-10.6636
駢	-10.6636
邑之	-10.6638
隷	-10.6641
詩曰	-10.6643
欒	-10.6651
禮樂	-10.6653
親王	-10.6654
之乃	-10.6656
王世	-10.666
都城	-10.6666
彊	-10.6666
臨淮	-10.6669
巴陵	-10.6674
南門	-10.6675
刲股	-10.6675
當塗人	-10.6677
郡隋	-10.668
蹈	-10.668
産錢	-10.6682
不入	-10.6684
燧	-10.6684
氐	-10.6685
幅	-10.6686
不死	-10.6686
杉	-10.6691
石刻	-10.67
定逺	-10.67
年十七	-10.6703
浙東	-10.6705
覲	-10.6707
北門	-10.6715
張文	-10.6722
安州	-10.6725
丙子	-10.673
起居	-10.6731
妻鄭氏	-10.6731
南渡	-10.6738
荆門	-10.6739
拳	-10.6741
武侯	-10.6741
握	-10.6741
庚子	-10.6745
明末	-10.6747
饒州	-10.6748
大海	-10.675
着	-10.675
皇甫	-10.6751
上林	-10.6752
熾	-10.6756
百萬	-10.6757
明倫堂	-10.6758
又東北逕	-10.6759
賦役	-10.676
殯	-10.6761
龍池	-10.6765
豐縣	-10.677
鑲黄旗	-10.6771
來者	-10.6782
吉林	-10.6783
使君	-10.6783
在城西南	-10.6784
海塘	-10.6785
沿海	-10.6789
山也	-10.6789
乙酉	-10.6789
宗即位	-10.6791
以安	-10.6792
憩	-10.6792
君之	-10.6796
數百人	-10.6797
澧	-10.6798
大義	-10.6805
等官	-10.6805
大中祥符	-10.6806
名也	-10.6807
崇仁	-10.6807
宣城人	-10.6808
粲	-10.6809
萌	-10.681
漢屬	-10.6814
嘆曰	-10.6816
莒	-10.6816
嘉禾	-10.6818
千秋	-10.6826
山勢	-10.6827
賴以	-10.6833
縣入	-10.6834
褐	-10.6836
河陽	-10.6836
江都人	-10.6838
澤州	-10.6844
神明	-10.6845
泗水	-10.6848
東莞人	-10.6848
民居	-10.6852
之弊	-10.6856
長安志	-10.6858
于闐	-10.6863
不行	-10.6864
祠祀	-10.6866
本草	-10.6867
渙	-10.6869
丁丑	-10.6871
諸暨	-10.6872
萬人	-10.6872
州西北	-10.6875
盛京	-10.688
濰	-10.688
舊為	-10.6881
兵至	-10.6882
磁	-10.6883
今年	-10.6884
無異	-10.6884
大敗	-10.6886
碣	-10.6887
拾遺	-10.6888
武康	-10.6892
昉	-10.6906
萬厯中	-10.6911
杜預	-10.6914
八千	-10.6914
代州	-10.6915
江湖	-10.6916
憫	-10.6916
許之	-10.692
州東南	-10.6923
不宜	-10.6923
栖	-10.6925
斗門	-10.6926
有方	-10.6929
東路	-10.693
刑部	-10.6931
玊	-10.6932
藪	-10.6932
守之	-10.6936
躋	-10.6937
批	-10.6943
貼	-10.6945
叅軍	-10.6947
海内	-10.6951
上官	-10.6953
楠	-10.6955
地形	-10.6958
韓城	-10.696
筍	-10.6968
而復	-10.697
叄拾	-10.6972
伯克	-10.6976
哀毁	-10.6978
栽	-10.6979
二百八十	-10.698
泰定	-10.6982
三十八年	-10.6983
以兵	-10.6984
攬	-10.6985
二年置	-10.6986
潞州	-10.6987
句容	-10.6993
峨	-10.6994
餘里	-10.7001
宣慰司	-10.7003
複	-10.7004
甲午	-10.7004
一百九十	-10.7005
淤塞	-10.7014
榻	-10.7014
麾	-10.7016
登第	-10.7019
轍	-10.7021
氏年二十	-10.7024
壬子	-10.7025
縣故城南	-10.7026
唐貞觀	-10.7027
臺山	-10.7033
甲戌	-10.7039
跳	-10.7048
數百里	-10.7049
渥	-10.7053
年七十	-10.7053
布衣	-10.7056
煎	-10.706
其國	-10.7062
㦸	-10.7065
東井	-10.7068
此其	-10.7068
水漲	-10.7069
本名	-10.7069
二日	-10.7073
宫室	-10.7076
給事	-10.7076
掣	-10.7078
昱	-10.7081
麗水	-10.7082
兖	-10.7084
璣	-10.7088
沔陽	-10.7089
兖州	-10.7089
周迴	-10.709
文廟	-10.7091
衡山	-10.7091
鉛	-10.7092
莫敢	-10.7099
分為二	-10.7099
四卷	-10.7102
瀚	-10.7102
三十三	-10.7103
江浙	-10.7107
海門	-10.7107
滸	-10.7109
經營	-10.7109
以禮	-10.7114
銳	-10.7114
賑濟	-10.7116
千餘里	-10.7117
安東	-10.712
紹聖	-10.712
九日	-10.712
去縣	-10.7121
玉山	-10.7122
五萬	-10.7127
始於	-10.7127
膳	-10.713
歇	-10.713
子曰	-10.713
馮翊	-10.7132
榭	-10.7139
顆	-10.7139
棣	-10.7143
國史	-10.7145
咏	-10.7147
得免	-10.7149
讐	-10.7152
湫	-10.7159
治東	-10.7159
戊子	-10.7161
東流入	-10.7164
蘭州	-10.7165
臨海人	-10.7165
也自	-10.7167
六十年	-10.7167
弦	-10.717
矣然	-10.7172
華隂	-10.7174
里源出	-10.7176
歸併	-10.718
顒	-10.7182
百官	-10.7183
辛酉	-10.7185
南五里	-10.7188
衢州	-10.7188
初知	-10.7188
兔	-10.7192
舍人	-10.7194
三面	-10.7195
槖	-10.7198
鰲	-10.7199
趾	-10.72
縣東三十里	-10.7201
家居	-10.7202
杞	-10.7203
軸	-10.7204
卦	-10.7206
不易	-10.7209
郵	-10.7213
漿	-10.7214
藝文	-10.722
部落	-10.7226
中書舍人	-10.7227
十名	-10.7229
童子	-10.7237
詩書	-10.7237
慈谿	-10.7238
武城	-10.7239
榛	-10.7241
改今額	-10.7242
惇	-10.7243
蘄州	-10.7243
乃以	-10.7247
江北	-10.7248
驛丞	-10.7248
闈	-10.7249
三十四	-10.7249
汎	-10.725
在大	-10.7251
宥	-10.7254
進士第	-10.7256
忠孝	-10.7258
官員	-10.7259
後唐	-10.7261
藁	-10.7262
禪寺	-10.7268
本色	-10.7268
賄	-10.727
臨汾	-10.7272
皇太后	-10.7275
之用	-10.7279
稚	-10.728
四明	-10.7282
餘干	-10.7283
家港	-10.7286
瞰	-10.7292
之田	-10.7292
泌	-10.7293
也而	-10.7298
馬戰兵	-10.7303
咸淳臨安志	-10.7308
徭	-10.7312
壬辰	-10.7312
千七百	-10.7314
盜賊	-10.7314
大如	-10.7315
汧	-10.7316
神武	-10.7316
虐	-10.7318
討平之	-10.7318
鯨	-10.7318
參議	-10.7319
爾雅	-10.7321
處士	-10.7322
斬首	-10.7323
閬	-10.7326
殺人	-10.7329
家堰	-10.7329
廣徳	-10.7334
概	-10.7334
廣昌	-10.7336
與弟	-10.7336
邠	-10.7337
功封	-10.7338
止長	-10.7341
諸州	-10.7342
郡國志	-10.7342
武王	-10.7345
割股	-10.7351
詩集	-10.7351
湖口	-10.7355
雁門	-10.7361
竅	-10.7366
嚕	-10.737
珙	-10.7376
顏	-10.7377
思之	-10.7377
糜	-10.7379
三十八	-10.738
龍溪	-10.7381
未可	-10.7381
仆	-10.7381
戌	-10.7383
饋	-10.7384
槃	-10.7386
内除	-10.7393
議大夫	-10.7393
泉水	-10.7395
化為	-10.7398
瘞	-10.7399
曲阜	-10.7399
殫	-10.74
賜名	-10.7401
叅將	-10.7402
是日	-10.7403
懈	-10.7408
三縣	-10.7409
祀典	-10.7413
以身	-10.7413
毗	-10.7414
也若	-10.7415
得以	-10.7417
俗謂之	-10.7418
人夫亡守節	-10.7419
縉雲	-10.7419
玉泉	-10.7419
孤山	-10.7419
邛	-10.7424
北平	-10.7425
雋	-10.7426
笙	-10.7426
者其	-10.7427
灼	-10.7427
誓不	-10.7427
官民	-10.743
人稱	-10.743
休寧人	-10.7433
八名	-10.7434
庚戌	-10.7435
三代	-10.7435
矧	-10.7435
迅	-10.7436
無復	-10.7442
職方	-10.7448
蔬	-10.7451
起運	-10.7453
庶幾	-10.7454
州郡	-10.7458
其衆	-10.7458
輟	-10.7458
五臺	-10.746
夏秋	-10.7464
縣儒學	-10.7465
灝	-10.7467
澳	-10.7467
所稱	-10.7469
戸部	-10.7469
南境	-10.747
北京	-10.7473
促	-10.7476
械	-10.7476
在寕	-10.748
行至	-10.748
臼	-10.7489
磧	-10.749
祖宗	-10.7491
伍分	-10.7493
𣙜	-10.7493
盩厔	-10.7495
福寺	-10.7497
成化中	-10.7497
人以為	-10.7499
不少	-10.7499
平陸	-10.75
析置	-10.7502
今所	-10.7502
年閒	-10.7505
遣人	-10.7511
散騎常侍	-10.7512
婺源人	-10.7513
千總一員	-10.7517
四丈	-10.7524
訣	-10.7529
或有	-10.7529
鑲紅旗	-10.7529
安慶	-10.753
挈	-10.7531
改元	-10.7531
貳百	-10.7531
皇祐	-10.7531
字叔	-10.7532
城隍廟	-10.7532
山莊	-10.7538
鷺	-10.754
新喻	-10.754
帯	-10.7541
籬	-10.7542
海上	-10.7545
五百里	-10.7547
醴泉	-10.7551
二女	-10.7551
河源出	-10.7554
憲宗	-10.7556
駒	-10.7557
凡三	-10.7557
東門外	-10.7558
丹徒	-10.7559
一十二	-10.756
都察院	-10.7563
春秋時	-10.7566
京城	-10.757
都䕶	-10.7571
蜀人	-10.7571
乞歸	-10.7573
可也	-10.7573
㝷	-10.7575
宋紹興	-10.7576
銀兩	-10.7577
千六百	-10.758
三門	-10.758
伴	-10.7581
樂清	-10.7582
縣西三十里	-10.7585
百尺	-10.7587
支河	-10.759
不堪	-10.7591
林寺	-10.7591
夲	-10.7594
喧	-10.7597
築堤	-10.7598
正藍旗	-10.7598
枉	-10.7599
袍	-10.76
神龍	-10.76
咸寧	-10.7602
數丈	-10.7604
幻	-10.7604
實徵	-10.7604
歷	-10.7606
舘	-10.7606
吉水人	-10.7607
闗中	-10.7607
普安	-10.7608
寺僧	-10.7613
王府	-10.7614
摇	-10.7615
黄龍	-10.7616
監司	-10.7617
安化	-10.7617
州東北	-10.7619
妻馬氏	-10.7622
遣官	-10.7624
公卿	-10.7626
天祐	-10.7626
四名	-10.7627
人性	-10.7627
舊縣	-10.7628
自縊死	-10.7635
失其	-10.7637
徃來	-10.7642
奄	-10.7644
膚	-10.7644
通典	-10.7647
四十九	-10.765
古文	-10.765
服其	-10.7651
公子	-10.7652
千金	-10.7653
鵠	-10.7653
㑹昌	-10.7656
潁川	-10.7657
萬三千	-10.766
者即	-10.7669
二百四十	-10.7671
徘徊	-10.7671
祭酒	-10.7674
𦂳	-10.7674
一統志	-10.7675
督學	-10.7676
居官	-10.768
勛	-10.7682
禦之	-10.7682
冇	-10.7686
南旺	-10.7695
傭	-10.7708
車駕	-10.7712
特穆爾	-10.7713
溟	-10.7713
黄帝	-10.7714
慨然	-10.7715
建祠	-10.7718
釐六毫	-10.7718
家灣	-10.7725
永嘉人	-10.7727
博羅	-10.7727
雲山	-10.7729
之徒	-10.773
寘	-10.7735
甄	-10.774
杳	-10.774
剔	-10.7741
涌	-10.7741
楨	-10.7742
祀宋	-10.7744
四十一年	-10.7747
他日	-10.7751
隆興	-10.7752
鼠	-10.7761
嘉興府志	-10.7764
吉州	-10.7764
因以	-10.7764
駝	-10.7766
事姑	-10.7768
自經	-10.7774
所有	-10.7777
救之	-10.7777
正黄旗	-10.7787
高宗	-10.7788
墅	-10.7791
黒水	-10.7791
剥	-10.7792
隰	-10.7796
驤	-10.7798
老子	-10.7804
知縣王	-10.7808
罹	-10.7809
寧國	-10.781
潢	-10.7815
從容	-10.7816
燾	-10.7817
重之	-10.7818
頑	-10.7819
挂	-10.7819
東西二	-10.782
立為	-10.7821
不一	-10.7822
松山	-10.7822
深入	-10.7825
西路	-10.7826
用兵	-10.7836
槎	-10.7836
水流	-10.7837
瘴	-10.7838
編審	-10.7843
不聽	-10.7848
額外	-10.7848
青陽	-10.7849
鳳凰	-10.785
石泉	-10.7852
流注	-10.7854
張公	-10.7859
攘	-10.786
牖	-10.786
糶	-10.786
正統間	-10.7861
分界	-10.7863
邳州	-10.7866
洛陽人	-10.7872
亳	-10.7872
其黨	-10.7877
劫	-10.7877
橫	-10.7879
此則	-10.7881
不言	-10.7884
大軍	-10.7885
釐四毫	-10.7887
水出焉	-10.7888
鬼神	-10.789
者乎	-10.7891
凍	-10.7898
捲	-10.7898
南接	-10.79
安樂	-10.79
五十五里	-10.7901
入境	-10.7902
徽州	-10.7903
守臣	-10.7904
弭	-10.7907
壬戌	-10.7917
粗	-10.7918
瓶	-10.7919
衡陽	-10.7919
不知所	-10.792
寔	-10.7922
忱	-10.7923
堙	-10.7928
在府治東	-10.7929
授以	-10.7929
亳州	-10.793
昌平	-10.793
荅	-10.7931
鵞	-10.7933
珣	-10.7933
商賈	-10.7934
三輔	-10.7935
誇	-10.7936
魏書	-10.7937
三間	-10.7937
三十六年	-10.7938
翰林院	-10.7938
實徴	-10.7939
蘭谿	-10.794
犍為	-10.7941
知之	-10.7943
溯	-10.7944
金銀	-10.7946
闌	-10.7947
忻	-10.7949
西岸	-10.795
祀名宦	-10.7958
靖康	-10.7963
蹤	-10.7966
布拉克	-10.7967
交阯	-10.7967
腦	-10.7968
擲	-10.7969
併入	-10.7969
湧出	-10.7969
紿	-10.7971
謂其	-10.7973
貳千	-10.7974
不知其	-10.7975
初建	-10.7975
安吉	-10.7976
桞	-10.7976
郡後漢	-10.7985
猶有	-10.7991
聼	-10.7991
淳熈	-10.7993
夏人	-10.7995
皆在	-10.7999
以自	-10.8
京口	-10.8001
弋陽	-10.8001
敎諭	-10.8004
江上	-10.8005
縣尹	-10.8006
淄	-10.8007
所經	-10.8008
中官	-10.8009
廣平	-10.8012
撒	-10.8012
庚午	-10.8015
一千二百	-10.8019
饗	-10.8019
㭍拾	-10.8024
宋元	-10.8024
槽	-10.8026
第十	-10.8028
璟	-10.8028
瑞安	-10.803
拖	-10.8034
鑲白旗	-10.8035
石鼓	-10.804
被害	-10.8042
相度	-10.8045
處州	-10.8045
春風	-10.805
彭澤	-10.8052
軍士	-10.8052
伽	-10.8057
下車	-10.8057
鳳陽	-10.806
不容	-10.806
拒之	-10.806
辛丑	-10.8064
驢	-10.8065
四十二	-10.8067
朔州	-10.8068
初以	-10.8068
禆	-10.8069
奉命	-10.8071
慈谿人	-10.8073
朝邑	-10.8074
夭	-10.8074
而來	-10.8074
棧	-10.8091
一二	-10.8094
二百餘	-10.81
琪	-10.8104
窰	-10.8108
卒子	-10.811
璜	-10.8111
百餘人	-10.8119
鼐	-10.812
元兵	-10.812
三十九	-10.8124
一丈五尺	-10.8126
安福人	-10.8126
知縣張	-10.8129
安平	-10.8133
仞	-10.8133
砥	-10.8133
即以	-10.8142
賜今額	-10.8148
在州西南	-10.8149
政績	-10.8153
苞	-10.8153
紹定	-10.8154
安西	-10.8154
路通	-10.8155
羞	-10.8157
問之	-10.816
其弟	-10.8161
崇明	-10.8162
羮	-10.8163
中式	-10.8164
者如	-10.8164
猗氏	-10.8165
石上	-10.817
洪武間	-10.8171
賂	-10.8171
千古	-10.8173
之害	-10.8176
囂	-10.8177
曇	-10.8177
未知	-10.8179
妻許氏	-10.818
人貢士	-10.8181
紋	-10.8186
千餘人	-10.8189
轉運	-10.8191
釐二毫	-10.8191
戰功	-10.8193
帽	-10.8194
偹	-10.8194
又西北	-10.8195
元時	-10.8195
府知府	-10.8198
態	-10.8199
賊至	-10.8205
四十五年	-10.8214
入朝	-10.8221
不足以	-10.8222
通考	-10.8222
隠居	-10.8224
各官	-10.8224
縣界六十里	-10.8225
撫按	-10.8226
殱	-10.8228
不可勝	-10.8228
墉	-10.8229
丁未	-10.8229
故也	-10.8232
不當	-10.8233
七十五里	-10.8235
朶	-10.8237
九毫	-10.8239
嶴	-10.8241
署在	-10.8241
矣而	-10.8251
汰	-10.8255
大雨	-10.8257
塚	-10.8258
瀝	-10.8259
丸	-10.8267
輅	-10.8271
湏	-10.8271
以孝聞	-10.8276
招撫	-10.8276
葱	-10.8277
礙	-10.8277
注云	-10.828
雲陽	-10.828
潼	-10.8282
得一	-10.8282
二十餘里	-10.8284
無考	-10.8286
浮橋	-10.8287
煒	-10.8289
之所以	-10.8291
立石	-10.8292
有神	-10.8293
二三	-10.8303
諧	-10.8306
噴	-10.8308
入蜀	-10.8308
孝感	-10.831
家浜	-10.8311
言其	-10.8312
以是	-10.8316
光祖	-10.8316
之境	-10.8318
之使	-10.8318
釐三毫	-10.8319
後復	-10.8324
終不	-10.8324
一千五百	-10.8328
辜	-10.833
引河	-10.8331
蜂	-10.8338
將士	-10.834
大師	-10.8342
舊制	-10.8343
涕	-10.8348
膝	-10.8349
以歸	-10.8352
代之	-10.8363
臨潼	-10.8363
三百六十	-10.8363
逓	-10.8369
事舅姑	-10.837
箇	-10.8371
曲折	-10.8374
鄆	-10.8382
菱	-10.8385
時人	-10.8395
歸徳	-10.8395
乾隆四十	-10.8403
改設	-10.8405
幫	-10.8409
琬	-10.8409
帷	-10.841
訂	-10.8413
淀	-10.8415
南門外	-10.8418
來歸	-10.8422
王師	-10.8423
涖	-10.8425
二百七十	-10.8427
四十六	-10.843
紹興中	-10.8431
郡廢	-10.8433
蝦	-10.8439
秩滿	-10.8441
諸城	-10.8442
宇文	-10.8443
不合	-10.8444
定襄	-10.8449
髙平	-10.845
無定	-10.8451
漢為	-10.8451
漳水	-10.8452
幢	-10.8455
技	-10.8456
廵按	-10.8458
蠲免	-10.8459
笛	-10.846
曰是	-10.8462
佛寺	-10.8462
亥	-10.8462
受命	-10.8463
陽武	-10.8464
其徒	-10.8465
一門	-10.8467
不可得	-10.8474
二百一十	-10.8475
凛	-10.8477
霆	-10.848
鎗	-10.8481
簫	-10.8481
液	-10.8482
谷口	-10.8483
立碑	-10.8483
賴之	-10.8484
北六十里	-10.8484
在城東南	-10.8485
諸書	-10.8485
縣南三十里	-10.8486
千五百	-10.8487
恱	-10.8488
者乃	-10.8488
厓	-10.8495
仁夀	-10.8498
軍務	-10.8501
於斯	-10.8503
鋤	-10.8506
囬	-10.8515
觀之	-10.8515
嶧	-10.8521
壹萬	-10.8525
可為	-10.8525
非也	-10.8527
入淮	-10.8528
之始	-10.8529
字公	-10.853
錢氏	-10.8531
鹹	-10.8533
宣化	-10.8534
瑗	-10.8534
頸	-10.8537
秦始皇	-10.8539
遺跡	-10.8539
六十五里	-10.854
紹興府志	-10.8547
終日	-10.855
釋之	-10.855
安撫司	-10.8555
東京	-10.8556
痕	-10.8557
居士	-10.8558
莅	-10.8559
山之陽	-10.8564
忠烈	-10.8566
又為	-10.857
驍	-10.8572
巽	-10.8573
著書	-10.8574
故縣	-10.8578
癸酉	-10.8579
别駕	-10.8579
鹽井	-10.8588
𢎞治間	-10.8595
華容	-10.8598
縣西四十里	-10.8602
為害	-10.8604
濟源	-10.8606
夫亡守節	-10.8611
十餘萬	-10.8613
大名	-10.8613
國子監	-10.8617
治西	-10.8618
大抵	-10.8622
民多	-10.8628
蘇松	-10.8635
重慶	-10.8636
黄水	-10.864
圻	-10.8642
丙午	-10.8643
有才	-10.8643
不盡	-10.8645
三州	-10.8651
豕	-10.8651
唐志	-10.8653
妻年二十	-10.8654
被殺	-10.8659
水源出	-10.866
四萬	-10.866
南四十里	-10.866
側有	-10.8662
悌	-10.8663
穢	-10.8666
之氣	-10.8668
郿	-10.8669
流寇	-10.867
覃	-10.8672
大兵	-10.8674
二百六十	-10.8677
乙未	-10.8678
之風	-10.868
言曰	-10.8681
關中	-10.8683
釐一毫	-10.8686
髙下	-10.8687
麻城人	-10.8689
琅	-10.8689
六丈	-10.8692
擢御史	-10.8693
山巔	-10.8694
指揮使	-10.8701
琅邪	-10.8701
君臣	-10.8702
岐山	-10.8704
桂林	-10.8708
固守	-10.8711
叚	-10.8716
濃	-10.8716
三十四年	-10.8717
盱眙	-10.8722
孀居	-10.8722
以禦	-10.8722
蒼梧	-10.8723
歸附	-10.8724
二百二十	-10.8725
祺	-10.8729
徇	-10.873
韓愈	-10.8731
乾隆三十	-10.8731
李文	-10.8732
當年	-10.8732
噶爾	-10.8732
乃止	-10.8739
又逕	-10.8742
城門	-10.8744
箴	-10.8745
漊	-10.8747
隱居	-10.8748
便宜	-10.8748
諸國	-10.8749
諮	-10.8751
善政	-10.8752
浹	-10.8759
路總管	-10.876
郡地	-10.8761
胸	-10.8761
福州	-10.8763
以奉	-10.8764
増修	-10.8764
數十年	-10.8766
不報	-10.8767
商州	-10.8768
寺前	-10.8768
公署	-10.877
永樂初	-10.8771
建置沿革	-10.8774
邱縣	-10.8777
起兵	-10.878
桐廬	-10.878
慨	-10.8782
縣北三十里	-10.8785
西平	-10.8785
璠	-10.8786
鵝	-10.879
者又	-10.8792
不在	-10.8794
又東南逕	-10.8795
爪	-10.8795
保障	-10.8796
二年改	-10.8796
湟	-10.8798
英宗	-10.8807
錦衣	-10.8808
其民	-10.881
杜甫	-10.8811
之神	-10.8812
開墾	-10.8814
洧	-10.8814
海道	-10.8819
笋	-10.8821
攻城	-10.8824
科銀	-10.8825
三十餘	-10.8826
避暑	-10.8827
民賴	-10.8827
王元	-10.8831
寮	-10.8835
各省	-10.8836
押	-10.8839
渦	-10.8842
瑟	-10.8843
悅	-10.8844
觀察	-10.8846
濮州	-10.8847
十數	-10.8849
與夫	-10.8855
恊	-10.8856
購	-10.8856
庇	-10.8858
御製詩	-10.8864
字景	-10.8864
南直	-10.8864
賊怒	-10.8865
節制	-10.8867
在州東南	-10.8868
從子	-10.8869
趙氏	-10.8871
陽江	-10.8872
第五	-10.8874
富陽	-10.8876
檢討	-10.8876
里北至	-10.8878
緩急	-10.8878
縱横	-10.8885
西接	-10.8888
城破	-10.889
承天	-10.8895
瓠	-10.8896
洞天	-10.8897
廸	-10.8897
春夏	-10.8905
先主	-10.8907
也乃	-10.8907
多寡	-10.8911
祀明	-10.8911
厨	-10.8912
興元	-10.8913
蕭然	-10.8918
九州	-10.8918
丁酉	-10.8919
餌	-10.8923
菩薩	-10.8923
三十一	-10.8926
郟	-10.8928
題請	-10.8929
禪院	-10.8929
傳云	-10.8931
四十二年	-10.8933
惰	-10.8934
數十人	-10.8935
嘉之	-10.8937
耳目	-10.8937
延袤	-10.8938
子也	-10.8939
蹇	-10.894
王廷	-10.8942
侍講	-10.8943
按察司	-10.8946
秦王	-10.8947
召見	-10.8948
無敢	-10.895
北二十里	-10.8952
右副都御史	-10.8952
丁亥	-10.896
塌	-10.8961
慘	-10.8964
來㑹又	-10.8969
故宅	-10.8969
𬒳	-10.8971
相近有	-10.8972
姑蘇	-10.8973
四十餘年	-10.8973
三水	-10.8975
沙門	-10.8976
塞外	-10.8976
江浦	-10.8977
人間	-10.8978
努	-10.8979
方輿勝覽	-10.8979
清溪	-10.8982
武林	-10.8987
諳	-10.8988
艦	-10.8988
未必	-10.8989
許字	-10.8989
在城東北	-10.8992
始興	-10.8993
廬州	-10.8995
迂	-10.8999
漢書地理志	-10.8999
妻陸氏	-10.8999
太極	-10.9005
臨川人	-10.9005
不欲	-10.9005
遼史	-10.9008
矣今	-10.9009
冬十月	-10.901
煉	-10.901
青城	-10.9012
價銀	-10.9013
己未	-10.9014
栻	-10.9015
纒	-10.9017
年十六	-10.9019
安陽	-10.902
永濟	-10.9022
上饒	-10.9027
以上俱	-10.903
汾水	-10.9033
州判	-10.9033
長春	-10.9034
丁口	-10.9035
金壇	-10.9037
四十七	-10.9037
為賊所	-10.9038
在城西北	-10.9042
祀鄉賢	-10.9043
殺其	-10.9044
終南	-10.9044
淩	-10.9045
妻高氏	-10.9045
營遊擊	-10.9045
可得	-10.9046
戊午	-10.9049
紗	-10.905
自刎	-10.9052
元年建	-10.9056
喀喇	-10.9056
部尚書	-10.9058
䑕	-10.9058
縣界五十里	-10.906
禮部侍郎	-10.9061
折銀	-10.9063
寺觀	-10.9065
俗傳	-10.9066
庶吉士	-10.9066
以告	-10.9066
當塗	-10.9067
峯山	-10.907
按察	-10.9071
列女	-10.9072
單騎	-10.9073
不止	-10.9075
洎	-10.9075
中和	-10.9077
府界	-10.908
等銀	-10.9081
號泣	-10.9082
無算	-10.9083
水門	-10.9085
兗州	-10.9095
邠州	-10.9097
周文	-10.9098
過此	-10.9099
陜州	-10.91
復設	-10.9101
中間	-10.9101
未至	-10.9101
白居易	-10.9101
北接	-10.9103
舊通志	-10.9104
内附	-10.9109
陣亡	-10.911
冗	-10.9111
冐	-10.9112
其才	-10.9114
海潮	-10.9119
永寕	-10.9119
惟有	-10.9123
論語	-10.9125
成熟	-10.9126
生於	-10.9127
刑部主事	-10.913
東阿	-10.9132
浣	-10.9139
德州	-10.914
真定	-10.9141
范仲淹	-10.9143
二百三十	-10.9147
李公	-10.9147
括地志	-10.9148
姊	-10.9152
莆田人	-10.9152
縣界四十里	-10.9152
壮	-10.9154
崧	-10.9156
三十九年	-10.9156
皎	-10.9162
千戸	-10.9162
茗	-10.9162
南逕	-10.9164
一十六	-10.9164
砲	-10.9165
故有	-10.9167
醜	-10.9168
妻潘氏	-10.9168
謐	-10.9171
者非	-10.918
珂	-10.9182
十六里	-10.9182
泰和人	-10.9185
汙	-10.9185
三年建	-10.919
可考	-10.9191
祠廟	-10.9192
王國	-10.9195
蜿蜒	-10.9195
囉	-10.9199
氏俱	-10.9201
益都	-10.9203
永福	-10.9209
不仕	-10.921
不識	-10.9211
曩	-10.9212
入貢	-10.9213
愿	-10.9213
合浦	-10.9214
仍屬	-10.9214
巍	-10.9214
大罵	-10.9215
國也	-10.9217
水溢	-10.9221
書院在	-10.9223
煜	-10.9225
北七十里	-10.9226
t	-10.9227
="33"/>	-10.9227
<	-10.9227
仁宗時	-10.9228
譌	-10.9231
諸子	-10.9232
海州	-10.9235
榆次	-10.9239
陌	-10.9241
洛水	-10.9244
名臣	-10.9247
富貴	-10.9251
撫子	-10.9253
少年	-10.9259
濟水	-10.926
兀	-10.9264
奉詔	-10.9269
廣寧	-10.9269
嘗為	-10.927
七十餘	-10.9273
林木	-10.9274
頡	-10.9277
馬頭	-10.9278
廣漢	-10.928
草堂	-10.928
縣西二十里	-10.9281
竭力	-10.9282
所殺	-10.9283
不可不	-10.9285
或謂	-10.9286
轅	-10.9286
嘉興人	-10.9292
水源	-10.9294
兌	-10.9297
一小	-10.9297
曼	-10.93
題旌冊年二十	-10.9301
三百五十	-10.9301
一十四	-10.9301
各縣	-10.9305
人嵗貢	-10.9307
四十四	-10.9309
夏四月	-10.9309
鏤	-10.931
貟	-10.931
郫	-10.9313
刑部尚書	-10.9313
越州	-10.9317
鎮海	-10.9317
正紅旗	-10.9319
孔道	-10.932
周易	-10.9325
諸路	-10.9328
案此	-10.9329
襄城	-10.9332
歸化	-10.9334
有惠政	-10.9336
副都統	-10.9336
入為	-10.9337
汜	-10.9339
山一名	-10.934
隋大業	-10.9344
鑲藍旗	-10.9346
呉江	-10.9346
農桑	-10.9347
䝉古語	-10.9349
巴爾	-10.935
兼管	-10.9352
朽	-10.9352
其説	-10.9354
巘	-10.9354
艮	-10.9354
以次	-10.9364
勸農	-10.9365
内江	-10.9369
男子	-10.9369
六員	-10.937
以父	-10.9372
曦	-10.9377
綂	-10.9378
挿	-10.9379
開寳	-10.9383
蒲圻	-10.9383
女子	-10.9384
鷗	-10.9388
嘉其	-10.9393
殿前	-10.9393
水道	-10.9395
儋	-10.9397
石洞	-10.9398
弱冠	-10.9401
移治	-10.9402
袁州	-10.9402
合肥人	-10.9402
呉越	-10.9402
僭	-10.9405
千年	-10.9415
不動	-10.9418
仁義	-10.942
薰	-10.9422
白龍	-10.9425
中大夫	-10.9427
移於	-10.9431
左氏	-10.9434
經厯	-10.9434
主人	-10.9437
閤	-10.9439
考之	-10.9441
臨洮	-10.9443
西北隅	-10.9446
孝武	-10.9447
交趾	-10.9449
明季	-10.9451
大明	-10.9452
歆	-10.9458
天禧	-10.9465
澈	-10.9465
冽	-10.9467
三省	-10.9467
瀘州	-10.9468
腸	-10.9468
壻	-10.9469
澇	-10.9475
制置	-10.9477
熱河	-10.9477
三十三年	-10.9478
又置	-10.948
先賢	-10.9484
經制外委	-10.9485
鏜	-10.9485
昌化	-10.9485
丙辰	-10.9486
潮州	-10.9486
興工	-10.9489
鹽課	-10.949
千户所	-10.949
無可	-10.9495
建德	-10.9497
葭	-10.9499
蒲州	-10.9499
壕	-10.9501
附近	-10.9502
次子	-10.9503
飬	-10.9504
曹州	-10.9505
週	-10.9507
汾陽	-10.9507
具奏	-10.9511
江夏人	-10.9512
瑤	-10.9514
鳬	-10.9514
本朝洪武	-10.9516
順徳人	-10.9516
碑文	-10.9517
為患	-10.9519
大德	-10.9519
夫殁	-10.9519
難以	-10.9521
纓	-10.9522
南二十里	-10.9523
官知縣	-10.9524
扉	-10.9525
梁州	-10.9532
升為	-10.9536
徙居	-10.9538
雲氣	-10.9542
三十七年	-10.9542
淮揚	-10.9543
妻金氏	-10.9548
攤	-10.955
民皆	-10.9552
磐	-10.9558
觜	-10.956
列傳	-10.9563
左丞	-10.9563
隋書地理志	-10.9567
彝	-10.9568
寧都	-10.957
龍洞	-10.9571
時稱	-10.9572
荔	-10.9576
江陵人	-10.9577
監軍	-10.9577
縣東二十里	-10.958
上元人	-10.958
萬物	-10.9582
岳陽	-10.9582
都指揮	-10.9582
劔	-10.9584
不克	-10.9586
横山	-10.9586
税銀	-10.9586
縣界一百	-10.9593
清泉	-10.9598
翅	-10.9599
南鄭	-10.9601
工部侍郎	-10.9601
丙戌	-10.9602
福山	-10.9603
萬計	-10.9605
萬夀	-10.9605
敦煌	-10.9605
獅	-10.9606
凋	-10.9609
䕶軍	-10.961
遁去	-10.9612
畤	-10.9614
皂	-10.9618
武安	-10.9618
四十三年	-10.9619
右丞	-10.962
秋七月	-10.962
遇賊	-10.9622
義學	-10.9622
夫婦	-10.9622
售	-10.9623
閎	-10.9623
守備一員	-10.9624
工食銀	-10.9626
若夫	-10.9632
諸葛亮	-10.9632
歴代	-10.9633
▁以上	-10.9636
汶上	-10.9638
趙汝	-10.9643
一千一百	-10.9645
冝	-10.9647
行臺	-10.9649
其意	-10.9654
兩河	-10.9656
等因	-10.9656
叶	-10.9657
凢	-10.9668
無他	-10.9669
幷	-10.9671
吏目	-10.9683
武宗	-10.9683
襃	-10.9684
通行	-10.9688
縣故城	-10.9688
烹	-10.9689
拆	-10.9692
遇閏加銀	-10.9692
澶	-10.9693
前鋒	-10.9694
煉丹	-10.9695
二百餘里	-10.9696
在州西北	-10.9698
閬中	-10.9698
巉	-10.97
綰	-10.9701
疏濬	-10.9702
引兵	-10.9704
十二卷	-10.9706
明堂	-10.9707
刑獄	-10.9709
峝	-10.971
棹	-10.9712
贏	-10.9716
遺腹	-10.9717
考證	-10.972
祕書	-10.9724
一十八	-10.9727
賜號	-10.973
金石	-10.9731
蒿	-10.9735
竦	-10.9737
逞	-10.9741
有差	-10.9744
妻曹氏	-10.9745
浮圖	-10.975
四十一	-10.9756
稠	-10.976
慢	-10.9761
連山	-10.9761
塑	-10.9762
上海人	-10.9763
百三十里	-10.9766
詣闕	-10.9772
滄州	-10.9772
太監	-10.9773
穗	-10.9773
忿	-10.9774
鹽官	-10.9779
翥	-10.9779
刁	-10.9781
呉興	-10.9781
猪	-10.9784
始終	-10.9784
甓	-10.9785
縣界三十里	-10.9785
乾元	-10.9789
直抵	-10.979
海運	-10.9792
沱	-10.9792
泇	-10.9793
七十五	-10.9796
澗水	-10.9801
其罪	-10.9806
元符	-10.9808
景祐	-10.9811
春正月	-10.9817
耀州	-10.9818
郃陽	-10.9819
茭	-10.982
久矣	-10.9822
裒	-10.9823
便之	-10.9824
昌黎	-10.9824
人情	-10.9824
嵌	-10.9825
閣待制	-10.9826
白日	-10.983
太倉人	-10.9831
南詔	-10.9832
腐	-10.9832
所云	-10.9835
及卒	-10.9835
海豐	-10.9838
戊辰	-10.984
修復	-10.9844
拊	-10.9846
蟬	-10.9846
建平	-10.9848
針	-10.9849
築土	-10.9851
真君	-10.9853
瓘	-10.9854
潯	-10.9854
酣	-10.9858
徙治	-10.986
五十四	-10.9861
源自	-10.9861
及第	-10.9862
洞中	-10.9865
麽	-10.9865
五十八	-10.9866
敎授	-10.9868
涂	-10.9868
若此	-10.9871
閩縣人	-10.9872
亦謂之	-10.9874
二十名	-10.9879
相應	-10.9879
床	-10.988
譏	-10.9883
少保	-10.9886
旻	-10.9886
豈非	-10.9889
具題	-10.9889
餅	-10.989
猾	-10.9891
永定	-10.9893
疆域	-10.9896
五十五	-10.9898
原設	-10.9908
百八十里	-10.9909
教化	-10.991
制度	-10.9914
諭之	-10.9914
嘉泰	-10.9915
精舍	-10.9919
前代	-10.992
范陽	-10.9922
故地	-10.9924
四十三	-10.9926
風吹	-10.9927
簪	-10.9927
聞喜	-10.9927
南巡	-10.9928
廷臣	-10.993
天成	-10.9931
舍利	-10.9936
洪洞	-10.9938
點	-10.9939
一體	-10.994
餘黨	-10.9943
四百里	-10.9943
陲	-10.9943
天目	-10.9944
六經	-10.9949
求之	-10.9952
迤邐	-10.9953
華嚴	-10.9956
知縣李	-10.9957
寕州	-10.9957
在府城内	-10.9957
單于	-10.9959
兵部侍郎	-10.9961
撲	-10.9965
自稱	-10.9967
顥	-10.9967
東接	-10.9968
营	-10.9974
龜兹	-10.9974
石梁	-10.9977
縫	-10.9978
萬頃	-10.998
桐城	-10.9981
學田	-10.9984
鄉民	-10.9986
嵗時	-10.9992
第四	-10.9994
河合	-10.9997
十五日	-10.9998
舂	-10.9999
椎	-11
詹事	-11.0001
吳王	-11.0001
邵武	-11.0001
長江	-11.0004
孫氏	-11.0006
豈可	-11.0006
臨晉	-11.0008
土城	-11.0011
永明	-11.0012
其墓	-11.0014
登臨	-11.0015
之罪	-11.0019
數十萬	-11.0021
祉	-11.0022
光禄大夫	-11.0023
捌分	-11.0024
人許字	-11.0024
之區	-11.0027
屛	-11.003
竺	-11.0031
經理	-11.0038
兎	-11.0039
大都	-11.004
普濟	-11.0041
兇	-11.0041
之衝	-11.0043
妻姚氏	-11.0045
不已	-11.0048
猝	-11.0049
都指揮使	-11.005
滚	-11.0051
惻	-11.0051
田賦	-11.0052
忠節	-11.0053
西來	-11.0055
腴	-11.0059
倅	-11.0061
釀	-11.0063
大饑	-11.0066
賢祠	-11.0069
吏部侍郎	-11.0071
膠州	-11.0072
唐開元	-11.0072
姥	-11.0072
之美	-11.0074
璿	-11.0075
遑	-11.0075
五十六	-11.0076
堂記	-11.0077
三十餘年	-11.0079
)□(	-11.0082
不避	-11.0082
今裁	-11.0082
所見	-11.0083
家河	-11.0084
薦之	-11.0084
卯	-11.0084
寺丞	-11.0085
赭	-11.0086
御史大夫	-11.0086
愆	-11.0087
𤼵	-11.009
縣東四十里	-11.0091
晶	-11.0093
海陽人	-11.0094
鶯	-11.0094
奉使	-11.0099
佞	-11.0101
清流	-11.0102
漕渠	-11.012
錠	-11.0123
衣食	-11.0124
覧	-11.0125
肅然	-11.0125
副榜	-11.0126
潼闗	-11.0126
鹽城	-11.0132
秋風	-11.0136
戾	-11.0137
字君	-11.0138
流出	-11.0139
去後	-11.0139
貳分	-11.014
王安石	-11.0143
丑	-11.0145
妥	-11.0147
斫	-11.0147
苴	-11.0148
一月	-11.0148
尚未	-11.0149
事親	-11.0154
奈	-11.0157
同官	-11.0158
犢	-11.0158
自給	-11.016
大通	-11.0162
奏議	-11.0166
晁	-11.0167
迄今	-11.0167
簽	-11.0172
度支	-11.0176
撫臣	-11.0179
執政	-11.018
宣宗	-11.0181
喉	-11.0183
瑋	-11.0183
蒞	-11.0187
教子	-11.019
壹分	-11.0193
翼城	-11.0193
琢	-11.0195
刦	-11.0197
秦漢	-11.02
因以名	-11.0202
瀧	-11.0202
梅花	-11.0206
悠	-11.0207
梓潼	-11.0207
屑	-11.021
戀	-11.021
譬	-11.0213
嵗月	-11.0219
寺後	-11.0219
以給	-11.0219
猶未	-11.0226
祔	-11.0227
副都御史	-11.0229
孫權	-11.0232
今改	-11.0234
一千三百	-11.0235
一千八百	-11.0237
正徳間	-11.0243
家溝	-11.0243
擄	-11.0244
制置使	-11.0245
人物志	-11.0246
分别	-11.0246
紫陽	-11.0247
舊唐書	-11.0248
拙	-11.025
翺	-11.0252
不朽	-11.0255
三司	-11.0257
永樂間	-11.0258
東川	-11.0258
迭	-11.026
鄯	-11.0262
雖然	-11.0263
妻葉氏	-11.0267
方畧	-11.0271
和州	-11.0277
土産	-11.0282
慚	-11.0285
誓死	-11.0287
大理寺	-11.0287
寧逺	-11.0293
臨淄	-11.0294
琉璃	-11.0294
始皇	-11.0296
方輿	-11.03
酸	-11.0302
甯	-11.0303
合肥	-11.0305
陸分	-11.0307
鄧州	-11.0307
廼	-11.0312
南二里	-11.0315
以其地	-11.0316
褚	-11.0317
醒	-11.0318
存留	-11.0319
瓌	-11.032
府通判	-11.0325
語曰	-11.0326
樞密	-11.0328
三十卷	-11.0329
丹徒人	-11.0333
珩	-11.0335
塍	-11.0335
飲酒	-11.0338
不常	-11.0338
步戰兵	-11.034
伊犂	-11.0344
婺州	-11.0345
分兵	-11.0346
蟻	-11.0347
至京師	-11.0351
滋生	-11.0353
河防	-11.0354
之術	-11.0354
肆分	-11.0356
台州府志	-11.0356
世謂之	-11.0356
開寶	-11.0357
郡國	-11.0358
翦	-11.0359
媚	-11.036
孽	-11.0361
嚴州	-11.0366
崇禎間	-11.0366
北魏	-11.0369
堠	-11.037
瘁	-11.0372
衝決	-11.0374
一面	-11.0377
捍禦	-11.0379
成帝	-11.0379
三載	-11.038
流涕	-11.0387
縣南二十里	-11.039
丈五尺	-11.0392
蕉	-11.0395
籲	-11.0395
酷	-11.0398
諫議大夫	-11.0405
澮	-11.0405
甲寅	-11.0405
饌	-11.0406
所轄	-11.0407
輓	-11.0408
遂安	-11.0408
何所	-11.0409
皷	-11.041
騫	-11.0412
撫州	-11.0412
未嫁	-11.0414
荒蕪	-11.0416
九尺	-11.0416
妻林氏	-11.0417
氛	-11.0421
穰	-11.0421
不倦	-11.0421
餓	-11.0423
衢州府志	-11.0423
偷	-11.0423
年九十	-11.0424
峯巒	-11.0424
五十七	-11.0425
倖	-11.0426
來朝	-11.0427
偈	-11.0435
紀事	-11.0436
新豐	-11.0441
烏蘇	-11.0441
渰	-11.0444
諸部	-11.0444
屏山	-11.0446
五十九	-11.0447
存焉	-11.0448
分巡	-11.0448
倐	-11.0449
守貞	-11.045
額外外委	-11.0451
蕙	-11.0451
河身	-11.0452
不利	-11.0453
南向	-11.0455
虬	-11.0456
伍釐	-11.0458
旂	-11.0458
滹沱	-11.046
都監	-11.046
塋	-11.0462
淖爾	-11.0462
匝	-11.0462
俠	-11.0463
一十三	-11.0463
者悉	-11.0463
力學	-11.0464
權貴	-11.0465
東南隅	-11.0467
所據	-11.047
作詩	-11.0471
滁州	-11.0472
莆田	-11.0473
宛平	-11.0473
鎮撫	-11.0475
殖	-11.0476
縣城内	-11.0476
堯舜	-11.0477
骸	-11.0484
祭祀	-11.0484
介休	-11.0487
沿江	-11.049
西門外	-11.0491
皋	-11.0491
瑕	-11.0494
功臣	-11.0494
各州縣	-11.0495
燮	-11.0496
洩水	-11.0501
噫	-11.0501
烽	-11.0504
莎	-11.0505
江流	-11.0507
決口	-11.0509
總管府	-11.0511
羣山	-11.0512
在府治西	-11.0513
至本州界	-11.0514
鶚	-11.0516
侍衛	-11.0516
四十餘	-11.0517
曙	-11.052
吉安	-11.0522
佟	-11.0527
光祿	-11.0528
郯	-11.053
我朝	-11.0535
熈寧	-11.0536
幇	-11.0536
召還	-11.0536
憾	-11.0537
在州東北	-11.0544
薫	-11.0547
先登	-11.0547
祜	-11.0548
徳化	-11.0549
𨗳	-11.0554
貿易	-11.0554
嶺下	-11.0555
為亂	-11.0557
右營	-11.0557
兵備道	-11.0558
再拜	-11.0561
賢良	-11.0562
隕	-11.0563
罅	-11.0574
自誓	-11.0575
字彦	-11.0581
京兆尹	-11.0593
太保	-11.0599
布哈	-11.0601
擕	-11.0601
三百餘里	-11.0608
惕	-11.0613
性至孝	-11.0615
得失	-11.0615
閫	-11.0616
南八十里	-11.0616
二百九十	-11.0617
鄜州	-11.062
珏	-11.0622
笑曰	-11.0622
雲夢	-11.0623
馥	-11.0623
樽	-11.0626
宋初	-11.0627
贓	-11.0629
泛溢	-11.063
窄	-11.063
蜀郡	-11.0631
内閣	-11.0632
綦	-11.0632
泣曰	-11.0634
險要	-11.0636
芹	-11.0647
六卷	-11.0649
孕	-11.0649
不獲	-11.0651
神祠	-11.0651
僰	-11.0652
無餘	-11.0653
户部主事	-11.0659
妻謝氏	-11.0659
僉都御史	-11.0659
萬二千	-11.066
後主	-11.0662
江寧人	-11.0662
孝經	-11.0662
達巴	-11.0663
遵義	-11.0664
中牟	-11.0666
加意	-11.0666
始建	-11.0669
流寓	-11.0671
五十餘	-11.0671
歴年	-11.0673
两	-11.0676
凜	-11.0677
搏	-11.0681
寖	-11.0683
五卷	-11.0683
相率	-11.0684
吳淞江	-11.0686
汭	-11.0687
縣交界	-11.0689
注于	-11.0691
大寧	-11.0691
忻州	-11.0693
夕陽	-11.0697
陷城	-11.0701
咽喉	-11.0701
泳	-11.0702
謂此	-11.0703
懐逺	-11.0704
六十五	-11.0706
􁇢	-11.0709
北五里	-11.0709
禍福	-11.0709
四十四年	-11.0709
又按	-11.0712
輕重	-11.0716
遯	-11.0716
龍游	-11.072
築室	-11.0722
尖山	-11.0722
番禺	-11.0722
左營	-11.0722
松潘	-11.0725
夜郎	-11.0726
可見	-11.0729
東湖	-11.0729
炊	-11.0729
恰	-11.0732
和州人	-11.0734
兩廡	-11.0736
元年置	-11.0737
氊	-11.0743
富順	-11.0744
舉於鄉	-11.0745
西溪	-11.0746
木蘭	-11.0747
恍	-11.0753
别有	-11.0754
為侯國	-11.0754
轡	-11.0755
規模	-11.0757
苕	-11.0764
遴	-11.0766
妻方氏	-11.0769
肆百	-11.0772
當世	-11.0773
睢州	-11.0778
功徳	-11.078
浦江	-11.0782
咽	-11.0782
己酉	-11.0783
社學	-11.0783
在府西	-11.0788
秀才	-11.0789
廬墓三年	-11.0792
明皇	-11.0793
進士累官	-11.0793
新都	-11.0795
其俗	-11.0799
彭蠡	-11.08
東南流入	-11.08
縣北二十里	-11.0803
都昌	-11.0803
不待	-11.0809
數千人	-11.0811
奉新	-11.0812
霍山	-11.0816
靈臺	-11.0817
我皇上	-11.0818
久廢	-11.082
六十四	-11.082
搗	-11.0821
哥	-11.0824
盡孝	-11.0827
清源	-11.0828
形似	-11.0829
洞口	-11.0835
蹙	-11.0835
刪	-11.0835
庖	-11.0836
真觀	-11.0838
峭壁	-11.0838
天井	-11.0839
告歸	-11.084
繁昌	-11.0843
妻馮氏	-11.0844
折而西	-11.0845
大庾	-11.0845
流民	-11.0846
乙丑	-11.0848
是故	-11.0848
而逝	-11.085
參差	-11.0851
蠻夷	-11.0852
委官	-11.0857
澆	-11.0858
秦檜	-11.0862
爾哈	-11.0864
鹽池	-11.0864
舊治	-11.0865
泖	-11.0866
煬帝	-11.0874
奉上諭	-11.0874
婦女	-11.0874
州同知	-11.0875
靡不	-11.0882
炬	-11.0882
青田	-11.0882
三年改	-11.0885
法師	-11.0887
㕘議	-11.089
屹	-11.0891
磊	-11.0897
嘉靖初	-11.0897
厄	-11.0898
州之域	-11.0898
棚	-11.0901
不測	-11.0903
支流	-11.0905
其他	-11.0909
諸公	-11.091
鄭州	-11.0911
久而	-11.0911
宣王	-11.0923
巫山	-11.0923
旱禱	-11.0927
齧	-11.0927
慙	-11.0929
寐	-11.0929
塾	-11.093
察罕	-11.093
溺死	-11.093
翀	-11.0931
桐鄉	-11.0933
劵	-11.0941
兢	-11.0944
之說	-11.0948
府州縣	-11.0948
年二十四	-11.0952
相國	-11.0954
悞	-11.0954
中書令	-11.0956
徃徃	-11.0958
武后	-11.096
丙申	-11.0961
而不知	-11.0964
先師	-11.0964
嘉靖浙江通志	-11.0965
墀	-11.0968
偃師	-11.0974
泰安	-11.0976
户部尚書	-11.0976
慿	-11.0978
雍正十二年	-11.0978
武岡	-11.0988
沭	-11.099
龜山	-11.0992
信陽	-11.0993
不致	-11.0994
部議	-11.0996
彞	-11.0997
壬寅	-11.0997
軰	-11.0999
興學	-11.0999
又北逕	-11.1001
八卷	-11.1003
榔	-11.1004
阡	-11.1004
組	-11.1006
數千里	-11.1007
衡州	-11.1009
淞	-11.101
東宫	-11.1014
釁	-11.1014
一百一十里	-11.1017
通濟	-11.1018
魚臺	-11.1018
太平寰宇記	-11.1018
妻宋氏	-11.1019
青浦	-11.1025
無遺	-11.1026
己丑	-11.1026
於此置	-11.1026
土貢	-11.1027
貧民	-11.103
乖	-11.1034
冥	-11.1035
隄岸	-11.1035
聿	-11.1037
鉅野	-11.1038
東萊	-11.1039
銑	-11.1046
與兄	-11.1047
夫役	-11.1048
搶	-11.1048
霏	-11.1049
北門外	-11.1053
卹	-11.1055
五十二	-11.1055
存者	-11.1057
潼川	-11.1058
洪州	-11.1061
本末	-11.1062
睡	-11.1062
覔	-11.1062
領兵	-11.1063
懸崖	-11.1074
潼關	-11.1075
天池	-11.1077
企	-11.1087
宸濠	-11.1089
隐	-11.1089
麒	-11.109
黄浦	-11.1091
萬壽	-11.1091
參將	-11.1093
社倉	-11.1097
黼	-11.1099
不暇	-11.11
賠	-11.1102
色如	-11.1102
呉縣人	-11.1104
大統	-11.1106
兵攻	-11.1108
鳩工	-11.111
又南逕	-11.1111
圈	-11.1114
踈	-11.1116
始得	-11.1117
廬陵人	-11.1118
有二一在	-11.1119
五十三	-11.1119
一支	-11.112
丨	-11.1121
始置	-11.1125
漢末	-11.1126
抃	-11.1131
流冦	-11.1134
郴	-11.1135
纘	-11.1137
為諸生	-11.1139
罷歸	-11.114
固原	-11.1141
吸	-11.1143
寰宇記在	-11.115
鎻	-11.1154
謡	-11.1156
廹	-11.1159
約束	-11.116
額徴	-11.1163
落成	-11.1165
南三里	-11.1166
增修	-11.1169
薇	-11.117
所由	-11.1171
鄣	-11.1171
熙寕	-11.1172
無恙	-11.1172
濟運	-11.1173
千百	-11.1175
鑲	-11.1178
淸	-11.1179
一十七	-11.1181
椽	-11.1181
潁州	-11.1181
紹興間	-11.1183
長吏	-11.1185
𤣥宗	-11.1187
淙	-11.1197
綿亘	-11.1199
尋改	-11.1205
東向	-11.1208
颺	-11.1209
鍾山	-11.1209
旬日	-11.1209
洱	-11.1209
致仕歸	-11.1213
不顧	-11.1214
巨浸	-11.1216
風濤	-11.1218
翹	-11.122
共長	-11.1223
湘潭	-11.1224
正義	-11.1226
戯	-11.1227
城固	-11.1227
龍川	-11.1228
遣兵	-11.1229
玖分	-11.1229
乾坤	-11.1233
州都督	-11.1234
九曲	-11.1234
畵	-11.1237
夏侯	-11.1241
均徭	-11.1242
樞宻	-11.1245
永清	-11.1247
縣界七十里	-11.125
侣	-11.125
懽	-11.1251
百世	-11.1253
迦	-11.1253
端平	-11.1253
楚雄	-11.1254
烏程人	-11.1256
風流	-11.1257
民甚	-11.1258
其害	-11.1258
綏徳	-11.1263
南流經	-11.1265
亹	-11.1266
貺	-11.1268
筮	-11.1269
無益	-11.1269
實錄	-11.1272
漕糧	-11.1274
滁	-11.1275
下臨	-11.1275
明永樂	-11.1276
聖人之	-11.1278
黃河	-11.1283
太廟	-11.1287
相見	-11.1288
玖釐	-11.1291
畦	-11.1292
為之記	-11.1293
盪	-11.1295
興平	-11.1295
澱	-11.13
到任	-11.1301
奏聞	-11.1303
成都府	-11.1304
八員	-11.1305
沂州	-11.1307
頥	-11.1308
窻	-11.1308
二十卷	-11.1308
簇	-11.131
摹	-11.131
車馬	-11.1315
辰州	-11.1316
横塘	-11.1317
盧氏	-11.132
麋	-11.132
孝行	-11.1321
富民	-11.1328
一千七百	-11.1332
城隍	-11.1333
鈴	-11.1334
澧州	-11.1341
現在	-11.1343
嵗貢	-11.1344
滎澤	-11.1344
妻羅氏	-11.1346
元魏	-11.1347
己亥	-11.1348
魄	-11.1349
肅宗	-11.135
怙	-11.1351
乙亥	-11.1352
薊州	-11.1352
軼	-11.1353
三百餘	-11.1353
三百二十	-11.1355
官一員	-11.1359
本路	-11.1359
𥙷	-11.1361
酈	-11.1362
千萬	-11.1362
戰守	-11.1362
久不	-11.1363
泚	-11.1363
賊首	-11.1366
少師	-11.1368
侍御	-11.137
淄川	-11.137
固始	-11.1371
妻錢氏	-11.1371
不問	-11.1375
釡	-11.1378
裨	-11.138
上源	-11.1381
一巻	-11.1381
十有二	-11.1382
牕	-11.1387
奐	-11.139
卉	-11.1392
牡丹	-11.1393
河之水	-11.1393
綱目	-11.1395
從來	-11.1397
三百七十	-11.1399
泝	-11.1404
阿爾	-11.1405
石柱	-11.1406
第進士	-11.1407
冤	-11.1411
太原府	-11.1412
匹馬夫	-11.142
囿	-11.1421
䨇	-11.1421
修治	-11.1423
辛巳	-11.1423
寕府	-11.1425
琯	-11.1426
建議	-11.1429
孟津	-11.143
金壇人	-11.1433
傲	-11.1435
險阻	-11.1437
額設	-11.1442
題曰	-11.1447
嶷	-11.1448
釘	-11.1449
赤城	-11.1453
疾苦	-11.1453
八十五	-11.1457
儁	-11.1458
風土	-11.146
流亡	-11.146
涪州	-11.1461
額爾	-11.1465
沿河	-11.1469
三十餘里	-11.1469
工詩	-11.1477
曽孫	-11.1478
字汝	-11.1485
八丈	-11.1486
家渡	-11.1487
縣故城北	-11.1491
望江	-11.1501
隴州	-11.1502
襄陵	-11.1502
捉	-11.1503
豳	-11.1503
鞫	-11.1503
二十餘年	-11.1503
入覲	-11.1507
襄公	-11.1514
讞	-11.1518
廵檢	-11.1518
設法	-11.152
縣城東	-11.1525
鄠縣	-11.1527
蓼	-11.1531
崗	-11.1531
少孤	-11.1533
回部	-11.1533
臨安府	-11.1534
三峯	-11.1539
沆	-11.1541
浮屠	-11.1541
貞觀元年	-11.1543
奔走	-11.1545
受業	-11.1546
題詩	-11.1546
南十五里	-11.1551
東西距	-11.1555
焉耆	-11.1556
縊	-11.1556
芾	-11.1556
鈐轄	-11.1556
笠	-11.1558
汶水	-11.1561
儀封	-11.1562
海防	-11.1563
嘉魚	-11.1567
漢陽人	-11.1569
明史	-11.157
硤	-11.1572
卻	-11.1572
灾	-11.1572
耒	-11.1576
石埭	-11.1576
水又西	-11.1577
日到任	-11.1581
樟	-11.1584
熒惑	-11.1587
商邱	-11.1587
羙	-11.1587
蘋	-11.1587
是非	-11.1588
貳釐	-11.1588
東北隅	-11.159
新羅	-11.1597
堞	-11.16
沂水	-11.1601
兵燹	-11.1604
上京	-11.1605
湄	-11.1607
統制	-11.161
西境	-11.1612
可汗	-11.1614
新開	-11.1616
賊衆	-11.1618
武威	-11.1618
盍	-11.1619
紇	-11.162
巴東	-11.1624
韶州	-11.1624
眉州	-11.1626
杜門	-11.1628
張掖	-11.1629
一千四百	-11.1629
北十五里	-11.1633
全椒	-11.1633
駐本營	-11.1635
四年置	-11.164
東莞	-11.1643
金剛	-11.1643
規制	-11.1645
矗	-11.1646
潭州	-11.1648
吳江人	-11.1648
寒暑	-11.1651
提㸃	-11.1653
理學	-11.1655
城市	-11.1657
奪其	-11.1659
宫殿	-11.166
兑	-11.1661
理宗	-11.1662
幕府	-11.1662
迤西	-11.1662
西南隅	-11.1667
廣德	-11.1671
蒐	-11.1672
平涼	-11.1676
笏	-11.1677
黄梅	-11.1682
踰年	-11.1682
年二十二	-11.1686
苟	-11.1688
鉅鹿	-11.1693
縣城南	-11.1695
答曰	-11.1702
黯	-11.1702
楮	-11.1702
佛像	-11.1703
山之麓	-11.1705
縣南四十里	-11.171
里東西距	-11.1714
未盡	-11.1717
禮義	-11.1717
圉	-11.1718
五員	-11.1718
西五十里	-11.1722
赤水	-11.1724
行於世	-11.1724
水又南	-11.1725
漁陽	-11.1725
府推官	-11.1726
孝感人	-11.1726
箋	-11.1727
五代時	-11.1728
未㡬	-11.173
不得已	-11.1733
在長安	-11.1741
紘	-11.1742
運司	-11.1742
寶應	-11.1742
鶉	-11.1744
茶陵	-11.1746
禀	-11.175
修理	-11.1752
汊	-11.1757
壹釐	-11.1759
舊額	-11.176
著述	-11.1766
常平倉	-11.1767
淘	-11.1771
所執	-11.1774
肇慶	-11.1777
選貢	-11.1778
兄子	-11.1781
鹽鐵	-11.1784
訓導一員	-11.1786
轂	-11.1789
字季	-11.1794
碭山	-11.1794
昶	-11.1796
玘	-11.18
詳名宦	-11.18
破賊	-11.1804
三年置	-11.1805
題准	-11.1807
侯景	-11.1808
党	-11.181
百六十里	-11.1813
江隂人	-11.1814
囑	-11.1816
建隆	-11.1817
太子太保	-11.1821
青溪	-11.1823
裙	-11.1829
妻唐氏	-11.1832
繋	-11.1833
不幸	-11.1833
景徳	-11.1834
玉女	-11.1834
文選	-11.1835
蓄水	-11.1838
叄百	-11.1838
攔	-11.1843
它	-11.1848
三百四十	-11.1848
無虞	-11.1848
驃騎	-11.1853
曾孫	-11.186
何必	-11.186
炙	-11.186
醮	-11.1861
疑即	-11.1872
唐末	-11.1872
肝	-11.1876
改適	-11.1876
元嘉	-11.1876
醴	-11.1879
犒	-11.1879
十四里	-11.188
直言	-11.1881
餘丈	-11.1882
洄	-11.189
以身代	-11.1892
正德中	-11.1893
須臾	-11.1893
不知何	-11.1893
尤甚	-11.1895
元龜	-11.1896
郭璞	-11.1899
酋長	-11.19
銘曰	-11.1903
聫	-11.1904
蹄	-11.1906
一十九	-11.1909
擊賊	-11.1915
尺五寸	-11.1916
自持	-11.1922
謗	-11.1922
户部侍郎	-11.1925
瓊州	-11.1926
香爐	-11.1927
講堂	-11.1928
燼	-11.1933
羸	-11.1937
票	-11.1943
在府東	-11.1947
字廷	-11.1949
鄂爾	-11.1951
景帝	-11.1951
墓側	-11.1952
江寜	-11.1955
焚香	-11.1959
萇	-11.1962
携	-11.1963
贄	-11.1964
經制	-11.1964
者甚衆	-11.1967
羈	-11.1968
遂遇害	-11.1969
珊	-11.1971
尋復	-11.1971
入於海	-11.1976
肆釐	-11.1978
茨	-11.1978
旌其門	-11.1981
光化	-11.1983
溶	-11.1989
瀟	-11.1993
屯丁	-11.1994
法華	-11.1997
責成	-11.2001
萬嵗	-11.2002
長慶	-11.2002
非常	-11.2004
鄉賢祠	-11.2005
崇德	-11.2005
乾州	-11.2008
圜	-11.2009
龍王廟	-11.2012
雜記	-11.2013
以俟	-11.2016
杰	-11.2016
龍井	-11.2017
孜	-11.2017
二十萬	-11.2022
搖	-11.2025
開禧	-11.2029
漢川	-11.2031
高郵	-11.2031
妻顧氏	-11.2032
宣府	-11.2034
汝州	-11.2038
鞏昌	-11.2038
妻韓氏	-11.2039
渤	-11.2039
阨	-11.2039
舒城人	-11.204
犂	-11.2041
眉山	-11.2043
料銀	-11.2045
耕種	-11.2047
縣東五十里	-11.2053
北向	-11.2053
爨	-11.2053
下獄	-11.2056
逃亡	-11.2056
鉛山	-11.2056
大呼	-11.2057
壬申	-11.2058
皇考	-11.2063
鷲	-11.2063
櫃	-11.2067
逈	-11.2071
縣治南	-11.2073
城垣	-11.2074
中郎將	-11.2075
寗	-11.2077
忠祠	-11.2079
馬鞍山	-11.208
廣武	-11.2082
癸卯	-11.2083
凹	-11.2086
三百八十	-11.2088
僅存	-11.2095
白茆	-11.2095
苻	-11.2095
西二十里	-11.2096
萊州	-11.2099
港口	-11.2101
摭	-11.2101
祖母	-11.2101
煌	-11.2105
皇太子	-11.2106
炯	-11.2106
所害	-11.2108
芽	-11.211
縣西南三十里	-11.2112
實徵銀	-11.2113
性剛	-11.2115
又東南流	-11.2117
棄官	-11.2117
直學士	-11.2119
題詠	-11.2122
漯	-11.2123
怪石	-11.2124
濼	-11.2125
不擾	-11.2126
廿	-11.2127
在府城西南	-11.2129
件	-11.2139
沿革	-11.2139
扁曰	-11.214
嵇	-11.214
鼈	-11.2141
一千六百	-11.2141
堅守	-11.2143
妻蔡氏	-11.2143
固辭	-11.2143
保寧	-11.2144
窘	-11.2145
瘡	-11.2145
趺	-11.2145
曹操	-11.2148
潁州人	-11.215
年二十五	-11.2152
沛縣	-11.2153
艱難	-11.2156
黄岡	-11.2157
岢嵐	-11.2158
荆溪	-11.2158
開元中	-11.2162
千頃	-11.2164
天錫	-11.2164
必先	-11.2165
兗	-11.2169
蟾	-11.2171
攢	-11.2172
籟	-11.2172
癸亥	-11.2173
稽首	-11.2174
嵗久	-11.2175
生徒	-11.2176
措置	-11.2179
自經死	-11.2186
杵	-11.2189
每歲	-11.219
永泰	-11.2192
丐	-11.2192
夜半	-11.2194
先聖	-11.2194
寳慶	-11.2195
天地之	-11.2195
歐陽修	-11.2196
醫學	-11.2197
葉爾羌	-11.2201
課銀	-11.2204
稷山	-11.2205
娑	-11.2206
筒	-11.2208
鑿石	-11.2212
北三里	-11.2213
嗣後	-11.2214
縣流入	-11.2214
禋	-11.2214
又東過	-11.2215
平越	-11.2217
嵊	-11.2219
儻	-11.2221
堂集	-11.2227
副總兵	-11.2228
六十二	-11.223
司理	-11.223
涼州	-11.2231
大都督	-11.2232
百歩	-11.2233
執事	-11.2235
筭	-11.2236
皇祖	-11.2237
峩眉	-11.2241
從弟	-11.2244
庚申	-11.2245
朝貢	-11.2245
河南府	-11.2248
廣信	-11.225
杪	-11.225
德清	-11.2255
樞宻院	-11.2257
應劭曰	-11.2258
挑濬	-11.2259
賡	-11.226
工費	-11.2262
州總管	-11.2262
部左侍郎	-11.2263
正色	-11.2263
蝕	-11.2264
數尺	-11.2265
累官至	-11.2268
順治初	-11.227
馬步戰守兵	-11.2273
縣故城西	-11.2276
妻丁氏	-11.2279
惶	-11.2282
重脩	-11.2282
酌量	-11.2286
廟碑	-11.2291
盡禮	-11.2291
遘	-11.2291
分水嶺	-11.2294
縣尉	-11.2296
嬴	-11.2297
識者	-11.2305
筑	-11.2305
羅浮	-11.2308
郡唐屬	-11.2312
愉	-11.2323
武舉	-11.2324
癸巳	-11.2325
周三里	-11.2327
所能	-11.2332
得罪	-11.2333
目前	-11.2334
接壌	-11.2338
箱	-11.234
款	-11.234
猖獗	-11.2341
成化杭州府志	-11.2342
碣石	-11.2342
冩	-11.2342
本色糧	-11.2347
紛紛	-11.2356
田畝	-11.2356
櫓	-11.2358
梁天監	-11.2371
鍊	-11.2371
進退	-11.2373
噐	-11.2376
水逕	-11.2381
晉陵	-11.2382
順帝	-11.2383
棲霞	-11.2384
西三十里	-11.2387
嵗饑	-11.2388
跣	-11.2389
牛羊	-11.2393
筆帖式	-11.2397
武陟	-11.2398
嫡	-11.2399
娛	-11.2399
立祠祀之	-11.2401
尚書令	-11.2402
徂	-11.2402
伽藍	-11.2404
縣城西	-11.2409
雍正十三年	-11.241
茅山	-11.241
昕	-11.2416
黠	-11.2421
蓄洩	-11.2425
傍有	-11.2426
鄜	-11.2426
鬰	-11.2429
職官	-11.2431
友諒	-11.2431
垢	-11.2432
繳	-11.2432
喚	-11.2433
舉人知	-11.2434
洸	-11.2436
鴻臚	-11.2437
尅	-11.2438
能詩	-11.2441
相距	-11.2446
朂	-11.2449
郴州	-11.245
邨	-11.2458
東南流逕	-11.2458
賔客	-11.2459
完顔	-11.2461
上有石	-11.2461
笥	-11.2463
猗	-11.2464
庫勒	-11.2467
南面	-11.247
白塔	-11.2471
駐兵	-11.2473
北一里	-11.2487
倬	-11.2487
夫歿	-11.2489
三百三十	-11.2502
四百八十	-11.2504
早卒	-11.2505
蘭陵	-11.2505
亶	-11.2507
不涸	-11.2512
狡	-11.2515
八十四	-11.2516
討平	-11.2518
部侍郎	-11.252
蘇州府	-11.2522
拔貢	-11.2523
贅	-11.2525
郤	-11.2526
各一員	-11.2527
靈泉	-11.2527
祲	-11.2528
剌	-11.2528
挫	-11.2529
緊	-11.2529
𢎞農	-11.2531
二百五十里	-11.2531
殺賊	-11.2536
東三十里	-11.2538
門户	-11.2538
蚤	-11.254
墓誌	-11.2542
様	-11.2543
隰州	-11.2543
幄	-11.2544
母喪	-11.2544
豈能	-11.255
武鄉	-11.2551
一百七十里	-11.2557
二千石	-11.2557
諺	-11.2558
兊	-11.2559
二百四十里	-11.2559
察院	-11.256
深五尺	-11.256
史館	-11.2562
莫測	-11.2567
優免	-11.2568
縣属	-11.2571
隋唐	-11.2572
二十丈	-11.2572
聊城	-11.2572
摶	-11.2575
隋志	-11.2575
該部	-11.2581
銅陵	-11.2584
舫	-11.2587
廟記	-11.2589
山陽人	-11.2593
荼	-11.2599
膏腴	-11.2606
苐	-11.2607
澂	-11.2609
嵗支	-11.2611
鏐	-11.2615
天聰	-11.2616
仭	-11.2619
詡	-11.262
嫗	-11.2621
劭	-11.2622
六十七	-11.2624
綿州	-11.2625
十五丈	-11.2626
豁免	-11.263
考城	-11.2631
琨	-11.2637
儔	-11.2638
白蓮	-11.2639
收穫	-11.2644
萊蕪	-11.2645
妻蔣氏	-11.2648
舖兵	-11.2653
板橋	-11.2653
團練	-11.2656
又西為	-11.2657
寓居	-11.2659
定陶	-11.266
歙縣	-11.266
雍正十一年	-11.2661
宗本紀	-11.2663
酉陽	-11.2663
篋	-11.2667
高麗	-11.267
萬厯杭州府志	-11.2672
鄉舉	-11.268
揺	-11.2683
南一里	-11.2689
子成立	-11.269
投井死	-11.269
照磨	-11.2694
杞縣	-11.2698
粧	-11.2698
狥	-11.2701
七星	-11.2702
戊寅	-11.2704
刑部侍郎	-11.2704
虞城	-11.2706
哈達	-11.2708
捌百	-11.271
珮	-11.271
鶴慶	-11.2711
滄浪	-11.2712
梢	-11.2712
早寡	-11.2713
蟹	-11.2713
緜	-11.2714
源流	-11.2716
吉甫	-11.2723
寰宇記云	-11.2726
二千餘	-11.273
六十六	-11.273
宣撫	-11.2733
宣撫司	-11.2733
舟師	-11.2733
男婦	-11.2736
鬱林	-11.2744
燎	-11.2746
妻余氏	-11.2747
憇	-11.2749
辛亥	-11.275
絶粒	-11.2752
左布政使	-11.2753
孀姑	-11.2759
盤龍	-11.2759
蹲	-11.2761
虗	-11.2762
叩頭	-11.2765
淶	-11.277
夫亡守	-11.2772
殻	-11.2775
常熟縣	-11.2777
玲瓏	-11.2779
待制	-11.2781
匾	-11.2782
居庸	-11.2782
庚寅	-11.2784
叁拾	-11.2787
蔚州	-11.2787
師古曰	-11.2792
冬夏	-11.2794
盤踞	-11.2801
殆盡	-11.2803
興學校	-11.2804
暄	-11.2805
賞罰	-11.2806
巡視	-11.2808
抗疏	-11.2822
北二里	-11.2824
服闋	-11.2827
昌邑	-11.283
雅爾	-11.2834
孝弟	-11.2835
休寧	-11.2836
伏乞	-11.2836
本朝雍正	-11.2842
岔	-11.2846
避兵	-11.2847
斡	-11.2848
金大定	-11.2851
毫有竒	-11.2853
項羽	-11.2853
新増	-11.2854
不輟	-11.2855
縣東六十里	-11.2855
弋	-11.2858
軟	-11.286
江津	-11.2861
㵼	-11.2862
銀一千	-11.2865
遂昌	-11.2867
凌雲	-11.2869
鄖陽	-11.287
彤	-11.2871
又東至	-11.2871
琵琶	-11.2875
東二十里	-11.2876
种	-11.2878
兩零	-11.2878
千總二員	-11.2882
暴漲	-11.2884
糞	-11.2889
珉	-11.289
一片	-11.2894
金沙江	-11.2894
右僉都御史	-11.2897
賜爵	-11.2899
清澗	-11.2902
復置屬	-11.2903
纂修	-11.2904
逍遥	-11.2908
瑣	-11.2909
劉瑾	-11.291
循吏	-11.2912
内侍	-11.2917
靖安	-11.2918
戍守	-11.2919
大司馬	-11.2919
覇	-11.2924
慤	-11.2924
積雪	-11.2927
雷雨	-11.2928
湖州府	-11.293
岷山	-11.2936
俄而	-11.2938
病篤	-11.2948
水所出	-11.295
九絲	-11.2954
妻范氏	-11.2955
左遷	-11.296
誡	-11.296
聚衆	-11.2961
達嚕噶齊	-11.2962
綿竹	-11.2962
孝養	-11.2966
桓公	-11.2968
藺	-11.2968
議論	-11.297
晉天福	-11.2975
勣	-11.2976
迤東	-11.2976
新野	-11.2977
臨湘	-11.2979
順治元年	-11.298
嵗旱	-11.2982
隍	-11.2983
金帛	-11.2985
煖	-11.2988
欹	-11.2989
啖	-11.299
紓	-11.299
兩貳錢	-11.2996
漑	-11.3002
詵	-11.3003
瓊山人	-11.3003
味甘	-11.3006
儒士	-11.301
兩淮	-11.3011
集十卷	-11.3012
燕京	-11.3018
吁	-11.3024
卒諡曰	-11.3025
陬	-11.3026
蒲州人	-11.3027
六十八	-11.3032
瑀	-11.3036
銖	-11.3036
三百九十	-11.3037
避地	-11.3037
靈巖	-11.3037
旄	-11.3039
蝶	-11.304
雩	-11.3041
貴池	-11.3043
犁	-11.3043
禇	-11.3051
曳	-11.3055
徭役	-11.3059
慶陽	-11.3059
咸寧人	-11.3061
曲靖	-11.3064
猫	-11.3066
毬	-11.3068
區區	-11.3068
盜起	-11.3069
牂牁	-11.3069
剽	-11.3072
妻董氏	-11.3075
涿州	-11.3077
哈薩克	-11.3078
淯	-11.3085
甬	-11.3087
斬獲	-11.3087
滄海	-11.3088
衫	-11.3089
巴什	-11.309
勑	-11.3092
髙一丈	-11.3093
楊廷	-11.3095
錡	-11.31
們	-11.3102
侮	-11.3107
翩	-11.3118
錐	-11.3119
罄	-11.3119
駟	-11.3135
偵	-11.3136
菽	-11.3141
迢	-11.3151
耽	-11.3152
磔	-11.3152
瀨	-11.3167
鎰	-11.3167
愼	-11.317
綾	-11.3185
榴	-11.3186
垜	-11.3212
溱	-11.3212
漪	-11.3218
扆	-11.3222
糠	-11.3224
隳	-11.3239
畀	-11.324
抛	-11.325
潄	-11.3254
邽	-11.3255
佚	-11.3256
邳	-11.3268
洒	-11.3272
駁	-11.3276
儘	-11.3295
藕	-11.3303
埂	-11.3304
篁	-11.3307
崕	-11.3313
苧	-11.3318
桀	-11.3321
埒	-11.3324
陘	-11.3349
煦	-11.3351
嬉	-11.3354
㨿	-11.3354
霓	-11.337
剝	-11.3373
軀	-11.3389
馘	-11.3393
珥	-11.3401
戶	-11.3403
晃	-11.3405
渴	-11.3406
燃	-11.3407
頰	-11.342
衿	-11.3421
礫	-11.3422
戦	-11.3428
棋	-11.3455
騁	-11.3458
柟	-11.3472
㳟	-11.3473
凄	-11.3475
滂	-11.3476
坻	-11.3504
颯	-11.3506
肱	-11.3514
紡	-11.3515
詆	-11.3515
参	-11.3524
㡌	-11.3526
笞	-11.353
鄔	-11.3539
碾	-11.3543
湾	-11.355
胎	-11.3559
舁	-11.3562
枋	-11.3576
雇	-11.3579
姐	-11.3582
烝	-11.3597
殞	-11.3614
怯	-11.3633
孀	-11.3644
倩	-11.3662
汁	-11.3663
瘦	-11.3664
妓	-11.3669
湜	-11.3697
愽	-11.3699
氓	-11.3721
櫛	-11.3735
藹	-11.3736
餞	-11.3736
忝	-11.3755
殄	-11.3759
盞	-11.3763
惲	-11.3784
郾	-11.3795
佯	-11.3806
筏	-11.3807
儂	-11.3809
闇	-11.381
姻	-11.3823
𦙍	-11.3827
鎔	-11.3854
擴	-11.3877
婉	-11.3877
堦	-11.3878
潺	-11.388
斐	-11.3905
扞	-11.3913
貂	-11.3928
悵	-11.3932
捫	-11.3937
糓	-11.3945
餐	-11.3949
桷	-11.395
僮	-11.3952
闥	-11.3955
荻	-11.3961
豊	-11.3965
藜	-11.4003
櫬	-11.4017
厦	-11.4021
踪	-11.4022
縳	-11.4025
榦	-11.4025
耐	-11.404
豎	-11.4041
仔	-11.4052
陴	-11.4076
淋	-11.4078
懾	-11.4078
劣	-11.4079
毘	-11.4087
嫂	-11.409
黛	-11.4094
垓	-11.4098
蔗	-11.4101
拍	-11.4114
菁	-11.4128
幟	-11.4133
証	-11.4133
蔭	-11.4147
蛤	-11.4149
雌	-11.4149
閶	-11.4149
洺	-11.4154
瓢	-11.4171
堽	-11.4176
鯤	-11.4179
霅	-11.418
糖	-11.4182
皁	-11.4182
旃	-11.42
閨	-11.4202
无	-11.4203
紬	-11.4238
蘚	-11.4239
㮣	-11.4243
葑	-11.4243
棐	-11.4257
諜	-11.4267
筋	-11.4279
羗	-11.4282
狎	-11.43
訝	-11.4316
曄	-11.4317
緘	-11.4317
閼	-11.4354
諄	-11.4356
媿	-11.4356
群	-11.4357
衲	-11.4357
胙	-11.4368
洊	-11.4368
伎	-11.4374
瀼	-11.4378
夥	-11.4393
佺	-11.4393
訃	-11.44
甥	-11.4413
覓	-11.4416
鋐	-11.4459
刄	-11.4484
絮	-11.4486
訐	-11.4488
肘	-11.4489
錮	-11.4489
𨼆	-11.4524
讒	-11.4529
鄢	-11.4534
旴	-11.4536
爼	-11.4542
煽	-11.4544
奭	-11.4562
璇	-11.4573
嫩	-11.4579
餼	-11.458
纛	-11.458
覘	-11.4585
窠	-11.4601
净	-11.4602
昺	-11.461
丫	-11.4612
扳	-11.4612
鉤	-11.4618
朐	-11.4627
柑	-11.4633
墖	-11.4642
鍔	-11.4643
匀	-11.4652
皖	-11.4655
埜	-11.4655
猴	-11.4657
緋	-11.4661
籙	-11.4663
釵	-11.4676
癘	-11.4677
槍	-11.4713
妍	-11.4715
壠	-11.4715
賫	-11.4719
窑	-11.4728
厫	-11.4749
薑	-11.4755
蔑	-11.4757
紐	-11.4758
侔	-11.4797
讜	-11.4798
楼	-11.4806
隗	-11.4813
巋	-11.483
䟦	-11.4839
髯	-11.4851
臆	-11.4853
葆	-11.4855
鑪	-11.4861
燔	-11.4873
閹	-11.4875
栅	-11.4875
牓	-11.4886
鶻	-11.4891
覿	-11.4891
顗	-11.4892
迸	-11.4892
諶	-11.4906
岌	-11.4912
焰	-11.4913
呌	-11.4914
譁	-11.4914
闖	-11.494
曡	-11.4942
釗	-11.4948
讚	-11.4953
薈	-11.4955
芍	-11.4968
訾	-11.4972
琥	-11.4988
厘	-11.5002
幡	-11.5014
芷	-11.5025
萍	-11.5031
兠	-11.5032
穉	-11.5051
阪	-11.5052
悖	-11.5059
笄	-11.5066
窗	-11.5067
縻	-11.5073
掄	-11.5087
臬	-11.5088
睨	-11.509
呵	-11.5093
弘	-11.5095
怖	-11.5095
翕	-11.5103
淅	-11.5105
鎧	-11.5109
僱	-11.5112
吼	-11.5114
暝	-11.5116
豬	-11.5129
圏	-11.513
詮	-11.5132
碁	-11.5132
矛	-11.5132
瞽	-11.5136
鈕	-11.5145
杓	-11.5146
焜	-11.5147
嚙	-11.5193
厪	-11.5194
頺	-11.5194
濺	-11.521
脇	-11.5219
閟	-11.5232
侂	-11.524
瓴	-11.5257
緇	-11.5258
寀	-11.5259
渟	-11.5272
窓	-11.5276
帙	-11.5278
螭	-11.5278
埔	-11.528
凑	-11.5298
畋	-11.5299
蒋	-11.5317
酆	-11.5325
泯	-11.5338
瓣	-11.5355
漬	-11.5359
屐	-11.5362
璩	-11.5375
佗	-11.5376
滔	-11.5378
縂	-11.5379
値	-11.5401
遡	-11.5402
卵	-11.5403
紱	-11.5413
麝	-11.5418
圎	-11.5419
艷	-11.5421
闍	-11.5422
匣	-11.544
柰	-11.5443
奨	-11.5444
睹	-11.5447
腥	-11.5465
鬢	-11.5484
沓	-11.5488
琇	-11.5501
畎	-11.5502
籩	-11.5503
㐮	-11.5504
劑	-11.5504
舛	-11.5506
冨	-11.5525
鴟	-11.553
撞	-11.5545
譴	-11.5551
袂	-11.5566
媒	-11.5567
棉	-11.5568
盃	-11.5568
梟	-11.5573
櫻	-11.5582
剰	-11.5586
擎	-11.5589
蹂	-11.5591
庀	-11.5592
卸	-11.5594
茌	-11.5599
稟	-11.5612
俶	-11.5613
藎	-11.5626
晷	-11.5629
晞	-11.5629
驂	-11.5629
燿	-11.5649
豸	-11.565
繒	-11.5651
瀋	-11.5685
獞	-11.5688
壝	-11.5691
宕	-11.5692
鈐	-11.5692
愜	-11.5693
忙	-11.5695
脆	-11.5719
挖	-11.572
坳	-11.573
昴	-11.5737
瑊	-11.5741
斾	-11.5756
芸	-11.58
窖	-11.58
寤	-11.5808
譟	-11.5811
覬	-11.5828
芋	-11.585
砩	-11.586
澍	-11.5862
駛	-11.5868
擘	-11.5869
訶	-11.587
芥	-11.587
义	-11.5871
串	-11.5888
汨	-11.5889
簮	-11.5889
抜	-11.5894
巗	-11.5894
靑	-11.5906
牋	-11.5907
穫	-11.591
吿	-11.5913
鄠	-11.5927
茸	-11.593
紺	-11.5935
蠱	-11.594
鈺	-11.5947
咄	-11.5971
翎	-11.5978
嵓	-11.598
瞭	-11.5993
儆	-11.6
轟	-11.6001
庥	-11.6002
碭	-11.6002
柿	-11.6003
銃	-11.602
盾	-11.6025
沫	-11.6041
琚	-11.6042
吝	-11.6045
忩	-11.606
洹	-11.6062
覊	-11.6067
懦	-11.6073
甑	-11.6084
萼	-11.6086
邾	-11.6088
翫	-11.6091
稹	-11.6111
鯁	-11.6113
僣	-11.6115
黟	-11.612
殤	-11.6127
摯	-11.613
㳂	-11.6132
蛾	-11.6134
煑	-11.6135
禺	-11.6147
滎	-11.6158
啜	-11.6162
顓	-11.6177
愬	-11.6181
菰	-11.6196
艇	-11.6199
紂	-11.6201
飼	-11.6203
鏗	-11.6206
隧	-11.6223
羆	-11.6227
拈	-11.6243
軻	-11.6247
愕	-11.625
耘	-11.6268
盎	-11.6269
翬	-11.6269
噬	-11.627
哺	-11.6271
拏	-11.6272
腋	-11.6277
䧏	-11.629
衾	-11.6291
僦	-11.6293
繭	-11.6294
蚩	-11.6311
閃	-11.6313
騶	-11.6317
鑛	-11.633
詈	-11.6332
嗇	-11.6336
夘	-11.6351
撼	-11.6361
惓	-11.6363
湼	-11.6366
瑰	-11.638
懶	-11.6383
晰	-11.6403
戕	-11.6404
裡	-11.6405
嗚	-11.6405
懌	-11.6434
㫤	-11.6445
届	-11.6449
蹊	-11.6453
桶	-11.6475
牂	-11.6477
莆	-11.6482
鏘	-11.6494
逄	-11.6495
隈	-11.6495
滛	-11.6498
塏	-11.6499
碶	-11.6501
絢	-11.6502
棊	-11.6523
劃	-11.6524
雯	-11.6538
菑	-11.6544
夸	-11.6545
瘼	-11.6545
琿	-11.6563
菏	-11.6566
媯	-11.6569
㪚	-11.6572
崙	-11.6588
濳	-11.659
冺	-11.6594
騏	-11.6615
埀	-11.6616
鸛	-11.6638
穵	-11.6642
豺	-11.6664
苾	-11.6666
蚌	-11.6681
蟄	-11.6686
翮	-11.6709
撻	-11.6712
礟	-11.6731
佘	-11.6752
刳	-11.6756
涑	-11.6758
丰	-11.676
鼉	-11.6779
綢	-11.678
髦	-11.6783
叨	-11.6785
廠	-11.6803
堨	-11.681
秃	-11.6828
扺	-11.6832
臭	-11.6832
璵	-11.6847
崛	-11.685
躅	-11.6852
帕	-11.6859
簟	-11.6874
蜃	-11.6875
䓁	-11.6879
捜	-11.688
扄	-11.6902
搭	-11.6906
郇	-11.6944
鍋	-11.695
莱	-11.6953
貎	-11.6954
囤	-11.696
袋	-11.6974
恠	-11.6975
刈	-11.6979
蓊	-11.6998
暠	-11.7
姒	-11.7016
璨	-11.7017
溍	-11.702
摺	-11.7026
櫟	-11.7028
鍵	-11.7043
兜	-11.7045
郛	-11.7045
鞋	-11.7046
撈	-11.7047
韭	-11.7048
莾	-11.7074
喝	-11.7075
塤	-11.7089
貿	-11.7093
賻	-11.7101
滻	-11.7119
寝	-11.7121
䆳	-11.7123
瓛	-11.7142
悚	-11.7146
惴	-11.7146
默	-11.7148
䭾	-11.7169
㸑	-11.7171
啇	-11.7172
嶮	-11.7173
膂	-11.7174
焯	-11.7189
掇	-11.7195
個	-11.7196
漓	-11.72
逖	-11.7201
竪	-11.7202
弧	-11.7203
仄	-11.722
灕	-11.722
敇	-11.7225
芟	-11.7225
髓	-11.7243
檣	-11.7246
紵	-11.7268
屨	-11.7271
渇	-11.7271
佇	-11.7272
媪	-11.7274
嵬	-11.7293
犖	-11.7298
襍	-11.7299
肌	-11.7326
黌	-11.7343
趂	-11.7344
跑	-11.7345
鄱	-11.7357
杼	-11.7367
攅	-11.7374
鞅	-11.7383
莭	-11.7394
甍	-11.7396
耄	-11.7398
滏	-11.7419
敲	-11.7419
擺	-11.742
讎	-11.7427
擣	-11.7427
黻	-11.7445
俎	-11.7445
做	-11.7447
孩	-11.7449
揀	-11.745
笈	-11.745
皥	-11.7469
鍼	-11.7474
殪	-11.7474
棨	-11.7491
躭	-11.7506
謠	-11.7521
締	-11.7524
這	-11.753
叡	-11.7532
碌	-11.7551
孱	-11.7552
諉	-11.7557
縑	-11.7557
聮	-11.7574
栝	-11.7578
伶	-11.758
糯	-11.7598
彧	-11.76
驩	-11.7602
豚	-11.7628
鬲	-11.765
檐	-11.7653
装	-11.7653
䋲	-11.7654
术	-11.7655
孳	-11.7657
脯	-11.7679
邯	-11.7679
曝	-11.7681
揣	-11.7683
戩	-11.7716
浯	-11.773
扃	-11.773
韙	-11.7733
礁	-11.7746
臚	-11.7756
綫	-11.7759
濩	-11.7759
謳	-11.776
禕	-11.7761
鄺	-11.7783
崤	-11.7785
拄	-11.7787
絕	-11.7787
僵	-11.7788
嶢	-11.7811
侑	-11.7812
甜	-11.7812
遒	-11.7817
羔	-11.7832
﨑	-11.7832
槁	-11.7838
緱	-11.7838
伋	-11.7839
㓕	-11.7839
眩	-11.784
偪	-11.7843
縦	-11.7844
㤙	-11.7867
牡	-11.7884
些	-11.7891
涎	-11.7892
菲	-11.7914
湊	-11.7915
蘂	-11.7917
厠	-11.7919
瀠	-11.7921
恚	-11.7922
湓	-11.7943
釃	-11.7943
樗	-11.7944
魔	-11.7947
雛	-11.7948
楯	-11.7948
駙	-11.7969
洑	-11.797
輜	-11.7974
咱	-11.7979
峡	-11.7996
㠶	-11.7997
葩	-11.7999
炫	-11.8
孑	-11.8002
鈍	-11.8002
戡	-11.8006
釜	-11.8026
昬	-11.8026
炤	-11.8028
肄	-11.803
驄	-11.8048
愴	-11.8051
曺	-11.8052
囷	-11.8052
彫	-11.8053
饉	-11.8055
夤	-11.8064
灞	-11.8075
箬	-11.8077
鴿	-11.8078
蘖	-11.808
燥	-11.8082
梭	-11.8102
暐	-11.8107
抹	-11.8108
靚	-11.8108
蹶	-11.8111
慄	-11.8133
筐	-11.8135
瞑	-11.8137
梳	-11.816
礬	-11.8163
硃	-11.8188
垠	-11.8188
籀	-11.8191
拭	-11.8194
勳	-11.8217
忒	-11.8217
㵎	-11.8235
彎	-11.8244
弑	-11.825
珽	-11.8269
鏊	-11.8269
逡	-11.8277
夣	-11.8295
茒	-11.8299
騾	-11.8301
徠	-11.8301
弇	-11.8326
㕓	-11.8329
猓	-11.8332
霪	-11.8356
宄	-11.836
曵	-11.8361
粱	-11.8362
籥	-11.8366
忭	-11.838
嬪	-11.8384
孥	-11.8389
俚	-11.8411
鵰	-11.8436
澉	-11.8438
嫉	-11.8441
璁	-11.8461
堌	-11.8465
礎	-11.8469
瘳	-11.8472
䜟	-11.8476
瀹	-11.8495
瑯	-11.8496
堊	-11.8497
劈	-11.8498
斟	-11.8513
煇	-11.8525
桴	-11.8526
喟	-11.8528
喙	-11.8529
踊	-11.8551
舗	-11.8551
迓	-11.8559
詒	-11.8578
湔	-11.8579
宓	-11.8583
淛	-11.8583
鹺	-11.8583
裾	-11.8584
娯	-11.8584
謾	-11.8584
児	-11.8607
諦	-11.8609
筦	-11.8613
紏	-11.8615
澀	-11.8616
鬛	-11.8617
仝	-11.863
倂	-11.8636
樾	-11.8637
仿	-11.8639
榕	-11.8641
涔	-11.8642
郜	-11.8663
耤	-11.8667
毆	-11.8669
慣	-11.8675
枳	-11.8691
盥	-11.8691
娟	-11.8693
蕚	-11.8694
娠	-11.8695
舸	-11.8701
窈	-11.8701
玫	-11.8714
暈	-11.8724
壌	-11.8726
偁	-11.8726
瓉	-11.8727
黿	-11.8751
癡	-11.8753
媧	-11.8756
蜚	-11.8758
㒺	-11.876
奩	-11.878
諏	-11.8784
蟒	-11.8787
垸	-11.879
瀰	-11.8808
藐	-11.8813
膩	-11.8814
殲	-11.8814
碗	-11.8815
潏	-11.8818
屡	-11.8821
䘙	-11.8833
篷	-11.8838
𤱔	-11.8839
盱	-11.8845
縞	-11.8869
坰	-11.8872
硝	-11.8875
吠	-11.8876
蓁	-11.8897
灃	-11.8899
盼	-11.89
型	-11.8901
攫	-11.8903
罩	-11.8903
譔	-11.8904
鏃	-11.8908
鱸	-11.8932
燄	-11.8937
滉	-11.8953
竑	-11.8959
芭	-11.8964
娱	-11.8965
亙	-11.8984
遹	-11.8987
漷	-11.9016
嘏	-11.9022
綘	-11.9023
噪	-11.9024
譖	-11.9027
諲	-11.9028
猥	-11.9029
欝	-11.9047
閽	-11.9054
啄	-11.9054
騖	-11.9083
鄮	-11.9085
蕞	-11.9112
俺	-11.9115
廐	-11.9118
暎	-11.9138
霈	-11.9138
胷	-11.9139
价	-11.9166
嵋	-11.917
剙	-11.9171
継	-11.9179
熒	-11.9201
禩	-11.9201
肺	-11.9202
澁	-11.9203
勔	-11.9207
蠢	-11.9232
簒	-11.9236
䦨	-11.9237
泡	-11.9262
俛	-11.9262
債	-11.9264
顙	-11.9265
縝	-11.9265
蓆	-11.9266
悴	-11.9269
閆	-11.9283
雹	-11.9292
遨	-11.9293
沌	-11.9294
怕	-11.9295
耨	-11.9295
珦	-11.9324
鵑	-11.9328
厎	-11.9332
伉	-11.9355
曬	-11.9356
抉	-11.9356
濞	-11.9356
闐	-11.9362
悶	-11.9387
唇	-11.939
炮	-11.9404
觚	-11.9419
榷	-11.9421
諍	-11.9422
郃	-11.9434
𤦺	-11.9439
瑁	-11.9441
伾	-11.9442
斵	-11.945
碉	-11.945
㩀	-11.945
埸	-11.9453
彗	-11.9453
湃	-11.9453
澎	-11.9474
郪	-11.9477
檇	-11.9477
悽	-11.9478
醋	-11.948
蓴	-11.948
畬	-11.9482
萱	-11.9508
嶓	-11.9511
剴	-11.9513
哷	-11.9513
薙	-11.9514
譲	-11.9518
崞	-11.9518
矚	-11.9546
掉	-11.9546
郗	-11.9566
茜	-11.9574
躔	-11.9604
鳶	-11.9605
椅	-11.9605
鋸	-11.9636
贇	-11.9636
琉	-11.9638
凭	-11.9642
孛	-11.9644
𥙿	-11.9663
氾	-11.9663
券	-11.9668
闞	-11.9668
慝	-11.9675
蜡	-11.9697
澚	-11.9698
巵	-11.9701
㢲	-11.9702
獷	-11.9702
珀	-11.9703
垾	-11.9704
闓	-11.9705
礮	-11.9726
䢴	-11.9734
蛙	-11.9735
玄	-11.9736
茆	-11.9753
摛	-11.9765
嘻	-11.9767
彘	-11.9767
讌	-11.9798
皝	-11.9808
罍	-11.9828
蘧	-11.9829
餒	-11.983
磵	-11.9833
袒	-11.9835
喫	-11.9837
淦	-11.984
糊	-11.9861
适	-11.9861
苓	-11.9864
涅	-11.9864
淆	-11.9866
㤀	-11.9867
黷	-11.9869
圳	-11.9876
卡	-11.9883
玷	-11.9893
魴	-11.9893
纍	-11.9895
櫂	-11.9895
罽	-11.9896
瞬	-11.9898
猜	-11.9898
嘶	-11.9898
縠	-11.9926
玀	-11.9936
穏	-11.9962
飈	-11.9963
剗	-11.9966
淖	-11.9977
娃	-11.999
壖	-11.9993
篙	-11.9997
璡	-12.002
巂	-12.0021
凃	-12.0021
拽	-12.0025
澣	-12.0027
緻	-12.003
殃	-12.0034
鮎	-12.0054
秤	-12.0058
儕	-12.006
蒔	-12.0063
䆒	-12.0067
淂	-12.0067
闉	-12.0092
紉	-12.0119
抒	-12.0127
礱	-12.0127
撑	-12.0128
畚	-12.0129
厮	-12.0131
滬	-12.0155
檝	-12.016
豢	-12.0164
澨	-12.0187
輞	-12.0189
璹	-12.0191
埏	-12.0192
揷	-12.0192
佔	-12.0195
滷	-12.0221
愔	-12.0226
侗	-12.0227
筌	-12.0228
椀	-12.0254
嚼	-12.0262
匏	-12.0263
傘	-12.0264
䧺	-12.0265
鷙	-12.0266
箠	-12.0266
犍	-12.0294
掬	-12.0296
熖	-12.0297
尒	-12.0314
鑣	-12.0322
嶸	-12.0327
蒨	-12.0361
艤	-12.0364
舄	-12.0364
楽	-12.0366
屆	-12.0388
嵎	-12.0393
褥	-12.0398
彜	-12.0403
袞	-12.0423
灊	-12.0428
稗	-12.0429
楣	-12.043
盲	-12.0433
醪	-12.0433
鉦	-12.0436
崒	-12.0462
硬	-12.0464
溳	-12.0493
芙	-12.0496
毀	-12.05
棍	-12.05
爍	-12.0501
穡	-12.0502
㷀	-12.0528
檟	-12.0529
酥	-12.0534
瑱	-12.0534
刲	-12.0534
蕖	-12.0535
矮	-12.0535
磽	-12.0538
唾	-12.0539
讙	-12.054
煤	-12.0567
蒜	-12.0567
縋	-12.0569
泐	-12.057
哇	-12.0571
別	-12.0572
葷	-12.0572
篠	-12.0573
皿	-12.0577
澡	-12.0605
虒	-12.0605
艶	-12.0605
隲	-12.0606
鑠	-12.0607
旒	-12.0607
溷	-12.0635
駸	-12.0671
燠	-12.0674
瘵	-12.0677
綎	-12.0678
籖	-12.0679
郅	-12.0681
窆	-12.071
芰	-12.071
𠂻	-12.0712
痊	-12.0712
麴	-12.0714
麤	-12.0718
蔥	-12.0736
佶	-12.0738
胃	-12.0742
鮓	-12.0742
菟	-12.0744
粘	-12.0745
泫	-12.0745
秔	-12.0747
鷂	-12.0749
簋	-12.0775
榱	-12.0779
鰻	-12.0784
糗	-12.0785
舡	-12.0786
䃮	-12.081
柞	-12.0815
嶔	-12.0815
搬	-12.0818
玻	-12.0818
吮	-12.0819
蓍	-12.0819
攄	-12.0821
阼	-12.0822
苫	-12.0823
悃	-12.0825
坌	-12.0847
朞	-12.0852
讃	-12.0857
秪	-12.0859
刧	-12.0883
挨	-12.0888
鑊	-12.0889
鱉	-12.0889
陁	-12.089
袴	-12.0892
跌	-12.0898
賃	-12.0898
棃	-12.0914
蹌	-12.0919
薜	-12.0923
櫺	-12.0925
幔	-12.0926
詘	-12.0929
虺	-12.093
膾	-12.0958
軹	-12.0958
鑱	-12.096
褰	-12.0962
橐	-12.0965
茘	-12.099
烜	-12.0991
簠	-12.0992
肚	-12.0994
橈	-12.0995
漚	-12.0998
豔	-12.1
茄	-12.1
滲	-12.1
睇	-12.1001
与	-12.1005
怛	-12.1008
雎	-12.1024
荃	-12.1025
斆	-12.1028
麈	-12.1031
撝	-12.1031
蟇	-12.1034
袵	-12.1036
逗	-12.1039
狸	-12.104
蕎	-12.1074
兕	-12.1074
鍳	-12.1074
瀍	-12.1106
耻	-12.1112
噲	-12.1139
纜	-12.1145
嶤	-12.1146
諗	-12.1147
痍	-12.1151
絍	-12.1178
嬌	-12.1178
刮	-12.1182
禳	-12.1183
璲	-12.1208
腕	-12.1214
笻	-12.1215
祛	-12.1218
逍	-12.1219
躪	-12.122
眸	-12.122
犧	-12.1222
劬	-12.1222
黥	-12.1222
裊	-12.1251
渌	-12.1253
玭	-12.1256
牝	-12.126
鉄	-12.1288
楸	-12.1293
吭	-12.1295
緫	-12.1296
酹	-12.1298
撾	-12.1298
䑛	-12.1328
紈	-12.133
鍰	-12.1331
㬰	-12.1333
蜕	-12.1333
滆	-12.1334
誄	-12.1335
讋	-12.1336
皐	-12.1361
沴	-12.1368
蛻	-12.137
埧	-12.138
疃	-12.1388
獺	-12.1403
槨	-12.1407
柬	-12.141
內	-12.1439
氲	-12.1449
陕	-12.1452
粃	-12.1472
嫠	-12.1478
埇	-12.1482
枹	-12.1483
箸	-12.1486
診	-12.1487
妬	-12.1488
单	-12.1514
秭	-12.1516
茱	-12.1519
脛	-12.152
魅	-12.1526
硫	-12.1527
殀	-12.155
廽	-12.1555
囓	-12.156
睠	-12.1562
𣸪	-12.1563
餙	-12.1566
罨	-12.1592
柗	-12.1595
嵕	-12.1595
萋	-12.1596
眇	-12.1596
疽	-12.1601
徉	-12.1602
覯	-12.1603
啚	-12.1605
罘	-12.1634
繖	-12.1634
壟	-12.164
碍	-12.1641
坼	-12.1642
澥	-12.167
榘	-12.1672
砍	-12.1675
窳	-12.168
鄄	-12.171
甡	-12.1711
芡	-12.1715
飱	-12.172
窅	-12.1721
檉	-12.1748
壙	-12.1754
呀	-12.1755
你	-12.1756
窒	-12.1757
糟	-12.1788
蕨	-12.1792
搴	-12.1793
鰥	-12.1795
鏖	-12.1796
吻	-12.1798
牱	-12.1803
焞	-12.1831
杷	-12.1832
絙	-12.1833
駮	-12.1834
菌	-12.1836
斁	-12.1836
絞	-12.1837
磑	-12.1839
汩	-12.1842
墪	-12.1861
僎	-12.1874
撩	-12.1875
悛	-12.1875
䂓	-12.1876
咒	-12.1883
湞	-12.1896
莢	-12.1909
㪷	-12.1913
訢	-12.1915
烘	-12.1919
瀬	-12.1949
莪	-12.195
遄	-12.1954
亾	-12.1955
㝢	-12.1957
熲	-12.1962
羯	-12.1963
樺	-12.1988
祧	-12.1989
鑼	-12.1991
鍚	-12.1995
嘲	-12.1996
滓	-12.1998
溧	-12.2019
鯽	-12.2029
繄	-12.2032
蜆	-12.2032
蚊	-12.2032
紜	-12.2037
樑	-12.2063
秣	-12.2064
疵	-12.2074
戽	-12.2075
鶩	-12.2078
閙	-12.2112
漉	-12.2115
槊	-12.2116
誚	-12.2124
濆	-12.2153
薔	-12.2153
鈿	-12.2154
笳	-12.2157
饘	-12.2158
翡	-12.2159
幘	-12.2161
璐	-12.2184
籽	-12.2186
筸	-12.219
鈇	-12.2192
􁇥	-12.2229
啞	-12.2239
潑	-12.2239
粞	-12.226
耜	-12.2275
祟	-12.2278
黝	-12.2281
艫	-12.2283
𤨏	-12.2284
蕡	-12.2308
澠	-12.2312
蒯	-12.2319
鏹	-12.232
据	-12.2323
廆	-12.2337
菓	-12.2346
謖	-12.2364
滱	-12.2366
醖	-12.2367
爻	-12.2403
邙	-12.2403
邰	-12.2404
縶	-12.2405
籃	-12.2408
僥	-12.2409
橙	-12.2439
婿	-12.2441
蔴	-12.2441
窊	-12.2443
鯀	-12.2444
橛	-12.2445
鄊	-12.2445
玕	-12.2447
鏁	-12.2448
翛	-12.2449
呪	-12.245
賙	-12.2453
沇	-12.248
筯	-12.2486
嶲	-12.2487
酢	-12.2487
貔	-12.2488
凟	-12.2488
淬	-12.2489
纉	-12.249
褘	-12.2491
雝	-12.2527
詬	-12.2528
掀	-12.253
黽	-12.2536
駞	-12.2539
欖	-12.2541
頊	-12.2568
粳	-12.2569
宷	-12.257
簧	-12.2571
𬋩	-12.2571
飴	-12.2571
秧	-12.2571
詁	-12.2572
晡	-12.2576
爌	-12.2606
亊	-12.261
肴	-12.2616
鬯	-12.2616
煨	-12.2617
厝	-12.2618
蠅	-12.2618
爇	-12.2619
湢	-12.2619
垕	-12.2621
尢	-12.2652
錬	-12.2653
罏	-12.2654
澦	-12.2655
戛	-12.2656
獬	-12.2656
岧	-12.2659
捄	-12.266
蹴	-12.2699
醬	-12.2699
妣	-12.2702
濊	-12.2703
輻	-12.2704
跂	-12.2704
盻	-12.2707
紊	-12.2707
筰	-12.2708
鮫	-12.2739
畸	-12.2741
貊	-12.2744
箔	-12.2744
嶄	-12.2744
貰	-12.2745
窶	-12.2746
猱	-12.2747
𤾉	-12.2782
碓	-12.2785
㯽	-12.2787
縹	-12.2787
夐	-12.279
嗷	-12.279
瑒	-12.279
擠	-12.2794
譎	-12.2795
闘	-12.283
罇	-12.2911
芃	-12.2914
耑	-12.292
絅	-12.2949
瀵	-12.296
晤	-12.2965
衎	-12.2966
叵	-12.2969
珵	-12.2998
烱	-12.3004
邜	-12.3006
酃	-12.3011
誾	-12.305
淼	-12.305
缶	-12.3053
璊	-12.3056
庳	-12.3057
擐	-12.3057
䍧	-12.3064
柚	-12.3093
掞	-12.3093
嶒	-12.3095
擷	-12.3097
頷	-12.3098
擿	-12.3098
熏	-12.3099
迯	-12.3101
悰	-12.3102
揑	-12.3103
喆	-12.3135
漈	-12.3137
惚	-12.3139
蟆	-12.3141
幃	-12.3142
穩	-12.3143
閾	-12.3145
莞	-12.3145
硎	-12.3147
圁	-12.3181
慥	-12.3184
綃	-12.3186
埤	-12.3189
臠	-12.3191
霾	-12.3232
槳	-12.3233
崍	-12.3234
兾	-12.3235
詫	-12.3235
褫	-12.3241
崚	-12.3277
儷	-12.3278
徜	-12.3283
憊	-12.3288
怵	-12.3324
纊	-12.3335
毳	-12.3367
泱	-12.3369
虵	-12.3372
鴛	-12.3374
飡	-12.3376
崎	-12.341
鐙	-12.3415
絰	-12.3417
絀	-12.3418
扑	-12.3419
睛	-12.3422
蠏	-12.3459
鬆	-12.346
瓏	-12.3462
䜿	-12.3466
睂	-12.3467
躁	-12.3472
磻	-12.3507
臍	-12.3508
淝	-12.351
椰	-12.3511
噉	-12.3512
霹	-12.3512
嘘	-12.3512
洭	-12.3544
鐺	-12.3558
蹻	-12.3558
杠	-12.3559
氤	-12.356
堕	-12.3561
侁	-12.3563
异	-12.3565
蛮	-12.357
禊	-12.3603
閈	-12.3605
茵	-12.3605
軺	-12.3606
鍤	-12.3607
枵	-12.3609
涘	-12.3611
輳	-12.3649
蕆	-12.365
徤	-12.3653
隤	-12.3654
枷	-12.3657
髠	-12.3657
漵	-12.3685
蘗	-12.3694
搢	-12.37
嶻	-12.3703
鵾	-12.3738
鐔	-12.3739
宙	-12.374
份	-12.3741
萸	-12.3743
趕	-12.3746
桔	-12.3751
獮	-12.3751
楙	-12.3791
繽	-12.3794
璃	-12.3794
舵	-12.3795
賖	-12.3796
螂	-12.3797
褊	-12.3797
猖	-12.38
擯	-12.3803
􁐍	-12.3833
麩	-12.3837
蜿	-12.3838
誑	-12.3844
肸	-12.3845
鱠	-12.3846
殽	-12.3846
缾	-12.3847
蒂	-12.3848
嗤	-12.3849
桅	-12.3885
簸	-12.3889
唘	-12.389
靂	-12.3894
麫	-12.3894
畯	-12.3895
濘	-12.3895
衘	-12.3895
轎	-12.3897
刅	-12.3898
蝟	-12.3898
韞	-12.3938
惺	-12.3938
杆	-12.3939
坵	-12.3941
鬟	-12.3941
畹	-12.3941
剄	-12.3941
藿	-12.3944
撐	-12.3945
鐃	-12.3945
踣	-12.3946
酪	-12.3946
懴	-12.3946
猊	-12.3947
愠	-12.395
酇	-12.3982
崈	-12.3987
摃	-12.3987
癰	-12.3991
磷	-12.3992
荇	-12.3992
狃	-12.3995
隩	-12.3997
鋼	-12.3999
旛	-12.4035
捺	-12.4038
睥	-12.4042
莓	-12.4043
鉏	-12.4043
糲	-12.4044
昜	-12.4051
疉	-12.4078
㙮	-12.4082
蓉	-12.4086
螢	-12.4087
罟	-12.4088
酤	-12.4091
憎	-12.4093
笮	-12.4094
旰	-12.4094
賭	-12.4096
眎	-12.4097
胝	-12.4099
勷	-12.4137
黏	-12.4137
郄	-12.4139
彀	-12.4139
聆	-12.414
驁	-12.414
溈	-12.414
匕	-12.4142
蹋	-12.4144
缸	-12.4151
棫	-12.4182
佈	-12.419
悸	-12.4191
鉗	-12.4193
麂	-12.4232
楩	-12.4234
溆	-12.4234
繙	-12.4237
畛	-12.4237
搔	-12.4241
喘	-12.4242
窯	-12.4279
崐	-12.4284
樅	-12.4289
犇	-12.4289
拷	-12.4289
嗾	-12.429
悮	-12.4291
絜	-12.4298
栲	-12.434
嬖	-12.4344
町	-12.4345
宁	-12.4385
綯	-12.4387
嵂	-12.4388
幞	-12.4391
狷	-12.4393
蕘	-12.4393
啣	-12.4393
荳	-12.4436
暦	-12.444
㽔	-12.4444
嫻	-12.4445
軋	-12.4445
崿	-12.4445
甿	-12.4446
筴	-12.4448
慾	-12.445
朦	-12.4494
殍	-12.4495
􁣕	-12.4496
褁	-12.4497
卬	-12.45
壼	-12.45
糕	-12.4535
謇	-12.4546
槀	-12.455
徨	-12.4553
蘊	-12.4587
鸕	-12.4593
鞞	-12.4595
楗	-12.4595
錞	-12.4596
璆	-12.4597
拿	-12.4598
篾	-12.4599
茯	-12.4599
颼	-12.4601
駘	-12.4601
鏑	-12.4603
頫	-12.4603
醢	-12.4608
箎	-12.4645
撙	-12.4652
凈	-12.4654
𬗟	-12.4656
萄	-12.4657
酺	-12.4657
磾	-12.466
蚪	-12.4701
匙	-12.4704
靴	-12.4704
柝	-12.4705
趵	-12.4711
泃	-12.4746
貓	-12.4753
薌	-12.4753
鑽	-12.4758
襦	-12.4763
縵	-12.4779
凰	-12.4797
渼	-12.4802
欷	-12.4804
燝	-12.4805
蔔	-12.4807
爬	-12.4807
璀	-12.4808
贐	-12.4811
暵	-12.4814
頋	-12.4815
戱	-12.4816
埕	-12.4857
扒	-12.4859
縀	-12.4862
憧	-12.4864
鷁	-12.4865
曛	-12.4865
髫	-12.4865
嵸	-12.4867
澐	-12.4907
騮	-12.4911
枇	-12.4914
曁	-12.4919
桿	-12.4964
痘	-12.4964
粢	-12.4965
襖	-12.4968
踴	-12.4969
穽	-12.4971
趋	-12.4971
芑	-12.4977
鞬	-12.498
洶	-12.502
寬	-12.5021
緞	-12.5024
詿	-12.5024
綆	-12.5026
鷟	-12.5071
氶	-12.5072
炌	-12.5077
𡨕	-12.5078
剜	-12.508
穂	-12.508
幙	-12.5082
篚	-12.5084
脾	-12.5084
錙	-12.5085
啻	-12.5086
灔	-12.5128
嚳	-12.5128
鷀	-12.5129
舳	-12.5139
盌	-12.5139
哆	-12.514
蓀	-12.518
爚	-12.5185
凸	-12.5187
埓	-12.5187
歘	-12.5188
浥	-12.5188
蓑	-12.5189
堇	-12.519
羃	-12.519
綉	-12.5191
沍	-12.5194
洌	-12.5194
畊	-12.5245
惱	-12.5248
鍇	-12.5249
瓮	-12.525
耦	-12.525
瞋	-12.525
跏	-12.5251
佽	-12.5251
嵒	-12.53
頹	-12.5302
驃	-12.5305
娣	-12.5349
廏	-12.5352
祓	-12.5356
擦	-12.536
鴆	-12.5363
榨	-12.5364
棻	-12.5403
炅	-12.5407
虀	-12.541
帚	-12.5412
㡳	-12.5412
鵶	-12.5412
鄕	-12.5412
么	-12.5412
睫	-12.5415
殳	-12.5415
怏	-12.5423
仟	-12.544
耋	-12.5467
偓	-12.5468
胭	-12.5469
諛	-12.5474
枸	-12.5476
衂	-12.5478
賨	-12.5478
稞	-12.5519
胊	-12.552
唳	-12.5524
沚	-12.5525
緹	-12.5527
殂	-12.553
棼	-12.5531
壋	-12.5535
暾	-12.5535
瞳	-12.5536
蕊	-12.5581
頲	-12.5584
朧	-12.5586
腫	-12.5586
蠭	-12.5592
芊	-12.5633
凊	-12.5636
荍	-12.5637
埡	-12.5637
瓷	-12.5641
攖	-12.5644
裸	-12.5644
确	-12.5644
叫	-12.5646
肢	-12.5647
爆	-12.5649
捶	-12.565
憔	-12.5651
橒	-12.569
蠣	-12.5694
阯	-12.5694
薤	-12.57
𢷬	-12.57
埴	-12.5705
膊	-12.5706
棒	-12.5756
摰	-12.5757
嫓	-12.576
仵	-12.576
秫	-12.5761
剋	-12.5762
巃	-12.5763
𣏌	-12.5808
鎡	-12.5808
欎	-12.5812
鏌	-12.5812
湋	-12.5812
匆	-12.5815
嵯	-12.5817
錘	-12.5818
盒	-12.5818
炷	-12.5818
逅	-12.5818
鯢	-12.582
銕	-12.582
肋	-12.5823
駑	-12.5825
淒	-12.5828
辣	-12.5874
㮚	-12.5877
茁	-12.5878
頠	-12.5885
詧	-12.5887
沬	-12.5931
栳	-12.5932
澌	-12.5937
佾	-12.5939
螳	-12.5941
匄	-12.5944
娌	-12.5989
諴	-12.5996
襁	-12.5997
骼	-12.5998
赧	-12.5999
稲	-12.5999
梃	-12.5999
篡	-12.6001
慱	-12.6002
雘	-12.6003
蠁	-12.6003
汳	-12.6035
邴	-12.6048
餬	-12.605
獐	-12.6051
縴	-12.6053
篔	-12.6054
㓗	-12.6054
珝	-12.6054
爕	-12.6054
屣	-12.6056
嘔	-12.6058
熬	-12.6059
􁰤	-12.6059
毖	-12.6061
䏻	-12.6065
湳	-12.6079
妯	-12.611
渫	-12.6113
壚	-12.6117
㐲	-12.6118
漭	-12.6118
岈	-12.6118
醵	-12.6118
傚	-12.612
縟	-12.6121
䙝	-12.6121
剃	-12.6123
聾	-12.6124
勰	-12.6124
㢤	-12.6126
嶍	-12.6166
蜈	-12.6171
砧	-12.6172
睒	-12.6179
緗	-12.6179
脣	-12.6179
祏	-12.6181
漶	-12.6182
塡	-12.6185
鄩	-12.6227
禔	-12.6235
腳	-12.6237
韡	-12.6238
籓	-12.6238
簍	-12.6239
氈	-12.624
蛛	-12.6241
袪	-12.6242
峥	-12.6242
銍	-12.6243
瘥	-12.6244
鰕	-12.6244
媵	-12.6245
轆	-12.6296
鹻	-12.6299
僂	-12.63
戞	-12.6302
閴	-12.6303
徊	-12.6303
隼	-12.6304
稾	-12.6304
熄	-12.6304
嗎	-12.6304
咀	-12.6305
膴	-12.6306
万	-12.6314
卲	-12.6362
惹	-12.6363
徯	-12.6364
灧	-12.6364
噎	-12.6366
謔	-12.6366
顚	-12.6368
罌	-12.6368
㕑	-12.637
殛	-12.637
鷰	-12.6422
傀	-12.6422
絨	-12.6424
猨	-12.6427
竽	-12.6427
沄	-12.6483
菡	-12.6485
歔	-12.6486
吊	-12.6486
趁	-12.6487
邂	-12.649
淥	-12.6492
断	-12.6496
冏	-12.6504
蘅	-12.6547
躑	-12.6548
剩	-12.6551
嶪	-12.6553
塈	-12.6554
犨	-12.6555
挐	-12.6557
窣	-12.6557
篝	-12.6557
蔕	-12.6557
藳	-12.656
橄	-12.656
郞	-12.6563
筧	-12.6611
檳	-12.6613
臾	-12.6613
妝	-12.6614
勗	-12.6614
矍	-12.6615
麵	-12.6617
籜	-12.6617
頎	-12.6618
􁇧	-12.6621
虔	-12.6622
頏	-12.6627
禘	-12.6671
壎	-12.6672
挟	-12.6677
頵	-12.6678
崦	-12.6678
皈	-12.6679
姫	-12.6684
楶	-12.6687
唬	-12.6731
熠	-12.6735
纁	-12.6742
懃	-12.6746
䄂	-12.6748
饟	-12.6749
䏰	-12.6751
螯	-12.6752
昀	-12.6753
翌	-12.6793
蚣	-12.6801
闋	-12.6805
謩	-12.6806
洚	-12.6809
樣	-12.6809
鮪	-12.681
擡	-12.681
襯	-12.6869
驊	-12.687
襪	-12.687
戧	-12.6876
潬	-12.6882
汕	-12.6882
繢	-12.6941
萎	-12.6943
貍	-12.6944
髭	-12.6944
祋	-12.6945
昃	-12.6947
竢	-12.6947
栴	-12.6996
薺	-12.7
熺	-12.7005
饔	-12.7005
岏	-12.7006
墁	-12.701
哦	-12.701
緍	-12.7011
荐	-12.7011
潩	-12.7063
浤	-12.7066
頔	-12.707
尙	-12.7074
㓙	-12.7074
唄	-12.7074
嚢	-12.7075
呢	-12.7078
㳫	-12.7081
倕	-12.7087
夹	-12.7137
漱	-12.7141
婣	-12.7141
愾	-12.7141
訕	-12.7142
斿	-12.7143
猩	-12.7144
濙	-12.7146
搨	-12.7147
瀏	-12.7153
騤	-12.7205
鍪	-12.7205
砫	-12.7205
莧	-12.7205
𦕈	-12.7207
忞	-12.7208
詛	-12.7211
勩	-12.7213
纚	-12.7215
狠	-12.7215
㺯	-12.727
靛	-12.7273
犵	-12.7273
洫	-12.7273
蜑	-12.7273
鄗	-12.7273
軏	-12.7274
緄	-12.7277
侄	-12.728
祤	-12.728
跬	-12.7283
羇	-12.7284
掎	-12.7284
齬	-12.7286
冼	-12.7337
筓	-12.734
劎	-12.7341
絺	-12.7342
倓	-12.7343
櫨	-12.7346
蹰	-12.7347
痼	-12.7348
羹	-12.7348
螟	-12.7349
輛	-12.7406
枌	-12.7409
脰	-12.741
夯	-12.741
膜	-12.7411
鸚	-12.7414
嫋	-12.7414
臙	-12.7415
晳	-12.742
閥	-12.7423
胼	-12.7423
儡	-12.7478
羿	-12.7482
躊	-12.7482
䌫	-12.7484
簞	-12.7493
尭	-12.755
陿	-12.7551
酧	-12.7551
憨	-12.7552
砢	-12.7553
鋹	-12.7554
炒	-12.7555
垞	-12.7556
篩	-12.7558
逭	-12.7559
狙	-12.756
楔	-12.756
豨	-12.7566
漩	-12.7619
哮	-12.7619
㾗	-12.7623
廙	-12.7623
㠗	-12.7623
啾	-12.7623
麯	-12.7625
綝	-12.7626
蝸	-12.7627
蹉	-12.7628
飫	-12.7629
糙	-12.763
諂	-12.763
狭	-12.7631
螫	-12.7633
煬	-12.7636
攴	-12.7691
鮒	-12.7692
皴	-12.7692
嫄	-12.7693
畞	-12.7694
洨	-12.7694
昝	-12.7694
廛	-12.7694
檗	-12.7695
訌	-12.7697
蝴	-12.7698
菅	-12.7701
䍐	-12.7701
齟	-12.7706
罡	-12.7761
藂	-12.7762
焕	-12.7762
髀	-12.7763
恆	-12.7764
蒗	-12.7766
鵷	-12.7767
摸	-12.7768
顱	-12.7768
麄	-12.7769
巓	-12.777
杌	-12.7771
郕	-12.7771
梔	-12.7771
𣣔	-12.7779
恁	-12.7781
釧	-12.7829
滃	-12.7834
玦	-12.7836
禠	-12.7839
㘭	-12.784
櫜	-12.784
蕋	-12.7842
氿	-12.7845
瑢	-12.79
㯶	-12.7908
棕	-12.7913
堈	-12.7914
鞾	-12.7914
䜛	-12.7915
勍	-12.7915
癖	-12.7916
鄫	-12.7916
鱷	-12.7918
蝠	-12.7919
塼	-12.7921
圪	-12.7977
鼒	-12.7979
祼	-12.7981
咫	-12.7982
慴	-12.7984
緼	-12.7984
珞	-12.7984
嶁	-12.7984
鱣	-12.7984
喈	-12.7985
㩦	-12.7986
痺	-12.7987
矟	-12.7988
岊	-12.799
蒹	-12.8054
浰	-12.8057
傴	-12.8057
眙	-12.8058
憙	-12.8059
騭	-12.8059
洿	-12.8061
璸	-12.812
鄚	-12.8121
蛉	-12.8123
毯	-12.8125
鳧	-12.8126
頁	-12.8131
扛	-12.8132
醯	-12.8136
虙	-12.8137
喁	-12.8139
畈	-12.8199
絪	-12.8202
飜	-12.8203
邲	-12.8204
筝	-12.8205
颷	-12.8205
㴻	-12.8205
辮	-12.8209
敉	-12.821
蓽	-12.8211
傒	-12.8212
趍	-12.8277
弻	-12.8278
爱	-12.828
霤	-12.828
嵳	-12.8281
挲	-12.8283
惋	-12.8283
簣	-12.8285
胞	-12.8286
蘩	-12.8287
蹔	-12.829
玹	-12.8341
賾	-12.8353
皦	-12.8354
綍	-12.8355
悄	-12.8355
烺	-12.8356
偰	-12.8356
攪	-12.8358
卨	-12.8359
塿	-12.8361
飇	-12.8363
觱	-12.8425
枲	-12.8429
腊	-12.843
逥	-12.8432
鼯	-12.8432
憮	-12.8433
蓿	-12.8434
萑	-12.8434
桁	-12.8434
苜	-12.8435
掊	-12.8436
柢	-12.8437
賕	-12.8442
㳙	-12.8442
鼙	-12.8505
皚	-12.8507
怱	-12.8507
祊	-12.8508
珤	-12.851
秬	-12.851
煃	-12.8512
岨	-12.8512
牴	-12.8513
礲	-12.8514
絫	-12.8514
弹	-12.8514
瀲	-12.8515
荏	-12.8516
㮄	-12.8516
蝙	-12.8517
癭	-12.852
惔	-12.8521
硏	-12.858
沲	-12.8581
㝡	-12.8582
歪	-12.8582
穠	-12.8582
菘	-12.8583
㶏	-12.8584
蕺	-12.8585
姝	-12.8586
媛	-12.8587
蔞	-12.8587
㠯	-12.8589
曖	-12.859
菉	-12.859
儹	-12.8594
蓐	-12.8596
釴	-12.8658
鋌	-12.866
犛	-12.8661
侏	-12.8664
斸	-12.8664
椹	-12.8664
嚚	-12.8665
輈	-12.8665
𥪡	-12.8666
掦	-12.8666
錚	-12.8666
姧	-12.8667
牾	-12.8667
斄	-12.8668
燁	-12.8669
擗	-12.873
綖	-12.874
噩	-12.8741
蝀	-12.8741
症	-12.8742
鞮	-12.8743
檔	-12.8746
瞞	-12.8747
礴	-12.8747
晒	-12.8747
蕈	-12.8747
疴	-12.8747
鋗	-12.8748
刎	-12.8801
崟	-12.8814
熨	-12.8815
瑨	-12.8818
枰	-12.8824
賸	-12.8824
鄘	-12.8824
橰	-12.8825
虯	-12.8826
禰	-12.8827
刓	-12.8829
籐	-12.8829
羑	-12.8836
颶	-12.8877
㠄	-12.8887
个	-12.889
𢡟	-12.8896
淜	-12.8899
瑭	-12.8901
滾	-12.8902
甪	-12.8902
茀	-12.8904
彖	-12.8907
凴	-12.8907
呻	-12.8908
鸝	-12.8909
輾	-12.8909
僨	-12.8912
敭	-12.8912
􁦝	-12.8914
鋟	-12.8915
闅	-12.8967
槌	-12.8976
歧	-12.8976
湨	-12.8977
盔	-12.8978
糈	-12.898
琠	-12.8983
纈	-12.8983
狖	-12.8985
輶	-12.8986
橡	-12.8986
諝	-12.8988
巑	-12.8988
梏	-12.8989
剸	-12.8991
儈	-12.8992
晬	-12.9058
戅	-12.906
巇	-12.9068
删	-12.9069
蹬	-12.907
僇	-12.9071
羶	-12.9072
朏	-12.9076
僞	-12.9079
泑	-12.9083
葳	-12.9142
𥿄	-12.9142
檎	-12.9143
隃	-12.9144
柁	-12.9145
菼	-12.9147
蘢	-12.9147
罳	-12.915
𧖟	-12.915
揉	-12.915
聒	-12.9152
摠	-12.9153
驀	-12.9155
癯	-12.9156
潾	-12.9223
蜻	-12.9225
旟	-12.9225
㶑	-12.9226
硐	-12.9226
溼	-12.9227
岣	-12.9228
侶	-12.9229
霰	-12.9229
怳	-12.9229
跽	-12.9232
屼	-12.9235
?	-12.9236
攣	-12.9238
劘	-12.9238
濄	-12.9304
㲼	-12.9307
潨	-12.9307
狫	-12.9309
岝	-12.9311
鉶	-12.9311
觥	-12.9312
銛	-12.9312
鬐	-12.9312
贔	-12.9313
靉	-12.9314
麞	-12.9315
拐	-12.9315
歹	-12.9316
瓈	-12.9316
坯	-12.9318
憺	-12.9319
窴	-12.9349
麪	-12.938
磜	-12.9387
愫	-12.939
鄃	-12.939
堧	-12.9393
鐩	-12.9394
洓	-12.9397
讖	-12.9399
婪	-12.94
貉	-12.9401
櫝	-12.9401
嚞	-12.9403
渣	-12.9466
鸑	-12.9472
朓	-12.9478
朅	-12.9478
躇	-12.948
邐	-12.9481
轢	-12.9481
溽	-12.9481
慵	-12.9481
牣	-12.9482
氍	-12.9482
朘	-12.9482
泬	-12.9483
噀	-12.9484
皤	-12.9484
腆	-12.9485
瞥	-12.9485
丱	-12.9485
谼	-12.9486
鰌	-12.9486
撿	-12.9486
渢	-12.9491
丼	-12.955
玢	-12.9558
笪	-12.9559
珫	-12.956
搃	-12.9565
饜	-12.9566
㩁	-12.9569
榼	-12.9569
俻	-12.9572
哂	-12.9572
頳	-12.9572
駹	-12.9574
楛	-12.9577
譛	-12.9577
徬	-12.9578
瞼	-12.9579
璚	-12.9648
綮	-12.9651
笆	-12.9653
砰	-12.9654
焙	-12.9654
髹	-12.9655
蜺	-12.9656
蓰	-12.9656
𦍑	-12.9656
踟	-12.9656
嘿	-12.9658
垤	-12.966
蒭	-12.9662
玨	-12.9723
勻	-12.9736
槱	-12.9737
齪	-12.9738
蝌	-12.974
眄	-12.974
槿	-12.9741
竚	-12.9742
􁌆	-12.9744
翃	-12.9745
矬	-12.9746
嘷	-12.9747
鑚	-12.9747
傕	-12.9749
㗖	-12.9749
痢	-12.975
脽	-12.9751
昞	-12.9753
樛	-12.9821
瘋	-12.9822
滍	-12.9824
蒟	-12.9825
溠	-12.9825
泂	-12.9828
栩	-12.9828
蜒	-12.9829
轤	-12.9829
崱	-12.983
筞	-12.983
跼	-12.983
𣅿	-12.9831
俁	-12.9833
姨	-12.9834
檮	-12.9835
衒	-12.9835
祫	-12.9908
珖	-12.9909
隖	-12.9911
焱	-12.9912
憬	-12.9913
苒	-12.9915
晾	-12.9915
崆	-12.9915
蝎	-12.9918
晌	-12.9921
倨	-12.9921
獰	-12.9921
鄀	-12.9921
彷	-12.9921
憝	-12.9921
𠖇	-12.9924
狽	-12.9926
臟	-12.9926
汐	-12.9993
瑺	-12.9995
鋋	-13.0001
莉	-13.0002
肫	-13.0002
烙	-13.0002
鵓	-13.0003
蔀	-13.0004
儵	-13.0004
穸	-13.0006
訔	-13.0008
捽	-13.0009
虓	-13.0013
灶	-13.0019
姆	-13.0088
茉	-13.0092
蕤	-13.0092
汸	-13.0093
溵	-13.0094
鎚	-13.0095
苹	-13.0096
皛	-13.0097
浿	-13.0098
桄	-13.0099
攙	-13.0102
吃	-13.0102
悪	-13.0103
魃	-13.0106
扯	-13.0108
珎	-13.0185
岵	-13.0185
娼	-13.0186
紞	-13.0186
愒	-13.0189
滹	-13.019
痿	-13.0191
躓	-13.0191
愀	-13.0192
螻	-13.0195
丗	-13.0195
碇	-13.0263
㝛	-13.0274
磗	-13.0275
饅	-13.0276
恫	-13.0277
敺	-13.0279
嶐	-13.0279
駰	-13.0279
眈	-13.0282
蛩	-13.0283
瓔	-13.0283
桎	-13.0286
臉	-13.0287
摽	-13.0287
鰓	-13.0287
煕	-13.0287
咂	-13.029
肻	-13.029
崮	-13.0352
􁱰	-13.0356
􁇣	-13.0356
鈁	-13.0358
剷	-13.0369
蚺	-13.037
舠	-13.0372
磕	-13.0372
蘸	-13.0373
塠	-13.0374
鱔	-13.0375
櫚	-13.0376
啗	-13.0378
嗔	-13.0378
鰣	-13.0379
奘	-13.0379
闚	-13.0379
犴	-13.0379
筩	-13.0381
菹	-13.0389
敔	-13.0444
廚	-13.0459
鞘	-13.0459
鞵	-13.0459
皺	-13.0461
梘	-13.0462
𪠘	-13.0464
涙	-13.0464
珌	-13.0465
穪	-13.0466
訏	-13.0466
韐	-13.0468
鬪	-13.047
靠	-13.047
腑	-13.047
揄	-13.047
弃	-13.0473
鍛	-13.0474
舩	-13.0474
弢	-13.0485
帮	-13.0553
蜍	-13.0556
薯	-13.0558
覦	-13.0558
冑	-13.056
貅	-13.056
蜩	-13.0563
呦	-13.0564
弆	-13.0566
暌	-13.0567
槥	-13.0567
輗	-13.0642
鍈	-13.0642
撇	-13.0648
嶙	-13.0649
璪	-13.0652
桌	-13.0653
窿	-13.0654
栱	-13.0655
肓	-13.0658
䞇	-13.0658
矼	-13.066
劚	-13.0662
乱	-13.0666
逯	-13.0742
衖	-13.0743
縯	-13.0749
廱	-13.0749
絆	-13.075
碕	-13.0751
嘖	-13.0751
曅	-13.0751
槲	-13.0753
垍	-13.0757
詗	-13.0758
韵	-13.0759
庋	-13.0759
疚	-13.0764
央	-13.0784
菀	-13.0841
埈	-13.0846
屺	-13.0846
嬾	-13.0851
嚶	-13.0852
碙	-13.0859
咤	-13.0859
螄	-13.0934
豗	-13.0938
泲	-13.0941
蜘	-13.0942
櫪	-13.0942
侖	-13.0945
嶕	-13.0945
㽞	-13.0946
蜓	-13.0947
殣	-13.0949
袠	-13.0951
豌	-13.0953
尠	-13.0956
罸	-13.0957
滮	-13.103
潕	-13.1036
䑸	-13.1037
满	-13.1039
嶀	-13.1039
豋	-13.1039
蹷	-13.1042
袓	-13.1043
窀	-13.1043
䴥	-13.1044
枻	-13.1045
阬	-13.1048
翽	-13.1048
虫	-13.1049
芎	-13.1058
堘	-13.1126
漴	-13.1135
圌	-13.1136
倧	-13.114
歊	-13.1141
罾	-13.1142
汋	-13.1142
鬃	-13.1143
琱	-13.1145
灸	-13.1145
僃	-13.1146
羚	-13.1147
蟀	-13.1148
咬	-13.1148
莠	-13.1148
橦	-13.115
媮	-13.115
簰	-13.1152
泅	-13.1154
輭	-13.1154
譓	-13.1236
鄼	-13.1239
煊	-13.1239
鱅	-13.1242
姙	-13.1247
舷	-13.1247
楪	-13.1248
竜	-13.1248
囀	-13.1248
嵲	-13.1248
魑	-13.1249
宂	-13.1249
璝	-13.1251
呷	-13.1251
廌	-13.1252
攽	-13.1253
鯊	-13.1338
㶁	-13.1341
岍	-13.1344
揔	-13.1346
鐶	-13.1346
閧	-13.1351
儧	-13.1353
鞦	-13.1353
瀣	-13.1355
妤	-13.1355
噍	-13.1357
綻	-13.1357
洼	-13.1358
嚇	-13.1361
蛋	-13.1367
眭	-13.1442
琤	-13.1442
轔	-13.1446
匃	-13.1447
檠	-13.1447
逎	-13.1447
鎛	-13.1449
蜊	-13.1449
敡	-13.145
廰	-13.145
描	-13.145
跟	-13.1451
龥	-13.1452
煢	-13.1452
璙	-13.1452
驎	-13.1453
糺	-13.1455
孶	-13.1458
帔	-13.1459
慳	-13.1463
綋	-13.1547
屩	-13.1551
髏	-13.1552
蓚	-13.1552
拗	-13.1554
揜	-13.1555
偘	-13.1556
籞	-13.1556
纏	-13.1556
橚	-13.1557
蟋	-13.1558
㐫	-13.1558
胔	-13.156
恡	-13.1561
鏟	-13.1563
蠙	-13.1565
亰	-13.1578
碟	-13.1647
孃	-13.1649
沘	-13.1654
洣	-13.1655
㶟	-13.1656
遝	-13.1657
唧	-13.1658
澒	-13.1658
划	-13.1659
踉	-13.166
鵜	-13.1661
銚	-13.1661
鵒	-13.1662
閠	-13.1663
嬋	-13.1664
矻	-13.1665
諠	-13.1665
晙	-13.1666
煞	-13.1667
櫳	-13.1667
鴞	-13.1669
腔	-13.167
袐	-13.167
逌	-13.1672
濜	-13.1754
鮚	-13.1756
屧	-13.1759
鷖	-13.176
痰	-13.176
玥	-13.1763
􁇠	-13.1765
磋	-13.1765
浡	-13.1767
禴	-13.1769
蟊	-13.177
蚓	-13.177
麕	-13.1771
刖	-13.1773
畮	-13.1773
脗	-13.1776
献	-13.1776
娓	-13.1777
磺	-13.1868
鷴	-13.1868
􁳡	-13.187
茇	-13.1871
蝻	-13.1873
嶭	-13.1873
惸	-13.1874
箧	-13.1875
圬	-13.1875
萏	-13.1875
〇	-13.1876
帀	-13.1876
鍜	-13.1877
獎	-13.1877
璮	-13.1878
擂	-13.1879
咆	-13.1879
弈	-13.1879
眢	-13.1881
鸇	-13.1881
憕	-13.1887
棱	-13.1888
庒	-13.1891
閿	-13.1961
鮦	-13.1973
盩	-13.1975
换	-13.1975
戣	-13.1976
簹	-13.1979
佷	-13.198
逶	-13.198
旼	-13.198
篥	-13.1981
昵	-13.1982
鰐	-13.1982
衕	-13.1983
惬	-13.1983
顰	-13.1984
叭	-13.1985
俵	-13.1986
軿	-13.1986
眡	-13.1987
㲲	-13.1987
懵	-13.1989
鱖	-13.1989
开	-13.1993
蜴	-13.1994
趫	-13.1994
遛	-13.1997
瀁	-13.2082
廞	-13.2086
媽	-13.2087
蚶	-13.2088
牯	-13.2089
曕	-13.2089
罣	-13.209
腮	-13.209
澴	-13.2091
佖	-13.2091
桮	-13.2093
瑠	-13.2093
蒍	-13.2094
陔	-13.2096
匈	-13.2096
襆	-13.2096
惘	-13.2096
䲭	-13.2097
喂	-13.2188
窵	-13.2192
閌	-13.2196
軨	-13.2198
㶚	-13.2201
虖	-13.2201
豉	-13.2202
吒	-13.2203
眚	-13.2204
稳	-13.2205
晻	-13.2205
墠	-13.2206
騂	-13.2206
餳	-13.2207
籛	-13.2207
箆	-13.2208
砭	-13.2208
泒	-13.2298
柷	-13.2307
嶅	-13.2312
叉	-13.2312
㙔	-13.2312
舲	-13.2313
夬	-13.2313
艧	-13.2314
礧	-13.2314
轘	-13.2315
綳	-13.2316
謄	-13.232
鍠	-13.2321
呐	-13.2324
􁒿	-13.2401
曈	-13.2419
褎	-13.2423
狻	-13.2423
屭	-13.2425
嫺	-13.2425
秖	-13.2427
竞	-13.2427
鼛	-13.2427
爺	-13.2427
蓂	-13.243
搘	-13.243
𢾗	-13.243
簴	-13.2431
缷	-13.2433
偲	-13.2434
禡	-13.2435
㪺	-13.2435
㕥	-13.2436
悒	-13.2437
樷	-13.2444
潚	-13.2528
鱟	-13.2534
漙	-13.2537
迆	-13.2542
鉷	-13.2543
燐	-13.2545
𤯝	-13.2546
膓	-13.2548
饕	-13.2548
㟧	-13.2548
玲	-13.2549
甆	-13.255
跛	-13.255
飣	-13.2551
葅	-13.2553
杙	-13.2554
㳅	-13.2556
篪	-13.265
鄶	-13.2653
霦	-13.2654
痩	-13.2656
硪	-13.2657
鏢	-13.2659
悝	-13.2659
艚	-13.2659
趯	-13.2661
匭	-13.2662
阸	-13.2664
眦	-13.2664
墕	-13.2665
瘝	-13.2665
莵	-13.2665
勱	-13.2665
瘧	-13.2666
恧	-13.2666
橅	-13.2668
扜	-13.269
盬	-13.2765
驌	-13.277
籕	-13.2772
灄	-13.2772
醸	-13.2773
颸	-13.2774
坨	-13.2774
聃	-13.2776
邅	-13.2778
禿	-13.2779
癢	-13.278
蹠	-13.278
簀	-13.2781
焴	-13.2782
靦	-13.2785
妒	-13.2786
栒	-13.2786
匐	-13.2789
岰	-13.2789
箏	-13.2791
卄	-13.2791
繻	-13.2794
蝨	-13.2794
褵	-13.2884
鄲	-13.2884
倜	-13.2886
偀	-13.2887
楝	-13.2888
玳	-13.2889
􁘭	-13.289
罐	-13.2893
㢠	-13.2894
櫧	-13.2896
皜	-13.2897
鏻	-13.2898
柅	-13.2898
跎	-13.2899
龐	-13.2901
秒	-13.2902
帨	-13.2902
慇	-13.2902
噤	-13.2903
縡	-13.2907
鼂	-13.2908
捃	-13.2911
恙	-13.2989
􁴈	-13.3005
嫜	-13.301
𤏡	-13.301
坏	-13.3011
玿	-13.3011
岢	-13.3013
帟	-13.3014
騄	-13.3014
罝	-13.3014
奶	-13.3015
軔	-13.3016
缽	-13.3016
咋	-13.3017
棖	-13.3017
竂	-13.302
珧	-13.3021
鶱	-13.3022
蜉	-13.3023
酖	-13.3024
閡	-13.3025
窽	-13.3026
鍍	-13.3027
呾	-13.3031
剳	-13.3088
􁅔	-13.3118
埰	-13.3132
覡	-13.3138
嵫	-13.3139
倥	-13.314
髑	-13.314
忳	-13.3141
熛	-13.3141
蒺	-13.3143
戬	-13.3143
茰	-13.3145
傉	-13.3146
鰍	-13.315
峿	-13.3251
秈	-13.3257
摉	-13.326
狁	-13.3265
穄	-13.3266
斲	-13.3267
蹀	-13.3267
抝	-13.3267
髩	-13.3268
堋	-13.3269
崌	-13.3269
篌	-13.327
蚕	-13.3271
矱	-13.3271
椘	-13.3271
葯	-13.3273
鉽	-13.3373
漻	-13.3375
煐	-13.3379
浞	-13.338
耔	-13.338
礶	-13.3381
淠	-13.3383
禅	-13.3383
瑇	-13.3386
爟	-13.3386
哽	-13.3386
喏	-13.3388
眥	-13.339
鐍	-13.3392
㛰	-13.3392
嫚	-13.3393
冄	-13.3393
艸	-13.3393
吧	-13.3395
騙	-13.3398
滈	-13.3399
誹	-13.34
蜥	-13.3403
担	-13.3404
甾	-13.3502
䴡	-13.3508
瓖	-13.351
鄨	-13.351
䰟	-13.3511
鏵	-13.3511
鄷	-13.3513
鑴	-13.3513
臞	-13.3514
幌	-13.3514
頖	-13.3515
琶	-13.3516
跖	-13.3516
瑑	-13.3516
柤	-13.3517
臏	-13.3519
谺	-13.352
箜	-13.3521
氂	-13.3522
麅	-13.3523
憸	-13.3525
鄽	-13.3528
荗	-13.3631
炘	-13.3632
洳	-13.3633
醅	-13.3637
漋	-13.3637
韌	-13.3639
耍	-13.3639
霔	-13.364
莋	-13.364
崪	-13.3641
卺	-13.3641
賍	-13.3644
泜	-13.3645
玗	-13.3646
薿	-13.3646
輊	-13.3646
堝	-13.3648
綈	-13.3648
髳	-13.3648
桕	-13.3649
灩	-13.3649
轝	-13.3653
拚	-13.3655
喃	-13.3661
坭	-13.3664
畒	-13.3755
郉	-13.3756
箒	-13.3766
鍧	-13.3766
㠘	-13.3767
薏	-13.3769
蠋	-13.377
刊	-13.377
韮	-13.377
斚	-13.3771
稌	-13.3772
瞠	-13.3772
鸎	-13.3773
磈	-13.3773
芘	-13.3774
呱	-13.3774
迕	-13.3775
搦	-13.3775
悆	-13.3776
㠋	-13.3776
韉	-13.3776
鬂	-13.3779
幵	-13.378
莩	-13.3782
宬	-13.3785
咥	-13.3799
冮	-13.3892
鶡	-13.3901
汞	-13.3902
儗	-13.3902
嘈	-13.3902
禖	-13.3908
瞶	-13.3908
嚬	-13.3908
躙	-13.3909
慊	-13.3909
幪	-13.3909
狴	-13.3909
劂	-13.391
幬	-13.391
馗	-13.391
賒	-13.3911
莬	-13.3913
㫄	-13.3917
灉	-13.4033
瞷	-13.4036
櫆	-13.4037
慷	-13.4038
甖	-13.4038
褭	-13.4038
縲	-13.4039
鬘	-13.404
仡	-13.404
枒	-13.4041
賮	-13.4041
澘	-13.4041
瓿	-13.4041
矞	-13.4042
韆	-13.4043
簏	-13.4043
泔	-13.4043
谽	-13.4044
唫	-13.4044
昩	-13.4045
僝	-13.4047
躐	-13.4051
㻞	-13.416
颿	-13.4169
粼	-13.4169
琊	-13.4172
倌	-13.4173
幛	-13.4174
訇	-13.4174
卣	-13.4175
鄳	-13.4175
蚋	-13.4178
濚	-13.4178
蠆	-13.4178
醍	-13.4179
罥	-13.4179
徕	-13.418
薮	-13.418
洟	-13.4181
㵸	-13.4184
找	-13.4304
咻	-13.4305
亓	-13.4306
鋩	-13.4306
螘	-13.4307
窋	-13.4309
斕	-13.431
饁	-13.4311
搒	-13.4311
鯿	-13.4311
坫	-13.4312
跗	-13.4313
倏	-13.4314
劳	-13.4315
龢	-13.4316
窱	-13.4317
𠡠	-13.4319
謟	-13.4319
剞	-13.432
衽	-13.432
鱧	-13.432
羾	-13.4439
郚	-13.4442
錕	-13.4442
慆	-13.4444
渲	-13.4446
怦	-13.4448
笵	-13.4448
鄏	-13.445
賺	-13.445
糢	-13.4451
縧	-13.4452
抺	-13.4454
撚	-13.4454
䥥	-13.4454
滶	-13.4463
旐	-13.4575
県	-13.4576
鍬	-13.4577
籮	-13.458
嶫	-13.458
囦	-13.4581
污	-13.4583
疹	-13.4586
稒	-13.4588
鵁	-13.4589
覷	-13.4591
溲	-13.4591
苣	-13.4592
毉	-13.4592
罃	-13.4592
娜	-13.4593
栰	-13.4594
俌	-13.4596
餔	-13.4596
綑	-13.4596
肪	-13.4596
霫	-13.4596
廥	-13.4597
睪	-13.4597
灙	-13.4598
􁒐	-13.4598
麇	-13.4598
槧	-13.4599
絁	-13.4599
釬	-13.4607
崘	-13.4608
尔	-13.4713
稈	-13.4722
瞀	-13.4727
鷥	-13.4728
醑	-13.4729
蕢	-13.4729
嚥	-13.473
漰	-13.473
戺	-13.473
鬷	-13.4731
尫	-13.4731
闤	-13.4731
萯	-13.4731
諼	-13.4731
酎	-13.4732
蹏	-13.4732
俳	-13.4734
滀	-13.4734
癿	-13.4736
惮	-13.4736
酲	-13.4737
椶	-13.4738
喋	-13.4738
鼃	-13.4739
忬	-13.474
壍	-13.4743
鬴	-13.4866
鎣	-13.4867
捎	-13.4868
頣	-13.487
䥷	-13.4872
𢋫	-13.4874
峘	-13.4875
埼	-13.4876
餗	-13.4877
𪷟	-13.4877
湭	-13.4879
媼	-13.4879
炕	-13.488
阽	-13.488
驆	-13.4881
睚	-13.4881
糅	-13.4882
坈	-13.4882
餱	-13.4882
鐇	-13.4882
縢	-13.4883
醐	-13.4883
熳	-13.4886
彴	-13.4886
佉	-13.4886
踢	-13.4889
晹	-13.5013
懔	-13.5017
𫐠	-13.5018
菩	-13.5021
皃	-13.5022
魋	-13.5022
齕	-13.5026
帡	-13.5026
鯖	-13.5026
灅	-13.5027
􁠭	-13.5027
蠔	-13.5028
妺	-13.5031
歕	-13.5032
瞪	-13.5034
禨	-13.5035
捩	-13.5035
赳	-13.504
梴	-13.5157
酴	-13.5162
纑	-13.5163
苡	-13.5168
摐	-13.5169
媺	-13.5169
𤇺	-13.517
鰉	-13.5171
颻	-13.5171
鏄	-13.5174
鈸	-13.5175
矇	-13.5177
憒	-13.5178
㟏	-13.5179
厖	-13.518
壒	-13.5182
摳	-13.5184
蛺	-13.5195
鉁	-13.5314
鐄	-13.5318
柎	-13.5321
𫀆	-13.5321
茝	-13.5321
跕	-13.5324
玃	-13.5325
葫	-13.5325
赬	-13.5326
紲	-13.5327
鶄	-13.5328
薬	-13.5328
咳	-13.533
兟	-13.5331
栟	-13.5331
𢃄	-13.5333
搤	-13.5334
彂	-13.5335
䖝	-13.5338
䓤	-13.5341
狆	-13.546
艍	-13.5465
轓	-13.5469
翾	-13.5471
繾	-13.5471
妁	-13.5472
薝	-13.5475
寞	-13.5476
瘖	-13.5476
隟	-13.5477
睟	-13.548
㴶	-13.548
蹐	-13.548
疁	-13.5481
㬋	-13.5481
觝	-13.5482
暍	-13.5485
辠	-13.5485
椗	-13.5485
鑕	-13.5485
竆	-13.5485
斮	-13.5486
颭	-13.5486
釉	-13.5488
変	-13.5488
怍	-13.5493
佻	-13.5494
􁂒	-13.5616
荑	-13.562
蟶	-13.5624
僾	-13.5627
霶	-13.563
咩	-13.5632
礓	-13.5633
穟	-13.5635
艋	-13.5635
簳	-13.5636
靨	-13.5637
聪	-13.5637
滽	-13.5637
踔	-13.5639
痌	-13.564
橑	-13.5641
㬇	-13.5641
葠	-13.5641
煚	-13.5642
椑	-13.5642
鯈	-13.5642
囏	-13.5642
腿	-13.5644
螽	-13.5644
黧	-13.5645
暱	-13.5646
癩	-13.5647
煅	-13.5647
煆	-13.5648
㱔	-13.5654
邘	-13.5782
曆	-13.5783
煓	-13.5786
醿	-13.5786
虡	-13.5787
蠖	-13.579
㨂	-13.5791
茈	-13.5792
喊	-13.5792
蝤	-13.5793
蘼	-13.5793
櫸	-13.5793
褶	-13.5794
伷	-13.5794
脹	-13.5795
湑	-13.5795
疣	-13.5796
蛆	-13.5796
咈	-13.5798
磡	-13.5799
啁	-13.58
襴	-13.5801
貮	-13.5805
砮	-13.5806
秅	-13.581
韃	-13.5811
騩	-13.595
埿	-13.595
搥	-13.595
􁉤	-13.5953
沜	-13.5954
騣	-13.5954
枿	-13.5955
娵	-13.5956
赩	-13.5956
玁	-13.5957
拇	-13.5959
晊	-13.5959
艎	-13.5959
嗅	-13.5959
瑫	-13.5961
鄾	-13.5963
朢	-13.5964
丏	-13.5966
呶	-13.5969
伙	-13.5969
樝	-13.6106
􁰽	-13.6109
繅	-13.6109
疥	-13.6113
紝	-13.6114
秸	-13.6114
筤	-13.6115
嬸	-13.6116
㬢	-13.6118
璅	-13.6118
悊	-13.6119
毼	-13.6119
畇	-13.612
糝	-13.612
欏	-13.612
褧	-13.6121
鸂	-13.6121
鱘	-13.6122
瞎	-13.6124
懣	-13.6125
耉	-13.6126
墄	-13.6126
凂	-13.6126
醲	-13.6126
褉	-13.613
轑	-13.613
倔	-13.6135
滘	-13.6145
霩	-13.6259
鎏	-13.6264
泿	-13.627
䃳	-13.6274
蟺	-13.6281
终	-13.6281
郈	-13.6282
浛	-13.6284
氅	-13.6285
䓻	-13.6285
瘟	-13.6286
舴	-13.6288
㰖	-13.6288
墱	-13.6293
噓	-13.6293
卅	-13.6293
揵	-13.6294
嗢	-13.6301
剉	-13.6437
璥	-13.644
顕	-13.6445
鑨	-13.6446
蓞	-13.6446
牁	-13.6446
繯	-13.6448
埶	-13.6448
唁	-13.6452
􁂪	-13.6452
馱	-13.6453
樠	-13.6453
醤	-13.6456
㜑	-13.6456
㫋	-13.6458
慼	-13.6458
溘	-13.6458
􁪒	-13.6459
総	-13.646
傃	-13.6462
桯	-13.6463
輋	-13.6464
奧	-13.6464
聦	-13.6464
顇	-13.6465
榿	-13.6465
蠕	-13.6467
艨	-13.6468
圅	-13.6469
濾	-13.6469
忉	-13.6616
旡	-13.6617
瀙	-13.6618
鄡	-13.662
悳	-13.6621
痴	-13.6621
荄	-13.6621
苪	-13.6622
暲	-13.6622
珅	-13.6624
旹	-13.6624
掯	-13.6624
軄	-13.6624
髽	-13.6625
廑	-13.6626
嶇	-13.6627
挍	-13.6628
婭	-13.6629
旵	-13.6631
恇	-13.6632
鰱	-13.6633
蠒	-13.6633
嚭	-13.6634
䥴	-13.6635
嘅	-13.6637
稉	-13.6639
响	-13.6639
忖	-13.6646
冞	-13.6769
溮	-13.6787
厔	-13.6793
瑮	-13.6793
燻	-13.6797
蛑	-13.6798
靶	-13.6799
癱	-13.6801
賅	-13.6803
醎	-13.6803
薁	-13.6804
羝	-13.6804
猢	-13.6805
钁	-13.6805
涴	-13.6807
涫	-13.6809
􁃞	-13.6809
殑	-13.6809
􁌱	-13.681
愎	-13.6811
胖	-13.6812
枅	-13.6812
獪	-13.6818
􁆞	-13.6818
齗	-13.682
􁎍	-13.6963
謌	-13.6973
漼	-13.6974
磝	-13.6975
腎	-13.6977
韈	-13.6978
峋	-13.6979
抔	-13.698
薳	-13.6981
鮆	-13.6981
蔲	-13.6982
凾	-13.6982
仃	-13.6982
禬	-13.6983
晧	-13.6983
欃	-13.6983
㬪	-13.6984
雱	-13.6985
讟	-13.6985
􁃝	-13.6985
餂	-13.6985
娉	-13.6985
蘑	-13.6985
襌	-13.6987
篦	-13.6988
僴	-13.6988
卾	-13.6989
竁	-13.6995
齾	-13.7153
傖	-13.7155
褔	-13.7156
澬	-13.7162
咮	-13.7162
鶒	-13.7163
碥	-13.7164
偬	-13.7164
媾	-13.7164
燋	-13.7165
蝣	-13.7165
沕	-13.7165
瘐	-13.7165
㽦	-13.7167
隥	-13.7167
靆	-13.7168
紕	-13.7168
鐻	-13.7168
獾	-13.7169
貙	-13.7172
鶬	-13.7175
喑	-13.7176
絛	-13.7179
龠	-13.7335
惪	-13.7339
蒻	-13.734
磎	-13.7344
冋	-13.7344
縚	-13.7345
茴	-13.7345
渒	-13.7347
蠃	-13.7347
蓏	-13.7349
恟	-13.735
袝	-13.7351
崷	-13.7351
絓	-13.7355
鴦	-13.7356
􁦚	-13.7357
詖	-13.7357
鱓	-13.7359
梲	-13.7365
蕷	-13.7371
圑	-13.7512
鮝	-13.7514
邔	-13.7518
盝	-13.7521
爝	-13.7526
𠫭	-13.7526
佀	-13.7527
鈆	-13.7531
峁	-13.7531
娩	-13.7533
鼕	-13.7536
儦	-13.7537
麐	-13.7537
諟	-13.7537
藟	-13.7539
浢	-13.7541
櫽	-13.7542
縗	-13.7543
麌	-13.7543
乜	-13.7543
瘢	-13.7544
緦	-13.7544
摟	-13.7545
慬	-13.7545
猻	-13.7546
餚	-13.7547
瘍	-13.7548
瘤	-13.7548
隮	-13.755
歃	-13.7551
貱	-13.7553
湴	-13.7557
肎	-13.7558
蓺	-13.7561
癉	-13.7564
㵲	-13.7709
玟	-13.7715
帬	-13.7721
璂	-13.7722
褓	-13.7724
硊	-13.7724
骫	-13.7725
裛	-13.7725
屴	-13.7725
藋	-13.7726
荊	-13.7726
鷃	-13.7727
騃	-13.7727
鐲	-13.7727
琲	-13.7728
鱮	-13.7728
􁇋	-13.7729
筲	-13.7729
駉	-13.773
飀	-13.773
砑	-13.773
毌	-13.7731
㦯	-13.7731
􁂰	-13.7731
儺	-13.7732
綡	-13.7732
陊	-13.7732
癃	-13.7732
蓨	-13.7732
屎	-13.7732
淌	-13.7733
禜	-13.7733
胯	-13.7734
萹	-13.7734
柜	-13.7735
嫦	-13.7736
褻	-13.7736
宧	-13.7738
嗒	-13.7738
餧	-13.7738
胆	-13.7739
􁚿	-13.7739
蒓	-13.7739
晢	-13.774
媫	-13.7741
圄	-13.7741
衺	-13.7741
艟	-13.7743
窞	-13.7743
蚡	-13.7743
䢵	-13.7909
昈	-13.7916
黹	-13.7916
偫	-13.7919
䙫	-13.7919
􁇳	-13.7919
蔦	-13.792
篛	-13.7921
曀	-13.7922
楂	-13.7923
崠	-13.7924
嶰	-13.7924
㴠	-13.7925
醃	-13.7925
篐	-13.7926
騊	-13.7927
廋	-13.7928
鯔	-13.7928
籧	-13.7928
胚	-13.7928
裼	-13.7928
裀	-13.7928
觽	-13.793
眘	-13.793
柸	-13.7931
􁲼	-13.7933
阱	-13.7942
爹	-13.7954
觷	-13.811
曨	-13.8112
榧	-13.8114
櫞	-13.8115
醻	-13.8117
捆	-13.8117
鎪	-13.8118
詶	-13.8119
鑌	-13.812
堉	-13.812
銼	-13.812
獼	-13.8121
鼾	-13.8122
菖	-13.8122
坱	-13.8122
欑	-13.8122
襞	-13.8123
寠	-13.8124
雊	-13.8124
羖	-13.8125
溴	-13.8125
邗	-13.8125
袚	-13.8127
𠻳	-13.8127
菔	-13.8127
阹	-13.8127
澔	-13.8129
狨	-13.8129
簑	-13.8129
乹	-13.813
瓤	-13.813
咿	-13.813
鼪	-13.8131
欬	-13.8133
汹	-13.8135
泪	-13.8135
牷	-13.8138
劖	-13.8138
憍	-13.8138
筀	-13.814
蘤	-13.814
靼	-13.8145
羕	-13.8146
垌	-13.8285
霣	-13.8319
孌	-13.832
稬	-13.8326
肹	-13.8326
噦	-13.8327
湎	-13.8327
䌓	-13.8327
椵	-13.8328
腄	-13.8328
撡	-13.8329
筥	-13.8329
窨	-13.833
筈	-13.833
鷇	-13.833
劓	-13.8331
劻	-13.8331
戭	-13.8332
戇	-13.8333
伻	-13.8334
笴	-13.8334
槪	-13.8335
惨	-13.8336
涐	-13.8337
駔	-13.8337
迮	-13.8337
嘵	-13.8337
騧	-13.8338
耼	-13.8342
跚	-13.8342
愊	-13.8343
鷔	-13.8347
玅	-13.8347
𡵨	-13.8518
晫	-13.852
䣃	-13.8523
鯋	-13.8526
韺	-13.8529
嵿	-13.8531
麀	-13.8532
縐	-13.8532
瀫	-13.8532
紼	-13.8533
轕	-13.8533
㒡	-13.8534
釂	-13.8534
壄	-13.8535
矴	-13.8536
􁂧	-13.8537
霉	-13.8537
鷦	-13.8538
嘛	-13.8538
唼	-13.8538
魍	-13.8538
㰱	-13.8539
虱	-13.8539
驘	-13.854
㲄	-13.8541
嵛	-13.8541
齔	-13.8542
噱	-13.8542
奫	-13.8543
耰	-13.8546
鸜	-13.8546
蜞	-13.8548
艣	-13.855
脞	-13.855
暁	-13.8551
淰	-13.8551
蒢	-13.8552
棁	-13.8555
厙	-13.8734
䗫	-13.8741
寯	-13.8741
􁤙	-13.8743
碻	-13.8743
鵪	-13.8743
㸅	-13.8745
蝮	-13.8747
蟂	-13.8747
凳	-13.8747
噠	-13.8748
䟎	-13.8748
麑	-13.8749
蜷	-13.8749
麰	-13.8749
袱	-13.8753
躚	-13.8753
圞	-13.8754
贋	-13.8754
梠	-13.8754
捻	-13.8754
从	-13.8755
瓆	-13.8755
踧	-13.8756
㠝	-13.8757
篲	-13.8757
灋	-13.8758
詼	-13.8759
滳	-13.8761
顦	-13.8762
衊	-13.8767
矦	-13.8771
蟈	-13.8786
浠	-13.8954
暟	-13.8954
磉	-13.8959
揩	-13.8961
惝	-13.8962
螮	-13.8963
䕷	-13.8964
捋	-13.8964
艑	-13.8965
湣	-13.8965
咼	-13.8965
郏	-13.8966
麖	-13.8966
晸	-13.8966
噢	-13.8968
屇	-13.8969
簦	-13.8969
茟	-13.8969
叮	-13.8969
􁩉	-13.8969
懍	-13.897
鴇	-13.897
蕝	-13.897
芩	-13.8971
鶘	-13.8971
哱	-13.8971
鬵	-13.8971
柙	-13.8972
幰	-13.8972
广	-13.8972
柂	-13.8973
机	-13.8973
箝	-13.8973
躞	-13.8973
戳	-13.8973
垇	-13.8974
毿	-13.8976
㕍	-13.8976
䬃	-13.8976
萵	-13.8977
􁦹	-13.8977
篳	-13.8978
瓞	-13.8978
岜	-13.8979
汃	-13.8979
䔩	-13.898
檿	-13.8981
婼	-13.8982
鮀	-13.8986
黶	-13.8987
􁱽	-13.9162
蘷	-13.9171
俅	-13.9174
鍹	-13.9175
汉	-13.9177
烶	-13.9177
楢	-13.9179
幗	-13.918
鴝	-13.9181
岞	-13.9181
𫉬	-13.9183
𣢾	-13.9184
齷	-13.9186
堃	-13.9186
嶨	-13.9186
鶠	-13.9186
咷	-13.9187
澽	-13.9188
冔	-13.9189
彿	-13.919
尨	-13.9192
妊	-13.9192
儌	-13.9192
熿	-13.9193
臈	-13.9194
戔	-13.9195
糒	-13.9195
螗	-13.9198
炁	-13.9198
嗛	-13.9199
厩	-13.92
忮	-13.9203
鱒	-13.9205
甽	-13.9211
釪	-13.9392
娄	-13.9403
鏓	-13.9405
􁇯	-13.9408
謎	-13.9408
燫	-13.9409
馺	-13.9411
幺	-13.9412
鎁	-13.9413
硠	-13.9415
璈	-13.9415
鴂	-13.9416
􁄄	-13.9416
鞚	-13.9417
搪	-13.9417
燖	-13.9418
麏	-13.9418
傋	-13.9419
欸	-13.9419
劼	-13.942
醺	-13.9421
駃	-13.9421
燉	-13.9423
櫩	-13.9423
釭	-13.9423
獒	-13.9423
襜	-13.9425
鏇	-13.9425
蜮	-13.9426
皭	-13.9427
菇	-13.9427
沗	-13.9428
婕	-13.9428
㝎	-13.943
郍	-13.9441
燹	-13.9619
硾	-13.9632
蕐	-13.9639
遅	-13.964
樨	-13.964
熇	-13.9642
轇	-13.9642
㕠	-13.9643
洴	-13.9644
崢	-13.9646
鎌	-13.9647
鰋	-13.9647
綣	-13.9647
螃	-13.9647
簔	-13.9648
鐮	-13.9648
琖	-13.9649
葊	-13.9649
􁴆	-13.9649
涣	-13.965
泆	-13.9652
穣	-13.9652
跧	-13.9653
嚀	-13.9654
拴	-13.9654
唆	-13.9654
湩	-13.9655
垻	-13.9655
漘	-13.9656
桉	-13.9656
陻	-13.9656
饍	-13.9656
裦	-13.9657
儇	-13.9658
襚	-13.9658
瞢	-13.9658
硜	-13.966
撅	-13.966
鱺	-13.966
靺	-13.966
帘	-13.9662
蟛	-13.9663
埵	-13.9876
庲	-13.9879
幖	-13.9881
涍	-13.9882
鱨	-13.9886
躃	-13.9886
慓	-13.9887
檾	-13.9887
韁	-13.9887
箄	-13.9888
禫	-13.9889
跱	-13.9889
岬	-13.989
怎	-13.989
䔥	-13.989
頟	-13.989
薶	-13.9892
栭	-13.9892
杕	-13.9893
酗	-13.9893
騑	-13.9894
伭	-13.9895
橊	-13.9895
臿	-13.9895
㭬	-13.9896
浃	-13.9897
疢	-13.9897
䃭	-13.9902
蔟	-13.9903
臛	-13.9904
㳄	-13.9912
犋	-14.0097
暻	-14.0109
􁑯	-14.0115
焻	-14.0118
潧	-14.0119
湲	-14.0121
郳	-14.0121
歈	-14.0122
岠	-14.0122
祅	-14.0123
􁌫	-14.0124
紃	-14.0125
嫣	-14.0127
澑	-14.0129
萆	-14.013
薖	-14.013
冣	-14.0131
楧	-14.0132
軛	-14.0133
匼	-14.0133
灂	-14.0134
絏	-14.0134
膿	-14.0134
曏	-14.0134
堍	-14.0134
鶖	-14.0134
􁑀	-14.0135
皞	-14.0136
蒱	-14.0137
撕	-14.0138
斈	-14.0139
揪	-14.0139
鴒	-14.0139
粽	-14.0139
丢	-14.0139
朒	-14.014
椁	-14.0141
𬞞	-14.0141
謭	-14.0142
攩	-14.0143
駴	-14.0145
萟	-14.0145
􁁗	-14.0148
騅	-14.0148
腯	-14.015
踆	-14.0357
唭	-14.0371
鞶	-14.0372
逑	-14.0373
𠢐	-14.0374
暕	-14.0375
琭	-14.0376
靁	-14.0376
棅	-14.0376
㒞	-14.0378
荈	-14.0379
鋏	-14.0379
􁐯	-14.038
丄	-14.0381
澷	-14.0381
碪	-14.0381
貤	-14.0382
拌	-14.0382
􁎗	-14.0384
挼	-14.0384
喳	-14.0384
亁	-14.0385
潗	-14.0385
霛	-14.0386
鵂	-14.0386
踘	-14.0386
怫	-14.0386
蚄	-14.0386
搠	-14.0387
虸	-14.0387
鏦	-14.0387
袷	-14.0387
体	-14.0388
粕	-14.039
𧦬	-14.039
獍	-14.039
鏨	-14.0391
贒	-14.0391
忼	-14.0393
蜯	-14.0394
唶	-14.0394
瞍	-14.0394
緌	-14.0397
汔	-14.0398
皡	-14.0398
咲	-14.0398
􁲑	-14.0402
澺	-14.0624
鱏	-14.0632
芼	-14.0635
很	-14.0637
沠	-14.0637
黮	-14.0637
鵽	-14.0637
藇	-14.0638
䂖	-14.0639
篨	-14.0639
覼	-14.0639
悱	-14.0639
糚	-14.064
炰	-14.0641
陗	-14.0642
婷	-14.0642
膈	-14.0644
藭	-14.0645
㗋	-14.0645
敳	-14.0645
贜	-14.0646
彍	-14.0646
鳷	-14.0647
蟣	-14.0647
瀺	-14.0647
翿	-14.0647
懟	-14.0648
羱	-14.0649
墺	-14.065
蹁	-14.065
躶	-14.065
忸	-14.0651
惧	-14.0651
罋	-14.0652
駼	-14.0652
䈒	-14.0653
嘱	-14.0656
伃	-14.066
嘮	-14.0661
国	-14.0662
􁫏	-14.0702
艙	-14.0882
㭿	-14.0889
雰	-14.0889
玒	-14.0889
倀	-14.0889
㵐	-14.089
熝	-14.089
鍮	-14.0891
訒	-14.0891
檖	-14.0892
䀢	-14.0893
唎	-14.0894
檦	-14.0895
蒧	-14.0896
痾	-14.0896
韝	-14.0897
驦	-14.0897
闒	-14.0899
嬛	-14.0899
鞲	-14.09
愓	-14.09
墝	-14.09
梈	-14.0901
涞	-14.0902
騋	-14.0902
誶	-14.0903
篴	-14.0903
鶹	-14.0903
墐	-14.0903
玼	-14.0905
穜	-14.0905
旧	-14.0905
鎩	-14.0905
礌	-14.0907
旉	-14.0907
嘽	-14.0907
簉	-14.0907
騸	-14.0908
渀	-14.0908
襮	-14.0908
躱	-14.0908
熯	-14.0909
餫	-14.0913
􁆭	-14.0914
齠	-14.0918
藷	-14.0929
䌇	-14.1144
瀅	-14.1156
笨	-14.1158
鋮	-14.116
礽	-14.1163
垹	-14.1163
篘	-14.1164
叧	-14.1166
鍥	-14.1166
𦦨	-14.1167
瀜	-14.1168
饞	-14.1168
唤	-14.1169
踶	-14.1169
狑	-14.1169
稑	-14.117
艅	-14.1171
淓	-14.1171
煟	-14.1171
髣	-14.1172
璯	-14.1173
霎	-14.1173
蛭	-14.1173
鮐	-14.1173
砆	-14.1174
敧	-14.1174
濉	-14.1174
鱭	-14.1175
簜	-14.1175
㴩	-14.1175
粵	-14.1175
踖	-14.1175
墌	-14.1176
恝	-14.1177
箑	-14.1177
癲	-14.1178
妳	-14.1179
緐	-14.118
聱	-14.118
􁣸	-14.118
眂	-14.1182
罙	-14.1183
鷯	-14.1183
俑	-14.1183
鈷	-14.1183
趄	-14.1184
䂬	-14.1188
暏	-14.119
硖	-14.1199
彠	-14.121
蚝	-14.1212
嘎	-14.1423
􁅩	-14.1427
悁	-14.1436
塽	-14.1438
硿	-14.1438
忡	-14.1439
棬	-14.1439
坷	-14.144
欐	-14.1441
圠	-14.1442
鶼	-14.1442
呑	-14.1443
牏	-14.1444
睎	-14.1445
癬	-14.1445
鱄	-14.1446
稂	-14.1447
葇	-14.1447
鬨	-14.1447
棓	-14.1447
罈	-14.1448
𥜗	-14.1448
飩	-14.1449
鍭	-14.1451
褪	-14.1451
惄	-14.1452
搯	-14.1452
旍	-14.1452
呴	-14.1453
趼	-14.1453
毶	-14.1454
擥	-14.1454
蘘	-14.1455
馹	-14.1455
胍	-14.1455
􁍍	-14.1455
硌	-14.1455
犄	-14.1456
唃	-14.1457
埆	-14.1458
巏	-14.1459
裭	-14.146
􁒷	-14.1461
鉧	-14.1461
觕	-14.1462
陥	-14.1462
枮	-14.1462
哪	-14.1468
洤	-14.1711
􁲓	-14.1711
肨	-14.1719
𬎼	-14.1722
猋	-14.1723
鰈	-14.1726
舐	-14.1727
䘵	-14.1727
𬈑	-14.1727
怗	-14.1728
謻	-14.1729
騍	-14.1729
眴	-14.173
皪	-14.173
􁇛	-14.173
邶	-14.1731
莨	-14.1732
嫵	-14.1733
溔	-14.1733
蝉	-14.1733
鰷	-14.1734
劌	-14.1734
盭	-14.1735
稭	-14.1735
㟽	-14.1736
峗	-14.1736
鈵	-14.1737
衜	-14.1737
旓	-14.1738
痏	-14.1738
姣	-14.174
欱	-14.174
蘉	-14.174
秕	-14.174
嬗	-14.174
礼	-14.1741
昪	-14.1741
檡	-14.1744
籹	-14.1744
嚅	-14.1745
磲	-14.1745
嘹	-14.1746
呆	-14.1746
窬	-14.1747
䛕	-14.1749
狺	-14.175
􁐳	-14.1755
妮	-14.2007
楡	-14.2009
耏	-14.2014
鈳	-14.2015
壆	-14.2015
澅	-14.2016
􁲺	-14.2016
崶	-14.2017
葮	-14.2018
朸	-14.2018
煠	-14.2021
咍	-14.2023
翆	-14.2023
㒜	-14.2024
麃	-14.2024
姹	-14.2024
旖	-14.2025
鞌	-14.2026
潿	-14.2026
﨣	-14.2026
翂	-14.2026
餛	-14.2027
礐	-14.2027
鈜	-14.2027
薅	-14.2028
霂	-14.2028
籪	-14.2028
剅	-14.2029
窔	-14.2029
𣗳	-14.203
躧	-14.203
徔	-14.203
荽	-14.2031
賷	-14.2031
逷	-14.2031
闃	-14.2031
𣆀	-14.2032
寉	-14.2032
𣑽	-14.2032
胏	-14.2032
煴	-14.2033
譸	-14.2034
䉡	-14.2034
蜋	-14.2034
齮	-14.2035
蠎	-14.2035
胠	-14.2035
渗	-14.2036
闠	-14.2036
侠	-14.2036
箘	-14.2036
騠	-14.2036
殚	-14.2037
醊	-14.2037
㢸	-14.2037
昷	-14.2038
拶	-14.2038
氆	-14.2039
氌	-14.2039
燀	-14.2039
姱	-14.204
餖	-14.2041
离	-14.2043
咯	-14.2046
飰	-14.2046
訹	-14.2046
䡾	-14.2048
㵯	-14.2049
显	-14.2054
錝	-14.2311
鋕	-14.2318
䌟	-14.2319
㦄	-14.232
旎	-14.232
揲	-14.2321
涬	-14.2322
璒	-14.2323
嶃	-14.2323
芄	-14.2323
芉	-14.2323
魟	-14.2324
詄	-14.2325
歜	-14.2325
糰	-14.2325
􁇌	-14.2327
縕	-14.2327
隶	-14.2327
骩	-14.2328
奡	-14.2328
嬙	-14.233
􁊯	-14.233
琫	-14.2331
䀋	-14.2331
懺	-14.2332
鑷	-14.2335
覉	-14.2335
戹	-14.2336
湱	-14.2336
毡	-14.2336
佹	-14.2337
綌	-14.2337
􁈍	-14.2337
餮	-14.2338
踠	-14.2339
􁱵	-14.2339
􁁦	-14.2339
噏	-14.234
吚	-14.2341
庐	-14.2341
渑	-14.2341
邋	-14.2341
儿	-14.2342
爓	-14.2342
螞	-14.2342
硨	-14.2342
濝	-14.2343
􁰈	-14.2343
刘	-14.2343
􁩗	-14.2344
褲	-14.2344
嗶	-14.2347
媸	-14.2349
欿	-14.2349
捞	-14.2354
萁	-14.236
瑹	-14.2621
鞔	-14.2627
堀	-14.2627
邿	-14.2629
嵁	-14.2633
壷	-14.2634
璛	-14.2635
兪	-14.2636
胗	-14.2636
戙	-14.2638
噭	-14.2639
􁔪	-14.2639
𨳩	-14.2639
瀂	-14.2639
抶	-14.264
緤	-14.2641
頮	-14.2641
扮	-14.2643
蝘	-14.2643
峛	-14.2644
擋	-14.2644
霙	-14.2644
渶	-14.2644
剚	-14.2645
潟	-14.2645
鄤	-14.2645
坽	-14.2646
睍	-14.2647
崺	-14.2647
遫	-14.2647
睽	-14.2648
蚧	-14.2648
佼	-14.2648
䨴	-14.2648
蹭	-14.2648
耙	-14.2649
磥	-14.2649
訽	-14.265
硉	-14.265
焬	-14.2651
蠓	-14.2654
桺	-14.2655
鷫	-14.2656
攟	-14.2656
駈	-14.2657
鴣	-14.2657
蟉	-14.2661
賵	-14.2663
囙	-14.2665
䘚	-14.2667
壈	-14.267
袄	-14.294
哻	-14.2947
鑅	-14.2955
澯	-14.2957
祹	-14.2958
酡	-14.2959
銶	-14.296
㓛	-14.2961
圴	-14.2961
峱	-14.2962
汍	-14.2963
槤	-14.2963
簨	-14.2963
櫕	-14.2964
嘑	-14.2964
漹	-14.2964
痡	-14.2964
鄈	-14.2965
嘬	-14.2966
傔	-14.2967
蕾	-14.2967
頀	-14.2968
矰	-14.2969
葸	-14.2969
飃	-14.297
鋦	-14.297
鶿	-14.297
乣	-14.2971
痒	-14.2971
嫖	-14.2971
硇	-14.2971
觖	-14.2972
袛	-14.2972
抖	-14.2972
慫	-14.2973
鎦	-14.2974
慍	-14.2974
惎	-14.2976
臊	-14.2976
澓	-14.2977
裵	-14.2979
愞	-14.2981
躒	-14.2981
芫	-14.2982
趦	-14.2982
誎	-14.2983
匜	-14.2984
蓢	-14.2984
羢	-14.2984
璦	-14.3269
喩	-14.3271
嵖	-14.3275
鼊	-14.3284
帢	-14.3288
夑	-14.329
齦	-14.329
􁁃	-14.3292
垐	-14.3292
鉎	-14.3294
魘	-14.3294
弨	-14.3294
踦	-14.3295
餻	-14.3295
涷	-14.3296
癈	-14.3296
匍	-14.3297
酩	-14.3297
枘	-14.3297
嬈	-14.3297
鵕	-14.3297
綗	-14.3298
濈	-14.3299
橇	-14.3299
嵹	-14.3299
鞉	-14.33
籺	-14.33
鋃	-14.33
鏬	-14.3301
姞	-14.3301
䜴	-14.3301
琹	-14.3303
􁊥	-14.3303
獗	-14.3304
螣	-14.3306
帊	-14.3306
疸	-14.3308
謦	-14.3309
蓯	-14.3309
䟱	-14.331
堮	-14.3311
桲	-14.3311
踝	-14.3312
坁	-14.3312
琕	-14.3314
鬖	-14.3314
槓	-14.3315
齓	-14.3318
螉	-14.3324
迍	-14.3325
䣕	-14.3619
烓	-14.3629
嶑	-14.3633
糍	-14.3634
嵽	-14.3635
繰	-14.3635
廮	-14.3637
醨	-14.3637
捴	-14.3637
賧	-14.3638
繂	-14.3639
鏸	-14.3639
縆	-14.3641
捏	-14.3642
姸	-14.3643
龑	-14.3643
仚	-14.3644
􁥫	-14.3644
湝	-14.3645
瘃	-14.3645
譊	-14.3646
餕	-14.3646
磏	-14.3647
玆	-14.3648
毹	-14.3648
獫	-14.3649
炱	-14.3649
㹀	-14.3649
隁	-14.365
暸	-14.3651
扢	-14.3651
䘖	-14.3652
曶	-14.3652
獯	-14.3653
聵	-14.3653
􁍑	-14.3653
􁋊	-14.3654
蕕	-14.3655
焄	-14.3656
䠞	-14.3656
蚍	-14.3656
牸	-14.3659
秠	-14.3659
鈀	-14.3659
瞩	-14.3665
􁴖	-14.3673
􁀊	-14.3675
挪	-14.3676
欓	-14.3978
壵	-14.398
葽	-14.3982
薹	-14.3982
灈	-14.3986
鄑	-14.3987
瀴	-14.3988
鈖	-14.3989
鄥	-14.3991
㦂	-14.3992
嶟	-14.3992
瑆	-14.3992
灴	-14.3994
蛸	-14.3996
垔	-14.3997
􁄽	-14.3997
狒	-14.3998
蔇	-14.3998
匳	-14.3999
漦	-14.3999
奓	-14.3999
徘	-14.3999
㴞	-14.3999
嚲	-14.4
灎	-14.4
婀	-14.4
淐	-14.4
嶝	-14.4001
宝	-14.4001
垚	-14.4001
襏	-14.4001
焼	-14.4002
碼	-14.4002
壐	-14.4002
姢	-14.4002
嚨	-14.4002
薾	-14.4003
堄	-14.4003
瀖	-14.4004
鄅	-14.4004
憗	-14.4004
瑔	-14.4005
釦	-14.4005
謪	-14.4005
儓	-14.4006
傂	-14.4006
㝏	-14.4008
啙	-14.4008
蹣	-14.4008
緖	-14.4009
巄	-14.4009
頞	-14.401
顫	-14.4012
讘	-14.4012
贗	-14.4013
撘	-14.4013
㟍	-14.4014
讕	-14.4016
鵩	-14.4017
嗸	-14.4018
陝	-14.402
呫	-14.4024
􁋆	-14.4024
狢	-14.403
豽	-14.4331
㸁	-14.4354
隹	-14.4357
灢	-14.4358
橓	-14.4358
餹	-14.4358
㳌	-14.4359
爥	-14.4359
㳘	-14.436
􁎑	-14.436
癎	-14.4361
􁑽	-14.4361
蝥	-14.4363
厂	-14.4364
瑙	-14.4364
杻	-14.4365
漺	-14.4365
坟	-14.4365
膀	-14.4366
歗	-14.4366
霱	-14.4366
咖	-14.4367
鼬	-14.4368
磅	-14.4368
踽	-14.4369
􁳐	-14.4369
䆮	-14.4369
肜	-14.4369
喔	-14.437
砉	-14.437
蛄	-14.4372
录	-14.4372
浟	-14.4372
暅	-14.4373
𬒮	-14.4373
甋	-14.4374
翶	-14.4374
􁍵	-14.4374
猙	-14.4374
儐	-14.4374
䰅	-14.4374
逴	-14.4376
篸	-14.4376
骰	-14.4376
晅	-14.4376
醁	-14.4377
势	-14.4378
秺	-14.4379
㠑	-14.438
􁲬	-14.438
􁎙	-14.438
􁆈	-14.4381
􁒽	-14.4382
麛	-14.4382
牗	-14.4383
韎	-14.4383
輥	-14.4383
弅	-14.4383
頬	-14.4384
魈	-14.4384
槮	-14.4384
笯	-14.4385
揶	-14.4387
鶺	-14.4387
愳	-14.4387
囯	-14.4389
穤	-14.439
欂	-14.4391
鬧	-14.4392
荣	-14.4392
麦	-14.4393
飪	-14.4394
􁉑	-14.4731
孖	-14.4735
鎜	-14.4748
鰅	-14.4749
蘺	-14.4749
瀞	-14.4749
楘	-14.4749
騒	-14.4749
觻	-14.475
椓	-14.475
蜢	-14.475
稊	-14.4751
㹠	-14.4752
敓	-14.4753
葡	-14.4753
靸	-14.4754
濔	-14.4754
菠	-14.4755
畷	-14.4755
梆	-14.4756
敻	-14.4756
襫	-14.4756
邆	-14.4757
闑	-14.4757
称	-14.4758
蓓	-14.4758
偨	-14.4758
䳌	-14.4759
籈	-14.4759
蘙	-14.476
腠	-14.4763
􁒏	-14.4763
瀷	-14.4763
儶	-14.4763
尻	-14.4764
砱	-14.4765
鯫	-14.4765
眊	-14.4765
薟	-14.4766
睺	-14.4766
􁤪	-14.4766
䂀	-14.4766
唏	-14.4767
欞	-14.4768
榅	-14.4774
囁	-14.4775
椏	-14.478
餡	-14.5126
玶	-14.5131
憼	-14.5135
㠎	-14.5139
􁒥	-14.5139
烇	-14.514
韘	-14.514
臲	-14.5142
鱀	-14.5142
􁊅	-14.5144
潵	-14.5144
䇓	-14.5145
笱	-14.5145
稏	-14.5146
淏	-14.5147
塸	-14.5148
懊	-14.5148
㺜	-14.5149
拮	-14.5149
砒	-14.5149
葶	-14.515
栘	-14.515
鐐	-14.5151
刜	-14.5152
輀	-14.5153
霨	-14.5154
悻	-14.5154
淢	-14.5154
獩	-14.5154
憯	-14.5155
桥	-14.5155
踳	-14.5157
㞦	-14.5157
昫	-14.5157
􁎾	-14.5158
稡	-14.5158
嵾	-14.5158
彯	-14.5159
􁁙	-14.5159
鞴	-14.5159
􁨄	-14.516
貆	-14.516
媕	-14.516
􁃔	-14.516
珹	-14.516
熉	-14.516
勖	-14.516
矅	-14.516
浲	-14.516
梹	-14.516
鰾	-14.5161
􁇀	-14.5161
皸	-14.5162
琡	-14.5162
靬	-14.5162
罛	-14.5162
珓	-14.5162
􁨹	-14.5163
鰭	-14.5164
䦧	-14.5164
妲	-14.5165
俍	-14.5165
媢	-14.5165
揠	-14.5165
􁇒	-14.5166
哄	-14.5166
鮭	-14.5166
霮	-14.5166
諐	-14.5167
蜣	-14.5167
眯	-14.5167
㷆	-14.5167
趐	-14.5168
馛	-14.5169
侫	-14.5171
緲	-14.5171
挶	-14.5171
蕒	-14.5172
猰	-14.5172
俣	-14.5172
􁰎	-14.5173
􁇚	-14.5173
乩	-14.5174
㺄	-14.5174
鞳	-14.5177
撁	-14.5178
噞	-14.5182
赶	-14.5187
􁂻	-14.5189
􁳊	-14.5548
珆	-14.555
溏	-14.5552
酅	-14.5556
溾	-14.5557
軷	-14.5557
肭	-14.5557
攛	-14.5558
蝝	-14.5558
祩	-14.5558
洢	-14.5559
䴢	-14.556
鞓	-14.5562
黚	-14.5562
僔	-14.5563
蜼	-14.5563
朵	-14.5563
䖟	-14.5564
鉝	-14.5564
鵡	-14.5565
錩	-14.5566
㓊	-14.5566
烋	-14.5566
蟜	-14.5567
芣	-14.5567
抬	-14.5568
杗	-14.5569
釅	-14.5569
瑲	-14.5569
㟃	-14.5572
亍	-14.5572
鬒	-14.5573
鯷	-14.5573
鸊	-14.5574
㟙	-14.5574
趲	-14.5574
庱	-14.5575
雺	-14.5575
褷	-14.5576
蛀	-14.5576
䦘	-14.5577
䋫	-14.5577
攏	-14.5577
檥	-14.5577
􁏄	-14.5577
枃	-14.5578
鎸	-14.5578
捱	-14.5578
渽	-14.5579
擱	-14.5579
摴	-14.5579
毺	-14.5579
蜨	-14.5579
丧	-14.5579
蚯	-14.5579
粻	-14.558
􁩫	-14.558
􁘳	-14.558
碔	-14.5581
硔	-14.5582
窝	-14.5582
􁱑	-14.5582
黁	-14.5582
蠹	-14.5583
甗	-14.5583
􁊓	-14.5583
幀	-14.5584
唔	-14.5585
噌	-14.5585
飊	-14.5585
㬥	-14.5587
昄	-14.5587
声	-14.5587
籤	-14.5587
廄	-14.5588
㮤	-14.5588
偎	-14.5589
柈	-14.559
璺	-14.559
卍	-14.559
㺐	-14.5591
螖	-14.5592
搰	-14.5592
􁎐	-14.5593
籋	-14.5593
抨	-14.5593
傪	-14.5594
檼	-14.5597
觶	-14.5598
檨	-14.5971
舥	-14.5988
蘀	-14.5989
堐	-14.5991
琈	-14.5993
珻	-14.5993
珈	-14.5994
鉼	-14.5994
岕	-14.5995
㵋	-14.5995
豇	-14.5996
拼	-14.5996
獂	-14.5997
嘓	-14.5998
􁏇	-14.6
韲	-14.6003
􁣻	-14.6004
窌	-14.6004
袗	-14.6005
阤	-14.6005
骯	-14.6005
艴	-14.6006
勌	-14.6006
搉	-14.6006
沶	-14.6006
嬃	-14.6006
􁕓	-14.6007
躨	-14.6007
􁂴	-14.6007
稙	-14.6007
涒	-14.6008
螬	-14.6008
靷	-14.6008
鯶	-14.6009
璬	-14.6009
畣	-14.6009
塉	-14.6009
馝	-14.6009
䍦	-14.601
邡	-14.601
翜	-14.6011
潴	-14.6011
喣	-14.6011
諢	-14.6012
􁂜	-14.6012
厗	-14.6012
礠	-14.6012
埝	-14.6013
歾	-14.6013
飂	-14.6013
䘲	-14.6014
櫈	-14.6014
胾	-14.6014
嚈	-14.6014
眕	-14.6015
鏝	-14.6015
㕒	-14.6016
罼	-14.6016
蠛	-14.6016
姤	-14.6016
􁒻	-14.6017
潙	-14.6017
洈	-14.6017
􁞽	-14.6017
巙	-14.6018
䔍	-14.6018
􁬰	-14.6018
壃	-14.6018
㒷	-14.6018
葼	-14.6019
䆗	-14.602
膞	-14.6021
歠	-14.6021
謼	-14.6021
苽	-14.6022
㡉	-14.6022
綀	-14.6023
摻	-14.6024
㴱	-14.6024
咘	-14.6024
浼	-14.6025
椇	-14.6025
塴	-14.6027
囮	-14.6028
韍	-14.6028
𥻘	-14.6034
醆	-14.6035
鋆	-14.6444
獃	-14.6445
骳	-14.645
煋	-14.6451
琾	-14.6452
碚	-14.6453
杈	-14.6454
嗑	-14.6455
􁢤	-14.6455
纕	-14.6456
祸	-14.6456
玧	-14.6456
跜	-14.6456
瘓	-14.6457
㮰	-14.6457
磶	-14.6457
菶	-14.6457
蕣	-14.6458
􁋥	-14.6458
畐	-14.6458
㦤	-14.6459
􁦛	-14.6461
䘐	-14.6461
斝	-14.6461
蓒	-14.6462
芨	-14.6462
杬	-14.6462
琄	-14.6463
峉	-14.6463
陭	-14.6463
䶉	-14.6463
齶	-14.6463
杮	-14.6463
鶂	-14.6463
嘍	-14.6464
臃	-14.6464
𣪚	-14.6464
澭	-14.6465
汮	-14.6465
橢	-14.6466
崡	-14.6466
觿	-14.6466
瑃	-14.6467
茤	-14.6467
􁪄	-14.6467
㸐	-14.6467
枍	-14.6467
鵉	-14.6467
鷸	-14.6467
桱	-14.6467
鯧	-14.6468
􁳷	-14.6468
痔	-14.6468
憖	-14.6469
岯	-14.6469
峕	-14.6469
䊵	-14.6469
􁄚	-14.6469
蹡	-14.647
姮	-14.647
蚱	-14.647
鯗	-14.647
髄	-14.6471
㻛	-14.6471
嗄	-14.6471
𥅆	-14.6472
戻	-14.6472
熚	-14.6472
胛	-14.6472
撟	-14.6472
㬌	-14.6472
􁯶	-14.6473
晼	-14.6473
蚳	-14.6473
隒	-14.6473
謏	-14.6473
禝	-14.6474
桫	-14.6474
墈	-14.6476
薷	-14.6476
麨	-14.6477
䥫	-14.6477
􁃻	-14.6479
睞	-14.6479
巣	-14.6479
哵	-14.648
遢	-14.6481
𥚑	-14.6481
頍	-14.6484
艌	-14.6485
滧	-14.6877
奣	-14.6908
郱	-14.6918
苲	-14.6918
葰	-14.6923
綷	-14.6924
錧	-14.6924
巹	-14.6927
橿	-14.6927
竻	-14.6928
萩	-14.6928
瑍	-14.6928
泙	-14.6928
浭	-14.6929
鬉	-14.6929
閜	-14.6929
飌	-14.6929
鯪	-14.693
嘒	-14.693
珒	-14.6931
𨕖	-14.6931
欻	-14.6932
杴	-14.6932
侐	-14.6933
蟳	-14.6933
鬣	-14.6933
􁂗	-14.6933
岭	-14.6934
髒	-14.6934
􁆚	-14.6935
鵙	-14.6935
竤	-14.6935
蠍	-14.6936
彳	-14.6936
囅	-14.6936
繐	-14.6936
峍	-14.6936
仳	-14.6937
鰼	-14.6937
蹯	-14.6937
􁨓	-14.6937
盋	-14.6937
礜	-14.6938
摵	-14.6938
嚌	-14.6938
欛	-14.6938
犏	-14.6938
熞	-14.6938
琵	-14.6939
嬀	-14.6939
𨫼	-14.6939
繘	-14.6939
蓘	-14.694
曮	-14.694
矹	-14.694
挻	-14.694
楟	-14.6941
􁂑	-14.6941
壂	-14.6941
甔	-14.6941
戥	-14.6941
躄	-14.6943
滩	-14.6943
儛	-14.6943
賬	-14.6943
渊	-14.6945
䂮	-14.6945
蝱	-14.6945
菻	-14.6945
梦	-14.6945
嵏	-14.6946
猘	-14.6946
埄	-14.6946
纇	-14.6946
㒒	-14.6946
蹵	-14.6946
亝	-14.6947
靭	-14.6948
􁠾	-14.6949
鷓	-14.6949
葄	-14.6949
痞	-14.695
㠏	-14.695
厹	-14.695
唵	-14.6951
敶	-14.6951
偼	-14.6952
剺	-14.6953
实	-14.6954
捭	-14.6954
碏	-14.6954
楳	-14.6955
旤	-14.6955
𥚹	-14.6956
脤	-14.6956
澢	-14.6957
菆	-14.6959
􁝾	-14.696
讁	-14.696
惙	-14.6968
䩮	-14.7415
腽	-14.7416
䎖	-14.7417
筊	-14.7423
鰿	-14.7424
艛	-14.7424
􁝠	-14.7425
豲	-14.7426
珇	-14.7426
膻	-14.7427
紥	-14.7427
耡	-14.743
謊	-14.743
䴊	-14.7431
朡	-14.7431
傜	-14.7431
􁀁	-14.7431
淈	-14.7432
瀯	-14.7432
敚	-14.7432
眹	-14.7432
刱	-14.7433
偭	-14.7433
𦿆	-14.7433
璱	-14.7434
鉌	-14.7434
祾	-14.7434
幨	-14.7434
襕	-14.7434
笭	-14.7435
拕	-14.7435
繦	-14.7435
騆	-14.7436
憻	-14.7436
佴	-14.7436
烻	-14.7436
梡	-14.7437
揟	-14.7437
咭	-14.7438
㘴	-14.7438
餵	-14.7438
枑	-14.7439
椷	-14.7439
􁚠	-14.7439
㠉	-14.7439
闟	-14.7439
鴐	-14.7439
仐	-14.7439
㵳	-14.744
􁴍	-14.744
殢	-14.7441
􁑮	-14.7441
烖	-14.7441
騕	-14.7442
呿	-14.7442
淟	-14.7442
􁄀	-14.7443
媟	-14.7443
墦	-14.7443
􁝜	-14.7443
抆	-14.7443
餁	-14.7444
譍	-14.7444
眵	-14.7444
褌	-14.7444
剮	-14.7444
嵻	-14.7444
蕰	-14.7445
怘	-14.7445
祍	-14.7446
繶	-14.7447
䳺	-14.7448
鏳	-14.7449
画	-14.7449
鰂	-14.7449
窕	-14.745
涝	-14.745
鈃	-14.7451
𧺫	-14.7452
隝	-14.7453
紾	-14.7453
腓	-14.7453
貛	-14.7453
垡	-14.7453
鬍	-14.7454
裋	-14.7454
穯	-14.7454
匽	-14.7454
􁆶	-14.7454
郸	-14.7455
鍝	-14.7456
呰	-14.7456
翣	-14.7457
􁑺	-14.7457
犗	-14.7458
慺	-14.7459
鈒	-14.7461
颱	-14.7461
袽	-14.7462
閗	-14.7464
倢	-14.7471
缻	-14.7473
㟂	-14.7934
䊸	-14.7942
貕	-14.7947
􁈲	-14.7947
娭	-14.7949
駾	-14.7949
㫒	-14.795
錤	-14.795
堎	-14.7952
邞	-14.7954
駡	-14.7955
𦍕	-14.7956
愻	-14.7956
燇	-14.7956
魦	-14.7956
韔	-14.7957
揕	-14.7958
嵰	-14.7958
爃	-14.7958
裩	-14.7959
彲	-14.796
􁲞	-14.796
􁤔	-14.796
亀	-14.796
瀡	-14.7961
蚨	-14.7961
􁄜	-14.7961
煗	-14.7962
怜	-14.7962
鄹	-14.7962
哳	-14.7963
䦕	-14.7963
跫	-14.7963
蠺	-14.7963
駵	-14.7963
薆	-14.7963
哢	-14.7964
㠐	-14.7964
􁀧	-14.7964
蜎	-14.7964
鮞	-14.7964
隑	-14.7964
沺	-14.7965
絧	-14.7965
爿	-14.7965
箾	-14.7965
柍	-14.7965
裌	-14.7966
墆	-14.7966
霡	-14.7966
靃	-14.7966
疼	-14.7966
谹	-14.7966
鷽	-14.7966
墎	-14.7967
䓗	-14.7967
菂	-14.7967
裠	-14.7967
􁂭	-14.7967
涊	-14.7967
杇	-14.7968
苃	-14.7968
矙	-14.7968
䱜	-14.7968
攲	-14.7971
鑞	-14.7971
儞	-14.7971
慜	-14.7971
焌	-14.7971
欀	-14.7972
鋉	-14.7972
鰒	-14.7972
醞	-14.7972
贰	-14.7973
撦	-14.7973
鱻	-14.7973
㫪	-14.7974
榾	-14.7974
矌	-14.7974
㠓	-14.7976
􁆣	-14.7976
廧	-14.7977
骭	-14.7977
鈛	-14.7977
斨	-14.7978
梌	-14.7979
貘	-14.798
醝	-14.7982
觹	-14.7982
硼	-14.7983
􁂫	-14.7984
譡	-14.7985
䳒	-14.7985
碞	-14.7985
禈	-14.7986
筶	-14.7989
礚	-14.7996
犲	-14.7997
嘠	-14.7997
􁱓	-14.8004
栿	-14.8465
礇	-14.8488
􁜄	-14.8494
蒥	-14.8495
浵	-14.8497
塪	-14.8499
卼	-14.85
銈	-14.85
峵	-14.8503
䎦	-14.8504
鮸	-14.8505
孿	-14.8506
穬	-14.8506
垟	-14.8507
瑽	-14.8507
澋	-14.8509
壡	-14.851
􁏂	-14.851
嗈	-14.851
驫	-14.851
瞫	-14.8511
􁨈	-14.8511
訦	-14.8512
礿	-14.8512
灜	-14.8512
郙	-14.8513
朌	-14.8513
弮	-14.8513
畍	-14.8513
囱	-14.8514
􁰄	-14.8514
輷	-14.8516
圾	-14.8516
炟	-14.8516
虆	-14.8516
葪	-14.8517
掫	-14.8517
栧	-14.8517
槵	-14.8517
鍷	-14.8517
碨	-14.8518
僄	-14.8518
􁤋	-14.8518
筅	-14.8519
碯	-14.8519
㟪	-14.8519
淔	-14.8519
鏕	-14.8519
􁚯	-14.852
䝤	-14.852
鄛	-14.852
萦	-14.852
榯	-14.852
䂊	-14.8522
珷	-14.8522
彔	-14.8522
碡	-14.8523
鷩	-14.8523
醽	-14.8524
獽	-14.8524
熢	-14.8524
􁟆	-14.8524
㞯	-14.8524
秊	-14.8525
􁠕	-14.8525
冪	-14.8526
􁱆	-14.8526
䯻	-14.8526
䀌	-14.8527
􁫫	-14.8527
􁇨	-14.8528
怩	-14.8529
唅	-14.8529
㵚	-14.8531
蔌	-14.8531
扭	-14.8531
籯	-14.8531
䚟	-14.8531
緎	-14.8532
槻	-14.8532
襗	-14.8533
瑴	-14.8533
泎	-14.8534
奝	-14.8534
訿	-14.8534
􁂚	-14.8535
漒	-14.8536
􁴄	-14.8536
侘	-14.8536
獹	-14.8536
牎	-14.8537
曯	-14.8538
鰡	-14.8538
醳	-14.854
魶	-14.854
戜	-14.8543
錟	-14.8543
饎	-14.8544
爊	-14.8561
潖	-14.8571
瓽	-14.9084
􁐛	-14.9085
邍	-14.9086
桹	-14.9087
怔	-14.9091
烒	-14.9093
鈗	-14.9096
魫	-14.9096
袨	-14.9097
麺	-14.9097
圫	-14.9097
嵑	-14.9098
馯	-14.9098
嗉	-14.9099
噣	-14.91
●	-14.91
鶵	-14.91
复	-14.9102
羭	-14.9103
磢	-14.9103
鳲	-14.9104
鐖	-14.9105
􁯾	-14.9105
衹	-14.9105
􁒂	-14.9105
墡	-14.9105
槭	-14.9106
翯	-14.9106
鞈	-14.9106
吽	-14.9106
缿	-14.9107
麚	-14.9107
褾	-14.9107
焫	-14.9108
朁	-14.9108
慌	-14.9108
㟴	-14.9109
蓻	-14.9109
倮	-14.911
􁳅	-14.911
㷔	-14.911
桭	-14.911
筇	-14.911
猇	-14.911
褱	-14.9111
􁲽	-14.9112
袾	-14.9112
斒	-14.9113
飦	-14.9113
靮	-14.9115
􁇶	-14.9115
淊	-14.9115
篊	-14.9116
陑	-14.9116
棡	-14.9116
麢	-14.9116
薓	-14.9116
㦲	-14.9116
轊	-14.9116
鞹	-14.9117
觳	-14.9117
㗶	-14.9118
穭	-14.9119
􁈊	-14.912
􁑱	-14.912
狋	-14.9121
厜	-14.9121
莂	-14.9121
灦	-14.9121
豖	-14.9122
檛	-14.9123
藙	-14.9123
侊	-14.9124
䪥	-14.9124
窾	-14.9125
磩	-14.9126
駣	-14.9126
䗶	-14.9126
碢	-14.9126
葴	-14.9128
薘	-14.9128
蕯	-14.9128
􁪼	-14.9128
輼	-14.9129
甀	-14.9129
箍	-14.913
􁵨	-14.9134
饈	-14.9136
摏	-14.9143
􁪲	-14.9152
禟	-14.9702
㲪	-14.9706
䩴	-14.9707
楬	-14.9712
䢿	-14.9714
虻	-14.9715
蟟	-14.9715
襘	-14.9717
枓	-14.9718
䆉	-14.9718
獑	-14.9718
瑬	-14.9718
􁯘	-14.9718
㞼	-14.9719
蚖	-14.9719
臓	-14.972
臝	-14.972
螿	-14.972
侹	-14.9723
悤	-14.9724
枊	-14.9724
爔	-14.9724
鞿	-14.9724
戟	-14.9725
烴	-14.9726
舋	-14.9726
黳	-14.9727
醼	-14.9727
瀇	-14.9727
銹	-14.9728
焠	-14.9728
㬅	-14.9728
膘	-14.9729
􁍢	-14.9729
弰	-14.973
翏	-14.973
糵	-14.973
牥	-14.9731
疈	-14.9732
撣	-14.9732
晣	-14.9732
錀	-14.9732
䍶	-14.9733
蟪	-14.9734
彙	-14.9734
蝇	-14.9735
鄿	-14.9735
霿	-14.9735
吱	-14.9735
瘏	-14.9735
鷮	-14.9736
弥	-14.9737
㡧	-14.9737
㵢	-14.9737
愐	-14.9738
鼷	-14.9738
臀	-14.9738
䆫	-14.9738
僬	-14.9739
䄡	-14.9739
汦	-14.9739
禑	-14.9739
㻫	-14.9739
㖿	-14.974
蓡	-14.974
氳	-14.974
蕳	-14.974
鏺	-14.974
鷞	-14.974
胹	-14.974
瘉	-14.9741
洏	-14.9741
襠	-14.9741
籒	-14.9742
呬	-14.9742
􁆠	-14.9742
䙰	-14.9742
袿	-14.9742
鼄	-14.9743
伱	-14.9743
吰	-14.9743
睱	-14.9744
羍	-14.9744
髤	-14.9744
峺	-14.9744
䍥	-14.9745
㝱	-14.9745
惷	-14.9746
萐	-14.9746
殭	-14.9747
㪍	-14.9747
穌	-14.9747
紑	-14.9748
瑘	-14.9748
膄	-14.9749
鞨	-14.9749
薍	-14.9749
髴	-14.9749
􁬛	-14.9749
枏	-14.975
頦	-14.975
嘐	-14.975
圊	-14.9751
俐	-14.9752
窫	-14.9752
簌	-14.9753
佪	-14.9753
簵	-14.9754
絿	-14.9754
孼	-14.9754
嚻	-14.9754
鶤	-14.9759
㠖	-14.9759
騟	-14.9759
耎	-14.976
滦	-14.976
鸘	-14.9761
􁄰	-14.9762
􁯞	-15.0317
晭	-15.0357
褆	-15.037
夼	-15.038
㺬	-15.0381
嫏	-15.0382
岉	-15.0382
荖	-15.0383
砯	-15.0383
􁠴	-15.0384
􁐺	-15.0385
􁦣	-15.0385
瑝	-15.0385
藶	-15.0386
怤	-15.0387
蔻	-15.0388
堳	-15.0389
嵃	-15.0389
㶌	-15.0389
偡	-15.039
榰	-15.0391
垛	-15.0391
嵦	-15.0391
崀	-15.0391
􁗒	-15.0392
諰	-15.0392
瀔	-15.0392
鈊	-15.0392
㸌	-15.0392
罦	-15.0393
㟶	-15.0393
踹	-15.0393
椐	-15.0393
聓	-15.0393
鶗	-15.0393
㫜	-15.0393
摔	-15.0394
􁃊	-15.0395
􁔨	-15.0395
凔	-15.0396
濎	-15.0396
䝠	-15.0396
蓛	-15.0396
睆	-15.0397
􁃵	-15.0397
瀐	-15.0397
罻	-15.0398
氁	-15.0398
黈	-15.0398
􁀾	-15.0398
縿	-15.0399
稃	-15.0399
砅	-15.0399
􁍇	-15.0399
綁	-15.0399
膰	-15.0399
􁬬	-15.04
􁲣	-15.04
㟼	-15.0401
窃	-15.0401
檆	-15.0401
畟	-15.0402
怊	-15.0402
甝	-15.0402
径	-15.0402
蠐	-15.0402
䔿	-15.0402
踼	-15.0403
卮	-15.0404
鮰	-15.0404
􁈘	-15.0404
謷	-15.0404
忺	-15.0404
膋	-15.0405
􁇵	-15.0405
鋂	-15.0405
渏	-15.0405
瑎	-15.0405
􁴞	-15.0405
􁀤	-15.0405
鐓	-15.0406
魨	-15.0407
蝍	-15.0407
顴	-15.0407
雚	-15.0408
埳	-15.0408
狍	-15.0408
豜	-15.0408
􁡷	-15.0409
撗	-15.0409
僸	-15.0409
櫱	-15.0409
豵	-15.041
椔	-15.041
􁧛	-15.041
㽜	-15.041
愃	-15.041
勠	-15.041
絝	-15.0411
簁	-15.0411
嶊	-15.0411
㱕	-15.0411
駪	-15.0412
堖	-15.0412
􁞡	-15.0412
􁆸	-15.0412
俜	-15.0413
􁘀	-15.0413
牳	-15.0414
驔	-15.0414
冘	-15.0414
奰	-15.0415
蟃	-15.0415
溞	-15.0416
饀	-15.0416
櫹	-15.0416
懬	-15.0416
虣	-15.0416
􁐨	-15.0416
𡵻	-15.0417
揃	-15.0417
裓	-15.0418
畲	-15.0418
掐	-15.0419
墢	-15.042
擪	-15.042
朥	-15.0423
誧	-15.0425
峇	-15.0426
騘	-15.0427
嗁	-15.0428
􁑈	-15.0429
咢	-15.0437
䰲	-15.0442
􁩿	-15.1084
艬	-15.1086
琔	-15.1087
餑	-15.1089
櫰	-15.1093
鉸	-15.1093
骷	-15.1095
粛	-15.1095
驑	-15.1099
漅	-15.11
侅	-15.1101
􁊬	-15.1102
鏷	-15.1102
狪	-15.1103
廈	-15.1104
芧	-15.1104
􁃕	-15.1104
􁜘	-15.1104
篱	-15.1105
辿	-15.1105
軑	-15.1105
崣	-15.1106
犠	-15.1106
􁇴	-15.1107
􁀆	-15.1107
䧇	-15.1107
湥	-15.1107
璔	-15.1107
嵣	-15.1107
􁥳	-15.1108
伹	-15.1108
駬	-15.1108
奂	-15.1108
豷	-15.1108
嵱	-15.1108
􁬜	-15.1108
薉	-15.1108
垧	-15.1109
豀	-15.1109
焮	-15.1109
蚴	-15.1109
墼	-15.1109
􁁪	-15.1109
熀	-15.1109
􁅭	-15.111
狰	-15.111
􁂁	-15.111
壳	-15.111
􁮑	-15.111
鼗	-15.1111
蟫	-15.1111
倛	-15.1111
噆	-15.1111
㬜	-15.1112
溹	-15.1112
麊	-15.1113
藨	-15.1113
痁	-15.1114
狶	-15.1114
匊	-15.1114
䜌	-15.1114
勮	-15.1114
槅	-15.1114
鴃	-15.1114
滭	-15.1114
岪	-15.1115
倞	-15.1115
餤	-15.1115
銲	-15.1116
嚷	-15.1117
庨	-15.1117
薧	-15.1117
罶	-15.1117
䱥	-15.1118
䕠	-15.1118
筳	-15.1118
圽	-15.1118
裱	-15.1119
挏	-15.1119
􁊽	-15.1119
熕	-15.1119
艖	-15.1119
檏	-15.112
蛣	-15.112
灨	-15.112
罫	-15.112
楄	-15.1121
豝	-15.1122
嶆	-15.1122
塒	-15.1122
慽	-15.1122
慂	-15.1123
雈	-15.1123
扠	-15.1123
枤	-15.1123
棰	-15.1123
􁦵	-15.1124
齩	-15.1124
􁀨	-15.1124
孠	-15.1124
櫌	-15.1125
嗽	-15.1125
旙	-15.1125
􁁏	-15.1125
豅	-15.1125
梀	-15.1125
㙷	-15.1125
棑	-15.1125
㠪	-15.1125
龞	-15.1126
鼖	-15.1126
毣	-15.1126
鄪	-15.1126
噂	-15.1127
荸	-15.1128
汯	-15.1128
蹜	-15.1128
茷	-15.1129
㧖	-15.1129
㠁	-15.113
蟢	-15.113
迃	-15.113
䢼	-15.113
倰	-15.1131
搓	-15.1131
􁄭	-15.1131
摑	-15.1132
􁮜	-15.1133
齁	-15.1134
湡	-15.1135
莙	-15.1135
豻	-15.1137
􁐠	-15.1137
㦛	-15.1137
杅	-15.1137
嶈	-15.1138
楻	-15.1139
痬	-15.114
鵊	-15.1141
庪	-15.1143
㨍	-15.1149
坶	-15.115
鳦	-15.1156
䱀	-15.1164
籰	-15.1829
嶗	-15.1853
臮	-15.1854
涾	-15.1856
㲣	-15.1857
銊	-15.1858
燡	-15.186
鮧	-15.186
鋡	-15.186
粑	-15.186
泋	-15.1861
湙	-15.1862
妞	-15.1864
鐈	-15.1866
棽	-15.1867
榹	-15.1868
螾	-15.1868
楖	-15.1869
湸	-15.1869
鞀	-15.1869
熸	-15.187
翖	-15.187
俆	-15.187
崝	-15.187
䲧	-15.187
螵	-15.1871
崃	-15.1871
騀	-15.1872
薢	-15.1872
芠	-15.1872
妘	-15.1873
譢	-15.1873
跲	-15.1875
銙	-15.1875
傯	-15.1876
韀	-15.1876
莛	-15.1876
吷	-15.1877
剨	-15.1877
蓧	-15.1878
覌	-15.1878
㭊	-15.1878
燆	-15.1878
竸	-15.1878
檍	-15.1878
瀌	-15.1878
䱐	-15.1879
䱱	-15.1879
弸	-15.188
囹	-15.188
檽	-15.188
䕡	-15.188
椆	-15.188
昐	-15.188
熂	-15.1881
杶	-15.1882
䢰	-15.1882
䨥	-15.1882
双	-15.1882
垝	-15.1883
帒	-15.1883
畺	-15.1883
佋	-15.1883
馪	-15.1884
軃	-15.1884
駊	-15.1884
矕	-15.1884
葍	-15.1885
穈	-15.1885
鰩	-15.1885
婬	-15.1886
遰	-15.1886
柹	-15.1886
溙	-15.1886
喤	-15.1887
韣	-15.1887
㓇	-15.1888
嵷	-15.1889
哤	-15.1889
槙	-15.1889
榑	-15.1889
㠀	-15.1889
貐	-15.1889
蹢	-15.189
澞	-15.189
甒	-15.189
䨲	-15.189
嶞	-15.189
玎	-15.189
灺	-15.189
癥	-15.189
㩻	-15.1891
墶	-15.1891
籝	-15.1891
稺	-15.1891
荁	-15.1891
苯	-15.1892
儥	-15.1892
蹮	-15.1892
脡	-15.1893
䝟	-15.1893
唉	-15.1893
閷	-15.1893
衵	-15.1894
蛦	-15.1894
梂	-15.1895
圡	-15.1895
跅	-15.1895
陾	-15.1895
鯇	-15.1895
煼	-15.1895
崾	-15.1896
䭀	-15.1898
迩	-15.1898
傿	-15.1898
匵	-15.1898
啅	-15.1898
猂	-15.1899
饊	-15.1899
邥	-15.1899
嶣	-15.19
丽	-15.1901
巚	-15.1902
㠙	-15.1902
蚰	-15.1902
㢮	-15.1903
裯	-15.1903
捣	-15.1903
㽛	-15.1904
箙	-15.1905
襤	-15.1905
鵯	-15.1907
眤	-15.1908
㕭	-15.1913
惁	-15.1914
鐬	-15.1914
輬	-15.1922
錍	-15.1922
晈	-15.1923
蟚	-15.1923
袈	-15.5777
裟	-15.6985
惆	-15.6994
㖮	-15.8406
梇	-15.8407
酊	-15.8408
牤	-15.8409
擻	-15.841
蠮	-15.8411
疙	-15.8412
倆	-15.8413
魎	-15.8414
>	-15.8415
=	-15.8416
3	-15.8417
"	-15.8418
衚	-15.8418
