<unk>	0
<s>	0
</s>	0
。	-1.69396
也	-4.34143
故	-4.35001
者	-4.51583
有	-4.90378
無	-5.11566
為	-5.16853
以	-5.18478
是	-5.21272
之	-5.34061
若	-5.38173
此	-5.40397
即	-5.45715
而	-5.46153
一	-5.52397
如	-5.55257
非	-5.59715
義	-5.60869
則	-5.60998
二	-5.61001
法	-5.6301
謂	-5.69636
生	-5.69964
不	-5.70662
於	-5.77395
名	-5.79175
中	-5.7967
言	-5.7976
因	-5.7996
明	-5.826
破	-5.85188
)	-5.85794
(	-5.85794
等	-5.89318
又	-5.9068
相	-5.94235
亦	-5.96085
說	-5.97553
▁	-5.97928
下	-5.987
云	-6.02218
三	-6.03652
耶	-6.07249
答	-6.09684
人	-6.09902
今	-6.11352
見	-6.12043
空	-6.14529
彼	-6.14743
得	-6.19657
問	-6.21679
,	-6.22758
心	-6.24263
體	-6.25973
異	-6.26354
果	-6.27788
與	-6.30553
。「	-6.33524
時	-6.34541
智	-6.39135
我	-6.39852
佛	-6.41496
前	-6.42355
知	-6.43219
論	-6.44868
應	-6.45722
涅槃	-6.46247
成	-6.4744
後	-6.48807
用	-6.49323
其	-6.4956
自	-6.49745
」	-6.50018
滅	-6.50047
常	-6.51542
作	-6.51957
皆	-6.52168
如是	-6.52502
但	-6.52851
即是	-6.52855
既	-6.54297
同	-6.54767
四	-6.55889
理	-6.56064
行	-6.59393
初	-6.59678
然	-6.59962
大	-6.60795
起	-6.61222
是故	-6.62503
性	-6.63769
。」【	-6.64015
從	-6.65236
緣	-6.67452
所	-6.67847
雖	-6.68912
實	-6.69238
能	-6.69333
釋	-6.70611
眾生	-6.71171
及	-6.71523
本	-6.7414
通	-6.74307
離	-6.74339
觀	-6.74557
一切	-6.756
色	-6.77287
上	-6.77535
意	-6.77978
立	-6.78042
出	-6.78097
菩薩	-6.79208
正	-6.79288
真	-6.79865
云何	-6.80367
道	-6.84153
名為	-6.8435
耳	-6.8459
曰	-6.86194
汝	-6.87339
難	-6.87484
由	-6.87553
解	-6.87588
物	-6.88721
諸法	-6.89602
諸	-6.89906
至	-6.90562
顯	-6.91347
在	-6.91817
復次	-6.93149
身	-6.93237
可	-6.9354
因緣	-6.93711
。】「	-6.93866
次	-6.94466
有無	-6.94749
就	-6.94934
境	-6.96941
二諦	-6.98292
合	-6.98332
經	-6.98833
別	-6.99784
門	-7.00246
所以	-7.00529
何以故	-7.00806
執	-7.01255
文	-7.01392
住	-7.01496
事	-7.01664
教	-7.01881
故云	-7.02328
假	-7.03081
業	-7.04034
依	-7.05558
定	-7.05644
宗	-7.0675
識	-7.06915
外	-7.07038
無常	-7.07039
斷	-7.07554
多	-7.08509
取	-7.10436
已	-7.11272
入	-7.12459
釋曰	-7.12805
無有	-7.14772
*	-7.1612
或	-7.16467
神	-7.16814
去	-7.17371
盡	-7.17931
苦	-7.18794
證	-7.18936
過	-7.20203
因果	-7.21165
分	-7.22071
生死	-7.22753
般若	-7.23296
當	-7.23901
令	-7.24777
如來	-7.24777
五	-7.24962
處	-7.25201
受	-7.25768
他	-7.26156
復	-7.26409
先	-7.26583
亦無	-7.27971
分別	-7.2813
辨	-7.2981
失	-7.30249
兩	-7.31111
一者	-7.31208
未	-7.3146
二者	-7.32173
乃	-7.32325
照	-7.32583
不同	-7.33145
俱	-7.33721
對	-7.33745
餘	-7.34839
求	-7.35152
瓶	-7.35451
內	-7.35536
善	-7.35637
方便	-7.36286
何	-7.36486
不得	-7.36584
大乘	-7.37109
悟	-7.38649
唯	-7.39629
聞	-7.40968
開	-7.41041
並	-7.4171
隨	-7.41964
具	-7.42984
無為	-7.43727
欲	-7.44852
不能	-7.45398
無生	-7.4587
不生	-7.45981
論主	-7.46276
疏	-7.46319
方	-7.46706
師	-7.48158
語	-7.48544
不可	-7.4906
外道	-7.49931
來	-7.50131
覺	-7.50868
俗	-7.51172
真諦	-7.51672
佛性	-7.51719
邪	-7.52613
此是	-7.52678
眼	-7.52985
無相	-7.53392
喻	-7.53518
世間	-7.53622
煩惱	-7.53931
第二	-7.5402
波若	-7.55074
世諦	-7.55205
小	-7.55474
引	-7.57051
壞	-7.58544
計	-7.58706
待	-7.58925
舉	-7.59027
迷	-7.61814
故名	-7.62034
六	-7.62208
生滅	-7.62234
指	-7.62347
實相	-7.62617
約	-7.62744
火	-7.6312
巳	-7.63277
現	-7.63792
何者	-7.6417
矣	-7.6428
便	-7.65718
若言	-7.669
深	-7.67284
位	-7.67294
聖	-7.68042
結	-7.6846
第三	-7.68625
則無	-7.69584
樂	-7.698
世	-7.69941
小乘	-7.70251
動	-7.70408
不成	-7.70816
慧	-7.71129
不二	-7.73174
攝	-7.73864
乃至	-7.74255
除	-7.74737
惑	-7.74774
必	-7.74835
品	-7.75026
地	-7.75048
若有	-7.75615
如此	-7.7579
譬如	-7.75952
會	-7.76027
捨	-7.76904
總	-7.77405
轉	-7.7861
天	-7.78755
中道	-7.79095
今明	-7.79602
若無	-7.79734
形	-7.80397
不知	-7.80686
著	-7.80881
自性	-7.81094
第一	-7.81254
稱	-7.81413
諦	-7.81728
法身	-7.81872
差別	-7.82022
自體	-7.82871
論云	-7.82895
此中	-7.82951
凡	-7.83055
聖人	-7.83127
不應	-7.83278
根	-7.83366
絕	-7.83604
不見	-7.83845
亦應	-7.84376
解脫	-7.8508
答曰	-7.85271
修	-7.86052
重	-7.86128
還	-7.86478
無知	-7.86531
乎	-7.86591
感	-7.86721
德	-7.86966
外人	-7.87019
二乘	-7.87118
五陰	-7.8718
故知	-7.87423
不異	-7.87575
顛倒	-7.87684
。】△	-7.87981
數	-7.88216
偈	-7.88251
化	-7.88319
信	-7.88693
皆是	-7.88994
而有	-7.89078
水	-7.89179
學	-7.89266
淨	-7.90032
所說	-7.90224
三乘	-7.90714
勝	-7.90841
未來	-7.90863
非有非無	-7.91067
問曰	-7.91071
聲	-7.92518
和合	-7.92603
廣	-7.92616
遍	-7.92719
故言	-7.92929
八	-7.93215
夫	-7.93426
示	-7.93502
十	-7.94025
四句	-7.94154
不可得	-7.94526
終	-7.94879
亦是	-7.95222
若爾	-7.9556
妙	-7.95615
乘	-7.96068
虛空	-7.96234
反	-7.97079
子	-7.97954
七	-7.98311
現在	-7.9848
了	-7.98729
.	-7.98795
惡	-7.98796
長	-7.98972
眾	-7.99436
性空	-7.99584
發	-8.00178
遠	-8.00594
力	-8.00677
一切法	-8.01359
屬	-8.01717
變	-8.01817
更	-8.0218
亦非	-8.02332
無體	-8.02845
情	-8.03005
陰	-8.03568
過去	-8.03606
極	-8.03793
思	-8.04054
略	-8.04323
等者	-8.04697
何故	-8.04906
妄	-8.0511
亦不	-8.05195
一異	-8.05641
各	-8.064
將	-8.06466
豈	-8.06643
共	-8.06705
非有	-8.06899
相續	-8.07445
三者	-8.07648
非是	-8.07851
始	-8.07864
而不	-8.08412
須	-8.08448
論者言	-8.08487
、	-8.0868
施	-8.08767
虛	-8.08858
爾	-8.09061
可得	-8.0996
有為	-8.10015
相違	-8.10345
疑	-8.10491
障	-8.10779
竟	-8.1136
既無	-8.1154
凡夫	-8.11627
止	-8.11944
非無	-8.12389
病	-8.1251
三世	-8.1255
遮	-8.13348
次第	-8.1343
即無	-8.13907
向	-8.13966
玄	-8.14607
歸	-8.15322
能生	-8.15442
寂	-8.15475
無量	-8.15659
念	-8.15692
真俗	-8.16093
家	-8.16207
悉	-8.16257
經云	-8.1627
亦爾	-8.16559
不然	-8.16593
王	-8.16795
猶	-8.16889
種種	-8.16987
權	-8.1708
外曰	-8.17602
所作	-8.17803
相待	-8.17846
少	-8.18258
申	-8.18339
望	-8.18614
違	-8.18661
故曰	-8.18694
表	-8.18809
實有	-8.19278
頌言	-8.19834
觸	-8.20188
境智	-8.2031
虗	-8.20388
第一義中	-8.20549
偏	-8.20563
決定	-8.20986
類	-8.21016
往	-8.21241
倒	-8.21263
愛	-8.21271
流	-8.21357
義也	-8.21652
一時	-8.2215
人法	-8.22173
不遷	-8.22291
無因	-8.22501
之義	-8.22566
息	-8.22797
生時	-8.2284
直	-8.23313
有二	-8.23722
道理	-8.23826
塵	-8.24177
有所得	-8.24475
故有	-8.24852
內曰	-8.25406
修妬路	-8.25523
中論	-8.25525
又云	-8.2557
使	-8.26137
則是	-8.2631
造	-8.26339
是以	-8.26802
境界	-8.27303
無明	-8.27344
二智	-8.27585
智慧	-8.27646
度	-8.27666
責	-8.27756
此則	-8.27862
此義	-8.2825
色等	-8.28457
;	-8.28584
是有	-8.2872
作者	-8.28856
第四	-8.28873
此即	-8.29093
字	-8.29366
窮	-8.29545
微	-8.29571
聲聞	-8.29764
想	-8.30291
戲論	-8.30587
燈	-8.30686
量	-8.30967
諸佛	-8.31178
標	-8.31709
無所得	-8.31767
所謂	-8.31786
萬物	-8.31857
本無	-8.32799
昔	-8.33116
無我	-8.33929
是常	-8.34099
斯	-8.34222
無所	-8.3437
遣	-8.34409
可見	-8.3454
象	-8.34805
內外	-8.35634
古	-8.36042
救	-8.3617
亦有	-8.36184
例	-8.3644
縛	-8.36522
只	-8.36626
?	-8.3671
俗諦	-8.36948
末	-8.36999
且	-8.37298
利	-8.37498
要	-8.3771
存	-8.3835
以為	-8.3901
雙	-8.39366
誰	-8.39742
染	-8.39994
三界	-8.40047
無故	-8.40092
哉	-8.4012
死	-8.40237
菩提	-8.40297
之理	-8.40359
故名為	-8.40406
假名	-8.40433
九	-8.40799
達	-8.41443
獨	-8.41451
常住	-8.41606
順	-8.42063
能所	-8.42073
似	-8.42226
山	-8.42267
細	-8.42599
邊	-8.42609
邪見	-8.43407
日	-8.43608
興	-8.43955
法體	-8.44051
述曰	-8.44057
論曰	-8.44059
不滅	-8.44104
三相	-8.44541
所言	-8.44757
是則	-8.44757
此論	-8.44906
別有	-8.45065
諸行	-8.45458
去者	-8.45622
推	-8.45706
龍樹	-8.4602
前後	-8.46082
報	-8.46492
之法	-8.46684
若謂	-8.47013
空有	-8.47419
八不	-8.47898
尋	-8.4805
尚	-8.4809
寂滅	-8.48278
墮	-8.48558
可知	-8.48588
冥	-8.48933
十二	-8.4905
未有	-8.49187
故無	-8.49323
年	-8.49338
圓	-8.49355
為因	-8.49388
靜	-8.49427
所依	-8.49578
法性	-8.49726
亦如是	-8.49757
所見	-8.49968
遂	-8.50406
此二	-8.50415
二種	-8.50665
不住	-8.51034
風	-8.51704
亦然	-8.51732
歎	-8.52022
應有	-8.52113
麁	-8.52221
中有	-8.52266
正法	-8.52281
不有	-8.52334
序	-8.52406
有二種	-8.5255
下半	-8.5258
謂之	-8.53033
習	-8.53179
之人	-8.53338
則有	-8.53406
足	-8.53414
不生不滅	-8.53745
平等	-8.53815
而言	-8.53876
迹	-8.54043
無性	-8.54301
目	-8.54319
有法	-8.54704
易	-8.54743
清淨	-8.54781
互	-8.5501
部	-8.55047
無礙	-8.55122
國	-8.55408
據	-8.55614
真如	-8.56165
虛妄	-8.56337
無窮	-8.56573
福	-8.56783
佛法	-8.56818
集	-8.56828
益	-8.56861
並是	-8.56861
第一義	-8.57051
敘	-8.57144
而生	-8.5729
一乘	-8.57405
有異	-8.57517
遷	-8.57647
卷	-8.5772
句	-8.57969
自然	-8.58302
一切眾生	-8.5849
無別	-8.58804
不空	-8.59121
界	-8.59194
殊	-8.59214
亡	-8.59237
近	-8.59254
罪	-8.59341
無二	-8.5976
真實	-8.59984
翻	-8.60141
不取	-8.60355
去來	-8.60469
明之	-8.60543
述	-8.60754
一法	-8.6077
不離	-8.60919
大小	-8.61095
趣	-8.61341
未生	-8.61413
故說	-8.61473
▁二	-8.61603
安	-8.61767
有三	-8.61781
何有	-8.61915
先有	-8.6227
周	-8.62513
況	-8.62589
借	-8.62601
三種	-8.63105
解云	-8.63237
亦得	-8.6335
所成	-8.63445
現見	-8.63571
猶如	-8.63667
之心	-8.63727
體用	-8.63843
正觀	-8.6402
自在	-8.64035
四諦	-8.64268
畢竟空	-8.64537
機	-8.65083
即有	-8.65091
偈說	-8.65169
亦名	-8.6577
牛	-8.65775
譬	-8.65899
同時	-8.65916
若是	-8.6619
為體	-8.66265
佛果	-8.66282
善惡	-8.66403
致	-8.6722
所以然者	-8.67608
萬法	-8.67644
傳	-8.67815
章	-8.67926
下第二	-8.68067
宜	-8.68268
功德	-8.68482
斷常	-8.68547
復有	-8.68985
老	-8.691
不說	-8.69429
種	-8.69595
徵	-8.69723
如論	-8.69829
牒	-8.70107
極微	-8.70445
汝言	-8.70736
乖	-8.70801
聖心	-8.70878
萬	-8.70973
故經云	-8.71038
本有	-8.71095
雖有	-8.71305
權實	-8.71399
藏	-8.71498
若不	-8.716
不定	-8.71647
品云	-8.71711
具足	-8.71837
四大	-8.71969
伏	-8.72
四者	-8.72045
馬	-8.72109
許	-8.7224
正破	-8.72491
短	-8.72587
非真	-8.73196
不作	-8.73252
無異	-8.73254
有性	-8.73314
然則	-8.73345
眼見	-8.73744
之言	-8.73906
去法	-8.73992
戒	-8.74085
所生	-8.7411
若以	-8.74235
當知	-8.74269
第一義諦	-8.74345
無所有	-8.74986
所以者何	-8.75104
經中	-8.75188
頌	-8.75368
如偈	-8.75433
聚	-8.75586
縱	-8.7564
出世	-8.76086
十地	-8.7641
一體	-8.76568
而無	-8.7681
薪	-8.77651
治	-8.77738
過失	-8.77792
無名	-8.77822
有體	-8.78156
書	-8.78356
味	-8.78471
不起	-8.79133
大品	-8.79307
隱	-8.79439
都	-8.79505
常無常	-8.79659
既有	-8.7967
不名	-8.79723
月	-8.79852
食	-8.80043
是無	-8.8013
但是	-8.80438
手	-8.80586
不出	-8.8093
名相	-8.8118
蓋	-8.81299
問何故	-8.81595
法師	-8.8171
千	-8.82245
驗	-8.82329
何所	-8.82342
毘曇	-8.82476
兼	-8.82621
願	-8.82642
自有	-8.8269
如前	-8.82779
百	-8.83042
金	-8.8326
像	-8.83296
高	-8.83375
所知	-8.83412
燒	-8.83686
佛說	-8.83834
定有	-8.83883
有所	-8.83893
為一	-8.83955
因中	-8.84221
河	-8.84228
齊	-8.84321
之中	-8.8447
闇	-8.84476
生者	-8.84528
相應	-8.84646
切	-8.84718
燃	-8.84786
云何有	-8.84869
如何	-8.84887
為有	-8.85218
主	-8.85482
為二	-8.85497
新	-8.85802
是名	-8.85809
世俗	-8.8623
光	-8.86271
美	-8.86305
第五	-8.86349
運	-8.86402
心境	-8.86449
二義	-8.86595
▁初	-8.86677
有餘	-8.8695
不失	-8.86974
實無	-8.86996
長行	-8.87212
□	-8.87269
以此	-8.87288
緣生	-8.87531
門破	-8.87697
釋之	-8.87936
暗	-8.88185
雖復	-8.88253
功	-8.88431
唯有	-8.88475
提婆	-8.88562
無生滅	-8.88684
是事不然	-8.88698
十二因緣	-8.88774
前明	-8.8885
不可說	-8.88859
次明	-8.89308
然後	-8.89311
既是	-8.89507
莫	-8.89564
微塵	-8.89676
土	-8.89856
又如	-8.90464
公	-8.9072
何得	-8.91044
無作	-8.91112
體相	-8.91119
忘	-8.91152
契	-8.91169
寄	-8.91283
居	-8.91391
經論	-8.91488
淨名	-8.91608
自他	-8.91624
何異	-8.9168
有生	-8.92068
言說	-8.92115
智者	-8.92159
好	-8.92268
此文	-8.92294
若法	-8.92431
說法	-8.92661
有相	-8.9277
音	-8.93036
名之為	-8.93133
悲	-8.93157
羅	-8.93216
不無	-8.93219
恒	-8.93301
判	-8.93394
究竟	-8.93439
旨	-8.93477
為緣	-8.9351
之所	-8.93532
此明	-8.93669
正因	-8.9408
緣起	-8.94086
i	-8.94212
恐	-8.94312
未曾	-8.94361
世尊	-8.9438
命	-8.94525
根本	-8.94571
半	-8.94586
論之	-8.9471
是無常	-8.94805
立義	-8.9502
無不	-8.95112
實智	-8.95178
滿	-8.95195
m	-8.95394
肇公	-8.95452
法華	-8.95467
說有	-8.95606
即真	-8.95778
寶	-8.95891
不須	-8.96131
瓶等	-8.96192
若離	-8.96363
g	-8.96589
:>	-8.96589
<	-8.9659
無餘	-8.96751
百論	-8.96796
此三	-8.96973
談	-8.9706
上半	-8.97308
破之	-8.97369
列	-8.97372
意云	-8.97749
一念	-8.9786
吾	-8.97877
不動	-8.98008
什	-8.98029
故非	-8.98152
柱	-8.98511
不在	-8.98567
此言	-8.98663
真空	-8.98758
無自性	-8.99004
懷	-8.99149
不待	-8.9916
一義	-8.9929
久	-8.99434
成就	-8.99491
金剛	-8.99548
所立	-8.99658
舊	-8.99659
則非	-8.99704
簡	-8.99998
為是	-9.00069
眼等	-9.00163
之名	-9.00202
種子	-9.00468
三論	-9.00539
亦可	-9.00786
伹	-9.01037
二法	-9.01058
相即	-9.01115
名字	-9.01178
能見	-9.01273
進	-9.01274
續	-9.01527
持	-9.01653
其義	-9.01697
劫	-9.01784
此品	-9.01789
所執	-9.01822
於諦	-9.02145
親	-9.02258
必有	-9.02392
比量	-9.02393
海	-9.02396
藥	-9.02957
聽	-9.02992
愚	-9.03029
立名	-9.03064
:「	-9.03066
之道	-9.03289
中無	-9.03319
之相	-9.03516
白	-9.0353
有此	-9.03565
脩	-9.03706
果報	-9.03799
比	-9.04051
竝	-9.04084
巧	-9.04104
僧	-9.04193
無實	-9.04319
無法	-9.04453
故不	-9.04484
此亦不然	-9.04488
辭	-9.04492
口	-9.04629
思惟	-9.04684
何以	-9.04703
華	-9.04792
覆	-9.04831
非實	-9.04838
本來	-9.04858
今謂	-9.04897
一一	-9.05028
其體	-9.05245
無自體	-9.05245
所緣	-9.05315
散	-9.05543
始終	-9.0555
初句	-9.05573
此謂	-9.05821
樹	-9.06086
大意	-9.06149
四緣	-9.06244
以無	-9.06597
都無	-9.06652
剎那	-9.06716
成實	-9.06749
支	-9.0678
折	-9.06838
由此	-9.06975
》	-9.07011
退	-9.07403
初地	-9.07472
一分	-9.07519
所破	-9.07619
正明	-9.07719
異者	-9.07928
為義	-9.08012
四論	-9.08025
衣	-9.08043
全	-9.08082
陳	-9.08285
但有	-9.08407
無住	-9.08476
則知	-9.08522
豈非	-9.08913
罪福	-9.08994
弟子	-9.09051
眾緣	-9.09135
一云	-9.09253
以明	-9.09327
到	-9.09562
權智	-9.09571
礙	-9.09575
辯	-9.09615
能破	-9.0969
論者	-9.09708
超	-9.10016
備	-9.10052
所行	-9.10089
淺	-9.10216
有人言	-9.10343
頭	-9.10391
非緣	-9.10477
不識	-9.10535
初明	-9.10728
無漏	-9.108
二門	-9.1095
幻	-9.11463
不斷	-9.11517
是一	-9.11517
無得	-9.11584
空故	-9.11615
焉	-9.1167
秤	-9.11695
此意	-9.11862
不為	-9.12199
不受	-9.12209
生法	-9.12267
相似	-9.12684
是非	-9.1269
見者	-9.12713
則不	-9.12714
忍	-9.12856
此下	-9.12958
我見	-9.13058
成立	-9.13083
三時	-9.13223
虗空	-9.13409
同異	-9.13455
泥	-9.13522
今破	-9.13832
沒	-9.14544
熱	-9.14589
有二義	-9.14834
蘊	-9.15069
所有	-9.1518
異相	-9.15267
功能	-9.15313
奪	-9.15317
橫	-9.15342
破其	-9.15541
下第三	-9.15555
謂有	-9.1572
所得	-9.15735
此說	-9.15751
自相	-9.15776
了因	-9.158
東	-9.15811
有時	-9.15888
造論	-9.159
猶是	-9.15963
以其	-9.16179
次破	-9.16331
有知	-9.1644
收	-9.16481
應無	-9.16608
七地	-9.1662
得成	-9.16988
師云	-9.17318
之用	-9.17346
中說	-9.17434
意也	-9.17451
第六	-9.17597
滯	-9.17658
可燃	-9.17716
則應	-9.17761
今此	-9.1783
俱無	-9.17921
和	-9.17932
關	-9.1796
於此	-9.18047
譬喻	-9.18253
無體故	-9.18412
不真	-9.18416
被	-9.18492
無果	-9.18539
為實	-9.18621
諸法實相	-9.18795
清	-9.18801
故次頌曰	-9.1897
此之	-9.19166
異也	-9.19341
是實	-9.19682
不爾	-9.19768
乳	-9.19773
執有	-9.19934
欲令	-9.20091
乃是	-9.20143
皆有	-9.2027
非有無	-9.20308
問答	-9.20335
何處	-9.2038
不一	-9.20679
如是等	-9.2078
言有	-9.20873
是有為	-9.2098
一人	-9.21078
是事	-9.21136
蓋是	-9.21206
幾	-9.21256
不可見	-9.21362
決	-9.21446
已生	-9.21545
作用	-9.21623
無始	-9.21776
感應	-9.21838
法中	-9.21875
吉	-9.21976
之時	-9.22012
強	-9.22046
數論	-9.22062
老死	-9.2215
妄想	-9.22288
敬	-9.22515
亦云	-9.22658
母	-9.22715
謬	-9.22756
聖智	-9.22825
有人	-9.23061
總別	-9.23342
六道	-9.23522
損	-9.23543
應知	-9.23626
之體	-9.23645
言無	-9.23732
經說	-9.23835
之智	-9.23838
一心	-9.2387
不來	-9.23958
各有	-9.24042
二相	-9.24046
三寶	-9.2405
莊嚴	-9.24131
精	-9.24236
請	-9.2428
設	-9.24314
不淨	-9.24327
甚深	-9.24527
領	-9.2479
甚	-9.25017
呵	-9.25029
審	-9.25057
不自	-9.25077
固	-9.25111
不破	-9.2515
為宗	-9.25166
中間	-9.25292
非常	-9.25344
三昧	-9.25445
初偈	-9.25481
而非	-9.25543
隨緣	-9.25549
西	-9.25657
畢竟	-9.25659
無邊	-9.25773
融	-9.25804
諸見	-9.25822
有三種	-9.25929
器	-9.25939
非但	-9.2629
差	-9.26331
一切皆	-9.26469
開善	-9.26473
無心	-9.26532
漸	-9.26642
或言	-9.26677
寧	-9.26741
癡	-9.26839
之意	-9.27112
第七	-9.2712
不以	-9.27177
教諦	-9.27281
非一	-9.27307
有因	-9.27353
斥	-9.27377
含	-9.2747
上來	-9.2753
或有	-9.2759
往來	-9.27824
長短	-9.27893
而得	-9.27915
能知	-9.28141
傍	-9.28202
雜	-9.28231
永	-9.2826
動靜	-9.28399
返	-9.28447
有為法	-9.28477
云何言	-9.28516
三藏	-9.28525
氣	-9.28539
然此	-9.28604
有我	-9.28627
一切諸法	-9.2864
影	-9.28971
今言	-9.2898
異法	-9.29086
不解	-9.29805
詮	-9.29884
非謂	-9.30011
義不然	-9.30143
題	-9.30168
又若	-9.30209
不言	-9.30377
假有	-9.30465
源	-9.3051
又二	-9.30568
觀察	-9.30667
所取	-9.30705
厭	-9.30772
破邪	-9.309
密	-9.30951
不實	-9.31012
貪	-9.31117
不盡	-9.31239
此云	-9.31357
法者	-9.31493
轉變	-9.31595
累	-9.31616
肇師	-9.31619
鑒	-9.31832
可有	-9.3214
增	-9.32503
大悲	-9.32675
滅時	-9.32687
之境	-9.32769
謝	-9.33216
如彼	-9.33271
為本	-9.33307
亂	-9.33524
一句	-9.33786
不從	-9.34051
節	-9.34227
意謂	-9.34238
元	-9.34378
不善	-9.34398
輪	-9.3453
凡聖	-9.3467
釋迦	-9.34712
已有	-9.34964
般若波羅蜜	-9.34999
異故	-9.35004
無也	-9.35055
不信	-9.35148
勝義	-9.35151
守	-9.35222
彌	-9.3523
而今	-9.35255
遇	-9.35291
四種	-9.35381
皆空	-9.35428
平	-9.35441
三句	-9.35574
一切智	-9.35625
得解脫	-9.35732
苦樂	-9.35768
靈	-9.35896
香	-9.35922
施設	-9.36087
首	-9.36182
有果	-9.362
城	-9.36228
所攝	-9.3632
父	-9.36346
有見	-9.36664
前云	-9.36746
禮	-9.36772
為無	-9.3707
滅度	-9.37079
物體	-9.37396
斷見	-9.37421
如其	-9.37492
生起	-9.37559
際	-9.37726
不去	-9.37859
可以	-9.37866
何等	-9.37886
以是故	-9.37919
釋論	-9.38039
屈	-9.38057
難也	-9.38178
不可以	-9.3824
論文	-9.38284
章門	-9.38457
終不	-9.38509
生相	-9.38719
泯	-9.38867
夢	-9.38903
木	-9.38972
託	-9.38994
牙	-9.39027
為異	-9.39418
解釋	-9.39439
成佛	-9.39468
生生	-9.39481
非色	-9.39503
用也	-9.39675
廢	-9.39831
印	-9.39837
應如	-9.39856
爾時	-9.39933
亦如	-9.40086
為真	-9.40087
我今	-9.40112
最	-9.40358
生於	-9.40386
記	-9.40579
非因非果	-9.40814
小乘人	-9.40833
不遍	-9.40842
故是	-9.40855
文二	-9.40992
亦有亦無	-9.41012
於中	-9.41188
段	-9.4124
盛	-9.41609
布	-9.41613
鳥	-9.41672
途	-9.41736
論中	-9.41833
自生	-9.41965
容	-9.42371
諸有	-9.42392
▁三	-9.42494
引經	-9.42574
即知	-9.42693
彼云	-9.42706
故能	-9.42776
質	-9.42915
那	-9.43018
十方	-9.43029
是亦不然	-9.43048
端	-9.43119
得道	-9.43158
過故	-9.43457
之流	-9.43573
而起	-9.43683
《	-9.43913
異於	-9.44024
悟入	-9.44056
禪	-9.44089
無記	-9.44202
□□	-9.44279
所明	-9.44284
謗	-9.44342
患	-9.44465
舍	-9.44516
斷滅	-9.44521
阿	-9.44636
疾	-9.44658
空等	-9.44707
實法	-9.44728
路	-9.44739
如人	-9.44837
一往	-9.44905
所起	-9.45215
得失	-9.45392
己	-9.45462
幽	-9.45472
南	-9.45494
阿羅漢	-9.45523
如實	-9.45565
而說	-9.45588
酪	-9.45688
今欲	-9.45692
二慧	-9.45759
不失法	-9.45869
金剛心	-9.45985
成論	-9.46023
理教	-9.46242
可相	-9.46276
此語	-9.46418
為破	-9.46439
人天	-9.46443
利益	-9.46561
何況	-9.46783
注	-9.46845
世界	-9.46965
不有有	-9.47003
大涅槃	-9.4701
竪	-9.47017
摩訶衍	-9.47071
義不成	-9.47271
跡	-9.47273
勝義諦中	-9.47284
勿	-9.47644
說空	-9.47644
能作	-9.47702
去時	-9.47703
作業	-9.47775
不變	-9.47794
僧佉	-9.47835
相生	-9.4803
對治	-9.48241
不了	-9.48355
破也	-9.48366
外人言	-9.48399
拔	-9.48437
之性	-9.48565
未得	-9.48572
不捨	-9.48648
第八	-9.48864
相對	-9.48896
有名	-9.49053
佛言	-9.49298
正理	-9.49378
廣說	-9.49426
文云	-9.4943
有得	-9.495
任	-9.49534
更無	-9.49559
最後	-9.49572
天竺	-9.49626
明無	-9.49642
常有	-9.49647
善根	-9.49741
之教	-9.49896
世人	-9.50046
斷惑	-9.5008
破外道	-9.50163
一向	-9.50244
悲心	-9.50254
空義	-9.50324
復次若	-9.50406
改	-9.50416
頓	-9.50454
此釋	-9.50481
空華	-9.50503
以是義故	-9.50651
是法	-9.50688
導	-9.50713
諸根	-9.50779
萬行	-9.50878
號	-9.50883
是空	-9.50919
問若	-9.50976
經曰	-9.51068
接	-9.51077
太	-9.51148
十一	-9.51152
第二偈	-9.51155
法界	-9.51175
染者	-9.51206
方等	-9.51213
有過	-9.51451
迴	-9.51541
珠	-9.51688
二見	-9.52085
得涅槃	-9.52214
放光	-9.52265
總結	-9.52421
有分	-9.52562
龍	-9.52587
相故	-9.5259
勸	-9.52628
正是	-9.52641
空者	-9.52653
林	-9.52708
已滅	-9.52798
有四	-9.5285
見有	-9.53006
曾	-9.53094
法空	-9.53141
為當	-9.53244
弘	-9.53259
當體	-9.53265
諍	-9.53305
譯	-9.53342
二俱	-9.53406
于	-9.53484
若見	-9.5349
今以	-9.53499
於彼	-9.5364
四相	-9.53682
縷	-9.53769
讀	-9.53785
遊	-9.53881
樂等	-9.53956
之本	-9.54054
何謂	-9.54157
不相	-9.5441
生已	-9.54432
女	-9.54448
無用	-9.54482
亦不成	-9.54604
同喻	-9.54717
徧	-9.54803
成壞	-9.54812
避	-9.54886
不許	-9.55066
我無我	-9.55072
第十	-9.55176
非因	-9.55218
故得	-9.55275
波	-9.55334
前破	-9.55488
車	-9.55492
可解	-9.55513
有為無為	-9.55602
是果	-9.55631
可說	-9.55668
能照	-9.55724
何物	-9.55749
有漏	-9.55832
脫	-9.55837
既云	-9.55985
并	-9.56018
及以	-9.56134
大士	-9.56145
無分別	-9.56315
陀	-9.56317
勢	-9.56389
但明	-9.5644
修行	-9.56714
從緣生	-9.56728
不攝	-9.56801
是中	-9.56887
古今	-9.56944
輕	-9.56985
棄	-9.57029
稟	-9.57066
無差別	-9.57078
演	-9.57093
積	-9.57095
泥團	-9.57111
五者	-9.57116
因緣故	-9.57139
秦王	-9.57141
前有	-9.57148
詺	-9.57162
非實有	-9.57173
在於	-9.57207
云云	-9.57269
智度論云	-9.57388
作因	-9.57404
不合	-9.57581
承	-9.57595
此偈	-9.57661
明二諦	-9.5773
因故	-9.57734
人也	-9.57895
為欲	-9.58007
稱為	-9.58015
不因	-9.58072
之與	-9.58079
能起	-9.58178
釋成	-9.58178
誠	-9.58182
丈夫	-9.58205
適	-9.58226
理內	-9.58302
昧	-9.58353
體性	-9.58612
未盡	-9.5869
之有	-9.58691
變異	-9.58753
無言	-9.58877
豈不	-9.589
芽	-9.58949
有何	-9.59017
不與	-9.59068
理外	-9.5909
尊	-9.59151
取相	-9.5929
正道	-9.59608
皆無	-9.59657
科	-9.59674
雖無	-9.59785
汝今	-9.59895
何用	-9.59976
受者	-9.6001
群	-9.60024
佛教	-9.60084
發起	-9.60147
此亦	-9.60215
生死涅槃	-9.60236
逆	-9.60247
不壞	-9.6034
堅	-9.60355
但以	-9.60393
越	-9.60401
寺	-9.60464
既不	-9.60798
問若爾	-9.60845
是假	-9.60907
色心	-9.61018
即空	-9.61037
自作	-9.6115
劣	-9.61182
常見	-9.61198
次釋	-9.61246
不成故	-9.61353
所證	-9.614
雲	-9.61519
炎	-9.61625
更有	-9.61766
故今	-9.61827
之過	-9.61853
無色	-9.6192
徒	-9.6193
中假	-9.61939
略云	-9.61985
不思議	-9.62145
生故	-9.62179
說言	-9.62291
真理	-9.62383
則為	-9.62418
令其	-9.62442
偈為二	-9.62508
未起	-9.62536
嚴	-9.62573
次第緣	-9.62599
華嚴	-9.62701
作此	-9.62778
羅漢	-9.62808
招	-9.62815
講	-9.62831
云何名	-9.62833
性相	-9.62921
何能	-9.63041
詳	-9.63068
遠離	-9.63136
此四	-9.63143
生果	-9.63174
出家	-9.63225
而能	-9.63386
汝說	-9.63484
現量	-9.63618
制	-9.63911
誦	-9.63914
即非	-9.64069
迦葉	-9.64088
賢	-9.64153
無見	-9.6418
言其	-9.64363
於世諦中	-9.64562
不相應	-9.64722
聖教	-9.64748
緣會	-9.64841
曉	-9.64895
偽	-9.64941
喜	-9.64977
之果	-9.64985
洗	-9.65048
總非	-9.65049
草木	-9.65054
有五	-9.65101
此人	-9.65253
婆	-9.65309
二釋	-9.65314
是人	-9.65354
是世諦	-9.65399
為正	-9.65414
行者	-9.65446
注云	-9.65464
無物	-9.65723
可生	-9.65814
本性	-9.65885
諸佛菩薩	-9.66019
初二句	-9.6608
暫	-9.66199
之外	-9.66216
上明	-9.66233
須菩提	-9.66254
亦無有	-9.66301
應是	-9.66305
名曰	-9.66316
摩	-9.66316
漚和	-9.6632
彰	-9.66341
惱	-9.66363
先後	-9.66371
後時	-9.66385
番	-9.6643
之物	-9.66523
既其	-9.66649
五塵	-9.66725
宛然	-9.66817
即應	-9.66818
義故	-9.66878
有情	-9.67046
定慧	-9.67103
善法	-9.67115
變化	-9.67185
載	-9.67234
發心	-9.67301
有其	-9.67315
不如	-9.67341
云何得	-9.67375
因者	-9.67441
相違故	-9.67691
為三	-9.67711
滅相	-9.6773
性故	-9.67748
無復	-9.67787
五種	-9.67873
以有	-9.68029
不有不無	-9.68035
無分別智	-9.68078
單	-9.68106
因中無果	-9.6813
釋云	-9.68176
後有	-9.68276
穀	-9.6828
文字	-9.68353
總相	-9.68451
捲	-9.6848
之事	-9.68485
別破	-9.68548
普	-9.68579
害	-9.68696
隔	-9.68703
能相	-9.68784
闕	-9.68792
疎	-9.68792
法門	-9.68833
劉公	-9.68858
從緣	-9.68925
二云	-9.68986
欲明	-9.69234
滅故	-9.69311
今問	-9.69337
相離	-9.69355
至人	-9.69372
理也	-9.69453
是因	-9.69613
此乃	-9.69709
豈有	-9.69753
若人	-9.69757
北	-9.69851
助	-9.69868
淺深	-9.69874
大經	-9.69914
義者	-9.69945
默	-9.69953
豈得	-9.69969
婆羅門	-9.70022
只是	-9.70091
起者	-9.70106
天地	-9.70366
三假	-9.70391
此句	-9.7046
大品經	-9.70465
但為	-9.70484
破有	-9.70485
畢竟無	-9.70529
歡喜	-9.7053
神通	-9.70538
不行	-9.70654
無緣	-9.70691
為世諦	-9.70756
士	-9.7114
阿含	-9.71262
撿	-9.7136
有一	-9.71412
因中有果	-9.7152
復有人言	-9.71549
之說	-9.71636
始有	-9.71863
不可言	-9.71993
一物	-9.72034
空也	-9.72046
難者	-9.72122
絕待	-9.72357
此事	-9.72375
取者	-9.72452
從來	-9.72563
求之	-9.7276
一切法空	-9.72889
之功	-9.73145
而後	-9.73258
今就	-9.73339
間	-9.7338
以不	-9.73426
他性	-9.73431
又汝	-9.73503
緣因	-9.73524
慮	-9.73708
不到	-9.73712
盲	-9.7376
仰	-9.73846
石	-9.73872
夜	-9.73894
呼	-9.73895
薩婆多	-9.73899
其實	-9.73941
原	-9.73954
秦	-9.74179
此復云何	-9.74196
住相	-9.74279
別異	-9.74292
過去世	-9.74382
無間	-9.74433
法相	-9.74486
慈	-9.74763
此破	-9.7481
是涅槃	-9.75004
能取	-9.75145
提	-9.75193
角	-9.75198
常法	-9.75199
作佛	-9.75204
觀行	-9.75212
期	-9.75217
依他	-9.75226
留	-9.7523
佛經	-9.75311
杖	-9.75384
涅槃經云	-9.7571
經文	-9.75711
難曰	-9.75795
具有	-9.75921
俱有	-9.7604
假說	-9.76054
展轉	-9.76062
不絕	-9.7609
重破	-9.76121
亦同	-9.76129
不覺	-9.76149
等也	-9.76235
分位	-9.76269
之因	-9.76281
勞	-9.76312
果者	-9.76377
帝	-9.76392
加	-9.76427
背	-9.76483
即成	-9.76497
又復	-9.76515
釋上	-9.76563
召	-9.76566
唱	-9.76575
􂎥	-9.76674
亦復如是	-9.76701
數人	-9.76719
等法	-9.76752
殺	-9.76791
不得言	-9.76802
起時	-9.76877
今當	-9.76894
下釋	-9.77083
第二明	-9.77103
一家	-9.77114
因義不成	-9.77204
計有	-9.77375
遮遣	-9.77545
必須	-9.77547
壽	-9.77672
破於	-9.77679
三德	-9.77772
斷煩惱	-9.77823
比丘	-9.77846
歲	-9.77872
鈍	-9.77874
不立	-9.77911
依止	-9.77935
此法	-9.77955
日月	-9.77955
二人	-9.78021
智度論	-9.7803
名色	-9.78388
什師	-9.78425
其性	-9.7858
又此	-9.78644
三門	-9.78647
問云何	-9.78743
論意	-9.78763
青	-9.78814
義成	-9.78955
則不應	-9.78982
各各	-9.78983
二邊	-9.79039
既言	-9.79199
無能	-9.79261
天下	-9.79324
難云	-9.79364
觀智	-9.79416
不名為	-9.79442
體也	-9.79519
第九	-9.79541
舍利弗	-9.79568
護	-9.79595
即為	-9.79657
為果	-9.79677
布施	-9.79756
燃可燃	-9.79818
藉	-9.79873
亦復	-9.79878
各異	-9.80024
此等	-9.80206
不著	-9.80404
悉皆	-9.80454
有瓶	-9.80469
論師	-9.80536
落	-9.8058
才	-9.80606
頂	-9.80625
統	-9.80695
沙門	-9.80744
偈言	-9.80907
取著	-9.80947
欲界	-9.80963
別相	-9.80966
如是說	-9.81003
推求	-9.81032
流轉	-9.81032
傷	-9.81053
我所	-9.811
見諦	-9.81142
所相	-9.81196
有四種	-9.81226
引證	-9.81355
花	-9.81458
既非	-9.81593
是為	-9.81624
佛道	-9.81731
而實	-9.81848
生住滅	-9.81855
繫	-9.81906
臣	-9.81949
麤	-9.81953
三法	-9.81958
迷悟	-9.8203
讚	-9.82045
泥洹	-9.8208
何則	-9.82081
故下頌	-9.82121
習氣	-9.82182
勤	-9.82182
已未	-9.82195
於空	-9.82199
非不	-9.82217
大論	-9.82235
有為相	-9.82301
假實	-9.82312
故成	-9.82369
又問	-9.82413
增長	-9.82526
不復	-9.82549
凡有	-9.82555
以顯	-9.82595
非諦	-9.82597
而為	-9.82628
前二	-9.82706
資	-9.82808
建立	-9.8283
異體	-9.82982
緣緣	-9.82986
句義	-9.83043
則墮	-9.83043
汝立	-9.83158
有兩	-9.83174
熟	-9.83319
此理	-9.83446
面	-9.83447
無過	-9.83522
苟	-9.83527
何處有	-9.83537
有生滅	-9.83542
聖諦	-9.83595
:	-9.83601
無生無滅	-9.8363
捉	-9.83647
有色	-9.83665
垢	-9.83671
所造	-9.8368
得名	-9.83717
若汝	-9.83735
階	-9.83771
有佛性	-9.83783
」【	-9.83817
次句	-9.83821
若或	-9.83874
初破	-9.83889
不必	-9.83892
二名	-9.83923
彼此	-9.83925
世俗諦	-9.83981
眾經	-9.83986
若就	-9.8401
物不遷	-9.84045
於無	-9.84069
大品云	-9.84271
定無	-9.84299
鹹	-9.84588
至於	-9.8464
偈云	-9.84662
少分	-9.84739
懸	-9.8487
淵	-9.84935
唯一	-9.84999
中論云	-9.8501
大乘人	-9.8508
還是	-9.85121
後二句	-9.85126
不能自	-9.85153
應身	-9.8519
二不二	-9.85334
是佛	-9.85456
力故	-9.85492
羅什	-9.85664
通別	-9.85709
一種	-9.85773
鏡	-9.85811
二破	-9.85921
十二門	-9.85968
理事	-9.85995
莊子	-9.86012
二空	-9.86034
服	-9.86079
言教	-9.86091
三毒	-9.86183
免	-9.86413
不應有	-9.86434
疊	-9.86461
底	-9.86462
答云	-9.86468
染法	-9.86584
乞者	-9.8664
無去	-9.86668
先無	-9.86734
則失	-9.86741
隨順	-9.86752
應不	-9.86875
了知	-9.86877
大經云	-9.8697
因緣生	-9.87009
身心	-9.87168
光明	-9.87205
正見	-9.87254
無知也	-9.87395
歷	-9.874
是諦	-9.87437
真智	-9.87528
說為	-9.87537
欲得	-9.8756
證成	-9.87615
念念	-9.87648
一相	-9.87662
置	-9.87744
擬	-9.878
若能	-9.8781
我我所	-9.87852
明中道	-9.87861
定性	-9.87875
潛	-9.87877
破他	-9.87931
豈可	-9.88272
「	-9.88554
十八	-9.88591
釋也	-9.88594
作法	-9.88609
能成	-9.88703
者不然	-9.88764
未能	-9.88802
無形	-9.88836
所引	-9.88946
一切處	-9.88983
二句	-9.8899
通達	-9.88994
義宗	-9.89002
三結	-9.89002
負	-9.89117
涅槃經	-9.89134
見空	-9.89178
可取	-9.89202
却	-9.89326
不至	-9.89364
符	-9.89367
甘露	-9.89372
調達	-9.8939
條	-9.89444
百年	-9.89652
是真	-9.89696
問此	-9.89706
豈是	-9.89767
六地	-9.89767
作是	-9.89788
開善云	-9.89887
開示	-9.89922
之異	-9.89929
小生	-9.90075
是無為	-9.901
世出世	-9.90166
如幻	-9.90241
有用	-9.9031
惑者	-9.9052
皆悉	-9.90537
鈍根	-9.90587
志	-9.90851
清涼	-9.90933
六種	-9.90946
什公	-9.91015
不依	-9.91151
亦不得	-9.91166
釋名	-9.9123
六根	-9.91283
說無	-9.91433
為成	-9.91454
微妙	-9.91472
二十	-9.91653
猶未	-9.91698
自宗	-9.91879
皆得	-9.91955
三義	-9.9205
故須	-9.92192
明義	-9.92218
共生	-9.92354
逐	-9.92391
濟	-9.92427
教門	-9.92433
該	-9.92492
處處	-9.92519
若異	-9.9252
徹	-9.92528
一處	-9.92533
非瓶	-9.92537
未甞	-9.92583
是即	-9.92594
夷	-9.92606
!	-9.92629
何不	-9.92644
畏	-9.92828
之旨	-9.92829
有所作	-9.9283
其相	-9.92915
亦得言	-9.92916
三性	-9.92952
起故	-9.93011
異性	-9.9302
其心	-9.93052
初牒	-9.93059
無滅	-9.93079
此義云何	-9.93158
前問	-9.93231
決定有	-9.93233
何須	-9.93262
皆不成	-9.93396
地等	-9.93434
互相	-9.93506
真常	-9.93523
合故	-9.93543
果生	-9.93558
為他	-9.9358
略說	-9.93586
五百	-9.93821
即此	-9.9384
諸煩惱	-9.93855
君	-9.93957
因成	-9.93995
參	-9.93999
沙	-9.94005
相可相	-9.94016
魔	-9.94064
不證	-9.94082
不二而二	-9.94104
若說	-9.94144
為諦	-9.94161
若於	-9.94178
現前	-9.94294
為名	-9.9435
立宗	-9.94433
是故今明	-9.94542
眼根	-9.94558
便是	-9.9456
異喻	-9.94567
諸相	-9.94629
法也	-9.94643
果體	-9.94656
則成	-9.94701
諸菩薩	-9.94719
為常	-9.94763
下第四	-9.94801
四門	-9.94821
諸師	-9.94841
於聖	-9.94881
心也	-9.94887
那得	-9.95106
依此	-9.95145
經意	-9.95149
即破	-9.95226
應生	-9.95275
何名	-9.95289
不能生	-9.9536
知有	-9.95385
晉	-9.95546
無當	-9.95602
準	-9.9562
未必	-9.95624
實性	-9.95626
此經	-9.95682
前說	-9.95734
六者	-9.95737
再	-9.95756
為喻	-9.95797
最勝	-9.95829
良由	-9.95831
勝義諦	-9.95838
御	-9.95843
無從	-9.95903
如上	-9.95927
偈本	-9.95954
得生	-9.95994
過也	-9.96066
涅槃是	-9.96085
薪火	-9.96092
共相	-9.96098
如來藏	-9.96104
可謂	-9.96237
所解	-9.96244
應當	-9.96352
色空	-9.96554
總破	-9.96677
惠	-9.96681
無人	-9.96761
真應	-9.96859
無定	-9.96933
為證	-9.97048
並觀	-9.97205
黑	-9.97324
玅	-9.97324
律	-9.97325
江	-9.97328
希	-9.97345
駁	-9.97364
之見	-9.97395
亦不然	-9.97431
能生果	-9.97494
寂靜	-9.97512
已去	-9.97555
一明	-9.97584
應名	-9.97589
天親	-9.97596
論主破	-9.97873
但破	-9.97903
等諸	-9.97983
一偈	-9.98017
此有	-9.98058
生等	-9.9811
見色	-9.98144
如前說	-9.98246
如虛空	-9.98393
此非	-9.98408
軌	-9.98566
闡提	-9.98635
若因	-9.98655
能令	-9.98659
立有	-9.98695
為得	-9.9876
有物	-9.9878
或說	-9.98802
執著	-9.98853
時有	-9.98853
移	-9.98952
十六	-9.98983
競	-9.99011
有神	-9.99097
宗本	-9.99151
不出不在	-9.99153
各別	-9.9926
未見	-9.99265
應化	-9.99322
舉體	-9.99327
亦不生	-9.9935
法華云	-9.99385
真妄	-9.99442
不遷也	-9.9945
究	-9.99677
安立	-9.99701
今是	-9.99741
無上	-9.99977
一道	-10.0005
後世	-10.001
六度	-10.0026
兔角	-10.0046
貴	-10.0055
張	-10.0062
為正因	-10.0063
喪	-10.0064
宿	-10.0065
宅	-10.0067
毀	-10.007
其言	-10.0072
應非	-10.0074
青目	-10.0076
善男子	-10.0076
有住	-10.0079
淨土	-10.009
說名	-10.0103
為涅槃	-10.0106
其人	-10.0108
滅者	-10.011
何意	-10.0119
遺	-10.0135
大師	-10.0137
是真諦	-10.0146
緣覺	-10.0147
是故說	-10.0151
何由	-10.0153
體一	-10.0158
則不然	-10.0158
為真諦	-10.0163
同類	-10.0169
既爾	-10.0174
二明	-10.0178
世諦中	-10.0183
第一義空	-10.0183
便謂	-10.0188
如涅槃	-10.0189
外云	-10.0194
為論	-10.0197
大道	-10.0209
詰	-10.0212
財	-10.0215
令悟	-10.0217
造作	-10.0225
鄣	-10.0226
則無有	-10.0229
以成	-10.0235
刀	-10.0235
愚癡	-10.0241
供養	-10.0241
傳云	-10.0244
有心	-10.025
變易	-10.0252
慈悲	-10.0255
已遮	-10.0258
不當	-10.0259
智也	-10.0265
見法	-10.0272
若一	-10.0273
假名說	-10.0278
一品	-10.028
責之	-10.0283
為無為	-10.0291
諸外道	-10.0292
有實	-10.0301
假立	-10.0314
中觀	-10.0317
時體	-10.0318
廣破	-10.032
此難	-10.032
二難	-10.0324
之緣	-10.0324
自無	-10.0326
辟支佛	-10.0331
是故當知	-10.0341
餘二	-10.0352
不達	-10.0365
諸法性空	-10.0369
可破	-10.0369
名也	-10.0373
下句	-10.0377
微細	-10.0395
步	-10.0396
我者	-10.0398
議	-10.04
由是	-10.0401
畢	-10.0402
道也	-10.0406
速	-10.041
而未	-10.0411
連	-10.0412
涉	-10.0413
詞	-10.0413
陽	-10.0415
舟	-10.0417
縛解	-10.0418
彈	-10.0422
肇	-10.0422
響	-10.0423
本無今有	-10.0426
福德	-10.0436
所斷	-10.0451
了義	-10.0459
前釋	-10.0464
後明	-10.0475
如說	-10.0476
利根	-10.0484
諸緣	-10.0486
若果	-10.049
無為法	-10.0494
為我	-10.0516
法師云	-10.0519
如燈	-10.0522
體者	-10.0545
略明	-10.0548
以何	-10.0555
之身	-10.0561
方廣	-10.057
修道	-10.0571
所用	-10.0586
為空	-10.0588
排	-10.0596
出生	-10.0597
料簡	-10.0599
僧祇	-10.06
令人	-10.0613
無起	-10.0617
異義	-10.0629
實義	-10.063
以彼	-10.0631
第二句	-10.0646
二因	-10.0649
明於	-10.065
三偈	-10.0651
因有	-10.0652
序云	-10.0653
何故不	-10.0656
有差別	-10.0665
緣有	-10.0667
其所	-10.0667
今既	-10.0667
十住	-10.0669
二果	-10.0681
無瓶	-10.0682
為方便	-10.0687
所照	-10.0693
修多羅	-10.0702
初中	-10.0706
是故無	-10.0708
能緣	-10.071
同體	-10.0718
而巳	-10.0722
上云	-10.0734
二偈	-10.0737
二論	-10.0743
乃名	-10.0744
是我	-10.0745
實也	-10.0745
性有	-10.0748
大生	-10.0753
有滅	-10.0763
明矣	-10.0763
彌勒	-10.0775
汝等	-10.0777
舌	-10.0785
其過	-10.0789
何時	-10.0795
是因緣	-10.0798
於有	-10.0809
不一不異	-10.0815
得益	-10.0818
得果	-10.0821
若彼	-10.0827
牒上	-10.0836
答此	-10.0837
下半破	-10.0838
體無	-10.0845
教也	-10.0853
故說頌曰	-10.0855
攝法	-10.0856
知者	-10.0857
佛菩薩	-10.0863
未滅	-10.0863
長行云	-10.0866
無所依	-10.0874
猶有	-10.0876
非真非俗	-10.0887
釋上半	-10.0888
不足	-10.0889
經言	-10.089
說之	-10.0897
今略	-10.0899
謂無	-10.0904
結成	-10.0908
儀	-10.0913
而成	-10.0914
今更	-10.0916
可信	-10.0917
有去	-10.0924
顯示	-10.0924
皆不然	-10.0946
則同	-10.0947
初標	-10.0952
雨	-10.0955
言之	-10.0955
法說	-10.0956
欣	-10.0958
持戒	-10.0958
涼	-10.0958
而彼	-10.0959
典	-10.096
授	-10.096
汝謂	-10.0964
諸經	-10.0969
士夫	-10.0974
湛然	-10.0976
之文	-10.098
伴	-10.0986
入涅槃	-10.099
見佛	-10.0991
相因	-10.0991
處有	-10.0991
過去未來	-10.0991
一切法皆	-10.1001
大有	-10.1002
與彼	-10.1003
同於	-10.1013
所受	-10.1014
憂	-10.102
寂照	-10.1023
百非	-10.1028
二世	-10.1038
二體	-10.1044
華嚴云	-10.1049
建	-10.1049
我體	-10.1052
取捨	-10.1052
不通	-10.1057
被破	-10.1061
妄執	-10.1064
諍論	-10.1065
不生滅	-10.1078
賢聖	-10.1082
理智	-10.1083
域	-10.1092
雖同	-10.1095
文中有	-10.1102
他作	-10.1107
能證	-10.1108
外有	-10.1109
果性	-10.1115
中之	-10.1122
不相離	-10.1126
婆沙	-10.1126
感佛	-10.1131
前中	-10.1133
復何	-10.1137
析	-10.1137
准	-10.1144
代	-10.1145
為境	-10.1149
室	-10.1149
的	-10.115
仍	-10.1152
賓	-10.1152
登	-10.1152
若汝意謂	-10.1153
揀	-10.1154
交	-10.1156
仁	-10.1156
塞	-10.1157
每	-10.1159
一切種智	-10.1159
九地	-10.1159
防	-10.1163
老子云	-10.1164
進退	-10.1165
果果	-10.1166
妙有	-10.1173
不明	-10.1192
不斷不常	-10.1195
所詮	-10.1199
能為	-10.1206
此名	-10.1207
初生	-10.1209
之無	-10.1212
無盡	-10.1214
則不得	-10.1218
正性	-10.1223
是能	-10.1228
疏云	-10.1231
身子	-10.1232
皆應	-10.1234
無智	-10.1242
皆同	-10.1243
諸部	-10.1243
所計	-10.1246
能說	-10.1259
並皆	-10.1266
實是	-10.129
神力	-10.1295
三有	-10.1307
十信	-10.1311
無合	-10.1314
為顯	-10.1316
仙	-10.1318
答言	-10.1321
楞伽	-10.1324
非物	-10.1328
俱是	-10.1334
次偈	-10.1338
不觀	-10.1338
竭	-10.1339
破外	-10.1339
訓	-10.1342
獲	-10.1343
勉	-10.1344
若先	-10.1344
所不能	-10.1345
研	-10.1346
不可思議	-10.1346
特	-10.1347
功用	-10.1347
不共	-10.1351
同前	-10.1353
知見	-10.1361
住滅	-10.1362
餘法	-10.1368
誰為	-10.137
兩關	-10.1374
八地	-10.1376
相者	-10.1387
更生	-10.1388
顯現	-10.1393
諸業	-10.1396
無方	-10.1404
有不有	-10.1405
未去	-10.1406
青等	-10.1408
不相違	-10.1415
修習	-10.1416
二別	-10.1418
如斯	-10.1425
從此	-10.1429
良	-10.1429
後念	-10.1441
若執	-10.1452
得之	-10.1453
說二諦	-10.1456
舉頌	-10.1456
作論	-10.1461
之辭	-10.1465
本末	-10.1467
寂用	-10.1471
性實	-10.1473
自上已來	-10.1475
下半明	-10.1478
等皆	-10.1479
別釋	-10.1489
宛然而	-10.1491
以破	-10.1496
相成	-10.1514
無性故	-10.1518
之行	-10.1523
文殊	-10.1524
儒	-10.1525
祖	-10.153
不墮	-10.1531
涉有	-10.1533
中實	-10.1536
檢	-10.1537
受想行識	-10.1538
飯	-10.1539
不及	-10.154
履	-10.1542
始得	-10.1548
空花	-10.1549
余	-10.1552
奪破	-10.1557
是實有	-10.1558
不違	-10.1559
為大	-10.1562
正義	-10.1562
地前	-10.1563
而復	-10.157
分明	-10.1571
未知	-10.1573
明佛性	-10.1573
善巧	-10.1579
今云	-10.1582
之處	-10.1587
或有人言	-10.1589
本始	-10.1594
是中道	-10.1604
亦空	-10.1607
成實論	-10.161
三事	-10.1619
釋八不	-10.1626
之妙	-10.1628
而可	-10.1632
成者	-10.1639
宣	-10.164
上句	-10.1642
無可	-10.1653
故不得	-10.1654
四時	-10.1656
於一	-10.166
之論	-10.167
亦不可得	-10.1671
為四	-10.1673
為第一義諦	-10.1674
聞說	-10.1675
今時	-10.1682
聲等	-10.1693
苦諦	-10.1694
無名曰	-10.1695
老氏	-10.1699
語言	-10.1699
習因	-10.1702
實際	-10.1706
方得	-10.1714
之力	-10.1716
意者	-10.1719
而曰	-10.1719
三乘之	-10.1726
所為	-10.1729
星	-10.1733
索	-10.1736
五句	-10.1738
智人	-10.1743
鼻	-10.1744
不應言	-10.1744
因生	-10.1745
貫	-10.1745
木石	-10.1746
賴	-10.1746
非常非無常	-10.1754
後釋	-10.1757
無餘涅槃	-10.1757
此即是	-10.176
頌遣言	-10.1763
父子	-10.1764
非見	-10.1771
心無	-10.1779
不欲	-10.1785
六塵	-10.1786
下云	-10.1789
別故	-10.1793
摩訶	-10.1803
是方便	-10.1804
業果	-10.1815
又言	-10.182
有邊	-10.1821
一切諸	-10.1827
五性	-10.183
未來世	-10.1836
即彼	-10.1842
起於	-10.1844
結破	-10.1845
何以知	-10.1846
中二	-10.1847
上下	-10.1849
見聞	-10.1861
其理	-10.1863
共合	-10.1864
永滅	-10.1876
毛	-10.1917
絕名	-10.1919
次答	-10.1921
時方	-10.1927
有自體	-10.1934
能依	-10.1938
坐	-10.1939
已來	-10.194
尼	-10.1943
赤	-10.1943
慢	-10.1947
文中	-10.1948
何得言	-10.1949
遠法師	-10.195
捨福	-10.1957
嘖	-10.1958
以知	-10.1958
有解	-10.196
增上緣	-10.197
於有無	-10.1977
不和合	-10.1978
色即空	-10.1978
之間	-10.198
即離	-10.1997
上破	-10.1999
可成	-10.2001
雖殊	-10.2008
芽等	-10.2009
初章	-10.2016
本迹	-10.202
勝論	-10.2029
二乘人	-10.203
二於諦	-10.2034
金心	-10.2038
破無	-10.2038
妨	-10.2045
行人	-10.2049
高下	-10.2053
能感	-10.2071
二意	-10.2072
世性	-10.2074
不真空	-10.2076
餘處	-10.2076
之實	-10.2078
破我	-10.2083
廣大	-10.2089
等經	-10.2092
故稱為	-10.2093
理實	-10.2098
諸分	-10.2105
分之	-10.2106
不由	-10.2123
千年	-10.2136
前三	-10.2139
文也	-10.214
可言	-10.2141
有所得人	-10.2142
一雙	-10.2143
兩句	-10.2146
得有	-10.2149
衰	-10.2152
草	-10.2152
離有無	-10.2153
摧	-10.2157
即色	-10.216
斯則	-10.2164
至此	-10.2167
非空非有	-10.2167
色即是空	-10.2169
本住	-10.217
萬化	-10.2171
了悟	-10.2183
妄心	-10.2186
即生	-10.2191
顯事	-10.2198
答前	-10.2199
故稱	-10.2204
涅槃之道	-10.222
此門	-10.2221
經中說	-10.2225
我說	-10.2226
尚無	-10.2232
是知	-10.2234
梵	-10.2249
眼識	-10.225
本空	-10.2251
有多	-10.2259
無自性故	-10.2263
之失	-10.2265
對待	-10.2274
破病	-10.2278
同一	-10.2293
初有	-10.2296
住者	-10.2303
二關	-10.2303
二教	-10.2304
覩	-10.2305
體故	-10.2309
本生	-10.2312
父母	-10.2319
有作者	-10.2328
又初	-10.2336
今亦爾	-10.2341
蒲	-10.235
生因	-10.2357
鹽	-10.2358
初釋	-10.236
餘物	-10.2361
天子	-10.2362
外無	-10.2362
混	-10.2362
常樂我淨	-10.2364
附	-10.2369
減	-10.2369
訖	-10.2372
汎	-10.2376
事理	-10.2381
心生	-10.2382
今論	-10.2384
為用	-10.2387
終日	-10.2388
第一義中有	-10.2389
更復	-10.2389
悉是	-10.2394
強名	-10.2399
卷云	-10.2399
空不空	-10.2401
就文為二	-10.2403
幻有	-10.2406
隱顯	-10.2408
行相	-10.241
教理	-10.2412
或可	-10.2415
智用	-10.2417
敢	-10.2422
四見	-10.243
非緣生	-10.2437
此無	-10.2445
測	-10.2446
不可取	-10.2457
性住	-10.2465
但說	-10.2476
亦不能	-10.2478
而作	-10.2483
為相	-10.2483
品中	-10.2484
實等	-10.2484
生住	-10.2486
值	-10.2488
不可知	-10.2504
一破	-10.2505
因滅	-10.2505
阿毘曇	-10.2506
什法師	-10.2511
言象	-10.2516
巳上	-10.2517
知諸法	-10.2532
法寶	-10.2537
其名	-10.2537
若知	-10.254
化身	-10.2549
生耶	-10.2549
梁	-10.255
知無知	-10.2556
正為	-10.2559
朋	-10.2567
一是	-10.2573
梵志	-10.2573
姓	-10.2578
消	-10.258
狹	-10.258
油	-10.2584
為難	-10.2585
非二非不二	-10.2586
淪	-10.2586
曲	-10.2588
意識	-10.2597
肇法師	-10.2597
不能見	-10.2598
若言其	-10.2599
不常不斷	-10.2599
法華經	-10.2603
佛地	-10.261
之病	-10.2611
涅槃者	-10.2613
汝若	-10.2614
在因	-10.2614
亦非有	-10.2614
舊云	-10.2616
因名	-10.2619
上半牒	-10.262
無常故	-10.2625
初發心	-10.2629
道者	-10.2639
學者	-10.2645
非一向	-10.2646
心為	-10.2654
前念	-10.2655
知無	-10.2661
已說	-10.2669
應物	-10.267
色陰	-10.2672
涅槃云	-10.2676
止遣	-10.2678
不可得故	-10.2693
邪正	-10.2699
如夢	-10.27
今初	-10.2723
有眾生	-10.2733
虛假	-10.2733
若依	-10.274
無畏	-10.2752
妙契	-10.2752
是所	-10.2753
彼經	-10.2756
難解	-10.2757
滅諦	-10.2758
犢子	-10.2758
羣	-10.2768
不吉	-10.2771
大小乘	-10.2772
第	-10.2782
四偈	-10.2782
色法	-10.2785
卦	-10.2785
雙非	-10.2788
今且	-10.2793
遠公	-10.2795
沈	-10.2798
大慧	-10.2799
州	-10.28
丈六	-10.28
尺	-10.2801
網	-10.2801
曠	-10.2801
意在	-10.2802
幸	-10.2804
本性空	-10.2805
如佛	-10.2806
茲	-10.2811
四絕	-10.2812
果法	-10.2814
唯是	-10.2821
複假	-10.2823
雙結	-10.2824
名諦	-10.2831
二事	-10.2832
中道也	-10.2837
譬喻無體	-10.284
毒	-10.2842
如一	-10.2849
答上	-10.2851
善不善	-10.2858
汝宗	-10.2863
成瓶	-10.2869
而知	-10.288
心法	-10.2885
即涅槃	-10.2886
觀者	-10.289
覺慧	-10.2892
此土	-10.2903
正意	-10.2905
應成	-10.2906
與他	-10.2909
中亦無	-10.2912
四倒	-10.2923
即事	-10.2935
不顛倒	-10.2942
破有無	-10.2944
論也	-10.2952
為權	-10.2957
非正	-10.2959
中有二	-10.2961
唯有一	-10.2965
得悟	-10.297
品初	-10.2976
有名曰	-10.2981
是真實	-10.2993
斷伏	-10.2999
失於	-10.3001
今昔	-10.3004
得菩提	-10.3018
人言	-10.3018
薄	-10.3021
有力	-10.3022
長者	-10.3023
降	-10.3025
假生	-10.3028
無煩惱	-10.3028
於佛	-10.3029
復言	-10.303
博	-10.303
頃	-10.3032
穢	-10.3032
赴	-10.3036
括	-10.3036
煖	-10.3036
寒	-10.3037
身見	-10.304
試	-10.304
汝執	-10.3042
為說	-10.3044
無量劫	-10.3049
麻	-10.3052
次二句	-10.3054
佛告	-10.3055
作者作業	-10.3056
亦異	-10.3056
五根	-10.3056
在後	-10.3061
從眾緣生	-10.3062
至理	-10.3065
若無有	-10.3066
相與	-10.3068
稟教	-10.3072
實非	-10.3074
亦應爾	-10.3075
問云	-10.3077
方是	-10.3079
果起	-10.3083
申佛	-10.3084
第四句	-10.3086
用之	-10.3091
謂情	-10.3094
▁「	-10.3098
昔物	-10.3102
無去來	-10.3106
若有若無	-10.3108
龍樹菩薩	-10.3109
內有	-10.3109
以理	-10.3111
自心	-10.3112
但言	-10.3117
一名	-10.3117
無所不知	-10.3117
惡見	-10.3117
謂以	-10.313
有定性	-10.3131
於眾生	-10.3131
亦破	-10.3136
三身	-10.3149
三十	-10.315
正難	-10.3156
後破	-10.3157
地論	-10.3167
二家	-10.3177
智體	-10.3177
亦不應	-10.3179
出因	-10.3183
此義不然	-10.319
即便	-10.3192
有何過	-10.3208
定執	-10.3214
初敘	-10.3217
正釋	-10.3221
具云	-10.3222
之稱	-10.3223
當時	-10.3226
般若無知	-10.3226
力能	-10.3234
成故	-10.3246
豈能	-10.325
不常	-10.3253
兒	-10.3255
逼	-10.326
佛身	-10.326
之內	-10.3262
欲滅	-10.3264
般涅槃	-10.3266
破外人	-10.3269
左	-10.327
明了	-10.3284
愚夫	-10.3285
不過	-10.3286
來者	-10.3288
非唯	-10.3289
躡前	-10.329
便有	-10.3297
是俗	-10.3299
菩薩行	-10.3301
釋偈本	-10.3301
滅法	-10.3303
不應說	-10.3314
大宗	-10.3318
而立	-10.3324
六情	-10.3337
無方便	-10.3346
於他	-10.3355
。】	-10.3359
有二諦	-10.3372
劫初	-10.3374
便成	-10.3379
若諸法	-10.3381
破法	-10.3384
有為空	-10.3385
一切物	-10.3386
名生	-10.3391
正論	-10.3395
不生故	-10.3399
即不	-10.3414
應如是	-10.3419
以何為	-10.3419
信受	-10.342
三業	-10.3424
於凡	-10.3427
皆從	-10.3428
一剎那	-10.3431
外道計	-10.3434
二諦義	-10.3441
由來	-10.3447
離相	-10.3449
時分	-10.3453
地獄	-10.3464
今文	-10.3469
若爾者	-10.3469
作此說	-10.3471
後句	-10.3476
示現	-10.3477
一性	-10.3478
淡	-10.3479
或謂	-10.3491
術	-10.3493
太虛	-10.3493
浮虛	-10.3496
憶	-10.3496
黃	-10.3497
諸眾生	-10.3498
詣	-10.35
點	-10.3503
昇	-10.3504
寫	-10.3504
嘆	-10.3504
增上	-10.3506
咸	-10.3507
覓	-10.3511
亦非無	-10.3512
廓	-10.3513
合者	-10.3515
是二	-10.3516
於理	-10.3517
通論	-10.352
還成	-10.3524
以見	-10.3532
畫	-10.3532
即顯	-10.3545
菩薩思惟	-10.3545
破立	-10.3547
非第一義	-10.3559
有非有	-10.356
離色	-10.3564
障礙	-10.3565
繫縛	-10.3568
證有	-10.3572
比知	-10.3572
開為	-10.3576
結使	-10.3581
三位	-10.3583
十五	-10.359
難言	-10.3592
簡異	-10.3595
方有	-10.3601
妙存	-10.3605
即失	-10.3606
或復	-10.3608
因性	-10.3609
為其	-10.3611
文言	-10.3612
不聞	-10.3614
豈曰	-10.3615
空無	-10.3617
與果	-10.3622
此為	-10.3623
正答	-10.3624
如先	-10.3624
四依	-10.3646
是謂	-10.3651
之徒	-10.3653
能滅	-10.3657
傾	-10.3657
六入	-10.3663
有所成	-10.3665
煩	-10.3678
若為	-10.3681
攝論	-10.3682
已破	-10.3684
寂滅相	-10.3686
兩偈	-10.3687
三明	-10.3691
非法	-10.3692
本際	-10.3699
擊	-10.3708
佛為	-10.3709
巳下	-10.3713
鬼	-10.3718
諸陰	-10.3719
法喻	-10.3729
繩	-10.3729
慕	-10.3731
兩義	-10.3733
能了	-10.3735
何人	-10.3741
內法	-10.3742
因緣品	-10.3743
限	-10.3743
非智	-10.3745
檀	-10.3746
局	-10.3746
焰	-10.3747
於色	-10.3747
瞋	-10.3749
因不成	-10.3749
朝	-10.3749
三乘人	-10.375
魚	-10.3751
潤	-10.3753
朗	-10.3753
淨名經	-10.3755
染染者	-10.3756
噵	-10.3756
為顯此義	-10.376
執無	-10.3761
今謂不然	-10.3769
空無我	-10.3772
為門	-10.3773
愛見	-10.3774
東西	-10.3776
無執	-10.3776
又前	-10.3778
為能	-10.378
不假	-10.378
東方	-10.3785
非異	-10.3786
何為	-10.3792
凡有二義	-10.3796
於心	-10.3797
無窮過	-10.3799
非道	-10.3803
破內	-10.3805
為生	-10.3805
無生忍	-10.3809
先已說	-10.3821
正果	-10.3821
名為涅槃	-10.3821
可滅	-10.3826
共許	-10.3827
有三義	-10.3829
未悟	-10.3833
不礙	-10.3833
自是	-10.3838
而云	-10.3839
第三句	-10.3842
常樂	-10.3842
時無	-10.3843
真是	-10.3848
一身	-10.3849
受用	-10.3857
或云	-10.3861
之知	-10.3863
初門	-10.3871
起信	-10.3872
第一明	-10.3875
身根	-10.3877
不異故	-10.3882
虗無	-10.3886
為對	-10.3896
此約	-10.3897
其中	-10.3913
為性	-10.3926
之情	-10.3932
名言	-10.3937
有礙	-10.3938
二諦是	-10.3944
因緣和合	-10.3949
思議	-10.3949
一諦	-10.3954
今日	-10.3963
現有	-10.3968
有緣	-10.3969
不入	-10.3969
身智	-10.3974
長安	-10.3974
伽	-10.3988
付	-10.399
相望	-10.399
孤	-10.3991
發生	-10.3992
客	-10.3995
蒙	-10.3995
庶	-10.3996
忽	-10.3998
提婆達多	-10.3998
孔子	-10.3999
中觀論疏卷第	-10.4001
呪	-10.4001
鹿	-10.4002
牽	-10.4003
□□□	-10.4006
此因	-10.4007
大等	-10.4008
便應	-10.4008
淨不淨	-10.4008
不乖	-10.4009
單假	-10.4019
照空	-10.4019
心行	-10.4021
券	-10.4026
見諸法	-10.4035
四聖諦	-10.4035
承前	-10.4045
虛空等	-10.4048
為眾生	-10.4052
而常	-10.4059
受名	-10.406
不妨	-10.4064
有六	-10.4068
十力	-10.4068
則生	-10.4074
今還	-10.4078
兩種	-10.4078
四法	-10.4081
虗妄	-10.4082
五乘	-10.4082
一切時	-10.4093
了達	-10.4095
此顯	-10.4097
絕言	-10.41
以喻	-10.4109
破性	-10.4109
情塵	-10.4119
之宗	-10.4129
從生	-10.4131
尚不	-10.4135
作是說	-10.4139
壞故	-10.415
利他	-10.4151
有去者	-10.4153
非是無	-10.4157
離於	-10.4159
自在天	-10.4162
斯論	-10.4163
起滅	-10.4166
眼所見	-10.4169
解者	-10.417
作作者	-10.4178
共有	-10.418
他家	-10.418
十善	-10.4181
毫	-10.4183
所欲	-10.4184
不異者	-10.4188
異耶	-10.419
愚者	-10.4191
後果	-10.4193
所表	-10.4193
停	-10.4194
有作	-10.4195
顯正	-10.4197
解惑	-10.4201
過患	-10.4204
三釋	-10.4207
色界	-10.4208
而去	-10.421
性也	-10.4213
心不	-10.4213
悉檀	-10.4215
其事	-10.4218
世閒	-10.4219
復是	-10.422
時節	-10.4221
是故今	-10.4222
信解	-10.4223
能造	-10.4224
他人	-10.4224
假緣	-10.4226
前難	-10.423
漢	-10.4231
澄	-10.4236
阿難	-10.4238
甞	-10.424
封	-10.4249
促	-10.425
予	-10.425
迦旃延	-10.4253
飛	-10.4253
皆非	-10.4254
此上	-10.4254
狂	-10.4257
敗	-10.4257
怖	-10.4257
疲	-10.4258
No	-10.4261
覈	-10.4261
真心	-10.4263
見他	-10.4271
顯理	-10.4271
則一切	-10.4271
令眾生	-10.4272
能詮	-10.4272
生義	-10.4273
生可生	-10.4278
欲顯	-10.4284
十種	-10.4287
色非	-10.4296
一味	-10.4296
因此	-10.4301
依二諦說法	-10.4309
七日	-10.4314
已成	-10.4315
知其	-10.432
於緣	-10.4321
無身	-10.4323
即前	-10.4324
緣故	-10.4328
一生	-10.4336
種類	-10.4337
餘人	-10.4344
非果	-10.4345
如文	-10.4347
非有也	-10.435
宗也	-10.4352
目之為	-10.4358
四微	-10.4361
善行	-10.4362
若未	-10.437
神覺	-10.437
良以	-10.4372
何義	-10.4373
何等是	-10.4374
非理	-10.4379
證得	-10.4386
太虗	-10.4387
緣合	-10.4393
住於	-10.4395
不即	-10.4402
若滅	-10.4409
不成就	-10.4409
非眾生	-10.4414
斷或	-10.4417
論旨	-10.4421
心數	-10.4422
雖言	-10.4436
彼說	-10.4438
雖然	-10.444
云何是	-10.4442
寧得	-10.4444
智論	-10.4444
觀空	-10.4446
我亦	-10.4447
既稱	-10.4452
大方	-10.4453
住法	-10.4458
實不	-10.4464
七者	-10.4474
是義	-10.4477
非知	-10.4477
仁王經	-10.4482
若生	-10.4487
大論云	-10.4487
佛所說	-10.4489
一瓶	-10.4495
又彼	-10.4496
申正	-10.4501
谷	-10.4501
紛	-10.4501
龜毛	-10.4504
宮	-10.4506
弱	-10.4508
成論師	-10.4508
富	-10.4513
階級	-10.4513
靡	-10.4514
鑑	-10.4516
預	-10.4518
揚	-10.4522
樞	-10.4523
內無	-10.4525
萬德	-10.4535
既不成	-10.4536
方言	-10.4542
求那	-10.455
牒外義	-10.4551
複中	-10.4552
龍光	-10.4553
後二	-10.4555
應捨	-10.456
難意	-10.456
念念滅	-10.4564
難測	-10.4569
若作	-10.4569
為佛	-10.4569
論釋	-10.4571
要須	-10.4572
叡師	-10.4576
入於	-10.4576
自見	-10.4577
說此	-10.4577
為人	-10.4579
初章名	-10.4584
有大	-10.4585
若此	-10.4586
彼人	-10.4586
未生時	-10.4589
別立	-10.459
若欲	-10.46
名為中道	-10.46
失二諦	-10.4624
漏	-10.4625
義得成	-10.4634
皆名	-10.4646
分別者	-10.4647
六十	-10.4649
不化	-10.4653
苦樂等	-10.4655
頌中	-10.466
即是涅槃	-10.466
非離	-10.4665
見佛性	-10.4665
大海	-10.4674
非作	-10.4675
聞者	-10.468
著有	-10.4686
是生	-10.4692
若破	-10.4693
照有	-10.4697
說三	-10.4715
從緣起	-10.472
不改	-10.4723
初中後	-10.4731
察	-10.4735
受生	-10.4744
諸法空	-10.4751
此就	-10.4757
有八	-10.4758
是當	-10.4759
同是	-10.476
今依	-10.4763
異名	-10.4765
政	-10.4769
○	-10.477
緣果	-10.4771
不生果	-10.4772
此正	-10.4773
視	-10.4777
􂲹	-10.4779
唐	-10.4783
枝	-10.4784
遺民	-10.4784
本不生	-10.4785
云何為	-10.4785
考	-10.4786
狀	-10.4787
男女	-10.4787
奇	-10.4787
曇	-10.4788
垂	-10.4789
分為	-10.4792
怪	-10.4796
為中	-10.4805
天人	-10.4806
非有故	-10.4807
俱非	-10.4813
何法	-10.4814
所以不	-10.4819
玄旨	-10.4823
非定	-10.4824
外人云	-10.4825
以辨	-10.4825
證真	-10.4828
問何以知	-10.4829
實慧	-10.4831
真體	-10.4832
為俗	-10.4833
能斷	-10.4836
唯識	-10.4838
心體	-10.484
一部	-10.4842
莊子云	-10.4842
非非	-10.4846
度眾生	-10.4847
所能	-10.4847
有三段	-10.4852
有成	-10.4854
出入	-10.4857
第三明	-10.486
若約	-10.4862
又釋	-10.4867
遍計	-10.4871
根塵	-10.4881
梵行	-10.4887
人見	-10.4889
以果	-10.4899
得於	-10.49
因緣生法	-10.4907
新故	-10.4911
二用	-10.4914
撥無	-10.4916
而應	-10.4924
般若之	-10.4928
無自體故	-10.493
即是中道	-10.4934
三諦	-10.4938
實教	-10.4939
撥	-10.494
空解	-10.4942
不應理	-10.4942
非是有	-10.4943
故今明	-10.4944
止息	-10.4946
雖異	-10.4947
入空	-10.4948
無依	-10.4949
不存	-10.4956
有方分	-10.4958
半偈	-10.4959
從因緣	-10.496
下第二明	-10.4962
是第一義	-10.4966
理內外	-10.4969
真境	-10.4974
咎	-10.4975
私	-10.4976
境也	-10.4976
為道	-10.4978
叡	-10.4979
而已	-10.4985
者第二	-10.4987
出世間	-10.4987
復云	-10.4988
未變	-10.4991
之表	-10.4992
貪等	-10.4993
破常	-10.4995
俱生	-10.4997
會通	-10.4998
出離	-10.5013
未嘗	-10.5014
皆不可得	-10.5019
釋經	-10.5026
是故不應	-10.5028
篇	-10.5032
寂也	-10.5038
下明	-10.5047
哀	-10.5049
須陀洹	-10.5053
為佛性	-10.5056
無取	-10.5059
懺悔	-10.506
熏	-10.5061
賊	-10.5061
在前	-10.5061
席	-10.5062
乾	-10.5063
攝一切	-10.5063
常義	-10.5064
佛滅度後	-10.5065
體非	-10.5066
友	-10.5067
充	-10.5069
專	-10.5069
恩	-10.507
夏	-10.5071
根境	-10.5072
製	-10.5073
今物	-10.5074
方便說	-10.5076
有為有	-10.5083
終是	-10.5088
如前所說	-10.509
今亦	-10.5093
五蘊	-10.5101
精進	-10.5105
中三	-10.5106
是苦	-10.5111
三無性	-10.5111
氏	-10.5116
能立	-10.5116
破空	-10.5117
是瓶	-10.5119
於二諦	-10.5121
後心	-10.5127
明其	-10.5128
則不成	-10.513
諦智	-10.5132
知會	-10.5133
經明	-10.5136
佛智	-10.5144
於物	-10.5158
今復	-10.5159
未始	-10.5164
由彼	-10.5165
三十心	-10.5165
果也	-10.5166
此結	-10.5167
合成	-10.517
上品	-10.517
通破	-10.5172
作如是說	-10.5176
等覺	-10.5177
有如來	-10.5182
是一邊	-10.5187
滅不滅	-10.5187
如先說	-10.5192
無際	-10.5193
因法	-10.5193
牒前	-10.5194
不戲論	-10.52
為物	-10.5201
六識	-10.5201
非有為	-10.5204
初發	-10.5212
之前	-10.5218
二境	-10.5226
法起	-10.5229
神明	-10.523
緣性	-10.523
及彼	-10.5234
聖道	-10.5241
汝義	-10.5249
即以	-10.525
於我	-10.5251
以法	-10.5251
則不可	-10.5254
廣釋	-10.5255
愚人	-10.5256
別明	-10.5259
非所	-10.526
等是	-10.5263
如如	-10.5267
今但	-10.527
破因緣	-10.5272
二分	-10.5273
如火	-10.5274
惡止	-10.5276
常情	-10.5276
我宗	-10.5279
結責	-10.5285
應云	-10.5285
初心	-10.5286
神知	-10.5287
住時	-10.5296
故前	-10.5306
波羅蜜	-10.5324
體中	-10.5326
倍	-10.5332
大乘經	-10.5336
第二破	-10.5341
鄙	-10.5342
昏	-10.5343
毗	-10.5345
取其	-10.5346
洞	-10.5346
斫	-10.5346
心心數法	-10.5347
尤	-10.5347
開為二	-10.5348
怖畏	-10.5351
拘	-10.5351
般若燈論	-10.5354
舒	-10.5356
五百部	-10.5359
是何	-10.536
六法	-10.5363
義中	-10.5364
今大乘明義	-10.5366
拂	-10.5366
真俗二諦	-10.5366
陶師	-10.5367
住處	-10.5371
損益	-10.5372
道行	-10.5373
之能	-10.5379
來去	-10.538
所宗	-10.538
智斷	-10.5386
後辨	-10.5387
為眾生故	-10.5389
周遍	-10.5389
為瓶	-10.5391
無有實	-10.5391
內道	-10.5391
方為	-10.5395
世諦中道	-10.5401
果故	-10.5405
出現	-10.5405
何必	-10.5406
文義	-10.5408
通於	-10.5409
絕四句	-10.5412
肇論	-10.5417
非涅槃	-10.5418
復次下	-10.5418
化眾生	-10.542
所化	-10.5421
三品	-10.5422
虛妄分別	-10.5424
非空	-10.5427
入道	-10.5428
無境	-10.5432
能發	-10.5435
若論	-10.5436
單中	-10.5438
非心	-10.5442
慧眼	-10.5445
有淺深	-10.5448
若成	-10.5449
起見	-10.545
呵責	-10.5451
皆以	-10.5455
前偈	-10.5457
復次第一義中	-10.546
有合	-10.547
於果	-10.5474
同歸	-10.5476
自住	-10.5477
易知	-10.5499
可名	-10.5501
未曾有	-10.5502
空寂	-10.5505
以觀	-10.5507
破壞	-10.5507
大小乘人	-10.5512
並照	-10.5512
故大品經	-10.5518
上半明	-10.5519
乞	-10.5519
於一切法	-10.5519
證也	-10.5527
中求	-10.5528
了別	-10.5528
我與	-10.553
違害	-10.5531
詮表	-10.5532
眾師	-10.5532
一數	-10.5535
略破	-10.5536
觀之	-10.5544
證理	-10.5544
若從	-10.5548
文三	-10.5548
破云	-10.5549
從他	-10.5551
學人	-10.5552
若復	-10.5553
二諦者	-10.5561
是其	-10.5561
徵釋	-10.5562
四家	-10.5567
不悟	-10.557
見等	-10.5572
彼宗	-10.5575
扶	-10.5577
即名	-10.5578
三人	-10.5579
又有	-10.5581
能通	-10.5585
佛語	-10.5587
敵	-10.5587
兩教	-10.559
自起	-10.5595
義則不然	-10.5596
若立	-10.5597
複	-10.5608
無成	-10.5612
如虗空	-10.5613
擇	-10.5615
前文	-10.5617
非我	-10.5618
若許	-10.5619
謙	-10.5622
躡	-10.5626
雅	-10.5628
真一	-10.563
於法	-10.5634
不生者	-10.5636
寂然	-10.5636
浮	-10.5641
略示	-10.5642
遍計所執	-10.5643
財物	-10.5644
童子	-10.5645
千里	-10.5646
但應	-10.5647
起作	-10.5648
配	-10.5648
臨	-10.5648
詠	-10.565
恨	-10.5652
纏	-10.5652
過去時	-10.5652
△	-10.5653
作如是言	-10.5653
秦主	-10.5654
撰	-10.5655
不轉	-10.5657
性空故	-10.5657
胎	-10.5658
真性	-10.5659
果中	-10.5665
答中	-10.5667
真偽	-10.5667
教意	-10.5669
彼岸	-10.567
眾緣和合	-10.5674
來也	-10.5674
是俗諦	-10.5675
不遷之	-10.568
不顯	-10.5681
與前	-10.5686
是以聖人	-10.5692
因緣所生法	-10.5697
身口	-10.5699
最上	-10.5699
有病	-10.5701
觀色	-10.5701
流動	-10.5704
萬有	-10.5706
不曾	-10.5708
皆為	-10.571
此空	-10.5711
共成	-10.5711
動寂	-10.5712
於後	-10.5715
如此等	-10.5718
無常者	-10.572
爾者	-10.5721
略釋	-10.5728
去者去	-10.5728
瓶體	-10.573
離諸	-10.5737
故無有	-10.5741
與我	-10.5743
大種	-10.5744
陀羅	-10.5745
今說	-10.5749
論初	-10.5759
名體	-10.5759
一邊	-10.5759
外別有	-10.5762
明空	-10.5765
有餘無餘	-10.5768
能除	-10.5773
明涅槃	-10.5775
動而	-10.5777
果名	-10.5786
聞之	-10.5802
有無二	-10.5802
一佛乘	-10.5802
一類	-10.5804
覺知	-10.5806
心識	-10.5809
苦集	-10.5811
佛性者	-10.5813
標宗	-10.5816
性地	-10.5827
隨眾生	-10.5828
於今	-10.583
作緣	-10.5832
宗中	-10.5843
無象	-10.5843
縱破	-10.5847
二身	-10.5854
示之	-10.5855
失也	-10.5858
有業	-10.5858
然彼	-10.5859
何得有	-10.5864
照用	-10.5866
先破	-10.5871
表理	-10.5871
四結	-10.588
同無	-10.5881
方能	-10.5883
依世俗	-10.5883
非俗	-10.5884
而來	-10.5888
為因者	-10.589
只是一	-10.5897
是境	-10.5901
例破	-10.5906
遠近	-10.5908
一牒	-10.5908
隣	-10.5912
受果	-10.5913
無有異	-10.5915
行解	-10.5919
非道理	-10.592
兵	-10.5921
有自體者	-10.5929
迎	-10.5931
逈	-10.5935
舊義	-10.5936
惟	-10.5942
既同	-10.5943
包	-10.5944
來意	-10.5945
六波羅蜜	-10.5946
馳	-10.5947
濁	-10.5948
麥	-10.595
閑	-10.5951
拆	-10.5952
廣明	-10.5954
皆失	-10.5956
二俱不然	-10.5958
貪著	-10.5958
佗	-10.5959
非彼	-10.596
作苦	-10.596
論宗	-10.5962
獨存	-10.5963
生無生	-10.5969
就初	-10.5971
因中先有果	-10.5973
雖無而有	-10.5973
七種	-10.5975
梨耶	-10.5977
一切世間	-10.5978
始生	-10.5979
已後	-10.5981
是故有	-10.5981
生死中	-10.5982
色等法	-10.5982
有別	-10.5983
無異故	-10.5988
其道	-10.5989
性有無	-10.5989
反照	-10.5991
異見	-10.6
生滅無生滅	-10.6001
謂諸法	-10.6002
不能知	-10.6004
所問	-10.6006
如有	-10.6007
此皆	-10.6008
五時	-10.6009
歎曰	-10.601
假人	-10.6011
但見	-10.6014
釋義	-10.6027
不自生	-10.603
以來	-10.6043
有無之	-10.6045
所燒	-10.6052
故非有	-10.6058
造色	-10.6059
兩捨	-10.6063
偈破	-10.6064
非後	-10.6072
前已	-10.6072
古人	-10.6074
不燒	-10.6075
論義	-10.6075
有無等	-10.6077
應會	-10.6082
解也	-10.6084
等義	-10.6091
十二門論	-10.6092
所由	-10.6094
佛乘	-10.6098
既破	-10.6105
依何	-10.6114
或時	-10.6121
著空	-10.6126
昔人	-10.6128
心中	-10.6143
皆由	-10.6148
過者	-10.6148
之異名	-10.6156
苦行	-10.6167
四重	-10.6169
是菩薩	-10.6169
過於	-10.6176
異類	-10.6177
將欲	-10.618
所顯	-10.6186
其本	-10.6188
之大	-10.6188
得意	-10.6189
無名相	-10.6189
辨之	-10.6199
無知者	-10.62
衛世	-10.6201
釋前	-10.6202
如瓶	-10.6203
堪	-10.6206
是故汝	-10.6216
大苦	-10.6216
所以有	-10.6222
空色	-10.6224
戲	-10.6228
後一	-10.6231
座	-10.6237
初一	-10.6239
姚興	-10.6244
是時	-10.6247
從他生	-10.6253
謂此	-10.6254
迦	-10.6256
有如是	-10.6257
見道	-10.6259
譏	-10.6259
但釋	-10.626
調	-10.626
今何故	-10.626
肉	-10.626
五百年	-10.6261
頗	-10.6262
有三相	-10.6263
西域	-10.6263
斷無	-10.6264
所立宗	-10.6266
憶念	-10.6267
昔物不至今	-10.6269
自立	-10.627
名涅槃	-10.6273
為所	-10.6274
純	-10.6274
任運	-10.6274
破邪顯正	-10.6275
更不	-10.6281
竝是	-10.6281
權實二智	-10.6283
善吉	-10.6284
二緣	-10.6284
不出有無	-10.6287
雖有而無	-10.6287
此彼	-10.6288
與瓶	-10.629
若先有	-10.629
初總	-10.6292
以通	-10.6292
果地	-10.6293
亦通	-10.6295
不俗	-10.6299
具如	-10.6299
還復	-10.6302
我為	-10.6303
所歸	-10.6305
即能	-10.6315
牒八不	-10.6317
是理	-10.6319
厭離	-10.632
能得	-10.632
無蹤	-10.6323
有體無體	-10.6324
於是	-10.6328
所疑	-10.6328
正顯	-10.6331
引經證	-10.634
無神	-10.6341
自照	-10.6342
亦復不	-10.6342
若瓶	-10.6346
假設	-10.6346
已上	-10.6347
十方諸佛	-10.635
明有	-10.6355
亦具	-10.6355
自利	-10.6363
品末	-10.6364
此三種	-10.6365
先已	-10.6366
色是	-10.6367
對上	-10.637
云何乃	-10.6373
此二句	-10.6375
頌曰	-10.6376
正教	-10.6376
名教	-10.6378
亦言	-10.6378
亦無體	-10.6378
後方	-10.6381
中觀論	-10.6381
後得	-10.6382
因緣者	-10.6383
若非	-10.6383
像法	-10.6383
救上	-10.6384
於前	-10.6387
譬說	-10.6392
亦二	-10.6393
實體	-10.6394
滅已	-10.6399
成於	-10.6411
為非	-10.6411
問既	-10.6417
未了	-10.6425
所觀	-10.6427
道諦	-10.6431
解脫者	-10.6432
其文	-10.6432
悲者	-10.6442
我當	-10.6443
之談	-10.6445
破申	-10.6448
一切有為	-10.6449
初後	-10.6449
門中	-10.645
又上	-10.6453
有煩惱	-10.6471
幻化	-10.6473
知也	-10.6475
傍正	-10.6477
正智	-10.6478
無處	-10.6478
死有	-10.6481
則違	-10.6485
報身	-10.6487
義理	-10.6487
即滅	-10.6488
有身	-10.6489
非他	-10.6489
緣中	-10.6491
集諦	-10.6502
於涅槃	-10.651
各住	-10.651
應之	-10.651
是緣	-10.6512
名為正	-10.6513
二諦也	-10.6518
夫論	-10.6521
觀照	-10.6526
頭足	-10.653
非因緣	-10.6535
是教	-10.654
次辨	-10.6544
人之	-10.6544
破彼	-10.6546
不別	-10.6554
如理	-10.6557
言語	-10.6561
答彼	-10.6564
伐	-10.6566
非想	-10.6567
軍	-10.6572
佛意	-10.6572
虎	-10.6572
非一非異	-10.6573
佛法中	-10.6573
野	-10.6575
大眾部	-10.6579
生不生	-10.658
嘿	-10.658
評	-10.6581
飲	-10.6582
翻為	-10.6583
非有非不有	-10.6583
單複	-10.6585
右	-10.6585
我立	-10.6585
有常	-10.6588
章云	-10.6589
恒沙	-10.6589
淳	-10.659
然即下	-10.6591
此中立驗	-10.6591
束	-10.6591
葉	-10.6593
朕	-10.6593
而不知	-10.6595
擇滅	-10.6596
二俱有過	-10.6596
第二科	-10.6597
今取	-10.6598
有何咎	-10.6599
題目	-10.66
真諦中道	-10.6605
假俗	-10.6605
二十五諦	-10.6605
之難	-10.6607
非因果	-10.6608
似有	-10.6609
本自不生	-10.661
雖說	-10.6611
證涅槃	-10.6612
病故	-10.6613
人無	-10.6617
八者	-10.6618
若如是者	-10.6622
行行	-10.6625
若得	-10.6625
都盡	-10.6629
空空	-10.6633
如汝所說	-10.6633
教化	-10.6633
常遍	-10.6634
無為無	-10.6636
八倒	-10.6638
外國	-10.6644
瓶衣	-10.6646
縱有	-10.6655
思量	-10.6655
五陰中	-10.6656
無色界	-10.6656
其意	-10.6662
更說	-10.6663
眾聖	-10.6663
妙悟	-10.6673
五道	-10.6677
出有無	-10.6678
生公	-10.668
汝雖	-10.6684
之域	-10.6689
自破	-10.6692
分段	-10.6693
泥中	-10.6695
以空為	-10.6696
下結	-10.6697
得言	-10.6698
謂彼	-10.6714
性無性	-10.6717
即墮	-10.6717
一劫	-10.6718
色等諸法	-10.6719
脩行	-10.6725
若聞	-10.6728
離五陰	-10.673
下文	-10.6733
具破	-10.6739
故不可	-10.6739
聖言	-10.674
惑智	-10.6751
釋者	-10.676
放光云	-10.6761
門者	-10.6761
是虛妄	-10.6763
不滯	-10.6764
造化	-10.6766
直明	-10.6767
宣說	-10.6769
若言無	-10.6774
破異	-10.6778
無所見	-10.6782
問前	-10.6784
相反	-10.6789
心者	-10.679
故論云	-10.6794
共知	-10.6803
眾多	-10.6806
與外道	-10.6812
身中	-10.6822
。《	-10.6822
者即是	-10.6824
若我	-10.6825
亦應然	-10.6828
有四句	-10.6829
成實師	-10.683
三聚	-10.6832
觀因緣	-10.6844
智能	-10.6845
錯	-10.6845
但約	-10.6846
顛倒故	-10.6849
由有	-10.685
大眾	-10.685
前識	-10.6853
愍	-10.686
照境	-10.6862
之極	-10.6864
薩婆若	-10.6864
根性	-10.6872
青黃	-10.6874
妄見	-10.6878
計我	-10.6878
不例	-10.6883
非無也	-10.6885
位中	-10.6889
空見	-10.689
不應生	-10.689
上半破	-10.6892
為斷	-10.6898
放	-10.6903
悅	-10.6905
所辨	-10.6905
仲尼	-10.6906
孔	-10.6907
史	-10.6912
毘婆沙	-10.6913
應見	-10.6914
池	-10.6915
以前	-10.6915
按	-10.6916
奉	-10.6916
腹	-10.6917
投	-10.6917
康	-10.6917
津	-10.6919
本自	-10.6921
梵王	-10.6923
與今何異	-10.6924
攀緣	-10.6924
脩習	-10.6924
汝以	-10.6924
不仁	-10.6927
啟	-10.6928
總明	-10.6932
儒童	-10.6932
先世	-10.6935
遍不遍	-10.6936
禪定	-10.6936
次一偈	-10.6938
瓶衣等	-10.6938
釋論云	-10.6939
昔日	-10.6939
果有	-10.6943
則無因	-10.6944
欲示	-10.6945
遷流	-10.6948
麁細	-10.6948
以有無	-10.6948
了了	-10.6948
正宗	-10.6953
維摩	-10.6955
歸一	-10.6955
安樂	-10.6957
凡有二種	-10.6958
顯道	-10.6959
之始	-10.696
為凡	-10.6963
亦滅	-10.6965
以有為	-10.6966
與此	-10.6968
國土	-10.6969
乘體	-10.6974
今舉	-10.6978
得解	-10.6979
自部人	-10.698
因緣法	-10.6985
空即	-10.6988
天王	-10.6991
當果	-10.6991
我等	-10.6993
更無別	-10.6994
相貌	-10.7
二諦教	-10.7003
若不爾	-10.7007
合時	-10.7007
無說	-10.7008
亦以	-10.701
又三	-10.7013
為正因佛性	-10.7015
眾生有佛性	-10.7018
自性空	-10.7023
因緣空	-10.7028
善業	-10.7028
易云	-10.7028
假無	-10.7029
緣非緣	-10.703
色性	-10.7036
如水	-10.7036
體異	-10.7038
實不實	-10.7041
非二	-10.7042
無別異	-10.7045
阿毘曇人	-10.705
有二過	-10.7056
論師云	-10.706
釋中	-10.7072
得成佛	-10.7081
四緣生	-10.7082
色因	-10.7084
外謂	-10.7084
無患	-10.7084
至佛	-10.7086
開宗	-10.7093
以無為	-10.7094
玄道	-10.7105
二約	-10.7107
此有無	-10.7109
故就	-10.7111
亦說	-10.7112
波若無知	-10.7117
三無為	-10.7118
緣生故	-10.712
貌	-10.7122
亦復無	-10.7123
中為二	-10.7124
空觀	-10.7126
互相違	-10.7127
我是	-10.7128
隨義	-10.713
若了	-10.7131
感應義	-10.7135
無因果	-10.7136
無生法忍	-10.7137
可了	-10.7137
頌破	-10.7139
化生	-10.714
麁果	-10.7143
即是實相	-10.7143
窮盡	-10.7146
易見	-10.7148
但取	-10.7149
三十二	-10.7152
今為	-10.7153
以證	-10.7154
具明	-10.716
義云	-10.716
是無記	-10.7164
致問	-10.7165
未成	-10.7172
問今	-10.7173
以下	-10.7174
又曰	-10.7175
弗	-10.7177
不俱	-10.7179
常寂	-10.718
說涅槃	-10.7183
乃有	-10.7187
作意	-10.7191
則無所	-10.7192
借名	-10.7192
兩品	-10.7205
無障礙	-10.7206
非斷	-10.7206
一致	-10.7209
如因	-10.7211
三菩提	-10.7212
識等	-10.7218
而論之	-10.7219
無有自性	-10.7224
破生	-10.7224
物有	-10.7236
得無得	-10.7242
並非	-10.7243
下第五	-10.7246
兮	-10.725
相不可得	-10.7251
等相	-10.7252
呈	-10.7252
髮	-10.7253
殆	-10.7259
佛滅後	-10.726
帶	-10.7262
長行釋	-10.7262
笑	-10.7264
弊	-10.7265
蜜	-10.7265
裁	-10.7265
閉	-10.7266
須彌	-10.7267
不從緣生	-10.7268
二執	-10.7269
蛇	-10.7271
恒有	-10.7272
受記	-10.7273
抑	-10.7273
君子	-10.7274
搜	-10.7274
第一義悉檀	-10.7276
十九	-10.7277
思慮	-10.7278
開合	-10.7279
雖不	-10.7279
至論	-10.728
聲聞人	-10.7281
道場	-10.7282
與其	-10.7282
說彼	-10.7282
即體	-10.7285
紛然	-10.7287
二十五	-10.7287
去時去	-10.7287
故大經	-10.729
妙道	-10.7291
是破	-10.7293
而現	-10.7295
由如是故	-10.7295
六十二見	-10.7295
澄師	-10.7296
我法	-10.7297
云何當有	-10.73
為眾生說法	-10.7301
應言	-10.7302
莫能	-10.7305
即是破	-10.7308
世間現見	-10.7309
有何異	-10.7309
玄得	-10.7311
四人	-10.7311
物不遷論	-10.7312
故無過	-10.7315
不真空論	-10.7325
次問答	-10.7326
及與	-10.7329
復生	-10.7333
四果	-10.7333
色相	-10.7334
使一切眾生	-10.7335
捨離	-10.7341
而失	-10.7344
四心	-10.7344
十地菩薩	-10.7349
至極	-10.7355
此心	-10.7357
皆明	-10.7359
立比量	-10.7361
結上	-10.7364
問佛	-10.7365
明知	-10.7366
故頌	-10.7366
因體	-10.7369
唯佛	-10.7377
第二義	-10.7379
禪師	-10.738
明不遷	-10.7382
二業	-10.7382
假施設	-10.7388
是同	-10.7394
無非	-10.7398
物物	-10.74
契會	-10.7406
至道	-10.7409
人等	-10.7417
亦三	-10.7432
以物	-10.7444
道人	-10.7445
十七	-10.7445
所遮	-10.7446
是有法	-10.7462
必當	-10.7464
根緣	-10.747
若其	-10.7475
亦許	-10.7479
何耶	-10.7485
所聞	-10.7489
歸於	-10.749
相待假	-10.7493
是業	-10.7496
此執	-10.7497
成聖	-10.7498
亦不見	-10.7499
共起	-10.7501
已明	-10.7513
依經	-10.7515
常無	-10.7515
施者	-10.7518
故名為大	-10.7528
得佛	-10.7529
之根	-10.7529
宗極	-10.7543
便失	-10.7544
二時	-10.7549
六因	-10.755
因緣假	-10.756
一真	-10.7561
空理	-10.7562
誰能	-10.7566
是以下	-10.7574
若使	-10.7575
空慧	-10.7585
歎佛	-10.7585
心神	-10.7591
處所	-10.7591
今對	-10.7593
智照	-10.7593
所現	-10.7594
欲求	-10.7594
應得	-10.7595
生老死	-10.7595
犯	-10.7595
長行為	-10.7596
不免	-10.7597
▁二釋	-10.76
鉢	-10.76
貧	-10.76
永斷	-10.7601
方圓	-10.7601
胡	-10.7603
音聲	-10.7609
崇	-10.761
救云	-10.7611
務	-10.7612
是顛倒	-10.7612
眷屬	-10.7613
蕩	-10.7614
聲聞辟支佛	-10.7614
攬	-10.7614
蘇	-10.7616
生時生	-10.7617
盜	-10.7617
喚	-10.7617
川	-10.7618
之耳	-10.7619
休	-10.762
宋	-10.7621
威	-10.7622
男	-10.7622
溺	-10.7623
本為	-10.7623
暢	-10.7623
令彼	-10.7624
亦一亦異	-10.7624
迦毘羅	-10.7625
犢子部	-10.7626
是第一義諦	-10.7626
灰	-10.7627
爾雅云	-10.7627
綱	-10.7627
無有是處	-10.7627
同法喻	-10.7631
不見佛性	-10.7641
自知	-10.7642
依二諦	-10.7642
總標	-10.7644
物也	-10.7645
起等	-10.7648
能取所取	-10.7649
隨俗	-10.7649
▁【	-10.7649
三字	-10.7651
此敘	-10.7653
悟解	-10.7653
至果	-10.7662
有果無果	-10.7662
稱歎	-10.7666
凡有三義	-10.7667
不差	-10.7668
邪執	-10.7674
因緣有	-10.7677
五十	-10.7677
況復	-10.7679
俱絕	-10.7687
有執	-10.7689
於二	-10.769
彼即	-10.7692
離此	-10.7694
一論	-10.7697
我義	-10.7699
大事	-10.77
起業	-10.7702
凡有二	-10.7705
如是一切	-10.7711
無所知	-10.7715
遍學	-10.7716
一毫	-10.7719
二部	-10.7719
亦為	-10.7722
三空	-10.7728
眾苦	-10.7732
同時起	-10.7739
為失	-10.7739
大地	-10.774
相因待	-10.774
無著	-10.7742
攝一切法	-10.7743
汝既	-10.7748
?」	-10.7748
此引	-10.7753
所以須	-10.7755
未達	-10.776
動也	-10.7761
妙盡	-10.7766
自上已來破	-10.7766
不屬	-10.7766
同也	-10.7767
不得成	-10.7771
無差	-10.7776
如意	-10.7782
見之	-10.7786
便無	-10.7794
以釋	-10.7794
文意	-10.7797
故論偈	-10.7797
能與	-10.7802
全體	-10.7804
俱舍論	-10.7809
果亦	-10.7811
以人	-10.7812
為主	-10.7814
偏破	-10.7818
諦觀	-10.7825
去來品	-10.7826
不自在	-10.7827
智境	-10.7829
佛出世	-10.7836
二經	-10.7837
現在世	-10.7839
無寄	-10.7846
則壞	-10.7848
不執	-10.7849
既得	-10.7851
答若	-10.7858
之色	-10.7859
亦不異	-10.786
汝所立	-10.7863
一果	-10.7868
亦遍	-10.7868
就勝義	-10.7872
並不	-10.7872
大同	-10.7875
之類	-10.7876
因義	-10.7878
諸論師	-10.7885
二十七	-10.7894
問論主	-10.79
今大乘	-10.7901
可是	-10.7903
隨所	-10.7904
三種中道	-10.7905
可尋	-10.7906
為彼	-10.7907
五度	-10.7909
五名	-10.7914
不正	-10.7916
語意	-10.7918
有所得者	-10.7923
是異	-10.793
有方便	-10.7935
亦能	-10.7938
常為	-10.7939
並有	-10.7941
意同	-10.7944
理無	-10.7944
如是決定	-10.7945
維摩經	-10.7948
說名為	-10.7949
常者	-10.7951
如石女兒	-10.7952
解不同	-10.7953
契真	-10.7954
因緣有無	-10.7956
一理	-10.7963
應說	-10.7966
名為世諦	-10.7969
養	-10.797
更無異	-10.7971
憑	-10.7972
扣	-10.7973
逾	-10.7978
龜茲	-10.798
救濟	-10.798
石女	-10.798
飲食	-10.7983
弟	-10.7984
率	-10.7984
繁	-10.7984
燭	-10.7984
奔	-10.7985
冷	-10.7987
寸	-10.7988
追	-10.7989
耀	-10.799
懃	-10.7991
弁	-10.7991
莊周	-10.7991
厚	-10.7992
得見	-10.7993
嘉	-10.7993
偏執	-10.7994
而實不爾	-10.7994
說世諦	-10.7994
菩薩摩訶薩	-10.7994
慨	-10.7996
壅	-10.7997
三時門	-10.7998
箇	-10.7999
金光明	-10.8003
云何能	-10.8003
封執	-10.8003
彌存	-10.8005
故說此品	-10.8007
嬰兒	-10.8008
處中	-10.8008
李	-10.8008
橫竪	-10.801
二諦中道	-10.8011
何故爾	-10.8013
次云	-10.8017
何曾	-10.8017
方成	-10.8019
稱之為	-10.802
九流	-10.802
若實有	-10.802
為作	-10.8022
受報	-10.8024
眼等根	-10.8029
云何知	-10.8032
次就	-10.8035
起染	-10.8035
從本	-10.8038
雙絕	-10.8041
初立	-10.8042
無有我	-10.8048
後之	-10.8049
於大	-10.805
獨覺	-10.805
染淨	-10.8051
復說	-10.8052
所因	-10.8052
後生	-10.8059
前際	-10.8059
無聲	-10.8066
此四句	-10.8067
異部	-10.8073
說有無	-10.8079
所以明	-10.808
捨罪	-10.8081
之空	-10.8082
」「	-10.809
諸蘊	-10.8091
於一切	-10.8091
語者	-10.8093
故涅槃云	-10.8095
今世	-10.8102
莊嚴云	-10.8103
極數	-10.8105
唯心	-10.8105
全真	-10.8108
第一真諦	-10.8109
皆實	-10.811
如虛空等	-10.8111
不見有	-10.8115
有生死	-10.8116
不起故	-10.8117
離苦	-10.8119
二處	-10.8124
諸論	-10.8125
依空	-10.8125
此五	-10.8132
說於	-10.8135
不用	-10.8142
得者	-10.8149
取意	-10.8149
本意	-10.8149
或名	-10.815
第三偈	-10.8154
故非無	-10.8154
之終	-10.8156
有對	-10.816
滅盡	-10.8161
有能	-10.8164
無始終	-10.8165
為無常	-10.8168
苦果	-10.8168
思我	-10.8168
具二義	-10.8175
若心	-10.8176
無咎	-10.8184
空門	-10.8186
諸體	-10.8186
亦不離	-10.8187
此身	-10.8187
復云何	-10.8192
自體空	-10.8199
傍破	-10.82
我執	-10.8201
皆云	-10.8207
一實	-10.8209
後際	-10.8216
非真俗	-10.8217
一字	-10.8219
真俗不二	-10.8223
亦應無	-10.823
一色	-10.8232
之所以	-10.8234
涅槃無名	-10.8236
品竟	-10.8236
而取	-10.8241
故不須	-10.8243
非佛性	-10.8244
會歸	-10.8244
立也	-10.8248
三家	-10.8252
有所得心	-10.8253
此解	-10.8256
動轉	-10.8258
離陰	-10.8276
夢中	-10.828
本是	-10.8288
有所生	-10.829
多有	-10.8291
墮於	-10.8291
其用	-10.8295
一氣	-10.83
例如	-10.8304
苦等	-10.8307
有形	-10.831
用故	-10.8313
出生死	-10.8317
略廣	-10.8319
雙破	-10.832
因待	-10.8325
已起	-10.8325
三年	-10.8329
必然	-10.8334
謂般若	-10.8335
岸	-10.8336
真身	-10.8337
誓	-10.8338
論語	-10.8338
名為佛性	-10.8339
邊見	-10.8341
多種	-10.8342
二諦是教	-10.8344
告	-10.8348
無作者	-10.8349
方乃	-10.835
即心	-10.835
兩法	-10.8351
無實體	-10.8353
等物	-10.8355
但得	-10.8356
莊	-10.8357
老子	-10.8358
梨	-10.8359
盧	-10.836
中道為體	-10.836
毗曇	-10.8362
義引	-10.8363
片	-10.8366
以此為	-10.8366
轍	-10.8367
玉	-10.8368
米	-10.8369
籍	-10.837
漫	-10.837
兔	-10.837
圓成	-10.8371
兆	-10.8372
絹	-10.8373
搆	-10.8373
既曰	-10.8373
僧佉人言	-10.8373
遙	-10.8374
外救	-10.8374
壯	-10.8375
在初	-10.8375
委	-10.8376
慳	-10.8376
酬	-10.8376
壁	-10.8378
烟	-10.8378
澤	-10.8378
勒沙婆	-10.8381
鼓	-10.8381
果與果果	-10.8382
扇	-10.8382
義耳	-10.8385
羊	-10.8385
撫	-10.8385
論語云	-10.8388
俱空	-10.8388
帖	-10.8389
中有三	-10.839
亡不為無	-10.8392
是如來	-10.8392
今則	-10.8393
□□□□	-10.8395
此若無者	-10.8395
上中下	-10.8397
其身	-10.8401
無益	-10.8401
三中	-10.8403
答以	-10.8406
宗義	-10.8408
弘始	-10.841
現在時	-10.8412
默然	-10.8412
二乘之人	-10.8414
生死苦	-10.8415
須識	-10.8418
現事	-10.8419
惑盡	-10.8422
滿足	-10.8424
五識	-10.8428
但知	-10.8428
百千	-10.8431
必是	-10.8437
成論師云	-10.8439
名方便	-10.8441
後段	-10.8441
類遣	-10.8442
得起	-10.8443
為言	-10.8447
是邪見	-10.8448
不可為無	-10.845
橫計	-10.8453
前之	-10.8456
指前	-10.8459
真法身	-10.8464
人空	-10.8465
二善	-10.8472
又諸	-10.8473
凡有三	-10.8474
此乃是	-10.8475
何緣	-10.8477
異品	-10.8477
不是	-10.8479
衛世師	-10.8479
照實相	-10.848
但就	-10.8481
一多	-10.8484
推之	-10.8488
三際	-10.8494
寂而	-10.8496
涅槃之體	-10.8497
其旨	-10.8497
師子吼	-10.85
論序云	-10.8505
則見	-10.851
是體	-10.851
亦不可	-10.8511
師子吼品	-10.8513
二無我	-10.8521
標相	-10.8525
對偏	-10.8533
和合故	-10.8534
述成	-10.8534
作故	-10.8534
為定	-10.854
一切有為法	-10.8541
遮故	-10.8543
無識	-10.8545
二道	-10.8548
不容	-10.8548
今破此	-10.855
不相離故	-10.8551
未足	-10.8552
有本云	-10.8555
是名為	-10.8555
各執	-10.8556
說無常	-10.856
說頌曰	-10.8562
巳去	-10.8562
於第一義中	-10.8566
如中論	-10.8566
盡也	-10.8574
為五	-10.8578
離緣	-10.8589
明有無	-10.8589
今約	-10.8593
可立	-10.86
就文為	-10.861
作無作	-10.861
忘言	-10.8616
事相	-10.8621
則便	-10.8625
初四句	-10.8625
先釋	-10.8628
使我	-10.863
之義也	-10.8637
冥寂	-10.8638
於諸法	-10.8644
而欲	-10.8652
所論	-10.8652
行善	-10.8652
有相續	-10.8654
大聖	-10.8657
實方便	-10.8659
則破	-10.866
若望	-10.866
是故我	-10.8663
中住	-10.8663
多分	-10.8664
無上菩提	-10.8668
萬物之	-10.8668
大也	-10.8671
體空	-10.8672
以示	-10.8672
若然者	-10.8673
隨有	-10.8676
不但	-10.8678
苦受	-10.8682
在昔	-10.8686
二文	-10.8687
常故	-10.8693
引教	-10.8694
始起	-10.8698
便得	-10.8699
便為	-10.8701
答曰下	-10.8708
始是	-10.871
破闇	-10.871
迦葉品	-10.8715
本覺	-10.8717
立驗	-10.8721
無二故	-10.8725
用中	-10.8727
和合生	-10.8728
復次下第二	-10.8734
書云	-10.8735
結前	-10.8735
真知	-10.8736
空中	-10.8739
為聖	-10.8742
何妨	-10.8742
明諸法	-10.8743
不論	-10.8744
我相	-10.8745
此所說	-10.8747
通也	-10.8751
真則	-10.8754
無有一法	-10.8758
匿	-10.8759
所乘	-10.8761
悟理	-10.8762
而自	-10.8764
染污	-10.8766
天女	-10.8766
恭敬	-10.8766
邈	-10.8769
供	-10.877
文殊師利	-10.8772
遮彼	-10.8772
馬鳴	-10.8773
可為	-10.8773
毘	-10.8773
如所說	-10.8774
論主對破	-10.8774
血	-10.8774
逕	-10.8775
有幾種	-10.8775
箭	-10.8776
如色	-10.8778
釋吉藏撰	-10.8779
大覺	-10.8781
振	-10.8782
物無不是	-10.8784
理無不統	-10.8784
遷而不遷	-10.8786
四悉檀	-10.8786
發菩提心	-10.8786
影響	-10.8788
蔽	-10.8789
墜	-10.8791
增益	-10.8791
不來不出	-10.8791
雖知	-10.8792
何所以邪	-10.8792
無所作	-10.8792
報因	-10.8794
未來現在時	-10.8799
而不取	-10.88
不息	-10.8801
華嚴經云	-10.8801
能生所生	-10.8806
而求	-10.8807
山中	-10.8808
亦當	-10.8809
論文云	-10.8813
冥會	-10.8814
諸大乘經	-10.8815
則不見	-10.8818
在果	-10.8818
說經	-10.8819
則與	-10.8823
定是無常	-10.8825
三乘同	-10.8826
初步	-10.8826
二章	-10.8827
如空	-10.8827
諸賢聖	-10.8828
隨宜	-10.8829
利樂	-10.8829
之殊	-10.8835
得樂	-10.8841
說真	-10.8842
諸物	-10.8842
三破	-10.8844
之要	-10.8845
不稱	-10.8845
無別故	-10.8846
虛無	-10.8848
同品	-10.8851
于時	-10.8853
非戲論	-10.8854
則名	-10.8855
是大乘	-10.8863
亦應有	-10.8867
於世	-10.887
智無知	-10.8872
於其	-10.8881
復起	-10.8883
則名為	-10.8883
幻事	-10.8883
難可	-10.8886
圓滿	-10.8888
人多	-10.8888
境界因	-10.8891
中道佛性	-10.8892
師子	-10.8893
所發	-10.8893
諸法性	-10.8893
有過失故	-10.8894
如經云	-10.8895
種智	-10.8898
一門	-10.8899
則不能	-10.8899
而言有	-10.8901
非勝義諦	-10.8907
佛性義	-10.8912
而惑者	-10.8914
不具	-10.8919
而見	-10.8925
簡別	-10.8927
為新	-10.8932
有善	-10.8933
所許	-10.8934
破人法	-10.8935
不令	-10.8936
幻化人	-10.8936
為明	-10.8938
有七	-10.8939
而滅	-10.8939
自分	-10.8942
不見其	-10.8942
應離	-10.8944
無定性	-10.8948
不測	-10.8952
雙照	-10.8954
辟支	-10.8957
想心	-10.8957
若如	-10.896
旨也	-10.8962
無由	-10.8964
甚多	-10.8965
令得	-10.8967
少有	-10.8969
無所不	-10.8973
非相	-10.8975
唯見	-10.8979
既知	-10.898
捨身	-10.8982
初二	-10.8983
救義	-10.8988
後當	-10.899
變為	-10.8996
內學	-10.8997
雙牒	-10.8997
應廣說	-10.8998
即物	-10.8999
更無有	-10.9008
緣法	-10.9011
待緣	-10.9016
諸子	-10.902
無異性	-10.9024
運出	-10.9025
無失	-10.9028
無如是	-10.9031
成具	-10.9031
地攝	-10.9031
法非法	-10.9034
此二人	-10.9035
如來說	-10.9036
為遮	-10.9038
二地	-10.9042
人功	-10.9047
大明	-10.9049
所以言	-10.9052
三分	-10.9052
有為之法	-10.9068
破四緣	-10.9068
在未來	-10.9071
斯二	-10.9074
示其	-10.9077
有失	-10.9079
釋章門	-10.9082
得涅槃者	-10.909
種性	-10.9091
若取	-10.9101
何也	-10.9102
行處	-10.9104
住住	-10.9107
開善義	-10.911
初就	-10.9115
今無	-10.9115
與理	-10.912
二過	-10.9124
是假名	-10.9126
不退	-10.9129
有殊	-10.9136
三大	-10.9136
第二次破	-10.9142
常在	-10.9145
並破	-10.9147
謂我	-10.9151
苦惱	-10.9151
量云	-10.9154
四智	-10.9158
初偈明	-10.916
師等	-10.9161
塗	-10.9163
汝所說	-10.9163
思之	-10.9165
妙用	-10.9166
至當	-10.9166
三云	-10.9168
丘	-10.917
破執	-10.9171
光宅	-10.9172
如兔角	-10.9173
重生	-10.9173
婬	-10.9175
二俱無	-10.9175
式	-10.9176
難之	-10.9176
係	-10.9177
不求	-10.9178
破洗	-10.9179
為始	-10.9179
逝	-10.918
濕	-10.9181
廣百論	-10.9183
直是	-10.9186
令他解	-10.9188
非所作	-10.9189
渡	-10.919
廬山	-10.9191
本有今無	-10.9192
豁	-10.9192
烏	-10.9193
奢	-10.9193
則唯	-10.9193
小雅	-10.9194
若不因	-10.9195
劉	-10.9195
名第一義諦	-10.9195
假有不名	-10.9196
如上偈說	-10.9197
有人法	-10.9197
如言	-10.9197
恢	-10.9199
雜亂	-10.92
自因	-10.92
秤為	-10.9201
闍	-10.9202
蓮華	-10.9202
自言	-10.9206
以緣求智	-10.9206
下第二破	-10.9206
破神	-10.9208
無差別差別	-10.921
難論主	-10.9211
今正	-10.9212
相待故	-10.9213
大師云	-10.9214
若定	-10.9214
寒暑	-10.9214
釋觀	-10.9216
萬象	-10.9216
反覆	-10.9219
依他起性	-10.9219
篇云	-10.9223
無數	-10.9224
此諸	-10.9224
教中	-10.9225
近遠	-10.9227
涅槃無名論	-10.9231
因起	-10.9231
法塵	-10.9231
九品	-10.9237
異說	-10.9239
今總	-10.9242
先已破	-10.9243
合明	-10.9244
答婆沙	-10.9244
方便慧	-10.9246
常存	-10.9246
風俗	-10.9246
有可生	-10.9247
鏡像	-10.9251
滅道	-10.9251
應機	-10.9252
彼去	-10.9257
生後	-10.926
無相無名	-10.9263
永離	-10.9268
大乘中	-10.9272
義同	-10.9272
從用	-10.9273
執我	-10.9273
一闡提	-10.9273
破救	-10.9275
三時門破	-10.9278
世間法	-10.9279
動作	-10.928
理應	-10.9281
攝論師	-10.9281
大疏	-10.9283
破一切	-10.9284
則不生	-10.9284
明無生	-10.9286
雜心	-10.9287
未去者	-10.9287
共有因	-10.9288
未嘗有	-10.9289
五難	-10.9291
於生死	-10.9291
今當說	-10.9294
於人	-10.9294
中道第一義諦	-10.9295
不在有無	-10.9302
行陰	-10.9304
末世	-10.9304
莫不	-10.9305
不可為有	-10.9306
法藏	-10.9307
即見	-10.9313
五陰和合	-10.9314
內入	-10.9317
有去來	-10.9321
假令	-10.9322
作相	-10.9322
肇師云	-10.9323
別名	-10.9325
彼如是	-10.9326
實權	-10.9327
本宗	-10.9328
十二入	-10.9336
香等	-10.9336
天眼	-10.9339
以眾生	-10.9352
先說	-10.9353
愚智	-10.9355
是故知	-10.9358
此通	-10.936
不緣	-10.9361
作瓶	-10.9363
今觀	-10.9368
不有者	-10.9368
妙理	-10.9377
聞聲	-10.9382
行施	-10.9387
報佛	-10.939
空為真諦	-10.9393
此智	-10.9394
故舉	-10.9399
更互	-10.9401
若未生	-10.9401
眼色	-10.9412
今釋	-10.9415
今云何	-10.9416
二障	-10.9416
有本住	-10.9417
已下	-10.9418
修福	-10.9424
形相	-10.9425
然其	-10.9427
細果	-10.9429
問言	-10.9431
無所行	-10.9432
受戒	-10.9434
則不名	-10.9434
有六道	-10.9436
即名為	-10.9437
隨其	-10.944
地論師	-10.9444
是誰	-10.9447
故有此品	-10.9452
顯了	-10.9454
因他	-10.9459
人作	-10.946
因緣假名	-10.9462
立量	-10.9469
皆依	-10.9476
非佛	-10.9478
而恒	-10.948
論其	-10.948
疑者	-10.9486
有無俱	-10.9493
未明	-10.9495
若實	-10.9496
以上	-10.9496
經部	-10.9498
他云	-10.9498
無違	-10.95
真也	-10.9502
此章	-10.9504
立因	-10.9521
能破闇	-10.9522
五部	-10.9522
但云	-10.9523
入實相	-10.9527
正辨	-10.953
句也	-10.9532
於境	-10.9533
如法華	-10.9534
民	-10.9543
為第一義	-10.9547
同生	-10.9547
為解脫	-10.9551
無相也	-10.9553
結難	-10.9559
有無二見	-10.9561
言不有有	-10.9569
如下	-10.9571
若是有	-10.9571
若過去	-10.9578
五偈	-10.9582
亦一	-10.9587
嘗	-10.9587
有縛	-10.959
向有今無	-10.9594
湛	-10.9598
為勝	-10.9599
為令	-10.96
有為世諦	-10.9603
從因緣生	-10.9604
顧	-10.9605
逮	-10.9607
所縛	-10.9607
汝所執	-10.961
春秋	-10.961
延	-10.9613
明闇	-10.9613
浪	-10.9614
脚	-10.9614
誑	-10.9615
如見	-10.9616
當以	-10.9618
枯	-10.9618
堂	-10.962
宗旨	-10.9621
鳩摩羅	-10.9621
急	-10.9621
徐	-10.9622
祇	-10.9622
故論主	-10.9623
聊	-10.9623
哲	-10.9623
各自	-10.9624
神我	-10.9624
保	-10.9626
祀	-10.9626
彼二	-10.9626
無始無終	-10.9627
㮈	-10.9628
二而不二	-10.9628
糞	-10.9629
小兒	-10.963
名波若	-10.963
走	-10.963
來現在	-10.963
無依無得	-10.9631
地水火風	-10.9631
審察	-10.9632
因中發觀	-10.9632
即其事也	-10.9632
併	-10.9633
報恩	-10.9633
口中	-10.9633
因因而果	-10.9633
聲聞緣覺	-10.9634
招提	-10.9634
生疑	-10.9635
動與事會	-10.9637
增減	-10.9639
不能作	-10.964
穀子	-10.9641
心等	-10.9641
欣樂	-10.9642
積集	-10.9645
貪欲	-10.9647
三地	-10.9648
竟無	-10.965
大小內外	-10.9654
三雙	-10.9654
滿字	-10.9655
既明	-10.9662
第三義	-10.9663
法本	-10.9664
轉為	-10.9664
久矣	-10.9664
與佛	-10.9667
即得	-10.9667
諸因	-10.9669
彼明	-10.9671
能遮	-10.9672
變成	-10.9675
無分別慧	-10.9677
如地	-10.9677
無生滅生滅	-10.9681
釋偈	-10.9684
應常	-10.9684
西方	-10.9684
實相波若	-10.9685
有境	-10.9685
第二釋	-10.9689
中下	-10.9689
融通	-10.9693
於般若	-10.9696
如是知	-10.9696
應許	-10.9702
此過	-10.9704
若別	-10.9706
諸惡	-10.9706
自作苦	-10.9707
後解釋	-10.971
從四緣生	-10.971
不可以有無	-10.972
虗寂	-10.972
亦不有	-10.9723
但由	-10.9728
不空者	-10.9731
下二句	-10.9733
非體	-10.9733
對緣	-10.9738
定相	-10.9741
六趣	-10.9749
十卷	-10.9749
惑業	-10.975
無名相中	-10.9751
不同故	-10.9751
若言有	-10.9753
後偈	-10.9754
巳還	-10.9755
之別	-10.9756
因緣中	-10.9772
寧有	-10.9773
無常苦	-10.9778
二諦相即	-10.978
則通	-10.9783
三因	-10.9784
得無生法忍	-10.9787
一地	-10.9788
無受	-10.979
相續假	-10.9793
亦名為	-10.9794
五欲	-10.9799
品明	-10.9804
解行	-10.9804
今次	-10.9809
外法	-10.981
總說	-10.9815
申經	-10.9818
二性	-10.9822
明昧	-10.9823
是則不然	-10.9826
有所依	-10.9828
有相無相	-10.9835
不無無	-10.984
化物	-10.9842
真際	-10.9844
生念	-10.9845
初起	-10.9845
冥冥	-10.9847
無所住	-10.9859
彼法	-10.9859
師言	-10.9859
作如此	-10.986
前章	-10.986
以是因緣	-10.9862
虛實	-10.9868
前境	-10.9873
未是	-10.9876
此之二	-10.9876
空即是色	-10.9877
但解	-10.9879
同明	-10.988
又是	-10.988
顯真	-10.9887
受等	-10.989
六合	-10.9891
聖凡	-10.9891
梵天	-10.9894
相見	-10.9895
破邪見	-10.9896
生空	-10.99
始自	-10.9903
無學	-10.9908
為俗諦	-10.9908
五事	-10.9918
空法	-10.9919
謂涅槃	-10.9923
如世	-10.9925
初品	-10.9926
一切不成	-10.9926
不相似	-10.9926
真名	-10.9928
同彼	-10.9931
偈中	-10.9931
作之	-10.9933
天上	-10.9938
無有性	-10.9938
是故無有	-10.9939
汝若言	-10.994
有始	-10.9943
以世諦	-10.9951
應同	-10.9951
所修	-10.9953
無覺	-10.9955
之令	-10.9959
是則無	-10.9962
起愛	-10.9962
尚書	-10.9964
亦作	-10.9969
必定	-10.9972
於聖人	-10.9974
遣執	-10.9974
之意也	-10.9974
如前釋	-10.9977
多瓶	-10.998
兩家	-10.9981
無為空	-10.9983
正覺	-10.9984
以中道	-10.9984
成人	-10.9985
大教	-10.9986
證無為	-10.9988
聲色	-10.9992
壞者	-10.9993
深義	-10.9996
無不無	-11.0001
本非	-11.0005
現行	-11.001
隅	-11.0011
俗有	-11.0013
前品	-11.0015
多用	-11.0016
佛弟子	-11.0017
涅槃體	-11.0018
鄉	-11.0019
是故無過	-11.0019
關中	-11.0022
受苦	-11.0026
談者	-11.0028
無功用	-11.0028
靜而	-11.0028
破世間	-11.0036
法身菩薩	-11.0042
他生	-11.0044
體同時	-11.0046
聰	-11.005
兩人	-11.005
瓶是	-11.0052
註	-11.0052
貧窮	-11.0056
化之	-11.0057
婆伽婆	-11.0057
不相因	-11.0057
智度論釋	-11.006
舉喻	-11.0062
分為二	-11.0063
無戲論	-11.0063
相傳	-11.0063
府	-11.0069
自果	-11.0069
游	-11.0072
貪瞋	-11.0072
送	-11.0073
熏習	-11.0074
當有	-11.0074
既一	-11.0075
繫辭	-11.0075
優劣	-11.0075
峯	-11.0076
泊	-11.0077
倒不倒	-11.0079
雪山	-11.0081
崩	-11.0081
妙盡冥符	-11.0083
覽	-11.0084
憐愍	-11.0084
隨意	-11.0085
非能非所	-11.0085
此責	-11.0085
虛誑	-11.0086
覺體	-11.0086
果不俱因	-11.0086
杜	-11.0087
無相門	-11.0087
毒藥	-11.0087
優樓迦	-11.0087
筆	-11.0087
故以為門	-11.0088
九十六種	-11.0088
本無惑取之知	-11.0088
梵語	-11.0088
就緣假	-11.0089
罔	-11.0089
陰界入	-11.0089
渴	-11.009
堅固	-11.009
先標	-11.009
不染	-11.0091
聚集	-11.0091
修靜慮	-11.0092
吐	-11.0093
為是義故	-11.0093
幽微	-11.0094
遍滿	-11.0094
亦是中道義	-11.0095
即俗	-11.0097
雙林	-11.0098
今此一品	-11.0098
薩埵	-11.0098
萬機	-11.0099
善解	-11.0102
三章	-11.0102
姚嵩	-11.0103
橫謂	-11.0105
對緣假	-11.0106
有不自有	-11.0108
破小乘	-11.0108
五逆	-11.0109
絕於	-11.0109
無方分	-11.011
捨罪福	-11.0112
例之	-11.0114
屈申	-11.0118
還生	-11.0118
故云爾	-11.012
不二之理	-11.012
不關	-11.0122
是故如來	-11.0123
從初發心	-11.0124
不忍	-11.0124
可聞	-11.0127
念念生滅	-11.0127
依他起	-11.0127
門說	-11.0129
如經說	-11.0131
二十四	-11.0136
中道為佛性	-11.0136
一則	-11.0136
因成假	-11.0137
漸次	-11.0138
淨名經云	-11.0149
十年	-11.0152
四宗	-11.0153
何容	-11.0155
我空	-11.016
絕百非	-11.0167
破塵	-11.0169
無所不為	-11.0175
於神	-11.0177
變壞	-11.0179
始覺	-11.0179
物性	-11.018
水土	-11.0181
生已生	-11.0183
釋不同	-11.0185
不倒	-11.0185
初引經	-11.0186
正因佛性	-11.019
然後方	-11.019
此生	-11.0195
斷之	-11.0196
體不成	-11.0199
並得	-11.0205
誰當	-11.0207
大劫	-11.0209
無累	-11.021
先明	-11.0211
自謂	-11.0211
小大	-11.0215
上來破	-11.022
四緣中	-11.0221
深遠	-11.0223
內曰下	-11.0224
謂從	-11.0225
勤修	-11.0227
女人	-11.023
秦言	-11.0231
餘無餘	-11.0234
淨穢	-11.0236
體同	-11.0237
廣略	-11.0239
遠師	-11.024
第一破	-11.0244
次別	-11.0247
住體	-11.0247
四忘	-11.0247
未生位	-11.025
四德	-11.0251
難明	-11.0256
之於	-11.0256
果果性	-11.0258
成論云	-11.0263
說無我	-11.0265
問意	-11.0267
舉譬	-11.0267
有體故	-11.0274
相好	-11.0276
此性	-11.0278
即陰	-11.0279
別體	-11.0281
不隨	-11.0281
非不有	-11.0283
又開二	-11.029
諸塵	-11.0292
無惑取	-11.0296
緣正	-11.03
數論師	-11.0308
具二	-11.0308
中陰	-11.031
表非有非無	-11.031
不生而生	-11.0311
大異	-11.0315
照真	-11.0316
無別體	-11.0319
不遷者	-11.0323
此牒	-11.0323
性義	-11.0325
雖是	-11.033
坦	-11.0335
福報	-11.034
更須	-11.034
所以名	-11.0341
亦然也	-11.0342
執言	-11.0344
以智為	-11.0349
有愛	-11.0349
能化	-11.035
之本意	-11.0353
彼謂	-11.0356
非獨	-11.0358
不可信	-11.0359
能運	-11.0359
正以	-11.036
自性故	-11.0365
然矣	-11.0375
合論	-11.0381
所申	-11.0382
化人	-11.0384
破耶	-11.0387
明暗	-11.0388
上根	-11.0392
福慧	-11.0392
為實智	-11.0393
無所取	-11.0395
其猶	-11.0398
外人立	-11.0399
而人	-11.0402
我言	-11.0404
同源	-11.0407
本願	-11.0409
現觀	-11.0411
若有人言	-11.0412
從緣生故	-11.0414
下品	-11.0417
亦隨	-11.0425
是何物	-11.0426
問云何名	-11.0427
所以作此	-11.043
與中論	-11.0431
色塵	-11.0431
須破之	-11.0431
問此論	-11.0433
無殊	-11.0434
答外人	-11.0435
受身	-11.0436
無自	-11.044
注中	-11.0441
無力	-11.0444
前人	-11.0445
可得言	-11.0449
為他作	-11.0449
小乘教	-11.0455
後位	-11.0455
法無我	-11.0459
未嘗無	-11.0461
起迷	-11.0462
極成	-11.0462
聲性	-11.0466
諦也	-11.0467
非究竟	-11.0467
五指	-11.0468
物者	-11.0471
不現	-11.0475
三歸一	-11.0482
寄名	-11.0486
十二因緣不生不滅	-11.0488
前心	-11.0489
墮在	-11.0489
虛空相	-11.0489
疑難	-11.0491
會釋	-11.0493
偈上半	-11.0493
真無	-11.0494
應用	-11.0494
常過	-11.0497
性假	-11.0503
既成	-11.0504
今先	-11.0505
緣成	-11.0505
諸戲論	-11.0506
就勝義諦	-11.0507
上以	-11.0507
不異也	-11.0508
瑤	-11.0508
唯得	-11.0508
有實體	-11.0508
大智	-11.0513
等四句	-11.0513
流轉者	-11.0517
芥子	-11.0521
名有餘	-11.0523
第三重	-11.0524
四事	-11.0526
進修	-11.0527
莊老	-11.0527
法無去來	-11.0528
就文	-11.0529
於向未嘗無	-11.0531
嗔	-11.0531
鈔	-11.0537
墨	-11.0538
厥	-11.0538
此善	-11.054
沖	-11.0542
孫	-11.0542
恚	-11.0543
正行	-11.0546
此二種	-11.0547
婦	-11.0547
意欲	-11.0548
上座部	-11.0548
遲	-11.0549
冶	-11.055
至七地	-11.055
我有	-11.055
初地巳上	-11.0552
如幻如夢	-11.0552
三惡道	-11.0552
諸取	-11.0553
渾	-11.0554
法無生	-11.0555
怕	-11.0556
陋	-11.0556
筌	-11.0556
巨	-11.0557
驚	-11.0557
既無有	-11.0558
諸天	-11.0558
旦	-11.0558
無量無邊	-11.0559
歟	-11.0559
濫	-11.056
可作	-11.0561
捐	-11.0561
迴小入大	-11.0562
能生大	-11.0562
當而無當	-11.0562
學二諦失二諦	-11.0562
輒	-11.0564
有無者	-11.0564
納	-11.0566
無所有故	-11.0566
蕭然	-11.0567
緣觀俱寂	-11.0568
我說即是空	-11.0568
三輪	-11.0569
火宅	-11.057
由無故有	-11.057
取色	-11.0571
經義	-11.0571
香味	-11.0571
無明初念	-11.0571
不物於物	-11.0572
是而無是	-11.0572
奧	-11.0574
教化眾生	-11.0575
久近	-11.0576
眼耳等	-11.0576
本來寂滅	-11.0577
此一章	-11.0578
離言	-11.0578
設許	-11.058
幽深	-11.0586
非謂是非	-11.0586
仙人	-11.0587
兩論	-11.0587
出處	-11.0588
絕無	-11.059
復更	-11.059
緣生無性	-11.0591
漸捨	-11.0592
序主	-11.0592
如兔角等	-11.0594
成道	-11.0595
無涯	-11.0597
則是無	-11.0599
玄妙	-11.06
為真實	-11.06
第四明	-11.0602
喻非也	-11.0602
蒼生	-11.0603
青黃等	-11.0606
違自宗	-11.0606
外人謂	-11.0606
止惡	-11.0606
第一句	-11.0607
承上	-11.0607
即是有	-11.0608
妄語	-11.0609
凝然	-11.0609
虗玄	-11.0612
一切種	-11.0613
欲令眾生	-11.0613
意言	-11.0623
圓覺	-11.0624
滅法人	-11.0626
俱破	-11.063
依彼	-11.0632
即時	-11.0638
在乎	-11.0641
兩因	-11.0643
如幻化	-11.0644
審實	-11.0646
施為	-11.0646
業因	-11.0651
墮斷常	-11.0653
正破也	-11.0655
之執	-11.0659
是故汝說	-11.0661
因果二法	-11.0663
則無法	-11.0663
開境智	-11.0664
滯於	-11.0665
雖云	-11.0666
於諸	-11.0667
初正明	-11.0673
業果報	-11.0675
本識	-11.0677
謝滅	-11.0678
合也	-11.068
不停	-11.0681
諸行無常	-11.0681
通明	-11.0682
言迹	-11.0687
實無有	-11.069
就緣	-11.0691
性是	-11.0694
諸有為法	-11.0695
前言	-11.0695
即中道	-11.0697
即無有	-11.0699
可然	-11.0701
亦遮	-11.0705
群生	-11.0707
所應	-11.0707
其異	-11.0708
二十五有	-11.0708
權用	-11.0712
行苦	-11.0712
盡淨	-11.0713
即是常	-11.0713
前位	-11.0713
因與果	-11.0714
都不	-11.0715
要由	-11.0715
色體	-11.0717
有過失	-11.072
未詳	-11.072
諸法自性	-11.0722
不無也	-11.0722
證滅	-11.0725
亦成	-11.0739
一一皆	-11.074
為傍	-11.0745
十八空	-11.0746
無耶	-11.0747
有無二法	-11.0748
法花	-11.0749
大患	-11.0751
界外	-11.0754
縱其	-11.0758
違宗	-11.0759
十四	-11.0761
家之	-11.0766
例然	-11.0769
五大	-11.077
一總	-11.0775
汝之	-11.0775
境界故	-11.0776
有取	-11.0778
取之	-11.0781
方知	-11.0781
捨身命	-11.0785
見其	-11.0785
今之	-11.0786
責其	-11.0787
後起	-11.0788
即悟	-11.0789
結業	-11.0793
開為三	-11.0796
可去	-11.0801
是正因	-11.0802
盡智	-11.0803
流通	-11.0803
下釋下半	-11.0807
具四	-11.0814
無異也	-11.0816
略舉	-11.0818
今借	-11.0819
於三界	-11.0829
就世俗	-11.0831
大乘論	-11.0835
能受	-11.0836
自下	-11.0836
執也	-11.084
所分別	-11.0842
邊無邊	-11.0843
莫之	-11.0847
十三	-11.0847
已生未生	-11.0856
生天	-11.0861
入第一義	-11.0864
自壞	-11.0864
能入	-11.0867
非空有	-11.0868
智力	-11.0871
橫論	-11.0872
如是則	-11.0872
可度	-11.0878
竪論	-11.088
亦復非	-11.0884
斷除	-11.0884
之後	-11.0884
理極	-11.0887
若先無	-11.0889
就初又	-11.0895
何者是	-11.0895
即明	-11.0897
身等	-11.0897
不決定	-11.0902
不偏	-11.0906
空性	-11.0909
是立宗	-11.0909
遠也	-11.0911
似如	-11.0913
虗心	-11.0917
若眾生	-11.0919
非非有	-11.092
何以故下釋	-11.092
空有二諦	-11.092
疏中	-11.0923
體上	-11.0926
是立因	-11.0932
三總結	-11.0934
盡故	-11.0936
體絕	-11.0937
蓋以	-11.0939
世俗法	-11.0941
謂之無	-11.0941
令捨	-11.0942
無不盡	-11.0946
依正	-11.0946
上智	-11.0949
為別	-11.0952
何言	-11.0955
春	-11.0956
破三相	-11.0961
則不爾	-11.0962
難家	-11.0963
餘三	-11.0984
是無因	-11.0984
正言	-11.0987
如百論	-11.0989
非三世	-11.0992
瓶時	-11.0995
為有為無	-11.0997
問若為	-11.0998
殘氣	-11.1004
二際	-11.1005
十重	-11.1005
有別異	-11.1006
之實相	-11.1006
此用	-11.1006
今求	-11.1009
定知	-11.1009
之善	-11.1013
故復	-11.1014
無少法	-11.1014
三世佛	-11.1014
性空之理	-11.1017
顏	-11.1024
善惡業	-11.1026
錄	-11.1027
上人	-11.1031
四大五根	-11.1036
不二而二明之	-11.1038
不諦	-11.1038
均	-11.1039
今物自在今	-11.104
不可執	-11.1041
非內非外	-11.1042
優	-11.1042
冀	-11.1044
顯中道	-11.1044
逍遙	-11.1048
維摩詰	-11.1048
婉	-11.1048
此下解釋也	-11.1049
翳	-11.1049
薩	-11.1049
匠	-11.1049
房	-11.1049
癈	-11.1051
憶想分別	-11.1052
可爾	-11.1052
既失	-11.1053
作此釋	-11.1053
校	-11.1053
好醜	-11.1055
甘	-11.1056
生法二空	-11.1056
初是	-11.1057
奏	-11.1057
發生正觀	-11.1058
設有	-11.1058
猶如兔角	-11.1058
非境非智	-11.1058
磨	-11.1061
譬如兔角	-11.1062
小教	-11.1062
猛	-11.1063
晝夜	-11.1063
酥	-11.1063
如乾闥婆城	-11.1064
以第一義中	-11.1065
不斷亦不常	-11.1065
探	-11.1065
大鈔	-11.1067
起煩惱	-11.1068
輕重	-11.1069
埿	-11.1069
兩體	-11.1069
誤	-11.1069
類破	-11.1069
共作	-11.107
推釋	-11.107
身口業	-11.1073
眼等諸根	-11.1073
據此	-11.1076
有四義	-11.1078
常無常等	-11.1078
環中	-11.1078
與論主	-11.1079
棄捨	-11.1079
十方三世諸佛	-11.108
在其中	-11.1081
經也	-11.1082
三十二相	-11.1086
正由	-11.1087
故立	-11.1092
出莊子	-11.1093
之主	-11.1094
此中意者	-11.1094
無始來	-11.1095
邪因	-11.1096
異執	-11.1096
無慮	-11.1098
緣起法	-11.1106
有顛倒	-11.1108
豈容	-11.111
會之	-11.111
可斷	-11.1113
佗性	-11.1114
後結	-11.1114
用寂	-11.1116
因果義	-11.1116
前釋上半	-11.1116
是以經云	-11.1118
乃曰涅槃	-11.1119
而體	-11.1125
彼緣	-11.1125
梵音	-11.1134
亦復然	-11.1136
火薪	-11.114
斷結	-11.114
互不相	-11.114
始末	-11.114
能燒	-11.1142
豈可以	-11.1144
與上	-11.1149
燒時	-11.115
自害	-11.115
悲愍	-11.1151
既以	-11.1152
約人	-11.1161
亦不作	-11.1163
流來	-11.1164
名為大	-11.1165
如本	-11.1165
前句	-11.1167
力用	-11.1168
轉成	-11.1169
非無常	-11.1171
應佛	-11.1173
就真性	-11.1175
迷情	-11.1175
四句皆	-11.1176
破法人	-11.1177
說有我	-11.118
安住	-11.1182
不得生	-11.1184
汝先說	-11.1184
明不二	-11.1184
諸苦	-11.1187
若不見	-11.1188
有我者	-11.1189
須菩提言	-11.1197
是皆不然	-11.1198
故秤	-11.1199
名之為有	-11.1208
總立	-11.1209
法華經云	-11.1216
所遷	-11.1218
權方便	-11.122
俗真	-11.1222
釋疑	-11.1223
為通	-11.1225
易解	-11.1225
始成	-11.1225
猶在	-11.1226
皆成	-11.1226
心所	-11.1229
體不可得	-11.1232
若色	-11.1237
現在法	-11.1238
五見	-11.124
多少	-11.1246
俱成	-11.1246
名第一義	-11.1246
無壞	-11.1247
是斷常	-11.1251
諸法皆空	-11.1255
乃至云	-11.1255
初云	-11.1255
約用	-11.1257
法輪	-11.126
乃得	-11.1262
諸識	-11.1266
為是故	-11.1266
下地	-11.1267
五求	-11.1272
領前	-11.1275
難知	-11.1277
三節	-11.1279
總名	-11.1282
於勝義諦中	-11.1283
注釋	-11.1296
如我	-11.1297
眼見色	-11.1305
受陰	-11.1309
我心	-11.1314
離微	-11.1319
知一切法	-11.1322
下論云	-11.1327
破戒	-11.1328
前二句	-11.1332
其因	-11.1337
無本住	-11.1342
即不有	-11.1343
立難	-11.1347
見終	-11.1348
明二諦是教	-11.1355
離欲	-11.1362
生未生	-11.1366
立論	-11.1366
三世諸佛	-11.1369
四塵	-11.137
假名為	-11.1371
人情	-11.1371
因中無	-11.1372
要待	-11.1372
八事	-11.1375
盡則	-11.1383
此果	-11.1383
水火	-11.1384
何者下	-11.1387
則長	-11.1388
雙定	-11.1388
已竟	-11.1389
初舉	-11.1389
是則無窮	-11.1393
所餘	-11.1394
瓶衣等物	-11.1395
修因	-11.1398
三根	-11.1398
之士	-11.1399
自滅	-11.1403
上半牒下半	-11.1409
欲成	-11.141
成我義	-11.1411
兩難	-11.1413
將滅	-11.1414
文理	-11.1419
可捨	-11.1431
自己	-11.1432
自覺	-11.1435
自身	-11.144
此見	-11.1445
自體有	-11.1451
不能照	-11.1451
未來善	-11.1453
實理	-11.1453
無倒	-11.1455
既然	-11.1456
今古	-11.1461
無縛	-11.1462
答亦得	-11.1468
已去未去	-11.1476
行道	-11.1479
非思	-11.1483
若唯	-11.1484
般	-11.1484
色身	-11.1487
以悟	-11.1488
何故但	-11.149
未說	-11.149
直言	-11.1497
既除	-11.15
望聖	-11.1501
神與	-11.1504
涯	-11.151
無生智	-11.1511
真如性	-11.1512
亦有過	-11.1513
涅槃道	-11.1514
不照	-11.1519
名為真諦	-11.1522
外物	-11.1528
又何	-11.153
環	-11.1532
十門	-11.1543
身相	-11.1543
未合	-11.1547
中具	-11.1547
豈待	-11.1548
豈非是	-11.1554
詩	-11.1557
求向物於向	-11.1558
有無二諦	-11.1559
非復	-11.1563
酒	-11.1564
輩	-11.1566
引之	-11.1566
性常自空	-11.1567
織	-11.1567
而行	-11.1568
珍	-11.1569
袪	-11.1569
竹	-11.1571
看	-11.1572
挫	-11.1572
佛世尊	-11.1573
盖	-11.1573
披	-11.1574
皮	-11.1575
遯	-11.1575
怨	-11.1576
逸	-11.1576
稽	-11.1576
倫	-11.1577
種種因緣	-11.1577
鐵	-11.1578
刃	-11.1578
故復頌曰	-11.1579
老病死	-11.1579
歌	-11.1579
兩釋	-11.158
慶	-11.158
着	-11.1581
轉法輪	-11.1581
刻	-11.1581
曜	-11.1582
居無不無	-11.1582
幽途	-11.1583
衡	-11.1585
割	-11.1585
圖度	-11.1585
九十六術	-11.1585
動而非靜	-11.1585
肆	-11.1585
得佛之理	-11.1585
遷也	-11.1586
映	-11.1586
露	-11.1587
億	-11.1587
翼	-11.1588
格	-11.1589
非大非小	-11.1589
十二部經	-11.1589
為一為異	-11.159
衍	-11.159
爰	-11.1591
世間顛倒謂有	-11.1592
南北	-11.1592
畢竟清淨	-11.1593
莖	-11.1593
恬	-11.1593
非色非心	-11.1593
俯	-11.1594
騰	-11.1594
還同	-11.1595
出二諦外	-11.1596
兔馬	-11.1596
灰身滅智	-11.1596
立已成	-11.1597
撫會	-11.1597
瓶瓫	-11.1599
瞿曇	-11.1599
無所生	-11.16
發生二智	-11.1602
聖天菩薩	-11.1602
捨於	-11.1606
離斷常	-11.1606
次第生	-11.1607
善感	-11.1608
南方	-11.1609
二十五品	-11.1609
下第三總結	-11.161
不遷之義	-11.161
勢力	-11.161
不有故	-11.161
涉求	-11.1612
次兩偈	-11.1613
舍那	-11.1613
內外大小	-11.1615
而終	-11.1615
所緣境	-11.1616
不應爾	-11.1617
國王	-11.1618
大般涅槃	-11.1618
安隱	-11.1618
鞞世師人	-11.1619
隔別	-11.1625
歷然	-11.1625
出入觀	-11.1627
又說頌曰	-11.1627
但隨	-11.1629
所生果	-11.163
極細	-11.163
永盡	-11.1632
不往	-11.1633
脩慧	-11.1639
鑒照	-11.1639
眼能見	-11.1641
中已有	-11.1642
楞伽經	-11.1649
外凡夫	-11.1649
十家	-11.1651
之子	-11.1654
而有而無	-11.1656
分際	-11.1658
萬善	-11.1659
多羅	-11.1659
通三性	-11.1663
即上	-11.1666
勝鬘	-11.1667
深旨	-11.1667
自行	-11.1668
他義	-11.167
一源	-11.1673
所依止	-11.1674
生滅斷常	-11.1675
不窮	-11.1678
五種求	-11.1679
佛陀	-11.1679
千萬	-11.168
一世	-11.1682
於空義	-11.1682
外計	-11.1683
之跡	-11.1684
盛行	-11.1685
細分	-11.1686
時未有	-11.1688
之咎	-11.1691
下兩句	-11.1692
非昔人	-11.1694
總攝	-11.1694
般若無知論	-11.1695
通而為	-11.1696
汝上	-11.1704
不復更	-11.1704
菩薩道	-11.1708
汝自	-11.1708
始名	-11.1712
九者	-11.1713
去住	-11.1713
之初	-11.1714
不殊	-11.1715
經曰下	-11.1718
若在	-11.172
單空	-11.1721
亦多	-11.1722
時相	-11.1722
有十	-11.1726
無知而知	-11.1727
玄義	-11.1729
性本	-11.1731
下第六	-11.1731
山門	-11.1731
而明之	-11.1732
緣具	-11.1737
諸果	-11.1737
果從	-11.1742
先牒	-11.1742
得無生忍	-11.1744
汝先	-11.1746
於解脫	-11.175
除其	-11.1751
明大乘觀行	-11.1752
等事	-11.1753
不從緣	-11.1754
智惠	-11.1761
無常相	-11.1761
有所得大乘	-11.1761
正使	-11.1773
心相	-11.1774
有三意	-11.1777
業用	-11.1781
如涅槃云	-11.1783
有兩種	-11.1784
法施	-11.1784
畢竟無生	-11.1786
全同	-11.18
無容	-11.1802
世諦之中	-11.1807
百劫	-11.1807
宗本義	-11.1817
能應	-11.1818
佛所	-11.1818
之上	-11.1819
豈謂	-11.1823
二依	-11.1823
又欲	-11.1825
為目	-11.1827
上三句	-11.1827
僧寶	-11.1828
不欲令	-11.1828
方便淨	-11.183
大乘義	-11.1833
而有差別	-11.1834
無決定	-11.1842
不同時	-11.1844
妙法	-11.1854
文旨	-11.1855
我亦如是	-11.1856
對他	-11.1856
初教	-11.1869
則常	-11.187
遮破	-11.1872
次更	-11.1873
其證	-11.1873
為眾生說	-11.1874
俱不成	-11.1875
解心	-11.1875
之所以也	-11.1875
不縛	-11.1877
虗實	-11.1878
無三寶	-11.1879
自性有	-11.1879
斯皆	-11.188
藉緣	-11.1881
為己	-11.1885
彼經云	-11.1888
四十	-11.1889
眾生及	-11.189
以之為	-11.189
四難	-11.1893
始於	-11.1908
異門	-11.1911
已還	-11.1913
心異	-11.1913
滅壞	-11.1914
總釋	-11.1917
亦不可說	-11.1918
名為常	-11.1921
能縛	-11.1921
菩提果	-11.1922
即是空	-11.1922
自成	-11.1928
發智	-11.1929
外來	-11.1932
無自體者	-11.1935
今論主	-11.1936
界內	-11.1937
方分	-11.1938
趣向	-11.1938
苦者	-11.1938
皆無常	-11.1944
位體	-11.1944
見思	-11.1945
又上來	-11.1946
妄情	-11.1948
今立	-11.195
我亦不	-11.1955
即是我	-11.1956
如化	-11.1961
一標	-11.1969
初正破	-11.1969
是作法	-11.197
正取	-11.198
復成	-11.1981
文有三	-11.1981
無眼	-11.1988
若一切法	-11.1989
何事	-11.1989
六師	-11.1992
樂受	-11.1994
來出	-11.1995
觀門	-11.2004
從境	-11.2006
治道	-11.2015
乃曰	-11.2018
都無所	-11.2019
歸敬	-11.202
能生本生	-11.202
墮無因	-11.2022
之業	-11.2025
此猶是	-11.2027
能生他	-11.2029
而釋之	-11.2029
故前破	-11.2032
通者	-11.2036
下第二釋	-11.2038
六句	-11.2038
為法身	-11.2041
世師	-11.205
復有何	-11.2053
上就	-11.2068
凝	-11.2072
即是無生	-11.2075
三師	-11.2075
既盡	-11.2078
相續不斷	-11.2084
此喻	-11.2086
之風	-11.209
約義	-11.2092
二諦體	-11.2096
觀十二因緣	-11.21
並云	-11.2105
孰	-11.2113
於今未嘗有	-11.2113
八正	-11.2114
隆	-11.2118
允	-11.2118
浴	-11.2119
興皇	-11.2121
寬	-11.2124
射	-11.2125
肯	-11.2128
震旦	-11.2128
如鏡中像	-11.213
汗	-11.2132
悟道	-11.2132
緣會而生	-11.2132
阿耨多羅三藐三菩提	-11.2132
今借此語	-11.2133
今當更說	-11.2133
地攝兩論成毗二家	-11.2134
阿那含	-11.2134
仲	-11.2135
大乘明義	-11.2135
斯陀含	-11.2136
溫	-11.2136
相有故	-11.2136
噫	-11.2137
仗	-11.2137
此執不然	-11.2137
居士	-11.2138
案	-11.2138
行時	-11.2138
物各性住	-11.2139
太子	-11.2139
圖	-11.214
有多種	-11.214
起用	-11.214
紐	-11.2141
諸方等經	-11.2141
八地巳上	-11.2142
闡	-11.2143
方生	-11.2144
賜	-11.2144
毘婆闍婆提	-11.2144
一道清淨	-11.2144
慎	-11.2144
秋	-11.2144
演說	-11.2145
會三歸一	-11.2145
誹謗	-11.2145
今亦無滅	-11.2145
非無非不無	-11.2145
到不到	-11.2146
繫屬	-11.2146
一切煩惱	-11.2147
若無自性	-11.2148
大乘中觀釋論	-11.2148
若一若異	-11.2148
寥	-11.2149
卷上	-11.2149
斯乃	-11.215
我即無為	-11.215
亦為是假名	-11.2151
倦	-11.2151
安慧菩薩造	-11.2151
枝末	-11.2152
譯經三藏朝散大夫試鴻臚卿	-11.2152
半有半無	-11.2152
折之	-11.2152
合離	-11.2153
臺	-11.2153
入不二法門	-11.2154
龍樹出世	-11.2154
擾	-11.2155
只為	-11.2155
名無得物之功	-11.2155
萬端	-11.2156
勝劣	-11.2156
大乘中觀釋論卷第十	-11.2156
俱起	-11.2156
無因生	-11.2159
白牛	-11.2162
無差別故	-11.2165
不相到	-11.2165
夫人經云	-11.2166
施戒	-11.2166
八苦	-11.2168
好尚	-11.2168
影像	-11.2168
今品	-11.2168
一豪	-11.2169
畢竟不可得	-11.2171
半字	-11.2171
我所說	-11.2174
諸有智者	-11.2174
妄境	-11.2176
續故不斷	-11.2179
後破救	-11.2181
引經證成	-11.2181
成壞二法	-11.2184
毛詩	-11.2186
隣人	-11.2187
過去現在	-11.2187
猶存	-11.2187
名慧	-11.2188
申明	-11.219
頓盡	-11.219
十品	-11.2191
既異	-11.2195
譬如瓶等	-11.2195
有作用	-11.22
不攝瓶	-11.2201
斯即	-11.2204
汝意	-11.2206
善趣	-11.2206
俱失	-11.221
▁初引經	-11.2212
一切眾生皆	-11.2214
以二智為	-11.2216
亦應如是	-11.2216
猶如虛空	-11.2216
俗即真	-11.2221
同喻不成	-11.2223
具縛	-11.2224
二正問	-11.2228
方便智	-11.2229
亦壞	-11.223
彼體	-11.2231
為正因體	-11.2238
謂聖心	-11.2238
菩薩言	-11.2239
開之	-11.224
有少法	-11.2241
皆屬	-11.2245
攝受	-11.2246
空即色	-11.2249
何等為	-11.225
行亦不受	-11.2251
觀心	-11.2254
師說	-11.2256
無所執	-11.2256
入理	-11.2258
現起	-11.2264
僧佉人	-11.2264
二儀	-11.2265
偏邪	-11.2266
法譬	-11.2268
不虛	-11.227
契理	-11.2271
而弗	-11.2277
責也	-11.2284
謗法	-11.2287
念佛	-11.2288
有二相	-11.2292
餘四	-11.2292
不見佛	-11.2293
可縛	-11.2297
長等	-11.2303
二正破	-11.2306
責異	-11.2308
少多	-11.2309
又依	-11.231
心心法	-11.231
展轉相	-11.2312
凡夫二乘	-11.2316
二字	-11.2316
有不失	-11.2316
動靜不二	-11.233
前引	-11.2331
解脫道	-11.2333
今辨	-11.2334
此義故	-11.2337
信矣	-11.2338
雖滅	-11.2339
惑取	-11.2341
物我	-11.2342
難陀	-11.2344
二品	-11.235
神道	-11.235
變異故	-11.2351
何不名	-11.2352
必依	-11.2353
引喻	-11.2357
生滅相	-11.2362
旨歸	-11.2363
無罪福	-11.2365
先正破	-11.2366
皆是世諦	-11.2376
般若之體	-11.238
三部	-11.2381
過去時中	-11.2387
作老	-11.2389
假號	-11.239
共位	-11.2392
然燈	-11.2395
設難	-11.2396
重玄	-11.24
二十三	-11.2402
有兩義	-11.2402
初總標	-11.2409
次四句	-11.2411
是有為法	-11.2412
名義	-11.2415
復何所	-11.2419
一體異體	-11.2419
有表不有	-11.2424
前雖	-11.2424
所出	-11.2427
因有果	-11.2428
若必	-11.2429
彼一切法	-11.2438
但舉	-11.2438
物理	-11.244
如向	-11.2451
更立	-11.2451
不了義	-11.2452
今次破	-11.2453
以其不來	-11.2457
離四句	-11.2457
呵之	-11.246
在家	-11.2464
據理	-11.2467
中有四	-11.247
現身	-11.2474
中復有	-11.2475
巳盡	-11.2479
有所無	-11.2481
亦不受	-11.2483
無有生	-11.2486
顯體	-11.249
若悟	-11.2493
不應作	-11.2498
則無窮	-11.25
如來滅後	-11.2502
破可破	-11.2502
神亦	-11.2508
色異	-11.251
分分	-11.2512
一切諸法皆	-11.2513
何因緣故	-11.253
不能令	-11.2531
有異相	-11.2537
故秤為	-11.2538
能顯	-11.2539
妄有	-11.2544
則不須	-11.2544
所迷	-11.2546
因過去時	-11.2546
執常	-11.2548
更相	-11.2549
不對	-11.255
中亦有	-11.2558
合為一	-11.2565
無礙道	-11.2566
前就	-11.2569
若云	-11.257
亦無常	-11.2573
識知	-11.2595
有惡	-11.2606
若有體	-11.2607
說非有非無	-11.2608
妄取	-11.2609
成熟	-11.2614
引大品	-11.2616
護法	-11.2618
因中有	-11.262
俗非諦	-11.2622
王宮	-11.2635
如大品	-11.2636
心想	-11.264
其餘	-11.2643
終不能	-11.2644
無異相	-11.2645
無常教	-11.2651
流入	-11.2657
此亦是	-11.266
分別智	-11.2665
之慧	-11.2666
釋頌文	-11.2669
空無相	-11.2671
存乎	-11.2682
波羅	-11.2682
如遮	-11.2696
壞時	-11.27
不疾	-11.27
孝	-11.2703
偈文	-11.2703
五果	-11.2703
朱	-11.2705
睿	-11.2707
歡	-11.2707
塵識	-11.2707
名為解脫	-11.2708
贊	-11.2709
稍	-11.2709
彖	-11.2709
丈	-11.2715
須彌入芥子	-11.2715
卒	-11.2715
範	-11.2716
恒河	-11.2716
阿闍梨	-11.2716
竺	-11.2717
昔物住昔	-11.2718
乏	-11.2718
全無	-11.2719
愈	-11.2719
僧肇	-11.272
武	-11.2721
欲言其有	-11.2721
地攝兩論	-11.2721
瓦	-11.2721
曇無德	-11.2721
大菩薩	-11.2722
賤	-11.2722
脩萬行	-11.2723
訶梨	-11.2723
裂	-11.2723
丑	-11.2723
摩醯首羅	-11.2724
屋	-11.2724
匡山	-11.2724
復次僧佉人言	-11.2724
如行而說	-11.2725
漭	-11.2725
愧	-11.2725
旃陀羅	-11.2725
葢	-11.2725
漸漸	-11.2725
其功	-11.2726
此部	-11.2726
二人俱有	-11.2726
詶	-11.2727
萬累	-11.2727
十八部	-11.2727
理極同無	-11.2728
鞞	-11.2728
霄	-11.2728
如說而行	-11.2728
是一物	-11.2729
即畢竟空	-11.2729
拙	-11.273
畢竟不生	-11.273
幼	-11.273
施主	-11.273
正量部	-11.2731
谷神	-11.2733
有其所以不無	-11.2734
棗	-11.2734
幽玄	-11.2734
操	-11.2734
安置	-11.2734
故有此門來	-11.2735
亦同此	-11.2736
中道為二諦體	-11.2736
照俗	-11.2736
如來性品	-11.2736
地攝等四家	-11.2737
進修三位	-11.2737
雙泯	-11.2737
物無不當	-11.2737
宇	-11.2737
壽命	-11.2738
篤	-11.2738
伸	-11.2738
田	-11.2739
故不常	-11.2741
此中應問	-11.2741
雙融	-11.2742
翻譯	-11.2742
染及染者	-11.2742
授記	-11.2743
相與而無	-11.2743
不二法門	-11.2743
如佛所言	-11.2744
增上慢	-11.2744
沙彌	-11.2745
陰陽	-11.2747
已生位	-11.2747
縱關	-11.2748
知即無知	-11.2749
本自無	-11.2749
昭然	-11.275
人身	-11.275
中後假	-11.2752
第十地	-11.2753
處有不有	-11.2755
又經云	-11.2756
令物解	-11.2756
究竟之道	-11.2757
一性異性	-11.2757
8	-11.2758
何故言	-11.276
外道立	-11.2763
色根	-11.2763
隨順眾生	-11.2764
小劫	-11.2764
建立諸法	-11.2764
一異門破	-11.2767
未生法	-11.2769
第二頭	-11.277
老少	-11.2772
知而無知	-11.2773
最為	-11.2776
斷過	-11.2776
度之	-11.2777
聖旨	-11.2779
或曰	-11.278
靈照	-11.2781
何關	-11.2782
不可聞	-11.2787
加行	-11.2789
宗途	-11.2791
無起滅	-11.2793
起信云	-11.2798
有果生	-11.28
結習	-11.2801
如云	-11.2801
不在於	-11.2801
具含	-11.2802
收入	-11.2803
超出	-11.2805
泥曰	-11.2808
用前後	-11.2808
曾當	-11.281
和上	-11.281
諸大	-11.2811
德王	-11.2812
七地菩薩	-11.2813
此舉	-11.2817
世俗有	-11.2822
或人	-11.2824
初念	-11.2824
可稱	-11.2827
極重	-11.2829
不二之道	-11.2832
輪轉	-11.2835
諸法性相	-11.2837
不堪	-11.2838
去者去法	-11.2842
開發	-11.2842
有間	-11.2843
數量	-11.2845
無見者	-11.2845
妄計	-11.2846
即無自性	-11.2847
第一家	-11.2848
而存	-11.285
造論意	-11.2853
了了見	-11.2855
有無之境	-11.2857
相現	-11.2858
觸對	-11.2858
有老死	-11.2859
為權智	-11.2863
經書	-11.2864
益物	-11.2864
諸德	-11.2865
大悲心	-11.2869
即是佛性	-11.2873
見不見	-11.2874
第二重	-11.2876
往復	-11.2877
種等	-11.2881
請問	-11.2882
四取	-11.2882
指前破	-11.2884
歷法	-11.2887
作善業	-11.2892
斯文	-11.2896
若有自體	-11.2898
邊際	-11.2902
以心為	-11.2904
住世	-11.2909
問前云	-11.291
諸世間	-11.2912
此一偈	-11.2914
佛眼	-11.2914
無有別	-11.2917
玄門	-11.2918
觀諸法	-11.2918
別說	-11.2918
火性	-11.2918
令信解	-11.292
方所	-11.2923
縱奪	-11.2932
初地斷	-11.2932
無知論	-11.2941
神相	-11.2944
二俱是	-11.295
初句牒	-11.2952
開善等	-11.2955
五地	-11.2955
外執	-11.2958
諸趣	-11.2958
略標	-11.2961
大智論	-11.2964
不成過	-11.2965
道德	-11.2965
著於	-11.2973
他體	-11.298
久住	-11.2986
驗無體	-11.2987
兩忘	-11.2995
業煩惱	-11.2999
及餘	-11.2999
情執	-11.3001
之地	-11.3003
悟非有非無	-11.301
大小乘經	-11.3013
舉事	-11.3014
感報	-11.3014
三車	-11.3015
終教	-11.3023
惡趣	-11.3023
一日	-11.3025
意業	-11.3026
望前	-11.3027
言非有	-11.3028
夫人	-11.3032
第十一	-11.3033
雖爾	-11.3039
因微	-11.304
過未	-11.3041
反本	-11.3042
義亦不成	-11.3053
善心	-11.3058
有前後	-11.3059
去去者	-11.306
學二諦	-11.3061
破斥	-11.307
既許	-11.307
壞因	-11.3073
正量	-11.3076
能感佛	-11.3078
重空	-11.3079
過咎	-11.3081
偈為三	-11.3082
菩薩悲心	-11.3082
相因而	-11.3083
復何用	-11.3087
漏盡	-11.3088
我欲	-11.3091
初偈上半	-11.3091
佛法身	-11.3092
此四種	-11.3093
豈同	-11.3094
如是第一義中	-11.3097
之宗本	-11.3103
過現	-11.3108
大生生	-11.3108
能障	-11.3109
不可說言	-11.311
更互相	-11.3115
若除	-11.3116
無遺	-11.3116
施與	-11.3117
多聞	-11.3117
釋下半	-11.3121
強說	-11.3121
順釋	-11.3123
於實相	-11.3123
何失	-11.3126
百論云	-11.3127
神則	-11.3143
常燃	-11.3146
若一切法空	-11.3149
若離於	-11.3149
有成壞	-11.3152
諸家	-11.3154
此計	-11.3154
不開	-11.3156
能持	-11.316
不敢	-11.3162
八種	-11.3164
後四句	-11.3167
初標宗	-11.317
會教	-11.3174
內教	-11.3175
難差	-11.3175
不可斷	-11.3178
陰等	-11.3187
說十二因緣	-11.3188
所存	-11.3192
三科	-11.3192
此疑	-11.3194
妄知	-11.3201
能有所	-11.3207
亦類	-11.3218
妙絕	-11.3221
有邊無邊	-11.3225
天下之	-11.323
所說法	-11.3234
釋中二	-11.3241
不愛	-11.3246
亦得是	-11.3255
不廢	-11.3262
破此二	-11.327
初序	-11.327
搖	-11.3271
三結成	-11.3271
異滅	-11.3275
受稱	-11.3282
問意云	-11.3285
二科	-11.3288
有三句	-11.3289
即是世諦	-11.329
己身	-11.3294
神心	-11.3295
故名為實	-11.3296
照理	-11.33
有所取	-11.3301
初二偈	-11.3304
以二諦為宗	-11.3305
雙明	-11.3318
五陰身	-11.3322
入無餘	-11.3323
令識	-11.3324
賢首	-11.3324
姚萇	-11.3325
業報	-11.3326
責向物於今	-11.3329
皆具	-11.333
苦無常	-11.3331
姚	-11.3332
非顛倒	-11.3332
官	-11.3333
拳	-11.3334
醫	-11.3335
悞	-11.3335
厲	-11.3335
佇	-11.3335
抽	-11.3335
於顛倒	-11.3336
冲	-11.3337
惡取空	-11.3337
恃	-11.3338
侶	-11.3338
銘	-11.3339
殘	-11.3339
企	-11.3339
逍遙園	-11.3341
上雖	-11.3343
悔	-11.3343
纔	-11.3344
早	-11.3344
浩	-11.3344
欽	-11.3344
雷	-11.3344
所求	-11.3345
敷	-11.3345
爻	-11.3346
素	-11.3347
侍	-11.3347
煙	-11.3348
無去無來	-11.3348
英	-11.3348
從初至	-11.3349
如虛空花	-11.335
於凡是諦	-11.3351
遁	-11.3351
安在	-11.3351
生老病死	-11.3351
龜	-11.3352
如水中月	-11.3352
回	-11.3352
頑	-11.3352
何以言	-11.3354
貶	-11.3355
婬欲	-11.3356
少壯	-11.3356
未兆	-11.3356
壽量	-11.3357
非空非不空	-11.3357
攝嶺	-11.3357
中百二論	-11.3357
舍利	-11.3357
紀	-11.3358
異自我耳	-11.3358
唯在	-11.3358
不動真際	-11.3358
遠離二邊	-11.3359
工	-11.3359
郢人	-11.3359
鳩摩羅什	-11.3359
境為智	-11.336
照不失虗	-11.3361
用歸體	-11.3361
闊	-11.3361
無十方分	-11.3361
詐	-11.3361
薩婆多部	-11.3362
為末	-11.3362
無名無說	-11.3362
偶	-11.3363
本性清淨	-11.3363
二諦合明中道	-11.3364
逢	-11.3365
道遠乎哉	-11.3365
能相所相	-11.3366
積聚	-11.3366
如空花等	-11.3366
契經言	-11.3366
至昔	-11.3366
黨	-11.3367
破不收	-11.3368
非有亦非無	-11.3368
存不為有	-11.3369
此論正	-11.3369
新新	-11.337
現在未來時	-11.3371
自謙	-11.3372
注釋為二	-11.3372
悲心者	-11.3373
窈	-11.3373
北方	-11.3374
長養	-11.3374
十二年	-11.3374
釋僧肇	-11.3377
能證之人	-11.3377
曾見	-11.3377
不行中道	-11.3378
十二緣	-11.338
勸學	-11.3381
無同喻	-11.3381
命終	-11.3383
無所從來	-11.3383
c	-11.3384
次半偈	-11.3384
謝過去	-11.3384
而不動	-11.3385
聖賢	-11.3388
四禪	-11.3388
漚和般若	-11.3393
目之	-11.3394
緣中無	-11.3394
已去未去去時	-11.3396
有多門	-11.3399
命根	-11.34
上座	-11.3404
推窮	-11.3409
弘道	-11.341
已前	-11.3411
地大	-11.3411
契經	-11.3412
方見	-11.3413
在論初	-11.3413
諸比丘	-11.3414
語非也	-11.3416
覆疏	-11.3419
可轉	-11.3421
眾人	-11.3421
聖心無知	-11.3422
此據	-11.3423
無住處	-11.3426
煩重	-11.3428
可知矣	-11.343
異而同	-11.343
信心	-11.3432
直說	-11.3432
五種佛性	-11.3434
設復	-11.3435
有無之外	-11.3435
愛著	-11.3437
身業	-11.3437
起邪見	-11.3443
隨機	-11.3444
執異	-11.3448
旋	-11.345
▁No	-11.345
隨世俗	-11.345
結歸	-11.3452
未嘗不	-11.3458
有九	-11.3459
三苦	-11.346
諸有情	-11.346
諸外道等	-11.3461
二者上	-11.3464
煩惱障	-11.3471
深玄	-11.3478
此非道理	-11.3479
」《	-11.348
後秦	-11.3485
若其無	-11.3485
不可壞	-11.3487
有遠近	-11.349
如是應知	-11.3492
受果報	-11.3494
此中云何	-11.3495
半行	-11.3496
奪其	-11.3498
止善	-11.35
如下云	-11.3501
此因不成	-11.3502
因有故	-11.3504
所執我	-11.3506
即無生	-11.3508
小住	-11.3512
若無聖人	-11.3516
菩薩藏	-11.3516
四失	-11.352
八計	-11.3521
廣辨	-11.3521
異處	-11.3522
中十信	-11.3534
如是五句	-11.3535
異熟	-11.3538
還墮	-11.3542
不壞假名	-11.3544
有二體	-11.3546
無私	-11.3548
破除	-11.3548
化他	-11.3551
未生生	-11.3553
諸色	-11.3554
彼果	-11.3554
極果	-11.3556
無知無見	-11.3556
文中初	-11.3561
無別有	-11.3563
空行	-11.3569
平正	-11.3572
理性	-11.3574
成論等	-11.3574
令我	-11.3575
斷證	-11.3576
救眾生	-11.3578
巳來	-11.3578
何所滅	-11.3579
不能稱	-11.3579
不遠	-11.3585
將來	-11.3585
若未有	-11.3592
如是分別	-11.3593
判二諦	-11.3597
雖多	-11.3599
此不相應	-11.36
誰復	-11.3603
便壞	-11.3607
異端	-11.3607
樹下	-11.3607
立教	-11.3608
顯不二	-11.3608
波若波羅蜜	-11.361
爾乃	-11.3613
無本際	-11.3616
相資	-11.3616
菩提心	-11.3621
文殊問	-11.3622
決定相	-11.3626
真諦無相	-11.3628
聖應	-11.3632
此二義	-11.3633
非作者	-11.3633
云何名為	-11.3634
之迹	-11.3637
大德	-11.3644
今穀	-11.3644
同處	-11.3645
問外人	-11.3646
今只	-11.3649
便滅	-11.3653
離去法	-11.3658
運動	-11.3659
無此過	-11.3671
佛土	-11.3675
有餘涅槃	-11.3679
如僧佉	-11.368
三千	-11.3683
本身	-11.3684
離薪	-11.3686
問經云	-11.3691
入法性	-11.3692
云何言無	-11.3695
愛樂	-11.3697
有瓶生	-11.3701
思益經	-11.3703
可依	-11.3707
失旨	-11.3709
斷諸煩惱	-11.3709
二種俱	-11.372
色聲	-11.3722
眾緣生	-11.3729
出過	-11.3731
同異性	-11.3731
不可稱	-11.3739
二諦一體	-11.3753
化佛	-11.3761
四方	-11.3762
情計	-11.3764
獨立	-11.3768
六事	-11.3774
若言諸法	-11.3791
里	-11.3792
亦有二	-11.3795
抱	-11.3805
穢土	-11.3815
今引	-11.3816
方便權	-11.3817
一塵	-11.382
破顛倒	-11.3821
因生果	-11.3827
明一乘	-11.3829
不熱	-11.3829
證上	-11.3845
內證	-11.3845
為究竟	-11.3848
三藏教	-11.3854
止觀	-11.3855
如是所說	-11.3856
他宗	-11.3857
言詮	-11.3873
略解	-11.3876
屬於	-11.3896
未至	-11.3902
發言	-11.3904
盡理	-11.3907
二十二	-11.3923
何獨	-11.3926
直云	-11.3928
復須	-11.3941
彼自性	-11.3948
宜須	-11.3948
當知是	-11.3954
無因無果	-11.3955
宗致	-11.3956
於凡有	-11.3956
八十	-11.3958
方便道	-11.396
若定有	-11.3961
待於	-11.3966
兩處	-11.3968
下半釋	-11.3972
無一物	-11.3984
不應復	-11.3984
有縛解	-11.3984
有染者	-11.3984
一切皆空	-11.3988
皇帝	-11.3989
雪	-11.3991
凉	-11.3992
缾	-11.3995
先已遮故	-11.3995
此間	-11.3996
沉	-11.3996
慰	-11.3997
所待	-11.3997
陶	-11.4002
讓	-11.4002
如陶師	-11.4002
隣虛塵	-11.4003
游刃	-11.4003
末後	-11.4004
污	-11.4004
眇	-11.4004
薩衛	-11.4004
孟	-11.4005
作解	-11.4005
此中說驗	-11.4006
調伏	-11.4007
卑	-11.4007
財寶	-11.4007
麗	-11.4008
內出	-11.4008
鎔	-11.401
健	-11.401
竺法汰	-11.4011
畔	-11.4011
舜	-11.4012
枝條	-11.4013
司	-11.4013
第三難	-11.4014
精勤	-11.4014
嚮	-11.4014
摩尼	-11.4014
鴈	-11.4015
有佛無佛	-11.4015
撓	-11.4015
非有為非無為	-11.4016
能修	-11.4016
樓	-11.4016
簣	-11.4017
尸	-11.4017
佛告極勇猛	-11.4018
吳	-11.4018
躰	-11.4018
吹	-11.4019
密嚴	-11.4019
大唐中印度三藏波羅頗蜜多羅譯	-11.4019
善根人有	-11.402
前滅後生	-11.402
窺	-11.402
不遮	-11.402
壑	-11.402
快樂	-11.4021
伯	-11.4021
心行處滅	-11.4021
火燒	-11.4022
是不思議	-11.4022
所觀之境	-11.4022
白首	-11.4022
虗不失照	-11.4022
色性自空	-11.4022
曹	-11.4023
微言	-11.4023
祛	-11.4023
不相往來	-11.4023
如是等諸修多羅	-11.4024
聾	-11.4024
文正爾	-11.4024
第三總結	-11.4024
有一物	-11.4024
電	-11.4024
非非有非非無	-11.4025
能得之人	-11.4025
無表不無	-11.4025
梁武	-11.4025
定慧之名	-11.4025
第十二	-11.4026
不到闇	-11.4026
苞	-11.4027
闡提人無	-11.4027
窮理盡性	-11.4027
匠石	-11.4029
骨	-11.4029
懈	-11.4029
是名般若波羅蜜	-11.4029
諸賢聖真知顛倒性空	-11.4029
狗	-11.4029
有本作	-11.403
染法染者	-11.403
障中道	-11.403
真般若者	-11.4031
又開三	-11.4031
乍	-11.4031
遷即不遷	-11.4031
觸事而真	-11.4033
偃	-11.4033
身口意	-11.4033
逐近	-11.4034
常與無常	-11.4034
惚	-11.4036
是事則不然	-11.4036
正感	-11.4036
一實諦	-11.4037
去時有去	-11.4037
野馬	-11.4037
輕薄	-11.4037
物物斯照	-11.4038
地持論	-11.4042
隨眠	-11.4043
定有定無	-11.4044
攝大乘論	-11.4045
時處	-11.4046
通漏無漏	-11.4046
別論	-11.4047
能破暗	-11.4047
數緣盡	-11.4048
答中上半	-11.4048
積德	-11.4048
三災	-11.405
分別說三	-11.4051
申破	-11.4052
前世	-11.4053
從自體生	-11.4054
借無以	-11.4056
猶如色等	-11.4058
先已有	-11.4059
七十七	-11.4059
二推釋	-11.4059
三不三	-11.406
泯絕	-11.4062
八謬	-11.4063
影闇	-11.4067
頓悟	-11.4067
財施	-11.4069
作如此說	-11.4069
十四難	-11.407
絙	-11.407
是義云何	-11.4071
散壞	-11.4073
對境	-11.4073
申正涅槃	-11.4073
離二邊	-11.4075
俱泯	-11.4075
是故名諦	-11.4078
▁二推釋	-11.408
中國	-11.408
何名為	-11.4081
道行云	-11.4083
未忘	-11.4084
塵勞	-11.4085
梁傳	-11.4087
入於涅槃	-11.4088
前後一時	-11.4094
玄微	-11.4095
未曾有無	-11.4095
應須	-11.4096
四天下	-11.4097
不朽	-11.4098
四品	-11.4104
二諦教門	-11.4105
梵云	-11.4107
識支	-11.4109
王子	-11.411
形色	-11.4111
不能起	-11.4111
名目	-11.4112
卷第二	-11.4112
染著	-11.4114
百偈	-11.4117
世諦第一義諦	-11.4121
云何得有	-11.4123
亦有此義	-11.4125
引二經	-11.4125
次偈明	-11.4129
住持	-11.4129
如苦樂等	-11.4134
大段	-11.4134
前陰	-11.4135
因無果	-11.4136
第二念	-11.4136
其間	-11.4139
地水	-11.4139
超境	-11.4141
仁王	-11.4143
隨俗說	-11.4144
三時中	-11.4145
與有合	-11.4145
十住菩薩	-11.4146
如上說	-11.4149
因喻	-11.4152
因能生果	-11.4153
惑情	-11.4155
不遷之理	-11.4155
到彼	-11.4155
夫聖人	-11.4156
有漏無漏	-11.4163
自部	-11.4164
可會	-11.4165
云何驗	-11.4165
三乘之人	-11.4166
第二家	-11.417
此中所說	-11.417
說不說	-11.4171
外道所計	-11.4171
六通	-11.4179
□□□□□	-11.418
解脫門	-11.418
本自無生	-11.418
何益	-11.4185
諸佛如來	-11.4186
迷執	-11.4187
應信受	-11.419
行般若波羅蜜	-11.4192
眼不能見	-11.4193
答一往	-11.4197
自違	-11.4201
可待	-11.4201
深重	-11.4202
抱一	-11.4205
真金	-11.4208
真實相	-11.4209
齊觀	-11.4213
有為波若	-11.4215
若常無常	-11.4215
世俗言說	-11.4216
故名中道	-11.4219
亦不應言	-11.4221
永無	-11.4224
為令眾生	-11.4227
有二理	-11.4236
空為有	-11.4243
是同法喻	-11.4248
有六種	-11.4248
斯意	-11.4249
如大品云	-11.4256
問曰下第二	-11.4259
畢竟寂滅	-11.426
入關	-11.4265
此中先	-11.427
若據	-11.4275
不應分別	-11.4281
了不了	-11.4282
表不有	-11.4282
法忍	-11.4284
無因作	-11.4284
第二兩偈	-11.4287
有名者	-11.4291
所害	-11.4292
故經言	-11.4294
值佛	-11.4296
失道	-11.4296
得戒	-11.4299
未來現在	-11.4303
兩物	-11.4304
如實智	-11.4308
至虗	-11.4313
眾緣中	-11.4314
遂成	-11.4317
去世	-11.4324
二百	-11.4328
求其	-11.4329
應信	-11.4337
標章門	-11.4338
之所歸	-11.4345
分齊	-11.4346
作不作	-11.4352
未解	-11.4353
實相般若	-11.4355
所須	-11.4356
不來不去	-11.4374
不長	-11.4374
明法空	-11.438
敬三寶	-11.439
成病	-11.4391
義利	-11.4394
依二諦說	-11.4395
如是觀察	-11.4399
未聞	-11.44
凡物	-11.4401
成佛時	-11.4404
成論明	-11.4413
假名因緣	-11.4413
梵本	-11.4417
物外	-11.4424
之甚	-11.4425
然則下	-11.4428
引放光	-11.4437
有別體	-11.4439
空有俱	-11.4443
不可測	-11.4446
明八不	-11.4454
利根者	-11.4459
名句	-11.4462
無漏法	-11.4467
亦未曾	-11.4468
此比量	-11.4472
顯矣	-11.4473
無能破	-11.4476
結盡	-11.4479
俱不說	-11.4479
於此中	-11.4481
名家	-11.4483
自他共	-11.4486
體用不二	-11.4487
智諦	-11.449
後陰	-11.4491
大王	-11.4496
若已有	-11.4497
微塵等	-11.4497
菩提智	-11.4499
人有法	-11.4499
初正釋	-11.4501
云何不成	-11.4503
若因中無果	-11.4504
主諦	-11.4506
諸佛所說	-11.451
總別一體	-11.4514
無因有果	-11.4514
一質	-11.4518
凡有四	-11.4521
寄言	-11.4521
是則為	-11.4522
諸極微	-11.4524
顯外人	-11.4526
此品中	-11.4528
可證	-11.453
兩理	-11.4532
是故經云	-11.4532
後一偈	-11.4533
三藏中	-11.4539
斥破	-11.4541
不殺	-11.4542
悲心施	-11.4549
所受用	-11.4553
違經	-11.4553
十六諦	-11.4565
則應有	-11.4569
就情	-11.457
前來	-11.4573
如長短	-11.4573
會理	-11.4574
無分位	-11.4578
一切因果	-11.4581
當現	-11.4583
有人云	-11.4589
初約	-11.4593
具在	-11.46
復何為	-11.4603
壞滅	-11.4606
非真實	-11.4619
實有性	-11.462
唯是一	-11.4623
不可令	-11.4632
諸所作	-11.4636
悟無生	-11.4648
真實義	-11.4648
偏病	-11.4662
弘始三年	-11.4671
名無名	-11.4673
本來不生	-11.4678
收取	-11.469
獸	-11.4697
干	-11.4698
昔物自在昔	-11.4706
井	-11.4709
魯	-11.4709
忍辱	-11.4711
破一切法	-11.4712
心大歡喜	-11.4715
採	-11.4717
凡有心者	-11.4717
銷	-11.4719
世間相常住	-11.4719
豐	-11.4719
杳	-11.472
飢	-11.472
寡	-11.4721
槃	-11.4722
黎	-11.4722
所知之境	-11.4722
拒	-11.4722
蟲	-11.4724
法無有無之相	-11.4724
初生燈	-11.4725
洪	-11.4725
冠	-11.4726
暇	-11.4726
本經二十	-11.4726
打	-11.4727
勒	-11.4727
希夷	-11.4727
本有始有	-11.4727
弘道終日	-11.4727
荷	-11.4728
剎	-11.4728
明與無明	-11.4728
碍	-11.4729
盈	-11.4729
誨	-11.4729
欲言其無	-11.473
注肇論疏	-11.473
眠	-11.473
依世諦說	-11.473
役	-11.4731
丸	-11.4731
無明住地	-11.4731
恍	-11.4731
恬淡	-11.4732
樂苦癡	-11.4732
是因非果	-11.4732
榮	-11.4732
補處	-11.4733
色聲香味觸	-11.4733
色香味觸	-11.4733
彌綸	-11.4733
籠	-11.4733
困	-11.4733
侯	-11.4733
是果非因	-11.4734
螢	-11.4734
泛	-11.4734
是故偈中說	-11.4734
因與因因	-11.4735
爭	-11.4735
晦	-11.4735
嶽	-11.4735
瓜	-11.4735
物莫之無	-11.4735
憎	-11.4735
萌	-11.4735
懷抱	-11.4736
輪迴	-11.4736
有三家	-11.4736
側	-11.4736
色不自色	-11.4736
病人	-11.4737
答曰下第三破救	-11.4737
終歸於空	-11.4737
膏	-11.4737
偈本龍樹菩薩釋論分別明菩薩	-11.4737
十號	-11.4737
偷	-11.4738
徃來	-11.4738
成毗二家	-11.4738
昧者不覺	-11.4738
似空花	-11.4738
緣所不能生	-11.4738
掩	-11.4739
三是故下結	-11.4739
泉	-11.4739
世諦即第一義諦	-11.4739
陵	-11.4739
惜	-11.4739
戴	-11.474
黑白	-11.474
罔象	-11.474
八聖道	-11.4741
頻	-11.4741
求生不得	-11.4741
假有假無	-11.4741
善根人無	-11.4741
以神從覺	-11.4741
物我冥一	-11.4741
無名之致	-11.4741
瓶等諸物	-11.4741
伺察	-11.4742
勇猛	-11.4742
所以稱	-11.4742
唐捐	-11.4742
季	-11.4742
言語道斷	-11.4743
日損	-11.4743
一切有無法	-11.4743
取外意	-11.4743
累無不寂	-11.4744
軍林	-11.4745
下釋第二	-11.4745
錯亂	-11.4745
認	-11.4746
踐	-11.4747
理無差	-11.4747
如先所說	-11.4747
因謂之有	-11.4748
蔚	-11.4748
學士	-11.4748
遍一切處	-11.4748
即俗之真	-11.4749
過甚	-11.4749
譬如餘物	-11.4749
涅	-11.475
心智寂滅	-11.4751
一中解無量	-11.4751
不知何以目之	-11.4751
少年	-11.4751
緣盡於觀	-11.4752
真諦破假	-11.4752
以有觀故	-11.4752
暑	-11.4752
以何義故	-11.4752
柔	-11.4753
復作是	-11.4754
無如此義	-11.4755
同疑因	-11.4755
由有故無	-11.4755
精巧	-11.4757
玄鑒	-11.4759
靈鑒	-11.4759
譬如有人	-11.476
]	-11.476
三藏法師	-11.4761
不遷之旨	-11.4761
自性他性	-11.4761
如上所說	-11.4762
憂喜	-11.4762
萬里	-11.4762
瓔珞經云	-11.4763
遷去	-11.4764
荅言	-11.4764
譬喻部	-11.4764
▁157	-11.4765
[	-11.4765
f	-11.4765
人之所	-11.4766
下半正破	-11.4768
從因生	-11.4768
天地之	-11.477
過去未來現在	-11.477
存亡	-11.4771
光宅云	-11.4773
治病	-11.4773
四不四	-11.4775
畜生	-11.4776
羣方	-11.4776
須廢	-11.4777
不三三	-11.4777
有非真有	-11.4778
生滅無常	-11.4779
發願	-11.478
神御	-11.478
諸佛世尊	-11.4785
即為三	-11.4786
一法一時	-11.4788
平等無二	-11.4789
分有分	-11.4795
四師	-11.4796
設教	-11.4798
不能自有	-11.4801
學大乘	-11.4806
滅諸戲論	-11.4806
已謝	-11.4809
是故不得言	-11.4814
互現	-11.4817
初正答	-11.4819
如鏡	-11.4819
反責	-11.482
卷第三	-11.4821
二正答	-11.4823
九種	-11.4824
今第二破	-11.4825
佛答云	-11.4825
四章	-11.4825
今略舉	-11.4827
第一偈	-11.4829
至長安	-11.483
復次偈	-11.4832
百論疏卷	-11.4833
五戒	-11.4833
玄根	-11.4837
真諦無名	-11.4837
答略明	-11.4841
云何能生果	-11.4841
無為波若	-11.4842
禮佛	-11.4845
真諦三藏	-11.4845
反照智	-11.4846
功業	-11.4852
總攝一切	-11.4853
遷不遷	-11.4854
不煩	-11.4855
覩變	-11.4861
利根人	-11.4861
如佛所說	-11.4862
不住無為	-11.4863
虛空是有	-11.4865
成實義	-11.4866
申大小	-11.4867
慈心	-11.4869
所愛	-11.4869
陰中	-11.4874
於一切時	-11.4875
明得失	-11.4876
理外無	-11.4878
總身	-11.4879
為此義故	-11.488
容有	-11.4881
正因性	-11.4884
盲人	-11.4884
墮負	-11.4885
如空中	-11.4887
窮極	-11.4887
解脫樂	-11.4888
令悟不	-11.4889
光明等	-11.4897
詳之	-11.4905
因果俱	-11.4914
果不生	-11.4914
莫過	-11.4917
六度等	-11.4918
如來品	-11.4919
垢心	-11.4919
二周	-11.4923
眾生是佛	-11.4927
耳目	-11.4927
妄分別	-11.4929
妙智	-11.493
下總結	-11.4935
一一別	-11.4937
安法師	-11.4941
雙標	-11.4943
具四相	-11.4946
聞思	-11.4946
出世法	-11.4948
十演之	-11.4949
世間出世間	-11.4949
影師	-11.4951
軌則	-11.4951
何足	-11.4952
跋	-11.4959
明二諦中道	-11.4961
非不能非	-11.4963
悲智	-11.4964
日光	-11.4964
鈍根人	-11.4968
瓶初	-11.4968
歸依	-11.497
周易	-11.497
攝論云	-11.4972
本傳	-11.4978
所了	-11.4984
出三界	-11.4988
或有人	-11.4992
則為常	-11.4996
假說為	-11.4998
諸法無性	-11.5
眾分	-11.5006
答曰下第二	-11.5008
亦非實有	-11.5013
八識	-11.5027
不死	-11.5029
所覆	-11.503
聲無常	-11.5036
心無義	-11.5037
初三句	-11.5039
故放光云	-11.5041
靈明	-11.5052
要因	-11.5055
文句	-11.5057
卷第四	-11.5057
斷德	-11.5057
修多羅人	-11.5058
空無所有	-11.5059
經稱	-11.5064
中已破	-11.507
徵問	-11.5072
無有自體	-11.5072
不假緣	-11.5078
今是初	-11.5084
有利鈍	-11.5084
何得云	-11.5098
大品明	-11.51
之患	-11.5104
我所欲	-11.511
如瓶衣等	-11.5119
去者不去	-11.512
涅槃為果	-11.5124
前已破	-11.5127
更開	-11.5128
無垢	-11.513
冥真	-11.5145
深淺	-11.5146
方可	-11.5148
以相違故	-11.5152
若汝復	-11.5153
為道者	-11.5154
大象	-11.5157
息滅	-11.5158
自類	-11.5161
境界性	-11.5164
必由	-11.5173
名為法身	-11.518
開因果	-11.5182
之源	-11.5184
一剎那中	-11.5194
第三卷	-11.5196
於世俗	-11.5205
悟實相	-11.5209
因為果	-11.5216
上二門	-11.5217
行布施	-11.5225
是故汝言	-11.5229
號為	-11.5238
一時俱	-11.5238
有同有	-11.5245
尚不能	-11.5246
定有性	-11.5249
自相違	-11.5249
豈復	-11.5257
施作	-11.526
菩薩地	-11.5266
是二邊	-11.5273
現世	-11.5275
華嚴經	-11.5279
所感	-11.528
緣集	-11.5284
無復有	-11.5292
我今說	-11.5294
無緣緣	-11.53
初兩偈	-11.5316
獨空	-11.5323
是則非	-11.533
空無性	-11.5334
略同	-11.5349
自然有	-11.5353
上三門	-11.5354
不生不滅等	-11.5359
釋迦佛	-11.5363
推徵	-11.5366
習果	-11.5367
通因果	-11.5373
立義過	-11.5377
如華嚴	-11.5385
辦	-11.5387
作世界	-11.54
外人聞	-11.5401
初句明	-11.5401
眾生與佛	-11.5416
品品	-11.5421
既非有	-11.5426
所屬	-11.5432
朽	-11.5433
有一瓶	-11.5438
是中亦無	-11.5439
若無自體	-11.5453
隨其所	-11.5465
童	-11.5467
應當有	-11.5469
堯	-11.5473
竊	-11.5475
坐道場	-11.5477
皇	-11.5478
擔	-11.548
姑臧	-11.548
柏	-11.5482
親友	-11.5482
垂迹	-11.5483
斤	-11.5484
旃延	-11.5485
忘懷	-11.5485
殿	-11.5486
班	-11.5486
災	-11.5487
庸	-11.5487
宛	-11.5488
不從他	-11.5488
引說證成	-11.5488
欺	-11.5488
從本以來	-11.5489
生心動念	-11.5489
勇	-11.5489
瞖	-11.549
論師等	-11.549
斵	-11.5491
諱	-11.5491
念佛三昧	-11.5492
倉	-11.5492
窅	-11.5492
約境	-11.5493
十翼	-11.5493
假生假滅	-11.5493
若因若果	-11.5494
禹	-11.5494
男女等相	-11.5494
以破於	-11.5496
為二諦攝	-11.5496
交臂	-11.5496
迭	-11.5497
猴	-11.5497
翫	-11.5497
伊	-11.5497
成我所成	-11.5497
禁	-11.5498
恂恂	-11.5498
那忽	-11.5498
襟	-11.5499
八萬四千	-11.5499
閻浮提	-11.5499
魏	-11.55
一家相傳云	-11.55
生住異滅	-11.55
理無不契	-11.55
謂標釋結	-11.55
泰	-11.5501
十六知見	-11.5501
牛馬	-11.5501
園	-11.5501
弱喪	-11.5501
雖在昔而不化	-11.5501
談真	-11.5501
苦集滅道	-11.5502
當生善	-11.5502
省	-11.5502
為緣之所起	-11.5502
視聽	-11.5502
遷與不遷	-11.5502
韜	-11.5502
何以得知	-11.5503
山林	-11.5503
漠	-11.5503
龍光傳開善	-11.5503
丁	-11.5503
圜	-11.5503
牟尼	-11.5503
讚歎	-11.5503
塔	-11.5503
幽靈不竭	-11.5503
如龜毛等	-11.5504
罪福報應	-11.5504
不破暗	-11.5504
完	-11.5504
一乘之	-11.5505
威儀	-11.5505
候	-11.5505
蹈	-11.5505
若提子	-11.5506
坐禪	-11.5507
剖	-11.5507
冬	-11.5507
秘	-11.5507
芻	-11.5507
應逾動	-11.5508
試論之曰	-11.5508
可以神會	-11.5508
故下文云	-11.5508
道超名外	-11.5508
脩短	-11.5509
竅	-11.5509
根性不同	-11.5509
付屬	-11.5509
遍破一切	-11.551
果有其所以不有	-11.551
維	-11.551
勤勞	-11.5511
剎那剎那	-11.5512
始可	-11.5513
嶮	-11.5513
入地獄	-11.5513
。」△	-11.5514
去者住	-11.5514
耽	-11.5514
有十方分	-11.5514
物無當名之實	-11.5514
周旋	-11.5515
如契經	-11.5515
冥符	-11.5515
迦夷	-11.5516
代謝	-11.5516
臥	-11.5516
藥草	-11.5516
德無不圓	-11.5516
無會可撫	-11.5517
不滅不來	-11.5517
五陰永滅	-11.5517
不動等覺而建立諸法	-11.5517
混融	-11.5517
方寸	-11.5518
稟教之流	-11.5519
滅盡定	-11.5519
見有得道	-11.5519
半滿	-11.5519
銀	-11.5519
反質	-11.5519
展轉相續	-11.5521
末代	-11.5521
天女曰	-11.5521
物非真物	-11.5521
緣起故不無	-11.5521
6	-11.5521
因中前有果	-11.5522
必求靜於諸動	-11.5522
債	-11.5523
本性空寂	-11.5524
順忍	-11.5524
高尚	-11.5525
穀牙	-11.5525
何能生果	-11.5526
有生有滅	-11.5526
汙	-11.5527
三獸	-11.5527
時無別體	-11.5527
復次有作是	-11.5527
檀越	-11.5529
推斥	-11.5531
雙釋	-11.5532
申教	-11.5532
不復更滅	-11.5532
性種性	-11.5533
歎美	-11.5536
新舊	-11.5538
世間所解	-11.5539
卷第五	-11.5539
徧計	-11.5539
因緣所生	-11.5543
永絕	-11.5543
比度	-11.5543
聲聞法中	-11.5544
如是等類	-11.5546
三塗	-11.5547
摩訶衍論云	-11.5548
凡有三種	-11.555
空無我理	-11.5552
亦有亦無非有非無	-11.5553
前過失	-11.5554
雙亡	-11.5555
初如文	-11.5556
二世無義	-11.5557
有因無因	-11.5558
三慧品	-11.5558
火能燒	-11.5559
幻士	-11.5561
本業經	-11.5561
所造作	-11.5564
今現見	-11.5565
常住佛果	-11.5566
何故偏	-11.557
內入等	-11.557
變動	-11.5573
動搖	-11.5574
偈意如	-11.5579
不識世諦	-11.558
殊勝	-11.5582
生死無始	-11.5583
因中果	-11.5584
聖人之心	-11.5585
遮止	-11.5586
一行半	-11.5587
得繩	-11.5588
取意破	-11.5588
十二門論云	-11.559
學無所得	-11.5596
倒情	-11.5597
無隅	-11.56
口業	-11.5601
敵論	-11.5604
皆無自性	-11.5605
蹤跡	-11.5606
利益眾生	-11.5608
苦聖諦	-11.5611
▁○	-11.5612
證有神	-11.5614
最大	-11.5615
譬如瓶	-11.5616
有無相生	-11.5622
不矜	-11.5628
一家云	-11.5632
從大生	-11.5633
常途	-11.5633
且約	-11.5636
非有性	-11.564
計度	-11.5641
理奪	-11.5642
有為俗	-11.5642
第三家	-11.5643
虗空無為	-11.5649
迴心	-11.5653
九折之	-11.5656
如經中說	-11.5656
定不定	-11.5659
往昔	-11.5659
今詳	-11.5661
般若清淨	-11.5663
無所著	-11.5665
合譬	-11.567
滅諸煩惱	-11.5673
退轉	-11.5679
是作故	-11.5683
是故應知	-11.5683
不離斷常	-11.5684
此句明	-11.569
理致	-11.569
大乘宗	-11.5691
徵責	-11.5692
非名非	-11.5692
若能如是	-11.5693
牒經	-11.5693
有而不有	-11.5694
不著有	-11.5695
失世諦	-11.5699
有空為真諦	-11.57
大判	-11.57
扶生	-11.5704
相承	-11.5715
不能自異	-11.5716
世諦中有	-11.5718
同而異	-11.572
空解脫門	-11.5723
大小俱	-11.5727
所收	-11.5729
覺了	-11.5729
決了	-11.5729
起愛見	-11.5732
有通別	-11.5737
頌文	-11.5737
數數	-11.5739
不行於	-11.5742
二世無	-11.5744
順通	-11.5747
玄宗	-11.5752
假有不有	-11.5755
去不去	-11.5756
五情	-11.5759
故須破	-11.5759
五趣	-11.5768
依他性	-11.5772
斷集	-11.5773
墮於常	-11.5775
得人空	-11.5775
隨轉	-11.5777
是因緣義	-11.5778
不從因緣	-11.5786
夫人經	-11.5788
於勝義	-11.579
始教	-11.579
宜當	-11.5796
初二句明	-11.5797
伏惑	-11.5804
如經偈	-11.5806
第三一偈	-11.581
前已廣	-11.5812
有三階	-11.5814
七業	-11.5819
此引證	-11.5819
覺悟	-11.5831
盡不盡	-11.5833
深妙	-11.5836
諸句	-11.5836
則無自性	-11.5839
書問	-11.584
不備	-11.5841
依毘曇	-11.5846
非二不二	-11.5847
有質礙	-11.5848
不害	-11.585
成正覺	-11.5856
學教	-11.5858
上來明	-11.5865
生歡喜	-11.5868
從無明	-11.5874
十二處	-11.5879
諸佛說法	-11.5885
照空有	-11.5886
此之三	-11.5903
一一根	-11.591
亦如前	-11.591
譯經	-11.591
不覺知	-11.5917
問若然	-11.592
名號	-11.5923
無非無	-11.5927
第二章	-11.5939
陰攝	-11.5946
入一乘	-11.595
理實無	-11.5951
未待	-11.5959
有二十	-11.5961
分析	-11.5962
虛空是無	-11.597
公曰	-11.5973
質礙	-11.5986
願力	-11.5993
無漏業	-11.6002
中道正觀	-11.6008
所遣	-11.6018
肇之	-11.6019
成實明	-11.6024
菩薩位	-11.6033
有五種	-11.6041
意趣	-11.6046
摩訶波若	-11.6047
又前破	-11.6072
既無自性	-11.6072
無所得善	-11.6072
本自不	-11.6082
樂欲	-11.6094
六諦	-11.6099
靈智	-11.6099
中假義	-11.6103
亦不名	-11.6105
二十七品	-11.6107
有因有果	-11.6108
如舍利弗	-11.6109
問云何為	-11.6116
更增	-11.6119
復次若謂	-11.6129
重救	-11.6135
墮斷滅	-11.6148
猶是一	-11.6157
如車	-11.6161
大利	-11.6162
第二總結	-11.6168
應是無常	-11.617
九折	-11.6183
三相品	-11.6184
以理推	-11.6188
亦不立	-11.6196
能御	-11.6199
於其中	-11.6201
破毘曇	-11.6203
標指	-11.6204
定是有	-11.6217
不復生	-11.6227
成斷常	-11.6228
執情	-11.6231
是則名為	-11.6231
復有異	-11.6235
有與無	-11.6264
空有兩	-11.6264
有三諦	-11.6266
非根境	-11.6272
萬世	-11.6279
內外兩	-11.6282
詩云	-11.6296
叩	-11.63
洹	-11.6304
托	-11.6309
罷	-11.6309
不留	-11.6313
皮陀	-11.6313
我無過	-11.6314
稻穀等	-11.6316
從佛起	-11.6318
安穩	-11.6318
所宜	-11.6318
市	-11.6319
瀑	-11.6319
謀	-11.632
無如上過	-11.632
起盡法	-11.6321
楚	-11.6321
攻	-11.6321
善知識	-11.6321
妻	-11.6322
如來無一切智	-11.6322
危	-11.6323
便墮	-11.6323
坑	-11.6324
褒貶	-11.6324
藪	-11.6324
第四偈	-11.6324
舞	-11.6324
陸	-11.6325
羈	-11.6325
煮	-11.6325
怙	-11.6325
皎	-11.6326
聖無有無之知	-11.6326
焦	-11.6327
繼	-11.6327
斧	-11.6327
惡止善行	-11.6327
臂	-11.6327
栖	-11.6327
隣虛	-11.6328
高僧傳	-11.6328
辛	-11.6328
還歸	-11.6329
粗	-11.6329
卷第一	-11.6329
宰	-11.6329
法性生身	-11.6329
阿梨耶識	-11.6329
險	-11.633
四悉壇	-11.633
晏	-11.633
面折	-11.633
陽焰	-11.633
倣	-11.633
刈	-11.6331
除糞	-11.6331
於今未甞有	-11.6331
魂	-11.6331
生怖畏	-11.6332
庭	-11.6332
不可以智知	-11.6332
神而無功	-11.6332
猛利	-11.6332
靜而非動	-11.6332
各性住於一世	-11.6332
鹿苑	-11.6333
懼	-11.6333
話	-11.6333
論初已來	-11.6333
不二之旨	-11.6333
岳	-11.6333
洽	-11.6334
圍	-11.6334
不從非緣生	-11.6334
詎	-11.6335
徑	-11.6335
京	-11.6335
無滯而不通	-11.6336
自上以來	-11.6336
非色滅空	-11.6336
東晉	-11.6336
蹄	-11.6336
抱一湛然	-11.6336
稻	-11.6337
十萬偈	-11.6338
名實無當	-11.6338
此品初	-11.6338
無動轉者	-11.6338
三乘同觀	-11.6338
符堅	-11.6338
其致一也	-11.6339
為破彼執	-11.6339
魄	-11.6339
佛在世時	-11.634
趨	-11.634
普賢	-11.634
無狀無名	-11.634
氷	-11.634
憙	-11.634
嵩	-11.634
璣	-11.6341
損害	-11.6341
塊	-11.6341
闡提人有	-11.6341
謹	-11.6342
陰入界	-11.6342
渧	-11.6342
有於凡實	-11.6342
諦不諦	-11.6342
燃燈佛	-11.6342
用三去	-11.6342
至於無損	-11.6342
相扶	-11.6342
決擇	-11.6343
物莫之有	-11.6343
薩波若	-11.6343
循	-11.6344
廁	-11.6344
不生亦不滅	-11.6344
虛不失照	-11.6344
出生入死	-11.6344
兩言一會	-11.6345
呪術	-11.6345
群情	-11.6345
北土	-11.6346
闍那	-11.6346
何處當有	-11.6346
三法一體	-11.6347
非實非不實	-11.6347
譬如耶若達多	-11.6347
觀盡於緣	-11.6347
譬如幻化人	-11.6348
釋卷第十	-11.6348
聖智之無	-11.6348
團	-11.6349
一有一無	-11.6349
但有名字	-11.635
物莫之逆	-11.635
人法俱有	-11.635
性莫之易	-11.635
森羅	-11.635
思擇	-11.6351
彌昧	-11.6351
能破所破	-11.6351
賓主	-11.6351
曇摩	-11.6351
十二相生	-11.6351
江南	-11.6352
此無過失	-11.6352
蘭	-11.6352
放逸	-11.6352
是事亦不然	-11.6353
金剛三昧	-11.6353
二人俱無	-11.6353
?「	-11.6355
如汝所言	-11.6355
勸捨	-11.6355
因中有果無果	-11.6355
觀門次第	-11.6357
四大造	-11.6358
無我無我所	-11.6358
撥無因果	-11.6359
依福捨罪	-11.6359
百家	-11.636
能緣所緣	-11.6361
無有定相	-11.6362
四大所生色	-11.6363
能作所作	-11.6364
今所明者	-11.6364
論大宗	-11.6365
三解脫門	-11.6366
涅盤	-11.6368
生時亦不生	-11.6368
真即俗	-11.6371
眾緣合時	-11.6372
不出人法	-11.6372
着寂	-11.6373
為凡說有	-11.6375
萬像	-11.6376
相與而有	-11.6378
禾	-11.6378
得佛理	-11.6379
善星	-11.6381
從因生果	-11.6381
差別無差別	-11.6392
凡有四義	-11.6397
汝不應言	-11.6399
且止	-11.64
此中應知	-11.6403
化母	-11.6404
聰明	-11.6404
▁二正答	-11.6406
逆順	-11.6408
受受者	-11.6408
接引	-11.641
含識	-11.6412
眼光	-11.6413
因果相生	-11.6414
猶未盡	-11.6415
開為四	-11.6416
不見不空	-11.6419
起信論	-11.642
待不待	-11.642
他作苦	-11.642
略有二種	-11.6421
文勢	-11.6422
鬼見	-11.6422
定惠	-11.6423
略有三	-11.6423
頓教	-11.6423
二十一	-11.6424
猶尚	-11.6431
玅道	-11.6431
關內	-11.6431
能伏	-11.6434
聲聞乘	-11.6437
端正	-11.6437
塵想	-11.6444
所謂非有	-11.6447
聖人無心	-11.6452
王宮生	-11.6458
思念	-11.646
此有何異	-11.6462
種種差別	-11.6466
果空故	-11.6469
致令	-11.6476
眼識等	-11.648
自相住	-11.6486
利益他	-11.6488
擊發	-11.6491
無同法喻	-11.6493
兩字	-11.6508
欲使	-11.6509
機感	-11.6516
都無所有	-11.6519
數人云	-11.652
提婆菩薩	-11.6521
罪業	-11.6522
心慧境	-11.6527
汝意欲	-11.6528
其義不成	-11.6533
未縛	-11.6535
空為空	-11.6538
非有非無為中	-11.654
決定無生	-11.654
竝觀	-11.6542
不從他生	-11.6544
注為	-11.6554
未生而生	-11.6555
虗而不	-11.6557
我法中	-11.6559
受持	-11.6569
重牒	-11.6571
凡迷	-11.6574
見在未來	-11.6582
改變	-11.6583
得無上菩提	-11.6594
本有佛性	-11.6599
有知無知	-11.6605
呵外人	-11.6605
外塵	-11.6607
有所住	-11.6629
同虗空	-11.6633
心無所依	-11.6635
依主	-11.6639
有廣略	-11.6643
眾緣合	-11.6645
四海	-11.6648
無見有	-11.6658
常依二諦	-11.6662
亦不可言	-11.6664
起一念	-11.6675
以之而	-11.6676
因不生果	-11.6677
六道眾生	-11.6697
不可言說	-11.6707
要先	-11.6714
如來自體	-11.6728
種勢	-11.6732
斷善根	-11.6743
等諸因	-11.6744
破作作者	-11.675
後當廣	-11.6766
不可翻	-11.678
迷惑	-11.6785
眾流	-11.679
兩殊	-11.6799
相害	-11.6803
實慧方便	-11.6803
形量	-11.6804
合不合	-11.6805
雙難	-11.6808
不從因緣生	-11.681
接前	-11.6815
為聖說	-11.6843
不欲得	-11.6847
利鈍	-11.6847
正勤	-11.6871
所了知	-11.6893
先敘	-11.6898
大小兩教	-11.6911
無為法中	-11.6911
偈上半牒	-11.6923
名不思議	-11.6928
誓願	-11.6933
不傷	-11.6946
有傍正	-11.6959
斷常二見	-11.6963
以彼為	-11.6976
世諦破性	-11.6977
自樹	-11.6986
而可成	-11.6991
不明了	-11.6993
詮理	-11.6993
十演	-11.6998
不成問答	-11.7012
所持	-11.7061
三界繫	-11.7065
自他俱	-11.7085
漏無漏	-11.7085
佛國土	-11.7104
無動無	-11.7107
第二雙	-11.7131
法花經	-11.7203
喜樂	-11.7211
蘇摩	-11.7212
道慧道種慧	-11.7213
歸一乘	-11.7214
諸經論	-11.7215
焚	-11.7215
黃帝	-11.7216
初十心	-11.7216
松	-11.7218
痛	-11.7218
姚主	-11.7219
倚	-11.722
是能化	-11.7221
瓔珞經	-11.7222
阿羅漢辟支佛	-11.7223
汰	-11.7224
翅	-11.7224
快	-11.7225
吞	-11.7228
紫	-11.7229
象師	-11.7229
踰	-11.7229
玩	-11.723
鉤	-11.723
璃	-11.723
尾	-11.723
訶	-11.723
有得有失	-11.723
法自相相違	-11.7231
瑜伽	-11.7232
否	-11.7232
創	-11.7232
取及取者	-11.7232
屍	-11.7233
駕	-11.7233
習種性	-11.7233
老莊	-11.7233
須臾	-11.7233
非本非始	-11.7233
審觀察	-11.7234
煥	-11.7234
輙	-11.7234
蓮社	-11.7234
緒	-11.7234
瞻	-11.7234
左右	-11.7235
爪	-11.7235
譯場	-11.7235
髓	-11.7236
紙	-11.7236
如先已遮	-11.7236
遭	-11.7236
宿命	-11.7236
廣狹	-11.7237
佛與菩薩	-11.7237
蘇酪	-11.7238
鄰	-11.7238
食油	-11.7238
空無相無作	-11.7238
浣	-11.7239
羅睺羅	-11.7239
童壽	-11.7239
三雙六句	-11.7239
數以應之	-11.7239
焚燒	-11.7239
怠	-11.7239
施莫之廣	-11.724
生生生時	-11.724
拯	-11.724
遐	-11.724
離法有	-11.724
鞞世師等	-11.724
縣	-11.724
非權非實	-11.724
體同時用前後	-11.7241
秀	-11.7241
為莫之大	-11.7241
踟	-11.7241
靜慮	-11.7241
醉	-11.7242
截	-11.7242
灯	-11.7242
耆婆	-11.7242
悋	-11.7242
心生於有心	-11.7242
寂寥	-11.7242
小後大	-11.7243
甲	-11.7243
無來無去	-11.7243
誕	-11.7243
嫌	-11.7243
剋	-11.7244
言而無當	-11.7244
汝不善說	-11.7244
與物推移	-11.7244
未滿	-11.7244
挍	-11.7244
延促	-11.7244
如幻夢	-11.7245
雲庵	-11.7245
於聖是實	-11.7245
牢	-11.7246
三獸渡河	-11.7246
洲	-11.7246
於向未甞無	-11.7246
誡	-11.7246
亦為遮空所對治	-11.7246
雖處有名之中	-11.7246
無有方所	-11.7246
桑	-11.7247
茫	-11.7247
無心於內	-11.7247
七地以上	-11.7247
靈怕獨感	-11.7247
神彌靜	-11.7248
樊	-11.7248
萬累都捐	-11.7248
郭	-11.7248
詭	-11.7248
下智觀	-11.7249
儒老	-11.7249
怜	-11.7249
柰	-11.7249
所乘不一	-11.7249
雖有而非有	-11.7249
落有所得	-11.7249
是生滅法	-11.7249
以實為義	-11.7249
猥	-11.7249
一亦無三	-11.725
祈	-11.725
神與知合	-11.725
今此品者	-11.7251
昔物在昔	-11.7251
超越	-11.7251
離去有去	-11.7251
能生於果	-11.7251
吠	-11.7251
能依所依	-11.7251
立義有過	-11.7251
惑智之無	-11.7252
能說是因緣善滅諸戲論	-11.7252
二世有義	-11.7252
知無所遺	-11.7252
鸞	-11.7252
令開解	-11.7252
了達非有無	-11.7252
因中先有	-11.7252
依名釋義	-11.7253
不見空與不空	-11.7253
東南	-11.7253
無為雖一	-11.7253
桎梏	-11.7253
若是中論	-11.7253
眩	-11.7253
愕	-11.7254
照不失虛	-11.7254
睡	-11.7254
會不失機	-11.7254
不一亦不異	-11.7254
惻	-11.7255
補特伽羅	-11.7255
前果後因	-11.7255
要誓	-11.7255
無而謂有	-11.7256
十八界	-11.7256
苦樂癡	-11.7256
斬	-11.7256
誑惑	-11.7257
戶	-11.7257
升降	-11.7258
用即寂	-11.7258
開二關責	-11.7258
墮頂	-11.7258
暨	-11.7258
玄之又玄	-11.7258
稟佛教	-11.7258
即事而真	-11.7259
琰	-11.726
不即不離	-11.726
擇滅無為	-11.726
俗亦諦亦非諦	-11.726
生緣老死	-11.726
至論佛性	-11.726
垢淨	-11.726
寂怕	-11.726
於教二諦	-11.7261
非生死非涅槃	-11.7261
芳	-11.7261
觀方知彼去	-11.7261
亦實亦不實	-11.7262
壞故不常	-11.7262
無生亦無滅	-11.7262
二與不二	-11.7262
醜	-11.7262
互相因待	-11.7262
以目品	-11.7263
虫	-11.7263
三乘之路開	-11.7263
釋道安	-11.7263
改易	-11.7263
摩耶經	-11.7263
支道林	-11.7263
雖靜而常往	-11.7263
雖往而常靜	-11.7264
差殊	-11.7264
肇公不遷	-11.7265
非無幻化人	-11.7265
有無之數	-11.7266
生已更生	-11.7266
晚	-11.7266
聞熏習	-11.7266
生死長遠	-11.7266
去者不至方	-11.7266
若以無相為無相	-11.7267
劫奪	-11.7267
三乘賢聖	-11.7268
後釋下半	-11.7268
無依無得大乘四論玄義記卷第	-11.7268
若尒	-11.7268
亦有邊亦無邊	-11.7268
橫絕百非	-11.7269
無不自無	-11.7269
品開為二	-11.727
非有邊非無邊	-11.727
應會之道	-11.727
古譯	-11.727
其然矣	-11.7271
譚	-11.7271
功德智慧	-11.7272
作是念	-11.7272
苽	-11.7272
有法自相	-11.7274
三破救	-11.7275
糸	-11.7276
輪王	-11.7276
遍計所執自性	-11.7277
久習	-11.7278
初發心菩薩	-11.7278
生死之始	-11.7278
但有言說	-11.7279
是法住法位	-11.7281
所作性故	-11.7282
佛不出世	-11.7282
亦不從他生	-11.7283
聚散	-11.7283
度一切眾生	-11.7285
不盡有為	-11.7285
此說不然	-11.7286
假無不名無	-11.7286
師資	-11.7286
入芥子	-11.7287
還源	-11.7288
無所寄	-11.7289
不極成	-11.7292
最第一	-11.7292
文易知	-11.7293
善財	-11.7295
興皇大師	-11.7298
但不但	-11.73
眾糸	-11.7301
貪求	-11.7302
玄機	-11.7302
靈覺	-11.7304
改轉	-11.7305
至于	-11.7306
所知障	-11.7307
問曰下第三	-11.731
何勞	-11.731
前後際	-11.7311
瓶與有合	-11.7314
下半呵	-11.7316
遷變	-11.7317
暫住	-11.7319
初兩句	-11.732
非中非	-11.7322
不得法空	-11.7322
如我所說	-11.7325
帝釋	-11.7325
是故偈言	-11.7331
往來生死	-11.7335
有何所以	-11.7335
依勝義諦	-11.7335
睿師	-11.7336
一家意	-11.7339
次段	-11.7342
先際	-11.7342
如契經言	-11.7345
有悲心者	-11.7348
助成	-11.735
雖空而	-11.735
不從因生	-11.7351
水想	-11.7352
大秦	-11.7357
窮學	-11.736
之鄉	-11.7362
是故釋云	-11.7362
從緣而生	-11.7366
雙遮	-11.7366
墮地獄	-11.7369
五音	-11.7371
互舉	-11.7371
心意識	-11.7373
已有果	-11.7373
可領	-11.7374
無名無相	-11.7374
無因邪因	-11.7376
空處等至	-11.7382
佛法內	-11.7388
車輪	-11.7388
更無餘	-11.7388
未亡	-11.7389
無所滅	-11.739
之貌	-11.7391
一切法性空	-11.7392
成辦	-11.7396
我所立義	-11.7397
羣生	-11.7404
覩其	-11.7404
廣示	-11.7406
一時而有	-11.7407
強立	-11.7411
普應	-11.7413
心行滅	-11.7413
自在天作	-11.7414
不相至	-11.7416
得並觀	-11.7417
詰難	-11.7426
斷五住	-11.7431
諸結使	-11.7432
若先有果	-11.7438
春時	-11.744
運載	-11.7445
不識二諦	-11.7452
無來去	-11.7452
令人解	-11.7454
立量破	-11.7459
辨差	-11.7463
相異故	-11.7474
緣生之法	-11.7476
理奪破	-11.7476
滅於前	-11.749
應如色等	-11.7497
十里	-11.7513
不能自見	-11.7514
水月	-11.7516
終是一	-11.7524
前偈明	-11.7553
多途	-11.7553
經旨	-11.7562
破空品	-11.7571
依智度論	-11.7572
第二縱破	-11.7574
是三乘通教	-11.7577
三推釋	-11.7582
性實生滅	-11.7589
真是俗	-11.7595
何須更	-11.7608
有四難	-11.7613
有深淺	-11.7621
有不成過	-11.7625
捲異	-11.7628
河傾	-11.7633
畢竟淨	-11.7638
以何為體	-11.7678
世所攝	-11.7679
所行處	-11.7688
進趣	-11.7693
何能生本生	-11.7696
是有是無	-11.7701
六十二	-11.7701
現見世間	-11.7701
諸法是有	-11.7709
自性皆空	-11.7733
前生後	-11.7734
常隨逐	-11.7738
假非實	-11.774
隨逐	-11.777
以涅槃為	-11.7781
無定相	-11.7782
思益	-11.7788
俱舍	-11.7793
無僧寶	-11.7798
推究	-11.7801
二破救中	-11.7826
通感應	-11.784
水流	-11.7869
體非體	-11.7886
一無差	-11.7899
緣生性空	-11.7921
正翻	-11.7938
世間有邊	-11.7943
果從緣生	-11.797
有起滅	-11.7972
勝鬘經	-11.8075
明其非有	-11.8087
上二句	-11.8099
如先偈	-11.8142
蒼	-11.816
祠	-11.8183
揖	-11.8202
說有二諦	-11.8207
大乘觀行	-11.8209
剃	-11.821
戢	-11.8219
阿漚	-11.8221
嫉	-11.8221
訛	-11.8223
由果有緣	-11.8223
悠	-11.8223
軀	-11.8224
毗婆沙	-11.8224
尊卑	-11.8225
營	-11.8225
一切眾生悉有佛	-11.8225
犍	-11.8227
綿	-11.8228
長為短	-11.8228
緬	-11.8228
肩	-11.8229
不生不滅是無常義	-11.8229
鍊	-11.8229
漠漠	-11.823
薩雲	-11.8231
耆	-11.8232
徽	-11.8232
奇特	-11.8233
叢	-11.8233
嗅	-11.8233
內外並冥	-11.8233
路伽	-11.8233
叔	-11.8234
俊	-11.8234
雀	-11.8234
辰	-11.8234
擬議	-11.8235
豎	-11.8235
佛未出世	-11.8235
斗	-11.8235
滋	-11.8235
毘曇人云	-11.8236
胸	-11.8236
誘	-11.8236
喉	-11.8237
不自不他	-11.8237
得聲聞菩提	-11.8237
莊子外篇	-11.8237
真諦絕假	-11.8237
升	-11.8238
於一時中	-11.8238
舉非緣決	-11.8238
輔	-11.8238
浩然大均	-11.8238
養育	-11.8238
迫	-11.8239
碩	-11.8239
疆	-11.8239
眹	-11.8239
針	-11.8239
忻	-11.8239
金石	-11.8239
斯理之玄	-11.8239
幢	-11.824
㒵	-11.824
有二去	-11.824
男等相	-11.824
三十四心	-11.824
如般若波羅蜜經中	-11.824
無患雖同	-11.8241
祕	-11.8241
不知何因緣故空	-11.8241
朴	-11.8241
爛	-11.8241
無縛無解	-11.8241
近而不可知者	-11.8241
泥洹盡諦	-11.8241
純陀	-11.8241
如幻如化	-11.8241
如前已說	-11.8242
嗟	-11.8242
眼不見色	-11.8242
籌	-11.8242
以此而推	-11.8242
二來意者	-11.8242
誰當信者	-11.8242
氣味	-11.8242
正言似反	-11.8243
當於無當	-11.8243
疎而不漏	-11.8243
兄	-11.8243
熾盛	-11.8243
新新生滅	-11.8243
渺	-11.8244
飾	-11.8244
上智觀故得	-11.8245
自性清淨心	-11.8245
研覈	-11.8245
楚夏	-11.8245
逃	-11.8245
有無絕於內	-11.8245
故滅身以歸無	-11.8246
淵默	-11.8246
七地巳上	-11.8246
矯	-11.8246
因及譬喻	-11.8246
曆	-11.8246
中論四諦品	-11.8246
若色至識	-11.8246
因不昔滅	-11.8246
聽之不聞	-11.8246
造論所由	-11.8247
寂而常照	-11.8247
上二界	-11.8247
園林	-11.8247
侔	-11.8248
斯過者	-11.8248
六道迴宗	-11.8248
三十二相八十種好	-11.8248
本性自空	-11.8248
因不來今	-11.8248
為於無為	-11.8249
構	-11.8249
其性本空	-11.825
八萬劫	-11.825
從緣無性	-11.825
檀波羅蜜	-11.825
謂今物可至昔	-11.8251
憍尸迦	-11.8251
囑	-11.8251
非有非空	-11.8251
旋嵐	-11.8251
缺	-11.8251
鳧	-11.8251
此應思擇	-11.8252
鬱	-11.8252
成已復成	-11.8252
幽致	-11.8252
整	-11.8252
無量中解一	-11.8252
動而常靜	-11.8252
入佛知見	-11.8252
不相關	-11.8252
王弼	-11.8252
諸佛依二諦為眾生說法	-11.8254
棺	-11.8254
寂然不動	-11.8254
低	-11.8254
雖動而常寂	-11.8254
九十六	-11.8254
應而不為	-11.8254
無為而無所不為	-11.8254
僻	-11.8255
恐繁	-11.8255
宮商	-11.8255
商	-11.8255
入菩薩位	-11.8255
一切大乘經	-11.8255
不滯於無	-11.8255
諸論義師	-11.8255
實如明詔	-11.8256
無始已來	-11.8256
混雜	-11.8256
栗	-11.8256
大患永滅	-11.8256
聖以之靈	-11.8256
躁	-11.8256
孰能	-11.8256
末世鈍根	-11.8256
本護法菩薩釋三藏法師玄奘奉詔譯	-11.8256
四沙門果	-11.8256
難以事求	-11.8257
知與無知	-11.8257
以空有為世諦	-11.8257
有無齊觀	-11.8258
推功歸佛	-11.8259
剎利	-11.8259
可住子	-11.8259
掩室	-11.8259
窮靈極數	-11.8259
縱橫	-11.8259
即動而靜	-11.8259
祥	-11.826
眾庶	-11.826
今則無因待	-11.8261
泡	-11.8261
郡	-11.8261
吉祥	-11.8261
舍主	-11.8261
炷	-11.8261
植	-11.8261
異亦無三	-11.8261
洗淨	-11.8261
不屬二乘	-11.8262
非人非法	-11.8262
非無假說無	-11.8263
軌轍	-11.8263
愛敬	-11.8264
有此品來者	-11.8264
賦	-11.8264
統御	-11.8264
如何可說	-11.8264
迦旃延子	-11.8264
其中有精	-11.8264
遞	-11.8265
能生觀智	-11.8265
體絕陰入	-11.8266
於是乎	-11.8266
大集經	-11.8266
太極	-11.8267
不知佛意	-11.8268
唯有一諦	-11.8268
無是無當	-11.8268
光影	-11.8269
下第二別釋	-11.8269
下第四總結	-11.8269
行菩薩道	-11.827
小招提	-11.827
所證之理	-11.827
是假非真	-11.827
▁185	-11.8271
五陰成人	-11.8271
淨不淨顛倒	-11.8272
空不異色	-11.8272
從體起用	-11.8273
無二之性	-11.8273
頗胝迦	-11.8273
怗	-11.8273
是名世間第	-11.8273
淺近	-11.8274
世共知	-11.8275
雙彰	-11.8275
精麁	-11.8276
僧佉衛世	-11.8276
自心變	-11.8276
答亦有此義	-11.8277
尋究	-11.8277
幽旨	-11.8277
生死輪迴	-11.8279
於凡是有	-11.828
親近	-11.8281
連環	-11.8281
人法二空	-11.8281
二者欲顯	-11.8282
安車	-11.8283
永息	-11.8283
卷第六	-11.8283
問曰下第二救	-11.8285
微妙無相	-11.8285
薪有火	-11.8285
方外之	-11.8285
若是百論	-11.8287
因中先無果	-11.8287
隱覆	-11.8287
不敢自	-11.8287
此說畢竟	-11.8288
遣法自相	-11.8288
妙之門	-11.8289
佛婆伽婆	-11.8292
生已亦有	-11.8292
念退	-11.8292
從果觀	-11.8293
方便實慧	-11.8294
是因是果	-11.8296
絕慮	-11.8297
總持	-11.8297
具有四句	-11.83
文字般若	-11.8301
實錄	-11.8301
梵志曰	-11.8301
逆俗	-11.8301
布施持戒	-11.8301
未熟	-11.8302
求之不得	-11.8305
為聖說空	-11.8306
乃免	-11.8306
諸法實性	-11.8308
畢定	-11.8309
學大乘人	-11.8309
絕不絕	-11.831
西天	-11.8312
五百偈	-11.8314
超四句	-11.8317
二諦為教	-11.8318
以無因故	-11.8319
喻三乘	-11.832
叡法師	-11.832
推尋	-11.8321
呵論主	-11.8325
無有知也	-11.8328
有異人言	-11.8328
假生不生	-11.833
兔角龜毛	-11.8331
實方便智	-11.8335
第二節	-11.8337
待可燃	-11.8339
違順	-11.8351
法身父母	-11.8353
四大種	-11.8357
苦是空	-11.8365
石女兒	-11.8369
義意如	-11.8375
欲拔	-11.8377
注文	-11.8378
住壽	-11.8382
正道未曾	-11.8383
人民	-11.8385
申佛教	-11.8385
問何故爾	-11.8387
還同前	-11.8388
顛倒謂有	-11.8392
熱病	-11.8424
總破一切法	-11.8438
具三義	-11.8442
理必不	-11.8451
犢子計	-11.8478
阿僧祇劫	-11.8484
足分等	-11.8495
有兩意	-11.8496
破四緣生	-11.8499
破神品	-11.8514
未曉	-11.8515
無新無	-11.8538
形像	-11.8539
得佛時	-11.8548
取空相	-11.8588
五求破	-11.8608
有如是過	-11.862
初句舉	-11.8624
四階	-11.869
盡其理	-11.8716
緣而起	-11.8722
亦義引	-11.8732
非真非俗中道	-11.8741
故不應執	-11.881
凡有十	-11.8819
俱不絕	-11.8823
摩訶衍經	-11.8845
觀法品	-11.8884
第二段	-11.8885
十二緣河	-11.8924
今亦不往	-11.8968
覺苦樂	-11.898
憂苦	-11.9022
如上釋	-11.9077
六種品	-11.9106
波羅蜜多	-11.9115
不滅不化	-11.9251
下半呵責	-11.9253
第二偈上半	-11.9257
法住法位	-11.9263
豪	-11.9288
道種慧	-11.9299
乞求者	-11.9303
農	-11.9305
賞	-11.9312
場	-11.9317
破如可破	-11.9322
富樓那	-11.9325
乾慧地	-11.9328
世與第一	-11.9328
怨憎	-11.9329
熾	-11.9329
少踐大方	-11.933
赤縣	-11.933
修觀行者	-11.933
區	-11.9331
今無依無得宗	-11.9331
離四句百非	-11.9332
晝	-11.9332
刧	-11.9333
二言未始一	-11.9333
因中先無	-11.9334
迄	-11.9334
嗣	-11.9335
假不生假不滅	-11.9335
輸	-11.9335
穴	-11.9335
鎮	-11.9336
痾	-11.9336
夜半	-11.9337
於聖非諦	-11.9337
滓	-11.9337
衛	-11.9337
獄	-11.9337
鑿	-11.9338
八輩	-11.9338
去未去去時	-11.9338
噉	-11.9338
活	-11.9338
非推之使無	-11.9339
初二因微	-11.9339
澡	-11.9339
迂	-11.9339
躍	-11.934
慜	-11.934
無在無不在	-11.9341
撫掌	-11.9341
三乘五教	-11.9342
絕於靈照	-11.9342
二諦攝法盡	-11.9342
逵	-11.9343
無道無果	-11.9343
彥	-11.9343
一切智一切種智	-11.9343
大品經三慧品	-11.9344
不苦不樂	-11.9344
中發於觀	-11.9344
均天人	-11.9344
即能涉有	-11.9345
茂	-11.9345
爾雅	-11.9345
佳	-11.9345
杜口	-11.9345
歸于無二	-11.9345
潔	-11.9345
驚怖	-11.9346
其唯物性乎	-11.9346
呂光	-11.9346
抗	-11.9346
不受亦不受	-11.9346
儒僮	-11.9346
性淨涅槃	-11.9346
隨聖說	-11.9347
草堂	-11.9347
以此推之	-11.9347
唐譯	-11.9347
十八不共法	-11.9347
無本無始	-11.9347
褒	-11.9347
正使盡	-11.9347
盛行天竺	-11.9347
他有有可有	-11.9347
物莫能一	-11.9348
入滅定	-11.9348
肥	-11.9348
於世人為實	-11.9348
如來無處所	-11.9348
無一法為說	-11.9348
蓮	-11.9348
偽號	-11.9349
問曰下生第二	-11.9349
葱	-11.9349
誹	-11.9349
陀羅尼	-11.9349
秪	-11.935
鎖	-11.9351
永嘉	-11.9351
離色因有色	-11.9351
頭陀	-11.9351
蒼蒼	-11.9351
如我立義	-11.9351
星紀	-11.9351
四大造色	-11.9351
壤	-11.9351
有名有實	-11.9352
迷教於諦	-11.9352
目對真而莫覺	-11.9352
成其私	-11.9352
紛繞	-11.9352
共離二門	-11.9353
練	-11.9353
既曰古今	-11.9353
與道通洞	-11.9353
邁	-11.9353
應物現形	-11.9353
感而後應	-11.9353
瞽	-11.9354
臭	-11.9354
又汝所言	-11.9354
生死及涅槃	-11.9354
算	-11.9354
與義相違	-11.9354
有非真生	-11.9354
枚	-11.9354
非陰相	-11.9354
一念之力權慧具矣	-11.9355
耶若達多	-11.9355
借無破有	-11.9355
郭注云	-11.9355
亦因亦果	-11.9355
極勇猛	-11.9355
不為而過為	-11.9355
受想行識亦復如是	-11.9355
得初果	-11.9355
各各不相知	-11.9355
由如此義	-11.9355
如來身者	-11.9356
盤	-11.9356
捨有入無	-11.9356
何以故下第三釋	-11.9356
因變為果	-11.9356
無常亦常亦無常非常非無常	-11.9356
夾	-11.9356
哀哉	-11.9357
吾猶昔人	-11.9357
閣	-11.9357
宏	-11.9357
五百聲聞	-11.9357
故契經說	-11.9357
中十心	-11.9358
復次經部師言	-11.9358
江河競注而不流	-11.9358
視聽之所不暨	-11.9358
㝡	-11.9358
對治悉檀	-11.9358
緣成非緣	-11.9358
鄭	-11.9358
覺非神相	-11.9358
諮	-11.9359
竺道生	-11.9359
體之即神	-11.9359
五陰都盡	-11.936
空於聖實	-11.936
銅	-11.936
橋	-11.936
寂滅為樂	-11.936
所遇而順適	-11.936
厝	-11.936
四空之所昏昧	-11.936
照而常寂	-11.936
廣雅云	-11.936
若生是無為	-11.936
嶺	-11.9361
九流於是乎交歸	-11.9361
中道發生正觀	-11.9361
若心體自然	-11.9361
湛寂	-11.9362
四無所畏	-11.9362
亦常亦無常	-11.9362
去無所去	-11.9362
小頓悟	-11.9362
心想都滅	-11.9362
亦破亦收	-11.9362
應物之假名耳	-11.9362
能詮所詮	-11.9362
蕩蕩	-11.9363
因而不施	-11.9363
如何可言	-11.9363
觸物而一	-11.9363
至功常存	-11.9363
隻	-11.9364
不遷而遷	-11.9364
上更起	-11.9364
略鈔	-11.9364
翰	-11.9364
靈味	-11.9364
月十五日	-11.9364
躊躇	-11.9364
頹	-11.9365
去無所至	-11.9365
超度四流	-11.9365
雖無而非無	-11.9365
巖	-11.9365
徒眾	-11.9365
光梵大師賜紫沙門臣惟淨等奉詔譯	-11.9365
碑	-11.9365
䨱	-11.9365
令其悟	-11.9365
員	-11.9366
今亦不滅	-11.9366
聞畢竟空如刀傷	-11.9366
交謝	-11.9366
以名求物	-11.9366
掌珍論	-11.9366
不遷當俗	-11.9366
說於佛性	-11.9367
達磨	-11.9367
實而不有	-11.9367
故成具云	-11.9367
熾然	-11.9367
本自有之	-11.9367
不釋動以求靜	-11.9367
彩	-11.9367
至虗無生	-11.9367
眾生無佛性	-11.9368
午	-11.9368
天而不周	-11.9368
是法還成待	-11.9368
不可謂之有	-11.9368
交絡	-11.9368
大分深義	-11.9368
借異破	-11.9369
燈能自照	-11.9369
秤之為	-11.9369
出世無分別智	-11.9369
眼耳等諸根	-11.9369
降伏	-11.9369
能表之教	-11.9369
惘悒	-11.9369
左見右識	-11.937
色不異空	-11.937
囊括	-11.937
故曰動而非靜	-11.937
歲月	-11.937
經稱有餘涅槃	-11.9371
有為法空故	-11.9371
無有少法可	-11.9371
寂即用	-11.9371
任持	-11.9371
騁	-11.9371
相開避	-11.9371
何以故下第二釋	-11.9371
不可謂之不有	-11.9372
下第二解釋	-11.9372
能燒所燒	-11.9372
然則涅槃之道	-11.9373
二十一品	-11.9373
去亦無所至	-11.9373
非有假說有	-11.9373
見他苦時	-11.9373
甲辰歲高麗國大藏都監奉𠡠彫造	-11.9374
杌	-11.9374
僕	-11.9374
知獨照	-11.9374
我樂淨	-11.9374
觀照般若	-11.9374
驥	-11.9374
恐外人云	-11.9374
因法有人	-11.9375
若法有待成	-11.9375
苻	-11.9375
前後相生	-11.9376
叡公	-11.9376
力士	-11.9376
有名無實	-11.9376
俯仰順化	-11.9376
神無慮	-11.9377
六神通	-11.9377
黑疊	-11.9377
去時亦無去	-11.9378
稽首	-11.9378
不非物於物	-11.9378
緣會性空	-11.9378
誠諦之言	-11.9378
避苦求樂	-11.9378
不常亦不斷	-11.9379
象非真象	-11.938
善巧方便	-11.938
推移	-11.938
似不似	-11.938
言象莫測	-11.938
非有非無假說有	-11.9381
四依出世	-11.9381
受多瓶	-11.9383
安公	-11.9383
以其不動	-11.9383
不知之知	-11.9384
所行之道	-11.9384
起見處	-11.9384
可指示	-11.9387
忘懷用	-11.9387
詔	-11.9387
藍	-11.9387
s	-11.9388
若一時生	-11.9388
亦違汝	-11.9388
師說不同	-11.9389
復次毘婆沙	-11.9389
船	-11.9389
初敘計	-11.939
身口意業	-11.939
怳	-11.939
無名之道	-11.939
十二月	-11.9392
實無所破	-11.9392
生相不能生	-11.9392
能成所成	-11.9392
所言空者	-11.9392
中論涅槃品	-11.9392
七星	-11.9393
導達	-11.9393
理智不二	-11.9394
外人便謂	-11.9394
無師智	-11.9395
皆非真實	-11.9395
同歸一乘	-11.9395
不欲爾	-11.9396
被縛	-11.9396
方域	-11.9397
其義亦然	-11.9398
白日	-11.9399
西國	-11.9401
斷煩惱障	-11.9405
十萬	-11.9406
與思合	-11.9407
如涅槃法性	-11.9407
功高	-11.9407
非無物也	-11.9408
瓶與有	-11.9408
但有假名	-11.9409
利他樂	-11.9409
次釋下半	-11.9409
灾	-11.941
外人救義	-11.9411
能見所見	-11.9412
色無色界	-11.9412
外人品初	-11.9413
形勢	-11.9413
胡本	-11.9416
申明二諦	-11.9417
應如現在	-11.9419
晉書	-11.942
今大乘意	-11.9426
前已具	-11.9427
無三說三	-11.9428
非有知也	-11.9434
初偈上半牒	-11.9435
二俱不可得	-11.9443
師子吼文	-11.9447
因為因緣	-11.9449
此如是義	-11.9451
以無生故	-11.9459
毘曇成實	-11.9465
與瓶合	-11.9465
天然之	-11.947
是我家	-11.9473
縛所縛	-11.9489
以色為	-11.9491
一頌約	-11.95
如前偈說	-11.9502
無量義經	-11.9509
故偏引	-11.9511
母生子	-11.9516
分為三	-11.952
且置	-11.9524
離已去未去	-11.9536
得如是過	-11.9551
今何故復	-11.9569
上已明	-11.9569
地正斷	-11.9582
問論主何故	-11.9588
是因緣假名	-11.959
錯解	-11.9642
大經師子吼	-11.9649
能用法	-11.9669
有入無	-11.9679
答具有二	-11.9693
以眾生為正因	-11.9694
力劣	-11.9703
有而言無	-11.973
當學般若	-11.9767
宗因喻	-11.9803
與神異	-11.9829
地菩薩斷	-11.9851
弘誓	-11.9852
測量	-11.9894
如所說過	-11.9906
墮二邊	-11.9909
開三門	-11.9949
夢覺	-11.9953
可見有對	-11.9953
然後始	-11.9995
復以何	-12.0037
相相之	-12.0041
五時教	-12.0048
中假師	-12.0053
三乘通教	-12.0121
如汝所	-12.0178
當止遣	-12.0187
】	-12.021
墮於斷	-12.0253
下生第二	-12.0277
內外大小乘	-12.0369
等至所緣境	-12.0433
許極微	-12.0462
墮淚	-12.0533
効	-12.0552
昭	-12.056
畜	-12.0566
士聞道	-12.0567
猒	-12.0567
瑣	-12.0567
妖	-12.0571
羸	-12.0571
三十七品	-12.0573
轉輪聖王	-12.0577
代謝隔別	-12.0578
瑞	-12.0579
各住自位	-12.0579
伎	-12.058
丈尺	-12.058
紛綸	-12.058
虧盈	-12.0582
柯	-12.0582
北天之運	-12.0582
甫	-12.0582
度脫眾生	-12.0582
見可見見者	-12.0582
寐	-12.0583
巾	-12.0583
反擲	-12.0584
淨瑕穢	-12.0584
剛	-12.0585
應緣而現	-12.0585
花嚴	-12.0586
貴賤	-12.0586
劉遺民	-12.0586
勵	-12.0586
優婆掘多	-12.0586
等定慧地	-12.0587
囊	-12.0587
離心緣相	-12.0588
照理達事	-12.0588
相因可相	-12.0588
規	-12.0588
通其情	-12.0588
襲	-12.0589
麼	-12.0589
不離諸法而得涅槃	-12.0589
侵	-12.0589
汝等所行是菩薩道	-12.0589
屬虗子	-12.0589
鳥鳥各異	-12.0589
不成因過	-12.0589
破而不立	-12.059
凡夫結使	-12.059
從無住本立一切法	-12.059
論云不取者	-12.059
正遍知	-12.0591
勤精進	-12.0591
而有而無為假	-12.0591
三百餘	-12.0591
煞	-12.0591
虞	-12.0591
毒虫	-12.0591
璿璣	-12.0591
啞	-12.0592
遊履	-12.0593
強為立名	-12.0593
無惑取之知	-12.0593
曼殊室利	-12.0593
懷德者	-12.0593
地得一以寧	-12.0593
乾坤	-12.0594
慚	-12.0594
逼迫	-12.0594
不疾而疾	-12.0594
逗	-12.0594
物莫能二	-12.0594
飛鳥	-12.0595
四釋文中	-12.0595
鵽	-12.0595
何況我耶	-12.0595
宣之於口	-12.0595
以明物不來	-12.0595
結縛永除	-12.0595
斯皆感往者之難留	-12.0596
閱	-12.0596
臧否	-12.0596
乘乘各異	-12.0597
天地與我同根	-12.0597
出現於世	-12.0597
復次鞞世師言	-12.0597
故知物不去	-12.0597
可不欣乎	-12.0598
不從昔以至今	-12.0598
萇	-12.0598
至當可當	-12.0598
從單假入	-12.0598
身及諸根	-12.0598
難可了知	-12.0598
影嚮	-12.0598
齊物篇	-12.0599
釋迦掩室於摩竭	-12.0599
各各為人	-12.0599
寂漠	-12.0599
五取蘊	-12.0599
兩雙四句	-12.0599
苑	-12.0599
首尾	-12.0599
萬物與我一體	-12.06
求果不可得	-12.06
道絕群方	-12.06
從單中出	-12.06
入三解脫門	-12.06
抑揚	-12.06
電卷	-12.06
謗佛法僧	-12.06
非真非應	-12.06
一不有有屬	-12.06
人命逝速	-12.06
交徹	-12.06
言語道斷心行處滅	-12.06
邃	-12.0601
斯言有由矣	-12.0601
別而為言	-12.0601
妄顯真	-12.0601
真故俗	-12.0601
何不用耳見	-12.0601
不出斯二	-12.0601
前因後果	-12.0601
對緣而照	-12.0601
稱謂淪於外	-12.0601
與實相相應	-12.0602
從複中出	-12.0602
言之者失其真	-12.0602
離欲地	-12.0602
廿	-12.0602
豈曰排今而可往	-12.0602
觀辨於心	-12.0602
豈曰必然	-12.0602
談真有不遷之稱	-12.0602
為對由來	-12.0602
畢竟無遺	-12.0602
戾	-12.0602
今世後世	-12.0602
從淺至深	-12.0602
離無無有	-12.0602
因滅果生	-12.0603
貞	-12.0603
大小學人	-12.0603
燋	-12.0603
肉眼	-12.0603
戰	-12.0603
動之微	-12.0604
鐘	-12.0604
盆	-12.0604
有分故無常	-12.0604
那羅延	-12.0604
有何物而可	-12.0604
用不離體	-12.0604
瞿	-12.0604
道與神會	-12.0604
遍體和合	-12.0604
垂文作則	-12.0604
鶴	-12.0604
邪見斷見之無	-12.0604
相似不相似	-12.0605
知即不取	-12.0605
金七十論	-12.0605
恙	-12.0605
極象外之談	-12.0605
故是定慧之體	-12.0605
逆之所謂塞	-12.0605
順之所謂通	-12.0605
首楞嚴三昧	-12.0606
昆	-12.0606
不離六法	-12.0606
可物於物	-12.0606
為諸法立處	-12.0606
聖遠乎哉	-12.0606
崖	-12.0606
包含	-12.0606
委曲	-12.0606
勞勤莫先於有智	-12.0606
此釋下半頌	-12.0606
從因緣品至	-12.0606
而遠與無名同	-12.0606
成破不一	-12.0606
有無既已無	-12.0606
恰	-12.0607
往而弗遷	-12.0607
知其不去	-12.0607
勝義理中	-12.0608
儔	-12.0608
夕	-12.0608
悕望	-12.0608
萬義皆	-12.0608
恥	-12.0608
俟	-12.0608
在身內	-12.0608
若能若所	-12.0608
迢	-12.0608
迴邪入正	-12.0608
雖寂而常動	-12.0608
有於凡是實	-12.0609
速於川流	-12.0609
自作他作	-12.0609
五眼不見	-12.0609
從俗諦複中出	-12.0609
今而無古	-12.0609
忘知遺會	-12.0609
希望	-12.0609
心亦不有亦不無	-12.0609
震	-12.0609
聆流動者	-12.061
􂎥􂎥	-12.061
則寂照之名	-12.061
從俗諦單假入	-12.061
薪火二法	-12.061
飜	-12.061
下句反此	-12.0611
智有窮幽之鑒而無知焉	-12.0611
渝	-12.0611
十方三世佛	-12.0611
善不善無記	-12.0611
不壞假名而說實相	-12.0611
八相成道	-12.0611
因應而作	-12.0611
慳貪	-12.0612
真如實際	-12.0612
即法沙門	-12.0612
同無不極	-12.0612
穀種	-12.0612
夭	-12.0612
空是有空	-12.0612
匍	-12.0612
寢疾	-12.0612
智者了達其性無二	-12.0612
仲尼之所以臨川	-12.0612
百千萬	-12.0612
吾聞其語	-12.0612
成山假就於始簣	-12.0612
非生滅非不生滅	-12.0612
恍惚	-12.0613
合掌	-12.0613
五華施佛	-12.0613
群數之應	-12.0613
則謂昔物不至今	-12.0613
社	-12.0613
於其間哉	-12.0613
隨其流處	-12.0613
域中有四大	-12.0613
虧	-12.0613
杜塞視聽	-12.0613
虗伯獨感	-12.0614
炳然	-12.0614
鈴	-12.0614
大分深義所謂空也	-12.0614
寄懷無所	-12.0614
古不至今	-12.0614
已有還無	-12.0614
軸	-12.0614
領納	-12.0614
俗有真無	-12.0614
故曰靜而非動	-12.0614
義應爾	-12.0615
主宰	-12.0615
價	-12.0615
故中觀云	-12.0615
道無隱機	-12.0615
又復說言	-12.0615
初地以上	-12.0615
乃所以為至當	-12.0615
何嘗	-12.0615
屢	-12.0615
胡吉藏撰	-12.0616
壍	-12.0616
开	-12.0616
具縛凡夫	-12.0616
荖	-12.0616
貪瞋癡	-12.0616
竪超四句	-12.0616
有為作相	-12.0617
乃累劫之津梁矣	-12.0617
一切因緣故不應有	-12.0617
造此中論	-12.0617
鼻舌身	-12.0617
無成無得	-12.0617
欝	-12.0617
遲速	-12.0617
前總後別	-12.0617
緣緣增上緣	-12.0618
無幽不	-12.0618
日月歷	-12.0618
物各性住於一世	-12.0618
械	-12.0618
猶豫	-12.0618
百姓	-12.0618
智則知矣	-12.0618
雖妙非無	-12.0618
開一為三	-12.0618
俗入真	-12.0618
或有或無	-12.0618
無起無滅	-12.0618
所見未甞同	-12.0619
汝是破人	-12.0619
一切因緣故應有	-12.0619
秖	-12.0619
毗婆沙師	-12.0619
福田	-12.0619
餘相合	-12.0619
無所畏	-12.0619
無心意而現行	-12.0619
婉轉	-12.062
閑人之常想	-12.062
閻浮	-12.062
若因中先有果生	-12.062
以此而觀	-12.062
損減	-12.062
以物各性住為	-12.062
必有會於可會	-12.062
必有知於可知	-12.062
在門外	-12.0621
脉	-12.0621
不可以事相求之耳	-12.0621
應病授藥	-12.0621
飄	-12.0621
比擬	-12.0621
寢	-12.0621
從真諦複中出	-12.0621
咽	-12.0621
亦得亦失	-12.0621
攷	-12.0621
住而可留	-12.0622
尊貴	-12.0622
離於斷常	-12.0622
無取無捨	-12.0622
古今常存	-12.0622
無數於外	-12.0622
不馳騁於古今	-12.0622
人之所謂動者	-12.0622
幽隱	-12.0623
邕邕	-12.0623
絲	-12.0623
譽	-12.0623
欲求聖心之異	-12.0623
寒暑迭遷	-12.0623
諸佛常依二諦說法	-12.0623
此敘計	-12.0623
損不可虧	-12.0624
是故有智者	-12.0624
稱去而不遷	-12.0624
昏昧	-12.0624
言辭相寂滅	-12.0624
所相能相	-12.0624
二十四諦	-12.0625
教轉名境	-12.0625
僧那	-12.0625
能知之智	-12.0625
寂泊	-12.0625
為當咸覩其變	-12.0625
相與俱無	-12.0625
來無所從	-12.0625
韻	-12.0625
方便以為父	-12.0625
知無者誰	-12.0625
金剛般若經	-12.0626
更無第五緣	-12.0626
燄	-12.0626
可燃無燃	-12.0626
益不可盈	-12.0626
智度菩薩母	-12.0626
桎	-12.0626
念念不住	-12.0627
津梁	-12.0627
即為二別	-12.0627
釋二章門	-12.0628
目連	-12.0628
眼不自見	-12.0628
無譬喻故	-12.0628
歛	-12.0628
境界法寶	-12.0628
凡夫著有	-12.0628
宣揚	-12.0628
從真諦單假入	-12.0629
如前廣說	-12.0629
習應品	-12.063
僧伽	-12.063
我於過去世	-12.063
到彼岸	-12.0631
外國法師	-12.0631
有無可無	-12.0632
四微成柱	-12.0632
所立能立	-12.0633
彌昏	-12.0633
闢	-12.0633
由旬	-12.0633
然藉光明虛空顯了	-12.0633
汎敘	-12.0634
出真外	-12.0634
所緣之境	-12.0635
不緣色生識	-12.0635
不備三相	-12.0636
以其異故	-12.0638
雖合而異	-12.0638
雖異而合	-12.0639
0	-12.0641
有是空有	-12.0642
故以為名	-12.0643
四十四智	-12.0645
瓶與一合	-12.0645
不無於無	-12.0645
還債	-12.0645
玄室	-12.0648
問何故作此	-12.0652
非未來相	-12.0653
就體明	-12.0658
有無為教	-12.0662
無而不無	-12.0662
諸體有自體	-12.0663
負財	-12.0663
下根人	-12.0667
有無量種	-12.067
有不住有	-12.0678
緣因緣果	-12.0679
照空為實	-12.0682
法住智	-12.0685
餘文可	-12.0699
因何而	-12.0722
妙術	-12.0747
瑤疏	-12.0747
生而不生	-12.0784
如明鏡	-12.0796
色界思惟	-12.0804
有眼法	-12.0995
未易言也	-12.1072
妨礙	-12.1115
樂等為性	-12.1195
有種種名	-12.1298
可分析	-12.1353
先已廣	-12.1385
覆而求今	-12.1526
悟不有無	-12.1704
矜	-12.1749
眼耳鼻舌身	-12.1755
五住惑	-12.1821
亮	-12.183
結非論主	-12.1849
鞞世師	-12.1907
有標釋	-12.1948
假無不名	-12.1952
成壞品	-12.1957
呂隆	-12.1979
茨	-12.198
淚	-12.1981
【	-12.1986
泣	-12.199
昨日	-12.1992
孟浪	-12.1993
爐	-12.1993
至第二步	-12.1993
庖	-12.1996
第十六心	-12.1999
豫	-12.2
膠	-12.2
昨	-12.2002
再供養火	-12.2003
恠	-12.2003
扁	-12.2004
技	-12.2005
自語相違	-12.2005
城塹	-12.2005
佉	-12.2005
萃	-12.2006
北天竺	-12.2006
不矜不恃	-12.2006
無有實行二乘人	-12.2008
軟	-12.2009
去時中無發	-12.201
憩	-12.201
趙	-12.201
勝趣非一	-12.2011
得五神通	-12.2011
因以名之	-12.2011
擲	-12.2011
浣衣	-12.2012
四弘誓願	-12.2013
瑕	-12.2013
緩	-12.2013
頴	-12.2014
自照照他	-12.2014
色分等	-12.2014
觀發中	-12.2014
剌	-12.2014
冰	-12.2015
非苦非樂	-12.2015
服膺	-12.2015
炭	-12.2015
熙	-12.2015
破散無體	-12.2015
馬喻馬之非馬	-12.2015
辟	-12.2015
弗顧	-12.2015
勅	-12.2016
不可以形名得	-12.2016
逍	-12.2016
補	-12.2017
索之而不得	-12.2017
釋迦牟尼	-12.2017
安慰	-12.2017
聞大乘法說畢竟空	-12.2017
三法異體	-12.2017
殷	-12.2019
討	-12.2019
離法無人	-12.2019
瓶是現見	-12.2019
淵府	-12.2019
苦無常無我不淨	-12.202
不共不無因	-12.202
禍	-12.202
無為法亦空	-12.202
若汝欲得	-12.2021
不徐而徐	-12.2021
發揮	-12.2021
離有離無	-12.2021
非無為有三	-12.2021
項	-12.2021
不覺形隨	-12.2021
爽	-12.2022
不從今以至昔	-12.2022
罕	-12.2022
優婆塞	-12.2022
勘	-12.2022
諫	-12.2022
敏	-12.2022
休納	-12.2022
若色受想行識	-12.2022
一去來以成體	-12.2022
總六合以鏡心	-12.2022
寓	-12.2023
外難內	-12.2023
懺	-12.2023
鑛	-12.2023
心根身	-12.2023
學二諦成一	-12.2023
瞋恚	-12.2023
因緣所生法我說即是空	-12.2024
見緣起為見法	-12.2024
不可以識識	-12.2024
琳	-12.2024
旬	-12.2024
極數故數以應之	-12.2025
無方便慧縛	-12.2025
非迹無以	-12.2025
堯舜	-12.2025
求果無蹤	-12.2025
顏回	-12.2025
即事契真	-12.2026
奚	-12.2026
洪流滔天	-12.2026
鮮	-12.2026
堓	-12.2026
始簣	-12.2026
導俗有流動之說	-12.2026
般舟三昧	-12.2026
餌	-12.2026
俗諦絕實	-12.2026
峻	-12.2026
眉	-12.2026
慧行無分別	-12.2026
理為神御	-12.2027
鷄	-12.2027
卅	-12.2027
見多者著	-12.2027
字林云	-12.2027
非生非不生	-12.2027
極於五陰之內	-12.2027
紛然久矣	-12.2028
百齡一質	-12.2028
駒	-12.2028
菩薩得無生智	-12.2028
誠真一之無差	-12.2028
故造斯論	-12.2028
嬰	-12.2028
派	-12.2029
霜	-12.2029
非色不異色	-12.2029
就法說門	-12.2029
嘵	-12.2029
十八賢	-12.2029
是愚癡論	-12.2029
謂其不住	-12.2029
不即六法	-12.2029
灌	-12.2029
景	-12.2029
瓔	-12.2029
藏山於	-12.2029
觀發於中	-12.2029
論宣於口	-12.2029
馭	-12.203
拓	-12.203
縮	-12.203
嘉遁	-12.203
因法假名時	-12.203
我觀如來	-12.203
燒煮等	-12.203
六地巳下	-12.203
寶積曰	-12.2031
復何滯哉	-12.2031
數有承問	-12.2031
千載之下	-12.2031
乾乾	-12.2031
今物在今	-12.2031
邑	-12.2031
無謂不靜	-12.2031
若法因待成	-12.2031
動而常寂	-12.2031
色陰所攝	-12.2031
𢄶	-12.2031
苟得其道	-12.2031
空無相無願	-12.2031
恭	-12.2031
不著於有	-12.2032
挺	-12.2032
象馬等	-12.2032
往物既不來	-12.2032
學佛教人	-12.2032
與波若相應	-12.2032
𨷂	-12.2032
悟發之器	-12.2032
撮	-12.2032
故能不取而知	-12.2032
辱	-12.2032
無成是成	-12.2032
空與不空	-12.2032
由智故境	-12.2032
楷	-12.2032
俱出火宅	-12.2032
本迹雖殊	-12.2032
而欲遷之者	-12.2032
阿賴耶識	-12.2032
瓦石	-12.2033
是以梵志出家	-12.2033
寔	-12.2033
世人知者名	-12.2033
立言之本意	-12.2033
迭遷	-12.2033
時處決定	-12.2033
十九年	-12.2033
天龍咸敬	-12.2033
立巳成過	-12.2033
鸚	-12.2033
通百劫而彌固	-12.2033
但有是語	-12.2034
則名相異陳	-12.2034
汪洋無涯	-12.2034
言其非有者	-12.2034
邦	-12.2034
道門未曾	-12.2034
悶	-12.2034
猶如幻事	-12.2034
夙	-12.2034
先牒計總	-12.2034
無明緣行	-12.2034
譬如燈滅	-12.2034
即萬物之自虛	-12.2034
亭毒蒼生	-12.2035
彊	-12.2035
內自免過	-12.2035
強弱	-12.2035
令人信解	-12.2035
業與果合	-12.2035
非斷非常	-12.2035
卵	-12.2035
耄	-12.2035
古而無今	-12.2035
燸	-12.2035
理外行心	-12.2035
不因不果	-12.2036
俗以真為義	-12.2036
可得聞乎	-12.2036
我適無為	-12.2036
帛	-12.2036
類相關	-12.2036
命初即	-12.2036
於外無數於內無心	-12.2036
離繫外道	-12.2036
身口二業	-12.2036
大患莫若於有身	-12.2036
覩斯論	-12.2037
煩惱而得涅槃	-12.2037
善將生	-12.2037
滌除	-12.2037
甚奇世尊	-12.2037
昔人尚存乎	-12.2037
罄	-12.2037
亭	-12.2037
汝是破法人	-12.2037
尠	-12.2037
為心要	-12.2038
丹	-12.2038
而無慮焉	-12.2038
菴	-12.2038
滅而不滅	-12.2038
北斗	-12.2038
因無為而有差別	-12.2038
固以幾乎息矣	-12.2038
不面在昔	-12.2038
如瓶盆等	-12.2038
工巧	-12.2038
鼇	-12.2038
智有窮幽之鑒	-12.2038
佛告迦葉	-12.2038
地上忍	-12.2038
霞	-12.2038
修途託至於初步	-12.2038
獨靜於名教之外	-12.2038
不相違背	-12.2038
有無既廢	-12.2039
佛來應	-12.2039
涎	-12.2039
假伏中斷	-12.2039
西涼	-12.2039
累無不寂德無不圓	-12.2039
能用去法	-12.2039
小生生大	-12.204
實德業	-12.204
於我何為	-12.204
粟	-12.204
以覺從神	-12.204
而語聖心者乎	-12.204
草堂寺	-12.204
法及有法	-12.204
乳中有酪	-12.204
假無假不無	-12.204
若有不即真	-12.204
俯提弱喪	-12.204
有者有於無	-12.204
具足六波羅蜜	-12.2041
若稱生同外	-12.2041
高而無上	-12.2041
成無量分	-12.2041
我之所謂靜者	-12.2041
智為雜毒	-12.2041
空所對治	-12.2041
通鑒不為有	-12.2041
果以功業不可朽故	-12.2041
非果而果	-12.2041
滅名無餘	-12.2041
愆	-12.2041
感無不應	-12.2041
仰攀玄根	-12.2041
閇	-12.2041
而無知焉	-12.2042
稱非我也	-12.2042
法身初建	-12.2042
物無彼此	-12.2042
復次鞞婆沙	-12.2042
排方外之談	-12.2042
二若謂下	-12.2042
遍云何念	-12.2042
空不自空	-12.2042
頓赴	-12.2042
勞患	-12.2042
莊生之所以藏山	-12.2042
薄福鈍根	-12.2042
象馬兔	-12.2042
初節二諦	-12.2042
有何物而可去來	-12.2043
非因而因	-12.2043
異有之空	-12.2043
亦合云	-12.2043
各住一世	-12.2043
不化故不遷	-12.2043
祕藏	-12.2043
那由他	-12.2043
無二無三	-12.2043
著故有得	-12.2043
非其言也	-12.2043
無他緣	-12.2044
十二部經八萬法藏	-12.2044
鑒有淺深	-12.2044
摸	-12.2044
心非我生	-12.2044
順俗則違真	-12.2044
怏怏	-12.2044
羯	-12.2044
羽	-12.2044
生已復生	-12.2044
眾緣所生法	-12.2044
不染塵累	-12.2044
速疾	-12.2045
煩惱業苦	-12.2045
跋摩	-12.2046
四住地	-12.2046
為此人故	-12.2046
妄心妄境	-12.2046
莫知所之	-12.2046
鬪	-12.2046
旋嵐偃嶽而常靜	-12.2046
真偽之途	-12.2046
水月鏡像	-12.2047
醎	-12.2047
十方佛土中	-12.2047
揀擇	-12.2047
一念相應慧	-12.2047
得意毫微	-12.2047
豈曰去而可遣	-12.2047
欣厭	-12.2047
混而不渝	-12.2047
與前何異	-12.2047
啼	-12.2047
果中說因	-12.2047
稱住不必住	-12.2047
目擊道存	-12.2047
為破彼言	-12.2047
脣	-12.2047
不累於有	-12.2047
佛初成道	-12.2047
知病識藥	-12.2047
果出有無之域	-12.2048
如牛二角	-12.2048
端嚴	-12.2048
若常若無常	-12.2048
般若無所有相	-12.2048
利樂有情	-12.2048
拜	-12.2048
今牒之	-12.2048
雖速而不轉	-12.2048
既以取捨為心	-12.2048
尋夫不動之作	-12.2049
即須知	-12.2049
而行業湛然	-12.2049
忠	-12.2049
若都畢竟空	-12.2049
時方物類	-12.205
頭中有足	-12.205
無起亦無滅	-12.205
良有以	-12.205
亦可以言	-12.205
八萬法藏	-12.205
佛應眾生	-12.205
彼岸豈異	-12.205
內凡夫位	-12.205
若當離於	-12.205
縛可縛	-12.205
同故無心於彼此	-12.2051
能說是因緣	-12.2051
恑	-12.2051
通達是義	-12.2051
即偽即真	-12.2051
實智照理	-12.2051
二因二果	-12.2052
空亦復空	-12.2052
即萬物之自虗	-12.2052
愛非愛顛倒	-12.2052
眾論競作	-12.2052
劫得到	-12.2052
般若力也	-12.2052
金翅鳥	-12.2053
有不定過	-12.2053
非三非一	-12.2053
故不得以得之	-12.2053
一生一不生	-12.2053
窮其原	-12.2053
是法不可示	-12.2053
當有深證	-12.2053
念屬神	-12.2053
二諦為所說	-12.2054
五百論師	-12.2055
苦空無常	-12.2055
問此與上	-12.2055
生而非有	-12.2055
稟二諦教發生二智	-12.2055
化母所育	-12.2055
千萬億	-12.2055
智非知也	-12.2055
無性法亦無	-12.2055
梏	-12.2056
羣數之應	-12.2056
處計常之中	-12.2056
未始無事	-12.2056
院	-12.2056
譬彼真無	-12.2056
無形不形	-12.2056
惑智有知	-12.2057
唯此一事實	-12.2057
更無二體	-12.2058
一真法界	-12.2058
題牓	-12.2058
彼無相之	-12.2058
觀性門	-12.2059
為當唯照無相耶	-12.206
無色無見無對	-12.206
實無所入	-12.206
支法詳	-12.2061
弗若多羅	-12.2061
有破不破	-12.2062
得無我智	-12.2062
等流果	-12.2062
充滿	-12.2062
即寂之	-12.2062
有及非有	-12.2062
能領受	-12.2062
刺	-12.2063
服甘露	-12.2063
又非不應	-12.2063
中前假	-12.2064
有此文來	-12.2065
名相靡因	-12.2066
示是道	-12.2066
為眾生故強	-12.2067
極於相內	-12.2069
巳去未去	-12.207
此頌意	-12.207
則異乎無相	-12.207
皆攝在	-12.2071
一一法上	-12.2071
重出論義	-12.2071
羅漢最後心	-12.2072
無此道理	-12.2072
指掌	-12.2073
河中七	-12.2078
天即是人	-12.2079
請詰	-12.2081
無法不窮	-12.2081
世間所無	-12.2082
得神覺一	-12.2085
欲界繫	-12.2098
假後中	-12.2099
無是無非	-12.2108
夫有所知	-12.2118
果若有得	-12.2141
往生品	-12.2165
二本文	-12.2172
中論以二諦為宗	-12.2178
中根人	-12.2187
凡夫二乘有所得	-12.2191
小名大	-12.2203
亮師	-12.2227
是邪說	-12.2271
與理冥	-12.2282
取而不破	-12.2291
有何法可	-12.2307
故不應捨	-12.2315
境生智	-12.2369
十三卷	-12.2418
山中舊	-12.2496
人證法	-12.2552
滅後有無等	-12.2663
為眾生捨身	-12.2793
非色根境	-12.2831
問不成問	-12.3043
蹤	-12.3128
梵行品	-12.3242
微隱難測	-12.3529
盾	-12.3633
矛	-12.3638
瀉	-12.3642
瓫	-12.3645
往物不化	-12.3645
數緣無為	-12.3645
滑	-12.3648
愁	-12.3648
幟	-12.3655
翹	-12.3656
愛佛地功德	-12.3657
因去知去者	-12.3659
法華實相之旨	-12.366
模	-12.3661
相即是可相	-12.3661
行大施	-12.3663
戲論斯滅	-12.3664
捨於身命	-12.3664
若自在作者	-12.3665
有無一異生滅去來	-12.3665
離壞無成	-12.3665
茅	-12.3666
台	-12.3666
誣	-12.3666
因去了去者	-12.3666
草澤	-12.3667
空則不遍	-12.3669
阿鞞䟦致	-12.3669
掌	-12.367
要損之又損之	-12.367
怨賊	-12.367
今物住今	-12.367
如世尊言	-12.367
誚	-12.367
去與去者	-12.367
衿	-12.367
個	-12.3671
源品無明	-12.3671
神冥累之方	-12.3671
相續道中	-12.3673
恣	-12.3673
但見於空不見不空	-12.3673
秦乘入國之謀	-12.3673
與身合	-12.3674
能為智所	-12.3674
霑	-12.3674
雹	-12.3675
婬怒癡	-12.3675
耆年解脫	-12.3676
自行化他	-12.3676
並決破	-12.3676
鞭	-12.3676
不能用是去	-12.3677
超語兼默	-12.3677
吉凶	-12.3678
就汝覓	-12.3678
舉足下足	-12.3678
陂	-12.3678
妙契環中	-12.3678
墮惡道	-12.3679
鵂	-12.3679
等無間緣	-12.368
蟬	-12.368
窮本極末	-12.368
阿修羅	-12.3681
蠱	-12.3681
不能釋手	-12.3681
葦	-12.3681
燎	-12.3681
諒	-12.3681
口不能言	-12.3681
如十地義中說	-12.3681
猪	-12.3681
犬	-12.3681
即色遊玄論	-12.3682
汪洋	-12.3682
補續	-12.3682
雖眾經殊致	-12.3682
巨細相容	-12.3682
微塵非現見	-12.3682
所隨遂	-12.3682
智不取所知	-12.3683
融冶二儀	-12.3683
推過還外	-12.3683
蹹	-12.3683
妙盡常數	-12.3684
繞	-12.3684
聞無作無解	-12.3684
皷	-12.3684
揮	-12.3684
京兆	-12.3684
有方便慧解	-12.3684
第一義空名為智慧	-12.3684
聖智尚存	-12.3684
不自有其知	-12.3684
逝者如斯	-12.3684
應物之假名	-12.3684
有其所以不有	-12.3685
圖以弘顯幽旨	-12.3685
義乃圓	-12.3685
樑椽	-12.3685
北山錄	-12.3685
從眾生自體	-12.3685
業報猶魂	-12.3685
陽𦦨	-12.3685
俗諦事法	-12.3685
案爪	-12.3685
頓盡於五陰之內	-12.3686
『	-12.3686
磐	-12.3686
緣自非緣	-12.3686
鳴	-12.3686
聞有作有解	-12.3686
歸乎無極	-12.3686
改凡成聖	-12.3686
內視不	-12.3686
然則去住雖殊	-12.3687
可不哀	-12.3687
道源是同	-12.3687
方等之淵府	-12.3687
是故下第三結	-12.3687
具得二空	-12.3687
不可於色中求	-12.3687
會萬物以成	-12.3687
世間眼見萬物不	-12.3687
攀	-12.3687
薗	-12.3688
有慧方便解	-12.3688
無慧方便縛	-12.3688
離去者有去	-12.3688
若存若亡	-12.3688
湯	-12.3688
遊刃萬機	-12.3688
即寂滅性	-12.3688
我則言其去	-12.3688
雖真而非有	-12.3688
非理不聖	-12.3688
膚	-12.3688
菓	-12.3689
乾乾宵夕	-12.3689
捉破為立	-12.3689
瘡	-12.3689
越諸根境	-12.3689
權智外應	-12.3689
故仲尼曰	-12.3689
是汝立義	-12.3689
諭	-12.3689
歲次星紀	-12.3689
稠	-12.3689
姑蘇堯峯蘭若沙門遵式述	-12.3689
聦	-12.3689
執諸法有決定	-12.3689
如幻如焰	-12.3689
祿	-12.3689
七十論	-12.369
離成無壞	-12.369
頂戴	-12.369
此以人三	-12.369
二種法印	-12.369
回也見新	-12.369
窮所不能滯	-12.369
藏舟於壑	-12.369
意正爾	-12.3691
邊云何有後世	-12.3691
每一言集	-12.3691
嗤	-12.3691
弓	-12.3691
惘	-12.3691
見佛聞法	-12.3691
今所釋者	-12.3691
是品義意	-12.3691
靡所不	-12.3691
仞	-12.3691
殉	-12.3691
誰見誰曉	-12.3691
作者及作業	-12.3691
知空亦空	-12.3691
逾動逾寂	-12.3692
蕭	-12.3692
裏	-12.3692
不近人情	-12.3692
漂	-12.3692
王舍城	-12.3692
然異端之論	-12.3692
生起中初敘	-12.3692
非體非非體	-12.3692
鋒	-12.3692
死已而滅	-12.3693
真之與俗	-12.3693
一道出生死	-12.3693
斯則物我不異之	-12.3693
瑠璃珠	-12.3693
羞	-12.3693
失在於物虛	-12.3693
菩薩住二諦中	-12.3693
浸	-12.3694
湛若虗空	-12.3694
諮參無所	-12.3694
滅惡生善	-12.3694
理外感理外	-12.3694
聃	-12.3694
非行非不行	-12.3694
燈明一時	-12.3694
不非色於非色	-12.3694
獨建於三有之外	-12.3695
晨	-12.3695
恐是當之生	-12.3695
孰與止之	-12.3695
於何而不在	-12.3695
閑居學肆	-12.3695
至當真是	-12.3695
有稱非同	-12.3695
祭	-12.3695
今還在汝	-12.3695
下引經顯	-12.3695
是謂昔物自在昔	-12.3695
顯於茲矣	-12.3695
諸賢聖真知性空	-12.3695
佛說何等善法	-12.3696
鍮	-12.3696
多即言以定旨	-12.3696
穿鑿	-12.3696
徤	-12.3696
靜而非動以其不去	-12.3696
得意忘言	-12.3696
無為而無不為	-12.3696
力負無以化其體	-12.3696
夫生死交謝	-12.3696
規矩	-12.3696
適彼而彼	-12.3696
十信位中	-12.3696
繹	-12.3697
六趣不能攝其生	-12.3697
迮	-12.3697
正亦不留	-12.3697
不可以知名哉	-12.3697
憚	-12.3697
聞世諦謂是第一義諦	-12.3697
若有一瓶一	-12.3697
長行與偈	-12.3697
可謂識法	-12.3697
先所立義	-12.3697
將非如來	-12.3697
徒知年往	-12.3697
盡言為論	-12.3697
享	-12.3697
今若至古	-12.3697
各體破	-12.3697
金剛身品	-12.3697
受天身	-12.3697
吐不一之殊教	-12.3697
何莫由之哉	-12.3698
正破內傍破外	-12.3698
無上照世	-12.3698
而謂今物	-12.3698
無復別有一盡處	-12.3698
墮在失處	-12.3698
其猶高下相傾	-12.3698
聖人無私於知會	-12.3698
墻	-12.3698
經喻螢日	-12.3698
可例說	-12.3698
剪	-12.3698
理屈辭窮	-12.3698
來問婉切	-12.3698
其身而身	-12.3698
論有九折十演	-12.3698
觀空而不證	-12.3698
堅牢	-12.3698
隙	-12.3698
其唯聖人乎	-12.3698
復何惑於去留	-12.3698
飽	-12.3699
混成一	-12.3699
為法城塹	-12.3699
論至日	-12.3699
村	-12.3699
導而弗先	-12.3699
寶性論	-12.3699
我則言其住	-12.3699
堊	-12.3699
躬	-12.3699
汪哉洋哉	-12.3699
紹	-12.3699
之所由生也	-12.3699
真諦無兔馬之遺	-12.3699
無病不破	-12.3699
從本已來	-12.3699
盡偏中	-12.3699
亦假亦中	-12.3699
菩薩瓔珞本業經	-12.37
九折十演者	-12.37
內以流滯	-12.37
床	-12.37
如是三乘眾生	-12.37
誡勸	-12.37
誥	-12.37
毘尼	-12.37
以況遠	-12.37
佇想用勞	-12.37
烈	-12.37
無所行而行	-12.37
良醫	-12.37
匡	-12.37
是名諸佛法	-12.37
諸佛以此為性	-12.37
我說即是無	-12.37
綸	-12.3701
像法決疑經	-12.3701
覩變之知異無相	-12.3701
如毛孔	-12.3701
萬有參分	-12.3701
增一阿含	-12.3701
威被蒼生	-12.3701
有物之宗極者	-12.3701
破他法故自法成	-12.3701
在天而天	-12.3701
標說曰	-12.3701
玄關之唱	-12.3701
讖	-12.3701
以少從多	-12.3701
比丘白佛	-12.3701
但今談者	-12.3701
果有無相之知	-12.3701
言其非無者	-12.3701
豈唯無知名無知	-12.3701
則以無為無	-12.3701
去者用去法	-12.3701
隣人見之曰	-12.3701
故萬德斯弘	-12.3701
菟角	-12.3702
有諦無諦中道第一義諦	-12.3702
憎背	-12.3702
言於無言	-12.3702
佛性真我	-12.3702
得緣覺菩提	-12.3702
本無實相法性	-12.3702
貪恚癡	-12.3702
阻	-12.3702
昂	-12.3702
權歸實	-12.3702
極耳目於視聽	-12.3702
邏	-12.3702
欲令眾生深識第一義諦	-12.3702
壹	-12.3703
無想定	-12.3703
視之不見	-12.3703
應必有由矣	-12.3703
故聖心不有有	-12.3703
是佛性之異名	-12.3703
豈待宰割以求通哉	-12.3703
隨順眾生說有二諦	-12.3703
故非生滅非無生滅	-12.3703
聆	-12.3703
內有獨鑒之明	-12.3703
宰割	-12.3703
故照緣而非	-12.3703
存而不可論者	-12.3703
漚和功也	-12.3703
誠以不異於異	-12.3703
引小乘經	-12.3704
非前非後	-12.3704
無教不申	-12.3704
以教為門	-12.3704
今物何所往	-12.3704
云何當可得	-12.3704
䟦	-12.3704
若無有自性云何有	-12.3704
非數緣滅	-12.3704
菩薩坐道場時	-12.3704
應物而形	-12.3704
待果起方滅	-12.3704
伐龜茲	-12.3704
是諸聖智不相違背	-12.3704
廬阜	-12.3704
情有理無	-12.3704
諸說中第一	-12.3704
進退墮負	-12.3704
既知既會	-12.3704
非我非無我	-12.3704
頰	-12.3704
言無相寂滅之道	-12.3705
百家異說	-12.3705
夫止此而此	-12.3705
服像雖殊	-12.3705
三百年中從	-12.3705
殺生祀天	-12.3705
觀身實相觀佛亦然	-12.3706
滅一切戲論	-12.3706
盧舍那	-12.3706
形不可以象	-12.3706
真以俗為義	-12.3706
答通而為論	-12.3706
未去亦無去	-12.3706
雞	-12.3706
既知往物而不來	-12.3706
踈	-12.3706
士受道以	-12.3706
伺	-12.3706
能見之眼	-12.3706
異無相之照乎	-12.3707
即而究之	-12.3707
會歸同致矣	-12.3707
然其為物	-12.3707
然非不物	-12.3707
其道既存	-12.3707
因來何少	-12.3707
從果受名	-12.3707
權入實	-12.3707
離於言數	-12.3707
報佛恩	-12.3707
隨他意語	-12.3707
在茲而顯	-12.3707
趾	-12.3707
竪窮四句	-12.3707
措	-12.3708
異空之有	-12.3708
以無一二故	-12.3708
馳騁	-12.3708
二理未始殊	-12.3708
沖而不改	-12.3708
神有應會之用而無慮焉	-12.3708
無心於彼此	-12.3708
觀世音	-12.3708
俱常俱	-12.3708
恢恢焉	-12.3708
然則眾生非眾生	-12.3708
當而無是	-12.3708
埃	-12.3708
如烟微鄣	-12.3708
是事終不然	-12.3708
是無煩惱果	-12.3708
猶如幻等	-12.3708
不知非不知	-12.3708
定知諸法有體	-12.3709
眾聖於是乎冥會	-12.3709
引兩經	-12.3709
文處易知	-12.3709
不著不二法	-12.3709
於高論之旨	-12.3709
法法皆真	-12.3709
寧曰無知	-12.3709
能文之士	-12.371
欲以通其鑒	-12.371
稱去不必去	-12.371
即事契理	-12.371
於無異法中而說諸法異	-12.371
賢聖之道存	-12.371
其斯之謂歟	-12.371
及內殿故敬奉	-12.371
乳有酪	-12.371
此非我異無為	-12.3711
一一中皆	-12.3711
寂焉無聞	-12.3711
初釋名者	-12.3711
形以智勞	-12.3711
違真故迷性而莫返	-12.3711
無縛無脫	-12.3711
不從師得	-12.3711
神有應會之用	-12.3712
讌	-12.3712
須菩提白佛言	-12.3712
今演論之作	-12.3712
阿順那	-12.3712
因因而果因不昔滅	-12.3712
復次數論師言	-12.3712
所造未嘗異	-12.3712
而以南北為喻	-12.3712
見有見無	-12.3712
所以有此破來者	-12.3712
夫談真則逆俗	-12.3712
復何怪哉	-12.3712
第一大道無有兩正	-12.3713
確	-12.3713
而異於聖心	-12.3713
外人既聞	-12.3713
粹	-12.3713
非緣非觀	-12.3713
諸法從本來常自寂滅	-12.3713
河西道朗	-12.3713
釋人之所謂往	-12.3713
二乘滯空	-12.3713
動而逾寂	-12.3713
是所未悟也	-12.3713
朱顏	-12.3713
愛非愛	-12.3714
常等諸見	-12.3714
可曰無知	-12.3714
摘	-12.3714
昔因不化	-12.3714
聖心雖無知	-12.3714
憍慢	-12.3715
無方大用	-12.3715
寂然而往	-12.3715
患難以之而起	-12.3715
靈鑒幽燭	-12.3715
六家七宗	-12.3715
聊以擬	-12.3715
三世十方佛	-12.3715
所物而可物	-12.3715
暖	-12.3715
所知生於知	-12.3715
謂不從今至古	-12.3715
蘊處界	-12.3716
動即靜	-12.3716
因中前無	-12.3716
夫真由離起	-12.3716
神雖世表	-12.3716
淵默以之而遼	-12.3716
亦可如來言耳	-12.3716
吾無生不生	-12.3717
火熱相	-12.3717
𢭀	-12.3717
不識二諦失二諦	-12.3717
即入有境	-12.3717
迴向三有	-12.3717
而無照功	-12.3717
有既有矣	-12.3717
獨王於世表	-12.3718
法無故人無	-12.3718
復何知哉	-12.3718
理外感理內	-12.3718
監	-12.3718
說法不有亦不無	-12.3718
十白業道	-12.3718
豈尋化以階道	-12.3718
以中為名者	-12.3718
以因緣故諸法生	-12.3718
矜恃	-12.3719
仕	-12.3719
故不知以知之	-12.3719
象從手	-12.3719
從俗諦單中出	-12.3719
作者及業	-12.3719
斯皆即動而求靜	-12.3719
瑩	-12.3719
託空而起	-12.372
愽	-12.372
短故長	-12.372
窟	-12.372
有如是等過	-12.372
駛	-12.372
知何以傳	-12.372
外息大患之本	-12.372
所造未甞異	-12.372
有便不便	-12.372
諸有二者無道無果	-12.372
宜先定聖心所以應會之道	-12.3721
隱顯同源	-12.3721
給	-12.3721
義承有本	-12.3721
是以物不即名而就實	-12.3721
而演非常之教	-12.3721
應接無方	-12.3721
應接無窮	-12.3721
金剛佛舍利	-12.3721
5	-12.3721
內無機照之勤	-12.3722
智雖事外	-12.3722
怕爾而來	-12.3722
若有不空法	-12.3722
虗而照	-12.3722
非有所以不取	-12.3722
離色有色因	-12.3722
大師長講沙門文才述	-12.3723
祐	-12.3723
釋源大白馬寺宗主贈邽國公海印開法	-12.3723
埴	-12.3723
於然燈佛所	-12.3723
靜而弗留矣	-12.3723
非無所以不捨	-12.3723
人之常情	-12.3723
真諦可亡而知	-12.3724
低頭舉手	-12.3724
八百年時	-12.3724
能而不所	-12.3724
何能生生生	-12.3724
開空法道	-12.3725
於一乘道	-12.3725
以物求名	-12.3725
待緣而後有	-12.3725
▁182	-12.3725
尋此有無之言	-12.3725
非善非惡	-12.3725
終日域中	-12.3726
有佛無佛性相常住	-12.3726
為作為不作	-12.3726
去者不用三	-12.3727
常等四倒	-12.3727
說一乘法事	-12.3727
以知存不為有	-12.3727
名不即物而履真	-12.3727
亦能亦所諦	-12.3728
7	-12.3728
豈釋動以求靜	-12.3728
內曰若爾無	-12.3728
雖物而非物	-12.3728
余則謂之不然	-12.3728
發心畢竟二不別	-12.3728
苦若有定性	-12.3728
楊	-12.3729
應假理	-12.3729
苦所苦	-12.3729
泥中之瓶	-12.3729
雖象而非象	-12.3729
梵網	-12.373
人與杖合	-12.373
標多佛	-12.373
而忘其	-12.373
同出而異名	-12.3731
是諸見根	-12.3731
有分與分	-12.3731
世諦破實	-12.3731
宗途屈於好異	-12.3731
及違義	-12.3731
若欲止於心	-12.3732
有既成瓶	-12.3733
a	-12.3733
本末精悉	-12.3734
是名不見色	-12.3735
瓶家有	-12.3738
唯破不立	-12.3738
觸事皆	-12.3739
▁87	-12.374
乘五衍之安車	-12.374
總別義異	-12.3743
從有名有	-12.3743
有應法起	-12.3744
真俗不真俗	-12.3753
妙絕於有	-12.3758
為凡說我無我	-12.3759
因故說常	-12.3772
作相違難	-12.3792
無為尚空	-12.3805
賢首大師	-12.3805
後邊身	-12.3827
無一法可	-12.3847
陰中無如來	-12.3848
須聖人為	-12.3863
釋前偈下半	-12.3927
照明品	-12.394
耳鼻舌身意	-12.4025
語出老	-12.4121
所以靜躁之極	-12.4332
論第十八	-12.4618
覺與神	-12.4918
靜躁之極未易言	-12.4994
跋陀	-12.5066
中又開	-12.5067
壞因來壞	-12.5595
法法不相到	-12.564
凶	-12.5643
繕	-12.5645
課	-12.5647
研機斯趣	-12.565
悼	-12.5651
鑄	-12.5653
鳳	-12.5654
遵	-12.5655
庇	-12.5659
釧	-12.5659
𦦨	-12.566
怯	-12.566
五眼所不見	-12.5661
腐	-12.5661
四諦二諦一諦	-12.5662
炳	-12.5662
銳	-12.5663
央	-12.5663
舉師以來之	-12.5663
共論世諦	-12.5664
若謂以現見而有	-12.5664
今應詰問	-12.5665
阿羅羅	-12.5665
得忍菩薩	-12.5666
六年苦行	-12.5666
覩眾相	-12.5666
儁	-12.5667
炬	-12.5667
燥	-12.5667
彼去則不去	-12.5669
撫机歎	-12.5669
已去中無發	-12.567
退之弗後	-12.5671
進之弗先	-12.5671
漆	-12.5671
癘	-12.5671
族	-12.5671
隨凡說有	-12.5671
愛結所	-12.5672
既能如是遠離二邊	-12.5672
輿	-12.5673
冲而不改	-12.5673
大秦天王者	-12.5673
呂	-12.5674
餘迹不泯	-12.5674
非實非非實	-12.5674
不面當年	-12.5674
道契百王之端	-12.5674
色入所攝	-12.5674
銅鍱	-12.5674
集起無知	-12.5674
亦實亦非實	-12.5675
臧	-12.5675
何美如之	-12.5676
廷	-12.5676
論曰諸有至	-12.5676
即實之權	-12.5676
而子欲以緣求智	-12.5676
識緣名色	-12.5676
非非二非非不二	-12.5676
飡	-12.5677
澁	-12.5677
有業有果報	-12.5677
鵞	-12.5677
虛怕獨感	-12.5677
宇宙	-12.5677
物生物者	-12.5677
摭	-12.5678
或一或異	-12.5678
綽	-12.5678
羲	-12.5678
以緣求知	-12.5678
為無知故不取	-12.5678
君清對終日	-12.5678
未發無去時	-12.5678
闚	-12.5679
楯	-12.5679
糠	-12.5679
作若為解	-12.5679
智者了達知其無二	-12.5679
波羅捺	-12.5679
庶述其言	-12.5679
有美若人	-12.568
五千偈	-12.568
矚	-12.568
周續之	-12.568
三本迹俱	-12.568
替	-12.568
推涉聖文	-12.568
必先定其本	-12.568
鉾	-12.5681
糧	-12.5681
蒲有席	-12.5681
離法無別時	-12.5681
昔有今無	-12.5681
虵	-12.5681
婁	-12.5681
若無知故不取	-12.5681
且談論之作	-12.5682
就相待門破	-12.5682
顛	-12.5683
夫言由名起	-12.5683
子以有得為得	-12.5683
而有餘緣不盡	-12.5683
暄	-12.5683
此豈頓得之謂	-12.5683
九層之臺	-12.5683
五根五塵及	-12.5683
廢三立一	-12.5683
般若未嘗淨	-12.5683
君王得一以治天下	-12.5683
依聞思所成智正比量	-12.5683
故真智亦非知	-12.5683
滌蕩萬有	-12.5683
忙	-12.5684
其實既宣	-12.5684
吾以無得為得	-12.5684
瞻霞永歎	-12.5684
設二乘不見此理	-12.5684
滌	-12.5684
所以為患耳	-12.5684
書不云乎	-12.5684
借妄止妄	-12.5684
遠法師頃恒履宜	-12.5684
是以聖人空洞其懷	-12.5684
所知自常淨	-12.5684
故天帝曰	-12.5684
柴桑	-12.5684
全如意珠	-12.5684
於勝義上更	-12.5684
返聽不我聞	-12.5684
如梵王所問經	-12.5684
見此不見彼	-12.5684
生老病死憂悲苦惱	-12.5685
自非道用潛流	-12.5685
順時愛敬	-12.5685
舍那婆斯	-12.5685
空名有空	-12.5685
譬猶三鳥出網	-12.5685
寂寥虗曠	-12.5685
若有知性空而稱淨	-12.5685
不見有法無緣而生	-12.5685
乘真心而理順	-12.5685
八百餘年	-12.5686
是以雖復江山悠邈	-12.5686
奴	-12.5686
非聖不理	-12.5686
理微言約	-12.5686
懷六合於胸中	-12.5686
豈容終始於其間哉	-12.5686
而止無為之境	-12.5686
超情離見	-12.5686
在什公門下十有餘	-12.5686
緣門破緣	-12.5686
言殊致一	-12.5686
或總或別	-12.5686
明不見暗	-12.5686
潢漭	-12.5686
結縛既除	-12.5686
有實行二乘	-12.5687
五十二位	-12.5687
感寄之誠	-12.5687
同我則非復有無	-12.5687
定有則著常	-12.5687
異我則乖於會通	-12.5687
齊異學於迦夷	-12.5687
在靈鷲山	-12.5687
柔軟	-12.5687
而惑者居見聞之境	-12.5687
日月銘至	-12.5687
見法為見佛	-12.5687
以為欣慰	-12.5687
問此品何故	-12.5687
果未起時	-12.5687
漬	-12.5687
無器而不形	-12.5687
猷	-12.5687
能建大	-12.5687
開三顯一	-12.5687
不說我非我	-12.5687
二乘得盡智	-12.5687
有天竺沙門鳩摩羅什者	-12.5687
猥蒙國恩	-12.5687
萬累滋彰	-12.5687
豈不以其即萬物之自	-12.5687
逾寂逾動	-12.5687
未受五陰	-12.5687
生生之所生	-12.5688
碎	-12.5688
請大乘禪師一人	-12.5688
雖未清承	-12.5688
堅濕暖動	-12.5688
然其量有	-12.5688
阿闍世	-12.5688
向在為有	-12.5689
適時而用	-12.5689
擅	-12.5689
䬸	-12.5689
離去不去者	-12.5689
是以聖人乘千化而不變	-12.5689
雖偽而非無	-12.5689
已去無有去	-12.5689
鼠嘍栗	-12.5689
覔	-12.5689
􂒀	-12.5689
肅	-12.5689
何乖不一耶	-12.569
瘵	-12.569
夫言迹之興	-12.569
徵出第四	-12.569
不循聲	-12.569
絕視聽之域	-12.569
何有同無之極	-12.569
審一氣以觀化	-12.569
永淪太	-12.569
萬善為乘	-12.569
隨之弗得其蹤	-12.569
黜	-12.569
將爰燭殊方	-12.569
無畏之廣	-12.569
牓	-12.569
如觀緣品	-12.569
是以三乘觀法無異	-12.569
道俗通佳	-12.569
夫涅槃之為道也	-12.569
如刀傷心	-12.569
亦諦亦非諦	-12.569
惓	-12.5691
智能為境所	-12.5691
同升無為	-12.5691
裔	-12.5691
然未經高勝先唱	-12.5691
蠅	-12.5691
錦	-12.5691
不應重執	-12.5691
吏	-12.5691
所以為即無為	-12.5691
聰慢者	-12.5691
肇以人微	-12.5691
天得一以清	-12.5691
宇於無疆	-12.5691
法師亦好相領得	-12.5691
但未是玄寂絕言之幽致	-12.5691
推之無鄉	-12.5691
俗諦以明非無	-12.5691
所以千聖同轍	-12.5691
邕	-12.5692
笋	-12.5692
稀	-12.5692
古應有今	-12.5692
驢	-12.5692
今應有古	-12.5692
古若至今	-12.5692
自照照彼	-12.5692
蓋是三乘之宗極也	-12.5692
五大生十一根	-12.5692
如來滅度後	-12.5692
眾庶止於妄想	-12.5692
有果有果果	-12.5692
人之所謂去	-12.5692
事不失真	-12.5692
因興因因	-12.5692
然則不真空義	-12.5692
靜思幽尋	-12.5692
妹	-12.5693
無是而物無不是	-12.5693
是以觀聖人心者	-12.5693
無心於萬物	-12.5693
今亦不至古	-12.5693
像出於有	-12.5693
將人比日	-12.5693
正申傍破	-12.5693
罵	-12.5693
砂	-12.5693
諦觀察之	-12.5693
諸法假號不真	-12.5693
有因有因因	-12.5693
無得之偽號	-12.5693
鍛	-12.5693
於內無心	-12.5693
無聽而聽者	-12.5693
破離陰我	-12.5693
生生奔競	-12.5694
知之者反其愚	-12.5694
而子欲聞之耶	-12.5694
豈貪豐文	-12.5694
瑤和尚	-12.5694
識等四法無	-12.5694
卜	-12.5694
實無水可破	-12.5694
極微定有方分	-12.5694
而王居一焉	-12.5694
產	-12.5694
能拔物苦	-12.5694
若覺是神相	-12.5694
四合生知	-12.5694
從勝受名	-12.5694
汝亦不許	-12.5694
緣使中人未分於存亡	-12.5694
是以人之所謂住	-12.5694
究竟涅槃常寂滅相	-12.5694
性本自空	-12.5694
標越俗之美	-12.5694
若稱生同內	-12.5694
百非所不非	-12.5695
則般若眾流	-12.5695
兩言雖殊	-12.5695
人則求古於今	-12.5695
伏惟陛下	-12.5695
其唯聖言乎	-12.5695
吾則求今於古	-12.5695
負之而走	-12.5695
開方便門示真實相	-12.5695
遜	-12.5695
鋌	-12.5695
但著文字	-12.5696
言象之所得	-12.5696
絕有之稱	-12.5696
百是所不是	-12.5696
竪窮五句	-12.5696
懷前識以標玄	-12.5696
求向物	-12.5696
不厭有而觀空	-12.5696
卓	-12.5696
斯不遠而可知矣	-12.5696
苟能契神於即物	-12.5696
夫聖心冥寂	-12.5696
智能滅障	-12.5696
然則乾坤倒覆	-12.5696
莫先於無	-12.5696
乘莫二之真心	-12.5696
介	-12.5696
請以近喻	-12.5696
不如有見常見之有	-12.5696
沫	-12.5696
涼風屆節	-12.5696
則深遠之言	-12.5697
齒	-12.5697
君臣父子	-12.5697
㲉	-12.5697
湛若虛空	-12.5697
然則法相為無相之相	-12.5697
斂	-12.5697
薪盡火滅	-12.5697
依持建立	-12.5697
六地以還	-12.5697
初長行立	-12.5697
惶	-12.5697
然則有餘可以有稱	-12.5697
了第一義諦世諦	-12.5697
則不辨於惑智	-12.5697
汝語不善	-12.5698
履萬惑而常通	-12.5698
若真是可是	-12.5698
假有假不有	-12.5698
來有所從	-12.5698
無執無競	-12.5698
無物從緣而生也	-12.5698
涌	-12.5698
秉	-12.5698
領公遠舉	-12.5698
乃曰一切知	-12.5698
百論治外以閑邪	-12.5698
匪	-12.5698
如軍眾等	-12.5698
狩	-12.5698
辭雖不文	-12.5698
因破異執	-12.5698
感而遂通	-12.5698
經所為論能	-12.5698
託情絕域	-12.5698
彌沙塞	-12.5698
然性本常一	-12.5699
不幸什公去世	-12.5699
涅槃既不出有無	-12.5699
靡不度生	-12.5699
妙悟在於即真	-12.5699
是則涅槃有始	-12.5699
緣正兩性	-12.5699
臆	-12.5699
內外相與以成其照功	-12.5699
若蠅翼	-12.5699
豈曰關詣神心	-12.5699
絕偽即真	-12.5699
得語不得意	-12.5699
人則謂少壯同體	-12.5699
將無以般若體性真淨	-12.5699
巍	-12.5699
所以望途致想	-12.5699
薪中亦無火	-12.5699
詰漸第十二	-12.5699
豈可以有為便有為	-12.5699
使夫懷德者自絕	-12.5699
聖智無知而無所不知	-12.5699
偏行六度菩薩	-12.5699
去有所至	-12.5699
陷	-12.5699
塹	-12.5699
蔡邕	-12.57
涅槃與無煩惱不異	-12.57
名也極於題目	-12.57
現在愛取	-12.57
非離真而立處	-12.57
入大般若波羅蜜	-12.57
故知萬物非真	-12.57
般若為能觀之	-12.57
蕩無始之遺塵	-12.57
無取則無是	-12.57
照逾明	-12.57
今真諦曰真	-12.57
罄佛淵海	-12.57
謁	-12.57
或未盡上	-12.57
訶梨跋摩	-12.57
佛於空中現	-12.57
無說無聞	-12.57
不若無心之無	-12.57
知是神相	-12.57
般若無不窮之鑒	-12.57
不可得而同也	-12.57
所以會而不差	-12.57
經能為論所	-12.57
編	-12.57
取相故名知	-12.57
整歸駕於道場	-12.57
是以聖心不有	-12.57
菩薩住盡不盡平等法門	-12.5701
而論旨竟莫知所歸	-12.5701
豈曰續鳧截鶴	-12.5701
穿	-12.5701
奈	-12.5701
言生於象	-12.5701
恬焉而夷	-12.5701
括囊無咎	-12.5701
豈曰有而為有	-12.5701
象生於意	-12.5701
夫言色者	-12.5701
惑者初非無	-12.5701
涅槃之始為生死之終	-12.5701
薩迦耶見	-12.5701
通古第十七	-12.5701
佐	-12.5701
相生即緣法	-12.5701
視之不見名曰夷	-12.5701
遼	-12.5701
釆	-12.5701
鼈	-12.5701
轉名最勝	-12.5701
雄	-12.5701
齋	-12.5701
清散未期	-12.5701
理無餘翳	-12.5701
貧道思不關微	-12.5701
若一心見色	-12.5702
品各五偈	-12.5702
似去而留	-12.5702
故名教絕焉	-12.5702
故聖智存焉	-12.5702
無異杜耳目於胎	-12.5702
禪典唱無緣之慈	-12.5702
緣法故非真	-12.5702
如其有差	-12.5702
而獨曳	-12.5702
翔	-12.5702
於瓦官寺教習禪道	-12.5702
而言有所不言	-12.5703
然則彼此初非有	-12.5703
但標位似各有本	-12.5703
今不去古	-12.5703
從深至淺	-12.5703
眴	-12.5703
祗	-12.5703
不全許	-12.5703
徙	-12.5703
昭昭	-12.5703
濫同小乘	-12.5703
莫定其本	-12.5703
從複假入	-12.5703
欲以辨其相	-12.5703
破而不收	-12.5703
漚和之門涉有	-12.5703
然則般若之門觀空	-12.5703
慣	-12.5703
於七住初獲無生忍	-12.5703
超邁三域	-12.5703
兼拙於筆語	-12.5703
厚自保愛	-12.5703
幸復誨之	-12.5704
三脩比丘	-12.5704
理內感理外	-12.5704
直結盡而	-12.5704
動寂第十五	-12.5704
淹	-12.5704
窈窈	-12.5704
求今於古	-12.5704
辨異者異於同	-12.5704
且至趣無言	-12.5704
亦收亦破	-12.5704
既無心於動靜	-12.5704
無上正等菩提	-12.5704
佛性河滿	-12.5704
郭象注	-12.5704
本之聖意	-12.5704
三明鏡於內	-12.5704
焉可以名於無名	-12.5704
然則有生於無	-12.5704
則無異而不同	-12.5704
捕	-12.5705
勳	-12.5705
是以善言言者	-12.5705
雖覆一簣	-12.5705
其文有似不同	-12.5705
其為稱也	-12.5705
然則三藏殊文	-12.5705
獻	-12.5705
惑者既聞	-12.5705
獨蹈大方	-12.5705
誰為得之者	-12.5705
朗然懸解	-12.5705
諸賢聖真知諸法空	-12.5705
椽	-12.5705
果以非天非人	-12.5705
苟領其所同	-12.5705
豈有心於彼此	-12.5705
訪	-12.5706
繪	-12.5706
鼠	-12.5706
耕	-12.5706
於凡是實故	-12.5706
則無患一也	-12.5706
零	-12.5706
懼言題之流	-12.5706
失撫會之功	-12.5706
非凡非聖	-12.5706
爰延十二	-12.5707
心及心法	-12.5707
則物而即真	-12.5707
諸有礙物	-12.5707
道存乎其間	-12.5707
寂滅永安	-12.5707
從本至末	-12.5707
斯則不可得而異	-12.5707
不可定判	-12.5707
什法師於大石寺	-12.5707
未始不寂	-12.5707
若知得於聖心	-12.5707
賖	-12.5707
實相之折中	-12.5707
阮	-12.5707
於菩薩之行道場之照	-12.5707
離眼耳等根苦樂等法	-12.5707
即之明文	-12.5707
結僧那於始心	-12.5707
冤	-12.5707
聊復寄心於動靜之際	-12.5707
諸煩惱及業	-12.5707
知亦生所知	-12.5707
則邪見非惑	-12.5707
有高必有下	-12.5707
若分有者	-12.5708
列子湯問篇	-12.5708
婆私弗多羅	-12.5708
例上可知	-12.5708
恐所示轉遠	-12.5708
扸	-12.5708
俗以浮虛	-12.5708
用二諦為宗	-12.5708
能說深淨法	-12.5708
世所共知	-12.5708
憩七覺之茂林	-12.5708
一名無量義	-12.5708
五陰十二入十八界	-12.5708
冥冥長往	-12.5708
斷集證滅修道	-12.5708
昔我於無數劫	-12.5708
曇摩掘多	-12.5708
未領色之非色	-12.5708
若汝定謂	-12.5708
其唯聖智乎	-12.5708
若我異無為	-12.5708
夙夜匪懈	-12.5708
謂物無耶	-12.5708
靈竭天棺	-12.5708
以啟末俗	-12.5708
得須陀洹果	-12.5708
況乃有言	-12.5708
終大悲以赴難	-12.5708
非復眾生得涅槃也	-12.5708
墮斷邊	-12.5708
澡八解之清流	-12.5708
若他人作苦	-12.5708
亦破亦立	-12.5709
若唯照無相	-12.5709
忌	-12.5709
言用即同而異	-12.5709
庶通心君子	-12.5709
權實互具	-12.5709
情尚於無	-12.5709
難為郢人	-12.5709
必若止於五陰	-12.5709
百是亦不	-12.5709
殃	-12.5709
體應窮微	-12.5709
不來相來	-12.5709
病無不破	-12.571
豈殊文之能惑哉	-12.571
五陰若都盡	-12.571
若覩其變	-12.571
而陛下聖德不孤	-12.571
即物之情哉	-12.571
豈謂滌除萬物	-12.571
三千大千世界	-12.571
其猶燈盡火滅	-12.571
墮常邊	-12.571
外有萬法之	-12.571
犢子及假有體	-12.571
誠以異於人者神明	-12.571
所見未嘗同	-12.571
故不聞以聞之	-12.571
酌	-12.571
從俗諦複假入	-12.571
窮虗極數	-12.571
吟	-12.571
壽極雙樹	-12.5711
夫以不同而適同	-12.5711
誰獨不然耶	-12.5711
言用則異	-12.5711
論末章云	-12.5711
世間外道小乘大乘	-12.5711
生生從本生	-12.5711
苟得其會	-12.5711
不出魔界而入佛界	-12.5711
發趣品	-12.5711
二智體殊	-12.5711
大音匿於希聲	-12.5711
尋夫經論之作	-12.5711
然則我與無為	-12.5711
而慧明獨存	-12.5711
采	-12.5711
似無影像	-12.5711
佛說種種名	-12.5711
宗皆許	-12.5711
有何物而可動乎	-12.5711
洛	-12.5711
神與覺一	-12.5711
統之者一也	-12.5711
辨相不為無	-12.5711
馮	-12.5711
故絕智以淪虛	-12.5712
躬執秦文	-12.5712
然則群籍殊文	-12.5712
有何物而可同哉	-12.5712
無者無於有	-12.5712
隣人皆愕然	-12.5712
荊	-12.5712
坌污	-12.5712
不愚不智	-12.5712
異故不失於照功	-12.5712
是故瓶非現見	-12.5712
倒與不倒皆	-12.5712
諂	-12.5712
乙	-12.5712
君得與相見	-12.5712
大小兩乘	-12.5712
所以應化無方	-12.5712
是以聲聞悟非常以成道	-12.5712
為利根人說	-12.5712
緣覺覺緣離以即真	-12.5712
脇	-12.5712
若使無有有云何當有無	-12.5712
住處亦無闇	-12.5712
夫物無以自通	-12.5712
猥參嘉運	-12.5712
寧復痾癘中逵	-12.5713
所存之必當	-12.5713
從業更生業	-12.5713
如生盲人	-12.5713
傳梵大師賜紫沙門臣法護等奉詔譯	-12.5713
恍焉而有	-12.5713
譏動第十四	-12.5713
既曰為同	-12.5713
付法藏經	-12.5713
汝雖種種破	-12.5713
若以相可相成	-12.5713
以本垂迹	-12.5713
六境之內非涅槃之宅	-12.5713
色未曾空有	-12.5713
斯則無知之所知	-12.5713
未更近問	-12.5713
神常覺無常	-12.5713
福滅時苦	-12.5713
言雖不能言	-12.5713
比知中無神	-12.5713
溪	-12.5713
無有異有而非無	-12.5713
然則物我同根	-12.5713
空有異照耶	-12.5714
非遷非不遷	-12.5714
於何而可物	-12.5714
然其所統	-12.5714
是以聖智之用	-12.5714
終日言而未嘗言	-12.5714
支法領	-12.5714
俱濟緣起之津	-12.5714
丙	-12.5714
為直往菩薩	-12.5714
啟八正之平路	-12.5714
妙智存乎物外	-12.5714
無所得謂之得者	-12.5714
誠以即物順通	-12.5714
大象隱於無形	-12.5715
弄	-12.5715
有無所以稱有	-12.5715
某	-12.5715
無有所以稱無	-12.5715
故言覩變之知	-12.5715
而信不常不斷	-12.5715
心敏難繪	-12.5715
嵐	-12.5715
憤愧何深	-12.5715
目擊而道存	-12.5715
率稱其美	-12.5715
實能表道	-12.5716
物不能隱	-12.5716
今有合瓶故	-12.5716
所謂有力者負之而趨	-12.5716
是故得無所得也	-12.5716
窮源第十六	-12.5716
毘婆舍那	-12.5716
我及我所	-12.5716
陶汰	-12.5717
窮化母之始物	-12.5717
會異第十一	-12.5717
神道之妙稱	-12.5717
蓋是返本之真名	-12.5717
霧	-12.5717
顯慶三年歲次戊午	-12.5717
交言曰論	-12.5717
如之何謂覩變之知	-12.5717
尋夫立文之本旨者	-12.5717
可燃有燃	-12.5717
控	-12.5717
明漸第十三	-12.5717
物雖非名	-12.5717
尋大方而徵隅	-12.5717
故童子歎曰	-12.5717
自作若不成	-12.5717
安得無知哉	-12.5717
寂彼廓然	-12.5717
架	-12.5717
所知即緣也	-12.5717
野馬飄鼓而不動	-12.5717
辭致清婉	-12.5718
什法師以午年	-12.5718
其致不乖	-12.5718
以明夫聖人之於物也	-12.5718
其致一而	-12.5718
然則有無稱異	-12.5718
見一不見二	-12.5718
其用不勤	-12.5718
數極於是	-12.5718
無不夷跡	-12.5718
猶有餘疑一兩	-12.5718
豈曰文殊而乖其致哉	-12.5718
所以智周萬物而不勞	-12.5718
有如上過	-12.5718
亥	-12.5718
宣明序意	-12.5718
所以聖迹萬端	-12.5718
毉	-12.5718
無異指南為北	-12.5718
物從因緣故不有	-12.5718
未見其當	-12.5718
騁六通之神驥	-12.5718
如來常依二諦說法	-12.5719
不寒不暑	-12.5719
厭苦求樂	-12.5719
因因而有故名因因	-12.5719
影響既淪	-12.5719
菩薩入無盡三昧	-12.5719
詠及序	-12.5719
尋文求實	-12.5719
逆俗故言淡而無味	-12.5719
幅	-12.5719
物各住位	-12.5719
故不見以見之	-12.5719
世稱無知者	-12.5719
無是乃所以為真是	-12.5719
已住未住住時	-12.5719
跛	-12.5719
報獨生	-12.572
鍾	-12.572
怕爾無兆	-12.572
夫聖人真心獨朗	-12.572
寂怕無兆	-12.572
忻躍	-12.572
神遍覺	-12.572
阿毗曇人言	-12.572
抄	-12.572
憂悲苦惱	-12.572
想開究之功	-12.572
便違經說	-12.572
涉求則損益交陳	-12.572
管	-12.572
諸佛世尊之所說	-12.572
此直好無之談	-12.572
幽旨淪而更顯	-12.5721
憰	-12.5721
偽因著生	-12.5721
既無往返之微朕	-12.5721
橫論顯發	-12.5721
鴿	-12.5721
般若即能知也	-12.5721
何必非有無此有	-12.5721
聖心非不能是	-12.5721
快盡其中方寸	-12.5722
造詣也	-12.5722
萬動可即而靜	-12.5722
豈待緣而後有哉	-12.5722
不亦遠乎	-12.5722
腸	-12.5722
非自非他	-12.5723
夫有若真有	-12.5723
夫智之生也	-12.5723
誠以無是可是	-12.5723
不待泯三	-12.5723
雖靜而不離動	-12.5723
然則動靜未始異	-12.5723
且夫心之有也	-12.5723
然亦不捨於有無	-12.5723
覩變則異乎無相	-12.5723
非無無彼無	-12.5723
壇	-12.5724
如楞伽經偈	-12.5724
奉詔譯	-12.5724
誠以般若無有有相之知	-12.5724
肅肅	-12.5724
負債人	-12.5724
五臺大萬聖	-12.5724
不來亦不去	-12.5724
請試陳	-12.5724
明二諦俱無生	-12.5725
斯可謂不自有其知	-12.5725
此攀緣之外	-12.5725
禽獸	-12.5725
心數既玄而孤運其照	-12.5725
若真若俗	-12.5725
刀不自割	-12.5725
攝末歸本	-12.5725
物不遷正量論	-12.5725
不內不外	-12.5725
真諦空故不	-12.5726
未釋不取之理	-12.5726
能覺所覺	-12.5726
豈曰有無之外別有一有而可稱哉	-12.5726
廣破邪涅槃	-12.5727
如外地等	-12.5727
牘	-12.5727
破過去世四見	-12.5727
理無幽顯	-12.5728
教異意同	-12.5729
從眾因緣生	-12.573
登高座	-12.573
若覩初制	-12.5731
談者似謂無相與變	-12.5731
必待眾因	-12.5731
於如來是第一義諦	-12.5732
照於事外	-12.5732
4	-12.5733
波若定實相	-12.5733
燃有重成	-12.5733
▁1564	-12.5734
囉	-12.5734
若謂是生生	-12.5735
時問中事	-12.5735
有瓶必現見	-12.5735
學因緣成自性	-12.5736
更有所從	-12.5737
屈申與指	-12.5738
2	-12.574
地中脩	-12.5741
緣未合時	-12.5741
二示正義	-12.5742
蟻	-12.5742
汝謂我著空	-12.5745
故居士經	-12.5755
從眾緣出	-12.5757
二脩觀行	-12.5775
因三悟不三	-12.5777
擯	-12.578
初七偈	-12.5814
而一於三	-12.5831
地入分	-12.5852
標釋結	-12.5853
昔因不滅	-12.5937
脫珍御服	-12.6075
閒	-12.6265
太玄之鄉	-12.6883
菩	-12.7768
如旋火輪	-12.7783
無量阿僧祇	-12.7796
覆尋聖言	-12.7925
三阿僧祇	-12.7928
深識第一義故說世諦	-12.7954
悲泣墮淚	-12.8108
譬如僧佉論文句	-12.8123
傚	-12.8132
先求後證	-12.8139
即布之縷	-12.8139
熹	-12.814
􂲙	-12.814
賣	-12.8141
汲	-12.8141
庵	-12.8142
佛悉遍知	-12.8143
略解摩訶衍義	-12.8145
明鏡之像	-12.8145
食中之鹹	-12.8148
色心等八法是	-12.8151
而不在有無者也	-12.8152
决	-12.8154
孽	-12.8157
以因徵果	-12.8157
廼	-12.8157
有懷遙佇	-12.8158
拍	-12.8158
蒲席一體	-12.8158
弟子沈痾	-12.8159
儻	-12.8159
是橫感通	-12.8159
直趣佛道	-12.8159
上座弟子部	-12.8159
八健度	-12.8159
不同人之所見得也	-12.8159
僭	-12.8161
二諦為表不二	-12.8161
湛氣若茲之勤	-12.8161
色異味等	-12.8162
致慨良深	-12.8163
莊子內篇	-12.8164
遺民和南	-12.8164
諸三摩地陀羅尼門	-12.8164
庂	-12.8164
毘伽羅論	-12.8165
犁	-12.8165
不意方袍復有平	-12.8165
吾解不謝	-12.8166
遐邇仰詠	-12.8167
煎	-12.8168
吾終身與汝交一臂	-12.8168
尉	-12.8168
拱	-12.8169
末田地	-12.8169
言真未甞有	-12.8169
公以過順之年	-12.8169
有感不感	-12.8169
郢	-12.817
函	-12.817
筭	-12.817
騎	-12.817
破二世八見	-12.817
若以所知美般若	-12.817
阿惟越致	-12.817
非但色為瓶	-12.817
因慧明道人北遊	-12.8171
殖	-12.8172
甜	-12.8172
訊	-12.8172
婉而有歸	-12.8172
披味殷勤	-12.8172
雍	-12.8172
應亦微圓	-12.8172
濃	-12.8172
牒救總非	-12.8172
先問後答	-12.8172
劒	-12.8172
癡妄而見有生滅	-12.8173
級	-12.8173
無由寫敬	-12.8173
如盲跛	-12.8173
常以聽習為先	-12.8173
弋	-12.8173
通因及果	-12.8173
旨中沈	-12.8174
孰以過順之年	-12.8174
寂兮寥兮	-12.8174
開凡聖得失二諦	-12.8174
矩	-12.8175
懸庇霄岸	-12.8175
每亦翹想一隅	-12.8175
言像莫測	-12.8175
雉	-12.8175
故知雖今現有	-12.8175
以他觀者非見佛	-12.8176
䇿	-12.8176
前舟之魚	-12.8176
斲	-12.8176
豈曰明昧動靜之異哉	-12.8177
縠	-12.8177
湛氣彌厲	-12.8178
在聖不殊也	-12.8178
是以真智觀真諦	-12.8178
不辨緇素之異	-12.8178
肇聞天得一以清	-12.8178
淺智見諸法若有若無相	-12.8179
鎌	-12.8179
從塵生大	-12.8179
亦內亦外	-12.8179
牝	-12.8179
禦	-12.8179
喪我於二際	-12.8179
征	-12.8179
借人破法	-12.8179
捨一取一	-12.8179
而其神常	-12.8179
所依於諦是本	-12.8179
歷觀經史	-12.818
鵠	-12.818
嵆	-12.818
為學者日益	-12.818
一立二破三救四	-12.818
尋殊應之迹	-12.818
常有弊瘵	-12.818
潛龍勿用	-12.818
照理照事	-12.818
中伏假斷	-12.818
答旨慇懃	-12.818
助佛揚化	-12.818
有之者乖其性	-12.818
無之者傷其軀	-12.818
捨無常色獲得常	-12.818
初發心時便成正覺	-12.818
得即是有得之真名	-12.818
阿摩羅識	-12.818
掘	-12.818
放大光明	-12.818
非無知故不取	-12.818
拾	-12.818
鏡萬有於方寸	-12.8181
暮	-12.8181
如夢亦如幻	-12.8181
藏冥運於	-12.8181
非天非人	-12.8181
賈	-12.8181
亘	-12.8181
未之足拾	-12.8181
道之出口淡乎	-12.8182
開善門徒	-12.8182
同氣相求	-12.8182
班諸子姪	-12.8182
窮才極慮	-12.8182
承遠法師之勝常	-12.8182
阬	-12.8182
五塵生五大	-12.8182
從時中發	-12.8182
受逼迫苦	-12.8182
單家之中道	-12.8182
汝今何故更復造論	-12.8182
筏	-12.8182
後秦長安釋僧肇作	-12.8182
仰謝逾	-12.8182
荅	-12.8182
般若當於何求	-12.8182
力者負之而趨	-12.8182
怕爾無朕	-12.8182
十二門觀之精詣	-12.8182
若知然後不取	-12.8182
一真不二之極理	-12.8182
迎之罔眺其首	-12.8182
奘	-12.8183
不以辭害	-12.8183
十八不共等	-12.8183
有物流動人之常情	-12.8183
因前果後	-12.8183
一說一不說	-12.8183
實生實滅	-12.8183
故物不能累其神明者也	-12.8183
答曰下第四破救	-12.8183
知則異於不取矣	-12.8183
破空等四句是	-12.8183
知公者希	-12.8183
此實巨蠱之言	-12.8184
已見未見見時	-12.8184
言亡慮絕	-12.8184
有心則眾庶是也	-12.8184
沃	-12.8184
去年夏末	-12.8184
乃曰真是可是	-12.8184
巴	-12.8184
彌天釋道安	-12.8184
歒	-12.8184
涅槃船入生死	-12.8184
今昔之物各不相	-12.8184
廉	-12.8184
非指喻指之非指	-12.8184
又不可以無患既一	-12.8184
然則鳥即無患	-12.8184
而一於眾鳥	-12.8184
從佛聞法	-12.8184
穹	-12.8184
聲色所不能制者	-12.8184
一無故無多	-12.8184
但真諦非所知	-12.8184
則名相以形	-12.8185
曷	-12.8185
二死永亡	-12.8185
庫	-12.8185
隘	-12.8185
始見生上人示	-12.8186
繇	-12.8186
何足以然耳	-12.8186
領其大要	-12.8186
見始不見終	-12.8186
是以知不廢寂	-12.8186
無患豈異	-12.8186
異自鳥耳	-12.8186
繡	-12.8186
是以至人通神心於無窮	-12.8186
誦諸明論	-12.8186
快有悟心之歡也	-12.8186
然居動用之域	-12.8186
爰傳茲土	-12.8186
則不可於有無得之矣	-12.8186
離有無求之矣	-12.8186
謨	-12.8186
此智何由知	-12.8186
漢楚元王	-12.8187
隨聲取義	-12.8187
欲以智勞至人	-12.8187
諸佛所不化	-12.8187
以指喻指之非指	-12.8187
淨名杜口於毘耶	-12.8187
俱越妄想之樊	-12.8187
動若行雲	-12.8187
同適無為之境	-12.8187
愜	-12.8187
六家偏而	-12.8187
豈可止於妄想	-12.8187
滔	-12.8187
即此大眾尋常	-12.8188
而覩茲上軌	-12.8188
能拔玄根於未始	-12.8188
儻然靡據	-12.8188
故得在於無得也	-12.8188
姑	-12.8188
如燈能自照亦能照	-12.8188
江河競注	-12.8188
須菩提唱無說以顯道	-12.8188
亦以智力不同故也	-12.8188
德洽千載之下	-12.8188
故絕智以淪虗	-12.8188
毗婆舍那	-12.8188
眺	-12.8188
而恨不得與斯人同時也	-12.8188
見如須彌山	-12.8188
道種終心	-12.8188
猿猴鹿馬	-12.8188
踟蹰於動靜之間哉	-12.8188
其所開拓者	-12.8189
天網恢恢	-12.8189
養徒幽巖	-12.8189
餐	-12.8189
又無通鑒	-12.8189
歡足方寸	-12.8189
鬘	-12.8189
暫出還沒	-12.819
莊老所資	-12.819
見他食果	-12.819
且止傍論應	-12.819
憒	-12.819
離名絕相	-12.819
性出自古	-12.819
紋	-12.819
兵七萬	-12.819
妙契於希夷之境	-12.819
定無則著斷	-12.819
散花品	-12.819
漿	-12.819
如來應正等覺	-12.819
當習行般若波羅蜜	-12.819
脛	-12.819
返一絕跡	-12.819
忒	-12.819
量太虛而永久	-12.819
卿	-12.819
慧明道人至	-12.819
於深佛法不知真實	-12.819
諦知已應	-12.819
則唯色非空	-12.819
百非洞遣	-12.8191
彌勒得滅度	-12.8191
蕩滌萬有	-12.8191
佇悅之勤	-12.8191
多觸言以賓	-12.8191
時乃集義學沙門五百餘人於逍遙觀	-12.8191
莫先於有	-12.8191
厥名提婆	-12.8191
得方等新經二百餘部	-12.8191
能動能出	-12.8191
靈鷲之風萃	-12.8191
大經第二十	-12.8191
潮	-12.8191
玄心默照	-12.8191
双	-12.8191
反常合道	-12.8191
揭	-12.8191
無為便無為哉	-12.8191
琴	-12.8191
先聖之所軌轍	-12.8191
吾今此身即是常身	-12.8191
廕	-12.8191
或當不必理盡同	-12.8191
是時妄想都盡	-12.8191
自利他利共利	-12.8191
言寂即異而同	-12.8191
庖丁解牛	-12.8191
橫通諸論	-12.8191
江山雖緬	-12.8191
若存若往	-12.8191
釋迦遺法之所仗也	-12.8191
若非色於非色	-12.8192
形也盡於方圓	-12.8192
有始必有終	-12.8192
法偽者同偽	-12.8192
篤患之尤	-12.8192
如諸法自性不在於緣中	-12.8192
得去年十二月疏	-12.8192
披尋返覆	-12.8192
坤	-12.8192
裹	-12.8192
天機邁俗	-12.8193
殆亂正	-12.8193
殊途而同歸	-12.8193
若以非色於色	-12.8193
廟	-12.8193
証	-12.8193
十二門論疏卷上	-12.8193
然服膺高軌	-12.8193
色即為非色	-12.8193
泥曰泥洹涅槃	-12.8193
傷於玄旨者也	-12.8193
此三名前後異出	-12.8193
無乃乖乎神極	-12.8193
誰獨非涅槃	-12.8193
隨順眾生故說有二	-12.8193
從麁至細	-12.8193
稱聖心冥寂	-12.8193
三點四德	-12.8193
不言有與無亦不言有無非有及非無	-12.8193
信季俗蒼生之所天	-12.8193
從未來來現在	-12.8193
頃常如何	-12.8193
圖度絕矣	-12.8193
佯	-12.8193
寄之狂言耳	-12.8193
真諦俗諦謂有異耶	-12.8193
聖人患於有身	-12.8193
而形於無形者哉	-12.8193
而萬物無非我	-12.8193
崇茲一道	-12.8194
無名之德興	-12.8194
余謂此說周圓	-12.8194
克	-12.8194
荒	-12.8194
睺	-12.8194
現見無非瓶無	-12.8194
不隨佗信	-12.8194
譬猶燈滅	-12.8194
一牒二定三	-12.8194
庚	-12.8194
鑽	-12.8194
件	-12.8194
溝	-12.8194
然必先有眾生	-12.8194
造梵志青目釋姚秦三藏鳩摩羅什譯	-12.8194
又不可以無為既一	-12.8194
因中先無果而果生	-12.8194
寘	-12.8194
是以須菩提終日說般若	-12.8194
小生從大生生	-12.8194
緣無法為境	-12.8194
真但名說	-12.8194
求言所不能言	-12.8195
生生法應生本生	-12.8195
但心有大小為差耳	-12.8195
蕭焉無寄	-12.8195
謂假立賓主	-12.8195
溫伯雪子	-12.8195
絕四句離百非	-12.8195
怛	-12.8195
墓	-12.8195
惑之言本異耳	-12.8195
非不生非不滅	-12.8195
唯斯擬聖默之所祖	-12.8195
脈	-12.8195
至於企懷風味	-12.8195
才運清俊	-12.8195
而求聖心之異乎	-12.8195
誠以聖心不物	-12.8195
長待不長	-12.8195
十八及本二	-12.8195
形患大聖	-12.8195
時人有信其所說	-12.8195
然後無異哉	-12.8195
去尺無尺	-12.8195
如風輪等	-12.8195
無一法可當情	-12.8195
萬機頓赴而不撓其神	-12.8195
高致悠然	-12.8195
揩	-12.8195
拯拔高士	-12.8196
即與遠法師詳省之	-12.8196
蓋是涅槃之外稱	-12.8196
此則聖所不能異	-12.8196
而人以此為此	-12.8196
說二諦有大利益	-12.8196
頃兼以班諸有懷	-12.8196
求古於今	-12.8197
借法破人	-12.8197
彼何然哉	-12.8197
論旨所以不明也	-12.8197
力有力不異	-12.8197
涉有未始迷	-12.8197
狎	-12.8197
艸	-12.8197
引成具經	-12.8197
彼亦以此為彼	-12.8197
言忘慮絕	-12.8197
是人則有咎	-12.8197
林下之雅詠	-12.8197
粒	-12.8197
職	-12.8197
脛雖短	-12.8197
自性空自相空	-12.8197
謂至人教緣都訖	-12.8197
然則物不異我	-12.8197
禪隱之餘	-12.8197
考之玄籍	-12.8197
吾聞佛道	-12.8197
方圓有所不寫	-12.8197
乳不生酪	-12.8197
故常處有而不染	-12.8197
緣稱於教	-12.8197
乃所以為真是	-12.8198
拄	-12.8198
從佛出十二部經	-12.8198
暴	-12.8198
鳩	-12.8198
人從東至西	-12.8198
喧	-12.8198
結習內除	-12.8198
成壞共無成	-12.8198
教稱於緣	-12.8198
正使智猶身子	-12.8198
獵	-12.8198
疵	-12.8198
眼耳等諸根苦樂等諸法	-12.8198
道無不洽	-12.8198
不疾而速	-12.8198
如人斬木	-12.8198
屢有擊其節者	-12.8198
有寄不寄	-12.8198
涅槃寂靜微妙	-12.8198
瞬	-12.8198
趁	-12.8198
鶴脛雖長	-12.8198
邇	-12.8198
物我玄會	-12.8199
豈是處中莫二之道乎	-12.8199
動而乖靜	-12.8199
日用而不動	-12.8199
輻	-12.8199
故借出以祛	-12.8199
故能默耀韜光	-12.8199
立強名之文	-12.8199
非染非淨	-12.8199
而徵文者聞不遷	-12.8199
埵	-12.8199
璿	-12.8199
息心達本	-12.8199
如來所有性即是世間性	-12.82
但恐有是於無是	-12.82
我者即是如來藏	-12.82
沾	-12.82
物物緣生無性而	-12.82
造有不異無	-12.82
願復重喻	-12.82
椎	-12.82
至當而非當	-12.82
豈有真是而非是	-12.82
素之殊者也	-12.82
出世人知者名第一義諦	-12.82
實法滅故不常	-12.82
淨源法師	-12.82
而無不知者矣	-12.82
錐	-12.82
從有無得耶	-12.82
若非緣生即非有性	-12.82
路伽耶陀	-12.82
須實故權	-12.82
然聖旨淵玄	-12.82
園林託指馬之況	-12.82
參定方等	-12.82
是以辨同者同於異	-12.82
國財身命	-12.82
并得遠法師	-12.82
舛	-12.82
明末則言言備通眾教	-12.8201
標本則句句深達佛心	-12.8201
雖以性空擬本	-12.8201
夫道恍惚窈冥	-12.8201
有以相期於文外耳	-12.8201
尋夫不有不無者	-12.8201
誰與道遊	-12.8201
不生死不涅槃	-12.8201
開通無滯	-12.8201
分別說諸法五眾	-12.8201
因緣與非因緣同	-12.8201
無為即乘也	-12.8201
聊以狂言	-12.8201
俱未免於有	-12.8201
則無為岸也	-12.8201
心數既玄	-12.8201
絕稱之幽宅	-12.8201
豈復真偽殊心	-12.8202
不若有心之有	-12.8202
余以短乏	-12.8202
奏玄響於無聞者哉	-12.8202
豈所謂朗大明於冥室	-12.8202
外雖實而無相	-12.8202
聞大乘法中說畢竟空	-12.8202
君與法師當數有文集	-12.8202
是以智彌昧	-12.8202
是以論稱出有無者	-12.8202
不以物為有物	-12.8202
伏承指授	-12.8202
所知既生知	-12.8202
此辨智照之用	-12.8202
乳應即是酪	-12.8202
故我稽首禮	-12.8202
僅	-12.8202
因二悟不二	-12.8202
自淺至深	-12.8202
亦有果亦無果	-12.8202
夫無當而物無不當	-12.8202
既悟彼此之非有	-12.8202
沸	-12.8202
內雖照而無知	-12.8202
君閑詳	-12.8202
暉	-12.8202
試可取看	-12.8202
是以如來功流萬世而常存	-12.8202
論所為經能	-12.8202
論能為經所	-12.8202
駢	-12.8202
生於所知矣	-12.8202
憤	-12.8203
神光照於外	-12.8203
非俗非不俗	-12.8203
不可說示於人	-12.8203
今物住今不往於昔	-12.8203
出新至諸經	-12.8203
則超六境之外	-12.8203
高韻絕唱於形名之外	-12.8203
彌綸靡所不在	-12.8203
破因易得	-12.8203
條牒如左	-12.8203
靡執靡拘	-12.8203
諸尊宿	-12.8204
吸	-12.8204
善迹迹者	-12.8204
尋迹所不能迹	-12.8204
同於失者失亦失之	-12.8204
損之又損	-12.8204
但當色即色	-12.8204
不可稱羣數	-12.8204
曇摩耶舍	-12.8204
涅槃既絕圖度之域	-12.8204
峰	-12.8204
為學日益	-12.8204
自可忘言內得	-12.8204
通神心於無窮	-12.8204
四大成五根	-12.8204
德行有厚薄	-12.8204
止圓而圓	-12.8204
窻	-12.8204
如是常應燃	-12.8204
每因行李	-12.8204
知緣相因而生	-12.8204
雖尋經文不能通了	-12.8204
在於無滅者也	-12.8204
原夫能天能人者	-12.8204
是以般若之與真諦	-12.8204
殊非領會之唱	-12.8204
苟非絕言象之表者	-12.8204
半去半	-12.8204
寂不廢知	-12.8204
從法不生法	-12.8204
曲辨涅槃無名之體	-12.8204
知有無者誰	-12.8204
故雖異而不異	-12.8204
法藏淵曠	-12.8204
豈以諦二而二於物哉	-12.8204
杯	-12.8205
故能振彼玄風	-12.8205
所以同於得者得亦得之	-12.8205
汝等當學	-12.8205
但如來結習都盡	-12.8205
破遠不破近	-12.8205
又滯而不通	-12.8205
一切世諦若於如來即	-12.8205
然非言無以傳	-12.8205
蚊	-12.8205
但除其病而不除	-12.8205
動而靜似去而留	-12.8205
夫智以知所知	-12.8205
幾乎實矣	-12.8205
持牛戒	-12.8205
好尚則取捨情現	-12.8206
此文乖致殊	-12.8206
駿	-12.8206
而玄道獨存	-12.8206
生上人頃在此	-12.8206
競注而不流	-12.8206
彼莫定乎一名	-12.8206
有理存焉	-12.8206
三百五十年	-12.8206
參承之暇	-12.8206
所以俱之彼岸	-12.8206
理內感理內	-12.8206
四微成四大	-12.8206
復何足以人情之所異	-12.8206
阿黎邪識	-12.8206
𦘕	-12.8206
信真諦之談也	-12.8206
功成非我	-12.8206
常相稱詠	-12.8206
結是重惑	-12.8206
則信若四時之質	-12.8207
未曾有一法不從因緣生	-12.8207
思益演不知之知	-12.8207
答以緣求智之章	-12.8207
擬夫神道者乎	-12.8207
未詳般若之內	-12.8207
無相後相來相	-12.8207
至於言話之際	-12.8207
廓然無聖	-12.8208
梯	-12.8208
無乃乖於聖心	-12.8208
生住壞次第有	-12.8208
諸賢聖真知諸法性空	-12.8208
殻	-12.8208
漁	-12.8208
然則四象風馳	-12.8208
豈待色色而後為色哉	-12.8208
便有成有得	-12.8208
境空心寂	-12.8208
成具美不為之為	-12.8208
貧道時預聽次	-12.8208
交臂之頃	-12.8208
四依菩薩出世	-12.8208
大通智勝佛	-12.8208
我欲正論三藏中實義	-12.8208
是妙見所攝受	-12.8208
牖	-12.8208
衲	-12.8208
鬧	-12.8208
非群情之所盡	-12.8208
我稽首禮佛	-12.8209
賢劫經	-12.8209
故非言所能言也	-12.8209
斯則無名之法	-12.8209
殊文同辯	-12.8209
超然與群有永分	-12.8209
不縛亦不解	-12.8209
同止數年	-12.8209
有下必有高矣	-12.8209
非眾生無以御	-12.8209
屈於好異	-12.8209
痢	-12.8209
瓔珞經佛母品	-12.8209
因世諦悟第一義	-12.8209
懇	-12.8209
燃正法炬	-12.8209
同鑒四諦之的	-12.8209
播	-12.8209
果無故因無	-12.8209
俗待不俗	-12.8209
尼犍子	-12.8209
是以賢劫稱無捨之檀	-12.8209
依宗釋頌	-12.8209
則物不相往來明矣	-12.8209
因燈有明	-12.8209
有無之外別有妙道	-12.8209
矦	-12.8209
萬物從自在天生	-12.8209
門徒數百	-12.8209
閉智塞	-12.8209
借世諦名詺真	-12.8209
鵄	-12.821
肉眼所見不可信	-12.821
尋玄機於事外	-12.821
非不生非不滅為真諦中道	-12.821
夫神道不形	-12.821
弼	-12.821
寅	-12.8211
哀嘆品	-12.8211
初牒名述相	-12.8211
大包天地	-12.8211
自非道參文殊	-12.8211
乘運撫化	-12.8211
貧女寶藏	-12.8211
誦衛世師經	-12.8211
一切實一切不實	-12.8211
以為永慨	-12.8211
分知不名知	-12.8211
夫不存無以觀法者	-12.8211
折法明空	-12.8211
滄	-12.8211
不得第一義則不得涅槃	-12.8211
今試為子狂言辨之	-12.8211
帙	-12.8211
從修多羅出方等	-12.8211
恒共相應	-12.8211
是非之所以生	-12.8211
果前因後	-12.8211
而曰無知無會者	-12.8211
菩提從有得耶	-12.8211
非一切身合	-12.8211
龍樹菩薩為是等故	-12.8211
良是出處之異號	-12.8211
若二都無得	-12.8211
對計常者	-12.8212
阿耨達經	-12.8212
涅槃是無煩惱因	-12.8212
不晦不明	-12.8212
夫聖人功高二儀	-12.8212
未盡無為故有三耳	-12.8212
若燃異可燃	-12.8212
如寶積經	-12.8212
宍	-12.8212
尋理即其然矣	-12.8212
或捨自意	-12.8212
效	-12.8212
有人不受不生不滅	-12.8212
末世眾生薄福鈍根	-12.8212
迦羅鳩馱	-12.8212
是以即名求物	-12.8212
詶來旨	-12.8213
豈天人之所能哉	-12.8213
齎	-12.8213
不得與清勝君子同斯法集耳	-12.8213
雖無是可是	-12.8213
外反動為權	-12.8213
夫無當則物無不當	-12.8213
若來若去	-12.8213
問此是誰義	-12.8213
即生此念時	-12.8213
法輪再轉	-12.8213
失於文旨者乎	-12.8213
懸搆嘖	-12.8213
躇	-12.8213
布施是止慳	-12.8213
所以有此門來者凡有	-12.8213
無所間然矣	-12.8213
苟萬動而非化	-12.8213
若無知得於聖心	-12.8213
如是勤脩	-12.8213
無勝無負	-12.8213
真諦無相故般若無知	-12.8213
故末啟重玄	-12.8214
怏怏此旨	-12.8214
徒自疲	-12.8214
功流萬世	-12.8214
標其方域	-12.8214
誰復得涅槃耶	-12.8214
鼠婁栗	-12.8214
故當是於無是矣	-12.8214
象非我出	-12.8214
靜躁殊用	-12.8214
互興諍論	-12.8215
綜	-12.8215
中渡無異	-12.8215
初汎敘難端	-12.8215
得君念佛三昧詠	-12.8215
無幽不察而無照功	-12.8215
眼耳等諸根受等心所法	-12.8215
積德彌廣	-12.8215
然則玄道在於絕域	-12.8215
短中有長	-12.8215
聖所不能同用也	-12.8215
論正破於內	-12.8215
餘復何恨	-12.8215
以多從少	-12.8215
建立眾生於實際	-12.8215
本乎無寄	-12.8215
潛微幽隱	-12.8215
遮其後救	-12.8215
隱而彌彰	-12.8215
餘五同虛空	-12.8215
不為而自為矣	-12.8215
杭	-12.8215
謂如來大覺始興	-12.8215
夫所知非所知	-12.8215
炙	-12.8215
然則都無得耶	-12.8215
對之弗知其所以來	-12.8216
慧達率愚	-12.8216
隨俗語故無過	-12.8216
一日遇蒙答安城	-12.8216
不生不滅乃至無來無去	-12.8216
遘	-12.8216
功業不可朽	-12.8216
本生除自體	-12.8216
此作興寄既高	-12.8216
一切諸法無有與者	-12.8216
即言定旨	-12.8216
本生能生生生	-12.8216
以曉迷夫	-12.8216
化火焚	-12.8216
明理智不二顯證一	-12.8216
羂	-12.8216
菜	-12.8216
雁	-12.8216
亦所未喻	-12.8216
以仰述陛下無名之致	-12.8216
共答二眼	-12.8216
出幽入冥	-12.8216
前略後廣	-12.8216
故頃爾談論	-12.8216
果有可名之物	-12.8216
燃時名可燃	-12.8216
窮究遠當	-12.8216
厥號本無	-12.8217
然則空色兩陳	-12.8217
以知物不遷明矣	-12.8217
是謂轉無所轉	-12.8217
俱不免於患矣	-12.8217
冥機潛運	-12.8217
未暫可得	-12.8217
厄	-12.8218
然後為真諦者乎	-12.8218
中途還南	-12.8218
夫真諦深玄	-12.8218
孰能宣揚玄道	-12.8218
從是有邊復應更生	-12.8218
為力不同故也	-12.8218
玄得第十九	-12.8218
䆳	-12.8218
三箭中的	-12.8218
就三論中自	-12.8218
未始暫廢	-12.8218
能不形證	-12.8218
謂論申於經	-12.8218
隨諸眾生力	-12.8218
足以盡過半之思	-12.8218
光非明非闇	-12.8218
斯蓋是鏡像之所歸	-12.8218
捨有而之無	-12.8218
是以名不當實	-12.8218
盡見諸法而無所見	-12.8218
宜先定聖心	-12.8219
下士撫掌而弗顧	-12.8219
不亦邈哉	-12.8219
喻學徒耳	-12.8219
濡	-12.8219
以前例後	-12.8219
教諦亦有真俗	-12.8219
聊寄一序	-12.8219
權慧具矣	-12.822
初牒論敘難	-12.822
影響之所攀緣也	-12.822
弗于逮	-12.822
異是不異異	-12.822
當言至人終日應會	-12.822
傳梵大師賜紫沙門臣法護	-12.822
夫陳有無者	-12.822
達者無違諍	-12.822
驟	-12.822
聊復厝言以擬之	-12.8221
不捨故妙存即真	-12.8221
天魔外道	-12.8221
幸遭高判	-12.8221
聖神之所會	-12.8221
斯則名教之所通	-12.8221
雖不取於有無	-12.8221
育	-12.8222
忘言會旨	-12.8222
離於去者去法不可得	-12.8222
請俟來哲	-12.8222
大業四年	-12.8222
諸法實相者心行言語斷	-12.8222
態	-12.8222
聖應可無而為	-12.8222
娥	-12.8222
若天與人異	-12.8222
蒭	-12.8222
不勝手舞	-12.8222
每至披尋	-12.8222
然不能杜默	-12.8222
未即於心也	-12.8222
恐談者脫謂空有兩心	-12.8222
照無相則失於撫會	-12.8222
若能無心於為是	-12.8222
莫逾真俗	-12.8223
十誦律	-12.8223
㻔	-12.8223
斯則不知而自知	-12.8223
刪	-12.8223
然則聖心有時而生	-12.8223
第五不可說藏	-12.8223
佛陀耶舍	-12.8224
破自生生他	-12.8224
苦熾火	-12.8224
不遷不異於遷	-12.8225
俗是真為義	-12.8225
此即是為見於	-12.8225
觀果由因	-12.8225
闇與燈相違	-12.8225
豈曰文言之能辨哉	-12.8225
而會之一人	-12.8225
過半之思	-12.8226
十二月六日興輪寺學問僧法安為大皇	-12.8226
溫宿國	-12.8226
獨與什公神契	-12.8226
弘始八年	-12.8226
虗空合其德	-12.8226
言生理喪	-12.8226
匱	-12.8226
所以和光塵勞	-12.8226
能諦所非諦	-12.8226
豈直當時之勝軌	-12.8227
今欲聞聲聞法	-12.8227
因世諦得說第一義諦	-12.8227
未生是有亦應不生	-12.8227
頗逢重席	-12.8227
手之舞之	-12.8227
汝今自有過	-12.8227
聞二住二	-12.8227
無教不收	-12.8227
然論者欲一於聖心	-12.8227
不可應者存之	-12.8228
已聞大乘法	-12.8228
扣關之儔	-12.8228
是以可應者應之	-12.8228
而欲以有無詰者	-12.8228
雖形不形	-12.8229
使夫大教卷而復舒	-12.8229
手舞弗暇	-12.8229
欣悟交懷	-12.8229
㦎	-12.8229
嚬	-12.8229
體盡焚燎者哉	-12.8229
祝	-12.823
三車出火宅	-12.823
復何容有名於其間哉	-12.823
因滅變為果	-12.823
臻	-12.823
諸家通第一義諦	-12.823
二牒前正難	-12.823
曼	-12.8231
夫眾生所以久流轉生死者	-12.8231
潛神玄默	-12.8231
無相中相不住	-12.8231
初領前法一	-12.8231
觸非觸異	-12.8231
繭	-12.8232
伏願彼大眾康	-12.8232
求靜於動	-12.8232
怕焉而泰	-12.8233
豈待緣而後無	-12.8233
t	-12.8233
業如負財物	-12.8233
u	-12.8233
方言未融	-12.8233
作論元由	-12.8234
如人乘馬	-12.8234
物不遷論辯解	-12.8235
瓶與有合故瓶名	-12.8236
及見己影	-12.8236
豈直反論而	-12.8236
二稱美人法	-12.8238
形充八極而無患	-12.8238
為是有為為是無為	-12.8238
生者計生相是	-12.8238
作因已而滅	-12.8239
又稱三無為者	-12.8239
初呈疑	-12.8239
壺	-12.824
雖未及譯	-12.824
▁1569	-12.824
一無故多亦無	-12.8241
殊問而報同	-12.8243
難同而答異	-12.8243
自知不隨他	-12.8244
輝	-12.8245
名道種惠	-12.8254
前觀後察	-12.8272
陰我無有解脫	-12.8308
三年三月	-12.8388
他復從他	-12.8437
而求今今亦不往	-12.9203
斯乃希夷之境	-12.9731
眾庶之夷途	-12.981
遮相所雜糅	-13.1372
音寄壅隔	-13.1395
增用抱蘊	-13.1424
衒	-13.1445
憐	-13.1454
復次聲非了出法	-13.1458
藝	-13.146
妓	-13.146
冥若夜遊	-13.1462
蹔出還沒人	-13.1462
部執生死涅槃皆是	-13.1462
菩薩以智慧悲心	-13.1462
熈連河沙	-13.1468
庖丁為文惠君解牛	-13.1468
粮	-13.1468
異布之縷	-13.1468
譬如頭語等	-13.1468
邪辨逼真	-13.1472
說愛是涅槃相	-13.1472
就路還家	-13.1476
自他兩處重暗	-13.1476
革	-13.1476
紘	-13.1477
在什公門下	-13.1477
九無礙九解脫	-13.1479
愛慢無明等	-13.1479
十世隔法	-13.1479
安什二師	-13.1479
十心伏見諦	-13.1479
得異墮非相破	-13.1479
薤	-13.1481
取戒取我語取	-13.1481
墳	-13.1481
廬山社眾	-13.1481
兀	-13.1483
巧心妙手	-13.1483
佛初鹿園	-13.1483
公之所讀者	-13.1483
刑	-13.1485
則有定色而更生	-13.1485
芒	-13.1485
幻術所作象馬等事	-13.1485
漚和俱舍羅	-13.1485
乾闥婆城	-13.1487
八九十三地	-13.1487
欝頭藍弗	-13.1487
陽春雪曲	-13.1487
唾	-13.1489
不可留至於今	-13.1491
昌	-13.1491
陣	-13.1491
晈	-13.1491
此一雙兩句釋	-13.1491
於一去者中不得二去故	-13.1491
果所侵逼	-13.1491
矌	-13.1492
乃蒙流光之餘	-13.1492
險陂之邊情	-13.1492
詫	-13.1493
斐	-13.1493
哂	-13.1493
竪通而橫別	-13.1493
成阿惟三佛	-13.1493
料	-13.1494
無不翫味斯論	-13.1494
廣述師宗	-13.1495
以論為稱者	-13.1496
得移靈鷲以作鎮	-13.1496
善是清昇	-13.1497
亦不從餘處來	-13.1497
昊	-13.1497
航	-13.1497
就二諦論單複	-13.1497
豈虛搆哉	-13.1497
五方便與三十心	-13.1497
筠	-13.1497
初吉故餘亦吉	-13.1497
初地巳去至七地中	-13.1497
常所迷昧者矣	-13.1497
材	-13.1497
若離壞共壞	-13.1498
天尊地卑	-13.1499
蔑	-13.1499
靖	-13.1499
夫般若虛玄	-13.1499
鑿荒途	-13.1499
阿輸伽王	-13.1499
膜	-13.15
拇	-13.15
依第一義諦說第一義悉檀	-13.1501
枷	-13.1501
去者所去處	-13.1501
貪欲瞋恚愚癡	-13.1501
但肇才識闇短	-13.1501
莊子外篇田子方章	-13.1501
拈	-13.1501
菩薩有我相人相眾生相	-13.1502
􂮪	-13.1502
𥦡	-13.1502
叶	-13.1502
秦王道性自然	-13.1502
橫通而竪別	-13.1502
見滅見安穩法	-13.1502
俄	-13.1502
微言於聽表	-13.1502
井穴門向	-13.1503
多明人空少	-13.1503
未與心和合時空無所有	-13.1503
畎	-13.1503
言六種各有定相	-13.1503
遏	-13.1503
是以聞聖有知謂之有心	-13.1503
弟子既以遂宿心	-13.1503
玄悟之賓	-13.1503
又如梵王問經	-13.1503
獨處玄廓	-13.1504
若令此辨遂通	-13.1504
抑小揚大	-13.1504
佛大人之所乘故	-13.1504
潦	-13.1504
好思歷然可解	-13.1504
又非至人環中之妙術	-13.1504
而刀刃若新發	-13.1504
破其能迷之情	-13.1505
多摩羅跋	-13.1505
防正閑邪	-13.1506
耆年解脫亦如何久	-13.1506
有無之境邊見所存	-13.1506
犧	-13.1506
舉手低頭	-13.1506
佛壽七百阿僧祇	-13.1506
鴻	-13.1506
何而求知哉	-13.1506
廓爾無朕	-13.1506
企佇之勤為日久矣	-13.1506
若見諦所斷而業至相似	-13.1506
霆	-13.1506
說空花為同法喻	-13.1506
除凡夫我相鄣	-13.1506
已燒未燒燒時	-13.1508
乃千載之津梁	-13.1508
膝	-13.1508
秉執規矩以	-13.1508
耆闍崛山	-13.1508
而悟懷絕冥之肆者矣	-13.1508
歇	-13.1508
陶冶塵滓	-13.1508
故能囊括終古	-13.1508
續待二假	-13.1508
札	-13.1508
波若將入畢竟空	-13.1508
齡	-13.1508
三界皆似空華	-13.1508
又諸法性皆非能見	-13.1508
憕	-13.1508
璿璣玉衡	-13.1508
瘦	-13.1508
郢人堊漫其鼻端	-13.1508
齊萬有於一虗	-13.1508
所依不起之因亦	-13.1508
燕	-13.1509
允屬四依菩薩	-13.1509
若能放曠蕩然	-13.1509
果不從緣合不合生	-13.1509
膺	-13.151
考得第十八	-13.151
慙	-13.151
障礙出世無分別慧	-13.151
地菩薩見法有性	-13.151
豆	-13.151
起時及已起未起皆無起	-13.151
如首楞嚴經	-13.151
洗濯不善	-13.151
十力無畏不共	-13.151
綺	-13.151
羗	-13.151
於世人是實名為	-13.151
過去未來見在諸法	-13.151
喫	-13.1511
莫可以形名得	-13.1511
土山焦而不熱	-13.1512
欲之頓盡耶	-13.1512
韓	-13.1512
從牛出乳	-13.1512
裕	-13.1512
亦無緣致淨	-13.1512
妙盡存乎極數	-13.1512
第七從複假入單中	-13.1512
而莫之可異也	-13.1512
聯	-13.1512
樞始得其環中	-13.1512
閴	-13.1512
不干其慮	-13.1512
動若行雲止猶谷神	-13.1512
掩玄象於雲霄	-13.1512
見諦不斷思惟斷	-13.1512
亦是如來隱顯之誠跡也	-13.1512
或有分別或無分別	-13.1512
餘人染污衣	-13.1512
甍	-13.1513
又非知然後不取	-13.1513
嗜	-13.1514
即反名薩	-13.1514
大旱金石流	-13.1514
非陰不離陰	-13.1514
不有不無其神乃	-13.1514
痴	-13.1514
一切趣不趣	-13.1514
真可謂浴心方等之淵	-13.1514
㵎	-13.1514
五目不覩其容	-13.1514
天文之器	-13.1514
泥洹法寶入有多門	-13.1514
如稻麥種	-13.1514
斷凡夫我相鄣	-13.1514
吼	-13.1516
潢	-13.1516
杜順和尚	-13.1516
佞	-13.1516
因世諦故得見第一義	-13.1516
依智不依識	-13.1516
得得之屬於行	-13.1516
脊	-13.1516
若無十方分則不名為色	-13.1516
何能契神於有無之間哉	-13.1516
窪	-13.1516
自非聖明特達	-13.1516
金堅之金	-13.1516
愓	-13.1516
現比等量	-13.1516
一切眾導師	-13.1517
斷邪見故說是經	-13.1518
念之波住於	-13.1518
莾	-13.1518
五盛陰苦	-13.1518
怒	-13.1518
唇	-13.1518
懿	-13.1518
豈容可責之於有無之內	-13.1518
豈曰聖心而可辨哉	-13.1518
化城喻品	-13.1518
故日用不懃	-13.1518
世間眼見劫初穀不	-13.1518
將絕朕於九止	-13.1518
堪受深法	-13.1518
裴	-13.1518
上半牒而標過	-13.1518
勑	-13.1518
如火以熱為	-13.1518
拔玄根於虗	-13.1518
為知然後不取耶	-13.1518
盞	-13.1518
𠲖	-13.1518
三乘等觀性空而得道	-13.1519
大聖說空法為離諸見故	-13.1519
庶悕道之流	-13.1519
若復見有空諸佛所不化	-13.1519
嚼	-13.152
如是慧行名聖	-13.152
精搜義理	-13.152
若即涅槃以興言	-13.152
鵲	-13.152
三輪清淨趣大菩	-13.152
不保命四大	-13.152
斷無量煩惱及習	-13.152
方便將出畢竟空	-13.152
療	-13.152
夜壑負趨	-13.152
相轉正法輪	-13.152
但眾緣和合故有名字	-13.152
俗物即真故不遷	-13.152
信是權寂致教之本意	-13.152
外示反動	-13.152
憲	-13.152
蔓	-13.152
不從此方遷至餘方	-13.152
自古自今著文著筆	-13.152
法者有字無義	-13.1521
顇	-13.1521
鑽仰累年	-13.1521
誰獨非涅槃而欲得之耶	-13.1521
文華而理詣	-13.1521
自作及他作共作無因作	-13.1521
雖復言約而義豐	-13.1521
以是不失法諸業有果報	-13.1521
窂	-13.1522
疣	-13.1522
娛	-13.1522
牟	-13.1523
僣	-13.1524
㲲	-13.1524
糅	-13.1524
激	-13.1526
薰	-13.1526
崑	-13.1526
郎	-13.1526
􂳍	-13.1526
惺	-13.1526
覿	-13.1526
𦒱	-13.1526
旻	-13.1527
磬	-13.1528
梗	-13.1528
棒	-13.1528
填	-13.1528
裨	-13.1528
汁	-13.1528
荀	-13.1528
篾	-13.1528
楗	-13.1528
駭	-13.1529
埋	-13.1529
+	-13.1529
咀	-13.1529
凌	-13.153
漉	-13.153
剝	-13.153
狸	-13.1531
帀	-13.1531
㝹	-13.1531
殞	-13.1532
溟	-13.1533
貢	-13.1533
貯	-13.1533
崙	-13.1533
劍	-13.1533
忉	-13.1533
錘	-13.1533
旃	-13.1534
悕	-13.1534
鎧	-13.1534
糓	-13.1534
踵	-13.1535
俞	-13.1535
濶	-13.1535
鑪	-13.1535
謳	-13.1537
膽	-13.1537
塼	-13.1537
醪	-13.1537
蹶	-13.1537
怡	-13.1537
戎	-13.1537
湻	-13.1537
頺	-13.1537
較	-13.1538
攢	-13.1539
𠄎	-13.1539
澍	-13.1539
槩	-13.1539
償	-13.1539
鼎	-13.154
靳	-13.1541
挾	-13.1541
瀝	-13.1541
鶉	-13.1541
蓬	-13.1541
蠹	-13.1541
辤	-13.1541
迯	-13.1541
鍵	-13.1541
頸	-13.1541
雌	-13.1541
餝	-13.1541
憍	-13.1542
森	-13.1542
輟	-13.1543
儜	-13.1543
㧈	-13.1543
肝	-13.1543
閃	-13.1544
隷	-13.1544
宵	-13.1545
𥪰	-13.1545
臘	-13.1547
喟	-13.1547
曳	-13.1547
寤	-13.1547
濤	-13.1547
買	-13.1547
錢	-13.1547
洒	-13.1547
絞	-13.1547
綖	-13.1547
虐	-13.1549
瓮	-13.1549
洋	-13.1549
姊	-13.1549
跨	-13.1549
媚	-13.1551
迕	-13.1551
綠	-13.1551
榜	-13.1551
癸	-13.1551
哭	-13.1551
暎	-13.1551
櫪	-13.1551
歙	-13.1551
3	-13.1552
擁	-13.1552
寵	-13.1552
蠢	-13.1553
献	-13.1553
稚	-13.1553
昉	-13.1554
孩	-13.1555
板	-13.1555
妍	-13.1555
𩑶	-13.1555
基	-13.1556
伇	-13.1558
舶	-13.1558
駝	-13.1558
貝	-13.156
饗	-13.156
尓	-13.1562
緫	-13.1563
彫	-13.1564
橙	-13.1564
譎	-13.1564
頒	-13.1565
酉	-13.1566
9	-13.1566
n	-13.1566
閏	-13.1567
􂐀	-13.1574
縫	-13.158
酷	-13.1583
閡	-13.1587
萍	-13.1589
莿	-13.1591
荃	-13.1605
癰	-13.6371
后	-13.6428
㓨	-13.6437
翟	-13.6443
募	-13.6447
穩	-13.6448
硬	-13.645
滴	-13.6453
濵	-13.6456
叛	-13.6456
悴	-13.6458
䓗	-13.6459
蔗	-13.6459
展	-13.6463
歿	-13.6465
屑	-13.6465
突	-13.6465
擴	-13.6468
仄	-13.647
恕	-13.6472
槊	-13.6472
柄	-13.6472
夸	-13.6472
枉	-13.6472
楪	-13.6472
弩	-13.6475
舘	-13.6475
㝵	-13.6478
抵	-13.6478
尅	-13.6478
嘻	-13.6478
嶷	-13.6478
箘	-13.6478
蚌	-13.6478
廩	-13.6481
縻	-13.6484
售	-13.6484
囂	-13.6484
捶	-13.6484
佩	-13.6484
煉	-13.6484
凜	-13.6484
沐	-13.6484
荏	-13.6487
搥	-13.6491
喆	-13.6491
概	-13.6491
殼	-13.6491
胝	-13.6491
淫	-13.6494
稜	-13.6494
聳	-13.6494
厶	-13.6494
牲	-13.6494
狼	-13.6494
娵	-13.6497
歆	-13.6497
削	-13.6497
収	-13.6497
薨	-13.6497
屎	-13.6497
甄	-13.6497
筒	-13.6497
燦	-13.65
胃	-13.65
弃	-13.65
吇	-13.65
硎	-13.65
枕	-13.6503
狐	-13.6503
怱	-13.6503
樸	-13.6503
絃	-13.6506
築	-13.6506
䨥	-13.6506
籥	-13.6506
蘄	-13.6506
傅	-13.6509
潭	-13.6509
腋	-13.6509
泄	-13.6509
凍	-13.6509
翊	-13.6509
籟	-13.6513
惕	-13.6513
犇	-13.6513
屏	-13.6513
搏	-13.6513
杼	-13.6513
筞	-13.6513
漚	-13.6514
劃	-13.6516
旌	-13.6516
厈	-13.6516
涕	-13.6516
濯	-13.6516
阜	-13.6516
囱	-13.6516
徂	-13.6516
瀰	-13.6516
樑	-13.6517
蘿	-13.6519
匃	-13.6519
坎	-13.6519
螻	-13.6519
娶	-13.6519
爵	-13.6519
蜀	-13.6522
磅	-13.6522
殂	-13.6522
嘍	-13.6522
姬	-13.6522
岑	-13.6522
莽	-13.6522
〈	-13.6524
芥	-13.6525
坌	-13.6525
殄	-13.6525
掉	-13.6525
〉	-13.6525
䥫	-13.6525
竚	-13.6525
婚	-13.6525
藻	-13.6527
曩	-13.6528
旅	-13.6528
蟾	-13.6528
个	-13.6528
彧	-13.6528
慌	-13.6528
旱	-13.6528
眯	-13.6528
睫	-13.6528
策	-13.6528
璞	-13.6529
繆	-13.653
穗	-13.6531
蘆	-13.6531
桂	-13.6531
洎	-13.6532
婢	-13.6532
疹	-13.6532
蕃	-13.6532
戌	-13.6535
渭	-13.6535
㔁	-13.6535
孜	-13.6535
柵	-13.6535
肘	-13.6535
絡	-13.6537
瘳	-13.6538
囚	-13.6538
杲	-13.6538
恂	-13.6538
搦	-13.6538
廻	-13.6538
橛	-13.6538
碧	-13.6538
况	-13.6538
嫁	-13.6538
忿	-13.6539
悒	-13.6541
淮	-13.6541
惔	-13.6541
簫	-13.6541
坥	-13.6541
矧	-13.6541
棟	-13.6542
戊	-13.6543
㦗	-13.6544
尖	-13.6544
㭊	-13.6544
剏	-13.6544
紅	-13.6544
縈	-13.6544
荼	-13.6544
啄	-13.6547
仆	-13.6547
几	-13.6547
嗸	-13.6547
癩	-13.6547
宙	-13.655
株	-13.655
兇	-13.655
帥	-13.655
湏	-13.655
炊	-13.655
篋	-13.655
敦	-13.6554
苗	-13.6554
溥	-13.6554
皰	-13.6554
莛	-13.6554
汪	-13.6557
牀	-13.6557
翮	-13.6557
圀	-13.656
姙	-13.656
萊	-13.656
撲	-13.656
楹	-13.656
蚤	-13.6561
傖	-13.6563
剩	-13.6563
咲	-13.6563
唏	-13.6563
猫	-13.6563
膾	-13.6565
僮	-13.6566
蔡	-13.6566
S	-13.6566
h	-13.6566
k	-13.6566
y	-13.6566
Ā	-13.6566
Ś	-13.6566
徇	-13.6566
抖	-13.6566
簧	-13.6566
妃	-13.6569
姪	-13.6572
榍	-13.6572
纂	-13.6572
楔	-13.6574
濬	-13.6576
卯	-13.6582
叫	-13.6585
稔	-13.6595
苓	-13.6642
禽	-14.6286
菟	-14.6397
裡	-14.6417
裊	-14.6418
蟭	-14.6419
螟	-14.642
蝶	-14.6421
蚋	-14.6422
捺	-14.6422
蘂	-14.6423
蔭	-14.6424
苡	-14.6425
芣	-14.6426
臍	-14.6427
脂	-14.6428
聶	-14.6429
羆	-14.643
絍	-14.6431
篡	-14.6432
窿	-14.6433
窯	-14.6434
癕	-14.6435
琛	-14.6436
琅	-14.6437
珷	-14.6438
藐	-14.6438
玞	-14.6439
犎	-14.644
牆	-14.6441
爝	-14.6442
灼	-14.6443
灑	-14.6444
濛	-14.6445
泏	-14.6446
毱	-14.6447
欻	-14.6448
廬	-14.6448
樣	-14.6449
槌	-14.645
桃	-14.6451
杻	-14.6452
杵	-14.6453
朧	-14.6454
机	-14.6454
驍	-14.6454
撈	-14.6455
挽	-14.6456
抨	-14.6457
懟	-14.6458
彪	-14.6459
弒	-14.646
廂	-14.6461
嬉	-14.6462
柴	-14.6462
婫	-14.6463
婇	-14.6464
娜	-14.6465
娉	-14.6466
姥	-14.6467
塚	-14.6468
堆	-14.6469
坘	-14.647
怏	-14.647
泐	-14.647
坏	-14.6471
坊	-14.6472
喙	-14.6473
哺	-14.6474
尒	-14.6474
呰	-14.6475
勁	-14.6476
劑	-14.6477
副	-14.6478
偉	-14.6479
俛	-14.648
亞	-14.6481
䤟	-14.6482
-	-14.6483
𦋺	-14.6484
鴦	-14.6485
鴛	-14.6486
溉	-14.6486
蹔	-14.6486
骸	-14.6487
馥	-14.6488
隴	-14.6489
閦	-14.649
躃	-14.6491
踊	-14.6492
裟	-14.6493
袈	-14.6494
鍱	-14.6494
蛾	-14.6495
蚯	-14.6496
蚓	-14.6497
虬	-14.6498
藂	-14.6499
薀	-14.65
芟	-14.6501
腦	-14.6502
嗢	-14.6502
胞	-14.6503
笮	-14.6504
窓	-14.6505
祜	-14.6506
瞍	-14.6507
狄	-14.6508
炤	-14.6509
澗	-14.651
渠	-14.651
猿	-14.651
淤	-14.6511
晞	-14.6512
敝	-14.6513
挑	-14.6514
戍	-14.6515
徃	-14.6515
彗	-14.6516
岐	-14.6517
屐	-14.6518
屆	-14.6518
馱	-14.6518
孑	-14.6519
嬈	-14.652
埏	-14.6521
劬	-14.6522
傴	-14.6523
㗚	-14.6524
㒹	-14.6525
魎	-14.6526
閻	-14.6526
魍	-14.6527
魅	-14.6528
騷	-14.6529
韲	-14.653
郁	-14.6531
眷	-14.6531
這	-14.6532
袍	-14.6533
葬	-14.6534
痕	-14.6534
臼	-14.6535
耐	-14.6536
緯	-14.6537
糟	-14.6538
粕	-14.6539
程	-14.654
琉	-14.6541
涔	-14.6542
瑟	-14.6542
腠	-14.6542
浙	-14.6543
敕	-14.6544
援	-14.6545
彬	-14.6546
沮	-14.6546
劇	-14.6547
儐	-14.6548
串	-14.6549
㨝	-14.655
帷	-14.655
戀	-14.655
脾	-14.655
黠	-14.6551
鶹	-14.6552
頡	-14.6553
詢	-14.6554
街	-14.6555
蠟	-14.6556
莎	-14.6557
膳	-14.6558
耿	-14.6559
瞥	-14.656
獅	-14.6561
湍	-14.6562
旹	-14.6562
沛	-14.6563
幖	-14.6564
巷	-14.6565
兜	-14.6566
瑜	-14.6566
o	-14.6566
傭	-14.6567
鵡	-14.6568
邽	-14.6569
贈	-14.657
諺	-14.6571
衢	-14.6572
萎	-14.6573
緇	-14.6574
躊	-14.6574
蠲	-14.6574
礫	-14.6575
磁	-14.6576
盟	-14.6577
璇	-14.6578
沌	-14.6579
犢	-14.6579
栴	-14.658
揵	-14.6581
彿	-14.6582
彷	-14.6583
奮	-14.6584
嗚	-14.6585
』	-14.6586
醐	-14.6587
醍	-14.6588
選	-14.6589
裸	-14.659
蕉	-14.6591
苾	-14.6592
芭	-14.6593
熈	-14.6594
層	-14.6595
煌	-14.6596
憨	-14.6597
兢	-14.6598
𠡠	-14.6599
湜	-14.66
肖	-14.6601
罣	-14.6602
釐	-14.6603
蹰	-14.6604
襄	-14.6605
罽	-14.6606
瑠	-14.6607
獼	-14.6608
牧	-14.6609
棲	-14.661
匐	-14.6611
髴	-14.6612
髣	-14.6613
驃	-14.6614
顒	-14.6615
迅	-14.6616
崛	-14.6617
叵	-14.6618
㽵	-14.6619
纖	-14.662
彭	-14.6621
慇	-14.6622
寞	-14.6623
叉	-14.6624
餓	-14.6625
醯	-14.6626
臚	-14.6627
娑	-14.6628
圭	-14.6629
鷲	-14.663
陛	-14.6631
穆	-14.6632
饒	-14.6633
闥	-14.6634
桓	-14.6635
紜	-14.6636
韋	-14.6637
耨	-14.6638
珞	-14.6639
N	-14.664
1	-14.6641
楞	-14.6642
>	-14.6643
妬	-14.6644
臾	-14.6644
