<unk>	0
<s>	0
</s>	0
之	-4.20061
而	-4.81549
/	-4.87886
(	-4.99525
以	-5.01711
也	-5.1667
有	-5.27051
)	-5.27169
不	-5.28082
其	-5.29255
為	-5.3141
於	-5.37181
人	-5.44728
者	-5.49944
一	-5.60839
無	-5.60959
自	-5.88446
山	-5.89848
中	-5.95505
天	-5.9756
行	-5.98034
曰	-5.99631
則	-6.00504
上	-6.01231
大	-6.02285
與	-6.03734
如	-6.04721
)(	-6.05792
子	-6.06874
時	-6.08279
公	-6.09892
在	-6.12864
生	-6.12972
作	-6.17902
此	-6.19397
事	-6.20495
日	-6.21963
見	-6.24136
王	-6.24503
得	-6.25655
言	-6.25723
風	-6.25834
水	-6.27046
心	-6.28097
道	-6.28708
文	-6.29067
君	-6.29904
下	-6.30339
長	-6.30966
雲	-6.31994
書	-6.3201
明	-6.33297
所	-6.3569
是	-6.36155
/)	-6.36413
出	-6.36433
來	-6.38082
兮	-6.38845
詩	-6.38945
三	-6.41292
故	-6.4205
春	-6.42995
歸	-6.43656
知	-6.44735
相	-6.45383
至	-6.46522
我	-6.46905
清	-6.50817
亦	-6.51009
然	-6.51227
非	-6.51654
多	-6.51721
欲	-6.51779
成	-6.53042
未	-6.53238
入	-6.53266
同	-6.55278
乎	-6.55546
名	-6.56095
今	-6.57402
已	-6.57572
若	-6.57915
何	-6.58715
花	-6.59194
去	-6.59267
可	-6.59796
臣	-6.62193
將	-6.6269
矣	-6.64003
又	-6.64421
方	-6.64624
逺	-6.66275
復	-6.66829
家	-6.6787
髙	-6.68239
皆	-6.69197
月	-6.7003
石	-6.70392
前	-6.70588
思	-6.7071
當	-6.71565
重	-6.71613
聞	-6.72152
後	-6.72196
深	-6.72224
▁	-6.72343
使	-6.72449
于	-6.72559
金	-6.72627
空	-6.74603
乃	-6.75837
用	-6.76433
官	-6.77128
秋	-6.78319
聲	-6.78558
州	-6.78844
地	-6.79089
玉	-6.79336
盡	-6.79893
國	-6.80023
過	-6.80193
能	-6.80213
正	-6.80344
南	-6.80412
從	-6.82004
寒	-6.82491
居	-6.83754
新	-6.84172
望	-6.84226
世	-6.85073
老	-6.85471
流	-6.85552
意	-6.86109
西	-6.86324
開	-6.86514
一作	-6.86551
安	-6.87038
元	-6.87854
飛	-6.88105
光	-6.88112
東	-6.88973
客	-6.89325
樂	-6.89451
焉	-6.89752
吾	-6.89896
初	-6.9014
朝	-6.90766
門	-6.9143
獨	-6.91984
城	-6.92081
應	-6.92127
二	-6.92339
傳	-6.93037
夜	-6.93043
及	-6.93912
神	-6.93989
分	-6.94241
夫	-6.94508
小	-6.94524
起	-6.95281
猶	-6.95366
平	-6.95569
字	-6.9616
江	-6.96242
年	-6.96642
五	-6.9722
身	-6.97683
古	-6.97761
氣	-6.97881
和	-6.9792
還	-6.97983
四	-6.98008
先	-6.98713
雨	-6.98745
馬	-6.9882
歌	-6.99043
民	-6.99134
雖	-6.99249
命	-6.9946
難	-6.99512
惟	-6.99802
立	-7.01184
白	-7.01835
既	-7.02013
且	-7.02894
龍	-7.03383
林	-7.03703
更	-7.04438
或	-7.04573
因	-7.04622
處	-7.04929
令	-7.04999
漢	-7.05025
經	-7.05861
學	-7.07191
賦	-7.07647
路	-7.0772
士	-7.08348
必	-7.08561
情	-7.08708
外	-7.09284
興	-7.10497
物	-7.10627
華	-7.11126
觀	-7.11302
謂	-7.11332
通	-7.11441
樹	-7.11524
常	-7.11737
張	-7.11857
法	-7.1249
酒	-7.12509
發	-7.12653
周	-7.13257
兵	-7.13442
好	-7.14079
莫	-7.14915
陳	-7.16399
舊	-7.16616
香	-7.17623
論	-7.17796
數	-7.18168
青	-7.18212
北	-7.18361
海	-7.19152
爲	-7.19686
云	-7.19889
始	-7.20073
萬	-7.20172
徳	-7.2018
九	-7.21084
禮	-7.21547
問	-7.21676
師	-7.22099
送	-7.22343
題	-7.2236
黄	-7.22478
本	-7.22774
遊	-7.23368
諸	-7.23452
死	-7.23567
善	-7.23994
舉	-7.24663
遂	-7.24956
坐	-7.25173
實	-7.25988
少	-7.26015
李	-7.26236
衣	-7.26332
合	-7.26438
陽	-7.26665
帝	-7.2708
兩	-7.27207
曲	-7.27631
寄	-7.28178
别	-7.28872
草	-7.29044
向	-7.2912
間	-7.2931
色	-7.2944
落	-7.2955
定	-7.29561
哉	-7.29683
圖	-7.29818
靈	-7.29863
百	-7.29958
天下	-7.29967
動	-7.30004
終	-7.3009
易	-7.30439
義	-7.30628
絶	-7.30892
集	-7.31034
雪	-7.31627
宫	-7.31913
近	-7.31975
竹	-7.3206
理	-7.3211
信	-7.32697
守	-7.32831
語	-7.33338
唐	-7.33759
尚	-7.34251
野	-7.34263
節	-7.34361
不可	-7.34672
異	-7.34739
宜	-7.34917
似	-7.35273
志	-7.35372
取	-7.35571
豈	-7.35706
臨	-7.36037
親	-7.36272
滿	-7.36553
亂	-7.36581
幽	-7.37095
齊	-7.37487
即	-7.37629
景	-7.38134
賢	-7.38173
聖	-7.38708
六	-7.39397
稱	-7.39445
登	-7.40182
田	-7.4151
求	-7.42408
輕	-7.42929
秦	-7.43721
以為	-7.43857
辭	-7.44102
爾	-7.45095
力	-7.45582
直	-7.45685
氏	-7.45816
武	-7.45851
愁	-7.46048
不能	-7.46076
高	-7.46141
宗	-7.46257
誰	-7.46314
共	-7.46761
度	-7.46789
頭	-7.47264
真	-7.47663
衆	-7.47968
進	-7.4826
餘	-7.48652
都	-7.48936
臺	-7.50103
留	-7.50522
固	-7.50561
孤	-7.5076
隨	-7.50773
畫	-7.51102
紅	-7.51414
閒	-7.5153
食	-7.51672
予	-7.52231
足	-7.52316
宋	-7.52937
彼	-7.53232
隂	-7.53377
連	-7.53678
㑹	-7.53726
服	-7.5429
軍	-7.545
楚	-7.54544
女	-7.55061
愛	-7.55468
塵	-7.5558
政	-7.55601
葉	-7.55624
化	-7.55666
夢	-7.55875
,	-7.55943
功	-7.55987
鳴	-7.5611
河	-7.56236
對	-7.56238
到	-7.5653
治	-7.56743
松	-7.56995
車	-7.57079
梁	-7.57241
奉	-7.57454
樓	-7.57703
勝	-7.58023
窮	-7.58135
内	-7.5822
半	-7.58809
章	-7.5888
廣	-7.59055
主	-7.59145
失	-7.59181
而不	-7.59288
亭	-7.59385
甚	-7.59431
制	-7.59714
看	-7.5972
驚	-7.59731
交	-7.59784
夏	-7.59801
劉	-7.59934
懐	-7.60003
千	-7.60215
仙	-7.6027
期	-7.6032
垂	-7.60387
嵗	-7.60447
德	-7.60688
極	-7.60763
顧	-7.60869
良	-7.61009
羣	-7.61023
溪	-7.61221
仁	-7.61293
斯	-7.61338
謝	-7.61406
耳	-7.61551
記	-7.61657
才	-7.61986
載	-7.62257
表	-7.62615
任	-7.62859
致	-7.62955
影	-7.63379
喜	-7.63512
封	-7.63564
泉	-7.63612
遺	-7.64038
皇	-7.6406
余	-7.64072
星	-7.64087
首	-7.64139
永	-7.64142
請	-7.64657
久	-7.64965
散	-7.65444
手	-7.65474
微	-7.65487
木	-7.65641
變	-7.65913
邊	-7.65962
感	-7.65994
鳥	-7.66088
容	-7.66208
等	-7.66582
煙	-7.66687
陵	-7.66727
素	-7.67407
寺	-7.67446
音	-7.67504
醉	-7.67517
誠	-7.67565
魚	-7.67686
府	-7.67693
庭	-7.6803
侯	-7.68272
贈	-7.6828
著	-7.68981
土	-7.6914
露	-7.6929
池	-7.69696
受	-7.69882
照	-7.7035
轉	-7.70368
宿	-7.70396
列	-7.70658
教	-7.7082
堂	-7.71075
美	-7.71155
伯	-7.71582
浮	-7.71798
吏	-7.72023
利	-7.72088
縣	-7.72247
離	-7.72257
悲	-7.7227
先生	-7.72315
疑	-7.72511
波	-7.72584
巻	-7.72629
霜	-7.72659
病	-7.72927
徒	-7.74127
苦	-7.74407
郡	-7.74492
八	-7.75097
結	-7.75117
目	-7.75208
吟	-7.75272
休	-7.75376
解	-7.75746
卒	-7.75992
修	-7.76356
恩	-7.76391
不知	-7.76409
燕	-7.76603
𤣥	-7.76773
比	-7.77146
許	-7.77841
斷	-7.77852
昔	-7.78047
曉	-7.78137
越	-7.78264
憂	-7.7849
亡	-7.78741
議	-7.78742
晉	-7.79144
凡	-7.79156
孫	-7.79389
朱	-7.79414
奏	-7.79475
益	-7.7956
史	-7.79735
次	-7.80045
建	-7.8013
尋	-7.80332
聽	-7.80414
承	-7.80476
願	-7.80634
忽	-7.80704
移	-7.80827
舟	-7.80873
十	-7.81612
七	-7.81885
虚	-7.81906
貴	-7.8212
嘗	-7.826
父	-7.82624
體	-7.82645
俗	-7.8273
吳	-7.82911
之所	-7.83004
笑	-7.83136
巳	-7.83268
寧	-7.83876
鄉	-7.83925
詔	-7.83943
代	-7.84013
識	-7.84035
薄	-7.84038
碧	-7.84079
精	-7.84133
舞	-7.84251
止	-7.8427
翠	-7.8463
賜	-7.84632
引	-7.84732
念	-7.8482
雙	-7.84878
所以	-7.84917
枝	-7.85327
川	-7.85393
盛	-7.85547
口	-7.85589
兼	-7.86243
閣	-7.86737
由	-7.86814
司	-7.86856
宣	-7.8695
忠	-7.87207
芳	-7.87554
形	-7.8808
便	-7.88383
鶴	-7.88639
計	-7.88954
闕	-7.88964
待	-7.8898
幾	-7.89217
紫	-7.89317
沙	-7.89405
火	-7.89557
殿	-7.89577
室	-7.90152
趙	-7.90561
遷	-7.90658
説	-7.90774
屬	-7.90879
裏	-7.91195
序	-7.91266
荒	-7.9148
視	-7.91609
来	-7.91713
祖	-7.91748
存	-7.91936
降	-7.92056
魏	-7.92241
里	-7.92434
反	-7.92677
楊	-7.92694
榮	-7.92739
懷	-7.92742
竒	-7.9279
哀	-7.92887
獻	-7.92916
勞	-7.92953
飲	-7.92958
僧	-7.93458
業	-7.93704
往	-7.93835
不得	-7.94101
幸	-7.94478
指	-7.94501
加	-7.94579
横	-7.94633
孝	-7.9468
位	-7.94861
傷	-7.94923
尊	-7.95001
太	-7.95229
殘	-7.9531
卿	-7.95681
崇	-7.95764
戰	-7.95887
游	-7.95945
嘉	-7.96415
就	-7.96603
郎	-7.96616
並	-7.96703
昭	-7.96706
藏	-7.96877
象	-7.96987
晚	-7.97196
各	-7.97368
被	-7.97379
惡	-7.97585
御	-7.976
暮	-7.97917
破	-7.98085
却	-7.98434
伏	-7.9874
澤	-7.98888
敬	-7.98982
持	-7.98991
全	-7.99112
原	-7.99548
適	-8.00184
紀	-8.00467
積	-8.00612
謀	-8.00782
兹	-8.00985
筆	-8.01169
授	-8.01216
園	-8.01539
。	-8.01568
報	-8.01807
丹	-8.01935
號	-8.0196
備	-8.01988
晴	-8.02134
羅	-8.02193
拜	-8.02369
要	-8.02691
嚴	-8.0284
早	-8.02892
類	-8.03065
逢	-8.03334
遇	-8.03461
除	-8.03736
君子	-8.0382
仲	-8.04038
蘭	-8.04139
詞	-8.04266
緑	-8.04331
胡	-8.04341
具	-8.04587
英	-8.04597
篇	-8.04756
天子	-8.04842
端	-8.05073
帶	-8.05348
殊	-8.05377
錢	-8.05472
但	-8.06134
性	-8.06243
塞	-8.06456
屋	-8.06511
疾	-8.06881
回	-8.07344
威	-8.07614
養	-8.07823
息	-8.07956
集作	-8.08163
隔	-8.08204
右	-8.08206
廟	-8.08246
俱	-8.08324
改	-8.08599
依	-8.08656
簡	-8.09003
恨	-8.09012
倚	-8.09306
折	-8.09504
逐	-8.09559
厚	-8.0958
烟	-8.09585
左	-8.09615
揚	-8.09683
含	-8.09783
栁	-8.09853
覺	-8.09868
負	-8.09996
谷	-8.10098
梅	-8.10136
省	-8.10315
可以	-8.10344
危	-8.10453
韻	-8.10539
夕	-8.10657
典	-8.11126
忘	-8.11143
蓋	-8.11174
告	-8.11215
賞	-8.11263
須	-8.11422
橋	-8.11642
巖	-8.11852
推	-8.11933
殺	-8.12569
珠	-8.12585
鄭	-8.12726
徐	-8.12794
汝	-8.12877
萬里	-8.12994
急	-8.13169
軒	-8.13741
接	-8.13792
恐	-8.13886
勢	-8.13975
沈	-8.14284
闗	-8.14335
罷	-8.14401
怨	-8.14558
工	-8.14648
順	-8.14651
咸	-8.14653
置	-8.14997
冠	-8.1519
試	-8.15307
再	-8.15633
廢	-8.15693
句	-8.16794
職	-8.16841
放	-8.17032
母	-8.17301
切	-8.17543
千里	-8.17567
福	-8.1759
濟	-8.177
曽	-8.17868
衰	-8.17922
丘	-8.18002
吹	-8.18089
歡	-8.1809
儀	-8.18219
追	-8.18448
隠	-8.18768
夷	-8.18901
收	-8.1903
陛下	-8.19208
征	-8.19576
迎	-8.20045
湖	-8.20114
友	-8.2012
執	-8.20152
齋	-8.2024
詠	-8.20248
果	-8.20441
仰	-8.20582
寳	-8.20845
運	-8.2085
達	-8.21359
魯	-8.21703
雄	-8.21804
種	-8.21863
敢	-8.2191
虎	-8.21963
延	-8.2199
考	-8.22337
每	-8.22408
絲	-8.22479
細	-8.22624
錦	-8.2271
憶	-8.22798
面	-8.23026
施	-8.23067
雜	-8.23087
顔	-8.23089
邑	-8.23198
滅	-8.23645
乗	-8.23668
最	-8.23767
兒	-8.23926
傾	-8.24069
晩	-8.24074
烏	-8.24142
者也	-8.24197
呉	-8.24272
翁	-8.24535
機	-8.24638
羽	-8.24814
慶	-8.24938
於是	-8.2503
駕	-8.25147
懸	-8.25197
關	-8.25277
棄	-8.2551
儒	-8.25549
曹	-8.25662
叔	-8.2578
商	-8.25806
遣	-8.25924
智	-8.26087
蜀	-8.26105
漸	-8.26171
布	-8.26535
陸	-8.26595
牛	-8.26736
調	-8.26798
騎	-8.26859
蒼	-8.27004
歴	-8.2771
如此	-8.27993
務	-8.28036
琴	-8.28119
刑	-8.28207
盤	-8.28301
峰	-8.28377
保	-8.28399
邪	-8.28592
船	-8.286
禁	-8.28704
選	-8.28929
况	-8.28961
善曰	-8.29211
召	-8.29326
特	-8.29442
質	-8.30086
權	-8.3013
宴	-8.30167
韓	-8.30288
累	-8.30545
疎	-8.30997
逸	-8.31058
私	-8.31073
顯	-8.31142
呼	-8.31481
根	-8.31546
罪	-8.31567
京	-8.31717
注	-8.31838
爭	-8.31866
舍	-8.32289
唯	-8.32575
繼	-8.32805
葢	-8.32836
器	-8.33043
静	-8.33237
壁	-8.33654
率	-8.3366
昌	-8.33734
麗	-8.33751
鼓	-8.33792
雅	-8.3388
井	-8.33929
将	-8.34162
妙	-8.34597
二首	-8.34641
振	-8.34663
至於	-8.3468
尤	-8.34683
歎	-8.34856
投	-8.34989
維	-8.34996
仍	-8.35519
習	-8.35625
說	-8.35729
市	-8.35793
虞	-8.35938
曾	-8.36086
克	-8.36122
眼	-8.36204
洞	-8.36368
遲	-8.36468
暗	-8.3678
勤	-8.37378
薦	-8.37428
秀	-8.37447
愚	-8.37564
惠	-8.37595
鴻	-8.376
天地	-8.37613
所謂	-8.37649
不敢	-8.37832
村	-8.37887
律	-8.38074
只	-8.38163
遥	-8.383
藥	-8.38559
走	-8.38898
浪	-8.38967
盖	-8.39181
采	-8.39306
短	-8.39369
冷	-8.39463
約	-8.39563
條	-8.39792
卧	-8.39886
惜	-8.40042
骨	-8.40124
嶺	-8.40175
康	-8.40244
庶	-8.403
角	-8.40521
淚	-8.4055
㣲	-8.40573
拂	-8.40587
映	-8.40607
讀	-8.40874
岸	-8.4127
管	-8.4135
翻	-8.41387
杜	-8.41404
第	-8.4142
設	-8.41496
末	-8.4172
步	-8.41745
造	-8.41826
招	-8.41906
賊	-8.4198
某	-8.4202
隱	-8.42143
敗	-8.42218
館	-8.42255
資	-8.4227
弟	-8.42448
偏	-8.42578
房	-8.42615
程	-8.42638
訪	-8.42653
郭	-8.42672
婦	-8.42813
覆	-8.43006
凝	-8.43018
乆	-8.43078
院	-8.43283
符	-8.43345
靜	-8.43428
堪	-8.43437
想	-8.43449
冬	-8.43462
源	-8.43487
慮	-8.43634
衛	-8.43818
不見	-8.43876
歲	-8.44003
害	-8.44108
獲	-8.44345
材	-8.44799
抱	-8.44843
撫	-8.44933
委	-8.4523
鼎	-8.45314
春秋	-8.45317
營	-8.45348
富	-8.45591
宅	-8.45712
祠	-8.45886
響	-8.45953
户	-8.46183
跡	-8.46287
迴	-8.46291
退	-8.46353
强	-8.46411
竊	-8.46454
耶	-8.46513
季	-8.46601
乘	-8.46694
徑	-8.46804
迷	-8.4692
將軍	-8.47096
戒	-8.47133
燈	-8.4718
佛	-8.47293
桂	-8.47679
斜	-8.47742
郊	-8.47795
博	-8.4785
何處	-8.47953
祀	-8.47995
竟	-8.48376
勿	-8.48421
逰	-8.48638
肅	-8.48701
孟	-8.49112
貧	-8.49126
大夫	-8.4913
春風	-8.49186
碑	-8.49258
墨	-8.49356
履	-8.49537
聚	-8.49538
蘇	-8.49539
貞	-8.49877
隆	-8.49911
違	-8.49982
赤	-8.50377
甲	-8.50432
是以	-8.50475
盈	-8.5065
馳	-8.50808
尚書	-8.50983
銘	-8.51128
白雲	-8.5122
祭	-8.51267
衡	-8.51441
境	-8.51595
總	-8.51692
人之	-8.51768
霞	-8.51789
籍	-8.51962
怒	-8.52003
納	-8.52111
晨	-8.52221
赴	-8.52223
聖人	-8.52316
低	-8.52355
辨	-8.52399
擊	-8.52416
刻	-8.52545
席	-8.52621
鏡	-8.52624
卷	-8.52747
偶	-8.52766
鳳	-8.52846
射	-8.52883
禪	-8.52917
憐	-8.53292
示	-8.53295
豐	-8.53326
縱	-8.53451
懼	-8.5364
誅	-8.53696
今日	-8.53748
附	-8.53808
繁	-8.53837
避	-8.54017
升	-8.54043
夀	-8.54104
䇿	-8.54296
厥	-8.54319
壯	-8.54405
不足	-8.54418
其所	-8.54541
險	-8.54696
患	-8.54705
蕭	-8.5477
泥	-8.54779
鎮	-8.55552
弗	-8.55592
銀	-8.55622
背	-8.55716
乾	-8.55724
補	-8.55819
耕	-8.55971
掩	-8.55979
毛	-8.55996
擬	-8.56102
孔	-8.56199
畏	-8.56633
無所	-8.56978
陶	-8.57099
申	-8.57263
天下之	-8.57271
聊	-8.5749
霧	-8.57518
淵	-8.57549
假	-8.57553
甘	-8.57675
厯	-8.57857
翼	-8.57867
釋	-8.58283
峯	-8.58655
屈	-8.58741
温	-8.58759
伐	-8.58765
答	-8.58864
棲	-8.58868
侵	-8.58891
苑	-8.58994
干	-8.59151
披	-8.59209
敵	-8.59287
牧	-8.59291
寵	-8.59338
祥	-8.59348
嗟	-8.59361
謹	-8.59408
荷	-8.59427
凉	-8.59625
住	-8.59708
底	-8.59941
䝉	-8.60005
弱	-8.60247
戎	-8.6047
潮	-8.60511
輔	-8.60593
浦	-8.60728
族	-8.6073
參	-8.60789
傍	-8.60799
靡	-8.60823
鴈	-8.61024
味	-8.61088
恭	-8.6109
役	-8.6118
阿	-8.61188
述	-8.6119
奔	-8.61194
覽	-8.61504
諸侯	-8.61596
狀	-8.61733
堅	-8.6176
禽	-8.61774
并	-8.61808
瑞	-8.61927
階	-8.62045
充	-8.62092
寛	-8.62097
趨	-8.62131
察	-8.62184
勸	-8.6232
免	-8.6284
旅	-8.62934
三年	-8.62945
部	-8.63256
鳯	-8.63352
慕	-8.63751
兄	-8.63813
迹	-8.63869
愈	-8.64186
雷	-8.64211
彌	-8.64522
陰	-8.64648
啓	-8.64938
錫	-8.65212
吉	-8.65517
按	-8.65551
烈	-8.65593
訓	-8.65627
雁	-8.6601
日月	-8.66085
雞	-8.66271
茂	-8.66381
疏	-8.66413
后	-8.66458
舒	-8.66497
鸞	-8.6671
農	-8.66748
眠	-8.66928
狂	-8.66936
淺	-8.66937
悉	-8.67024
爵	-8.67046
㡬	-8.67051
丁	-8.67218
繫	-8.67419
録	-8.67571
蕩	-8.67752
談	-8.6785
洗	-8.67874
鐘	-8.68085
責	-8.68312
候	-8.68405
洪	-8.68605
𢎞	-8.68778
江南	-8.68797
頗	-8.68998
編	-8.69069
侍	-8.69212
明月	-8.69228
領	-8.69236
瞻	-8.69277
託	-8.6937
茍	-8.6967
啼	-8.70131
熟	-8.70231
魂	-8.70259
泰	-8.70315
之間	-8.70324
之以	-8.70486
鮮	-8.70537
墓	-8.70569
畢	-8.70699
一首	-8.70757
嗣	-8.70914
殷	-8.70963
煩	-8.71105
縁	-8.71203
寫	-8.71274
渡	-8.71281
乞	-8.71285
而後	-8.71336
操	-8.71416
荆	-8.71529
徃	-8.71537
攻	-8.72006
禍	-8.72125
十二	-8.72157
邦	-8.722
消	-8.72457
歩	-8.72457
宇	-8.72526
屢	-8.72546
側	-8.72583
長安	-8.72652
班	-8.72655
環	-8.72733
戲	-8.72801
扶	-8.72824
佐	-8.72879
希	-8.7322
莊	-8.73403
歳	-8.73403
旋	-8.73537
逆	-8.73698
朝廷	-8.73818
頻	-8.73845
講	-8.73898
燭	-8.73915
掌	-8.73997
頌	-8.74137
監	-8.74167
貢	-8.74629
伊	-8.74774
堯	-8.7492
量	-8.74972
澗	-8.74989
朕	-8.75033
震	-8.75139
紛	-8.75411
潤	-8.75424
曠	-8.75663
津	-8.75705
綠	-8.75829
然後	-8.75929
怪	-8.75935
謂之	-8.75982
瓊	-8.76102
叢	-8.76163
盧	-8.76267
據	-8.76313
仕	-8.76343
故人	-8.76494
巧	-8.76601
洛	-8.77016
晝	-8.77047
繞	-8.77099
邉	-8.77184
聴	-8.77198
枕	-8.77332
簾	-8.77346
凌	-8.77572
鄰	-8.7763
平生	-8.77696
激	-8.77782
途	-8.77839
寶	-8.77952
廬	-8.77971
鍾	-8.78042
匪	-8.78063
巢	-8.78078
讓	-8.78112
文章	-8.78288
均	-8.78322
禹	-8.7837
庸	-8.78399
昏	-8.78437
索	-8.78532
僕	-8.78592
屏	-8.78613
他	-8.78731
規	-8.78797
妾	-8.78887
擇	-8.78999
勇	-8.79212
崖	-8.79229
氷	-8.79282
漏	-8.79287
齒	-8.79352
之士	-8.7938
有所	-8.79381
甫	-8.79426
佳	-8.79459
酬	-8.79489
塗	-8.795
厭	-8.79627
術	-8.79769
弄	-8.79774
桑	-8.798
輿	-8.79902
淮	-8.79957
喪	-8.8
劒	-8.80036
而已	-8.80185
澄	-8.80193
涼	-8.80256
童	-8.80273
豪	-8.80283
統	-8.80308
科	-8.80361
圍	-8.80412
擁	-8.80487
品	-8.80533
窗	-8.80921
泣	-8.81019
專	-8.81089
允	-8.81118
夫人	-8.81349
賀	-8.81535
貌	-8.81689
己	-8.81692
湯	-8.81729
崔	-8.81769
一日	-8.81797
柳	-8.818
斗	-8.81845
風雨	-8.81936
珍	-8.81943
騰	-8.81997
脩	-8.82201
輪	-8.8229
皇帝	-8.82365
秋風	-8.82386
助	-8.82577
遠	-8.82648
供	-8.82894
借	-8.82964
人間	-8.8299
愧	-8.8315
青山	-8.83276
詳	-8.83506
吐	-8.83642
圓	-8.83648
壽	-8.83798
争	-8.839
尺	-8.83993
孰	-8.84123
姓	-8.84197
禄	-8.84399
杯	-8.84415
救	-8.84473
超	-8.84638
窺	-8.84793
倒	-8.84822
為之	-8.84878
㸃	-8.84939
旁	-8.85292
穆	-8.85331
之心	-8.8537
潭	-8.85467
虛	-8.85555
穿	-8.85639
稀	-8.85808
太子	-8.85816
沒	-8.85892
賈	-8.86104
漁	-8.86295
催	-8.86495
驅	-8.86649
諫	-8.86806
漫	-8.86813
爰	-8.86818
躬	-8.86864
財	-8.87024
格	-8.87068
困	-8.87258
奪	-8.87289
徴	-8.87333
渾	-8.8744
左右	-8.87504
旗	-8.87626
泛	-8.87636
奮	-8.87908
停	-8.87936
炎	-8.8799
寡	-8.88223
稍	-8.88237
效	-8.88432
恒	-8.88478
植	-8.8857
羊	-8.89067
湘	-8.89109
畧	-8.89129
趣	-8.8914
策	-8.89336
枯	-8.89372
飄	-8.89393
錯	-8.89472
賔	-8.89515
融	-8.89626
當時	-8.89726
鬼	-8.89815
支	-8.89898
社	-8.89907
哭	-8.89912
血	-8.89965
十年	-8.90049
刀	-8.90133
揺	-8.90133
介	-8.90223
増	-8.90344
渚	-8.90391
山中	-8.90499
差	-8.90514
翔	-8.90545
濕	-8.90559
進士	-8.90845
㫖	-8.90877
暫	-8.90881
之道	-8.91026
不及	-8.91142
不為	-8.91339
買	-8.91357
菊	-8.91537
賤	-8.91679
百年	-8.91765
貫	-8.91771
競	-8.91776
掃	-8.91784
誦	-8.91838
牀	-8.91949
略	-8.92106
巨	-8.9221
憲	-8.92216
而無	-8.92386
何以	-8.92413
妻	-8.92494
蔡	-8.92526
抑	-8.92527
循	-8.92577
戴	-8.92675
朔	-8.92705
不如	-8.92938
基	-8.92943
寂	-8.92998
襲	-8.93014
裁	-8.93027
俾	-8.9306
暴	-8.93153
宰	-8.93194
式	-8.9321
龜	-8.93244
茅	-8.93305
茶	-8.93545
范	-8.93575
足以	-8.93598
洲	-8.93699
潛	-8.93829
蓬	-8.93946
沉	-8.94035
遭	-8.94054
勲	-8.94149
綺	-8.9415
啟	-8.94299
囘	-8.9458
飾	-8.95186
閑	-8.95247
岳	-8.95341
暖	-8.95448
筵	-8.95697
否	-8.95764
費	-8.95929
渠	-8.96
肆	-8.96002
俯	-8.96006
吕	-8.96099
辰	-8.96193
慎	-8.96198
卑	-8.96202
輝	-8.963
犯	-8.9653
嗚呼	-8.96564
獄	-8.96659
風吹	-8.96689
有餘	-8.96698
校	-8.96784
杖	-8.96861
貪	-8.96886
羞	-8.97095
尾	-8.97133
髪	-8.97197
劍	-8.97254
旌	-8.97268
旣	-8.97346
佩	-8.97358
悠悠	-8.97368
孔子	-8.97457
四海	-8.97504
攀	-8.97568
慈	-8.97809
蒲	-8.97986
釣	-8.98145
鬱	-8.98221
鱗	-8.98231
藻	-8.9825
銜	-8.98362
宻	-8.98366
唱	-8.98453
憑	-8.98523
密	-8.98551
蓮	-8.9856
淡	-8.98641
謁	-8.98775
眉	-8.98777
柔	-8.98909
之事	-8.98934
給	-8.99099
阻	-8.99136
遐	-8.99241
帳	-8.99387
京師	-8.99503
無人	-8.9952
辱	-8.99625
壇	-8.9968
没	-8.99702
際	-8.99889
韋	-8.99941
舜	-8.9998
把	-8.99994
廻	-8.99998
徙	-9.00027
厲	-9.00029
襟	-9.00215
翰	-9.00216
蔽	-9.00408
彩	-9.0044
徵	-9.00529
彈	-9.00713
酌	-9.00728
辟	-9.00832
伴	-9.00868
黃	-9.00987
驛	-9.01202
悟	-9.0123
銅	-9.01273
痛	-9.01427
觴	-9.01775
倫	-9.0188
柱	-9.02014
忍	-9.0233
防	-9.02379
蟲	-9.02427
旦	-9.02648
葬	-9.0275
絃	-9.02879
姿	-9.03167
享	-9.03274
寓	-9.0337
古人	-9.03588
覩	-9.03655
扇	-9.03679
彦	-9.03698
誤	-9.03728
於此	-9.03876
壺	-9.0392
採	-9.03977
塘	-9.04055
呈	-9.04192
二年	-9.04309
未有	-9.04477
卜	-9.04482
晦	-9.04497
苔	-9.045
丞相	-9.04593
之人	-9.05093
踰	-9.05146
蟬	-9.05255
之後	-9.05356
如何	-9.05592
姑	-9.05816
奚	-9.05903
雍	-9.05907
帆	-9.06256
缺	-9.063
司馬	-9.06351
一人	-9.06397
山川	-9.06422
占	-9.06471
鐵	-9.06484
優	-9.06614
桃	-9.06802
之言	-9.06839
黨	-9.06875
御史	-9.06958
束	-9.0696
粟	-9.06978
墮	-9.07077
揮	-9.07307
刺	-9.07565
閉	-9.07631
弓	-9.07671
寢	-9.07775
繡	-9.07971
公之	-9.08053
廷	-9.08117
嶽	-9.08163
喧	-9.08233
宵	-9.08369
三十	-9.08521
網	-9.08702
敷	-9.09067
也夫	-9.09116
滋	-9.0917
展	-9.09257
冰	-9.09319
革	-9.09324
觸	-9.09364
了	-9.09524
審	-9.09568
不復	-9.09694
也今	-9.09798
歸來	-9.10105
之意	-9.10229
挂	-9.10242
歟	-9.10314
後世	-9.10329
白日	-9.10463
純	-9.10588
袖	-9.10758
惑	-9.10772
慙	-9.10787
牽	-9.10788
谿	-9.10832
午	-9.10888
銷	-9.10937
巾	-9.11165
璧	-9.112
續	-9.11244
牙	-9.1144
摧	-9.11442
暉	-9.1149
契	-9.11495
晏	-9.11598
樵	-9.11815
藉	-9.1195
桐	-9.11967
返	-9.12023
遵	-9.12109
肯	-9.12365
猿	-9.12689
築	-9.12704
妄	-9.12752
人也	-9.12757
祗	-9.13024
界	-9.13033
次韻	-9.13037
鄙	-9.13076
澹	-9.1315
籠	-9.13157
芙蓉	-9.13167
乍	-9.13347
逹	-9.13429
未嘗	-9.13488
䕶	-9.1363
尹	-9.13845
墜	-9.1393
鹿	-9.14062
鞭	-9.14075
子曰	-9.14214
欺	-9.14308
傅	-9.14317
宮	-9.14332
前人	-9.14339
竭	-9.1449
提	-9.14571
勉	-9.14616
也故	-9.14632
諱	-9.1474
之不	-9.14742
莫不	-9.14774
千載	-9.14913
太守	-9.14934
學士	-9.15032
雕	-9.15092
層	-9.1511
鬢	-9.15235
陪	-9.15265
二十	-9.15332
古今	-9.15471
山水	-9.15524
欽	-9.15561
藩	-9.15627
眀	-9.15643
姦	-9.15662
梅花	-9.15905
草木	-9.15927
粉	-9.1596
流水	-9.15965
耀	-9.15968
慰	-9.16056
速	-9.16115
戍	-9.1617
可謂	-9.16414
有司	-9.16543
剛	-9.16556
上下	-9.16601
座	-9.16757
肉	-9.16971
喻	-9.16988
三月	-9.1714
昧	-9.17261
隋	-9.17287
淳	-9.17316
寜	-9.17451
扵	-9.17918
幕	-9.17993
國家	-9.1801
何如	-9.18033
倦	-9.18042
付	-9.18097
俊	-9.1812
暑	-9.18268
四方	-9.18303
燒	-9.18687
百姓	-9.18698
壑	-9.18729
毁	-9.18744
落日	-9.19155
知其	-9.1922
逝	-9.19277
豈不	-9.19424
況	-9.1949
損	-9.19493
紙	-9.1964
祝	-9.19769
擢	-9.19988
以來	-9.20074
少年	-9.20096
蠻	-9.20323
肥	-9.20485
穴	-9.2054
芝	-9.20627
主人	-9.20632
決	-9.20911
姬	-9.2097
圗	-9.20995
東風	-9.21059
援	-9.21105
染	-9.21194
恥	-9.21207
織	-9.21318
討	-9.21348
㸔	-9.21378
秩	-9.21485
江上	-9.21522
績	-9.21534
嫌	-9.21551
配	-9.21597
鑿	-9.21602
帥	-9.21781
頓	-9.21859
潔	-9.21987
輸	-9.2203
州刺史	-9.22045
者皆	-9.22096
同前	-9.22108
腹	-9.22221
冀	-9.22281
泊	-9.22345
陋	-9.22353
攜	-9.22369
輩	-9.22429
飽	-9.22445
不可以	-9.22479
寸	-9.22636
逃	-9.22647
屯	-9.22667
桃花	-9.22872
然而	-9.22894
黙	-9.22932
亦有	-9.23207
添	-9.23234
虜	-9.23376
兄弟	-9.23439
鑒	-9.23496
子孫	-9.23575
輒	-9.23666
削	-9.23796
磨	-9.23918
萬物	-9.23951
壓	-9.23972
安得	-9.24034
簷	-9.24121
古之	-9.2417
印	-9.24177
不同	-9.24341
藝	-9.2437
妃	-9.24441
髮	-9.24453
讀書	-9.24462
秉	-9.24581
纔	-9.24658
灑	-9.24707
南山	-9.24803
促	-9.24869
豫	-9.24897
笛	-9.24923
欣	-9.24951
鼔	-9.24959
戀	-9.24962
十五	-9.25003
亮	-9.25127
峻	-9.25189
至今	-9.25215
辛	-9.25516
勒	-9.25661
頃	-9.25687
米	-9.25923
曰吾	-9.2594
獵	-9.25972
育	-9.26032
舎	-9.26152
飯	-9.26152
徹	-9.26155
麥	-9.26219
徘徊	-9.26268
牆	-9.26318
袁	-9.26337
黄金	-9.26446
之地	-9.26466
眞	-9.26469
案	-9.26587
區	-9.2687
爽	-9.2692
脱	-9.27025
隴	-9.2727
徽	-9.27413
巴	-9.27458
排	-9.27504
夕陽	-9.277
偃	-9.27723
會	-9.27799
軌	-9.27804
臣聞	-9.27878
標	-9.27885
毫	-9.27888
矜	-9.27903
一時	-9.28073
必有	-9.28226
災	-9.28347
斬	-9.28354
蕃	-9.28404
太平	-9.28473
悔	-9.28665
濃	-9.28682
探	-9.28826
宛	-9.28863
小人	-9.28923
稽	-9.29041
陣	-9.29122
叙	-9.29149
駐	-9.29161
殆	-9.29289
三百	-9.29299
不以	-9.29339
漢書	-9.2949
副	-9.29616
不勝	-9.29709
相思	-9.2974
腰	-9.29782
賴	-9.29875
值	-9.29987
奇	-9.3005
之功	-9.30178
踏	-9.30198
洛陽	-9.30219
元年	-9.30272
敏	-9.30455
緩	-9.30458
衍	-9.30517
弊	-9.3058
獸	-9.30633
裂	-9.3066
戸	-9.30768
鶯	-9.30823
衝	-9.30865
贊	-9.30951
岡	-9.30976
無窮	-9.31135
倍	-9.31146
態	-9.31221
練	-9.31404
忌	-9.31448
像	-9.31471
腸	-9.31525
然則	-9.31719
薛	-9.31742
虹	-9.31801
署	-9.31973
導	-9.31976
弔	-9.31993
而為	-9.32034
四十	-9.32064
崩	-9.32071
東南	-9.32164
篤	-9.3234
戚	-9.3239
紹	-9.32467
也言	-9.32523
公子	-9.32526
緒	-9.32664
大臣	-9.32684
霽	-9.32697
戈	-9.327
饒	-9.32825
又曰	-9.32927
言之	-9.33004
□	-9.33032
哲	-9.33051
黒	-9.33058
乏	-9.33079
江湖	-9.33089
畔	-9.33177
飢	-9.33221
膺	-9.33271
躍	-9.33377
洞庭	-9.33378
其後	-9.33473
其事	-9.33532
濤	-9.33533
邁	-9.33624
詎	-9.33753
之義	-9.33827
彰	-9.33962
垣	-9.33973
蒙	-9.34402
▁(	-9.34407
睡	-9.34422
决	-9.34461
洽	-9.34521
人生	-9.34591
溢	-9.34782
何時	-9.34784
夾	-9.34815
囊	-9.35003
醒	-9.35071
馮	-9.35151
驕	-9.35326
遽	-9.35391
丞	-9.35395
蘿	-9.35396
禮樂	-9.35422
眷	-9.35586
遙	-9.35706
武帝	-9.35741
麟	-9.35977
吴	-9.36053
譽	-9.36195
以自	-9.36213
䘮	-9.3624
爛	-9.36443
瑶	-9.36545
雀	-9.36736
徧	-9.36761
膏	-9.3686
宦	-9.37081
霄	-9.371
董	-9.37107
攸	-9.37117
鹽	-9.37131
弦	-9.37148
焚	-9.37366
裘	-9.37374
那	-9.37407
踐	-9.37479
行人	-9.37491
敦	-9.37519
美人	-9.37769
中有	-9.37779
倉	-9.37801
恃	-9.37874
綱	-9.37896
疊	-9.3793
几	-9.37937
胥	-9.37943
乖	-9.38054
何人	-9.3817
無事	-9.38171
隅	-9.38361
渭	-9.38394
清風	-9.38415
明年	-9.38756
靖	-9.3889
誓	-9.39006
之則	-9.39217
謙	-9.3927
五十	-9.39522
隣	-9.39538
之時	-9.39684
偉	-9.39719
遶	-9.39726
得其	-9.39768
快	-9.39791
毎	-9.39833
苟	-9.39868
朋	-9.39883
尉	-9.40031
姚	-9.40079
閨	-9.40112
學者	-9.40135
寂寞	-9.40145
可憐	-9.4018
儲	-9.40221
宏	-9.40413
奴	-9.40529
二百	-9.40647
毒	-9.40683
敎	-9.40829
蕭蕭	-9.40861
話	-9.40919
曜	-9.40931
嘯	-9.40934
饑	-9.40991
預	-9.41015
淫	-9.41043
侍郎	-9.41103
彊	-9.4127
風流	-9.41597
盜	-9.41711
整	-9.41767
抗	-9.41787
○	-9.41863
黎	-9.42005
判	-9.42027
世之	-9.42049
浮雲	-9.42087
叟	-9.42178
滯	-9.42245
襄	-9.42284
韶	-9.42307
邀	-9.42322
桓	-9.42496
周公	-9.42511
壤	-9.42578
春日	-9.42615
片	-9.42829
場	-9.42834
罔	-9.42901
濯	-9.42919
以爲	-9.42973
增	-9.43031
帷	-9.43044
不然	-9.43168
玩	-9.43248
淑	-9.43298
踈	-9.43359
上人	-9.43369
賓	-9.43756
葛	-9.43818
塔	-9.43824
不用	-9.43865
東西	-9.43897
逾	-9.43899
警	-9.43921
遍	-9.43975
電	-9.44144
醫	-9.4415
凶	-9.44154
汗	-9.442
圃	-9.44212
朗	-9.44416
諭	-9.44424
相逢	-9.44612
歇	-9.44678
限	-9.44695
富貴	-9.44716
賣	-9.44763
絳	-9.44771
僅	-9.44802
出於	-9.44884
産	-9.44884
仗	-9.449
堤	-9.44976
相與	-9.45183
減	-9.45307
淪	-9.45388
繩	-9.45402
父母	-9.45415
樽	-9.45525
域	-9.45554
艱	-9.45577
藤	-9.45663
儉	-9.45706
栖	-9.45711
墳	-9.45753
兆	-9.45802
紛紛	-9.46071
妖	-9.46073
使君	-9.46076
之為	-9.46149
拔	-9.46151
包	-9.46176
㳺	-9.46268
叛	-9.46389
強	-9.46416
憤	-9.46426
嵩	-9.46504
矢	-9.46652
綵	-9.46781
涉	-9.46791
十八	-9.46791
挾	-9.46846
鈎	-9.46924
頂	-9.46982
暢	-9.47036
之曰	-9.47066
蒸	-9.47068
菴	-9.4709
淨	-9.47166
扉	-9.47228
之際	-9.47393
乾坤	-9.47572
河南	-9.47689
健	-9.47701
芳草	-9.47762
辯	-9.47762
邈	-9.47766
雉	-9.47776
之中	-9.47879
督	-9.47922
夫子	-9.47945
剪	-9.47975
碎	-9.48035
三首	-9.48056
足下	-9.48071
拙	-9.48121
凍	-9.48143
國之	-9.48167
播	-9.4818
盟	-9.48197
日暮	-9.48255
偽	-9.48265
輙	-9.48307
逮	-9.48358
翳	-9.48402
祚	-9.48428
纎	-9.48502
貽	-9.4872
岐	-9.48759
割	-9.48903
滴	-9.48928
百里	-9.48985
閩	-9.49007
謬	-9.49029
駭	-9.49033
媚	-9.49172
冦	-9.49172
誰能	-9.49286
協	-9.49292
丈	-9.49349
七十	-9.49418
脫	-9.49469
爐	-9.49585
由是	-9.49613
年年	-9.49656
悦	-9.49745
暇	-9.49761
誇	-9.49884
縈	-9.49892
浸	-9.49913
千年	-9.49936
零	-9.50017
灰	-9.50082
西風	-9.50094
錄	-9.50423
臯	-9.50431
撰	-9.50566
蛇	-9.50686
幼	-9.50858
自然	-9.51018
捨	-9.51062
涕	-9.51136
故曰	-9.51195
曷	-9.51341
咎	-9.51376
棹	-9.5139
參差	-9.51452
蹈	-9.5161
幹	-9.51704
裳	-9.51798
其言	-9.51854
浩	-9.5209
仁義	-9.52116
之法	-9.52192
其人	-9.52264
瓦	-9.52275
以此	-9.52312
諒	-9.52374
混	-9.52379
熱	-9.52409
裴	-9.52468
竿	-9.52659
旬	-9.52761
箭	-9.52849
擅	-9.52931
雖有	-9.52966
纓	-9.53118
完	-9.53212
而有	-9.53421
岑	-9.53693
則有	-9.53725
不忍	-9.53808
其心	-9.53844
蠶	-9.53894
一百	-9.53944
籬	-9.53954
闢	-9.54078
溝	-9.54138
四時	-9.54212
熙	-9.54234
郎中	-9.54302
人心	-9.54312
㝠	-9.54337
惆悵	-9.54426
鋒	-9.5444
喚	-9.54483
台	-9.54541
涵	-9.54621
枉	-9.54687
詣	-9.54712
霸	-9.54717
彭	-9.54718
毋	-9.54741
衞	-9.54755
第一	-9.54774
蕪	-9.54854
祐	-9.54899
落花	-9.54988
不過	-9.55062
吞	-9.55153
綴	-9.55156
冥	-9.55197
十六	-9.55275
檻	-9.55319
懿	-9.55332
障	-9.55388
矯	-9.55482
戮	-9.55486
赦	-9.55534
嬌	-9.55698
五年	-9.55778
猷	-9.55862
緣	-9.55888
貨	-9.55903
例	-9.5612
月明	-9.56187
是非	-9.562
鷗	-9.56201
十里	-9.56233
賦曰	-9.56444
喬	-9.56503
嘆	-9.567
如是	-9.56756
單	-9.56774
攝	-9.56789
抵	-9.568
究	-9.56918
逼	-9.56953
也其	-9.56956
芒	-9.57015
鄧	-9.5704
島	-9.57339
不相	-9.5737
濶	-9.57482
價	-9.57516
西山	-9.57535
疇	-9.57701
不足以	-9.57834
斥	-9.57912
妍	-9.57936
構	-9.57958
斂	-9.5796
賛	-9.5798
榖	-9.58031
宰相	-9.58229
無不	-9.58261
扁舟	-9.58444
汪	-9.5856
未能	-9.58563
灌	-9.58717
柯	-9.5873
霑	-9.58733
千古	-9.58748
恤	-9.58818
禦	-9.58824
十三	-9.58838
竇	-9.58863
疲	-9.58901
曙	-9.58914
壘	-9.5892
捐	-9.58948
皮	-9.59031
隂陽	-9.59135
處士	-9.59147
羡	-9.59181
詩曰	-9.59333
舌	-9.59492
叶	-9.59501
夙	-9.59589
中國	-9.59602
出入	-9.59764
蹤	-9.59871
沾	-9.59908
髙祖	-9.59978
鴉	-9.59983
之徒	-9.59986
南北	-9.60112
三千	-9.60172
局	-9.60217
狐	-9.60235
赫	-9.60238
陟	-9.60249
弟子	-9.60306
摩	-9.60341
太祖	-9.60359
輦	-9.60433
恵	-9.60437
褒	-9.6047
是也	-9.60542
嫁	-9.60925
自古	-9.60949
眺	-9.61097
社稷	-9.61256
帛	-9.61279
犬	-9.61463
者不	-9.61477
逕	-9.61483
滑	-9.61502
俟	-9.61671
顛	-9.61769
亷	-9.62094
明日	-9.62115
勁	-9.62212
之外	-9.62261
傑	-9.62416
君臣	-9.62455
匹	-9.62549
恣	-9.62595
魄	-9.62597
弼	-9.62629
肩	-9.62666
創	-9.62799
伍	-9.62889
匡	-9.62941
挽	-9.62963
埋	-9.63254
羈	-9.63301
亦不	-9.63385
俄	-9.63415
無以	-9.63448
蝶	-9.63453
者必	-9.63573
阜	-9.63589
奠	-9.63667
聖人之	-9.63704
嬰	-9.6372
灘	-9.6372
天涯	-9.63761
翰林	-9.63835
書曰	-9.63923
八月	-9.6393
陂	-9.64013
拘	-9.64019
渉	-9.64137
莽	-9.64157
神仙	-9.64196
峽	-9.6435
五月	-9.64372
疆	-9.64413
終日	-9.6446
/)(	-9.64486
慚	-9.64488
驗	-9.64553
綿	-9.64586
糧	-9.64609
君之	-9.64626
侣	-9.64651
宸	-9.64728
千金	-9.6474
之於	-9.64842
握	-9.6485
者亦	-9.64856
旱	-9.64939
文王	-9.65228
樂府	-9.65342
換	-9.65372
文帝	-9.65411
之所以	-9.65448
諧	-9.65494
遼	-9.65535
巡	-9.6556
熈	-9.65733
衢	-9.65738
二月	-9.65808
父子	-9.65851
六十	-9.65869
瑟	-9.65889
誕	-9.66018
乳	-9.66101
白頭	-9.66127
悼	-9.6628
効	-9.66476
穀	-9.66641
㦸	-9.66655
冒	-9.66693
羣臣	-9.66716
四年	-9.66947
製	-9.66953
三日	-9.66957
袍	-9.66975
奈何	-9.67097
虧	-9.67108
丗	-9.67146
鵲	-9.67161
道士	-9.6721
劇	-9.67236
靄	-9.67244
卓	-9.67247
擾	-9.67296
熊	-9.67354
槐	-9.67412
皓	-9.67438
仙人	-9.67474
不成	-9.67492
隙	-9.6771
樊	-9.6778
欄	-9.67809
巷	-9.67818
帖	-9.67822
不自	-9.67852
肇	-9.67878
天上	-9.67913
迫	-9.67938
榻	-9.68286
祈	-9.68307
楊栁	-9.6852
別	-9.68525
玄	-9.68545
叅	-9.68657
謫	-9.68762
歛	-9.68778
迥	-9.68781
随	-9.68817
麻	-9.6883
慘	-9.68846
廵	-9.68999
湛	-9.69024
功名	-9.69054
是故	-9.69098
蘆	-9.69102
九日	-9.69117
秘	-9.69178
睿	-9.69229
裔	-9.69277
何必	-9.69329
茫茫	-9.69357
一朝	-9.69451
海内	-9.69469
較	-9.69504
潜	-9.69517
範	-9.6954
使人	-9.69552
花落	-9.69639
㫁	-9.69669
之臣	-9.69676
今年	-9.69754
臂	-9.69862
不肯	-9.70074
鬬	-9.70119
何所	-9.70163
齡	-9.70198
屠	-9.70205
昨	-9.70248
何事	-9.7032
瘦	-9.70353
鑄	-9.70455
蓬萊	-9.70584
廊	-9.70639
濁	-9.70656
公卿	-9.71002
昬	-9.7102
樞	-9.71055
草堂	-9.71094
淮南	-9.71126
之上	-9.71193
荅	-9.71212
民之	-9.71218
猛	-9.71236
其身	-9.7124
轍	-9.71301
譏	-9.71331
捧	-9.71349
廉	-9.71355
堆	-9.71372
不盡	-9.71392
篆	-9.71412
挺	-9.71559
漲	-9.71568
伸	-9.71659
檢	-9.71711
不識	-9.71725
用之	-9.71745
夭	-9.71747
闌	-9.71764
匈奴	-9.71858
十四	-9.71891
壊	-9.72082
其間	-9.72116
之至	-9.72305
往往	-9.72547
痕	-9.72602
搖	-9.72635
料	-9.72667
人皆	-9.72767
汎	-9.72774
項	-9.72809
六月	-9.72861
也而	-9.72862
栽	-9.72884
桃李	-9.72916
故鄉	-9.72964
脚	-9.72977
昆	-9.73088
邨	-9.73174
餐	-9.73264
蓄	-9.73282
毅	-9.73311
人家	-9.73447
誣	-9.73452
相見	-9.73484
潘	-9.73515
其中	-9.73522
為人	-9.73578
軸	-9.73599
苗	-9.73604
謨	-9.73641
鳬	-9.73686
氏之	-9.73792
當年	-9.73871
互	-9.73914
墟	-9.73923
黜	-9.73934
此時	-9.73967
奸	-9.73974
杳	-9.73979
孟子	-9.74084
江山	-9.74106
不在	-9.74281
開元	-9.74288
向曰	-9.74489
聞之	-9.74547
凋	-9.74652
忝	-9.74733
活	-9.74755
不堪	-9.74789
臧	-9.74796
鈞	-9.74816
邇	-9.7503
馭	-9.75059
酣	-9.75091
畝	-9.75096
春色	-9.75156
文武	-9.75162
繇	-9.75198
拱	-9.75211
妝	-9.75238
氛	-9.75302
男	-9.7534
溺	-9.75379
有時	-9.75416
突	-9.75454
森	-9.75483
羌	-9.75493
翰曰	-9.75533
薪	-9.75538
與之	-9.75542
者其	-9.7569
簪	-9.75701
普	-9.75762
太常	-9.75938
太宗	-9.75949
課	-9.7597
以其	-9.75986
綸	-9.76
聳	-9.76042
傳曰	-9.76108
祿	-9.76139
勅	-9.76286
西湖	-9.76378
未必	-9.76489
沐	-9.76493
𨽻	-9.76505
敝	-9.76558
自是	-9.76597
遮	-9.76644
涯	-9.76711
跨	-9.76776
之文	-9.77009
金石	-9.77133
蟠	-9.77138
君王	-9.77188
嵐	-9.77288
風俗	-9.773
回首	-9.7731
之禮	-9.77371
豈無	-9.77373
醜	-9.7745
沃	-9.77527
䖍	-9.77705
博士	-9.77767
八十	-9.77907
山人	-9.77987
貶	-9.77996
自有	-9.78026
各有	-9.78273
衣冠	-9.7837
區區	-9.78505
十一	-9.78523
子之	-9.78605
天地之	-9.78606
袂	-9.78622
亟	-9.78666
墻	-9.78676
道中	-9.78701
相望	-9.78719
之名	-9.78774
侈	-9.78807
蒼蒼	-9.79001
騷	-9.79031
至于	-9.79082
遁	-9.79247
柏	-9.79371
鳩	-9.79374
庾	-9.79418
使者	-9.79428
娥	-9.79443
從事	-9.79471
冊	-9.79509
不聞	-9.79587
中書	-9.79709
鷹	-9.7971
嗜	-9.79892
諌	-9.79921
傲	-9.79946
見其	-9.80063
是時	-9.80087
羨	-9.80226
岫	-9.80226
臘	-9.80232
轡	-9.80247
閲	-9.803
圭	-9.80319
為君	-9.80349
煥	-9.80445
鴛鴦	-9.80464
欵	-9.80472
遜	-9.80495
㓜	-9.80718
槎	-9.80766
拾	-9.80787
株	-9.80795
闈	-9.80806
揖	-9.80855
受命	-9.80861
罰	-9.80916
之大	-9.80953
怡	-9.81114
抽	-9.81274
媿	-9.8131
慧	-9.81316
十七	-9.81356
奥	-9.81387
車馬	-9.81534
咨	-9.81584
楹	-9.81612
之志	-9.81718
數十	-9.81727
偕	-9.81731
磬	-9.81822
杏	-9.81838
戾	-9.81841
偷	-9.81882
濫	-9.82011
五色	-9.82152
椒	-9.82267
咽	-9.82343
觧	-9.82358
仇	-9.82435
白髪	-9.82467
即事	-9.82516
寒食	-9.82565
宗廟	-9.82567
何為	-9.8275
倡	-9.82923
蕭條	-9.82929
珪	-9.82982
皆有	-9.83027
者乎	-9.83038
銑曰	-9.83056
衮	-9.83061
江水	-9.83167
青雲	-9.83227
從此	-9.83385
暝	-9.8342
别離	-9.83421
誘	-9.83472
摘	-9.83517
盗	-9.83523
尸	-9.83551
坡	-9.83676
怯	-9.83681
海上	-9.83801
僚	-9.83819
梧	-9.8382
黑	-9.83901
團	-9.83964
良曰	-9.83966
麾	-9.83972
儼	-9.84112
函	-9.84273
叩	-9.84286
古者	-9.84297
畜	-9.84379
焦	-9.8451
儻	-9.84562
山下	-9.84616
無復	-9.84632
四首	-9.84659
史記	-9.84692
敞	-9.84707
賦詩	-9.84715
鋪	-9.84788
街	-9.84817
耳目	-9.84854
歸去	-9.84952
漿	-9.84975
鞍	-9.85033
注曰	-9.85054
従	-9.85075
笙	-9.85078
員	-9.85138
花開	-9.85209
斑	-9.85272
登臨	-9.85329
捕	-9.85348
滄海	-9.85354
梯	-9.85356
秋水	-9.85415
文字	-9.8546
匠	-9.85477
棘	-9.85613
詭	-9.85641
訟	-9.85662
柄	-9.85727
䟽	-9.85742
汲	-9.85779
牢	-9.85867
牕	-9.85897
窓	-9.85958
詐	-9.85964
軀	-9.8598
窟	-9.86018
兔	-9.86036
浴	-9.86046
額	-9.86176
罕	-9.86185
未知	-9.86274
之子	-9.86449
鑑	-9.86558
聨	-9.86737
一笑	-9.86783
闊	-9.86841
臥	-9.86892
裕	-9.86911
僻	-9.86952
詩書	-9.87
巫	-9.87005
析	-9.87087
朽	-9.87094
陌	-9.87124
而自	-9.87162
駿	-9.87179
山林	-9.87193
萌	-9.87253
縷	-9.87448
奈	-9.87499
梵	-9.87552
亞	-9.87571
註	-9.87582
簫	-9.87647
荀	-9.87692
湏	-9.87728
鬼神	-9.8776
斧	-9.87766
㧞	-9.8777
菜	-9.8778
一旦	-9.87809
饗	-9.87856
稻	-9.87858
去年	-9.87877
謡	-9.87915
天台	-9.87954
門前	-9.88038
堯舜	-9.88096
者以	-9.8813
不必	-9.88131
之盛	-9.88248
君不見	-9.88278
即位	-9.88284
三代	-9.88394
者非	-9.88417
坤	-9.88465
頽	-9.88484
猶有	-9.88492
也然	-9.88533
輟	-9.88542
金陵	-9.88545
専	-9.88575
中原	-9.88658
冶	-9.88685
乎其	-9.88702
犀	-9.8872
千萬	-9.88721
忩	-9.88732
囚	-9.88748
邵	-9.8875
出門	-9.88807
道路	-9.88863
執事	-9.88878
人情	-9.88922
諸公	-9.89005
風塵	-9.89171
萬古	-9.89194
祇	-9.8924
云云	-9.89352
沛	-9.8941
其為	-9.89426
不至	-9.89479
勵	-9.89611
昇	-9.89645
之説	-9.89664
寃	-9.89685
塲	-9.89687
萬國	-9.89897
以下	-9.8995
𤓰	-9.89955
造化	-9.90142
収	-9.90229
拒	-9.90316
仲尼	-9.90385
組	-9.90405
霍	-9.9041
太尉	-9.9049
測	-9.90561
諸生	-9.90606
沼	-9.90637
及其	-9.90664
郢	-9.90667
西南	-9.90693
咏	-9.90715
豹	-9.90742
沿	-9.90804
蔬	-9.90966
緯	-9.91016
芬	-9.91024
若夫	-9.91039
螢	-9.91205
又有	-9.91379
籌	-9.91412
控	-9.91414
掖	-9.9151
揆	-9.91652
佳人	-9.91652
絡	-9.91659
畿	-9.91682
萍	-9.91718
一片	-9.91744
措	-9.91802
者則	-9.91908
曰此	-9.92017
六年	-9.92122
與君	-9.92196
臻	-9.92201
得之	-9.92237
㑹稽	-9.92276
冝	-9.92448
揚州	-9.92465
君子之	-9.92477
窻	-9.92477
西北	-9.92502
寅	-9.92504
紆	-9.92531
司空	-9.92539
鷺	-9.92599
而不能	-9.92617
綏	-9.9264
之下	-9.92675
梢	-9.9269
知之	-9.92704
不覺	-9.92773
汀	-9.92809
距	-9.92856
徂	-9.92881
人事	-9.93027
詩云	-9.93029
何足	-9.93054
於人	-9.9311
珮	-9.93135
東海	-9.93142
儔	-9.93189
耆	-9.93192
矣而	-9.93246
奕	-9.93264
托	-9.9336
士大夫	-9.93513
濟曰	-9.93564
烹	-9.93592
灣	-9.93604
蜂	-9.93632
毛詩曰	-9.93637
讒	-9.93731
滌	-9.93759
今朝	-9.93947
顔色	-9.94085
恢	-9.94116
先王	-9.94119
二人	-9.94258
楓	-9.94265
怠	-9.94278
九月	-9.94295
未得	-9.94316
鎖	-9.94361
嵗月	-9.94373
蔓	-9.94398
道人	-9.94398
武王	-9.94402
謗	-9.94416
亦何	-9.94422
靣	-9.94468
淹	-9.94468
縱横	-9.94496
穹	-9.94535
懶	-9.9454
萬年	-9.94545
文學	-9.94576
他日	-9.94868
榆	-9.94898
岀	-9.94907
纂	-9.9492
紗	-9.94936
子弟	-9.94946
鯨	-9.94987
五百	-9.95002
噫	-9.95105
矧	-9.95159
軫	-9.95163
刺史	-9.95185
濵	-9.95224
前後	-9.95228
門外	-9.95232
䕃	-9.9528
刃	-9.95372
豁	-9.95381
砌	-9.95401
奢	-9.95423
蕙	-9.95435
日夜	-9.95443
之故	-9.95486
銘曰	-9.9551
之餘	-9.95511
上書	-9.95546
往來	-9.95558
矣然	-9.95561
人主	-9.95598
橘	-9.95608
猶未	-9.9565
不忘	-9.95657
不幸	-9.95737
藴	-9.95746
秋色	-9.95815
冲	-9.95815
譜	-9.9586
公曰	-9.9586
陷	-9.95862
豔	-9.95909
今之	-9.95949
者有	-9.96166
截	-9.96201
之美	-9.96246
啄	-9.96287
瑤	-9.96297
不待	-9.96374
貳	-9.96468
汴	-9.96528
諷	-9.96561
孚	-9.96669
從容	-9.9668
王孫	-9.96707
娶	-9.96732
聼	-9.96735
蹇	-9.96745
庻	-9.96745
青青	-9.96746
漠	-9.96753
豆	-9.96768
道之	-9.96799
忙	-9.96831
壞	-9.96913
湖上	-9.9698
闇	-9.96983
閭	-9.97009
汾	-9.97095
坊	-9.97118
朝夕	-9.97123
什	-9.9719
譬	-9.97219
中丞	-9.97221
丹青	-9.97227
恬	-9.97228
萬事	-9.97231
一枝	-9.97246
誰家	-9.97273
秋日	-9.97278
廓	-9.9734
一聲	-9.97347
歌舞	-9.97403
之勢	-9.97534
翩翩	-9.97573
於世	-9.97574
之情	-9.97593
題詩	-9.97716
筠	-9.97868
驟	-9.97869
之民	-9.97871
打	-9.97944
梓	-9.97946
司徒	-9.98018
二子	-9.9807
其意	-9.98093
惟有	-9.9817
艾	-9.98179
鬚	-9.9819
菱	-9.98204
一曲	-9.98269
蔚	-9.98276
不言	-9.98336
埃	-9.98376
俠	-9.98391
羙	-9.98446
對曰	-9.98477
渺	-9.98517
膠	-9.9853
濡	-9.98572
衷	-9.98575
炳	-9.98575
日日	-9.98613
不與	-9.98681
堦	-9.98695
纒	-9.98743
膝	-9.98755
奄	-9.98818
誥	-9.98867
棟	-9.9889
頼	-9.98986
丈夫	-9.99016
空山	-9.99017
綬	-9.99032
主簿	-9.9904
茲	-9.9908
侍御	-9.99097
賢者	-9.99288
躡	-9.99331
有以	-9.99357
鮑	-9.99375
為我	-9.99426
此地	-9.99455
翫	-9.99523
汙	-9.99527
箴	-9.99653
狼	-9.99668
山之	-9.99682
黍	-9.99683
評	-9.99697
春草	-9.9989
風雲	-10.0001
太史	-10.0009
訴	-10.001
大將軍	-10.0028
翮	-10.0031
言曰	-10.0037
搜	-10.0047
悽	-10.0048
聘	-10.0053
札	-10.0055
莖	-10.0055
板	-10.0059
内外	-10.006
詢	-10.0062
冩	-10.0062
技	-10.007
乂	-10.0074
明堂	-10.0084
億	-10.0085
上有	-10.0086
庚	-10.0104
翦	-10.0113
其道	-10.0114
變化	-10.0118
凄	-10.0118
不易	-10.0122
栗	-10.0128
租	-10.0133
得失	-10.0136
於天下	-10.0138
其名	-10.0143
不須	-10.0147
粤	-10.0153
七月	-10.0156
甕	-10.0172
也若	-10.0174
蘇軾	-10.0177
甸	-10.0178
架	-10.0185
證	-10.0193
慨	-10.0196
之日	-10.0196
粹	-10.0203
而下	-10.0206
釵	-10.0211
税	-10.0219
清明	-10.0221
故事	-10.0227
婉	-10.0237
之可	-10.0238
九州	-10.025
不出	-10.0251
觀其	-10.0256
秀才	-10.0256
祁	-10.0256
虐	-10.0263
進退	-10.0276
誰知	-10.0276
若此	-10.0279
豈非	-10.028
䕫	-10.0284
胄	-10.0285
薰	-10.0287
箕	-10.0289
以成	-10.0294
吏部	-10.0314
渥	-10.0316
無限	-10.0322
不是	-10.0326
丕	-10.0327
單于	-10.0333
其志	-10.034
門下	-10.0341
判官	-10.0343
替	-10.0344
桞	-10.0344
剖	-10.0345
其文	-10.0365
山河	-10.0368
穢	-10.0368
處處	-10.0369
咫尺	-10.0371
欽定四庫全書	-10.0373
天之	-10.0375
溟	-10.0382
竝	-10.0384
相如	-10.0388
併	-10.0392
甞	-10.0396
捲	-10.0406
七年	-10.0411
江海	-10.0412
侍中	-10.0415
神明	-10.0415
相公	-10.042
恱	-10.042
青天	-10.0423
縮	-10.0427
長沙	-10.0429
山東	-10.043
五臣	-10.0434
臣之	-10.0436
騁	-10.0454
一夜	-10.0457
數百	-10.0458
薨	-10.0466
掾	-10.0471
箇	-10.0477
匿	-10.0478
馴	-10.048
慷慨	-10.0493
而成	-10.0494
太白	-10.0502
正月	-10.0505
檄	-10.0507
羸	-10.051
相對	-10.0514
牲	-10.0514
令人	-10.0515
乙	-10.0519
太學	-10.0525
畆	-10.0526
凱	-10.0529
零落	-10.0529
勑	-10.053
湧	-10.0536
之制	-10.0537
故其	-10.0543
故園	-10.0553
佞	-10.0554
頒	-10.0568
之内	-10.0569
沸	-10.057
翹	-10.058
政事	-10.0586
叨	-10.0589
頑	-10.059
浄	-10.0594
萃	-10.0596
者為	-10.0605
明朝	-10.0608
檀	-10.0609
太后	-10.061
其子	-10.0611
聖賢	-10.0611
逺近	-10.0615
先帝	-10.0617
不知其	-10.0619
研	-10.0619
綜	-10.0621
讐	-10.0626
癡	-10.0627
寔	-10.0627
山色	-10.0628
慢	-10.0632
懲	-10.0634
愆	-10.0636
十九	-10.0636
河東	-10.0637
歐陽	-10.064
閱	-10.0645
阮	-10.0649
沮	-10.0655
之學	-10.0673
百官	-10.0674
韜	-10.0675
蟻	-10.0675
隕	-10.0693
幣	-10.0698
隄	-10.07
依依	-10.072
上林	-10.0722
而能	-10.0724
瓶	-10.0724
黛	-10.0733
龍門	-10.0734
括	-10.0734
攬	-10.0737
一言	-10.0738
漠漠	-10.0741
逍遥	-10.0743
宇宙	-10.0743
妻子	-10.0747
硯	-10.0748
踵	-10.0755
瀾	-10.0756
并序	-10.0757
諡	-10.0761
鄒	-10.0766
不容	-10.0767
終身	-10.0773
覲	-10.0773
妓	-10.0784
屑	-10.0784
迂	-10.0786
絮	-10.0789
酸	-10.0794
十月	-10.0795
刋	-10.08
而巳	-10.0814
粧	-10.0814
誼	-10.0815
朴	-10.0815
挹	-10.0819
郷	-10.082
栢	-10.0826
其家	-10.0827
僕射	-10.0829
先王之	-10.0833
液	-10.0837
秋夜	-10.084
着	-10.0847
東山	-10.0847
世間	-10.0848
雛	-10.0849
十日	-10.085
鼻	-10.0851
褐	-10.0867
落葉	-10.0867
徼	-10.0868
畦	-10.0874
膚	-10.0875
滄浪	-10.0881
峙	-10.0883
牖	-10.0891
詩人	-10.0895
冕	-10.0896
弛	-10.0902
勃	-10.0911
蹄	-10.0914
殷勤	-10.0916
白首	-10.0928
友人	-10.0929
惻	-10.0934
江西	-10.0938
蘋	-10.0938
裝	-10.0943
何日	-10.0945
其二	-10.0945
湍	-10.0946
斾	-10.0948
也又	-10.095
平原	-10.096
城南	-10.0973
竄	-10.0976
昻	-10.0977
其餘	-10.0987
其所以	-10.0989
塵埃	-10.0993
分明	-10.0994
失其	-10.0996
時有	-10.1002
昨夜	-10.1004
懇	-10.1008
雖然	-10.1008
屐	-10.102
人有	-10.102
亨	-10.1034
庶幾	-10.1035
榜	-10.1036
攘	-10.1044
之術	-10.1047
一年	-10.1049
未及	-10.1056
幽人	-10.1056
春水	-10.1056
彤	-10.1058
狹	-10.1061
飲酒	-10.1063
卦	-10.1066
淸	-10.1079
轂	-10.1082
鵠	-10.1082
中興	-10.1093
粲	-10.1102
蛟	-10.1108
一二	-10.111
此詩	-10.112
有感	-10.1139
九重	-10.1142
樓臺	-10.1142
恕	-10.1148
消息	-10.1149
拍	-10.1151
若是	-10.1156
王子	-10.1164
􁀙	-10.1165
下有	-10.1167
囂	-10.1176
玊	-10.1177
䑓	-10.1181
狗	-10.1182
瑩	-10.1198
而去	-10.12
擲	-10.1201
葦	-10.1204
而不知	-10.1206
瀟湘	-10.1207
狎	-10.1208
巒	-10.1213
掠	-10.1223
長史	-10.1224
周禮	-10.1226
之理	-10.1234
慿	-10.1234
有序	-10.1236
柴	-10.1241
俞	-10.1241
貝	-10.1243
携	-10.1243
駒	-10.1252
認	-10.1261
䦨	-10.1269
文粹	-10.127
雲中	-10.1279
上帝	-10.128
萬世	-10.1285
以求	-10.13
醇	-10.1306
寂寥	-10.1311
之才	-10.1314
歎息	-10.1333
算	-10.1334
驂	-10.1335
嬉	-10.1336
餞	-10.1338
裾	-10.1339
撥	-10.1343
英雄	-10.1355
鵬	-10.1359
千秋	-10.1359
辜	-10.1361
漾	-10.1364
白馬	-10.1364
幻	-10.1365
将軍	-10.1373
之矣	-10.1374
莫能	-10.1376
填	-10.1378
不受	-10.1379
士之	-10.1379
碩	-10.1383
墀	-10.1388
鄴	-10.1395
布衣	-10.1398
埽	-10.1399
䑕	-10.1402
嚮	-10.1407
蚤	-10.1409
南陽	-10.1418
衣裳	-10.1421
係	-10.1427
寐	-10.143
鷄	-10.1438
閔	-10.1439
礙	-10.144
百萬	-10.1442
餌	-10.1449
漂	-10.1455
白髮	-10.1457
緬	-10.1465
公主	-10.1468
都督	-10.1474
峭	-10.1478
幅	-10.1481
員外	-10.1485
城中	-10.1487
豈有	-10.1487
暨	-10.1496
當世	-10.1508
驥	-10.1508
再拜	-10.1526
六經	-10.1532
腐	-10.1535
十萬	-10.1544
未可	-10.1544
篁	-10.1544
稅	-10.1553
之初	-10.1556
漆	-10.1557
十餘	-10.1558
鉅	-10.1559
陛	-10.156
簿	-10.1563
詰	-10.1564
寂寂	-10.1565
茅屋	-10.1567
掛	-10.1567
狄	-10.1567
多少	-10.157
蠧	-10.1571
迺	-10.1577
江東	-10.1582
黄河	-10.159
元和	-10.1592
廬山	-10.1595
炊	-10.16
干戈	-10.1602
昔者	-10.1628
從之	-10.163
有功	-10.1635
以示	-10.1649
皇上	-10.1654
庫	-10.166
佇	-10.1666
襄陽	-10.1671
禱	-10.1672
段	-10.1676
奉和	-10.1677
誰與	-10.1681
之氣	-10.1682
辦	-10.1691
羲	-10.1704
東坡	-10.1704
坎	-10.1705
睦	-10.1706
所居	-10.1719
鉤	-10.1723
寰	-10.1733
耿	-10.1735
者矣	-10.1739
航	-10.1741
或曰	-10.1745
逋	-10.1747
韓愈	-10.1752
潰	-10.1759
成功	-10.176
牒	-10.1779
太原	-10.1783
廼	-10.1784
夢中	-10.1786
之難	-10.179
夜深	-10.1792
懽	-10.1797
葵	-10.1806
節度	-10.1807
之罪	-10.1809
眇	-10.181
軾	-10.1811
終不	-10.1817
四百	-10.1819
姜	-10.1824
槩	-10.1834
藍	-10.1836
旄	-10.1837
筍	-10.1837
作詩	-10.1838
漢書曰	-10.1844
一切	-10.1846
溜	-10.1852
鸚鵡	-10.1853
鑾	-10.1854
卉	-10.1855
憚	-10.1856
鬭	-10.1862
脂	-10.1865
之樂	-10.1869
戢	-10.1872
扣	-10.1876
李白	-10.1885
若乃	-10.189
新詩	-10.1901
不暇	-10.1909
父老	-10.1911
髯	-10.1917
不到	-10.1919
涇	-10.1923
迭	-10.1925
版	-10.1928
翅	-10.1932
魁	-10.1932
百尺	-10.1936
奔走	-10.194
薫	-10.1949
獨立	-10.1955
潁	-10.1967
之變	-10.197
俯仰	-10.1975
雨露	-10.1975
粗	-10.198
崑崙	-10.1982
未央	-10.1983
琳	-10.1989
輯	-10.1993
唐虞	-10.2009
瀑	-10.2009
成都	-10.2014
衾	-10.2017
油	-10.202
聰	-10.2023
麓	-10.2025
迅	-10.2026
寒暑	-10.203
怕	-10.2047
厓	-10.2048
抛	-10.2048
寇	-10.2056
所為	-10.2058
羮	-10.206
姓名	-10.2061
誨	-10.2065
透	-10.2066
四月	-10.2073
晉書	-10.2073
於今	-10.2076
汚	-10.208
郵	-10.2094
之類	-10.2099
欲以	-10.2102
酷	-10.2102
謾	-10.2105
隘	-10.211
貯	-10.211
窈窕	-10.2115
茗	-10.2126
之患	-10.2134
之本	-10.2136
人以	-10.2142
芽	-10.2143
城郭	-10.2155
驪	-10.2156
之用	-10.2169
無一	-10.2169
不朽	-10.217
簇	-10.2173
於天	-10.2182
弭	-10.2183
娛	-10.2184
不顧	-10.2193
翩	-10.2196
無聲	-10.2198
媒	-10.2203
蛟龍	-10.2203
一身	-10.2206
膽	-10.221
萊	-10.2216
既而	-10.2227
邸	-10.2228
艇	-10.223
孤舟	-10.2231
王者	-10.2234
而未	-10.2237
致仕	-10.2238
風起	-10.2239
膳	-10.224
泗	-10.2242
緜	-10.2247
級	-10.2249
瀆	-10.2251
裙	-10.2252
悵	-10.2254
如今	-10.2257
之謂	-10.2259
欹	-10.2263
不死	-10.2267
稼	-10.2268
鏤	-10.227
𦵏	-10.227
刼	-10.2271
此日	-10.2273
濬	-10.2275
何由	-10.228
漕	-10.2289
篷	-10.229
則其	-10.2291
捷	-10.2296
枚	-10.2296
頴	-10.2296
光武	-10.231
不歸	-10.2312
賔客	-10.2312
蹙	-10.2312
橫	-10.2315
搆	-10.2316
天道	-10.2316
不動	-10.2317
擒	-10.2319
旌旗	-10.232
天命	-10.2325
笳	-10.2331
泰山	-10.2332
兎	-10.2337
坦	-10.2337
使之	-10.2346
鋤	-10.2356
帝王	-10.2366
玉堂	-10.2375
繪	-10.238
人所	-10.2382
居士	-10.2388
之說	-10.239
生於	-10.2393
駢	-10.2399
覓	-10.2404
公孫	-10.2406
衫	-10.2416
雲山	-10.2419
跳	-10.2422
瑕	-10.243
瘴	-10.2437
秋月	-10.2446
敲	-10.2456
丸	-10.246
字子	-10.2467
觀之	-10.2468
天子之	-10.2471
丙	-10.2474
六合	-10.2476
東方	-10.2477
之徳	-10.248
曳	-10.2481
於時	-10.2481
斜陽	-10.2503
匣	-10.2505
劔	-10.2508
僉	-10.2518
應制	-10.2518
煖	-10.2518
逄	-10.2525
在於	-10.2525
郡縣	-10.2527
年七	-10.2539
煙霞	-10.254
翟	-10.2543
死者	-10.2545
山寺	-10.2546
愍	-10.255
物之	-10.2551
荆州	-10.2551
精神	-10.2552
同心	-10.2554
矣夫	-10.2555
霏	-10.2572
舂	-10.2575
皇后	-10.2577
樸	-10.2577
見之	-10.2589
煮	-10.259
閉門	-10.2591
副使	-10.2593
有道	-10.2597
於斯	-10.2603
野人	-10.2619
禀	-10.2619
苞	-10.2622
萬人	-10.2622
倪	-10.2624
猶在	-10.2625
未盡	-10.2625
三人	-10.2631
夜雨	-10.2637
禾	-10.2639
嗟乎	-10.2642
蔣	-10.2656
艷	-10.2662
童子	-10.2669
大小	-10.2671
京兆	-10.2681
腥	-10.2684
無心	-10.2692
八年	-10.27
斤	-10.27
論語	-10.2702
亦可	-10.271
灼	-10.2718
利害	-10.2719
武陵	-10.272
以待	-10.2721
春雨	-10.2732
醴	-10.2738
而不可	-10.2745
苖	-10.2748
中外	-10.2749
舟中	-10.275
幾時	-10.2752
皆以	-10.2753
二字	-10.2754
不免	-10.2763
彫	-10.2763
九十	-10.2769
撲	-10.2771
吁	-10.2772
若干	-10.2773
其實	-10.279
牘	-10.279
出處	-10.2799
白雪	-10.2803
演	-10.281
祕	-10.2811
曩	-10.2813
嶠	-10.2813
臣等	-10.2829
於上	-10.283
潦	-10.2833
之利	-10.2838
呂	-10.2844
輕重	-10.2847
旨	-10.2849
昂	-10.285
西京	-10.286
頸	-10.286
杏花	-10.2864
如故	-10.2869
本無	-10.2873
迢迢	-10.2879
其上	-10.2883
妨	-10.2889
文公	-10.2892
世事	-10.2893
所見	-10.2898
得以	-10.2899
五湖	-10.2909
白玉	-10.2911
錢塘	-10.2911
行之	-10.2919
死生	-10.2925
不失	-10.2929
國公	-10.2931
未足	-10.2933
禮記	-10.2938
無為	-10.2938
帯	-10.2939
王公	-10.2942
不行	-10.2943
縛	-10.2945
畵	-10.2947
戯	-10.2954
愴	-10.2958
髻	-10.2963
三尺	-10.2972
所在	-10.2974
老人	-10.2979
躋	-10.2988
飈	-10.299
白石	-10.2995
渴	-10.3
年少	-10.302
斯文	-10.3022
鍊	-10.3026
長江	-10.3026
釁	-10.3029
甘泉	-10.3031
惕	-10.3032
孔子曰	-10.3032
懋	-10.3035
瓢	-10.3037
諾	-10.3039
二十年	-10.3041
琢	-10.3042
轅	-10.3043
中流	-10.3047
遏	-10.3054
安能	-10.3065
意氣	-10.3066
豫章	-10.3073
訖	-10.3073
縣令	-10.3085
亥	-10.3085
亦無	-10.3089
簮	-10.3091
五言	-10.3094
所得	-10.3097
嘶	-10.3097
群	-10.3099
而又	-10.3103
雲氣	-10.3104
白居易	-10.3106
檜	-10.3108
昨日	-10.311
貂	-10.3111
自得	-10.3116
道也	-10.3128
餉	-10.3128
陞	-10.3128
馨	-10.3134
属	-10.3135
澆	-10.3135
浙	-10.3146
古詩	-10.3147
扶桑	-10.315
侔	-10.3152
塟	-10.3153
軰	-10.3163
此其	-10.3168
龎	-10.3171
釀	-10.3175
無情	-10.3187
老子	-10.3189
盆	-10.319
綽	-10.3195
州縣	-10.3197
時時	-10.3205
厨	-10.3215
簟	-10.3215
綃	-10.3223
貸	-10.3224
洋	-10.3225
賁	-10.3225
櫂	-10.3225
瀉	-10.3229
謚	-10.3231
不肖	-10.3232
豪傑	-10.3235
盡日	-10.3236
玉山	-10.3236
不當	-10.3243
芻	-10.3244
可也	-10.3246
他人	-10.3248
侮	-10.3248
沖	-10.3253
蠲	-10.3257
言者	-10.3261
蹊	-10.3263
林下	-10.3265
遣使	-10.3273
取其	-10.3281
又何	-10.3285
榛	-10.3288
而天下	-10.3289
軟	-10.3289
溪上	-10.3293
蘚	-10.3293
塢	-10.3294
細雨	-10.3294
緘	-10.3295
藹	-10.33
隐	-10.33
道徳	-10.33
犢	-10.3312
江漢	-10.3315
尼	-10.3322
琵琶	-10.3326
舍人	-10.3331
黯	-10.3337
㕘	-10.3338
聖主	-10.3339
月照	-10.3341
棗	-10.3345
艶	-10.335
籟	-10.3358
太師	-10.3359
北風	-10.3362
耗	-10.3363
而莫	-10.3368
題畫	-10.337
煎	-10.3372
誡	-10.3375
三十六	-10.3376
白露	-10.3377
狩	-10.3379
曼	-10.3379
髣髴	-10.3379
大道	-10.3383
者曰	-10.3395
終始	-10.3396
不遇	-10.3397
胸	-10.3398
惶	-10.3403
颺	-10.3408
知音	-10.3411
凖	-10.3411
忠臣	-10.3413
闔	-10.3414
時人	-10.3417
非有	-10.3418
五行	-10.3419
闡	-10.342
稚	-10.3421
汨	-10.343
滄洲	-10.343
磯	-10.3436
非所	-10.3438
五日	-10.3445
見寄	-10.3454
何當	-10.3454
挈	-10.3458
人者	-10.3461
之禍	-10.3462
棠	-10.3462
揚雄	-10.3463
而復	-10.3464
聞道	-10.3467
後人	-10.3475
雲間	-10.3476
不欲	-10.3476
池上	-10.3481
之論	-10.3481
求之	-10.3483
禮部	-10.3489
安知	-10.3489
牡丹	-10.349
雨中	-10.3498
篋	-10.3498
石上	-10.3507
人物	-10.3507
檣	-10.3509
漢之	-10.3511
濱	-10.3515
河北	-10.3521
鼇	-10.3531
茸	-10.3532
為韻	-10.3533
劾	-10.3534
離别	-10.3535
洒	-10.3535
鴨	-10.3537
祉	-10.354
之力	-10.3541
垢	-10.3545
久矣	-10.3546
歷	-10.3547
豈知	-10.3551
艱難	-10.3555
之書	-10.3563
登髙	-10.3564
從來	-10.3566
夜半	-10.3569
豈可	-10.3574
些	-10.3577
忿	-10.3578
逈	-10.3578
鄂	-10.3578
之命	-10.358
殫	-10.3581
與人	-10.3582
不信	-10.3594
靑	-10.3596
五首	-10.36
晞	-10.3601
鞏	-10.3607
巔	-10.3608
楚辭曰	-10.3611
歸路	-10.3613
飲食	-10.3613
珊瑚	-10.3617
沈約	-10.3619
王之	-10.3625
緝	-10.3628
憎	-10.3632
雨後	-10.3638
用兵	-10.3639
故能	-10.3639
盃	-10.3644
竦	-10.3652
穎	-10.3663
勾	-10.3663
上天	-10.3667
嶂	-10.3669
今古	-10.3671
飛鳥	-10.3675
何年	-10.3678
世人	-10.3679
紅塵	-10.368
名曰	-10.3685
功成	-10.3687
離離	-10.3689
祖宗	-10.3689
拾遺	-10.3689
床	-10.3691
嘲	-10.3694
送客	-10.3698
敕	-10.3699
蹕	-10.37
鋭	-10.3701
詩話	-10.3704
庵	-10.3707
亘	-10.3707
嗚呼哀哉	-10.3709
黄帝	-10.3717
九年	-10.3717
畱	-10.3721
竈	-10.3724
譚	-10.3726
翡翠	-10.3726
而已矣	-10.3727
貞元	-10.3731
馬上	-10.3733
恍	-10.3739
一字	-10.3742
儂	-10.3749
糾	-10.3751
復何	-10.3757
閒居	-10.3764
巵	-10.3773
有大	-10.3777
莎	-10.3779
其功	-10.3781
猜	-10.3785
蔵	-10.3786
訝	-10.3787
囿	-10.3799
見於	-10.3799
稜	-10.3803
以致	-10.3803
虬	-10.3805
蒼茫	-10.3805
有一	-10.3811
㝷	-10.3814
猨	-10.3817
鬟	-10.3819
迨	-10.3825
桀	-10.3827
將以	-10.3828
星辰	-10.3828
無由	-10.3832
賦得	-10.3833
而歸	-10.3834
禮義	-10.3846
周之	-10.3846
未嘗不	-10.3849
趾	-10.3855
有此	-10.3856
生死	-10.3857
覔	-10.3862
檐	-10.3864
溥	-10.3869
翠微	-10.387
我心	-10.3871
漳	-10.3879
肌	-10.388
府君	-10.3883
傷心	-10.3883
日出	-10.3884
山居	-10.3885
公以	-10.3885
相國	-10.3891
夜月	-10.3892
蘂	-10.3895
冐	-10.3904
殺之	-10.3907
之政	-10.3912
閤	-10.3913
以是	-10.3921
一家	-10.3927
輅	-10.3933
自知	-10.3935
於是乎	-10.3935
何也	-10.3943
成王	-10.3945
此心	-10.3945
洎	-10.3951
盪	-10.3953
葩	-10.3956
樂天	-10.3957
之衆	-10.3958
鉞	-10.3958
秪	-10.3963
為大	-10.3966
為文	-10.3972
深處	-10.3974
之末	-10.3974
皇甫	-10.3975
撓	-10.3977
也吾	-10.3983
江頭	-10.3985
何用	-10.3987
岱	-10.3989
不作	-10.399
梨	-10.3997
咸陽	-10.4001
雨過	-10.4006
矩	-10.4016
之業	-10.4022
數年	-10.4028
瞰	-10.4031
悠然	-10.4032
番	-10.4037
其下	-10.4038
不可得	-10.4043
稷	-10.4044
陽春	-10.4049
裹	-10.405
睂	-10.405
水流	-10.4051
六百	-10.4052
春光	-10.4052
耻	-10.4053
眩	-10.4057
北山	-10.4059
肝	-10.4064
議者	-10.4064
東都	-10.4066
縹緲	-10.4067
奬	-10.4068
此身	-10.4078
起居	-10.408
倘	-10.408
言其	-10.4081
亭亭	-10.4085
我欲	-10.4088
蓑	-10.4094
骨肉	-10.4097
歆	-10.4105
者又	-10.4114
為國	-10.4119
桃源	-10.4122
坂	-10.4136
殁	-10.4141
倩	-10.4148
皎	-10.4151
舅	-10.4157
朱子	-10.4161
拯	-10.4161
之節	-10.4162
模	-10.4164
班固	-10.4167
元氣	-10.4173
呌	-10.4174
十餘年	-10.4175
誌	-10.4178
世祖	-10.418
為誰	-10.4187
知君	-10.4192
聿	-10.4197
漢家	-10.4206
聰明	-10.4213
不絶	-10.4214
若有	-10.4215
帽	-10.4216
徇	-10.4218
護	-10.4219
之任	-10.4222
隊	-10.4223
紋	-10.4223
議論	-10.4228
婦人	-10.4235
衆人	-10.4235
高祖	-10.4237
扈	-10.4237
胡為	-10.4239
洪武	-10.4245
之世	-10.4245
豕	-10.4248
斛	-10.4253
揭	-10.4254
乃知	-10.4255
之計	-10.4259
忠信	-10.4262
慵	-10.4264
藪	-10.4266
以上	-10.4269
百世	-10.427
稽首	-10.4275
彛	-10.4282
日落	-10.4284
秘書	-10.4289
倐	-10.43
荘	-10.4302
瀛	-10.4303
與其	-10.4325
古木	-10.4327
柴門	-10.4327
年六	-10.4328
黄花	-10.4331
宥	-10.4332
婁	-10.4336
也則	-10.4338
何其	-10.4342
冢	-10.4346
甄	-10.4347
之能	-10.4347
嬾	-10.4349
惱	-10.435
㟁	-10.435
弑	-10.4351
風月	-10.4351
公為	-10.4351
次第	-10.4352
故國	-10.4355
盼	-10.4355
為政	-10.4359
慣	-10.4364
釐	-10.4368
於外	-10.4369
取之	-10.4373
禪師	-10.4376
千餘	-10.4378
俸	-10.4382
而可	-10.4383
梳	-10.4386
燎	-10.4391
淹留	-10.4395
貺	-10.4398
飭	-10.4399
不厭	-10.44
者哉	-10.4401
其地	-10.4406
鳯凰	-10.4406
不通	-10.4409
一何	-10.441
粒	-10.4413
還家	-10.4414
夜夜	-10.4417
臣竊	-10.4418
尚書曰	-10.4418
之辭	-10.4422
斯人	-10.4423
謳	-10.4426
無遺	-10.4426
之遺	-10.4435
庖	-10.4437
紂	-10.4437
蟾	-10.4439
悖	-10.444
由來	-10.4441
尚有	-10.4441
牋	-10.4442
在天	-10.4446
方今	-10.4447
泯	-10.445
先生之	-10.4452
也且	-10.4452
則不	-10.4457
渝	-10.4458
不應	-10.4459
南國	-10.4461
不合	-10.4463
月色	-10.4475
棺	-10.4478
鞅	-10.4484
少府	-10.4486
浹	-10.4495
功臣	-10.4495
駟	-10.4495
罹	-10.4496
梧桐	-10.4497
卯	-10.4501
募	-10.4504
緇	-10.4507
欠	-10.4508
絶句	-10.4509
借問	-10.4511
笠	-10.4513
依舊	-10.4514
明主	-10.4521
霖	-10.4523
閶闔	-10.4524
閟	-10.4527
至此	-10.4532
鞠	-10.4533
生民	-10.4534
紳	-10.4537
㠶	-10.4538
諸子	-10.4544
一篇	-10.4546
杞	-10.4551
月下	-10.4561
陀	-10.4562
須臾	-10.4563
所以為	-10.4564
浩蕩	-10.4574
别有	-10.4579
鉛	-10.4582
視之	-10.4597
複	-10.4598
其大	-10.46
不解	-10.4612
都尉	-10.4614
相從	-10.462
於其	-10.462
壮	-10.4623
搏	-10.4624
三山	-10.4629
或有	-10.4629
忤	-10.4634
殖	-10.4639
三公	-10.465
欒	-10.4652
田家	-10.4655
人之所	-10.4657
百餘	-10.4658
姪	-10.4659
可為	-10.466
讎	-10.4663
天人	-10.4669
冉冉	-10.4678
莊子	-10.4693
逶迤	-10.4694
夏日	-10.4696
古文	-10.47
宫中	-10.4701
昔人	-10.4702
巫山	-10.4704
雖不	-10.4705
漫漫	-10.4708
其勢	-10.4708
治之	-10.4711
之使	-10.4721
唐書	-10.4723
無處	-10.4731
鼠	-10.4735
無可	-10.4737
文章辨體彚選巻	-10.474
寮	-10.4742
不獲	-10.4743
志曰	-10.4747
先後	-10.4754
匱	-10.4755
鬻	-10.4764
噴	-10.4768
吾子	-10.477
兇	-10.4771
名山	-10.4772
宣帝	-10.4774
王氏	-10.4776
縫	-10.4781
塵土	-10.4789
店	-10.4789
讌	-10.4791
三軍	-10.4794
而求	-10.4796
十二月	-10.4797
蛾	-10.4797
伏惟	-10.4801
帙	-10.4803
唯有	-10.4805
不若	-10.4807
雞鳴	-10.4808
𣺌	-10.4808
拊	-10.4809
軼	-10.4811
當其	-10.4816
跋	-10.4821
庇	-10.4827
周旋	-10.4834
秋聲	-10.4841
天寒	-10.4844
北斗	-10.4849
系	-10.4851
諸將	-10.4854
葱	-10.4856
其可	-10.4856
之風	-10.4856
文苑英華巻	-10.4857
幄	-10.4858
春來	-10.4858
登樓	-10.4866
道者	-10.4871
潺湲	-10.4871
鑠	-10.4871
甌	-10.4872
馬蹄	-10.4878
不亦	-10.4878
稠	-10.4879
黔	-10.4884
江陵	-10.4891
歙	-10.4893
㓂	-10.4894
楊柳	-10.4894
孽	-10.4905
摇	-10.4907
衣食	-10.4909
廣陵	-10.4909
伎	-10.4909
也臣	-10.4918
可見	-10.4923
殺人	-10.4926
蒼生	-10.4928
髙樓	-10.4931
三十年	-10.4932
棊	-10.4936
茹	-10.4939
繆	-10.4943
性命	-10.4946
擕	-10.4951
于是	-10.4955
妬	-10.4955
我亦	-10.4957
螭	-10.496
闥	-10.496
王道	-10.4961
暄	-10.4963
謠	-10.4966
死而	-10.4967
然也	-10.497
置酒	-10.4971
燧	-10.4971
矣今	-10.4971
藁	-10.4974
寘	-10.4982
無疆	-10.4983
紈	-10.4989
其才	-10.4989
醪	-10.4996
的	-10.4997
夸	-10.4999
梗	-10.5
牛羊	-10.5002
苕	-10.5003
安可	-10.5004
但見	-10.5004
炙	-10.5004
三代之	-10.5005
則是	-10.5006
陜	-10.5008
訣	-10.5009
憶昔	-10.501
淵明	-10.5011
𦙍	-10.5014
馥	-10.5018
悵望	-10.5024
化為	-10.5029
其本	-10.5032
甲子	-10.5035
之數	-10.5036
甘露	-10.5037
昊	-10.504
青春	-10.5041
詔書	-10.5043
一巻	-10.5044
姑蘇	-10.5048
孝子	-10.5051
看花	-10.5054
盍	-10.5056
不許	-10.5065
賚	-10.5067
十載	-10.5076
蒼苔	-10.508
葺	-10.5081
鄉里	-10.5082
於前	-10.5083
趂	-10.5084
之屬	-10.5085
七百	-10.5089
之弊	-10.5093
猥	-10.5094
長者	-10.5095
我皇	-10.5098
何須	-10.5099
而死	-10.5101
御定全唐詩巻	-10.5101
未聞	-10.5103
辛苦	-10.5106
砧	-10.5107
二三	-10.5108
鳳凰	-10.5109
耽	-10.5111
蠟	-10.5115
海棠	-10.5118
弩	-10.5119
璞	-10.5127
剥	-10.5132
萬壑	-10.5133
渙	-10.5136
餓	-10.5137
行行	-10.5137
太和	-10.5138
上方	-10.514
蒿	-10.5142
插	-10.5143
孤城	-10.5144
不改	-10.5145
逞	-10.5145
貴賤	-10.5146
風光	-10.5153
雌	-10.5155
覃	-10.5163
藕	-10.517
纖	-10.5172
獨有	-10.5177
所欲	-10.5179
塊	-10.518
自謂	-10.5184
古來	-10.5188
償	-10.5192
朙	-10.5193
伺	-10.5194
噐	-10.5195
而弗	-10.5195
曰我	-10.52
挿	-10.52
之師	-10.5201
而得	-10.521
衙	-10.521
指揮	-10.5217
五帝	-10.5217
茫	-10.5218
固有	-10.5218
悍	-10.5224
蓮花	-10.5227
豈能	-10.5229
左傳	-10.523
三王	-10.5236
為一	-10.5238
未見	-10.5238
日夕	-10.5243
依然	-10.5243
儒者	-10.5245
圜	-10.5248
邯鄲	-10.5248
少卿	-10.5254
在位	-10.5257
雲雨	-10.5257
語曰	-10.5258
迄	-10.5259
有三	-10.526
山谷	-10.5261
二十四	-10.5261
自憐	-10.5273
貧賤	-10.5275
知已	-10.5289
廹	-10.529
杉	-10.5292
霰	-10.5292
獨坐	-10.5292
中郎	-10.53
風波	-10.5313
臨水	-10.5322
著書	-10.5329
墓誌銘	-10.5332
燕子	-10.5333
對酒	-10.5335
松風	-10.5335
剡	-10.5342
邃	-10.5343
賈誼	-10.5344
一杯	-10.5345
寤	-10.5354
廡	-10.5356
五雲	-10.5356
邱	-10.5357
於後	-10.5358
兒女	-10.5359
贍	-10.536
皋	-10.5366
崔嵬	-10.537
以明	-10.5375
其一	-10.5378
敘	-10.5382
燈火	-10.5384
曄	-10.5386
飄飄	-10.539
庾信	-10.5392
之始	-10.5397
皷	-10.54
君家	-10.5401
始知	-10.5402
三四	-10.5404
貞觀	-10.5404
慨然	-10.5411
琅	-10.5415
有客	-10.5423
自此	-10.5424
皇太子	-10.5424
憔悴	-10.5428
掇	-10.5431
以相	-10.5439
聖明	-10.5441
梟	-10.5443
臨川	-10.5443
蟄	-10.5443
無極	-10.5444
其有	-10.5448
娯	-10.545
蝕	-10.5451
嶼	-10.5455
僊	-10.5457
年來	-10.546
憩	-10.5461
載酒	-10.5461
是為	-10.5464
月夜	-10.5466
貎	-10.5466
鈴	-10.5468
彪	-10.5468
氊	-10.547
數千	-10.5472
十一月	-10.5472
岩	-10.5472
多士	-10.5475
生涯	-10.5477
筮	-10.5479
法度	-10.5483
䧟	-10.5484
暎	-10.5485
教授	-10.5489
拳	-10.5492
般	-10.5493
無言	-10.5496
鴛	-10.5502
曲江	-10.5503
重陽	-10.5503
善惡	-10.5504
刹	-10.5504
萬户	-10.5517
也哉	-10.5517
該	-10.5526
罄	-10.5527
愜	-10.5533
憫	-10.5535
第二	-10.5538
不宜	-10.5538
苛	-10.5538
之恩	-10.5543
晝夜	-10.5555
者何	-10.5556
壯士	-10.5557
奎	-10.5561
而言	-10.5564
匝	-10.5568
大江	-10.5568
焚香	-10.5576
孺	-10.5579
之重	-10.558
山頭	-10.5587
從軍	-10.5594
太傅	-10.5597
峩	-10.5598
熾	-10.5605
一生	-10.5607
邕	-10.5613
笋	-10.5614
飇	-10.562
已而	-10.5624
繭	-10.5625
何者	-10.5627
無異	-10.5628
貴人	-10.5628
滕	-10.5628
癸	-10.5631
其先	-10.5637
舘	-10.5641
風景	-10.5646
以禮	-10.5651
磧	-10.5652
白鷗	-10.5662
宛轉	-10.5668
御史大夫	-10.5669
濺	-10.568
浚	-10.5683
相識	-10.5685
饋	-10.5686
鐸	-10.5688
别後	-10.5697
樓上	-10.5697
畫圖	-10.5702
長松	-10.5703
不起	-10.5704
月中	-10.5705
鐡	-10.5705
石門	-10.5706
臨風	-10.5709
我來	-10.5711
以聞	-10.5712
筭	-10.5714
婚	-10.572
求其	-10.5722
八百	-10.5723
騫	-10.5727
秦漢	-10.5729
狡	-10.5729
山隂	-10.5747
冗	-10.5748
渡江	-10.5749
誰為	-10.575
相看	-10.5752
銳	-10.5754
所能	-10.5756
朶	-10.5756
册	-10.5758
女子	-10.5765
綰	-10.577
聯	-10.577
爾雅曰	-10.5779
箋	-10.5781
銀河	-10.5785
蹟	-10.5787
舊遊	-10.5787
又云	-10.5795
遞	-10.5795
㕔	-10.5797
然其	-10.5797
以文	-10.5797
萬方	-10.5798
未至	-10.5802
賢人	-10.5804
朋友	-10.5807
掉	-10.5809
胎	-10.5814
可知	-10.5815
大抵	-10.5816
於朝	-10.5817
亦以	-10.5818
派	-10.5818
經營	-10.5818
萬頃	-10.5819
之位	-10.582
未歸	-10.5822
送李	-10.5837
矣故	-10.5841
寥	-10.5846
為天下	-10.585
未易	-10.585
與子	-10.585
得意	-10.5854
幾何	-10.5856
之官	-10.5858
也昔	-10.586
刪	-10.5866
老去	-10.5866
波濤	-10.587
賖	-10.5872
未成	-10.5872
笻	-10.5874
線	-10.588
江流	-10.5888
訛	-10.5888
喬木	-10.5889
貲	-10.5892
鎭	-10.5894
焉而	-10.5894
殞	-10.5895
教之	-10.5897
故也	-10.5902
歌曰	-10.5903
所宜	-10.5904
秋草	-10.5904
禎	-10.5906
四夷	-10.5912
臆	-10.5912
南海	-10.5915
南京	-10.5916
翕	-10.5916
豎	-10.5918
非其	-10.5923
戰國	-10.5928
送君	-10.593
曵	-10.5931
教化	-10.5935
竹林	-10.5938
菲	-10.5943
莫敢	-10.5943
叱	-10.5945
河漢	-10.5946
白鶴	-10.5964
其能	-10.5967
蛩	-10.5969
集賢	-10.5969
半夜	-10.5974
㢘	-10.5975
嫩	-10.5981
不求	-10.5984
榭	-10.5989
庠	-10.5991
羽翼	-10.5994
其義	-10.6
而作	-10.6004
賞罰	-10.6005
何有	-10.6007
楫	-10.601
蹉跎	-10.6011
此意	-10.6013
而欲	-10.6013
作者	-10.6015
以告	-10.6016
不能自	-10.6019
碧雲	-10.602
之妙	-10.6021
新安	-10.6022
譯	-10.6024
得一	-10.6024
賂	-10.6027
贖	-10.603
杪	-10.6033
從而	-10.6035
閬	-10.604
偶然	-10.6041
隨風	-10.6044
厄	-10.6047
髓	-10.6048
玲瓏	-10.605
惰	-10.605
跪	-10.6057
王母	-10.606
一見	-10.6061
黄葉	-10.6062
制度	-10.6064
契丹	-10.607
彭城	-10.6074
殄	-10.6076
其父	-10.6078
不息	-10.6079
而知	-10.6081
則又	-10.6082
以至	-10.6084
數日	-10.609
不來	-10.6091
秦王	-10.6092
光輝	-10.6093
状	-10.6093
監察御史	-10.6104
巍巍	-10.6104
蘇州	-10.6106
挑	-10.6106
杭	-10.6107
思君	-10.6111
之職	-10.6113
稔	-10.6114
廩	-10.6115
代之	-10.612
斷腸	-10.6123
燦	-10.6123
磴	-10.6124
盛徳	-10.6129
企	-10.613
㤀	-10.6134
弋	-10.6137
垂楊	-10.6138
巘	-10.6139
太極	-10.614
聖朝	-10.6143
幾人	-10.6143
脉	-10.6144
家人	-10.6146
骸	-10.6147
滛	-10.615
言語	-10.6151
遯	-10.6152
壬	-10.6152
使其	-10.6153
之性	-10.6157
挫	-10.6159
俎	-10.6159
屹	-10.6161
大明	-10.6161
之役	-10.6161
長城	-10.6163
熏	-10.6164
所作	-10.6164
兒童	-10.6165
劫	-10.6166
稟	-10.6167
耿耿	-10.6168
清溪	-10.6172
言也	-10.6177
歸心	-10.6179
鯉	-10.6184
二千石	-10.6195
舫	-10.6195
囬	-10.6195
掲	-10.6196
則無	-10.6197
皎皎	-10.6199
壅	-10.62
有意	-10.6201
三五	-10.6205
四面	-10.6207
士卒	-10.621
霜露	-10.6212
蒼梧	-10.6212
無有	-10.6213
幽居	-10.6216
沓	-10.622
泠泠	-10.622
肅肅	-10.6225
摹	-10.6225
芳菲	-10.6232
非一	-10.6232
冨	-10.6233
匹夫	-10.6235
王安石	-10.6235
蓼	-10.6247
之國	-10.6247
龕	-10.6252
閏	-10.6259
不善	-10.6261
而行	-10.6263
進士第	-10.6265
校尉	-10.6268
魚龍	-10.6273
復有	-10.6274
因以	-10.6278
旂	-10.6278
州人	-10.6278
是則	-10.628
如雲	-10.6284
酒酣	-10.6286
浩浩	-10.6292
又以	-10.6295
時節	-10.6296
安危	-10.6299
不入	-10.6303
太行	-10.6304
參軍	-10.6305
麒麟	-10.6306
王室	-10.6306
逵	-10.6308
或以	-10.6313
檝	-10.6314
之實	-10.6314
兀	-10.6317
烽	-10.632
拓	-10.6322
矣其	-10.6323
嬴	-10.6323
忠義	-10.6328
終南	-10.6329
可得	-10.633
旃	-10.6332
佚	-10.6332
節度使	-10.6333
無定	-10.6335
而非	-10.6335
漁父	-10.6337
曛	-10.6339
而上	-10.634
此則	-10.634
風霜	-10.6341
五代	-10.6345
减	-10.6346
箱	-10.6351
名也	-10.6351
恰	-10.6352
霜雪	-10.6355
願陛下	-10.6357
聞其	-10.6362
夙夜	-10.6362
思歸	-10.6365
妹	-10.6365
章句	-10.6366
遂以	-10.6367
岷	-10.6367
幸甚	-10.6368
知有	-10.637
饌	-10.6373
琦	-10.6374
閫	-10.6377
誄	-10.6378
江淮	-10.6378
頥	-10.6382
劣	-10.6387
䨇	-10.6389
鄉人	-10.639
太湖	-10.6391
罵	-10.6398
無數	-10.6398
他年	-10.64
蘓	-10.6403
墉	-10.6404
噪	-10.6404
摶	-10.6406
尋常	-10.6407
城下	-10.6408
濮	-10.6411
鈿	-10.6412
㝢	-10.6417
和氣	-10.6421
相知	-10.6422
杜甫	-10.6424
天門	-10.6425
鎻	-10.6426
望之	-10.6426
瑣	-10.643
不食	-10.643
矛	-10.6438
其民	-10.6438
此中	-10.6439
水中	-10.6439
弧	-10.6444
無益	-10.6447
泄	-10.6448
頤	-10.645
迸	-10.6451
門人	-10.6451
舉進士	-10.6452
伊尹	-10.6456
吾聞	-10.6458
鈔	-10.6459
一葉	-10.6461
飛來	-10.6461
慟	-10.6464
中夜	-10.6468
騖	-10.6469
之憂	-10.6469
贏	-10.6469
薄暮	-10.6472
煌煌	-10.6474
草色	-10.6478
𥘉	-10.6479
法師	-10.648
逺山	-10.6483
涸	-10.6484
金華	-10.6486
長洲	-10.6487
亢	-10.6491
百家	-10.6502
䖏	-10.6503
無任	-10.6506
中秋	-10.6506
王維	-10.6507
至矣	-10.6509
則必	-10.6513
所思	-10.6517
現	-10.652
昔年	-10.6524
擔	-10.6527
長生	-10.6528
不測	-10.6531
西域	-10.6536
使我	-10.6536
準	-10.6543
部郎中	-10.6545
斃	-10.6546
慄	-10.6548
爾乃	-10.6548
長歌	-10.6548
隳	-10.6553
晷	-10.6558
所聞	-10.6558
七日	-10.6559
長嘯	-10.6562
椽	-10.6566
㨗	-10.6569
婢	-10.657
隈	-10.6574
則曰	-10.6574
幃	-10.6575
黄昏	-10.6576
一方	-10.6578
左氏傳	-10.6579
真人	-10.658
走馬	-10.6583
萬象	-10.6585
幢	-10.6589
所至	-10.659
批	-10.659
而卒	-10.6593
五臣本	-10.6598
衲	-10.6599
歌聲	-10.6601
皇天	-10.6602
知我	-10.6603
茵	-10.6604
故山	-10.6605
不妨	-10.6607
而况	-10.6612
雋	-10.6614
珂	-10.6618
經過	-10.6619
山僧	-10.6624
禍福	-10.6627
瑜	-10.6627
筐	-10.6628
郡守	-10.6628
烝	-10.6629
芸	-10.6635
户部	-10.6637
此皆	-10.6642
者多	-10.6643
清夜	-10.6648
蛾眉	-10.6651
説文曰	-10.6651
宋玉	-10.6651
無私	-10.6652
經年	-10.6654
僣	-10.6656
有常	-10.6662
者謂	-10.6669
與我	-10.6672
豈惟	-10.6672
施行	-10.6672
笙歌	-10.6673
由此	-10.6674
智者	-10.6675
相憶	-10.6678
沽	-10.6685
造物	-10.6687
踞	-10.6692
敖	-10.6697
天際	-10.6703
之聲	-10.6704
武昌	-10.6708
西園	-10.6708
眸	-10.6709
爲之	-10.6713
蜜	-10.6714
璫	-10.6721
百花	-10.6722
反覆	-10.6722
多病	-10.6727
有聲	-10.6728
暮春	-10.6728
螺	-10.673
車騎	-10.673
所著	-10.6731
煦	-10.6732
玉樹	-10.6738
詹	-10.6744
無用	-10.6744
弁	-10.6746
始終	-10.6747
所由	-10.6747
七言	-10.6747
鬛	-10.6748
紹興	-10.6749
五更	-10.675
太息	-10.6751
胷	-10.6752
恊	-10.6755
何許	-10.6755
吝	-10.6756
武功	-10.6756
翊	-10.6757
礪	-10.6771
莫如	-10.6772
遑	-10.6777
加以	-10.6777
薇	-10.678
不止	-10.6782
晁	-10.6783
溫	-10.6785
旭	-10.6785
悠	-10.679
楚王	-10.6795
諮	-10.6795
蠅	-10.6796
孤雲	-10.6799
睇	-10.6802
有遺	-10.6802
相親	-10.6805
其君	-10.6806
龔	-10.682
覿	-10.6822
之流	-10.6824
屈原	-10.6826
琅玕	-10.6826
月滿	-10.6827
扃	-10.6827
無他	-10.683
給事中	-10.6832
夷狄	-10.6832
洋洋	-10.6835
同年	-10.6839
不從	-10.6841
桓公	-10.6842
寥廓	-10.6844
揚子	-10.6855
於中	-10.6856
敢不	-10.6859
城西	-10.6874
吸	-10.6874
非吾	-10.6876
九天	-10.6876
多情	-10.688
五六	-10.6886
股	-10.689
灞	-10.6894
黄門	-10.6897
泓	-10.6899
宫室	-10.69
者或	-10.6903
淒	-10.6904
濟濟	-10.6908
滿地	-10.6916
槃	-10.6918
鵝	-10.693
風煙	-10.6932
杵	-10.6935
華山	-10.6937
虎豹	-10.6938
繁華	-10.6938
笏	-10.694
神武	-10.6943
聮	-10.6944
陸機	-10.6944
歐	-10.6945
蔑	-10.6949
檢校	-10.695
股肱	-10.6951
之道也	-10.6951
颯	-10.6951
之資	-10.6953
沈沈	-10.6954
國子	-10.6956
畨	-10.6961
不可不	-10.6961
遲遲	-10.6963
鳶	-10.6969
有志	-10.6971
優游	-10.6971
南風	-10.6973
鏗	-10.6974
大雅	-10.6976
潄	-10.6978
在此	-10.6978
園林	-10.698
相傳	-10.6982
燼	-10.6985
也自	-10.6985
眼前	-10.6988
想見	-10.6988
恪	-10.699
以謂	-10.6993
先君	-10.6994
劉氏	-10.6995
大王	-10.6996
之精	-10.6996
幕府	-10.6997
曰是	-10.7001
軍中	-10.7002
巍	-10.7003
忠孝	-10.7006
天下之人	-10.7007
湖山	-10.7007
存亡	-10.7009
楊花	-10.7009
鷓鴣	-10.7014
髙堂	-10.7016
東門	-10.7017
徳之	-10.7021
瓜	-10.7023
可不	-10.7023
人言	-10.7026
花發	-10.7027
夣	-10.7027
東北	-10.7027
是用	-10.7036
今夜	-10.7038
飬	-10.704
赫赫	-10.704
也非	-10.7042
麋鹿	-10.7042
人知	-10.7043
菊花	-10.7044
棧	-10.7051
溪水	-10.7052
不得已	-10.7053
雷霆	-10.7062
訊	-10.7062
御史中丞	-10.7062
石室	-10.7063
退之	-10.7065
臭	-10.7066
明珠	-10.7068
禋	-10.7071
城東	-10.7076
薊	-10.7078
之謀	-10.708
吾道	-10.708
月落	-10.7081
藜	-10.7086
與世	-10.7089
千山	-10.7092
乎此	-10.7104
管仲	-10.7104
治亂	-10.7104
銓	-10.7105
食之	-10.7111
之賢	-10.7112
鳥獸	-10.7116
不惜	-10.7117
杭州	-10.7122
胸中	-10.7124
在兹	-10.7128
紱	-10.7129
霏霏	-10.7131
洩	-10.7134
歎曰	-10.7135
萬一	-10.7137
烟霞	-10.7141
漢王	-10.7145
之音	-10.7148
大理	-10.7148
陌上	-10.7149
在上	-10.715
中山	-10.7153
大業	-10.7154
漢魏	-10.7157
顏	-10.7158
不已	-10.7158
所知	-10.7159
詩一首	-10.7167
主事	-10.7167
行事	-10.7168
清光	-10.7169
賡	-10.717
郡國	-10.718
蕭然	-10.7193
易曰	-10.7199
談笑	-10.7202
千門	-10.7214
水上	-10.7214
者乃	-10.7216
月出	-10.7217
不問	-10.7217
其力	-10.7217
天寳	-10.7218
曰子	-10.7219
南史	-10.722
遘	-10.7222
杜陵	-10.7223
稿	-10.7225
不樂	-10.7226
不似	-10.7227
豈獨	-10.7228
相隨	-10.723
所藏	-10.7235
鐘聲	-10.7239
涌	-10.724
河陽	-10.7246
之門	-10.7248
閻	-10.725
堂上	-10.7253
不明	-10.7256
詩成	-10.726
至正	-10.726
斟	-10.7261
囘首	-10.7263
其始	-10.7267
爪	-10.7269
閣下	-10.727
事業	-10.7271
朝陽	-10.7271
國史	-10.7272
永嘉	-10.7272
泝	-10.7275
而立	-10.7276
邢	-10.7277
熹	-10.7278
罍	-10.7287
楚辭	-10.7289
小臣	-10.7291
沂	-10.7291
牟	-10.7293
棋	-10.7294
延年	-10.7295
不獨	-10.7296
則知	-10.73
幾度	-10.7301
黄鶴	-10.7302
憾	-10.7307
娘	-10.7307
可惜	-10.7309
濠	-10.732
封侯	-10.732
毗	-10.7332
彚	-10.7332
璽	-10.7334
師道	-10.7345
行樂	-10.7346
而出	-10.7349
僭	-10.7349
則為	-10.735
脈	-10.7355
以詩	-10.7356
二十五	-10.7356
月上	-10.7357
腴	-10.7358
小兒	-10.7359
秋雨	-10.7359
周易曰	-10.7361
五千	-10.7362
狥	-10.7363
大事	-10.7369
於道	-10.7372
至是	-10.7373
者豈	-10.7373
嘉靖	-10.7375
六朝	-10.7376
衿	-10.7378
猶可	-10.738
舄	-10.739
於下	-10.7392
愼	-10.7392
花枝	-10.7392
自號	-10.7396
何能	-10.7397
覇	-10.7397
粥	-10.7398
橈	-10.7401
而民	-10.7409
遊子	-10.7412
自為	-10.7412
風動	-10.7414
春山	-10.7425
青松	-10.7425
明帝	-10.7427
于今	-10.7429
姊	-10.7429
與夫	-10.7434
冥冥	-10.7437
蕊	-10.744
丹陽	-10.7443
不辭	-10.745
張公	-10.7452
禆	-10.7457
九江	-10.746
鉢	-10.7461
之權	-10.7464
通判	-10.7469
水旱	-10.747
風生	-10.7471
捫	-10.7482
上疏	-10.7483
有言	-10.7485
槖	-10.749
木蘭	-10.7494
霄漢	-10.7498
建安	-10.7506
撼	-10.7508
蕭瑟	-10.7509
中人	-10.7511
那得	-10.7512
不禁	-10.7516
始皇	-10.7517
田園	-10.7519
蛙	-10.7522
喉	-10.7525
稱其	-10.7526
之主	-10.7532
其説	-10.7534
能使	-10.7536
文選	-10.7537
無端	-10.7537
伶	-10.7538
此言	-10.754
為客	-10.754
脅	-10.7541
不疑	-10.756
無功	-10.756
絹	-10.7565
季子	-10.7565
承恩	-10.7568
家貧	-10.7568
溼	-10.7571
翰墨	-10.7572
嫉	-10.7575
十二年	-10.7575
翰林學士	-10.7577
渇	-10.758
承天	-10.7585
圎	-10.7591
二十二	-10.7594
有二	-10.7594
繹	-10.7594
其辭	-10.7596
記曰	-10.7605
壻	-10.7605
忻	-10.7611
顒	-10.7612
威儀	-10.7614
郁	-10.7615
江城	-10.7616
幡	-10.7617
髙帝	-10.7617
王師	-10.7624
荆棘	-10.7628
攢	-10.763
故云	-10.7631
譙	-10.7632
坑	-10.7632
竟何	-10.7637
常侍	-10.7641
藝文	-10.7642
云爾	-10.7643
芥	-10.7645
售	-10.7645
旒	-10.7648
損益	-10.7652
者雖	-10.7654
聖徳	-10.7654
砥	-10.7655
清江	-10.7656
曖	-10.7658
寥寥	-10.7662
無所不	-10.7662
事君	-10.7663
贄	-10.7666
行路	-10.7668
妣	-10.7669
暈	-10.767
孰能	-10.767
功業	-10.7674
木葉	-10.7677
斜日	-10.7678
好學	-10.7678
我有	-10.768
把酒	-10.7682
爾其	-10.7683
湘水	-10.7685
因其	-10.7687
泉石	-10.7687
十五年	-10.7688
髙下	-10.7689
逺遊	-10.769
佑	-10.7692
元祐	-10.7693
左氏	-10.7697
向來	-10.7702
嗤	-10.7705
隴西	-10.7708
未幾	-10.7709
鶻	-10.7711
清秋	-10.7714
闌干	-10.7714
煙雨	-10.7715
無乃	-10.772
慝	-10.772
鐫	-10.7721
廟堂	-10.7721
感激	-10.7722
逺矣	-10.7723
莫若	-10.7724
悶	-10.7725
故有	-10.7725
天意	-10.7727
而為之	-10.7728
樓閣	-10.7731
而致	-10.7733
至尊	-10.7735
曹植	-10.7737
將何	-10.7737
叫	-10.7738
瀨	-10.7739
一曰	-10.7747
世俗	-10.7748
雲飛	-10.7749
嵗時	-10.7755
登山	-10.7757
離騷	-10.7758
梨花	-10.7762
鵞	-10.7763
祜	-10.7764
日照	-10.7764
有天下	-10.7768
讀之	-10.7768
東流	-10.7771
中天	-10.7773
虗	-10.7775
開國	-10.7775
悅	-10.7777
二十八	-10.778
趙王	-10.7784
睨	-10.7785
父兄	-10.7786
野水	-10.7787
以安	-10.7787
况復	-10.779
在乎	-10.7801
乎哉	-10.7805
誰復	-10.7808
可與	-10.7814
心事	-10.7816
滄溟	-10.7818
此生	-10.7826
且夫	-10.7827
宣王	-10.7827
愉	-10.7827
一夕	-10.7832
二公	-10.7832
廣雅曰	-10.7832
鹵	-10.7833
不逮	-10.7837
卻	-10.7837
天外	-10.7838
囀	-10.7839
彷彿	-10.7844
懦	-10.7846
姻	-10.785
湖南	-10.7854
一本	-10.7862
羽林	-10.7864
道德	-10.7864
扆	-10.7866
平地	-10.7866
夜來	-10.7871
溪山	-10.7873
第三	-10.7879
廪	-10.788
執政	-10.788
之君	-10.7882
為善	-10.7884
送别	-10.7884
已見	-10.7885
弘	-10.789
雞犬	-10.7898
塋	-10.7898
華陽	-10.7901
春深	-10.7902
用事	-10.7903
之治	-10.7904
之要	-10.791
抃	-10.791
禮也	-10.7917
靡不	-10.7921
自言	-10.7922
人倫	-10.7923
之德	-10.7928
侍從	-10.7929
親戚	-10.7931
唾	-10.7932
有情	-10.7936
净	-10.7938
萼	-10.7939
舸	-10.7939
林泉	-10.7942
滂	-10.7943
需	-10.7944
四人	-10.7945
左丞	-10.795
濛	-10.7951
日以	-10.7951
而不敢	-10.7952
南方	-10.7952
盎	-10.7956
疑作	-10.7957
蘆花	-10.7959
千人	-10.7961
後漢書	-10.7964
東歸	-10.7965
窘	-10.7971
譴	-10.7974
繕	-10.7975
湄	-10.7975
堵	-10.7983
大義	-10.7984
荷花	-10.7984
譁	-10.7985
深山	-10.7988
哺	-10.7992
之教	-10.7993
疵	-10.7993
榦	-10.7996
號令	-10.7999
耐	-10.8002
凛	-10.8005
南宫	-10.8008
難得	-10.8009
人君	-10.8013
夢裏	-10.8017
必以	-10.8018
後來	-10.8019
亦自	-10.802
掣	-10.802
雲霞	-10.8021
盜賊	-10.8021
雖欲	-10.8022
溉	-10.8023
前日	-10.8024
公諱	-10.8024
客來	-10.8025
杜甫詩	-10.8031
如水	-10.8032
林間	-10.8037
雖無	-10.8038
之㫖	-10.804
千尺	-10.8043
不逺	-10.8043
夘	-10.8045
有懐	-10.8047
六首	-10.8048
之詩	-10.8052
懈	-10.8056
重來	-10.8058
豈徒	-10.8063
其時	-10.8064
明府	-10.8078
則天下	-10.8078
山上	-10.8081
吾將	-10.8081
閎	-10.8084
爍	-10.8085
瀑布	-10.8087
何不	-10.8087
長短	-10.8088
白鳥	-10.8091
飄颻	-10.8092
漢武	-10.8096
屨	-10.8097
人語	-10.8098
夫婦	-10.81
詆	-10.8101
風露	-10.8103
池塘	-10.8106
杯酒	-10.8107
何哉	-10.8107
霓裳	-10.8107
徃徃	-10.8107
擘	-10.8109
李氏	-10.811
縞	-10.8113
諸葛	-10.8118
伏以	-10.8119
瀝	-10.8124
褰	-10.8127
睢	-10.813
二者	-10.8131
于時	-10.8131
只有	-10.8142
萋萋	-10.8145
秦之	-10.8147
其國	-10.8152
有異	-10.8158
此去	-10.816
相送	-10.8162
滄	-10.8164
老夫	-10.8165
留别	-10.8165
太公	-10.8167
石壁	-10.8167
長樂	-10.8171
紅葉	-10.818
是知	-10.8184
有罪	-10.8185
相繼	-10.8188
此篇	-10.8189
椎	-10.8192
韓信	-10.8197
成敗	-10.8206
落落	-10.8207
幔	-10.8207
寡人	-10.821
壠	-10.8211
雲霧	-10.8215
棃	-10.822
風雅	-10.8224
松栢	-10.8225
荻	-10.8228
頰	-10.8229
聖王	-10.8229
長風	-10.823
疇昔	-10.8233
秋山	-10.8235
鬱鬱	-10.8236
䘏	-10.8239
謂其	-10.8241
不廢	-10.8242
鑪	-10.8243
猗	-10.8246
也乃	-10.8248
流光	-10.8253
翥	-10.8253
它	-10.8255
人人	-10.8256
之威	-10.8257
籙	-10.826
北海	-10.826
如此則	-10.8264
冬至	-10.8271
同知	-10.8272
釣魚	-10.8275
嚼	-10.8282
湖水	-10.8282
賑	-10.8284
今夕	-10.8285
瞽	-10.8291
超然	-10.8291
殃	-10.8294
無此	-10.8294
聆	-10.8294
以備	-10.8299
先人	-10.8299
腕	-10.83
宗室	-10.83
封禪	-10.8301
璋	-10.8307
是謂	-10.8307
崢嶸	-10.8311
飜	-10.8314
平陽	-10.8319
禮記曰	-10.832
奉使	-10.8321
浙江	-10.8323
擎	-10.8325
懐古	-10.8328
來往	-10.8332
先是	-10.8338
者固	-10.8339
來者	-10.8339
扁	-10.8344
上柱國	-10.8351
麤	-10.8352
毛詩	-10.8354
行役	-10.8359
培	-10.8359
李公	-10.8368
鏡中	-10.8373
闗山	-10.8373
極目	-10.8374
豐年	-10.8375
朂	-10.8377
十一年	-10.8378
興亡	-10.8389
起於	-10.8389
之未	-10.8389
碣	-10.8389
東陽	-10.839
之誠	-10.839
止於	-10.8395
不任	-10.8401
龍蛇	-10.8401
櫓	-10.8405
廷尉	-10.8411
崑山	-10.8414
天風	-10.8415
洵	-10.8416
知名	-10.8416
老翁	-10.8417
元帥	-10.8418
漁舟	-10.8423
穆穆	-10.8427
存者	-10.8427
與天	-10.843
不寐	-10.8432
傳之	-10.8435
筋	-10.8442
莓苔	-10.8443
不知所	-10.8443
之失	-10.8449
江淹	-10.8452
國語	-10.8454
太古	-10.846
推官	-10.846
鈍	-10.8461
冉	-10.8462
往事	-10.8463
之典	-10.8464
不去	-10.8467
其情	-10.8468
清流	-10.8468
丹砂	-10.8469
越王	-10.8469
此事	-10.8469
嵗寒	-10.8475
笥	-10.8476
瘁	-10.8478
而今	-10.8482
髙宗	-10.8491
濳	-10.8495
霓	-10.8496
晋	-10.8497
圖畫	-10.8498
至公	-10.8506
賄	-10.8506
縠	-10.8506
確	-10.8507
而止	-10.8512
夜宿	-10.8513
叠	-10.8514
流涕	-10.8518
俘	-10.8519
其書	-10.8521
隻	-10.8522
甚矣	-10.8524
無因	-10.8531
籥	-10.8531
以事	-10.8531
帝王之	-10.8533
平章	-10.8533
不可勝	-10.8533
本末	-10.8534
年華	-10.8538
鮫	-10.8541
暮雨	-10.8543
海門	-10.8545
諸侯之	-10.855
而至	-10.8552
羇	-10.8552
積雪	-10.8553
雨聲	-10.8555
一代	-10.8557
學校	-10.856
嗔	-10.8561
不少	-10.8562
蟹	-10.8568
而不得	-10.8572
蠻夷	-10.8572
當今	-10.8572
瑾	-10.8572
不稱	-10.8576
人世	-10.8578
鬰	-10.8581
兩岸	-10.8583
縻	-10.8584
此亦	-10.8585
退而	-10.8588
竹枝	-10.8589
斵	-10.859
於民	-10.8591
瘠	-10.8593
孟子曰	-10.8594
開門	-10.8596
州郡	-10.8596
蒹葭	-10.8601
拭	-10.8606
絶頂	-10.8606
欣然	-10.8612
雲夢	-10.8616
悲風	-10.8616
泳	-10.8619
驩	-10.862
今已	-10.8624
明皇	-10.8627
史記曰	-10.863
難為	-10.8634
相似	-10.8636
桂樹	-10.8636
筝	-10.8642
朔方	-10.8642
絲竹	-10.8644
卞	-10.8645
為詩	-10.8649
攅	-10.8655
無餘	-10.8656
同時	-10.8656
躔	-10.8657
日已	-10.8658
男兒	-10.8659
幾年	-10.8662
當是時	-10.8662
野老	-10.8662
廬陵	-10.8663
送王	-10.8665
部員外郎	-10.8667
千峰	-10.8668
中庸	-10.8668
噬	-10.8669
提舉	-10.8672
秦人	-10.8675
邂逅	-10.8684
瑰	-10.8685
雲霄	-10.8687
春寒	-10.8687
一世	-10.8688
誰謂	-10.8688
虢	-10.8689
感慨	-10.8693
言事	-10.8694
晤	-10.8695
丘壑	-10.8699
朝來	-10.87
人臣	-10.8703
古寺	-10.8705
誚	-10.8705
悴	-10.8705
蹋	-10.8706
糜	-10.8707
元帝	-10.8707
員外郎	-10.8708
歌行	-10.8709
行路難	-10.8712
秋江	-10.8713
賦一首	-10.8713
自從	-10.8716
平湖	-10.8717
焉其	-10.8717
書生	-10.872
昔日	-10.8721
羣生	-10.8722
綢繆	-10.8723
潢	-10.8723
矚	-10.8724
燿	-10.8724
涓	-10.8728
鎬	-10.8731
更有	-10.8734
娱	-10.8745
堂堂	-10.8748
宗皇帝	-10.8751
潞	-10.8753
飛去	-10.8753
霆	-10.8754
惟其	-10.8757
黷	-10.8758
沽酒	-10.8765
凉風	-10.8765
微風	-10.8767
翎	-10.8767
圖書	-10.8767
吉凶	-10.877
覊	-10.8772
鉏	-10.8772
躅	-10.8772
其罪	-10.8776
珠簾	-10.8781
仆	-10.8782
雲林	-10.8782
上元	-10.8783
東宫	-10.8784
形容	-10.8784
郤	-10.8786
朱門	-10.8788
甍	-10.8791
之家	-10.8792
有人	-10.8799
荼	-10.8801
無聞	-10.8805
窄	-10.8817
松江	-10.8818
髦	-10.8819
何異	-10.8822
鳥飛	-10.8826
笑語	-10.8827
中和	-10.8827
繒	-10.8827
不平	-10.883
玉女	-10.8833
張氏	-10.8837
暘	-10.8838
光照	-10.8839
金玉	-10.884
字仲	-10.8841
雨餘	-10.8841
留連	-10.8841
潼	-10.8841
英華	-10.8843
詔令	-10.8846
氣象	-10.8848
給事	-10.8858
也然則	-10.8858
鷁	-10.8859
肴	-10.886
以奉	-10.8862
表裏	-10.8866
詩序	-10.8867
緫	-10.8868
撤	-10.8868
百川	-10.887
凌雲	-10.887
如玉	-10.8875
翼翼	-10.8879
昉	-10.8881
湮	-10.8891
不安	-10.8891
枝葉	-10.8891
之靈	-10.8893
四五	-10.8894
之議	-10.8896
賢良	-10.8897
管絃	-10.8898
直言	-10.8898
官至	-10.8898
雨雪	-10.89
以正	-10.8902
一㸃	-10.8904
行者	-10.8904
欝	-10.8904
早春	-10.8905
某官	-10.8908
嘉興	-10.891
那知	-10.8911
炭	-10.8913
之體	-10.8914
猾	-10.8915
覈	-10.8918
鴟	-10.8924
金谷	-10.8925
謝公	-10.8927
址	-10.8929
禽獸	-10.8933
山澤	-10.8934
駝	-10.8934
厠	-10.8934
錦繡	-10.8938
孺子	-10.894
家家	-10.8941
異於	-10.8942
叚	-10.8942
諍	-10.8943
乃以	-10.8944
城頭	-10.8944
失之	-10.8953
沫	-10.8956
萬邦	-10.8956
陲	-10.8958
泮	-10.8958
看山	-10.8961
而易	-10.8961
冡	-10.8962
蠢	-10.8965
笞	-10.8965
白水	-10.8972
様	-10.8972
前代	-10.8976
掬	-10.8977
舊時	-10.8979
瑛	-10.8981
蕉	-10.8985
扼	-10.8989
繳	-10.8992
寸心	-10.8992
容與	-10.8997
凜	-10.8999
不負	-10.9002
逸曰	-10.9003
諺	-10.9004
天氣	-10.9008
屯田	-10.9008
其性	-10.9009
㡌	-10.9015
書院	-10.9015
何妨	-10.9017
自非	-10.9018
歲月	-10.9027
偃蹇	-10.903
弱冠	-10.9031
阡	-10.9031
罇	-10.9032
王侯	-10.9032
扄	-10.9034
江左	-10.9034
濛濛	-10.9034
搴	-10.9039
穰	-10.9042
至誠	-10.9044
始於	-10.9044
耘	-10.9047
瓠	-10.9048
家有	-10.905
子雲	-10.905
?	-10.9056
太僕	-10.9056
之兵	-10.9062
吳王	-10.9064
得罪	-10.9071
飛花	-10.9073
翛然	-10.9075
置之	-10.9076
㓕	-10.9079
麝	-10.9082
鑰	-10.9082
竅	-10.9085
秋霜	-10.9087
徃來	-10.909
朝日	-10.9092
浩然	-10.9095
紫微	-10.9095
六國	-10.9099
鸎	-10.91
蜃	-10.9102
燄	-10.9105
北闕	-10.9105
風急	-10.9112
河水	-10.9115
二日	-10.9115
光景	-10.9119
何則	-10.9121
庶人	-10.9122
無常	-10.9124
孝友	-10.9124
槁	-10.9128
白鷺	-10.9128
古道	-10.9129
鵰	-10.9132
乆矣	-10.9133
相尋	-10.9136
明時	-10.9137
百戰	-10.914
之㑹	-10.9141
之異	-10.9142
匏	-10.9144
泛舟	-10.9147
不畏	-10.9148
而必	-10.9149
怳	-10.9152
樓船	-10.9154
花下	-10.9155
氓	-10.9155
到處	-10.9156
碧玉	-10.916
蹔	-10.9161
隼	-10.9162
宋李昉等編	-10.9162
桑麻	-10.9163
滿眼	-10.9165
新月	-10.9165
所言	-10.9167
出塞	-10.9175
太清	-10.9176
啼鳥	-10.9176
願言	-10.9177
谷口	-10.9178
其職	-10.9178
雲外	-10.9184
别業	-10.9184
流離	-10.9185
堞	-10.9185
西方	-10.919
杜鵑	-10.919
夜坐	-10.9196
軒轅	-10.9198
吁嗟	-10.9199
曰夫	-10.92
晶	-10.92
肘	-10.9203
文辭	-10.9204
淇	-10.9205
無塵	-10.9206
僮	-10.9209
正直	-10.9209
針	-10.9211
永樂	-10.9211
葭	-10.9216
菩薩	-10.9216
修竹	-10.9216
貟	-10.9217
歘	-10.9217
俛	-10.9218
東平	-10.9218
右丞	-10.922
蔡邕	-10.9221
歸於	-10.9222
唳	-10.9224
治天下	-10.9228
曇	-10.9232
勘	-10.9233
熒	-10.9234
視其	-10.9235
不聽	-10.9235
嫡	-10.9237
可得而	-10.9238
不下	-10.9239
幌	-10.9242
炬	-10.9244
稽古	-10.9245
而取	-10.9247
寒泉	-10.9247
何言	-10.925
於兹	-10.925
齊王	-10.9251
糟	-10.9253
漣	-10.9255
中間	-10.9256
變而	-10.9257
歴歴	-10.9258
睹	-10.9259
松柏	-10.926
諳	-10.9263
宫殿	-10.9264
送人	-10.9266
騎馬	-10.9267
去去	-10.9269
鄭𤣥	-10.9271
惟恐	-10.9271
卽	-10.9271
楨	-10.9271
拆	-10.9272
諸儒	-10.9272
髩	-10.9274
今人	-10.9274
集序	-10.9275
光明	-10.9282
箔	-10.9283
多矣	-10.9285
大人	-10.9287
賓客	-10.9288
花滿	-10.9297
迪	-10.9298
暮雲	-10.9299
至元	-10.9306
是日	-10.9307
潯陽	-10.9308
可乎	-10.9311
犧	-10.9313
也謂	-10.9313
昭王	-10.9315
遼東	-10.9317
織女	-10.9319
三徑	-10.9326
吼	-10.9326
仄	-10.9326
蹲	-10.9328
二千	-10.9329
其弊	-10.933
江邊	-10.9331
睠	-10.9332
席上	-10.9333
君恩	-10.9333
空餘	-10.9335
嬋娟	-10.9336
牽牛	-10.9338
七夕	-10.934
相去	-10.9341
飫	-10.9341
只今	-10.9342
臉	-10.9344
疋	-10.9344
三子	-10.9345
侍御史	-10.9348
西陵	-10.9352
娃	-10.9352
其利	-10.9353
南浦	-10.9358
觀者	-10.9363
十三年	-10.9367
至如	-10.9368
濩	-10.9369
以後	-10.937
亦非	-10.937
此二	-10.9371
不離	-10.9373
而獨	-10.9374
漪	-10.9375
一名	-10.9375
闕下	-10.9377
猶自	-10.9378
石橋	-10.9379
杳杳	-10.9382
伯夷	-10.9384
必先	-10.9394
渺渺	-10.9396
忽見	-10.9396
經術	-10.9397
將相	-10.9398
城上	-10.9398
紫芝	-10.9399
仁者	-10.9402
者衆	-10.9405
忽然	-10.9411
小大	-10.9413
爾雅	-10.9416
同歸	-10.9421
吏民	-10.9422
陜西	-10.9423
尚可	-10.9425
踟蹰	-10.9428
夢魂	-10.9429
侍宴	-10.9434
以報	-10.9434
楚人	-10.9437
生平	-10.9438
珥	-10.9439
一一	-10.944
國朝	-10.9444
吹簫	-10.945
非常	-10.945
使天下	-10.9454
一時之	-10.9455
倐忽	-10.9456
之極	-10.9459
旻	-10.946
壚	-10.9462
之化	-10.9464
花間	-10.9465
將帥	-10.9465
楸	-10.9466
丑	-10.9469
巉	-10.947
此乃	-10.9471
才子	-10.9475
蓴	-10.9476
偈	-10.9477
入於	-10.9477
手足	-10.9478
堰	-10.9482
天竺	-10.9487
御定佩文齋詠物詩選	-10.9489
至若	-10.949
不得不	-10.949
殊未	-10.9491
各自	-10.9491
鵷	-10.9494
可觀	-10.9495
掘	-10.9497
于此	-10.9498
翺翔	-10.9499
日月之	-10.9501
小子	-10.9503
不加	-10.9504
花飛	-10.9507
功徳	-10.9508
出為	-10.951
於心	-10.951
拖	-10.951
率土	-10.9512
久之	-10.9514
也是以	-10.9518
丈人	-10.9521
揺落	-10.9523
文集	-10.9524
雜詩	-10.9524
一舉	-10.9527
赭	-10.9529
癖	-10.9531
叅軍	-10.9532
而忘	-10.9533
用心	-10.9534
十首	-10.9534
木落	-10.9534
徐州	-10.9538
蘄	-10.9538
脆	-10.954
死於	-10.9541
盛衰	-10.9546
肖	-10.9549
赤城	-10.9549
笑曰	-10.9549
千丈	-10.9552
自以為	-10.9553
六龍	-10.9553
覧	-10.9559
送張	-10.9559
東林	-10.956
依稀	-10.9563
問曰	-10.9566
項羽	-10.957
龍虎	-10.9575
飄零	-10.9575
世有	-10.9576
建章	-10.9578
其次	-10.9581
穩	-10.9583
羣公	-10.9586
四明	-10.9587
鳥啼	-10.9589
顥	-10.959
為主	-10.959
乃有	-10.9591
莊子曰	-10.9593
遂使	-10.9594
款	-10.9595
諸君	-10.9596
工部	-10.9602
淄	-10.9604
蒼龍	-10.9606
芳樹	-10.9606
羅浮	-10.9609
相期	-10.9612
乎夫	-10.9612
臺上	-10.9613
蹴	-10.9614
兩三	-10.9614
重重	-10.9616
燕趙	-10.9618
擾擾	-10.9627
唐人	-10.9629
黄鵠	-10.963
金門	-10.9631
如雪	-10.9633
男女	-10.9633
有竒	-10.9634
穉	-10.9635
官吏	-10.9637
呵	-10.9637
蒐	-10.9638
皆可	-10.964
山西	-10.9641
臨江	-10.9641
髙臺	-10.9646
菽	-10.9647
萬嵗	-10.9648
夢寐	-10.965
翠華	-10.9651
酉	-10.9654
昇平	-10.9656
南渡	-10.9656
暇日	-10.9657
詩句	-10.9658
金吾	-10.966
京華	-10.9662
嶺南	-10.9664
吳興	-10.9666
已矣	-10.9666
蟋蟀	-10.9666
入朝	-10.9667
賈生	-10.9668
騶	-10.9672
秋來	-10.9675
猶存	-10.9675
楷	-10.9675
煙波	-10.9677
寖	-10.9677
雪中	-10.9678
穏	-10.9678
闐	-10.9679
國家之	-10.9679
緡	-10.9679
孕	-10.9682
主上	-10.9683
兢	-10.9684
缾	-10.9685
欲盡	-10.9686
嵯峨	-10.9687
墅	-10.9688
湘江	-10.9688
在昔	-10.9695
中央	-10.9697
漬	-10.9698
山陽	-10.9699
方丈	-10.9699
憇	-10.9702
璣	-10.9704
十四年	-10.9706
可使	-10.9712
近臣	-10.9712
浮生	-10.9712
之費	-10.9718
飛龍	-10.9718
窅	-10.9718
爼	-10.9725
倖	-10.9728
驃騎	-10.9728
峩峩	-10.973
婆娑	-10.973
酋	-10.9731
餅	-10.9731
哦	-10.9733
經綸	-10.9737
駑	-10.9737
斫	-10.9739
蔥	-10.974
徭	-10.974
飄然	-10.9743
攄	-10.9744
北方	-10.9744
謐	-10.9745
知縣	-10.975
欲使	-10.9751
紀綱	-10.9752
㪚	-10.9759
所載	-10.9762
芹	-10.9764
老僧	-10.9765
矗	-10.9766
太夫人	-10.9768
啞	-10.9769
他鄉	-10.977
編修	-10.977
七十二	-10.977
劉向	-10.9772
草樹	-10.9774
孝經	-10.9776
成化	-10.978
玉帛	-10.978
含情	-10.978
一去	-10.9781
縑	-10.9781
篠	-10.9783
祭祀	-10.9783
不可見	-10.9784
内史	-10.9784
羅衣	-10.9786
春江	-10.9786
皃	-10.9788
嶷	-10.9791
日斜	-10.9801
疑是	-10.9803
汶	-10.9805
未詳	-10.9808
校書	-10.981
因循	-10.981
虎丘	-10.9811
遡	-10.9814
千仞	-10.9815
陬	-10.9817
守之	-10.9818
杖藜	-10.9819
八九	-10.9821
眼中	-10.9823
清廟	-10.9825
善人	-10.9828
遊人	-10.9836
朝朝	-10.9837
固已	-10.9838
去國	-10.9841
少陵	-10.9842
櫻桃	-10.9845
史官	-10.9848
宣城	-10.985
岌	-10.9851
杼	-10.9852
不願	-10.9858
泚	-10.9861
二十三	-10.9864
忘其	-10.9865
穫	-10.9868
號為	-10.987
湫	-10.9871
夜泊	-10.9879
芍藥	-10.9879
好惡	-10.9879
販	-10.988
仙家	-10.9884
庭前	-10.9885
瀛洲	-10.9885
秋氣	-10.9885
王粲	-10.9887
矣又	-10.9887
槿	-10.9888
天文	-10.9889
禾黍	-10.989
幸而	-10.9891
儒學	-10.9891
鶩	-10.9894
水邊	-10.9894
驄	-10.9895
漁樵	-10.9899
圉	-10.9899
炯	-10.9901
城市	-10.9903
星斗	-10.9905
渡河	-10.9908
入門	-10.9911
卵	-10.9911
物外	-10.9912
梭	-10.9912
崑	-10.9914
剽	-10.9915
論曰	-10.9916
及此	-10.9917
嬪	-10.9919
湯武	-10.9919
梁王	-10.9919
摛	-10.992
紛紜	-10.992
不違	-10.9924
青絲	-10.9925
;	-10.9926
婆	-10.9929
察其	-10.9931
瞿	-10.9931
碁	-10.9931
筒	-10.9933
以養	-10.9934
未敢	-10.9935
瓌	-10.9935
玉壺	-10.9936
非所以	-10.9937
公侯	-10.9938
行客	-10.9939
錐	-10.9941
以死	-10.9944
腸斷	-10.9945
自成	-10.9948
殯	-10.9949
瑶池	-10.9951
空谷	-10.9955
雙闕	-10.9955
躁	-10.9957
驢	-10.9961
天性	-10.9961
卭	-10.9964
世所	-10.9965
臣子	-10.9967
我行	-10.9968
留客	-10.9971
三更	-10.9974
如彼	-10.9978
㝠㝠	-10.9981
昔在	-10.9984
顆	-10.9985
未始	-10.9991
者所以	-10.9993
臣某言	-10.9995
雙飛	-10.9996
新聲	-10.9996
五陵	-10.9996
關山	-10.9999
歐陽修	-11.0002
驤	-11.0005
瀟灑	-11.0006
後漢	-11.0007
嘗聞	-11.0008
翺	-11.0008
客愁	-11.0008
有待	-11.0011
婺	-11.0015
而反	-11.0015
已成	-11.0015
好事	-11.0023
中道	-11.0026
其形	-11.0027
琉璃	-11.0027
佳氣	-11.0028
脣	-11.003
安國	-11.0031
鑣	-11.0032
屣	-11.0033
山前	-11.0038
三峽	-11.004
寕	-11.0042
凭	-11.0042
其辭曰	-11.0042
兵部	-11.0043
吳越	-11.0043
子厚	-11.0044
突兀	-11.0045
對此	-11.0047
既已	-11.0051
蕨	-11.0052
僵	-11.0054
其徳	-11.006
百王	-11.0064
號曰	-11.0065
無際	-11.0068
隴頭	-11.0074
雪滿	-11.0077
喙	-11.0078
春雲	-11.0082
皆為	-11.0083
訥	-11.0084
有酒	-11.0086
施於	-11.0087
亦足	-11.0092
斯言	-11.0095
鼓吹	-11.0098
篙	-11.0098
長年	-11.0098
齎	-11.0098
矣哉	-11.0105
之迹	-11.0106
夫子之	-11.0108
繄	-11.0108
風雪	-11.0109
帝子	-11.0111
千百	-11.0112
自笑	-11.0115
偶成	-11.0117
兵馬	-11.0119
无	-11.012
昌黎	-11.0122
閽	-11.0123
樞宻	-11.0126
老矣	-11.0127
布政	-11.0129
平王	-11.0129
帝曰	-11.0131
至徳	-11.0133
樓前	-11.0137
迢遞	-11.014
明徳	-11.0147
庾信詩	-11.0147
九華	-11.0147
正統	-11.0149
百丈	-11.0153
仁宗	-11.0158
連山	-11.0159
歸田	-11.0159
太液	-11.0161
顚	-11.0161
踪	-11.0162
逖	-11.0162
祔	-11.0166
驅馳	-11.0175
奉詔	-11.0176
古意	-11.0182
猶能	-11.0183
纍纍	-11.0183
滓	-11.0185
泫	-11.0187
又聞	-11.0187
孤山	-11.0187
潁川	-11.0189
散騎常侍	-11.0191
神女	-11.0191
太史公	-11.0192
槳	-11.0194
時事	-11.0196
雲起	-11.0196
衡門	-11.0197
捍	-11.0198
刑部	-11.0199
櫛	-11.0199
待制	-11.0201
青樓	-11.0205
堯舜之	-11.0208
嘘	-11.0209
總管	-11.0212
不學	-11.0215
相顧	-11.0216
白沙	-11.0223
滇	-11.0224
輕舟	-11.0227
悲歌	-11.0229
而行之	-11.023
無能	-11.023
忘歸	-11.0232
華亭	-11.0232
成帝	-11.0232
駱	-11.0235
先聖	-11.0236
参	-11.0238
諸軍	-11.0239
字伯	-11.0244
若為	-11.025
聫	-11.0251
盾	-11.0255
無涯	-11.0261
其說	-11.0262
長門	-11.0263
青苔	-11.0266
洄	-11.0266
三輔	-11.0272
不愛	-11.0272
孔明	-11.0272
青草	-11.0272
諦	-11.0274
秋光	-11.0274
緑水	-11.0276
為樂	-11.0278
譬如	-11.028
可以為	-11.0281
松下	-11.0282
彎	-11.0282
燔	-11.0284
往還	-11.0284
繚	-11.0286
農夫	-11.0287
相過	-11.0288
流落	-11.029
長吏	-11.029
識者	-11.029
雲開	-11.0293
滄江	-11.0296
驍	-11.0296
轄	-11.0297
之儀	-11.0298
畎	-11.0299
燠	-11.03
太保	-11.0306
天機	-11.0306
無力	-11.0308
平沙	-11.0309
羃	-11.031
蘭亭	-11.031
長卿	-11.0315
拈	-11.0318
白蘋	-11.0319
其位	-11.0321
光禄	-11.0324
海水	-11.0329
薜蘿	-11.0331
譲	-11.0337
不斷	-11.0338
於内	-11.0339
安樂	-11.034
彞	-11.0341
昊天	-11.0342
譎	-11.0343
芷	-11.0345
無間	-11.0349
禘	-11.035
漢唐	-11.035
歿	-11.0351
公私	-11.0351
悲夫	-11.0354
安石	-11.0354
孰與	-11.0354
地理	-11.0357
弃	-11.0359
簿書	-11.0363
戊	-11.0367
尚未	-11.0368
遨	-11.0371
湖州	-11.0373
陰陽	-11.0376
於物	-11.0376
之句	-11.0379
不避	-11.0381
而來	-11.0383
自昔	-11.0385
淮海	-11.0387
紺	-11.0387
京口	-11.039
烽火	-11.0391
黄雲	-11.0393
顛倒	-11.0393
以濟	-11.0393
二十六	-11.0398
鐘鼓	-11.0401
存乎	-11.0401
瀰	-11.0403
南面	-11.0405
數聲	-11.0409
征伐	-11.042
﨑嶇	-11.0422
吟詩	-11.0425
汜	-11.0429
雲門	-11.0433
也嗚呼	-11.0436
秣	-11.0438
浮屠	-11.0438
淮南子曰	-11.0439
攜手	-11.0441
駁	-11.0442
吹笛	-11.0444
清泉	-11.0445
元日	-11.0445
男子	-11.0445
舟楫	-11.0447
從今	-11.0448
岐路	-11.0449
殘月	-11.0453
而爲	-11.0456
㒺	-11.0458
逗	-11.0467
曦	-11.0469
大梁	-11.0472
雲漢	-11.0473
此非	-11.0476
溪流	-11.0476
廿	-11.0476
數月	-11.0477
朱顔	-11.0478
扶風	-11.0478
舛	-11.0479
聖賢之	-11.0479
顰	-11.0479
一室	-11.0479
揣	-11.048
刈	-11.048
禮部尚書	-11.0482
可用	-11.0484
三司	-11.0486
河間	-11.0486
璇	-11.0488
垓	-11.0489
襃	-11.0489
凄凉	-11.049
炫	-11.049
煌	-11.0491
菌	-11.0492
遒	-11.0492
向人	-11.0493
考之	-11.0497
五經	-11.0498
酒杯	-11.0499
江州	-11.0501
宫闕	-11.0506
在我	-11.0508
千官	-11.0509
客有	-11.0512
不遺	-11.0512
天下之事	-11.0514
孔子之	-11.0516
春歸	-11.0516
亦已	-11.052
近世	-11.0521
知是	-11.0523
之勞	-11.0524
鴻雁	-11.0525
百代	-11.0535
南征	-11.0535
不取	-11.0537
其他	-11.0539
無疑	-11.0539
不克	-11.0545
此又	-11.0545
彭澤	-11.0546
糓	-11.0547
彈琴	-11.0548
旰	-11.0548
光華	-11.0549
眄	-11.0553
豚	-11.0555
膩	-11.0558
諛	-11.0559
稚子	-11.056
十數	-11.0566
不得其	-11.0568
三世	-11.0569
查	-11.057
儕	-11.0571
而用之	-11.0576
牡	-11.0576
郊祀	-11.0577
隨時	-11.0578
禁中	-11.0578
浣	-11.0579
渭水	-11.0579
盂	-11.058
仭	-11.0581
非常之	-11.0581
神靈	-11.0581
汝南	-11.0588
甥	-11.0591
嵗暮	-11.0591
數萬	-11.0592
景物	-11.0593
唐太宗	-11.0597
倣	-11.0597
月華	-11.0599
鉉	-11.06
來歸	-11.0602
棣	-11.0603
柝	-11.0605
闗中	-11.0605
勛	-11.0606
煜	-11.0608
法令	-11.0609
曰昔	-11.0611
之亂	-11.0613
赤壁	-11.0615
雖復	-11.0617
空中	-11.0622
酒醒	-11.0622
古之人	-11.0626
抄	-11.0627
一物	-11.0628
北望	-11.0631
髙樹	-11.0632
客心	-11.0635
稼穡	-11.0637
三分	-11.0637
本朝	-11.0637
子産	-11.0639
幾日	-11.064
昭昭	-11.0642
南望	-11.0643
直道	-11.0652
深入	-11.0653
西來	-11.0654
裵	-11.0655
茫然	-11.0655
辭曰	-11.0655
港	-11.0656
金馬	-11.0657
歸来	-11.0659
方外	-11.0659
籜	-11.0663
窈	-11.0663
琴瑟	-11.0666
不爲	-11.0669
捉	-11.0671
雅頌	-11.0671
尖	-11.0672
萬餘	-11.0672
磵	-11.0675
以慰	-11.0676
南樓	-11.0677
諤	-11.0681
菑	-11.0686
尊酒	-11.0687
銖	-11.0688
楮	-11.069
鳥鳴	-11.0692
皇極	-11.0694
拂衣	-11.0695
瞳	-11.0696
逢人	-11.0697
萎	-11.0698
而退	-11.07
明發	-11.0701
㤗	-11.0701
世家	-11.0703
長夜	-11.0709
吏部尚書	-11.0709
蓬蒿	-11.071
舟行	-11.0711
所不能	-11.0712
爻	-11.0716
正是	-11.0719
茅茨	-11.0719
未免	-11.072
縉紳	-11.0721
莘	-11.0722
澈	-11.0723
連天	-11.0725
無罪	-11.0725
殘雪	-11.0725
黼	-11.073
秖	-11.0731
也於是	-11.0733
蹶	-11.0735
芟	-11.0735
世上	-11.0737
以俟	-11.0738
梁簡文帝	-11.0738
歌詩	-11.0738
何曽	-11.0741
惹	-11.0742
那堪	-11.0742
不治	-11.0743
蝗	-11.0755
大師	-11.0756
訂	-11.0756
刷	-11.0757
願得	-11.0758
憂患	-11.0759
豈得	-11.0761
忘機	-11.0765
聲名	-11.0767
清晨	-11.0768
汀洲	-11.0773
志在	-11.0777
征人	-11.0777
鈞天	-11.0777
核	-11.0781
匡廬	-11.0781
樽酒	-11.0782
對月	-11.0787
蕩蕩	-11.0789
八極	-11.079
明矣	-11.0791
愷	-11.0804
沛公	-11.0806
長老	-11.0808
准	-11.081
所稱	-11.0812
八荒	-11.0813
髙山	-11.0813
掀	-11.0815
鷙	-11.0816
天下之大	-11.0819
誰憐	-11.0819
却憶	-11.082
隠居	-11.082
修撰	-11.082
泉聲	-11.0821
晃	-11.0827
孺人	-11.083
漢宫	-11.0832
鬯	-11.0835
吾君	-11.0839
悞	-11.0841
酈	-11.0841
鼉	-11.0842
天馬	-11.0843
精舍	-11.0845
罔不	-11.0846
盛時	-11.0846
舊章	-11.0846
襦	-11.0848
佳期	-11.0849
無恙	-11.085
徙倚	-11.0852
兵革	-11.0856
追封	-11.0858
無主	-11.086
畀	-11.0866
飛鴻	-11.0867
轟	-11.0868
同遊	-11.087
飛泉	-11.0872
芋	-11.0873
表一首	-11.0873
聖皇	-11.0876
后土	-11.0877
王莽	-11.0883
漉	-11.0884
兕	-11.0885
氤氲	-11.0887
閃	-11.0887
百草	-11.0889
下詔	-11.0894
郭璞	-11.0897
劉禹錫	-11.0897
竟不	-11.0898
南郊	-11.0906
人才	-11.0907
臣下	-11.0908
臼	-11.091
羲和	-11.091
衡陽	-11.0912
雨晴	-11.0915
惜哉	-11.0916
西望	-11.0924
北極	-11.0932
寒山	-11.0935
二十一	-11.0935
九疑	-11.0942
風物	-11.0943
採蓮	-11.0949
珠玉	-11.0951
東京	-11.0951
甲兵	-11.0952
楚國	-11.0954
觜	-11.0955
闋	-11.0956
屛	-11.0956
可畏	-11.0958
塹	-11.0958
良辰	-11.0959
碧落	-11.0959
騐	-11.096
波瀾	-11.0961
一徑	-11.0961
補闕	-11.0962
滄波	-11.0963
近日	-11.0963
毬	-11.0964
南歸	-11.0966
涼風	-11.097
滎陽	-11.0972
二十七	-11.0972
偹	-11.0973
朔風	-11.0982
乃命	-11.0982
濓	-11.0982
㵼	-11.0983
之南	-11.0989
徳音	-11.0992
綺羅	-11.0993
魚鳥	-11.0996
鍾山	-11.0998
客路	-11.1002
草草	-11.1002
相和	-11.1005
襄公	-11.1007
長楊	-11.1008
便是	-11.101
古人之	-11.101
千樹	-11.1013
幘	-11.1015
劭	-11.1018
貿	-11.1021
能言	-11.1023
嗟夫	-11.103
蓍	-11.1032
驪山	-11.1038
數千里	-11.1038
昔時	-11.1044
無愧	-11.1048
人力	-11.1049
胡不	-11.1049
杓	-11.1052
司馬遷	-11.1056
方寸	-11.106
亡國	-11.106
謝靈運	-11.1063
形勢	-11.1067
鳴琴	-11.1072
城外	-11.1073
絕	-11.1076
犂	-11.1076
蕚	-11.1078
甃	-11.108
知制誥	-11.1081
崛	-11.1081
之效	-11.1082
九霄	-11.1086
一事	-11.1089
穗	-11.1089
潘岳	-11.1093
庭樹	-11.1093
城闕	-11.1095
謫仙	-11.1096
其私	-11.1096
以疾	-11.1102
髙士	-11.1102
怛	-11.1104
之域	-11.1108
一醉	-11.1108
三欽定四庫全書	-11.111
脊	-11.1114
揔	-11.1116
昆弟	-11.1118
黄鳥	-11.1119
我家	-11.1121
鱸	-11.1122
昭明	-11.1124
相應	-11.1127
賒	-11.1127
名士	-11.1128
翬	-11.1128
陽侯	-11.1129
承明	-11.113
西東	-11.1132
之詞	-11.1134
筌	-11.1136
魔	-11.1137
㺯	-11.1139
療	-11.114
太廟	-11.1145
者蓋	-11.1146
盈盈	-11.1149
刑罰	-11.1149
樗	-11.1152
球	-11.1154
欲知	-11.1156
周公之	-11.1162
紫宸	-11.1163
侍讀	-11.1163
坼	-11.1164
衣服	-11.1165
夏侯	-11.1168
冬日	-11.1169
流俗	-11.117
滔	-11.1173
不勞	-11.1173
三朝	-11.1176
灾	-11.1177
壹	-11.1178
購	-11.1178
可知也	-11.118
養生	-11.1182
沙門	-11.1182
都門	-11.1183
不可復	-11.1186
侍講	-11.1188
中州	-11.1191
佳句	-11.1193
短長	-11.1194
飡	-11.1197
立功	-11.1199
恠	-11.12
幽棲	-11.1203
夫何	-11.1203
萬家	-11.1207
楚客	-11.1207
抹	-11.1213
在焉	-11.1214
鶯啼	-11.1214
司農	-11.1216
糴	-11.1218
函谷	-11.122
我今	-11.1223
粱	-11.1224
嘉祐	-11.1226
簒	-11.1228
何似	-11.1232
星河	-11.1233
直上	-11.1235
穠	-11.1236
芭蕉	-11.1236
豺狼	-11.1238
飛燕	-11.1238
滔滔	-11.1239
絢	-11.124
鎔	-11.1244
孝武	-11.1246
屍	-11.1248
孟軻	-11.1252
樹色	-11.1252
昆明	-11.1255
菰	-11.1258
澀	-11.1262
不返	-11.1262
隧	-11.1264
械	-11.127
竽	-11.1273
其母	-11.1277
輓	-11.1277
頓首	-11.128
伏惟陛下	-11.128
前年	-11.1283
雲臺	-11.1285
豳	-11.1286
逍遙	-11.1287
天河	-11.1288
蔕	-11.1288
累遷	-11.1294
松竹	-11.1294
李斯	-11.1298
白帝	-11.1299
臨流	-11.1302
淺深	-11.1302
志士	-11.1308
躭	-11.1312
纜	-11.1312
形骸	-11.1316
常恐	-11.1316
中書令	-11.1318
美酒	-11.1321
塞上	-11.1323
虵	-11.1323
焰	-11.1324
縹	-11.1329
晉侯	-11.1333
襍	-11.1335
四壁	-11.1335
荇	-11.1335
新晴	-11.1336
讃	-11.1336
盞	-11.1337
名臣	-11.1343
河朔	-11.1344
山房	-11.1348
娟娟	-11.135
何物	-11.1352
近體詩	-11.1352
非獨	-11.1353
鳥聲	-11.1354
未識	-11.1354
君臣之	-11.1358
荔	-11.1359
隍	-11.1359
供奉	-11.1359
菁	-11.1362
彬	-11.1363
榴	-11.1363
汗漫	-11.1367
文昌	-11.137
茂陵	-11.1373
摭	-11.1374
本傳	-11.1374
規模	-11.1376
中書舍人	-11.1376
風雷	-11.138
日益	-11.138
邊城	-11.1382
西河	-11.1384
𤨏	-11.1385
齧	-11.1386
撞	-11.1386
莫道	-11.1387
鏘	-11.1388
神龍	-11.139
縣官	-11.139
年正月	-11.1392
悚	-11.1394
琮	-11.1396
者歟	-11.1396
幙	-11.1397
琛	-11.1398
雒	-11.1398
蜀道	-11.1399
樞密	-11.14
冽	-11.14
汲汲	-11.1401
人嘉靖	-11.1402
氷雪	-11.1405
離宫	-11.1406
之所為	-11.1411
五侯	-11.1416
書記	-11.1419
箏	-11.142
獨往	-11.142
邠	-11.1421
愕	-11.1423
清河	-11.1435
相依	-11.1436
蝸	-11.1437
報國	-11.144
誰言	-11.1448
悄	-11.1448
駛	-11.1454
身世	-11.1462
燥	-11.1463
禰	-11.1469
神功	-11.1469
第四	-11.1471
周室	-11.1472
沔	-11.1472
宕	-11.1474
十人	-11.1475
神州	-11.1482
吠	-11.1483
歸舟	-11.1483
明文海巻	-11.1483
麋	-11.1484
武侯	-11.1487
肺	-11.1487
再三	-11.1489
不可得而	-11.1489
承平	-11.1494
園中	-11.1495
枕上	-11.1497
相忘	-11.15
盗賊	-11.1501
秃	-11.1503
愽	-11.1503
第五	-11.1507
僑	-11.1509
躑躅	-11.1512
物色	-11.1513
吻	-11.1515
之東	-11.1515
東郊	-11.1519
爽氣	-11.1521
茆	-11.1523
其徒	-11.1527
知己	-11.1528
使持節	-11.1532
改元	-11.1532
有所不	-11.1536
升降	-11.1551
萬物之	-11.1551
涎	-11.1552
葉落	-11.1558
𢎞治	-11.1558
畋	-11.1559
亦云	-11.156
觥	-11.1562
愬	-11.1563
彭蠡	-11.1564
聾	-11.1564
漢興	-11.1565
縉	-11.1566
犬吠	-11.1568
梁元帝	-11.1572
蝦	-11.1573
八首	-11.1574
怖	-11.1575
官府	-11.1575
白鹿	-11.1576
海外	-11.1578
周官	-11.158
瞬	-11.1581
郎官	-11.1586
巫峽	-11.1586
幸得	-11.1586
齊桓	-11.1587
蠱	-11.1587
煑	-11.1589
留守	-11.159
嘆曰	-11.1593
七欽定四庫全書	-11.1594
隂隂	-11.1597
性情	-11.1605
萬乗	-11.1606
睡起	-11.1606
哉夫	-11.1609
并州	-11.161
酹	-11.1614
冺	-11.1614
范蠡	-11.1615
舎人	-11.1619
嘏	-11.1621
縣人	-11.1621
孔氏	-11.1625
别來	-11.1626
未暇	-11.1627
攷	-11.1627
議郎	-11.1628
仰天	-11.1628
蔭	-11.163
半空	-11.163
盤桓	-11.1631
聖人之道	-11.1632
雖云	-11.1633
讚	-11.1634
江北	-11.1634
擊之	-11.1635
廂	-11.1635
贈别	-11.1636
煉	-11.1639
黠	-11.1639
東家	-11.1639
東風吹	-11.1639
淙	-11.164
五欽定四庫全書	-11.1641
百辟	-11.1646
或謂	-11.1647
櫟	-11.165
年五十	-11.165
侃	-11.1652
襄王	-11.1653
桴	-11.1655
始得	-11.1655
子瞻	-11.1657
持節	-11.1657
不才	-11.1657
朝廷之	-11.1659
曽祖	-11.1659
齊魯	-11.1663
朝暮	-11.1664
赤松	-11.1664
四句	-11.1665
剰	-11.1665
六藝	-11.1666
未甞	-11.1667
石倉歴代詩選巻	-11.1669
七首	-11.1669
五馬	-11.167
靈臺	-11.1673
團團	-11.1675
聊自	-11.168
稍稍	-11.1682
懌	-11.1683
吹笙	-11.1683
江河	-11.1686
漁陽	-11.1686
昭陽	-11.1688
腦	-11.1689
三載	-11.1691
孱	-11.1691
淋漓	-11.1692
唇	-11.1692
濟南	-11.1692
江樓	-11.1697
張衡	-11.1702
洞天	-11.1708
漢武帝	-11.1711
錦衣	-11.1713
愠	-11.1714
老樹	-11.1715
醖	-11.1717
珍重	-11.1722
龍飛	-11.1725
何謂	-11.1728
繼之	-11.1733
孫子	-11.1737
阮籍	-11.1738
夲	-11.1738
鴻鴈	-11.174
藍田	-11.1741
跼	-11.1745
虞集	-11.1746
三光	-11.1748
京城	-11.1748
洞房	-11.1749
十有二	-11.175
忽聞	-11.1755
不察	-11.1758
殉	-11.176
不假	-11.1761
天下之士	-11.1763
四顧	-11.1763
嵇	-11.1763
盛德	-11.1763
翠羽	-11.1764
蝴蝶	-11.1765
耒	-11.1774
隗	-11.1778
鶚	-11.1779
燃	-11.178
白晝	-11.178
䟦	-11.1784
僉事	-11.1785
大司馬	-11.1785
落照	-11.1787
還鄉	-11.1788
諸王	-11.1789
柘	-11.1791
其業	-11.1795
縶	-11.1796
皇皇	-11.1799
不仕	-11.1799
歳月	-11.1801
漢陽	-11.1804
舉世	-11.1807
金碧	-11.1809
曝	-11.181
債	-11.181
惇	-11.181
河流	-11.1811
蕭索	-11.1811
腹心	-11.1816
傳聞	-11.1816
女兒	-11.1817
巽	-11.1821
瞑	-11.1824
即是	-11.1825
鱠	-11.1832
家住	-11.1832
贅	-11.1836
元戎	-11.1839
百神	-11.184
王者之	-11.1841
他時	-11.1841
於其間	-11.1842
旦夕	-11.1846
容易	-11.1849
根本	-11.185
圯	-11.185
左氏傳曰	-11.1851
耦	-11.1853
益州	-11.1855
瘞	-11.1857
覬	-11.186
太華	-11.1862
苴	-11.1862
玉臺	-11.1863
起舞	-11.1865
老病	-11.1868
杜牧	-11.1868
寧知	-11.1869
雲端	-11.1871
離羣	-11.1873
森森	-11.1874
跂	-11.1875
典禮	-11.1876
西施	-11.1877
猛虎	-11.188
煙霧	-11.1884
君看	-11.1884
荷葉	-11.1885
明鏡	-11.1887
避暑	-11.1888
儷	-11.1888
郡邑	-11.1891
浩歌	-11.1894
陳迹	-11.1894
精誠	-11.1894
八欽定四庫全書	-11.1895
四十年	-11.1896
沱	-11.1899
玉階	-11.19
縳	-11.19
嗇	-11.1901
司馬相如	-11.1904
榮辱	-11.1906
瑶臺	-11.1906
舊居	-11.1908
今陛下	-11.1909
遺風	-11.1909
砂	-11.191
李陵	-11.1913
千嵗	-11.1919
侍臣	-11.1921
天威	-11.1923
到此	-11.1924
鐃	-11.1925
逓	-11.1926
求賢	-11.1926
𤣥宗	-11.1926
大功	-11.1927
孰不	-11.1929
豈復	-11.193
考其	-11.1937
疫	-11.194
裒	-11.1946
采蓮	-11.1947
白紵	-11.1949
髙閣	-11.1949
南州	-11.1949
大國	-11.1959
馳騁	-11.196
櫪	-11.1962
幽谷	-11.1967
渡頭	-11.1969
自持	-11.197
皇帝陛下	-11.197
萇	-11.197
異同	-11.1973
大節	-11.1974
蓂	-11.1978
水火	-11.198
脯	-11.198
團扇	-11.1982
罅	-11.1983
終古	-11.1987
嫋嫋	-11.1988
懐抱	-11.1988
皤	-11.1991
熠	-11.1994
仲宣	-11.1997
萬民	-11.1997
人萬厯	-11.2003
殱	-11.2005
歸去來	-11.2007
二十九	-11.2008
長河	-11.201
雎	-11.2011
和平	-11.2012
碣石	-11.2013
臣愚	-11.2014
食邑	-11.2016
不便	-11.2018
侶	-11.2018
咨嗟	-11.2019
五里	-11.2036
麴	-11.2044
列侯	-11.2045
新豐	-11.2045
丹丘	-11.2045
關中	-11.2048
青陽	-11.205
糞	-11.2054
趁	-11.2056
正徳	-11.2057
孩	-11.2057
濆	-11.2058
滁	-11.206
驅車	-11.206
四方之	-11.2062
無奈	-11.2063
黄塵	-11.2066
太平之	-11.2067
爛漫	-11.2067
吳江	-11.2069
巴陵	-11.2074
雷雨	-11.2077
倉卒	-11.2079
寝	-11.2083
仞	-11.2086
縟	-11.2087
絜	-11.2094
蕭何	-11.2098
十分	-11.2098
坰	-11.21
奕奕	-11.2102
卿士	-11.2104
博學	-11.2105
峴	-11.2106
雪霜	-11.2113
緑樹	-11.2115
虺	-11.2115
朋黨	-11.2115
萬騎	-11.2116
寺僧	-11.2117
廖	-11.2118
三千里	-11.2121
讜	-11.2122
詡	-11.2123
夕照	-11.2124
窠	-11.2125
經史	-11.213
秦川	-11.2131
帑	-11.2134
九成	-11.2135
盥	-11.2136
霹靂	-11.2138
遺跡	-11.2138
青鳥	-11.2142
槀	-11.2143
湖光	-11.2145
感物	-11.2145
握手	-11.2149
飛雪	-11.2151
努力	-11.2151
弟兄	-11.2151
謔	-11.2152
臣某	-11.2153
剝	-11.2154
祝融	-11.2154
蒲萄	-11.2155
豈敢	-11.2156
周易	-11.2158
長驅	-11.2159
公羊	-11.2162
遥知	-11.2162
沉沉	-11.2164
流泉	-11.2164
累官	-11.2166
平居	-11.2168
商山	-11.2173
嘉禾	-11.2175
行省	-11.2177
江村	-11.2181
頷	-11.2181
沴	-11.2182
帝鄉	-11.2183
六欽定四庫全書	-11.2183
躊躇	-11.2184
巴蜀	-11.219
椀	-11.2192
學問	-11.2192
廣大	-11.2193
須㬰	-11.2194
概	-11.2196
誰識	-11.2197
陳平	-11.2199
五嶽	-11.2201
等閒	-11.2205
侑	-11.2207
耄	-11.2207
武皇帝	-11.2208
不遑	-11.2214
也雖然	-11.2216
秧	-11.222
錮	-11.222
坐看	-11.2223
吾廬	-11.2224
䦨干	-11.2224
下車	-11.2229
魏文帝	-11.2235
點	-11.2235
頹	-11.2236
濂	-11.2239
新年	-11.2239
輈	-11.2239
屏風	-11.224
斯民	-11.2251
太陽	-11.2252
子胥	-11.2255
途中	-11.2257
蠡	-11.2259
應詔	-11.2261
夜光	-11.2261
壁間	-11.2262
前世	-11.2262
築室	-11.2263
蕤	-11.2264
喜怒	-11.2275
祖考	-11.2276
相遇	-11.228
亳	-11.2287
羔	-11.2288
黄鸝	-11.229
祭酒	-11.2293
異鄉	-11.2296
尚書令	-11.2296
自傷	-11.2297
秀色	-11.2297
土地	-11.23
餒	-11.23
蚊	-11.2302
淮隂	-11.2307
河洛	-11.2308
詞賦	-11.231
緱	-11.2312
颯颯	-11.2313
陶潛	-11.2314
亹亹	-11.2316
困於	-11.2317
車駕	-11.2319
郡王	-11.2321
可愛	-11.2326
大體	-11.2326
恭惟	-11.2334
虯	-11.2336
及第	-11.2338
平安	-11.2338
可喜	-11.2339
刳	-11.2343
哀哉	-11.2354
嫗	-11.2355
千巖	-11.2357
孔安國	-11.2357
心期	-11.2358
傭	-11.2359
明詔	-11.2361
令狐	-11.2366
埏	-11.2369
琴書	-11.237
故里	-11.2373
柴扉	-11.2374
好古	-11.2375
庶子	-11.2376
子男	-11.2378
撩	-11.2385
曲折	-11.2387
阨	-11.2389
滿目	-11.2391
金盤	-11.2391
只在	-11.2395
𡨕	-11.2397
塚	-11.2398
忽驚	-11.2403
嘻	-11.2404
琰	-11.2409
清濁	-11.2409
者耶	-11.2411
閭閻	-11.2412
搔	-11.2418
戎馬	-11.2418
其源	-11.2419
青林	-11.242
埶	-11.2427
訾	-11.2428
紅顔	-11.2429
經緯	-11.2429
鸛	-11.2429
朝野	-11.243
脩竹	-11.2437
璜	-11.2438
懷古	-11.2441
駮	-11.2449
二三子	-11.2449
渌	-11.2451
棲遲	-11.2452
纊	-11.2453
二世	-11.2458
長吟	-11.2458
𦕈	-11.2462
寥落	-11.2467
目前	-11.2469
祖宗之	-11.2469
㾗	-11.247
也又曰	-11.2473
桂林	-11.2474
䜛	-11.2481
􁁊	-11.2483
億兆	-11.2483
者何也	-11.2484
馨香	-11.2484
郭璞曰	-11.2487
列仙	-11.2489
魏晉	-11.2489
蘧	-11.2491
進士除	-11.2492
軺	-11.2493
騷人	-11.2494
禧	-11.2494
陳氏	-11.2495
蘇子	-11.2501
所貴	-11.2501
憲章	-11.2502
軻	-11.2504
醉後	-11.2505
嶮	-11.2513
不倦	-11.2514
柩	-11.2519
十一欽定四庫全書	-11.2521
相呼	-11.2522
瓚	-11.2522
柰何	-11.2523
榔	-11.2523
駟馬	-11.2523
斗酒	-11.2524
盱	-11.2526
牓	-11.253
寄語	-11.2532
惲	-11.2532
頭白	-11.2534
怪石	-11.2536
網羅	-11.2536
筯	-11.2537
軒冕	-11.2546
陸離	-11.2548
入夢	-11.2549
慶雲	-11.2552
浥	-11.2552
滿庭	-11.2553
汰	-11.2553
廊廟	-11.2554
芬芳	-11.2555
憂國	-11.2555
文武之	-11.2559
河内	-11.2559
陽和	-11.2561
涙	-11.2562
鍼	-11.2564
綘	-11.2566
相接	-11.257
祕書	-11.2571
幽獨	-11.2574
河西	-11.2578
武夷	-11.2579
袒	-11.2583
豈是	-11.2586
寨	-11.2589
文皇帝	-11.2589
藹藹	-11.2591
帶雨	-11.2592
拏	-11.2594
恩澤	-11.2596
諡文	-11.2599
馬嘶	-11.26
大厯	-11.2603
髭	-11.2603
忽忽	-11.2605
雩	-11.2605
釣臺	-11.2606
奩	-11.2608
治平	-11.2608
皁	-11.2619
駿馬	-11.262
答曰	-11.262
嘈	-11.2623
名利	-11.2625
僖	-11.2626
世路	-11.263
鳥道	-11.2632
耆舊	-11.2632
驄馬	-11.2634
石田	-11.2642
纍	-11.2643
䜟	-11.2644
湛露	-11.2645
太山	-11.2646
西戎	-11.2647
嵓	-11.2651
伊川	-11.2657
八音	-11.2662
風飄	-11.2664
啜	-11.2665
澁	-11.2666
者莫不	-11.2666
之謂也	-11.2667
懾	-11.267
船頭	-11.2672
度支	-11.2672
尊前	-11.2672
惟陛下	-11.2674
慶厯	-11.2676
繡衣	-11.2679
商賈	-11.268
原野	-11.2682
路傍	-11.2682
頃刻	-11.2696
摯	-11.27
南湖	-11.2705
奐	-11.2706
蓬瀛	-11.2707
積水	-11.2708
軍節度使	-11.2708
異端	-11.2709
繽紛	-11.2712
雍容	-11.2712
神物	-11.2714
羽毛	-11.2718
松聲	-11.2719
十二欽定四庫全書	-11.2722
喘	-11.2724
坻	-11.2724
野寺	-11.2737
幽蘭	-11.2738
勤勞	-11.2739
抉	-11.2739
紓	-11.274
韓子	-11.2743
水晶	-11.2745
去就	-11.2746
官軍	-11.275
臣請	-11.2751
豢	-11.2752
孰知	-11.2754
蒼翠	-11.2755
遥望	-11.2756
前驅	-11.2756
刻石	-11.2758
門户	-11.2759
京洛	-11.2761
擣	-11.2763
磷	-11.2764
紅樹	-11.2764
葆	-11.2765
十九年	-11.2766
元稹	-11.2774
莢	-11.2777
两	-11.2781
籬落	-11.2786
陽臺	-11.2788
筋力	-11.279
勻	-11.2794
綱紀	-11.2794
勺	-11.2795
孰為	-11.2796
罟	-11.2796
蒨	-11.2796
𠖇	-11.2797
鶉	-11.2797
一尺	-11.28
此所謂	-11.2802
參政	-11.2803
則不然	-11.2803
蜀人	-11.2806
石渠	-11.2806
待詔	-11.2817
絃歌	-11.2817
戱	-11.282
也然而	-11.2821
聖德	-11.2822
儘	-11.2823
飱	-11.2824
委曲	-11.2829
流沙	-11.283
殘陽	-11.2831
鄱陽	-11.2834
福建	-11.2835
肱	-11.2836
訶	-11.2836
悵然	-11.2838
溪頭	-11.284
封建	-11.2842
琨	-11.2844
慊	-11.2852
叔父	-11.2854
西樓	-11.2859
浮圖	-11.286
栁色	-11.2862
襪	-11.2863
斐	-11.2863
沾衣	-11.2865
其子孫	-11.2866
帷幄	-11.2866
賽	-11.287
封疆	-11.2873
觀察	-11.2874
萬世之	-11.2876
嵬	-11.2878
裊	-11.2885
靡靡	-11.2886
親友	-11.2886
登歌	-11.2888
露濕	-11.2892
甘心	-11.2894
薤	-11.2895
仲舒	-11.2895
畤	-11.2897
究其	-11.2899
譬之	-11.2901
林壑	-11.2903
姝	-11.2906
張籍	-11.2906
師友	-11.2906
缸	-11.2908
中宵	-11.291
御溝	-11.2911
支離	-11.2918
十四欽定四庫全書	-11.2921
璉	-11.2922
縦	-11.2923
崦	-11.2924
禊	-11.2924
淩	-11.2927
早朝	-11.2927
賢愚	-11.2928
樂章	-11.2928
莫問	-11.2931
紐	-11.2936
幷	-11.2938
攫	-11.2944
千尋	-11.2947
邦國	-11.2948
緩急	-11.295
蚌	-11.2952
歴代	-11.2955
碧海	-11.2955
兖	-11.2958
神器	-11.2964
𬒳	-11.2966
昃	-11.297
僥倖	-11.297
桷	-11.2972
㡬時	-11.2975
遥遥	-11.298
粘	-11.2982
輕薄	-11.2986
楓葉	-11.2988
琯	-11.2992
别墅	-11.2993
艸	-11.2994
燈前	-11.2996
麈	-11.2997
首陽	-11.2999
盲	-11.3001
露華	-11.3002
閭里	-11.3003
年六十	-11.3005
件	-11.3006
休息	-11.3006
規矩	-11.3006
上苑	-11.3015
考功	-11.3016
年七十	-11.3018
典刑	-11.302
墓誌	-11.3022
蛻	-11.3024
所願	-11.3024
墨竹	-11.3026
湖中	-11.3027
廸	-11.3027
撃	-11.3031
詫	-11.3031
堂前	-11.3033
都城	-11.3034
白蓮	-11.3036
闗河	-11.3039
合歡	-11.3041
未嘗有	-11.3045
可否	-11.3048
薔薇	-11.3051
桂枝	-11.3053
東園	-11.3053
天宇	-11.3053
繋	-11.3054
酤	-11.3056
晉陽	-11.306
曹公	-11.306
餽	-11.3063
衡山	-11.3068
顔子	-11.3068
袴	-11.3069
也是故	-11.307
暌	-11.3071
㕓	-11.3072
職方	-11.3072
形勝	-11.3073
擷	-11.3076
鏁	-11.3083
埀	-11.3083
堕	-11.3086
塜	-11.3089
擯	-11.3091
礫	-11.3119
怙	-11.313
妥	-11.3133
夐	-11.3151
疚	-11.3157
毓	-11.3162
韞	-11.3174
踊	-11.3175
綦	-11.3203
玷	-11.3203
顙	-11.3205
亾	-11.3205
鞋	-11.3207
嬖	-11.3219
朞	-11.3231
瘡	-11.3233
廐	-11.3234
甿	-11.3235
膾	-11.3236
軋	-11.3253
凢	-11.3263
璿	-11.3267
殤	-11.329
咀	-11.33
劃	-11.3301
柟	-11.3302
伽	-11.3307
籖	-11.3308
艤	-11.3315
霅	-11.3326
詘	-11.333
鰥	-11.3339
綾	-11.3354
錬	-11.3357
闉	-11.336
潯	-11.3366
灔	-11.3374
忒	-11.339
瀼	-11.3391
酲	-11.3402
艮	-11.3403
聦	-11.3425
昱	-11.3425
頡	-11.3431
呀	-11.3433
藐	-11.3479
讙	-11.348
佗	-11.349
鼙	-11.3491
肻	-11.3524
𣲖	-11.3526
簞	-11.3527
漭	-11.3531
圻	-11.3538
醅	-11.354
琱	-11.3542
鷰	-11.3552
猴	-11.3553
緗	-11.3558
媪	-11.3558
締	-11.3558
押	-11.3571
輻	-11.3574
蛛	-11.3587
鐙	-11.36
拄	-11.3601
毳	-11.3606
綂	-11.3607
頺	-11.3617
装	-11.3618
尅	-11.3619
术	-11.3619
椿	-11.3622
鍳	-11.3629
涘	-11.3637
皦	-11.3639
㓗	-11.3662
痩	-11.3681
閼	-11.3681
鵾	-11.3684
徊	-11.3685
淼	-11.3686
迤	-11.3687
雹	-11.3698
艘	-11.3701
羿	-11.3709
寗	-11.3713
忱	-11.3719
斁	-11.3733
怵	-11.3746
潑	-11.376
㤙	-11.3771
隸	-11.3774
璠	-11.3775
瘳	-11.3775
緹	-11.378
壟	-11.379
顓	-11.3792
鏃	-11.3794
癘	-11.3798
遄	-11.3798
徤	-11.3806
趺	-11.3809
滸	-11.3811
崧	-11.3822
墾	-11.3823
姥	-11.3826
諂	-11.3838
䰟	-11.3839
揜	-11.384
扞	-11.3841
鄞	-11.3843
觚	-11.3843
莒	-11.3854
賸	-11.3857
跌	-11.3873
餙	-11.388
黥	-11.3891
溷	-11.3894
皂	-11.3905
柬	-11.3905
夔	-11.3906
藂	-11.3919
斡	-11.3953
柑	-11.3953
攪	-11.3985
剔	-11.3989
倅	-11.4001
釡	-11.4016
搗	-11.4018
竺	-11.403
髠	-11.4033
靚	-11.4041
銑	-11.4047
䄂	-11.4047
茨	-11.405
羗	-11.4051
惘	-11.4053
俚	-11.4063
箠	-11.4065
刮	-11.4068
啖	-11.4098
櫻	-11.4117
甑	-11.4118
磔	-11.4119
哈	-11.4119
莅	-11.4132
袵	-11.4132
紉	-11.4135
偪	-11.4151
捜	-11.4152
隰	-11.4158
珉	-11.4163
亊	-11.4176
牌	-11.418
劵	-11.4185
稾	-11.4189
泠	-11.4193
堙	-11.4201
漚	-11.4202
晻	-11.4202
愿	-11.4211
暾	-11.4214
𠂻	-11.4215
㳂	-11.4249
羯	-11.4264
槍	-11.4265
㷀	-11.4266
櫺	-11.4284
殽	-11.4299
鰲	-11.43
柰	-11.4315
贓	-11.4317
瀕	-11.4336
慾	-11.4346
矦	-11.4347
聒	-11.4348
儆	-11.4351
絺	-11.4353
数	-11.4354
劑	-11.4354
璘	-11.4398
丐	-11.4399
靳	-11.4402
盻	-11.441
鬂	-11.442
拉	-11.4421
蹌	-11.4421
洮	-11.4431
噲	-11.4449
羶	-11.4466
烱	-11.4466
斚	-11.4482
箸	-11.4485
嶔	-11.449
蒞	-11.4517
內	-11.4527
垠	-11.4543
燮	-11.4566
祲	-11.4584
缶	-11.4584
塍	-11.4601
黏	-11.4616
萱	-11.4618
醢	-11.4621
肄	-11.4635
槽	-11.4638
漱	-11.4639
榱	-11.464
霾	-11.464
孑	-11.4643
笈	-11.4671
艦	-11.4679
禺	-11.4688
䋲	-11.4688
綻	-11.469
鄆	-11.4693
貼	-11.4694
鷲	-11.4703
謇	-11.4709
佯	-11.4709
霈	-11.471
衘	-11.4722
醺	-11.4725
閙	-11.4726
颸	-11.473
!	-11.4736
廽	-11.474
崤	-11.4743
紊	-11.4744
莆	-11.4752
褭	-11.4753
酥	-11.4777
熖	-11.4781
鈐	-11.4781
默	-11.4784
嘔	-11.4793
筑	-11.4797
蕋	-11.4798
氐	-11.4799
嫂	-11.4815
戕	-11.4817
湊	-11.4826
彥	-11.4834
沅	-11.4857
湓	-11.4859
鉦	-11.487
諶	-11.488
毘	-11.4899
脛	-11.4901
媛	-11.4905
湜	-11.4913
糠	-11.4916
舶	-11.4921
幟	-11.4923
緋	-11.4935
宼	-11.494
祛	-11.4958
轔	-11.496
鏞	-11.4972
慤	-11.4988
斸	-11.4991
舷	-11.4991
璚	-11.4991
僞	-11.5008
諜	-11.5014
鵶	-11.5029
蜚	-11.5029
犁	-11.503
峨	-11.5059
枳	-11.5062
澧	-11.5062
魴	-11.5062
楠	-11.5063
薺	-11.508
簧	-11.5083
嚬	-11.5098
塾	-11.5099
杲	-11.5099
冇	-11.5104
蒯	-11.5114
爇	-11.5119
澌	-11.512
惋	-11.5121
哥	-11.5136
鑱	-11.5139
紘	-11.515
戛	-11.5157
姒	-11.5166
簸	-11.5173
慼	-11.5174
酺	-11.5186
瞥	-11.5191
祓	-11.5192
彗	-11.5195
巋	-11.5199
峡	-11.521
衒	-11.5211
醑	-11.5211
瀬	-11.5212
届	-11.5213
邅	-11.5214
厦	-11.5218
奨	-11.5224
祫	-11.5231
戡	-11.5242
儋	-11.5244
覯	-11.5248
徠	-11.5262
殻	-11.5262
訐	-11.5263
慳	-11.5265
狖	-11.5266
鍤	-11.5266
詮	-11.528
兾	-11.528
晡	-11.5283
覘	-11.5286
聶	-11.5297
鄕	-11.53
叡	-11.5301
綆	-11.5303
亶	-11.5304
荐	-11.5318
貔	-11.532
迢	-11.5335
欷	-11.5341
牝	-11.5354
諠	-11.5355
倭	-11.5359
兠	-11.5377
詵	-11.539
賾	-11.5392
褊	-11.5395
瀘	-11.5395
涪	-11.5398
涿	-11.5411
檠	-11.5413
堡	-11.5417
曺	-11.5428
咄	-11.5431
怱	-11.545
罘	-11.5471
姢	-11.5487
腋	-11.5488
跖	-11.549
袤	-11.5507
歉	-11.5508
畹	-11.5509
郝	-11.5541
踣	-11.5548
勣	-11.5561
褚	-11.5561
炷	-11.5563
豸	-11.5581
躓	-11.5583
匕	-11.5584
嗚	-11.5589
罾	-11.56
訃	-11.5606
蓊	-11.5607
毀	-11.5614
擺	-11.5617
喈	-11.5619
彘	-11.562
呻	-11.5623
玦	-11.5624
埒	-11.5624
淋	-11.5658
颷	-11.566
纛	-11.5662
抒	-11.5662
蘅	-11.5667
穽	-11.568
妒	-11.5681
鯤	-11.5695
茁	-11.5701
甓	-11.5704
蘖	-11.5722
薜	-11.5734
茘	-11.5754
悃	-11.5754
駞	-11.5756
橙	-11.5772
阪	-11.5792
閹	-11.5813
顗	-11.5825
醮	-11.5827
畬	-11.5833
祺	-11.5843
瘼	-11.5847
沚	-11.5877
嵌	-11.588
竪	-11.5889
荃	-11.59
𢷬	-11.5905
耋	-11.5906
粮	-11.5917
沁	-11.595
䂓	-11.5951
禇	-11.5962
祧	-11.5968
詬	-11.5972
窒	-11.5972
迓	-11.5976
估	-11.5988
涔	-11.5991
頎	-11.6005
藿	-11.6008
秫	-11.6031
渟	-11.6032
畊	-11.6033
哂	-11.6033
蜩	-11.6035
煒	-11.6035
罥	-11.605
𣙜	-11.6051
倏	-11.6062
斌	-11.6062
隷	-11.6067
鯁	-11.6087
𥙷	-11.6088
娟	-11.6089
喫	-11.6089
猱	-11.6094
隤	-11.6095
裡	-11.6107
榼	-11.6108
㸑	-11.6128
軿	-11.6128
澶	-11.6135
芰	-11.6148
筦	-11.6149
纚	-11.616
睫	-11.6171
蛤	-11.6188
裛	-11.6208
詁	-11.6208
夤	-11.6229
瑀	-11.6241
彧	-11.6244
邳	-11.6269
苻	-11.6272
鑽	-11.6276
孳	-11.6292
曈	-11.6293
郯	-11.6304
紏	-11.631
礎	-11.6312
磊	-11.6327
璟	-11.633
廨	-11.6332
樾	-11.6336
义	-11.6348
鼈	-11.637
泌	-11.6372
厎	-11.6373
陁	-11.6373
樛	-11.6376
枻	-11.6395
頋	-11.6416
黽	-11.6417
伉	-11.6434
俶	-11.6435
灝	-11.6438
戌	-11.6451
紇	-11.6467
鶡	-11.647
宓	-11.6476
撐	-11.648
趍	-11.6498
㽔	-11.65
秔	-11.65
薈	-11.6502
曬	-11.6518
彀	-11.6519
蹀	-11.6538
曆	-11.6539
罏	-11.654
㶚	-11.6558
耨	-11.6562
狙	-11.6564
瀟	-11.6568
淤	-11.6569
鉗	-11.6578
輶	-11.6579
鋏	-11.6583
墊	-11.6604
馘	-11.6604
獅	-11.6604
蓀	-11.6605
柵	-11.6607
勦	-11.6626
楯	-11.6627
饕	-11.6628
澣	-11.6664
烘	-11.6691
㳟	-11.6707
韵	-11.6708
臞	-11.6709
䧏	-11.6726
絆	-11.6728
癯	-11.6733
蘢	-11.6734
桺	-11.6749
貊	-11.6754
瓘	-11.6764
謟	-11.6774
淬	-11.6775
鞵	-11.6796
撾	-11.6796
咤	-11.6796
苐	-11.6799
鳧	-11.6814
剗	-11.6816
汭	-11.6817
櫜	-11.682
荑	-11.6822
莭	-11.6831
髀	-11.6837
沬	-11.6841
纉	-11.6851
芃	-11.6858
嘿	-11.6859
矍	-11.6861
鐺	-11.6878
撮	-11.6879
値	-11.6879
薑	-11.6882
酪	-11.6882
蔗	-11.6884
閴	-11.6884
韭	-11.6899
裨	-11.6902
誑	-11.6906
墩	-11.6922
憊	-11.6927
辠	-11.6933
髫	-11.6946
媧	-11.6947
篚	-11.6966
莾	-11.6967
淛	-11.6969
帚	-11.697
棼	-11.6973
埜	-11.6993
澠	-11.7007
撑	-11.7009
鋩	-11.7014
揄	-11.7014
沍	-11.7015
渦	-11.7015
笄	-11.7032
𦂳	-11.7035
揀	-11.7053
闚	-11.7056
鞮	-11.7072
悛	-11.7073
瘵	-11.7076
瓉	-11.7077
顱	-11.7079
橐	-11.7098
縵	-11.7098
斲	-11.7099
綈	-11.7101
悒	-11.7101
蓐	-11.7102
崒	-11.7103
瑗	-11.7117
巇	-11.7126
鋸	-11.7127
籞	-11.7145
莞	-11.7162
奭	-11.7167
肢	-11.7191
皥	-11.7211
穡	-11.7211
惨	-11.7214
虀	-11.7215
弇	-11.7231
芙	-11.7231
嶧	-11.7235
芮	-11.7254
崕	-11.7258
膂	-11.726
丰	-11.728
澮	-11.7282
怏	-11.7284
頳	-11.7285
胙	-11.7297
燾	-11.7298
閈	-11.73
㳙	-11.7303
篝	-11.7305
苧	-11.7315
盌	-11.732
壖	-11.7324
罩	-11.7341
潏	-11.7348
柿	-11.7351
蝨	-11.7369
霤	-11.7369
爨	-11.737
擠	-11.7389
瀧	-11.7392
蜕	-11.7394
葑	-11.7419
酧	-11.7436
廕	-11.7453
晳	-11.746
礱	-11.7462
滚	-11.7462
鄜	-11.7482
艫	-11.7484
輜	-11.7486
騑	-11.7488
儵	-11.7491
槊	-11.7503
湟	-11.7506
撻	-11.751
焜	-11.7511
臚	-11.7527
甜	-11.753
矻	-11.7531
搶	-11.7532
啇	-11.7546
飴	-11.7553
罝	-11.7553
膴	-11.7555
巗	-11.7557
礴	-11.7558
蜿	-11.7559
袪	-11.7561
稗	-11.7573
儁	-11.7575
䙝	-11.7577
貰	-11.7598
鼯	-11.7599
揷	-11.7599
逥	-11.7603
涴	-11.7621
蓽	-11.7621
黿	-11.7622
疴	-11.7626
窩	-11.7628
濞	-11.7643
絀	-11.7647
滉	-11.7648
繢	-11.7649
淆	-11.7649
旛	-11.7664
忭	-11.7668
摠	-11.767
啻	-11.7677
刄	-11.7689
酢	-11.7693
柁	-11.7697
雝	-11.7699
溶	-11.771
鷃	-11.7739
嫣	-11.7739
晰	-11.7747
鄠	-11.7758
詶	-11.7762
䬃	-11.7763
堠	-11.7767
喝	-11.7788
蜺	-11.7789
貍	-11.7789
邯	-11.7802
煨	-11.7808
鞞	-11.7809
鍔	-11.7813
㮣	-11.7815
呑	-11.7817
螟	-11.7836
悸	-11.7838
懣	-11.784
洫	-11.7841
灤	-11.7858
澡	-11.7859
䛕	-11.7859
屧	-11.786
儗	-11.7866
汧	-11.7879
瑋	-11.7906
喁	-11.7908
昵	-11.7911
芾	-11.7927
螯	-11.7927
瀦	-11.7935
瀏	-11.7939
纘	-11.7954
佺	-11.7956
懵	-11.7978
菅	-11.798
卬	-11.798
鶱	-11.7981
竚	-11.7981
苒	-11.7982
澦	-11.7984
迦	-11.7991
噉	-11.7993
耉	-11.7997
央	-11.7998
塤	-11.8
鵩	-11.8001
挍	-11.8003
罨	-11.8004
纈	-11.8006
碭	-11.8008
殛	-11.8029
鴞	-11.8029
鄢	-11.8048
衎	-11.8053
閘	-11.806
仝	-11.8073
揉	-11.8077
戞	-11.8098
撝	-11.8101
蕖	-11.8101
娜	-11.8101
錡	-11.8121
磻	-11.8123
涖	-11.8124
碾	-11.8149
寞	-11.8168
刁	-11.8169
刖	-11.8174
㩦	-11.8175
狃	-11.8179
禕	-11.8203
颭	-11.8226
簣	-11.8227
畚	-11.8227
擿	-11.8228
抜	-11.8243
埤	-11.8244
甬	-11.8251
澒	-11.8255
俳	-11.8256
汁	-11.8272
隩	-11.8275
陘	-11.8276
胃	-11.8301
郛	-11.8302
產	-11.8303
埸	-11.8319
擴	-11.8323
蠖	-11.8328
樣	-11.8347
滙	-11.8355
煇	-11.8371
璵	-11.8374
櫝	-11.8374
畛	-11.8374
赩	-11.8383
譖	-11.8397
獺	-11.8398
鑚	-11.8398
匀	-11.8399
溽	-11.8402
魅	-11.842
噭	-11.8431
厝	-11.8448
嚢	-11.8449
疉	-11.845
蜨	-11.845
剏	-11.8451
洙	-11.8451
脾	-11.8451
啾	-11.8451
藺	-11.8467
廏	-11.8469
偓	-11.8469
飼	-11.8499
嶄	-11.8502
跛	-11.8502
糅	-11.8504
弹	-11.8523
嶢	-11.8533
蘸	-11.8551
淥	-11.8551
塡	-11.8553
薙	-11.8579
佾	-11.858
狷	-11.8581
夥	-11.8584
劬	-11.8597
昴	-11.8604
鑊	-11.861
鍵	-11.8629
楣	-11.863
蘺	-11.8631
眎	-11.8633
腫	-11.8653
訕	-11.8655
矰	-11.8655
晟	-11.8659
鏐	-11.8661
猫	-11.8678
鞚	-11.8679
翾	-11.8686
昶	-11.8699
玠	-11.87
沆	-11.8707
灩	-11.8707
臬	-11.8711
咿	-11.8728
娑	-11.8731
罽	-11.8731
𦍑	-11.8731
毿	-11.8734
阼	-11.8755
恡	-11.8756
歧	-11.8757
矮	-11.8761
棨	-11.878
湔	-11.8783
綉	-11.8785
剌	-11.8805
凑	-11.8811
歊	-11.8814
撚	-11.8834
仿	-11.8834
襯	-11.8835
瞋	-11.8836
呦	-11.8837
邏	-11.8838
僦	-11.8844
璩	-11.8854
冏	-11.8855
琬	-11.8859
鏑	-11.886
痾	-11.8862
餼	-11.8866
恂	-11.8884
棐	-11.8898
諏	-11.8899
鼐	-11.8913
闘	-11.8919
崿	-11.892
圮	-11.8923
䓁	-11.8938
簋	-11.8943
扳	-11.8946
醲	-11.8946
旐	-11.8948
戶	-11.8954
蠁	-11.8967
臍	-11.897
遝	-11.8973
攣	-11.8994
鬪	-11.8994
厮	-11.8997
瀁	-11.9
銛	-11.9
滻	-11.9015
苓	-11.9024
鬐	-11.9025
琚	-11.9026
䆫	-11.9043
綫	-11.9049
㓙	-11.905
痼	-11.9051
釃	-11.9051
讋	-11.9052
悰	-11.9053
硎	-11.9054
嵒	-11.9055
吿	-11.9074
惬	-11.9077
襁	-11.908
淞	-11.9082
磾	-11.9096
撒	-11.9102
窣	-11.9104
昩	-11.9107
泱	-11.9109
舠	-11.9109
窆	-11.9127
灧	-11.9131
閥	-11.9132
栩	-11.9135
嫓	-11.9137
噤	-11.9157
縝	-11.9159
酎	-11.9179
勗	-11.9181
鮪	-11.9184
獰	-11.9184
柢	-11.9185
衽	-11.9188
犒	-11.9188
襜	-11.919
㕑	-11.9208
韙	-11.9219
郞	-11.9236
籩	-11.9236
翌	-11.9237
菟	-11.9238
烜	-11.924
黝	-11.9244
汩	-11.9245
旟	-11.9245
靨	-11.9268
哇	-11.9269
碓	-11.927
獠	-11.9274
墖	-11.929
茒	-11.9295
睛	-11.9297
恧	-11.9323
舲	-11.9325
捎	-11.9328
犇	-11.9329
媵	-11.9349
宄	-11.935
㐮	-11.9352
鼂	-11.9352
劈	-11.9353
殪	-11.9354
蕞	-11.9375
窶	-11.9382
勍	-11.9407
釭	-11.9407
皺	-11.9408
婿	-11.9431
糺	-11.9432
囑	-11.9432
𥙿	-11.9433
莠	-11.9437
捄	-11.9437
溯	-11.9437
犍	-11.9462
鋋	-11.9464
枌	-11.9469
凈	-11.9486
炤	-11.9487
訢	-11.9488
嶪	-11.9499
琪	-11.9523
醯	-11.9546
竣	-11.9547
嘖	-11.9547
賻	-11.9548
皛	-11.9551
幰	-11.9571
禳	-11.9572
鴆	-11.9576
斕	-11.9577
緼	-11.9577
甯	-11.9579
倬	-11.9597
邾	-11.9604
煤	-11.9606
鎩	-11.9611
薩	-11.9626
喟	-11.9628
惸	-11.963
糊	-11.9631
瀹	-11.9634
嘒	-11.9639
桮	-11.9656
跣	-11.966
籀	-11.9667
悁	-11.9671
羹	-11.9686
饜	-11.9688
冤	-11.9689
釜	-11.9689
鍜	-11.9689
蹂	-11.9693
洹	-11.9712
槨	-11.9717
輾	-11.9718
囷	-11.9718
蚓	-11.9722
倀	-11.9749
溆	-11.975
蝟	-11.9774
喔	-11.9778
鰕	-11.9779
鴿	-11.9782
涂	-11.9787
剋	-11.9831
敧	-11.9834
悌	-11.9855
㨿	-11.9857
膓	-11.9857
淘	-11.986
褥	-11.9862
濊	-11.9867
鵜	-11.9893
峒	-11.9894
燬	-11.9894
蒔	-11.9894
嗅	-11.9897
茀	-11.9898
珣	-11.9917
摽	-11.9918
枰	-11.9921
罌	-11.9922
媮	-11.9923
駘	-11.9954
珩	-11.9954
洊	-11.9954
蹐	-11.9954
砦	-11.9956
稳	-11.9976
朧	-11.9979
轢	-11.998
紬	-11.998
摐	-11.9981
臠	-11.9981
攙	-11.9982
酡	-11.9984
紵	-12.0002
鸇	-12.0007
鱣	-12.0011
倨	-12.0011
漙	-12.0012
譟	-12.0013
嶇	-12.0013
殳	-12.0014
豺	-12.004
鈇	-12.0042
么	-12.0043
鯀	-12.0044
忡	-12.0045
苾	-12.0067
枿	-12.0068
幬	-12.0072
崐	-12.0094
鞬	-12.0099
糶	-12.0107
壙	-12.0126
嗁	-12.0127
闍	-12.0128
窪	-12.0132
殂	-12.0156
昕	-12.0161
侏	-12.0165
櫬	-12.0184
淖	-12.0193
輳	-12.0193
紿	-12.0193
䆒	-12.0194
犖	-12.0196
蓁	-12.0202
芊	-12.0218
椅	-12.0218
猪	-12.0219
鎗	-12.022
㐫	-12.0242
賭	-12.0251
蠆	-12.0252
狠	-12.0253
慷	-12.0276
羆	-12.0281
芡	-12.0282
穂	-12.0282
哮	-12.0282
狸	-12.0307
溘	-12.0315
蓺	-12.0334
饔	-12.0341
硬	-12.0345
崟	-12.0348
舁	-12.0368
榕	-12.037
癭	-12.0373
恚	-12.0375
糗	-12.0375
錚	-12.0394
䧺	-12.0396
眙	-12.0398
孀	-12.04
壌	-12.0401
靦	-12.0403
噓	-12.0403
㴱	-12.0404
騂	-12.0404
脇	-12.0406
僇	-12.041
姨	-12.0427
莱	-12.0431
憒	-12.0433
滹	-12.0434
猊	-12.0434
茝	-12.0442
庥	-12.0464
鶬	-12.0464
嚙	-12.0467
豨	-12.0467
雊	-12.0491
剩	-12.0494
䆳	-12.0499
廛	-12.0499
荄	-12.0501
曀	-12.0504
溧	-12.0519
靴	-12.0522
做	-12.0528
瑄	-12.0528
撿	-12.0529
垤	-12.0531
斿	-12.0531
祼	-12.0552
黻	-12.0554
韝	-12.0556
醬	-12.0558
掎	-12.0559
楩	-12.0559
詒	-12.056
㶑	-12.056
咆	-12.0563
敺	-12.0564
窳	-12.0591
眥	-12.0592
喋	-12.0593
渫	-12.0614
跬	-12.0626
郴	-12.0646
纏	-12.0652
棚	-12.0652
帔	-12.0652
帘	-12.0653
肸	-12.0654
簴	-12.0655
瓴	-12.0655
枵	-12.0658
蘩	-12.0681
隲	-12.0681
蠒	-12.0683
拚	-12.0683
眚	-12.0686
孛	-12.0687
鼕	-12.0711
漓	-12.0716
篡	-12.0745
邴	-12.0747
屩	-12.0751
瓣	-12.0751
竢	-12.0752
掄	-12.0753
吭	-12.0754
澳	-12.0783
崗	-12.0784
媯	-12.0808
蟇	-12.0809
唫	-12.0811
确	-12.0815
酆	-12.0815
攖	-12.0818
搦	-12.0844
蹻	-12.0851
怍	-12.0851
稹	-12.0856
鄣	-12.0871
洧	-12.0874
筴	-12.0876
舩	-12.0878
鈆	-12.0903
騏	-12.0903
坳	-12.0907
彖	-12.0907
咳	-12.091
莪	-12.0911
倕	-12.0912
塏	-12.0912
繙	-12.0912
燁	-12.0916
伋	-12.0933
臾	-12.0933
佃	-12.0938
暁	-12.094
腮	-12.0942
繅	-12.0942
摵	-12.0944
踔	-12.0945
縢	-12.0947
謌	-12.0974
騄	-12.0974
䲭	-12.0975
迕	-12.0976
凟	-12.0977
个	-12.0979
蹠	-12.098
劄	-12.098
惺	-12.098
蒂	-12.1005
祟	-12.1007
牎	-12.1008
叵	-12.1014
闞	-12.1029
敇	-12.1033
譔	-12.1039
嶰	-12.104
赬	-12.1041
矇	-12.1042
岏	-12.1048
瞞	-12.107
吊	-12.1073
螫	-12.1074
糝	-12.1075
讞	-12.1097
弈	-12.1099
旍	-12.1104
澘	-12.1108
詈	-12.1113
颼	-12.1134
瀍	-12.1134
熨	-12.1138
苫	-12.1139
釧	-12.1165
瀲	-12.1168
釘	-12.117
箧	-12.1199
癢	-12.1202
贔	-12.1206
檟	-12.1206
湥	-12.1207
縲	-12.1208
㢤	-12.1208
鹹	-12.1211
籃	-12.1236
溱	-12.1237
褫	-12.1237
䭾	-12.1238
皴	-12.1241
熄	-12.1242
頫	-12.1244
賫	-12.1267
描	-12.1269
茭	-12.127
焱	-12.1281
韁	-12.1298
飀	-12.1304
眈	-12.1305
宁	-12.1305
庳	-12.1306
刓	-12.1306
貉	-12.1308
鎧	-12.1312
换	-12.1336
雇	-12.134
兜	-12.1342
緻	-12.1344
帕	-12.1373
堊	-12.1374
藳	-12.1376
阯	-12.1403
鵑	-12.1406
螿	-12.1407
汸	-12.1408
鱷	-12.141
櫨	-12.1411
焯	-12.1431
凰	-12.1435
睽	-12.1442
紲	-12.1443
炮	-12.1475
爚	-12.1478
諗	-12.148
遹	-12.148
涅	-12.1505
狁	-12.1507
緌	-12.1507
麄	-12.1509
栱	-12.1509
柞	-12.151
餔	-12.1514
麽	-12.1514
姱	-12.1521
袞	-12.1537
檇	-12.1541
秬	-12.1542
蠭	-12.1543
卸	-12.1543
醁	-12.1543
挐	-12.1544
獬	-12.1544
齪	-12.1548
骼	-12.1578
」	-12.1578
胝	-12.1579
傚	-12.1581
呶	-12.1587
鍚	-12.1606
禅	-12.1606
譛	-12.1644
嚚	-12.1647
雰	-12.1647
薌	-12.1648
氅	-12.1649
憮	-12.165
豗	-12.1653
獮	-12.1679
眦	-12.1683
焙	-12.1683
煽	-12.1687
砢	-12.1688
騅	-12.1714
糲	-12.1714
熬	-12.1717
嫚	-12.1719
吮	-12.1722
坌	-12.1725
瓏	-12.1749
獷	-12.1751
灃	-12.1753
愀	-12.1754
肎	-12.1783
簽	-12.1787
噎	-12.1792
磐	-12.1803
勰	-12.1821
彝	-12.1822
饘	-12.1824
崎	-12.1827
螘	-12.183
蜡	-12.1853
剸	-12.186
韉	-12.1861
埭	-12.1861
磽	-12.1863
嫵	-12.1863
菼	-12.1865
衂	-12.1865
籲	-12.1891
郅	-12.1891
誾	-12.1891
痊	-12.1895
跱	-12.1896
﨑	-12.1898
憺	-12.1898
脰	-12.1903
虖	-12.1905
澂	-12.192
餗	-12.193
耰	-12.1933
壷	-12.1958
虓	-12.1965
諐	-12.1966
豊	-12.1968
蒋	-12.1968
栝	-12.1969
襞	-12.1971
澎	-12.1972
陔	-12.1973
蠕	-12.1975
砰	-12.1977
蚩	-12.1996
鷟	-12.1997
曁	-12.1999
湎	-12.2001
葅	-12.2004
逶	-12.2008
耜	-12.2008
𨗳	-12.2008
輭	-12.2031
瑚	-12.2036
僰	-12.2043
怫	-12.2043
忉	-12.2076
㫺	-12.2078
竆	-12.2079
猖	-12.2081
嘅	-12.2083
匯	-12.2116
禩	-12.2122
戔	-12.2146
掞	-12.2148
隟	-12.215
紡	-12.215
蔀	-12.2151
哽	-12.2152
刎	-12.2152
訇	-12.2158
:	-12.2174
鎰	-12.2178
繰	-12.2183
爕	-12.2183
壕	-12.2186
児	-12.2186
簌	-12.2187
陡	-12.2189
颶	-12.2193
闖	-12.2194
􁶚	-12.221
壼	-12.2216
黟	-12.2217
鮒	-12.222
㝡	-12.2226
渤	-12.2253
縊	-12.2254
萋	-12.2258
嬈	-12.2259
嵋	-12.226
僂	-12.2261
茜	-12.2261
擐	-12.2262
舋	-12.229
騾	-12.2295
磚	-12.2295
蝀	-12.2298
嬋	-12.2298
懊	-12.2298
檉	-12.23
攺	-12.2319
閶	-12.2322
贑	-12.2332
嘹	-12.2337
颿	-12.234
䏻	-12.234
娼	-12.2364
郗	-12.2367
綍	-12.2368
赧	-12.2372
瑯	-12.2373
鞶	-12.2374
澨	-12.2387
関	-12.2401
璆	-12.2405
嬙	-12.2406
粃	-12.2406
旴	-12.2408
噍	-12.2411
媸	-12.2413
猺	-12.2415
陴	-12.2416
猝	-12.2416
咈	-12.2416
蕐	-12.2437
珏	-12.244
勳	-12.2451
阽	-12.2453
踉	-12.2454
啁	-12.2454
疢	-12.2454
筏	-12.2491
跽	-12.2524
駰	-12.2544
孜	-12.2553
慱	-12.2557
痺	-12.2561
綌	-12.2564
坱	-12.2564
邛	-12.2565
堇	-12.2566
佻	-12.2568
㠯	-12.2587
悱	-12.2597
嵫	-12.2598
諼	-12.2598
毶	-12.2599
唼	-12.2604
蚡	-12.2626
扺	-12.2639
謖	-12.2639
裸	-12.2679
貙	-12.268
燐	-12.268
歔	-12.268
惚	-12.2681
眡	-12.2685
郄	-12.2709
挟	-12.2713
篲	-12.2713
扛	-12.2716
喑	-12.2718
贇	-12.272
瀚	-12.274
鮐	-12.2751
裠	-12.2752
閡	-12.2754
摸	-12.2754
遟	-12.2763
朓	-12.2777
騧	-12.2785
煬	-12.2786
獫	-12.2789
蚋	-12.2794
雘	-12.2795
䍐	-12.2795
韈	-12.2828
嚇	-12.2832
跗	-12.2834
庀	-12.2838
珊	-12.2862
枹	-12.2873
僨	-12.2874
婀	-12.2876
贛	-12.2905
煢	-12.2907
謩	-12.2907
篘	-12.2913
泪	-12.2915
餳	-12.2943
嫠	-12.2948
翀	-12.2949
欎	-12.2949
哢	-12.295
猩	-12.2951
滲	-12.2952
牂	-12.2958
葷	-12.2987
帟	-12.2988
踴	-12.2988
禔	-12.2989
尠	-12.299
畯	-12.299
劘	-12.299
琤	-12.2993
葳	-12.2994
僃	-12.3027
蒭	-12.303
褓	-12.3032
聃	-12.3033
魍	-12.307
鬲	-12.3072
磁	-12.3075
豬	-12.3109
䍦	-12.311
邐	-12.311
㽞	-12.3111
歈	-12.3114
瞀	-12.3123
党	-12.3145
蔟	-12.3151
嶓	-12.3153
懟	-12.3154
菘	-12.3154
泐	-12.3155
諴	-12.3175
糚	-12.3187
慴	-12.319
瓮	-12.3191
鞫	-12.3194
讟	-12.3194
玫	-12.3195
槧	-12.3198
刅	-12.3201
睚	-12.3231
廚	-12.3232
䳌	-12.3233
洸	-12.3235
楼	-12.3235
唘	-12.3236
絙	-12.3237
蠏	-12.3274
厖	-12.3274
枲	-12.3274
珙	-12.3278
熛	-12.3279
騘	-12.3306
娣	-12.3312
嵳	-12.3316
洶	-12.3319
阬	-12.3319
鷴	-12.3322
淦	-12.3353
蹷	-12.3354
杌	-12.3354
塑	-12.3356
兊	-12.3357
絓	-12.3359
畸	-12.3363
断	-12.3392
愔	-12.3392
滎	-12.3392
婪	-12.3396
犴	-12.34
磋	-12.3401
汐	-12.3408
豓	-12.3432
驁	-12.3442
灂	-12.3442
䌫	-12.3444
軔	-12.3446
龢	-12.3478
軛	-12.3479
蕕	-12.3481
櫩	-12.3485
藟	-12.3485
饞	-12.3486
畞	-12.3488
踽	-12.349
玘	-12.349
藎	-12.349
闃	-12.3491
丱	-12.3522
轘	-12.3523
捶	-12.3523
緊	-12.3528
妤	-12.3549
嚳	-12.3562
鸑	-12.3564
罳	-12.3568
鍛	-12.3571
鏖	-12.3572
礦	-12.3578
蔔	-12.3603
螽	-12.3604
沌	-12.3606
繻	-12.3608
螳	-12.3608
猋	-12.3608
砭	-12.3612
腓	-12.3612
嶻	-12.3612
疽	-12.3613
飣	-12.3614
掊	-12.3614
闓	-12.3642
匈	-12.3642
詼	-12.3648
袠	-12.365
枋	-12.3651
擥	-12.3658
暠	-12.3685
楞	-12.3692
桄	-12.3693
摰	-12.3694
㫄	-12.3695
删	-12.3696
閾	-12.3697
窱	-12.3697
哨	-12.3705
箎	-12.373
蛄	-12.3735
埴	-12.3736
僶	-12.3736
鎪	-12.3738
繐	-12.3738
壒	-12.3743
偁	-12.3772
絰	-12.3778
匃	-12.3778
唶	-12.3778
嵎	-12.3781
咬	-12.3781
撇	-12.3783
暹	-12.3815
蕡	-12.3822
湃	-12.383
沲	-12.3863
瑱	-12.3863
氍	-12.3864
樟	-12.3865
窬	-12.3867
亰	-12.3868
爝	-12.387
湼	-12.391
詖	-12.391
捽	-12.3912
磈	-12.3913
滃	-12.3922
媫	-12.3936
万	-12.3949
覉	-12.395
腑	-12.3952
恙	-12.3955
鬆	-12.3955
戺	-12.3955
摻	-12.3956
斆	-12.3992
䜿	-12.3994
玳	-12.3994
鄖	-12.3997
渢	-12.3998
韡	-12.4
攲	-12.4001
皜	-12.4003
鏊	-12.4005
㶁	-12.4007
孃	-12.4037
椰	-12.404
賙	-12.4044
淝	-12.4045
穸	-12.4081
瘖	-12.4084
腆	-12.4087
蘊	-12.4088
声	-12.4119
徯	-12.4128
偵	-12.4129
疹	-12.4129
詛	-12.413
診	-12.4132
訏	-12.4132
仡	-12.4133
嚶	-12.4134
鱉	-12.4135
賃	-12.417
汛	-12.4176
獯	-12.4176
個	-12.4178
厪	-12.4184
驎	-12.4216
䕷	-12.4218
蚪	-12.4225
簀	-12.4226
䑛	-12.4227
夹	-12.4262
覦	-12.4264
鯢	-12.4266
橡	-12.4268
㪅	-12.4269
愾	-12.427
倔	-12.4271
洑	-12.4272
磑	-12.4273
証	-12.431
迍	-12.4314
篪	-12.4314
肪	-12.4315
嚥	-12.4316
靉	-12.4318
翃	-12.4345
􁁜	-12.435
呪	-12.4351
洿	-12.4353
筩	-12.4354
筲	-12.4355
賮	-12.4356
璃	-12.4358
捩	-12.4361
洺	-12.4362
躚	-12.4363
簉	-12.4364
躐	-12.4364
軄	-12.4398
飮	-12.4398
琊	-12.4399
噱	-12.4407
咫	-12.4408
爬	-12.4448
瞪	-12.4448
坏	-12.4449
瑒	-12.4449
毆	-12.4455
眾	-12.4485
碕	-12.4493
紼	-12.4494
纁	-12.4494
傖	-12.4496
憀	-12.4497
鼃	-12.4497
孥	-12.4501
噦	-12.4506
櫳	-12.453
萹	-12.4536
鞘	-12.4541
㪺	-12.4542
稌	-12.4543
眊	-12.4545
逭	-12.4549
昜	-12.4583
㛰	-12.4587
蟪	-12.4588
鷂	-12.4589
腊	-12.4589
魎	-12.459
姹	-12.459
軹	-12.4596
蝎	-12.4601
荳	-12.4632
薏	-12.4635
虡	-12.4637
呱	-12.4638
洟	-12.4638
町	-12.4639
􁉡	-12.4639
縗	-12.4676
捋	-12.4684
澍	-12.4686
泖	-12.4687
粕	-12.469
屆	-12.4691
醨	-12.4725
鞲	-12.4729
岧	-12.4734
噏	-12.4734
鰓	-12.474
灮	-12.4769
筞	-12.4774
盭	-12.4777
蟣	-12.478
彜	-12.4781
咍	-12.4782
桁	-12.4783
喆	-12.4783
嘵	-12.4785
嫋	-12.482
㢠	-12.482
蝉	-12.4823
暦	-12.4824
褎	-12.4825
啣	-12.4828
霣	-12.4829
庄	-12.4833
爺	-12.4868
仔	-12.4871
踧	-12.4873
苡	-12.4875
屡	-12.4876
簑	-12.4877
熲	-12.4878
惝	-12.4889
宙	-12.4905
諲	-12.4914
朏	-12.4923
騃	-12.4923
遴	-12.4925
鑷	-12.4926
觱	-12.4927
羝	-12.4928
諉	-12.4929
棫	-12.4965
爆	-12.4967
狺	-12.4969
刦	-12.4973
壈	-12.4975
忖	-12.5018
崪	-12.502
腔	-12.502
据	-12.5024
餮	-12.5026
型	-12.5066
稲	-12.5068
胼	-12.5068
炰	-12.507
絞	-12.5072
緦	-12.5073
璀	-12.5075
劓	-12.5076
戇	-12.5113
楛	-12.5117
讖	-12.5117
劎	-12.5118
粳	-12.5118
齕	-12.5119
礧	-12.5119
套	-12.5119
杠	-12.5121
踆	-12.5123
恫	-12.5124
醆	-12.5162
浯	-12.5165
槌	-12.5166
皖	-12.5167
蒺	-12.5167
瀺	-12.5168
麯	-12.5169
憝	-12.5169
逌	-12.5169
嘷	-12.517
胚	-12.5171
瘧	-12.5171
鎛	-12.5177
郃	-12.5214
鷫	-12.5218
冑	-12.5218
愎	-12.5218
姫	-12.522
歕	-12.5221
兌	-12.5225
爱	-12.5226
滬	-12.5258
椹	-12.5264
睟	-12.5266
瞶	-12.5274
晼	-12.5275
盩	-12.5312
溍	-12.5313
㟧	-12.5315
鯈	-12.5315
种	-12.5318
隮	-12.5318
鍠	-12.5321
莩	-12.5324
鑕	-12.5324
梔	-12.5359
偘	-12.5362
苹	-12.5362
鍪	-12.5364
鄽	-12.5365
柂	-12.5365
鞾	-12.5366
胭	-12.5367
懔	-12.5369
艎	-12.5371
週	-12.5372
敭	-12.5372
嵯	-12.5373
彯	-12.5374
躞	-12.5416
禠	-12.5419
囓	-12.5421
饁	-12.5421
泡	-12.5423
譊	-12.5423
絫	-12.5425
簠	-12.5427
鸚	-12.5461
騮	-12.5462
薝	-12.5463
燋	-12.5464
驌	-12.5468
懴	-12.547
搘	-12.5472
譍	-12.5472
殍	-12.5473
冄	-12.5513
汞	-12.5522
枘	-12.5525
徨	-12.5525
牷	-12.5562
虔	-12.5567
嗛	-12.5572
媾	-12.5575
愒	-12.5576
笮	-12.5579
褁	-12.5581
攽	-12.5615
壝	-12.5626
擗	-12.5626
艋	-12.5626
隖	-12.5627
圩	-12.5627
睞	-12.5627
趄	-12.5629
䞇	-12.563
誹	-12.5632
姧	-12.5667
𬗟	-12.567
遰	-12.5672
㩁	-12.5673
沗	-12.5676
慺	-12.5676
昺	-12.5677
劚	-12.5678
黌	-12.5678
跏	-12.5679
㝛	-12.568
忮	-12.5683
鷇	-12.5684
巑	-12.5688
繽	-12.5688
驃	-12.5717
甎	-12.572
祅	-12.5723
醽	-12.5725
鐶	-12.5726
楝	-12.5727
舴	-12.5731
斮	-12.5732
瘢	-12.5733
憯	-12.5738
胤	-12.5774
璨	-12.5778
蹏	-12.5778
逡	-12.5781
蔦	-12.5782
屭	-12.5786
毖	-12.5786
邙	-12.5819
皐	-12.5827
肋	-12.5829
菡	-12.583
瀋	-12.5831
袐	-12.5835
澇	-12.5837
郟	-12.5843
㢲	-12.5844
珽	-12.5879
旺	-12.5881
蓞	-12.5883
嘽	-12.5884
沭	-12.5885
鄊	-12.5887
帰	-12.5889
槭	-12.589
鏜	-12.5891
㗖	-12.5896
纆	-12.5899
耼	-12.5938
焭	-12.5939
圈	-12.594
帀	-12.5941
怜	-12.5942
郫	-12.5992
珝	-12.5995
賕	-12.5997
摳	-12.5998
齗	-12.5999
谽	-12.6007
厔	-12.604
麛	-12.6042
頊	-12.6044
麑	-12.6049
懃	-12.6049
聱	-12.6049
匄	-12.6049
嶭	-12.605
轝	-12.6051
尫	-12.6054
麏	-12.6054
漑	-12.6054
鍧	-12.606
朅	-12.6097
拗	-12.6101
𤯝	-12.6102
娩	-12.6104
釂	-12.6104
痴	-12.6105
瞭	-12.6107
蜮	-12.611
觝	-12.6151
蒜	-12.6152
摺	-12.6156
悮	-12.6158
菀	-12.6158
鬖	-12.6159
㳫	-12.616
箑	-12.6164
袿	-12.6166
轕	-12.6169
沕	-12.6172
湋	-12.6204
佶	-12.6205
亹	-12.6207
侂	-12.6209
梏	-12.621
碪	-12.6211
栅	-12.6214
怊	-12.622
葯	-12.6226
匭	-12.6267
串	-12.6268
箒	-12.6268
舖	-12.6271
艣	-12.6273
嵂	-12.6275
剃	-12.6313
瑠	-12.6321
蠙	-12.6322
酖	-12.6323
蹉	-12.6326
膜	-12.6327
煴	-12.6332
殲	-12.6333
耔	-12.6333
膊	-12.6357
觳	-12.6378
胞	-12.6379
狻	-12.6379
獍	-12.638
鴂	-12.6384
哆	-12.6384
壍	-12.6384
憸	-12.6385
濘	-12.6385
㫋	-12.6388
谺	-12.6391
澥	-12.6427
虱	-12.643
両	-12.6434
稊	-12.6435
螮	-12.6435
蛸	-12.6437
箬	-12.6437
裯	-12.6439
駔	-12.6442
蝮	-12.6445
馗	-12.6488
踘	-12.6493
忼	-12.6494
茄	-12.6495
暱	-12.6496
惴	-12.6498
鸝	-12.6544
鷖	-12.6547
暵	-12.6551
剜	-12.6553
佽	-12.6554
丨	-12.6597
凾	-12.6599
驀	-12.6605
喣	-12.6606
刲	-12.6607
鸘	-12.6607
麕	-12.6609
瘥	-12.661
睎	-12.6613
淅	-12.6646
鎌	-12.6661
牾	-12.6665
咻	-12.6665
嶙	-12.6666
腳	-12.6666
鉄	-12.6667
唁	-12.6672
癰	-12.6673
单	-12.6718
萁	-12.6721
氈	-12.6722
畒	-12.6723
瞢	-12.6724
郇	-12.6724
罸	-12.6726
譌	-12.6726
綷	-12.6728
蘤	-12.6729
傒	-12.6772
嚻	-12.6773
窀	-12.6775
毉	-12.6776
踠	-12.678
扎	-12.678
俜	-12.6781
翶	-12.6782
暍	-12.6785
蹁	-12.6788
縂	-12.6835
瓞	-12.6836
驦	-12.6836
挼	-12.6839
喇	-12.684
穟	-12.6841
奫	-12.6842
嗈	-12.6843
屼	-12.6843
枸	-12.689
葫	-12.6892
泬	-12.6894
疣	-12.6894
韀	-12.6897
醻	-12.6898
戅	-12.6898
霎	-12.69
抔	-12.6901
喤	-12.6903
臏	-12.695
璈	-12.6953
舡	-12.6953
緐	-12.6954
籓	-12.6954
踶	-12.6955
鵓	-12.6955
槲	-12.6955
濼	-12.6958
陿	-12.6962
渰	-12.6963
勌	-12.6965
帬	-12.7005
羖	-12.7008
璅	-12.7013
憙	-12.7015
趫	-12.7018
螻	-12.7019
虫	-12.7019
狭	-12.702
絏	-12.7022
橑	-12.7023
稂	-12.7024
礚	-12.7032
肹	-12.707
賨	-12.707
暐	-12.7071
儛	-12.7071
絛	-12.7071
幪	-12.7072
痏	-12.7074
甦	-12.7077
鶵	-12.7078
牣	-12.7086
姣	-12.7087
嚭	-12.709
扑	-12.7136
洌	-12.7136
攤	-12.7137
柚	-12.7138
跕	-12.7139
蜷	-12.7148
轓	-12.7185
珎	-12.7188
蓉	-12.7189
魃	-12.7193
菓	-12.7194
綖	-12.7195
咋	-12.7198
靃	-12.7198
揩	-12.7198
墠	-12.7199
蟊	-12.7199
轆	-12.72
鰌	-12.7201
蛆	-12.7206
嚅	-12.7209
粢	-12.7251
画	-12.7252
兗	-12.7254
喃	-12.7255
搥	-12.7256
鱖	-12.7257
廌	-12.726
簦	-12.7261
崱	-12.7263
薾	-12.7265
宂	-12.7312
蝠	-12.7314
抺	-12.7314
赳	-12.7314
嶲	-12.7315
褷	-12.7318
饉	-12.7318
唄	-12.7318
氳	-12.7318
潸	-12.7322
這	-12.7323
椘	-12.7323
䔩	-12.7324
芭	-12.7372
籕	-12.7372
妺	-12.7378
夬	-12.7381
糵	-12.7383
抝	-12.7383
橦	-12.7384
芼	-12.7385
惣	-12.7435
鄱	-12.7437
臊	-12.7439
篸	-12.744
癃	-12.7441
拽	-12.7443
䨴	-12.7443
襆	-12.7443
莵	-12.7444
吃	-12.7444
鏟	-12.7448
剞	-12.7451
誶	-12.7454
秤	-12.7495
籹	-12.75
齓	-12.7503
菉	-12.7505
骯	-12.7506
筥	-12.7507
囁	-12.751
褪	-12.7512
劂	-12.7513
趦	-12.7514
噀	-12.7569
鐍	-12.757
㘭	-12.757
尭	-12.757
裀	-12.757
臈	-12.757
塩	-12.7571
㡳	-12.7572
腎	-12.7573
鏹	-12.7575
坪	-12.758
「	-12.7598
卮	-12.7624
儺	-12.7626
祏	-12.7626
檮	-12.7627
寀	-12.763
齠	-12.763
麞	-12.7631
欬	-12.7636
黮	-12.7636
柅	-12.7637
蛬	-12.7693
凴	-12.7696
篩	-12.7696
舳	-12.7697
晢	-12.7697
鐔	-12.7698
髽	-12.7699
侁	-12.7702
伾	-12.7702
曨	-12.7705
邽	-12.7747
裌	-12.7753
矞	-12.7758
玖	-12.7759
莧	-12.7762
崘	-12.7814
瓛	-12.7818
褉	-12.782
靁	-12.7821
纇	-12.7822
吚	-12.7825
槱	-12.7826
霂	-12.7829
峪	-12.783
篥	-12.7836
䴡	-12.7839
騣	-12.7882
蔌	-12.7884
餧	-12.7888
髒	-12.7888
圅	-12.7889
咮	-12.7889
噶	-12.7889
帨	-12.7889
灕	-12.7893
姸	-12.7894
袷	-12.7894
嘴	-12.7896
蕾	-12.7896
硤	-12.795
欻	-12.7951
愊	-12.7951
偎	-12.7951
氾	-12.7953
鄗	-12.7955
髥	-12.7957
碍	-12.7959
貓	-12.8013
鸊	-12.8014
袋	-12.8018
券	-12.8019
圑	-12.8019
腯	-12.8019
咒	-12.802
惄	-12.8023
跧	-12.8023
岵	-12.8025
怦	-12.8028
梈	-12.8076
吒	-12.8079
闒	-12.8083
趯	-12.8086
蕘	-12.8087
鎚	-12.8089
醸	-12.8089
裼	-12.809
窽	-12.8091
埓	-12.8093
軨	-12.8093
搤	-12.8094
浞	-12.8147
覡	-12.815
棖	-12.8151
鬧	-12.8153
劌	-12.8153
鬒	-12.8153
蠨	-12.8155
囏	-12.8159
繖	-12.8159
緤	-12.816
弢	-12.8161
瞠	-12.8163
轇	-12.8169
匙	-12.8212
彿	-12.8215
蜴	-12.8216
倥	-12.8217
轗	-12.8218
楗	-12.8219
郿	-12.8219
郾	-12.8222
曡	-12.8222
愓	-12.8223
椶	-12.8223
岨	-12.8224
寬	-12.8225
抂	-12.8226
异	-12.8275
櫚	-12.8281
駃	-12.8285
鏌	-12.8287
祊	-12.8287
杕	-12.8287
鞿	-12.829
樅	-12.8291
椁	-12.8292
厰	-12.8296
騭	-12.8343
㬰	-12.835
盬	-12.8352
䠞	-12.8353
擡	-12.8354
蜑	-12.8356
臟	-12.8356
漼	-12.8421
餬	-12.8423
彴	-12.8423
䰅	-12.8424
綯	-12.8428
憬	-12.8428
啗	-12.8433
琁	-12.8481
嶸	-12.8482
叉	-12.8486
杰	-12.8489
搭	-12.849
玅	-12.8492
豋	-12.8492
慌	-12.8493
痿	-12.8494
蠋	-12.8496
嵕	-12.8496
悢	-12.8497
嗾	-12.8498
瓔	-12.8555
糈	-12.8556
丼	-12.8556
侗	-12.8557
玆	-12.8561
茉	-12.8563
䖝	-12.8563
硉	-12.8563
畮	-12.8566
犨	-12.8572
氤	-12.8626
廙	-12.8629
蔞	-12.8631
紞	-12.8633
咲	-12.8633
蹯	-12.8635
、	-12.8654
焞	-12.8695
卨	-12.8697
璁	-12.8698
脤	-12.8699
蜉	-12.8701
罻	-12.8702
双	-12.8707
詧	-12.8709
姤	-12.8716
鄯	-12.8766
嶁	-12.8769
唤	-12.877
覷	-12.8771
櫃	-12.8772
搨	-12.8773
褕	-12.8773
票	-12.8774
郜	-12.8775
䌓	-12.8775
窖	-12.8776
狴	-12.8776
牁	-12.878
胔	-12.8782
圠	-12.8783
㕥	-12.883
儐	-12.8835
溲	-12.8841
窊	-12.8845
踖	-12.8845
踟	-12.8847
輊	-12.8851
脗	-12.8852
傞	-12.8853
癉	-12.8853
漻	-12.8853
曕	-12.8911
掦	-12.8912
戩	-12.8912
躧	-12.8913
昀	-12.8913
蘗	-12.8914
𥜗	-12.8915
硜	-12.8919
牐	-12.8921
圏	-12.8921
棉	-12.8924
鮓	-12.898
蝙	-12.8983
篾	-12.8988
玃	-12.8989
縋	-12.8998
鰐	-12.9006
氂	-12.9053
鬃	-12.9059
莉	-12.9063
褘	-12.9063
髹	-12.9064
獒	-12.9064
餱	-12.9065
滮	-12.9066
嚕	-12.9067
噩	-12.9074
悝	-12.9132
柙	-12.9134
翽	-12.9135
秭	-12.9137
睒	-12.9138
瑪	-12.9142
忸	-12.9148
腷	-12.9167
褧	-12.9199
侖	-12.9206
尨	-12.9206
蒻	-12.9206
禫	-12.9209
欸	-12.921
澱	-12.921
殢	-12.9212
鋟	-12.9212
顫	-12.9214
羑	-12.9215
嘐	-12.9216
蒍	-12.9216
銕	-12.9217
剄	-12.9224
傘	-12.9279
篴	-12.9279
揶	-12.9282
珞	-12.9283
礲	-12.9284
跚	-12.9285
騤	-12.9286
躪	-12.9286
傴	-12.9287
莓	-12.9288
儇	-12.9288
婣	-12.9288
霪	-12.9291
蠓	-12.9291
蝥	-12.9353
蕣	-12.9357
袨	-12.9359
蚍	-12.9359
攔	-12.9359
卹	-12.9361
榷	-12.9362
咷	-12.9365
栻	-12.9432
詿	-12.9432
汍	-12.9432
㬥	-12.9433
佀	-12.9435
鋌	-12.9435
戹	-12.9437
爥	-12.9441
饟	-12.9444
荊	-12.9455
潨	-12.9507
鯖	-12.9509
懍	-12.951
黶	-12.9511
鋼	-12.9513
竁	-12.9514
婭	-12.9518
飆	-12.9525
机	-12.9577
眘	-12.9581
鄼	-12.9584
㫤	-12.9584
襠	-12.9585
㐲	-12.9586
萐	-12.9586
絅	-12.9588
蟉	-12.9591
痡	-12.9593
撙	-12.9599
丫	-12.9667
煞	-12.9669
牴	-12.967
馺	-12.967
藋	-12.9672
圵	-12.9673
燹	-12.9673
呷	-12.9678
棻	-12.974
惛	-12.9742
膻	-12.9743
灊	-12.9744
陕	-12.9744
焕	-12.9745
殮	-12.9745
毹	-12.9748
躊	-12.975
嶤	-12.9751
呴	-12.9751
嗸	-12.9753
砉	-12.9753
姆	-12.9815
塼	-12.9817
毯	-12.9819
鎡	-12.9819
𣆀	-12.9821
匼	-12.9823
綮	-12.9824
鯽	-12.9824
猒	-12.9825
皿	-12.9825
芑	-12.9828
辮	-12.9828
㠝	-12.9829
硠	-12.9831
禜	-12.9894
墄	-12.9894
𣏌	-12.9896
甖	-12.9896
𬒮	-12.9897
枒	-12.99
蜻	-12.9902
襖	-12.9902
穜	-12.9903
砲	-12.9904
泂	-12.9905
籧	-12.9909
荏	-12.991
萸	-12.9913
蜒	-12.9913
揵	-12.9976
頔	-12.9977
磥	-12.998
璐	-12.9981
湣	-12.9981
箝	-12.9984
麰	-12.9985
㩀	-12.9985
㪷	-12.9987
閧	-12.9988
稏	-12.9988
捃	-12.9989
壎	-12.9989
淟	-12.9999
慆	-13.0052
媟	-13.0054
辤	-13.0057
㯶	-13.0058
醵	-13.0062
劖	-13.0064
礬	-13.0065
嫫	-13.0067
兑	-13.0067
霡	-13.0067
痔	-13.0072
悻	-13.0072
《	-13.0106
》	-13.0106
憖	-13.0136
窕	-13.0139
胾	-13.014
塌	-13.014
慥	-13.0143
覼	-13.0148
磕	-13.0149
鯿	-13.015
黧	-13.015
𢾗	-13.0158
矼	-13.0217
獪	-13.0222
嫄	-13.0222
毰	-13.0224
凊	-13.0226
觫	-13.0227
鉶	-13.0227
㯽	-13.0227
禡	-13.0228
睆	-13.0228
眯	-13.0228
痒	-13.0231
隃	-13.0234
鎦	-13.0303
傃	-13.0305
抆	-13.0307
圄	-13.0307
朐	-13.0307
桉	-13.0309
晬	-13.031
賵	-13.0311
硏	-13.0311
犄	-13.0314
嬿	-13.0315
爟	-13.0316
揲	-13.0325
娉	-13.0382
圬	-13.0386
虙	-13.0389
巓	-13.0391
獼	-13.0391
蛉	-13.0393
棍	-13.0393
霙	-13.0394
穨	-13.0394
湑	-13.0395
氲	-13.0395
嫮	-13.0403
徉	-13.0403
蹮	-13.0403
𫝊	-13.0464
痍	-13.0471
憨	-13.0472
歠	-13.0472
垞	-13.0473
麵	-13.0473
毸	-13.0475
枮	-13.0477
箾	-13.0478
濈	-13.0479
鶂	-13.048
蹰	-13.0481
蕝	-13.0481
陊	-13.0481
㲲	-13.0483
疥	-13.0554
燀	-13.0559
猰	-13.056
鷦	-13.0561
継	-13.0563
蒱	-13.0563
刧	-13.0564
戻	-13.0565
霮	-13.0566
蓧	-13.0567
䆗	-13.0567
剿	-13.0569
嵲	-13.0572
駈	-13.0643
紕	-13.0645
狶	-13.0647
噞	-13.0649
矱	-13.065
僎	-13.0651
凹	-13.0651
勩	-13.0652
瀠	-13.0654
蟺	-13.0655
樷	-13.0655
㦯	-13.0656
涊	-13.0664
畇	-13.0664
頠	-13.0722
廱	-13.0725
剉	-13.0726
另	-13.0727
煕	-13.0728
捻	-13.0728
搢	-13.0729
躄	-13.0732
笱	-13.0733
漵	-13.0736
鮭	-13.0736
瞍	-13.0736
韎	-13.0741
枷	-13.0811
𫀆	-13.082
籋	-13.0822
錘	-13.0823
𨳩	-13.0824
茇	-13.0825
喀	-13.0826
僥	-13.0826
謭	-13.0827
獗	-13.0829
鄩	-13.0852
渼	-13.0901
灸	-13.0903
灎	-13.0906
楂	-13.0909
睍	-13.0909
歗	-13.091
囉	-13.0911
烙	-13.0912
魋	-13.0912
䆉	-13.0912
涬	-13.0915
篳	-13.0922
迯	-13.0986
駼	-13.0988
瓿	-13.0992
崙	-13.0993
茰	-13.0995
𥅆	-13.0995
襮	-13.0999
琇	-13.1
蕆	-13.1001
佟	-13.1075
闤	-13.1076
枅	-13.1079
檳	-13.1081
侠	-13.1082
鄔	-13.1083
鏄	-13.1084
榾	-13.1086
桅	-13.1088
娠	-13.1089
酗	-13.1089
蓰	-13.1089
裋	-13.1089
壄	-13.1091
蟒	-13.1091
蠛	-13.1091
緍	-13.1094
庋	-13.1099
鴝	-13.1169
痰	-13.1175
砆	-13.1175
琖	-13.1177
榘	-13.1177
肰	-13.1179
駉	-13.1179
奓	-13.118
玲	-13.1181
誖	-13.1181
薿	-13.1182
􁂰	-13.1182
俑	-13.1186
适	-13.1257
嚲	-13.1261
栧	-13.1264
閠	-13.1265
憗	-13.1265
瑊	-13.1266
桕	-13.1267
秕	-13.1267
墐	-13.1269
彷	-13.1269
鷸	-13.1269
嶕	-13.1272
屴	-13.1272
浡	-13.1275
暕	-13.1343
轜	-13.1351
鑛	-13.1354
漦	-13.1354
膋	-13.1355
妲	-13.1356
岣	-13.1356
蝝	-13.1357
蕢	-13.1357
蠃	-13.1358
䙰	-13.1359
稑	-13.1359
蚯	-13.136
箐	-13.136
砮	-13.1364
膈	-13.1365
樁	-13.1365
搃	-13.1365
艅	-13.1366
楔	-13.1368
屺	-13.1368
蕺	-13.1446
襌	-13.1446
沇	-13.1446
鵒	-13.1448
傀	-13.1449
秸	-13.1449
敔	-13.1449
价	-13.1451
崷	-13.1453
甆	-13.1453
凸	-13.1455
餖	-13.1458
漘	-13.1459
迆	-13.1537
翣	-13.1537
凂	-13.1538
楶	-13.154
剴	-13.1544
霶	-13.1544
轎	-13.1547
窞	-13.1548
韤	-13.155
屓	-13.155
怔	-13.155
梃	-13.1557
傺	-13.156
曶	-13.1562
蓘	-13.1631
滏	-13.1631
萑	-13.1633
欖	-13.1637
鹺	-13.1639
菂	-13.1639
漶	-13.164
齔	-13.164
朣	-13.1641
朘	-13.1643
簨	-13.1643
晣	-13.1643
汔	-13.1643
湢	-13.1644
哩	-13.1646
媺	-13.1646
唏	-13.165
麀	-13.1727
籯	-13.1728
踡	-13.1729
毺	-13.173
㴠	-13.1731
愳	-13.1732
螂	-13.1733
瓷	-13.1733
菶	-13.1734
慠	-13.1734
笭	-13.1737
鼗	-13.1737
頟	-13.1739
捭	-13.174
贋	-13.1741
􁄢	-13.1741
跟	-13.1742
糒	-13.1743
晒	-13.1745
蓱	-13.1819
禖	-13.1827
榿	-13.1828
踦	-13.1829
耤	-13.1829
荈	-13.1831
胯	-13.1832
酇	-13.1832
溔	-13.1834
朦	-13.1836
訿	-13.1838
佪	-13.1841
翱	-13.1847
乱	-13.1913
疃	-13.1923
嗢	-13.1925
櫧	-13.1925
甪	-13.1925
䄡	-13.1926
歜	-13.1931
謄	-13.1932
椉	-13.1932
嶫	-13.1935
㠀	-13.2009
〇	-13.2011
躒	-13.2014
頲	-13.2017
籛	-13.2019
薅	-13.2021
开	-13.2023
菖	-13.2024
舵	-13.2025
鼾	-13.2025
絪	-13.2025
鶊	-13.2026
昈	-13.2026
聵	-13.2028
惙	-13.2029
岝	-13.2029
籝	-13.2029
儡	-13.2029
肚	-13.2031
㢮	-13.2033
慜	-13.2035
璹	-13.2107
騊	-13.2111
韲	-13.2111
𥚑	-13.2115
茞	-13.212
艑	-13.2121
輼	-13.2125
鈕	-13.2125
碔	-13.2127
諄	-13.2127
阸	-13.2127
墁	-13.2129
魈	-13.2129
橊	-13.2135
薆	-13.2135
礼	-13.2209
玢	-13.2216
鴒	-13.2219
賺	-13.222
擻	-13.2221
惎	-13.2223
摴	-13.2225
蹵	-13.2226
瘝	-13.2228
嘬	-13.2228
姁	-13.2228
靆	-13.2228
觶	-13.223
壩	-13.2231
鼷	-13.2231
旤	-13.2234
怩	-13.2236
穣	-13.2313
鶼	-13.2317
箆	-13.232
淈	-13.2322
銍	-13.2322
臛	-13.2322
桔	-13.2323
刜	-13.2325
篛	-13.2325
籤	-13.2325
迮	-13.2325
謦	-13.2328
听	-13.233
湩	-13.233
㕍	-13.2331
箵	-13.2331
瘍	-13.2338
璮	-13.2344
尔	-13.2415
黈	-13.242
蜋	-13.242
簜	-13.2423
廋	-13.2425
禴	-13.2425
簏	-13.2426
欿	-13.2428
杙	-13.2431
跑	-13.2431
勔	-13.2434
蠣	-13.2437
奧	-13.2441
擄	-13.2444
偬	-13.2524
鴇	-13.2525
薖	-13.2525
醎	-13.2528
顴	-13.2531
淶	-13.2531
摉	-13.2534
漩	-13.2534
澑	-13.2535
卄	-13.2536
恇	-13.2537
佹	-13.2537
螗	-13.2538
偲	-13.254
璲	-13.2621
瘤	-13.2623
玕	-13.2623
柷	-13.2627
絍	-13.2628
嗒	-13.263
祸	-13.2631
磎	-13.2631
堧	-13.2631
柈	-13.2632
宷	-13.2632
鱮	-13.2632
芣	-13.2632
坯	-13.2634
頞	-13.2635
芘	-13.2635
鶖	-13.2637
罃	-13.2638
㛹	-13.2639
肫	-13.2641
碗	-13.2643
儈	-13.2643
佔	-13.2647
頵	-13.266
諝	-13.2728
帡	-13.2733
讁	-13.2733
份	-13.2734
抖	-13.2734
褵	-13.2737
鄘	-13.2738
檥	-13.2739
斒	-13.2741
蓆	-13.2743
蕎	-13.2743
蓓	-13.2744
蜎	-13.2745
栭	-13.2746
蚴	-13.2746
琲	-13.2749
輴	-13.2836
杆	-13.2837
敡	-13.2844
葹	-13.2845
觕	-13.2845
鏦	-13.2846
䔿	-13.2846
𣪚	-13.2847
楙	-13.2848
窔	-13.2851
餚	-13.2851
骭	-13.2853
囅	-13.2856
銚	-13.2856
玁	-13.2856
齮	-13.2861
献	-13.2939
栟	-13.2944
釗	-13.2944
皈	-13.2946
旡	-13.2946
揠	-13.2947
禿	-13.2948
醋	-13.2953
麒	-13.2956
襏	-13.2958
燻	-13.2958
甽	-13.2958
漰	-13.2962
蛭	-13.2963
潎	-13.2964
鰋	-13.2964
妆	-13.3055
慇	-13.3056
祍	-13.3058
輞	-13.3059
砑	-13.3059
腠	-13.306
孌	-13.3061
贐	-13.3061
垍	-13.3061
衺	-13.3061
螾	-13.3062
㺄	-13.3062
贒	-13.3062
甔	-13.3064
阱	-13.3066
臲	-13.3066
娭	-13.3071
欱	-13.3072
侘	-13.308
攏	-13.316
龐	-13.3165
棒	-13.3167
潾	-13.3167
簁	-13.3168
邰	-13.3168
聪	-13.3171
鯫	-13.3172
汊	-13.3174
柮	-13.3175
澷	-13.3177
釅	-13.3179
婬	-13.3181
䍥	-13.3183
飂	-13.3186
蟆	-13.3278
眴	-13.3279
㰱	-13.3281
躇	-13.3281
尢	-13.3282
橄	-13.3282
嫰	-13.3284
琥	-13.3284
矟	-13.3284
圞	-13.3284
娵	-13.3284
鈺	-13.3284
㨂	-13.3285
鄮	-13.3286
㬉	-13.3286
蝌	-13.3286
与	-13.3288
齁	-13.3288
鼪	-13.3291
斈	-13.3291
蹡	-13.3292
㙮	-13.3382
栴	-13.3386
䡾	-13.339
㧾	-13.339
跫	-13.3391
鴐	-13.3391
雯	-13.3392
騠	-13.3392
脞	-13.3392
偫	-13.3395
姍	-13.3398
卣	-13.34
犗	-13.34
璡	-13.3401
躑	-13.3403
仳	-13.3403
鄏	-13.3404
悳	-13.3405
哳	-13.3411
澐	-13.35
伃	-13.3501
珵	-13.3501
鈹	-13.3504
珦	-13.3504
眢	-13.3505
呫	-13.3507
惔	-13.3507
苣	-13.3508
棁	-13.351
胍	-13.3511
■	-13.3512
啅	-13.3512
蒟	-13.3513
剷	-13.3513
倆	-13.3514
灺	-13.3515
濙	-13.3516
罣	-13.3521
𬞞	-13.3615
鬘	-13.3618
搓	-13.3621
薳	-13.3622
蚕	-13.3623
瑁	-13.3624
霛	-13.3625
顇	-13.3626
萟	-13.3626
珤	-13.3628
泆	-13.3628
愞	-13.3629
慓	-13.3629
郈	-13.3631
鶋	-13.3631
拮	-13.3633
蝱	-13.3634
糖	-13.3638
朒	-13.364
豉	-13.373
薶	-13.373
臝	-13.3734
尓	-13.3735
抨	-13.3736
鰩	-13.3739
蔫	-13.374
僾	-13.3741
喓	-13.3741
嵊	-13.3741
憍	-13.3744
纑	-13.3745
碨	-13.3745
抶	-13.3747
蜓	-13.3747
旉	-13.3749
岊	-13.375
紜	-13.3808
􁗁	-13.3844
罛	-13.385
努	-13.3851
漯	-13.3852
閿	-13.3853
蜥	-13.3854
靮	-13.3857
瑑	-13.3858
觖	-13.3858
菹	-13.3858
処	-13.3859
橛	-13.3859
幛	-13.386
襫	-13.386
慍	-13.386
濾	-13.3861
縡	-13.3862
彍	-13.3863
尻	-13.3863
䀌	-13.3863
蠹	-13.3864
䢴	-13.3865
硃	-13.3865
蝘	-13.3866
錠	-13.3866
纕	-13.3866
鱨	-13.3867
匵	-13.3869
緄	-13.3869
琉	-13.387
敻	-13.3872
縆	-13.3968
炅	-13.397
郕	-13.3971
眵	-13.3971
澉	-13.3975
撗	-13.3976
褻	-13.3977
崚	-13.3979
嘑	-13.398
瞷	-13.398
鬷	-13.3982
皸	-13.3982
歃	-13.3984
嚌	-13.3988
飰	-13.4091
梲	-13.4099
惵	-13.4099
篨	-13.4103
僝	-13.4104
顕	-13.4108
骹	-13.4208
麫	-13.4212
𡵨	-13.4214
你	-13.4214
熺	-13.4215
鶤	-13.4217
茟	-13.4218
艧	-13.4218
褱	-13.4219
觔	-13.4221
洏	-13.4223
槮	-13.4225
汹	-13.4229
堋	-13.4231
碏	-13.4333
㴩	-13.434
墯	-13.4342
剙	-13.4343
叮	-13.4344
靺	-13.4347
郸	-13.4348
浃	-13.4348
匜	-13.4349
鵂	-13.4349
肜	-13.435
轊	-13.435
骫	-13.4351
刊	-13.4352
㗋	-13.4352
粻	-13.4355
痗	-13.4357
裦	-13.4445
戣	-13.4457
頮	-13.446
囯	-13.446
瘉	-13.4462
泜	-13.4463
㴞	-13.4465
倂	-13.4466
趼	-13.4466
邜	-13.4467
袚	-13.4468
牗	-13.4469
簔	-13.447
站	-13.447
斝	-13.4471
朢	-13.4479
錞	-13.4487
鄄	-13.4578
撡	-13.459
𣢾	-13.459
嚦	-13.4595
坷	-13.4597
皭	-13.4598
􁃔	-13.4599
慽	-13.4599
襚	-13.46
㵎	-13.46
鄫	-13.4602
筰	-13.4604
飃	-13.4605
琹	-13.4606
忳	-13.4608
悾	-13.471
禨	-13.4715
鴦	-13.4715
逷	-13.4718
馹	-13.4719
褏	-13.4719
胆	-13.472
鴰	-13.4721
醼	-13.4721
鬅	-13.4722
逑	-13.4722
飊	-13.4724
釦	-13.4725
瘃	-13.4725
嫺	-13.4725
艨	-13.4725
嶃	-13.4726
絨	-13.4726
醳	-13.4728
嗑	-13.4728
蹢	-13.4729
躕	-13.4729
瀵	-13.4731
熇	-13.4731
譸	-13.4735
駴	-13.4738
徘	-13.4844
踳	-13.4844
冣	-13.4847
殣	-13.4848
潺	-13.4849
塈	-13.4849
麐	-13.4849
驑	-13.4851
胠	-13.4851
嚀	-13.4852
蘼	-13.4852
旓	-13.4853
筇	-13.4854
駬	-13.4854
猘	-13.4855
㬌	-13.4856
縕	-13.4857
櫽	-13.486
梦	-13.4861
矹	-13.4863
飪	-13.4863
軑	-13.4863
痞	-13.4866
䖟	-13.4974
囦	-13.4978
莬	-13.498
鴣	-13.498
扊	-13.4981
恁	-13.4981
爓	-13.4982
嬛	-13.4983
媢	-13.4984
殚	-13.4985
鐻	-13.4985
岈	-13.4989
嫻	-13.4989
孶	-13.499
羾	-13.499
遅	-13.4991
鬨	-13.4993
玭	-13.5107
鄷	-13.5111
鮌	-13.5111
棕	-13.5112
奡	-13.5113
敓	-13.5115
珈	-13.5116
踸	-13.5117
蓏	-13.5117
眤	-13.5118
尙	-13.5118
辣	-13.5119
莛	-13.5119
淰	-13.512
罙	-13.5121
洚	-13.5121
鱏	-13.5122
挨	-13.5123
醥	-13.5123
籐	-13.5124
涆	-13.5124
珌	-13.5127
衊	-13.5128
骳	-13.5129
龠	-13.5129
蕈	-13.5129
唧	-13.5132
礽	-13.5145
瑳	-13.5238
繂	-13.5247
謏	-13.525
扅	-13.525
綢	-13.525
濰	-13.5252
獞	-13.5252
縧	-13.5254
淀	-13.5256
鶹	-13.5257
潗	-13.5257
㸌	-13.5257
髣	-13.5257
恝	-13.5258
崢	-13.5259
筤	-13.5261
靷	-13.5262
磅	-13.5263
阤	-13.5265
皞	-13.5266
晧	-13.5267
伻	-13.5268
偭	-13.5277
鋐	-13.5277
詄	-13.5384
瀄	-13.5386
竑	-13.5386
蟜	-13.5386
驔	-13.5389
轥	-13.539
蝴	-13.539
蚨	-13.5391
怗	-13.5392
筳	-13.5395
蜼	-13.5395
椑	-13.5399
礮	-13.5406
扢	-13.5515
恓	-13.5521
鄶	-13.5525
攴	-13.5526
㴻	-13.553
蚑	-13.553
旹	-13.5531
獝	-13.5532
罡	-13.5532
瞩	-13.5534
螙	-13.5534
惷	-13.5535
䓤	-13.5536
徕	-13.5536
嶒	-13.5539
翛	-13.5649
鸂	-13.5659
很	-13.5659
旆	-13.5661
墢	-13.5662
匳	-13.5665
浼	-13.5665
齅	-13.5665
芉	-13.5666
痁	-13.5666
璪	-13.567
綳	-13.5671
遌	-13.5672
鰍	-13.5672
袛	-13.5673
䘖	-13.5674
琶	-13.5802
辝	-13.5804
苢	-13.5804
饍	-13.5805
䄖	-13.5806
岢	-13.5809
趋	-13.5809
嚘	-13.581
閌	-13.581
漈	-13.581
譓	-13.5811
簳	-13.5812
恟	-13.5814
臑	-13.5814
巂	-13.5815
蹣	-13.5816
阹	-13.5816
噆	-13.582
贗	-13.5823
亍	-13.5826
窋	-13.5833
瀌	-13.5945
鷓	-13.5947
絇	-13.5954
嗷	-13.5955
鰭	-13.5956
撟	-13.5956
牯	-13.5957
芎	-13.5957
屇	-13.5962
噂	-13.5964
訌	-13.5966
齦	-13.5967
礟	-13.5968
滈	-13.5969
蹩	-13.5973
螣	-13.5974
瑭	-13.5982
𥚹	-13.6093
灋	-13.6095
鷩	-13.6097
蒀	-13.6098
挻	-13.6099
闑	-13.61
钁	-13.61
丏	-13.6101
梠	-13.6102
駹	-13.6102
狒	-13.6102
軃	-13.6103
餕	-13.6103
􁊭	-13.6105
勷	-13.6105
惽	-13.6106
虩	-13.6107
罋	-13.6111
敉	-13.6112
稉	-13.6112
鍋	-13.6114
惪	-13.6114
𤇺	-13.624
藨	-13.6244
郪	-13.6246
楽	-13.6247
鱻	-13.6251
鍥	-13.6253
艟	-13.6253
娀	-13.6255
墦	-13.6255
塒	-13.6256
搰	-13.6256
𥿄	-13.6257
逴	-13.6257
揑	-13.6257
蜯	-13.6259
戟	-13.6263
嗥	-13.6266
鳲	-13.6392
酃	-13.6393
桎	-13.6397
篔	-13.64
駪	-13.6402
鷕	-13.6402
橜	-13.6403
縐	-13.6404
柸	-13.6404
釴	-13.6404
鍇	-13.6405
幗	-13.6405
烻	-13.6405
剟	-13.6406
曏	-13.6407
僛	-13.6409
㠑	-13.6409
檗	-13.6409
鶢	-13.641
剚	-13.6411
攟	-13.6411
躨	-13.6412
𠞰	-13.6415
跜	-13.6416
􁬿	-13.6544
荗	-13.6546
嬀	-13.6551
桶	-13.6551
唅	-13.6553
倢	-13.6554
搉	-13.6554
橚	-13.6555
蛚	-13.6556
貤	-13.6557
輗	-13.6558
晛	-13.6558
䊋	-13.656
涣	-13.6561
橅	-13.6563
虒	-13.6565
鈷	-13.6565
泅	-13.6565
黕	-13.6567
涍	-13.6568
嵽	-13.6568
懺	-13.6572
彳	-13.6576
堈	-13.6637
鵕	-13.6707
卼	-13.6707
翿	-13.6708
褶	-13.6708
坫	-13.6709
菆	-13.671
蛺	-13.671
滀	-13.6711
袝	-13.6714
沜	-13.6714
狨	-13.6715
蚶	-13.6715
肓	-13.6717
㯭	-13.6717
㮚	-13.6718
俁	-13.6718
眂	-13.6719
湲	-13.6719
㒒	-13.6719
僄	-13.6719
炁	-13.6719
僱	-13.672
峘	-13.6721
樺	-13.6721
愫	-13.6723
笴	-13.6724
惮	-13.6728
骩	-13.6728
滷	-13.673
獐	-13.6861
禭	-13.6863
頬	-13.687
菔	-13.6871
眭	-13.6872
紃	-13.6874
酴	-13.6875
蔲	-13.6875
髾	-13.6876
頖	-13.6876
蜊	-13.6877
柎	-13.6877
騞	-13.6877
􁀧	-13.6878
鬙	-13.6878
鷞	-13.6878
鐏	-13.6879
雱	-13.688
𠻳	-13.6881
鑴	-13.6882
噣	-13.6882
茢	-13.6882
㭊	-13.6884
峛	-13.6887
汳	-13.689
𧖟	-13.7022
髄	-13.7027
啑	-13.703
嗽	-13.7038
麚	-13.7039
寉	-13.7039
呐	-13.7041
惏	-13.7043
甗	-13.7043
馽	-13.7045
􁎐	-13.7045
窌	-13.7045
輠	-13.7046
犛	-13.7048
敶	-13.7048
輥	-13.7186
􁀨	-13.7191
鵯	-13.7194
囋	-13.7195
咥	-13.7199
鍰	-13.7199
鎁	-13.7199
橰	-13.72
躰	-13.7202
趵	-13.7203
迾	-13.7203
欂	-13.7203
笆	-13.7203
壃	-13.7206
跅	-13.7206
檿	-13.7208
媕	-13.7208
咺	-13.7216
桹	-13.7353
􁾉	-13.7356
逯	-13.7358
袜	-13.7359
珧	-13.736
戦	-13.7361
婞	-13.7361
姐	-13.7362
𤏡	-13.7362
鬉	-13.7362
牸	-13.7364
鞦	-13.7364
㠋	-13.7365
耑	-13.7365
耎	-13.7366
脽	-13.7367
浟	-13.7367
燉	-13.7367
嬝	-13.7368
箙	-13.7368
炕	-13.7369
洱	-13.7371
緖	-13.7372
曚	-13.7372
嬃	-13.7372
拕	-13.7373
麌	-13.7374
媍	-13.7374
􁋆	-13.7375
罿	-13.7376
翯	-13.7377
𫐠	-13.7522
榰	-13.7526
擫	-13.7527
榑	-13.7529
㵸	-13.753
喩	-13.7531
幨	-13.7532
滳	-13.7534
煗	-13.7535
趠	-13.7535
匐	-13.7535
䍧	-13.7536
齶	-13.7536
蜾	-13.7537
瀣	-13.7537
鄺	-13.7537
曅	-13.7537
鶠	-13.7537
髟	-13.7539
堀	-13.754
耡	-13.754
樝	-13.754
艭	-13.7542
蒓	-13.7543
顋	-13.7545
靶	-13.7548
蘙	-13.7548
淊	-13.7551
颻	-13.7694
㓪	-13.7694
啚	-13.7699
搒	-13.7703
鱟	-13.7705
砍	-13.7705
崆	-13.7706
輬	-13.7707
逬	-13.7707
卲	-13.7707
儤	-13.7707
脁	-13.7708
呿	-13.7708
飋	-13.7708
魖	-13.7709
毚	-13.7709
尒	-13.771
邶	-13.7711
驊	-13.7712
峕	-13.7712
昫	-13.7714
㱕	-13.7715
鐲	-13.7717
擭	-13.7717
虣	-13.772
茈	-13.772
辞	-13.7867
匊	-13.7871
裲	-13.7873
棬	-13.7873
姉	-13.7873
鵊	-13.7874
亐	-13.7874
䴊	-13.7878
尽	-13.7881
縚	-13.7881
竛	-13.7881
齩	-13.7882
䙀	-13.7883
堮	-13.7883
臃	-13.7883
騩	-13.7884
韮	-13.7885
楥	-13.7885
魑	-13.7886
㮰	-13.7887
膰	-13.7889
軏	-13.789
爌	-13.789
蝇	-13.7891
䀨	-13.7893
晊	-13.7895
旼	-13.8044
籊	-13.8045
􁈍	-13.8049
体	-13.8052
恆	-13.8053
啐	-13.8056
堨	-13.8058
筈	-13.8059
兟	-13.806
觿	-13.8061
蚳	-13.8061
儌	-13.8063
酳	-13.8063
魦	-13.8064
韔	-13.8064
涑	-13.8065
訬	-13.8065
諓	-13.8066
蝤	-13.8068
濉	-13.8068
嵸	-13.8068
蜲	-13.8068
漎	-13.8069
鬴	-13.807
奰	-13.8072
㓛	-13.8072
嵁	-13.8073
憭	-13.8074
麃	-13.8233
濔	-13.8234
闠	-13.8235
醤	-13.8236
糕	-13.8237
􁉤	-13.8237
蛱	-13.8239
騕	-13.8239
窑	-13.8239
藷	-13.824
窰	-13.824
犠	-13.8241
轣	-13.8243
諟	-13.8243
蠺	-13.8243
邲	-13.8243
竮	-13.8244
撈	-13.8244
隒	-13.8244
篿	-13.8245
薋	-13.8245
碝	-13.8246
燖	-13.8248
迃	-13.8248
褌	-13.8249
呢	-13.825
􁌣	-13.8251
卅	-13.8252
韐	-13.8252
鞳	-13.8253
騀	-13.8253
繘	-13.8255
吰	-13.8257
霢	-13.8261
葸	-13.8411
柤	-13.8421
𡑞	-13.8422
枤	-13.8424
粔	-13.8427
泒	-13.8428
嚄	-13.8428
頩	-13.8428
哤	-13.8428
劻	-13.8428
懆	-13.8429
屮	-13.843
綝	-13.8432
倮	-13.8432
趐	-13.8433
崺	-13.8439
旎	-13.8439
軷	-13.844
蕷	-13.844
嵼	-13.8442
嫪	-13.8443
䚟	-13.8446
􁀔	-13.8573
巏	-13.8601
䘲	-13.8607
㮄	-13.8609
杅	-13.8609
搯	-13.8611
􁩉	-13.8611
㹠	-13.8612
槥	-13.8613
膿	-13.8613
頏	-13.8614
齾	-13.8614
廞	-13.8614
噰	-13.8614
雚	-13.8615
煆	-13.8615
嬗	-13.8616
䥴	-13.8618
畣	-13.8618
鼖	-13.8619
缽	-13.8619
鶘	-13.862
斨	-13.8621
齚	-13.8622
縰	-13.8622
嚱	-13.8622
焄	-13.8624
騋	-13.8624
蠚	-13.8625
甝	-13.8625
莋	-13.8627
鼛	-13.8628
餁	-13.8629
碌	-13.8632
鱄	-13.8634
駓	-13.8639
皚	-13.8793
璛	-13.8798
罼	-13.88
眶	-13.8804
礿	-13.8804
轤	-13.8805
廥	-13.8805
拲	-13.8806
㵳	-13.8806
冪	-13.8807
􁚐	-13.8807
悊	-13.8808
觡	-13.881
韍	-13.881
忲	-13.881
遫	-13.8812
觩	-13.8812
􁎘	-13.8813
䴥	-13.8814
沄	-13.8814
𤾉	-13.8815
娬	-13.8815
罭	-13.8815
时	-13.8816
鸕	-13.8816
鮞	-13.8819
鰣	-13.8819
闟	-13.8821
栲	-13.8823
藭	-13.8825
戃	-13.883
甡	-13.8992
骰	-13.8992
昪	-13.8993
勠	-13.8995
罫	-13.8996
䝿	-13.8999
漷	-13.8999
挏	-13.9
塉	-13.9
矴	-13.9001
跇	-13.9003
翆	-13.9003
蠔	-13.9003
慁	-13.9005
胏	-13.9005
繦	-13.9006
澔	-13.9006
鰈	-13.9007
綀	-13.9007
瞵	-13.9008
葐	-13.9008
傪	-13.9008
禬	-13.9008
摟	-13.9009
緲	-13.9009
匾	-13.901
獎	-13.901
𦦨	-13.901
枑	-13.9011
礨	-13.9012
鱅	-13.9013
独	-13.9015
髖	-13.9016
鼬	-13.9016
諰	-13.9018
拇	-13.9018
傕	-13.9189
蝃	-13.9199
㕙	-13.92
棰	-13.92
嫕	-13.92
桒	-13.9201
麪	-13.9201
埠	-13.9202
甋	-13.9202
蘘	-13.9206
洼	-13.9206
鱒	-13.9206
胖	-13.9207
𢋫	-13.9208
弮	-13.9209
饎	-13.9209
螀	-13.921
鵙	-13.9212
笇	-13.9212
垕	-13.9213
悙	-13.9213
佁	-13.9215
詗	-13.9216
㻞	-13.9221
吷	-13.9223
翡	-13.9387
杻	-13.9396
棅	-13.9401
嚨	-13.9402
蒹	-13.9404
蓻	-13.9404
薁	-13.9405
㪍	-13.9405
芍	-13.9405
滫	-13.9407
蠵	-13.9407
滍	-13.9408
鸒	-13.9409
苶	-13.9409
穪	-13.941
䪥	-13.9411
䠥	-13.9412
踢	-13.9413
瀯	-13.9413
崍	-13.9413
葴	-13.9414
侄	-13.9415
谹	-13.9416
椷	-13.9416
􁦛	-13.9416
矑	-13.9418
噌	-13.9418
薯	-13.9418
磳	-13.9419
䆿	-13.9423
鯷	-13.9425
瑨	-13.9607
埆	-13.9608
嫜	-13.9609
宐	-13.9612
媞	-13.9612
焴	-13.9613
鷮	-13.9613
讇	-13.9614
噢	-13.9614
鮆	-13.9614
覻	-13.9615
鋗	-13.9616
瘐	-13.9616
离	-13.9617
籺	-13.9618
蘐	-13.9619
髿	-13.962
幀	-13.9621
駊	-13.9624
慅	-13.9625
响	-13.9625
􁂶	-13.9625
㴶	-13.9625
晹	-13.9626
鈒	-13.9627
蟫	-13.9627
墆	-13.9628
荂	-13.9628
薉	-13.9629
䦧	-13.9631
蜆	-13.9631
湱	-13.9631
垜	-13.9632
瀜	-13.9633
鱧	-13.9637
迒	-13.9637
冱	-13.9642
觺	-13.9651
﨣	-13.9817
鱓	-13.9818
貘	-13.982
薲	-13.9821
淢	-13.9821
猭	-13.9822
毌	-13.9822
宝	-13.9822
袀	-13.9823
􁑭	-13.9823
黤	-13.9825
揕	-13.9827
羜	-13.9827
戬	-13.9827
帢	-13.9827
鞌	-13.9828
倜	-13.9828
湞	-13.9828
墝	-13.9829
痌	-13.983
枍	-13.983
蜍	-13.983
潬	-13.9831
巃	-13.9832
蹜	-13.9832
渣	-13.9832
鱍	-13.9832
㹅	-13.9832
遛	-13.9833
仃	-13.9834
鷽	-13.9835
懨	-13.9835
匆	-13.9835
龏	-13.9835
杈	-13.9836
鋹	-13.9836
蜧	-13.9837
磝	-13.9837
牱	-13.9838
瀡	-13.9838
暏	-13.9841
鬵	-13.9846
䱷	-13.9849
茌	-14.0035
啿	-14.0038
幞	-14.0039
襴	-14.0039
靠	-14.0041
佉	-14.0041
妁	-14.0041
嗃	-14.0042
偰	-14.0042
橤	-14.0042
䮍	-14.0042
靸	-14.0042
颮	-14.0043
嘱	-14.0044
裶	-14.0045
縿	-14.0045
捆	-14.0045
蔪	-14.0047
忞	-14.0048
薠	-14.0048
糇	-14.0049
澟	-14.0049
椓	-14.005
弰	-14.0051
𣣔	-14.0052
笯	-14.0054
艓	-14.0054
庐	-14.0055
糯	-14.0058
泲	-14.0062
髧	-14.0064
儃	-14.0065
􁁄	-14.0066
蝡	-14.0066
侲	-14.0067
鏝	-14.0251
昞	-14.0254
狌	-14.0255
冋	-14.0259
􁂋	-14.0264
盒	-14.0264
惆	-14.0265
蜣	-14.0265
睱	-14.0265
䒠	-14.0267
皡	-14.0267
箯	-14.0267
穱	-14.0268
氄	-14.0268
䗶	-14.0268
􁡯	-14.0269
毣	-14.0269
僴	-14.0269
姙	-14.027
蠐	-14.027
襶	-14.0272
崫	-14.0272
蚿	-14.0272
昳	-14.0272
鍭	-14.0274
凘	-14.0274
浰	-14.0275
谼	-14.0276
垝	-14.0277
醍	-14.0277
蕰	-14.0277
稭	-14.0278
縭	-14.0279
棓	-14.0282
揫	-14.0287
号	-14.0472
鐮	-14.0485
𧦬	-14.0485
蝹	-14.0487
􁒍	-14.049
瘇	-14.049
槪	-14.049
悺	-14.0492
趪	-14.0494
紾	-14.0494
秊	-14.0494
䡖	-14.0495
椏	-14.0495
紖	-14.0495
訞	-14.0495
窫	-14.0496
餵	-14.0496
溈	-14.0496
巣	-14.0497
裓	-14.0497
㩻	-14.0498
髵	-14.0499
泞	-14.0499
媻	-14.0499
曭	-14.0499
䎹	-14.05
褦	-14.05
鱔	-14.05
􁰈	-14.05
蛹	-14.05
㚄	-14.05
栰	-14.05
㜸	-14.05
禂	-14.0501
莨	-14.0503
陗	-14.0503
𣑽	-14.0503
哄	-14.0504
搊	-14.0506
䓗	-14.0507
瞫	-14.0507
焮	-14.0508
箘	-14.0508
梬	-14.051
鞨	-14.051
麖	-14.0515
潚	-14.0516
楢	-14.0702
赮	-14.0714
䥥	-14.0714
􁚣	-14.0717
礐	-14.0718
箜	-14.0718
廧	-14.0719
淯	-14.0721
醞	-14.0723
犲	-14.0723
櫑	-14.0724
柹	-14.0727
輀	-14.0727
臿	-14.0727
矉	-14.0727
媼	-14.0728
戄	-14.0729
岪	-14.0729
鶿	-14.073
棱	-14.0731
硌	-14.0732
苯	-14.0732
鵉	-14.0735
艴	-14.0738
䌨	-14.0738
佖	-14.0739
喊	-14.0739
堁	-14.0741
唉	-14.0744
蝄	-14.0744
凥	-14.0745
瑲	-14.0745
墱	-14.0746
麂	-14.0748
睩	-14.0753
溓	-14.0757
䟃	-14.095
逍	-14.0954
銼	-14.0956
晙	-14.0956
崌	-14.0956
厩	-14.0958
鵁	-14.0959
㗳	-14.096
趕	-14.0961
憔	-14.0961
庨	-14.0964
輣	-14.0964
憕	-14.0966
紝	-14.0966
䓻	-14.0967
鞓	-14.0967
􁌫	-14.0967
奘	-14.0968
鯶	-14.0968
檎	-14.0968
焫	-14.0968
矕	-14.0969
癲	-14.0969
槔	-14.097
玼	-14.097
睋	-14.0972
粽	-14.0974
斍	-14.0975
惉	-14.0975
僬	-14.0976
鰻	-14.0976
駏	-14.0978
橇	-14.0979
烺	-14.0979
淜	-14.098
酟	-14.098
㳅	-14.098
罶	-14.098
茷	-14.0981
簵	-14.0984
螡	-14.0985
轞	-14.0987
厫	-14.0998
搬	-14.1199
􁇶	-14.1201
缷	-14.1201
栘	-14.1203
嶈	-14.1204
蔆	-14.1204
袗	-14.1204
􁃜	-14.1205
􁛲	-14.1205
痟	-14.1205
髳	-14.1205
傔	-14.1208
鞗	-14.1208
嵑	-14.1209
爣	-14.1209
􁚳	-14.1209
㹀	-14.121
泙	-14.121
痱	-14.121
煅	-14.121
疼	-14.121
佼	-14.1211
􁄭	-14.1211
稺	-14.1211
熯	-14.1213
萄	-14.1213
􁪄	-14.1214
瀇	-14.1214
㦲	-14.1214
掐	-14.1214
轠	-14.1215
佅	-14.1215
轙	-14.1216
烋	-14.1216
悪	-14.1216
􁈔	-14.1216
澼	-14.1216
咢	-14.1218
隥	-14.1219
蓛	-14.1219
􁥀	-14.1219
昡	-14.122
餫	-14.122
躶	-14.1221
埳	-14.1221
玎	-14.1221
颾	-14.1221
贙	-14.1223
虆	-14.1223
熸	-14.1224
獑	-14.1224
脹	-14.1224
醊	-14.1224
鬋	-14.1226
爹	-14.1231
暅	-14.1441
䫇	-14.1443
䜴	-14.1443
𧽼	-14.1446
杇	-14.145
傱	-14.145
踝	-14.1453
嚞	-14.1453
竞	-14.1455
埧	-14.1457
憃	-14.1458
堲	-14.1458
滾	-14.1458
絣	-14.146
囈	-14.146
変	-14.146
翏	-14.1461
炒	-14.1463
澓	-14.1463
繣	-14.1463
廰	-14.1463
俙	-14.1463
蹍	-14.1463
􁓈	-14.1464
惓	-14.1464
栒	-14.1464
趿	-14.1464
蔾	-14.1465
螓	-14.1465
嶟	-14.1466
蚖	-14.1467
獧	-14.1467
􁃩	-14.147
棽	-14.1472
賠	-14.1472
􁎾	-14.1473
厺	-14.1475
泔	-14.1476
筧	-14.1476
緺	-14.1481
甒	-14.1698
戭	-14.1701
蔿	-14.1703
晀	-14.1705
艚	-14.1709
暜	-14.1709
酅	-14.171
蟈	-14.1711
捴	-14.1711
䳵	-14.1711
嬲	-14.1712
𣅿	-14.1712
搪	-14.1715
孏	-14.1716
鋣	-14.1716
蔻	-14.1716
柜	-14.1717
醰	-14.1717
砯	-14.1717
烖	-14.1717
妊	-14.1717
匍	-14.1717
顑	-14.1719
崝	-14.1719
㟼	-14.172
􁒽	-14.1721
浤	-14.1721
剨	-14.1721
𧹞	-14.1721
衜	-14.1722
䵷	-14.1723
蹛	-14.1723
㟏	-14.1724
伹	-14.1724
窴	-14.1724
睪	-14.1724
佷	-14.1725
鞴	-14.1725
􁂚	-14.1725
耇	-14.1726
􁌁	-14.1727
蛑	-14.1727
墋	-14.1728
廄	-14.1729
呰	-14.1729
鞹	-14.1731
欐	-14.1731
磶	-14.1738
墬	-14.1739
缻	-14.1953
寱	-14.1961
晜	-14.1965
稸	-14.1969
肣	-14.1969
瘏	-14.1969
謎	-14.1969
稡	-14.197
畈	-14.1971
禝	-14.1971
茱	-14.1972
􁊯	-14.1972
蛣	-14.1972
葚	-14.1975
鏚	-14.1976
􁘌	-14.1976
忺	-14.1976
鬌	-14.1976
蓲	-14.1976
觽	-14.1977
􁠘	-14.1977
輤	-14.1977
隑	-14.1977
鏇	-14.1978
檛	-14.1979
涷	-14.1979
矅	-14.198
瀐	-14.198
拑	-14.1982
忪	-14.1982
蟀	-14.1982
珷	-14.1982
筓	-14.1982
胛	-14.1983
𢡟	-14.1983
㟪	-14.1984
眒	-14.1984
黳	-14.1985
襧	-14.1985
胹	-14.1986
玈	-14.1987
􁀈	-14.1987
唆	-14.1988
鵽	-14.1988
窐	-14.1988
晲	-14.1988
贜	-14.1989
輵	-14.1989
磩	-14.199
鞀	-14.1991
粵	-14.1991
祻	-14.1993
驘	-14.1994
峝	-14.1995
嵺	-14.1997
蜽	-14.2005
鉠	-14.2021
犮	-14.2232
珀	-14.2233
俔	-14.2238
囝	-14.2238
䥷	-14.2239
韣	-14.2239
涒	-14.224
􁇪	-14.2242
㷔	-14.2242
螬	-14.2242
悆	-14.2242
伷	-14.2242
嗌	-14.2243
䔍	-14.2245
炘	-14.2245
痢	-14.2246
戽	-14.2248
雈	-14.2249
扤	-14.2249
拶	-14.2249
还	-14.225
䰐	-14.2251
䔥	-14.2251
灯	-14.2253
䬟	-14.2253
僸	-14.2253
鰅	-14.2253
躃	-14.2254
鐐	-14.2254
麇	-14.2254
訹	-14.2255
撏	-14.2255
謷	-14.2256
𠢐	-14.2257
峗	-14.2258
魘	-14.2258
爀	-14.2259
洳	-14.2261
馡	-14.2262
殭	-14.2263
凃	-14.2506
焬	-14.251
獱	-14.2512
婵	-14.2516
􁈡	-14.2517
鵡	-14.252
㭬	-14.252
窹	-14.252
磢	-14.252
俻	-14.2521
蚺	-14.2522
韺	-14.2524
狉	-14.2525
乹	-14.2526
𣙗	-14.2526
礒	-14.2529
䏑	-14.2529
拷	-14.2529
碇	-14.253
豝	-14.253
餤	-14.2532
穯	-14.2532
卋	-14.2532
鞻	-14.2533
薬	-14.2533
耴	-14.2533
臀	-14.2534
瀴	-14.2535
弨	-14.2535
杗	-14.2535
謼	-14.2535
霿	-14.2536
葓	-14.2536
伈	-14.2537
痂	-14.2538
閜	-14.2539
跐	-14.2539
硿	-14.2539
懘	-14.254
橧	-14.2541
􁋥	-14.2541
岋	-14.2541
䍡	-14.2542
蔴	-14.2543
蒢	-14.2544
㕒	-14.2548
汋	-14.2549
摋	-14.2551
瓖	-14.2553
癩	-14.2798
从	-14.2798
錙	-14.2798
倛	-14.2801
穊	-14.2801
烕	-14.2802
曒	-14.2804
􁀰	-14.2805
瞎	-14.2805
鑼	-14.2808
靫	-14.2808
䄜	-14.2808
轒	-14.2808
侫	-14.2809
􁁏	-14.2809
􁂍	-14.281
鞈	-14.281
鍍	-14.281
􁄕	-14.2812
蘀	-14.2812
䞉	-14.2813
瓅	-14.2813
玗	-14.2813
挶	-14.2814
􁁥	-14.2814
广	-14.2815
喏	-14.2815
峞	-14.2816
嘍	-14.2816
嗉	-14.2817
襹	-14.2817
鰱	-14.2818
彠	-14.2819
􁚓	-14.2819
樑	-14.2819
摎	-14.2819
媠	-14.282
絝	-14.2821
矖	-14.2821
姗	-14.2821
萵	-14.2821
羂	-14.2821
鴥	-14.2822
蟁	-14.2822
裎	-14.2822
嘩	-14.2822
㨾	-14.2826
陻	-14.2826
廁	-14.2826
𬈑	-14.2827
湝	-14.2829
溰	-14.2829
硫	-14.283
狋	-14.283
厜	-14.2836
扐	-14.2838
盝	-14.2839
駍	-14.2843
鷥	-14.3088
僔	-14.3096
􁏉	-14.3097
㕛	-14.3098
㲄	-14.3098
躩	-14.3099
麩	-14.31
𨼆	-14.31
跦	-14.31
駙	-14.3101
霫	-14.3101
帋	-14.3101
鄀	-14.3102
硩	-14.3102
黭	-14.3103
㩧	-14.3104
䁥	-14.3104
􁰽	-14.3104
玓	-14.3105
壥	-14.3105
㩜	-14.3105
謪	-14.3106
埈	-14.3106
㦧	-14.3107
揃	-14.3107
蹬	-14.3107
寠	-14.3108
梐	-14.3109
湠	-14.3109
廳	-14.3109
膇	-14.3111
佘	-14.3111
擪	-14.3111
褠	-14.3112
葽	-14.3113
諵	-14.3113
􁱷	-14.3113
陼	-14.3113
鉸	-14.3114
砠	-14.3114
羚	-14.3115
髏	-14.3115
疈	-14.3115
魨	-14.3116
蓨	-14.3116
􁰓	-14.3116
顣	-14.3116
㽜	-14.3116
獃	-14.3117
鮎	-14.3117
孴	-14.3118
徔	-14.3118
訑	-14.3118
稃	-14.312
駜	-14.3122
揎	-14.3122
昰	-14.3126
銃	-14.3129
弸	-14.3129
􁭁	-14.3136
柲	-14.314
浜	-14.3157
􁭆	-14.3397
螉	-14.3398
鄲	-14.3399
䱉	-14.3401
怎	-14.3402
艖	-14.3405
崈	-14.3405
蕳	-14.3406
􁁪	-14.3406
睥	-14.3407
嫿	-14.3408
頍	-14.3408
猙	-14.3408
髴	-14.3409
鬣	-14.3409
􁄚	-14.341
膬	-14.341
䄄	-14.341
𫾣	-14.341
炱	-14.3411
崞	-14.3411
嚵	-14.3412
􁃝	-14.3412
桫	-14.3412
鉷	-14.3412
饈	-14.3412
欏	-14.3414
杷	-14.3414
傜	-14.3414
瑽	-14.3415
鐄	-14.3415
盋	-14.3415
爗	-14.3415
嶝	-14.3415
胊	-14.3416
玞	-14.3417
洢	-14.3417
蟭	-14.3418
畼	-14.3418
鸐	-14.3418
貐	-14.342
葘	-14.342
儿	-14.342
瑘	-14.3421
渗	-14.3421
嫭	-14.3424
峍	-14.3424
溴	-14.3425
迋	-14.3425
濎	-14.3426
喨	-14.3427
欃	-14.3428
蘪	-14.3432
敳	-14.3702
鷔	-14.3706
豭	-14.3709
呃	-14.371
溳	-14.3713
嶬	-14.3714
縯	-14.3715
帣	-14.3715
􁂦	-14.3716
蟨	-14.3716
鍉	-14.3717
珫	-14.3718
笨	-14.3718
茙	-14.3719
礜	-14.372
矌	-14.3721
疪	-14.3721
㽵	-14.3722
櫕	-14.3722
䂮	-14.3723
桱	-14.3725
衖	-14.3725
猢	-14.3726
狢	-14.3726
莝	-14.3726
彙	-14.3726
櫹	-14.3727
唲	-14.3728
蛀	-14.3728
􁒬	-14.373
躠	-14.3731
儦	-14.3731
䊵	-14.3732
荣	-14.3732
鱭	-14.3733
侐	-14.3734
鮋	-14.3734
霱	-14.3734
岞	-14.3735
症	-14.3735
倄	-14.3735
芄	-14.3735
𢥠	-14.3736
曯	-14.3736
輷	-14.3736
鞉	-14.3737
櫸	-14.3737
偟	-14.3737
楟	-14.3739
􁑮	-14.3741
椐	-14.3741
耾	-14.3741
崴	-14.3742
碆	-14.3746
毐	-14.3761
膄	-14.4026
衱	-14.4028
杶	-14.403
袢	-14.403
餻	-14.4032
悋	-14.4033
愻	-14.4034
疐	-14.4037
菭	-14.4038
跲	-14.4038
頦	-14.4039
婕	-14.4039
庒	-14.4039
𬋩	-14.404
舐	-14.404
􁞘	-14.4043
篹	-14.4044
蒩	-14.4044
繯	-14.4044
兪	-14.4045
􁁺	-14.4045
撅	-14.4045
晌	-14.4045
氿	-14.4045
鷳	-14.4046
撆	-14.4046
瑴	-14.4046
齏	-14.4047
屎	-14.4048
碉	-14.4048
瘕	-14.4049
醭	-14.405
俵	-14.405
闛	-14.405
哷	-14.4051
婓	-14.4051
􁎗	-14.4051
賝	-14.4051
㬢	-14.4052
慫	-14.4052
澩	-14.4052
龡	-14.4052
胈	-14.4053
瓤	-14.4053
􁒷	-14.4055
栳	-14.4055
堄	-14.4056
軆	-14.4056
掔	-14.4056
狿	-14.4057
􁃻	-14.4058
趎	-14.406
􁠬	-14.4063
溠	-14.4064
熿	-14.4065
鯊	-14.4066
樨	-14.4067
覛	-14.4068
㡛	-14.4071
熅	-14.4076
窿	-14.4079
􁨹	-14.4324
磓	-14.4348
嶜	-14.4359
済	-14.4364
嚏	-14.4365
汯	-14.4369
媳	-14.437
喳	-14.4371
椸	-14.4371
䠱	-14.4372
􁱝	-14.4373
傯	-14.4373
䴠	-14.4375
鬈	-14.4375
楅	-14.4376
䗫	-14.4377
絁	-14.4377
們	-14.4378
裭	-14.4378
攦	-14.4378
蜇	-14.4378
䘵	-14.4378
穅	-14.4379
箄	-14.4379
晥	-14.4379
菩	-14.438
䬙	-14.4381
楬	-14.4382
畺	-14.4383
嵾	-14.4384
覂	-14.4385
溵	-14.4385
賅	-14.4385
儳	-14.4385
俺	-14.4385
䂖	-14.4385
鮦	-14.4387
恌	-14.4388
揳	-14.4388
棡	-14.4388
㧙	-14.4388
璺	-14.4391
衹	-14.4392
梴	-14.4392
馞	-14.4393
畟	-14.4394
畷	-14.4396
榝	-14.4398
芴	-14.4403
仟	-14.4404
潝	-14.4423
苃	-14.4703
騵	-14.4706
飶	-14.471
袙	-14.4716
蟢	-14.4716
驆	-14.4716
伭	-14.4717
坁	-14.4718
鍮	-14.4718
􁱘	-14.4718
鰷	-14.4719
帊	-14.4719
瞹	-14.4721
醝	-14.4721
妳	-14.4721
跆	-14.4722
㬅	-14.4722
萏	-14.4723
􁣉	-14.4723
襵	-14.4723
桚	-14.4724
匽	-14.4724
傋	-14.4725
憛	-14.4725
鸜	-14.4725
芩	-14.4726
卍	-14.4726
划	-14.4726
綟	-14.4727
愡	-14.4727
抓	-14.4728
庬	-14.4729
㥜	-14.4729
臡	-14.4729
􁀳	-14.473
澴	-14.473
㣧	-14.473
裩	-14.473
褾	-14.4731
囹	-14.4731
諑	-14.4731
鼒	-14.4732
橢	-14.4732
咂	-14.4733
櫋	-14.4733
鳿	-14.4733
綣	-14.4733
㪯	-14.4733
玟	-14.4734
邗	-14.4735
輛	-14.4736
樠	-14.4737
囤	-14.4738
罦	-14.4738
鍬	-14.4738
琫	-14.4739
㠘	-14.4739
鞟	-14.474
訒	-14.474
觹	-14.4741
燇	-14.4742
殀	-14.4743
蹝	-14.4743
􁑱	-14.4744
秒	-14.4748
􁁃	-14.4748
岉	-14.4749
悂	-14.5054
楄	-14.5055
羕	-14.5062
䠂	-14.5064
銙	-14.5064
蘃	-14.5066
貮	-14.5066
罐	-14.5067
眽	-14.5067
嵃	-14.5068
霔	-14.5069
𥪡	-14.5071
溏	-14.5073
楖	-14.5074
郍	-14.5075
䑸	-14.5075
痤	-14.5078
䣊	-14.5078
艪	-14.5078
頀	-14.5078
猧	-14.5079
岠	-14.5079
爞	-14.5079
􁧸	-14.5079
璙	-14.5081
拿	-14.5081
踁	-14.5082
菸	-14.5082
襤	-14.5083
愸	-14.5083
俅	-14.5084
瘻	-14.5084
轑	-14.5084
䝟	-14.5084
麨	-14.5084
芿	-14.5084
驉	-14.5085
皪	-14.5085
柍	-14.5086
􁘠	-14.5086
詺	-14.5086
􁇠	-14.5086
洴	-14.5086
槅	-14.5087
䏰	-14.5087
醟	-14.5088
薹	-14.5088
掫	-14.5089
瀖	-14.509
俌	-14.509
轖	-14.509
窸	-14.5091
潓	-14.5091
晾	-14.5092
䣛	-14.5092
騈	-14.5093
峥	-14.5093
􁃞	-14.5094
􁑅	-14.5094
籦	-14.5095
营	-14.5096
『	-14.5099
鋈	-14.5101
琭	-14.5101
袽	-14.5101
瑵	-14.5102
峋	-14.5102
篻	-14.5103
襂	-14.5111
泇	-14.5114
膞	-14.5421
牚	-14.5424
嬺	-14.5426
囱	-14.5427
􁣖	-14.5436
谾	-14.5439
迣	-14.544
𡋯	-14.544
欀	-14.5441
㬠	-14.5442
硋	-14.5444
禗	-14.5444
樕	-14.5446
屝	-14.5447
蚉	-14.5447
癈	-14.5448
䲛	-14.5448
涾	-14.5448
撨	-14.5448
喭	-14.5449
礰	-14.5449
蚱	-14.5449
滆	-14.545
潴	-14.545
灇	-14.5451
㶏	-14.5451
􁂳	-14.5451
残	-14.5451
梱	-14.5452
䋏	-14.5452
魮	-14.5452
唌	-14.5453
撦	-14.5453
珓	-14.5454
鏽	-14.5454
燡	-14.5454
蜞	-14.5455
㵝	-14.5455
啽	-14.5455
絸	-14.5455
喞	-14.5455
鳸	-14.5455
駸	-14.5456
謍	-14.5457
礓	-14.5457
廑	-14.5457
顩	-14.5458
鼩	-14.5458
􁕒	-14.5459
􁀜	-14.546
鳦	-14.5461
慉	-14.5461
芔	-14.5461
瑫	-14.5462
湆	-14.5462
婼	-14.5462
鄹	-14.5462
㵿	-14.5463
炧	-14.5464
瑇	-14.5464
稈	-14.5464
􁜔	-14.5466
嶴	-14.5466
鉟	-14.5466
舕	-14.5467
睊	-14.5468
􁊛	-14.5469
峉	-14.547
歂	-14.5471
猲	-14.5471
偨	-14.5471
輹	-14.5472
鶄	-14.5472
硱	-14.5472
綪	-14.5475
咱	-14.5477
辴	-14.5479
昷	-14.5482
􁑀	-14.5815
㺅	-14.5817
􁋃	-14.5818
奂	-14.5821
㦂	-14.5821
􁅔	-14.5823
瘟	-14.5825
拌	-14.5826
瀷	-14.5826
衩	-14.5828
䄠	-14.5829
㔻	-14.5829
霹	-14.583
鷘	-14.5831
箛	-14.5831
嵣	-14.5831
麹	-14.5831
鷀	-14.5832
犫	-14.5833
嘎	-14.5833
涏	-14.5833
睅	-14.5834
䍽	-14.5834
焠	-14.5834
满	-14.5834
撕	-14.5835
䘐	-14.5835
􁕻	-14.5835
衯	-14.5835
頁	-14.5836
潩	-14.5836
陥	-14.5836
憓	-14.5836
䈥	-14.5836
紒	-14.5837
螃	-14.5837
艛	-14.5837
姞	-14.5837
唽	-14.5838
廈	-14.5838
􁉓	-14.5838
濜	-14.5838
𬎼	-14.5838
薎	-14.5839
埛	-14.5839
掻	-14.5839
癬	-14.584
泭	-14.5841
髬	-14.5841
黲	-14.5841
䫫	-14.5842
齴	-14.5842
羉	-14.5843
咅	-14.5843
􁂎	-14.5843
碯	-14.5843
妷	-14.5843
劳	-14.5843
蔊	-14.5843
􁀇	-14.5843
㟽	-14.5844
椳	-14.5844
抏	-14.5844
駵	-14.5845
舃	-14.5845
攡	-14.5845
瀫	-14.5846
幺	-14.5847
鵃	-14.5847
坍	-14.5848
粦	-14.5848
鈲	-14.5849
䁆	-14.585
㒷	-14.5853
蔇	-14.5853
峿	-14.5853
䖤	-14.5853
矎	-14.5855
䙫	-14.5856
蟶	-14.5859
蟂	-14.5859
豵	-14.586
䳺	-14.5861
碶	-14.5887
䳱	-14.6221
巛	-14.6222
蠍	-14.6224
祴	-14.6225
瀅	-14.6226
庉	-14.6227
偼	-14.6228
𪷟	-14.6228
𧺫	-14.6229
鬑	-14.623
􁊢	-14.623
嫖	-14.6232
弥	-14.6232
蜢	-14.6232
堘	-14.6232
扮	-14.6234
黖	-14.6234
踤	-14.6234
􁋷	-14.6235
蚹	-14.6235
臓	-14.6236
𩃱	-14.6236
劼	-14.6236
荽	-14.6237
鎸	-14.6237
襻	-14.6238
蓯	-14.6239
驒	-14.6239
沋	-14.624
羵	-14.624
佈	-14.624
塪	-14.624
骴	-14.624
􁘯	-14.624
枊	-14.6241
驫	-14.6241
燂	-14.6241
㵫	-14.6241
婷	-14.6242
毾	-14.6243
躙	-14.6243
簩	-14.6243
䓿	-14.6244
弜	-14.6244
㚟	-14.6245
岔	-14.6245
繶	-14.6246
漅	-14.6246
軯	-14.6246
懭	-14.6247
㠥	-14.6248
亁	-14.6249
岭	-14.6251
㬇	-14.6252
㦎	-14.6252
滭	-14.6253
媲	-14.6254
葠	-14.6255
譾	-14.6256
咇	-14.6279
辥	-14.6606
􁋊	-14.6619
沺	-14.6629
㷊	-14.6638
宬	-14.6642
嵦	-14.6643
眹	-14.6644
亝	-14.6644
擩	-14.6644
旿	-14.6644
塸	-14.6644
㷭	-14.6644
荚	-14.6646
滺	-14.6646
罠	-14.6646
攂	-14.6646
􁀌	-14.6646
擉	-14.6646
蝍	-14.6646
鯋	-14.6647
捔	-14.6647
􁃊	-14.6647
㴸	-14.6648
菥	-14.6648
䫜	-14.6648
葡	-14.6648
燝	-14.6649
鋮	-14.6649
橿	-14.665
潟	-14.665
茯	-14.665
鎣	-14.665
􁊋	-14.6651
矸	-14.6651
訽	-14.6651
䄍	-14.6652
烓	-14.6652
潒	-14.6653
鶗	-14.6653
豜	-14.6655
仵	-14.6655
牿	-14.6656
捺	-14.6657
憣	-14.6657
䙚	-14.6657
齰	-14.6657
鴠	-14.6658
葶	-14.6658
鋙	-14.6658
腿	-14.6658
繮	-14.6658
晱	-14.6659
孅	-14.6659
剠	-14.6659
鏬	-14.6659
巆	-14.666
靧	-14.666
䯻	-14.666
㬋	-14.666
鋃	-14.6661
􁁍	-14.6661
鷾	-14.6661
猳	-14.6662
圊	-14.6662
賍	-14.6662
訩	-14.6662
秺	-14.6662
􁖑	-14.6662
塠	-14.6663
薍	-14.6663
湁	-14.6664
肈	-14.6664
緁	-14.6664
緥	-14.6665
楪	-14.6666
鄃	-14.6667
貒	-14.6667
饙	-14.6667
倈	-14.6668
榨	-14.6668
』	-14.667
甈	-14.667
腪	-14.6671
㥀	-14.6673
硝	-14.6678
遻	-14.6687
閷	-14.6711
􁃟	-14.7054
豷	-14.7065
鯪	-14.7066
䭀	-14.7068
毦	-14.7069
【	-14.7069
肧	-14.7069
硖	-14.707
趢	-14.7071
麦	-14.7071
趑	-14.7073
琵	-14.7074
髆	-14.7075
埇	-14.7075
藇	-14.7076
苽	-14.7076
㳿	-14.7077
􁈹	-14.7078
㾕	-14.7079
㗅	-14.708
幈	-14.708
􁓳	-14.7081
芧	-14.7081
餟	-14.7082
囙	-14.7082
􁈂	-14.7083
𪠘	-14.7083
鸖	-14.7083
㭨	-14.7083
鼚	-14.7083
􁭉	-14.7083
㠜	-14.7083
淂	-14.7083
縴	-14.7083
䔄	-14.7085
訔	-14.7085
􁋯	-14.7085
髇	-14.7086
篣	-14.7087
鼘	-14.7087
坒	-14.7087
硊	-14.7087
汃	-14.7088
壐	-14.7088
颬	-14.7088
􁦚	-14.7088
瑢	-14.7089
旜	-14.7089
髼	-14.709
悕	-14.709
􁚔	-14.7091
熭	-14.7091
呤	-14.7091
籉	-14.7091
㴑	-14.7092
眕	-14.7092
毵	-14.7092
絭	-14.7092
􁍺	-14.7093
豶	-14.7093
臕	-14.7093
匶	-14.7093
跰	-14.7094
繊	-14.7094
僒	-14.7094
䯢	-14.7094
穮	-14.7095
臇	-14.7095
㲪	-14.7096
葼	-14.7096
鏕	-14.7096
欞	-14.7097
騒	-14.7097
崥	-14.7098
坵	-14.7098
鴽	-14.7098
􁃽	-14.7098
碼	-14.7098
裻	-14.7098
斄	-14.7099
􁔾	-14.7099
睘	-14.7099
旊	-14.71
勱	-14.71
嶨	-14.7102
痀	-14.7102
錟	-14.7103
􁠻	-14.7103
侹	-14.7104
􁭇	-14.7104
掍	-14.7105
􁋌	-14.7105
霵	-14.7106
馝	-14.7108
䥫	-14.7108
殼	-14.7109
薱	-14.711
儓	-14.7112
壋	-14.7505
㛐	-14.7518
湤	-14.7522
眑	-14.7526
邘	-14.7527
缿	-14.753
繿	-14.7531
臰	-14.7531
􁏷	-14.7532
㒞	-14.7532
鈃	-14.7533
崯	-14.7533
睐	-14.7534
譆	-14.7534
魫	-14.7534
漴	-14.7535
􁒓	-14.7535
硪	-14.7535
鴡	-14.7536
誷	-14.7536
箊	-14.7536
鄚	-14.7536
絖	-14.7536
檖	-14.7536
䱎	-14.7537
㞦	-14.7537
柦	-14.7537
胗	-14.7537
􁐘	-14.7538
唔	-14.7538
􁳋	-14.7538
胉	-14.7538
齘	-14.7538
􁘡	-14.7538
慗	-14.7538
礉	-14.7538
旞	-14.7539
􁐻	-14.7539
鼮	-14.7539
豰	-14.754
媱	-14.754
釱	-14.754
浻	-14.754
酘	-14.754
捂	-14.7541
枇	-14.7541
㗸	-14.7542
廆	-14.7542
䧢	-14.7542
鈜	-14.7542
􁆋	-14.7543
嚾	-14.7543
捘	-14.7543
椔	-14.7543
䑃	-14.7543
喌	-14.7543
芈	-14.7544
陑	-14.7544
僿	-14.7544
嶱	-14.7544
魪	-14.7544
腒	-14.7544
滵	-14.7544
娙	-14.7544
旝	-14.7545
􁌘	-14.7545
𥻘	-14.7545
􁎼	-14.7546
􁩪	-14.7546
悤	-14.7546
啙	-14.7547
誎	-14.7547
熻	-14.7547
鴯	-14.7547
臮	-14.7547
磤	-14.7548
㧖	-14.7548
炉	-14.7548
籪	-14.7548
縩	-14.7548
瘣	-14.7548
㹞	-14.7549
蓚	-14.7551
渑	-14.7551
檍	-14.7551
斉	-14.7552
㙷	-14.7552
扂	-14.7552
䃲	-14.7553
􁨓	-14.7553
􁙆	-14.7553
撢	-14.7553
蔘	-14.7554
羭	-14.7554
懥	-14.7554
扱	-14.7557
暀	-14.7557
秠	-14.7558
蠝	-14.7558
韅	-14.7559
􁞔	-14.7561
蚣	-14.7568
􁤗	-14.7583
􁠄	-14.7986
雺	-14.7993
姌	-14.7999
狘	-14.8001
墪	-14.8002
嶞	-14.8002
垻	-14.8002
璸	-14.8002
㻛	-14.8003
㫪	-14.8003
絻	-14.8004
沏	-14.8005
硐	-14.8006
扠	-14.8007
鼹	-14.8007
㥏	-14.8007
􁯡	-14.8008
趹	-14.8009
杮	-14.801
狪	-14.801
齲	-14.8011
綅	-14.8012
藶	-14.8014
􁞚	-14.8014
鉥	-14.8015
蟋	-14.8015
熀	-14.8016
􁅾	-14.8016
迁	-14.8016
瘈	-14.8017
黐	-14.8017
貛	-14.8017
鰒	-14.8018
㵧	-14.8018
驖	-14.8018
巹	-14.8019
瑙	-14.8019
梡	-14.8019
䨥	-14.802
聓	-14.802
􁄣	-14.8021
晅	-14.8021
菵	-14.8021
撣	-14.8021
鵪	-14.8022
􁄑	-14.8023
㸐	-14.8023
奼	-14.8024
嶛	-14.8024
讕	-14.8024
渒	-14.8025
􁎃	-14.8025
饛	-14.8025
黾	-14.8025
餈	-14.8025
嶅	-14.8025
礌	-14.8026
􁳆	-14.8026
榧	-14.8026
貜	-14.8026
桯	-14.8027
蝛	-14.8028
皝	-14.8028
虪	-14.8028
􁀯	-14.8029
岥	-14.803
麁	-14.803
垡	-14.8031
亙	-14.8031
䱜	-14.8032
鵹	-14.8032
獦	-14.8032
礩	-14.8032
鯸	-14.8032
芚	-14.8033
洓	-14.8033
倓	-14.8033
臙	-14.8036
鞺	-14.8037
蟛	-14.8037
楱	-14.8037
膨	-14.8038
秷	-14.8038
㥄	-14.8039
霳	-14.804
鞕	-14.8042
嶐	-14.8044
㠎	-14.8045
圽	-14.8046
葰	-14.8055
譻	-14.8076
􁇚	-14.8491
齬	-14.8495
􁀿	-14.8495
薔	-14.8496
榎	-14.8496
䡘	-14.8498
𤦺	-14.8501
榯	-14.8501
䁑	-14.8503
蔱	-14.8505
嵆	-14.8506
睗	-14.8509
餦	-14.851
竸	-14.851
耍	-14.851
阺	-14.8511
埂	-14.8511
絿	-14.8511
鋄	-14.8511
欑	-14.8511
釤	-14.8512
㟅	-14.8512
瞟	-14.8512
㡚	-14.8513
䳒	-14.8514
緉	-14.8514
䳄	-14.8514
韃	-14.8515
瘀	-14.8515
􁁬	-14.8515
禓	-14.8515
斖	-14.8516
䑳	-14.8516
悷	-14.8517
䀜	-14.8518
􁭤	-14.8518
屦	-14.8519
礠	-14.852
􁘞	-14.852
矐	-14.852
昼	-14.8521
馣	-14.8521
鐩	-14.8522
祋	-14.8522
浿	-14.8522
呆	-14.8523
詾	-14.8523
鼱	-14.8523
䴵	-14.8523
璝	-14.8523
邡	-14.8524
娿	-14.8524
鬇	-14.8524
潠	-14.8525
粼	-14.8525
唈	-14.8525
窙	-14.8526
􁥆	-14.8528
倌	-14.8528
輘	-14.8529
譶	-14.8529
餾	-14.8529
鸗	-14.8529
􁓨	-14.8529
􁋍	-14.8529
鷤	-14.853
􁌀	-14.853
稇	-14.853
秈	-14.853
􁐓	-14.8531
傎	-14.8532
翍	-14.8534
􁒝	-14.8534
鸀	-14.8534
􁄞	-14.8537
鮀	-14.8539
喂	-14.854
鼊	-14.854
鷚	-14.854
嗄	-14.8541
袱	-14.8544
霼	-14.8544
偊	-14.8545
狔	-14.8546
􁂭	-14.8547
涫	-14.8552
髢	-14.8554
嵷	-14.8558
輮	-14.8572
碄	-14.8574
鋝	-14.8615
􁨊	-14.8983
豌	-14.9017
䤈	-14.9018
鴢	-14.9021
􁀮	-14.9025
菻	-14.9026
窾	-14.9027
蜦	-14.9028
㘖	-14.9028
􁭋	-14.9031
㒜	-14.9032
鵻	-14.9032
􁳳	-14.9032
䏶	-14.9033
齯	-14.9034
䴢	-14.9035
㗫	-14.9035
菇	-14.9035
饅	-14.9036
跙	-14.9036
飩	-14.9036
埼	-14.9037
㮨	-14.9038
苪	-14.9038
肭	-14.9038
繤	-14.9038
􁬬	-14.9038
刾	-14.9039
眧	-14.9039
炟	-14.9039
􁚫	-14.9039
鸋	-14.9039
疁	-14.9039
黦	-14.9039
瓻	-14.904
㠗	-14.904
煃	-14.9041
哿	-14.9041
幐	-14.9041
蔉	-14.9041
鄤	-14.9041
􁴦	-14.9042
癏	-14.9042
漊	-14.9043
􁄀	-14.9043
掁	-14.9044
􁯮	-14.9045
􁤞	-14.9045
撋	-14.9046
䀻	-14.9046
摲	-14.9047
䯱	-14.9047
暧	-14.9048
􁄂	-14.9048
㹶	-14.9048
啍	-14.9048
飦	-14.9048
瓀	-14.9048
􁠓	-14.9049
􁵞	-14.9049
獶	-14.9049
輢	-14.9049
孼	-14.9049
戁	-14.905
玹	-14.905
餭	-14.905
鉿	-14.9051
鉼	-14.9051
薧	-14.9052
瓈	-14.9052
􁐠	-14.9053
㳤	-14.9053
嗺	-14.9053
湳	-14.9054
㟭	-14.9054
籮	-14.9054
鷿	-14.9054
􁃦	-14.9054
鞸	-14.9055
枏	-14.9055
飉	-14.9055
猓	-14.9055
蛦	-14.9056
槢	-14.9056
㴐	-14.9056
􁊿	-14.9056
飍	-14.9057
刵	-14.9058
腇	-14.9058
䃭	-14.9058
剺	-14.9058
䲔	-14.9059
蓿	-14.906
攒	-14.906
妯	-14.906
㟋	-14.906
鬡	-14.906
􁱗	-14.9061
䎖	-14.9062
娌	-14.9062
戙	-14.9063
襭	-14.9063
垹	-14.9065
䵝	-14.9065
囮	-14.9065
鳱	-14.9066
韌	-14.9066
䃬	-14.9069
旖	-14.9075
􁰔	-14.9083
鼴	-14.9084
㜑	-14.9089
嵱	-14.9095
焆	-14.9549
􂀉	-14.9565
㘰	-14.9572
蕅	-14.958
匌	-14.958
靅	-14.9584
濋	-14.9586
㰚	-14.9587
儜	-14.9588
鄎	-14.9588
怢	-14.9589
褢	-14.9591
歍	-14.9592
􁫱	-14.9592
蠮	-14.9592
􁋹	-14.9592
鈸	-14.9593
䴏	-14.9594
樏	-14.9594
鱐	-14.9594
􁂨	-14.9594
岅	-14.9595
黁	-14.9595
蒳	-14.9596
鎝	-14.9596
棷	-14.9596
瑉	-14.9597
趭	-14.9597
慬	-14.9597
醄	-14.9597
腄	-14.9597
攉	-14.9598
懅	-14.9598
衵	-14.9598
踾	-14.9598
􁱎	-14.9598
磲	-14.9599
繈	-14.9599
醱	-14.9599
䔖	-14.96
貃	-14.96
蝯	-14.9601
圡	-14.9601
㡩	-14.9601
嶊	-14.9602
簺	-14.9602
蝪	-14.9602
㝎	-14.9603
灨	-14.9603
翋	-14.9604
痬	-14.9604
凷	-14.9604
磍	-14.9605
戳	-14.9605
魉	-14.9606
粛	-14.9606
鄳	-14.9607
牉	-14.9607
挲	-14.9608
䦕	-14.9608
􁀼	-14.9609
䚧	-14.961
憹	-14.961
砅	-14.961
篌	-14.961
餂	-14.961
懮	-14.961
摦	-14.9611
醹	-14.9611
嵰	-14.9611
㨖	-14.9612
䰄	-14.9612
椌	-14.9613
傫	-14.9613
礡	-14.9614
洝	-14.9614
潫	-14.9615
􁔷	-14.9615
䔧	-14.9616
䌟	-14.9617
􁩂	-14.9618
囐	-14.9619
􁤍	-14.9619
骷	-14.9619
􁔝	-14.9619
􁆁	-14.962
豻	-14.962
卺	-14.9623
蜈	-14.9623
爢	-14.9624
鍖	-14.9624
顝	-14.9629
獢	-14.963
摫	-14.9631
卥	-14.9632
䳟	-14.9633
甾	-14.9639
歭	-15.0151
洔	-15.0158
凇	-15.0158
嬥	-15.0159
輑	-15.0163
􁈻	-15.0163
祑	-15.0164
帩	-15.0165
鏵	-15.0168
蹹	-15.017
蛮	-15.0171
姮	-15.0171
鐓	-15.0174
􁇴	-15.0174
輁	-15.0176
势	-15.0176
幇	-15.0176
邍	-15.0177
霦	-15.0177
鍈	-15.0177
䝯	-15.0177
倳	-15.0178
澭	-15.0179
嗝	-15.018
𦵔	-15.018
㳄	-15.0181
韠	-15.0182
怐	-15.0182
刌	-15.0183
偸	-15.0183
衅	-15.0183
憞	-15.0184
櫱	-15.0184
尞	-15.0184
􁀩	-15.0185
􁊁	-15.0185
酏	-15.0186
鶒	-15.0186
狽	-15.0186
磹	-15.0186
灵	-15.0187
碡	-15.0187
􁊾	-15.0187
䍚	-15.0188
􁏁	-15.0188
彂	-15.0188
櫐	-15.0188
瘨	-15.0189
熥	-15.0189
氃	-15.0189
硾	-15.0189
肮	-15.0189
舼	-15.0189
鏳	-15.0189
氋	-15.0189
蹖	-15.019
碻	-15.019
嶚	-15.019
竗	-15.0191
挱	-15.0191
蝻	-15.0192
捬	-15.0192
仐	-15.0192
馱	-15.0192
弅	-15.0192
靛	-15.0192
􁇓	-15.0192
㾓	-15.0193
䓲	-15.0193
荁	-15.0193
榥	-15.0193
乩	-15.0193
逿	-15.0193
禈	-15.0193
䱇	-15.0193
搐	-15.0194
咡	-15.0194
聡	-15.0194
㺦	-15.0194
濚	-15.0194
瞲	-15.0195
􁒅	-15.0195
駚	-15.0195
㪣	-15.0195
㟎	-15.0196
􁅗	-15.0196
㟴	-15.0196
瑺	-15.0196
鶀	-15.0196
窏	-15.0196
捥	-15.0197
㵗	-15.0198
蕫	-15.0199
牏	-15.0199
刴	-15.02
睼	-15.02
冓	-15.02
䦘	-15.0201
􁸲	-15.0201
鹻	-15.0202
矓	-15.0202
羱	-15.0202
駾	-15.0202
㕁	-15.0203
謻	-15.0203
訦	-15.0203
擂	-15.0203
劙	-15.0203
噑	-15.0204
懜	-15.0205
耞	-15.0205
櫎	-15.0205
􁈘	-15.0208
扡	-15.0209
薮	-15.0209
􁑷	-15.0209
瓽	-15.0209
劊	-15.0209
渱	-15.0209
穄	-15.021
吪	-15.021
颽	-15.0212
寋	-15.0212
訧	-15.0213
㫼	-15.0214
湙	-15.0214
䫻	-15.0217
蠼	-15.0219
陫	-15.022
簻	-15.0224
婧	-15.0261
􁂆	-15.0747
䃕	-15.0776
躆	-15.0787
檽	-15.0791
揾	-15.0793
緆	-15.0796
䖀	-15.0797
珬	-15.0797
㟐	-15.0797
恲	-15.0798
餛	-15.0798
嵥	-15.0798
侻	-15.0798
㶀	-15.0799
睮	-15.0799
簝	-15.08
饀	-15.08
崣	-15.08
䀢	-15.0801
稙	-15.0801
􁊻	-15.0801
䨹	-15.0802
嘂	-15.0802
㡡	-15.0803
莟	-15.0803
埵	-15.0805
轃	-15.0806
卾	-15.0807
擦	-15.0807
构	-15.0808
塓	-15.0808
樔	-15.0809
塕	-15.0809
砏	-15.0809
􁃵	-15.081
詀	-15.081
総	-15.081
齵	-15.081
㩼	-15.0811
噅	-15.0811
壂	-15.0811
㔩	-15.0812
靽	-15.0812
􁃶	-15.0812
毻	-15.0812
􁰵	-15.0812
瀞	-15.0813
淠	-15.0813
渲	-15.0813
槹	-15.0813
玶	-15.0813
鐎	-15.0814
揘	-15.0814
􁄜	-15.0814
蔤	-15.0814
􁊍	-15.0815
􁆙	-15.0815
边	-15.0815
瘭	-15.0815
􁈗	-15.0816
撱	-15.0816
㭿	-15.0817
鐂	-15.0817
豤	-15.0817
臷	-15.0817
䶉	-15.0818
緎	-15.0818
㞯	-15.0819
揥	-15.0819
嶣	-15.0819
楦	-15.0819
蔯	-15.0819
㐀	-15.082
㠔	-15.082
羓	-15.082
抰	-15.082
駥	-15.0821
瀎	-15.0821
嘄	-15.0821
婑	-15.0821
鰼	-15.0822
􁌹	-15.0822
􁙹	-15.0822
燑	-15.0822
嚆	-15.0822
磜	-15.0822
㩎	-15.0823
蜘	-15.0823
緅	-15.0823
槻	-15.0823
宧	-15.0824
馵	-15.0824
跎	-15.0824
攑	-15.0825
聎	-15.0825
􁀐	-15.0825
憧	-15.0825
湉	-15.0825
冞	-15.0826
崨	-15.0826
蔂	-15.0826
輧	-15.0827
妮	-15.0827
軥	-15.0827
鐬	-15.0827
􁊨	-15.0827
圂	-15.0827
癥	-15.0828
䡄	-15.0828
腜	-15.0828
劗	-15.0828
璢	-15.0829
濇	-15.0829
嗊	-15.0829
炲	-15.0829
簍	-15.083
䓑	-15.083
巄	-15.083
污	-15.083
􁈊	-15.0831
昒	-15.0831
娖	-15.0832
荓	-15.0833
篈	-15.0833
跔	-15.0835
􁋽	-15.0835
栫	-15.0836
􁏳	-15.0836
汕	-15.0836
􁭺	-15.0836
昝	-15.0836
㺒	-15.0837
劀	-15.0838
佌	-15.084
碞	-15.0841
􁎓	-15.0844
㞐	-15.0845
鴳	-15.0846
鱘	-15.0848
僤	-15.0851
鏢	-15.0863
簭	-15.0888
罱	-15.1454
丄	-15.1455
眳	-15.1456
􁄺	-15.1457
碚	-15.1457
濲	-15.1458
趗	-15.146
隝	-15.146
㰖	-15.1461
抾	-15.1461
髐	-15.1462
􁨾	-15.1462
綄	-15.1462
䘚	-15.1463
浺	-15.1463
㓨	-15.1464
􁩐	-15.1465
跀	-15.1465
䂄	-15.1467
俲	-15.1468
洨	-15.1468
􁶎	-15.1469
韛	-15.1469
檡	-15.147
鉌	-15.1471
儶	-15.1471
彄	-15.1471
褲	-15.1471
卌	-15.1472
鬍	-15.1472
岹	-15.1472
􁆉	-15.1472
㲈	-15.1472
􁈎	-15.1472
笫	-15.1473
􁀱	-15.1474
翨	-15.1475
巙	-15.1475
擸	-15.1476
犦	-15.1476
㱔	-15.1476
詉	-15.1476
蔍	-15.1476
婥	-15.1477
􁑵	-15.1477
㒿	-15.1478
鯔	-15.1479
朌	-15.1479
酔	-15.1479
㬪	-15.1479
掺	-15.148
敂	-15.148
鮝	-15.148
緶	-15.1481
盔	-15.1481
􁂗	-15.1481
蠉	-15.1481
鑲	-15.1481
貏	-15.1481
筅	-15.1481
佴	-15.1481
顜	-15.1482
籒	-15.1482
鞁	-15.1482
獳	-15.1482
巅	-15.1482
蛜	-15.1482
騻	-15.1483
㦄	-15.1483
擽	-15.1483
糁	-15.1484
􁦉	-15.1484
䍑	-15.1484
鼝	-15.1484
􁃾	-15.1484
胐	-15.1484
􁈭	-15.1484
秼	-15.1485
梪	-15.1485
犓	-15.1485
寑	-15.1485
貭	-15.1485
㚇	-15.1486
髂	-15.1486
舗	-15.1486
㟺	-15.1487
穬	-15.1487
􁤌	-15.1487
幖	-15.1487
􁃎	-15.1487
綎	-15.1487
㜷	-15.1487
悇	-15.1487
堥	-15.1487
蛋	-15.1488
􁧥	-15.1488
昐	-15.1489
渊	-15.1489
䌖	-15.1489
鏨	-15.1489
喢	-15.1489
􁊘	-15.149
􁅋	-15.149
諞	-15.149
鴃	-15.1491
懹	-15.1491
鳷	-15.1492
觭	-15.1492
篬	-15.1492
鏺	-15.1493
嗶	-15.1493
庿	-15.1493
㢸	-15.1493
鬾	-15.1494
􁴤	-15.1494
峇	-15.1494
黴	-15.1495
㠢	-15.1495
僪	-15.1495
衋	-15.1495
菎	-15.1496
􁡾	-15.1496
簬	-15.1496
穋	-15.1496
􁯫	-15.1496
磪	-15.1496
􁏌	-15.1497
衕	-15.1497
貆	-15.1497
獾	-15.1497
纗	-15.1498
舽	-15.1498
蠯	-15.1499
嘳	-15.1499
庤	-15.1499
殈	-15.1499
騙	-15.1499
夗	-15.1501
氶	-15.1501
䀪	-15.1502
􁑛	-15.1502
掿	-15.1504
䬼	-15.1504
駻	-15.1505
渶	-15.1506
蟯	-15.1507
䑽	-15.1508
彋	-15.1508
呹	-15.1513
琿	-15.1514
眝	-15.1519
㿥	-15.1527
湅	-15.1534
􁆵	-15.1534
垾	-15.1536
庱	-15.2156
鴹	-15.2159
耙	-15.2163
瀿	-15.2163
􁔸	-15.2164
妸	-15.2165
葪	-15.2169
㒩	-15.2173
􁗩	-15.2173
峳	-15.2174
䬀	-15.2174
鄾	-15.2175
􁑴	-15.2175
靼	-15.2176
笵	-15.2177
䲹	-15.2177
緵	-15.2178
豃	-15.2179
􁔇	-15.218
䟤	-15.218
姽	-15.218
顄	-15.218
栞	-15.218
㨛	-15.2182
鉘	-15.2182
􁱐	-15.2182
瓆	-15.2183
櫾	-15.2183
㙻	-15.2183
㰹	-15.2184
􁓓	-15.2184
嶶	-15.2185
彺	-15.2185
畻	-15.2185
􁇡	-15.2186
砐	-15.2186
􁄄	-15.2186
􁞋	-15.2186
閕	-15.2187
蠎	-15.2187
皵	-15.2187
婐	-15.2187
鸃	-15.2187
秇	-15.2188
懫	-15.2188
繃	-15.2189
嘕	-15.2189
􁈅	-15.2189
䕸	-15.2189
巚	-15.219
鑮	-15.219
駽	-15.219
岍	-15.219
妠	-15.219
熳	-15.219
􁵋	-15.219
倶	-15.2191
齱	-15.2191
䌰	-15.2191
􁗷	-15.2191
鐇	-15.2192
穾	-15.2193
孿	-15.2193
蕂	-15.2194
垌	-15.2195
髑	-15.2195
􁑋	-15.2195
坋	-15.2195
罜	-15.2196
譫	-15.2196
晫	-15.2196
䆠	-15.2196
痑	-15.2196
緃	-15.2196
􁛖	-15.2196
袓	-15.2196
峮	-15.2197
汘	-15.2197
頣	-15.2197
煊	-15.2198
糦	-15.2198
𨵦	-15.2198
鏷	-15.2198
虻	-15.2199
昄	-15.2199
踼	-15.2199
称	-15.2199
埢	-15.22
㟢	-15.22
匉	-15.22
槫	-15.22
􁀣	-15.22
㬣	-15.22
䖺	-15.22
隉	-15.2201
􁇟	-15.2201
􁄨	-15.2202
粺	-15.2202
㕎	-15.2202
䲧	-15.2203
渀	-15.2203
䝤	-15.2203
􁪣	-15.2204
悐	-15.2204
㟯	-15.2204
􁍶	-15.2205
倞	-15.2205
拴	-15.2206
礔	-15.2206
摕	-15.2206
萭	-15.2206
㮕	-15.2207
紽	-15.2207
㠁	-15.2207
熉	-15.2208
緸	-15.2208
􁱈	-15.2208
縼	-15.2208
壆	-15.2209
飧	-15.2209
鼲	-15.221
懰	-15.221
菢	-15.2211
鰡	-15.2211
圔	-15.2211
􁆘	-15.2211
􁃚	-15.2212
靬	-15.2212
榹	-15.2212
哫	-15.2212
肬	-15.2213
朵	-15.2213
踃	-15.2214
􁓚	-15.2214
嫽	-15.2215
㠧	-15.2216
抎	-15.2217
䎘	-15.2217
靊	-15.2217
鱀	-15.2218
蘴	-15.2218
埔	-15.2218
䩨	-15.2219
愲	-15.2224
薻	-15.2225
嵏	-15.2225
窲	-15.2226
懻	-15.2229
勖	-15.2235
帗	-15.2244
匑	-15.225
园	-15.2924
䘙	-15.2935
㒹	-15.2939
䛒	-15.2942
蝣	-15.2944
圌	-15.2947
冘	-15.295
袈	-15.295
䱻	-15.2952
㖤	-15.2953
䋣	-15.2956
䦱	-15.2956
凔	-15.2959
墍	-15.296
卟	-15.2961
㹈	-15.2961
冔	-15.2961
匒	-15.2961
㒊	-15.2961
㘅	-15.2961
逅	-15.2964
▫	-15.2965
鷯	-15.2966
墌	-15.2967
凓	-15.2969
㫿	-15.2971
厙	-15.2972
嘰	-15.2973
嚊	-15.2973
傂	-15.2974
㴾	-15.2975
儴	-15.2975
䠶	-15.2975
侜	-15.2977
厘	-15.2977
䆮	-15.2979
㟹	-15.2982
㭱	-15.2982
䀛	-15.2983
䋶	-15.2984
㝟	-15.2984
㯝	-15.2988
傌	-15.3007
徜	-15.3781
顦	-15.3789
裟	-15.4691
嫦	-15.5698
貅	-15.5699
簹	-15.5711
徬	-15.5713
苜	-15.5713
玻	-15.5716
酩	-15.5726
塿	-15.6815
靂	-15.8047
繾	-15.8058
邂	-15.8073
鶺	-15.8073
齷	-15.9478
蹭	-15.9481
醐	-15.9512
醿	-15.952
酊	-16.118
韆	-16.5631
齟	-16.5671
贆	-17.4022
醾	-17.4023
逤	-17.4024
鉧	-17.4025
娓	-17.4026
糢	-17.4026
