<unk>	0
<s>	0
</s>	0
之	-3.71766
也	-3.7367
/	-3.77497
而	-4.32099
(	-4.4368
)(	-4.47835
以	-4.48557
)	-4.51178
為	-4.7409
其	-4.75737
者	-4.76702
則	-4.88171
有	-4.95664
曰	-5.05762
言	-5.14753
不	-5.18034
於	-5.33538
故	-5.45998
反	-5.50819
此	-5.59085
是	-5.60743
矣	-5.61501
云	-5.62393
人	-5.64684
無	-5.64699
○	-5.65625
謂	-5.70988
與	-5.72279
音	-5.77741
大	-5.82079
于	-5.82383
如	-5.85162
亦	-5.92626
皆	-5.94272
一	-5.9521
在	-5.95721
自	-5.97995
王	-6.01966
然	-6.04222
我	-6.07513
作	-6.09607
所	-6.10253
又	-6.12678
子	-6.14033
非	-6.14211
見	-6.24699
詩	-6.25155
至	-6.28287
乎	-6.28562
▁	-6.28972
時	-6.34863
乃	-6.36003
今	-6.36884
中	-6.38006
上	-6.405
既	-6.43629
同	-6.44116
下	-6.46333
用	-6.46613
行	-6.47597
爲	-6.47859
即	-6.48482
相	-6.48808
生	-6.49077
正	-6.49301
事	-6.49516
猶	-6.50979
得	-6.51938
以為	-6.54114
已	-6.552
國	-6.56329
天	-6.56809
三	-6.59983
耳	-6.60394
及	-6.61133
民	-6.62238
禮	-6.62255
當	-6.63078
可	-6.63499
樂	-6.64543
能	-6.65211
君	-6.68389
焉	-6.69634
公	-6.69893
文	-6.69902
從	-6.70964
必	-6.7145
成	-6.7282
所以	-6.73635
周	-6.74109
本	-6.74936
多	-6.75811
居	-6.76206
字	-6.77726
後	-6.78571
若	-6.789
意	-6.79884
雖	-6.80724
文王	-6.80793
明	-6.81277
使	-6.81321
何	-6.82021
二	-6.82157
女	-6.82869
爾	-6.82926
彼	-6.83309
將	-6.83838
或	-6.84146
日	-6.84225
始	-6.84354
出	-6.84587
水	-6.84661
傳	-6.85571
美	-6.86987
心	-6.87923
叶	-6.88729
命	-6.90367
名	-6.90607
小	-6.91193
方	-6.91239
五	-6.92014
祭	-6.92696
知	-6.92815
來	-6.93088
取	-6.93454
君子	-6.93869
實	-6.94042
所謂	-6.94284
思	-6.94526
諸侯	-6.947
長	-6.97556
道	-6.99383
歸	-6.99415
且	-6.99601
物	-7.00422
興	-7.00923
謂之	-7.01069
欲	-7.01629
義	-7.02217
哉	-7.02846
夫	-7.03062
安	-7.03857
善	-7.03982
止	-7.04173
篇	-7.04459
序	-7.05359
服	-7.05806
説	-7.05872
先	-7.06239
古	-7.06592
未	-7.0763
之意	-7.07636
因	-7.07705
食	-7.08107
稱	-7.08213
鄭	-7.08388
不可	-7.08591
聲	-7.09517
車	-7.11864
蓋	-7.12949
齊	-7.13441
地	-7.14782
四	-7.155
處	-7.1691
山	-7.17134
韻	-7.17151
好	-7.17235
不能	-7.1739
氏	-7.17399
亂	-7.17847
馬	-7.18463
兮	-7.18789
世	-7.19813
立	-7.1985
入	-7.20006
去	-7.20582
似	-7.20762
徳	-7.2088
此詩	-7.21745
惟	-7.22117
如此	-7.22881
而不	-7.23403
合	-7.2462
南	-7.25218
士	-7.2558
白	-7.25772
田	-7.26168
風	-7.26311
天子	-7.26394
刺	-7.2677
復	-7.26889
維	-7.2741
宜	-7.2746
切	-7.27568
陳	-7.28325
通	-7.28469
魚	-7.29105
/)	-7.29327
載	-7.29658
平	-7.29765
易	-7.30004
朝	-7.30374
但	-7.30886
指	-7.3141
家	-7.31658
異	-7.33473
之事	-7.33594
周公	-7.33705
重	-7.33951
木	-7.34262
陽	-7.3484
遂	-7.35111
主	-7.35415
和	-7.3587
經	-7.36056
六	-7.36304
常	-7.36343
東	-7.36418
注	-7.36902
終	-7.37441
燕	-7.37753
盛	-7.37808
舉	-7.38017
求	-7.38099
)○	-7.38156
甚	-7.38216
是也	-7.38872
逺	-7.39769
臣	-7.40083
前	-7.40417
侯	-7.4043
師	-7.41073
書	-7.41738
賦也	-7.42232
夏	-7.42822
深	-7.43164
語	-7.43457
親	-7.43796
比	-7.43847
力	-7.43905
大夫	-7.44042
章	-7.4453
毛	-7.44545
治	-7.45322
凡	-7.45432
憂	-7.45894
定	-7.46573
衆	-7.46733
解	-7.46758
武王	-7.46972
說	-7.47434
衣	-7.47585
固	-7.48929
歌	-7.48989
外	-7.48992
黄	-7.49838
土	-7.51182
賦	-7.51271
草	-7.51699
天下	-7.51764
之時	-7.52717
武	-7.53314
盡	-7.53564
直	-7.53589
由	-7.53777
神	-7.54717
諸	-7.55209
流	-7.55981
西	-7.56014
可以	-7.56393
内	-7.56659
分	-7.56851
言其	-7.57088
貌	-7.57533
告	-7.57906
伯	-7.58033
之詩	-7.58041
疏	-7.58098
而已	-7.58557
德	-7.58715
豈	-7.59308
葢	-7.59985
成王	-7.60073
敬	-7.60218
屬	-7.60518
賢	-7.61025
伐	-7.61032
母	-7.61148
信	-7.61351
受	-7.61453
獨	-7.61956
惡	-7.62294
政	-7.62461
色	-7.63602
兩	-7.63948
氣	-7.64107
莫	-7.64758
近	-7.64804
法	-7.65276
射	-7.65293
釋	-7.65976
者也	-7.66008
九	-7.66579
酒	-7.66787
理	-7.66972
别	-7.67517
疑	-7.67603
難	-7.67838
身	-7.67906
斯	-7.67991
按	-7.68348
衛	-7.68509
死	-7.68961
首	-7.69074
戒	-7.69135
觀	-7.69486
室	-7.69693
七	-7.69861
父	-7.69948
過	-7.70013
尚	-7.70344
盖	-7.70789
勞	-7.71058
▁(	-7.71067
發	-7.71393
州	-7.71535
令	-7.72308
節	-7.72478
足	-7.72917
起	-7.73125
引	-7.7334
數	-7.7369
晉	-7.73773
,	-7.74086
都	-7.74534
不得	-7.74824
尊	-7.75215
極	-7.75365
變	-7.75388
殷	-7.75726
次	-7.75859
亡	-7.75865
問	-7.76204
祀	-7.76359
魯	-7.76536
喻	-7.76733
廣	-7.76861
據	-7.77027
百	-7.77524
類	-7.77785
體	-7.77994
城	-7.7848
訓	-7.78527
至於	-7.78735
采	-7.7915
故曰	-7.7925
志	-7.79265
兄弟	-7.79317
備	-7.79337
華	-7.79346
怨	-7.7983
順	-7.81052
予	-7.81692
旣	-7.8185
謀	-7.82005
漢	-7.82328
論	-7.82686
北	-7.83033
商	-7.83065
徒	-7.83422
髙	-7.8343
辭	-7.83472
益	-7.83845
之所	-7.83863
容	-7.83918
往	-7.84127
失	-7.8428
年	-7.84559
考	-7.84574
制	-7.84707
爾雅	-7.84857
鳥	-7.8494
共	-7.85357
河	-7.8542
月	-7.85424
各	-7.85449
孔	-7.85642
初	-7.85826
致	-7.85834
頌	-7.85884
葉	-7.86147
視	-7.86228
帝	-7.872
俱	-7.87489
加	-7.88004
詩人	-7.88103
養	-7.88587
桑	-7.88715
封	-7.89197
著	-7.89212
三章	-7.89303
象	-7.89443
度	-7.89512
不知	-7.89659
飛	-7.9011
祖	-7.90718
鳴	-7.90968
縣	-7.91123
官	-7.92034
苦	-7.92147
玉	-7.92178
執	-7.9227
進	-7.92351
疾	-7.92379
鼓	-7.92645
人之	-7.93484
赤	-7.93565
厚	-7.93619
之人	-7.94053
少	-7.94168
卒	-7.94174
秦	-7.94402
之後	-7.9447
戎	-7.94772
雨	-7.94951
兵	-7.95132
讀	-7.95384
門	-7.95571
功	-7.95626
聞	-7.95641
宗	-7.9569
一名	-7.9581
澤	-7.96067
殺	-7.96484
衞	-7.96647
邑	-7.96681
傷	-7.9723
獻	-7.97566
適	-7.97677
注云	-7.97888
愛	-7.98038
十	-7.9813
箋	-7.98342
雅	-7.98773
左	-7.98868
。	-7.99095
應	-7.99369
夫人	-7.99406
春	-7.99603
周禮	-7.99647
望	-7.99692
夷	-7.9986
特	-8.00219
位	-8.00315
句	-8.00427
之言	-8.00492
汝	-8.00538
動	-8.00681
而後	-8.00727
教	-8.01127
右	-8.01349
孔氏曰	-8.01402
之辭	-8.01434
述	-8.01549
楚	-8.01551
間	-8.01569
婦	-8.01891
申	-8.02155
郊	-8.02299
情	-8.02427
害	-8.02563
御	-8.02901
張	-8.03205
徐	-8.03687
廟	-8.04179
遷	-8.04404
就	-8.04592
種	-8.04907
原	-8.05001
不敢	-8.05011
小人	-8.05067
報	-8.05201
設	-8.05256
舊	-8.05406
箋云	-8.05679
私	-8.05882
新	-8.05919
叔	-8.06035
繼	-8.06326
廢	-8.06448
降	-8.06484
父母	-8.06857
爵	-8.06916
許	-8.07272
餘	-8.07512
老	-8.07699
宋	-8.07998
宫	-8.08054
㑹	-8.08165
舞	-8.08175
念	-8.08264
修	-8.08265
保	-8.08317
左傳	-8.08558
之義	-8.08711
承	-8.08933
星	-8.09094
曲	-8.09101
尤	-8.09345
尸	-8.09356
興也	-8.09465
胡	-8.09547
朱	-8.0959
化	-8.09626
交	-8.0993
二章	-8.11392
存	-8.11497
微	-8.11587
學	-8.11602
火	-8.11756
元	-8.11813
宣王	-8.12048
他	-8.12139
感	-8.12197
春秋	-8.12348
克	-8.12463
唐	-8.12789
更	-8.12931
改	-8.13007
誠	-8.1357
青	-8.13584
淫	-8.14365
升	-8.14489
俗	-8.14598
薄	-8.14668
福	-8.14757
之心	-8.14814
羊	-8.15154
光	-8.15182
昭	-8.15214
孝	-8.15581
並	-8.15695
任	-8.15737
享	-8.15832
角	-8.16224
傳曰	-8.16306
皮	-8.16348
依	-8.16542
牛	-8.16671
目	-8.16857
顯	-8.17573
利	-8.17594
四方	-8.17955
匪	-8.1821
太	-8.18259
秋	-8.18285
口	-8.18831
喜	-8.18934
於是	-8.19054
守	-8.19074
将	-8.1921
顧	-8.19288
里	-8.19468
助	-8.19719
病	-8.19817
遺	-8.20041
石	-8.20078
八	-8.20243
絶	-8.20284
此章	-8.20296
賢者	-8.20627
其所	-8.21091
婦人	-8.21238
是以	-8.21379
己	-8.21463
集	-8.2149
之地	-8.21537
然後	-8.21582
畏	-8.21813
隂	-8.21827
飾	-8.21871
職	-8.22035
衰	-8.22329
息	-8.22358
集傳	-8.2245
離	-8.22622
等	-8.23025
之間	-8.23165
仁	-8.23203
配	-8.23354
無所	-8.24392
末	-8.2458
器	-8.2472
飲	-8.25039
具	-8.2511
朱子	-8.25162
而無	-8.25358
金	-8.25379
一章	-8.25547
豐	-8.26494
揚	-8.26673
后稷	-8.26728
以爲	-8.26942
對	-8.27134
被	-8.27233
丘	-8.27637
弓	-8.27713
者以	-8.28029
恐	-8.28122
四章	-8.28568
冬	-8.28605
吾	-8.28924
野	-8.29469
畢	-8.29519
軍	-8.2957
嵗	-8.29702
嘗	-8.30055
説文云	-8.30141
聖	-8.30291
不同	-8.30375
萬	-8.30405
良	-8.30522
附	-8.30633
形	-8.30658
性	-8.30761
高	-8.30785
友	-8.30924
賔	-8.30999
儀	-8.31313
全	-8.3137
皇	-8.31797
林	-8.32117
也箋云	-8.32118
之禮	-8.32353
卷	-8.32561
唯	-8.32931
言之	-8.33049
棄	-8.33103
式	-8.33148
禍	-8.3355
呼	-8.33768
棘	-8.33837
奏	-8.33874
翻	-8.33874
羣	-8.34001
詳	-8.3415
路	-8.34169
龍	-8.34248
永	-8.34265
期	-8.34425
祝	-8.34472
邦	-8.34616
兼	-8.34848
積	-8.34865
之道	-8.34871
庶	-8.35056
榖	-8.35075
錫	-8.35123
嘉	-8.35332
久	-8.35515
也言	-8.35715
周之	-8.3628
怒	-8.36699
况	-8.36729
建	-8.36873
哀	-8.36897
羽	-8.36985
威	-8.37219
率	-8.37435
孫	-8.37562
懐	-8.37654
聖人	-8.37862
柔	-8.3791
靡	-8.37993
威儀	-8.382
清	-8.38557
要	-8.38754
掌	-8.38883
寒	-8.39577
豳	-8.39849
而言	-8.39859
勝	-8.40062
陵	-8.40252
布	-8.40509
湯	-8.40754
施	-8.40863
純	-8.41207
蟲	-8.41349
還	-8.41463
專	-8.41635
𫝊	-8.4179
連	-8.41823
説文	-8.41834
記	-8.41868
待	-8.41995
質	-8.4204
夜	-8.4221
民之	-8.42288
弗	-8.42313
小雅	-8.42777
后	-8.42816
祭祀	-8.42949
結	-8.42959
總	-8.4307
至于	-8.43144
幽王	-8.43232
辨	-8.43246
手	-8.43257
子孫	-8.43351
賜	-8.43547
王之	-8.43604
韓	-8.43611
誤	-8.43671
也故	-8.43874
歟	-8.43982
有所	-8.44112
左右	-8.44151
號	-8.443
也此	-8.44303
奉	-8.44415
仲	-8.44434
樹	-8.44716
寧	-8.44761
稷	-8.44914
見其	-8.44972
敗	-8.4522
留	-8.45362
邪	-8.45375
紀	-8.45496
之説	-8.45705
辟	-8.45883
武公	-8.45968
然則	-8.46134
推	-8.46201
先王	-8.46228
開	-8.46267
獸	-8.46332
代	-8.4683
梁	-8.47016
遇	-8.47023
於此	-8.47075
鄭氏曰	-8.47085
厥	-8.47437
滅	-8.47844
便	-8.48017
矢	-8.48357
急	-8.48657
列	-8.48789
𤣥	-8.48974
以下	-8.49077
責	-8.49082
翼	-8.49209
乗	-8.4942
烝	-8.49464
堂	-8.49614
上帝	-8.49715
强	-8.5011
竹	-8.50111
臨	-8.50161
除	-8.50306
嫁	-8.50453
愚按	-8.50597
惠	-8.50617
史	-8.50674
烏	-8.50727
貴	-8.50839
又曰	-8.50872
覆	-8.50891
戰	-8.51174
業	-8.51767
蒲	-8.51808
果	-8.51812
首章	-8.51876
魏	-8.51935
喪	-8.52072
文王之	-8.52137
役	-8.52158
追	-8.52205
休	-8.52206
陸	-8.52276
熟	-8.52487
荒	-8.52513
黍	-8.52564
忽	-8.52608
此言	-8.52654
聽	-8.52681
知其	-8.52996
□	-8.53606
鄭氏	-8.53668
假	-8.53734
何以	-8.53805
毛傳	-8.53827
耕	-8.54017
牲	-8.54488
上下	-8.54516
之中	-8.54535
隨	-8.54546
才	-8.54585
君臣	-8.54607
勤	-8.5464
納	-8.55001
習	-8.55013
鳩	-8.55083
弟	-8.5515
尾	-8.5531
苟	-8.55416
乘	-8.55722
穀	-8.5593
孔子	-8.55968
故以	-8.56066
救	-8.56706
虞	-8.56841
毛氏曰	-8.56853
紂	-8.57073
冠	-8.57167
國人	-8.57307
細	-8.5742
暴	-8.57848
向	-8.5798
昏	-8.58013
國之	-8.58153
味	-8.58342
嚴	-8.58439
農	-8.5852
之子	-8.58562
虎	-8.5869
必有	-8.58991
妻	-8.59111
持	-8.59348
又云	-8.59833
危	-8.59984
輕	-8.59996
千	-8.60013
征	-8.60438
最	-8.60507
轉	-8.60557
願	-8.6058
侵	-8.60653
窮	-8.60705
誰	-8.61031
薦	-8.61157
公子	-8.61229
工	-8.61307
舍	-8.61594
吉	-8.61768
逸	-8.62236
聚	-8.62277
牧	-8.62365
昔	-8.62715
罪	-8.62851
羣臣	-8.63238
司	-8.63294
故知	-8.63365
景	-8.63416
黒	-8.63448
忘	-8.63467
者皆	-8.63625
須	-8.63781
耶	-8.63806
斷	-8.63815
饗	-8.63902
甫	-8.6402
旅	-8.64336
洛	-8.64569
散	-8.64573
朱氏曰	-8.64749
宿	-8.64788
姓	-8.6483
禘	-8.64861
曹	-8.64869
不必	-8.649
厲	-8.64924
之名	-8.64935
屋	-8.65069
後世	-8.65328
干	-8.65413
故云	-8.65611
只	-8.65695
條	-8.6583
素	-8.65948
根	-8.66005
后妃	-8.66025
嗣	-8.66161
楊	-8.66188
慎	-8.66228
宣	-8.66248
祈	-8.66252
圖	-8.6661
襄公	-8.66662
豆	-8.6669
甲	-8.66705
召公	-8.67119
其心	-8.67148
召	-8.67248
計	-8.6742
文武	-8.67621
肆	-8.67745
達	-8.67759
歎	-8.67768
患	-8.67838
裳	-8.67903
旁	-8.67953
来	-8.68023
禾	-8.6806
宗廟	-8.68097
退	-8.68359
之功	-8.68428
公劉	-8.68552
露	-8.68628
證	-8.68853
亦有	-8.68902
端	-8.69081
古者	-8.69105
庭	-8.69185
天之	-8.69407
置	-8.69426
富	-8.69552
七月	-8.69658
劉	-8.69723
以此	-8.69843
之徳	-8.69929
舟	-8.6995
卜	-8.6999
未有	-8.70063
禄	-8.70077
然而	-8.70107
管	-8.7012
僖公	-8.70158
舒	-8.70235
卿	-8.70343
奔	-8.70421
無不	-8.70602
革	-8.71096
古人	-8.71389
閔	-8.71444
李	-8.71496
酌	-8.71512
栗	-8.71514
乆	-8.71576
之故	-8.71718
懷	-8.71857
岐	-8.71922
飲酒	-8.71954
典	-8.71992
雉	-8.72027
濟	-8.72048
恭	-8.72103
户	-8.722
頭	-8.72331
受命	-8.72334
授	-8.72339
擇	-8.72351
花	-8.72371
落	-8.72504
匹	-8.72591
造	-8.72615
歴	-8.72663
不足	-8.72924
皆有	-8.72961
之盛	-8.73016
迎	-8.73242
菜	-8.73328
之類	-8.73454
束	-8.73456
刑	-8.73618
衡	-8.73676
大雅	-8.73745
介	-8.73847
府	-8.73852
駕	-8.73938
側	-8.74003
案	-8.74012
吕	-8.74186
獲	-8.7423
淺	-8.74334
天下之	-8.74543
垂	-8.74654
其事	-8.7467
謹	-8.7488
之情	-8.75165
愈	-8.75739
遠	-8.75821
漸	-8.7589
懼	-8.759
不言	-8.76053
其君	-8.76056
履	-8.76058
醉	-8.76094
爾雅云	-8.76248
登	-8.76306
面	-8.76497
輔	-8.76722
泉	-8.76924
驕	-8.76967
背	-8.77053
薪	-8.77149
送	-8.77207
京	-8.77218
足以	-8.77472
鮮	-8.77502
肉	-8.77674
再	-8.77742
五章	-8.78005
社	-8.78009
愚	-8.78083
伊	-8.78173
以其	-8.78311
厲王	-8.78363
註	-8.784
禹	-8.78688
詞	-8.787
真	-8.7873
勸	-8.78751
申伯	-8.78898
脩	-8.79374
枝	-8.79381
朋友	-8.79583
莊公	-8.79624
崇	-8.79705
靈	-8.7982
六章	-8.79894
忠	-8.79899
㣲	-8.79923
羙	-8.79924
敢	-8.79985
簡	-8.8003
人君	-8.80123
堅	-8.80278
不如	-8.80671
史記	-8.807
天命	-8.80707
契	-8.80802
表	-8.80849
慮	-8.81247
谷	-8.8128
族	-8.81301
諸侯之	-8.81371
徃	-8.81403
朱傳	-8.81445
勿	-8.81627
佩	-8.81689
則是	-8.81719
旦	-8.82072
二句	-8.82452
鄉	-8.82495
氏曰	-8.82585
麻	-8.82766
江	-8.82817
闕	-8.82838
男	-8.82893
龜	-8.82895
之說	-8.82937
姜	-8.83012
卑	-8.83102
讒	-8.83313
否	-8.83585
麥	-8.83722
越	-8.83869
海	-8.83972
絲	-8.84136
茂	-8.8421
録	-8.84431
均	-8.84594
之詞	-8.84632
以見	-8.84973
并	-8.85009
滿	-8.85058
牡	-8.85073
杜	-8.85142
則有	-8.85264
舜	-8.85461
示	-8.85501
逐	-8.85627
不以	-8.85639
之貌	-8.85782
收	-8.86202
勉	-8.86209
裘	-8.86344
避	-8.86347
精	-8.86453
取其	-8.86556
當時	-8.86639
用之	-8.86872
恩	-8.86968
男女	-8.8699
㫖	-8.8711
幽	-8.87202
第	-8.87202
抑	-8.87208
其實	-8.87304
鼔	-8.87357
二十	-8.87545
雜	-8.8764
可謂	-8.8764
房	-8.87719
姑	-8.87849
文公	-8.87886
早	-8.8791
者謂	-8.87911
營	-8.87948
敎	-8.88046
使之	-8.88128
祥	-8.88299
繹	-8.88497
通作	-8.88671
賓	-8.88857
盈	-8.88899
輯録	-8.88974
詩曰	-8.89016
差	-8.8906
蕭	-8.89267
狐	-8.8933
雲	-8.89597
請	-8.89847
蒿	-8.90009
不然	-8.90069
鹿	-8.90143
而有	-8.90212
補	-8.90265
月令	-8.90328
之上	-8.9037
省	-8.90393
仕	-8.906
之所以	-8.90832
者亦	-8.90919
託	-8.90937
淮夷	-8.91116
畫	-8.91189
黃	-8.91207
寢	-8.91229
秉	-8.91287
天子之	-8.91325
王者	-8.91408
主人	-8.91525
察	-8.91579
王命	-8.91795
斥	-8.91798
孔氏	-8.91857
材	-8.91913
徧	-8.92125
游	-8.92209
逆	-8.92344
平王	-8.92405
桓	-8.92443
昌	-8.92508
勢	-8.92622
也今	-8.928
蔽	-8.9289
其徳	-8.9297
其後	-8.93074
續	-8.93107
扵	-8.93244
川	-8.93354
之樂	-8.93434
可知	-8.93719
未嘗	-8.93765
徂	-8.94075
約	-8.94084
故言	-8.94125
如字	-8.94382
苗	-8.9456
蠶	-8.94589
室家	-8.94634
徹	-8.94652
虚	-8.94654
爰	-8.94905
密	-8.95118
韓詩	-8.95301
貫	-8.95517
蘇	-8.95818
出於	-8.95823
虐	-8.95831
辰	-8.95853
慶	-8.95862
說文云	-8.95903
每	-8.96064
禮記	-8.96094
泥	-8.96115
皆以	-8.96223
困	-8.96362
粟	-8.96458
王氏曰	-8.96483
弁	-8.96796
季	-8.96894
康	-8.96993
不見	-8.96999
三年	-8.97152
悲	-8.97476
兄	-8.97551
之美	-8.97596
漢書	-8.97703
比也	-8.97751
之法	-8.97899
格	-8.97925
孟子	-8.9801
萬物	-8.9813
亦不	-8.98254
繫	-8.9842
帶	-8.98441
笙	-8.98596
又有	-8.98601
下章	-8.98686
君之	-8.98703
傳云	-8.98743
鄭云	-8.98751
識	-8.98773
温	-8.98997
蘇氏曰	-8.99169
乾	-8.99233
賤	-8.99296
移	-8.99732
如是	-8.99748
則其	-8.99753
悔	-8.99782
日月	-8.99819
荼	-8.99891
半	-8.99897
本作	-8.99905
沃	-8.99926
擊	-8.99964
不過	-9.00011
可見	-9.0011
弱	-9.00284
先祖	-9.00375
違	-9.00421
池	-9.00479
烈	-9.00566
夫婦	-9.00727
當作	-9.00743
殊	-9.00779
肅	-9.00862
召伯	-9.009
莖	-9.00903
監	-9.00988
毛云	-9.01098
而又	-9.01143
詩之	-9.0119
幾	-9.01345
箋曰	-9.0136
欲其	-9.01468
旱	-9.01554
歲	-9.01666
襄	-9.0183
巳	-9.02035
黑	-9.02172
蒙	-9.02192
人心	-9.02318
桓公	-9.02377
之日	-9.02418
堯	-9.02463
豈不	-9.02613
也又	-9.03077
疆	-9.03277
不忘	-9.03288
其意	-9.03353
在位	-9.03429
甘	-9.03507
草木	-9.0351
冝	-9.03604
負	-9.03623
佐	-9.03773
南山	-9.03807
勇	-9.04039
驅	-9.04213
答	-9.04248
艾	-9.04318
速	-9.04465
釋文	-9.04468
太子	-9.04533
寡	-9.04631
黍稷	-9.0483
戾	-9.04847
放	-9.04878
敦	-9.04916
育	-9.05102
臺	-9.05161
恤	-9.05252
是詩	-9.0532
大王	-9.05392
英	-9.05459
遊	-9.05526
接	-9.05627
遭	-9.05646
之辭也	-9.05696
防	-9.05719
鄭箋	-9.05883
莊	-9.05896
上章	-9.05959
調	-9.05988
昊天	-9.0599
所以為	-9.06154
夕	-9.06191
略	-9.06469
莫不	-9.06477
秀	-9.06617
从	-9.06646
荆	-9.06654
誦	-9.06839
貪	-9.06904
席	-9.06981
一人	-9.07047
彊	-9.0707
穆	-9.07073
覺	-9.07086
不可以	-9.07123
六月	-9.07172
茅	-9.0746
醜	-9.07732
所云	-9.0785
毛氏	-9.08002
循	-9.08003
坐	-9.08034
黎	-9.08097
折	-9.08098
四國	-9.08134
見於	-9.08181
之外	-9.08241
本草	-9.08242
咸	-9.08349
謝	-9.08386
音義	-9.0844
子曰	-9.08489
故謂之	-9.085
四牡	-9.08631
大也	-9.08746
米	-9.08827
仍	-9.08894
旋	-9.08956
子之	-9.09004
女子	-9.0903
豕	-9.09177
孔曰	-9.09221
畝	-9.09264
福禄	-9.0929
厭	-9.09321
翟	-9.0938
雞	-9.09694
蒼	-9.09836
朔	-9.09867
雷	-9.09892
寛	-9.09935
緩	-9.10021
耦	-9.10022
正義曰	-9.10057
誅	-9.10068
或曰	-9.10175
丁	-9.1041
剛	-9.10433
不我	-9.1045
沈	-9.10481
縱	-9.10591
基	-9.10661
葵	-9.10772
昭公	-9.1078
例	-9.10888
朱註	-9.11012
狄	-9.11084
羅	-9.11151
不用	-9.11192
綏	-9.11298
禦	-9.11329
井	-9.11371
同姓	-9.11396
震	-9.11406
奄	-9.11418
以興	-9.11448
壽	-9.11541
者為	-9.11604
悦	-9.11683
允	-9.11712
人所	-9.11809
舎	-9.11848
而作	-9.11888
王季	-9.11911
攻	-9.11929
也鄭箋	-9.11931
天地	-9.12129
從之	-9.1225
不復	-9.12339
王室	-9.12582
尺	-9.12594
之臣	-9.12642
貝	-9.1276
充	-9.12805
之世	-9.12811
趨	-9.12855
曷	-9.13136
趙	-9.13426
空	-9.13435
三十	-9.13605
客	-9.13687
其説	-9.138
叛	-9.1393
孔疏	-9.14134
禽	-9.14184
䟽	-9.14197
雍	-9.14237
之下	-9.14244
朝廷	-9.14261
之德	-9.14269
源	-9.14311
寵	-9.14313
我心	-9.14318
殆	-9.14402
妄	-9.14544
未必	-9.14556
貧	-9.14638
犬	-9.14874
斗	-9.15381
䑕	-9.15666
遣	-9.15673
肥	-9.15696
塗	-9.15792
較	-9.15853
之國	-9.15857
及其	-9.15897
伏	-9.16097
況	-9.16125
夀	-9.1622
繁	-9.16296
潔	-9.16307
横	-9.16348
蓼	-9.16445
浮	-9.16445
二字	-9.16719
穫	-9.16892
諫	-9.16899
統	-9.16903
阿	-9.16936
歳	-9.16949
躬	-9.16995
毛曰	-9.17156
之處	-9.17193
其義	-9.17223
鑿	-9.17324
其地	-9.1751
圭	-9.17541
相與	-9.17558
亦以	-9.17778
思之	-9.1784
忌	-9.17881
也夫	-9.18132
香	-9.18181
藏	-9.18386
使我	-9.18399
下文	-9.18401
檜	-9.18472
譽	-9.18584
也按	-9.18692
序曰	-9.18721
貎	-9.18729
為一	-9.18842
嘆	-9.18848
說文	-9.18885
壯	-9.18916
穴	-9.18917
東方	-9.19073
界	-9.19109
塞	-9.1919
不相	-9.19199
作詩	-9.19397
葛	-9.19421
短	-9.19504
先生	-9.19685
不及	-9.1979
之屬	-9.19801
毛鄭	-9.1984
江漢	-9.19853
黨	-9.20029
觧	-9.20236
鹿鳴	-9.20304
宣公	-9.20423
妾	-9.20664
強	-9.20766
巢	-9.21201
隱	-9.21285
蕩	-9.21463
逹	-9.21481
𤼵	-9.21496
専	-9.21502
卒章	-9.21559
也毛傳	-9.21592
莊姜	-9.21615
災	-9.21657
羔裘	-9.21668
織	-9.21684
卿士	-9.21755
四月	-9.21774
竊	-9.21787
卿大夫	-9.21876
猶言	-9.21929
王氏	-9.22019
隠	-9.22026
梅	-9.22091
宻	-9.22117
孟	-9.22317
敖	-9.22333
解見	-9.22361
周人	-9.22533
以上	-9.22799
其人	-9.22817
朱子曰	-9.22819
惑	-9.22846
八章	-9.22888
畜	-9.22962
十月	-9.23066
百里	-9.23144
其子	-9.23252
集說	-9.23278
至此	-9.23324
之文	-9.23368
借	-9.23396
古之	-9.23486
孝子	-9.23588
審	-9.23601
三章章四句	-9.23614
于天	-9.2404
詠	-9.2405
曽	-9.24236
國語	-9.24277
則又	-9.24463
辛	-9.24501
事也	-9.24577
參	-9.24579
欽定四庫全書	-9.24581
博	-9.24593
召南	-9.24633
奠	-9.24716
者言	-9.24734
錯	-9.24736
雀	-9.2476
編	-9.24785
磬	-9.24786
茹	-9.24821
支	-9.24887
崩	-9.2493
以自	-9.25056
矜	-9.25101
俟	-9.25235
朱曰	-9.25372
夫子	-9.25478
築	-9.25513
攸	-9.25552
繩	-9.25624
矣故	-9.25666
矣然	-9.25673
末章	-9.25977
下同	-9.26
板	-9.26094
車馬	-9.26153
今之	-9.26197
畧	-9.26233
胥	-9.26436
求之	-9.26461
桃	-9.2654
君子之	-9.26651
儉	-9.26657
静	-9.26682
律	-9.26686
不已	-9.26755
闗雎	-9.26954
嗟	-9.26955
他人	-9.27036
市	-9.27076
其身	-9.27173
!	-9.27176
扶	-9.27316
鎬	-9.27462
陰	-9.27568
笑	-9.27596
植	-9.27625
玁狁	-9.27628
圓	-9.27881
讓	-9.27887
篤	-9.27894
禮樂	-9.27919
紫	-9.28082
詩序	-9.28097
宅	-9.28118
誓	-9.28332
雖有	-9.28382
牙	-9.28402
仰	-9.28765
桐	-9.28804
也然	-9.28817
贈	-9.28899
勞苦	-9.28899
委	-9.28956
此篇	-9.29059
鍾	-9.29113
榮	-9.29206
啓	-9.29241
毁	-9.296
行役	-9.29629
免	-9.29738
先儒	-9.29773
無有	-9.29811
周南	-9.29846
所作	-9.2987
瑟	-9.29871
規	-9.2989
痛	-9.29922
狩	-9.29926
也蓋	-9.30036
務	-9.30042
倫	-9.3006
其辭	-9.30139
苞	-9.30564
甚矣	-9.30576
畆	-9.30598
我之	-9.30757
淵	-9.30792
也若	-9.30887
飲食	-9.31043
使人	-9.31161
缺	-9.31177
未詳	-9.31338
儀禮	-9.31411
境	-9.31412
以禮	-9.31433
譏	-9.31439
中國	-9.3155
故其	-9.31595
得之	-9.31798
底	-9.31809
而歸	-9.31827
迹	-9.31971
麟	-9.32061
咨	-9.32064
先王之	-9.32131
貞	-9.32212
疏曰	-9.32253
美之	-9.32304
貢	-9.32311
猗	-9.32384
童	-9.32439
騶虞	-9.32543
環	-9.32774
十二	-9.32836
哲	-9.32837
又言	-9.32912
禁	-9.3293
丈	-9.32966
淮	-9.33027
髪	-9.33033
斂	-9.3325
如何	-9.33255
尹氏	-9.33371
毛詩	-9.33412
明矣	-9.33613
當是	-9.33619
庸	-9.33721
不應	-9.33889
寸	-9.33932
牽	-9.34086
泰	-9.34139
男子	-9.34188
齒	-9.34201
安得	-9.34204
助祭	-9.34282
仇	-9.34306
輔氏曰	-9.3438
雪	-9.34383
敵	-9.34456
變風	-9.34499
盟	-9.3454
皇父	-9.34581
得其	-9.34609
踐	-9.34681
穆公	-9.34805
渠	-9.34819
闗	-9.34903
爭	-9.34914
會	-9.35029
遲	-9.35036
竭	-9.35058
索	-9.35172
詩者	-9.35248
几	-9.35474
此章言	-9.35516
國家	-9.35546
旂	-9.35652
三月	-9.35744
命之	-9.35782
供	-9.35829
妃	-9.35854
染	-9.3589
徙	-9.3597
陶	-9.36002
李氏曰	-9.36069
回	-9.36105
皆是	-9.36207
司馬	-9.36209
詩云	-9.36238
戴	-9.36317
娶	-9.36326
田獵	-9.3638
傅	-9.36401
舊説	-9.36421
兹	-9.36511
晚	-9.36657
之際	-9.36669
讀如	-9.3667
豫	-9.36675
賊	-9.36704
之意也	-9.3688
歐陽	-9.36941
慕	-9.36965
熊	-9.36967
丹	-9.36973
太平	-9.37037
敷	-9.3709
籥	-9.37218
而下	-9.37414
刀	-9.37459
玩	-9.37713
蛇	-9.37713
各有	-9.3782
杞	-9.37888
蔡	-9.37903
倉	-9.37907
則不	-9.37936
毒	-9.37992
孚	-9.38078
孤	-9.38085
琴瑟	-9.3819
優	-9.3821
一句	-9.38231
渭	-9.38284
符	-9.38338
曾	-9.38406
太王	-9.3846
又以	-9.38483
關雎	-9.3863
七章	-9.38662
域	-9.39161
筵	-9.39226
議	-9.39259
不為	-9.39421
之事也	-9.39431
閒	-9.3945
國風	-9.39469
其聲	-9.39486
衍	-9.39555
鼠	-9.39577
獵	-9.39838
戍	-9.39841
吹	-9.39843
閑	-9.39921
亦云	-9.39988
鐘	-9.40024
孔云	-9.40138
其民	-9.40188
慢	-9.4022
候	-9.4025
稻	-9.40271
詩中	-9.40284
其情	-9.40285
矛	-9.40329
不當	-9.40347
鬱	-9.40352
毛公	-9.40372
盧	-9.40454
以喻	-9.40564
豹	-9.40565
而成	-9.40586
則知	-9.40715
聴	-9.40718
如此則	-9.40732
奪	-9.40749
稼	-9.40842
不知其	-9.4086
小子	-9.40873
三百	-9.40888
可知矣	-9.40916
後人	-9.40926
正月	-9.40931
可食	-9.40938
以比	-9.40953
振	-9.40972
郭	-9.40984
所言	-9.41101
吳	-9.41136
不善	-9.41169
者非	-9.41189
叙	-9.41208
飢	-9.4122
䘮	-9.41247
俾	-9.41348
蘭	-9.41351
究	-9.41352
驚	-9.41365
山川	-9.41421
栁	-9.41494
禮義	-9.417
迫	-9.41739
四句	-9.41744
隰	-9.42015
之使	-9.42015
之物	-9.42024
單	-9.42058
之語	-9.42115
智	-9.42143
此則	-9.42205
蠻	-9.42206
疏云	-9.42436
矣而	-9.4255
逝	-9.4263
康公	-9.42649
其言	-9.42672
亦曰	-9.42725
姜嫄	-9.42784
鄙	-9.42877
綱	-9.42882
伐木	-9.42889
今人	-9.42912
親迎	-9.42938
互	-9.42966
夢	-9.43037
在上	-9.43179
吉甫	-9.43197
棲	-9.43414
啟	-9.43422
衆多	-9.43471
冕	-9.4353
寜	-9.43554
反覆	-9.43563
灌	-9.43608
譖	-9.4361
有此	-9.4362
諷	-9.43679
臧	-9.43699
樂也	-9.43746
舅	-9.43757
之服	-9.43794
凶	-9.4399
此亦	-9.44145
却	-9.44194
副	-9.44303
僖	-9.44303
賢人	-9.44385
兔	-9.44461
歩	-9.4448
牝	-9.44579
忍	-9.44674
朋	-9.4468
道也	-9.44725
聘	-9.44817
百姓	-9.44835
衣服	-9.44902
偏	-9.44903
黄鳥	-9.44954
在於	-9.44989
其德	-9.45013
兆	-9.45135
竟	-9.45173
宴	-9.45217
程	-9.4527
章八句	-9.45346
遏	-9.4539
陟	-9.45395
偶	-9.45395
誘	-9.4542
可為	-9.45425
歡	-9.45682
征伐	-9.4569
武王之	-9.45748
渉	-9.46076
稼穡	-9.4609
時也	-9.46137
宇	-9.46234
病也	-9.46333
嶽	-9.46565
二年	-9.46593
有功	-9.46698
錦	-9.46733
譬	-9.46746
姬	-9.46831
狂	-9.4686
聲也	-9.46972
牆	-9.47031
自然	-9.47128
翰	-9.47254
人情	-9.47398
洽	-9.47546
之行	-9.47619
之前	-9.47672
取之	-9.47798
所用	-9.47801
庶幾	-9.47845
投	-9.47845
之什	-9.47849
拜	-9.47911
破	-9.47914
延	-9.47942
集傳賦也	-9.47989
南方	-9.48073
東都	-9.48094
褒姒	-9.48108
煩	-9.48118
燕禮	-9.48133
其國	-9.48195
善也	-9.48224
周道	-9.48319
咎	-9.48353
蕃	-9.48463
鄭曰	-9.48486
隅	-9.485
稍	-9.48507
懸	-9.4852
腹	-9.48529
刻	-9.48537
周室	-9.48548
鴟鴞	-9.4862
討	-9.48637
風俗	-9.48652
暇	-9.48665
文姜	-9.48734
弑	-9.48783
反叶	-9.48874
藻	-9.49018
導	-9.49035
轡	-9.49053
遽	-9.49085
邁	-9.49251
鴈	-9.49311
招	-9.49315
禹貢	-9.49473
以致	-9.4949
資	-9.49492
靜	-9.49505
學者	-9.49604
戸	-9.49613
怠	-9.4963
悉	-9.49649
整	-9.49686
暮	-9.49727
食之	-9.49753
酢	-9.4976
司徒	-9.49883
箕	-9.49905
幸	-9.49929
其上	-9.50046
仲山甫	-9.50094
漆	-9.50131
犯	-9.50151
恃	-9.5016
韋	-9.5031
屈	-9.50317
斧	-9.50326
駿	-9.50428
懲	-9.50463
消	-9.50479
豐年	-9.50495
鸞	-9.50523
罔	-9.50544
泮	-9.50555
猶有	-9.5059
即位	-9.50601
之志	-9.50701
生於	-9.50888
碩人	-9.50984
明堂	-9.51015
曉	-9.5115
梓	-9.51157
題	-9.51325
韓侯	-9.51351
廬	-9.5141
旟	-9.51417
濯	-9.51421
那	-9.5143
冰	-9.51445
弦	-9.51451
肅肅	-9.51483
舌	-9.51575
樊	-9.51681
榆	-9.51725
亦作	-9.51748
一物	-9.51771
傍	-9.51862
芳	-9.51873
鼎	-9.51896
亦可	-9.51941
選	-9.52034
孔氏穎達曰	-9.52119
未知	-9.5212
隆	-9.52164
俎	-9.52246
失其	-9.52331
管蔡	-9.52382
鞠	-9.5261
州吁	-9.52635
關	-9.52639
霜	-9.52734
也朱註	-9.52792
其葉	-9.52822
慰	-9.52832
祫	-9.52857
法也	-9.52871
弋	-9.52962
權	-9.52984
恒	-9.52986
巧	-9.53268
屢	-9.53456
之大	-9.53473
序云	-9.53524
領	-9.53527
暑	-9.5357
辟廱	-9.53579
騂	-9.53722
而得	-9.53734
相應	-9.53785
段	-9.53841
尋	-9.53858
寫	-9.53866
藉	-9.53888
葦	-9.54091
嫡	-9.54136
夲	-9.54172
踰	-9.54189
攷	-9.54203
瞻	-9.54259
魴	-9.54265
羞	-9.54348
蔓	-9.54395
八月	-9.54406
駟	-9.54477
涉	-9.54539
狼	-9.54597
𤓰	-9.54673
不忍	-9.54722
旐	-9.54745
訟	-9.54878
鄘	-9.54902
正義	-9.5495
行也	-9.55017
而生	-9.55123
顔	-9.55261
婉	-9.55294
桀	-9.55353
徳之	-9.55465
荷	-9.55504
非一	-9.5555
憂心	-9.55553
包	-9.55592
媵	-9.55651
不自	-9.5571
盛也	-9.55711
郡	-9.55756
者必	-9.55791
賔客	-9.55961
十五	-9.56076
者蓋	-9.56081
於天	-9.56201
險	-9.5623
服之	-9.56257
形容	-9.56329
畿	-9.5637
政事	-9.56455
敏	-9.56501
大國	-9.56509
醻	-9.56618
衆也	-9.56766
某	-9.56801
可以為	-9.56911
步	-9.56932
決	-9.5698
寐	-9.57039
燔	-9.57125
網	-9.57253
雝	-9.57317
鵲巢	-9.5739
藥	-9.575
所見	-9.57548
孰	-9.57569
先公	-9.57621
南國	-9.57648
漆沮	-9.5772
京師	-9.57728
想	-9.57788
粲	-9.57802
羮	-9.57859
其說	-9.57934
膏	-9.57934
僕	-9.58055
嚴氏曰	-9.58221
寓	-9.58305
曲沃	-9.58353
則無	-9.58368
是為	-9.58377
大射	-9.58439
而能	-9.58523
鎬京	-9.58598
安也	-9.58652
采薇	-9.58652
小序	-9.58806
甸	-9.58825
咏	-9.58892
范	-9.58923
肯	-9.59044
以成	-9.59069
謬	-9.59103
祭之	-9.59144
相似	-9.59153
鶴	-9.59185
播	-9.5922
傾	-9.59239
赫	-9.59349
賞	-9.59354
之士	-9.59442
馳	-9.59472
媚	-9.59532
詩言	-9.59534
援	-9.59676
飽	-9.59732
西戎	-9.59733
今日	-9.5975
軌	-9.59767
二南	-9.59779
之福	-9.59833
浸	-9.5984
係	-9.59848
社稷	-9.60106
幼	-9.60161
之月	-9.60168
靈臺	-9.60194
甫田	-9.60201
之聲	-9.60262
馮	-9.60274
亳	-9.60412
李曰	-9.60511
王事	-9.60594
者乃	-9.60658
濟濟	-9.60707
柳	-9.60724
以告	-9.60744
王業	-9.60747
之至也	-9.6094
之甚	-9.61061
惜	-9.61087
矣此	-9.61121
協	-9.61165
壊	-9.61203
谷風	-9.6124
狀	-9.61276
財	-9.61284
畿内	-9.61307
沮	-9.6132
繇	-9.6134
走	-9.61346
亦無	-9.6148
昬	-9.61551
次章	-9.61554
晦	-9.61698
鶉	-9.61714
厯	-9.61737
而不知	-9.61747
鵲	-9.61757
農夫	-9.61806
一時	-9.61814
夙夜	-9.61852
血	-9.61868
即此	-9.6192
鬼神	-9.61947
之多	-9.61974
眉	-9.61977
淑	-9.62258
周頌	-9.62381
昏姻	-9.62608
毋	-9.62643
旗	-9.62778
錢	-9.62789
之君	-9.62813
事而	-9.62868
二人	-9.62897
柄	-9.62937
預	-9.62954
一曰	-9.63023
水中	-9.63249
髦	-9.6328
有常	-9.63335
愛之	-9.6337
亟	-9.63409
績	-9.63458
遵	-9.6349
樂之	-9.63521
亦非	-9.6353
脱	-9.63618
故詩人	-9.63661
之制	-9.63729
章六句	-9.63793
偕	-9.63821
皆言	-9.63856
突	-9.63881
祼	-9.63938
豈有	-9.64066
愆	-9.64095
刈	-9.64104
宰	-9.64131
蘇氏	-9.64133
其餘	-9.64144
苕	-9.64147
隂陽	-9.64151
毛傳曰	-9.64217
侮	-9.64226
倚	-9.64251
其中	-9.64311
帥	-9.6437
王肅	-9.64389
琴	-9.64458
只是	-9.64505
到	-9.6455
骨	-9.64554
壺	-9.64624
緑	-9.64668
榛	-9.64669
躍	-9.64692
大小	-9.64694
之内	-9.6474
灼	-9.65028
何為	-9.65033
屏	-9.65045
氷	-9.6512
渡	-9.65169
濁	-9.65176
照	-9.65196
因以	-9.6529
騏	-9.65327
九月	-9.65345
周家	-9.65386
風雨	-9.65398
以待	-9.65406
戚	-9.65425
眀	-9.65443
美也	-9.65447
亦是	-9.6563
程子曰	-9.65759
古音	-9.65776
郭璞	-9.65791
伋	-9.65844
殽	-9.65881
生民	-9.65943
不宜	-9.66075
削	-9.66156
清廟	-9.66158
靖	-9.66231
駁	-9.66274
燎	-9.66336
曾孫	-9.66364
幣	-9.664
弔	-9.66469
亂也	-9.66486
丗	-9.66521
而不能	-9.66567
岐山	-9.66599
國君	-9.66786
恣	-9.66809
而行	-9.66838
吐	-9.66855
析	-9.66959
不在	-9.66965
侈	-9.66998
倒	-9.67004
瑞	-9.67009
瓜	-9.67017
之理	-9.67026
詩緝	-9.67079
旄	-9.67136
貉	-9.67152
之女	-9.67218
儒	-9.67352
宫室	-9.67379
寺人	-9.67388
何所	-9.67435
〇	-9.6744
蒸	-9.6747
箋正義曰	-9.67482
通用	-9.6749
累	-9.67501
祖考	-9.67505
松	-9.67533
雄	-9.67578
行之	-9.67599
余	-9.6765
之狀	-9.67689
鐘鼓	-9.67703
曽孫	-9.67744
寘	-9.67776
有餘	-9.67778
泉水	-9.67794
論語	-9.67963
彌	-9.68166
髮	-9.68277
貳	-9.68316
牛羊	-9.68338
撰	-9.68365
使臣	-9.68385
南仲	-9.68454
潰	-9.68475
紅	-9.68478
潤	-9.68524
舄	-9.68597
蹶	-9.68763
之命	-9.68823
不至	-9.68884
矣又	-9.68942
阜	-9.68966
輪	-9.68992
量	-9.68992
濡	-9.68997
驗	-9.69021
父子	-9.69045
效	-9.69053
瓠	-9.69112
鐵	-9.69164
囿	-9.69167
奮	-9.6919
拘	-9.69193
謂其	-9.69259
徴	-9.6935
則非	-9.6936
巨	-9.69363
併	-9.69395
思其	-9.69415
受之	-9.69454
圍	-9.69498
誨	-9.69501
何也	-9.69539
非也	-9.69568
宮	-9.69633
増	-9.69678
其文	-9.69707
决	-9.69733
椒	-9.69804
法度	-9.69818
渚	-9.69856
之初	-9.69889
邶	-9.69953
陸璣	-9.69971
勤勞	-9.69983
歆	-9.70006
驪	-9.70054
其夫	-9.70111
孔子曰	-9.70141
寄	-9.70368
不足以	-9.70377
悟	-9.70381
先後	-9.70438
尚書	-9.70441
看	-9.70478
告之	-9.70493
萊	-9.70555
五年	-9.70572
鬯	-9.70671
釐	-9.7068
競	-9.70814
先言	-9.70911
螽斯	-9.71005
狹	-9.71016
嫌	-9.71089
而自	-9.71108
而去	-9.71131
而復	-9.71143
物之	-9.71172
憂之	-9.71232
白華	-9.71333
樗	-9.71353
了	-9.71357
敝	-9.71362
郭璞曰	-9.71391
曹氏曰	-9.71496
之實	-9.71502
自有	-9.71514
講	-9.71532
水之	-9.71544
滑	-9.71547
韓詩作	-9.71555
此意	-9.71575
東南	-9.7163
人皆	-9.71681
臭	-9.71732
其下	-9.71768
艸	-9.71849
璋	-9.71889
揖	-9.71907
若此	-9.72006
緝	-9.72026
輔氏廣曰	-9.72053
燕飲	-9.72115
淫亂	-9.72186
商之	-9.7225
今曰	-9.72286
慶源輔氏曰	-9.72438
運	-9.72461
賚	-9.72465
宣姜	-9.72512
之本	-9.72558
但言	-9.7262
刺幽王也	-9.72633
流言	-9.72646
緇衣	-9.72672
醢	-9.72675
中心	-9.72703
為大	-9.72719
大抵	-9.72756
也孔疏	-9.72764
喙	-9.72773
岡	-9.72869
故為	-9.72944
商頌	-9.73045
園	-9.73098
枚	-9.73105
辭也	-9.73145
曹曰	-9.73223
湑	-9.73256
䜛	-9.73262
言文王	-9.73469
其詩	-9.73482
之變	-9.73486
潛	-9.73501
此時	-9.73527
苖	-9.7358
王曰	-9.73604
涇	-9.73635
筐	-9.73688
億	-9.73719
方叔	-9.73767
先君	-9.74011
集説	-9.74065
邦國	-9.74122
轂	-9.74135
澗	-9.74208
庚	-9.74286
者有	-9.74317
當為	-9.74353
有天下	-9.74375
幹	-9.74378
一日	-9.74382
望之	-9.74404
或作	-9.74442
遐	-9.74454
武庚	-9.74476
牢	-9.74527
恥	-9.74548
武功	-9.74667
考之	-9.74693
恨	-9.74719
也然則	-9.74767
之正	-9.74795
不顯	-9.74821
樂只君子	-9.74838
僭	-9.74854
四時	-9.74878
亨	-9.7494
化之	-9.74946
大武	-9.75015
巷	-9.75035
菽	-9.75066
東西	-9.75165
刺之	-9.75254
攘	-9.75267
邰	-9.75267
無以	-9.7529
出車	-9.75312
于此	-9.75381
鴻	-9.75434
無禮	-9.75483
知之	-9.75529
於外	-9.75577
與此	-9.75601
掩	-9.75631
粱	-9.75647
隕	-9.75671
於人	-9.75739
虢	-9.75746
縫	-9.75766
詩意	-9.7578
鵠	-9.75796
鷺	-9.75814
之深	-9.75821
喬	-9.75918
子夏	-9.76098
旌	-9.76364
山之	-9.76416
述其	-9.76421
而非	-9.7646
錄	-9.76465
泣	-9.76475
成湯	-9.76478
尹	-9.76479
赫赫	-9.76528
僅	-9.76528
竒	-9.76532
陳氏曰	-9.76543
觀之	-9.76605
徵	-9.76664
草也	-9.76675
其所以	-9.76703
岸	-9.76709
牖	-9.76731
萬民	-9.76751
不與	-9.7683
緯	-9.76895
不信	-9.76914
采蘩	-9.76919
賈	-9.7693
埤雅	-9.77063
蓄	-9.771
垣	-9.77394
匏	-9.77407
不出	-9.77407
下民	-9.77413
禱	-9.77422
楚茨	-9.77457
庶人	-9.77476
此皆	-9.77508
五月	-9.77516
相類	-9.77602
其始	-9.77613
占	-9.7763
之車	-9.77645
皮弁	-9.77678
虺	-9.77686
四十	-9.77706
蓬	-9.77751
大車	-9.77758
其功	-9.77962
阻	-9.77985
則必	-9.77988
涕	-9.7802
不欲	-9.78033
其時	-9.78065
不遑	-9.78107
淫奔	-9.78133
常棣	-9.78154
一篇	-9.7839
王制	-9.78444
小者	-9.78465
豈弟君子	-9.78513
戈	-9.78519
揚之水	-9.78525
譜	-9.78569
不明	-9.7861
之職	-9.78639
侯伯	-9.78741
祿	-9.78755
之賢	-9.78756
行者	-9.78795
佗	-9.7881
者以其	-9.78847
麗	-9.78867
而不敢	-9.78879
嘏	-9.78885
沙	-9.78934
其道	-9.78957
十三	-9.79028
孫子	-9.79107
四年	-9.79204
訛	-9.79275
内則	-9.79371
不能自	-9.79392
冇	-9.79477
美其	-9.79512
今按	-9.79538
地名	-9.79566
初生	-9.7966
無窮	-9.79661
謙	-9.79676
長也	-9.79694
棗	-9.79728
而小	-9.7974
光明	-9.79911
之業	-9.79929
場	-9.80092
?	-9.80114
出入	-9.80135
弓矢	-9.80168
叶音	-9.80221
徳音	-9.80261
稽	-9.80282
文王之徳	-9.80305
茨	-9.80326
筆	-9.80432
偽	-9.80445
不從	-9.80489
而不可	-9.80572
草蟲	-9.80583
以後	-9.80614
之化	-9.8078
蜀	-9.80819
之稱	-9.80828
惟其	-9.80851
孔氏穎逹曰	-9.80905
徑	-9.80947
滌	-9.81017
旨	-9.81095
太師	-9.81103
奚	-9.81124
裏	-9.81142
簋	-9.81177
罍	-9.81297
故能	-9.81297
宛	-9.81334
邊	-9.81348
其名	-9.8141
江東	-9.81423
淇	-9.81438
貽	-9.81495
疎	-9.81513
聿	-9.81525
大者	-9.8154
愼	-9.81553
朱子云	-9.8156
軒	-9.81577
受福	-9.81582
于是	-9.8165
何哉	-9.81658
蟬	-9.81725
輯	-9.81746
悠悠	-9.81754
其職	-9.81757
璧	-9.81757
黼	-9.81798
菹	-9.8182
之象	-9.81834
輿	-9.81902
憚	-9.8212
莪	-9.82228
有二	-9.82235
詩傳	-9.82242
聊	-9.82274
鬼	-9.82311
二月	-9.82355
鳲鳩	-9.82463
従	-9.82479
以正	-9.8248
脂	-9.82492
穗	-9.82507
祗	-9.82521
則亦	-9.82532
雌	-9.82662
庻	-9.82704
溢	-9.82713
組	-9.82896
者不	-9.82938
臯	-9.82972
鯉	-9.83041
在下	-9.83093
既見君子	-9.83109
書曰	-9.83155
用兵	-9.8321
禮也	-9.83218
王姬	-9.83337
無疆	-9.83359
柞	-9.83401
賴	-9.83503
獄	-9.83521
有徳	-9.83587
巾	-9.83603
股	-9.83634
倡	-9.83753
二詩	-9.83945
前後	-9.83971
當從	-9.84017
言我	-9.8404
當以	-9.84045
括	-9.84063
邇	-9.84064
所當	-9.84163
薄言	-9.8419
未見	-9.84248
反又	-9.84343
在天	-9.84416
訊	-9.8444
兒	-9.84446
含	-9.84485
未可	-9.84529
階	-9.84563
屨	-9.84614
言天	-9.84637
緒	-9.8465
櫟	-9.84754
千里	-9.84788
冀	-9.84835
鑒	-9.84858
之風	-9.84898
之難	-9.8491
宗周	-9.8493
左氏	-9.84946
而出	-9.8498
而思	-9.85038
如之何	-9.85129
西北	-9.85216
大臣	-9.85226
瑕	-9.85248
帛	-9.85261
繡	-9.85262
成功	-9.85325
不待	-9.85396
必先	-9.85421
大如	-9.85438
限	-9.85467
鄰	-9.85499
部	-9.8564
蹙	-9.85658
紹	-9.85707
戲	-9.85825
四海	-9.85858
不安	-9.85961
北山	-9.85997
縁	-9.86049
章句	-9.86141
之始	-9.86149
周官	-9.86157
神明	-9.86184
以見其	-9.86244
鋪	-9.86269
籍	-9.86295
雖無	-9.86408
誕	-9.86426
信也	-9.8645
茀	-9.86466
即今	-9.86482
道路	-9.86482
眷	-9.86642
逃	-9.86651
盛貌	-9.8666
殖	-9.86678
挾	-9.86705
敬之	-9.86737
既成	-9.86796
衝	-9.8684
菑	-9.86846
恵	-9.8685
怪	-9.86869
兵車	-9.86905
警	-9.87071
籩豆	-9.87119
休息	-9.87222
人而	-9.87347
圃	-9.87369
始生	-9.87375
此説	-9.874
陸氏	-9.87403
春秋傳	-9.87419
甘棠	-9.87485
之祭	-9.87518
為正	-9.8754
逢	-9.87562
和也	-9.87588
夙	-9.87631
機	-9.87661
什	-9.87847
三章章六句	-9.87848
之時也	-9.87913
中有	-9.87963
周公之	-9.87964
駒	-9.8798
傳正義曰	-9.87982
而來	-9.88024
彭	-9.88043
荅	-9.8808
亦名	-9.88157
一種	-9.8819
而知	-9.88237
溝	-9.88325
往來	-9.88448
失之	-9.88461
於王	-9.88489
鮪	-9.88504
衣裳	-9.88533
詳見	-9.88589
之官	-9.88628
懿	-9.88635
簧	-9.88663
俊	-9.88671
拔	-9.88704
的	-9.88708
炙	-9.88723
雅頌	-9.88754
桓叔	-9.88772
為王	-9.88818
魯頌	-9.88844
鷹	-9.88867
所居	-9.88878
王后	-9.88908
及於	-9.88929
中興	-9.88939
夾	-9.88953
去聲	-9.89009
戎狄	-9.89024
豈弟	-9.89083
王者之	-9.89084
五十	-9.8918
隔	-9.8926
詒	-9.89279
讒人	-9.89308
其志	-9.89435
盾	-9.8946
上文	-9.89463
作樂	-9.89489
芻	-9.89532
畔	-9.89534
有三	-9.89564
三句	-9.89674
般	-9.89691
土地	-9.89721
蝗	-9.89723
鄂	-9.89738
歛	-9.89741
至矣	-9.89758
之謂也	-9.89852
心之憂矣	-9.89867
鉤	-9.89882
創	-9.8994
髙宗	-9.90008
不可不	-9.901
鴞	-9.9014
河南	-9.9023
服也	-9.90288
酬	-9.90317
其禮	-9.90351
得以	-9.90415
孫炎曰	-9.90443
斬	-9.90549
引詩	-9.90715
膺	-9.90718
卵	-9.90794
饑	-9.90937
之禍	-9.9101
鳥獸	-9.91118
又謂	-9.91124
𤣥鳥	-9.91184
争	-9.91189
齊侯	-9.91209
大師	-9.91306
者謂之	-9.91312
聖人之	-9.91314
耆	-9.91328
毫	-9.91415
歐陽氏曰	-9.91487
岳	-9.91508
鵻	-9.91511
為主	-9.91564
襲	-9.91624
其羽	-9.91658
或謂之	-9.91743
我以	-9.91791
吏	-9.9181
藝	-9.91838
之可	-9.91868
七年	-9.91871
上有	-9.91987
攝	-9.92003
毎	-9.9201
泛	-9.92029
肩	-9.92034
雒	-9.92041
羔羊	-9.92058
鑣	-9.92067
翼翼	-9.92126
偃	-9.92233
菅	-9.92243
董氏曰	-9.92306
語辭	-9.92383
觸	-9.92455
没	-9.92468
魚麗	-9.92473
卷耳	-9.92473
吕氏曰	-9.92477
人者	-9.92492
山甫	-9.92511
内外	-9.92543
芑	-9.92612
觀其	-9.92659
洗	-9.92702
歸之	-9.92805
贊	-9.92887
虛	-9.93095
摇	-9.93096
為諸侯	-9.93174
蜩	-9.93233
吕記	-9.93253
殘	-9.93272
皆可	-9.93283
之末	-9.93285
敬也	-9.93288
鄭氏康成曰	-9.93455
以來	-9.93462
之廟	-9.93507
異於	-9.93507
莘	-9.93544
西方	-9.93544
元年	-9.93573
不肯	-9.93672
燭	-9.9372
撫	-9.93732
有道	-9.93767
之氣	-9.93795
三星	-9.93808
者是	-9.93814
齊人	-9.93826
朝夕	-9.93886
茂盛	-9.94001
於民	-9.94034
䟽曰	-9.94103
今乃	-9.94151
昧	-9.94173
嚴緝	-9.94191
人以	-9.94251
翔	-9.94332
薇	-9.94338
寤	-9.9438
熱	-9.94381
戒之	-9.94384
薛	-9.94388
無良	-9.94416
配天	-9.9442
耜	-9.94445
檀	-9.94449
蟋蟀	-9.94451
萬年	-9.94477
濕	-9.9456
提	-9.94574
頗	-9.94606
酒食	-9.94689
無所不	-9.94717
致其	-9.94735
版	-9.948
把	-9.94807
拾	-9.94822
不若	-9.94838
譛	-9.94841
可見矣	-9.94841
奥	-9.94842
烈祖	-9.94914
嚴氏粲曰	-9.94953
于周	-9.94961
之樂歌	-9.94965
為天子	-9.94992
竝	-9.95007
昭明	-9.95131
盡其	-9.95142
駱	-9.95176
覯	-9.95202
卦	-9.95218
之耳	-9.95381
瘁	-9.95408
禽獸	-9.9554
註云	-9.95558
醴	-9.95559
董	-9.9556
正也	-9.95572
東山	-9.95588
皆云	-9.95607
椓	-9.95671
項	-9.95688
呉	-9.95704
諱	-9.95712
舊說	-9.95717
然其	-9.95818
肇	-9.95845
墨	-9.95885
桑扈	-9.95897
始也	-9.95915
茍	-9.95922
碩	-9.95932
古今	-9.95956
中庸	-9.96021
則民	-9.96023
稱王	-9.96025
行而	-9.96097
而不得	-9.96115
波	-9.96117
於周	-9.96127
物也	-9.96141
以相	-9.96178
作於	-9.96234
亮	-9.96323
道之	-9.9633
慈	-9.9634
採	-9.96352
不入	-9.9636
其性	-9.96365
榦	-9.96368
也音義	-9.96385
則可以	-9.96457
展	-9.96467
誤矣	-9.96481
考工記	-9.96555
邠	-9.96565
皆為	-9.96585
止於	-9.96607
必以	-9.96659
燕樂	-9.96683
圉	-9.96794
阪	-9.96795
安成劉氏曰	-9.96799
泮宫	-9.9688
亦猶	-9.96967
箴	-9.97054
北方	-9.97075
藩	-9.97185
濮	-9.97196
緜	-9.97214
壞	-9.97218
見之	-9.9725
郎	-9.97259
閟宫	-9.97269
釋文曰	-9.97295
風化	-9.97324
是時	-9.97364
聞之	-9.97376
衮	-9.97386
愚謂	-9.97404
蜡	-9.97461
鴟	-9.97488
奢	-9.97661
睦	-9.97724
則曰	-9.97731
驂	-9.97775
者故	-9.97798
以明	-9.97862
兕	-9.97913
虞惇按	-9.97915
齋	-9.97962
艱難	-9.97999
風之	-9.98033
菀	-9.98116
莊子	-9.98207
之思	-9.98217
之神	-9.98274
其色	-9.98295
下國	-9.98314
而未	-9.98393
一事	-9.98423
穆穆	-9.98434
我獨	-9.98439
伯禽	-9.98476
世子	-9.98556
翳	-9.98567
宵	-9.98582
望其	-9.98583
萌	-9.98592
無常	-9.98605
試	-9.98639
上言	-9.98669
四章章四句	-9.98816
匡	-9.98867
叢生	-9.98904
明明	-9.98921
戎車	-9.9894
於君	-9.98987
漕	-9.98996
四馬	-9.99021
以求	-9.99043
當在	-9.99048
墜	-9.99052
其間	-9.99085
西南	-9.99132
孟子曰	-9.99135
也凡	-9.99148
行道	-9.99163
二反	-9.99235
閉	-9.99248
菼	-9.99248
誣	-9.99303
之野	-9.99305
廣大	-9.99339
葉似	-9.9936
之長	-9.99374
伐崇	-9.99403
不易	-9.99434
枝葉	-9.99467
所在	-9.99521
程氏曰	-9.99529
生子	-9.99579
征夫	-9.99582
田祖	-9.99626
其母	-9.99636
爾雅曰	-9.9965
終南	-9.99654
乙	-9.9969
飬	-9.99754
費	-9.99785
藍	-9.99851
事之	-9.99872
釋詁文	-9.99874
蘩	-9.99878
大學	-9.99881
輩	-9.99924
溥	-9.99932
武丁	-10.0003
不止	-10.0008
之序	-10.001
若是	-10.0019
陋	-10.002
抱	-10.0021
萬邦	-10.0032
采蘋	-10.0033
混	-10.0041
狐裘	-10.0041
和平	-10.0043
止也	-10.0051
蘆	-10.0057
壹	-10.0059
塵	-10.0066
勺	-10.0068
測	-10.0069
綴	-10.0069
皆以為	-10.0071
欺	-10.0089
曲禮	-10.009
活	-10.009
品	-10.0091
求其	-10.0091
宣王之	-10.0094
始於	-10.0095
夭	-10.0095
東遷	-10.0099
作是詩	-10.01
之詩也	-10.01
産	-10.0107
辱	-10.0113
淮南子	-10.0116
止于	-10.0116
君也	-10.0119
不行	-10.0121
西伯	-10.0132
盤	-10.0133
十六	-10.0136
所為	-10.0137
皆謂	-10.0141
四方之	-10.0143
旒	-10.0143
乎此	-10.0148
壽考	-10.0148
隼	-10.015
鳥之	-10.0154
何人	-10.0154
亦通	-10.0155
為君	-10.0158
之極	-10.0158
自謂	-10.0162
馬之	-10.0166
康成	-10.0168
衛之	-10.0171
東征	-10.0175
之常	-10.0176
晝	-10.0179
陷	-10.018
農事	-10.0184
進退	-10.0195
猛	-10.0202
岐周	-10.0204
炎	-10.0205
不勝	-10.0216
其可	-10.0217
葛藟	-10.0221
頑	-10.0229
善人	-10.0232
名也	-10.0237
苑	-10.0243
鄭以	-10.0245
弛	-10.0252
跡	-10.0253
宏	-10.0254
采芑	-10.0255
戢	-10.0256
郭璞云	-10.0257
其臣	-10.0268
小國	-10.0268
邶鄘	-10.0269
摯	-10.0272
邱	-10.0273
養老	-10.0273
汝墳	-10.0278
即是	-10.028
柏舟	-10.0284
校	-10.0297
此所謂	-10.0297
愧	-10.0299
宛丘	-10.03
非謂	-10.0304
也箋正義曰	-10.031
罟	-10.0317
陸璣云	-10.0321
神之	-10.0322
桑中	-10.0322
謔	-10.0326
狡童	-10.0326
相親	-10.0339
興起	-10.0347
但以	-10.0362
范氏曰	-10.0377
在此	-10.0385
朱氏公遷曰	-10.0391
完	-10.0393
碩大	-10.0413
舉其	-10.0416
謂此	-10.0416
來朝	-10.0416
亦如	-10.042
思念	-10.0422
不一	-10.0424
深矣	-10.0426
者如	-10.0427
公之	-10.0428
殺之	-10.0428
亦當	-10.0436
充耳	-10.0436
可知也	-10.0437
而長	-10.0439
雙	-10.0439
維其	-10.0439
瓊	-10.0441
者又	-10.0441
二章言	-10.0444
媒	-10.0447
胡不	-10.0449
綠	-10.0459
大姒	-10.046
次第	-10.0462
誤作	-10.0462
汙	-10.0464
固有	-10.0469
隰有	-10.0474
惠公	-10.0479
諸儒	-10.0481
其本	-10.0495
歌之	-10.0497
瞽	-10.0504
毛傳云	-10.0506
繫之	-10.0506
秩秩	-10.051
卬	-10.051
十年	-10.0519
注曰	-10.052
豈可	-10.0521
之衆	-10.0527
后妃之	-10.0537
本亦作	-10.0541
自是	-10.0544
本又作	-10.0545
無罪	-10.0553
班	-10.0555
樛木	-10.0558
膚	-10.0561
寳	-10.0563
不免	-10.0565
雞鳴	-10.0569
氏云	-10.0571
十里	-10.0577
截	-10.0578
刪	-10.058
文義	-10.0581
葛屨	-10.0588
笄	-10.0588
輻	-10.0589
治之	-10.059
兎	-10.0597
仲春	-10.0597
以祀	-10.0599
賜之	-10.0605
六年	-10.0608
憎	-10.061
梟	-10.0612
損	-10.0613
晏	-10.0615
伐之	-10.0618
樂記	-10.0618
訓為	-10.0634
多矣	-10.0635
滋	-10.0635
亂世	-10.0637
畀	-10.064
鳳	-10.0647
言王	-10.0652
虹	-10.0657
天理	-10.0659
捷	-10.066
峻	-10.0661
拒	-10.0663
成王之	-10.0664
駉	-10.0666
有事	-10.0672
所生	-10.0675
讀詩	-10.0676
諡	-10.0686
孽	-10.0686
於天下	-10.0686
因其	-10.0687
詔	-10.069
鼈	-10.0691
憂思	-10.0691
豳風	-10.0695
釋草	-10.0703
祭天	-10.0712
輯錄	-10.0716
原隰	-10.0718
之政	-10.072
文章	-10.0722
二者	-10.0726
遂以	-10.0728
憂也	-10.073
忠厚	-10.073
悖	-10.0734
倍	-10.0736
之數	-10.0737
僣	-10.074
經文	-10.0743
戊	-10.0744
公田	-10.0753
庶民	-10.0754
阮	-10.0756
懌	-10.0758
康王	-10.0778
笱	-10.0778
亶	-10.0779
也盖	-10.0784
彭彭	-10.0785
承上章	-10.0785
此序	-10.0788
作此詩	-10.0789
夷狄	-10.0795
序言	-10.0796
公侯	-10.0798
楚丘	-10.0798
鰥	-10.0799
所載	-10.0801
夀考	-10.0802
上天	-10.0806
薁	-10.0807
王道	-10.0809
不顧	-10.081
不盡	-10.0812
罔極	-10.0814
覲	-10.0816
不合	-10.0816
非是	-10.0821
雲漢	-10.0822
采之	-10.0827
芣苢	-10.083
也既	-10.0832
莠	-10.0834
白色	-10.0834
湛	-10.0836
意也	-10.084
紙	-10.0843
吁	-10.0852
久矣	-10.0864
以配	-10.0867
不來	-10.0873
其馬	-10.0875
不獨	-10.0878
路車	-10.0879
堪	-10.088
諌	-10.0881
去之	-10.0882
貊	-10.0883
摧	-10.0885
𢎞	-10.0886
陸疏	-10.0887
樸	-10.0887
諸臣	-10.0889
秬	-10.089
人謂之	-10.0893
趣	-10.09
而欲	-10.0901
成之	-10.0905
辯	-10.0905
大明	-10.0905
氓	-10.0907
悼	-10.0911
芹	-10.0912
南北	-10.0914
而食	-10.0917
普	-10.0936
苴	-10.0936
是其	-10.0944
鄭伯	-10.0948
之道也	-10.0949
逺矣	-10.0949
迷	-10.0952
於我	-10.0952
與子	-10.0955
斁	-10.0968
易曰	-10.0969
莫我	-10.0969
車之	-10.0971
皆同	-10.0972
九十	-10.0973
朝服	-10.0975
為此	-10.0978
者何	-10.0978
太公	-10.0981
操	-10.0983
禮儀	-10.0986
召穆公	-10.099
臣子	-10.0994
詩以	-10.1001
三章言	-10.1006
教之	-10.1007
闢	-10.1014
郎反	-10.1017
天降	-10.103
妹	-10.1031
懈	-10.1033
褒	-10.1034
溺	-10.1035
迨	-10.1036
之善	-10.1037
裼	-10.1037
乖	-10.1037
亭	-10.1038
不逺	-10.104
劉向	-10.1046
而立	-10.1051
皇考	-10.1055
肄	-10.1058
頸	-10.1059
視之	-10.1067
之民	-10.1068
言此	-10.1068
悠	-10.1087
熾	-10.1087
腓	-10.1089
此又	-10.109
祭仲	-10.1092
或謂	-10.1093
杕杜	-10.1108
繼之	-10.1117
三家	-10.1117
大邦	-10.1123
天地之	-10.113
是用	-10.1133
多也	-10.1134
十四	-10.1137
頃	-10.114
彤弓	-10.1141
之主	-10.1147
異姓	-10.115
黍離	-10.1153
福也	-10.116
餞	-10.1161
鴛鴦	-10.1162
疾也	-10.1163
兄弟之	-10.1165
可畏	-10.1165
二章章四句	-10.1167
笠	-10.1171
魯詩	-10.1173
無疑	-10.1173
晉侯	-10.1178
臣之	-10.1178
遥	-10.1187
》	-10.1189
脫	-10.1191
文武之	-10.1193
柏	-10.1194
皆在	-10.1195
反音	-10.1196
穉	-10.1197
在東	-10.1205
也且	-10.1205
穢	-10.1214
暴虐	-10.1219
小人之	-10.1219
父母之	-10.122
正直	-10.122
棣	-10.1228
蜉蝣	-10.1237
一詩	-10.1239
瑱	-10.1242
距	-10.1243
之人也	-10.1251
康叔	-10.1256
烝民	-10.1264
推之	-10.1265
有司	-10.1267
術	-10.1267
饑饉	-10.1267
槩	-10.1268
增	-10.1269
或以	-10.1271
時事	-10.1272
葑	-10.1277
家室	-10.1281
不食	-10.1283
天保	-10.1283
沱	-10.1287
有大	-10.1287
總論	-10.1289
之異	-10.1292
瓦	-10.1294
於廟	-10.13
言語	-10.1303
少牢	-10.1307
庭燎	-10.132
沼	-10.1322
恱	-10.1324
韋昭	-10.1324
飾也	-10.1328
之失	-10.1331
之亂	-10.1332
影	-10.1343
無事	-10.1344
一字	-10.1345
使民	-10.1347
相見	-10.1347
歸于	-10.135
者惟	-10.1356
助也	-10.1358
之體	-10.1361
於上	-10.1362
后稷之	-10.1366
箇	-10.1368
之歌	-10.1369
給	-10.1375
祠	-10.1378
耘	-10.1379
類也	-10.139
小大	-10.1392
引此詩	-10.1394
浚	-10.1396
陽縣	-10.1397
佳	-10.1397
蜂	-10.1405
鳧	-10.1409
章四句	-10.1411
賁	-10.1411
無可	-10.1413
緇	-10.1414
之詞也	-10.1418
晨	-10.1419
《	-10.1419
際	-10.142
於其	-10.1425
斾	-10.1425
本於	-10.1427
公羊傳	-10.143
明堂位	-10.1434
逮	-10.1436
佩玉	-10.1438
其能	-10.1441
鱣	-10.1444
字義	-10.1447
訖	-10.145
皆作	-10.1452
祁祁	-10.1453
以此為	-10.1453
無道	-10.1455
鼓鐘	-10.1456
巷伯	-10.1456
亞	-10.1457
于飛	-10.1461
祊	-10.1466
零	-10.1471
三軍	-10.1471
自得	-10.1472
又名	-10.1474
多士	-10.1475
謗	-10.1478
柴	-10.1479
周召	-10.148
澣	-10.148
赤色	-10.148
翕	-10.148
午	-10.1481
幅	-10.1483
雖不	-10.1486
臆	-10.1487
之憂	-10.1487
助之	-10.1488
荆楚	-10.1495
俱作	-10.1498
求賢	-10.1499
枸	-10.1502
不暇	-10.1503
擬	-10.1503
綢繆	-10.1506
劬勞	-10.1508
或有	-10.1508
謂我	-10.1511
為惡	-10.1518
不容	-10.1523
謨	-10.1524
絃	-10.1528
毗	-10.153
虧	-10.1533
邢	-10.1538
僻	-10.154
言之也	-10.1543
葭	-10.1554
冥	-10.1557
婚姻	-10.1559
緫	-10.1561
之詩曰	-10.1561
降福	-10.1563
以前	-10.1567
處也	-10.1569
振振	-10.1571
小而	-10.1579
之為言	-10.1584
德音	-10.1585
婦人之	-10.1588
善道	-10.1597
曠	-10.1604
從而	-10.161
溱洧	-10.1611
羔	-10.1611
縮	-10.1611
詢	-10.1611
撥	-10.1614
過也	-10.162
在彼	-10.1631
左傳云	-10.1632
責之	-10.1634
苓	-10.1637
起興	-10.1637
詛	-10.1637
在今	-10.1638
一語	-10.1638
無復	-10.164
時邁	-10.164
甚明	-10.1642
諸家	-10.1644
陸農師	-10.1646
不畏	-10.1656
得失	-10.1656
鳯	-10.1659
貨	-10.1663
太姒	-10.1665
健	-10.1668
堂下	-10.1669
也孔云	-10.1678
思古	-10.1679
心之	-10.1684
既醉	-10.1684
相承	-10.1686
于王	-10.1688
廼	-10.1691
旬	-10.1693
魯侯	-10.1693
嚮	-10.1694
談	-10.1696
親親	-10.1697
子男	-10.1698
行禮	-10.1703
小弁	-10.1706
䝉	-10.1721
惡之	-10.1724
大田	-10.1725
作者	-10.1732
九章	-10.1733
莫敢	-10.1743
伐鄭	-10.1745
烹	-10.1747
雁	-10.1748
麋	-10.1753
雨雪	-10.1765
居之	-10.1766
蟄	-10.1775
九州	-10.1775
朕	-10.178
用事	-10.1784
蘇曰	-10.1787
為善	-10.1787
成周	-10.1789
三公	-10.1792
中央	-10.1793
所宜	-10.1798
姻	-10.1799
左傳曰	-10.1802
弊	-10.1803
李氏	-10.1805
讎	-10.1808
及時	-10.1808
壁	-10.181
顔色	-10.1814
未得	-10.1818
一節	-10.1822
自我	-10.1823
在外	-10.1823
鎮	-10.1826
于外	-10.1826
汁	-10.1828
絳	-10.1828
而言也	-10.1829
替	-10.1833
朱氏	-10.1845
郊祀	-10.1846
説文作	-10.1846
氣象	-10.1849
罹	-10.1856
狡	-10.1857
伐檀	-10.1857
徐方	-10.186
而終	-10.1862
覽	-10.1863
無一	-10.1864
凌	-10.1865
猶未	-10.1867
非有	-10.1871
也或曰	-10.189
九年	-10.1894
方言	-10.1898
艱	-10.1911
鳬	-10.1912
巫	-10.1913
秣	-10.1913
焚	-10.1914
頒	-10.1915
寝	-10.1915
者乎	-10.1919
稱其	-10.1922
成也	-10.1929
墻	-10.1935
里反	-10.1939
崔	-10.1941
釣	-10.1941
鈴	-10.1942
無衣	-10.1942
敘	-10.1943
滛	-10.1944
軸	-10.1947
王肅云	-10.1952
吉士	-10.1953
郭注	-10.1953
明王	-10.1954
承上	-10.196
太祖	-10.1962
放此	-10.1962
妙	-10.197
明也	-10.1972
萍	-10.1972
吉日	-10.1972
之義也	-10.1974
明徳	-10.1975
出于	-10.1979
程子	-10.198
毖	-10.199
褎	-10.1995
之甚也	-10.1996
湏	-10.1996
愁	-10.1997
又作	-10.1999
和樂	-10.2
剥	-10.2002
如玉	-10.2004
成康	-10.2006
相近	-10.2007
其室家	-10.201
祭服	-10.2013
鱗	-10.2023
微子	-10.203
東萊	-10.2031
如此而	-10.2033
軷	-10.2037
親之	-10.2044
常武	-10.2044
公族	-10.2049
揭	-10.205
亦然	-10.2051
捕	-10.2052
記曰	-10.2052
呂	-10.2058
辨之	-10.2059
駵	-10.2061
行則	-10.2061
荀子	-10.2074
萑	-10.2079
曰此	-10.208
所能	-10.2084
王朝	-10.2086
對曰	-10.2086
也葢	-10.2092
下土	-10.2093
高宗	-10.2098
燕燕	-10.2098
靈公	-10.2099
卽	-10.21
侍	-10.2105
鳶	-10.2105
囘	-10.2107
何時	-10.2107
此二	-10.2109
之君子	-10.2115
十六年	-10.2131
之罪	-10.2132
罰	-10.2134
凉	-10.2138
山有	-10.214
其樂	-10.2143
以時	-10.2154
其詞	-10.2159
反下同	-10.2166
㦸	-10.2169
章五句	-10.217
雝雝	-10.217
不絶	-10.2172
又能	-10.2174
或云	-10.2178
門外	-10.2184
下有	-10.2189
何不	-10.219
壻	-10.2192
容貌	-10.2193
銜	-10.2195
之厚	-10.2196
七十	-10.2197
之妻	-10.2199
東門	-10.2199
是非	-10.2199
慝	-10.2201
行葦	-10.2205
自古	-10.221
螽	-10.2215
饒	-10.2219
濫	-10.2223
沚	-10.2224
蓋以	-10.2225
成而	-10.2226
迂	-10.2227
漬	-10.2227
饁	-10.223
芼	-10.2231
政教	-10.2233
皆不	-10.2236
尊卑	-10.224
曰吾	-10.2242
二物	-10.2242
赤芾	-10.2249
非獨	-10.225
氐	-10.225
訪	-10.2253
三代	-10.2275
三分	-10.2278
揆	-10.2279
詩人之意	-10.2299
釋名云	-10.2304
而已矣	-10.2309
穿	-10.2309
䇿	-10.231
員	-10.2312
章七句	-10.2312
昆夷	-10.2313
纓	-10.2313
珠	-10.2313
以示	-10.2324
三十里	-10.2331
亦謂	-10.2332
天子諸侯	-10.2336
所致	-10.2339
顛	-10.234
凱風	-10.2343
脚	-10.2344
叢	-10.2352
何其	-10.2353
衆妾	-10.2355
既有	-10.2358
郭云	-10.2362
文王之德	-10.2364
蘋	-10.2366
杼	-10.2369
地理志	-10.2371
葛覃	-10.2371
曰我	-10.2372
周書	-10.2386
不失	-10.2392
萬舞	-10.2394
賦也毛傳	-10.2394
也此詩	-10.2398
極其	-10.2402
從容	-10.2403
可用	-10.2407
犬戎	-10.2409
此所以	-10.2411
湯孫	-10.2413
從事	-10.2415
漢廣	-10.2415
未能	-10.2415
皇祖	-10.2418
王師	-10.242
劉氏瑾曰	-10.2424
矣今	-10.2426
袪	-10.2428
靷	-10.243
忒	-10.243
始終	-10.2432
逺也	-10.2433
此詩言	-10.2435
説者	-10.2436
侑	-10.2439
淇水	-10.2446
善惡	-10.2451
之首	-10.2456
㡬	-10.2458
故有	-10.246
俗呼	-10.2461
戴公	-10.2463
可也	-10.2469
者盖	-10.247
不思	-10.2471
一國	-10.2472
四尺	-10.2477
其來	-10.2478
洛邑	-10.2478
琢	-10.2482
倉庚	-10.2491
譚	-10.2492
定本	-10.2496
三章皆	-10.2498
彼其之子	-10.2511
豝	-10.2512
此與	-10.2515
心也	-10.2516
牟	-10.2534
特牲	-10.2537
孌	-10.2538
之節	-10.2539
殿	-10.2541
捄	-10.2541
翦	-10.2543
忠臣	-10.2543
枯	-10.2545
弭	-10.2545
亦未	-10.2546
麕	-10.2547
恪	-10.2547
國名	-10.2549
力反	-10.2549
十篇	-10.2549
而不見	-10.2551
是謂	-10.2552
予之	-10.2563
前章	-10.2569
宗族	-10.2572
洲	-10.2572
膠	-10.2575
収	-10.2576
奔走	-10.2577
二百	-10.2577
激	-10.2577
竹書	-10.2578
二國	-10.2585
楸	-10.2586
棠	-10.2593
六師	-10.2601
糾	-10.2601
覩	-10.2608
八尺	-10.261
總名	-10.2612
由此	-10.2617
明其	-10.2628
融	-10.263
之惡	-10.263
疚	-10.2631
木也	-10.2633
汾	-10.2633
倦	-10.2635
德之	-10.2637
說者	-10.2637
遡	-10.2638
庾	-10.2639
獻公	-10.264
不平	-10.2642
楚辭	-10.2648
外傳	-10.2649
為政	-10.2649
見棄	-10.2653
故以為	-10.2654
世之	-10.2655
臣下	-10.2657
宜其	-10.2659
己之	-10.266
之色	-10.2663
遄	-10.2663
未聞	-10.2665
傲	-10.2666
俯	-10.2668
之性	-10.2675
長大	-10.2681
饋	-10.2683
者所以	-10.2684
大任	-10.2686
鴇	-10.2687
練	-10.2693
秩	-10.2693
滯	-10.2693
則當	-10.2693
有罪	-10.2695
將將	-10.2703
記云	-10.2703
也鄭	-10.2704
人臣	-10.2705
也箋	-10.271
候人	-10.2713
鸛	-10.2717
又音	-10.2724
嬖	-10.2724
擾	-10.2725
爼	-10.2729
者葢	-10.2736
誰謂	-10.274
也古者	-10.2744
芮	-10.2745
受其	-10.2748
乃是	-10.2753
冦	-10.2756
酉	-10.2756
倬	-10.2758
送之	-10.2766
恐其	-10.2768
皆得	-10.2771
軫	-10.2772
爪	-10.2781
暢	-10.2784
殷之	-10.2787
民心	-10.2787
名為	-10.2789
昆	-10.2802
桓王	-10.2802
人道	-10.2813
伍	-10.2814
之候	-10.2814
治也	-10.2814
豐水	-10.2815
文也	-10.282
閲	-10.2821
不失其	-10.2828
於詩	-10.2834
秋冬	-10.2838
而使	-10.2839
涼	-10.284
跋	-10.2842
皆非	-10.2843
取義	-10.2844
纍	-10.2845
稅	-10.2845
彘	-10.2847
禋祀	-10.2849
季女	-10.2855
梁山	-10.2875
豈非	-10.288
入於	-10.2881
𦙍	-10.2885
盛徳	-10.2893
迺	-10.2905
犧	-10.2906
覃	-10.2909
而至於	-10.2915
鄉飲酒	-10.2917
公尸	-10.2918
多福	-10.292
不息	-10.2925
公卿	-10.2928
如彼	-10.2929
子貢傳	-10.2929
思文	-10.2931
大東	-10.2932
如雲	-10.2934
慘	-10.2934
罩	-10.2934
婚	-10.2938
小戎	-10.2938
箱	-10.294
衛人	-10.2942
獻之	-10.2952
則不可	-10.2958
者當	-10.2961
之徒	-10.2963
非特	-10.2964
所及	-10.2964
太原	-10.2965
囊	-10.2968
而且	-10.2968
熙	-10.2968
溫	-10.297
遜	-10.2971
聼	-10.2971
梧桐	-10.2985
之勞	-10.2996
吟	-10.3
囚	-10.3002
之患	-10.3007
黄曰	-10.3008
集于	-10.3009
也蘇氏曰	-10.3011
動也	-10.3019
嘉賔	-10.3021
鄭注	-10.3021
不敬	-10.3023
不成	-10.3026
竦	-10.3029
路寢	-10.3031
輦	-10.3031
有德	-10.3032
豐本	-10.3035
勑	-10.3036
天道	-10.3041
不可得	-10.3043
爲之	-10.305
鄒	-10.3054
以封	-10.3059
篇中	-10.3061
而為之	-10.3064
狗	-10.3069
未至	-10.3077
士之	-10.3078
蒹葭	-10.3079
藏之	-10.3079
注同	-10.3082
三百篇	-10.3086
陳氏	-10.3086
人倫	-10.3087
霍	-10.3095
憐	-10.3096
擊鼓	-10.3096
字從	-10.3097
歸而	-10.3097
而見	-10.3099
天命之	-10.3102
之學	-10.3105
次序	-10.3107
故稱	-10.3112
鄧	-10.3119
本義	-10.312
成文	-10.3122
趾	-10.3122
奕奕	-10.3123
猷	-10.3123
瓚	-10.3126
而實	-10.3127
㓜	-10.3128
六十	-10.3133
息也	-10.3135
不聞	-10.3138
之役	-10.3141
家父	-10.3153
駮	-10.3154
一韻	-10.3156
焉故	-10.3156
禍亂	-10.3156
諧	-10.3157
列國	-10.3158
又何	-10.3158
黜	-10.3158
飯	-10.3159
饌	-10.3162
晨風	-10.3162
刺王	-10.3163
執競	-10.3169
以供	-10.317
入于	-10.3171
之木	-10.3171
新臺	-10.3171
或以為	-10.3177
故次之以	-10.3178
人之所	-10.318
斯干	-10.3183
者此	-10.3185
鱧	-10.3187
五色	-10.3187
葉如	-10.3187
愬	-10.319
飄風	-10.3196
巧言	-10.3198
焉則	-10.3198
音同	-10.3199
芾	-10.3205
明是	-10.3207
萋	-10.3215
者是也	-10.3217
鞞	-10.3219
斤	-10.3221
》、	-10.3223
十五年	-10.3223
非禮	-10.3224
於下	-10.3225
二章章六句	-10.3225
清明	-10.3237
也但	-10.3238
卭	-10.3243
也鄭曰	-10.3244
洵	-10.3248
豵	-10.3249
纒	-10.3249
諼	-10.3251
夸	-10.3252
刃	-10.3253
九罭	-10.3255
今從	-10.3257
曀	-10.3259
絜	-10.3259
文王之化	-10.3264
十二年	-10.3266
兩章	-10.3268
六尺	-10.3272
毛以	-10.3282
猶云	-10.3283
判	-10.3284
獨言	-10.3288
將帥	-10.3288
其類	-10.3293
前篇	-10.3295
言之則	-10.3308
在廟	-10.331
往也	-10.331
青蠅	-10.3311
轅	-10.3311
訏	-10.3314
墳	-10.3314
義同	-10.3315
暗	-10.3316
沒	-10.3317
此說	-10.3319
至是	-10.332
汚	-10.332
其初	-10.332
其家	-10.3321
之謀	-10.3331
猶可	-10.3335
以事	-10.3339
十一年	-10.3341
土田	-10.3341
治其	-10.3342
涖	-10.3346
浪	-10.3346
云爾	-10.3348
臣工	-10.3354
弼	-10.3354
所自	-10.3354
厚也	-10.3355
素絲	-10.3355
暴公	-10.3356
家人	-10.3359
東北	-10.3369
申之	-10.337
敕	-10.338
糧	-10.3384
喜樂	-10.3388
張氏曰	-10.34
奭	-10.3405
之盛也	-10.3406
哀公	-10.3409
以起興	-10.3412
故不	-10.3413
王國	-10.3415
錫之	-10.3416
鴻鴈	-10.3416
樂章	-10.3418
將以	-10.342
西周	-10.342
之來	-10.3422
去其	-10.3429
呼為	-10.3435
東萊曰	-10.3442
值	-10.3443
拊	-10.3445
拂	-10.3446
棄其	-10.345
黄帝	-10.3453
鮮明	-10.3454
也愚按	-10.3456
誥	-10.3468
韠	-10.3468
首尾	-10.3476
黻	-10.3478
三千	-10.3479
十月之交	-10.3479
隋	-10.3479
莫知	-10.3483
之勢	-10.3484
東人	-10.3488
首章言	-10.3491
終風	-10.3496
婦子	-10.3496
良人	-10.3496
之餘	-10.3498
以安	-10.3499
而言之	-10.35
勞之	-10.3506
柯	-10.3507
其終	-10.3508
飭	-10.351
叚	-10.3511
烈烈	-10.3516
說文作	-10.3517
者自	-10.3519
十九	-10.352
既言	-10.3521
分别	-10.3524
河水	-10.3525
僚	-10.3534
棄之	-10.3536
旃	-10.3539
鼻	-10.3541
沐	-10.3542
確	-10.3543
伊尹	-10.3544
良耜	-10.3549
采菽	-10.355
生于	-10.355
不通	-10.3563
列於	-10.3565
耳非	-10.3567
出而	-10.3569
車攻	-10.3571
矦	-10.3572
控	-10.3572
頻	-10.3574
不窋	-10.3579
魯人	-10.3584
三嵗	-10.3584
其形	-10.3589
中宗	-10.359
陸佃云	-10.3592
劉氏	-10.3596
五帝	-10.3596
義也	-10.3596
王事靡盬	-10.36
墉	-10.3604
淪	-10.3604
羹	-10.3606
婁	-10.3606
簫	-10.3607
太廟	-10.3609
而民	-10.3613
祚	-10.3615
彛	-10.3615
所思	-10.3618
已有	-10.3622
而致	-10.3625
燕饗	-10.3629
蘀	-10.3631
雩	-10.3631
女之	-10.3633
子云	-10.3636
眞	-10.3636
其在	-10.3637
乂	-10.3637
申后	-10.3638
𫝊正義曰	-10.3638
》《	-10.3644
娣	-10.3645
在野	-10.3645
朔方	-10.3646
泮水	-10.3649
施於	-10.3651
國中	-10.3654
荘	-10.3655
皇皇	-10.3655
志云	-10.366
其常	-10.3663
正義曰毛以為	-10.3666
漏	-10.367
有聲	-10.3671
祜	-10.3673
鋭	-10.3674
堇	-10.3674
此乃	-10.3675
廹	-10.3675
情性	-10.3676
渙	-10.3677
可通	-10.368
以歸	-10.3681
其惡	-10.3685
同時	-10.3689
刺時也	-10.369
世家	-10.3695
去也	-10.3698
羆	-10.3702
之飾	-10.3704
燕射	-10.3704
藴	-10.3707
賛	-10.3709
薺	-10.3719
刺厲王	-10.3723
莫之	-10.3724
而求	-10.3728
祉	-10.373
韓詩云	-10.3731
然矣	-10.3731
二公	-10.3732
衆人	-10.3733
先人	-10.3733
詩所謂	-10.3734
之大者	-10.3735
視朝	-10.3743
春官	-10.3748
字从	-10.3749
者多	-10.375
用此	-10.3752
而上	-10.3755
六軍	-10.3756
樂易	-10.3762
簟	-10.3766
之方	-10.3768
華谷嚴氏曰	-10.3776
付	-10.3776
實維	-10.3779
見于	-10.3782
嚴氏	-10.3782
雍州	-10.3784
父之	-10.3795
冢	-10.3801
喈喈	-10.3805
緌	-10.3807
如一	-10.3808
還歸	-10.3808
佚	-10.3808
乞	-10.3808
於乎	-10.3814
推本	-10.3826
非徒	-10.3831
賤者	-10.3835
總聞曰	-10.3839
杜預	-10.384
河北	-10.384
膴	-10.3843
状	-10.3844
斑	-10.3844
地也	-10.3845
伐柯	-10.3846
者矣	-10.3847
大事	-10.3848
雎鳩	-10.3856
淑女	-10.3857
無斁	-10.3862
株林	-10.3864
讒言	-10.387
悅	-10.3871
厓	-10.3872
方伯	-10.3872
聖賢	-10.3872
此云	-10.3884
甥	-10.3896
筮	-10.3898
轍	-10.39
水出	-10.3901
變雅	-10.3902
男女之	-10.3903
絲衣	-10.3903
蹻蹻	-10.3908
輸	-10.3911
序説	-10.3912
割	-10.3913
於是乎	-10.3924
云凡	-10.3927
在其中	-10.3932
柱	-10.394
王政	-10.3941
杖	-10.3941
所止	-10.3943
作此	-10.3943
汎	-10.3943
洒	-10.3943
疊	-10.3947
賓客	-10.3949
上公	-10.3956
所由	-10.3957
得賢	-10.396
引此	-10.3963
九族	-10.3965
射之	-10.3969
乳	-10.3969
洧	-10.3973
以養	-10.3973
令聞	-10.3974
捋	-10.3975
彫	-10.3975
熏	-10.3976
韓奕	-10.3982
之北	-10.3982
自此	-10.3989
之位	-10.399
序以為	-10.3991
于京	-10.3995
往往	-10.3998
韻亦叶	-10.3999
范氏處義曰	-10.4004
猗嗟	-10.4005
怛	-10.4005
昏禮	-10.4005
握	-10.4009
相土	-10.4011
盗	-10.4011
列女傳	-10.4015
之誤	-10.4016
廣雅	-10.4025
風雅	-10.4031
蕨	-10.4037
下泉	-10.404
津	-10.4044
希	-10.4044
磨	-10.4045
十句	-10.4046
隂雨	-10.4052
三篇	-10.4056
亦孔之	-10.4057
陟彼	-10.4062
重言	-10.4067
則能	-10.4067
構	-10.407
不均	-10.4076
搏	-10.4081
頼	-10.4081
妖	-10.4081
施于	-10.4081
卯	-10.4082
召虎	-10.4088
變而	-10.4101
所出	-10.4105
幽王之	-10.4109
卉	-10.411
翅	-10.4113
闊	-10.4114
其行	-10.4115
田畯	-10.4115
矯	-10.4116
河上	-10.4119
卷阿	-10.4119
恭敬	-10.4122
鄭康成	-10.4136
征役	-10.4138
寇	-10.4146
何反	-10.4147
蹈	-10.4148
輒	-10.4148
脊	-10.4149
填	-10.415
便是	-10.415
何必	-10.4153
裒	-10.4154
而往	-10.4155
共伯	-10.4156
饔	-10.416
巡守	-10.4162
無他	-10.4166
周語	-10.4174
亦謂之	-10.418
百官	-10.4181
南有嘉魚	-10.4181
鄭箋云	-10.4182
齊桓	-10.4182
嚳	-10.4183
語意	-10.4192
逺而	-10.4194
章十二句	-10.4195
欲以	-10.4195
其憂	-10.4197
孟春	-10.4202
石經	-10.4205
誤也	-10.4209
騶	-10.4213
返	-10.4216
舂	-10.4218
大夫妻	-10.422
褐	-10.4221
濶	-10.4225
俶	-10.4227
苦菜	-10.4228
城在	-10.4228
之舊	-10.4229
脯	-10.4233
蔚	-10.4241
若曰	-10.4241
哀我	-10.4247
四篇	-10.4248
珍	-10.4248
是故	-10.4251
琫	-10.4254
鄉射	-10.4256
未盡	-10.4264
載馳	-10.4266
封於	-10.4269
一朝	-10.4279
而止	-10.4281
其舊	-10.4283
態	-10.4286
無怨	-10.4288
數也	-10.4289
阜螽	-10.429
自傷	-10.4291
豪	-10.4291
嘉賓	-10.4293
附庸	-10.4294
局	-10.4295
藿	-10.4296
爵弁	-10.4305
詩人之	-10.4307
水經注	-10.4308
此類	-10.4311
四章言	-10.4316
扶風	-10.4316
即所謂	-10.4317
叶居	-10.432
齊侯之子	-10.4323
小旻	-10.4324
憲	-10.4325
藪	-10.4325
大功	-10.4325
吞	-10.4326
水鳥	-10.4328
唐棣	-10.4329
㨗	-10.433
在朝	-10.434
御者	-10.4342
惟恐	-10.4344
扈	-10.4349
享之	-10.4353
得見	-10.4354
也故曰	-10.4355
日食	-10.4355
安定	-10.4357
館	-10.4361
孺	-10.4361
也爾雅	-10.4361
職云	-10.4364
籩	-10.4367
虡	-10.4368
不知何	-10.4375
人主	-10.4382
君子有酒	-10.4389
七子	-10.439
狀如	-10.4393
故名	-10.4393
鳥也	-10.4395
莞	-10.4396
踈	-10.4399
跂	-10.44
也君子	-10.4402
於文王	-10.4417
也惟	-10.4417
新昏	-10.4419
然有	-10.4419
經傳	-10.4424
之心也	-10.4424
遍	-10.4431
祈父	-10.4432
風也	-10.4434
酷	-10.4434
吕氏	-10.4437
優游	-10.444
公羊	-10.4445
理之	-10.4452
十八	-10.4452
二篇	-10.4454
男女相	-10.4455
願其	-10.4455
福祿	-10.4458
栩	-10.446
兔罝	-10.4462
也毛曰	-10.4465
芬	-10.4471
小星	-10.4473
饎	-10.4473
絺	-10.4473
者由	-10.4474
襃姒	-10.4475
明言	-10.4475
菲	-10.4477
圜	-10.4478
六轡	-10.4479
則此	-10.4484
也詩曰	-10.4491
説詩	-10.4494
諸篇	-10.4496
公孫	-10.4498
之形	-10.4499
芒	-10.45
不幸	-10.4501
緜緜	-10.4501
作人	-10.4503
麟趾	-10.4503
粒	-10.4504
㝠	-10.4505
上章言	-10.4508
聚也	-10.4511
脊令	-10.4514
筍	-10.4517
相對	-10.452
恐懼	-10.4522
景山	-10.4529
行列	-10.453
集傳興也	-10.453
刺其	-10.4533
二三	-10.4535
穡	-10.4535
挹	-10.4537
攜	-10.4537
不特	-10.4537
觥	-10.4539
紛	-10.4539
迄	-10.454
洋洋	-10.454
言采其	-10.4541
栲	-10.4541
掘	-10.4542
它	-10.4543
祇	-10.4545
亡國	-10.4551
殳	-10.4572
秦仲	-10.4575
以至	-10.4575
也周禮	-10.4587
國史	-10.4594
序者	-10.4605
而巳	-10.4608
雄雉	-10.4609
霸	-10.461
坤	-10.461
冒	-10.4612
聞音曰	-10.4613
周南召南	-10.4613
宜臼	-10.4614
襍	-10.4614
鵙	-10.4616
穿鑿	-10.4618
其位	-10.462
八年	-10.4633
之基	-10.4634
八十	-10.4636
四寸	-10.4636
經云	-10.4637
人君之	-10.4638
賢妃	-10.4642
也彼	-10.4646
蒐	-10.4646
貶	-10.4647
儆	-10.4648
不順	-10.4649
置之	-10.465
亥	-10.465
姦	-10.4651
使其	-10.4652
歸寧	-10.4653
嬰	-10.4654
清人	-10.4654
旄丘	-10.4654
郊特牲	-10.466
惡也	-10.4663
引之	-10.4665
刺幽王	-10.4666
定其	-10.4668
麌	-10.4674
沉	-10.4679
訴	-10.4679
鱨	-10.468
當有	-10.4681
傚	-10.4681
遹	-10.4683
六句	-10.4685
蠅	-10.4685
麃	-10.4687
据	-10.469
泳	-10.469
潤澤	-10.469
文徳	-10.4696
蒿也	-10.4699
載芟	-10.4701
者即	-10.4702
十二月	-10.4704
不恤	-10.4705
隘	-10.4721
禰	-10.4722
盜	-10.4724
鬛	-10.4724
得其所	-10.4725
贅	-10.4727
補音	-10.473
北風	-10.4737
夏正	-10.4741
詁	-10.4742
忘其	-10.4744
之事而	-10.4745
師氏	-10.4748
犉	-10.4749
者名	-10.4749
令人	-10.4752
其生	-10.4753
者正	-10.4756
眉壽	-10.4758
黒色	-10.4759
以風	-10.4759
錢氏曰	-10.476
何人斯	-10.4762
㸔	-10.4763
之精	-10.4763
終也	-10.4776
之由	-10.4777
皇矣	-10.4782
其子孫	-10.4783
周行	-10.4784
而可	-10.4785
軾	-10.4793
所得	-10.4795
稂	-10.4796
殷武	-10.4799
徳也	-10.4809
失時	-10.4812
尚有	-10.4813
也案	-10.4814
名曰	-10.4815
昔者	-10.4815
備也	-10.4818
明年	-10.4819
之所為	-10.4823
門内	-10.4823
有節	-10.4823
皮為	-10.4824
義理	-10.4824
蝃蝀	-10.4832
在前	-10.4833
凢	-10.4835
壬	-10.4836
抽	-10.4837
蟊賊	-10.4837
逼	-10.4838
鄭氏謂	-10.484
莫如	-10.4842
徐州	-10.4843
正是	-10.4846
作于	-10.4856
涵	-10.4867
故作是詩也	-10.4867
濵	-10.4871
佑	-10.4874
青青	-10.4875
崧髙	-10.4877
為樂	-10.4882
湯湯	-10.4887
鄭以為	-10.4889
鼉	-10.4898
柞棫	-10.4901
其命	-10.4901
匪風	-10.4901
釡	-10.4902
忿	-10.4903
以備	-10.4903
鹽	-10.4903
大序	-10.4905
翬	-10.4907
托	-10.4908
漚	-10.4911
後漢	-10.4914
甚多	-10.492
不可以不	-10.4925
以及	-10.4931
念之	-10.4932
管叔	-10.4935
策	-10.494
溉	-10.4942
庇	-10.4945
申公	-10.4947
長而	-10.4948
寅	-10.4949
凡伯	-10.4952
其政	-10.4953
不取	-10.4961
室家之	-10.4969
主於	-10.497
傳以	-10.4974
稱之	-10.4976
縞	-10.4977
急也	-10.4978
小宛	-10.4978
文王受命	-10.4981
泲	-10.4981
聞其	-10.4983
迭	-10.4983
要之	-10.4983
亹	-10.4983
仁人	-10.4984
伸	-10.4985
誇	-10.4985
之事故	-10.4988
車服	-10.499
思歸	-10.4997
堂上	-10.4999
四夷	-10.5002
下篇	-10.5003
不可得而	-10.5006
士卒	-10.5015
後儒	-10.5016
鴇羽	-10.5017
褰裳	-10.5018
屑	-10.5019
詩有	-10.502
書傳	-10.5021
罷	-10.5021
潔白	-10.5022
集注	-10.5028
矣夫	-10.5031
劉氏曰	-10.5032
間有	-10.5036
未見君子	-10.5038
自言	-10.5048
然亦	-10.5056
令徳	-10.5059
噫嘻	-10.506
而告之	-10.5062
躋	-10.5064
之類是也	-10.5068
何如	-10.507
張子曰	-10.5074
其勞	-10.5078
仁義	-10.508
未成	-10.5085
謀之	-10.5088
荑	-10.5092
之誠	-10.5094
萋萋	-10.5096
羡	-10.5097
今以	-10.51
歐	-10.51
不親	-10.5104
我將	-10.5106
也朱曰	-10.511
邢疏	-10.5118
白茅	-10.5127
食我	-10.5127
木𤓰	-10.5127
税	-10.5131
一方	-10.5137
鵰	-10.5138
王風	-10.514
廩	-10.514
由是	-10.5147
以禦	-10.5147
維何	-10.5156
久也	-10.5162
今考	-10.5165
功也	-10.5167
芟	-10.5168
毛氏萇曰	-10.517
不正	-10.5173
乏	-10.5175
髙大	-10.5176
以下皆	-10.5178
眉夀	-10.5178
墮	-10.518
童子	-10.5183
帝嚳	-10.5183
上之人	-10.5186
日之	-10.519
日出	-10.5194
椅	-10.5195
流離	-10.5195
二十五	-10.52
行人	-10.5201
三監	-10.5202
用賢	-10.5206
其罪	-10.5209
泄泄	-10.5209
患難	-10.5211
韔	-10.5213
馳驅	-10.5213
及爾	-10.5215
維清	-10.5216
人民	-10.5216
為異	-10.5219
忠信	-10.5221
五反	-10.5223
陳其	-10.5233
故詩	-10.5235
輈	-10.5239
諸侯也	-10.5242
䖍	-10.5242
鶬	-10.5244
彩	-10.5246
晉人	-10.5247
荇菜	-10.5247
之所由	-10.5249
䕶	-10.5251
彰	-10.5251
爛	-10.5252
月出	-10.5254
為人	-10.5257
箭	-10.5259
佞	-10.526
人掌	-10.5265
桃夭	-10.5268
言無	-10.5269
安樂	-10.527
也傳正義曰	-10.5271
鵜	-10.5284
葍	-10.5288
垢	-10.529
鞫	-10.529
㑹同	-10.5297
莎	-10.5306
能盡	-10.5311
詩說	-10.5315
于野	-10.5318
大夫士	-10.532
種之	-10.5322
言外	-10.5322
其妻	-10.5322
之俗	-10.5327
相戒	-10.5327
成就	-10.5328
廉	-10.5328
簡兮	-10.5331
遁	-10.5335
郷	-10.5335
遲遲	-10.5336
合樂	-10.534
為長	-10.5343
遐不	-10.5344
泰山	-10.5348
應門	-10.535
此人	-10.5353
滅之	-10.5356
姜氏	-10.5356
相合	-10.5358
未有不	-10.536
所陳	-10.5365
盡也	-10.5368
干旄	-10.5371
兩驂	-10.5375
訛言	-10.5376
復有	-10.5377
饗之	-10.5377
鬻	-10.5377
莫肯	-10.5381
如今	-10.5385
羣小	-10.5393
淫風	-10.5394
信之	-10.5399
憯	-10.5402
棫樸	-10.5403
士大夫	-10.5403
閨門	-10.5405
纉	-10.5408
孕	-10.5409
顛倒	-10.5409
蓼蕭	-10.5413
大夫刺幽王也	-10.5414
証	-10.5414
其事也	-10.5416
賢女	-10.5421
豈無	-10.5421
不堪	-10.5423
族人	-10.5425
來歸	-10.5426
尊之	-10.5431
廷	-10.5432
不義	-10.5433
蓍	-10.5434
王城	-10.5437
話	-10.5439
宜為	-10.5443
左𫝊	-10.5444
大率	-10.5446
柘	-10.5446
促	-10.5448
漁	-10.545
勾	-10.545
諸詩	-10.5452
厭厭	-10.5454
之久	-10.5455
秠	-10.5456
合而	-10.5457
自相	-10.546
魯公	-10.5467
牧人	-10.5469
水草	-10.5471
鉦	-10.5472
十畝	-10.5474
行露	-10.5475
也此言	-10.5477
以樂	-10.5478
自立	-10.548
狄人	-10.5481
綦	-10.5483
嘽嘽	-10.5483
盤庚	-10.5483
芄蘭	-10.5486
顔師古	-10.5488
捨	-10.549
亦同	-10.549
無異	-10.5491
馘	-10.5491
聲音	-10.5494
祖廟	-10.5495
家語	-10.5506
振鷺	-10.5508
之東	-10.5512
君子指	-10.5516
陂	-10.5524
旱麓	-10.5524
孑	-10.5524
竹竿	-10.5525
㸃	-10.5526
譌	-10.5526
定也	-10.5526
㬥	-10.5527
蓺	-10.5527
也詩人	-10.5529
熠燿	-10.5531
昴	-10.5532
之㫖	-10.5537
世世	-10.5538
詩記	-10.5539
爽	-10.554
豈能	-10.5546
古之人	-10.5555
鄶	-10.5559
不克	-10.556
未嘗不	-10.5566
十三年	-10.5568
尹吉甫	-10.557
寢廟	-10.5573
釋文云	-10.5575
蚤	-10.5576
發發	-10.5581
之田	-10.5584
天官	-10.5585
安能	-10.5585
鳴鳩	-10.559
飄	-10.5594
與其	-10.5595
犀	-10.5598
膳	-10.56
後漢書	-10.5601
受天	-10.5603
吴	-10.5607
聰	-10.5608
綿	-10.5611
噐	-10.5611
丸	-10.5611
匕	-10.5612
耄	-10.5613
諸矦	-10.5615
水名	-10.5619
能使	-10.562
唐風	-10.5621
觀之則	-10.5624
而入	-10.5626
色之	-10.5627
角弓	-10.5628
魯之	-10.5628
同心	-10.5628
合於	-10.5631
驂馬	-10.5633
缶	-10.5638
在内	-10.564
偕老	-10.5645
睠	-10.5646
額	-10.5647
可信	-10.5648
快	-10.5648
番	-10.5649
用力	-10.565
荀	-10.5653
五采	-10.5655
者如此	-10.5656
直言	-10.5668
明星	-10.567
疆理	-10.5676
所引	-10.5677
挈	-10.568
故作此詩	-10.5681
潜	-10.5684
三詩	-10.5685
不知所	-10.5685
讐	-10.5687
緡	-10.5687
禡	-10.569
素冠	-10.569
觶	-10.5692
也二章	-10.5698
離散	-10.5698
無子	-10.5708
而天下	-10.5708
鬼方	-10.5708
乗馬	-10.5714
嚴云	-10.5715
堅固	-10.5718
以象	-10.5718
潘	-10.5723
平易	-10.5725
夏小正	-10.5726
王使	-10.5727
宥	-10.5728
小明	-10.5729
牀	-10.5731
嗜	-10.5732
黽勉	-10.5732
雕	-10.5732
訩	-10.5732
肆夏	-10.5736
淮南	-10.5739
可疑	-10.5741
草名	-10.5742
獨行	-10.5744
保介	-10.5748
有力	-10.575
字林	-10.5753
之教	-10.5755
思無邪	-10.5756
同意	-10.5763
燥	-10.5765
於齊	-10.5766
狎	-10.5766
老成	-10.5767
檢	-10.5767
明白	-10.5768
卧	-10.5769
古文	-10.5772
蔓生	-10.5774
羌	-10.5775
春秋書	-10.5779
齊桓公	-10.5784
知此	-10.5793
學詩	-10.5794
而遂	-10.5799
服飾	-10.5801
彤管	-10.5802
無人	-10.5803
之效	-10.5804
李巡	-10.5804
薍	-10.5805
絡	-10.5806
骨肉	-10.5809
耽	-10.5809
蹄	-10.581
急難	-10.5811
緝熙	-10.5814
熈	-10.5817
也又曰	-10.5819
存之	-10.5819
事君	-10.5825
章三句	-10.5826
黎侯	-10.5829
於義	-10.5829
此其所以	-10.5829
都邑	-10.583
之恩	-10.5833
鳳凰	-10.5836
佼	-10.5841
愚按此	-10.5842
其事而	-10.5847
餐	-10.5847
鄭𤣥	-10.5848
該	-10.5848
纁	-10.5849
頌禱	-10.5855
帨	-10.5855
陽氣	-10.5856
遑	-10.5856
書云	-10.5862
叔于田	-10.5863
長發	-10.5869
意思	-10.5872
之國也	-10.5881
葛生	-10.5882
灰	-10.5882
不寧	-10.5883
我乎	-10.5887
禋	-10.5888
上篇	-10.5888
臻	-10.5889
死亡	-10.589
雌雄	-10.5891
在西	-10.5891
諏	-10.5896
渥	-10.5896
凝	-10.5897
松柏	-10.5898
爨	-10.5901
既已	-10.5902
告於	-10.5904
既見	-10.5912
嗣王	-10.5913
夫家	-10.5917
鷮	-10.592
邑也	-10.5922
俾爾	-10.5925
無非	-10.5926
鞉	-10.5926
貴者	-10.5928
抗	-10.593
湖	-10.593
應之	-10.5931
暫	-10.5932
搖	-10.5932
粗	-10.5932
脅	-10.5933
電	-10.5934
浩	-10.5936
之遺	-10.5937
而無所	-10.594
葅	-10.5941
齊詩	-10.5946
篇云	-10.5949
修徳	-10.5953
乘馬	-10.5954
皆無	-10.5955
反注同	-10.5956
周王	-10.596
信南山	-10.5964
十有二	-10.5965
暵	-10.5966
南山有臺	-10.5973
賢才	-10.5974
掲	-10.5974
正與	-10.5975
晞	-10.5977
此之謂	-10.5978
在公	-10.5978
豚	-10.598
南陔	-10.5981
煑	-10.5983
鶖	-10.5984
進也	-10.5995
程曰	-10.5998
而用之	-10.5998
蘇公	-10.5999
耳若	-10.6007
綬	-10.6008
矩	-10.6015
綱紀	-10.6017
庶士	-10.6018
孫毓	-10.6018
瑩	-10.6019
雨無正	-10.6019
愠	-10.6019
逍遥	-10.6019
然如	-10.602
美宣王	-10.6021
𩔖	-10.6021
徐鍇云	-10.6022
橋	-10.6022
鉞	-10.6023
以報	-10.6033
又按	-10.6041
荘公	-10.6041
所指	-10.6043
其祖	-10.6056
汎汎	-10.6056
翺翔	-10.6056
度其	-10.6056
祭畢	-10.6058
芘	-10.6059
穎	-10.606
壇	-10.6061
文侯	-10.6067
洫	-10.6068
而相	-10.6069
君子偕老	-10.6072
特以	-10.6072
終身	-10.6075
玉藻	-10.6077
樂歌	-10.6081
祭而	-10.6082
爾雅釋	-10.6089
作詩者	-10.609
二尺	-10.6093
悌	-10.6093
之别名	-10.6097
北門	-10.6097
李氏樗曰	-10.6097
本無	-10.6098
纘	-10.6098
徽	-10.6099
伎	-10.6099
脆	-10.6102
埤雅云	-10.6103
下言	-10.6106
釀	-10.6107
庖	-10.6108
有光	-10.6116
亦可以	-10.612
執事	-10.6123
宗室	-10.6127
興師	-10.6128
其儀	-10.6132
豐氏本	-10.6136
首句	-10.6138
碩鼠	-10.6138
芃芃	-10.6139
山海經	-10.614
賂	-10.6143
赴	-10.6143
芸	-10.6144
漢儒	-10.6145
召旻	-10.6145
裕	-10.6145
黄耉	-10.6147
肺	-10.6147
至今	-10.6148
蓴	-10.615
當如	-10.6153
者豈	-10.6154
抑抑	-10.6155
聲聞	-10.616
請命	-10.616
涇水	-10.6161
無期	-10.6163
説文曰	-10.6168
於天子	-10.6174
孫炎	-10.6177
當依	-10.6178
頽	-10.6182
澤中	-10.6189
核	-10.6189
鋈	-10.6191
祐	-10.6191
一體	-10.6202
宗子	-10.6221
别有	-10.6221
孝孫	-10.6225
途	-10.6227
定之方中	-10.6227
沸	-10.6232
夏后氏	-10.6233
不惟	-10.6238
車前	-10.6241
老者	-10.6251
五日	-10.6252
以定	-10.6253
居處	-10.6258
成人	-10.6261
其勢	-10.6266
閟	-10.627
頂	-10.6273
竄	-10.6273
樂官	-10.6277
埽	-10.6277
民勞	-10.6279
皆指	-10.628
荆州	-10.628
季冬	-10.6292
今王	-10.6292
白駒	-10.6294
烈文	-10.6296
木名	-10.6297
貍	-10.6298
萬世	-10.6299
菜也	-10.6302
嗇	-10.6303
國事	-10.6306
有駜	-10.6308
姞	-10.6309
語助	-10.6309
坎	-10.6311
樞	-10.6313
栘	-10.6316
鼛	-10.6316
溪	-10.6318
春夏	-10.6319
湛露	-10.6319
一説	-10.6326
郭註	-10.6333
當然	-10.6335
河東	-10.6341
與我	-10.6344
有客	-10.6345
從王	-10.6346
墓	-10.6351
釋之	-10.6352
溱	-10.6352
不求	-10.6358
縶	-10.6362
煮	-10.6364
其兄	-10.6365
妥	-10.6368
委曲	-10.637
貴賤	-10.6373
皆用	-10.6374
水上	-10.6378
十四年	-10.6383
之勤	-10.6384
君子萬年	-10.639
久而	-10.6391
豈敢	-10.6391
鄭風	-10.6393
縢	-10.6393
子貢	-10.6394
做	-10.6396
胄	-10.6402
未定	-10.6402
一身	-10.6404
戮	-10.6405
央	-10.6406
我思	-10.6408
嚴華谷	-10.641
闇	-10.6413
班固	-10.6413
韭	-10.6415
嘉魚	-10.6416
乃以	-10.6417
軍旅	-10.642
至誠	-10.6426
追述	-10.6426
許慎	-10.6427
好賢	-10.6437
於諸侯	-10.6437
天意	-10.6445
鶻	-10.6446
葬	-10.6447
擅	-10.6447
次之	-10.6448
勲	-10.6448
終日	-10.6449
燒	-10.6449
師旅	-10.6452
保其	-10.6457
建國	-10.6458
亦如之	-10.6458
烝嘗	-10.6479
治兵	-10.6485
苹	-10.6485
鄭氏以	-10.6486
寶	-10.6487
騰	-10.6491
无	-10.6491
潁	-10.6492
之樂也	-10.6494
昊	-10.6496
表裏	-10.6496
辜	-10.6497
為美	-10.65
朗	-10.65
醉而	-10.6507
衿	-10.6509
親戚	-10.6509
並同	-10.6511
尊者	-10.6513
度也	-10.6513
下句	-10.6513
而行之	-10.6515
化行	-10.6522
首言	-10.6526
摽	-10.6527
賀	-10.6527
楫	-10.6532
韓詩外傳	-10.6532
自警	-10.6534
鞏	-10.6535
紞	-10.6536
戴媯	-10.6537
良反	-10.6539
馭	-10.6543
後章	-10.6545
微弱	-10.6549
之器	-10.6549
不改	-10.6552
宫中	-10.6554
髙山	-10.6555
一章言	-10.6563
百年	-10.6568
此非	-10.6568
無厭	-10.6571
士女	-10.6571
寤寐	-10.6572
江南	-10.6572
菁菁者莪	-10.6573
而作此詩	-10.6575
王心	-10.6576
譴	-10.6576
妣	-10.6577
其他	-10.6581
豈得	-10.6582
憤	-10.6582
亦為	-10.6582
豐鎬	-10.6586
女蘿	-10.6588
如此故	-10.6591
兩句	-10.6603
何氏	-10.6606
三后	-10.6609
危亡	-10.6609
孝經	-10.6611
百神	-10.6617
丰	-10.662
惄	-10.6621
莫非	-10.6621
鏤	-10.6622
制禮	-10.6623
辯說	-10.6623
詐	-10.6625
教民	-10.6627
𫝊曰	-10.663
竊意	-10.6631
之詩言	-10.6644
之閒	-10.665
故君子	-10.665
耳然	-10.6654
武夫	-10.6654
圻	-10.6659
丑	-10.6666
楹	-10.6669
碩䑕	-10.667
異義	-10.6677
司空	-10.6678
山在	-10.668
說文曰	-10.6681
緑衣	-10.6682
宣王時	-10.6697
留之	-10.6698
愛其	-10.6698
金路	-10.6699
畬	-10.6712
孔甚	-10.6712
樓	-10.6713
穹	-10.6713
㳺	-10.6713
秬鬯	-10.6714
畨	-10.6717
而作是詩也	-10.6717
發明	-10.6718
肝	-10.6723
也鄭云	-10.6724
叶韻	-10.6726
服馬	-10.6728
明德	-10.6728
不服	-10.6734
升歌	-10.6737
與子同	-10.6742
奈何	-10.6742
篤厚	-10.6743
自以為	-10.6748
下濕	-10.675
相從	-10.6751
薨	-10.6751
寡人	-10.6753
汜	-10.6753
救之	-10.6757
貞女	-10.676
金縢	-10.6765
皇天	-10.6767
尚可	-10.6773
田事	-10.6777
有娀	-10.6782
鄭人	-10.6783
傷之	-10.6791
云云	-10.6798
枲	-10.6799
楨	-10.6802
鞗革	-10.6804
豳雅	-10.6804
稚	-10.6805
大司馬	-10.6806
彊禦	-10.6806
附㑹	-10.6807
故特	-10.6811
徳行	-10.6818
將亡	-10.6821
詩義	-10.6826
不祥	-10.6828
甞	-10.6829
言武王	-10.6831
婦道	-10.6833
此心	-10.6841
嘯	-10.6846
噦噦	-10.6848
風雅頌	-10.6849
靣	-10.6849
可考	-10.6849
嗚呼	-10.685
鈎	-10.685
祭統	-10.6852
皆從	-10.6852
措	-10.6853
瓠葉	-10.6859
何能	-10.6863
為義	-10.6869
湎	-10.6885
株	-10.6889
禽經	-10.6889
酤	-10.6893
生契	-10.6894
算	-10.6895
庶㡬	-10.6899
姒	-10.69
褘	-10.6901
噫	-10.6902
貽我	-10.6906
無知	-10.692
在梁	-10.6921
靡所	-10.6921
二之日	-10.6923
百畝	-10.6927
叶蒲	-10.6933
區	-10.6934
無敢	-10.6935
玄	-10.6935
遯	-10.6938
杜預云	-10.6939
翁	-10.6939
輝	-10.694
受天命	-10.694
飱	-10.6941
螟	-10.6944
實有	-10.6945
教化	-10.695
民事	-10.6952
昆吾	-10.6953
相棄	-10.6955
唁	-10.6955
古公	-10.6956
甚於	-10.696
昭假	-10.6961
古義	-10.6962
衡門	-10.6962
得罪	-10.6977
詹	-10.6979
田野	-10.6979
十一	-10.6979
椒聊	-10.6981
摘	-10.6985
祁	-10.6986
𨽻	-10.6987
冬至	-10.6987
逰	-10.6988
淇奥	-10.6988
長短	-10.6989
未敢	-10.6991
不類	-10.6996
譬如	-10.7
曹氏	-10.7003
我心則	-10.7006
河廣	-10.701
節南山	-10.7017
㫖酒	-10.7022
廣雅云	-10.7022
睆	-10.7024
感動	-10.7027
黃鳥	-10.7029
耀	-10.7029
緣	-10.7031
絺綌	-10.7032
民人	-10.7035
畎	-10.704
夏官	-10.704
螫	-10.7042
相去	-10.7044
天作	-10.7044
牽牛	-10.7046
精神	-10.7049
地官	-10.7053
無定	-10.7057
大禘	-10.7058
靜女	-10.7059
注謂	-10.706
舝	-10.7063
以刺之	-10.7063
此之謂也	-10.7068
荇	-10.7069
嬪	-10.7072
所以致	-10.7072
既得	-10.7078
鞅	-10.7079
閭	-10.7082
閔予小子	-10.7083
兕觥	-10.7084
化為	-10.7093
其福	-10.7096
何也曰	-10.7106
無害	-10.7108
本或作	-10.7113
日月之	-10.7113
人有	-10.7113
不臧	-10.7115
騷	-10.7121
其體	-10.7122
纔	-10.7123
我行其野	-10.7123
黙	-10.7123
興也毛傳	-10.7124
餼	-10.7126
故得	-10.7126
草木之	-10.7127
孔叢子	-10.7128
扁	-10.7129
澮	-10.713
竈	-10.7131
敬止	-10.7133
錫命	-10.7134
鳧鷖	-10.7135
弟子	-10.7135
㑹諸侯	-10.7136
出自	-10.7137
筥	-10.7138
可以見	-10.7141
怨曠	-10.7143
所行	-10.7143
而不及	-10.7147
然後可以	-10.7148
人事	-10.7153
西都	-10.7153
鄭𤣥云	-10.7158
泄	-10.7167
綽	-10.7169
杻	-10.7171
綸	-10.7171
鬷	-10.7172
涯	-10.7172
腐	-10.7173
思齊	-10.7173
蟊	-10.7174
蕪	-10.7175
届	-10.7175
諒	-10.7176
八鸞	-10.7176
三日	-10.7176
業業	-10.7188
于彼	-10.7197
百夫	-10.7198
無間	-10.72
竊脂	-10.7202
冕服	-10.7208
人之情	-10.7209
堵	-10.721
賢臣	-10.7211
篪	-10.7212
俴	-10.7215
躁	-10.7215
着	-10.7216
蔑	-10.7216
焦	-10.7216
郿	-10.7217
障	-10.7218
鄭司農	-10.7218
繒	-10.722
亦必	-10.7226
姜姓	-10.7227
旅酬	-10.723
未及	-10.724
辟公	-10.7245
蠻荆	-10.7248
不與我	-10.7254
大義	-10.7254
詩文	-10.7255
山東	-10.7256
良馬	-10.7259
故舊	-10.726
枕	-10.7263
姊	-10.7263
低	-10.7264
號令	-10.7266
窶	-10.7267
噬	-10.7267
厄	-10.7268
清酒	-10.7269
在後	-10.7269
考槃	-10.7275
釋木	-10.7276
錡	-10.7279
其氣	-10.728
之所在	-10.7287
世本	-10.7288
展衣	-10.7288
!《	-10.7288
樹之	-10.7293
之計	-10.7296
申培説	-10.73
無文	-10.7301
長安	-10.7301
漣	-10.7301
遷岐	-10.7302
之子于歸	-10.7306
頓	-10.7307
壅	-10.7312
出征	-10.7313
厖	-10.7314
蘖	-10.7314
之時則	-10.7315
以介景福	-10.7316
祛	-10.7316
鼓瑟	-10.7317
啄	-10.7319
學校	-10.732
仲夏	-10.7324
維此	-10.7328
説見	-10.7331
如齊	-10.7338
斯民	-10.7338
都人士	-10.7343
無度	-10.7346
肅雝	-10.7346
制度	-10.7353
施之	-10.7354
霰	-10.7355
念其	-10.7357
莒	-10.736
幡幡	-10.7362
淳	-10.7365
蘓	-10.7365
仁厚	-10.7368
曰昔	-10.737
善言	-10.7372
二雅	-10.7382
夜飲	-10.7391
采采	-10.7393
諸國	-10.7397
山林	-10.7399
服事	-10.7399
父兄	-10.74
泗	-10.7404
冡	-10.7405
卓	-10.7412
閒暇	-10.7414
如是則	-10.7415
培	-10.7415
郊禖	-10.7415
譁	-10.7415
二種	-10.7416
周京	-10.742
胡氏	-10.7431
秦人	-10.7431
季秋	-10.7432
隴	-10.7438
衎	-10.7451
桑柔	-10.7452
皇皇者華	-10.7454
黄色	-10.7454
墓門	-10.7454
洪範	-10.7454
姝	-10.7455
終始	-10.7455
詩書	-10.7455
汲	-10.7457
亹亹	-10.7457
拱	-10.7457
奸	-10.7457
蔡邕	-10.7458
樂器	-10.7459
鳬鷖	-10.746
繆	-10.746
之義故	-10.7462
根本	-10.7463
慘慘	-10.7466
百辟	-10.7466
其根	-10.7469
寒暑	-10.7471
長庚	-10.7492
分明	-10.7496
各以其	-10.7497
内有	-10.75
蘇氏轍曰	-10.7501
萃	-10.7502
鉤膺	-10.7503
瀰	-10.7504
之美者	-10.7505
所以能	-10.7505
稌	-10.7506
二子	-10.7508
泌	-10.7508
墟	-10.751
二王之後	-10.751
百榖	-10.7513
别名	-10.7513
春秋傳曰	-10.7513
籧篨	-10.7515
昊天有成命	-10.7516
干禄	-10.7519
鶴鳴	-10.752
伐玁狁	-10.7525
之實也	-10.7527
祀文王	-10.7534
僕夫	-10.7535
形似	-10.7537
大伯	-10.7539
六義	-10.7541
勸之	-10.7544
淮水	-10.7548
首陽	-10.7549
本草云	-10.755
於衛	-10.7551
權輿	-10.7553
筋	-10.7555
舞者	-10.7556
麤	-10.7558
武成	-10.7564
䧟	-10.7567
衣食	-10.7568
篤公劉	-10.7569
無競	-10.757
百兩	-10.7573
歌舞	-10.7574
朝歌	-10.7576
牧野	-10.7577
諸夏	-10.758
無俾	-10.7592
止乎禮義	-10.7602
這	-10.7602
琇	-10.7602
謡	-10.7604
傷悲	-10.7606
袂	-10.7606
皁	-10.7607
之服也	-10.7608
洛水	-10.761
朱子謂	-10.7611
不得不	-10.7617
不識	-10.7621
刪詩	-10.7627
十七	-10.7627
者多矣	-10.7631
譖人	-10.7636
呂氏	-10.7639
所滅	-10.764
哲人	-10.764
深逺	-10.7644
周制	-10.7644
寔	-10.7646
兖州	-10.7647
民莫不	-10.7648
左氏傳	-10.7649
弄	-10.765
蠋	-10.7651
振旅	-10.7653
銘	-10.7654
祭時	-10.7658
管子	-10.7659
十千	-10.7662
抵	-10.7668
我馬	-10.7673
讀為	-10.7679
何得	-10.7685
祈年	-10.7686
祭法	-10.7687
即今之	-10.7691
可見其	-10.7695
朱氏善曰	-10.77
陳古	-10.77
卜筮	-10.77
惕	-10.7701
匱	-10.7707
胡為	-10.771
陜西	-10.7718
戒成王	-10.7724
如字又	-10.773
杜氏	-10.773
邪僻	-10.773
有杕之杜	-10.7743
容止	-10.7747
慨	-10.775
憫	-10.775
紕	-10.7751
斐	-10.7752
粉	-10.7752
丕	-10.7753
煌煌	-10.7756
蕩蕩	-10.7757
尺二寸	-10.776
黍苗	-10.7761
冓	-10.7763
陰陽	-10.7766
叙其	-10.7767
而不用	-10.7776
失道	-10.7777
三章章八句	-10.7778
鄭氏以為	-10.7779
假樂	-10.7783
十九年	-10.7786
黑色	-10.7789
下武	-10.7789
騑	-10.7794
序詩者	-10.7795
農人	-10.7797
褊	-10.7797
炰	-10.7797
鳯凰	-10.78
凋	-10.78
逕	-10.7802
縣西	-10.7804
迅	-10.7805
摶	-10.7806
東萊吕氏曰	-10.7806
人材	-10.7807
玷	-10.7808
召康公	-10.7808
無愧	-10.7809
獻尸	-10.7809
猱	-10.7813
其尾	-10.7813
笑語	-10.7831
百福	-10.7834
來牟	-10.7834
告于	-10.7836
蘿	-10.7836
羅氏	-10.7837
夷王	-10.7837
扞	-10.7838
饋食	-10.7838
秦風	-10.784
或疑	-10.7842
所稱	-10.7842
前二章	-10.7844
郝	-10.7848
蟻	-10.785
袁	-10.7851
以金	-10.7852
心焉	-10.7853
膝	-10.7854
㧞	-10.7855
采苓	-10.7857
彝	-10.7858
毛以為	-10.7859
爾雅翼	-10.7859
憑	-10.7859
豺	-10.786
白馬	-10.7863
玖	-10.7863
謹案	-10.7867
而不言	-10.7882
東周	-10.7885
洪	-10.7889
謀猶	-10.7891
出奔	-10.7892
築室	-10.7896
姪娣	-10.7903
長樂劉氏曰	-10.7905
董氏	-10.7907
牆有茨	-10.7908
上聲	-10.7921
織女	-10.7921
必待	-10.7922
五十里	-10.7925
近於	-10.7927
厲公	-10.7928
好貌	-10.7933
伯兮	-10.7936
瘞	-10.7948
爾雅注	-10.7949
畱	-10.795
奴	-10.795
北伐	-10.7955
叟	-10.7959
來助祭	-10.7963
輕重	-10.7967
誰能	-10.7968
不得歸	-10.7973
始封	-10.7985
無邪	-10.7992
詭隨	-10.8003
神農	-10.8004
沛	-10.8004
揜	-10.8004
既備	-10.8005
二矛	-10.8005
鬭	-10.8007
栒	-10.8009
大王王季	-10.8011
吕氏春秋	-10.8011
膳夫	-10.8012
介圭	-10.8013
欲使	-10.8019
行潦	-10.8021
三良	-10.8022
互相	-10.8028
懿公	-10.8042
葽	-10.8047
欒	-10.8047
鷊	-10.8049
枌	-10.8054
惰	-10.8054
鶯	-10.8058
偪	-10.8058
弃	-10.8059
掃	-10.806
治國	-10.8062
粢	-10.8062
刺忽	-10.8063
膋	-10.8063
凖	-10.8064
芮伯	-10.8067
訓詁	-10.807
呼天	-10.8071
所欲	-10.8073
信讒	-10.8089
喪亂	-10.809
無羊	-10.8093
孔疏云	-10.8094
之墟	-10.8094
大國之	-10.8096
九夏	-10.8098
卷十	-10.8102
讙	-10.8106
巻	-10.8106
劣	-10.8108
怙	-10.8109
凍	-10.8112
自后稷	-10.8112
瓞	-10.8113
警戒	-10.8117
荓	-10.8118
尚未	-10.8128
盡力	-10.813
集註	-10.8138
渭水	-10.8147
終於	-10.8147
信乎	-10.8152
踵	-10.8154
后土	-10.8154
滸	-10.8154
騫	-10.8155
不得已	-10.8156
丁丁	-10.816
莽	-10.8161
内史	-10.8162
疇	-10.8162
飫	-10.8164
縿	-10.8165
龍旂	-10.8169
出宿	-10.8174
侯國	-10.8176
鳥名	-10.8181
已成	-10.8184
巾車	-10.8184
降此	-10.8185
字書	-10.8186
山名	-10.8199
郡縣志	-10.8201
盬	-10.8203
受禄	-10.8204
檻	-10.8205
淑人君子	-10.8206
銳	-10.821
隙	-10.8212
晳	-10.8213
壤	-10.8214
竿	-10.8215
欣	-10.8215
萑葦	-10.8216
緜蠻	-10.8217
剔	-10.8217
荻	-10.8218
坰	-10.822
又引	-10.8221
陟降	-10.8231
宣子	-10.8234
未安	-10.8246
豈不爾思	-10.8252
破斧	-10.8253
歐陽氏	-10.8255
敝笱	-10.8258
棫	-10.8259
製	-10.826
萇	-10.8261
不聽	-10.8263
不然則	-10.8264
裹	-10.8264
臂	-10.8267
溝洫	-10.8267
翹翹	-10.8267
遷于	-10.8268
蜴	-10.8273
揄	-10.8276
寡婦	-10.8279
青色	-10.8289
莫能	-10.8298
鷄	-10.8304
所建	-10.8306
二南之	-10.8309
輔氏	-10.8309
不殄	-10.8309
摻	-10.8312
羖	-10.8316
皎	-10.8316
昭王	-10.8317
大戴禮	-10.8318
冀其	-10.8319
眼	-10.8319
莖葉	-10.8319
裂	-10.832
虜	-10.832
魯桓	-10.8321
仲子	-10.8325
若夫	-10.8337
桃蟲	-10.8338
白者	-10.8339
縣南	-10.8348
戰國	-10.8351
式微	-10.8353
涇陽	-10.8358
酒醴	-10.8362
蘇轍	-10.8368
威武	-10.8368
何彼穠矣	-10.8372
馴	-10.8372
北流	-10.838
祖宗	-10.8381
雖欲	-10.8389
諸父	-10.839
今俗	-10.8401
正謂	-10.8408
腰	-10.8419
鯊	-10.842
岀	-10.842
掇	-10.8421
凱	-10.8421
緎	-10.8422
韋弁	-10.8423
芍藥	-10.8423
蜮	-10.8423
商人	-10.8425
騐	-10.8425
周大夫	-10.8428
軍士	-10.8429
河内	-10.843
可乎	-10.8431
佻	-10.8432
功業	-10.844
予小子	-10.8442
相傳	-10.8443
蹶父	-10.8443
三尺	-10.8453
漢志	-10.8464
子嗟	-10.8464
愾	-10.8472
減	-10.8477
旆	-10.8478
柚	-10.8482
臯陶	-10.8485
桃李	-10.8486
女功	-10.8486
戍役	-10.8487
粲曰	-10.8488
主婦	-10.8489
三寸	-10.8492
平地	-10.8493
出話	-10.8495
城縣	-10.8505
專言	-10.8507
憂傷	-10.8507
下二句	-10.8511
三字	-10.8515
成王時	-10.8515
縣北	-10.8516
不回	-10.852
樵	-10.8522
偈	-10.8522
閱	-10.8524
苕之華	-10.8526
野有蔓草	-10.8526
騋	-10.8526
歸期	-10.8526
洸	-10.8527
妨	-10.8529
蕳	-10.8529
摽有梅	-10.853
功徳	-10.8531
墐	-10.8534
斯螽	-10.8534
我友	-10.8536
昬姻	-10.8536
讀詩記	-10.854
履霜	-10.854
螟蛉	-10.854
叶羽	-10.8541
重耳	-10.8541
鋒	-10.8544
凡人	-10.8549
非常	-10.8555
木瓜	-10.8559
于廟	-10.8562
所封	-10.8563
儺	-10.8577
逑	-10.858
悄	-10.8581
師尹	-10.8582
倣	-10.8582
入渭	-10.8584
五章言	-10.8584
戌	-10.8585
冩	-10.8586
螣	-10.8588
囂囂	-10.8588
毅	-10.859
盛大	-10.8591
一月	-10.8591
笙磬	-10.8594
經㫖曰	-10.8614
梧	-10.8621
五穀	-10.8628
十七年	-10.8628
死喪	-10.8629
群	-10.863
詭	-10.8635
瓉	-10.8636
衛侯	-10.8639
顚	-10.8639
棧	-10.8639
濩	-10.8641
梗	-10.8643
韜	-10.8643
随	-10.8644
孝思	-10.8647
衛武公	-10.8649
五行	-10.8651
勞心	-10.8659
每章	-10.8669
名篇	-10.8679
衛風	-10.8682
不得其所	-10.8685
柷	-10.8686
陣	-10.869
韶	-10.8693
輙	-10.8695
沓	-10.8698
楚楚	-10.8728
未嘗有	-10.8729
梨	-10.8736
羣飛	-10.8737
枉	-10.8742
崔嵬	-10.8742
有女同車	-10.8743
容刀	-10.8743
渴	-10.8744
町	-10.8744
茹藘	-10.8745
初無	-10.8745
六卿	-10.8746
山有樞	-10.8746
韎韐	-10.8747
屯	-10.8749
属	-10.8749
欽	-10.875
繭	-10.8754
何足	-10.8768
德行	-10.8771
天心	-10.8787
張氏	-10.8788
烈考	-10.8791
交交	-10.8792
常服	-10.8797
殷其靁	-10.8801
𥘉	-10.8804
瑾	-10.8805
熊羆	-10.8806
皇王	-10.8811
冲	-10.8812
堯舜	-10.8815
干戈	-10.8816
伐西戎	-10.8823
播種	-10.8824
止息	-10.8825
能敬	-10.8828
後二章	-10.8835
詩經	-10.8837
后妃之徳	-10.8842
頌僖公	-10.8845
南行	-10.885
嘒	-10.8852
珩	-10.8853
不盈	-10.8853
奕	-10.8853
涘	-10.8855
朱芾	-10.8856
杭	-10.8856
房中	-10.8856
忮	-10.8857
既畢	-10.8858
壎	-10.8859
大宗伯	-10.8859
季札	-10.8859
殷商	-10.8861
尖	-10.8861
野有死麕	-10.8861
治亂	-10.8862
鰥寡	-10.8862
歌詠	-10.8863
仲尼	-10.8869
南征	-10.8869
二説	-10.8869
民之所	-10.887
變化	-10.8874
由庚	-10.8876
帝命	-10.8877
白露	-10.8878
刺時	-10.8879
叶滿	-10.8883
恐非	-10.8883
繫於	-10.8886
不察	-10.8886
令德	-10.8887
幽王之時	-10.8887
陸璣曰	-10.8906
複	-10.8909
天子之命	-10.8909
黄白	-10.8909
不妬忌	-10.8909
匏有苦葉	-10.891
唱	-10.8912
巡	-10.8912
茲	-10.8912
炮	-10.8913
渾	-10.8913
袍	-10.8914
褧	-10.8914
渝	-10.8914
鏘	-10.8915
素衣	-10.8915
耨	-10.892
郵	-10.8924
勺藥	-10.8925
大宗	-10.8928
文王有聲	-10.8937
出師	-10.894
有瞽	-10.8941
嗟歎	-10.8942
天之所	-10.8948
殄	-10.8949
百泉	-10.8952
蘇傳	-10.8964
廟中	-10.8966
丙	-10.8968
斿	-10.8969
簒	-10.8969
嘒嘒	-10.897
佽	-10.8971
罶	-10.8971
繋	-10.8971
宼	-10.8972
綏綏	-10.8973
冶	-10.8973
被文王之化	-10.8975
爾雅作	-10.8976
剝	-10.8977
顛覆	-10.898
下垂	-10.8982
周旋	-10.8986
祈穀	-10.8987
七羊	-10.8987
上二句	-10.8987
親愛	-10.9007
莊王	-10.9011
作頌	-10.9015
孫炎云	-10.9018
曽不	-10.9018
韍	-10.9021
頍弁	-10.9021
戕	-10.9024
稺	-10.9025
以成其	-10.9025
韌	-10.9026
鶚	-10.9027
僚友	-10.9028
蓼莪	-10.9029
有車馬	-10.9032
武王伐紂	-10.9034
塾	-10.9038
暴虎	-10.9045
不厭	-10.905
方社	-10.9054
同列	-10.9061
民俗	-10.9064
整齊	-10.9066
晏子	-10.9071
蓷	-10.908
南陽	-10.9083
啖	-10.9084
靁	-10.9085
禖	-10.9086
隣	-10.9088
玉篇	-10.9088
帷	-10.9089
不侮	-10.9089
傑	-10.9089
必有所	-10.9089
農官	-10.909
參差	-10.9092
俾我	-10.91
成王之時	-10.9101
可哀	-10.9102
毛詩序曰	-10.9105
交錯	-10.9106
愛君	-10.9116
此理	-10.9116
范氏	-10.9119
鸞聲	-10.9121
卒子	-10.9122
能致	-10.9124
鷂	-10.9134
雎	-10.9135
戀	-10.9139
騁	-10.9139
檿	-10.9141
新宫	-10.9144
安得不	-10.9145
所依	-10.9146
渡河	-10.9146
濬	-10.9146
旣見君子	-10.9146
新田	-10.9147
䙝	-10.9148
解頥	-10.9148
妻子	-10.9149
兩服	-10.915
天性	-10.9151
舒緩	-10.9151
反側	-10.9152
吉凶	-10.9153
不動	-10.9158
蒹	-10.9159
二語	-10.9161
后夫人	-10.9162
在位者	-10.9164
縣東	-10.9165
前日	-10.9166
千乗	-10.9184
政令	-10.9186
昔日	-10.9187
玉藻云	-10.9187
共公	-10.9188
共姜	-10.919
翩	-10.9192
貓	-10.9193
妬	-10.9194
序說	-10.9195
東門之墠	-10.9196
紽	-10.9196
駰	-10.9197
閔公	-10.9197
為卿士	-10.9197
腫	-10.9198
科	-10.9201
遵大路	-10.9202
韡韡	-10.9203
浴	-10.9205
釁	-10.9206
申言	-10.9206
墾	-10.9208
鏞	-10.9208
赤舄	-10.921
文選注	-10.9214
平聲	-10.9214
霜降	-10.9215
隂氣	-10.9216
許氏	-10.922
字又作	-10.9229
得其時	-10.923
多辟	-10.9232
將率	-10.9235
言之耳	-10.9242
括地志	-10.9247
耿	-10.9247
百穀	-10.925
性情	-10.9252
得之矣	-10.9253
邂逅	-10.9254
漂	-10.9258
驟	-10.9258
銍	-10.9259
燮	-10.926
璜	-10.9263
閑習	-10.9273
肇祀	-10.9274
教誨	-10.9275
蘀兮	-10.9275
缾	-10.9275
戚施	-10.9276
曾不	-10.9278
功臣	-10.9284
四種	-10.9291
李迂仲曰	-10.9293
從役	-10.9298
鉏	-10.9306
油	-10.9309
洩	-10.9311
有文章	-10.9312
郭氏	-10.9312
餱	-10.9314
惻	-10.9315
方百里	-10.9317
冢宰	-10.9319
既設	-10.932
哭	-10.9321
蒺藜	-10.9322
訪落	-10.9325
而不可得	-10.9325
在堂	-10.9327
十八年	-10.9329
禾稼	-10.933
此章又	-10.9333
莫大於	-10.9342
釋言文	-10.9345
定天下	-10.9348
盛德	-10.9353
匠人	-10.9354
之本也	-10.9355
蔞	-10.9366
礼	-10.9367
翿	-10.9369
罕	-10.9369
耗	-10.9372
無明文	-10.9378
伶官	-10.9381
異名	-10.9386
廬陵	-10.9386
詩譜	-10.9396
不僭	-10.9397
二章三章	-10.9403
協韻	-10.9404
乗車	-10.9407
嫁娶	-10.9412
自責	-10.9412
疾威	-10.9417
所執	-10.9419
祭義	-10.9422
夏商	-10.9423
鬰	-10.9424
陸徳明	-10.9425
髙下	-10.9425
串	-10.9426
一尺	-10.9426
嫉	-10.9429
孔頴達	-10.9432
亷	-10.9432
拙	-10.9432
析薪	-10.9433
傷今	-10.9437
庫	-10.9437
隐	-10.9439
萬夫	-10.944
文王武王	-10.9443
陸佃	-10.9448
何獨	-10.9449
禮記云	-10.945
汶	-10.945
經營	-10.945
先世	-10.9453
上二章	-10.9456
嚴粲云	-10.9457
籥舞	-10.9459
正風	-10.9471
陜	-10.948
中間	-10.9481
宛然	-10.9481
王氏安石曰	-10.9484
紲	-10.9484
無將大車	-10.9485
沬	-10.9487
髢	-10.9487
纚	-10.9488
裳裳者華	-10.9489
圗	-10.9489
方言云	-10.9489
賄	-10.949
申侯	-10.949
孔穎達	-10.9491
纎	-10.9491
鄭唯	-10.9491
醫	-10.9494
𦂳	-10.9496
埋	-10.9496
失職	-10.9496
穋	-10.9497
祧	-10.9499
旻天	-10.9503
㸑	-10.9506
文德	-10.9508
攝政	-10.9508
采葛	-10.9513
齊魯	-10.9522
不止於	-10.9527
難通	-10.9529
不爽	-10.9532
安民	-10.9535
郇	-10.9537
下二章	-10.9539
脣	-10.9541
諸侯助祭	-10.9545
頎	-10.9545
㫁	-10.9545
所自出	-10.9546
勁	-10.9546
伐紂	-10.9547
岱	-10.9548
療	-10.9549
婆娑	-10.955
娛	-10.9552
諭	-10.9552
按左傳	-10.9553
詆	-10.9554
繳	-10.9554
料	-10.9556
他國	-10.9556
溼	-10.9557
禴	-10.9559
罄	-10.956
一丈	-10.9564
愛民	-10.9566
民之父母	-10.9567
簡狄	-10.9568
毳衣	-10.9573
天子之禮	-10.9575
修身	-10.9576
莫莫	-10.9582
殷勤	-10.9584
不能忘	-10.9591
為證	-10.96
蓫	-10.9605
霆	-10.9606
粺	-10.9607
惡木	-10.9608
貆	-10.9609
豳頌	-10.961
羝	-10.9611
叔兮伯兮	-10.9612
何氏楷曰	-10.9612
蔽芾	-10.9614
黏	-10.9614
虞芮	-10.9616
蠆	-10.9618
窮極	-10.962
師衆	-10.9622
靈星	-10.9629
使我心	-10.9636
相視	-10.9639
幽公	-10.9639
昭考	-10.9642
子衿	-10.9647
以我為	-10.965
豐本作	-10.9662
緻	-10.9664
瑳	-10.9664
鸇	-10.9665
雊	-10.9667
鞹	-10.9667
瀆	-10.9669
胙	-10.9669
賔之初筵	-10.967
叶胡	-10.9671
混夷	-10.9672
豈可以	-10.9673
糓	-10.9673
五尺	-10.9674
譙	-10.9674
鉶	-10.9674
粹	-10.9675
旌旗	-10.9679
詁訓	-10.9681
卣	-10.9682
三歲	-10.9683
庶乎	-10.9689
六寸	-10.9689
任用	-10.969
六篇	-10.9692
四岳	-10.9694
清揚	-10.9698
春秋時	-10.9708
近世	-10.9713
郊外	-10.9717
又案	-10.972
閑閑	-10.9721
盱	-10.9722
彤	-10.9723
相助	-10.9726
鰋	-10.973
揥	-10.9731
瞻彼洛矣	-10.9731
僞	-10.9732
鱒	-10.9732
君子至止	-10.9732
疐	-10.9736
駟驖	-10.9738
緝熈	-10.9742
罪罟	-10.9743
菉	-10.975
附録	-10.9752
二義	-10.9753
喬木	-10.9755
臯門	-10.9759
游女	-10.9766
總角	-10.9766
百世	-10.9784
毛氏以為	-10.9785
軓	-10.9786
公路	-10.9786
一旦	-10.9786
跪	-10.9789
胎	-10.979
襃	-10.9793
何元子	-10.9798
輶	-10.9799
大道	-10.9799
彞	-10.9801
安寧	-10.9804
瞻望	-10.9805
宴樂	-10.9824
渭陽	-10.9824
李廵曰	-10.9827
晉國	-10.9832
蘋藻	-10.9833
好色	-10.9833
矇	-10.9843
飴	-10.9852
山有扶蘇	-10.9853
紵	-10.9854
廪	-10.9858
本俱作	-10.986
未必然	-10.986
舅姑	-10.9862
名之曰	-10.9863
檀弓	-10.9866
八句	-10.9869
事神	-10.9869
豫州	-10.9876
是之謂	-10.9877
子弟	-10.9878
反又音	-10.9881
始祖	-10.9888
孝友	-10.989
柔嘉	-10.9893
中谷有蓷	-10.9901
蓮	-10.9907
蔵	-10.9912
停	-10.9912
瞻卬	-10.9913
訿訿	-10.9915
泂酌	-10.9915
頴	-10.9917
百堵	-10.9917
揉	-10.9919
長尺	-10.9921
占夢	-10.9925
鎛	-10.9926
奏肆夏	-10.9926
周禮注	-10.9942
1	-10.9946
周原	-10.9946
安知	-10.9947
自悔	-10.9947
射義	-10.995
朝㑹	-10.9953
不得已而	-10.9957
2	-10.9959
皓	-10.9968
臼	-10.9971
桋	-10.9971
博士	-10.9973
諸書	-10.9973
江有汜	-10.9976
歇	-10.9977
提提	-10.9977
不足信	-10.9977
偷	-10.9979
䜛人	-10.9981
廵守	-10.9981
所乗	-10.9981
俄	-10.9982
以此詩為	-10.9985
猗猗	-10.9986
鬱鬯	-10.9986
色白	-10.999
沔水	-10.999
伐商	-11
太甲	-11.0004
四矢	-11.0005
許氏曰	-11.0011
小異	-11.0021
毛訓	-11.0028
叶陽韻	-11.003
鍭	-11.0033
焦穫	-11.0035
姊妹	-11.0035
淺深	-11.0036
汲汲	-11.0036
秫	-11.0036
璣	-11.0036
牂	-11.0039
演	-11.0041
搆	-11.0042
江淮	-11.0042
恕	-11.0043
懽	-11.0044
珌	-11.0045
礙	-11.0045
骭	-11.0051
孟子所謂	-11.0052
上句	-11.0055
樅	-11.0056
封域	-11.0057
小毖	-11.0069
釋詁云	-11.0073
車徒	-11.0078
之類皆	-11.0082
百禄	-11.0083
通名	-11.0085
自守	-11.0086
瞻彼	-11.0088
斨	-11.0088
未艾	-11.0094
功成	-11.0096
罝	-11.0096
歎美	-11.0098
亢	-11.01
鈞	-11.01
縷	-11.0104
濯濯	-11.0105
經營四方	-11.0105
藐藐	-11.0106
祝融	-11.0107
子孫衆多	-11.0109
髙克	-11.0111
營謝	-11.0111
積累	-11.0113
新廟	-11.0113
孟冬	-11.0116
緑竹	-11.0123
亦可謂	-11.0127
季春	-11.013
魚藻	-11.0133
禮器	-11.0141
載驅	-11.0142
屺	-11.0149
尼	-11.016
序曰刺	-11.0161
蔬	-11.0163
茅蒐	-11.0164
弩	-11.0165
西安府	-11.0166
槃	-11.017
袒	-11.0171
十一篇	-11.0178
好徳	-11.0179
蹌蹌	-11.018
所感	-11.0184
侍御	-11.0184
太伯	-11.0187
嚴粲	-11.019
夷姜	-11.02
美惡	-11.0209
無辜	-11.0218
羜	-11.0219
帥師	-11.0221
檉	-11.0222
神靈	-11.0222
徃來	-11.0227
矧	-11.0227
拳	-11.0228
暱	-11.0229
蠲	-11.0232
塈	-11.0233
䕃	-11.0235
早晚	-11.0237
耆老	-11.0238
栢	-11.0238
荆舒	-11.0239
詩人述	-11.024
鄭樵	-11.0241
東方之日	-11.0243
奚斯	-11.0244
邶鄘衛	-11.0254
語詞	-11.0261
震動	-11.0267
交相	-11.0273
滔滔	-11.0285
一統志	-11.0288
莎雞	-11.029
橘	-11.0292
怡	-11.0294
羨	-11.0296
可觀	-11.0296
姚	-11.0296
櫜	-11.0297
相接	-11.0299
多少	-11.0299
埸	-11.0299
猴	-11.03
逺近	-11.0302
白虎	-11.0314
各有所	-11.0315
車鄰	-11.0319
宗廟之祭	-11.032
下四句	-11.0327
而與之	-11.033
與之同	-11.0331
好惡	-11.0338
坎坎	-11.0347
逵	-11.0349
贄	-11.0352
幽州人謂之	-11.0354
不遲	-11.0355
太史	-11.0355
背上	-11.0356
頰	-11.0357
圖經云	-11.0357
函	-11.0359
袖	-11.0359
邉	-11.0359
勅	-11.036
胡能有定	-11.0361
孔安國	-11.0361
吹笙	-11.0364
喤喤	-11.0365
蛾	-11.0366
獻酬	-11.0372
文王之典	-11.0386
有二種	-11.0387
趙孟	-11.0391
虞人	-11.0394
信厚	-11.0397
不肖	-11.0398
兩端	-11.0404
鬵	-11.0408
駪	-11.0414
愷	-11.0415
謠	-11.0417
鱮	-11.0418
馮翊	-11.0421
樊纓	-11.0423
皷	-11.0423
墠	-11.0423
齎	-11.0423
懟	-11.0423
陪	-11.0424
儼	-11.0425
壮	-11.0425
圭璧	-11.0426
吾君	-11.0427
槁	-11.0427
耒耜	-11.0427
吝	-11.0429
蠢	-11.043
耻	-11.0431
叶奬	-11.0431
伐淮夷	-11.0434
聽訟	-11.0437
辟雍	-11.0439
父母兄弟	-11.0439
四驪	-11.0447
汶水	-11.0451
昏亂	-11.0458
所以然者	-11.0464
户郎	-11.0471
鳥鳴	-11.0473
當是時	-11.0476
治田	-11.0476
鐃	-11.0477
文舞	-11.0481
藚	-11.0485
慄	-11.0486
匊	-11.0486
聨	-11.0488
垤	-11.0489
遼	-11.0489
豐城朱氏曰	-11.0491
響	-11.0491
懲創	-11.0494
何休	-11.0496
白金	-11.0496
羅瑞良	-11.05
廣韻	-11.0501
宣王中興	-11.0503
荷華	-11.0504
叔段	-11.0507
象骨	-11.0511
白虎通	-11.0512
尤甚	-11.0515
懿徳	-11.0532
爾殽	-11.0535
之間謂之	-11.0535
松栢	-11.0551
仙	-11.0552
澤陂	-11.0554
虞惇曰	-11.0554
樂音洛	-11.0555
狼跋	-11.0555
零露	-11.0556
鴆	-11.0556
鄉遂	-11.0556
餉	-11.0559
東方未明	-11.0559
金玉	-11.0559
崇牙	-11.0563
晉獻公	-11.0564
銀	-11.0565
司馬法	-11.058
第一	-11.0585
和鸞	-11.0585
所不及	-11.059
鄭衛	-11.0598
受封	-11.0601
盡其心	-11.0604
虵	-11.0612
麟之趾	-11.0614
飼	-11.0617
蠱	-11.0617
甜	-11.0619
君子陽陽	-11.062
通典	-11.0623
蝱	-11.0624
鳦	-11.0625
鶉之奔奔	-11.0627
縭	-11.0628
揚雄	-11.0629
穆王	-11.063
前三章	-11.0632
茆	-11.0634
詩記曰	-11.0636
韘	-11.0636
襄王	-11.0637
役車	-11.0644
共和	-11.0649
稱其服	-11.0653
史伯	-11.0655
橐	-11.068
旱既大甚	-11.0681
奇	-11.0681
桷	-11.0681
聰明	-11.0681
漸漸之石	-11.0681
勒	-11.0684
叔向	-11.0685
獫	-11.0686
皥	-11.0686
何楷曰	-11.0687
杏	-11.0687
霑	-11.0692
濱	-11.0692
穈	-11.0694
息亮	-11.0694
屋漏	-11.0696
莢	-11.0696
琚	-11.07
味甘	-11.07
凶年	-11.0704
政治	-11.0708
隰桑	-11.0709
陸璣疏云	-11.0723
無已也	-11.0728
豈無他人	-11.0746
陌	-11.0747
歌鹿鳴	-11.0749
綢	-11.0749
窈	-11.075
音義同	-11.075
許穆夫人	-11.0751
陳祥道	-11.0752
師傅	-11.0754
藎	-11.0755
子産	-11.0756
畔援	-11.0756
夙夜在公	-11.0762
趣馬	-11.0766
懿王	-11.078
漿	-11.0796
取妻	-11.0809
南畝	-11.0812
穟	-11.0814
孔氏穎	-11.0815
命不易	-11.0815
何等	-11.0817
冨	-11.0818
巔	-11.0818
僴	-11.0819
求助	-11.082
塤	-11.082
冽	-11.0822
豬	-11.0822
霏	-11.0822
觩	-11.0825
求福	-11.0826
戲謔	-11.0828
有時而	-11.083
畛	-11.0831
觱	-11.0834
末句	-11.0835
未甞	-11.0855
太任	-11.0872
隸	-11.0876
叔父	-11.0877
鐸	-11.088
二十八	-11.0883
魯道有蕩齊子	-11.0883
乘車	-11.0885
螗	-11.0886
閣	-11.0887
嬴	-11.089
銚	-11.089
郊特牲云	-11.0892
荏	-11.0893
䜴	-11.0894
遣戍役	-11.0895
嗟嗟	-11.0896
令儀	-11.0899
唐虞	-11.0899
奉璋	-11.0902
白虎通云	-11.0919
學問	-11.092
昭穆	-11.092
諸侯來朝	-11.0924
相呼	-11.0928
節儉	-11.093
横木	-11.0936
華谷	-11.0937
千乘	-11.094
朱註賦也毛傳缺	-11.094
羣廟	-11.0944
什一	-11.0945
園有桃	-11.095
惔	-11.0953
迴	-11.0953
埤	-11.0954
汭	-11.0954
陸璣疏	-11.0955
徙居	-11.0955
曹氏粹中曰	-11.0956
翩翩	-11.0957
麓	-11.0957
髲	-11.0958
坻	-11.0958
鴥	-11.0958
哆	-11.0958
挑	-11.096
渇	-11.096
􁂶	-11.096
鼗	-11.096
君子于役	-11.0961
晢	-11.0962
器械	-11.0963
泯	-11.0963
回遹	-11.0963
各得其所	-11.0968
貍首	-11.0968
假寐	-11.0968
栝	-11.097
昊天上帝	-11.0971
百畆	-11.0971
歐陽公	-11.0976
束薪	-11.0978
北面	-11.0979
寒泉	-11.0984
説苑	-11.0987
酒漿	-11.0989
南箕	-11.0989
魯莊公	-11.0992
不可知	-11.0996
坊	-11.1003
文選	-11.1003
釋鳥	-11.1022
繞	-11.1024
不見答	-11.1027
諛	-11.1027
廵	-11.1027
瘠	-11.1028
滎	-11.103
簸	-11.1031
夲又作	-11.1032
銎	-11.1033
馨	-11.1034
長三尺	-11.1035
傭	-11.1035
䲭鴞	-11.1041
二十七	-11.1052
諸姬	-11.1052
嘉客	-11.1054
頷	-11.1056
逮下	-11.1058
築城	-11.106
先代	-11.1081
納采	-11.1081
豳地	-11.1086
寺	-11.1087
嚴氏云	-11.1092
夘	-11.1092
何嘗	-11.1094
亾	-11.1094
衾	-11.1095
出其東門	-11.1096
􁂎	-11.1096
兢兢	-11.1097
茷	-11.1098
酸	-11.1099
頃筐	-11.1099
葚	-11.1099
㒺	-11.1101
桂	-11.1101
武王克商	-11.1101
觼	-11.1102
馨香	-11.1104
魄	-11.1104
蜾蠃	-11.1106
嚏	-11.1106
縣西南	-11.112
鄭譜	-11.1133
縣東北	-11.1134
嘏辭	-11.1146
髙祖	-11.1149
蠶事	-11.1149
戒懼	-11.1151
慱	-11.1157
何草不黄	-11.1162
朝隮	-11.1163
東門之枌	-11.1164
瓊琚	-11.1164
黄氏佐曰	-11.1165
茇	-11.1165
伺	-11.1166
寕	-11.1167
技	-11.1167
煇	-11.1168
腸	-11.117
蔡氏	-11.117
吠	-11.1172
刺莊公	-11.1175
勞使臣	-11.1186
叶謨	-11.1192
崇丘	-11.1192
叶户	-11.1208
潦	-11.1223
黄氏曰	-11.1226
喈	-11.123
率循	-11.1231
遙	-11.1237
鷩	-11.1237
禪	-11.1238
俟我於	-11.1239
蕘	-11.1239
忝	-11.1241
王安石	-11.1242
壘	-11.1243
晋	-11.1245
髙岡	-11.1245
頓丘	-11.125
朝覲	-11.1268
柔木	-11.1278
房中之樂	-11.1299
久而不	-11.13
金奏	-11.1301
其車三千	-11.1301
菣	-11.1303
瘼	-11.1303
秀葽	-11.1303
瑣	-11.1304
摩	-11.1305
汕	-11.1306
窈窕	-11.1307
逝我梁	-11.1307
許氏謙曰	-11.1308
士冠禮	-11.1311
鐡	-11.1313
荀卿	-11.1314
瑶	-11.1314
營室	-11.1316
圭瓚	-11.1318
繪	-11.1318
夏姬	-11.1329
箋疏	-11.1339
程氏	-11.1341
可以觀	-11.1346
沔	-11.136
腹心	-11.1369
羅願云	-11.1373
可得而	-11.1373
貔	-11.1374
租	-11.1377
黝	-11.1378
淮浦	-11.1381
丘中有麻	-11.1381
耐	-11.1382
純嘏	-11.1384
蜻	-11.1386
璲	-11.1387
薿	-11.1388
彼都人士	-11.1398
十五里	-11.1398
專指	-11.1411
俗謂之	-11.1412
忠愛	-11.1412
心之所	-11.1413
無所依	-11.1423
衛文公	-11.1429
叔孫	-11.1438
隮	-11.1442
菁菁	-11.1444
井田	-11.1444
勃	-11.1445
璞	-11.145
屠	-11.145
裔	-11.1451
三歳	-11.1451
釃	-11.1451
栵	-11.1452
防閑	-11.1453
窺	-11.1455
鴻雁	-11.1455
遑暇	-11.1455
史克	-11.146
簡簡	-11.1466
邶風	-11.1483
富貴	-11.1485
憂勤	-11.1489
截然	-11.1492
得其宜	-11.1519
賈誼	-11.1519
大司樂	-11.1521
謁	-11.1521
頡	-11.1522
隊	-11.1522
披	-11.1524
剪	-11.1526
躐	-11.1526
訂	-11.1527
七廟	-11.1528
邾	-11.1528
白牡	-11.1529
衷	-11.1531
斃	-11.1532
祔	-11.1533
存亡	-11.1542
補傳曰	-11.1542
勉强	-11.1548
頷下	-11.1556
嗟乎	-11.157
大叔于田	-11.1578
宰夫	-11.1582
瞍	-11.1585
湛樂	-11.159
跗	-11.159
曼	-11.159
袢	-11.1594
探	-11.1594
犯禮	-11.1595
汾沮洳	-11.1596
跳	-11.1598
糞	-11.1601
豉	-11.1603
無所不至	-11.1603
陶陶	-11.1603
洒埽	-11.1607
斛	-11.1612
釜	-11.1615
臣僕	-11.1622
太康	-11.1623
永歎	-11.163
夭夭	-11.163
兩髦	-11.1634
今河南	-11.1649
十一月	-11.165
呼報	-11.165
逼反	-11.1653
蔓延	-11.1663
陟岵	-11.1663
伶	-11.1665
有美一人	-11.1666
噣	-11.1669
麀鹿	-11.167
汾水	-11.1672
挽	-11.1673
隧	-11.1674
庠	-11.1675
沿	-11.1676
萱	-11.1676
附錄	-11.1677
愉	-11.1678
蹂	-11.1679
姪	-11.168
湘	-11.1687
鷦鷯	-11.1688
七十里	-11.1689
孰能	-11.169
不得志	-11.1691
圃田	-11.1695
殘賊	-11.1698
七尺	-11.1699
五寸	-11.1702
標	-11.1741
壑	-11.1742
萇楚	-11.1744
蔌	-11.1744
裁	-11.1745
維天之命	-11.1746
懇	-11.1748
觿	-11.1748
軜	-11.1749
萬夀無疆	-11.1749
蔓菁	-11.175
繩繩	-11.1753
與民同	-11.1753
嘉殽	-11.1754
賦也鄭箋	-11.1763
東海	-11.1764
衛宣公	-11.1781
上四句	-11.1782
之不如也	-11.1785
維持	-11.1786
武舞	-11.1786
周公所作	-11.1792
幽厲	-11.1796
隈	-11.1811
萎	-11.1812
嚶嚶	-11.1814
茵	-11.1814
婢	-11.1814
咮	-11.1815
儇	-11.1817
匿	-11.1817
嶷	-11.1819
忘憂	-11.1819
恫	-11.182
概	-11.1821
欵	-11.1821
赦	-11.1822
哺	-11.1822
胷	-11.1822
潮	-11.1823
闋	-11.1823
礪	-11.1823
稙	-11.1826
白雜毛	-11.1827
濳	-11.1827
仍叔	-11.184
柔弱	-11.1843
甥舅	-11.1887
杙	-11.1887
柔順	-11.1887
淒淒	-11.1887
百辟卿士	-11.1895
羽翼	-11.1895
滮	-11.1896
邵	-11.19
彦	-11.1902
出遊	-11.1902
委蛇	-11.1903
所謂伊人	-11.1903
年豐	-11.1909
柴望	-11.1911
享祀	-11.1917
孔碩	-11.1926
張仲	-11.1943
發端	-11.1951
服䖍	-11.1961
勤苦	-11.1964
皇甫謐	-11.1964
扇	-11.1965
槱	-11.1966
夲亦作	-11.1969
磋	-11.197
蕪菁	-11.1972
餙	-11.1972
噂	-11.1973
我覯之子	-11.1973
繹祭	-11.1974
姬姓	-11.1974
東門之楊	-11.1974
諄諄	-11.1975
射御	-11.1975
札	-11.1975
浮浮	-11.1976
馵	-11.1976
蜥蜴	-11.1976
古今注	-11.1977
舍人曰	-11.1977
離騷	-11.1977
疆埸	-11.1978
鸒斯	-11.198
〇鄭氏曰	-11.198
船	-11.1981
漸漸	-11.1984
祉福	-11.1985
發語辭	-11.1986
釋畜	-11.199
未免	-11.2005
鄰國	-11.2011
兩旁	-11.2036
淫泆	-11.2038
廓	-11.2038
妒	-11.2042
無縱詭隨以謹	-11.2042
坼	-11.2042
駭	-11.2045
跨	-11.2045
王介甫曰	-11.2045
韓姞	-11.2045
逞	-11.2046
別	-11.2048
勵	-11.2049
麀	-11.205
俅	-11.205
夔	-11.2051
砥	-11.2051
興者喻	-11.2051
盼	-11.2052
衰亂之	-11.2073
孟夏	-11.2093
岵	-11.2108
甑	-11.211
補傳	-11.2111
睢	-11.2118
韎	-11.212
諂	-11.2121
規模	-11.2123
脛	-11.2123
侵削	-11.2123
漫	-11.2124
文王曰咨咨女殷商	-11.2124
鄭漁仲	-11.2126
巡狩	-11.2126
護	-11.2126
朅	-11.2127
䏻	-11.2127
險阻	-11.2127
昔我往矣	-11.2129
恊	-11.213
錯衡	-11.2131
箎	-11.2132
噲	-11.2132
〇毛氏曰	-11.2134
照臨	-11.2134
民之訛言	-11.2135
陸本	-11.2136
軾前	-11.2138
馬融	-11.214
刺幽	-11.2147
此詩之作	-11.2158
田犬	-11.2179
賔尸	-11.2184
檖	-11.2187
羲	-11.2192
蹲	-11.2194
香草	-11.2196
廏	-11.2197
貺	-11.2197
撮	-11.2198
廐	-11.2198
邢昺	-11.2199
晣	-11.2199
準	-11.2201
夫人姜氏	-11.2201
伾	-11.2202
淹	-11.2202
台	-11.2204
魂	-11.2204
苐	-11.2204
揺	-11.2205
鞉鼓	-11.2205
鰷	-11.2206
受天之祜	-11.2206
汧	-11.2207
䖏	-11.2207
賦比興	-11.2207
戯	-11.2209
酒誥	-11.2209
吕東萊曰	-11.221
匍匐	-11.2213
禦侮	-11.2214
受釐	-11.222
盡瘁	-11.223
縣西北	-11.2236
境内	-11.2258
第三章	-11.2262
季夏	-11.2262
防有鵲巢	-11.2269
皋	-11.2272
芣	-11.2274
藟	-11.2274
慆	-11.2276
屆	-11.2277
瘨	-11.2278
冔	-11.2279
窒	-11.228
排	-11.2281
淵淵	-11.2284
諷誦	-11.2285
臧善也	-11.2285
枳	-11.2285
輯録輔氏曰	-11.2285
焞	-11.2286
蒼蒼	-11.2286
啻	-11.2287
蝎	-11.2287
銅	-11.2287
赤棠	-11.2289
虎豹	-11.2293
將仲子	-11.2296
宮室	-11.23
洪水	-11.2302
□□	-11.2303
從征役	-11.2315
晉文公	-11.2324
恩澤	-11.2326
淑善	-11.2327
蓑	-11.2336
廛	-11.2346
楰	-11.2348
駑	-11.2355
簟茀	-11.2355
魯桓公	-11.2357
雄狐	-11.2357
鮎	-11.2358
念爾祖	-11.2358
惙	-11.2358
瘉	-11.2359
㓂	-11.2359
濆	-11.236
誼	-11.236
繢	-11.2361
賣	-11.2361
擣	-11.2362
饟	-11.2365
城郭	-11.2369
阼階	-11.2371
帝乙	-11.2374
鷦	-11.2376
人亦有言	-11.2379
困窮	-11.2383
金飾	-11.2387
可想	-11.2397
服䖍云	-11.2399
賦而興也	-11.2403
媾	-11.2428
像	-11.243
豜	-11.2431
尨	-11.2433
脾	-11.2433
鱣鮪	-11.2435
淡	-11.2435
槖	-11.2436
憮	-11.2437
淠淠	-11.2437
𬒳	-11.2437
倨	-11.2437
洳	-11.2437
球	-11.2438
苛	-11.2439
鯇	-11.244
毛詩集解卷	-11.2442
饗燕	-11.2442
惸	-11.2443
禀	-11.2444
而訴之	-11.2447
匡衡	-11.2449
西階	-11.2484
百二十	-11.25
穎達	-11.2505
漆水	-11.2507
雜佩	-11.2507
軹	-11.2508
詠歌	-11.251
采采芣苢	-11.2511
幷	-11.2512
憂懼	-11.2512
蔦	-11.2512
籬	-11.2514
睂	-11.2514
狐狸	-11.2515
儦儦	-11.2518
儉嗇	-11.2518
祫祭	-11.2518
五章章四句	-11.2519
鮐	-11.2522
太王王季	-11.2522
旭	-11.2522
季氏	-11.2522
晝夜	-11.2523
釋訓云	-11.2524
儲	-11.2525
禮書云	-11.254
表記	-11.2564
娶妻	-11.2575
北狄	-11.2575
郝氏云	-11.2581
鐲	-11.2582
璊	-11.2595
煖	-11.2597
碎	-11.2597
殊不知	-11.2597
箾	-11.2598
三山李氏曰	-11.2599
簠	-11.26
孟姜	-11.2602
濊	-11.2603
脅驅	-11.2603
囷	-11.2604
央央	-11.2604
博物志	-11.2605
勤儉	-11.2612
太牢	-11.2612
危殆	-11.2613
立卒子	-11.2614
麰	-11.2614
私恩	-11.2626
來聘	-11.2647
柞櫟	-11.267
糲	-11.2673
誑	-11.2673
閨	-11.2676
我有嘉賔	-11.2676
豈不懐歸	-11.2676
繕	-11.2677
錞	-11.2678
詰	-11.2678
咺	-11.2678
邈	-11.2679
沾	-11.2679
日月星辰	-11.2679
肱	-11.2679
𧖟	-11.268
弧	-11.268
桓桓	-11.2682
遨	-11.2682
袞	-11.2682
删	-11.2683
撻	-11.2684
鑑	-11.2685
戚戚	-11.2687
黄耇	-11.2689
釋獸	-11.2701
仲秋	-11.2724
毳	-11.2726
翽翽	-11.2743
忉忉	-11.275
樛	-11.2753
愒	-11.2754
滕	-11.2756
謫	-11.2757
暖	-11.2758
赬	-11.2759
崔靈恩	-11.276
峙	-11.276
恬	-11.2761
寮	-11.2761
晤	-11.2763
菟	-11.2763
周禮司	-11.2764
盍	-11.2765
挺	-11.2765
穹窒	-11.2766
綌	-11.2767
鑠	-11.2767
穧	-11.2767
車舝	-11.2773
荘姜	-11.2773
重複	-11.2774
謝氏曰	-11.2775
萬壽	-11.2784
庶羞	-11.2785
隴西	-11.2786
管仲	-11.279
以後之詩	-11.2804
情狀	-11.2809
帑	-11.2836
蕡	-11.2837
叶麌韻	-11.2838
獲福	-11.2839
郤	-11.2839
羈	-11.284
歎辭	-11.284
禎	-11.2841
紓	-11.2843
髀	-11.2844
洞	-11.2844
七月流火	-11.2845
隹	-11.2845
尉	-11.2846
夜如何其	-11.2846
爇	-11.2847
赭	-11.2847
礿	-11.2847
平王東遷	-11.2847
蘞	-11.2847
虎皮	-11.2849
瞿瞿	-11.2849
癸	-11.2851
烕	-11.2852
壼	-11.2852
八寸	-11.2859
悔過	-11.2901
姆	-11.2917
滂	-11.2918
鄒忠𦙍	-11.292
嵩	-11.2925
發矢	-11.2925
痗	-11.2926
叠	-11.2926
芬香	-11.2926
掎	-11.2926
我心傷悲	-11.2928
徇	-11.2928
郇伯	-11.293
買	-11.2931
彭氏曰	-11.2931
酋	-11.2931
鷖	-11.2932
縫裳	-11.2932
承上文	-11.2933
紡	-11.2933
横渠	-11.2934
公尸燕飲	-11.2935
太史公	-11.2937
耒	-11.2937
侮慢	-11.2938
鴨	-11.2939
衣繡裳	-11.294
城隅	-11.294
而不自知	-11.2941
獫狁	-11.2942
兔絲	-11.2951
集傳比也	-11.2954
丘氏曰	-11.2958
匠	-11.2968
虞夏	-11.2971
幽州	-11.2978
侜	-11.2999
霽	-11.3001
寖	-11.3005
眡	-11.3008
帝謂文王	-11.301
瘏	-11.301
幽閒	-11.3011
豔	-11.3012
榛楛	-11.3013
畒	-11.3014
欣欣	-11.3014
怭	-11.3017
轄	-11.3018
喧	-11.3018
潨	-11.3018
㓗	-11.302
綠衣	-11.3022
矜寡	-11.3026
穆叔	-11.3041
薄姑	-11.3044
宣布	-11.3044
毛詩注疏卷	-11.3084
鷙	-11.3084
紼	-11.3086
羑里	-11.3089
務農	-11.3092
以禮自防	-11.3092
兢	-11.3094
綃	-11.3094
崧高	-11.3095
刋	-11.3096
稔	-11.3099
之遺風	-11.31
㤗	-11.31
可生食	-11.31
京兆	-11.3102
鷺羽	-11.3103
瓊華	-11.311
清濁	-11.3114
蔡叔	-11.3126
鄠縣	-11.3133
繼續	-11.3135
驪山	-11.3145
飛戾天	-11.3175
曳	-11.3176
蜃	-11.3179
廻	-11.318
臨川王氏曰	-11.318
一日不見	-11.3184
飢渴	-11.3184
戩	-11.3186
餴	-11.3188
纂	-11.319
周公攝政	-11.319
悔悟	-11.3193
瑀	-11.3196
覲禮	-11.3199
萬夀	-11.3202
二十八年	-11.3203
楊氏曰	-11.3206
脂膏	-11.3226
淫奔之詩	-11.3237
薰	-11.3259
幝	-11.3259
緄	-11.3261
脉	-11.3262
葱	-11.3264
彷	-11.3265
鍼	-11.3265
陶隠居	-11.3268
巖	-11.327
綺	-11.327
浹	-11.3271
隤	-11.3271
桴	-11.3274
佛	-11.3275
飲餞	-11.328
鳴蜩	-11.3281
九嬪	-11.3283
勉勉	-11.3288
翟羽	-11.3293
革路	-11.33
送尸	-11.3316
歸唁	-11.3319
衮衣	-11.3326
傅㑹	-11.3328
經㫖曰此	-11.3334
濈	-11.3342
吪	-11.3342
枸杞	-11.3346
歐陽氏修曰	-11.3349
瘵	-11.335
珈	-11.3352
哿	-11.3354
仄	-11.3354
綜	-11.3354
橫	-11.3355
跲	-11.3357
喉	-11.3359
檻泉	-11.336
坡	-11.3361
僊	-11.3362
楊園	-11.3363
荼毒	-11.3366
犧尊	-11.3367
驔	-11.3368
褖衣	-11.337
鸞刀	-11.337
腥	-11.3371
鳸	-11.3371
嗟嘆	-11.3383
楚詞	-11.3402
翹	-11.3429
。《	-11.343
藾	-11.3435
薨薨	-11.3436
素韠	-11.3438
摰	-11.3438
鮦	-11.344
胸	-11.3443
䘏	-11.3444
菘	-11.3444
武丁孫子	-11.3445
柰	-11.3445
幣帛	-11.3446
媯	-11.3446
騵	-11.3448
熇	-11.3448
夢夢	-11.3449
襢	-11.3451
鋤	-11.3451
䟦	-11.3452
婦寺	-11.3455
縣東南	-11.3462
丁寧	-11.3462
夷矛	-11.3468
强暴	-11.3479
雜記	-11.3486
據此則	-11.3487
幪	-11.3525
惴惴	-11.3525
繾綣	-11.3528
悴	-11.353
塡	-11.353
三百五篇	-11.353
悸	-11.3531
無可奈何	-11.3532
晛	-11.3533
忡忡	-11.3533
賓之初筵	-11.3533
遒	-11.3534
顙	-11.3534
駓	-11.3535
坦	-11.3535
忱	-11.3536
縛	-11.3536
蓆	-11.3539
官之長	-11.354
售	-11.3542
龡	-11.3546
見本篇	-11.355
名物疏	-11.355
第四章	-11.3552
先嗇	-11.3553
講武	-11.3563
迎牲	-11.3565
殄絶	-11.3581
刺宣王也	-11.3585
功烈	-11.3585
申培說	-11.3607
不妒忌	-11.3608
麾	-11.3614
郃	-11.3615
宁	-11.3616
襌	-11.3616
搜	-11.3617
鄒氏泉曰	-11.3618
芽	-11.3618
昵	-11.3619
麄	-11.3619
盆	-11.3619
荏染	-11.3619
簀	-11.3621
系	-11.3621
撃	-11.3623
巴	-11.3624
泚	-11.3625
鷙鳥	-11.3625
交交桑扈	-11.3625
騂牡	-11.3626
六轡在手	-11.3627
淪胥	-11.3629
蠭	-11.363
叶紙韻	-11.3631
狃	-11.3632
鳥隼	-11.3632
太宰	-11.3633
蝕	-11.3635
勸勉	-11.3639
迷亂	-11.3655
鐘磬	-11.3664
叶支韻	-11.3669
貪殘	-11.3678
澄	-11.37
失其常	-11.3703
蕃衍	-11.3705
啍	-11.3706
螢	-11.3706
興而比也	-11.3707
麒	-11.3707
鞶	-11.3708
菴	-11.3708
菁	-11.3708
閎	-11.371
唐棣之華	-11.3711
雛	-11.3711
瞿	-11.3711
掊克	-11.3712
架	-11.3712
東門之池	-11.3712
超	-11.3713
認	-11.3713
痒	-11.3714
追琢	-11.3714
靈沼	-11.3714
拜稽首	-11.3715
峩	-11.3716
櫛	-11.3717
䋲	-11.3717
丞	-11.3718
扶蘇	-11.3719
〇朱氏曰	-11.3719
棟	-11.3719
鍛	-11.3722
甘瓠	-11.3722
棄爾輔	-11.3727
群臣	-11.3732
災害	-11.374
蝤蠐	-11.3746
夫婦之道	-11.3752
搔	-11.3795
恁地	-11.3795
偲	-11.3799
女曰雞鳴	-11.3799
擁	-11.38
蜜	-11.3803
鞗	-11.3804
淢	-11.3804
斾斾	-11.3804
營營	-11.3804
徐鉉	-11.3805
欽欽	-11.3805
乾餱	-11.3805
穂	-11.3806
殪	-11.3807
狂惑	-11.3809
絆	-11.3811
釋詁	-11.382
新昬	-11.3831
四牡騑騑	-11.3881
呂氏祖謙曰	-11.3884
燼	-11.3885
四牡騤騤	-11.3887
小心翼翼	-11.3888
詈	-11.3888
炊	-11.389
駾	-11.3891
女子有行	-11.3891
㦧	-11.3891
無所歸咎	-11.3893
綂	-11.3893
戰戰兢兢	-11.3893
紒	-11.3893
芋	-11.3894
吕祖謙	-11.3897
靦	-11.3897
嬖妾	-11.3898
驪姬	-11.3898
松蘿	-11.3899
酋矛	-11.3901
夙興夜寐	-11.3903
泰誓	-11.3905
窘	-11.3906
封禪	-11.3906
麻麥	-11.3908
我心憂傷	-11.3909
蜘蛛	-11.3911
旨酒	-11.3913
堯典	-11.3914
士昏禮	-11.3917
鐘鼔	-11.3953
草木疏	-11.3969
三年之喪	-11.3969
歗	-11.3971
罦	-11.3974
寰宇記	-11.3976
漢地理志	-11.3978
駸	-11.3979
剖	-11.3982
映	-11.3983
慤	-11.3983
殉	-11.3983
疲	-11.3985
督	-11.3988
灑	-11.3989
暨	-11.3989
菁莪	-11.399
僾	-11.399
餌	-11.399
椐	-11.3991
舛	-11.3994
夣	-11.3997
毳冕	-11.3998
粢盛	-11.4
樊光	-11.4002
戴勝	-11.4005
形勢	-11.4009
3	-11.4054
荆蠻	-11.4057
六家詩名物疏卷	-11.4069
囯	-11.4072
軰	-11.4073
皤	-11.4075
陾	-11.4075
平王之孫	-11.4075
豈不懷歸	-11.4075
邦家之光	-11.4079
線	-11.4079
薅	-11.4079
液	-11.4079
悠悠我思	-11.408
燧	-11.408
繅	-11.4081
憂心悄悄	-11.4082
𤨏	-11.4083
箸	-11.4083
玊	-11.4083
訣	-11.4085
陛	-11.4087
噉	-11.4088
萹	-11.4093
漕邑	-11.4096
斝	-11.4097
分陜	-11.4155
一家之	-11.4159
痯	-11.4164
敔	-11.4165
衽	-11.4167
杵	-11.4167
縈	-11.4167
諶	-11.4167
稜	-11.4168
孔頴逹	-11.417
槐	-11.417
芃	-11.4171
怓	-11.4171
冐	-11.4172
農夫之慶	-11.4173
淒	-11.4174
螓	-11.4174
殻	-11.4175
諺	-11.4176
鞭	-11.4177
繚	-11.4178
紛紛	-11.4178
區區	-11.4182
刑罰	-11.4184
舒遲	-11.4185
綱領	-11.419
輔佐	-11.419
阿衡	-11.4191
罰爵	-11.4192
衛宏	-11.4203
旻	-11.4231
啜	-11.4253
肌	-11.4263
楮	-11.4263
臘	-11.4263
楘	-11.4263
寁	-11.4263
諾	-11.4265
武人東征	-11.4265
憾	-11.4265
豈曰無衣	-11.4266
鹵	-11.4268
㓕	-11.4269
需	-11.427
釋器云	-11.4271
輾	-11.4271
恂	-11.4272
頤	-11.4272
捍	-11.4273
場圃	-11.4273
翛	-11.4275
鍜	-11.4276
萬壽無疆	-11.4278
滔	-11.4356
爻	-11.4357
濛	-11.4357
兔爰	-11.4357
瞻卬昊天	-11.4359
職方氏	-11.436
發乎情	-11.436
緼	-11.4361
寂	-11.4363
陳啟源曰	-11.4363
穰穰	-11.4364
蛄	-11.4364
顚倒	-11.4364
嶞	-11.4365
遣使臣	-11.4366
螻	-11.4366
騎	-11.4367
蠧	-11.4367
貿	-11.4368
祓除	-11.4368
黮	-11.4368
鷄鳴	-11.437
忮害	-11.4371
萬億及秭	-11.4371
衡笄	-11.4373
伴奐	-11.4378
禘祫	-11.4379
振羽	-11.4379
漘	-11.4456
崒	-11.4457
慾	-11.4458
熹	-11.4458
兢兢業業	-11.4459
無思百憂	-11.4459
正考甫	-11.4459
稀	-11.4459
愴	-11.446
籊	-11.446
肴	-11.446
猨	-11.4462
瞻彼淇奥	-11.4463
董仲舒	-11.4463
諦	-11.4464
祺	-11.4465
終朝采	-11.4465
枋	-11.4466
搢	-11.4469
楷	-11.4469
偹	-11.4469
輅	-11.447
淇澳	-11.447
聚斂	-11.447
嫁於諸侯	-11.447
騂剛	-11.4474
炤	-11.4479
斧斨	-11.4498
陔	-11.4541
滎陽	-11.4543
木槿	-11.4545
祋	-11.4551
曜	-11.4552
囂	-11.4555
怳	-11.4555
梁輈	-11.4556
毚	-11.4556
靑	-11.4557
蔽膝	-11.4557
覬	-11.4559
媛	-11.4559
悍	-11.456
朽	-11.456
邸	-11.4561
車下李	-11.4561
皂	-11.4561
餓	-11.4561
霧	-11.4562
圭璋	-11.4562
譎	-11.4563
宛其死矣	-11.4564
藤	-11.4565
宦	-11.4565
喓喓	-11.4566
圎	-11.4566
牂牂	-11.4568
雰	-11.4571
僛	-11.4571
齊魯韓	-11.4595
坊記	-11.4599
千五百	-11.4613
載馳載驅	-11.4647
襋	-11.4649
漾	-11.4655
梯	-11.4656
以洽百禮	-11.4657
觽	-11.4657
鰋鯉	-11.4658
疷	-11.4658
齊民要術	-11.4659
果臝	-11.4659
誚	-11.466
蝑	-11.466
尰	-11.4661
鬈	-11.4661
憲憲	-11.4661
濮氏曰	-11.4661
黷	-11.4662
昕	-11.4662
袵	-11.4663
鄗	-11.4665
沖沖	-11.4669
逸豫	-11.4679
駜	-11.4692
濔	-11.4746
陶隱居	-11.475
紆	-11.4753
紐	-11.4754
倘	-11.4756
京兆府	-11.4756
蹟	-11.4758
應劭	-11.4758
醒	-11.4759
銷	-11.4759
憔悴	-11.476
膽	-11.4761
莱	-11.4762
閽	-11.4762
究究	-11.4764
惓惓	-11.4765
曵	-11.4766
菅茅	-11.4767
螢火	-11.4767
台背	-11.4767
黔	-11.4767
䑓	-11.4771
以供祭祀	-11.4771
潰潰	-11.4771
筐筥	-11.4772
之通稱	-11.4798
崧	-11.4827
丙穴	-11.4845
罿	-11.4847
邦家之基	-11.4851
蹌	-11.4852
于嗟麟兮	-11.4854
煽	-11.4855
憶	-11.4855
巖巖	-11.4855
歷	-11.4856
江漢之滸	-11.4857
燬	-11.4857
二子乘舟	-11.4858
洄	-11.4859
謷	-11.4859
岨	-11.4859
沈湎	-11.4859
彈	-11.486
天子燕諸侯	-11.486
制禮作樂	-11.4861
南陔白華華黍	-11.4862
趯趯	-11.4863
輓	-11.4863
圭瓉	-11.4863
媵妾	-11.4868
祀文王於明堂	-11.4874
昆蟲	-11.4876
潘父	-11.4879
:	-11.4942
赳赳	-11.4951
膍	-11.4954
岷	-11.4955
涌	-11.4958
戶	-11.4959
裝	-11.496
朴	-11.4961
篚	-11.4962
三百六十	-11.4962
鳯皇	-11.4962
冡宰	-11.4963
佃	-11.4964
王于興師	-11.4964
純亦不已	-11.4964
楛	-11.497
囬	-11.497
洛誥	-11.497
綏安也	-11.4973
粉米	-11.4973
賤妾	-11.498
嚴坦叔	-11.5054
鋂	-11.5055
耉	-11.5057
杕	-11.5058
凄凄	-11.506
烖	-11.506
菫	-11.5061
豈伊異人	-11.5062
鬬	-11.5063
田畯至喜	-11.5064
蕨薇	-11.5065
閔周也	-11.5065
菊	-11.5065
瀼	-11.5066
采卷耳	-11.5066
鏃	-11.5066
郁李	-11.5069
兊	-11.5069
髻	-11.5071
塒	-11.5072
蚩	-11.5073
抒	-11.5073
庫門	-11.5151
茁	-11.5157
彼君子兮	-11.5159
瑲	-11.5161
仳	-11.5161
襭	-11.5162
贖	-11.5162
陸德明	-11.5164
靳	-11.5165
瞭	-11.5165
憩	-11.5166
蠜	-11.5167
丱	-11.5168
瞽矇	-11.5169
住	-11.5172
鵩	-11.5172
盎	-11.5175
能官人	-11.5178
營宫室	-11.5178
細腰	-11.5181
奈	-11.5216
仲春之月	-11.522
荼苦菜	-11.5252
叶先韻	-11.5261
陿	-11.5264
倭	-11.5265
臄	-11.5266
嬀	-11.5268
葱珩	-11.5268
鬩	-11.527
殱	-11.527
鵓	-11.5271
窈窕淑女	-11.5272
瘥	-11.5273
蜋	-11.5275
行下孟反	-11.5275
閼	-11.5276
媟	-11.5276
頥	-11.5277
鹹	-11.5278
針	-11.5278
東門之池可以漚	-11.528
樽	-11.5281
拚	-11.5281
齡	-11.5282
芥	-11.5283
教國子	-11.5283
麞	-11.5284
竅	-11.5289
鵒	-11.5291
㽔	-11.531
肖	-11.5312
為大武之	-11.5327
謂他人父	-11.5367
甓	-11.5369
禚	-11.5371
逄	-11.5373
齊子歸止其從	-11.5375
印	-11.5376
廱	-11.5376
豋	-11.5376
荍	-11.5377
讀詩質疑卷	-11.5378
蒯	-11.5378
嫉妬	-11.5379
慿	-11.5379
性情之正	-11.538
胡庭芳曰	-11.538
芭	-11.538
栖	-11.5381
召康公戒成王	-11.5381
謚	-11.5382
縳	-11.5383
浦	-11.5383
氿	-11.5384
啼	-11.5385
虎賁	-11.5385
麐	-11.5387
呶	-11.5388
胥相也	-11.539
束帛	-11.5398
嶧	-11.5477
閏	-11.5478
程伯休父	-11.5479
沂	-11.548
柟	-11.5481
冷	-11.5482
鬒	-11.5484
兎罝	-11.5485
貯	-11.5485
稻粱	-11.5488
媒妁	-11.5488
叅	-11.5489
雚	-11.5489
霄	-11.549
煒	-11.549
俔	-11.5491
點	-11.5491
獺	-11.5493
陳少南	-11.5494
疵	-11.5494
四牡孔阜	-11.5495
龎	-11.5497
騢	-11.5497
緝緝	-11.5498
報以介福	-11.5498
幟	-11.5502
鸋鴂	-11.5507
涇渭	-11.5523
讒佞	-11.5558
隰有萇楚	-11.5582
鵝	-11.5586
荏菽	-11.5586
祖妣	-11.5588
椹	-11.559
愔	-11.5591
我有嘉賓	-11.5592
俚	-11.5592
掖	-11.5595
纊	-11.5595
沓沓	-11.5596
適異國	-11.5596
吕氏祖謙曰	-11.5597
賞罰	-11.5597
瞻仰	-11.5597
萬福攸同	-11.5597
揣	-11.5598
幭	-11.5598
僮僮	-11.5598
蜼	-11.5599
獮	-11.5599
寗	-11.5599
念彼共人	-11.56
褊急	-11.5601
嬛	-11.5602
常棣之華	-11.5604
稂莠	-11.5605
佶	-11.5608
棃	-11.5615
延蔓	-11.5649
芩	-11.5692
踽踽	-11.5693
姚氏舜牧曰	-11.5699
嶺	-11.5699
冊	-11.57
鞘	-11.57
羣公先正	-11.5702
壙	-11.5702
憂心孔疚	-11.5703
紏	-11.5704
滺	-11.5704
挈壺氏	-11.5704
自求多福	-11.5704
鬄	-11.5705
彼君子女	-11.5706
頍	-11.5706
伉	-11.5706
瑰	-11.5707
四方之綱	-11.5707
噎	-11.5708
喘息	-11.5709
檍	-11.571
碑	-11.571
豔妻	-11.571
悶	-11.571
賈公彦	-11.5712
猜	-11.5712
闥	-11.5713
偉	-11.5714
楅衡	-11.5716
鱒魴	-11.5719
所從來	-11.5737
韎韋	-11.5806
其帶伊絲	-11.5806
篆	-11.5807
奰	-11.5807
集于苞栩	-11.5807
紃	-11.5809
猪	-11.5811
𫉬	-11.5812
鷕	-11.5812
劉瑾	-11.5813
凡百君子	-11.5814
瘳	-11.5815
枤杜	-11.5816
凛	-11.5816
玼	-11.5817
拇	-11.5817
愿	-11.5817
奄有四方	-11.5818
能循法度	-11.5819
瓣	-11.582
人而無儀	-11.582
糾糾	-11.5821
狐貍	-11.5823
蔞蒿	-11.5823
昄	-11.5823
騅	-11.5824
執轡如組	-11.5825
嘲	-11.5826
犢	-11.5828
膟	-11.5831
踖踖	-11.5833
駽	-11.5833
豆籩	-11.5835
沮漆	-11.5847
橡	-11.5913
狠	-11.5923
鮑	-11.5923
潝潝	-11.5923
漙	-11.5925
中心是悼	-11.5926
鸒	-11.5926
蔣	-11.5926
泣血	-11.5927
踧踧	-11.5928
艽	-11.5929
復扶又反	-11.5929
騧	-11.593
籩豆有踐	-11.593
稟	-11.5931
峯	-11.5931
軛	-11.5932
黍稷稻粱	-11.5932
秸	-11.5932
祲	-11.5933
鸝	-11.5934
聦	-11.5935
熲	-11.5936
耔	-11.5936
拮据	-11.5936
秭	-11.5937
傞	-11.5938
康誥	-11.5938
飶	-11.594
笛	-11.594
蹐	-11.5943
李迂仲	-11.5987
嶭	-11.6026
藜	-11.6029
燠	-11.6032
軧	-11.6035
藹	-11.6036
郡國志	-11.6038
為異餘同	-11.6041
筩	-11.6042
襜	-11.6043
瞻彼洛矣維水泱泱	-11.6044
悠悠蒼天此何人哉	-11.6044
佌佌	-11.6045
維予與女	-11.6046
筭	-11.6047
現	-11.6047
錐	-11.6048
筦	-11.6048
玦	-11.6049
祭之明日	-11.6049
子孫保之	-11.605
觚	-11.605
苾	-11.6054
蠃	-11.6055
綴旒	-11.606
翩翩者鵻	-11.6152
瀟	-11.6153
紳	-11.6155
漼	-11.6155
呦呦	-11.6155
芮良夫	-11.6157
範	-11.6157
縠	-11.6158
饉	-11.6158
苽	-11.6159
坂	-11.6159
蟋蟀在堂	-11.616
以引以翼	-11.6162
惇	-11.6164
芒芒	-11.6164
誰適與謀	-11.6165
秃	-11.6165
鼒	-11.6166
惡聲之鳥	-11.6167
言觀其旂	-11.6168
整飭	-11.6168
澀	-11.6169
穜	-11.6169
燋	-11.617
燔炙	-11.6172
剡	-11.6173
觜	-11.6183
㕓	-11.6264
陳藏器	-11.6267
兖	-11.6268
桵	-11.6268
攀	-11.6272
軟	-11.6272
鄢	-11.6273
漠	-11.6273
襮	-11.6277
觴	-11.6277
濃	-11.6277
匈奴	-11.6278
韵	-11.6278
篡	-11.6281
仆	-11.6283
螈	-11.6288
􁈍	-11.6298
頌禱之詞	-11.6301
衮冕	-11.6319
李廵	-11.6337
悁	-11.6378
掤	-11.6382
諗	-11.6384
睍睆	-11.6385
季氏本曰	-11.6386
魴鱮	-11.6386
秘	-11.6387
𡵨	-11.6387
王應麟	-11.6388
蘡	-11.6389
宼虐	-11.639
燕燕于飛	-11.639
炳	-11.6391
痡	-11.6391
塲	-11.6392
鉶羮	-11.6392
崖	-11.6392
恚	-11.6393
𤓰瓞	-11.6394
厹	-11.6394
瘦	-11.6395
謝疊山曰	-11.6395
邀	-11.6395
斜	-11.6397
瀌瀌	-11.6397
騋牝三千	-11.6398
觱沸	-11.6398
促織	-11.6401
葭蘆	-11.6443
棠棣	-11.6454
徐鍇	-11.647
摯而有别	-11.6501
于嗟乎騶虞	-11.6505
郝敬云	-11.6506
卞	-11.6506
翶	-11.6506
嗸	-11.6508
耆定爾功	-11.6508
戁	-11.6508
蛟	-11.6509
弨	-11.651
拳拳	-11.651
帳	-11.651
賙	-11.651
穀梁傳	-11.6511
甡	-11.6511
憬	-11.6512
添	-11.6512
嗚	-11.6512
振振君子歸哉歸哉	-11.6512
灾	-11.6512
我徂東山慆慆不歸我來自東零雨其濛	-11.6513
乃如之人	-11.6514
知我者謂我心憂不知我者謂我何求	-11.6514
委蛇委蛇	-11.6514
變風始作	-11.6515
縐絺	-11.6516
歆羡	-11.6516
黜陟	-11.6517
劒	-11.6517
擯	-11.6517
睿	-11.6517
纒綿	-11.6524
絞	-11.6526
安成劉	-11.655
噳	-11.6619
耇	-11.662
魁	-11.6622
芙蕖	-11.6623
逝將去女適彼樂	-11.6625
暘	-11.6626
鼖	-11.6626
鮀	-11.6627
逈	-11.6627
儕	-11.6627
虗	-11.6629
我良人如可贖兮人百其身	-11.6629
媚于天子	-11.663
今夕何夕	-11.663
顒	-11.663
臨淄	-11.6631
魃	-11.6631
鴉	-11.6632
賈逵	-11.6632
癙	-11.6632
魚麗于罶	-11.6633
胾	-11.6633
輢	-11.6634
欠	-11.6634
不瑕有害	-11.6635
箋正義曰箋以	-11.6636
隷	-11.6636
蚩蚩	-11.6636
黜申后	-11.6638
膾	-11.664
两	-11.664
組綬	-11.664
衢	-11.6641
黍稷方華	-11.6643
棣棣	-11.6646
綯	-11.665
悞	-11.6652
藹藹	-11.6739
秔	-11.6743
今我不樂	-11.6747
効	-11.675
蝮	-11.6751
陸氏佃曰	-11.6753
鼫	-11.6753
埆	-11.6754
蹇	-11.6755
東萊呂氏曰	-11.6756
醓醢	-11.6756
蘝	-11.6756
不得終養	-11.6756
𥙷	-11.6756
逾	-11.6758
薛君章句	-11.6759
古公亶父	-11.6759
肻	-11.676
念我獨兮	-11.6762
蠨蛸	-11.6765
我生之初	-11.6857
鼙	-11.6863
檵	-11.6868
柎	-11.6869
汔	-11.687
殁	-11.6871
尹吉甫美宣王也	-11.6875
好攻戰	-11.6875
嫄	-11.6877
負蠜	-11.6877
惽	-11.6877
朝直遥反	-11.6877
漢之廣矣不可泳思江之永矣不可方思	-11.6879
汗	-11.6879
兕觥其觩	-11.6881
退食自公	-11.6881
貟	-11.6883
廵狩	-11.6883
櫄	-11.6885
髧	-11.6887
驒	-11.6887
爕	-11.6889
焫	-11.6892
晦翁	-11.6893
勞心忉忉	-11.6994
粼	-11.6996
大典缺卷	-11.6996
咢	-11.6996
昨	-11.6999
雝雝喈喈	-11.6999
逋	-11.7
唇	-11.7
層	-11.7002
郯	-11.7003
蒻	-11.7005
岐豐之地	-11.7005
咽	-11.7005
入此室處	-11.7006
毛如字鄭	-11.7007
慇慇	-11.7009
曺	-11.7009
菡	-11.7011
弈	-11.7013
斤斤	-11.7014
糝	-11.7016
茶	-11.7028
受命作周	-11.7031
百一十	-11.7086
朱子不詳其世	-11.7095
酸棗	-11.7117
幕	-11.712
輔廣云	-11.712
終逺兄弟	-11.7121
楀	-11.7122
糯	-11.7123
檠	-11.7123
闐闐	-11.7123
疊山謝氏曰	-11.7127
鹿鳴四牡皇皇者華	-11.7128
穰	-11.7128
慆慆	-11.7129
咽咽	-11.713
驩	-11.7133
如釵股	-11.7133
玈	-11.7133
凄	-11.7134
播厥百榖	-11.7138
告利成	-11.7138
罛	-11.7139
畟畟	-11.7143
鵂鶹	-11.7146
斚	-11.724
綅	-11.725
是用大諫	-11.725
秉心塞淵	-11.7254
頏	-11.7255
迪	-11.7255
靡有孑遺	-11.7257
隔句韻	-11.7257
祕	-11.7258
蒨	-11.7259
錦衣狐裘	-11.7259
民之攸塈	-11.7259
湛湛露斯	-11.726
六尺六寸	-11.726
儐	-11.7261
菡萏	-11.7262
驈	-11.7262
纛	-11.7262
犴	-11.7265
蝘蜓	-11.7266
日有食之	-11.7267
㢘	-11.7267
䔩	-11.7268
懆懆	-11.7271
糗	-11.7272
主臣謹奉教	-11.7275
開封府	-11.7381
酆	-11.7381
忖	-11.7382
齧	-11.7382
巘	-11.7383
勩	-11.7385
逍遙	-11.7386
彚	-11.7386
聯	-11.7387
兾	-11.7387
不一而足	-11.7388
怲	-11.7388
奨	-11.739
淠	-11.739
輟	-11.739
洌	-11.739
溷	-11.739
銶	-11.7391
呌	-11.7391
霤	-11.7391
盩	-11.7392
鴥彼飛隼	-11.7393
不顯其光	-11.7394
霂	-11.7398
驄	-11.7398
霡	-11.7399
㐮	-11.74
嘅	-11.7507
蹢	-11.7508
絮	-11.7508
薈蔚	-11.7508
峱	-11.7509
已焉哉天實為之謂之何哉	-11.7512
兗	-11.7513
癉	-11.7514
掊	-11.7516
儉不中禮	-11.7516
裯	-11.7517
永言配命	-11.7517
茺蔚	-11.7517
陀	-11.7518
籠	-11.7518
緵	-11.7518
方伯連帥	-11.7518
螗蜩	-11.7519
􁈹	-11.7519
王志長曰	-11.752
椎	-11.752
閫	-11.7521
鳯翔府	-11.7522
晴	-11.7522
臥	-11.7523
与	-11.7524
椇	-11.7527
泭	-11.7528
范逸齋	-11.753
耿耿	-11.7532
扤	-11.7537
湜湜	-11.7538
樕	-11.7545
薈	-11.7639
駘	-11.7639
砠	-11.7644
􁂋	-11.7646
闍	-11.7647
㡳	-11.7647
胃	-11.7647
遮	-11.7648
鬚	-11.7648
劍	-11.7648
按原本	-11.7651
賡	-11.7651
啇	-11.7652
畽	-11.7652
賽	-11.7653
師尚父	-11.7653
泱泱	-11.7654
櫻	-11.7654
茫	-11.7655
朂	-11.7656
酈	-11.7656
執訊獲醜	-11.7656
臾	-11.7656
晁	-11.7657
顓頊	-11.7658
斟	-11.7659
薸	-11.7659
龐	-11.7661
王事多難	-11.7661
褕翟	-11.7662
輊	-11.7663
攫	-11.7667
矢如破	-11.7672
猿	-11.7672
稠	-11.7773
奬	-11.7773
顧瞻周道	-11.7778
按此篇永樂	-11.7783
居岐之陽	-11.7783
煙	-11.7785
茸	-11.7785
筏	-11.7786
絢	-11.7786
鯿	-11.7787
祓	-11.7787
鞃	-11.7787
捐	-11.7788
崇侯虎	-11.779
墍	-11.779
讁	-11.779
蓞	-11.7791
瑣瑣	-11.7793
長數寸	-11.7793
二子乗舟	-11.7794
譲	-11.7795
蠡	-11.7795
訌	-11.7795
熯	-11.7797
栽	-11.7797
祀事孔明	-11.7799
穄	-11.78
漈	-11.7801
復周公之宇	-11.7802
皎皎白駒	-11.7806
地里志	-11.7918
紘	-11.7918
郁	-11.7919
荐	-11.792
彪	-11.792
増釋許氏曰	-11.7921
糠	-11.7921
㫄	-11.7922
各奏爾能	-11.7922
龠	-11.7922
襟	-11.7922
瘡	-11.7923
倩	-11.7923
貼	-11.7924
柔逺能邇	-11.7924
喩	-11.7925
愍	-11.7925
將安將樂	-11.7926
繻	-11.7926
自北而南	-11.7927
闞	-11.7927
紊	-11.7927
輯録通釋曰	-11.7928
腊	-11.7928
窟	-11.7929
懦	-11.7929
詎	-11.7929
霾	-11.793
隳	-11.793
涓	-11.793
渰	-11.7931
彼美淑姬可與晤	-11.7932
茜	-11.7932
桑間濮上	-11.7935
先祖是皇	-11.7938
歸功於	-11.7947
淄	-11.805
飮	-11.8056
兌	-11.8059
湝湝	-11.806
季札觀樂	-11.8061
鵴	-11.8062
換	-11.8062
旂旐央央	-11.8063
赤舄几几	-11.8063
紺	-11.8063
鏡	-11.8063
蓛	-11.8063
懆	-11.8064
炰烋	-11.8065
竽	-11.8065
黄氏櫄曰	-11.8065
睹	-11.8066
皃	-11.8067
紑	-11.8068
媿	-11.8069
伴	-11.807
蜢	-11.807
天文志	-11.8071
之子于征	-11.8072
莝	-11.8072
燕婉之求	-11.8077
慉	-11.8077
畇畇	-11.8079
薕	-11.8186
瑲瑲	-11.8193
髳	-11.8196
式遏寇虐	-11.8199
莧	-11.8199
朱氏道行曰	-11.82
山隂陸氏曰	-11.82
季本云	-11.82
訧	-11.8201
狂童之狂	-11.8202
鐏	-11.8202
晰	-11.8202
魗	-11.8202
沫	-11.8202
不敢以告人	-11.8202
自土沮漆	-11.8203
射夫既同	-11.8204
旻天疾威	-11.8204
栭	-11.8204
辦	-11.8205
正考父	-11.8205
三分天下有其二	-11.8205
踊躍	-11.8207
鶘	-11.8207
鏜	-11.8207
爰居爰處	-11.8207
抜	-11.8208
屎	-11.8208
為于偽反	-11.8209
轉予于恤	-11.8209
騤騤	-11.8209
窠	-11.8211
㪚	-11.8211
見賢遍反	-11.8212
稑	-11.8218
数	-11.8218
蚱	-11.8219
櫬	-11.8327
遟	-11.8337
嘌	-11.8339
閻	-11.8342
􁉁	-11.8342
斫	-11.8343
如臨深淵	-11.8344
公尸來燕	-11.8344
臨其穴惴惴其慄彼蒼者天	-11.8345
幦	-11.8346
菔	-11.8346
黽	-11.8346
蕮	-11.8346
團	-11.8346
謐	-11.8346
擔	-11.8347
衣錦褧衣	-11.8347
鰋鮎	-11.8347
溱與洧	-11.8348
脈	-11.8348
兑	-11.8348
嚻	-11.835
倖	-11.835
虆	-11.8351
腯	-11.8351
既醉既飽	-11.8351
粘	-11.8351
毀	-11.8352
柲	-11.8353
参	-11.8355
郢	-11.8355
不醉無歸	-11.8356
陟降庭止	-11.8357
孝孫有慶	-11.8358
攬	-11.8358
叶職韻	-11.836
趍	-11.8361
鞙鞙	-11.8361
唈	-11.8362
黄佐云	-11.848
萼	-11.848
蘄	-11.8484
方叔率止	-11.8485
李時珍	-11.8486
詵詵	-11.8486
蒼蠅之聲	-11.8486
闉	-11.8487
習習谷風	-11.8487
湄	-11.8488
孥	-11.8488
鵞	-11.8488
時物之變	-11.8489
蜎蜎	-11.8489
好呼報反	-11.8489
䳺	-11.849
徨	-11.849
綏我思成	-11.8491
小宗伯	-11.8491
覇	-11.8492
個	-11.8492
衛女思歸	-11.8493
以意逆志	-11.8493
居東二年	-11.8494
歉	-11.8494
彼姝者子	-11.8495
艶	-11.8497
揮	-11.8497
諠	-11.8498
于胥樂兮	-11.8498
今我來思	-11.8499
挃	-11.85
羸	-11.85
顧炎武	-11.8502
簿	-11.8512
咥	-11.8513
蠐螬	-11.8584
顒顒	-11.8624
絛	-11.8626
􁀆	-11.8627
虢石父	-11.8631
刺晉昭公也	-11.8632
妘	-11.8633
肜	-11.8634
蝘	-11.8634
攪	-11.8634
展誠也	-11.8634
筓	-11.8634
下上其音	-11.8635
㑹齊侯于	-11.8635
每懐靡及	-11.8635
翯	-11.8635
櫂	-11.8637
醇	-11.8637
酳	-11.8638
醹	-11.8639
維子之故	-11.8639
洋	-11.8639
子仲之子	-11.8639
醬	-11.8639
謝氏枋得曰	-11.864
悛	-11.864
王錫韓侯	-11.8641
嘵嘵	-11.8641
浼	-11.8641
逌	-11.8641
妯	-11.8642
苻	-11.8643
敢不拜	-11.8643
鼐	-11.8645
烘	-11.8647
燐	-11.8648
驛驛	-11.8648
勻	-11.8649
璂	-11.8652
苣	-11.8661
桃之夭夭	-11.8775
袺	-11.8781
嶓	-11.8783
如履薄冰	-11.8784
鏄	-11.8784
女子有行逺父母兄弟	-11.8785
蕑	-11.8787
弗躬弗親	-11.8787
呱	-11.879
翠	-11.879
蓐	-11.8792
彧彧	-11.8792
堤	-11.8792
驁	-11.8793
不自我先不自我後	-11.8793
迥	-11.8795
仞	-11.8795
無算爵	-11.8795
拓	-11.8796
以雅以南	-11.8797
報以介福萬壽無疆	-11.8797
熄	-11.8797
楅	-11.8798
新安胡氏曰	-11.8799
式序在位	-11.88
驅逆之車	-11.88
詩卷第	-11.8804
螉	-11.8807
雱	-11.8923
孳	-11.8929
􁀙	-11.8929
不濡其翼	-11.893
杯	-11.8932
惠此中國	-11.8932
有兔斯首	-11.8933
刑于寡妻	-11.8933
不得養其父母	-11.8933
蜤	-11.8933
澶	-11.8934
幠	-11.8935
懠	-11.8935
憒	-11.8936
樂且有儀	-11.8937
阮徂共	-11.8938
犂	-11.8939
椿	-11.8939
椽	-11.894
大名府	-11.894
切磋琢磨	-11.894
饁彼南畝	-11.894
价	-11.894
斵	-11.894
俞	-11.8941
聳	-11.8942
壓	-11.8942
仲氏任	-11.8942
柔嘉維則	-11.8942
不解于位	-11.8943
鋸	-11.8943
為狄所滅	-11.8943
交龍為旂	-11.8943
樂而不淫	-11.8944
飧	-11.8944
貸	-11.8944
季孫行父	-11.8944
詘	-11.8944
頖	-11.8947
畦	-11.8947
煁	-11.8949
瑤	-11.8951
適子之館兮還予授子之粲兮	-11.8951
糜	-11.8953
迃	-11.8953
既取我子	-11.8955
鶩	-11.8958
枹	-11.9081
梂	-11.9083
不期而㑹	-11.9085
棸	-11.9087
饇	-11.9087
王事靡盬憂我父母	-11.9088
穠	-11.9088
喚	-11.9089
蓁蓁	-11.909
抱朴子	-11.909
企	-11.909
民亦勞止汔	-11.909
蚣	-11.9091
侣	-11.9092
璫	-11.9093
恢	-11.9094
用之鄉人	-11.9094
婦人謂嫁曰歸	-11.9094
鎧	-11.9095
軀	-11.9095
猥	-11.9098
薌	-11.9098
匪報也永以為好也	-11.9099
斷章取義	-11.91
惨	-11.91
肈	-11.91
駕彼四牡	-11.9102
俶載南畝	-11.9104
瓝	-11.9104
成王不敢康	-11.9105
自古有年	-11.9108
蠑	-11.9109
生不如死	-11.911
鷗	-11.9113
彼澤之陂有蒲	-11.9154
瀾	-11.9233
恰	-11.9238
倌	-11.9239
濰	-11.9243
扱	-11.9243
不遑啓處	-11.9243
熒	-11.9245
如霆如雷	-11.9246
每懷靡及	-11.9247
澤及四海	-11.9247
遞	-11.9248
擲	-11.9248
芙蓉	-11.9248
每有良朋	-11.9249
和樂且湛	-11.9249
涂	-11.9249
俁俁	-11.9249
皇王烝哉	-11.925
慍	-11.925
呻	-11.925
曰歸曰歸	-11.9251
碧	-11.9251
鑊	-11.9252
簪	-11.9252
彌爾性	-11.9252
煢	-11.9253
無非無儀	-11.9254
沖	-11.9255
鴂	-11.9255
甿	-11.9256
何𤣥子曰	-11.9256
侐	-11.9256
小球大球	-11.9257
武王烝哉	-11.9258
逷	-11.9258
㳫	-11.9259
壠	-11.9261
實函斯活	-11.9264
鶪	-11.9279
叶真韻	-11.932
;	-11.9376
鯋	-11.9386
訝	-11.94
烟	-11.9401
蔦與女蘿	-11.9402
何彼襛矣	-11.9402
森	-11.9402
𤾉	-11.9403
臠	-11.9403
絰	-11.9404
吕氏家塾讀詩記卷第	-11.9404
糦	-11.9404
唪唪	-11.9404
菶菶萋萋	-11.9405
蹻	-11.9406
槲	-11.9406
無縱詭隨	-11.9406
級	-11.9406
羔裘豹袪	-11.9407
峨	-11.9407
王后烝哉	-11.9408
杲	-11.9408
浥	-11.9408
鰱	-11.9408
杜子春	-11.9409
𢷬	-11.941
我心寫兮	-11.941
宜民宜人	-11.9411
令儀令色	-11.9411
以其祖配	-11.9413
倅	-11.9414
貛	-11.9414
我聞有命	-11.9415
敬爾威儀	-11.9416
名山大川	-11.9419
饛	-11.9422
蔕	-11.9423
芴	-11.9424
仔	-11.9424
嗿	-11.9425
甘如薺	-11.9425
4	-11.9541
蜚	-11.9553
楡	-11.9557
詩經世本古義卷	-11.9559
贏	-11.956
絅	-11.956
兵革不息	-11.9562
敞	-11.9562
匝	-11.9563
食野之苹	-11.9565
恌	-11.9565
藕	-11.9565
蟲飛薨薨	-11.9565
牣	-11.9565
淚	-11.9565
縞衣綦巾	-11.9565
無思不服	-11.9566
㤙	-11.9567
春日遲遲	-11.9567
緊	-11.9568
狥	-11.9568
如蜩如螗	-11.9571
琛	-11.9571
槮	-11.9571
礱	-11.9571
邅	-11.9572
甯	-11.9572
琅	-11.9572
幻	-11.9573
虫	-11.9573
竹書紀年	-11.9573
疧	-11.9574
罪人斯得	-11.9574
杝	-11.9576
吿	-11.9576
肆于時夏	-11.9577
勗	-11.9578
鸎	-11.9579
谿	-11.9579
盪	-11.9579
訕	-11.9579
羶	-11.958
獻羔祭韭	-11.9583
未堪家多難	-11.9584
蛣	-11.9584
文武成康之	-11.961
5	-11.9703
甗	-11.9718
踟蹰	-11.9723
洵美且	-11.9723
朄	-11.9723
隄	-11.9723
懮	-11.9725
軝	-11.9725
糟	-11.9726
隩	-11.9727
韐	-11.9728
怖	-11.9728
雉鳴求其牡	-11.9729
運斗樞	-11.9729
羗	-11.9729
樂得淑女	-11.9729
娠	-11.9729
皦	-11.973
上去通韻	-11.973
㴱	-11.973
倬彼雲漢	-11.973
政煩賦重	-11.973
䪐	-11.973
桑中要我乎上宫送我乎淇之上矣	-11.973
斲	-11.973
不績其麻	-11.9731
蠙	-11.9732
値	-11.9733
薊	-11.9733
隻	-11.9733
還定安集	-11.9733
誡	-11.9733
宜兄宜弟	-11.9733
躡	-11.9734
槄	-11.9734
垝	-11.9734
虓	-11.9735
䲭	-11.9736
何斯違斯	-11.9736
鑄	-11.9737
攸介攸止	-11.9737
婆	-11.9737
幡	-11.9738
援神契	-11.9738
麴	-11.9738
蕚	-11.9739
呈	-11.9739
濟濟辟王	-11.974
㫖酒思柔	-11.9743
㦲	-11.9746
膂	-11.9746
維彼碩人實勞我心	-11.9746
先薦寢廟	-11.9747
鵃	-11.9747
褓	-11.9748
無毁我室	-11.9751
百世不遷	-11.9752
9	-11.987
6	-11.9871
8	-11.9872
7	-11.9872
褰	-11.9882
睘睘	-11.9887
郝敬曰	-11.9887
劇	-11.9888
亦集爰止	-11.989
顓	-11.9892
洿	-11.9892
佇	-11.9894
毓	-11.9894
鉅	-11.9895
瀏	-11.9895
鬲	-11.9895
蘈	-11.9896
謳	-11.9896
鮥	-11.9896
烜	-11.9896
齍	-11.9897
有頍者弁	-11.9897
蕙	-11.9897
鼓瑟鼓琴	-11.9897
采蕭穫菽	-11.9898
中原有菽	-11.9898
兮遭我乎峱	-11.9899
藇	-11.99
誕降嘉種	-11.99
膘	-11.99
大風有隧	-11.99
禓	-11.9901
床	-11.9902
弇	-11.9902
鈔	-11.9903
蓏	-11.9903
雨雪霏霏	-11.9904
毁廟之主	-11.9904
婣	-11.9904
率由舊章	-11.9904
不敢怠遑	-11.9905
旄牛尾	-11.9905
幩	-11.9905
八鸞鏘鏘	-11.9905
為龍為光	-11.9906
泊	-11.9906
吼	-11.9907
闡	-11.9908
有力如虎	-11.9908
逓	-11.9908
恠	-11.991
欽定四庫全書經部三	-11.991
纘戎祖考	-11.9911
克昌厥後	-11.9912
鄫	-11.9915
鵯	-11.9916
祝祭于祊	-11.9918
蠮	-11.9923
國小而迫	-12.0055
憖	-12.0057
灃	-12.0059
難乃旦反	-12.0062
將翺將翔	-12.0063
透	-12.0064
無冬無夏	-12.0064
約軧錯衡	-12.0064
驛	-12.0065
漳	-12.0066
仡仡	-12.0066
橛	-12.0067
心之憂矣曷維其	-12.0067
絹	-12.0068
上帝甚蹈	-12.0068
神降之福	-12.0068
右手秉翟	-12.007
儔	-12.0071
型	-12.0072
虞芮質成	-12.0072
樔	-12.0072
䰞	-12.0074
將恐將懼	-12.0074
職思其居	-12.0074
郝仲輿	-12.0074
梴	-12.0076
漑	-12.0077
鯶	-12.0077
撋	-12.0078
叶藥韻	-12.0078
椘	-12.0078
庤	-12.0078
薖	-12.0082
㚄	-12.0082
捫	-12.0082
徒御不驚	-12.0083
鴝	-12.0084
既多受祉	-12.0232
服其命服	-12.0233
鷃	-12.0235
􁈞	-12.0235
師干之試	-12.0235
揷	-12.0236
陳啓源曰	-12.0237
匹夫匹婦	-12.0238
矣期我乎	-12.0239
様	-12.0239
苟亦無然	-12.0239
俾也可忘	-12.0239
中心貺之	-12.024
褻	-12.024
輯録解頥曰	-12.0241
宋桓夫人	-12.0241
武宿夜	-12.0241
阼	-12.0241
鶹	-12.0242
蓱	-12.0242
文王陟降在帝左右	-12.0242
詩補傳卷	-12.0242
腔	-12.0243
似續妣祖	-12.0243
閩	-12.0244
陟降厥士	-12.0244
侔	-12.0244
率由羣匹	-12.0245
日監在兹	-12.0245
嫩	-12.0245
雋	-12.0245
餳	-12.0246
禆	-12.0246
蜙	-12.0246
顧我則笑	-12.0247
㭬	-12.0248
奐	-12.0248
講武類禡	-12.0249
温柔敦厚	-12.025
歧	-12.0252
挫	-12.0254
帖	-12.0256
毛傳興也朱註同	-12.04
日月告凶	-12.0406
慅	-12.0408
自西徂東	-12.0409
役使不均	-12.041
正大夫離居	-12.0411
潞	-12.0411
㪺	-12.0411
终	-12.0412
戡	-12.0412
我徂東山	-12.0412
課	-12.0414
痻	-12.0414
狁	-12.0415
時靡有爭	-12.0415
䔰	-12.0415
畞	-12.0416
闈	-12.0416
徼	-12.0416
言私其豵	-12.0418
嗟乎不承權輿	-12.0418
狭	-12.0419
寃	-12.0421
寧莫之懲	-12.0421
依其在京	-12.0421
播厥百穀	-12.0422
眩	-12.0422
烝畀祖妣	-12.0422
腦	-12.0423
高辛氏	-12.0423
澆	-12.0424
任賢使能	-12.0424
郊祀后稷以配天	-12.0424
烽	-12.0425
嶇	-12.0426
鍚	-12.0426
王躬是保	-12.0427
毛詩稽古編卷	-12.0427
介爾景福	-12.0429
我疆我理	-12.0429
何福不除	-12.0429
昀	-12.0431
月恭校上總纂	-12.0432
景命有僕	-12.0432
大庖不盈	-12.0434
禕	-12.0434
蔀	-12.0451
0	-12.0573
笰	-12.058
帝王世紀	-12.0585
臺笠緇撮	-12.0585
韎韐有奭	-12.0587
弢	-12.0588
耋	-12.0589
陟南岡	-12.059
妍	-12.0593
鎭	-12.0593
闔	-12.0594
罬	-12.0594
奄受北國	-12.0594
靡室靡家	-12.0595
茄	-12.0595
教成之祭	-12.0595
訾	-12.0596
叫	-12.0596
輾轉反側	-12.0596
稹	-12.0596
徤	-12.0597
鴶	-12.0597
庶無罪悔	-12.0598
縝	-12.0598
匪降自天	-12.0599
諄	-12.06
蠐	-12.0601
酌之用匏	-12.0601
㮚	-12.0602
鴒	-12.0603
俘	-12.0603
胖	-12.0603
珕	-12.0604
亘	-12.0604
朋酒斯饗	-12.0606
瘣	-12.0606
工祝致告	-12.0607
蚓	-12.0608
縂	-12.0611
淇園之竹	-12.0611
薫	-12.0611
允王保之	-12.0614
姥	-12.0765
醓	-12.0766
明馮復京撰	-12.0768
六月徂暑	-12.0769
鷯	-12.0769
綫	-12.077
髙丈餘	-12.077
陸氏璣曰	-12.0771
慙	-12.0771
在河之洲	-12.0772
模	-12.0772
威儀技藝	-12.0772
梀	-12.0772
未知孰是	-12.0772
衘	-12.0773
郕	-12.0774
迓	-12.0774
睡	-12.0774
纏	-12.0775
造舟為梁	-12.0775
鴽	-12.0775
謟	-12.0776
鱅	-12.0776
蜺	-12.0776
娓	-12.0776
蹤	-12.0776
搤	-12.0776
弓矢斯張	-12.0776
如岡如陵	-12.0777
求賢審官	-12.0777
魚在在藻	-12.0777
王室如燬	-12.0777
燕朋友故舊	-12.0777
鱓	-12.0778
荁	-12.0778
粻	-12.0778
罽	-12.0779
拯	-12.0779
妻子好合	-12.0779
如琢如磨	-12.078
穽	-12.078
餤	-12.078
璆	-12.0781
繄	-12.0781
揵	-12.0781
不長夏以革	-12.0783
檾	-12.0785
理或然也	-12.0787
鷽	-12.0789
爓	-12.0789
儀式刑	-12.0789
畷	-12.0796
螘	-12.08
誰謂荼苦	-12.0835
臬	-12.0945
悒	-12.0948
萯	-12.0952
菶	-12.0953
絇	-12.0955
東徙渡河	-12.0956
禫	-12.0956
洮	-12.0956
􁀾	-12.0957
㳟	-12.0958
王氏應麟曰	-12.0959
嗷	-12.096
址	-12.0961
宗子維城	-12.0961
喟	-12.0962
涔	-12.0962
陸氏徳明曰	-12.0965
䳕	-12.0965
祀先王先公	-12.0965
靖共爾位	-12.0965
恍	-12.0966
氛	-12.0966
侗	-12.0966
䦧	-12.0966
塜	-12.0966
釵	-12.0967
乍	-12.0967
思樂泮水薄采其	-12.0967
莤	-12.0968
神嗜飲食	-12.0969
不大聲以色	-12.0969
盲	-12.0969
渒	-12.0969
周道如砥	-12.0971
升自西階	-12.0971
在南山之陽	-12.0971
徊	-12.0974
禘其祖之所自出	-12.0975
豻	-12.0976
黯	-12.0978
右序有周	-12.0979
邛	-12.1129
彼美孟姜	-12.1139
顔如舜華	-12.1141
萬二千五百	-12.1142
郝氏敬曰	-12.1142
銑	-12.1143
其樂只且	-12.1145
殃	-12.1145
暄	-12.1145
榎	-12.1148
我姑酌彼金罍	-12.1148
潢	-12.1149
酣	-12.1149
腴	-12.115
𣏌	-12.115
受爵不讓	-12.1151
彿	-12.1151
嬉	-12.1151
素衣朱襮	-12.1152
堆	-12.1152
禾麻菽麥	-12.1152
撓	-12.1152
藐	-12.1152
詣	-12.1153
日就月將	-12.1153
熠	-12.1153
執豕于牢	-12.1153
貃	-12.1154
獻豜于公	-12.1154
昆吾夏桀	-12.1154
踴	-12.1154
嗟我婦子	-12.1154
彼交匪敖	-12.1155
無聲無臭	-12.1156
硬	-12.1156
湥	-12.1156
榭	-12.1156
訃	-12.1157
莫往莫來	-12.1157
鵂	-12.1157
並坐鼓瑟	-12.1158
誹	-12.1159
掠	-12.116
犆	-12.1161
蠍	-12.1162
蜣	-12.1162
匐	-12.1163
聮	-12.1163
踦	-12.1164
瀋	-12.1167
蒠	-12.1168
無有後艱	-12.1168
蟠	-12.1169
積行累功	-12.1327
詵	-12.1331
揔	-12.1333
諏謀度詢	-12.1336
泂	-12.1336
慇	-12.1337
以那為首	-12.1337
狸	-12.1337
鷢	-12.1338
覊	-12.1339
帝省其山	-12.1339
無已大康	-12.134
式燕以敖	-12.134
戈與祋	-12.1341
弘	-12.1341
潧	-12.1341
叔孫穆子	-12.1341
月離于畢	-12.1342
賈誼新書	-12.1342
芝	-12.1342
媚于庶人	-12.1342
憂深思逺	-12.1344
賚我思成	-12.1344
宐	-12.1344
胡氏一桂曰	-12.1344
墝	-12.1344
莫之敢指	-12.1345
長張丈反	-12.1345
滓	-12.1345
如切如磋	-12.1345
綵	-12.1345
矰	-12.1346
發彼有的	-12.1346
不識不知順帝之則	-12.1346
械	-12.1346
逝者其耋	-12.1346
職思其外	-12.1347
柔惠且直	-12.1347
温温恭人	-12.1348
軼	-12.1348
覡	-12.1348
汪	-12.1349
或燔或炙	-12.135
率場啄粟	-12.135
壟	-12.1351
飲之食之教之誨之命彼後車謂之載之	-12.1351
我躬不閲遑恤我後	-12.1352
遵養時晦	-12.1354
峰	-12.1354
䜟	-12.1354
蒤	-12.1354
韣	-12.1354
佸	-12.1355
瑜	-12.1356
片	-12.1358
母也天只不諒人只	-12.1358
喜怒哀樂	-12.1359
􁊈	-12.1362
楙	-12.1367
中唐有甓	-12.153
范氏祖禹曰	-12.1531
撩	-12.1534
殞	-12.1534
萸	-12.1535
襺	-12.1535
韗	-12.1537
視爾如荍	-12.1537
九域志	-12.1537
瓢	-12.1538
澁	-12.1538
室人入又	-12.1538
如蠻如髦	-12.1539
胡寧忍予	-12.1539
拆	-12.1539
聾	-12.154
敺	-12.154
崑	-12.154
冺	-12.154
翮	-12.1541
𦵏	-12.1541
葳	-12.1542
粥	-12.1542
廂	-12.1542
靡哲不愚	-12.1542
彼之園爰有樹檀	-12.1542
駢	-12.1543
謖	-12.1543
涕零如雨	-12.1543
暉	-12.1544
蛬	-12.1545
莭	-12.1546
擘	-12.1546
冉	-12.1546
轢	-12.1547
慧	-12.1548
自羊徂牛	-12.1548
皐	-12.1548
年九十有五	-12.1549
好賢如緇衣	-12.155
忻	-12.1551
擢	-12.1551
耑	-12.1552
汨	-12.1553
甕	-12.1553
公尸嘉告	-12.156
轊	-12.1728
滴	-12.173
懰	-12.173
餕	-12.1731
枤	-12.1732
春秋繁露	-12.1733
擕	-12.1734
悽	-12.1735
詩序補義卷	-12.1736
愽	-12.1736
满	-12.1737
玁	-12.1738
詩三百一言以蔽之曰思無邪	-12.174
藁	-12.1741
摹	-12.1742
素絲五紽	-12.1742
河間獻王	-12.1743
蔈	-12.1743
食桑葚	-12.1743
恝	-12.1744
是詩三章皆賦也	-12.1744
竇	-12.1744
嘽	-12.1745
鳥隼曰旟	-12.1745
艮	-12.1746
左手執籥	-12.1746
眸	-12.1746
蟪	-12.1747
碏	-12.1747
懿厥哲婦	-12.1748
瀉	-12.1749
餾	-12.175
陳氏祥道	-12.1752
以永今朝	-12.1753
笑語卒獲	-12.1756
、	-12.1916
鄒肇敏曰	-12.193
帯	-12.1934
翺	-12.1934
娱	-12.1935
靡神不舉	-12.1935
殲	-12.1935
尗	-12.1936
羣黎百姓	-12.1936
淘	-12.1937
慚	-12.1937
降觀于桑	-12.1937
日居月諸	-12.194
茱	-12.194
縦	-12.1942
為鬼為蜮	-12.1942
髙渠彌	-12.1942
寺少卿嚴虞惇撰	-12.1943
个	-12.1944
蟘	-12.1944
覧	-12.1944
郭景純	-12.1944
子兮子兮	-12.1945
炫	-12.1945
瓶	-12.1946
疢	-12.1947
艷	-12.1947
燦	-12.1948
鍳	-12.195
大侯既抗	-12.195
詮	-12.195
綏萬邦屢豐年	-12.1951
幢	-12.1952
持盈守成	-12.1952
酲	-12.1952
中田有廬	-12.1953
侏	-12.1955
助我舉柴	-12.1955
杜元凱	-12.1956
禮儀卒度	-12.1957
殤	-12.1958
菽大豆也	-12.196
絿	-12.1961
稗	-12.1962
當依元本改正	-12.2121
皇輿表	-12.2136
其虚其邪既亟只且	-12.2139
闓	-12.214
莵	-12.2141
展我甥兮	-12.2145
錫我百朋	-12.2146
銖	-12.2147
期逝不至	-12.2148
叔于田乘乘	-12.2148
柝	-12.2148
譽髦斯士	-12.2148
麑	-12.2148
樂而不淫哀而不傷	-12.2149
有其義而亡其辭	-12.2149
脰	-12.215
今官園種之	-12.2151
洵直且侯	-12.2152
㛰	-12.2152
塚	-12.2155
芄	-12.2155
戱	-12.2156
終善且有	-12.2157
漦	-12.2157
另	-12.2158
無易由言	-12.2158
遭家不造	-12.2158
南東其畝	-12.2158
不盈一匊	-12.2158
􁈡	-12.2159
以文害辭	-12.216
惠然肯來	-12.2161
亦聿既耄	-12.2161
珧	-12.2162
杳	-12.2163
厎	-12.2163
覿	-12.217
劬	-12.235
迤	-12.2351
鴛	-12.2351
嗟行之人胡不比焉人無兄弟胡不佽焉	-12.2354
辰彼碩女	-12.2356
榱	-12.2357
何用不監	-12.2357
陳氏鵬飛曰	-12.2359
湆	-12.236
卻	-12.236
公徒三萬	-12.2361
翣	-12.2361
駹	-12.2362
兮不狩不獵胡瞻爾庭有縣	-12.2362
維憂用老	-12.2363
我客戾止	-12.2363
昂	-12.2363
帝作邦作對	-12.2364
饙	-12.2364
涎	-12.2364
貈	-12.2365
十萬曰億	-12.2365
示慈惠	-12.2365
幄	-12.2366
敵王所愾	-12.2366
天命𤣥鳥降而生商	-12.2366
經始勿亟	-12.2366
靡聖管管	-12.2366
蕰	-12.2366
婭	-12.2366
維嶽降神生甫及申	-12.2366
蒂	-12.2367
踞	-12.2368
𤣥衣纁裳	-12.2368
自堂徂基	-12.2368
欝	-12.2368
廬陵羅氏曰	-12.2369
鑰	-12.237
涸	-12.237
公孫碩膚	-12.237
匍	-12.2372
宄	-12.2372
駝	-12.2374
臡	-12.2374
酌以大斗	-12.2375
㷀	-12.2375
樂具入奏	-12.2375
褥	-12.2375
曄	-12.2377
壝	-12.2378
一稃二米	-12.2379
盻	-12.238
視我邁邁	-12.238
劑	-12.2381
盥	-12.2384
魚在于沼	-12.2387
明昭有周	-12.2389
院	-12.2558
樲	-12.2564
蝀	-12.2568
山有苞櫟	-12.257
悝	-12.2572
其葉湑湑	-12.2573
姿	-12.2573
逖	-12.2574
姤	-12.2574
彼茁者葭	-12.2575
有洸有潰	-12.2575
鱉	-12.2575
縐	-12.2576
僤	-12.2576
諍	-12.2576
靡不有初鮮克有終	-12.2577
迋	-12.2577
涕泗滂沱	-12.2577
汋	-12.2578
湯孫奏假	-12.2579
教猱升木	-12.258
剏	-12.258
零雨其濛	-12.2581
載飛載止	-12.2582
挾四鍭	-12.2582
十月蟋蟀入我牀下	-12.2583
沈氏守正曰	-12.2584
虔	-12.2584
忡	-12.2584
甽	-12.2584
保艾爾後	-12.2585
率彼曠野	-12.2585
軞	-12.2585
王在在鎬	-12.2585
克定厥家	-12.2585
哀哀父母生我劬勞	-12.2586
扣	-12.2586
珮	-12.2587
煎	-12.2589
湧	-12.2589
岌	-12.2589
君子攸躋	-12.259
溯	-12.259
减	-12.259
躭	-12.259
嘗其㫖否	-12.259
鎒	-12.2591
或耘或耔	-12.2592
肚	-12.2593
扆	-12.2594
三昭三穆	-12.2596
鬌	-12.2607
羀	-12.2787
婉兮孌	-12.2793
惺	-12.2794
嚶	-12.2795
山脊曰岡	-12.2795
宂	-12.2795
噰	-12.2796
犖	-12.2797
佩其象揥	-12.2799
陳饋八簋	-12.2799
俛	-12.2799
蝦	-12.28
泠	-12.28
適子之館	-12.28
暬	-12.2802
不稼不穡胡取禾三百	-12.2802
册	-12.2802
篧	-12.2802
研	-12.2803
匪其止共	-12.2803
酢主人主人	-12.2804
鶴鳴于九臯	-12.2804
姨	-12.2804
崙	-12.2804
劉執中曰	-12.2805
諮	-12.2805
淅	-12.2805
蔭	-12.2806
郟	-12.2806
不夙則莫	-12.2806
四鍭如樹	-12.2807
紜	-12.2807
鷅	-12.2807
作邑于豐	-12.2807
淸	-12.2807
亦流于淇	-12.2807
遘	-12.2807
汎彼柏舟	-12.2807
龔	-12.2808
栲山樗	-12.2808
容兮遂兮垂帶悸兮	-12.2809
小渚曰沚	-12.2809
終風且霾	-12.2809
迮	-12.2809
陶復陶穴	-12.2809
無遏爾躬	-12.281
秕	-12.281
堰	-12.281
嫗	-12.281
無封靡于爾邦	-12.281
籌	-12.281
有空大谷	-12.281
蟦	-12.2811
平陳與宋	-12.2811
彖	-12.2811
朝生暮死	-12.2811
鯤	-12.2811
悪	-12.2811
奮伐荆楚	-12.2811
既見君子云何不樂	-12.2811
塊	-12.2812
白圭之玷	-12.2812
鴛鴦在梁戢其左翼	-12.2812
苧	-12.2813
阡	-12.2813
凡今之人莫如兄弟	-12.2813
聖敬日躋	-12.2813
靶	-12.2816
元戎十乗	-12.2816
謝曼卿	-12.2816
遊于北園	-12.2817
縵	-12.2817
刲	-12.2829
抄	-12.2831
有蒲與荷	-12.2928
藋	-12.3011
內	-12.3016
畮	-12.3018
瀍	-12.3019
攜手同行	-12.3021
處昌慮反	-12.3023
陟彼北山言采其杞	-12.3023
烝衎烈祖	-12.3023
何辜于天我罪伊何	-12.3027
伯氏吹壎	-12.3027
瘍	-12.3028
汰	-12.3028
壹發五豝	-12.3029
鐓	-12.3029
襛	-12.303
誌	-12.303
蘦	-12.3031
鸛鳴于垤	-12.3031
嘻	-12.3031
炭	-12.3031
珪	-12.3032
思須與漕	-12.3032
貽我握椒	-12.3033
纖	-12.3033
腆	-12.3033
贍	-12.3033
嵬	-12.3033
屈此羣醜	-12.3034
疢如疾首	-12.3034
屛	-12.3034
縊	-12.3034
百卉具腓	-12.3034
窔	-12.3035
其桐其椅	-12.3035
狂夫瞿瞿	-12.3036
豊	-12.3036
煌	-12.3036
于豳斯館	-12.3036
我征聿至	-12.3036
載飛載揚	-12.3037
去入通韻	-12.3037
嫚	-12.3037
老夫灌灌	-12.3037
評	-12.3038
徘	-12.3038
淆	-12.3039
帝立子生商	-12.304
傴	-12.3041
在宗載考	-12.3041
匪居匪康	-12.3042
彜	-12.3043
神保是饗	-12.3046
禜	-12.3049
稲	-12.3053
酏	-12.3055
朱康流曰	-12.3248
瓴	-12.325
胞	-12.3253
姣	-12.3253
繂	-12.3255
緍	-12.3256
訿	-12.3256
好樂無荒	-12.3258
周雖舊邦其命維新	-12.3259
序賔以賢	-12.326
人之為言胡得焉	-12.326
簨	-12.326
譸	-12.3261
有條有梅	-12.3261
瀹	-12.3261
携	-12.3261
嶩	-12.3261
禳	-12.3262
巽	-12.3262
讟	-12.3263
實始翦商	-12.3263
荊	-12.3263
叡	-12.3265
在宫肅肅在廟	-12.3265
手如柔荑	-12.3266
彤弓一彤矢百	-12.3266
娯	-12.3266
鏑	-12.3267
村	-12.3267
載起載行	-12.3268
眇	-12.3268
鞬	-12.3268
煥	-12.3268
欹	-12.3269
歌南山有臺笙由儀	-12.3269
蛆	-12.3269
神保聿歸	-12.327
肘	-12.327
烝在栗薪	-12.327
抉	-12.3272
陘	-12.3272
莆	-12.3273
閔管蔡之失道	-12.3274
琥	-12.3275
邕	-12.3275
澘	-12.3276
建旐設旄	-12.3276
肇基王迹	-12.3277
永世克孝	-12.328
木桃木李	-12.3281
烓	-12.3282
永錫爾類	-12.3283
葺	-12.3284
逶	-12.3487
元命包云	-12.3487
麻衣如雪	-12.3489
式歌且舞	-12.3491
朝食于株	-12.3493
彼茁者蓬	-12.3493
疽	-12.3495
緘	-12.3495
陳師鞠旅	-12.3496
倐	-12.3496
麛	-12.3496
萄	-12.3497
南山崔崔	-12.3497
鳺	-12.3497
灋	-12.3498
偕偕士子	-12.3498
閤	-12.35
椒聊且逺條且	-12.35
犁	-12.35
款	-12.3501
弰	-12.3501
相竊妻妾	-12.3501
弗問弗仕	-12.3501
胤	-12.3501
涿	-12.3502
尊君親上	-12.3502
枏	-12.3503
順彼長道	-12.3503
惴	-12.3503
有馮有翼	-12.3503
棄予如遺	-12.3503
張元岵曰	-12.3504
臝	-12.3505
舍命不渝	-12.3505
朞	-12.3505
蚍	-12.3507
上帝臨女無貳爾心	-12.3507
殫	-12.3508
蟹	-12.3508
掣	-12.3509
栻	-12.351
于胥斯原	-12.3511
既庶既繁	-12.3511
鼐鼎及鼒	-12.3512
自彼成康奄有四方	-12.3513
以辭害志	-12.3514
飪	-12.3515
鏐	-12.3515
驖	-12.3516
嚌	-12.3516
神保是格	-12.3517
庵	-12.3525
散無友紀	-12.3731
鮫	-12.3734
依我磬聲	-12.3737
懷哉懷哉曷月予還歸哉	-12.3737
天錫公純嘏	-12.3737
宙	-12.3737
皇猶煌煌也	-12.3738
荂	-12.374
儻	-12.3741
梏	-12.3741
日居月諸胡迭	-12.3742
遫	-12.3742
孔寧儀行父	-12.3743
些	-12.3743
自我不見于今三年	-12.3744
茭	-12.3744
㝷	-12.3744
詩總聞卷	-12.3744
以永終譽	-12.3745
禹平水土	-12.3745
抱衾與裯	-12.3746
景員維河	-12.3747
魚勞則尾赤	-12.3747
女轉棄予	-12.3748
鞠為茂草	-12.3748
圈	-12.3748
慣	-12.3748
苞有三蘖	-12.3748
惡烏路反	-12.375
簷	-12.375
棺	-12.375
如履薄氷	-12.375
戎成不退	-12.375
琮	-12.3751
貂	-12.3751
儗	-12.3752
子之不淑云如之何	-12.3752
封建厥福	-12.3752
擥	-12.3753
具曰予聖誰知烏之雌雄	-12.3753
全身逺害	-12.3757
苨	-12.376
為酒為醴烝畀祖妣以洽百禮	-12.3761
詩類提要	-12.3762
虋	-12.3766
鹿麌麌	-12.3766
躔	-12.3771
􁈏	-12.3771
彼澤之陂	-12.3881
蚳	-12.398
彼人是哉子曰何其	-12.3984
園有桃其實之殽	-12.3984
載色載笑	-12.3987
蔏	-12.3987
逡	-12.3988
懣	-12.399
式燕且喜	-12.399
終焉允臧	-12.3991
出其東門有女如雲	-12.3991
詖	-12.3991
裳錦褧裳	-12.3992
締	-12.3992
蘺	-12.3992
椅桐梓漆	-12.3993
脗	-12.3993
䊷	-12.3994
顧予烝嘗湯孫之將	-12.3994
約之閣閣	-12.3994
揖我謂我儇	-12.3994
鮧	-12.3994
塋	-12.3995
樂爾妻帑	-12.3995
興居無節號令不時	-12.3995
􁉂	-12.3995
瓀	-12.3996
既載清酤	-12.3996
戎醜攸行	-12.3996
腢	-12.3997
怯	-12.3997
𨼆	-12.3997
豎	-12.3997
麇	-12.3997
㵼	-12.3998
鄱	-12.3998
彀	-12.3998
醪	-12.3998
悠哉悠哉	-12.3998
舘	-12.3998
徐氏常吉曰	-12.3998
乱	-12.3998
啗	-12.3999
爍	-12.3999
邃	-12.4
民莫不榖我獨何害	-12.4
為梟為鴟	-12.4
忤	-12.4
帙	-12.4
弗慮弗圖	-12.4001
芮鞫之即	-12.4002
佾	-12.4002
蘢	-12.4003
蚻	-12.4003
崎	-12.4004
則異室死則同穴	-12.4004
陕	-12.4004
顆	-12.4005
姡	-12.4005
埜	-12.4005
御纂詩義折中卷	-12.4006
赫赫南仲薄伐西戎	-12.4006
設都于禹之績	-12.4007
𤣥衮及黼	-12.4008
餒	-12.4008
投畀豺虎	-12.401
信彼南山維禹甸	-12.401
四黄既駕	-12.4011
㧘	-12.4019
𤱔	-12.4238
誶	-12.4238
隒	-12.4245
蜥	-12.4246
掦	-12.4247
戛	-12.4248
胡然而天也胡然而帝也	-12.4248
㨿	-12.4249
睍	-12.425
𥚹	-12.425
居常與許復周公之宇	-12.4251
言笑晏晏	-12.4251
滄	-12.4251
厥聲載路	-12.4251
蜾	-12.4251
楊栁依依	-12.4251
六月食鬱及薁	-12.4252
豐年多黍多稌	-12.4252
燄	-12.4252
實覃實訏	-12.4253
葡	-12.4253
炕	-12.4254
㵎	-12.4254
是詩三章皆比而賦之也	-12.4254
窈窕淑女君子好逑	-12.4254
扼	-12.4254
彼交匪紓	-12.4255
眠	-12.4255
揚之水不流束薪	-12.4256
煦	-12.4256
荎	-12.4256
疫	-12.4257
鍊	-12.4257
戻	-12.4257
騧驪是驂	-12.4258
帝命式于九圍	-12.4258
姫	-12.4259
鄼	-12.4259
刄	-12.426
湊	-12.4261
威儀棣棣不可選也	-12.4262
声	-12.4263
縻	-12.4264
既伯既禱	-12.4265
勰	-12.4266
笏	-12.4268
彼公堂稱彼兕觥	-12.427
蛹	-12.4272
蔥	-12.4501
义	-12.4501
四國無政不用其良	-12.4503
鍪	-12.4505
緅	-12.4505
聊可與娛	-12.4507
三英粲兮	-12.4507
稊	-12.4508
紝	-12.4508
以速諸舅	-12.4509
琳	-12.4509
謂予不信有如皦	-12.451
詩傳大全卷	-12.4511
有豕白蹢	-12.4511
􁂍	-12.4511
如彼飛蟲時亦弋獲	-12.4512
吸	-12.4512
副笄六珈	-12.4512
謔浪笑敖	-12.4513
詩經疏義㑹通	-12.4513
如何如何忘我實多	-12.4513
躓	-12.4514
錢氏天錫曰	-12.4514
我思古人實獲我心	-12.4514
霞	-12.4515
鄜	-12.4515
葹	-12.4515
不忮不求何用不臧	-12.4515
崔豹古今注	-12.4516
魅	-12.4516
猋	-12.4516
脇	-12.4517
掬	-12.4518
耤	-12.4518
寥	-12.4518
鷲	-12.4519
拭	-12.452
瞻彼日月悠悠我思	-12.452
蛤	-12.452
俾臧俾嘉	-12.452
詀	-12.452
嘽嘽焞焞	-12.4521
徹田為糧	-12.4522
梢	-12.4522
陲	-12.4522
豸	-12.4522
善頌善禱	-12.4522
裸	-12.4523
有駜駜彼乗	-12.4523
􁆵	-12.4523
汴	-12.4524
詒厥孫謀以燕翼子	-12.4524
𣗳	-12.4524
驎	-12.4525
不競不絿	-12.4526
宜岸宜獄	-12.4526
殯	-12.4527
臛	-12.4527
牷	-12.453
奎	-12.4533
俾民心闋	-12.4533
蹊	-12.4534
耊	-12.4534
黿	-12.4535
狨	-12.454
凰	-12.4766
霓	-12.4768
尚寐無吪	-12.477
沇	-12.4774
僩	-12.4778
彬	-12.4779
焭	-12.4779
無貳無虞上帝臨女	-12.4779
泉源在左淇水在右	-12.478
閹	-12.478
明何楷撰	-12.4781
維南有箕不可以簸	-12.4781
蚊	-12.4782
噦	-12.4782
于彼新田于此菑	-12.4782
婿	-12.4782
象箾南籥	-12.4782
雖則如燬父母孔邇	-12.4782
紗	-12.4783
中心好之曷飲食之	-12.4783
近附近之近	-12.4784
夏之日冬之夜	-12.4784
浙	-12.4784
駐	-12.4785
樻	-12.4785
􁈛	-12.4785
明明上天照臨下土	-12.4785
藩垣屏翰	-12.4785
櫓	-12.4786
刼	-12.4786
澧	-12.4786
芉	-12.4787
駿發爾私	-12.4787
截彼淮浦王師之所	-12.4787
歌魚麗笙由庚歌南有嘉魚笙崇丘	-12.4787
磐	-12.4787
既庭且碩	-12.4787
饜	-12.4787
峽	-12.4788
不坼不副	-12.4788
如沸如羮	-12.4788
履帝武敏歆	-12.4788
娑	-12.4788
闘	-12.4788
俾予靖之	-12.4788
篠	-12.4788
眊	-12.4789
恙	-12.4789
半圭曰璋	-12.4789
罙	-12.4789
虞芮質厥成	-12.4789
陟則在巘	-12.4791
舟人之子熊羆是裘	-12.4791
祀四嶽河海	-12.4791
粃	-12.4791
阨	-12.4793
無競維人四方其訓之	-12.4793
懐哉懐哉曷月予還歸哉	-12.4794
下莞上簟	-12.4794
靚	-12.4794
肓	-12.4794
昉	-12.4796
絀	-12.4796
磯	-12.4796
予又集于蓼	-12.4797
潸	-12.4798
莫怨具慶	-12.4799
努	-12.48
人渉卬否	-12.48
讖	-12.4803
采葑采菲	-12.4807
蕒	-12.4809
簇	-12.4812
圛	-12.5037
皪	-12.505
謀臧不從不臧覆用	-12.5051
竣	-12.5052
輿地廣記	-12.5053
自牧歸荑	-12.5053
斄	-12.5053
殛	-12.5054
誕先登于岸	-12.5055
泆	-12.5056
豈無他人不如我同父	-12.5056
愀	-12.5057
鳻	-12.5057
憗	-12.5058
賑	-12.5058
縓	-12.5059
其儀不忒正是四國	-12.5059
之誨之命彼後車謂之載之	-12.506
菌	-12.5061
薏	-12.5061
維以不永傷	-12.5061
酌彼康爵以奏爾時	-12.5061
蘊	-12.5061
諉	-12.5061
圯	-12.5061
褁	-12.5062
匪兕匪虎	-12.5063
徠	-12.5064
沽	-12.5064
民之無良相怨一方	-12.5065
珉	-12.5065
㾖	-12.5065
俠	-12.5065
淨	-12.5066
巉	-12.5066
廸	-12.5066
令力呈反	-12.5067
撞	-12.5067
拖	-12.5067
憇	-12.5067
駕我騏馵	-12.5067
燿	-12.5067
旜	-12.5068
鶉鵲之不若	-12.5068
知我如此不如無生	-12.5068
劫	-12.5068
袴	-12.5069
怵	-12.507
襪	-12.507
文武吉甫萬邦為憲	-12.507
且往觀乎洧之外洵訏	-12.507
維天之命於穆不已	-12.507
蜉	-12.507
宣哲維人	-12.5071
搴	-12.5071
冗	-12.5071
壷	-12.5072
妺	-12.5072
憂心惸惸	-12.5072
土國城漕我獨南行	-12.5072
載號載呶	-12.5073
幃	-12.5073
勿予禍適	-12.5074
鯀	-12.5075
大夫夙退無使君勞	-12.5075
詩亡然後春秋作	-12.5076
𥻘	-12.5076
鐐	-12.5077
予維音嘵嘵	-12.5077
彄	-12.5077
時萬時億	-12.5078
窕	-12.508
竆	-12.5081
朋友攸攝攝以威儀	-12.5081
苾苾芬芬	-12.5081
潭	-12.5081
明季本撰	-12.5082
金玉爾音而有遐心	-12.5084
䝨	-12.5089
娀	-12.5279
尚寐無覺	-12.5332
楯	-12.5333
汀	-12.5333
桼	-12.5334
鮮我覯爾	-12.5337
畯	-12.5338
攴	-12.5338
諸姑伯姊	-12.5339
蔤	-12.534
莍	-12.5342
輞	-12.5342
孜	-12.5342
疹	-12.5342
惛	-12.5343
扺	-12.5344
价人維藩	-12.5344
瀕	-12.5345
哥	-12.5345
坎其擊缶	-12.5346
美周公也周大夫刺朝廷之不知也	-12.5346
翥	-12.5346
憊	-12.5346
櫝	-12.5347
各敬爾儀天命不又	-12.5347
籧	-12.5347
褖	-12.5347
彼下泉浸彼苞稂	-12.5347
詡	-12.5347
始作樂而合乎祖	-12.5348
交韔二弓	-12.5348
鬢	-12.5348
絺兮綌兮	-12.5348
赫赫南仲玁狁于夷	-12.5348
不庭方以佐戎辟	-12.5348
濟濟多士文王以寧	-12.5348
昔先王受命有如召公日辟	-12.5348
署	-12.5349
矢詩不多維以遂歌	-12.5349
爰及矜人哀此鰥寡	-12.535
襗	-12.535
嘉我未老鮮	-12.5351
維虺維蛇	-12.5351
珽	-12.5352
于疆于理至于南海	-12.5352
肆戎疾不殄	-12.5352
允文允武	-12.5352
庳	-12.5353
無曰不顯莫予云覯	-12.5353
土國城漕	-12.5353
春秋説題辭	-12.5353
紉	-12.5354
麎	-12.5354
人之好我示我周行	-12.5354
雹	-12.5354
觵	-12.5354
檟	-12.5355
旰	-12.5356
蚌	-12.5356
自求辛螫	-12.5357
仗	-12.5357
燈	-12.5358
我心匪鑒不可以茹	-12.5358
犍	-12.5358
搏獸于敖	-12.5358
孩	-12.5359
豢	-12.536
晝爾于茅宵爾索綯	-12.5361
很	-12.5362
周王于邁六師及之	-12.5362
宋李樗黄櫄撰	-12.5368
茗	-12.5369
穯	-12.537
心之憂矣其誰知之其誰知之蓋亦勿思	-12.5629
𦵔	-12.5631
歙	-12.5632
式燕且譽好	-12.5633
嚼	-12.5634
言之者無罪聞之者足以戒	-12.5634
逅	-12.5634
雖則如雲匪我思存	-12.5635
儷	-12.5636
菏	-12.5636
頳	-12.5636
不見子都乃見狂且	-12.5637
槷	-12.5638
周公之孫莊公之子	-12.5638
昻	-12.5639
昇	-12.5639
酺	-12.5639
偃武修文	-12.564
豭	-12.564
百川沸騰	-12.564
來歸自鎬我行永久	-12.564
篋	-12.564
陳常于時夏	-12.5641
箠	-12.5642
求之不得寤寐思服	-12.5642
搶	-12.5643
㤀	-12.5643
挼	-12.5644
愾我寤歎	-12.5644
先民有言詢于芻	-12.5644
匀	-12.5644
癡	-12.5644
哲夫成城哲婦傾城	-12.5644
𫐠	-12.5645
橬	-12.5645
珥	-12.5645
嗟爾君子無恒安處	-12.5645
厠	-12.5645
檜楫松舟	-12.5646
紩	-12.5646
臚	-12.5646
岫	-12.5646
墓門有棘斧以斯	-12.5647
父母生我胡俾我瘉	-12.5647
西人之子粲粲衣服	-12.5648
蔟	-12.5648
𤣥王桓撥	-12.5648
樂無荒良士瞿瞿	-12.5649
聒	-12.5649
喤	-12.5649
凡伯刺幽王大壞也	-12.5649
怍	-12.5649
禂	-12.565
桑之未落其葉沃若	-12.565
巍	-12.565
唐氏汝諤曰	-12.565
昩	-12.5651
左旋右抽	-12.5651
將仲子兮無踰我	-12.5651
朻	-12.5651
帝謂文王詢爾仇方	-12.5651
押	-12.5652
我心匪石不可轉也我心匪席不可卷	-12.5652
公子頑通乎君母	-12.5652
悉率左右以燕天子	-12.5653
相招為禄仕	-12.5653
取蕭祭脂	-12.5653
聫	-12.5653
禒	-12.5654
妊	-12.5654
珩璜琚瑀	-12.5656
購	-12.5656
鑢	-12.5657
委委佗佗	-12.5657
夙夜基命宥密	-12.5657
河水浼浼	-12.5658
騘	-12.5659
肆夏繁遏渠	-12.566
聶	-12.566
蕭蕭馬鳴悠悠斾旌	-12.5665
旞	-12.5666
繶	-12.5928
籀	-12.5929
醆	-12.593
徔	-12.5931
薑	-12.5933
髙山仰止景行行止	-12.5935
熂	-12.5936
居鵲之成巢	-12.5936
濟盈不濡軌	-12.5937
悚	-12.5937
俾晝作夜	-12.5938
彭氏執中曰	-12.5938
營營青蠅止于樊	-12.5938
嚇	-12.594
捧	-12.594
謀夫孔多是用不集	-12.5941
民之質矣日用飲食	-12.5941
舍旃舍旃	-12.5941
黠	-12.5941
島	-12.5941
挶	-12.5941
我生之後逢此百罹	-12.5941
椌	-12.5941
鬣	-12.5942
瀦	-12.5942
正始之道王化之基	-12.5942
煞	-12.5942
扡	-12.5942
籟	-12.5943
王事適我政事一埤	-12.5943
輜	-12.5943
無逝我梁無發我笱	-12.5943
鴀	-12.5943
顧氏起元曰	-12.5943
女心傷悲殆及公子同歸	-12.5943
皇矣上帝臨下有赫	-12.5943
串夷載路	-12.5944
豁	-12.5944
眂	-12.5944
豌	-12.5945
揚之水不流束蒲	-12.5945
他人有心予忖	-12.5945
噪	-12.5945
洹	-12.5946
虦	-12.5946
堇荼如飴	-12.5946
大夫不均我從事獨賢	-12.5946
戎雖小子而式𢎞大	-12.5947
監觀四方求民之莫	-12.5947
闌	-12.5948
王命傅御遷其私人	-12.5948
聃	-12.5948
牧于坰野	-12.5948
鎌	-12.5948
借曰未知亦既抱子	-12.5948
寞	-12.5948
炰鼈膾鯉	-12.5948
孶	-12.5949
趯	-12.5949
沔彼流水其流湯湯	-12.5949
三萬七千五百	-12.5949
哀哉不能言匪舌是出	-12.595
鳶飛戾天魚躍于淵	-12.595
慊	-12.595
坫	-12.595
矣富人哀此惸獨	-12.5951
投我以桃報之以李	-12.5951
舎旃舎旃	-12.5951
湍	-12.5951
鈍	-12.5951
無小無大從公于邁	-12.5952
灘	-12.5952
問我諸姑遂及伯姊	-12.5952
山有嘉卉侯栗侯梅	-12.5952
深則厲淺則揭	-12.5952
翩彼飛鴞	-12.5953
婺	-12.5954
大風有隧貪人敗類	-12.5954
抱布貿絲	-12.5955
摭	-12.5955
豳居允荒	-12.5955
無折我樹杞	-12.5955
穫之挃挃	-12.5956
赧	-12.5956
君子萬年永錫祚	-12.5957
酇	-12.5957
杓	-12.5959
鞙	-12.5959
囟	-12.5961
骹	-12.5963
蓯	-12.5974
凥	-12.5991
鄠	-12.6113
栜	-12.6215
鴦	-12.6245
邂	-12.6247
粳	-12.6247
宋段昌武撰	-12.6249
匪怒伊教	-12.6249
昊天上帝則不我虞	-12.6249
析薪如之何匪斧不克	-12.6252
揚維北有斗不可以挹	-12.6252
賔載手仇	-12.6252
山有苞棣隰有樹檖	-12.6254
帚	-12.6254
式居婁驕	-12.6254
未見君子憂心靡樂	-12.6255
物其多矣維其嘉	-12.6255
仲氏吹篪	-12.6255
鍇	-12.6255
人知其一莫知其他	-12.6255
楠	-12.6256
不愧于人不畏于天	-12.6256
鳲鳩在桑其子七兮	-12.6257
曷不肅雝王姬之車	-12.6258
砌	-12.6258
躅	-12.6259
天監在下有命既集	-12.6259
王奮厥武如震如怒	-12.6259
雖速我訟亦不女從	-12.6259
胡臭亶時	-12.626
魾	-12.626
裴	-12.626
我征徂西至于艽	-12.626
瞻彼中林侯薪侯蒸	-12.626
塘	-12.626
式固爾猶淮夷卒獲	-12.6261
燕笑語兮是以有譽處兮	-12.6261
東人之子職勞不來	-12.6261
今此下民亦孔之哀	-12.6261
神之聽之終和且平	-12.6261
姻亞則無膴	-12.6262
其雨其雨杲杲	-12.6262
習習谷風維風及雨	-12.6262
瞎	-12.6263
鑾	-12.6263
兀	-12.6263
諸宰君婦廢徹	-12.6263
凟	-12.6263
幂	-12.6264
撲	-12.6264
勦	-12.6264
解頤新語	-12.6265
有饛簋飱	-12.6266
慎爾言也謂爾不信	-12.6266
廖	-12.6267
厨	-12.6267
嗟鳩兮無食桑葚	-12.6268
磔	-12.6268
招招舟子	-12.6268
維彼忍心是顧是復	-12.6268
賃	-12.6269
㕦	-12.6269
元龜象齒大賂南金	-12.6269
葒	-12.627
哀哀父母生我勞瘁	-12.627
頁	-12.627
万	-12.627
冞	-12.627
祴	-12.627
吻	-12.6271
𨗳	-12.6271
英英白雲露彼菅茅	-12.6272
小不忍以致大亂	-12.6272
牴	-12.6272
妻煽方處	-12.6272
塼	-12.6275
鸜	-12.6278
篴	-12.6284
樝	-12.6315
倪	-12.6562
晜	-12.6566
兠	-12.6566
甋	-12.6566
氾	-12.6567
鳲鳩在桑其子在梅	-12.6568
簴	-12.6569
呞	-12.6569
依彼平林有集維鷮	-12.6571
欽定詩經傳說彚纂	-12.6572
彼月而食則維其常此日而食于何不臧	-12.6572
伊誰云從維暴之云	-12.6573
謂爾遷于王都曰予未有室家	-12.6573
浄	-12.6573
觝	-12.6573
楬	-12.6575
懾	-12.6575
㳂	-12.6575
榝	-12.6575
网	-12.6576
瑁	-12.6576
鶡	-12.6578
遺一老俾守我王	-12.6578
昔爾出居誰從作爾室	-12.6578
蘧	-12.6578
鞍	-12.6578
呪	-12.6578
之綱之紀燕及朋友	-12.6579
雖則劬勞其究安宅	-12.6579
擇有車馬以居徂向	-12.6579
冬日烈烈飄風發發	-12.6579
彼有罪予之佗	-12.658
疃	-12.658
爰有寒泉在浚之下	-12.658
批	-12.658
彼雲漢為章于天	-12.658
灸	-12.658
無信人之言人實不信	-12.658
樂土樂土爰得我所	-12.6581
巧笑倩兮	-12.6581
一國之事繫一人之本謂之風	-12.6581
蛸	-12.6582
訐	-12.6582
虌	-12.6583
蓼彼蕭斯零露濃濃	-12.6583
信誓旦旦	-12.6583
睛	-12.6583
之子于歸言秣其駒	-12.6583
願言思伯甘心首疾	-12.6584
有䖍秉鉞	-12.6584
楓	-12.6584
埴	-12.6584
鴥彼飛隼率彼中陵	-12.6584
舍旃舍旃苟亦無然人之為言胡得焉	-12.6585
踶	-12.6585
不顯亦臨無射亦保	-12.6585
鍵	-12.6585
野有死鹿白茅純	-12.6585
山夾水曰澗	-12.6585
婦無公事休其蠶織	-12.6585
彎	-12.6586
肢	-12.6586
唶	-12.6586
式夷式已無小人殆	-12.6586
楽	-12.6586
有皇上帝伊誰云憎	-12.6586
今者不樂逝者其亡	-12.6586
鱘	-12.6587
無以我公歸兮無使我心悲兮	-12.6587
諸父兄弟備言燕私	-12.6588
閔既多受侮	-12.6588
哀哉維今之人不尚有舊	-12.6588
升歌清廟下管象	-12.6588
其類維何室家之壼	-12.6589
既明且哲以保其身	-12.6589
周邦咸喜戎有良翰	-12.6589
鶌	-12.6589
蓼蓼者莪匪莪伊蔚	-12.659
醮	-12.659
桞	-12.659
我出我車于彼牧	-12.659
蜓	-12.659
璗	-12.6591
嬛嬛在疚	-12.6592
埀	-12.6593
撿	-12.6594
羿	-12.6594
蒔	-12.6596
我田既臧農夫之慶	-12.6596
于以奠之宗室牖下	-12.6598
叩	-12.6599
爱	-12.6599
鵹	-12.66
之死矢靡慝	-12.66
蒺	-12.6601
玭	-12.6602
啐	-12.6615
餈	-12.6618
鉉	-12.6891
莕	-12.6897
窳	-12.6899
維鵜在梁不濡其咮	-12.6901
王曰叔父建爾元子	-12.6902
闐	-12.6903
頺	-12.6903
慼	-12.6904
緜緜葛藟在河之涘	-12.6906
陟彼阿丘言采其蝱	-12.6906
桺	-12.6907
懃	-12.6907
蛉	-12.6907
踧	-12.6908
繣	-12.6908
鳲鳩在桑其子在榛	-12.6908
痺	-12.6909
敝笱在梁其魚魴鱮	-12.6909
朱英緑縢	-12.6909
甄	-12.6909
筯	-12.691
南有嘉魚烝然汕汕	-12.691
侯誰在矣張仲孝友	-12.6911
徐氏光啓曰	-12.6911
雖則如荼匪我思且	-12.6911
參差荇菜左右芼	-12.6912
装	-12.6913
爗	-12.6913
樂國樂國爰得我直	-12.6913
鯷	-12.6913
節彼南山有實其猗	-12.6913
四鍭既鈞	-12.6914
彼汾一曲言采其藚	-12.6914
鯽	-12.6915
懵	-12.6915
齟	-12.6915
五日為期六日不詹	-12.6915
插	-12.6915
赳赳武夫公侯干城	-12.6915
籜	-12.6915
無此疆爾界	-12.6916
蓼彼蕭斯零露瀼瀼	-12.6916
畵	-12.6916
婦有長舌維厲之階	-12.6916
君子有徽猷小人與屬	-12.6916
蒍	-12.6916
詩識名解卷	-12.6916
廕	-12.6916
緹	-12.6916
螇	-12.6917
是究是圖亶其然乎	-12.6917
我友敬矣讒言其興	-12.6917
窰	-12.6917
畋	-12.6917
蚯	-12.6917
投桃報李	-12.6917
賫	-12.6918
鎗	-12.6918
椒聊之實蕃衍盈匊	-12.6918
彼路斯何君子之車	-12.6918
潏	-12.6918
邲	-12.6918
爆	-12.6918
芨	-12.6919
我送舅氏曰至渭陽	-12.6919
習習谷風維風及頽	-12.692
諤	-12.692
王命仲山甫式是百辟	-12.692
醯	-12.692
磚	-12.692
有捄天畢載施之行	-12.6921
道之云逺曷云能來	-12.6921
昃	-12.6921
甲子昧爽	-12.6921
民之靡盈誰夙知而莫	-12.6921
騮	-12.6922
視彼驕人矜此勞人	-12.6922
奉時辰牡辰牡孔碩	-12.6923
周公東征四國是吪	-12.6923
僉	-12.6923
牘	-12.6924
蠒	-12.6924
墓門有梅有鴞萃止	-12.6924
蘀兮蘀兮風其漂	-12.6925
雖則七襄不成報章	-12.6925
麾之以肱畢來既升	-12.6925
曙	-12.6926
誰其尸之有齊	-12.6927
俾爾多益以莫不庶	-12.6927
醋	-12.6927
輖	-12.6929
􁉝	-12.6932
毛詩名物解卷	-12.6932
綰	-12.6933
縶之維之以永今夕	-12.6934
薋	-12.6936
膮	-12.694
菙	-12.6942
􁈸	-12.7241
槿	-12.7242
獢	-12.7243
稬	-12.7243
毿	-12.7245
猫	-12.7247
芙	-12.7248
簑	-12.7248
票	-12.7249
嫠	-12.7249
猲	-12.7249
天下蕩蕩無綱紀文章	-12.725
膰	-12.7251
芧	-12.7252
周公皇祖亦其福女	-12.7252
有瞽有瞽在周之庭	-12.7252
在彼無惡在此無斁	-12.7252
美如英殊異乎公行	-12.7253
蟆	-12.7253
淑人君子其儀一兮其儀一兮心如結	-12.7253
彤弓弨兮受言載	-12.7253
仝	-12.7253
見君子云胡不瘳	-12.7253
有周不顯帝命不時	-12.7253
踖	-12.7254
彼泉水載清載濁	-12.7254
爾還而入我心易	-12.7254
嘑	-12.7254
橈	-12.7255
輾轉伏枕	-12.7255
漉	-12.7255
矣以望楚矣望楚與堂景山與京	-12.7256
刳	-12.7256
擇三有事亶侯多藏	-12.7257
卉木萋止女心悲止征夫歸止	-12.7257
哀我征夫獨為匪民	-12.7257
哀我征夫朝夕不暇	-12.7257
掛	-12.7257
無田甫田維莠桀桀	-12.7257
樂郊樂郊誰之永號	-12.7257
緜緜葛藟在河之漘	-12.7258
曷云其還政事愈蹙	-12.7258
菁菁者莪在彼中沚	-12.7258
王于出征以佐天子	-12.7258
杌	-12.7258
君子作歌維以告哀	-12.7258
有頍者弁實維何期	-12.7258
彼鳥矣猶求友聲矧伊人矣不求友生	-12.7259
瞻望弗及泣涕如雨	-12.7259
維鵲有巢維鳩居之	-12.7259
好樂無荒良士蹶蹶	-12.7259
鯈	-12.726
苃	-12.726
方命厥后奄有九有	-12.726
王國克生維周之楨	-12.726
野有蔓草零露瀼瀼	-12.726
用有成維周之禎	-12.7261
產	-12.7261
王命仲山甫城彼東方	-12.7261
嘒彼小星維參	-12.7262
妻如何匪媒不得	-12.7262
闑	-12.7262
有子七人母氏勞苦	-12.7262
言旋言歸復我諸父	-12.7263
所可讀也言之辱也	-12.7263
翹翹錯薪言刈其蔞	-12.7263
或燕燕居息或盡瘁事國	-12.7263
揚之水白石皓皓	-12.7263
彼爾維何維常之華	-12.7263
鮒	-12.7264
杉	-12.7264
旐維旟矣室家溱溱	-12.7264
我不見兮言從之邁	-12.7264
爰及姜女聿來胥宇	-12.7264
鞸	-12.7264
悠悠我里亦孔之痗	-12.7264
麽	-12.7265
如火烈烈則莫我敢曷	-12.7265
蒞	-12.7265
打	-12.7265
政散民流而不可止	-12.7265
瞻彼中林甡甡	-12.7265
鸍	-12.7266
我戍未定靡使歸聘	-12.7266
䄠	-12.7266
隰桑有阿其葉有沃	-12.7266
羒	-12.7266
肅肅宵征夙夜在公寔命不同	-12.7267
敬之敬之天維顯思	-12.7267
弗曳弗婁	-12.7267
君子于役不知其期曷至哉	-12.7267
胡不自替職兄	-12.7268
東門之楊其葉肺肺	-12.7268
喓喓草蟲趯趯阜螽未見君子憂心忡忡	-12.7268
乃求千斯倉乃求萬斯箱	-12.7268
旺	-12.7268
周公東征四國是遒	-12.7268
湣	-12.7268
酌先祖之道以養天下	-12.7269
罭	-12.7269
桑之落矣其黄而隕	-12.727
君子于役不日不月曷其有佸	-12.727
畚	-12.727
蓻	-12.727
澹	-12.7271
季冬薦魚春獻鮪	-12.7271
君子于役如之何勿思	-12.7272
桎	-12.7272
國百里今也日蹙	-12.7272
既破我斧又缺我斨	-12.7273
彼求我則如不我得執我仇仇亦不我力	-12.7273
學有緝熈于光明	-12.7273
勘	-12.7274
珙	-12.7274
㢮	-12.7278
下民或敢侮予	-12.7278
我育我顧我復我出入腹我	-12.7279
時邁其邦昊天其子之	-12.7279
罅	-12.728
臐	-12.7287
犅	-12.7287
焱	-12.7597
陟彼岡兮瞻望兄	-12.7604
之君子有酒酌言酢	-12.7604
惠而好我攜手同車	-12.7604
頋	-12.7604
有萇楚猗儺其實夭之沃沃樂子之無室	-12.7605
簮	-12.7605
南山有桑北山有楊	-12.7606
甎	-12.7606
也展如之人兮邦之媛	-12.7607
自西徂東周爰執事	-12.7607
白鳥翯翯	-12.7608
藂	-12.7608
其臧則具是違謀之不臧則具是依	-12.7609
誰侜予美心焉惕惕	-12.7609
蔽芾甘棠勿翦勿拜	-12.761
􁈰	-12.761
虞人翼五豝以待	-12.761
梭	-12.761
箙	-12.7611
莩	-12.7611
發言盈庭誰敢執其咎	-12.7611
淑人君子正是國人正是國人胡不萬年	-12.7612
嗟爾朋友予豈不知而作	-12.7612
敝笱在梁其魚唯唯	-12.7612
脃	-12.7612
屇	-12.7613
之子歸不我以不我以其後也悔	-12.7613
敝笱在梁其魚魴鰥	-12.7613
罵	-12.7614
彼其之子不與我戍許	-12.7614
彤弓弨兮受言櫜	-12.7614
淇水在右泉源在左巧笑之瑳	-12.7614
之行有死人尚或墐	-12.7614
褕	-12.7614
若載馳載驅周爰咨度	-12.7615
鑮	-12.7615
座	-12.7615
並驅從兩肩兮	-12.7615
鴻鴈于飛集于中澤	-12.7615
言天下之事形四方之風謂之雅	-12.7615
維此仲行百夫之防	-12.7616
秉國之均四方是維天子是毗	-12.7616
不聞亦式不諫亦入	-12.7616
嶃	-12.7616
悠悠昊天曰父母且	-12.7616
譯	-12.7616
裳錦褧裳衣錦褧衣叔兮伯兮駕予與歸	-12.7616
酗	-12.7616
罃	-12.7616
上帝板板下民卒癉	-12.7616
岊	-12.7616
共武之服以定王國	-12.7617
所以風天下而正夫婦也	-12.7617
自古在昔先民有作温恭朝夕執事有恪	-12.7617
爾不我畜復我邦家	-12.7617
䆒	-12.7617
君子信讒如或醻	-12.7617
矣維其有章矣是以有慶	-12.7617
渤	-12.7617
召彼故老訊之占夢	-12.7617
秪	-12.7618
䳭	-12.7618
采苦采苦首陽之下	-12.7618
子兮子兮如此粲者何	-12.7619
咀	-12.7619
在爾室尚不愧于屋漏	-12.7619
齬	-12.7619
凡此飲酒或醉或否	-12.7619
㮣	-12.7619
熖	-12.7619
子之昌兮遭我乎峱之陽兮	-12.7619
槍	-12.7619
駉駉牡馬在坰之野薄言駉者有騅	-12.7619
慷	-12.762
民今方殆視天夢夢	-12.762
刑于寡妻至于兄弟以御于家邦	-12.762
咈	-12.762
伐柯伐柯其則不逺	-12.762
遵彼汝墳伐其條枚	-12.762
杪	-12.7621
䱷	-12.7621
厥初生民時維姜嫄	-12.7621
匪言不能胡斯畏忌	-12.7621
大人占之衆維魚矣實維豐年	-12.7621
子兮子兮如此邂逅何	-12.7621
行邁靡靡中心如醉	-12.7622
有命自天命此文王于周于京	-12.7622
貘	-12.7622
其直如矢君子所履小人所視	-12.7622
駉駉牡馬在坰之野薄言駉者有駰	-12.7622
采薇采薇薇亦柔止	-12.7622
百室盈止婦子寧止	-12.7622
私人之子百僚是試	-12.7622
舩	-12.7623
轘	-12.7623
窄	-12.7623
辣	-12.7623
厥作祼將常服黼	-12.7624
澡	-12.7624
航	-12.7624
獨寐寤歌永矢弗過	-12.7624
是生后稷降之百福	-12.7625
我其夙夜畏天之威于時保之	-12.7625
踏	-12.7625
蘋蘩蕰藻之菜	-12.7625
取譬不逺昊天不忒	-12.7625
豈其食魚必河之鯉豈其取妻必宋之子	-12.7626
􁃿	-12.7626
東方之月兮彼姝者子在我闥	-12.7626
鶺	-12.7626
狐貉之厚以居	-12.7626
淮有三洲憂心且妯	-12.7626
于嗟女兮無與士耽	-12.7626
側弁之俄屢舞傞傞	-12.7627
不顯申伯王之元舅文武是憲	-12.7627
騜	-12.7627
淑慎爾止不愆于儀	-12.7627
紬	-12.7628
煬	-12.7628
苡	-12.7628
畤	-12.7628
大曰鴻小曰鴈	-12.763
楣	-12.763
禇	-12.7631
熬	-12.7632
皎皎白駒食我場藿	-12.7633
錮	-12.7633
薙	-12.7634
蘴	-12.7635
鉛	-12.7636
升彼大阜從其羣醜	-12.764
𦍑	-12.796
竢	-12.7964
螮	-12.7968
翱	-12.7972
娩	-12.7972
尻	-12.7972
􁊌	-12.7973
藹藹王多吉人維君子命	-12.7975
儘	-12.7977
顏	-12.7977
蜉蝣之翼采采衣服	-12.7977
杠	-12.7978
敬恭明神宜無悔怒	-12.7978
我我入自外室人交徧摧	-12.7978
橜	-12.7979
醵	-12.7979
巒	-12.7979
擠	-12.7979
鳲鳩在桑其子在棘淑人君子其儀不忒	-12.798
陳錫哉周侯文王孫子	-12.798
爾牛來思其耳濕濕	-12.7981
濼	-12.7981
蔽芾甘棠勿翦勿敗	-12.7981
裳裳者華或黄或白	-12.7981
保彼東方魯邦是常不虧不崩不震不騰	-12.7982
之什詁訓傳第二十	-12.7982
戎狄是膺荆舒是懲則莫我敢承	-12.7983
徹我牆屋田卒汙	-12.7983
乃命魯公俾侯于東錫之山川土田附庸	-12.7984
懕	-12.7984
綘	-12.7984
有狐綏綏在彼淇側心之憂矣之子無服	-12.7984
未見君子憂心如醉如何如何忘我實多	-12.7985
豐水東注維禹之績四方攸同皇王維辟	-12.7985
駈	-12.7985
孑孑干旌在浚之城	-12.7985
率見昭考以孝以享	-12.7985
彼蕭斯零露湑	-12.7986
彼其之子美如玉美如玉殊異乎公族	-12.7986
無信人之言人實迋	-12.7986
鷞	-12.7986
蕢	-12.7986
僮	-12.7986
焰	-12.7986
虎維此鍼虎百夫之禦	-12.7986
我有嘉客亦不夷懌	-12.7987
凡百君子莫肯用訊	-12.7987
予美亡此誰與獨處	-12.7987
獯	-12.7987
梱	-12.7987
未見君子憂心欽欽如何如何忘我實多	-12.7988
憨	-12.7988
其室則邇其人甚逺	-12.7988
螰	-12.7988
蕸	-12.7988
我躬不閱遑恤我後	-12.7988
哿矣能言巧言如流俾躬處休	-12.7989
如彼築室于道謀是用不潰于成	-12.7989
敶	-12.7989
狽	-12.7989
有美一人婉如清揚邂逅相遇與子偕臧	-12.7989
佯	-12.7989
爾羊來思其角濈濈	-12.7989
兮玼兮其之翟	-12.799
浣	-12.799
蟾	-12.799
執競武王無競維烈不顯成康上帝是皇	-12.799
疋	-12.799
陵我陵我阿無飲我泉我泉我池	-12.7991
公之媚子從公于狩	-12.7991
豈弟君子俾爾彌爾性純嘏爾常矣	-12.7991
疈	-12.7991
雖則佩韘能不我甲	-12.7991
無啄我黍此邦之人不可與處	-12.7991
懋	-12.7991
予授子之粲兮	-12.7992
既克有定靡人弗勝	-12.7992
載飛載鳴我日斯邁而月	-12.7992
駉駉牡馬在坰之野薄言駉者有驒	-12.7992
曰歸曰歸心亦憂止憂心烈烈	-12.7992
鋪敦淮濆	-12.7992
宣昭義問有虞殷自天	-12.7992
髠	-12.7992
彼淮夷來獻其琛	-12.7993
隰桑有阿其葉有幽	-12.7993
彼諸姬聊與之謀	-12.7993
縹	-12.7993
徬	-12.7993
枵	-12.7993
叔在藪火烈具揚	-12.7994
駛	-12.7994
琰	-12.7994
天之牖民如壎	-12.7994
斯征夙興夜寐無忝爾所生	-12.7994
田祖有神秉畀炎火	-12.7994
鈇	-12.7995
亂我籩豆屢舞僛僛	-12.7995
兮在我闥兮履我	-12.7996
祭以清酒從以騂	-12.7996
佛時仔肩	-12.7996
日居月諸東方自出父兮母兮畜我不卒	-12.7996
復降在原何以舟	-12.7997
􁁊	-12.7997
訏謨定命逺猶辰告	-12.7998
㦯	-12.7998
蓼蓼者莪匪莪伊蒿	-12.7999
天子命我城彼朔方赫赫南仲玁狁于襄	-12.7999
噩	-12.8001
嵇	-12.8001
玃	-12.8001
燃	-12.8003
㩀	-12.8003
南山律律飄風弗弗	-12.8004
伹	-12.8005
牾	-12.8007
黧	-12.8011
侁	-12.8022
宀	-12.8329
𣙗	-12.8352
惠而好我攜手同歸	-12.8356
扊	-12.8356
扅	-12.8356
檴	-12.8359
鄴	-12.8359
公子皆信厚如麟趾之時	-12.8359
㐫	-12.8359
營營青蠅止于榛	-12.8359
兮行與子逝兮	-12.836
劵	-12.8361
扄	-12.8361
藨	-12.8362
甲士三人歩卒七十二人	-12.8362
晷	-12.8363
㬰	-12.8363
錘	-12.8364
茒	-12.8364
呦呦鹿鳴食野之芩	-12.8364
我始者不如今云不我可	-12.8364
申伯信邁王餞	-12.8365
刓	-12.8365
之良馬五之彼姝者子何以予	-12.8366
日月陽止女心傷止征夫遑止	-12.8366
維此哲人謂我劬勞維彼愚人謂我宣驕	-12.8366
申伯還南謝于誠歸	-12.8367
湮	-12.8367
庶見素衣兮我心傷悲兮聊與子同歸兮	-12.8367
韁	-12.8367
眚	-12.8367
鵶	-12.8367
如匪行邁謀是用不得于道	-12.8367
溥彼韓城燕師所完	-12.8367
我龜既厭不我告猶	-12.8367
莅	-12.8368
此大邦克順克比	-12.8368
民亦勞止汔可小安惠此中國國無有殘	-12.8368
漪	-12.8368
彼行葦牛羊勿踐履方苞方體維葉泥泥	-12.8368
姒嗣徽音則百斯男	-12.8369
江漢浮浮武夫滔滔	-12.8369
昊天上帝則不我遺胡不相畏先祖于摧	-12.8369
赫赫師尹不平謂何天方薦	-12.8369
政事外攘夷狄復文武之	-12.837
魚在在藻依于其蒲王在在鎬有那	-12.837
今也每食不飽	-12.837
嗟嗟臣工敬爾在公王釐	-12.837
南有樛木葛藟荒之樂只君子福履將之	-12.837
念我獨兮我事孔庶心之憂矣憚	-12.837
蒭	-12.837
蓲	-12.8371
祈父予王之爪士	-12.8372
晃	-12.8372
坎坎伐輪兮寘之河之漘	-12.8372
敷奏其勇不震不動	-12.8372
于宇伊威在室蠨	-12.8372
赫赫炎炎云我無所大命近止靡瞻靡顧	-12.8372
震驚徐方如雷如霆徐方震驚	-12.8372
無罪無辜亂如此憮	-12.8372
言念君子載寢載興厭厭	-12.8372
其清矣士與女殷其盈矣女曰觀乎士曰	-12.8373
我不見兮云何盱	-12.8373
俾民稼穡有稷有黍有稻有秬	-12.8373
彼南山維石巖巖赫赫師尹民具爾瞻	-12.8374
罪罟不收靡有夷瘳	-12.8374
楚茨信南山甫田大田	-12.8374
無冬無夏值其鷺翿	-12.8374
獨居憂民莫不逸我獨不敢休天命不徹	-12.8374
矣有女仳離條其歗	-12.8374
跟	-12.8375
朹	-12.8375
睪	-12.8375
爾游矣優游爾休矣	-12.8375
裨	-12.8376
臟	-12.8376
坑	-12.8376
伐柯如何匪斧不克取	-12.8376
兮不與我食兮維子之故使我不能息兮	-12.8376
䧏	-12.8376
既克淮夷孔淑不逆	-12.8376
嗟爾君子無恒安息靖共爾位好	-12.8376
謾	-12.8377
豈弟君子俾爾彌爾性似先公酋	-12.8377
將仲子兮無踰我園無折我樹檀	-12.8377
猾	-12.8377
無忝皇祖式救爾後	-12.8377
葆	-12.8377
厝	-12.8377
天保定爾以莫不興如山如阜如岡如陵	-12.8378
吉甫作誦其詩孔碩其風肆好以贈申伯	-12.8378
昜	-12.8378
颺	-12.8378
哦	-12.8379
維熊維羆男子之祥維虺維蛇女子之祥	-12.8379
公尸來止熏熏	-12.8379
觖	-12.8379
誕我祀如何或舂	-12.8379
道之云逺我勞如何	-12.8379
既醉而出並受其福	-12.8379
左執簧右招我由房	-12.8379
日居月諸出自東方乃如之人兮	-12.8379
是正直神之聽之介爾景福	-12.838
裙	-12.838
毋逝我梁毋發我笱	-12.838
質爾人民謹爾侯度用戒不虞	-12.838
枓	-12.838
匪來貿絲來即我謀	-12.8381
吉夢維何維熊維羆	-12.8381
􁉄	-12.8381
俳	-12.8382
鎋	-12.8385
尫	-12.8386
嶡	-12.8386
嬌	-12.8388
邘	-12.8388
琊	-12.839
爐	-12.8393
廡	-12.8395
麝	-12.8749
蹼	-12.8753
啞	-12.8753
竺	-12.8755
薹	-12.8758
菰	-12.8759
暈	-12.876
旴	-12.8761
檕	-12.8762
􁈱	-12.8762
戟	-12.8763
罻	-12.8763
蘂	-12.8763
葘	-12.8763
􁉲	-12.8765
騤	-12.8766
鳲	-12.8767
䂓	-12.8767
卹	-12.8767
洶	-12.8768
粤	-12.8768
睫	-12.8769
窬	-12.8769
蟀	-12.8769
髓	-12.877
祍	-12.8771
件	-12.8772
褚	-12.8772
捉	-12.8773
罥	-12.8773
寴	-12.8773
炬	-12.8774
磊	-12.8774
齹	-12.8774
籓	-12.8774
簾	-12.8774
嘴	-12.8774
暌	-12.8774
菩	-12.8777
誾	-12.8778
烰	-12.8779
萏	-12.8779
冪	-12.878
凑	-12.878
䯚	-12.878
裦	-12.878
覈	-12.8783
餅	-12.8783
禯	-12.8784
梡	-12.8784
辝	-12.8784
䄖	-12.8784
晡	-12.8785
􁉊	-12.8785
萩	-12.8786
継	-12.8786
鶋	-12.8786
劔	-12.8786
嘔	-12.8787
瑯	-12.8787
蛗	-12.8789
琄	-12.8791
巛	-12.8793
澳	-12.8794
餫	-12.8799
簦	-12.9157
鷟	-12.917
䙅	-12.9172
岑	-12.9177
冋	-12.9178
攣	-12.9179
顇	-12.9181
朿	-12.9181
藬	-12.9181
痱	-12.9182
䁥	-12.9183
嚚	-12.9183
簞	-12.9183
梩	-12.9184
笥	-12.9185
迸	-12.9185
蕐	-12.9186
廿	-12.9187
笞	-12.9188
碍	-12.9188
蹷	-12.9189
彇	-12.9189
棚	-12.919
獐	-12.919
躇	-12.919
誄	-12.919
䨇	-12.9191
咠	-12.9191
閾	-12.9191
藘	-12.9192
掉	-12.9192
鉹	-12.9193
蓁	-12.9193
蝯	-12.9193
簜	-12.9193
虯	-12.9194
澇	-12.9195
蓽	-12.9195
竞	-12.9197
􁉛	-12.9198
㓙	-12.9199
叨	-12.92
篨	-12.92
芍	-12.9201
龢	-12.9202
聸	-12.9204
蝶	-12.9204
骸	-12.9206
稃	-12.9209
偝	-12.9212
瞳	-12.9212
暀	-12.923
眾	-12.96
藑	-12.9605
鼂	-12.9606
挏	-12.9609
徉	-12.9613
鱏	-12.9613
窴	-12.9613
扃	-12.9615
睨	-12.9615
詫	-12.9615
﨣	-12.9616
瘖	-12.9616
轔	-12.9617
隗	-12.9618
夬	-12.9618
尢	-12.9618
笴	-12.9618
疥	-12.9619
詬	-12.9619
惚	-12.962
㗖	-12.962
么	-12.9621
䓿	-12.9621
躊	-12.9622
檓	-12.9622
皙	-12.9623
恆	-12.9623
撠	-12.9623
薾	-12.9624
袡	-12.9624
呴	-12.9625
翫	-12.9625
蟋	-12.9626
挟	-12.9626
昺	-12.9627
筒	-12.9627
徦	-12.9627
篳	-12.9627
渺	-12.9628
罸	-12.9628
腎	-12.9629
哂	-12.9629
撼	-12.9629
癭	-12.9629
洎	-12.9631
𠂻	-12.9632
蚪	-12.9633
彥	-12.9633
巵	-12.9635
刷	-12.9635
愜	-12.9636
槸	-12.9636
猝	-12.9636
莔	-12.9637
􁈭	-12.9637
衫	-12.9638
蠟	-12.9638
澔	-12.9642
霖	-12.9643
濘	-12.9648
捲	-12.9655
滈	-13.0043
䕲	-13.0051
媞	-13.0059
騯	-13.0061
侞	-13.0063
鄆	-13.0063
腳	-13.0065
鏗	-13.0065
瞗	-13.0066
苢	-13.007
娘	-13.007
罺	-13.007
禭	-13.0072
􁈶	-13.0073
椵	-13.0074
覔	-13.0078
郜	-13.0078
洍	-13.0078
拮	-13.0078
芷	-13.0079
夥	-13.0079
餁	-13.0079
葷	-13.008
牒	-13.008
􁆒	-13.008
幬	-13.008
虖	-13.008
瑗	-13.0081
鞎	-13.0081
蛩	-13.0082
藼	-13.0082
溲	-13.0082
鉗	-13.0082
捼	-13.0083
擿	-13.0083
藳	-13.0084
藶	-13.0085
迆	-13.0086
􁊧	-13.0086
撤	-13.0086
啾	-13.0088
鼘	-13.0088
尔	-13.0088
瞷	-13.0088
侃	-13.0089
螺	-13.0089
麏	-13.009
𡨕	-13.009
驥	-13.0091
㰱	-13.0092
鷻	-13.0093
茦	-13.0094
蝟	-13.0095
鬪	-13.0095
戦	-13.0096
剽	-13.0096
彧	-13.0096
僂	-13.0098
紋	-13.0098
䕩	-13.0099
緱	-13.01
􁉭	-13.0102
拈	-13.0103
睇	-13.0103
㼾	-13.0535
街	-13.0536
旝	-13.0538
絙	-13.0538
藄	-13.0538
鄝	-13.0538
蟣	-13.054
甾	-13.0541
􁉑	-13.0542
蕞	-13.0542
鼩	-13.0544
㳙	-13.0545
矍	-13.0546
凜	-13.0546
悵	-13.0547
橢	-13.0547
霹	-13.0547
圄	-13.0547
羇	-13.0548
􁀌	-13.0548
𢃄	-13.0548
㱕	-13.0549
𣆀	-13.055
媧	-13.055
􁊵	-13.055
棖	-13.0551
悊	-13.0552
貒	-13.0552
鋙	-13.0553
唾	-13.0554
釗	-13.0554
浘	-13.0554
陞	-13.0555
溞	-13.0555
淋	-13.0555
摡	-13.0555
軏	-13.0556
瀵	-13.0556
跬	-13.0557
憸	-13.0557
鍠	-13.0557
葶	-13.0557
麚	-13.0557
氊	-13.0557
鷇	-13.0557
渫	-13.0557
笩	-13.0558
惶	-13.0558
甌	-13.0558
訥	-13.056
刮	-13.056
虴	-13.056
嗔	-13.0561
皿	-13.0561
􁅆	-13.0562
躑	-13.0562
巓	-13.0563
噴	-13.0563
咒	-13.0563
坁	-13.0564
獿	-13.0565
㢲	-13.0565
儵	-13.0566
菱	-13.0566
姙	-13.0568
俑	-13.0569
櫐	-13.0572
䕫	-13.0575
眹	-13.0582
澱	-13.0585
癘	-13.0587
碫	-13.1007
皵	-13.1032
寍	-13.1034
劭	-13.1037
竷	-13.1037
<	-13.1037
t	-13.1038
縆	-13.1039
衵	-13.1041
砅	-13.1042
忉	-13.1042
鴿	-13.1042
邽	-13.1043
裓	-13.1043
眥	-13.1045
娜	-13.1045
唪	-13.1046
玕	-13.1046
鄣	-13.1046
虣	-13.1047
腮	-13.1048
厡	-13.1048
哇	-13.1048
柬	-13.1049
徯	-13.1049
鸋	-13.1049
鵬	-13.105
靂	-13.105
曣	-13.105
拉	-13.1051
戞	-13.1051
籕	-13.1051
遶	-13.1052
獪	-13.1052
蹯	-13.1052
褗	-13.1053
坶	-13.1053
槌	-13.1053
醤	-13.1054
虭	-13.1054
蚞	-13.1054
瞢	-13.1054
痕	-13.1054
呬	-13.1054
蝝	-13.1055
祤	-13.1055
觔	-13.1055
熛	-13.1055
咫	-13.1056
琕	-13.1057
筴	-13.1057
雈	-13.1057
翡	-13.1058
皡	-13.1058
畊	-13.1059
獠	-13.106
訢	-13.1061
稿	-13.1061
聱	-13.1061
磽	-13.1061
訑	-13.1061
礫	-13.1061
擒	-13.1062
跛	-13.1063
劃	-13.1063
搗	-13.1064
鯸	-13.1064
腜	-13.1065
驤	-13.1066
趺	-13.1067
睽	-13.1068
髴	-13.1071
挂	-13.1071
趂	-13.1071
筑	-13.1072
蝪	-13.108
擩	-13.1082
魨	-13.1538
槎	-13.1562
丌	-13.1568
郛	-13.157
螒	-13.157
鷱	-13.1571
蕖	-13.1571
剸	-13.1571
踊	-13.1571
羑	-13.1571
幺	-13.1572
踟	-13.1573
曖	-13.1573
紇	-13.1573
堕	-13.1574
遰	-13.1574
􁈑	-13.1574
聆	-13.1574
蝃	-13.1574
鄏	-13.1574
嘂	-13.1574
莏	-13.1574
夐	-13.1574
欥	-13.1575
嫙	-13.1576
坭	-13.1576
䳫	-13.1576
繴	-13.1576
鄄	-13.1576
㝌	-13.1576
騩	-13.1577
柢	-13.1577
鼽	-13.1577
讃	-13.1577
􁉀	-13.1578
拍	-13.1578
摠	-13.1578
烋	-13.1578
砂	-13.1579
嗤	-13.158
掺	-13.158
踪	-13.158
犠	-13.158
塢	-13.1581
籲	-13.1581
翊	-13.1581
梳	-13.1581
螿	-13.1581
虉	-13.1581
孼	-13.1582
筊	-13.1582
祮	-13.1582
箔	-13.1582
稉	-13.1583
仿	-13.1584
䗥	-13.1584
踣	-13.1584
穮	-13.1584
鞔	-13.1584
塹	-13.1585
􁂄	-13.1585
仌	-13.1586
嗑	-13.1586
蕅	-13.1587
堲	-13.1587
淖	-13.1587
蟧	-13.1587
変	-13.1588
葝	-13.1589
麵	-13.159
檐	-13.159
糵	-13.159
懶	-13.1591
蘽	-13.1591
萁	-13.1591
欎	-13.1592
喘	-13.1593
咳	-13.1594
䳢	-13.1594
厞	-13.1594
﨑	-13.1596
朶	-13.1596
噍	-13.1597
鎦	-13.1597
觳	-13.1598
尅	-13.1599
諳	-13.1602
鵋	-13.1603
沍	-13.1609
􁇠	-13.1609
姱	-13.161
匣	-13.2078
鬴	-13.2111
儦	-13.2114
廾	-13.2115
獷	-13.2118
恁	-13.2119
葈	-13.2121
輳	-13.2123
开	-13.2123
犇	-13.2125
嫓	-13.2125
毉	-13.2126
蔿	-13.2126
蕣	-13.2127
菆	-13.2127
堀	-13.2127
爞	-13.2128
処	-13.2128
瑇	-13.2128
晥	-13.2129
圮	-13.2129
苺	-13.213
縕	-13.213
穣	-13.213
梜	-13.2131
絕	-13.2131
鞀	-13.2131
喓	-13.2131
桶	-13.2131
蝒	-13.2131
皞	-13.2131
𫝑	-13.2132
蔔	-13.2132
蕍	-13.2133
逍	-13.2133
臍	-13.2135
弣	-13.2135
莾	-13.2136
㫺	-13.2136
单	-13.2138
丄	-13.2138
窿	-13.2138
催	-13.2139
廄	-13.214
喫	-13.214
狙	-13.2141
鼃	-13.2141
蘬	-13.2141
瞶	-13.2141
羍	-13.2141
牋	-13.2141
唳	-13.2141
𬞞	-13.2142
墅	-13.2142
跣	-13.2144
䢴	-13.2144
葩	-13.2145
茮	-13.2145
彆	-13.2145
儋	-13.2146
豣	-13.2146
譟	-13.2148
褵	-13.2148
呦	-13.2148
醑	-13.2148
湔	-13.2149
嘖	-13.215
覓	-13.2151
杶	-13.2152
䘳	-13.2152
枅	-13.2155
穪	-13.2155
蚖	-13.2155
僑	-13.2155
袋	-13.2156
珊	-13.2158
㤄	-13.2161
襁	-13.2164
䄡	-13.2169
煟	-13.2169
襫	-13.2663
襏	-13.2664
鷚	-13.2693
鷫	-13.2695
綣	-13.2701
鸐	-13.2702
㠯	-13.2702
􁈎	-13.2703
隶	-13.2704
睎	-13.2704
籈	-13.2706
陬	-13.2706
橀	-13.2706
亐	-13.2706
紱	-13.2706
刅	-13.2706
鷑	-13.2707
蜎	-13.2708
劌	-13.2708
樟	-13.2709
馗	-13.271
䰝	-13.271
凸	-13.2712
薔	-13.2712
濤	-13.2712
默	-13.2712
蟟	-13.2714
搯	-13.2715
棐	-13.2715
婘	-13.2716
畺	-13.2716
嗺	-13.2716
棬	-13.2717
璇	-13.2718
􁄃	-13.2718
籗	-13.2719
蜇	-13.272
洚	-13.272
棊	-13.272
吭	-13.272
覦	-13.272
偁	-13.272
剴	-13.272
悱	-13.2722
鱯	-13.2722
犄	-13.2723
鄕	-13.2723
𥙿	-13.2723
嘘	-13.2723
綖	-13.2723
櫽	-13.2724
價	-13.2724
跼	-13.2724
芎	-13.2725
蝣	-13.2725
楗	-13.2726
倀	-13.2726
鼯	-13.2727
鼷	-13.2727
笋	-13.2727
兜	-13.2727
蟃	-13.2727
潑	-13.2727
娟	-13.2727
蹔	-13.2728
疉	-13.2729
确	-13.273
遅	-13.273
韡	-13.273
邗	-13.273
鄁	-13.2731
悮	-13.2731
錬	-13.2731
蒋	-13.2734
襦	-13.2736
畟	-13.2736
怕	-13.2737
眺	-13.2737
奂	-13.2737
頬	-13.2737
鱻	-13.2739
虬	-13.2739
愕	-13.2739
穅	-13.274
牗	-13.2741
夹	-13.2741
妲	-13.2744
圅	-13.2747
愐	-13.2752
蛜	-13.2755
仭	-13.277
枎	-13.3327
毇	-13.333
獜	-13.333
䨘	-13.3333
薶	-13.3333
扎	-13.3335
侶	-13.3335
柿	-13.3336
皺	-13.3337
鮓	-13.3337
赩	-13.3337
秖	-13.3339
歃	-13.3339
呭	-13.3339
囑	-13.3339
􁉟	-13.334
瞬	-13.334
埃	-13.334
罾	-13.334
桮	-13.3341
綆	-13.3341
鵑	-13.3341
窩	-13.3341
虒	-13.3341
吊	-13.3341
頞	-13.3342
瘐	-13.3343
羕	-13.3343
玠	-13.3343
蒬	-13.3343
牿	-13.3343
岍	-13.3343
塟	-13.3344
摳	-13.3344
􁈥	-13.3344
彳	-13.3345
荄	-13.3346
膩	-13.3346
蛙	-13.3346
舃	-13.3346
軋	-13.3346
娥	-13.3346
芡	-13.3346
販	-13.3346
䛕	-13.3346
孱	-13.3347
捆	-13.3347
覘	-13.3347
萴	-13.3348
膻	-13.3348
擴	-13.3348
夆	-13.3349
縉	-13.3349
黂	-13.3349
敉	-13.3349
彡	-13.335
霛	-13.335
裾	-13.335
㝢	-13.3351
䶂	-13.3351
芓	-13.3351
鉄	-13.3351
羭	-13.3351
緦	-13.3351
栰	-13.3351
膜	-13.3352
晩	-13.3353
倞	-13.3353
呰	-13.3353
靃	-13.3353
㟁	-13.3353
𫀆	-13.3353
戬	-13.3354
柤	-13.3354
净	-13.3354
檝	-13.3354
秈	-13.3355
㝛	-13.3355
盂	-13.3356
𬒮	-13.3356
喣	-13.3357
喆	-13.3357
旊	-13.3357
両	-13.3357
湜	-13.3358
嶠	-13.3359
捊	-13.3359
哮	-13.3359
朸	-13.3359
箌	-13.336
鸅	-13.336
䰟	-13.336
黶	-13.336
冄	-13.3361
甹	-13.3361
蔾	-13.3362
犒	-13.3362
沭	-13.3363
邯	-13.3364
蓂	-13.3364
朘	-13.3366
縟	-13.3366
􁀤	-13.3367
耰	-13.3368
䄂	-13.3368
瑚	-13.3369
㕘	-13.337
冑	-13.3372
騽	-13.3372
刜	-13.3375
邳	-13.3377
璅	-13.3377
炯	-13.3381
酪	-13.3382
縚	-13.3386
醸	-13.3387
眄	-13.3397
琖	-13.34
榠	-13.3405
憴	-13.3987
兦	-13.3989
跽	-13.3991
蒮	-13.3993
薜	-13.3994
衙	-13.3997
􁊠	-13.4001
疌	-13.4002
荔	-13.4002
潝	-13.4002
漓	-13.4003
􁉽	-13.4003
蕀	-13.4003
鳱	-13.4004
謍	-13.4005
臷	-13.4005
䒒	-13.4005
鴳	-13.4006
􁈿	-13.4007
耼	-13.4007
淩	-13.4008
叉	-13.4008
㽦	-13.4009
瀀	-13.4009
㕍	-13.4009
鶵	-13.401
綻	-13.4012
帟	-13.4012
柸	-13.4012
缹	-13.4012
囏	-13.4012
茠	-13.4012
蒜	-13.4012
􁉯	-13.4014
絍	-13.4014
觓	-13.4014
獑	-13.4015
碣	-13.4015
篦	-13.4015
轑	-13.4016
䱰	-13.4016
蛻	-13.4016
鱍	-13.4017
軻	-13.4017
淤	-13.4017
蟈	-13.4018
漲	-13.4018
茙	-13.4018
謞	-13.4018
婼	-13.4019
􁈦	-13.4019
莬	-13.4019
􁉺	-13.4019
蘘	-13.402
㕧	-13.402
鱑	-13.402
槀	-13.402
剙	-13.402
屐	-13.402
緀	-13.4021
醍	-13.4021
鵪	-13.4021
獥	-13.4022
幘	-13.4022
禩	-13.4023
㥑	-13.4024
蝸	-13.4025
瑑	-13.4025
敇	-13.4025
启	-13.4025
糁	-13.4026
匙	-13.4027
馥	-13.4027
贛	-13.4027
沁	-13.4027
䬸	-13.4028
夊	-13.4028
鑽	-13.4028
􁈙	-13.4031
鵅	-13.4032
宓	-13.4033
璿	-13.4034
𪷟	-13.4034
曝	-13.4035
㩗	-13.4036
廋	-13.4036
逭	-13.4036
箘	-13.4036
駂	-13.4037
祸	-13.4038
焯	-13.4038
丐	-13.4038
笺	-13.4039
掫	-13.404
餗	-13.4043
匈	-13.4044
僥	-13.4044
鰕	-13.4048
鴱	-13.4048
蒫	-13.4049
凊	-13.4065
薃	-13.4683
鶠	-13.4691
晹	-13.4701
雇	-13.4706
幎	-13.4708
瘧	-13.4708
􁈩	-13.4709
縗	-13.4711
燂	-13.4711
榴	-13.4711
炒	-13.4712
沰	-13.4712
牸	-13.4712
鳭	-13.4713
薚	-13.4713
皜	-13.4713
剗	-13.4714
軔	-13.4714
涏	-13.4715
艁	-13.4716
碬	-13.4717
倂	-13.4718
䡾	-13.4718
顁	-13.4718
豓	-13.4718
袚	-13.4719
枿	-13.4719
埒	-13.4719
癢	-13.472
孛	-13.472
穬	-13.472
堙	-13.4721
蔠	-13.4721
祟	-13.4721
眤	-13.4721
枖	-13.4721
諐	-13.4721
芊	-13.4721
劄	-13.4722
䍧	-13.4722
巂	-13.4722
喑	-13.4722
僇	-13.4722
嶼	-13.4723
晻	-13.4723
酟	-13.4723
蓨	-13.4723
貙	-13.4723
沴	-13.4724
陑	-13.4724
揲	-13.4724
薻	-13.4724
尞	-13.4725
􁉜	-13.4725
霿	-13.4725
惋	-13.4725
獒	-13.4726
郄	-13.4726
㪅	-13.4726
薤	-13.4727
禧	-13.4727
揫	-13.4727
惲	-13.4727
蹕	-13.4727
䑛	-13.4728
嵂	-13.4728
污	-13.4728
嫻	-13.4729
嚨	-13.4729
蚅	-13.4729
撕	-13.473
酖	-13.473
鑛	-13.473
鈐	-13.473
薧	-13.4731
嗉	-13.4731
滙	-13.4732
屹	-13.4732
猖	-13.4732
鮅	-13.4732
衺	-13.4732
窓	-13.4733
曕	-13.4733
媸	-13.4733
鈆	-13.4734
陗	-13.4734
冤	-13.4734
鞛	-13.4734
㝎	-13.4735
騃	-13.4735
餽	-13.4735
膁	-13.4735
􁈐	-13.4736
翪	-13.4736
􁉣	-13.4736
酧	-13.4736
鑚	-13.4737
犚	-13.4737
牰	-13.4737
唸	-13.4738
貑	-13.4739
鴮	-13.4739
潄	-13.4739
蟢	-13.474
鮛	-13.474
賵	-13.4741
齕	-13.4741
墊	-13.4741
椔	-13.4741
躒	-13.4741
钀	-13.4742
澌	-13.4742
髣	-13.4742
軄	-13.4743
讚	-13.4743
舠	-13.4744
􁊹	-13.4744
箝	-13.4744
僔	-13.4747
驓	-13.4748
湇	-13.475
厦	-13.475
摙	-13.475
檄	-13.475
栱	-13.475
螝	-13.4752
䏧	-13.4753
瑛	-13.4753
韈	-13.4757
瞑	-13.4757
嶲	-13.4759
猒	-13.4763
粰	-13.4763
慴	-13.4769
「	-13.5435
靨	-13.5441
雗	-13.5451
㑴	-13.5464
掔	-13.5469
鼜	-13.5474
匆	-13.5474
膄	-13.5477
贗	-13.5479
翽	-13.548
獾	-13.5481
橧	-13.5482
阱	-13.5484
醖	-13.5484
糊	-13.5485
蕉	-13.5485
隍	-13.5485
朁	-13.5485
醺	-13.5486
辵	-13.5487
宕	-13.5487
倮	-13.5488
袤	-13.5488
豰	-13.5489
湫	-13.5489
虙	-13.5489
肶	-13.5489
鼬	-13.5489
匄	-13.5489
鵾	-13.549
􁉻	-13.549
藺	-13.549
虀	-13.549
佌	-13.549
跌	-13.549
埶	-13.5491
鴪	-13.5491
氄	-13.5491
鬺	-13.5491
佖	-13.5491
沅	-13.5492
輨	-13.5492
煨	-13.5492
准	-13.5493
榜	-13.5493
挿	-13.5493
菺	-13.5493
潼	-13.5494
􁅈	-13.5495
圑	-13.5495
洊	-13.5495
䨾	-13.5495
忕	-13.5495
羃	-13.5496
憝	-13.5496
痬	-13.5497
閌	-13.5498
嘵	-13.5498
櫸	-13.5498
蜍	-13.5498
𧰼	-13.5498
蹴	-13.5499
竪	-13.5499
樴	-13.5499
溜	-13.5499
棋	-13.55
毘	-13.55
櫨	-13.55
筠	-13.55
蟺	-13.55
蓿	-13.5501
芰	-13.5501
蟜	-13.5501
描	-13.5501
旡	-13.5501
䞇	-13.5502
鶆	-13.5502
虱	-13.5502
灉	-13.5502
㰦	-13.5502
篾	-13.5503
廊	-13.5503
耓	-13.5503
蠀	-13.5503
鴃	-13.5503
觲	-13.5504
菸	-13.5505
醳	-13.5505
蠺	-13.5507
卝	-13.5508
荳	-13.5509
懑	-13.551
殬	-13.551
貜	-13.5511
讜	-13.5511
􁅂	-13.5512
佹	-13.5512
塍	-13.5513
肎	-13.5513
􁉵	-13.5513
匭	-13.5514
楔	-13.5514
蝭	-13.5514
咡	-13.5515
􁋞	-13.5515
譊	-13.5515
蒚	-13.5515
腋	-13.5515
愓	-13.5516
鄊	-13.5516
濇	-13.5517
适	-13.5517
䣝	-13.5517
娵	-13.5518
禬	-13.5518
揀	-13.5518
㐀	-13.5518
朐	-13.5519
毬	-13.5519
眈	-13.552
跖	-13.5523
轚	-13.5525
㖡	-13.553
鐙	-13.5531
驊	-13.5531
漱	-13.5532
舫	-13.5534
匾	-13.5542
籙	-13.5562
蝤	-13.5996
窋	-13.6265
鵁	-13.6286
鵫	-13.6292
駫	-13.6293
鱠	-13.6309
㩥	-13.6309
觪	-13.6312
鎖	-13.6312
䌰	-13.6312
蚋	-13.6313
赳	-13.6313
媅	-13.6313
尓	-13.6313
綉	-13.6315
涑	-13.6316
鵧	-13.6316
䳎	-13.6316
溵	-13.6316
愵	-13.6316
癬	-13.6317
磧	-13.6317
蜒	-13.6317
蹰	-13.6318
衃	-13.6318
䅻	-13.6318
虇	-13.632
鶝	-13.6321
鮠	-13.6322
梔	-13.6322
貾	-13.6322
惷	-13.6323
泝	-13.6323
鍬	-13.6324
咄	-13.6324
雺	-13.6325
􁉉	-13.6325
僃	-13.6326
堛	-13.6326
獎	-13.6326
砮	-13.6326
瞏	-13.6327
殂	-13.6327
鄖	-13.6327
莙	-13.6327
麯	-13.6328
蚗	-13.6328
蛥	-13.6328
叱	-13.6329
叮	-13.6329
􁇩	-13.6329
蕕	-13.633
鸊	-13.6331
鶷	-13.6331
庥	-13.6331
綎	-13.6332
帰	-13.6332
賒	-13.6332
巙	-13.6332
􁉆	-13.6332
卺	-13.6332
􁊳	-13.6333
荗	-13.6333
脞	-13.6333
錙	-13.6334
碌	-13.6334
滲	-13.6334
欿	-13.6334
鱟	-13.6335
夃	-13.6335
萉	-13.6335
羵	-13.6336
𥅆	-13.6336
􁌈	-13.6336
崱	-13.6337
䫤	-13.6337
珂	-13.6337
暎	-13.6337
痞	-13.6337
蛛	-13.6337
癰	-13.6338
肵	-13.6338
䓑	-13.6338
燾	-13.6339
腕	-13.6339
愎	-13.6339
叵	-13.634
䧺	-13.634
傒	-13.634
疣	-13.634
拽	-13.634
砭	-13.634
芀	-13.634
鰓	-13.634
忙	-13.6341
粛	-13.6341
銛	-13.6341
䖝	-13.6342
顥	-13.6342
呑	-13.6343
軨	-13.6343
郈	-13.6344
鶂	-13.6344
愮	-13.6345
蝇	-13.6346
鐶	-13.6346
㹠	-13.6346
藲	-13.6346
禝	-13.6346
騣	-13.6349
顱	-13.6349
筰	-13.6351
闚	-13.6352
蓘	-13.6353
袷	-13.6356
螳	-13.6357
疛	-13.6358
曁	-13.6358
簥	-13.6359
筲	-13.6359
湼	-13.636
襚	-13.636
菥	-13.6372
璠	-13.6372
寀	-13.6385
螬	-13.6679
鶄	-13.7186
叒	-13.7211
繾	-13.7215
􁄟	-13.7216
牯	-13.7222
彗	-13.7222
嬾	-13.7222
􁈃	-13.7224
䓤	-13.7224
菨	-13.7224
閶	-13.7224
藡	-13.7225
怊	-13.7226
撝	-13.7226
剟	-13.7227
􁀂	-13.7228
茢	-13.7228
垓	-13.7228
刁	-13.7228
楝	-13.7228
㨨	-13.7228
㬱	-13.7228
鸕	-13.7228
癩	-13.7228
弲	-13.7229
橑	-13.723
踽	-13.723
漯	-13.723
蚡	-13.723
麉	-13.723
倔	-13.723
樺	-13.723
巇	-13.7231
媮	-13.7231
緖	-13.7231
紈	-13.7232
蟇	-13.7232
輮	-13.7232
厮	-13.7233
蓈	-13.7233
䩯	-13.7233
橶	-13.7233
璱	-13.7233
媻	-13.7234
灣	-13.7234
广	-13.7234
轐	-13.7234
伃	-13.7235
鯁	-13.7235
􁋵	-13.7235
斮	-13.7235
䞓	-13.7236
禷	-13.7236
峭	-13.7237
冂	-13.7237
㙪	-13.7237
韅	-13.7237
狷	-13.7237
你	-13.7238
蘵	-13.7238
尽	-13.7238
蔆	-13.7239
蠦	-13.7239
朦	-13.7239
魧	-13.7239
璩	-13.724
陼	-13.724
拏	-13.724
鰦	-13.724
氲	-13.724
鮇	-13.7241
􁉫	-13.7241
蠖	-13.7241
儁	-13.7241
僨	-13.7241
檮	-13.7242
糖	-13.7242
貅	-13.7242
鶛	-13.7243
謌	-13.7243
騖	-13.7244
穨	-13.7245
褭	-13.7245
攧	-13.7245
䲅	-13.7245
蛭	-13.7245
聵	-13.7246
亰	-13.7246
葜	-13.7246
禊	-13.7247
姁	-13.7247
償	-13.7247
罋	-13.7248
㔢	-13.7248
䍘	-13.7248
螂	-13.7248
㐲	-13.7249
笮	-13.7249
􁄵	-13.7249
隃	-13.725
惓	-13.725
仡	-13.725
帡	-13.725
簣	-13.725
攙	-13.725
罇	-13.725
軥	-13.725
䄙	-13.7251
噏	-13.7251
勛	-13.7251
儿	-13.7252
怱	-13.7252
癥	-13.7252
黸	-13.7252
㘲	-13.7253
壌	-13.7253
餔	-13.7253
匽	-13.7254
胆	-13.7254
刖	-13.7254
惬	-13.7255
蛮	-13.7255
砧	-13.7255
閬	-13.7255
舋	-13.7256
枑	-13.7256
畇	-13.7256
颲	-13.7256
崛	-13.7256
燁	-13.7256
窻	-13.7256
蕝	-13.7256
翾	-13.7256
舀	-13.7257
魋	-13.7257
䓟	-13.7257
弴	-13.7257
蝍	-13.7258
笫	-13.7258
獶	-13.7259
䓞	-13.7259
鱄	-13.7259
僧	-13.7261
貰	-13.7261
蛨	-13.7262
邜	-13.7264
苒	-13.7264
嗼	-13.7265
㧻	-13.7266
吅	-13.7268
𠡠	-13.7269
葴	-13.727
鼏	-13.727
肪	-13.7276
􁉎	-13.7277
甒	-13.728
縑	-13.7282
喋	-13.7282
蝥	-13.7283
䝿	-13.7283
䔧	-13.7284
朢	-13.7287
礜	-13.8173
鱺	-13.8206
榑	-13.8209
厶	-13.8219
䎵	-13.8221
輭	-13.8222
郉	-13.8224
缻	-13.8224
鸂	-13.8224
瞀	-13.8225
蒡	-13.8225
僄	-13.8226
滭	-13.8227
洙	-13.8227
轆	-13.8228
气	-13.8229
鐎	-13.8229
嫰	-13.8229
套	-13.8229
嫋	-13.823
毼	-13.823
蠕	-13.8231
䲹	-13.8231
齝	-13.8231
摸	-13.8232
頫	-13.8232
倏	-13.8232
㕒	-13.8232
仐	-13.8232
糳	-13.8233
琵	-13.8233
悈	-13.8233
􁉬	-13.8234
莓	-13.8234
椰	-13.8234
膓	-13.8234
黹	-13.8234
䍮	-13.8235
㜝	-13.8235
涗	-13.8235
頯	-13.8235
慓	-13.8236
柵	-13.8236
蒩	-13.8238
僵	-13.8238
鬐	-13.8238
鄷	-13.8239
獧	-13.8239
臿	-13.8239
联	-13.8239
袸	-13.824
蜕	-13.824
㯉	-13.824
饕	-13.824
嫂	-13.824
脤	-13.8241
嬥	-13.8241
藭	-13.8241
􁌖	-13.8242
雔	-13.8242
鴊	-13.8242
蕺	-13.8242
蠓	-13.8243
衹	-13.8243
痑	-13.8243
驢	-13.8243
􁉈	-13.8243
􁋝	-13.8243
鮂	-13.8243
峡	-13.8243
踳	-13.8244
懔	-13.8244
寰	-13.8244
澈	-13.8245
稾	-13.8245
㓠	-13.8245
邭	-13.8245
朏	-13.8245
􁈉	-13.8245
􁄄	-13.8246
韙	-13.8246
蕫	-13.8246
糸	-13.8246
鷸	-13.8246
厂	-13.8246
韝	-13.8247
􁉍	-13.8247
痔	-13.8247
顦	-13.8247
泓	-13.8248
䕯	-13.8248
􁉌	-13.8248
簭	-13.8248
楳	-13.8248
穏	-13.8248
柩	-13.8248
脡	-13.8248
􁈻	-13.8248
濞	-13.8248
麈	-13.8249
瀛	-13.8249
卸	-13.8249
􁊶	-13.825
麳	-13.825
銕	-13.8251
埓	-13.8251
湝	-13.8251
擗	-13.8251
斸	-13.8252
幛	-13.8253
啣	-13.8255
玟	-13.8255
豨	-13.8255
鋋	-13.8255
肫	-13.8256
䳡	-13.8256
悻	-13.8257
杅	-13.8257
号	-13.8257
蹏	-13.8259
苫	-13.8259
肸	-13.8259
溽	-13.826
逗	-13.8263
飜	-13.8263
舐	-13.8264
柹	-13.8264
桔	-13.8264
鎡	-13.8265
􁈽	-13.8267
獍	-13.8268
蕎	-13.8268
譍	-13.8268
璵	-13.8269
堥	-13.8269
薆	-13.8269
􁈯	-13.827
􁌠	-13.8272
蛅	-13.8273
椈	-13.8274
駣	-13.8275
筈	-13.8276
陁	-13.8277
臅	-13.828
衒	-13.8282
葮	-13.8284
襧	-13.8287
蔗	-13.9297
鷷	-13.9304
鶅	-13.9304
鵗	-13.9305
鳪	-13.9312
䗘	-13.9316
縌	-13.9316
皭	-13.932
褏	-13.9321
􁊙	-13.9324
詍	-13.9324
鮵	-13.9324
妤	-13.9324
蠨	-13.9325
摍	-13.9325
耡	-13.9327
鴾	-13.9328
檏	-13.9328
橿	-13.9329
臓	-13.933
絏	-13.9332
萆	-13.9332
鰹	-13.9332
旼	-13.9333
䏂	-13.9335
杴	-13.9336
䳄	-13.9336
崗	-13.9336
峐	-13.9337
􁀐	-13.9337
鞮	-13.9337
罘	-13.9338
贔	-13.9339
棥	-13.9339
矮	-13.9339
圪	-13.9339
鰡	-13.9339
曆	-13.9339
啙	-13.9339
尟	-13.934
䗁	-13.934
凭	-13.934
㑥	-13.934
湟	-13.934
厜	-13.9341
橙	-13.9341
秏	-13.9341
㗋	-13.9341
􁊜	-13.9341
剉	-13.9342
􁊱	-13.9342
鐫	-13.9342
曡	-13.9342
辠	-13.9342
轤	-13.9343
菳	-13.9343
劎	-13.9343
瀌	-13.9344
嬼	-13.9344
昦	-13.9344
鴡	-13.9344
邐	-13.9344
卄	-13.9345
俲	-13.9345
徭	-13.9346
澠	-13.9346
柅	-13.9346
帗	-13.9346
畸	-13.9347
臃	-13.9347
匚	-13.9347
齗	-13.9347
齮	-13.9347
眅	-13.9348
腨	-13.9348
鏕	-13.9348
狖	-13.9348
㝤	-13.9348
茻	-13.9348
􁈢	-13.9349
綾	-13.9349
换	-13.9349
鐋	-13.9349
螭	-13.935
攄	-13.935
䡴	-13.935
縰	-13.935
犮	-13.935
觹	-13.935
譱	-13.935
髃	-13.9351
怎	-13.9351
萵	-13.9351
蝚	-13.9351
俁	-13.9351
胠	-13.9352
鵷	-13.9352
蕤	-13.9352
嚙	-13.9352
戹	-13.9352
槨	-13.9353
趐	-13.9353
齔	-13.9353
匯	-13.9353
璉	-13.9353
酹	-13.9353
㗉	-13.9354
􁊃	-13.9354
妉	-13.9354
衊	-13.9354
畐	-13.9355
鋟	-13.9355
茝	-13.9355
枘	-13.9355
㻆	-13.9356
苪	-13.9356
蛁	-13.9356
瞫	-13.9356
慥	-13.9356
倕	-13.9356
􁉇	-13.9356
婀	-13.9356
曩	-13.9356
怗	-13.9357
俣	-13.9357
丂	-13.9357
蘐	-13.9357
玳	-13.9358
褶	-13.9358
蛑	-13.9359
旤	-13.9359
韞	-13.9359
薳	-13.9359
憢	-13.9359
烱	-13.9359
𡊮	-13.9359
獘	-13.9359
旈	-13.936
頟	-13.936
丣	-13.936
黤	-13.936
卩	-13.936
鞌	-13.9361
瞰	-13.9361
鴯	-13.9361
鷾	-13.9361
惎	-13.9362
􁆹	-13.9362
暦	-13.9363
柒	-13.9363
簵	-13.9363
襯	-13.9364
扑	-13.9364
撟	-13.9364
浞	-13.9364
巅	-13.9365
抛	-13.9365
冹	-13.9365
􁄧	-13.9365
㽞	-13.9366
梐	-13.9367
郅	-13.9367
媺	-13.9367
扳	-13.9367
麫	-13.9367
夒	-13.9367
􁈟	-13.9368
迢	-13.9368
杸	-13.9368
媆	-13.9368
賅	-13.9368
竑	-13.9369
㓖	-13.9369
症	-13.937
撙	-13.937
煴	-13.937
枬	-13.9371
緋	-13.9372
苔	-13.9373
窑	-13.9374
􁀎	-13.9375
擺	-13.9375
宧	-13.9375
韲	-13.9375
􁊁	-13.9375
譔	-13.9377
藦	-13.9378
袠	-13.9379
馰	-13.9379
臲	-13.9379
陡	-13.938
鱤	-13.9383
盭	-13.9383
媪	-13.9384
勹	-13.9385
敲	-13.9387
捶	-13.9388
柛	-13.9389
禺	-13.9389
􁄗	-13.9391
哠	-13.9395
䜿	-13.9397
􁍍	-13.9413
淊	-13.9417
脀	-13.9418
桰	-13.9418
豴	-14.0558
寠	-14.056
泡	-14.0569
窪	-14.0573
嬒	-14.0575
鱎	-14.0578
蟰	-14.0578
牁	-14.0578
蜰	-14.0579
掄	-14.058
㣎	-14.058
奧	-14.058
婕	-14.0581
旎	-14.0582
墫	-14.0582
􁉚	-14.0583
鵀	-14.0583
䬴	-14.0584
鴔	-14.0584
蠵	-14.0586
鼞	-14.0586
韖	-14.0586
睘	-14.0587
巜	-14.0587
糈	-14.0587
䓆	-14.0587
蟒	-14.0588
㘈	-14.0589
嘩	-14.059
忳	-14.059
眎	-14.059
鶒	-14.0591
觕	-14.0591
􁎇	-14.0591
鮭	-14.0591
琬	-14.0591
傓	-14.0592
毊	-14.0592
佀	-14.0593
䘖	-14.0593
僶	-14.0593
傖	-14.0593
絨	-14.0593
腑	-14.0593
稰	-14.0593
鱖	-14.0593
豶	-14.0594
娿	-14.0596
誐	-14.0597
醧	-14.0597
棷	-14.0597
靧	-14.0597
甖	-14.0597
衂	-14.0597
萭	-14.0597
抌	-14.0597
鰌	-14.0598
慟	-14.0598
噋	-14.0599
膷	-14.0599
碓	-14.0599
㴑	-14.0599
鏚	-14.06
􁋠	-14.06
妝	-14.06
駞	-14.06
涣	-14.0601
膈	-14.0601
茺	-14.0601
癶	-14.0601
痿	-14.0601
箧	-14.0601
泃	-14.0602
帉	-14.0602
蚢	-14.0602
倥	-14.0602
甝	-14.0602
焄	-14.0603
囹	-14.0603
俻	-14.0603
蚕	-14.0603
嘿	-14.0603
挻	-14.0604
惌	-14.0604
㒷	-14.0604
厔	-14.0604
嚀	-14.0604
脕	-14.0604
玲	-14.0604
瘂	-14.0604
硯	-14.0604
笻	-14.0605
蝨	-14.0605
蔇	-14.0605
􁆻	-14.0606
駥	-14.0606
􁊄	-14.0606
搥	-14.0606
纇	-14.0607
丿	-14.0607
膱	-14.0607
燀	-14.0608
蓎	-14.0608
臀	-14.0608
襞	-14.0608
券	-14.0608
疒	-14.0609
氂	-14.0609
匃	-14.0609
睟	-14.061
醎	-14.061
泱	-14.0611
蟓	-14.0611
螯	-14.0611
蔯	-14.0611
罧	-14.0611
蚔	-14.0612
蜿	-14.0612
蘼	-14.0612
燅	-14.0612
鮞	-14.0613
靛	-14.0613
箐	-14.0613
筤	-14.0614
􁉹	-14.0614
䜅	-14.0614
痏	-14.0614
縧	-14.0614
朡	-14.0614
擷	-14.0615
鍱	-14.0615
蒵	-14.0616
痍	-14.0616
瘤	-14.0617
劈	-14.0617
㨄	-14.0618
􁊚	-14.0618
喝	-14.0618
飰	-14.0618
􁆡	-14.0619
􁉷	-14.0619
婬	-14.0619
竫	-14.062
瀝	-14.062
瘇	-14.062
凵	-14.0621
嵓	-14.0621
溠	-14.0621
甐	-14.0621
榻	-14.0622
椀	-14.0623
觡	-14.0623
俜	-14.0624
賖	-14.0626
蠰	-14.0626
叄	-14.0628
柜	-14.0629
蠚	-14.063
靽	-14.063
裡	-14.063
庛	-14.0632
惪	-14.0633
蜲	-14.0633
萲	-14.0634
􁀔	-14.0634
瘕	-14.0635
峴	-14.064
葌	-14.064
箆	-14.0641
􁈳	-14.0645
􁉃	-14.0652
庬	-14.0653
𧃊	-14.0653
轙	-14.0669
㽥	-14.068
捔	-14.1982
」	-14.1983
幙	-14.1984
菭	-14.1987
夌	-14.1992
椑	-14.1993
釆	-14.1995
卪	-14.1995
壴	-14.1996
柣	-14.1998
磷	-14.2
繸	-14.2
莣	-14.2
慵	-14.2
嶻	-14.2
阞	-14.2
釳	-14.2002
譪	-14.2004
袲	-14.2004
嬝	-14.2007
趁	-14.2008
椉	-14.2009
珏	-14.2009
􁀋	-14.2009
蟅	-14.201
鷀	-14.201
叴	-14.201
疪	-14.2011
扐	-14.2011
轟	-14.2012
鼸	-14.2012
􁉠	-14.2012
郫	-14.2012
旖	-14.2012
驍	-14.2013
唘	-14.2013
淲	-14.2014
􁂙	-14.2014
鵽	-14.2014
跱	-14.2015
鮁	-14.2015
榩	-14.2015
烔	-14.2016
柭	-14.2016
鞢	-14.2016
擽	-14.2016
褌	-14.2016
蒢	-14.2016
􁀦	-14.2017
盉	-14.2017
浟	-14.2017
挨	-14.2018
霝	-14.2018
瞞	-14.2018
螸	-14.2019
秱	-14.2019
撒	-14.2019
蛷	-14.2019
搰	-14.202
赠	-14.202
莨	-14.2021
蛦	-14.2021
牌	-14.2021
鶭	-14.2021
䁩	-14.2022
謼	-14.2023
臙	-14.2023
捩	-14.2023
䓯	-14.2023
凂	-14.2024
踝	-14.2024
棹	-14.2024
凷	-14.2024
􁂑	-14.2024
挍	-14.2025
屭	-14.2025
錧	-14.2025
枮	-14.2025
庀	-14.2025
蚺	-14.2025
鍤	-14.2026
殀	-14.2026
亍	-14.2027
鬋	-14.2027
扒	-14.2027
頵	-14.2028
廽	-14.2028
誖	-14.2028
詼	-14.2028
蝽	-14.2028
夤	-14.2029
􁂅	-14.2029
稞	-14.2029
齓	-14.2029
嵐	-14.203
鴣	-14.203
阽	-14.203
髯	-14.2031
鑴	-14.2031
抹	-14.2031
鷒	-14.2031
筝	-14.2031
捽	-14.2031
䰍	-14.2031
悃	-14.2031
螀	-14.2031
椁	-14.2032
伻	-14.2032
䀠	-14.2032
继	-14.2032
縏	-14.2032
鶗	-14.2032
戉	-14.2033
䆅	-14.2033
觭	-14.2033
惹	-14.2033
􁊏	-14.2033
􁂳	-14.2033
呵	-14.2034
膞	-14.2034
抆	-14.2034
躉	-14.2034
恧	-14.2034
冸	-14.2035
塏	-14.2035
􁉏	-14.2035
餮	-14.2036
獗	-14.2036
鋌	-14.2036
辢	-14.2036
断	-14.2036
䳲	-14.2037
箈	-14.2037
亲	-14.2037
髫	-14.2038
亏	-14.2038
蓊	-14.2038
獅	-14.2039
㲈	-14.2039
躰	-14.2039
閃	-14.2039
恡	-14.2039
煉	-14.2039
梲	-14.204
沗	-14.204
睱	-14.204
瞋	-14.2041
拼	-14.2043
纈	-14.2043
摺	-14.2043
訶	-14.2043
韮	-14.2043
㸮	-14.2044
岩	-14.2044
臊	-14.2044
芔	-14.2044
鶞	-14.2044
屡	-14.2044
献	-14.2045
絣	-14.2045
炅	-14.2046
离	-14.2046
蘗	-14.2046
芅	-14.2046
嫺	-14.2047
枇	-14.2047
􁉘	-14.2049
㮮	-14.2049
廚	-14.2049
髤	-14.2049
斉	-14.205
梮	-14.205
蕋	-14.2051
鱼	-14.2051
厪	-14.2051
牕	-14.2051
溴	-14.2051
勳	-14.2052
弹	-14.2052
榼	-14.2052
鱔	-14.2052
鼄	-14.2053
鼅	-14.2053
艇	-14.2054
妁	-14.2055
黥	-14.2055
瓤	-14.2055
猩	-14.2055
麙	-14.2055
袇	-14.2055
䳓	-14.2056
磏	-14.2057
汛	-14.2059
蹗	-14.2059
汍	-14.2061
蠹	-14.2061
箄	-14.2061
膊	-14.2061
簍	-14.2064
蘥	-14.2064
蓤	-14.2065
甛	-14.2065
蘚	-14.2065
祡	-14.2066
詧	-14.2066
鏦	-14.2066
顕	-14.2067
歠	-14.2069
焌	-14.2071
攖	-14.2071
庪	-14.2072
䱤	-14.2072
麷	-14.2072
飤	-14.2074
孀	-14.2074
疴	-14.2074
覒	-14.2076
蠁	-14.2076
㿒	-14.208
簎	-14.2082
蟁	-14.2083
燉	-14.2088
裧	-14.2088
潒	-14.2121
甬	-14.3592
􁊼	-14.3609
崐	-14.3631
崘	-14.3631
毶	-14.3635
􁋣	-14.3638
崍	-14.3638
䩉	-14.3648
胹	-14.365
㸤	-14.3653
杈	-14.3654
㴞	-14.3655
犣	-14.3656
鸘	-14.3658
鄯	-14.366
崌	-14.3661
庮	-14.3662
夅	-14.3662
涪	-14.3667
爚	-14.3668
曏	-14.3668
卨	-14.3669
鷐	-14.3671
胭	-14.3673
姕	-14.3674
维	-14.3675
􁉢	-14.3675
燻	-14.3677
􁁛	-14.3677
卅	-14.3677
駃	-14.3677
瀑	-14.3678
輂	-14.3678
䎘	-14.3679
劓	-14.368
郞	-14.368
勣	-14.368
閙	-14.3681
􁉸	-14.3681
溓	-14.3681
鈸	-14.3681
派	-14.3682
􁂠	-14.3682
爊	-14.3682
吚	-14.3682
犭	-14.3683
蓧	-14.3684
竂	-14.3684
輼	-14.3684
鳼	-14.3684
㡛	-14.3684
鄚	-14.3684
躳	-14.3685
煆	-14.3685
喿	-14.3685
䰲	-14.3685
籔	-14.3685
迯	-14.3686
鄔	-14.3686
􁈕	-14.3686
䥫	-14.3686
楩	-14.3686
軑	-14.3686
废	-14.3687
遝	-14.3687
澍	-14.3688
汸	-14.3688
鐊	-14.3688
硩	-14.3688
奩	-14.3688
嚅	-14.3688
冏	-14.3688
䝠	-14.3688
堊	-14.3689
誧	-14.3689
㽨	-14.3689
睞	-14.3689
雧	-14.3689
晫	-14.369
狶	-14.369
躕	-14.369
爿	-14.369
溈	-14.369
􁀨	-14.369
菤	-14.369
袛	-14.369
蜘	-14.369
璓	-14.369
兇	-14.3691
廧	-14.3691
蟥	-14.3691
䱜	-14.3691
璟	-14.3691
藗	-14.3691
䥴	-14.3692
哻	-14.3692
䍖	-14.3692
縜	-14.3692
茞	-14.3693
絝	-14.3693
嵎	-14.3693
斈	-14.3693
闒	-14.3693
机	-14.3693
毯	-14.3693
貲	-14.3693
齪	-14.3694
䀪	-14.3694
菧	-14.3694
嬃	-14.3694
痰	-14.3694
䆤	-14.3694
䢷	-14.3694
㓨	-14.3694
繍	-14.3694
剋	-14.3695
狻	-14.3695
齷	-14.3695
蔨	-14.3695
窗	-14.3695
縄	-14.3695
抶	-14.3695
踉	-14.3695
兟	-14.3696
懍	-14.3696
囱	-14.3696
蔶	-14.3696
崈	-14.3696
雘	-14.3696
贓	-14.3697
剜	-14.3697
眔	-14.3697
鑱	-14.3697
慫	-14.3697
粕	-14.3697
􁋭	-14.3698
㣧	-14.3698
絫	-14.3698
帀	-14.3698
婪	-14.3698
隞	-14.3698
餹	-14.3699
臽	-14.3699
䖸	-14.3699
鶾	-14.3699
訰	-14.3699
螔	-14.3699
隿	-14.3699
迊	-14.3699
梵	-14.3699
顈	-14.3699
䯤	-14.3699
緬	-14.37
􁂿	-14.37
惆	-14.37
繘	-14.37
蹮	-14.37
紿	-14.3701
忞	-14.3701
䔛	-14.3701
抔	-14.3701
涽	-14.3701
狘	-14.3702
躧	-14.3702
渟	-14.3702
鼶	-14.3702
坺	-14.3702
碁	-14.3702
麔	-14.3702
茐	-14.3703
􁃝	-14.3703
􁈒	-14.3703
陊	-14.3703
幑	-14.3703
􁀹	-14.3703
駻	-14.3703
􁉕	-14.3703
啁	-14.3704
嗃	-14.3704
瘝	-14.3704
秤	-14.3704
耎	-14.3704
擭	-14.3704
忸	-14.3704
怩	-14.3704
峕	-14.3704
頊	-14.3705
瑄	-14.3705
懥	-14.3705
腿	-14.3705
斪	-14.3706
㢠	-14.3706
䒫	-14.3706
􁈲	-14.3706
剰	-14.3706
蛀	-14.3706
􁂟	-14.3706
㝡	-14.3707
幨	-14.3707
嵯	-14.3707
潺	-14.3707
礲	-14.3707
敻	-14.3707
憔	-14.3707
粮	-14.3707
蜬	-14.3707
糇	-14.3707
㶣	-14.3707
鵌	-14.3707
靺	-14.3707
禠	-14.3707
倢	-14.3708
掐	-14.3708
玫	-14.3708
𠞰	-14.3708
葫	-14.3709
駏	-14.3709
窊	-14.3709
㾯	-14.3709
䴥	-14.371
傎	-14.371
瑉	-14.371
术	-14.371
殣	-14.371
債	-14.371
扢	-14.371
縡	-14.371
淰	-14.3711
􁆁	-14.3711
鋀	-14.3713
攵	-14.3713
捃	-14.3714
秧	-14.3714
䴢	-14.3714
菖	-14.3714
轛	-14.3715
㐱	-14.3715
矻	-14.3715
趕	-14.3716
伽	-14.3716
諴	-14.3716
蘅	-14.3717
蟿	-14.3717
暜	-14.3717
琯	-14.3717
瑬	-14.3717
䌓	-14.3717
吮	-14.3717
璙	-14.3718
謣	-14.3718
磻	-14.3719
嶮	-14.372
閠	-14.372
忩	-14.3721
蹠	-14.3721
眧	-14.3721
㜪	-14.3721
嗛	-14.3721
髽	-14.3721
奡	-14.3721
顄	-14.3722
甃	-14.3722
蕊	-14.3722
鸓	-14.3724
唼	-14.3724
隲	-14.3725
犲	-14.3725
篁	-14.3726
㫃	-14.3727
咆	-14.3727
斡	-14.3728
帬	-14.3728
魊	-14.3728
訒	-14.3728
茈	-14.3729
垠	-14.3729
迕	-14.3729
丏	-14.3729
􁋾	-14.3729
憧	-14.373
閍	-14.373
辬	-14.373
戼	-14.373
攅	-14.373
斌	-14.3731
􁆐	-14.3733
迒	-14.3733
攔	-14.3735
歰	-14.3736
卼	-14.3737
贋	-14.374
淈	-14.374
􁈴	-14.3741
􁌌	-14.3742
紾	-14.3743
夂	-14.3745
鋚	-14.3745
蝛	-14.3746
篹	-14.3752
􁋁	-14.3756
亻	-14.3757
鋝	-14.376
􁋒	-14.3767
狴	-14.3821
箬	-14.5617
瞂	-14.5619
䵷	-14.5621
鳵	-14.5624
灂	-14.5632
䓅	-14.564
笒	-14.5642
䍤	-14.5654
䔺	-14.5654
􁀇	-14.5655
晬	-14.5658
㡭	-14.5659
䑞	-14.5663
榽	-14.5663
蠣	-14.5664
䶆	-14.5664
椏	-14.5664
撡	-14.5664
鈃	-14.5664
豼	-14.5666
瓿	-14.5666
亯	-14.5666
陴	-14.5666
鰿	-14.5667
蜠	-14.5667
盇	-14.5668
睅	-14.5669
攕	-14.567
椶	-14.567
簌	-14.5671
莟	-14.5672
偼	-14.5673
橭	-14.5673
暝	-14.5674
轝	-14.5675
崿	-14.5675
凾	-14.5675
㨐	-14.5675
冘	-14.5676
洓	-14.5676
祅	-14.5676
礟	-14.5676
甶	-14.5676
榷	-14.5676
鳽	-14.5677
赐	-14.5677
齯	-14.5677
幵	-14.5678
沷	-14.5678
􁋲	-14.5678
泔	-14.5678
悳	-14.5678
潯	-14.5678
摋	-14.5679
絭	-14.5679
㶏	-14.5679
屖	-14.568
麮	-14.568
犨	-14.568
􁄋	-14.568
翎	-14.568
訦	-14.568
誃	-14.568
鼱	-14.5681
𤯝	-14.5682
􁍋	-14.5682
㷸	-14.5682
侫	-14.5682
􁉋	-14.5682
嚔	-14.5683
峒	-14.5683
欷	-14.5683
罼	-14.5684
蔁	-14.5684
䧿	-14.5685
叀	-14.5685
绳	-14.5685
􁂥	-14.5685
􁅃	-14.5686
琱	-14.5686
煜	-14.5686
攡	-14.5686
檡	-14.5687
疀	-14.5687
笔	-14.5687
驉	-14.5687
憭	-14.5688
􁊘	-14.5688
㫋	-14.5688
扯	-14.5688
稳	-14.5688
䘲	-14.5689
膫	-14.5689
魦	-14.5689
刎	-14.5689
秷	-14.569
霢	-14.5691
嘷	-14.5691
㓝	-14.5691
㝱	-14.5692
􁈤	-14.5692
枊	-14.5692
忭	-14.5692
壃	-14.5692
鷁	-14.5692
竀	-14.5692
拌	-14.5692
儛	-14.5692
􁊍	-14.5693
蒟	-14.5693
蹎	-14.5694
蚆	-14.5694
轒	-14.5694
蘤	-14.5694
螋	-14.5694
􁍌	-14.5694
苶	-14.5694
庋	-14.5695
鎰	-14.5695
􁋻	-14.5695
劚	-14.5695
憍	-14.5695
禈	-14.5695
鰉	-14.5695
偒	-14.5695
荃	-14.5695
罣	-14.5695
㻫	-14.5696
諽	-14.5696
噱	-14.5696
歂	-14.5696
嬿	-14.5696
拗	-14.5697
虍	-14.5697
迍	-14.5697
屝	-14.5697
欄	-14.5697
蕈	-14.5698
褫	-14.5698
查	-14.5698
屍	-14.5698
纣	-14.5698
瓮	-14.5699
怏	-14.5699
氍	-14.5699
藙	-14.5699
櫃	-14.5699
棨	-14.5699
誂	-14.57
褱	-14.57
歬	-14.57
鷜	-14.57
刦	-14.57
恋	-14.57
坏	-14.57
霎	-14.57
鞇	-14.57
涚	-14.5701
虪	-14.5701
偫	-14.5701
􁈨	-14.5701
豖	-14.5701
鲋	-14.5701
柂	-14.5701
沆	-14.5701
脹	-14.5701
􁊝	-14.5701
屰	-14.5701
覸	-14.5701
腝	-14.5702
顋	-14.5702
迁	-14.5702
怞	-14.5702
䚢	-14.5702
鑪	-14.5702
峞	-14.5702
曬	-14.5702
捎	-14.5702
戔	-14.5703
媲	-14.5704
夰	-14.5704
嶄	-14.5704
胝	-14.5704
阤	-14.5704
泦	-14.5704
蝉	-14.5705
􁃛	-14.5705
醃	-14.5705
楞	-14.5705
汦	-14.5705
肁	-14.5705
㚘	-14.5705
􁆳	-14.5706
􁇌	-14.5706
帽	-14.5706
遬	-14.5706
㵒	-14.5706
扉	-14.5707
揩	-14.5707
祏	-14.5707
済	-14.5707
尒	-14.5708
袓	-14.5708
讞	-14.5708
􁋷	-14.5708
吒	-14.5708
璀	-14.5708
肰	-14.5709
鏵	-14.5709
渣	-14.571
鼵	-14.571
哽	-14.571
䴡	-14.571
店	-14.5711
丨	-14.5711
姎	-14.5712
斆	-14.5712
濠	-14.5712
暏	-14.5712
鶿	-14.5712
偎	-14.5712
􁂆	-14.5712
賻	-14.5712
㣻	-14.5713
卟	-14.5713
䱔	-14.5713
惮	-14.5713
洺	-14.5713
􁋊	-14.5713
鄲	-14.5714
佺	-14.5714
濓	-14.5714
馽	-14.5714
腄	-14.5714
􁅅	-14.5715
􁋡	-14.5715
繙	-14.5715
聝	-14.5715
嵍	-14.5715
躪	-14.5716
楂	-14.5716
瞥	-14.5716
犈	-14.5716
樁	-14.5717
庿	-14.5717
翏	-14.5717
黈	-14.5718
綮	-14.5718
㬊	-14.5718
絻	-14.5718
𦦨	-14.5718
琦	-14.5718
戽	-14.5719
糅	-14.5719
莃	-14.5719
匜	-14.5719
鏬	-14.5719
疄	-14.572
磝	-14.572
估	-14.572
曚	-14.572
􁆮	-14.572
􁌵	-14.572
珎	-14.5721
佋	-14.5721
抃	-14.5722
璨	-14.5722
䳏	-14.5723
冫	-14.5724
絚	-14.5724
㕙	-14.5724
贑	-14.5724
慽	-14.5724
䩛	-14.5724
帆	-14.5725
碭	-14.5725
泅	-14.5725
潟	-14.5725
瀞	-14.5726
㪯	-14.5726
淝	-14.5727
昫	-14.5727
画	-14.5727
銓	-14.5727
㩁	-14.5727
喁	-14.5728
蛒	-14.5728
霈	-14.5728
稈	-14.5729
蝙	-14.5729
蕿	-14.573
胊	-14.573
蝠	-14.573
犗	-14.5731
璪	-14.5731
篥	-14.5731
跦	-14.5731
䈚	-14.5733
㭊	-14.5735
梖	-14.5735
􁍵	-14.5736
樠	-14.5737
砢	-14.5737
棁	-14.5739
䇾	-14.5739
蹋	-14.5739
􁉿	-14.5739
芫	-14.5739
臑	-14.574
丼	-14.5741
栯	-14.5741
􁅕	-14.5741
矚	-14.5742
蹵	-14.5744
塿	-14.5746
欘	-14.5747
􁄞	-14.575
樿	-14.5751
窖	-14.5755
囤	-14.5757
悥	-14.5759
潙	-14.5759
籐	-14.576
胉	-14.5763
䣛	-14.5765
𣙜	-14.5767
嶢	-14.5775
㿥	-14.8062
䀻	-14.8149
䡈	-14.8157
䠧	-14.8159
㐭	-14.8161
丅	-14.8168
㥶	-14.817
䢅	-14.817
凹	-14.8171
䡲	-14.8172
䬆	-14.8172
㬋	-14.8173
䶵	-14.8175
㓛	-14.8177
䨓	-14.8177
䩊	-14.8179
䶉	-14.8179
䩨	-14.8179
僢	-14.8179
蓉	-14.8183
䔖	-14.8184
丩	-14.8184
叐	-14.8184
倆	-14.8185
䓁	-14.8186
㒹	-14.8189
䍐	-14.819
呥	-14.8192
亁	-14.8192
䃺	-14.8193
亙	-14.8195
㚇	-14.8196
䅵	-14.8196
偰	-14.8196
䜋	-14.8196
㹀	-14.8197
偵	-14.8198
剄	-14.8199
䍽	-14.82
䀣	-14.82
劘	-14.82
偬	-14.8201
㹟	-14.8202
䕵	-14.8203
䗔	-14.8203
傋	-14.8203
㔨	-14.8204
刌	-14.8206
䘁	-14.8207
䢵	-14.821
䴠	-14.8211
㞵	-14.8211
䳸	-14.8213
剫	-14.8214
䦨	-14.8216
䵖	-14.8217
傹	-14.8219
剌	-14.8225
䝁	-14.8228
体	-14.8231
㪷	-14.8236
㺯	-14.8243
僬	-14.825
㓪	-14.8253
䳨	-14.8258
勴	-14.8262
䎒	-14.8263
墢	-14.8264
瘯	-14.8265
澨	-14.8266
噀	-14.8267
鷥	-14.8268
噭	-14.8269
鵄	-14.827
虸	-14.8271
蚄	-14.8272
鈳	-14.8273
䕡	-14.8274
>	-14.8275
=	-14.8276
鸑	-14.8277
荽	-14.8278
薞	-14.8279
蛚	-14.828
茯	-14.8281
㙔	-14.8282
渢	-14.8283
"	-14.8284
獼	-14.8285
㤅	-14.8286
墀	-14.8286
