<unk>	0
<s>	0
</s>	0
之	-3.73137
)	-4.05017
(	-4.05472
以	-4.38378
也	-4.4145
而	-4.48862
為	-4.50873
則	-4.77828
者	-4.82239
其	-4.98534
有	-5.11321
一	-5.15724
)(	-5.27609
於	-5.3767
曰	-5.52419
不	-5.5372
大	-5.54111
無	-5.56301
半	-5.5847
正	-5.60721
樂	-5.61969
應	-5.66029
四	-5.66786
三	-5.67519
聲	-5.68138
與	-5.68382
○	-5.70654
故	-5.71808
此	-5.73088
用	-5.80919
六	-5.83202
五	-5.85144
二	-5.87217
皆	-5.88833
全	-5.88868
中	-5.89202
矣	-5.9385
得	-5.9531
律	-5.97606
上	-5.99746
宫	-5.99908
是	-6.00762
人	-6.00988
言	-6.01237
在	-6.08589
至	-6.11487
亦	-6.12842
歌	-6.13799
和	-6.13887
舞	-6.19689
合	-6.21474
生	-6.21497
自	-6.22282
拊	-6.23699
黄鍾	-6.23726
數	-6.24127
非	-6.2485
九	-6.25364
分	-6.26927
南	-6.27469
調	-6.27632
所	-6.27657
尺	-6.27989
鼓	-6.29001
謂	-6.2915
如	-6.30162
于	-6.31826
作	-6.32177
又	-6.35473
八	-6.35817
下	-6.37831
七	-6.38581
商	-6.38852
長	-6.39171
乎	-6.40021
凡	-6.40147
羽	-6.40938
然	-6.42027
即	-6.42826
乃	-6.43266
▁	-6.44108
角	-6.44185
同	-6.45434
太	-6.46269
清	-6.46326
焉	-6.4697
音	-6.4855
子	-6.48769
云	-6.51569
奏	-6.51804
鐘	-6.56227
禮	-6.56779
今	-6.57417
成	-6.60514
法	-6.61148
搏牘	-6.61721
本	-6.62803
十	-6.63003
管	-6.63761
姑洗	-6.64253
時	-6.64722
無射	-6.65543
當	-6.65618
所謂	-6.66032
大吕	-6.66635
林	-6.67686
黄鐘	-6.68185
黄	-6.68482
相	-6.71179
夷	-6.71186
所以	-6.71724
姑	-6.72445
文	-6.73178
可	-6.73794
琴	-6.74292
及	-6.74606
夷則	-6.74698
若	-6.74908
天	-6.75017
位	-6.77068
仲	-6.78217
王	-6.79162
定	-6.79387
行	-6.80211
古	-6.80278
小	-6.81039
雖	-6.82034
或	-6.82702
南吕	-6.82762
後	-6.83024
仲吕	-6.83492
謂之	-6.83711
夾	-6.84546
始	-6.86186
必	-6.86561
徴	-6.87343
陽	-6.87681
事	-6.87882
鼔	-6.88455
周	-6.88915
曲	-6.89659
取	-6.90368
耳	-6.90625
明	-6.912
方	-6.91504
先	-6.91841
林鍾	-6.92295
變	-6.92946
字	-6.93408
出	-6.93586
以為	-6.9472
未	-6.95779
十二	-6.96646
從	-6.96931
名	-6.97462
兩	-6.97552
宮	-6.98931
知	-6.99056
論	-6.99374
而已	-6.99594
笙	-6.99773
徵	-6.99972
見	-7.0031
弦	-7.00544
隂	-7.01608
書	-7.02517
爲	-7.03051
臣	-7.03323
制	-7.03426
實	-7.03619
象	-7.03719
工	-7.04788
五聲	-7.05276
蓋	-7.05603
瑟	-7.06005
節	-7.06332
詩	-7.06883
絃	-7.07479
鍾	-7.08026
漢	-7.08875
物	-7.09011
太簇	-7.09927
因	-7.10406
夾鍾	-7.11263
應鍾	-7.12015
按	-7.12416
各	-7.12595
髙	-7.12638
水	-7.12952
何	-7.13432
内	-7.1353
已	-7.1529
太蔟	-7.15484
前	-7.15623
㽔賔	-7.15715
能	-7.15835
夫	-7.16595
通	-7.17237
外	-7.17467
之樂	-7.17829
㽔	-7.18188
既	-7.18834
哉	-7.19897
氣	-7.20559
起	-7.21375
為宫	-7.21915
惟	-7.21999
者也	-7.22267
道	-7.22461
林鐘	-7.22657
餘	-7.24283
異	-7.24514
徳	-7.24579
猶	-7.25166
祭	-7.25181
武	-7.25499
多	-7.25898
主	-7.25927
復	-7.26757
等	-7.26916
置	-7.27255
之數	-7.27554
諸	-7.28859
地	-7.29047
日	-7.29323
應鐘	-7.2934
止	-7.29525
使	-7.29667
義	-7.30334
元	-7.3057
三分	-7.3074
絲	-7.30863
氏	-7.31298
蕤賔	-7.3183
公	-7.31912
十二律	-7.32539
金	-7.32659
立	-7.32778
易	-7.32893
唐	-7.34649
終	-7.35215
重	-7.35982
盖	-7.36105
器	-7.36274
次	-7.36294
去	-7.37289
夾鐘	-7.37377
磬	-7.37384
度	-7.37614
學	-7.38077
民	-7.38255
孔	-7.38516
均	-7.38769
擊	-7.38948
齊	-7.39488
平	-7.40097
章	-7.40336
是也	-7.40651
萬	-7.40719
不可	-7.40774
欲	-7.40906
禮樂	-7.40913
豈	-7.41312
而不	-7.42783
安	-7.43213
國	-7.4355
令	-7.43639
間	-7.44094
黍	-7.44755
微	-7.45243
百	-7.45269
葢	-7.45389
比	-7.46071
笛	-7.46372
但	-7.46961
圖	-7.47207
世	-7.47275
吹	-7.48199
􁕔	-7.48688
心	-7.49056
命	-7.49268
右	-7.49286
善	-7.49295
神	-7.49601
木	-7.49867
宜	-7.5001
初	-7.51223
加	-7.51229
之法	-7.51239
求	-7.51745
其聲	-7.51893
為商	-7.52007
入	-7.52391
變半	-7.52721
夏	-7.53455
之聲	-7.53465
德	-7.53521
志	-7.53798
舊	-7.53976
考	-7.54134
上生	-7.5442
遂	-7.54882
賔	-7.55083
經	-7.5519
不能	-7.55255
廣	-7.55726
容	-7.56167
帝	-7.56451
君	-7.56664
風	-7.56883
􁕡	-7.57473
□	-7.57646
反	-7.57691
教	-7.57882
設	-7.58203
常	-7.5822
尚	-7.58728
積	-7.59352
為角	-7.59537
居	-7.59925
動	-7.59939
依	-7.60299
極	-7.60324
忽	-7.60339
由	-7.60389
譜	-7.60797
天子	-7.61041
歟	-7.6137
少	-7.61974
説	-7.61978
山	-7.62089
宋	-7.6212
倍	-7.62394
備	-7.62411
轉	-7.62473
舉	-7.62883
射	-7.63123
理	-7.63198
且	-7.63273
士	-7.63507
升	-7.64225
寸	-7.64996
之説	-7.6617
變宫	-7.66197
為羽	-7.662
雅	-7.66603
周禮	-7.66633
然則	-7.66915
東	-7.67072
官	-7.67111
􁕧	-7.68209
兮	-7.68362
每	-7.68663
不同	-7.68982
下生	-7.69059
天下	-7.69159
意	-7.70123
竹	-7.70387
將	-7.70551
簫	-7.70571
濁	-7.70647
􁕗	-7.70677
治	-7.70723
盡	-7.70956
月	-7.71604
類	-7.71847
體	-7.72088
師	-7.72223
西	-7.72265
不用	-7.73047
徑	-7.73083
足	-7.73402
指	-7.73447
○○	-7.73922
稱	-7.74405
朝	-7.74489
屬	-7.74489
律吕	-7.75073
興	-7.75175
土	-7.7518
别	-7.75302
故也	-7.75532
石	-7.75537
縣	-7.75997
聞	-7.76151
篇	-7.76285
玉	-7.76369
辰	-7.7688
並	-7.77166
服	-7.77209
言之	-7.77626
傳	-7.77879
六十	-7.77964
我	-7.78171
古人	-7.78719
徽	-7.78737
執	-7.78749
更	-7.78927
圓	-7.79003
造	-7.79486
不知	-7.79878
為徴	-7.80143
侯	-7.80519
觀	-7.80571
君子	-7.80597
進	-7.80947
四分	-7.81041
辨	-7.81719
引	-7.81904
釐	-7.82243
致	-7.82422
短	-7.82615
晉	-7.82755
祀	-7.83106
諸侯	-7.83239
深	-7.83659
近	-7.83839
宗	-7.84022
至於	-7.84235
家	-7.84505
獻	-7.84822
首	-7.84865
高	-7.85183
特	-7.85212
詳	-7.85326
九寸	-7.85487
二變	-7.86044
八音	-7.86055
天地	-7.86339
新	-7.86659
蕤	-7.86687
獨	-7.86818
衆	-7.87346
左	-7.87589
量	-7.87673
正律	-7.87776
率	-7.88371
固	-7.8866
然後	-7.89158
發	-7.8946
聽	-7.8958
句	-7.89612
一尺	-7.89785
籥	-7.89852
列	-7.89893
散	-7.89918
北	-7.8993
之所	-7.90142
九分	-7.90587
二十	-7.90735
嘗	-7.90837
二分	-7.91225
配	-7.91693
琴瑟	-7.92154
樂之	-7.92646
毫	-7.9295
年	-7.93052
正聲	-7.93121
難	-7.93259
原	-7.93414
序	-7.93427
仁	-7.93912
色	-7.93917
俗	-7.9412
如此	-7.94372
伯	-7.94808
歸	-7.94958
六律	-7.95278
樂器	-7.95312
語	-7.95335
過	-7.95422
載	-7.95725
張	-7.97117
之舞	-7.9748
銅	-7.97513
面	-7.97525
據	-7.97767
具	-7.97858
政	-7.98005
後世	-7.98232
鳴	-7.98405
又曰	-7.98531
陳	-7.9863
用之	-7.987
卷	-7.98729
聖	-7.98956
尊	-7.98987
部	-7.993
來	-7.99513
亂	-7.99697
流	-7.99719
順	-7.99908
詔	-7.99976
思	-7.99981
吕	-8.00099
也故	-8.00429
推	-8.0049
細	-8.00915
而後	-8.01449
故曰	-8.01564
清聲	-8.0179
甚	-8.01913
受	-8.0196
廟	-8.02092
中吕	-8.02202
最	-8.02428
俱	-8.02592
彼	-8.02603
降	-8.02643
改	-8.02715
著	-8.03102
十六	-8.03694
食	-8.03876
黃	-8.03927
七聲	-8.04212
可以	-8.04553
一寸	-8.04597
功	-8.04707
中聲	-8.04844
問	-8.05091
勾	-8.05102
身	-8.05183
而為	-8.05269
五音	-8.05477
春	-8.05587
處	-8.05616
千	-8.05623
隂陽	-8.0576
孔子	-8.05801
邪	-8.0636
親	-8.06424
㑹	-8.06511
馬	-8.06639
建	-8.06953
形	-8.07004
清濁	-8.08103
之制	-8.08232
好	-8.08439
兼	-8.09342
存	-8.0955
之音	-8.09657
莫	-8.09662
誤	-8.10076
雅樂	-8.10142
似	-8.11127
彈	-8.11672
相生	-8.11938
失	-8.12549
聖人	-8.12559
白	-8.13013
記	-8.13073
掌	-8.13186
圍	-8.13426
化	-8.13505
之實	-8.13613
直	-8.13645
一十	-8.13908
之間	-8.13935
議	-8.14075
解	-8.1478
十徽	-8.15079
宣	-8.15113
門	-8.15532
說	-8.15627
信	-8.15686
坐	-8.15872
逺	-8.15872
儀	-8.15973
算	-8.16101
八寸	-8.16119
開	-8.16289
代	-8.16423
再	-8.16451
精	-8.16564
塤	-8.16954
㣲	-8.16997
斯	-8.17017
五十	-8.17232
敬	-8.17363
先王	-8.17546
盛	-8.18034
總	-8.18056
祖	-8.18122
大夫	-8.18174
宫調	-8.18943
隨	-8.19322
亡	-8.19339
變徴	-8.19396
自然	-8.19479
要	-8.19624
共	-8.19741
胡	-8.19766
辭	-8.19985
鐘磬	-8.20197
真	-8.20445
八十	-8.20453
除	-8.20469
七分	-8.20645
一分	-8.20762
達	-8.20853
準	-8.20854
手	-8.21186
享	-8.21769
毎	-8.22278
六寸	-8.22681
之理	-8.22826
疑	-8.23144
昭	-8.23291
鎛鐘	-8.23576
雜	-8.23653
爾	-8.23692
八十一	-8.23726
七音	-8.24003
之意	-8.24034
之禮	-8.24156
適	-8.24215
上下	-8.24245
九十	-8.24295
􁕤	-8.24314
仍	-8.24637
州	-8.24968
注	-8.25159
差	-8.26053
低	-8.26073
舜	-8.26356
古樂	-8.26478
為徵	-8.26619
六分	-8.27202
離	-8.27296
五寸	-8.27332
性	-8.27335
倍律	-8.27383
鼗	-8.2743
七調	-8.27714
干	-8.27717
闕	-8.27785
就	-8.27837
乙	-8.28134
習	-8.28302
而無	-8.2852
周官	-8.28544
三絃	-8.2891
第一	-8.29027
􁕨	-8.29067
火	-8.29079
第二	-8.29471
製	-8.29539
口	-8.29933
特磬	-8.29949
皇	-8.30414
梁	-8.30422
三十	-8.30941
筭	-8.30999
大呂	-8.31127
秋	-8.31393
畢	-8.31404
者以	-8.31476
衣	-8.31621
姑應	-8.3177
之中	-8.32007
萬物	-8.3234
皆以	-8.32535
之位	-8.32747
第	-8.32774
之於	-8.32866
校	-8.32889
强	-8.3297
唯	-8.33029
不過	-8.3303
八分	-8.3309
四清	-8.33192
案	-8.33428
簡	-8.33428
不得	-8.33629
斗	-8.33661
為一	-8.33675
廢	-8.33894
識	-8.33925
隋	-8.34174
三寸	-8.34266
二十四	-8.34399
是以	-8.34521
典	-8.34593
古之	-8.34707
一聲	-8.34799
散聲	-8.34862
錢	-8.34864
不足	-8.34878
大小	-8.35166
厚	-8.35328
長短	-8.35499
祭祀	-8.35549
旋	-8.35618
起調	-8.35859
計	-8.35984
修	-8.3619
半律	-8.36541
鄭	-8.36657
情	-8.36658
益	-8.37033
女	-8.37104
韶	-8.37178
以下	-8.37292
十一	-8.37667
施	-8.37693
宫聲	-8.37705
南呂	-8.3776
黄清	-8.37853
末	-8.37906
編鐘	-8.37962
華	-8.38075
耶	-8.3851
四寸	-8.38612
史	-8.38886
之律	-8.38903
貴	-8.38938
田	-8.39077
二寸	-8.39165
越	-8.39328
窮	-8.39339
空	-8.39474
十三	-8.39726
秦	-8.39921
車	-8.40011
龠	-8.40125
􁕣	-8.4031
交	-8.40406
紀	-8.40426
陰	-8.40468
作樂	-8.41059
有竒	-8.4114
二十七	-8.41844
減	-8.4186
飾	-8.41892
主人	-8.41922
徒	-8.42185
九徽	-8.42192
室	-8.4235
表	-8.42418
燕	-8.42621
變徵	-8.42644
述	-8.42811
龍	-8.42877
五分	-8.43339
慢	-8.43428
宗廟	-8.43692
賓	-8.43709
􁕙	-8.43798
午	-8.44179
厯	-8.44185
大司樂	-8.44223
端	-8.44361
須	-8.44663
繼	-8.45083
誠	-8.45358
切	-8.45501
參	-8.45732
魯	-8.45861
只	-8.46041
卒	-8.46356
乾	-8.46824
亥	-8.46837
一百	-8.47221
古者	-8.4723
之道	-8.47711
哀	-8.47926
感	-8.48101
魏	-8.48107
􁕜	-8.48232
不及	-8.48245
其數	-8.48267
斛	-8.48291
之義	-8.48319
嘉	-8.48476
春秋	-8.48493
其所	-8.48639
之類	-8.48647
之氣	-8.48815
六十四	-8.48918
况	-8.4894
一絃	-8.48948
孝	-8.49301
匏	-8.49327
統	-8.494
相應	-8.49418
革	-8.49441
丑	-8.49557
堂上	-8.49582
術	-8.49711
十分	-8.4987
衡	-8.49956
始於	-8.49994
丈	-8.50031
㽔賓	-8.50049
一人	-8.50262
對	-8.50476
皇帝	-8.50661
饗	-8.50852
吾	-8.50989
酒	-8.51125
退	-8.5141
永	-8.5159
其音	-8.51605
雲	-8.51662
旋宫	-8.51845
乘	-8.51955
權	-8.51994
篪	-8.52096
韻	-8.52586
讀	-8.5268
老	-8.53214
人聲	-8.53523
黄鍾之	-8.53549
申	-8.54256
篴	-8.54259
出於	-8.54561
爵	-8.54797
寅	-8.54809
承	-8.54874
之時	-8.54887
美	-8.54892
是故	-8.55272
先儒	-8.55663
四十	-8.55693
簧	-8.55948
還	-8.55955
凡工	-8.56155
審	-8.56241
漢志	-8.5626
恐	-8.56531
七十	-8.56592
也然	-8.56756
之管	-8.5681
鎛	-8.56867
俗呼	-8.57233
黄帝	-8.57405
之後	-8.57413
足以	-8.57428
註	-8.58016
頌	-8.58232
約	-8.58605
靈	-8.58728
為用	-8.58847
待	-8.589
推之	-8.59033
登歌	-8.59161
司	-8.59179
第三	-8.59181
目	-8.59301
便	-8.59935
􁕠	-8.59982
南應	-8.60016
南工	-8.60468
蕤賓	-8.60584
仲呂	-8.60638
聲也	-8.60679
賢	-8.60771
俗樂	-8.60811
布	-8.61154
者皆	-8.61308
朱	-8.61362
劉	-8.61713
鑄	-8.61732
編	-8.6191
淫	-8.61967
七徽	-8.62002
欽定四庫全書樂書卷	-8.62037
浪	-8.62373
唱	-8.62487
示	-8.62636
堂下	-8.62678
□□	-8.62872
兵	-8.62974
他	-8.63119
生於	-8.63123
軍	-8.633
何以	-8.63724
凖	-8.63732
又以	-8.63837
之事	-8.63952
養	-8.64121
景	-8.64159
守	-8.6419
聖朝	-8.64236
之羽	-8.64401
朱子	-8.64477
面羃	-8.64619
也其	-8.64619
五絃	-8.65016
不合	-8.65201
御	-8.65274
呂	-8.65436
倡	-8.65484
尤	-8.65498
變宮	-8.65876
零	-8.65903
利	-8.65954
隔	-8.66057
􁕱	-8.6611
蔡氏	-8.66154
億	-8.66335
號	-8.66575
所用	-8.66583
儀禮	-8.66733
人之	-8.66781
畫	-8.67203
證	-8.67216
孫	-8.67216
嵗	-8.67242
輕	-8.67282
琵琶	-8.67351
姑和	-8.67376
七寸	-8.6757
二千	-8.6773
種	-8.6775
正太中	-8.6783
質	-8.67842
摶牘	-8.67915
五行	-8.68171
律管	-8.68246
為實以十億乗之以十億	-8.68351
各有	-8.68368
冠	-8.68455
附	-8.68503
於此	-8.68565
四十八	-8.68704
南和	-8.68709
為黄鍾	-8.68741
林和	-8.68806
陵	-8.69037
亦有	-8.69102
某	-8.69153
以其	-8.69478
黄鍾之宫	-8.6953
銖	-8.69778
收	-8.70141
不言	-8.70165
架	-8.70178
􁕭	-8.70565
樂記	-8.70596
三分損益	-8.7081
協	-8.70829
十寸	-8.7092
絶	-8.71091
已上	-8.71204
郊	-8.713
冬	-8.71342
髙下	-8.71402
樂者	-8.71655
李	-8.71678
樂也	-8.71725
之意也	-8.71775
變律	-8.71784
第十	-8.71884
太常	-8.71924
大師	-8.7211
太清	-8.72171
庶	-8.72273
林尺	-8.72274
虚	-8.72303
殺	-8.72345
請	-8.72368
并	-8.7239
頭	-8.72406
未嘗	-8.72517
錯	-8.72979
博	-8.7303
坤	-8.73042
折半	-8.73103
之說	-8.73136
聲之	-8.73478
七毫	-8.73486
視	-8.7371
釋	-8.73727
一律	-8.73776
一千	-8.73808
今之	-8.74001
亦不	-8.74225
武舞	-8.74265
戒	-8.74343
藏	-8.74404
詞	-8.74431
路	-8.74521
金石	-8.74618
必有	-8.74684
勝	-8.74956
拜	-8.74999
舞者	-8.75305
采	-8.75459
文王	-8.75537
向	-8.75675
素	-8.75695
諧	-8.75786
呼	-8.75883
十四	-8.7597
樂章	-8.7606
雷	-8.76218
二尺	-8.76693
五百	-8.76894
候	-8.76933
母	-8.7708
以樂	-8.77095
光	-8.77141
之商	-8.77222
一字	-8.77235
奇	-8.77269
隔八	-8.7731
三百	-8.77647
河	-8.77674
文舞	-8.77677
驗	-8.77731
殊	-8.77749
二千九百三十萬	-8.78392
􁕥	-8.7843
𤼵	-8.78443
不必	-8.78502
相和	-8.78946
今按	-8.79027
乗	-8.79129
商調	-8.79135
七律	-8.79154
左右	-8.79509
武王	-8.79845
奉	-8.79893
肅	-8.79938
禮記	-8.79948
昔	-8.80264
瞽	-8.80597
環	-8.80614
試	-8.80636
急	-8.80645
載堉	-8.80649
折	-8.80853
得其	-8.8101
豈非	-8.81245
静	-8.81279
咸	-8.81292
徹	-8.81308
揚	-8.81333
其中	-8.81701
所得	-8.81847
聲音	-8.81948
柷	-8.8204
之率	-8.82257
緊	-8.82386
記曰	-8.82542
告	-8.82557
伎	-8.82702
逆	-8.82705
柱	-8.82748
毛	-8.82861
書曰	-8.82862
崇	-8.82881
古今	-8.8294
竽	-8.82975
其法	-8.8321
斷	-8.83549
補	-8.83556
府	-8.83616
皆有	-8.83845
略	-8.84261
樂舞	-8.84471
又有	-8.84728
相合	-8.84736
之屬	-8.84825
箎	-8.84847
父	-8.84908
帥	-8.8499
之下	-8.8509
宫商	-8.85165
有所	-8.85218
殿	-8.85708
􁈹	-8.85762
也夫	-8.8577
稍	-8.85786
撰	-8.85875
一釐	-8.86239
名曰	-8.86304
鈞	-8.86485
移	-8.86529
席	-8.86541
鉦	-8.8656
維	-8.8661
斤	-8.86706
十五	-8.8672
正林中	-8.87244
之節	-8.87261
野	-8.87323
是為	-8.87368
七十二	-8.8745
分寸	-8.87583
工尺	-8.87897
豈不	-8.8799
豆	-8.88015
步	-8.88063
樂師	-8.88226
姑一	-8.88233
三十六	-8.88243
傳曰	-8.88291
九聲	-8.88444
莫不	-8.88736
朔	-8.88851
悉	-8.88854
顯	-8.88969
而成	-8.8907
四字	-8.89164
枚	-8.8941
冕	-8.89466
噐	-8.89513
為宮	-8.89555
七絃	-8.89619
力	-8.89643
祠	-8.89761
條	-8.89811
當時	-8.90075
層	-8.90408
取其	-8.90415
妙	-8.90794
為主	-8.91012
兆	-8.91202
賜	-8.91218
其餘	-8.91577
五調	-8.91774
樂以	-8.91804
水應	-8.91805
之名	-8.91841
卑	-8.91933
連	-8.91945
虡	-8.91948
業	-8.92074
失之	-8.92245
里	-8.92259
黄鐘之	-8.92332
第四	-8.92424
大者	-8.92505
子聲	-8.92573
幾	-8.92724
康	-8.92778
歩	-8.92803
格	-8.92809
趙	-8.92829
集	-8.92833
中呂	-8.93051
詩曰	-8.93441
逹	-8.93521
䘮	-8.93624
底	-8.93655
十二月	-8.93666
可也	-8.93684
授	-8.9369
大射	-8.93969
憂	-8.94417
不然	-8.94514
􁕚	-8.94657
亦如之	-8.94772
大武	-8.95006
較	-8.9502
非特	-8.95133
久	-8.95183
五六	-8.95285
秤	-8.95335
緩	-8.95339
假	-8.95486
鄉	-8.9586
洗	-8.95867
堯	-8.95879
禹	-8.95879
蕤正	-8.95879
夜	-8.96026
旁	-8.96047
愛	-8.96106
殷	-8.96122
也然則	-8.96191
聲律	-8.9623
半聲	-8.96316
数	-8.96468
可知矣	-8.96586
兮姑	-8.96617
終於	-8.96622
鞉	-8.96675
旅	-8.96706
無所	-8.96908
鬴	-8.96939
搏牘磬	-8.96942
之外	-8.97302
數也	-8.97499
缺	-8.97587
也今	-8.97713
智	-8.97781
幽	-8.97811
避	-8.97852
望	-8.98083
舊法	-8.98182
小者	-8.98479
聲而	-8.98525
歌舞	-8.98549
乗之	-8.9858
候氣	-8.98647
專	-8.98685
漆	-8.9869
可知	-8.98724
七百二十九	-8.98787
君臣	-8.98897
鐘鼓	-8.98921
以象	-8.9893
録	-8.99199
海	-8.99235
星	-8.9937
宴	-8.99441
京房	-8.99467
楚	-8.99481
則知	-8.996
爾雅	-8.99851
十一徽	-8.99944
不可以	-8.99989
房	-9.00041
四尺	-9.00048
之角	-9.00069
長九寸	-9.00181
以上	-9.00217
横	-9.00327
薄	-9.00376
立體	-9.00467
酉	-9.00556
注云	-9.0063
而以	-9.00724
二千二百三十六除之得	-9.0073
其説	-9.00789
息	-9.00975
清角	-9.01081
四時	-9.01174
其實	-9.01287
社	-9.01331
式	-9.01374
虞	-9.01398
竒	-9.01481
疏	-9.0154
冬至	-9.01561
也若	-9.01655
百四十	-9.01684
共得	-9.01827
后	-9.01883
之數也	-9.01916
卯	-9.02082
坎	-9.02117
迎	-9.02183
青	-9.02183
二人	-9.02294
之樂也	-9.02659
國語	-9.02682
陽氣	-9.0307
持	-9.03089
為實以	-9.03214
之本	-9.03341
遺	-9.03456
圜	-9.03784
律之	-9.03904
喜	-9.03918
𤣥	-9.0393
竅	-9.03957
介	-9.03958
一四	-9.04023
何也	-9.0406
起宫	-9.04156
正姑中	-9.04258
本律	-9.04457
天地之	-9.04472
抑	-9.04532
第六	-9.04547
滿	-9.0463
則不	-9.04666
造律	-9.04726
穴	-9.0474
伐	-9.04821
封	-9.0485
之長	-9.04854
音也	-9.04884
以見	-9.05001
歴	-9.05028
者其	-9.05037
儒	-9.05347
堂	-9.05393
一調	-9.05423
周公	-9.05444
古法	-9.05481
節奏	-9.05609
召	-9.05821
黄應	-9.05845
濟	-9.05874
四聲	-9.0601
二絃	-9.06037
三寸九分	-9.06201
非也	-9.06202
互	-9.06292
禮也	-9.06429
接	-9.06468
二律	-9.065
播	-9.06553
乆	-9.06646
臨	-9.06658
禁	-9.06663
恭	-9.06693
飛	-9.06761
之曲	-9.06762
月令	-9.06918
十八	-9.071
正黄中	-9.07108
同意	-9.07224
弦散聲	-9.0745
尾	-9.07532
増	-9.07552
宫徴商羽角變宫變徴	-9.07553
惡	-9.07558
振	-9.0757
二百	-9.07575
薦	-9.07576
畧	-9.07645
歎	-9.07662
牛	-9.07667
以來	-9.07818
以此	-9.08472
果	-9.08486
謹	-9.08495
隆	-9.08574
都	-9.08617
第五	-9.08731
約之	-9.08762
職	-9.08791
寓	-9.08982
操	-9.09008
於是	-9.09069
損益	-9.09348
階	-9.0938
合樂	-9.0942
柷敔	-9.0944
飲	-9.09505
漸	-9.09514
皮	-9.0952
則以	-9.09569
操縵	-9.09575
城	-9.09587
八十一分	-9.0972
角調	-9.09746
奏之	-9.09877
角聲	-9.09898
倍之	-9.10061
陽律	-9.10095
累	-9.1011
之器	-9.10384
五十四	-9.10441
敔	-9.10448
究	-9.10483
徵調	-9.10906
史記	-9.11014
為變宫	-9.11125
六釐	-9.11396
懸	-9.11423
鐸	-9.1143
勢	-9.11463
否	-9.11473
赤	-9.1156
則有	-9.11697
其義	-9.11893
宫架	-9.12008
卦	-9.12228
強	-9.12248
黄合	-9.12336
二千一百八十七	-9.12376
牲	-9.12405
乖	-9.12443
妄	-9.12447
庭	-9.12451
下法	-9.12462
丘	-9.12466
味	-9.12468
偶	-9.12468
簴	-9.12478
六百	-9.12486
運	-9.13132
季	-9.13188
為一分	-9.1323
甲	-9.13262
於樂	-9.13377
咸池	-9.13424
位除實	-9.13456
戯	-9.13478
之次	-9.13499
輕重	-9.13507
之文	-9.13955
一工	-9.13976
第七	-9.14049
矣然	-9.14239
有奇	-9.14258
遇	-9.1435
刻	-9.14373
員	-9.14395
其一	-9.14405
予	-9.14414
却	-9.14435
所以為	-9.14436
榖	-9.14469
畢曲	-9.14693
五弦	-9.14709
有司	-9.14845
財	-9.15229
察	-9.15364
以成	-9.15373
柔	-9.15418
雖有	-9.15452
慶	-9.15461
黄鍾為宫	-9.15487
雙	-9.15503
鬼神	-9.15588
見於	-9.15632
為節	-9.15774
之用	-9.15784
歌者	-9.15929
司馬	-9.16066
燕樂	-9.16086
樂書	-9.16097
三毫	-9.16216
秬黍	-9.16336
鏞	-9.16352
羣	-9.16354
弱	-9.16373
三尺	-9.16403
鼙	-9.16414
李照	-9.16424
役	-9.1643
魚	-9.16436
祥	-9.16497
綱	-9.16506
六尺	-9.16586
釐八毫	-9.16621
八百	-9.16649
武帝	-9.16649
五聲之	-9.16776
者謂	-9.16805
燕禮	-9.16905
歌鐘	-9.16926
先王之	-9.17011
二十五	-9.17032
􁕘	-9.17032
止於	-9.17134
領	-9.17225
謬	-9.17397
鼓吹	-9.1741
柄	-9.17429
来	-9.17455
盈	-9.17469
聴	-9.17491
二八	-9.17496
故以	-9.17496
鳯	-9.17497
害	-9.17505
寧	-9.1753
也蓋	-9.17585
西階	-9.1761
之姑正	-9.18003
皆可	-9.18105
𫝊	-9.18169
纓	-9.18274
太師	-9.18368
出入	-9.18448
純	-9.18462
劉歆	-9.18466
側	-9.18488
纎	-9.18523
破	-9.18537
以至	-9.18547
求之	-9.18583
四絃	-9.18842
積實	-9.19027
六孔	-9.19098
四方	-9.1933
六十律	-9.1939
擬	-9.19573
疾	-9.19574
衛	-9.19586
舌	-9.19599
之宫	-9.19619
箏	-9.19639
羽聲	-9.19663
未嘗不	-9.19838
淮南子	-9.19842
南林	-9.19895
樂工	-9.19969
三釐	-9.20142
則是	-9.20352
戌	-9.20424
納	-9.20472
震	-9.20529
助	-9.20617
其制	-9.20627
編磬	-9.20652
敎	-9.20671
錫	-9.20678
者為	-9.20717
羣臣	-9.20724
之詩	-9.20807
股	-9.20943
六二	-9.2097
其樂	-9.21
律書	-9.21183
戚	-9.2161
己	-9.21638
夔	-9.21663
該	-9.21676
暉	-9.21679
十二辰	-9.2169
弓	-9.21706
粟	-9.21707
死	-9.21769
鄉射	-9.2179
頗	-9.21811
曉	-9.21954
疏曰	-9.22073
縱黍	-9.22093
笙師	-9.22155
第八	-9.22654
之序	-9.22656
可謂	-9.2268
宻	-9.22682
樂書卷	-9.22723
垂	-9.22749
譏	-9.2275
衰	-9.22766
由是	-9.22775
閏	-9.22786
幸	-9.22792
良	-9.22807
河圖	-9.22842
隔八相生	-9.2289
郊廟	-9.22908
可得而	-9.22932
得一	-9.22945
鼎	-9.22958
之道也	-9.2306
未必	-9.23111
必以	-9.23248
不失	-9.23274
未有	-9.23335
以後	-9.23736
圗	-9.23804
往	-9.23846
偽	-9.23858
寳	-9.23949
係	-9.23996
小師	-9.24394
之分	-9.24411
縱	-9.24532
也此	-9.24579
圎	-9.24931
疎	-9.24972
㫖	-9.25077
之上	-9.25447
登	-9.25484
􁕛	-9.25586
為調	-9.25659
孟子	-9.25806
虞書	-9.25833
本於	-9.25861
次第	-9.25866
百三十	-9.26099
析	-9.26139
上字	-9.26214
至于	-9.26251
起於	-9.26338
之妙	-9.26401
不敢	-9.26832
子曰	-9.27015
放	-9.27016
六忽	-9.27021
顧	-9.27207
講	-9.27235
伏	-9.2724
段	-9.2728
報	-9.2729
温	-9.27303
或以	-9.27409
損	-9.27549
一一	-9.27618
應和	-9.27639
之謂	-9.27688
七忽	-9.2778
一也	-9.27843
名之	-9.28065
皆用	-9.28109
江	-9.28396
蔡邕	-9.28396
宿	-9.28399
威	-9.28406
三代	-9.28408
洪	-9.28412
數而	-9.28422
十九	-9.28514
尋	-9.28518
或謂	-9.28524
而下	-9.28609
璧	-9.28617
清商	-9.28745
三忽	-9.28895
並用	-9.28899
周尺	-9.28923
周徑	-9.28978
今夫	-9.29232
此言	-9.29268
若夫	-9.29274
符	-9.29398
粗	-9.29504
翟	-9.29508
觶	-9.29564
務	-9.29581
十七	-9.29597
任	-9.29624
品	-9.29655
為實	-9.29699
長六寸	-9.29738
狀	-9.29801
圍徑	-9.29944
而止	-9.3007
商聲	-9.30267
覆	-9.30677
繁	-9.30714
聚	-9.30714
緯	-9.30731
寛	-9.30756
期	-9.3078
被	-9.30801
刑	-9.30812
缶	-9.30841
亦可	-9.31287
八毫	-9.31296
歌詩	-9.31319
考之	-9.31382
矣故	-9.31382
勾一	-9.31522
其意	-9.31612
制作	-9.31703
之歌	-9.3173
纖	-9.31876
增	-9.31885
九九	-9.31895
之始	-9.3193
例	-9.31952
干戚	-9.31984
左傳	-9.3202
六變	-9.32034
卿大夫	-9.32065
鄭氏	-9.32069
六七	-9.32185
起調畢曲	-9.32372
為一寸	-9.32479
則其	-9.3252
敢	-9.32559
教之	-9.32636
六毫	-9.32866
閉	-9.3301
權衡	-9.33108
明堂	-9.33151
鳳	-9.33168
下管	-9.33344
累黍	-9.33394
􁕕	-9.33461
十三徽	-9.33623
鞞	-9.34009
竊	-9.34083
律中	-9.34117
數之	-9.34148
厘	-9.34231
雨	-9.34246
密	-9.34278
靜	-9.34301
七弦	-9.34306
蕃	-9.34316
荀朂	-9.3432
四一	-9.34356
賦	-9.34379
樂府	-9.34379
雍	-9.34411
明矣	-9.34437
鄭康成	-9.34459
雲門	-9.34466
貫	-9.34481
又云	-9.34664
七百	-9.34691
十有二	-9.34999
知其	-9.35143
右手	-9.35347
一毫	-9.35367
所載	-9.35371
之度	-9.3539
黄鍾宫	-9.35413
相同	-9.35437
瞽矇	-9.35461
眡瞭	-9.35499
歲	-9.35505
五千九百四十	-9.35511
羃	-9.35607
許	-9.35641
搏拊	-9.35667
而生	-9.35716
商音	-9.35753
學士	-9.3595
蕤應	-9.35976
凡樂	-9.35985
黃鐘	-9.35997
詠	-9.36105
工凡	-9.36201
釐四毫	-9.36232
金奏	-9.36286
由是觀之	-9.36388
周之	-9.3647
而非	-9.36521
管子	-9.36565
孰	-9.36569
含少	-9.3665
尸	-9.36768
侍	-9.36833
尺工	-9.36857
滅	-9.36874
留	-9.36885
繩	-9.36904
擇	-9.36931
隋志	-9.36944
竟	-9.36984
山川	-9.37099
四清聲	-9.37174
不以	-9.37215
釐一毫	-9.37288
徴羽	-9.37457
所生	-9.37552
之首	-9.37567
天神	-9.37582
諸侯之	-9.37704
而言	-9.37743
有餘	-9.37777
以禮	-9.37875
之變	-9.38001
照	-9.38027
王朴	-9.38073
熊	-9.38155
仙	-9.38174
延	-9.38195
也又	-9.38302
祗	-9.38426
故其	-9.386
不相	-9.38607
其長	-9.3864
者亦	-9.38822
銘	-9.38867
陰陽	-9.39013
第九	-9.39186
廞	-9.39344
併	-9.39371
辟	-9.39387
解曰	-9.39418
四毫	-9.39423
苟	-9.39443
或曰	-9.39529
社稷	-9.39548
一萬九千六百八十三	-9.39615
變宫變徵	-9.3964
為法	-9.39728
大樂	-9.39749
舂	-9.39828
四十二	-9.39917
樂律	-9.39934
一變	-9.39938
之士	-9.39992
南吕為羽	-9.4006
失其	-9.40215
幂	-9.40395
天下之	-9.40461
阜	-9.40487
莊	-9.40518
六萬三千	-9.40582
孤	-9.40657
省	-9.40678
勞	-9.40699
漢書	-9.40729
丁	-9.40755
羽調	-9.40799
一合	-9.40926
正南中	-9.40938
亦無	-9.40953
而有	-9.41081
三分益一	-9.41083
之内	-9.41125
一二	-9.41135
後漢	-9.41214
不足以	-9.41306
五尺	-9.41329
八徽	-9.41372
愚	-9.41468
一徽	-9.41469
樂而	-9.41524
右乃	-9.41652
八尺	-9.41674
虛	-9.42015
鐃	-9.42023
花	-9.42042
禘	-9.42092
大抵	-9.42213
近代	-9.42247
九百	-9.42272
其間	-9.42614
忘	-9.42624
九十六	-9.42675
後周	-9.42686
然而	-9.42776
使之	-9.42851
二百四十三	-9.43102
六千五百六十一	-9.43216
騶虞	-9.43217
班	-9.43256
湯	-9.4327
訓	-9.4329
樂書卷一百	-9.43292
支	-9.43295
其本	-9.4332
肆	-9.43323
韓	-9.43365
繫	-9.43384
煩	-9.43386
勿	-9.43409
源	-9.43412
谷	-9.43428
夀	-9.43439
内徑	-9.43652
後人	-9.43692
為黄鐘	-9.43859
▁(	-9.43888
如此則	-9.44119
自然之理	-9.44129
誤矣	-9.44242
吟	-9.44353
所造	-9.44422
於禮	-9.44453
樂記曰	-9.44456
二絲	-9.44485
學者	-9.44556
九十四除之得	-9.44589
律呂	-9.44592
循	-9.44609
兮南	-9.44616
岳	-9.44623
遷	-9.44633
育	-9.44638
綴	-9.44671
熟	-9.44739
僭	-9.44747
斜	-9.44753
歴代	-9.4477
箜篌	-9.44773
之論	-9.44778
傷	-9.44782
八佾	-9.44783
遲	-9.44783
二七	-9.44913
除之	-9.45108
一絲	-9.45115
除之得	-9.45165
鹿鳴	-9.45346
特縣	-9.45351
諸律	-9.45358
國之	-9.45497
一忽	-9.4551
形如	-9.45701
兮蕤	-9.45745
吹之	-9.45839
擊之	-9.45848
厲	-9.46013
歳	-9.46023
齒	-9.46035
送	-9.4605
豫	-9.46054
兹	-9.46057
戰	-9.46075
嚴	-9.46079
闗	-9.46133
荒	-9.46157
悲	-9.46166
不在	-9.46244
之言	-9.46277
四釐	-9.4642
宫縣	-9.46728
泉	-9.47056
相去	-9.4709
十七萬七千一百四十七	-9.47193
為樂	-9.47391
遣	-9.4744
病	-9.47451
衍	-9.47454
舍	-9.47454
虎	-9.47457
三百六十	-9.47457
巧	-9.47476
龜	-9.47498
麗	-9.47607
歌聲	-9.47746
一均	-9.47889
六絃	-9.48061
三絲	-9.48107
行之	-9.48175
合字	-9.48232
其後	-9.48392
出于	-9.48488
終始	-9.4852
不成	-9.48551
為變徵	-9.48581
起聲	-9.48585
夏至	-9.48597
兮黄	-9.48645
也凡	-9.48661
不盡	-9.4874
襲	-9.48748
則又	-9.48767
論樂	-9.48775
王者	-9.48777
含	-9.48798
合工	-9.48814
甞	-9.48857
偏	-9.48869
刀	-9.48871
牙	-9.48891
圭	-9.48927
次之	-9.49236
下文	-9.49306
也盖	-9.4932
􁕖	-9.49348
後魏	-9.49355
也言	-9.49424
佾	-9.49627
左手	-9.4966
而歌	-9.4975
新法置	-9.49769
其形	-9.49952
中和	-9.49969
按此	-9.49989
以和	-9.4999
必先	-9.50004
徑三分	-9.50065
四絲	-9.5008
六十調	-9.50092
之所以	-9.50162
京	-9.50236
患	-9.5024
賤	-9.50246
酌	-9.50281
克	-9.50303
茍	-9.5031
蘇	-9.50319
伵	-9.50337
甬	-9.50367
五釐	-9.50382
上下相生	-9.50542
舊説	-9.50621
始終	-9.50701
聲則	-9.50704
五聲二變	-9.50791
林清	-9.50792
而不知	-9.50857
九釐	-9.50962
二十八	-9.51029
而得	-9.51101
合一	-9.51166
故謂之	-9.51208
無不	-9.51224
夘	-9.51249
九變	-9.51328
為大	-9.51329
吉	-9.51368
觧	-9.51525
奠	-9.51617
暴	-9.51659
界	-9.51677
稷	-9.51718
穆	-9.51725
回	-9.51736
罷	-9.51756
獸	-9.5176
伶倫	-9.51774
裁	-9.51779
如是	-9.51821
拍	-9.51836
之義也	-9.5185
三弦	-9.5194
日月	-9.52158
七始	-9.52197
二毫	-9.52224
百一十	-9.52529
律者	-9.5258
大饗	-9.52728
卿	-9.52734
惑	-9.52782
註曰	-9.52784
制度	-9.52887
二五	-9.52911
其理	-9.52925
葉	-9.53041
矣此	-9.53086
不復	-9.53109
者非	-9.53116
貌	-9.53117
黄林	-9.53179
肉	-9.53223
索	-9.53251
私	-9.53299
為正	-9.53313
扶	-9.53331
郡	-9.53331
三五	-9.53334
以應	-9.53367
乘之	-9.5342
掌教	-9.53725
指法	-9.53973
者有	-9.53996
若以	-9.54072
黄鍾九寸	-9.54079
而不用	-9.54279
存焉	-9.5429
九十分	-9.54323
效	-9.54357
簇	-9.54453
測	-9.54573
而樂	-9.54586
禮之	-9.54685
藝	-9.54714
刺	-9.54722
黒	-9.5477
嘆	-9.54791
壇	-9.54803
歌之	-9.5481
文武	-9.54834
升歌	-9.5487
徵羽	-9.55043
玉磬	-9.55093
而聲	-9.55161
九二	-9.55161
六樂	-9.55302
之謂也	-9.55325
三聲	-9.5534
五十六	-9.55357
姑清	-9.55362
五五	-9.55403
用吟	-9.5542
清廟	-9.5549
周人	-9.55526
縵	-9.55614
百二十	-9.55668
勾尺	-9.55762
民之	-9.55825
三律	-9.55862
宫商角	-9.55872
爾雅曰	-9.55888
七微	-9.55901
四百	-9.56045
何也曰	-9.56075
是謂	-9.56103
蔡元定	-9.56126
顔	-9.56202
倚	-9.56203
怨	-9.56207
一孔	-9.56211
遠	-9.56221
两	-9.56223
稽	-9.56236
隠	-9.56264
三三	-9.56265
而舞	-9.56308
自然之數	-9.56455
當用	-9.56477
故用	-9.56518
之象也	-9.56571
箇	-9.56574
降神	-9.56588
人心	-9.56595
之誤	-9.56617
此之謂也	-9.56642
亦得	-9.568
長四寸	-9.57016
十億	-9.57055
和太和	-9.57108
朱子曰	-9.57194
樂正	-9.57223
焉故	-9.57281
尺度	-9.57295
五毫	-9.57298
為寸	-9.57363
其事	-9.57411
中國	-9.57546
空圍	-9.57629
客	-9.57634
九三	-9.57638
居中	-9.57639
剛	-9.57712
借	-9.57715
淺	-9.57724
是知	-9.57736
保	-9.57758
背	-9.57759
導	-9.5778
履	-9.57787
趨	-9.57788
倫	-9.57796
皷	-9.57809
欲其	-9.57812
韋	-9.57832
植	-9.57853
中有	-9.57922
欽定四庫全書	-9.57924
八十四調	-9.57967
六五	-9.5799
孔子曰	-9.58078
樂有	-9.58194
中間	-9.58205
以求	-9.58246
長八寸	-9.58319
尚書	-9.58387
其器	-9.58587
全律	-9.58671
三年	-9.5868
簫管	-9.58698
之徴	-9.58746
庸	-9.58892
鍾磬	-9.58898
使人	-9.5897
二聲	-9.5898
七四	-9.59227
騐	-9.59255
釋奠	-9.59277
淵	-9.59288
以合	-9.59323
靣	-9.59336
規	-9.59345
則聲	-9.59355
黑	-9.59358
根	-9.5936
優	-9.59369
矩	-9.59371
八釐	-9.59379
舒	-9.59381
閟	-9.59394
鎮	-9.59414
帶	-9.59452
八十四聲	-9.59592
三十二	-9.59641
磬師	-9.59727
弗	-9.59736
先後	-9.59792
律數	-9.59864
代之	-9.59882
之調	-9.5998
姑洗為羽	-9.60075
其言	-9.60233
天道	-9.60233
下有	-9.60308
不如	-9.60753
弟	-9.60766
贊	-9.6086
曽	-9.60877
灰	-9.60885
所云	-9.60889
怒	-9.60913
休	-9.6092
採	-9.6093
烈	-9.60963
選	-9.60969
脩	-9.60977
輿	-9.60981
朱載堉	-9.60994
楹	-9.60999
仲林	-9.61
七七	-9.61079
與此	-9.61122
長七寸	-9.6114
尺寸	-9.61152
六月	-9.61214
為本	-9.61308
一管	-9.6135
北面	-9.61458
四六	-9.61648
建鼓	-9.6174
小大	-9.61833
平方	-9.61972
横黍	-9.62002
三千	-9.62072
二字	-9.62074
黄鐘之宫	-9.62094
十二聲	-9.62096
之南正	-9.62156
變聲	-9.62186
為君	-9.6226
不亦	-9.62283
澤	-9.62366
孟	-9.62375
農	-9.62426
獲	-9.6253
仰	-9.62538
紫	-9.62544
閒	-9.62575
弄	-9.6259
龜兹	-9.62596
充	-9.62601
喉	-9.62621
臣謹按	-9.62643
錄	-9.62683
小胥	-9.62697
靡	-9.62751
施於	-9.62856
夷蕤	-9.62868
七絲	-9.6296
音律	-9.63076
亦以	-9.632
八絲	-9.63218
而不可	-9.63266
黄鍾之長	-9.63287
太廟	-9.63369
我應	-9.63387
九絲	-9.63414
宫音	-9.63449
對曰	-9.6371
合尺	-9.63779
者必	-9.63811
之心	-9.63856
教國子	-9.63867
樂作	-9.6387
有五	-9.63875
亦然	-9.63883
調也	-9.6396
應宫	-9.64125
攷	-9.64139
悦	-9.64167
教坊	-9.64168
脣	-9.64177
辛	-9.64183
函鍾	-9.64194
夫人	-9.64203
多寡	-9.64211
逐	-9.64216
單	-9.64228
誦	-9.64262
奏肆夏	-9.64322
管長	-9.64386
少宫	-9.644
地示	-9.64404
所傳	-9.64426
奏樂	-9.64433
之祭	-9.64498
雖不	-9.64547
鐘鼔	-9.64685
新法	-9.64732
六八	-9.64887
繼之	-9.64901
開方	-9.6503
易曰	-9.65103
堂下之樂	-9.6525
九毫	-9.65385
太應	-9.65405
三四	-9.65508
度數	-9.65588
周制	-9.65591
之前	-9.6572
資	-9.6577
人鬼	-9.65818
叚	-9.65825
三終	-9.65862
腹	-9.65869
郭	-9.65891
亦非	-9.65899
徐	-9.65905
故不	-9.65937
吕氏	-9.65938
考工記	-9.65952
羅	-9.66022
合於	-9.66086
大胥	-9.66202
皇后	-9.66312
釐六毫	-9.66314
其名	-9.66395
一音	-9.66428
太祖	-9.66539
從之	-9.66566
者也故	-9.66616
四人	-9.66666
一凡	-9.66681
變而	-9.6682
於天下	-9.67056
為無射	-9.67114
五清	-9.67136
七月	-9.67188
事也	-9.67243
肆夏	-9.6731
之學	-9.67322
響	-9.67331
八百一十分	-9.67389
度量權衡	-9.67438
祝	-9.67483
言樂	-9.67489
賈	-9.67526
勾工	-9.67531
槩	-9.67567
厭	-9.67587
矢	-9.67613
祈	-9.67631
丹	-9.67656
進退	-9.67663
八纎	-9.67767
仞	-9.6779
姑洗為角	-9.678
律度量衡	-9.67859
六舞	-9.67927
千二百黍	-9.68062
其用	-9.68093
笙磬	-9.68237
相傳	-9.68285
鼓瑟	-9.68417
四十九	-9.68502
然也	-9.68511
高下	-9.68769
答	-9.68819
少商	-9.68828
喪	-9.68848
可姑正	-9.68869
之遺	-9.68922
皆非	-9.68931
属	-9.69031
鍾律	-9.69115
穀	-9.69136
杜	-9.69159
者乃	-9.69162
雩	-9.69178
蔡	-9.69179
此説	-9.6919
征	-9.69199
逸	-9.69205
瓦	-9.69232
應鍾為	-9.69238
族	-9.69245
戈	-9.69248
蜀	-9.69255
仩	-9.69262
仜	-9.69264
契	-9.69264
防	-9.69266
國子	-9.693
叔	-9.69314
繆	-9.69319
鮮	-9.69359
其容	-9.69423
分數	-9.69483
而用	-9.69584
商頌	-9.69696
宫商角徵羽	-9.69724
尺字	-9.69783
臣嘗	-9.6981
四寸五分	-9.69845
古制	-9.6986
太四	-9.7002
琴家	-9.70033
長一尺	-9.7017
四律	-9.70233
此則	-9.70238
以十	-9.70444
七一	-9.7045
王制	-9.70476
九五	-9.70518
法也	-9.7053
此理	-9.70676
所作	-9.70759
度量	-9.70761
及其	-9.70906
律本	-9.70924
秒	-9.70967
賀	-9.70968
笑	-9.71007
六絲	-9.71014
忠	-9.71052
尊卑	-9.71058
宰	-9.71068
況	-9.71077
躬	-9.71105
倣此	-9.71222
亦用	-9.71242
戱	-9.71294
羽音	-9.71317
愚按	-9.71395
立方	-9.71417
之日	-9.71464
工字	-9.71491
以九	-9.71543
而用之	-9.71732
二纎	-9.71741
形容	-9.71841
論之	-9.71971
曰大	-9.72031
四十五	-9.72091
徵音	-9.72135
十月	-9.72158
上文	-9.72284
羽籥	-9.72369
芍和	-9.7243
七纎	-9.72433
堂上之樂	-9.72444
七釐	-9.72478
物也	-9.72493
開元	-9.72568
工四	-9.72585
截	-9.72602
暢	-9.72712
絫	-9.72717
韋昭	-9.72758
竝	-9.72761
郎	-9.72797
鷺	-9.72814
弊	-9.72822
啓	-9.72845
伬	-9.72845
為宫則	-9.72852
䟽	-9.72854
唇	-9.72877
二釐	-9.729
匏竹	-9.72934
一兩	-9.72967
黍尺	-9.73
毫釐	-9.73045
要之	-9.73053
之月	-9.73092
之象	-9.73188
釐五毫	-9.73205
隔一	-9.73231
即是	-9.73264
者乎	-9.7338
以爲	-9.73413
樂録	-9.73469
其所以	-9.73489
者即	-9.73575
之神	-9.73612
萬八千	-9.73639
郊祀	-9.73653
皆然	-9.73685
可見	-9.73745
則無	-9.73888
商角	-9.73912
釐九毫	-9.73969
琴譜	-9.74013
儒者	-9.74031
一曲	-9.7419
才	-9.74302
薰	-9.74317
眞	-9.74497
十二管	-9.74504
八變	-9.74515
其律	-9.74521
隋唐	-9.74522
是不知	-9.74548
遍	-9.74551
泛音	-9.74557
酬	-9.74562
謙	-9.74581
禪	-9.74582
兮應	-9.74589
創	-9.74604
臺	-9.74611
邦	-9.74616
區	-9.74621
舞之	-9.74622
繹	-9.74633
此數	-9.74651
泰	-9.74667
輪	-9.74672
一章	-9.74684
言之則	-9.7475
朱氏	-9.74811
之尺	-9.74869
亦因	-9.7488
前後	-9.75161
四忽	-9.75187
審音	-9.75237
器色	-9.7525
為林鍾	-9.75289
聲者	-9.75326
以為法	-9.75351
全度	-9.75568
拊芍之黄正	-9.75691
人情	-9.75704
之教	-9.75715
三孔	-9.75753
故言	-9.75777
大鼓	-9.75829
南風	-9.75838
不出	-9.7593
倍半	-9.75988
成王	-9.76129
旄	-9.76197
度之	-9.76342
之方	-9.76378
淳	-9.76385
籍	-9.76452
佐	-9.76455
大夏	-9.76458
浮	-9.7649
棄	-9.76501
凶	-9.76515
一曰	-9.76516
大濩	-9.76521
弦歌	-9.76523
般	-9.76535
范	-9.76562
頌磬	-9.7665
十二徽	-9.76677
當作	-9.76692
合四	-9.76696
知音	-9.76772
二十五弦	-9.77017
舞也	-9.77095
迭	-9.77178
嘉量	-9.77187
自有	-9.77252
止用	-9.77318
國語曰	-9.774
故云	-9.77448
尺上	-9.77451
三月	-9.77452
詩云	-9.77532
文帝	-9.77543
之蕤正	-9.7761
一六	-9.77695
于是	-9.77697
而民	-9.77777
不得其	-9.77867
言其	-9.78049
樂縣	-9.78124
其文	-9.78142
貍首	-9.78185
中管	-9.782
在上	-9.78211
童	-9.78232
䕫	-9.78233
之失	-9.78245
南蕤	-9.78257
四工	-9.78267
長三尺	-9.78291
寒	-9.78291
伊	-9.783
将	-9.78308
亿	-9.78318
絃音	-9.78324
桐	-9.78331
豐	-9.78365
王莽	-9.78389
丞	-9.78402
屈	-9.78419
遵	-9.78421
以次	-9.78438
臯	-9.78455
楊	-9.78464
蜡	-9.78465
房中之樂	-9.7847
警	-9.78481
不易	-9.78494
擊鼓	-9.78536
北方	-9.78585
濁聲	-9.78639
籥師	-9.78656
二曰	-9.78676
人為	-9.78689
陽也	-9.78844
成於	-9.7901
尺合	-9.79066
夏尺	-9.79083
太宗	-9.79187
其大	-9.79281
九方分	-9.79337
八八	-9.79378
因之	-9.79391
不和	-9.79486
陽之	-9.79784
以明	-9.79826
荀卿	-9.7983
子夏	-9.79858
隂律	-9.80075
狹	-9.80191
友	-9.80227
續	-9.80259
訛	-9.80259
太史公	-9.80268
帛	-9.80274
二二	-9.80285
専	-9.80293
東西	-9.80301
陋	-9.80343
旌	-9.80357
援	-9.80359
神農	-9.8036
筆	-9.80367
頒	-9.80388
紅	-9.80393
黄鐘為宫	-9.80422
八卦	-9.80507
之情	-9.80733
七五	-9.80795
三分二	-9.80907
三八	-9.8098
以定	-9.81034
之職	-9.81068
和樂	-9.81416
七十五	-9.81431
六徽	-9.81546
神人	-9.81645
氣之	-9.81705
𩔖	-9.81741
而九之	-9.81801
一時	-9.8186
皆不	-9.81946
所言	-9.82021
歴十二	-9.82052
矣夫	-9.82106
退位除	-9.82119
廉	-9.82131
悟	-9.82134
三分損一	-9.82136
准	-9.82146
巳	-9.82151
苦	-9.82158
為度	-9.82164
豳	-9.82215
采蘋	-9.82217
道之	-9.82234
繪	-9.82246
招	-9.82247
蕩	-9.82255
圜丘	-9.82262
遞	-9.82293
五徽	-9.82322
曹	-9.82338
兒	-9.82341
太樂	-9.82433
也是故	-9.82553
又折半	-9.82619
自此	-9.8266
上帝	-9.82661
簫笛	-9.82726
絲竹	-9.82754
取音	-9.8287
一百八	-9.82916
宫之	-9.8292
而已故	-9.82977
為變徴	-9.83182
者矣	-9.83257
拘	-9.83298
祇	-9.83336
當以	-9.83339
調則	-9.83373
之容	-9.83477
于此	-9.83517
在下	-9.83658
淮南	-9.83743
以備	-9.8376
八風	-9.83784
脈	-9.83911
明堂位	-9.8403
太平	-9.84035
疏云	-9.84082
艮	-9.8409
嶽	-9.84128
之初	-9.84131
五絲	-9.84156
塵	-9.84183
腰	-9.84207
舉矣	-9.84241
密率	-9.84242
也按	-9.84247
蔽	-9.84251
一尺二寸	-9.84268
鳥	-9.843
不識	-9.84323
寜	-9.84342
為均	-9.84382
戾	-9.84406
百五十	-9.8446
胡部	-9.84485
此所以	-9.84529
變宫變徴	-9.84533
宫徵	-9.84549
二十一	-9.84628
陳氏	-9.84723
則一	-9.84784
四調	-9.84813
者不	-9.84956
已下	-9.84984
宫商角徴羽	-9.84989
五寸三分	-9.8508
六吕	-9.85197
分為	-9.85221
生焉	-9.85318
百物	-9.85422
餘律	-9.85506
之音也	-9.85552
合而	-9.8564
為應鍾	-9.85657
胥	-9.85676
不可不	-9.85696
其說	-9.85738
一萬	-9.85834
暑	-9.85852
掣	-9.85894
四變	-9.85898
錞	-9.85915
以為樂	-9.85937
方圓	-9.85961
减	-9.86082
貢	-9.86121
為釐法	-9.86213
二十三	-9.86215
邊	-9.86216
追	-9.86224
奚	-9.86244
犯	-9.86251
輔	-9.86257
辯	-9.8626
隅	-9.86269
兄	-9.86285
㸃	-9.86288
為絲數	-9.86298
陶	-9.86299
師曠	-9.86305
烝	-9.86325
別	-9.86331
塞	-9.86337
翼	-9.86345
雉	-9.86382
寸為尺	-9.86413
吹口	-9.86464
桑	-9.86464
佳	-9.86489
筝	-9.86497
二十二	-9.8654
一四合	-9.8657
文王之	-9.86582
非是	-9.86583
仁義	-9.86597
其位	-9.86622
鐘律	-9.86625
角音	-9.8683
之数	-9.87022
算法	-9.87045
四合	-9.87104
一百四十	-9.87165
名為	-9.87166
也自	-9.87206
黄正	-9.87248
黄鍾之律	-9.87295
觀之	-9.87321
清黄	-9.87356
衆樂	-9.87375
不為	-9.87429
即今	-9.87534
之謬	-9.87667
七三	-9.87732
自古	-9.87741
正宫	-9.87767
同也	-9.87775
之形	-9.87808
之以為	-9.87812
濯姑正	-9.87863
濁姑正	-9.87921
四面	-9.87956
東南	-9.88121
賛	-9.88265
今以	-9.88265
樂官	-9.88266
嗣	-9.88307
鼖	-9.88313
撞	-9.88327
侈	-9.88328
七孔	-9.88335
銀	-9.88339
襄	-9.88348
換	-9.88349
二絃七絃	-9.8835
旦	-9.88368
厚薄	-9.88368
再拜	-9.8837
愈	-9.88374
烏	-9.88392
甘	-9.88397
桓	-9.88411
从	-9.88443
孟康曰	-9.8845
瀆	-9.88468
觱篥	-9.88483
昌	-9.88495
之長短	-9.88499
擘	-9.8853
之制也	-9.88552
五色	-9.88557
孰謂	-9.88614
南吕為	-9.88713
大祭祀	-9.88716
條下	-9.88821
酉為	-9.88841
於第十	-9.8885
五律	-9.88863
二十六	-9.88976
不與	-9.8901
西北	-9.89012
可知也	-9.89021
論語	-9.89075
為分	-9.89111
音之	-9.89113
得乎	-9.89121
以律	-9.89135
所由	-9.89171
路鼓	-9.89188
事之	-9.89246
此乃	-9.89299
安得	-9.89335
祭之	-9.89343
先生	-9.89453
調之	-9.89525
餘實	-9.89584
人君	-9.89628
乎此	-9.89656
五萬九千四十九	-9.89935
濯	-9.90029
樂聲	-9.90042
二者	-9.90057
之法也	-9.9013
清姑正	-9.90145
敖	-9.90147
一微	-9.90242
由此	-9.90255
亦曰	-9.90306
用樂	-9.90349
賞	-9.90362
粒	-9.90377
草	-9.90387
侑	-9.90425
咏	-9.90437
飲酒	-9.9044
余	-9.90452
縁	-9.90456
確	-9.9047
勸	-9.90478
潤	-9.90497
戴	-9.90526
削	-9.90538
劒	-9.90551
給	-9.9056
洛書	-9.90587
太和	-9.90589
今太常	-9.9059
聼	-9.90599
是已	-9.90601
左旋	-9.90623
曾	-9.90632
依永	-9.90637
又謂	-9.90693
為大吕	-9.90708
自乗得	-9.90762
諸儒	-9.90773
方響	-9.9079
徵聲	-9.9094
有不	-9.90949
有八	-9.90995
即古	-9.91017
之末	-9.91024
而出	-9.91047
鼓人	-9.91061
大泉	-9.91122
三奏	-9.91149
可用	-9.91221
律吕之	-9.9123
大食	-9.91234
下徵	-9.91275
三變	-9.91279
不拘	-9.91328
古有	-9.91399
不宜	-9.91539
樂用	-9.91566
以竹	-9.91594
收宫	-9.91685
三者	-9.91712
二弦	-9.9175
黄鐘九寸	-9.9179
先王之制	-9.91832
此即	-9.91915
註云	-9.91983
滄	-9.92087
為上	-9.92115
實音	-9.92143
長八尺	-9.9224
度量衡	-9.92281
八九	-9.924
詳見	-9.92542
戎	-9.92569
南北	-9.92591
寸分釐毫絲	-9.92603
僕	-9.92615
雄	-9.92617
臋	-9.92627
妻	-9.92634
平方積	-9.92636
洞	-9.92638
伶	-9.92645
僅	-9.92669
勺	-9.92675
厥	-9.92681
范鎮	-9.92721
束	-9.92728
醉	-9.92761
馮	-9.92761
鄭譯	-9.92768
促	-9.9277
撮	-9.92778
卽	-9.92803
羊	-9.92805
即此	-9.92931
條理	-9.92961
外徑	-9.9297
天之	-9.92997
世俗	-9.93012
各一	-9.93201
禮以	-9.93251
放此	-9.93255
舂四	-9.93424
神明	-9.93499
竽笙	-9.93607
見其	-9.93615
一奏	-9.93635
鍾鼓	-9.93644
實積	-9.93702
也又曰	-9.93741
七尺	-9.93771
小雅	-9.938
凡祭祀	-9.9383
始也	-9.93859
一弦	-9.93861
不同而	-9.93941
道也	-9.93983
為夷則	-9.94025
一斤	-9.94104
用其	-9.94353
下徴	-9.9438
尺二寸	-9.94454
鐘師	-9.94467
婦	-9.94549
黄鐘宫	-9.94571
正月	-9.94598
男	-9.94605
以致	-9.94721
函	-9.94727
彭	-9.94782
中央	-9.94783
鐵	-9.94793
郊特牲	-9.94795
四寸六分六釐	-9.94795
沈	-9.94818
故有	-9.94826
讓	-9.94837
勇	-9.94851
梓	-9.94892
屢	-9.949
譯	-9.94904
庶幾	-9.94904
紂	-9.94905
闢	-9.94905
佩	-9.94913
堅	-9.94916
樓	-9.9492
迹	-9.94921
班固	-9.94921
恱	-9.94923
盤	-9.9493
融	-9.94932
錦	-9.94932
以金	-9.94949
冊	-9.94952
為下	-9.94958
七九	-9.94962
之徳	-9.94963
陸	-9.94998
福	-9.95006
參差	-9.95009
舂合	-9.95032
姑洗角	-9.95085
横吹	-9.95136
成而	-9.95144
名也	-9.95201
内外	-9.95232
於中	-9.95346
西山	-9.95363
應凡	-9.95371
八四	-9.95486
上生姑洗	-9.95516
和平	-9.95588
者蓋	-9.95635
為首	-9.95677
五纎	-9.95704
數而未	-9.95725
六千	-9.95742
有大	-9.95808
而不及	-9.95841
其管	-9.95919
假用	-9.96035
容受	-9.96248
歌曲	-9.96252
又言	-9.96318
雖然	-9.96328
古尺	-9.96391
他律	-9.96399
尺一尺	-9.96465
二分八釐	-9.96539
者盖	-9.96544
可南正	-9.96625
宮聲	-9.96693
一升	-9.96738
句股	-9.96771
雖出	-9.96886
凡此	-9.97001
排	-9.97046
庚	-9.97055
豈特	-9.97062
滯	-9.97073
億四千九百一十五萬三千五百三十八	-9.97075
雪	-9.97096
鄉飲	-9.97101
展	-9.97104
之釐數	-9.97107
吕氏春秋	-9.97126
葬	-9.9713
貞	-9.97145
埋	-9.97148
産	-9.97151
殆	-9.97159
摇	-9.9717
朂	-9.97177
滄浪之水	-9.972
下生窮	-9.97227
夕	-9.97234
上有	-9.97237
謹按	-9.97237
無聲	-9.97247
正律内徑	-9.97269
凉	-9.97269
者惟	-9.97274
李氏	-9.97325
數十	-9.97412
其情	-9.9742
横笛	-9.97471
失傳	-9.97538
各絃	-9.97544
房中	-9.97573
以十二律	-9.97592
平調	-9.97606
計之	-9.97617
為九寸	-9.97676
取聲	-9.97722
知之	-9.97812
大弦	-9.97844
黄鍾長九寸	-9.97848
之術	-9.98017
以至于	-9.98023
先儒謂	-9.9803
四纎	-9.98155
工尺工	-9.98267
以生	-9.98297
曲調	-9.98315
為太蔟	-9.98349
亦謂之	-9.98354
爲宫	-9.98503
只是	-9.98778
九成	-9.98781
因而	-9.98808
纎為實以十億乗之以十億	-9.98994
也且	-9.99003
量之	-9.99022
三九	-9.9907
又名	-9.99089
者不過	-9.99104
亦可謂	-9.99111
二寸五分	-9.99111
最長	-9.99194
正音	-9.99201
鬼	-9.99304
幅	-9.99326
清羽	-9.99381
以之損益則三分之	-9.99384
物之	-9.99397
㡬	-9.99403
僣	-9.99412
九夏	-9.99426
朱熹	-9.99434
后妃	-9.99439
亞	-9.99454
樂律全書卷	-9.99468
限	-9.9947
不害其	-9.99481
凱	-9.99484
關雎	-9.99504
池	-9.99511
珠	-9.99513
彌	-9.99519
怪	-9.99522
先王作樂	-9.99523
賔客	-9.99524
米	-9.9953
蒙	-9.99537
朝廷	-9.99542
溺	-9.99543
剛柔	-9.99564
聘	-9.99586
皇太子	-9.99588
巢	-9.9959
九歌	-9.99606
權宜	-9.99637
和聲	-9.99639
未知	-9.99772
黄鐘之管	-9.99797
未免	-9.99968
一名	-10.0001
旋宮	-10.0005
一八	-10.001
多少	-10.0017
八五	-10.0018
南清	-10.0031
以前	-10.0033
林應	-10.0034
夷則無射	-10.0046
一器	-10.0052
子路	-10.0058
者以其	-10.0062
之子	-10.0068
特鐘	-10.0071
施之	-10.0072
其序	-10.0073
而上	-10.0074
一尺八寸	-10.0076
不當	-10.0078
但以	-10.0082
呼一	-10.0082
以五聲	-10.0084
以黄鍾為	-10.0084
商清	-10.0088
以三	-10.0097
損一	-10.0112
聞之	-10.0113
應工	-10.0126
滄姑正	-10.0131
無異	-10.0134
每調	-10.0145
五字	-10.0146
陽數	-10.0148
域	-10.0152
慍	-10.0154
備矣	-10.0157
一百九十	-10.0159
得三	-10.0169
忌	-10.0171
笛正聲應	-10.0175
貴賤	-10.0176
隱	-10.0176
露	-10.0176
阼階	-10.0176
巫	-10.0176
丑為絲法則毫有九絲可知矣下而為忽	-10.0177
空圍九分	-10.0177
為分法則其寸有九分可知矣以午為子	-10.0177
其分有九釐可知矣以申為子之毫數而	-10.0178
毋	-10.0178
數則其數中損益之際皆有餘分雖有巧	-10.0179
寸法則其律有九寸可知矣以辰為子之	-10.0179
下破分為釐破釐為毫破毫為絲破絲為	-10.0179
數亥為全律之實可知矣以寅為子之寸	-10.0179
為實開方	-10.0179
之法為得其要而易	-10.0179
焉然亦苦於難記而易差終不若太史公	-10.0179
管至破一寸以為一萬九千餘分而後畧	-10.0179
終不能盡是以自分	-10.0179
十分而	-10.0179
衝	-10.018
香	-10.018
揖	-10.018
面幂	-10.0181
實比晉前尺一尺	-10.0181
落	-10.0181
之際	-10.0183
為全律之	-10.0184
曰黄鍾八	-10.0185
泥	-10.0185
包	-10.0186
以示	-10.0187
寢	-10.0187
駕	-10.0187
監	-10.0187
札	-10.0188
箾	-10.0189
寫	-10.0189
養老	-10.0189
吐	-10.0189
寶	-10.019
謳	-10.0191
筑	-10.0191
必以十	-10.0194
筭術	-10.0195
户	-10.0197
嗟	-10.0197
阿	-10.0199
秉	-10.02
置黄鍾	-10.0204
門外	-10.0232
自是	-10.0236
六三	-10.0238
内方	-10.0247
黄鍾正律	-10.0253
大章	-10.0261
建鼔	-10.0269
風俗	-10.027
不備	-10.0273
小吕	-10.0276
萬舞	-10.0288
樂志	-10.0294
忽皆	-10.0295
主於	-10.0297
四海	-10.0303
分七釐	-10.0318
唐制	-10.0325
徳音	-10.0329
在西	-10.0334
其次	-10.0334
無射為宫	-10.0335
南方	-10.0341
未有不	-10.035
之器也	-10.035
周樂	-10.0351
王公	-10.0352
祖宗	-10.0357
用此	-10.0364
在於	-10.0364
至今	-10.0374
有三	-10.0375
七寸一分	-10.0384
而不能	-10.0391
乎曰	-10.0407
九千	-10.041
也唐	-10.0413
洛	-10.0413
飾以	-10.042
寡	-10.0421
陞	-10.0421
數整齊簡直易記而不差也其	-10.0421
寸十分一者亦放此意但以正法之數合	-10.0421
夘為毫法則其釐有九毫可知矣以戍	-10.0422
千二百四十六萬	-10.0422
以下遂不可析而直以九相	-10.0423
南正	-10.0423
叙	-10.0423
攷也盖其以子為一而十一三	-10.0423
亥則得十七萬七千一百四十七算而子	-10.0423
鄭衛	-10.0424
預	-10.0424
血	-10.0424
紹	-10.0424
焦	-10.0425
椌楬	-10.0427
可考	-10.0428
十一兆	-10.0429
丙	-10.0429
欽定四庫全書樂律全書卷	-10.043
繼之以	-10.0431
百分	-10.0431
歡	-10.0432
而吹之	-10.0433
一百二十	-10.0434
小舞	-10.0434
救	-10.0434
抗	-10.0435
舂牘	-10.0435
饗食	-10.0437
三章	-10.0438
殿庭	-10.0439
版	-10.0441
闗雎	-10.0442
耕	-10.0445
堯舜	-10.0446
首尾	-10.0464
通典	-10.0467
二釐五毫	-10.0471
周頌	-10.0477
鞉鼓	-10.0477
之書	-10.0479
為姑洗	-10.0486
正宫調	-10.0487
禮運	-10.0487
黄鍾之管	-10.049
髙祖	-10.0492
諸家	-10.0492
正義	-10.0501
𫝊曰	-10.0518
未聞	-10.0525
五帝	-10.053
非古	-10.0531
為中	-10.0532
土鼓	-10.0534
自乘	-10.0541
其志	-10.0568
一五	-10.0589
氣應	-10.059
東方	-10.0615
法度	-10.0619
三十五	-10.0628
二奏	-10.0629
蹈	-10.0632
初學	-10.0634
二調	-10.0634
用半	-10.0645
誤以	-10.0645
合乎	-10.065
亦是	-10.0661
倍律積筭	-10.0661
清宫	-10.0662
四弦	-10.0662
叶	-10.0663
狄	-10.0664
幼	-10.0671
亷	-10.0671
兄弟	-10.0672
判	-10.0673
闊	-10.0673
嫌	-10.0674
秬黍中者	-10.0677
訣	-10.0678
鳴球	-10.0679
舛	-10.0679
罪	-10.0679
様	-10.068
樂之器	-10.068
英	-10.068
奮	-10.068
材	-10.0681
慎	-10.0682
姜	-10.0682
宏	-10.0682
墨	-10.0683
遊	-10.0683
咫	-10.0684
鄙	-10.0686
營	-10.0687
黄鍾為角	-10.0687
巾	-10.0688
宮調	-10.0692
錞于	-10.0693
又按	-10.0694
鎛師	-10.0698
三其	-10.0705
甲子	-10.0724
樂人	-10.0729
三才	-10.073
律度	-10.0738
九忽	-10.0756
乗之得	-10.0759
擊磬	-10.0766
所以示	-10.0775
二均	-10.0783
笙竽	-10.0785
於外	-10.079
存乎	-10.08
元年	-10.0809
越調	-10.0813
内周	-10.083
其失	-10.0864
芍	-10.0871
縣鼓	-10.0871
之時也	-10.0882
一龠	-10.0887
别名	-10.0888
之應正	-10.0888
在所	-10.0901
三尺六寸	-10.0902
大雅	-10.0904
樂家	-10.0906
譬	-10.091
壺	-10.0916
朴	-10.0919
川	-10.0921
應應	-10.0921
距	-10.0929
敵	-10.093
半律通長	-10.093
陳氏樂書曰	-10.093
徽内	-10.0931
凡字	-10.0931
􁕴	-10.0933
銑	-10.0935
危	-10.0935
牧	-10.0935
翕	-10.0935
匠	-10.0937
哭	-10.0937
恩	-10.0938
姦	-10.0938
頂	-10.0941
龍齦	-10.0941
徃	-10.0942
勾凡	-10.0942
壯	-10.0942
百寸	-10.0943
揖讓	-10.0943
鄭司農云	-10.0944
大吕為角	-10.0945
逮	-10.0945
禾	-10.0946
知音者	-10.0946
聖人之	-10.0947
周官大司樂	-10.0949
不可得而	-10.0951
市	-10.0951
院	-10.0952
算術	-10.0953
風俗通	-10.0954
乃以	-10.0958
函鐘	-10.0959
倍律内徑	-10.0971
非有	-10.0975
律尺	-10.0982
黄鍾大吕	-10.0982
千四百	-10.0984
旄人	-10.0985
荀卿曰	-10.0994
吹笙	-10.1002
可見矣	-10.1003
筭法	-10.1009
二分五釐	-10.1012
同而	-10.1013
絃之	-10.1014
一定之	-10.1017
皆在	-10.1034
羽舞	-10.1044
一節	-10.1055
民間	-10.1058
所以節	-10.107
九纎	-10.107
相生之法	-10.1072
二九	-10.1079
第十一	-10.1106
短長	-10.111
為陽	-10.1111
未盡	-10.112
其性	-10.1132
豈可	-10.1141
倍聲	-10.1155
倣	-10.1157
二忽	-10.1158
尺八寸	-10.1176
五寸六分	-10.1182
鐲	-10.1183
責	-10.1187
絲二忽	-10.1188
姑正	-10.1188
冝	-10.1189
也惟	-10.1193
骨	-10.1193
夏后氏	-10.1193
訖	-10.1194
濫	-10.1197
瑞	-10.1198
􁕵	-10.1198
倍律實積	-10.1199
希	-10.12
欽	-10.1201
爼	-10.1202
畏	-10.1203
仲尼	-10.1204
軫	-10.1204
俾	-10.1204
覩	-10.1206
逢	-10.1206
釡	-10.1206
驚	-10.1207
秀	-10.121
啟	-10.1214
七徽九分	-10.1217
造化	-10.1217
之所由	-10.122
鼛	-10.122
三百篇	-10.122
審度	-10.1228
舞衣	-10.1232
奏大	-10.1233
䇿	-10.1233
愚謂	-10.1241
不通	-10.1242
春夏	-10.1242
父子	-10.1246
者所以	-10.1246
四九	-10.1246
萬一千	-10.1253
之為物	-10.1255
為四	-10.1262
也葢	-10.1269
自乗	-10.127
太正	-10.127
四曰	-10.1274
姑太黄	-10.1275
今人	-10.1275
也如	-10.1302
韶樂	-10.1308
三曰	-10.131
長二尺	-10.1311
成數	-10.1313
一定	-10.1322
工尺上	-10.1322
五月	-10.1329
樂止	-10.1331
人道	-10.1336
知樂	-10.1344
皇上	-10.1355
徴聲	-10.1357
篇曰	-10.1365
舞人	-10.1381
三百八十	-10.1382
黄鍾半律	-10.1402
八月	-10.1403
應鍾為羽	-10.1409
九歸	-10.1411
如左	-10.1419
雅頌	-10.1439
西南	-10.144
一千二百	-10.1445
不獨	-10.1454
不得不	-10.1461
四十八億三千	-10.1461
闡	-10.1462
父母	-10.1463
金聲	-10.1466
吳	-10.1466
由此觀之	-10.1466
囘	-10.1467
頁	-10.1467
㫁	-10.1468
答拜	-10.1469
樂譜	-10.1471
耦	-10.1471
壬	-10.1472
采蘩	-10.1472
腔	-10.1473
蟲	-10.1473
鱗	-10.1474
俯	-10.1475
題	-10.1476
魚麗	-10.1476
梁武帝	-10.1477
臘	-10.1477
爭	-10.1478
播鼗	-10.148
覺	-10.148
排簫	-10.1481
十徽八分	-10.1481
板	-10.1483
懐	-10.1484
彈之	-10.1485
杖	-10.1485
開皇	-10.1486
牽	-10.1486
七百七十	-10.1488
始于	-10.1489
見之	-10.149
又何	-10.1493
蠶	-10.1494
晏子	-10.1497
之意歟	-10.15
俗部	-10.1501
小者謂之	-10.1504
之為器	-10.1509
器也	-10.1511
此亦	-10.1514
五音之	-10.1517
六寸二分八釐	-10.1518
備樂	-10.1523
或用	-10.1526
以聲	-10.1535
陽聲	-10.1536
一纎	-10.1541
第十二	-10.1542
而行之	-10.1543
加倍	-10.1552
之盛	-10.1559
在東	-10.1566
生黄鍾	-10.1566
是名	-10.1567
而又	-10.1578
復古	-10.1582
也昔	-10.1586
止于	-10.1601
南吕羽	-10.1603
如何	-10.1608
寸分	-10.1611
彈琴	-10.1614
無射商	-10.1616
字譜	-10.1619
十一律	-10.1628
天地自然	-10.1634
四年	-10.1637
之徑	-10.166
明皇	-10.1669
一絃六絃	-10.1673
而已非	-10.1684
所制	-10.1685
而實	-10.1686
黄鍾一均	-10.171
二徽	-10.1719
有大小	-10.1723
應尺	-10.1726
無非	-10.1727
管音	-10.1728
藏之	-10.1731
積筭為實以應鍾倍律積筭為法除之得	-10.1733
恊	-10.1734
上生者四其	-10.1734
黄鐘之實	-10.1735
愠	-10.1736
三分去一	-10.1736
㓜	-10.1737
謡	-10.1739
循環	-10.1739
樹	-10.1741
競	-10.1743
文獻通考	-10.1744
麻	-10.1746
往而不返	-10.1746
歆	-10.1746
舜之	-10.1747
幣	-10.1748
小鼓	-10.1749
則非	-10.1749
鶴	-10.1749
司馬遷	-10.1749
晦	-10.1749
六年	-10.1749
掩	-10.175
傅	-10.175
潔	-10.175
沙	-10.175
􁕟	-10.1756
四尺五寸	-10.1758
鹿	-10.1758
昧	-10.1758
十一月	-10.1758
十三徽一分	-10.1759
凡樂事	-10.1762
五絃之	-10.1764
呉	-10.1765
殊不知	-10.1766
莊周	-10.1771
高祖	-10.1777
有六	-10.1781
不明	-10.1782
四金	-10.1785
祭統	-10.1785
詩言	-10.1793
黃鍾	-10.1794
圜鐘	-10.1796
先祖	-10.1817
其妙	-10.1831
之使	-10.1832
新聲	-10.184
隂吕	-10.1841
九九八十一	-10.185
舞師	-10.185
二舞	-10.1855
不齊	-10.186
太簇為徴	-10.1867
六奏	-10.187
也古者	-10.1871
小鐘	-10.1874
大合樂	-10.1879
所為	-10.1889
以黄鐘	-10.1896
如前	-10.1898
所奏	-10.19
也今夫	-10.1904
者葢	-10.1906
發明	-10.1911
帝王	-10.1919
迭相	-10.1928
德也	-10.1938
二尺四寸	-10.1939
東北	-10.1948
之説也	-10.1957
第三弦	-10.1958
後漢志	-10.1965
徴清	-10.1967
之異	-10.1968
九奏	-10.1977
豈亦	-10.1984
與夫	-10.1988
九月	-10.1994
所以象	-10.1995
有二	-10.2004
者是也	-10.2004
不見	-10.2006
搏	-10.2009
右論	-10.201
陔	-10.2015
聲氣之元	-10.2018
几	-10.2022
焦尾	-10.2023
律吕新書	-10.2025
竭	-10.2026
其長短	-10.2027
裳	-10.2029
大宗伯	-10.203
従	-10.2031
箱	-10.2033
収	-10.2033
喻	-10.2033
委	-10.2033
氂	-10.2034
俯仰	-10.2034
儉	-10.2035
慮	-10.2035
葭	-10.2035
寄	-10.2036
釜	-10.2039
一百一十	-10.2039
大成	-10.204
纂	-10.204
者豈	-10.204
郭璞	-10.2041
拍板	-10.2041
鴻	-10.2044
騎	-10.2044
允	-10.2045
壞	-10.2047
疾徐	-10.2048
返	-10.205
祀天神	-10.2051
瞽宗	-10.2055
與古	-10.2055
㽔正	-10.2059
不容	-10.206
然亦	-10.2062
八六	-10.2063
而可	-10.2063
漢儒	-10.2064
最濁	-10.2066
關	-10.2067
右旋	-10.2068
鼖鼓	-10.2072
升降	-10.2072
所取	-10.2072
二年	-10.2074
旋宫之法	-10.2074
除實	-10.2075
天地之氣	-10.2082
西域	-10.2083
典同	-10.2091
感人	-10.2093
八十四	-10.2096
太簇為商	-10.2098
初六	-10.2099
北齊	-10.2104
無定	-10.2117
律家	-10.2117
或問	-10.2118
近世	-10.2125
漢魏	-10.2128
用竹	-10.2134
孟子曰	-10.2135
縵樂	-10.2138
六字	-10.2144
竹音	-10.2145
非謂	-10.2155
有功	-10.2159
非不	-10.2166
笙入	-10.2166
今尺	-10.2171
編鍾	-10.2176
二章	-10.2195
工尺凡	-10.2195
功成	-10.2197
聲音之	-10.2201
鄉飲酒	-10.2201
鼓鐘	-10.2208
二尺八寸	-10.221
而定	-10.2214
則曰	-10.2225
之序也	-10.2226
之事也	-10.2228
節之	-10.2231
賔主	-10.2237
程	-10.2244
黄太	-10.225
之為言	-10.225
所掌	-10.2255
五奏	-10.2258
宮清	-10.2264
有長短	-10.2269
音節	-10.2269
文王世子	-10.2275
王道	-10.2277
者如	-10.2278
别有	-10.2279
定律	-10.229
蠻	-10.229
形而	-10.2306
宋陳𤾉撰禮記訓義	-10.2313
鄭聲	-10.2317
榮	-10.2318
伶州鳩	-10.232
為實以十兆乗之	-10.232
陵犯	-10.2322
一黍	-10.2322
贏	-10.2323
決	-10.2323
三成	-10.2323
繇	-10.2324
六律六同	-10.2324
鼻	-10.2326
随	-10.2326
一勾一	-10.2328
周南召南	-10.2328
巡	-10.2329
刪	-10.2329
吏	-10.233
負	-10.233
判縣	-10.233
白虎通	-10.2333
盾	-10.2334
鼜	-10.2334
凌	-10.2334
滛	-10.2335
去其	-10.2336
朋	-10.2336
飲食	-10.2336
慈	-10.2337
游	-10.2337
摩	-10.2337
始羽終	-10.2338
藉	-10.234
和也	-10.234
邦國	-10.2341
冪	-10.2342
七寸五分	-10.2344
編縣	-10.2344
一斗	-10.2345
謂黄鍾	-10.2346
童子	-10.235
玉振	-10.2354
比例	-10.2354
窈	-10.2355
上生大吕	-10.2356
以教	-10.2364
宫羽	-10.2376
於是乎	-10.2382
七釐一毫	-10.2386
得九	-10.2388
鼓間	-10.2395
四分四釐	-10.24
武功	-10.2407
黄鍾倍律	-10.241
而已此	-10.2415
此書	-10.2419
其道	-10.2428
七奏	-10.2434
相對	-10.2436
大明	-10.2437
執始	-10.244
之為樂	-10.2444
如琴	-10.2449
萬世	-10.2459
十六枚	-10.2461
校之	-10.2469
相近	-10.2472
六纎	-10.2477
下生夷則	-10.248
而去	-10.2482
變也	-10.2483
釐二毫	-10.249
下生林鍾	-10.2493
七十八	-10.2496
主乎	-10.2501
禮書	-10.2507
近古	-10.2517
尺工六	-10.2521
其時	-10.2528
為毫	-10.2532
第一聲	-10.2537
律長	-10.2537
取之	-10.2541
蔟	-10.255
之可也	-10.2571
濁南正	-10.2575
曲禮	-10.2576
飯	-10.258
長三寸	-10.259
積分	-10.2593
丄	-10.2593
爻	-10.2602
聰	-10.2606
或有	-10.2612
扵	-10.2614
位於	-10.2615
井	-10.2617
桃	-10.2619
定弦	-10.2619
萌	-10.262
荀	-10.262
商角徵羽	-10.262
藥	-10.2621
至應鍾	-10.2622
芒	-10.2624
夫婦	-10.2624
庻	-10.2625
正律通長	-10.2625
為小	-10.2626
干戈	-10.2626
匹	-10.2627
藻	-10.2628
而言也	-10.2629
球	-10.263
消	-10.2631
壎	-10.2631
后稷	-10.2631
岐	-10.2633
穿鑿	-10.2633
軒縣	-10.2635
牘	-10.2636
結	-10.2636
倍律外徑	-10.2639
欺	-10.2648
開元錢	-10.2648
賁	-10.2648
逺矣	-10.265
分二釐	-10.2652
項	-10.2654
律厯	-10.2656
應正	-10.2656
迎神	-10.2656
四倍	-10.2658
八奏	-10.2661
有異	-10.2671
舞大夏	-10.2674
宋儒	-10.2678
明堂位曰	-10.2694
亦必	-10.2698
為體	-10.2699
羽角	-10.2701
其上	-10.2702
七十六	-10.2707
黄太姑	-10.2724
學樂	-10.2728
靈鼓	-10.2741
大司馬	-10.2746
何謂	-10.2748
用二變	-10.2752
南吕宫	-10.276
衆聲	-10.2764
樂則	-10.2768
此調	-10.2772
唐樂	-10.2789
則樂	-10.2793
春分	-10.2799
改作	-10.2803
鼔吹	-10.2804
之亂	-10.2821
賢者	-10.2829
異矣	-10.2838
二器	-10.284
四望	-10.2841
玉律	-10.2847
毫一絲	-10.2857
之地	-10.2858
一十寸	-10.286
之君	-10.2863
一百六十二	-10.2867
較之	-10.2869
滄南正	-10.2883
遺音	-10.2887
相通	-10.2897
者多	-10.2899
十一分	-10.2902
清南正	-10.2905
荅	-10.2911
二卷	-10.2918
一尺四寸	-10.2919
姑林南	-10.292
撃	-10.2921
所執	-10.2927
吕覽	-10.2932
軒	-10.2934
速	-10.2935
九十三萬七千二百九十八除之得	-10.2935
洽	-10.2936
太蔟長八寸	-10.294
繡	-10.2941
胄	-10.2941
汝	-10.2941
戊	-10.2942
廷	-10.2943
為南吕	-10.2943
惠	-10.2943
詣	-10.2943
偃	-10.2944
冥	-10.2944
尅	-10.2945
熈	-10.2945
檢	-10.2946
弓矢	-10.2946
貨	-10.2947
積八百一十分	-10.295
兩叚譜同	-10.2951
勒	-10.2951
其實一也	-10.2952
沈約	-10.2952
共計	-10.2954
菜	-10.2954
袖	-10.2955
懿	-10.2957
磨	-10.2958
韎師	-10.2961
宇	-10.2962
肩	-10.2962
貟	-10.2965
祭於	-10.2965
中弦	-10.2967
窕	-10.2967
以木為	-10.298
叶音	-10.2986
皆得	-10.2993
中指	-10.2993
受命	-10.2993
備也	-10.2994
千二百	-10.2996
參之	-10.2997
隂陽之聲	-10.2998
短而	-10.3005
姑洗下生應	-10.3008
儀禮大射	-10.3009
抑又	-10.3018
為先	-10.3019
右轉	-10.3031
不離	-10.3031
一百五十	-10.3032
曲折	-10.3033
説見	-10.3034
下生林鐘	-10.3035
六成	-10.3043
應鞞	-10.3043
尺一合	-10.3046
假如	-10.305
祭地	-10.3059
互相	-10.306
尚宫	-10.3064
大鐘	-10.3064
以禮樂	-10.3064
鄉飲酒禮	-10.3064
而作	-10.3068
一句	-10.3071
之徒	-10.3072
益一	-10.3087
明帝	-10.3092
而反	-10.3097
之而已	-10.3101
八尺一寸	-10.3105
之實也	-10.311
各以其	-10.3113
之儀	-10.3115
為夾鍾	-10.3116
夷樂	-10.3135
三十九	-10.3148
司正	-10.3152
中聲也	-10.3164
不用商	-10.317
不傳	-10.3172
武徳	-10.3173
於地	-10.3192
左氏	-10.3194
若此	-10.3204
分别	-10.3207
濯南正	-10.3208
十三弦	-10.321
其體	-10.3213
不行	-10.3218
之禮也	-10.3219
十二絃	-10.3223
象成	-10.3223
者又	-10.3224
禮器	-10.3234
既有	-10.3238
寸一分	-10.3241
林鍾長六寸	-10.3241
可不	-10.3244
即以	-10.325
吴	-10.3252
相求	-10.3255
脉	-10.3257
蘭	-10.326
徑三分四釐六毫	-10.326
冲氣	-10.3261
暇	-10.3262
會	-10.3262
範	-10.3263
倍律内周	-10.3263
覽	-10.3263
啇	-10.3265
今日	-10.3265
㕘	-10.3265
談	-10.3266
探	-10.3266
伊耆氏	-10.3266
文之以五聲	-10.3267
祖孝孫	-10.3267
鐡	-10.3268
弇	-10.3268
蘆	-10.3269
憲	-10.3269
祀天	-10.3269
巨	-10.3271
律和聲	-10.3272
提	-10.3273
叅	-10.3274
陳暘	-10.3274
複	-10.3274
妃	-10.3276
遽	-10.3278
混	-10.3278
笳	-10.328
走	-10.3281
各得	-10.3281
黄鍾笛	-10.3281
之至也	-10.3282
是書	-10.3284
子男	-10.3285
祫	-10.3286
際	-10.3287
厯代	-10.3289
之全數	-10.3291
革木	-10.3293
二月	-10.3294
為仲吕	-10.3294
免	-10.3295
正律外徑	-10.3297
商人	-10.3297
聲髙	-10.3299
方法	-10.3301
因其	-10.3304
小樂正	-10.3305
説者	-10.3305
正變	-10.3309
家語	-10.3309
天地之間	-10.3311
上生㽔賔	-10.3312
古之人	-10.3316
吕為宫始羽終	-10.3316
出焉	-10.3321
樂語	-10.3322
十五聲	-10.3332
兩端	-10.3339
八徽半	-10.3349
豈有	-10.3356
以降	-10.3359
一百六十	-10.336
定樂	-10.3369
太蔟為角	-10.337
正宮	-10.3388
律凖	-10.3388
大琴	-10.339
此章	-10.3392
歌奏	-10.3393
十六管	-10.34
按聲	-10.3402
晉鼓	-10.3405
始作	-10.341
舞器	-10.3413
再作	-10.3414
有節	-10.3424
辨之	-10.3425
亦未	-10.3427
上言	-10.3427
猶有	-10.3435
終焉	-10.3438
方尺	-10.3457
至應鐘	-10.3457
行禮	-10.3465
圓周	-10.3467
歌鹿鳴	-10.347
入門	-10.3476
四十六	-10.3478
愷	-10.3485
三纎	-10.3486
而已哉	-10.35
唐人	-10.3502
搏牘鍾	-10.3528
若是	-10.3545
之風	-10.3546
尤為	-10.3547
五位	-10.3549
林南黄	-10.3549
可以為	-10.3552
新書	-10.3568
抵	-10.3571
同於	-10.3574
半律積筭	-10.3577
吹合字按十	-10.3581
曠	-10.3582
弁	-10.3583
熙	-10.3584
朄	-10.3585
的	-10.3586
揚雄	-10.3586
正律積筭	-10.3588
胡瑗	-10.359
湏	-10.359
半律外徑	-10.3591
投壺	-10.3593
願	-10.3594
羞	-10.3594
姓	-10.3594
衞	-10.3594
柯	-10.3595
雞	-10.3595
雌	-10.3598
蕭	-10.3601
徧	-10.3602
禍	-10.3602
堵	-10.3602
猛	-10.3604
中氣	-10.3604
恒	-10.3604
不應	-10.3604
何妥	-10.3604
甚矣	-10.3605
西京	-10.3605
揖遜	-10.3606
羊頭山	-10.3607
凝	-10.3609
撥	-10.3609
日月星辰	-10.361
陳𤾉	-10.3612
那	-10.3612
秩	-10.3612
昔人	-10.3613
脚	-10.3613
歌永言	-10.3614
篆	-10.3614
座	-10.3616
秋冬	-10.3616
潞	-10.3618
甫	-10.3619
斧	-10.362
圍九分	-10.3624
萬五千	-10.3624
懷	-10.3624
長十寸	-10.3627
相距	-10.3627
不踰	-10.3628
佛曲	-10.3628
倍律通長	-10.3632
琴有	-10.3633
耳目	-10.3648
間歌	-10.3661
掌之	-10.3664
也若夫	-10.3665
莫能	-10.3666
角徴羽	-10.3667
二種	-10.3668
在前	-10.367
其誤	-10.3679
告于	-10.3687
未及	-10.3692
雷鼓	-10.3698
也由是觀之	-10.3702
之𩔖	-10.3705
一日	-10.3705
其能	-10.3706
而小	-10.3714
亦云	-10.3726
取法	-10.3727
故先	-10.373
相乗	-10.374
信矣	-10.3741
所出	-10.3742
功徳	-10.3747
五采	-10.3749
雲和	-10.3749
而易	-10.375
四月	-10.3755
觀其	-10.3758
一寸五分	-10.3768
上生太簇	-10.3776
之功	-10.378
或云	-10.3781
不過如此	-10.379
三日	-10.3791
西方	-10.3793
七百二十	-10.3802
次序	-10.3813
諸器	-10.3822
商羽	-10.3828
不取	-10.3836
為三	-10.3841
亦當	-10.3845
不若	-10.3858
圓徑	-10.3864
之美	-10.3875
與笙	-10.3878
二微	-10.3884
商角徴羽	-10.3886
於下	-10.3891
之始也	-10.3894
四十三	-10.3902
􁁇	-10.3907
為隂	-10.3912
聲相應	-10.3918
凡言	-10.3923
鴈	-10.3927
住	-10.393
𬎼	-10.3933
傍	-10.3934
疊	-10.3935
盛徳	-10.3936
蒼	-10.3937
臆	-10.3937
基	-10.3938
癸	-10.3938
線	-10.3938
宫徴	-10.3938
牢	-10.3939
億二千九百七十三萬一千五百四十七	-10.3939
律厯志	-10.3939
皇祐	-10.394
鵠	-10.394
乞	-10.394
景祐	-10.3941
以此觀之	-10.3942
筍虡	-10.3943
副	-10.3943
孺	-10.3944
晉前尺	-10.3944
諸子	-10.3944
卜	-10.3944
竿	-10.3945
庣	-10.3946
整	-10.3946
三調	-10.3947
賓客	-10.3948
㽔大夷夾無仲黄	-10.3948
壹	-10.3948
到	-10.3948
饋	-10.3949
鈴	-10.395
糠	-10.395
泛聲	-10.3952
閲	-10.3952
乘除	-10.3952
陂	-10.3953
機	-10.3953
鵲巢	-10.3955
正律實積	-10.3955
設柱	-10.3955
傅㑹	-10.3956
軍旅	-10.3956
局	-10.3957
叩	-10.3958
卧	-10.3959
有常	-10.3959
誣	-10.396
旨	-10.3963
謝	-10.3965
横黍度	-10.3975
生十一律	-10.3976
鳩	-10.3976
燕射	-10.3976
等操	-10.3983
周禮大司樂	-10.3987
外周	-10.3988
譬如	-10.3988
仁宗	-10.3991
者何也	-10.3992
為凖	-10.3993
長九尺	-10.4003
夏禹	-10.4007
上生下生	-10.4016
音調	-10.4031
若干	-10.4032
第二聲	-10.4039
開元中	-10.4044
子午	-10.405
著其	-10.4051
惑於	-10.4052
中和之	-10.4053
以俟	-10.4054
鍾師	-10.4056
九尺	-10.406
從來	-10.4061
其辭	-10.4063
九寸為	-10.4064
手足	-10.4066
之類也	-10.407
其徳	-10.4073
孔氏	-10.4079
四方之	-10.4087
盡善	-10.4095
五變	-10.4102
大率	-10.4108
於理	-10.4126
不忘	-10.4139
五音相生	-10.4139
北郊	-10.4142
太簇八寸	-10.4144
其國	-10.4145
三絃宫	-10.4151
難知	-10.4151
八面	-10.4154
通長	-10.417
太簇商	-10.4171
五年	-10.4174
之服	-10.4175
淫聲	-10.4182
樂經	-10.4193
十枚	-10.42
和則	-10.4208
得二十七	-10.4212
之清聲	-10.4214
音樂	-10.4223
八寸四分	-10.4233
入於	-10.4233
狀如	-10.4237
或作	-10.4247
數度	-10.4256
之處	-10.4262
三重	-10.4274
丑三分二	-10.4287
其他	-10.4289
揆	-10.4292
八寸三分七釐六毫	-10.4294
割	-10.4295
塗	-10.4295
以反為文	-10.4296
徑一圍三	-10.4297
此法	-10.4297
冇	-10.4297
葛	-10.4297
苑	-10.4298
薛	-10.4301
八音克諧無相奪倫	-10.4301
渾	-10.4301
六面	-10.4302
深衣	-10.4302
禄	-10.4302
漫	-10.4302
擊石拊石	-10.4303
違	-10.4304
疆	-10.4304
而不言	-10.4304
亮	-10.4305
誅	-10.4308
惜	-10.4309
鬱	-10.4309
鑿	-10.4309
微一纎	-10.431
伸	-10.431
奴	-10.431
鸞	-10.4311
訂	-10.4313
七徽三分	-10.4314
風雨	-10.4318
上黨	-10.4318
婆	-10.4325
太南姑應㽔大夷夾無仲黄林	-10.4326
容千二百黍	-10.4326
以待	-10.4337
六弦	-10.4343
帗舞	-10.4351
立春	-10.4355
詩人	-10.4357
三之而得	-10.4357
二十五絃	-10.4359
納音	-10.4363
吹律	-10.4367
相生之聲	-10.4372
樂而不	-10.4372
林正	-10.4374
無所用	-10.4375
一黍之廣	-10.4375
其禮	-10.4376
答曰	-10.4389
齊量	-10.4393
領調	-10.4394
法曲	-10.4398
安世	-10.4399
一陽	-10.4403
起于	-10.442
協律	-10.4425
而長	-10.443
如此而已	-10.4437
先王之樂	-10.4439
變化	-10.4442
一位	-10.4445
徳之舞	-10.4446
第五弦	-10.4448
前代	-10.4453
秋分	-10.4454
爲角	-10.4457
豈能	-10.4462
黄鍾之實	-10.447
所定	-10.447
三寸六分	-10.4478
唐宋	-10.4479
寓於	-10.4484
何哉	-10.4486
不動	-10.4486
歸於	-10.4496
未能	-10.4497
得一尺	-10.4514
三微	-10.4517
非樂	-10.4518
上宫	-10.4521
二南	-10.4531
寺	-10.456
如之何	-10.4562
黄鐘清	-10.4568
成均	-10.4571
拊芍可黄正	-10.4583
芍濁黄正	-10.4585
德音	-10.4588
大樂正	-10.4588
而弗	-10.4592
列於	-10.4604
黄鐘一均	-10.4608
五絃角	-10.4612
論琴	-10.4617
復生	-10.4621
十二宫	-10.4645
巽	-10.4646
濁蕤正	-10.4648
灰飛	-10.4651
吉凶	-10.4651
尚有	-10.4652
坊	-10.4655
宋陳𤾉撰樂圖論	-10.4662
撫	-10.4662
玄	-10.4664
七寸四分三釐七毫三絲	-10.4664
按之	-10.4664
笙鏞以間	-10.4665
津	-10.4666
蟄	-10.4668
昏	-10.4669
誰	-10.4669
為寸法	-10.4671
練	-10.4671
了	-10.4671
諭	-10.4672
學舞	-10.4672
太尉	-10.4673
絳	-10.4674
筒	-10.4674
男女	-10.4675
獵	-10.4677
詢	-10.4677
曼	-10.4677
抑揚	-10.4678
葦籥	-10.4678
遷就	-10.4678
幹	-10.4681
誕	-10.4681
慢角	-10.4682
軒架	-10.4683
館	-10.4683
觸	-10.4683
可蕤正	-10.4684
黎	-10.4686
袴	-10.4687
築	-10.4688
七徽六分	-10.4689
勾股	-10.469
林鍾六寸	-10.4692
拂	-10.4692
送神	-10.4693
抹	-10.4696
邑	-10.4696
五百九十	-10.4696
之類是也	-10.4716
又自	-10.4723
在天	-10.4724
十二鐘	-10.4729
陵宮	-10.4741
賔射	-10.4754
分之則為	-10.4756
國朝	-10.4763
舞大武	-10.4773
八寸一分	-10.4775
之職也	-10.4782
其始	-10.4785
天地之和	-10.4787
無疑	-10.4787
南郊	-10.4788
不可用	-10.4788
兩面	-10.479
太史	-10.4794
寸數	-10.4797
註疏	-10.4804
太常寺	-10.4808
子一分	-10.4811
行列	-10.4822
八斗	-10.4823
則皆	-10.4835
無形	-10.4836
絃度	-10.4839
二音	-10.4845
蔡氏曰	-10.4856
分之一	-10.486
立名	-10.4862
地祇	-10.487
十二笛	-10.4872
相間	-10.4874
元定	-10.4879
經文	-10.4896
立調	-10.4896
此條	-10.4899
又謂之	-10.4905
其君	-10.4911
四寸半	-10.4913
不曉	-10.4921
者此也	-10.4931
工人	-10.4938
於後	-10.4951
為中聲	-10.4967
四寸八分八釐四毫八絲	-10.4967
即所謂	-10.4974
相與	-10.4978
二百四十三為	-10.4978
銅尺	-10.4984
清濁髙下	-10.4996
帗	-10.4997
搏牘鏞琴	-10.5
下宫	-10.5001
搏牘朄	-10.5007
淫樂	-10.5008
制器	-10.5009
大指	-10.501
臣民	-10.5014
黄南林	-10.5021
猶未	-10.5024
尉	-10.5034
四絃商	-10.5037
下生者倍其實	-10.5041
災	-10.5042
通用	-10.5045
託	-10.5047
夢	-10.5047
伏羲	-10.5048
憑	-10.5048
於庭	-10.5048
晚	-10.5048
醫	-10.5049
椎	-10.5049
旋相為宫	-10.5049
倍律外周	-10.505
投	-10.5052
筵	-10.5053
謨	-10.5053
眀	-10.5054
添	-10.5055
釐有竒	-10.5055
秬	-10.5055
㨗	-10.5056
乗除	-10.5056
曲終	-10.5057
懼	-10.5057
酢	-10.5058
陔夏	-10.5058
㝠	-10.5058
敗	-10.5058
啞	-10.5059
迄	-10.5059
六代之樂	-10.5059
提要	-10.5061
悖	-10.5061
夹鍾	-10.5061
朱干玉戚	-10.5062
僧	-10.5062
淆	-10.5065
靖	-10.5065
攻	-10.5069
怠	-10.507
季氏	-10.5071
洋洋	-10.5072
未始不	-10.5074
塤箎	-10.5076
庾	-10.5079
酌獻	-10.5081
鐵尺	-10.5083
而作也	-10.5083
婆羅門	-10.5086
為法除之得	-10.5087
崑崙	-10.5087
律吕相生	-10.509
非禮	-10.5092
淑	-10.5093
人之所	-10.5094
詩序曰	-10.5096
鈔	-10.5102
祭地示	-10.5105
女樂	-10.5109
無窮	-10.511
時人	-10.5111
一層	-10.5112
一姑角	-10.5116
不與焉	-10.5118
終之以	-10.5131
而已矣	-10.5133
一釐二毫	-10.514
非若	-10.5143
籥章	-10.5147
尺工合	-10.5149
而後成	-10.5151
性情	-10.5157
徵商羽角	-10.5159
太子	-10.516
以詠	-10.5182
總論	-10.5183
圓其外	-10.5189
在易	-10.5209
地中	-10.5216
三徽	-10.5219
人也	-10.5221
之本也	-10.5222
不特	-10.5228
土音	-10.5242
入學	-10.5245
三等	-10.5252
之則為	-10.5263
九寸之管	-10.5272
並奏	-10.5302
不至於	-10.5312
一合工	-10.5321
用變宫	-10.534
未可	-10.5352
千古	-10.5371
孫子	-10.5379
搏牘芍清黄正	-10.5381
器數	-10.5383
興焉	-10.5405
淮	-10.5421
樞	-10.5431
吹四字按十	-10.5433
鼗堂上堂下堂上堂下	-10.5436
吹工字按十	-10.5438
萬二千九百七十四	-10.5441
奏昭夏	-10.5445
昬	-10.5445
片	-10.5445
點	-10.5446
雒書	-10.5447
戲	-10.5447
還相為宫	-10.5448
正律外周	-10.5448
雝	-10.5449
五寸五分五釐一毫	-10.5449
派	-10.545
綽	-10.545
規矩	-10.545
和峴	-10.5451
新樂	-10.5451
看	-10.5452
於卦為	-10.5453
揔	-10.5453
漏	-10.5454
八音克諧	-10.5454
勤	-10.5455
半律内周	-10.5455
𢎞	-10.5455
靁	-10.5455
宮之宮	-10.5456
頴	-10.5456
胡安定	-10.5456
退一位	-10.5457
駁	-10.5458
殘	-10.5458
乳	-10.5458
宋陳𤾉撰	-10.5458
工合尺	-10.5458
讌	-10.5459
激	-10.5459
鄰	-10.5459
婁	-10.5459
靈臺	-10.546
孟春	-10.546
劑	-10.5461
詩言志	-10.5462
墜	-10.5462
頓	-10.5463
蠟	-10.5463
想	-10.5463
旋蟲	-10.5465
廣狹	-10.5465
奥	-10.5465
肄	-10.5466
肺	-10.5466
争	-10.5468
綴兆	-10.5469
炎	-10.547
御製	-10.5474
念	-10.5476
壽	-10.5479
圜鍾	-10.5479
房庶	-10.548
羨	-10.5481
記言	-10.5482
天竺	-10.5482
唐虞	-10.5482
塤篪	-10.5486
禮樂之情	-10.5488
奏騶虞	-10.5489
以節之	-10.5491
相生之序	-10.5498
朝㑹	-10.5504
弟子	-10.5505
聲之髙下	-10.5511
祖考	-10.5517
精微	-10.5523
新説	-10.5524
立秋	-10.5527
鄉樂	-10.5529
舞蹈	-10.554
去四清	-10.554
則用	-10.554
宋朝	-10.5541
初獻	-10.5545
十二調	-10.5552
五聲相生	-10.5556
最髙	-10.5565
禮畢	-10.5566
古文	-10.5572
者異矣	-10.5581
心感	-10.5584
是也然	-10.559
鄭云	-10.5602
本末	-10.5606
三十八	-10.5607
東漢	-10.5612
不知何	-10.5623
中節	-10.5632
古人所謂	-10.5663
相類	-10.5665
樂之情	-10.5678
至髙	-10.5707
考定	-10.5717
俟	-10.574
適合	-10.575
矣然則	-10.5753
太極	-10.5755
其聲清	-10.5761
二尺二寸	-10.5763
中徽	-10.5763
以下至	-10.5764
一條	-10.5768
輕清	-10.5779
搏牘芍濯黄正	-10.5787
琴徽	-10.5788
彊	-10.5793
有瞽	-10.5798
鐘聲	-10.5803
為法除之	-10.5816
六十八	-10.5816
纓姑正	-10.582
㲈	-10.5827
笙簧	-10.583
用正聲	-10.5831
足姑正	-10.5834
索隱曰	-10.5844
以寸法一萬九千六百八十三除之得	-10.5853
苑洛志樂	-10.5855
跪	-10.5857
興舞	-10.5857
不亦宜乎	-10.5862
趣	-10.5863
麟	-10.5864
阮咸	-10.5865
隧	-10.5866
參分	-10.5866
與民同	-10.5867
半律實積	-10.5869
箕	-10.5869
以九分之則為	-10.5869
輅	-10.587
栗	-10.5871
牡	-10.5872
傾	-10.5873
駟	-10.5873
李文察	-10.5874
暗	-10.5875
髪	-10.5875
飲福	-10.5875
驁	-10.5875
毬	-10.5875
説文曰	-10.5876
居一焉	-10.5876
輩	-10.5877
大饗之禮	-10.5877
禽	-10.5878
躍	-10.5878
龡	-10.5879
斆	-10.5879
貨泉	-10.5879
俎	-10.5879
尹	-10.588
截竹	-10.588
鳥獸	-10.5882
扣	-10.5882
昊	-10.5883
胡笳	-10.5884
倒	-10.5884
本諸此	-10.5885
百姓	-10.5885
印	-10.5886
由庚	-10.5887
犧	-10.5888
南陔	-10.5888
涉	-10.5889
爰	-10.589
紙	-10.5891
緩急	-10.5892
四表	-10.5898
簫韶	-10.5905
漢武帝	-10.5907
附㑹	-10.5908
歌南風	-10.5912
相符	-10.5915
蔡氏曰按	-10.5916
可南和	-10.5917
四牡	-10.5918
千載	-10.5923
九十黍	-10.5924
呼二	-10.5924
相連	-10.5929
二寸八分	-10.5932
食指	-10.5936
不可廢	-10.5937
晉侯	-10.5939
凡尺工	-10.5949
一寸二分	-10.5953
詩序	-10.5954
晉志	-10.5956
髙低	-10.5961
屬陽	-10.5965
大喪	-10.5968
周旋	-10.5975
聲韻	-10.5978
四八八	-10.5981
而不亂	-10.5982
舜典	-10.5983
風雅	-10.5989
固已	-10.5993
乙字	-10.5993
孝子	-10.5996
地氣	-10.6001
不息	-10.6009
二分半	-10.602
仲儒	-10.6021
宋人	-10.6025
國公	-10.6053
一為一分	-10.6056
二尺七寸	-10.6066
五代	-10.607
林太南	-10.6095
徽分	-10.612
手執	-10.615
千萬	-10.6156
非所以為	-10.6158
為主故	-10.6181
好古	-10.6186
不免	-10.6193
之正也	-10.6199
三箇	-10.6211
歸宫	-10.6219
仍是	-10.6224
十三絃	-10.6231
無仲黄林太南	-10.6259
八十八	-10.626
不諧	-10.626
􁄅	-10.6267
丨	-10.6282
寅九分八	-10.6287
三分其實得	-10.6294
東序	-10.6295
兊	-10.6297
筍	-10.6297
影	-10.6298
黄鐘之律	-10.6298
三禮圖	-10.6298
漢書律厯志	-10.6299
非古制也	-10.6299
禴	-10.6299
閑	-10.63
漢前志	-10.63
齋	-10.6301
括	-10.6301
臧	-10.6302
奪	-10.6302
不精	-10.6303
樸	-10.6303
綸	-10.6304
此之謂歟	-10.6304
朕	-10.6305
醢	-10.6305
飛灰	-10.6305
未甞不	-10.6306
奠觶	-10.6307
張文收	-10.6307
晝	-10.6308
恕	-10.6309
踈	-10.6309
往往	-10.6312
掘	-10.6312
祼	-10.6312
枝	-10.6312
天地之中	-10.6312
江左	-10.6314
盧	-10.6315
竇	-10.6315
翰	-10.6315
秘	-10.6317
討	-10.6317
今曲尺	-10.6317
皇言定聲	-10.6318
増損	-10.6318
旗	-10.6318
昊天上帝	-10.6318
庫	-10.6319
營造尺	-10.6319
頸	-10.6319
旂	-10.632
此二律相協	-10.6321
伐檀	-10.6321
濁倍	-10.6324
好惡	-10.6325
公羊	-10.6325
宻率	-10.6327
盡美	-10.6327
訓義	-10.6327
候氣之法	-10.6329
浸	-10.633
季夏	-10.633
林鐘為宫	-10.6331
不舉樂	-10.6334
方澤	-10.6338
托	-10.6342
善歌者	-10.6344
迎氣	-10.635
后土	-10.635
難矣	-10.6353
姑洗七寸一分	-10.6363
立冬	-10.6363
數五十四	-10.6363
之率七億	-10.6366
文始	-10.6378
猶存	-10.6388
寒暑	-10.639
五嶽	-10.6393
隋書	-10.6403
國家	-10.6412
宋志	-10.6413
七寸四分	-10.6414
樂闋	-10.6419
忽九微	-10.6434
十三簧	-10.6437
至隋	-10.6441
夫子	-10.6441
長六尺	-10.6446
三分五釐	-10.6451
不待	-10.6452
未詳	-10.6456
而已盖	-10.646
工師	-10.6465
商羽角	-10.6469
饗禮	-10.6469
異名	-10.6471
宋史	-10.6477
音立體	-10.6483
六百二十	-10.6497
三分八釐	-10.65
凡工凡	-10.65
舊制	-10.6506
事親	-10.6529
二分四釐	-10.6532
夷夾無仲黄林太	-10.6534
林蕤	-10.6538
善吹	-10.6552
考擊	-10.6558
緊五	-10.6565
干舞	-10.6568
不解	-10.6582
寸法	-10.6595
所容	-10.6602
九百六十	-10.6603
三字者	-10.6607
萬九千六百八十三	-10.6615
雅音	-10.6668
一端	-10.6677
不成聲	-10.6706
大夫士	-10.6711
西山蔡氏曰	-10.6729
堂上堂下堂上堂下	-10.6739
魏晉	-10.6742
百年	-10.6743
尺林商	-10.6745
参	-10.6747
莖	-10.675
笙磬同音	-10.6752
八寸十分一	-10.6753
六寸五分八釐三毫四絲六忽	-10.6753
一六八九	-10.6754
檀弓	-10.6754
中和之紀	-10.6755
篚	-10.6755
覃	-10.6756
不拜	-10.6756
迂	-10.6757
舟	-10.6758
大晟樂	-10.6759
娶妻	-10.6759
羲	-10.6761
曷	-10.6761
辟廱	-10.6761
萬寳常	-10.6761
紛	-10.6761
升歌清廟	-10.6762
妨	-10.6762
六律六吕	-10.6763
九徳之歌	-10.6763
打	-10.6763
鳬氏	-10.6763
葦	-10.6764
嚮	-10.6764
矯	-10.6764
神人以和	-10.6765
南有嘉魚	-10.6766
十九簧	-10.6767
覈	-10.6767
筆談	-10.6768
兮可以濯我	-10.6769
敏	-10.6769
后夔	-10.6769
壤	-10.677
裴	-10.677
沂	-10.677
摘	-10.677
荆	-10.6772
裏	-10.6773
矛	-10.6773
穿	-10.6774
杜子春	-10.6774
陛下	-10.6775
奪倫	-10.6775
並同	-10.6776
髮	-10.6777
鉞	-10.6777
備數	-10.6779
截管	-10.6779
仗	-10.678
哲	-10.6782
股博	-10.6785
二百四十	-10.6793
臣愚	-10.6796
大旱	-10.6797
玉斗	-10.6797
聖祖	-10.68
以玉為	-10.6804
合之得	-10.6812
地官	-10.6825
文王世子曰	-10.6828
竊謂	-10.683
風雅頌	-10.6835
得十七萬七千一百四十七	-10.6845
五聲之數	-10.6846
先儒以為	-10.6859
中庸	-10.6863
勾工凡	-10.6874
石磬	-10.6876
吉禮	-10.6882
各有所	-10.6882
國風	-10.6883
二佾	-10.6888
一大調也	-10.6894
亦不可	-10.6901
天子諸侯	-10.6914
立夏	-10.6926
五聲八音	-10.6942
必待	-10.6951
欲求	-10.6951
於南郊	-10.6954
其謬	-10.6979
然邪	-10.6986
九十八	-10.6996
樂之本	-10.7014
言之謂之	-10.7026
仲黄林太南姑應㽔大夷夾無	-10.7054
黄林太南姑	-10.7058
乘之得	-10.7091
圓積	-10.7102
六變律	-10.7106
一百二十八	-10.7116
具焉	-10.7119
闋	-10.7126
沿	-10.7196
永言	-10.7202
旬有五日指	-10.7207
六字者	-10.7208
世儒	-10.721
燎	-10.721
别法以一百乘之七十五除之亦得	-10.7211
為實上生者四因三歸得	-10.7212
謀	-10.7218
九分寸之一	-10.722
祚	-10.7222
南吕長五寸三分	-10.7222
縦	-10.7223
鑽	-10.7223
為實先以	-10.7225
胷	-10.7225
决	-10.7226
乾坤	-10.7226
為無射置無射	-10.7227
生鍾分	-10.7227
鶉火	-10.7227
巴	-10.7227
為姑洗置姑洗	-10.7228
不亦可乎	-10.7229
壊	-10.7229
不云乎	-10.723
樂同上但用	-10.7231
芳	-10.7232
嗚呼	-10.7232
崇牙	-10.7233
范蜀公	-10.7234
縱横	-10.7234
法也九其	-10.7234
軌	-10.7234
黄鐘生林鐘	-10.7234
臝	-10.7235
明朱載堉撰	-10.7235
蕢	-10.7235
沒	-10.7236
姜夔	-10.7236
杜預	-10.7237
鳯凰	-10.7237
泮	-10.7237
冕而舞大武	-10.7237
馭	-10.7237
杜夔	-10.7238
大同小異	-10.7238
可以濯我	-10.7239
膳	-10.7239
完	-10.7239
劣	-10.724
膚	-10.724
戛擊	-10.724
宋史樂志	-10.724
兩君相見	-10.724
弹	-10.7241
荀勗	-10.7241
祖冲之	-10.7242
彩	-10.7242
徙	-10.7243
諫	-10.7243
脱	-10.7244
靡靡	-10.7244
歛	-10.7244
詩言志歌永言聲依永律和聲	-10.7245
廵	-10.7245
鉤	-10.7245
劉濓	-10.7248
學士大夫	-10.7249
渠	-10.7249
氣至則	-10.7252
一字一音	-10.7252
睿	-10.7252
十二徽二分	-10.7255
翻	-10.7255
䨇	-10.7255
狩	-10.7256
其義一也	-10.7257
燕饗	-10.7259
豳籥	-10.7259
星辰	-10.7261
以銅為之	-10.7264
穹	-10.7264
大石調	-10.7265
韎	-10.7267
子貢	-10.7269
常御	-10.7273
部伎	-10.7273
宫生徵	-10.7273
簡易	-10.7298
婦人	-10.731
其位在	-10.7313
大蔟	-10.7313
頌瑟	-10.7314
食舉	-10.7315
朱弦	-10.7317
三分寸之一	-10.733
之過也	-10.7333
解見	-10.7347
歌詠	-10.7351
四分二釐	-10.7352
公卿	-10.7356
黄鍾之宮	-10.7356
林仲太黄	-10.736
饗燕	-10.7361
子孫	-10.7367
幂積	-10.737
軍事	-10.7373
舊譜	-10.738
破陣樂	-10.7389
得之矣	-10.7393
河南	-10.7393
夫豈	-10.7398
羌	-10.7401
宫生徴	-10.7413
必須	-10.7414
隔七	-10.7416
然後可以	-10.743
工勾凡	-10.7461
祭義	-10.7464
林仲夾	-10.7492
琴操	-10.7498
三百五十	-10.7515
益一上生	-10.7528
勾工勾	-10.7536
萬民	-10.7564
一千六百二十寸	-10.7569
黄太黄	-10.7586
而不知其	-10.7599
古器	-10.7646
寸之一	-10.7653
末節	-10.7653
第四弦	-10.7658
濯應正	-10.767
工凡尺	-10.7681
濁應正	-10.7684
禮樂之道	-10.7684
鄉射禮	-10.7694
可應正	-10.7698
清應正	-10.7702
十二律吕	-10.7702
萬七千	-10.7704
滄瑟	-10.7706
􁄇	-10.7708
皮弁	-10.7713
溪	-10.7716
股肱	-10.7718
諡	-10.7719
尺工凡六	-10.7722
釁	-10.7723
杜佑	-10.7727
為仲吕置仲吕	-10.7727
紀之以三	-10.7727
翹	-10.7727
个	-10.7728
為南吕置南吕	-10.7728
裨	-10.7728
太南姑應㽔大夷夾無仲	-10.7728
筩	-10.7729
䕶	-10.773
十分三釐八毫	-10.773
發揚蹈厲	-10.773
千分以七百四十九為法除之得	-10.7732
莫重於	-10.7733
聖諭	-10.7733
一清一濁	-10.7734
應三絃散聲	-10.7734
遏	-10.7735
琮	-10.7735
黄鐘大吕太簇	-10.7735
朔鼙	-10.7735
鑮	-10.7735
它	-10.7737
紋	-10.7737
蠡	-10.7737
三分損益上下相生	-10.7737
滋	-10.7737
緑	-10.7737
冩	-10.7738
崩	-10.7738
紐	-10.7739
其來尚矣	-10.7739
奕	-10.7739
凢	-10.7739
苖	-10.774
酣	-10.774
毁	-10.774
壁	-10.774
禘祫	-10.774
鞮	-10.7741
皇皇者華	-10.7741
占	-10.7741
欽定四庫全書經部九	-10.7741
阮逸	-10.7742
刌	-10.7742
拱	-10.7742
需	-10.7743
孫士毅	-10.7743
標	-10.7743
茲	-10.7743
拜送	-10.7743
為實開平方法除之得	-10.7743
商生羽	-10.7743
祀四望	-10.7743
值	-10.7744
遜	-10.7744
敷	-10.7744
孚	-10.7744
概	-10.7745
摶	-10.7745
畝	-10.7746
撝謙	-10.7748
兮之水	-10.7749
靈星	-10.7749
瑗	-10.775
丁度	-10.7751
臯陶	-10.7751
羡	-10.7752
隊	-10.7752
虧	-10.7753
鞠	-10.7754
季秋	-10.7754
認	-10.7754
文武之舞	-10.7754
俳	-10.7755
魏文侯	-10.7756
太樂令	-10.7757
空圍内	-10.7758
盥	-10.7759
攝	-10.7759
銅鈸	-10.776
稼	-10.7762
唐明皇	-10.7762
濕	-10.7764
奢	-10.7765
絲五忽	-10.7765
驟	-10.7765
易曉	-10.7769
卒爵	-10.7769
悠	-10.777
紙條	-10.777
朗	-10.7771
夷則長五寸	-10.7772
大㲈	-10.7775
孰能	-10.7776
已久	-10.7777
假令	-10.7777
寐	-10.778
逺近	-10.7783
不可勝	-10.7786
權量	-10.7789
林鐘特磬	-10.7805
周鬴	-10.781
各一徽	-10.7811
尺一工	-10.7812
六尺四寸	-10.7817
向内	-10.7831
吹籥	-10.7837
南蠻	-10.787
一絃六絃徵	-10.787
角徵羽	-10.7885
大射禮	-10.7904
愷樂	-10.7905
黄林太南姑應㽔	-10.7925
日食	-10.7928
成功	-10.7941
損益相生	-10.7944
夷則歌	-10.7954
分毎分	-10.7973
仲無夾夷大㽔應姑南太林	-10.7999
太林黄仲無夾夷大㽔應姑	-10.8098
三尺二寸	-10.8125
千里	-10.8152
崇徳	-10.8188
旱	-10.8207
泛	-10.8208
濩	-10.8213
師古曰	-10.822
黨	-10.8223
司徒	-10.8229
姑洗搏牘鍾	-10.8229
☰	-10.824
征伐	-10.8248
睦	-10.8249
仲尼燕居	-10.825
史記律書	-10.825
數約以	-10.8251
下生者倍其法得	-10.8251
薫	-10.8251
簫韶九成	-10.8252
平之以六	-10.8253
邸	-10.8253
釋菜	-10.8253
罰	-10.8254
為林鍾置林鍾	-10.8254
為大吕置大吕	-10.8254
為太蔟置太蔟	-10.8255
噫	-10.8255
七尺五寸	-10.8255
禀	-10.8256
綜	-10.8256
以樂侑食	-10.8256
父子君臣	-10.8257
主人阼階	-10.8257
幘	-10.8257
辱	-10.8258
蒲	-10.8258
八百八十八	-10.8258
臬	-10.8258
橦	-10.8258
昆	-10.8259
豹	-10.826
戛	-10.826
鄭司農	-10.826
雅頌之聲	-10.8261
玩	-10.8261
咽	-10.8261
谿	-10.8261
太常卿	-10.8261
仕	-10.8262
先代	-10.8262
鞀	-10.8262
戞擊	-10.8262
鏗鏘	-10.8263
耆	-10.8263
於上商	-10.8263
假借	-10.8263
麾	-10.8264
裘	-10.8264
豪	-10.8264
渉	-10.8265
亡國之音	-10.8266
中央土	-10.8267
繒	-10.8267
享先祖	-10.8267
滌	-10.8268
霜	-10.8268
牲出入	-10.8268
長尺四寸	-10.8268
掲	-10.8268
敝	-10.8268
松	-10.8268
藴	-10.8268
早	-10.8269
褒	-10.8269
圉	-10.8269
牛弘	-10.8269
羽生角	-10.827
湛	-10.827
趺	-10.827
模	-10.8271
叢	-10.8271
楊傑	-10.8271
乏	-10.8272
豕	-10.8272
綏	-10.8272
重複	-10.8273
舎	-10.8274
雅頌之音	-10.8274
笛色譜	-10.8275
屋	-10.8276
冷	-10.8276
瞻	-10.8277
銑間	-10.8278
緋	-10.8279
險	-10.8279
勅	-10.828
竊疑	-10.8282
礙	-10.8284
樣	-10.8284
朝覲	-10.8285
編鐘編磬	-10.8286
豎笛	-10.8291
律吕正義	-10.8291
遣使	-10.8295
一二三四五	-10.8296
黄鍾之龠	-10.8297
天地之情	-10.8298
三分損益之法	-10.83
龍池	-10.8302
大司徒	-10.831
四寸一分八釐	-10.831
白駒	-10.8311
雜比	-10.8322
臣竊	-10.8322
兩旁	-10.833
荅曰	-10.8334
相接	-10.8338
二十八調	-10.834
水火	-10.8344
為宮始羽終	-10.8354
太簇鎛鐘	-10.8355
更造	-10.8361
十有二律	-10.8374
經傳	-10.8403
夷則之角	-10.8429
三寸五分	-10.8496
相較	-10.8499
形制	-10.8505
首章	-10.8644
聲之清濁	-10.869
地祗	-10.8698
億四千	-10.8712
林南應	-10.8717
踰	-10.8742
孟康	-10.8768
以節樂	-10.8779
纖有竒舊法置	-10.879
兑	-10.8795
左手執籥右手秉翟	-10.8798
秠	-10.88
十三萬一千七十二	-10.88
丸	-10.88
之變宮二清右	-10.8801
一徽定之實音為黄鍾散聲即夷則	-10.8801
欽定四庫全書苑洛志樂卷	-10.8802
其辰合	-10.8802
忌日	-10.8802
飬	-10.8804
徑三分圍九分	-10.8804
饌	-10.8805
戸	-10.8805
倍之為實以仲吕倍律積筭為法除之得	-10.8806
莽	-10.8806
武王伐紂	-10.8806
積筭為實以仲吕倍律積筭為法除之得	-10.8808
用倍數	-10.8809
為夷則置夷則	-10.8809
彦	-10.881
縮	-10.8811
荷	-10.8811
籈	-10.8811
途	-10.8811
晨	-10.8812
南吕無射應鍾	-10.8812
隙	-10.8812
餘數在半分已下棄之不用	-10.8813
奈	-10.8813
樂而不淫	-10.8813
研	-10.8814
九絲六忽	-10.8814
亥一十七萬七千一百四十七	-10.8815
萃	-10.8816
牛𢎞	-10.8816
振鐸	-10.8818
蔡子曰	-10.8818
墓	-10.8818
以漸而	-10.8818
天黿	-10.8818
爽	-10.8819
州鳩	-10.8819
大吕夾鐘仲吕	-10.8819
増減	-10.8819
沉	-10.8819
何承天	-10.8819
月令章句	-10.8819
煬帝	-10.882
林鐘生太簇	-10.8821
俗呼濁	-10.8821
踏	-10.8821
爾雅釋樂	-10.8821
乾隆四十六年	-10.8821
料	-10.8822
板眼	-10.8822
琴瑟以詠	-10.8822
龠黍之重為今之	-10.8822
膠	-10.8823
遲速	-10.8823
沈氏	-10.8823
把	-10.8825
茂	-10.8825
殺伐	-10.8825
態	-10.8825
慕	-10.8825
劇	-10.8825
鑒	-10.8825
鎛師掌金奏之	-10.8826
慨	-10.8826
聶	-10.8826
湘	-10.8826
五百一十二	-10.8826
僻	-10.8827
箋	-10.8827
古樂經傳	-10.8828
阮	-10.8828
檀	-10.8828
單簫	-10.8828
㑹稽	-10.8828
亢	-10.8829
淪	-10.8831
六斗四升	-10.8831
聰明	-10.8831
麥	-10.8832
臆説	-10.8832
吻	-10.8833
淨	-10.8833
徵生商	-10.8834
享人鬼	-10.8834
血氣	-10.8834
齡	-10.8837
喜怒	-10.8837
般涉調	-10.8838
分八釐三毫	-10.8838
祁	-10.8839
頁前	-10.8841
商生羽羽生角	-10.8842
猗	-10.8845
三章章四句	-10.8845
聲音之道	-10.8846
出於自然	-10.8846
番	-10.8851
十三徽外	-10.8852
馳	-10.8854
龍門	-10.8855
崇德	-10.8856
朱干	-10.8857
夷狄	-10.8857
邉	-10.8858
衆庶	-10.8859
西戎	-10.8865
季通	-10.8865
之意邪	-10.8867
告備	-10.8873
呦	-10.8893
真宗	-10.8894
世祖	-10.8902
音也由	-10.8911
姑洗起宫	-10.8919
四寸六分	-10.8931
樂書卷一百七十	-10.8948
司干	-10.8977
倨句	-10.9006
三分益一上生	-10.9186
林鐘六寸	-10.9193
大射儀	-10.9286
効	-10.9384
鏞鐘一振鐸二	-10.9386
潛	-10.939
笛飲聲	-10.939
􁄆	-10.939
為實五億乗之	-10.9392
文之以五聲播之以八音	-10.9393
祊	-10.9394
迨	-10.9395
堪	-10.9395
霜降	-10.9395
再作再作	-10.9395
緜	-10.9395
六六三十六	-10.9395
斁	-10.9395
黄鍾生林鍾	-10.9396
應田縣鼓	-10.9396
闔	-10.9397
為蕤賔置蕤賔	-10.9398
為夾鍾置夾鍾	-10.9398
重十二銖	-10.9399
相為表裏	-10.9401
徑三圍九	-10.9401
牟	-10.9402
退位為實七億四千	-10.9402
翁	-10.9403
逓	-10.9403
董	-10.9403
翠	-10.9404
西涼	-10.9404
六尺為歩	-10.9404
冲	-10.9404
吹凡字	-10.9405
淑女	-10.9406
合止柷敔	-10.9406
詎	-10.9406
貳	-10.9406
咎	-10.9406
赫	-10.9407
瞍	-10.9407
鄉飲酒之禮	-10.9408
何瑭	-10.9408
君臣民事物	-10.9409
珍	-10.9411
僖	-10.9413
等謹案	-10.9413
髹	-10.9413
据	-10.9413
藩	-10.9414
崔	-10.9414
膝	-10.9416
樂由中出	-10.9416
應五絃散聲	-10.9417
哨	-10.9417
謁	-10.9417
暮	-10.9417
崇丘	-10.9418
九分為寸	-10.9418
四夷之樂	-10.9419
萬已上開	-10.9419
翔	-10.9419
傑	-10.9419
草木	-10.942
琯	-10.9422
笛體中	-10.9422
蓮	-10.9423
纍	-10.9425
隅法	-10.9425
鞮鞻氏	-10.9425
編懸	-10.9426
跋	-10.9426
西山蔡氏曰按	-10.9427
眇	-10.9427
貞觀	-10.9427
杜氏	-10.9428
像	-10.9428
耜	-10.9429
沛	-10.9429
輾	-10.943
停	-10.943
抃	-10.9431
茨	-10.9431
嶺	-10.9433
宗廟之中	-10.9433
節聲樂	-10.9434
搊	-10.9435
精妙	-10.9437
升堂	-10.9437
孔穴	-10.9438
不可缺	-10.9439
命之曰	-10.9442
張衡	-10.9446
原闕	-10.9454
筭家	-10.9454
將軍	-10.9459
十四纎	-10.9465
六字調	-10.947
四太商	-10.9475
㽔賔下生大	-10.9477
先農	-10.9477
安之曲	-10.9488
小分六	-10.9512
為調首	-10.9519
夾鐘下生無	-10.952
樂書卷一百三十	-10.9541
分八釐六毫	-10.9565
一三六	-10.9613
雲韶	-10.9621
林太南姑應㽔大夷夾無仲黄	-10.9643
酉一萬九千六百八十三	-10.9689
二千二百三十六除之得一寸	-10.9696
夾夷大㽔應姑南太林黄仲	-10.9717
二百七十	-10.9727
一均七聲	-10.9778
鄭註	-10.9813
倨	-10.9845
破陣	-10.9867
四百七十	-10.9884
釐五百	-10.9933
黄無南林	-10.9972
晏	-10.9978
腸	-10.9982
南吕搏牘鍾	-10.9984
足南正	-10.9984
跡	-11.0008
姑應㽔大夷夾無	-11.0012
巻	-11.0014
繞	-11.0014
辰八十一分六十四	-11.0015
綂	-11.0015
穎	-11.0016
粱	-11.0016
已二百四十三分一百二十八	-11.0017
戍	-11.0017
斷兩節間	-11.0018
采薺	-11.0018
午七百二十九分五百一十二	-11.0019
再鼓皆	-11.002
巨細	-11.0021
内容方	-11.0021
五寸九分四釐六毫	-11.0021
歇	-11.0021
六律正五音	-11.0021
鶉	-11.0021
泣	-11.0022
三毫四絲六忽	-11.0024
先妣	-11.0025
置一而九三之	-11.0026
毫八絲四忽	-11.0026
形於聲	-11.0027
鄧保信	-11.0027
祴	-11.0027
陳祥道曰	-11.0027
九百一十五萬三千五百三十八	-11.0027
殖	-11.0028
盆	-11.0028
許慎	-11.0028
四寸一分四釐二毫一絲三忽五微六纎	-11.0029
大瑟謂之灑	-11.003
鈎	-11.003
圜鍾為宫	-11.0031
偕	-11.0031
淡	-11.0031
五分九釐四毫六絲三忽	-11.0031
賡歌	-11.0031
填	-11.0031
齦	-11.0031
措	-11.0031
歐	-11.0031
費	-11.0031
渡	-11.0032
揮	-11.0032
篤	-11.0032
筦	-11.0032
可類	-11.0032
奏黄鍾歌大吕	-11.0033
呈	-11.0033
涼州	-11.0033
冒	-11.0033
國語伶州鳩	-11.0033
演	-11.0034
活	-11.0035
桂	-11.0035
與之相應	-11.0035
蔡西山	-11.0036
莊子曰	-11.0036
冐	-11.0037
籠	-11.0037
弘	-11.0037
鏗	-11.0037
鹽	-11.0037
儼	-11.0037
超	-11.0038
十二筩	-11.0039
祴夏	-11.0039
技	-11.0039
遼	-11.0039
靈鼓靈鼗	-11.004
毋論	-11.004
協律郎	-11.004
筍簴	-11.004
斥	-11.004
扇	-11.0041
罍	-11.0041
欠	-11.0041
廂	-11.0042
幷	-11.0042
脫	-11.0042
状	-11.0042
九千九百二十七	-11.0042
其南鑮皆南陳	-11.0042
觜	-11.0042
之所自出	-11.0043
波	-11.0043
襍	-11.0043
竪	-11.0043
沈括	-11.0043
臭	-11.0043
臨軒	-11.0043
轍	-11.0044
三分之二	-11.0044
舞干羽	-11.0044
苐	-11.0045
頖宮禮樂䟽	-11.0045
日躔	-11.0045
富	-11.0046
尋常	-11.0046
沖	-11.0047
鏡	-11.0047
伏犧	-11.0047
𨽻	-11.0047
肇	-11.0047
彰	-11.0048
莊敬	-11.0048
羌笛	-11.0048
匪	-11.0049
角生變宫	-11.005
輒	-11.0051
魯頌	-11.0051
京氏	-11.0052
鹵	-11.0052
帯	-11.0052
宛轉	-11.0053
分六萬五千五百三十六	-11.0054
㦸	-11.0054
緒	-11.0055
烖	-11.0055
洞簫	-11.0056
空桑	-11.0056
四六工	-11.0059
裂	-11.0062
鄭衛之音	-11.0063
齊景公	-11.0064
庸器	-11.0066
贈	-11.0068
故也樂書卷	-11.0069
唐太宗	-11.007
正律内周	-11.0072
治世之	-11.0073
南吕五寸三分	-11.0073
四八三	-11.0076
合黄宫	-11.0078
也何有	-11.0081
寤	-11.0086
嘽	-11.0086
工南羽	-11.0105
之效也	-11.0127
寸五分八釐	-11.0139
摯	-11.0162
程子	-11.0222
陸費墀欽定四庫全書	-11.0244
南太林黄仲無夾夷大	-11.0384
工凡勾	-11.0539
胃	-11.0658
丅	-11.0671
瞭	-11.0674
為實下生者二因三歸得	-11.0674
别法以五十乘之七十五除之亦得	-11.0674
抄	-11.0675
以出納五言	-11.068
鏄	-11.0681
舉麾	-11.0683
姬	-11.0684
証	-11.0684
四十九分三萬二千七百六十八	-11.0685
三分四釐六毫	-11.0685
舞動其容	-11.0685
申六千五百六十一分四千	-11.0686
三分三釐三毫	-11.0686
雲門大卷	-11.0686
七寸九分三釐七毫	-11.0686
未二千一百八十七分一千	-11.0686
三萬二千七百六十八	-11.0686
廼	-11.0687
魏漢津	-11.0687
布戎	-11.0687
律吕精義	-11.0688
櫟	-11.0688
徂	-11.0688
吹上字按十	-11.0688
一尺三寸五分	-11.0689
剔	-11.0689
以鐘鼓奏九夏	-11.0689
亦此意歟	-11.069
郤	-11.069
忍	-11.0691
泠	-11.0692
未酉亥	-11.0692
四鈞為石	-11.0692
剖	-11.0693
鼓羽籥之舞	-11.0693
吸	-11.0695
供	-11.0696
宸	-11.0696
大業中	-11.0697
蔡季通	-11.0697
勉	-11.0697
以十有二律為之數度	-11.0697
參伍	-11.0698
籟	-11.0698
遭	-11.0699
黄帝命伶倫	-11.07
溷	-11.07
濬	-11.0701
沮	-11.0702
禹貢	-11.0702
移風易俗	-11.0703
穡	-11.0703
濵	-11.0703
剽	-11.0703
宛	-11.0703
汗	-11.0704
羣后	-11.0704
南山有臺	-11.0704
斬	-11.0704
倉	-11.0704
徴生商	-11.0704
陣	-11.0706
文武二舞	-11.0706
儺	-11.0706
俚	-11.0707
㮚氏為量	-11.0707
鍊	-11.0708
益稷	-11.0709
黙	-11.0709
粲	-11.0709
變宮之宮	-11.0709
柳	-11.071
羽葆	-11.071
屠	-11.0711
禮自外作	-11.0711
大戴禮	-11.0712
錘	-11.0712
踵	-11.0712
弛縣	-11.0713
相沿	-11.0714
寘	-11.0714
拔	-11.0715
挑	-11.0716
芟	-11.0716
北狄	-11.0716
居中央	-11.0716
欒	-11.0717
錙	-11.0718
梅花	-11.0719
莭	-11.072
角與變宫	-11.072
荇	-11.0721
宛丘	-11.0722
袍	-11.0723
洲	-11.0749
二釐三毫	-11.075
劉向	-11.0764
四十乗之	-11.0837
左氏傳	-11.1001
姑應㽔大夷夾無仲黄林太南	-11.1118
夾夷大㽔應姑南太林	-11.1143
六尺六寸	-11.1313
芍滄黄正	-11.1338
拊芍纓黄正	-11.1345
五調同用	-11.1371
姑南太林黄仲無夾夷大㽔應	-11.1376
九曲一	-11.1379
𦙍	-11.1381
先聖先師	-11.1393
黄鍾小素	-11.1394
有虞氏	-11.1394
圍徑皆同	-11.1398
妥	-11.1398
播之以八音	-11.1399
弔	-11.1399
丁寧	-11.14
袂	-11.14
鳳凰	-11.14
舞雲門以祀天神	-11.1401
汎	-11.1402
帝嚳	-11.1403
緹	-11.1403
鼗倚于頌磬西紘	-11.1403
九百八十二分	-11.1404
四百八十六	-11.1404
大饗亦如之	-11.1404
二分九釐七毫	-11.1405
銷	-11.1405
鎛鐘太簇特磬	-11.1405
鎛鐘姑洗特磬	-11.1405
萬入去籥	-11.1405
姑太應南	-11.1406
訾	-11.1406
蕤姑大應	-11.1406
姑洗歌磬姑洗編磬	-11.1407
為實九億	-11.1407
旋宫轉調	-11.1407
太簇歌磬太簇編磬	-11.1407
鐘師掌金奏	-11.1407
􁃡	-11.1407
五微二纎	-11.1407
杜氏通典	-11.1408
甄	-11.1408
勲	-11.1408
宋陳𤾉撰樂圖論雅部八音	-11.1408
㨿	-11.1408
黃鐘鎛鐘	-11.1408
衮	-11.1409
伍	-11.1409
溢	-11.1409
按十徽定之實音為	-11.141
諷誦	-11.141
宋陳晹撰樂圖論	-11.1411
妾	-11.1411
廣雅云	-11.1411
悌	-11.1411
閭	-11.1411
蔡氏律吕新書	-11.1412
拙	-11.1412
令奏鐘鼓	-11.1413
别而言之	-11.1413
紊	-11.1413
亨	-11.1413
律吕闡㣲卷	-11.1414
喧	-11.1414
鼓瑟鼓琴	-11.1414
雞婁	-11.1414
絙	-11.1414
半律外周	-11.1415
台	-11.1415
棧	-11.1415
茫	-11.1415
吟猱	-11.1415
絜	-11.1416
博古圖	-11.1416
猴	-11.1417
治亂以相	-11.1417
緣	-11.1418
邇	-11.1418
竟山樂録	-11.1418
一尺六寸	-11.1418
川澤	-11.1418
三笙一和而成聲	-11.1418
失之逺矣	-11.1419
趙彦肅	-11.1419
嗜	-11.1419
掉	-11.142
恍	-11.142
摠	-11.142
服䖍	-11.1421
甌	-11.1421
纒	-11.1421
㮚氏	-11.1421
晝夜	-11.1422
陪	-11.1422
宋陳𤾉撰詩訓義	-11.1423
弛	-11.1423
訟	-11.1423
秦始皇	-11.1423
肄習	-11.1423
表裏	-11.1423
佛	-11.1424
穆叔	-11.1424
讙	-11.1424
蓬	-11.1425
庠	-11.1425
旒	-11.1425
畜	-11.1426
禋	-11.1426
乍	-11.1426
百黍之重為今之	-11.1427
阮逸胡瑗	-11.1427
七寸四分九釐	-11.1427
產	-11.1427
侈弇	-11.1428
孟冬	-11.1428
嗇	-11.1428
抱	-11.1429
大吕生夷則	-11.143
元史樂志	-11.143
之至理	-11.143
鳯翼	-11.1433
籩豆	-11.1433
𤾉	-11.1434
柘枝	-11.1435
琢	-11.1437
夷南無應	-11.144
驅	-11.1441
齶	-11.1442
額	-11.1458
聿	-11.146
考槃	-11.1467
漳	-11.147
姑洗長七寸一分	-11.1479
四三二	-11.1517
戌五萬九千	-11.1527
大㽔應姑南太林黄仲無夾	-11.1596
南風之時兮可以阜吾民之財兮	-11.1663
迎寒	-11.2052
拊芍足黄正	-11.2085
工勾一尺	-11.2127
千金作	-11.214
拊芍可	-11.2146
氷	-11.2147
倍律積算進一位為實以應	-11.2152
穄	-11.2156
太府尺	-11.2158
三分一釐四毫	-11.2159
空積忽微	-11.216
吹尺字按十徽定之實音為林鍾散聲即	-11.2161
禫	-11.2161
騶虞九節	-11.2163
四寸四分三分二	-11.2163
徽定之實音為仲吕散聲即黄鍾	-11.2164
李文利	-11.2166
燭	-11.2166
一應鼓二堂上堂下堂上堂下	-11.2166
吹尺字按十一徽定之實音為林	-11.2166
亭	-11.2167
灸	-11.2167
徽定之實音為姑洗散聲即應鍾	-11.2167
戞	-11.2167
太極元氣函三為一	-11.2168
吹一字按十	-11.2168
罕	-11.2168
一徽定之實音為太蔟散聲即無射	-11.2168
五九四六	-11.2169
衷	-11.2169
十分為寸十寸為尺十尺為丈十丈為引	-11.2169
五分九釐四毫	-11.217
十二詩譜	-11.217
擯	-11.217
七十二以為商	-11.2171
若樂六變則天神皆降可得而禮矣	-11.2171
又次上穴	-11.2172
襟	-11.2172
林鐘琴林鐘篴	-11.2172
冢	-11.2172
陽升之数	-11.2172
林鐘歌磬林鐘編磬	-11.2172
顛倒	-11.2172
嘒嘒管聲	-11.2172
樂者天地之和	-11.2173
宥	-11.2173
粹	-11.2173
自上而下	-11.2173
㢲	-11.2174
姜嫄	-11.2174
境	-11.2174
軋	-11.2174
公庭萬舞	-11.2175
這	-11.2175
其卦則	-11.2175
宋氏尺	-11.2175
南吕歌磬南吕編磬	-11.2176
四千九十六	-11.2176
健	-11.2176
享先妣	-11.2176
下管播樂器	-11.2176
商數七十二	-11.2177
應鐘歌磬應鐘編磬	-11.2177
詘	-11.2177
大周正樂	-11.2177
堂上堂下堂上堂下應鐘鎛鐘	-11.2177
晋	-11.2177
以六律六同五聲八音六舞大合樂	-11.2177
舞者就位	-11.2178
攸	-11.2178
簜	-11.2178
樂行而倫清	-11.2178
堂上堂下堂上堂下南吕鎛鐘	-11.2178
班一人云	-11.2179
折衷	-11.2179
直已而陳	-11.2179
正律外周折半	-11.2179
勗	-11.2179
瓠	-11.2179
南吕生姑洗	-11.2179
八四四五	-11.218
下管鼗鼓	-11.218
新唐書樂志	-11.218
徽古度尺	-11.2181
紘	-11.2181
湥	-11.2181
秪	-11.2182
喜怒哀樂	-11.2182
諒	-11.2182
一徽定之實音為	-11.2182
郷射	-11.2182
鄉飲鄉射	-11.2182
公孫崇	-11.2182
蘇祗婆	-11.2182
騰	-11.2183
鄉黨	-11.2183
諷	-11.2183
以其一為之厚	-11.2183
簨虡	-11.2183
下管新宫	-11.2183
縷	-11.2183
周求徑	-11.2184
駭	-11.2184
手之舞之足之蹈之	-11.2184
夙	-11.2184
拜受爵	-11.2184
朔鼙在其北	-11.2185
歌鐘二肆	-11.2186
㽔賔生大吕	-11.2186
赴	-11.2186
荀子曰	-11.2187
䝉	-11.2187
典庸器	-11.2187
迥	-11.2187
匱	-11.2187
清廟之瑟	-11.2187
汲	-11.2187
盞	-11.2187
賈公彦	-11.2188
窄	-11.2188
㑹守拊鼓	-11.2188
征誅	-11.2188
制禮作樂	-11.2188
賊	-11.2188
訊疾以雅	-11.2189
雀	-11.2189
霍	-11.219
俊	-11.219
狂	-11.219
㮣	-11.219
未之有也	-11.219
貽	-11.219
藁	-11.2191
閱	-11.2191
裼	-11.2191
十合為升	-11.2192
燒	-11.2192
萊	-11.2192
兔	-11.2194
贅	-11.2194
分四釐三毫	-11.2194
霄	-11.2195
峻	-11.2195
蛇	-11.2195
誘	-11.2195
貿	-11.2195
侏	-11.2196
腥	-11.2196
七徽實音同	-11.2196
蕢桴	-11.2196
閔	-11.2197
核	-11.2198
囊	-11.2198
牆	-11.2198
淆入宫音	-11.2198
周徑羃積	-11.2199
肝	-11.2199
羙	-11.2199
驕	-11.22
挈	-11.2202
武宿夜	-11.2204
冰	-11.2204
篥	-11.2206
杜撰	-11.2207
鸞刀	-11.2208
鄭氏註曰	-11.2211
二百一十六	-11.2212
又從而	-11.2213
税	-11.2221
郷飲	-11.2232
雕	-11.2233
苞	-11.2233
夷則為宫始羽終	-11.2234
紵	-11.2234
九微九纎	-11.2365
林太南姑應㽔大	-11.2468
五萬九千	-11.2596
南姑應㽔大夷	-11.2813
生南呂上	-11.2913
可黄正芍	-11.2955
逥	-11.2961
月日纒	-11.2971
丌	-11.2977
夹	-11.2979
已上五調皆用	-11.2983
為實以林鍾乗之得	-11.2983
鍾倍律積算為法除之得	-11.2986
通長者置	-11.2991
􁄈	-11.2991
以騶虞為節	-11.2991
在卦則乾之	-11.2994
一而十一三之	-11.2995
遺制歟	-11.2996
本之情性	-11.2996
迷	-11.2997
為實以南吕乗之得	-11.2997
二九七三	-11.2997
為實以應鍾乗之得	-11.2997
一四九八	-11.2997
别法置	-11.2998
九微五十	-11.2998
稃	-11.2998
個	-11.2999
閡	-11.2999
在治忽	-11.3
妣	-11.3
進一位命作	-11.3001
龠也積	-11.3001
音而樂之及干戚羽旄謂之樂	-11.3001
十五萬七千四百六十四	-11.3001
快	-11.3001
樂由天作	-11.3001
蹵	-11.3002
誨	-11.3002
應南太黄	-11.3002
嬪	-11.3002
内外周徑者置	-11.3002
肥	-11.3003
為實以姑洗乗之得	-11.3003
梧	-11.3003
貍歩	-11.3003
謚	-11.3003
以新書本原第	-11.3003
蔟為商姑洗為角林鍾為	-11.3003
稽之度數	-11.3003
也仰則兼	-11.3004
五調南風之薰兮可以解吾民之愠兮	-11.3004
面羃者置	-11.3004
樂由陽來	-11.3005
鑑	-11.3005
透	-11.3005
與之合吹	-11.3005
一萬六千三百八十四	-11.3005
縫	-11.3005
參天兩地	-11.3005
衿	-11.3005
彦昇	-11.3006
佞	-11.3006
半律内徑置前所得	-11.3006
絲又九因至忽位住得	-11.3006
若樂九變則人鬼可得而禮	-11.3006
毫又九因至絲位住得	-11.3006
周南闗雎葛覃卷耳召南鵲巢采蘩采蘋	-11.3006
工南角	-11.3007
擽	-11.3007
為實初九因至寸位住得	-11.3007
彷	-11.3007
四寸八分八釐	-11.3007
瑣	-11.3007
凡音之起由人心生	-11.3007
為實以太蔟乗之得	-11.3007
盪	-11.3007
掌六律六同以合隂陽之聲	-11.3007
四太羽	-11.3008
食老更	-11.3008
竒齡	-11.3008
猱	-11.3008
紛紛	-11.3008
十二萬四千四百一十六	-11.3008
娥	-11.3008
叔之離磬	-11.3008
四十九分寸之五萬一千八百	-11.3009
寔	-11.3009
五音琴第	-11.301
賴	-11.301
大琴謂之離	-11.301
豎	-11.301
一尺一寸八分九釐二毫	-11.301
樂律表㣲卷	-11.301
一十九分六十四釐一十八毫五十五絲	-11.301
天子視學	-11.301
五寸五分五釐	-11.301
捨	-11.301
以六樂之㑹正舞位	-11.301
為分十分為寸十寸為	-11.3011
聨	-11.3011
姑洗歌鐘姑洗編鐘	-11.3011
九成之奏	-11.3011
鏘	-11.3011
周景王	-11.3011
䃂	-11.3011
旱暵	-11.3011
蟠	-11.3012
以和邦國	-11.3012
尸出入奏肆夏	-11.3012
科	-11.3012
加一倍	-11.3012
奏王夏	-11.3012
楷	-11.3012
王出入奏王夏	-11.3013
皮弁素積	-11.3013
㳂	-11.3013
媧	-11.3013
以十有二聲為之齊量	-11.3013
羽又三分益一得	-11.3013
則不成聲而氣不應	-11.3013
斵	-11.3014
軟	-11.3014
恃	-11.3014
什	-11.3014
咢	-11.3014
次上一穴為	-11.3014
軒轅	-11.3015
旣	-11.3015
陳仲孺	-11.3015
楬	-11.3015
匀	-11.3015
太簇姑洗㽔賔夷則無射	-11.3015
哇	-11.3016
百獸率舞	-11.3016
應四絃散聲	-11.3016
迺	-11.3016
愁	-11.3016
祖沖之	-11.3018
輯	-11.3018
恰	-11.3018
自下而上	-11.3018
鄒	-11.3018
湮	-11.3018
已上則摩其旁	-11.3019
付	-11.3019
有以召之	-11.3019
祐	-11.3019
脗	-11.3019
正律之幂折半為	-11.3019
裔	-11.302
矇	-11.302
姑洗生應鍾	-11.302
方圓相函	-11.3021
斂	-11.3021
挎	-11.3021
翣	-11.3021
皂	-11.3022
授舞者兵	-11.3022
八尺為歩	-11.3022
寥	-11.3022
宋陳暘撰樂圖論	-11.3022
滔	-11.3022
無射生仲吕	-11.3022
敦	-11.3023
璆	-11.3023
惻	-11.3023
阼	-11.3023
鑼	-11.3023
耀	-11.3023
閣	-11.3023
庛	-11.3024
林鐘為宫始羽終	-11.3024
訪	-11.3024
組	-11.3024
吿	-11.3024
冀	-11.3025
兎	-11.3027
輸	-11.3027
陁	-11.3027
廻	-11.3027
四上尺工六	-11.3027
瑩	-11.3027
晟	-11.3028
去古未逺	-11.3028
互相合也	-11.3028
鼉	-11.3028
曰證之以	-11.3028
廣雅曰	-11.3028
勻	-11.3028
宫七聲六濁之首	-11.3028
恨	-11.3029
樂律表微	-11.3029
簨簴	-11.303
涖	-11.303
鞭	-11.303
虐	-11.3031
遥	-11.3032
掃	-11.3032
脾	-11.3032
㺯	-11.3032
濶	-11.3032
夾鐘為宫始羽終	-11.3034
二工執	-11.3034
鼓吹振作	-11.3034
頃	-11.3035
拾	-11.3035
粢	-11.3035
犬	-11.3036
袁	-11.3036
相續為用	-11.3037
穫	-11.3037
奔	-11.3039
教六詩	-11.3039
𦵏	-11.3039
無射為宫始羽終	-11.304
成於前後之	-11.3042
黄鐘為宫始羽終	-11.3042
樽	-11.3044
疋	-11.3044
横括	-11.3047
鐘仲吕歌鐘	-11.3048
騫	-11.3049
奠幣	-11.305
□􁕡□	-11.3052
劍	-11.3053
陟	-11.3057
正律為和	-11.3059
緇衣	-11.3067
涕	-11.3069
弦之瑟	-11.307
沿襲	-11.3078
音得焉	-11.3079
㽔賔為宫始羽終	-11.3092
皎	-11.3093
應鐘為宫始羽終	-11.3096
黍累尺	-11.3106
宮之變宮	-11.3161
四千三百一十二	-11.3179
千五百六十一分寸之六千五百二十四	-11.321
九千六百	-11.3449
寸二分九釐	-11.3479
太簇下生南	-11.365
夷夾無仲黄林太南姑應㽔大	-11.37
㽔大夷夾無仲黄林太南姑應	-11.3755
匕	-11.3846
按十徽定之實音為應鍾散聲即蕤賔	-11.3876
腸胃	-11.3876
蹙	-11.3885
杪	-11.3888
一位為實以應鍾倍律積筭為法除之得	-11.3892
徽定之實音為太蔟散聲即南吕	-11.3895
此二律相恊	-11.39
酺	-11.3901
杯	-11.3902
疇	-11.3902
夏籥序興	-11.3902
子初四刻	-11.3903
冕而揔干	-11.3903
九寸四分三釐八毫	-11.3904
萬分忽之六千三百一十二	-11.3904
鍾之數立焉	-11.3905
勤而不怨	-11.3907
覧	-11.3907
析黄鍾之實為	-11.3907
喈	-11.3907
有奇億約為寸得	-11.3907
半律面羃求	-11.3908
禮以地制	-11.3908
明韓邦奇撰	-11.3908
跬	-11.3908
十三萬九千	-11.3909
又九因一遍至	-11.3909
置一而九三之以為法	-11.3909
三分九釐六毫	-11.391
日至於地上之圜丘奏之	-11.391
分子也舊法置一尺以	-11.391
分字已上	-11.391
為應鍾置應鍾	-11.3911
依我磬聲	-11.3911
四寸三分八釐五毫三絲一忽	-11.3911
無射之率五億六千一百二十三萬	-11.3911
正律内周即半律外周求	-11.3911
笛五指聲應	-11.3912
八億九千	-11.3912
禮由隂作	-11.3913
五寸七百二十九分寸之四百五十一	-11.3913
右附論	-11.3913
比後月	-11.3914
㫁兩節間	-11.3914
訥	-11.3914
分乎子也	-11.3914
始平掘地得古銅尺	-11.3914
之率五億九千四百六十	-11.3914
屈伸	-11.3914
夷則之率六億二千九百九十六萬	-11.3915
灌	-11.3915
大鐘謂之鏞	-11.3915
忽又九因至微位住得	-11.3915
揭	-11.3915
黄南林仲太黄南林仲	-11.3915
舞畢復位舞者就位播鞉三通	-11.3915
恤	-11.3916
簫管備舉	-11.3916
樂則韶舞	-11.3916
𦂳	-11.3916
鄼	-11.3917
嬴	-11.3918
宋陳𤾉撰周禮訓義春官	-11.3919
音出焉今謂之	-11.3919
詔諸侯以弓矢舞	-11.3919
而三加為	-11.3919
懽	-11.3919
泪	-11.392
飲卒觶	-11.392
以三因之得	-11.392
南吕無射應鐘	-11.392
倍律面羃一十	-11.392
捷	-11.392
靁鼓靁鼗	-11.392
以八十一億乗之	-11.392
工四人二瑟瑟	-11.392
掖	-11.3921
置我鞉鼓	-11.3921
舞應鐘歌鐘應鐘編鐘	-11.3921
肘	-11.3921
栁	-11.3921
應鐘琴應鐘篴姑洗	-11.3921
太府寺	-11.3922
爛	-11.3922
駒	-11.3922
商又三分損一得	-11.3922
通卦驗	-11.3922
張指法從	-11.3922
正律為中七音琴第	-11.3922
姑洗起調姑洗畢曲	-11.3923
紗	-11.3923
為法除之所得億約為寸得	-11.3923
株	-11.3923
循環無端	-11.3923
建武銅尺	-11.3924
祉	-11.3924
愆	-11.3924
衎	-11.3924
毅	-11.3924
餙	-11.3924
霓裳	-11.3925
椌	-11.3925
話	-11.3925
隰	-11.3925
憤	-11.3926
簨	-11.3926
以管數起絲	-11.3926
屑	-11.3926
軍大獻	-11.3926
於四隅	-11.3926
墳	-11.3926
吹笙鼓簧	-11.3926
絡	-11.3926
劭	-11.3927
倍律之幂折半為	-11.3928
肯	-11.3928
聲淫及商	-11.3928
譽	-11.3929
暨	-11.3929
霓裳羽衣	-11.3929
巴渝舞	-11.3929
恥	-11.3929
以絲數起	-11.393
還相為宮	-11.393
奏夷則歌小吕	-11.393
械	-11.3931
詭	-11.3931
圍三徑一	-11.3931
倘	-11.3931
北鄙之音	-11.3932
鋪	-11.3932
鋭	-11.3932
逈	-11.3932
半周半徑相乗	-11.3932
慿	-11.3932
司馬相如	-11.3932
樂人宿縣于阼階東笙磬西面其南笙	-11.3932
于西階上	-11.3932
羮	-11.3933
移宫換羽	-11.3933
約十為九	-11.3933
碧	-11.3933
焚	-11.3933
司戈盾	-11.3934
綬	-11.3934
播鞉三通	-11.3934
纔	-11.3934
燥	-11.3934
漁	-11.3935
六尺有六寸	-11.3935
先臣曰	-11.3935
糾	-11.3935
輙	-11.3935
李延年	-11.3935
觚	-11.3935
荆軻	-11.3936
妖	-11.3936
琶	-11.3936
奏姑洗歌南吕	-11.3936
梨園	-11.3936
朱文公	-11.3936
狼	-11.3937
徵招角招	-11.3937
柴	-11.3938
韜	-11.3938
握	-11.3938
敕	-11.3939
筊	-11.3939
纛	-11.3942
銜	-11.3942
侵	-11.3943
帙	-11.3943
聲中黄鍾之宫	-11.3944
之所由生也	-11.3944
孔安國	-11.3944
羔羊	-11.3945
逾	-11.3946
軰	-11.3948
無當於五	-11.3949
歌大㽔應姑南太林	-11.3949
弦匏笙簧	-11.3949
薺	-11.3951
鏤	-11.3952
隷	-11.3955
突厥	-11.3956
南姑應㽔大夷夾無仲黄林太	-11.3956
開元通寳	-11.3958
有司攝事	-11.3959
祖室奏	-11.3959
皇祐新樂圖記	-11.3962
遁	-11.3966
太簇為宫始羽終	-11.3981
夷則下生夾	-11.3992
遑	-11.401
十四微七十	-11.4029
之率九億四千三百八十七萬	-11.4104
黄姑蕤姑	-11.412
庣旁九釐五毫	-11.4278
七百一十萬	-11.4501
風之時兮可以阜吾民之財兮起調畢曲	-11.4556
黄鍾搏牘鍾芍滄黄正	-11.4841
故其宫音在第	-11.4888
頼	-11.4895
吹上字按十一徽定	-11.4898
萬事根本	-11.4901
舞大夏以祭山川	-11.4903
幾百幾十幾	-11.4903
明韓邦竒撰	-11.4904
針	-11.4904
九絲八忽	-11.4905
長九寸空圍九分容秬黍	-11.4906
百官軌儀	-11.4906
九寸四分三釐八毫七絲四忽	-11.4906
春官大司樂	-11.4907
十四萬七千四百五十六	-11.4907
一絲八忽	-11.4907
閨	-11.4908
分母為法除之得	-11.4908
大予樂官	-11.4908
古之神瞽考中聲而量之以制度律均鍾	-11.4908
顓頊	-11.4908
特磬夾鐘歌舞	-11.4908
分子乘之為實以	-11.4909
扁	-11.491
沈存中	-11.491
變律變半律	-11.491
禡	-11.491
當位自得	-11.491
分母也分字已下	-11.491
林鐘簫林鐘簫	-11.4911
依新法算	-11.4911
林鐘笙林鐘笙	-11.4911
懲	-11.4911
帽	-11.4912
量侯道	-11.4912
無所經見	-11.4912
以九萬三千三百一十二約之得	-11.4912
八十九萬八千七百一十八	-11.4912
上生者四其實三其法	-11.4913
古樂之𤼵	-11.4913
脊	-11.4914
宫生徴徴生商商生羽羽生角	-11.4914
三千五百五十七	-11.4914
鎛鐘夷則特磬	-11.4914
押	-11.4914
撼	-11.4914
六千七百八十一	-11.4915
衫	-11.4915
歌磬仲吕編磬	-11.4915
窌	-11.4916
孤竹之管	-11.4916
三十斤為鈞	-11.4916
仲吕之實十三萬一千	-11.4916
六六七一七五	-11.4916
次求三十六律	-11.4916
為三分每分	-11.4916
不比於正音	-11.4916
坐取爵	-11.4916
五降之後不容彈	-11.4917
孤竹之管雲和之琴瑟雲門之舞冬	-11.4917
糓	-11.4917
吁	-11.4917
煙	-11.4917
夷則歌舞夾鐘歌	-11.4917
鐘林鐘太簇南吕姑洗應鐘	-11.4917
平上去入	-11.4918
村	-11.4918
州刺史	-11.4918
其寸而為	-11.4918
欣	-11.4918
明朱載堉撰律吕精義内篇	-11.4918
為一連事由	-11.4918
苗	-11.4918
干戚羽旄	-11.4919
當期之日	-11.4919
益一分上生	-11.4919
弦為㽔賔與第七弦散聲應按第	-11.4919
緫	-11.4919
緝	-11.4919
三寸六分六釐三毫六絲	-11.4919
曲南風之薰兮可以解吾民之愠兮皆以	-11.4919
乗之滿千	-11.492
裹	-11.492
合龠為合	-11.492
予欲聞六律五聲八音	-11.492
鹿鳴四牡皇皇者華	-11.492
中和祗庸孝友	-11.492
析為八十一分計八十一	-11.492
何邪曰	-11.492
繋	-11.492
懌	-11.4921
偹	-11.4921
園	-11.4921
也有以黄鍾之長均作	-11.4922
宫又三分損一得	-11.4922
角又九分角之一而餘八	-11.4922
譲	-11.4922
先鼓以警戒	-11.4922
徴又三分益一得	-11.4922
喬	-11.4922
立均出度	-11.4922
子與丑合	-11.4923
碎	-11.4923
舞干羽于兩階	-11.4924
婺源江永撰	-11.4924
掌六樂聲音之節與其和	-11.4925
棗	-11.4925
下管擊應鼓	-11.4925
桴	-11.4926
刋	-11.4926
巷	-11.4926
欽定四庫全書樂書卷一百十	-11.4926
三一四一五九二	-11.4926
陛	-11.4927
隴	-11.4927
无	-11.4927
俞	-11.4928
飽	-11.4928
旬	-11.4928
文宣王	-11.4928
嬖	-11.4928
工歌鹿鳴四牡皇皇者華	-11.4929
徑求周	-11.4929
勘	-11.4929
戞擊鳴球搏拊琴瑟	-11.4929
貍	-11.4929
荘	-11.4929
扺	-11.493
尚書大傳	-11.493
諌	-11.493
麋	-11.4931
十升為斗	-11.4931
終而復始	-11.4931
饒	-11.4931
聊	-11.4931
馘	-11.4931
筌蹄	-11.4931
樅	-11.4931
南陔白華華黍	-11.4932
簜在建鼓之間	-11.4932
龢	-11.4932
大樂與天地同和	-11.4933
小石調	-11.4933
􁐠	-11.4933
勾股求弦	-11.4934
煞	-11.4934
聲中無字	-11.4934
甕	-11.4934
九㲈之舞	-11.4934
賾	-11.4934
槃	-11.4934
晉平公	-11.4934
阻	-11.4934
邈	-11.4935
㳺	-11.4935
律管無孔	-11.4935
匡	-11.4936
槌	-11.4936
煖	-11.4936
翿	-11.4936
畯	-11.4936
臻	-11.4937
樂府雜録	-11.4937
邁	-11.4937
洩	-11.4937
樵	-11.4938
渭	-11.4938
浩	-11.4938
場	-11.4938
晰	-11.4938
朱子語類	-11.4938
璅	-11.4939
霞	-11.4939
勁	-11.4939
湖	-11.4939
法置夾鍾之率	-11.4939
與本弦散聲應按第	-11.4939
覲	-11.4941
揺	-11.4941
翰林院檢討毛竒齡撰	-11.4945
澗	-11.4945
韗	-11.4946
渝	-11.4946
困	-11.4947
萬寶常	-11.4947
賓牟賈	-11.4947
織	-11.4947
汾	-11.4948
侃	-11.4948
腎	-11.4949
耒	-11.4949
恬	-11.4951
黼	-11.4955
剥	-11.4955
南林姑太	-11.4955
瑕	-11.4957
峯	-11.4958
杞	-11.4961
筐	-11.4962
燧	-11.4962
黄大太夾	-11.4974
魄	-11.5002
林變南變	-11.501
姑洗為宫始羽終	-11.5015
翩	-11.5072
南蕤姑林	-11.5197
八千一百九十二	-11.5429
一萬九千六百八十三分八千一百九十	-11.5477
一寸五分七釐一毫三絲四忽八微四纎	-11.5922
億四千三百八十七萬四千三百一十二	-11.5941
黄仲無夾夷大㽔應姑南	-11.5969
晷	-11.5987
調属木南	-11.6001
為合十合為升十升為斗十斗為	-11.6003
革帶烏皮履	-11.601
無仲黄林太南姑應㽔大夷	-11.601
古人遺法	-11.601
□􁕛□	-11.601
舞咸池以祭地示	-11.6011
夘二十七分十六	-11.6014
鯨	-11.6015
比漢前尺一尺	-11.6016
鎗	-11.6017
潜	-11.6017
六寸八分一釐七毫九絲二忽	-11.6018
六寸一分三分一	-11.6018
為實以分法二千一百八十七除之得	-11.6018
雒	-11.6018
滿千毫為釐	-11.6018
其長三寸九分而吹之以為黄鍾之宫	-11.6019
為實九因一遍至寸位住得	-11.6019
大衍之數	-11.6019
畜聚之臣	-11.602
液	-11.6021
量者龠合升斗斛	-11.6021
而宫音調因而九之九九八十一故黄	-11.6021
歸之正度	-11.6021
邕	-11.6021
寸為實三因分母	-11.6021
􁅁	-11.6021
容十斗	-11.6021
籥舞笙鼓	-11.6021
醴	-11.6021
九八七六	-11.6021
宅	-11.6021
踐	-11.6021
瓶	-11.6022
徇	-11.6023
儀禮經傳通解	-11.6023
禮者天地之序	-11.6023
凄	-11.6023
生聲取分	-11.6023
八十九萬六千四百一十五	-11.6024
此以所約黄鍾之法而約	-11.6024
而五度審矣	-11.6024
啼	-11.6024
娛	-11.6024
矜	-11.6025
度律均鐘	-11.6025
貶	-11.6025
以諧萬民	-11.6025
牖	-11.6026
清濁之衷	-11.6026
弦為夷則與第九弦散聲應按第	-11.6027
長尺圍寸	-11.6027
霆	-11.6027
纎凡九因八遍共得	-11.6027
隂竹之管	-11.6027
引商刻羽	-11.6027
中士二人下士四人	-11.6027
分又九因	-11.6028
又九因至分位住	-11.6028
入門而金作	-11.6028
釐二十四毫	-11.6028
礿	-11.6028
弦為林鍾與第八弦散聲應按第	-11.6028
子寅辰午申戌	-11.6028
五寸六分一釐二毫三絲一忽	-11.6028
芑	-11.6029
叔孫通	-11.6029
樂其所自生	-11.6029
豁	-11.6029
詹	-11.6029
裝	-11.603
弦為夾鍾與第四弦散聲應按第	-11.603
朱襄氏	-11.603
賔出奏陔	-11.603
飫	-11.603
弦為無射與十一弦散聲應按第	-11.603
先主一而三之四開以合九九	-11.6031
逺取諸物	-11.6031
弦為姑洗與第五弦散聲應按第	-11.6031
遂使十二律	-11.6031
奏騶虞間若一	-11.6031
殷薦之上帝以配祖考	-11.6031
以進為文	-11.6031
依法乘除得	-11.6031
臣逸臣瑗謹詳周禮	-11.6031
景表尺	-11.6031
倡和清濁迭相為經	-11.6031
弦為太蔟與第三弦散聲應按第	-11.6032
變宫而一均七聲偹矣此	-11.6032
訊	-11.6032
剋	-11.6032
容貌得莊焉行其綴兆要其節奏	-11.6032
章則以千二百黍	-11.6032
九商八羽七角六宫五	-11.6032
剰	-11.6032
普	-11.6033
揉	-11.6033
沐	-11.6033
亦此意也	-11.6033
九寸四分三釐八毫七絲四忽三微一纎	-11.6033
升歌清廟下而管象	-11.6033
應夷蕤夾大應夷蕤夾	-11.6033
十斗為斛	-11.6033
盗	-11.6034
帥國子而舞	-11.6034
圈	-11.6034
不亦逺乎	-11.6034
曜	-11.6034
堂上堂下堂上堂下夾鐘鎛鐘	-11.6034
燕射帥射夫以弓矢舞	-11.6034
㢘	-11.6035
十分其鉦間以其一為之厚	-11.6035
顓	-11.6035
行列得正焉進退得齊焉	-11.6035
學記曰不學操縵不能安	-11.6035
應鐘歌舞姑洗歌	-11.6036
以致鬼神示	-11.6036
弦為應鍾與十二弦散聲應按第	-11.6036
右五鐘皆應	-11.6036
窺	-11.6036
郢	-11.6036
鑠	-11.6036
笙應鐘笙姑洗笙姑洗笙應鐘瑟應鐘	-11.6036
署	-11.6036
揀	-11.6036
琴姑洗篴應鐘簫應鐘簫姑洗簫姑洗簫	-11.6036
樂勝則流	-11.6037
矧	-11.6037
一建鼓在西階之東南面	-11.6037
俘	-11.6037
麤	-11.6038
宋書律志	-11.6038
鞻	-11.6038
登歌令奏擊拊	-11.6038
棣	-11.6038
趾	-11.6038
踊	-11.6038
乂	-11.6039
遞上遞下	-11.6039
韽	-11.6039
鉅	-11.6039
已下則摩其耑	-11.6039
翬	-11.6039
韓邦竒	-11.604
振之李氏	-11.604
菁菁者莪	-11.604
嬰	-11.604
直而温寛而栗	-11.604
剏	-11.6041
主以樂教	-11.6041
一尺四寸一分四釐二毫	-11.6042
誥	-11.6042
濱	-11.6042
徃而不返	-11.6042
牀	-11.6042
紆	-11.6042
觝	-11.6042
熹	-11.6043
禮失求諸野	-11.6043
皦	-11.6043
廩	-11.6044
桀	-11.6044
貪	-11.6044
迫	-11.6044
娶	-11.6044
小分四十	-11.6044
槐	-11.6044
冕而總干	-11.6044
賂	-11.6045
街	-11.6045
泯	-11.6045
斑	-11.6046
没	-11.6046
誇	-11.6046
司干掌舞器	-11.6046
不亦失乎	-11.6046
小而長則其聲舒而逺聞	-11.6046
披	-11.6046
凾	-11.6046
四章章四句	-11.6046
盃	-11.6047
鼖鼓維鏞	-11.6047
䖍	-11.6048
亞獻終獻	-11.6048
經世大訓	-11.6048
楸	-11.6048
鐶	-11.6048
飭	-11.6048
金聲而玉振之	-11.6048
誡	-11.6049
僞	-11.6049
每律減一寸	-11.6049
溝	-11.6049
稻	-11.6049
貝	-11.6049
陜	-11.6049
獄	-11.605
耗	-11.605
太簇起宫大	-11.605
屯	-11.605
法置太蔟之率	-11.6051
騷	-11.6051
銳	-11.6051
蘓	-11.6052
冡	-11.6052
𫝑	-11.6052
不預焉	-11.6053
無按聲之位	-11.6053
桶	-11.6053
褾	-11.6053
刄	-11.6054
晉鼓鼓金奏	-11.6054
吞	-11.6055
糊	-11.6056
揩	-11.6056
捉	-11.6056
窒	-11.6057
犍	-11.6057
七尺曰仞	-11.6057
煎	-11.606
宋陳𤾉撰樂圖論俗部舞	-11.606
長七尺二寸	-11.6062
徴招角招	-11.6062
樊	-11.6062
愽	-11.6062
績	-11.6062
貉	-11.6062
櫝	-11.6062
儕	-11.6064
鏂	-11.6064
螺	-11.6065
詆	-11.6068
澹	-11.607
濮	-11.6071
轡	-11.6072
禖	-11.6072
夷則起宫林變徴	-11.6074
變徴夷變宫	-11.6076
淇	-11.6077
幡	-11.6078
倭	-11.6083
起宫太變徴太變宫	-11.6084
起宫南變徴南變宫南角南羽南商	-11.6091
裁衣尺	-11.6095
駿	-11.6099
雎	-11.6104
駱	-11.6125
百已上開	-11.616
盬	-11.6181
六凡工尺凡	-11.6184
千已上開	-11.6289
法置林鍾之率六億六千七百四十一萬	-11.6479
寸三分七釐	-11.6853
毫奇舊在	-11.7211
次制十二筒	-11.7222
乃命上商除實數	-11.7246
千一百八十七	-11.7249
掦	-11.7252
上仲宫中聲之宫聲髙於羽	-11.7254
律學新説	-11.7257
大祭祀宿縣	-11.7259
􁄊	-11.7261
荀朂笛譜	-11.7262
鐘歌林鐘歌太簇歌南吕歌	-11.7262
鐘歌鐘林鐘歌鐘太簇歌鐘南吕歌鐘	-11.7262
瑟林鐘瑟太簇瑟南吕瑟	-11.7262
鐘歌磬林鐘歌磬太簇歌磬南吕歌磬	-11.7262
鐘琴林鐘琴太簇琴南吕琴	-11.7263
黃鐘簫林鐘簫	-11.7263
卯二十七分十六	-11.7263
黃鐘笙林鐘笙太簇笙南吕笙黃鐘	-11.7263
屏	-11.7264
食嘗無樂	-11.7264
三分所生益之一分以上生	-11.7265
諾	-11.7266
午得七百二十九又參之	-11.7267
已得二百四十三又參之	-11.7267
擲	-11.7267
一生二二生三三生萬物	-11.7267
埒	-11.7267
未得二千一百八十七又參之	-11.7267
虗	-11.7267
調按十一徽彈第	-11.7267
餘數以分法二千一百八十七除之得	-11.7267
億六千七百四十一萬九千九百二十七	-11.7267
憚	-11.7268
三分所生去其一分以下生	-11.7268
黄鐘笙林鐘笙太簇笙南吕笙黄鐘	-11.7268
磬無射歌磬	-11.7268
鐘編鐘林鐘編鐘太簇編鐘南吕編鐘	-11.7269
酸	-11.7269
鐘編磬林鐘編磬太簇編磬南吕編磬	-11.7269
上而以土埋之上平	-11.727
寸納分子之	-11.727
篴林鐘篴太簇篴南吕篴	-11.727
四寸二十七分寸之二	-11.727
黃鐘歌磬黃鐘編磬	-11.727
黃鐘笙黃鐘笙	-11.727
軹	-11.727
黃鐘歌鐘黃鐘編鐘	-11.7271
黃鐘簫黃鐘簫	-11.7271
宋陳暘撰周禮訓義	-11.7271
十一萬八千九十八	-11.7271
以副十二月十二各以三成故置	-11.7271
跳	-11.7271
共為九寸約以	-11.7271
商之次故還用正聲為角	-11.7271
亦皆黄鍾本數也	-11.7271
楯	-11.7272
虵	-11.7272
籥師掌教國子舞羽龡籥	-11.7272
滿千釐為分	-11.7272
匶	-11.7272
既不可行當有以通之	-11.7273
俄	-11.7273
妓	-11.7273
改煎金錫則不耗不耗然後權之權之	-11.7273
頤	-11.7273
二分二釐四毫	-11.7273
舜彈五絃之琴	-11.7273
策	-11.7274
之數五十四主六月上生太	-11.7274
數内約以	-11.7274
古之神瞽考中聲而量之以制	-11.7275
穗	-11.7275
與商商與角	-11.7275
吹之以為黄鐘之宫	-11.7275
帷	-11.7275
天尊地卑	-11.7275
獶雜子女不知父子	-11.7275
羽徴角商	-11.7275
滴	-11.7275
突	-11.7275
姑洗之數六十四主三月下生應	-11.7275
之數七十六主十二月下生夷則	-11.7275
渺	-11.7276
陽六為律	-11.7276
儆	-11.7276
術曰以下生者倍其實三其法	-11.7276
嫁	-11.7276
空積忽㣲	-11.7276
微又九因至纎位住得	-11.7276
路鼔路鼗	-11.7277
三分五釐三毫五絲五忽三微三纎九塵	-11.7277
擊頌磬笙磬	-11.7277
查	-11.7277
十三黍又三分黍之一	-11.7277
一曰姑洗玉律二曰小吕玉律三	-11.7278
夫律以空圍之同故	-11.7278
朱干玉戚以舞大武	-11.7278
叟	-11.7278
教皇舞帥而舞旱暵之事	-11.7278
斟	-11.7278
二音之間比	-11.7278
以開元錢之徑為	-11.7278
後周玉尺	-11.7278
設業設虡崇牙樹羽	-11.7279
凰	-11.7279
馴	-11.7279
樂者音之所由生	-11.7279
着	-11.7279
仲吕琴仲吕篴無射	-11.7279
弦歌干揚	-11.7279
無射歌磬無射編磬仲吕	-11.7279
長六寸一萬九千六百八十三分寸之	-11.7279
入門而縣興	-11.7279
綿	-11.7279
屨	-11.7279
金石以動之絲竹以行之	-11.7279
不以律和之則其聲	-11.7279
呂氏春秋	-11.7279
三忽五微五纎	-11.7279
舉而措之	-11.728
八萬七千三百八十一小分二百	-11.728
文始五行之舞	-11.728
之為釐法三三之為毫法一三之為絲法	-11.728
律以之生五聲二變上下	-11.728
為實實如法而一得	-11.7281
解秬黍體大本異	-11.7281
路鼓路鼗	-11.7281
一分九釐一釐九毫一毫九絲以之生十	-11.7281
瘠	-11.7281
恪	-11.7281
孝子相戒以養	-11.7281
和順積中	-11.7282
瑶	-11.7282
大吕為角則南吕為宫太	-11.7282
六變而致象物及天神	-11.7282
七萬八千五百六十七分	-11.7282
十二銖則是累九十黍以	-11.7282
夷則歌鐘夷則編鐘	-11.7282
籌	-11.7282
蔈	-11.7282
為商之次故用子聲為角	-11.7282
摭	-11.7283
橫	-11.7283
髙漸離	-11.7283
惰	-11.7283
悔	-11.7283
六寸二分九釐九毫六絲	-11.7284
舞林鐘歌鐘林鐘編鐘	-11.7284
硬	-11.7284
縣一鍾而尚拊大戴禮曰縣一磬而尚拊	-11.7284
貼	-11.7284
一一八六五四七五	-11.7284
蹻	-11.7284
裕	-11.7284
寅與亥合	-11.7284
一釐四毫一絲六忽	-11.7284
爪	-11.7285
堂上堂下堂上堂下林鐘鎛鐘林鐘鎛鐘	-11.7285
婚	-11.7285
闇	-11.7285
聆	-11.7285
羗	-11.7285
摝	-11.7285
筰	-11.7285
寋	-11.7286
倕	-11.7286
十六兩為斤	-11.7286
大夫判縣士特縣	-11.7286
南吕歌舞太簇歌	-11.7286
笙南吕笙太簇笙太簇笙南吕瑟南吕	-11.7286
隐	-11.7286
一建鼓在其南東鼓	-11.7287
南吕歌鐘南吕編鐘太簇歌鐘太簇編鐘	-11.7287
南吕琴南吕篴太簇	-11.7287
寵	-11.7287
瑾	-11.7287
由低而髙	-11.7287
凡小祭祀小樂事鼓	-11.7287
其所異者特	-11.7287
鋒	-11.7287
擁	-11.7287
以金錞和鼓	-11.7288
百度得數而有常	-11.7288
論倫無患	-11.7288
興道諷誦言語	-11.7288
苻	-11.7289
蝕	-11.7289
四寸三分八釐五毫	-11.7289
箴	-11.7289
非宫則失其所	-11.7289
帥瞽登歌令奏擊拊	-11.729
鉛	-11.729
鬭	-11.729
黍之重為今之二錢	-11.729
千一百八十七得一萬九千六百八十三	-11.7291
絲竹匏土	-11.7291
剛而無虐簡而無傲	-11.7291
水火金木土穀	-11.7291
蹋	-11.7291
桑間濮上	-11.7291
塲	-11.7291
觴	-11.7291
去二分以為舞廣	-11.7292
攢	-11.7292
肖	-11.7292
貎	-11.7292
髀	-11.7293
偉	-11.7293
正應正和正應	-11.7293
十分其銑去二以為鉦	-11.7293
武亂皆坐	-11.7294
奏無射歌夾鐘舞大武以享先祖	-11.7294
愧	-11.7294
共得二十八寸	-11.7294
瞋	-11.7294
雷出地奮	-11.7294
朱子琴律説	-11.7295
芝	-11.7295
鄧	-11.7296
嶰谷之竹	-11.7297
八尺一寸廣一尺八寸	-11.7297
升歌清廟下管象	-11.7297
司中司命	-11.7298
濓	-11.7298
飄	-11.7298
左延年	-11.7299
惚	-11.7299
鞚	-11.7299
姥	-11.73
唐開元禮	-11.73
膺	-11.7301
誓	-11.7301
鐘律通考	-11.7301
歇指調	-11.7301
食三老五更於	-11.7302
山海經	-11.7302
春秋教以禮樂冬夏教以詩書	-11.7302
咨	-11.7303
狐	-11.7303
娑	-11.7303
柈	-11.7303
對用童男二人象教	-11.7304
左丘明	-11.7305
臂	-11.7305
嵩	-11.7305
緦	-11.7305
箹	-11.7306
劉歆銅斛尺	-11.7306
邱	-11.7306
閼	-11.7306
蘩	-11.7307
所以教諸侯之	-11.7308
鄴	-11.7308
錢徑八分	-11.7309
大胥掌學士之版以待致諸子	-11.7309
槁	-11.731
冶	-11.7311
彛	-11.7313
臣恐未合	-11.7313
碩	-11.7314
簋	-11.7315
八尺曰仞	-11.7316
月令仲春	-11.7317
梵	-11.7318
八尺曰尋	-11.7319
句股求弦	-11.732
蒐	-11.732
邳	-11.7326
鳧	-11.7331
遐	-11.7337
林鐘起宫㽔變	-11.7337
顔師古	-11.7337
釐三毫三絲	-11.7341
㽔賔起宫仲變徴仲變	-11.7351
靴	-11.7354
黃鐘起宫應變徴應變宫	-11.7354
騑	-11.7488
應姑南太林黄仲無夾	-11.7733
黍之廣積	-11.8395
為君商為臣角為民徴為事羽為物	-11.8619
央	-11.8632
日至於澤中之方丘奏之若樂八	-11.8665
殫	-11.8678
閎	-11.8678
二千二百三十六除之	-11.868
誄	-11.8683
顔淵問為邦	-11.8684
梅	-11.8684
墮	-11.8685
大數立焉	-11.8686
擾	-11.8687
調也其起調畢曲之律	-11.8687
恊律郎	-11.8687
而候之氣至者灰去	-11.8689
亦何異此	-11.8691
袪	-11.8691
芽	-11.8691
三分去一五十四以為	-11.8692
篞	-11.8692
林鐘起宮林鐘之	-11.8692
現	-11.8692
四十八以為羽三分益一六十四以為角	-11.8692
四釐六毫一絲六忽	-11.8692
磬夷則笙夾鐘笙無射笙仲吕笙夷則	-11.8692
萬四千九百七十六	-11.8693
吹四字按十徽定之實音為太	-11.8693
羃百六十二寸深尺積一千六百二十寸	-11.8694
然後凖之凖之然後量之	-11.8694
用俾應復也	-11.8694
聲成文謂之音	-11.8694
序故羣物皆别	-11.8695
姑洗歌鐘應鐘歌鐘㽔	-11.8695
溫	-11.8696
圅	-11.8696
或還或否	-11.8696
琴仲吕琴夷則簫夾鐘簫無射簫仲吕簫	-11.8696
幕	-11.8696
和氣應者其政平猛氣應者其	-11.8696
五二五三七一四五四	-11.8696
分故其實總得此數又以	-11.8696
卵	-11.8696
溯	-11.8696
以三為一絲則得絲者	-11.8696
回邪曲直各歸其分	-11.8696
萬九千六百八十三為一寸則得寸者	-11.8696
復還其始	-11.8697
以二十七為一毫則得毫者	-11.8697
大不踰宫細不過羽	-11.8698
餘數又以釐法二百四十三除之得	-11.8698
其本在人心之感於物也	-11.8698
姑洗編鐘應鐘編鐘	-11.8698
歌磬大吕歌磬姑洗笙應鐘笙㽔	-11.8698
笙大吕笙姑洗塤應鐘	-11.8698
編磬大吕編磬姑洗笙應鐘笙	-11.8698
起調畢曲為諸聲之綱至二變聲	-11.8698
笙大吕笙姑洗瑟應鐘瑟㽔	-11.8698
編鐘大吕編鐘姑洗編磬應鐘編磬	-11.8698
秣	-11.8698
亶	-11.8699
琴大吕琴姑洗簫應鐘簫㽔	-11.8699
瑟大吕瑟姑洗琴應鐘琴㽔	-11.8699
下生者三分去一上生者三分益一	-11.8699
又參之於辰得八十一又參之	-11.8699
黜	-11.8699
先王之樂所以節百事也故有五節	-11.8699
為實以釐法二百四十三除之得	-11.8699
又參之於戌得五萬九千	-11.8699
犀	-11.8699
一寸二分四釐七毫	-11.8699
鑚	-11.87
㽔賔簫㽔賔簫	-11.87
磬無射編磬仲吕	-11.87
大章章之也咸池備矣	-11.87
梢	-11.8701
相去一律則音節和相去二律則音節逺	-11.8701
篴仲吕篴夷則簫夾鐘簫無射簫仲吕簫	-11.8701
鐘無射編鐘仲吕	-11.8701
其文足論而不息	-11.8701
十七萬七千一百四十七此隂陽合徳氣	-11.8701
讖	-11.8701
㽔賔笙㽔賔笙	-11.8701
十七萬四千七百六十二	-11.8701
篴大吕篴姑洗簫應鐘簫	-11.8701
㒺	-11.8701
望臬五曰銅斛六曰古錢七曰建武	-11.8701
金石有聲不考不鳴	-11.8701
一尺一寸二分二釐四毫	-11.8701
五聲六律十二管還相為宫	-11.8702
金石絲竹匏土革木	-11.8702
移風易俗莫善於樂	-11.8702
軷	-11.8702
尺長四分半所校古法有七	-11.8702
姤	-11.8702
黄無林仲夾黄無林仲夾黄無	-11.8702
一千九百四十四	-11.8702
夷則之數五十一主七月上生夾	-11.8703
無夷蕤夾大無夷蕤夾大無夷	-11.8703
駮	-11.8703
可不戒哉	-11.8704
膏	-11.8704
入月其氣即應或至中下旬間氣始應	-11.8704
從其方位加律其上以葭莩灰抑其内端	-11.8704
笙夾鐘笙無射笙仲吕笙夷則塤夾鐘	-11.8704
鳳凰來儀	-11.8704
天球在東序	-11.8704
為黄鍾置黄鍾半律	-11.8704
九之法分之則有終不可得而齊者	-11.8704
竭青氣次之然後可鑄	-11.8705
不和不樂而鄙詐之心入之矣	-11.8705
敘	-11.8705
詰	-11.8705
瘠之異取黍大小未必得中	-11.8705
量定不徒然正以時有水旱之差地有肥	-11.8705
之差則法於此而遂變不以約十	-11.8705
六分其厚以其一為之深而圜之	-11.8705
武始而北出再成而滅商	-11.8705
八音以土為主	-11.8705
三分之每分得	-11.8705
紳	-11.8705
塤太簇瑟太簇箎	-11.8706
有凶豐地有肥瘠種有長短	-11.8706
總干山立	-11.8706
俯仰詘伸	-11.8706
躁	-11.8706
和故百物皆化	-11.8706
大琴必以大瑟配之	-11.8706
是圍十分三釐八毫徑三分四釐六毫也	-11.8706
憾	-11.8706
之商大呂之商	-11.8706
徽定之實音為南吕散聲即姑洗四弦	-11.8706
琨	-11.8707
韓邦奇	-11.8707
箇一千二百九十六為南吕之	-11.8707
無射所以宣布哲人之令徳示民軌儀也	-11.8707
八風從律而不姦	-11.8707
寸之尺起度則	-11.8707
徽至四徽	-11.8707
八百二十為夾鐘之	-11.8707
箇一千七百二十八為姑洗之	-11.8707
大琴大瑟中琴小瑟四代之樂器也	-11.8707
課	-11.8707
五散五十徽	-11.8707
眼	-11.8708
粉	-11.8708
曰此是降神之樂如黄	-11.8708
滌蕩其聲	-11.8708
以道制欲	-11.8708
進一位命作立方積	-11.8708
觵	-11.8708
姚	-11.8708
誦夏弦大師詔之瞽宗	-11.8708
大無夷仲夾大無夷仲夾大無	-11.8708
三成而南四成而南國是疆五成而	-11.8708
在齊聞韶	-11.8708
於子化生萬物者也	-11.8708
大吕太蔟夾鍾姑洗仲吕	-11.8708
徽定之實音為黄鍾散聲即林鍾六弦	-11.8708
於義或然	-11.8708
樂其所自成	-11.8708
瓊	-11.8708
揷	-11.8708
狎	-11.8708
短則聲清而	-11.8708
合生氣之和	-11.8709
三分黍之一以九十因之則一千二百也	-11.8709
匏竹利制	-11.8709
舞師掌教兵舞帥而舞山川之祭祀	-11.8709
百世之下欲求	-11.8709
迴	-11.8709
嘉量章則以千二百黍實其龠謹	-11.8709
四開以合九九	-11.871
細鈞有鐘無鎛昭其大也	-11.871
九十黍容千二百黍則空圍當有九方分	-11.871
參同契合無所不通	-11.871
捲	-11.871
田術三分益一得	-11.871
耻	-11.871
不盈寸者十之所得為分	-11.871
惟審度章云一黍之廣度之九十分黄	-11.871
豳雅豳頌	-11.871
六百一十八為仲吕之	-11.871
為長積千二百黍以為廣可見也夫	-11.871
箇一千四百五十八為林鐘之	-11.871
鐘笙夾鐘笙夷則笙夷則笙夾鐘瑟夾鐘	-11.871
此聲氣之元五音之正也	-11.871
為黄鍾置黄鍾正律	-11.871
嘯	-11.8711
嵇	-11.8711
不甚相逺	-11.8711
大磬謂之毊	-11.8711
夾鐘歌磬夾鐘編磬夷則歌磬夷則編磬	-11.8711
知聲而不知音	-11.8711
猷	-11.8711
之下指其大者以明凡例也一三之而	-11.8711
内黙具律寸分釐毫絲之法而又於此律	-11.8711
琴夷則篴夾鐘簫夾鐘簫夷則簫夷則簫	-11.8711
迭以吹則中聲可得淺深以列則中氣可	-11.8711
新法置黄鍾之率十億	-11.8711
天子所以享元侯	-11.8711
邢	-11.8711
潘	-11.8711
檐	-11.8711
朱干玉戚以舞大武八佾以舞大夏	-11.8711
􁌹	-11.8711
以八十一億乗之折半退位為實	-11.8711
姑洗拊姑洗鼗	-11.8712
仲吕歌鐘仲吕編鐘無射歌鐘無射編	-11.8712
酧	-11.8712
四十三則釐法也九其二百四十三得二	-11.8712
琴無射篴仲吕簫仲吕簫無射簫無射簫	-11.8712
賓之初筵	-11.8712
湎	-11.8712
泄	-11.8712
鷄	-11.8712
雲翹育命	-11.8712
感物而動	-11.8712
空圍中廣九分	-11.8712
笙仲吕笙無射笙無射笙仲吕瑟仲吕	-11.8712
跗	-11.8712
十一萬六千五百	-11.8713
變徴又九分角之一而餘六分得	-11.8713
恢	-11.8713
既和且平依我磬聲	-11.8713
譟	-11.8713
朒	-11.8713
紀陽氣之初以為	-11.8713
而當一粟十二粟而當一寸	-11.8713
於實第八位	-11.8713
再變而致臝物及山林之示	-11.8713
夾振之而駟伐盛威於中國	-11.8713
僚	-11.8714
彞	-11.8714
樂具入奏	-11.8714
形諸動静	-11.8714
邀	-11.8714
樂通倫理	-11.8714
通禮義纂曰	-11.8714
一變而致羽物及川澤之示	-11.8714
奏黄鐘歌大呂	-11.8714
白次之黄白之氣竭青白次之青白之氣	-11.8714
不必親相與言也以禮樂相示而已	-11.8714
彖	-11.8714
於實第七位	-11.8714
笙入堂下磬南北面立	-11.8715
以序出入舞者	-11.8715
何承天劉焯譏房之	-11.8715
竹長三寸九分吹之	-11.8715
糺	-11.8715
琴太簇篴南吕簫南吕簫太簇簫太簇簫	-11.8715
古者於旅也語	-11.8716
悼	-11.8716
流入于南不歸于北	-11.8716
涂	-11.8716
傲	-11.8716
樂記曰樂者非謂	-11.8716
窮本知變	-11.8717
聾	-11.8717
磬筦將將	-11.8717
韓詩外傳	-11.8717
徽應七絃散聲	-11.8718
西階之西頌磬東面其南	-11.8718
不為他律役	-11.8718
掆	-11.8718
鐘為角太簇為徴姑洗為羽	-11.8718
性術之變盡於此矣	-11.8719
尖	-11.8719
璣	-11.8719
賚	-11.8719
燔黍捭豚	-11.8719
槽	-11.8719
鵲	-11.8719
柞	-11.872
罔	-11.8721
繁遏渠	-11.8721
弧	-11.8721
管長尺六孔為十二月音	-11.8721
另	-11.8721
維清奏象舞	-11.8721
自首至尾	-11.8721
六分其金而錫居一	-11.8721
王出入令奏王夏	-11.8721
蔑	-11.8721
有所傳聞然	-11.8721
其臋一寸其實一豆	-11.8722
鬯	-11.8722
引舞持帗者左班一人云第	-11.8722
明倪復撰	-11.8722
不知奚據而云	-11.8723
丘歌南山有臺笙由儀	-11.8723
以和軍旅以正田役	-11.8723
非人之所能為	-11.8723
祕	-11.8723
長孫紹逺	-11.8723
嗄	-11.8723
幢	-11.8723
攙	-11.8724
篾	-11.8724
竾	-11.8724
以其鉦為之銑間	-11.8725
昻	-11.8725
合敬同愛	-11.8725
禱	-11.8725
周而復始	-11.8725
囚	-11.8726
明朱載堉撰律吕精義外篇	-11.8727
不學博依不能安詩	-11.8727
叠	-11.8727
滑	-11.8727
蔵	-11.8727
一磬而尚拊	-11.8727
載道而與之俱	-11.8727
染	-11.8728
禜	-11.8728
侔	-11.8729
摹	-11.8729
寸四分二釐八毫	-11.8729
七八五三九八	-11.8729
黄太姑蕤林南應	-11.8729
璜	-11.8729
太簇為角姑洗為徴南吕為羽	-11.873
鼓人掌教六鼓四金之音聲以節聲樂	-11.873
叛	-11.873
箇一千一百五十二為應鐘之	-11.8731
拗	-11.8731
洫	-11.8731
甚盛之舉	-11.8731
不可斯須去身	-11.8732
柲	-11.8732
金元曲子	-11.8732
禆	-11.8733
歧	-11.8733
倅	-11.8733
霤	-11.8734
魁	-11.8734
靺	-11.8734
沼	-11.8734
仰瞻囘顧第	-11.8734
聲相應故生變變成方謂之音比	-11.8734
裙	-11.8734
馬融長笛賦	-11.8735
羽角位用吟	-11.8735
尼	-11.8735
滕	-11.8736
憶	-11.8736
狗	-11.8736
六字孔黄鐘清為	-11.8737
五章章四句	-11.8738
胡笳十八拍	-11.8738
唐貞元中	-11.8738
亟	-11.8741
蘋	-11.8741
林鐘上生太簇太簇下生南吕南吕	-11.8743
腐	-11.8743
大吕起宫黃變徴黃變宫	-11.8745
如牛鳴窌中	-11.8746
躋	-11.8747
做	-11.8747
垣	-11.875
法置仲吕之率	-11.8751
俗呼中管仙吕	-11.8751
為實五億乗之六億六千七百四十一萬	-11.8752
魂	-11.8752
殽	-11.8753
娘	-11.8753
鵰	-11.8755
浹	-11.8755
寗	-11.8756
菽	-11.8762
瓜	-11.8762
窪	-11.8763
曰含少次制十二	-11.8774
臥	-11.9899
箇二千一百八十七為黄鐘之	-12.029
○○○○○○○○	-12.0295
萋	-12.0321
處作一孔吹之	-12.0335
又於下法之上置	-12.0337
霸	-12.0338
刁	-12.0339
弦之散聲俗名	-12.034
掌大師之縣	-12.0341
始升則陽雖	-12.0343
齪	-12.0344
芼	-12.0346
方以類聚物以羣分	-12.0346
葱	-12.0348
彥	-12.0348
孶	-12.0349
槍	-12.0351
㸔	-12.0351
縞	-12.0352
珪	-12.0352
○□○○□□○	-12.0353
林鍾長五寸七	-12.0353
三分之而損一分其位則在	-12.0354
謂之旋旋蟲謂之幹	-12.0354
音則相嬗而為	-12.0354
逆數隔六	-12.0355
啓中黄之少宫	-12.0355
簾	-12.0355
唐樂圖所𫝊	-12.0355
宋陳𤾉撰論語訓義	-12.0355
偃武修文	-12.0355
少宫王于中央也於	-12.0355
恰用六律而宮之	-12.0355
除之亦得黄鍾是為	-12.0355
盡即接所	-12.0356
七四五七六七六九二	-12.0356
二間夾鍾出四隙之細也	-12.0356
欣喜歡愛	-12.0356
除之亦得大吕是為	-12.0356
除之亦得應鍾是為	-12.0356
陷	-12.0356
含黄鍾以吐幹	-12.0356
翩翩者鵻	-12.0357
陽生於子至午而盡到未又生出一黄鍾	-12.0357
或置南吕為實以	-12.0358
十三舞勺成童舞象二十舞大夏	-12.0358
取竹之解谷生其竅厚	-12.0358
末以相及中聲以降五降之後不容彈矣	-12.0358
襠	-12.0359
除之亦得太蔟是為	-12.0359
除之亦得夾鍾是為	-12.0359
柱崇二寸七分	-12.0359
一七八一七九七四三六二	-12.0359
錯亂而無倫非其本法也	-12.0359
字髙吹即	-12.036
一三三四八三九八五四一	-12.036
歌鐘大吕歌鐘姑洗歌磬應鐘歌磬㽔	-12.036
或置㽔賔為實以	-12.036
大管謂之簥	-12.036
寸三分設柱為	-12.036
除之亦得姑洗是為	-12.036
淮南不過以數之多寡為生之上下律吕	-12.036
駉	-12.036
以是生黄鍾小素之首以成宫	-12.036
黄氏樂典以	-12.036
凡六樂皆文之以五聲播之以八音	-12.036
已上十二條名宫	-12.036
除之亦得仲吕是為	-12.036
歌九磬之舞於宗廟之中奏之	-12.0361
四四五四四九三五九	-12.0361
或置夾鍾為實以	-12.0361
倍律之實積倍之即	-12.0361
羽徵角商宫	-12.0361
七十二以三分之不盡二筭	-12.0361
除之亦得南吕是為	-12.0361
倍律面幂進一位即	-12.0361
鍾林鍾太簇南吕姑洗	-12.0362
六絲一忽五微五纎	-12.0362
或置大吕為實以	-12.0362
肱	-12.0362
酋	-12.0362
惲	-12.0362
除之亦得夷則是為	-12.0362
二調之宫音皆在第	-12.0362
磬氏為磬倨句一矩有半	-12.0363
右羽之宮蕤賔之宮一清右羽之	-12.0363
清右變徴之徴中呂之徴	-12.0363
為聲氣之元其管最長故以黄	-12.0363
四間林鍾和展百事俾莫不任肅純恪也	-12.0363
清右變徴之角中呂之角	-12.0363
自鶉及駟七列	-12.0363
三分六釐三毫二分五釐	-12.0363
五聲次第自是不足何者黄	-12.0363
徴之商姑洗之商	-12.0363
禮運曰五聲六律十二管還相	-12.0363
翅	-12.0364
南北之揆七同	-12.0364
㓗	-12.0364
右羽之徴蕤賔之徴	-12.0364
合焉凡此宫之旋而在	-12.0364
國語伶州鳩曰律所以立均出度也	-12.0364
除之亦得無射是為	-12.0364
非秬黍之比也秬黍積	-12.0364
陌	-12.0364
感動人之善心	-12.0364
凑	-12.0364
徴之商中呂之商	-12.0364
清右徴之徴姑洗之徴	-12.0364
以一聲叶一字則古詩篇篇	-12.0364
以二千一百八十七為一分則得分者	-12.0364
辜	-12.0364
除之亦得㽔賔是為	-12.0364
除之亦得林鍾是為	-12.0364
四十九又參之於亥得	-12.0364
鄭音好濫淫志	-12.0364
焉而辰在析木	-12.0364
生夷則夷則生夾鍾夾鍾生無射無射生	-12.0364
特磬太簇歌舞南吕歌舞太簇歌鐘	-12.0364
寸上生者四因得	-12.0364
六分為雌雄故曰十二	-12.0365
挽	-12.0365
清右羽之角蕤賔之角	-12.0365
鍾髙下㢠環而	-12.0365
㽔賔琴㽔賔篴	-12.0365
元間大吕助宣物也	-12.0365
右徴之宮姑洗之	-12.0365
夾鐘鼗仲吕鼗	-12.0365
所動者其灰散人及風所動者其灰聚	-12.0365
鉏	-12.0365
凡將起五音凡首	-12.0366
􁆳	-12.0366
太簇笙太簇笙	-12.0366
清右角之徴夾鍾之徴	-12.0366
清右角之角夾鍾之角	-12.0366
五毫四絲三忽	-12.0366
府一人史一人胥二人徒二十人	-12.0366
修身及家平均天下	-12.0366
以三參物三三如九故黄	-12.0366
右角之宮夾鍾之宮一清右角之	-12.0366
一寸三分九釐九毫九絲一忽二微二纎	-12.0366
塤黃鐘瑟黃鐘箎	-12.0366
黃鐘琴黃鐘篴	-12.0366
右商之宮太蔟之	-12.0367
鉢	-12.0367
五曰夷則所以詠歌九則平民無貳也	-12.0367
俛	-12.0367
姦聲亂色	-12.0367
府二人史二人胥二人徒二十人	-12.0367
簫大吕簫應鐘鼗大吕鼗	-12.0367
間歌三終合樂三終	-12.0367
三寸七分八釐四毫一絲四忽	-12.0367
之律固起于龍齦而為	-12.0367
再加一倍乃得	-12.0367
分又九因一遍至釐位住得	-12.0367
徴音正遇	-12.0367
於申得六千五百六十一又參之於酉得	-12.0367
裸	-12.0367
清右商之商太蔟之商	-12.0367
第一弦第二弦散聲	-12.0367
六一五五一二	-12.0367
三分之毎分得	-12.0368
清右商之徴太蔟之徴	-12.0368
清右商之角太蔟之角	-12.0368
清右變宮之徴大呂之徴	-12.0368
清右變宮之角大呂之角	-12.0368
夲	-12.0368
緐	-12.0368
髙下廻環	-12.0368
世之前之律者其亦求之於聲氣之元而	-12.0368
汧	-12.0368
清右宮之角黄鍾之角	-12.0368
清變宮音右變宮之宮大呂之	-12.0368
自焦尾計至	-12.0368
吕南吕生姑洗姑洗生應	-12.0369
劉曜渾天儀土圭尺	-12.0369
一忽三微三纎	-12.0369
鑾	-12.0369
淚	-12.0369
氣應有早晚灰飛有多少	-12.0369
簫大吕簫應鐘拊大吕拊	-12.0369
鄭康成月令註曰凡律空圍九	-12.0369
塜	-12.0369
大吕簫大吕簫	-12.0369
為之長其神則為	-12.0369
禓	-12.0369
分八千一百九十二戌五萬九千	-12.037
猜	-12.037
之聲少下不和故有變律	-12.037
葆	-12.037
其耳三寸其實一升	-12.037
盎	-12.037
吹曰舍少	-12.037
坦	-12.037
黏	-12.037
眂	-12.037
一寸一分一釐一毫一絲一忽一微一纎	-12.037
天之大數不過十二	-12.037
分一漢書云長九寸者九分之寸也	-12.037
每音中之調	-12.0371
三分四釐三毫四絲八忽八微四纎	-12.0371
上生者四其法得四寸二十分	-12.0371
曰西京銅望臬四曰金錯	-12.0371
辛彦之鄭譯何妥	-12.0371
黄鍾大呂太簇夾鍾	-12.0371
之數七十二主正月下生南吕	-12.0371
南吕之數四十八主八月上生姑洗	-12.0371
云律九九八十一故云八寸	-12.0371
故淮南太史公之書其論此也已詳特	-12.0371
自絲以下雖非目力之所能分然既有其	-12.0371
洋	-12.0371
射人以射法治射儀王	-12.0371
挾	-12.0371
音之屬總序臣謹按	-12.0371
以别十二律其雄鳴為六雌鳴亦六以	-12.0371
殷人尚聲	-12.0371
謂之三事六府三事謂之九功九功之	-12.0371
尺也依古尺更鑄銅律	-12.0371
為一分則共為八十一分約以	-12.0371
靈鼔靈鼗	-12.0371
下管象舞大武大合衆以事	-12.0372
六六七四一九九二七	-12.0372
九分者方分也以破徑三分之法	-12.0372
倍律自乗所得折半即是	-12.0372
合三分損益轉生十一律	-12.0372
律當變者有六故置一而六三之	-12.0372
長甬則震	-12.0372
二寸一分八釐七毫一絲五忽	-12.0372
無射之數四十五主九月上生仲吕	-12.0372
一寸二分八釐三毫七絲二忽五微二纎	-12.0372
孳	-12.0372
懾	-12.0372
上瞽四十人中瞽百人下瞽百有六十人	-12.0372
一寸二分一釐一毫六絲七忽五微二纎	-12.0372
七寸四分九釐一毫五絲三忽五微三纎	-12.0372
蕤姑太應南蕤姑太應南蕤姑	-12.0372
法度彰禮樂著	-12.0372
五百五十五萬一千四百八十八	-12.0372
正律面幂進一位即	-12.0372
好樂無荒	-12.0373
外旁有庣焉	-12.0373
奏無射歌夾鍾舞大武以享先祖	-12.0373
執籥秉翟	-12.0373
贍	-12.0373
單穆公曰	-12.0373
之篇是也盖取	-12.0373
錢樂之渾天儀尺後周	-12.0373
亦非是本朝承襲皆不能覺獨胡安定以	-12.0373
自是四樂各舉其一者而言之	-12.0373
内收十八分為二寸	-12.0373
吕再生别名執始轉生四十八律	-12.0373
正律之實積半之即	-12.0373
不相通而律竟不成唐因聲制樂雖近	-12.0374
暵	-12.0374
脆	-12.0374
醜	-12.0374
五者皆亂迭相陵	-12.0374
凡學世子及學士必時春夏學	-12.0374
弩	-12.0374
棲	-12.0374
繢	-12.0374
鋤	-12.0374
京房覺其如此故	-12.0374
或差造律未妙就如撼動取滿論理亦通	-12.0374
之聲皆不當位反不如和峴舊樂之	-12.0374
豈徒然哉	-12.0374
鎛如鐘而大	-12.0374
之數生若欲由	-12.0374
箇一千三百六十五為夷則之	-12.0374
勤政樓	-12.0374
師中士四人下士八人	-12.0375
笴	-12.0375
所以宣養六氣九徳也	-12.0375
棘	-12.0375
欘	-12.0375
九絲三忽二微八纎	-12.0375
先相者皆左何瑟面鼓執越内	-12.0375
半徽一弦大吕為	-12.0375
時惟此適與度量合故可用今時則不同	-12.0375
箇一千九百四十四為太簇之	-12.0375
大吕歌舞㽔賓歌	-12.0375
諺	-12.0376
道五常之行	-12.0376
五色成文而不亂	-12.0376
天神地祗人鬼	-12.0376
祛	-12.0376
以八十一億乘之	-12.0376
位子其數八十一主十一月下生林	-12.0376
塤夷則瑟夷則	-12.0376
以笙定琴以琴定瑟	-12.0376
三梁表尺實比晉前尺一尺二分二	-12.0376
六寸六分七釐四毫一絲九忽九微二纎	-12.0376
貧	-12.0376
鷰	-12.0376
十尺為丈十丈為引	-12.0376
觔	-12.0376
九十二釐七百五十一毫	-12.0376
定為一錢之則	-12.0376
笙師掌教龡	-12.0377
就置所得為實依後項乗除之	-12.0377
以十有二律為之度數	-12.0377
夔教胄子	-12.0377
五寸二分九釐七毫三絲一忽五微四纎	-12.0377
寧府五聲歌訣	-12.0377
配合為説耳未可以為	-12.0377
除之所得億約為寸得姑洗姑洗長	-12.0377
無射特磬無射特磬仲吕歌舞無射歌舞	-12.0377
太姑蕤夷南應大	-12.0377
武盡美矣未盡善也	-12.0377
聲應相保	-12.0377
舂牘應雅以教祴樂	-12.0377
推厯生律	-12.0377
之所震動清濁之所由出侈弇之所由興	-12.0377
疉	-12.0377
而萬物生故曰一生二二生三三生萬物	-12.0377
之數具于此矣	-12.0377
倍律自乗所得即是	-12.0377
除之所得億約為寸得夾鍾夾鍾長	-12.0377
内庳外髙	-12.0378
㓕	-12.0378
五聲六律十二管旋相為宫	-12.0378
夫律長則聲濁而氣先至極	-12.0378
除之所得億約為寸得應鍾應鍾長	-12.0378
除之所得億約為寸得夷則夷則長	-12.0378
畎	-12.0378
牌	-12.0378
立宫位以主調	-12.0378
駢	-12.0378
皮弁素積禓而舞大夏	-12.0378
親廟在東惟我子孫永	-12.0378
天下無道禮樂自諸侯出	-12.0379
河右先生曰	-12.0379
移風易俗天下皆寧	-12.0379
一寸四分八釐三毫一絲五忽五微三纎	-12.0379
得管之寸數然後半之以為子聲之	-12.0379
此其大凡也今欲求聲氣之中而莫適	-12.0379
自孟康以律之長十之一	-12.0379
圍之謬其後韋昭之徒遂皆有徑三分之	-12.0379
弦為黄鍾與第一弦散聲應按第	-12.0379
燈	-12.0379
律小大之稱比終	-12.0379
紓	-12.0379
姦聲感人而	-12.0379
恵	-12.0379
獶	-12.0379
艾	-12.0379
建日冬至之聲以黄	-12.0379
賔林鍾六律遞上遞下	-12.0379
夤	-12.0379
成既終是名	-12.0379
禦	-12.0379
除之所得億約為寸得無射無射長	-12.0379
十其廣之分以為長	-12.0379
除之所得億約為寸得林鍾林鍾長	-12.0379
天下有道禮樂自天子出	-12.038
八萬二千九百四十四為大吕半之實計	-12.038
顆	-12.038
逕	-12.038
那祀成湯	-12.038
黄鐘小素之首以成宫	-12.038
殄	-12.038
颺	-12.038
三變而致鱗物及丘陵之示	-12.038
箇一千五百三十六為㽔賓之	-12.0381
朽	-12.0381
褶	-12.0381
砌	-12.0381
禮樂皆得謂之有德	-12.0381
儻	-12.0381
生商變商生羽變羽生角變角生宫	-12.0381
摧	-12.0381
者皆以十二律為循環相生不知	-12.0381
聲極長是為	-12.0381
弦為仲吕與第六弦散聲應按第	-12.0381
雷鼔雷鼗	-12.0381
鷙	-12.0381
共得一十四寸一分四釐	-12.0381
曰正歌備樂正告于賔乃降	-12.0381
而致毛物及墳衍之示五變而致介物及	-12.0381
半律之幂折半為	-12.0381
女媧之笙簧	-12.0381
二十四為實十億乗	-12.0382
喟	-12.0382
桓譚新論	-12.0382
槀	-12.0382
則以太蔟夾鍾姑洗中呂㽔	-12.0382
大鐘十分其鼓間以其一為之厚	-12.0382
鐘鼓樂作吹豆葉黄曲終樂止舞畢復位	-12.0382
一百八十七以九分之則為二百四十三	-12.0382
乃其遺法也	-12.0382
大夾中夷無五	-12.0382
大師掌六律六同以合隂陽之聲陽聲黄	-12.0382
君子為能知樂	-12.0382
和邦國諧萬民	-12.0382
林南應大太姑蕤	-12.0383
儷	-12.0383
同民心出治道	-12.0383
縈	-12.0383
於實第六位	-12.0383
之宫而皆可以生之是為律本	-12.0383
為堵全為肆	-12.0383
以七百二十九歸之為	-12.0383
半律之幂右	-12.0383
轅	-12.0383
長尺有咫	-12.0383
劃	-12.0384
邢雲路	-12.0384
太蔟夾鍾姑洗中呂蕤賔	-12.0384
於實第五位	-12.0384
霓	-12.0384
籥章掌土鼓豳籥	-12.0384
摦	-12.0384
繁文簡節之音	-12.0384
鳬	-12.0385
塨	-12.0385
忖	-12.0385
之二八十六枚而在一簴謂之堵	-12.0385
于鼓鉦舞	-12.0385
勃	-12.0385
禮之初始諸飲食	-12.0385
輳	-12.0386
君子於是語於是道古	-12.0386
樂師掌國學之政	-12.0386
冦	-12.0386
萬分忽之五千六百四十五	-12.0386
正應正和同	-12.0386
土鼓龡豳詩以逆暑中秋夜迎寒亦如之	-12.0386
疫	-12.0386
以雅以南以籥不僭	-12.0386
伯氏吹壎仲氏吹篪	-12.0387
欽定四庫全書鐘律通考卷	-12.0387
軀	-12.0387
之樂衆矣所待以作者在	-12.0387
箛	-12.0387
形而上者謂之道形而下者謂之器	-12.0387
寸則得寸者	-12.0387
樂正崇四術立四教	-12.0388
巡舞列而撻其怠慢者	-12.0388
廹	-12.0388
根數為六律	-12.0388
于西階上少東樂正先升北面立于其西	-12.0388
圓周四十容方九	-12.0388
呼二一添作五	-12.0388
綵	-12.0388
愼	-12.0389
漚	-12.0389
煌	-12.0389
彪	-12.0389
凡舞有帗舞	-12.0389
律吕性情自然之變	-12.0389
毳	-12.0389
迪	-12.039
淄	-12.039
宮音由本音而	-12.039
於實第三位	-12.039
田畯國祭蜡則龡豳頌擊土鼓以息老物	-12.039
汶	-12.039
以象上帝玉磬之音	-12.0391
前人所未發	-12.0391
徳利用厚生	-12.0391
梳	-12.0391
篍	-12.0391
宗皇帝用大	-12.0391
櫓	-12.0391
彝	-12.0391
報本反始	-12.0391
呼見一無除作九一	-12.0391
鎭	-12.0391
替	-12.0392
飜	-12.0392
醼	-12.0392
穅	-12.0392
播之以八音金石土革絲木匏竹	-12.0392
陽下生隂隂上生陽	-12.0393
䧟	-12.0393
以其甬長為之圍	-12.0393
墻	-12.0393
寛裕肉好順成和動之音作而民慈愛	-12.0393
簸	-12.0393
榦	-12.0393
清隔六上生	-12.0393
祓	-12.0393
籩	-12.0394
鵲巢采蘩采蘋	-12.0394
於實第四位	-12.0394
王射以騶虞	-12.0394
綺	-12.0394
督	-12.0394
遡	-12.0394
明朱載堉撰鄉飲詩樂譜	-12.0394
動天地感鬼神	-12.0395
䜿	-12.0395
奠爵遂拜執爵興	-12.0395
涓	-12.0395
遒	-12.0395
祿	-12.0395
侮	-12.0396
掛	-12.0396
陽六清之首	-12.0396
稅	-12.0396
協時月正日同律度量衡	-12.0396
仲遂卒于垂壬午猶繹萬入去籥	-12.0396
祭祀舞者既陳則授舞器既舞則受之	-12.0396
床	-12.0397
禰	-12.0397
緻	-12.0397
茁	-12.0397
崖	-12.0397
朞	-12.0398
評	-12.0398
卑者之子不得舞宗廟之酎	-12.0398
嫂	-12.0398
瓢	-12.0398
盟	-12.0398
筮	-12.0398
譌	-12.0398
今之樂由古之樂	-12.0398
靈鼗孫竹之管空桑之琴瑟咸池之舞夏	-12.0399
寸以益上下	-12.0399
順先王詩書禮樂以造士	-12.0399
渤	-12.0399
以其鉦之長為之甬長	-12.0399
按彈内散扣外	-12.0399
慙	-12.0399
塑	-12.04
鬻	-12.04
攅	-12.04
摰	-12.04
祭奏齊夏族人侍	-12.0401
曰夔命汝典樂	-12.0401
觥	-12.0401
㧞	-12.0401
元熊朋來撰	-12.0402
沃	-12.0403
莪	-12.0403
紕	-12.0403
曳	-12.0403
烏夜啼	-12.0403
進旅退旅	-12.0403
搜	-12.0404
風雨暴露改	-12.0404
大太夾姑仲	-12.0404
共得二十八寸二分八釐四毫二絲	-12.0404
甸	-12.0405
句三股四弦五	-12.0406
狸	-12.0406
戮	-12.0406
感於物而動故形於聲	-12.0409
糧	-12.041
仆	-12.0411
諤	-12.0411
彫	-12.0412
匾	-12.0412
應鍾散聲即蕤賔五弦夷則為	-12.0412
弼	-12.0413
删	-12.0413
中隔六上生	-12.0413
艱	-12.0414
洎	-12.0415
菁	-12.0415
劔	-12.0415
籔	-12.0415
灑	-12.0416
謗	-12.0417
牙齒舌唇	-12.0418
欽定四庫全書瑟譜卷	-12.0418
傀	-12.0419
扃	-12.0419
清廟之瑟朱絃而䟽越	-12.0424
猨	-12.0426
荼	-12.0433
字調之宫實	-12.0448
宫俗呼為正宫	-12.045
鵻	-12.0507
除之所得億約為寸得大吕	-12.0601
寸六分六釐六毫	-12.0685
又參之於寅得九又參之於夘得二十七	-12.0984
變則地示皆出可得而禮矣凡樂黄	-12.223
六萬五千五百三十六	-12.2245
廱	-12.2254
爐	-12.2314
褏	-12.2315
應大夹仲蕤夷無	-12.2327
南吕起調南吕畢曲旋宫第	-12.2332
大師掌六律六同皆	-12.2338
徽定之實音為南吕散聲即姑洗六弦	-12.2338
噬	-12.2338
無射起調無射畢曲旋宫第	-12.2341
黄鍾起調黄鍾畢曲旋宫第	-12.2342
三寸九分當為長九寸空徑三分之誤	-12.2344
瘦	-12.2345
失傳已乆何也	-12.2345
䖏	-12.2345
至治之世天地之氣合以生風	-12.2346
醒	-12.2347
宋陳𤾉撰樂圗論俗部歌	-12.2348
徽定之實音為黄鍾散聲即林鍾二弦	-12.2348
四太羽中聲之羽聲低於宫	-12.2348
男左女右手中指	-12.2348
簟	-12.2349
樂仁而殺以時	-12.2349
大吕起調大吕畢曲旋宫第	-12.235
孫侯氏四正具舉大夫君子	-12.235
有合也有國故則否凡大合樂必遂養老	-12.235
異位是為母子	-12.235
四牡騑騑	-12.2351
小大莫處御于君所以燕以射則燕則譽	-12.2351
一徽定之實音為南吕散聲即仲吕六弦	-12.2352
衢	-12.2352
不舞不授器	-12.2352
禮减而進以進為文	-12.2352
之管也以黃鐘九寸分為	-12.2352
改制大樂取京縣秬黍累尺成律鑄	-12.2354
明於天地然後能興禮樂	-12.2354
聖諭樂本解說	-12.2355
愛心感者其聲和以柔	-12.2355
因而九之九九八十一故黄鍾之數立焉	-12.2355
管實得幾粒然後推而定法可也	-12.2355
仲吕起調仲吕畢曲旋宫第	-12.2355
筋	-12.2356
簫太簇簫南吕簫	-12.2356
三間中吕宣中氣也	-12.2356
軻	-12.2356
九四三八七四三一二	-12.2357
為宫則以次圜轉	-12.2357
瀛	-12.2357
空煩其文而為辭費	-12.2357
戢	-12.2358
者制事立法物度軌則	-12.2358
八七七四八六二五三六三三八六九九	-12.2358
夷則起調夷則畢曲旋宫第	-12.2358
酳	-12.2358
八寸二百四十三分寸之一百四	-12.2358
笛三指聲應	-12.2358
四寸一分四釐二毫一絲三忽五㣲六纖	-12.2359
宫細不過羽夫宫音之主也第以及羽	-12.2359
脞	-12.2359
幻	-12.2359
乃奏夷則歌小吕舞大濩以享先妣	-12.2359
林鍾長六寸六分七釐四毫	-12.2359
四隙四時之間氣㣲	-12.2359
復與他律為役者同心一統之義也非黄	-12.2359
七六八七六六八一四九	-12.236
夷則五寸四分三分二商	-12.236
九四三五九二九五二六	-12.236
出四時之㣲氣	-12.236
夾鍾起調夾鍾畢曲旋宫第	-12.236
在鶉火月在天駟	-12.2361
京房之六十律錢樂之	-12.2361
以律管定尺乃是以天地之氣為	-12.2361
古法律管當實千二百粒黍今羊頭	-12.2361
相順若均之八音猶	-12.2361
九分八釐九毫八絲八忽七微四纎	-12.2361
薦上帝配祖考	-12.2361
五月建焉而辰在鶉首林鍾未之氣	-12.2361
使莫不任其職事速其功大敬其職	-12.2361
股為二鼓為三參分其股博去	-12.2361
言時務和審百事無有	-12.2361
九十二釐七百五十毫	-12.2361
得正便將黍以實其	-12.2361
名其初臣歸功於上之義也大吕助陽宣	-12.2362
貨泉重五銖	-12.2362
奏大夷夾無仲黄林	-12.2362
饑	-12.2362
實曰秀南任也	-12.2362
取羊頭山黍用三等篩子篩之取中等者	-12.2362
貨布重二十五銖	-12.2362
鍾應鍾生蕤賔蕤賔生大吕	-12.2363
以上黨羊頭山黍依漢書	-12.2363
兌	-12.2363
南吕歌鐘南吕編鐘	-12.2363
得全釐約以毫法則大	-12.2363
四分三釐二毫七絲六忽八微二纎	-12.2363
蔟散聲即南吕七弦應鍾為	-12.2363
律書漢前志不同雖大吕夾	-12.2363
閤	-12.2363
簡不帥教者以告于	-12.2363
吕長五寸九分三分二	-12.2364
古物之有分寸明著史籍可以酬	-12.2364
德為之本以六律為之音	-12.2364
放鄭聲逺佞人	-12.2364
吕宫至姑洗羽並用大吕起調大吕畢曲	-12.2364
九即十而取九者體之所以立約十而	-12.2364
全寸約以分法則南	-12.2364
四九八九四八七三一六四七六七二一	-12.2364
姑洗得全分約以釐法則應	-12.2364
律成其功發揚滯伏之氣而去散越者也	-12.2364
隂陽序次風雨時	-12.2364
三分七厘六毫	-12.2364
痕	-12.2364
七十一釐四十七毫六十五絲一十九忽	-12.2365
遂設三老五更羣老之席位焉適饌省醴	-12.2365
二萬六千二百四十四	-12.2365
則易之以小約九十黍之長中容千二百	-12.2365
餘六千五百二十四	-12.2365
應鍾長五寸二分九釐七毫	-12.2365
四絲四忽八微二纎	-12.2365
蜜	-12.2365
鄭樵通志	-12.2365
分夾而進事蚤濟也	-12.2365
之廣度之九十分黄鐘之長一為一分	-12.2365
二十七為一寸三為一分一為三釐	-12.2365
徒相大師僕人師相少師僕人士相上工	-12.2365
林鍾為徵太蔟為商南吕為羽姑洗為角	-12.2365
無差異漢書食貨志云黄金方寸其重一	-12.2365
其容體比於禮其節比於樂	-12.2366
適東序釋奠於先老	-12.2366
三十六聲而已其間陽律不用變聲而黄	-12.2366
九月陽氣上升隂氣	-12.2366
毋必之於秬黍則得之	-12.2366
一釐八毫八絲九忽三微三纎	-12.2366
禮樂不可斯湏去身	-12.2366
律吕不易無姦物也	-12.2366
治安之風也小人之音	-12.2366
乃席工于西階上少東	-12.2366
俻	-12.2366
益一上生姑洗三分姑洗損一下生應	-12.2366
藏萬物無射見者故可以徧布前哲之	-12.2366
誌	-12.2366
中者實其龠則是先得黄	-12.2367
符㑹處多且平齊之始已用宣布今因而	-12.2367
天地之風氣正十二律定	-12.2367
伽	-12.2367
鑄金之狀金與錫	-12.2367
一釐二十七為一毫三為一絲一為三忽	-12.2367
分寸尺丈引也所以度長短也本起黄	-12.2367
必和之以大故有鐘無鎛大	-12.2367
應南林姑太應南林姑太應南林	-12.2367
特磬姑洗歌舞應鐘歌舞姑洗歌鐘	-12.2367
釐又九因一遍至毫位住得	-12.2367
坼	-12.2367
躔	-12.2367
上生者四其法得四寸二十八分	-12.2368
姑潔也洗濯也考合也言陽氣養生洗濯	-12.2368
娄	-12.2368
枯穢改柯易葉也	-12.2368
二四一五四六八六四	-12.2368
二寸九分七釐三毫	-12.2368
即以此同律度量頒于天下其後宣帝時	-12.2368
為實以毫法二十七除之得	-12.2368
相依近當由人間	-12.2368
臨事而屡斷	-12.2368
一分容十三黍又	-12.2368
弦為南呂與第十弦散聲應按第	-12.2368
廓	-12.2368
以十為寸法故有	-12.2368
上有似於賔主故可用之宗廟賔客以安	-12.2368
宫為君商為臣角為民徵為事羽為物	-12.2368
隂氣為主委	-12.2368
滿尋訪古今恐不可用其晉梁尺量過	-12.2368
胸	-12.2369
坡	-12.2369
禮交動乎上樂交應乎下	-12.2369
比類以成其行	-12.2369
一寸八十一為一分九為一釐一為一毫	-12.2369
八九八七一八一	-12.2369
勑	-12.2369
三分五釐三毫五絲五忽三微三纎	-12.2369
中實葭莩之灰以輕緹素覆律口	-12.2369
九三七二九八一四三三五三三	-12.2369
六十六萬三千二百九十六	-12.2369
十二律各自為宫以生五聲二變其黄	-12.2369
朂乃部著作郎劉恭依周禮制尺所謂古	-12.2369
自天子達於士降殺以兩	-12.2369
舞大吕歌鐘大吕編鐘	-12.2369
鐘鼓既設一朝	-12.2369
九分三釐四毫三絲二忽九微三纎	-12.2369
竹聲不可以度調	-12.2369
郵	-12.2369
也則法也言萬物既成可法則也故可以	-12.2369
一千二百粒稱重十二銖兩之為一	-12.2369
三寸七分四釐五毫七絲六忽七微六纎	-12.2369
二分六釐四毫八絲六忽五微七纎	-12.2369
及梁時俗尺劉曜渾	-12.2369
四分四釐五毫四絲四忽九微三纎	-12.2369
用増損訛替之所致也周	-12.2369
郊特牲曰歌者在上匏竹在下	-12.2369
非有意於棄之實其重分累析至於無	-12.2369
弓二寸以為侯中	-12.237
其説皆孟堅之妄矣	-12.237
徑圍之分以十為法	-12.237
今以周尺六尺四寸為歩	-12.237
則晉志所謂在六律為陽則當	-12.237
大吕長八寸二百四十三分寸之一百	-12.237
七萬三千七百二十八	-12.237
于時郡國或得漢時故	-12.237
五二四九四七四三六五	-12.237
固有不可得而紀者矣	-12.237
得古周時玉律及鐘磬與新律聲韻闇同	-12.237
林仲夾黄無林仲夾黄無林仲夾	-12.237
此尺者朂新尺也今尺者杜夔尺也	-12.237
三分七釐四毫五絲七忽六微七纎	-12.237
此則古人論律以九分為寸之明驗也	-12.237
一堵磬一堵謂之肆	-12.237
黄鍾生林鍾林鍾生太蔟太蔟生南	-12.237
一尺二寸五分九釐九毫二絲	-12.237
八十八釐八十八毫八十八絲八十八忽	-12.237
分者十之則其竒零無時而能盡雖泛以	-12.237
孟康不察乃謂凡律圍徑不同各以圍	-12.237
是太祖遣尚書故蘇綽所造當時檢勘用	-12.237
為之六間以揚沈伏而黜散越也	-12.237
鐘吹新律命之皆應梁武	-12.237
等有不察耳	-12.2371
七千五百四十九萬七千四百七十二	-12.2371
先王之制音也奏中聲	-12.2371
執越内弦右手相入	-12.2371
一分八十一為一釐九為一毫一為一絲	-12.2371
十一月陽伏於下物始萌於	-12.2371
水火金木土榖	-12.2371
穢	-12.2371
見乃謂之象形乃謂之	-12.2371
一寸五分二釐六毫六絲一忽五微一纎	-12.2371
林姑太應南林姑太應南林姑太	-12.2371
楙	-12.2371
瞽矇掌九徳六詩之歌以役	-12.2371
蹲再鼓皆舞進一步正立再鼓皆	-12.2371
鎛鐘㽔賔特磬㽔賔特磬	-12.2371
開皇十年萬寳常所造律	-12.2371
二分八釐八毫八絲三忽八微一纎	-12.2371
一尺五寸八分七釐四毫	-12.2371
位自得而下生於	-12.2371
呼逢二進一十得一	-12.2371
圍十分二釐八毫	-12.2371
晉泰始十年	-12.2371
月所候言皆無爽	-12.2371
四分七釐一毫九絲三忽七微一纎	-12.2371
法祖孝孫云平陳後廢周玉尺律便用此	-12.2371
一寸二十七為一分三為一釐一為三毫	-12.2372
感人而順氣應之順氣成象而和樂興焉	-12.2372
皆可以生之故曰黄鍾之宫律吕之本	-12.2372
三分去一之次故用子聲為羽	-12.2372
六十七釐九十一毫一十六絲八十七忽	-12.2372
又不盈分者十之所得為小分以其餘	-12.2372
宋陳晹撰樂圖論雅部歌	-12.2372
實如法得長一寸凡得九寸命曰黄鐘之	-12.2372
徑長短與度而差故容黍不同	-12.2372
或多或少皆是作者旁庣其腹使有盈	-12.2372
時有秋有冬	-12.2372
空之圍徑並同而容黍	-12.2372
之實音為仲吕散聲即大吕二弦夾鍾為	-12.2372
於常疑今之大者正是其中	-12.2372
至烏其形圓重用之	-12.2372
今勘周漢古錢大小有合宋氏渾	-12.2372
内出銅律一部是萬寳常所造名水尺律	-12.2372
四分八釐五毫七絲六忽五微九纎	-12.2372
無有曲折之形焉所以立辨也故	-12.2372
雖亦用此十七萬七千一百四十七之	-12.2372
天地三月而為一時故祭祀三飯以為禮	-12.2373
韋表穅裏	-12.2373
揚子太玄	-12.2373
􁇊	-12.2373
吕為宫乃以去滅為商執始	-12.2373
臣縱衰氣應者其君暴	-12.2373
數不知數之自然在律	-12.2373
東平王蒼	-12.2373
止容九百黍積止六百七分半如此則黄	-12.2373
為商姑洗七寸為羽林	-12.2373
皓	-12.2373
相保而為和細大不踰而為平	-12.2373
相生所得之律寸數半之以為子聲之律	-12.2373
黄鍾十七萬七千一百四十七之數則得	-12.2373
以是圍九分之誤遂有徑三分之	-12.2373
摺	-12.2373
曰姑洗所以脩潔百物考神納賔也	-12.2373
稿	-12.2373
然所定之律不本	-12.2373
炊	-12.2374
為十二律之窮變律之首也依京房書仲	-12.2374
恠	-12.2374
之律不動而滿計此二事之殊良	-12.2374
之自然也顧自淮南	-12.2374
九寸為宫其曰宫五	-12.2374
又為輪扇二十四埋地中以測二十四氣	-12.2374
底豫而天下之為父子者定	-12.2374
律須撼乃容若以中者累尺雖復小稀實	-12.2374
然仲吕之實一十三萬一千	-12.2374
仲吕之數六十主四月極不生	-12.2374
鐘尚羽石尚角	-12.2374
咮	-12.2374
方尺積千寸	-12.2374
諛	-12.2374
六寸三分六釐三毫	-12.2374
之變也管長九寸徑三分圍九分	-12.2374
八分三釐二毫三絲九忽二微八纎	-12.2374
其興也勃焉	-12.2374
圍徑自先漢以前傳記並無明文惟班志	-12.2374
尺終有一㑹且上黨之黍有異他鄉其色	-12.2374
東都之亂樂律散	-12.2374
二分七釐二毫六絲二忽六微九纎	-12.2374
二十四銖為一兩	-12.2375
奏姑洗歌南呂舞大㲈以祀四望	-12.2375
然後成韻而崇乃以仲	-12.2375
南吕為徑三分圍九分無射為徑二分八	-12.2375
歌笙入間歌合樂	-12.2375
焦氏卦氣之學亦去四而為六十故其推	-12.2375
所由起也重十有二銖權衡之所由起也	-12.2375
此後魏初及東西分國後周	-12.2375
大吕歌磬大吕編磬	-12.2375
廸	-12.2375
十九寸六百四十一分八百五十五釐	-12.2375
汙	-12.2375
不行此律之所以止於十二也	-12.2375
詡	-12.2375
奏夷則歌小呂舞大濩以享先妣	-12.2375
度之九十分黄鍾之長一	-12.2375
闗雎葛覃卷耳	-12.2375
三分益一得八寸五萬九千	-12.2375
九十六半之得四寸五萬九千	-12.2375
八分五釐六毫七絲八忽三微七纎	-12.2375
因而九之九九八十一故黄鐘之數立焉	-12.2375
拒	-12.2375
汲冢之律與劉歆之斛最	-12.2375
萬三千五百六十三	-12.2375
㽔賔歌鐘㽔賔編鐘大吕歌	-12.2375
轂	-12.2375
非人之所能為也今其律之空圍不同	-12.2375
林仲太黄無林仲太黄無林仲太	-12.2375
亂則哀其事勤羽亂則危其財匱	-12.2376
哂	-12.2376
宋音燕女溺志	-12.2376
急不知當時律之圍徑又果何如也	-12.2376
族黨聞之長	-12.2376
五十一釐六十七毫六十五絲四十八忽	-12.2376
以之阮隃之下聽鳯	-12.2376
塤無射瑟無射箎	-12.2376
遯	-12.2376
嘴	-12.2376
夔曰於予擊石拊石百獸率舞	-12.2376
閻	-12.2376
斌	-12.2376
鬬	-12.2376
右臣逸臣瑗謹按	-12.2376
宋陳𤾉撰樂圗論雅部	-12.2376
勸之以九歌俾勿壞	-12.2376
工入升歌三終	-12.2376
志意得廣焉執其干戚習其俯仰詘伸	-12.2376
中琴必以小瑟配之	-12.2376
五寸八分二釐四毫一絲一忽三	-12.2376
六百四十七絲九百八十二忽	-12.2376
分一千四百五十八為	-12.2376
一寸一分七釐七毫一絲八忽一微二纎	-12.2376
除之所得億約為寸得黄鍾黄鍾長	-12.2376
之位三分之而益一分其位則在	-12.2377
之所為也漢志不知出此乃欲加黄鍾一	-12.2377
之数具于此矣	-12.2377
天下樂之故在廟朝聞之君臣莫不和敬	-12.2377
綦	-12.2377
銑間謂之于于上謂之鼓鼓上謂之鉦	-12.2377
閨門聞之父子莫不和親	-12.2377
五毫圍七分九	-12.2377
後世不知出此而唯尺之求	-12.2377
夾大應夷蕤夾大應夷蕤夾大應	-12.2377
㓙	-12.2377
麞	-12.2377
綠	-12.2377
三徽六徽八徽十一徽	-12.2377
攘	-12.2377
篠	-12.2377
轐	-12.2377
僎	-12.2377
黄南林姑太黄南林姑太黄南林	-12.2377
下諸律圍徑以就黄鐘清聲	-12.2378
子聲則四寸半又上下相生之法者以	-12.2378
之或増之則其	-12.2378
八毫九絲八忽七微一纎	-12.2378
黄無林仲太黄無林仲太黄無	-12.2378
又漢斛銘文云律嘉量方尺	-12.2378
除之所得億約為寸得太蔟太蔟長八寸	-12.2378
儛	-12.2378
嚌	-12.2378
備舉其道不私其欲	-12.2378
手舞足蹈	-12.2378
竄	-12.2378
二寸二分二釐二毫二絲二忽二微二纎	-12.2378
以八寸之尺起度則八尺為尋倍尋為常	-12.2378
僊	-12.2378
十五萬五千三百四十四	-12.2378
寔比晉前尺一尺	-12.2378
聲應相保曰和細大不踰曰平	-12.2378
脛	-12.2378
分者十六萬二千一升積十六寸二分	-12.2379
者一萬六千二百一合積一寸六分二釐	-12.2379
養老之珍具遂發咏焉	-12.2379
挏	-12.2379
曰元元本本數始於一産氣黄鍾造計秒	-12.2379
五十三釐九十四毫四十二絲四十一忽	-12.2379
六寸八分一釐一毫	-12.2379
七後魏前尺實比晉前尺一尺二寸	-12.2379
小分四百三十二	-12.2379
饗食諸侯序其樂事令奏	-12.2379
聲者不可與言音不知音者不可與言樂	-12.2379
其為變正聲之法者以黄	-12.2379
太樂八音不和始知	-12.2379
林姑太黄南林姑太黄南林姑太	-12.2379
畸贏贅虧之積亦不得為此律矣	-12.2379
秋頒學合聲	-12.2379
肜	-12.2379
六釐七十八毫一十一絲八十六忽五	-12.2379
靁鼔靁鼗	-12.2379
庳	-12.238
除之所得億約為寸得蕤賔蕤賔長	-12.238
以六耦射三侯三獲三容樂以	-12.238
妙其生數立法正在	-12.238
庶尹允諧	-12.238
毫釐秒忽之間今乃以不盡之	-12.238
塾	-12.238
戛擊鳴球搏拊琴瑟以詠	-12.238
分七百八十釐	-12.2381
汙尊而抔飲蕢桴而土鼓猶若可以致	-12.2381
娱	-12.2381
縜	-12.2381
鞮鞻氏掌四夷之樂與其聲歌	-12.2381
毊	-12.2381
十一其長之分以為廣自然之數也	-12.2381
級	-12.2381
且其匪色必似鳴矣	-12.2381
箭	-12.2381
個二千四十八為大吕之	-12.2381
佑	-12.2382
來加文武二聲	-12.2382
形制于左右臣逸臣瑗	-12.2382
鵞	-12.2382
短簫鐃歌	-12.2382
鵉	-12.2382
三分六釐三毫九絲一忽三微二纎	-12.2382
仁近於樂義近於禮	-12.2382
半徽一弦黄鍾為	-12.2382
適饌省醴	-12.2382
三分三釐八毫四絲四忽	-12.2382
大司樂説宫角徵羽與七聲不合如何	-12.2382
民相避以為尊卑	-12.2382
義一義云半十二律正律為十二子聲之	-12.2382
袤十寸廣八寸	-12.2382
鼜愷獻亦如之	-12.2382
三十一寸七分八釐三毫八絲	-12.2382
不知變律之數止於六者	-12.2382
絲為絃則其聲應	-12.2382
生南吕南吕生姑洗姑洗生應鐘應鐘生	-12.2382
鐘夾鐘生無射無射生仲吕	-12.2382
則至矣盡矣不可以有加矣	-12.2382
觀音竹此竹節長而厚内外皆可修治	-12.2382
之歌九㲈之舞於宗廟之中奏之	-12.2383
椅桐梓漆爰伐琴瑟	-12.2383
伺	-12.2383
南吕散聲即仲吕五弦林鍾為	-12.2383
化不時則不生	-12.2383
男女無辨則亂升	-12.2383
以生空竅厚	-12.2383
􁆗	-12.2383
醬	-12.2384
袒	-12.2384
四三五九二九五二六四五六一八二五	-12.2384
景王將鑄無射	-12.2384
金門山亦名律管山今	-12.2384
四清聲之設正謂臣民相避以為尊卑	-12.2384
齍	-12.2384
嗟彼白華瑩然如	-12.2384
赦	-12.2384
麓	-12.2384
上乙四六凡工	-12.2384
盜	-12.2384
奏也繼夷則以夾鐘	-12.2385
于上之攠謂之隧	-12.2385
然後少師奏登堂就席告入也	-12.2385
拳	-12.2385
于西階東工入升自西階北面	-12.2385
明則有禮樂幽則有鬼神	-12.2385
相者二人皆左何瑟後首	-12.2385
磐	-12.2385
荒其君驕商	-12.2385
大樂與天地同和大禮與天地同節	-12.2385
鐫	-12.2385
合為六十聲是十二律之正聲也	-12.2385
周召之治也	-12.2385
度量衡亦可以制律	-12.2385
拭	-12.2385
正樂縣之位王宫縣諸侯軒縣	-12.2385
掌學士之版	-12.2385
干戈秋冬學羽籥	-12.2386
四銖為兩十六兩為斤	-12.2386
汨	-12.2386
上工坐相者坐授瑟乃降	-12.2386
弦右手相入升自西階北面東	-12.2386
暈	-12.2386
臚	-12.2386
周旋中規折旋中矩	-12.2386
相併共得二百寸	-12.2386
褘	-12.2386
􁕍	-12.2386
灼	-12.2386
絲不如竹竹不如肉	-12.2387
蓄	-12.2387
禮也者理之不可易者也	-12.2387
以度量者可以文載口傳與衆共知然不	-12.2387
易直子諒之心	-12.2387
志曰伏羲作易紀陽氣之初以為律法	-12.2387
擅	-12.2387
躑	-12.2387
網	-12.2387
逰	-12.2387
王師大獻則令奏愷樂	-12.2387
六寸上生則四其	-12.2388
舅	-12.2388
姿	-12.2388
揣	-12.2388
仄	-12.2388
忱	-12.2388
呼四七除二十八	-12.2388
伶倫自大夏之西乃之阮隃之	-12.2388
挂	-12.2388
昔黄帝令伶倫作為律	-12.2388
護	-12.2388
謂其聲在前後二律之間	-12.2389
建鼓在阼階西南鼓應鼙在	-12.2389
對衝之例也	-12.2389
冗	-12.2389
與前律同出一孔	-12.2389
岸	-12.2389
蕪	-12.2389
𤼵揚蹈厲	-12.2389
簮	-12.2389
宵	-12.239
來奏納夏臣有功奏章夏夫人	-12.239
笙入立于縣中西面	-12.239
聲音之道與政通	-12.239
髻	-12.239
有勲勞於天下	-12.239
淒	-12.239
凡國祈年于田祖龡豳雅擊土	-12.239
四十四忽萬分忽之五千六百四十五分	-12.239
自相矛盾	-12.239
𨼆	-12.239
淸	-12.2391
萹	-12.2391
五音十二律而為六十音因而六之	-12.2391
以三耦射一侯一獲一容樂以采蘋五節	-12.2391
踴	-12.2391
檜	-12.2391
樂也者情之不可變者也	-12.2391
肆直而慈愛者	-12.2391
髓	-12.2391
宋陳𤾉撰樂圖論雅部舞	-12.2392
不學操縵不能安弦	-12.2392
汚	-12.2392
錬	-12.2392
子卿大夫元士之適子	-12.2392
翳	-12.2392
刮	-12.2392
奠酬而工升歌	-12.2392
杳	-12.2392
縿	-12.2392
以四耦射二侯二獲二容樂以貍首七節	-12.2393
一寸一分四釐三毫六絲六忽九微一纎	-12.2393
大祭祀登歌擊拊	-12.2393
降主人辭降工不辭洗	-12.2393
勹	-12.2393
儲	-12.2393
奬	-12.2393
九寸外加一寸為尺	-12.2393
沚	-12.2393
祭祀宿縣遂以聲展之	-12.2394
黍之重為今秤	-12.2394
逝	-12.2394
春誦夏弦	-12.2395
媒	-12.2395
虋	-12.2395
燔	-12.2395
使人相祭工飲不拜既爵授主人爵衆工	-12.2395
邵	-12.2396
鼈	-12.2396
獨樂其志不厭其道	-12.2396
至曲成更奏	-12.2396
四物五聲六律七音八風九歌以相成也	-12.2396
二寸八分五釐六毫五絲六初	-12.2396
粗厲猛起奮末廣賁之音作而民剛毅	-12.2397
潦	-12.2397
搖	-12.2397
纁	-12.2397
鈕	-12.2398
霧	-12.2398
侷	-12.2398
撻其怠慢者	-12.2398
諱	-12.2399
豻	-12.2399
委蛇委蛇	-12.2399
䶵	-12.2399
天子乃帥三公九卿諸侯大夫親往視之	-12.2399
捕	-12.2399
之徳而其發則	-12.2399
小黄令焦延	-12.24
鵝	-12.24
墟	-12.24
喙	-12.24
樂終而徳尊	-12.24
絣	-12.24
鉉	-12.24
及射令奏騶虞詔諸侯以弓矢舞	-12.24
王子年拾遺記	-12.24
鍾為宫大吕為角太蔟為徵應鍾為羽	-12.2401
睢	-12.2401
篁	-12.2401
艷	-12.2401
不拜受爵祭飲辯有脯醢不祭	-12.2402
既歌而語以成之也言父子君臣長	-12.2402
三分之而益一分則為	-12.2403
耨	-12.2403
字為領聲名	-12.2403
字得羽絃之分定為羽立羽位以起調	-12.2403
笙師所掌之篴	-12.2403
輟	-12.2404
淹	-12.2404
大樂必易大禮必簡	-12.2404
數理精藴	-12.2405
逵	-12.2406
其形介然有常有似於士君子之行	-12.2406
嘂	-12.2406
簪	-12.2406
祀乎明堂而民知孝	-12.2407
曩	-12.2408
抛	-12.2409
岱	-12.2409
杠	-12.2409
揲	-12.241
頽	-12.2411
䇾	-12.2411
壝	-12.2411
苴	-12.2412
虹	-12.2413
漠	-12.2414
携	-12.2415
夷則徴應四絃散聲四絃夷則徴取十	-12.2416
彼華者黍彼實者	-12.2416
袜	-12.2417
相間於立體為用	-12.2417
襦	-12.2418
澣	-12.2418
清商應七絃散聲二絃	-12.2418
㽔賔歌函鐘舞大夏以祭山川	-12.2419
仿	-12.2419
䜟	-12.2421
搥	-12.2421
○○○○○○○○○○○○○○	-12.2422
韭	-12.2422
租	-12.2424
句畢聞鼓而變春	-12.2424
豵	-12.2425
喉齶舌齒脣	-12.2425
楨	-12.2426
風清月朗	-12.2426
媚	-12.2426
辰各有五聲其為宫商之法亦如之	-12.2426
字操縵前叚名曰金聲	-12.2428
東門之枌	-12.2429
連近相得之音	-12.2429
愴	-12.2435
厠	-12.2435
諄	-12.2436
峙	-12.2439
諗	-12.2448
襖	-12.2457
逑	-12.2466
之實計六十四箇	-12.2478
旺	-12.248
夏日至於澤中之方丘奏之	-12.2496
周公左召公右六成復綴以崇天子	-12.3066
一十三釐五十六毫二十三絲七十三忽	-12.3078
深尺積一千六百二十寸容十斗	-12.3122
損一下生大吕三分大吕益一上生	-12.3521
益一上生無射三分無射損一下生	-12.3557
之數六十八主二月下生無射	-12.3597
容十斗嘉量之法合龠	-12.4004
陸費墀	-12.4031
二寸三分三毫六絲六忽六秒	-12.4403
九億四千三百八十七萬四千	-12.454
弦按第十徽彈之令與笙音相同是為	-12.4682
百一十二億七千三百七十二萬六千	-12.4783
徽若均布之當	-12.48
嗑	-12.4809
壅	-12.4813
臍	-12.4815
前方法内共得二	-12.4818
□􁕕□􁕖□□􁕖□□􁕕□􁕖□	-12.4818
大夹仲林夷無黄	-12.4819
不知變律之法但見仲吕反生不及黄	-12.4821
大師執同律以聽軍聲而詔吉凶	-12.4822
顙	-12.4822
致禮樂之道舉而錯之天下	-12.4822
二十四毫五十五絲一十二忽	-12.4823
端如貫珠格	-12.4823
何弦散音而與何弦	-12.4831
是以黄鍾折半之管不能復與黄鍾相應	-12.4832
錚	-12.4834
為九寸而度其圍徑如黄	-12.4835
傎	-12.4836
姑蕤夷無應大夹	-12.4837
我客戾止永觀厥成	-12.4837
檛	-12.4837
催	-12.4838
􁕑	-12.4838
􁈡	-12.4839
為實開平方法除之	-12.484
岀	-12.4841
林鍾起調林鍾畢曲旋宫第	-12.4841
樂記曰弦歌干揚童者舞之	-12.4841
湧	-12.4841
諸外而民莫不承順	-12.4841
南應大夹姑蕤夷	-12.4841
皁	-12.4841
在十二律之外自為一	-12.4843
沾	-12.4843
求其理用罔見通達	-12.4844
之五聲故總其全體而命之曰黄	-12.4844
之宫而以其所穴之孔為黄	-12.4844
伶倫先得嶰谿之竹	-12.4844
内穴孔而吹之以備黄	-12.4844
取一均間别其三寸九分	-12.4844
之調皆得三分之次故用正律之聲	-12.4845
以九因之得四寸一分九釐四毫以此	-12.4845
四寸二分則其中間長短相距取用之數	-12.4845
峽	-12.4845
絃緊一音旋為宫聲	-12.4845
也所以量多少也本起於黄鐘之	-12.4845
萬有一千五百二十	-12.4845
八寸一分上下相生窮於應	-12.4845
囂	-12.4846
九寸以九因之得八寸一分應	-12.4846
原任知縣胡彦昇撰度律	-12.4846
□􁕚□􁕙□	-12.4847
崑	-12.4847
陽律以竹為管隂律以銅為管	-12.4847
應鍾起調應鍾畢曲旋宫第	-12.4847
驍	-12.4848
鶵	-12.4848
○□○○○○□○□○	-12.4848
十四調属金南	-12.4848
鐘鼓樂作吹鼓孤桐曲終樂止舞畢復位	-12.4848
漢書云黄鍾長九寸者九分之寸也	-12.4849
舞上謂之甬甬上謂之衡	-12.4849
廬	-12.4849
其上為斛其下為斗左耳為升右耳為合	-12.485
初獻新樂於明堂太廟或聞其樂聲曰清	-12.485
左班一人云天下太平字舞獻第	-12.485
甚薄上有銅馬以繩縣	-12.485
吾無以見聖人矣	-12.485
奏應㽔大夷夾無仲	-12.485
韶繼也夏大也殷周之樂盡矣	-12.485
令去地尺餘灌之以水又以器盛水	-12.4851
樂比舊樂下三律	-12.4851
簫簫夾鐘簫簫夾鐘拊鼗	-12.4851
之律九寸為宫或損或益以定商角	-12.4851
族人侍奏族夏	-12.4851
琴篴夾鐘琴篴	-12.4852
瑟塤夾鐘瑟篪	-12.4852
粧	-12.4852
侖	-12.4852
歌磬編磬夾鐘歌磬編磬	-12.4852
葛之覃兮施于中谷維葉	-12.4852
射為角吹四字按十一徽定之實音為太	-12.4852
跛	-12.4852
猗與那與置我	-12.4854
指子則冬至音比	-12.4854
君父有節臣子有義	-12.4854
髙更用太府布帛尺為法乃下太常四律	-12.4854
􁉘	-12.4854
弦為大呂與第二弦散聲應按	-12.4854
太簇簫南吕簫林鐘鼗南吕鼗姑洗鎛鐘	-12.4854
一變律大吕二變律夷則三變律夾	-12.4854
蕤賔起調蕤賔畢曲旋宫第	-12.4854
特磬林鐘歌舞太簇歌舞林鐘歌鐘	-12.4854
律吕不變易其正各順其時則神無	-12.4854
琴篴南吕琴篴	-12.4854
瑟塤南吕瑟篪	-12.4854
簫簫南吕簫簫南吕拊鼗	-12.4854
商太簇起宫太簇之商	-12.4854
氊	-12.4855
十四聲正律六十三變律二十一六十三	-12.4855
匿	-12.4855
故律四十二吕三十六	-12.4855
稙	-12.4855
聲之變者二故置一而兩三之得九	-12.4855
故謂之厲所以厲六師也以太	-12.4855
五九三二七三七	-12.4856
太簇簫南吕簫林鐘拊南吕拊姑洗鎛鐘	-12.4856
畋	-12.4856
出則征誅入則揖	-12.4856
七月建焉而辰在鶉尾中吕已	-12.4857
其以為度也皆生黄鍾	-12.4857
云班氏所志未	-12.4857
絲為毫九毫為釐九釐為分九分為寸	-12.4857
趨中肆夏誤矣後世奏永至	-12.4857
九月建焉而辰在大火夾鍾夘之氣	-12.4857
四月建焉而辰在實沈無射戌之氣	-12.4857
通律吕本源徒訓角為觸	-12.4857
八三二右乃林鍾倍律積	-12.4857
餘數又以毫法二十七除之得	-12.4857
音七聲十二律器色七字為七調還相為	-12.4858
十分六釐三毫六絲八忽	-12.4858
大射帥瞽而歌射節	-12.4858
望其容貌而民不生易慢	-12.4858
樂也者動於内者也禮也者動於外者也	-12.4858
鋼	-12.4858
七十九釐四十八毫七十五絲三十三忽	-12.4858
特磬南吕歌舞姑洗歌舞	-12.4858
黄鍾子之氣也十一月建焉而辰在	-12.4858
五一九六八一九九四七四七五一七	-12.4858
姑洗歌應鐘歌㽔賔歌大吕歌	-12.4858
故謂之宣所以宣三王之徳也	-12.4858
絀	-12.4858
之律一様二枚	-12.4858
坻	-12.4858
已然有五音而無二變亦不可以成樂也	-12.4859
路鼓路鼗隂竹之管龍門之琴瑟九徳之	-12.4859
以二十七為一初則得初者	-12.4859
六間六吕在陽律之間吕隂律所以	-12.4859
太簇姑洗林鐘南吕皆以正聲應無有忽	-12.4859
琴瑟宜於圜丘奏之空桑隂地也	-12.4859
簫簫應鐘簫簫應鐘拊鼗	-12.4859
懋	-12.4859
道生一則竒而為陽一生二則	-12.4859
擒	-12.4859
翫	-12.4859
不比於正音但可以濟五聲之	-12.4859
則民瞻其顔色而弗與爭	-12.4859
勸之以九歌俾勿壊	-12.4859
十二律之實約以寸法則黄	-12.4859
十調属土南	-12.4859
取半以下為投壺禮盡用之為射禮	-12.4859
常歌工病其太濁歌不成聲私賂鑄工使	-12.4859
星紀大吕丑之氣也十二月建焉而辰在	-12.4859
瑟宜於方澤奏之龍門人功所鑿而成也	-12.4859
鍾林鍾太蔟南吕姑洗應鍾	-12.4859
應之是動而節之以止	-12.486
子未分之時天地人混合為一故子	-12.486
康衢擊壤	-12.486
覇	-12.486
鍾宫至夾鍾羽並用黄鍾起調黄鍾畢曲	-12.486
五十五釐四十六毫八十二絲七十二忽	-12.486
侣	-12.486
左何瑟後首挎越燕禮小臣左何瑟	-12.486
三寸五分三釐五毫五絲三忽三	-12.486
兆八千一百七十九萬	-12.486
阮逸胡瑗尺横累一百黍	-12.486
凡縣鐘磬半為堵全為肆	-12.4861
溉	-12.4861
九寸之數管長四寸五分六月用為候氣	-12.4861
眩	-12.4861
記曰歌之為言長言之也	-12.4861
以滌蕩邪氣出揚正聲	-12.4861
二均弦音不同而指法同俗呼縵	-12.4861
勢象惻隠之仁二曰	-12.4861
應鍾亥之氣也十月建	-12.4861
聖人本隂陽别風聲審清濁	-12.4861
隂聲大吕應鍾南吕函鍾小吕夾鍾	-12.4861
四五六一八二五右乃應鍾倍律積	-12.4861
九夏之樂以王夏為	-12.4861
八十三釐九十五毫五十八絲四十三忽	-12.4861
分為實上生者以一千乘之得五萬	-12.4861
九十三萬七千二百九十八	-12.4861
者皆出於笙師所教無非竹音之雅樂也	-12.4861
中於宫觸於角	-12.4861
八十三毫二百八十九絲一百六十五忽	-12.4861
弱自午至亥漸弱在律為尤弱在吕為差	-12.4861
枵太蔟寅之氣也正月建焉而辰在	-12.4861
虡業維樅賁鼓維鏞	-12.4861
錯採衆聲配成其美若以應鐘為宫大	-12.4861
南㽔姑太應南㽔姑太應南㽔	-12.4861
一十八釐六十七毫九十六絲六十五忽	-12.4862
奏也繼夾鐘以無射	-12.4862
奏也繼徴以商	-12.4862
萬六千三百六十八忽	-12.4862
制禮作樂頒度量而天下大服	-12.4862
君子明於禮樂舉而錯之而已	-12.4862
俱緊一音旋為宫聲	-12.4862
有羽舞有皇舞有旄舞有干舞有人舞	-12.4862
勢象羞惡之義三曰	-12.4862
寕	-12.4862
數者即十而取九相生者約十而	-12.4862
治世之音安以樂其政和亂世之音	-12.4862
紼	-12.4862
一枚分作兩段全律半律各令一人吹之	-12.4862
妻有服不舉樂於其側	-12.4862
父有服宫中子不	-12.4862
雖見於經其詳不可得而知也	-12.4862
面謂之肆有左無右謂之堵	-12.4862
瑟塤仲吕瑟篪	-12.4863
八七九九二八一右乃仲	-12.4863
條理此氣之所以飛灰聲之所以中律也	-12.4863
元年改鑄貨布貨	-12.4863
徑一寸今以大泉錯刀貨布貨泉四物相	-12.4863
聲亦不難定世自有知音者將上下聲攷	-12.4863
重者從細輕者從大是以金尚羽石尚角	-12.4863
隂閉藏於内所以助陽成功也	-12.4863
餐	-12.4863
張協七命云	-12.4863
簫簫仲吕簫簫仲吕拊鼗	-12.4863
曰無曰應曰黄曰大曰太但取夷則至太	-12.4863
洋洋乎如在其上如在其左右	-12.4863
世所鑄錯刀并大泉五十王莽天	-12.4863
千七十五姑洗長七寸九分寸之一	-12.4863
四十一毫六百四十四絲五百八十二忽	-12.4863
廣一寸首長八分有竒廣八分足枝長八	-12.4863
政以一其行刑以防其姦	-12.4863
隂則不書故終不復始	-12.4863
五寸七分四角五寸十分四	-12.4863
亦未巳至已而後窮上反下律	-12.4863
則十一律者又無所受以為本律之宫也	-12.4863
太簇七寸七分二商七寸十分二	-12.4863
夷則三分夷則損一下生夾	-12.4863
於中至四月宣散於外純乾用事	-12.4863
□􁕨□􁕔□	-12.4864
歌磬編磬仲吕歌磬編磬	-12.4864
琴篴仲吕琴篴	-12.4864
在律之前故律之長短圍徑以度之	-12.4864
律未成之前有是	-12.4864
得以形焉度之成在律之後度之	-12.4864
煥乎其有文章	-12.4864
長八寸圍八分為積六百四十分	-12.4864
姑洗六寸七分四羽六寸十分四	-12.4864
暢四方唱始施生為四聲綱也	-12.4864
漢書所載甚詳然不得其要史記所載甚	-12.4864
詳漢志通典唐六典	-12.4864
鐘之長以子榖秬黍中者一黍	-12.4864
黍不相應則將數等	-12.4864
三分其實得二寸八釐六毫以為法	-12.4864
餘五萬一千八百九十六	-12.4864
道可載而與之俱	-12.4865
聵	-12.4865
拽	-12.4865
顒	-12.4865
乗之滿千忽為絲滿千絲為毫	-12.4865
翊	-12.4865
三分而益之以一為百有八	-12.4865
十三黍三分黍之一而滿一分積九十分	-12.4865
四方以羽宗廟以人山川以干旱暵以皇	-12.4865
大寒則大吕八寸三分七	-12.4865
渚	-12.4865
為宫含元處中所以徧養六氣九徳之本	-12.4865
社稷以帗宗廟以羽四方以皇辟	-12.4865
長廣分寸皆合正史者用之則銅斛之尺	-12.4865
䙝	-12.4865
下生南吕為商南吕上生姑洗	-12.4865
不以十二律節之則無以著夫五	-12.4865
世説稱有田父	-12.4865
其月氣至與律冥符則灰飛衝素散出	-12.4865
天子八諸侯六大夫四士二	-12.4865
灰全出為猛氣吹灰不能出為衰氣	-12.4865
而大分盡矣其小分以二百四十三為一	-12.4865
雖有其韻不成音曲	-12.4865
其廣之分以為長十一其長之分以為廣	-12.4865
九十四釐四十四毫四十四絲四十四忽	-12.4866
南吕酉之氣也八月建焉而辰在	-12.4866
姑洗辰之氣也三月建焉而辰在大梁	-12.4866
二六四八六五七七三五八九八二三八	-12.4866
以起調畢曲為諸聲之綱	-12.4866
八音以絲為君絲以琴為君	-12.4866
大府布帛尺	-12.4866
大鈞有鎛無鐘甚大無鎛鳴其細也	-12.4866
弦不先定者以俗笙無背	-12.4866
志曰術曰陽以圓為形其性動	-12.4866
權衡者銖兩斤鈞石所以權輕重也生	-12.4866
灋	-12.4866
野地中得周時玉尺便是天下正	-12.4866
領禮運所謂還相為宫所以始於黄	-12.4866
龠四萬六千八十銖一萬九千二百	-12.4866
乃是以律之長自乗而因之以十	-12.4866
事為君治物為君用不能尊於君	-12.4866
四寸二分三分二羽四寸二分三分二	-12.4866
廖	-12.4866
稚	-12.4866
客出以雍徹以振羽	-12.4866
歐陽頴伯曰	-12.4866
系	-12.4866
古有雅塤如鴈子頌塤如	-12.4866
一以夷至黄一以無至太	-12.4866
八寸四分小分三弱	-12.4866
太府布帛尺	-12.4866
虎侯熊侯豹侯	-12.4866
三分本律而損其一也	-12.4866
以二百四十三為一釐則得釐者	-12.4866
厎	-12.4866
夫金石真偽固難盡信若秬黍則	-12.4866
夷則下有商應鐘下有羽字	-12.4866
為一釐則共為七百二十九釐約以	-12.4866
生陽四之皆三而一陽生	-12.4866
短以平其鍾和其聲以立百事之道法	-12.4866
二千七百四十萬一千九百八十四	-12.4866
十五釐七十三毫八十二絲五十九忽	-12.4867
賔長五寸六分三分一	-12.4867
湊	-12.4867
龠成兹嘉量與古玉斗相符	-12.4867
䧺	-12.4867
一分二十七為一釐三為一毫一為三絲	-12.4867
二分二厘四毫八絲	-12.4867
太簇簫太簇簫太簇拊太簇鼗	-12.4867
小臣納工工六人四瑟	-12.4867
度者分寸尺丈引所以度長短也生於黄	-12.4867
七十六絲二百一十二忽	-12.4867
三十二毫六百八十七絲六百一十七忽	-12.4867
其黄鐘下有宫太簇下有商	-12.4867
姑洗下有羽林鐘下有角南吕下有	-12.4867
徳為之本以六律為之音	-12.4867
斤今鑄金校驗	-12.4867
羽宜清若依公孫崇止以十二律而	-12.4867
吕氏淮南子上下相生與司馬	-12.4867
諏	-12.4867
餕	-12.4868
動以干戚飾以羽旄從以簫管	-12.4868
抝	-12.4868
揚也樂之末節也故童子舞之	-12.4868
王子年拾遺録	-12.4868
操之為言持也縵之為言緩也	-12.4868
立天之道曰隂與陽	-12.4868
􁇙	-12.4868
先儒泥於宫濁羽清之説	-12.4868
繇此之義起十二律之周徑	-12.4868
腎而齒開吻聚謂之羽	-12.4868
一以黄至夷一以太至無	-12.4868
七四九一五三五三八四	-12.4868
二黍十分黍之四	-12.4868
十有三年學樂誦詩舞勺成童舞象	-12.4868
吕為隂則得其所衝而上生於陽者是也	-12.4868
惕	-12.4868
故角徴之間近徴	-12.4868
有瞽有瞽在周之庭	-12.4868
棟	-12.4868
樂三闋然後出迎牲聲音之號所以詔告	-12.4868
特磬無射歌舞仲吕歌舞無射歌鐘	-12.4868
畢復照調弦法再詳定之是上琴大略也	-12.4868
一以銀錯題其銘	-12.4868
合天地之化百物之産	-12.4868
耐	-12.4868
釀	-12.4868
一寸三分二釐一毫三絲四忽一微二纎	-12.4868
八毫四絲七忽八微八纎	-12.4868
粟米法少二升八十一分升之二十二	-12.4868
其節之志以不失其事則功成而德行立	-12.4868
約十五寸合六十寸庣其旁約二寸	-12.4868
唇之俯仰吹氣之緩急唇仰	-12.4868
怯	-12.4868
言隂應陽用事萬物	-12.4868
一十分繇此之義起十二律之周徑然其	-12.4868
也二月建焉而辰在降婁	-12.4868
五三三三五八七五	-12.4868
以調聲韻以尺量古	-12.4868
天地之心今不此之先而乃區區於黍之	-12.4868
夾大無夷蕤夾大無夷蕤夾大無	-12.4868
晉前尺一尺五分十五梁朝俗間尺	-12.4868
李氏學樂録卷一	-12.4868
永歌之不足故不知手之舞之足之蹈之	-12.4868
為前周之尺驗其長短與宋	-12.4868
物也天氣始於黄	-12.4868
祖孝孫云相承傳是蔡邕銅	-12.4868
至之音始也其親底豫而天下化終也	-12.4868
與管灰相應若符契焉開皇九年平陳後	-12.4868
角生姑洗姑洗生應鍾應鍾生	-12.4868
釐八十三毫八十二絲七十四忽	-12.4868
太應南林姑太應南林姑太應南	-12.4868
七十四釐九十四毫五十一絲七十三忽	-12.4869
三分八釐五毫五絲五忽二微七纎	-12.4869
左執干右執戚	-12.4869
銲	-12.4869
太公之志也武亂皆坐周召之治也	-12.4869
轉下與低接	-12.4869
徴羽在宫前商角在宫後	-12.4869
曰商曰羽曰閏閏為角其正角聲變聲	-12.4869
筯	-12.4869
五間南吕贊陽秀也	-12.4869
瑤	-12.4869
芹	-12.4869
銘云大唐貞觀	-12.4869
夾振之而駟伐	-12.4869
廽	-12.4869
拊設於一鐘一磬之東其	-12.4869
曝	-12.4869
有金有玉分有貴有賤位有上有下而親	-12.4869
特磬黄鐘歌舞林鐘歌舞	-12.4869
肝而張齒湧吻謂之角	-12.4869
□􁕥□􁕤□	-12.4869
以周錢有子母相權	-12.4869
則一與三者角與散角應也二與四者	-12.4869
十二管衍為六十律私候氣序並有徵應	-12.4869
四分五厘一毫六絲	-12.4869
懐祖宗氣體則同呼吸相通	-12.4869
王出入則令奏王夏	-12.4869
盛軌同律度量哲后通規臣等詳校前經	-12.4869
仲吕為宫則十二律内全無所取	-12.4869
九十四毫一百五十二絲四百二十五忽	-12.487
天子八八諸侯六八大夫四八士二八	-12.487
此兩尺長短近同	-12.487
並以聞奏詔付大匠依	-12.487
周適欲上聞陳武帝立遂	-12.487
夾鍾長七寸二千一百八十七分寸之	-12.487
定此尺然其樂聲	-12.487
下各自為法固不可以見分釐毫絲之實	-12.487
則止用八百一十分乃是以積實生量之	-12.487
姑大應南蕤姑大應南蕤姑大應	-12.487
天子左五鐘右五鐘出撞黄鐘	-12.487
謂之七聲五聲為正二聲為變變者和	-12.487
象雷其形象天其於樂	-12.487
秋冬學羽籥皆於東序小樂正學	-12.487
諸侯薨令去樂大	-12.487
以吉禮事邦國之鬼神示	-12.487
吕為宫則十二律内全無所取何者	-12.487
徑三分則九十黍之長止容黍八百有	-12.487
三者未詳亦疑後人誤増也下云	-12.487
九釐七毫一絲六忽加以開方不盡之	-12.487
于社伐鼓于朝	-12.487
南林姑太應南林姑太應南林姑	-12.487
宫之次故還用正聲為商	-12.487
後世儒者執守孤法	-12.487
本起於黄鍾之長則黄鍾之長即是一尺	-12.487
柷以合樂而作之必鼓之欲	-12.487
無林仲夾黄無林仲夾黄無林仲	-12.487
瑟篪㽔賓琴篴	-12.487
禮樂皆得謂之有徳	-12.487
竊惟權衡度量經邦懋軌誠	-12.487
若九聲環轉而以本宫之	-12.487
詩言其志也歌咏其聲也舞動其容也	-12.487
諸家異同之論王莽之制作雖不足	-12.487
陳宣帝詣荆州為質俄遇梁元帝敗喜沒	-12.487
八分八釐一毫八絲八忽九微四纎	-12.487
太黄南林仲太黄南林仲太黄南	-12.487
羽與散羽應也義各有當初不相須故不	-12.487
於杜佑胡瑗范蜀公等則又不復知有此	-12.4871
下管新宫笙入三成遂合鄉樂若舞則勺	-12.4871
士無故不徹琴瑟	-12.4871
禮以毋不敬為先	-12.4871
管子云凡將起五音凡首先主一而三之	-12.4871
紀綱紀綱既正天下大定	-12.4871
一節最為律吕旋宫用聲之綱領	-12.4871
誤乃欲増益漢志之文以就其	-12.4871
之五聲皆自東而西相為次第其六弦㑹	-12.4871
二千一百八十七為全分七百二十九為	-12.4871
云還相為宫清濁悉足非惟未練五調調	-12.4871
但制尺求律便為堅	-12.4871
冲之所傳銅尺其銘曰晉泰始十年中書	-12.4871
同以難曉故多誤	-12.4871
夫六中之色也故名之曰黄	-12.4871
弦散聲比琴第二弦散聲微	-12.4871
弱其餘與此尺同	-12.4871
曰古之為鐘律者以耳齊其聲後	-12.4871
歌磬編磬㽔賓笙笙	-12.4871
氣無滯隂亦無散陽	-12.4871
為二尺四寸三其法乃為八寸而得太簇	-12.4871
笙笙㽔賓瑟塤	-12.4871
者誤也今以相生次序列而正之其應	-12.4871
而相生之分釐毫絲以九	-12.4871
蕤夾大無夷蕤夾大無夷蕤夾大	-12.4871
衡猶在也故班氏所志	-12.4871
詩言其志也言之不足故嗟	-12.4871
變於古也自董卓之亂而樂律散亡故杜	-12.4871
貴人聲也仲尼燕居曰升歌清廟示	-12.4871
鐘為八十一分今以十為寸法故	-12.4871
間近宫收一聲少髙於宫故謂之變宫也	-12.4871
亦皆棄而不録	-12.4871
夾黄無夷仲夾黄無夷仲夾黄無	-12.4871
加於人一等矣	-12.4872
中也元始也行於十二辰始動於子參之	-12.4872
徳也下而管象示事也	-12.4872
駔琮五寸宗后以為權	-12.4872
之圍徑古無明文向非因量之積分則黄	-12.4872
也自晉宋以來儒者論律圍徑始有同異	-12.4872
上生執始執始下生去滅	-12.4872
不為他律役其半聲當為四寸五分而前	-12.4872
以子榖秬黍中者一千二百實其龠	-12.4872
宓	-12.4872
撻	-12.4872
明乎齊之音者見利而	-12.4872
柷椌楬為似萬物則是以堂	-12.4872
縠	-12.4872
置一而十一三之以為黄鍾之大數即	-12.4872
若事有乖此聲則不和	-12.4872
莠	-12.4872
豈能保其六七尺之	-12.4872
阬	-12.4872
作十字誤屈中畫耳大要律書用相生分	-12.4872
分二十六釐九十七毫二十一絲二十忽	-12.4872
初散爲黄鍾濁聲初十徽	-12.4872
此尺傅暢晉諸公讚	-12.4872
鐘編鐘㽔賓歌磬編磬	-12.4872
髠	-12.4872
九毫二十七絲五十一忽	-12.4872
無夷仲夾黄無夷仲夾黄無夷仲	-12.4872
共得二十三寸七分八釐	-12.4872
自殷以前但有五音自周以	-12.4872
自此已後開至二十五位其術同前但	-12.4872
禮器曰縣鼓在西應鼓在東	-12.4872
鍵	-12.4872
之治堂下之樂象萬物之治荀卿以	-12.4872
二十二毫二百二十二絲二百二十二忽	-12.4872
五二九七三一五四七一七九六四七六	-12.4872
仲夾黄無林仲夾黄無林仲夾黄	-12.4872
十七萬七千一百四十七之數不可分又	-12.4872
四毫四絲八忽二	-12.4872
為一尺八寸三其法乃為六寸而得林鐘	-12.4872
為善曰此華夏舊聲雖隨俗改變大體	-12.4872
由消息未善其於	-12.4872
莱	-12.4872
長六寸二分四釐二毫九絲五忽	-12.4872
離而二之亦誤矣	-12.4872
黄鐘林鐘太簇圍徑各異	-12.4872
黄鐘鎛鐘林鐘特磬太簇鎛鐘南吕特磬	-12.4872
蒿	-12.4873
䑓	-12.4873
謐	-12.4873
艾如張上之回	-12.4873
煉	-12.4873
云以為權故有鼻也	-12.4873
十有三年舞勺成童舞象	-12.4873
呼逢一進一十得一	-12.4873
駔琮七寸鼻寸有半寸天子以為權	-12.4873
設席于堂亷東上	-12.4873
之内應用不同安得暴君縱	-12.4873
二十四毫六十九絲一十三忽	-12.4873
在心為志發言為詩	-12.4873
微末以象殺伐之氣	-12.4873
慰	-12.4873
箑	-12.4873
鷩	-12.4873
之外即為宫調中之	-12.4873
之外即為變宫調中之	-12.4873
之所不及故亦無所用也至於大吕之	-12.4873
也以為度者以為長短之度也則周家十	-12.4873
五百分以七百四十九為法除之得	-12.4873
以為夷則夷則之實五寸五分五釐一毫	-12.4873
其實得一寸七分七釐六毫三絲以為法	-12.4873
内收九分為一寸又收	-12.4873
分法雖不同其長短則一故隋志云寸數	-12.4873
堂下用陽辰之舞	-12.4873
大侯九十參七十干五十	-12.4873
差一分以為一管皆即以其長	-12.4873
律以一尺二寸即為市尺	-12.4873
律書此章所記分寸之法與他記不	-12.4873
昭云黄鐘徑三分皆無足怪者	-12.4873
来格来從皇靈顯融	-12.4873
祖詔以一黍之廣用成分體九十之黍黄	-12.4873
祭祀則龡而歌之燕亦如之	-12.4873
聲氣之元也班固所謂黄帝使伶倫取竹	-12.4873
開皇初調鐘律尺及平陳後調	-12.4873
鐘為宫大吕為角太簇為徴應鐘為羽	-12.4874
參分其鼓博以其一為	-12.4874
十分為一寸十寸為一尺十尺為一丈	-12.4874
寓於器則器異異虡見於文則文同同筍	-12.4874
林鍾夷則南呂無射應鍾五律	-12.4874
其第六弦第七弦散	-12.4874
千四百五十八為三分二餘分之多者為	-12.4874
吕而月令章句云徑三分何也孟康	-12.4874
小滿則仲吕六寸五分八	-12.4874
度而志至焉者也故詩之所言在志不在	-12.4874
律之下其誤字悉正之隋志引此章中黄	-12.4874
既醉而出並受其福醉而不出是謂伐徳	-12.4874
禮曰楷擊樂記曰聖人作為	-12.4874
邕之時未亂當親見之又曉解律	-12.4874
仲夾大無夷仲夾大無夷仲夾大	-12.4874
則取黄鐘林鐘太簇南吕姑洗應鐘六律	-12.4874
南授生分烏	-12.4874
吕水尺實比晉前尺一尺一寸八分六	-12.4874
疑七弦隔一調之六弦皆應	-12.4874
蕤姑大應南蕤姑大應南蕤姑大	-12.4874
分之法而増益班志八字以就其	-12.4874
九萬三千三百一十二為應鐘之實計	-12.4874
南蕤姑大應南蕤姑大應南蕤姑	-12.4874
佚	-12.4874
内志正外體直	-12.4874
考之此斛當徑一尺四寸三分六釐一毫	-12.4874
勁正莊誠之音作而民肅敬	-12.4875
以靈鼓鼓社祭以路鼓鼓鬼享	-12.4875
往驗管而飛灰已應	-12.4875
鍾大而短則其聲疾而短聞	-12.4875
黄帝張樂於洞庭之野	-12.4875
七毫四絲三忽一初四秒	-12.4875
世罕知音反以	-12.4875
也盖律管之長以九為本上下相生以三	-12.4875
五毫三百七十五絲二百三十五忽	-12.4875
圍九分累黍容受不能相通遂廢一黍為	-12.4875
夔之律圍徑差小而尺因以長荀朂雖	-12.4875
弦隱間九尺以應黄	-12.4875
律寸分以為與班固司馬彪鄭氏蔡邕杜	-12.4875
從可知矣律書獨舉寸法者盖已於生	-12.4875
所以為璧也裁其兩旁以益上下所以為	-12.4875
扑	-12.4875
正聲為角是月百物脩潔故用之宗廟合	-12.4875
毫三分二釐七毫二分三釐	-12.4875
法而鄭氏所用正法破一寸以為	-12.4875
肆夏昭夏納夏章夏齊夏族夏祴夏驁夏	-12.4875
驗使不失其實也	-12.4875
不能貫知權量之法	-12.4875
漢志謂黄鍾之律九寸加一寸	-12.4875
擊應笙之磬而笙亦應之也	-12.4875
曰伯氏吹塤仲氏吹箎	-12.4875
七十五毫八百二十三絲九百九十一忽	-12.4875
不可復見然古人所以制	-12.4875
之龠圍徑容受可取四者之法交相	-12.4875
大吕瑟大吕塤㽔賔瑟㽔賔箎大吕琴	-12.4875
無夷仲夾大無夷仲夾大無夷仲	-12.4875
磬大吕編磬㽔賔歌磬㽔賔編磬大吕笙	-12.4875
積八百一十分則其周徑可以數起矣	-12.4875
蕭吉云晉氏江東所用	-12.4875
大射有朔鼙應鼙	-12.4876
三分而去其乘適足以是生商	-12.4876
以致鬼神示以和邦國以諧萬民以安	-12.4876
升自西階北面東上坐小臣坐授瑟乃降	-12.4876
欽定四庫全書律呂闡微卷	-12.4876
紀之以三平之以六成於十二天之道也	-12.4876
不可為黄鐘而不知變至於六則數窮	-12.4876
佻	-12.4876
商之間隔一聲是合二聲	-12.4876
穯	-12.4876
以樂樂于賔賔許	-12.4876
卄	-12.4876
塗釁必周密布緹縵室中以木為案毎律	-12.4876
大饗不入牲其他皆如祭祀	-12.4876
工告樂備遂出	-12.4876
怱	-12.4876
為北鄙之聲其廢也忽焉	-12.4876
韋昭之時漢斛雖在而律不存矣康昭	-12.4876
黄大太夾姑仲蕤林夷南無應	-12.4876
九十六又生十一律亦有十二子聲	-12.4876
也朱子儀禮經傳十二律	-12.4876
募	-12.4876
容二千八百六十九	-12.4876
枯	-12.4876
無射子律聲短非夷則為	-12.4876
者鄭氏之言分寸審度之正法	-12.4876
音止調用相生之	-12.4876
髙祖遣毛爽	-12.4876
為條理亦可惜也房	-12.4876
七千六百七十二小分二百一十六為	-12.4876
十萬四千九百七十六為南吕之實計	-12.4876
㳟	-12.4876
樂云樂云鐘鼓云乎哉	-12.4877
仲春之月上丁命樂正習舞釋	-12.4877
八十八毫八百八十八絲八百八十八忽	-12.4877
分各二十七下生者去一去二十七餘	-12.4877
十一萬零五百九十二為夷則之實計	-12.4877
語曰大不踰宮細不過羽	-12.4877
變及半凡四十八聲上下相生最得漢志	-12.4877
鄭氏與太史公説不同	-12.4877
鐘為宫大吕為角太簇為徵應鐘為羽	-12.4877
又收二十七釐為三分又收	-12.4877
於房矣可謂目察秋毫而不見	-12.4877
一尺三寸三分四釐八毫三絲九忽八	-12.4877
闈	-12.4877
怨以怒其政乖亡國之音哀以思其民困	-12.4877
祖考來格虞賔在位羣后	-12.4877
凡祭與養老乞言合語之禮	-12.4877
樂者審一以定和	-12.4877
慢易以犯節流湎以忘本	-12.4877
曰雷出地奮豫先王以作樂	-12.4877
臉	-12.4877
十忽為絲十絲為毫十毫為	-12.4877
奏族夏客醉而出奏祴夏公出入奏驁夏	-12.4877
尺之十二寸有半寸	-12.4877
秫	-12.4877
五凡工尺上一四六勾合	-12.4877
奎	-12.4877
昏姻冠笄	-12.4877
浴	-12.4877
百五十七萬一千三百四十八分有竒	-12.4877
一毫有竒蕭吉云出	-12.4877
之數其分字以上者皆黄鐘之全數	-12.4877
九九八十一又以十因之為八百一十	-12.4877
仲太黄南林仲太黄南林仲太黄	-12.4877
典同掌六律六同之和以辨天地四方	-12.4877
律孔徑三分參天數也圍九分終天數也	-12.4877
新造鐘律時人並稱其精	-12.4877
變律者其聲近正而少髙於正律也	-12.4877
即角聲也四曰沙侯加濫華言應聲即變	-12.4878
之鳴其雄鳴為六雌鳴亦六	-12.4878
黄帝命營援作	-12.4878
嘻	-12.4878
謂之慢如此則國之滅亡無日矣	-12.4878
平底六孔水之數也中虚上	-12.4878
横黍為分之十寸也寸皆十分凡百分	-12.4878
鋭如秤錘然火之形也塤	-12.4878
信則十一律與度量權衡者得矣	-12.4878
岳内約有一肘	-12.4878
凡樂圜鐘為宫黄鐘為角太簇為	-12.4878
律空圍九分蔡邕銅龠銘亦云空圍九分	-12.4878
等不通律吕故康	-12.4878
華言斛牛聲即變宫聲也	-12.4878
解曰以此管而吹之其聲	-12.4878
譯因習而彈之始得七聲之正	-12.4878
批	-12.4879
砧	-12.4879
讒	-12.4879
削以嶧陽之桐	-12.4879
檿桑之絲徽以麗水之金軫以崑山之玉	-12.4879
衰麻哭泣	-12.4879
餳	-12.4879
六律六吕各有管故曰十二筒	-12.4879
分其實得一寸五分八釐七毫五絲六忽	-12.4879
鼓應笙之鐘而笙亦應之也	-12.4879
大鈞有鎛無鐘	-12.4879
當時以斗制律圍徑不及三分其尺遂長	-12.4879
其所以為廣狹長短者又莫不有自然之	-12.4879
分其甬長二在上一在下以設其旋	-12.4879
奸	-12.4879
如此則是惟黄鐘一律成律他	-12.4879
無從而生周之嘉量漢之銅斛皆不合其	-12.4879
累百滿尺即是㑹古實龠之外纔	-12.4879
蕤夾大應夷蕤夾大應夷蕤夾大	-12.4879
蛤	-12.4879
造銅圭影表者也四漢官尺	-12.4879
長三寸萬九千六百八十三分寸之六千	-12.4879
椅桐梓漆	-12.488
褥	-12.488
春入學舍菜合舞秋頒學合聲	-12.488
凡祭祀饗射共其鐘笙之樂	-12.488
郛	-12.488
春入學舍采合舞	-12.488
知樂則幾於禮矣	-12.488
蹄	-12.488
一清三濁卑不踰尺髙不越腹	-12.488
以一黍之廣度黍二縫以取一分	-12.488
倍應之聲靡不悉備	-12.488
剩	-12.488
大不出鈞重不過石律度量衡於是乎生	-12.488
律有隂陽上下相生故曰黄鍾之宫	-12.488
樂行而民鄉方	-12.488
祭祀則鼓羽籥之舞賔客饗食則亦如之	-12.488
調之四則次聲不變	-12.488
調之四則次聲變變	-12.488
黽	-12.488
京房之見則是矣至於轉生	-12.488
仲太黄無林仲太黄無林仲太黄	-12.488
六萬五千五百三十六為仲吕半之實計	-12.488
南林姑太黄南林姑太黄南林姑	-12.488
増夫仲吕上生不成黄	-12.488
必用倍數乃與天地之氣相應其寸分	-12.488
者不可増而於卦者不可	-12.488
聲長非南吕三分去一之次故用子聲為	-12.488
醻	-12.488
則長累九十黍廣容一千二百黍矣	-12.488
翹横吹之小者尺二寸	-12.4881
作器也器則卑而在下作器者尊而在上	-12.4881
戞擊鳴球摶拊琴瑟	-12.4881
如鳴鳥在樹	-12.4881
全有四清宮懸甫接徴招可聽	-12.4881
古者造笙以曲沃之匏	-12.4881
不周多寡不例其與反生黄	-12.4881
之管也以黄鐘九寸分為	-12.4881
倍之為八寸分寸之一百	-12.4881
徳皆可歌也謂之九歌	-12.4881
管長五寸三分律長五寸三分寸之一	-12.4881
莫不和順夫以一器之成而功化之敏	-12.4881
萬八千八百六十四以三分之又不盡一	-12.4881
刈	-12.4881
鼠	-12.4881
大鼗謂之麻小者謂之料	-12.4881
聦	-12.4881
鑢	-12.4881
下上為正調下為清調	-12.4881
命樂正習舞釋菜	-12.4881
奏肆夏公卒爵主人升受爵以下而樂闋	-12.4881
摛	-12.4881
蒯	-12.4881
陿	-12.4881
動已而天地應焉	-12.4881
濤	-12.4881
為宮太簇為角姑洗為徴南呂為羽	-12.4881
矣由之不才也	-12.4881
脅	-12.4881
倍之為七寸分寸之一千七十五	-12.4881
四寸七分律長四寸二十七分寸之二十	-12.4881
律長三寸二千一百八十七分寸之一千	-12.4881
相去五十百歩之間耳意者房之所	-12.4881
者一百六十二萬一斗積一百六十二寸	-12.4881
於堂上事成而下	-12.4882
奏肆夏賔拜酒主人	-12.4882
胎	-12.4882
輦	-12.4882
問河右先生先生	-12.4882
一曰婆陁力華言平聲即宫聲也二曰	-12.4882
宮大呂為角太簇為徴應	-12.4882
由此之義起十二律之周徑	-12.4882
管長四寸九分律長四寸六	-12.4882
言之不足故嗟嘆之嗟嘆之不足故	-12.4882
分各十六上生者益一加十六於四十八	-12.4882
管長八寸八分法云三分	-12.4882
珮	-12.4883
挎越内弦右手相樂正先升立	-12.4883
畿	-12.4883
纍纍乎端如貫珠	-12.4883
五百五十八分九百七十五釐	-12.4883
欲于七聲之外加一黄	-12.4883
之二四寸二百四十三分寸之五十	-12.4883
分八百七十一釐八百	-12.4883
四十零五之少宫位	-12.4883
姑太黄南林姑太黄南林姑太黄	-12.4883
嫦	-12.4883
弦為南吕與第十弦散聲應按第	-12.4883
擫	-12.4883
東鄰殺牛不如西鄰之	-12.4883
椅	-12.4883
鍼	-12.4884
姊	-12.4884
磬階間縮霤北面鼓之	-12.4884
凖則莫若且多截竹以擬黄	-12.4884
截管為律吹以攷聲列以候氣道之本也	-12.4884
所以獻酬酳酢也所以官序貴賤各得其	-12.4884
歌騶虞若采蘋皆五終	-12.4884
傳稱黄帝命伶倫㫁竹長三寸九分而吹	-12.4884
驗苟聲和氣應則黄	-12.4884
妬	-12.4884
衙	-12.4884
致樂以治心則易直子諒之心油然生矣	-12.4884
龠容千二百黍重十二銖兩之為兩二十	-12.4884
擊拊瞽乃歌也	-12.4884
下生無射為商上生仲	-12.4884
為商下生無射為羽上生仲	-12.4884
為下法用開方歸除法除之於	-12.4884
羽者嫗伏毛者孕鬻	-12.4884
則先歌周禮所謂登歌令奏擊拊是也	-12.4884
暢故不可用上而及半然後屬	-12.4884
人不耐無樂樂不耐無形形而不	-12.4884
埋於子位上頭向南	-12.4884
寸八寸皆為尺矣	-12.4884
禎	-12.4884
笮	-12.4884
頀	-12.4884
兩聲相和為用而以	-12.4884
十六之而銑取其十以為度則銑徑	-12.4884
小大器用於是乎出	-12.4884
攜	-12.4885
射左射貍首右射騶虞而貫革之射息也	-12.4885
愾	-12.4885
人心之動物使之然	-12.4885
塚	-12.4885
聲長非無射三分去一之次故用子聲為	-12.4885
大凶大烖大臣死凡國之大憂令弛	-12.4886
冕而舞大武皮弁素積裼而舞大夏	-12.4886
行其綴兆要其節奏	-12.4886
清調以商為主平調以角為主	-12.4886
九十六絲三百五十一忽	-12.4886
人而不仁如禮何人而不仁如樂何	-12.4886
春饗孤子秋食耆老	-12.4886
涵	-12.4886
質五色皆備成章者也	-12.4886
閠	-12.4886
鬆	-12.4886
一徽四徽七徽十徽十三	-12.4886
按彈外散扣内	-12.4886
煜	-12.4886
黄帝之後於薊封帝堯之後於祝封帝	-12.4886
為分者一千六百二十則黄鐘	-12.4886
拊形如鼓以韋為之著之以穅	-12.4886
作五弦之琴以歌南風	-12.4886
其説乃是以律之長自乘而因之以十	-12.4886
者形類羅圈而	-12.4886
黄仲無夾夷大㽔應姑南太林黄仲無夾	-12.4887
璋	-12.4887
后稷以配天宗祀文王於明堂以配上帝	-12.4887
五分六釐七絲四忽五初三秒	-12.4887
閩	-12.4887
為鼓而辨其聲用以雷鼓鼓神祀	-12.4887
訶	-12.4887
凡射王奏騶虞諸侯奏貍首	-12.4887
擢	-12.4887
杴	-12.4887
裴正以為舜開七始周制七音並不用八	-12.4887
軼	-12.4887
慧	-12.4887
木倨中矩句中鉤纍纍乎端如貫珠	-12.4887
蜼	-12.4887
襯	-12.4887
謎	-12.4887
髦	-12.4887
間若一者重節	-12.4888
書所謂搏拊是也其用	-12.4888
第四弦按第十徽彈之令與笙音相同是	-12.4888
浙	-12.4888
蕞	-12.4888
邏	-12.4888
之和十九管之巢三十六簧之竽二十五	-12.4888
商者五帝之遺聲也商人識之故謂之商	-12.4888
以見度非度無以見律律不生於度與黍	-12.4888
饁	-12.4888
挨	-12.4888
若堅若脆若勁若韌若實若	-12.4888
蕤大夷夾無仲黄	-12.4888
龔	-12.4888
左手吹畢置於右手復取一律吹之	-12.4889
三十三毫五百四十八絲一百七十五忽	-12.4889
亰	-12.4889
奏也繼大吕以夷則	-12.489
澮	-12.489
象兵還振旅	-12.489
疵	-12.489
若豕之負駭	-12.489
凡樂官掌其政令聽其治訟	-12.489
天地訢合隂陽相得	-12.489
胎生者不殰卵生者不殈	-12.489
調如頭一聲是宫聲尾後一聲亦是宫聲	-12.489
北周長孫紹	-12.489
為徵則林鍾為宫應鍾為羽則太蔟為宫	-12.489
菆	-12.489
大射樂人宿縣于阼階東笙磬西	-12.489
拌	-12.489
歌箜篌觱篥埒竽大胡笳	-12.489
熱	-12.489
胡篪小胡笳中鳴角齊鼓擔鼓毛貟鼓舞	-12.489
蠡銅鈸銅鼓都曇鼓	-12.489
而升堂升堂而樂闋	-12.489
傚	-12.489
奏太簇歌應鐘舞咸池以祭地	-12.489
裓	-12.489
柵	-12.4891
隂陽相生自黄鐘始而左旋八八為伍	-12.4891
為商上生姑洗為羽下生應	-12.4891
孽	-12.4891
凡四方之以舞仕者屬焉	-12.4891
之聲東北隅之鼓合	-12.4891
後周以十二鎛相生擊之	-12.4891
稜	-12.4891
閹	-12.4891
餼	-12.4891
姒	-12.4891
聯	-12.4891
工不興左瑟一人拜受爵主人	-12.4891
罩	-12.4891
殿中候用玉律十二	-12.4892
百獸率舞商頌既和且平依我磬聲周禮	-12.4892
串	-12.4892
莞	-12.4892
大喪廞其樂器奉而藏之	-12.4893
鋝	-12.4893
建鼔在阼階西南鼔應鼙在其東	-12.4893
四寸零以四寸之管而施七孔何荒唐也	-12.4893
拊為之父堂下則門外之治以鼓為之君	-12.4893
最大而沈濁者	-12.4893
杭	-12.4893
遮	-12.4893
稀	-12.4893
其按習也令左右手互應清	-12.4893
弑	-12.4893
柱子右手彈中聲十二左手彈清聲十二	-12.4893
投殷之後於宋	-12.4893
賅	-12.4894
殁	-12.4894
宙	-12.4894
腕	-12.4894
瞎	-12.4894
鼓人凡祭祀百物之神鼓兵舞帗舞	-12.4894
復用倒載干戈包之以虎皮將帥之士使	-12.4894
曰建櫜然後天下知武王之不復用兵也	-12.4894
隂而不宻剛氣不怒柔氣不懾	-12.4894
不拜受爵坐祭立飲辯有脯醢不祭	-12.4894
夷樂作於國門右辟	-12.4894
星三辰七宿從祀	-12.4894
鐻	-12.4894
不為燥濕寒暑	-12.4895
濟河而西馬散之華山之陽而弗復	-12.4895
舜之後於陳下車而封夏后氏之後於	-12.4895
醇	-12.4895
其銘曰時文思索允臻其極	-12.4895
凡建國禁其淫聲過聲凶聲慢聲	-12.4895
望敵知吉凶聞聲效勝負	-12.4895
頻	-12.4895
廐	-12.4895
深尺内方尺而圜其外其實一鬴	-12.4895
脂	-12.4895
楰	-12.4895
耽	-12.4895
主人拜送爵階前坐祭立飲不拜既爵升	-12.4895
挹	-12.4895
萬壑松濤	-12.4895
面其南笙鐘其南鑮皆南陳	-12.4895
𡨕	-12.4895
凡日月食四鎮五嶽崩大傀異	-12.4896
繭	-12.4896
謂度本起於黄鍾之長	-12.4896
與人歌而善必使反之而後和之	-12.4896
為物之至精不為燥濕寒暑變其節不為	-12.4897
大雩帝用盛樂	-12.4897
有六孔七孔八孔十孔之説	-12.4897
讎	-12.4897
諳	-12.4897
律管圖各施七孔	-12.4897
或云當如簫然第剜其脣以被吹已耳	-12.4897
戡	-12.4897
盡筋骨之力	-12.4897
賔入大門而奏肆夏	-12.4897
遶	-12.4897
復亂以飭歸	-12.4897
棊	-12.4897
耘	-12.4897
卒歌主人獻工工左瑟一人	-12.4897
前其柱則清後其柱則濁	-12.4898
禮義立則貴賤等	-12.4898
故曰樂觀其深矣	-12.4898
戻	-12.4898
聞諸萇𢎞亦若吾子之言	-12.4898
司樂掌成均之法以治建國之學政	-12.4898
可以語可以道古	-12.4899
宜陽金門山竹	-12.4899
爾雅肉倍好謂之璧	-12.4899
宋陳𤾉撰樂圗論吉禮	-12.4899
黄南無黄六工	-12.4899
􁋦	-12.4899
祧	-12.4899
大昭小鳴和之道也	-12.4899
然後諸侯知所以敬五者天下之大	-12.4899
子曰若非武音則何音也對曰有司失其	-12.4899
身則葉與身皆	-12.4899
宋元徽三年儀註奏	-12.4899
酇	-12.4899
二分五釐七毫三絲二忽五微五纎	-12.49
尸出入則令奏肆夏牲出入則令奏昭夏	-12.4901
濡	-12.4901
仰瞻勢表親愛	-12.4901
宣八年辛巳有事于	-12.4901
煑	-12.4901
窮髙極遠而測深厚	-12.4901
舉旌以宮偃旌以商	-12.4901
誚	-12.4902
囚使之行商容而復其位庶民弛政庶士	-12.4902
釘	-12.4902
寃	-12.4902
堕	-12.4902
擔	-12.4902
擊至夷則以下四管為宫之時臣民相越	-12.4902
曵	-12.4902
第二弦按第十徽彈之令與笙音相同是	-12.4902
籥入叔弓卒去樂卒事	-12.4902
聳	-12.4904
謔	-12.4904
杵	-12.4904
兖	-12.4904
以今等子校之為	-12.4904
黻	-12.4905
頑	-12.4905
鷖	-12.4905
膋	-12.4905
寰	-12.4905
􁋡	-12.4905
□􁕱□􁕔□	-12.4906
畸	-12.4906
詮	-12.4906
樂則以柷將之賜伯子男樂則以鼗將之	-12.4906
劾	-12.4906
北鎮毉巫閭	-12.4906
挫	-12.4906
訕	-12.4906
毒	-12.4908
豝	-12.4908
氐	-12.4908
團	-12.4908
毦	-12.4908
六黄宫清聲之宫聲髙於羽	-12.4908
駰	-12.4909
之律固起於龍齦而為	-12.4909
擴	-12.4909
么	-12.4909
椑	-12.4909
畔	-12.491
舜祠下得白玉琯	-12.491
嘖	-12.4911
除吏二千石到六百石及	-12.4911
樽酒簋貳	-12.4911
揜	-12.4912
祔	-12.4912
吼	-12.4912
絃之分轉為宫立宫位以主調遂為	-12.4912
僮	-12.4913
大學衍義補	-12.4913
綾	-12.4913
徼	-12.4913
徽黄鐘清應六絃散聲	-12.4913
蚡	-12.4913
莒	-12.4915
捺	-12.4915
簠	-12.4915
臨事而屢斷	-12.4915
氣候晷刻	-12.4915
栢	-12.4915
譔	-12.4915
赳赳武夫公侯	-12.4915
熏	-12.4916
蓼	-12.4916
舡	-12.4916
酤	-12.4916
芮	-12.4916
列管匏中施簧管端	-12.4917
驛	-12.4917
芻	-12.4919
堙	-12.4919
不以規矩不能成方圓	-12.4919
亾	-12.4919
郕	-12.492
周以木徳王天下	-12.492
迅	-12.492
借古語擬弦音猶詞家填腔也	-12.492
濵得古磬十六枚	-12.4924
賣	-12.4924
穋	-12.4927
岡	-12.4927
斨	-12.4927
齎	-12.4928
吠	-12.4929
笏	-12.4929
嬉	-12.4931
痛	-12.4931
綘	-12.4931
馨	-12.4931
奭	-12.4931
寂	-12.4932
奨	-12.4934
碑	-12.4937
鼓大而短則其聲疾而短聞	-12.4937
悽	-12.4937
第五弦按第十徽彈之令與笙音相同是	-12.4941
些	-12.4944
棬	-12.4947
第一弦按第十徽彈之令與笙音相同是	-12.4952
其袤一尺而廣狹焉	-12.4952
帑	-12.4954
若樂八變則地示皆出可得而禮矣	-12.4956
苹	-12.4957
窟	-12.497
圃	-12.4977
諼	-12.4977
栩	-12.4997
駸	-12.5064
眡瞭掌凡樂事播鼗擊頌磬笙磬	-12.5182
亞飯干適楚三飯繚適蔡四飯缺適秦	-12.5388
八分八釐四毫八絲以為無射	-12.5496
斛銘曰律嘉量斛方尺而	-12.5962
無夾夷大㽔應姑南太	-12.624
其商角羽並無其韻若以仲	-12.653
夾無仲黄林太南姑應㽔大夷夾無仲黄	-12.688
射長四寸六千五百六十一分寸之六千	-12.7286
三百一十二除之所得億約為寸得	-12.7743
郷	-12.7978
㽔應姑南太林黄仲無夾夷大㽔應姑南	-12.8066
柎	-12.8103
羽析白羽為之形如帗	-12.8135
大二寸半徑八分分之少半長三丈二尺	-12.8135
十一律皆不應三分損益之數其失又甚	-12.8138
裾	-12.8139
周之出師有太史抱天時	-12.8141
凊	-12.8145
噪	-12.8145
為均用五聲之法以下十一辰	-12.8148
曰王之好樂甚則齊	-12.8151
骹	-12.8151
石彈絲以和天下掜擬之八風	-12.8153
受穀九升三合八分合之一	-12.8155
蕤夷無黄大夹仲	-12.8155
也大師教中聲所止之詩以	-12.8156
君子學道則愛人小人學道則易使	-12.8157
郁	-12.8159
大喪廞樂器大旅亦如之	-12.8159
大師則教六詩而已是尊者其治	-12.8159
□􁕚□􁕙□□􁕙□□􁕚□􁕙□	-12.816
蟬	-12.816
歌磬編磬夾鐘笙笙	-12.8161
歌鐘編鐘夾鐘歌磬編磬	-12.8161
堉	-12.8163
贊畢舉麾而後擊柷柷第一聲	-12.8163
恁	-12.8163
我有嘉客亦不夷懌	-12.8164
大師執同律以聽軍	-12.8164
水之重則名比於一	-12.8164
又推九六欲符劉歆三統之	-12.8165
䆒	-12.8165
藪	-12.8166
元氣始起於子未分之時	-12.8166
某在斯某在斯	-12.8166
執越樂記曰清廟之瑟朱	-12.8167
以肆夏趨以采薺凡馭路儀以和	-12.8167
先儒謂磬在東曰笙笙生也在西曰	-12.8168
芰	-12.8168
簫簫姑洗簫簫姑洗拊鼗	-12.8168
貍之為物其性善搏其行則止而擬度焉	-12.8169
應先天八卦横圗	-12.817
欄	-12.817
班然執女手之卷然豈貍首之歌邪貍首	-12.817
衽	-12.817
所以奏采薺也出撞陽	-12.8171
易序卦物不可以終動之意也入撞	-12.8171
斛而五量嘉矣其法用銅方尺而	-12.8171
周禮典同掌六律六同之和以辨	-12.8172
凡欲習古樂者必先擇一	-12.8172
簫簫無射簫簫無射拊鼗	-12.8172
曰禮也者理也樂也者節也君子	-12.8172
無理不動無節不作	-12.8172
半聲夷則南吕五半聲無射應鍾六半聲	-12.8173
鐘歌鐘編鐘仲吕歌磬編磬	-12.8173
屬鐘柄所以縣之也	-12.8174
鐘歌磬編磬仲吕笙笙	-12.8174
鐘瑟篪仲吕琴篴	-12.8174
歌磬編磬姑洗歌磬編磬	-12.8174
感則一扇自動他扇自	-12.8175
堿	-12.8175
薺豈主出言之邪禮記趨以采薺先	-12.8175
行以肆夏豈主入言之邪大戴禮言	-12.8175
噲	-12.8176
九七之數也二十一者三七之數也	-12.8176
𠂻	-12.8176
如用之則吾從先進	-12.8176
遡洄從之道阻且	-12.8176
夫左手吟猱綽注右手輕重疾徐古所謂	-12.8176
以為稱錘以起量	-12.8176
捻	-12.8176
鍾散聲即夾鍾五弦仲吕為	-12.8176
鐙	-12.8176
四九八六八六八七九二六	-12.8177
六分六釐六毫六絲六忽六微六纖	-12.8177
故黄鍾獨為聲氣之元雖十二律	-12.8178
所以藩屏民則也	-12.8178
藭	-12.8178
遡游從之宛在水中	-12.8178
八十一為正度而又取吹口三分之説以	-12.8178
夫政象樂樂從和和從平	-12.8178
律由聲制非由度出	-12.8178
羽九六相生隂陽之應也	-12.8178
為門之位外之以子中之以午内復以子	-12.8179
云唯君臣民不可相陵事物則不必避	-12.8179
四寸半也若後四宫用黄	-12.8179
為角徵商羽則以四清聲代之不可用黄	-12.8179
簫簫夷則簫簫夷則拊鼗	-12.8179
之中合也故律不過六而聲亦不過五其	-12.8179
左氏國語是不知夏書之在治忽有五聲	-12.8179
左氏者求其説不得而遂傅㑹之邪	-12.8179
日在析木之津辰在斗柄星在天黿	-12.8179
葛天氏之樂三人操	-12.818
大祝迎神于廟門奏	-12.818
宁	-12.818
從之純如也皦如也繹如也以成	-12.818
行三寸呼吸定息	-12.818
和二曰容三曰主皮四曰和容五曰興舞	-12.818
文之以禮樂亦可以為成人矣	-12.818
宫中央長夏之管為地宫國語有四宫之	-12.818
中凡聽商如離羣羊凡聽角如雉登木	-12.818
八句共計三十二字其間用中聲之宫者	-12.818
合黄徴中聲之徵聲低於宫	-12.818
歌磬編磬夷則歌磬編磬	-12.8181
格于上者也咸池堯之地道	-12.8181
雲門大章大卷堯之天道	-12.8181
於赫湯孫穆穆厥聲庸鼓有斁萬舞有	-12.8182
睹	-12.8182
商功曰當今大司農斛	-12.8182
既在大鼓之旁此應鼓在東乃與縣鼓	-12.8182
深一尺積一千四百四十一寸十分	-12.8182
律管只吹得中聲為定	-12.8182
纖有竒比黄鍾正律少一分	-12.8182
四五二右乃太蔟倍律積	-12.8182
字用中聲之商者八字用中聲之角者	-12.8182
老之珍具遂	-12.8182
辠	-12.8182
之外故以變目之京房因中吕還生黄鍾	-12.8183
武有四名曰羽曰厲曰宣曰嬴亂而其調	-12.8183
竹之管空桑之琴瑟咸池之舞夏	-12.8183
安取仁義性情不離安用禮樂	-12.8184
奏鼓簡簡衎我烈祖湯孫奏假綏我思成	-12.8184
五聲為六十調若合符節何也曰即上文	-12.8184
數由天五地六錯綜而生律吕之數由黄	-12.8184
五聲究於六十亦三十六為陽二十四為	-12.8184
禮主其减樂主其盈	-12.8184
袷	-12.8184
是有煩手淫聲慆堙心耳乃忘	-12.8184
書九位天地之用數也是故	-12.8184
河圖十位天地之體數也	-12.8184
為情稽之度數以為文制之禮義以為節	-12.8184
若謂用周尺或羊頭山黍雖應	-12.8184
鼓之小師播之瞽矇吹之笙師則簫	-12.8184
執爵興主人阼階上答	-12.8184
壊角亂則憂其民怨	-12.8184
過制則亂過作則暴	-12.8184
各當其辰斜埋地下入地處	-12.8184
理必有對待數之自然也以天五地六合	-12.8185
而生二者不同至數之成則日有六甲辰	-12.8185
大章之實也其智如神	-12.8185
敬心感者其聲直以廉	-12.8185
於黄帝至堯修而用之然後一代之樂備	-12.8185
餘數又以絲法三除之得	-12.8185
懊	-12.8185
其卒無尾其始無首	-12.8186
五聲各為綱紀以成六十調六十調皆黄	-12.8186
損益之變也宫商角三十六調老陽也其	-12.8186
五子究於六十其三十六為陽二十四為	-12.8186
同者熊氏云大射謂射禮也此謂祭禮也	-12.8186
鸎	-12.8186
德蔑以加於此矣	-12.8186
燾繼其地道如地之無不持載雖甚盛	-12.8186
王以二月癸亥夜陳未畢而雨	-12.8186
陬	-12.8186
凡軍之夜三鼜皆鼓之守鼜亦如之	-12.8186
則不得中聲終不是大抵聲太	-12.8186
天之中數五五為聲聲上宫	-12.8186
著其用也或有約九而為十者存其體也	-12.8186
也深尺積一千六百二十者以十而登也	-12.8186
取爼還授弟子弟	-12.8186
奮至徳之光動四氣之和以著萬物之理	-12.8186
位埋律管使其端與地齊而以薄紗覆之	-12.8186
故三分損益之法可廢而九分為寸之	-12.8187
崇牙而無璧翣至周則極文而三者具矣	-12.8187
氣類物吕以旅陽宣氣	-12.8187
王大食三侑皆令奏	-12.8187
雲土者歟瞽矇掌鼓琴瑟詩鹿鳴鼓瑟	-12.8187
焉是帝樂莫備於堯舜而王樂至三王	-12.8187
琴瑟之用各以聲類所宜雲和陽地也	-12.8187
行於十二辰始動於子又曰	-12.8187
蘧	-12.8187
囿	-12.8187
復為他律役所用七聲皆正律無空積忽	-12.8187
敦和率神而從天禮者别宜居鬼而從地	-12.8187
邶	-12.8187
之數五百一十二以三分之又不盡二	-12.8187
取聲而其布徽之法則當	-12.8187
少律管之長短而三分損益上下相生以	-12.8187
於自然之法象懵不知其所	-12.8187
柩	-12.8187
簥	-12.8187
簫簫黄鐘簫簫黄鐘拊鼗	-12.8187
為子之氣而含少為子初四刻之氣也所	-12.8187
羸	-12.8187
宜於宗廟奏之顓帝生處空桑伊尹生	-12.8187
實音為仲吕散聲即大吕四弦夾鍾為	-12.8187
之道所以具異乎堯之所謂備也	-12.8188
天高地下萬物散殊而禮制行矣	-12.8188
子即黄鍾也一分者總為一	-12.8188
張指法俗呼緊羽調之	-12.8188
昔議者以房中歌后妃之徳	-12.8188
桉	-12.8188
舞干戚語説命乞言皆大樂正授數	-12.8188
釋奠東序釋奠西序釋菜合舞頒學合聲	-12.8188
亦下俚立成之小數	-12.8188
歌磬編磬太簇歌磬編磬	-12.8188
簫簫太簇簫簫太簇拊鼗	-12.8188
革木以節之物得其常曰樂極	-12.8188
九德六詩之歌以役大師	-12.8188
後鐘以應之故虞書論堂下之樂以鼗	-12.8188
簫而非簫十二月之音也周官之於簫管	-12.8188
一宫二商三角四變徵五徵六羽七變宫	-12.8188
三一一二五即夾鍾正律	-12.8188
三十七釐四十七毫二十五絲八十六忽	-12.8188
五寸九分二釐五毫九絲二忽五微九纖	-12.8188
哀心感者其聲噍以殺	-12.8188
祉於徴章於商宇於羽故四聲為宫紀也	-12.8188
二分一釐六毫三絲八忽四微一纎	-12.8189
又依淮南累粟十二成寸明先王制法索	-12.8189
以初歴宫調中之數當九故	-12.8189
羽而得之也以九變之位成十三奏之樂	-12.8189
云便其先擊小後擊大	-12.8189
均者斷兩節間而吹之以為黄鍾之宫	-12.8189
其數又不行此變聲所以止於二也	-12.8189
分五聲之位而配以當位之律以待抑按	-12.8189
合四一上勾尺工凡六五	-12.8189
事于太廟萬入去籥則宗廟用干與羽	-12.8189
國風篇也王后國君夫人房中之樂歌也	-12.8189
師凡祭祀鼓其金奏之樂	-12.8189
管異器而同用要皆堂下之樂	-12.8189
聖人作易參天兩地而倚數因	-12.8189
聲律太髙歌者難逐故四清聲置而	-12.8189
卑不踰尺髙不越腹	-12.8189
審其容以子穀秬黍中者千有二百實其	-12.8189
炫	-12.8189
一此皆古人命黄鍾為一尺之明證也	-12.8189
之以雷霆奮之以風雨	-12.8189
二分二釐二毫七絲二忽四微六纎	-12.8189
先王立樂之方也鄭氏謂先擊鐘次擊	-12.8189
八寸八分七釐七毫四絲八忽六微二纎	-12.8189
大麗而象天鐘統實而象地天先而地	-12.8189
孔子曰射者何以射何以聽循聲而	-12.8189
悞	-12.8189
掌播鼗柷敔塤簫管弦歌	-12.8189
東房戛敔樂止	-12.8189
柱為應鍾第七弦六尺三寸三分設柱為	-12.8189
登歌擊拊下管擊應鼔徹歌大饗亦如之	-12.8189
飴	-12.8189
先度一矩為句一矩為股而求其弦	-12.819
周鬴方尺者八寸之尺深尺者十寸之尺	-12.819
得八十一以天地五位之合終於十者	-12.819
夫五降之後更有變宫變	-12.819
然須多得擇取好者可也一二枚錢不足	-12.819
則清一律唇俯則濁一律仰而急者	-12.819
安排初聞此語不曉其義及聞何瑭之説	-12.819
解之恐非古人立法	-12.819
闋王乃命公侯伯子男及羣吏曰反養老	-12.819
仁言不如仁聲之入人深也	-12.819
以為樂在於鐘鼓則鐘鼓樂之	-12.819
八釐五毫二分七釐二毫無射長五寸六	-12.819
於小師播之於瞽矇吹之於笙師辨其聲	-12.819
照獨任所見更造新器而新聲極下	-12.819
班管以合日月星辰之㑹帝嚳	-12.819
管象簫長尺圍寸八孔無底	-12.819
觸也物觸地而出戴芒角也宫中也居中	-12.819
鍾聚百嘉具備	-12.819
八十九釐七十四毫三十七絲六十六忽	-12.819
左手輕擊為拊右手重擊為搏	-12.8191
而知勝負不待戰而決	-12.8191
婉	-12.8191
周家八寸十寸皆為尺	-12.8191
天之數始於一終於二十	-12.8191
紀之以三故置一得三又二十五分之六	-12.8191
安上治民莫善於禮	-12.8191
之參天之數也金隂也而四之兩地之數	-12.8191
周官笙師掌教吹籥簫箎篴管	-12.8191
孝武之世始行五銖下洎隋朝多以五銖	-12.8191
實重八銖漢初四銖其文亦曰半	-12.8191
猾	-12.8191
世歌曰享神歌奏可	-12.8191
亦從上商六得三千六百	-12.8191
使王粲改作登歌安世及巴渝詩而已	-12.8191
别為四坤降為二咸又降為一亦此意也	-12.8191
去籥弛架徹架	-12.8191
及嬴内以無射之上宫布憲施舍於百姓	-12.8191
四寸七分小分四微强	-12.8191
均利百官噐用程度庶品使皆應其禮復	-12.8191
尺度之中當依漢錢分寸若以	-12.8191
故其治民勞者其舞行綴	-12.8191
文帝已改安世為正始而襲至是又改	-12.8191
每律各一内庳外	-12.8191
毫二分八釐八毫夷則長六寸二分九釐	-12.8191
瓦絲尚宫匏竹尚議革木一聲	-12.8191
用弦求勾股之術得其	-12.8191
若字字如此引長窮日之力不足以給矣	-12.8191
遂依周法以秬黍校定尺度長九寸	-12.8191
都良管以一天下之音	-12.8191
菴	-12.8192
藍	-12.8192
本八十一益以三分之一二十七通前	-12.8192
林鐘長六寸圍六分以圍乗長得	-12.8192
者倍其實三其法上生者四其實三其法	-12.8192
六二二五一右乃夾鍾倍律積	-12.8192
在律為尤彊在吕為	-12.8192
狀如瑟長丈而十三	-12.8192
之數五十七主五月上生大吕	-12.8192
二六二四七三七一八二九	-12.8192
以三為一秒則得秒者	-12.8192
以奏九夏是徒知鐘鼓之文	-12.8192
先擇聲與黄鍾相似之簧令彼	-12.8192
六寸三分小分二微强	-12.8192
則徴濁而宫清雖有其韻不成音曲若以	-12.8192
周漢然亦可謂治安之世矣今朝廷必求	-12.8192
毫六十五絲四十五忽三十九微一十二	-12.8192
為黄鍾之清聲十二聲中旋用七聲為均	-12.8192
無射第六弦六尺六寸八分設柱為	-12.8192
磬有鼓而已其為諸侯則軒縣	-12.8192
與見在黄鍾之聲相應以上下相生之法	-12.8192
言天地之道下經言人道而元亨利貞之	-12.8192
詔和峴等用景表尺典	-12.8192
議者以為迂誕罷之	-12.8192
鐘之龠亦無由可得其實	-12.8192
長二分有竒比景表尺短四分既前代未	-12.8192
六為律律有形有色色上黄	-12.8192
子張問政孔子對之	-12.8193
疾首蹙頞而相告曰吾王之好	-12.8193
至於此極也父子不相見兄弟妻子離散	-12.8193
君尊故有鐘鼓大夫士卑特用鼓	-12.8193
介幘生黄袍單衣白合幅袴	-12.8193
得全毫約以絲法則夾鍾無射得全絲	-12.8193
生徴徴下生商商上生羽羽下生角	-12.8193
絳袍單衣絳領袖	-12.8193
六律髙低圜浹而其聲始真真者正也且	-12.8193
壷	-12.8193
駔讀為組以組繫之因名焉	-12.8193
一升乃二十龠以二十龠為法	-12.8193
三其三得九以分其法	-12.8193
之看如何大小者方應其數然後為正	-12.8193
可知矣有唐享國三百年其制作	-12.8193
商之為言章也物成孰可章度	-12.8193
四毫三分二釐四毫二分二釐九毫	-12.8193
地者也故其合降而為三黄	-12.8193
大泉錯刀貨布貨泉	-12.8193
夫宫音之主也第以及羽故樂	-12.8193
宫生角角生商商生徴徴生羽羽生宫	-12.8193
我太祖后稷之所經緯也	-12.8193
既非月令之義又與淮南不合	-12.8193
樂譜一字例引十餘聲	-12.8193
正以從周漢之制王	-12.8193
為太蔟第十弦五尺三寸四分設柱為南	-12.8193
無朔猶儀禮之𤣥酒周禮之明水	-12.8193
盡故曰有四十六日而立	-12.8193
禮樂之施於金石越於聲音用於宗廟	-12.8193
聲出於脾合口而通之謂之宫	-12.8193
謀則可且依景表舊尺俟有妙	-12.8193
金石七十年間薦之郊廟稽合唐制以示	-12.8193
銅齊而聲稍清歌乃協然照卒莫之辨	-12.8193
九寸以三分為損益故以三	-12.8193
分寸之一萬二千九百七十四合之為仲	-12.8193
實得五十二萬四千二百八十八以為法	-12.8193
律之面幂置七八五三九八一六二五以	-12.8193
日有食之鼓用牲	-12.8193
無射長四寸九分小分九强	-12.8193
韻中字每讀字唱字訖必	-12.8193
弦為仲呂與第六弦散聲應按第	-12.8194
以葭莩灰抑其内端	-12.8194
易吹一管一音無事假借而籥	-12.8194
鼓在阼階西南鼓則其所建楹	-12.8194
出乎器入乎覺而	-12.8194
十二均合八十四調歌奏之曲由之出焉	-12.8194
同位娶妻隔八生子	-12.8194
寸依隋書定尺十五種上之藏于太常寺	-12.8194
錢之類不聞後世復有鑄者臣等	-12.8194
二十六為八十一分寸之二十六合之為	-12.8194
十二粟而當一分十二分而當一銖	-12.8194
律吕有可求之理徳性淳厚者必能知之	-12.8194
數則氣節亦未易正也	-12.8194
用四十七萬二千三百九十	-12.8194
用四百八十六得八十一者六為六寸	-12.8194
苽	-12.8195
奏之以隂陽之和燭之以日月之明	-12.8195
於此百姓聞王車馬之音見羽旄之美舉	-12.8195
行中規還中矩和鸞中采	-12.8195
得二凡三十置終地之數得六十以地中	-12.8195
拊之為器韋表糠裏	-12.8195
下從火立上用金成	-12.8195
出於肺開口而吐之謂之商	-12.8195
如今俗樂亦只有宫商羽三調而已	-12.8195
山川以干社稷以帗四方以羽旱暵以皇	-12.8195
按歴而候之氣至則吹灰動素	-12.8195
為徵無射起宮無射之徵	-12.8195
著不息者天也著不動者地也	-12.8195
三月不知肉味曰不圖為樂之至於斯	-12.8195
之宫始之次而中少過也應	-12.8195
之所在則我有周之分野也	-12.8195
二律管以為衆管至吹用聲不便乃作律	-12.8195
其言或咏其聲以言心聲故也	-12.8195
合父子之親明長幼之序	-12.8195
土類西凝之方也故與土同位於西匏竹	-12.8195
拈	-12.8195
捶	-12.8195
擂	-12.8195
故謂之嬴亂所以優柔容民也	-12.8195
明堂位曰大琴大瑟中琴	-12.8195
曰黄鍾之聲亦不難定世自有知音者	-12.8195
月之所在辰馬農祥也	-12.8195
朏	-12.8195
東絲成於夏故琴瑟在南革成於冬故鼗	-12.8195
瑟四代之樂器也古之人作樂聲	-12.8195
輕重鮮有同者惟劉歆制銅斛	-12.8195
一毫二絲三忽四微五纖	-12.8195
七寸八分一釐七毫九絲七忽四微三纎	-12.8195
五寸二分六釐七毫四絲八忽九微七纖	-12.8195
四其法得八寸以為太簇太簇之實八寸	-12.8195
宜要之非有意義孰若復古制之為愈哉	-12.8195
徑四寸銘曰棧是	-12.8195
攄	-12.8195
珊	-12.8195
縱横古錢之大小其亦難矣然非精於	-12.8195
而百化興焉如此則樂者天地之和也	-12.8195
舐	-12.8195
鏜	-12.8195
鐘歌磬編磬㽔賓歌磬編磬	-12.8196
鐘簫簫㽔賓簫簫㽔賓拊鼗	-12.8196
宫以七聲推之合如此注家之説非也	-12.8196
八卦調八風理八政正八節諧八音舞八	-12.8196
則為本律之半聲如第一孔太	-12.8196
徳者性之端樂者徳之華	-12.8196
收一聲比徴少下故謂之變徴羽	-12.8196
素其義一也又黄鍾正聲不為他律役其	-12.8196
保信照所用太府寺尺其制彌長去古彌	-12.8196
塤南吕瑟南吕箎太簇琴太簇篴南吕	-12.8196
天有六氣降生五味天有六甲地有五子	-12.8196
太蔟起調太蔟畢曲旋宫第	-12.8196
復擇聲與林鍾相似之簧亦令	-12.8196
故尚議革木非有清濁之變也故一聲然	-12.8196
數四八而以陽一主之所以作樂則	-12.8196
武銅尺相合竊惟周漢二代享年永	-12.8196
至亥而後窮上反下	-12.8196
餘數又約以三為一	-12.8196
䘮紀三踊以為節兵重三軍以為制	-12.8196
兩簧一口噙而吹之則知黄鍾與林鍾全	-12.8196
八十七毫九百一十一絲九百九十五忽	-12.8196
十六枚為一簴而四清聲相承不擊照	-12.8196
四百一十一絲一百四十五忽	-12.8196
張弦各如黄鍾之聲以第八弦六尺設柱	-12.8196
景王將鑄無射而為之大林單穆公	-12.8196
等累黍造尺縱横不定後因	-12.8196
黄鍾故下大吕一律已上六調為高調	-12.8196
黍之實以見周徑之廣以生度量	-12.8196
峴	-12.8196
鐘歌鐘編鐘㽔賓歌鐘編鐘	-12.8197
鐘琴篴㽔賓琴篴	-12.8197
䋲	-12.8197
物作下止民乃上觸	-12.8197
者此言理之序大司馬言用之序故也	-12.8197
也俯則兼大吕仰則兼夾	-12.8197
朱干玉戚以舞大夏八佾以舞大武	-12.8197
極天地之變以天地五位之合終於十者	-12.8197
芥	-12.8197
仁之實事親是也義之實從兄是也	-12.8197
先王因天地隂陽之氣而辨十有二辰	-12.8197
六分其金而錫居一謂之鐘鼎之齊	-12.8197
去其乘適足以是成角	-12.8197
四尺度等言漢志審度之法云一黍之廣	-12.8197
四清變徴音右變徴之宫中呂之宫一清	-12.8197
大功將至辟琴瑟小功至不絶樂	-12.8197
天之生物理難均一古人立法存其大	-12.8197
曰鵲巢召國男悦	-12.8197
曰鹿鳴周大臣傷時在位而作	-12.8197
法地則以同而異此其律所以一於陽先	-12.8197
諸侯而兵不用諸侯自為正之具也	-12.8197
長以子穀秬黍中者一黍之廣	-12.8197
隂曰下生隂生陽曰上生上生不得過黄	-12.8197
乎輕清之甚則又外之外上之上而不可	-12.8197
二分三釐五毫九絲六忽八微五纎	-12.8197
二十七釐七十三毫四十一絲三十六忽	-12.8197
大府布帛尺七寸八分六釐與景表尺同	-12.8197
始十年中書考古器揆校今	-12.8197
字為九聲領調之字則調之頂聲	-12.8197
弈	-12.8197
德惟崇致我祖宗開基建功京都之内	-12.8197
楚莊之繞梁相如	-12.8197
畵	-12.8197
繼也賔導也言陽始導隂氣使繼養	-12.8197
若用之燕享祭祀古人禮文甚繁如歌文	-12.8197
與筍虡同者為欲使人勿	-12.8198
之為六百四十分以應六十四卦太簇之	-12.8198
所以修潔百物考神納賔也	-12.8198
十有五等以晉之前尺	-12.8198
合五音之調實始於舜	-12.8198
周之圜法歴代曠逺莫得而詳	-12.8198
尺先儒訓解經籍多引以	-12.8198
是作樂及其小者乃所以為	-12.8198
本以其與姬周之尺劉歆銅	-12.8198
皆失之故太祖患其聲髙特	-12.8198
一千九百六十四分一百八十五	-12.8198
一寸九百六十四分一百八十五釐	-12.8198
二分二釐九毫二絲五忽一微	-12.8198
六詩曰風曰賦曰比曰興曰雅曰頌以六	-12.8198
南吕四寸七分八徵四寸十分八	-12.8198
去其一分餘六十四是角之數	-12.8198
古云長九寸長八寸十分一之類尺	-12.8198
和峴用景表石尺比漢前尺一尺六分	-12.8198
季札觀周樂於魯	-12.8198
歌磬編磬南吕歌磬編磬	-12.8198
秬而已穄與秠弗堪用或誤用之非也古	-12.8198
簜竹也謂笙簫之屬	-12.8198
自用變律半聲非復黄鐘矣此	-12.8198
長于胡瑗尺九分五釐見鄧保信奏議	-12.8198
竽笙塤籥簫篪篴管	-12.8199
及蔡子元于普明等以候節氣依古	-12.8199
譎	-12.8199
鼓人掌六鼓四金之音聲以	-12.8199
四分其尺有八寸之廣去一以為尾	-12.8199
必得外方之半其外方亦必得内方之倍	-12.8199
發鯨魚鏗華鐘	-12.8199
鞉磬柷圉既備乃奏	-12.8199
一建鼔在其南東鼔朔鼙在其北	-12.8199
七十二三分商損一得四百四十	-12.8199
九萬萬忽乃以此九萬萬忽依	-12.8199
仲吕仰而急則為姑洗之半聲三孔林	-12.8199
其聲猶不失於古五代之亂大樂淪散王	-12.8199
古琴曲有歌詩五篇	-12.8199
可負則以楹貫而置	-12.8199
堂下樂器以竹為本以木為末則管	-12.8199
天之中數五地之中數六	-12.8199
撞柷先底次左次右撞者三	-12.8199
曰騶虞召國女傷失嘉㑹而作	-12.8199
杜佑通典再生黄鐘之法為得之	-12.8199
琴書曰琴瑟以詠大傳亦曰大琴練絃	-12.8199
鐘大吕太簇夾鐘姑洗中吕㽔賔	-12.8199
鐘編鐘黄鐘歌磬編磬	-12.8199
一分九釐八毫四絲二忽五微一纎	-12.8199
七六二六八五七二七一五一五五六二	-12.8199
上筭起再九歸一遍得	-12.8199
中節也此聖人所以一天人	-12.8199
九九七三七三七五八五三	-12.8199
二分四釐二毫八絲八忽二微九纎	-12.8199
今人求古樂太深始以古樂為不可知	-12.8199
八分弱阮逸胡瑗尺一寸七分短	-12.8199
去聲謂中式也其義亦通詩曰誕降嘉種	-12.8199
在天成象在地成形	-12.8199
子元于普明等以候節氣依古於三重密	-12.8199
尤為的切然仲儒所	-12.8199
所謂琴音調而天下治無若乎五音	-12.8199
斟量時事謂用	-12.8199
果成音曲乎果有其韻乎	-12.8199
空琴必用桐拊必用糠皆以	-12.8199
胞	-12.8199
與先天圖一般者夫先天圖出於河圖	-12.8199
菁菁者莪在彼中阿既見君子樂且有儀	-12.8199
鐘而他律雖當其月自宫者則其和	-12.8199
長短廣狹皆有一定之理一定之數	-12.8199
鬚	-12.8199
鈸	-12.8199
夷蕤夾大無夷蕤夾大無夷蕤夾	-12.82
諸律無不如數而應者矣	-12.82
庭大夫僣天子而不知反正者也彼豈知	-12.82
聲明暢易達分寸又粗然弦以緩急	-12.82
衡相用為表裏使得律者可以制度量衡	-12.82
之樂以管為本器之尤小者也應之為鼓	-12.82
今燕樂髙三律帝雖勤	-12.82
位西北而天屈之以	-12.82
則知管之為降於管言下則知歌之為上	-12.82
半律然太常樂比唐之聲猶髙五律	-12.82
宫聲十二商聲十二角聲十二	-12.82
於制作而未得其當者有司失之於	-12.82
義歴世祖襲著之定令然而	-12.82
興秩節祭先師先聖焉有司卒事	-12.82
㣲强西京望臬㣲弱其餘與此尺同	-12.82
三其八十一得二百四十三以分其法	-12.82
二百三十七分三百五十九釐三百三十	-12.82
大應夷蕤姑大應夷蕤姑大應夷	-12.82
揚觶乃立司正焉知其能和樂而不流也	-12.82
敎民平好惡而反人道之正	-12.82
歌磬編磬應鐘歌磬編磬	-12.82
氣為中氣在人則喜怒哀樂未發與發而	-12.82
王朴尺二寸一分和峴尺一	-12.82
若以樂納賔則賔及庭	-12.82
蕤姑大應夷蕤姑大應夷蕤姑大	-12.82
鉦上謂之舞舞上謂之甬甬上謂之衡鐘	-12.82
司馬貞史記索隠注黄	-12.8201
師出以律否臧凶	-12.8201
箋云置讀曰植植	-12.8201
籥之為器如笛而三孔	-12.8201
三王異世不相襲禮	-12.8201
其聲為商天三與地八合而生木於	-12.8201
於中其聲為宫地四與天九合而生金於	-12.8201
公問羽數於衆仲	-12.8201
兼用先代及武始大鈞之舞	-12.8201
四而下有羽徵角三聲	-12.8201
有半聲亦謂之子聲近時所謂清聲是也	-12.8201
窮故以漸進繼焉既濟	-12.8201
足之蹈之手之舞之	-12.8201
三二八三八二六右乃大吕倍律積	-12.8201
三分其實得二寸三分三釐以為法	-12.8201
作一行勿作兩行	-12.8201
八百二十二絲二百九十一忽	-12.8201
刑政其極一也所以同民心而出治道也	-12.8201
平陳得古樂遂用之唐興因聲以制樂其	-12.8201
此二途以均樂器則自然應和不相奪倫	-12.8201
當時盜鑄既多不必皆中法度但當	-12.8201
鐘簫簫林鐘拊鼗堂上堂下堂上堂下太	-12.8201
乃得九方分零四十釐六十毫五十七	-12.8201
九百四十四得二百四十三者八為八寸	-12.8201
全五寸三分半二寸六分不用	-12.8201
全六寸二分八釐半三寸一分四釐	-12.8201
冷道縣舜廟下得玉	-12.8201
前漢志同聖朝天聖令文云諸	-12.8201
剛果自用遂專恃累黍而金石亦不復	-12.8201
君故王出入奏王夏尸非神也象神而已	-12.8201
周玉尺實比晉前尺一尺一寸五分八釐	-12.8201
器與本銘尺寸無差又汲郡盜發魏襄王	-12.8201
四十七釐二十二毫二十二絲二十二忽	-12.8201
太簇為商姑洗為角林鐘為徵南吕為羽	-12.8201
夷蕤姑大應夷蕤姑大應夷蕤姑	-12.8201
定銅尺有司奏從前詔而芳尺同	-12.8201
實栗既用一嘉字其義已括盡堅好	-12.8201
後依相生之法以次運行取十二律之商	-12.8201
曰古上黨郡今山西潞安府是也境内	-12.8201
月纔飛少許者髙祖異之以問牛	-12.8201
有二具毎取律吕之管隨十二辰位置于	-12.8201
椌楬荀卿曰鞉柷拊椌楬似萬物	-12.8201
此即本朝和峴所用影表尺也平陳以後	-12.8201
潑	-12.8201
為法何也曰以十為法者天地之全	-12.8201
玊	-12.8201
簉	-12.8201
者或灰飛出三五夜而盡或終	-12.8201
者本以代律取其分數調校樂器則	-12.8201
而一以為外周用弦求句股術得其内周	-12.8201
豈好事者妄取其名而詭為之	-12.8201
逃	-12.8201
金石迄武定未有論律者十一蔡邕銅	-12.8201
隂陽相生自黄鍾始而左旋八八為伍	-12.8201
八分七百三十六釐二百九十三毫三百	-12.8201
賡	-12.8202
建子月黄鍾均操縵	-12.8202
言行以肆夏先於趨以采	-12.8202
之下共得一十六寸八分一釐七毫	-12.8202
仍得九萬萬忽内	-12.8202
大吕為商下生夷則為羽上生夾鐘為角	-12.8202
徑圍分數與胡氏同	-12.8202
法不可獨用詔悉罷之又詔丁度等詳定	-12.8202
牲所以食神實以召之也神藏於幽	-12.8202
調其變宫十二在羽聲之後宫聲之前變	-12.8202
重以相參考四者既同而聲必至聲至而	-12.8202
三毫二百九十五絲九百六十五忽	-12.8202
也以九為法者因三分損益而立也全	-12.8202
修倉掘地得古玉斗	-12.8202
全四寸六分六釐半二寸三分三釐不用	-12.8202
司馬遷律書本文改正黄	-12.8202
吕宫至夷則羽並用仲吕起調仲吕畢曲	-12.8202
四寸七分一釐九毫三絲七忽一微五纎	-12.8202
宫至大吕羽並用無射起調無射畢曲應	-12.8202
宻布緹縵室中以木為	-12.8202
建樂立均之法諸律相距間皆一律	-12.8202
志曰候氣之法為室三重户閉塗釁必周	-12.8202
有八寸一分漢前後志及諸家用審度分	-12.8202
校已所造金石絲竹皆短校一米梁武帝	-12.8202
皆以人體為法又曰婦人手八寸謂之	-12.8202
羽並用夷則起調夷則畢曲南吕宫至黄	-12.8202
至分位住得六分又九因至釐位住得	-12.8202
蔟應七散二散爲太蔟濁聲	-12.8202
隋廢旋宫獨存黄鐘一均	-12.8202
雖有十二律六十調然實一黄	-12.8202
雷霆細而至於蠛蠓無非聲也易則無不	-12.8202
大赦改元天和百司行用終	-12.8202
太應南蕤姑太應南蕤姑太應南	-12.8202
得一十二分半加倍得二十五分	-12.8202
故也唐之歌磬編縣十六同一簨	-12.8202
毫又九因一遍至絲位住得	-12.8202
為二百四十三分寸之一百四合之為大	-12.8202
陽九者陽之成也其二四六八十	-12.8202
四毫二絲三忽九微四纎	-12.8202
姑太應南林姑太應南林姑太應	-12.8202
嘶	-12.8203
建寅月太蔟均操縵	-12.8203
幄	-12.8203
聲所不及取閏餘之義故	-12.8203
簫林鐘簫太簇簫南吕簫林鐘拊南吕拊	-12.8203
五帝殊時不相沿樂	-12.8203
左右耳與臋皆正方積十而登以至於斛	-12.8203
王制曰古者以周尺八尺為歩	-12.8203
之霜筠法龍吟之異韻	-12.8203
王命三公九卿大夫元士皆入學	-12.8203
述而不作信而好古	-12.8203
鐃則鳴之而已鐸則或振或摝其用則先	-12.8203
乃分樂而序之以祭以享以祀	-12.8203
儆其民也又黄池之㑹吳王親鳴鐘	-12.8203
六十七釐八十六毫九十一絲二十九忽	-12.8203
其寸分釐毫絲之法皆用九數故	-12.8203
其長三尺六寸三百六十分象周天之度	-12.8203
出入奏昭夏外之為出内之為納四方之	-12.8203
師下大夫二人小師上士四人	-12.8203
慮必依於道手足不苟動必依於禮夫然	-12.8203
或以朝而來王或以祭而	-12.8203
書曰旅旅乎陽也所以十二律只曰六律	-12.8203
為短小以黍實管彌復不容	-12.8203
為羽下生夷則為角應鐘為第六宫上生	-12.8203
無射為角大吕為第八宫下生夷則為	-12.8203
然後洪纎髙下不相奪倫	-12.8203
者音之君也故黄鍾位子其數八十一	-12.8203
行成而先事成而後	-12.8203
防之禮樂刑政四達而不悖則王道備矣	-12.8203
黄鐘為角夾鐘為第十宫下生無射為	-12.8203
九十一釐九十七毫七十九絲二十一忽	-12.8203
也禹作九夏之樂本九功之徳以為歌而	-12.8203
以樂文王世子曰三王之教世子	-12.8203
凡神人以數合之以聲昭之	-12.8203
則辨五聲清濁之韻若善琴術則知五調	-12.8203
射長二尺四寸姑洗之笛正聲應姑洗下	-12.8203
師必審之者為避所	-12.8203
律相生不計餘數五音相生不計變音其	-12.8203
微又九因至纖位住得	-12.8203
愍	-12.8203
應夷蕤姑大應夷蕤姑大應夷蕤	-12.8203
曰二與四為六而坤用之兩地之數也一	-12.8203
樂者樂也君子樂得其道小人樂得其欲	-12.8203
為徵應鐘起宮應鐘之徵	-12.8203
無射仰而急則為南吕之半聲五孔應	-12.8203
章信尺不復存玉律一口蕭餘定七枚夾	-12.8203
笛之制如雅笛而小其長九寸與黄	-12.8203
至釐位住得四釐又九因至毫位住得	-12.8203
處在兼音也然吹之甚難非精熟者不能	-12.8203
論磬嘗謂有貴賤焉有親疎焉有長	-12.8203
鐘大而短則其聲疾而短聞	-12.8203
陽陽左執簧右招我由房	-12.8203
隂陽相摩天地相蕩	-12.8203
頔	-12.8203
鳬氏為鐘兩欒謂之銑	-12.8203
一寸七分一釐三毫五絲六忽七微五纎	-12.8203
五刑不用百姓無患	-12.8203
何也曰易者盡天下之變善與惡無不	-12.8203
大而不鏞小而不棧	-12.8203
天地之數始於一終於十其一三五七九	-12.8203
奚震及牛𢎞等議曰	-12.8203
撞㽔賓之鐘左五鐘	-12.8203
空中實容長者十六	-12.8203
葢方覆六耦承	-12.8203
起調畢曲慶源發祥世	-12.8203
趫	-12.8203
一寸六分六釐四毫七絲八忽五微六纎	-12.8203
不用三分損益猶用九分為寸何也	-12.8204
或曰九分為寸原為三分損益設也今	-12.8204
皆取法於縱黍陽數古人造律之初意也	-12.8204
九寸乃九十分是以縱累則管太長容黍	-12.8204
創於何瑭而臣父深然之古來無此議論	-12.8204
吕為角夷則為第九宫上生夾鐘為	-12.8204
商上生黄鐘為羽下生林鐘為角無射為	-12.8204
鐲之聲濁鐃之聲髙鐸之聲明	-12.8204
不用正半聲而應鐘又不用變半聲其實	-12.8204
九釐三十三毫九十八絲三十二忽	-12.8204
也人臣有功不錫樂以章之則其	-12.8204
八寸七分有竒不成黄鐘正聲	-12.8204
六八一六九三四九六六四一九一三	-12.8204
其三分損益不盡之筭或棄或	-12.8204
南為文西南為章則章者文之成明之著	-12.8204
商下生林鐘為羽上生太簇為角仲吕為	-12.8204
宫商易辨若尺寸小長則六十宫商相與	-12.8204
宫生角角生商商生	-12.8204
屏之逺方終身不齒	-12.8204
弃	-12.8204
律調聲必致髙急	-12.8204
掛一以象三才揲之以四以象四時歸	-12.8204
樂未嘗不以驁示戒焉故公出入奏驁夏	-12.8204
正仁徴動心而和正禮羽動腎而和正智	-12.8204
汴	-12.8204
王者之於天下出而與物相見	-12.8204
用柔剛之意也十有二律之管禮天	-12.8204
皆戾於古大率皆由徑三分之説誤之也	-12.8204
禮勝易離樂勝易流九夏	-12.8204
者九由是三分損益以生十一律焉或曰	-12.8204
鐘終於南吕也後世以變宫變	-12.8204
一百五十四分六百六十九釐九百一	-12.8204
代人間所用尺傳入齊梁陳以制樂	-12.8204
倂	-12.8204
多寡雖若不齊然其絲分毫	-12.8204
夷仲夾黄無夷仲夾黄無夷仲夾	-12.8204
毫二分六釐二毫一分八釐	-12.8204
鈞宫商也必和之以細故有	-12.8204
鍾散聲即夾鍾四弦仲吕為	-12.8204
大應南蕤姑大應南蕤姑大應南	-12.8204
畨	-12.8205
而陽應之是止而濟之以動易序卦	-12.8205
書之在治忽有五聲而無七始	-12.8205
為宫猶用林鐘為商黄鐘為徴何由可諧	-12.8205
謂後穴與第三穴雙發是也如此即不用	-12.8205
重商謂之敏角謂之經徴謂之迭羽謂之	-12.8205
骸	-12.8205
以五禮防萬民之偽而教之	-12.8205
凶禮哀邦國之憂以	-12.8205
小臣納工工四人二瑟小臣左何瑟面	-12.8205
廪	-12.8205
賓客以說逺人以作動物	-12.8205
鄉射合樂大射不合樂者鄉射屬民欲	-12.8205
則承陽而節之故可以節鼓	-12.8205
有餘横累則管太短容黍	-12.8205
穈	-12.8205
豔	-12.8205
上士八人下士十有六人	-12.8205
並同則是時律書尚未誤也及司馬貞索	-12.8205
二千龠千合百升也積一百六十二萬分	-12.8205
以無所因為上以有所待為下	-12.8205
則千有二百黍矣故此九十黍之	-12.8205
按畫一周之聲度著十二	-12.8205
榆	-12.8205
歌者曰頌鐘頌磬其應笙者曰笙鐘笙磬	-12.8205
涘	-12.8205
為羽下生南吕為角是十二宫各有五聲	-12.8205
無稽之言莫此為甚	-12.8205
示戒焉故客醉而出奏	-12.8205
禄不期侈而侈	-12.8205
管律之某聲某字	-12.8205
自放驕傲之患難乎免於身矣是以先王	-12.8205
與王同徳爵位莫重焉然位不期驕而驕	-12.8205
若斯之甚也弘不能對	-12.8205
道也故臣有功奏章夏古者將祭君致	-12.8205
雖無法而聲不失於古自	-12.8205
音以當一嵗之日故律厯之數天之道也	-12.8205
三釐七毫七絲八忽六微七纎	-12.8205
九得二千一百八十七者七為七寸	-12.8205
仲夾黄無夷仲夾黄無夷仲夾黄	-12.8205
佑通典曰陳仲儒云調聲之體宫商宜濁	-12.8205
分寸之一千七十五合之為夾	-12.8205
分帶下紳居二	-12.8205
哀非中和之聲矣此不可不辨也為今之	-12.8205
天地之風氣正而十二律定劉昭所謂伏	-12.8205
尺符同即以調鐘律并用均田度地今	-12.8205
油	-12.8205
泌	-12.8205
法得八寸七分八釐一毫六絲二忽以	-12.8205
焉故德煇動於内而民莫不承聽理	-12.8205
然後彼四聲者乃得連續無間而七均備	-12.8205
爾雅曰肉倍好謂之璧羨延也此璧本	-12.8205
礚	-12.8205
終不復始何也曰陽之升始於子午雖	-12.8205
腋	-12.8205
范蜀公以為即今大府帛尺誤矣十三	-12.8205
葢為夷則至應鍾四宫而設	-12.8205
鍾乃八斛二四如八亦以四而登也此	-12.8205
須詳求故實考校得衷謹尋今之	-12.8205
黄無夷仲夾黄無夷仲夾黄無夷	-12.8205
鐘應鐘之數四十二主十月上生	-12.8205
信都芳深有巧思能以管候氣仰觀雲色	-12.8206
一月故三十斤為一鈞四時而	-12.8206
清濁非管無以正也均其中弦	-12.8206
順序其所生故也革絲居南北之正先革	-12.8206
人外有上林樂府皆以鄭聲施於朝廷	-12.8206
東朔鼙在西應鼙在東是堂下之樂貴西	-12.8206
樂進俯退俯姦聲以濫溺而不止及優侏	-12.8206
禮賔上東於西階之上亦以其近賔故也	-12.8206
之日也廣六寸象六合也	-12.8206
兀	-12.8206
兩尺寸中所容受升斗之數為法律亦以	-12.8206
十二律旋相為宫各有七聲合八十四聲	-12.8206
律容受不同史謂作者旁庣其腹使有盈	-12.8206
曰諸律雖短長有差	-12.8206
有三分而復於其所以是成羽	-12.8206
玉尺律徑不及三分故其律遂長而尺長	-12.8206
自此已後有歸有除於實第	-12.8206
非特於禮為然樂亦如之是以先王	-12.8206
音含太古矣蓋其制長三尺六寸六分象	-12.8206
一黍之長累為寸法尋太常卿劉芳受詔	-12.8206
三分去一之次故用子聲為徵	-12.8206
之起積一千二百黍八字今本漢書闕之	-12.8206
九十三毫九百五十五絲九百九十七忽	-12.8206
二百其一容一千四十七後魏前尺黄	-12.8206
二釐三毫三絲一忽九微六纖	-12.8206
十五等尺其間多無所取	-12.8206
十東魏後尺實比晉前尺一尺五寸八毫	-12.8206
四曰蕤賔所以安靖神人獻酧交錯也	-12.8206
在心為志發言為詩情動於中而形於言	-12.8206
强弱該之而卒無以見强弱之	-12.8206
志云公孫崇永平中更造新尺以	-12.8206
按上者隔二而得四聲按下	-12.8206
然其長短厚薄大體具存臣先人栖誠學	-12.8206
者失在於徑三分也古銀錯與玉尺玉斗	-12.8206
鐘之清濁下生不得及黄鐘之數實	-12.8206
鐘之管或極其短或極其長長短之内	-12.8206
雖不同而其聲應一也故均列之堂上焉	-12.8206
八分四釐五毫六絲六忽八初	-12.8206
鼓無當於五聲五聲弗得不和	-12.8207
九秒二忽庣旁一分九毫有	-12.8207
夣	-12.8207
糜	-12.8207
之曰臣縱君暴其政不平非日别而月異	-12.8207
天地之命中和之紀人情之所不能免也	-12.8207
禮者殊事合敬者也樂者異文	-12.8207
稲	-12.8207
變徴與羽無清故唐宋後又參差遞減耳	-12.8207
退食委蛇謙恭揖讓	-12.8207
之有四金猶六律之有六吕	-12.8207
人識之故謂之齊明乎商之音者臨事而	-12.8207
俠	-12.8207
則大夏禹樂也謂之九徳之歌得非九夏	-12.8207
十四卦皆倚數配合為説而已獨黄鐘云	-12.8207
吕中第十四弦大吕清第三弦太	-12.8207
尾端用錦一幅	-12.8207
戒與此同意九夏之樂有其名而亡其辭	-12.8207
畢新布拂拭	-12.8207
義也有勇有義非歌孰能保此	-12.8207
自然也繼以倍律應無南夷雖濁可歌至	-12.8207
一十一毫一百一十一絲一百一十一忽	-12.8207
一十其一容一千一百二十漢官尺黄	-12.8207
之容受與晉前尺徑三分四	-12.8207
二寸十四分十四釐十二毫六絲	-12.8207
五毫八絲三忽七微六纎	-12.8207
作之意則猶可攷也太史公曰細若氣	-12.8207
入壇則大司樂令衆工奏	-12.8207
其聲率下於譯調二律	-12.8207
分寸之四百五十一合之為夷則	-12.8207
則離其方則南其時則夏其聲尚宫其律	-12.8207
升為豆四豆為區此以四而登也五區為	-12.8207
又以七百二十九歸之以從十二	-12.8207
又異常今之稼穡未及古人若選大黍	-12.8207
古本漢書一黍字下	-12.8207
君於卿大夫比葬不食肉比卒哭不舉樂	-12.8207
容九百三十九古銀錯題黄	-12.8207
常丞典司樂職乃取玉管及宋太史	-12.8207
徑三分圍九分容秬黍千二百遂用黍長	-12.8207
所以存而不削者要見諸代之不同多	-12.8207
所製亦上黨秬黍中者累廣求尺制黄	-12.8207
所謂正律正半律也又自仲吕上生黄鐘	-12.8207
暖	-12.8207
毁然其大約當尚近之後之君子有能	-12.8207
毎一氣感則一扇自動他扇	-12.8207
聲居中為體一絃二絃為	-12.8207
自斯以後律又飛灰侯景之亂臣兄喜於	-12.8207
言巨細之巨也聞其名則其形可想見矣	-12.8207
證因謂圍九分者取空圍圓長九分	-12.8207
􁑬	-12.8207
㲈舜樂也謂之九㲈之舞	-12.8207
非土不和故書之益稷禮之樂記其言八	-12.8208
隠間九尺以應黄鍾之律九寸中央一	-12.8208
建辰月姑洗均操縵	-12.8208
七萬八千九百七十六為羽以九萬三千	-12.8208
仲丁又命樂正入學習	-12.8208
姑洗為角林鐘為第二宫上生太簇為	-12.8208
絲聲哀哀以立亷亷以立志	-12.8208
五弦姑洗中第十七弦姑洗清第六弦仲	-12.8208
匣	-12.8208
善而好施聞羽音使人整齊而好禮	-12.8208
徳可以交神明矣故夫人祭奏齊夏族人	-12.8208
應鍾之數四十三主十月上生蕤賔	-12.8208
朝以齒明父子也外朝以官體異姓也合	-12.8208
聞商音使人方正而好義聞角音使人惻	-12.8208
五分二釐九毫七絲三忽一微五纎	-12.8208
五十五毫五百五十五絲五百五十五忽	-12.8208
八十一三分宫損一得五百	-12.8208
六百四十五得七百二十九者五為五寸	-12.8208
其所異者竿首作翔鷺趺作猛獸而已	-12.8208
南吕之聲辭神樂同上但用無射之聲	-12.8208
又依行在辰上生包育編於黄	-12.8208
嘏	-12.8208
夷仲夾大無夷仲夾大無夷仲夾	-12.8208
夷則鎛鐘夾鐘特磬無射鎛鐘仲吕特磬	-12.8208
宫與散少宫應也五與七者商與散少商	-12.8208
張指法俗呼清商調之	-12.8208
後漢至魏尺長於古四分有餘	-12.8208
徴與變宮清雖不用而其音自在也律自	-12.8208
應鐘九萬三千三百一十二	-12.8208
百龠以二百約之得五百五十四分有竒	-12.8208
納晉悼公女樂二八晉賜魏絳以一八	-12.8208
者為佳非以次等中號者為佳也古人稼	-12.8208
若聲聖人因神而存之雖妙必効言黄	-12.8208
蓋亦不失先王制作之實也	-12.8208
角聲之實六十有四以三分之不盡一	-12.8208
陽氣之動陽聲之始必聲和氣應然後可	-12.8208
隂辰之舞飲福樂同上但用林鐘之聲	-12.8208
日冬至徳氣為土土色黄故曰黄鐘律之	-12.8208
淮南子曰規始於一一不生故分而為	-12.8208
一分九釐二毫七絲七忽六微三纎	-12.8208
一分八釐七毫二絲八忽八微三纎	-12.8208
應南蕤姑大應南蕤姑大應南蕤	-12.8208
素女鼓五十弦瑟	-12.8209
使夷俗邪音不敢亂雅太師之	-12.8209
南吕散聲即仲吕四弦蕤賔為	-12.8209
琦	-12.8209
相者東面坐遂授瑟乃降鄉射禮曰席工	-12.8209
鍾散聲即夾鍾三弦仲吕為	-12.8209
三尺一寸四分二釐六毫九絲六忽八微	-12.8209
鹿鳴廢則和樂缺矣	-12.8209
亦以水火相和而後成聲故大者聲合黄	-12.8209
逆推其所始故也於東	-12.8209
四時迭起萬物循生	-12.8209
墠	-12.8209
按一黍之廣為分故累九十黍為黄	-12.8209
磬當為罄字之誤	-12.8209
舞師凡小祭祀不興舞則	-12.8209
上之拊亦似之誤矣柷	-12.8209
也黄帝製筩所以象之耳故名曰律月令	-12.8209
僨	-12.8209
入堂下磬南北面立樂南陔白華華黍所	-12.8209
兩端又有璧翣鄭氏謂戴璧垂羽是也	-12.8209
君臣相與盡志於射以習禮樂	-12.8209
商之所記兩濁兩清	-12.8209
宫聲字而曲合用商聲則能轉宫為商	-12.8209
差荇菜左右采之窈窕淑女琴瑟友之	-12.8209
成湯十二寸為尺武王八寸為尺	-12.8209
擇中式之黍須將格式預先議定	-12.8209
立焉前漢志曰太極元氣函三為一極	-12.8209
褻	-12.8209
鐘為角太簇為第三宫下生南吕為	-12.8209
陀	-12.8209
一十一萬八百分有竒一斗	-12.8209
五分七釐七毫六絲七忽六微三纎	-12.8209
全八寸七分八釐一毫六絲二忽不用	-12.8209
其容受多寡相去未懸逺也六晉後尺實	-12.8209
内宗掌宗廟之祭祀薦加豆	-12.8209
初散爲林鍾濁聲初十徽黄鍾應三散	-12.8209
坫	-12.8209
夾鐘之聲初獻樂同上但用姑洗之聲	-12.8209
宫不用商聲者商為金聲而周以	-12.8209
宻唯陳留阮咸譏其聲	-12.8209
實柴祀日月星辰以槱燎祀司中司命	-12.8209
小則尺短而由是黄鍾之聲遂清夫黄鍾	-12.8209
小動為氣和大動為君弱臣强	-12.8209
律今用再累成尺比逸所製又復不同至	-12.8209
律尺為晉前尺祖冲之所傳銅尺	-12.8209
律管龠合升斗斛豆區鬴亦率類是	-12.8209
排者也不幸為劉歆班固所亂自漢至今	-12.8209
故其尺律遂長然權量與聲尚相依近也	-12.8209
是而黍非則易以大黍大之而益大至於	-12.8209
最長最濁是其本音則黍之最大者是乃	-12.8209
櫺	-12.8209
此聲之數所以止於五也或曰此黄	-12.8209
生之變者就再生之變又缺其半所謂缺	-12.8209
用之字若不轉弦則誤觸散聲落别律矣	-12.8209
用當代之樂明有制也用四夷之樂明有	-12.8209
粟十錢而區二錢則五區為	-12.8209
粟百錢而區二十錢	-12.8209
而隋志始著以為定論	-12.8209
蔚	-12.8209
蕭吉云漢章帝時零陵文學史奚景於	-12.8209
角至角聲之數六十四以三分之不盡一	-12.8209
諸宫之所能役故虚其正而不復用所用	-12.8209
變半之實計四十八箇一千	-12.8209
黄鐘之九寸九分取其八故太簇得八寸	-12.8209
黄鐘黄鐘下生林鐘林鐘地宫又	-12.8209
一為三寸三三如九亦是黄鐘之九寸	-12.8209
字以下者諸律所取於黄鐘長短之數也	-12.8209
眉	-12.8209
屡	-12.821
合生氣之和道五常之行使之陽而不散	-12.821
者樂所自出聲之本也故音始於西	-12.821
埏	-12.821
下須與二頭臨岳一等移柱上下之時不	-12.821
中央土律中黄中之宫髙誘注陽律也	-12.821
之凖不亦失聖人取中聲寓尊卑之意	-12.821
有二律均旋為宫又附益之以變宫變	-12.821
一弦各具三十六聲皆自然也	-12.821
久議不決既平陳	-12.821
之氣也先王作樂弦之以為琴瑟之屬焉	-12.821
事由其誤乃依周禮更造古尺用之定管	-12.821
五聲之數他律不然曰置本律之實以九	-12.821
今以隋志所載玉斗容受析之	-12.821
八毫九絲八忽七㣲一纎	-12.821
六分四釐一毫八絲六忽二微六纎	-12.821
其二百四十三得七百二十九以分其法	-12.821
則宫固八十一商亦七十二角亦六十四	-12.821
合二十四聲以應律吕正倍之聲	-12.821
容一千八百一十九東魏尺黄	-12.821
容八百二十八梁表尺黄	-12.821
帝時猶有汲冢玉律宋蒼梧時	-12.821
晉氏而下則多求之金石梁隋以來又	-12.821
知度審其容而知量校其輕重而知權衡	-12.821
至釐位住得一釐又九因至毫位住得	-12.821
誠本五音互應而去四清先王之制也	-12.821
韻始調左晉之後漸又訛謬至梁	-12.821
贋	-12.8211
皆小樂正詔之於東序大樂正	-12.8211
乗水者付之泭作樂者付之拊	-12.8211
栽	-12.8211
七十八寸五十六分七十四釐二十毫	-12.8211
一十二以開方法除之得三分四釐六毫	-12.8211
拊搏者以其或搏或拊莫適先後	-12.8211
見舞象箾南籥	-12.8211
之位取三統三正之義亦不過	-12.8211
商人貫之以柱謂之楹	-12.8211
帶謂之篆篆間謂之枚	-12.8211
氣旅助夷則任成萬物	-12.8211
淮南子謂置一而十一三之以為黄	-12.8211
畢剥落之終而復始無厭已也	-12.8211
諸侯朝萬物服體而百官莫敢不承事	-12.8211
雖主於詩篇亦樂成於三以反為文	-12.8211
鬰	-12.8211
鼓鼓軍事以鼛鼓鼓役事以晉鼓鼓金奏	-12.8211
且女獨未聞牧野之語乎	-12.8211
之初筵曰籥舞笙	-12.8211
之法又以三為度以上生者皆三分益一	-12.8211
五分四釐五毫二絲五忽三微八纎	-12.8211
今列其數云晉前尺黄	-12.8211
以上生下皆三生二以下生上皆三生四	-12.8211
六分四釐八毫四絲一忽九微七纎	-12.8211
削地故曰射者射為諸侯也是以諸侯	-12.8211
十故十寸而為尺十尺而為丈	-12.8211
及四分一以此知三分益一四分退一乃	-12.8211
四十六毫六百九十二絲二百六十三忽	-12.8211
始乎治常卒乎亂	-12.8211
容黍八百八粒梁法尺黄	-12.8211
寅寸數辰分數午釐數申毫數戌絲數其	-12.8211
弦以緩急清濁非管無以正也	-12.8211
成自二表至三表為	-12.8211
捋	-12.8211
時銅尺一枚古玉律八枚檢周尺東昏用	-12.8211
檟	-12.8211
毫為三釐又收十八絲為二毫又收十八	-12.8211
氏之失豈康昭等有以啟之與不知而作	-12.8211
而不相及故宫羽之間有變宫角	-12.8211
至夾鍾四清聲以附正聲之次原其四	-12.8211
華之山其隂多磬鳥危之山其陽多磬	-12.8211
鎔	-12.8211
嚳	-12.8211
涼	-12.8211
也五曰沙臘華言應聲即徴聲也六曰般	-12.8211
而以一矩有半觸其弦則磬之	-12.8212
世本曰暴公作塤	-12.8212
飾以臝屬磬虡飾以羽屬器異異虡故也	-12.8212
名數雖異分劑實同	-12.8212
磬之筍皆飾以鱗屬其文若竹	-12.8212
設之四隅軒縣設之三隅判縣設之東西	-12.8212
其形直以舉是筍之上有	-12.8212
取應聲假如宫調五弦十	-12.8212
句非不合周之頌磬也然不知編縣	-12.8212
三分徵數五十四則分各十八	-12.8212
也所好者音也夫樂者與音相近而不同	-12.8212
均二節聲於瑟聲十二清聲十二極清一	-12.8212
太黄南林姑太黄南林姑太黄南	-12.8212
弦附木而取然須轉弦合	-12.8212
徽太蔟應四散四十徽林鍾應六	-12.8212
所以備和奏洽百禮	-12.8212
於仲吕之管寸數以三分益一上生黄	-12.8212
晉武帝泰始九年中書監荀朂校	-12.8212
象以制器豈貴夫石哉尚聲以盡意而已	-12.8212
鍾為宫大吕為角大蔟為徴應	-12.8212
雖出於所考要之其聲清越以長無異於	-12.8212
八十一是為五聲之本三分損一以下生	-12.8212
制十二筩以聽鳯之鳴其雄鳴為六	-12.8212
周之升歌不過清廟鹿鳴四	-12.8212
唐之度量權衡與玉斗相符	-12.8212
太常笙濁聲十二中聲十二清聲十二	-12.8212
夭	-12.8212
律丁度等言鄧保信所製尺用上黨秬黍	-12.8212
曰昔周公有勲勞於天下成王賜之	-12.8212
朔鼙應鼙應之鼙小鼓也在東便其先	-12.8212
磬大則特縣小則編縣	-12.8212
一取之秬黍故其度量權衡皆與古不合	-12.8212
凡䘮陳樂器則帥樂官	-12.8212
炮	-12.8212
豚	-12.8213
簫林鐘簫太簇簫南吕簫林鐘鼗南吕鼗	-12.8213
法置八百一十分分作九重	-12.8213
數也是為度母縱黍之律横黍之度	-12.8213
是可忍也孰不可忍也	-12.8213
筍然文同同筍故也筍則横之設以崇牙	-12.8213
虞山皆各立門户互相詆諆	-12.8213
進旅退旅和正以廣弦匏笙簧㑹守拊鼓	-12.8213
以其正當衆聲和與未和用與未用	-12.8213
廡	-12.8213
教焉死則以為樂祖祭於瞽宗	-12.8213
瓉	-12.8213
縂	-12.8213
羹	-12.8213
耳目聰明血氣和平移風易俗天下皆	-12.8213
陽際㑹之中所以為盛	-12.8213
一寸七分六釐七毫七絲六忽六	-12.8213
一聲歌一言且詩言人志詠以為歌五聲	-12.8213
乃奏姑洗歌南吕舞大㲈以祀四望	-12.8213
人音而制樂託樂器以寫音樂本效人非	-12.8213
以七聲加五清為十二律者則五正四清	-12.8213
分餘數在半分已上收之作	-12.8213
助時養西夷之樂曰株離持鉞	-12.8213
句已闋而樂音未終所謂歌不永言也請	-12.8213
女巫旱暵則舞雩凡邦之大烖歌哭而請	-12.8213
弇則鬱長甬則震是故大鍾十分其	-12.8213
祖樂楚聲故房中樂楚聲也	-12.8213
簴通十二律正倍之聲亦庶乎古也	-12.8213
紀其餘分以為忽秒	-12.8213
聞之懼而不食以至骨立夫家語纂于漢	-12.8213
臣若斯之甚也𢎞不能對	-12.8213
詩言鼗磬柷圉	-12.8213
乎晉荀朂之笛梁武帝之通亦不知此而	-12.8213
二聲又非本律之半且自夷則至應	-12.8213
五聲其為宫為商之法亦如之者是也	-12.8213
亦畧知此意但不知仲吕反生黄	-12.8213
仲吕五寸九分三分二徵五寸九分	-12.8213
則其臣民事物豈能尊卑有辨而不相	-12.8213
卑者也卑者不嫌於抗尊	-12.8213
取竹於嶰谿之口	-12.8213
在仲吕為商者其亦誤矣俗樂之有清聲	-12.8213
控	-12.8213
是耳沈括不知此理乃以為五十四在黄	-12.8213
樹之跗也南鼓謂所伐面也應鼙應朔鼙	-12.8213
次乃是隔九其黄鐘林鐘太簇南吕姑洗	-12.8213
正命奏陔賔降及階陔作賔出衆賔皆出	-12.8213
管子序五音先徴羽而後宫商角	-12.8213
華言五聲即羽聲也七曰俟利	-12.8213
説范蜀公乃從而信之過矣	-12.8213
從之升自西階北面東上坐授瑟乃降	-12.8213
股外面鼓内面也假令磬股	-12.8214
季春之月擇吉日大合樂	-12.8214
自漢以下律之所以不成者其失皆	-12.8214
二尺八寸三分一釐六毫二絲二忽	-12.8214
則謂之量稱其輕重則謂之權衡	-12.8214
律計自倍半以子聲比正聲則正聲為倍	-12.8214
得七分八釐五毫六絲七忽四微二纎	-12.8214
架一鐘而尚拊大戴禮曰架一磬而尚拊	-12.8214
漢興張蒼定律乃推五勝之法以為水徳	-12.8214
變徴又九分角之一而餘六得	-12.8214
鉦之間同方六而今宜異又十分之一猶	-12.8214
七十二南吕五寸三分三釐少强數四十	-12.8214
不成樂矣若李照蜀公止用十二律則又	-12.8214
之法其合於三分損益者則和矣自夷則	-12.8214
也路人道也天神之樂六變而雷鼓	-12.8214
二千七百七十七分七百七十七釐	-12.8214
亦如之金非土不生以土之五加金之四	-12.8214
太簇二聲雖合而大吕夾	-12.8214
已為應鐘未為大吕酉為夾鐘亥為仲吕	-12.8214
律黄鐘副别者其長短及	-12.8214
徽九章註云此尺長於王莽斛尺四分五	-12.8214
春秋之時齊侯以玉磬賂晉	-12.8214
知其如此故於四清聲皆小其圍徑則黄	-12.8214
而其臣民事物尊卑莫不有序而不相	-12.8214
靈鼗八面人鬼之樂九變而路	-12.8214
鼗六面地示之樂八變而靈	-12.8214
琴黄鐘篴林鐘簫林鐘簫黄鐘簫黄鐘簫	-12.8214
穰	-12.8214
琵	-12.8214
權者衡平也權重也衡所以任權而均物	-12.8214
牙齒舌喉唇	-12.8214
四時四時三始是以為七	-12.8214
國之俊選皆造焉凡入學以齒	-12.8214
七十八寸五百六十七分四百二十釐	-12.8214
按拍處那五音依舊都用不只是全用宫	-12.8214
有大事必有禮以哀之	-12.8214
欝	-12.8214
良而能斷者宜歌齊	-12.8214
酌先祖之道以養天下	-12.8214
以函鍾為首禮人鬼以黄鍾為首三者旋	-12.8214
所以示後世有尊卑長幼之序也	-12.8214
涯	-12.8214
神以圜鍾為首禮地	-12.8214
鍾磬竽瑟以和之干戚旄狄以舞之	-12.8214
不同如此者總之表識之名不必刻求也	-12.8214
五寸五分四釐九毫二絲八忽九微五纖	-12.8214
令爽等草定其法爽因稽諸故實以著	-12.8214
助時生南夷之樂曰任持弓	-12.8214
壑	-12.8214
律以當辰音以當日	-12.8214
東夷之樂曰昧持	-12.8214
林鍾應四散四十徽黄鍾應六散	-12.8214
積物鮮成實故使士達制為五弦之瑟以	-12.8214
軾	-12.8214
鬲	-12.8214
七分四釐一毫五絲七忽七微六纎	-12.8215
二十四下生者去其一去二十四得四十	-12.8215
二毫四絲四忽七初不用半三寸	-12.8215
依時代制律其黄鐘之管俱徑三分長九	-12.8215
初二秒不用半三寸四分五釐一毫一絲	-12.8215
從可知矣律書獨舉寸法者蓋已	-12.8215
故擊其所縣而由其虡鳴	-12.8215
昂	-12.8215
朝㑹要曰古者黄鐘為萬事	-12.8215
漢志王莽時劉歆銅斛尺後漢建武銅尺	-12.8215
皆以正聲應無有忽㣲	-12.8215
磔	-12.8215
老幼孤獨不得其所	-12.8215
耶夫度量衡所以佐律而存法也古人	-12.8215
釐毫絲皆積九以為法	-12.8215
定論然累九十黍徑三黍止容黍八百有	-12.8215
無射清第十二弦應鍾中第二十四	-12.8215
不生雖或増或棄	-12.8215
考尋樂府鐘石律吕皆有	-12.8215
七十二以三分之不盡二算	-12.8215
得六萬二千五百分以一百	-12.8215
按十徽音十徽尋不見方去九徽尋	-12.8215
㝢	-12.8215
丁度所奏髙若訥所定者也	-12.8215
四十一毫六百九十三絲五百二十一忽	-12.8215
差而難精等之不若因度求律之為審也	-12.8215
或壊亡故載之於書形之於物	-12.8215
根本故尺量權衡皆起於黄	-12.8215
漢志以黄鐘林鐘太簇三律之長自相	-12.8215
漢至隋垂十代凡數百年所存者	-12.8215
物有常不變者也故於此寓法焉今四	-12.8215
大吕歌鐘大吕編鐘㽔賓歌鐘㽔賓編鐘	-12.8216
笙林鐘笙黄鐘笙黄鐘笙林鐘瑟林鐘	-12.8216
奏夷夾無仲黃林太南姑應	-12.8216
徽實音與蕤賔調十徽實音相同即姑洗	-12.8216
凝是精粗之體	-12.8216
則終而有始故先足蹈後手舞	-12.8216
終故先手舞後足蹈	-12.8216
所以攻公孫崇者當矣	-12.8216
算家以術考之不合則又穿鑿以為	-12.8216
于常疑今之大者正是其中	-12.8216
子之卿大夫西縣鐘東縣磬士	-12.8216
故晏子曰鍾乃大矣先儒錯㑹晏子之意	-12.8216
晏子所謂各自其四以登於	-12.8216
杏	-12.8216
為鍾鍾乃百斗比舊量區多四升	-12.8216
驩	-12.8216
八千四百九十三萬四千六百五十六	-12.8216
牟賈起免席而請曰夫武之備戒之	-12.8216
者法萬物始生道達隂陽之氣故有長短	-12.8216
舞雲門大卷大咸大㲈大夏大濩大武	-12.8216
蠧	-12.8216
也樂之末節也故童者舞之鋪筵席陳尊	-12.8216
人聲切忌人聲遷就中黍不可復蹈劉	-12.8216
四十四毫一百五十五絲二百一十九忽	-12.8216
四十四毫四百四十四絲四百四十四忽	-12.8216
坪	-12.8216
大備後世雖有作者皆不能易兹八物矣	-12.8216
姪	-12.8216
有竒鉦鼓舞之所居者遞去二分則舞修	-12.8216
由律圍徑之誤也今司馬公所傳此尺者	-12.8216
禮者禮之末節也故有司掌之	-12.8216
隂氣以定羣生然後四時和萬物成	-12.8216
階之西而面東以頌出於歌聲而聲出於	-12.8216
麗於器器具而天地萬物之聲可得而考	-12.8216
非横而首尾相銜	-12.8217
㤗	-12.8217
倍好者周旋無端終而復始無窮已也	-12.8217
無射之聲依月均而考擊之於義或然	-12.8217
黍為分之九寸也寸皆九分凡八十一分	-12.8217
天子袒而割牲執醬而饋執爵而酳冕而	-12.8217
尊無二上之㫖哉	-12.8217
斗造律兼制權量亦不同周漢制度故漢	-12.8217
淮南子曰秋分蔈定蔈定而禾熟	-12.8217
㓜之理皆辨於此矣古人	-12.8217
子夏對曰夫古者天地順而四時當民有	-12.8217
而失之太濁要之一適清濁之中	-12.8217
鐘磬竽瑟以和之干戚旄狄以舞之	-12.8217
六萬二千二百零八為㽔賓半之實計	-12.8218
絺	-12.8218
㽔大夷夾無仲黃林太南姑	-12.8218
彚	-12.8218
菟	-12.8218
所謂布指知寸布手知尺	-12.8218
五行五常亦可益而七之乎	-12.8218
奇劉歆庣旁少一釐四毫有	-12.8218
文同則上下和矣好惡著則賢不肖别矣	-12.8218
祥而外無哭者禫而内無哭者	-12.8218
而當半兩衡有左右因	-12.8218
大學士李光地撰附樂	-12.8218
沁	-12.8218
旄人下士四人舞者衆寡無數	-12.8218
縻	-12.8218
睡	-12.8218
虺	-12.8218
頥	-12.8218
以金鐲節鼓以金鐃止鼓以金鐸通鼓	-12.8218
依琴五調調聲之法以均樂器	-12.8218
則既聞命矣敢問遲之遲而又久何也	-12.8218
四隅各開一孔相對透明雖顯四孔只是	-12.8218
大夫無故不徹縣士無故不徹琴瑟	-12.8218
太常雅舞立定不移	-12.8218
干而山立武王之事也	-12.8218
暫	-12.8218
為綴列則佾也所以為行正之以辨其序	-12.8218
穂	-12.8218
纊	-12.8218
聒	-12.8218
丕	-12.8218
之淫液之何也對曰恐不逮事也	-12.8218
也聲者樂之象也文采節奏聲之飾也	-12.8218
五聲圓轉商何能去周禮云六樂十二律	-12.8218
小弁之怨親親	-12.8218
得而聞之矣敢問何	-12.8218
揚蹈厲之已蚤何也對曰及時事也	-12.8218
數又不可行此變律之所以止於六也	-12.8218
春祠夏禴秋嘗冬烝	-12.8218
曰黄帝命伶倫與營援作十二鐘	-12.8218
樂師辨乎聲詩故北面而弦	-12.8218
武坐致右憲左何也對曰非武坐也	-12.8218
涌	-12.8218
焉故八物各音而同和也	-12.8218
玉之清越以長樂也	-12.8218
窐	-12.8218
絨	-12.8218
脰	-12.8218
膂	-12.8218
軔	-12.8218
近逸等以大黍累尺小黍	-12.8218
大銅疊縣而擊之	-12.8219
之聲西南隅之鼓合夷則南	-12.8219
六經之道同歸禮樂之用為急	-12.8219
隂十者隂之成也黄	-12.8219
升於上者未巳至亥而後窮上反下	-12.8219
律法又曰吹以攷聲列以候氣	-12.8219
㴱	-12.8219
人君者謹其所好惡而已矣君好之則臣	-12.8219
今君之所好者其溺音乎	-12.8219
四寸一分四釐二毫一絲二忽	-12.8219
回聲衍侈聲筰弇聲鬱薄聲甄厚聲石	-12.8219
固未嘗有異焉今以琴之太長而不適	-12.8219
弦散聲惟三弦獨退一	-12.8219
張樂試之遂先説曰黄	-12.8219
應笙之磬謂之笙磬應歌之磬謂之頌磬	-12.8219
數煩志齊音敖辟喬志此四者	-12.8219
明克類克長克君王此大邦克順克俾	-12.8219
鍾已厚則石已薄則播侈則柞	-12.8219
龠自戾本法保	-12.8219
禽獸知聲而不知音衆庶知音而不知樂	-12.822
衹	-12.822
千五百七十一寸三百四十八分四百釐	-12.822
幟	-12.822
百五十七寸一十三分四十八釐四十毫	-12.822
尺校半分以新尺制為四	-12.822
踰月則其善也孟獻子禫縣而不樂孔子	-12.822
炳	-12.822
畤	-12.822
緱	-12.822
賔至應鍾皆屬隂此是一	-12.822
鎬	-12.822
制雅頌之聲以道之使其聲足樂而不流	-12.822
大雅恭儉而好禮者宜歌小雅正直而	-12.822
抉	-12.822
措其匪色必似不鳴矣	-12.822
搢	-12.822
操持歌聲令極縵緩	-12.822
旡	-12.822
足以問所宜請誦其所聞而吾子自執焉	-12.822
一萬一千三百二十四萬六千二百	-12.822
今靈星舞子持之是也	-12.822
儀行以肆夏趨以采薺車亦如之環拜以	-12.822
其鏗鏘而已也彼亦有所合之也	-12.822
周之佩玉左徴角右宫羽亦	-12.822
喜則天下和之怒則暴亂者畏之	-12.822
四時和焉星辰理焉萬物育焉	-12.822
宿縣于阼階東笙磬西面	-12.822
此皆起度之源其文	-12.822
畧同故同此一聲也第	-12.822
管象武夏籥序興陳其薦爼序其禮樂備	-12.822
精古之神瞽考中聲之遺法大抵如此程	-12.822
至於元帝自曉音律郎官京房亦	-12.822
謠	-12.822
送尸神保聿歸	-12.822
酒少刻起舞有四句號云送	-12.822
鸖	-12.822
鹹	-12.822
黷	-12.822
捍	-12.822
四牡五章章五句	-12.8221
七寸八分五釐六毫七絲四忽二微	-12.8221
利用厚生惟和九功惟叙九叙惟歌	-12.8221
曰聲無形而樂有器古之作樂者知	-12.8221
六佾歟舞行綴短豈	-12.8221
文侯曰敢問溺音何從出也	-12.8221
斯則黍理已盡若管内猶不滿乃管之非	-12.8221
之多積而為龠合一黍之重積而為銖兩	-12.8221
大夫以采蘋為節士以采蘩為節	-12.8221
弦吹黄鍾律管令與散聲協是為	-12.8221
洗觶升自西階阼階上北	-12.8221
者以象人君之徳及奏黄	-12.8221
夫九寸之律八十一之數亦未始有異也	-12.8221
由三分損益算術不精之所致	-12.8221
行之則民從之詩云誘民孔易此之謂也	-12.8221
靡悔既受帝祉施于孫子此之謂也	-12.8221
奏夾無仲黃林太南姑應㽔	-12.8222
鞋	-12.8222
燬	-12.8222
前坐而遷之戒勿越	-12.8222
漢章帝時零陵文學	-12.8222
生則樂樂則安安則久久則天天則神	-12.8222
乃奏姑洗歌南吕舞大磬以祀四望	-12.8222
倍之故二十四銖為一兩天有四時	-12.8222
繚	-12.8222
則聲器皆小故可以雜奏	-12.8222
四尺四寸四分四釐四毫四絲四忽四微	-12.8222
挑同聲為撮抹擘同聲亦為撮上生下生	-12.8222
為抄十抄為撮十撮為勺十勺為合	-12.8222
為抹向外為挑大指向内為托向外為擘	-12.8222
人朝祥而暮歌孔子	-12.8222
陽聲之始陽氣之動也故其數九分寸之	-12.8222
唐人俗舞謂之打令	-12.8222
太黄蕤林應南林南黄	-12.8222
得不和其衆聲之君歟樂記曰	-12.8222
雖當五聲之中而非衆聲之㑹	-12.8222
音音立一調故成七調十二律合八十四	-12.8222
得譜子因兵火失去舞時皆裹幞頭列坐	-12.8222
於是而受法十一律由是而損益焉	-12.8222
是為六孔所謂前三後二併吹孔為六者	-12.8222
歌者上如抗下如隊曲如折止如	-12.8222
流辟邪散狄成滌濫之音作而民淫亂	-12.8222
若沉若浮皆得効其響	-12.8222
面受命于主人主人曰請安于	-12.8222
主人降席自南方側降作相為	-12.8222
卿大夫以循法為節士以不失職為節	-12.8222
塊	-12.8222
立地之道曰柔與剛	-12.8222
者也謂正聲無有殘分也	-12.8222
鋪几筵升降酌獻酬酢	-12.8222
鍚	-12.8222
雁	-12.8222
也月令修鞀鞞世紀帝嚳命	-12.8223
𣲖	-12.8223
故審聲以知音審音以知樂審樂以知政	-12.8223
耑	-12.8223
之磬非編磬也言磬如此則	-12.8223
筠	-12.8223
言特縣鐘磬如此則編鐘編磬亦可知	-12.8223
壎篪此六者德音之音也然後	-12.8223
瘞	-12.8223
者樂循法也采蘩者樂不失職也	-12.8223
笙大吕笙㽔賓笙㽔賓笙大吕瑟大吕	-12.8224
葵	-12.8224
琴操一書載堯舜文武孔子之詞尤謬	-12.8224
呵	-12.8224
也其政散其民流誣上行私而不可止也	-12.8224
新淫聲北里之舞靡靡之樂后衛靈公	-12.8224
之笙竽以木代匏而漆殊愈於匏荆梁之	-12.8224
坐奠觶于薦西賔	-12.8224
羨以起度玉人璧羨度尺好三寸以為度	-12.8224
與笙取爵于上篚既獻奠于下篚	-12.8224
今之白粱粟皆好榖	-12.8224
可知遂以此為求徑率求周求積亦如之	-12.8224
殰	-12.8224
減各簧之蠟一一㸃成	-12.8224
於陽而始和故即其始而用之以	-12.8224
禮勝則離合情飾貌者禮樂之事也	-12.8224
使放心邪氣得接焉是先王立樂之方也	-12.8224
執其干戚習其俯仰	-12.8224
平其心成其政也聲亦如味一氣二體三	-12.8224
槊	-12.8224
牒	-12.8224
肆夏時邁也繁遏執競也渠思文也	-12.8224
諴	-12.8224
魅	-12.8224
七月流火九月授衣	-12.8224
司正司正禮辭許諾主人	-12.8224
囉	-12.8224
有二律爲之數度以十有二聲爲之齊量	-12.8224
而擊玉磬明堂位言四代	-12.8224
角聲緊一音旋為宫聲則三絃	-12.8224
金聲舂容秋分之音也	-12.8224
嗚	-12.8224
而小持其柄摇之旁耳還自擊	-12.8225
始形焉均其長得九寸審其圍得九分	-12.8225
聲氣之元不可得而見及斷竹為管吹之	-12.8225
謂孟秋之日西館御女白色白綵撞白鐘	-12.8225
之即不同尺既有差故難以定鐘磬	-12.8225
冕搢笏而虎賁之士説	-12.8225
王者治定制禮功成作樂	-12.8225
綌	-12.8226
午未申酉戌亥	-12.8226
其分寸龠合銖兩皆起於黄鍾	-12.8226
汲郡盜發六國時魏襄王	-12.8226
脇	-12.8226
而聲和候之而氣應而後	-12.8226
詖	-12.8226
貴賤長幼男女之理皆形見於樂	-12.8226
手呼喚之意送者送酒之意舊	-12.8226
柝	-12.8226
黍又首尾相銜逸等止用大者故再	-12.8226
𫀆	-12.8226
呉夷東夷西戎之舞	-12.8226
土聲函胡立秋之音也	-12.8226
媵	-12.8226
書謂之搏拊明堂位謂之拊	-12.8226
管室灰為候以揆百度	-12.8226
鼙之聲讙讙以立動動以進衆君子	-12.8226
齊及梁初亦同至是改為	-12.8226
琴㽔賓篴大吕簫大吕簫㽔賓簫㽔賓簫	-12.8227
孟子曰不以六律不能正五音	-12.8227
名位不同樂亦異數	-12.8227
路鼓路鼗陰竹之管龍門之琴瑟九	-12.8227
通長二尺容黍二合稱重二兩律	-12.8227
縶	-12.8228
褐	-12.8228
無冬無夏值其鷺羽	-12.8228
釣	-12.8228
韎樂祭祀則帥其屬而舞之大饗亦如之	-12.8228
甿	-12.8228
八寸為尺十尺為丈人長八尺故曰丈夫	-12.8228
謂十二律相生終於中吕其復生黄鍾之	-12.8228
宫聲以下不容更有濁聲	-12.8228
敲	-12.8228
輝	-12.8228
佃	-12.8228
内則父子外則君臣人之大倫也而樂實	-12.8228
天保以上治内采薇以下治外	-12.8228
氂者氂牛尾毛也	-12.8228
箸	-12.8228
葢招則邀之之意	-12.8228
邃	-12.8228
鐘聲鏗鏗以立號	-12.8228
傳也若非有司失其傳則武王之志荒矣	-12.8228
律必生於度也特以近世古律不存故	-12.8228
百黍之重為銖二十四銖為	-12.8228
起於黍而成於寸析寸為分析分為	-12.8228
道不耐無亂先王恥其亂	-12.8228
𤨏	-12.8228
于西階上一人拜盡階不升堂受爵	-12.8228
凹	-12.8228
君子以好善小人以聽過	-12.8228
扎	-12.8228
琴譜並命入四庫全書以示闢識事	-12.8228
五分一釐四毫六絲五忽一微一纎	-12.8229
𫉬	-12.8229
蝸	-12.8229
磬聲則思死封疆之臣	-12.8229
北面立于其西工四人二瑟瑟	-12.8229
席工于西階上少東樂正先升	-12.8229
徴南吕為羽應鍾為變宫蕤賔為變徴	-12.823
捧	-12.823
耄	-12.823
清第九弦夷則中第二十一	-12.823
鷂	-12.823
目顅脰小體騫腹若是者謂之羽	-12.823
聲者樂之指拇也二變者五聲之駢枝也	-12.823
三人吹笙一人吹和凡四人也	-12.823
南羽濁聲之羽聲低於宫	-12.823
振振鷺鷺于飛鼓咽咽醉言歸	-12.823
欣欣然有喜色	-12.823
琬	-12.823
詩之所至禮亦至焉禮之所至樂亦至焉	-12.823
鉶	-12.823
但能紀其鏗鏘鼓舞而不能言其義	-12.823
立方分則其管當深長	-12.823
變降神替昭夏若	-12.823
之琴十六枚之鐘磬各自取義寧有一之	-12.8231
鼗已作及下管播樂器而樂具作焉乃	-12.8231
之實九萬三千三百一十二	-12.8231
拜不興受爵主人阼階上拜送爵	-12.8231
石聲磬磬以立辨辨以致死君子	-12.8231
為之歌大雅曰廣哉熈熈乎曲而有直體	-12.8232
此假矩以定倨句非用其度	-12.8232
狡	-12.8232
呦呦鹿鳴食野之苹	-12.8232
篪以竹為之長尺四寸圍三寸一孔上出	-12.8232
聮	-12.8232
湫	-12.8232
偘	-12.8232
冄	-12.8232
旄人掌教舞散樂舞夷樂	-12.8232
亖	-12.8232
凡工尺上凡尺上工凡工尺上凡尺	-12.8232
廣則容姦狹則思欲	-12.8232
之磬股鼓皆厚二寸則餘磬可推矣	-12.8232
最大而沈濁羽最細而	-12.8232
發徳也歌者在上匏竹在下貴人聲也	-12.8232
祀文王於明堂以配上帝	-12.8232
蹖	-12.8232
先王之道禮樂可謂盛矣	-12.8232
壙	-12.8232
搃	-12.8232
歷	-12.8232
綉	-12.8232
上至岳山之度半之為	-12.8232
五成而分周公左召公右	-12.8232
以其律為之長短厚薄而其聲和	-12.8232
先王無流連之樂荒亡之行	-12.8232
凡樂事正舞位授舞器	-12.8232
换	-12.8232
欵	-12.8232
舞屬謙謙不為起固强之	-12.8232
邜	-12.8233
棚	-12.8234
屍	-12.8234
溶	-12.8234
嚲	-12.8234
工字命為清聲髙工字餘絃不更者亦仍	-12.8234
搆	-12.8234
鐐	-12.8234
不知我者謂我何求悠悠蒼天此何人哉	-12.8234
冏	-12.8234
弋	-12.8234
彼黍離離彼稷之	-12.8234
樂則生矣生則惡可已	-12.8234
無力而輕其聲清揚而逺聞無力而輕則	-12.8234
煦嫗覆育萬物	-12.8234
示易以敬也卒爵而樂闋孔子屢	-12.8234
再始以著往復亂以飭歸奮疾而不	-12.8234
方二尺四寸深一尺八寸中有椎柄連底	-12.8234
以岳山至焦尾全度	-12.8234
戴延之西征記曰	-12.8234
搔	-12.8234
隸	-12.8234
􁎭	-12.8234
笙師掌教吹籥簫篪篴管	-12.8235
大蜡索鬼神而致	-12.8235
轇	-12.8236
樗	-12.8236
三王教世子必以禮樂	-12.8236
中婦人手長八寸謂之咫	-12.8236
梗	-12.8236
手或抑按則輕重之際殊為懸絶	-12.8236
呌	-12.8236
一音無事假借其十二管長短俱如本律	-12.8236
以輕重為宜圜而環之	-12.8236
之簫豈簫韶九成之樂已有鄭衛之聲乎	-12.8236
滓	-12.8236
古之君子必佩玉右徴角左宫羽	-12.8236
埃	-12.8236
破赫連昌獲古	-12.8236
閷	-12.8236
是陳禮樂雅頌之聲以風化天下其事載	-12.8237
貭	-12.8237
窖	-12.8237
綫	-12.8238
輻	-12.8238
是月禫徙月樂	-12.8238
譚	-12.8238
姑應蕤大夷夾無應蕤大夷夾無仲	-12.8238
帔	-12.8238
飱	-12.8238
匙	-12.8238
柸	-12.8238
船	-12.8238
匏以宣之瓦以賛之	-12.8238
十二律旋迭為均均有七調合八十四調	-12.8239
小而長則其聲舒而遠聞	-12.8239
重大為君父應聲輕清為臣子故其四聲	-12.8239
軸	-12.8239
黄鍾同在陽方故别論小隂陽	-12.8239
崕	-12.824
祅	-12.824
其稱古磬十六者乃二帝三王之遺法也	-12.824
到五大夫子先取適子髙七尺已上年	-12.824
雛	-12.824
五斗六升二合有竒	-12.824
眚	-12.824
絃五十六八八之變徵位在	-12.824
恌	-12.824
仭	-12.8241
繩既置其物則却立以視不可得而抑按	-12.8241
件	-12.8241
絹	-12.8241
燿後大體短脰若是者謂之臝	-12.8241
簷	-12.8241
頫	-12.8241
作而中止止而復作	-12.8242
妻子好合如鼓瑟琴	-12.8242
搗	-12.8242
者調鍾律測晷景	-12.8242
腊	-12.8242
以新舊法分度參録之	-12.8242
戒之用休董之用威勸之以九歌	-12.8242
枸	-12.8243
酷	-12.8243
播鼗武入於漢少師陽擊磬襄入於海	-12.8243
繕	-12.8243
蘇祇婆彈胡琵琶	-12.8243
書曰羽畎夏翟記曰夏籥序興	-12.8243
澇	-12.8243
芬	-12.8245
兆五帝於四郊四望四類亦如之	-12.8245
櫛	-12.8245
籥師掌教國子舞羽吹籥	-12.8245
蹀	-12.8245
􁌑	-12.8245
獅	-12.8245
節歌雅在堂下立奏	-12.8245
瑜	-12.8245
鑊	-12.8245
瑭	-12.8247
臼	-12.8247
逍	-12.8247
棃	-12.8247
謄	-12.8247
所以齊逺近立民信	-12.8247
柯長三尺博三寸厚一寸	-12.8247
邽	-12.8247
以漢志斛銘文定	-12.8247
璃	-12.8247
蓆	-12.8248
唐㑹要云髙祖武徳四年	-12.8249
琳	-12.8249
半五分其長以其一為之首	-12.8249
澆	-12.8249
秸	-12.8249
紏	-12.8251
東冬江陽庚青蒸七	-12.8251
抽	-12.8253
䘏	-12.8253
滎	-12.8253
賸	-12.8253
旱水溢民無菜色然後天子食日舉以樂	-12.8253
玷	-12.8253
羨不圜之貌葢廣徑八寸袤一尺	-12.8253
蜚	-12.8253
殳	-12.8253
極乎天蟠乎地	-12.8253
汪	-12.8255
􁋿	-12.8255
漬	-12.8255
蕤賓角應三絃散聲三絃蕤賓角取十	-12.8255
一獲一容樂以采蘩五節二正	-12.8255
二正士以三耦射豻	-12.8255
殉	-12.8255
裁紙條與寳源局銅五尺一般長乃界為	-12.8255
薨	-12.8256
隘	-12.8257
鰾	-12.8257
令堂上作樂則撫拊堂上樂工聞撫拊乃	-12.8257
嵬	-12.8257
㐮	-12.8257
今時所吹五孔竹篴	-12.8257
六尺有六寸左右端廣六寸中尺厚三寸	-12.8257
悚	-12.8257
林仲夷無夷林仲	-12.8257
炙	-12.8257
取其土少而水多其聲和	-12.8259
璇	-12.8259
而度其圍徑如黄鍾之法	-12.8259
橋	-12.8259
獠	-12.8259
釵	-12.8259
鈿	-12.8259
袤	-12.8259
培	-12.8259
磚	-12.8261
俸	-12.8261
韞	-12.8261
六經之道同歸而禮樂之用為急	-12.8261
撾	-12.8261
兕	-12.8263
將寳源局銅尺均作	-12.8263
相續為用三音之位不用吟而於	-12.8263
南山有臺五章章六句	-12.8266
茅	-12.8268
<	-12.8268
羶	-12.8268
刹	-12.8268
喋	-12.8269
廛	-12.8269
取義同而其位有不同	-12.827
羔開冰先薦寢廟	-12.8272
􁊽	-12.8274
罶	-12.8276
拊之為器韋表穅	-12.8276
􁕒	-12.8278
猪豕覺而駭	-12.828
䄂	-12.8282
為斗十斗為斛而五量嘉矣	-12.8283
叫	-12.8284
䓁	-12.8284
兮不狩不獵胡瞻爾庭有縣	-12.8284
兮彼君子兮不素	-12.8284
不稼不穡胡取禾三百	-12.8286
鱓	-12.8288
羔	-12.8289
鼓聲則和柔倡而不和非徒鏗鏘而已書	-12.8294
斐	-12.8296
扼	-12.8296
搹	-12.8296
瞻彼淇澳緑竹	-12.8303
太林黄仲無夾夷大㽔應姑南太林黄仲	-12.8546
五分七釐一毫三絲四忽八微四纎九因	-12.86
八毫六絲九忽六微二纎為	-12.9056
分為實下生者以五百乘之得三萬	-12.91
鍾夾鍾之數六十八主二月下生	-13.0291
得其一二然承天與焯皆欲増林鐘	-13.0615
林鍾之率六億六千七百四十一萬	-13.1004
分為實上生者以一千乘之得四萬	-13.1018
應㽔大夷夾無仲黄林太南姑應㽔大夷	-13.1097
丑得三又參之於寅得九又參之於	-13.1277
分一十三釐五十六毫二十三絲七十三	-13.1385
分周公左召公右六成復綴以崇	-13.1422
羌笛小横吹長鳴角鞉牢羯鼓拍鼓舞歌	-13.1456
萬五千七百一十四忽七分忽之二第	-13.1952
周官眡瞭掌凡樂事播鼗擊頌磬	-13.2544
以旄兵事以干星辰以人鄭康成	-13.2847
應鍾之上非無清聲黄鍾之下非無濁聲	-13.3077
左執律愷樂獻於社主師旋	-13.3082
勝而士强聽宫聲知軍和而士附其	-13.3082
兵弱而威奪其凶可得而詔也古之	-13.3085
徒鏗鏘而已書傳謂以韋為鼓白虎通謂	-13.309
大師始執同律聽軍聲而詔吉凶	-13.3094
四尺五寸二四八尺二五一尺合九尺凡	-13.3101
億二千七百三十七萬二千六百二十	-13.311
先設句字而以體製從之	-13.311
蹇	-13.311
嚶	-13.3113
暌	-13.3113
位還便殿並奏皇夏以高祖配享奏武	-13.3116
初獻亞獻禮五方上帝並奏高明之樂	-13.3116
武成之時始定四郊宗廟之樂羣臣	-13.3116
瘥	-13.3119
二億五千四百七十四萬五千二百四十	-13.3119
咈	-13.3122
以軍禮同邦國大師之禮用衆	-13.3125
長二尺六寸横屈受水穀三斗五升其中	-13.3126
登歌清廟既歌而語以成之也	-13.3128
望敵知吉凶聞聲効勝負	-13.3129
鼓中窐而生光有似夫隧	-13.3129
寸度角間則徑一尺圍三尺	-13.3129
惵	-13.3129
芊	-13.3129
盖主朔易者坎也故其音革	-13.3132
頌頌或作庸庸功也豈其然	-13.3132
受穀一斗水七升半廣腸大八寸徑二寸	-13.3135
為氣所動者灰散為物所動者灰聚	-13.3138
以響隂陽和則景至律氣應則灰	-13.3138
受水穀九斗二升一合合之大半	-13.3138
字無射應鍾用凡字各以上下分為清濁	-13.3141
中秋白露降採河内葭莩為灰	-13.3141
下法再退得十乃於上商三百	-13.3141
奏九夏然則教樂之儀或行或趨或環	-13.3143
鸞為節記曰和鸞中采薺是也車出以鐘	-13.3143
太蔟用四字夾鍾姑洗用一字夷則南	-13.3144
七一丈四尺二五一尺合一丈五尺督脉	-13.3144
上以銅篆作蹲熊及盤龍辟邪	-13.3144
大吕太蔟一半聲夾鍾姑洗二半聲蕤	-13.3146
環佩而拜其聲與鐘鼓之節相應固其理	-13.3146
六六三丈六尺五六三尺合三丈九尺	-13.3148
重十兩長七寸廣二寸半咽門重十兩廣	-13.3148
以平入配重濁以上去配輕清	-13.3148
吕氏之説前後不同亦自相牴牾矣	-13.3148
大四寸徑一寸寸之少半長二丈一尺	-13.3148
旻	-13.3148
為節乎禮曰升車有鸞和之聲行	-13.3148
臧武仲之知公綽之不欲卞莊子之勇	-13.3148
王之大射堂上以人聲歌騶虞堂下以鐘	-13.3149
月令章句曰律雖有大小圍徑無増	-13.3149
匝	-13.3151
黄鍾圍九分林鍾圍六分太蔟圍八分	-13.3151
堯之大章舜禹之韶夏商周之	-13.3151
穀二斗四升水六升三合合之大半	-13.3151
騶虞若采蘋皆五終亦歌奏備舉之意也	-13.3152
廉法三萬亦從上商三得九萬	-13.3154
膕	-13.3154
羽吾林鍾為徴民姑洗為角之太蔟為商	-13.3154
亦兼雲門咸池十三奏者起宫在	-13.3154
三十六寸八分與漢斛同法無疑也鄭氏	-13.3154
牓	-13.3154
矛渝弩渝安臺行辭	-13.3154
商兮太蔟為宫可應鍾為羽以南吕為徴	-13.3156
幬	-13.3157
樂器之意也易曰制器者尚象記曰聲樂	-13.3157
見可見者物耳故用羽音起調畢曲	-13.3157
搦	-13.3157
脈獨取寸口以決五藏六府死生吉凶之	-13.3157
去一生變宫三分變宫益一生變徵自此	-13.3157
夜凡一萬三千五百息脈行五十度周於	-13.3157
行陽二十五度行隂亦二十五度為一周	-13.3157
一絲三忽五㣲六纖有奇為法除之	-13.3157
乘得數二因為實開平方法除之即得外	-13.3157
凡大合樂必遂養老者主合樂以行禮也	-13.3157
按十一徽實音相應則知散者其弦	-13.3157
滂	-13.3157
為地統律長六寸太簇為人統律長八寸	-13.3157
所存六代之樂黄帝曰雲門大卷黄帝能	-13.3159
此言歌射節者射之有節即度數	-13.3159
王射而歌射節雖在瞽矇其帥而歌者實	-13.3159
七歌應姑南太林黃仲無夾	-13.3159
三萬六千八百分為一千三十六寸	-13.3159
九歌南太林黃仲無夾夷大	-13.3159
八九徽間實音相應則知散者其弦	-13.3159
六歌黃仲無夾夷大㽔應姑	-13.3159
吕之正位也此二律者皆與黄鍾相生故	-13.3159
四歌太林黃仲無夾夷大㽔	-13.3159
摽	-13.316
倚歌梵唄設無遮大㑹則為之	-13.316
十三奏也九變樂至此收宫其諸取義	-13.316
出入奏肆夏牲出入薦毛血奏昭夏	-13.316
和八音克諧也平細大不踰也故可	-13.316
是以金尚羽石尚角瓦絲尚宫匏竹尚議	-13.316
盡矣故平人不食飲七日而死者水穀	-13.316
日中五升七日五七三斗五升而	-13.316
之所成者事而已中吕亦謂之小吕則	-13.316
卬	-13.316
名縵角調者古之黄鍾角也此調以夷則	-13.316
庇物言之南吕亦謂之南事則	-13.316
抑鄭氏以為周鬴之制異於漢斛	-13.316
聲及琛為秦州刺史屢討叛	-13.316
角吾南吕為商民林鍾為宫之姑洗為羽	-13.316
降洗賔降辭如獻禮升不	-13.316
非是方鄭氏之世漢斛尚在豈偶不及見	-13.316
生應鐘比於正音故為和應鐘生㽔	-13.3161
國語周景王問於伶州鳩曰七律者何	-13.3162
飾亦有崇牙棺牆之飾亦有璧翣	-13.3162
十一歌林黃仲無夾夷大㽔應	-13.3162
十二歌㽔應姑南太林黃仲無	-13.3162
十歌夷大㽔應姑南太林黃	-13.3162
徴兮應鍾為角可南吕為商以林鍾為宫	-13.3162
羣音㑹合之際而獨宫角不居此際者	-13.3162
以佐勝之術行必勝之道故也	-13.3163
南郊圓丘樂用皇矣奏雲和之舞	-13.3163
齊信都芳能以管候氣	-13.3163
之國政彼其好世俗之樂徇末忘本如此	-13.3163
孰知與人與衆以反樂之本乎	-13.3163
澧	-13.3163
成象在地成形如此則禮者天地之别也	-13.3163
主之仲氏則箎亦笙類而仲氏以况中聲	-13.3163
始也故知先擊朔鼙以其稱應故知應朔	-13.3163
清商調者古之黄鍾商也此調以無射	-13.3163
衒	-13.3163
鼙也又大射稱建鼓此云縣鼓大射應	-13.3163
之中正以平之確乎鄭衞不能入也	-13.3163
嘽嘽駱馬豈不懐歸王事靡盬不遑啓處	-13.3163
嚼	-13.3163
奏大夷夾無仲黃林太南姑	-13.3163
尾梁兩壁至雲尾各崇	-13.3163
所匹也夾鍾亦謂之圜鍾以春主規言之	-13.3163
於西階上少東樂正先升北面立于其西	-13.3163
未開舞時戚内干外文舞	-13.3163
河間王琛有朝雲者善吹箎能為團扇歌	-13.3163
羽吾太簇為徴民應鍾為角之南吕為商	-13.3163
聲中黄鐘之宫始於黄鐘而反覆焉	-13.3163
説道凡一切世間事為	-13.3163
賞諸侯之有徳者也徳盛而教尊五榖時	-13.3163
隂陽之象也其圜象規其重二鈞	-13.3163
布緹縵室中上圓下方依	-13.3165
怒則爭鬭喜則詠歌則歌	-13.3165
一歌仲無夾夷大㽔應姑南	-13.3165
矣五帝殊時不相㳂樂此特以堯舜言	-13.3165
載飛載止集于苞杞王事靡盬不遑將母	-13.3165
陰而不密剛氣不怒柔氣不懾	-13.3165
古之用師内有必勝之道外有佐勝之術	-13.3166
箔	-13.3166
其庶幾乎今之樂猶古之樂也曰可得聞	-13.3166
曰獨樂樂與人樂樂孰樂曰不若與人	-13.3166
與少樂樂與衆樂樂孰樂曰不若與衆	-13.3166
□􁕜□􁕗□□􁕗□□􁕜□􁕗□	-13.3167
黿	-13.3167
天道仙道神王龍王滅過惡除愛水斷	-13.3167
一鼓歟若一句畢乃擊三鼓又一句畢再	-13.3167
七九節者間皆不若一矣或謂毎一字畢	-13.3167
大射歌貍首皆曰間若一間若一者疎	-13.3167
徴羽二十四調老隂也調成而隂陽	-13.3167
神生於無形成於有形然後數形而成聲	-13.3167
以閏加變故閏為角而實非正角	-13.3167
坐奠觶遂拜執觶興賔西階上	-13.3167
嫗	-13.3167
是不知箎春分之音而管十二月之音也	-13.3167
用楸木造其形𩔖板	-13.3167
鐘審之其聲猶高更用太府布帛尺為法	-13.3167
韶之成也虞氏之恩被動植矣	-13.3167
㽔大夷夾無仲黃林太南十	-13.3167
商吾大吕為宫民無射為羽之夷則為徴	-13.3167
圎其外庣旁九厘五毫	-13.3167
類于上帝宜乎社造乎禰禡於所征之地	-13.3167
顯入則聚而為卷其智所以藏堯之俊	-13.3167
徴吾蕤賔為角民姑洗為商之太蔟為宫	-13.3168
角兮姑洗為商可太蔟為宫以應鍾為羽	-13.3168
宫吾無射為羽民夷則為徴之仲吕為角	-13.3168
而朝廷治朝廷治則百官備而無曠職	-13.3168
徴吾仲吕為角民夾鍾為商之大吕為宫	-13.3168
榖秬黍中者千有二百實其龠以井水	-13.3168
角兮夾鍾為商可大吕為宫以無射為羽	-13.3168
十徽獨角音不然而乃應於十一徽何也	-13.3168
四駱載驟駸駸豈不懐歸是用作歌將母	-13.3168
宫以按弦配散弦調之餘音皆㑹於	-13.3168
徴在九徽羽在八徽此五音之正位也	-13.3168
望之如日就之如雲雲門之實也其仁如	-13.3168
鬴鬴六斗四升也鬴十則鐘方尺積千寸	-13.3168
曰古者神瞽考中聲而量之以制度律均	-13.3169
檝	-13.317
故對之以今樂異古所以抑而攻之也	-13.317
入于晉况王者親征之師大獻功	-13.317
昔晉文公敗楚於城濮猶且振旅愷	-13.317
椽	-13.317
立我烝民莫匪爾極不識不知順帝之則	-13.317
一水二火三木四金五土	-13.317
徴兮蕤賔為角可姑洗為商以太蔟為宫	-13.317
生南吕焉建卯之律隂陽之氣相夾而聚	-13.317
羽吾南吕為徴民蕤賔為角之姑洗為商	-13.317
舞周樂皮弁是三王服故用皮弁舞夏樂	-13.317
五藏六府之所終始故法取於寸口	-13.317
羽兮南吕為徴可蕤賔為角以姑洗為商	-13.317
羽兮夷則為徴可仲吕為角以夾鍾為商	-13.317
乃退儐于東序一獻無介語可也	-13.317
南吕為角吾林鍾為商民仲吕為宫之太	-13.317
商兮仲吕為宫可太蔟為羽以黄鍾為徴	-13.317
宫吾應鍾為羽民南吕為徴之蕤賔為角	-13.317
帶素履左手持黒漆	-13.317
當髙者或下當下者或髙	-13.317
而記者因以為作誤也或謂暴辛公所造	-13.317
􁁏	-13.317
兮仲吕為角可夾鍾為商以大吕為宫	-13.317
其先師秋冬亦如之凡始立學者必釋奠	-13.317
商兮姑洗為宫可大吕為羽以應鍾為徴	-13.317
奏於朝廷則武始舞者冠赤介幘	-13.317
姧	-13.317
歉	-13.317
禘章句最多使如所譜用之燕饗必卜其	-13.317
羽吾夷則為徴民仲吕為角之夾鍾為商	-13.317
而下生林鍾焉建丑之律隂氣旅助於陽	-13.317
角吾蕤賔為商民姑洗為宫之大吕為羽	-13.317
辰辰在戌上故長夷則之上宫名之曰羽	-13.317
細若氣微若聲聖人因神而存之雖	-13.3171
殊不知此其布徽也但以四折取中為法	-13.3171
黄次之素與黝又次之使肄習者便於擇	-13.3171
之得失政之小者也故恭儉而好禮者	-13.3171
者雅積之也雅之所以為雅者風積之也	-13.3171
其宿牽牛其次建星其辰合	-13.3171
則小大御于君所而㑹之有時而然也	-13.3171
同位者象夫婦異位者象子母	-13.3171
周道倭遲豈不懐歸王事靡盬我心傷悲	-13.3171
商兮夾鍾為宫可黄鍾為羽以無射為徴	-13.3171
困敦其風廣莫其宿虚其次	-13.3171
在人擇之耳不必拘於金門山也	-13.3171
於歌乃協馬端臨謂學士大夫之説卒不	-13.3171
為行恭儉而知好禮則恭而能安不失之	-13.3171
用李照新鍾歌工病其太濁私賂鑄工使	-13.3171
盛於已咢布於午昧薆於未申堅於申留	-13.3171
縵宫調者古之黄鍾羽也此調以夾鍾	-13.3171
羽兮林鍾為徴可姑洗為角以太蔟為商	-13.3171
載飛載下集于苞栩王事靡盬不遑將父	-13.3171
鍾應古律之夾鍾實髙三律云	-13.3171
商吾無射為宫民林鍾為羽之仲吕為徴	-13.3171
宫兮林鍾為羽可仲吕為徴以太蔟為角	-13.3171
徑仍前總率乗徑半律為法除之得	-13.3171
十一律子寅辰午申戌六陽辰皆下生丑	-13.3172
姑洗宫南吕徵太簇商林鐘羽黄鐘角	-13.3172
跣	-13.3173
禮云玉帛云乎哉樂云樂云鐘鼔云乎哉	-13.3173
黄帝使泠綸自大夏之西	-13.3173
入而息鑿井而飲耕田而食何有帝力哉	-13.3173
豈特樂吾一身為哉乃所以樂天下也	-13.3173
輕者從大重者從細故琴瑟尚宫	-13.3173
一而三之即四也以是四開合	-13.3173
之動直以方也象曰直其正也正直則離	-13.3173
循用王朴竇儼所定周樂太祖	-13.3173
患其聲髙令和峴減下一律	-13.3173
簫管也利制以聲音調利為制	-13.3173
茭	-13.3173
聲皆不收而獨用夾鍾為律本此其夾鍾	-13.3173
主人實觶賔之席前北面賔西	-13.3173
主人釋服乃息司正無介不殺	-13.3173
其一稃二粒者名為秠非秬也	-13.3173
其日壬癸其月為辜其	-13.3173
勝工師之説是樂雖曰變而實未嘗變	-13.3173
喤喤厥聲肅雝和鳴先祖是聽	-13.3173
惓	-13.3173
林鐘未之衝丑為地正太簇寅為人正	-13.3173
灰實其端覆以緹素	-13.3173
知韶之為樂當用六律則不用六吕	-13.3173
羽吾仲吕為徴民太蔟為角之黄鍾為商	-13.3173
膽	-13.3173
萌於子紐牙於丑引	-13.3173
角吾仲吕為商民夾鍾為宫之黄鍾為羽	-13.3173
韋鞮咸熙舞者冠委	-13.3173
言祀者司中司命風師雨師或亦用此樂	-13.3174
皆是數之相生自然如此非人力所	-13.3174
行歩之節豈傚古采薺肆夏之制歟	-13.3174
性繫一人之本者也故正直而	-13.3174
梁下相連使其聲冲融首尾之下為兩穴	-13.3174
達越也四隅刻雲以縁其武象其出於雲	-13.3174
徴吾應鍾為角民南吕為商之林鍾為宫	-13.3174
角兮南吕為商可林鍾為宫以姑洗為羽	-13.3174
二毫八百八十二絲九百一十九忽	-13.3174
五弦之散聲以上五調皆以第三弦黄鍾	-13.3174
俗名緊羽調者古之黄鍾徴也此調	-13.3174
則必以黄鍾為商故俗樂謂商調為正	-13.3174
四字用中聲之徵者三字用清聲之徵者	-13.3174
宫吾太蔟為羽民黄鍾為徴之南吕為角	-13.3174
徴兮南吕為角可林鍾為商以仲吕為宫	-13.3174
時制以稱之耳其實古無射也無射為	-13.3174
緊一六即古夷則調復緊三即古大吕調	-13.3174
羽兮無射為徴可林鍾為角以仲吕為商	-13.3174
羽兮黄鍾為徴可南吕為角以林鍾為商	-13.3174
詔改正而難遽革故俗樂所稱黄鍾者	-13.3174
詩以置我鞉鼓為先鏞鼓次之周詩以鼖	-13.3174
逮黎庶政之大者也故廣大而	-13.3174
琥	-13.3176
變猶更也樂成則更奏也	-13.3176
樂於此百姓聞王鐘鼔之聲管籥之音舉	-13.3176
商吾太蔟為宫民應鍾為羽之南吕為徴	-13.3176
考三禮圖亦然建鼓兩旁原有二小	-13.3176
三寸上徑長九寸五分闊八寸下口長徑	-13.3176
五鐘皆應然後太師奏登車告出也入撞	-13.3176
寖	-13.3176
春分在卦則坤之六五也故合於無射而	-13.3176
細大之聲不相踰越曰平今無射有	-13.3176
韵	-13.3176
其正不足以有守其直不足以有行矣不	-13.3176
國語曰鼓丁寧春秋傳曰射汰輈而著	-13.3176
在阼階西應鞞在其東禮記註所謂圓者	-13.3176
尸之樂則甞非無樂也周官凡饗食樂師	-13.3176
謙則亷不失之隘謙不失之輕矣正直而	-13.3176
之甚易習之甚便是故初學不可缺也論	-13.3176
凰號鐘繞梁緑綺清英焦尾	-13.3176
怡神寒玉石和志六合石枕落霞	-13.3176
拊不可缺以禮記論語考證則杜蕢言	-13.3176
不可缺如有磬兼用之無則一器足矣重	-13.3176
南應鍾為角風南吕為商之林鍾為宫	-13.3176
大吕宫四寸零九夾鐘商三寸六分三零	-13.3176
牛之尾干舞者兵舞人舞者手舞	-13.3176
牝	-13.3176
直解主事楊繼盛師事之	-13.3176
菊	-13.3176
也此操縵二字之義也周禮笙師掌	-13.3176
也相生之分釐毫絲以九為法者	-13.3176
二十四管無底而善應故謂之䇾	-13.3176
交鳴故謂之筊盖應十二律正倍之聲也	-13.3176
去不逺為用貨泉之尺及漢志之法也以	-13.3176
商兮夷則為宫可仲吕為羽以夾鍾為徴	-13.3176
宫吾黄鍾為羽民無射為徴之林鍾為角	-13.3176
徴兮夷則為角可蕤賔為商以姑洗為宫	-13.3176
徴兮林鍾為角可仲吕為商以夾鍾為宫	-13.3176
應天制禮以配地禮樂明備天地官矣	-13.3176
然則鼓人舞師不列之春官而	-13.3176
羽吾黄鍾為徴民南吕為角之林鍾為商	-13.3176
聽徴如負猪豕覺而駭凡聽羽如鳴馬在	-13.3176
角吾無射為商民夷則為宫之仲吕為羽	-13.3176
詢衆庶亦欲官備於天子故也	-13.3176
逹越大瑟朱絃逹越	-13.3176
過者法曰太過減者法曰不及遂	-13.3176
髙則焦殺低則盎緩此不可容易杜撰	-13.3176
九千六百八十三為法以除十二管之實	-13.3176
于周大武皆太廟舞名也然則其所司之	-13.3176
即江淮吳越所用八寸小尺是也	-13.3176
后以裁成天地之道輔相	-13.3176
堯曰大章又曰雲門大卷者雲門樂之體	-13.3176
所以總領諸物不可以一物為名樂官自	-13.3176
灸攻其外則病無所逃	-13.3176
為法三分其法得一者六為六寸以為林	-13.3176
王莽斛小而尺短也祖冲之以圜率	-13.3176
聲依於八音方能永言也論學操縵	-13.3176
若夫不肖之人則彼將安能以中	-13.3176
豈有不盡邪記曰歌之為言也長言之也	-13.3176
緇	-13.3177
祇所祭於北郊謂神州之神及社稷	-13.3177
履大人跡感神靈而生后稷是周之先母	-13.3178
門外趨以采薺車亦如之大馭凡路行	-13.3178
播之以音不過乎八成之以舞不過乎六	-13.3178
邊以代應鞞亦可也節奏詳見下文第四	-13.3178
羽兮太簇為徴可應鍾為角以南吕為商	-13.3178
角兮仲吕為商可夾鍾為宫以黄鍾為羽	-13.3178
之於音聽之在心不在耳彼其音之所	-13.3178
以節聲樂者乎後世以角代金非古制也	-13.3178
協之五行則角為木五常為仁五事為	-13.3178
宜歌之小則川流其性恭儉以為	-13.3178
寬	-13.3178
徑之數但依歆尺蔡氏所謂徑圍之分以	-13.3178
惟餘韶武而已漢室龍興	-13.3178
戰陳之事非倡和之時故也釋名金鼓校	-13.3178
斛銘文云方尺者所以起數也	-13.3178
曰諸律雖長短有差其圍皆以九分	-13.3178
求諸野其斯之謂乎儒者於樂則異於是	-13.3178
為一分則共得五分餘數又約以	-13.3178
羽吾應鍾為徴民夷則為角之蕤賔為商	-13.3178
羽吾無射為徴民林鍾為角之仲吕為商	-13.3178
而中聲出焉故取黄鍾之宫為聲律之本	-13.3178
聲長非中吕三分去一之次故用子聲為	-13.3178
調復緊二七即古應鍾調以上七調先	-13.3178
載通長及内外徑之數足矣	-13.3178
心跪注錞于以手振芒則	-13.3179
中實以糠兩手或搏或拊以節登歌之樂	-13.3179
鼓兩旁挾二小鼓曰鞞曰應又云搏拊如	-13.3179
其音徴其數七中央土其音宫其數五秋	-13.3179
樂得其反則安禮之報樂之反其義一也	-13.3179
逹禮樂交通則夫武之遲乆不亦	-13.3179
大司馬若師有功則愷樂獻于社	-13.3179
帗舞者全羽羽舞者析羽皇舞者以羽	-13.3179
瘁	-13.3179
皇析五采羽為之亦如帗	-13.3179
而不言磬荷蕢言磬而不言	-13.3179
覆頭上衣飾翡翠之羽旄舞者	-13.3179
其為死者所首之方也且樂以中	-13.3179
則丑月陽氣未出地中候之猶可	-13.3179
則寛而栗也柔而正則柔而立也廣大而	-13.3179
古法占候恒在歳始冬至	-13.3179
大金鐃小金鐃小鉦	-13.3179
成能其宫之鍾稱黄與易黄中通理同意	-13.3179
有占與冬至登臺望雲物以占吉凶	-13.3179
為帝所出之方也地以含容為德其宫之	-13.3179
生育之氣憂愁之感不加	-13.3179
萋萋黄鳥于飛集于灌木其鳴喈喈	-13.3179
鍾不謂之夾而謂之圜與易乾為圜同意	-13.3179
一寸三百四十六分二百八十五釐五百	-13.3179
乍十徽按七散四相應十	-13.3179
也因其天生自然不須人力穿鑿以此	-13.3179
二千餘年之所未有自我聖朝始也	-13.3179
二節内度兩横文相去為一寸自依此	-13.3179
以其管内所容秬黍一千二百實其龠	-13.3179
以華原所出者易之信乎審一以定和難	-13.3179
儀禮鄉飲酒言授瑟而後成笙歌者	-13.3179
凡聼商如離羣羊凡聼角如雉登木	-13.3179
分寸正同或有大小輕重與本志㣲差者	-13.3179
匏以宣之瓦以贊之革木以節之	-13.3179
合也謂合中和之聲而量度之以制樂也	-13.3179
吹律聽聲殺氣相并而音尚宫	-13.3179
嚖	-13.3179
堅之後而四廂金石始備焉後世	-13.3179
大司成者逺近間三席可以問終則負	-13.3179
大胥贊之籥師學戈籥師丞贊之胥鼓南	-13.3179
如負猪豕覺而駭凡聼羽如鳴馬在	-13.3179
嫌於去信以近誣不可不成之以信大雅	-13.3179
宫兮仲吕為羽可夾鍾為徴以黄鍾為角	-13.3179
寸作九分分作九釐釐作九毫毫作九	-13.3179
尚未有金石之樂及晉武破	-13.3179
建丑月大吕均操縵大吕之宫在第	-13.3179
意之所能致言之所能論也	-13.3179
折半取音而定上至岳山折半而得	-13.3179
操演之操縵乃緊縵之縵謂演習之不許	-13.3179
於庭故舞師於山川社稷四方旱暵之祭	-13.3179
桐為琴通禮纂曰堯使無句作琴五絃揚	-13.3179
洗東篚在洗西南肆	-13.3179
生有序循環無端十二律吕一以貫之此	-13.3179
磈	-13.3179
角吾黄鍾為商民無射為宫之林鍾為羽	-13.3179
言父子君臣長幼之道合徳音之致	-13.3179
􁕌	-13.3179
也孔子曰吾觀於鄉而知王道之易易也	-13.3179
譜而元志尤詳焉文舞武舞皆始	-13.3181
不謂之林而謂之函與易坤含	-13.3181
之清所出五聲二變度分之聲與實音相	-13.3181
天地之道寒暑不時則疾風雨不節則饑	-13.3181
正聲倍子而為母子聲半正而為子若黄	-13.3181
為均其子聲則四寸半三分損一下生林	-13.3181
之上聲所以紹五聲也自播之八音言之	-13.3181
卉	-13.3181
古人審定八音之樂各從其類	-13.3181
商吾夷則為宫民仲吕為羽之夾鍾為徴	-13.3181
均平也軌道也儀法也度律	-13.3181
宫吾夾鍾為羽民大吕為徴之無射為角	-13.3181
已有是譏矣荀朂復用其法而阮咸譏之	-13.3181
我馬維駰六轡既均載馳載驅周爰咨詢	-13.3181
民之風雨也事不節則無功然則先王之	-13.3181
法三分其法得一者八為八寸以為太簇	-13.3181
皇皇者華于彼原隰駪駪征夫每懐靡及	-13.3181
羽兮大吕為徴可無射為角以夷則為商	-13.3181
羽吾大吕為徴民無射為角之夷則為商	-13.3181
音也舜欲聞五聲八音在治忽概見於此	-13.3181
仲吕更相為宫凡六十也孔氏䟽曰黄	-13.3181
以三耦射豻侯一獲一容樂以采蘩五節	-13.3182
八月建焉而辰在壽星	-13.3182
梨	-13.3182
囀	-13.3182
一聲鼓是也惟我國朝太常雅樂	-13.3182
三聲而間之以搏拊此與宋元之制不同	-13.3182
中然皆不可考也由此觀之投壺鼓譜疎	-13.3182
亦非間若一矣宋元樂舞皆有	-13.3182
志所謂三鼓畢間聲作下有小註云二聲	-13.3182
蕤賔即正調林鍾夷則即縵宫南吕無射	-13.3182
鼓一聲歌用四言八句共計三十二字凡	-13.3182
九寸廣二尺尾長一尺八寸廣一尺六寸	-13.3182
戈則器也所以示事止則象也所以示志	-13.3182
曰五行房中曰壽人衣服同五行樂之色	-13.3182
猶儀禮以幣侑食也三侑之樂皆令奏	-13.3182
行立則無暴亂之禍而國安矣其	-13.3182
三十九嵗之章數黄鐘之實也繇此之義	-13.3182
鍾下有角南吕下有徴字晉志	-13.3182
八千九百四十八萬七千三百一十六南	-13.3182
南吕為之合凡此宫之旋而在天者也	-13.3182
又何候乎況午月以後陽氣	-13.3182
商兮大吕為宫可無射為羽以夷則為徴	-13.3182
宫吾林鍾為羽民仲吕為徴之太蔟為角	-13.3182
建卯月夾鍾均操縵夾鍾之宫在第	-13.3182
管候子月冬至之氣餘月則否何以知之	-13.3182
羽兮仲吕為徴可太蔟為角以黄鍾為商	-13.3182
莫莫是刈是濩為絺為綌服之無斁	-13.3182
藏挾伎雜旋伎弄槍伎蹵瓶伎擎戴伎	-13.3182
角吾夾鍾為商民大吕為宫之無射為羽	-13.3182
賂減銅者而言也然則朴以夾鍾為黄鍾	-13.3182
世異異音音異異政夫豈聲音自與政通	-13.3182
之矣治亂言政不言民亡國言民不言政	-13.3182
也人心終不滅樂亦竟不亡患在律	-13.3182
今按習所且以太常半竅法起間聲	-13.3182
六官之屬各以其類然有非其類而列之	-13.3182
六詩之歌以役大師此之謂也周之	-13.3182
刑罰不中則民無所措手足	-13.3182
則古今雅俗一以貫之矣無射倍聲為均	-13.3182
卒洗揖讓升賔西階上疑立	-13.3182
司射庭長及冠士立者皆屬	-13.3182
囗	-13.3182
如工師之聰有以識夫中正和平之音矣	-13.3182
子夏之於君夫豈以其不能而遂賊之邪	-13.3182
宫懸甫接徵招可聽	-13.3182
弦之琴瑟歌之詩頌則中聲所止無非盛	-13.3182
惟精惟一允執厥中	-13.3182
故言君臣位事之體也五聲之本生於黄	-13.3182
為之本以六律為之音瞽矇掌鼓琴瑟九	-13.3182
為宫又不過三以備中聲而已蓋天以	-13.3182
無所考據請復用和峴舊樂詔悉仍舊制	-13.3182
無治亂自封域以論國未	-13.3182
王大邦受帝祉施孫子如此其盛者貊其	-13.3182
略郤是要𦂳處如説律數	-13.3182
紀於一協於十長於百大於千衍於萬	-13.3182
角無所陵犯故不必避或云宜	-13.3182
語曰政象樂亦斯意歟自繼代以論世未	-13.3182
非其所作者也大者尺有四寸隂數也其	-13.3182
音之樂邪周官大師掌教六詩以六	-13.3182
音故也魏文侯果能放溺而好	-13.3182
㑹特徑數自八毫以下非可細分而算法	-13.3182
三代之樂既壞於秦漢漢至成帝	-13.3182
不可依用謹攷舊文再造景表尺一校漢	-13.3182
冬之氣也先王作樂擊之以為磬之屬焉	-13.3182
十七枚上進而高若訥卒	-13.3182
咸池象地用水起大吕之羽以	-13.3182
圍九分其餘皆稍短惟大小圍數無増減	-13.3182
士譁而讙羣趨而動有進衆之義焉此聽	-13.3182
帝以土徳王雲門象天用火起	-13.3182
感於物而後動是故先王慎所以感之者	-13.3182
投壺之禮如此則魯薛之詳亦不是過也	-13.3182
曰黄鍾商姑洗曰黄鍾角林鍾曰黄鍾	-13.3182
治人之道莫急於禮禮有五經莫重於祭	-13.3182
社稷事乎山川鬼神則此所與民同也	-13.3182
耳目鼻口心知百體皆由順正以行其義	-13.3182
逭	-13.3182
十二徽象十二月中之第七徽象閏	-13.3183
狭	-13.3184
古人謂之平調今琴家俗譜以第一弦	-13.3184
一寸九分七釐九毫七絲七忽四微	-13.3184
之聲亦不難定世自有知音者將上	-13.3184
一陽之謂道天法道其數參而竒雖主乎	-13.3184
使晏龍作之瑟一也或謂朱襄氏使士	-13.3184
商吾㽔賔為宫民夾鍾為羽之大吕為徴	-13.3184
宫兮夾鍾為羽可大吕為徴以無射為角	-13.3184
宫吾大吕為羽民應鍾為徴之夷則為角	-13.3184
樂過則聲淫中則聲和垂之和	-13.3184
此聽其聲所以思志義之臣也竽笙簫管	-13.3184
母氏聖善以氏配親言告師氏以氏配尊	-13.3184
終於中吕以從十二母相生之法故黄	-13.3184
賓簫大吕簫再作應鐘拊再作大吕	-13.3184
䟽曰凡律空圍九分月令章句曰圍數無	-13.3184
以上文所載應鍾倍律之數十寸五分有	-13.3184
其風閶闔其聲尚羽其音則鏗立秋之氣	-13.3184
及杜佑通典法推之定為此數	-13.3184
商吾仲吕為宫民太蔟為羽之黄鍾為徴	-13.3184
商吾姑洗為宫民大吕為羽之應鍾為徴	-13.3184
圜之其徑當一尺四寸有竒也庣旁九	-13.3184
宫兮大吕為羽可應鍾為徴以夷則為角	-13.3184
徴吾黄鍾為角民無射為商之夷則為宫	-13.3184
怗懘之音矣宫亂則荒其君驕商亂則	-13.3184
我馬維駒六轡如濡載馳載驅周爰咨諏	-13.3184
摩鑢其旁𤣥謂太上聲清也薄而廣則濁	-13.3184
於塗炭而澤之故伊尹為之作濩焉武王	-13.3184
有酒如澠有肉如陵寡人中此與君代興	-13.3184
槩爾故前代制尺非特累黍	-13.3184
樂心感者其聲嘽以緩其喜心感者其聲	-13.3184
正六律而使之和聲和五聲而使之	-13.3184
皆如此率而世俗之説乃去之字謂太	-13.3184
矇瞍奏公而已然則文王之樂豈不原於	-13.3184
而居陽方亦必再倍其數則為	-13.3184
造太府尺也然則太府尺竟不知何人所	-13.3184
避以今審之未見其所謂陵犯也	-13.3184
音之器也小者不窕大者不槬則和	-13.3184
音邪且王季以一諸侯之㣲卒能比	-13.3184
出于蘇祗婆之琵琶大食小食般涉	-13.3185
其上安金銅仰陽以鷺鷥	-13.3185
唳	-13.3185
悲帝禁不止故破其瑟為二十五弦於是	-13.3185
早晚灰飛有多少其説又不一也	-13.3185
樂九成九變故也武樂六成六變故也周	-13.3185
以戒號鄭氏皆謂鼓之以鼖鼔然鼖雖	-13.3185
以羅縠覆律口氣至吹灰動縠	-13.3185
桓武志也言武志則講武其事也大武之	-13.3185
氣至者灰去又云以竹莩灰實律	-13.3185
皆先武後文者蓋堯舜揖遜其舞先干	-13.3185
二人服亦如之各執紅纓之旄樂奏周南	-13.3185
二曲使繆襲為詞述以功徳言代漢之意	-13.3185
凡樂掌其序事治其樂政凡	-13.3185
孫思邈從而用之孫氏生於隋	-13.3185
手持黒漆斧舞為干城腹心發揚蹈厲之	-13.3185
異同既云以木為案加律其上又云埋之	-13.3185
高上陵將進酒君馬黄芳樹有所思雉子	-13.3185
𫐠	-13.3185
九功惟敘九敘惟歌	-13.3185
以其義鼓之欲樂則樂欲悲則悲雖有暴	-13.3185
以氏配族哭於賜氏以氏配名不念伯氏	-13.3185
以黄鍾之管候之冬至之日氣至灰飛	-13.3185
冬讀書典書者詔之禮在瞽宗書在上庠	-13.3185
商吾夾鍾為宫民黄鍾為羽之無射為徴	-13.3185
徴吾無射為角民夷則為商之㽔賔為宫	-13.3185
曰閑夜寂以清長笛亮且鳴則長笛六孔	-13.3185
枕	-13.3185
歟尸子曰夫瑟二十五弦其僕人鼓之則	-13.3185
瀉	-13.3185
蔟散聲即無射七弦黄鍾為中吹	-13.3185
角兮夷則為商可㽔賔為宫以夾鍾為羽	-13.3185
調則政和國安亂則其國危在西域則婆	-13.3185
鏘倉倉然調則刑法不作威令行亂則其	-13.3185
非理變亂之耳若夫俗樂則不然也初無	-13.3185
㑹至尊執爵奏登歌十八曲食舉奏深夏	-13.3185
不成則禮樂不興禮樂不興則刑罰不中	-13.3185
之實音為仲吕散聲即大吕五弦姑洗為	-13.3185
之曰薛方士知禮矣然猶在君子之後乎	-13.3185
也今詩經樂譜諸器皆臚正聲此樂之合	-13.3185
以達六隂六陽之聲其制不過如此	-13.3185
俅	-13.3185
六十龠一萬一千五百一十銖四百八十	-13.3185
分一十二釐九十一毫九十一絲三十七	-13.3185
十年歲次元枵月旅應鍾	-13.3185
古者中和韶樂大典尊嚴行用此樂之宜	-13.3185
可歌無復樂崩之歎矣夫豈然哉	-13.3185
司正降復位使二人舉觶于賔	-13.3185
同其意大射擇士與祭欲以嚴其事故也	-13.3185
名不正則言不順言不順則事不成	-13.3185
四寸四分四釐四毫四絲四忽四微四纎	-13.3185
圍三寸陽數也小者尺有二寸則全於	-13.3185
埤	-13.3185
増減其蠟務與黄鍾律聲全	-13.3185
大架所用二十四枚應十二律倍聲	-13.3185
婦嗣之傷之可也樂之非也昔裴嘉有婚	-13.3185
彧	-13.3185
我私薄澣我衣害澣害否歸寧父母	-13.3185
我馬維駱六轡沃若載馳載驅周爰咨度	-13.3185
我馬維騏六轡如絲載馳載驅周爰咨謀	-13.3185
有所謂小祀故鼓人言祀百物之神	-13.3185
有所謂非小祀先聖先師非小祀也	-13.3185
末也柷之為器方二尺四寸深一尺八寸	-13.3185
橐	-13.3185
權與物均而生衡衡運生規規	-13.3185
為一釐則共得八釐餘數又約以	-13.3185
管或作筦詩曰磬筦將將是也或作琯	-13.3185
簡語以申琴之古今經俗之概而諸臣搜	-13.3185
簧刻鳳以為首左右各四竅左具黄鍾至	-13.3185
粗細必用積實加減八倍之法而後相應	-13.3185
而止之故也明則隂與陽通而可以通鼓	-13.3185
言告師氏言告言歸薄	-13.3185
近别之不可也簧之厚薄若一但以管孔	-13.3185
金也六分其金而錫居一焉謂紅銅六兩	-13.3185
除無不盡數耳夫律吕之理循環無端而	-13.3185
繼其聲也詩辭之外應更有疊字散聲以	-13.3186
者以苖民逆命故也湯武征伐其舞先武	-13.3187
乾則其行剛健而不䧟有别所以立辨不	-13.3187
是其説始於夏書而蔓衍於左	-13.3187
初意若以十解之尤簡易妙絶子一分	-13.3187
寧鉦也鄭康成曰鐲如小鐘軍行鳴之以	-13.3187
有二俗以定七始而以七統當之漢焦延	-13.3187
死此聽其聲所以思死封疆之臣也琴瑟	-13.3187
鍾又不用變半聲其實又二十八聲而已	-13.3187
也是楹鼓為一楹而四稜焉貫	-13.3187
禹成治水之大功而以臯陶作夏成湯能	-13.3187
羽兮應鍾為徴可夷則為角以蕤賔為商	-13.3187
若更揷一聲便拗了	-13.3187
三吕在隂無所増損其大吕夾鍾	-13.3187
也謂羽調為越調越乃羽之訛也俗名南	-13.3187
前志曰黄帝使伶倫自大夏之西昆侖之	-13.3187
大而短則聲疾而短聞小而長則聲舒而	-13.3187
宫吾仲吕為羽民夾鍾為徴之黄鍾為角	-13.3187
律命寸為億欲初學者知命法之變通云	-13.3187
必掌以鼓人者鼓為樂之君故也	-13.3187
有雅琴雅瑟頌琴頌瑟豈其聲合於雅頌	-13.3187
知音而何彼但不知律之名耳宜選精於	-13.3187
羽兮夾鍾為徴可黄鍾為角以無射為商	-13.3187
角兮林鍾為商可仲吕為宫以太蔟為羽	-13.3187
長短之齊以合六律六同之和而已左傳	-13.3187
隂數要皆有翹以通氣一孔	-13.3187
離附合恐非本真今姑存之不足深究也	-13.3187
鼓朄管乃作也特言管者貴人氣也	-13.3187
故七弦之琴存之則有害古制削之	-13.3187
日獻玉帛奏納夏宴族	-13.3187
絃夷則清第十絃南吕中第二十	-13.3187
舜之作樂言拊詠於上言鼗	-13.3187
角者夷則為宫黄鍾之角者姑洗為角十	-13.3187
土鼓以瓦為匡以革為兩面	-13.3188
抒	-13.3188
椒	-13.3188
茵	-13.3188
乳依月律排之毎面石磬及編鍾各一架	-13.3189
射調蕤賔調緊二七即應鍾調俗謂二七	-13.3189
架各列編磬十二亦依律吕編之	-13.3189
捫	-13.3189
民惟邦本本固邦寧	-13.3189
昵	-13.3189
有小動大動不動三説又云灰飛	-13.3189
笙鼓二物天下通有之矣惟磬瑟或少耳	-13.3189
三物者亦必有時而敝則又總其法而著	-13.3189
下必以仁未嘗不欲緩故以臯	-13.3189
之其言守備則是及鼓役事則非矣	-13.3189
也或雜比成文或曲折成方雖當	-13.3189
人朴而武故也書言舞干羽于兩階樂記	-13.3189
先王貴禮樂而賤邪音其在序官也	-13.3189
役事上之所以役下警守下之所以事上	-13.3189
軍事諸侯執之以振旅要皆非警夜之鼜	-13.3189
通為大鼜夜半三通為晨戒平旦五通為	-13.3189
鏑	-13.3189
隂得尺内一寸陽得寸内九分	-13.3189
之三王莽銅斛於今尺為深九寸五分五	-13.3189
也北齊諸州鎮戍各給鼓吹	-13.3189
仲吕下有徴夷則下有商應鍾下有羽字	-13.3189
侍中繆襲又奏安世歌本漢時歌名今	-13.3189
六孔前一後四頭一月令仲夏之月調箎	-13.3189
則非周制矣宜圖童者服庶幾為得也	-13.3189
呦呦鹿鳴食野之芩我有嘉	-13.3189
如期石留務成立雲黄雀釣竿等曲列於	-13.3189
徴吾南吕為角民林鍾為商之仲吕為宫	-13.3189
怵	-13.3189
憫	-13.3189
應動無射而仲吕應和樂未有不興者矣	-13.3189
或謂大帝使素女鼓五十	-13.3189
時號為雅樂考之先王之制其不及逺矣	-13.3189
有后妃之義方今享先祖恐失禮意可改	-13.3189
為邦以禮樂為急樂以放鄭聲為先故	-13.3189
琴和樂且湛我有㫖酒以燕樂嘉	-13.3189
禮反其所自始樂章徳禮報情反始也	-13.3189
聲為商故為金奏所以佐陽發出滯伏也	-13.3189
聲譊譊然故以鐃名之説文曰鐃小鉦也	-13.3189
舞勺成童舞象二十而冠	-13.3189
良瑟則靜好一於尚宫而已未嘗不相須	-13.3189
雅之文王大明皆以祀先王頌之	-13.3189
不繫之神而繫之事者百物之神小祀也	-13.3189
世之妄者乃謂古今之人大小有異	-13.3189
世紀云文王復増二絃是七絃之琴實始	-13.3189
乃於天津街盛陳百戯	-13.3189
之次以復于初而得其齊而終有所不能	-13.3189
也甸師地事也屬之天官以	-13.3189
亂則庶績隳在西域則沙臘也羽聲詡雨	-13.3189
何者以其無題刻也劉歆銅斛王莽	-13.3189
制非竅而為五以合五聲必竅而為六以	-13.3189
十四調於是乎泯滅樂之缺壞無甚於今	-13.3189
増減其蠟務與林鍾律聲全	-13.3189
完也今夫琴者君子常御之樂蓋所以樂	-13.3189
幼則曰能正於樂人未能正於樂人	-13.3189
建未月林鍾均操縵林鍾之宫在第	-13.3189
徴不成徴凡二十四聲不可為調黄	-13.3189
成於東於西則金石先於土者以	-13.3189
所不善况取婦之家可舉樂乎	-13.3189
所主者耕王藉共粢盛	-13.3189
旋中鉤纍纍乎端如貫珠則繹如以成矣	-13.3189
時故陽常下生而有餘隂常上生而不足	-13.3189
晉之前尺前史稱其意精宻隋志所載諸	-13.3189
樂之象乎凡此雖瞽矇小師之職其帥而	-13.3189
樂記特原其始而已故其辨如此	-13.3189
氏川師原師之類亦地事也屬之夏官以	-13.3189
浴乎沂風乎舞雩詠而歸	-13.3189
湄	-13.3189
瑟帝悲不能禁因破為二十五	-13.3189
百一十四寸二百六十九分六百八十釐	-13.3189
節文斯二者是也樂之實樂斯二者是也	-13.3189
簫編小竹管如今賣餳者所吹	-13.3189
而大衍虚其五之意也由是觀之樂	-13.3189
而樂經亡矣樂經亡則禮素而詩	-13.3189
聲長非仲吕三分去一之次故用子聲為	-13.3189
菰	-13.3189
調則四民安亂則其人怨在西	-13.3189
豈鄭氏傅㑹漢得石磬十六而妄為之說	-13.3189
起於六十律旋宫之言非古制也豈京房	-13.3189
遇乎物可詠者詠之可傷者傷之大	-13.3189
不留聰明淫樂慝禮不接心術惰慢邪	-13.3189
之如隊曲則屈之如折止則立如	-13.3189
仲儒不量庸昧竊有意焉遂竭愚思	-13.3189
偏矣及夫敦樂而無憂禮備而不偏者其	-13.3189
六分竒乃少一百七十三分竒如此則黄	-13.3189
善其知禮而不善其不預告之也雖然	-13.3189
學歌不許混亂務要精熟用志不分乃	-13.3189
定宫雖移而律不移是故黄鍾之音常居	-13.3189
楊傑所譏之失矣尚何琴譜之足云	-13.3189
樂未著祖宗之事八音調均又不協	-13.3189
絃南吕清第十一絃無射中第二十	-13.3189
而後和焉故虞書樂記國語之論八音皆	-13.3189
肢	-13.3189
覽司馬彪所撰續漢書見京房	-13.3189
逺人用之大蜡足以作動物	-13.3189
□􁕘□􁕙□□􁕙□□􁕘□􁕙□	-13.319
夾鐘為之合夾鐘一名圜鐘先祖謂先	-13.319
之全度則為角聲六十四之分必按	-13.319
十一月成於立春象萬物萌出於土中是	-13.319
土王四季所言非主正位六月而言亦	-13.319
簡而不煩易而不難可以家傳	-13.319
者所以節樂也無則以缶代之史記趙王	-13.319
塤對而吹之尤協律清和可謂善矣誠去	-13.319
至皇祐中聖制頌塤調習聲韻並合鐘律	-13.319
㽔賓所以安靖神人獻酬交酢也	-13.319
䇾簫筊簫也篴即横笛也管即律吕管也	-13.319
[...]
